<unk>	0
<s>	0
</s>	0
<0x00>	0
<0x01>	0
<0x02>	0
<0x03>	0
<0x04>	0
<0x05>	0
<0x06>	0
<0x07>	0
<0x08>	0
<0x09>	0
<0x0A>	0
<0x0B>	0
<0x0C>	0
<0x0D>	0
<0x0E>	0
<0x0F>	0
<0x10>	0
<0x11>	0
<0x12>	0
<0x13>	0
<0x14>	0
<0x15>	0
<0x16>	0
<0x17>	0
<0x18>	0
<0x19>	0
<0x1A>	0
<0x1B>	0
<0x1C>	0
<0x1D>	0
<0x1E>	0
<0x1F>	0
<0x20>	0
<0x21>	0
<0x22>	0
<0x23>	0
<0x24>	0
<0x25>	0
<0x26>	0
<0x27>	0
<0x28>	0
<0x29>	0
<0x2A>	0
<0x2B>	0
<0x2C>	0
<0x2D>	0
<0x2E>	0
<0x2F>	0
<0x30>	0
<0x31>	0
<0x32>	0
<0x33>	0
<0x34>	0
<0x35>	0
<0x36>	0
<0x37>	0
<0x38>	0
<0x39>	0
<0x3A>	0
<0x3B>	0
<0x3C>	0
<0x3D>	0
<0x3E>	0
<0x3F>	0
<0x40>	0
<0x41>	0
<0x42>	0
<0x43>	0
<0x44>	0
<0x45>	0
<0x46>	0
<0x47>	0
<0x48>	0
<0x49>	0
<0x4A>	0
<0x4B>	0
<0x4C>	0
<0x4D>	0
<0x4E>	0
<0x4F>	0
<0x50>	0
<0x51>	0
<0x52>	0
<0x53>	0
<0x54>	0
<0x55>	0
<0x56>	0
<0x57>	0
<0x58>	0
<0x59>	0
<0x5A>	0
<0x5B>	0
<0x5C>	0
<0x5D>	0
<0x5E>	0
<0x5F>	0
<0x60>	0
<0x61>	0
<0x62>	0
<0x63>	0
<0x64>	0
<0x65>	0
<0x66>	0
<0x67>	0
<0x68>	0
<0x69>	0
<0x6A>	0
<0x6B>	0
<0x6C>	0
<0x6D>	0
<0x6E>	0
<0x6F>	0
<0x70>	0
<0x71>	0
<0x72>	0
<0x73>	0
<0x74>	0
<0x75>	0
<0x76>	0
<0x77>	0
<0x78>	0
<0x79>	0
<0x7A>	0
<0x7B>	0
<0x7C>	0
<0x7D>	0
<0x7E>	0
<0x7F>	0
<0x80>	0
<0x81>	0
<0x82>	0
<0x83>	0
<0x84>	0
<0x85>	0
<0x86>	0
<0x87>	0
<0x88>	0
<0x89>	0
<0x8A>	0
<0x8B>	0
<0x8C>	0
<0x8D>	0
<0x8E>	0
<0x8F>	0
<0x90>	0
<0x91>	0
<0x92>	0
<0x93>	0
<0x94>	0
<0x95>	0
<0x96>	0
<0x97>	0
<0x98>	0
<0x99>	0
<0x9A>	0
<0x9B>	0
<0x9C>	0
<0x9D>	0
<0x9E>	0
<0x9F>	0
<0xA0>	0
<0xA1>	0
<0xA2>	0
<0xA3>	0
<0xA4>	0
<0xA5>	0
<0xA6>	0
<0xA7>	0
<0xA8>	0
<0xA9>	0
<0xAA>	0
<0xAB>	0
<0xAC>	0
<0xAD>	0
<0xAE>	0
<0xAF>	0
<0xB0>	0
<0xB1>	0
<0xB2>	0
<0xB3>	0
<0xB4>	0
<0xB5>	0
<0xB6>	0
<0xB7>	0
<0xB8>	0
<0xB9>	0
<0xBA>	0
<0xBB>	0
<0xBC>	0
<0xBD>	0
<0xBE>	0
<0xBF>	0
<0xC0>	0
<0xC1>	0
<0xC2>	0
<0xC3>	0
<0xC4>	0
<0xC5>	0
<0xC6>	0
<0xC7>	0
<0xC8>	0
<0xC9>	0
<0xCA>	0
<0xCB>	0
<0xCC>	0
<0xCD>	0
<0xCE>	0
<0xCF>	0
<0xD0>	0
<0xD1>	0
<0xD2>	0
<0xD3>	0
<0xD4>	0
<0xD5>	0
<0xD6>	0
<0xD7>	0
<0xD8>	0
<0xD9>	0
<0xDA>	0
<0xDB>	0
<0xDC>	0
<0xDD>	0
<0xDE>	0
<0xDF>	0
<0xE0>	0
<0xE1>	0
<0xE2>	0
<0xE3>	0
<0xE4>	0
<0xE5>	0
<0xE6>	0
<0xE7>	0
<0xE8>	0
<0xE9>	0
<0xEA>	0
<0xEB>	0
<0xEC>	0
<0xED>	0
<0xEE>	0
<0xEF>	0
<0xF0>	0
<0xF1>	0
<0xF2>	0
<0xF3>	0
<0xF4>	0
<0xF5>	0
<0xF6>	0
<0xF7>	0
<0xF8>	0
<0xF9>	0
<0xFA>	0
<0xFB>	0
<0xFC>	0
<0xFD>	0
<0xFE>	0
<0xFF>	0
ta	-0
▁ta	-1
ti	-2
li	-3
on	-4
▁i	-5
għ	-6
en	-7
ji	-8
▁m	-9
ra	-10
jon	-11
ri	-12
▁f	-13
joni	-14
zz	-15
▁l	-16
et	-17
▁tal	-18
għa	-19
ll	-20
in	-21
ja	-22
▁u	-23
▁li	-24
▁s	-25
er	-26
▁għa	-27
ar	-28
zzjoni	-29
▁k	-30
is	-31
▁b	-32
▁d	-33
ro	-34
un	-35
▁ji	-36
an	-37
▁p	-38
ka	-39
▁j	-40
il	-41
or	-42
es	-43
em	-44
▁il	-45
om	-46
la	-47
jiet	-48
tu	-49
di	-50
men	-51
▁a	-52
▁t	-53
si	-54
ew	-55
re	-56
▁ti	-57
ċi	-58
▁I	-59
pp	-60
lu	-61
ko	-62
▁ma	-63
ie	-64
wa	-65
um	-66
▁(	-67
da	-68
ħa	-69
bb	-70
du	-71
ru	-72
ment	-73
▁in	-74
ej	-75
▁mi	-76
fi	-77
kon	-78
20	-79
ġi	-80
sta	-81
kun	-82
▁h	-83
vi	-84
va	-85
mi	-86
na	-87
ma	-88
el	-89
ju	-90
tti	-91
▁għall	-92
▁għan	-93
żi	-94
▁M	-95
▁min	-96
tà	-97
▁jew	-98
▁fil	-99
hom	-100
eg	-101
ek	-102
▁1	-103
qa	-104
ha	-105
war	-106
ali	-107
enti	-108
pe	-109
aw	-110
ist	-111
uq	-112
ess	-113
▁fi	-114
▁għal	-115
iex	-116
pa	-117
▁L	-118
ku	-119
enz	-120
ni	-121
▁mill	-122
pro	-123
▁E	-124
zzjonijiet	-125
tt	-126
iss	-127
st	-128
▁S	-129
ss	-130
▁fl	-131
bbli	-132
ed	-133
▁għand	-134
▁minn	-135
etti	-136
ża	-137
▁ġ	-138
mp	-139
▁Il	-140
ter	-141
ba	-142
▁dwar	-143
tra	-144
▁ki	-145
po	-146
▁20	-147
▁o	-148
▁F	-149
▁fuq	-150
tiko	-151
te	-152
ol	-153
ġġ	-154
od	-155
▁D	-156
▁e	-157
▁pro	-158
bi	-159
tar	-160
fa	-161
eħ	-162
▁A	-163
emb	-164
ola	-165
for	-166
to	-167
ejn	-168
ija	-169
sa	-170
▁n	-171
▁tagħ	-172
koll	-173
ekk	-174
wro	-175
▁tas	-176
▁jin	-177
Kum	-178
uni	-179
do	-180
fika	-181
ul	-182
▁tat	-183
ett	-184
xx	-185
issjoni	-186
wi	-187
▁kon	-188
▁sa	-189
▁ir	-190
▁biex	-191
▁K	-192
ssi	-193
ir	-194
▁r	-195
zza	-196
▁T	-197
għu	-198
rtiko	-199
▁id	-200
▁ri	-201
▁re	-202
▁2	-203
▁Ewro	-204
▁ja	-205
▁P	-206
jali	-207
▁N	-208
enza	-209
ff	-210
kont	-211
sti	-212
missjoni	-213
▁B	-214
turi	-215
ur	-216
▁x	-217
rtikolu	-218
ċċ	-219
tta	-220
jonali	-221
▁tar	-222
Kummissjoni	-223
▁jkun	-224
▁ż	-225
▁tad	-226
gra	-227
jar	-228
▁ko	-229
mm	-230
ini	-231
▁G	-232
żjoni	-233
▁għandhom	-234
ell	-235
UE	-236
emm	-237
uma	-238
Reg	-239
oli	-240
kk	-241
klu	-242
żu	-243
ktar	-244
Artikolu	-245
▁per	-246
▁it	-247
▁is	-248
Regola	-249
▁Memb	-250
ġu	-251
Ista	-252
era	-253
id	-254
tazzjoni	-255
▁wa	-256
tajiet	-257
▁3	-258
ina	-259
eri	-260
tur	-261
ani	-262
ent	-263
Regolament	-264
ga	-265
▁bħa	-266
ppli	-267
▁għandu	-268
▁hu	-269
per	-270
ppro	-271
zzjonali	-272
tat	-273
▁lill	-274
▁daw	-275
anz	-276
eta	-277
KE	-278
▁dan	-279
▁mal	-280
ttivi	-281
▁bil	-282
sp	-283
ux	-284
▁di	-285
▁kif	-286
forma	-287
arti	-288
▁mh	-289
ili	-290
▁w	-291
tura	-292
bu	-293
al	-294
▁q	-295
ħra	-296
ran	-297
oni	-298
pplika	-299
eġ	-300
mu	-301
pi	-302
tori	-303
tati	-304
▁kom	-305
▁huma	-306
▁201	-307
eb	-308
▁tie	-309
mod	-310
▁kien	-311
ċer	-312
▁so	-313
▁huwa	-314
▁jiġu	-315
menti	-316
ura	-317
▁għandha	-318
anti	-319
est	-320
bbili	-321
200	-322
ema	-323
su	-324
lo	-325
▁ħ	-326
Un	-327
▁4	-328
▁pa	-329
▁ikun	-330
▁200	-331
pera	-332
▁fis	-333
▁’	-334
▁se	-335
im	-336
Unjoni	-337
de	-338
▁sta	-339
▁koll	-340
unsi	-341
me	-342
▁C	-343
▁Membri	-344
wali	-345
unsill	-346
▁J	-347
Kunsill	-348
jo	-349
esti	-350
ċjali	-351
201	-352
Istati	-353
▁Ewrop	-354
▁5	-355
ettiva	-356
▁jista	-357
▁tkun	-358
▁Nru	-359
▁jiġi	-360
ffi	-361
inanz	-362
▁qa	-363
▁R	-364
).	-365
▁skont	-366
▁im	-367
imp	-368
▁tin	-369
▁tagħhom	-370
biex	-371
▁oħra	-372
ki	-373
▁aktar	-374
ver	-375
▁na	-376
▁mhux	-377
jn	-378
xxi	-379
qas	-380
ull	-381
etta	-382
▁ħa	-383
▁ra	-384
eni	-385
),	-386
zzi	-387
▁bħala	-388
dan	-389
ubbli	-390
-1	-391
▁imp	-392
▁bi	-393
tieġ	-394
tan	-395
▁inter	-396
para	-397
fu	-398
kom	-399
pea	-400
00	-401
edu	-402
▁g	-403
ejj	-404
▁jekk	-405
▁Ewropea	-406
▁spe	-407
▁su	-408
▁hija	-409
▁v	-410
ċiżjoni	-411
eż	-412
ogħ	-413
▁Ewropew	-414
formazzjoni	-415
▁kollha	-416
▁jist	-417
▁jit	-418
▁sabiex	-419
ddi	-420
ort	-421
le	-422
jenti	-423
ervi	-424
▁din	-425
kw	-426
tali	-427
▁jistgħu	-428
una	-429
edi	-430
jji	-431
gura	-432
Dir	-433
▁H	-434
▁pre	-435
▁meta	-436
vil	-437
▁taħ	-438
▁ba	-439
▁dawn	-440
▁fir	-441
▁bejn	-442
gwar	-443
..	-444
limen	-445
tor	-446
▁wara	-447
▁tiġi	-448
▁-	-449
▁tiegħu	-450
upp	-451
▁ukoll	-452
▁kull	-453
▁par	-454
esp	-455
▁an	-456
vilupp	-457
ara	-458
za	-459
▁jir	-460
tika	-461
▁da	-462
rin	-463
▁“	-464
▁6	-465
▁Għa	-466
valu	-467
at	-468
pre	-469
ġija	-470
dotti	-471
gward	-472
▁iż	-473
jan	-474
Direttiva	-475
awtori	-476
nn	-477
▁stabbili	-478
opera	-479
▁tista	-480
aħ	-481
pożi	-482
isp	-483
bba	-484
▁jik	-485
bbil	-486
pr	-487
eħtieġ	-488
fer	-489
▁In	-490
▁U	-491
essi	-492
mb	-493
żuri	-494
▁fit	-495
ut	-496
▁tagħha	-497
ati	-498
▁finanz	-499
▁de	-500
stan	-501
▁po	-502
dd	-503
ump	-504
istra	-505
bel	-506
.1	-507
erm	-508
lari	-509
sk	-510
▁[	-511
zi	-512
żen	-513
ttiva	-514
mezz	-515
omi	-516
enera	-517
ħar	-518
▁Ma	-519
iż	-520
▁fejn	-521
▁hemm	-522
▁si	-523
▁indi	-524
riż	-525
▁Ġ	-526
zzazzjoni	-527
ena	-528
ista	-529
wal	-530
sem	-531
dar	-532
sist	-533
suq	-534
isti	-535
▁tra	-536
▁O	-537
omuni	-538
qq	-539
rapp	-540
proċ	-541
▁jkunu	-542
▁ċ	-543
formi	-544
▁9	-545
▁ka	-546
▁dawk	-547
arra	-548
▁8	-549
▁għat	-550
qu	-551
kazzjoni	-552
tul	-553
▁speċi	-554
▁bl	-555
ego	-556
lin	-557
▁nazzjonali	-558
▁permezz	-559
taw	-560
▁ġej	-561
▁7	-562
oti	-563
emi	-564
ieħ	-565
kri	-566
embru	-567
▁xi	-568
vell	-569
▁inklu	-570
▁qed	-571
inali	-572
▁finanzjar	-573
kons	-574
għan	-575
bbiltà	-576
anda	-577
vesti	-578
semmi	-579
▁V	-580
▁partiko	-581
▁do	-582
tro	-583
kar	-584
nness	-585
mien	-586
▁tan	-587
teh	-588
paragra	-589
qt	-590
▁mar	-591
oġġ	-592
/200	-593
użu	-594
unt	-595
▁jagħ	-596
ord	-597
ċja	-598
ċip	-599
ervizzi	-600
jr	-601
limentazzjoni	-602
dis	-603
tal	-604
▁taħt	-605
mer	-606
▁Ir	-607
▁qabel	-608
jonijiet	-609
▁ikunu	-610
sid	-611
▁%	-612
ttiv	-613
-2	-614
▁komp	-615
rigward	-616
arla	-617
gola	-618
▁»	-619
▁.	-620
rija	-621
ffer	-622
hekk	-623
▁10	-624
emen	-625
Anness	-626
▁applika	-627
▁meħtieġ	-628
kwi	-629
ieħed	-630
pri	-631
riġ	-632
▁lil	-633
▁biss	-634
▁st	-635
▁Membru	-636
lim	-637
▁wkoll	-638
▁għ	-639
Parla	-640
▁Id	-641
▁el	-642
olu	-643
eww	-644
Parlament	-645
jodu	-646
▁aw	-647
konomi	-648
eħħ	-649
gani	-650
▁ser	-651
orti	-652
ens	-653
▁partikolari	-654
mar	-655
mo	-656
▁għad	-657
ħħa	-658
▁pers	-659
▁mil	-660
paragrafu	-661
▁wieħed	-662
▁W	-663
zjenti	-664
▁fid	-665
▁Dan	-666
data	-667
▁0	-668
▁għas	-669
fini	-670
pprov	-671
▁to	-672
ene	-673
enerali	-674
awn	-675
gur	-676
tud	-677
lazzjoni	-678
dri	-679
tehim	-680
Istat	-681
▁Għal	-682
jjiżi	-683
ttura	-684
▁tiegħ	-685
dotta	-686
ewwel	-687
▁pubbli	-688
eċiżjoni	-689
parti	-690
olo	-691
▁magħ	-692
ppre	-693
tip	-694
dizzjonijiet	-695
▁parti	-696
▁tit	-697
ef	-698
orta	-699
din	-700
jin	-701
jun	-702
ssa	-703
▁kun	-704
vel	-705
▁es	-706
val	-707
organi	-708
▁ik	-709
ppoġġ	-710
jnuna	-711
ost	-712
zja	-713
kunsid	-714
▁jid	-715
min	-716
ċerti	-717
enzjoni	-718
mali	-719
▁–	-720
ona	-721
▁jkoll	-722
▁It	-723
▁fa	-724
kwe	-725
/201	-726
każ	-727
▁jiż	-728
▁billi	-729
walun	-730
vv	-731
kor	-732
▁eff	-733
walunkwe	-734
▁,	-735
▁tiegħek	-736
gurtà	-737
▁kontra	-738
formità	-739
lla	-740
entra	-741
naqq	-742
/1	-743
▁għar	-744
qs	-745
did	-746
għajr	-747
duzzjoni	-748
rati	-749
awtoritajiet	-750
▁mg	-751
liet	-752
tuża	-753
ress	-754
ħabba	-755
▁Is	-756
goli	-757
▁TA	-758
sir	-759
dott	-760
ogħol	-761
mmon	-762
rupp	-763
qi	-764
▁dak	-765
▁ter	-766
vazzjoni	-767
fna	-768
▁waħ	-769
▁rela	-770
età	-771
▁kienu	-772
▁informazzjoni	-773
-201	-774
1)	-775
set	-776
ħi	-777
itat	-778
vid	-779
Deċiżjoni	-780
gu	-781
kkom	-782
▁c	-783
▁ġew	-784
uro	-785
▁Jekk	-786
▁kwalunkwe	-787
lev	-788
ċċess	-789
▁komuni	-790
semmija	-791
livell	-792
oka	-793
erġija	-794
ċerna	-795
lment	-796
▁Di	-797
istess	-798
UR	-799
riżul	-800
ummer	-801
.2	-802
liġi	-803
▁19	-804
informazzjoni	-805
gramm	-806
▁ġi	-807
kwiżi	-808
▁bħal	-809
ev	-810
ġa	-811
sistema	-812
tin	-813
▁tek	-814
bar	-815
fikazzjoni	-816
jent	-817
rinċip	-818
enzi	-819
so	-820
isponi	-821
razzjoni	-822
▁mingħajr	-823
▁tik	-824
pubbli	-825
skju	-826
nazzjonali	-827
▁prodotti	-828
tri	-829
aj	-830
▁kemm	-831
pin	-832
no	-833
proċedu	-834
ON	-835
eħu	-836
applika	-837
għata	-838
▁12	-839
iżvilupp	-840
reġ	-841
ffiċ	-842
levanti	-843
mmin	-844
attivi	-845
jati	-846
miżuri	-847
xxa	-848
res	-849
lità	-850
-200	-851
and	-852
▁pri	-853
xxu	-854
▁ekonomi	-855
kien	-856
ing	-857
Kumitat	-858
sso	-859
▁tax	-860
ezzjoni	-861
ch	-862
poli	-863
▁mad	-864
istru	-865
aq	-866
odda	-867
▁medi	-868
▁eż	-869
▁ġenerali	-870
tezzjoni	-871
tanti	-872
▁Fil	-873
tata	-874
daw	-875
unti	-876
ex	-877
komp	-878
▁żmien	-879
gi	-880
kunsidra	-881
test	-882
kli	-883
versi	-884
ttijiet	-885
konformità	-886
▁II	-887
konċerna	-888
posta	-889
ettivi	-890
mministra	-891
Komuni	-892
eħor	-893
wie	-894
▁ħafna	-895
▁'	-896
tturi	-897
fikati	-898
ewġ	-899
▁X	-900
▁waħda	-901
jament	-902
fas	-903
rif	-904
ejta	-905
pożizzjonijiet	-906
espon	-907
Pro	-908
ċess	-909
▁Kon	-910
int	-911
emp	-912
▁Din	-913
fikat	-914
jenza	-915
fiċi	-916
▁stabbiliti	-917
har	-918
kollu	-919
▁ieħor	-920
limkien	-921
saħħa	-922
inter	-923
SE	-924
▁dik	-925
ond	-926
▁ċi	-927
ratta	-928
kwiżiti	-929
kaw	-930
▁jo	-931
▁Pro	-932
ċità	-933
wazzjoni	-934
enerġija	-935
▁iżda	-936
kat	-937
inazzjoni	-938
2)	-939
esponsa	-940
▁tir	-941
▁att	-942
punt	-943
▁dis	-944
▁maħ	-945
▁minħabba	-946
▁kor	-947
għat	-948
stru	-949
għar	-950
isponibbli	-951
feri	-952
kludi	-953
met	-954
odi	-955
kontro	-956
▁poli	-957
operazzjoni	-958
jjiż	-959
jetà	-960
emenda	-961
egali	-962
▁Min	-963
tit	-964
▁"	-965
peti	-966
▁kienet	-967
▁Ċ	-968
żaw	-969
sam	-970
pers	-971
dem	-972
▁bażi	-973
uri	-974
▁disponibbli	-975
▁matul	-976
dust	-977
ħu	-978
▁ar	-979
implimentazzjoni	-980
iegħ	-981
▁regola	-982
▁japplika	-983
unz	-984
▁flimkien	-985
▁meħtieġa	-986
▁differ	-987
▁mit	-988
rib	-989
naqqis	-990
▁miżuri	-991
ot	-992
mel	-993
prodotti	-994
▁hekk	-995
▁awtori	-996
▁lejn	-997
▁soċjali	-998
▁rilevanti	-999
pen	-1000
▁kompet	-1001
ella	-1002
ferenza	-1003
se	-1004
▁ċerti	-1005
applikazzjoni	-1006
ok	-1007
stitu	-1008
▁taż	-1009
kkomanda	-1010
▁oħrajn	-1011
▁int	-1012
kemm	-1013
▁11	-1014
aħħar	-1015
dard	-1016
zju	-1017
▁għali	-1018
enefi	-1019
ula	-1020
enzjali	-1021
bbilixxi	-1022
Ewro	-1023
▁jipprov	-1024
▁Stat	-1025
▁adotta	-1026
.3	-1027
rali	-1028
investi	-1029
ħol	-1030
redi	-1031
nijiet	-1032
▁ew	-1033
risp	-1034
pożizzjoni	-1035
-3	-1036
▁ġejjin	-1037
eda	-1038
ejjeż	-1039
lli	-1040
▁tekni	-1041
orsi	-1042
xogħol	-1043
▁elett	-1044
....	-1045
▁15	-1046
regoli	-1047
umru	-1048
ann	-1049
▁13	-1050
▁inf	-1051
▁sist	-1052
ab	-1053
mani	-1054
odis	-1055
rid	-1056
▁iktar	-1057
aktar	-1058
viżjoni	-1059
kump	-1060
zzati	-1061
▁impor	-1062
lassi	-1063
ddiem	-1064
▁tran	-1065
▁&	-1066
ammon	-1067
fiss	-1068
▁kul	-1069
żijiet	-1070
servizzi	-1071
mmi	-1072
AT	-1073
▁kompetenti	-1074
rata	-1075
jen	-1076
waqt	-1077
▁msemmija	-1078
arja	-1079
rekwiżiti	-1080
torju	-1081
ant	-1082
ppreżen	-1083
sport	-1084
▁jipp	-1085
lob	-1086
ik	-1087
▁jib	-1088
▁taċ	-1089
valur	-1090
pport	-1091
kati	-1092
bid	-1093
▁mod	-1094
Ftehim	-1095
nin	-1096
żati	-1097
wer	-1098
AR	-1099
ebda	-1100
▁kli	-1101
ħul	-1102
▁appro	-1103
elf	-1104
▁dar	-1105
▁inklużi	-1106
▁Q	-1107
▁opera	-1108
seħħ	-1109
perjodu	-1110
ensi	-1111
▁for	-1112
dankollu	-1113
roni	-1114
▁internazzjonali	-1115
▁Uni	-1116
▁uni	-1117
estjoni	-1118
nego	-1119
ES	-1120
ġġetti	-1121
stanzi	-1122
erva	-1123
ondi	-1124
egħ	-1125
▁sal	-1126
ega	-1127
ET	-1128
(1)	-1129
ttament	-1130
ieda	-1131
▁reġ	-1132
oħra	-1133
▁Fl	-1134
kanti	-1135
kond	-1136
▁mis	-1137
Tratta	-1138
▁finanzjarji	-1139
▁differenti	-1140
▁sena	-1141
▁dir	-1142
valutazzjoni	-1143
IS	-1144
tiċi	-1145
▁hawn	-1146
▁Sa	-1147
appro	-1148
jat	-1149
ov	-1150
len	-1151
▁sar	-1152
ċembru	-1153
▁mediċ	-1154
▁stru	-1155
▁waqt	-1156
ffa	-1157
eħdu	-1158
In	-1159
deċiżjoni	-1160
ajru	-1161
ffett	-1162
ana	-1163
os	-1164
▁legali	-1165
▁Għ	-1166
ill	-1167
▁qu	-1168
ċedu	-1169
it	-1170
amp	-1171
arju	-1172
raq	-1173
▁Komuni	-1174
obbli	-1175
▁ġie	-1176
jal	-1177
walità	-1178
żż	-1179
ċerka	-1180
ers	-1181
Ewropa	-1182
nimali	-1183
▁jiss	-1184
▁Ż	-1185
pajjiżi	-1186
żon	-1187
▁kons	-1188
▁kump	-1189
prodott	-1190
tie	-1191
▁sp	-1192
qies	-1193
▁EUR	-1194
us	-1195
assi	-1196
fisser	-1197
sit	-1198
bilità	-1199
ġġu	-1200
jieg	-1201
▁—	-1202
8/	-1203
am	-1204
▁mik	-1205
▁organi	-1206
▁attivi	-1207
▁servizzi	-1208
sena	-1209
kja	-1210
▁aħ	-1211
if	-1212
jum	-1213
politika	-1214
▁Artikolu	-1215
▁Barra	-1216
net	-1217
Aw	-1218
bil	-1219
▁med	-1220
▁Diċembru	-1221
▁kell	-1222
▁pazjenti	-1223
▁investi	-1224
riskju	-1225
ħall	-1226
▁esp	-1227
▁mid	-1228
.4	-1229
iel	-1230
Kon	-1231
tagħ	-1232
▁possi	-1233
sigurtà	-1234
Trattat	-1235
.5	-1236
▁relatati	-1237
flu	-1238
▁limi	-1239
▁kkunsidra	-1240
▁stud	-1241
saj	-1242
drittijiet	-1243
ġdid	-1244
xa	-1245
tub	-1246
qasam	-1247
▁quddiem	-1248
stit	-1249
TI	-1250
produzzjoni	-1251
ġen	-1252
ervizz	-1253
▁Meta	-1254
etturi	-1255
▁applikabbli	-1256
▁skond	-1257
▁speċifiċi	-1258
2,	-1259
▁kw	-1260
▁inkluż	-1261
▁ġodda	-1262
0,	-1263
4,	-1264
għajnuna	-1265
▁ni	-1266
ER	-1267
gri	-1268
3,	-1269
regola	-1270
3)	-1271
post	-1272
EN	-1273
Komunità	-1274
▁jiżgura	-1275
dida	-1276
▁prev	-1277
▁taj	-1278
awtorità	-1279
AL	-1280
▁jaq	-1281
▁ju	-1282
ratti	-1283
dika	-1284
xi	-1285
det	-1286
pazjenti	-1287
▁jint	-1288
settur	-1289
▁Ħ	-1290
▁vi	-1291
▁interess	-1292
volu	-1293
ġġi	-1294
▁barra	-1295
zzat	-1296
kundizzjonijiet	-1297
1,	-1298
nolo	-1299
▁madwar	-1300
jata	-1301
Qorti	-1302
▁tw	-1303
embri	-1304
kabb	-1305
rat	-1306
▁Madankollu	-1307
ħtieġ	-1308
uqqas	-1309
ob	-1310
▁finanzjarja	-1311
diċi	-1312
▁żgura	-1313
gazzjoni	-1314
partijiet	-1315
ribu	-1316
...	-1317
proċedura	-1318
isem	-1319
▁18	-1320
ata	-1321
ummerċjali	-1322
anali	-1323
essjoni	-1324
▁ġiet	-1325
patt	-1326
▁kontro	-1327
▁al	-1328
klużjoni	-1329
arte	-1330
▁fih	-1331
ssoċja	-1332
nie	-1333
ieraq	-1334
mir	-1335
▁Hu	-1336
ieri	-1337
▁riż	-1338
stitwi	-1339
▁amministra	-1340
grammi	-1341
kis	-1342
azzjonijiet	-1343
▁xieraq	-1344
attivitajiet	-1345
▁Wara	-1346
evi	-1347
▁ga	-1348
isk	-1349
ġiż	-1350
mlu	-1351
6/	-1352
posti	-1353
ispejjeż	-1354
▁addi	-1355
▁Ewropej	-1356
ks	-1357
resid	-1358
▁eċċ	-1359
▁tib	-1360
żat	-1361
entrali	-1362
man	-1363
ettiv	-1364
▁jkollhom	-1365
ammont	-1366
▁le	-1367
ekwi	-1368
art	-1369
odisfa	-1370
pinjoni	-1371
▁żvilupp	-1372
▁Dawn	-1373
sferi	-1374
6,	-1375
ttad	-1376
prinċip	-1377
dejta	-1378
juni	-1379
wida	-1380
velli	-1381
▁14	-1382
▁‘	-1383
vu	-1384
finanz	-1385
▁importanti	-1386
▁stabbilit	-1387
▁Pa	-1388
▁bid	-1389
▁mogħ	-1390
▁mir	-1391
istitu	-1392
▁2009	-1393
000	-1394
nu	-1395
por	-1396
▁25	-1397
las	-1398
kontroll	-1399
tolu	-1400
sin	-1401
ban	-1402
▁(1	-1403
moni	-1404
JON	-1405
denti	-1406
▁30	-1407
▁snin	-1408
anja	-1409
żonn	-1410
▁marbu	-1411
▁sost	-1412
tteri	-1413
▁doża	-1414
ħiħ	-1415
5/	-1416
ffiċjali	-1417
ĠU	-1418
▁la	-1419
4/	-1420
ċipa	-1421
▁responsa	-1422
wass	-1423
▁Li	-1424
fikanti	-1425
proċess	-1426
(2)	-1427
paċità	-1428
▁imm	-1429
▁pajjiżi	-1430
protezzjoni	-1431
med	-1432
kal	-1433
tiku	-1434
ejgħ	-1435
▁mogħti	-1436
je	-1437
umiex	-1438
▁filwaqt	-1439
pjan	-1440
ber	-1441
▁ppro	-1442
enefiċċ	-1443
▁tieħu	-1444
1/	-1445
▁totali	-1446
dritt	-1447
▁ewlen	-1448
▁Mar	-1449
▁sakemm	-1450
kura	-1451
of	-1452
torji	-1453
terji	-1454
doku	-1455
2/	-1456
AN	-1457
kabbir	-1458
▁possibbli	-1459
Parti	-1460
sijiet	-1461
▁tiż	-1462
tarju	-1463
inf	-1464
empju	-1465
indust	-1466
azzjoni	-1467
▁jintuża	-1468
KEE	-1469
▁identi	-1470
JONI	-1471
isa	-1472
egw	-1473
mma	-1474
one	-1475
IN	-1476
▁jgħ	-1477
▁appoġġ	-1478
▁inqas	-1479
bl	-1480
▁)	-1481
▁me	-1482
▁16	-1483
eskri	-1484
ZZ	-1485
▁sini	-1486
onali	-1487
denza	-1488
unju	-1489
8,	-1490
bażi	-1491
konsuma	-1492
trasport	-1493
Re	-1494
99	-1495
7,	-1496
fal	-1497
▁individ	-1498
programm	-1499
▁għol	-1500
zzijiet	-1501
rar	-1502
limi	-1503
3/	-1504
viż	-1505
BĊ	-1506
▁livell	-1507
KESE	-1508
għand	-1509
▁elettroni	-1510
7/	-1511
ejja	-1512
jja	-1513
vern	-1514
enzija	-1515
▁għalhekk	-1516
pubblika	-1517
peċi	-1518
mbjent	-1519
▁ini	-1520
pajjiż	-1521
ġenzija	-1522
osta	-1523
▁miż	-1524
ox	-1525
▁ann	-1526
▁għajnuna	-1527
▁jaħ	-1528
istenti	-1529
2.	-1530
ttur	-1531
tieni	-1532
▁lin	-1533
▁kummerċjali	-1534
5,	-1535
tari	-1536
reditu	-1537
▁jistabbilixxi	-1538
ement	-1539
rtikoli	-1540
venzjoni	-1541
▁ġu	-1542
▁massi	-1543
dħul	-1544
▁addizzjonali	-1545
tratt	-1546
tarja	-1547
▁proċedu	-1548
▁Huwa	-1549
▁Imp	-1550
terna	-1551
ad	-1552
▁hi	-1553
elli	-1554
otifika	-1555
zjali	-1556
vol	-1557
▁tingħata	-1558
ortazzjoni	-1559
▁kri	-1560
anija	-1561
tw	-1562
dards	-1563
arji	-1564
kompeti	-1565
kamb	-1566
▁jippro	-1567
ġuni	-1568
▁speċjali	-1569
jew	-1570
grupp	-1571
ttadini	-1572
ettal	-1573
app	-1574
wett	-1575
▁tfisser	-1576
għad	-1577
bib	-1578
emissjoni	-1579
kono	-1580
▁terzi	-1581
▁risp	-1582
hem	-1583
okali	-1584
▁sinifikanti	-1585
▁ass	-1586
▁japplikaw	-1587
raġġ	-1588
▁tid	-1589
kludu	-1590
▁Ta	-1591
ensjoni	-1592
zzazzjonijiet	-1593
zzata	-1594
ħħ	-1595
▁referenza	-1596
bija	-1597
essa	-1598
aniji	-1599
ce	-1600
▁stip	-1601
qabb	-1602
▁deċiżjoni	-1603
qqa	-1604
▁iċ	-1605
▁stipula	-1606
kul	-1607
Artikoli	-1608
tużaw	-1609
annar	-1610
ċili	-1611
żmu	-1612
biet	-1613
ettaq	-1614
ġit	-1615
▁defini	-1616
▁tali	-1617
istenza	-1618
industrija	-1619
AS	-1620
ikel	-1621
ejjed	-1622
sserva	-1623
stiċi	-1624
▁Ġunju	-1625
imi	-1626
ġetti	-1627
reġistra	-1628
struttura	-1629
▁stan	-1630
ck	-1631
▁Stati	-1632
▁all	-1633
qis	-1634
▁mist	-1635
▁17	-1636
mili	-1637
▁ad	-1638
żata	-1639
ci	-1640
IT	-1641
10	-1642
ve	-1643
qafas	-1644
dizzjoni	-1645
enn	-1646
taħ	-1647
teġija	-1648
defini	-1649
enni	-1650
mil	-1651
turali	-1652
1.	-1653
porz	-1654
ulju	-1655
▁użu	-1656
żewġ	-1657
▁Għalhekk	-1658
▁fihom	-1659
ħam	-1660
reżen	-1661
▁fost	-1662
egwi	-1663
urna	-1664
▁app	-1665
let	-1666
▁sistema	-1667
inqas	-1668
bir	-1669
idma	-1670
pru	-1671
mbjen	-1672
perti	-1673
▁pubbliku	-1674
▁Għall	-1675
mina	-1676
ġġett	-1677
vdu	-1678
sajd	-1679
istan	-1680
rezza	-1681
dikja	-1682
erazzjoni	-1683
▁bżonn	-1684
fiku	-1685
zu	-1686
produ	-1687
griko	-1688
▁jitqies	-1689
▁mater	-1690
ww	-1691
▁xa	-1692
▁Jannar	-1693
gurazzjoni	-1694
▁responsabbli	-1695
stanza	-1696
▁100	-1697
siru	-1698
all	-1699
mbjentali	-1700
annimali	-1701
manifa	-1702
IF	-1703
rappreżen	-1704
▁jagħmlu	-1705
ejju	-1706
proposta	-1707
żona	-1708
esta	-1709
ejji	-1710
rijiet	-1711
emissjonijiet	-1712
enut	-1713
bbażi	-1714
orvel	-1715
ġġusta	-1716
hi	-1717
▁persuni	-1718
her	-1719
mini	-1720
died	-1721
tarji	-1722
ummerċ	-1723
til	-1724
▁jintużaw	-1725
▁milli	-1726
▁miljun	-1727
9,	-1728
doża	-1729
rizz	-1730
kbar	-1731
zzja	-1732
piż	-1733
euro	-1734
▁sub	-1735
▁personali	-1736
4)	-1737
Ka	-1738
kurezza	-1739
▁jinkludu	-1740
erifika	-1741
ħaq	-1742
▁klini	-1743
▁simili	-1744
erqa	-1745
tubru	-1746
ttubru	-1747
▁lokali	-1748
kwist	-1749
rapport	-1750
▁eżistenti	-1751
▁tnaqqis	-1752
▁fiha	-1753
fass	-1754
ħin	-1755
jarji	-1756
ffiċjenti	-1757
ank	-1758
▁va	-1759
ġestjoni	-1760
mula	-1761
sistemi	-1762
fil	-1763
▁mhumiex	-1764
▁sk	-1765
▁inti	-1766
odu	-1767
janza	-1768
oluzzjoni	-1769
pati	-1770
▁nor	-1771
ekkani	-1772
▁kontroll	-1773
zija	-1774
prezz	-1775
ribwi	-1776
▁Lulju	-1777
niedem	-1778
kamp	-1779
▁kkonċerna	-1780
▁prinċip	-1781
kapaċità	-1782
▁azzjoni	-1783
eku	-1784
▁politika	-1785
lobali	-1786
ilma	-1787
bira	-1788
qqas	-1789
▁met	-1790
▁pubbliċi	-1791
valwazzjoni	-1792
dil	-1793
ermetti	-1794
deċi	-1795
▁24	-1796
▁mif	-1797
toraġġ	-1798
zzjon	-1799
proċeduri	-1800
ettura	-1801
ġà	-1802
▁aċċess	-1803
▁għolja	-1804
forni	-1805
▁199	-1806
akk	-1807
▁TAL	-1808
▁darba	-1809
);	-1810
▁grupp	-1811
inn	-1812
▁xierqa	-1813
ġiji	-1814
jezzjoni	-1815
▁bba	-1816
vili	-1817
▁tliet	-1818
ix	-1819
▁Mal	-1820
riku	-1821
▁annwali	-1822
ine	-1823
▁tagħna	-1824
▁jieħdu	-1825
▁żewġ	-1826
0.	-1827
▁ewlenin	-1828
▁anti	-1829
Repubblika	-1830
-20	-1831
▁peri	-1832
għataw	-1833
skji	-1834
▁1.	-1835
▁attwali	-1836
▁ambjentali	-1837
▁solu	-1838
▁kuljum	-1839
okk	-1840
sara	-1841
▁diġà	-1842
ffettwa	-1843
fatt	-1844
taġġ	-1845
vat	-1846
dju	-1847
ament	-1848
ħaddi	-1849
prezzijiet	-1850
ridu	-1851
ZZJONI	-1852
▁Nov	-1853
▁jipprovdu	-1854
ermina	-1855
Awtori	-1856
indi	-1857
eff	-1858
għaż	-1859
▁jiżguraw	-1860
vati	-1861
dawl	-1862
6.	-1863
Is	-1864
wieq	-1865
numru	-1866
9/	-1867
ċentra	-1868
klassi	-1869
▁obbli	-1870
▁finali	-1871
unal	-1872
▁res	-1873
għla	-1874
funz	-1875
▁emenda	-1876
hur	-1877
preżen	-1878
0/	-1879
jazzjoni	-1880
▁jingħata	-1881
▁[1	-1882
ari	-1883
riżultati	-1884
omm	-1885
zzju	-1886
▁Sabiex	-1887
tom	-1888
anza	-1889
ilda	-1890
▁maħsu	-1891
▁mogħtija	-1892
uti	-1893
diet	-1894
▁aħjar	-1895
naqqas	-1896
torja	-1897
ejjem	-1898
TA	-1899
▁pill	-1900
stizzja	-1901
gt	-1902
jarju	-1903
fien	-1904
▁jipprovdi	-1905
▁en	-1906
▁1,	-1907
anċ	-1908
▁ru	-1909
qsma	-1910
riji	-1911
],	-1912
ero	-1913
jib	-1914
pril	-1915
▁50	-1916
raw	-1917
ons	-1918
rakkomanda	-1919
▁Marzu	-1920
kooperazzjoni	-1921
sima	-1922
▁Kull	-1923
bejgħ	-1924
approvazzjoni	-1925
arat	-1926
naħa	-1927
eżempju	-1928
7.	-1929
jori	-1930
▁Re	-1931
▁ssir	-1932
ġiżlazzjoni	-1933
neħħ	-1934
Aġenzija	-1935
tru	-1936
▁għadd	-1937
▁Ottubru	-1938
▁rigward	-1939
▁jirri	-1940
stika	-1941
▁Ka	-1942
ġenti	-1943
jiegi	-1944
ortazzjonijiet	-1945
▁assoċja	-1946
vir	-1947
▁riskju	-1948
ċenti	-1949
enibbli	-1950
▁ix	-1951
▁pubblika	-1952
▁Mejju	-1953
▁21	-1954
▁Fran	-1955
ġb	-1956
▁para	-1957
anqas	-1958
ħass	-1959
komuni	-1960
▁persuna	-1961
EE	-1962
▁stra	-1963
▁akk	-1964
].	-1965
fr	-1966
barra	-1967
ffiċjenza	-1968
▁Regolament	-1969
kambju	-1970
ċċa	-1971
▁kura	-1972
mat	-1973
▁So	-1974
bda	-1975
▁kar	-1976
impatt	-1977
kuntest	-1978
▁mu	-1979
50	-1980
3.	-1981
▁xhur	-1982
laq	-1983
gli	-1984
kwalità	-1985
kolu	-1986
▁tekniċi	-1987
endi	-1988
ME	-1989
▁ogħla	-1990
▁prodott	-1991
▁aċċ	-1992
▁stabbilita	-1993
żmien	-1994
kummerċ	-1995
OL	-1996
co	-1997
fieri	-1998
ttività	-1999
▁Skont	-2000
jaw	-2001
katego	-2002
▁reġjonali	-2003
▁jil	-2004
tratti	-2005
istituzzjonijiet	-2006
▁gra	-2007
att	-2008
Euro	-2009
▁kwist	-2010
▁jkunx	-2011
▁Na	-2012
żura	-2013
baġit	-2014
tek	-2015
........	-2016
▁ml	-2017
ambjent	-2018
▁ess	-2019
ruġ	-2020
▁pożi	-2021
IL	-2022
isko	-2023
▁III	-2024
▁pratti	-2025
omija	-2026
▁jitti	-2027
BĊE	-2028
▁jikkon	-2029
▁sin	-2030
werk	-2031
zji	-2032
▁data	-2033
għoti	-2034
ċjetà	-2035
II	-2036
tnaqqis	-2037
▁istitu	-2038
”.	-2039
▁marbuta	-2040
pprovdi	-2041
entità	-2042
gress	-2043
▁Novembru	-2044
▁ekonomika	-2045
▁speċifika	-2046
ettembru	-2047
▁fiż	-2048
▁perjodu	-2049
▁trans	-2050
ne	-2051
żamm	-2052
parte	-2053
▁sekon	-2054
▁tagħmel	-2055
▁abbażi	-2056
▁individwali	-2057
aċċess	-2058
notifika	-2059
8.	-2060
▁jsir	-2061
tanza	-2062
▁ada	-2063
ub	-2064
ranġa	-2065
istud	-2066
▁jum	-2067
ca	-2068
▁assi	-2069
▁Inter	-2070
ċittadini	-2071
ġett	-2072
▁wi	-2073
▁bis	-2074
ġiċi	-2075
▁jimp	-2076
stant	-2077
▁ġim	-2078
▁ne	-2079
ċina	-2080
bbo	-2081
▁ikoll	-2082
▁elen	-2083
▁mat	-2084
▁applikazzjoni	-2085
▁fin	-2086
tran	-2087
tera	-2088
ota	-2089
viżor	-2090
lib	-2091
resident	-2092
▁għaż	-2093
bo	-2094
estri	-2095
▁Fi	-2096
kontribwi	-2097
peri	-2098
▁pprovdu	-2099
he	-2100
▁mqabb	-2101
dja	-2102
finanzjament	-2103
▁jinsa	-2104
Awtorità	-2105
IC	-2106
pital	-2107
OR	-2108
eża	-2109
▁anali	-2110
▁mas	-2111
wol	-2112
ċir	-2113
wassal	-2114
▁Per	-2115
sej	-2116
sija	-2117
daq	-2118
▁globali	-2119
▁ħin	-2120
JI	-2121
▁qiegħ	-2122
hu	-2123
▁prinċipali	-2124
lt	-2125
▁regoli	-2126
▁ħdan	-2127
ribuzzjoni	-2128
riżorsi	-2129
hma	-2130
▁mul	-2131
▁Kif	-2132
pla	-2133
▁tipp	-2134
▁sostenibbli	-2135
▁/	-2136
▁diretta	-2137
rika	-2138
ffiċċ	-2139
ġġor	-2140
toli	-2141
nuqqas	-2142
▁ġdid	-2143
pja	-2144
▁jagħti	-2145
▁jinkludi	-2146
▁imsemmi	-2147
sitwazzjoni	-2148
livelli	-2149
▁April	-2150
konsul	-2151
▁partijiet	-2152
paċi	-2153
riċerka	-2154
▁ċivili	-2155
dro	-2156
▁pot	-2157
żżejjed	-2158
provv	-2159
erċi	-2160
ila	-2161
pportuni	-2162
egwa	-2163
ke	-2164
ġunijiet	-2165
▁magħru	-2166
▁żgurat	-2167
terri	-2168
konomija	-2169
▁mistenni	-2170
dak	-2171
unta	-2172
qal	-2173
eo	-2174
▁4.	-2175
▁biżżejjed	-2176
dew	-2177
▁pajjiż	-2178
▁finanzjarju	-2179
▁żieda	-2180
▁tipprovdi	-2181
jeg	-2182
kara	-2183
▁użati	-2184
fitt	-2185
▁propr	-2186
għanijiet	-2187
ċent	-2188
▁lura	-2189
▁+	-2190
kart	-2191
tba	-2192
bili	-2193
▁tippro	-2194
▁minnhom	-2195
ħajja	-2196
▁dom	-2197
▁jirriżul	-2198
evoli	-2199
▁sezzjoni	-2200
lista	-2201
▁dejjem	-2202
▁on	-2203
▁mm	-2204
ċed	-2205
▁għax	-2206
▁kollu	-2207
medi	-2208
jett	-2209
ass	-2210
spar	-2211
arment	-2212
(3)	-2213
4.	-2214
tis	-2215
▁rakkomanda	-2216
daqstant	-2217
▁Settembru	-2218
miss	-2219
▁jikk	-2220
RO	-2221
tiki	-2222
benefiċċ	-2223
zjent	-2224
▁bla	-2225
port	-2226
▁ekwi	-2227
▁attiva	-2228
kopri	-2229
tijiet	-2230
▁osserva	-2231
▁punt	-2232
▁ekonomiċi	-2233
ħadd	-2234
bniedem	-2235
▁mediċinali	-2236
tkabbir	-2237
▁għalihom	-2238
▁essenzjali	-2239
ttra	-2240
orveljanza	-2241
ettivament	-2242
▁tinkludi	-2243
▁tem	-2244
ejt	-2245
appoġġ	-2246
qgħu	-2247
kriterji	-2248
qiegħ	-2249
fikaw	-2250
responsa	-2251
trapri	-2252
persuni	-2253
▁integ	-2254
ranti	-2255
żagħ	-2256
porzjon	-2257
▁prof	-2258
▁eża	-2259
▁oriġ	-2260
▁protezzjoni	-2261
▁Ko	-2262
▁tagħti	-2263
sal	-2264
kkett	-2265
▁av	-2266
▁lit	-2267
tteristiċi	-2268
każijiet	-2269
▁ċentrali	-2270
ħal	-2271
Il	-2272
▁gwida	-2273
qar	-2274
ġijiet	-2275
riskji	-2276
bidu	-2277
▁Ra	-2278
pres	-2279
konsumaturi	-2280
▁fiżi	-2281
ċipazzjoni	-2282
rappur	-2283
klużi	-2284
ġenza	-2285
▁sekondar	-2286
ling	-2287
gni	-2288
ser	-2289
riżi	-2290
ġġorna	-2291
miem	-2292
ementi	-2293
▁deskri	-2294
5)	-2295
▁sistemi	-2296
▁resid	-2297
pproċess	-2298
mijiet	-2299
mentali	-2300
▁interessati	-2301
▁sew	-2302
▁ĠU	-2303
▁Frar	-2304
servizz	-2305
▁Qa	-2306
wettqu	-2307
▁dri	-2308
▁jis	-2309
▁Z	-2310
fo	-2311
riża	-2312
frunti	-2313
RA	-2314
▁implimen	-2315
▁taħriġ	-2316
▁tiss	-2317
taxxa	-2318
▁23	-2319
eħed	-2320
▁soluzzjoni	-2321
prinċipju	-2322
▁ro	-2323
pija	-2324
pitolu	-2325
▁trid	-2326
9.	-2327
5.	-2328
blemi	-2329
▁attivitajiet	-2330
▁flu	-2331
▁għandek	-2332
żin	-2333
EC	-2334
▁bħall	-2335
kant	-2336
▁oġġetti	-2337
ġika	-2338
leġiżlazzjoni	-2339
demm	-2340
termini	-2341
▁għoli	-2342
investiment	-2343
mater	-2344
membri	-2345
tazzjonijiet	-2346
kompetizzjoni	-2347
▁jagħtu	-2348
▁ipp	-2349
rab	-2350
tatt	-2351
▁22	-2352
ustizzja	-2353
wettaq	-2354
▁Ri	-2355
▁em	-2356
perjenza	-2357
▁Ġenerali	-2358
fiki	-2359
mul	-2360
kull	-2361
Iż	-2362
wiex	-2363
▁super	-2364
entitajiet	-2365
▁ebda	-2366
valenti	-2367
▁ħsara	-2368
enju	-2369
▁involu	-2370
▁28	-2371
▁er	-2372
UN	-2373
kompli	-2374
fużjoni	-2375
▁ċar	-2376
go	-2377
ors	-2378
▁dettal	-2379
▁tistabbilixxi	-2380
kali	-2381
▁trattament	-2382
tto	-2383
hiex	-2384
soċjetà	-2385
bbozz	-2386
▁kont	-2387
ijiet	-2388
jonament	-2389
▁pla	-2390
▁diversi	-2391
▁imsemmija	-2392
effetti	-2393
ħalla	-2394
lief	-2395
▁konġ	-2396
PE	-2397
olon	-2398
stra	-2399
▁jen	-2400
▁Uniti	-2401
▁kellhom	-2402
ejl	-2403
aħjar	-2404
▁Sp	-2405
muni	-2406
▁xahar	-2407
▁tip	-2408
▁jeħtieġ	-2409
ressjoni	-2410
▁rapp	-2411
kwistjoni	-2412
sikurezza	-2413
fasi	-2414
▁akbar	-2415
▁effett	-2416
▁sigurtà	-2417
opinjoni	-2418
▁intern	-2419
▁Iż	-2420
lan	-2421
dell	-2422
arma	-2423
għażagħ	-2424
kontenut	-2425
ispeċi	-2426
▁valutazzjoni	-2427
rastruttura	-2428
▁ekonomiku	-2429
▁neċess	-2430
trattament	-2431
programmi	-2432
▁bir	-2433
kla	-2434
talba	-2435
viment	-2436
eġġ	-2437
ID	-2438
għadd	-2439
op	-2440
dazzjoni	-2441
▁konformi	-2442
▁doku	-2443
PA	-2444
line	-2445
kumpaniji	-2446
▁dejta	-2447
novazzjoni	-2448
eli	-2449
▁sustanzi	-2450
ttom	-2451
▁ppreżen	-2452
diversi	-2453
▁mo	-2454
tfal	-2455
ppreżenta	-2456
punti	-2457
▁bit	-2458
▁jagħmel	-2459
▁•	-2460
▁elenkati	-2461
ris	-2462
-31	-2463
▁Fejn	-2464
▁ġdida	-2465
▁Parti	-2466
IM	-2467
tabib	-2468
kol	-2469
▁nego	-2470
▁Għand	-2471
russ	-2472
-“	-2473
tokoll	-2474
xtie	-2475
▁adottati	-2476
▁mib	-2477
ċċi	-2478
obj	-2479
rej	-2480
▁ibba	-2481
anifa	-2482
dmu	-2483
▁talba	-2484
”,	-2485
sien	-2486
▁jidd	-2487
Ti	-2488
▁jintla	-2489
Ġustizzja	-2490
landa	-2491
ħtieġa	-2492
▁jikko	-2493
▁ftehim	-2494
valwa	-2495
▁jingħataw	-2496
▁subparagrafu	-2497
▁GĦ	-2498
▁kreditu	-2499
pendenti	-2500
▁kontin	-2501
▁iss	-2502
kum	-2503
possi	-2504
ejjeb	-2505
fir	-2506
▁Ekonomi	-2507
uss	-2508
▁separa	-2509
Ra	-2510
jeb	-2511
▁agriko	-2512
OM	-2513
▁kkunsidrat	-2514
territorju	-2515
ġigħ	-2516
ret	-2517
obbligi	-2518
waqq	-2519
sferiment	-2520
6)	-2521
▁każ	-2522
▁tuża	-2523
rekw	-2524
jarja	-2525
▁paga	-2526
zjattiva	-2527
▁Do	-2528
rea	-2529
▁2.	-2530
mentazzjoni	-2531
▁Ti	-2532
▁tul	-2533
▁jużaw	-2534
negozju	-2535
▁Bruss	-2536
assigurazzjoni	-2537
qegħ	-2538
dul	-2539
hux	-2540
ħqu	-2541
dozzjoni	-2542
▁fav	-2543
sens	-2544
ċenz	-2545
unda	-2546
▁stipulati	-2547
Fond	-2548
▁tapplika	-2549
▁sħiħ	-2550
dom	-2551
▁adegwa	-2552
aħħa	-2553
▁jgħin	-2554
fikata	-2555
▁det	-2556
ffiċċju	-2557
▁normali	-2558
Renju	-2559
▁investiment	-2560
swieq	-2561
mozzjoni	-2562
Konvenzjoni	-2563
stimenti	-2564
Pa	-2565
Si	-2566
ssid	-2567
▁konsul	-2568
-19	-2569
iegħa	-2570
effett	-2571
▁ftit	-2572
vettura	-2573
liċi	-2574
▁jiġifieri	-2575
▁studji	-2576
xxija	-2577
flus	-2578
▁naturali	-2579
minali	-2580
ranġamenti	-2581
▁[2	-2582
żieda	-2583
spetti	-2584
ġie	-2585
-4	-2586
oqsma	-2587
▁til	-2588
lat	-2589
▁kwistjonijiet	-2590
▁An	-2591
ide	-2592
tif	-2593
noloġija	-2594
ssir	-2595
gh	-2596
ranzija	-2597
ġiku	-2598
▁minnu	-2599
tament	-2600
▁aġġusta	-2601
luq	-2602
yl	-2603
vent	-2604
jbi	-2605
▁ċer	-2606
▁effetti	-2607
elett	-2608
suli	-2609
▁jirċi	-2610
ffarijiet	-2611
▁baxx	-2612
.”	-2613
tant	-2614
bet	-2615
jed	-2616
konoxxi	-2617
▁2,	-2618
▁Soċjali	-2619
qegħid	-2620
istandards	-2621
entenza	-2622
▁kompeti	-2623
▁jippre	-2624
forzi	-2625
konklużjoni	-2626
enefiċ	-2627
ordinazzjoni	-2628
SA	-2629
▁preċed	-2630
tion	-2631
edukazzjoni	-2632
IK	-2633
prinċipji	-2634
▁29	-2635
▁indiri	-2636
▁mini	-2637
▁miżju	-2638
▁fu	-2639
▁prot	-2640
passi	-2641
gg	-2642
▁evi	-2643
▁tagħrif	-2644
▁jkollu	-2645
fondi	-2646
Sur	-2647
▁jkollha	-2648
dità	-2649
▁domesti	-2650
uli	-2651
ettu	-2652
▁Bil	-2653
▁Fir	-2654
fe	-2655
ħħal	-2656
▁tagħmir	-2657
▁tintuża	-2658
▁numru	-2659
▁tajjeb	-2660
▁ss	-2661
▁effettiv	-2662
▁jeż	-2663
▁kompl	-2664
produtturi	-2665
▁man	-2666
▁indika	-2667
▁proposta	-2668
▁tiżgura	-2669
konsum	-2670
▁nett	-2671
▁2008	-2672
▁massimu	-2673
▁kooperazzjoni	-2674
zzar	-2675
▁set	-2676
videnza	-2677
nisa	-2678
▁żgħar	-2679
valuri	-2680
▁26	-2681
▁sko	-2682
▁2014	-2683
attività	-2684
istabbili	-2685
paga	-2686
▁jitqiesu	-2687
▁Unit	-2688
nota	-2689
ħiħa	-2690
kanz	-2691
teri	-2692
ħti	-2693
▁uffiċjali	-2694
pproċessar	-2695
bin	-2696
appli	-2697
▁direttament	-2698
kondizzjonijiet	-2699
▁imma	-2700
▁(2	-2701
▁jiff	-2702
għażla	-2703
estijiet	-2704
korpi	-2705
urnal	-2706
larment	-2707
ekonomija	-2708
▁qegħ	-2709
imiet	-2710
elet	-2711
▁proġetti	-2712
▁speċifiku	-2713
provvista	-2714
▁Malta	-2715
ħassar	-2716
aqsima	-2717
▁tard	-2718
ġilda	-2719
ortaturi	-2720
30	-2721
dinja	-2722
tehimiet	-2723
▁joħ	-2724
żoni	-2725
▁ħlas	-2726
▁taq	-2727
ħejji	-2728
▁ġuri	-2729
▁xogħol	-2730
analiżi	-2731
għal	-2732
awtorizzazzjoni	-2733
mati	-2734
▁40	-2735
▁ill	-2736
▁emendat	-2737
▁magħmula	-2738
żizzjoni	-2739
Ar	-2740
persuna	-2741
▁teknika	-2742
▁(“	-2743
vo	-2744
wil	-2745
JIET	-2746
essjonali	-2747
finijiet	-2748
alu	-2749
tus	-2750
dija	-2751
▁sħiħa	-2752
atego	-2753
adozzjoni	-2754
▁parte	-2755
▁medju	-2756
▁maħsuba	-2757
▁ikkonċerna	-2758
EF	-2759
▁Su	-2760
undamentali	-2761
ċjalment	-2762
kumpanija	-2763
nali	-2764
▁jaħdmu	-2765
kanzija	-2766
▁2013	-2767
ħallas	-2768
▁kamp	-2769
▁tajba	-2770
dawn	-2771
ħaddiema	-2772
▁z	-2773
wist	-2774
deċiżjonijiet	-2775
kan	-2776
sieb	-2777
▁jridu	-2778
spi	-2779
▁strumenti	-2780
▁mhu	-2781
ħubija	-2782
kawża	-2783
Bord	-2784
land	-2785
▁finanzjament	-2786
President	-2787
▁Brussell	-2788
jaġġ	-2789
tuħ	-2790
▁ur	-2791
▁jkunux	-2792
għax	-2793
qqaf	-2794
▁obbliga	-2795
ts	-2796
dustri	-2797
zar	-2798
imm	-2799
ttati	-2800
linji	-2801
▁kundizzjonijiet	-2802
▁tif	-2803
▁koperti	-2804
▁jinkis	-2805
▁Ba	-2806
▁segwi	-2807
▁riżul	-2808
kro	-2809
uta	-2810
▁ester	-2811
ganali	-2812
▁tkunx	-2813
▁Biex	-2814
▁emen	-2815
ng	-2816
▁effiċjenti	-2817
poran	-2818
▁3.	-2819
żid	-2820
kodiċi	-2821
▁eċċessi	-2822
żmi	-2823
▁peress	-2824
nti	-2825
▁qegħdin	-2826
▁27	-2827
ejjel	-2828
ħo	-2829
tribu	-2830
AZZJONI	-2831
wied	-2832
wu	-2833
▁2011	-2834
dir	-2835
▁kwalità	-2836
qien	-2837
ċipanti	-2838
ven	-2839
▁Uffiċjali	-2840
Li	-2841
▁avv	-2842
▁nuqqas	-2843
riet	-2844
▁ekwivalenti	-2845
dux	-2846
/2013	-2847
▁stess	-2848
▁partikolarment	-2849
▁proċeduri	-2850
▁amministrattivi	-2851
40	-2852
▁struttura	-2853
ġeni	-2854
▁issa	-2855
żil	-2856
inaw	-2857
▁jieħu	-2858
▁tis	-2859
Bank	-2860
Protokoll	-2861
▁biljun	-2862
bagħad	-2863
▁jaqb	-2864
trapriżi	-2865
operaturi	-2866
meta	-2867
▁fer	-2868
Programm	-2869
bitu	-2870
onitoraġġ	-2871
tezza	-2872
taħriġ	-2873
▁Dir	-2874
▁inkluża	-2875
seb	-2876
▁ammon	-2877
7)	-2878
▁jsiru	-2879
impjiegi	-2880
effiċjenza	-2881
bini	-2882
integ	-2883
▁jindi	-2884
ordina	-2885
th	-2886
▁Finanz	-2887
linja	-2888
▁0.	-2889
efqa	-2890
▁tgħ	-2891
sustanza	-2892
▁Fuq	-2893
▁Ar	-2894
▁terz	-2895
ftehim	-2896
▁kkon	-2897
lieni	-2898
umping	-2899
▁qafas	-2900
fikaċja	-2901
polazzjoni	-2902
▁preċedenti	-2903
kre	-2904
fs	-2905
▁servizz	-2906
tatistika	-2907
▁2010	-2908
gen	-2909
innovazzjoni	-2910
saħ	-2911
▁pazjent	-2912
▁proposti	-2913
daqs	-2914
▁60	-2915
▁preż	-2916
EM	-2917
ermanja	-2918
paragrafi	-2919
prem	-2920
▁ħam	-2921
waqqaf	-2922
▁Għaldaqstant	-2923
dokument	-2924
▁isir	-2925
▁turi	-2926
den	-2927
tagħmir	-2928
▁ska	-2929
▁ban	-2930
jru	-2931
IR	-2932
natura	-2933
▁potenzjali	-2934
ea	-2935
▁klassi	-2936
eogra	-2937
▁sekondarji	-2938
mediċina	-2939
kluż	-2940
▁jeħ	-2941
▁2012	-2942
▁ġestjoni	-2943
/2009	-2944
ipproċessar	-2945
onenti	-2946
▁0,	-2947
oran	-2948
ettiq	-2949
del	-2950
sil	-2951
▁meħu	-2952
marka	-2953
andu	-2954
▁jikkontribwi	-2955
bon	-2956
flo	-2957
gna	-2958
finali	-2959
proġett	-2960
abella	-2961
▁2007	-2962
retta	-2963
kejja	-2964
▁ħlief	-2965
parteċipazzjoni	-2966
▁ul	-2967
elettriku	-2968
korpo	-2969
▁Konġ	-2970
▁kuntratt	-2971
eġis	-2972
▁injezzjoni	-2973
rappor	-2974
amministra	-2975
sub	-2976
ge	-2977
gass	-2978
iskema	-2979
kuntratt	-2980
erali	-2981
▁ewlieni	-2982
▁Mi	-2983
pot	-2984
nejn	-2985
▁primar	-2986
▁fo	-2987
odiċi	-2988
bdil	-2989
▁kbira	-2990
▁IL	-2991
walment	-2992
persunal	-2993
-30	-2994
dustrijali	-2995
▁daqs	-2996
▁mhuwiex	-2997
▁professjonali	-2998
peratura	-2999
▁31	-3000
▁jinsabu	-3001
vedi	-3002
▁saru	-3003
Ġurnal	-3004
sur	-3005
▁alterna	-3006
urzar	-3007
▁ex	-3008
▁EU	-3009
▁temporan	-3010
▁siegħa	-3011
pijiet	-3012
prestazzjoni	-3013
▁perm	-3014
▁jappoġġ	-3015
maw	-3016
▁indipendenti	-3017
erija	-3018
▁għandux	-3019
EL	-3020
▁xjenti	-3021
▁kbar	-3022
tab	-3023
neħħija	-3024
▁pjan	-3025
▁jippermetti	-3026
juri	-3027
arr	-3028
jega	-3029
▁La	-3030
istat	-3031
baħar	-3032
ġitali	-3033
▁każijiet	-3034
ritti	-3035
mexxija	-3036
evalwazzjoni	-3037
jiex	-3038
olitika	-3039
sieħ	-3040
jl	-3041
politiki	-3042
pl	-3043
▁previsti	-3044
Partijiet	-3045
▁2016	-3046
istrumenti	-3047
▁reali	-3048
▁proċedura	-3049
importazzjoni	-3050
▁pereżempju	-3051
-6	-3052
▁tera	-3053
ho	-3054
▁lis	-3055
sistenti	-3056
limiti	-3057
ħolqien	-3058
armako	-3059
stituzzjoni	-3060
ezzjonijiet	-3061
verna	-3062
migra	-3063
ċiż	-3064
titjib	-3065
MEs	-3066
▁prijori	-3067
inja	-3068
differ	-3069
mli	-3070
ole	-3071
▁sostan	-3072
▁studju	-3073
liġibbli	-3074
▁multi	-3075
konsumatur	-3076
pratti	-3077
fidi	-3078
(1	-3079
▁Ċentrali	-3080
▁jemenda	-3081
▁2006	-3082
▁mekkani	-3083
ont	-3084
isq	-3085
benefiċċji	-3086
kreditu	-3087
▁aġġorna	-3088
milja	-3089
▁sehem	-3090
minazzjoni	-3091
▁tħa	-3092
▁2015	-3093
ft	-3094
pportunitajiet	-3095
ġieġ	-3096
):	-3097
promozzjoni	-3098
offer	-3099
▁jiżvilupp	-3100
pressjoni	-3101
terali	-3102
Ġermanja	-3103
▁riċerka	-3104
kur	-3105
rom	-3106
rit	-3107
▁materjali	-3108
▁involuti	-3109
▁sti	-3110
▁pres	-3111
jani	-3112
▁identifikati	-3113
mw	-3114
▁isiru	-3115
▁livelli	-3116
ebo	-3117
kament	-3118
▁Sta	-3119
esportazzjoni	-3120
▁jenħtieġ	-3121
▁restri	-3122
dokumenti	-3123
investigazzjoni	-3124
Kapitolu	-3125
istu	-3126
kapital	-3127
ġiel	-3128
01	-3129
ffaċili	-3130
▁fat	-3131
▁ħar	-3132
Ir	-3133
responsabbiltà	-3134
▁Minħabba	-3135
▁kimi	-3136
zjati	-3137
pubbliku	-3138
▁jipperm	-3139
▁saret	-3140
jana	-3141
klima	-3142
Di	-3143
▁vetturi	-3144
▁kkonċernati	-3145
▁pillola	-3146
▁modi	-3147
▁Co	-3148
pet	-3149
ħtiġijiet	-3150
▁IV	-3151
ċev	-3152
▁teknolo	-3153
▁jittieħdu	-3154
▁analiżi	-3155
oq	-3156
nno	-3157
ffru	-3158
istema	-3159
▁konformità	-3160
vattivi	-3161
▁standard	-3162
Komunikazzjoni	-3163
rem	-3164
-15	-3165
twettiq	-3166
istribuzzjoni	-3167
tielet	-3168
▁mediċini	-3169
organizzazzjoni	-3170
bidel	-3171
▁funz	-3172
▁mala	-3173
karatteristiċi	-3174
▁benefiċċ	-3175
vata	-3176
homx	-3177
kulari	-3178
▁fondi	-3179
▁kbir	-3180
istabbiliment	-3181
mon	-3182
oma	-3183
aniġġ	-3184
25	-3185
ug	-3186
kj	-3187
▁ħidma	-3188
CO	-3189
▁strate	-3190
-5	-3191
▁qal	-3192
▁kontribu	-3193
▁faċ	-3194
varja	-3195
fri	-3196
intomi	-3197
▁użat	-3198
▁produ	-3199
▁tipi	-3200
▁jirre	-3201
AM	-3202
AP	-3203
▁sensi	-3204
faw	-3205
kazzjonijiet	-3206
Taqsima	-3207
▁kg	-3208
limitu	-3209
utenti	-3210
vetturi	-3211
netwerk	-3212
▁ġimgħa	-3213
▁regolari	-3214
▁soġġetti	-3215
8)	-3216
”)	-3217
▁gruppi	-3218
logu	-3219
▁anqas	-3220
▁Aw	-3221
▁rapport	-3222
▁tippermetti	-3223
għarfien	-3224
okkor	-3225
▁Si	-3226
▁Al	-3227
veri	-3228
▁jibqgħu	-3229
ela	-3230
▁żgurata	-3231
atti	-3232
▁effettiva	-3233
kalku	-3234
▁Pre	-3235
tel	-3236
manifattur	-3237
▁mgħa	-3238
▁ġenera	-3239
razzjonijiet	-3240
▁demm	-3241
▁raġ	-3242
edimenti	-3243
▁standards	-3244
intro	-3245
żazzjonijiet	-3246
▁:	-3247
▁jaffettwa	-3248
kupru	-3249
▁malajr	-3250
triq	-3251
juwil	-3252
▁Mhux	-3253
uk	-3254
lur	-3255
ħlas	-3256
▁jinżamm	-3257
▁kompleta	-3258
tem	-3259
▁mitlu	-3260
enzjal	-3261
miżura	-3262
orb	-3263
▁Po	-3264
mpa	-3265
operazzjonijiet	-3266
fel	-3267
▁ġeogra	-3268
IV	-3269
tejn	-3270
▁liema	-3271
▁ċell	-3272
ec	-3273
ħala	-3274
pitali	-3275
ettur	-3276
zjattivi	-3277
proġetti	-3278
▁jippermettu	-3279
ds	-3280
ħruġ	-3281
dulti	-3282
qrib	-3283
▁post	-3284
▁industrijali	-3285
▁adottat	-3286
fl	-3287
▁dija	-3288
ġli	-3289
▁programmi	-3290
Min	-3291
progress	-3292
vers	-3293
▁immed	-3294
poni	-3295
▁tikkon	-3296
▁Vi	-3297
av	-3298
verżjoni	-3299
riċi	-3300
kbira	-3301
▁wies	-3302
zzaw	-3303
▁Dis	-3304
▁intro	-3305
▁pressjoni	-3306
▁tadotta	-3307
▁jisti	-3308
grafu	-3309
lazzjonijiet	-3310
duċ	-3311
▁membri	-3312
taq	-3313
stijiet	-3314
rett	-3315
kka	-3316
vedu	-3317
▁awtorizzazzjoni	-3318
ron	-3319
ortatur	-3320
▁jikkonċerna	-3321
▁produzzjoni	-3322
pra	-3323
żomm	-3324
ġġieri	-3325
kel	-3326
sparenza	-3327
▁pilloli	-3328
▁doganali	-3329
▁azzjonijiet	-3330
kontijiet	-3331
ffikul	-3332
obbligu	-3333
ac	-3334
entement	-3335
monitoraġġ	-3336
ttest	-3337
evu	-3338
▁est	-3339
ewi	-3340
kategoriji	-3341
▁tqis	-3342
▁jikkonforma	-3343
▁atti	-3344
koli	-3345
ħidma	-3346
ċirko	-3347
▁għandhomx	-3348
sol	-3349
▁sostitwi	-3350
munita	-3351
ED	-3352
▁bażiku	-3353
van	-3354
▁vali	-3355
▁uġigħ	-3356
nija	-3357
▁Hija	-3358
tqegħid	-3359
iliet	-3360
werks	-3361
ġenzi	-3362
▁jinvol	-3363
-7	-3364
rezzjoni	-3365
erti	-3366
▁awtom	-3367
▁monitoraġġ	-3368
▁eliġibbli	-3369
objettivi	-3370
GĦ	-3371
loq	-3372
▁[3	-3373
odisfaw	-3374
21	-3375
▁or	-3376
▁kliniċi	-3377
sira	-3378
▁toħ	-3379
▁kwa	-3380
hru	-3381
jodi	-3382
AC	-3383
ettati	-3384
▁minbarra	-3385
eru	-3386
▁jistabbili	-3387
dum	-3388
▁sej	-3389
SMEs	-3390
▁Informazzjoni	-3391
lissa	-3392
▁Deċiżjoni	-3393
infrastruttura	-3394
ċell	-3395
▁jif	-3396
▁medja	-3397
▁semp	-3398
▁kum	-3399
naqqsu	-3400
▁dħul	-3401
applikant	-3402
ġni	-3403
metodu	-3404
operaw	-3405
▁jirċievu	-3406
pazju	-3407
ssib	-3408
bilanċ	-3409
(4)	-3410
▁konċentra	-3411
bra	-3412
niet	-3413
rien	-3414
kata	-3415
▁Tal	-3416
stitwixxi	-3417
ħid	-3418
▁speċifikati	-3419
ffri	-3420
qorti	-3421
dikjarazzjoni	-3422
pli	-3423
▁De	-3424
▁annimali	-3425
sab	-3426
iktar	-3427
▁għadhom	-3428
Tra	-3429
▁ħiel	-3430
riżultat	-3431
▁iżjed	-3432
ġudi	-3433
għod	-3434
vali	-3435
identi	-3436
▁problemi	-3437
eġi	-3438
okazzjoni	-3439
propr	-3440
alment	-3441
▁mqabbel	-3442
boli	-3443
enali	-3444
wiċċ	-3445
oriġ	-3446
▁elettroniku	-3447
▁temenda	-3448
▁Nazzjonali	-3449
▁fundamentali	-3450
▁mikro	-3451
▁ikollhom	-3452
sieħba	-3453
Ċina	-3454
▁baxxa	-3455
▁kapaċi	-3456
60	-3457
▁raġunijiet	-3458
▁Da	-3459
kwanti	-3460
deċiedi	-3461
ċipro	-3462
mira	-3463
jegati	-3464
zjoni	-3465
daħħal	-3466
tieġu	-3467
▁mard	-3468
▁valur	-3469
Reġ	-3470
egre	-3471
rwol	-3472
ċebo	-3473
ġixxi	-3474
perijodu	-3475
traffi	-3476
▁armoni	-3477
possibbiltà	-3478
issu	-3479
lita	-3480
▁materjal	-3481
▁kwali	-3482
▁jirrappreżen	-3483
▁naħa	-3484
▁jidher	-3485
(2	-3486
▁sodisfa	-3487
ġiżla	-3488
▁juru	-3489
istituzzjoni	-3490
istrateġija	-3491
nut	-3492
▁tabib	-3493
wenza	-3494
ph	-3495
▁ord	-3496
komunikazzjoni	-3497
90	-3498
▁mimli	-3499
▁jer	-3500
▁speċifikat	-3501
▁fiskali	-3502
eteri	-3503
dali	-3504
▁Euro	-3505
▁jistgħux	-3506
depen	-3507
eroga	-3508
niżż	-3509
▁jistabbilixxu	-3510
oġġetti	-3511
andat	-3512
konoxximent	-3513
banek	-3514
limina	-3515
▁ttra	-3516
ALI	-3517
kuss	-3518
▁jogħ	-3519
renti	-3520
-8	-3521
▁kienx	-3522
▁jissodisfaw	-3523
Bel	-3524
▁reġistra	-3525
enji	-3526
miet	-3527
qos	-3528
kuntatt	-3529
fli	-3530
bri	-3531
iska	-3532
▁kal	-3533
tikk	-3534
▁Internazzjonali	-3535
roġ	-3536
▁likwi	-3537
▁Għandu	-3538
▁ksur	-3539
▁self	-3540
▁fiċ	-3541
▁(1)	-3542
deb	-3543
▁ruħ	-3544
▁issir	-3545
ambitu	-3546
sulina	-3547
-10	-3548
▁2020	-3549
▁applikati	-3550
injezzjoni	-3551
mur	-3552
▁programm	-3553
volum	-3554
omina	-3555
ġim	-3556
▁dikja	-3557
▁assoċjati	-3558
▁relatata	-3559
diża	-3560
ofs	-3561
iskambju	-3562
▁tikk	-3563
▁attività	-3564
▁jiżdied	-3565
korp	-3566
setturi	-3567
liġijiet	-3568
▁mistennija	-3569
31	-3570
malment	-3571
super	-3572
duċi	-3573
elementi	-3574
▁rispettivament	-3575
għandux	-3576
▁inizjali	-3577
▁jistax	-3578
▁forni	-3579
inji	-3580
Ma	-3581
▁favur	-3582
▁mediċina	-3583
▁ġewwa	-3584
Iżvilupp	-3585
▁jibqa	-3586
piti	-3587
▁=	-3588
▁tkopri	-3589
▁sit	-3590
popolazzjoni	-3591
pert	-3592
▁uniku	-3593
eterin	-3594
bina	-3595
unn	-3596
UM	-3597
▁telf	-3598
▁kumpaniji	-3599
dettal	-3600
deboli	-3601
75	-3602
▁impatt	-3603
/2008	-3604
▁Fid	-3605
▁magħrufa	-3606
▁jix	-3607
▁transkon	-3608
mezzi	-3609
▁tqa	-3610
ħolqu	-3611
▁elettroniċi	-3612
▁bbażati	-3613
jiem	-3614
▁rikono	-3615
▁Tagħ	-3616
stalla	-3617
interessi	-3618
ossi	-3619
kontribu	-3620
oloġija	-3621
▁proċess	-3622
fruntieri	-3623
bie	-3624
mus	-3625
▁of	-3626
urnata	-3627
konċentra	-3628
rim	-3629
▁IN	-3630
rekwenza	-3631
ekuzzjoni	-3632
▁3,	-3633
ġlieda	-3634
żgħażagħ	-3635
fur	-3636
▁Ċi	-3637
talja	-3638
▁kompletament	-3639
-16	-3640
................	-3641
▁minimu	-3642
kategorija	-3643
bbu	-3644
▁Franza	-3645
▁msemmi	-3646
24	-3647
FUE	-3648
▁Komunitarja	-3649
tx	-3650
ervazzjoni	-3651
ensjonijiet	-3652
▁80	-3653
▁speċjalment	-3654
-18	-3655
▁Gwida	-3656
sjoni	-3657
integrazzjoni	-3658
▁jirriżultaw	-3659
▁żgħ	-3660
ipp	-3661
fond	-3662
jut	-3663
▁kan	-3664
.,	-3665
sustanzi	-3666
esperjenza	-3667
▁net	-3668
▁erba	-3669
▁previst	-3670
▁riżorsi	-3671
▁evidenza	-3672
ġju	-3673
▁preżenti	-3674
kunsidrati	-3675
gvern	-3676
▁miżjud	-3677
reġjuni	-3678
▁jimplimen	-3679
Ko	-3680
▁reċipro	-3681
fikazzjonijiet	-3682
ħlu	-3683
▁mhi	-3684
ħud	-3685
-199	-3686
▁avversi	-3687
▁esti	-3688
ċin	-3689
▁jitt	-3690
daħħ	-3691
▁meq	-3692
bonju	-3693
▁tistax	-3694
ow	-3695
wasslu	-3696
▁Fit	-3697
osti	-3698
IP	-3699
TR	-3700
SO	-3701
Imp	-3702
▁kriminali	-3703
ferma	-3704
kriżi	-3705
▁approvat	-3706
▁ug	-3707
istruttura	-3708
▁jiżviluppaw	-3709
▁qaw	-3710
diedu	-3711
▁paragrafu	-3712
verifika	-3713
operatur	-3714
rabta	-3715
▁orali	-3716
▁35	-3717
▁Eż	-3718
spensjoni	-3719
ħaddim	-3720
▁rari	-3721
benefiċ	-3722
▁000	-3723
▁konsistenti	-3724
kompet	-3725
eżjoni	-3726
-25	-3727
sost	-3728
▁VII	-3729
pubblikazzjoni	-3730
▁limitat	-3731
▁grad	-3732
▁transkonfinali	-3733
ton	-3734
tqa	-3735
EG	-3736
▁€	-3737
apparat	-3738
▁piż	-3739
▁2004	-3740
ritor	-3741
ttieħed	-3742
ml	-3743
▁ċir	-3744
▁lanqas	-3745
▁dirett	-3746
▁tibda	-3747
▁magħruf	-3748
mekkani	-3749
telf	-3750
▁joriġ	-3751
9)	-3752
Gre	-3753
oranza	-3754
▁politiċi	-3755
▁sustanza	-3756
▁Huma	-3757
janti	-3758
80	-3759
ffir	-3760
faċili	-3761
▁Hemm	-3762
awdi	-3763
impriżi	-3764
xin	-3765
▁suss	-3766
▁deċiżjonijiet	-3767
xu	-3768
mal	-3769
▁membru	-3770
▁entitajiet	-3771
▁Tra	-3772
▁regolatorji	-3773
Ri	-3774
trasferiment	-3775
ammonti	-3776
tibdil	-3777
Sigurtà	-3778
gar	-3779
għaj	-3780
ħana	-3781
▁Fa	-3782
hemm	-3783
▁ut	-3784
▁tkompli	-3785
▁am	-3786
wettqa	-3787
ċevi	-3788
▁34	-3789
JA	-3790
eva	-3791
▁spejjeż	-3792
essibbli	-3793
dizz	-3794
oj	-3795
EUR	-3796
bijo	-3797
▁tmiem	-3798
▁jmiss	-3799
ly	-3800
▁jirriżulta	-3801
ommu	-3802
▁sett	-3803
▁test	-3804
▁90	-3805
ħit	-3806
eżerċi	-3807
ydro	-3808
ringa	-3809
istudju	-3810
ġenera	-3811
▁rappreżen	-3812
▁meqju	-3813
▁ħames	-3814
▁laq	-3815
bja	-3816
voka	-3817
ċilità	-3818
Mal	-3819
Italja	-3820
isforzi	-3821
▁En	-3822
.201	-3823
uratom	-3824
▁minimi	-3825
istri	-3826
vvalu	-3827
(1)(	-3828
ŻEE	-3829
ħalib	-3830
▁edu	-3831
▁pagament	-3832
▁mhijiex	-3833
▁titqies	-3834
rispond	-3835
ġenda	-3836
pertura	-3837
-11	-3838
issa	-3839
merkanzija	-3840
eu	-3841
▁tiżdied	-3842
▁għaċ	-3843
▁esterni	-3844
eżami	-3845
indika	-3846
▁jadotta	-3847
ġudizzju	-3848
ħeġġ	-3849
▁apparat	-3850
▁mqabbla	-3851
viżi	-3852
▁evalwa	-3853
self	-3854
▁sussegw	-3855
bbene	-3856
▁agrikoli	-3857
▁(2)	-3858
deboliment	-3859
familja	-3860
En	-3861
ċidu	-3862
▁reazzjonijiet	-3863
reġjun	-3864
determina	-3865
Regolamenti	-3866
ten	-3867
oriġini	-3868
reġistrazzjoni	-3869
eleg	-3870
żejt	-3871
CR	-3872
entur	-3873
’,	-3874
orbi	-3875
▁evalwazzjoni	-3876
porti	-3877
▁5.	-3878
ħejjija	-3879
▁anki	-3880
▁Direttiva	-3881
bidla	-3882
▁bidla	-3883
▁ef	-3884
funzjoni	-3885
▁rekwiżiti	-3886
▁hinn	-3887
▁Ekonomiku	-3888
▁33	-3889
abo	-3890
-12	-3891
prevenzjoni	-3892
Grupp	-3893
▁diġitali	-3894
ejbu	-3895
▁Im	-3896
▁(3	-3897
▁sitt	-3898
▁għaliex	-3899
tras	-3900
▁oriġinali	-3901
▁12-	-3902
▁jirrif	-3903
▁Bi	-3904
▁Go	-3905
konsisti	-3906
nefqa	-3907
▁tinsab	-3908
zjalment	-3909
▁ku	-3910
ġbok	-3911
denzjali	-3912
▁bbażata	-3913
▁miftu	-3914
eċċ	-3915
effikaċja	-3916
għalf	-3917
teknoloġija	-3918
-9	-3919
sh	-3920
.200	-3921
▁00	-3922
logħ	-3923
▁jeħtieġu	-3924
▁sotto	-3925
mik	-3926
▁ikkonċernat	-3927
kors	-3928
▁pi	-3929
ien	-3930
11	-3931
fra	-3932
▁relevanti	-3933
lijiet	-3934
▁Kom	-3935
konn	-3936
temperatura	-3937
▁qiegħda	-3938
kampjun	-3939
sejħa	-3940
Politika	-3941
ttat	-3942
esi	-3943
▁jogħġbok	-3944
▁tras	-3945
dispożizzjoni	-3946
xtieq	-3947
▁miżura	-3948
kg	-3949
▁gha	-3950
ġġoranza	-3951
ċertifikat	-3952
eniment	-3953
patibbli	-3954
manifattura	-3955
▁ac	-3956
arranġamenti	-3957
TT	-3958
%)	-3959
▁ikk	-3960
arta	-3961
▁...	-3962
▁twettaq	-3963
▁tittieħed	-3964
/2012	-3965
▁baġi	-3966
anifattura	-3967
▁jgħa	-3968
definizzjoni	-3969
setgħa	-3970
▁tibqa	-3971
▁darb	-3972
EP	-3973
▁alloka	-3974
lati	-3975
OS	-3976
▁Matul	-3977
ġbir	-3978
▁For	-3979
▁tfal	-3980
biċċa	-3981
waqqif	-3982
deżjoni	-3983
suġġett	-3984
piża	-3985
ssoċjazzjoni	-3986
oħrajn	-3987
oc	-3988
▁ġimgħat	-3989
▁flus	-3990
ġenziji	-3991
▁elettronika	-3992
▁Kons	-3993
prensi	-3994
Funz	-3995
▁raġon	-3996
għajn	-3997
fornituri	-3998
▁ġejja	-3999
rina	-4000
▁farmako	-4001
98	-4002
▁miksija	-4003
-17	-4004
retti	-4005
far	-4006
▁Data	-4007
għandhomx	-4008
▁ara	-4009
żmissjoni	-4010
fru	-4011
Gvern	-4012
▁passi	-4013
pakkett	-4014
intrapriżi	-4015
▁Bħala	-4016
reviżjoni	-4017
-2020	-4018
pjanti	-4019
pula	-4020
lasijiet	-4021
ukle	-4022
interess	-4023
disinn	-4024
▁twassal	-4025
ressi	-4026
▁Ara	-4027
▁Magħ	-4028
klassifikazzjoni	-4029
App	-4030
▁tkabbir	-4031
▁nofs	-4032
mudell	-4033
ġisem	-4034
tiet	-4035
▁privat	-4036
ċini	-4037
▁tirri	-4038
▁iff	-4039
▁2017	-4040
iskart	-4041
oċità	-4042
teħid	-4043
red	-4044
▁«	-4045
▁timp	-4046
▁LI	-4047
snin	-4048
▁indikat	-4049
▁qiegħed	-4050
gramma	-4051
og	-4052
dumping	-4053
Funzjonament	-4054
iff	-4055
▁jisso	-4056
bastimenti	-4057
passiġġieri	-4058
15	-4059
akkwist	-4060
▁32	-4061
sider	-4062
rittijiet	-4063
▁preġudizzju	-4064
introduzzjoni	-4065
gazzjonijiet	-4066
stab	-4067
ranin	-4068
kalkolu	-4069
rapporti	-4070
terapija	-4071
ard	-4072
potenzjal	-4073
▁pja	-4074
PES	-4075
sbu	-4076
preż	-4077
ategorija	-4078
ferenzi	-4079
rott	-4080
taj	-4081
Uffiċċju	-4082
żma	-4083
▁għajr	-4084
▁45	-4085
meri	-4086
▁sent	-4087
stiment	-4088
ħsieb	-4089
strateġija	-4090
qsmu	-4091
ġbu	-4092
▁ijiem	-4093
▁inno	-4094
▁Qafas	-4095
▁proporzjon	-4096
iskop	-4097
70	-4098
▁komunikazzjoni	-4099
ttestjar	-4100
-13	-4101
▁pprovduti	-4102
kolo	-4103
mola	-4104
▁magni	-4105
▁jimm	-4106
CC	-4107
▁Aħ	-4108
AD	-4109
Titolu	-4110
raġunijiet	-4111
turbi	-4112
fen	-4113
▁juri	-4114
estina	-4115
noti	-4116
kejl	-4117
▁kara	-4118
▁Billi	-4119
▁rreġistra	-4120
-27	-4121
▁kuntratti	-4122
▁pari	-4123
qet	-4124
▁baxxi	-4125
entru	-4126
SI	-4127
▁drittijiet	-4128
▁interni	-4129
▁term	-4130
/2014	-4131
▁perman	-4132
fih	-4133
rizza	-4134
▁konn	-4135
.12.	-4136
orrisp	-4137
enimenti	-4138
▁Azzjoni	-4139
▁maritti	-4140
bbiltajiet	-4141
▁sostanzjali	-4142
EU	-4143
▁bħalissa	-4144
▁limitata	-4145
▁ġudizz	-4146
▁magħmul	-4147
ġodda	-4148
▁rwol	-4149
tix	-4150
▁itt	-4151
vernanza	-4152
▁kwanti	-4153
▁infur	-4154
miktub	-4155
▁titjib	-4156
għet	-4157
impor	-4158
identifikazzjoni	-4159
raġġi	-4160
▁stipulat	-4161
▁entità	-4162
▁mone	-4163
djo	-4164
ġer	-4165
ovi	-4166
fwied	-4167
▁ammont	-4168
▁ipprov	-4169
ensa	-4170
issi	-4171
ġna	-4172
▁jintlaħqu	-4173
▁kulturali	-4174
▁leġiżla	-4175
SD	-4176
▁Y	-4177
abbozz	-4178
▁75	-4179
bertà	-4180
-22	-4181
/10	-4182
jd	-4183
dati	-4184
ree	-4185
▁miksu	-4186
▁veterin	-4187
▁verifika	-4188
Ba	-4189
▁mimlija	-4190
roa	-4191
▁Kum	-4192
magna	-4193
intesta	-4194
MP	-4195
▁ver	-4196
Irlanda	-4197
▁adottata	-4198
▁privati	-4199
▁sempliċi	-4200
ekonomi	-4201
emija	-4202
▁irid	-4203
▁jitlob	-4204
nies	-4205
lum	-4206
domanda	-4207
▁fiżika	-4208
▁kellu	-4209
▁San	-4210
34	-4211
negozjati	-4212
inizjattiva	-4213
▁eżamina	-4214
▁ugwali	-4215
arranin	-4216
▁terapija	-4217
EI	-4218
▁dożi	-4219
rgani	-4220
rovi	-4221
▁Daw	-4222
▁van	-4223
ejjaħ	-4224
▁36	-4225
▁KE	-4226
ogħla	-4227
/2011	-4228
impjieg	-4229
tneħħija	-4230
kuntratti	-4231
▁meħuda	-4232
▁ulter	-4233
▁wass	-4234
enja	-4235
▁kollox	-4236
▁GĦAL	-4237
▁awtorizzat	-4238
▁komprensi	-4239
▁emer	-4240
▁Aww	-4241
irġiel	-4242
utenzjoni	-4243
elid	-4244
▁żviluppati	-4245
zjar	-4246
sehem	-4247
marda	-4248
▁miżm	-4249
▁attiv	-4250
parazzjoni	-4251
▁kkunsidrati	-4252
▁Sch	-4253
tisħiħ	-4254
▁jitħall	-4255
▁1.1	-4256
▁Kun	-4257
mun	-4258
▁enerġija	-4259
▁jidħol	-4260
95	-4261
termin	-4262
proporzjon	-4263
karta	-4264
strutturar	-4265
▁approċċ	-4266
▁limitu	-4267
prijori	-4268
kari	-4269
medja	-4270
ieq	-4271
rad	-4272
▁juża	-4273
▁ilma	-4274
mandat	-4275
▁taħdem	-4276
▁miċ	-4277
importanza	-4278
▁emendata	-4279
rita	-4280
kwistjonijiet	-4281
▁implimentati	-4282
ii	-4283
▁tossi	-4284
-14	-4285
▁definit	-4286
▁tekniku	-4287
kompetittività	-4288
▁awtorizzati	-4289
kej	-4290
▁jidhru	-4291
▁punti	-4292
▁pprovduta	-4293
saħħit	-4294
gruppi	-4295
mentari	-4296
▁aħna	-4297
▁ikel	-4298
▁inkorpo	-4299
ħarsien	-4300
ono	-4301
ps	-4302
▁Filwaqt	-4303
▁sorveljanza	-4304
▁prov	-4305
laqgħa	-4306
/2006	-4307
▁superviżor	-4308
fejn	-4309
kwiżit	-4310
▁umani	-4311
metodi	-4312
▁Spanja	-4313
▁Ca	-4314
Kodiċi	-4315
kurati	-4316
▁jaqgħu	-4317
▁twil	-4318
blema	-4319
komplu	-4320
▁Awwissu	-4321
ukleari	-4322
▁anke	-4323
▁konsultazzjoni	-4324
▁noti	-4325
pinjonijiet	-4326
▁eċċessiva	-4327
▁immedjata	-4328
▁tippre	-4329
▁permanenti	-4330
testijiet	-4331
uljett	-4332
PESK	-4333
az	-4334
dejn	-4335
liċenz	-4336
klijenti	-4337
▁jqis	-4338
▁interna	-4339
▁awtorità	-4340
ortu	-4341
Regoli	-4342
-28	-4343
omet	-4344
▁mhix	-4345
Istrateġija	-4346
YP	-4347
żer	-4348
garanti	-4349
żel	-4350
pass	-4351
07	-4352
41	-4353
ċe	-4354
▁massima	-4355
nza	-4356
ltura	-4357
96	-4358
PD	-4359
▁definiti	-4360
kontribuzzjoni	-4361
▁reviżjoni	-4362
▁kur	-4363
VAT	-4364
▁għandhiex	-4365
▁proċ	-4366
għtu	-4367
▁fix	-4368
impenn	-4369
fasizza	-4370
ball	-4371
rejn	-4372
tipi	-4373
▁ġol	-4374
▁lir	-4375
▁jikkunsidra	-4376
lata	-4377
cin	-4378
-23	-4379
aqwa	-4380
aċċ	-4381
Att	-4382
▁ġeneralment	-4383
moviment	-4384
▁online	-4385
▁dra	-4386
migrazzjoni	-4387
tagħrif	-4388
▁strutturali	-4389
sentenza	-4390
▁ċċ	-4391
▁ġusti	-4392
▁37	-4393
orja	-4394
futur	-4395
għall	-4396
-21	-4397
▁mer	-4398
46	-4399
▁raġonevoli	-4400
▁jittieħed	-4401
▁jaħdem	-4402
amministrazzjoni	-4403
eluq	-4404
▁suġġetti	-4405
eżi	-4406
▁tass	-4407
UC	-4408
ffida	-4409
▁bosta	-4410
fet	-4411
▁suq	-4412
web	-4413
▁6.	-4414
▁ippreżen	-4415
ommar	-4416
tabella	-4417
▁indirizzati	-4418
konklużjonijiet	-4419
residenza	-4420
aħħaħ	-4421
fiq	-4422
▁ppubbli	-4423
NU	-4424
ziji	-4425
▁ġilda	-4426
infurzar	-4427
rie	-4428
ettività	-4429
inarju	-4430
▁kotba	-4431
▁rata	-4432
kontrolli	-4433
approċċ	-4434
▁attenzjoni	-4435
ożizzjoni	-4436
▁serji	-4437
kriminazzjoni	-4438
▁determina	-4439
sib	-4440
▁amministrattiva	-4441
eden	-4442
▁dokumenti	-4443
internet	-4444
▁miksuba	-4445
▁linji	-4446
pagamenti	-4447
struzzjoni	-4448
indirizz	-4449
▁titoli	-4450
ħaddem	-4451
Ta	-4452
▁tel	-4453
▁nega	-4454
▁Kontra	-4455
żamma	-4456
▁jikkonformaw	-4457
▁dew	-4458
▁dem	-4459
▁suffiċjenti	-4460
▁lista	-4461
suċċess	-4462
▁perijodu	-4463
sorveljanza	-4464
kultura	-4465
Inter	-4466
onent	-4467
▁ikkon	-4468
▁Ħa	-4469
▁Mo	-4470
LI	-4471
minn	-4472
wazzjonijiet	-4473
dwar	-4474
▁arti	-4475
dettalji	-4476
▁miftuħa	-4477
lingwa	-4478
▁għalih	-4479
kopru	-4480
▁illegali	-4481
traffiku	-4482
fjuwil	-4483
premessa	-4484
ejjer	-4485
▁normalment	-4486
ben	-4487
funzjonament	-4488
vul	-4489
▁Reġ	-4490
tjar	-4491
ranziji	-4492
pu	-4493
ENT	-4494
▁kis	-4495
ogħlijiet	-4496
endiċi	-4497
▁jinkiseb	-4498
▁jidħlu	-4499
sussid	-4500
▁tgħin	-4501
kompiti	-4502
riżulta	-4503
Enerġija	-4504
▁tirre	-4505
ġġeri	-4506
proprjetà	-4507
vizz	-4508
▁tu	-4509
ross	-4510
miri	-4511
ozzi	-4512
qiegħed	-4513
dizzjonali	-4514
Pjan	-4515
law	-4516
negozji	-4517
▁minnufih	-4518
kup	-4519
▁new	-4520
relazzjoni	-4521
▁assistenza	-4522
▁impriżi	-4523
tl	-4524
ħaż	-4525
▁strument	-4526
massa	-4527
urgu	-4528
Suq	-4529
▁mingħand	-4530
differenza	-4531
hed	-4532
dituri	-4533
▁propost	-4534
▁jinsab	-4535
istrument	-4536
ċievi	-4537
▁korpi	-4538
terminu	-4539
-26	-4540
ang	-4541
▁konċerna	-4542
▁jipparte	-4543
fis	-4544
jant	-4545
▁300	-4546
▁To	-4547
duċu	-4548
▁jwassal	-4549
fażi	-4550
▁Stru	-4551
▁qasir	-4552
▁jikkontribwixxu	-4553
23	-4554
dam	-4555
isfidi	-4556
▁kumpl	-4557
karbu	-4558
proposti	-4559
▁kumpens	-4560
ċiżi	-4561
emendi	-4562
koordinazzjoni	-4563
▁Mill	-4564
▁and	-4565
▁ewlenija	-4566
orru	-4567
Af	-4568
eskrizzjoni	-4569
Drittijiet	-4570
istudji	-4571
▁esklużi	-4572
▁soli	-4573
ddiema	-4574
▁jintlaħaq	-4575
ffiċli	-4576
▁taxxa	-4577
▁bijo	-4578
vant	-4579
xejn	-4580
▁prijorità	-4581
▁maq	-4582
▁faċli	-4583
▁ċertu	-4584
Sistema	-4585
▁qbil	-4586
dal	-4587
▁supp	-4588
investimenti	-4589
▁ten	-4590
PC	-4591
forniment	-4592
tliet	-4593
▁għadu	-4594
▁Iċ	-4595
▁dewmien	-4596
istatus	-4597
▁ġen	-4598
rov	-4599
ġarr	-4600
▁Spe	-4601
▁jaffettwaw	-4602
▁Medi	-4603
▁sorsi	-4604
ira	-4605
mwovi	-4606
sħana	-4607
titola	-4608
metri	-4609
▁sintomi	-4610
▁qatt	-4611
▁jitwettqu	-4612
▁teħtieġ	-4613
Affarijiet	-4614
▁korrispond	-4615
dine	-4616
▁Wa	-4617
▁jgħinu	-4618
▁Xi	-4619
vvjaġġ	-4620
▁sol	-4621
▁esperjenza	-4622
tirar	-4623
oniment	-4624
▁jirrigwar	-4625
▁ċara	-4626
▁diffiċli	-4627
stiku	-4628
▁provv	-4629
▁jon	-4630
▁[4	-4631
▁bankar	-4632
▁kellha	-4633
▁kap	-4634
▁relatat	-4635
olonja	-4636
▁maħsub	-4637
▁formali	-4638
▁madankollu	-4639
abra	-4640
▁85	-4641
▁affettwa	-4642
Tabella	-4643
▁te	-4644
ulxin	-4645
▁jibbene	-4646
▁jissodisfa	-4647
tla	-4648
▁kin	-4649
▁Anness	-4650
fassil	-4651
▁4,	-4652
▁tidd	-4653
tħa	-4654
▁ikollu	-4655
▁prattika	-4656
▁titlob	-4657
azzar	-4658
RS	-4659
eġislazzjoni	-4660
▁tirċievi	-4661
sim	-4662
▁3.1	-4663
darba	-4664
▁informa	-4665
menta	-4666
ġġetta	-4667
Medi	-4668
28	-4669
▁joriġinaw	-4670
▁inkwistjoni	-4671
vabbli	-4672
▁neg	-4673
▁ulterjuri	-4674
bona	-4675
ġenu	-4676
raba	-4677
vja	-4678
▁Dawk	-4679
▁2008/	-4680
▁sussid	-4681
ster	-4682
ilment	-4683
dependi	-4684
grikoltura	-4685
▁kuntatt	-4686
▁jseħħ	-4687
ċedura	-4688
▁korp	-4689
▁wisq	-4690
▁kumpanija	-4691
sparenti	-4692
elega	-4693
▁effettivi	-4694
▁wiesgħa	-4695
▁rikonoxxu	-4696
twaqqif	-4697
soluzzjoni	-4698
▁Fis	-4699
prattika	-4700
kundizzjoni	-4701
▁jikkonċernaw	-4702
impriża	-4703
aspetti	-4704
▁fiżiċi	-4705
pendenza	-4706
▁48	-4707
flok	-4708
kwali	-4709
▁500	-4710
ħoss	-4711
▁et	-4712
tħaddim	-4713
allokazzjoni	-4714
fassal	-4715
▁trab	-4716
▁progress	-4717
rikonoxximent	-4718
ħab	-4719
▁rivedu	-4720
▁Għandha	-4721
Greċja	-4722
▁ibbażat	-4723
fruntiera	-4724
par	-4725
ratorju	-4726
▁osservati	-4727
▁bin	-4728
stanti	-4729
tikament	-4730
▁deri	-4731
wed	-4732
rus	-4733
rodi	-4734
ġdida	-4735
▁plaċebo	-4736
▁VI	-4737
saħħaħ	-4738
▁Stud	-4739
gs	-4740
▁--	-4741
▁garanzija	-4742
▁Finanzjarju	-4743
BB	-4744
▁sentejn	-4745
▁proprji	-4746
ispe	-4747
▁oqsma	-4748
▁xulxin	-4749
▁kważi	-4750
stik	-4751
tifsira	-4752
▁riżultati	-4753
▁kaw	-4754
▁Euratom	-4755
▁qawwi	-4756
spett	-4757
pportunità	-4758
Su	-4759
▁diretti	-4760
new	-4761
Vi	-4762
▁abb	-4763
▁(3)	-4764
▁nukleari	-4765
▁inċi	-4766
▁provviżor	-4767
▁*	-4768
jolo	-4769
mpli	-4770
fornitur	-4771
▁magħhom	-4772
idejn	-4773
▁trasparenti	-4774
wwija	-4775
/2010	-4776
individ	-4777
batti	-4778
essjonijiet	-4779
kine	-4780
/11	-4781
▁2000	-4782
97	-4783
▁jt	-4784
▁Tel	-4785
relazzjonijiet	-4786
▁kkonċernat	-4787
26	-4788
diversità	-4789
ħiliet	-4790
ommarju	-4791
▁spiss	-4792
rapporta	-4793
▁CYP	-4794
ssijiet	-4795
-29	-4796
as	-4797
ressaq	-4798
35	-4799
▁vettura	-4800
kuntra	-4801
koraġġi	-4802
▁tibdil	-4803
materjal	-4804
▁qawwija	-4805
unnella	-4806
▁forma	-4807
daħħlu	-4808
05	-4809
FA	-4810
▁elementi	-4811
bank	-4812
imgħax	-4813
▁Qabel	-4814
▁Com	-4815
▁dikjarazzjoni	-4816
Linji	-4817
▁jim	-4818
▁tgħa	-4819
▁rurali	-4820
kkar	-4821
▁seħħ	-4822
▁proba	-4823
▁uniformi	-4824
/2004	-4825
▁dritt	-4826
▁mezzi	-4827
▁jiżdiedu	-4828
-24	-4829
umpan	-4830
gan	-4831
▁tnaqqas	-4832
▁jibda	-4833
attenzjoni	-4834
ejda	-4835
▁skart	-4836
rossa	-4837
▁notifika	-4838
karbonju	-4839
▁Komunitarju	-4840
▁liċenz	-4841
NA	-4842
okra	-4843
patti	-4844
ħan	-4845
▁jrid	-4846
▁no	-4847
▁riżultat	-4848
▁statistika	-4849
▁4.2	-4850
ry	-4851
▁sat	-4852
▁ippubbli	-4853
inklużjoni	-4854
distribuzzjoni	-4855
venza	-4856
▁4.4	-4857
maġġoranza	-4858
ħġieġ	-4859
▁[...	-4860
disin	-4861
▁darbtejn	-4862
omma	-4863
▁intra	-4864
essuti	-4865
▁tappoġġ	-4866
▁BĊ	-4867
▁nisa	-4868
fin	-4869
ters	-4870
▁sel	-4871
▁kriterji	-4872
▁tiegħi	-4873
▁eżempju	-4874
▁unità	-4875
Slo	-4876
▁(200	-4877
▁Prodotti	-4878
kra	-4879
▁65	-4880
(1),	-4881
ESS	-4882
▁lid	-4883
vizzera	-4884
fiża	-4885
ittestjar	-4886
unità	-4887
erminazzjoni	-4888
idro	-4889
offerti	-4890
▁1).	-4891
▁lo	-4892
▁jiġġ	-4893
▁rinno	-4894
Ung	-4895
bru	-4896
benefiċċju	-4897
▁2009/	-4898
kki	-4899
▁operazzjonijiet	-4900
▁tranżi	-4901
modi	-4902
▁maħru	-4903
ċipaw	-4904
ajruport	-4905
▁rrappur	-4906
▁CO	-4907
▁użata	-4908
▁Se	-4909
▁jinbidel	-4910
ċil	-4911
▁prevista	-4912
▁go	-4913
eżerċizzju	-4914
mika	-4915
▁ftehimiet	-4916
qan	-4917
▁Valu	-4918
▁IU	-4919
ty	-4920
▁prattiki	-4921
▁ling	-4922
kketti	-4923
▁kapitali	-4924
bal	-4925
und	-4926
▁2018	-4927
▁tidħol	-4928
▁(4	-4929
▁prova	-4930
▁għaliha	-4931
▁trasport	-4932
ler	-4933
▁illi	-4934
▁tari	-4935
▁mitluba	-4936
restri	-4937
▁4.1	-4938
▁tikko	-4939
▁natura	-4940
vin	-4941
▁sodi	-4942
▁aċċetta	-4943
Polonja	-4944
▁akkumpan	-4945
▁domestiċi	-4946
▁ŻEE	-4947
rispetta	-4948
▁jitnaqqas	-4949
dardi	-4950
▁ċittadini	-4951
tmiem	-4952
Net	-4953
vagward	-4954
istgħu	-4955
hmu	-4956
firxa	-4957
▁parteċipanti	-4958
wn	-4959
▁volon	-4960
▁offer	-4961
12	-4962
żidu	-4963
delli	-4964
irkupru	-4965
▁°	-4966
▁korrispondenti	-4967
▁għalkemm	-4968
▁the	-4969
ordni	-4970
rinċipa	-4971
▁iqis	-4972
▁metodi	-4973
titoli	-4974
▁70	-4975
olbu	-4976
kontrolla	-4977
ggre	-4978
▁kapital	-4979
ħeġġeġ	-4980
fidenzjali	-4981
▁applikat	-4982
▁Minn	-4983
imsieħba	-4984
kliewi	-4985
▁Taħ	-4986
regolamenti	-4987
."	-4988
▁jiġb	-4989
mard	-4990
▁imposti	-4991
eti	-4992
▁38	-4993
▁bejgħ	-4994
▁prezz	-4995
taqsima	-4996
-2013	-4997
▁pass	-4998
▁perikolu	-4999
strija	-5000
perturi	-5001
ras	-5002
▁opinjoni	-5003
eżamina	-5004
animarka	-5005
problemi	-5006
▁oriġini	-5007
vj	-5008
▁sussegwenti	-5009
▁trasferi	-5010
▁dettaljati	-5011
ċett	-5012
sħiħ	-5013
fehma	-5014
sajt	-5015
▁għadha	-5016
▁kru	-5017
ilmijiet	-5018
ore	-5019
▁insulina	-5020
▁jiksbu	-5021
▁minkejja	-5022
dra	-5023
▁2.1	-5024
landja	-5025
▁Għandhom	-5026
▁mix	-5027
nnessi	-5028
▁jinżammu	-5029
qalb	-5030
istatistika	-5031
▁ink	-5032
▁titji	-5033
kord	-5034
▁aġġustament	-5035
porzjonali	-5036
▁jiffaċili	-5037
ST	-5038
▁kkalku	-5039
▁jissu	-5040
konsultazzjoni	-5041
RI	-5042
UQ	-5043
jamma	-5044
td	-5045
rum	-5046
kiseb	-5047
▁esklu	-5048
▁soġġett	-5049
▁kinux	-5050
▁multip	-5051
▁neċessarju	-5052
kejjel	-5053
ominali	-5054
intestatura	-5055
▁magħżu	-5056
komponenti	-5057
pol	-5058
jegat	-5059
▁bidliet	-5060
ċiża	-5061
Eurosistema	-5062
terran	-5063
dimen	-5064
vernattiv	-5065
pine	-5066
tut	-5067
▁proprjetà	-5068
depożi	-5069
▁depożi	-5070
iżviluppi	-5071
▁fatturi	-5072
Direttivi	-5073
▁tippreżenta	-5074
16	-5075
impenji	-5076
ispiża	-5077
0)	-5078
▁kontinwa	-5079
ligħ	-5080
eżistenza	-5081
For	-5082
▁Mu	-5083
▁għarfien	-5084
ħarriġ	-5085
▁Konġunt	-5086
xiri	-5087
▁ferrov	-5088
▁Minkejja	-5089
▁rispons	-5090
ġixxu	-5091
prijoritajiet	-5092
▁varja	-5093
▁investigazzjoni	-5094
put	-5095
operat	-5096
stri	-5097
▁ipprovdu	-5098
▁immedjatament	-5099
▁vul	-5100
inu	-5101
MA	-5102
MS	-5103
kap	-5104
trasparenza	-5105
ċjal	-5106
assistenza	-5107
▁regolatorja	-5108
hy	-5109
konta	-5110
▁esperti	-5111
ome	-5112
▁Ċini	-5113
ġenji	-5114
▁Numru	-5115
PP	-5116
rità	-5117
▁reazzjoni	-5118
▁ġuridika	-5119
ftuħ	-5120
▁Ltd	-5121
▁partikulari	-5122
▁evitat	-5123
letti	-5124
ms	-5125
▁modera	-5126
zole	-5127
ġib	-5128
bżonn	-5129
▁Iżda	-5130
aterali	-5131
▁iridu	-5132
jetajiet	-5133
merċ	-5134
13	-5135
▁rinnovabbli	-5136
/2007	-5137
-"	-5138
▁awtoritajiet	-5139
▁2005	-5140
▁maħruġa	-5141
▁kontraenti	-5142
AND	-5143
▁ras	-5144
(200	-5145
kliem	-5146
▁operazzjonali	-5147
twelid	-5148
tili	-5149
▁Ministru	-5150
▁jikkorrisp	-5151
▁joffru	-5152
▁irregola	-5153
▁jinvolvu	-5154
Kummiss	-5155
RE	-5156
29	-5157
▁muni	-5158
▁1/	-5159
uqqa	-5160
niġġ	-5161
bbrika	-5162
▁adegwat	-5163
▁tikkunsidra	-5164
ekuttiv	-5165
▁alternattivi	-5166
jbizzjoni	-5167
17	-5168
▁organizzazzjoni	-5169
ib	-5170
setgħat	-5171
▁stati	-5172
▁insu	-5173
referenza	-5174
(5)	-5175
gat	-5176
Karta	-5177
▁mbagħad	-5178
żazzjoni	-5179
▁bastimenti	-5180
avv	-5181
ttaforma	-5182
▁prepara	-5183
fittex	-5184
aġġusta	-5185
▁jirrappreżentaw	-5186
Annessi	-5187
▁Nor	-5188
▁mmi	-5189
raf	-5190
▁klinika	-5191
Belġju	-5192
noloġiji	-5193
tenti	-5194
▁impjieg	-5195
konsegw	-5196
14	-5197
▁Ro	-5198
Danimarka	-5199
ffiċjal	-5200
ogħob	-5201
▁awtomati	-5202
kil	-5203
▁js	-5204
▁[2]	-5205
▁dist	-5206
▁kompatibbli	-5207
▁App	-5208
veloċità	-5209
oqsijiet	-5210
▁rapporti	-5211
vverifika	-5212
ajd	-5213
▁massimi	-5214
▁ipo	-5215
▁ġurnata	-5216
qot	-5217
netwerks	-5218
fatturi	-5219
tagħlim	-5220
ddikja	-5221
RP	-5222
▁residenza	-5223
ffikultajiet	-5224
forz	-5225
TC	-5226
▁marbutin	-5227
tell	-5228
ren	-5229
▁esterna	-5230
mija	-5231
▁politiku	-5232
▁sottom	-5233
▁ffinanz	-5234
//	-5235
mata	-5236
▁rappur	-5237
vament	-5238
▁bażiċi	-5239
jt	-5240
immaniġġ	-5241
▁tidher	-5242
peċifika	-5243
▁jwasslu	-5244
▁ifisser	-5245
▁xejn	-5246
▁un	-5247
▁konsegw	-5248
▁fiss	-5249
▁neċessarji	-5250
ieku	-5251
onja	-5252
▁2002	-5253
ftehimiet	-5254
roq	-5255
duċja	-5256
▁liber	-5257
europa	-5258
▁sostitwit	-5259
▁kurrenti	-5260
▁dopp	-5261
▁applikata	-5262
▁approvazzjoni	-5263
▁tiff	-5264
ettat	-5265
▁approvati	-5266
27	-5267
▁fri	-5268
▁adulti	-5269
▁minnha	-5270
vestiment	-5271
▁Pazjenti	-5272
dawk	-5273
ħafna	-5274
bidliet	-5275
nis	-5276
▁inizjattivi	-5277
▁sess	-5278
▁Opinjoni	-5279
Sin	-5280
▁avvanz	-5281
kkinarju	-5282
▁150	-5283
rizzaw	-5284
ċidi	-5285
uqqasijiet	-5286
ggaranti	-5287
akbar	-5288
▁Permezz	-5289
Appendiċi	-5290
▁intitola	-5291
inijiet	-5292
://	-5293
▁kkonċernata	-5294
ffaċċ	-5295
metru	-5296
opportunitajiet	-5297
▁mili	-5298
▁kimiċi	-5299
▁ddetermina	-5300
▁vvalu	-5301
▁skambju	-5302
kontribwixxi	-5303
fija	-5304
▁tindi	-5305
garanzija	-5306
anni	-5307
▁produtturi	-5308
appropr	-5309
▁President	-5310
▁(5	-5311
▁żoni	-5312
fix	-5313
tfassil	-5314
qaf	-5315
▁[1]	-5316
▁renali	-5317
ttp	-5318
.199	-5319
unnellata	-5320
ingrossa	-5321
waljanza	-5322
▁prezzijiet	-5323
▁strateġija	-5324
ettar	-5325
▁ddikja	-5326
▁Ga	-5327
▁Ac	-5328
onu	-5329
Malta	-5330
▁darbiet	-5331
TFUE	-5332
▁benefiċċji	-5333
alli	-5334
▁stabbli	-5335
▁jinkisbu	-5336
▁Aktar	-5337
versali	-5338
up	-5339
▁tri	-5340
▁benefiċċju	-5341
ttivament	-5342
▁permess	-5343
▁arranġamenti	-5344
▁reż	-5345
materjali	-5346
▁żgħir	-5347
▁emerġenza	-5348
▁komponenti	-5349
-2010	-5350
oloq	-5351
▁tipproponi	-5352
▁pożittiv	-5353
jiġi	-5354
▁2003/	-5355
viluppa	-5356
▁oġġ	-5357
ċirkostanzi	-5358
▁kompara	-5359
lingwi	-5360
▁39	-5361
▁kkurati	-5362
▁mwettqa	-5363
▁tinżamm	-5364
▁deleg	-5365
jalment	-5366
(201	-5367
▁konġunta	-5368
VA	-5369
tattivi	-5370
eh	-5371
lori	-5372
bor	-5373
PI	-5374
43	-5375
▁ġust	-5376
▁rakkomandat	-5377
wieġ	-5378
▁promo	-5379
▁negozju	-5380
(2),	-5381
▁jitnaqqsu	-5382
▁bħalma	-5383
▁titt	-5384
Saħħa	-5385
▁drabi	-5386
▁2006/	-5387
prof	-5388
lajn	-5389
▁provdu	-5390
▁jistipula	-5391
▁politiki	-5392
▁protetti	-5393
essibbiltà	-5394
kredi	-5395
CA	-5396
▁pakkett	-5397
▁Riż	-5398
▁isfel	-5399
rekwiżit	-5400
▁ppreżentati	-5401
▁kko	-5402
erenti	-5403
▁ħaż	-5404
▁kwistjoni	-5405
enzjonijiet	-5406
▁istituzzjoni	-5407
pew	-5408
▁jeżistu	-5409
▁wħud	-5410
▁Pubbli	-5411
detentur	-5412
▁magħżula	-5413
-2008	-5414
gaw	-5415
▁ngħataw	-5416
”).	-5417
orġu	-5418
ispazju	-5419
▁Bl	-5420
▁jimplimentaw	-5421
▁trasferiment	-5422
▁riskji	-5423
troll	-5424
▁jiċċ	-5425
għandhiex	-5426
▁Speċjali	-5427
▁bo	-5428
▁skala	-5429
libertà	-5430
▁serju	-5431
-2007	-5432
CH	-5433
▁vs	-5434
ortuga	-5435
vernijiet	-5436
▁rispettivi	-5437
▁Tabella	-5438
perazzjoni	-5439
▁sigħat	-5440
▁Peress	-5441
istokk	-5442
▁joperaw	-5443
(3	-5444
ttadin	-5445
▁miġbu	-5446
tattiv	-5447
▁kuntrattwali	-5448
▁rati	-5449
▁Komunitarji	-5450
Fin	-5451
lest	-5452
▁impriża	-5453
Lvant	-5454
▁wera	-5455
▁mezz	-5456
naqqsa	-5457
aħar	-5458
▁Tu	-5459
▁jitolbu	-5460
▁[1],	-5461
lek	-5462
▁107	-5463
WT	-5464
datta	-5465
ishma	-5466
▁rrakkomanda	-5467
▁assen	-5468
93	-5469
pretazzjoni	-5470
▁%.	-5471
jur	-5472
wor	-5473
▁importanza	-5474
▁tix	-5475
▁kapaċità	-5476
UL	-5477
▁skemi	-5478
▁operattivi	-5479
▁aller	-5480
▁Ji	-5481
▁kondizzjonijiet	-5482
▁parzjali	-5483
verti	-5484
likwi	-5485
▁St	-5486
volviment	-5487
romb	-5488
▁jibdew	-5489
SS	-5490
injam	-5491
ċċetta	-5492
▁ina	-5493
▁inibi	-5494
▁għoljin	-5495
▁għaldaqstant	-5496
▁Ru	-5497
▁ist	-5498
▁tikseb	-5499
jaq	-5500
preżenza	-5501
pora	-5502
medda	-5503
leġislazzjoni	-5504
▁ħaddiema	-5505
lea	-5506
▁co	-5507
kostruzzjoni	-5508
▁ibbażata	-5509
rganizzazzjoni	-5510
▁minflok	-5511
AK	-5512
▁testijiet	-5513
▁95	-5514
odoloġija	-5515
▁jibbenefikaw	-5516
▁Int	-5517
ezza	-5518
▁mħall	-5519
llimi	-5520
wwa	-5521
▁88	-5522
tugħ	-5523
tikketta	-5524
▁Jo	-5525
ġġusti	-5526
▁5.1	-5527
▁alfa	-5528
utent	-5529
▁emendi	-5530
▁jipparteċipaw	-5531
objettiv	-5532
▁ikollok	-5533
▁Ekonomika	-5534
▁infezzjoni	-5535
▁suġġett	-5536
▁negattiv	-5537
▁firxa	-5538
▁enfasi	-5539
▁Governattiv	-5540
ILL	-5541
djalogu	-5542
ejjieni	-5543
reġistru	-5544
prop	-5545
▁tissodisfa	-5546
riforma	-5547
vvaluta	-5548
▁3.2	-5549
engen	-5550
▁ttest	-5551
BĊN	-5552
inhu	-5553
36	-5554
labo	-5555
ewa	-5556
Segre	-5557
▁den	-5558
▁2015/	-5559
▁konġunt	-5560
▁sinjali	-5561
rinċipalment	-5562
▁tiżviluppa	-5563
erni	-5564
limenta	-5565
istabbiltà	-5566
▁2002/	-5567
ys	-5568
orji	-5569
ussemb	-5570
minbarra	-5571
kkja	-5572
llera	-5573
kostijiet	-5574
▁jirregola	-5575
beda	-5576
tranżazzjonijiet	-5577
▁Konġunta	-5578
emel	-5579
▁jidenti	-5580
għatat	-5581
anzjonijiet	-5582
ring	-5583
▁prima	-5584
manifatturi	-5585
jazzjonijiet	-5586
”;	-5587
▁soluzzjonijiet	-5588
▁fol	-5589
mit	-5590
riżmu	-5591
▁toħloq	-5592
mra	-5593
issija	-5594
disponi	-5595
▁domestiku	-5596
▁kontinwu	-5597
▁(201	-5598
▁residenti	-5599
arati	-5600
▁Free	-5601
▁Bank	-5602
▁qrib	-5603
lett	-5604
▁kruċjali	-5605
laxx	-5606
▁opportunitajiet	-5607
48	-5608
dru	-5609
▁provi	-5610
▁amministrattiv	-5611
▁tikkontribwixxi	-5612
▁koordinazzjoni	-5613
deroga	-5614
qab	-5615
ħut	-5616
orjali	-5617
pprova	-5618
▁proġett	-5619
▁liberu	-5620
▁infużjoni	-5621
▁130	-5622
minju	-5623
▁dja	-5624
sinhar	-5625
▁Uniku	-5626
ulga	-5627
▁miżmuma	-5628
wir	-5629
zjonijiet	-5630
ċiklu	-5631
IŻ	-5632
▁jindirizzaw	-5633
liminari	-5634
▁idro	-5635
didati	-5636
',	-5637
impjegati	-5638
karti	-5639
▁jwettqu	-5640
Nazzjonijiet	-5641
tn	-5642
▁ferm	-5643
emitt	-5644
avjazzjoni	-5645
22	-5646
▁fuqhom	-5647
▁negattivi	-5648
▁acid	-5649
▁mgħamm	-5650
Baħar	-5651
▁2003	-5652
▁jiddet	-5653
▁eċċe	-5654
▁onlajn	-5655
eġisla	-5656
▁ħielsa	-5657
▁kontrolli	-5658
kapaċi	-5659
cro	-5660
total	-5661
ssazzjoni	-5662
▁joħolqu	-5663
rejk	-5664
orevoli	-5665
zokkor	-5666
proċessi	-5667
▁metaboli	-5668
isteru	-5669
▁Schengen	-5670
▁jikkontribwixxi	-5671
▁disti	-5672
▁Kien	-5673
▁ikbar	-5674
unitajiet	-5675
dik	-5676
koħol	-5677
cy	-5678
Qa	-5679
▁je	-5680
fikaċi	-5681
kummenti	-5682
▁UE	-5683
laħam	-5684
▁[5	-5685
▁jgħix	-5686
rew	-5687
ori	-5688
impli	-5689
▁affida	-5690
▁linja	-5691
▁marbut	-5692
▁kunjett	-5693
ze	-5694
imnut	-5695
▁parzjalment	-5696
▁bikri	-5697
▁Pers	-5698
loro	-5699
▁ħaġa	-5700
▁ġeografika	-5701
qsu	-5702
hra	-5703
piżjar	-5704
fassla	-5705
▁preliminari	-5706
delega	-5707
▁Ch	-5708
ste	-5709
format	-5710
adeżjoni	-5711
parteċipanti	-5712
bdi	-5713
▁dovu	-5714
funzjonijiet	-5715
jieda	-5716
kompetenza	-5717
iegħu	-5718
▁xorta	-5719
ittra	-5720
▁jass	-5721
odju	-5722
▁esportaturi	-5723
kulur	-5724
janar	-5725
ġejjieni	-5726
▁Kontraenti	-5727
bagħtu	-5728
▁benefiċ	-5729
ewt	-5730
ritorjali	-5731
konċentrazzjoni	-5732
ekwiżi	-5733
▁5,	-5734
▁ppreżentat	-5735
▁;	-5736
▁taf	-5737
▁deskritt	-5738
▁web	-5739
▁joħorġu	-5740
▁meqjusa	-5741
stallazzjoni	-5742
▁diża	-5743
bit	-5744
posi	-5745
bastiment	-5746
ensità	-5747
magħ	-5748
▁Tek	-5749
▁nies	-5750
▁separati	-5751
▁assigurazzjoni	-5752
65	-5753
nar	-5754
▁jilħqu	-5755
▁kampjuni	-5756
▁makro	-5757
aktarx	-5758
plastik	-5759
67	-5760
ġil	-5761
▁jittra	-5762
▁serra	-5763
▁żdied	-5764
rel	-5765
▁ħażin	-5766
▁jaġixxi	-5767
▁vantaġġ	-5768
pazjent	-5769
jiġifieri	-5770
▁Opera	-5771
▁mani	-5772
▁Jista	-5773
▁Europe	-5774
▁impjiegi	-5775
▁tindika	-5776
AB	-5777
▁ssodisfa	-5778
▁Bel	-5779
▁47	-5780
ou	-5781
dazju	-5782
▁sodium	-5783
atturi	-5784
stitwixxu	-5785
eħid	-5786
odod	-5787
elliġenti	-5788
▁prinċipalment	-5789
frekwenza	-5790
▁Le	-5791
mekkaniżmu	-5792
▁minuta	-5793
lika	-5794
▁Paper	-5795
▁2004/	-5796
▁regolatorju	-5797
-2009	-5798
▁[...]	-5799
kontrollati	-5800
pereżempju	-5801
▁Fin	-5802
eġiba	-5803
enzjalment	-5804
oss	-5805
ċentru	-5806
mla	-5807
▁pen	-5808
▁xjentifika	-5809
▁jiddeċiedi	-5810
inanza	-5811
▁iddeċi	-5812
ortugall	-5813
ussemburgu	-5814
onna	-5815
▁hydro	-5816
Riċerka	-5817
▁Ewropa	-5818
FE	-5819
▁tq	-5820
ħsara	-5821
ondu	-5822
websajt	-5823
▁jħassar	-5824
▁tinkiseb	-5825
ċentwali	-5826
Rapport	-5827
kija	-5828
Rum	-5829
▁sentenza	-5830
▁kliniku	-5831
▁irreġistra	-5832
▁dokument	-5833
▁ħieles	-5834
▁fosthom	-5835
▁reċiproku	-5836
▁inizjattiva	-5837
umri	-5838
▁operazzjoni	-5839
▁għajn	-5840
tariffi	-5841
▁55	-5842
▁għoti	-5843
▁taw	-5844
Sajd	-5845
benefiċjarji	-5846
mutur	-5847
▁iddikja	-5848
▁aċċessibbli	-5849
▁tunnellata	-5850
▁nhar	-5851
tarjat	-5852
aġenziji	-5853
qija	-5854
determinazzjoni	-5855
eħħa	-5856
dji	-5857
▁espress	-5858
▁aspetti	-5859
Għa	-5860
▁toħroġ	-5861
▁sikurezza	-5862
".	-5863
paġna	-5864
▁rist	-5865
nifs	-5866
▁ħadu	-5867
▁tirriżulta	-5868
▁Mingħajr	-5869
▁jipproduċu	-5870
slu	-5871
▁konsider	-5872
▁imħall	-5873
▁tħassib	-5874
▁diskuss	-5875
teknoloġiji	-5876
Mar	-5877
Internet	-5878
jaqsam	-5879
▁prote	-5880
▁individwi	-5881
▁konkluż	-5882
▁faċili	-5883
▁tisso	-5884
waħħ	-5885
metall	-5886
Kummissarju	-5887
▁Tran	-5888
▁jikkom	-5889
ġe	-5890
▁kulħadd	-5891
ep	-5892
▁ġewx	-5893
Żona	-5894
▁limitati	-5895
ned	-5896
▁għażla	-5897
ediment	-5898
fluwenza	-5899
▁dettaljata	-5900
MI	-5901
gliż	-5902
negozjar	-5903
hemmx	-5904
nera	-5905
superviżjoni	-5906
38	-5907
jenzi	-5908
iskadenza	-5909
profi	-5910
▁bidu	-5911
Kor	-5912
uffiċċju	-5913
▁viżi	-5914
Nor	-5915
pari	-5916
▁taz	-5917
▁wiċċ	-5918
▁deskritti	-5919
Awdituri	-5920
▁tikkonċerna	-5921
riżoluzzjoni	-5922
▁Waqt	-5923
▁2014/	-5924
▁futuri	-5925
vezja	-5926
ruzzjoni	-5927
unent	-5928
▁tiddeċiedi	-5929
tela	-5930
darjetà	-5931
ct	-5932
▁monetarja	-5933
▁(4)	-5934
inċi	-5935
ategoriji	-5936
bord	-5937
49	-5938
ġiba	-5939
▁militari	-5940
▁favorevoli	-5941
Al	-5942
▁gass	-5943
proċedimenti	-5944
-2012	-5945
max	-5946
▁PRO	-5947
▁2.2	-5948
battitu	-5949
jaqsmu	-5950
individwi	-5951
biż	-5952
Kummerċ	-5953
DI	-5954
▁avvenimenti	-5955
sistenza	-5956
direzzjoni	-5957
Liġi	-5958
wim	-5959
66	-5960
kkomandazzjoni	-5961
▁vin	-5962
ċirku	-5963
ġimgħa	-5964
ċċin	-5965
▁innovattivi	-5966
▁AN	-5967
▁fra	-5968
laqgħat	-5969
▁lib	-5970
kunċett	-5971
▁teknoloġiji	-5972
▁Magħmul	-5973
▁fwied	-5974
Ċentru	-5975
▁reġistrazzjoni	-5976
▁emissjonijiet	-5977
▁effikaċi	-5978
’.	-5979
▁kkaw	-5980
Portugall	-5981
xxenti	-5982
kunsiderazzjoni	-5983
ding	-5984
▁aku	-5985
gati	-5986
edja	-5987
▁http	-5988
ark	-5989
mbu	-5990
▁lUnjoni	-5991
bro	-5992
Rumanija	-5993
▁inċenti	-5994
żommu	-5995
OP	-5996
▁bbażat	-5997
stituzzjonali	-5998
għda	-5999
▁funzjoni	-6000
eżekuzzjoni	-6001
▁stat	-6002
▁tmur	-6003
konnessjoni	-6004
IE	-6005
rappreżentanti	-6006
titji	-6007
▁On	-6008
pedi	-6009
Ungerija	-6010
CAS	-6011
▁inkella	-6012
▁jindika	-6013
neħħa	-6014
▁Emen	-6015
ppreżentaw	-6016
▁um	-6017
tħejjija	-6018
vina	-6019
riffa	-6020
▁skopijiet	-6021
trasp	-6022
▁għot	-6023
ermani	-6024
EFTA	-6025
binazzjoni	-6026
kku	-6027
",	-6028
▁saħħa	-6029
stat	-6030
rispett	-6031
▁FUQ	-6032
faqar	-6033
FC	-6034
▁pproċess	-6035
erba	-6036
▁2001/	-6037
gon	-6038
▁ċirko	-6039
anzjani	-6040
var	-6041
initx	-6042
▁kulur	-6043
ħoloq	-6044
onda	-6045
evita	-6046
umi	-6047
▁eċċezzjonali	-6048
45	-6049
▁unitajiet	-6050
▁investimenti	-6051
/2002	-6052
prendi	-6053
-0	-6054
blu	-6055
rema	-6056
kl	-6057
tossi	-6058
fus	-6059
talbiet	-6060
kijiet	-6061
▁Stra	-6062
veġ	-6063
regolament	-6064
gha	-6065
kell	-6066
▁eżerċi	-6067
▁apposta	-6068
Afrika	-6069
qra	-6070
▁osservat	-6071
▁Kwalunkwe	-6072
▁preskri	-6073
▁barranin	-6074
▁kinitx	-6075
pjanijiet	-6076
▁fornituri	-6077
▁żona	-6078
▁Pi	-6079
▁assigura	-6080
▁influ	-6081
▁ieb	-6082
▁tindirizza	-6083
▁43	-6084
▁bilaterali	-6085
▁offru	-6086
▁ep	-6087
▁osta	-6088
▁swieq	-6089
katina	-6090
▁rċev	-6091
▁leġisla	-6092
der	-6093
vigazzjoni	-6094
Komunitajiet	-6095
▁abbord	-6096
kapaċitajiet	-6097
tagħbija	-6098
artan	-6099
▁kompetizzjoni	-6100
CT	-6101
-2014	-6102
▁tradizzjonali	-6103
▁mobbli	-6104
Awstrija	-6105
▁15-	-6106
partiment	-6107
▁stmat	-6108
fluss	-6109
▁euro	-6110
▁jeżerċi	-6111
isqof	-6112
▁jaġixxu	-6113
ulgarija	-6114
ssim	-6115
OLU	-6116
ans	-6117
tter	-6118
▁GĦALL	-6119
investituri	-6120
xahar	-6121
magni	-6122
karozzi	-6123
għeluq	-6124
deri	-6125
▁għaddej	-6126
ominazzjoni	-6127
▁BĊE	-6128
sel	-6129
diviżjoni	-6130
trażmissjoni	-6131
▁sim	-6132
gol	-6133
▁jindikaw	-6134
▁elettriku	-6135
egalment	-6136
bilizzazzjoni	-6137
pping	-6138
konsoli	-6139
ġent	-6140
venti	-6141
preżentazzjoni	-6142
dist	-6143
bijiet	-6144
jura	-6145
▁identifikat	-6146
(2)(	-6147
terju	-6148
▁reċenti	-6149
▁ħafi	-6150
▁konta	-6151
spettiva	-6152
ksur	-6153
▁400	-6154
▁dub	-6155
inklużi	-6156
▁Servizzi	-6157
18	-6158
▁kieku	-6159
ovu	-6160
▁---	-6161
egra	-6162
iskemi	-6163
▁pożizzjoni	-6164
kwantitajiet	-6165
munta	-6166
qiegħdu	-6167
▁pagamenti	-6168
▁jippreżenta	-6169
▁territorjali	-6170
sew	-6171
▁COM	-6172
feron	-6173
rispettivament	-6174
ħares	-6175
▁2007/	-6176
▁Għalkemm	-6177
Fa	-6178
Lussemburgu	-6179
fol	-6180
ussja	-6181
▁iwettqu	-6182
fajl	-6183
▁stadju	-6184
roazja	-6185
▁dinji	-6186
▁suppli	-6187
fiċ	-6188
ation	-6189
▁jippreżentaw	-6190
rimi	-6191
ċisqof	-6192
▁jesp	-6193
▁jkopri	-6194
irtirar	-6195
kwantità	-6196
▁dejn	-6197
▁56	-6198
▁4.3	-6199
▁japp	-6200
▁Kodiċi	-6201
▁7.	-6202
▁rapi	-6203
taġġi	-6204
▁Assoċjazzjoni	-6205
ġin	-6206
pill	-6207
-2011	-6208
fakkar	-6209
ħalq	-6210
37	-6211
OT	-6212
▁198	-6213
▁total	-6214
fittxu	-6215
▁Proċedura	-6216
PDG	-6217
SC	-6218
polari	-6219
saħħithom	-6220
▁miegħu	-6221
enibbiltà	-6222
omati	-6223
▁miġbura	-6224
triċi	-6225
▁ikkonċernati	-6226
rendi	-6227
ung	-6228
landi	-6229
zzanti	-6230
ddikjara	-6231
infiq	-6232
▁2011,	-6233
▁Abbozz	-6234
jetti	-6235
▁kampjun	-6236
▁Programm	-6237
▁agrikola	-6238
▁prattiċi	-6239
▁żżomm	-6240
SP	-6241
ferrovi	-6242
kumpens	-6243
▁deskrizzjoni	-6244
qgħod	-6245
▁Għoli	-6246
plażma	-6247
mpi	-6248
stro	-6249
▁konċentrazzjoni	-6250
dokumentazzjoni	-6251
▁ċertifikat	-6252
logħba	-6253
▁miżjuda	-6254
Organizzazzjoni	-6255
▁tti	-6256
sezzjoni	-6257
diera	-6258
▁2011/	-6259
kisba	-6260
ttost	-6261
▁joffri	-6262
ulizija	-6263
mulazzjoni	-6264
▁ġene	-6265
▁periklu	-6266
▁Ni	-6267
omen	-6268
▁Qu	-6269
▁44	-6270
▁fli	-6271
▁miftie	-6272
▁adegwati	-6273
muntana	-6274
veġja	-6275
volvi	-6276
faċilità	-6277
▁Malti	-6278
indikaturi	-6279
▁lest	-6280
orbiment	-6281
Bulgarija	-6282
EW	-6283
formola	-6284
ormi	-6285
eq	-6286
kwoti	-6287
agrikoltura	-6288
sibu	-6289
addi	-6290
▁2001	-6291
▁prestazzjoni	-6292
RPĊ	-6293
▁Użu	-6294
għaddu	-6295
inkluż	-6296
▁jinnotifika	-6297
▁forom	-6298
oġġett	-6299
▁jinnota	-6300
▁bu	-6301
mwovu	-6302
trapriża	-6303
▁Eff	-6304
▁setgħu	-6305
▁eduka	-6306
”),	-6307
inanti	-6308
vidjo	-6309
migħ	-6310
itw	-6311
EA	-6312
▁frekw	-6313
▁ims	-6314
fie	-6315
▁nominali	-6316
▁Bo	-6317
imgħa	-6318
▁jilqa	-6319
▁netwerk	-6320
forza	-6321
ttmi	-6322
▁otti	-6323
▁ċertifikazzjoni	-6324
emmen	-6325
eżenzjoni	-6326
Riż	-6327
▁Abbażi	-6328
rappurtar	-6329
▁tt	-6330
ofsinhar	-6331
VI	-6332
bbilment	-6333
EK	-6334
▁imbagħad	-6335
kalko	-6336
Mediterran	-6337
lit	-6338
konsulta	-6339
lemen	-6340
▁tilħaq	-6341
▁Alla	-6342
▁miftuħ	-6343
serje	-6344
▁komplu	-6345
▁istituzzjonali	-6346
onavir	-6347
▁skema	-6348
radju	-6349
jenu	-6350
anifatturi	-6351
quis	-6352
▁jgħaddi	-6353
▁Eżekuttiv	-6354
▁irri	-6355
porta	-6356
▁suċċess	-6357
▁hemmx	-6358
stali	-6359
kumitat	-6360
▁glu	-6361
messa	-6362
▁intermed	-6363
manutenzjoni	-6364
68	-6365
▁sso	-6366
▁utli	-6367
▁sostenn	-6368
▁parir	-6369
Arċisqof	-6370
▁mekkaniżmu	-6371
▁konġunti	-6372
▁superviżjoni	-6373
Kun	-6374
▁Disturbi	-6375
▁Jin	-6376
ming	-6377
rettament	-6378
▁assoċjat	-6379
▁armonizzati	-6380
▁rappreżenta	-6381
▁tieni	-6382
▁laqgħa	-6383
▁siringa	-6384
▁farmakokine	-6385
raġuni	-6386
▁1999/	-6387
▁VIII	-6388
▁jaqbeż	-6389
▁2010,	-6390
▁Tista	-6391
▁rikonoxxuti	-6392
III	-6393
▁żejda	-6394
▁ospi	-6395
stabu	-6396
fuljett	-6397
DA	-6398
.)	-6399
bjad	-6400
ressqa	-6401
żejjer	-6402
▁ali	-6403
kummerċjali	-6404
Tur	-6405
▁evitati	-6406
▁ek	-6407
infużjoni	-6408
edd	-6409
/0	-6410
erazzjonijiet	-6411
▁Reġjonali	-6412
sla	-6413
Kroazja	-6414
ATI	-6415
▁marda	-6416
ħames	-6417
nedmin	-6418
▁Tali	-6419
▁spa	-6420
94	-6421
--	-6422
dożi	-6423
▁1.2	-6424
▁mgħaġġ	-6425
Direttur	-6426
PRO	-6427
destina	-6428
▁rifl	-6429
opinjonijiet	-6430
▁6,	-6431
nofs	-6432
▁dumping	-6433
bidlu	-6434
effettività	-6435
cto	-6436
▁età	-6437
▁suppost	-6438
▁jinforma	-6439
▁jikkonsisti	-6440
Norveġja	-6441
inizjattivi	-6442
▁2016/	-6443
▁tinbidel	-6444
qrati	-6445
▁2009,	-6446
ogħod	-6447
▁metodu	-6448
▁għanijiet	-6449
trazzjoni	-6450
vvjaġġar	-6451
mine	-6452
toroq	-6453
biżx	-6454
ranġament	-6455
▁infezzjonijiet	-6456
▁Shi	-6457
▁terġa	-6458
▁jappoġġja	-6459
▁tippromwovi	-6460
bat	-6461
qawwa	-6462
▁fattur	-6463
▁jvarja	-6464
▁jirċievi	-6465
(6)	-6466
olum	-6467
sula	-6468
wwel	-6469
/2003	-6470
nib	-6471
▁jaqblu	-6472
adulti	-6473
tmexxija	-6474
▁allokati	-6475
saħħu	-6476
fasslu	-6477
kani	-6478
niġġis	-6479
▁joħroġ	-6480
▁tim	-6481
▁91/	-6482
jet	-6483
▁jirregolaw	-6484
▁konv	-6485
pagament	-6486
▁Indi	-6487
be	-6488
vjaġġ	-6489
▁Kont	-6490
ħlasijiet	-6491
▁Minbarra	-6492
neħħi	-6493
għaq	-6494
▁ċelluli	-6495
▁soġġetta	-6496
riera	-6497
▁obbligi	-6498
ada	-6499
Fondi	-6500
żlu	-6501
xkun	-6502
estensjoni	-6503
nif	-6504
Pajjiżi	-6505
rapportati	-6506
▁Sal	-6507
▁mono	-6508
ffikultà	-6509
▁ca	-6510
perm	-6511
▁esklussi	-6512
▁ġo	-6513
▁Partijiet	-6514
entrata	-6515
bete	-6516
▁jinvolvi	-6517
trali	-6518
▁jadottaw	-6519
jol	-6520
▁EW	-6521
roriżmu	-6522
alo	-6523
qad	-6524
▁Es	-6525
▁ajru	-6526
▁2010/	-6527
esklużjoni	-6528
▁lok	-6529
▁integrati	-6530
▁5.2	-6531
▁adatta	-6532
band	-6533
għot	-6534
ġenerazzjoni	-6535
rizzon	-6536
kkomo	-6537
▁Ha	-6538
▁ruħhom	-6539
direttiva	-6540
▁bini	-6541
▁tajbin	-6542
▁ekolo	-6543
▁konsoli	-6544
vantaġġ	-6545
▁EN	-6546
bilan	-6547
▁ittra	-6548
▁faċilment	-6549
▁karatteristiċi	-6550
oċi	-6551
▁pożittivi	-6552
tnejn	-6553
Ameri	-6554
ICT	-6555
fida	-6556
.12.200	-6557
JU	-6558
siti	-6559
sotto	-6560
▁minima	-6561
jezzjonijiet	-6562
▁01	-6563
▁mediku	-6564
▁affidabbli	-6565
dif	-6566
edija	-6567
▁jilta	-6568
▁attwalment	-6569
faċilitajiet	-6570
jtu	-6571
▁ddeċi	-6572
dien	-6573
perta	-6574
▁Awtori	-6575
essjonisti	-6576
▁też	-6577
▁manifattura	-6578
▁mudell	-6579
▁jirrappreżenta	-6580
huma	-6581
▁ob	-6582
▁edukazzjoni	-6583
▁Jen	-6584
endar	-6585
▁tisti	-6586
▁non	-6587
▁jinħa	-6588
▁distribuzzjoni	-6589
Ukra	-6590
/2005	-6591
istemi	-6592
39	-6593
▁nt	-6594
pur	-6595
vis	-6596
▁ħruġ	-6597
▁unika	-6598
bien	-6599
dsman	-6600
▁thed	-6601
pej	-6602
liminazzjoni	-6603
▁du	-6604
▁irrappur	-6605
jetta	-6606
47	-6607
ożi	-6608
sensi	-6609
verġenza	-6610
eko	-6611
▁ħajja	-6612
▁600	-6613
▁Sigurtà	-6614
immaniġġjar	-6615
▁awtoma	-6616
rant	-6617
▁mnaqqsa	-6618
▁jikkostitwixxu	-6619
▁konsiderevoli	-6620
▁Ban	-6621
passa	-6622
mirijiet	-6623
PR	-6624
▁zokkor	-6625
▁eċċessiv	-6626
▁stampa	-6627
▁jżomm	-6628
▁segwit	-6629
puri	-6630
Finlandja	-6631
▁rakkomandata	-6632
ġri	-6633
▁kontribut	-6634
għażliet	-6635
▁impenn	-6636
▁jkopru	-6637
eċċezzjoni	-6638
żika	-6639
eduta	-6640
umab	-6641
strutturi	-6642
▁jirrikj	-6643
▁approvata	-6644
▁infrastruttura	-6645
valutazzjonijiet	-6646
trab	-6647
▁għodda	-6648
▁Amministra	-6649
▁delegati	-6650
▁sodisfatti	-6651
nisja	-6652
▁Konsul	-6653
▁jżommu	-6654
▁kopert	-6655
▁indikazzjoni	-6656
▁ch	-6657
dament	-6658
istadju	-6659
żonnijiet	-6660
▁merkanzija	-6661
żja	-6662
kwota	-6663
▁TAGĦ	-6664
▁kontenut	-6665
com	-6666
▁jikkawża	-6667
differenzi	-6668
kolanti	-6669
▁ewwel	-6670
▁jwettaq	-6671
▁42	-6672
▁jgħixu	-6673
sors	-6674
▁medika	-6675
▁Ja	-6676
klijent	-6677
▁jammon	-6678
rispons	-6679
▁temporanju	-6680
▁persunal	-6681
ġini	-6682
▁kumplessi	-6683
▁jakk	-6684
etin	-6685
▁jippromwovu	-6686
UMM	-6687
▁indeboliment	-6688
involviment	-6689
CE	-6690
Ambjent	-6691
bes	-6692
61	-6693
bakk	-6694
luqa	-6695
▁ċari	-6696
▁estern	-6697
▁tinnota	-6698
ZZJONIJIET	-6699
ħżin	-6700
metil	-6701
Sinjura	-6702
identità	-6703
▁49	-6704
▁setturi	-6705
ces	-6706
▁obbligu	-6707
▁miksi	-6708
mulin	-6709
migranti	-6710
▁rappurtar	-6711
▁2012,	-6712
wo	-6713
lja	-6714
▁dazju	-6715
tet	-6716
ħiet	-6717
▁vulnera	-6718
-2006	-6719
▁sul	-6720
▁Met	-6721
ws	-6722
kontin	-6723
▁restrittivi	-6724
▁lArtikolu	-6725
levanza	-6726
ċertezza	-6727
▁emendati	-6728
ieħor	-6729
/2001	-6730
intenzjoni	-6731
postijiet	-6732
benefiċjarju	-6733
hyl	-6734
▁abjad	-6735
gata	-6736
▁Tagħrif	-6737
▁element	-6738
FI	-6739
qass	-6740
▁joħloq	-6741
Kom	-6742
42	-6743
▁2013,	-6744
Turkija	-6745
▁ħajji	-6746
▁jittratta	-6747
prote	-6748
▁adattati	-6749
▁sors	-6750
▁Applika	-6751
▁intelliġenti	-6752
▁kredi	-6753
loride	-6754
fera	-6755
entri	-6756
bidd	-6757
reb	-6758
▁New	-6759
RU	-6760
vera	-6761
nifsu	-6762
Reġjuni	-6763
▁tinvolvi	-6764
▁kategoriji	-6765
▁pol	-6766
xtieqa	-6767
madwar	-6768
▁jgħid	-6769
▁ffir	-6770
▁probabbli	-6771
kost	-6772
▁sesswali	-6773
mazzjoni	-6774
▁mekkaniżmi	-6775
▁operaturi	-6776
▁perikolużi	-6777
▁spjega	-6778
ippjanar	-6779
▁%,	-6780
dazji	-6781
▁timm	-6782
▁rappor	-6783
▁mixtieqa	-6784
▁għamlu	-6785
għandek	-6786
quddiem	-6787
wana	-6788
▁2014,	-6789
85	-6790
tej	-6791
▁rab	-6792
eka	-6793
pan	-6794
An	-6795
ġgħu	-6796
Protezzjoni	-6797
IST	-6798
▁kejl	-6799
konsegwenzi	-6800
cha	-6801
ggra	-6802
▁korpora	-6803
tlaħaq	-6804
onds	-6805
ester	-6806
▁ppre	-6807
bandiera	-6808
dardizzazzjoni	-6809
debi	-6810
▁rrappurtati	-6811
logħob	-6812
▁Man	-6813
▁llum	-6814
▁maħruġ	-6815
frott	-6816
awditjar	-6817
ger	-6818
▁mus	-6819
vaw	-6820
Ombu	-6821
isku	-6822
neħħew	-6823
ENTI	-6824
▁żejjed	-6825
▁għam	-6826
niżżla	-6827
So	-6828
ugwaljanza	-6829
ssigura	-6830
estru	-6831
▁kklassi	-6832
▁indirizzata	-6833
▁tikkonsisti	-6834
▁taffettwa	-6835
▁ristrutturar	-6836
▁responsabbiltà	-6837
▁waq	-6838
ronika	-6839
kunsens	-6840
▁jipprevedi	-6841
▁waħdu	-6842
plu	-6843
tala	-6844
▁konkre	-6845
▁ttrattati	-6846
mument	-6847
governanza	-6848
▁ppubblikati	-6849
kompetenzi	-6850
▁medji	-6851
▁indikaturi	-6852
etto	-6853
▁kunfidenzjali	-6854
lhom	-6855
▁Aħna	-6856
▁djalogu	-6857
▁jkollok	-6858
▁organizzata	-6859
▁taħlita	-6860
▁assolu	-6861
▁10,	-6862
mieni	-6863
patite	-6864
Presidenza	-6865
porzjonalità	-6866
▁estiż	-6867
▁leġiżlazzjoni	-6868
▁ħsieb	-6869
ederazzjoni	-6870
Pers	-6871
opportunità	-6872
juter	-6873
ġitti	-6874
▁żviluppat	-6875
▁humiex	-6876
Ikel	-6877
mill	-6878
unerazzjoni	-6879
XX	-6880
▁adegwata	-6881
BA	-6882
kontribut	-6883
▁mgħammra	-6884
▁iseħħ	-6885
▁idejn	-6886
ttadinanza	-6887
nnovazzjoni	-6888
▁Ex	-6889
mexxi	-6890
▁vinkolanti	-6891
mikro	-6892
▁rimed	-6893
erenza	-6894
attiv	-6895
kludiet	-6896
▁skadenza	-6897
▁għodod	-6898
umu	-6899
rex	-6900
▁jnaqqsu	-6901
evidenza	-6902
rizzontali	-6903
fatti	-6904
lieta	-6905
awża	-6906
Servizz	-6907
enna	-6908
bqija	-6909
▁liċ	-6910
▁Rapport	-6911
limentari	-6912
materja	-6913
▁Dak	-6914
▁rri	-6915
impatti	-6916
▁seta	-6917
que	-6918
▁integrat	-6919
żidiet	-6920
rix	-6921
ppa	-6922
▁jemmen	-6923
.1.	-6924
▁ema	-6925
wiemel	-6926
enturi	-6927
ied	-6928
uman	-6929
▁jimplimenta	-6930
Ministeru	-6931
▁57	-6932
Im	-6933
gliċ	-6934
▁kategorija	-6935
aġenda	-6936
vut	-6937
▁aħħa	-6938
▁influwenza	-6939
oluzzjonijiet	-6940
ġar	-6941
▁Sistema	-6942
inar	-6943
▁ambi	-6944
dat	-6945
esperti	-6946
ġenju	-6947
dana	-6948
▁2000/	-6949
mekkaniżmi	-6950
klużjonijiet	-6951
▁ġudizzjarja	-6952
▁Deskrizzjoni	-6953
▁The	-6954
litiet	-6955
vjazzjoni	-6956
ETS	-6957
▁jes	-6958
▁jirrispetta	-6959
ting	-6960
inbid	-6961
▁ener	-6962
.11.	-6963
istruzzjonijiet	-6964
▁Shipping	-6965
mħ	-6966
jammazzjoni	-6967
▁riżoluzzjoni	-6968
ċertifikazzjoni	-6969
car	-6970
pul	-6971
viża	-6972
▁espliċi	-6973
▁tba	-6974
4-	-6975
ivvjaġġar	-6976
▁imsejħa	-6977
▁wiesa	-6978
eleb	-6979
▁Isem	-6980
Uni	-6981
)(	-6982
ies	-6983
▁pprov	-6984
▁TFUE	-6985
definixxi	-6986
▁mifru	-6987
32	-6988
▁għalik	-6989
tot	-6990
▁nef	-6991
▁itwal	-6992
▁Sin	-6993
glu	-6994
▁maħdum	-6995
wejj	-6996
Punent	-6997
▁bilanċ	-6998
▁awtorizzata	-6999
ġun	-7000
taħlita	-7001
▁stima	-7002
Amerika	-7003
terazzjoni	-7004
Xogħol	-7005
▁jerġa	-7006
▁mibgħu	-7007
▁[3]	-7008
▁fażi	-7009
▁trasparenza	-7010
cal	-7011
ġusti	-7012
ċipali	-7013
▁dgħaj	-7014
▁pendenti	-7015
▁magħmulin	-7016
jj	-7017
▁ppreżentata	-7018
mara	-7019
▁immun	-7020
▁speċifikata	-7021
▁primarjament	-7022
▁46	-7023
telef	-7024
problema	-7025
anteniment	-7026
▁tikkostitwixxi	-7027
▁pil	-7028
ttri	-7029
sħubija	-7030
▁dettalji	-7031
▁ffaċili	-7032
▁Air	-7033
▁medda	-7034
▁frekwenza	-7035
▁120	-7036
▁żgħira	-7037
▁Bu	-7038
▁Effetti	-7039
biegħ	-7040
liema	-7041
kunsin	-7042
beż	-7043
▁sħubija	-7044
kolonna	-7045
wejjeġ	-7046
▁lilu	-7047
▁istud	-7048
disponibbiltà	-7049
▁pin	-7050
karatteri	-7051
▁kalendar	-7052
ħx	-7053
turità	-7054
▁ripet	-7055
▁om	-7056
ristrutturar	-7057
vini	-7058
jari	-7059
Ħa	-7060
▁intenz	-7061
validità	-7062
Ombudsman	-7063
▁jħall	-7064
▁jitwettaq	-7065
/12	-7066
▁Doku	-7067
▁Tri	-7068
Lat	-7069
sul	-7070
▁dawl	-7071
BEI	-7072
diskriminazzjoni	-7073
tieb	-7074
▁tara	-7075
nja	-7076
ormali	-7077
tixrid	-7078
gvernijiet	-7079
▁żżid	-7080
kuntattja	-7081
▁Kooperazzjoni	-7082
les	-7083
▁wie	-7084
offerta	-7085
▁kodiċi	-7086
Opinjoni	-7087
PEĊ	-7088
simpli	-7089
ves	-7090
▁rit	-7091
IKAZZJONI	-7092
▁jaf	-7093
ħażna	-7094
▁Ser	-7095
acquis	-7096
AF	-7097
▁2008,	-7098
▁uman	-7099
▁legalment	-7100
PS	-7101
▁wrew	-7102
▁vulnerabbli	-7103
▁soċ	-7104
produttur	-7105
▁kummerċ	-7106
▁pul	-7107
▁għamlet	-7108
reddi	-7109
▁ġuridiċi	-7110
feta	-7111
▁ikkunsidra	-7112
formula	-7113
▁spezzjoni	-7114
▁ris	-7115
▁tissaħħaħ	-7116
komunità	-7117
▁riċenti	-7118
▁Lis	-7119
empji	-7120
▁parteċipazzjoni	-7121
▁umana	-7122
lew	-7123
▁km	-7124
▁tirrif	-7125
rur	-7126
fos	-7127
▁4.5	-7128
▁Mer	-7129
▁aggre	-7130
voluzzjoni	-7131
▁garanziji	-7132
▁għamel	-7133
olari	-7134
fuġ	-7135
wisti	-7136
aċidu	-7137
▁aġġornata	-7138
ins	-7139
▁magħha	-7140
19	-7141
▁bej	-7142
flussi	-7143
ya	-7144
diskuss	-7145
erament	-7146
saħħ	-7147
wiet	-7148
▁Rapp	-7149
▁250	-7150
bdiewa	-7151
▁Kor	-7152
RIF	-7153
33	-7154
▁1.5	-7155
▁Ċivili	-7156
▁Pereżempju	-7157
griet	-7158
mediċini	-7159
▁usa	-7160
▁superviżorji	-7161
bbri	-7162
▁Ċeka	-7163
▁GĦAND	-7164
▁ospitanti	-7165
dex	-7166
▁kanċer	-7167
wera	-7168
▁Bla	-7169
enituri	-7170
▁veterinarju	-7171
grad	-7172
sejbiet	-7173
▁18-	-7174
vataġġ	-7175
▁2(	-7176
-2015	-7177
▁jgħaddu	-7178
▁ddefini	-7179
missjonijiet	-7180
dent	-7181
▁Slo	-7182
kanċer	-7183
▁jnaqqas	-7184
▁operattiva	-7185
▁impen	-7186
▁urġenti	-7187
▁irregolari	-7188
mide	-7189
▁koerenti	-7190
▁Post	-7191
▁kimika	-7192
metodoloġija	-7193
TS	-7194
▁toffri	-7195
▁qalb	-7196
lej	-7197
eali	-7198
indeboliment	-7199
VC	-7200
danakollu	-7201
▁jiddependi	-7202
▁Ġermani	-7203
▁titwettaq	-7204
itwanja	-7205
ong	-7206
rent	-7207
aġġustament	-7208
▁jillimi	-7209
ċelloli	-7210
.10.	-7211
sitwazzjonijiet	-7212
stitut	-7213
ATT	-7214
fiċit	-7215
teġiji	-7216
▁netwerks	-7217
▁Pjan	-7218
▁kontribuzzjoni	-7219
▁teħid	-7220
▁iddefini	-7221
▁deroga	-7222
▁xjentifiċi	-7223
▁alternattiva	-7224
▁timplimenta	-7225
onku	-7226
kaxxa	-7227
siringa	-7228
ġustizzja	-7229
qim	-7230
▁jirrigwarda	-7231
▁xk	-7232
foll	-7233
▁inkari	-7234
▁awtenti	-7235
▁pprovdut	-7236
pensjoni	-7237
OD	-7238
▁98/	-7239
▁Bar	-7240
qarrija	-7241
▁jiddeċi	-7242
▁veri	-7243
▁valida	-7244
▁operatur	-7245
monizzazzjoni	-7246
sorsi	-7247
▁sto	-7248
▁tqal	-7249
djar	-7250
▁2011.	-7251
76	-7252
ettall	-7253
ċeviet	-7254
▁interi	-7255
▁jikkostitwixxi	-7256
onazole	-7257
mbor	-7258
enitur	-7259
Indja	-7260
▁Teva	-7261
▁var	-7262
otba	-7263
tellett	-7264
qosor	-7265
venja	-7266
maj	-7267
▁iżommu	-7268
▁41	-7269
lettu	-7270
▁talbiet	-7271
▁eżami	-7272
▁xogħlijiet	-7273
▁Skond	-7274
▁kmieni	-7275
▁minerali	-7276
▁Ċiniżi	-7277
▁3.3	-7278
form	-7279
waq	-7280
▁serja	-7281
ġuris	-7282
erman	-7283
rastrutturi	-7284
▁ċittadin	-7285
ġiet	-7286
LA	-7287
tellettwali	-7288
NG	-7289
nieżer	-7290
DE	-7291
▁tariff	-7292
milji	-7293
▁affarijiet	-7294
▁Kar	-7295
Netwerk	-7296
51	-7297
ġġa	-7298
ttometti	-7299
▁ħal	-7300
▁ammonti	-7301
▁jipprote	-7302
CON	-7303
żola	-7304
▁implimentata	-7305
▁Car	-7306
influwenza	-7307
▁Sk	-7308
▁Grupp	-7309
▁jassigura	-7310
▁ssodisfati	-7311
ċju	-7312
dina	-7313
▁dovut	-7314
seww	-7315
riformi	-7316
ċċiet	-7317
ettazzjoni	-7318
Mi	-7319
Isk	-7320
▁mfassla	-7321
▁titnaqqas	-7322
.12.201	-7323
▁Jenħtieġ	-7324
Russja	-7325
▁effikaċja	-7326
dukazzjoni	-7327
▁ġeografiċi	-7328
▁jenfasizza	-7329
▁kkunsidrata	-7330
▁ħalli	-7331
esponiment	-7332
Ingliż	-7333
▁2015,	-7334
krimina	-7335
▁evitata	-7336
78	-7337
tattiva	-7338
▁iżgħar	-7339
dimensjoni	-7340
▁raġuni	-7341
▁impjegati	-7342
▁tirreferi	-7343
▁7,	-7344
▁Sħubija	-7345
▁jerġgħu	-7346
▁problema	-7347
▁reġjuni	-7348
rju	-7349
▁jikkons	-7350
▁orizzontali	-7351
kriminali	-7352
sintomi	-7353
▁jseħħu	-7354
%,	-7355
▁por	-7356
GD	-7357
▁esportatur	-7358
US	-7359
▁infurzar	-7360
▁Ix	-7361
▁jżidu	-7362
▁tqila	-7363
kadi	-7364
▁jinbidlu	-7365
Trasport	-7366
Rappreżen	-7367
▁dil	-7368
▁klijenti	-7369
Trattati	-7370
▁provvista	-7371
▁flessibbli	-7372
▁refer	-7373
▁[6	-7374
vudine	-7375
▁jżid	-7376
flitt	-7377
▁108	-7378
▁ishma	-7379
▁Kumitat	-7380
▁setgħet	-7381
ubli	-7382
Os	-7383
taxxi	-7384
▁immi	-7385
▁dannu	-7386
▁intervent	-7387
▁Ass	-7388
▁Mater	-7389
▁jiddaħħal	-7390
▁proċessi	-7391
44	-7392
wiel	-7393
llaġġ	-7394
▁segwiti	-7395
92	-7396
▁intrapriżi	-7397
parametri	-7398
KA	-7399
orra	-7400
soft	-7401
sess	-7402
juttost	-7403
Est	-7404
▁Lisbona	-7405
▁Dinji	-7406
bbija	-7407
istudenti	-7408
ċirkolazzjoni	-7409
ajruporti	-7410
liċenzja	-7411
▁faċilitajiet	-7412
▁bejniet	-7413
▁Kapitolu	-7414
▁riċev	-7415
▁AD	-7416
▁2014.	-7417
WAR	-7418
▁Ċipru	-7419
▁varji	-7420
▁jiffaċilitaw	-7421
qagħda	-7422
▁vertika	-7423
▁regolament	-7424
niċi	-7425
▁kopja	-7426
▁lilhom	-7427
▁misti	-7428
heb	-7429
mhux	-7430
feru	-7431
ċidali	-7432
▁tfittex	-7433
▁jilħaq	-7434
▁osservata	-7435
istandard	-7436
TE	-7437
▁ikollha	-7438
▁funzjonali	-7439
▁temporanja	-7440
virin	-7441
▁jonqos	-7442
wakultura	-7443
.6	-7444
-2005	-7445
Rakkomandazzjoni	-7446
bgħa	-7447
▁2010.	-7448
▁intenzjon	-7449
▁ħlasijiet	-7450
ħamrija	-7451
▁awdjo	-7452
tterija	-7453
fattur	-7454
prattiki	-7455
▁żgħażagħ	-7456
ejjes	-7457
interpretazzjoni	-7458
▁ton	-7459
flitti	-7460
▁rreġistrati	-7461
▁settorjali	-7462
▁iċċ	-7463
talab	-7464
jna	-7465
▁komponent	-7466
ANZ	-7467
NESS	-7468
fiduċja	-7469
fermat	-7470
▁My	-7471
istati	-7472
nat	-7473
▁Miżuri	-7474
qqsu	-7475
kejla	-7476
applikanti	-7477
▁meħud	-7478
ċertifikati	-7479
tilità	-7480
iskola	-7481
▁leġitti	-7482
ffaċilita	-7483
▁ibbażati	-7484
▁garanti	-7485
▁proviżor	-7486
▁speċifikament	-7487
HA	-7488
▁isem	-7489
Ċi	-7490
roti	-7491
Litwanja	-7492
tlu	-7493
ceta	-7494
ffiċċji	-7495
▁tint	-7496
nexx	-7497
▁nistgħu	-7498
72	-7499
▁Kotba	-7500
▁(5)	-7501
▁2005/	-7502
▁ikkaw	-7503
ei	-7504
▁IR	-7505
▁separat	-7506
▁integrata	-7507
fan	-7508
▁tinforma	-7509
▁indikati	-7510
xan	-7511
▁valuri	-7512
mobilità	-7513
ħarsu	-7514
▁2.5	-7515
ċu	-7516
▁Ann	-7517
IA	-7518
▁Tip	-7519
▁iddeċieda	-7520
▁ippre	-7521
▁KON	-7522
▁twaqqaf	-7523
kunu	-7524
▁58	-7525
▁jkomplu	-7526
▁Ħafna	-7527
terroriżmu	-7528
liċenzji	-7529
ak	-7530
▁rċevew	-7531
MR	-7532
▁migra	-7533
▁jinħolqu	-7534
▁interpre	-7535
▁Ver	-7536
▁aċċettabbli	-7537
▁jirrakkomanda	-7538
PK	-7539
▁proċedimenti	-7540
ġill	-7541
▁aċidu	-7542
▁ffinanzjati	-7543
sostenibbiltà	-7544
▁epa	-7545
▁maġġ	-7546
lus	-7547
riegħa	-7548
laterali	-7549
▁Rigward	-7550
71	-7551
▁%)	-7552
runti	-7553
▁xiri	-7554
reż	-7555
▁(6	-7556
ild	-7557
stall	-7558
negozja	-7559
Ass	-7560
ġenituri	-7561
denzi	-7562
qgħad	-7563
kompati	-7564
▁sseħħ	-7565
ECD	-7566
▁2.3	-7567
bnedmin	-7568
▁jikkunsidraw	-7569
sazzjonijiet	-7570
tina	-7571
vjeni	-7572
▁twissija	-7573
▁imwettqa	-7574
Istatut	-7575
istika	-7576
jarjetà	-7577
▁bejniethom	-7578
▁No	-7579
▁postijiet	-7580
uffiċjali	-7581
▁implimentat	-7582
▁tappoġġa	-7583
premessi	-7584
▁off	-7585
▁ppja	-7586
▁vel	-7587
▁abbozz	-7588
▁Jeħtieġ	-7589
ia	-7590
bad	-7591
preparazzjoni	-7592
▁bdiet	-7593
▁marittimu	-7594
▁irre	-7595
▁żbal	-7596
▁relattivament	-7597
▁jitneħħew	-7598
Latvja	-7599
▁komprensiv	-7600
ħda	-7601
Slovenja	-7602
▁Gri	-7603
laboratorju	-7604
91	-7605
▁dispożizzjoni	-7606
oz	-7607
Ajru	-7608
▁MIN	-7609
ttomissjoni	-7610
Għ	-7611
▁tgħaddi	-7612
▁spjegat	-7613
FP	-7614
▁jirriflettu	-7615
ħabb	-7616
▁Magni	-7617
osserva	-7618
▁iffir	-7619
ubblika	-7620
ispeċijiet	-7621
▁severa	-7622
▁sigur	-7623
Bniedem	-7624
▁konklużi	-7625
▁Or	-7626
▁51	-7627
▁lesti	-7628
estjon	-7629
▁Studji	-7630
▁mmirati	-7631
▁8,	-7632
velar	-7633
▁permessi	-7634
▁komparabbli	-7635
▁Fundamentali	-7636
▁elimina	-7637
▁61	-7638
▁2009.	-7639
rappreżenta	-7640
▁Kap	-7641
hn	-7642
tejba	-7643
▁enerġe	-7644
▁primarja	-7645
▁atta	-7646
▁pjuttost	-7647
awtur	-7648
▁Ftehim	-7649
ekwiżiti	-7650
▁kundizzjoni	-7651
▁Maritti	-7652
▁CON	-7653
kontes	-7654
għajnejn	-7655
lokk	-7656
▁pedja	-7657
▁mistoqsijiet	-7658
parati	-7659
▁Pri	-7660
mentaw	-7661
▁riforma	-7662
che	-7663
▁adatt	-7664
▁stipulata	-7665
reġim	-7666
argu	-7667
egħa	-7668
Membri	-7669
▁TAGĦRIF	-7670
▁jiddaħħlu	-7671
▁jagħżlu	-7672
▁teżisti	-7673
nika	-7674
▁jivverifika	-7675
▁banek	-7676
gassijiet	-7677
con	-7678
▁vitro	-7679
gressi	-7680
▁spi	-7681
▁ekonomija	-7682
▁elettriċi	-7683
armonizzazzjoni	-7684
▁parall	-7685
▁Tuża	-7686
rankar	-7687
ekomuni	-7688
▁affettwati	-7689
▁meqjus	-7690
▁tixtieq	-7691
▁Komunikazzjoni	-7692
CB	-7693
▁introdotti	-7694
/199	-7695
hrejn	-7696
▁ġietx	-7697
rutin	-7698
▁Għajnuna	-7699
ken	-7700
▁62	-7701
▁bih	-7702
▁multipli	-7703
▁ppubblikat	-7704
▁Wieħed	-7705
kkomodazzjoni	-7706
Nofsinhar	-7707
skri	-7708
ware	-7709
forom	-7710
▁komprensiva	-7711
kampjuni	-7712
▁ikomplu	-7713
▁moti	-7714
insulina	-7715
umula	-7716
AI	-7717
ud	-7718
▁awdi	-7719
▁fissi	-7720
żju	-7721
qima	-7722
olidarjetà	-7723
torizza	-7724
▁pru	-7725
profil	-7726
PL	-7727
CV	-7728
ispiżjar	-7729
▁jikkomuni	-7730
▁kliewi	-7731
golarment	-7732
▁Ħidma	-7733
▁trażmissjoni	-7734
notifikata	-7735
akkjar	-7736
eġġi	-7737
▁Żvilupp	-7738
gun	-7739
▁tiffaċilita	-7740
▁jba	-7741
bust	-7742
▁ippubblikata	-7743
▁għaxar	-7744
▁1000	-7745
▁jinħar	-7746
▁taġixxi	-7747
numri	-7748
▁sodisfaċenti	-7749
taz	-7750
mg	-7751
ssok	-7752
fiċjali	-7753
▁antidumping	-7754
▁tikkonforma	-7755
imba	-7756
▁fibri	-7757
reazzjoni	-7758
interopera	-7759
rutinju	-7760
aluminju	-7761
▁52	-7762
▁ing	-7763
dda	-7764
għin	-7765
▁1)	-7766
▁jirrigwardaw	-7767
ust	-7768
▁maqs	-7769
gal	-7770
▁02	-7771
daqqa	-7772
▁84	-7773
▁mediċi	-7774
.7	-7775
▁Bri	-7776
▁espert	-7777
itati	-7778
▁nota	-7779
tlanti	-7780
▁2013/	-7781
▁radju	-7782
xer	-7783
▁ddisin	-7784
▁limiti	-7785
żul	-7786
bżonnijiet	-7787
xtiequ	-7788
wija	-7789
▁Nhar	-7790
▁2017/	-7791
▁jiddeċiedu	-7792
bbuż	-7793
4),	-7794
tanju	-7795
▁rem	-7796
▁determinat	-7797
spjega	-7798
▁ħx	-7799
▁assoċjata	-7800
hand	-7801
kollox	-7802
▁baġitarja	-7803
▁privata	-7804
▁Proposta	-7805
▁żgurati	-7806
Knisja	-7807
▁estensi	-7808
restrizzjonijiet	-7809
▁ilu	-7810
▁proċedurali	-7811
difiża	-7812
▁sħa	-7813
tisħin	-7814
▁regolarment	-7815
qabbel	-7816
▁appli	-7817
Aġenda	-7818
siderazzjoni	-7819
ostni	-7820
▁ipproċess	-7821
ROPE	-7822
▁Tags	-7823
pti	-7824
▁tinbeda	-7825
▁miksub	-7826
installazzjoni	-7827
mist	-7828
ozza	-7829
HIV	-7830
▁stori	-7831
xej	-7832
eskrivi	-7833
vista	-7834
▁tittejjeb	-7835
soltu	-7836
▁ippro	-7837
▁jikkaw	-7838
▁kkontrollati	-7839
▁sfidi	-7840
▁perċentwali	-7841
▁amm	-7842
ħatra	-7843
▁perjodi	-7844
▁baġitarji	-7845
Servizzi	-7846
xy	-7847
klaġġ	-7848
ħadid	-7849
▁ħalq	-7850
▁riżerva	-7851
projbizzjoni	-7852
ġurnata	-7853
▁jm	-7854
▁nagħ	-7855
xjenza	-7856
PAK	-7857
qsi	-7858
ederali	-7859
▁talKunsill	-7860
kompożizzjoni	-7861
▁ċelloli	-7862
▁leġiżlattivi	-7863
vità	-7864
▁jkompli	-7865
stituzzjonijiet	-7866
użi	-7867
▁karti	-7868
▁ress	-7869
fisha	-7870
oqsija	-7871
▁Emenda	-7872
▁tieg	-7873
ġurisdizzjoni	-7874
dizzjon	-7875
perjodi	-7876
(3)(	-7877
Qafas	-7878
finanzi	-7879
▁definita	-7880
bli	-7881
▁qies	-7882
ċentwal	-7883
annwali	-7884
▁raxx	-7885
HER	-7886
UNS	-7887
▁pilota	-7888
▁imsejjaħ	-7889
reati	-7890
▁Poli	-7891
tjur	-7892
erġiji	-7893
okrazija	-7894
▁Tagħmir	-7895
passat	-7896
jdi	-7897
▁msaħħa	-7898
▁sforzi	-7899
▁xo	-7900
▁logħob	-7901
▁Online	-7902
kriminalità	-7903
Impriża	-7904
▁oġġett	-7905
ieqa	-7906
▁separata	-7907
-‘	-7908
▁87	-7909
▁tiġb	-7910
aħda	-7911
bies	-7912
kop	-7913
fief	-7914
▁żejt	-7915
▁Dik	-7916
▁tagħlim	-7917
PO	-7918
idu	-7919
▁1.3	-7920
▁riċ	-7921
etil	-7922
▁Kri	-7923
endu	-7924
▁ruħha	-7925
aqqas	-7926
▁gastro	-7927
87	-7928
dentifika	-7929
traduzzjoni	-7930
▁IX	-7931
▁teknoloġija	-7932
reazzjonijiet	-7933
virus	-7934
▁ambjent	-7935
iżgura	-7936
sitt	-7937
gwida	-7938
▁konċernati	-7939
▁tikkonkludi	-7940
▁koordina	-7941
Tramuntana	-7942
▁karta	-7943
▁AT	-7944
▁gross	-7945
▁governanza	-7946
rest	-7947
mentat	-7948
▁konsuma	-7949
▁notifikat	-7950
▁sottostanti	-7951
▁jiggaranti	-7952
▁Forni	-7953
▁disturbi	-7954
▁inhu	-7955
evitaw	-7956
▁integrazzjoni	-7957
▁ritonavir	-7958
▁jqisu	-7959
uffiċjal	-7960
Innovazzjoni	-7961
hen	-7962
▁Struttura	-7963
▁varjabbli	-7964
eġibiet	-7965
troduċi	-7966
Konferenza	-7967
fili	-7968
distanza	-7969
iet	-7970
urmaw	-7971
▁Tużax	-7972
▁wriet	-7973
▁terminu	-7974
out	-7975
xxipli	-7976
ċessjoni	-7977
ressqu	-7978
▁Barranin	-7979
ternattiva	-7980
▁mark	-7981
esa	-7982
seduta	-7983
▁pra	-7984
▁jaqbżu	-7985
▁jinstab	-7986
viga	-7987
▁Politika	-7988
versità	-7989
egwentement	-7990
quda	-7991
istampa	-7992
▁EWROPE	-7993
iskeda	-7994
evol	-7995
saħħitha	-7996
somma	-7997
modu	-7998
nomina	-7999
kunjett	-8000
▁1:	-8001
▁Pla	-8002
▁talbet	-8003
▁tħallas	-8004
▁xjentifiku	-8005
▁preżen	-8006
SM	-8007
46/	-8008
▁mudelli	-8009
enarju	-8010
▁jtejbu	-8011
▁intellettwali	-8012
▁ġisem	-8013
tessuti	-8014
▁2013.	-8015
▁sinte	-8016
Kons	-8017
dustrija	-8018
▁innovazzjoni	-8019
▁Con	-8020
▁salvagward	-8021
armi	-8022
▁Stan	-8023
▁rappreżentanti	-8024
waqqfu	-8025
sottomissjoni	-8026
frodi	-8027
▁SA	-8028
▁car	-8029
▁riko	-8030
jekk	-8031
▁ħiliet	-8032
▁barranija	-8033
▁kollettiv	-8034
pensjonijiet	-8035
▁jikkooperaw	-8036
vot	-8037
ġja	-8038
ċipant	-8039
▁jitħallew	-8040
milha	-8041
▁art	-8042
▁jikkawżaw	-8043
grel	-8044
▁korr	-8045
ħossok	-8046
▁istess	-8047
ano	-8048
(3),	-8049
ARTI	-8050
bur	-8051
▁kapsuli	-8052
▁operattiv	-8053
/100	-8054
maniġġ	-8055
▁spazju	-8056
▁gassijiet	-8057
▁8.	-8058
jam	-8059
Prim	-8060
bħal	-8061
etro	-8062
▁jikkorrispondi	-8063
▁XX	-8064
metaboli	-8065
▁prefer	-8066
▁maġġuri	-8067
vittmi	-8068
COM	-8069
lenarja	-8070
vatezza	-8071
▁2016,	-8072
ċar	-8073
▁y	-8074
mjum	-8075
sitra	-8076
▁kunsi	-8077
organizza	-8078
▁5.3	-8079
▁Valutazzjoni	-8080
▁terza	-8081
iela	-8082
Viċi	-8083
▁TAR	-8084
▁Super	-8085
▁jaqbel	-8086
indipendenza	-8087
▁ISO	-8088
▁jikkonsistu	-8089
▁liġi	-8090
▁ffiss	-8091
teb	-8092
inat	-8093
▁jaqsmu	-8094
▁tromb	-8095
▁plażma	-8096
▁NM	-8097
ath	-8098
▁Ill	-8099
tħassib	-8100
aborazzjoni	-8101
▁iwassal	-8102
lef	-8103
estija	-8104
ċentri	-8105
▁jirrifletti	-8106
ez	-8107
posizzjonijiet	-8108
▁men	-8109
▁sitwazzjoni	-8110
▁CI	-8111
▁titjieb	-8112
xxut	-8113
rappreżentant	-8114
lif	-8115
awrina	-8116
▁wassal	-8117
▁tgħid	-8118
▁tneħħija	-8119
▁beda	-8120
▁neċessarja	-8121
IZZ	-8122
▁Ċerti	-8123
▁kontanti	-8124
▁jmorru	-8125
▁diffikultajiet	-8126
▁Kwa	-8127
▁ghal	-8128
▁nifs	-8129
▁provviżorju	-8130
▁tappoġġja	-8131
Ewropej	-8132
annija	-8133
▁Lista	-8134
Fi	-8135
▁sever	-8136
▁Delega	-8137
teral	-8138
▁itejbu	-8139
verifiki	-8140
tabakk	-8141
▁jitħallsu	-8142
▁insuffiċjenza	-8143
titolu	-8144
▁offerti	-8145
ATA	-8146
FR	-8147
fattura	-8148
we	-8149
▁sens	-8150
▁adattat	-8151
▁68	-8152
etali	-8153
▁Span	-8154
ġabar	-8155
DC	-8156
sewqan	-8157
▁kwoti	-8158
69	-8159
komponent	-8160
-(	-8161
andi	-8162
▁99	-8163
▁konkreti	-8164
▁jaqa	-8165
tniġġis	-8166
ibb	-8167
tollera	-8168
▁strateġiċi	-8169
▁manutenzjoni	-8170
▁ġiex	-8171
latur	-8172
tqassim	-8173
▁illum	-8174
ĊI	-8175
▁73	-8176
bitra	-8177
www	-8178
essut	-8179
▁tneħħi	-8180
▁tivvaluta	-8181
vantaġġi	-8182
portijiet	-8183
▁jirreferi	-8184
ojod	-8185
tigazzjoni	-8186
▁jitwaqqaf	-8187
aru	-8188
istrateġiji	-8189
definizzjonijiet	-8190
plaċebo	-8191
mera	-8192
integrità	-8193
fuġjati	-8194
ċirkustanzi	-8195
midja	-8196
safar	-8197
▁taqbeż	-8198
tim	-8199
segwi	-8200
▁strateġiji	-8201
sett	-8202
▁solvent	-8203
kompjuter	-8204
▁tħassar	-8205
xxew	-8206
▁tidentifika	-8207
▁Liġi	-8208
▁sensittività	-8209
xel	-8210
▁inaqqas	-8211
▁kandidati	-8212
irtu	-8213
▁awtomatiku	-8214
▁nefħa	-8215
hosp	-8216
niżżel	-8217
▁Cha	-8218
▁eżenzjoni	-8219
Baxxi	-8220
ġġerixxi	-8221
▁fjuwil	-8222
KON	-8223
▁sitwazzjonijiet	-8224
/15	-8225
IKA	-8226
pira	-8227
▁trasp	-8228
.”;	-8229
gy	-8230
▁53	-8231
▁volum	-8232
wenti	-8233
▁simpli	-8234
▁offruti	-8235
enzjonali	-8236
▁żviluppata	-8237
riċ	-8238
istima	-8239
▁moderat	-8240
egwu	-8241
▁2007,	-8242
koordina	-8243
▁vertikali	-8244
mobbiltà	-8245
sada	-8246
▁skamb	-8247
ŻR	-8248
urea	-8249
▁ttejjeb	-8250
▁ordni	-8251
kjesta	-8252
▁veterinarji	-8253
edded	-8254
tranżazzjoni	-8255
qajn	-8256
pulizija	-8257
▁ppubblika	-8258
▁obj	-8259
Isfel	-8260
▁kriżi	-8261
▁destina	-8262
▁MA	-8263
press	-8264
▁jixtiequ	-8265
02	-8266
▁jiffurmaw	-8267
garanziji	-8268
▁bijolo	-8269
▁labra	-8270
▁xaħam	-8271
ffaċċjaw	-8272
espożizzjoni	-8273
cc	-8274
▁eżen	-8275
▁ħajjin	-8276
▁temperatura	-8277
▁Test	-8278
erminaw	-8279
▁pożittiva	-8280
▁ħut	-8281
▁jvarjaw	-8282
xogħlijiet	-8283
ħun	-8284
%.	-8285
▁naqas	-8286
▁involut	-8287
ejjex	-8288
fushom	-8289
▁finijiet	-8290
umpanja	-8291
▁rkupru	-8292
okratika	-8293
▁sid	-8294
▁tweġiba	-8295
BER	-8296
▁Koeżjoni	-8297
▁argu	-8298
kuri	-8299
tqala	-8300
▁dubju	-8301
Estonja	-8302
▁anzjani	-8303
ance	-8304
▁minuti	-8305
▁dina	-8306
anifattur	-8307
rekord	-8308
▁iwettaq	-8309
Investiment	-8310
))	-8311
ŻI	-8312
gawdu	-8313
▁baqa	-8314
▁tant	-8315
clo	-8316
edna	-8317
▁spin	-8318
CP	-8319
▁multilaterali	-8320
▁jinqa	-8321
▁jikseb	-8322
▁tiddet	-8323
TER	-8324
▁2012.	-8325
win	-8326
atina	-8327
▁irrakkomanda	-8328
▁sem	-8329
valli	-8330
Hz	-8331
▁sħaħ	-8332
▁jevitaw	-8333
struzzjonijiet	-8334
tluq	-8335
mewt	-8336
ometru	-8337
▁likwidu	-8338
▁mikrogramma	-8339
wista	-8340
▁estiża	-8341
Sa	-8342
URA	-8343
▁xahrejn	-8344
ITOLU	-8345
▁differenza	-8346
MM	-8347
cu	-8348
▁Ċina	-8349
▁Att	-8350
▁mgħ	-8351
▁Appro	-8352
▁statu	-8353
rizzont	-8354
▁miksijin	-8355
ħalli	-8356
adegwa	-8357
għalli	-8358
inġenji	-8359
disp	-8360
ebu	-8361
llazzjoni	-8362
▁iffinanz	-8363
▁utenti	-8364
emblea	-8365
waħħal	-8366
8).	-8367
▁tnejn	-8368
▁suspensjoni	-8369
▁IS	-8370
▁rita	-8371
▁pjanijiet	-8372
▁kombina	-8373
▁54	-8374
vukat	-8375
▁mressqa	-8376
OC	-8377
ogra	-8378
▁jiffoka	-8379
ptin	-8380
▁regolamenti	-8381
testi	-8382
▁ħadd	-8383
artiko	-8384
ompa	-8385
rani	-8386
maniġ	-8387
▁trattati	-8388
▁Afri	-8389
-2004	-8390
ispezzjoni	-8391
▁tiddependi	-8392
.2.	-8393
▁kompetenza	-8394
▁universali	-8395
ettijiet	-8396
że	-8397
ċċessi	-8398
▁mitlub	-8399
▁obbligatorja	-8400
qer	-8401
nett	-8402
provi	-8403
▁maqbu	-8404
▁eżaminat	-8405
koraġġixxi	-8406
ese	-8407
▁Ġes	-8408
73	-8409
▁Norve	-8410
reqqa	-8411
▁iżola	-8412
▁CR	-8413
adband	-8414
▁kunsid	-8415
▁bojod	-8416
nati	-8417
▁iħaddem	-8418
▁saħan	-8419
▁jeżisti	-8420
▁Reazzjonijiet	-8421
URI	-8422
tieġa	-8423
▁kkonkludiet	-8424
koeżjoni	-8425
stein	-8426
skulari	-8427
solvenza	-8428
▁blo	-8429
ssidju	-8430
▁konvenzjonali	-8431
jjem	-8432
spetta	-8433
▁Sistemi	-8434
▁fornitur	-8435
Diċembru	-8436
Kontroll	-8437
▁akkredi	-8438
nuqqasijiet	-8439
vall	-8440
▁jixtieq	-8441
▁għalfejn	-8442
▁teżamina	-8443
▁ak	-8444
▁ngħatat	-8445
▁tintlaħaq	-8446
▁supplimentari	-8447
▁Dwar	-8448
ġerjali	-8449
▁laqgħat	-8450
▁awtomatikament	-8451
-1,	-8452
ekkja	-8453
▁aċċettati	-8454
enta	-8455
▁estensjoni	-8456
▁jinfur	-8457
navigazzjoni	-8458
▁2015.	-8459
▁fissa	-8460
issibbli	-8461
own	-8462
industriji	-8463
AIF	-8464
baħ	-8465
▁evalwati	-8466
affarijiet	-8467
▁adatti	-8468
ttaformi	-8469
omor	-8470
PEĊIF	-8471
FOR	-8472
qligħ	-8473
▁maż	-8474
niku	-8475
ortati	-8476
patija	-8477
▁primarju	-8478
▁intensi	-8479
orvelja	-8480
▁prinċipji	-8481
hydro	-8482
kkijiet	-8483
pakketti	-8484
▁ib	-8485
elu	-8486
naliżi	-8487
▁sewwa	-8488
bijodiversità	-8489
▁10.	-8490
▁aġenti	-8491
cs	-8492
▁qalet	-8493
▁stabbiliment	-8494
▁inaqqsu	-8495
ċa	-8496
▁bijoċidali	-8497
▁kontijiet	-8498
ETT	-8499
▁sekondarju	-8500
▁saħansitra	-8501
miċi	-8502
orr	-8503
▁Studju	-8504
bavirin	-8505
▁stretti	-8506
kontrollata	-8507
▁Evoluzzjoni	-8508
▁98	-8509
▁CE	-8510
▁jitil	-8511
mmira	-8512
erja	-8513
ssigurazzjoni	-8514
▁tressaq	-8515
▁iddisin	-8516
qamħ	-8517
▁iebsa	-8518
likwidità	-8519
▁sezzjonijiet	-8520
▁Dikja	-8521
▁ħafif	-8522
azzjonisti	-8523
onitorja	-8524
▁liċenzja	-8525
/13	-8526
eor	-8527
nzjoni	-8528
▁tifla	-8529
▁bastiment	-8530
▁inċentivi	-8531
eħħi	-8532
▁Perman	-8533
▁japprova	-8534
▁Kemm	-8535
sinjali	-8536
ght	-8537
▁ANNESS	-8538
vazzjonijiet	-8539
▁ladarba	-8540
żjonijiet	-8541
▁klieb	-8542
▁Inti	-8543
▁kkalkulat	-8544
▁tirrappreżenta	-8545
▁deni	-8546
▁taxxabbli	-8547
▁ħfief	-8548
mis	-8549
sili	-8550
▁skop	-8551
ġenb	-8552
▁Appoġġ	-8553
▁(6)	-8554
▁1.4	-8555
▁differenzi	-8556
▁interessi	-8557
▁serje	-8558
▁Intern	-8559
klamar	-8560
ogħba	-8561
▁prevenzjoni	-8562
kamra	-8563
▁aff	-8564
▁orjen	-8565
▁ħadet	-8566
▁Speċi	-8567
▁jiġux	-8568
▁jappoġġjaw	-8569
▁potenzjalment	-8570
karburi	-8571
▁artifiċjali	-8572
żżin	-8573
▁jfisser	-8574
▁jindirizza	-8575
Valu	-8576
▁miri	-8577
▁referenz	-8578
less	-8579
waħda	-8580
▁rikonoxxut	-8581
OK	-8582
ah	-8583
▁jitqiegħdu	-8584
77	-8585
▁sħab	-8586
▁tiġġ	-8587
qiegħda	-8588
tassazzjoni	-8589
▁studenti	-8590
▁korrett	-8591
▁penali	-8592
▁organizza	-8593
dependu	-8594
ppożizzjoni	-8595
▁Madanakollu	-8596
imġiba	-8597
Ġimgħa	-8598
▁xkiel	-8599
65/	-8600
sino	-8601
ġuna	-8602
▁JID	-8603
qoton	-8604
▁jaċċetta	-8605
ċinat	-8606
▁ppubblikata	-8607
▁konx	-8608
▁Total	-8609
kit	-8610
▁progressi	-8611
kwalifiki	-8612
▁kapsula	-8613
enzaw	-8614
ane	-8615
▁jmur	-8616
▁kliem	-8617
guri	-8618
muskoli	-8619
▁proprja	-8620
denominazzjoni	-8621
klo	-8622
▁jaw	-8623
bustjoni	-8624
estinali	-8625
▁tiċċ	-8626
▁jġ	-8627
emendaw	-8628
għodod	-8629
▁kostanti	-8630
kola	-8631
utri	-8632
għadam	-8633
▁European	-8634
▁hawnhekk	-8635
▁Oħra	-8636
ostakli	-8637
dwana	-8638
▁DWAR	-8639
▁armi	-8640
▁urb	-8641
azjen	-8642
▁minsu	-8643
▁Klassi	-8644
kodiċijiet	-8645
muniti	-8646
▁esponiment	-8647
Segretarjat	-8648
▁superviżorja	-8649
ttru	-8650
▁ikopri	-8651
RD	-8652
rotta	-8653
▁lew	-8654
▁Permanenti	-8655
▁huwiex	-8656
ferrovija	-8657
▁mniżżla	-8658
▁msemmijin	-8659
▁fond	-8660
kellem	-8661
▁ngħ	-8662
konsistenza	-8663
▁sikur	-8664
jpijiet	-8665
▁9.	-8666
ttanza	-8667
Ministri	-8668
kopertura	-8669
▁laħ	-8670
ħlief	-8671
▁terapew	-8672
▁jappoġġaw	-8673
▁tossiċità	-8674
▁Agħ	-8675
rudenza	-8676
▁qligħ	-8677
▁jemendaw	-8678
▁ddeterminat	-8679
SF	-8680
▁sinjal	-8681
▁temporanji	-8682
▁organiċi	-8683
▁El	-8684
togra	-8685
▁ambizzju	-8686
▁lingwa	-8687
▁1999	-8688
▁ingħata	-8689
listi	-8690
pido	-8691
ateral	-8692
▁twila	-8693
sospensjoni	-8694
nt	-8695
As	-8696
Mo	-8697
▁jinstabu	-8698
▁talKummissjoni	-8699
ċew	-8700
dibattitu	-8701
iskejjel	-8702
can	-8703
ekonomiċi	-8704
mark	-8705
stallazzjonijiet	-8706
▁ghall	-8707
▁negozjati	-8708
▁mistiedna	-8709
Ħam	-8710
movi	-8711
detenturi	-8712
▁inċiż	-8713
hal	-8714
wieġeb	-8715
▁skeda	-8716
Azzjoni	-8717
rejkjar	-8718
▁perjo	-8719
▁benefiċjarji	-8720
▁espożizzjoni	-8721
▁tqala	-8722
▁bankarji	-8723
CD	-8724
anniji	-8725
ispeċifikazzjoni	-8726
juta	-8727
▁klinikament	-8728
redjenti	-8729
▁kil	-8730
koperazzjoni	-8731
▁nieq	-8732
formin	-8733
▁Annwali	-8734
▁protetta	-8735
▁elettrika	-8736
▁Kategorija	-8737
des	-8738
Slova	-8739
ppliment	-8740
0000	-8741
feh	-8742
▁materja	-8743
BĊNi	-8744
emittent	-8745
tional	-8746
▁appell	-8747
ħila	-8748
▁GĦANDU	-8749
▁immuni	-8750
(2).	-8751
qqad	-8752
▁Er	-8753
▁Gre	-8754
-2-	-8755
▁plu	-8756
▁Koll	-8757
turdament	-8758
▁oss	-8759
▁għaddejjin	-8760
▁jikkorrispondu	-8761
nixx	-8762
▁ste	-8763
akkwakultura	-8764
anzi	-8765
▁Vall	-8766
onus	-8767
▁Tnaqqis	-8768
njo	-8769
▁14-	-8770
labra	-8771
▁preċiża	-8772
▁inkorporat	-8773
▁siti	-8774
▁milqu	-8775
conazole	-8776
▁Lu	-8777
▁interim	-8778
▁Manifattura	-8779
Dik	-8780
sat	-8781
▁tispeċifika	-8782
▁jiddeterminaw	-8783
▁3.4	-8784
▁[2],	-8785
oxrin	-8786
▁minuri	-8787
approprjazzjoni	-8788
JAR	-8789
perjenzi	-8790
EX	-8791
sessi	-8792
debitur	-8793
Edukazzjoni	-8794
▁eżaminati	-8795
rolo	-8796
▁ċentri	-8797
▁tqegħid	-8798
▁jeżerċitaw	-8799
Tek	-8800
▁2.4	-8801
▁All	-8802
▁fina	-8803
▁tonqos	-8804
▁mtejba	-8805
bertajiet	-8806
tos	-8807
okka	-8808
nalizza	-8809
▁daħal	-8810
oġeni	-8811
▁frekwenti	-8812
fat	-8813
our	-8814
▁3.5	-8815
beness	-8816
▁għalf	-8817
kriterju	-8818
▁pakketti	-8819
bij	-8820
Linja	-8821
▁iper	-8822
isport	-8823
bajd	-8824
▁jiddependu	-8825
ħba	-8826
▁jidentifikaw	-8827
żivi	-8828
familji	-8829
▁125	-8830
▁Bal	-8831
vori	-8832
Ġunju	-8833
▁Bħal	-8834
▁ċertifikati	-8835
▁ikopru	-8836
▁għażliet	-8837
▁66	-8838
ftie	-8839
▁sejħa	-8840
istorja	-8841
trasferi	-8842
▁attribwi	-8843
▁ġudizzjarji	-8844
▁aġġornat	-8845
▁ddeċidiet	-8846
appell	-8847
modali	-8848
Eurostat	-8849
erjo	-8850
wara	-8851
▁familja	-8852
▁hydroch	-8853
▁aċċi	-8854
iżgurar	-8855
▁korretta	-8856
għamla	-8857
▁depożiti	-8858
▁ilKummissjoni	-8859
sek	-8860
ħasil	-8861
▁Deleg	-8862
▁[7	-8863
dalità	-8864
tnedija	-8865
▁Taqsima	-8866
▁miftiehma	-8867
▁bank	-8868
sed	-8869
▁twett	-8870
fuq	-8871
▁HIV	-8872
bilanċi	-8873
Persunal	-8874
▁konċernat	-8875
enu	-8876
▁kirur	-8877
intervent	-8878
indikazzjoni	-8879
6.201	-8880
▁żball	-8881
▁ssaħħaħ	-8882
▁[4]	-8883
▁frott	-8884
▁gradwali	-8885
kwit	-8886
erat	-8887
ellug	-8888
pros	-8889
▁pariri	-8890
ismijiet	-8891
Istan	-8892
llari	-8893
residenti	-8894
▁ruħu	-8895
▁bilan	-8896
▁studjat	-8897
▁tiffoka	-8898
kontabilità	-8899
egi	-8900
kwar	-8901
▁elettro	-8902
vija	-8903
▁Fer	-8904
▁psi	-8905
▁jixtru	-8906
▁Ry	-8907
kawzjonijiet	-8908
iskala	-8909
gliċemija	-8910
produttività	-8911
▁72	-8912
/2013,	-8913
mudelli	-8914
oloġiċi	-8915
traprendi	-8916
▁wett	-8917
▁kuntra	-8918
▁PAK	-8919
▁fajl	-8920
▁Għadd	-8921
▁inibituri	-8922
qux	-8923
Do	-8924
omb	-8925
belt	-8926
għarraf	-8927
▁tariffi	-8928
▁awton	-8929
▁ipprovdut	-8930
▁definittiv	-8931
egati	-8932
ronic	-8933
▁ittratta	-8934
oxra	-8935
karja	-8936
▁jorb	-8937
▁ħġieġ	-8938
Ministru	-8939
ċuħ	-8940
▁Taħt	-8941
wieħed	-8942
▁safejn	-8943
vivenza	-8944
▁des	-8945
ering	-8946
istrutturi	-8947
kosta	-8948
▁ġesti	-8949
▁Rekwiżiti	-8950
▁Mone	-8951
▁Doganali	-8952
▁tipprevedi	-8953
▁At	-8954
traffikar	-8955
diffikultajiet	-8956
▁frisk	-8957
prom	-8958
▁Franċiżi	-8959
bejji	-8960
saħħtu	-8961
EPAR	-8962
▁kkalko	-8963
pitu	-8964
▁rimedju	-8965
mettar	-8966
▁jinnotifikaw	-8967
▁tiddetermina	-8968
belli	-8969
entrati	-8970
▁sanzjonijiet	-8971
Belt	-8972
faċċ	-8973
▁analo	-8974
▁jintbagħtu	-8975
anada	-8976
▁profitt	-8977
qsim	-8978
rilaxx	-8979
▁sforz	-8980
arrab	-8981
Rappreżentant	-8982
AG	-8983
▁kompetittiv	-8984
▁bażika	-8985
▁koeżjoni	-8986
▁leġiżlattiva	-8987
xien	-8988
▁Diġitali	-8989
aqli	-8990
impjant	-8991
run	-8992
▁ST	-8993
moħħ	-8994
landiż	-8995
▁strateġiku	-8996
armaċew	-8997
riżerva	-8998
alkoħol	-8999
▁għandna	-9000
diżabilità	-9001
▁awdjoviżi	-9002
▁doppju	-9003
iii	-9004
▁AB	-9005
▁JEW	-9006
▁severi	-9007
territorji	-9008
▁Aġenzija	-9009
▁skrutinju	-9010
▁aġġornati	-9011
hiaz	-9012
▁imqa	-9013
▁mmoni	-9014
▁esposti	-9015
farmako	-9016
▁ippreżentat	-9017
.10	-9018
414/	-9019
▁negozji	-9020
▁obbligatorju	-9021
▁93	-9022
▁jest	-9023
▁rieżami	-9024
▁KAP	-9025
għandu	-9026
bbiegħa	-9027
▁akkwist	-9028
WTO	-9029
ram	-9030
uniet	-9031
Islanda	-9032
▁Issa	-9033
xija	-9034
ċelluli	-9035
Sikurezza	-9036
liġibbiltà	-9037
falli	-9038
penija	-9039
2-	-9040
disti	-9041
trade	-9042
▁jaqbiżx	-9043
ikk	-9044
ritorn	-9045
▁reżistenza	-9046
pidogrel	-9047
riassigurazzjoni	-9048
▁falli	-9049
▁voj	-9050
▁żja	-9051
attiva	-9052
▁ġusta	-9053
▁59	-9054
Er	-9055
▁bdew	-9056
▁jiffaċilita	-9057
mpar	-9058
km	-9059
don	-9060
▁at	-9061
omiċil	-9062
▁żviluppi	-9063
▁Bid	-9064
/2009,	-9065
▁TAS	-9066
▁tapp	-9067
jeni	-9068
▁ossi	-9069
▁azzar	-9070
landiża	-9071
▁jirreferu	-9072
▁[8	-9073
ħnieżer	-9074
sent	-9075
ballun	-9076
▁esportazzjoni	-9077
harma	-9078
▁bar	-9079
▁anni	-9080
paġġ	-9081
▁dovuti	-9082
miku	-9083
▁transi	-9084
Informazzjoni	-9085
stitwit	-9086
▁imgħax	-9087
▁opportunità	-9088
log	-9089
marġni	-9090
▁likwidità	-9091
kopp	-9092
▁disinn	-9093
▁91/414/	-9094
▁tmien	-9095
▁ha	-9096
▁Illum	-9097
fabbrika	-9098
▁nuqqasijiet	-9099
▁traż	-9100
▁effiċjenza	-9101
deskrizzjoni	-9102
wanti	-9103
adattament	-9104
kawżi	-9105
prova	-9106
▁jitji	-9107
▁biha	-9108
▁2016.	-9109
▁AL	-9110
rasmus	-9111
Ottubru	-9112
indikazzjonijiet	-9113
proba	-9114
▁bogħod	-9115
▁ħtieġa	-9116
▁jidentifika	-9117
bosta	-9118
▁magna	-9119
▁Inf	-9120
ey	-9121
aġenzija	-9122
iżbona	-9123
emer	-9124
▁produttur	-9125
ribunal	-9126
▁offerta	-9127
▁note	-9128
▁Agriko	-9129
▁kompetittiva	-9130
▁taqa	-9131
▁jitħallas	-9132
vjenu	-9133
▁inġenji	-9134
duma	-9135
appun	-9136
▁Delegat	-9137
ffu	-9138
▁tikkawża	-9139
nata	-9140
liċ	-9141
Dikja	-9142
tlantiku	-9143
Fran	-9144
korrenti	-9145
▁mL	-9146
iskoperturi	-9147
▁Aċċess	-9148
▁rin	-9149
▁disku	-9150
profitt	-9151
▁soft	-9152
proporzjonalità	-9153
Int	-9154
▁92	-9155
chten	-9156
▁Interna	-9157
▁rċeviet	-9158
▁jiltaqa	-9159
rapportaw	-9160
▁Sost	-9161
58	-9162
▁aċċessorji	-9163
▁indirizzat	-9164
ġet	-9165
▁IP	-9166
ikbar	-9167
ossidu	-9168
▁jiġġenera	-9169
unzja	-9170
▁Ameri	-9171
▁nru	-9172
▁semi	-9173
▁rappreżentant	-9174
▁67	-9175
▁tema	-9176
▁rre	-9177
Finanz	-9178
ganistan	-9179
▁ttieħdu	-9180
rop	-9181
▁rkup	-9182
▁reżistenti	-9183
liex	-9184
▁dovuta	-9185
pret	-9186
▁tirrapporta	-9187
simiet	-9188
Prodotti	-9189
aġenti	-9190
ġibbli	-9191
▁Ter	-9192
karburanti	-9193
elen	-9194
▁rregola	-9195
portafoll	-9196
▁Finanzjarja	-9197
▁Taj	-9198
▁tessuti	-9199
ellati	-9200
▁dipendenti	-9201
tikkettar	-9202
▁miżmum	-9203
għel	-9204
Sezzjoni	-9205
▁jibgħat	-9206
lem	-9207
rena	-9208
▁Pill	-9209
▁debi	-9210
▁segwita	-9211
ringi	-9212
konverżjoni	-9213
rakkomandazzjoni	-9214
▁wasslu	-9215
nizjattiva	-9216
▁RN	-9217
▁Reg	-9218
▁vveri	-9219
omenkla	-9220
turiżmu	-9221
▁2)	-9222
▁Kara	-9223
▁fuqha	-9224
▁mibju	-9225
▁1(	-9226
▁assenjat	-9227
immigrazzjoni	-9228
▁Dikjarazzjoni	-9229
-2016	-9230
AMENT	-9231
▁ħażna	-9232
xew	-9233
dannu	-9234
▁bikrija	-9235
Ukraina	-9236
▁qari	-9237
▁reċiproka	-9238
▁skoperturi	-9239
otti	-9240
▁tħossok	-9241
chtenstein	-9242
▁jirrispettaw	-9243
▁Għaż	-9244
▁mehmu	-9245
▁tissu	-9246
▁kultant	-9247
vernattivi	-9248
▁importati	-9249
okazzjonali	-9250
’:	-9251
▁doppja	-9252
għażlu	-9253
▁Żieda	-9254
▁maħduma	-9255
▁Livell	-9256
▁jonqsu	-9257
▁Referenza	-9258
OECD	-9259
▁nnoti	-9260
pm	-9261
▁PAKKE	-9262
▁95/	-9263
olexxenti	-9264
lora	-9265
▁biċ	-9266
▁Regola	-9267
▁kkonsul	-9268
Riżoluzzjoni	-9269
OTT	-9270
olqot	-9271
sostenn	-9272
▁karbonju	-9273
rapportar	-9274
▁speċijiet	-9275
▁09	-9276
▁organizzati	-9277
▁infurmat	-9278
xxejja	-9279
▁inkorporati	-9280
06	-9281
▁Kal	-9282
dijiet	-9283
▁JIDHER	-9284
▁qos	-9285
▁jikber	-9286
▁2:	-9287
▁infjammazzjoni	-9288
jabbli	-9289
kana	-9290
remi	-9291
▁92/	-9292
lokka	-9293
ulari	-9294
▁maħtura	-9295
▁derivati	-9296
olika	-9297
riment	-9298
▁vot	-9299
konju	-9300
▁Parte	-9301
▁Parla	-9302
lopidogrel	-9303
▁2008.	-9304
tira	-9305
Ser	-9306
▁NB	-9307
erogi	-9308
ETTI	-9309
iskju	-9310
abora	-9311
avvenimenti	-9312
▁val	-9313
gliptin	-9314
▁jittrattaw	-9315
hir	-9316
Malti	-9317
kontrollat	-9318
▁Kul	-9319
▁iva	-9320
▁jevalwa	-9321
▁rrakkomandat	-9322
▁rikonoxximent	-9323
konservazzjoni	-9324
▁żdiedu	-9325
▁koperta	-9326
IJA	-9327
▁mmonitor	-9328
▁sostitwita	-9329
xix	-9330
▁indirettament	-9331
▁Mudell	-9332
kondizzjoni	-9333
':	-9334
tossiċità	-9335
▁ikkalku	-9336
emittenti	-9337
Taj	-9338
jel	-9339
▁Home	-9340
sjonijiet	-9341
▁EC	-9342
Kap	-9343
mbH	-9344
▁IT	-9345
▁Tit	-9346
▁Viċi	-9347
▁dijanjo	-9348
▁jitneħħa	-9349
ag	-9350
iechtenstein	-9351
ISS	-9352
▁FL	-9353
▁konnessi	-9354
▁sessjoni	-9355
▁(0.	-9356
Impjiegi	-9357
għoli	-9358
▁azzjon	-9359
▁jappart	-9360
ġabru	-9361
talità	-9362
▁tibgħat	-9363
importaturi	-9364
pilloli	-9365
▁nu	-9366
▁beta	-9367
▁Strutturali	-9368
altà	-9369
▁800	-9370
▁konsum	-9371
reżistenza	-9372
▁pinna	-9373
▁2019	-9374
▁stri	-9375
imballaġġ	-9376
pagi	-9377
▁mħallsa	-9378
▁żve	-9379
▁eżatt	-9380
aġġorna	-9381
tariffa	-9382
▁Konsegwentement	-9383
front	-9384
▁raff	-9385
fidenza	-9386
omenklatura	-9387
ervu	-9388
oż	-9389
▁iddikjarat	-9390
DĠ	-9391
hin	-9392
▁indaqs	-9393
▁Federali	-9394
werra	-9395
▁ippreżentati	-9396
ISO	-9397
torn	-9398
▁lilha	-9399
▁max	-9400
kistan	-9401
trimon	-9402
ħaddmu	-9403
▁futura	-9404
▁postali	-9405
▁ġġenera	-9406
emx	-9407
▁CH	-9408
▁12.	-9409
okrati	-9410
▁lesta	-9411
▁iz	-9412
eba	-9413
▁jafu	-9414
ussess	-9415
Europol	-9416
▁passa	-9417
▁kummenti	-9418
tatti	-9419
▁vaċċin	-9420
▁integrali	-9421
orzju	-9422
▁dilwi	-9423
▁qorti	-9424
ITS	-9425
rezzjonali	-9426
▁com	-9427
impożizzjoni	-9428
▁riferi	-9429
▁obbligatorji	-9430
▁sajd	-9431
▁ħalib	-9432
impjanti	-9433
FF	-9434
▁sussegwentement	-9435
eja	-9436
SB	-9437
▁rekord	-9438
▁strutturi	-9439
▁assoċjazzjoni	-9440
▁FIL	-9441
▁mmaniġġ	-9442
▁Segre	-9443
▁netti	-9444
▁riċevi	-9445
▁kronika	-9446
▁enerġetika	-9447
▁Est	-9448
▁tilqa	-9449
▁dożaġġ	-9450
petizzjoni	-9451
De	-9452
IMI	-9453
iegħek	-9454
dt	-9455
▁bankarju	-9456
▁lim	-9457
▁messa	-9458
▁indikata	-9459
iera	-9460
▁Liżbona	-9461
presid	-9462
▁tikber	-9463
ispezzjonijiet	-9464
avviż	-9465
▁ħti	-9466
ettorat	-9467
▁teknoloġiċi	-9468
GA	-9469
▁diskre	-9470
għodda	-9471
▁strateġika	-9472
▁63	-9473
▁pożizzjonijiet	-9474
▁GmbH	-9475
rantit	-9476
jer	-9477
▁iqisu	-9478
▁terri	-9479
▁sostituzzjoni	-9480
odd	-9481
edda	-9482
ffiċjent	-9483
▁ittejjeb	-9484
▁imsemmijin	-9485
.12	-9486
seg	-9487
▁ippjana	-9488
serum	-9489
suġġetti	-9490
▁rrapportati	-9491
▁rreġistrata	-9492
▁Ġew	-9493
▁diskrimina	-9494
▁Punt	-9495
▁rapportar	-9496
qalba	-9497
perspettiva	-9498
ses	-9499
anness	-9500
humiex	-9501
▁Doża	-9502
▁twal	-9503
rejner	-9504
ofo	-9505
▁cm	-9506
▁liċenzji	-9507
▁effettivament	-9508
egat	-9509
▁Ladarba	-9510
ondazzjoni	-9511
▁4.4).	-9512
▁folji	-9513
▁ci	-9514
ħarr	-9515
Missjoni	-9516
▁kawża	-9517
▁klima	-9518
▁mibdul	-9519
▁evalwat	-9520
▁Fo	-9521
iżjed	-9522
▁Għar	-9523
▁żidiet	-9524
GT	-9525
non	-9526
eġġu	-9527
▁Grad	-9528
▁fuck	-9529
▁soċjo	-9530
sodisfa	-9531
▁deċiż	-9532
Ps	-9533
għaġ	-9534
▁sad	-9535
anair	-9536
▁itti	-9537
▁chloride	-9538
imma	-9539
▁kart	-9540
▁Valletta	-9541
segwitu	-9542
▁Norveġi	-9543
▁jimponi	-9544
▁seħħew	-9545
eneb	-9546
vattiva	-9547
vew	-9548
▁Ste	-9549
▁Val	-9550
faħam	-9551
▁Investiment	-9552
wità	-9553
zumab	-9554
arm	-9555
Isvezja	-9556
ażil	-9557
▁Sakemm	-9558
▁depożitu	-9559
lobalizzazzjoni	-9560
▁dwarhom	-9561
▁immobbli	-9562
▁plenarja	-9563
Korea	-9564
dula	-9565
▁Gro	-9566
foresti	-9567
▁deċiżi	-9568
▁mara	-9569
ht	-9570
▁futur	-9571
marki	-9572
▁gravi	-9573
▁qasam	-9574
ominati	-9575
pravivenza	-9576
▁rikonoxxuta	-9577
xide	-9578
▁mon	-9579
▁pan	-9580
tagħha	-9581
▁tmexxija	-9582
WTOR	-9583
▁jinb	-9584
▁kwar	-9585
▁iswed	-9586
Dikjarazzjoni	-9587
▁MT	-9588
▁topera	-9589
▁direttiva	-9590
MO	-9591
rt	-9592
ister	-9593
sejsa	-9594
▁mħass	-9595
▁tipproduċi	-9596
▁Kontenut	-9597
▁Sir	-9598
▁pprojbi	-9599
CRR	-9600
tudni	-9601
▁segwitu	-9602
Papa	-9603
▁titwaqqaf	-9604
▁allokazzjoni	-9605
▁għotjiet	-9606
ĠAI	-9607
▁fatt	-9608
pjattaforma	-9609
▁0.5	-9610
Klassi	-9611
ekuttivi	-9612
74	-9613
▁vol	-9614
▁edukattivi	-9615
sussidjarjetà	-9616
▁distors	-9617
▁marittima	-9618
ENZ	-9619
▁jiżviluppa	-9620
▁dde	-9621
Għajnuna	-9622
thed	-9623
work	-9624
Na	-9625
▁ikkom	-9626
tbagħat	-9627
kompla	-9628
▁2017,	-9629
▁Hi	-9630
▁fen	-9631
▁Rura	-9632
▁separatament	-9633
▁Pubbliku	-9634
▁solidu	-9635
▁Sub	-9636
▁2006,	-9637
riennali	-9638
▁drapp	-9639
▁potenzjal	-9640
▁lam	-9641
▁tiddaħħal	-9642
▁Jix	-9643
fabbri	-9644
estjonarju	-9645
▁ikompli	-9646
dmirijiet	-9647
▁tevita	-9648
konferenza	-9649
▁Gra	-9650
addittivi	-9651
maturità	-9652
konv	-9653
▁(8	-9654
▁testendi	-9655
▁TR	-9656
ħaqq	-9657
▁Fost	-9658
▁jipproteġu	-9659
▁AUC	-9660
▁blu	-9661
ġurisp	-9662
▁jiġri	-9663
▁tinstab	-9664
▁2012/	-9665
pon	-9666
żgħar	-9667
▁spinta	-9668
▁jifforma	-9669
inflazzjoni	-9670
Nov	-9671
▁iżomm	-9672
▁allokat	-9673
vaċċin	-9674
▁validi	-9675
▁manifatturi	-9676
▁trim	-9677
odifika	-9678
bieb	-9679
ART	-9680
63	-9681
għallem	-9682
▁rimettar	-9683
Slovakkja	-9684
UŻ	-9685
tax	-9686
kombina	-9687
trasportaturi	-9688
istħarriġ	-9689
▁mgħaġġel	-9690
bol	-9691
▁jintemm	-9692
poplu	-9693
▁ġbir	-9694
▁jissaħ	-9695
▁Ber	-9696
▁1234	-9697
▁joriġina	-9698
ġurisprudenza	-9699
▁Imbagħad	-9700
▁regolati	-9701
▁tippubblika	-9702
AE	-9703
▁9,	-9704
▁jistieden	-9705
klieb	-9706
▁Kontroll	-9707
▁tranżazzjoni	-9708
▁suġġetta	-9709
Segretarju	-9710
▁bov	-9711
Ewwel	-9712
bħala	-9713
Ġappun	-9714
rażil	-9715
trabi	-9716
▁jiġġusti	-9717
▁Operatur	-9718
esija	-9719
sewwieq	-9720
introjtu	-9721
demokrazija	-9722
Tun	-9723
citab	-9724
ġarrba	-9725
▁suċċessi	-9726
destinazzjoni	-9727
citabine	-9728
▁Ab	-9729
▁pu	-9730
▁78	-9731
essità	-9732
▁negozjar	-9733
ISTA	-9734
▁revoka	-9735
▁alia	-9736
▁jiddetermina	-9737
end	-9738
trej	-9739
▁jippromwovi	-9740
▁korporattiva	-9741
▁mibgħuta	-9742
▁kompetittivi	-9743
kif	-9744
▁Rurali	-9745
▁Analiżi	-9746
100	-9747
għotja	-9748
▁fatti	-9749
▁jikkomunikaw	-9750
▁Gu	-9751
sodju	-9752
troġenu	-9753
rieda	-9754
▁fsada	-9755
▁ordin	-9756
▁jidhrux	-9757
▁rabta	-9758
▁Flimkien	-9759
iskopertura	-9760
▁jaslu	-9761
▁Applikazzjoni	-9762
titlu	-9763
▁identifikata	-9764
▁prem	-9765
▁Unjoni	-9766
▁talab	-9767
▁ID	-9768
Europe	-9769
▁magħluqa	-9770
▁teknoloġiku	-9771
orn	-9772
▁Det	-9773
SEBĊ	-9774
▁modu	-9775
defiċit	-9776
valenza	-9777
▁msieħba	-9778
▁komposti	-9779
Kostituzzjoni	-9780
onq	-9781
▁hijiex	-9782
▁eċċell	-9783
▁korsijiet	-9784
▁marittimi	-9785
runtieri	-9786
62	-9787
▁determinati	-9788
tir	-9789
-2013,	-9790
▁modifikati	-9791
glitaz	-9792
ħubijiet	-9793
Ban	-9794
ureau	-9795
▁jiġix	-9796
Reġistru	-9797
Sena	-9798
▁ifittxu	-9799
▁ingħatat	-9800
df	-9801
gn	-9802
▁alu	-9803
▁Ryanair	-9804
vulgazzjoni	-9805
▁dimen	-9806
issil	-9807
▁infushom	-9808
▁volontarja	-9809
besartan	-9810
irja	-9811
ħeġġu	-9812
dentali	-9813
▁sommarju	-9814
▁notifikati	-9815
ATTI	-9816
▁Net	-9817
▁atturi	-9818
▁jissuppli	-9819
IKAZZJONIJIET	-9820
▁akkumpanjati	-9821
lija	-9822
xagħar	-9823
Suppliment	-9824
▁opinjonijiet	-9825
DF	-9826
han	-9827
▁jopera	-9828
55	-9829
back	-9830
mborż	-9831
▁ċirku	-9832
reg	-9833
ettru	-9834
elezzjonijiet	-9835
yer	-9836
▁jipproponi	-9837
▁ġenetikament	-9838
xorb	-9839
unzjon	-9840
anzapine	-9841
arġ	-9842
▁indiretti	-9843
▁restrizzjoni	-9844
▁as	-9845
isforz	-9846
Euratom	-9847
pt	-9848
▁dazji	-9849
▁konnessjoni	-9850
kessi	-9851
▁rivedut	-9852
infrastrutturi	-9853
▁Kaxxa	-9854
titjira	-9855
ffirmar	-9856
NI	-9857
ispa	-9858
▁Res	-9859
▁ħaj	-9860
piżijiet	-9861
▁mel	-9862
isfru	-9863
%),	-9864
▁tħalli	-9865
grazzjoni	-9866
▁transnazzjonali	-9867
▁newtro	-9868
▁reati	-9869
enet	-9870
stem	-9871
torija	-9872
▁avviż	-9873
petro	-9874
OV	-9875
▁Sol	-9876
Kanada	-9877
03	-9878
▁ħażina	-9879
▁tirrifletti	-9880
xxetti	-9881
Żgħażagħ	-9882
toġeni	-9883
▁575	-9884
EST	-9885
teur	-9886
▁issi	-9887
volumi	-9888
▁tħejjija	-9889
▁metformin	-9890
xandir	-9891
▁enfasizzat	-9892
nuti	-9893
slet	-9894
▁stħarriġ	-9895
ire	-9896
entral	-9897
▁status	-9898
▁Ik	-9899
Assemblea	-9900
▁pjanti	-9901
▁spezzjonijiet	-9902
▁preċiż	-9903
▁Jistgħu	-9904
▁appropr	-9905
enfasi	-9906
▁konsegwenza	-9907
▁kwantitajiet	-9908
▁termini	-9909
wasla	-9910
▁baqgħu	-9911
▁taċċetta	-9912
nifisha	-9913
koerenza	-9914
▁impenji	-9915
▁biż	-9916
April	-9917
eat	-9918
7.200	-9919
oglob	-9920
torjali	-9921
▁ħarsien	-9922
issar	-9923
▁aġenziji	-9924
▁immedjat	-9925
▁fuqu	-9926
indiċi	-9927
▁falliment	-9928
▁tna	-9929
komunitajiet	-9930
▁prijoritajiet	-9931
▁Elett	-9932
iżvelar	-9933
mem	-9934
ċikli	-9935
▁Belġ	-9936
fittxija	-9937
partita	-9938
▁89	-9939
▁tn	-9940
▁maċ	-9941
▁jipproduċi	-9942
▁64	-9943
▁jillimitaw	-9944
Forum	-9945
▁jippres	-9946
-2010,	-9947
▁makkinarju	-9948
tum	-9949
naġġ	-9950
▁sfru	-9951
pjant	-9952
AETS	-9953
▁lIstati	-9954
Bureau	-9955
sdizzjoni	-9956
tates	-9957
▁modifikat	-9958
▁relazzjoni	-9959
▁74	-9960
periklu	-9961
▁qasira	-9962
▁likwidi	-9963
ekkaniżmu	-9964
ruf	-9965
Patt	-9966
traw	-9967
▁Materjal	-9968
▁Finanzjarji	-9969
.11	-9970
▁ferrovjarji	-9971
▁69	-9972
karto	-9973
ġilanza	-9974
▁ast	-9975
▁Pharma	-9976
▁dinjija	-9977
▁deskritta	-9978
formulazzjoni	-9979
tas	-9980
▁bor	-9981
▁add	-9982
Liechtenstein	-9983
biegħu	-9984
trasferimenti	-9985
▁nefqa	-9986
professjonisti	-9987
pha	-9988
rori	-9989
aċċettazzjoni	-9990
▁kontraċ	-9991
bbie	-9992
▁iżidu	-9993
ċiljazzjoni	-9994
▁maħż	-9995
reddigħ	-9996
▁solari	-9997
glitazone	-9998
▁(7	-9999
▁tikkonsulta	-10000
▁speċjalizzati	-10001
ker	-10002
▁feh	-10003
▁riveduti	-10004
▁Nota	-10005
kessiħ	-10006
ffavori	-10007
▁jappoġġa	-10008
▁kre	-10009
dewmien	-10010
Proċedura	-10011
RC	-10012
gwarda	-10013
▁jispi	-10014
fikatur	-10015
dgħaj	-10016
ċifri	-10017
org	-10018
Green	-10019
trite	-10020
▁muri	-10021
▁reġjun	-10022
notifiki	-10023
eal	-10024
▁barrani	-10025
▁moviment	-10026
82	-10027
▁bihom	-10028
▁antikorpi	-10029
▁derivattivi	-10030
▁jatt	-10031
hejjem	-10032
inhuma	-10033
▁riveduta	-10034
dek	-10035
▁domestika	-10036
▁ttestjar	-10037
evoluzzjoni	-10038
▁2017.	-10039
▁vvalutat	-10040
▁jixraq	-10041
▁primarji	-10042
▁tiddikjara	-10043
partimenti	-10044
kwa	-10045
▁kalendarja	-10046
kelma	-10047
▁Prodott	-10048
referenzi	-10049
▁jirreġistra	-10050
sħab	-10051
IZZAZZJONI	-10052
intrapriża	-10053
makkinarju	-10054
7.201	-10055
għatu	-10056
▁Ammon	-10057
▁qtugħ	-10058
AQ	-10059
pil	-10060
Kawża	-10061
sinjal	-10062
▁esklussivament	-10063
oldo	-10064
▁Par	-10065
▁biċċa	-10066
▁Regoli	-10067
▁promozzjoni	-10068
ria	-10069
▁manteniment	-10070
▁jirrapportaw	-10071
strument	-10072
▁projbizzjoni	-10073
▁metalli	-10074
estival	-10075
▁awto	-10076
atta	-10077
▁tevalwa	-10078
Kooperazzjoni	-10079
▁valu	-10080
Avjazzjoni	-10081
rezzjonijiet	-10082
▁install	-10083
Afganistan	-10084
iskopijiet	-10085
▁kkonfermat	-10086
JN	-10087
▁aħħari	-10088
derivattivi	-10089
▁Tratta	-10090
telekomuni	-10091
48/	-10092
cks	-10093
▁jinfurmaw	-10094
▁jiffaċċjaw	-10095
Tip	-10096
ttaw	-10097
▁jta	-10098
▁inċidenti	-10099
tamina	-10100
▁sejra	-10101
▁tagħbija	-10102
ekwità	-10103
iffirmar	-10104
ttivitajiet	-10105
▁Ad	-10106
membru	-10107
▁iżżid	-10108
▁ċiklu	-10109
AV	-10110
AUC	-10111
▁anormali	-10112
▁qawwa	-10113
▁mibdula	-10114
▁jispeċifika	-10115
▁Ġie	-10116
CS	-10117
dijabete	-10118
▁multiannwali	-10119
għarr	-10120
fjuwils	-10121
▁muniti	-10122
kontroparti	-10123
▁Jid	-10124
rd	-10125
hieda	-10126
▁ssib	-10127
Olanda	-10128
▁tieqaf	-10129
▁żvantaġġ	-10130
▁individwu	-10131
▁issodisfa	-10132
viżjonijiet	-10133
▁96/	-10134
▁bro	-10135
-2008,	-10136
hospha	-10137
lima	-10138
ġibu	-10139
federazzjoni	-10140
Teknoloġija	-10141
istokkijiet	-10142
ssam	-10143
▁110	-10144
▁event	-10145
▁urew	-10146
inanzja	-10147
▁flixkun	-10148
▁jinħoloq	-10149
▁mira	-10150
▁residwi	-10151
▁jsaħħu	-10152
ġjo	-10153
▁RE	-10154
▁ngħata	-10155
▁ċin	-10156
▁miljuni	-10157
terazzjonijiet	-10158
hydra	-10159
demi	-10160
lussi	-10161
▁importazzjoni	-10162
kollaborazzjoni	-10163
poġġi	-10164
TAR	-10165
tgħa	-10166
▁aħmar	-10167
▁jara	-10168
▁tist	-10169
spendi	-10170
IĠ	-10171
ħallef	-10172
▁akuta	-10173
▁mor	-10174
▁espressi	-10175
egwenti	-10176
▁KUMM	-10177
riċevi	-10178
▁spp	-10179
rikors	-10180
sidien	-10181
▁kopertura	-10182
▁apparati	-10183
▁jirrikjedu	-10184
ffef	-10185
▁180	-10186
rament	-10187
vinċja	-10188
▁settur	-10189
▁ttrasferi	-10190
koħ	-10191
ctose	-10192
SIS	-10193
▁rif	-10194
hiazide	-10195
▁jitqiegħed	-10196
▁alkoħol	-10197
89	-10198
enzimi	-10199
tlestija	-10200
▁Mediċini	-10201
qbid	-10202
▁seba	-10203
▁ferrovjarja	-10204
għaqdu	-10205
ekwivalenti	-10206
għbu	-10207
▁assenjati	-10208
Bal	-10209
Gżejjer	-10210
▁Għandek	-10211
qabdiet	-10212
▁ikkuntattja	-10213
001	-10214
▁bij	-10215
korruzzjoni	-10216
cetaxel	-10217
▁riprodu	-10218
interoperabbiltà	-10219
▁11.	-10220
▁laħam	-10221
▁ddikjarat	-10222
▁dment	-10223
▁Ling	-10224
ekonomiji	-10225
▁jar	-10226
▁preferenzjali	-10227
kontrollur	-10228
▁Spanj	-10229
Istitut	-10230
poniet	-10231
▁profil	-10232
kunsinna	-10233
FSE	-10234
▁77	-10235
▁Imm	-10236
▁1107	-10237
mpati	-10238
▁jipprevjenu	-10239
5),	-10240
▁uża	-10241
▁eskluż	-10242
▁("	-10243
deni	-10244
▁Tin	-10245
▁jiġbru	-10246
eliminazzjoni	-10247
kompatibbiltà	-10248
5-	-10249
liku	-10250
diskre	-10251
▁Te	-10252
inġenju	-10253
ssoċjazzjonijiet	-10254
ure	-10255
▁ff	-10256
kariga	-10257
ebgħa	-10258
▁sturdament	-10259
▁verżjoni	-10260
assoċjazzjoni	-10261
dant	-10262
▁rekwiżit	-10263
ġel	-10264
ħtiġiet	-10265
onal	-10266
▁selva	-10267
▁proporzjonali	-10268
64	-10269
▁jissaħħu	-10270
▁vokazzjonali	-10271
▁Am	-10272
▁Dejta	-10273
kurju	-10274
▁adattata	-10275
Le	-10276
rs	-10277
mura	-10278
ulo	-10279
▁12,	-10280
twera	-10281
▁innifsu	-10282
ekwipaġġ	-10283
▁theddida	-10284
▁attra	-10285
▁ssu	-10286
6.200	-10287
▁logħba	-10288
most	-10289
wina	-10290
yn	-10291
aqliq	-10292
▁iżid	-10293
▁ħarsa	-10294
▁tag	-10295
6),	-10296
minijiet	-10297
▁jipprojbi	-10298
▁kklassifikati	-10299
ls	-10300
▁baġit	-10301
Reġjun	-10302
▁jassiguraw	-10303
▁tirrigwarda	-10304
▁tassew	-10305
stim	-10306
▁tesp	-10307
▁Jixtru	-10308
▁għotja	-10309
umulazzjoni	-10310
▁jakkumpanja	-10311
ajja	-10312
biddel	-10313
▁kompost	-10314
Data	-10315
omatiċi	-10316
▁osservazzjoni	-10317
▁pjattaforma	-10318
▁eżekuzzjoni	-10319
fetaħ	-10320
ħalissa	-10321
dettall	-10322
ebel	-10323
riċiklaġġ	-10324
etu	-10325
▁ran	-10326
fsa	-10327
materji	-10328
▁Dokument	-10329
▁evalwata	-10330
▁rad	-10331
lerjar	-10332
tteriji	-10333
ċittadinanza	-10334
87/	-10335
▁Żid	-10336
bitraġġ	-10337
▁ekwità	-10338
lejl	-10339
▁Lo	-10340
▁joq	-10341
▁infer	-10342
▁Sci	-10343
ispons	-10344
▁kamra	-10345
EFSA	-10346
▁tħaddim	-10347
▁wasslet	-10348
▁informali	-10349
▁infurmati	-10350
▁sekondarja	-10351
▁tintbagħat	-10352
Konsuma	-10353
▁funzjonijiet	-10354
juna	-10355
telefon	-10356
inavir	-10357
▁kondi	-10358
last	-10359
lesta	-10360
▁Dħul	-10361
intraprendi	-10362
▁ċirkostanzi	-10363
KUNS	-10364
tass	-10365
isfond	-10366
▁ġenerazzjoni	-10367
▁2007.	-10368
▁liġijiet	-10369
▁Du	-10370
▁daq	-10371
▁Żewġ	-10372
▁verifiki	-10373
▁titħassar	-10374
-2013.	-10375
rendiment	-10376
▁Suq	-10377
ħassru	-10378
▁kompiti	-10379
▁jinx	-10380
▁kkunsidraw	-10381
▁dif	-10382
ansjoni	-10383
▁intitolat	-10384
odolo	-10385
▁poly	-10386
▁jissi	-10387
▁ddisinjati	-10388
versitajiet	-10389
ML	-10390
brejk	-10391
pussess	-10392
▁metall	-10393
9]	-10394
ala	-10395
fibra	-10396
▁ribavirin	-10397
▁għadda	-10398
Novembru	-10399
Isvizzera	-10400
▁sospensjoni	-10401
▁ġeografiku	-10402
sodisfazzjon	-10403
MRL	-10404
rana	-10405
għodu	-10406
oldova	-10407
reġistri	-10408
▁fiduċja	-10409
▁jeżamina	-10410
traspożizzjoni	-10411
▁Imma	-10412
▁pura	-10413
Erbgħa	-10414
▁Segretarju	-10415
,000	-10416
went	-10417
▁Cor	-10418
kjedi	-10419
orju	-10420
uniku	-10421
▁Enti	-10422
▁simul	-10423
Tribunal	-10424
▁involuta	-10425
▁epatite	-10426
;=	-10427
▁Oġġetti	-10428
▁riformi	-10429
batterija	-10430
▁Strumenti	-10431
▁reli	-10432
▁jiddikjara	-10433
rożi	-10434
sfera	-10435
▁allura	-10436
uble	-10437
uġigħ	-10438
inanzjar	-10439
▁iġ	-10440
omika	-10441
▁diffikultà	-10442
▁armonizzazzjoni	-10443
CHMP	-10444
turb	-10445
tiġdid	-10446
▁tfix	-10447
▁dehru	-10448
▁porta	-10449
jef	-10450
biltà	-10451
▁iddetermina	-10452
▁Mul	-10453
▁japplikax	-10454
▁PL	-10455
pinna	-10456
ġinali	-10457
oglobina	-10458
BBLI	-10459
▁assorbiment	-10460
▁relazzjonijiet	-10461
pat	-10462
żebbu	-10463
orrispondi	-10464
ISPEĊIF	-10465
▁imposta	-10466
Marzu	-10467
▁sov	-10468
▁[3],	-10469
unnellati	-10470
kombinazzjoni	-10471
▁ħareġ	-10472
▁KAPITOLU	-10473
▁irrappurtati	-10474
agħar	-10475
għtet	-10476
permess	-10477
▁tranżizzjoni	-10478
▁Riċerka	-10479
▁biċċiet	-10480
▁akkumula	-10481
inċidenza	-10482
88	-10483
Ni	-10484
▁ħakk	-10485
▁naqs	-10486
▁Oħrajn	-10487
jes	-10488
▁setgħat	-10489
▁03	-10490
IAS	-10491
▁jimpedi	-10492
affida	-10493
▁iwasslu	-10494
Co	-10495
cle	-10496
oton	-10497
▁tistipula	-10498
plan	-10499
nien	-10500
▁naqsu	-10501
▁tinqa	-10502
Finanzi	-10503
▁tiġbor	-10504
▁attraenti	-10505
kaġuna	-10506
iffrankar	-10507
vaskulari	-10508
▁Hekk	-10509
▁jtejjeb	-10510
ycin	-10511
▁Mil	-10512
▁Ġenera	-10513
ttar	-10514
Mejju	-10515
inati	-10516
▁rapidu	-10517
▁inkorporata	-10518
▁kumula	-10519
▁toq	-10520
▁mnejn	-10521
▁rilaxx	-10522
▁Diversi	-10523
▁ffirmat	-10524
▁sottomessi	-10525
ros	-10526
jonat	-10527
-2009,	-10528
▁waħed	-10529
▁jammontaw	-10530
▁sostitwiti	-10531
istadji	-10532
eviżjoni	-10533
ditti	-10534
orjen	-10535
▁inkom	-10536
▁viżibbli	-10537
rieżami	-10538
▁aktarx	-10539
▁tħeġġeġ	-10540
ċera	-10541
▁Kwadru	-10542
▁bonds	-10543
/2006,	-10544
▁infettati	-10545
kess	-10546
saqajn	-10547
▁għaddew	-10548
▁[2].	-10549
ultati	-10550
Sħubija	-10551
konfront	-10552
pji	-10553
ader	-10554
poetin	-10555
imposti	-10556
▁96	-10557
plani	-10558
▁tqies	-10559
Proposta	-10560
zzjonalment	-10561
lub	-10562
▁prodotta	-10563
(7)	-10564
fidenzjalità	-10565
▁diskussjoni	-10566
▁Trans	-10567
kuntrarju	-10568
▁Tul	-10569
PT	-10570
.2.1	-10571
emma	-10572
NC	-10573
cer	-10574
▁Aqra	-10575
▁Żomm	-10576
▁karbu	-10577
sen	-10578
▁Dinjija	-10579
▁Ġestjoni	-10580
▁baġitarju	-10581
▁Valur	-10582
-[	-10583
▁preventi	-10584
%).	-10585
konsenja	-10586
▁aġġustamenti	-10587
▁iġġ	-10588
▁Polla	-10589
▁jibagħtu	-10590
tilwim	-10591
żvilupp	-10592
issijiet	-10593
▁regolat	-10594
oru	-10595
▁impost	-10596
tranżizzjoni	-10597
zon	-10598
▁tlett	-10599
▁naqset	-10600
▁qosra	-10601
▁(10	-10602
▁kritika	-10603
▁magħżul	-10604
Konfederazzjoni	-10605
▁organizzat	-10606
grammazzjoni	-10607
▁tawtorizza	-10608
adegwatezza	-10609
It	-10610
▁AS	-10611
metti	-10612
▁MILL	-10613
▁għeluq	-10614
▁Sostenibbli	-10615
sad	-10616
▁fuljett	-10617
cial	-10618
Iran	-10619
▁naħat	-10620
wid	-10621
JALI	-10622
Prem	-10623
ttata	-10624
/2013.	-10625
element	-10626
▁jiġbor	-10627
leb	-10628
▁sek	-10629
▁għaddi	-10630
avveniment	-10631
▁Sorveljanza	-10632
kos	-10633
▁għid	-10634
likkja	-10635
roaming	-10636
▁Logħob	-10637
lokazzjoni	-10638
▁fadal	-10639
▁jammonta	-10640
pitalizzazzjoni	-10641
▁IF	-10642
deheb	-10643
xxiet	-10644
▁jikkwali	-10645
▁81	-10646
.11.200	-10647
onġi	-10648
tarf	-10649
▁megħ	-10650
▁Insu	-10651
▁arja	-10652
▁tiftaħ	-10653
tifel	-10654
▁Pakkett	-10655
hydrate	-10656
▁nnifisha	-10657
-00	-10658
▁leġiżlattiv	-10659
burgu	-10660
renza	-10661
▁bniedem	-10662
lanzapine	-10663
uts	-10664
lind	-10665
▁jikkump	-10666
▁aċċettat	-10667
▁msejħa	-10668
Użu	-10669
dutturi	-10670
▁parametri	-10671
▁tikkonferma	-10672
▁definizzjoni	-10673
mogħ	-10674
▁tħaddem	-10675
ssimazzjoni	-10676
aġġustamenti	-10677
żost	-10678
▁tenfasizza	-10679
▁maniġerjali	-10680
zna	-10681
▁Kump	-10682
▁evid	-10683
▁vjol	-10684
▁Ġabra	-10685
sussidji	-10686
soluzzjonijiet	-10687
tex	-10688
lands	-10689
▁ħomor	-10690
parat	-10691
▁Prezz	-10692
labar	-10693
▁dijarea	-10694
essibilità	-10695
ttuna	-10696
xxiplina	-10697
lle	-10698
ġinerija	-10699
▁1998	-10700
▁Franċiża	-10701
▁Tw	-10702
▁stadji	-10703
ksib	-10704
▁spjegazzjoni	-10705
4).	-10706
ganċ	-10707
▁għaddejja	-10708
odja	-10709
▁bħat	-10710
▁ġġib	-10711
▁Xjenti	-10712
▁popolazzjoni	-10713
▁Magħquda	-10714
bbilità	-10715
▁kompluta	-10716
salvagward	-10717
parir	-10718
▁magħluq	-10719
▁tariffarji	-10720
luri	-10721
▁konsumaturi	-10722
GET	-10723
▁tasal	-10724
alib	-10725
▁tikkorrispondi	-10726
▁jinħarġu	-10727
▁[10	-10728
mexxu	-10729
xenarju	-10730
fibri	-10731
firien	-10732
inċenti	-10733
rejkijiet	-10734
▁Sh	-10735
▁Dem	-10736
ħwejjeġ	-10737
iffissar	-10738
▁kkontes	-10739
egżost	-10740
possibilità	-10741
diskussjonijiet	-10742
ream	-10743
▁tro	-10744
niedi	-10745
orbju	-10746
▁jadatta	-10747
ħad	-10748
0,000	-10749
ARRA	-10750
▁ppa	-10751
etra	-10752
▁żgur	-10753
▁aġġustat	-10754
akkomodazzjoni	-10755
▁Sto	-10756
▁reb	-10757
Iżvezja	-10758
ffaċċja	-10759
▁fatali	-10760
POR	-10761
▁tes	-10762
▁ssegwi	-10763
kredituri	-10764
HU	-10765
▁kombinazzjoni	-10766
ACE	-10767
ipo	-10768
tani	-10769
mino	-10770
tija	-10771
gro	-10772
▁istudju	-10773
empjenza	-10774
▁istruzzjonijiet	-10775
bliet	-10776
▁ippreżentata	-10777
teġi	-10778
▁sas	-10779
odji	-10780
▁Aġġusta	-10781
Amministra	-10782
▁Obbli	-10783
intermed	-10784
▁tipprepara	-10785
▁trasferimenti	-10786
▁Me	-10787
ritt	-10788
79	-10789
▁impjegat	-10790
▁line	-10791
wisa	-10792
korsijiet	-10793
▁tħares	-10794
▁Wi	-10795
onaturi	-10796
▁82	-10797
diku	-10798
olenza	-10799
Moldova	-10800
Iżvizzera	-10801
▁jiddisku	-10802
▁pluriennali	-10803
polazzjonijiet	-10804
eżija	-10805
▁sejrin	-10806
okkażjoni	-10807
peċifikaw	-10808
diffikultà	-10809
ibbrejkjar	-10810
▁provdut	-10811
cus	-10812
ril	-10813
▁nutri	-10814
evolment	-10815
viġilanza	-10816
▁sensiela	-10817
aboratorju	-10818
Faċilità	-10819
▁imħallas	-10820
libertajiet	-10821
▁jirrikjedi	-10822
▁Dani	-10823
▁mkejla	-10824
▁iġġusti	-10825
▁(7)	-10826
▁ġġusti	-10827
ISA	-10828
drome	-10829
▁ostakli	-10830
ction	-10831
Serbja	-10832
mivudine	-10833
09	-10834
llun	-10835
▁agħ	-10836
▁uffi	-10837
intensità	-10838
dlu	-10839
seba	-10840
klutaġġ	-10841
▁għajnejn	-10842
▁jimponu	-10843
ITI	-10844
ġġier	-10845
▁ċikli	-10846
▁murija	-10847
▁Stabbiltà	-10848
▁(20	-10849
▁mewt	-10850
eċċedi	-10851
▁karatteri	-10852
▁passiġġieri	-10853
zzament	-10854
▁ms	-10855
bali	-10856
▁kkomuni	-10857
▁ins	-10858
cti	-10859
ompi	-10860
▁jispeċifikaw	-10861
▁Bħalissa	-10862
▁tivverifika	-10863
▁Tem	-10864
▁Tmexxija	-10865
fon	-10866
▁vjaġġ	-10867
reġjonali	-10868
ilja	-10869
ezzjon	-10870
primjum	-10871
▁Indirizz	-10872
kin	-10873
anno	-10874
input	-10875
Deċiżjonijiet	-10876
silli	-10877
Atlantiku	-10878
KK	-10879
▁14,	-10880
Ga	-10881
ħuq	-10882
▁jbatu	-10883
konoxxu	-10884
PAR	-10885
ttomettu	-10886
koe	-10887
▁aħħar	-10888
▁marka	-10889
▁Brussel	-10890
▁tfassal	-10891
broadband	-10892
kolari	-10893
▁timponi	-10894
▁inad	-10895
▁jsost	-10896
isfida	-10897
▁jivvjaġġ	-10898
bilitajiet	-10899
▁4(1)	-10900
▁armonizzat	-10901
Doku	-10902
ewro	-10903
kejlu	-10904
▁Pari	-10905
dipendenza	-10906
▁tatTrattat	-10907
PV	-10908
▁4).	-10909
▁jinġabru	-10910
iffinanzjar	-10911
ĠĠ	-10912
▁11,	-10913
▁tagh	-10914
-2012,	-10915
rilevanza	-10916
qiq	-10917
Titoli	-10918
vvalutaw	-10919
▁mgħaġġla	-10920
▁inkompatibbli	-10921
works	-10922
egovina	-10923
sferixxi	-10924
▁stampati	-10925
▁Integ	-10926
▁sensittivi	-10927
▁maqsuma	-10928
▁vvalutati	-10929
▁allin	-10930
▁Maltin	-10931
ssidu	-10932
▁Għid	-10933
▁pret	-10934
▁XI	-10935
▁con	-10936
Ħamis	-10937
▁ħabb	-10938
muri	-10939
daħħla	-10940
penja	-10941
▁alkoħ	-10942
għas	-10943
lina	-10944
nutri	-10945
▁Identi	-10946
▁farmaċew	-10947
▁kwalifiki	-10948
▁ħxuna	-10949
▁epis	-10950
▁Ester	-10951
▁79	-10952
IFRS	-10953
xemx	-10954
kkademi	-10955
delegati	-10956
sommarju	-10957
▁provduti	-10958
▁taħlitiet	-10959
.30	-10960
.3.201	-10961
anitarji	-10962
▁eżempji	-10963
ippakkjar	-10964
TRI	-10965
nam	-10966
bniet	-10967
▁jidde	-10968
TEN	-10969
▁agrikolu	-10970
▁jinkorpo	-10971
privatezza	-10972
ħas	-10973
▁fluss	-10974
ċillari	-10975
peraturi	-10976
TP	-10977
▁qablu	-10978
mentati	-10979
▁faċilità	-10980
modalitajiet	-10981
vestu	-10982
llu	-10983
ddis	-10984
▁ħol	-10985
pulmun	-10986
▁ikkurati	-10987
erz	-10988
otip	-10989
▁Sar	-10990
▁Novo	-10991
lits	-10992
qerda	-10993
▁Cmax	-10994
infezzjoni	-10995
▁avveniment	-10996
CL	-10997
anji	-10998
▁mibnija	-10999
dim	-11000
likazzjonijiet	-11001
irrum	-11002
uffiċċji	-11003
▁parallel	-11004
▁sostanzjalment	-11005
▁kol	-11006
▁Strate	-11007
AO	-11008
tnissil	-11009
▁stmata	-11010
▁Av	-11011
▁2018.	-11012
▁approva	-11013
ominazzjonijiet	-11014
▁Bejn	-11015
▁tinġabar	-11016
▁konverżjoni	-11017
▁tiddefinixxi	-11018
ċjat	-11019
▁Pra	-11020
lex	-11021
ħeġġa	-11022
ultura	-11023
▁71	-11024
▁jser	-11025
solidarjetà	-11026
jegaw	-11027
▁tagħżel	-11028
are	-11029
/1/0	-11030
kolli	-11031
arranġament	-11032
▁jien	-11033
▁Liema	-11034
▁lilek	-11035
▁intraprendi	-11036
▁Stras	-11037
▁Sommarju	-11038
▁tranżitu	-11039
▁distinzjoni	-11040
jde	-11041
qarr	-11042
▁verament	-11043
▁Fornituri	-11044
aġġornament	-11045
▁interessata	-11046
erati	-11047
▁soda	-11048
anċella	-11049
▁allega	-11050
għandekx	-11051
▁żdiedet	-11052
▁injezzjonijiet	-11053
ode	-11054
▁ħjut	-11055
▁fiżiku	-11056
mentatur	-11057
▁demokrati	-11058
riżdizzjoni	-11059
IG	-11060
ork	-11061
▁nagħmlu	-11062
▁struzzjonijiet	-11063
▁ww	-11064
▁jinħall	-11065
2:	-11066
koraġġixxu	-11067
PM	-11068
tema	-11069
tagon	-11070
▁[3].	-11071
▁taxxi	-11072
▁joqgħod	-11073
(4),	-11074
reat	-11075
glish	-11076
▁jeżerċita	-11077
▁tħejji	-11078
▁avvanzati	-11079
FS	-11080
orur	-11081
▁imħallsa	-11082
ibħra	-11083
partiti	-11084
▁sussidjarja	-11085
▁proporzjonati	-11086
eneg	-11087
▁RES	-11088
▁jiem	-11089
▁delega	-11090
Lulju	-11091
ments	-11092
▁urban	-11093
idroġenu	-11094
▁elenkat	-11095
▁standardi	-11096
▁rċi	-11097
ċentrali	-11098
▁05	-11099
▁attent	-11100
▁Għaliex	-11101
▁iżżomm	-11102
organiżmi	-11103
kluda	-11104
rapportat	-11105
▁organika	-11106
kotba	-11107
bbozzi	-11108
ellita	-11109
▁iħall	-11110
▁sfida	-11111
▁1999/46	-11112
simplifikazzjoni	-11113
▁103	-11114
▁uħud	-11115
add	-11116
▁pr	-11117
ispettru	-11118
▁anċillari	-11119
trasportatur	-11120
▁sistematiku	-11121
▁tirrispetta	-11122
▁pubblikament	-11123
▁jissottomettu	-11124
lemin	-11125
▁massa	-11126
▁appoġġjati	-11127
04	-11128
iv	-11129
▁AR	-11130
▁paċi	-11131
▁jikbru	-11132
▁waslet	-11133
▁veloċità	-11134
lizzazzjoni	-11135
għalliema	-11136
▁kors	-11137
stitwita	-11138
▁Parlamentari	-11139
ect	-11140
-2007,	-11141
-2020.	-11142
NO	-11143
▁nnifsu	-11144
bis	-11145
.4.200	-11146
▁jinqab	-11147
▁paġna	-11148
▁2016/1	-11149
Taħ	-11150
▁viż	-11151
▁injam	-11152
vjolenza	-11153
▁Tim	-11154
▁sapport	-11155
▁iP	-11156
kluża	-11157
▁terrori	-11158
lott	-11159
▁Globali	-11160
▁dijabete	-11161
▁tilqim	-11162
▁jfittxu	-11163
▁persistenti	-11164
▁Konsultattiv	-11165
▁04	-11166
▁ġe	-11167
▁Para	-11168
ilastru	-11169
▁analizzati	-11170
sto	-11171
ċentement	-11172
riħ	-11173
sovo	-11174
▁karozzi	-11175
▁objettivi	-11176
tolleranza	-11177
konsegwenza	-11178
omiċilju	-11179
▁ċellulari	-11180
▁PR	-11181
ummit	-11182
modalità	-11183
▁kkoordina	-11184
86	-11185
▁Mon	-11186
▁jiggarantixxu	-11187
▁tinjetta	-11188
▁obbligati	-11189
sostituzzjoni	-11190
▁klaw	-11191
inless	-11192
▁jinter	-11193
qaj	-11194
▁ddefiniti	-11195
▁iddefinit	-11196
▁dokumentazzjoni	-11197
-2011,	-11198
▁profi	-11199
Agrikoltura	-11200
separazzjoni	-11201
▁essenzjalment	-11202
tapp	-11203
▁popolari	-11204
▁emerġenti	-11205
eżja	-11206
fiċje	-11207
▁storja	-11208
▁żero	-11209
▁PAKKETT	-11210
sessjoni	-11211
kombustjoni	-11212
▁riferiment	-11213
▁vidjo	-11214
tweġibiet	-11215
▁każi	-11216
ġudika	-11217
NS	-11218
pun	-11219
▁Je	-11220
redd	-11221
▁netta	-11222
Annimali	-11223
depożiti	-11224
karozza	-11225
distribu	-11226
▁vijabbli	-11227
▁[5]	-11228
▁gly	-11229
ċessjonijiet	-11230
▁English	-11231
-2003	-11232
loġika	-11233
▁infurza	-11234
▁espliċitu	-11235
laqq	-11236
▁waqfien	-11237
36/	-11238
fermaw	-11239
▁tħall	-11240
▁jiskadi	-11241
▁aġenzija	-11242
▁transfruntiera	-11243
cor	-11244
▁żie	-11245
istaġun	-11246
Direttorat	-11247
▁aġġornament	-11248
----	-11249
▁ekonomikament	-11250
▁Uġigħ	-11251
▁spiża	-11252
żo	-11253
ket	-11254
▁awrina	-11255
estrazzjoni	-11256
▁irġiel	-11257
Mediċini	-11258
orandum	-11259
definixxu	-11260
▁Term	-11261
kampanja	-11262
salvataġġ	-11263
▁rreġistrat	-11264
▁interazzjoni	-11265
nol	-11266
▁espressa	-11267
bitat	-11268
ture	-11269
wirt	-11270
ediet	-11271
▁prassi	-11272
▁ritorn	-11273
bt	-11274
unzjoni	-11275
▁DE	-11276
▁tinnotifika	-11277
▁deher	-11278
istonku	-11279
▁adolexxenti	-11280
▁3:	-11281
▁Au	-11282
tassju	-11283
argument	-11284
▁ħtiġijiet	-11285
MD	-11286
▁benefiċjarju	-11287
lava	-11288
▁garantiti	-11289
qui	-11290
emmew	-11291
▁jivvalutaw	-11292
virenz	-11293
▁tifel	-11294
▁domanda	-11295
Inizjattiva	-11296
▁ċertezza	-11297
▁endo	-11298
▁2004,	-11299
dijametru	-11300
kiv	-11301
▁intitolati	-11302
rael	-11303
provvediment	-11304
roli	-11305
ditta	-11306
▁ċentru	-11307
profitti	-11308
Settembru	-11309
favirenz	-11310
▁aġent	-11311
▁steri	-11312
Pre	-11313
dożaġġ	-11314
▁Blu	-11315
▁aċċettata	-11316
fużjonijiet	-11317
▁num	-11318
Brażil	-11319
▁kost	-11320
▁tinħoloq	-11321
▁Pol	-11322
▁konċentrat	-11323
▁suxxetti	-11324
WTORIZZAZZJONI	-11325
wawar	-11326
▁76	-11327
▁ċċerti	-11328
▁assigurat	-11329
(1).	-11330
▁TAT	-11331
versa	-11332
▁Group	-11333
▁kwantità	-11334
▁jivverifikaw	-11335
BS	-11336
djun	-11337
bass	-11338
indirizzar	-11339
▁jimmonitorja	-11340
▁And	-11341
sisa	-11342
▁jingħa	-11343
▁tirrikonoxxi	-11344
▁ristrett	-11345
▁jipprevedu	-11346
għer	-11347
▁dibattitu	-11348
▁86	-11349
oloz	-11350
▁umanitarja	-11351
ċinali	-11352
esklużi	-11353
▁titneħħa	-11354
inth	-11355
▁Bażi	-11356
rovirali	-11357
but	-11358
kożju	-11359
▁waslu	-11360
▁Sti	-11361
▁frodi	-11362
UT	-11363
Isp	-11364
ette	-11365
Tkabbir	-11366
RSUE	-11367
▁140	-11368
▁Ho	-11369
▁Char	-11370
lines	-11371
▁wasal	-11372
Ġestjoni	-11373
▁2).	-11374
kontra	-11375
tendenza	-11376
▁tirrikjedi	-11377
diżabbiltà	-11378
ternattivi	-11379
▁6.1	-11380
▁indirett	-11381
-2010.	-11382
▁eżentati	-11383
intestaturi	-11384
▁maġġoranza	-11385
hite	-11386
.”.	-11387
mier	-11388
wati	-11389
▁Winth	-11390
▁mifruxa	-11391
▁jitħassar	-11392
▁(*	-11393
estiċidi	-11394
lil	-11395
Appro	-11396
▁vina	-11397
tessut	-11398
xiex	-11399
▁jaraw	-11400
▁Popolari	-11401
▁konsulenza	-11402
ING	-11403
▁97	-11404
▁MED	-11405
embla	-11406
hol	-11407
▁nir	-11408
▁talĠustizzja	-11409
/2012,	-11410
▁missjoni	-11411
▁irrapportati	-11412
tweġiba	-11413
▁taħseb	-11414
6-	-11415
ranet	-11416
▁hoc	-11417
▁Stabbili	-11418
oderni	-11419
CSD	-11420
▁AG	-11421
▁tibni	-11422
Awtoritajiet	-11423
")	-11424
▁2-	-11425
eżitu	-11426
▁temporanjament	-11427
▁ċm	-11428
▁oġġettivi	-11429
intestinali	-11430
▁Direttur	-11431
▁tqiegħed	-11432
ddiesa	-11433
ċeduri	-11434
▁misju	-11435
▁medjan	-11436
magħtejn	-11437
ert	-11438
▁tubi	-11439
▁fluwi	-11440
▁validu	-11441
▁EWROPEW	-11442
PIR	-11443
▁Ci	-11444
thom	-11445
tonn	-11446
▁3).	-11447
kupra	-11448
▁miftiehem	-11449
wdex	-11450
ferali	-11451
▁extra	-11452
▁serum	-11453
.8	-11454
vigation	-11455
▁reġistrati	-11456
▁każwali	-11457
▁Depożi	-11458
▁jirrapporta	-11459
xejriet	-11460
▁istudji	-11461
▁kwalifikata	-11462
idea	-11463
▁bħas	-11464
▁Maltija	-11465
▁kumplessa	-11466
▁Sustanzi	-11467
▁cy	-11468
għaw	-11469
tindif	-11470
▁ħafifa	-11471
▁segwenti	-11472
▁Kummissjoni	-11473
▁jikkontrolla	-11474
għab	-11475
▁sproporzjon	-11476
▁Ku	-11477
▁3201	-11478
kunfidenzjalità	-11479
tinib	-11480
▁intuża	-11481
▁appoġġati	-11482
▁koperazzjoni	-11483
flotta	-11484
ekwiżit	-11485
▁Indika	-11486
kontrollaw	-11487
▁90/	-11488
▁Fol	-11489
għotjiet	-11490
▁Winthrop	-11491
ġew	-11492
PGD	-11493
farmakokine	-11494
cam	-11495
enafil	-11496
tid	-11497
togħ	-11498
▁MEM	-11499
dromu	-11500
omassa	-11501
fermata	-11502
anal	-11503
▁rti	-11504
▁2018,	-11505
Baġit	-11506
▁disa	-11507
dwie	-11508
fajls	-11509
▁jimmi	-11510
▁metru	-11511
▁0,5	-11512
razza	-11513
▁Neħħi	-11514
▁tittra	-11515
odoloġiji	-11516
ofovir	-11517
▁unani	-11518
mandant	-11519
nixxija	-11520
▁leġittimi	-11521
▁ipprovduta	-11522
▁tintroduċi	-11523
▁1.6	-11524
▁awtentiċi	-11525
stal	-11526
▁sabet	-11527
▁iħallas	-11528
żerriegħa	-11529
▁(+	-11530
lorot	-11531
Assoċjazzjoni	-11532
▁Uża	-11533
/2009.	-11534
▁rendi	-11535
Id	-11536
▁żjut	-11537
▁ħarġet	-11538
ejra	-11539
nibi	-11540
kompitu	-11541
▁kostali	-11542
▁kW	-11543
▁ġeneri	-11544
▁żbalji	-11545
soċ	-11546
negoz	-11547
▁okku	-11548
▁sospi	-11549
ementari	-11550
▁Mediċinali	-11551
dieni	-11552
▁issu	-11553
ublic	-11554
▁ċerta	-11555
Dan	-11556
▁101	-11557
Jannar	-11558
▁periferali	-11559
annimal	-11560
▁niex	-11561
zzatur	-11562
▁paġni	-11563
vultaġġ	-11564
▁ikkunsidrat	-11565
waba	-11566
▁2020.	-11567
.10.200	-11568
▁jgawdu	-11569
▁jħallsu	-11570
▁tossiċi	-11571
ħet	-11572
base	-11573
▁tab	-11574
▁www	-11575
▁xorb	-11576
Kosovo	-11577
▁ikkontrollati	-11578
▁diskussi	-11579
limitazzjonijiet	-11580
gawdi	-11581
Asja	-11582
sjieda	-11583
▁malli	-11584
istorbju	-11585
ferroviji	-11586
rifju	-11587
▁Central	-11588
▁klijent	-11589
▁mixtieq	-11590
Pja	-11591
pid	-11592
▁alternattiv	-11593
▁HS	-11594
▁Lin	-11595
didat	-11596
untiera	-11597
▁jispjega	-11598
każi	-11599
eħdet	-11600
▁mentali	-11601
83/	-11602
▁Fu	-11603
▁qab	-11604
▁investituri	-11605
ħux	-11606
huwiex	-11607
▁Kompet	-11608
▁105	-11609
▁jaqdu	-11610
estrija	-11611
▁pl	-11612
naw	-11613
▁Ben	-11614
▁volontarju	-11615
ċċaw	-11616
▁inkon	-11617
▁approċċi	-11618
▁leġislattiva	-11619
gel	-11620
▁Paw	-11621
lenti	-11622
xewqa	-11623
▁anness	-11624
mab	-11625
roż	-11626
▁BARRA	-11627
FORM	-11628
▁Tan	-11629
aġent	-11630
xellug	-11631
▁ġustifikati	-11632
▁Ġu	-11633
▁ana	-11634
▁	-11635
i	-11636
a	-11637
t	-11638
l	-11639
e	-11640
n	-11641
r	-11642
o	-11643
u	-11644
-	-11645
j	-11646
s	-11647
m	-11648
k	-11649
d	-11650
p	-11651
z	-11652
ħ	-11653
f	-11654
b	-11655
g	-11656
w	-11657
,	-11658
ż	-11659
ġ	-11660
.	-11661
v	-11662
ċ	-11663
h	-11664
’	-11665
q	-11666
x	-11667
I	-11668
0	-11669
'	-11670
1	-11671
2	-11672
E	-11673
A	-11674
K	-11675
)	-11676
(	-11677
S	-11678
M	-11679
R	-11680
L	-11681
U	-11682
P	-11683
D	-11684
T	-11685
3	-11686
à	-11687
/	-11688
F	-11689
4	-11690
5	-11691
N	-11692
9	-11693
B	-11694
6	-11695
c	-11696
8	-11697
7	-11698
C	-11699
G	-11700
:	-11701
;	-11702
O	-11703
J	-11704
Ġ	-11705
V	-11706
H	-11707
y	-11708
”	-11709
%	-11710
“	-11711
W	-11712
Ċ	-11713
]	-11714
[	-11715
"	-11716
Q	-11717
X	-11718
Z	-11719
Ħ	-11720
»	-11721
Ż	-11722
–	-11723
&	-11724
?	-11725
‘	-11726
—	-11727
‐	-11728
Y	-11729
+	-11730
=	-11731
•	-11732
°	-11733
*	-11734
_	-11735
é	-11736
¢	-11737
€	-11738
!	-11739
«	-11740
