<unk>	0
<s>	0
</s>	0
▁	-3.42954
ን	-3.53567
ም	-3.7229
▁፡	-3.72626
,	-4.25235
.	-4.32289
▁የ	-4.43246
ት	-4.53981
▁በ	-4.56865
ና	-4.70907
▁እና	-4.88796
▁(	-4.91838
ው	-5.01972
ስ	-5.05364
ል	-5.08127
▁ላይ	-5.11616
።	-5.11696
▁ነው	-5.23171
▁ከ	-5.26833
:	-5.29142
▁አ	-5.36996
ር	-5.39483
▁)	-5.41212
-	-5.48239
፥	-5.48781
▁ውስጥ	-5.51815
▁ወደ	-5.54824
;	-5.6403
▁ለ	-5.66031
፤	-5.68385
ድ	-5.74657
)	-5.75029
ዎች	-5.76512
▁መ	-5.79538
ህ	-5.81594
▁ይ	-5.82687
ብ	-5.85581
▁ሁሉ	-5.89221
▁ጊዜ	-5.90919
▁የሚ	-5.91956
ራ	-5.92316
▁ጋር	-5.99611
ታ	-6.03278
ግ	-6.03732
በ	-6.06573
ማ	-6.06912
ክ	-6.07799
ደ	-6.08252
ለ	-6.09223
▁-	-6.10107
s	-6.10164
▁ተ	-6.10617
▁እንደ	-6.11588
ሳ	-6.17185
▁ያ	-6.1883
▁&	-6.1918
▁«	-6.22066
ይ	-6.25062
ዋ	-6.25799
▁ወይም	-6.26573
ያ	-6.27309
ላ	-6.27515
gt	-6.27933
▁ነገር	-6.30046
መ	-6.30654
ቀ	-6.30938
▁አንድ	-6.30961
ሉ	-6.31046
▁/	-6.31097
ቅ	-6.31255
ዳ	-6.31653
የ	-6.32618
ሰ	-6.32738
▁»	-6.33846
▁፣	-6.3636
▁የተ	-6.37131
▁እ	-6.37721
በት	-6.42412
ጥ	-6.43968
▁ግን	-6.44354
ፍ	-6.46668
?	-6.47664
▁ሰው	-6.47836
▁ይህ	-6.48542
ች	-6.48705
ሽ	-6.49882
▁፤	-6.501
ጋ	-6.51522
ረ	-6.53217
ዝ	-6.54508
ባ	-6.56723
"	-6.57942
▁ዘንድ	-6.59718
ተ	-6.60254
▁ማ	-6.61021
፣	-6.63212
ገ	-6.63784
ካ	-6.64222
▁1	-6.65602
ውን	-6.6588
▁አላህ	-6.66042
ቱ	-6.67377
ነ	-6.70473
▁ስለ	-6.72441
ነት	-6.72687
▁ናቸው	-6.73709
/	-6.75013
▁እኔ	-6.77609
▁ቀን	-6.77815
ሪ	-6.78325
▁ሰዎች	-6.79614
ሮ	-6.80634
▁2	-6.83881
▁ነበር	-6.84282
▁"	-6.87708
▁ቤት	-6.88207
ጣ	-6.88305
▁አይ	-6.88948
ከ	-6.92449
▁_	-6.93569
▁በመ	-6.93996
▁በእርግጥ	-6.96478
ኝ	-6.9687
▁3	-6.9753
▁ሊ	-6.97615
ፈ	-6.98427
ቃ	-7.00285
▁እኛ	-7.02511
▁እግዚአብሔር	-7.0303
▁እርሱ	-7.03611
▁ብቻ	-7.0371
lt	-7.05849
ቶ	-7.06757
▁በጣም	-7.08117
▁S	-7.09344
▁አለ	-7.1043
▁ከፍተኛ	-7.10535
!	-7.11361
▁ነው።	-7.11515
3	-7.11764
▁...	-7.12859
ሙ	-7.12965
ቶች	-7.13267
አ	-7.13428
ሱ	-7.13547
D	-7.13885
A	-7.13986
ጠ	-7.16182
ኛ	-7.17349
ኑ	-7.18682
▁ሲ	-7.18708
▁በኋላ	-7.18895
ሩ	-7.19615
ዛ	-7.19731
2	-7.20497
▁4	-7.22432
"&	-7.2321
▁5	-7.23278
▁አል	-7.2386
▁start	-7.2401
▁dur	-7.24021
ሌ	-7.2455
▁ሌላ	-7.24615
▁እናንተ	-7.24785
▁ለመ	-7.2505
ኩ	-7.2543
▁መካከል	-7.25798
ፋ	-7.26252
▁ባ	-7.26888
1	-7.26935
▁እንዲ	-7.27203
ሁ	-7.28735
▁፡፡	-7.29031
▁!	-7.29706
y	-7.29775
▁የአ	-7.29868
ሊ	-7.30687
▁ልጆች	-7.30882
▁የመ	-7.32119
▁C	-7.32398
ቁ	-7.32817
C	-7.32938
▁ደግሞ	-7.33595
ሞ	-7.33744
x	-7.33863
▁በተ	-7.34208
4	-7.3456
▁የሚያ	-7.34939
ላችሁ	-7.35819
ሎ	-7.36019
▁እስከ	-7.36053
ሻ	-7.37067
▁በዚህ	-7.37617
▁አት	-7.37884
▁P	-7.38683
▁ልጅ	-7.39688
ቴ	-7.39708
M	-7.39869
▁መንገድ	-7.40335
ላቸው	-7.40602
n	-7.40638
▁አንተ	-7.41144
▁ያለው	-7.41563
▁ብዙ	-7.41749
▁ታ	-7.42183
▁A	-7.42289
ሲ	-7.4285
er	-7.43295
▁እንዲህ	-7.4381
▁ምንም	-7.44865
m	-7.45191
ዲ	-7.45233
▁ሥራ	-7.45887
▁ያለ	-7.46499
ዘ	-7.46549
i	-7.47948
P	-7.48337
▁ሆይ	-7.48875
B	-7.49089
▁እነርሱ	-7.49236
▁ቃል	-7.49384
▁10	-7.49467
▁በማ	-7.49686
ጭ	-7.50509
▁በሚ	-7.51598
ዩ	-7.51613
▁እን	-7.52534
▁በአ	-7.52832
ኒ	-7.52878
▁በፊት	-7.52932
▁F	-7.53488
▁ይችላሉ	-7.5369
▁ቢ	-7.53973
ቡ	-7.5408
▁M	-7.54931
▁ለማ	-7.54961
ባቸው	-7.56028
F	-7.56071
ዱ	-7.56164
▁T	-7.56318
▁የማ	-7.56366
▁B	-7.56527
o	-7.57024
▁አይደለም	-7.57663
▁እነዚያ	-7.578
▁ድረስ	-7.58006
▁6	-7.58716
ወ	-7.59387
▁ስለዚህ	-7.59711
T	-7.59961
ጅ	-7.60283
ሜ	-7.60307
▁አዲስ	-7.6055
▁እንዴት	-7.60775
▁ደረጃ	-7.61164
ኔ	-7.61205
ሚ	-7.61487
ቢ	-7.6167
ጉ	-7.61703
▁ቻይና	-7.61821
S	-7.61822
ጫ	-7.62313
ቆ	-7.62997
▁ከዚያም	-7.63017
ዎ	-7.63601
▁G	-7.63712
▁መጠን	-7.6382
V	-7.64335
▁ጌታ	-7.64558
e	-7.64596
ing	-7.64836
▁አላህም	-7.65636
L	-7.65717
ዊ	-7.65933
ኖ	-7.65953
▁ዋጋ	-7.65981
▁ካ	-7.66369
5	-7.67028
ኮ	-7.673
▁19	-7.67649
ቸው	-7.68438
▁ይችላል	-7.6857
com	-7.68913
▁?	-7.68988
ጎ	-7.69131
▁እርሱም	-7.69169
c	-7.69293
ጽ	-7.70625
▁D	-7.70675
H	-7.70766
ዶ	-7.71004
▁ሁለት	-7.71476
▁ዓመት	-7.71581
▁8	-7.717
▁ሌሎች	-7.71937
in	-7.71967
▁E	-7.72004
▁አሉ	-7.72582
▁7	-7.73103
u	-7.73785
ሬ	-7.74769
▁አሁን	-7.75395
G	-7.75488
d	-7.756
▁ኃይል	-7.75634
ቲ	-7.75813
▁ሰ	-7.76201
t	-7.76368
▁R	-7.76531
ሴ	-7.77026
al	-7.77455
amp	-7.78323
▁–	-7.7853
r	-7.78671
ሮች	-7.79288
▁ስም	-7.79619
▁ኢ	-7.79643
▁H	-7.79805
▁ያለውን	-7.79954
▁እንጂ	-7.80079
▁በእርሱ	-7.80505
▁$	-7.80539
ሸ	-7.81104
ኤ	-7.81217
▁ዓለም	-7.81597
▁ይህን	-7.81743
▁ተጨማሪ	-7.82004
▁ምርቶች	-7.82168
mm	-7.82275
፡፡	-7.82606
7	-7.83072
an	-7.83139
ጡ	-7.83523
="	-7.83618
ed	-7.83722
ዓ	-7.8433
ሃ	-7.84391
ፕ	-7.84614
▁ፊት	-7.84742
▁የምት	-7.84872
▁ማን	-7.84945
▁አስ	-7.85218
ለት	-7.85296
ፊ	-7.85342
ዮ	-7.85359
a	-7.85692
▁በላይ	-7.86347
እ	-7.86559
ኪ	-7.86564
R	-7.86642
▁ከመ	-7.88184
p	-7.88585
▁እነዚህ	-7.88946
ዕ	-7.89101
K	-7.89395
ነው	-7.89652
ዎቹ	-7.89774
▁ባለ	-7.89882
ተው	-7.90339
መጣ	-7.90424
ሕ	-7.90462
በር	-7.90801
8	-7.91715
▁የማይ	-7.92499
W	-7.92623
▁+	-7.92665
▁ይሆናል	-7.92697
▁20	-7.92784
f	-7.92836
ቦ	-7.93305
▁መልካም	-7.93424
”	-7.93826
E	-7.94017
▁ከተማ	-7.94454
_	-7.94606
g	-7.9502
▁ማሽን	-7.95069
10	-7.95102
l	-7.95181
▁ይህም	-7.95425
▁አምላክ	-7.95444
▁ከተ	-7.96444
6	-7.96651
▁ከአ	-7.96669
ፉ	-7.96815
▁N	-7.96882
▁እንዲሁም	-7.96883
▁ክፍል	-7.97444
▁የሆነ	-7.97457
▁ሁኔታ	-7.9783
▁ዘ	-7.97904
▁ዩኒቨርሲቲ	-7.98599
▁እየ	-7.98676
▁እንደሚ	-7.98896
ለው	-7.99013
▁“	-7.99105
N	-7.99244
▁መረጃ	-7.99338
▁12	-7.99618
ቤ	-8.0016
▁ቅጣት	-8.00275
I	-8.00443
%	-8.00474
ጸ	-8.00591
h	-8.00602
ጨ	-8.0087
ሪያ	-8.01131
ገባ	-8.01161
▁እነርሱም	-8.02242
▁9	-8.02266
▁L	-8.02464
▁አላቸው	-8.02633
en	-8.03044
k	-8.03539
▁ከሆነ	-8.03779
ችሁ	-8.03856
▁Co	-8.04064
▁ምድር	-8.04131
...	-8.04296
▁ብሎ	-8.0494
ባት	-8.04975
▁ትምህርት	-8.05069
▁•	-8.05218
et	-8.05365
ሀ	-8.06607
▁ነበር።	-8.06907
or	-8.07027
▁አላ	-8.07333
▁በላቸው	-8.08154
▁'	-8.08416
ar	-8.08453
▁ማለት	-8.08501
▁አለው	-8.08638
▁ሕዝቦች	-8.0966
ሶ	-8.09742
w	-8.10096
▁ጥሩ	-8.10161
▁ከእርሱ	-8.10429
▁ምክንያት	-8.10627
ቻ	-8.10997
▁2018	-8.11127
▁ቦታ	-8.11405
ኖች	-8.11831
▁ጥራት	-8.12039
ተር	-8.1206
▁አገልግሎት	-8.12349
▁ፋብሪካ	-8.12439
20	-8.12543
b	-8.12935
ሥ	-8.13178
▁ሞ	-8.13206
'	-8.14045
ወጣ	-8.14228
▁ሙሉ	-8.1447
le	-8.14806
ሆን	-8.15046
st	-8.15343
▁ልዩ	-8.16426
▁ገጽ	-8.16507
ጻ	-8.16533
▁ዓ	-8.16614
ዬ	-8.17389
X	-8.17587
▁ነኝ	-8.17636
50	-8.17826
9	-8.18174
▁ዋና	-8.18422
▁ኤ	-8.18572
ሐ	-8.18665
ቂ	-8.18698
▁V	-8.18762
▁ለእናንተ	-8.18799
▁ነጻ	-8.1924
ጃ	-8.19477
▁ታላቅ	-8.1979
▁ወ	-8.19899
O	-8.1994
▁ከሚ	-8.20001
ፈራ	-8.20083
ጂ	-8.20389
▁በምድር	-8.20906
▁በዚያ	-8.21066
ታቸው	-8.21114
▁ለሚ	-8.21134
z	-8.21367
ታል	-8.21376
▁ቁጥር	-8.21468
ናቸው	-8.21864
▁ዛሬ	-8.21924
U	-8.21991
▁ናት	-8.22116
▁ገንዘብ	-8.22314
▁አገር	-8.22373
▁ማድረግ	-8.22392
▁15	-8.22635
ሎች	-8.22768
▁ጀምሮ	-8.23147
▁ሆነ	-8.23195
Y	-8.23824
▁ብረት	-8.24059
▁ለማግኘት	-8.24844
▁በአላህ	-8.24928
▁K	-8.25111
▁ምርጥ	-8.25198
▁ሊያ	-8.25233
ሰማ	-8.26121
▁ሆይ፥	-8.26243
▁አቀፍ	-8.26991
▁አንዱ	-8.27167
▁ሴቶች	-8.27402
▁ኦ	-8.27792
▁መጽሐፍ	-8.27905
ዴ	-8.27948
ተኛ	-8.28106
▁አያ	-8.28154
▁18	-8.28639
ቪ	-8.28846
▁ንጉሥ	-8.2937
ክስ	-8.29521
▁ብት	-8.29639
▁2019	-8.29718
▁ሆኖ	-8.29902
ol	-8.29969
▁እጅግ	-8.30223
▁J	-8.30348
▁እዚህ	-8.3079
▁11	-8.30961
▁2017	-8.30964
▁ከዚህ	-8.31491
re	-8.3172
▁ነ	-8.31785
ችን	-8.32141
▁በኩል	-8.32468
it	-8.32983
▁W	-8.33195
30	-8.33225
▁በእ	-8.33237
▁ዐዋቂ	-8.33599
ቱን	-8.33683
ቢያ	-8.33689
▁ጥ	-8.34023
▁የእ	-8.34104
es	-8.34266
on	-8.34785
ch	-8.35413
▁አሳ	-8.35751
▁የተለያዩ	-8.36294
፦	-8.36749
at	-8.37693
ቋ	-8.37946
▁*	-8.38112
▁ሕዝብ	-8.38494
▁እኔም	-8.38731
v	-8.39369
▁30	-8.39459
▁ከአላህ	-8.39471
▁ማስ	-8.39499
ዎን	-8.39593
መር	-8.39914
ውያን	-8.4006
▁ሕይወት	-8.40077
ፒ	-8.40111
▁የለም	-8.40215
▁እጅ	-8.40688
el	-8.40748
▁X	-8.41172
▁እነዚያም	-8.41632
ro	-8.41737
▁ይላሉ	-8.41976
▁ኖሮ	-8.42024
▁እርስዎ	-8.42157
▁ምርት	-8.42302
▁16	-8.42353
▁ያስ	-8.42369
▁የንግድ	-8.42371
ኞች	-8.42543
▁ወር	-8.42718
▁ዓይነት	-8.42771
▁በእናንተ	-8.42864
ዋል	-8.42881
▁ጠ	-8.42883
ሰብ	-8.42932
▁ይላል	-8.43057
01	-8.43063
ቸ	-8.43112
00	-8.43575
▁መለያ	-8.43581
▁ከፍ	-8.43751
▁ስፍራ	-8.43777
ደር	-8.44018
ዶች	-8.44036
▁አቅራቢዎች	-8.44229
▁እንጅ	-8.44298
▁£	-8.44339
▁መብት	-8.44357
▁ጥቅም	-8.44483
▁መሆን	-8.4452
ጀ	-8.44984
19	-8.45539
▁ክፍሎች	-8.45642
▁13	-8.45743
ጌ	-8.46031
ic	-8.46301
▁መሆኑን	-8.46308
▁ማንኛውም	-8.46506
ላት	-8.46867
12	-8.46973
ሣ	-8.47093
▁ሳይ	-8.47258
▁ቡድን	-8.47435
us	-8.47465
▁ቀላል	-8.47484
▁በእግዚአብሔር	-8.47564
▁24	-8.47638
ጦ	-8.47701
▁እነሱ	-8.47701
▁አምራቾች	-8.47735
▁ሲሆን	-8.47939
ዙ	-8.4812
60	-8.48234
ዜ	-8.48472
▁ዶላር	-8.49041
▁እንዳ	-8.49167
▁ዓመታት	-8.49813
▁ከእናንተ	-8.50244
▁ያሉ	-8.50323
▁14	-8.50781
▁መኖሪያ	-8.51462
▁እያ	-8.51591
ፈር	-8.51885
ረዳ	-8.51932
▁ኾነው	-8.52205
ፌ	-8.52269
▁ግልጽ	-8.52347
000	-8.5235
am	-8.52738
▁U	-8.53044
▁ጣቢያ	-8.53624
▁ቴክኖሎጂ	-8.53794
ፅ	-8.5385
ገኙ	-8.53871
ሠራ	-8.53975
▁ኮ	-8.53975
▁መሠረት	-8.54253
▁ቤቶች	-8.54864
▁ለእነርሱ	-8.54876
40	-8.55043
▁ሚ	-8.55058
ክል	-8.55342
▁17	-8.55342
ወር	-8.55474
15	-8.55583
▁ተማሪዎች	-8.55644
▁ዝርዝር	-8.5569
▁ዜና	-8.5576
▁ጉዞ	-8.55987
▁በአንድ	-8.56333
▁መስመር	-8.56546
▁ያህል	-8.5672
ኬ	-8.56914
11	-8.57138
▁አለው።	-8.57421
▁አታ	-8.57452
ኖር	-8.57593
ኦ	-8.57621
▁25	-8.57657
▁ለአ	-8.5777
▁ማግኘት	-8.57783
▁ተከታታይ	-8.5783
▁ሐ	-8.5793
▁ድጋፍ	-8.58024
▁ይበልጥ	-8.58121
▁ትልቅ	-8.58166
▁I	-8.58338
ሚያ	-8.58381
▁ነበሩ	-8.58447
ቸዋል	-8.58493
▁አስፈላጊ	-8.58534
ራቸው	-8.58555
▁ለእርሱ	-8.5872
J	-8.59238
▁ነን	-8.59459
▁ያል	-8.59519
▁ብርሃን	-8.59722
25	-8.59823
ገቡ	-8.59828
▁ስልክ	-8.60152
ባል	-8.60232
▁የእርስዎ	-8.60245
▁ፍርድ	-8.60517
16	-8.60549
ተዋል	-8.60768
▁መመሪያ	-8.60917
▁the	-8.61044
ቦች	-8.61588
▁ይልቅ	-8.61976
ፀ	-8.61984
▁ጥያቄ	-8.62155
▁ሴ	-8.62206
▁እሳት	-8.62271
▁ካርድ	-8.62475
ታችሁ	-8.62476
ጓ	-8.62526
ra	-8.62662
▁ስርዓት	-8.62667
▁ጥቁር	-8.62825
(	-8.62832
▁ፈቃድ	-8.62876
▁አንዳንድ	-8.62905
un	-8.62957
ጁ	-8.62992
▁ሲኾኑ	-8.63042
▁ከእነርሱ	-8.63293
▁ለምን	-8.63422
▁Ltd	-8.63464
መራ	-8.63537
፡	-8.63918
▁እንደሆነ	-8.64121
▁ሊሆን	-8.64255
▁0	-8.64315
ሉት	-8.64336
is	-8.64503
80	-8.64581
▁አለ።	-8.64585
ስተ	-8.64704
▁የእኛ	-8.64962
▁ተስፋ	-8.65145
▁ሰዓት	-8.65264
ሆ	-8.6548
ላል	-8.6568
il	-8.65908
ደረ	-8.65952
▁ነገሮች	-8.66187
ገር	-8.66207
▁አደረገ	-8.66207
▁ዲ	-8.66258
▁የአላህ	-8.66404
▁ለማድረግ	-8.66678
ጠራ	-8.66873
ገዛ	-8.66874
as	-8.6697
▁Ch	-8.67119
▁ሕግ	-8.67271
▁መቶ	-8.67457
02	-8.67517
▁ሴት	-8.6773
ገለ	-8.67732
ዚ	-8.67845
ዞ	-8.68206
ችው	-8.68231
ኳ	-8.68297
ur	-8.68397
▁በእነርሱ	-8.6841
ኾን	-8.68423
▁ሞዴል	-8.68442
▁ሀ	-8.6855
▁O	-8.68639
▁ነፃ	-8.68722
ደረግ	-8.68739
j	-8.68774
th	-8.6881
ለህ	-8.69031
▁እንዳይ	-8.69176
▁የአየር	-8.69212
▁መሣሪያዎች	-8.69432
▁ክፉ	-8.6955
▁ውጭ	-8.6968
ገል	-8.69694
ri	-8.69872
▁ኢትዮጵያ	-8.69995
ad	-8.70164
ለች	-8.70179
▁ቀናት	-8.70207
▁እየተ	-8.70239
▁Y	-8.70271
▁ሸ	-8.7029
▁ሦስት	-8.70323
ቻቸው	-8.70416
▁ዘመን	-8.70444
▁አካባቢ	-8.70772
18	-8.70774
ፓ	-8.70842
ዉ	-8.70934
ለሁ	-8.70975
▁ጉዳይ	-8.7103
ቷል	-8.71132
ሃል	-8.71257
ጠፋ	-8.71304
ation	-8.71525
ሳይ	-8.71529
▁100	-8.71621
ተኞች	-8.71742
በላ	-8.71799
&	-8.72051
ሞት	-8.72293
ሹ	-8.72419
▁ከዚያ	-8.72434
▁of	-8.72493
ሰጥ	-8.72813
ገኝ	-8.72833
▁ፕሮግራም	-8.72833
▁ፓ	-8.73137
ጹ	-8.73281
▁ኩባንያ	-8.73294
ሶች	-8.73448
13	-8.73677
▁የእግዚአብሔር	-8.73727
▁ጉርሻ	-8.73753
▁አካል	-8.73796
0	-8.73883
▁#	-8.73996
ታዊ	-8.74061
▁50	-8.74209
▁እውነት	-8.74374
▁ይህንን	-8.74442
id	-8.74592
ቼ	-8.74666
▁ችግር	-8.748
ቹ	-8.74845
ሰር	-8.74873
ቸውን	-8.75268
ul	-8.75466
14	-8.75574
ጢ	-8.75616
ኢ	-8.7562
ሰው	-8.75837
▁ጌታዬ	-8.75862
▁ልብ	-8.759
ዋቸው	-8.76173
▁ምልክት	-8.76203
ሄ	-8.76286
ጋራ	-8.76405
05	-8.76586
▁ቀለም	-8.76597
ሰራ	-8.76611
://	-8.76968
▁አይነት	-8.76968
▁ጎ	-8.77083
▁መሣሪያ	-8.77094
ወጡ	-8.77207
ፖ	-8.77217
▁ወረቀት	-8.77686
▁Re	-8.77892
22	-8.7792
co	-8.78032
▁በዓለም	-8.78079
ሰበ	-8.78199
ገደ	-8.7829
▁ምግብ	-8.7831
▁አየር	-8.78352
▁እግዚአብሔርም	-8.7847
ጆ	-8.78606
▁የግል	-8.78787
ግባ	-8.78857
▁መጨረሻ	-8.78982
▁ሃ	-8.79224
▁እነሆ፥	-8.79459
▁በታች	-8.79477
ነፍ	-8.79643
▁ቤተ	-8.79665
▁ውሃ	-8.79682
▁ወንድ	-8.7981
▁እንዲያ	-8.79849
▁አውርድ	-8.79975
kv	-8.8001
▁ንድፍ	-8.80153
17	-8.80224
▁ተመ	-8.80554
ነሳ	-8.80613
▁መልስ	-8.80852
▁የቤት	-8.81165
▁እውነተኛ	-8.81181
ፎ	-8.81442
▁ሁሉንም	-8.81492
▁ደስ	-8.81493
ፈልጉ	-8.81904
ሠ	-8.82018
te	-8.82021
▁ኮድ	-8.8211
]	-8.82183
▁እንዲሁ	-8.825
ብረ	-8.82644
▁ችሎታ	-8.8267
ate	-8.82799
ia	-8.8299
መው	-8.83126
ከፍተኛ	-8.83264
ang	-8.83422
▁እነሆ	-8.83469
▁በርካታ	-8.83486
Z	-8.83548
ከር	-8.83879
▁አለበት	-8.8388
▁ዐ	-8.8391
35	-8.83971
▁ቁ	-8.84068
ሆኑ	-8.84097
▁ፍጥነት	-8.84123
▁እኛም	-8.84298
ባለ	-8.84321
03	-8.84387
lo	-8.84412
▁መጣ	-8.84506
▁በርሱ	-8.84511
▁ኢየሱስ	-8.84636
ቫ	-8.84693
▁ዙሪያ	-8.84762
▁ከእ	-8.84794
ly	-8.85137
▁ባል	-8.85229
▁የኃይል	-8.85293
▁የበለጠ	-8.85319
▁ኪዳን	-8.8541
ላይ	-8.85584
▁ሺህ	-8.85633
ent	-8.85647
ችኋል	-8.85707
se	-8.86203
21	-8.86322
▁ድር	-8.86516
ፈሩ	-8.86546
ማር	-8.8666
▁የተሻለ	-8.86803
ot	-8.87113
▁የቀድሞው	-8.87176
▁ያላቸው	-8.87206
▁እሱ	-8.87238
▁ነፍስ	-8.87289
▁and	-8.87707
▁ልክ	-8.87726
▁በሙሉ	-8.87937
▁a	-8.88056
▁የኢትዮጵያ	-8.88077
▁ቀጣይ	-8.88284
▁ወይስ	-8.88437
▁ሲኾን	-8.88448
▁40	-8.88462
▁ክልል	-8.88477
ቅር	-8.8861
▁በኢትዮጵያ	-8.88812
▁መደበኛ	-8.88923
ረው	-8.8897
▁የኾነ	-8.89001
▁ታሪክ	-8.89055
ታችን	-8.89156
መድ	-8.89296
▁ፈ	-8.89663
op	-8.89709
24	-8.89733
▁ቅዱስ	-8.89751
ሰጡ	-8.89849
▁በእኛ	-8.89884
ልኝ	-8.89972
е	-8.89981
▁መኪና	-8.90037
▁21	-8.90098
▁ዝቅተኛ	-8.90106
▁ክፍያ	-8.90161
▁22	-8.90175
▁2016	-8.90195
04	-8.90201
▁ልማት	-8.90226
▁ወቅት	-8.90352
▁በጎ	-8.90509
▁ግንኙነት	-8.90564
▁የትምህርት	-8.90566
ፃ	-8.90704
45	-8.90922
ኖሩ	-8.90964
ራዊ	-8.91098
▁ኪ	-8.9118
ጠቅ	-8.91484
▁እያንዳንዱ	-8.91491
▁ፊ	-8.91528
▁የምታ	-8.91887
▁ሜ	-8.92166
and	-8.92202
ኤል	-8.92221
▁ተመሳሳይ	-8.92276
ሞች	-8.92289
ኾኑ	-8.92374
▁in	-8.92394
▁ሚሜ	-8.92402
ፍር	-8.92412
▁FSX	-8.92436
per	-8.92711
ኛው	-8.92755
▁ውኃ	-8.92841
▁የእኔ	-8.92856
▁f	-8.92911
ክር	-8.92998
▁p	-8.93141
▁ተንቀሳቃሽ	-8.93328
▁የሰው	-8.93402
action	-8.93547
ነቱ	-8.93584
▁ብር	-8.93701
06	-8.93747
▁የእኛን	-8.93894
▁በማድረግ	-8.93973
▁አራት	-8.94224
ቸውም	-8.94255
▁ፎቶ	-8.9439
በሩ	-8.944
▁የምርት	-8.94484
▁ዕ	-8.9461
ኃ	-8.94722
▁Z	-8.94809
▁=	-8.94979
▁አበባ	-8.95346
ac	-8.95355
ሪዎች	-8.95375
▁የመስመር	-8.95652
▁ስራ	-8.96087
መረ	-8.96089
ቶቻቸው	-8.96094
▁በእውነት	-8.96192
li	-8.96228
ኅ	-8.9661
ጐ	-8.9672
ers	-8.96952
▁[	-8.96994
▁እንኳ	-8.97106
▁ኃጢአት	-8.9711
▁%	-8.97138
▁መጥፎ	-8.97353
ቀጣ	-8.97495
99	-8.97628
ጩ	-8.97654
▁የሚያስ	-8.97877
መነ	-8.97933
▁ጠንካራ	-8.97967
▁መጠቀም	-8.97999
ከል	-8.9804
.00	-8.98109
▁ልብስ	-8.98188
▁ከእኔ	-8.9819
በረ	-8.98265
ናችሁ	-8.98491
▁to	-8.9851
▁ሥርዓት	-8.98652
▁ይገኛል	-8.98815
▁ቤ	-8.98853
33	-8.98891
▁ሞተር	-8.9894
መጡ	-8.98963
ውቅ	-8.99064
▁200	-8.99074
አቸው	-8.991
▁ጠቃሚ	-8.99495
ዥ	-8.99596
▁አልለ	-8.99752
▁ቋንቋ	-8.99857
▁የኢ	-8.99953
ጣል	-9.00271
ጣሉ	-9.00273
ጊ	-9.00776
▁አድርጎ	-9.00795
▁በወ	-9.00858
▁ተከ	-9.00871
ግብ	-9.00949
▁ፍሬ	-9.00995
▁b	-9.01042
▁ጸ	-9.0106
▁የመጀመሪያ	-9.01075
▁ናቸው።	-9.01156
ጠሩ	-9.01217
▁የካዱት	-9.01247
▁አስተዳደር	-9.01437
ራሉ	-9.01506
▁የመጀመሪያው	-9.01572
-1	-9.01587
▁ከአንተ	-9.01649
▁ከእኛ	-9.01709
▁2013	-9.01742
▁ቪዲዮ	-9.01765
▁አሁንም	-9.01768
▁ኢሜይል	-9.01776
ቻችሁ	-9.018
▁የእስራኤል	-9.02167
ታይ	-9.02279
▁m	-9.02298
▁መሪ	-9.02343
▁ፈጣን	-9.02681
▁ጸጋ	-9.02734
▁ድምፅ	-9.02787
ፍራ	-9.02793
▁ሂደት	-9.02843
▁ሰር	-9.02856
▁23	-9.02893
▁ማንም	-9.0294
▁ወዘተ	-9.02952
ላሉ	-9.02959
▁ንግድ	-9.02974
▁ለአላህ	-9.03227
07	-9.03228
▁ትንሽ	-9.03239
▁ሰላም	-9.03289
▁አስታውስ	-9.03303
▁በመጠቀም	-9.03383
▁ምርምር	-9.03448
አል	-9.03509
ረዱ	-9.03529
▁አስተያየት	-9.03532
▁ብርቱ	-9.03692
መኑ	-9.03698
▁c	-9.0374
▁በዚያም	-9.03775
▁Pro	-9.0379
▁የአሜሪካ	-9.03958
ዮች	-9.04074
55	-9.04126
ዳቸው	-9.04179
▁Bitcoin	-9.04243
በቃ	-9.04416
ፈጠር	-9.04514
ልፍ	-9.04774
▁ያግኙ	-9.04796
ሠሩት	-9.04828
▁አጠቃላይ	-9.0493
▁አልተ	-9.05059
ደርግ	-9.05064
▁ተጠ	-9.05222
▁ለተ	-9.05224
ne	-9.05381
ታገ	-9.05407
▁ግምገማዎች	-9.05472
▁ከተሞች	-9.05498
▁እርሷ	-9.05513
▁ከባድ	-9.05538
ጠር	-9.05584
ጆች	-9.05602
▁ይሁን	-9.05638
▁ለማስ	-9.05689
mo	-9.05874
▁መንፈስ	-9.05908
▁ጨዋታ	-9.05932
ሄድ	-9.06031
▁ድርጅት	-9.06079
ነግ	-9.06233
67	-9.06298
▁ባለቤት	-9.06458
one	-9.06628
▁እምነት	-9.06633
ሄዱ	-9.06725
▁ምክር	-9.06744
▁በማለት	-9.06919
▁እስራኤል	-9.06932
▁ይመ	-9.07
ሺ	-9.0717
▁ሰባት	-9.0725
▁w	-9.07333
▁ጨምሮ	-9.07391
ፈረ	-9.07459
ባር	-9.07623
▁ጥቂት	-9.07663
▁የሆኑ	-9.07793
▁በእኔ	-9.07806
ወቅ	-9.07896
▁ልት	-9.0792
ሳቸው	-9.07928
ገኛ	-9.08158
▁በተጨማሪም	-9.08203
28	-9.08267
▁v	-9.08496
▁ጥበቃ	-9.08519
▁በሆነ	-9.08599
▁ቢሆን	-9.0868
ቶቹ	-9.08697
▁ወራት	-9.08807
▁Android	-9.08896
▁መግለጫ	-9.08932
de	-9.08945
▁ጉ	-9.08958
ሰጠው	-9.09017
ናገር	-9.09045
▁ማዕከል	-9.09076
ሂ	-9.09084
ሞላ	-9.09183
▁መሥዋዕት	-9.09253
ቄ	-9.09304
▁capacitor	-9.09305
34	-9.09452
um	-9.09579
39	-9.09874
▁አገልግሎቶች	-9.09893
▁ምርጫ	-9.09914
▁ገበያ	-9.09929
90	-9.10012
ቈ	-9.10095
ጄ	-9.10183
▁ይሰጣል	-9.10188
▁ዳዊት	-9.10197
23	-9.10399
▁ጽ	-9.1044
65	-9.10497
-2	-9.10567
ant	-9.10589
ብሩ	-9.10765
▁የእግዚአብሔርን	-9.10824
ገድ	-9.10835
ብራ	-9.10869
▁28	-9.10923
▁In	-9.10976
ባችሁ	-9.11187
▁ቁጥጥር	-9.11197
▁እንደዚሁ	-9.1124
▁አሜሪካ	-9.11358
36	-9.11397
▁የዓለም	-9.1146
ma	-9.11507
▁ሕያው	-9.11557
መለስ	-9.11633
▁በእርሷ	-9.11661
▁በሌላ	-9.11751
▁ለእኔ	-9.11752
▁መኾኑን	-9.11806
▁በስተቀር	-9.11859
69	-9.11893
▁©	-9.11989
ጠረ	-9.12061
37	-9.12216
▁ቦ	-9.12246
▁ምድርን	-9.12252
32	-9.12309
▁ጥያቄዎች	-9.12315
ኛል	-9.12344
▁ያደርጋል	-9.12519
▁የእርስዎን	-9.12526
▁ተሰ	-9.12542
ay	-9.1257
▁ደረጃዎች	-9.12924
▁ሆነው	-9.13058
▁የስራ	-9.13068
ቂያ	-9.1307
▁ብለው	-9.13094
ቀለ	-9.13108
▁ጥናት	-9.13151
▁ወንዶች	-9.13198
▁እርዳታ	-9.13275
70	-9.13396
▁አጥ	-9.13411
▁ሲል	-9.13455
▁ሳይንስ	-9.13467
▁በእስራኤል	-9.13613
47	-9.13646
▁አቅም	-9.13677
▁በውስጡ	-9.13736
▁ጌታችን	-9.13782
▁ተቀ	-9.13789
▁ትዕዛዝ	-9.13817
▁ምሳሌ	-9.1384
▁ባለቤቶች	-9.14239
ፈተ	-9.14276
ዎት	-9.14286
▁ዝርዝሮች	-9.14411
75	-9.14438
▁ያንብቡ	-9.14473
ሰጠ	-9.14631
▁ለእግዚአብሔር	-9.14754
▁ሽፋን	-9.14783
ያቸው	-9.14872
ከተ	-9.14995
አይ	-9.15054
ላለ	-9.15062
ዘር	-9.15139
▁ንብረት	-9.15324
ዘን	-9.15407
ኃጢአ	-9.15472
▁ማረጋገጫ	-9.15594
im	-9.15656
▁ስር	-9.15687
ሾ	-9.15704
09	-9.15736
ta	-9.15799
▁ነህ	-9.1587
ፎች	-9.15972
ከብ	-9.15986
▁ሁልጊዜ	-9.16028
▁የኤሌክትሪክ	-9.16062
ሥራ	-9.16152
ሰሙ	-9.16185
▁h	-9.16265
▁ፈጽሞ	-9.16278
▁እንኳን	-9.16344
▁አንተም	-9.1643
▁ነጭ	-9.16491
ቀው	-9.16553
▁ትክክለኛ	-9.16594
▁የቁማር	-9.16719
ያዝ	-9.16871
▁ከእነሱ	-9.16904
ho	-9.17074
os	-9.1717
ገረ	-9.17172
▁አምስት	-9.17282
@	-9.17454
▁ለእኛ	-9.17532
od	-9.17538
▁ፒ	-9.1769
ቷ	-9.17694
▁መስጠት	-9.17741
▁ክብር	-9.1775
▁ዱቄት	-9.17796
▁ገና	-9.18155
ማቸው	-9.18183
▁መጀመሪያ	-9.18252
ቃል	-9.18268
ዌ	-9.18414
▁ባለው	-9.18465
ine	-9.1848
ter	-9.18494
▁Forex	-9.18502
▁አላቸው።	-9.18764
ቃሉ	-9.18769
▁ቮልቴጅ	-9.18823
▁2015	-9.18856
▁አዛኝ	-9.18889
▁ገመድ	-9.18891
▁መቆጣጠሪያ	-9.1895
ታቸውን	-9.18986
▁ምንዳ	-9.1899
ub	-9.19076
▁ጭ	-9.19166
ጥፋ	-9.19185
▁ምክንያቱም	-9.19273
▁ስሪት	-9.19276
▁ያንን	-9.1935
▁ቦታዎች	-9.1936
ጥር	-9.19456
ጣት	-9.19467
ver	-9.19487
▁በውስጧ	-9.19662
▁እስኪ	-9.19707
ማይ	-9.19898
ator	-9.1994
▁ያሳ	-9.19964
▁re	-9.19977
▁በእርሱም	-9.20003
▁የነበሩት	-9.20189
መለሱ	-9.20263
▁ነበረ።	-9.20311
▁ብሔራዊ	-9.20425
▁ይመልከቱ	-9.20445
▁ቲ	-9.20449
▁የሚችል	-9.2047
▁ቀይ	-9.20486
▁ያላቸውን	-9.2049
▁የሥራ	-9.20531
ጮች	-9.20601
ረድ	-9.2063
▁አድራሻ	-9.20661
ir	-9.20685
ደብ	-9.20716
▁ስላ	-9.20729
▁ለእነዚያ	-9.20844
▁አነስተኛ	-9.20865
ብኝ	-9.20948
▁በመካከላቸው	-9.2097
▁ለውጥ	-9.21019
08	-9.21047
▁መንግሥት	-9.21189
ህንም	-9.21207
ሰሩ	-9.21434
▁ጉዳዮች	-9.21435
▁ድምጽ	-9.215
▁ያልተ	-9.21509
▁ዕቃ	-9.21605
▁ክርስቶስ	-9.2163
▁ብጁ	-9.21646
▁ወገን	-9.21692
▁የማያ	-9.21867
▁ሶ	-9.21881
ጠላ	-9.21975
▁አጠገብ	-9.22029
all	-9.22147
▁መንግስት	-9.22173
መለ	-9.22196
▁ጨዋታዎች	-9.222
mail	-9.22249
▁ይሆናል።	-9.22288
▁ክብደት	-9.22296
▁26	-9.22369
▁የቅርብ	-9.22433
ቀር	-9.22465
▁ውጤት	-9.22763
о	-9.2283
▁500	-9.2283
▁ካል	-9.22915
▁ካዚኖ	-9.22964
▁አማራጭ	-9.22968
ገዙ	-9.23058
ge	-9.23064
››	-9.23103
▁የውጭ	-9.23209
▁ኾኖ	-9.23233
ሩት	-9.23375
ቀመጥ	-9.23393
▁PVC	-9.23503
▁ታዋቂ	-9.2357
ity	-9.23586
▁አቅርቦት	-9.23705
▁ሥጋ	-9.23726
ag	-9.23915
ዚያ	-9.23968
▁ብጤ	-9.24052
መል	-9.24053
31	-9.2438
ወድ	-9.24467
200	-9.24478
ፈጥ	-9.24505
▁ፍቅር	-9.24528
38	-9.24552
ነሣ	-9.24577
ኵ	-9.24584
ca	-9.24632
ይቱ	-9.24655
▁ደህንነት	-9.24725
▁ምንጭ	-9.24738
ወደ	-9.24752
▁ቁልፍ	-9.24815
▁°	-9.24823
ack	-9.24827
▁አደጋ	-9.24926
▁ሙቀት	-9.24931
መሰ	-9.24936
ራችሁ	-9.24945
▁ሲያ	-9.25033
▁ሚሊዮን	-9.25205
ደርስ	-9.2521
ከፍ	-9.25248
አት	-9.25258
ሁት	-9.25398
▁ቆ	-9.25429
▁ፍላጎት	-9.25487
▁ኢንዱስትሪ	-9.25536
▁የሚሆን	-9.25546
▁ይፈልጋሉ	-9.25548
▁ሆ	-9.25571
▁ብል	-9.25591
▁እባክዎ	-9.25617
ኝነት	-9.25619
▁g	-9.25714
а	-9.25893
ሠሩ	-9.25956
ጠቀ	-9.25959
ጾ	-9.25992
▁እንዳለ	-9.26036
▁ለእ	-9.2607
▁እነዚህን	-9.26143
29	-9.26174
▁ሌሊት	-9.2624
ቶቻችሁ	-9.2625
▁ተቀማጭ	-9.26309
ጠነ	-9.264
ሟ	-9.26598
no	-9.26721
▁መጥ	-9.26861
ተኛው	-9.26872
▁2014	-9.26927
▁የገንዘብ	-9.26995
▁ጥቅል	-9.27023
▁ተራራ	-9.27063
▁እንግዲህ	-9.27075
▁‹‹	-9.27146
ጠው	-9.27177
▁€	-9.27253
▁ተብሎ	-9.27571
ግራ	-9.27602
to	-9.27608
▁መሓሪ	-9.27637
▁ጌታህ	-9.27648
AR	-9.27742
▁የምድር	-9.27782
ላንድ	-9.27786
▁ስት	-9.27786
▁በሚያ	-9.28023
ቻል	-9.2805
ከራ	-9.28187
▁ነበር፤	-9.28205
▁ወጣ	-9.28231
85	-9.28323
ለሁ።	-9.28379
ሦ	-9.28484
ill	-9.28578
ኙ	-9.28649
ደግ	-9.28908
▁መከራ	-9.28924
est	-9.28987
▁በቀር	-9.29017
▁እንቅስቃሴ	-9.29076
▁የኾኑ	-9.29149
▁ቁርኣን	-9.29302
▁መሳሪያዎች	-9.29307
▁እንድት	-9.2935
▁ይቀ	-9.29381
ዖ	-9.2941
▁አድርግ	-9.29533
▁በአሁኑ	-9.29578
▁ችሮታ	-9.29605
▁ሄደ	-9.29671
▁የውሃ	-9.29734
▁ደም	-9.29774
▁27	-9.29778
▁ደንበኞች	-9.29791
ፈው	-9.29891
me	-9.2993
pe	-9.29933
▁መሰ	-9.30067
ie	-9.30125
ry	-9.30201
ቆየ	-9.30223
▁መስፈርቶች	-9.30346
▁ዘመናዊ	-9.30484
▁35	-9.3052
om	-9.30575
Q	-9.306
ኤስ	-9.30732
▁ሜትር	-9.30768
ድረ	-9.30854
▁የተወሰነ	-9.30952
ቭ	-9.30999
▁by	-9.31004
net	-9.3101
▁አውሮፕላን	-9.31118
26	-9.31169
▁ካሜራ	-9.31291
ለዋል	-9.31315
la	-9.31351
ቆች	-9.31579
▁ሳይሆን	-9.3158
ab	-9.31694
▁ያመናችሁ	-9.3173
ባብ	-9.3173
66	-9.31792
▁ባሕር	-9.31884
88	-9.31894
ell	-9.319
▁እነዚያን	-9.31926
▁ቦርሳ	-9.31933
ቻችን	-9.32011
ተካ	-9.32119
▁የምግብ	-9.32144
▁ግምገማ	-9.3215
72	-9.32172
▁በኢ	-9.32195
ment	-9.32289
▁በመጣ	-9.32344
▁ድርጅቶች	-9.32391
ite	-9.32434
71	-9.32563
ce	-9.32639
ቆም	-9.32648
ከለ	-9.32697
▁ሰማይ	-9.3274
▁ውርዶች	-9.32761
▁ያድርጉ	-9.32909
ከሰ	-9.3294
▁አቅራቢ	-9.33041
ong	-9.33125
ive	-9.33191
▁አምራች	-9.33206
ጪ	-9.33385
▁እንደዚህ	-9.33416
▁ተስማሚ	-9.33429
▁29	-9.33467
ወረደ	-9.33559
▁አፍ	-9.33606
ist	-9.33616
▁በጌታ	-9.33629
▁ውጤቶች	-9.33728
ig	-9.33858
▁አዋጅ	-9.33882
77	-9.33886
▁ነገ	-9.33992
▁ቢሆንም	-9.34039
▁አሕዛብ	-9.34102
▁ሰፊ	-9.34212
▁ጥር	-9.34227
▁ምስጋና	-9.34403
▁ከእርሷ	-9.34554
ስቴ	-9.34571
ide	-9.34605
ሇ	-9.34629
▁ዓላማ	-9.34636
▁100%	-9.34646
▁አለቆች	-9.34716
▁ሞት	-9.34721
▁ለዘላለም	-9.3478
▁ፕሮግራሞች	-9.3478
di	-9.34858
▁~	-9.34926
▁ኋላ	-9.34963
ደራ	-9.35137
▁የቅጂ	-9.35165
▁አሉት	-9.35206
መልካ	-9.35461
▁ማሳያ	-9.35542
="3	-9.35558
▁No	-9.35705
▁ከሰማይ	-9.35771
▁ፈተና	-9.3582
▁ምልክቶች	-9.35843
▁የባቡር	-9.35996
▁ያመኑት	-9.35999
▁×	-9.36085
▁ቤቱ	-9.36137
▁ሳለ	-9.36143
ወሰ	-9.36146
▁የኢሜይል	-9.3616
▁አባላት	-9.36251
መካ	-9.36307
95	-9.36309
▁መያዣ	-9.36383
▁የወ	-9.36421
▁ማዋቀር	-9.36533
ኞቹ	-9.36537
▁ጠቅ	-9.36546
68	-9.36576
ቀረ	-9.36611
▁ዘይት	-9.36619
▁ለዚህ	-9.36683
▁ዘር	-9.36697
▁2020	-9.36803
ችሁን	-9.36831
ለመ	-9.36895
▁ተቋም	-9.3701
▁መግቢያ	-9.37152
▁አባ	-9.37249
▁መልክ	-9.37268
27	-9.37388
▁ይግዙ	-9.37407
▁ትእዛዝ	-9.37538
▁አለቃ	-9.37559
▁ቅን	-9.37607
▁ወዲያውኑ	-9.37616
▁60	-9.3774
▁መሬት	-9.37743
ያዙ	-9.37797
ጊዜ	-9.3787
አልና	-9.38026
▁መጠ	-9.38027
▁ያቀርባል	-9.38083
ገኘ	-9.38107
▁St	-9.38121
▁ከእነርሱም	-9.38189
▁ነበረ	-9.38195
ረገ	-9.38212
ጤ	-9.38239
▁ይቻላል	-9.38239
▁ገቢ	-9.3827
▁የዘ	-9.38302
▁የዚህ	-9.38317
ካል	-9.38339
ER	-9.3834
▁ቅር	-9.38364
ap	-9.38481
ut	-9.38548
▁ሴራሚክ	-9.38631
▁ተግባራዊ	-9.38631
www	-9.3871
▁ብታ	-9.38783
86	-9.38948
▁የጌታ	-9.39016
98	-9.39022
▁የአላህን	-9.39034
sh	-9.39095
ደርጉ	-9.39118
▁ስሙ	-9.39172
="4	-9.39237
▁ተግባር	-9.39264
▁de	-9.39332
▁ዕውቀት	-9.3934
ቀደ	-9.39401
▁በመጀመሪያ	-9.39445
ard	-9.39479
▁ጉዳት	-9.39718
▁ወሰን	-9.39933
▁ትርጉም	-9.40055
ion	-9.40065
ዎቻቸው	-9.40134
ቤቱ	-9.40176
▁ይላል።	-9.4045
▁https	-9.40456
ቀበል	-9.40506
ዣ	-9.40512
▁አንቀጾች	-9.40534
ኒያ	-9.40551
ph	-9.40616
▁ቁሳዊ	-9.40623
▁ሆኖም	-9.40676
▁ጤና	-9.4069
▁ብዛት	-9.40775
ረጋ	-9.40874
▁አይደሉም	-9.40935
▁መረብ	-9.40938
▁ከእርሱም	-9.40987
▁አገሮች	-9.41018
▁ባለሙያ	-9.41185
ደረጉ	-9.41399
▁ይህች	-9.41429
▁iPhone	-9.41499
▁ደንብ	-9.41587
ኋ	-9.41638
▁ፍጹም	-9.41661
ሃለሁ	-9.41672
▁ለእነርሱም	-9.41745
▁መጡ	-9.41787
▁ዕቃዎች	-9.41802
▁ጥበብ	-9.41826
▁d	-9.41878
ቺ	-9.41889
▁ኢንች	-9.42008
▁አዳዲስ	-9.4207
100	-9.42184
▁ባሪያ	-9.42188
500	-9.42209
▁ሰማያዊ	-9.42263
▁መልኩ	-9.4233
ሆነ	-9.42384
0,000	-9.424
▁31	-9.42432
በዛ	-9.42442
▁እነሱም	-9.42488
▁(_	-9.42581
57	-9.42657
▁እርምጃ	-9.42667
▁የብረት	-9.42691
ደጋ	-9.42705
ባይ	-9.42751
▁ነጠላ	-9.42755
▁ማር	-9.4288
▁ሽቦ	-9.42985
▁ሁለቱ	-9.42992
ሃይ	-9.42994
ጠቀሙ	-9.43138
▁ይጠ	-9.43239
▁ሽያጭ	-9.43245
ለጥ	-9.43388
▁ኾናችሁ	-9.43412
▁ተገቢ	-9.43434
▁የኢንዱስትሪ	-9.4344
▁ተገ	-9.43649
56	-9.43723
ላዊ	-9.43743
▁Google	-9.43893
▁ነበሩ።	-9.44032
ሷ	-9.44077
▁ቅጣቱ	-9.44137
ቤት	-9.44198
▁የኦ	-9.44273
▁ጽሑፍ	-9.44297
ha	-9.44476
ነበረ	-9.44575
▁በምድርም	-9.4467
▁ስለሚ	-9.4471
▁ናችሁ	-9.44717
▁በተመለከተ	-9.44785
▁እንደገና	-9.44817
ሙት	-9.44828
ian	-9.44927
▁ያሉት	-9.45034
▁ባይ	-9.45109
▁ምስል	-9.45157
ሰለ	-9.45161
der	-9.45471
▁ቢያ	-9.4557
ቧ	-9.45603
▁ሃይማኖት	-9.4561
▁በትክክል	-9.45623
▁አልነበረም	-9.45625
▁አፍሪካ	-9.45673
▁መልክተኛ	-9.45706
ሰረ	-9.45712
▁ፋይል	-9.45807
ረብ	-9.45867
▁ንጉሡ	-9.45911
▁ጥሪ	-9.45963
▁ይገ	-9.46053
2018	-9.46097
▁ጠቅላላ	-9.46103
▁የፕላስቲክ	-9.46125
▁HVC	-9.46214
▁ተቋማት	-9.46384
ጀት	-9.4651
▁መላእክት	-9.46629
▁ወዳ	-9.46657
ሔ	-9.46807
▁ምንድን	-9.46812
ነካ	-9.46814
▁የለውም	-9.46855
XL	-9.46921
▁እንደተ	-9.46973
▁ወርቅ	-9.46997
ናገሩ	-9.47051
▁ገጾች	-9.47065
▁ገነት	-9.47074
▁ብቃት	-9.47158
▁ጌታችሁ	-9.4718
49	-9.47303
▁ያውቃል	-9.47324
▁ፍሩ	-9.47329
▁ጂ	-9.47371
ip	-9.47386
▁ለእነሱ	-9.47401
▁ስልጠና	-9.47493
▁ይዞ	-9.47515
if	-9.47547
▁ሰኔ	-9.47635
ወይ	-9.47644
ስቡ	-9.47675
▁LED	-9.47681
▁ሶፍትዌር	-9.47751
ess	-9.47799
▁አንዲት	-9.47875
▁ወይ	-9.47925
▁ሚስት	-9.47941
2004	-9.48011
IN	-9.48024
▁መንገዶች	-9.4811
IC	-9.48119
▁ወደፊት	-9.48184
ሰባ	-9.48242
▁የሠራ	-9.48327
▁በቀላሉ	-9.48532
▁ምርመራ	-9.48534
▁የስልክ	-9.48616
▁በቀን	-9.48631
ቸዋለሁ	-9.48638
▁የመኪና	-9.48705
▁መሰረት	-9.48707
▁ሜባ	-9.48719
ረግ	-9.48729
ou	-9.48764
ፍረ	-9.48771
ጡት	-9.48785
▁ድንጋይ	-9.48788
▁አድርገው	-9.48789
pl	-9.48956
▁ረዳት	-9.49141
89	-9.49192
ሜይል	-9.49354
▁የጤና	-9.49384
▁ማረፊያ	-9.49399
44	-9.49452
ጥሩ	-9.49572
ቅዱ	-9.49603
ወረ	-9.49667
▁ዛፍ	-9.4971
▁ያላ	-9.49712
▁Ma	-9.4978
ፈልግ	-9.49851
▁አለባቸው	-9.49893
ጨምር	-9.49973
▁ዴ	-9.50033
▁Ro	-9.50074
▁ቪዛ	-9.50093
▁ኬ	-9.50129
▁t	-9.50134
▁በነገሩ	-9.50143
bo	-9.50187
na	-9.50346
መለከት	-9.50364
▁ይዘት	-9.50392
▁CNC	-9.50454
▁ማወቅ	-9.50586
able	-9.50622
ፊያ	-9.50627
ሰቡ	-9.50698
▁ትኩረት	-9.50719
ቶቻችን	-9.50772
▁ቅናሽ	-9.50809
▁በግልጽ	-9.50831
▁ማህበራዊ	-9.50917
▁መሳሪያ	-9.5094
mp	-9.51206
▁በእነሱ	-9.51272
▁የሕክምና	-9.51312
▁አሸናፊ	-9.51361
▁ፕሮጀክት	-9.51431
▁ከሓዲዎች	-9.51466
ገላ	-9.51482
cm	-9.51516
▁ስቴትስ	-9.51579
ጠና	-9.51676
▁ኮን	-9.51827
ፋት	-9.51839
ዐ	-9.51847
ሪክ	-9.51945
▁ምላሽ	-9.5197
ገራ	-9.51994
▁መምሪያ	-9.5207
▁አባል	-9.52188
ጮ	-9.52192
▁የሚገኙ	-9.52238
▁ሁለተኛ	-9.52263
ለቅ	-9.52369
▁በመቶ	-9.52395
▁for	-9.52455
▁ስብሰባ	-9.52544
ገሩ	-9.52604
ሰጣቸው	-9.52752
▁ፓርቲ	-9.52791
ለያዩ	-9.52814
man	-9.52853
መለከቱ	-9.52997
▁አስተያየቶች	-9.5305
ችንን	-9.53094
▁ሁኔታዎች	-9.53173
▁ደብዳቤ	-9.53232
AS	-9.53256
46	-9.53261
▁ግራ	-9.53292
ov	-9.5336
▁ሁለቱም	-9.53363
ሾች	-9.53548
▁ኳስ	-9.53643
▁ስብስብ	-9.53688
»	-9.53713
ሰማያትና	-9.53781
▁መተግበሪያ	-9.53897
58	-9.53909
ET	-9.53993
up	-9.54048
▁ስሜት	-9.54049
ti	-9.54066
41	-9.54142
▁ቫልቭ	-9.54144
▁አጠቃቀም	-9.54166
▁አንቀጽ	-9.54188
▁መጋቢት	-9.54239
▁ባሉ	-9.54248
▁ምናልባት	-9.54328
▁ይፈ	-9.54338
ችሁም	-9.54401
▁እውቀት	-9.54512
ፈል	-9.54536
▁ይሆን	-9.54546
ያውቁ	-9.54587
▁በማስ	-9.54599
▁ቀጥተኛ	-9.54618
ይቱን	-9.54628
▁ሰይጣን	-9.54692
▁ዳርቻ	-9.54702
▁ኡሁ	-9.54816
he	-9.54822
ቀርቡ	-9.54833
ዘው	-9.54839
▁ማቅረብ	-9.5485
▁ሀብት	-9.54888
መሩ	-9.54937
▁ቪ	-9.54979
ባቸዋል	-9.54985
ኣ	-9.55005
ሳችሁ	-9.55008
▁ወሬ	-9.55054
የተ	-9.55141
▁ግንባታ	-9.55265
መጨረሻ	-9.55271
ጠይቅ	-9.55401
73	-9.55515
▁በእሳት	-9.55537
ዲያ	-9.55538
▁የአካባቢ	-9.55606
▁ልምድ	-9.55644
▁ባህሪያት	-9.55688
ft	-9.55759
▁ርዝመት	-9.55809
▁ዶ	-9.55937
▁አልሉ	-9.55986
▁ያዘ	-9.56025
▁በኢየሩሳሌም	-9.56089
▁የኮ	-9.56113
▁ይገባል	-9.5612
0.0	-9.56142
▁በሽታ	-9.56142
52	-9.56169
ኖረው	-9.56184
▁ፕላስቲክ	-9.562
ከፋ	-9.56219
ዔ	-9.56369
▁ነሐሴ	-9.5637
ገብ	-9.5657
ex	-9.56582
▁32	-9.5659
ነር	-9.56637
▁2010	-9.56656
▁De	-9.56868
oo	-9.5692
▁መብቶች	-9.56944
▁ኤም	-9.56956
ጕ	-9.57115
▁Ningbo	-9.57123
io	-9.57243
▁ለምሳሌ	-9.57335
▁ፖ	-9.57343
age	-9.5737
▁Windows	-9.57386
▁APK	-9.57407
ቨር	-9.57428
53	-9.57457
▁ክርስቲያን	-9.57497
▁ልጥፍ	-9.57502
▁በቂ	-9.57571
ኢትዮጵያ	-9.57688
74	-9.57703
ስቶ	-9.5778
▁ከእግዚአብሔር	-9.58052
ቀጥ	-9.58074
▁ቀደም	-9.58076
ከባ	-9.58138
▁አባት	-9.58161
48	-9.58212
▁ዲግሪ	-9.58266
ጥቅ	-9.58301
▁ግዛት	-9.58388
AN	-9.58475
ash	-9.58572
▁ማስታወቂያ	-9.58597
▁ድረ	-9.58661
▁አሥራ	-9.58689
ስኮ	-9.5878
▁ዋስትና	-9.58838
▁በብዙ	-9.58847
min	-9.58901
▁አስተ	-9.58934
▁በትንሣኤ	-9.58934
▁Q	-9.5895
res	-9.59002
▁ክንድ	-9.5904
▁አማልክት	-9.59141
59	-9.59187
▁ይዘ	-9.59404
▁አቤቱ፥	-9.59418
▁እርስ	-9.59493
ѕ	-9.59513
ላችን	-9.59605
97	-9.59608
▁ይፋ	-9.59688
▁ግል	-9.59694
▁ተወ	-9.59711
▁በእርስዎ	-9.5982
▁እንጀራ	-9.59823
ቀበሉ	-9.59833
▁የሚችሉ	-9.59845
’	-9.59901
87	-9.5991
ለፍ	-9.59985
51	-9.60015
▁ብዬ	-9.60036
ለሁ፤	-9.6019
▁ነበረ፤	-9.60241
ታል።	-9.60245
end	-9.60387
▁ሠራተኞች	-9.60405
▁ልጁ	-9.60439
▁አካ	-9.60452
ባሉ	-9.60456
▁ሲሳይ	-9.6048
▁ውድ	-9.6051
ከሩ	-9.60557
ጠበቅ	-9.60582
▁የቴክኒክ	-9.60594
ስተር	-9.60595
ፔ	-9.60624
▁ጥቅምት	-9.60727
▁ሕ	-9.60728
▁እንድ	-9.6077
▁ጥገና	-9.60784
43	-9.60842
▁ግዴታ	-9.60877
▁ያስተ	-9.60937
ፈጸም	-9.60947
▁ይችላል።	-9.60962
▁የከተማ	-9.61079
fe	-9.61147
▁ጥንካሬ	-9.61172
▁አማርኛ	-9.61204
▁መቼ	-9.61215
ላችኋል	-9.61248
▁አይችልም	-9.61359
▁ማየት	-9.61507
em	-9.61606
ወቀ	-9.61621
▁ባለሙያዎች	-9.61655
ታዘዙ	-9.61666
ዎቹን	-9.61702
▁ንጹሕ	-9.61764
▁ሪፖርት	-9.61766
▁አላህንም	-9.61781
ኸ	-9.61783
pa	-9.619
▁ያካትታል	-9.61962
▁እነዚያንም	-9.62019
▁ምሕረት	-9.62035
▁እንደሚያ	-9.62083
▁ውይይት	-9.62259
▁መድረክ	-9.62361
▁ግፊት	-9.62367
▁ተጠቃሚዎች	-9.62375
tic	-9.62406
ገነ	-9.62453
81	-9.62469
ru	-9.62495
61	-9.62614
ቬ	-9.62758
ረኛ	-9.62769
ወራ	-9.62878
▁ኃ	-9.62883
5%	-9.62888
;&	-9.62935
▁ቦርድ	-9.62967
▁ሰከንዶች	-9.63058
እኔ	-9.63163
▁ያደረገ	-9.63194
▁በዘ	-9.6322
da	-9.63223
▁ይባላሉ	-9.6326
ሮቹ	-9.6337
PS	-9.63415
▁ቋሚ	-9.63458
-8	-9.63523
ዳችሁ	-9.63542
qu	-9.63586
▁ንጉሡም	-9.6362
▁አውሮፓ	-9.63652
ዬን	-9.63687
▁Sh	-9.6369
▁ጎን	-9.637
▁CO	-9.63716
▁አረንጓዴ	-9.6375
▁ዘውታሪዎች	-9.63757
▁ጌ	-9.6385
▁የሚሻውን	-9.63875
▁2012	-9.63912
ችኋለሁ	-9.63973
▁ሰጠ	-9.64022
▁ቻይ	-9.64157
▁ግንቦት	-9.64157
▁ቺፕ	-9.64169
▁አያውቁም	-9.6418
▁የፖለቲካ	-9.64198
ሻል	-9.64216
org	-9.64246
ገናኙ	-9.64279
ነጋ	-9.64361
ve	-9.6438
▁EA	-9.6448
▁እንዲሆን	-9.64482
▁ለአንተ	-9.64485
ራቅ	-9.6453
▁ማሳ	-9.64589
ቤል	-9.64595
▁ቅጥ	-9.64686
▁ቀጥ	-9.64717
54	-9.64757
▁ቅንጅቶች	-9.64777
▁ለናንተ	-9.64881
-10	-9.64902
▁ጀ	-9.64998
▁መውሰድ	-9.65084
ቸዋለን	-9.65203
▁መስከረም	-9.65243
ክሬ	-9.6526
▁ችግሮች	-9.65289
▁በከፍተኛ	-9.65375
በተ	-9.65391
▁ዕድሜ	-9.65393
ጠጣ	-9.65396
▁‹	-9.65547
▁ካለ	-9.65634
▁ዋናው	-9.65678
▁ውሳኔ	-9.657
▁ርዕስ	-9.657
▁ሳጥን	-9.65704
63	-9.65725
▁የኤ	-9.65738
▁መተግበሪያዎች	-9.65747
›	-9.65789
ነቀ	-9.65936
▁ስድስት	-9.6602
▁እርሱም።	-9.66072
▁አማራጮች	-9.66114
▁በቀጥታ	-9.66115
▁ነፋስ	-9.66131
▁አስተማማኝ	-9.66215
ደረጃ	-9.66322
▁The	-9.66429
ኸው	-9.66554
▁ጥበበኛ	-9.66595
▁ነጥብ	-9.66632
▁መነሻ	-9.66641
▁የኾነን	-9.66656
і	-9.66734
type	-9.66739
ፉት	-9.6692
▁በላጭ	-9.66964
▁አይደለም።	-9.67119
▁ፀሐይ	-9.67151
▁የምስክር	-9.67151
▁ምክሮች	-9.67152
▁ቀጠሮ	-9.672
▁1000	-9.67231
▁ግብ	-9.67247
▁ረጅም	-9.67279
▁ከርሱ	-9.6728
ጠባ	-9.67294
ፊት	-9.67327
▁ንቁ	-9.67389
ሻው	-9.67391
▁ሠራ	-9.67408
96	-9.6741
42	-9.67412
ud	-9.67445
▁ማመልከቻ	-9.6757
▁መመለሻ	-9.6757
ነዚህ	-9.67575
▁ሙሳ	-9.67586
▁በአንተ	-9.67592
ገኘው	-9.67743
▁እስከሚ	-9.67745
2.5	-9.6777
▁የእርሱ	-9.67837
▁ሥር	-9.68021
ight	-9.68021
ያዊ	-9.68085
ወል	-9.6809
▁በፍጥነት	-9.68096
ni	-9.68182
▁የሽያጭ	-9.68258
▁ክፍት	-9.68288
ቆጣ	-9.68343
▁በእውነቱ	-9.68412
▁በሰው	-9.68471
ቀመጡ	-9.68479
ዋለሁ	-9.68488
▁ኤስ	-9.68513
▁ደራሲ	-9.68521
▁ፖሊሲ	-9.68556
▁ስህተት	-9.68624
▁ነገሩ	-9.68691
▁የጋራ	-9.68703
cc	-9.68724
▁በሁሉም	-9.6873
▁be	-9.68824
▁ፍለጋ	-9.68836
▁ልታ	-9.68876
ast	-9.68933
▁ለሰዎች	-9.68974
ቀርብ	-9.69003
ከረ	-9.69066
▁የመጨረሻ	-9.69104
▁አማካኝነት	-9.69155
▁ያሉትን	-9.69156
▁ቃላት	-9.69166
ቆሙ	-9.69279
▁የአሜሪካን	-9.69311
▁150	-9.6932
ደረሰ	-9.69423
▁ወንዞች	-9.69476
▁ማህበረሰብ	-9.69479
▁ንግግር	-9.69521
ከተል	-9.69677
ህወሀት	-9.69689
ጠፉ	-9.69872
▁ከሰዓት	-9.69878
▁አሉ።	-9.69913
▁በአላህም	-9.69982
ኞ	-9.70018
▁ዶሴ	-9.70071
▁የእሳት	-9.70128
ዘረጋ	-9.70152
▁ይልቁንም	-9.70256
ፈታ	-9.70304
▁ትውልድ	-9.70308
ቀኝ	-9.7038
78	-9.70505
▁ጃ	-9.70515
▁ክር	-9.70543
▁ዲዛይን	-9.70578
▁ወንዝ	-9.70678
ጀመር	-9.70696
▁እንዳል	-9.70769
▁አመሰግናለሁ	-9.70875
ለሁ፥	-9.70902
TC	-9.70918
AT	-9.7092
ግሩ	-9.70936
▁ትልቁ	-9.70986
ዱት	-9.71092
▁ጣቢያዎች	-9.71131
hi	-9.71161
▁በሰማያት	-9.7122
ነሱ	-9.71303
▁ፓነል	-9.71311
ስቲ	-9.71364
▁ቁሳቁሶች	-9.71418
▁ወይን	-9.71468
▁በእጅ	-9.71485
▁አስማሚ	-9.71638
▁ስፋት	-9.71665
ጋሪ	-9.71682
▁የላቀ	-9.71721
▁አማካሪ	-9.71746
ሴት	-9.71782
ነቶች	-9.71819
ቍ	-9.71846
▁ለማየት	-9.71872
▁ወደርሱ	-9.72
▁አመጣ	-9.72005
▁ሀገር	-9.72019
▁ታዲያ	-9.72048
▁ኣ	-9.72071
6"	-9.72275
ወቁ	-9.72279
76	-9.72286
ልቴጅ	-9.72294
▁ገሀነም	-9.72294
iv	-9.72341
ኾነ	-9.72351
▁የካቲት	-9.72362
▁ማጣሪያ	-9.7241
▁ዕድል	-9.72428
▁ከላይ	-9.72456
▁በመጨረሻይቱ	-9.72625
ኖረ	-9.72627
▁ባቡር	-9.72627
ሞቹ	-9.7267
▁አድርጓል	-9.72735
ፋይ	-9.72875
ያችሁ	-9.72884
pro	-9.72892
ለች።	-9.729
ኘ	-9.7301
▁ውሂብ	-9.73067
ai	-9.73096
ላቸዋል	-9.73132
▁ትክክል	-9.73178
ዓት	-9.73202
▁ፕላ	-9.73207
▁በራስ	-9.7325
▁ቡድኖች	-9.73289
▁ጥቅሞች	-9.73289
መልክ	-9.73293
ያዘ	-9.73356
93	-9.73419
▁ሞተ	-9.73433
▁ISO	-9.73439
ጋቢ	-9.73449
au	-9.73462
▁ታስ	-9.73571
ከበረ	-9.73698
art	-9.73715
▁ኾነ	-9.7375
ግዛ	-9.73785
▁በመሆኑ	-9.73825
▁አዎ	-9.73875
▁እነሱን	-9.73901
ረከ	-9.73915
▁አገልጋይ	-9.73957
▁ማሸግ	-9.73959
po	-9.73967
ረክ	-9.73983
▁ደስታ	-9.74022
መልከ	-9.74057
▁ለሁሉም	-9.74069
vi	-9.7407
62	-9.74143
▁ስምምነት	-9.74202
▁አገኘ	-9.74253
▁የነበሩትን	-9.74259
gr	-9.74279
▁ከእስራኤል	-9.74293
▁እድገት	-9.74293
▁እኩል	-9.74306
▁ንባብ	-9.74327
ግቡ	-9.7439
les	-9.744
▁http	-9.74403
▁ያለበት	-9.74471
▁በማንኛውም	-9.74473
ጠል	-9.74505
▁የማይዝግ	-9.7452
▁የፈጠራ	-9.74569
▁አሳማሚ	-9.74631
▁የቀረበ	-9.74796
ኮች	-9.74818
▁ኮሌጅ	-9.74856
▁መለያዎች	-9.74895
79	-9.74923
▁ሙከራ	-9.74929
ሏቸው	-9.75003
▁ኤል	-9.75035
▁የሚፈልጉ	-9.75054
eng	-9.75064
▁ፕሮ	-9.75136
ጠብቅ	-9.75165
92	-9.75184
▁ግድግዳ	-9.75195
int	-9.75212
▁ያልሆነ	-9.75222
▁በሕይወት	-9.75285
ታዩ	-9.75288
91	-9.75353
',	-9.75363
▁ወጪ	-9.75377
▁ኩባንያዎች	-9.75387
▁ስፖርት	-9.75438
ቀላ	-9.7546
ኬት	-9.75494
ጠበቀ	-9.75511
▁ኢየሩሳሌም	-9.75648
▁አይችሉም	-9.75648
2019	-9.75651
▁አልባ	-9.75675
▁ስጦታ	-9.75676
▁አደረግን	-9.75688
▁ማስረጃ	-9.75736
▁የምንዛሬ	-9.75762
▁ቋንቋዎች	-9.75987
tor	-9.75989
ጆቹ	-9.7601
ቲክ	-9.7606
▁ለእስራኤል	-9.76104
▁መልክተኛውን	-9.7616
▁ተደርጓል	-9.76218
▁ከዚህም	-9.76301
አር	-9.76303
▁ሩሌት	-9.76333
▁እንዳት	-9.76427
▁መካከለኛ	-9.7646
▁ድል	-9.76494
ቀቅ	-9.76552
ቀረበ	-9.76559
▁አስደናቂ	-9.76562
▁ደቡብ	-9.76567
▁ፈጣሪ	-9.76578
ዕድ	-9.76601
▁you	-9.76613
▁ዳዊትም	-9.76773
▁ውጤታማ	-9.769
q	-9.76936
▁Me	-9.76958
▁አየሁ	-9.76986
US	-9.77007
▁ዓይን	-9.77025
▁FS	-9.77028
ster	-9.77187
82	-9.77233
▁በተጨማሪ	-9.7727
▁ያዕቆብ	-9.77368
="5	-9.7737
ጣራ	-9.77474
▁ጫማ	-9.77474
▁ጥሬ	-9.77592
ሞቱ	-9.77678
▁የሆነውን	-9.77705
ci	-9.77809
▁ተናገረ	-9.77832
ቆዩ	-9.77842
▁ሄ	-9.77873
▁ማሽኖች	-9.7795
ow	-9.77958
ጦች	-9.77968
ance	-9.77978
ጠፍ	-9.78011
ኢዮ	-9.78014
▁በነበሩት	-9.7807
▁ጄ	-9.78079
ሮቻቸው	-9.78114
▁ክፍያዎች	-9.78123
▁የተነሣ	-9.78127
+	-9.7816
ዘዝ	-9.78179
▁ጉብኝት	-9.78182
IS	-9.78283
ወርድ	-9.78389
▁እግር	-9.78447
ace	-9.78452
ke	-9.78547
lu	-9.7855
▁ጥረት	-9.78567
▁በአየር	-9.78572
▁ሰማ	-9.78586
▁የተጠበቀ	-9.78593
▁ገብ	-9.78694
▁ግብር	-9.78739
▁ኢየሱስም	-9.78756
▁የሕ	-9.78763
▁ማስታወሻ	-9.78766
▁ደህና	-9.7877
▁አዲሱ	-9.78862
▁ስብ	-9.78878
▁ሰሚ	-9.78882
▁ለመፍጠር	-9.78884
▁ተመልከት	-9.78886
ኪያ	-9.78924
▁ማያ	-9.78961
ፁ	-9.79001
▁ዕቅድ	-9.79002
ሰነ	-9.79005
▁ሳምንት	-9.7912
▁ርቀት	-9.79123
ev	-9.7919
መለከ	-9.79205
ገንዘብ	-9.79228
▁ተኳሃኝ	-9.79237
ተኞቹ	-9.79238
▁መሪዎች	-9.79346
▁ፈሳሽ	-9.79355
▁La	-9.79365
8"	-9.79376
ba	-9.79379
▁ቢሮ	-9.79413
cl	-9.79541
▁ፀረ	-9.79585
▁እናቀርባለን	-9.79591
▁አቅጣጫ	-9.79591
ባባ	-9.7976
▁አሉት።	-9.79772
94	-9.79823
ጠመ	-9.79832
▁ቱቦ	-9.79853
▁ለእርሱም	-9.79863
64	-9.79868
-5	-9.79963
▁ጭፍሮች	-9.80065
▁ያውቃሉ	-9.80068
▁ጫፍ	-9.80108
▁ይሆናሉ	-9.80184
ወዳ	-9.80186
▁is	-9.80197
ቃቸው	-9.80262
▁Casino	-9.80303
tr	-9.80334
በታል	-9.80347
▁ቁማር	-9.80349
ቅጣ	-9.80585
ፊዎች	-9.80672
▁ቀስ	-9.80727
▁ቅርጽ	-9.80734
▁መፍጠር	-9.80782
▁ጋዝ	-9.80784
ber	-9.80848
ወጥ	-9.80852
ዩናይትድ	-9.80881
▁ፓምፕ	-9.80903
ካሄድ	-9.80918
▁ከፋ	-9.80925
▁ይመጣል	-9.80941
▁Ar	-9.80946
ጠለ	-9.80985
▁ከምድር	-9.81023
▁ወጥ	-9.8103
ገዢ	-9.81052
▁የራሱ	-9.81066
▁አደረጉ	-9.81108
AC	-9.81131
mg	-9.8114
ዚህ	-9.81213
▁አስተዳዳሪ	-9.81322
out	-9.81364
▁በቅርቢቱ	-9.81381
▁ቀዳሚ	-9.81501
▁ቢኾን	-9.81551
tage	-9.81635
▁በተለይ	-9.8175
sk	-9.81779
ታዘዝ	-9.81805
port	-9.81837
▁ታች	-9.81848
▁90	-9.82046
▁የድር	-9.82051
▁እይታ	-9.82052
-20	-9.82081
ከተሉ	-9.82154
▁Pa	-9.82166
▁የፀሐይ	-9.82227
▁ይሁዳ	-9.82234
300	-9.82251
▁ላከ	-9.82347
ላፊ	-9.82429
▁ፎቶዎች	-9.82498
▁ይሰማ	-9.825
PC	-9.82567
አዋቂ	-9.82585
si	-9.82688
▁የእስራኤልን	-9.82855
▁ራስ	-9.82857
ass	-9.82869
▁ጆሮ	-9.82887
ነጻ	-9.8292
▁ሳን	-9.82941
▁ስነ	-9.82952
our	-9.82999
▁ጦርነት	-9.83022
አካባቢ	-9.83033
▁ኤሌክትሪክ	-9.83061
▁ይሄ	-9.83131
▁ወንድሞች	-9.83157
ወገ	-9.83252
▁ደቂቃ	-9.83257
▁በዚያን	-9.83293
▁ዘዴ	-9.83304
▁ሽልማት	-9.83326
ባዊ	-9.83333
▁USD	-9.83344
ዓለም	-9.83427
▁ተፈጥሯል	-9.83449
መልስ	-9.83519
▁መፍትሄ	-9.83572
▁ተሞክሮ	-9.83695
▁ባለብዙ	-9.83696
▁ሰባ	-9.83702
pr	-9.83725
ኀ	-9.83742
▁80	-9.83756
▁ጠራ	-9.8381
▁በተመሳሳይ	-9.83818
ስማማ	-9.83874
▁ጠጅ	-9.83919
▁2011	-9.83972
lic	-9.83992
ረዋል	-9.84019
sc	-9.84121
በረታ	-9.84192
ቀድሞ	-9.84227
▁ንብርብር	-9.84237
▁ቁቃፊ	-9.84313
▁ፊልም	-9.84354
ነዚያ	-9.84411
ከባቢ	-9.84416
▁የደህንነት	-9.84437
ኖራቸው	-9.84447
ነገ	-9.84472
▁አንዳች	-9.84628
▁አምላክህ	-9.84662
▁የተሰጠው	-9.84686
▁ጨርቅ	-9.84692
▁የፈጠረ	-9.84813
we	-9.84865
▁የወይን	-9.84869
$	-9.84909
br	-9.84988
ገጽ	-9.84998
84	-9.85023
ቴክ	-9.85076
nd	-9.85098
▁ያወጣ	-9.85145
▁ባንክ	-9.8516
▁ካርታ	-9.85169
▁Facebook	-9.85185
መቻ	-9.85202
▁ስትራቴጂ	-9.8531
▁በሰማይ	-9.85386
▁ጥፋት	-9.85422
▁ምስሎች	-9.85438
ሻሻ	-9.85511
▁ኀ	-9.85512
▁An	-9.85513
ዎቻችሁ	-9.85547
ቶቻቸውን	-9.85611
ሏል	-9.85631
▁ባላ	-9.85646
ሓ	-9.85686
ل	-9.85686
▁on	-9.85711
▁Play	-9.85725
han	-9.85799
▁አፈጻጸም	-9.85812
▁ድንኳን	-9.85812
ነጋገር	-9.85837
▁የሆነው	-9.85859
▁ያልሆኑ	-9.85867
▁ማለ	-9.85877
ዎቻችን	-9.85895
ጠሉ	-9.85899
▁Se	-9.85945
▁የእነዚያ	-9.85963
▁ፈጠራ	-9.8612
ታወቀ	-9.86129
▁ይምረጡ	-9.86191
ወረድ	-9.86239
▁፪	-9.86308
air	-9.86312
go	-9.86313
▁የነበረው	-9.86358
▁Le	-9.86423
ይቱም	-9.86429
▁መዋቅር	-9.86445
pp	-9.86463
ሚሜ	-9.86521
▁ሳኦል	-9.8657
▁የስፖርት	-9.86578
▁ይሠሩት	-9.86595
ቆይ	-9.86598
ቸውንም	-9.86683
▁በፍጹም	-9.86697
3.5	-9.8672
be	-9.86747
▁ጠባቂ	-9.86765
ተወሰነ	-9.86782
so	-9.86869
ቮ	-9.86949
ጣጣ	-9.86958
ነፋ	-9.86968
ደርገው	-9.8702
▁ሁለተኛው	-9.87031
▁pro	-9.87121
ቾች	-9.87147
ታውቁ	-9.87154
ብረት	-9.87169
ሏ	-9.87205
▁ማንኛውንም	-9.87207
▁ስትኾኑ	-9.87231
ox	-9.87274
▁ሮድ	-9.87296
▁አጠፋ	-9.87329
▁አግኝ	-9.87333
ا	-9.87334
▁ጉባኤ	-9.87375
▁እርም	-9.87409
ጠቀም	-9.87429
▁ገባ	-9.87432
▁ቢያንስ	-9.87494
▁AC	-9.87506
ins	-9.87531
-6	-9.87566
▁አዘጋጅ	-9.8757
▁ባህሪ	-9.87585
▁ቀኖች	-9.87623
▁ባትሪ	-9.87632
▁የአውሮፓ	-9.87698
▁iPad	-9.87847
SS	-9.87847
▁ውብ	-9.87851
ለፉ	-9.87915
EN	-9.87972
▁ወንጌል	-9.87975
ı	-9.87975
▁መንገ	-9.87992
tt	-9.88078
▁የሠራዊት	-9.88105
ጧ	-9.88118
▁ነው፡፡	-9.88298
▁አብዛኞቹ	-9.88362
▁በኾነ	-9.88375
ነዳ	-9.88387
ጽዋ	-9.88422
ዘጋጀ	-9.88431
ክሩ	-9.88455
▁እርግጠኛ	-9.8862
ጎች	-9.88634
▁እነሆም፥	-9.88649
▁አስፈራሪ	-9.88752
▁ገነቶች	-9.88758
▁የተለየ	-9.88763
ጨር	-9.88763
▁ሂ	-9.88799
▁ሕክምና	-9.88809
▁ቅንብሮች	-9.8888
ተደረገ	-9.88967
AL	-9.89035
▁ለእናንተም	-9.89097
day	-9.89101
▁ነገድ	-9.89105
▁፩	-9.89119
▁ወጣት	-9.89131
ሬት	-9.89135
▁300	-9.89137
ሼ	-9.89139
▁በተለያዩ	-9.89235
KV	-9.89261
▁ድርብ	-9.89287
▁ባንተ	-9.89327
▁ሲሉ	-9.89332
ነፃ	-9.89342
▁መስክ	-9.89368
ረፋ	-9.89379
▁Ad	-9.8941
▁አሳይ	-9.89437
ግብር	-9.89439
መጸ	-9.89446
83	-9.89471
▁የውስጥ	-9.89476
ob	-9.89479
▁ሥልጣን	-9.89508
▁ቧንቧ	-9.89531
oc	-9.89558
▁በራሱ	-9.89574
ወሩ	-9.89585
▁k	-9.89593
ጻፍ	-9.89697
ካይል	-9.89825
▁FX	-9.8984
▁አወጣ	-9.89877
ተባበ	-9.89913
▁Te	-9.89921
ነታቸው	-9.89967
ታወቅ	-9.89975
▁Br	-9.89978
▁መረጃዎች	-9.89978
▁አለመ	-9.89979
ለቀ	-9.90027
▁ሠ	-9.90044
መጽሐፍ	-9.9008
▁መልክተኞች	-9.90083
▁ተሸ	-9.90135
▁Free	-9.90218
▁ኮር	-9.90252
▁ላክ	-9.90381
▁ሞባይል	-9.9045
mi	-9.90461
▁የዕ	-9.90576
yl	-9.90587
▁ስትኾን	-9.90614
ጓዝ	-9.90645
▁አስቀ	-9.90681
ሊያ	-9.90697
▁ውስጣዊ	-9.90713
▁የአሁኑ	-9.90767
ፕሮ	-9.9079
▁ጌታቸው	-9.90805
▁ትርፍ	-9.9085
▁የማስ	-9.90886
ይዝ	-9.90958
▁በእነርሱም	-9.91
▁ብላ	-9.91028
ዋንም	-9.91168
▁ያገኛሉ	-9.91244
▁ከሌሎች	-9.91245
ቀረቡ	-9.91348
ራለን	-9.91379
▁ሚዛን	-9.91386
▁እውነታ	-9.9143
="1	-9.91478
▁ለርሱ	-9.91493
ንግድ	-9.91514
▁250	-9.91518
▁መልእክት	-9.9153
እንግሊዝ	-9.91639
▁ነገሥታት	-9.91699
▁ራሱን	-9.91726
▁ሰነዶች	-9.91778
▁አስመ	-9.9178
▁መብራት	-9.91784
ord	-9.91809
▁ያደርገዋል	-9.9191
▁ህዝብ	-9.92006
▁መኖር	-9.92035
▁ጓደኛ	-9.92051
▁ተመለሱ	-9.9211
▁ተቀባይነት	-9.92134
▁ከአላህም	-9.92144
▁ቅድሚያ	-9.92178
▁በናንተ	-9.92186
▁እርስዋም	-9.92217
▁con	-9.92259
▁ብዙዎች	-9.92262
ጀር	-9.9231
ኗ	-9.92311
▁ለመስጠት	-9.92314
ቻለ	-9.92376
▁Be	-9.92379
ፈለግ	-9.92387
▁በአላህና	-9.92424
▁ንቅሳት	-9.92447
EC	-9.92447
▁አካላት	-9.92483
ጥበብ	-9.92532
ዋለን	-9.9258
▁የጉዞ	-9.92583
ice	-9.92681
ዯ	-9.92716
kg	-9.92839
▁ቁር	-9.92841
▁የይሁዳ	-9.92851
▁አልተቻለም	-9.92851
ጀመረ	-9.92867
▁ፈርዖን	-9.92867
ear	-9.92971
▁በእነዚያ	-9.93013
▁መልዕክት	-9.9302
ሎጂ	-9.93035
▁ጠላት	-9.93059
▁ሂድ	-9.93101
ጸና	-9.93121
▁በይሁዳ	-9.93122
ማችሁ	-9.93152
af	-9.93236
ዑ	-9.93252
▁70	-9.93277
-0	-9.93325
▁ቍ	-9.93406
▁የመጣ	-9.93491
▁አውራ	-9.9352
▁ምዝገባ	-9.9353
▁አግባብ	-9.93535
ፖርት	-9.93536
▁36	-9.93638
አውስትራሊያ	-9.93665
▁2000	-9.93766
▁ባየ	-9.93817
▁የነበሩ	-9.93834
ሰማያትንና	-9.93846
▁እምላለሁ	-9.93937
▁ብክለት	-9.93937
▁ባዶ	-9.93942
ak	-9.93959
ፈለገ	-9.9399
ase	-9.93995
▁ቆዳ	-9.94021
▁የሙያ	-9.94024
▁ምሕረትን	-9.94109
0%	-9.94111
▁ቅርብ	-9.94193
▁ተጽዕኖ	-9.94211
▁ወዲያውም	-9.94224
ga	-9.94259
▁አገናኝ	-9.94272
▁To	-9.94291
▁ምስክር	-9.94334
▁ልውውጥ	-9.94348
ቋቋም	-9.94384
▁በጌታቸው	-9.94396
ቆራ	-9.94478
▁ወዲህ	-9.94486
▁ተማሪ	-9.94588
▁መከላከያ	-9.94639
ric	-9.94681
▁ዝግጁ	-9.9477
ርሱ	-9.94853
▁ክብ	-9.94909
▁እንደዚሁም	-9.94958
ለኝ	-9.94982
▁መሰረታዊ	-9.95174
▁ቁመት	-9.9518
▁ዩኒቨርሲቲዎች	-9.9521
▁በዓል	-9.95226
fi	-9.95308
▁ክወና	-9.95312
ps	-9.95354
ዋችሁ	-9.95393
sion	-9.9554
ock	-9.95577
▁እሷ	-9.95596
▁አጭር	-9.95613
▁መጥቶ	-9.95631
▁Hu	-9.95647
▁ሀያ	-9.95679
▁በሁለቱ	-9.95867
ላኩ	-9.9595
▁ዩክሬን	-9.96006
▁ጥልቅ	-9.96013
▁አስታውሱ	-9.96161
▁Vi	-9.96173
ኮር	-9.96262
▁Po	-9.96262
ነቃ	-9.96269
ፈልገው	-9.96277
▁Chapter	-9.96285
▁ደመና	-9.96288
▁አልላቸው	-9.96288
▁አብረው	-9.96299
▁እንስሳ	-9.96376
▁ቅድመ	-9.96426
▁45	-9.96488
sa	-9.96505
▁በአጠቃላይ	-9.96545
▁የተሰራ	-9.96558
ሑ	-9.96565
▁አውታረ	-9.96565
▁ሰራተኞች	-9.96567
bu	-9.96641
ish	-9.96664
ዒ	-9.96699
▁ውፍረት	-9.96706
▁ዜጎች	-9.96706
ቱንም	-9.96728
act	-9.96807
ኋቸው	-9.96817
▁ለማሻሻል	-9.96846
▁ከአንድ	-9.96995
ጠበ	-9.97034
▁የጦር	-9.97039
ron	-9.97101
ans	-9.97112
ጉር	-9.97136
▁ማነው	-9.97145
hu	-9.97252
▁ሕዝቡም	-9.97318
ስታን	-9.97402
ton	-9.9744
▁እድል	-9.97481
▁ቍርባን	-9.97551
ዊው	-9.97568
▁ዝም	-9.97577
ጠጡ	-9.97577
ቻለሁ	-9.97642
▁Sp	-9.97642
▁ኤች	-9.9767
▁ደግ	-9.9767
ሁ።	-9.9769
ኰ	-9.97693
▁የሚለው	-9.97707
▁ቢል	-9.97723
▁የተደረገ	-9.97728
ጣቸው	-9.97766
ዎታል	-9.97827
ማኅበ	-9.97832
▁በሌሊት	-9.97835
▁የመንጃ	-9.97847
▁ያዙ	-9.97851
ኤሌክትሮኒክ	-9.9795
ገዱ	-9.97976
▁የቪዲዮ	-9.97983
▁ተገዙ	-9.98071
▁የላቸውም	-9.98078
▁ወንድም	-9.98079
▁ኤክስ	-9.98101
sp	-9.98115
▁እሱን	-9.98166
▁Ethiopia	-9.98195
▁አመጸኞች	-9.98262
▁የህዝብ	-9.98355
▁ታላቁ	-9.98455
ጊያ	-9.98484
ran	-9.98499
▁ሙሴም	-9.98526
▁ፕሮጀክቶች	-9.98547
▁ታህሳስ	-9.98547
▁አስቀድሞ	-9.98595
ሯ	-9.98675
▁አስቸጋሪ	-9.9869
▁መሠረታዊ	-9.9869
▁ሶስት	-9.98735
ፖሊስ	-9.98794
▁ብሉ	-9.98835
ስታወ	-9.9885
line	-9.98854
▁የመኖሪያ	-9.98867
▁ስለሆነ	-9.989
ኤፍ	-9.98912
▁ካህኑ	-9.98979
▁የመረጃ	-9.99003
▁የለም።	-9.99054
▁ጓዶች	-9.99123
▁ናሙና	-9.99125
▁We	-9.99139
ተጨማሪ	-9.99231
▁በልቦቻቸው	-9.99264
▁መልአክ	-9.99264
▁ማጉያ	-9.99411
▁se	-9.99447
▁ዩሮ	-9.9945
TS	-9.99454
LE	-9.99455
▁33	-9.99526
▁አጋጣሚ	-9.99553
▁እውነቱ	-9.99556
▁አስቀምጥ	-9.99557
▁አመራር	-9.99561
ገባው	-9.99564
ችሁት	-9.99587
▁ቤተሰቦች	-9.997
▁ሚኒስትር	-9.99842
▁አሸናፊው	-9.99904
inter	-9.99931
▁መስመሮች	-9.99987
ec	-10
▁ልዩነት	-10.0003
ቶቹን	-10.0009
አንድ	-10.0012
▁ህይወት	-10.0015
▁የተመሠረተ	-10.0021
▁ቤተሰብ	-10.0022
ጎዳ	-10.0023
ጠብቁ	-10.0023
-12	-10.0026
▁የራስ	-10.0028
ial	-10.0038
ረሱ	-10.0045
▁ውጣ	-10.0046
▁ጀርመን	-10.0047
▁ቅጽ	-10.0048
▁የሚያሳ	-10.005
▁Microsoft	-10.0057
▁አድርገን	-10.0057
▁ምንጮች	-10.0057
▁ጕ	-10.0058
▁ተመን	-10.0065
ደርጋ	-10.0067
▁ግድ	-10.0068
ቃችሁ	-10.0068
▁በፊቱ	-10.0069
MA	-10.0071
▁Cl	-10.0073
▁ጥላ	-10.0082
ي	-10.0086
hen	-10.009
▁ኒው	-10.0096
ታለን	-10.0102
▁ጳውሎስ	-10.0103
ind	-10.0103
▁በእርሷም	-10.0104
▁ስልጣን	-10.0107
*	-10.0119
▁ተጠቃሚ	-10.0119
▁ከእናንተም	-10.012
▁በአውሮፓ	-10.0124
▁ያደረገው	-10.0126
▁Un	-10.0126
pf	-10.0129
ናል።	-10.0131
▁መርፌ	-10.0131
ሳዊ	-10.0132
▁መጠበቅ	-10.0133
▁ስራዎች	-10.0133
▁የእስራኤልም	-10.0133
for	-10.0135
ጀምር	-10.0138
▁ከሚያ	-10.0141
እዛ	-10.0143
▁ነቢዩ	-10.0145
▁አእምሮ	-10.0153
▁መልክተኛው	-10.0159
▁እንቅስቃሴዎች	-10.0166
▁ከነሱ	-10.0172
▁ቍጣ	-10.0173
▁ህክምና	-10.0174
▁የሙቀት	-10.0174
▁የእጅ	-10.0185
▁ቪዲዮዎች	-10.0186
▁ሞዴሎች	-10.0189
▁ጠፍቷል	-10.0189
▁Ba	-10.019
ገዳ	-10.0197
▁የፍቅር	-10.0204
ፈለ	-10.0209
▁125	-10.0215
ባሪ	-10.0216
ፕሮግራ	-10.0219
ወጣው	-10.0221
▁ምርጫዎች	-10.0225
▁ያለንን	-10.0225
ሸሹ	-10.0226
ings	-10.0226
▁መጽሐፉን	-10.023
▁የሕዝብ	-10.0234
▁መመለስ	-10.0236
▁ያጠ	-10.0239
ml	-10.0241
▁ይጠቀሙ	-10.0243
UR	-10.0245
▁ምቹ	-10.0246
▁የአምላክ	-10.0247
▁ውጪ	-10.0253
መጣላቸው	-10.0254
▁አልጋ	-10.0255
ጥረ	-10.0256
ሰበሰቡ	-10.0258
ስፖ	-10.026
▁ላክን	-10.026
▁ጨለማ	-10.0262
▁ፋይበር	-10.0263
▁ሰብ	-10.0265
form	-10.0277
ሳችን	-10.0278
ሁለት	-10.0289
ላችኋለሁ	-10.0292
ated	-10.0298
▁ህግ	-10.0299
▁አምሳ	-10.0301
ቨ	-10.0305
ሟል	-10.0305
መሳሰሉ	-10.0308
▁አድር	-10.0312
ያችን	-10.0316
ጠቁ	-10.0316
▁መላኪያ	-10.0323
▁ነቢያት	-10.0323
▁ሰዎቹ	-10.0327
▁በነጻ	-10.0332
ፍሬ	-10.0335
▁ተግባራት	-10.0338
▁ኢያሱ	-10.0338
▁34	-10.0347
▁ነፍሴ	-10.0353
▁He	-10.036
▁ጠላ	-10.036
▁ደቀ	-10.036
ts	-10.0362
▁ቅይጥ	-10.0368
ሁ፥	-10.0369
▁በደል	-10.0371
▁ለመሆን	-10.0371
ld	-10.0379
ue	-10.0381
ka	-10.0382
ya	-10.0383
▁በየቀኑ	-10.0383
▁ሙሳም	-10.0384
▁የነበረ	-10.0384
▁Tr	-10.0393
▁አሥር	-10.0398
▁እውነተኞች	-10.0398
▁ነፍሶቻቸውን	-10.0398
▁መሠዊያ	-10.0413
▁ከጌታህ	-10.0413
MP	-10.0416
▁ሚኒ	-10.0417
▁መለስ	-10.042
▁ዕጣ	-10.0422
OR	-10.0424
▁መመሪያዎች	-10.0424
▁Generator	-10.0428
▁በርሷ	-10.0429
▁የሌለው	-10.0431
ሰጣችሁ	-10.0433
▁ተለዋዋጭ	-10.0459
▁ይመስላል	-10.0459
▁ታይ	-10.0459
ስገድ	-10.0461
▁ቀኝ	-10.0472
ll	-10.0474
ick	-10.0475
▁ሙሴ	-10.0477
ሁለተኛ	-10.0479
ens	-10.0479
▁ካሬ	-10.0485
р	-10.0489
ፍጥ	-10.049
ID	-10.0497
vo	-10.0498
ep	-10.0502
▁እርምጃዎች	-10.0502
▁ተናጋሪ	-10.0505
700	-10.0505
ያለሁ	-10.0507
▁አንደኛ	-10.0508
መጠ	-10.0509
▁መድሃኒት	-10.0513
SP	-10.0514
ሎቹ	-10.0526
ፋቸው	-10.0531
▁አይደለሁም	-10.0535
▁ጦማር	-10.0535
▁እርሻ	-10.0537
ሃይማኖት	-10.054
tch	-10.055
ጳ	-10.055
▁ታውቃላችሁ	-10.055
▁ያስፈልጋል	-10.055
▁ይገኛሉ	-10.055
ሎቻቸው	-10.0551
▁ካለው	-10.0553
▁ለማረጋገጥ	-10.0553
▁Li	-10.0562
sta	-10.0574
▁ተከተሉ	-10.0578
መስል	-10.0579
▁ዓይኖች	-10.0581
ወለ	-10.0589
▁መለዋወጫዎች	-10.0593
ore	-10.0594
▁ሰዓታት	-10.0596
▁ያነሰ	-10.0597
▁መልሶ	-10.0603
ፈቃ	-10.0605
▁ያለፈ	-10.0609
▁የተነሳ	-10.0612
▁ጣዖታት	-10.0612
▁ምንዛሬ	-10.0612
▁ከእነዚህ	-10.0614
ተናል	-10.0617
ting	-10.063
gen	-10.0631
▁ኢኮኖሚ	-10.0633
▁ይግቡ	-10.0654
ያረጋግጡ	-10.0658
▁የበረራ	-10.0659
ሃት	-10.0661
▁ተጫዋቾች	-10.0674
▁እንጨት	-10.0679
▁በእያንዳንዱ	-10.0684
▁ለሚያ	-10.0687
▁እፈልጋለሁ	-10.0689
ፈለጉ	-10.0695
▁መቀመጫ	-10.0698
▁በማይ	-10.0699
▁ሥራዎችን	-10.0699
eb	-10.0699
▁የተጠ	-10.07
CO	-10.0715
▁ኃላፊነት	-10.0716
▁ርስት	-10.0723
▁ጠቅላይ	-10.0723
ደርሱ	-10.0731
ነበራችሁ	-10.0734
ቃጠል	-10.0734
▁መገለጫ	-10.0736
ጣሪ	-10.0747
▁ለውጦች	-10.0752
ES	-10.0755
ተዉ	-10.0766
▁ስደተኞች	-10.0767
▁ይቅር	-10.077
▁ምንንም	-10.0771
▁የለበትም	-10.0783
እና	-10.0788
ምሳሌ	-10.0789
ፈቀደ	-10.0791
▁የአፍሪካ	-10.0792
▁RFID	-10.0799
ከናወን	-10.0799
▁ማተሚያ	-10.0799
▁ሕዝቡን	-10.0803
▁ፔ	-10.0805
▁ደቂቃዎች	-10.0807
ምርጫ	-10.0816
▁ያግኙን	-10.0826
ደነገ	-10.0829
ማዊ	-10.0829
▁ፍርሃት	-10.083
▁የተፈጥሮ	-10.083
ቃይ	-10.0832
AP	-10.0834
▁እያሉ	-10.0839
▁ለማወቅ	-10.0845
▁የነበረውን	-10.0845
▁ሰሎሞን	-10.0846
▁በቅርቡ	-10.0846
▁ወዲያ	-10.0849
▁ተፈ	-10.0853
▁በባሕር	-10.0856
▁የሚቆጠሩ	-10.0856
ሸሸ	-10.0862
▁ቀር	-10.0866
ee	-10.0868
▁ይወ	-10.0876
ፕላ	-10.0876
ፐር	-10.0876
use	-10.0876
▁ማሸጊያ	-10.0877
с	-10.0877
▁ለስላሳ	-10.0877
▁ሳይንሳዊ	-10.0877
ark	-10.0878
ገናኘ	-10.0879
ገሥ	-10.0879
▁የሚፈ	-10.0885
▁መምረጥ	-10.0893
▁ምድቦች	-10.0893
box	-10.0902
IT	-10.0904
▁HP	-10.0909
▁ተመልካች	-10.0909
ታችሁን	-10.0911
ሺህ	-10.0911
▁ካር	-10.0922
ፈሩት	-10.0923
▁የምርምር	-10.0925
▁በደቡብ	-10.0925
ea	-10.0925
▁በሥራ	-10.0927
መሆኑ	-10.0931
▁ዘዴዎች	-10.0934
ler	-10.0934
ቿ	-10.0941
ኼ	-10.0957
▁ብቸኛ	-10.0957
ዶቹ	-10.0958
▁የሠሩ	-10.096
ድሩ	-10.0962
ሄደ	-10.0967
ዕራ	-10.0969
▁ኮሚቴ	-10.0973
gu	-10.0974
ቋል	-10.0977
▁ወጣቶች	-10.0977
ሥር	-10.0978
▁ሹ	-10.0985
▁ዲሲ	-10.0985
ዎርድፕረስ	-10.0989
▁በውስጣቸው	-10.0989
▁ወገኖች	-10.0989
▁አላችሁ	-10.0989
▁አካባቢዎች	-10.099
▁ተሰኪ	-10.1001
▁የልብ	-10.1008
▁አምባ	-10.1008
ግዱ	-10.1009
▁Rikoooo	-10.1021
▁መፍትሔ	-10.1022
iz	-10.1023
ነገር	-10.1024
son	-10.1025
▁ma	-10.1025
▁የሆኑት	-10.1031
▁የእግዚአብሔርም	-10.1032
ጓደ	-10.1034
▁ስታ	-10.104
ng	-10.104
▁አለች	-10.105
▁ያጠፋ	-10.1051
▁ተዓምር	-10.1053
▁ራስን	-10.1071
ጎድ	-10.1078
ጠብ	-10.1083
▁በመስጠት	-10.1086
ተሮች	-10.109
ማሩ	-10.1093
▁የሚኖሩ	-10.1095
ፖለቲካ	-10.1096
▁ሣጥን	-10.1102
▁በሌሎች	-10.1102
ጌታ	-10.1109
▁Con	-10.1111
▁ባህላዊ	-10.1113
▁th	-10.1116
ግሬ	-10.1118
▁ሻጋታ	-10.1118
▁አብሮ	-10.1121
▁IP	-10.1125
▁sp	-10.1126
▁ከሰዎች	-10.1127
▁ዝናብ	-10.1127
አገልግሎ	-10.1129
▁ዝግጅት	-10.1133
በደሉ	-10.1134
▁ከንቱ	-10.1135
ዘጋጁ	-10.1136
ቆር	-10.1137
በደለ	-10.1141
▁ብስክሌት	-10.1144
▁ፎ	-10.1145
▁የሞተር	-10.1146
ust	-10.1147
▁አሳልፎ	-10.115
▁ምንድር	-10.115
▁ለማቅረብ	-10.1154
ff	-10.1156
ert	-10.1165
▁መዳረሻ	-10.1167
▁ተቆጣጣሪ	-10.1167
▁መታወቂያ	-10.1167
▁መስካሪ	-10.1167
▁የቻይና	-10.1168
▁ጭነት	-10.1171
▁ጎማ	-10.118
CL	-10.1183
▁ይባላል	-10.1183
ተገለጸ	-10.1184
▁ምድብ	-10.1185
▁በቤት	-10.1186
▁አሮን	-10.1187
▁የትኛው	-10.1187
▁አድርገዋል	-10.1199
fr	-10.1199
▁መስራት	-10.1199
▁ፋይሎች	-10.1199
▁ለሴቶች	-10.1199
▁ፓርክ	-10.12
▁እዝነት	-10.12
▁ዩኒቨርስቲ	-10.1204
ሚክ	-10.1208
▁ጀርባ	-10.1208
▁ዮሐንስ	-10.1208
▁Su	-10.1208
አል።	-10.1212
▁ሺ	-10.1212
▁ሥራዎች	-10.1215
▁ፋንታ	-10.1216
▁→	-10.1217
▁የሚወ	-10.1218
▁አውራጃ	-10.1235
▁$1	-10.1236
▁ተወዳጅ	-10.1248
ገጠ	-10.1251
tu	-10.1261
ለወጥ	-10.1262
▁የአካል	-10.1265
▁ነገሮችን	-10.1265
600	-10.1266
ወስ	-10.1281
▁ልጆቹ	-10.1284
ከታተል	-10.1287
ሰዋል	-10.1288
▁እስክ	-10.1288
ny	-10.1289
መላክ	-10.129
▁ሚኒስቴር	-10.1298
▁ኃይለኛ	-10.1298
▁አውሮፕላኖች	-10.1298
▁ሙታን	-10.1298
▁ለእነሱም	-10.13
▁ራሱ	-10.1304
400	-10.1311
▁[...]	-10.1314
▁webmail	-10.1314
▁ለመቀነስ	-10.1314
▁ዓይነቶች	-10.1331
▁Ha	-10.1332
▁በረራ	-10.1344
▁ሲቀር	-10.1346
ስትሮ	-10.1347
▁ነጥቦች	-10.1347
▁የቀጥታ	-10.1348
▁የወርቅ	-10.1349
ary	-10.1349
▁ማዕ	-10.1351
ተኩ	-10.1351
▁ባሪያዎች	-10.1352
ፈላ	-10.1352
ጣችሁ	-10.1354
▁አርባ	-10.1356
▁co	-10.1366
RA	-10.1368
che	-10.1373
▁ጌታህም	-10.1377
▁ሆነ፤	-10.1378
▁እያለ	-10.1379
▁የተንቀሳቃሽ	-10.1382
▁ነበረች	-10.1383
ari	-10.1383
▁የተሰጠ	-10.1395
ስተዋ	-10.1396
▁የሞባይል	-10.1397
▁ሆኗል	-10.1397
▁በሁለት	-10.1398
▁ከእነሱም	-10.1401
▁ቅጂ	-10.1401
▁ከዘ	-10.1402
▁የኢኮኖሚ	-10.1404
▁ሴሜ	-10.1405
መዝገብ	-10.1408
▁እንክብካቤ	-10.1414
▁ፓስፖርት	-10.1414
▁ሦስተኛ	-10.1414
▁Fi	-10.1422
cy	-10.1425
▁እንችላለን	-10.1431
▁ቆንጆ	-10.1431
▁ክፋት	-10.1432
▁ኃላፊ	-10.1435
፬	-10.1448
ቦር	-10.1448
ታለሁ	-10.145
▁ለመጀመሪያ	-10.1452
▁አጋር	-10.1455
▁ፍጻሜ	-10.1464
▁ዘጠኝ	-10.1464
▁መጠጥ	-10.147
▁ሕዝቡ	-10.1471
ger	-10.1472
▁እንደሚቻል	-10.1473
▁ስጋ	-10.1474
▁ይሆናል፤	-10.1474
▁So	-10.1478
▁ጠብ	-10.1479
tal	-10.1479
▁ኀጢአት	-10.1481
land	-10.1481
▁የሴቶች	-10.1482
over	-10.1483
du	-10.1489
▁ለፊት	-10.1493
▁Holm	-10.1498
▁ሸለቆ	-10.1498
▁Pl	-10.1502
▁ልጄ	-10.1504
800	-10.1504
ሰጠናቸው	-10.1508
▁ለመጠበቅ	-10.151
▁ዳር	-10.1512
ain	-10.1519
ደቀ	-10.1524
ware	-10.1526
▁የኦሪጂናል	-10.1532
▁2009	-10.1534
▁እርስዋ	-10.1543
በልጥ	-10.1544
▁ትብብር	-10.1549
ዎቻቸውን	-10.1551
ዞር	-10.1552
ነቅ	-10.1553
▁የዓ	-10.1559
በቀል	-10.1563
ium	-10.1565
▁ክለሳ	-10.1566
do	-10.1567
ቃለ	-10.1567
▁ዘመ	-10.1571
▁የጊዜ	-10.1582
▁ዓመታዊ	-10.1583
▁የተጻፈ	-10.1583
▁የአንድ	-10.1585
ከበሩ	-10.1593
old	-10.1597
▁ወሳኝ	-10.16
work	-10.1601
▁የሚለውን	-10.1601
▁የተዘጋጀ	-10.1605
▁በመልካም	-10.1605
ሁኑ	-10.1606
▁እውነትን	-10.1607
▁እናመሰግናለን	-10.1617
፭	-10.1617
▁ዮ	-10.1621
▁j	-10.1622
ወደደ	-10.1628
▁ዚፕ	-10.1634
▁Di	-10.1638
▁በመስመር	-10.1648
zhou	-10.1651
▁ሰይፍ	-10.1651
▁ሙሴን	-10.1652
▁ጥቃት	-10.1653
▁የመጨረሻው	-10.1664
▁ፕሬዚዳንት	-10.1668
▁ይጠይቁ	-10.1675
ለታል	-10.1676
▁ሰማያት	-10.1676
ሠራው	-10.1683
CC	-10.1684
▁መንግስታት	-10.1685
▁በማሳየት	-10.1685
▁የሽቦ	-10.1687
▁ከናንተ	-10.1687
HS	-10.1688
▁00	-10.17
▁መዛሙርቱ	-10.1702
▁መብራቶች	-10.1702
▁እውቅና	-10.1703
▁ወደሚ	-10.1709
ጨመር	-10.1709
▁አስተዋ	-10.1709
ንቀሳቀስ	-10.1713
▁የሰጠ	-10.1714
▁ስርጭት	-10.172
▁በግል	-10.172
vel	-10.1723
▁ባለፉት	-10.1726
▁ድብ	-10.1726
ስተካከ	-10.173
▁የተመሰረተ	-10.1731
ጎል	-10.1733
▁ሠሪዎች	-10.1738
ፐ	-10.1738
ct	-10.1739
▁Amharic	-10.1743
SA	-10.1743
▁አላህንና	-10.1756
▁ቆመ	-10.1757
▁ፈረንሳይ	-10.1759
▁ሰጠነው	-10.1761
RE	-10.1763
ገደሉ	-10.1766
ዟ	-10.1771
▁የእንጨት	-10.1771
ክሊ	-10.1777
0.3	-10.1781
bi	-10.1781
EL	-10.1783
ሸሽ	-10.1786
▁Psychic	-10.1789
▁ህዳር	-10.1789
ቻቸውን	-10.1789
ታላችሁ	-10.179
ማርያም	-10.1792
▁SP	-10.1806
▁አድራጊ	-10.1806
wi	-10.181
▁በአንድነት	-10.1815
▁ስቴት	-10.182
▁SWGoH	-10.1823
▁ካዋሳኪ	-10.1823
▁ይኖራል	-10.1824
ሂድ	-10.1825
▁ገዥ	-10.1825
ሶቻቸው	-10.1829
▁ሩቅ	-10.1835
▁Pr	-10.1839
▁ከእነዚያ	-10.1843
▁ch	-10.1845
▁አባቱ	-10.1848
▁ዮሴፍ	-10.1858
▁ግንዛቤ	-10.1858
ሸፍ	-10.1865
▁·	-10.1867
▁ብዙውን	-10.1868
▁የአገልግሎት	-10.1877
▁የሚያደርግ	-10.1879
▁Bo	-10.1883
cr	-10.19
tter	-10.1905
መቃብር	-10.1911
▁Wi	-10.1916
▁የጥራት	-10.1917
▁ሳያ	-10.1919
▁ቢኖር	-10.1921
ወለድ	-10.1923
ኒክ	-10.1927
▁ልጆቻቸው	-10.1928
▁የባለሙያ	-10.1928
▁የቪዛ	-10.1929
ዞች	-10.1932
2017	-10.1933
ey	-10.1933
▁ለእርስዎ	-10.1936
▁ጀመረ	-10.1938
ቸር	-10.1939
▁የመጡ	-10.194
▁የሚገኝ	-10.194
▁ስምንት	-10.1945
que	-10.1947
▁እዚያ	-10.1954
▁በውጭ	-10.1956
▁ጊ	-10.1957
ሸከም	-10.1958
▁የሌለ	-10.1959
▁እሱም	-10.1961
ጀመሩ	-10.1962
▁ሙዚቃ	-10.1964
▁ሰንሰለት	-10.1964
▁የማዕድን	-10.1964
▁የሙከራ	-10.1967
▁ተነሣ	-10.197
▁Gr	-10.1971
▁ከቤት	-10.1974
▁ሚና	-10.1978
▁ሾ	-10.198
፻	-10.1981
▁with	-10.1981
ets	-10.1991
rr	-10.1991
▁Fl	-10.1995
app	-10.1996
▁አጋዥ	-10.1999
▁120	-10.1999
▁ሥነ	-10.2002
▁En	-10.2007
▁ነህና	-10.2009
4.5	-10.2012
▁Capacitor	-10.2017
አንተ	-10.2028
▁ዲያሜትር	-10.2034
▁ግዙፍ	-10.2035
▁ሙያዊ	-10.2038
="6	-10.2043
ለት።	-10.2044
ሁ፤	-10.2051
▁በሚል	-10.2051
ፈዋል	-10.2054
ok	-10.2055
ኋችሁ	-10.2055
▁የተወረደ	-10.2058
▁በማሽን	-10.2059
▁ሙቅ	-10.2065
▁ፀ	-10.2067
▁ማዘጋጀት	-10.207
▁ጦር	-10.2084
▁የሚሆኑ	-10.2084
አሜሪካ	-10.2085
▁አስደሳች	-10.2088
ከለክ	-10.2093
▁`	-10.2098
ወሳ	-10.2101
ame	-10.2102
▁አባቴ	-10.2103
▁Bonus	-10.2106
▁ጴጥሮስ	-10.2106
▁ለማዘጋጀት	-10.2106
ማስተማር	-10.2107
▁ወንጀል	-10.2108
▁አንቺ	-10.2109
ተፈጸመ	-10.2109
▁መለዋወጫ	-10.211
▁ጥቂትን	-10.2111
ah	-10.2121
▁Honda	-10.2124
▁የይለፍ	-10.2124
▁ማንበብ	-10.2125
▁ኮርስ	-10.2126
▁ለመጠቀም	-10.2134
▁የተለመደ	-10.214
ቆጠ	-10.2141
▁ምእምናን	-10.2142
ن	-10.2142
▁በታላቅ	-10.2142
ወላጆች	-10.2142
▁ወሰደ	-10.2146
▁መሄድ	-10.215
ፕሬ	-10.2151
▁የቀረቡ	-10.2158
▁ከጌታችሁ	-10.216
ታወቁ	-10.2162
▁ባዩ	-10.2162
▁ልቦች	-10.2169
ትክክለኛ	-10.2171
ik	-10.2172
Coin	-10.2173
▁ኢብራሂም	-10.2178
▁እንግሊዝኛ	-10.2178
-9	-10.2184
▁አያያዝ	-10.2185
▁ነቢይ	-10.2187
▁ክስተት	-10.2196
▁ያሳያል	-10.2196
▁Al	-10.2196
fer	-10.2208
▁ተቀብ	-10.2209
ለህ።	-10.2209
ፋብሪካ	-10.221
م	-10.2214
▁እንድን	-10.2223
ጠበቁ	-10.2228
HA	-10.223
▁ጩኸት	-10.2232
▁ድርጊት	-10.2232
ነበር	-10.2237
▁ተቀባይ	-10.2241
OB	-10.2244
con	-10.2244
ጋሩ	-10.2245
▁አለኝ	-10.2247
ኚ	-10.225
▁ንዑስ	-10.225
ጠቃ	-10.2252
▁ገጽታዎች	-10.2255
ush	-10.2256
1.1	-10.2264
▁Ho	-10.2267
▁ስርዓቶች	-10.2268
▁የክፍያ	-10.2268
▁ለማውረድ	-10.2268
▁ክፍለ	-10.2272
▁ቡና	-10.2274
ኤምኤ	-10.2274
▁ጽኑ	-10.2276
1.0	-10.2278
▁ክፍ	-10.2285
ug	-10.2286
ተቃራኒ	-10.2287
▁ማውረድ	-10.2287
▁መግዛት	-10.2287
▁አያስ	-10.2291
▁ተዘ	-10.2293
▁ኮከብ	-10.2293
ደረሱ	-10.2297
▁በጎች	-10.2307
ወገድ	-10.2311
▁ወደእርሱ	-10.2325
▁በስተ	-10.2328
ዷል	-10.2328
▁Da	-10.2328
ሳሳቱ	-10.2331
0.2	-10.2332
ጠየቀ	-10.2334
▁የሚሠራ	-10.2336
ያምኑ	-10.2338
ኸኝ	-10.234
▁የሚያስችል	-10.2342
ድህረ	-10.235
▁ዝና	-10.2354
ier	-10.2355
▁ሆቴል	-10.236
las	-10.2363
▁2008	-10.2365
▁መለኪያ	-10.2365
▁አስተባበሉ	-10.2366
▁ዲጂታል	-10.2369
TO	-10.2371
ረቡ	-10.2373
ሰፋ	-10.2373
መሰግኑ	-10.2378
ይዙ	-10.238
duct	-10.2381
▁እንስሳት	-10.2383
▁መግለጫዎች	-10.2385
▁your	-10.2391
ፊቱ	-10.2391
ek	-10.2395
ክፍል	-10.2399
-7	-10.2407
▁Mobile	-10.2415
▁ምናባዊ	-10.2415
▁ብለዋል	-10.2417
▁ዩናይትድ	-10.2418
አንዱ	-10.2427
▁400	-10.2434
▁ላንተ	-10.2434
wa	-10.2439
ከታተ	-10.2443
av	-10.2451
ys	-10.2453
እነርሱ	-10.2455
MS	-10.2459
tri	-10.2467
▁መክፈት	-10.247
▁ለሰው	-10.2473
ቆጥ	-10.2473
▁ውበት	-10.2475
ስፋፋ	-10.2477
NG	-10.2478
▁ይቅርታ	-10.248
ቀሩ	-10.2484
▁Phone	-10.2489
▁የባህር	-10.2489
▁ጽድቅ	-10.2489
ጠየቁ	-10.2491
ors	-10.2493
-11	-10.2501
▁የተቋቋመ	-10.2502
ረዘ	-10.2504
▁ከእንግዲህ	-10.2508
▁የአትክልት	-10.2508
▁ሮለር	-10.2508
▁ማስገባት	-10.2508
ወላጅ	-10.2512
▁ቀጠ	-10.2517
▁የሚሰራ	-10.252
ሚዎች	-10.2521
▁ይሁኑ	-10.2523
ጠፈ	-10.2523
▁ኤሮ	-10.2524
▁መርከቦች	-10.2526
▁ሀሳብ	-10.2527
▁ምርኮ	-10.2527
ጥቁር	-10.2534
ics	-10.2539
▁ክስተቶች	-10.2545
ጥራት	-10.2549
▁በእነዚህ	-10.2549
ዷ	-10.255
ጠየቅ	-10.2554
ሪያዎች	-10.2554
▁የተወሰኑ	-10.2557
▁መለሰ	-10.2564
ኖቹ	-10.2566
ተካሄደ	-10.2567
▁ባህል	-10.2568
መልሱ	-10.2572
▁ብትኾኑ	-10.2573
ner	-10.258
▁ረዳቶች	-10.2584
፩	-10.2585
ፈርድ	-10.259
▁መዘ	-10.2596
▁በአሜሪካ	-10.2598
ምእመናን	-10.2601
▁ማጠራቀሚያ	-10.2601
▁የፓ	-10.2603
▁በመላው	-10.2605
▁ፖሊ	-10.2607
ካዊ	-10.2614
ጀርመን	-10.2615
▁አልፎ	-10.2615
0.8	-10.2615
ቤቶች	-10.2618
ሕል	-10.262
▁የሩሲያ	-10.262
ገናኝ	-10.2626
ዘነ	-10.2634
▁መላው	-10.2635
▁ዘላቂ	-10.2639
▁ምግቦች	-10.2639
▁ጥርስ	-10.264
▁ጥናቶች	-10.264
ራቸውም	-10.2642
▁ያስቀ	-10.2644
ሯል	-10.2644
ሰላማዊ	-10.2645
ki	-10.2648
▁ሊቀ	-10.2649
ወንጀ	-10.2649
▁ታሪካዊ	-10.2658
መግለጽ	-10.2658
▁ተጋሪ	-10.2661
▁አወረደ	-10.2661
ቡድ	-10.2674
▁ዘገባ	-10.2675
ተላለፍ	-10.2675
ጠባበቅ	-10.2677
▁cryptocurrency	-10.2678
▁በመለያ	-10.2679
CAD	-10.2679
▁በዳዮች	-10.2684
▁ለጌታ	-10.2692
▁ሚያዝያ	-10.2696
▁ይወስዳል	-10.2696
▁በደንብ	-10.2696
ቲቱ	-10.2699
ዚሁ	-10.2703
▁ማምረት	-10.2715
▁ስኬት	-10.2718
ድስት	-10.272
ጫወት	-10.2723
▁መሙያ	-10.2735
▁ኮርሶች	-10.2736
0.00	-10.2738
ለን።	-10.2738
ነገሩ	-10.2742
The	-10.2744
▁ንጥረ	-10.2747
እንግዳ	-10.275
▁ምዕራፍ	-10.2753
▁እቃዎች	-10.2754
▁እጁን	-10.2756
ect	-10.2757
ለመደ	-10.2761
▁አብዛኛዎቹ	-10.2772
▁የፓይፕ	-10.2772
▁ሰሌዳ	-10.2772
▁አያውቅም	-10.2772
▁መዝገብ	-10.278
▁መጽ	-10.2783
▁ሲሆኑ	-10.2785
▁ተመሠረተ	-10.2786
ሞከር	-10.2786
ነገረ	-10.2787
ብራራ	-10.2789
▁For	-10.2793
ON	-10.2793
ker	-10.2798
▁ወጥቶ	-10.2806
▁አማኞች	-10.2811
▁600	-10.2813
▁ከሆኑ	-10.2813
▁ብለህ	-10.2816
አዲስ	-10.2828
▁መቅደስ	-10.283
▁ትንቢት	-10.283
▁ደካማ	-10.283
▁በየዓመቱ	-10.283
▁የሕግ	-10.2833
ኡ	-10.2841
ib	-10.2845
▁Fe	-10.2846
▁Qu	-10.2847
▁የኾኑት	-10.2847
ኖራ	-10.2848
OS	-10.2848
ኽ	-10.2848
▁መክተቻዎች	-10.2849
▁ሥልጠና	-10.2849
▁ال	-10.2849
▁ሰሜን	-10.2851
▁መንገዱ	-10.2858
▁የመሬት	-10.286
▁የልጆች	-10.2871
▁ለመከላከል	-10.2871
▁አጽ	-10.2872
መጣላችሁ	-10.2876
▁38	-10.2877
3.0	-10.2881
the	-10.2882
▁የኾነች	-10.2882
ተወ	-10.2883
aw	-10.2884
ለግሱ	-10.2885
▁በተለይም	-10.2887
▁መስፈርት	-10.2888
▁ፀጉር	-10.2888
▁ማውጫ	-10.2889
ተከተለ	-10.2889
▁Sa	-10.2894
▁የማያውቁ	-10.2899
▁አብዛኞቻቸው	-10.2907
ማሻሻያ	-10.2907
▁ሌዘር	-10.2908
▁ቁርኣንን	-10.2917
▁የመንገድ	-10.2922
▁ማመን	-10.2922
▁ጣፋጭ	-10.2926
▁ማህበር	-10.2927
▁am	-10.2929
1.2	-10.294
▁1.5	-10.2944
▁Service	-10.2946
view	-10.2947
ዓመት	-10.295
አካባቢያዊ	-10.295
PF	-10.2952
▁ሰነድ	-10.2956
▁ይጫኑ	-10.2965
▁ተከተል	-10.2969
▁ምትክ	-10.2971
▁የተፈጠረ	-10.2972
▁ማከማቻ	-10.2972
ED	-10.2981
ወዱ	-10.2983
▁ልቦቻቸው	-10.2985
▁ሰዓቶች	-10.2985
▁ለነርሱ	-10.2985
ነባ	-10.2986
▁ማዕከላዊ	-10.2988
▁we	-10.2996
ጨት	-10.2997
RO	-10.2998
መንግስት	-10.3
▁ሽማግሌዎች	-10.3001
▁ደረቅ	-10.3007
▁ሚዲያ	-10.3009
▁ከሁለቱ	-10.3024
▁ወዴት	-10.3024
▁መስኮት	-10.3025
ጠራችሁ	-10.3029
▁ዩኒቨርሲቲው	-10.303
log	-10.3031
ነሡ	-10.3033
ጠይቃ	-10.3036
PP	-10.3043
በይነመረብ	-10.3044
▁መታጠቢያ	-10.3044
▁አንዴ	-10.3054
▁መጥተው	-10.3055
hy	-10.3056
እንደ	-10.3058
▁በውኑ	-10.3059
መፅ	-10.3063
▁እጆቻቸው	-10.3063
▁Mar	-10.3064
▁ውስጠ	-10.3064
▁ለሽያጭ	-10.3065
▁ይሰራል	-10.3065
ችኋቸው	-10.3065
▁የቤተሰብ	-10.3073
ትምህርት	-10.3074
▁ሚያዚያ	-10.3083
▁በቁማር	-10.3083
▁አደርጋለሁ	-10.3084
▁ለሚሻው	-10.3089
በኞች	-10.3089
▁ልብሶች	-10.3091
lar	-10.3093
▁ተራራዎች	-10.3093
▁አግድ	-10.3094
▁ደንቦች	-10.3103
ከመ	-10.3105
▁ቆሻሻ	-10.3105
▁አወረድን	-10.3105
ተሻሻለ	-10.3107
▁ግራጫ	-10.3114
▁በሐ	-10.3117
▁ከሓዲዎችን	-10.3121
▁በሰይፍ	-10.3123
▁የጅምላ	-10.3123
▁ተነሥ	-10.3134
ገደል	-10.3135
▁ስኬታማ	-10.3143
▁አይሁድ	-10.3143
፪	-10.3144
▁የጎማ	-10.3146
ልሃል	-10.3146
አምላክ	-10.315
heng	-10.3155
▁Ac	-10.3164
▁Star	-10.3167
▁ገደብ	-10.3168
ake	-10.3169
አቸው።	-10.3171
ven	-10.3179
gi	-10.318
DS	-10.3181
▁የተረጋገጠ	-10.3182
▁ተቀመጡ	-10.319
ጠይቁ	-10.3193
ፈጠሩ	-10.3198
-200	-10.3203
▁የብር	-10.3204
▁ዘርፍ	-10.3205
▁ከታች	-10.3208
▁መኾናቸውን	-10.321
▁የተጠቃሚ	-10.3211
▁ነበረ፥	-10.3212
ሊዮ	-10.3214
ዘጋ	-10.3216
▁ወስ	-10.3218
▁Lo	-10.3221
▁መዝሙር	-10.3222
▁ታይቷል	-10.3225
▁ማስታወቂያዎች	-10.3229
▁Th	-10.323
▁ሰጪ	-10.3235
▁37	-10.3237
▁የሚሰጡዋቸውን	-10.3242
▁አመት	-10.3249
▁አለበት።	-10.3249
▁በምድረ	-10.325
ዓይን	-10.325
-30	-10.3251
▁ኢትዮጵያውያን	-10.3254
▁መጫን	-10.3256
ዩኤስ	-10.3258
ኮሩ	-10.3258
ies	-10.3258
▁የደም	-10.3258
▁ስዕሎች	-10.3262
▁ይሰጣሉ	-10.3263
▁በይፋ	-10.3267
CE	-10.3268
ኮል	-10.3269
▁ሃይማኖ	-10.327
ዢ	-10.3276
ሸጥ	-10.3278
pcs	-10.3283
dr	-10.3288
ገራችን	-10.3289
6.5	-10.3292
ስልጣን	-10.3294
▁ኢትዮጵያዊ	-10.3301
▁ይጎብኙ	-10.3303
▁መገናኛ	-10.3307
ጠቅላላ	-10.3309
▁ነገሩን	-10.3322
▁ፕሮፌሰር	-10.3323
▁በግብፅ	-10.3323
▁የሚሆነው	-10.3325
▁ሐሳብ	-10.333
▁የገበያ	-10.3336
▁ቀረ	-10.3337
▁ዐዋቂው	-10.3341
▁ስብስቦች	-10.3343
▁CSGO	-10.3343
▁አካላዊ	-10.3345
ቶቼ	-10.335
▁ነበሩ፤	-10.3355
▁ደንበኛ	-10.3361
ዴስክቶፕ	-10.3363
▁ክትትል	-10.3363
▁መልካሞች	-10.3364
▁አባቶቻችን	-10.3366
▁ከሰው	-10.3374
▁ሙሐመድ	-10.3384
▁ጥርጣሬ	-10.3384
pt	-10.3385
ካቸው	-10.3385
ረኞች	-10.3391
▁ሆንሁ	-10.3395
አል፤	-10.3397
ach	-10.3403
▁ኢነርጂ	-10.3404
▁የቅርቢቱ	-10.3404
▁በመጨረሻው	-10.3406
ሰብአዊ	-10.3407
▁ዞን	-10.3412
▁ሜዳ	-10.3418
▁የዩኒቨርሲቲ	-10.342
ሚከተለው	-10.3423
▁አንባቢ	-10.3425
ቀላቀል	-10.3425
▁ብድር	-10.3425
ግገዛ	-10.3429
▁በአዲስ	-10.3433
▁የተገነባ	-10.3438
ችኋልና	-10.3439
▁ተናገሩ	-10.3439
ፈረሰ	-10.344
▁በነሱ	-10.344
pi	-10.3441
RS	-10.3442
▁48	-10.3444
መለሰ	-10.3448
▁@	-10.3453
ገበያ	-10.3455
ating	-10.3459
ort	-10.3461
▁ሳሉ	-10.3462
ቴሌቪዥን	-10.3465
▁ምድሪቱ	-10.3465
▁86-	-10.3466
▁ለዘ	-10.347
zip	-10.3472
▁ከፈለጉ	-10.3473
▁አለኝ።	-10.3474
▁ፈርዖንም	-10.3484
▁ቶን	-10.3484
▁ንግሥና	-10.3486
▁ከማይዝግ	-10.3486
ዘወትር	-10.3486
▁ራእይ	-10.3486
▁ሚስቱ	-10.3489
▁AM	-10.349
▁ኩባንያው	-10.3499
▁tr	-10.3502
▁ለመድረስ	-10.3507
▁ወቅታዊ	-10.3507
ደሩ	-10.3511
ከበር	-10.3517
▁ደስተኛ	-10.3518
▁Bu	-10.352
ታላቁ	-10.3521
▁ውሸትን	-10.3521
እኛ	-10.3522
▁±	-10.3522
▁የሰብአዊ	-10.3524
▁ቆይቷል	-10.3527
▁ረገድ	-10.3532
▁ባለፈው	-10.3539
▁መጻሕፍት	-10.354
▁ለመርዳት	-10.3548
▁ሠራዊት	-10.3548
▁የሕይወት	-10.3549
ix	-10.355
ታመን	-10.3551
ተቋቋመ	-10.3554
-19	-10.3555
▁ያመነ	-10.3559
▁ቀዝቃዛ	-10.3569
▁ቻርተር	-10.3569
▁ሠላሳ	-10.3569
▁Min	-10.3573
▁በመሆን	-10.3577
CS	-10.3578
▁ጥራ	-10.3578
▁ቅጥር	-10.3578
▁ጠላቶች	-10.3581
▁0.1	-10.3585
▁አምጡ	-10.3586
▁ተባባሪ	-10.359
▁እንዳያ	-10.3593
▁Gu	-10.3599
ቀረው	-10.3605
900	-10.3605
▁ሰልፍ	-10.3609
ገድሉ	-10.361
ታየው	-10.3617
▁ማስቀመጥ	-10.3617
oss	-10.3621
▁ጄት	-10.3621
▁Ne	-10.3628
ምዕራብ	-10.3629
▁በክርስቶስ	-10.3631
dia	-10.3632
▁ዜናዎች	-10.3634
▁ወለል	-10.3635
▁በረከት	-10.3636
ምግባር	-10.3638
ence	-10.364
▁መቀበል	-10.3649
፯	-10.3652
ችኋለን	-10.3652
▁አይሆንም	-10.3654
▁እንድታ	-10.3658
▁ex	-10.3668
▁ለእርሷ	-10.3673
▁Glass	-10.3673
▁ያውርዱ	-10.3673
ስዊድን	-10.3673
▁የነዳጅ	-10.3673
▁ፓውንድ	-10.3673
▁ስቃይ	-10.3676
ቋንቋ	-10.3678
ወሰደ	-10.3679
ቲስ	-10.3686
የሚ	-10.3689
▁በሰዎች	-10.3691
▁220	-10.3692
▁የዘላለም	-10.3694
▁ርካሽ	-10.3694
ዘጋጃ	-10.3697
▁ፈጠረ	-10.37
ዞረ	-10.3702
ull	-10.3706
▁ሕዝቦቼ	-10.3715
▁ድንጋጌ	-10.3715
▁አምላካችሁ	-10.3715
▁ግዢ	-10.3715
▁ሐምሌ	-10.3716
ound	-10.3718
▁ቀዶ	-10.3723
▁ጥበብን	-10.3726
▁በኦ	-10.3726
▁ይፈልጋል	-10.3736
▁ፋውንዴሽን	-10.3736
▁ሀሳቦች	-10.3736
▁ካህናት	-10.3736
▁ዩኒ	-10.3739
▁ግቢ	-10.3748
ሐዋርያት	-10.3748
ራለሁ	-10.3749
▁ለአንድ	-10.3751
ሯቸው	-10.3753
▁አምላካችን	-10.3757
▁ካርዶች	-10.376
መገንባት	-10.3764
PE	-10.3767
▁Lu	-10.3768
uk	-10.3776
▁ሼንዘን	-10.3778
ms	-10.3778
መደበኛ	-10.3779
ቅረብ	-10.3779
▁ሶላትንም	-10.3779
▁ቢኾኑ	-10.378
▁ተቀመጠ	-10.3783
ሃድ	-10.3783
▁በመንገድ	-10.3785
ተወለደ	-10.379
ማመን	-10.3792
▁CC	-10.3795
▁ጤናማ	-10.3797
▁መጣ።	-10.3797
▁አውቃለሁ	-10.3799
ወያኔ	-10.3801
ወስድ	-10.3805
nt	-10.3806
ical	-10.3817
و	-10.382
▁ይኾናል	-10.382
▁ቆሞ	-10.3823
▁ይዘው	-10.3827
▁መቀየር	-10.3829
▁ይሸ	-10.3837
cu	-10.384
▁ፑ	-10.3841
▁ታቦት	-10.3843
▁ምድረ	-10.3844
▁መሆኑ	-10.3847
▁Ti	-10.385
▁ለእያንዳንዱ	-10.3861
መደርደሪያ	-10.3863
ከለከሉ	-10.3864
ሚቀጥለው	-10.3864
▁ነኝና	-10.3865
ject	-10.3866
▁በሕግ	-10.3866
und	-10.3868
▁የተለጠፈው	-10.387
▁ነጋዴዎች	-10.3872
▁www	-10.3884
▁ይደውሉ	-10.3884
▁ድንበር	-10.3885
▁አቀረበ	-10.3885
lin	-10.3895
▁ዘመቻ	-10.3901
ማጋራት	-10.3902
PR	-10.3904
▁LTD	-10.3906
▁ለጥፍ	-10.391
▁ስሞች	-10.3915
ላለች	-10.3915
▁ስሜ	-10.3916
mic	-10.3923
▁መያዝ	-10.3926
▁McKnight	-10.3927
መዋል	-10.3933
▁ለሌላ	-10.3938
▁የዚያን	-10.3938
ቸዋል።	-10.3946
▁ይደረጋል	-10.3949
▁የተማሪ	-10.3949
ወስዱ	-10.3954
▁አድርጉ	-10.3956
▁ኃጢኣት	-10.3956
▁ሉህ	-10.3962
▁ጫን	-10.3968
▁የዌብሜይል	-10.397
ሕፃናት	-10.397
▁በአብዛኛው	-10.397
▁የሌዘር	-10.3971
▁አሞሌ	-10.3971
▁እቅድ	-10.3973
▁አዘዘ	-10.3974
MT	-10.3992
▁ሆስፒታል	-10.3992
▁የለባቸውም	-10.3992
▁ማስወገድ	-10.3995
ቀርበው	-10.3995
▁ሠራሽ	-10.4005
▁አጥፉ	-10.4007
table	-10.4011
ros	-10.4013
▁Download	-10.4014
▁ግንኙነቶች	-10.4014
▁መገናኘት	-10.4014
▁la	-10.4014
▁እጥፍ	-10.4015
▁በቅርብ	-10.4015
ለህ፤	-10.4022
CT	-10.4031
▁Tra	-10.4032
-15	-10.4033
▁ሳሙኤል	-10.4035
ቫይረስ	-10.4035
gg	-10.4037
▁ያደርግ	-10.4053
ደቡ	-10.4053
▁ተወዳዳሪ	-10.4057
▁ያመጣል	-10.4059
ፏ	-10.4061
ከፈለ	-10.4061
ጠዋል	-10.4061
ቀየር	-10.4062
▁የሚከተሉትን	-10.4067
va	-10.4072
▁ቁጣ	-10.4079
▁የያዘ	-10.4082
▁ፎቅ	-10.4084
▁የፊት	-10.4086
▁ጃን	-10.409
5.5	-10.4092
በረታታ	-10.4096
መልእክ	-10.4097
▁ሆኑ	-10.4097
▁ተናገር	-10.4099
ግግር	-10.4099
▁ህጋዊ	-10.4101
ተዳደር	-10.4104
▁CR	-10.4104
ትራክ	-10.4112
▁ከፊሉን	-10.4112
ተኮር	-10.4121
▁በንጉሡ	-10.4122
▁ኤርምያስ	-10.4122
▁እናውቃለን	-10.4122
▁ትግል	-10.4124
ጓዙ	-10.4127
እውነተኛ	-10.4135
▁ታማኝ	-10.4136
▁10%	-10.4139
▁ኢሜል	-10.4142
▁መግነጢሳዊ	-10.4144
▁ሻንዶንግ	-10.4144
▁ዋነኛ	-10.4145
▁እንደሚችሉ	-10.4145
▁ዲስክ	-10.4145
▁የማሽን	-10.4152
▁ተመለስ	-10.4163
▁ደረሰ	-10.4169
▁ያገኘ	-10.417
▁ኛው	-10.4171
▁ፈር	-10.4173
▁CH	-10.4175
ፎር	-10.4176
▁በእጁ	-10.4181
▁ዝቅ	-10.4184
▁ምክንያቶች	-10.4188
▁በከፊሉ	-10.4188
▁ይመለሳሉ	-10.4188
▁ቢሊዮን	-10.4189
ade	-10.4189
▁የተባለ	-10.4191
▁የቆዳ	-10.4192
▁ይኸ	-10.4201
▁አዳን	-10.4203
▁ቃለ	-10.421
▁የመዝገብ	-10.421
ሒ	-10.421
▁ትንሣኤ	-10.421
▁ፍሰት	-10.4211
ጠናቀቅ	-10.4213
ates	-10.4213
▁ግምት	-10.4217
у	-10.4233
▁በመካከላችሁ	-10.4233
▁አሲስታን	-10.4233
ጓጓ	-10.4235
KW	-10.4236
▁HD	-10.4237
▁የሚገኘው	-10.4246
▁፲	-10.4247
▁ክላ	-10.4254
▁በአንቀጾቻችን	-10.4255
▁አሰጣጥ	-10.4255
▁አብርሃም	-10.4255
▁ክሬዲት	-10.4255
▁የሚፈሱባቸው	-10.4255
▁አድርጋችሁ	-10.4255
▁ይሠራል	-10.4256
▁የመንግስት	-10.4257
ቦርዱ	-10.4263
mon	-10.427
▁ስማ	-10.4273
su	-10.4276
▁ለወንዶች	-10.4277
▁ያደርጋሉ	-10.4277
▁ወዳንተ	-10.4278
▁ጨረቃ	-10.4282
ደዋል	-10.4287
▁የላችሁም	-10.4295
▁ወድ	-10.4299
▁አደባባይ	-10.4299
▁መረዳት	-10.4302
▁ልቡ	-10.4312
ries	-10.4313
▁ድርሻ	-10.4315
▁አደራ	-10.4315
▁ግሩም	-10.4316
▁ኮሪያ	-10.4325
በጀ	-10.433
ጽሑፍ	-10.4341
▁አስገራሚ	-10.4344
▁ለመግዛት	-10.4344
▁1500	-10.4345
ST	-10.4345
ትግራይ	-10.4345
▁ይወጣል	-10.4348
▁ጭፍራ	-10.4349
ወለደች	-10.4354
▁ወዳጅ	-10.4358
1000	-10.436
ቸዋለህ	-10.4361
ቋሚ	-10.4362
አማልክ	-10.4364
▁su	-10.4364
▁Qingdao	-10.4366
▁መድኃኒት	-10.4366
▁ካምፓስ	-10.4366
▁ከችሮታው	-10.4367
▁አብዛኛውን	-10.437
ጠጉ	-10.4372
▁ዋጋዎች	-10.4377
▁አለችው	-10.4379
▁ነጋዴ	-10.438
ወሰድ	-10.438
ዛሬ	-10.4381
rm	-10.4383
▁እንደኾነ	-10.4388
▁ቮ	-10.4389
ö	-10.4389
▁አልነበሩም	-10.4389
▁ወስዶ	-10.4394
▁በፊትህ	-10.4396
▁ብዙዎቹ	-10.4403
ታለች	-10.4404
▁መለወጥ	-10.4408
▁አመለካከት	-10.4411
▁ሳጥኖች	-10.4411
ቲክስ	-10.4422
ዓመቱ	-10.4428
▁BS	-10.4429
▁በከተማ	-10.443
▁ሳምንታት	-10.4434
▁ይወዳል	-10.4434
ኤርትራ	-10.4437
▁አድርጌ	-10.4437
ao	-10.4437
ness	-10.4447
9001	-10.4452
▁ተፅዕኖ	-10.4457
▁ትግበራ	-10.4457
▁የመጽሐፉ	-10.4457
▁ተከታዮች	-10.4457
ሊንግ	-10.4461
ቫይ	-10.4467
▁ያለባቸው	-10.4471
IL	-10.4474
▁ልጆቻችሁ	-10.4479
▁እናደርጋለን	-10.4479
▁አታውቁም	-10.4481
▁አንገ	-10.4491
ዘዘ	-10.4493
ዕል	-10.4498
፮	-10.4502
▁ምስራቅ	-10.4502
▁ቅሬታ	-10.4502
▁ያምናሉ	-10.4502
UN	-10.4512
▁መላክ	-10.4524
ሳለሁ	-10.4524
▁ማጥፋት	-10.4525
▁ህብረት	-10.4527
▁42	-10.4529
▁በኾነው	-10.4529
ገለግ	-10.4531
als	-10.4532
ረጃ	-10.4538
▁የተጠበቁ	-10.4547
▁ኃይሎች	-10.4548
▁መስታወት	-10.4548
▁አሏቸው	-10.455
ኬቶች	-10.4553
▁የታወቀ	-10.4555
ling	-10.4556
ዝምድና	-10.4559
▁ተባለ	-10.4561
ችሮታ	-10.457
▁do	-10.457
▁ካህናቱ	-10.457
▁ይጠቀማል	-10.457
▁መስማት	-10.4571
መስቀል	-10.4573
▁ክርክር	-10.4574
ወስዳ	-10.4576
ግዚ	-10.4584
▁ጉድ	-10.4587
MO	-10.459
▁ውዴታ	-10.4593
▁፫	-10.4594
▁በኾኑት	-10.4599
▁800	-10.46
▁በኢየሱስ	-10.4602
▁ማረጋገጥ	-10.4603
ty	-10.4606
▁በበጎ	-10.461
▁ፍላ	-10.4617
▁ክሮ	-10.4618
▁ድንቅ	-10.4618
ጻፉ	-10.4621
ኛል።	-10.4639
▁ግማሽ	-10.464
▁ትኩስ	-10.464
▁ብለን	-10.4642
▁ሆና	-10.4644
ገባቸው	-10.4645
ባዮች	-10.4652
▁ሰጥቷል	-10.4663
ome	-10.4667
▁የመቋቋም	-10.4674
▁ድግግሞሽ	-10.4675
መኾናቸው	-10.4676
lot	-10.4679
▁Mod	-10.468
▁ፍላጎቶች	-10.4686
▁ከነርሱ	-10.4686
▁ሰዓቲቱ	-10.4686
text	-10.4687
▁ብራ	-10.4695
▁ወዮ	-10.4695
▁ሆናችሁ	-10.4695
ወጡት	-10.4699
ሃቸው	-10.4701
▁በልብ	-10.4704
ጠራው	-10.4705
lor	-10.4707
▁ትችላለህ	-10.4709
▁ማድረስ	-10.4709
▁Home	-10.4715
▁በመጡ	-10.4724
በለጠ	-10.4732
▁ማይክሮ	-10.4732
▁ውድድር	-10.4732
▁ማውጣት	-10.4733
በላሸ	-10.4733
tan	-10.4734
ግዙ	-10.474
TR	-10.4741
▁የሚከተሉት	-10.4745
▁እንደኾናችሁ	-10.4754
▁ተጠባባቂ	-10.4755
▁ይጀምራል	-10.4755
▁ለማንበብ	-10.4755
ስርዓተ	-10.4756
▁ጠቋሚ	-10.4758
▁ኑሮ	-10.4765
ተቀበለ	-10.4768
▁ፈንታ	-10.477
▁የሚያምኑ	-10.4771
ባቶች	-10.4778
▁Mon	-10.4778
ዦ	-10.4779
▁ብየዳ	-10.4779
IG	-10.478
▁በርሳቸው	-10.4781
▁የውሂብ	-10.4802
▁መቀነስ	-10.4802
▁ቀበቶ	-10.4802
▁ተቀምጦ	-10.4802
▁ዘወር	-10.4804
▁ኤፍ	-10.4808
ቦቹ	-10.4812
በላሹ	-10.4812
▁ተጠንቀቁ	-10.4826
▁አይደላችሁም	-10.4826
▁ዶክተር	-10.4826
▁ራሳቸውን	-10.4826
▁አመልካች	-10.4826
▁የደቡብ	-10.4826
▁ተመለሰ	-10.4829
▁ማርች	-10.483
▁CS	-10.483
▁ይገባው	-10.4831
▁በዙሪያ	-10.4831
▁ወደዚያ	-10.4841
0.9	-10.4842
▁Pe	-10.4845
▁ዝንባሌ	-10.4849
▁የወረቀት	-10.4849
▁ጸሐፊ	-10.4849
▁በስራ	-10.4856
▁ለነሱ	-10.4857
▁ሁነታ	-10.4873
ቋረጥ	-10.4873
▁USB	-10.4873
ተጻፈ	-10.4873
mer	-10.4878
▁ሰላምታ	-10.488
ዴሞክራሲ	-10.4896
▁Outlook	-10.4896
▁ግለሰቦች	-10.4896
lay	-10.4899
ree	-10.4901
ding	-10.4903
2016	-10.4904
ለዩ	-10.4906
መለክ	-10.491
▁አምላኬ	-10.4912
rc	-10.4912
▁የሚደረግ	-10.4917
▁አለብዎት	-10.492
▁ስገዱ	-10.4924
ink	-10.4933
emb	-10.4933
በዙ	-10.4936
▁State	-10.4944
▁ተሳትፎ	-10.4944
▁ኡ	-10.4946
▁መቁረጥ	-10.4948
EX	-10.496
እርዳታ	-10.4961
ደንበኞች	-10.4961
ኾናችሁ	-10.4962
ወቃ	-10.4965
way	-10.4967
▁ሕጋዊ	-10.4968
▁ፍጥረት	-10.4968
▁ሀምሌ	-10.4969
less	-10.497
መዘ	-10.497
▁(2)	-10.4974
ls	-10.4975
▁ግብረ	-10.4984
▁ከአሁን	-10.4987
ኻ	-10.4992
▁በአሕዛብ	-10.4992
▁የሴራሚክ	-10.4992
▁የህክምና	-10.4992
▁ጣዖት	-10.4992
▁አስረጅ	-10.4992
▁ቦርሳዎች	-10.4998
ፈቀድ	-10.5002
▁ማዶ	-10.5004
ማህበራዊ	-10.501
▁አመጡ	-10.5012
▁ታዛዦች	-10.5016
▁ማሻሻል	-10.5016
▁ተንኮል	-10.5016
ile	-10.5016
▁የሚያስተ	-10.5018
bl	-10.502
tur	-10.5023
▁ቀድሞ	-10.5024
▁ኦር	-10.5027
ከፈል	-10.5031
▁ለመጀመር	-10.5031
ገለጥ	-10.5034
ሞክራ	-10.5035
▁ንቅሳቶች	-10.5039
▁በሰሜን	-10.504
▁አካዳሚ	-10.504
ድርጅቱ	-10.5041
=	-10.5044
▁መግባት	-10.5045
▁እንዲያውም	-10.5048
ወሰዱ	-10.5056
ባለቤትነት	-10.5058
ኮምፒዩተ	-10.5064
▁ካታሎግ	-10.5064
▁ለብዙ	-10.5064
▁የተሠራ	-10.5065
ደዱ	-10.5069
ction	-10.5069
og	-10.5073
▁ሲቀሩ	-10.5074
rat	-10.5075
▁ክርስቲያኖች	-10.5075
▁ዓይኖቻቸው	-10.5082
▁Mac	-10.5085
▁የቴክኖሎጂ	-10.5086
እርስዎ	-10.5086
▁ትክክለኛነት	-10.5087
▁ትዕዛዞች	-10.5088
▁እችላለሁ	-10.5088
lan	-10.51
▁በደረሰ	-10.511
▁ፒሲ	-10.5112
▁ትንታኔ	-10.5112
▁ያነጋግሩ	-10.5112
▁ነዋሪዎች	-10.5112
▁ንጹህ	-10.5112
▁ትራንስፖርት	-10.5112
▁የተሞላ	-10.5112
ቀሱ	-10.5114
ina	-10.5114
▁አግኝቷል	-10.5115
▁ጸጸትን	-10.5119
cks	-10.5119
ሶር	-10.5121
ተኝነት	-10.5122
▁የኤች	-10.513
▁ያወረደ	-10.5132
▁ካፒቴን	-10.5136
ኢሜፕ	-10.5137
▁ኢሜልዎን	-10.5139
▁ገፅ	-10.5139
info	-10.5143
▁እርሱንም	-10.5146
ቀዋል	-10.5157
▁በሚገባ	-10.5158
▁ማስገቢያ	-10.516
▁የዳዊት	-10.516
▁ክፈት	-10.5161
▁ገላጭ	-10.5161
▁አያምኑም	-10.5162
▁Win	-10.5166
▁ዙር	-10.5171
▁የስነ	-10.5173
fa	-10.5175
="10	-10.5175
▁ያችን	-10.5177
▁ስደተኛ	-10.5185
▁ከእሳት	-10.5186
▁ኢንቨስትመንት	-10.5192
▁ከሁሉም	-10.5193
0.6	-10.5199
▁ወንዶችና	-10.5205
CI	-10.5206
▁መጽሐፈ	-10.5209
tra	-10.5211
board	-10.5211
ign	-10.5214
▁የአእምሮ	-10.5215
አውሮፕላን	-10.5218
har	-10.5235
▁ዘመናት	-10.5235
▁2005	-10.5236
▁ፕሬስ	-10.5236
▁በደስታ	-10.5236
▁እንዳሉ	-10.5247
▁ያደረጉ	-10.5249
▁ይሁን።	-10.5249
▁ባሮች	-10.525
▁የሚያጠ	-10.525
ji	-10.5251
0.4	-10.5255
▁جلاله	-10.5258
ድንጋጤ	-10.5258
▁ጓደኞች	-10.5258
▁ምዕራብ	-10.5262
▁አንበሳ	-10.5263
ME	-10.5264
▁መብቱ	-10.5266
መስጠ	-10.5271
▁የሚሰጥ	-10.5277
▁መናፍቃን	-10.5283
▁አግኙን	-10.5283
▁ጻድቅ	-10.5283
▁ኬብል	-10.5283
▁የጣቢያ	-10.5284
▁በህግ	-10.5286
▁ሁላችሁ	-10.5288
ዮቹ	-10.5305
▁ሆነ፥	-10.5305
▁ከመጽሐፉ	-10.5307
her	-10.531
ዘጋጅ	-10.532
▁ጋሻ	-10.532
▁ሕንፃ	-10.5325
ለውጥ	-10.5327
▁ጉዳ	-10.5329
▁64	-10.533
▁ተዓምራቶች	-10.5332
▁ደህንነቱ	-10.5332
▁ጽሑፎች	-10.5332
▁በነፍሶቻቸው	-10.5332
▁ጣሊያን	-10.5332
▁ሚስቶች	-10.5332
▁ቫን	-10.5332
▁ጣሪያ	-10.5341
ኛልና	-10.5353
▁የሚያውቁ	-10.5356
▁ኢኮኖሚያዊ	-10.5358
▁\	-10.5359
▁የነበራችሁትን	-10.5361
▁ውሸት	-10.5364
▁ጥበበኛው	-10.5365
▁ደጋፊዎች	-10.5368
▁በዳይ	-10.537
▁ትሠሩት	-10.5371
ራል።	-10.5372
▁ጥላቻ	-10.5374
ረጉ	-10.5376
rop	-10.5377
ለውጡ	-10.5379
▁አቀማመጥ	-10.5381
▁አይደለህም	-10.5381
▁አዳራሽ	-10.5381
▁ክልሎች	-10.5382
▁መተካት	-10.5383
▁ማስተላለፍ	-10.5385
own	-10.5385
መረጥ	-10.539
▁ተኮ	-10.539
▁የደንበኛ	-10.5393
tro	-10.5396
ons	-10.5399
ፏል	-10.54
▁ቀጥታ	-10.5402
▁በኀይል	-10.5406
▁ቅናሾች	-10.5406
▁ዕድገት	-10.5406
▁MS	-10.5407
ፈጸሙ	-10.5407
light	-10.5411
መዱ	-10.5417
LO	-10.5421
▁ይላቸዋል	-10.5426
ሰደዱ	-10.5428
▁ከእውነት	-10.5428
▁ግንባር	-10.5429
ዠ	-10.5431
▁አዝራር	-10.5431
▁ምሥራቅ	-10.5431
▁ዛፎች	-10.5432
▁በስፋት	-10.5433
▁አሲድ	-10.5435
▁በውኃ	-10.5435
ory	-10.5437
▁ሙስሊሞች	-10.5439
▁ዝግ	-10.5447
▁ጃፓን	-10.5451
መገናኛ	-10.5452
▁ማቀዝቀዣ	-10.5456
▁ሞተርሳይክሎች	-10.5456
▁ካርቦን	-10.5456
▁ጥብቅ	-10.5457
▁ራስህን	-10.5461
ode	-10.5464
▁እንዳለው	-10.5473
▁የተቀደሰ	-10.5474
▁ተሳታፊ	-10.5481
▁ተራሮች	-10.5482
▁አለብን	-10.5483
ቧል	-10.5487
▁የተባለው	-10.549
▁እስካ	-10.5493
ቦታ	-10.5494
▁የእሱ	-10.5504
▁የሌለበት	-10.5505
▁አዝማሚያ	-10.5506
▁ፍጆታ	-10.5506
▁የመግቢያ	-10.5507
▁የጨዋታ	-10.5507
ኤክስ	-10.5512
▁የለኝም	-10.5512
▁ይላኩ	-10.5513
ነገሠ	-10.5522
▁ሕገ	-10.5525
መንግሥቱ	-10.5532
ደረጋችሁ	-10.5532
inch	-10.5532
▁ድግምት	-10.5534
press	-10.5535
ብቻ	-10.554
cal	-10.5541
ኪንግ	-10.5543
▁ነበረው	-10.5553
yn	-10.5553
▁ለመቀበል	-10.5554
▁አይደለንም	-10.5557
}	-10.5557
▁ማዕዘን	-10.5559
ፒክ	-10.5563
▁መናገር	-10.5565
▁ለመገንባት	-10.5574
▁ወታደራዊ	-10.5577
▁ገጽታ	-10.5578
ዞሩ	-10.558
▁የሚሉት	-10.5582
▁CarGebeya	-10.5582
ቴክኒካዊ	-10.5582
▁የቅንጦት	-10.5582
▁አንጻር	-10.5582
▁ቀሪ	-10.5583
▁ብሏል	-10.5584
ጤና	-10.5587
ሷል	-10.559
▁ሆነ።	-10.5593
▁ተዋቸው	-10.5594
መሰረተ	-10.5594
▁የሌላቸው	-10.5597
▁እትም	-10.5598
▁እሴት	-10.56
ነፍሳ	-10.5602
▁ላሉት	-10.5602
ery	-10.5603
▁ፎር	-10.5605
ብሔር	-10.5608
▁ሊሆኑ	-10.5609
lock	-10.561
▁የኾነውን	-10.561
ጠጥ	-10.5626
▁ገብቶ	-10.5627
▁መጭመቂያ	-10.5633
ä	-10.5633
▁ይታያል	-10.5633
▁ቀዳዳ	-10.5633
▁በብር	-10.5633
ቲንግ	-10.5634
GB	-10.5635
ጀምሩ	-10.5635
▁ማስጠንቀቂያ	-10.5641
▁መጨመር	-10.5653
▁የተባበሩት	-10.5659
▁ከእምነት	-10.566
ኞቻችን	-10.5661
▁ከከተማ	-10.5662
▁ይመጣሉ	-10.5665
ማድረግ	-10.5666
▁የተመዘገበ	-10.567
▁ስጡ	-10.5671
IM	-10.5676
0.7	-10.5682
▁በየትኛው	-10.5684
▁ምቾት	-10.5684
▁ፍቃድ	-10.5684
▁ቀለሞች	-10.5684
▁ከጌታቸው	-10.5684
▁መውጣት	-10.5685
▁SD	-10.5691
ነቴ	-10.57
ኬንያ	-10.5704
ካሬ	-10.5704
ፕሪ	-10.5705
▁በመባል	-10.5707
▁በመውሰድ	-10.571
መንግሥት	-10.5711
▁አይወድም	-10.5711
ሰኘ	-10.5713
▁ምሽት	-10.5715
ko	-10.5716
▁ተነሥቶ	-10.5721
▁የአገር	-10.5732
▁እየሰራ	-10.5732
▁መስፈሪያ	-10.5735
▁ቁጥሮች	-10.5735
▁በመንፈስ	-10.5735
▁በደለኞች	-10.5736
▁ይሄዳል	-10.5736
▁can	-10.5737
▁በእምነት	-10.5738
▁በአፍሪካ	-10.5739
▁እንዲሆኑ	-10.5748
ለህ፥	-10.575
ወረዱ	-10.575
ገራችሁ	-10.5752
150	-10.5754
▁ኮምፒውተር	-10.5758
መሐላ	-10.5759
▁የንጉሡ	-10.5761
▁ተቃዋሚ	-10.5761
▁እየጨመረ	-10.5765
▁መሆናቸውን	-10.5769
▁ከሁሉ	-10.578
▁are	-10.5784
ብራዚል	-10.5787
▁Visa	-10.5788
▁ይከጀላልና	-10.5799
▁የሰውነት	-10.58
▁DC	-10.5801
ስተካክሉ	-10.5804
ረጅም	-10.5804
▁PU	-10.5806
▁በዙሪያው	-10.5808
ail	-10.5809
▁ጉዳዩ	-10.581
▁ኩኪዎች	-10.5813
▁የፋይናንስ	-10.5813
{	-10.5813
▁ልጥፎች	-10.5813
▁አልቻለም	-10.5813
fs	-10.5814
▁ዳግም	-10.5814
ቆቹ	-10.5817
DE	-10.5818
▁መደብ	-10.5832
▁ጌጥ	-10.5834
NA	-10.5836
▁ሞተርሳይክል	-10.5839
▁በይነገጽ	-10.5839
▁ነፍሱን	-10.5839
▁ተክል	-10.5843
▁ለከሓዲዎች	-10.5848
▁ስፒ	-10.5857
ዓይነ	-10.5858
ማግኘ	-10.5862
▁ውስብስብ	-10.5865
▁አላውቅም	-10.5865
tech	-10.5868
▁ነጻነት	-10.5869
ማስታወቂያ	-10.5869
az	-10.587
▁የአዲስ	-10.5871
▁ጎዳና	-10.5871
ውስጥ	-10.5872
▁CF	-10.5874
▁II	-10.5875
ገነባ	-10.5877
ከሓዲዎች	-10.5878
Blockchain	-10.5891
▁ጠፍጣፋ	-10.5891
▁በእርስዋ	-10.5891
▁አገዛዝ	-10.5892
▁ወንበር	-10.5892
▁undo	-10.5893
▁ይበሉ	-10.5897
▁ወደዚህ	-10.5897
▁ከሌላ	-10.5897
ple	-10.5904
ተከተሉ	-10.5911
▁የባሕር	-10.5916
▁2.0	-10.5917
▁Official	-10.5917
▁አገናኞች	-10.5917
▁በጥብቅ	-10.5917
▁ቁራጭ	-10.5917
▁ጸሎት	-10.5918
▁ከፊላቸው	-10.5918
▁መንጋ	-10.5921
ጌጥ	-10.5938
▁መቁረጫ	-10.5943
▁የሚችለው	-10.5944
▁ሀይ	-10.5949
ana	-10.5955
ወሰኑ	-10.5956
አራት	-10.5961
ሶስተኛ	-10.5962
▁በጭራሽ	-10.597
▁ብላቴና	-10.597
ሳተፍ	-10.5973
▁—	-10.5974
▁ወዳጆች	-10.5974
▁0.5	-10.5975
▁ይመራ	-10.5981
▁መጠየቅ	-10.5987
▁ነገረ	-10.599
saveatrain	-10.5996
▁ተደጋጋሚ	-10.5996
▁ከእርስዋ	-10.5996
▁ክፈፍ	-10.5996
▁ውሰድ	-10.5997
▁በፍርድ	-10.5998
IA	-10.6002
ook	-10.6007
ኖብ	-10.6008
▁የሚመራ	-10.6009
▁የሚውል	-10.6013
ፌዴ	-10.6017
ፈጸመ	-10.6023
▁መክፈል	-10.6023
ካፒታል	-10.6023
▁አጥፊ	-10.6024
ሰይጣን	-10.6024
▁ስልት	-10.6028
▁ሊገኝ	-10.6033
▁ለመፈለግ	-10.6037
▁የሞተ	-10.6039
▁00:	-10.6039
▁የጌታህ	-10.6043
®	-10.6049
አፈፃፀም	-10.6049
▁ተቃውሞ	-10.6049
▁ከርሷ	-10.605
ane	-10.605
▁በክፉ	-10.6053
top	-10.6058
▁ከወንድ	-10.6065
ራፊ	-10.6067
▁ይመራል	-10.6069
▁ዕለት	-10.6073
▁አሉሚኒየም	-10.6074
▁አጥር	-10.6074
▁ትመለሳላችሁ	-10.6076
▁ቦይንግ	-10.6076
▁ይመዝገቡ	-10.6076
▁ንብረቶች	-10.6076
▁ጡባዊ	-10.6076
መላእክት	-10.6079
▁ኑሕ	-10.6079
ሸከሙ	-10.608
ስፔን	-10.6081
ዮሐንስ	-10.6088
▁750	-10.6097
▁ተሽከርካሪ	-10.6098
▁አይነቶች	-10.6101
ر	-10.6102
▁መስኮች	-10.6103
ike	-10.6109
ቤተሰቦ	-10.6115
▁ከሓዲ	-10.6116
▁NO	-10.6119
▁Card	-10.612
ption	-10.6121
▁ርኩስ	-10.6129
▁ፋሽን	-10.613
▁መጠጊያ	-10.6131
▁Air	-10.6147
▁ዋናዉ	-10.6148
▁ልቤ	-10.6156
▁ለማሳየት	-10.6156
▁ጥቂቶች	-10.6156
▁ሀገሮች	-10.6156
cap	-10.6168
▁በልቡ	-10.617
አምስት	-10.617
ቀኑ	-10.6171
unt	-10.618
▁ምሥክርነት	-10.6183
▁የሰዎች	-10.6183
▁ጴጥ	-10.6183
ገሰጹ	-10.6184
▁እንደሚችል	-10.6184
▁ይረዳል	-10.6184
RI	-10.6185
low	-10.6187
ጨመረ	-10.6188
ዴል	-10.6193
▁ከተማይቱ	-10.6194
▁New	-10.6197
▁ተጨ	-10.6206
▁ጥንቃቄ	-10.621
▁እባክህ	-10.621
▁ልማድ	-10.621
መረጡ	-10.6217
ፈቅድ	-10.6227
▁ይኖር	-10.6228
ገሠ	-10.6233
▁ሕፃን	-10.6237
▁የሚገባ	-10.6238
▁ዒሳ	-10.6238
▁መሥራት	-10.6238
ብሔራዊ	-10.6245
▁ሰላ	-10.6254
-08	-10.6256
▁Department	-10.6264
▁ውርርድ	-10.6264
▁ሞገስ	-10.6265
▁አባቶቻችሁ	-10.6268
ነታችን	-10.6269
ሟላ	-10.6269
▁ዞሮ	-10.6271
ሃለን	-10.6277
▁ሠራተኛ	-10.6277
▁ነዎት	-10.6277
tru	-10.6278
ጠብቀ	-10.6283
▁Moto	-10.6286
lect	-10.6289
▁ጎማዎች	-10.629
▁crypto	-10.6291
▁ዮርክ	-10.6291
▁ወፍራም	-10.6291
ርሶ	-10.6292
my	-10.6294
▁አስታው	-10.6299
▁የተሟላ	-10.6309
▁ጥያቄዎን	-10.6309
rit	-10.6318
▁የማስተዋወቂያ	-10.6318
▁ፋኩልቲ	-10.6318
ጫወቱ	-10.6319
ሬክ	-10.6325
ተማረ	-10.6326
▁ተመራማሪዎች	-10.6328
▁የእንስሳት	-10.633
▁ያደረግ	-10.633
ative	-10.6331
="11	-10.6342
▁ኮሚሽን	-10.6346
▁ዠይጂያንግ	-10.6346
▁ከብዙ	-10.6347
!!!	-10.635
cor	-10.6353
▁አቋም	-10.6356
ተፈጠረ	-10.6358
rom	-10.6364
▁መጀመር	-10.6369
▁ብቁ	-10.6371
ጸጸቱ	-10.6374
ጠብቃ	-10.6378
van	-10.6381
Com	-10.6387
bit	-10.6388
መሣሪያ	-10.639
▁አሳብ	-10.6392
ዌር	-10.6399
▁አይደለችም	-10.6401
▁ኤጀንሲ	-10.6401
▁በመጀመሪያው	-10.641
▁Str	-10.6417
▁መደብር	-10.6421
▁የሚያደርጉ	-10.6423
መከላከያ	-10.6425
▁ተሰጥቷቸዋል	-10.6428
▁ተዛማጅ	-10.6428
▁ኮርፖሬሽን	-10.6428
▁ቅመሱ	-10.6428
▁በደረጃ	-10.643
ልቦና	-10.6438
fin	-10.6439
IP	-10.6445
let	-10.6449
▁Deposit	-10.6456
▁Instagram	-10.6456
▁ኢዮብ	-10.6458
▁ወዮላቸው	-10.6463
ጋደል	-10.6467
–	-10.6471
▁Car	-10.6471
▁የመንግሥት	-10.6473
▁አትፍራ	-10.6477
¥	-10.6481
▁ዳይሬክተር	-10.6483
▁KTM	-10.6483
▁ጓደኝነት	-10.6483
2015	-10.6484
rol	-10.6487
▁ሸክም	-10.6488
▁Do	-10.6488
▁ከሁለት	-10.6497
▁ላለው	-10.6501
▁የሃይድሮሊክ	-10.6511
▁የፌዴራል	-10.6511
▁ሕዝቤ	-10.6511
▁ለማሳደግ	-10.6511
▁ተመልከቱ	-10.6511
▁የባንክ	-10.6512
ዎቼ	-10.6516
ዘዛቸው	-10.6517
ich	-10.6517
ትምህር	-10.6518
▁ኢንዱስትሪዎች	-10.6528
rp	-10.6528
▁ምስጢር	-10.6539
▁መድረኮች	-10.6539
▁ጭንቀት	-10.6539
▁ከግብፅ	-10.6539
ለዋወጥ	-10.6539
▁ነዳጅ	-10.654
▁March	-10.6542
▁መምጣት	-10.6543
▁አንዳ	-10.6547
▁ኪሎ	-10.6551
▁አታሚ	-10.6555
▁ገደለ	-10.6557
ze	-10.6559
OP	-10.6561
ت	-10.6567
ع	-10.6567
ሖ	-10.6567
▁ሂሳብ	-10.6567
▁ፍጠር	-10.657
IR	-10.6572
▁የግድ	-10.6578
ለምኑ	-10.6583
እውነት	-10.6592
bar	-10.6593
ማህበረሰ	-10.6595
ዊንዶውስ	-10.6595
▁ግጭት	-10.6595
▁አንብብ	-10.6595
="12	-10.6596
መጠቀሚያ	-10.6596
▁የህግ	-10.6603
▁የሚገባው	-10.6607
▁በዚያች	-10.661
▁አሸናፊዎች	-10.661
▁ባልተ	-10.6619
▁ይሞክሩ	-10.6623
▁አስቂስ	-10.6623
▁በግምት	-10.6626
▁Ab	-10.6633
▁44	-10.6635
▁የልጅ	-10.6639
▁የሚጠራ	-10.6642
▁መከተል	-10.6649
፳	-10.6651
▁ምክንያታዊ	-10.6651
▁ሪፐብሊክ	-10.6651
▁የያዕቆብ	-10.6651
▁csgo	-10.6651
▁አሮጌ	-10.6652
▁ማደሪያ	-10.6652
▁የፕሬስ	-10.6652
▁ከፍታ	-10.6659
▁ሙያ	-10.6661
▁PM	-10.6665
▁መልሶ።	-10.6677
ጵ	-10.668
▁Yamaha	-10.668
▁ክህደት	-10.668
▁ማሞቂያ	-10.668
▁መሥሪያ	-10.668
▁የሰላም	-10.668
▁ምረቃ	-10.668
▁ቶነር	-10.668
▁ብራንድ	-10.6681
▁የገና	-10.6683
▁በረዶ	-10.6683
▁ፈቀቅ	-10.6684
▁የቀን	-10.6688
ጋቸው	-10.6688
▁በተቻለ	-10.6694
▁ያስገቡ	-10.6698
▁ለወንድ	-10.6699
▁ሮዝ	-10.6701
መቁረጥ	-10.6703
▁Appointment	-10.6708
▁ያካትታሉ	-10.6708
▁جل	-10.6708
▁ቁምፊዎች	-10.6708
▁ቅርቢቱ	-10.6708
HC	-10.6712
▁ከፊል	-10.6713
▁የሚፈልጉትን	-10.6716
ጽናና	-10.6722
መጀመሪያ	-10.673
▁በሕዝቡ	-10.6736
▁ኮንፈረንስ	-10.6736
▁ይናገራል	-10.6736
▁ይቀበላል	-10.6736
▁ለሌሎች	-10.6737
▁ቀጥተኛው	-10.6742
▁Gear	-10.6747
ገድል	-10.675
▁ጠባቂዎች	-10.675
▁ራሴ	-10.6751
USD	-10.6752
CM	-10.6754
250	-10.6754
ሙስና	-10.6756
▁ወጪዎች	-10.6758
5,000	-10.6761
▁የሚባል	-10.6762
China	-10.6764
▁YouTube	-10.6765
▁በመጽሐፉ	-10.6765
▁ገንዳ	-10.6766
አሸባሪ	-10.6766
ሠር	-10.6767
▁የፍርድ	-10.6767
▁እህል	-10.6778
▁ማሰብ	-10.6787
ቀላቀሉ	-10.6793
ደብቁት	-10.6794
▁ሃሳብ	-10.6794
travel	-10.6794
ብርጭቆ	-10.6794
▁የእግር	-10.6794
="0.1	-10.6797
ጧት	-10.6798
▁ቀርቦ	-10.68
▁የካዱ	-10.6805
BS	-10.6805
▁የተገኘ	-10.6806
ዷቸው	-10.6807
RT	-10.6814
▁ወረዳ	-10.6821
0000	-10.6821
▁ወለደ	-10.6821
▁ይናገራሉ	-10.6822
▁ማስተካከያ	-10.6822
▁እሴቶች	-10.6822
▁iOS	-10.6822
▁ዘላለም	-10.6822
▁ይሽጡ	-10.6823
▁ከኾነው	-10.6823
▁ቾን	-10.6829
▁አስከ	-10.6829
time	-10.6831
▁2007	-10.6835
HE	-10.6841
ኤች	-10.6849
▁በእርግጠኝነት	-10.6851
መሠረቱ	-10.6851
▁Wars	-10.6851
▁የካናዳ	-10.6851
▁Ta	-10.6851
▁ትውስታ	-10.6851
▁ጠርዝ	-10.6854
ization	-10.6854
አል፥	-10.6855
cur	-10.6857
▁የቤተ	-10.6858
▁ባሪያህ	-10.687
ደገፍ	-10.6875
▁ካፕቶፕ	-10.688
▁የግንባታ	-10.688
▁ወፍጮ	-10.688
▁ክፍተት	-10.688
▁መምህር	-10.688
▁ግብይት	-10.688
ፒክስል	-10.6882
ሶስት	-10.6888
▁ጠብታ	-10.6892
በረከ	-10.6894
ናገረው	-10.6899
▁የተፈቀደ	-10.69
ማችን	-10.6901
NS	-10.6901
ወደው	-10.6902
▁በአሥራ	-10.6905
▁Comp	-10.6906
▁ሳምንቶች	-10.6908
▁ምስጉን	-10.6908
▁ለማሟላት	-10.6908
▁ዙፋን	-10.6908
▁በከንቱ	-10.6909
▁የምትሠሩትን	-10.6909
▁ዩኬ	-10.691
▁ባድማ	-10.6911
ወስደው	-10.6912
▁ምሳሌዎች	-10.6915
▁መማር	-10.6916
▁ያገኙ	-10.6917
▁የኩባንያ	-10.6924
▁የሚሰጡ	-10.693
▁ለዓለማት	-10.6937
▁በተደጋጋሚ	-10.6937
▁ኦፊሴላዊ	-10.6937
▁ጭብጥ	-10.6938
ሎጥ	-10.6938
ኮምፒውተር	-10.694
እራሳቸው	-10.6943
ivers	-10.6944
ታሪክ	-10.6947
ጠይቀ	-10.6949
ky	-10.6952
ሰጠኝ	-10.6955
▁ፊቱን	-10.6955
▁በጨለማ	-10.696
▁Wa	-10.6962
can	-10.6964
▁ተልዕኮ	-10.6966
▁ታላላቅ	-10.6966
▁የሙዚቃ	-10.6966
▁ሂደቶች	-10.6967
▁ፓሪስ	-10.6967
ነበቡ	-10.6967
▁የኋላ	-10.6967
SI	-10.6967
▁አስተማሪ	-10.6971
▁የጃፓን	-10.6972
ቈጠሩ	-10.6973
ረኩ	-10.6973
አንገት	-10.6981
▁ለሆኑ	-10.6986
▁Ke	-10.6987
ቆያ	-10.6989
sky	-10.6989
≤	-10.6996
▁ተጫዋች	-10.6996
▁የሻንጋይ	-10.6996
▁ህዝቦች	-10.6996
▁ዩሱፍ	-10.6996
▁ውጫዊ	-10.6996
▁የልማት	-10.6996
uck	-10.6999
▁ጎሳ	-10.7001
ንጉሥ	-10.7002
▁አብይ	-10.7007
ning	-10.7008
ሰራጨ	-10.7008
read	-10.7011
▁አስገባ	-10.7019
1.5	-10.702
▁ስካ	-10.7024
▁በተያያዘ	-10.7025
▁ሕንጻ	-10.7025
▁ለማስወገድ	-10.7027
▁እመኑ	-10.7027
▁በነበራችሁት	-10.7027
▁ቢሻ	-10.7028
▁ቀፎ	-10.7029
ወለዱ	-10.7029
አንዳንድ	-10.703
▁መጠኖች	-10.7037
▁ውሰጥ	-10.704
▁በብርሃን	-10.7044
LS	-10.7047
é	-10.7054
▁አቀራረብ	-10.7054
▁ውርደት	-10.7054
▁ፍጡር	-10.7054
▁ኪራይ	-10.7055
▁የተፈጠረው	-10.7055
ዶርኖ	-10.7057
▁እንዳዘዘ	-10.7057
▁ማናቸውም	-10.7059
den	-10.7059
ስበው	-10.707
▁አርማ	-10.7077
▁ሃርድዌር	-10.7084
▁የክርስቶስ	-10.7084
▁በሰላም	-10.7084
▁ለመረዳት	-10.7084
▁መርከብ	-10.7085
▁የሚፈልግ	-10.7086
ፈረደ	-10.7088
▁ካሉ	-10.7089
▁(1)	-10.7091
qui	-10.7096
▁43	-10.7113
▁ትሬዲንግ	-10.7113
▁ከምእምናን	-10.7113
▁የፈርዖን	-10.7113
▁ቢጫ	-10.7115
▁ኤሌክትሮኒክስ	-10.7117
▁የቡድን	-10.7119
ፈሰሰ	-10.712
▁ለረጅም	-10.7124
▁2006	-10.7126
="15	-10.7127
ren	-10.7132
ele	-10.7136
back	-10.7136
▁Med	-10.7139
▁በመፍጠር	-10.7143
▁በፊቴ	-10.7144
▁ግለሰብ	-10.7145
▁ብላችሁ	-10.7146
era	-10.7147
long	-10.715
▁180	-10.716
▁ግፍ	-10.7166
▁ST	-10.7166
▁ምስክርነት	-10.7169
ሰዓት	-10.7172
አክሲዮን	-10.7172
▁በተለምዶ	-10.7172
▁መጋረጃ	-10.7172
▁ተደርጎ	-10.7172
▁ይሁን፤	-10.7173
▁ለማምጣት	-10.7173
▁ልኬቶች	-10.7175
▁ካልሆነ	-10.7176
▁ከሓዲዎቹ	-10.7177
ዘሩ	-10.7177
▁የሚመጣው	-10.7179
ባችን	-10.7186
▁ካልተ	-10.7193
▁ቁርጥራጮች	-10.7202
▁ታውቃለህ	-10.7202
▁መመልከት	-10.7203
▁ቅደም	-10.7204
▁የቀሩት	-10.7205
▁መውጫ	-10.7208
ከፋፈል	-10.7217
add	-10.7217
sha	-10.7217
▁ጊዜያዊ	-10.7222
ነዋል	-10.7223
▁ስጦታዎች	-10.7225
ዲፕሎማ	-10.7232
▁ኹኔታ	-10.7232
▁የድምጽ	-10.7232
ally	-10.7237
visa	-10.7237
ነዱ	-10.7242
▁ሴንትሮ	-10.7243
ጓድ	-10.725
መሆናቸው	-10.7254
▁የፈረንሳይ	-10.7262
▁አገልጋዮች	-10.7262
▁በሁለተኛው	-10.7263
▁የግብርና	-10.7264
▁አይችልም።	-10.7265
MM	-10.7269
▁ሥራዎቻቸውን	-10.7273
xml	-10.7275
▁ሰፋ	-10.7285
▁በኢሜልዎ	-10.7292
▁ወረቀቶች	-10.7292
▁ፍልስጥኤማውያን	-10.7292
▁ስኩተር	-10.7292
▁ዮናታን	-10.7292
እድሜ	-10.7292
▁የታተመ	-10.7292
▁ስዕል	-10.7295
▁የውጪ	-10.7295
ፋችሁ	-10.7304
▁ወፎች	-10.7306
▁የኢየሱስ	-10.7313
eat	-10.7317
▁እያደገ	-10.7322
▁VP	-10.7322
▁ታጋሽ	-10.7323
ዌይ	-10.7325
ept	-10.7329
▁ነበር፡፡	-10.7337
▁ሁለ	-10.7339
gram	-10.7346
▁ጥለት	-10.7349
▁በኾነች	-10.7351
እንፋሎት	-10.7352
▁ስፕሪንግ	-10.7352
▁ካፒተር	-10.7352
▁የመላኪያ	-10.7352
▁በተወረደው	-10.7352
▁ገንቢ	-10.7353
▁አንደ	-10.7357
▁that	-10.736
ራለች	-10.7362
▁ዘንግ	-10.7368
rd	-10.7368
▁PRO	-10.7369
amb	-10.7377
▁እሺ	-10.7382
▁ካጋጠመን	-10.7383
▁ቅዱሳን	-10.7383
▁በተሳካ	-10.7383
▁ካሉት	-10.7388
▁car	-10.739
ሾቹ	-10.739
▁+86	-10.7397
zo	-10.7398
▁ዘንጊዎች	-10.74
▁የተመረጡ	-10.7402
▁ማዋቀሩ	-10.7413
መሰለዎ	-10.7413
▁ስንኳ	-10.7413
here	-10.7414
▁ጥጥ	-10.7414
ure	-10.7414
▁ወንድሞቹ	-10.7417
▁ጋዜጣዊ	-10.7418
▁የሁሉ	-10.742
TH	-10.7427
code	-10.7427
ጣለች	-10.7428
▁የተጣራ	-10.7431
berg	-10.7439
▁ኾና	-10.744
▁የግላዊነት	-10.7443
▁አንዳንዶቹ	-10.7443
▁ካፕተር	-10.7443
▁Multi	-10.7444
urn	-10.7444
▁VPN	-10.7447
▁የውኃ	-10.7448
izer	-10.7449
▁ነባሪ	-10.7451
ሮቼ	-10.7455
▁ሴንት	-10.746
▁የበጎ	-10.7465
▁ሊቀመንበር	-10.7474
▁ቲያንጂን	-10.7474
▁ይጨምራል	-10.7474
▁ተመጣጣኝ	-10.7474
▁ባለሁለት	-10.7482
gy	-10.7486
▁አብራ	-10.7487
▁ይለያያሉ	-10.7505
▁በድንገት	-10.7505
▁የሐሰት	-10.7505
▁ሊኖረው	-10.7506
▁ሕግጋት	-10.7506
▁ክንፍ	-10.7506
tool	-10.7507
red	-10.7509
ያዛቸው	-10.7512
▁ሪል	-10.7515
ረጋጋ	-10.7516
4.9	-10.7517
OL	-10.7522
▁ጫማዎች	-10.7527
▁ቅርንጫፍ	-10.7535
▁አስተዋጽኦ	-10.7535
ቮንቴክ	-10.7536
▁ርዕሰ	-10.7536
▁ዕይታዎች	-10.7536
ኤምባሲ	-10.7536
▁ያመኑና	-10.7537
▁ዕውር	-10.7537
▁ይጠብቁ	-10.7538
ዩኒቨርሲቲ	-10.7539
ther	-10.7554
▁ርዕሶች	-10.7566
▁ተነሳሽነት	-10.7566
▁አስተናጋጅ	-10.7566
▁አስፈጻሚ	-10.7566
▁ከዋክብት	-10.7566
▁ወሲባዊ	-10.7566
▁መዝናኛ	-10.7566
▁ለማምረት	-10.7566
▁ዝገት	-10.7567
▁ሰጭ	-10.7567
▁ለመግባት	-10.7568
▁ገዳይ	-10.7568
▁ኦሪት	-10.7568
ተባበር	-10.757
link	-10.7582
አሁን	-10.7585
▁ዝማኔዎች	-10.7586
▁ኾነህ	-10.7591
▁ዕይታ	-10.7597
▁መቁጠሪያ	-10.7597
xBet	-10.7597
▁ትንተና	-10.7597
▁ቲዩብ	-10.7597
2012	-10.76
ዮሎጂ	-10.7606
መሰገ	-10.7607
OM	-10.7611
0.1	-10.7611
▁ሕልም	-10.7617
0.5	-10.7621
ize	-10.7623
▁መዝሙረ	-10.7628
▁ቁልፎች	-10.7628
▁ሕንድ	-10.7632
count	-10.7635
OT	-10.7654
×	-10.7655
ቃጠለ	-10.7658
▁ግጥሚያ	-10.766
▁ያልተገደበ	-10.766
▁ከቆየሽ	-10.766
▁በነርሱ	-10.766
▁Jo	-10.7664
▁ገደማ	-10.7665
▁ይቀጣል	-10.7667
▁በሩቅ	-10.767
▁አዘጋጀ	-10.7677
▁እስያ	-10.7679
▁ያደርጉ	-10.7681
ፈጽም	-10.7688
ተጠናቀቀ	-10.7691
▁Auto	-10.7692
▁ለመያዝ	-10.7695
▁በጆሮ	-10.7703
መሠረተ	-10.7713
▁ጋዜጣ	-10.7717
▁Tattoo	-10.7722
▁መንፈሳዊ	-10.7722
▁ላሜራ	-10.7722
▁ኩራት	-10.7722
ጮኹ	-10.7722
▁ወተት	-10.7724
▁ጠርቶ	-10.7724
▁Super	-10.7725
▁ጥርጥር	-10.7727
▁ልኬት	-10.7728
▁41	-10.7729
203	-10.773
ሆናችሁ	-10.773
▁የወረዳ	-10.7732
WS	-10.7735
▁QR	-10.7735
▁እላለሁ	-10.7736
▁ሊውል	-10.7741
undo	-10.7741
ገኛችሁ	-10.7751
▁መፍትሔዎች	-10.7752
▁የሚወዱ	-10.7753
▁ማስተዋወቂያ	-10.7754
▁እጆቻችሁ	-10.7754
ብቃት	-10.7754
▁ሰለባ	-10.7758
-03-	-10.7764
▁በቀስ	-10.7765
▁Du	-10.7771
▁ቀጣይነት	-10.7772
▁ብሬ	-10.7774
▁በቻይና	-10.7776
ond	-10.7781
፫	-10.7785
ንቀሳቀሱ	-10.7785
▁በተበየደው	-10.7785
▁የዌብሜር	-10.7785
▁ፈቃደኛ	-10.7785
ሚኒስትሮች	-10.7785
▁ምክትል	-10.7785
▁ተመልሶ	-10.7785
2010	-10.7793
men	-10.7795
▁የዋጋ	-10.7801
▁የተረጋጋ	-10.7803
ማል።	-10.7803
ung	-10.7809
▁ሽልማቶች	-10.7817
ኮሎምቢያ	-10.7817
ማጣቀሻ	-10.7817
▁በመልክተኛው	-10.7817
▁ጉድጓድ	-10.7817
▁የተሰጡት	-10.7818
▁በተራራ	-10.7819
▁ፈተናዎች	-10.7821
▁የላቁ	-10.7824
▁ምንኛ	-10.7826
fans	-10.783
2020	-10.7832
▁በሚገኘው	-10.7833
SE	-10.7836
ጫኑ	-10.7837
ገባችሁ	-10.7838
ime	-10.7839
oll	-10.7839
mit	-10.7846
አየር	-10.7847
▁ተጨባጭ	-10.7849
ext	-10.785
▁የህንድ	-10.785
ኦሮሞ	-10.7852
▁ከውጭ	-10.7858
▁ገበያዎች	-10.7862
GS	-10.7877
▁ሽከርካሪ	-10.788
▁ከሥሮቻቸው	-10.788
▁የመርየም	-10.788
▁የውሸት	-10.7881
▁ሰራዊት	-10.7881
▁ታያለህ	-10.7881
▁የዲሲ	-10.7882
▁ኃላፊነቱ	-10.7883
▁አባቶች	-10.7884
መንገድ	-10.7885
ታለል	-10.7886
▁በኃይል	-10.7889
▁ወለደ፤	-10.7889
▁አዳም	-10.7889
UT	-10.7896
▁ህገ	-10.7908
▁የመጀመሪያዎቹ	-10.7911
እናንተ	-10.7912
፱	-10.7912
▁Server	-10.7912
▁መርጊያ	-10.7913
▁አውደ	-10.7915
▁ዕወቁ	-10.7916
hai	-10.7921
GO	-10.7923
▁እገዛ	-10.7928
ኖቻቸው	-10.7931
3.6	-10.7931
▁ማስረጃዎች	-10.7938
▁ይደሰቱ	-10.7944
▁ይሸፍናል	-10.7944
እረፍት	-10.7945
▁ቍጥር	-10.7947
NE	-10.7949
get	-10.7949
▁ባልነበረ	-10.795
▁በመጫን	-10.7951
140	-10.7952
ፎቹ	-10.7956
▁እንቢ	-10.7958
ute	-10.7963
▁እስር	-10.7968
▁51	-10.7968
▁ተሽከርካሪዎች	-10.7974
ችሎታ	-10.7974
▁ለቀለቀችው	-10.7977
▁ምህንድስና	-10.7977
▁ተወካዮች	-10.7977
▁ይፈርዳል	-10.7977
▁ብልጭታ	-10.7977
▁እንዳደረገ	-10.7977
▁አዎንታዊ	-10.7977
▁ዝርያ	-10.7977
▁ጣለ	-10.7979
▁ጽንሰ	-10.798
ፖፕት	-10.7981
▁የኮፒ	-10.7985
ኮራ	-10.7989
lim	-10.7993
ava	-10.7997
best	-10.7999
▁EM	-10.7999
ጸጸት	-10.8003
▁ፌስቡክ	-10.8009
▁Crypto	-10.8009
▁መሙላት	-10.8009
▁ይጠይቃል	-10.8009
▁TCN	-10.8009
▁ተከትሎ	-10.8009
▁this	-10.8013
eck	-10.8021
▁ግብጽ	-10.8023
አዲሱ	-10.8026
ሡ	-10.8027
att	-10.8027
▁እይታዎች	-10.8028
▁ንብርብ	-10.8029
2.1	-10.8029
▁መቆጣጠር	-10.8035
new	-10.8038
ኼድ	-10.8041
▁በሃይድሮሊክ	-10.8041
▁አስተሳሰብ	-10.8041
▁ጮኸ	-10.8041
▁አብሳሪ	-10.8041
▁ሰጥቶ	-10.8044
▁Inc	-10.8045
ቃወም	-10.8047
▁ሚሊ	-10.8055
lip	-10.8058
ire	-10.8061
አባትህ	-10.8065
ኮምፒተር	-10.8074
▁በየጊዜው	-10.8074
▁ፈረሶች	-10.8074
are	-10.8075
▁እምቢ	-10.8084
▁የሌላ	-10.8092
▁ዕዳ	-10.8093
ution	-10.8095
ጧል	-10.8097
ህይወ	-10.8102
ህዝብ	-10.8103
MB	-10.8104
▁ሪፖርቶች	-10.8106
▁ታኅሣሥ	-10.8106
▁በሰፊው	-10.8106
▁Dec	-10.8107
▁ልምዶች	-10.8107
▁መልዕክቶች	-10.8109
ፍላጎ	-10.8112
PT	-10.8116
▁SE	-10.8119
▁አህያ	-10.8119
5.0	-10.8121
▁ድግ	-10.8125
▁ሜታል	-10.8128
ዲስትሪክት	-10.8139
▁ኢንቨስት	-10.8139
▁ኦክስጅን	-10.8139
▁ይመለሳል	-10.8139
▁ሌዋውያን	-10.8139
ህፃናት	-10.8139
▁ይኖረዋል	-10.8139
▁በመስራት	-10.8139
▁የማይችሉ	-10.8141
▁አራዊት	-10.8142
▁ለመመለስ	-10.8146
▁የምታውቁ	-10.8146
▁እንደነበረ	-10.816
▁በመሠዊያው	-10.8172
▁ፕሮቶኮል	-10.8172
▁ይፈትሹ	-10.8172
▁በምትሠሩት	-10.8172
▁የኬሚካል	-10.8172
▁ከክፉ	-10.8174
ገጠር	-10.8175
▁ባህር	-10.8176
▁ወጭ	-10.8184
4.0	-10.8191
▁አዘነ	-10.8192
▁PE	-10.8194
▁እንደሆኑ	-10.8196
▁ድካም	-10.8206
="18	-10.8207
▁ሜጋን	-10.8208
▁የዋለ	-10.8216
▁ይከተሉ	-10.8217
ከራከር	-10.8222
ሳለች	-10.8222
▁አትክልቶች	-10.8224
አፍሪካ	-10.8226
▁መለወጫ	-10.8238
▁መስጊድ	-10.8238
▁ተለውጧል	-10.8238
▁በተፈጥሮ	-10.8238
ስወግድ	-10.8238
▁Pocket	-10.8238
▁ግርማ	-10.8239
▁ውሏል	-10.8243
ገለጽ	-10.8245
▁ለመደገፍ	-10.8246
ከለከል	-10.8252
gov	-10.8255
▁ታሪኮች	-10.8271
▁ማጥመድ	-10.8271
ተመዘገቡ	-10.8271
▁ክሪስ	-10.8272
▁የሰማይ	-10.8275
▁ንጥል	-10.8275
ተፈቀደ	-10.8279
▁ካንተ	-10.8281
ቻሉ	-10.8289
°	-10.829
▁በእጅህ	-10.8296
▁የወንድ	-10.83
▁3000	-10.8302
ş	-10.8304
ه	-10.8304
▁ከጥቂት	-10.8304
▁ምንጣፍ	-10.8304
▁ዘካንም	-10.8304
▁ተመላሽ	-10.8304
▁ምኞት	-10.8304
▁ምድጃ	-10.8304
▁ሠሪ	-10.8305
ገጣጠ	-10.8306
▁ያያሉ	-10.8307
▁የጭነት	-10.8308
="0.2	-10.831
4.2	-10.833
120	-10.8333
▁Twitter	-10.8337
▁አቀፋዊ	-10.8337
▁ኪንግደም	-10.8337
▁ዘይቤ	-10.8337
▁በብዛት	-10.8337
▁ለማጥፋት	-10.8338
▁የኤሌክትሮኒክስ	-10.8339
▁ዘውታሪ	-10.8339
▁መልክተኞቹ	-10.834
▁የተደረጉ	-10.8342
4.1	-10.8352
ተከታታይ	-10.8355
▁ማስተር	-10.8356
ፓይ	-10.8361
▁መለኪያዎች	-10.8361
OD	-10.8369
▁str	-10.8369
ሱለይማን	-10.8371
▁WhatsApp	-10.8371
▁የአውታረ	-10.8371
▁ማሸነፍ	-10.8371
▁ወኪል	-10.8371
▁ጭማሪ	-10.8371
▁ፍርዱ	-10.8372
▁ለራሱ	-10.8374
ኹኑ	-10.8375
exe	-10.8377
▁ሂዱ	-10.8385
by	-10.8386
አንጎል	-10.8393
▁መረጠ	-10.8394
ጉዳት	-10.8394
▁ፖሊሲዎች	-10.8403
ዪ	-10.8404
▁መጫወቻ	-10.8404
▁እርጥበት	-10.8404
ሽያጭ	-10.8404
roid	-10.8405
ቀበለው	-10.8405
other	-10.8415
ቈጣ	-10.8416
ረጋገጥ	-10.8418
tab	-10.8421
ሜክሲኮ	-10.8438
ጼ	-10.8438
▁መንግሥታት	-10.8438
▁አልረሕማን	-10.8438
▁አውቶማቲክ	-10.8438
▁ይታወቃል	-10.8438
▁እፈራለሁ	-10.8438
▁1:1	-10.8441
102	-10.8448
▁መጻፍ	-10.8451
ስተባበሉ	-10.8462
▁ዋይ	-10.8464
CH	-10.8466
="9	-10.8468
▁አንቀጾቻችን	-10.8472
▁የሲቪል	-10.8472
▁አወረድነው	-10.8472
▁ራውተር	-10.8472
▁ቶማስ	-10.8472
▁ከፊላችሁ	-10.8472
ሚደረገው	-10.8472
አሁኑኑ	-10.8473
▁Red	-10.8478
ene	-10.8482
▁ባንድ	-10.8483
ave	-10.8487
ized	-10.8489
its	-10.8496
▁Web	-10.8505
▁ኤግዚቢሽን	-10.8506
▁ደሴቶች	-10.8506
▁ተደራሽ	-10.8506
▁መድረስ	-10.8507
shi	-10.8509
▁የሚከተለውን	-10.8511
▁መቋቋም	-10.8514
አማርኛ	-10.8519
▁ማጣት	-10.8521
▁All	-10.8527
ley	-10.8528
[	-10.8529
▁ውሎች	-10.8535
ወድቅ	-10.8538
▁መመገቢያ	-10.854
▁መገሰጫ	-10.854
▁ኢሳይያስ	-10.854
▁ድንጋዮች	-10.854
▁ውጥረት	-10.854
▁ይኖራሉ	-10.854
▁ሻወር	-10.8542
book	-10.8542
መግባ	-10.855
▁ከፊሉ	-10.8558
▁የላከ	-10.8558
▁ተመልሰው	-10.8562
ያቃጥ	-10.8564
▁ሙከራዎች	-10.8567
▁መልካምንም	-10.8568
ማጭበርበር	-10.8574
▁ድምጾች	-10.8574
▁መጽሔት	-10.8574
="17	-10.8575
ካተቱ	-10.8577
▁በሥጋ	-10.8578
▁ውጊያ	-10.8579
▁ለመቆጣጠር	-10.858
▁ብሉይ	-10.8585
▁መሸጥ	-10.8593
▁Freedom	-10.8608
▁Holmbygden	-10.8608
▁መድሃኒቶች	-10.8608
▁ተሰጥቶታል	-10.8608
▁ውፅዓት	-10.8608
▁ለመስራት	-10.8608
▁ማቆሚያ	-10.8608
▁ይኹን	-10.8608
▁የህይወት	-10.8609
ያስፈልግ	-10.8616
▁መንደር	-10.8619
ጨለማዎች	-10.8619
▁ፆታ	-10.862
="16	-10.8626
ath	-10.8628
▁ኮዶች	-10.8632
▁ታንክ	-10.8637
jo	-10.8638
8.1	-10.864
▁ሆርሞን	-10.8642
▁ሰንጠረዥ	-10.8642
▁በገሀነም	-10.8642
▁ተፈጻሚ	-10.8642
▁መፍጨት	-10.8642
▁ማመልከት	-10.8643
TU	-10.8643
▁ባንኮች	-10.8643
▁እግሮች	-10.8643
▁ማለፊያ	-10.8645
▁እገዳ	-10.8651
file	-10.8651
▁ሊያደርግ	-10.8659
ney	-10.866
መልሰው	-10.8662
▁Chang	-10.8663
▁ይህቺ	-10.8673
▁ለሕዝቡ	-10.8677
▁ከይሁዳ	-10.8677
▁በተግባር	-10.8677
▁የታመነ	-10.8679
ሪዮ	-10.8679
▁ቴፕ	-10.8681
4.7	-10.8681
▁የጥርስ	-10.8681
▁ክሊኒ	-10.8682
cho	-10.8683
▁ነፃነት	-10.8683
ሶቹ	-10.8683
oto	-10.8689
▁ጥንድ	-10.8691
▁Dis	-10.8697
▁በራሪ	-10.8701
Tension	-10.8711
▁በጨረር	-10.8711
▁ባሻገር	-10.8711
▁ቅርጫት	-10.8712
▁በፊታቸው	-10.8712
▁አጋሮች	-10.8713
ከፈት	-10.8713
ተማሪ	-10.8713
መደቡ	-10.8719
▁መፈለግ	-10.8722
ያሳዩ	-10.8722
7.5	-10.8731
መካከለኛ	-10.8742
▁Pre	-10.8745
▁በጥንቃቄ	-10.8746
▁መልካሙን	-10.8746
▁ስማርት	-10.8747
▁ህመም	-10.8748
▁ፋክስ	-10.8749
▁ይጠይቁሃል	-10.875
king	-10.875
▁ጫና	-10.8751
▁ካህን	-10.8756
▁MP	-10.8756
▁ጉዳቶች	-10.8758
rg	-10.8758
ቤተሰብ	-10.8761
▁አባቶቻቸው	-10.8777
▁ተጽእኖ	-10.8781
▁አስፈፃሚ	-10.8781
▁ዕለታዊ	-10.8781
▁ሀብቶች	-10.8781
▁እስካሁን	-10.8781
▁ቀጭን	-10.8781
▁እጆች	-10.8782
ጨምሩ	-10.8787
▁በመተባበር	-10.8792
▁የካደ	-10.8799
-01-	-10.88
avi	-10.8805
መንዳት	-10.8808
▁ነበርና።	-10.8812
▁ወገኖቼ	-10.8816
▁የባቢሎን	-10.8816
▁smtp	-10.8816
▁ውጤታማነት	-10.8818
▁አሠራር	-10.8818
lum	-10.884
ተቀባ	-10.8851
▁blockchain	-10.8851
▁ለንጉሡ	-10.8851
▁ኢንተርናሽናል	-10.8851
▁ድርጊቶች	-10.8851
▁ራዕይ	-10.8851
▁ይወድቃሉ	-10.8851
▁የተያያዙ	-10.8851
▁ገበታ	-10.8851
▁ከጌታው	-10.8852
="2.9	-10.8854
bal	-10.8854
▁ቀለበት	-10.8854
▁የሚያስፈልገው	-10.8854
▁ከመልካም	-10.8857
▁ጭምር	-10.8858
▁አማካይነት	-10.8863
▁የሚያውቅ	-10.8865
▁መጫወት	-10.8873
▁ሱቅ	-10.8875
▁Bajaj	-10.8886
▁ድራይቭ	-10.8886
▁አልቻሉም	-10.8886
ስትራ	-10.8887
▁ማሻሻያዎች	-10.8888
▁የንብረት	-10.8896
▁pre	-10.8899
ሲንጋፖር	-10.8922
▁tension	-10.8922
▁ማኔጅመንት	-10.8922
▁ይቀላቀሉትና	-10.8922
▁ግላዊነት	-10.8922
▁ባቡሮች	-10.8922
▁ማሟላት	-10.8922
ደበቁ	-10.8923
▁ሲስተም	-10.8923
▁ትክክለኛውን	-10.8936
▁እንዲያገኙ	-10.8938
እርሱ	-10.8939
▁ሻማ	-10.8946
ሸጡ	-10.8952
="14	-10.8953
▁እንቅልፍ	-10.8957
▁ይዟል	-10.8957
▁ያገኛል	-10.8959
▁ነገሠ።	-10.896
▁የብዙ	-10.8961
▁ልመና	-10.8961
▁አሪፍ	-10.8961
▁ወደእናንተ	-10.8965
2013	-10.8969
ወደዱ	-10.8976
ring	-10.8983
lat	-10.8987
kin	-10.8992
▁ዮርዳኖስ	-10.8993
▁የተሳሳተ	-10.8993
ሙስሊም	-10.8993
ቢዝነስ	-10.8993
▁Gaming	-10.8993
▁ይሄዳሉ	-10.8993
▁ያማረ	-10.8997
fu	-10.9001
ኒየም	-10.9005
▁ሄዶ	-10.9008
▁Jin	-10.9012
▁ለማንኛውም	-10.9012
ፎርድ	-10.9014
="13	-10.9014
ቀጥል	-10.9014
▁ማተም	-10.9018
▁ኾነች	-10.9022
▁ማቀናበር	-10.9028
▁ኢንጂነሪንግ	-10.9028
▁ይበልጣል	-10.9028
▁ህንፃ	-10.9029
▁ልምምድ	-10.9029
▁እንመልከት	-10.9029
▁የፋይል	-10.9031
▁ለኾኑት	-10.9031
▁ሉጥ	-10.9042
መስለው	-10.9046
RU	-10.9047
ስጠጋ	-10.9053
▁መጓጓዣ	-10.9064
▁እያንዳንዳቸው	-10.9064
▁የትራንስፖርት	-10.9064
▁የዱቄት	-10.9064
▁ድምፆች	-10.9064
▁የዩክሬን	-10.9064
▁Speed	-10.9064
wiki	-10.9065
▁ሐኪም	-10.9065
5.1	-10.9066
ND	-10.9077
አላህ	-10.9091
▁ሜዲካል	-10.91
▁ለማሳካት	-10.91
▁ቁፋሮ	-10.91
ኤፒኬ	-10.91
▁አሜን	-10.9101
▁ሌሎቹ	-10.9101
▁ጥንታዊ	-10.9101
▁በፍቅር	-10.9101
▁ይወቁ	-10.9105
ነበብ	-10.911
መስሉ	-10.9115
▁በአገር	-10.9118
▁ግለ	-10.9119
▁የተሰጣቸው	-10.9133
but	-10.9136
ጥንቁቆቹ	-10.9136
▁ምንድነው	-10.9136
▁ለመውሰድ	-10.9136
▁ይቆጠራል	-10.9136
▁ጥልቀት	-10.9136
▁ሞዱል	-10.9137
uff	-10.9141
▁ቀመር	-10.9144
▁ለመሄድ	-10.9146
ትውልድ	-10.9146
2000	-10.9147
▁sub	-10.9149
ሰነድዎ	-10.9159
▁0086-	-10.9173
▁ምረጡ	-10.9173
▁GBP	-10.9173
▁የርቀት	-10.9173
▁ማራኪ	-10.9173
▁ከብር	-10.9177
▁በማቅረብ	-10.9182
ሜትር	-10.9195
▁እንፈልጋለን	-10.9209
▁ሰብሳቢ	-10.9209
▁ዳንኤል	-10.9209
▁መድረሻ	-10.9209
▁የማያስገባ	-10.9209
▁መርዳት	-10.9209
▁የሚያምር	-10.9211
▁ፈንድ	-10.9217
ዝርዝር	-10.922
ጥያቄ	-10.922
▁የሚያደርገው	-10.9228
▁unit	-10.9228
▁ሰቆች	-10.9233
ዲዛይ	-10.924
▁የድንጋይ	-10.9245
▁በዳዊት	-10.9245
▁የድምፅ	-10.9245
▁Prepar	-10.9246
▁የወንዶች	-10.9246
▁ፖሊስተር	-10.9247
▁ልብሱን	-10.9247
▁የሥነ	-10.9248
ቀመጠው	-10.9248
እንዲ	-10.9248
2.7	-10.9249
ሚባለው	-10.9252
▁የፕሮግራም	-10.9252
ጠየቃ	-10.9257
▁መገልገያዎች	-10.9258
ኞቻቸው	-10.9262
▁አማካይ	-10.927
▁ከማንኛውም	-10.9275
▁ሆነዋል	-10.9281
▁ማስጀመሪያ	-10.9282
▁ኮክፒት	-10.9282
▁በዋናነት	-10.9282
▁እንግዶች	-10.9282
▁በተለየ	-10.9283
▁ደርሶ	-10.9284
▁ሙጫ	-10.9289
▁ግዜ	-10.9291
▁ሕንፃዎች	-10.9292
ከማቸ	-10.9296
▁አምጣ	-10.9298
▁የአለም	-10.9302
▁ምሰሶ	-10.9312
▁መብል	-10.9312
▁ዑደት	-10.9319
xbet	-10.9319
▁ቆይተዋል	-10.9319
ሻለሁ	-10.9319
▁መገኘት	-10.932
ology	-10.9322
አእምሮ	-10.9326
መኖሪያ	-10.9331
2.2	-10.9347
LC	-10.9347
▁ሕብረቁምፊ	-10.9356
▁ዒላማ	-10.9356
▁የሚቀርጸው	-10.9356
▁ይኾናሉ	-10.9356
ድንገተኛ	-10.9356
▁ሐሳቦች	-10.9356
▁የሚቃጠለውን	-10.9356
▁ይውላል	-10.9358
▁ዜጋ	-10.9361
ሰቃየ	-10.9361
▁በላዩ	-10.9363
▁Bit	-10.937
▁ሽታ	-10.9371
ፆ	-10.938
ration	-10.9381
▁3:1	-10.9385
▁ጊዜያት	-10.9386
▁Blackjack	-10.9393
▁Europe	-10.9393
▁አፑስካርድ	-10.9393
▁ሰብዓዊ	-10.9393
▁የተለያየ	-10.9393
▁ረዥም	-10.9393
▁የወሲብ	-10.9393
▁እውቂያ	-10.9393
▁የሚሾር	-10.9393
▁አዝመራ	-10.9393
ቪድዮ	-10.9395
▁በመከራ	-10.9411
አስተዳደ	-10.9412
በኣል	-10.9418
transposh	-10.943
▁ሕዝቅያስ	-10.943
▁በዓለማት	-10.943
▁Technology	-10.943
▁ያቀርባሉ	-10.943
▁ምሁራን	-10.943
▁AUD	-10.943
▁እላችኋለሁ፥	-10.943
▁ቅርጸት	-10.943
▁ምረጥ	-10.9431
ተቀመጠ	-10.9431
▁አሸዋ	-10.9432
▁ማደያ	-10.9433
▁ሶኬት	-10.9434
መስመር	-10.9435
6.0	-10.9435
▁ብሩህ	-10.9436
ቀላል	-10.9444
▁ብቅ	-10.9447
▁dis	-10.9448
par	-10.9453
ref	-10.9458
▁Mill	-10.9459
ature	-10.9461
ili	-10.9464
▁መሸፈኛ	-10.9467
▁መዛግብት	-10.9467
▁ወሮበላ	-10.9467
▁የወደፊት	-10.9467
▁ፑቲን	-10.9467
▁ቃሌን	-10.9467
▁የወንጀል	-10.9469
▁ደሴት	-10.947
TI	-10.9473
ቾ	-10.9475
SU	-10.9478
▁90%	-10.9487
▁ትራንስ	-10.9504
▁English	-10.9505
▁በዮርዳኖስ	-10.9505
▁የአገልጋይ	-10.9505
▁ይፈጥራል	-10.9505
▁ፊልሞች	-10.9505
ያስከትል	-10.9505
▁እጥረት	-10.9505
ሳተፉ	-10.9506
="2.8	-10.9508
ጸልይ	-10.9511
▁ቢሆኑ	-10.9511
ኛለህ	-10.9511
▁እራስ	-10.9515
▁XXL	-10.9515
▁ወጥተው	-10.9517
▁የቀለም	-10.9524
ሙከራ	-10.9525
▁ቀጥሎ	-10.9529
▁ጭቃ	-10.9531
▁አድማ	-10.9532
▁ማለፍ	-10.9535
እርግዝና	-10.9542
ፕሮጀክቱ	-10.9542
፰	-10.9542
▁PTFE	-10.9542
▁ለሕዝብ	-10.9542
▁ሀብታም	-10.9542
▁ክላሲክ	-10.9542
▁መስኮቶች	-10.9542
RW	-10.9543
▁አጋሪዎች	-10.9543
▁ቀጣዩ	-10.9543
▁በሺዎች	-10.9544
▁የበደሉት	-10.9545
▁ማኅበር	-10.9546
▁ሴቲቱ	-10.9546
▁ሽማግሌ	-10.9548
▁ባሮቼ	-10.9551
▁ለመሞከር	-10.9556
hua	-10.9559
▁Or	-10.9559
uth	-10.9568
ችግር	-10.9577
▁ሳንቲሞች	-10.958
መኾናችን	-10.958
и	-10.958
▁ማወቂያ	-10.958
▁ባደረገ	-10.958
aster	-10.9583
አምልኮ	-10.9583
▁ተሰበሰቡ	-10.96
▁ዳኛ	-10.96
ሰማያዊ	-10.9614
ember	-10.9614
▁ኮሌጆች	-10.9618
▁ንገሩኝ	-10.9618
▁ከጌታዬ	-10.9618
▁ካርቶን	-10.9618
▁ከሴቶች	-10.9619
▁ተጠያቂ	-10.9621
▁Jun	-10.9621
ቆጣጠር	-10.9622
ING	-10.9622
▁ዘሮች	-10.9628
▁የዱር	-10.9634
ient	-10.9636
ቲያ	-10.9639
ለማመ	-10.964
ቁጥር	-10.9646
አንደኛ	-10.9654
▁ነበልባል	-10.9656
▁የተቀናጀ	-10.9656
▁HGH	-10.9656
▁አዋቅር	-10.9657
ጠራቸው	-10.9659
▁ዌብ	-10.9662
▁እየፈለጉ	-10.9664
▁ወዳለው	-10.9672
▁1200	-10.9685
ቻይና	-10.9692
ክርስቲያናት	-10.9694
▁እሽቅድምድም	-10.9694
▁ለመገናኘት	-10.9694
▁መረጋጋት	-10.9694
ሳለቁ	-10.9696
▁ይጠፋል	-10.9696
መምጣቱ	-10.9697
▁ግልፅ	-10.9702
ition	-10.9707
▁50%	-10.9707
▁ሰገዱ	-10.9707
grad	-10.971
▁ልባቸው	-10.9716
train	-10.9722
▁ያንሱ	-10.9723
▁አብራሪ	-10.9723
ስርዓት	-10.9723
▁ወሮች	-10.9725
▁ራቁ	-10.9726
▁ኢዮአብ	-10.9732
▁ያገለግላል	-10.9732
▁እንመነዳ	-10.9732
▁ከባሮቹ	-10.9733
▁ABS	-10.9741
ise	-10.9742
▁ጨው	-10.9745
አቀፍ	-10.9763
▁ተለይተው	-10.9771
▁ከሕዝቡ	-10.9771
ንጽሕና	-10.9771
ያስፈልጋቸው	-10.9771
▁ተወያዩ	-10.9771
▁ማህበረሰቦች	-10.9771
ቸዋለች	-10.9771
▁አቀፉ	-10.9772
url	-10.9775
▁ያጋሩ	-10.9784
bb	-10.9785
ተንቀሳቃሽ	-10.9799
4.4	-10.9809
▁ተረጋገጠ	-10.9809
▁የደብዳቤ	-10.9809
▁ለዳዊት	-10.9809
▁አጥራቢ	-10.9809
▁ሦስቱ	-10.9809
▁ቤተክርስቲያን	-10.9811
▁ምስክሮች	-10.9812
▁ገጸ	-10.9817
▁የተከበረ	-10.9829
▁Read	-10.9831
▁አንቀሳቅሷል	-10.9848
ስማርትፎን	-10.9848
▁ኃጢአተኞች	-10.9848
▁ኪሳራ	-10.9849
▁ይገባሉ	-10.9853
▁መርሃ	-10.9855
መሰክር	-10.9858
▁ሕጉ	-10.9871
0.000	-10.9873
2011	-10.9875
ላደረገ	-10.988
▁ልጆቼ	-10.9887
▁ተገኝተዋል	-10.9887
▁ይሂዱ	-10.9887
meter	-10.9887
▁ማሳየት	-10.9888
▁ሰደደ	-10.9889
▁አግዶ	-10.989
▁በከተማይቱ	-10.9903
row	-10.9908
ቪዲዮ	-10.9921
\	-10.9922
እስከ	-10.9925
▁አቀባበል	-10.9926
▁የካርቦን	-10.9926
▁ያካተተ	-10.9926
▁ዉስጥ	-10.9926
▁የሕዝቡ	-10.9926
ከናወነ	-10.9926
▁ስሪቶች	-10.9926
▁እጀታ	-10.9927
ja	-10.9938
ram	-10.9954
how	-10.9962
▁ደጃፍ	-10.9965
craft	-10.9965
፲፱፻፺	-10.9965
▁ጥምረት	-10.9965
▁መክፈቻ	-10.9965
ነጋገሩ	-10.9968
ከፈቱ	-10.9981
እያንዳንዱ	-10.9981
="3.9	-10.999
▁ደንቆሮ	-11.0005
▁ያገለገለ	-11.0005
▁ቤተሰቦቹ	-11.0005
▁ደላላ	-11.0005
▁ODM	-11.0005
ፍትወት	-11.0005
▁የልደት	-11.0006
▁አመንን	-11.0009
ሟቸው	-11.0013
ጠራጠሩ	-11.0017
This	-11.0023
fight	-11.0026
ብርሃን	-11.0032
ፈርዱ	-11.0041
https	-11.0044
አቤሴሎም	-11.0044
▁ተዓምራት	-11.0044
▁እሄዳለሁ	-11.0044
▁ፍልስፍና	-11.0044
▁ተቀምጠው	-11.0044
ጨዋታ	-11.0045
▁ሽግግር	-11.0045
▁በርሳችሁ	-11.0047
under	-11.0049
▁ለሚያምኑ	-11.0051
▁pm	-11.0055
ገለጹ	-11.0062
ሸከማ	-11.0063
▁Slots	-11.0065
ዳውድ	-11.0067
▁አታድርጉ	-11.0084
▁ዳግመኛ	-11.0084
▁መለየት	-11.0084
▁ማኅበራዊ	-11.0084
▁ግምጃ	-11.0084
▁የፍጥነት	-11.0084
ፑ	-11.0085
▁ለሙሉ	-11.0087
="2.1	-11.0089
▁ግቦች	-11.0092
▁የገነት	-11.01
ተከሰተ	-11.0122
▁ሶላትን	-11.0122
▁ተፈጥሯዊ	-11.0124
▁ትግርኛ	-11.0124
▁ንዳይፈስ	-11.0124
▁የአሕዛብ	-11.0124
▁ያረጋግጣል	-11.0124
▁የግድግዳ	-11.0124
▁ካቢኔ	-11.0124
ስርዓቱ	-11.0126
#	-11.0126
~	-11.0126
▁የለንም	-11.0135
▁ቀውስ	-11.0139
4.3	-11.0139
▁PSA	-11.014
▁ሣር	-11.0142
▁በተባሉ	-11.0153
ቆጠሩ	-11.0161
▁አውሳ	-11.0162
▁ትንቢተ	-11.0164
▁አሳልፌ	-11.0164
▁አያስፈልግም	-11.0165
▁ጭንቅ	-11.0168
▁ካለዎት	-11.0168
ead	-11.0175
▁Long	-11.0185
▁መከላከል	-11.0189
ፈጠራቸው	-11.0201
ተጠያቂነት	-11.0201
2.0	-11.0202
▁የቢስክሌት	-11.0204
▁ጠረጴዛ	-11.0204
▁ማዕከላት	-11.0204
▁SKU	-11.0204
▁የብየዳ	-11.0204
▁XXXL	-11.0204
▁ንጥሎች	-11.0204
▁በደህና	-11.0204
ቀጠሮ	-11.021
▁ሰማሁ	-11.0215
▁ፈሪዎች	-11.0217
▁በገነት	-11.0219
play	-11.0219
="24	-11.0221
▁በአለም	-11.0222
="1.7	-11.0223
ጦርነት	-11.0226
▁ሙሳንም	-11.0231
content	-11.0244
▁እርካታ	-11.0244
▁ይቀጥላል	-11.0244
▁አድርገህ	-11.0244
▁ለካዱት	-11.0244
▁ክልላዊ	-11.0245
part	-11.0246
▁ጣልቃ	-11.0247
▁ሰቅል	-11.0248
▁ለምንድን	-11.0255
1.6	-11.0257
ተገደሉ	-11.0282
ኮሙኒኬሽን	-11.0285
▁Online	-11.0285
▁ርኵሰት	-11.0285
▁ተቀይሯል	-11.0285
▁ተፅእኖ	-11.0285
▁አሰጣጦች	-11.0285
▁የኢየሩሳሌም	-11.0285
▁የነርቭ	-11.0285
▁ወደኋላ	-11.0285
▁ኤልያስ	-11.0285
▁ጓንት	-11.0286
rv	-11.03
page	-11.0304
▁መርህ	-11.0324
▁ባቢሎን	-11.0325
▁ከዓለማት	-11.0325
▁ግሳጼ	-11.0325
ገፆች	-11.0325
▁ትላልቅ	-11.0325
▁በመጥፎ	-11.0326
▁ተመራቂ	-11.0326
▁ማስተካከል	-11.0326
▁ኃያል	-11.0326
▁ወይፈን	-11.0327
▁ልቀት	-11.0328
▁ህጎች	-11.0328
▁ከሩቅ	-11.0332
ቴክኖሎጂ	-11.0337
▁POS	-11.0339
▁ለማዳን	-11.0343
="21	-11.0354
▁ኃያላን	-11.0366
▁ሩሲያ	-11.0366
▁አፈጉባኤ	-11.0366
▁አመታት	-11.0366
ሃይድሮ	-11.0366
▁መልእክተኛ	-11.0367
▁ራዲ	-11.0369
▁ግብዣ	-11.037
ኒሶታ	-11.0372
▁ግብፅ	-11.0374
▁የጥፋት	-11.0375
1,000	-11.0379
▁ላኪ	-11.038
ሏችሁ	-11.04
hang	-11.0403
▁ስንት	-11.0405
▁ሁል	-11.0406
▁የበግ	-11.0407
▁አመስግኑ	-11.0407
▁የሞተርሳይክል	-11.0407
▁ይስሐቅ	-11.0407
▁አትፍሩ	-11.0408
▁ሆኜ	-11.0408
▁ሲቪል	-11.0408
ጨመሩ	-11.0408
▁መለያየት	-11.041
▁አይገባም	-11.0412
▁የወጪ	-11.0412
▁በቅጣት	-11.0412
▁አቃፊ	-11.0413
▁የበላይነት	-11.0418
▁አድራሻዎን	-11.0422
▁መካን	-11.0448
▁discusssions	-11.0448
▁ሾፌር	-11.0448
▁አከፋፋይ	-11.0448
▁ውህደት	-11.0448
▁እሰጣለሁ	-11.0448
▁ሮቦት	-11.0448
▁ማስታወስ	-11.0449
መፍቀድ	-11.0449
▁have	-11.045
ታዳጊ	-11.045
ship	-11.0451
▁ዘፈን	-11.0454
val	-11.0454
="1.8	-11.046
ኳቸው	-11.0466
▁ሕዝቦቹ	-11.049
▁ተለዋጭ	-11.049
▁ከፈርዖን	-11.049
▁እርግጥ	-11.049
hydro	-11.049
="2.6	-11.049
▁ግዛቶች	-11.0491
▁በእግር	-11.0491
▁ማንሳት	-11.0496
ያዳምጡ	-11.0498
፲	-11.0505
raw	-11.0507
▁ላቀ	-11.0508
▁comp	-11.051
ጴ	-11.0531
ናቡከደነፆር	-11.0531
▁ይመስለኛል	-11.0531
▁ጕድጓድ	-11.0531
▁አዋራጅ	-11.0531
▁ይውሰዱ	-11.0531
▁ኬሚካሎች	-11.0531
▁ማግኛ	-11.0533
="3.0	-11.0537
▁አውሬ	-11.0539
መረጃ	-11.054
መላለስ	-11.0542
▁ቆይታ	-11.0554
▁የፕሮጀክት	-11.0573
▁ይስቀሉት	-11.0573
▁ጠቀሜታ	-11.0573
▁ይሏቸዋል	-11.0573
ቀጣጥፉ	-11.0573
▁የአስተዳደር	-11.0574
▁ኃጢአተኛ	-11.0579
1.3	-11.0613
▁የገሀነም	-11.0615
▁አገራት	-11.0617
▁ጨረቃንም	-11.0628
ገመት	-11.0635
ከማቻ	-11.0639
Manufacturer	-11.0657
▁ምሕረቱ	-11.0657
▁ከቁርኣን	-11.0657
▁ዕረፍት	-11.0657
▁UHF	-11.0657
▁ኺዱ	-11.0657
▁በዳዮቹ	-11.0657
▁አፍቃሪ	-11.0658
አስከፊ	-11.0661
▁ሎሌ	-11.0666
ቻይንኛ	-11.0676
ዲጂታል	-11.0677
▁በልዩ	-11.0679
▁አላገኘ	-11.0695
umb	-11.0697
▁ለሕዝቦቹ	-11.0699
▁በቁርኣን	-11.0699
መሳሰል	-11.0699
▁ሻንጣ	-11.0699
▁የእርሻ	-11.0699
▁ስድሳ	-11.07
▁አንግል	-11.07
▁መስሪያ	-11.0709
እጅ	-11.0709
▁Trans	-11.0709
-09-	-11.0714
It	-11.0716
▁ሊወስድ	-11.0718
ሕዝቦች	-11.0721
አንቀጽ	-11.0722
▁የተናገረው	-11.0724
አይፒ	-11.0726
▁ከሚገኙ	-11.0734
▁የጎንዮሽ	-11.0741
▁አመልካቾች	-11.0741
▁የፍለጋ	-11.0741
▁ሰጋጆች	-11.0741
▁ፍትህ	-11.0742
ሰበስብ	-11.0743
▁ባለሥልጣን	-11.0744
▁ይወጣሉ	-11.0746
▁ግመል	-11.0747
▁not	-11.0764
▁ዳሩ	-11.0769
ኢንዱስትሪ	-11.0774
▁አላየህምን	-11.0784
▁ክምችት	-11.0784
▁የለባችሁም	-11.0784
▁የማያምኑት	-11.0784
▁ይሰጠዋል	-11.0784
▁ንገራቸው	-11.0784
▁አመታዊ	-11.0785
ረሀብ	-11.0785
4.6	-11.0785
▁ሁለገብ	-11.0785
▁Game	-11.0797
▁ደጅ	-11.0807
▁መስገጃ	-11.0827
▁ያስፈልገዋል	-11.0827
▁ለማገልገል	-11.0827
▁በአግባቡ	-11.0827
▁አድርገናል	-11.0827
▁ማእከል	-11.0827
▁ሁከት	-11.0827
እርጅና	-11.0827
▁በላያቸው	-11.0828
▁በራሳቸው	-11.0829
ሳየው	-11.083
▁በቤተ	-11.083
layers	-11.0853
card	-11.0855
▁Slot	-11.0863
▁University	-11.0869
▁ሒሳብ	-11.0869
▁ቀለበቶች	-11.0869
▁ተከላካይ	-11.0869
▁አድራጎት	-11.0869
▁በሩሲያ	-11.0869
▁የግብይት	-11.0869
▁የተለመዱ	-11.087
▁አራተኛው	-11.087
▁እጅህን	-11.0878
▁ፊትህን	-11.0888
vir	-11.0895
▁Cast	-11.0897
ኢህአዴግ	-11.0913
▁መሐንዲሶች	-11.0913
▁ማኅተም	-11.0913
▁ተብቃቂ	-11.0913
▁አልዓዛር	-11.0913
▁በግብጽ	-11.0913
▁ስንኾን	-11.0913
ISO	-11.0914
▁ምናሴ	-11.0914
መሰግን	-11.0917
▁ቁጠባ	-11.0919
▁የክልል	-11.0923
5.6	-11.0923
▁ልኮ	-11.0937
ኢንቨስትመንት	-11.0942
ጣለን	-11.0948
▁ትርጓሜ	-11.0956
ገነዘቡ	-11.0956
▁ቅዳሜ	-11.0956
▁ስልኮች	-11.0956
▁ጓንቶች	-11.0956
▁ፍራንክ	-11.0956
▁በዛሬው	-11.0957
▁አሰራር	-11.0958
አክብሮት	-11.0958
ወዳደር	-11.0965
▁እንደሌለ	-11.0973
ቤታቸው	-11.0975
▁አልሁ።	-11.0982
▁ይጠቀማሉ	-11.0999
▁ተመላሾች	-11.0999
▁አምነናል	-11.0999
ማንኛይቱም	-11.1
▁ያብራራል	-11.1
▁ሂደቱ	-11.1
▁ፍየል	-11.1
ቲካል	-11.1
▁የኑሕ	-11.1002
▁from	-11.1002
▁ቅጠል	-11.1002
ደበቅ	-11.1013
▁ሰንበት	-11.1015
apk	-11.1023
ደነቁ	-11.1033
▁መተላለፊያ	-11.1043
▁ድመቶች	-11.1043
▁ባሕሩ	-11.1043
▁የማገጃ	-11.1043
▁ፒኤች	-11.1045
▁እየተደረገ	-11.1055
ተከለ	-11.1055
▁አስታወቀ	-11.1058
▁ስፍር	-11.1062
ture	-11.1066
▁ሞገድ	-11.1067
8.5	-11.1077
2.8	-11.1082
▁መጠቅለያ	-11.1087
▁ትሆናለች	-11.1087
▁ለመፍታት	-11.1087
▁ተዋጊ	-11.1087
▁ድመት	-11.1088
off	-11.1089
ጸልዩ	-11.1091
="2.2	-11.1091
▁ሩጫ	-11.1095
▁ጡንቻ	-11.1095
▁የእነሱ	-11.1097
ough	-11.1107
test	-11.1108
መከሩ	-11.1109
ኢየሱስ	-11.112
ያዛችሁ	-11.1122
▁ተርሚናል	-11.1131
▁በመጠራጠር	-11.1131
▁ተዘጋጅቷል	-11.1131
▁ዝግጅቶች	-11.1131
▁ወኪሎች	-11.1131
▁በሰባተኛው	-11.1131
▁ዋንጫ	-11.1131
▁ንጣፍ	-11.1132
▁ጉልህ	-11.1132
▁ለንደን	-11.1135
ዝቅተኛ	-11.1171
="29	-11.1171
አውቶቡስ	-11.1175
▁ፕሮፌሰሮች	-11.1175
▁በጉጉት	-11.1175
KHz	-11.1175
▁Chrome	-11.1175
▁ቆጣቢ	-11.1176
▁ሱፐር	-11.1176
▁ስምዖን	-11.1176
▁እንዲችሉ	-11.1176
▁ያልተመደቡ	-11.1176
▁የተሻሉ	-11.1177
▁ለልጆች	-11.1177
ብቃቃ	-11.1178
1.4	-11.1179
ኬሚካ	-11.1183
ild	-11.1188
="3.8	-11.1209
መንግስታዊ	-11.122
▁በዋነኝነት	-11.122
▁ዲሞክራሲያዊ	-11.122
▁ገለልተኛ	-11.122
▁ከበላያቸው	-11.122
▁አዛኙ	-11.122
▁ስልቶች	-11.122
▁ይምራል	-11.122
▁አይቻልም	-11.1221
▁በሙሴ	-11.1222
▁ዋሻ	-11.1232
ፈፀም	-11.1233
6.2	-11.1235
▁ክብሩ	-11.1249
▁የበላይ	-11.1257
س	-11.1264
▁ሻንጋይ	-11.1264
▁አመስጋኝ	-11.1264
▁ያስፈልጋቸዋል	-11.1264
▁ለማሸነፍ	-11.1264
▁በምሥራቅ	-11.1264
▁ኪዳናቸው	-11.1264
="28	-11.1264
▁ለመምራት	-11.1265
አዕምሮ	-11.1265
ልዑል	-11.1265
▁ለመወሰን	-11.1265
▁ሩፒ	-11.1268
▁ፍርይ	-11.127
ጥቃት	-11.1272
post	-11.1283
="3.1	-11.1306
▁ለምእምናን	-11.1309
▁ገንዘቦች	-11.1309
▁ከመልክተኞቹ	-11.1309
sitemap	-11.1309
▁አድናቂ	-11.1309
▁ኦዲዮ	-11.1309
ፓርላማ	-11.1309
▁አንዳንዶች	-11.1309
JPY	-11.1309
▁ምጽዋት	-11.1309
▁ክለብ	-11.1309
▁ጥቅሎች	-11.131
▁ይኖርበታል	-11.131
▁መጠገን	-11.1311
="2.7	-11.1314
መግባባት	-11.1317
▁አባታችን	-11.1318
="23	-11.1322
▁የተሠሩ	-11.133
▁ከሌለ	-11.1353
NUMX	-11.1354
▁በሦስተኛው	-11.1354
▁የአልሙኒየም	-11.1354
▁ዶንግጓን	-11.1354
▁ገመዶች	-11.1354
▁አንጎለ	-11.1354
▁ፍትሕ	-11.1354
ንሸራተ	-11.1354
▁ከግብጽ	-11.1354
▁ሞጁል	-11.1354
▁ምንዳቸው	-11.1355
▁በማናቸውም	-11.1357
="26	-11.136
▁will	-11.1362
▁ሠርተ	-11.1371
ION	-11.138
▁ባሪያዎቹ	-11.1392
ተገናኘ	-11.1395
CHF	-11.1398
ሕይወቴ	-11.1399
▁PayPal	-11.1399
▁ማስተላለፊያ	-11.1399
▁ስቱዲዮ	-11.1399
▁የተነደፈ	-11.1399
▁BreatheLife	-11.1399
▁የሂሳብ	-11.1399
መዋዕለ	-11.1399
▁ደማቅ	-11.14
▁ያስተባበሉት	-11.14
▁Drive	-11.14
ያስተባብሉ	-11.14
ITE	-11.1401
ጮኽ	-11.1401
ታካሚ	-11.141
trac	-11.141
email	-11.1422
▁አራቱ	-11.1427
5.2	-11.1443
9.5	-11.1444
routes	-11.1445
▁ለበርካታ	-11.1445
▁ረቂቅ	-11.1445
▁ከአጋሪዎቹ	-11.1445
▁ይይዛል	-11.1445
▁አያያዥ	-11.1445
▁ትከሻ	-11.1445
ክርስቲያን	-11.1445
▁ኬሚካል	-11.1447
▁አይኖርም	-11.1448
▁ቼክ	-11.1453
▁(3)	-11.1458
ible	-11.1476
▁ከረጢት	-11.149
▁የፖስታ	-11.1491
▁ደርሷል	-11.1491
▁መልቀቅ	-11.1491
▁አይቀርም	-11.1492
▁forex	-11.1494
▁ሴንቲ	-11.1498
cast	-11.1507
▁ጋላክሲ	-11.1536
▁የሚከራከሩ	-11.1536
▁ጽሕፈት	-11.1536
▁ያስፈልግዎታል	-11.1536
▁መግደል	-11.1536
▁NFC	-11.1536
▁በድብቅ	-11.1536
▁ተወካይ	-11.1536
▁ሄበይ	-11.1537
▁ሳሕን	-11.1537
▁እስቴት	-11.1538
ኃይል	-11.155
▁ፍትሃዊ	-11.1564
="27	-11.1571
ዘመን	-11.1579
▁ስህተቶች	-11.1582
▁ቅርንጫፎች	-11.1582
▁ዘምኗል	-11.1582
▁ሊሰነጠቅ	-11.1582
▁የዋስትና	-11.1582
▁ትናንሽ	-11.1583
▁NYE	-11.1583
▁ይወዳሉ	-11.1583
▁name	-11.1583
▁ቸርነት	-11.1583
▁መፍራት	-11.1585
▁በሬዎች	-11.1592
▁ይጠራል	-11.1593
▁ያስባሉ	-11.1594
▁በጌታችን	-11.1601
3.2	-11.1602
ኤሌክትሪክ	-11.161
ተላለፈ	-11.1619
▁ከበጎ	-11.1621
አሽከርካሪ	-11.1629
function	-11.1629
▁ማግኔት	-11.1629
▁አደረጋቸው	-11.1629
▁በጽድቅ	-11.1629
▁ለመምረጥ	-11.1629
▁ወርሃዊ	-11.1629
▁የተያያዘ	-11.1629
▁ሹራብ	-11.1629
▁ማዕበል	-11.1629
▁ሐምራዊ	-11.1629
▁ስትሪት	-11.163
ላካችሁ	-11.163
="2.0	-11.1633
▁የሚያረጋግጥ	-11.1634
▁ፍሪ	-11.1635
▁የጎሳ	-11.1637
▁አክብ	-11.1637
▁የመጠጥ	-11.1643
▁ጾታ	-11.1655
▁ቁሳቁስ	-11.1675
▁አመላካች	-11.1675
▁የኮርፖሬት	-11.1675
▁በፈቃዱ	-11.1675
▁ቅንጅት	-11.1676
▁ስምምነቶች	-11.1676
ጨነቁ	-11.1676
▁አይገባውም	-11.1676
▁Blue	-11.1676
6.9	-11.1696
5.8	-11.1716
▁ውሸታሞች	-11.1722
▁ጆርጅ	-11.1722
▁ገበሬ	-11.1722
▁የሰሜን	-11.1722
▁በደመና	-11.1722
▁መሻሻል	-11.1723
▁ዓርብ	-11.1725
▁የራሳቸውን	-11.1728
▁ዘርፎች	-11.1729
መተግበሪያ	-11.1733
▁ልዩነቶች	-11.1734
="1.9	-11.1739
▁ድሀ	-11.1745
ስልምና	-11.1748
▁የነበራችሁት	-11.1764
▁መቅደሱ	-11.1769
▁ኤርባስ	-11.1769
▁ኅዳር	-11.1769
▁አስተዳደራዊ	-11.1769
▁በውሸት	-11.1769
ወንድሞቻችሁ	-11.1769
ተሳሰ	-11.177
በድል	-11.1774
ጨነቅ	-11.1786
▁አጥንት	-11.1795
▁Pneumatic	-11.1816
▁በነፍሶቻችሁ	-11.1816
▁ወታደሮች	-11.1816
ፋርማሲ	-11.1816
▁ማምረቻ	-11.1816
▁ተለይቶ	-11.1816
▁ITIL	-11.1816
▁በጥቂት	-11.1816
▁ማህተም	-11.1816
▁ባወረደው	-11.1816
ሰቃዩ	-11.1817
በሽታ	-11.1833
color	-11.1833
▁ጠባይ	-11.1833
="1.6	-11.1839
matic	-11.185
▁ኢንስቲትዩት	-11.1863
▁የዓለማት	-11.1863
▁አብያተ	-11.1864
▁አጫውት	-11.1864
▁እናድርግ	-11.1864
▁የቁሳዊ	-11.1864
▁እንስሶች	-11.1864
▁አይበደሉም	-11.1864
▁የዘራፊ	-11.1865
▁ማሰሪያ	-11.1867
▁ደዌ	-11.1869
image	-11.1869
-04-	-11.1884
="3.2	-11.1906
▁ሳምሰንግ	-11.1911
▁በነቢዩ	-11.1911
▁ፈላጊ	-11.1911
▁የባህል	-11.1911
▁ለአባቱ	-11.1911
▁ሩቁን	-11.1911
▁ቅጣተ	-11.1913
▁ከግምት	-11.1913
▁ዘመዶች	-11.1917
▁ኹን	-11.1918
ኛለሁ	-11.1934
ተመረጠ	-11.1939
▁game	-11.1942
soft	-11.1954
ስዊዘርላንድ	-11.1959
▁ገንዘቦቻቸውን	-11.1959
google	-11.1959
▁አርቲስት	-11.1959
▁አጋማሽ	-11.1959
▁ጠማማ	-11.196
▁በመርፌ	-11.196
▁መረቦች	-11.196
▁ግሪን	-11.1961
▁ከመልክተኛ	-11.1961
▁አይሰሙም	-11.1961
▁ይመነዳ	-11.1971
▁ሬሳ	-11.1978
▁5:1	-11.1979
2.3	-11.198
ያዙዋቸው	-11.1984
▁Window	-11.1984
EST	-11.1997
▁November	-11.2007
▁Toyota	-11.2007
▁ተናገራቸው	-11.2007
▁የማምረቻ	-11.2007
▁ዝውውር	-11.2007
="2.4	-11.2007
▁የመብራት	-11.2008
ቆረጡ	-11.2008
▁ሰምተው	-11.201
ዓይኔ	-11.2011
▁አረጋግ	-11.202
▁አይሁን	-11.2022
="1.4	-11.2031
▁የሚበሉ	-11.2037
="1.3	-11.204
▁Ducati	-11.2055
▁ጄኔሬተር	-11.2055
▁የመዝናኛ	-11.2055
▁በከፊል	-11.2055
▁ወንድሞቻቸው	-11.2055
▁እስራት	-11.2056
▁ቅጣቴ	-11.2056
▁ለኃጢአት	-11.2058
▁LLC	-11.206
▁ያለምንም	-11.2063
ሳወቀህ	-11.2063
▁ይስጡ	-11.2072
‹	-11.2077
€	-11.2078
3.1	-11.2089
▁ሬዲዮ	-11.2104
▁ሰይጣናት	-11.2104
▁ሳይንቲስቶች	-11.2104
▁ባልንጀራ	-11.2104
▁ቦረቦረ	-11.2104
▁ማስተዋወቅ	-11.2104
▁ተሰብስበው	-11.2104
▁ወደእነዚያ	-11.2104
▁አስቂኝ	-11.2104
▁የሁለቱ	-11.2104
▁ተሸካሚ	-11.2104
▁ሌሊቱ	-11.2104
▁ዕውሮች	-11.2104
▁ውድቀት	-11.2105
▁እናምናለን	-11.2105
▁ተረቶች	-11.2106
▁ግቤት	-11.2109
▁ሰምቶ	-11.2111
ከላከል	-11.2115
▁ዝማኔ	-11.2121
head	-11.2151
▁ፌዴራላዊ	-11.2153
▁ለመክፈት	-11.2153
▁በፓሪስ	-11.2153
▁እሆናለሁ	-11.2153
▁ዲቪዲ	-11.2153
▁አዝናኝ	-11.2153
▁ቀለማት	-11.2153
▁ካሲኖ	-11.2153
▁ይሰበስባ	-11.2153
▁በጅምላ	-11.2153
▁አልተገኘም	-11.2153
▁የፋይበር	-11.2153
▁ዩአን	-11.2153
ኦፕሬ	-11.2154
7.1	-11.2154
▁ችግሩ	-11.2155
▁በጥሬ	-11.2158
5.7	-11.2161
ማስረጃ	-11.2193
▁ሶዲየም	-11.2202
▁በፈርዖን	-11.2202
▁ፍራፍሬያማ	-11.2202
▁ከመቼውም	-11.2202
▁ይክፈሉ	-11.2202
▁ልቅሶ	-11.2202
▁አምፖል	-11.2202
▁የላይኛው	-11.2202
▁መቀጠል	-11.2202
▁Changzhou	-11.2202
▁ለማገዝ	-11.2202
▁እሥራት	-11.2203
▁ይውላሉ	-11.2204
▁የሚሸፍን	-11.2204
▁ጽፏል	-11.2204
▁ፖለቲካዊ	-11.2204
▁ይሞታል	-11.2204
ተጠቃሚ	-11.2213
▁ታያቸዋ	-11.2214
▁ሻይ	-11.223
አንዲት	-11.2237
▁ste	-11.2237
መራቸው	-11.2244
▁Inter	-11.225
ج	-11.2251
ግገዟቸው	-11.2251
▁ብስክሌቶች	-11.2251
▁የተሸፈነ	-11.2251
▁ያተኮረ	-11.2251
▁አስኪያጅ	-11.2251
▁ፋሲካ	-11.2251
ጎበኙ	-11.2251
▁የግብፅ	-11.2251
search	-11.2252
▁ይጠፋሉ	-11.2252
▁በተሻለ	-11.2252
▁መብላት	-11.2253
▁more	-11.2256
▁ለመጫን	-11.2259
▁በጀርባ	-11.2265
▁አማራ	-11.2265
3.3	-11.2275
አነስተኛ	-11.2281
▁ማጥለያ	-11.23
▁ትፈልጋለህ	-11.23
▁የፒዲኤፍ	-11.23
▁የስጦታ	-11.23
▁Power	-11.23
▁የዳሰሳ	-11.2301
▁ጥቅሶች	-11.2301
▁ሸክላ	-11.2301
▁ተስማም	-11.2301
▁በወቅቱ	-11.2302
▁ጥንዶች	-11.2302
▁እርጉ	-11.2303
▁ጎረቤ	-11.2303
ማውሳት	-11.2305
መሰክሩ	-11.2306
እራስዎ	-11.2309
▁ከመጠን	-11.2312
="4.0	-11.2319
blog	-11.2323
በዳዮች	-11.2332
▁የተለጠፈ	-11.2334
6.1	-11.2347
▁ተለጥፏል	-11.235
▁ተያያዥ	-11.235
▁ኮረብታ	-11.235
▁Wallet	-11.235
▁መከታተያ	-11.235
▁የብድር	-11.2351
▁ማህደረ	-11.2351
▁በሰንበት	-11.2351
▁ጠቦት	-11.2351
▁እድሎች	-11.2351
▁ሕጎች	-11.2353
ስተምር	-11.2358
ኢኮኖሚ	-11.2359
ተለወጠ	-11.2362
▁የገቢ	-11.2381
ትዕዛዝ	-11.2383
ስብሰባ	-11.2385
1.7	-11.2394
▁Ethereum	-11.24
▁ጤንነት	-11.24
▁ሀገራት	-11.24
▁አልችልም	-11.24
▁የእንግሊዝኛ	-11.2401
mobile	-11.2401
▁መብረቅ	-11.2401
▁Anti	-11.2402
▁የጸረ	-11.2405
ደስታ	-11.2419
▁በጦር	-11.2429
ዊያን	-11.2432
Exp	-11.2442
▁ዴሞክራሲያዊ	-11.245
▁የክብር	-11.2451
▁ለዘመንም	-11.2451
▁ጀልባ	-11.2453
▁አምናለሁ	-11.2458
▁ጥቅስ	-11.2464
▁Slotjar	-11.2501
▁ላፕቶፕ	-11.2501
▁መድኃኒቶች	-11.2501
▁የአይሁድ	-11.2501
▁ያስፈልገናል	-11.2501
▁ለሁለቱ	-11.2501
▁ይኖርብናል	-11.2501
▁ኤፍሬም	-11.2501
▁ተመለከተ	-11.2502
▁Baby	-11.2502
▁መክሊት	-11.2502
▁ይበላሉ	-11.2502
▁በነበረው	-11.2505
2.9	-11.2509
ይስጥ	-11.251
አጠቃቀም	-11.254
ያነቡ	-11.2551
▁መታሰቢያ	-11.2552
▁ከአሕዛብ	-11.2552
▁አጋንንት	-11.2552
ቋቋሙ	-11.2552
▁የስፌት	-11.2552
mission	-11.2552
graph	-11.2552
▁ጋብቻ	-11.2553
▁ፊቴን	-11.2554
ጋጠሙ	-11.2556
▁የተስፋ	-11.2563
▁አመጽ	-11.2567
▁ልባችሁ	-11.2569
▁ታገስ	-11.2574
▁Archives	-11.2603
▁ሚስጥራዊ	-11.2603
▁ውይይቶች	-11.2603
▁ዕውቀቱ	-11.2603
▁ቀሚስ	-11.2603
ፎቶግራፍ	-11.2603
▁ማገጃ	-11.2603
▁መጋዘን	-11.2603
▁የማህበረሰብ	-11.2603
▁በአንቺ	-11.2604
Open	-11.2604
ሚመለከተው	-11.2605
▁ቅንጣት	-11.261
▁ITS	-11.2613
ተላለፉ	-11.2617
="1.2	-11.2637
ገንዘቦቻችሁ	-11.2654
▁እርግማን	-11.2654
▁መርሆዎች	-11.2654
▁ይቀንሳል	-11.2654
▁ይኖራቸዋል	-11.2654
▁የታይላንድ	-11.2654
ያስተነትኑ	-11.2655
▁ሥፍራ	-11.2655
▁ሐሰት	-11.2657
▁ታንኳ	-11.266
▁ከኋላቸው	-11.2679
▁School	-11.2706
▁ኢንዳክተር	-11.2706
▁ይደግፋል	-11.2706
▁Aprilia	-11.2706
ኦስትሪያ	-11.2706
▁ከሙታን	-11.2706
▁መርሃግብር	-11.2706
ተቀየረ	-11.2708
▁ወሰዱት	-11.2713
ities	-11.2714
▁መስሎ	-11.2715
▁መኖሩን	-11.2724
ሸፈን	-11.273
="1.5	-11.273
▁በነበሩ	-11.2757
▁በአገሪቱ	-11.2757
▁ጥልፍልፍ	-11.2757
▁Apple	-11.2757
▁ከመልካሞቹ	-11.2757
▁ላመኑት	-11.2757
▁ጠያቂ	-11.2757
▁መተማመን	-11.2757
ሕዝባዊ	-11.2758
▁poly	-11.2758
▁ኺድ	-11.2758
▁አታውቅም	-11.2758
▁በመሥራት	-11.2758
▁ፈልጎ	-11.2759
▁Off	-11.2759
▁በማግኘት	-11.276
ለወጠ	-11.2778
5.3	-11.2782
▁መኝታ	-11.2793
አብዛኛው	-11.28
ፓርቲ	-11.2805
▁የብልግና	-11.2809
▁ሸብልል	-11.2809
▁ለመለየት	-11.2809
▁መሳሳት	-11.281
▁በሳምንት	-11.281
▁ምስሉን	-11.281
▁ግደሉ	-11.281
ቃወሙ	-11.2811
▁ግራፊክስ	-11.2811
▁የፀረ	-11.2812
▁የመጨረሻይቱም	-11.2812
ከማቹ	-11.2812
▁የባትሪ	-11.2814
▁አንዳቸው	-11.2815
መሰረቱ	-11.2816
▁ልጃገረዶች	-11.2862
▁ርዝመቱ	-11.2862
▁ተናግረዋል	-11.2862
ስፈራሩበት	-11.2862
▁የቅንብር	-11.2862
▁የጨረታ	-11.2862
▁ጥቃቅን	-11.2862
▁ትበላላችሁ	-11.2862
▁እጃቸውን	-11.2862
▁ወንጀሎች	-11.2862
▁ስንጥቅ	-11.2862
▁ይቆያል	-11.2862
▁ለመውጣት	-11.2862
▁ኀይል	-11.2862
▁ስጠን	-11.2865
▁ማዕድን	-11.2867
▁ወጥመድ	-11.2868
መያዣ	-11.2869
ዮአስ	-11.2879
ጭረት	-11.2888
መላእክቱ	-11.2914
▁Peugeot	-11.2914
▁ሲነጻጸር	-11.2914
▁ባንዲራ	-11.2914
▁ትስስር	-11.2914
▁በእጃቸው	-11.2915
▁ታክሏል	-11.2915
▁አይሁዶች	-11.2915
▁የእውቂያ	-11.2915
▁ለመሥራት	-11.2915
▁ማርቲን	-11.2915
▁Advi	-11.2917
▁free	-11.2919
="2.3	-11.2919
አዳም	-11.2922
ያውቀው	-11.2922
ያካትት	-11.2942
ኢንፎርሜሽ	-11.2967
ዋሽንግተን	-11.2967
▁የትራፊክ	-11.2967
▁ፍተሻ	-11.2967
▁ጥቃቶች	-11.2968
▁ቱርክ	-11.2968
▁የደመና	-11.2968
▁የግብጽ	-11.2968
▁አቧራ	-11.2968
▁ቅንብር	-11.2968
▁የፎቶ	-11.2969
Direct	-11.297
▁በሴቶች	-11.297
▁እሁድ	-11.297
cryptocurrencies	-11.3021
ሽብርተኝነት	-11.3021
▁ሠንጠረዥ	-11.3021
▁አስቸኳይ	-11.3021
▁አታድርግ	-11.3021
▁የስልጠና	-11.3021
▁መመዘኛ	-11.3021
▁የተባረከ	-11.3021
▁ላለፉት	-11.3021
▁መመገብ	-11.3021
▁ሳንቲም	-11.3021
▁አቤቱታ	-11.3022
▁ንዋይ	-11.3023
▁ሕመም	-11.3023
ተጣለ	-11.3025
ፈጽሙ	-11.3026
▁ሰራተኛ	-11.3027
▁ኃጢአታቸው	-11.3028
▁ተሰጥተዋቸዋል	-11.3074
▁ከኢየሩሳሌም	-11.3074
▁መልካሚቱ	-11.3074
▁አስቀድመው	-11.3074
▁የስኳር	-11.3074
▁ጠጕር	-11.3074
▁መንደሮች	-11.3074
▁አንፃር	-11.3074
▁መሰብሰብ	-11.3074
▁ይፍጠሩ	-11.3074
▁ሐይቅ	-11.3075
▁አህመድ	-11.3076
ተረፈ	-11.3079
ተሰወረ	-11.3079
▁አርቲስቶች	-11.3128
▁እንመክራለን	-11.3128
▁ይሰጣቸዋል	-11.3128
▁ወንበሮች	-11.3128
▁ቁርጠኛ	-11.3128
▁ኮከቦች	-11.3128
▁ጠበቃ፣	-11.3128
▁ምንዛሪ	-11.3128
▁ኃይሌ	-11.3128
▁ዘፈኖች	-11.3128
▁ስጠኝ	-11.3128
▁መልእክተኞች	-11.3128
▁የተለጠፉ	-11.3128
▁ማጠቢያ	-11.3128
▁xNUMX	-11.3128
▁አዛዥ	-11.3128
▁ስሜታዊ	-11.3132
▁በሜዳ	-11.3141
▁አስተካክ	-11.3176
መጥፋት	-11.3177
.06.2015	-11.3182
Armati	-11.3182
▁Manufacturing	-11.3182
▁መዝገቦች	-11.3182
▁ሰረገሎች	-11.3182
▁ፋይናንስ	-11.3182
▁በቅድሚያ	-11.3182
▁ተፈላጊ	-11.3182
▁ዜግነት	-11.3182
ግብፃውያን	-11.3182
▁ጠቦቶች	-11.3182
▁ታደርጋለህ	-11.3182
▁ነፋሶች	-11.3182
▁የዘፈቀደ	-11.3185
▁ሰሙድ	-11.3192
ification	-11.3197
▁ዘንጊ	-11.3206
review	-11.3233
ኮንስትራክሽን	-11.3236
▁ሚዛናዊ	-11.3236
▁ሜካኒካል	-11.3236
▁አወቃቀር	-11.3236
▁ASTM	-11.3236
▁ሕፃኑ	-11.3236
▁2012-2018	-11.3236
▁ንድፎች	-11.3236
▁ባለሞያ	-11.3237
="3.7	-11.3237
▁ንስሐ	-11.3238
▁በመገናኛው	-11.3238
ቆረጥ	-11.3238
▁አዘጋጅተናል	-11.3238
▁እኅት	-11.3238
▁አውጪ	-11.3238
▁ቅጦች	-11.3239
ግንቦት	-11.3247
▁እርዳ	-11.3254
5.4	-11.3255
አውራ	-11.3287
▁በባቢሎን	-11.3291
▁በዙፋኑ	-11.3291
▁የተሰየሙ	-11.3291
▁ያስከትላል	-11.3291
▁ፈሪሳውያን	-11.3291
▁አያዝኑም	-11.3291
▁ወንድሞቼ	-11.3291
▁ድርጣቢያ	-11.3291
▁ድህነት	-11.3291
▁ትምህርቶች	-11.3291
▁አንቴና	-11.3291
ጃፓን	-11.3294
9.1	-11.3295
▁እጄን	-11.3295
▁ጥመት	-11.3296
▁ፍረድ	-11.3302
XXXX	-11.3303
9.2	-11.3309
6.3	-11.334
▁ምልክቶቹ	-11.3346
▁ጓንግዙ	-11.3346
▁ጉባዔ	-11.3346
▁Zhong	-11.3346
▁Robot	-11.3346
▁የወደፊቱ	-11.3346
ፌደራል	-11.3346
▁ድግምተኛ	-11.3346
▁ሮያል	-11.3346
ቻኮሉ	-11.3346
▁ለልጆቹ	-11.3347
▁አጥንቶች	-11.3348
▁ፍቺ	-11.3349
▁ሊልኩልን	-11.3401
▁በዕውቀት	-11.3401
▁ትዕዛዙ	-11.3401
▁አክሬሊክስ	-11.3401
▁ይደሰታሉ	-11.3401
▁መዞሩንም	-11.3401
▁በዓላት	-11.3402
▁ዓይነቱ	-11.3403
3.8	-11.3409
▁ሜካኒካዊ	-11.3457
▁በሀገሪቱ	-11.3457
▁አንቀጾቹ	-11.3457
▁አገሪቱ	-11.3457
▁ትንበያ	-11.3457
ስግደት	-11.3457
▁መዋጮ	-11.3457
▁ማብራሪያ	-11.3457
▁ይልካል	-11.3458
▁ህንድ	-11.3464
ጉዳዩ	-11.3475
እሾህ	-11.3482
ባህሪ	-11.3486
▁ተልእኮ	-11.3512
▁የተዘረዘሩ	-11.3512
▁የጨረር	-11.3512
▁አልነበርንም	-11.3512
▁ጢሮስ	-11.3512
▁ኦፕቲክ	-11.3513
▁መስራች	-11.3513
▁ዕውቅና	-11.3513
▁ስያሜ	-11.3513
▁ሠራዊቱ	-11.3513
▁ይጠብቃል	-11.3513
▁እወዳለሁ	-11.3513
ክርስትና	-11.3513
▁ማክበር	-11.3514
▁በመካከለኛው	-11.3514
▁የግንኙነት	-11.3514
▁ከሳሪዎች	-11.3514
▁ያዝናቸው	-11.3514
እስላም	-11.3522
አጠቃላይ	-11.3541
▁ለከፊሉ	-11.3569
▁ማህበራት	-11.3569
▁ቁርኣኑ	-11.3569
▁በምእምናን	-11.3569
▁እንኾናለን	-11.3569
▁የአብርሃም	-11.3569
▁ይደርሳል	-11.3569
▁ትራፊክ	-11.3569
▁ጫጫታ	-11.3569
▁ተገኝቷል	-11.3569
▁ማዕቀፍ	-11.3569
▁መፍታት	-11.3569
▁አትኹን	-11.3569
▁የማምረት	-11.3569
▁ሐሰተኛ	-11.3569
▁ተላላፊ	-11.3569
▁አይመራም	-11.3573
▁ላሞች	-11.3576
▁አሻራ	-11.3577
ጭቆና	-11.3578
“	-11.359
▁ይልቁን	-11.361
="3.3	-11.361
ቴክኒክ	-11.3621
▁ላቦራቶሪ	-11.3625
▁ማቋቋሚያ	-11.3625
▁ቀልጣፋ	-11.3625
▁ቁርጠኝነት	-11.3625
▁ያስተዋውቃል	-11.3625
▁Import	-11.3625
▁ኪዳኑን	-11.3625
▁በድጋሚ	-11.3625
▁አረጋጋጭ	-11.3625
▁ኪዳኔ	-11.3625
▁ዌቭ	-11.3625
▁ሲኦል	-11.3626
High	-11.3626
▁አላደረገም	-11.3627
ሆስፒታሎች	-11.3682
▁AASraw	-11.3682
▁Updated	-11.3682
▁repaints	-11.3682
▁አስደንጋጭ	-11.3682
▁ይሞታሉ	-11.3682
▁በባቡር	-11.3682
ቸነፈር	-11.3682
ረጋገጡ	-11.3682
▁በመካከል	-11.3682
-07-20	-11.3682
▁ለባሮቹ	-11.3682
▁ድልድይ	-11.3682
▁ተባባሉ	-11.3682
▁የበረዶ	-11.3683
▁አትበሉ	-11.3685
▁በኵር	-11.3686
▁ትችት	-11.3687
ስታውሱ	-11.3694
9.0	-11.3707
`	-11.3708
ድግግሞሽ	-11.3708
ጨረቃ	-11.3708
መኖሩ	-11.371
2001	-11.3715
▁11:1	-11.3738
▁ስታቲስቲክስ	-11.3739
▁ተአምራት	-11.3739
▁ከሳሪዎቹ	-11.3739
▁ስላየውት	-11.3739
▁የህትመት	-11.3739
▁የተደበቀ	-11.3739
▁ፈቃዱ	-11.374
▁ገደቦች	-11.374
ተቀላቀለ	-11.374
▁ምልጃ	-11.374
▁አግኝተናል	-11.3741
▁የሕንድ	-11.3744
▁Geo	-11.3751
መሰከረ	-11.3756
አስተዳዳሪ	-11.3767
8.2	-11.3791
contact	-11.3796
ዲያብሎስ	-11.3797
▁ተጽፎአል	-11.3797
▁ክህሎት	-11.3797
ሕይወቱ	-11.3797
▁ያስችላቸዋል	-11.3797
▁ለመሰብሰብ	-11.3797
▁ተናግሮ	-11.3797
▁የፊደል	-11.3797
▁ፈገግ	-11.3797
▁ለኾነው	-11.3798
▁ስሌት	-11.3798
▁ምስክ	-11.3799
▁ብርታት	-11.3799
▁ሃብት	-11.3801
ፈጽማ	-11.3806
ሕይወት	-11.3835
▁ነፍሶቻቸው	-11.3854
ሤ	-11.3854
ተዓምራታችን	-11.3854
▁ለወደፊቱ	-11.3854
▁ሐሤት	-11.3854
▁አድነኝ	-11.3854
▁ጨረታ	-11.3854
▁ወደእነሱ	-11.3854
▁DRK	-11.3855
ጠናቀቁ	-11.3855
ተስተካከለ	-11.3856
▁የጥቅል	-11.3859
▁ሻምፒዮና	-11.3913
▁የተከለከለ	-11.3913
ቸዋላችሁ	-11.3913
▁በዕድሜ	-11.3913
▁አመራሮች	-11.3913
▁ጊታር	-11.3913
▁ቅኝት	-11.3913
▁በአስተዳደር	-11.3913
▁ይነሣል	-11.3914
ወገኖቹ	-11.3914
9.8	-11.3915
▁ሃሩን	-11.3916
መርከቢቱ	-11.3971
መንግሥተ	-11.3971
▁discuss	-11.3971
▁በመመስረት	-11.3971
▁በአቅራቢያ	-11.3971
▁ቢስክሌት	-11.3971
▁ተጋላጭ	-11.3971
▁ተግሣጽ	-11.3971
▁ያስችልዎታል	-11.3971
▁ደመወዝ	-11.3971
field	-11.3971
▁ድንግል	-11.3971
▁ጥገኝነት	-11.3971
ህዝባዊ	-11.3971
▁ሊጠቀስ	-11.3972
▁ተብለው	-11.3973
▁ልደት	-11.3975
▁ይክዱ	-11.3977
ረጋግጥ	-11.4009
ነጣጠ	-11.4028
▁Machine	-11.403
▁ለመጎብኘት	-11.403
electric	-11.403
▁ስድስተኛ	-11.403
▁ከክፍለ	-11.403
▁ውጤቱ	-11.403
▁Laser	-11.403
▁ጠርሙስ	-11.403
▁ክበብ	-11.403
source	-11.403
▁ፕሮቲን	-11.403
ብርሃኑ	-11.4031
▁ፍራቻ	-11.4031
▁ምደባ	-11.4032
ሐሳብ	-11.4074
ሌዋውያኑ	-11.4089
ኋለኛይቱ	-11.4089
▁በቁጥጥር	-11.4089
▁ትርዒት	-11.4089
▁ንግሊዝ	-11.4089
▁አውቶሞቲቭ	-11.4089
▁ዘፍጥረት	-11.4089
▁ለማጠናከር	-11.4089
▁ሳምንታዊ	-11.4089
▁የመገበያያ	-11.4089
▁የተገነቡ	-11.4089
መንግስቱ	-11.4089
▁ባልደረባ	-11.4089
▁የድንበር	-11.4089
▁Office	-11.4094
ልግስና	-11.4094
ሙስሊሞች	-11.413
ጉባኤ	-11.413
New	-11.4131
▁Cannondale	-11.4149
▁ንግግሮች	-11.4149
▁ፕሪሚየም	-11.4149
▁ሥርዓተ	-11.4149
▁እልቂት	-11.4149
▁ዘለዓለም	-11.4149
▁ይቀበላሉ	-11.4149
▁ባህርያት	-11.4149
▁ጥቆማ	-11.4149
ville	-11.4149
▁ጥረቶች	-11.415
▁የበረቱ	-11.415
▁በህይወት	-11.4151
▁የመዳብ	-11.4152
ፈረንሳይ	-11.4193
ability	-11.4208
ኮሚሽኑ	-11.4208
▁SharePoint	-11.4208
▁መዛሙርት	-11.4208
▁ትዕቢት	-11.4208
▁ከዕውቀት	-11.4208
▁ምእመን	-11.4208
ኋለኛው	-11.4208
▁የድጋፍ	-11.4208
ቈረጠ	-11.4209
ተንኮላቸው	-11.4209
ኤሌክትሮ	-11.4268
ኢንሹራንስ	-11.4269
▁መንቀጥቀጥ	-11.4269
▁ምርታማነት	-11.4269
▁ስሕተት	-11.4269
▁ታላላቆች	-11.4269
▁አዘገጃጀት	-11.4269
▁የካህናት	-11.4269
▁ጻድቃን	-11.4269
▁ማድረቂያ	-11.4269
▁ቅርጾች	-11.4269
▁በመልክተኞቹ	-11.4269
▁የውጤት	-11.4269
▁ዝነኛ	-11.4269
▁የድርጅት	-11.4269
▁አየህን	-11.4269
▁ኢንዱስትሪያል	-11.427
▁ዕብድ	-11.427
▁1:2	-11.43
▁ከኋላ	-11.4311
ግንኙነ	-11.4316
▁Nightclub	-11.4329
▁modified	-11.4329
▁ለፈርዖን	-11.4329
▁ኢብሊስ	-11.4329
▁ሮቦቶች	-11.4329
special	-11.4329
▁የታመቀ	-11.4329
▁አትችልም	-11.4329
▁ለማስፋፋት	-11.4329
▁ማውራት	-11.4329
▁አብስር	-11.433
▁ስንዴ	-11.4331
▁መኾናችሁን	-11.4332
burg	-11.4332
▁በእርሻ	-11.4332
peptide	-11.4333
ቆረጠ	-11.4335
▁ለበጎ	-11.4336
ነደደ	-11.4355
▁ይከጀላል	-11.4361
ተለቀቀ	-11.4369
አሸናፊ	-11.4379
7.0	-11.4382
ፕላስቲክ	-11.4382
ኢስማዒል	-11.439
▁ሁለንተናዊ	-11.439
▁የቧንቧ	-11.439
▁የክብደት	-11.439
▁የፋይበርግላስ	-11.439
▁የጡንቻ	-11.439
▁አብዮት	-11.439
Rider	-11.439
▁ከእንጨት	-11.439
▁ነዳጆች	-11.439
▁ፓውደር	-11.439
▁ሞዓብ	-11.4391
▁በሀገር	-11.4391
▁ቢሰበር	-11.4391
▁ከፍሬዎች	-11.4391
▁የበሰለ	-11.4392
ባሕር	-11.4402
ዘምባባ	-11.4402
ተቀደሰው	-11.441
▁ቀኑን	-11.4413
አንቀጾቼ	-11.4452
▁ክህሎቶች	-11.4452
ኃይማኖት	-11.4452
ኮምፕዩተር	-11.4452
▁አስጠንቃቂ	-11.4452
▁የፖሊሲ	-11.4452
▁ሚካኤል	-11.4452
▁እስረኞች	-11.4452
▁መርየም	-11.4452
▁በደለኛ	-11.4453
help	-11.4459
▁sales	-11.4512
ሽምግልና	-11.4513
▁መናፍስት	-11.4513
▁ማርኬቲንግ	-11.4513
▁ስፔሻሊስት	-11.4513
▁ኢዮሣፍጥ	-11.4513
▁ይነግራችኋል	-11.4513
▁ጲላጦስ	-11.4513
world	-11.4513
▁ሃሳቦች	-11.4513
▁የታተሙ	-11.4513
ጉምሩክ	-11.4513
▁Karn	-11.4513
▁North	-11.4513
▁Photo	-11.4513
-06-20	-11.4514
▁ለማውጣት	-11.4514
▁ሰበሰበ	-11.4514
▁አያገኙም	-11.4514
▁ዱባይ	-11.4515
▁ስድብ	-11.4515
ሸነፉ	-11.4516
▁0.01	-11.4536
8.0	-11.455
ያድጉ	-11.4566
+00:00	-11.4575
ኢዮስያስ	-11.4575
▁Oracle	-11.4575
▁ልውውጦች	-11.4575
▁ማክሰኞ	-11.4575
▁የሶፍትዌር	-11.4575
▁ፋኩሊቲ	-11.4575
▁የእድገት	-11.4575
▁የበዓል	-11.4575
▁ተጣጣፊ	-11.4575
▁በውስጥዋ	-11.4576
▁በአጭር	-11.4577
▁ይሰራሉ	-11.4577
▁ፖስታ	-11.458
Casino	-11.4638
2005-2018	-11.4638
▁Shijiazhuang	-11.4638
▁Suzuki	-11.4638
▁ለያዕቆብ	-11.4638
▁ማመቻቸት	-11.4638
▁ምሥጢር	-11.4638
▁ስልጣኑ	-11.4638
▁ተደሳቾች	-11.4638
▁ተጓዳኝ	-11.4638
▁ፌዴሬሽን	-11.4638
▁ግሎባል	-11.4638
▁ማጥናት	-11.4638
▁በባሮቹ	-11.4639
ሸፈኑ	-11.4641
መበደል	-11.4641
ተቀረጸ	-11.4642
="3.4	-11.4653
ገፋፋ	-11.466
ሰዓቲቱ	-11.4699
አሻንጉሊት	-11.4701
ድንቁርና	-11.4701
▁አስመልክቶ	-11.4701
▁አይኤስኦ	-11.4701
piece	-11.4701
▁ዔሳው	-11.4701
▁በቍጣ	-11.4702
▁ተክሎች	-11.4702
ohm	-11.4703
▁የጆሮ	-11.4703
ተላከ	-11.4707
▁ነፍሰ	-11.4709
ዘገበ	-11.4715
▁electro	-11.4764
▁ሚስጢራዊ	-11.4764
▁ተጠባበቁ	-11.4764
▁ሕያዋን	-11.4764
▁ሸቀጦች	-11.4764
▁በመክፈት	-11.4764
መፀኞች	-11.4764
▁በማድረጉ	-11.4764
▁አተሩን	-11.4764
▁ያዘጋጃል	-11.4764
ዓመታት	-11.4765
▁ይቀጥሉ	-11.4765
▁ግኝት	-11.4765
▁ከአንቺ	-11.4765
ቼአለሁ	-11.4765
▁ጀግና	-11.4766
ያልፉ	-11.4769
ቅጥፈት	-11.4776
ከማች	-11.4778
9.9	-11.4779
ባለሥልጣኑ	-11.4828
▁Tailoress	-11.4828
▁ለማስተዋወቅ	-11.4828
▁ምሕፃረ	-11.4828
▁ብትንቁኝ	-11.4828
▁ውሸታም	-11.4828
▁በሌሊቱ	-11.4828
▁ግመሎች	-11.4828
▁ራዲያል	-11.4828
▁ትይዩ	-11.4828
▁በሐሰት	-11.4828
▁በአባቱ	-11.4829
መላለሱ	-11.4829
ዝግጅት	-11.483
8.4	-11.4875
ናይጄሪያ	-11.4892
▁ማሳሰቢያ	-11.4892
▁እያደረገ	-11.4892
ንግግራቸው	-11.4892
ንጸባር	-11.4893
▁ልባስ	-11.4894
ቀበሌ	-11.4895
▁የተመረጠው	-11.4896
አውሮፓ	-11.4933
▁ትሆናለህ	-11.4956
▁ትእዛዛት	-11.4956
▁የመጓጓዣ	-11.4956
ፍራፍሬዎች	-11.4956
▁ምህረት	-11.4956
ልጆቻችን	-11.4956
▁እዝነቱ	-11.4957
▁ጠቢብ	-11.4957
▁ለመፍራት	-11.4957
▁ክተት	-11.4957
▁ከስድስት	-11.4958
ተገበር	-11.4959
ዘመናዊ	-11.4963
ማንኛውም	-11.4967
እሳቱ	-11.5005
ሃይማኖታዊ	-11.5011
ኤፌሶን	-11.5021
▁Karylle	-11.5021
▁Pampanga	-11.5021
▁መስተዳድር	-11.5021
▁ሶፍትዌሮች	-11.5021
▁በየወገናቸው	-11.5021
▁ተጀምሯል	-11.5021
▁Solana	-11.5021
▁ጆንሰን	-11.5021
▁ፍንዳታ	-11.5021
ኋለኞቹ	-11.5021
▁የሳኦል	-11.5021
ሚኒስቴሩ	-11.5021
▁የሌሊት	-11.5021
▁መዝጊያ	-11.5022
▁የአሦር	-11.5022
▁ጣዕም	-11.5022
▁ለመመልከት	-11.5022
▁ጽዳት	-11.5024
▁ግጥም	-11.5024
ፈፀመ	-11.5025
መሸጫ	-11.5039
እግዚአብሔር	-11.5043
8.3	-11.5057
▁ሩኅሩኅ	-11.5087
▁በየዕለቱ	-11.5087
▁ከማመስገን	-11.5087
▁አምላካቸው	-11.5087
▁ከሞተች	-11.5087
▁የጉብኝት	-11.5087
▁ይወርዳል	-11.5087
▁Earth	-11.5087
▁ተለጣፊ	-11.5087
▁የማረፊያ	-11.5087
ደባባዩ	-11.5087
ዕብራውያን	-11.5087
▁መንስኤ	-11.5087
▁ከበፊቱ	-11.5087
▁Intel	-11.5087
▁ለራሳቸው	-11.5088
ሥልጣን	-11.5094
£	-11.5098
የመጨረሻው	-11.51
6.8	-11.5113
IVE	-11.5116
▁ደጋፊ	-11.5122
ኹ	-11.5134
6.6	-11.5136
ሆንግኮንግ	-11.5152
▁ሊባኖስ	-11.5152
▁ለአሕዛብ	-11.5152
▁ማቴዎስ	-11.5152
▁ሞለኪዩል	-11.5152
filters	-11.5152
▁ዓይኖቹ	-11.5152
▁ዶክተሮች	-11.5152
▁ጽሁፎች	-11.5152
▁መደሰት	-11.5153
▁አጀንዳ	-11.5153
▁እነማን	-11.5153
▁ሉቃስ	-11.5153
▁እንደነበሩ	-11.5153
▁ሳሙና	-11.5153
▁ከመንገዱ	-11.5153
▁ይሉሃል	-11.5153
▁አክሊል	-11.5154
▁7:2	-11.5165
▁12:1	-11.5174
ኜ	-11.5218
አቤሜሌክ	-11.5219
▁ይሰግዳሉ	-11.5219
▁ጨምሯል	-11.5219
▁ለመዋጋት	-11.5219
▁ያወረድነው	-11.5219
▁ኤፕሪል	-11.5219
▁ድሆች	-11.5219
▁ሮታሪ	-11.5219
▁BMW	-11.5219
▁የስዊስ	-11.5219
▁ያዘዘውን	-11.5219
▁ምጣኔ	-11.5219
▁ጸለየ	-11.5219
▁ከመጀመሪያው	-11.5219
ኢስላም	-11.5221
▁የሶርያ	-11.5221
ሰራዊቱ	-11.5252
9.6	-11.5255
▁በልቦቻችሁ	-11.5285
▁ተማምኗል	-11.5285
▁እለምንሃለሁ	-11.5285
▁ፌብሩዋሪ	-11.5285
▁የማታውቁትን	-11.5285
▁ከሚያጋሩት	-11.5285
▁አሳልፈው	-11.5286
MCPS	-11.5286
▁ብትክዱ	-11.5286
▁ቁረጥ	-11.5286
-05-20	-11.5286
▁የመማሪያ	-11.5286
▁ማሽኑ	-11.5287
▁በስውር	-11.5287
ጨረሰ	-11.529
እንቅስቃሴ	-11.5303
▁Specifi	-11.5333
▁አልመሲሕ	-11.5352
ሕይወታቸው	-11.5352
▁America	-11.5352
▁መልክተኞቻቸው	-11.5352
▁መስዋዕት	-11.5352
▁ማጠቃለያ	-11.5352
▁ከሕዝቦቹ	-11.5352
▁ከክርስቶስ	-11.5352
▁ኮንክሪት	-11.5352
▁ደጃፎች	-11.5352
▁Posted	-11.5352
▁ሷሊህ	-11.5352
▁አዕማድ	-11.5352
▁ሥርዓቶች	-11.5353
▁ይጠበቃል	-11.5353
▁ሙሽራ	-11.5353
▁ከጋኔን	-11.5353
ፅሁፍ	-11.5353
▁Ultra	-11.5353
መኾኔ	-11.5353
እንቁላል	-11.5354
▁ትንሹ	-11.5354
▁እናገራለሁ	-11.5358
ገሰጽ	-11.5362
9.99	-11.5371
ባህላዊ	-11.5373
ይዛቸው	-11.5388
ያከብሩ	-11.5392
cket	-11.542
▁Genotropin	-11.542
▁አልላክንም	-11.542
▁እጠበቃለሁ	-11.542
▁የትብብር	-11.542
▁ህትመት	-11.542
▁SQL	-11.542
▁ይከልከል	-11.542
▁ያስችላል	-11.542
▁ለመስማት	-11.542
▁ከምትሠሩት	-11.542
▁አመቺ	-11.5421
▁አስባለሁ	-11.5425
አድራሻ	-11.5443
▁ግሣጼ	-11.5488
▁Sitemap	-11.5488
▁መቅሠፍት	-11.5488
▁ባለሀብቶች	-11.5488
▁አልነበርክም	-11.5488
▁አዳራሾች	-11.5488
▁ለነበሩት	-11.5488
▁ደካሞች	-11.5488
▁አውጥቶ	-11.5488
▁በጽዮን	-11.5488
▁አይመለከቱምን	-11.5488
▁አምስተኛው	-11.5488
▁ቀላቃይ	-11.5488
▁ለማስተካከል	-11.5488
▁ኖርዌይ	-11.5488
▁ተግባሮች	-11.5488
▁ቅጣታችን	-11.5488
▁በቅንነት	-11.5489
መሆኔ	-11.5495
ኾ	-11.5495
ገንዘቦቻቸውና	-11.5508
እንዴት	-11.5513
information	-11.5557
ኬሚስትሪ	-11.5557
▁Science	-11.5557
▁ማሽከርከር	-11.5557
▁የሀገሪቱ	-11.5557
▁የስኬትቦርድ	-11.5557
▁የላስቲክ	-11.5557
download	-11.5557
▁ማበረታቻ	-11.5557
▁አንችልም	-11.5557
▁ሲፒዩ	-11.5557
▁ለመክፈል	-11.5557
▁ታቀርባ	-11.5557
▁ሰረገላ	-11.5557
▁ሥርዓቱ	-11.5557
ብስክሌት	-11.5584
መቀመጫ	-11.5584
▁Koowheel	-11.5626
▁UNLEADE	-11.5626
▁ህጻናት	-11.5626
▁በባሕሩ	-11.5626
▁በኢብራሂም	-11.5626
▁ንቅናቄ	-11.5626
▁ጌጣጌጥ	-11.5626
▁ZXR	-11.5626
▁ናይለን	-11.5626
▁እንምላለን	-11.5626
▁ተሳፋሪ	-11.5626
position	-11.5626
▁ይሻላል	-11.5626
▁ያገለግሉ	-11.5626
▁የዕድሜ	-11.5626
▁ቡድኑ	-11.5626
▁Maxi	-11.5628
ከፈሉ	-11.564
መድሃኒት	-11.5656
▁ለአብርሃም	-11.5695
▁መቆለፊያ	-11.5695
▁ሲኒቶቶ	-11.5695
▁ተሟጋች	-11.5695
▁ተያያዙት	-11.5695
▁ትዕይንት	-11.5695
▁ፕሬዝዳንት	-11.5695
▁ሽፋኖች	-11.5695
▁የታችኛው	-11.5695
▁ሆቴሎች	-11.5695
ቪኦኤ	-11.5695
▁የለብንም	-11.5695
▁ህዝቡ	-11.5695
▁ይቀርባል	-11.5695
▁ያቅርቡ	-11.5695
▁ክቡር	-11.5695
▁የሚከለክሉ	-11.5695
ተፈቀዱ	-11.5696
▁ሠርቶ	-11.5696
With	-11.5702
Ethiopia	-11.5728
ፊሊፒንስ	-11.5765
▁Royale	-11.5765
▁casino	-11.5765
▁በዕውቀቱ	-11.5765
▁በድንጋይ	-11.5765
▁አስተላላፊ	-11.5765
▁ፍየሎች	-11.5765
አሰቃቂ	-11.5765
▁ሄኖክ	-11.5765
▁ግብይቶች	-11.5765
▁የመንፈስ	-11.5765
▁አንዲቱ	-11.5765
▁በፍርዱ	-11.5766
የራሳቸው	-11.5828
upload	-11.5835
▁Pulsar	-11.5835
▁System	-11.5835
▁ከንጉሡ	-11.5835
▁አቁማዳ	-11.5835
▁የክረምት	-11.5835
▁ቬጋስ	-11.5835
▁ድንገት	-11.5835
▁ጭንብል	-11.5835
እስማኤል	-11.5835
▁ከዘላለም	-11.5835
▁ያመለክታል	-11.5836
▁መቻቻል	-11.5836
▁የቅርጫ	-11.5836
service	-11.5837
▁ሕሊና	-11.5841
▁ቀበሮ	-11.5841
▁ለምኑት	-11.5845
ሕክምና	-11.5897
▁ባለስልጣናት	-11.5906
▁ኦርጋኒክ	-11.5906
▁ከፀሐይ	-11.5906
▁ይካሄዳል	-11.5906
▁Omegle	-11.5906
▁መስመራዊ	-11.5906
▁ከዳዊት	-11.5906
▁ከአባቶቹ	-11.5906
▁አይድኑም	-11.5906
▁ሊገልጽ	-11.5906
Design	-11.5906
▁ልዕለ	-11.5906
▁በመመልከት	-11.5907
መሠረት	-11.5947
▁ሥዕሎች	-11.5978
▁ሙባረክ	-11.5978
▁የመመገቢያ	-11.5978
▁የችርቻሮ	-11.5978
▁ጕልማሳ	-11.5978
▁ጉብኝቶች	-11.5978
▁የሃርሊ	-11.5978
▁የጣሊያን	-11.5978
▁በሌለበት	-11.5978
▁የሰሌዳ	-11.5978
▁መርዛማ	-11.5978
▁አንሥቶ	-11.5978
▁ይወድቃል	-11.5978
▁ሃንግዙ	-11.5978
▁መመርመር	-11.5978
▁መዋዕል	-11.5978
▁ዳሳሽ	-11.5978
▁ትላላችሁ	-11.5978
▁የጋብቻ	-11.5978
▁ያቀናል	-11.5981
ተቋሙ	-11.5993
▁አምስቱ	-11.5994
XCHARX	-11.605
▁tesla	-11.605
▁ቅልጥፍና	-11.605
▁ዘካርያስ	-11.605
▁የመጠባበቂያ	-11.605
▁ተመልካቾች	-11.605
▁Express	-11.605
ከናወኑ	-11.605
▁ይቀጣቸዋል	-11.605
▁ይመርጣል	-11.605
▁እግሮቹ	-11.605
▁በማስገባት	-11.605
ቁርአን	-11.6074
▁ሐዋርያ	-11.6079
▁መጎብኘት	-11.6122
▁ኑዛዜ	-11.6122
▁ክሎሪን	-11.6122
▁ያጠቃልላል	-11.6122
▁ፖርትፎሊዮ	-11.6122
▁እየዞርኩ	-11.6122
መዝናናት	-11.6122
▁ክፍፍል	-11.6122
▁ሩብል	-11.6123
vector	-11.6123
▁የተጠቀሰ	-11.6126
▁imp	-11.6159
▁ማሰልጠኛ	-11.6195
▁ቅልቅል	-11.6195
▁በአማካይ	-11.6195
▁አሻንጉሊቶች	-11.6195
▁ካሊፎርኒያ	-11.6195
▁የብሪታንያ	-11.6195
▁ማጽዳት	-11.6195
▁የምንችለው	-11.6195
▁የታሸገ	-11.6195
▁ጨካኝ	-11.6195
▁በመምረጥ	-11.6195
▁ለመቀጠል	-11.6195
▁ኅብረት	-11.6195
▁ፍቀድ	-11.6195
▁አቅኚ	-11.6195
▁ፊቶቻችሁን	-11.6196
▁በማውጣት	-11.6196
▁የፍትህ	-11.6196
▁የፊልም	-11.6196
▁ላውራ	-11.6196
ዘዋወር	-11.6197
አሰልጣኝ	-11.6269
▁Cryptocurrency	-11.6269
▁Inverter	-11.6269
▁Stepper	-11.6269
▁መልአኩ	-11.6269
▁ሰርቲፊኬት	-11.6269
▁በመካከላችን	-11.6269
▁በከነዓን	-11.6269
▁በከዋክብት	-11.6269
▁ቱሪዝም	-11.6269
▁የተራቀቀ	-11.6269
▁አጽጂዎች	-11.6269
▁የሚያገለግል	-11.6269
▁በመሙላት	-11.6269
▁አሃዶች	-11.6269
▁አስፈሪ	-11.6269
▁ምትኮች	-11.6269
▁አታይምን	-11.6269
wood	-11.627
▁የመሳሪያ	-11.6271
መርዶክዮስ	-11.6343
ኅብረተሰብ	-11.6343
▁መቀየሪያ	-11.6343
▁ከአስደናቂ	-11.6343
html	-11.6343
▁ማዳበሪያ	-11.6343
መጽሐፎች	-11.6343
▁እሰጥሃለሁ	-11.6343
▁፳፻	-11.6343
ጂኦግራፊ	-11.6343
April	-11.6343
▁የምጣኔ	-11.6343
▁በለዓም	-11.6343
▁የመኖርያ	-11.6343
▁ታጣፊ	-11.6343
▁የጉርሻ	-11.6343
▁Micro	-11.6343
▁ማናቸውንም	-11.6344
XXX	-11.6351
▁ኃጢኣ	-11.6386
ያስተምሩ	-11.6403
አፓርታማ	-11.6417
▁ethereum	-11.6417
▁ሄሮድስ	-11.6417
▁መሳለቂያ	-11.6417
▁ሴዴቅያስ	-11.6417
▁አሸነፈ	-11.6417
▁የኢብራሂምን	-11.6417
▁ይቆጣጠራል	-11.6417
▁ጎብኚዎች	-11.6417
▁ጢሞቴዎስ	-11.6417
ጲ	-11.6417
▁Church	-11.6417
▁ለመመርመር	-11.6417
▁ኤልሳዕ	-11.6417
▁ግፊቱን	-11.6417
▁የፖላንድ	-11.6418
▁ለአመኑት	-11.6418
▁ፒስቶን	-11.6418
▁ይመለከታል	-11.6418
በኋላ	-11.6429
ተፈተነ	-11.6444
አንበሳ	-11.6484
ኢንዶኔዥያ	-11.6492
▁Guzzi	-11.6493
▁ማጫወቻ	-11.6493
▁ሞለኪዩላር	-11.6493
▁በመመርኮዝ	-11.6493
▁ከከፊሉ	-11.6493
▁ኹነታ	-11.6493
▁የማቴዎስ	-11.6493
▁የሳይሲክ	-11.6493
▁የፊላዴልፊያ	-11.6493
▁የሸክላ	-11.6493
▁ገራንለት	-11.6493
▁አርትዕ	-11.6493
▁በመቀጠል	-11.6493
▁ሸሚዝ	-11.6493
▁Center	-11.6493
▁ለማዳበር	-11.6493
▁በሽመና	-11.6493
መሆኗ	-11.6493
▁ጦማሪ	-11.6494
ያደርጋቸው	-11.6503
ማዕከላዊ	-11.6555
ውሸታሞቹ	-11.6568
▁Azure	-11.6568
▁ለመወያየት	-11.6568
▁ማግኔቶችን	-11.6568
▁አድናቆት	-11.6568
▁የተጎላበተው	-11.6568
▁ይገናኛሉ	-11.6568
▁ያወርዳል	-11.6568
▁አብስራቸው	-11.6568
▁ከወንዶች	-11.6568
▁በስፍራው	-11.6568
▁የተለቀቁ	-11.6568
▁ግኝቶች	-11.6568
▁መዋጋት	-11.6568
▁ምስጢራ	-11.6568
▁መሰምርያ	-11.6568
▁ስንፍና	-11.6568
▁ያለብዎት	-11.6568
▁ጽላቶች	-11.6568
ድርጅታዊ	-11.6569
▁ይገባዋል	-11.6569
▁አቅርቡ	-11.6569
▁የአባቶቻቸው	-11.6569
DKK	-11.657
—	-11.6634
europe	-11.664
ግራፊክ	-11.6644
▁Misslamode	-11.6645
▁ማቀነባበሪያ	-11.6645
▁በስተጀርባ	-11.6645
Private	-11.6645
▁እነማዎች	-11.6645
▁የተደገፈ	-11.6645
▁ትልልቅ	-11.6645
▁RideA	-11.6645
▁የማሞቂያ	-11.6645
▁ጀምሯል	-11.6645
ተመሸጉ	-11.6645
▁የምዝገባ	-11.6645
▁በርግጥ	-11.6645
▁አሳሳቢ	-11.6645
▁በደንቡ	-11.6645
▁መጽሐፉ	-11.6661
ኩባንያ	-11.667
ስፓኒሽ	-11.6721
፲፱፻	-11.6721
▁Conveyor	-11.6722
▁Galaxy	-11.6722
▁በማስተዋወቅ	-11.6722
▁አስተርጓሚ	-11.6722
▁ብዝበዛ	-11.6722
▁Charter	-11.6722
▁ሊሚትድ	-11.6722
▁ያደረጋት	-11.6722
▁አትቅረቡ	-11.6722
▁የፍቃድ	-11.6722
▁ከፊሎቹ	-11.6722
▁ምላሾች	-11.6722
▁month	-11.6722
▁ይወሰናል	-11.6722
▁የመርከብ	-11.6722
▁LCD	-11.6722
መንፈሴ	-11.6723
ማረጋገጫ	-11.6793
መመሥረት	-11.6799
▁ስቴሮይድ	-11.6799
▁በተዓምራቶቻችን	-11.6799
▁የቆርቆሮ	-11.6799
▁በመቅደስ	-11.6799
▁ደንቡን	-11.6799
▁ይቀመጣሉ	-11.6799
▁የዘንባባ	-11.6799
▁Activ	-11.6802
ያመልጥ	-11.6836
አዳዲስ	-11.6874
ኖቬምበር	-11.6877
▁mFortune	-11.6877
▁ኢዮርብዓም	-11.6877
▁የህጻናት	-11.6877
▁የጂያንግሱ	-11.6877
▁ይመለከታሉ	-11.6877
▁ደኅንነት	-11.6877
▁ፋከልቲ	-11.6877
▁የተካተተ	-11.6877
▁የኖርዌይ	-11.6877
▁ኦሮሚያ	-11.6877
▁ብዕር	-11.6877
ፈለጋችሁ	-11.6877
▁ይቀመጣል	-11.6877
▁ማሟያ	-11.6877
ትከራከሩ	-11.6881
direct	-11.6898
▁Tesseract	-11.6956
▁የመቁረጫ	-11.6956
▁ይኖርብዎታል	-11.6956
▁ፓኬጅ	-11.6956
▁አውታረመረብ	-11.6956
▁ድፍረት	-11.6956
▁በማስተካከል	-11.6956
▁ወራሾች	-11.6956
ተደሰቱ	-11.6957
▁ትላለህ	-11.6958
▁የተሽከርካሪ	-11.7014
192.168.	-11.7035
▁በመቅደሱ	-11.7035
▁ቢራቢሮ	-11.7035
▁አቪዬሽን	-11.7035
▁የዝውውር	-11.7035
▁የጥገኝነት	-11.7035
▁የፍልስጥኤማውያን	-11.7035
▁በተለያየ	-11.7035
▁ችግረኛ	-11.7035
▁ብስራት	-11.7035
▁የሞዓብ	-11.7035
▁ኤክስፐርት	-11.7035
▁ወላጆቹ	-11.7035
▁የምሥራቅ	-11.7035
▁ያተኮሩ	-11.7035
▁Electro	-11.7035
▁ብንያም	-11.7035
▁አናውቅም	-11.7035
▁ከሰሜን	-11.7035
▁ቤተሰቦቻቸው	-11.7036
Internet	-11.7052
ሃይማኖቶች	-11.7083
አፓርታይድ	-11.7115
ዩኤስዶላር	-11.7115
▁በአደባባይ	-11.7115
▁ቤርሳቤህ	-11.7115
▁አለበለዚያ	-11.7115
▁ኤክስፕረስ	-11.7115
▁ይጀምራሉ	-11.7115
▁ፕሮዳክሽን	-11.7115
▁በሞዓብ	-11.7115
▁ተፈፃሚ	-11.7115
▁ተሸክመው	-11.7115
▁እንሰጣለን	-11.7115
▁ራሔል	-11.7115
▁ቲያትር	-11.7115
▁የሃይባባ	-11.7115
፺	-11.8677
ኺ	-12.0085
«	-12.2623
±	-13.3465
·	-13.8293
•	-13.9776
©	-14.6309
●	-15.5808
ü	-15.5809
→	-15.581
丨	-15.581
