<unk>	0
<s>	0
</s>	0
▁	-2.61327
ን	-3.35934
ም	-3.61394
ት	-3.80765
ር	-4.08582
ል	-4.09955
▁የ	-4.21124
ስ	-4.21778
▁፡	-4.21938
ው	-4.33995
▁አ	-4.44011
▁በ	-4.50378
ና	-4.6315
.	-4.66515
ብ	-4.68595
,	-4.73265
ለ	-4.74536
ድ	-4.88035
ራ	-4.90326
▁መ	-4.9181
ግ	-4.9831
ሰ	-5.00732
ገ	-5.00878
ታ	-5.01953
መ	-5.0407
ቀ	-5.04428
ክ	-5.05721
ደ	-5.05923
ረ	-5.06191
ላ	-5.08664
ባ	-5.09241
ጠ	-5.12447
ይ	-5.14533
ነ	-5.15822
ያ	-5.19916
ጥ	-5.23091
▁ከ	-5.27768
በ	-5.30254
።	-5.30344
ተ	-5.31644
ቅ	-5.35391
ፍ	-5.35938
▁እና	-5.36004
ማ	-5.38832
▁(	-5.39251
ሳ	-5.40706
▁ይ	-5.41119
▁ተ	-5.44164
ህ	-5.44205
ች	-5.49623
ፈ	-5.50581
ዎች	-5.52668
ዳ	-5.55138
ሉ	-5.60238
e	-5.60578
▁ላይ	-5.60885
▁እ	-5.65725
ከ	-5.66493
ወ	-5.71154
▁ያ	-5.71377
▁ነው	-5.71501
-	-5.73481
o	-5.74483
:	-5.75888
▁ማ	-5.76559
ጋ	-5.80213
s	-5.83381
▁ለ	-5.83974
፥	-5.86502
ጣ	-5.87479
ካ	-5.92018
ዋ	-5.92283
▁)	-5.93782
▁የሚ	-5.95906
▁ወደ	-5.96459
ቱ	-5.96718
፤	-5.99738
ቃ	-6.00432
▁ውስጥ	-6.01073
ዝ	-6.0241
ሩ	-6.05245
▁የተ	-6.05809
የ	-6.05917
ሪ	-6.09335
a	-6.10863
;	-6.11468
i	-6.11864
2	-6.12875
ሽ	-6.13193
t	-6.16447
)	-6.17937
3	-6.18696
p	-6.19082
m	-6.21264
ዘ	-6.26154
ሮ	-6.26167
ቁ	-6.26202
ሱ	-6.26992
6	-6.28237
ፋ	-6.2903
▁ወ	-6.29396
ቶች	-6.29721
4	-6.31062
5	-6.31209
7	-6.31847
▁ሁሉ	-6.33278
ሙ	-6.33497
ዛ	-6.34025
u	-6.38032
▁እንደ	-6.38463
▁ጊዜ	-6.38639
9	-6.3872
ኛ	-6.40379
y	-6.41061
c	-6.42061
ነት	-6.43855
0	-6.43959
ቸው	-6.44573
8	-6.44642
ሁ	-6.46362
ቶ	-6.46462
ሚ	-6.48443
ኝ	-6.49113
▁ጋር	-6.4912
d	-6.49163
ዊ	-6.50234
ጭ	-6.53432
b	-6.53879
ቡ	-6.56416
ቆ	-6.57554
l	-6.57978
ፊ	-6.58464
ሌ	-6.58904
ጅ	-6.59808
አ	-6.61067
ችሁ	-6.61345
1	-6.63705
g	-6.64333
ኑ	-6.64449
ኖ	-6.64485
ሜ	-6.64707
er	-6.65407
ሞ	-6.66045
ጽ	-6.66602
▁2	-6.66932
S	-6.6791
▁አለ	-6.68759
▁&	-6.69055
f	-6.69476
▁-	-6.70243
?	-6.70913
▁«	-6.71351
▁በመ	-6.7136
ጉ	-6.71574
▁ይህ	-6.71886
n	-6.72144
ሬ	-6.72188
C	-6.72196
በት	-6.73094
h	-6.73616
ዲ	-6.73976
ሃ	-6.74719
ቢ	-6.7573
▁ወይም	-6.75773
gt	-6.76643
ዱ	-6.774
▁ነገር	-6.79557
ሻ	-6.80214
▁አንድ	-6.80415
ቤ	-6.80632
▁ግን	-6.81238
k	-6.81507
in	-6.82027
▁»	-6.833
▁/	-6.83352
ጎ	-6.83809
▁አይ	-6.84125
▁ለመ	-6.84362
ሊ	-6.84978
▁ሲ	-6.86111
ሕ	-6.8642
▁S	-6.86738
ዕ	-6.86829
A	-6.86918
ሸ	-6.87229
▁፣	-6.89105
ዓ	-6.8977
ሴ	-6.90119
v	-6.92289
ጫ	-6.94326
እ	-6.94453
"	-6.94751
00	-6.95179
ዎ	-6.9556
ሆን	-6.96395
▁ሰው	-6.97207
ቻ	-6.97866
ቦ	-6.98158
ዩ	-6.98467
ቴ	-6.99106
ቲ	-6.99888
ኤ	-6.99937
ኮ	-6.99992
ኔ	-7.00572
P	-7.00581
ጡ	-7.00647
ሪያ	-7.01609
ጀ	-7.01625
ቹ	-7.01629
▁የመ	-7.01786
▁P	-7.02809
ሎ	-7.04019
ኪ	-7.04403
D	-7.04404
ፕ	-7.04973
r	-7.0506
ላቸው	-7.05112
O	-7.06256
▁እን	-7.06361
ሲ	-7.06522
▁1	-7.06718
▁አላህ	-7.06905
ጨ	-7.07195
፣	-7.07236
ሐ	-7.07499
▁የአ	-7.07619
T	-7.07657
ኒ	-7.08845
▁እኔ	-7.08851
▁ዘንድ	-7.09018
or	-7.09237
▁3	-7.0997
ጸ	-7.10438
ለሁ	-7.10748
▁A	-7.11201
ar	-7.1121
ዙ	-7.11237
▁ካ	-7.11537
▁በአ	-7.11612
▁፤	-7.12533
▁ስለ	-7.12941
▁በተ	-7.1327
ኩ	-7.1368
▁ለማ	-7.13884
▁C	-7.14265
w	-7.14828
▁ናቸው	-7.15723
E	-7.17359
/	-7.1782
▁ዘ	-7.18641
▁20	-7.18656
ዮ	-7.19192
▁ሊ	-7.20112
ሥ	-7.21117
▁ነበር	-7.21679
ሮች	-7.2195
▁በእ	-7.22844
▁የሚያ	-7.2435
ቻቸው	-7.24471
M	-7.24662
="	-7.25404
ስተ	-7.25985
an	-7.26035
x	-7.26668
on	-7.27255
▁M	-7.27344
▁እንዲ	-7.27487
V	-7.27629
▁ሰዎች	-7.29036
R	-7.29058
▁ቀን	-7.29313
I	-7.31484
ላችሁ	-7.3165
ዶ	-7.31799
ቋ	-7.32345
ፉ	-7.32443
ጃ	-7.33919
ቂ	-7.34297
ዴ	-7.35074
▁እግዚአብሔር	-7.36313
▁ቤት	-7.3738
▁እኛ	-7.37486
ተኛ	-7.39704
en	-7.39829
al	-7.39974
ፖ	-7.40121
▁ጌታ	-7.40499
U	-7.40736
L	-7.40839
ሶ	-7.40842
K	-7.41688
ዋል	-7.41892
▁T	-7.42049
▁ቢ	-7.42227
ሄ	-7.42495
N	-7.42626
ጌ	-7.42851
▁"	-7.43972
ሳይ	-7.44916
▁_	-7.45634
▁ኢ	-7.45679
▁በእርግጥ	-7.45753
▁በማ	-7.45945
ሰማ	-7.46011
▁ከእ	-7.46418
▁የማ	-7.46447
es	-7.47705
ጓ	-7.47788
lt	-7.48361
!	-7.48542
ዶች	-7.48953
▁እርሱ	-7.49425
▁B	-7.49898
▁ኮ	-7.50239
ic	-7.50475
ዚ	-7.5105
▁እነዚያ	-7.51811
▁እነርሱ	-7.52099
re	-7.52202
20	-7.52348
it	-7.524
መጣ	-7.52892
X	-7.53157
▁ብቻ	-7.53203
at	-7.53407
▁H	-7.53739
▁የእ	-7.54665
ጻ	-7.55388
ing	-7.5561
ro	-7.55763
▁F	-7.5615
▁4	-7.56818
▁በጣም	-7.5753
▁D	-7.57699
ገባ	-7.58282
ጂ	-7.5858
12	-7.59123
B	-7.59423
ሎች	-7.59678
▁ነው።	-7.60148
▁5	-7.60777
▁ባለ	-7.61087
▁ከፍተኛ	-7.61194
ፒ	-7.61297
H	-7.63663
▁...	-7.64372
▁ዕ	-7.64765
ኬ	-7.66608
▁R	-7.67177
▁ኤ	-7.67433
15	-7.67821
▁በኋላ	-7.68138
▁ሕ	-7.68338
ቢያ	-7.68483
F	-7.68564
ሠ	-7.69315
ኾ	-7.6984
▁G	-7.70087
▁ያለ	-7.70104
ሚያ	-7.70247
ሆ	-7.70921
ጦ	-7.71069
G	-7.71094
le	-7.71181
st	-7.71461
ሆኑ	-7.71588
ጤ	-7.71717
ኖች	-7.71754
%	-7.71916
ጊ	-7.72295
"&	-7.7233
▁ሞ	-7.72613
ባቸው	-7.72806
ch	-7.73147
▁start	-7.73284
▁dur	-7.73302
▁ብዙ	-7.73483
et	-7.73789
ኾኑ	-7.74018
▁ሌላ	-7.74039
▁እናንተ	-7.74102
▁እንዳ	-7.7438
▁አንተ	-7.74701
ነበረ	-7.74787
50	-7.74807
▁E	-7.7506
▁መካከል	-7.75072
▁እስከ	-7.75891
▁L	-7.76043
▁ከአ	-7.76378
il	-7.76687
ፎ	-7.78442
10	-7.78457
ቸ	-7.78525
ሠራ	-7.78537
▁በሚ	-7.79143
16	-7.79766
ሞች	-7.80149
▁ልጆች	-7.80208
ቦች	-7.80957
▁፡፡	-7.81527
'	-7.81899
ዎቹ	-7.82434
▁ሚ	-7.82572
▁ደግሞ	-7.82865
▁ሥራ	-7.83307
ሣ	-7.8334
እርስዎ	-7.83842
▁!	-7.83875
▁N	-7.841
ed	-7.8483
ሪዎች	-7.84911
ወጣ	-7.85159
ኃ	-7.85952
13	-7.86332
ቪ	-7.86371
ra	-7.86432
▁በዚህ	-7.86808
z	-7.87254
ተጨማሪ	-7.88155
ፓ	-7.88473
ol	-7.8903
▁አስተ	-7.89053
▁ልጅ	-7.89387
ጆ	-7.8942
▁10	-7.89476
▁መንገድ	-7.89478
▁አሉ	-7.89791
ኞች	-7.89909
ዬ	-7.902
ዞ	-7.90257
▁ደረጃ	-7.90277
▁አድር	-7.90295
is	-7.9082
ዚያ	-7.9091
▁ያለው	-7.91225
el	-7.91483
ታቸው	-7.91836
ac	-7.92324
▁እየ	-7.92919
18	-7.9292
30	-7.92961
11	-7.93398
▁እንዲህ	-7.9357
▁I	-7.94101
ኾነ	-7.94311
ፅ	-7.94522
▁ምንም	-7.94564
ሀ	-7.94744
ኢትዮጵያ	-7.94772
ሆነ	-7.94923
▁አይደለም	-7.95321
ኛው	-7.96659
▁በፊት	-7.96874
▁ፕሮ	-7.97017
ur	-7.97909
as	-7.98213
▁ሆይ	-7.98302
ብረት	-7.98367
▁ዓ	-7.9862
ረጋ	-7.98863
▁ቃል	-7.98909
▁ለአ	-7.99574
▁አሁን	-7.99827
መጀመሪያ	-8.00439
ናቸው	-8.00568
14	-8.00602
ፀ	-8.01553
ራዊ	-8.01962
▁ይህን	-8.02168
J	-8.02717
▁ይችላሉ	-8.02964
▁ከተ	-8.03725
_	-8.03985
▁ይችላል	-8.04208
Y	-8.04709
ኦ	-8.04719
ሂ	-8.04796
ዜ	-8.04987
W	-8.0523
▁እርሱም	-8.06008
▁ሀ	-8.06363
ጁ	-8.06792
▁ድረስ	-8.07207
▁በእርሱ	-8.07598
▁ስለዚህ	-8.08973
▁ዋጋ	-8.09388
▁ይሆናል	-8.09591
▁አዲስ	-8.09672
ሷ	-8.09735
▁እንዴት	-8.09992
፡፡	-8.10309
to	-8.10623
▁ቻይና	-8.10867
▁ከዚያም	-8.11501
am	-8.11522
▁W	-8.11666
ቸዋል	-8.12045
com	-8.12046
▁ፓ	-8.12147
ታዊ	-8.12547
ፌ	-8.12946
▁እንደሚ	-8.12975
▁መጠን	-8.13113
ቼ	-8.14113
ሥራ	-8.14669
un	-8.15261
▁እነዚህ	-8.15695
▁አላህም	-8.16322
25	-8.16919
ri	-8.16988
▁19	-8.17031
ኞ	-8.17187
▁በዚያ	-8.17309
ኳ	-8.17759
+	-8.19943
us	-8.20127
▁ሁለት	-8.20391
17	-8.20405
th	-8.20599
▁ዓመት	-8.2064
▁የሆነ	-8.20914
ter	-8.20928
▁ሆነ	-8.20935
▁$	-8.20939
ተኞች	-8.20998
▁ሌሎች	-8.21228
▁የማይ	-8.21518
ad	-8.22147
መጨረሻ	-8.22508
mm	-8.22719
▁Co	-8.22857
ቻችሁ	-8.23073
ፃ	-8.23114
lo	-8.23541
amp	-8.23728
▁ምድር	-8.24285
ጹ	-8.24572
▁ኃይል	-8.24803
ኋ	-8.2523
000	-8.2543
la	-8.25852
▁ኦ	-8.26542
ገንዘብ	-8.27152
▁ዩኒቨርሲቲ	-8.2729
▁አላቸው	-8.27879
▁ሁኔታ	-8.27909
ኢ	-8.27977
▁–	-8.28057
ወቅ	-8.28617
▁እንጂ	-8.29511
ጮ	-8.2991
▁ያለውን	-8.29933
▁ፊት	-8.30194
▁አምላክ	-8.30418
▁ዓለም	-8.30501
ራቸው	-8.31067
ሶች	-8.31276
▁ቦታ	-8.31284
▁ምርቶች	-8.31467
40	-8.31556
j	-8.32565
ቂያ	-8.33681
▁መረጃ	-8.34609
ጢ	-8.34731
▁በላይ	-8.35399
▁ከእርሱ	-8.35694
መልከ	-8.36495
...	-8.36793
ሾ	-8.36859
ሺ	-8.37241
▁ከተማ	-8.37429
ውያን	-8.37528
▁መልካም	-8.37599
19	-8.38464
▁በአላህ	-8.38953
በሩ	-8.38968
ቻችን	-8.40113
▁ዋና	-8.40822
አካባቢ	-8.40866
ኅ	-8.41
አሜሪካ	-8.41526
ent	-8.41777
▁ነገ	-8.43061
”	-8.43101
ሹ	-8.43285
▁የኢ	-8.43419
ቷል	-8.4359
ገኘ	-8.4366
ዥ	-8.44195
መጡ	-8.44316
▁ማሽን	-8.44449
60	-8.44612
▁በምድር	-8.44719
“	-8.44982
▁እንዲሁም	-8.45146
▁እነሆ	-8.4559
▁እነሱ	-8.45623
▁ገጽ	-8.45783
id	-8.46045
ይቱ	-8.46217
▁ክፍል	-8.46324
መለከ	-8.47064
ገኙ	-8.47081
▁ልዩ	-8.47222
ዲያ	-8.47558
sh	-8.47696
ሔ	-8.48718
and	-8.48819
ኝነት	-8.49172
ion	-8.49331
▁ቅጣት	-8.49552
ap	-8.50437
▁ሆኖ	-8.50631
▁ለእናንተ	-8.51309
ዌ	-8.51389
▁ለሚ	-8.51843
▁መሣሪያ	-8.52906
ቫ	-8.53435
ዖ	-8.53804
▁ከሆነ	-8.53895
▁ትምህርት	-8.54009
•	-8.54216
▁ብሎ	-8.54497
▁ወንድ	-8.55037
ማንኛውም	-8.55262
▁ጥያቄ	-8.55858
▁ነበር።	-8.56045
መልካ	-8.56204
▁የእግዚአብሔር	-8.56405
▁Ch	-8.56487
▁ነኝ	-8.56738
80	-8.57411
▁ማለት	-8.57755
▁ሊያ	-8.58015
*	-8.58149
ut	-8.58319
▁የእኛ	-8.58631
▁ሕዝቦች	-8.58773
▁ጥሩ	-8.59071
Z	-8.59119
▁ነጻ	-8.59302
▁ከዚህ	-8.5956
▁2018	-8.59732
ጆች	-8.59867
▁ምክንያት	-8.59902
ጾ	-8.60317
▁ይላል	-8.60373
ኙ	-8.60459
ir	-8.60791
▁ነበሩ	-8.60834
▁ጥራት	-8.60858
ዮች	-8.61058
▁ፋብሪካ	-8.61331
ጪ	-8.61486
▁አገልግሎት	-8.61723
ፎች	-8.62608
ሏ	-8.63051
ኃጢአ	-8.63299
▁መለያ	-8.63554
▁100	-8.63885
▁ሙሉ	-8.63998
▁ቅር	-8.64113
ate	-8.64649
ጄ	-8.64778
="1	-8.64825
ደረግ	-8.65142
›	-8.65145
▁ጥቅም	-8.66541
ሟ	-8.68301
▁ከአላህ	-8.69046
▁ለእነርሱ	-8.69063
ደርጋ	-8.69064
▁ታላቅ	-8.69072
▁ዐዋቂ	-8.70146
ang	-8.70282
▁ቁጥር	-8.70541
▁ዛሬ	-8.70943
▁ማድረግ	-8.71363
▁አገር	-8.72153
Q	-8.72272
▁ጀምሮ	-8.72423
‹	-8.7252
ኢየሱስ	-8.72619
28	-8.72669
▁የለም	-8.7278
ሠሩት	-8.7343
▁ከእነርሱ	-8.73766
-20	-8.74097
▁ለማግኘት	-8.74118
▁ምርጥ	-8.74582
ሻሻ	-8.74614
ችኋል	-8.74633
▁ሆይ፥	-8.75234
ation	-8.75313
▁ጣቢያ	-8.76033
ዣ	-8.76049
ታችን	-8.76061
▁የአላህ	-8.76141
▁አንዱ	-8.76274
▁አቀፍ	-8.76279
ኘ	-8.76429
▁መጽሐፍ	-8.76563
▁ሴቶች	-8.76702
ኸ	-8.77678
▁ኩባንያ	-8.78044
▁2019	-8.78347
▁ንጉሥ	-8.7836
ዉ	-8.79256
▁እጅግ	-8.79304
▁ከእናንተ	-8.79495
ኣ	-8.79654
ቺ	-8.7984
▁2017	-8.79881
ቧ	-8.79974
▁እዚህ	-8.80033
ዐ	-8.80723
መለስ	-8.81589
▁በኩል	-8.81825
▁ለእርሱ	-8.81886
ሯ	-8.81995
&	-8.82708
ቴክኖሎጂ	-8.83008
▁የተለያዩ	-8.85515
፦	-8.86024
ቭ	-8.86336
▁እንኳ	-8.86358
ቍ	-8.86621
ፈልጉ	-8.87308
▁በአንድ	-8.87435
▁ሕዝብ	-8.87777
▁መመሪያ	-8.88816
£	-8.89045
▁ሕይወት	-8.89192
እያንዳንዱ	-8.89455
▁ዜና	-8.89944
ወረደ	-8.90204
ከፍተኛ	-8.9071
▁ይላሉ	-8.91165
▁የንግድ	-8.91401
▁ኖሮ	-8.91425
▁የእስራኤል	-8.9168
▁በእነርሱ	-8.9177
▁በእናንተ	-8.92042
▁ዓይነት	-8.92044
▁ምርት	-8.92107
ሓ	-8.92584
▁ስፍራ	-8.93075
▁ጨዋታ	-8.93436
▁ነገሮች	-8.94759
▁ክፍሎች	-8.94913
▁መሆኑን	-8.95222
ቾ	-8.95627
▁ቀላል	-8.96511
▁ቡድን	-8.96715
▁በእግዚአብሔር	-8.96788
▁አምራቾች	-8.97009
ገበያ	-8.97058
ive	-8.97756
ቄ	-8.97867
▁ግምገማ	-8.97868
▁ዶላር	-8.98319
▁ዓመታት	-8.98926
ከተሉ	-9.00209
▁መኖሪያ	-9.00461
ስታወ	-9.01371
▁ኾነው	-9.01555
▁እውነት	-9.01606
▁ግልጽ	-9.01615
ect	-9.02646
ኀ	-9.03041
ያውቁ	-9.03257
▁መሠረት	-9.03378
▁ቤቶች	-9.03638
▁ፎቶ	-9.04537
▁ዝርዝር	-9.04668
▁ተማሪዎች	-9.04846
▁ጉዞ	-9.05278
q	-9.05387
▁መስመር	-9.05536
አገልግሎ	-9.05951
ሁለተኛ	-9.06021
▁ያህል	-9.06201
▁ነፃ	-9.06521
▁ተከታታይ	-9.06773
ተንቀሳቃሽ	-9.06878
▁ማግኘት	-9.07053
▁ድጋፍ	-9.07305
▁ይበልጥ	-9.07335
]	-9.07544
▁ትልቅ	-9.07549
▁አስፈላጊ	-9.07684
ትክክለኛ	-9.07685
(	-9.07798
[	-9.08037
▁the	-9.08698
▁ብርሃን	-9.08711
ዘጋጀ	-9.09
▁ስልክ	-9.09526
ደረጉ	-9.09791
፡	-9.09819
▁ፍርድ	-9.09823
ሑ	-9.10216
▁ቋንቋ	-9.10253
▁መልክተኛ	-9.11232
age	-9.11263
▁ጥቁር	-9.11499
▁ስርዓት	-9.11634
▁አንዳንድ	-9.11781
▁ካርድ	-9.11789
▁ፈቃድ	-9.12153
ቨ	-9.12259
▁Ltd	-9.1274
#	-9.13445
▁ሰዓት	-9.14129
▁ተስፋ	-9.14428
ل	-9.14495
ሦ	-9.1487
ኤሌክትሪክ	-9.15403
ight	-9.1548
▁አደረገ	-9.15482
▁ለማድረግ	-9.15899
ቈ	-9.17362
▁ሞዴል	-9.17717
▁ዳዊት	-9.17993
▁የአየር	-9.18369
▁ቪዲዮ	-9.19399
▁መሳሪያ	-9.1951
▁ቀናት	-9.19578
▁ሦስት	-9.196
አፍሪካ	-9.19799
▁ጉዳይ	-9.20275
ፔ	-9.21398
ጩ	-9.2164
መንግስት	-9.21932
▁ጉርሻ	-9.23028
▁የነበሩት	-9.23232
▁ቀጣይ	-9.23528
▁ያግኙ	-9.23648
▁ችግር	-9.23762
▁እንደዚሁ	-9.24475
ከሓዲዎች	-9.24765
ተባበ	-9.24854
▁ምርጫ	-9.24923
=	-9.25004
▁ምልክት	-9.25482
://	-9.2624
ock	-9.26266
▁በእርሷ	-9.26624
▁ወረቀት	-9.26963
▁በዓለም	-9.27006
▁ሁለቱ	-9.27735
ጕ	-9.28249
▁ጥቂት	-9.29037
▁አውርድ	-9.29271
መንግሥት	-9.30215
▁መግለጫ	-9.30657
▁ባለሙያ	-9.30839
▁ችሎታ	-9.3151
ኾናችሁ	-9.31956
▁በርካታ	-9.32764
▁ፍጥነት	-9.33399
▁ንጉሡ	-9.34311
▁የበለጠ	-9.34361
▁አሸናፊ	-9.34449
▁የኃይል	-9.34449
▁ኪዳን	-9.34689
ተወሰነ	-9.34927
▁http	-9.3556
ነዚህ	-9.35824
▁የቀድሞው	-9.36447
▁ታሪክ	-9.37778
ኵ	-9.3796
ሡ	-9.38342
▁እንቅስቃሴ	-9.3863
▁ዝቅተኛ	-9.39015
▁ቅዱስ	-9.39021
е	-9.39255
▁የትምህርት	-9.39545
@	-9.3969
▁ግንኙነት	-9.39837
ኗ	-9.39982
0.0	-9.40197
ችኋለሁ	-9.40324
▁ተመሳሳይ	-9.4155
ኡ	-9.416
▁FSX	-9.41699
ጐ	-9.41847
action	-9.42593
ፐ	-9.42693
▁ምሳሌ	-9.42908
▁በማድረግ	-9.43043
▁ኢንዱስትሪ	-9.43546
ጧ	-9.44203
▁የመስመር	-9.44765
ቷ	-9.44995
▁ሕዝቡ	-9.4579
ኹ	-9.4698
▁ቁርኣን	-9.47189
▁ጠንካራ	-9.47242
▁ሥርዓት	-9.47923
▁ይገኛል	-9.4803
ዢ	-9.52943
ዒ	-9.53833
ዑ	-9.54169
°	-9.55352
ا	-9.58462
©	-9.6083
ቮ	-9.62096
€	-9.6301
×	-9.63378
~	-9.66816
о	-9.68289
а	-9.75168
ጳ	-9.75931
ዷ	-9.7628
ጴ	-9.76982
ዔ	-9.77901
ፑ	-9.83452
ፆ	-9.83753
ሇ	-9.83903
፩	-9.85731
፪	-9.8627
ቬ	-9.88141
ፏ	-9.88457
ሼ	-9.9045
ѕ	-9.9815
»	-9.9868
፻	-10.0388
፲	-10.0462
ፁ	-10.0583
ዟ	-10.0602
’	-10.0918
і	-10.1015
ج	-10.158
ኼ	-10.1875
ዦ	-10.2887
$	-10.2985
ኚ	-10.3174
ኰ	-10.3421
ه	-10.3509
ሒ	-10.3686
ı	-10.3725
ي	-10.3828
ዠ	-10.3867
፫	-10.4052
ዯ	-10.4199
ኽ	-10.4226
`	-10.4294
፱	-10.4811
с	-10.4926
ጼ	-10.4926
\	-10.5371
р	-10.5417
م	-10.5726
ቿ	-10.5868
→	-10.6094
፬	-10.6375
·	-10.6527
፭	-10.6544
ن	-10.7069
و	-10.7105
ኺ	-10.768
—	-10.7932
±	-10.7951
ኜ	-10.819
ኻ	-10.819
፳	-10.8352
፯	-10.8579
у	-10.916
ö	-10.9316
ع	-10.9339
፮	-10.9429
}	-11.0484
ä	-11.056
{	-11.074
–	-11.0968
®	-11.0977
ጲ	-11.1003
ر	-11.103
፺	-11.1383
¥	-11.141
ت	-11.1494
ሖ	-11.1494
ጵ	-11.1607
ሤ	-11.1836
≤	-11.1923
é	-11.1982
س	-11.3001
ş	-11.3231
ዪ	-11.3332
፰	-11.447
и	-11.4507
●	-12.7117
ü	-12.7118
«	-12.7119
丨	-12.7119
