<unk>	0
<s>	0
</s>	0
▁	-2.99562
ን	-3.37556
ም	-3.67451
▁፡	-3.97119
ት	-4.03052
▁የ	-4.30242
ል	-4.33729
.	-4.47592
,	-4.49041
ስ	-4.49634
▁በ	-4.49939
ው	-4.53272
▁አ	-4.57682
ር	-4.5917
ና	-4.68441
ድ	-5.09365
ብ	-5.10351
▁እና	-5.12923
▁(	-5.14394
ለ	-5.15675
▁መ	-5.19888
።	-5.22899
▁ከ	-5.23421
ታ	-5.23922
ግ	-5.30563
ረ	-5.33922
ደ	-5.34109
▁ላይ	-5.36036
ላ	-5.36173
ራ	-5.37031
▁ይ	-5.37094
ክ	-5.3729
ቀ	-5.44766
ዎች	-5.46714
▁ነው	-5.47006
ገ	-5.47205
መ	-5.48506
:	-5.5109
ይ	-5.51165
ጥ	-5.55515
-	-5.55538
ባ	-5.60619
ሳ	-5.62881
ህ	-5.63338
ማ	-5.63603
▁)	-5.67096
ሰ	-5.67613
ነ	-5.68024
ያ	-5.68213
ፍ	-5.69219
፥	-5.69898
▁ለ	-5.69971
ቅ	-5.70963
▁ተ	-5.71476
በ	-5.71833
▁ወደ	-5.75704
▁ውስጥ	-5.76273
ሉ	-5.77377
ዳ	-5.80294
ጠ	-5.8078
፤	-5.82878
▁ማ	-5.85695
;	-5.8667
ተ	-5.8732
s	-5.87873
▁የሚ	-5.89785
ፈ	-5.91869
▁የተ	-5.93989
ች	-5.95204
)	-5.95596
▁ያ	-5.97198
▁እ	-5.99729
ዋ	-6.05606
ጋ	-6.05649
ካ	-6.07301
ጣ	-6.10027
▁ሁሉ	-6.13688
ዝ	-6.13963
▁ጊዜ	-6.14121
የ	-6.15528
ከ	-6.21305
▁ጋር	-6.24139
ሪ	-6.25562
▁እንደ	-6.26473
ሽ	-6.27878
ቱ	-6.38587
▁-	-6.39146
ዘ	-6.39258
ሮ	-6.41668
ወ	-6.4172
ቃ	-6.43292
▁&	-6.43961
▁«	-6.46547
ነት	-6.48951
ሩ	-6.49382
ቶች	-6.51065
▁ወይም	-6.51161
gt	-6.52008
▁ነገር	-6.54531
▁አንድ	-6.55921
▁/	-6.56849
በት	-6.57141
a	-6.57461
e	-6.58061
▁»	-6.58398
▁በመ	-6.61627
▁፣	-6.62303
ቁ	-6.63827
▁ግን	-6.6553
▁ይህ	-6.6646
o	-6.68295
ኝ	-6.69504
?	-6.70305
ቆ	-6.70971
"	-6.72445
▁ሰው	-6.72709
ቶ	-6.74105
ሁ	-6.74197
▁1	-6.754
ሙ	-6.75493
ሱ	-6.76592
ፋ	-6.76696
ዛ	-6.77116
▁ለመ	-6.78223
ኑ	-6.79125
▁፤	-6.79848
ዱ	-6.80971
አ	-6.81492
y	-6.81719
ሌ	-6.81913
▁አላህ	-6.82258
▁ዘንድ	-6.84205
▁S	-6.84828
፣	-6.84894
ቡ	-6.8504
u	-6.85231
ጽ	-6.86153
c	-6.86586
▁ባ	-6.8696
S	-6.87148
▁ስለ	-6.87285
ኛ	-6.88326
n	-6.88526
▁አይ	-6.88819
ሻ	-6.89352
i	-6.89785
er	-6.91072
1	-6.92533
k	-6.92649
g	-6.92823
ሚ	-6.93035
2	-6.93346
/	-6.9548
ሊ	-6.95556
ሞ	-6.96174
ሜ	-6.96977
ጫ	-6.98294
A	-6.98382
▁ሰ	-6.98574
in	-6.99245
▁ናቸው	-6.99265
3	-6.99422
ዩ	-7.0016
▁2	-7.00501
ኮ	-7.00542
m	-7.00632
▁እኔ	-7.01866
ሬ	-7.02757
D	-7.02789
▁ቀን	-7.02966
ጭ	-7.0313
ሸ	-7.0375
ዓ	-7.0419
▁ሰዎች	-7.04482
▁የመ	-7.04971
▁ነበር	-7.04989
P	-7.05022
M	-7.0548
t	-7.05765
▁ሊ	-7.06765
▁P	-7.07022
ፊ	-7.0709
ዊ	-7.07315
r	-7.07854
▁የአ	-7.08297
▁ሲ	-7.08616
ኩ	-7.09083
l	-7.11052
▁በተ	-7.12449
ሲ	-7.12725
C	-7.12996
ሎ	-7.13086
▁ቤት	-7.13474
p	-7.14657
ዕ	-7.14792
▁"	-7.15234
ችሁ	-7.16169
▁አለ	-7.17443
▁3	-7.17678
ቦ	-7.18607
▁C	-7.18629
d	-7.18759
ላችሁ	-7.19007
ቢ	-7.19056
▁_	-7.19129
ጅ	-7.19135
ቴ	-7.19283
ጉ	-7.19635
ዲ	-7.19879
ጎ	-7.2025
▁A	-7.2032
x	-7.20899
▁በእርግጥ	-7.20955
ሕ	-7.21364
▁M	-7.21638
ቲ	-7.21767
▁ወ	-7.22996
ኒ	-7.23162
ዶ	-7.23667
▁የሚያ	-7.2452
▁እርሱ	-7.24771
ጨ	-7.2513
lt	-7.25347
!	-7.26191
ኖ	-7.26357
▁ለማ	-7.26747
T	-7.26755
ቸው	-7.26795
እ	-7.26901
▁እኛ	-7.2698
▁እግዚአብሔር	-7.27287
▁ብቻ	-7.28143
▁በአ	-7.30127
ላቸው	-7.30574
E	-7.30592
R	-7.30891
ዮ	-7.30913
4	-7.31213
L	-7.32408
▁በጣም	-7.32661
f	-7.32776
▁ቢ	-7.3296
▁T	-7.33437
h	-7.34174
ሮች	-7.34858
ጡ	-7.34962
▁B	-7.34964
ፕ	-7.35315
O	-7.35594
▁ነው።	-7.35612
▁ከፍተኛ	-7.35732
ሪያ	-7.35989
ጸ	-7.36024
▁F	-7.37309
B	-7.38076
▁...	-7.38106
ar	-7.38265
▁በማ	-7.39002
ኔ	-7.40597
▁የማ	-7.41827
መጣ	-7.42197
b	-7.42584
▁ያለ	-7.42772
or	-7.43105
▁በኋላ	-7.43337
ሃ	-7.43349
ቻ	-7.43486
▁5	-7.43752
ing	-7.4478
ሴ	-7.45543
▁4	-7.46163
▁ካ	-7.46257
H	-7.46629
▁እንዲ	-7.46735
I	-7.47046
ጃ	-7.47515
"&	-7.47539
▁ዘ	-7.47596
▁H	-7.48057
▁እን	-7.48152
▁start	-7.48486
▁dur	-7.48498
▁ብዙ	-7.48581
▁D	-7.4872
በር	-7.48877
="	-7.4894
ጀ	-7.48945
▁ሌላ	-7.4914
▁እናንተ	-7.49512
▁አንተ	-7.49628
ኤ	-7.50017
▁መካከል	-7.50274
al	-7.50818
ሥ	-7.51352
ዎ	-7.51407
en	-7.5203
6	-7.52096
F	-7.5237
▁G	-7.52596
ኪ	-7.52895
5	-7.53477
8	-7.54978
▁፡፡	-7.55029
▁ልጆች	-7.55381
▁!	-7.55694
▁ሥራ	-7.55897
an	-7.568
▁ደግሞ	-7.58067
ሶ	-7.58623
%	-7.59909
▁በሚ	-7.60208
▁E	-7.60594
▁እስከ	-7.61242
▁በዚህ	-7.62151
re	-7.62237
ዎቹ	-7.6286
ጓ	-7.6292
▁L	-7.62975
ቤ	-7.63173
ባቸው	-7.63825
G	-7.64047
▁ልጅ	-7.6425
▁መንገድ	-7.65492
▁10	-7.65684
▁እነዚያ	-7.65946
▁ያለው	-7.66149
at	-7.66354
ቂ	-7.66584
ጻ	-7.66642
ch	-7.66679
ገባ	-7.67659
7	-7.68056
ed	-7.68226
et	-7.68256
▁እንዲህ	-7.68379
w	-7.68615
20	-7.69099
▁ምንም	-7.69488
9	-7.69792
▁አይደለም	-7.70522
ዴ	-7.7058
ፉ	-7.71335
▁በፊት	-7.72303
V	-7.72599
▁ኤ	-7.73275
▁ቃል	-7.73473
▁ሆይ	-7.73563
▁እነርሱ	-7.73704
on	-7.75281
▁ኢ	-7.75292
ሠራ	-7.75296
ጌ	-7.75885
▁6	-7.76032
ኞች	-7.77957
▁ይችላሉ	-7.78166
K	-7.7894
ሆኑ	-7.7919
▁ይችላል	-7.79409
ስተ	-7.79418
▁ጌታ	-7.79807
▁እርሱም	-7.80929
ፒ	-7.80952
ተር	-7.80955
▁ባለ	-7.81394
▁ከአ	-7.8235
le	-7.82383
▁ድረስ	-7.82397
ዙ	-7.82422
ሎች	-7.82717
▁በእርሱ	-7.82794
ኬ	-7.82888
00	-7.83595
ቹ	-7.83673
▁ስለዚህ	-7.84191
it	-7.84455
▁ዋጋ	-7.84467
ወጣ	-7.84523
ነው	-7.84524
ሆን	-7.84665
▁N	-7.84766
▁እንዴት	-7.85191
ቋ	-7.8532
▁አዲስ	-7.85771
▁ደረጃ	-7.86021
ቢያ	-7.86141
ለሁ	-7.86237
ሐ	-7.86708
▁ቻይና	-7.87036
ተኛ	-7.87181
▁R	-7.87282
▁ከዚያም	-7.87539
▁ከመ	-7.87568
ፎ	-7.8769
▁መጠን	-7.87921
፡፡	-7.87969
▁W	-7.87985
10	-7.88139
▁ኮ	-7.88169
▁ሞ	-7.88188
U	-7.88239
ዋል	-7.88533
ic	-7.88665
com	-7.88915
▁7	-7.88971
ol	-7.89309
▁እንደሚ	-7.89349
ቪ	-7.89545
▁አሉ	-7.89606
ro	-7.90665
▁እነዚህ	-7.90866
W	-7.90973
▁አላህም	-7.91013
N	-7.91019
50	-7.91123
ዞ	-7.91302
▁ስም	-7.91846
ተው	-7.92422
▁የእ	-7.94006
▁8	-7.94483
ሄ	-7.94867
▁19	-7.94947
▁ዓመት	-7.95828
▁$	-7.9584
ቼ	-7.96116
_	-7.96179
▁ሌሎች	-7.96418
▁ሁለት	-7.97085
ሚያ	-7.97566
ሀ	-7.9801
ጂ	-7.98678
amp	-7.98931
▁በእ	-7.99382
ra	-7.99382
▁ምድር	-7.99415
is	-7.9956
z	-7.99578
▁አሁን	-7.99684
▁?	-7.999
▁ኃይል	-8.00006
▁እንዳ	-8.00224
ሠ	-8.00294
ዶች	-8.00559
ቦች	-8.00853
ረጋ	-8.01281
ሰማ	-8.01283
ቱን	-8.01385
ሰብ	-8.0152
▁እየ	-8.01863
▁ዩኒቨርሲቲ	-8.0216
▁ሁኔታ	-8.03111
▁–	-8.03113
mm	-8.03283
ኖች	-8.03391
▁ዓ	-8.03691
▁20	-8.04402
ሪዎች	-8.04562
▁እንጂ	-8.04585
ቻቸው	-8.04635
▁የምት	-8.04725
▁ሚ	-8.04757
▁ያለውን	-8.05039
ናቸው	-8.05093
ለች	-8.0644
▁ዓለም	-8.06497
▁ፊት	-8.06505
▁አምላክ	-8.066
▁ምርቶች	-8.0665
▁ይሆናል	-8.06864
▁ያስ	-8.07003
ታቸው	-8.07272
ፅ	-8.07319
▁ተጨማሪ	-8.07415
X	-8.07506
▁ኦ	-8.07609
ጠራ	-8.08107
▁ይህን	-8.08266
▁V	-8.08574
▁የሆነ	-8.08667
▁ከተ	-8.08746
ኦ	-8.08761
▁መረጃ	-8.09803
ቸ	-8.09838
▁የማይ	-8.10194
▁በላይ	-8.10515
▁ከእርሱ	-8.1089
v	-8.11183
ur	-8.11227
000	-8.11374
ለህ	-8.11537
▁+	-8.11722
ዬ	-8.11799
ወር	-8.11977
▁ከተማ	-8.12352
▁መልካም	-8.12727
st	-8.13615
▁12	-8.13686
ገለ	-8.13823
▁ሀ	-8.13937
▁በአላህ	-8.1415
▁ሆነ	-8.1432
ኖር	-8.14574
ራቸው	-8.14675
th	-8.14816
▁Co	-8.15164
▁ዕ	-8.15205
▁ዋና	-8.15548
es	-8.15725
ሥራ	-8.16201
ፓ	-8.16412
ፌ	-8.17177
am	-8.17775
ውያን	-8.1801
'	-8.18058
በላ	-8.18098
”	-8.18303
ሹ	-8.18487
ፈር	-8.18719
▁9	-8.18943
▁K	-8.18944
ረዳ	-8.19021
▁ማሽን	-8.19599
▁በምድር	-8.19909
▁ሐ	-8.20133
ሰራ	-8.2019
el	-8.20302
▁በዚያ	-8.20671
▁ገጽ	-8.20773
ad	-8.20795
▁እነሱ	-8.20948
▁ጎ	-8.20974
▁ሕ	-8.21088
▁ይህም	-8.21231
▁እንዲሁም	-8.21414
▁ልዩ	-8.2211
▁ክፍል	-8.22151
ዚያ	-8.22386
▁ለሚ	-8.22568
ሰጠ	-8.22583
ዚ	-8.22956
ገደ	-8.23219
▁ከእ	-8.23475
▁“	-8.23645
ታዊ	-8.23741
ሶች	-8.24032
▁ያሉ	-8.24082
il	-8.24515
▁ቅጣት	-8.24746
us	-8.24878
▁ሆኖ	-8.25862
ፖ	-8.25883
j	-8.25892
ዎን	-8.25914
▁J	-8.26192
▁ለእናንተ	-8.26557
...	-8.2672
▁እነርሱም	-8.26945
ጊ	-8.27243
un	-8.27385
▁ከሆነ	-8.28444
▁አላቸው	-8.28989
ሞች	-8.29048
▁ትምህርት	-8.2923
መሰ	-8.29386
▁ብሎ	-8.29496
ጢ	-8.29583
▁•	-8.297
ራዊ	-8.29917
ፃ	-8.30228
ግባ	-8.30628
▁እያ	-8.30715
▁ብት	-8.31121
▁ነበር።	-8.31237
▁ተመ	-8.31296
▁ከሚ	-8.31364
ሆ	-8.3168
▁ነኝ	-8.31692
12	-8.31753
he	-8.31963
ጠር	-8.32068
="1	-8.32097
▁ለአ	-8.32334
▁ማለት	-8.32729
Y	-8.32766
ፀ	-8.32792
ፈራ	-8.3343
▁ሊያ	-8.33498
ነፍ	-8.33716
▁በላቸው	-8.33746
▁ጥሩ	-8.33901
as	-8.33947
▁ሕዝቦች	-8.33975
ኛው	-8.34054
አል	-8.34385
▁አለው	-8.34571
▁ከዚህ	-8.34903
▁ምክንያት	-8.35104
0	-8.35409
▁ቦታ	-8.35437
▁'	-8.35547
60	-8.3571
▁ነጻ	-8.36278
ጆ	-8.36443
▁2018	-8.36496
▁ቅር	-8.36824
▁አገልግሎት	-8.36845
15	-8.37019
▁ፋብሪካ	-8.3715
መራ	-8.37245
▁ጥራት	-8.37281
▁አስተ	-8.37532
▁O	-8.37628
▁c	-8.37709
▁15	-8.38001
30	-8.38106
▁ሴ	-8.38233
ጠፋ	-8.38347
▁መለያ	-8.38612
ቸዋል	-8.38642
▁ሙሉ	-8.3901
ሣ	-8.39613
co	-8.39619
ጄ	-8.3998
ይቱ	-8.40574
ፍራ	-8.40814
ir	-8.41001
ዜ	-8.41223
ዥ	-8.4127
▁ጥቅም	-8.41721
ቂያ	-8.41911
▁ጭ	-8.41958
ሳይ	-8.42684
ኳ	-8.42861
ቷል	-8.4314
ate	-8.43183
ሟ	-8.43503
▁U	-8.43657
ጠቀ	-8.43931
ጠረ	-8.44011
▁ከአላህ	-8.44245
▁ታላቅ	-8.44267
▁ለእነርሱ	-8.44314
ቻችሁ	-8.44511
▁ዐዋቂ	-8.45348
መልካ	-8.45367
▁ቁጥር	-8.45737
ገኙ	-8.45791
ወሰ	-8.46016
▁ዛሬ	-8.46076
▁I	-8.46319
መጡ	-8.46457
▁ማድረግ	-8.46565
ከር	-8.46633
▁አገር	-8.46747
ፎች	-8.46763
▁የለም	-8.46785
ቸውን	-8.46815
▁ገንዘብ	-8.47197
ጆች	-8.47446
ወቅ	-8.47541
▁ጀምሮ	-8.47624
ጦ	-8.47918
ኅ	-8.48543
▁ወንድ	-8.48649
▁ከእነርሱ	-8.49043
▁ለማግኘት	-8.49321
de	-8.49468
▁የወ	-8.49496
ሠሩት	-8.49559
80	-8.4963
▁ምርጥ	-8.49697
11	-8.49801
ችኋል	-8.49828
▁ድር	-8.50078
▁ዲ	-8.50248
▁የኾነ	-8.5041
ation	-8.50461
ናችሁ	-8.5052
▁ሆይ፥	-8.50548
ul	-8.50679
ጁ	-8.50771
ሰጥ	-8.50863
28	-8.51148
▁ጣቢያ	-8.51196
▁አቀፍ	-8.51326
▁የአላህ	-8.51335
▁አንዱ	-8.51368
01	-8.51409
ገኝ	-8.51411
19	-8.51514
▁ብረት	-8.51524
ኃ	-8.51537
▁11	-8.51563
▁ሴቶች	-8.52013
ዌ	-8.5205
16	-8.52178
▁መጽሐፍ	-8.52757
▁18	-8.52849
ri	-8.52992
ter	-8.53142
▁ኩባንያ	-8.53246
▁ንጉሥ	-8.53561
ባለ	-8.53711
ዮች	-8.5392
▁ኪ	-8.53974
ገዛ	-8.54296
ዉ	-8.54458
35	-8.54473
ኾኑ	-8.54525
▁ከእናንተ	-8.54786
ኣ	-8.54856
ang	-8.5486
▁2019	-8.54902
▁እጅግ	-8.54967
▁2017	-8.54968
▁እዚህ	-8.55313
ay	-8.55412
መለስ	-8.55622
ሳቸው	-8.56016
ጠቅ	-8.56085
▁ነበረ	-8.56251
ጋራ	-8.56962
▁Ch	-8.56966
▁በኩል	-8.5699
▁ለእርሱ	-8.57089
▁ሸ	-8.57487
▁X	-8.58
▁ያላቸው	-8.58066
▁b	-8.58328
▁እጅ	-8.58695
▁200	-8.59315
ጥፋ	-8.59368
▁ደስ	-8.59434
ሰበ	-8.59915
ኾን	-8.59989
ሺ	-8.60305
&	-8.60432
um	-8.60443
90	-8.60534
25	-8.60556
▁*	-8.60717
▁የተለያዩ	-8.60858
▁30	-8.61003
፦	-8.61226
ታችሁ	-8.61503
ኝነት	-8.61861
▁ኢትዮጵያ	-8.61912
ገኘ	-8.62016
ot	-8.62183
ጹ	-8.62394
ደረግ	-8.62797
ኋ	-8.62798
▁ሕዝብ	-8.62972
▁p	-8.63157
tr	-8.6317
▁ወር	-8.63232
▁በአንድ	-8.63349
ሄድ	-8.6366
ጠሩ	-8.63764
17	-8.63791
▁እኔም	-8.63884
ሃል	-8.63897
▁መመሪያ	-8.63994
ቶቻቸው	-8.64258
ኾነ	-8.64371
ሂ	-8.64389
▁ሕይወት	-8.64394
▁አካባቢ	-8.64567
ha	-8.64768
▁ዜና	-8.65039
ers	-8.65128
ወረደ	-8.65289
ተዋል	-8.65305
40	-8.65386
26	-8.65457
ገቡ	-8.659
▁እሱ	-8.65992
ታችን	-8.66004
▁ይላሉ	-8.66325
▁ኖሮ	-8.66526
▁ጉ	-8.6657
▁የንግድ	-8.66591
ቫ	-8.66852
▁ነበሩ	-8.66872
▁የእስራኤል	-8.66882
▁ምርት	-8.66893
id	-8.67089
▁በእነርሱ	-8.67159
▁ዓይነት	-8.67244
▁በእናንተ	-8.67454
▁እነዚያም	-8.67461
▁ይላል	-8.67513
▁16	-8.67741
ሾ	-8.67981
▁ስፍራ	-8.68326
▁የሚያስ	-8.68329
ከፍተኛ	-8.68394
ኸ	-8.68424
ent	-8.68463
ጪ	-8.68587
▁አቅራቢዎች	-8.68751
ኤል	-8.68807
▁£	-8.68902
▁ሆ	-8.68906
▁እንጅ	-8.6893
ቀጣ	-8.68984
ወደ	-8.69014
በሩ	-8.69086
▁መብት	-8.69157
▁እርስዎ	-8.6929
▁ሳይ	-8.69604
29	-8.69712
▁ነገሮች	-8.69893
▁መሆን	-8.69926
▁ፓ	-8.69928
ያዝ	-8.6995
te	-8.70002
▁ክፍሎች	-8.70146
▁መሆኑን	-8.7038
ያዊ	-8.70452
መነ	-8.71278
ow	-8.71309
to	-8.71389
▁ቀላል	-8.71683
▁ቡድን	-8.71902
▁በእግዚአብሔር	-8.7199
ac	-8.72062
▁አምራቾች	-8.72212
27	-8.72229
se	-8.72284
▁ሲሆን	-8.7252
ከለ	-8.72534
ቸውም	-8.7325
ተኛው	-8.73292
▁ማንኛውም	-8.7344
▁እንዲያ	-8.73505
▁ዶላር	-8.73518
▁ልብ	-8.73547
▁ጥያቄ	-8.73608
ደርግ	-8.73689
▁24	-8.73714
▁13	-8.73727
J	-8.73933
▁ተከ	-8.74092
▁ዓመታት	-8.74128
▁የእግዚአብሔር	-8.74263
ስቲ	-8.74809
ሷ	-8.75213
▁ባል	-8.75305
▁ሃ	-8.75463
ኙ	-8.75595
▁መኖሪያ	-8.75657
ነሣ	-8.75689
▁14	-8.75795
▁ቢሆን	-8.75798
ia	-8.75873
ma	-8.76174
ኖሩ	-8.76292
18	-8.76418
13	-8.76534
▁ኾነው	-8.76539
▁25	-8.76545
▁ግልጽ	-8.76811
and	-8.76824
op	-8.76943
ብረት	-8.77251
▁ግብ	-8.77366
▁ኢየሱስ	-8.77614
ዖ	-8.77707
500	-8.77811
ap	-8.77985
▁እውነት	-8.78059
ተኞች	-8.78084
ሞት	-8.78233
▁St	-8.78256
▁መሠረት	-8.7858
="3	-8.78699
▁ቤቶች	-8.78853
ፈረ	-8.78885
▁ቴክኖሎጂ	-8.7915
ዋቸው	-8.79234
ut	-8.79334
▁ፎቶ	-8.79714
▁ዝርዝር	-8.7987
▁ለምን	-8.79938
▁ተማሪዎች	-8.8015
▁ክፍያ	-8.80195
45	-8.80211
▁ጉዞ	-8.80504
▁መስመር	-8.80729
▁17	-8.80779
sh	-8.80795
▁ሕግ	-8.80854
▁ሶ	-8.80963
ነበረ	-8.81179
ሁለተኛ	-8.81248
▁ያህል	-8.81262
ሆነ	-8.81315
▁ነፃ	-8.81655
▁ነገ	-8.81769
▁አለው።	-8.81791
ላዊ	-8.81941
-1	-8.8199
14	-8.82063
ዲያ	-8.82117
ነሱ	-8.82173
▁ማግኘት	-8.82273
ሰጡ	-8.82434
▁0	-8.82474
▁ተከታታይ	-8.82501
▁ድጋፍ	-8.82502
▁ይበልጥ	-8.82536
ess	-8.82608
▁ትልቅ	-8.82666
▁አስፈላጊ	-8.82887
▁ነን	-8.83345
▁the	-8.83589
በቃ	-8.83644
ወድ	-8.83648
ኢ	-8.83874
86	-8.8397
ne	-8.8409
ኤስ	-8.8447
▁ስልክ	-8.8465
os	-8.84775
መኑ	-8.84839
ደረጉ	-8.84962
▁ፍርድ	-8.84993
▁ብርሃን	-8.85003
▁የእርስዎ	-8.85004
ig	-8.85073
li	-8.85215
ዎት	-8.85295
oo	-8.85359
▁ቋንቋ	-8.85454
(	-8.85467
ቺ	-8.85559
ወጡ	-8.86009
▁f	-8.86059
ኛል	-8.86098
መለከ	-8.86151
ፈሩ	-8.86392
ከብ	-8.86583
▁ይልቅ	-8.86584
▁ጥቁር	-8.86692
▁ተጠ	-8.86788
▁ስርዓት	-8.86836
▁እሳት	-8.8684
▁የአሜሪካ	-8.86855
▁ካርድ	-8.86903
33	-8.86955
▁አንዳንድ	-8.86983
ቶቹ	-8.87057
bo	-8.8707
፡	-8.87076
-20	-8.87119
መጀመሪያ	-8.8723
mo	-8.87339
▁ፈቃድ	-8.87351
ቤት	-8.87397
▁ሲኾኑ	-8.87583
▁ጸ	-8.87646
05	-8.87699
32	-8.87747
▁Ltd	-8.87941
▁አለበት	-8.88047
ኮች	-8.88683
▁እንደሆነ	-8.887
ቤቱ	-8.88708
▁ቤተ	-8.8874
▁In	-8.88775
▁ሊሆን	-8.88832
▁የእኛ	-8.88858
ጮ	-8.89023
▁እየተ	-8.89259
▁ሰዓት	-8.89333
ወገ	-8.8939
▁አለ።	-8.89479
06	-8.89502
70	-8.89638
▁ተስፋ	-8.89659
ለሁ።	-8.89899
▁ሂ	-8.90033
ጾ	-8.90074
36	-8.90144
ሔ	-8.9015
im	-8.90227
ከራ	-8.90341
ናገር	-8.90586
lo	-8.90616
la	-8.90651
▁አደረገ	-8.90683
ነቱ	-8.90888
▁ለማድረግ	-8.91101
ub	-8.91256
▁ወዳ	-8.91518
ሰጠው	-8.9177
ver	-8.91786
ኞ	-8.91877
ጣሉ	-8.92175
▁ስራ	-8.92471
ቈ	-8.92564
ex	-8.92814
▁ሞዴል	-8.92915
▁100	-8.92959
ab	-8.93183
▁ዳዊት	-8.93188
ገኛ	-8.93226
▁Y	-8.93278
▁ሴት	-8.93359
▁ክፍ	-8.93455
▁ወጣ	-8.93487
▁of	-8.93523
ጠቃ	-8.93539
▁የአየር	-8.93552
24	-8.93808
▁50	-8.93974
▁መሣሪያዎች	-8.9401
▁ዘመን	-8.94041
▁ክፉ	-8.94099
▁Re	-8.94101
▁እንዳይ	-8.94404
▁ውጭ	-8.94444
99	-8.94463
▁ቪዲዮ	-8.94601
▁ቀናት	-8.94707
▁ሦስት	-8.948
አፍሪካ	-8.94999
▁ይሁን	-8.9511
34	-8.95199
ip	-8.95406
▁ጉዳይ	-8.95478
▁መቶ	-8.95485
ኃጢአ	-8.95668
▁ብር	-8.9573
ያዙ	-8.95738
ፊያ	-8.96106
ፔ	-8.966
om	-8.96627
ቄ	-8.96681
ሾች	-8.96866
መንግስት	-8.97129
▁ፕሮግራም	-8.97337
▁ከዚያ	-8.97608
መልከ	-8.97633
▁አካል	-8.97982
▁ጉርሻ	-8.9823
21	-8.98547
▁#	-8.98664
ቭ	-8.98681
▁ቀጣይ	-8.9875
▁ያግኙ	-8.98848
▁ችግር	-8.98934
▁የነበሩት	-8.98974
▁የሰው	-8.99287
ራችሁ	-8.99411
22	-8.99456
od	-8.99495
ተባበ	-8.99626
▁እንደዚሁ	-8.99676
አንድ	-8.99851
▁ዐ	-8.99935
ly	-9.00015
▁ምርጫ	-9.00102
ብሩ	-9.00103
አቸው	-9.00175
▁ባሪያ	-9.00218
▁ጌታዬ	-9.00318
▁ይህንን	-9.00485
▁ፒ	-9.00537
ስቴ	-9.00666
▁ምልክት	-9.00681
ጊዜ	-9.00757
▁የኢ	-9.00824
03	-9.00907
▁መሣሪያ	-9.00974
▁ቀለም	-9.01042
all	-9.01285
02	-9.01422
://	-9.01443
ard	-9.01483
▁ወይ	-9.01533
Z	-9.01567
me	-9.01681
09	-9.0178
▁በእርሷ	-9.01822
▁አይነት	-9.02036
ack	-9.02146
▁ወረቀት	-9.02163
ባችሁ	-9.02305
37	-9.02521
08	-9.02523
▁አየር	-9.02559
▁በዓለም	-9.02695
▁ምግብ	-9.02785
▁ሁለቱ	-9.02935
▁w	-9.03071
ጤ	-9.03319
ጕ	-9.03452
one	-9.03564
ti	-9.03621
07	-9.03724
▁እነሆ፥	-9.0386
▁የግል	-9.03891
est	-9.03917
▁እግዚአብሔርም	-9.0401
▁በታች	-9.0406
ጠበቅ	-9.041
▁ያልተ	-9.0412
pr	-9.0418
▁ጥቂት	-9.04234
kv	-9.04357
▁ውሃ	-9.0437
▁አውርድ	-9.04457
ry	-9.04511
▁የሕ	-9.04638
▁ንድፍ	-9.04656
per	-9.04773
▁መልስ	-9.04809
ቻችን	-9.05044
ገዙ	-9.05053
▁ትክክለኛ	-9.05104
መለሱ	-9.0514
▁የሆኑ	-9.05152
መንግሥት	-9.05417
ዎቻቸው	-9.05523
▁በጌታ	-9.05611
ric	-9.05648
▁Z	-9.0577
ነቶች	-9.05839
▁መጨረሻ	-9.05851
▁መግለጫ	-9.05859
▁እውነተኛ	-9.06032
▁ባለሙያ	-9.06038
ቻል	-9.06186
▁ሁሉንም	-9.06277
ፈልጉ	-9.06361
ዘጋጀ	-9.06439
▁ሰላም	-9.06459
ቀረበ	-9.06593
▁አልተ	-9.0665
]	-9.06659
38	-9.06677
▁ችሎታ	-9.06708
ታቸውን	-9.06714
▁የቤት	-9.06722
▁እንዲሁ	-9.07069
ኾናችሁ	-9.0717
▁ጥር	-9.07437
ive	-9.0745
▁ተወ	-9.07736
ቧ	-9.07737
ov	-9.07931
▁በርካታ	-9.07964
▁እነሆ	-9.08028
ቆጣ	-9.08115
▁ኃ	-9.0812
ከፋ	-9.08207
▁ቤ	-9.0824
ce	-9.08399
▁ኮድ	-9.08414
▁ፍጥነት	-9.08599
▁በርሱ	-9.08743
ዣ	-9.08961
▁ሺህ	-9.09129
▁ዙሪያ	-9.09249
▁ከእነሱ	-9.09274
ፊቱ	-9.09364
ኬት	-9.09407
▁ንጉሡ	-9.09513
▁የበለጠ	-9.09559
ho	-9.09562
▁እኛም	-9.09616
▁የኃይል	-9.09651
▁አሸናፊ	-9.09651
▁ኪዳን	-9.09902
ፊት	-9.10007
▁ነህ	-9.10047
ከተሉ	-9.10061
ong	-9.10109
▁አድር	-9.1013
ight	-9.10206
ፉት	-9.10381
ill	-9.10661
▁በጎ	-9.11038
ረዱ	-9.11162
▁የተሻለ	-9.1129
pe	-9.113
ነዚህ	-9.11313
▁የመጀመሪያ	-9.11402
▁ለማስ	-9.11441
▁የቀድሞው	-9.11657
አካባቢ	-9.11701
▁ነፍስ	-9.1187
ve	-9.11883
ቀበል	-9.11909
እርስዎ	-9.11921
▁Ma	-9.11925
di	-9.11964
ቍ	-9.12155
▁to	-9.12251
▁22	-9.12419
▁በሙሉ	-9.1244
ion	-9.12465
und	-9.12642
▁የኢትዮጵያ	-9.12671
▁አሉት	-9.12829
▁ክልል	-9.12961
▁ታሪክ	-9.12974
▁ሲኾን	-9.12981
ሠሩ	-9.12986
ኵ	-9.13162
▁40	-9.13188
▁በኢትዮጵያ	-9.1336
▁ፖ	-9.1363
▁መደበኛ	-9.13819
▁እንቅስቃሴ	-9.13832
▁ወይስ	-9.13838
▁2016	-9.14042
▁ካል	-9.1413
▁ዝቅተኛ	-9.14217
▁ቅዱስ	-9.14256
▁ጌታህ	-9.14287
ሞላ	-9.14301
▁በእኛ	-9.14317
ኢዮ	-9.14352
е	-9.14457
▁መኪና	-9.14534
▁ልክ	-9.14644
="4	-9.14726
▁ልማት	-9.14737
▁የምታ	-9.14739
▁የትምህርት	-9.14759
ለዋል	-9.14801
@	-9.14893
ገሩ	-9.14899
ዳቸው	-9.14927
▁ወቅት	-9.15014
▁v	-9.15023
▁ግንኙነት	-9.15039
▁ወንዶች	-9.15388
ችኋለሁ	-9.1553
ሁለት	-9.1554
መልክ	-9.1555
ሦ	-9.15768
▁ሚሜ	-9.15901
04	-9.16239
▁and	-9.16326
▁21	-9.16332
ላንድ	-9.16406
▁እንድ	-9.16502
em	-9.16603
.00	-9.16646
ጊያ	-9.16726
▁ተመሳሳይ	-9.16753
ያቸው	-9.16774
▁የእኔ	-9.16867
▁FSX	-9.16901
23	-9.16946
ጐ	-9.17049
▁ውኃ	-9.17399
if	-9.17447
ያዘ	-9.17558
ቶቻችሁ	-9.17642
action	-9.17889
ant	-9.17935
ከተ	-9.17992
qu	-9.18032
ባዊ	-9.18046
▁ምሳሌ	-9.181
▁በማድረግ	-9.18245
47	-9.18261
ወቁ	-9.18449
iz	-9.18584
ወዳ	-9.18607
▁ኢንዱስትሪ	-9.18748
▁አራት	-9.1882
ite	-9.18875
ያውቁ	-9.18948
▁የምርት	-9.19011
ስታወ	-9.19034
ኀ	-9.19051
▁እያንዳንዱ	-9.19073
▁የእኛን	-9.19087
ጧ	-9.19405
▁ገበያ	-9.19604
▁ተንቀሳቃሽ	-9.19616
▁አልለ	-9.198
▁=	-9.19855
▁አበባ	-9.19932
▁የመስመር	-9.19965
▁ኮር	-9.20004
▁ዘር	-9.20024
ቀመጥ	-9.20037
ag	-9.20364
ie	-9.20391
ደርጉ	-9.20409
ሻሻ	-9.20666
ግብር	-9.20694
US	-9.20773
▁ክር	-9.20874
▁ሰር	-9.20914
▁ሙሴ	-9.2092
▁በእውነት	-9.20936
▁ሕዝቡ	-9.20991
pro	-9.21115
▁እንኳ	-9.21115
55	-9.21232
▁ተራራ	-9.2128
con	-9.2141
ፋይ	-9.21479
ec	-9.21521
▁ኃጢአት	-9.21672
▁ማንም	-9.21712
▁[	-9.21754
▁መጥፎ	-9.21826
ጩ	-9.2213
ሰሙ	-9.22139
ኹ	-9.22182
75	-9.22202
▁መጠቀም	-9.22373
▁ቁርኣን	-9.22392
▁ጠንካራ	-9.22444
▁ከእኔ	-9.22504
ገኘው	-9.22741
▁ሥርዓት	-9.23127
▁ይገኛል	-9.23243
▁ሞተር	-9.23315
▁ግራ	-9.23468
ኾ	-9.23485
▁የኾኑ	-9.23522
200	-9.23555
67	-9.23744
▁ልብስ	-9.23747
ጠቀሙ	-9.2378
▁ጠቃሚ	-9.23978
ቃሉ	-9.2407
▁እርምጃ	-9.24184
ለያዩ	-9.24361
▁ፍሬ	-9.24497
65	-9.24584
▁ናቸው።	-9.2502
39	-9.25061
▁ሙሳ	-9.25093
▁አድርጎ	-9.25342
ቆች	-9.25376
▁የካዱት	-9.25524
▁የማያ	-9.25535
ኢኮኖሚ	-9.25685
▁2013	-9.25744
▁በኢ	-9.25859
▁አስተዳደር	-9.25928
▁ከአንተ	-9.25996
▁ማዕ	-9.2601
ያምኑ	-9.26061
▁የመጀመሪያው	-9.26094
ta	-9.26121
▁ንግድ	-9.26226
AC	-9.26235
▁Pro	-9.26248
▁ከእኛ	-9.26251
▁ኢሜይል	-9.26254
ff	-9.26492
ect	-9.26569
ሏል	-9.26591
▁መልክተኛ	-9.26623
up	-9.26641
▁Q	-9.26664
▁አሁንም	-9.26716
መሩ	-9.26799
▁ፈጣን	-9.27165
AR	-9.27204
▁ድምፅ	-9.27266
ደረሰ	-9.27289
▁ሂደት	-9.27332
▁ካለ	-9.27344
▁ወዘተ	-9.27433
▁ጸጋ	-9.27477
▁አስታውስ	-9.27649
▁ለአላህ	-9.27653
▁ትንሽ	-9.27764
▁አስተያየት	-9.27814
▁በመጠቀም	-9.27822
ide	-9.27872
▁ምርምር	-9.27928
ፖለቲካ	-9.28035
ዢ	-9.28145
▁ብርቱ	-9.2821
▁እንዳለ	-9.28313
▁Bitcoin	-9.28589
ge	-9.28661
ዒ	-9.29035
ሮቹ	-9.29075
ጆቹ	-9.29079
▁አጠቃላይ	-9.29091
▁ወጥ	-9.29155
መጨረሻ	-9.29421
አውሮፕላን	-9.29483
ፈጠር	-9.29522
▁ቦርሳ	-9.29597
ፕሬ	-9.29709
ከተል	-9.29854
▁መልክ	-9.29979
▁እርሷ	-9.29994
▁ከተሞች	-9.30024
▁ግምገማዎች	-9.30031
▁አድራሻ	-9.30046
▁ለእነሱ	-9.3006
▁ከባድ	-9.30122
▁23	-9.30217
▁በዚያም	-9.30294
48	-9.30314
Q	-9.30325
▁መንፈስ	-9.30391
▁ቀጥ	-9.304
ቶቻችን	-9.30537
▁ድርጅት	-9.30558
ity	-9.30623
ሄዱ	-9.30698
▁ምንዳ	-9.30752
▁ሰባት	-9.31144
▁እምነት	-9.31179
▁ምክር	-9.31188
▁በማለት	-9.31254
ወረድ	-9.31358
sion	-9.31369
▁ባለቤት	-9.31399
▁እስራኤል	-9.31409
IN	-9.31476
▁በተጨማሪም	-9.31492
ator	-9.31542
fi	-9.31686
▁ጨዋታ	-9.31742
▁በእኔ	-9.31814
www	-9.31868
▁ጨምሮ	-9.31869
▁ምሕረት	-9.31925
pl	-9.31973
ጠበቀ	-9.3203
ቨር	-9.322
ine	-9.32329
▁ጥበብ	-9.32332
▁ጤና	-9.32389
ብኝ	-9.32787
mail	-9.32911
-2	-9.32946
▁ጥበቃ	-9.32998
ጎች	-9.33316
▁ወራት	-9.33331
▁Android	-9.33372
ነጻ	-9.33382
ist	-9.33434
ገባው	-9.33548
▁ማዕከል	-9.3355
▁መሥዋዕት	-9.33606
ስተካከ	-9.33613
ኘ	-9.33614
ጀመር	-9.33632
▁የመጨረሻ	-9.33739
▁capacitor	-9.33782
ተደረገ	-9.33956
ph	-9.33969
▁ስላ	-9.34036
▁በሆነ	-9.34215
▁አገልግሎቶች	-9.34374
ock	-9.34588
po	-9.34592
▁ይሰጣል	-9.34665
ታውቁ	-9.34835
››	-9.34965
ast	-9.35089
ረጅም	-9.35362
ቆየ	-9.3554
▁ያደረገ	-9.35555
ጠቅላላ	-9.35559
ማንኛውም	-9.35655
▁ቁጥጥር	-9.35673
▁ለእኔ	-9.36033
▁ሕያው	-9.36045
▁የዓለም	-9.36201
▁ፕሮ	-9.36253
mp	-9.36291
▁መኾኑን	-9.36317
▁በስተቀር	-9.36332
▁በሌላ	-9.36432
▁©	-9.36473
able	-9.36549
ተኞቹ	-9.36896
▁ያደርጋል	-9.36999
ለሁ፤	-9.37031
ft	-9.37047
▁ጥያቄዎች	-9.37067
ጽሑፍ	-9.37177
ከሩ	-9.3718
ናገሩ	-9.37207
ቮ	-9.37298
▁የእግዚአብሔርን	-9.37409
ፐ	-9.37419
ኤፍ	-9.3755
▁ብለው	-9.37563
res	-9.37578
▁ጥናት	-9.37639
ሃይማኖት	-9.37696
lu	-9.37723
▁ደረጃዎች	-9.37903
▁ትዕዛዝ	-9.37906
▁የእርስዎን	-9.37934
69	-9.37951
▁ሳይንስ	-9.37988
iv	-9.3807
▁በእስራኤል	-9.3809
▁እርዳታ	-9.38099
▁ጌታችን	-9.38137
▁አሜሪካ	-9.38159
▁የስራ	-9.38196
€	-9.38212
▁በውስጡ	-9.38213
av	-9.38304
▁የጌታ	-9.38319
ወንጀ	-9.38473
×	-9.3858
▁ፈተና	-9.38648
▁ባለቤቶች	-9.38703
68	-9.38774
▁የሌለ	-9.38777
▁ዝርዝሮች	-9.38888
▁ያንብቡ	-9.3895
▁አቅም	-9.38997
▁ለእግዚአብሔር	-9.39196
▁ሽፋን	-9.39263
ell	-9.3954
66	-9.3962
▁Ro	-9.39701
▁ለእ	-9.39716
▁ሆነው	-9.39747
▁ማረጋገጫ	-9.39817
98	-9.39846
ጦች	-9.39903
ቀኝ	-9.39966
▁ንብረት	-9.40065
ማቸው	-9.40069
▁በመጀመሪያ	-9.40253
ነበራችሁ	-9.40317
ተጨማሪ	-9.40492
▁ሁልጊዜ	-9.40503
▁ከሓዲዎች	-9.40523
31	-9.40716
▁ፈጽሞ	-9.40754
eng	-9.40962
▁ነጭ	-9.40996
▁አምስት	-9.41069
▁የቁማር	-9.41195
age	-9.4124
▁የኤሌክትሪክ	-9.41274
ሃይ	-9.41276
ደርጋ	-9.41315
85	-9.41418
ቷ	-9.41467
▁እንኳን	-9.4147
88	-9.41628
ገናኘ	-9.41768
der	-9.41821
መዝገብ	-9.41895
77	-9.41922
▁ለእኛ	-9.41936
44	-9.41962
~	-9.42018
▁ክብር	-9.42035
▁መስጠት	-9.42213
▁ዱቄት	-9.42273
vi	-9.42463
2018	-9.4256
300	-9.42593
▁2015	-9.4263
▁ቅጥ	-9.42866
መቻ	-9.42867
▁Forex	-9.42976
▁አላቸው።	-9.4304
▁ማስታወቂያ	-9.43169
ሞቹ	-9.43186
▁ኃላፊ	-9.43246
▁ቮልቴጅ	-9.43298
መላእክት	-9.43362
▁ገመድ	-9.43369
▁አዛኝ	-9.43382
▁መቆጣጠሪያ	-9.43427
ቾች	-9.43467
о	-9.43491
ሰሩ	-9.43696
▁ምክንያቱም	-9.4375
▁ስሪት	-9.43774
ማህበራዊ	-9.43815
ER	-9.44126
▁ብሔራዊ	-9.44139
▁በውስጧ	-9.44139
▁እስኪ	-9.44158
▁ቦታዎች	-9.4416
are	-9.44278
ክርስቲያን	-9.44529
▁ገና	-9.44644
▁ለውጥ	-9.44789
መሠረተ	-9.44791
▁አነስተኛ	-9.44922
▁ይመልከቱ	-9.44923
▁የሚችል	-9.4504
▁በመጣ	-9.45274
▁ለእነዚያ	-9.45315
ጮች	-9.45372
▁Tr	-9.45425
▁በመካከላቸው	-9.45446
▁ነበረ።	-9.45604
ep	-9.45661
▁በኾነ	-9.45712
▁ጉዳዮች	-9.45908
▁ቀይ	-9.45937
▁ድምጽ	-9.45985
▁ባለው	-9.46
▁ክርስቶስ	-9.46107
▁ብጁ	-9.46185
▁ዕቃ	-9.46492
▁አጠገብ	-9.46506
▁ወገን	-9.46559
▁ይሆናል።	-9.46748
ans	-9.46756
▁ክብደት	-9.46772
▁ጨዋታዎች	-9.46806
▁የቅርብ	-9.46909
95	-9.47016
▁አማራጭ	-9.47173
▁ውጤት	-9.47241
ላቸዋል	-9.47312
ak	-9.47354
ob	-9.47364
▁ካዚኖ	-9.47441
▁ሲያ	-9.47703
▁ኾኖ	-9.47714
▁የውጭ	-9.4781
▁PVC	-9.47979
▁ታዋቂ	-9.48047
▁አቅርቦት	-9.48182
▁ሥጋ	-9.48265
net	-9.4831
በረታ	-9.48318
ቤተሰብ	-9.48388
ላፊ	-9.4839
▁ብጤ	-9.48568
▁No	-9.48579
ፈቀደ	-9.48593
ፈልግ	-9.48598
tic	-9.48721
▁የሥራ	-9.4878
ደርስ	-9.48963
▁ፍቅር	-9.49004
▁አደጋ	-9.4915
▁ደህንነት	-9.49202
▁ያስተ	-9.49241
▁ምንጭ	-9.49251
▁ቁልፍ	-9.49274
▁ቁር	-9.49314
▁ሙቀት	-9.49413
ኗ	-9.49681
▁ሚሊዮን	-9.49681
ቋቋም	-9.49686
▁°	-9.4969
ኞቹ	-9.49727
ህይወ	-9.49781
▁ነገሩ	-9.49934
▁ፍላጎት	-9.49956
▁ይፈልጋሉ	-9.50025
▁ደቂቃ	-9.50025
▁እባክዎ	-9.50094
▁በሚያ	-9.50119
XL	-9.50147
а	-9.5037
▁የሚሆን	-9.50659
▁ሌሊት	-9.50717
አዲስ	-9.50724
▁ተቀማጭ	-9.50786
41	-9.50806
ለሁ፥	-9.50807
▁ዘዴ	-9.50908
PS	-9.51118
መለሰ	-9.51388
▁2014	-9.51414
ዷ	-9.51482
▁ጥቅል	-9.51493
46	-9.51511
እያንዳንዱ	-9.51521
▁ቀጥተኛ	-9.5153
▁እንግዲህ	-9.51552
▁የነበረው	-9.51582
▁የገንዘብ	-9.51608
▁‹‹	-9.51622
ቀመጡ	-9.51657
ሃለሁ	-9.5168
▁ሥር	-9.51711
ሯል	-9.52004
▁ተብሎ	-9.52066
▁መሓሪ	-9.52114
▁መከራ	-9.52276
▁የምድር	-9.52283
▁ነበር፤	-9.52288
43	-9.52403
▁ሄደ	-9.52439
ቅዱ	-9.5251
ment	-9.52563
▁ላክ	-9.5273
ፈለግ	-9.52852
▁Ar	-9.52874
▁በቀር	-9.52927
IC	-9.531
ዔ	-9.53103
▁ችሮታ	-9.53105
56	-9.53347
42	-9.53399
ኖረው	-9.53437
ሳችሁ	-9.53651
int	-9.53778
▁መሳሪያዎች	-9.53871
▁ባሕር	-9.53972
▁በአሁኑ	-9.54032
ፈለጉ	-9.54047
ian	-9.54101
▁የውሃ	-9.54295
▁De	-9.54372
ሰጣቸው	-9.54494
▁ዘመናዊ	-9.54606
▁ሜትር	-9.54618
▁you	-9.54629
▁አድርግ	-9.54673
hi	-9.54728
▁መስፈርቶች	-9.54823
▁ጦር	-9.54824
▁ተሸ	-9.55006
▁by	-9.55015
ዩናይትድ	-9.5533
57	-9.55331
▁ሳለ	-9.55386
▁Sh	-9.55439
▁የተወሰነ	-9.55534
ታወቀ	-9.55548
ቲቱ	-9.55644
▁እንድት	-9.55662
▁ያዘ	-9.55738
▁ካሜራ	-9.55772
▁አግኝ	-9.55784
ደረጃ	-9.56047
▁ጥበበኛ	-9.56059
▁ሳይሆን	-9.56088
▁ያመናችሁ	-9.56209
we	-9.56396
ኒያ	-9.56444
አእምሮ	-9.56505
▁ግምገማ	-9.56518
▁የምግብ	-9.56595
መንገድ	-9.56598
0.0	-9.56645
▁ድርጅቶች	-9.56868
▁የሚለው	-9.57034
ame	-9.57063
▁ሰማይ	-9.57132
AS	-9.57222
▁ውርዶች	-9.5724
="5	-9.57243
▁ራሱ	-9.57246
▁for	-9.57323
▁ያድርጉ	-9.57386
▁አይችልም	-9.57387
▁አቅራቢ	-9.57412
▁እርስዋ	-9.57489
ከታተ	-9.57547
▁አምራች	-9.57687
▁በተለይ	-9.5771
ኤሌክትሮኒክ	-9.57831
ታል።	-9.57842
▁ተስማሚ	-9.57906
▁እንደዚህ	-9.57934
ber	-9.58022
መካከለኛ	-9.58055
▁ውጤቶች	-9.58204
64	-9.58216
IT	-9.58228
97	-9.58308
▁አዋጅ	-9.5838
ST	-9.58525
አልና	-9.58548
▁አሕዛብ	-9.58579
AN	-9.58812
▁ምስጋና	-9.5888
▁ከእርሷ	-9.59031
ሇ	-9.59106
▁ዓላማ	-9.59121
▁100%	-9.5913
yl	-9.59159
▁አለቆች	-9.59228
ዐ	-9.59239
▁ለዘላለም	-9.59257
▁ፕሮግራሞች	-9.59258
ሏቸው	-9.59351
pp	-9.59436
▁መንገ	-9.59505
ل	-9.59635
▁የቅጂ	-9.59658
▁ሰፊ	-9.59775
▁ማሳያ	-9.59925
act	-9.59953
io	-9.60118
ቀረቡ	-9.602
art	-9.60206
▁ኋላ	-9.60211
▁ከሰማይ	-9.60255
▁ምልክቶች	-9.6032
ጀመረ	-9.60336
ረዋል	-9.60394
▁መያዣ	-9.604
▁የባቡር	-9.60474
▁ያመኑት	-9.60484
58	-9.60523
ለች።	-9.60552
▁2020	-9.60562
▁የኢሜይል	-9.60637
▁አባላት	-9.60707
፩	-9.60933
▁ማዋቀር	-9.6101
87	-9.61063
les	-9.6113
▁ዘይት	-9.61156
ear	-9.61217
▁ተቀባይ	-9.61241
▁ለዚህ	-9.61287
ib	-9.61319
፪	-9.61472
▁ተቋም	-9.61523
ud	-9.61642
▁መግቢያ	-9.61643
▁ይግዙ	-9.61796
▁ትእዛዝ	-9.62014
▁ወዲያውኑ	-9.62092
49	-9.62129
▁መሬት	-9.6215
ome	-9.6216
▁አለቃ	-9.62247
▁ያቀርባል	-9.6256
ሏ	-9.62563
ev	-9.62591
▁ይቻላል	-9.62716
100	-9.629
▁ገቢ	-9.62994
▁ሴራሚክ	-9.63108
▁ተግባራዊ	-9.63108
▁ጉዳት	-9.63125
lot	-9.63287
89	-9.63341
ቬ	-9.63344
▁የዚህ	-9.63347
ፏ	-9.63659
tt	-9.63665
▁ተግባር	-9.63752
▁ዕውቀት	-9.63817
▁እንስሳ	-9.64016
▁CO	-9.64096
▁ገብ	-9.64132
▁https	-9.64332
▁ስሙ	-9.64409
▁ትርጉም	-9.64532
ind	-9.6461
96	-9.64611
▁ይላል።	-9.64758
▁An	-9.64849
0,000	-9.64929
ቸዋለሁ	-9.64946
▁ወሰን	-9.6499
▁አንቀጾች	-9.6501
▁ቁሳዊ	-9.65091
ET	-9.65197
br	-9.65198
▁ብዛት	-9.6526
መለከቱ	-9.65291
51	-9.65293
ቻይና	-9.65327
ሡ	-9.65331
▁መረብ	-9.65349
▁አይደሉም	-9.65412
▁አገሮች	-9.65535
▁ፖሊሲ	-9.65572
TC	-9.65844
▁iPhone	-9.65975
▁የሚፈልጉ	-9.65992
▁ሰማያዊ	-9.66061
▁ደንብ	-9.66133
▁ፍጹም	-9.66138
▁አዳዲስ	-9.66218
ዑ	-9.66297
▁ዕቃዎች	-9.66414
▁ወጪ	-9.66514
▁ኢንች	-9.66523
▁ፈርዖን	-9.66787
ዚህ	-9.66856
▁መልኩ	-9.66885
▁ሽያጭ	-9.6695
ቀድሞ	-9.67045
▁ነጠላ	-9.67199
ster	-9.67244
ማኅበ	-9.67275
አምላክ	-9.67395
▁ሽቦ	-9.67552
ጀርመን	-9.67606
▁በእጅ	-9.6761
ዎታል	-9.67658
▁የኢንዱስትሪ	-9.67687
ኋቸው	-9.67825
▁ስጦታ	-9.67857
▁ተገቢ	-9.67902
▁Google	-9.68181
▁መለዋወጫ	-9.68347
▁31	-9.68526
▁ነበሩ።	-9.68588
▁ቅጣቱ	-9.68598
ከበረ	-9.68622
ld	-9.68737
ሮቻቸው	-9.68744
▁Ad	-9.68779
end	-9.6882
▁ማስረጃ	-9.69261
▁በተመለከተ	-9.69262
▁እንደገና	-9.6938
SP	-9.69456
ገበያ	-9.69512
▁ምስል	-9.69893
ላችን	-9.69943
አገልግሎ	-9.70004
▁በትክክል	-9.701
▁አልነበረም	-9.701
▁ሙከራ	-9.70114
72	-9.7016
▁ጫማ	-9.70206
ታላቁ	-9.70321
▁ፋይል	-9.70379
ሯ	-9.70399
▁የፕላስቲክ	-9.70437
▁2012	-9.70497
▁HVC	-9.70691
▁ይቅር	-9.70705
‹	-9.70775
▁ብቃት	-9.7079
log	-9.70836
▁ተቋማት	-9.7086
ስልጣን	-9.70879
ies	-9.70927
▁የለውም	-9.71235
▁ምንድን	-9.713
▁ጌታችሁ	-9.71308
▁ገጾች	-9.71542
78	-9.71665
▁ያውቃል	-9.71799
▁አንዲት	-9.71806
▁ጥሪ	-9.71891
▁ስልጠና	-9.7197
IS	-9.71982
▁ገነት	-9.72001
▁ወርቅ	-9.7207
▁ፍሩ	-9.72129
▁LED	-9.72142
▁ሶፍትዌር	-9.72227
man	-9.72269
2004	-9.72347
▁ሚስት	-9.72521
▁መንገዶች	-9.72611
▁ሰኔ	-9.72904
▁ውጤታማ	-9.72918
▁ወደፊት	-9.73
▁በቀላሉ	-9.73006
▁ምርመራ	-9.73011
▁የስልክ	-9.73107
▁መሰረት	-9.73183
▁የመኪና	-9.73186
▁ሜባ	-9.73201
▁ድንጋይ	-9.73265
▁አድርገው	-9.73273
ѕ	-9.73352
0.1	-9.73371
76	-9.73375
▁የጤና	-9.73464
▁ቻይ	-9.7358
▁ማረፊያ	-9.73878
ጠፉ	-9.73896
ሜይል	-9.73902
▁ረዳት	-9.73963
ጥራት	-9.74008
ሓ	-9.74048
▁ይዘት	-9.7412
▁በነገሩ	-9.74145
አሜሪካ	-9.74258
▁ጠባቂ	-9.74314
ቸዋለን	-9.74402
▁ዛፍ	-9.74463
▁አለባቸው	-9.7448
▁ቪዛ	-9.74525
ust	-9.74529
59	-9.74706
ጨምር	-9.74712
▁እይታ	-9.74764
▁CNC	-9.74931
out	-9.75099
▁ትኩረት	-9.75196
▁በግልጽ	-9.75286
▁ቅናሽ	-9.75289
▁መሳሪያ	-9.75329
ial	-9.75467
▁አባል	-9.7559
▁የሕክምና	-9.7564
400	-9.75682
▁ስቴትስ	-9.75731
▁በእነሱ	-9.7582
ያችን	-9.75848
▁ፕሮጀክት	-9.75907
▁ማወቅ	-9.75967
ባቸዋል	-9.76005
74	-9.76187
»	-9.76351
*	-9.76354
ሰማያትና	-9.76404
▁ስብሰባ	-9.76444
▁ምላሽ	-9.76463
▁መምሪያ	-9.76517
ash	-9.76692
▁ፓርቲ	-9.76716
▁የሚገኙ	-9.77023
ml	-9.77122
በደለ	-9.77178
our	-9.77249
600	-9.773
cm	-9.7732
በታል	-9.77374
▁አስተያየቶች	-9.77527
2019	-9.77565
አብዛኛው	-9.77618
▁ደብዳቤ	-9.77708
▁አንቀጽ	-9.77984
▁አጠቃቀም	-9.78073
▁ስሜት	-9.78089
▁አልሉ	-9.78146
▁ስብስብ	-9.78164
▁ኳስ	-9.78286
በደሉ	-9.78424
መከላከያ	-9.78621
▁ቫልቭ	-9.78621
AT	-9.7868
▁መጋቢት	-9.78713
▁ዳርቻ	-9.78739
ቀርቡ	-9.78795
▁ምናልባት	-9.78805
▁ዩኒ	-9.78863
ፆ	-9.78988
▁እውቀት	-9.78992
፻	-9.7908
▁ማቅረብ	-9.79265
▁ኡሁ	-9.7927
▁ሀብት	-9.79417
CC	-9.79558
▁ጥላ	-9.79603
ፈረንሳይ	-9.79637
▁ግንባታ	-9.79787
፲	-9.7982
▁ባህሪያት	-9.79825
ኢትዮጵያ	-9.79826
ጠይቅ	-9.79891
▁በእሳት	-9.80046
▁በሽታ	-9.80146
EN	-9.80154
▁ፕላስቲክ	-9.80192
▁2010	-9.80244
▁ልምድ	-9.80281
▁ርዝመት	-9.80285
▁በኢየሩሳሌም	-9.80565
ተናል	-9.80578
▁ይገባል	-9.80622
▁ወሬ	-9.80644
▁ምስክር	-9.80754
▁ነሐሴ	-9.80847
ace	-9.81025
ፁ	-9.81034
▁Con	-9.81207
ዟ	-9.81222
ass	-9.81269
ፑ	-9.81316
▁ጠብ	-9.81386
54	-9.81464
▁መብቶች	-9.81505
ደርገው	-9.81509
ሎጂ	-9.81531
ለወጥ	-9.81544
▁Windows	-9.81599
▁Ningbo	-9.81599
▁ለምሳሌ	-9.816
ሎቹ	-9.81692
▁APK	-9.81884
ጠይቃ	-9.81988
▁ልጥፍ	-9.81993
▁Free	-9.82272
▁ከእግዚአብሔር	-9.82453
▁ቀደም	-9.82501
▁ዲግሪ	-9.82756
port	-9.82791
▁ግዛት	-9.82844
Coin	-9.82867
ኤሌክትሪክ	-9.82906
+	-9.8308
▁ዋስትና	-9.83315
▁በብዙ	-9.83366
▁በትንሣኤ	-9.83411
ኢየሱስ	-9.83486
▁እነዚያንም	-9.83502
▁ክንድ	-9.83597
ice	-9.83627
▁አማልክት	-9.83641
▁አቤቱ፥	-9.83902
▁እንጀራ	-9.83993
53	-9.84108
ቀበሉ	-9.84168
▁የሚችሉ	-9.84322
’	-9.84377
52	-9.8449
ትምህር	-9.84496
▁እስከሚ	-9.84576
▁ብዬ	-9.84643
▁የቴክኒክ	-9.84864
▁ሠራተኞች	-9.8487
EC	-9.84914
▁ልጁ	-9.85112
▁ሲሳይ	-9.85153
800	-9.85191
ተቋቋመ	-9.85256
▁ጥገና	-9.85269
ፖሊስ	-9.853
і	-9.85353
▁ግዴታ	-9.85359
org	-9.85374
ፈጸም	-9.85435
▁እርስ	-9.85464
▁የከተማ	-9.8556
▁ጥንካሬ	-9.85648
ዓለም	-9.8605
▁አስቀ	-9.86114
ታዘዙ	-9.86148
▁ማየት	-9.86162
▁ንጹሕ	-9.86241
▁ሪፖርት	-9.86248
ጠብቁ	-9.86261
ቾ	-9.86377
▁ያካትታል	-9.86438
▁ቋሚ	-9.86574
▁ተጠቃሚዎች	-9.86637
▁ውይይት	-9.86736
1.5	-9.86831
▁መድረክ	-9.86837
▁ግፊት	-9.86897
ፈልገው	-9.87238
▁መልሶ	-9.87385
▁ቦርድ	-9.87439
መላክ	-9.87526
▁ሰከንዶች	-9.87535
▁አውሮፓ	-9.87635
▁ይባላሉ	-9.87736
▁አረንጓዴ	-9.87836
79	-9.8787
2.5	-9.87969
ቀርብ	-9.88055
▁ግንቦት	-9.88072
▁ዘውታሪዎች	-9.88138
ኬሚካ	-9.8814
ጠበቁ	-9.88294
▁የሚሻውን	-9.88342
PC	-9.8839
ዮሐንስ	-9.88644
▁ቺፕ	-9.88653
▁አያውቁም	-9.88697
ገናኙ	-9.88757
▁ለአንተ	-9.88792
▁እንዲሆን	-9.8909
▁ቅንጅቶች	-9.89254
▁መስከረም	-9.89356
▁ለናንተ	-9.89362
line	-9.89441
▁መውሰድ	-9.89563
ሰብአዊ	-9.89663
▁ችግሮች	-9.89766
▁መተግበሪያዎች	-9.89868
▁ዕድሜ	-9.89872
ጨመር	-9.89926
ኖቹ	-9.90006
ከላከል	-9.90074
▁ውሳኔ	-9.90178
▁ርዕስ	-9.90185
▁ሳጥን	-9.90223
›	-9.90261
▁ስድስት	-9.90487
▁አማራጮች	-9.90589
▁በቀጥታ	-9.90591
▁ነፋስ	-9.90593
▁ኤክስ	-9.90649
▁አስተማማኝ	-9.90692
▁አዘጋጅ	-9.90692
ON	-9.90784
▁ቀጠሮ	-9.90798
▁በሰው	-9.91003
▁ነጥብ	-9.91115
▁መነሻ	-9.91164
type	-9.91212
▁ከርሱ	-9.91467
▁በላጭ	-9.91537
▁በአንተ	-9.91552
▁ፀሐይ	-9.91628
▁የምስክር	-9.91628
▁ምክሮች	-9.91635
▁የእርሱ	-9.9195
▁መመለሻ	-9.92046
▁ማመልከቻ	-9.92048
▁የሽያጭ	-9.92362
ፕሮግራ	-9.92374
እንግሊዝ	-9.92461
▁በፍጥነት	-9.92572
ተቀመጠ	-9.92587
▁በእውነቱ	-9.9289
▁ደራሲ	-9.92996
▁ስህተት	-9.93101
▁በሁሉም	-9.93209
▁ፍለጋ	-9.93317
▁መፍትሔ	-9.93419
ኡ	-9.93519
▁ለሰዎች	-9.93528
▁አማካኝነት	-9.93632
▁ቃላት	-9.93645
▁የፈጠራ	-9.93775
ሰበሰቡ	-9.93847
▁ትውልድ	-9.93847
ኼ	-9.93952
▁ወንዞች	-9.93952
▁ንግግር	-9.93953
▁ማህበረሰብ	-9.93978
ord	-9.94075
ህወሀት	-9.94166
▁ከሰዓት	-9.94167
▁ይልቁንም	-9.94273
መኾናቸው	-9.94282
ተላለፍ	-9.945
▁ዶሴ	-9.9453
▁የእሳት	-9.94644
ቀየር	-9.9468
tage	-9.94769
ኖቻቸው	-9.94957
▁ዲዛይን	-9.95027
▁ወንዝ	-9.9526
▁አመሰግናለሁ	-9.95351
▁ትልቁ	-9.95491
▁ፓነል	-9.95803
▁ቁሳቁሶች	-9.95895
አንደኛ	-9.96031
▁አስማሚ	-9.96114
▁ስፋት	-9.96137
▁ወደርሱ	-9.96192
▁አማካሪ	-9.96226
▁ነጋዴ	-9.96332
ጠየቅ	-9.96377
▁ለማየት	-9.96388
▁የካቲት	-9.96442
▁ሀገር	-9.96469
emb	-9.965
▁ታዲያ	-9.96525
▁የላቀ	-9.96696
▁ገሀነም	-9.96771
ልቴጅ	-9.96786
▁ሃይማኖ	-9.96821
▁ማጣሪያ	-9.9689
▁ዕድል	-9.96937
q	-9.97018
▁በመጨረሻይቱ	-9.97101
▁ISO	-9.97105
▁ባቡር	-9.97129
▁አድርጓል	-9.97213
▁በሰማያት	-9.97426
▁ውሂብ	-9.97544
▁አስመ	-9.97641
▁ትክክል	-9.97655
ance	-9.97719
▁ቡድኖች	-9.97765
▁ጥቅሞች	-9.97766
▁መልክተኛውን	-9.98287
ተንቀሳቃሽ	-9.98305
▁አገልጋይ	-9.98434
▁ማሸግ	-9.98462
▁ለሁሉም	-9.9855
▁ተነሥ	-9.98559
▁ስምምነት	-9.98691
▁ንባብ	-9.98738
▁ከእስራኤል	-9.9877
▁እድገት	-9.98772
▁ፈጠራ	-9.988
▁http	-9.98826
▁እኩል	-9.98829
▁የሆነውን	-9.98906
▁የማይዝግ	-9.99001
መልእክ	-9.99029
2.0	-9.99046
▁አሳማሚ	-9.99107
▁የሚከተሉት	-9.99119
▁ውሸት	-9.99125
ምዕራብ	-9.99221
▁ኮሌጅ	-9.99333
▁በሕይወት	-9.99558
▁ግድግዳ	-9.99671
▁ያልሆነ	-9.99683
▁ስፖርት	-9.99952
አስተዳደ	-10
▁ኢየሩሳሌም	-10.0012
▁አይችሉም	-10.0013
▁የምንዛሬ	-10.0024
▁አደረግን	-10.0026
0.2	-10.0051
▁ለእስራኤል	-10.0058
▁ተደርጓል	-10.0069
ጠብቅ	-10.0076
▁ሩሌት	-10.0081
ፖርት	-10.0098
▁አስደናቂ	-10.0104
▁ደቡብ	-10.0104
▁ፈጣሪ	-10.0105
▁አንዳች	-10.0135
መገንባት	-10.0139
▁ኢሜል	-10.014
▁አየሁ	-10.0144
ገንዘብ	-10.0155
▁ያዕቆብ	-10.0184
form	-10.0194
ጴ	-10.0219
▁ጥሬ	-10.0223
▁በነበሩት	-10.0231
▁የሞተር	-10.0232
▁ማሽኖች	-10.0243
▁ጉብኝት	-10.0266
▁በአየር	-10.0269
▁ጥረት	-10.0305
▁እግር	-10.0318
▁ማስታወሻ	-10.0324
▁ደህና	-10.0326
▁ለመፍጠር	-10.0336
▁ተመልከት	-10.0338
lect	-10.0347
▁ዕቅድ	-10.0349
ያስፈልግ	-10.0351
▁ሳምንት	-10.036
▁ርቀት	-10.0368
▁ተኳሃኝ	-10.0371
▁ፈሳሽ	-10.0383
ዩኒቨርሲቲ	-10.0398
Ethiopia	-10.0407
▁እናቀርባለን	-10.0407
▁አቅጣጫ	-10.0407
▁ፀረ	-10.0408
lay	-10.0412
▁Casino	-10.0419
▁መለኪያ	-10.043
▁ቱቦ	-10.0445
▁ተናገረ	-10.0453
▁ጭፍሮች	-10.0454
▁ያውቃሉ	-10.0455
▁ይሆናሉ	-10.0466
▁አውታረ	-10.0467
▁ቁማር	-10.0478
▁ጫፍ	-10.049
▁መፍጠር	-10.0527
▁ፓምፕ	-10.0538
ታዘዝ	-10.0542
▁ይመጣል	-10.0547
▁ከምድር	-10.0552
▁የራሱ	-10.0567
ብራራ	-10.058
▁በቅርቢቱ	-10.0586
▁ቀዳሚ	-10.0598
3.5	-10.0641
▁USD	-10.0647
▁የፀሐይ	-10.067
▁ይሁዳ	-10.0674
ነገረ	-10.0682
ኚ	-10.0695
▁ወንድሞች	-10.0731
አዋቂ	-10.0737
▁2011	-10.0749
$	-10.0752
▁ጆሮ	-10.0762
▁ሽልማት	-10.078
▁ጨለማ	-10.078
▁ተፈጥሯል	-10.0793
ማህበረሰ	-10.0802
▁መፍትሄ	-10.0805
▁ተሞክሮ	-10.0817
▁ባለብዙ	-10.0817
▁በዙሪያ	-10.0818
▁በተመሳሳይ	-10.0829
▁ጠጅ	-10.0844
ጫወት	-10.0848
ስማማ	-10.0864
ish	-10.0864
▁ቁቃፊ	-10.0879
▁ፊልም	-10.0882
▁የደህንነት	-10.0891
ከባቢ	-10.0903
▁ጨርቅ	-10.0917
▁የፈጠረ	-10.0931
▁የወይን	-10.0936
ኰ	-10.0941
▁ካርታ	-10.0953
▁በሰማይ	-10.0962
▁Facebook	-10.0966
ማሻሻያ	-10.0971
▁ስትራቴጂ	-10.0979
▁Play	-10.0988
▁ምስሎች	-10.0993
▁ከሁሉ	-10.0996
ከሓዲዎች	-10.1027
▁አፈጻጸም	-10.1029
▁ድንኳን	-10.1029
ነጋገር	-10.1029
▁ያልሆኑ	-10.1032
▁የእነዚያ	-10.1042
ዎቻችን	-10.1044
▁ይምረጡ	-10.1067
▁መዋቅር	-10.1092
▁ሳኦል	-10.1105
zhou	-10.1106
▁የስፖርት	-10.1106
▁በፍጹም	-10.1117
▁ጉባኤ	-10.1117
ተወሰነ	-10.113
▁ባህሪ	-10.1146
ሚከተለው	-10.1156
▁የጦር	-10.1163
▁ማንኛውንም	-10.1168
▁ስትኾኑ	-10.1169
ا	-10.1181
▁የአውሮፓ	-10.1194
ዲጂታል	-10.1194
▁ቢያንስ	-10.1196
እውነት	-10.1199
ሒ	-10.1207
▁ቀኖች	-10.1224
▁iPad	-10.1232
▁ባትሪ	-10.1241
ı	-10.1245
▁ወንጌል	-10.1245
▁ሽማግሌ	-10.1258
▁የሠራዊት	-10.1258
መጽሐፍ	-10.1268
▁ሕክምና	-10.1271
▁አብዛኞቹ	-10.1284
መቁረጥ	-10.1297
▁እርግጠኛ	-10.131
▁እነሆም፥	-10.1312
▁አስፈራሪ	-10.1323
▁ገነቶች	-10.1329
▁የተለየ	-10.1331
▁ቅንብሮች	-10.1336
▁ሥልጣን	-10.1336
ي	-10.1349
ሼ	-10.1362
▁ቧንቧ	-10.1401
▁በራሱ	-10.1416
▁መልክተኞች	-10.1457
ጠብቃ	-10.1467
▁ሞባይል	-10.1493
▁ስትኾን	-10.1506
▁ውስጣዊ	-10.1519
▁የአሁኑ	-10.1519
▁ትርፍ	-10.154
ቤተሰቦ	-10.1545
▁ለርሱ	-10.157
፫	-10.1572
▁ነገሥታት	-10.1572
▁ያገኛሉ	-10.1572
▁ከሌሎች	-10.1573
▁እውነታ	-10.1586
▁ሚዛን	-10.1589
▁ከፊሉ	-10.1602
▁መልእክት	-10.1609
ጳ	-10.1612
▁ሰነዶች	-10.1626
▁መብራት	-10.1626
▁ያደርገዋል	-10.1639
▁ጠላት	-10.1642
▁ጓደኛ	-10.1652
▁ቅድሚያ	-10.1666
▁በናንተ	-10.1668
▁ለመስጠት	-10.1679
▁ንቅሳት	-10.1692
▁አካላት	-10.1693
▁ከሓዲ	-10.1704
▁የጉዞ	-10.1707
ዯ	-10.1719
▁መልዕክት	-10.1733
▁አልተቻለም	-10.1733
▁የይሁዳ	-10.1733
ኽ	-10.1746
▁በእነዚያ	-10.1746
▁በይሁዳ	-10.176
▁የነበሩ	-10.176
▁ተማሪ	-10.1778
ፈለገ	-10.1793
▁ምዝገባ	-10.1801
▁አግባብ	-10.1805
`	-10.1814
አውስትራሊያ	-10.1814
ሰማያትንና	-10.1818
ኮምፒውተር	-10.1841
▁ብክለት	-10.1841
▁እምላለሁ	-10.1841
2.1	-10.1845
ቲክስ	-10.185
▁ተጽዕኖ	-10.1869
▁ወዲያውም	-10.1869
▁የሙያ	-10.187
▁ልውውጥ	-10.1882
▁ወዲህ	-10.1897
▁ዝግጁ	-10.1924
▁መሰረታዊ	-10.1965
▁ሶላትን	-10.1965
▁ቁመት	-10.1966
▁ክወና	-10.198
0.5	-10.1992
መሆናቸው	-10.1995
▁መጥቶ	-10.2
▁በሁለቱ	-10.2034
▁አስታውሱ	-10.2048
▁ዩክሬን	-10.2048
▁ጥልቅ	-10.2051
▁Chapter	-10.2076
▁በአጠቃላይ	-10.2076
▁አብረው	-10.2077
▁ደመና	-10.2079
▁ቅድመ	-10.2091
ሑ	-10.2104
▁ሰራተኞች	-10.2105
▁ውፍረት	-10.2118
▁ዜጎች	-10.2118
▁ለማሻሻል	-10.2133
ስፋፋ	-10.215
መረጡ	-10.2199
▁ቍርባን	-10.2203
▁የቪዲዮ	-10.2203
▁በሌሊት	-10.2231
▁የህዝብ	-10.2231
▁የመንጃ	-10.2236
▁አመጸኞች	-10.2274
▁የመኖሪያ	-10.2288
▁ፕሮጀክቶች	-10.2302
▁ታህሳስ	-10.2302
▁የመረጃ	-10.2303
▁አስቀድሞ	-10.2304
▁በከተማ	-10.2305
▁መሠረታዊ	-10.2317
▁አስቸጋሪ	-10.2317
፱	-10.2331
view	-10.2331
1.2	-10.2338
ction	-10.2346
▁ካህኑ	-10.2346
▁ናሙና	-10.2361
▁ጓዶች	-10.2362
▁በልቦቻቸው	-10.2374
▁መልአክ	-10.2374
▁ማጉያ	-10.2391
▁አጋጣሚ	-10.2403
▁እውነቱ	-10.2404
▁አስቀምጥ	-10.2404
▁አመራር	-10.241
▁ቤተሰቦች	-10.2419
▁ሚኒስትር	-10.2432
ንቀሳቀስ	-10.2432
с	-10.2446
ጼ	-10.2446
▁መስመሮች	-10.2446
ቴክኖሎጂ	-10.2492
▁Microsoft	-10.2505
▁ጳውሎስ	-10.2505
▁በባሕር	-10.2505
▁ምንጮች	-10.2505
▁አድርገን	-10.2509
▁በአውሮፓ	-10.2548
▁መርፌ	-10.2582
▁ነቢዩ	-10.2592
▁ቍጣ	-10.2596
▁መጽሐፉን	-10.2622
▁ህክምና	-10.2622
▁የሙቀት	-10.2622
▁ሕንፃ	-10.2623
▁ሞዴሎች	-10.2637
▁ጠፍቷል	-10.2637
ጨዋታ	-10.2649
▁የፍቅር	-10.2652
▁የሕዝብ	-10.2682
ቨ	-10.2699
▁ፋይበር	-10.2712
0.00	-10.2738
መሳሰሉ	-10.2756
▁ነፍሶቻቸውን	-10.2771
▁መላኪያ	-10.2771
▁ነቢያት	-10.2771
▁ተግባራት	-10.2786
▁ኢያሱ	-10.2786
▁ወለደ	-10.2786
▁ነፍሴ	-10.2803
▁ቅይጥ	-10.2816
▁በየቀኑ	-10.2831
▁እውነተኞች	-10.2846
ሰጣችሁ	-10.2848
▁መሠዊያ	-10.2861
▁ከጌታህ	-10.2861
▁Generator	-10.2876
▁በርሷ	-10.2883
\	-10.2891
▁ተለዋዋጭ	-10.2906
▁ይመስላል	-10.2906
р	-10.2937
▁ተናጋሪ	-10.2952
▁አይደለሁም	-10.2983
▁ጦማር	-10.2983
3.0	-10.2995
▁ለማረጋገጥ	-10.2998
▁ታውቃላችሁ	-10.2998
▁ያስፈልጋል	-10.2998
▁ይገኛሉ	-10.2999
▁ዓይኖች	-10.3029
▁ሰዓታት	-10.3044
▁ጣዖታት	-10.3059
▁ምንዛሬ	-10.3059
ቸዋለህ	-10.3059
▁ጋዜጣ	-10.3075
▁መቀመጫ	-10.3075
▁ዕይታ	-10.3077
ያረጋግጡ	-10.3106
▁የበረራ	-10.3106
▁ተጫዋቾች	-10.3121
▁እንጨት	-10.3124
▁እፈልጋለሁ	-10.3137
ማዕከላዊ	-10.3137
▁ጠቅላይ	-10.3168
ኢንቨስትመንት	-10.3168
▁መገለጫ	-10.3184
▁ለውጦች	-10.32
▁ስደተኞች	-10.3215
▁የለበትም	-10.3231
م	-10.3246
▁RFID	-10.3246
ከናወን	-10.3247
▁ማተሚያ	-10.3247
▁ፍርሃት	-10.3278
▁የተፈጥሮ	-10.3278
ዘጋጃ	-10.3282
▁ሰሎሞን	-10.3293
▁በቅርቡ	-10.3294
▁የሚቆጠሩ	-10.3294
ቀላቀሉ	-10.3309
▁ሳይንሳዊ	-10.3325
▁ማሸጊያ	-10.3325
▁ለስላሳ	-10.3325
▁ነቢይ	-10.3325
▁ምድቦች	-10.3342
▁መምረጥ	-10.3342
▁ተመልካች	-10.3357
▁በደቡብ	-10.3373
▁የምርምር	-10.3373
ቿ	-10.3389
▁ብቸኛ	-10.3405
▁ኮሚቴ	-10.3421
ዎርድፕረስ	-10.3436
▁በውስጣቸው	-10.3437
▁ወገኖች	-10.3438
▁ተሰኪ	-10.3438
▁Rikoooo	-10.3469
እናንተ	-10.3482
ዴሞክራሲ	-10.3485
▁ባህላዊ	-10.3485
▁ዝግጅት	-10.3501
▁ተዓምር	-10.3501
ኤምኤ	-10.3528
▁በመስጠት	-10.3533
▁ሣጥን	-10.355
▁በሌሎች	-10.3551
▁ዝናብ	-10.3551
ብርሃን	-10.3559
▁ሻጋታ	-10.3566
ዘጋጁ	-10.3582
▁ለማቅረብ	-10.3598
▁አሳልፎ	-10.3598
▁ምንድር	-10.3599
→	-10.3614
▁መታወቂያ	-10.3614
▁ተቆጣጣሪ	-10.3614
▁መዳረሻ	-10.3614
▁መስካሪ	-10.3615
▁ይባላል	-10.3631
ተገለጸ	-10.3643
▁አድርገዋል	-10.3647
▁ፋይሎች	-10.3648
▁ለሴቶች	-10.3648
▁ጀርባ	-10.3648
▁መስራት	-10.3649
▁ፓርክ	-10.365
▁እዝነት	-10.365
duct	-10.3662
▁ፋንታ	-10.3667
▁አውራጃ	-10.368
▁ተወዳጅ	-10.3696
ድግግሞሽ	-10.3712
▁ሚኒስቴር	-10.3745
▁ኃይለኛ	-10.3745
▁አውሮፕላኖች	-10.3745
▁ሙታን	-10.3749
▁[...]	-10.3762
▁webmail	-10.3762
▁ለመቀነስ	-10.3762
▁ዓይነቶች	-10.3779
▁ነጥቦች	-10.3795
▁የቀጥታ	-10.3796
ናገረው	-10.3814
0.8	-10.3838
▁የሞባይል	-10.3845
▁ሆኗል	-10.3845
▁እንክብካቤ	-10.3862
▁ፓስፖርት	-10.3862
▁ሦስተኛ	-10.3862
▁እንችላለን	-10.3878
▁ቆንጆ	-10.3879
▁ክፋት	-10.388
፬	-10.3895
1.0	-10.3897
▁ፍጻሜ	-10.3912
▁ዘጠኝ	-10.3913
▁ኀጢአት	-10.3929
▁Holm	-10.3946
▁ሸለቆ	-10.3947
▁የተጻፈ	-10.3947
XXX	-10.3949
cryptocurrency	-10.3963
▁የኦሪጂናል	-10.3979
▁ጥቃት	-10.3981
0.3	-10.3983
▁ትብብር	-10.3996
▁ክለሳ	-10.4015
▁ዓመታዊ	-10.403
·	-10.4047
work	-10.4048
▁ወሳኝ	-10.4049
፭	-10.4064
▁እናመሰግናለን	-10.4064
መልሰው	-10.411
▁ፕሬዚዳንት	-10.4116
▁መንግስታት	-10.4133
▁በማሳየት	-10.4133
▁ከናንተ	-10.4136
▁መዛሙርቱ	-10.415
▁መብራቶች	-10.415
▁እውቅና	-10.415
▁ስርጭት	-10.4167
ተቀበለ	-10.42
▁የእንጨት	-10.4219
▁ሰማያት	-10.4223
ማርያም	-10.4233
ማግኘ	-10.4233
▁Psychic	-10.4236
▁ህዳር	-10.4238
▁አድራጊ	-10.4254
▁SWGoH	-10.4271
▁ካዋሳኪ	-10.4271
▁ይኖራል	-10.4271
▁ዮሴፍ	-10.4306
▁ግንዛቤ	-10.4306
▁የሙከራ	-10.4359
መቃብር	-10.4362
ሙስሊሞች	-10.4376
▁የባለሙያ	-10.4376
▁ልጆቻቸው	-10.4376
▁ሰንሰለት	-10.4411
▁ሙዚቃ	-10.4411
▁የማዕድን	-10.4411
▁with	-10.4429
ትክክለኛ	-10.4431
ጉዳዩ	-10.4432
4.5	-10.4445
▁አጋዥ	-10.4448
▁Capacitor	-10.4464
ፋብሪካ	-10.4468
▁ዲያሜትር	-10.4482
▁ግዙፍ	-10.4482
▁አስደሳች	-10.4536
▁ጴጥሮስ	-10.4553
▁Bonus	-10.4553
▁ለማዘጋጀት	-10.4554
ማስተማር	-10.4554
▁Honda	-10.4571
▁አማካይ	-10.4572
▁የይለፍ	-10.4572
▁ማንበብ	-10.4572
ن	-10.4589
▁ምእምናን	-10.4589
▁በታላቅ	-10.459
ወላጆች	-10.4594
ج	-10.4607
▁ከጌታችሁ	-10.4607
و	-10.4625
▁ኢብራሂም	-10.4625
▁እንግሊዝኛ	-10.4626
▁ያሳያል	-10.4644
▁ክስተት	-10.4644
▁ጩኸት	-10.468
▁ድርጊት	-10.468
uck	-10.4681
እነርሱ	-10.4689
▁ይከጀላል	-10.4698
▁ንዑስ	-10.4698
▁ስርዓቶች	-10.4716
▁ለማውረድ	-10.4716
▁የክፍያ	-10.4716
ተቃራኒ	-10.4734
▁መግዛት	-10.4734
▁ማውረድ	-10.4734
▁ወደእርሱ	-10.4752
▁ሆቴል	-10.4808
መሰግኑ	-10.4826
New	-10.4846
▁Mobile	-10.4863
▁ምናባዊ	-10.4863
▁መክፈት	-10.4919
▁Phone	-10.4937
▁ጽድቅ	-10.4937
▁የባህር	-10.4937
▁ከእንግዲህ	-10.4955
▁የአትክልት	-10.4955
▁ማስገባት	-10.4955
▁ሮለር	-10.4957
▁መርከቦች	-10.4974
▁ክስተቶች	-10.4993
▁የተወሰኑ	-10.4993
ተካሄደ	-10.5012
▁ማጠራቀሚያ	-10.5049
ምእመናን	-10.5049
▁የሩሲያ	-10.5068
ሰላማዊ	-10.5087
▁ዘላቂ	-10.5087
▁ምግቦች	-10.5087
▁ጥናቶች	-10.5088
▁ታሪካዊ	-10.5106
▁ዝማኔ	-10.5106
መግለጽ	-10.5108
ጠባበቅ	-10.5125
CAD	-10.5127
▁ይወስዳል	-10.5143
▁ሚያዝያ	-10.5144
ኺ	-10.5201
▁ምዕራፍ	-10.5201
▁አብዛኛዎቹ	-10.522
▁የፓይፕ	-10.522
▁አያውቅም	-10.522
እንግዳ	-10.5233
▁በየዓመቱ	-10.5277
▁ትንቢት	-10.5278
▁መቅደስ	-10.5278
▁ደካማ	-10.5278
▁መክተቻዎች	-10.5297
▁ሥልጠና	-10.5297
▁ال	-10.5297
ተከተለ	-10.533
▁ፀጉር	-10.5335
▁መስፈርት	-10.5335
▁አብዛኞቻቸው	-10.5355
▁ሌዘር	-10.5355
▁ጣፋጭ	-10.5374
▁Service	-10.5394
▁ማከማቻ	-10.5413
▁ለነርሱ	-10.5433
▁ልቦቻቸው	-10.5433
▁ሰዓቶች	-10.5433
—	-10.5452
±	-10.5472
▁ከሁለቱ	-10.5472
▁መስኮት	-10.5472
በይነመረብ	-10.5491
▁መታጠቢያ	-10.5491
▁እጆቻቸው	-10.5511
▁መገናኛ	-10.5512
▁በቁማር	-10.5531
▁አደርጋለሁ	-10.5535
ተሻሻለ	-10.555
▁በሰይፍ	-10.5571
▁የጅምላ	-10.5571
▁ስኬታማ	-10.559
▁የተረጋገጠ	-10.563
▁ማይክሮ	-10.563
አሉሚኒየም	-10.565
▁መዝሙር	-10.567
▁ታይቷል	-10.567
▁የሚሰጡዋቸውን	-10.569
ኻ	-10.571
ኜ	-10.571
▁ስዕሎች	-10.571
ገራችን	-10.5717
ሐዋርያት	-10.573
▁ደንበኛ	-10.573
▁ይጎብኙ	-10.575
▁ፕሮፌሰር	-10.5771
▁በግብፅ	-10.5771
▁CSGO	-10.5791
▁ስብስቦች	-10.5791
ዴስክቶፕ	-10.5811
▁ክትትል	-10.5811
▁ሙሐመድ	-10.5831
▁ጥርጣሬ	-10.5831
▁የቅርቢቱ	-10.5852
▁ኢነርጂ	-10.5852
፳	-10.5872
ቀላቀል	-10.5873
▁አንባቢ	-10.5873
ቴሌቪዥን	-10.5913
▁ምድሪቱ	-10.5913
▁ከማይዝግ	-10.5934
▁ንግሥና	-10.5934
▁ራእይ	-10.5934
ዘወትር	-10.5935
▁ለመድረስ	-10.5954
▁ሠራዊት	-10.5996
▁ለመርዳት	-10.5996
▁ቀዝቃዛ	-10.6016
▁ቻርተር	-10.6016
▁ሠላሳ	-10.6016
▁ተባባሪ	-10.6037
መደበኛ	-10.6044
▁በክርስቶስ	-10.6079
፯	-10.6099
ችኋለን	-10.6099
0.9	-10.6101
▁Glass	-10.612
▁የነዳጅ	-10.612
▁ለእርሷ	-10.612
▁ያውርዱ	-10.6121
▁ፓውንድ	-10.6121
▁የዘላለም	-10.6141
▁ሕዝቦቼ	-10.6162
▁አምላካችሁ	-10.6162
▁ድንጋጌ	-10.6162
▁ይፈልጋል	-10.6183
▁ፋውንዴሽን	-10.6183
▁ሀሳቦች	-10.6184
▁ካህናት	-10.6184
▁አምላካችን	-10.6204
▁ሼንዘን	-10.6226
ተወለደ	-10.6247
▁አውቃለሁ	-10.6248
ተዳደር	-10.6251
▁ይኾናል	-10.6268
መደርደሪያ	-10.6311
у	-10.668
ö	-10.6837
ع	-10.6859
፮	-10.695
ዦ	-10.7226
=	-10.7311
ዠ	-10.7879
}	-10.8004
ä	-10.8081
ه	-10.8235
{	-10.8261
®	-10.8497
ጲ	-10.8523
ر	-10.855
–	-10.8735
፺	-10.8903
¥	-10.8932
ت	-10.9015
ሖ	-10.9015
ጵ	-10.9127
ሤ	-10.9356
≤	-10.9443
é	-10.9502
س	-11.0521
°	-11.055
ş	-11.0752
[	-11.0793
ዪ	-11.0852
፰	-11.199
и	-11.2028
#	-11.239
“	-11.5854
£	-11.7362
«	-12.4887
•	-14.204
●	-14.857
ü	-14.8571
©	-14.8572
丨	-14.8572
