<unk>	0
<s>	0
</s>	0
ን	-3.60504
▁	-3.60833
▁፡	-3.66641
ም	-3.7642
,	-4.19596
.	-4.28326
▁የ	-4.51484
▁በ	-4.64011
ና	-4.72489
ት	-4.75551
▁እና	-4.83049
▁(	-4.86173
▁ላይ	-5.05619
ው	-5.10191
።	-5.12151
▁ነው	-5.17114
ስ	-5.20963
:	-5.25093
▁ከ	-5.29322
▁)	-5.34832
ል	-5.42172
፥	-5.44228
▁ውስጥ	-5.45832
-	-5.46309
▁ወደ	-5.49451
;	-5.5805
▁አ	-5.60197
፤	-5.66524
▁ለ	-5.67282
ር	-5.70274
)	-5.70505
▁ሁሉ	-5.83356
ዎች	-5.84486
▁ጊዜ	-5.8489
ህ	-5.88384
ድ	-5.92099
▁ጋር	-5.93626
▁ይ	-5.98316
▁መ	-6.02299
▁-	-6.035
ብ	-6.05885
▁የሚ	-6.07505
▁እንደ	-6.09199
▁&	-6.13145
s	-6.13323
▁«	-6.16085
▁ወይም	-6.20623
gt	-6.22032
በ	-6.23018
ማ	-6.2365
▁ያ	-6.23935
▁ነገር	-6.24044
▁/	-6.24758
▁አንድ	-6.24958
ታ	-6.25075
▁ተ	-6.25405
▁»	-6.27844
ግ	-6.28105
▁፣	-6.29945
ራ	-6.3151
ለ	-6.33603
ክ	-6.33744
የ	-6.34719
ዋ	-6.36776
▁ግን	-6.38311
በት	-6.40234
▁ሰው	-6.41681
▁፤	-6.42729
▁ይህ	-6.43065
?	-6.43532
ሳ	-6.44914
▁እ	-6.45508
"	-6.52317
▁ዘንድ	-6.53737
ያ	-6.53842
▁የተ	-6.5581
ላ	-6.56201
ሉ	-6.56362
ዳ	-6.58495
፣	-6.59057
ሽ	-6.59437
▁አላህ	-6.60141
ይ	-6.60899
ደ	-6.61331
ች	-6.62106
▁1	-6.62948
መ	-6.64709
ሰ	-6.65461
ቅ	-6.66321
▁ስለ	-6.67069
▁ናቸው	-6.67517
ውን	-6.6781
ጋ	-6.68319
/	-6.70286
ጥ	-6.704
▁እኔ	-6.71676
▁ቀን	-6.72088
ዝ	-6.72297
▁ሰዎች	-6.73592
ረ	-6.74304
ቱ	-6.74574
ፍ	-6.75811
ነት	-6.76558
▁ነበር	-6.78272
▁ማ	-6.78742
ተ	-6.79592
▁"	-6.81006
▁2	-6.8159
ቀ	-6.82109
▁ቤት	-6.82137
ባ	-6.83631
▁_	-6.87393
▁አይ	-6.88345
ካ	-6.89003
ነ	-6.89639
▁በእርግጥ	-6.90498
ገ	-6.92861
ሪ	-6.94356
▁ሊ	-6.95464
▁እኛ	-6.9658
▁ብቻ	-6.9769
▁እርሱ	-6.97724
ሮ	-6.98329
lt	-7.00674
▁3	-7.00839
ኝ	-7.01135
▁በመ	-7.0128
▁በጣም	-7.02128
ጣ	-7.0431
▁ከፍተኛ	-7.04389
▁ነው።	-7.0552
!	-7.05923
▁...	-7.06656
ከ	-7.0699
▁አለ	-7.09831
▁እግዚአብሔር	-7.12416
▁በኋላ	-7.12908
3	-7.1293
አ	-7.17073
"&	-7.17227
▁start	-7.1803
▁dur	-7.18041
D	-7.18652
▁እናንተ	-7.18779
▁S	-7.1908
2	-7.19582
▁መካከል	-7.19818
▁5	-7.20743
ኛ	-7.21732
▁4	-7.22638
▁፡፡	-7.22773
▁!	-7.23079
▁አል	-7.23144
ቶ	-7.23813
ቶች	-7.23902
▁እንዲ	-7.24245
▁ልጆች	-7.249
ቃ	-7.25017
▁ሌላ	-7.25993
A	-7.27274
▁ደግሞ	-7.27614
▁ሲ	-7.28182
1	-7.29845
ዛ	-7.29902
ቁ	-7.31839
ሙ	-7.33521
▁ልጅ	-7.33701
ሱ	-7.33758
▁እስከ	-7.33948
▁መንገድ	-7.34321
ሌ	-7.34581
ፈ	-7.34844
ኑ	-7.34856
▁በዚህ	-7.3506
▁አንተ	-7.35211
▁ያለው	-7.35682
▁ብዙ	-7.35787
ሩ	-7.37619
▁እንዲህ	-7.37796
▁ባ	-7.37987
ፋ	-7.38205
▁በተ	-7.38232
ጠ	-7.38299
▁የሚያ	-7.39769
▁ምንም	-7.41146
▁ምን	-7.41628
4	-7.41904
▁ታ	-7.42172
ላቸው	-7.42187
▁ሆይ	-7.42865
▁A	-7.4293
▁ቃል	-7.43186
▁ለመ	-7.43245
▁አት	-7.43772
ቴ	-7.43772
▁ያለ	-7.45564
▁10	-7.46271
▁እነርሱ	-7.46706
▁C	-7.46914
▁የመ	-7.46917
▁በፊት	-7.46934
ኩ	-7.47117
ሊ	-7.47478
ሲ	-7.4751
▁ይችላሉ	-7.4771
x	-7.47831
er	-7.48209
▁ሥራ	-7.48428
▁የአ	-7.51105
▁አይደለም	-7.51685
▁ድረስ	-7.52014
▁እነዚያ	-7.52125
ላችሁ	-7.52846
▁P	-7.52982
ባቸው	-7.53343
ዩ	-7.53629
ዲ	-7.53757
▁ቢ	-7.53769
▁ስለዚህ	-7.53772
ሎ	-7.54233
▁አዲስ	-7.54531
▁እንዴት	-7.54784
C	-7.54983
▁ደረጃ	-7.55016
y	-7.55357
▁ቻይና	-7.55823
▁6	-7.56593
ሻ	-7.56594
▁ከዚያም	-7.57003
▁መጠን	-7.57648
▁እን	-7.58293
▁በማ	-7.5833
▁በሚ	-7.58707
▁B	-7.58862
▁አላህም	-7.59393
ሞ	-7.59485
▁ዋጋ	-7.60242
M	-7.60247
5	-7.6039
m	-7.60906
▁?	-7.61148
▁19	-7.61901
▁በአ	-7.61951
B	-7.62204
n	-7.62564
▁ይችላል	-7.62592
▁እርሱም	-7.63004
S	-7.63019
▁ጌታ	-7.63684
com	-7.63949
▁ለማ	-7.64287
ዎ	-7.64717
▁ሁለት	-7.65328
ጅ	-7.65377
V	-7.65398
▁ዓመት	-7.65442
▁ሌሎች	-7.65956
ሁ	-7.66062
▁F	-7.66715
ዱ	-7.67346
▁G	-7.6799
ኒ	-7.68589
▁አሁን	-7.69474
▁ኃይል	-7.69658
▁አሉ	-7.69664
▁8	-7.69871
ጭ	-7.70081
ቢ	-7.7088
ሜ	-7.71274
ኔ	-7.7136
ኖ	-7.7139
▁T	-7.71473
▁7	-7.71623
▁E	-7.71718
▁M	-7.72461
▁–	-7.72519
ሚ	-7.72538
ወ	-7.72652
▁ስም	-7.73226
ing	-7.73615
▁ያለውን	-7.7366
d	-7.73702
▁እንጂ	-7.74086
amp	-7.74092
P	-7.7433
ዊ	-7.74427
T	-7.74553
▁በእርሱ	-7.74616
▁ይህን	-7.7516
ቆ	-7.75316
▁ዓለም	-7.75337
ጎ	-7.75502
▁$	-7.75792
▁ተጨማሪ	-7.75957
▁ምርቶች	-7.76188
c	-7.76823
ቡ	-7.76948
፡፡	-7.7713
G	-7.77301
ዘ	-7.77413
L	-7.77492
ኮ	-7.77577
mm	-7.77601
▁የማ	-7.77639
F	-7.77932
▁D	-7.78106
▁ፊት	-7.78373
ኤ	-7.78554
ቸው	-7.79067
ጉ	-7.79707
▁በላይ	-7.80285
i	-7.80872
▁የምት	-7.81431
▁R	-7.81709
▁እነዚህ	-7.83371
o	-7.83629
ለት	-7.83662
▁ኢ	-7.83753
u	-7.84666
ሴ	-7.85728
ዶ	-7.86312
▁+	-7.866
▁ይሆናል	-7.86713
ጫ	-7.87361
▁መልካም	-7.87444
ቲ	-7.88185
▁ከተማ	-7.88421
al	-7.88815
▁ይህም	-7.88984
▁ማሽን	-7.89083
_	-7.89129
▁አምላክ	-7.89372
▁ማን	-7.89521
▁ካ	-7.89552
7	-7.89824
▁እንዲሁም	-7.90861
6	-7.90928
ሬ	-7.90934
ዎቹ	-7.91307
▁የሆነ	-7.91374
▁ክፍል	-7.91381
▁ሁኔታ	-7.91942
t	-7.92064
a	-7.92489
▁20	-7.92577
▁ዩኒቨርሲቲ	-7.9259
ኪ	-7.92756
ሃ	-7.92834
in	-7.92864
▁“	-7.93106
▁መረጃ	-7.93358
”	-7.93494
R	-7.93593
e	-7.93811
▁እየ	-7.94032
an	-7.94256
▁ቅጣት	-7.94297
▁የማይ	-7.94327
r	-7.94715
▁ሰ	-7.94818
ጽ	-7.94901
▁አስ	-7.94998
ፕ	-7.9512
▁9	-7.9553
ጡ	-7.95575
ተው	-7.95696
▁ባለ	-7.95962
▁እነርሱም	-7.95967
W	-7.96055
▁አላቸው	-7.96408
▁ከመ	-7.97107
▁Co	-7.9713
K	-7.97142
▁ከሆነ	-7.9773
8	-7.9783
▁ምድር	-7.98329
...	-7.98923
▁ብሎ	-7.98951
▁ትምህርት	-7.99032
▁•	-7.99237
▁12	-7.99269
ነው	-7.99515
ሮች	-8.00432
ed	-8.00661
▁ነበር።	-8.00919
▁H	-8.01145
▁እንደሚ	-8.01303
▁በላቸው	-8.01881
▁አለው	-8.02252
ዓ	-8.02345
▁ማለት	-8.0244
ባት	-8.02533
▁ሕዝቦች	-8.03652
▁ጥሩ	-8.03803
N	-8.0388
▁ከአ	-8.04224
10	-8.0439
▁ከእርሱ	-8.04544
▁ምክንያት	-8.04647
H	-8.04714
▁2018	-8.04727
▁ከተ	-8.04739
ችሁ	-8.05105
g	-8.05163
ሀ	-8.05187
%	-8.05197
▁N	-8.05334
▁ቦታ	-8.05343
▁ጥራት	-8.05975
or	-8.06125
▁ፋብሪካ	-8.06223
▁አገልግሎት	-8.06367
▁'	-8.06645
▁L	-8.0736
ፊ	-8.07649
▁ሙሉ	-8.08713
በር	-8.09771
p	-8.09964
▁ልዩ	-8.10435
▁ገጽ	-8.10436
ቦ	-8.10676
ለው	-8.1154
ቤ	-8.1157
እ	-8.11821
ፉ	-8.12213
ጨ	-8.12344
▁ዋና	-8.12424
▁ለእናንተ	-8.12914
▁ነጻ	-8.13146
E	-8.13177
ar	-8.13243
en	-8.13492
▁ታላቅ	-8.13809
ሪያ	-8.14064
▁ሞ	-8.14404
▁በምድር	-8.15032
'	-8.15091
▁በዚያ	-8.15222
▁V	-8.15275
▁ቁጥር	-8.15452
X	-8.15878
▁ዛሬ	-8.15885
▁ገንዘብ	-8.15931
▁ዘ	-8.16164
▁አገር	-8.16279
l	-8.16348
▁ማድረግ	-8.16355
ሶ	-8.16376
▁ጀምሮ	-8.17167
ዕ	-8.17425
ጸ	-8.17852
▁ብረት	-8.17915
▁15	-8.17944
ሸ	-8.18221
h	-8.18416
▁ለማግኘት	-8.18864
▁በአላህ	-8.19053
▁ምርጥ	-8.19217
▁K	-8.20022
መጣ	-8.20269
▁ሆይ፥	-8.20305
ቻ	-8.20877
▁አቀፍ	-8.2097
ጃ	-8.21008
▁አንዱ	-8.21096
ዬ	-8.21351
▁ሴቶች	-8.21412
▁ኤ	-8.21606
▁ከሚ	-8.21834
ሕ	-8.21966
▁ንጉሥ	-8.23341
▁18	-8.23356
▁2019	-8.23532
w	-8.23687
▁ናት	-8.23707
f	-8.24185
▁እጅግ	-8.24196
ጻ	-8.24664
▁2017	-8.2474
▁አላ	-8.24796
▁እዚህ	-8.24911
▁ከዚህ	-8.25564
9	-8.25585
="	-8.25821
ገባ	-8.25854
50	-8.26365
▁በኩል	-8.26478
▁ብት	-8.26716
le	-8.26777
▁ዐዋቂ	-8.27732
ቪ	-8.27879
▁ሆኖ	-8.28234
ሆን	-8.28506
▁ነኝ	-8.2874
k	-8.2912
▁W	-8.29273
et	-8.29488
ወጣ	-8.29772
▁መጽሐፍ	-8.29958
▁የተለያዩ	-8.30295
ሎች	-8.30473
b	-8.3067
▁ሊያ	-8.30869
▁ሆነ	-8.31265
▁ዓ	-8.31537
st	-8.31716
▁*	-8.32025
ናቸው	-8.3223
▁እኔም	-8.32275
▁11	-8.32404
▁ሕዝብ	-8.32622
፦	-8.32629
▁ከአላህ	-8.33585
ዴ	-8.33588
Y	-8.33623
▁ሕይወት	-8.3407
▁የለም	-8.3414
ታል	-8.3428
▁J	-8.34322
▁እጅ	-8.34662
▁ለሚ	-8.35062
30	-8.35203
▁እነዚያም	-8.35417
▁16	-8.35445
ዎን	-8.35661
▁እርስዎ	-8.35922
ታቸው	-8.35944
▁ይላሉ	-8.35944
▁ከፍ	-8.36177
▁የንግድ	-8.36276
▁ምርት	-8.36313
▁ዓይነት	-8.36789
▁አሳ	-8.36793
▁በእናንተ	-8.36877
▁ይላል	-8.36989
ቱን	-8.3718
▁መለያ	-8.37679
▁ስፍራ	-8.37791
▁አቅራቢዎች	-8.38221
▁እንጅ	-8.38296
▁£	-8.38334
▁መብት	-8.38355
▁መሆን	-8.38388
ኖች	-8.38416
20	-8.38659
ፈራ	-8.38666
▁ጥቅም	-8.38702
ተር	-8.38714
ዮ	-8.38872
▁ኖሮ	-8.39538
▁ክፍሎች	-8.39661
ችን	-8.3967
▁መሆኑን	-8.40297
▁ማንኛውም	-8.40499
ፒ	-8.40627
▁24	-8.41033
▁30	-8.41137
es	-8.41437
▁ቡድን	-8.41451
▁ቀላል	-8.41468
▁በእግዚአብሔር	-8.4158
▁አምራቾች	-8.41755
▁ያስ	-8.41801
on	-8.41977
▁እነሱ	-8.42023
ተኛ	-8.42175
▁ወር	-8.42326
▁አያ	-8.42421
▁ዶላር	-8.43061
00	-8.43505
19	-8.43646
▁ዓመታት	-8.43805
▁13	-8.43903
▁ያሉ	-8.43976
ሐ	-8.44285
▁ከእናንተ	-8.44358
ቂ	-8.44503
ጂ	-8.45327
ጦ	-8.46026
v	-8.46051
▁ኾነው	-8.46207
▁ግልጽ	-8.46362
O	-8.46505
re	-8.46606
▁X	-8.47152
▁ላ	-8.47699
▁ጣቢያ	-8.47896
U	-8.48034
▁ጥ	-8.48098
▁መሠረት	-8.48248
▁17	-8.48677
▁ቤቶች	-8.4877
▁ለእነርሱ	-8.48962
▁ወ	-8.48977
▁ቅ	-8.49493
el	-8.49527
▁ዝርዝር	-8.49655
▁ተማሪዎች	-8.49658
15	-8.49701
12	-8.49825
▁ጉዞ	-8.50006
▁ሲሆን	-8.50117
▁በአንድ	-8.5033
▁መስመር	-8.50515
▁14	-8.50669
▁ያህል	-8.50732
▁አለው።	-8.51437
▁ተከታታይ	-8.51793
▁ማግኘት	-8.518
▁ነን	-8.51933
▁ድጋፍ	-8.52044
I	-8.52099
▁ይበልጥ	-8.52107
▁ትልቅ	-8.52193
60	-8.52239
▁እያ	-8.52775
▁መኖሪያ	-8.52781
▁ለእርሱ	-8.52835
▁25	-8.52926
ጀ	-8.52997
▁እንዳ	-8.53406
▁ብርሃን	-8.53693
▁ሳይ	-8.53861
z	-8.54033
ላት	-8.54145
▁ስልክ	-8.54179
01	-8.5431
▁የእርስዎ	-8.54361
▁ፍርድ	-8.54533
▁the	-8.54827
J	-8.54979
▁መመሪያ	-8.55074
▁ይልቅ	-8.56087
▁ጥያቄ	-8.56144
▁I	-8.5626
▁ካርድ	-8.56465
▁ጥቁር	-8.56474
at	-8.56561
▁ዜና	-8.56582
▁ስርዓት	-8.56634
▁ነ	-8.56731
▁አንዳንድ	-8.56852
▁ፈቃድ	-8.56895
▁ሲኾኑ	-8.57044
ገቡ	-8.57072
▁ኦ	-8.57103
▁ለምን	-8.572
ረዳ	-8.57232
▁ማስ	-8.57313
▁ከእነርሱ	-8.57361
▁Ltd	-8.57568
ጌ	-8.57834
▁ሊሆን	-8.58247
፡	-8.58336
▁አለ።	-8.58425
▁ኮ	-8.58534
ዋል	-8.58596
▁ተስፋ	-8.59132
▁የእኛ	-8.59134
▁ሰዓት	-8.59208
ic	-8.59426
0	-8.59437
▁አታ	-8.59574
▁ቴክኖሎጂ	-8.59646
(	-8.59738
11	-8.60063
▁ነገሮች	-8.60402
am	-8.60436
▁ሴ	-8.60678
ሰማ	-8.60686
▁የአላህ	-8.60695
▁ለማድረግ	-8.60695
▁መቶ	-8.60909
it	-8.61085
▁ሕግ	-8.61252
▁ሴት	-8.6126
ዜ	-8.61545
▁በእ	-8.61719
▁የእ	-8.61978
40	-8.62042
▁አስፈላጊ	-8.62181
▁ነፃ	-8.62242
ሠራ	-8.62328
▁በእነርሱ	-8.62417
▁ሞዴል	-8.62462
ክስ	-8.62524
▁U	-8.62907
▁ኢትዮጵያ	-8.62961
▁ያል	-8.63048
▁የአየር	-8.63218
▁መሣሪያዎች	-8.6343
▁ክፉ	-8.63562
▁ውጭ	-8.63672
us	-8.63953
▁ዘመን	-8.64154
▁አካባቢ	-8.6423
▁ቀናት	-8.64243
ዙ	-8.64479
▁ሦስት	-8.64521
▁ሀ	-8.64568
ኬ	-8.64873
▁ጉዳይ	-8.65044
ኦ	-8.65191
▁ዲ	-8.65325
▁ለአ	-8.65817
ታችሁ	-8.65819
ዶች	-8.6604
▁of	-8.66286
▁ከዚያ	-8.66396
16	-8.66438
ur	-8.66693
▁ሚ	-8.6672
▁ሐ	-8.66844
▁ፕሮግራም	-8.66849
ፀ	-8.6691
ol	-8.66978
ኞች	-8.67072
▁ኩባንያ	-8.67356
▁100	-8.67373
ተኞች	-8.67614
▁አካል	-8.67651
ቋ	-8.67682
▁ጉርሻ	-8.67772
80	-8.67865
▁ይህንን	-8.67892
▁#	-8.6796
▁የእግዚአብሔር	-8.68046
መር	-8.68425
▁50	-8.68456
ጁ	-8.68476
▁እውነት	-8.68503
▁0	-8.68638
▁ችግር	-8.6876
▁ደ	-8.69053
ጠፋ	-8.69086
▁ሸ	-8.69392
ዞ	-8.69534
▁እንደሆነ	-8.6972
th	-8.69776
ቸዋል	-8.69786
▁ጌታዬ	-8.69873
ደር	-8.6992
▁ምልክት	-8.70224
▁እንዳይ	-8.70228
▁እግዚአብሔርም	-8.70325
ገዛ	-8.70372
▁ቀለም	-8.70606
▁መሣሪያ	-8.70799
▁አይነት	-8.70909
ለህ	-8.7096
://	-8.70988
ወጡ	-8.71268
ባል	-8.71407
ሰብ	-8.7151
▁ወረቀት	-8.71708
▁በዓለም	-8.71872
▁እሳት	-8.71997
ro	-8.71999
ch	-8.72035
▁መጨረሻ	-8.72082
ቸ	-8.72132
ቢያ	-8.72209
▁አየር	-8.72288
▁ምግብ	-8.72302
▁የግል	-8.72748
&	-8.73123
▁በታች	-8.73487
▁እነሆ፥	-8.73498
▁ቤተ	-8.73499
25	-8.73538
▁O	-8.73603
▁መጣ	-8.73789
ሣ	-8.73861
▁ሃ	-8.73871
ፅ	-8.73895
▁አውርድ	-8.73995
kv	-8.74038
▁ንድፍ	-8.74171
ውያን	-8.74298
▁Ch	-8.74408
13	-8.74409
▁መልስ	-8.74627
▁a	-8.74658
ስተ	-8.74734
▁እየተ	-8.74762
ቼ	-8.74904
ችው	-8.74931
▁የቤት	-8.7512
ራት	-8.75234
ዉ	-8.75344
▁ሁሉንም	-8.75499
ቷል	-8.75538
ገኝ	-8.75779
▁ኮድ	-8.76006
ቦች	-8.76131
]	-8.76203
▁እንዲሁ	-8.76515
un	-8.76864
▁ደስ	-8.7739
▁እነሆ	-8.77603
▁እኛም	-8.77739
17	-8.77787
ra	-8.77806
▁አለበት	-8.77859
▁በርካታ	-8.77875
▁ፍጥነት	-8.78143
ወር	-8.78211
ራቸው	-8.78231
ሥ	-8.7839
▁ኢየሱስ	-8.78626
▁ዙሪያ	-8.78782
▁የኃይል	-8.79303
▁የበለጠ	-8.79319
co	-8.7934
ፌ	-8.7937
▁ኪዳን	-8.79427
ኖር	-8.79447
▁ሺህ	-8.79492
ጠራ	-8.79554
35	-8.79847
▁ነበሩ	-8.79915
▁ጠ	-8.80179
▁and	-8.80611
ገር	-8.807
▁የተሻለ	-8.80821
▁ፓ	-8.81268
▁እሱ	-8.81287
▁የቀድሞው	-8.81291
▁ያላቸው	-8.81306
18	-8.81665
▁ነፍስ	-8.81686
▁የኢትዮጵያ	-8.81768
▁በሙሉ	-8.82128
መው	-8.82161
▁40	-8.82222
▁ቀጣይ	-8.82306
▁ወይስ	-8.82399
▁ሲኾን	-8.82428
▁ክልል	-8.82479
▁በኢትዮጵያ	-8.82545
▁መደበኛ	-8.82689
Z	-8.82718
▁Y	-8.82883
▁ታሪክ	-8.82969
▁21	-8.8304
ፎ	-8.83197
ቸውን	-8.83208
ገኙ	-8.83278
▁22	-8.83342
▁ልክ	-8.83432
ul	-8.83657
▁Re	-8.837
02	-8.83705
▁ቀ	-8.83766
▁ቅዱስ	-8.83768
▁በእኛ	-8.8384
▁በጎ	-8.83858
ላል	-8.84041
▁ዝቅተኛ	-8.84063
▁2016	-8.84087
ሶች	-8.84172
▁ወቅት	-8.84359
መራ	-8.84397
▁ክፍያ	-8.84399
▁ልማት	-8.84528
▁የትምህርት	-8.84561
▁ግንኙነት	-8.84584
ፈሩ	-8.85191
▁እንዲያ	-8.85236
▁እያንዳንዱ	-8.85448
▁ባል	-8.85632
ዚ	-8.85805
ሹ	-8.85862
ኤል	-8.85929
ሉት	-8.86109
ent	-8.86119
▁እውነተኛ	-8.86141
▁ሚሜ	-8.86194
ኢ	-8.86241
▁ተመሳሳይ	-8.86393
21	-8.8642
▁FSX	-8.86456
▁የምታ	-8.86731
▁ውኃ	-8.86851
ከር	-8.87074
te	-8.8724
04	-8.87249
▁ተንቀሳቃሽ	-8.87278
ሰር	-8.8732
action	-8.87579
▁የእኛን	-8.87642
ሰው	-8.87753
24	-8.87852
id	-8.87952
ሰጥ	-8.87968
▁በማድረግ	-8.87974
▁የሰው	-8.87992
▁ልብ	-8.88064
il	-8.88255
▁ችሎታ	-8.88262
▁አራት	-8.88426
▁የምርት	-8.88498
ኳ	-8.88672
▁=	-8.88875
▁%	-8.89087
ጓ	-8.89264
ውቅ	-8.89313
45	-8.89346
▁አበባ	-8.89361
ly	-8.89514
ፖ	-8.89611
▁የመስመር	-8.89658
ዋቸው	-8.89719
ang	-8.89781
▁ስራ	-8.8982
ሚያ	-8.89914
05	-8.90107
ፈር	-8.9016
▁በእውነት	-8.90193
ቫ	-8.90529
ልኝ	-8.90548
▁[	-8.90932
▁Z	-8.91037
በረ	-8.91166
ድር	-8.91258
▁እንኳ	-8.91308
е	-8.91408
ሞች	-8.91436
ሃል	-8.91504
▁to	-8.919
▁ልብስ	-8.91979
▁መጠቀም	-8.91988
▁ጠንካራ	-8.9214
▁ከእኔ	-8.92183
ለች	-8.92263
ቻቸው	-8.92385
▁የሚል	-8.92581
▁ሥርዓት	-8.92671
▁ፎቶ	-8.92823
▁ሞተር	-8.92881
አቸው	-8.92909
▁ውሃ	-8.93085
▁ድር	-8.93112
▁አልለ	-8.93234
▁ቋንቋ	-8.93351
▁ጠቃሚ	-8.93515
ከፍተኛ	-8.93736
ታዊ	-8.93772
ጆ	-8.93787
ረው	-8.9383
ኛው	-8.93989
▁in	-8.94073
ሆ	-8.94078
▁ፍሬ	-8.94413
▁እግዚአብሔርን	-8.94611
▁አድርጎ	-8.94814
ላይ	-8.9484
ክል	-8.95
as	-8.95048
▁የመጀመሪያ	-8.95101
▁ናቸው።	-8.95153
መረ	-8.95165
▁የካዱት	-8.95227
▁መሪ	-8.9528
▁አሁንም	-8.95447
▁አስተዳደር	-8.9545
መነ	-8.95473
▁ተመ	-8.95489
▁የመጀመሪያው	-8.95569
▁ከአንተ	-8.95661
▁2013	-8.95673
▁ከእኛ	-8.957
ጢ	-8.95716
▁ማንም	-8.95717
▁ቪዲዮ	-8.95735
▁ኢሜይል	-8.95793
▁በርሱ	-8.95823
ደረ	-8.95991
lo	-8.96091
▁ንግድ	-8.9637
ማር	-8.96377
▁የእስራኤል	-8.96384
22	-8.96465
▁መኪና	-8.96511
.00	-8.96573
▁ጸጋ	-8.96685
▁23	-8.96739
▁ድምፅ	-8.96807
▁ሂደት	-8.96863
▁አብ	-8.96869
▁ፈጣን	-8.96929
▁ወዘተ	-8.96972
ግብ	-8.97016
ግባ	-8.97077
ሞት	-8.97161
ጩ	-8.97192
▁ለአላህ	-8.97246
▁ትንሽ	-8.97254
▁አስታውስ	-8.97302
▁በመጠቀም	-8.97399
▁ምርምር	-8.97468
▁አስተያየት	-8.97519
▁በዚያም	-8.97553
ቹ	-8.97589
ers	-8.9763
▁ብርቱ	-8.97635
▁ሰላም	-8.97645
▁አደረገ	-8.97973
▁የአሜሪካ	-8.98137
▁ሜ	-8.98202
ፓ	-8.98436
ገደ	-8.9848
ሰጡ	-8.98746
ri	-8.98849
se	-8.98895
▁አጠቃላይ	-8.98896
▁ያግኙ	-8.99019
ia	-8.99113
ጹ	-8.99325
▁የኾነ	-8.99384
ሰበ	-8.99473
▁ከተሞች	-8.99512
▁ከባድ	-8.99547
▁ይሁን	-8.99629
ችኋል	-8.99664
▁ገ	-8.9978
▁ጨዋታ	-8.99893
▁መንፈስ	-8.9993
▁ድርጅት	-9.00099
▁Bitcoin	-9.00151
03	-9.00361
▁መር	-9.00426
▁እምነት	-9.00644
▁መጥፎ	-9.00661
ጠቅ	-9.00719
▁ምክር	-9.00724
▁በማለት	-9.00906
▁ልት	-9.00954
▁ሰባት	-9.0097
14	-9.0104
▁የሆኑ	-9.01349
▁ጨምሮ	-9.01412
ገለ	-9.0142
ራል	-9.01561
ሺ	-9.01792
▁ጥቂት	-9.01889
▁በተጨማሪም	-9.02178
▁ባለቤት	-9.02417
▁ጥበቃ	-9.02524
▁ወራት	-9.02844
▁Android	-9.02916
▁ማዕከል	-9.03094
▁መግለጫ	-9.03096
▁መሥዋዕት	-9.03252
▁ምርጫ	-9.03309
▁capacitor	-9.03325
▁ገበያ	-9.03394
ለሁ	-9.03471
▁አገልግሎቶች	-9.03913
▁c	-9.03973
ታይ	-9.04157
▁ቁ	-9.04159
ኅ	-9.04161
▁ይሰጣል	-9.04213
33	-9.04311
▁ዳዊት	-9.0434
▁አልተ	-9.04356
▁የእግዚአብሔርን	-9.04547
ባችሁ	-9.04566
▁ጎ	-9.04787
▁ከእ	-9.04789
▁የሰ	-9.04798
▁የዓለም	-9.05114
▁አሜሪካ	-9.05172
▁ቁጥጥር	-9.05217
▁እንደዚሁ	-9.05359
ሠ	-9.05362
አል	-9.05523
▁ሕያው	-9.05576
▁በሌላ	-9.05668
▁ለእኔ	-9.05753
▁ምድርን	-9.05816
▁መኾኑን	-9.05822
▁በእርሷ	-9.05831
ad	-9.05832
▁በስተቀር	-9.05879
መለስ	-9.06006
▁©	-9.06006
▁የእርስዎን	-9.06199
▁ጥያቄዎች	-9.06295
ኾን	-9.063
▁ለተ	-9.063
ot	-9.06409
ጄ	-9.06463
▁ያደርጋል	-9.06539
ቸውም	-9.06579
36	-9.06595
ፍር	-9.06626
ወቅ	-9.06721
▁ሆነው	-9.06745
▁ደረጃዎች	-9.06833
▁የስራ	-9.06996
▁ሰር	-9.07021
67	-9.07039
▁ብለው	-9.07101
ጊ	-9.07105
▁እርዳታ	-9.07124
ደረግ	-9.07141
▁ጥናት	-9.07161
▁ወንዶች	-9.07232
ኖሩ	-9.07243
▁የእኔ	-9.07356
▁ምሳሌ	-9.07357
ማል	-9.07409
▁v	-9.07464
▁200	-9.07472
▁ዐ	-9.0753
▁አቅም	-9.07605
90	-9.0763
▁በእስራኤል	-9.07633
▁በውስጡ	-9.07756
▁ትዕዛዝ	-9.07771
▁ሳይንስ	-9.07771
▁ጌታችን	-9.07782
69	-9.07802
ነቱ	-9.07846
▁ባለቤቶች	-9.08258
▁ዝርዝሮች	-9.08431
▁ያንብቡ	-9.08493
▁ጉ	-9.08647
▁ለእግዚአብሔር	-9.08773
▁ሽፋን	-9.08802
▁b	-9.09143
-2	-9.0922
ተዋል	-9.09271
ate	-9.09298
▁ንብረት	-9.0933
▁ፈ	-9.09493
▁ይገኛል	-9.09518
▁ማረጋገጫ	-9.09571
▁ብር	-9.09601
▁ነህ	-9.09621
ራዊ	-9.09627
37	-9.09844
▁አንተም	-9.09904
▁ሁልጊዜ	-9.10047
70	-9.10057
▁የኤሌክትሪክ	-9.10069
ሄ	-9.10071
▁እንኳን	-9.10118
▁ኃጢአት	-9.10126
ቀለ	-9.10177
▁ትክክለኛ	-9.10189
▁ፈጽሞ	-9.10298
▁ነጭ	-9.10448
▁ቲ	-9.10541
28	-9.10728
▁የቁማር	-9.10739
06	-9.10877
▁f	-9.10908
▁ከእነሱ	-9.1102
▁አምስት	-9.11162
ፈልጉ	-9.11319
23	-9.11343
99	-9.11466
▁ለእኛ	-9.1153
▁ክብር	-9.11693
▁መስጠት	-9.11758
▁ዱቄት	-9.11816
ation	-9.11821
▁ቤ	-9.11923
um	-9.11928
▁ባለው	-9.11967
ጐ	-9.11974
@	-9.12008
32	-9.12062
ዮች	-9.12083
▁መጀመሪያ	-9.12148
▁m	-9.12154
▁Forex	-9.12522
በላ	-9.12526
ቀጣ	-9.12684
▁2015	-9.12731
▁አላቸው።	-9.12776
▁ቮልቴጅ	-9.12843
ክር	-9.12899
▁አዛኝ	-9.12908
▁ገመድ	-9.1292
▁መቆጣጠሪያ	-9.1297
▁ገና	-9.13074
ፈጠር	-9.13112
▁ዕ	-9.13194
▁ስሪት	-9.13294
▁ቦታዎች	-9.13309
ጠረ	-9.1338
▁ምክንያቱም	-9.13382
ሪዎች	-9.13397
ዥ	-9.13406
ቄ	-9.13422
and	-9.13532
▁p	-9.1356
▁በእርሱም	-9.13637
▁የሚያስ	-9.1368
▁በውስጧ	-9.13682
▁ጭ	-9.13756
▁ምንዳ	-9.13774
▁ወንድ	-9.13809
34	-9.13953
ማቸው	-9.14003
-1	-9.14138
ቀው	-9.14161
▁የሥራ	-9.14163
▁ያላቸውን	-9.14222
▁የነበሩት	-9.14312
▁ብሔራዊ	-9.14315
▁ነበረ።	-9.14322
▁የኢ	-9.14356
▁ይመልከቱ	-9.14465
ኾኑ	-9.14612
▁አድራሻ	-9.14628
▁የሚችል	-9.14638
▁ሲል	-9.14711
ነሳ	-9.1475
▁አነስተኛ	-9.14813
▁ይመ	-9.14834
▁ለውጥ	-9.14882
mo	-9.15055
▁መንግሥት	-9.15056
ሂ	-9.15144
ቶቻቸው	-9.15297
በሩ	-9.1541
▁ቀይ	-9.1543
▁ጉዳዮች	-9.15455
ሉ።	-9.15494
ጠላ	-9.15559
▁26	-9.15641
▁ክርስቶስ	-9.1565
▁ብጁ	-9.1566
▁ወገን	-9.15695
de	-9.15727
j	-9.15752
▁g	-9.15806
▁ድምጽ	-9.15832
▁መንግስት	-9.15994
▁አጠገብ	-9.16049
▁ዕቃ	-9.16068
ant	-9.16098
▁ኪ	-9.16135
ገድ	-9.16146
▁ጨዋታዎች	-9.16192
▁ይሆናል።	-9.163
▁ክብደት	-9.16315
▁ስር	-9.16321
ቶቹ	-9.16428
▁የቅርብ	-9.16451
ሳት	-9.16512
▁ለማስ	-9.16596
ma	-9.16643
ታቸውን	-9.16661
▁ውጤት	-9.16783
о	-9.1685
▁ሆ	-9.1686
▁አማራጭ	-9.1694
▁ካዚኖ	-9.16984
▁丨	-9.16984
▁Pro	-9.17017
››	-9.17123
ቅር	-9.17168
▁የውጭ	-9.17215
▁ኾኖ	-9.17253
is	-9.17307
▁re	-9.17359
▁PVC	-9.17523
▁ታዋቂ	-9.1759
▁500	-9.17696
▁ሥጋ	-9.17733
▁አቅርቦት	-9.17782
▁ብጤ	-9.18069
▁አጥ	-9.18202
▁°	-9.18552
▁ፍቅር	-9.18578
▁ቁልፍ	-9.18828
ህንም	-9.18831
ጣሉ	-9.18894
▁ሙቀት	-9.18952
▁ደህንነት	-9.18966
▁በሆነ	-9.19019
▁ምንጭ	-9.1902
ልክ	-9.19054
ላሉ	-9.19092
ጋራ	-9.19174
ገረ	-9.19174
▁ሚሊዮን	-9.19226
▁የሚሆን	-9.19312
▁እነዚህን	-9.19382
ረዱ	-9.19394
▁ኢንዱስትሪ	-9.19494
▁ፍላጎት	-9.19504
ፈረ	-9.19507
▁ይፈልጋሉ	-9.19568
▁እባክዎ	-9.19637
li	-9.19654
а	-9.19913
▁ተሰ	-9.20036
▁በእኔ	-9.20106
ine	-9.20163
ረድ	-9.20252
ዘን	-9.20274
▁In	-9.20291
▁ተቀማጭ	-9.20329
ta	-9.20495
ፃ	-9.20548
▁የገንዘብ	-9.2061
ብረ	-9.20723
ጠር	-9.20727
ሰጠው	-9.20727
ልፍ	-9.20839
ሾ	-9.20847
▁ጥቅል	-9.21034
▁እንግዲህ	-9.21096
▁‹‹	-9.21166
▁€	-9.21191
ge	-9.21205
▁ተራራ	-9.21211
ator	-9.2132
▁2014	-9.21334
38	-9.21457
▁ተብሎ	-9.21589
▁መሓሪ	-9.21657
ኛል	-9.21697
መጡ	-9.21723
▁የምድር	-9.21835
op	-9.22003
ce	-9.22196
▁ቢሆን	-9.2222
ገል	-9.22306
▁ነበር፤	-9.22306
ጣል	-9.22376
ሰራ	-9.22429
31	-9.22514
ኙ	-9.22548
▁ሲያ	-9.22567
ጠሩ	-9.22596
ሳል	-9.22662
▁በቀር	-9.22791
ታችን	-9.22811
55	-9.22844
85	-9.22864
ho	-9.22892
▁እንቅስቃሴ	-9.23063
▁27	-9.23198
▁ደንበኞች	-9.23199
▁እንድት	-9.23201
▁ችሮታ	-9.23232
▁መሳሪያዎች	-9.23307
ቀር	-9.2345
▁ቁርኣን	-9.23524
▁አድርግ	-9.2353
ሳቸው	-9.23574
▁በአሁኑ	-9.23596
▁የውሃ	-9.23745
▁መከራ	-9.23794
ደርግ	-9.23925
per	-9.23964
ገዙ	-9.24168
ዎት	-9.24183
000	-9.2425
ry	-9.2434
▁መስፈርቶች	-9.24366
07	-9.24435
▁አውሮፕላን	-9.24443
▁ዘመናዊ	-9.24443
net	-9.24452
08	-9.24546
ir	-9.24594
▁ሜትር	-9.24677
▁የተወሰነ	-9.247
▁እርሷ	-9.24756
▁35	-9.24772
▁ግምገማዎች	-9.2485
▁by	-9.24874
▁እነዚያን	-9.24894
ይቱ	-9.25017
▁ካል	-9.25036
ሟ	-9.2514
ac	-9.25142
ጠው	-9.25203
▁ካሜራ	-9.25311
ራሉ	-9.25556
▁ሳይሆን	-9.25582
▁ሞት	-9.25619
29	-9.25697
▁ያመናችሁ	-9.25783
▁የማያ	-9.25784
መድ	-9.25919
▁ቦርሳ	-9.25975
71	-9.26015
▁የምግብ	-9.26156
▁ግምገማ	-9.26194
መስ	-9.26203
ታገ	-9.26256
▁ሶ	-9.26357
▁ድርጅቶች	-9.26411
▁ተቀ	-9.26563
▁ሰማይ	-9.26689
▁ጥር	-9.26728
▁ውርዶች	-9.26781
ብሩ	-9.26852
▁ያድርጉ	-9.26929
▁ደም	-9.2693
66	-9.27038
ዳቸው	-9.27155
▁አምራች	-9.27226
▁በመጣ	-9.27243
▁29	-9.27259
ity	-9.27272
አት	-9.27336
▁እንደዚህ	-9.27389
▁እስኪ	-9.27391
▁x	-9.27404
ሳይ	-9.27413
ጾ	-9.27432
▁ቢሆንም	-9.27437
▁ተስማሚ	-9.27449
ፈው	-9.27452
ኃ	-9.2756
▁በወ	-9.27631
Q	-9.27662
▁አሉት	-9.27681
▁ውጤቶች	-9.27748
▁28	-9.27751
ብኝ	-9.27778
ብራ	-9.27782
ter	-9.27798
▁አዋጅ	-9.27901
▁ያልተ	-9.27981
ill	-9.2801
▁አሕዛብ	-9.28122
▁ሰፊ	-9.28128
ደው	-9.2816
ወድ	-9.28263
ከል	-9.28294
▁ምስጋና	-9.28423
▁ፒ	-9.2849
▁100%	-9.2865
▁አለቆች	-9.28711
▁h	-9.28717
▁ኋላ	-9.28746
▁ለዘላለም	-9.288
▁ፕሮግራሞች	-9.288
▁ቤቱ	-9.28817
▁~	-9.28844
ፈተ	-9.28884
▁ጠቅ	-9.28899
▁No	-9.28975
ሞላ	-9.29066
▁የቅጂ	-9.29182
one	-9.29195
72	-9.29284
200	-9.2931
▁ዘር	-9.29325
im	-9.29379
አይ	-9.29466
▁ማሳያ	-9.295
la	-9.29525
▁ጸ	-9.29624
▁ሳለ	-9.29664
ሄዱ	-9.2968
▁ከሰማይ	-9.29789
▁ፈተና	-9.29843
▁ምልክቶች	-9.29864
▁×	-9.29973
26	-9.29986
▁የባቡር	-9.30016
ቂያ	-9.30049
▁የኢሜይል	-9.30178
▁አባላት	-9.30265
▁መያዣ	-9.30326
ሆኑ	-9.30488
▁ማዋቀር	-9.30553
▁ለዚህ	-9.30619
▁ዘይት	-9.30634
▁2020	-9.30679
ጥር	-9.30821
ጣት	-9.30839
▁መልክ	-9.30856
ፍራ	-9.30931
ቈ	-9.30944
▁60	-9.30967
▁w	-9.31147
ver	-9.31321
▁አለቃ	-9.31324
ኤስ	-9.31361
▁መግቢያ	-9.31378
▁ይግዙ	-9.31411
ያቸው	-9.31446
▁ነበረ	-9.31521
▁ትእዛዝ	-9.31558
▁ወዲያውኑ	-9.31636
▁ተቋም	-9.31641
ካል	-9.31708
▁መሬት	-9.31718
መል	-9.31748
ናችሁ	-9.31897
77	-9.31958
▁ፊ	-9.32
▁ከእነርሱም	-9.32001
▁የዚህ	-9.32018
▁ያቀርባል	-9.32103
▁ይቻላል	-9.32259
ጤ	-9.32275
▁ገቢ	-9.32352
39	-9.32404
ቀና	-9.32426
ነሣ	-9.32453
▁ሴራሚክ	-9.32651
ቀት	-9.32663
▁ቦ	-9.32675
ne	-9.32777
▁ተግባራዊ	-9.32832
መለሱ	-9.32899
ከተ	-9.33111
ሄድ	-9.33207
ደግ	-9.33221
www	-9.33265
▁ተግባር	-9.33283
▁ዕውቀት	-9.3336
="3	-9.33364
▁በመጀመሪያ	-9.33493
ጮች	-9.33501
▁መጡ	-9.33535
▁ጉዳት	-9.3354
▁ተከ	-9.33724
ረገ	-9.33782
75	-9.33887
▁ወሰን	-9.33916
95	-9.33955
ca	-9.33961
▁ትርጉም	-9.34075
ድረ	-9.34083
ቃል	-9.34105
ባር	-9.34137
▁ሆኖም	-9.34142
86	-9.34195
all	-9.34256
▁https	-9.34359
ዎቻቸው	-9.344
ig	-9.34438
▁de	-9.34454
▁ይላል።	-9.34462
▁አንቀጾች	-9.34554
▁ጤና	-9.34569
▁ቁሳዊ	-9.34641
▁ከእርሱም	-9.34653
ለቅ	-9.34691
ዘር	-9.34769
▁ብዛት	-9.34795
▁መረብ	-9.3484
▁31	-9.34916
ኝነት	-9.34932
ሰጠ	-9.34938
▁አይደሉም	-9.34955
68	-9.3497
▁አገሮች	-9.35036
▁አፍ	-9.35199
▁መሰ	-9.35269
▁ባለሙያ	-9.35453
ቻል	-9.35511
▁iPhone	-9.35519
ደረጉ	-9.35521
▁ለእነርሱም	-9.35532
ፈጥ	-9.35605
▁መታ	-9.35659
▁ፍጹም	-9.35681
▁ጥበብ	-9.35703
▁ደንብ	-9.35704
በዛ	-9.35713
▁ዕቃዎች	-9.35793
ባለ	-9.35843
ጆች	-9.3587
ሠሩ	-9.35895
▁ኢንች	-9.36021
▁አዳዲስ	-9.36034
ግራ	-9.36102
▁ሰማያዊ	-9.36165
ራችሁ	-9.36188
▁እነሱም	-9.36245
▁የብረት	-9.3657
▁ናችሁ	-9.36676
ረጋ	-9.36736
ite	-9.36737
▁ያንን	-9.36741
▁ነጠላ	-9.36765
▁(_	-9.36771
▁መልኩ	-9.36833
▁እርምጃ	-9.3689
ወሰ	-9.36897
▁ሽቦ	-9.36997
mail	-9.3701
ay	-9.37016
▁ባይ	-9.37119
▁ሽያጭ	-9.37132
to	-9.37156
▁ሁለቱ	-9.37188
▁ኾናችሁ	-9.37245
ቶቻችሁ	-9.37303
ወደ	-9.37425
▁ተገቢ	-9.37437
▁የኢንዱስትሪ	-9.37441
▁ጽሑፍ	-9.37597
ቤት	-9.37677
▁ነበሩ።	-9.37715
▁ቢያ	-9.37737
ዌ	-9.37782
ለሁ።	-9.37825
ቻችን	-9.37858
▁Google	-9.37881
ER	-9.37888
ቷ	-9.38019
ሥራ	-9.38048
ment	-9.38194
ጪ	-9.38198
ስቴ	-9.38243
98	-9.38309
▁በምድርም	-9.38359
ut	-9.38436
▁ያሉት	-9.38575
▁ለእነዚያ	-9.38658
ኒያ	-9.38758
▁በተመለከተ	-9.38805
▁እንደገና	-9.38828
bo	-9.38832
ፎች	-9.39102
▁ሃይማኖት	-9.39115
ap	-9.39134
▁ጥሪ	-9.393
▁እንዳለ	-9.39303
ide	-9.3948
▁ብታ	-9.39553
▁አፍሪካ	-9.39554
▁በትክክል	-9.39643
▁አልነበረም	-9.39645
▁መልክተኛ	-9.39765
ከፍ	-9.39771
▁ፋይል	-9.39821
▁ጠቅላላ	-9.39897
▁ንጉሡ	-9.40055
▁የፕላስቲክ	-9.40131
ርያ	-9.40176
▁HVC	-9.40244
▁አደጋ	-9.40301
27	-9.40379
▁ተቋማት	-9.40404
pe	-9.40415
▁መላእክት	-9.40477
▁ወይ	-9.40514
ረግ	-9.4082
ርክ	-9.40823
▁ወርቅ	-9.40834
▁የለውም	-9.40839
መሰ	-9.4087
ሁት	-9.40876
▁ምንድን	-9.40884
ለመ	-9.40953
ናገሩ	-9.41006
▁ብቃት	-9.4104
▁ገጾች	-9.41085
▁ጌታችሁ	-9.41133
▁ገነት	-9.41237
▁ፍሩ	-9.41303
▁ያውቃል	-9.41343
▁ይዞ	-9.4148
▁ስልጠና	-9.41513
▁ለእነሱ	-9.41517
▁ሰኔ	-9.41553
ጥፋ	-9.41554
▁የሠራ	-9.41594
65	-9.41638
ገኛ	-9.41641
▁LED	-9.41698
▁ሶፍትዌር	-9.41771
▁አንዲት	-9.418
▁ሚስት	-9.41954
2004	-9.41985
▁ጌታህ	-9.42111
▁መንገዶች	-9.42121
▁ወደፊት	-9.42128
▁ማር	-9.42141
ዖ	-9.42287
▁ጽ	-9.42343
ኃጢአ	-9.42487
ab	-9.42516
▁በቀላሉ	-9.4255
▁ሜባ	-9.42639
▁የስልክ	-9.42643
▁መሰረት	-9.42724
ገራ	-9.42748
49	-9.42793
▁ድንጋይ	-9.42809
▁አድርገው	-9.42809
▁d	-9.42832
▁የመኪና	-9.4286
ቺ	-9.42882
▁ይገ	-9.42977
ቆየ	-9.42983
ላንድ	-9.43001
▁ረዳት	-9.43123
▁ይጠ	-9.43124
ናገር	-9.43135
ሰል	-9.43147
▁ተጠ	-9.43215
ደርስ	-9.43285
▁ምርመራ	-9.43296
▁የጤና	-9.43367
▁ማረፊያ	-9.43419
▁ቆ	-9.4347
▁ብል	-9.43496
ስቡ	-9.43499
▁ስት	-9.43507
▁ዛፍ	-9.43708
57	-9.43739
ደብ	-9.43811
▁በሚያ	-9.43817
▁አለባቸው	-9.43893
▁አቅራቢ	-9.43904
IN	-9.4392
▁ቪዛ	-9.44106
▁በነገሩ	-9.44119
▁ዶ	-9.44187
▁ይዘት	-9.44202
▁በመካከላቸው	-9.44271
ነካ	-9.44455
▁ቅን	-9.44458
▁CNC	-9.44474
est	-9.4448
▁ማወቅ	-9.44556
ደራ	-9.44594
os	-9.44674
▁ማህበራዊ	-9.44723
▁ሌሊት	-9.44788
▁ትኩረት	-9.44805
▁ቅናሽ	-9.44832
▁በግልጽ	-9.44846
▁መሳሪያ	-9.44983
od	-9.45069
ie	-9.45265
ong	-9.45271
▁የሕክምና	-9.4532
cm	-9.45345
▁አሸናፊ	-9.45365
▁ከሓዲዎች	-9.45474
▁አባል	-9.45515
▁ስቴትስ	-9.45551
▁ፕሮጀክት	-9.45589
▁for	-9.45669
88	-9.45679
▁ግራ	-9.45854
▁ሁለተኛ	-9.45957
▁ምላሽ	-9.45989
▁መምሪያ	-9.4604
ex	-9.46081
ሰቡ	-9.46082
mp	-9.46116
ቅዱ	-9.46147
ጠነ	-9.46294
▁ስብሰባ	-9.46467
▁አባ	-9.46519
▁ያላ	-9.46636
▁ቪ	-9.46746
▁ለእ	-9.46761
▁ሄደ	-9.46844
ell	-9.46919
ive	-9.4694
መለከቱ	-9.46967
ቆም	-9.46977
▁አስተያየቶች	-9.4707
▁ሁኔታዎች	-9.47078
able	-9.47079
09	-9.4713
47	-9.47174
▁ሁለቱም	-9.47218
▁ደብዳቤ	-9.47252
▁ስሙ	-9.47432
ሰሙ	-9.47568
▁ያሳ	-9.47603
▁ዓላማ	-9.47605
▁ኳስ	-9.47642
▁ስብስብ	-9.47708
▁መተግበሪያ	-9.47836
ian	-9.4784
▁ስለሚ	-9.47878
▁ስሜት	-9.47979
▁አጠቃቀም	-9.48089
▁አንቀጽ	-9.48092
ion	-9.48114
▁ቫልቭ	-9.48164
▁ይሆን	-9.48185
»	-9.48275
▁ሰይጣን	-9.483
▁ምናልባት	-9.48348
ገኘ	-9.48373
▁ወዳ	-9.48395
▁ኤም	-9.48444
ከራ	-9.48445
ከብ	-9.48485
▁እውቀት	-9.48533
▁ቀጥተኛ	-9.48599
500	-9.48605
▁ዳርቻ	-9.48624
▁መጋቢት	-9.48686
ገብ	-9.48818
▁ኡሁ	-9.48828
▁ማቅረብ	-9.48839
▁ሀብት	-9.48906
▁የአካባቢ	-9.48921
ዲያ	-9.48922
ደርጉ	-9.48953
▁ወሬ	-9.49005
ለጥ	-9.49092
ያዙ	-9.49191
▁አመ	-9.49329
73	-9.49329
ማይ	-9.4938
▁አልሉ	-9.49394
▁St	-9.49412
▁ግንባታ	-9.49498
ሰማያትና	-9.49529
▁በእሳት	-9.49579
▁ባህሪያት	-9.49648
▁ልምድ	-9.49652
▁ስላ	-9.49817
▁ርዝመት	-9.49829
▁በቂ	-9.50093
ag	-9.50131
▁ይገባል	-9.50132
▁ፕላስቲክ	-9.50138
ኖረው	-9.50165
▁የወ	-9.50192
▁ነሐሴ	-9.5039
▁2010	-9.50465
ችሁን	-9.50558
▁አባት	-9.50563
ፋት	-9.50665
▁ዴ	-9.5088
▁መብቶች	-9.5096
▁የኦ	-9.51055
▁Ningbo	-9.51143
▁32	-9.51143
na	-9.51279
up	-9.51282
▁Windows	-9.51367
▁ነገ	-9.51377
▁ክርስቲያን	-9.51405
▁APK	-9.51427
▁ልጥፍ	-9.51526
ልቅ	-9.51576
▁ድረ	-9.51594
ችሁም	-9.5178
74	-9.51792
▁ማስታወቂያ	-9.51793
▁ለምሳሌ	-9.51796
▁ባሪያ	-9.5198
▁ቀደም	-9.52052
▁ከእግዚአብሔር	-9.5207
ነበረ	-9.52182
man	-9.52252
▁ዲግሪ	-9.52294
me	-9.52302
▁አሥራ	-9.52424
ችል	-9.52487
ጮ	-9.52559
▁ግዛት	-9.52674
▁ይፋ	-9.52821
▁መጥ	-9.5283
በቃ	-9.52841
▁ዋስትና	-9.52858
▁በብዙ	-9.52863
om	-9.52874
▁በትንሣኤ	-9.52954
ሜይል	-9.52973
መኑ	-9.53003
▁ክንድ	-9.53055
ያዝ	-9.5314
▁አማልክት	-9.53154
የተ	-9.53201
▁እርስ	-9.5333
ti	-9.53359
▁አቤቱ፥	-9.53438
▁በእርስዎ	-9.53587
52	-9.53594
ቀጥ	-9.53674
▁ይዘ	-9.53683
▁እንጀራ	-9.5379
41	-9.5382
▁ይቀ	-9.53845
44	-9.53848
’	-9.53921
ጡት	-9.54031
▁ብዬ	-9.54041
▁ጥቅምት	-9.54077
▁ነበረ፤	-9.54263
▁የዘ	-9.54269
▁ሠራተኞች	-9.54426
53	-9.54456
▁በቀን	-9.54504
▁የቴክኒክ	-9.54597
59	-9.54602
▁Ro	-9.54675
▁ሰጠ	-9.5471
ሇ	-9.5475
▁እንድ	-9.54755
▁ጥገና	-9.54802
▁የኾኑ	-9.54844
ተካ	-9.54895
ፈጸም	-9.54943
▁ይችላል።	-9.54967
▁ከእርሷ	-9.54977
ard	-9.55026
▁መቼ	-9.55046
▁አማርኛ	-9.55068
▁ጥንካሬ	-9.55192
51	-9.55311
▁አይችልም	-9.55384
ከለ	-9.55436
▁ጎን	-9.55479
ጠበቅ	-9.55505
▁ማየት	-9.55512
ስቶ	-9.55532
he	-9.55548
48	-9.55584
ገሩ	-9.55614
ኸ	-9.5562
▁ባለሙያዎች	-9.55645
▁አላህንም	-9.55648
ላችኋል	-9.55687
AR	-9.55723
መለ	-9.55729
▁ንጹሕ	-9.55784
▁ሪፖርት	-9.55785
▁እነዚያንም	-9.55885
▁ያካትታል	-9.55982
▁ኬ	-9.56014
ፊያ	-9.56052
100	-9.56159
▁ምሕረት	-9.56258
▁ተጠቃሚዎች	-9.56379
▁ግፊት	-9.56383
0,000	-9.56397
▁ቅር	-9.56429
▁CO	-9.56513
▁ባሕር	-9.56653
▁መድረክ	-9.56774
ቬ	-9.56778
▁ተገ	-9.5682
ቭ	-9.56821
▁ቋሚ	-9.56943
;&	-9.56948
▁ቦርድ	-9.56983
▁ውይይት	-9.57069
▁ሰከንዶች	-9.57078
ቀል	-9.57157
di	-9.57225
ፈልግ	-9.57257
▁ይባላሉ	-9.57279
ቀበል	-9.57299
ሾች	-9.57346
▁ንጉሡም	-9.57493
ዔ	-9.57581
▁አውሮፓ	-9.57587
ኞቹ	-9.57642
ዣ	-9.57666
▁አረንጓዴ	-9.57704
▁2012	-9.57718
89	-9.57727
▁የፖለቲካ	-9.57766
▁ዘውታሪዎች	-9.57769
እኔ	-9.57866
▁የሚሻውን	-9.57896
em	-9.58064
="4	-9.58066
▁ግንቦት	-9.5813
▁ቻይ	-9.58156
▁ቺፕ	-9.58189
▁አያውቁም	-9.58194
▁ሠራ	-9.58249
ችንን	-9.58279
ist	-9.5835
▁ቡ	-9.58374
▁እንዲሆን	-9.58449
▁ለአንተ	-9.58497
org	-9.58512
ስኮ	-9.58624
ተኛው	-9.58738
ቻችሁ	-9.58746
▁ቅንጅቶች	-9.58797
▁ለናንተ	-9.58901
▁በከፍተኛ	-9.58915
▁EA	-9.58924
56	-9.59054
▁መውሰድ	-9.59104
▁መስከረም	-9.59201
መልካ	-9.59211
▁ችግሮች	-9.59309
▁ዕድሜ	-9.59412
▁የኾነን	-9.5943
▁‹	-9.59441
ቆች	-9.59585
▁t	-9.59606
ሰሩ	-9.59635
▁ርዕስ	-9.5972
▁ውሳኔ	-9.5972
▁ሳጥን	-9.59721
▁መተግበሪያዎች	-9.59739
›	-9.59808
61	-9.59949
▁ስድስት	-9.60034
▁እርሱም።	-9.60073
ቀረ	-9.60119
▁ዋናው	-9.60124
▁አማራጮች	-9.60134
▁በቀጥታ	-9.60134
▁ነፋስ	-9.60144
▁ጂ	-9.60148
▁እስራኤል	-9.60182
ነር	-9.60234
▁አስተማማኝ	-9.60236
ve	-9.60358
ሰረ	-9.60445
no	-9.60479
-8	-9.60529
ጠቀ	-9.60572
ረብ	-9.60632
▁ነጥብ	-9.60654
▁መነሻ	-9.60657
▁ጥበበኛ	-9.60666
መካ	-9.6067
type	-9.60759
ub	-9.60775
81	-9.60912
ፔ	-9.60924
▁በላጭ	-9.60973
qu	-9.61049
▁ቀጠሮ	-9.61059
▁ረጅም	-9.6106
ha	-9.61118
▁አይደለም።	-9.61121
▁ጌ	-9.61121
▁ኤስ	-9.61147
▁ንቁ	-9.6115
▁የምስክር	-9.61171
▁ምክሮች	-9.61172
▁ከርሱ	-9.61283
-10	-9.61331
ሳችሁ	-9.61401
▁በጌታ	-9.61416
ሩት	-9.61433
▁የጋራ	-9.61439
▁በአንተ	-9.61558
ጠና	-9.61617
ዳችሁ	-9.6166
▁ሙሳ	-9.61666
▁በሰው	-9.61809
▁የእርሱ	-9.61822
▁ማመልከቻ	-9.61868
▁150	-9.61878
መለከት	-9.6202
በራ	-9.6205
ሙት	-9.62097
▁ክፍት	-9.62106
▁በፍጥነት	-9.62116
ጠፉ	-9.62246
▁የሽያጭ	-9.62246
▁በእውነቱ	-9.62432
ነጋ	-9.62471
▁ነገሩ	-9.62478
▁ደራሲ	-9.62541
ገኘው	-9.62553
▁ፖሊሲ	-9.62596
▁ስህተት	-9.62644
ቀርብ	-9.62646
ቤል	-9.62714
▁የአላህን	-9.62764
ቆሙ	-9.62853
▁ፍለጋ	-9.62856
ቀመጥ	-9.62905
▁የአሜሪካን	-9.62948
ዳር	-9.62966
▁ለሰዎች	-9.62982
▁ያሉትን	-9.63009
ess	-9.63044
ደል	-9.63151
ጠጣ	-9.63158
▁አማካኝነት	-9.63175
▁ቃላት	-9.63181
pl	-9.63232
▁የጌታ	-9.63406
▁በሁሉም	-9.63442
▁ወንዞች	-9.63496
63	-9.63497
▁ማህበረሰብ	-9.63498
▁ንግግር	-9.63512
ከተል	-9.6357
▁በአላህም	-9.63593
▁በሰማያት	-9.63691
ለፍ	-9.63708
ህወሀት	-9.6371
▁ከሰዓት	-9.63891
▁አስተ	-9.63924
▁እስከሚ	-9.63971
▁ዶሴ	-9.64085
ft	-9.64147
▁ትውልድ	-9.64167
▁የእሳት	-9.64173
ዘረጋ	-9.64235
▁ይልቁንም	-9.64257
▁ይህች	-9.64302
ሴት	-9.64309
▁አሉ።	-9.64325
42	-9.64426
▁ዲዛይን	-9.64585
▁ፖ	-9.64613
▁እንደሚያ	-9.64619
▁ይሰ	-9.6466
▁1000	-9.64685
▁ወንዝ	-9.64689
ወራ	-9.64841
ni	-9.64868
▁አመሰግናለሁ	-9.64895
▁ትልቁ	-9.65004
▁አካ	-9.65007
▁ኣ	-9.65018
ኣ	-9.65047
▁ጣቢያዎች	-9.65073
▁ወይን	-9.65207
87	-9.6525
ቸዋለሁ	-9.6531
▁ፓነል	-9.65331
▁The	-9.6538
ፋይ	-9.65399
97	-9.65433
▁ቁሳቁሶች	-9.65438
▁በእጅ	-9.65457
▁ተወ	-9.65498
▁በኢ	-9.65537
ኖረ	-9.65624
▁አስማሚ	-9.65658
▁ስፋት	-9.65675
▁የላቀ	-9.65698
ዐ	-9.65778
ET	-9.65864
▁ለማየት	-9.65886
ack	-9.65901
ስተር	-9.65938
ፍረ	-9.65956
▁አሰ	-9.65984
▁ሀገር	-9.66029
▁ወደርሱ	-9.66032
▁ታዲያ	-9.66063
ነሱ	-9.66094
age	-9.66105
43	-9.6618
▁ከላይ	-9.66263
ልቴጅ	-9.66313
▁ገሀነም	-9.66314
▁የካቲት	-9.66314
ip	-9.66316
▁ኾነ	-9.66377
▁መጠ	-9.66424
▁ማጣሪያ	-9.66428
▁ዕድል	-9.66436
ash	-9.66541
▁ባቡር	-9.66646
▁አድርጓል	-9.66755
▁De	-9.66795
▁ሰማ	-9.66813
6"	-9.66886
▁ጀ	-9.66916
▁ኤል	-9.67006
ባብ	-9.6706
▁ውሂብ	-9.67087
▁በራስ	-9.67141
▁ትክክል	-9.67198
▁እነሱን	-9.672
▁አመጣ	-9.6728
▁ቡድኖች	-9.67309
▁ጥቅሞች	-9.67309
▁ISO	-9.67318
▁አገኘ	-9.67764
▁Ma	-9.67824
96	-9.67863
▁ደስታ	-9.67867
▁የነበሩትን	-9.67929
▁አገልጋይ	-9.67977
▁ማሸግ	-9.67978
ቤቱ	-9.68062
▁ለሁሉም	-9.68201
▁ስምምነት	-9.6822
▁ሕ	-9.68243
ላለ	-9.68262
ኮች	-9.68268
▁ንባብ	-9.68279
▁ከእስራኤል	-9.68313
▁እድገት	-9.68313
▁እኩል	-9.68319
▁ያለበት	-9.68428
76	-9.68431
▁http	-9.68432
▁በማንኛውም	-9.6848
79	-9.68523
▁የማይዝግ	-9.68569
ባቸዋል	-9.68584
da	-9.68629
▁አሳማሚ	-9.6865
▁ልታ	-9.68698
ጠብቅ	-9.6872
▁ሙከራ	-9.6881
▁የሚፈልጉ	-9.6881
▁መለያዎች	-9.68825
▁በመቶ	-9.68837
▁ኮሌጅ	-9.68876
ፈታ	-9.68916
io	-9.6901
ዋለሁ	-9.69039
▁ሥር	-9.69055
▁እንደተ	-9.69065
ሏቸው	-9.69098
ገነ	-9.69159
ዘዝ	-9.69162
▁ሞተ	-9.69184
ፈል	-9.69191
▁ግድግዳ	-9.69215
▁ያልሆነ	-9.69227
▁በሕይወት	-9.69289
AN	-9.69304
ረኛ	-9.69321
▁ኩባንያዎች	-9.6934
',	-9.69405
▁እንዳት	-9.69406
▁ወጪ	-9.69407
ረከ	-9.69444
▁ስፖርት	-9.69453
▁ኢየሩሳሌም	-9.69668
▁አይችሉም	-9.69668
▁አደረግን	-9.69687
▁ስጦታ	-9.6972
ዬን	-9.6976
▁Q	-9.69767
▁የምንዛሬ	-9.69782
ወረደ	-9.69857
▁ሄ	-9.69908
▁ከዚህም	-9.69913
▁ድል	-9.69943
▁ቋንቋዎች	-9.69951
ቶቻችን	-9.69953
AT	-9.70072
end	-9.70082
▁ለእስራኤል	-9.70124
ph	-9.70125
ለሁ፤	-9.70143
▁በዘ	-9.70206
▁ተደርጓል	-9.70238
መሩ	-9.70249
▁መካከለኛ	-9.70302
▁ሩሌት	-9.70353
▁be	-9.7038
78	-9.70462
▁ዳዊትም	-9.70555
58	-9.70567
▁አስደናቂ	-9.70582
▁ደቡብ	-9.70586
ቀረበ	-9.70636
ታል።	-9.70697
▁ዓይን	-9.70707
ቧ	-9.70719
ላዊ	-9.7073
▁is	-9.70746
▁ውጤታማ	-9.70925
▁FS	-9.70978
▁አየሁ	-9.7099
ወቀ	-9.71076
▁ቅጣቱ	-9.7111
ሃለሁ	-9.7112
ታዩ	-9.71231
ብላ	-9.71239
▁ግብር	-9.71263
▁በተጨማሪ	-9.71301
ቨር	-9.7134
ይህ	-9.71343
ቀላ	-9.71352
▁ማስረጃ	-9.71379
ሞቱ	-9.71393
▁ጫማ	-9.71485
▁የሆነውን	-9.71513
ቍ	-9.71523
▁ጥሬ	-9.71536
▁ተናገረ	-9.71603
ለያዩ	-9.71779
ከባ	-9.71783
les	-9.71854
ወርድ	-9.71966
▁ማሽኖች	-9.71969
ራቅ	-9.71982
▁በነበሩት	-9.72043
▁የተነሣ	-9.72065
▁ክፍያዎች	-9.72085
▁ያዘ	-9.72162
▁ጉብኝት	-9.72202
82	-9.72296
ሮቹ	-9.72297
▁እግር	-9.72451
62	-9.72453
▁የተጠበቀ	-9.72539
▁በአየር	-9.72561
ai	-9.72567
▁ጥረት	-9.72575
▁ኢየሱስም	-9.72682
▁አዲሱ	-9.72686
+	-9.72721
ወጥ	-9.72726
▁ደህና	-9.72795
ci	-9.72804
-5	-9.72812
▁የሚገኙ	-9.72846
ደጋ	-9.72853
ጥቅ	-9.72903
▁ተመልከት	-9.72905
="5	-9.72916
▁ለመፍጠር	-9.7295
ጠመ	-9.73011
ሔ	-9.73019
▁ዕቅድ	-9.73022
▁መሪዎች	-9.73045
XL	-9.73055
▁ከፋ	-9.73076
▁የከተማ	-9.73078
▁ሳምንት	-9.73139
▁ርቀት	-9.73154
▁ቢሮ	-9.73193
▁ፓርቲ	-9.73205
▁ግል	-9.73248
▁ተኳሃኝ	-9.73257
▁ፈሳሽ	-9.73375
▁you	-9.73537
au	-9.73547
ችኋለሁ	-9.73554
▁ለእርሱም	-9.7356
▁ፀረ	-9.73581
▁እናቀርባለን	-9.73611
▁አቅጣጫ	-9.73611
▁80	-9.7375
▁አሉት።	-9.73785
ባሉ	-9.73849
ru	-9.74009
ሷ	-9.74065
IS	-9.74072
▁ጠራ	-9.74081
▁ጭፍሮች	-9.74085
▁ያውቃሉ	-9.74086
▁ጫፍ	-9.74105
tic	-9.74174
▁ወጥ	-9.74188
▁ገብ	-9.74219
ባይ	-9.74285
▁ቁማር	-9.74355
▁ክር	-9.74479
ከሰ	-9.74587
ነግ	-9.74664
ቲክ	-9.74702
▁ቅርጽ	-9.74726
▁ጋዝ	-9.74749
cc	-9.74878
64	-9.74881
ov	-9.74884
▁ፓምፕ	-9.74922
▁ይመጣል	-9.74944
ራራ	-9.74978
mg	-9.75054
▁ከምድር	-9.75069
min	-9.75108
▁መፍጠር	-9.75155
▁ገባ	-9.75167
ገናኙ	-9.75169
▁አስተዳዳሪ	-9.75234
▁ይሄ	-9.75253
і	-9.75275
▁ሳን	-9.75401
▁በቅርቢቱ	-9.75401
▁ቀጥ	-9.75425
tage	-9.75441
▁ታች	-9.75451
▁ቢኾን	-9.7551
▁ቀዳሚ	-9.75524
92	-9.75713
▁90	-9.75888
▁በተለይ	-9.7592
ሰባ	-9.75988
ጠይቅ	-9.76031
ጋሪ	-9.76055
▁on	-9.76093
q	-9.76103
port	-9.76157
▁ካለ	-9.76193
▁የፀሐይ	-9.76247
go	-9.7625
▁ይሁዳ	-9.7625
ኸው	-9.76251
▁በዚያን	-9.76261
der	-9.76394
▁ፎቶዎች	-9.7643
ኢዮ	-9.76528
▁ራስ	-9.76541
▁እይታ	-9.76552
▁ብን	-9.76592
ያውቁ	-9.76604
▁የእስራኤልን	-9.76612
ታዘዝ	-9.76619
sh	-9.76637
▁ላከ	-9.76659
ance	-9.7666
eng	-9.76674
ለዋል	-9.76682
▁ስነ	-9.76702
ቀደ	-9.76769
▁ፕሮ	-9.76837
▁ጆሮ	-9.76841
▁ጦርነት	-9.76855
300	-9.76869
ስቲ	-9.7688
▁ኤሌክትሪክ	-9.76938
▁ወንድሞች	-9.77105
ሞቹ	-9.77128
▁በእነሱ	-9.77129
▁USD	-9.77153
ከሩ	-9.77228
▁ደቂቃ	-9.77302
▁ዘዴ	-9.77303
▁ሽልማት	-9.77347
8"	-9.77435
ቃሉ	-9.77455
▁ተፈጥሯል	-9.77469
መልስ	-9.77476
▁ባሉ	-9.77489
▁ያስተ	-9.77529
▁ተሞክሮ	-9.77715
▁ባለብዙ	-9.77715
ነጻ	-9.77732
▁2011	-9.77785
▁ጠጅ	-9.77854
91	-9.7789
▁በተመሳሳይ	-9.77927
ስማማ	-9.77934
ይቱን	-9.77975
ባዊ	-9.78103
ጕ	-9.78166
▁Casino	-9.78172
▁ንብርብር	-9.78211
46	-9.78313
▁ቁቃፊ	-9.78333
▁ፊልም	-9.78351
▁ማለ	-9.78392
ba	-9.78429
ox	-9.78474
ጨምር	-9.78539
▁አምላክህ	-9.78573
▁የተሰጠው	-9.78585
▁የደህንነት	-9.78623
▁ምስል	-9.78638
ወገ	-9.78679
▁ጨርቅ	-9.78709
93	-9.78732
▁የፈጠረ	-9.78832
▁የወይን	-9.7886
84	-9.78891
ሻል	-9.78948
▁የኤ	-9.79036
ጆቹ	-9.79036
ቆይ	-9.7913
▁ባንክ	-9.79139
▁በሽታ	-9.79183
▁Facebook	-9.79205
▁ስትራቴጂ	-9.7933
▁አንዳች	-9.79375
▁ጥፋት	-9.79398
▁ምስሎች	-9.79457
መልከ	-9.79477
▁ካርታ	-9.79543
▁ጃ	-9.79582
ጣራ	-9.79624
▁ፈጠራ	-9.79659
ل	-9.79706
▁የሆነው	-9.79756
▁ባላ	-9.79781
▁አፈጻጸም	-9.79832
▁ድንኳን	-9.79832
ነጋገር	-9.79853
▁ያልሆኑ	-9.79863
ዎቻችን	-9.79905
94	-9.7996
ኩት	-9.79962
▁የእነዚያ	-9.79975
▁፪	-9.79986
▁AC	-9.79996
sk	-9.80121
ሬት	-9.80155
ጠቀም	-9.8016
▁እንዳል	-9.80182
oo	-9.80197
▁ይሠሩት	-9.80206
▁ይምረጡ	-9.80211
air	-9.80219
▁የነበረው	-9.80391
▁ግዴታ	-9.8046
▁መዋቅር	-9.80464
▁የስፖርት	-9.80596
በረታ	-9.80612
▁በፍጹም	-9.80717
▁ጠባቂ	-9.80809
ev	-9.80851
ሚሜ	-9.80972
▁ሁለተኛው	-9.8103
ደርገው	-9.81041
▁ሂ	-9.81108
▁በሰማይ	-9.81169
▁ሮድ	-9.81219
▁ማንኛውንም	-9.81227
▁ስትኾኑ	-9.81242
▁ጉባኤ	-9.81279
▁እርም	-9.8129
ፈት	-9.81346
ا	-9.81354
▁ውብ	-9.814
▁ባህሪ	-9.81473
▁ቢያንስ	-9.81507
▁የመጨረሻ	-9.81532
ለቀ	-9.81533
ng	-9.81579
▁ባትሪ	-9.81594
▁ቀኖች	-9.81684
▁የአውሮፓ	-9.81698
ዱት	-9.81844
▁iPad	-9.81867
▁ወጣት	-9.81905
▁በኾነ	-9.81946
ı	-9.81995
▁ወንጌል	-9.81995
fe	-9.82022
▁የሠራዊት	-9.82125
ሠሩት	-9.82176
▁300	-9.82201
ቸዋለን	-9.82205
ረክ	-9.82226
▁የኮ	-9.82281
▁አሳይ	-9.82352
▁አብዛኞቹ	-9.82382
ጎች	-9.82384
▁ሲሉ	-9.82462
▁በማስ	-9.82498
▁ነው፡፡	-9.82554
መታ	-9.82584
▁ለእናንተም	-9.82598
pro	-9.82609
አባ	-9.82622
▁እርግጠኛ	-9.8264
our	-9.82644
▁እነሆም፥	-9.82669
▁ሕክምና	-9.8273
▁፩	-9.82767
▁የተለየ	-9.82778
▁ገነቶች	-9.82787
ሻው	-9.8279
▁መመለሻ	-9.82816
▁ቅንብሮች	-9.829
▁ነገድ	-9.82917
▁ማያ	-9.82997
ሳሉ	-9.83005
ለያ	-9.83027
▁ስብ	-9.8303
▁ድርብ	-9.83102
▁በሻ	-9.83147
▁በኢየሩሳሌም	-9.83182
▁አወጣ	-9.83198
▁ሌላው	-9.83216
▁በተለያዩ	-9.83231
አር	-9.83287
if	-9.83323
▁ባንተ	-9.83326
ነታቸው	-9.83331
▁ይፈ	-9.83331
ጠፍ	-9.83334
▁መስክ	-9.83337
▁ሥልጣን	-9.83421
▁የውስጥ	-9.83444
ጻፍ	-9.83482
▁ቧንቧ	-9.83551
▁በራሱ	-9.83574
▁Le	-9.83582
ረዋል	-9.83632
ጠባ	-9.83709
2019	-9.83889
▁La	-9.83912
▁ማሳ	-9.84024
▁ተደ	-9.8407
ካይል	-9.84073
▁ያደረገ	-9.84077
ጣጣ	-9.84094
ይዝ	-9.84097
▁Me	-9.841
▁መልክተኞች	-9.84104
ወዳ	-9.8418
▁ኮር	-9.84181
▁አጠፋ	-9.84204
▁Free	-9.84233
54	-9.84258
በተ	-9.8434
ገላ	-9.84412
▁አስፈራሪ	-9.8443
ያችሁ	-9.84497
▁ስትኾን	-9.84619
▁በእነርሱም	-9.84684
▁ውስጣዊ	-9.84733
ነቀ	-9.84764
▁የአሁኑ	-9.84776
-0	-9.84778
ጸና	-9.84798
ѕ	-9.84846
▁ትርፍ	-9.84867
0.0	-9.84875
▁ሞባይል	-9.84896
KV	-9.85121
lu	-9.85136
▁ያገኛሉ	-9.85264
▁ከሌሎች	-9.85265
ins	-9.85304
▁ቅጥ	-9.85351
▁ሚዛን	-9.85403
▁እውነታ	-9.85446
ob	-9.85458
▁ለርሱ	-9.85503
ነፋ	-9.85537
▁መልእክት	-9.8554
ነገ	-9.85556
▁መኖር	-9.85577
▁ራሱን	-9.85581
▁ነገሥታት	-9.85641
▁Ba	-9.85652
እንግሊዝ	-9.8566
▁ከአላህም	-9.85726
PS	-9.85778
ወል	-9.85795
▁ሰነዶች	-9.85797
▁መብራት	-9.85802
▁ህዝብ	-9.85803
hi	-9.85869
ዕድ	-9.85887
pp	-9.85889
▁ያደርገዋል	-9.8593
res	-9.85931
መልክ	-9.85973
ec	-9.85983
▁ተመለሱ	-9.85994
ቀቅ	-9.85997
ጥሩ	-9.86036
▁ብዙዎች	-9.8605
▁ጓደኛ	-9.8607
EC	-9.86138
▁250	-9.86144
▁ተቀባይነት	-9.8615
▁እርስዋም	-9.86153
sc	-9.86194
▁ቅድሚያ	-9.86198
▁በናንተ	-9.86203
ርሱ	-9.86218
po	-9.86258
▁ለመስጠት	-9.86334
▁በአላህና	-9.86364
ዋንም	-9.86418
▁አካላት	-9.86495
▁2000	-9.86541
▁የጉዞ	-9.86603
▁ንቅሳት	-9.8661
▁ሂድ	-9.86625
▁ጠላት	-9.86697
kg	-9.86708
ላቸዋል	-9.86838
ለሁ፥	-9.86846
▁የይሁዳ	-9.86871
▁አልተቻለም	-9.86871
ይቱም	-9.86876
ጠቀሙ	-9.86881
▁ፈርዖን	-9.86985
▁በእነዚያ	-9.87024
ነዳ	-9.87029
ቆዩ	-9.87076
ቅጣ	-9.87093
ጥበብ	-9.87124
▁በይሁዳ	-9.87142
▁ብላ	-9.87247
▁መልዕክት	-9.87273
ዑ	-9.87275
▁ባየ	-9.87309
mi	-9.87311
▁አውራ	-9.87328
ነቶች	-9.87351
▁መከላከያ	-9.87404
ፖርት	-9.87417
▁አዎ	-9.8746
▁ምዝገባ	-9.87549
cl	-9.87554
ወረ	-9.87608
ass	-9.87683
▁ቁር	-9.87711
▁ባዶ	-9.87761
▁Se	-9.87802
▁ምሕረትን	-9.8785
▁ቆዳ	-9.87855
ሰማያትንና	-9.87931
ዚያ	-9.87954
▁ብክለት	-9.87957
▁እምላለሁ	-9.87958
አልና	-9.87959
ፊት	-9.87974
▁የሙያ	-9.88008
▁ቅርብ	-9.88024
▁አለመ	-9.88048
▁የነበሩ	-9.88064
▁ሠ	-9.88089
▁አገናኝ	-9.88134
▁ተማሪ	-9.88189
▁ተጽዕኖ	-9.88231
▁ወዲያውም	-9.88243
ኮር	-9.88253
▁ምስክር	-9.8833
▁በጌታቸው	-9.88353
▁FX	-9.88364
▁ልውውጥ	-9.88368
ዝግ	-9.88399
AL	-9.88458
5%	-9.88465
▁የሚችሉ	-9.88487
▁ወዲህ	-9.88506
ጨር	-9.88607
ቃቸው	-9.88637
▁e	-9.88652
ተኞቹ	-9.88704
▁እንደዚሁም	-9.88755
▁በቃ	-9.88789
▁ዝግጁ	-9.88789
ton	-9.88929
ዋችሁ	-9.88937
lic	-9.88978
▁ዩኒቨርሲቲዎች	-9.89053
▁አልባ	-9.89121
▁ሰብ	-9.89139
▁መሰረታዊ	-9.89194
▁ቁመት	-9.89196
▁በዓል	-9.89221
▁ክወና	-9.89332
-6	-9.89367
ጊዜ	-9.89415
▁ሀያ	-9.89505
▁ወንድም	-9.89508
ማችሁ	-9.89514
▁እሷ	-9.89515
▁መጥቶ	-9.89583
▁አጭር	-9.8962
▁ያዙ	-9.89627
▁ግብ	-9.89678
ud	-9.89739
ሰጣቸው	-9.89815
83	-9.89865
▁የተሰራ	-9.8994
▁ዩክሬን	-9.90026
ነዚያ	-9.90051
▁ጥልቅ	-9.90066
▁አስታውሱ	-9.90149
▁አልላቸው	-9.90214
▁ቢል	-9.90269
ፈልገው	-9.90297
▁Chapter	-9.90305
▁ደመና	-9.90328
▁Play	-9.9033
▁አብረው	-9.90349
ቀበሉ	-9.90387
ወረድ	-9.904
▁con	-9.90405
▁የተሰ	-9.90409
▁ደግ	-9.90432
ቻለሁ	-9.90518
▁በአጠቃላይ	-9.90545
▁አውታረ	-9.90585
▁ሰራተኞች	-9.90586
ገጽ	-9.90611
ኋቸው	-9.90659
▁ውፍረት	-9.90726
▁ዜጎች	-9.90726
▁ዝም	-9.90732
ያዊ	-9.90747
ሰለ	-9.90806
▁ማነው	-9.90826
ጥረ	-9.90847
pa	-9.90858
▁ለማሻሻል	-9.90866
ክሩ	-9.909
▁ቅድመ	-9.90911
▁የፈጠራ	-9.90922
▁የጦር	-9.90932
▁ከአንድ	-9.90976
ሏ	-9.91003
ኪያ	-9.91193
▁ሕዝቡም	-9.91251
▁ኤች	-9.91258
▁የዕ	-9.91258
▁የድር	-9.91377
ማሩ	-9.91412
▁የሚለው	-9.91413
▁እድል	-9.91467
ብረት	-9.915
▁45	-9.91551
▁እሱን	-9.91558
tt	-9.91559
▁ቍርባን	-9.91571
▁ወጣ	-9.91627
ጠጡ	-9.9171
ጥራ	-9.91721
▁ኤክስ	-9.91772
▁በሌሊት	-9.91855
▁የመንጃ	-9.91863
▁የቪዲዮ	-9.91966
▁ተገዙ	-9.9198
▁የላቸውም	-9.92025
ቀርቡ	-9.92026
▁ታላቁ	-9.92101
▁Sp	-9.9211
▁ተመን	-9.9213
▁ያዝ	-9.92156
ll	-9.92185
▁አመጸኞች	-9.92282
▁የህዝብ	-9.9233
ዘው	-9.92339
▁አዘጋጅ	-9.92348
▁ሙሴም	-9.92449
ዓት	-9.92452
▁ሶስት	-9.92481
▁ታህሳስ	-9.92567
▁ፕሮጀክቶች	-9.92567
▁አስቀድሞ	-9.92584
▁አስቸጋሪ	-9.9271
▁መሠረታዊ	-9.9271
ላኩ	-9.92754
▁ብሉ	-9.92771
ጎዳ	-9.9278
tr	-9.92831
▁የመኖሪያ	-9.92847
▁36	-9.92897
▁ጀርመን	-9.92941
▁የመረጃ	-9.92988
ga	-9.93041
▁ውድ	-9.93044
▁የለም።	-9.93054
▁ጓዶች	-9.93142
▁ናሙና	-9.93143
▁Sh	-9.93181
ለይ	-9.93211
iv	-9.93239
▁33	-9.93243
▁መልአክ	-9.93284
▁በልቦቻቸው	-9.93285
▁ዩሮ	-9.93456
ቀመጡ	-9.93512
ባባ	-9.93524
▁አመራር	-9.93577
▁አስቀምጥ	-9.93641
▁ቤተሰቦች	-9.9372
▁ልጁ	-9.93801
▁ሚኒስትር	-9.93862
▁አሸናፊው	-9.93862
ak	-9.93895
ster	-9.9391
▁ጨለማ	-9.93918
we	-9.93926
ተጨማሪ	-9.93944
▁ቤተሰብ	-9.93987
▁መስመሮች	-9.94007
▁ልዩነት	-9.94014
ገዢ	-9.94064
▁የራስ	-9.94083
▁ስልጣን	-9.9409
act	-9.94106
▁ያመኑት	-9.9411
ቃችሁ	-9.94137
▁ህይወት	-9.94162
ጀት	-9.94198
ጠብቁ	-9.94209
▁የተመሠረተ	-9.94219
▁34	-9.94257
▁ውጣ	-9.94298
ዎቹን	-9.94414
ጊያ	-9.94501
▁Microsoft	-9.94589
▁አድርገን	-9.94591
ግሩ	-9.94608
▁Vi	-9.94613
▁በፊቱ	-9.94645
ow	-9.94675
መቻ	-9.94697
▁ምንጮች	-9.94704
ኀ	-9.94732
▁ከእናንተም	-9.94788
▁በእርሷም	-9.94826
አንድ	-9.94861
ي	-9.94881
▁ኒው	-9.9489
ቀኝ	-9.94947
ሁ።	-9.94967
▁ጳውሎስ	-9.94972
▁ይነ	-9.95023
▁አማካሪ	-9.9503
▁ተጠቃሚ	-9.95077
ለች።	-9.95118
ድሮ	-9.95125
▁የእስራኤልም	-9.95134
▁በአውሮፓ	-9.95245
▁መጠበቅ	-9.95249
▁ስራዎች	-9.95275
▁አእምሮ	-9.95338
ጀምር	-9.95354
▁መርፌ	-9.95365
hu	-9.95412
▁ነቢዩ	-9.95468
ice	-9.95528
3.5	-9.95571
pf	-9.95572
▁እንቅስቃሴዎች	-9.95627
▁ላክን	-9.95635
▁ቍጣ	-9.95662
▁ከነሱ	-9.95714
ml	-9.95751
*	-9.95758
▁ህክምና	-9.95763
▁የሙቀት	-9.95764
▁የእጅ	-9.9577
ገዱ	-9.95775
▁መልክተኛው	-9.95817
▁ቪዲዮዎች	-9.95817
▁To	-9.95887
▁ሞዴሎች	-9.9591
▁ጠፍቷል	-9.95911
▁የፍቅር	-9.96061
ou	-9.96076
▁ያለንን	-9.96078
ጧ	-9.96106
ያለሁ	-9.96173
▁ይጠቀሙ	-9.96192
▁ምርጫዎች	-9.96204
▁መመለስ	-9.96214
ፕሮግራ	-9.9622
▁የአምላክ	-9.96227
▁መጽሐፉን	-9.96284
ገዳ	-9.96327
▁ምቹ	-9.9637
ያችን	-9.96497
ran	-9.96509
ሃይ	-9.96519
▁ውጪ	-9.96532
▁ጥላ	-9.96575
▁የሕዝብ	-9.96586
▁ፋይበር	-9.96653
▁125	-9.96758
▁ህግ	-9.96795
▁መለስ	-9.96816
▁አምሳ	-9.97068
ወይ	-9.97099
sp	-9.97154
▁ይተ	-9.9717
▁ቀኝ	-9.97197
▁በነጻ	-9.97227
▁መላኪያ	-9.9725
▁ነቢያት	-9.9725
nd	-9.97328
ሁ፥	-9.97384
▁ተግባራት	-9.974
▁ኢያሱ	-9.974
▁ደቀ	-9.9749
▁ለመሆን	-9.97571
ስገድ	-9.97593
ase	-9.977
▁ቅይጥ	-9.97701
▁ሙሳም	-9.97716
▁አሥር	-9.97814
yl	-9.97828
si	-9.97842
▁በየቀኑ	-9.97852
ፍጥ	-9.97913
▁ነፍሶቻቸውን	-9.97951
ኤፍ	-9.97986
line	-9.97996
▁እውነተኞች	-9.98002
MA	-9.9806
IC	-9.98087
▁ዕጣ	-9.98108
▁መሠዊያ	-9.98153
▁መመሪያዎች	-9.98158
▁አድር	-9.98179
▁ከጌታህ	-9.98244
▁የቀረበ	-9.98287
▁Generator	-9.98304
▁በርሷ	-9.98309
▁የሌለው	-9.98311
ea	-9.98322
ፕሮ	-9.98353
▁ካሬ	-9.98375
▁k	-9.9838
ቶቻቸውን	-9.98438
ኵ	-9.98439
2018	-9.98524
oc	-9.98542
▁ይመስላል	-9.98607
ሰጣችሁ	-9.98742
▁ፀሐይ	-9.98792
▁Be	-9.98808
▁ተለዋዋጭ	-9.98861
р	-9.98911
▁እርምጃዎች	-9.98995
▁በደል	-9.99003
▁መድሃኒት	-9.99031
▁ተናጋሪ	-9.99066
▁ሰዎቹ	-9.99076
▁ሙሴ	-9.99092
▁የማስ	-9.99127
▁ካለው	-9.99177
ሏል	-9.99202
▁ሚኒ	-9.99293
ሯ	-9.99308
▁መልሶ	-9.99336
▁ተከተሉ	-9.99336
sion	-9.99339
▁አይደለሁም	-9.99369
▁ጦማር	-9.99371
ሁለተኛ	-9.99371
▁እርሻ	-9.99382
-20	-9.99414
ke	-9.9946
▁ያጠ	-9.99475
▁ታውቃላችሁ	-9.99522
▁ያስፈልጋል	-9.99522
▁ይገኛሉ	-9.99527
▁ለማረጋገጥ	-9.99545
ሎቹ	-9.99556
▁ጄ	-9.99659
ዊው	-9.99685
▁ፈጣሪ	-9.99705
ans	-9.99729
▁70	-9.99789
ick	-9.99853
▁መለዋወጫዎች	-9.99925
ep	-9.9995
▁ከሚያ	-9.99973
ዒ	-9.99979
▁ሰዓታት	-9.99983
▁ያነሰ	-9.99989
ሃይማኖት	-10.0002
መለከ	-10.0009
▁ምንዛሬ	-10.0018
ኋ	-10.0021
▁ዓይኖች	-10.0023
▁የተነሳ	-10.0025
▁Da	-10.0028
ኘ	-10.0028
▁ይግቡ	-10.0034
ደሰ	-10.0035
▁ሹ	-10.0038
▁ጣዖታት	-10.0048
▁ከእነዚህ	-10.0052
▁የበረራ	-10.0061
▁ተጫዋቾች	-10.0076
ደቀ	-10.0078
hen	-10.0079
▁ሥራዎችን	-10.008
▁እንጨት	-10.0081
▁በእያንዳንዱ	-10.0083
▁መቀመጫ	-10.0089
ወሩ	-10.009
ብሪ	-10.0091
▁እፈልጋለሁ	-10.0091
እና	-10.0106
ደርሱ	-10.0109
▁ይሰማ	-10.0114
art	-10.012
▁ርስት	-10.0123
ጠል	-10.0124
▁አላችሁ	-10.0128
▁th	-10.0131
ስታን	-10.0131
▁ይቅር	-10.0134
▁መገለጫ	-10.0138
መስል	-10.0141
ካሄድ	-10.0146
▁ኃላፊነት	-10.0148
ቶቹን	-10.0149
▁ለውጦች	-10.0154
▁ስደተኞች	-10.0169
▁ያግኙን	-10.0171
ጦች	-10.0172
ቆራ	-10.0183
ቆር	-10.0184
▁የለበትም	-10.0185
▁ሕዝቡን	-10.0186
▁የአፍሪካ	-10.0189
ፈሩት	-10.0199
▁RFID	-10.0201
▁ማተሚያ	-10.0201
▁ጠቅላይ	-10.0202
ric	-10.0206
▁ደቂቃዎች	-10.0206
ID	-10.0208
▁ስታ	-10.0217
▁የነበረውን	-10.0217
▁በሥራ	-10.0219
▁እያሉ	-10.022
ችሁት	-10.0224
ኖራቸው	-10.0232
▁የተፈጥሮ	-10.0232
▁ፍርሃት	-10.0232
▁ለሚያ	-10.0232
vi	-10.0242
▁ለማወቅ	-10.0245
ፈቀደ	-10.0247
ቱንም	-10.0247
▁ሰሎሞን	-10.0248
▁በቅርቡ	-10.0248
fi	-10.0249
▁ወዲያ	-10.025
▁በባሕር	-10.0256
▁የሚቆጠሩ	-10.0257
▁ምንንም	-10.0257
ሸሸ	-10.026
▁ሲሳይ	-10.0261
ron	-10.0266
ka	-10.0275
ፐር	-10.0277
▁pro	-10.0278
▁ማሸጊያ	-10.0279
с	-10.0279
▁ለስላሳ	-10.0279
ርባ	-10.0281
▁መምረጥ	-10.0295
▁ምድቦች	-10.0295
▁የሕ	-10.0298
ፕላ	-10.0305
▁ተመልካች	-10.0311
▁ሳይንሳዊ	-10.0324
ሦ	-10.0326
▁የምርምር	-10.0327
▁በደቡብ	-10.0327
▁ዘዴዎች	-10.0333
IT	-10.0339
ld	-10.0351
▁ክብ	-10.0356
▁አምባ	-10.0357
ሺህ	-10.036
▁ወጣቶች	-10.0368
▁ኮሚቴ	-10.0375
▁የሆኑት	-10.0377
▁አካባቢዎች	-10.038
ዶቹ	-10.0383
▁የልብ	-10.0384
ገናኘ	-10.0385
▁ዲሲ	-10.0385
ታለሁ	-10.0389
▁ጨ	-10.039
▁በውስጣቸው	-10.0391
▁ወገኖች	-10.0391
US	-10.0393
▁የእግዚአብሔርም	-10.0395
▁ቱቦ	-10.0396
▁ተሰኪ	-10.0401
inter	-10.0401
ጀር	-10.0404
በታል	-10.0409
▁Rikoooo	-10.0423
ጓደ	-10.0424
▁መፍትሔ	-10.0426
▁HP	-10.0437
▁ራስን	-10.0445
ነፍ	-10.0446
ዎቻችሁ	-10.0451
▁An	-10.0452
ቃይ	-10.0453
▁ተዓምር	-10.0455
▁ሺ	-10.0456
ነብ	-10.0459
ቨ	-10.0462
ES	-10.0467
▁የሚኖሩ	-10.0468
ዎታል	-10.0469
ሑ	-10.0471
▁ዮሐንስ	-10.0475
ነገር	-10.0475
ear	-10.048
▁Con	-10.0485
▁በመስጠት	-10.0488
▁IP	-10.0493
ጠበቀ	-10.0497
▁ባህላዊ	-10.0502
▁ሣጥን	-10.0504
▁በሌሎች	-10.0504
በደሉ	-10.0506
fr	-10.0515
▁ሻጋታ	-10.052
▁ዝግጅት	-10.0522
▁ከንቱ	-10.0524
▁ዝናብ	-10.0524
▁ብስክሌት	-10.0533
▁ያጠፋ	-10.054
▁የሞተር	-10.054
ings	-10.0541
br	-10.0542
ገባው	-10.0545
▁ጎማ	-10.0549
▁አብሮ	-10.0549
▁አሳልፎ	-10.0552
▁ለማቅረብ	-10.0554
eb	-10.0555
ሊያ	-10.0564
▁የቻይና	-10.0566
LE	-10.0568
▁በቤት	-10.0569
▁ተቆጣጣሪ	-10.0569
▁መታወቂያ	-10.0569
▁መዳረሻ	-10.0569
▁መስካሪ	-10.0569
▁ጭነት	-10.0569
▁ታስ	-10.057
▁ሥራዎች	-10.057
▁ምንድር	-10.0573
▁አሮን	-10.0574
▁ነገሮችን	-10.058
ዳይ	-10.0581
▁ይባላል	-10.0585
▁ምድብ	-10.0586
▁የትኛው	-10.0588
ጉር	-10.0596
ሼ	-10.06
▁አድርገዋል	-10.0601
▁ፋይሎች	-10.0601
▁ለሴቶች	-10.0601
▁እዝነት	-10.0602
▁መስራት	-10.0602
▁ፓርክ	-10.0604
MP	-10.0605
▁ጀርባ	-10.0608
ደርጋ	-10.0616
▁ፋንታ	-10.0618
▁→	-10.0619
▁አውራጃ	-10.0637
ደረጃ	-10.0639
▁Bo	-10.0641
▁ተወዳጅ	-10.065
gen	-10.0656
▁ጌታህም	-10.0656
ወስ	-10.0659
ጀመረ	-10.066
▁የአካል	-10.0663
▁ከዘ	-10.067
▁በመጨረሻይቱ	-10.0682
che	-10.0683
▁ለእነሱም	-10.0684
▁ልጆቹ	-10.0685
▁በመሆኑ	-10.0685
AC	-10.0687
▁አግኝ	-10.0696
▁ሚኒስቴር	-10.07
▁አውሮፕላኖች	-10.07
▁ኃይለኛ	-10.07
▁Su	-10.0701
▁$1	-10.0702
old	-10.0709
ain	-10.0713
ሰነ	-10.0716
▁[...]	-10.0716
▁webmail	-10.0716
▁ለመቀነስ	-10.0716
▁ራሱ	-10.0717
▁ተነ	-10.0717
ግሬ	-10.0725
▁Br	-10.073
ዘጋጀ	-10.0731
▁ዓይነቶች	-10.0733
ps	-10.0733
▁ማታ	-10.0738
ፉት	-10.0739
▁በረራ	-10.0739
▁ባሪያዎች	-10.0739
ላፊ	-10.0742
▁በሁለት	-10.0748
ሓ	-10.0749
▁ነጥቦች	-10.075
▁ሲቀር	-10.075
▁የቀጥታ	-10.075
▁የወርቅ	-10.075
gr	-10.0753
▁ሆነ፤	-10.0753
400	-10.0769
▁ፔ	-10.077
▁ከእነሱም	-10.0777
▁Sa	-10.0778
▁የተንቀሳቃሽ	-10.078
▁ነበረች	-10.078
ናል።	-10.0783
▁የተሰጠ	-10.0784
ዋጋ	-10.0793
▁አርባ	-10.0794
ary	-10.0795
▁ሆኗል	-10.08
600	-10.0801
▁የኢኮኖሚ	-10.0802
RA	-10.0803
▁ሴሜ	-10.0804
ዋለን	-10.0808
▁እያለ	-10.081
▁ቅጂ	-10.0812
▁የሞባይል	-10.0822
▁se	-10.0829
▁ፓስፖርት	-10.0831
▁00	-10.0832
▁እንችላለን	-10.0833
▁ቆንጆ	-10.0833
▁ክፋት	-10.0834
▁ኃላፊ	-10.0836
ny	-10.0836
ደረሰ	-10.0837
▁እንክብካቤ	-10.084
ገሥ	-10.0841
bi	-10.0846
▁መጠጥ	-10.085
▁ኮን	-10.0852
▁አጋር	-10.0853
▁ለመጀመሪያ	-10.0853
ቸውንም	-10.0854
መጥ	-10.086
ቃለ	-10.0866
▁ፍጻሜ	-10.0866
ler	-10.0867
ya	-10.0867
▁ዘጠኝ	-10.0868
▁እንደሚቻል	-10.0873
ለኝ	-10.0873
▁ለፊት	-10.0878
ፋቸው	-10.0881
ተገለጸ	-10.0882
▁ይሆናል፤	-10.0883
▁ኀጢአት	-10.0883
ens	-10.0884
▁የሴቶች	-10.0884
ሃት	-10.0886
▁ውል	-10.0886
tu	-10.0895
▁ሸለቆ	-10.09
▁የሰጠ	-10.09
ጠለ	-10.0901
▁ልጄ	-10.0903
▁ሕዝቡ	-10.0903
ue	-10.0904
▁ለመጠበቅ	-10.091
ሰጠናቸው	-10.0916
▁ቅጽ	-10.092
ራለን	-10.0924
▁እውነትን	-10.0927
CL	-10.0927
▁የተጻፈ	-10.0927
ord	-10.0927
ct	-10.0935
ber	-10.0937
ቾች	-10.0943
▁የኦሪጂናል	-10.0945
▁አደረጉ	-10.095
▁Li	-10.095
▁ትብብር	-10.0951
ሁኑ	-10.0958
እዛ	-10.0959
="6	-10.0964
▁ክለሳ	-10.0968
ዞር	-10.0968
▁የአንድ	-10.0969
ሰዋል	-10.0971
▁የሚለውን	-10.0976
ኒክ	-10.098
▁እርስዋ	-10.0981
▁ዓመታዊ	-10.0985
▁መቀ	-10.0991
ፈላ	-10.0991
▁ወሳኝ	-10.1002
▁በመልካም	-10.1005
ለታል	-10.1006
ተሮች	-10.1006
▁የመጨረሻው	-10.1009
ኰ	-10.1019
▁እናመሰግናለን	-10.1019
▁2009	-10.1026
▁ቍ	-10.1026
▁ጸጥ	-10.1031
▁ሙሴን	-10.1031
$	-10.1031
▁የተዘጋጀ	-10.1032
▁ጥቃት	-10.1034
ሳዊ	-10.1035
▁ዚፕ	-10.1036
▁በመስመር	-10.1046
ረሱ	-10.105
land	-10.1055
be	-10.1056
▁ሰይፍ	-10.1058
out	-10.1059
ek	-10.1062
ዮን	-10.1063
ታዘዙ	-10.107
▁ይጠይቁ	-10.1073
ታላችሁ	-10.1076
▁Te	-10.1078
▁ይሆናሉ	-10.1079
▁ሰማያት	-10.1082
rr	-10.1086
▁መንግስታት	-10.1087
▁በማሳየት	-10.1087
በቅ	-10.1088
▁የሽቦ	-10.1088
▁ከናንተ	-10.1089
gu	-10.1092
▁ፕሬዚዳንት	-10.1096
▁የጊዜ	-10.1098
ፈለ	-10.1099
ንቀሳቀስ	-10.1103
▁በግል	-10.1103
▁መዛሙርቱ	-10.1104
▁መብራቶች	-10.1104
▁እውቅና	-10.1105
▁ጕ	-10.111
ium	-10.1113
▁ፀ	-10.112
▁ስርጭት	-10.1122
▁ባለፉት	-10.1125
▁የተጠ	-10.113
▁የተመሰረተ	-10.1131
ሎት	-10.1132
▁Amharic	-10.1135
ስተካከ	-10.1136
▁ሠሪዎች	-10.1138
ፐ	-10.1141
ጣሪ	-10.1143
▁ፈረንሳይ	-10.1145
ated	-10.115
ረሳ	-10.115
▁አላህንና	-10.1151
ኬት	-10.1162
ሠራው	-10.1162
▁ሰጠነው	-10.1162
ጠሉ	-10.1166
ሳችን	-10.1171
ዟ	-10.1173
▁የእንጨት	-10.1173
ሆነ	-10.1178
800	-10.118
▁Fl	-10.1182
▁ሾ	-10.1186
▁የመጡ	-10.1186
▁Psychic	-10.1191
▁ህዳር	-10.1192
▁መልክተኛውን	-10.1201
▁ጀመረ	-10.1206
ight	-10.1206
ቋቋም	-10.1207
tor	-10.1212
ሻሻ	-10.1214
▁በሚል	-10.1214
▁በአንድነት	-10.1215
▁ማስታወሻ	-10.1218
ቸር	-10.1219
▁ካዋሳኪ	-10.1225
▁ይኖራል	-10.1226
▁Ad	-10.1227
▁ስቴት	-10.1228
▁ገዥ	-10.123
▁አባቱ	-10.123
▁ሩቅ	-10.1231
▁ma	-10.1236
ጥላ	-10.1237
▁ቀስ	-10.1242
▁SWGoH	-10.1244
▁ከእነዚያ	-10.1244
OR	-10.1249
ኞ	-10.126
▁ዮሴፍ	-10.126
ሂድ	-10.126
▁ብዙውን	-10.1262
int	-10.1265
▁·	-10.1267
▁የሚያደርግ	-10.1275
ክሮ	-10.1278
ዕራ	-10.1278
▁የአገልግሎት	-10.1279
ፈስ	-10.1284
▁ሚና	-10.1292
▁120	-10.1294
ሕል	-10.1301
ast	-10.1301
▁ግንዛቤ	-10.1302
ወለድ	-10.1303
▁የጥራት	-10.1308
ገደሉ	-10.1308
መቃብር	-10.1314
ee	-10.1315
▁ቢኖር	-10.1316
ዞች	-10.1318
▁ለእርስዎ	-10.1322
ቆጣ	-10.1322
▁እሱም	-10.1324
▁ዳር	-10.1329
▁የቪዛ	-10.1331
son	-10.1335
▁ስምንት	-10.1339
ለት።	-10.1346
▁የባለሙያ	-10.1351
አል።	-10.1351
▁የሌለ	-10.1355
▁በውጭ	-10.1355
PC	-10.1357
▁ተነሣ	-10.1358
ጠፈ	-10.1359
ለገ	-10.136
▁የሙከራ	-10.1364
▁ሙዚቃ	-10.1366
▁ሰንሰለት	-10.1366
▁የማዕድን	-10.1366
ጀመሩ	-10.1366
ሸከም	-10.1366
▁ከቤት	-10.137
▁አፈ	-10.1371
፻	-10.1383
▁with	-10.1383
▁አጋዥ	-10.1401
▁ሥነ	-10.1402
▁ነህና	-10.1407
▁Ar	-10.141
▁ወደሚ	-10.1412
አንተ	-10.1415
▁Capacitor	-10.1419
ሎጂ	-10.142
▁እዚያ	-10.1424
ከለክ	-10.1426
▁ጠላ	-10.1432
▁የሚሆኑ	-10.1436
▁ሳያ	-10.1436
ሚክ	-10.1436
▁ዲያሜትር	-10.1436
▁ግዙፍ	-10.1437
▁ሙያዊ	-10.1439
4.5	-10.1442
ኋችሁ	-10.1447
▁ጥቂትን	-10.145
▁He	-10.1457
▁በማሽን	-10.1459
ial	-10.146
▁ሙቅ	-10.146
ክሬ	-10.1463
▁En	-10.1467
▁ማዘጋጀት	-10.1472
▁ቂ	-10.1477
▁ዩናይትድ	-10.1483
▁`	-10.1483
ki	-10.1484
ሸሽ	-10.1487
▁አስደሳች	-10.149
▁ወሰደ	-10.1497
▁አባቴ	-10.1502
▁የቀረቡ	-10.1504
ገጠ	-10.1507
▁Bonus	-10.1508
▁ጴጥሮስ	-10.1508
▁ለማዘጋጀት	-10.1508
▁ወንጀል	-10.1509
ማስተማር	-10.1509
▁መሄድ	-10.151
▁አንቺ	-10.151
ነቅ	-10.1511
▁ኮርስ	-10.1514
▁መለዋወጫ	-10.1515
ረዘ	-10.1515
▁We	-10.1515
ተባበ	-10.1517
ታወቁ	-10.152
▁Honda	-10.1526
▁የይለፍ	-10.1526
▁ፕላ	-10.1528
▁የተለመደ	-10.1532
▁ለመጠቀም	-10.1534
ጎል	-10.1538
ug	-10.1541
▁ባዩ	-10.1543
▁ምእምናን	-10.1544
▁በታላቅ	-10.1544
▁Holm	-10.1544
ፊዎች	-10.1547
▁ነቢይ	-10.1554
▁ያዕቆብ	-10.1564
▁ከጌታችሁ	-10.1565
▁ልቦች	-10.1566
CC	-10.1569
ተፈጸመ	-10.1572
አሜሪካ	-10.1572
▁እንድን	-10.1574
AS	-10.1574
tch	-10.1577
▁ኢብራሂም	-10.158
▁እንግሊዝኛ	-10.158
▁ማንበብ	-10.1581
▁አያያዝ	-10.1584
▁በስተ	-10.1596
▁ክስተት	-10.1598
▁ያሳያል	-10.1598
መጸ	-10.1603
▁ሰሚ	-10.1604
▁አለኝ	-10.1607
ሸሹ	-10.1625
ኼ	-10.1625
ሁ፤	-10.1627
ጠበቁ	-10.163
ame	-10.1631
▁ጩኸት	-10.1634
▁ድርጊት	-10.1634
▁ተቀባይ	-10.1642
▁ጊ	-10.1643
▁ላክ	-10.1646
▁የሚሠራ	-10.165
ኚ	-10.1652
▁ንዑስ	-10.1652
▁ገጽታዎች	-10.1655
ነበር	-10.166
▁ክፍለ	-10.1667
▁ስርዓቶች	-10.167
▁ለማውረድ	-10.167
-12	-10.1673
▁So	-10.1674
ያምኑ	-10.1677
▁መፍትሄ	-10.1678
ፁ	-10.1688
ተቃራኒ	-10.1688
▁መግዛት	-10.1689
▁ማውረድ	-10.1689
▁በጎች	-10.169
▁ኮከብ	-10.1694
ደላ	-10.1695
ይዙ	-10.1699
ner	-10.1702
ፊቱ	-10.1702
▁የክፍያ	-10.1703
ወሳ	-10.1703
▁የሚያሳ	-10.171
▁እንስሳት	-10.1712
▁ዝና	-10.1716
ቆጥ	-10.1722
the	-10.1727
▁ወደእርሱ	-10.1728
▁Un	-10.1732
ሳሳቱ	-10.1741
ኸኝ	-10.1742
EL	-10.1742
▁የሚያስችል	-10.1746
▁ዲጂታል	-10.1748
መሆኑ	-10.1752
tal	-10.1756
▁ሆቴል	-10.1762
▁አስተባበሉ	-10.1763
▁sp	-10.1766
ish	-10.1768
sta	-10.1769
ኾነ	-10.1769
▁መለኪያ	-10.1769
በቀል	-10.1772
ፈለጉ	-10.1775
ደረሱ	-10.1777
▁መግለጫዎች	-10.178
ker	-10.1782
0.00	-10.179
▁your	-10.1792
▁Ethiopia	-10.1803
ock	-10.1812
▁Po	-10.1815
ላችን	-10.1817
▁ምናባዊ	-10.1817
▁ብለዋል	-10.1818
ታወቅ	-10.1822
▁ተፈ	-10.1825
▁የተቋቋመ	-10.1831
for	-10.1834
አንዱ	-10.1836
▁ላንተ	-10.1838
▁ለሰው	-10.1841
day	-10.1851
ክፍል	-10.1851
▁ውበት	-10.1852
▁2008	-10.1861
ታችሁን	-10.1862
▁am	-10.1868
▁መክፈት	-10.1873
ድሩ	-10.1874
ጣችሁ	-10.1876
▁ይቅርታ	-10.1877
-7	-10.188
ፋል	-10.1883
▁የዓ	-10.1884
▁የባህር	-10.1891
▁ጽድቅ	-10.1891
▁Phone	-10.1892
ጠየቁ	-10.1893
-11	-10.1894
ተወ	-10.1895
ፈርድ	-10.1899
▁ኤሮ	-10.1904
ቀዳ	-10.1906
▁የሚገኝ	-10.1909
▁ከእንግዲህ	-10.191
▁ሮለር	-10.191
▁መለሰ	-10.1913
▁400	-10.1913
▁ይሁኑ	-10.1919
SS	-10.1924
cr	-10.1926
ኤምኤ	-10.1926
▁ተዘ	-10.1927
▁መርከቦች	-10.1928
▁ሀሳብ	-10.1929
▁ምርኮ	-10.1929
ዋል።	-10.1932
ሎቻቸው	-10.1932
ደለ	-10.1933
▁የአትክልት	-10.1934
መልሱ	-10.1939
ስተዋ	-10.194
▁ክስተቶች	-10.1947
ካዊ	-10.195
-9	-10.1953
▁የተወሰኑ	-10.1957
ቻቸውን	-10.1968
▁ባህል	-10.1968
ዚህ	-10.1969
ዷ	-10.1971
▁ብትኾኑ	-10.1973
ts	-10.1973
tri	-10.1976
ደነገ	-10.1977
ጳ	-10.1985
▁ረዳቶች	-10.1986
ደገ	-10.1987
▁በአሜሪካ	-10.1989
▁የሚሰራ	-10.1989
use	-10.1989
▁SP	-10.199
ጀመር	-10.199
▁ማጠራቀሚያ	-10.2003
ቲቱ	-10.2005
▁በመላው	-10.2005
▁አወረደ	-10.2008
▁መዝገብ	-10.2013
▁አልፎ	-10.2014
▁አጽ	-10.2014
▁ጥርስ	-10.2016
▁38	-10.2019
ሯል	-10.2019
▁መላው	-10.2022
▁የሩሲያ	-10.2022
▁በእነዚህ	-10.2035
▁ዘላቂ	-10.2041
▁ምግቦች	-10.2041
▁ጥናቶች	-10.2041
፩	-10.2042
▁ዘገባ	-10.2055
ቤቶች	-10.2058
▁ያወጣ	-10.2059
▁ታሪካዊ	-10.206
▁በዳዮች	-10.2066
▁ፎ	-10.2067
▁ለጌታ	-10.2068
▁cryptocurrency	-10.2073
ለህ።	-10.2076
ተላለፍ	-10.2077
ጠባበቅ	-10.208
▁For	-10.2082
ዚሁ	-10.2089
▁በመለያ	-10.2093
ven	-10.2095
▁ሚያዝያ	-10.2098
▁ይወስዳል	-10.2098
▁በደንብ	-10.2098
▁ያስቀ	-10.21
▁ማምረት	-10.2117
ቀረቡ	-10.2117
▁ስኬት	-10.2119
ጨት	-10.2122
▁ከሆኑ	-10.2126
ጫወት	-10.2131
▁የኾኑት	-10.2135
▁መሙያ	-10.2137
▁ኮርሶች	-10.2138
▁ንጥረ	-10.2146
ግዱ	-10.2154
▁ምዕራፍ	-10.2155
▁እጁን	-10.2157
ዘነ	-10.216
ጠበ	-10.2163
ace	-10.2164
TC	-10.2169
መጠ	-10.2169
▁እቃዎች	-10.2172
▁ሲሆኑ	-10.2172
▁አብዛኛዎቹ	-10.2174
▁የፓይፕ	-10.2174
▁ሰሌዳ	-10.2174
▁አያውቅም	-10.2174
ተኩ	-10.2184
▁ተመሠረተ	-10.2186
ደመ	-10.2194
▁Di	-10.2194
ነባ	-10.2196
The	-10.2196
ብራራ	-10.2198
▁ወጥቶ	-10.2205
ust	-10.2208
ነገሩ	-10.2209
▁አማኞች	-10.2213
▁ብለህ	-10.2216
መፅ	-10.2217
▁የሕግ	-10.2217
ጣቸው	-10.2219
▁Qu	-10.2228
▁ትንቢት	-10.2232
▁በየዓመቱ	-10.2232
zhou	-10.2234
ስትሮ	-10.2237
▁የኾነች	-10.2238
▁Ho	-10.2241
▁መቅደስ	-10.2244
▁co	-10.2248
▁የሚፈ	-10.2251
▁መክተቻዎች	-10.2251
▁ሥልጠና	-10.2251
▁ال	-10.2251
▁ሰሜን	-10.2252
▁የመሬት	-10.226
ፈለግ	-10.2262
▁ቁርኣንን	-10.2264
▁በሐ	-10.2266
▁የልጆች	-10.2271
▁ለመከላከል	-10.2273
▁በተለይም	-10.2274
▁ማዕ	-10.2287
ደፍ	-10.2288
ነገረ	-10.2289
▁መስፈርት	-10.229
="2	-10.229
▁ፀጉር	-10.229
▁ማውጫ	-10.229
▁1.5	-10.2291
▁አግባብ	-10.2291
▁ሰነድ	-10.2293
▁የማያውቁ	-10.2297
ኡ	-10.2297
አዲስ	-10.2298
ድኑ	-10.2306
▁አብዛኞቻቸው	-10.2309
▁ሌዘር	-10.2309
▁ደካማ	-10.2314
▁የመንገድ	-10.2318
ወዱ	-10.232
Coin	-10.2323
con	-10.2324
▁ጣፋጭ	-10.2328
▁ማህበር	-10.2329
ጠቁ	-10.2333
ተወሰነ	-10.2336
▁ተሸ	-10.2338
▁Service	-10.2348
MS	-10.2357
▁ይጫኑ	-10.2364
▁ተከተል	-10.2364
SA	-10.2366
ታለን	-10.2366
▁የተፈጠረ	-10.237
▁ምትክ	-10.237
▁600	-10.2371
▁ማከማቻ	-10.2373
▁ማዕከላዊ	-10.2376
▁ዩኒቨርሲቲው	-10.238
▁Cl	-10.2383
ier	-10.2386
▁ሰዓቶች	-10.2387
▁ለነርሱ	-10.2387
▁ልቦቻቸው	-10.2387
▁ሽማግሌዎች	-10.2402
▁ደረቅ	-10.2408
▁ሚዲያ	-10.241
ረፍ	-10.2412
▁አስተዋ	-10.2417
▁ከሁለቱ	-10.2426
▁ወዴት	-10.2426
▁መስኮት	-10.2426
ኮሩ	-10.2429
በኞች	-10.2431
▁መታጠቢያ	-10.2446
ግብር	-10.2452
▁አንዴ	-10.2452
▁ይወ	-10.2453
▁መጥተው	-10.2454
▁በውኑ	-10.2456
▁አስቀ	-10.2457
fer	-10.2461
ችኋቸው	-10.2464
▁እጆቻቸው	-10.2465
▁ውስጠ	-10.2466
▁ለሽያጭ	-10.2466
▁ባር	-10.2467
▁የቤተሰብ	-10.2469
ከታተ	-10.247
ዘጋ	-10.2471
መንግስት	-10.2473
▁ይሰራል	-10.2473
▁ከሓዲዎችን	-10.248
lar	-10.2482
▁አቶ	-10.2483
ማረ	-10.2485
▁ሚያዚያ	-10.2485
▁በቁማር	-10.2485
▁አደርጋለሁ	-10.2485
▁ተራራዎች	-10.2488
ለፉ	-10.2488
▁አግድ	-10.249
▁ልብሶች	-10.2491
እንደ	-10.2492
ጥራት	-10.25
▁ለሚሻው	-10.25
app	-10.25
▁ቆሻሻ	-10.2506
▁አወረድን	-10.2506
▁ደንቦች	-10.2507
▁ግራጫ	-10.2514
ከፋ	-10.2517
ማኅበ	-10.2518
▁መገናኛ	-10.252
▁በሰይፍ	-10.2525
▁የጅምላ	-10.2525
ትምህርት	-10.2526
▁የማት	-10.2529
ets	-10.2535
▁Star	-10.2537
▁ስኬታማ	-10.2545
▁አይሁድ	-10.2545
▁የጎማ	-10.2547
▁tr	-10.2556
CE	-10.2558
▁የደም	-10.256
ግሪ	-10.2562
PF	-10.2567
አቸው።	-10.2568
▁ገደብ	-10.257
▁ተቀመጡ	-10.2574
nt	-10.2575
ጠራችሁ	-10.2576
▁ተጣ	-10.2577
▁37	-10.2581
▁የተረጋገጠ	-10.2584
▁የብር	-10.2585
▁Fi	-10.2588
▁የሚጠ	-10.2589
▁ዘርፍ	-10.2596
ደሩ	-10.26
፪	-10.26
ጠይቁ	-10.26
▁Pa	-10.2607
▁መኾናቸውን	-10.2607
▁ከታች	-10.2608
over	-10.2609
▁የተጠቃሚ	-10.2609
ደነ	-10.261
መጣላችሁ	-10.2611
▁48	-10.2612
▁ነበረ፥	-10.2618
▁መዝሙር	-10.2624
▁ማስታወቂያዎች	-10.2626
▁ታይቷል	-10.2626
▁ሰጪ	-10.2634
HS	-10.2635
ዢ	-10.2635
▁የሚሰጡዋቸውን	-10.2644
▁በምድረ	-10.265
▁አለበት።	-10.2651
▁መጫን	-10.2652
▁ኢትዮጵያውያን	-10.2653
ሪያዎች	-10.2656
ተደረገ	-10.2663
▁Al	-10.2663
▁ስዕሎች	-10.2664
6.5	-10.2665
▁ይሰጣሉ	-10.2667
▁በይፋ	-10.2667
ረዝ	-10.2667
▁የገበያ	-10.2667
▁@	-10.2684
ፕሬ	-10.2685
▁ነገሩን	-10.2691
pcs	-10.2696
ዓይን	-10.27
▁ይጎብኙ	-10.2705
▁ዐዋቂው	-10.2706
ies	-10.2708
▁ፈር	-10.2709
▁የሚወ	-10.2713
▁የመጣ	-10.2713
▁ሐሳብ	-10.2714
▁ነበሩ፤	-10.2714
▁ከሰው	-10.2717
አገልግሎ	-10.272
▁ፕሮፌሰር	-10.2725
▁በግብፅ	-10.2725
▁j	-10.2728
▁እስክ	-10.2743
▁ስብስቦች	-10.2745
▁ደንበኛ	-10.275
ተካሄደ	-10.2751
▁የሚሆነው	-10.2752
ጠቅላላ	-10.2765
እነዚህ	-10.2766
▁አባቶቻችን	-10.2767
work	-10.2767
▁የዩኒቨርሲቲ	-10.2785
▁ሙሐመድ	-10.2786
▁ጥርጣሬ	-10.2786
▁ኢኮኖሚ	-10.2788
ተከተለ	-10.2789
▁we	-10.2791
▁ቶን	-10.2793
▁ሆንሁ	-10.2793
▁አካላዊ	-10.2794
ግገዛ	-10.2794
ገራችን	-10.2798
ሸፍ	-10.28
▁ዞን	-10.28
▁ኢነርጂ	-10.2806
▁የቅርቢቱ	-10.2806
▁la	-10.2806
▁ሰባ	-10.2809
▁ሆኑ	-10.2813
ግቡ	-10.2814
▁ክትትል	-10.2819
ሰብአዊ	-10.282
▁በነሱ	-10.2826
▁አመት	-10.2826
▁አንባቢ	-10.2827
▁በአዲስ	-10.2827
ቀላቀል	-10.2828
ሚከተለው	-10.2829
ደባ	-10.2829
▁ብድር	-10.2829
ቲስ	-10.2829
▁Gu	-10.283
▁ተናገሩ	-10.2832
ገደል	-10.2837
▁እንስሳ	-10.2838
▁የተገነባ	-10.2838
ልሃል	-10.284
▁በመጨረሻው	-10.284
▁ሜዳ	-10.2845
▁በምንም	-10.2848
▁Lo	-10.285
▁ኢትዮጵያዊ	-10.2852
መለሰ	-10.2853
ፈጠሩ	-10.2853
▁ከፈለጉ	-10.2862
ቴሌቪዥን	-10.2867
▁ምድሪቱ	-10.2867
▁86-	-10.287
▁ፈርዖንም	-10.2871
▁አለኝ።	-10.2876
▁ኩባንያው	-10.2877
vo	-10.2884
-30	-10.2885
▁Mobile	-10.2888
▁ከማይዝግ	-10.2888
▁ራእይ	-10.2888
▁ንግሥና	-10.289
▁ሚስቱ	-10.289
wa	-10.289
ኢትዮጵያ	-10.2897
▁CC	-10.2903
do	-10.2906
▁Pe	-10.2906
▁ውሸትን	-10.2907
du	-10.2908
▁ለመድረስ	-10.2909
▁ወቅታዊ	-10.2909
▁0.1	-10.2909
▁የሰብአዊ	-10.2915
zip	-10.2916
▁ደስተኛ	-10.2919
▁±	-10.2922
und	-10.2928
▁ቆይቷል	-10.2929
▁ረገድ	-10.2932
▁መጻሕፍት	-10.2932
▁ባለፈው	-10.2939
ከተሉ	-10.2942
▁ቅጥር	-10.2946
▁የሕይወት	-10.2947
▁ያመነ	-10.2948
▁ለመርዳት	-10.295
▁ጄት	-10.295
▁ሠራዊት	-10.295
▁በመሆን	-10.2955
ቻለ	-10.2962
ok	-10.2962
ore	-10.2964
ah	-10.2965
ታመን	-10.297
▁ቻርተር	-10.2971
▁ሠላሳ	-10.2971
እኛ	-10.2973
oss	-10.2974
ስፖ	-10.2976
ታላቁ	-10.2977
▁ጠላቶች	-10.298
af	-10.2989
▁ተባባሪ	-10.2992
PA	-10.2996
CO	-10.2997
ኖቹ	-10.3004
ገድሉ	-10.3007
▁ቀዝቃዛ	-10.3008
ሮቻቸው	-10.3008
▁ዜናዎች	-10.301
▁ሰልፍ	-10.3012
ማመን	-10.3014
▁ማስቀመጥ	-10.3016
▁220	-10.3016
▁መቀበል	-10.3021
▁በክርስቶስ	-10.3033
▁ወለል	-10.3034
-19	-10.3036
▁በረከት	-10.3036
ነዚህ	-10.3037
ence	-10.3037
▁እንድታ	-10.3039
▁ፖሊ	-10.304
▁አለች	-10.3051
ታየው	-10.3053
፯	-10.3054
▁አይሆንም	-10.3056
▁አወ	-10.3058
▁መሆኑ	-10.3067
tro	-10.3069
PE	-10.3074
▁Glass	-10.3075
▁ያውርዱ	-10.3075
ስዊድን	-10.3075
▁የነዳጅ	-10.3075
▁ፓውንድ	-10.3075
▁ጥበብን	-10.3076
▁ስቃይ	-10.3077
="1	-10.308
ዞረ	-10.3081
ሪክ	-10.3081
▁ለእርሷ	-10.3081
▁በሰዎች	-10.3085
▁ቀረ	-10.3087
ምዕራብ	-10.309
▁በኦ	-10.3094
▁ርካሽ	-10.3096
▁የዘላለም	-10.3096
▁ፈጠረ	-10.31
RS	-10.3103
▁ኃ	-10.3104
▁ድንጋጌ	-10.3117
▁ሕዝቦቼ	-10.3117
▁አምላካችሁ	-10.3117
▁ግዢ	-10.3117
▁ሐምሌ	-10.3117
▁አልጋ	-10.3118
ጠቃ	-10.312
▁የራሱ	-10.3123
▁Ne	-10.3125
▁ለዘ	-10.3132
▁ቀዶ	-10.3137
▁ይፈልጋል	-10.3138
▁ፋውንዴሽን	-10.3138
▁ሀሳቦች	-10.3138
▁ካህናት	-10.3138
▁ነኝና	-10.3138
rm	-10.3141
▁www	-10.3142
▁ግቢ	-10.3144
ሰበሰቡ	-10.3149
ሯቸው	-10.3149
▁ለአንድ	-10.315
▁ተቀመጠ	-10.3155
▁ካር	-10.3158
▁አሞ	-10.3159
▁አምላካችን	-10.3159
▁ካርዶች	-10.3161
ting	-10.3162
ሥር	-10.3166
ከበር	-10.317
ሐዋርያት	-10.3171
ተወለደ	-10.3173
▁ሶላትንም	-10.3176
▁ቢኾኑ	-10.3176
▁ሼንዘን	-10.318
▁በመንገድ	-10.3181
ወስድ	-10.3187
▁ጤናማ	-10.3189
▁መጣ።	-10.3195
pt	-10.32
▁አውቃለሁ	-10.3201
ወያኔ	-10.3202
ወሰደ	-10.3203
ect	-10.3208
ls	-10.3211
▁ፑ	-10.3214
▁ቆሞ	-10.3216
▁መቀየር	-10.3217
▁ሊቀ	-10.3222
و	-10.3222
▁ይኾናል	-10.3222
▁Lu	-10.3223
ib	-10.3228
ሉትን	-10.3236
▁አጋጣሚ	-10.3236
▁ምድረ	-10.3239
ቦር	-10.3242
SP	-10.3248
▁ታቦት	-10.3249
ፈዋል	-10.3255
ቋል	-10.3255
▁ኛው	-10.3256
▁ጥራ	-10.3257
▁ይሸ	-10.3259
▁ደረሰ	-10.3262
▁ለእያንዳንዱ	-10.3263
ያዘ	-10.3264
▁በሕግ	-10.3266
ከለከሉ	-10.3267
▁አቀረበ	-10.3268
▁የተለጠፈው	-10.327
▁ሳሉ	-10.3271
▁ነጋዴዎች	-10.3271
av	-10.3275
lin	-10.3276
▁መያዝ	-10.3278
box	-10.328
▁ይደውሉ	-10.3287
▁ድንበር	-10.3287
ማጋራት	-10.3288
ወቁ	-10.3289
▁ዘመቻ	-10.3291
▁እንዳያ	-10.3293
ty	-10.3293
▁ይዘው	-10.3296
▁ዮ	-10.3303
▁Tr	-10.3305
▁LTD	-10.3308
▁ስሞች	-10.3314
mon	-10.3315
ake	-10.3319
▁የተማሪ	-10.3324
ger	-10.3326
▁ለሌላ	-10.3327
▁ስሜ	-10.3327
▁McKnight	-10.3329
▁የዚያን	-10.3334
▁ማጉያ	-10.3334
▁ደን	-10.3337
▁እንደምት	-10.3338
▁ሉህ	-10.3339
▁ኃጢኣት	-10.3341
▁ለጥፍ	-10.3341
ከረ	-10.3345
▁ይደረጋል	-10.3351
▁ጃን	-10.3351
ወስዱ	-10.3351
▁አድርጉ	-10.3357
-15	-10.3359
cy	-10.3365
▁አዘዘ	-10.3365
ros	-10.3365
አል፤	-10.3367
▁በአብዛኛው	-10.3369
▁የዌብሜይል	-10.3372
▁የሌዘር	-10.3372
▁እቅድ	-10.3374
DS	-10.3375
▁አሞሌ	-10.3379
▁CH	-10.3393
▁የለባቸውም	-10.3394
ach	-10.3396
▁ማስወገድ	-10.3396
ቀርበው	-10.3396
▁የነበረ	-10.3397
▁ሠራሽ	-10.3404
▁በማይ	-10.3404
▁አጥፉ	-10.3405
sa	-10.3406
▁የሠሩ	-10.3407
ዎቻቸውን	-10.3411
▁Download	-10.3416
▁ግንኙነቶች	-10.3416
▁መገናኘት	-10.3416
▁በቅርብ	-10.3416
▁መጽ	-10.3421
ንግድ	-10.3421
▁በትር	-10.3423
ቹን	-10.3428
▁ሆስፒታል	-10.3429
1000	-10.343
▁እጥፍ	-10.3431
ፈለገ	-10.3431
▁ያደርግ	-10.3433
▁ሳሙኤል	-10.3437
so	-10.3439
▁ወድ	-10.3446
CS	-10.3449
▁የሚከተሉትን	-10.345
ደቡ	-10.3456
▁ተወዳዳሪ	-10.3459
መዋል	-10.346
▁ክፍ	-10.346
▁ቁጣ	-10.346
ረካ	-10.3465
▁ch	-10.3465
▁የፊት	-10.3471
ቡት	-10.3471
▁Pr	-10.3471
▁ፎቅ	-10.3475
▁ስማ	-10.3483
AP	-10.3483
ics	-10.3487
▁ያመጣል	-10.3489
▁ከፊሉን	-10.3501
▁ህጋዊ	-10.3503
ተኮር	-10.3505
5.5	-10.3514
va	-10.3516
▁ቃለ	-10.352
ጓዙ	-10.3523
▁በንጉሡ	-10.3524
▁ኤርምያስ	-10.3524
▁እናውቃለን	-10.3525
ling	-10.3525
▁ትግል	-10.3525
▁10%	-10.3528
▁ታማኝ	-10.3534
ዘዘ	-10.3538
▁የተባለ	-10.3541
▁ኢሜል	-10.3544
▁የመዝገብ	-10.3545
▁መግነጢሳዊ	-10.3546
▁ሻንዶንግ	-10.3546
▁ዋነኛ	-10.3546
▁እንደሚችሉ	-10.3547
▁ዲስክ	-10.3547
▁የማሽን	-10.3552
▁ተመለስ	-10.3552
▁ያገኘ	-10.3552
ቀይ	-10.3554
▁ያለፈ	-10.3569
▁ዝቅ	-10.3573
dr	-10.3574
▁ተናገር	-10.3575
ware	-10.3577
▁በእጁ	-10.3578
▁ምክንያቶች	-10.359
▁በከፊሉ	-10.359
▁ይመለሳሉ	-10.359
▁ቢሊዮን	-10.359
▁የተቀ	-10.3592
▁የቆዳ	-10.3592
እውነተኛ	-10.3594
▁ብራ	-10.3598
lot	-10.3598
ባሪ	-10.3604
ሶቻቸው	-10.3611
▁ትንሣኤ	-10.3612
▁ፍሰት	-10.3613
▁ግምት	-10.3616
▁፲	-10.3618
ቿ	-10.363
у	-10.3635
ن	-10.3635
▁በመካከላችሁ	-10.3635
▁አሲስታን	-10.3635
መዘ	-10.3638
▁የሚገኘው	-10.3639
▁ex	-10.3644
▁የመንግስት	-10.3645
han	-10.3645
ግዛ	-10.3657
▁በአንቀጾቻችን	-10.3657
▁አብርሃም	-10.3657
▁ክሬዲት	-10.3657
▁አድርጋችሁ	-10.3657
▁አሰጣጥ	-10.3657
▁ይሠራል	-10.3658
ጠዋል	-10.3662
ቦርዱ	-10.3663
▁ጨረቃ	-10.3664
▁አደራ	-10.3664
KW	-10.3668
ወጣው	-10.3669
የሚ	-10.367
▁42	-10.3675
▁የላችሁም	-10.3678
▁ቀር	-10.3679
▁ለወንዶች	-10.3679
መጨረሻ	-10.3679
▁ያደርጋሉ	-10.3679
▁ወዳንተ	-10.368
ቀመ	-10.3682
ማዊ	-10.3682
ካቸው	-10.3684
▁1500	-10.3684
ከባቢ	-10.3684
ዷል	-10.3686
▁HD	-10.3693
▁ልቡ	-10.3694
▁አደባባይ	-10.3701
▁መረዳት	-10.3703
▁ድርሻ	-10.3708
▁ግሩም	-10.3711
▁Th	-10.3714
ደዱ	-10.3717
▁ኮሪያ	-10.3721
▁Tra	-10.3723
م	-10.3724
▁መላክ	-10.3737
ቲክስ	-10.3738
▁ዋጋዎች	-10.3739
▁አስመ	-10.3742
▁አያስ	-10.3744
▁አስገራሚ	-10.3746
▁ለመግዛት	-10.3746
ልኩ	-10.3746
ትግራይ	-10.3747
▁ይወጣል	-10.3748
▁ጭፍራ	-10.3749
▁በፊትህ	-10.3757
ወሰድ	-10.3757
▁ወዳጅ	-10.3758
uk	-10.3761
▁Qingdao	-10.3768
▁ከችሮታው	-10.3769
▁አብዛኛውን	-10.3771
▁እንደኾነ	-10.3774
▁የአይ	-10.378
ቸዋለህ	-10.3782
▁ነጋዴ	-10.3784
ቀሱ	-10.3786
ms	-10.3786
▁መለወጥ	-10.379
▁አልነበሩም	-10.3791
▁የወጣ	-10.3793
▁ወስዶ	-10.3795
las	-10.3798
▁መድኃኒት	-10.3806
ዛሬ	-10.3807
▁ሳጥኖች	-10.3813
▁አመለካከት	-10.3813
ታችንን	-10.3814
▁ካምፓስ	-10.3815
▁ብዙዎቹ	-10.3816
▁ቮ	-10.3824
ries	-10.3826
▁በከተማ	-10.3831
ቫይ	-10.3834
▁ሳምንታት	-10.3836
▁ይወዳል	-10.3836
ኤርትራ	-10.3838
▁Fe	-10.3844
▁የታወቀ	-10.3853
▁ተፅዕኖ	-10.3859
▁የመጽሐፉ	-10.3859
▁ተከታዮች	-10.3859
▁ትግበራ	-10.3859
ገለግ	-10.3866
▁ያለባቸው	-10.387
9001	-10.3876
▁ልጆቻችሁ	-10.3881
▁እናደርጋለን	-10.3881
▁ተባለ	-10.3898
ወቃ	-10.3903
፮	-10.3904
▁ያምናሉ	-10.3904
▁ቅሬታ	-10.3905
▁በኾነው	-10.3921
▁CR	-10.3922
መሰግኑ	-10.3927
▁ህብረት	-10.3928
ors	-10.393
▁800	-10.3932
▁አሏቸው	-10.3932
ark	-10.3936
▁የተጠበቁ	-10.3945
▁መስታወት	-10.395
▁ኃይሎች	-10.3952
▁ጽዋ	-10.3952
▁፫	-10.3957
▁በመጡ	-10.3959
ዝምድና	-10.396
als	-10.3967
MT	-10.3967
ኽ	-10.3972
▁ካህናቱ	-10.3972
▁ይጠቀማል	-10.3973
▁መስማት	-10.3973
ጻፉ	-10.3974
▁ክርክር	-10.3975
vel	-10.3975
▁ፍላ	-10.3976
ወጡት	-10.3977
▁Bu	-10.3987
▁Ac	-10.3988
▁ጽኑ	-10.3991
ጋሩ	-10.3993
▁ውዴታ	-10.3995
ED	-10.3996
▁በኢየሱስ	-10.3998
RE	-10.3999
▁ምስራቅ	-10.4002
ጋይ	-10.4002
▁Wi	-10.4003
▁ማረጋገጥ	-10.4003
ለህ፤	-10.4004
ረፋ	-10.4005
▁በበጎ	-10.401
ዯ	-10.4011
ችኋለን	-10.4018
▁ድንቅ	-10.4019
▁ማጥፋት	-10.4023
ገፍ	-10.403
▁የያዘ	-10.4032
▁ሆና	-10.404
▁ትኩስ	-10.4042
ሃቸው	-10.4042
▁ብለን	-10.4043
ush	-10.4053
▁ድግግሞሽ	-10.4055
▁ሆናችሁ	-10.4056
▁የፓ	-10.4058
="10	-10.4061
▁ጌታቸው	-10.4062
▁ሰጥቷል	-10.4065
PP	-10.4068
▁ሰዓቲቱ	-10.4068
▁በኾኑት	-10.4069
▁የመቋቋም	-10.4072
ነፃ	-10.4073
▁ወዮ	-10.4075
▁ፍላጎቶች	-10.4088
▁ከነርሱ	-10.4088
text	-10.4089
ile	-10.4092
ታወቀ	-10.4097
pr	-10.4098
ON	-10.4106
▁የተደረገ	-10.4108
▁ትችላለህ	-10.4111
▁ማድረስ	-10.4111
▁Home	-10.4114
ደዋል	-10.4118
ical	-10.4133
▁ማይክሮ	-10.4134
▁ማውጣት	-10.4134
ገባቸው	-10.4136
▁ውድድር	-10.4137
በለጠ	-10.4138
ኢንተርኔት	-10.414
▁ፈንታ	-10.4142
▁ግማሽ	-10.4144
ምሳሌ	-10.4154
▁እንደኾናችሁ	-10.4156
▁ተጠባባቂ	-10.4157
▁ይጀምራል	-10.4157
▁ክሮ	-10.416
ራለሁ	-10.4161
▁መቁረጥ	-10.4162
▁ኑሮ	-10.4163
▁የሚያምኑ	-10.4167
▁ለማንበብ	-10.4167
▁የሚከተሉት	-10.4167
ካይ	-10.4167
▁መዘ	-10.4168
ለግሱ	-10.4174
▁ጦር	-10.4175
▁መረጃዎች	-10.4178
▁ወደዚያ	-10.418
ዦ	-10.4181
▁ብየዳ	-10.4181
▁በርሳቸው	-10.4182
▁በስራ	-10.4185
በዙ	-10.4185
ክሪ	-10.4193
hy	-10.4195
▁ዘወር	-10.4196
▁Ha	-10.4198
▁የውሂብ	-10.4204
▁መቀነስ	-10.4204
▁ቀበቶ	-10.4204
▁ተቀምጦ	-10.4204
ክፈ	-10.4206
▁75	-10.4207
▁ይገባው	-10.4219
▁ማርች	-10.4221
▁39	-10.4221
▁ተመለሰ	-10.4227
▁ተጠንቀቁ	-10.4228
▁አይደላችሁም	-10.4228
▁ዶክተር	-10.4228
▁አመልካች	-10.4228
▁የደቡብ	-10.4228
ግዙ	-10.4236
▁በዙሪያ	-10.4238
ለዩ	-10.4239
IL	-10.4242
rat	-10.4243
▁የሚደረግ	-10.4246
ወገድ	-10.4249
ቮ	-10.425
▁የወረቀት	-10.4251
▁ጸሐፊ	-10.4251
▁Pl	-10.4253
ርጉ	-10.4256
▁ለነሱ	-10.4257
ጠጉ	-10.426
▁ሰላምታ	-10.4262
▁CS	-10.4265
▁ሁነታ	-10.4275
ቋረጥ	-10.4275
▁USB	-10.4279
pi	-10.4279
▁ድብ	-10.4283
▁ኡ	-10.4284
▁AM	-10.429
ating	-10.429
ዴሞክራሲ	-10.4298
▁Outlook	-10.4298
▁አምላኬ	-10.4299
1.1	-10.43
▁ራሳቸውን	-10.4308
▁ኦር	-10.4321
▁አለብዎት	-10.4322
▁ስገዱ	-10.4324
▁ፌ	-10.4327
ባቶች	-10.4329
▁ማዶ	-10.4331
▁ጠብ	-10.4336
ሄደ	-10.4338
▁State	-10.4341
OS	-10.4342
▁ግለሰቦች	-10.4344
▁ተሳትፎ	-10.4346
▁CSGO	-10.4346
su	-10.4349
0.9	-10.4362
▁ፍጥረት	-10.437
▁ግብረ	-10.4371
▁ሀምሌ	-10.4371
ገለጥ	-10.4374
▁ቀጠ	-10.4374
▁(2)	-10.4376
▁አመጡ	-10.438
▁ከአሁን	-10.4386
▁ቦርሳዎች	-10.4392
▁በአሕዛብ	-10.4394
▁የህክምና	-10.4394
▁የሴራሚክ	-10.4394
▁ጣዖት	-10.4394
▁አስረጅ	-10.4394
ታለች	-10.4396
ፈቀድ	-10.4398
ሞክራ	-10.4402
▁የተሠራ	-10.4404
UN	-10.4411
PR	-10.4414
▁ታዛዦች	-10.4418
▁ማሻሻል	-10.4418
ኾናችሁ	-10.4418
▁ተንኮል	-10.4418
gg	-10.4419
እርዳታ	-10.442
▁ለመጀመር	-10.4425
መጽሐፍ	-10.4427
▁ጣል	-10.4432
ነቃ	-10.4439
▁በደረሰ	-10.4441
▁በሰሜን	-10.4442
▁አካዳሚ	-10.4442
ድርጅቱ	-10.4443
▁ንቅሳቶች	-10.4444
▁መግባት	-10.4444
▁ሕጋዊ	-10.4445
▁እንዲያውም	-10.4448
▁ያችን	-10.4449
ወሰዱ	-10.4454
መጣላቸው	-10.4456
ina	-10.4457
ኮምፒዩተ	-10.4466
▁ካታሎግ	-10.4466
▁ለብዙ	-10.4466
▁ክርስቲያኖች	-10.4467
ind	-10.4468
▁ዓይኖቻቸው	-10.4469
ማህበራዊ	-10.447
▁ሲቀሩ	-10.4472
2.5	-10.4476
▁የቴክኖሎጂ	-10.4482
▁በሰማ	-10.4484
▁ትክክለኛነት	-10.4487
▁የተሞላ	-10.4488
▁ትዕዛዞች	-10.449
▁እችላለሁ	-10.449
=	-10.45
ጠራው	-10.4503
▁ያወረደ	-10.4508
▁ፒሲ	-10.4512
fa	-10.4513
▁ትንታኔ	-10.4514
▁ያነጋግሩ	-10.4514
▁ነዋሪዎች	-10.4514
▁ንጹህ	-10.4514
▁ትራንስፖርት	-10.4514
▁የኤች	-10.4516
▁አግኝቷል	-10.4516
ቸዋል።	-10.4517
▁ጸጸትን	-10.4519
▁እርሱንም	-10.4523
ነቱን	-10.4524
▁ኤፍ	-10.4526
▁64	-10.453
HA	-10.4531
ጠብ	-10.4533
▁01	-10.4536
▁በሚገባ	-10.4537
▁ካፒቴን	-10.4538
ኢሜፕ	-10.4539
▁ኢሜልዎን	-10.4541
ችኋልና	-10.4543
▁ገፅ	-10.4547
ST	-10.4549
info	-10.4554
▁ኢንቨስትመንት	-10.456
ort	-10.456
RO	-10.4561
▁የስነ	-10.4561
▁ማስገቢያ	-10.4562
▁የዳዊት	-10.4562
▁አያምኑም	-10.4563
ረጉ	-10.4566
▁ክፈት	-10.4566
▁Ti	-10.4566
▁ገላጭ	-10.4567
2016	-10.4568
▁እንዳሉ	-10.4569
ፈቃ	-10.4573
▁ሳኦል	-10.4574
▁ዙር	-10.4577
▁ስደተኛ	-10.4587
▁ከእሳት	-10.4592
▁ምዕራብ	-10.4594
form	-10.4595
aw	-10.4598
▁ወንዶችና	-10.4601
ign	-10.4605
ding	-10.4609
▁የአእምሮ	-10.461
▁Mac	-10.4611
▁መጽሐፈ	-10.4611
▁አንገ	-10.4613
▁ባሮች	-10.4614
ane	-10.4616
▁ከሁሉም	-10.4621
▁የሚሰጥ	-10.4627
መዱ	-10.463
▁2005	-10.4631
que	-10.4632
mer	-10.4634
▁በደስታ	-10.4634
ተከተሉ	-10.4635
▁ዘመናት	-10.4636
ርኩ	-10.4637
▁ፕሬስ	-10.4637
▁Mo	-10.4647
▁ያደረጉ	-10.4647
▁አንበሳ	-10.4648
▁የሸ	-10.4648
▁ይሁን።	-10.465
መላክ	-10.4655
▁جلاله	-10.466
▁ጓደኞች	-10.466
TR	-10.4662
ላለች	-10.4664
▁መብቱ	-10.4665
▁ብቸኛ	-10.4667
▁ሆነ፥	-10.4668
0.6	-10.467
▁ደር	-10.4674
▁በህግ	-10.4678
0.4	-10.4679
ለውጥ	-10.4679
▁ወስ	-10.4684
ys	-10.4684
ሒ	-10.4685
▁መናፍቃን	-10.4685
▁አግኙን	-10.4685
▁ጻድቅ	-10.4685
▁ኬብል	-10.4685
TS	-10.4689
ፖሊስ	-10.4691
መስጠ	-10.4694
▁55	-10.4701
▁ከመጽሐፉ	-10.4709
▁ተኮ	-10.4711
▁ጋሻ	-10.4716
▁ቫን	-10.4719
▁\	-10.4727
▁MS	-10.4729
▁ሕንፃ	-10.473
ዘጋጅ	-10.4731
▁የሚያውቁ	-10.4732
▁ጉዳ	-10.4733
▁ውሃን	-10.4734
▁በነፍሶቻቸው	-10.4734
▁ተዓምራቶች	-10.4734
▁ደህንነቱ	-10.4734
▁ጽሑፎች	-10.4734
▁ጣሊያን	-10.4734
▁ሚስቶች	-10.4734
▁ዩኒ	-10.4736
▁ጣሪያ	-10.4739
ፒክ	-10.4741
ree	-10.4743
መረጥ	-10.4746
▁ታይ	-10.475
▁የነበራችሁትን	-10.4753
▁ጥበበኛው	-10.4755
▁የጣቢያ	-10.4755
▁ኢኮኖሚያዊ	-10.4759
▁ትሠሩት	-10.4763
▁ደጋፊዎች	-10.477
ፏል	-10.477
▁ጥላቻ	-10.4777
-200	-10.4778
ለውጡ	-10.4781
light	-10.4782
▁አቀማመጥ	-10.4783
▁አይደለህም	-10.4783
▁አዳራሽ	-10.4783
▁ክልሎች	-10.4784
▁መተካት	-10.4784
▁ቀጥታ	-10.4785
▁ማስተላለፍ	-10.4786
▁ውሸት	-10.4787
own	-10.4788
▁የተሻሻለ	-10.4788
▁do	-10.4791
▁የደንበኛ	-10.4792
ቧል	-10.4803
▁ይላቸዋል	-10.4807
▁በኀይል	-10.4808
▁ዕድገት	-10.4808
▁ቅናሾች	-10.4808
ፈጸሙ	-10.4809
ates	-10.4812
ተዉ	-10.4813
▁እንዳለው	-10.4814
▁ግንባር	-10.4815
ሁለት	-10.4815
▁ሙስሊሞች	-10.4819
▁መቃ	-10.4822
tter	-10.4822
ዘል	-10.4823
ለፈ	-10.4824
▁ከእውነት	-10.4827
▁ጃፓን	-10.4828
▁ሊያስ	-10.4832
ዠ	-10.4833
▁አዝራር	-10.4833
▁ምሥራቅ	-10.4833
▁ዛፎች	-10.4834
▁በስፋት	-10.4835
▁በውኃ	-10.4835
▁አሲድ	-10.4835
▁ሁላችሁ	-10.4836
wi	-10.4836
NA	-10.484
tra	-10.4849
ለን።	-10.485
▁ፎር	-10.4852
▁የተቀደሰ	-10.4854
▁ማቀዝቀዣ	-10.4858
▁ሞተርሳይክሎች	-10.4858
▁ካርቦን	-10.4858
▁ጥብቅ	-10.4858
▁ራስህን	-10.4862
ጥፍ	-10.4863
ey	-10.487
▁አንደኛ	-10.4874
▁የእሱ	-10.4876
▁አለብን	-10.4877
ኤክስ	-10.4878
▁ተራሮች	-10.4884
ቦታ	-10.4888
ao	-10.4891
▁የተባለው	-10.4893
▁ቁም	-10.4896
og	-10.4897
ሷል	-10.49
▁የጨዋታ	-10.4901
▁ይላኩ	-10.4902
ጋቢ	-10.4902
▁እስካ	-10.4903
▁መናገር	-10.4904
▁የሚያጠ	-10.4904
▁የሌለበት	-10.4907
▁አዝማሚያ	-10.4908
▁ፍጆታ	-10.4908
▁ሆነ።	-10.4911
▁የለኝም	-10.4912
▁ሕገ	-10.4913
▁በዳይ	-10.4915
▁ግምገማዎችን	-10.4915
▁ስለሆነ	-10.4921
▁ገጽታ	-10.4931
ኪንግ	-10.4932
▁06	-10.4933
ደረጋችሁ	-10.4934
heng	-10.4934
▁ነበረው	-10.4935
ቡድ	-10.4935
▁ድግምት	-10.4935
▁የመግቢያ	-10.4936
lor	-10.4942
▁እትም	-10.4945
▁ለመገንባት	-10.4945
ትክክለኛ	-10.4947
▁ለመቀበል	-10.4949
▁can	-10.4951
150	-10.4953
▁ይበላ	-10.4956
ዞሩ	-10.4959
▁አይደለንም	-10.4959
▁ኮምፒውተር	-10.4959
▁ማዕዘን	-10.496
▁ወረደ	-10.4965
ji	-10.4967
▁ወታደራዊ	-10.4967
lock	-10.4972
lay	-10.4972
ሟል	-10.4982
▁እሳትን	-10.4982
▁ተዋቸው	-10.4983
▁CarGebeya	-10.4984
▁የቅንጦት	-10.4984
▁አንጻር	-10.4984
▁ብሏል	-10.4985
ነጥ	-10.4987
ons	-10.4988
▁ሊሆኑ	-10.499
▁ገር	-10.4997
ኮል	-10.4997
▁እሴት	-10.4998
መሰረተ	-10.4998
▁የሌላቸው	-10.4998
▁ዘመ	-10.5005
▁ላሉት	-10.5007
ሞተ	-10.5008
ለወጥ	-10.5009
ብሔር	-10.501
▁በብር	-10.5011
ሰደዱ	-10.5017
▁09	-10.5023
ዘጋጁ	-10.5024
▁ገብቶ	-10.5025
fs	-10.503
ኖራ	-10.5031
▁ማስጠንቀቂያ	-10.5033
▁መጨመር	-10.5033
▁መጭመቂያ	-10.5035
▁ይታያል	-10.5035
▁እርሷም	-10.5035
▁ቀዳዳ	-10.5036
ari	-10.5037
▁አላት	-10.5039
bl	-10.5043
ወደደ	-10.5045
way	-10.5047
ጤና	-10.5052
▁ስጡ	-10.5054
inch	-10.5059
▁የተባበሩት	-10.5061
▁ከእምነት	-10.5062
ኞቻችን	-10.5062
▁ከከተማ	-10.5064
ገራችሁ	-10.5064
▁ሲሳይን	-10.5064
▁ይመጣሉ	-10.5065
▁የተመዘገበ	-10.5069
▁ግቡ	-10.507
▁እስራኤልም	-10.5071
ፕሪ	-10.5078
ert	-10.508
ካሬ	-10.5083
▁በየትኛው	-10.5086
▁ፍቃድ	-10.5086
▁ምቾት	-10.5086
▁ቀለሞች	-10.5086
▁መውጣት	-10.5087
ኛልና	-10.5089
▁በመባል	-10.5091
▁ከጌታቸው	-10.5094
ሳለሁ	-10.5094
ክሊ	-10.5094
ኬንያ	-10.5096
▁ያደረገው	-10.511
መሐላ	-10.5111
▁በመውሰድ	-10.5112
▁አይወድም	-10.5113
▁ምሽት	-10.5114
▁እስራኤልን	-10.5115
▁የአገር	-10.5117
▁SD	-10.5117
▁ተነሥቶ	-10.5118
▁እየሰራ	-10.5126
▁ምስልን	-10.5131
▁ቴክ	-10.5132
rc	-10.5133
EN	-10.5134
▁በአፍሪካ	-10.5135
▁እንዲሆኑ	-10.5135
▁መስፈሪያ	-10.5137
▁ቁጥሮች	-10.5137
▁በደለኞች	-10.5137
ማድረግ	-10.5138
▁ይሄዳል	-10.5138
▁በመንፈስ	-10.5138
▁በእምነት	-10.5139
▁are	-10.5151
ረጃ	-10.5154
ዩኤስ	-10.5156
▁ይመራ	-10.5158
▁ተክል	-10.5159
ሚዎች	-10.516
▁ተቃዋሚ	-10.5163
▁የንጉሡ	-10.5163
ness	-10.5166
ዴል	-10.5166
▁ሰጣቸው	-10.5166
▁እየጨመረ	-10.5167
▁መሆናቸውን	-10.5169
▁ጌጥ	-10.5171
ወረዱ	-10.5171
▁PU	-10.5178
ወይም	-10.5186
▁ጉዳዩ	-10.5187
ብራዚል	-10.5189
▁Visa	-10.519
▁ከሁሉ	-10.5191
መንግሥት	-10.5191
ቀሩ	-10.5193
ጎድ	-10.5196
ራቸውም	-10.5196
▁የሰውነት	-10.5199
▁ይከጀላልና	-10.5201
▁ዝግ	-10.5201
▁ቀሪ	-10.5202
ጨመር	-10.5203
▁በዙሪያው	-10.5204
ነቴ	-10.5209
▁ክስ	-10.5211
ዋቸውም	-10.5214
▁ልጥፎች	-10.5215
▁የፋይናንስ	-10.5215
▁ኩኪዎች	-10.5215
▁አልቻለም	-10.5215
▁ዳግም	-10.5216
0.3	-10.5216
▁የኾነውን	-10.5217
▁በመካከላቸውም	-10.5223
▁ነገረ	-10.5225
ጓጓ	-10.5231
አምላክ	-10.5238
▁2.0	-10.524
▁ሞተርሳይክል	-10.5241
▁በይነገጽ	-10.5241
ርሶ	-10.5247
ME	-10.525
▁undo	-10.525
▁ስፒ	-10.5253
ሃድ	-10.5253
▁ለከሓዲዎች	-10.5254
ዓይነ	-10.5254
ቆቹ	-10.5257
▁የአዲስ	-10.5258
0%	-10.5262
ላችኋለሁ	-10.5264
ኖብ	-10.5265
ረጅም	-10.5265
▁ነጻነት	-10.5266
▁ውስብስብ	-10.5267
▁አላውቅም	-10.5267
▁በሁለቱ	-10.527
ገነባ	-10.527
▁ወደዚህ	-10.5271
▁ጎዳና	-10.5272
ረኞች	-10.5274
ያቸውን	-10.5277
ሰኘ	-10.5281
▁ከሌላ	-10.5287
ራፊ	-10.5289
▁ጠፍጣፋ	-10.5293
▁አገዛዝ	-10.5293
▁ወንበር	-10.5294
▁በእርስዋ	-10.5299
▁ይበሉ	-10.5299
▁Mon	-10.53
▁መንጋ	-10.53
ታውቁ	-10.53
▁ሀይ	-10.5307
ቆጠ	-10.5312
▁የባሕር	-10.5313
▁የሚሉት	-10.5314
▁የሚመራ	-10.5316
▁0.5	-10.5316
▁Official	-10.5319
▁አገናኞች	-10.5319
▁በጥብቅ	-10.5319
▁ቁራጭ	-10.5319
▁ከፊላቸው	-10.532
ሃልና	-10.532
unt	-10.532
▁ጸሎት	-10.5321
▁የኾኑን	-10.5324
ውስጥ	-10.5327
▁አጥፊ	-10.5333
ፈጸመ	-10.5334
▁DC	-10.5339
="11	-10.5339
ከሓዲዎች	-10.534
▁የጌታህ	-10.5341
▁አጥር	-10.5343
▁ነፍሱን	-10.5343
▁መቁረጫ	-10.5345
▁የሚችለው	-10.5346
ጌጥ	-10.5348
ወሰኑ	-10.5354
tech	-10.5355
▁—	-10.5357
ድስት	-10.5359
ሶስተኛ	-10.5359
cu	-10.5363
har	-10.5364
▁መጠየቅ	-10.5369
▁በጭራሽ	-10.5372
▁ብላቴና	-10.5372
ሳተፍ	-10.5374
▁ወዳጆች	-10.5374
bu	-10.5378
▁Win	-10.5385
ለህ፥	-10.5386
▁የሚውል	-10.5395
ቀዋል	-10.5395
saveatrain	-10.5398
▁ተደጋጋሚ	-10.5398
▁ከእርስዋ	-10.5398
▁ውሰድ	-10.5398
▁ክፈፍ	-10.5399
▁በፍርድ	-10.5399
ሙሉ	-10.5403
ጠብቀ	-10.5408
▁ነኝ።	-10.5413
DE	-10.5423
cal	-10.5423
▁መክፈል	-10.5425
ቶቼ	-10.5426
▁ስልት	-10.5427
tan	-10.5427
tru	-10.5427
gi	-10.5428
▁ሊገኝ	-10.543
▁ለመፈለግ	-10.5433
▁ሳኦልም	-10.5439
▁00:	-10.5443
▁መንገ	-10.5443
▁ነፍሴ	-10.5446
®	-10.5451
▁ተቃውሞ	-10.5451
▁ከርሷ	-10.5452
ጠጥ	-10.5453
▁በክፉ	-10.5453
▁ይመራል	-10.5455
▁አሉሚኒየም	-10.5458
▁የሚገባ	-10.5459
ጓዝ	-10.546
ወንጀ	-10.5462
▁ከወንድ	-10.5466
▁ክላ	-10.5468
▁ዕለት	-10.5469
▁ሰላ	-10.5471
▁ኀ	-10.5477
▁ቦይንግ	-10.5478
▁ትመለሳላችሁ	-10.5478
▁ይመዝገቡ	-10.5478
▁ንብረቶች	-10.5478
▁ጡባዊ	-10.5478
ff	-10.5479
▁ኑሕ	-10.548
ሸከሙ	-10.5481
ስፔን	-10.5482
SI	-10.5482
top	-10.5488
በደለ	-10.5489
ዕል	-10.549
▁አይነቶች	-10.5499
▁ተሽከርካሪ	-10.5502
ر	-10.5504
▁መስኮች	-10.5505
0.7	-10.5507
▁ጀመር	-10.5509
▁Card	-10.5511
▁44	-10.5516
dy	-10.5516
▁ተጨ	-10.5518
ከታተል	-10.5518
▁የእኔን	-10.5519
▁ከሓዲ	-10.5521
ö	-10.5531
▁ፋሽን	-10.5531
▁መጠጊያ	-10.5532
▁ርኩስ	-10.5533
ቻችሁን	-10.5533
መላእክት	-10.5535
▁የአር	-10.5536
▁ልቤ	-10.5544
▁ዋናዉ	-10.5549
▁05	-10.5551
▁ዩኒቨርስቲ	-10.5552
RT	-10.5552
ቤተሰቦ	-10.5553
▁የሞተ	-10.5556
▁ለማሳየት	-10.5558
▁ሀገሮች	-10.5558
▁ጥቂቶች	-10.5558
▁በልቡ	-10.5565
▁New	-10.5567
▁ከተማይቱ	-10.5577
▁ምሥክርነት	-10.5585
▁ጴጥ	-10.5585
▁ይረዳል	-10.5586
▁በሮች	-10.5593
▁እንደሚችል	-10.5595
▁እውነቱ	-10.5611
▁እባክህ	-10.5612
▁ጥንቃቄ	-10.5612
▁ልማድ	-10.5612
አምስት	-10.5616
መረጡ	-10.5616
eg	-10.5617
ጨመረ	-10.5617
▁750	-10.5621
▁ስጋ	-10.5624
az	-10.5626
▁ጐ	-10.5626
ገንዘብ	-10.5632
ቴክ	-10.5635
ታል፤	-10.5639
▁መሥራት	-10.564
▁ዒሳ	-10.564
rp	-10.5645
ፈቅድ	-10.5646
-08	-10.5646
▁ቃሉን	-10.5651
ከበሩ	-10.5652
cor	-10.5656
▁Department	-10.5666
▁ውርርድ	-10.5666
ሃለን	-10.5666
▁ሞገስ	-10.5667
="12	-10.5667
ሟላ	-10.5667
▁አባቶቻችሁ	-10.5669
▁ዞሮ	-10.5671
▁ሠራተኛ	-10.5672
▁ያደረግ	-10.5674
▁ነዎት	-10.5674
ሰፋ	-10.5677
በረታታ	-10.5679
▁Hu	-10.568
ሬክ	-10.5681
▁ጎማዎች	-10.5688
▁ወፍራም	-10.5694
▁ዮርክ	-10.5695
ተናል	-10.5696
ጠየቅ	-10.5698
ብሔራዊ	-10.5701
▁di	-10.5702
ጠብቃ	-10.5706
ከሉ	-10.5708
▁የሰዎች	-10.5708
▁የተሟላ	-10.5708
▁ካህኑም	-10.5711
▁ጥያቄዎን	-10.5712
▁የፊ	-10.5713
ik	-10.5718
▁አሳብ	-10.5719
ዌር	-10.5719
▁በደረጃ	-10.572
▁የማስተዋወቂያ	-10.572
▁ፋኩልቲ	-10.572
ጫወቱ	-10.572
ple	-10.5726
ቀኑ	-10.5727
bit	-10.5728
▁የእንስሳት	-10.5728
▁መጀመር	-10.5729
▁ተመራማሪዎች	-10.5729
▁2.5	-10.5734
CM	-10.5735
▁crypto	-10.5735
ፈረሰ	-10.5736
▁ሕፃን	-10.5738
0000	-10.5739
her	-10.5745
▁ኮሚሽን	-10.5748
▁ዠይጂያንግ	-10.5748
▁ከብዙ	-10.5749
!!!	-10.5753
▁አቋም	-10.5753
▁ነበሩት	-10.5754
መደበኛ	-10.5757
▁ብቁ	-10.5764
CT	-10.5764
ተፈጠረ	-10.5769
ጸጸቱ	-10.5775
▁በመጀመሪያው	-10.5794
▁NO	-10.5795
▁Ab	-10.58
▁አይደለችም	-10.5803
▁ኤጀንሲ	-10.5803
▁Gr	-10.5806
ail	-10.5806
▁ይህችን	-10.581
▁አስታው	-10.5811
▁አንዳ	-10.5813
ሁህ	-10.5816
▁የሚያደርጉ	-10.5821
▁ተሰጥቷቸዋል	-10.583
▁ተዛማጅ	-10.583
▁ኮርፖሬሽን	-10.583
▁ቅመሱ	-10.583
ልቦና	-10.5836
IM	-10.584
▁ምእመናን	-10.5843
▁በገባ	-10.5849
▁Deposit	-10.5858
▁Instagram	-10.5858
▁የሠሩትን	-10.5859
▁ከሁለት	-10.5859
▁ኢዮብ	-10.5859
▁አትፍራ	-10.586
▁የመንግሥት	-10.5862
▁ወዮላቸው	-10.5865
GB	-10.5873
▁በጋራ	-10.5874
መዝገብ	-10.5877
long	-10.5884
▁ዳይሬክተር	-10.5885
ä	-10.5885
▁KTM	-10.5885
▁ጓደኝነት	-10.5885
¥	-10.5886
▁ሸክም	-10.5888
▁Moto	-10.5894
▁ከሐ	-10.5896
ጋደል	-10.5904
log	-10.5904
ction	-10.5904
ery	-10.5905
▁ሕዝቤ	-10.5913
▁የሃይድሮሊክ	-10.5913
▁የፌዴራል	-10.5913
▁ለማሳደግ	-10.5913
▁ተመልከቱ	-10.5913
▁የባንክ	-10.5913
ዎቼ	-10.5915
▁ማሻሻያ	-10.5916
OP	-10.5916
▁አታሚ	-10.5917
ዘዛቸው	-10.5918
▁ወረ	-10.5919
▁ኢንዱስትሪዎች	-10.592
▁CF	-10.5921
–	-10.5927
▁Car	-10.5929
▁መደብር	-10.5937
▁ኪሎ	-10.5938
HC	-10.5939
ትምህር	-10.594
▁ምስጢር	-10.5941
▁መድረኮች	-10.5941
▁ከግብፅ	-10.5941
▁ጭንቀት	-10.5941
▁ነዳጅ	-10.5941
ለዋወጥ	-10.5941
▁ገላ	-10.5942
CI	-10.5942
▁ተቀብ	-10.5942
▁መምጣት	-10.5943
▁March	-10.5944
▁ገደለ	-10.5944
ቷን	-10.5947
▁በኾኑ	-10.5953
▁የቀን	-10.5955
ወለ	-10.5962
ለምኑ	-10.5962
▁የራሱን	-10.5966
ሖ	-10.5969
ت	-10.5969
ع	-10.5969
▁ሂሳብ	-10.5969
▁ፍጠር	-10.597
ፍሬ	-10.5974
ረቡ	-10.5975
▁አገባ	-10.5976
▁ላለው	-10.598
▁ከፍታ	-10.5981
▁በዚያች	-10.5989
▁ከባቢ	-10.5991
▁የህግ	-10.5992
RI	-10.5996
ዊንዶውስ	-10.5997
ማህበረሰ	-10.5997
▁ግጭት	-10.5997
▁አንብብ	-10.5997
መጠቀሚያ	-10.5997
▁የሚገባው	-10.6001
▁አሸናፊዎች	-10.6005
less	-10.6016
▁ይሞክሩ	-10.6025
▁ድህረ	-10.6025
▁አስቂስ	-10.6025
▁በግምት	-10.6027
ቆያ	-10.6032
▁መከተል	-10.6034
▁የልጅ	-10.6034
▁65	-10.6041
▁ፖለቲካ	-10.6049
፳	-10.6053
▁csgo	-10.6053
▁ምክንያታዊ	-10.6053
▁ሪፐብሊክ	-10.6053
▁የያዕቆብ	-10.6053
እውነት	-10.6053
▁አሮጌ	-10.6054
▁ማደሪያ	-10.6054
▁የፕሬስ	-10.6054
▁Wa	-10.6055
▁ሙያ	-10.6057
▁የገና	-10.6063
ory	-10.6067
▁ዘወትር	-10.6067
ጋቸው	-10.6073
▁መልሶ።	-10.608
▁Yamaha	-10.6082
▁ክህደት	-10.6082
▁ማሞቂያ	-10.6082
▁መሥሪያ	-10.6082
▁ምረቃ	-10.6082
▁ቶነር	-10.6082
▁ብራንድ	-10.6083
▁ሃይማኖ	-10.6083
▁በረዶ	-10.6084
▁ፈቀቅ	-10.6084
IA	-10.6087
▁በተቻለ	-10.6093
▁ሮዝ	-10.6093
ade	-10.6095
ኤች	-10.6095
▁የሚባል	-10.6097
▁ያስገቡ	-10.61
▁Appointment	-10.611
▁ያካትታሉ	-10.611
▁جل	-10.611
▁ቅርቢቱ	-10.611
▁ቁምፊዎች	-10.611
ze	-10.6113
▁አድርጌ	-10.6113
ገናኝ	-10.6114
▁የሞት	-10.6115
▁የሚፈልጉትን	-10.6116
▁ያመኑትን	-10.6121
▁ማሰብ	-10.613
ጧት	-10.6131
ጽናና	-10.6136
▁በሕዝቡ	-10.6138
▁ኮንፈረንስ	-10.6138
▁ይናገራል	-10.6138
▁ይቀበላል	-10.6138
▁ለሌሎች	-10.6138
▁ራሴ	-10.6146
iz	-10.6146
▁ጠባቂዎች	-10.6146
▁Gear	-10.6147
▁የተገኘ	-10.6148
▁የሰላም	-10.615
▁አካባቢያዊ	-10.6151
zo	-10.6152
▁ቀጥተኛው	-10.6153
▁IC	-10.6154
▁ወጪዎች	-10.6154
▁አደረገ።	-10.6159
▁የሚጠራ	-10.6164
▁ጌታቸውን	-10.6164
ማችን	-10.6165
▁YouTube	-10.6167
▁በመጽሐፉ	-10.6167
▁የፍርድ	-10.6168
ሎጥ	-10.6169
▁ገንዳ	-10.6169
China	-10.6169
▁እህል	-10.6175
▁Mod	-10.6175
አሸባሪ	-10.6177
ሙስና	-10.6178
ኛል።	-10.618
ነታችን	-10.6181
ix	-10.6184
▁እንግዳ	-10.6184
ዳሪ	-10.6186
▁የተወረደ	-10.6188
▁ሲሊንደር	-10.6194
▁በጨለማ	-10.6194
ene	-10.6196
▁ሃሳብ	-10.6196
travel	-10.6196
▁የእግር	-10.6196
="0.1	-10.6198
▁ከፊል	-10.6198
▁ቀርቦ	-10.62
USD	-10.6204
መጀመሪያ	-10.6207
ርዶ	-10.6208
▁፬	-10.621
▁አዋቂ	-10.6217
="15	-10.6219
▁ተቋ	-10.6224
▁ይናገራሉ	-10.6224
▁ማስተካከያ	-10.6224
▁iOS	-10.6224
▁እሴቶች	-10.6224
▁ዘላለም	-10.6224
▁ከኾነው	-10.6224
▁ይሽጡ	-10.6224
ሠር	-10.6225
▁የካዱ	-10.6227
▁ወረዳ	-10.6228
▁2007	-10.6228
ዮቹ	-10.6229
▁ቾን	-10.623
▁ግዛ	-10.623
van	-10.6233
time	-10.6238
ቀባ	-10.6242
2015	-10.6243
IP	-10.6245
▁መማር	-10.6246
ጠይቀ	-10.6247
▁በርሱም	-10.6248
▁ባሪያህ	-10.6249
ራል።	-10.6251
▁በእርግጠኝነት	-10.6253
መሠረቱ	-10.6253
▁Wars	-10.6253
▁ትውስታ	-10.6253
ታሪክ	-10.6253
▁ጠርዝ	-10.6254
▁ያገኙ	-10.6257
▁Ta	-10.6259
ization	-10.6259
▁Ke	-10.6265
250	-10.6266
▁ሃይ	-10.6272
▁07	-10.6274
▁ጠብታ	-10.6277
ky	-10.6279
▁ካፕቶፕ	-10.6282
▁ክፍተት	-10.6282
▁መምህር	-10.6282
▁ግብይት	-10.6282
▁ወፍጮ	-10.6282
ፒክስል	-10.6283
▁03	-10.6286
▁የተፈቀደ	-10.6292
ወላጅ	-10.6293
▁ለሆኑ	-10.6296
view	-10.6299
▁በአሥራ	-10.6299
5,000	-10.6305
▁ምሳሌዎች	-10.6305
BS	-10.6305
አንገት	-10.6305
▁PM	-10.6307
▁የግንባታ	-10.631
▁ሳምንቶች	-10.631
▁ምስጉን	-10.631
▁ዙፋን	-10.631
▁ለማሟላት	-10.631
▁በከንቱ	-10.6311
▁የምትሠሩትን	-10.6311
▁ዩኬ	-10.6311
▁ባድማ	-10.6312
▁የካናዳ	-10.6316
ደገፍ	-10.6317
den	-10.6317
ገድል	-10.632
▁ካናዳ	-10.6321
▁የኩባንያ	-10.6323
▁ሞላ	-10.6323
▁ጎሳ	-10.6325
▁የሚሰጡ	-10.6328
ወስደው	-10.6335
▁ሥሩ	-10.6336
ወደው	-10.6336
▁ለዓለማት	-10.6339
▁በተደጋጋሚ	-10.6339
▁ኦፊሴላዊ	-10.6339
▁ጭብጥ	-10.634
ሶስት	-10.6341
▁ፊቱን	-10.6342
mic	-10.6343
▁ካሉ	-10.6347
era	-10.6348
ፏ	-10.6354
ሸት	-10.6356
IR	-10.636
ጌታ	-10.6365
ናገረው	-10.6365
▁የጃፓን	-10.6368
▁ተልዕኮ	-10.6368
▁ታላላቅ	-10.6368
▁የሙዚቃ	-10.6368
▁ሂደቶች	-10.6369
▁የኋላ	-10.6369
▁ፓሪስ	-10.6369
ነበቡ	-10.637
በረከ	-10.637
▁አስተማሪ	-10.6372
ደረስ	-10.6376
▁በቤቱ	-10.6383
ure	-10.6383
▁እመኑ	-10.6387
▁አስገባ	-10.6389
1.5	-10.6391
▁ተጫዋች	-10.6398
▁የሻንጋይ	-10.6398
▁ዩሱፍ	-10.6398
▁ህዝቦች	-10.6398
▁ውጫዊ	-10.6398
▁መልካሞችን	-10.6399
read	-10.64
▁28,	-10.6403
▁43	-10.6403
▁ቢሻ	-10.6404
can	-10.641
UR	-10.6414
ስበው	-10.6414
▁ባሉት	-10.6415
ቈጠሩ	-10.6416
ዘሩ	-10.6416
ንግሥ	-10.6416
ወለዱ	-10.6419
▁ያረጋግጡ	-10.6422
1.0	-10.6422
NS	-10.6425
▁በተያያዘ	-10.6427
▁ሕንጻ	-10.6427
▁በነበራችሁት	-10.6427
▁ለማስወገድ	-10.6428
▁ባልተ	-10.6433
▁መጠኖች	-10.6433
ning	-10.6435
▁ውሰጥ	-10.6436
▁ቀፎ	-10.6438
▁በብርሃን	-10.644
▁0.2	-10.6444
▁ሰፋ	-10.6446
ፈቅ	-10.6448
▁ሁላችንም	-10.6453
▁የተፈጠረው	-10.6453
é	-10.6456
▁አቀራረብ	-10.6456
▁ውርደት	-10.6456
▁ፍጡር	-10.6456
▁ኪራይ	-10.6456
ንጉሥ	-10.6457
ዶርኖ	-10.6458
▁እንዳዘዘ	-10.6459
▁ማናቸውም	-10.646
ጠሩት	-10.6461
▁የሚፈልግ	-10.6465
▁አርማ	-10.6467
▁ላለ	-10.6468
▁የልማት	-10.6469
ባችን	-10.647
▁መገንባት	-10.647
ከመ	-10.6471
▁አብይ	-10.6474
lan	-10.6474
▁ቀድሞ	-10.6474
▁ቢጫ	-10.6484
▁የሚመጣ	-10.6484
2017	-10.6485
▁ሃርድዌር	-10.6486
▁የክርስቶስ	-10.6486
▁ለመረዳት	-10.6486
▁ሰላማዊ	-10.6486
ፈረደ	-10.649
▁መርከብ	-10.649
አንዳንድ	-10.649
▁(1)	-10.6493
ከበረ	-10.6499
▁በሆኑ	-10.6502
ሰጠኝ	-10.6503
sky	-10.6505
UL	-10.6507
ele	-10.6507
▁ዓሣ	-10.6511
▁ትሬዲንግ	-10.6515
▁ከምእምናን	-10.6515
▁የፈርዖን	-10.6515
back	-10.6516
▁የቡድን	-10.6519
▁XL	-10.652
▁2006	-10.652
▁ለረጅም	-10.6525
▁ቅጣቱን	-10.6528
ye	-10.6536
SE	-10.6536
▁ብላችሁ	-10.6536
▁Pi	-10.6538
ለች፤	-10.6539
▁ግፍ	-10.6539
መግለጽ	-10.6539
ook	-10.6544
▁በፊቴ	-10.6545
▁ግለሰብ	-10.6546
▁በሰላም	-10.6547
አራተኛ	-10.6556
▁ኤሌክትሮኒክስ	-10.6561
▁so	-10.6565
▁ምስክርነት	-10.657
ክሎ	-10.6572
አክሲዮን	-10.6574
▁በተለምዶ	-10.6574
▁መጋረጃ	-10.6574
▁ተደርጎ	-10.6574
▁ለማምጣት	-10.6575
▁ልኬቶች	-10.6575
▁ካልሆነ	-10.6576
board	-10.6577
▁በመፍጠር	-10.6577
▁Dr	-10.6578
▁ከሓዲዎቹ	-10.6578
▁ይሁን፤	-10.6579
ዘብ	-10.6588
▁ኃይ	-10.6588
ren	-10.6591
▁ዎርድፕረስ	-10.6592
ነዱ	-10.6596
rd	-10.6602
▁ቁርጥራጮች	-10.6604
▁ታውቃለህ	-10.6604
▁መመልከት	-10.6605
▁መረጃዎችን	-10.6605
ፎር	-10.6605
▁መውጫ	-10.6607
▁ቅደም	-10.6607
▁ፖሊስ	-10.6611
ink	-10.6616
ከፋፈል	-10.6616
ቮን	-10.662
▁ስጦታዎች	-10.6621
▁አይቶ	-10.6621
አል፥	-10.6629
▁በሁለቱም	-10.6631
ዲፕሎማ	-10.6634
▁ኹኔታ	-10.6634
ስፋፋ	-10.6635
ዮስ	-10.6641
▁ሴንትሮ	-10.6642
ፋችሁ	-10.6642
my	-10.6646
መሆናቸው	-10.6658
▁የፈረንሳይ	-10.6658
▁ኃጢአትን	-10.6664
▁አገልጋዮች	-10.6664
▁በሁለተኛው	-10.6665
▁የሐ	-10.6665
▁አይችልም።	-10.6666
ሰዓት	-10.6669
▁ሥራዎቻቸውን	-10.6672
xml	-10.6677
▁VP	-10.6678
▁የቀሩት	-10.6681
▁Mi	-10.6682
▁የአላህንም	-10.6682
▁ቴክኖሎጂዎች	-10.6684
▁ልጁን	-10.6685
▁ገል	-10.6685
▁ሳት	-10.6686
ዌይ	-10.6686
እድሜ	-10.6687
▁አምጡ	-10.6688
▁ቡና	-10.6688
▁የግድ	-10.6688
TH	-10.669
▁የድምጽ	-10.6693
▁በኢሜልዎ	-10.6694
▁ፍልስጥኤማውያን	-10.6694
▁ስኩተር	-10.6694
▁ወረቀቶች	-10.6694
▁የሚያስተ	-10.6695
▁ስዕል	-10.6696
▁የውጪ	-10.6696
▁አስር	-10.6697
▁as	-10.6699
▁ወፎች	-10.6702
▁በመጨረሻም	-10.6704
▁የኢየሱስ	-10.6706
here	-10.6706
ሁትን	-10.6713
▁ጊዜያዊ	-10.6715
▁ጨምር	-10.6718
▁ታጋሽ	-10.6725
▁እያደገ	-10.6727
▁ሁለ	-10.6729
▁የሚመጣው	-10.673
▁ጥጥ	-10.673
▁የግብርና	-10.6733
▁Med	-10.6737
▁ጥለት	-10.6738
በርግ	-10.674
▁የመጽሐፍ	-10.6741
▁የታተመ	-10.6747
ረኩ	-10.6749
gram	-10.6749
▁ካሉት	-10.675
▁ነበር፡፡	-10.675
▁በጀት	-10.675
ept	-10.675
▁በኾነች	-10.6751
መልእክ	-10.6752
▁ካፒተር	-10.6754
▁ስፕሪንግ	-10.6754
እንፋሎት	-10.6754
▁የመላኪያ	-10.6754
▁በተወረደው	-10.6754
▁ገንቢ	-10.6755
▁አድራጊ	-10.6755
▁that	-10.6762
sha	-10.6763
▁ዘንግ	-10.6763
ስልጣን	-10.6764
▁ዮናታን	-10.6766
▁Str	-10.6766
OM	-10.677
ally	-10.6771
▁የደረሰ	-10.6776
▁እሺ	-10.6776
ቀረው	-10.6779
add	-10.6779
▁ካጋጠመን	-10.6785
▁ቅዱሳን	-10.6785
▁በተሳካ	-10.6785
▁ወለደ	-10.6786
▁Du	-10.6786
ምርጫ	-10.6792
EX	-10.6795
▁ካህኑ	-10.6796
▁+86	-10.6799
▁ዘንጊዎች	-10.6801
▁የተመረጡ	-10.6801
oy	-10.6802
ሾቹ	-10.6802
ቻለው	-10.6807
code	-10.6812
▁ማዋቀሩ	-10.6815
▁ስንኳ	-10.6815
መሰለዎ	-10.6817
▁ወንድሞቹ	-10.6818
▁የተጣራ	-10.6818
▁ጋዜጣዊ	-10.6819
▁ስካ	-10.682
▁Si	-10.6826
eat	-10.6828
▁ወለደች	-10.6828
qui	-10.683
▁በሆ	-10.6833
ምርመራ	-10.6834
▁Do	-10.6835
▁ተነሥ	-10.6838
▁የከበረ	-10.684
▁ኾና	-10.6842
▁ያንንም	-10.6843
▁የግላዊነት	-10.6845
▁አንዳንዶቹ	-10.6845
▁ካፕተር	-10.6845
▁የውኃ	-10.6848
▁VPN	-10.6849
▁ነባሪ	-10.685
ሮቼ	-10.6853
ich	-10.6856
ko	-10.6859
▁የበጎ	-10.686
▁ሪል	-10.6863
ቀድሞ	-10.6867
tool	-10.6872
▁ሊቀመንበር	-10.6876
▁ቲያንጂን	-10.6876
▁ይጨምራል	-10.6876
▁ተመጣጣኝ	-10.6876
▁ባለሁለት	-10.688
visa	-10.6885
▁ጽሁፍ	-10.6885
Co	-10.6889
አማልክ	-10.6892
mu	-10.6898
▁ሦስተኛ	-10.6902
gy	-10.6907
▁180	-10.6907
▁በድንገት	-10.6907
▁ይለያያሉ	-10.6907
▁የሐሰት	-10.6907
▁ክንፍ	-10.6907
▁ሕግጋት	-10.6908
▁ሊኖረው	-10.6908
ረጋጋ	-10.6911
ያዛቸው	-10.6913
ሊንግ	-10.6916
bar	-10.692
▁ሰጭ	-10.6922
nic	-10.6922
▁ጫማዎች	-10.6922
ተባበር	-10.6924
▁47	-10.6927
መሰገ	-10.6927
▁ይጠብቁ	-10.693
▁ዕይታዎች	-10.6936
▁ቅርንጫፍ	-10.6938
▁አስተዋጽኦ	-10.6938
▁ርዕሰ	-10.6938
ቮንቴክ	-10.6938
ኤምባሲ	-10.6938
▁ዕውር	-10.6939
0.8	-10.6946
are	-10.6946
ond	-10.695
ቋሚ	-10.6956
▁ርዕሶች	-10.6968
▁ተነሳሽነት	-10.6968
▁አስተናጋጅ	-10.6968
▁አስፈጻሚ	-10.6968
▁ከዋክብት	-10.6968
▁ወሲባዊ	-10.6968
▁መዝናኛ	-10.6968
▁ለማምረት	-10.6968
▁ዝገት	-10.6968
▁ለመግባት	-10.6969
▁ኦሪት	-10.6969
አሁን	-10.697
▁ማመን	-10.6971
▁ገዳይ	-10.6972
ire	-10.6974
-16	-10.6983
NE	-10.6985
▁ኾነህ	-10.6986
▁Comp	-10.6986
▁በዚህች	-10.6987
▁ዝማኔዎች	-10.6987
▁02	-10.6988
let	-10.6988
▁ስርዓተ	-10.6993
ግዚ	-10.6996
▁መቁጠሪያ	-10.6999
▁ትንተና	-10.6999
xBet	-10.6999
▁ቲዩብ	-10.6999
ዘጋጃ	-10.7001
▁ዕይታ	-10.7001
▁በነፃ	-10.7002
sy	-10.7009
▁CA	-10.701
▁መሸ	-10.7012
▁ሕልም	-10.7013
ተዋል።	-10.7014
▁ያመኑና	-10.7016
link	-10.7016
ei	-10.7017
▁ቃሉ	-10.7017
ኗ	-10.7018
▁ለእነዚያም	-10.7025
▁መዝሙረ	-10.703
▁ቁልፎች	-10.703
▁እውነቱን	-10.7032
▁ሕንድ	-10.7033
ዎቹንም	-10.7035
ነዋል	-10.7036
▁አዘጋጀ	-10.7036
▁ሙታን	-10.704
mb	-10.7041
ቃጠለ	-10.7044
ተማረ	-10.705
▁ግጥሚያ	-10.7062
▁ያልተገደበ	-10.7062
▁ከቆየሽ	-10.7062
▁በነርሱ	-10.7062
▁ገደማ	-10.7065
MM	-10.7065
▁ይቀጣል	-10.7065
▁በሩቅ	-10.7067
▁ያደርጉ	-10.7067
ተኝነት	-10.7069
▁እስያ	-10.7074
="9	-10.7076
PM	-10.7077
ፈጽም	-10.7079
▁ለመያዝ	-10.7082
MO	-10.7089
ቻሉ	-10.7091
▁በጆሮ	-10.7092
ተጠናቀቀ	-10.7093
▁Auto	-10.7094
att	-10.7096
ብቃት	-10.7098
▁ተቋቋመ	-10.71
ሸጥ	-10.7104
shi	-10.7104
×	-10.7111
gov	-10.7116
LS	-10.712
▁ጋዜጣ	-10.712
መሠረተ	-10.7122
dia	-10.7124
▁Tattoo	-10.7124
▁መንፈሳዊ	-10.7124
▁ላሜራ	-10.7124
ጮኹ	-10.7124
▁ወተት	-10.7125
▁ጠርቶ	-10.7125
▁Super	-10.7126
▁ልኬት	-10.7126
▁ኩራት	-10.7127
▁በቀስ	-10.7128
▁የዘር	-10.7128
▁ጥርጥር	-10.7128
▁የወረዳ	-10.7131
▁ሊውል	-10.7136
▁QR	-10.7138
ገኛችሁ	-10.7138
▁የሚወዱ	-10.714
▁እላለሁ	-10.7142
▁መፍትሔዎች	-10.715
▁Am	-10.7152
▁ማስተዋወቂያ	-10.7156
▁እጆቻችሁ	-10.7156
-40	-10.7156
ject	-10.7157
▁41	-10.7159
press	-10.7164
▁ቀጣይነት	-10.717
▁ሰለባ	-10.7172
▁በቻይና	-10.7172
ጫኑ	-10.7177
▁Min	-10.718
ንቀሳቀሱ	-10.7187
▁በተበየደው	-10.7187
▁ፈቃደኛ	-10.7187
▁ምክትል	-10.7187
▁ተመልሶ	-10.7187
ሆናችሁ	-10.7187
ነፍስ	-10.719
ወግ	-10.7192
undo	-10.7193
0.5	-10.7193
ute	-10.7196
tur	-10.7198
▁የተረጋጋ	-10.7202
▁ፈተናዎች	-10.7213
▁ሽልማቶች	-10.7219
ማጣቀሻ	-10.7219
ኮሎምቢያ	-10.7219
▁በመልክተኛው	-10.7219
▁ጉድጓድ	-10.7219
▁አዳም	-10.7221
▁የተሰጡት	-10.7221
▁የላቁ	-10.7223
fans	-10.7229
▁በሚገኘው	-10.7234
2020	-10.7235
▁ይኸ	-10.724
2012	-10.724
፫	-10.7241
▁ናት።	-10.7243
ime	-10.7248
▁ገበያዎች	-10.7249
▁ተጨባጭ	-10.7251
▁የህንድ	-10.7252
ኦሮሞ	-10.7253
▁አትክልት	-10.7255
▁ከውጭ	-10.7257
▁አባቶች	-10.7263
▁PC	-10.7264
▁ጣለ	-10.7265
▁ታዘዙ	-10.7266
▁3.0	-10.7267
ዮሎጂ	-10.7268
መለክ	-10.7276
በርካታ	-10.7276
hai	-10.7281
▁ከሥሮቻቸው	-10.7282
▁የመርየም	-10.7282
▁ሰራዊት	-10.7283
▁ታያለህ	-10.7283
▁ህገ	-10.7283
▁የኾነው	-10.7283
▁ከሰዎችም	-10.7283
▁የውሸት	-10.7283
ize	-10.7283
▁የዲሲ	-10.7284
▁በኃይል	-10.7285
▁ወለደ፤	-10.7287
▁ኃላፊነቱ	-10.7287
አየር	-10.7288
▁ሌሊትን	-10.7297
TU	-10.7297
▁አውደ	-10.7298
WS	-10.7304
▁እገዛ	-10.7306
▁በመጠ	-10.7308
▁የመጀመሪያዎቹ	-10.7311
▁በቃል	-10.7311
ጵ	-10.7314
፱	-10.7314
▁Server	-10.7314
▁ዕወቁ	-10.7316
ጠኝ	-10.7316
▁መርጊያ	-10.7317
▁የበይነመረብ	-10.7319
ሬይ	-10.732
rol	-10.732
oll	-10.7321
ታለል	-10.7322
▁PE	-10.7324
▁በሠሩት	-10.7326
▁ካልተ	-10.7329
cho	-10.7331
▁ማስረጃዎች	-10.7331
▁እንቢ	-10.7332
▁Jo	-10.7334
rom	-10.7335
▁ያደረገውን	-10.7335
120	-10.7335
▁51	-10.7336
መንገድ	-10.7341
ሩንም	-10.7346
▁ይሸፍናል	-10.7346
▁ይደሰቱ	-10.7346
▁su	-10.7348
▁ቍጥር	-10.7348
▁Ph	-10.735
▁በመጫን	-10.7351
▁ባልነበረ	-10.7351
0.1	-10.7352
▁ተሽከርካሪዎች	-10.7353
እረፍት	-10.7353
ther	-10.7354
▁እስር	-10.7359
▁በዩናይትድ	-10.736
▁የከፍተኛ	-10.7363
2.1	-10.7364
eth	-10.7369
men	-10.7369
ጣለች	-10.737
፭	-10.7375
እናንተ	-10.7376
▁ለቀለቀችው	-10.7379
▁ምህንድስና	-10.7379
▁ተወካዮች	-10.7379
▁ይፈርዳል	-10.7379
▁ብልጭታ	-10.7379
▁እንዳደረገ	-10.7379
▁አዎንታዊ	-10.738
▁ጽንሰ	-10.738
▁ዝርያ	-10.738
ፖፕት	-10.7382
▁የኮፒ	-10.7385
▁EM	-10.7391
▁Inc	-10.7399
ችሎታ	-10.7399
▁ነፍሶቻችሁን	-10.74
fl	-10.74
▁መጽሐፍት	-10.7404
▁ካላ	-10.7404
ጸጸት	-10.7405
▁የዋጋ	-10.741
▁Crypto	-10.7411
▁ፌስቡክ	-10.7411
▁ይጠይቃል	-10.7411
▁መሙላት	-10.7411
▁TCN	-10.7411
▁ተከትሎ	-10.7411
▁ማርያም	-10.7413
▁this	-10.7413
ሡ	-10.7414
▁ማስገባትን	-10.7415
▁ነበሩና	-10.7416
▁ግብጽ	-10.742
▁እይታዎች	-10.7424
ኼድ	-10.7426
▁ሚሊ	-10.7428
="18	-10.743
ቀየር	-10.7431
▁መቆጣጠር	-10.7432
new	-10.7433
▁አስከ	-10.7436
ወስዳ	-10.7437
▁ዕዳ	-10.7437
▁የሌላ	-10.7439
▁ያዕቆብም	-10.7439
▁ምንኛ	-10.744
ችሮታ	-10.744
PT	-10.7441
ጧል	-10.7441
ልሃለሁ	-10.7442
▁ንብርብ	-10.7443
▁በሃይድሮሊክ	-10.7443
▁አስተሳሰብ	-10.7443
▁ጮኸ	-10.7443
▁አብሳሪ	-10.7444
▁ሰጥቶ	-10.7445
ቃወም	-10.7456
▁ያመጣ	-10.7457
ኮራ	-10.7457
▁በወር	-10.7458
▁የቤተ	-10.7458
ለች፥	-10.746
▁Dec	-10.7463
▁ቆመ	-10.7466
▁ማንነት	-10.747
▁ዴስክቶፕ	-10.7471
eck	-10.7475
ርፉ	-10.7475
ኮምፒተር	-10.7476
▁በየጊዜው	-10.7476
▁ፈረሶች	-10.7476
▁ሰል	-10.7476
አዲሱ	-10.7479
▁ST	-10.7483
▁እምቢ	-10.7483
▁የጀርመን	-10.7486
▁me	-10.7487
ef	-10.7492
203	-10.7492
ቦት	-10.7493
▁ነበራችሁ	-10.7494
vis	-10.7495
▁ከእርሷም	-10.7496
▁በሞት	-10.7502
ህይወ	-10.7505
▁SE	-10.7506
▁SH	-10.7506
▁ሪፖርቶች	-10.7508
▁ታኅሣሥ	-10.7508
▁በሰፊው	-10.7508
▁ልምዶች	-10.7508
2010	-10.7509
ND	-10.7511
▁መልዕክቶች	-10.7511
▁Mag	-10.7513
▁አህያ	-10.7518
▁ሜታል	-10.7524
▁እንዳታ	-10.7526
ፍላጎ	-10.753
▁no	-10.7537
ሶር	-10.7537
▁እንደሆኑ	-10.7538
▁በእነሱም	-10.7539
red	-10.7539
fu	-10.754
▁ለመመለስ	-10.7541
ዲስትሪክት	-10.7541
▁ሌዋውያን	-10.7541
▁ኦክስጅን	-10.7541
ህፃናት	-10.7541
▁ይመለሳል	-10.7541
▁ይኖረዋል	-10.7541
▁በመስራት	-10.7541
▁አራዊት	-10.7543
yn	-10.7543
ውይይት	-10.7544
▁የምታውቁ	-10.7544
140	-10.7546
ተፈቀደ	-10.7549
ገጠር	-10.755
ነሡ	-10.755
▁እንደነበረ	-10.7553
▁ወጭ	-10.7554
▁ድግ	-10.7557
▁ጌታህን	-10.7558
▁የዋለ	-10.756
ህዝብ	-10.7566
▁አዘነ	-10.7573
▁በመሠዊያው	-10.7574
▁ፕሮቶኮል	-10.7574
▁ይፈትሹ	-10.7574
▁በምትሠሩት	-10.7574
▁የኬሚካል	-10.7574
▁ከክፉ	-10.7575
▁ባህር	-10.7577
4.0	-10.7581
▁ይከተሉ	-10.7582
▁የማይችሉ	-10.7584
▁ሲዲ	-10.7585
ገባችሁ	-10.7585
▁ጠየቀ	-10.7588
▁ሇ	-10.759
▁ጫን	-10.7596
ext	-10.7598
UT	-10.7604
▁ድካም	-10.7607
▁አትክልቶች	-10.7608
▁ባለመ	-10.7608
ያረጋግጡ	-10.7612
▁3000	-10.7612
▁በደረ	-10.7618
ney	-10.7623
▁str	-10.7626
አራት	-10.7628
ገለጽ	-10.7629
▁በዓመት	-10.7637
▁አፈፃፀም	-10.7638
▁መለወጫ	-10.764
▁መስጊድ	-10.764
▁ተለውጧል	-10.764
▁በተፈጥሮ	-10.764
▁Pocket	-10.764
▁ግርማ	-10.764
ስወግድ	-10.7643
▁ውሏል	-10.7643
▁ለመደገፍ	-10.7646
cur	-10.7649
ከለከል	-10.7649
▁ከሰዎች	-10.765
▁Mar	-10.7651
ption	-10.7653
ero	-10.7654
▁አብራ	-10.766
ሞከር	-10.7667
▁Air	-10.7667
▁ታሪኮች	-10.7673
▁ማጥመድ	-10.7673
▁የሳይንስ	-10.7673
ተመዘገቡ	-10.7673
▁ንጥል	-10.7674
2000	-10.7678
▁ካንተ	-10.7678
▁የሰማይ	-10.7679
▁የሚችሉት	-10.768
ስታወ	-10.7683
አባትህ	-10.7683
▁በእጅህ	-10.7691
rop	-10.7692
ቃጠል	-10.7698
▁የወንድ	-10.77
▁በኢየሩሳሌምም	-10.77
አፍሪካ	-10.7702
="16	-10.7702
▁ሠሪ	-10.7702
▁ወጣ።	-10.7704
▁መልክተኛውንም	-10.7705
ş	-10.7706
ه	-10.7706
▁ዘካንም	-10.7706
▁ምኞት	-10.7706
▁ተመላሽ	-10.7706
▁ምድጃ	-10.7706
▁ምንጣፍ	-10.7706
▁ከጥቂት	-10.7706
="0.2	-10.7708
▁የጭነት	-10.7709
ሁበት	-10.771
▁ያያሉ	-10.771
AM	-10.7711
table	-10.7713
▁ስለሆነም	-10.7714
LA	-10.7721
▁All	-10.7728
▁ማስተር	-10.7731
▁የተደረጉ	-10.7732
▁ፀሐይን	-10.7732
▁የቋንቋ	-10.7733
▁Twitter	-10.7739
▁አቀፋዊ	-10.7739
▁ኪንግደም	-10.7739
▁ዘይቤ	-10.7739
▁በብዛት	-10.7739
▁መልክተኞቹ	-10.7741
▁በመጨረሻይቱም	-10.7742
ini	-10.7743
▁ዘውታሪ	-10.7744
ations	-10.775
▁የቀድሞ	-10.7751
▁ሰሚው	-10.7752
▁ለማጥፋት	-10.7758
▁መለኪያዎች	-10.7759
cap	-10.776
nu	-10.7764
ሱለይማን	-10.7773
▁WhatsApp	-10.7773
▁የአውታረ	-10.7773
▁ወኪል	-10.7773
▁ጭማሪ	-10.7773
▁ፍርዱ	-10.7773
▁ለራሱ	-10.7775
ኹኑ	-10.7776
TO	-10.7777
▁ማሸነፍ	-10.778
by	-10.7782
አንጎል	-10.7782
5.0	-10.7782
▁የኤሌክትሮኒክስ	-10.7783
▁Red	-10.7784
LO	-10.7785
▁ሂዱ	-10.7786
IG	-10.7786
▁ሜጋን	-10.7786
▁መረጠ	-10.779
▁ሥራውን	-10.7793
king	-10.7794
▁fl	-10.7795
ናውያን	-10.7796
ከራከር	-10.7797
▁ፖሊሲዎች	-10.7798
▁1:1	-10.7802
="17	-10.7803
ዪ	-10.7806
▁መጫወቻ	-10.7806
▁እርጥበት	-10.7806
OD	-10.781
ተከታታይ	-10.7811
▁car	-10.7819
ሞሉ	-10.7822
?”	-10.7822
ረጋገጥ	-10.7823
exe	-10.7824
▁101	-10.7824
ዓለም	-10.783
በላሸ	-10.7832
▁ዋይ	-10.7835
▁መጻፍ	-10.7836
ks	-10.7836
NG	-10.7839
ሜክሲኮ	-10.784
▁መንግሥታት	-10.784
▁አልረሕማን	-10.784
▁አውቶማቲክ	-10.784
▁ይታወቃል	-10.784
ጼ	-10.784
▁እፈራለሁ	-10.784
ገሰጹ	-10.7841
ley	-10.7845
▁ቢሆን፥	-10.7845
▁የሚፈሱባቸውን	-10.7846
ike	-10.7847
▁≤	-10.7847
ጉዳት	-10.7848
▁መምህራን	-10.7853
SM	-10.7867
▁ባንድ	-10.7871
ሽያጭ	-10.7871
="14	-10.7872
ስተባበሉ	-10.7872
▁አንቀጾቻችን	-10.7874
▁የሲቪል	-10.7874
▁ራውተር	-10.7874
▁አወረድነው	-10.7874
▁ቶማስ	-10.7874
▁ከፊላችሁ	-10.7874
አሁኑኑ	-10.7874
▁ይፈልጉ	-10.7875
ized	-10.7884
700	-10.7885
▁መቋቋም	-10.7887
▁የምርጫ	-10.7895
roid	-10.7896
▁ማጣት	-10.7896
ten	-10.7899
በሬ	-10.7901
መንት	-10.7902
ወድቅ	-10.7902
izer	-10.7903
▁ጌታውን	-10.7905
▁Dis	-10.7907
▁ደሴቶች	-10.7908
▁ተደራሽ	-10.7908
▁መድረስ	-10.7908
▁የሚከተለውን	-10.7913
▁Web	-10.7916
▁እንደሆነ፤	-10.7917
HE	-10.792
ath	-10.7923
▁አሸ	-10.7925
▁ውሎች	-10.7927
▁ሄደ።	-10.793
▁አላት።	-10.7931
ጽዋ	-10.7936
▁መመገቢያ	-10.7942
▁መገሰጫ	-10.7942
▁ኢሳይያስ	-10.7942
▁ድንጋዮች	-10.7942
ous	-10.7942
▁ውጥረት	-10.7942
▁ይኖራሉ	-10.7942
▁አንደ	-10.7942
4.2	-10.7942
▁ሻወር	-10.7943
book	-10.7945
▁ኤግዚቢሽን	-10.7947
▁የላከ	-10.7952
▁SS	-10.7952
▁በሕዝብ	-10.7954
▁መልካምንም	-10.7956
▁ልጆቻቸውን	-10.7957
▁ተመልሰው	-10.7961
▁ሙከራዎች	-10.7962
8.1	-10.7965
ዘራ	-10.7968
አማርኛ	-10.7969
ያሳዩ	-10.7973
▁ብሉይ	-10.7973
ቀጥል	-10.7974
▁ዝንባሌ	-10.7975
ማጭበርበር	-10.7976
▁ድምጾች	-10.7976
▁መጽሔት	-10.7976
ካተቱ	-10.7978
▁በሥጋ	-10.7978
▁ከፊሉ	-10.7979
▁ውጊያ	-10.798
▁ለመቆጣጠር	-10.7981
▁መሸጥ	-10.7982
▁MP	-10.7984
[	-10.7985
ብቻ	-10.7995
▁አገኙ	-10.7996
▁ይገኛል።	-10.7998
ያስፈልግ	-10.8008
▁Freedom	-10.801
▁መድሃኒቶች	-10.801
▁ውፅዓት	-10.801
▁Holmbygden	-10.801
▁ማቆሚያ	-10.801
▁ለመስራት	-10.801
▁ይኹን	-10.801
▁መኾን	-10.8011
▁የህይወት	-10.8011
▁ተሰጥቶታል	-10.8014
▁መንደር	-10.8016
▁ፆታ	-10.8019
▁በመሆኑም	-10.8019
ale	-10.8019
DC	-10.8023
▁ኮዶች	-10.8027
▁ታንክ	-10.8029
ሁሉም	-10.8034
ኬቶች	-10.8034
rt	-10.8035
▁የፋብሪካ	-10.8036
▁ታውቁ	-10.8038
▁አደገኛ	-10.8041
other	-10.8041
▁በእኔና	-10.8042
Com	-10.8043
▁ሆርሞን	-10.8044
▁ሰንጠረዥ	-10.8044
▁በገሀነም	-10.8044
▁ተፈጻሚ	-10.8044
▁መፍጨት	-10.8044
▁ማመልከት	-10.8045
▁እግሮች	-10.8045
▁ባንኮች	-10.8045
በታል።	-10.8046
▁ማለፊያ	-10.8046
▁እገዳ	-10.8048
መልሰው	-10.805
7.5	-10.8052
▁በራሪ	-10.8052
edit	-10.8056
ern	-10.8056
▁ሊያደርግ	-10.8056
መደቡ	-10.806
▁Chang	-10.8061
▁CB	-10.8065
▁1.2	-10.8067
▁ይህቺ	-10.8074
▁ለሕዝቡ	-10.8079
▁ከይሁዳ	-10.8079
▁በተግባር	-10.8079
▁ነፃነት	-10.808
▁ወላጆች	-10.808
▁የታመነ	-10.808
▁ቴፕ	-10.8082
▁የጥርስ	-10.8082
▁ተዉ	-10.8082
▁ክሊኒ	-10.8083
ስትራ	-10.8084
▁ጥንድ	-10.8088
ማል።	-10.8088
▁መፈለግ	-10.8088
ted	-10.8091
ዋሹ	-10.8095
ome	-10.81
▁ቴክኒካዊ	-10.8106
Tension	-10.8113
▁በጨረር	-10.8113
▁ባሻገር	-10.8113
▁ቅርጫት	-10.8114
▁በማሳ	-10.8114
▁በፊታቸው	-10.8114
▁አጋሮች	-10.8114
▁ነፍሴን	-10.8121
▁ጫና	-10.8123
ሻለሁ	-10.8124
▁PRO	-10.8126
ዎርድፕረስ	-10.8127
ሶቹ	-10.813
its	-10.813
▁ወፍ	-10.8132
ound	-10.8135
▁ካህን	-10.8145
▁እጆች	-10.8146
▁በጥንቃቄ	-10.8148
▁መልካሙን	-10.8148
▁ስማርት	-10.8149
▁ህመም	-10.8149
▁ፋክስ	-10.815
▁ይጠይቁሃል	-10.8151
▁ድንጋጤ	-10.8154
▁ጉዳቶች	-10.8158
OL	-10.8159
▁ነኝ፤	-10.8165
▁ከጊዜ	-10.817
▁አባቶቻቸው	-10.8172
ano	-10.8182
▁ተጽእኖ	-10.8183
▁አስፈፃሚ	-10.8183
▁ዕለታዊ	-10.8183
▁ሀብቶች	-10.8183
▁እስካሁን	-10.8183
▁ቀጭን	-10.8184
▁ቆመው	-10.8186
ጨምሩ	-10.8188
▁ጉድ	-10.8192
="13	-10.8193
▁በመተባበር	-10.8193
▁የካደ	-10.8196
መንዳት	-10.8196
▁የማታ	-10.8198
መካከለኛ	-10.8198
102	-10.8206
▁pre	-10.8208
▁ነበርና።	-10.8213
▁ወንድሙን	-10.8215
▁SM	-10.8218
▁smtp	-10.8218
▁ወገኖቼ	-10.8218
▁የባቢሎን	-10.8218
▁ውጤታማነት	-10.8218
▁አሠራር	-10.8219
get	-10.822
-01-	-10.8221
▁የመገናኛ	-10.8223
RC	-10.8232
chi	-10.8234
sol	-10.8238
▁350	-10.8238
▁የከፋ	-10.824
▁US	-10.8248
ደሙ	-10.8252
▁blockchain	-10.8253
▁ለንጉሡ	-10.8253
▁ኢንተርናሽናል	-10.8253
▁ራዕይ	-10.8253
▁ይወድቃሉ	-10.8253
▁ድርጊቶች	-10.8253
▁የተያያዙ	-10.8253
▁ገበታ	-10.8254
▁ሆነች	-10.8256
▁ቀለበት	-10.8256
▁የሚያስፈልገው	-10.8256
▁ከመልካም	-10.8257
▁ጭምር	-10.8258
▁መጫወት	-10.8263
▁የሚያውቅ	-10.8263
▁ሱቅ	-10.8264
▁አማካይነት	-10.8264
="2.9	-10.8266
ሰሩት	-10.8273
ትሪክ	-10.8278
▁ሙታንን	-10.8278
of	-10.8279
ሲያ	-10.8285
▁Bajaj	-10.8288
▁ድራይቭ	-10.8288
▁አልቻሉም	-10.8288
hr	-10.829
ኖቻቸው	-10.8295
▁የንብረት	-10.8296
▁የአውሮፕላን	-10.8298
best	-10.8299
-14	-10.8299
▁ከጌታው	-10.83
ring	-10.8302
▁አደጋዎች	-10.8304
ቤተሰብ	-10.831
ali	-10.8315
ili	-10.8316
▁እንደማይ	-10.8317
በጀ	-10.8323
ሲንጋፖር	-10.8324
▁ማኔጅመንት	-10.8324
▁ግላዊነት	-10.8324
▁tension	-10.8324
▁ባቡሮች	-10.8324
▁ማሟላት	-10.8324
▁ይቀላቀሉትና	-10.8324
▁ሲስተም	-10.8325
ደበቁ	-10.8325
▁ማሻሻያዎች	-10.8326
SH	-10.8328
ሠዋ	-10.8332
▁እንዲያገኙ	-10.8334
▁ትክክለኛውን	-10.8335
▁ሻማ	-10.8337
▁sa	-10.8338
▁ለወንድ	-10.8341
▁46	-10.8343
ral	-10.8347
ሪዮ	-10.835
ፈቱ	-10.8352
▁እንቅልፍ	-10.8359
▁ይዟል	-10.8359
▁ያገኛል	-10.836
▁ነገሠ።	-10.8361
▁አሪፍ	-10.8361
▁የብዙ	-10.8361
▁Jin	-10.8362
▁ያመኑ	-10.8364
▁እነርሱንም	-10.8364
▁ልመና	-10.8366
zh	-10.8368
▁ተገለጠ	-10.8368
ave	-10.8368
▁ወደእናንተ	-10.8369
rg	-10.837
▁ኤሌክትሮኒክ	-10.837
ቈጣ	-10.8378
ከፈለ	-10.8382
OT	-10.8387
▁ከነበሩት	-10.8393
▁ዮርዳኖስ	-10.8395
▁የተሳሳተ	-10.8395
ሙስሊም	-10.8395
ቢዝነስ	-10.8395
▁Gaming	-10.8395
▁ይሄዳሉ	-10.8395
but	-10.8395
ፎርድ	-10.8396
ሸጡ	-10.8398
▁የሠሩት	-10.8401
uff	-10.8404
▁ሄዶ	-10.8407
ወደዱ	-10.8408
▁ልብህ	-10.8408
▁ማተም	-10.841
እርሱ	-10.8413
ሰይጣን	-10.8414
▁ለማንኛውም	-10.8414
▁ኾነች	-10.8417
▁ሉጥ	-10.8417
▁የመከላከያ	-10.8423
▁ሁን	-10.8424
▁በገበያ	-10.8426
▁አዳን	-10.8426
ጠናቀቅ	-10.8428
ማዕ	-10.8429
▁ኢንጂነሪንግ	-10.843
▁ማቀናበር	-10.843
▁ልምምድ	-10.843
▁ህንፃ	-10.843
▁እንመልከት	-10.843
▁ይበልጣል	-10.8431
▁የፋይል	-10.8432
▁ለኾኑት	-10.8432
▁ያማረ	-10.8436
ስጠጋ	-10.8437
-18	-10.8445
መስለው	-10.8446
▁ይወቁ	-10.845
2013	-10.8454
ፌር	-10.8455
ቀላል	-10.8456
kin	-10.8458
▁መጓጓዣ	-10.8466
▁የትራንስፖርት	-10.8466
▁የዩክሬን	-10.8466
▁የዱቄት	-10.8466
▁ድምፆች	-10.8466
▁Speed	-10.8466
bal	-10.8466
wiki	-10.8467
900	-10.8467
▁ሐኪም	-10.8467
ነፍሳ	-10.8478
▁የተደረገው	-10.8484
ወልድ	-10.8488
▁አሜን	-10.8489
1.2	-10.8492
ኩራ	-10.8495
sis	-10.8496
ሚኒ	-10.8499
▁ስላል	-10.8501
▁ለማሳካት	-10.8502
▁ሜዲካል	-10.8502
▁ቁፋሮ	-10.8502
ኤፒኬ	-10.8502
▁ሌሎቹ	-10.8503
▁ጥንታዊ	-10.8503
▁በፍቅር	-10.8503
▁የተሰጣቸው	-10.8504
▁እያንዳንዳቸው	-10.8505
▁በአገር	-10.8505
▁bu	-10.8508
ነበብ	-10.851
aster	-10.8511
ቅረብ	-10.8525
uth	-10.8529
▁ለመሄድ	-10.8529
▁እቃ	-10.8532
ode	-10.8533
ጥንቁቆቹ	-10.8538
▁ለመውሰድ	-10.8538
▁ይቆጠራል	-10.8538
▁ጥልቀት	-10.8538
▁ምንድነው	-10.8539
▁ሞዱል	-10.8539
ቦቹ	-10.854
EA	-10.8543
በላሹ	-10.8545
▁sub	-10.8546
ሚባለው	-10.8551
ris	-10.8555
▁ቀመር	-10.8556
▁የጥቁር	-10.8565
አላህ	-10.8566
▁ተጋሪ	-10.8567
▁ተጻፈ	-10.8568
▁Pre	-10.857
file	-10.8573
▁ምረጡ	-10.8575
▁0086-	-10.8575
▁GBP	-10.8575
▁ማራኪ	-10.8575
▁ይኸው	-10.8576
▁የርቀት	-10.8576
▁፭	-10.8578
▁በማቅረብ	-10.858
▁ሴንት	-10.8589
▁ልጆቻቸው	-10.8594
▁ለንግድ	-10.8596
▁በሦስት	-10.8598
▁የሚያምር	-10.8599
▁ማስታወሻዎች	-10.8599
ትውልድ	-10.8602
▁ሰይ	-10.8609
▁እንፈልጋለን	-10.8611
▁ሰብሳቢ	-10.8611
▁ዳንኤል	-10.8611
▁መድረሻ	-10.8611
▁የማያስገባ	-10.8611
lum	-10.8611
▁መርዳት	-10.8612
js	-10.8613
▁ፈንድ	-10.8616
ጓድ	-10.8618
tin	-10.862
ሰማራ	-10.8623
▁ሰቆች	-10.8625
▁ምግባር	-10.8626
▁unit	-10.8627
▁BS	-10.8627
▁አምጣ	-10.8628
▁የሚያደርገው	-10.8629
ኒየም	-10.8629
▁በአካባቢው	-10.8634
ዝኑ	-10.8636
▁በሰሙ	-10.8637
ead	-10.864
▁እራስ	-10.8642
ative	-10.8643
ሜትር	-10.8645
▁የድንጋይ	-10.8647
▁በዳዊት	-10.8647
▁የድምፅ	-10.8647
▁Prepar	-10.8648
▁የወንዶች	-10.8648
▁የሥነ	-10.8648
▁ልብሱን	-10.8649
▁ፖሊስተር	-10.8652
▁የፕሮግራም	-10.8654
ሊክ	-10.8655
ኞቻቸው	-10.8657
▁መገልገያዎች	-10.8659
▁ያወጣል	-10.866
▁3:1	-10.8669
ana	-10.867
▁መንገዱን	-10.8671
▁አማካይ	-10.8672
ከማቸ	-10.8675
▁000	-10.8676
▁ከማንኛውም	-10.8676
ጥያቄ	-10.8676
ቀመጠው	-10.868
ሰነድዎ	-10.868
ዝርዝር	-10.8681
LC	-10.8684
▁CAD	-10.8684
▁ማስጀመሪያ	-10.8684
▁ኮክፒት	-10.8684
▁በዋናነት	-10.8684
▁እንግዶች	-10.8684
▁በተለየ	-10.8685
▁ሙጫ	-10.8687
▁አፈር	-10.8688
▁ግዜ	-10.8689
▁ሦስተኛው	-10.8689
▁ሕንፃዎች	-10.869
▁አደርግ	-10.8691
▁ደርሶ	-10.8692
▁የአለም	-10.8696
▁መብል	-10.8697
▁ምሰሶ	-10.8699
In	-10.8703
cks	-10.8706
▁ዑደት	-10.8721
▁ቆይተዋል	-10.8721
▁መገኘት	-10.8722
ology	-10.8724
xbet	-10.8726
ካካ	-10.8737
▁Bit	-10.874
hua	-10.875
ሳለች	-10.8753
▁ጠበቃ	-10.8756
▁በባለ	-10.8756
ፈለገው	-10.8757
ino	-10.8757
▁ሕብረቁምፊ	-10.8758
▁ዒላማ	-10.8758
▁የሚቀርጸው	-10.8758
▁ይኾናሉ	-10.8758
ድንገተኛ	-10.8758
▁ሐሳቦች	-10.8758
▁የሚቃጠለውን	-10.8758
▁ይውላል	-10.8759
▁ዜጋ	-10.8761
▁በላዩ	-10.8762
ሰቃየ	-10.8762
▁መደርደሪያ	-10.8766
▁በሽታዎች	-10.877
ነሳሳ	-10.8772
▁ሽታ	-10.8776
▁ጊዜያት	-10.8776
ከብር	-10.8777
iss	-10.8779
ፆ	-10.8785
እነርሱ	-10.879
▁በመከራ	-10.879
አእምሮ	-10.8792
▁Blackjack	-10.8795
▁Europe	-10.8795
▁ሰብዓዊ	-10.8795
▁አፑስካርድ	-10.8795
ምእምናት	-10.8795
▁ረዥም	-10.8795
▁የወሲብ	-10.8795
▁የተለያየ	-10.8795
▁አዝመራ	-10.8795
▁የሚሾር	-10.8795
▁እውቂያ	-10.8795
ቪድዮ	-10.8797
መኖሪያ	-10.8797
▁ብቅ	-10.8799
አስተዳደ	-10.8802
ature	-10.8807
በኣል	-10.8812
ሰዶ	-10.8812
low	-10.8819
▁ከብር	-10.8819
▁ለኢትዮጵያ	-10.882
▁1.0	-10.882
▁በተወሰነ	-10.883
▁ሆነዋል	-10.883
▁ጠል	-10.883
transposh	-10.8832
▁Technology	-10.8832
▁ሕዝቅያስ	-10.8832
▁በዓለማት	-10.8832
▁ምሁራን	-10.8832
▁ያቀርባሉ	-10.8832
▁ቅርጸት	-10.8832
▁ምረጥ	-10.8832
▁AUD	-10.8832
▁ማደያ	-10.8833
▁ቫይረስ	-10.8834
▁ሶኬት	-10.8834
0.000	-10.8835
▁ብሩህ	-10.8836
▁በመጨረሻ	-10.8842
▁አሸዋ	-10.8852
ዕቃ	-10.8854
ቀበለው	-10.8855
▁እንደዚያ	-10.8855
▁Mill	-10.8855
ከፈት	-10.8856
▁110	-10.8863
▁እላችኋለሁ፥	-10.8864
ፌዴ	-10.8867
▁መዛግብት	-10.8869
▁መሸፈኛ	-10.8869
▁ወሮበላ	-10.8869
▁የወደፊት	-10.8869
▁ቃሌን	-10.8869
▁ፑቲን	-10.8869
▁የወንጀል	-10.887
mit	-10.8874
FC	-10.8874
▁ደሴት	-10.8877
ቾ	-10.888
2.2	-10.888
uck	-10.8881
ኛለህ	-10.8881
▁90%	-10.8885
ተቀመጠ	-10.8885
ነገሠ	-10.8888
5.1	-10.8894
▁ቢሆኑ	-10.8895
▁አዎን	-10.8896
▁በተደረገ	-10.8897
RW	-10.89
▁ተጠያቂ	-10.8902
ወላጆች	-10.8906
▁English	-10.8907
▁በዮርዳኖስ	-10.8907
▁የአገልጋይ	-10.8907
▁ፊልሞች	-10.8907
▁ይፈጥራል	-10.8907
▁እጥረት	-10.8907
ሳተፉ	-10.8907
▁በሆነው	-10.8908
▁TS	-10.8908
▁ማለፍ	-10.8908
ጸልይ	-10.8909
መስመር	-10.891
MI	-10.8911
▁XXL	-10.8914
▁ጭቃ	-10.8914
▁በአካባቢ	-10.8915
▁አደረገ፤	-10.8915
▁ወጥተው	-10.8918
="2.8	-10.8922
▁የቀለም	-10.8922
▁ቀጥሎ	-10.8924
▁የመድኃኒት	-10.8933
110	-10.8939
▁ግለ	-10.8943
እርግዝና	-10.8944
ፕሮጀክቱ	-10.8944
፰	-10.8944
▁PTFE	-10.8944
▁ሀብታም	-10.8944
▁ክላሲክ	-10.8944
▁መስኮቶች	-10.8944
▁ኦባማ	-10.8944
▁አጋሪዎች	-10.8945
▁ቀጣዩ	-10.8945
▁ትራክ	-10.8946
▁ማኅበር	-10.8946
▁በሺዎች	-10.8946
▁የበደሉት	-10.8946
lat	-10.8947
ኋት	-10.8948
▁ሴቲቱ	-10.8948
▁ለመሞከር	-10.8951
▁ባሮቼ	-10.8952
▁ሽማግሌ	-10.8953
ጠራቸው	-10.8957
▁ለሕዝብ	-10.8963
▁FI	-10.8963
▁ለዚያ	-10.8964
▁ዳኛ	-10.8967
▁የሚጠቀሙ	-10.8971
-2018	-10.8972
▁ዓመቱ	-10.8972
▁አታውቁምን	-10.8973
ሙከራ	-10.8975
ING	-10.8977
ember	-10.8978
ቲንግ	-10.8979
▁ተሰበሰቡ	-10.8979
▁ሳንቲሞች	-10.8982
и	-10.8982
▁ማወቂያ	-10.8982
▁ባደረገ	-10.8982
አምልኮ	-10.8984
▁Blockchain	-10.8986
▁Jun	-10.899
ኛላችሁ	-10.8996
▁ከኢትዮጵያ	-10.8997
▁የመጣው	-10.8998
▁ዘሮች	-10.8998
py	-10.9006
▁የደረጃ	-10.9008
BA	-10.9009
▁1200	-10.901
▁በሚያስ	-10.9013
▁በመጣላቸው	-10.9015
ኘት	-10.9017
▁ኮሌጆች	-10.902
▁ንገሩኝ	-10.902
▁ካውንቲ	-10.902
▁ካርቶን	-10.902
▁ከሴቶች	-10.9021
6.0	-10.9021
▁54	-10.9021
▁ከጌታዬ	-10.9022
ሊዮ	-10.9022
ችግር	-10.9027
▁ካዱ	-10.9027
ባዮች	-10.9028
▁የማስታወቂያ	-10.9028
▁የዱር	-10.9029
ፎቹ	-10.9029
ቆጣጠር	-10.903
▁የአውስትራሊያ	-10.903
▁ያመኑትንና	-10.9032
▁Ni	-10.9033
▁አውስትራሊያ	-10.9038
ከናወን	-10.9041
▁መፍትሄዎች	-10.9042
▁የመሳሰሉ	-10.9043
ration	-10.905
ጎዱ	-10.9051
▁ተቀበለ	-10.9052
▁ነበልባል	-10.9058
▁የተቀናጀ	-10.9058
▁HGH	-10.9058
▁አዋቅር	-10.9058
▁ዌብ	-10.9061
▁እየፈለጉ	-10.9065
▁የሚገኙት	-10.9068
▁ሕፃናት	-10.9069
▁ወዳለው	-10.9071
▁ኮንግ	-10.9073
ፓይ	-10.9075
ሰማያዊ	-10.9082
ዷቸው	-10.9088
▁የጠበቀ	-10.9089
ጥቂ	-10.9089
▁ልባቸው	-10.9092
▁የሚፈራ	-10.9094
ቁጥር	-10.9095
ክርስቲያናት	-10.9096
▁እሽቅድምድም	-10.9096
▁ለመገናኘት	-10.9096
▁መረጋጋት	-10.9096
MB	-10.9097
▁ቦል	-10.9097
▁ወሮች	-10.9097
መምጣቱ	-10.9098
▁ይጠፋል	-10.9099
ሳለቁ	-10.9099
nk	-10.9099
▁50%	-10.91
ነግራ	-10.91
▁ግልፅ	-10.9101
▁ሰገዱ	-10.9106
row	-10.9109
▁አብራሪ	-10.9109
▁በጥሩ	-10.9109
አንደኛ	-10.911
▁ራቁ	-10.9113
ram	-10.9115
▁ያንሱ	-10.9115
▁መንግሥቱ	-10.9118
ጓዳ	-10.9121
-22	-10.9125
fin	-10.9129
▁ኢዮአብ	-10.9134
▁ያገለግላል	-10.9134
▁እንመነዳ	-10.9134
▁ከባሮቹ	-10.9135
▁አስፈላጊነት	-10.9135
grad	-10.9138
▁ABS	-10.9143
ርኵ	-10.9147
አዋቂ	-10.9152
▁ከዓለም	-10.9153
▁አንደኛው	-10.9155
መጽ	-10.9157
bb	-10.9158
▁ሆነህ	-10.9163
ቻይና	-10.9167
▁pa	-10.9167
▁ያጋሩ	-10.9173
▁ከሕዝቡ	-10.9173
ንጽሕና	-10.9173
▁ተለይተው	-10.9173
ያስፈልጋቸው	-10.9173
▁ማህበረሰቦች	-10.9173
▁አቀፉ	-10.9173
▁ካፒታል	-10.9177
ስርዓት	-10.9179
▁ተወያዩ	-10.9182
▁ይመለሱ	-10.9183
ፖለቲካ	-10.9185
ping	-10.9188
▁የተከበረ	-10.9192
url	-10.9193
አልና፥	-10.9195
meter	-10.9207
▁ተረጋገጠ	-10.9211
▁የደብዳቤ	-10.9211
▁ለዳዊት	-10.9211
▁ሦስቱ	-10.9211
▁አጥራቢ	-10.9211
▁ቤተክርስቲያን	-10.9213
▁ምስክሮች	-10.9214
▁ሊኖር	-10.9216
▁EUR	-10.9217
በዋል	-10.9218
ient	-10.9219
አቀፍ	-10.9221
ጣቢያ	-10.9223
ላደረገ	-10.9225
▁Read	-10.9227
ታገል	-10.9234
▁ገጸ	-10.9235
▁ኦፍ	-10.9237
ደጋግ	-10.9248
▁አንቀሳቅሷል	-10.925
ስማርትፎን	-10.925
▁ኃጢአተኞች	-10.925
▁ኪሳራ	-10.925
▁አልሰማ	-10.9254
▁ይገባሉ	-10.9255
መሰክር	-10.9256
ተንቀሳቃሽ	-10.9265
▁ሕጉ	-10.9266
▁ብርጭቆ	-10.9267
▁ፓርቲዎች	-10.9269
▁ይሆናሉ።	-10.9269
ራለች	-10.927
▁መስቀል	-10.9279
▁ታክስ	-10.9281
320	-10.9283
▁ልጆቼ	-10.9289
▁ተገኝተዋል	-10.9289
▁ይሂዱ	-10.9289
▁ማሳየት	-10.929
▁ሰደደ	-10.929
▁አግዶ	-10.9291
▁መርሃ	-10.9291
መስሉ	-10.9297
▁የሚሰጠው	-10.9301
ታመኑ	-10.9304
▁በከተማይቱ	-10.9306
▁450	-10.9311
ise	-10.9313
▁ጨው	-10.9321
▁አቀባበል	-10.9328
▁ያካተተ	-10.9328
▁የሕዝቡ	-10.9328
▁ዉስጥ	-10.9328
▁ስሪቶች	-10.9328
▁የካርቦን	-10.9328
▁እጀታ	-10.9329
▁በመሄድ	-10.9334
አልና።	-10.9336
ዳኑ	-10.9347
ፈርዱ	-10.9349
▁በገንዘብ	-10.9351
Pro	-10.9358
ፕራ	-10.9358
▁dis	-10.9361
OB	-10.9363
▁ብሄራዊ	-10.9367
▁ጥምረት	-10.9367
craft	-10.9367
፲፱፻፺	-10.9367
▁ደጃፍ	-10.9367
▁መክፈቻ	-10.9368
ነጋገሩ	-10.937
▁ወደእነርሱ	-10.9372
▁Man	-10.9379
\	-10.9379
እስከ	-10.938
CH	-10.938
ለጡ	-10.938
▁ኪስ	-10.9381
ጣለን	-10.9385
CAD	-10.9385
ቪዲዮ	-10.939
="3.9	-10.9391
▁የዩናይትድ	-10.9397
ሟቸው	-10.94
▁ተጋሪዎች	-10.9401
4.4	-10.9402
ራመድ	-10.9402
ivers	-10.9402
ኾንክ	-10.9403
▁ተቀበል	-10.9405
This	-10.9406
▁ያገለገለ	-10.9407
▁ODM	-10.9407
▁የልደት	-10.9407
▁ደንቆሮ	-10.9407
ፍትወት	-10.9407
▁ቤተሰቦቹ	-10.9407
▁ደላላ	-10.9408
ባታል	-10.942
ሣራ	-10.9426
hang	-10.9427
▁የሚያምን	-10.9429
መግባ	-10.9431
fight	-10.9436
-03-	-10.9438
▁pm	-10.944
▁አመንን	-10.9441
ጠራጠሩ	-10.9442
999	-10.9443
አቤሴሎም	-10.9446
▁ተዓምራት	-10.9446
▁እሄዳለሁ	-10.9446
▁ፍልስፍና	-10.9446
▁ተቀምጠው	-10.9446
▁ሽግግር	-10.9447
▁በርሳችሁ	-10.9448
ref	-10.9448
▁የተቀመጡ	-10.9448
▁ለሚያምኑ	-10.9452
ገለጹ	-10.9455
SU	-10.9457
ዳውድ	-10.9459
▁የሁለት	-10.9464
▁Slots	-10.9466
▁እባብ	-10.9467
▁በቀኝ	-10.9467
▁ሲቲ	-10.9475
ራችን	-10.9479
▁TP	-10.948
▁ካሳ	-10.9481
▁ዳግመኛ	-10.9486
▁አታድርጉ	-10.9486
▁መለየት	-10.9486
▁ማኅበራዊ	-10.9486
▁ግምጃ	-10.9486
▁መጠይቅ	-10.9486
▁የፍጥነት	-10.9486
▁ግቦች	-10.949
ተከሰተ	-10.9491
ቲያ	-10.9492
አካባቢ	-10.9493
lf	-10.9494
እያንዳንዱ	-10.9495
ተሩ	-10.9495
ብርሃን	-10.9496
▁የገነት	-10.9496
▁የግብር	-10.9499
https	-10.95
ፋብሪካ	-10.9511
="2.1	-10.9515
ጨዋታ	-10.9517
part	-10.9519
zi	-10.9524
▁ተፈጥሯዊ	-10.9526
▁ትግርኛ	-10.9526
▁ንዳይፈስ	-10.9526
▁የአሕዛብ	-10.9526
▁ያረጋግጣል	-10.9526
▁የግድግዳ	-10.9526
▁ካቢኔ	-10.9526
ስርዓቱ	-10.9528
amb	-10.9529
▁የለንም	-10.9533
▁ሣር	-10.9534
▁ሶላትን	-10.9534
ረፉ	-10.9534
ዩናይትድ	-10.9535
▁ቀውስ	-10.9538
▁PSA	-10.9538
▁ለሙሉ	-10.9541
ፑ	-10.9541
rv	-10.9544
▁ማቆም	-10.9544
▁አውሳ	-10.9546
▁Go	-10.9546
▁በተባሉ	-10.9548
▁ሲባል	-10.9554
GS	-10.9559
TP	-10.9562
ፈጠራቸው	-10.9565
▁ትንቢተ	-10.9566
▁ገንዘቡ	-10.9566
▁አሳልፌ	-10.9566
▁አያስፈልግም	-10.9567
▁ጭንቅ	-10.9568
▁ካለዎት	-10.9569
▁20%	-10.957
▁Long	-10.9582
#	-10.9582
~	-10.9582
2011	-10.9584
▁መከላከል	-10.9586
ቆጠሩ	-10.9588
▁ግድ	-10.959
ጥቁር	-10.9595
ከፈቱ	-10.9605
▁ማዕከላት	-10.9606
▁የቢስክሌት	-10.9606
▁ጠረጴዛ	-10.9606
▁SKU	-10.9606
▁የብየዳ	-10.9606
▁XXXL	-10.9606
▁ንጥሎች	-10.9606
▁በደህና	-10.9606
▁ሰማሁ	-10.9607
▁ኤሊ	-10.9607
▁ይኖር	-10.9612
▁መደብ	-10.9613
win	-10.9614
▁ፈሪዎች	-10.9614
▁በገነት	-10.9615
ነግረ	-10.9617
▁በአለም	-10.9618
="1.7	-10.9619
play	-10.962
lim	-10.9629
▁ሙሳንም	-10.963
mar	-10.964
EM	-10.9641
▁ሲሆን፣	-10.9646
▁እርካታ	-10.9646
▁ይቀጥላል	-10.9646
content	-10.9646
▁አድርገህ	-10.9646
▁ለካዱት	-10.9646
▁ክልላዊ	-10.9646
▁Multi	-10.9646
▁እንዳለበት	-10.9647
▁ሰቅል	-10.9647
ለማመ	-10.9648
▁ለምንድን	-10.9654
ተገደሉ	-10.9656
▁700	-10.9657
▁ጣልቃ	-10.966
እጅ	-10.9664
፬	-10.9665
ቀጠሮ	-10.9666
▁ከሥራ	-10.9672
ጫነ	-10.9674
▁አላፊዎች	-10.9677
▁የሚወጣ	-10.9677
▁10000	-10.968
pc	-10.9681
▁የኢየሩሳሌም	-10.9687
ኮሙኒኬሽን	-10.9687
▁Online	-10.9687
▁ርኵሰት	-10.9687
▁ተቀይሯል	-10.9687
▁ተፅእኖ	-10.9687
▁አሰጣጦች	-10.9687
▁የነርቭ	-10.9687
▁ወደኋላ	-10.9687
▁ኤልያስ	-10.9687
▁ጓንት	-10.9687
2.0	-10.9694
ሲሲ	-10.971
ja	-10.971
▁በልብ	-10.9716
ship	-10.972
ung	-10.9723
▁ባላቸው	-10.9724
▁ባቢሎን	-10.9727
▁ከዓለማት	-10.9727
▁ግሳጼ	-10.9727
▁ትላልቅ	-10.9727
▁ተመራቂ	-10.9727
▁ማስተካከል	-10.9728
▁በመጥፎ	-10.9728
▁ኃያል	-10.9728
ገፆች	-10.9728
ጦርነት	-10.9728
ming	-10.9728
▁ወይፈን	-10.9728
lip	-10.9729
▁ህጎች	-10.973
▁ከሩቅ	-10.9731
ተጠያቂነት	-10.9732
▁ከመካ	-10.9733
▁ልቀት	-10.9734
መጣቸው	-10.9735
▁የሚታወቀው	-10.9737
▁POS	-10.9738
▁ለማዳን	-10.9738
2.7	-10.9739
ዲዮ	-10.9742
par	-10.9744
ባችኋል	-10.9744
▁መንገዱ	-10.9751
jo	-10.9751
ሚቀጥለው	-10.9754
page	-10.9755
▁ሁል	-10.9759
▁ችሎታዎች	-10.9759
▁አድራጊዎች	-10.9767
▁ኃያላን	-10.9768
▁ሩሲያ	-10.9768
▁አፈጉባኤ	-10.9769
▁መልእክተኛ	-10.9769
▁አመታት	-10.977
▁ግብዣ	-10.977
▁የጥፋት	-10.9773
▁ግብፅ	-10.9773
ኒሶታ	-10.9773
ተቀባ	-10.9779
▁ብርድ	-10.978
▁የዮሐንስ	-10.9782
▁ስንት	-10.9788
▁የበግ	-10.9792
መረጃ	-10.9793
▁የሚደርስ	-10.9794
▁መካን	-10.9796
ret	-10.9796
ሏችሁ	-10.9797
▁ከእርስዎ	-10.98
▁AS	-10.9802
val	-10.9803
ቴክኖሎጂ	-10.9805
4.3	-10.9805
ኳቸው	-10.9808
▁ይስሐቅ	-10.9809
▁አመስግኑ	-10.9809
▁የሞተርሳይክል	-10.9809
▁አትፍሩ	-10.9809
▁ሲቪል	-10.981
▁ሆኜ	-10.981
▁መለያየት	-10.9811
▁አቃፊ	-10.9812
▁በቅጣት	-10.9812
▁አይገባም	-10.9813
▁የወጪ	-10.9813
ጨመሩ	-10.9815
tion	-10.9815
▁እንደሚሆን	-10.9817
▁የበላይነት	-10.982
▁ላኪ	-10.9821
▁አድራሻዎን	-10.9825
OC	-10.9825
▁30%	-10.9826
▁አደረጉ።	-10.9833
BO	-10.9843
nn	-10.9845
1.6	-10.9847
▁discusssions	-10.985
▁ውህደት	-10.985
▁አከፋፋይ	-10.985
▁እሰጣለሁ	-10.985
▁ማስታወስ	-10.985
መፍቀድ	-10.9851
▁ሮቦት	-10.9851
▁ሾፌር	-10.9851
ታዳጊ	-10.9852
▁have	-10.9852
▁የተገባ	-10.9857
▁ዘፈን	-10.9859
="1.8	-10.986
LT	-10.9869
1.3	-10.988
ተከለ	-10.9881
ወደድ	-10.9884
ጠየቀ	-10.9887
▁ሕዝቦቹ	-10.9892
▁ተለዋጭ	-10.9892
▁ከፈርዖን	-10.9892
▁እርግጥ	-10.9892
▁በእግር	-10.9892
▁የሚሠሩ	-10.9897
ያዳምጡ	-10.9899
▁comp	-10.9899
▁ግዛቶች	-10.9902
AU	-10.9906
▁ባሕርይ	-10.9909
="2.6	-10.9911
▁መርህ	-10.9912
▁EN	-10.9919
="3.0	-10.992
▁ማንሳት	-10.9921
▁ኢንተርኔት	-10.9922
It	-10.9926
berg	-10.9928
ጴ	-10.9933
ናቡከደነፆር	-10.9933
▁አዋራጅ	-10.9933
▁ይመስለኛል	-10.9933
▁ጕድጓድ	-10.9933
▁ይውሰዱ	-10.9933
▁ኬሚካሎች	-10.9933
raw	-10.9933
▁ቀስት	-10.9934
▁ማግኛ	-10.9934
መላለስ	-10.9938
▁የተሠሩ	-10.9943
ition	-10.9947
በልጥ	-10.9947
▁ቆይታ	-10.9951
▁ስጥ	-10.9953
rid	-10.9954
▁የሚያሳይ	-10.9957
▁የኤሌክትሮኒክ	-10.9963
፲	-10.9964
ጠኛ	-10.9968
▁ከሦስት	-10.9969
GO	-10.997
Dv	-10.9974
▁ይስቀሉት	-10.9975
▁ጠቀሜታ	-10.9975
▁ይሏቸዋል	-10.9975
ቀጣጥፉ	-10.9975
▁የአስተዳደር	-10.9975
▁ኃጢአተኛ	-10.9978
▁ይደረግ	-10.9984
▁የሚያገኙ	-10.9987
▁ሐር	-10.9988
▁My	-10.9992
▁የፕሮጀክት	-11.0002
lect	-11.0007
▁አስታ	-11.0014
▁የገሀነም	-11.0017
▁አገራት	-11.0019
▁ዩኒቨርስቲዎች	-11.002
ከማቻ	-11.0023
ገመት	-11.0026
▁ጨረቃንም	-11.0029
▁ራዲ	-11.003
▁መኪናዎች	-11.003
በላው	-11.0033
ሰሙት	-11.0034
አስከፊ	-11.0045
ጠይቃ	-11.0048
▁በመኾናቸው	-11.0054
wp	-11.0055
Manufacturer	-11.0059
▁ምሕረቱ	-11.0059
▁ከቁርኣን	-11.0059
▁UHF	-11.0059
▁ዕረፍት	-11.0059
▁ኺዱ	-11.0059
▁በዳዮቹ	-11.0059
▁አፍቃሪ	-11.0059
ዓሣ	-11.006
▁ሎሌ	-11.0064
card	-11.0065
Hz	-11.0067
▁በልዩ	-11.0072
star	-11.0075
መከሩ	-11.0075
▁ፈት	-11.0076
ቻይንኛ	-11.008
▁አላገኘ	-11.0089
rit	-11.009
▁አሉታዊ	-11.0095
▁እውነተኛው	-11.01
▁ለሕዝቦቹ	-11.0101
▁በቁርኣን	-11.0101
አለባበስ	-11.0101
መሳሰል	-11.0101
▁ሻንጣ	-11.0101
▁የእርሻ	-11.0101
▁ስድሳ	-11.0101
▁አንግል	-11.0101
▁Trans	-11.0107
▁መስሪያ	-11.0109
▁የመሳሰሉት	-11.0112
ጨለማዎች	-11.0117
ማውያን	-11.0118
▁ሊወስድ	-11.012
▁ተጠጋ	-11.0121
▁የተናገረው	-11.0122
-09-	-11.0124
▁ከሚገኙ	-11.0125
ዲጂታል	-11.0134
▁አጋራ	-11.0134
▁የጎንዮሽ	-11.0143
▁አመልካቾች	-11.0143
▁የፍለጋ	-11.0143
▁ሰጋጆች	-11.0143
▁ፍትህ	-11.0144
ሰበስብ	-11.0144
▁ባለሥልጣን	-11.0146
▁ግመል	-11.0146
▁ይወጣሉ	-11.0148
▁ያሳድ	-11.0149
ገሠ	-11.0155
ሳየው	-11.0164
▁ዳሩ	-11.0166
ፖሊ	-11.0171
ካሄደ	-11.0174
ሕዝቦች	-11.0177
ጽፍ	-11.0177
አንቀጽ	-11.0177
▁ላቀ	-11.018
ዋቸዋል	-11.0184
▁አላየህምን	-11.0186
▁ክምችት	-11.0186
▁የለባችሁም	-11.0186
▁ንገራቸው	-11.0186
▁የማያምኑት	-11.0186
ረሀብ	-11.0186
▁ሁለገብ	-11.0187
▁ይሰጠዋል	-11.0187
▁አመታዊ	-11.0193
▁ተገል	-11.0195
▁304	-11.0196
▁Game	-11.0196
TI	-11.0205
-100	-11.0207
cle	-11.0214
ኵራ	-11.0217
lm	-11.0219
ሄል	-11.0221
ኻ	-11.0228
▁አድማ	-11.0228
▁ለማገልገል	-11.0229
▁መስገጃ	-11.0229
▁ያስፈልገዋል	-11.0229
▁ማእከል	-11.0229
▁በአግባቡ	-11.0229
▁አድርገናል	-11.0229
▁ሁከት	-11.0229
እርጅና	-11.0229
▁በላያቸው	-11.0229
▁የሚኖር	-11.023
▁በራሳቸው	-11.023
ዌል	-11.0239
▁በቤተ	-11.024
ኢንዱስትሪ	-11.0241
▁Or	-11.0242
ባቸዋለሁ	-11.0244
▁የሚረዱ	-11.0247
▁ደጅ	-11.0247
We	-11.025
layers	-11.0252
ከፈል	-11.0259
▁ባለቤትነት	-11.0259
▁እወቁ	-11.0261
አይፒ	-11.0262
avi	-11.0263
▁Slot	-11.0264
test	-11.0266
▁መከታተል	-11.0268
▁ኢንቨስት	-11.0271
▁ሒሳብ	-11.0271
▁ቀለበቶች	-11.0271
▁አድራጎት	-11.0271
▁የግብይት	-11.0271
▁University	-11.0272
▁በሩሲያ	-11.0272
▁የተለመዱ	-11.0272
180	-11.0275
▁አራተኛው	-11.0276
▁ተከላካይ	-11.0277
▁ጎራ	-11.0284
ከተለ	-11.0286
▁Cast	-11.0287
▁እጅህን	-11.0288
▁ፊትህን	-11.0294
▁Can	-11.0294
ution	-11.0301
▁ያለችው	-11.0304
▁ልኮ	-11.0307
▁ያመጡ	-11.031
shan	-11.031
▁የደንበኞች	-11.0313
▁አማካሪዎች	-11.0314
ኢህአዴግ	-11.0315
▁መሐንዲሶች	-11.0315
▁ማኅተም	-11.0315
▁ተብቃቂ	-11.0315
▁አልዓዛር	-11.0315
▁ስንኾን	-11.0315
▁በግብጽ	-11.0315
▁ምናሴ	-11.0316
ለቀቅ	-11.0318
▁የክልል	-11.0319
▁ቁጠባ	-11.0319
4.6	-11.032
▁የዌብሜርድ	-11.0324
▁የጽሑፍ	-11.0326
ቤታቸው	-11.0327
="19	-11.0331
rate	-11.0346
tel	-11.0356
ገነዘቡ	-11.0358
▁ትርጓሜ	-11.0358
▁ስልኮች	-11.0358
▁ጓንቶች	-11.0358
▁ቅዳሜ	-11.0358
ደጉ	-11.0358
▁አሰራር	-11.0359
▁በዛሬው	-11.0359
አክብሮት	-11.036
▁ከየት	-11.0361
ወዳደር	-11.0364
መናችሁ	-11.0364
▁እንደሌለ	-11.0372
ISO	-11.0375
▁አልሁ።	-11.0381
125	-11.0382
▁አለችው	-11.0384
aj	-11.0393
0.2	-11.0395
ቲካል	-11.0395
▁የሚረዳ	-11.0396
▁አምነናል	-11.0401
▁ይጠቀማሉ	-11.0401
▁ተመላሾች	-11.0401
▁ፍየል	-11.0401
▁ሂደቱ	-11.0402
▁ያብራራል	-11.0402
ማንኛይቱም	-11.0402
▁የኑሕ	-11.0403
▁2003	-11.0403
▁from	-11.0403
ኢንቨስትመንት	-11.0406
ጓቸው	-11.0406
▁ቅጠል	-11.0409
▁ሰንበት	-11.0412
ዋናው	-11.0419
▁360	-11.0423
▁ይሻል	-11.0425
▁ቢመጣ	-11.0428
▁ሳቢ	-11.0429
ild	-11.0433
▁Han	-11.0433
8.5	-11.0433
how	-11.0434
▁መተላለፊያ	-11.0445
▁ድመቶች	-11.0445
▁የማገጃ	-11.0445
▁ባሕሩ	-11.0446
▁ፒኤች	-11.0447
IF	-11.0447
▁እየተደረገ	-11.0453
▁አስታወቀ	-11.0453
ደነቁ	-11.0453
▁ዓላማዎች	-11.0453
▁ስፍር	-11.0456
BT	-11.0459
apk	-11.0459
5.6	-11.0463
FR	-11.0465
▁አውሬ	-11.0465
▁ሞገድ	-11.0465
ደበቅ	-11.0472
ገሬ	-11.0477
ተሳሰ	-11.0478
▁ማጉያ።	-11.048
ማርያም	-11.0481
ጠቀመ	-11.0485
ቀሩት	-11.0486
▁መጠቅለያ	-11.0489
▁ትሆናለች	-11.0489
▁ለመፍታት	-11.0489
▁ተዋጊ	-11.0489
▁ድመት	-11.0489
▁ለዓለም	-11.0491
ጸልዩ	-11.0491
▁ሩጫ	-11.0493
▁ጡንቻ	-11.0493
▁የእነሱ	-11.0496
ሁላችሁ	-11.0496
BC	-11.0504
ተገናኘ	-11.051
▁የቀረበው	-11.0514
▁not	-11.0514
▁ወጣ፥	-11.0514
="2.2	-11.0515
ough	-11.0518
▁እያፈራ	-11.0518
ያዛችሁ	-11.0524
▁ማስገባት	-11.0527
▁ተርሚናል	-11.0533
▁ተዘጋጅቷል	-11.0533
▁ወኪሎች	-11.0533
▁ዝግጅቶች	-11.0533
▁በሰባተኛው	-11.0533
▁ዋንጫ	-11.0533
▁ንጣፍ	-11.0533
▁ጉልህ	-11.0534
▁ለንደን	-11.0535
▁በመጠራጠር	-11.0541
▁ስጋት	-11.0541
ለመደ	-11.0545
▁ግዴታዎች	-11.0546
▁ይቈ	-11.0549
tab	-11.0556
NO	-11.0559
▁በመቶዎች	-11.056
▁TM	-11.0571
▁መመዝገብ	-11.0572
NU	-11.0573
2.8	-11.0576
▁ፕላስ	-11.0576
ደብቁት	-11.0577
አውቶቡስ	-11.0577
▁ፕሮፌሰሮች	-11.0577
▁በጉጉት	-11.0577
▁Chrome	-11.0577
▁ቆጣቢ	-11.0577
▁ሱፐር	-11.0578
▁ስምዖን	-11.0578
▁ለልጆች	-11.0578
▁እንዲችሉ	-11.0578
▁ያልተመደቡ	-11.0578
▁የተሻሉ	-11.0579
ብቃቃ	-11.0579
KHz	-11.0581
ull	-11.0586
ኬሚካ	-11.0586
days	-11.0587
1.4	-11.0591
▁RC	-11.0591
▁ዋሻ	-11.0597
▁ለባለ	-11.0597
▁በመፈለግ	-11.0598
▁አለች።	-11.06
▁ማንቂያ	-11.0601
HT	-11.0607
="3.8	-11.0608
ኢየሱስ	-11.0612
▁ከፊት	-11.0615
መንግስታዊ	-11.0622
▁በዋነኝነት	-11.0622
▁ገለልተኛ	-11.0622
▁ዲሞክራሲያዊ	-11.0622
▁ከበላያቸው	-11.0622
▁አዛኙ	-11.0622
▁ስልቶች	-11.0622
▁አይቻልም	-11.0623
▁በሙሴ	-11.0623
ዝቅተኛ	-11.0626
▁ይምራል	-11.0626
ture	-11.0628
ፈፀም	-11.0632
za	-11.0637
▁ሠርተ	-11.0652
ያዘው	-11.0655
▁የበላይ	-11.0657
▁ክብሩ	-11.0658
▁II	-11.0663
▁UK	-11.0663
▁የሚሄድ	-11.0663
▁አመስጋኝ	-11.0666
▁ያስፈልጋቸዋል	-11.0666
▁ሻንጋይ	-11.0666
س	-11.0666
▁በምሥራቅ	-11.0666
▁ኪዳናቸው	-11.0666
አዕምሮ	-11.0667
ልዑል	-11.0667
▁ለመወሰን	-11.0667
▁ለመምራት	-11.0668
▁ሩፒ	-11.0669
▁ፍርይ	-11.0669
▁ለማሸነፍ	-11.067
1,000	-11.0671
post	-11.0672
ኮክ	-11.0673
▁የመቁረጥ	-11.0681
▁የቅድመ	-11.0683
▁በሚቀጥለው	-11.0683
="3.1	-11.07
መፃ	-11.0702
ማግኘ	-11.071
sitemap	-11.0711
▁ለምእምናን	-11.0711
▁ገንዘቦች	-11.0711
▁አድናቂ	-11.0711
▁ከመልክተኞቹ	-11.0711
ፓርላማ	-11.0711
▁ምጽዋት	-11.0711
▁አንዳንዶች	-11.0711
▁ክለብ	-11.0711
JPY	-11.0711
▁ጥቅሎች	-11.0711
▁መጠገን	-11.0712
▁ኦዲዮ	-11.0713
▁ሰለ	-11.0717
▁አባታችን	-11.0718
መግባባት	-11.0718
▁GP	-11.0721
▁የኮምፒውተር	-11.0722
ጥቃት	-11.0723
urn	-11.0726
▁አጋጣሚዎች	-11.0728
▁ያለፉ	-11.073
▁እንስሳዎች	-11.073
="2.7	-11.073
▁ይኖርበታል	-11.0731
▁የኒው	-11.0732
ተሃል	-11.0732
▁የመሣሪያ	-11.0732
▁የተዘጋጁ	-11.0737
▁አረፋ	-11.0739
train	-11.0744
▁ከሌለ	-11.0744
▁አቀረቡ	-11.0753
ION	-11.0755
NUMX	-11.0755
▁በሦስተኛው	-11.0756
▁የአልሙኒየም	-11.0756
▁ዶንግጓን	-11.0756
▁ገመዶች	-11.0756
▁ፍትሕ	-11.0756
ንሸራተ	-11.0756
▁አንጎለ	-11.0756
▁ሞጁል	-11.0756
▁ከግብጽ	-11.0756
ካሄዱ	-11.0756
▁በማናቸውም	-11.0758
▁will	-11.0762
ልማት	-11.0762
-2017	-11.0779
ታካሚ	-11.0781
km	-11.0786
▁ምንዳቸው	-11.0792
CHF	-11.0792
▁የሚደረገው	-11.0793
vir	-11.0794
▁እስከምት	-11.0794
112	-11.0794
▁ያለፈው	-11.08
ሕይወቴ	-11.0801
▁PayPal	-11.0801
▁ማስተላለፊያ	-11.0801
▁ስቱዲዮ	-11.0801
▁የሂሳብ	-11.0801
▁የተነደፈ	-11.0801
▁BreatheLife	-11.0801
መዋዕለ	-11.0801
▁ያስተባበሉት	-11.0802
▁ደማቅ	-11.0802
email	-11.0803
ጮኽ	-11.0803
▁Drive	-11.0803
▁የሚኒስትሮች	-11.0804
▁የሚመሩ	-11.0806
FL	-11.0808
6.2	-11.0811
RU	-11.0815
BAR	-11.0815
KG	-11.0815
▁አራቱ	-11.0816
ሰራጨ	-11.0817
▁ተመኖች	-11.0821
9.5	-11.0831
▁ባዮ	-11.0837
▁ፈጣሪዎች	-11.0842
▁ነክ	-11.0846
routes	-11.0847
▁ከአጋሪዎቹ	-11.0847
▁ይይዛል	-11.0847
▁ረቂቅ	-11.0847
▁አያያዥ	-11.0847
▁ትከሻ	-11.0847
▁ኬሚካል	-11.0848
▁አይኖርም	-11.0849
▁ቼክ	-11.0852
RF	-11.0854
▁ሥራቸውን	-11.0855
under	-11.0858
▁ይሆኑ	-11.086
▁(3)	-11.086
cast	-11.0871
ኛለሁ	-11.0874
ible	-11.0876
ቀረብ	-11.0876
ሥሩ	-11.0878
▁ብቸኛው	-11.0879
▁የመካ	-11.0881
▁ቱቦዎች	-11.0884
▁ቢኖሩ	-11.0888
pin	-11.0889
▁ከረጢት	-11.0892
▁የፖስታ	-11.0893
▁መልቀቅ	-11.0893
▁ደርሷል	-11.0893
▁አይቀርም	-11.0894
720	-11.0895
410	-11.0895
▁ለበርካታ	-11.0896
▁forex	-11.0897
▁ሴንቲ	-11.0899
ክርስቲያን	-11.0901
2014	-11.0905
▁ስለሚያ	-11.091
▁5000	-11.0915
▁የተከበሩ	-11.0917
▁Xin	-11.0918
▁ሃይል	-11.0921
▁ሰፈር	-11.0928
▁አክብ	-11.0933
▁የሚከራከሩ	-11.0938
▁ጋላክሲ	-11.0938
▁ጽሕፈት	-11.0938
▁ያስፈልግዎታል	-11.0938
▁በድብቅ	-11.0938
▁ሄበይ	-11.0938
▁ሳሕን	-11.0939
▁መግደል	-11.0939
▁Hat	-11.0939
▁እስቴት	-11.0939
▁ተወካይ	-11.094
ism	-11.0941
▁NFC	-11.0942
▁ፍትሃዊ	-11.0944
▁ባሪያዎቹ	-11.0944
▁ማክስ	-11.0948
ጣለሁ	-11.0957
▁መሞከር	-11.0972
▁ወጣ፤	-11.0978
▁ቅጥያ	-11.0982
ግግር	-11.0982
▁ከጌታ	-11.0983
ዘመን	-11.0984
▁ሊሰነጠቅ	-11.0984
▁ስህተቶች	-11.0984
▁ቅርንጫፎች	-11.0984
▁በዩክሬን	-11.0984
▁የዋስትና	-11.0984
▁ትናንሽ	-11.0984
▁NYE	-11.0985
▁ዘምኗል	-11.0985
▁ይወዳሉ	-11.0985
▁name	-11.0985
▁ቸርነት	-11.0985
▁መፍራት	-11.0986
ተባበሩ	-11.0988
▁ይጠራል	-11.0988
▁በሬዎች	-11.0992
▁ያስባሉ	-11.0994
▁ጾታ	-11.0995
ፈረሱ	-11.0996
▁በጌታችን	-11.0996
ባለቤትነት	-11.0998
ኗል	-11.1002
▁አለችው።	-11.1003
ተላለፈ	-11.1004
▁ፍሪ	-11.1009
▁የሁሉ	-11.101
▁አግባብነት	-11.1013
▁ጠቋሚዎች	-11.1013
▁ወግ	-11.1019
▁ከበጎ	-11.102
ኃይል	-11.1025
▁መጓዝ	-11.1027
▁ለመምረጥ	-11.1031
▁ማግኔት	-11.1031
▁በጽድቅ	-11.1031
▁አደረጋቸው	-11.1031
▁ወርሃዊ	-11.1031
▁ሹራብ	-11.1031
▁ማዕበል	-11.1031
▁የተያያዘ	-11.1031
▁ሐምራዊ	-11.1031
▁ስትሪት	-11.1031
ላካችሁ	-11.1031
▁የጎሳ	-11.1036
▁የሚያረጋግጥ	-11.1036
▁መኖሪያቸው	-11.104
▁ሄዱ።	-11.104
▁የመጠጥ	-11.1042
duct	-11.1044
ተማሪ	-11.1047
ሰላም	-11.1052
202	-11.1054
ሰነፍ	-11.1055
="2.0	-11.1055
umb	-11.1057
▁በተራራ	-11.1058
off	-11.1066
▁56	-11.1067
ኤሌክትሪክ	-11.1077
▁ቁሳቁስ	-11.1077
▁አመላካች	-11.1077
▁የኮርፖሬት	-11.1077
▁በፈቃዱ	-11.1077
▁ቅንጅት	-11.1077
▁ስምምነቶች	-11.1078
ጨነቁ	-11.1078
▁አይገባውም	-11.1078
▁Blue	-11.1078
▁የሚታወቅ	-11.1089
ነቃቃ	-11.1095
▁ይጀምሩ	-11.1099
▁የሚበልጥ	-11.1103
HP	-11.1111
▁ራይ	-11.1113
▁አደን	-11.1118
5.2	-11.1124
▁ውሸታሞች	-11.1124
▁ጆርጅ	-11.1124
▁መሻሻል	-11.1124
▁የሰሜን	-11.1125
▁ዓርብ	-11.1125
3.2	-11.1126
▁ገበሬ	-11.1126
▁በደመና	-11.1126
▁HV	-11.1126
ገጣጠ	-11.1127
▁የራሳቸውን	-11.1129
▁ዘርፎች	-11.1129
▁ልዩነቶች	-11.1135
ስልምና	-11.1136
="1.9	-11.1137
ሁም።	-11.1138
▁ድሀ	-11.1139
▁ያደረገላችሁ	-11.1143
3.0	-11.1148
▁ራብ	-11.1151
330	-11.1161
▁ውጡ	-11.1162
▁ተቀመጥ	-11.1166
▁አስተዳደራዊ	-11.1171
▁ኤርባስ	-11.1171
▁ፍራንክ	-11.1171
▁ኅዳር	-11.1171
ወንድሞቻችሁ	-11.1171
▁በውሸት	-11.1172
▁ሥራቸው	-11.1173
▁መቅደሱ	-11.1175
ጀርመን	-11.1175
3.6	-11.1179
▁የነበራችሁት	-11.1183
▁BTC	-11.1186
ጨነቅ	-11.1188
▁አጥንት	-11.1188
መተግበሪያ	-11.1189
▁ተቀበሉ	-11.119
▁ጠቋሚ	-11.1192
▁የተወረደውን	-11.1195
lit	-11.1199
▁Pay	-11.1209
ፋርማሲ	-11.1218
▁Pneumatic	-11.1218
▁በነፍሶቻችሁ	-11.1218
▁ወታደሮች	-11.1218
▁ማምረቻ	-11.1218
▁ITIL	-11.1218
▁ተለይቶ	-11.1218
▁ማህተም	-11.1218
▁ባወረደው	-11.1218
ሰቃዩ	-11.1219
▁በጥቂት	-11.1219
▁አዋቂዎች	-11.122
▁ትተው	-11.1225
▁ጠባይ	-11.1226
▁መጋቢ	-11.1228
$1	-11.1231
="1.6	-11.1234
▁የሚመጡ	-11.1238
▁'%	-11.1241
color	-11.1242
="24	-11.1243
▁58	-11.1245
▁Yu	-11.1258
▁ውድቅ	-11.126
oot	-11.1261
▁ኢንስቲትዩት	-11.1265
▁የዓለማት	-11.1265
▁አጫውት	-11.1266
▁የቁሳዊ	-11.1266
▁አብያተ	-11.1266
▁እንስሶች	-11.1266
▁አይበደሉም	-11.1266
▁የዘራፊ	-11.1267
6.9	-11.1267
▁ማሰሪያ	-11.1267
▁እናድርግ	-11.1268
image	-11.127
ተጠቀሙ	-11.1275
tai	-11.1276
ቋቸው	-11.1276
▁ደዌ	-11.1278
RL	-11.128
▁ሳይክል	-11.1284
ነበራችሁ	-11.1285
2009	-11.1288
በሽታ	-11.129
▁ልበ	-11.1293
▁ፍች	-11.1303
ose	-11.1305
="3.2	-11.1307
ስተምር	-11.1312
▁ሳምሰንግ	-11.1313
▁በነቢዩ	-11.1313
▁የባህል	-11.1313
▁ፈላጊ	-11.1313
▁ሩቁን	-11.1313
▁ለአባቱ	-11.1313
▁ቅጣተ	-11.1314
▁ከግምት	-11.1314
-04-	-11.1315
▁ዘመዶች	-11.1316
▁ኹን	-11.1318
▁ብልህ	-11.1321
▁ለመለወጥ	-11.1324
2.3	-11.1326
▁የካር	-11.1327
▁Fast	-11.1327
AH	-11.1331
▁5:1	-11.1332
▁የማይችል	-11.1335
ተመረጠ	-11.1339
ፈጥሩ	-11.134
nch	-11.1342
▁game	-11.1345
በድል	-11.1346
5.8	-11.1348
▁ሬሳ	-11.1354
google	-11.1361
ስዊዘርላንድ	-11.1361
▁አርቲስት	-11.1361
▁ገንዘቦቻቸውን	-11.1361
▁አጋማሽ	-11.1361
▁ጠማማ	-11.1361
▁በመርፌ	-11.1361
▁መረቦች	-11.1362
▁አይሰሙም	-11.1362
▁ከመልክተኛ	-11.1362
▁ሰርጥ	-11.1366
▁ይመነዳ	-11.137
▁ይለዋል	-11.1371
ከሰቱ	-11.1371
▁ማስተዋል	-11.1377
soft	-11.1378
▁ግሪን	-11.138
EST	-11.1387
▁Window	-11.1387
▁ተሳታፊዎች	-11.1387
▁ግድብ	-11.1389
▁ቡናማ	-11.1393
▁Sha	-11.1397
ዊያን	-11.1404
▁Des	-11.1405
▁አደረገላችሁ	-11.1407
▁November	-11.1409
▁Toyota	-11.1409
▁ተናገራቸው	-11.1409
▁ዝውውር	-11.1409
▁የማምረቻ	-11.1409
▁የመብራት	-11.141
ቆረጡ	-11.141
▁ሰምተው	-11.1411
ዓይኔ	-11.1411
▁ለሆነ	-11.1415
▁አቅራቢያ	-11.1417
▁አይሁን	-11.1418
▁900	-11.1419
አውስትራሊያ	-11.1421
="2.4	-11.1424
="1.4	-11.1425
▁አረጋግ	-11.143
="1.3	-11.1432
▁You	-11.1442
matic	-11.1447
▁Cam	-11.1454
▁Ducati	-11.1457
▁የመዝናኛ	-11.1457
▁ጄኔሬተር	-11.1457
▁በከፊል	-11.1457
▁ወንድሞቻቸው	-11.1457
▁ቅጣቴ	-11.1458
▁እስራት	-11.1458
▁ለኃጢአት	-11.1459
▁LLC	-11.1462
▁ያለምንም	-11.1463
▁የሚበሉ	-11.1463
▁ለማከናወን	-11.1464
▁ቤዛ	-11.1464
ሳወቀህ	-11.1465
ግሥ	-11.1467
▁ይስጡ	-11.1469
ጽሑፍ	-11.1471
▁አትከተሉ	-11.1472
kw	-11.1482
▁ዝጋ	-11.1485
▁HF	-11.1485
ወጋ	-11.1485
▁የሚሰሩ	-11.1493
3.1	-11.1495
▁ማስተዋወቅ	-11.1506
▁ሰይጣናት	-11.1506
▁ሳይንቲስቶች	-11.1506
▁ባልንጀራ	-11.1506
▁ቦረቦረ	-11.1506
▁ተሰብስበው	-11.1506
▁ወደእነዚያ	-11.1506
▁አስቂኝ	-11.1506
▁የሁለቱ	-11.1506
▁ተሸካሚ	-11.1506
▁ሬዲዮ	-11.1506
▁ሌሊቱ	-11.1506
▁ዕውሮች	-11.1506
▁እናምናለን	-11.1507
▁ተረቶች	-11.1507
▁ግቤት	-11.1509
▁ውድቀት	-11.1509
▁ሰምቶ	-11.151
PO	-11.1516
ኦፕሬ	-11.1519
▁ste	-11.1524
ከላከል	-11.1524
▁ዝማኔ	-11.1526
€	-11.1537
▁በጌታህ	-11.1537
‹	-11.1539
ምግባር	-11.1544
ቸሁ	-11.1552
head	-11.1553
▁በፓሪስ	-11.1555
▁ፌዴራላዊ	-11.1555
▁እሆናለሁ	-11.1555
▁ዲቪዲ	-11.1555
▁አዝናኝ	-11.1555
▁ቀለማት	-11.1555
▁ካሲኖ	-11.1555
▁በጅምላ	-11.1555
▁ለመክፈት	-11.1555
▁የፋይበር	-11.1555
▁ይሰበስባ	-11.1555
▁ዩአን	-11.1555
▁አልተገኘም	-11.1555
▁ችግሩ	-11.1556
▁በጥሬ	-11.1558
▁አለብኝ	-11.1563
7.1	-11.1565
ለምሳሌ	-11.157
▁ታያቸዋ	-11.1575
ቲቭ	-11.1582
▁የሚቀርቡ	-11.1585
▁ለመናገር	-11.1588
በላሽ	-11.1596
▁ሶዲየም	-11.1604
▁በፈርዖን	-11.1604
▁ከመቼውም	-11.1604
▁ፍራፍሬያማ	-11.1604
▁አምፖል	-11.1604
▁ይክፈሉ	-11.1604
▁ጥበባት	-11.1604
▁የላይኛው	-11.1604
▁ለማገዝ	-11.1604
▁ልቅሶ	-11.1604
▁Changzhou	-11.1604
▁እሥራት	-11.1605
▁ይውላሉ	-11.1605
በተኑ	-11.1605
▁መቀጠል	-11.1605
▁የሚሸፍን	-11.1605
▁ጽፏል	-11.1606
▁ይሞታል	-11.1607
="20	-11.1614
▁ሻይ	-11.1617
▁ድርድር	-11.1618
▁በስሜ	-11.162
3.3	-11.1627
▁ተነሡ	-11.1634
ife	-11.1635
ጠየቃ	-11.1639
▁አላፊ	-11.1639
▁Inter	-11.1647
▁Gra	-11.1649
▁ፖለቲካዊ	-11.1652
ج	-11.1653
ግገዟቸው	-11.1653
▁ብስክሌቶች	-11.1653
▁አስኪያጅ	-11.1653
▁የተሸፈነ	-11.1653
▁ያተኮረ	-11.1653
▁ፋሲካ	-11.1653
ጎበኙ	-11.1653
▁የግብፅ	-11.1653
▁ፊቶች	-11.1653
search	-11.1653
▁በተሻለ	-11.1653
▁መብላት	-11.1655
▁ይጠፋሉ	-11.1655
▁አማራ	-11.1657
▁more	-11.1657
▁ለመጫን	-11.1657
▁በጀርባ	-11.1665
count	-11.1668
bus	-11.1673
ተጠቃሚ	-11.1679
▁Live	-11.1681
▁እንዲኖር	-11.1681
አንዲት	-11.169
▁የገቢ	-11.1693
▁የነበረች	-11.1695
="4.0	-11.1702
▁ትፈልጋለህ	-11.1702
▁የፒዲኤፍ	-11.1702
▁የስጦታ	-11.1702
▁የዳሰሳ	-11.1702
▁Power	-11.1703
▁ማጥለያ	-11.1703
▁ጥቅሶች	-11.1703
▁ሸክላ	-11.1703
▁ተስማም	-11.1703
▁ጥንዶች	-11.1703
▁በወቅቱ	-11.1703
▁ጎረቤ	-11.1704
መሰክሩ	-11.1706
blog	-11.1709
▁ከመጠን	-11.171
5.7	-11.1712
▁ሰባቱ	-11.1717
list	-11.1719
▁Top	-11.1721
▁አካሄድ	-11.1723
ማስረጃ	-11.1723
ማውሳት	-11.1724
ተለወጠ	-11.1727
▁አትያዙ	-11.173
አነስተኛ	-11.1737
ሕፃናት	-11.1737
▁እርጉ	-11.1737
▁የተለጠፈ	-11.1741
ደስታ	-11.1743
▁መገንዘብ	-11.1747
ብረቱ	-11.1751
▁ተለጥፏል	-11.1752
▁ተያያዥ	-11.1752
▁ኮረብታ	-11.1752
▁Wallet	-11.1752
▁መከታተያ	-11.1752
▁ማህደረ	-11.1753
▁በሰንበት	-11.1753
ቸዋለች	-11.1753
▁እድሎች	-11.1753
ቆጠር	-11.1754
▁የብድር	-11.1755
▁ሕጎች	-11.1755
▁ጠቦት	-11.1755
ይስጥ	-11.1767
lation	-11.177
▁የለሽ	-11.1771
▁አልጋዎች	-11.1774
▁Anti	-11.1775
ላቸዋለን	-11.1776
ወርዱ	-11.1777
▁ወንድሜ	-11.1787
ካናዳ	-11.1787
በዳዮች	-11.1788
▁ሲመጣ	-11.1789
Exp	-11.179
2008	-11.1795
▁ጠፊ	-11.1797
አዳም	-11.1797
ዓመት	-11.1799
ju	-11.18
▁Ethereum	-11.1802
▁ጤንነት	-11.1802
▁ሀገራት	-11.1802
▁መብረቅ	-11.1802
▁የእንግሊዝኛ	-11.1803
▁አልችልም	-11.1803
▁የጸረ	-11.1805
▁ፒፓ	-11.1811
▁በጦር	-11.1814
▁የራቀ	-11.1819
▁እንደምታ	-11.1822
2.9	-11.1829
▁5%	-11.183
ኢኮኖሚ	-11.1831
ስብሰባ	-11.1839
ትዕዛዝ	-11.184
emb	-11.1849
▁የተስፋ	-11.1849
▁ዴሞክራሲያዊ	-11.1852
መራቸው	-11.1853
▁የክብር	-11.1853
▁ለዘመንም	-11.1853
▁ጀልባ	-11.1854
iao	-11.1855
▁አምናለሁ	-11.1857
▁ጥቅስ	-11.186
መለከታቸው	-11.1865
▁2500	-11.1873
▁ዘመድ	-11.1876
ጠራጠር	-11.1883
ኮሌ	-11.1888
▁እላችኋለሁ	-11.189
▁ለየት	-11.189
መደርደሪያ	-11.1892
ያዙዋቸው	-11.1894
▁ጠሪ	-11.1895
▁Slotjar	-11.1903
▁ላፕቶፕ	-11.1903
▁መድኃኒቶች	-11.1903
▁ያስፈልገናል	-11.1903
▁ለሁለቱ	-11.1903
▁የአይሁድ	-11.1903
▁ይኖርብናል	-11.1903
hydro	-11.1903
▁ኤፍሬም	-11.1903
▁መክሊት	-11.1903
▁ተመለከተ	-11.1903
▁Baby	-11.1904
°	-11.1906
▁ኪግ	-11.1906
▁በነበረው	-11.1906
ዘዙ	-11.1907
="29	-11.1908
pack	-11.1913
fil	-11.1914
▁ሰኞ	-11.1914
▁Jia	-11.1926
ሰራጭ	-11.1927
▁ትቢያ	-11.193
1.7	-11.1931
▁Mark	-11.1932
▁ባመኑ	-11.1937
▁የተሰበሰቡ	-11.1938
▁እስኪያ	-11.1945
ተቀበለ	-11.1954
▁ከአሕዛብ	-11.1954
▁መታሰቢያ	-11.1954
▁አጋንንት	-11.1954
▁የስፌት	-11.1954
ቋቋሙ	-11.1954
mission	-11.1954
graph	-11.1954
▁ጋብቻ	-11.1954
▁ፊቴን	-11.1955
ጋጠሙ	-11.1956
="28	-11.1959
ይዘው	-11.1961
▁ይበላሉ	-11.1964
▁ልባችሁ	-11.1964
ado	-11.1965
▁ታገስ	-11.1966
state	-11.1983
EE	-11.1991
HO	-11.1996
አጠቃቀም	-11.1996
በይነመረብ	-11.1997
="25	-11.1999
ላለሁ	-11.2001
▁ሚስጥራዊ	-11.2005
▁ውይይቶች	-11.2005
▁ዕውቀቱ	-11.2005
▁ማገጃ	-11.2005
ፎቶግራፍ	-11.2005
▁መጋዘን	-11.2005
▁ቀሚስ	-11.2005
▁የማህበረሰብ	-11.2005
▁Archives	-11.2005
▁በአንቺ	-11.2006
ሚመለከተው	-11.2006
Open	-11.2006
▁ሜጋ	-11.2006
mode	-11.2008
ኒዮ	-11.201
yi	-11.201
▁FOB	-11.2011
▁ቅንጣት	-11.2011
ተላለፉ	-11.2011
▁ITS	-11.2013
▁ተጠሪ	-11.2017
="1.2	-11.2026
ken	-11.2037
▁መቅረብ	-11.204
▁6000	-11.2047
ገንዘቦቻችሁ	-11.2056
▁እርግማን	-11.2056
▁መርሆዎች	-11.2056
▁ይኖራቸዋል	-11.2056
▁የታይላንድ	-11.2056
▁ይቀንሳል	-11.2056
▁ሥፍራ	-11.2056
ያስተነትኑ	-11.2057
▁ሐሰት	-11.2057
ገበያ	-11.2058
▁ታንኳ	-11.2061
▁ማመንጫ	-11.2063
="0.0	-11.2066
▁ላክነው	-11.2066
4.1	-11.2067
▁የዜና	-11.2069
5.9	-11.207
ቸዉ	-11.2074
እራስዎ	-11.2075
▁አመጽ	-11.2078
▁ለመላክ	-11.2078
▁ከኋላቸው	-11.208
ተዳደር	-11.2084
▁አስተካክ	-11.2085
trac	-11.2096
▁የጎን	-11.2098
FT	-11.2106
መኾናቸው	-11.2107
▁School	-11.2108
▁ኢንዳክተር	-11.2108
▁ይደግፋል	-11.2108
▁Aprilia	-11.2108
ኦስትሪያ	-11.2108
▁ከሙታን	-11.2108
▁መርሃግብር	-11.2108
▁Best	-11.211
▁ወሰዱት	-11.2113
▁አስመጣ	-11.2113
▁መስሎ	-11.2119
▁ለመጨመር	-11.2119
▁መኖሩን	-11.212
="1.5	-11.2124
ተቀየረ	-11.2127
▁Hong	-11.2132
ያነቡ	-11.2138
▁እንደሚሰራ	-11.2141
oto	-11.2146
ሸፈን	-11.2154
ደነግ	-11.2155
▁Off	-11.2159
▁በአገሪቱ	-11.2159
▁ጥልፍልፍ	-11.2159
▁Apple	-11.2159
▁ከመልካሞቹ	-11.2159
▁ጠያቂ	-11.2159
▁መተማመን	-11.2159
ሕዝባዊ	-11.216
▁ላመኑት	-11.216
▁poly	-11.216
▁ኺድ	-11.216
▁አታውቅም	-11.216
▁በመሥራት	-11.216
▁ፈልጎ	-11.216
▁በማግኘት	-11.216
▁ስኾን	-11.2172
6.1	-11.2174
▁በኢሜይ	-11.2176
▁በነበሩ	-11.2179
▁መኝታ	-11.2184
ገለጸ	-11.2188
IE	-11.2193
▁አንዳቸው	-11.2204
▁Hua	-11.2206
ዲዛይ	-11.2207
ቫይረስ	-11.2208
▁ለመለየት	-11.2211
▁የብልግና	-11.2211
▁ሸብልል	-11.2211
▁በሳምንት	-11.2212
▁ምስሉን	-11.2212
▁ግደሉ	-11.2212
▁መሳሳት	-11.2212
አብዛኛው	-11.2212
ቃወሙ	-11.2212
▁ግራፊክስ	-11.2212
ከማቹ	-11.2213
▁የፀረ	-11.2213
▁የመጨረሻይቱም	-11.2214
ለወጠ	-11.2214
▁የባትሪ	-11.2215
መሰረቱ	-11.2217
ሸነፍ	-11.2222
▁አለዎት	-11.2223
▁ስላለው	-11.2229
="2.5	-11.2231
▁የሚቃጠል	-11.2248
eta	-11.2249
="21	-11.2256
መደብር	-11.2263
ፓርቲ	-11.2263
ስፈራሩበት	-11.2264
▁ልጃገረዶች	-11.2264
▁ርዝመቱ	-11.2264
▁ተናግረዋል	-11.2264
▁የቅንብር	-11.2264
▁ጥቃቅን	-11.2264
▁ትበላላችሁ	-11.2264
▁የጨረታ	-11.2264
▁እጃቸውን	-11.2264
▁ኀይል	-11.2264
▁ወንጀሎች	-11.2264
▁ስንጥቅ	-11.2264
▁ይቆያል	-11.2264
▁ለመውጣት	-11.2264
▁ስጠን	-11.2266
hn	-11.2267
▁ማዕድን	-11.2267
▁ወጥመድ	-11.2269
ዮአስ	-11.227
▁ዘጋቢ	-11.2271
▁ለመግለጽ	-11.2273
▁ዜናዊ	-11.2274
▁Light	-11.2274
▁365	-11.2275
ተባይ	-11.2276
▁የሮክ	-11.2279
ጭረት	-11.2282
▁የበጋ	-11.2284
DI	-11.2285
▁ተሳታፊ	-11.2287
እዚያ	-11.2288
▁ተወላጅ	-11.2299
▁ኢቫ	-11.2305
ሰላማዊ	-11.2316
መላእክቱ	-11.2316
▁Peugeot	-11.2316
▁ሲነጻጸር	-11.2316
▁ባንዲራ	-11.2316
▁ትስስር	-11.2316
▁በእጃቸው	-11.2316
▁ታክሏል	-11.2316
▁አይሁዶች	-11.2317
▁የእውቂያ	-11.2317
▁ለመሥራት	-11.2317
▁ማርቲን	-11.2317
ያውቀው	-11.2317
▁free	-11.232
embed	-11.232
መያዣ	-11.232
▁የመማር	-11.2325
ያካትት	-11.2331
key	-11.2332
ተረፈ	-11.2336
▁ያስተካክሉ	-11.2337
▁ግድያ	-11.2337
▁ጣሉት	-11.2337
="2.3	-11.2341
jet	-11.2346
lone	-11.2347
ድህረ	-11.2348
ተገኘ	-11.236
እራሳቸው	-11.2366
="27	-11.2366
መሰሉ	-11.2369
ኢንፎርሜሽ	-11.2369
ዋሽንግተን	-11.2369
▁የትራፊክ	-11.2369
▁ፍተሻ	-11.2369
▁ጥቃቶች	-11.2369
▁አቧራ	-11.237
▁የግብጽ	-11.237
▁ቅንብር	-11.237
▁የፎቶ	-11.237
▁እሁድ	-11.2371
ANG	-11.2371
▁በሴቶች	-11.2371
Direct	-11.2372
▁የደመና	-11.2372
▁Advi	-11.2376
5.3	-11.2376
OW	-11.2377
ፈራጆች	-11.2385
▁በልባቸው	-11.2387
▁Sub	-11.239
▁በኒው	-11.2391
ያቃጥ	-11.2394
col	-11.2395
▁የተወደደ	-11.24
II	-11.2418
cryptocurrencies	-11.2423
▁ሠንጠረዥ	-11.2423
▁አስቸኳይ	-11.2423
▁የስልጠና	-11.2423
▁አታድርግ	-11.2423
▁መመዘኛ	-11.2423
▁መመገብ	-11.2423
▁ሳንቲም	-11.2423
▁አቤቱታ	-11.2423
▁ላለፉት	-11.2424
ስተካክሉ	-11.2424
▁ንዋይ	-11.2424
▁ሕመም	-11.2424
ሽብርተኝነት	-11.2425
▁ሰራተኛ	-11.2425
▁አደረግናቸው	-11.2426
▁አቅርቦቶች	-11.2426
ፈጽሙ	-11.2426
▁ኃጢአታቸው	-11.2427
ities	-11.2433
አውራ	-11.2435
▁አያችሁን	-11.2441
▁ሽከርካሪዎች	-11.2442
="23	-11.2447
▁2002	-11.2475
▁ተሰጥተዋቸዋል	-11.2476
▁ከኢየሩሳሌም	-11.2476
▁መልካሚቱ	-11.2476
▁አስቀድመው	-11.2476
▁መንደሮች	-11.2476
▁የስኳር	-11.2476
▁ጠጕር	-11.2476
▁አንፃር	-11.2476
▁መሰብሰብ	-11.2476
▁ይፍጠሩ	-11.2476
▁ሐይቅ	-11.2476
▁አህመድ	-11.2477
▁And	-11.248
መልኩ	-11.248
MHz	-11.2482
ጠቅላይ	-11.2493
ችኋት	-11.2496
▁70%	-11.2497
▁አስነሣ	-11.2502
▁በሚመለከት	-11.2502
▁በልብህ	-11.2513
▁ከልብ	-11.252
መጥፋት	-11.2525
gmail	-11.2526
▁አርቲስቶች	-11.253
▁እንመክራለን	-11.253
▁ወንበሮች	-11.253
▁ኮከቦች	-11.253
▁ይሰጣቸዋል	-11.253
▁መልእክተኞች	-11.253
▁ማጠቢያ	-11.253
▁ዘፈኖች	-11.253
▁የተለጠፉ	-11.253
▁አዛዥ	-11.253
▁ቁርጠኛ	-11.2531
▁ምንዛሪ	-11.2531
▁xNUMX	-11.2531
▁ስጠኝ	-11.2532
▁ስሜታዊ	-11.2533
▁ከእሱ	-11.2535
ሰባሰብ	-11.2538
▁በሜዳ	-11.2538
▁የሚያስፈልጉ	-11.2539
▁ኃይሌ	-11.2541
▁ጠበቃ፣	-11.255
▁ለሚፈልጉ	-11.255
ማይችል	-11.255
ትራክ	-11.2552
ቃጠሉ	-11.2556
▁አውጣ	-11.2559
format	-11.2559
ello	-11.2565
▁ባወጣ	-11.2565
ተሰወረ	-11.2568
▁4000	-11.2569
CAS	-11.2574
oper	-11.258
9.2	-11.2581
▁ፍዳ	-11.2583
.06.2015	-11.2584
Armati	-11.2584
▁Manufacturing	-11.2584
▁መዝገቦች	-11.2584
▁ሰረገሎች	-11.2584
▁በቅድሚያ	-11.2584
▁ፋይናንስ	-11.2584
▁ተፈላጊ	-11.2584
▁ዜግነት	-11.2584
ግብፃውያን	-11.2584
▁ጠቦቶች	-11.2584
▁ሱሪ	-11.2584
▁ታደርጋለህ	-11.2584
▁ነፋሶች	-11.2584
▁Tag	-11.2586
▁የዘፈቀደ	-11.2586
="0.8	-11.2588
▁ሰሙድ	-11.2589
ኤሌክትሮኒክ	-11.259
ዴስክቶፕ	-11.2591
VAC	-11.2592
▁እንዲያደርጉ	-11.2592
▁ታስቦ	-11.2595
▁ሌባ	-11.2597
▁Cert	-11.2599
review	-11.2603
▁ዘንጊ	-11.261
▁አፈሰሰ	-11.2615
ification	-11.2621
ዘፈ	-11.2624
ኮንስትራክሽን	-11.2638
▁ሕፃኑ	-11.2638
▁ሚዛናዊ	-11.2638
▁ሜካኒካል	-11.2638
▁አወቃቀር	-11.2638
▁ASTM	-11.2638
▁ንድፎች	-11.2638
▁በመገናኛው	-11.2639
▁ባለሞያ	-11.2639
▁ንስሐ	-11.2639
▁Tri	-11.2639
="3.7	-11.2639
ቆረጥ	-11.2639
▁አዘጋጅተናል	-11.2639
▁2012-2018	-11.2639
▁እኅት	-11.2639
▁አውጪ	-11.264
phone	-11.2644
▁ቅጦች	-11.2647
▁ነገዶች	-11.2648
▁ማካተት	-11.2649
ሳይንስ	-11.2657
መኖሩ	-11.2661
▁እርዳ	-11.2665
▁ሕብረ	-11.2676
▁በሚኖሩ	-11.2684
▁በባቢሎን	-11.2693
▁በዙፋኑ	-11.2693
▁ያስከትላል	-11.2693
▁ፈሪሳውያን	-11.2693
▁ወንድሞቼ	-11.2693
▁የተሰየሙ	-11.2693
▁አያዝኑም	-11.2693
▁ድህነት	-11.2693
▁ትምህርቶች	-11.2693
▁አንቴና	-11.2693
▁ድርጣቢያ	-11.2695
▁ጥመት	-11.2695
▁በሚገኙ	-11.2696
▁እጄን	-11.2697
ሞከረ	-11.2697
▁ፍረድ	-11.2699
ግንቦት	-11.2704
▁ዐፈር	-11.2706
XXXX	-11.2709
ልከው	-11.2721
▁የሚከፈል	-11.2723
▁Shi	-11.2723
▁መመለሻችሁ	-11.2728
▁ጁን	-11.2733
▁Hack	-11.2736
▁የፍል	-11.2736
▁ሲናገር	-11.2738
▁ባሪያዬ	-11.2741
▁Zhong	-11.2748
▁ጓንግዙ	-11.2748
▁ጉባዔ	-11.2748
▁Robot	-11.2748
▁ምልክቶቹ	-11.2748
▁የወደፊቱ	-11.2748
▁ድግምተኛ	-11.2748
▁ሮያል	-11.2748
ፌደራል	-11.2748
ቻኮሉ	-11.2748
▁ለልጆቹ	-11.2748
▁አጥንቶች	-11.2749
▁ፍቺ	-11.275
izing	-11.2759
▁One	-11.276
ጃፓን	-11.2761
ዎታለን	-11.2762
right	-11.2763
IU	-11.2763
▁ቀርቶ	-11.2768
uz	-11.2773
ተናገር	-11.2776
ናዳብ	-11.2778
5.4	-11.2798
▁ሊልኩልን	-11.2803
▁በዕውቀት	-11.2803
▁ትዕዛዙ	-11.2803
▁አክሬሊክስ	-11.2803
▁ይደሰታሉ	-11.2803
▁መዞሩንም	-11.2803
▁በዓላት	-11.2804
▁የማሰብ	-11.2804
▁ዓይነቱ	-11.2805
▁ወንድሙ	-11.2807
="4.8	-11.2815
▁በጌታዬ	-11.2817
▁ይቀላቀሉ	-11.2826
▁በወርቅ	-11.2827
▁GPS	-11.2828
ሰለፉ	-11.2847
rad	-11.2856
▁ሜካኒካዊ	-11.2859
▁በሀገሪቱ	-11.2859
▁አንቀጾቹ	-11.2859
▁አገሪቱ	-11.2859
▁ትንበያ	-11.2859
ስግደት	-11.2859
▁መዋጮ	-11.2859
▁ማብራሪያ	-11.2859
▁mod	-11.2859
▁ይልካል	-11.2859
ada	-11.2863
▁ህንድ	-11.2863
▁ለመሸጥ	-11.2869
▁ጥምር	-11.2873
ደንበኞች	-11.2876
9.1	-11.2877
እሾህ	-11.2884
vert	-11.2885
ava	-11.2887
ድምጽ	-11.289
▁የጌታችን	-11.2893
ብሊክ	-11.2897
▁የፈጠራችሁ	-11.2899
ጠፋቸው	-11.2901
መስቀል	-11.2906
band	-11.2907
▁ተልእኮ	-11.2914
▁የተዘረዘሩ	-11.2914
▁ጢሮስ	-11.2914
▁የጨረር	-11.2914
▁መስራች	-11.2914
▁አልነበርንም	-11.2914
▁ኦፕቲክ	-11.2914
▁ስያሜ	-11.2915
▁ዕውቅና	-11.2915
▁ሠራዊቱ	-11.2915
▁ይጠብቃል	-11.2915
▁እወዳለሁ	-11.2915
ክርስትና	-11.2915
▁ማክበር	-11.2915
▁ከሳሪዎች	-11.2915
▁የግንኙነት	-11.2915
▁በመካከለኛው	-11.2915
reg	-11.2918
እስላም	-11.2921
▁አትሁን	-11.2921
ባህሪ	-11.2924
▁ያዝናቸው	-11.2925
▁የአሮን	-11.2926
ጉዳዩ	-11.2931
ዓመቱ	-11.2934
3.8	-11.2934
="26	-11.2942
bet	-11.2949
ጀምሩ	-11.295
▁ለማከል	-11.2952
ዳለሁ	-11.2953
▁ተገናኝ	-11.2954
መርጡ	-11.2954
▁ሮክ	-11.2957
ITE	-11.297
▁ለከፊሉ	-11.2971
▁ማህበራት	-11.2971
▁ቁርኣኑ	-11.2971
▁በምእምናን	-11.2971
▁እንኾናለን	-11.2971
▁የአብርሃም	-11.2971
▁ትራፊክ	-11.2971
▁ጫጫታ	-11.2971
▁መፍታት	-11.2971
▁ማዕቀፍ	-11.2971
▁ይደርሳል	-11.2971
▁ተገኝቷል	-11.2971
▁የማምረት	-11.2971
▁ተላላፊ	-11.2971
▁ሐሰተኛ	-11.2971
▁አትኹን	-11.2971
lb	-11.2971
▁አይመራም	-11.2974
▁አሻራ	-11.2974
▁ያልኾነ	-11.2976
▁የጫማ	-11.2978
ጭቆና	-11.2979
▁ላሞች	-11.2998
▁ከሚሉት	-11.3005
አጠቃላይ	-11.3006
▁ማዳን	-11.3006
="3.3	-11.3006
▁Rock	-11.302
▁ይልቁን	-11.3022
▁Import	-11.3027
▁ላቦራቶሪ	-11.3027
▁ማቋቋሚያ	-11.3027
▁ቀልጣፋ	-11.3027
▁ቁርጠኝነት	-11.3027
▁ያስተዋውቃል	-11.3027
▁በድጋሚ	-11.3027
▁አረጋጋጭ	-11.3027
▁ኪዳኑን	-11.3027
▁ኪዳኔ	-11.3027
▁ዌቭ	-11.3027
▁ሲኦል	-11.3028
High	-11.3028
▁አላደረገም	-11.3028
▁መኾናችንን	-11.3031
▁ያያል	-11.3037
▁የተያዘ	-11.3038
▁አግኝተዋል	-11.3039
ቴክኒክ	-11.3044
“	-11.3047
ሰናክ	-11.3047
ዩኒቨርሲቲ	-11.3047
ቀጣቸው	-11.3048
ሆስፒታሎች	-11.3084
▁AASraw	-11.3084
▁Updated	-11.3084
▁repaints	-11.3084
▁አስደንጋጭ	-11.3084
▁በባቡር	-11.3084
▁ይሞታሉ	-11.3084
ቸነፈር	-11.3084
ረጋገጡ	-11.3084
▁በመካከል	-11.3084
▁ለባሮቹ	-11.3084
▁ድልድይ	-11.3084
▁የበረዶ	-11.3084
▁ተባባሉ	-11.3085
▁በኵር	-11.3085
▁ትችት	-11.3086
▁አትበሉ	-11.3088
▁ሊያስከትል	-11.3089
-07-20	-11.309
▁ተነሥተው	-11.3091
▁ከበሮ	-11.3091
888	-11.3092
▁ፊቶቻቸው	-11.3093
▁ጠብቆ	-11.3095
▁11:1	-11.3096
ዎቿ	-11.3096
6.3	-11.3097
▁አታውቁም	-11.31
ጂንግ	-11.3101
="4.9	-11.3102
▁ውስን	-11.3103
ስታውሱ	-11.3105
▁has	-11.3105
ልሰን	-11.312
ለያይ	-11.3125
መሰከረ	-11.3127
ቀደሱ	-11.3127
▁Geo	-11.3134
▁Tech	-11.3134
▁Last	-11.3136
2001	-11.3137
▁ምስክ	-11.3141
▁የተደበቀ	-11.3141
▁ስታቲስቲክስ	-11.3141
▁ተአምራት	-11.3141
▁ከሳሪዎቹ	-11.3141
▁የህትመት	-11.3141
▁ስላየውት	-11.3141
▁ፈቃዱ	-11.3141
▁ገደቦች	-11.3142
▁ምልጃ	-11.3142
▁አግኝተናል	-11.3142
ተቀላቀለ	-11.3142
▁የሕንድ	-11.3144
▁ጽዮን	-11.3145
ተጣለ	-11.3145
▁አዳንናቸው	-11.3145
ገልጹ	-11.3152
▁ለሚያውቁ	-11.3152
ዎቻችሁንም	-11.3164
`	-11.3164
ድግግሞሽ	-11.3164
ጨረቃ	-11.3164
▁የተከፈለ	-11.3164
እንግዳ	-11.3165
4.7	-11.3173
▁ቋት	-11.3173
▁እንዳይሆን	-11.3176
▁ውሻ	-11.3176
ፈጽማ	-11.3188
ዲያብሎስ	-11.3199
▁ተጽፎአል	-11.3199
▁ክህሎት	-11.3199
ሕይወቱ	-11.3199
▁ለመሰብሰብ	-11.3199
▁ያስችላቸዋል	-11.3199
contact	-11.3199
▁ተናግሮ	-11.3199
▁ፈገግ	-11.3199
▁ስሌት	-11.3199
▁ለኾነው	-11.3199
▁ብርታት	-11.32
▁የፊደል	-11.32
▁ሃብት	-11.3201
▁ዳኞች	-11.3204
▁ተከፈተ	-11.3205
4.9	-11.3205
▁ስንል	-11.3213
▁ሱስ	-11.3218
▁ጣይ	-11.322
አስተዳዳሪ	-11.3221
▁የሚያቀርቡ	-11.3224
ሞከሩ	-11.3226
ሞክር	-11.3244
ተስተካከለ	-11.325
ረዳቸው	-11.3255
ተዓምራታችን	-11.3256
▁ሐሤት	-11.3256
▁ለወደፊቱ	-11.3256
▁አድነኝ	-11.3256
▁ወደእነሱ	-11.3256
ጠናቀቁ	-11.3256
▁ጨረታ	-11.3256
▁DRK	-11.3256
▁የጥቅል	-11.3259
▁ታናሽ	-11.3263
▁ለማጠናቀቅ	-11.3264
▁አባታቸው	-11.3265
▁አብረን	-11.3268
▁ባህት	-11.3269
▁Nac	-11.327
▁ነፍሶቻቸው	-11.3276
9.0	-11.328
▁ከመኾን	-11.329
ሕይወት	-11.3311
9.8	-11.3313
▁ሻምፒዮና	-11.3315
▁የተከለከለ	-11.3315
ቸዋላችሁ	-11.3315
▁አመራሮች	-11.3315
▁በዕድሜ	-11.3315
▁ጊታር	-11.3315
▁በአስተዳደር	-11.3315
▁ይነሣል	-11.3315
▁ቅኝት	-11.3316
ወገኖቹ	-11.3316
▁አስመሳይ	-11.3317
▁ሃሩን	-11.3328
▁እንዯ	-11.3329
▁የሉጥ	-11.333
bre	-11.3335
▁እንዲኖራቸው	-11.3341
መርከቢቱ	-11.3373
▁discuss	-11.3373
▁በመመስረት	-11.3373
▁በአቅራቢያ	-11.3373
▁ቢስክሌት	-11.3373
▁ተግሣጽ	-11.3373
▁ያስችልዎታል	-11.3373
▁ደመወዝ	-11.3373
field	-11.3373
▁ተጋላጭ	-11.3373
▁ድንግል	-11.3373
▁ጥገኝነት	-11.3373
ህዝባዊ	-11.3373
▁ሊጠቀስ	-11.3373
ሦስት	-11.3374
▁ልደት	-11.3374
▁ተብለው	-11.3374
መንግሥተ	-11.3375
▁ይክዱ	-11.3377
▁በኃጢአት	-11.3379
▁ለልጅ	-11.3379
▁መጥፎሰው	-11.3388
ታጠብ	-11.3391
▁ለግል	-11.3397
ማለን	-11.3397
ካፈል	-11.3398
ረጋግጥ	-11.34
ተዘጋጀ	-11.3403
▁Machine	-11.3432
▁ለመጎብኘት	-11.3432
electric	-11.3432
▁ስድስተኛ	-11.3432
▁ከክፍለ	-11.3432
▁ውጤቱ	-11.3432
▁Laser	-11.3432
▁ጠርሙስ	-11.3432
▁ክበብ	-11.3432
▁ፕሮቲን	-11.3432
source	-11.3432
▁ፍራቻ	-11.3432
ነጣጠ	-11.3432
ብርሃኑ	-11.3433
▁ቶሎ	-11.344
147	-11.3442
እንዲ	-11.3447
▁ምደባ	-11.3451
uit	-11.3451
ሃይድሮ	-11.3458
▁ኃይሉ	-11.346
ምእመናን	-11.3463
ቀላቀሉ	-11.3465
▁ቆጠራ	-11.3469
▁ስሙንም	-11.3473
8.2	-11.3473
ender	-11.3476
ENT	-11.349
ሌዋውያኑ	-11.3491
ኋለኛይቱ	-11.3491
▁ለማጠናከር	-11.3491
▁ሳምንታዊ	-11.3491
▁በቁጥጥር	-11.3491
▁ትርዒት	-11.3491
▁ንግሊዝ	-11.3491
▁አውቶሞቲቭ	-11.3491
▁ዘፍጥረት	-11.3491
▁የመገበያያ	-11.3491
▁የተገነቡ	-11.3491
mobile	-11.3491
መንግስቱ	-11.3491
▁ባልደረባ	-11.3491
▁የድንበር	-11.3491
134	-11.3492
▁Christ	-11.3493
ልግስና	-11.3493
▁Office	-11.3496
መሳሰሉ	-11.35
▁pri	-11.3501
▁ቅርፅ	-11.3501
▁ሸቀጣ	-11.3507
▁ከተለያዩ	-11.3508
▁መዳን	-11.3509
ሐሳብ	-11.353
▁እስከምታ	-11.3546
▁Cannondale	-11.3551
▁ንግግሮች	-11.3551
▁ፕሪሚየም	-11.3551
▁እልቂት	-11.3551
▁ዘለዓለም	-11.3551
▁ሥርዓተ	-11.3551
▁ይቀበላሉ	-11.3551
▁ባህርያት	-11.3551
▁ጥቆማ	-11.3551
ville	-11.3551
▁ጥረቶች	-11.3552
▁በህይወት	-11.3552
▁የመዳብ	-11.3552
▁የበረቱ	-11.3552
▁QC	-11.3554
ኬሽን	-11.3556
▁የሚሠሩትን	-11.3557
▁1:2	-11.3578
▁የከተማይቱ	-11.3583
ጉባኤ	-11.3585
ሙስሊሞች	-11.3586
New	-11.3587
ግማሽ	-11.359
▁ካሰበ	-11.3594
cheng	-11.3595
ካተት	-11.3609
ability	-11.361
ኮሚሽኑ	-11.361
▁SharePoint	-11.361
▁መዛሙርት	-11.361
▁ትዕቢት	-11.361
▁ከዕውቀት	-11.361
ኋለኛው	-11.361
▁ምእመን	-11.361
▁የድጋፍ	-11.361
ቈረጠ	-11.3611
ተንኮላቸው	-11.3611
ስተናግ	-11.3611
ቋንቋ	-11.3611
ጠነከረ	-11.3613
▁Review	-11.3613
▁ይኑር	-11.3615
▁Xbox	-11.3617
▁ያልፋል	-11.3617
▁የቀድሞዎቹ	-11.3618
cool	-11.362
▁ጠባብ	-11.3623
▁(4)	-11.3624
▁በፍታ	-11.3629
▁ማከናወን	-11.3629
▁ከኋላ	-11.3642
ያልፉ	-11.3651
ፈረንሳይ	-11.3659
ቦቻቸው	-11.3664
ኤሌክትሮ	-11.367
}	-11.367
ኢንሹራንስ	-11.3671
▁መንቀጥቀጥ	-11.3671
▁ምርታማነት	-11.3671
▁ስሕተት	-11.3671
▁ታላላቆች	-11.3671
▁አዘገጃጀት	-11.3671
▁የካህናት	-11.3671
▁ጻድቃን	-11.3671
▁ማድረቂያ	-11.3671
▁ቅርጾች	-11.3671
▁በመልክተኞቹ	-11.3671
▁የውጤት	-11.3671
▁ዝነኛ	-11.3671
▁የድርጅት	-11.3671
▁አየህን	-11.3671
▁ኢንዱስትሪያል	-11.3671
▁ዕብድ	-11.3671
▁የእምነት	-11.3675
▁Poly	-11.3676
▁እየሆነ	-11.3683
▁ለመጠየቅ	-11.3684
▁አርብ	-11.3698
7.0	-11.3723
▁Nightclub	-11.3731
▁modified	-11.3731
▁ለፈርዖን	-11.3731
▁ሮቦቶች	-11.3731
▁ኢብሊስ	-11.3731
▁የታመቀ	-11.3731
special	-11.3731
▁ለማስፋፋት	-11.3731
▁ስንዴ	-11.3732
▁አትችልም	-11.3732
▁ማውራት	-11.3732
▁በእርሻ	-11.3733
▁መኾናችሁን	-11.3733
burg	-11.3733
▁አብስር	-11.3733
ቆረጠ	-11.3735
▁ምላስ	-11.3735
="3.5	-11.3736
▁ለበጎ	-11.3737
="0.3	-11.3737
peptide	-11.3737
ነደደ	-11.3739
▁የተባረከ	-11.374
8.0	-11.3743
▁አውሱ	-11.3744
full	-11.3752
▁እልል	-11.3757
▁ብሬክ	-11.3759
▁ለሚገኙ	-11.3761
ተለቀቀ	-11.3762
▁ይከጀላል	-11.3764
አካባቢያዊ	-11.378
ግንኙነ	-11.379
ኢስማዒል	-11.3792
▁ሁለንተናዊ	-11.3792
▁የቧንቧ	-11.3792
▁የክብደት	-11.3792
▁የፋይበርግላስ	-11.3792
▁የጡንቻ	-11.3792
Rider	-11.3792
▁ከእንጨት	-11.3792
▁ነዳጆች	-11.3792
▁ፓውደር	-11.3792
▁ሞዓብ	-11.3792
▁አብዮት	-11.3792
▁ቢሰበር	-11.3793
▁በሀገር	-11.3793
▁ከፍሬዎች	-11.3793
▁የበሰለ	-11.3793
▁ካልኾነ	-11.3796
▁ድምር	-11.3797
ዘምባባ	-11.3801
▁ቀኑን	-11.3811
▁የምክር	-11.3818
አሸናፊ	-11.3835
ፕላስቲክ	-11.3849
▁አስጠንቃቂ	-11.3854
ኃይማኖት	-11.3854
አንቀጾቼ	-11.3854
ኮምፕዩተር	-11.3854
▁ክህሎቶች	-11.3854
▁ሚካኤል	-11.3854
▁የፖሊሲ	-11.3854
▁እስረኞች	-11.3854
▁በደለኛ	-11.3855
▁ከሕግ	-11.3856
▁የመጨረሻይቱን	-11.3857
▁ለሙሳ	-11.3857
▁መርየም	-11.3859
help	-11.3861
ተቀደሰው	-11.3866
▁ብሩክ	-11.3867
▁ጫንቃ	-11.3867
እዚህ	-11.3873
ያድጉ	-11.3878
rist	-11.3879
▁ልወጣ	-11.388
run	-11.3883
ባሕር	-11.3891
ደካማ	-11.39
ምስራቅ	-11.3905
ሽምግልና	-11.3915
▁መናፍስት	-11.3915
▁ማርኬቲንግ	-11.3915
▁ስፔሻሊስት	-11.3915
▁ኢዮሣፍጥ	-11.3915
▁ጲላጦስ	-11.3915
▁ይነግራችኋል	-11.3915
world	-11.3915
▁ሃሳቦች	-11.3915
▁የታተሙ	-11.3915
ጉምሩክ	-11.3915
▁North	-11.3915
▁Karn	-11.3915
▁ለማውጣት	-11.3916
▁Photo	-11.3916
▁ሰበሰበ	-11.3916
▁ዱባይ	-11.3916
▁አያገኙም	-11.3916
▁ስድብ	-11.3916
▁sales	-11.3916
ሸነፉ	-11.3917
ክፍያ	-11.3917
▁ታይላንድ	-11.3918
-06-20	-11.3927
vid	-11.393
▁0.01	-11.3931
▁በሁሉ	-11.3937
▁አደረግና	-11.3953
ከማች	-11.3965
▁ፋኩሊቲ	-11.3977
+00:00	-11.3977
▁Oracle	-11.3977
▁ልውውጦች	-11.3977
▁ማክሰኞ	-11.3977
▁የሶፍትዌር	-11.3977
▁የእድገት	-11.3977
ኢዮስያስ	-11.3977
▁የበዓል	-11.3977
▁ተጣጣፊ	-11.3977
▁በውስጥዋ	-11.3978
▁በአጭር	-11.3978
▁ይሠራሉ	-11.3979
▁የማግኘት	-11.3979
▁የእህል	-11.3979
▁ጠዋት	-11.398
▁ፖስታ	-11.3981
▁ይምላሉ	-11.3983
▁ለማስቀመጥ	-11.3984
▁ይሰራሉ	-11.3985
▁እየተባለ	-11.399
chat	-11.3991
ተላከ	-11.4003
▁Art	-11.4005
▁አትበል	-11.401
▁Ethiopian	-11.4011
▁ነጂ	-11.4018
▁Shijiazhuang	-11.404
▁Suzuki	-11.404
▁ለያዕቆብ	-11.404
▁ማመቻቸት	-11.404
▁ምሥጢር	-11.404
▁ስልጣኑ	-11.404
▁ተደሳቾች	-11.404
▁ግሎባል	-11.404
▁ፌዴሬሽን	-11.404
▁ተጓዳኝ	-11.404
ተቋቋመ	-11.404
▁ማጥናት	-11.404
2005-2018	-11.404
▁በባሮቹ	-11.404
="3.4	-11.4041
ሸፈኑ	-11.4041
ተቀረጸ	-11.4043
▁ብሩሽ	-11.4043
▁የሻማ	-11.405
መበደል	-11.4052
▁ቸል	-11.4057
ific	-11.4059
ቀጠለ	-11.406
▁ነፍሰ	-11.406
tation	-11.4075
▁ሽቱ	-11.4082
▁Mini	-11.4085
▁ይሰማኛል	-11.4093
ገፋፋ	-11.4094
አሻንጉሊት	-11.4103
ድንቁርና	-11.4103
▁አስመልክቶ	-11.4103
▁አይኤስኦ	-11.4103
piece	-11.4103
▁ዔሳው	-11.4103
▁ተክሎች	-11.4104
▁በቍጣ	-11.4104
▁የጆሮ	-11.4104
ohm	-11.4104
▁ድብልቅ	-11.4105
▁ክሪስታል	-11.4105
ager	-11.4106
▁በማስቀመጥ	-11.4106
ታተመ	-11.4107
▁ዲናር	-11.4108
▁አልባሳት	-11.4108
▁ባለስልጣን	-11.411
▁ትኬት	-11.4111
ዘገበ	-11.4115
▁ዕፅ	-11.4119
8.4	-11.412
▁ስትሆን	-11.4121
▁ቅነሳ	-11.4127
▁2.4	-11.4127
3.4	-11.413
ማጥፋት	-11.4147
▁ብሬ	-11.4153
ሰዓቲቱ	-11.4156
3.7	-11.4156
▁electro	-11.4166
▁ሚስጢራዊ	-11.4166
▁ተጠባበቁ	-11.4166
▁ሕያዋን	-11.4166
▁ሸቀጦች	-11.4166
▁በማድረጉ	-11.4166
መፀኞች	-11.4166
▁ያዘጋጃል	-11.4166
▁በመክፈት	-11.4166
▁ግኝት	-11.4166
▁ይቀጥሉ	-11.4167
▁ከአንቺ	-11.4167
▁ጀግና	-11.4168
▁አተሩን	-11.4168
▁ዝሙት	-11.4168
▁ማምጣት	-11.4169
ፈጣን	-11.4169
▁መጠለያ	-11.417
▁አይገኝም	-11.417
መሰግን	-11.417
▁ጄምስ	-11.4172
▁ይበል	-11.4173
▁የኃጢአት	-11.4173
tom	-11.4178
▁ጎጆ	-11.4182
lish	-11.4187
▁ጎጂ	-11.4191
="1.1	-11.4212
ዓመታት	-11.4221
ማሻሻያ	-11.4222
ባለሥልጣኑ	-11.423
▁Tailoress	-11.423
▁ለማስተዋወቅ	-11.423
▁ምሕፃረ	-11.423
▁በሌሊቱ	-11.423
▁ብትንቁኝ	-11.423
▁ውሸታም	-11.423
▁ግመሎች	-11.423
▁ራዲያል	-11.423
▁ትይዩ	-11.423
▁በሐሰት	-11.423
መላለሱ	-11.4231
▁በአባቱ	-11.4231
ONG	-11.4234
▁ዜሮ	-11.4234
▁ነፍሳት	-11.4234
▁ሼል	-11.4235
▁የኑሮ	-11.4236
▁ኢኮኖሚክስ	-11.4236
Ray	-11.4237
▁አቆመ	-11.4244
ward	-11.4245
ቅጥፈት	-11.4246
▁ክሬም	-11.4252
3.9	-11.4267
ሸከማ	-11.4273
▁cre	-11.4274
cial	-11.4284
ዝግጅት	-11.4287
{	-11.4294
ናይጄሪያ	-11.4294
▁ማሳሰቢያ	-11.4294
▁እያደረገ	-11.4294
ንግግራቸው	-11.4294
▁ልባስ	-11.4295
▁product	-11.4295
ንጸባር	-11.4295
▁በልጆች	-11.4297
▁የተመረጠው	-11.4298
ቀበሌ	-11.4299
▁አዳኝ	-11.4302
▁እራሳቸውን	-11.4303
cket	-11.4307
እርስዎ	-11.4319
▁የማይቻል	-11.4322
2,000	-11.4326
እሳቱ	-11.4341
▁ትሆናለህ	-11.4358
▁ትእዛዛት	-11.4358
▁የመጓጓዣ	-11.4358
▁ምህረት	-11.4358
ልጆቻችን	-11.4358
▁ጠቢብ	-11.4359
▁እዝነቱ	-11.4359
▁ክተት	-11.4359
▁ለመፍራት	-11.4359
▁ከስድስት	-11.4359
ተገበር	-11.436
place	-11.4361
▁ክምር	-11.4362
▁ገለባ	-11.4362
▁በሰማርያ	-11.4363
▁መስጫ	-11.4364
▁ከአሥር	-11.4368
▁ማስያዝ	-11.4372
▁ለመጓዝ	-11.4373
7.3	-11.4377
ሃይማኖታዊ	-11.4377
▁የጌታዬ	-11.4389
ፈሰሰ	-11.4399
kov	-11.4399
7.2	-11.4408
አውሮፓ	-11.4409
▁የሚፈሱባቸው	-11.4412
ዘመናዊ	-11.442
▁ፍንዳታ	-11.4423
ኋለኞቹ	-11.4423
ኤፌሶን	-11.4423
▁Karylle	-11.4423
▁Pampanga	-11.4423
▁Solana	-11.4423
▁መስተዳድር	-11.4423
▁ሶፍትዌሮች	-11.4423
▁በየወገናቸው	-11.4423
▁ተጀምሯል	-11.4423
▁ጆንሰን	-11.4423
▁የሳኦል	-11.4423
▁የሌሊት	-11.4423
ሚኒስቴሩ	-11.4423
▁የአሦር	-11.4423
▁መዝጊያ	-11.4423
▁ጣዕም	-11.4423
▁ለመመልከት	-11.4424
▁ጽዳት	-11.4424
▁ግጥም	-11.4425
ፈፀመ	-11.4427
▁የሙቅ	-11.4432
▁ከብቶች	-11.4433
▁የማዘጋጃ	-11.4433
▁III	-11.4433
ማንኛውም	-11.4434
="4.1	-11.4442
▁7:2	-11.4465
etting	-11.4488
▁ሩኅሩኅ	-11.4489
▁በየዕለቱ	-11.4489
▁አምላካቸው	-11.4489
▁ከማመስገን	-11.4489
▁የጉብኝት	-11.4489
▁ይወርዳል	-11.4489
▁ተለጣፊ	-11.4489
▁Earth	-11.4489
ዕብራውያን	-11.4489
ደባባዩ	-11.4489
▁የማረፊያ	-11.4489
▁መንስኤ	-11.4489
▁ከሞተች	-11.4489
▁ከበፊቱ	-11.4489
▁ለራሳቸው	-11.4489
▁Intel	-11.4491
▁ፍቅ	-11.4492
▁እንደተገናኙ	-11.4492
▁በአልጋ	-11.4493
8.3	-11.4494
▁የምስል	-11.4494
ለብሳ	-11.4498
="3.6	-11.4511
▁ለመቋቋም	-11.4511
▁ሆኖአል	-11.4521
▁ICO	-11.4522
እግዚአብሔር	-11.4525
▁ደጋፊ	-11.4526
▁12:1	-11.4526
ኹ	-11.4539
9.9	-11.454
IVE	-11.4542
ሥልጣን	-11.4551
7.4	-11.4552
£	-11.4554
የመጨረሻው	-11.4554
ሆንግኮንግ	-11.4554
▁ለአሕዛብ	-11.4554
▁ሊባኖስ	-11.4554
▁ማቴዎስ	-11.4554
▁ሞለኪዩል	-11.4554
▁ዓይኖቹ	-11.4554
▁ጽሁፎች	-11.4554
filters	-11.4555
▁ዶክተሮች	-11.4555
▁መንፈሱ	-11.4555
▁አጀንዳ	-11.4555
▁እነማን	-11.4555
▁ሉቃስ	-11.4555
▁ሳሙና	-11.4555
▁እንደነበሩ	-11.4555
▁ከመንገዱ	-11.4555
▁አክሊል	-11.4555
▁ይሉሃል	-11.4555
▁መደሰት	-11.4555
▁በትክክለኛው	-11.4556
▁ጃኬት	-11.4557
▁እግሩን	-11.4557
▁ይችሉ	-11.4559
▁PTO	-11.4565
ፋርስ	-11.4574
ቆጣጠሩ	-11.4576
▁የሚስብ	-11.4582
ጂያን	-11.4589
road	-11.4598
ኜ	-11.462
▁ትራንስ	-11.4621
አቤሜሌክ	-11.4621
▁ይሰግዳሉ	-11.4621
▁ኤፕሪል	-11.4621
▁ያወረድነው	-11.4621
▁ድሆች	-11.4621
▁ሮታሪ	-11.4621
▁ጨምሯል	-11.4621
▁BMW	-11.4621
▁የስዊስ	-11.4621
▁ያዘዘውን	-11.4621
▁ለመዋጋት	-11.4621
▁ምጣኔ	-11.4621
▁ጸለየ	-11.4621
መሸጫ	-11.4621
▁ከመጀመሪያው	-11.4621
▁(2018)	-11.4622
▁በማለዳ	-11.4622
ኢስላም	-11.4622
▁የሶርያ	-11.4622
▁--&	-11.4622
▁Project	-11.4623
▁ካለፉት	-11.4623
▁Paper	-11.4624
▁ለይቶ	-11.4625
▁ንግሥት	-11.4626
▁ከእሷ	-11.4627
▁ጉድለት	-11.4629
▁የቅጥ	-11.4629
▁አውሎ	-11.4632
▁ፈረስ	-11.4635
6.8	-11.4643
9.6	-11.4643
ሰራዊቱ	-11.4646
awa	-11.4654
▁መልካሞች	-11.4684
▁በልቦቻችሁ	-11.4687
▁ተማምኗል	-11.4687
▁እለምንሃለሁ	-11.4687
▁የማታውቁትን	-11.4687
▁ፌብሩዋሪ	-11.4687
▁ከሚያጋሩት	-11.4687
▁አሳልፈው	-11.4688
▁ቁረጥ	-11.4688
MCPS	-11.4688
▁ብትክዱ	-11.4688
▁የመማሪያ	-11.4688
▁ማሽኑ	-11.4688
▁በስውር	-11.4688
▁ከቅርብ	-11.4689
▁ግትር	-11.4689
▁በክልሉ	-11.4689
ጨረሰ	-11.4691
▁አታበላሹ	-11.4691
▁አማኝ	-11.4694
▁የአሞን	-11.4695
-05-20	-11.4696
shop	-11.4697
▁ለመቀየር	-11.47
መድረክ	-11.4707
8000	-11.4707
ሰደድ	-11.4714
▁1.8	-11.4717
1.9	-11.4718
▁Specifi	-11.4724
ቼአለሁ	-11.4726
face	-11.4736
ሕይወታቸው	-11.4754
▁America	-11.4754
▁Posted	-11.4754
▁መልክተኞቻቸው	-11.4754
▁መስዋዕት	-11.4754
▁ማጠቃለያ	-11.4754
▁ሷሊህ	-11.4754
▁አልመሲሕ	-11.4754
▁ከሕዝቦቹ	-11.4754
▁ከክርስቶስ	-11.4754
▁ደጃፎች	-11.4754
▁አዕማድ	-11.4755
▁ኮንክሪት	-11.4755
▁ሥርዓቶች	-11.4755
▁ሙሽራ	-11.4755
▁ይጠበቃል	-11.4755
▁ከጋኔን	-11.4755
ፅሁፍ	-11.4755
▁Ultra	-11.4755
መኾኔ	-11.4755
▁ትንሹ	-11.4755
እንቁላል	-11.4756
▁Adres	-11.4757
▁አምጡልኝ	-11.4758
እንቅስቃሴ	-11.476
▁እናገራለሁ	-11.476
ገሰጽ	-11.476
ሚሻው	-11.4764
▁CPA	-11.4772
▁የሚበድ	-11.4773
▁ስፓ	-11.4774
▁Dj	-11.478
ያከብሩ	-11.4781
ይዛቸው	-11.4788
▁sho	-11.4819
▁Genotropin	-11.4822
▁አልላክንም	-11.4822
▁እጠበቃለሁ	-11.4822
▁የትብብር	-11.4822
▁ህትመት	-11.4822
▁ይከልከል	-11.4822
▁SQL	-11.4822
▁ከምትሠሩት	-11.4822
▁ያስችላል	-11.4822
▁ለመስማት	-11.4822
▁አፍንጫ	-11.4823
7.6	-11.4824
▁አስባለሁ	-11.4825
▁ለሚቃጠል	-11.4827
▁አመቺ	-11.4829
еѕ	-11.4829
ባህላዊ	-11.4829
▁ብሆን	-11.4837
▁3:2	-11.4839
50,000	-11.4853
▁መጥተዋል	-11.4856
itch	-11.4857
6.6	-11.4879
2-3	-11.4881
▁Sitemap	-11.489
▁ለነበሩት	-11.489
▁መቅሠፍት	-11.489
▁ባለሀብቶች	-11.489
▁አልነበርክም	-11.489
▁አዳራሾች	-11.489
▁ግሣጼ	-11.489
▁አውጥቶ	-11.489
▁አምስተኛው	-11.489
▁ደካሞች	-11.489
▁አይመለከቱምን	-11.489
▁ቀላቃይ	-11.489
▁ተግባሮች	-11.489
▁ለማስተካከል	-11.489
▁ኖርዌይ	-11.489
▁በጽዮን	-11.489
▁በቅንነት	-11.489
▁ቅጣታችን	-11.4891
▁ግብዓት	-11.4893
▁ስኬቶች	-11.4893
መሆኔ	-11.4894
▁ተለክ	-11.4896
አድራሻ	-11.4899
9.4	-11.4901
ኾ	-11.4919
▁ይቀራል	-11.4941
2.6	-11.4942
▁ከቤተ	-11.4947
download	-11.4959
ኬሚስትሪ	-11.4959
▁Science	-11.4959
▁ማሽከርከር	-11.4959
▁የሀገሪቱ	-11.4959
▁የስኬትቦርድ	-11.4959
▁የላስቲክ	-11.4959
information	-11.4959
▁ማበረታቻ	-11.4959
▁ሲፒዩ	-11.4959
▁ለመክፈል	-11.4959
▁ሰረገላ	-11.4959
▁ታቀርባ	-11.4959
▁አንችልም	-11.4959
▁ሥርዓቱ	-11.4959
▁ማፍራት	-11.496
▁ያልተለመደ	-11.496
▁ንጉስ	-11.496
▁ዐወቀ	-11.4966
እንዴት	-11.4969
▁API	-11.4976
ፍራፍሬዎች	-11.4977
▁Plus	-11.5002
9.99	-11.5007
ተሳለ	-11.5008
ube	-11.501
▁Koowheel	-11.5028
▁UNLEADE	-11.5028
▁ህጻናት	-11.5028
▁በባሕሩ	-11.5028
▁በኢብራሂም	-11.5028
▁ንቅናቄ	-11.5028
▁ጌጣጌጥ	-11.5028
▁ZXR	-11.5028
▁ናይለን	-11.5028
▁እንምላለን	-11.5028
▁ተሳፋሪ	-11.5028
position	-11.5028
▁ይሻላል	-11.5028
▁የዕድሜ	-11.5028
▁ያገለግሉ	-11.5028
▁ኖኅ	-11.5029
▁ከጭቃ	-11.5029
ሳምንቱ	-11.5029
▁Maxi	-11.5029
▁ቡድኑ	-11.5031
▁ነፍሱ	-11.5034
ከፈሉ	-11.5037
መቀመጫ	-11.5039
ብስክሌት	-11.504
እይታ	-11.5044
ጠበቃቸው	-11.5091
With	-11.5092
▁ለአብርሃም	-11.5097
▁መቆለፊያ	-11.5097
▁ሲኒቶቶ	-11.5097
▁ተሟጋች	-11.5097
▁ተያያዙት	-11.5097
▁ትዕይንት	-11.5097
▁የታችኛው	-11.5097
▁ፕሬዝዳንት	-11.5097
▁ሽፋኖች	-11.5097
▁ሆቴሎች	-11.5097
▁የለብንም	-11.5097
▁ህዝቡ	-11.5097
ቪኦኤ	-11.5097
▁ክቡር	-11.5097
▁ያቅርቡ	-11.5097
▁ይቀርባል	-11.5097
▁የሚከለክሉ	-11.5097
ተፈቀዱ	-11.5097
▁ሠርቶ	-11.5098
ሳዶቅ	-11.5098
▁ማብሪያ	-11.5098
ተጻፈ	-11.5099
▁ሰራሽ	-11.5102
▁የቀረውን	-11.5105
መድሃኒት	-11.5112
▁ዓምድ	-11.5113
▁ዘለላ	-11.5114
ሰግድ	-11.5124
SPY	-11.5133
ገንዘቦቻቸውና	-11.5149
መኪና	-11.5163
▁Royale	-11.5167
▁casino	-11.5167
▁በዕውቀቱ	-11.5167
▁አስተላላፊ	-11.5167
▁ፍየሎች	-11.5167
▁በድንጋይ	-11.5167
ፊሊፒንስ	-11.5167
▁ሄኖክ	-11.5167
▁ግብይቶች	-11.5167
▁አንዲቱ	-11.5167
አሰቃቂ	-11.5167
▁በፍርዱ	-11.5167
▁የመንፈስ	-11.5168
▁አልፈልግም	-11.5168
▁በስድስት	-11.5168
▁ማስተዳደር	-11.517
▁ቀጥሏል	-11.517
▁ያዘቻቸው	-11.5175
▁BSF	-11.518
Ethiopia	-11.5184
base	-11.5187
OU	-11.5192
▁ክሪስ	-11.5198
የራሳቸው	-11.5204
8.9	-11.5205
ሕዝብ	-11.5227
▁Pulsar	-11.5237
▁System	-11.5237
▁ከንጉሡ	-11.5237
▁የክረምት	-11.5237
▁ቬጋስ	-11.5237
▁አቁማዳ	-11.5237
▁ድንገት	-11.5237
upload	-11.5237
▁ጭንብል	-11.5237
▁ከዘላለም	-11.5237
እስማኤል	-11.5237
service	-11.5237
▁ያመለክታል	-11.5237
▁መቻቻል	-11.5238
▁የቅርጫ	-11.5238
▁ሱዳን	-11.5238
▁ከወርቅ	-11.5238
▁ሌንስ	-11.524
▁መንገዳቸው	-11.524
▁ገዢዎች	-11.5241
▁በንግግር	-11.5241
▁ሕሊና	-11.5241
▁ለምኑት	-11.5244
▁መንገዴ	-11.5244
▁ካምፕ	-11.5245
መሰለ	-11.5251
▁ቀበሮ	-11.5251
aff	-11.5264
esh	-11.5281
▁Omegle	-11.5308
▁መስመራዊ	-11.5308
▁ባለስልጣናት	-11.5308
▁ኦርጋኒክ	-11.5308
▁ከፀሐይ	-11.5308
▁ይካሄዳል	-11.5308
▁ከዳዊት	-11.5308
▁ሊገልጽ	-11.5308
▁ልዕለ	-11.5308
▁ከአባቶቹ	-11.5308
▁በመመልከት	-11.5309
▁በዩኒቨርሲቲው	-11.5309
ያለሽ	-11.5309
▁አይድኑም	-11.5309
▁የጥበቃ	-11.5309
proof	-11.5311
▁አያያዘ	-11.5316
Design	-11.5318
▁አዳነ	-11.5333
4.8	-11.5337
▁imp	-11.5343
▁Fiber	-11.5345
ሕክምና	-11.5364
4700	-11.5365
▁ሙባረክ	-11.538
▁ሥዕሎች	-11.538
▁የመመገቢያ	-11.538
▁የችርቻሮ	-11.538
▁ጕልማሳ	-11.538
▁አንሥቶ	-11.538
▁የሃርሊ	-11.538
▁የጣሊያን	-11.538
▁ጉብኝቶች	-11.538
▁በሌለበት	-11.538
▁ይወድቃል	-11.538
▁መመርመር	-11.538
▁ዳሳሽ	-11.538
▁የሰሌዳ	-11.538
▁መዋዕል	-11.538
▁ሃንግዙ	-11.538
▁ትላላችሁ	-11.538
▁መርዛማ	-11.538
▁የጋብቻ	-11.538
▁አረቢያ	-11.538
▁ፈጥኖ	-11.5381
▁በዚች	-11.5382
▁ከነበረው	-11.5382
▁ያቀናል	-11.5383
▁በረሃ	-11.5385
iko	-11.5389
▁አምስቱ	-11.539
="4.7	-11.5402
መሠረት	-11.5403
ባረር	-11.541
▁ሐዋርያ	-11.5412
cycl	-11.5443
▁tesla	-11.5452
▁ቅልጥፍና	-11.5452
▁ዘካርያስ	-11.5452
▁የመጠባበቂያ	-11.5452
ከናወኑ	-11.5452
▁Express	-11.5452
▁ተመልካቾች	-11.5452
XCHARX	-11.5452
▁ይመርጣል	-11.5452
▁ይቀጣቸዋል	-11.5452
▁በማስገባት	-11.5452
▁እግሮቹ	-11.5452
▁ፊርማ	-11.5452
▁የታሰበ	-11.5454
▁ቱርክ	-11.5455
▁ውርስ	-11.5455
▁ማሳደግ	-11.5457
▁ፊደል	-11.5459
▁ይፈራሉ	-11.546
▁ተከታይ	-11.5463
▁ደውል	-11.5469
▁በተስፋ	-11.5474
▁ሃይማኖታችሁ	-11.5476
ቁርአን	-11.5477
መሬቱ	-11.5484
▁የፈተና	-11.5522
▁መጎብኘት	-11.5524
▁ኑዛዜ	-11.5524
▁ያጠቃልላል	-11.5524
▁ፖርትፎሊዮ	-11.5524
▁እየዞርኩ	-11.5524
▁ክሎሪን	-11.5524
መዝናናት	-11.5524
▁ሩብል	-11.5524
▁ክፍፍል	-11.5524
IGHT	-11.5525
▁የሞገድ	-11.5525
vector	-11.5525
▁የከባድ	-11.5526
▁የተጠቀሰ	-11.5526
▁ምናሌ	-11.5528
▁መደብሮች	-11.553
▁ሻጭ	-11.5531
ያስተባብሉ	-11.5538
ሕፃን	-11.5554
7.8	-11.5567
wind	-11.5572
inder	-11.5594
▁ማሰልጠኛ	-11.5597
▁አሻንጉሊቶች	-11.5597
▁ካሊፎርኒያ	-11.5597
▁የምንችለው	-11.5597
▁የብሪታንያ	-11.5597
▁ማጽዳት	-11.5597
▁የታሸገ	-11.5597
▁ለመቀጠል	-11.5597
▁በመምረጥ	-11.5597
▁በአማካይ	-11.5597
▁ቅልቅል	-11.5597
▁ፍቀድ	-11.5597
▁ኅብረት	-11.5597
▁ጨካኝ	-11.5597
▁አቅኚ	-11.5597
▁ፊቶቻችሁን	-11.5597
▁የፍትህ	-11.5597
▁በማውጣት	-11.5597
dialog	-11.5598
▁Marvel	-11.5598
ዘዋወር	-11.5599
▁በሌለው	-11.5599
▁ታገሱ	-11.5599
▁ይገባህ	-11.5599
▁ላውራ	-11.56
▁የፊልም	-11.56
▁ዓመፃ	-11.5601
መጪው	-11.5608
ቀምሱ	-11.5614
▁ዐውቀ	-11.5614
ጊዜያዊ	-11.565
▁Cryptocurrency	-11.5671
▁Inverter	-11.5671
▁Stepper	-11.5671
▁ሰርቲፊኬት	-11.5671
▁በመካከላችን	-11.5671
▁በከነዓን	-11.5671
▁በከዋክብት	-11.5671
▁ቱሪዝም	-11.5671
▁የተራቀቀ	-11.5671
▁መልአኩ	-11.5671
function	-11.5671
አሰልጣኝ	-11.5671
▁አጽጂዎች	-11.5671
▁የሚያገለግል	-11.5671
▁በመሙላት	-11.5671
▁አሃዶች	-11.5671
▁አስፈሪ	-11.5671
▁ምትኮች	-11.5671
▁ዕድሎች	-11.5671
▁አታይምን	-11.5671
▁ይባርክ	-11.5671
▁ግምቶች	-11.5671
wood	-11.5672
▁የመሳሪያ	-11.5672
ወለደች	-11.5673
▁ምርቱ	-11.568
▁ደሙን	-11.569
1.8	-11.5704
llow	-11.5711
መንግሥቱ	-11.5715
ቀየሩ	-11.5728
html	-11.5745
መርዶክዮስ	-11.5745
ኅብረተሰብ	-11.5745
▁ማዳበሪያ	-11.5745
▁ከአስደናቂ	-11.5745
▁እሰጥሃለሁ	-11.5745
መጽሐፎች	-11.5745
▁፳፻	-11.5745
▁መቀየሪያ	-11.5745
April	-11.5745
▁የምጣኔ	-11.5745
▁በለዓም	-11.5745
▁የመኖርያ	-11.5745
ጂኦግራፊ	-11.5745
▁ታጣፊ	-11.5745
▁የጉርሻ	-11.5745
▁ትናንት	-11.5745
▁ማዳበር	-11.5745
▁ማናቸውንም	-11.5745
▁Micro	-11.5745
▁ወንዙ	-11.5746
▁ወደናንተ	-11.5746
▁መስሚያ	-11.5747
XXX	-11.5748
ባረሩ	-11.5751
▁ወዯ	-11.5752
▁የሙሳ	-11.5757
▁ይበላችሁ	-11.5757
home	-11.5776
ያስተምሩ	-11.5777
ious	-11.5784
2.4	-11.5793
ካርታ	-11.5798
6.4	-11.5798
ተከናወነ	-11.5798
ተቋሙ	-11.5803
▁ኃጢኣ	-11.5809
አፓርታማ	-11.5819
ጲ	-11.5819
▁Church	-11.5819
▁ethereum	-11.5819
▁ሄሮድስ	-11.5819
▁መሳለቂያ	-11.5819
▁ሴዴቅያስ	-11.5819
▁የኢብራሂምን	-11.5819
▁ይቆጣጠራል	-11.5819
▁ጎብኚዎች	-11.5819
▁ጢሞቴዎስ	-11.5819
▁ለመመርመር	-11.5819
▁አሸነፈ	-11.5819
▁ኤልሳዕ	-11.5819
▁ግፊቱን	-11.5819
▁ለአመኑት	-11.5819
▁የፖላንድ	-11.5819
▁ፒስቶን	-11.582
▁ይመለከታል	-11.582
▁ሊከሰት	-11.582
▁በማይበልጥ	-11.582
▁ሲልከን	-11.5822
▁የሳይኮ	-11.5823
▁ይለኛል	-11.5826
በኋላ	-11.5826
▁በልቦች	-11.5826
▁በራሴ	-11.5827
መሣሪያ	-11.5828
ተፈተነ	-11.5836
ሁኔታ	-11.5858
ኢንዶኔዥያ	-11.5894
▁Guzzi	-11.5895
▁ማጫወቻ	-11.5895
▁ሞለኪዩላር	-11.5895
▁በመመርኮዝ	-11.5895
▁ከከፊሉ	-11.5895
▁ኹነታ	-11.5895
▁የማቴዎስ	-11.5895
▁የሳይሲክ	-11.5895
▁የፊላዴልፊያ	-11.5895
▁ገራንለት	-11.5895
▁አርትዕ	-11.5895
▁በመቀጠል	-11.5895
▁የሸክላ	-11.5895
▁ሸሚዝ	-11.5895
▁ለማዳበር	-11.5895
▁Center	-11.5895
▁በሽመና	-11.5895
መሆኗ	-11.5895
▁የትርፍ	-11.5895
▁ዝመና	-11.5895
▁ምላጭ	-11.5895
▁መሳቢያ	-11.5895
▁በቀንዱም	-11.5895
▁ጦማሪ	-11.5896
▁ባሮቹን	-11.5896
▁በእስያ	-11.5896
▁ነገሠ፤	-11.5896
▁ከኾኑት	-11.5899
▁ቃሎች	-11.59
▁ስትሆኑ	-11.5902
ያደርጋቸው	-11.5905
ማበላሸት	-11.5908
▁ቆጣሪ	-11.5914
1-3	-11.5916
ዘወትር	-11.5933
ስለዚህ	-11.5933
አንበሳ	-11.5937
ውሸታሞቹ	-11.597
▁Azure	-11.597
▁ለመወያየት	-11.597
▁ማግኔቶችን	-11.597
▁አድናቆት	-11.597
▁የማያቋርጥ	-11.597
▁የተጎላበተው	-11.597
▁ያወርዳል	-11.597
▁ይገናኛሉ	-11.597
▁ከወንዶች	-11.597
▁በስፍራው	-11.597
▁የተለቀቁ	-11.597
▁ምስጢራ	-11.597
▁ስንፍና	-11.597
▁ግኝቶች	-11.597
▁ጽላቶች	-11.597
▁አብስራቸው	-11.597
▁ያለብዎት	-11.597
▁አቅርቡ	-11.597
ድርጅታዊ	-11.5971
▁ዓለሙ	-11.5971
▁መሰምርያ	-11.5971
▁ወሮታ	-11.5971
▁በባንክ	-11.5971
▁ዝንባሌዎቻቸውን	-11.5971
▁መዋጋት	-11.5971
▁የትችት	-11.5971
▁የአባቶቻቸው	-11.5972
DKK	-11.5972
▁ጦርነቶች	-11.5972
8.6	-11.5972
▁ይገባዋል	-11.5972
▁እንዳልሆነ	-11.5973
▁አሊፍ	-11.5973
bank	-11.5973
▁ሰባተኛው	-11.5973
▁ስውር	-11.5973
▁4:2	-11.5975
መገንባት	-11.5976
▁ያከብራ	-11.599
ማዕከላዊ	-11.6011
europe	-11.604
ግራፊክ	-11.6046
▁Misslamode	-11.6047
▁ማቀነባበሪያ	-11.6047
▁በስተጀርባ	-11.6047
Private	-11.6047
▁እነማዎች	-11.6047
▁የማሞቂያ	-11.6047
▁RideA	-11.6047
ተመሸጉ	-11.6047
▁ጀምሯል	-11.6047
▁የተደገፈ	-11.6047
▁ትልልቅ	-11.6047
▁የምዝገባ	-11.6047
▁በደንቡ	-11.6047
▁አሳሳቢ	-11.6047
▁የተመረተ	-11.6047
▁ለጥቂት	-11.6047
▁need	-11.6047
▁በርግጥ	-11.6048
▁የታቀደ	-11.6048
▁super	-11.6049
▁የተመላ	-11.6052
lastic	-11.6052
▁በሙሳ	-11.6057
▁ንስር	-11.6061
▁መጽሐፉ	-11.6083
poli	-11.6083
—	-11.609
ገመግ	-11.6096
፲፱፻	-11.6123
▁Conveyor	-11.6124
▁Galaxy	-11.6124
▁በማስተዋወቅ	-11.6124
▁አስተርጓሚ	-11.6124
▁Charter	-11.6124
▁ሊሚትድ	-11.6124
▁ብዝበዛ	-11.6124
▁ያደረጋት	-11.6124
▁አትቅረቡ	-11.6124
▁የፍቃድ	-11.6124
▁ምላሾች	-11.6124
▁ከፊሎቹ	-11.6124
ስፓኒሽ	-11.6124
▁month	-11.6124
▁የአሸዋ	-11.6124
▁የመርከብ	-11.6124
▁ከፈጠረ	-11.6124
▁ይወሰናል	-11.6124
▁LCD	-11.6124
መንፈሴ	-11.6124
▁የበለጡ	-11.6124
▁ደብተር	-11.6124
▁የወለል	-11.6126
▁ተቀባዮች	-11.6126
▁ወራዳ	-11.6127
іѕ	-11.6127
▁አትብሉ	-11.6129
▁በስልክ	-11.613
▁መዳብ	-11.6132
▁ማሰሮ	-11.6136
ኩባንያ	-11.6136
round	-11.6172
7.9	-11.619
መመሥረት	-11.6201
▁ስቴሮይድ	-11.6201
▁በተዓምራቶቻችን	-11.6201
▁የቆርቆሮ	-11.6201
▁በመቅደስ	-11.6201
▁ይቀመጣሉ	-11.6201
▁የዘንባባ	-11.6201
▁ደንቡን	-11.6202
▁መራሔ	-11.6202
▁ህንጻ	-11.6202
▁የታጠቁ	-11.6202
▁ተዋጉ	-11.6203
▁ኦክቶበር	-11.6203
ገሠጹ	-11.6203
▁Activ	-11.6204
▁የሙሴ	-11.6204
▁የመጫን	-11.6208
ዋረደ	-11.6208
▁የወሰነ	-11.6218
ያመልጥ	-11.6226
እራሴ	-11.6232
ማረጋገጫ	-11.6249
ኖቬምበር	-11.6279
▁mFortune	-11.6279
▁ኢዮርብዓም	-11.6279
▁የህጻናት	-11.6279
▁የጂያንግሱ	-11.6279
▁ይመለከታሉ	-11.6279
▁ደኅንነት	-11.6279
▁ፋከልቲ	-11.6279
▁የተካተተ	-11.6279
▁ኦሮሚያ	-11.6279
▁የኖርዌይ	-11.6279
▁ብዕር	-11.6279
▁ይቀመጣል	-11.6279
ፈለጋችሁ	-11.6279
▁ማሟያ	-11.6279
▁የተዋረዱ	-11.6279
▁ይጣላል	-11.628
▁የሚመከር	-11.628
▁ጻፎች	-11.628
▁ለፍርድ	-11.628
▁የአበባ	-11.628
▁መነቀስ	-11.6281
▁የተዋቀረ	-11.6281
▁ፊቲንግ	-11.6281
▁አደረግሁ	-11.6283
ትከራከሩ	-11.6283
▁የዶሮ	-11.6284
▁መንገሥ	-11.6287
▁መጠጣት	-11.6288
▁ሽንት	-11.6289
ታረቅ	-11.6293
▁Ass	-11.6304
ሃይማኖቶች	-11.6309
direct	-11.632
አዳዲስ	-11.633
▁Tesseract	-11.6358
▁የመቁረጫ	-11.6358
▁ይኖርብዎታል	-11.6358
▁ፓኬጅ	-11.6358
▁አውታረመረብ	-11.6358
▁ድፍረት	-11.6358
▁በማስተካከል	-11.6358
▁ወራሾች	-11.6358
▁ተዕለት	-11.6358
▁መልእክቶች	-11.6358
▁ትላለህ	-11.6359
▁ለጊዜው	-11.6359
▁ቤጂንግ	-11.636
▁ማኅበሩ	-11.6361
▁ኀዘን	-11.6361
▁ዳንስ	-11.6364
ተደሰቱ	-11.6367
▁የገደለ	-11.6376
▁ሽከርካሪ	-11.6408
▁ራሳቸው	-11.641
▁የተሽከርካሪ	-11.6414
▁ሽብር	-11.6434
192.168.	-11.6437
▁በመቅደሱ	-11.6437
▁ቢራቢሮ	-11.6437
▁ችግረኛ	-11.6437
▁አቪዬሽን	-11.6437
▁የዝውውር	-11.6437
▁የጥገኝነት	-11.6437
▁የፍልስጥኤማውያን	-11.6437
▁የሞዓብ	-11.6437
▁ኤክስፐርት	-11.6437
▁ወላጆቹ	-11.6437
▁የምሥራቅ	-11.6437
▁Electro	-11.6437
▁በተለያየ	-11.6437
▁ብስራት	-11.6437
▁ያተኮሩ	-11.6437
▁ከሰሜን	-11.6437
▁አናውቅም	-11.6437
▁በተራሮች	-11.6438
▁ቤተሰቦቻቸው	-11.6438
▁መስፍን	-11.6438
▁የምናሴ	-11.6438
▁ያበቃል	-11.6438
▁ጠፍቶ	-11.6439
▁ሱቆች	-11.6439
▁ስደት	-11.6439
▁ብንያም	-11.644
▁ለዋጭ	-11.644
▁ፓትሪክ	-11.6441
-12-20	-11.6446
▁ወርዱም	-11.645
Internet	-11.6458
ስቀምጥ	-11.6471
ቅድመ	-11.6472
ጽሁፍ	-11.6493
▁ንቅሳ	-11.6507
አፓርታይድ	-11.6517
ዩኤስዶላር	-11.6517
▁በሞዓብ	-11.6517
▁በአደባባይ	-11.6517
▁ቤርሳቤህ	-11.6517
▁ተፈፃሚ	-11.6517
▁አለበለዚያ	-11.6517
▁ኤክስፕረስ	-11.6517
▁ይጀምራሉ	-11.6517
▁ፕሮዳክሽን	-11.6517
▁ራሔል	-11.6517
▁ተሸክመው	-11.6517
▁ቲያትር	-11.6517
▁እንሰጣለን	-11.6517
▁የሃይባባ	-11.6517
▁ይመከራል	-11.6517
▁ስልታዊ	-11.6517
▁ግምታዊ	-11.6517
▁ፈጠርናችሁ	-11.6518
▁ማበጀት	-11.6518
ሸማቾች	-11.6518
▁መከለያ	-11.6518
▁በትንሹ	-11.6518
▁አያደርግም	-11.6518
▁ጅምላ	-11.6518
▁ኦይል	-11.6519
▁ይኖርባቸዋል	-11.6519
▁በሰልፍ	-11.652
▁የጀመረው	-11.6523
▁ጥፋተኛ	-11.6523
ካፈሉ	-11.6525
▁ሁላችን	-11.6527
select	-11.654
▁የአማራ	-11.6552
ipper	-11.6563
point	-11.6575
አሉሚኒየም	-11.6576
ግዴታ	-11.658
iff	-11.6584
▁ተሰጥቶ	-11.659
ሰማያት	-11.6593
▁መደምደሚያ	-11.6598
▁በአስቸኳይ	-11.6598
▁ትተዋላችሁ	-11.6598
▁ትችላላችሁ	-11.6598
▁ከፍልስጥኤማውያን	-11.6598
▁የዮሴፍ	-11.6598
▁ይጫወታል	-11.6598
▁አትግደሉ	-11.6598
መቀስቀስ	-11.6598
ያስፈልገን	-11.6598
▁ፍላጎታቸውን	-11.6598
▁ይሰጣችኋል	-11.6598
▁ፈረሰኞች	-11.6598
▁የሕንፃ	-11.6598
▁ሳይንሶች	-11.6599
▁እፍረት	-11.6599
▁የሚደብቁትን	-11.6599
▁አህዮች	-11.6599
▁ከደመና	-11.66
ለብሱ	-11.6601
▁የጥላቻ	-11.6602
▁አድኖ	-11.6603
▁ከራሱ	-11.6606
▁ያክሉ	-11.661
አማራጭ	-11.6626
▁8:2	-11.665
▁Copyshop	-11.6679
▁ለመመስረት	-11.6679
▁ምዕራባዊ	-11.6679
▁ስጧቸው	-11.6679
▁ቴሌግራም	-11.6679
▁እንጠቀማለን	-11.6679
▁የቦሂሚያ	-11.6679
▁ዲስትሪከት	-11.6679
▁ጠርሙሶች	-11.6679
▁መድፈኛ	-11.6679
▁ማጠናከር	-11.6679
▁ዝንጀሮ	-11.6679
▁ድህረገፅ	-11.6679
▁አትችሉም	-11.6679
▁የትርጉም	-11.6679
▁ስሚዝ	-11.6679
▁የተቀየሰ	-11.6679
▁ለትርፍ	-11.6679
▁አልነበራችሁም	-11.668
▁መኮንን	-11.668
▁በችሮታው	-11.6681
▁በኵራት	-11.6681
▁ተቀብለዋል	-11.6681
▁በንቃት	-11.6681
▁በማስወገድ	-11.6681
▁Clash	-11.6682
▁ፖስት	-11.6683
▁ጥዋት	-11.6683
ተገለጠ	-11.6698
ዮሐንስ	-11.6715
ሞባይል	-11.6715
ደህንነት	-11.6715
ደንበኛ	-11.6716
▁11:2	-11.6722
Product	-11.6725
▁በእርስ	-11.6743
አረንጓዴ	-11.6743
አርጤክስስ	-11.6761
▁መሸወጃዎች	-11.6761
▁በክህደት	-11.6761
▁እነግራችኋለሁ	-11.6761
▁ኦሪጅናል	-11.6761
▁ከፎቶው	-11.6761
▁ክሊፖች	-11.6761
▁ዚፔር	-11.6761
▁የማቀዝቀዝ	-11.6761
▁ይፈቅዳል	-11.6761
▁ድንኳኑ	-11.6761
ማጠናከሪያ	-11.6761
▁ከወዴት	-11.6761
▁የተጠቀሱት	-11.6761
▁የምስጋና	-11.6761
▁ዥረት	-11.6761
▁የብንያም	-11.6761
▁Rights	-11.6761
▁እርሳስ	-11.6761
▁ቻምበር	-11.6761
▁ፊደላት	-11.6761
▁የተሻሻሉ	-11.6761
▁ይመስላሉ	-11.6761
▁ፕላዝማ	-11.6761
▁TDK	-11.6761
▁ስእል	-11.6761
▁ይወስዳሉ	-11.6761
▁ለማቆየት	-11.6762
▁EURUSD	-11.6762
xiang	-11.6762
▁ይማራሉ	-11.6762
▁TCP	-11.6762
▁ለርሷ	-11.6762
▁ለሰልፍ	-11.6762
▁የቦርድ	-11.6762
▁አበቦች	-11.6763
▁ሻጮች	-11.6763
▁አይቆዩም	-11.6763
▁የግሪክ	-11.6763
▁የፊተኞቹ	-11.6763
▁አልማዝ	-11.6763
▁ከኃጢአት	-11.6765
ያሳስቱ	-11.6772
ዘገየ	-11.6783
ከናወነ	-11.6784
ነቢይነት	-11.68
መቁረጥ	-11.68
▁12:2	-11.6802
ተመዘገበ	-11.682
▁ፍራፍሬ	-11.6833
▁ሰጥተ	-11.6838
አትክልቶችና	-11.6841
▁Skype	-11.6844
▁በያዕቆብ	-11.6844
▁ከከሳሪዎቹ	-11.6844
▁ዓይኖቼ	-11.6844
▁የደኅንነት	-11.6844
▁ለመልክተኛው	-11.6844
ሕዝቦቻቸው	-11.6844
▁ኩባያ	-11.6844
▁ተጠባቂ	-11.6844
ማሳወቂያ	-11.6844
▁ልሔም	-11.6844
▁admin	-11.6844
▁ይከፍታል	-11.6844
▁ጥፋታችን	-11.6844
▁ብትሸሹም	-11.6844
▁ይገኙበታል	-11.6844
style	-11.6844
Steam	-11.6844
▁አመጸኛ	-11.6844
▁ቆራጭ	-11.6845
ከፋፈሉ	-11.6845
▁መብረር	-11.6845
▁ከጥንት	-11.6846
▁ችሎት	-11.6846
▁Asia	-11.6846
▁የእስያ	-11.6847
▁ረድፍ	-11.6848
▁አገልግሎቱ	-11.6849
▁14:1	-11.6875
7.7	-11.6883
ድንጋጤ	-11.6913
ምእምናኖቹ	-11.6927
▁Metatrader	-11.6927
▁በዩሱፍ	-11.6927
▁ከእውነተኞቹ	-11.6927
▁የጨለማው	-11.6927
▁ጋዜጠኛ	-11.6927
▁እንቀጣለን	-11.6927
▁ዐረብኛ	-11.6927
▁በፈጠረው	-11.6927
ንሻለሉ	-11.6927
▁በሥሮቻቸው	-11.6927
▁ማሰራጨት	-11.6927
▁ያገባቸዋል	-11.6927
▁ቅርቡን	-11.6928
▁ባሕርያት	-11.6928
▁በመፍራት	-11.6928
▁ሞልቶ	-11.6928
▁ፈጠርነው	-11.6928
ሴፕቴምበር	-11.6929
▁ለማስተዳደር	-11.6929
ተገለፀ	-11.693
▁የክልሉ	-11.693
▁የጥፍር	-11.693
photo	-11.6931
▁መገዛት	-11.6931
አዛኞች	-11.6939
ታውቀው	-11.697
አትክልት	-11.6974
▁2:2	-11.6982
ዓይኖቻቸው	-11.7
ሕጋዊ	-11.7
መመሪያ	-11.7001
3,000	-11.7009
▁WIFI	-11.7011
▁conveyor	-11.7011
▁ለይሁዳ	-11.7011
▁መወያየት	-11.7011
▁ማስወገጃ	-11.7011
▁ሶርያውያን	-11.7011
▁ኀጢአቶች	-11.7011
▁አልጠይቃችሁም	-11.7011
▁አበኔር	-11.7011
▁የሃርድዌር	-11.7011
▁የአቪዬሽን	-11.7011
▁Foundation	-11.7011
▁መተርጎም	-11.7011
▁እመልሳለሁ	-11.7011
▁ይወክላል	-11.7011
▁ኖሯልን	-11.7011
▁የምንሻውን	-11.7011
▁የክፍለ	-11.7011
▁መለካት	-11.7011
▁ንገረኝ	-11.7011
▁ቡቃያ	-11.7011
▁የሚያገለግሉ	-11.7011
▁በቋሚነት	-11.7012
ንቧቧ	-11.7012
▁ምንጊዜም	-11.7012
▁ዞኖች	-11.7012
account	-11.7013
አማልክቶቻችን	-11.7013
▁ሞቃት	-11.7013
▁ይከራከ	-11.7014
▁ዮናስ	-11.7014
ሰናከል	-11.7016
▁ከጨለማ	-11.7035
▁መቅደ	-11.7042
እንስሳት	-11.7062
Blockchain	-11.7087
ካፒታል	-11.7087
▁መልዕክ	-11.7089
ጋለሞታ	-11.7096
ፕሬዚዳንቱ	-11.7096
▁Dubai	-11.7096
▁FxPremiere	-11.7096
▁Litecoin	-11.7096
▁ለመገምገም	-11.7096
▁ማዳመጫ	-11.7096
▁በሕዝቤ	-11.7096
▁ተመስርቶ	-11.7096
▁ኮርፖሬሽኖች	-11.7096
▁የሳይኪክ	-11.7096
▁ኒኬል	-11.7096
▁መፍሰስ	-11.7096
ዛብሎን	-11.7096
▁ቀዳማዊ	-11.7096
▁ኬብሎች	-11.7096
▁ከፊሎቻቸው	-11.7096
▁በየብስ	-11.7096
▁የህጻን	-11.7096
ንፍቅና	-11.7096
▁አሽከርካሪዎች	-11.7097
▁መዓዛ	-11.7097
▁ጉግል	-11.7097
▁እንላለን	-11.7098
▁ማግባት	-11.7098
symbols	-11.7099
▁በመግባት	-11.71
▁በእስር	-11.71
ተሽከርካሪዎች	-11.7112
▁6:2	-11.7136
▁12:3	-11.7148
ከጅላ	-11.715
አቢሜሌክ	-11.7181
▁Woofer	-11.7181
▁which	-11.7181
▁መድሃኒቱ	-11.7181
▁መጋረጆች	-11.7181
▁ማህደሮች	-11.7181
▁በአንጻራዊ	-11.7181
▁ከክህደት	-11.7181
▁ዘላለማዊ	-11.7181
▁ፊበርግላስ	-11.7181
▁ፊዚክስ	-11.7181
▁መገሠጫ	-11.7181
▁የጽድቅ	-11.7181
▁ልከናል	-11.7181
rikoooo	-11.7181
▁መክተት	-11.7181
▁አንጋፋ	-11.7182
▁ዚንክ	-11.7182
▁ጋራዎችም	-11.7182
▁መልካቸውም	-11.7182
▁ያሰፋል	-11.7182
▁በወንዶች	-11.7182
ስተባበለች	-11.7182
▁በቀጣዩ	-11.7182
▁ጥምቀት	-11.7182
▁በየወሩ	-11.7182
▁ድኻ	-11.7183
▁ታይዋን	-11.7183
▁ለቤተ	-11.7184
▁የበጀት	-11.7185
▁ሐሙስ	-11.7187
ማንበብ	-11.7233
አውሮፕላን	-11.7239
ወያዩ	-11.7255
ሚሆነው	-11.726
ባህሪያት	-11.7263
ሚሰጡ	-11.7267
ሤ	-11.7268
▁አደርገዋለሁ	-11.7268
▁Subwoofer	-11.7268
▁ትርፋማ	-11.7268
▁ኮረብቶች	-11.7268
▁የሚበረክት	-11.7268
▁ግጥሞች	-11.7268
▁ስተርሊንግ	-11.7268
methyl	-11.7268
▁አወድሰው	-11.7268
ሥላሴ	-11.7268
▁ጋራዎችን	-11.7268
▁ማቆየት	-11.7269
▁ጫፎች	-11.7269
ተመደበ	-11.7269
▁ጠላቶቼ	-11.7269
▁አስቴር	-11.727
What	-11.727
▁ሉላዊ	-11.727
▁መነሳት	-11.7271
አምላኬ	-11.7352
8.7	-11.7352
ታዘዛችሁ	-11.7355
▁Murata	-11.7355
▁ራእዩ	-11.7355
▁ስፖርቶች	-11.7355
▁በአምላካችን	-11.7355
▁አንጸባራቂ	-11.7355
▁አጫጭር	-11.7355
▁Company	-11.7355
▁Credit	-11.7355
▁ተሳሳተ	-11.7355
▁አስገዳጅ	-11.7355
▁እንጠብቃለን	-11.7355
▁በፖስታ	-11.7355
▁የኬብል	-11.7355
▁MOQ	-11.7355
▁ለመሙላት	-11.7355
{{	-11.7355
▁ልጣፍ	-11.7355
}}	-11.7355
▁አውታር	-11.7355
▁ፍርግም	-11.7355
▁አንበጣ	-11.7355
▁አላወቁም	-11.7355
▁ተመራጭ	-11.7355
▁ለመደሰት	-11.7355
▁Work	-11.7355
▁ይረዳናል	-11.7355
▁ከተሰጡት	-11.7355
▁ያሳያሉ	-11.7355
▁ልብሳቸውን	-11.7355
መለኮት	-11.7355
▁ኖሮአልን	-11.7356
▁ድፍን	-11.7357
ተሰበሰበ	-11.7358
▁0.05	-11.7386
▁8:3	-11.74
ኮምፒውተር	-11.742
የካቲት	-11.7442
▁Keygen	-11.7442
▁Svenska	-11.7442
▁altcoin	-11.7442
▁ለባሪያህ	-11.7442
▁ለአልረሕማን	-11.7442
▁ሲነፃፀር	-11.7442
▁በሸለቆው	-11.7442
▁አጨራረስ	-11.7442
▁እኵሌታ	-11.7442
▁የነቢዩ	-11.7442
▁ይለያያል	-11.7442
▁ይጫወታሉ	-11.7442
▁Nokia	-11.7442
▁ታደርጋላችሁ	-11.7442
▁አክዓብ	-11.7442
▁ማገልገል	-11.7442
▁ትዊተር	-11.7442
▁አላደረግንም	-11.7442
▁ለአባቶቻቸው	-11.7442
ዲሞክራሲ	-11.7442
▁ነበራቸው	-11.7442
▁ታገኛላችሁ	-11.7442
▁በማምረት	-11.7442
▁ታገኛለህ	-11.7443
▁ንግዶች	-11.7443
▁ጽኑዓን	-11.7443
Control	-11.7443
HKD	-11.7444
▁መታገስ	-11.7445
▁ከልጆች	-11.7445
▁መጫኛ	-11.7445
መሠረታ	-11.7445
ሚታወቀው	-11.7526
/12/2019	-11.7531
▁ሆርሞኖች	-11.7531
▁ልጃገረድ	-11.7531
▁ስኩዌር	-11.7531
▁ብፁዓን	-11.7531
▁የይገባኛል	-11.7531
▁Addis	-11.7531
እስላማዊ	-11.7531
መወርወሪያ	-11.7531
▁ይቀርባሉ	-11.7531
▁ውድድሮች	-11.7531
▁ኮንሰርት	-11.7531
▁ምኞታቸው	-11.7531
▁ይቀይሩ	-11.7531
▁ጨረር	-11.7531
market	-11.7531
▁ታዘዙኝም	-11.7531
▁የንድፍ	-11.7532
▁ከቅጣት	-11.7534
▁እርሾ	-11.754
ግለጹ	-11.7546
ገመተ	-11.7567
መፍጠር	-11.7589
▁Lockheed	-11.762
▁ተረጋግጧል	-11.762
▁ትርጉሞች	-11.762
▁ኀፍረተ	-11.762
▁ያሸንፋሉ	-11.762
▁ገለዓድ	-11.762
▁Coinbase	-11.762
▁በኤፍሬም	-11.762
▁ይይዛሉ	-11.762
▁አስተባባሪ	-11.762
▁አቅርቧል	-11.762
▁torque	-11.762
▁ይወርሳሉ	-11.762
▁ትገኛለች	-11.762
▁እስክንድር	-11.762
▁የለበሰ	-11.762
ሚሊዮኖች	-11.762
▁የኢሜል	-11.762
▁ዕዝራ	-11.762
▁የካርቶን	-11.762
▁ጎርፍ	-11.7621
▁ያድርግ	-11.7621
▁ያቀፈ	-11.7622
ቀጠቀጠ	-11.7623
▁መርማሪ	-11.7623
▁micro	-11.7624
እነሆ	-11.7625
▁ከነበሩ	-11.7625
መስከረም	-11.7625
መሰግና	-11.7633
ባሕርያቱ	-11.7634
ማስታወቂያ	-11.7698
ኔትወርክ	-11.771
ጠንቋዮች	-11.771
▁Adobe	-11.771
▁መሐንዲስ	-11.771
▁እስትንፋስ	-11.771
ፕሮጄክት	-11.771
▁ክረምት	-11.771
▁ከበደለኞች	-11.771
▁ርኅራ	-11.771
▁ይሸሻሉ	-11.771
▁ባሕሮች	-11.771
▁እንሰራለን	-11.771
▁multi	-11.771
▁የጥገና	-11.771
▁ይለጥፉ	-11.771
▁ነገሥት	-11.771
▁ለማክበር	-11.7711
▁ሊበጁ	-11.7711
ያስወግዱ	-11.7711
▁በአምላክህ	-11.7711
▁የአጭር	-11.7711
▁የጥናት	-11.7711
▁Paris	-11.7712
እጆቼ	-11.7712
▁ተኝቶ	-11.7712
አስፈላጊ	-11.7717
አስተያየት	-11.7717
ጠንካራ	-11.7717
Order	-11.7721
ውይይቱ	-11.7723
▁ሰጥተዋል	-11.7736
▁መገልገያ	-11.7772
▁ተመራማሪ	-11.7772
embassy	-11.7801
▁Amazon	-11.7801
▁Solenoid	-11.7801
▁በምስጢር	-11.7801
▁ባለሥልጣናት	-11.7801
▁እንመለከታለን	-11.7801
▁የቀርከሃ	-11.7801
▁በሚቀጥሉት	-11.7801
▁ግማሹ	-11.7801
▁ጀግኖች	-11.7801
▁ፍፁም	-11.7801
▁በታንኳ	-11.7801
▁ንፁህ	-11.7801
▁የሚገልጽ	-11.7801
▁ወስደህ	-11.7801
▁ለፍትህ	-11.7801
▁የፋሽን	-11.7801
▁ዚላንድ	-11.7801
▁ለአካለ	-11.7802
▁ዩኤስቢ	-11.7802
▁ዐውሎ	-11.7802
▁ምድራቸው	-11.7802
▁ከመገዛት	-11.7802
▁MOE	-11.7802
▁ድራማ	-11.7802
,000,000	-11.7803
ያመለክቱ	-11.7809
አደገኛ	-11.7819
▁በገንዘቦቻቸው	-11.7824
print	-11.7839
9.7	-11.7861
(33)	-11.7868
▁ሄሊኮፕተር	-11.7893
ህወሓት	-11.7893
ሽቀዳደሙ	-11.7893
ካሩቱሪ	-11.7893
▁COVID	-11.7893
▁መስተጋብር	-11.7893
▁ርኅሩኅ	-11.7893
▁በስሕተት	-11.7893
▁በቀጣይነት	-11.7893
▁በፈቃደኝነት	-11.7893
▁ተከራካሪ	-11.7893
▁የለብህም	-11.7893
▁ድንጋዩ	-11.7893
▁ይክዳሉ	-11.7893
▁MOCT	-11.7893
▁በፌዴራል	-11.7893
አደንዛዥ	-11.7893
▁ይታያሉ	-11.7893
▁ሚልዮን	-11.7893
▁ቅጾች	-11.7893
▁ለመግደል	-11.7893
▁የፀጉር	-11.7893
▁ይሮጣሉ	-11.7893
▁ምስጥር	-11.7893
▁መስፋፋት	-11.7893
▁መታየት	-11.7895
እግረኞች	-11.7896
የማይንቀሳቀስ	-11.7901
▁13:1	-11.7904
መጋቢት	-11.7922
ስርየት	-11.7935
መጀመ	-11.796
ሁሉንም	-11.7972
▁lea	-11.7973
▁Exchange	-11.7985
▁ፀነሰች	-11.7985
▁Association	-11.7985
▁Paypal	-11.7985
▁መስተንግዶ	-11.7985
▁ሰልፈኞች	-11.7985
▁ተሟጋቾች	-11.7985
▁ተናግሬአለሁ	-11.7985
▁ተደርገዋል	-11.7985
▁ኢንተለጀንት	-11.7985
▁የሰሎሞን	-11.7985
▁ያገለግላሉ	-11.7985
▁ዳግማዊ	-11.7985
▁ሐኪሞች	-11.7985
▁መዝገበ	-11.7985
▁ማስፋፊያ	-11.7985
▁ትሠራላችሁ	-11.7985
▁አደረግነው	-11.7986
▁በየሳምንቱ	-11.7986
▁ይጠይቃሉ	-11.7986
▁ዝርግ	-11.7986
▁ለመብረር	-11.7986
▁ውክልና	-11.7986
▁የሚያጋሩት	-11.7986
▁ላልሆኑ	-11.7986
▁በዘይት	-11.7986
▁አለመሆኑን	-11.7987
▁የሚያስችሉ	-11.7987
Alpha	-11.7987
ነገሥታት	-11.8
ሬአለሁ	-11.8028
፺	-11.8079
▁Spiral	-11.8079
▁ማኅፀን	-11.8079
▁በማኑፋክቸሪንግ	-11.8079
▁ቤተክርስትያን	-11.8079
▁ክሎራይድ	-11.8079
▁የካቶሊክ	-11.8079
▁ይከፈታል	-11.8079
▁ተሸልሟል	-11.8079
▁ሕዋሳት	-11.8079
▁የተጋለጡ	-11.8079
▁መመስከር	-11.8079
▁ማሰራጫ	-11.8079
▁በእርሳቸው	-11.8079
▁ውህዶች	-11.8079
▁ጠበቆች	-11.8079
▁Masteron	-11.8079
▁እግሮቻቸው	-11.8079
▁መልበስ	-11.8079
▁ውሰዱ	-11.8079
▁የጽዮን	-11.8079
▁ተከትለው	-11.8079
▁የሽልማት	-11.8079
▁ያጋራሉ	-11.808
▁በናያስ	-11.808
▁ቻዮች	-11.808
▁ሚስቶቻቸው	-11.808
ተቀበላችሁ	-11.8083
ዴቪድሰን	-11.8083
ማሕበ	-11.8084
ግድቡ	-11.8121
ሪፖርተር	-11.8173
▁መሎጊያዎቹ	-11.8173
▁እኩሌታ	-11.8173
Zhejiang	-11.8173
tirsi	-11.8173
እንግሊዘኛ	-11.8173
▁Migrant	-11.8173
▁Samsung	-11.8173
▁brushless	-11.8173
▁ምሕንድስና	-11.8173
▁በመጎብኘት	-11.8173
▁አሰጠምናቸው	-11.8173
▁የአፈጻጸም	-11.8173
▁አልሙኒየም	-11.8173
▁የተላክሁ	-11.8173
▁ከብንያም	-11.8173
አምባገነኑ	-11.8173
▁ከወይኖች	-11.8173
▁ንግግሩ	-11.8173
ጌዴዎን	-11.8173
▁መኪኖች	-11.8173
▁ክሊፕ	-11.8174
▁Arena	-11.8174
▁ተካተዋል	-11.8174
▁ልገሳ	-11.8174
▁11:3	-11.8175
▁የማውጫ	-11.8175
▁ብታውቁ	-11.8176
ባለሙያ	-11.818
▁የተገደለ	-11.8181
ቴክኒካዊ	-11.8194
ስርዓተ	-11.8194
Amharic	-11.8194
ሳይንሳዊ	-11.8194
ወንድሞች	-11.8208
መጥቀም	-11.8248
ፍሎሪዳ	-11.8268
▁በተገቢው	-11.8268
▁ብትጠይቃቸው	-11.8268
▁ታላላቆቹ	-11.8268
▁ከነዓናውያን	-11.8268
▁ከአልረሕማን	-11.8268
▁የእምነበረድ	-11.8268
▁ፕሮፌሽናል	-11.8268
▁በአፎቻቸው	-11.8268
▁ቼልሲ	-11.8268
▁እብጠት	-11.8268
▁power	-11.8268
▁من	-11.8268
▁ከዐፈር	-11.8269
▁ማዳመጥ	-11.8269
▁አድርገሃል	-11.8269
▁የተዘመነ	-11.8269
▁የኮሌጅ	-11.8269
▁በጥቅምት	-11.8269
▁በመካዳቸው	-11.8269
▁በሚከተሉት	-11.8269
▁አያመሰግኑም	-11.8269
▁ትከፋም	-11.8269
▁ነፍሶች	-11.8269
▁ሰምተናል	-11.8269
ሚግገዙት	-11.8269
▁በፊቶቻቸው	-11.8269
▁ዘንባባ	-11.8269
▁የደጋፊ	-11.8269
▁በአባቴ	-11.8269
▁ይቆማል	-11.8269
መገናኛ	-11.8285
ተሻሻለ	-11.8298
▁Contactor	-11.8365
▁HBOT	-11.8365
▁ለነፍሶቻችሁ	-11.8365
▁በምድሪቱ	-11.8365
▁በተጠነቀቁ	-11.8365
▁ብትጠነቀቁ	-11.8365
▁ትርዒቶች	-11.8365
▁ከበፊታቸው	-11.8365
▁ዐውቃለሁ	-11.8365
▁የትንሣኤ	-11.8365
▁ያረጋግጣሉ	-11.8365
▁ግርዶሽ	-11.8365
▁Excel	-11.8365
▁ትዕግስት	-11.8365
▁አንቀሳቅስ	-11.8365
▁ድኾች	-11.8365
▁Cisco	-11.8365
▁አማላጅ	-11.8365
▁ዋሽንት	-11.8365
▁ጂብሪል	-11.8365
▁ያቃጥለዋል	-11.8365
▁ታዛዥ	-11.8365
▁ዘከሪያ	-11.8365
▁የሬዲዮ	-11.8365
▁DIY	-11.8365
▁ሚስጥር	-11.8365
▁መርጃዎች	-11.8365
▁Battle	-11.8365
▁ቀራቢ	-11.8365
▁ኮፍያ	-11.8365
▁አያቀናም	-11.8365
ological	-11.8365
▁የተቀበሉት	-11.8365
Easy	-11.8366
ጸድቅ	-11.8366
ድርጊቱ	-11.8368
▁አውጥተ	-11.8371
አሠሪ	-11.8373
protect	-11.8376
▁ፓስፖር	-11.8376
ከሓዲያን	-11.838
0-4	-11.8384
ቁረይሾች	-11.8462
አስጨናቂ	-11.8462
▁Current	-11.8462
▁Dariussssss	-11.8462
▁Mifare	-11.8462
▁ልቦቻችሁ	-11.8462
▁በዐርሹ	-11.8462
▁ተቀስቃሾች	-11.8462
▁ተናግሯል	-11.8462
▁ተያይዞ	-11.8462
▁ትዕግሥት	-11.8462
▁እፎይታ	-11.8462
▁ከሌሊቱ	-11.8462
▁ከከሓዲዎቹ	-11.8462
▁ኪሩቤል	-11.8462
▁ኾኜ	-11.8462
▁ወርክሾፕ	-11.8462
▁የሲሊከን	-11.8462
▁የተትረፈረፈ	-11.8462
▁የደንበኝነት	-11.8462
▁ያሻሽላል	-11.8462
▁ይሰበሰባሉ	-11.8462
▁ጆርናል	-11.8462
▁ማድረጊያ	-11.8462
▁የሞካሪ	-11.8462
▁ተከልከሉ	-11.8462
▁ግብዓቶች	-11.8462
▁ገልጸዋል	-11.8462
▁ሻካራ	-11.8462
▁NEMA	-11.8462
▁ከተከበረው	-11.8462
▁ክብደቱ	-11.8462
▁አጋሪዎቹ	-11.8462
▁ብልሃተኛ	-11.8462
▁ባልጩት	-11.8462
▁ያዛችኋል	-11.8462
▁ፎይል	-11.8462
▁በነፍሱ	-11.8462
ተቋረጠ	-11.8462
▁ለብቻው	-11.8462
▁ንክኪ	-11.8462
▁በፊታችሁ	-11.8462
ዘገይ	-11.8462
FMC	-11.8466
ገሞራ	-11.8467
ስተሰርይ	-11.8468
▁ርስቱ	-11.8474
Casino	-11.8491
▁ተጋደሉ	-11.8542
ፍትሃዊነት	-11.8549
▁COINFLIP	-11.856
▁January	-11.856
▁Linux	-11.856
▁Scissors	-11.856
▁superadmin	-11.856
▁ለማስተናገድ	-11.856
▁መልክተኞቻችንም	-11.856
▁ቆርቆሮ	-11.856
▁በስህተት	-11.856
▁በተጨባጭ	-11.856
▁አትጠነቀቁምን	-11.856
▁የመጫወቻ	-11.856
▁ፖርቱጋል	-11.856
▁መነጽር	-11.856
▁ቅብብል	-11.856
▁ይከልከሉ	-11.856
▁Servo	-11.856
▁ስእለት	-11.856
▁ግልጾች	-11.856
▁አስቀያሚ	-11.856
▁ቀበሩት	-11.856
▁ስፌት	-11.856
▁በመደበኛነት	-11.856
▁በእንዲህ	-11.856
▁ያበረታታል	-11.856
▁ይግገዙ	-11.856
ተነባበረ	-11.856
▁ያከሰሩ	-11.8562
ካዕባ	-11.8564
አግባብ	-11.86
▁ሜትሮ	-11.8603
መግቢያ	-11.8611
▁ተመልሳ	-11.8632
▁Enanthate	-11.8659
▁Youtube	-11.8659
▁ቴክኒኮች	-11.8659
▁ኢንጂልን	-11.8659
▁ይወሰዳል	-11.8659
▁ይገልጻል	-11.8659
▁ድምፁን	-11.8659
▁ድምፃቸው	-11.8659
ጠያየቁ	-11.8659
▁Type	-11.8659
▁Stamping	-11.8659
▁አጣቀም	-11.8659
▁ረቡዕ	-11.8659
▁የስሜት	-11.8659
▁በሚሊዮን	-11.8659
▁የአመራር	-11.8659
▁ማህደር	-11.866
know	-11.866
ኮንትራት	-11.8661
ስርቆት	-11.867
▁እናያለን	-11.8673
▁ሚዛኖ	-11.8693
እንጀራ	-11.8694
ማመልከቻ	-11.8695
Press	-11.8739
ተቀማጮቹ	-11.8759
▁Ductile	-11.8759
▁Groove	-11.8759
▁መቀያየር	-11.8759
▁ማቅረቢያ	-11.8759
▁በየአባቶቻቸው	-11.8759
▁ትኾናለህ	-11.8759
▁የማምለኪያ	-11.8759
▁የዶክትሬት	-11.8759
▁ጓዶቻቸው	-11.8759
▁ፈሳሾች	-11.8759
▁እምነታችሁ	-11.8759
▁ስኳር	-11.8759
▁ለነፍሱ	-11.8759
▁የሚሰግዱ	-11.8759
▁በጸሎት	-11.8759
▁ከነፍሱ	-11.8759
▁ተሸላሚ	-11.8759
▁ተንታኝ	-11.8759
▁Green	-11.8759
▁በተራራማው	-11.8759
▁የሰራተኛ	-11.8759
ሸጋገር	-11.876
▁ማግበር	-11.876
▁ከንቲባ	-11.876
ዘበኞቹ	-11.876
ተሻገሩ	-11.8763
▁አቅርቦ	-11.8767
▁auto	-11.877
ማይችሉ	-11.8785
ጳውሎስ	-11.8797
ዓይኖች	-11.8797
ክትትል	-11.8798
ያፈርሱ	-11.8799
ደስተኝነት	-11.882
0°	-11.8836
▁ኦክቶ	-11.8857
courier	-11.886
ኦርቶዶክስ	-11.886
▁Category	-11.886
▁Diffuser	-11.886
▁Electroacoustic	-11.886
▁Worldwide	-11.886
▁powder	-11.886
▁መዋቅሮች	-11.886
▁ተንሳፋፊ	-11.886
▁አስተባብለዋል	-11.886
ቴሌኮም	-11.886
▁WiFi	-11.886
▁ተጕዘው	-11.886
▁የምንጣፍ	-11.886
መቅረዙ	-11.886
▁ቆንስላ	-11.886
▁የተደራጀ	-11.886
▁የፈለጉትን	-11.886
▁ይክፈቱ	-11.886
▁የሽግግር	-11.886
▁በቅደም	-11.886
▁ማሳካት	-11.886
▁አሦር	-11.8861
▁ማንኛቸው	-11.8863
ስተካክለው	-11.8866
▁ገሊላ	-11.893
▁ዴቪድ	-11.8957
አሽከርካሪ	-11.8961
ንቀጠቀጡ	-11.8962
አሜስያስ	-11.8962
▁Testosterone	-11.8962
▁rsquo	-11.8962
▁ለመተግበር	-11.8962
▁ሮብዓም	-11.8962
▁በገለዓድ	-11.8962
▁ባልደረቦች	-11.8962
▁ትእዛዜን	-11.8962
▁ትፈልጋላችሁ	-11.8962
▁እሰጣቸዋለሁ	-11.8962
▁የአስቸኳይ	-11.8962
▁የክሬዲት	-11.8962
▁ፓምፖች	-11.8962
▁Acetate	-11.8962
▁ሪኮርድ	-11.8962
▁በወንድሙ	-11.8962
▁ከመካከላቸው	-11.8962
▁የፓተንት	-11.8962
▁በደኅና	-11.8962
▁በጭንቀት	-11.8962
▁ተወስዷል	-11.8962
▁ተጓዥ	-11.8962
▁Tcca	-11.8962
▁እርጋታ	-11.8962
custom	-11.8962
▁በማለታቸው	-11.8962
ከላከሉ	-11.8962
▁ያግዛል	-11.8962
ቸኩል	-11.8962
▁መጥቀስ	-11.8962
▁መማክር	-11.8963
▁የትግል	-11.8963
▁Comments	-11.9065
▁Justice	-11.9065
▁access	-11.9065
▁servo	-11.9065
▁voltage	-11.9065
▁መዋቅራዊ	-11.9065
▁መገባደጃ	-11.9065
▁ርኅሩህ	-11.9065
▁ቁርጥራጭ	-11.9065
▁ኦክሲጂን	-11.9065
▁የኢንሱሌሽን	-11.9065
▁ያስወግዳል	-11.9065
▁ይመሰክራል	-11.9065
▁ይወርዳሉ	-11.9065
▁ማያያዣ	-11.9065
▁አፈጣጠር	-11.9065
▁ሶምሶን	-11.9065
▁ጎድጎድ	-11.9065
▁የድርጊት	-11.9065
▁ሚስቶቻችሁ	-11.9065
ሰጧቸው	-11.9065
ዓለማዊ	-11.9065
▁ተቈጥ	-11.9065
▁ጠይቃቸው	-11.9066
▁ቁራኛ	-11.9068
ተደገመ	-11.9073
ጋገሪያ	-11.9075
ሚኒስትሮች	-11.9164
system	-11.9169
ኢሚግሬሽን	-11.9169
ዝርዝሩ	-11.9169
▁August	-11.9169
▁Foshan	-11.9169
▁መሰምርያዋን፥	-11.9169
▁ትሆናላችሁ	-11.9169
▁አቀራረቦች	-11.9169
▁እንመለሳለን	-11.9169
▁እንግዲያስ	-11.9169
▁የተደላደለ	-11.9169
Security	-11.9169
ሃገሪቱ	-11.9169
▁በክረምት	-11.9169
▁ከኤፍሬም	-11.9169
▁ወዳጃዊ	-11.9169
▁ተጭኗል	-11.9169
▁የነቢያት	-11.9169
ቀሰቀስ	-11.9169
▁በእጃችሁ	-11.9169
▁ነሀሴ	-11.9169
▁ምልከታ	-11.9169
ጅቡቲ	-11.9169
▁about	-11.9169
▁በተከበረው	-11.9169
▁አሰራሮች	-11.9169
▁rotor	-11.9169
▁like	-11.9169
▁what	-11.917
NZD	-11.917
▁ሰጥቼ	-11.9216
▁Certified	-11.9274
▁ሚሲሲፒ	-11.9274
▁አይሁዳውያን	-11.9274
▁ኮምፒውተሮች	-11.9274
▁የሒሳብ	-11.9274
▁የአምላካችን	-11.9274
▁የአካዳሚክ	-11.9274
መቀርቀሪያ	-11.9274
▁Network	-11.9274
▁bonus	-11.9274
▁ዕቅዶች	-11.9274
XBET	-11.9274
▁የኤፍሬም	-11.9274
▁በማጥናት	-11.9274
▁ለማሳወቅ	-11.9274
▁ሉዊስ	-11.9274
▁ስብዕና	-11.9275
▁አድምጡ	-11.9275
▁ርስታቸው	-11.9276
▁ጠመዝማዛ	-11.9381
USAID	-11.9381
ምስኪኖችም	-11.9381
▁Dragon	-11.9381
▁ለድሆች	-11.9381
▁ዕብደት	-11.9381
▁የህብረተሰብ	-11.9381
palette	-11.9381
▁Hotmail	-11.9381
▁ለበደለኞች	-11.9381
ጽሑፉ	-11.9381
▁የእህሉን	-11.9381
▁የሚደገፉ	-11.9381
▁ይከፍላል	-11.9381
ተረጎመ	-11.9381
▁ነቀርሳ	-11.9381
▁ይመርጣሉ	-11.9381
▁የመስታወት	-11.9381
'''	-11.9381
▁ፈቃዶች	-11.9381
▁የቆሻሻ	-11.9381
▁የአሰራር	-11.9381
ቃጠሎ	-11.9381
▁በአራተኛው	-11.9383
እራሳችን	-11.9386
ኺ	-11.9487
propionate	-11.9488
መመዝገቢያ	-11.9488
አክሲዮኖች	-11.9488
አገልጋዮቹ	-11.9488
እያንዳንዳችሁ	-11.9488
ይቆረጣል	-11.9488
▁FaceTime	-11.9488
▁Straightener	-11.9488
▁ለድኾች	-11.9488
▁መሳፍንት	-11.9488
▁ቫልቮች	-11.9488
▁ዘጸአት	-11.9488
▁ኬብሮን	-11.9488
▁ቅጽበታዊ	-11.9488
▁ዘግይቶ	-11.9488
▁በቀለማት	-11.9488
▁አስተናባሪ	-11.9488
▁የከበደ	-11.9488
▁የተደነገገ	-11.9488
▁ማዋሃድ	-11.9488
▁ተሸክሞ	-11.9488
▁አትፈሩምን	-11.9488
▁የአበበን	-11.9488
▁የመለኪያ	-11.9488
▁ቀድሞውኑ	-11.9488
▁አቅርቤ	-11.9488
▁የሰይጣንንም	-11.9488
▁ጥቂቶቹ	-11.9489
▁የተለወሰ	-11.9489
▁የማሸግ	-11.9489
▁አውርደ	-11.949
ተማራችሁ	-11.952
ስቈጡ	-11.953
ኃጢኣት	-11.955
ብርጭቆ	-11.9557
▁ተከላካ	-11.9584
መድሐኒት	-11.9597
▁Agusta	-11.9597
▁VISHAY	-11.9597
▁ሄክታር	-11.9597
▁ለሰሎሞን	-11.9597
▁በሪቻርድ	-11.9597
▁በኢያሪኮ	-11.9597
▁ኣሰቴት	-11.9597
▁ከምሥራቅ	-11.9597
▁ካርኪፍ	-11.9597
▁ከሌሊት	-11.9597
▁ባደረግነው	-11.9597
▁ተጠናቋል	-11.9597
▁Black	-11.9597
▁Blade	-11.9597
▁አራጣን	-11.9597
ወንድማማች	-11.9597
pdf	-11.9597
group	-11.9597
▁የተገደደ	-11.9597
የድመት	-11.961
ግንዛቤ	-11.9662
ያስከትል	-11.9698
እርሷ	-11.9703
ተንሸራታች	-11.9707
▁Copyright	-11.9707
▁Roulette	-11.9707
▁woofer	-11.9707
▁ማሽነሪዎች	-11.9707
▁በዝንጋቴ	-11.9707
▁አግጣጫ	-11.9707
▁እንሆናለን	-11.9707
▁የይስሙላ	-11.9707
▁ጂፒኤስ	-11.9707
▁ጥንቁቆች	-11.9707
ማይክሮሶፍት	-11.9707
▁መናፈሻ	-11.9707
▁በእጆቻቸው	-11.9707
▁እሰጠዋለሁ	-11.9707
▁የነሐስ	-11.9707
Special	-11.9707
▁ታምናላችሁ	-11.9707
▁ይሸከማሉ	-11.9707
▁የማጣሪያ	-11.9707
▁በእራሱ	-11.9707
Search	-11.9707
▁ጭጋግ	-11.9707
▁በመርከብ	-11.9707
ገልጸው	-11.9708
ያካትቱ	-11.971
▁በክሕደ	-11.9739
ሚገኝበት	-11.9749
ዮናታን	-11.9776
መምህራን	-11.9776
▁ምላሶ	-11.9798
▁ሴፕቴ	-11.9816
▁ታስተባብሉ	-11.9818
አልትራቫዮሌት	-11.9818
እያንዳንዳችን	-11.9818
▁***	-11.9818
▁Nandrolone	-11.9818
▁omegle	-11.9818
▁መካኒካል	-11.9818
▁በሰሌዳዎች	-11.9818
▁ኢንተርፕራይዝ	-11.9818
▁ኤዶምያስ	-11.9818
▁የብልቃጥ	-11.9818
▁የተጠነቀቁት	-11.9818
▁ደንበኞቻችን	-11.9818
▁ጭቅጭቅ	-11.9818
አወላዋይ	-11.9818
▁Vespa	-11.9818
▁ስፖንሰር	-11.9818
▁በግለሰብ	-11.9818
▁አቅርበዋል	-11.9818
▁ምጽዋቶች	-11.9818
▁በነቢያት	-11.9818
▁የብዝሃ	-11.9818
escriptionSample	-11.9818
▁በተዓምር	-11.9818
ያዕቁብ	-11.9818
▁ጥብቆች	-11.9818
▁የይዘት	-11.9818
▁ባለቤቴ	-11.9818
▁በማስፋፋት	-11.9818
▁አደከመ	-11.9818
▁በአጭሩ	-11.9818
▁በጭንቅ	-11.9818
▁ተግባሩ	-11.9818
▁አድርጌአለሁ	-11.9818
ሶማሊያ	-11.9818
▁ከርስዋ	-11.9818
ሸለመላቸው	-11.9819
ተቀረጹ	-11.982
▁እጠራለሁ	-11.982
ስተላልፍ	-11.9824
▁ከእዝነ	-11.985
ግንባታ	-11.9894
▁WordPress	-11.993
▁ቡልዶዘር	-11.993
▁ፍርግርግ	-11.993
ሚጠነቀቁት	-11.993
ውክፔዲያ	-11.993
ጎዶልያስ	-11.993
▁Forklift	-11.993
▁Ravenox	-11.993
▁facebook	-11.993
▁rotator	-11.993
▁መዘርጋት	-11.993
▁ማቀዝቀዝ	-11.993
▁ሹዓይብ	-11.993
▁በማደሪያው	-11.993
▁በአሳማሚ	-11.993
▁በፈለጎቻቸው	-11.993
▁ተዋራጆች	-11.993
▁ትውልዶች	-11.993
▁ኔዘርላንድ	-11.993
▁አቋራጭ	-11.993
▁አኳኋን	-11.993
▁አውትሉክ	-11.993
▁እከጅላለሁ	-11.993
▁ካምብሪጅ	-11.993
▁የሚገልጹትን	-11.993
▁የምእምናን	-11.993
▁ይስተካከላሉን	-11.993
▁ፈጽመህ	-11.993
▁መኮንኖች	-11.993
▁ከማያውቁት	-11.993
▁ጋኔኖች	-11.993
ተዘነበለ	-11.993
▁ክለቦች	-11.993
▁መንጠቆ	-11.993
ኢያቢስ	-11.993
▁እንደእነዚያ	-11.993
▁ሐውልት	-11.993
▁ሎተሪ	-11.993
▁ህልውና	-11.993
▁ምርጦች	-11.993
▁መልካሞቹ	-11.993
▁የምትለግሱት	-11.993
▁የአልኮል	-11.993
ተከታዮቹ	-11.993
▁መሓላ	-11.9931
▁ቁጥራቸው	-11.9931
▁አሳዛኝ	-11.9931
July	-11.9932
▁አኖራለሁ	-11.9932
ተጠናከረ	-11.9932
መቆለፍ	-11.9934
አረብኛ	-11.9938
ያሳውቁ	-11.995
ወታደራዊ	-12.0007
አካላዊ	-12.0012
መኾናችን	-12.0037
vangelical	-12.0044
▁Coinfalls	-12.0044
▁Enterprise	-12.0044
▁Transposh	-12.0044
▁Western	-12.0044
▁ሀሪይቭኒአ	-12.0044
▁በአልረሕማን	-12.0044
▁በድንኳኑ	-12.0044
▁ቢስክሌቶች	-12.0044
▁አስጸያፊ	-12.0044
▁አብዛኛዎቻቸው	-12.0044
▁ኢሜጅሎች	-12.0044
▁እንሰበስባቸዋለን	-12.0044
▁ከነፍሶቻችሁ	-12.0044
▁የተራቀቁ	-12.0044
▁የተወለወለ	-12.0044
▁Access	-12.0044
▁SmCo	-12.0044
▁Cloud	-12.0044
▁Ptfe	-12.0044
▁14443	-12.0044
▁ኦዲተር	-12.0044
▁ፈጽሜ	-12.0044
▁ከበላያችሁ	-12.0044
▁ዘረኝነት	-12.0044
▁ርዕይ	-12.0044
▁ቅንጣቶች	-12.0044
ቶኪዮ	-12.0044
▁ቀሚሱ	-12.0044
▁እላንተ	-12.0044
▁እጌታህ	-12.0044
ወንድሞቻችን	-12.0044
CNY	-12.0045
ተነበበ	-12.0046
ያስቸግ	-12.0069
▁ትኩረ	-12.0074
ሚወዷቸው	-12.0113
ዐዋቂ	-12.0125
«	-12.2079
≤	-12.6537
±	-13.2921
·	-13.7749
•	-13.9233
©	-14.5765
●	-15.5264
ü	-15.5265
→	-15.5266
丨	-15.5266
