<unk>	0
<s>	0
</s>	0
▁	-3.26423
ን	-3.4456
ም	-3.71621
▁፡	-3.81691
ት	-4.28874
,	-4.34295
▁የ	-4.35707
.	-4.37237
▁በ	-4.54294
ው	-4.69039
ና	-4.69677
ል	-4.72555
ስ	-4.79789
▁አ	-4.92602
▁እና	-4.97712
ር	-4.98563
▁(	-5.00719
።	-5.14525
▁ላይ	-5.20715
▁ከ	-5.27852
▁ነው	-5.32279
:	-5.37091
ብ	-5.40649
ድ	-5.50572
▁)	-5.50764
▁መ	-5.51005
-	-5.51212
፥	-5.5484
ራ	-5.60534
▁ወደ	-5.60856
▁ውስጥ	-5.60889
ለ	-5.61789
▁ይ	-5.62913
ዎች	-5.66193
▁ለ	-5.67351
ደ	-5.68413
ክ	-5.68689
ቀ	-5.69073
ህ	-5.70361
ታ	-5.71154
፤	-5.73021
;	-5.7309
ግ	-5.74888
)	-5.8295
ማ	-5.85295
▁የሚ	-5.86159
▁ተ	-5.87587
ሳ	-5.89086
ረ	-5.89499
ጥ	-5.90973
ላ	-5.91272
መ	-5.91308
በ	-5.92583
ቅ	-5.95014
ይ	-5.96416
▁ሁሉ	-5.98276
▁ጊዜ	-5.98553
▁ያ	-5.9873
ሉ	-5.9994
s	-6.02218
ሰ	-6.0499
ያ	-6.05007
ዳ	-6.07783
▁ጋር	-6.08682
ች	-6.14336
ፍ	-6.14396
▁እንደ	-6.14533
ባ	-6.1654
ነ	-6.1906
ዋ	-6.19165
▁የተ	-6.20312
▁እ	-6.20409
▁-	-6.20679
ገ	-6.2169
ተ	-6.25366
የ	-6.26883
▁&	-6.28293
▁ማ	-6.29363
▁«	-6.31127
ፈ	-6.31952
ጋ	-6.32268
▁ወይም	-6.35652
ካ	-6.3587
gt	-6.36949
▁ነገር	-6.39134
▁አንድ	-6.40069
ዝ	-6.40468
▁/	-6.40612
▁»	-6.42932
▁፣	-6.45935
በት	-6.50044
ሽ	-6.5046
▁ግን	-6.51898
ሪ	-6.53175
ጠ	-6.55505
?	-6.5603
▁ይህ	-6.56436
▁ሰው	-6.57302
ቱ	-6.59713
▁፤	-6.6107
ነት	-6.61111
ጣ	-6.63555
ቃ	-6.63974
"	-6.66285
▁ዘንድ	-6.6878
፣	-6.71601
▁1	-6.71766
ሮ	-6.73777
ከ	-6.74822
▁አላህ	-6.7504
▁አይ	-6.80384
▁በመ	-6.80821
▁ስለ	-6.81627
/	-6.82525
ሩ	-6.82731
▁ናቸው	-6.83069
ዘ	-6.8616
ሙ	-6.86163
▁እኔ	-6.86711
▁ቀን	-6.87123
y	-6.88023
▁ሰዎች	-6.88778
▁ነበር	-6.89611
ኝ	-6.91236
▁ሊ	-6.91358
አ	-6.91428
▁2	-6.91807
ሱ	-6.91979
ሁ	-6.92607
ቶ	-6.92913
▁S	-6.93893
ቶች	-6.94145
▁ቤት	-6.97423
▁"	-6.97683
▁ለመ	-6.99537
ፋ	-7.00607
▁_	-7.02871
▁3	-7.03378
D	-7.03838
ኑ	-7.04202
ኛ	-7.05063
▁በእርግጥ	-7.05538
3	-7.0702
2	-7.08294
ወ	-7.08471
▁እርሱ	-7.09458
ሻ	-7.1114
ቁ	-7.11183
▁C	-7.11325
ሌ	-7.11418
▁እኛ	-7.11505
▁እግዚአብሔር	-7.1202
lt	-7.12524
▁ብቻ	-7.12674
ዛ	-7.13277
e	-7.13337
ቆ	-7.1349
M	-7.14831
▁የመ	-7.14859
▁የሚያ	-7.15557
C	-7.15581
A	-7.15692
er	-7.16803
ኩ	-7.17034
▁በጣም	-7.1719
ላችሁ	-7.17837
1	-7.1797
▁አለ	-7.18926
▁ከፍተኛ	-7.19722
!	-7.19748
▁ነው።	-7.2046
ሎ	-7.21685
▁...	-7.22195
▁የአ	-7.22344
i	-7.22412
ዱ	-7.23397
o	-7.24198
ሊ	-7.24404
▁ሲ	-7.24791
m	-7.25559
▁P	-7.2575
ሞ	-7.26166
▁ባ	-7.26386
n	-7.26713
S	-7.27826
▁በኋላ	-7.27918
▁በተ	-7.2826
x	-7.28454
▁A	-7.29135
▁4	-7.29368
▁5	-7.29816
t	-7.30378
ጫ	-7.31188
▁እንዲ	-7.31207
"&	-7.32243
="	-7.3299
▁start	-7.33069
▁dur	-7.33083
ሚ	-7.33579
▁ሌላ	-7.33685
ዩ	-7.33691
B	-7.3375
ጉ	-7.33941
ቴ	-7.33948
▁እናንተ	-7.3399
in	-7.34093
ጽ	-7.34461
ቡ	-7.34776
▁አል	-7.34846
▁መካከል	-7.34857
ሬ	-7.35545
r	-7.36164
▁በአ	-7.36664
ዓ	-7.37242
ጭ	-7.38226
ቲ	-7.38449
▁፡፡	-7.38559
▁M	-7.38941
4	-7.39098
▁ሰ	-7.39325
▁!	-7.3958
▁ልጆች	-7.39947
▁ታ	-7.41234
▁D	-7.41596
▁ቢ	-7.4186
ዶ	-7.42654
▁ደግሞ	-7.42655
P	-7.42677
ሲ	-7.43094
ዲ	-7.43889
▁በሚ	-7.45126
▁እስከ	-7.45135
ቢ	-7.45262
▁እን	-7.45541
ing	-7.45618
ጨ	-7.46059
▁በዚህ	-7.46726
ዕ	-7.4747
ጅ	-7.47989
▁ያለ	-7.48437
ሜ	-7.48762
▁ልጅ	-7.48765
T	-7.48888
▁ሥራ	-7.48991
ላቸው	-7.49264
▁B	-7.49696
ሸ	-7.49764
▁ለማ	-7.49816
▁መንገድ	-7.49838
▁በማ	-7.50089
▁አንተ	-7.50264
ኮ	-7.50294
▁እነዚያ	-7.50694
▁ያለው	-7.50737
▁ብዙ	-7.50899
u	-7.50902
ኔ	-7.51211
▁የማ	-7.5261
al	-7.52628
ኒ	-7.52733
▁እንዲህ	-7.52932
a	-7.53537
ባቸው	-7.53564
ኖ	-7.53694
▁ምንም	-7.53966
▁ካ	-7.54608
▁G	-7.55002
k	-7.55206
I	-7.55278
ጎ	-7.55334
H	-7.5569
p	-7.55817
▁F	-7.56063
ፊ	-7.56164
ዊ	-7.56335
▁በፊት	-7.56747
l	-7.56972
▁T	-7.56998
c	-7.5737
▁ቃል	-7.57905
▁ሆይ	-7.58014
F	-7.5824
▁እነርሱ	-7.58317
▁10	-7.58717
እ	-7.59259
ቸው	-7.59362
L	-7.60637
ሕ	-7.60826
ሮች	-7.61035
d	-7.61212
ሃ	-7.61324
R	-7.62038
ገባ	-7.62051
▁ይችላሉ	-7.62749
ኤ	-7.63063
▁H	-7.63559
ዮ	-7.64285
f	-7.64373
b	-7.64752
ዎ	-7.65048
g	-7.65578
▁6	-7.66475
▁አይደለም	-7.66739
▁ድረስ	-7.67091
▁ዘ	-7.67764
V	-7.68231
ar	-7.6831
ጡ	-7.68442
▁ስለዚህ	-7.68775
▁ዋጋ	-7.69011
▁E	-7.69155
an	-7.69419
▁እንዴት	-7.69773
G	-7.6991
▁አዲስ	-7.70117
20	-7.70225
▁ደረጃ	-7.70466
▁ቻይና	-7.71077
ሴ	-7.7135
▁ከዚያም	-7.72082
E	-7.72564
ቦ	-7.72581
▁መጠን	-7.73052
com	-7.73187
▁ጌታ	-7.73893
ed	-7.74478
▁አላህም	-7.7476
ለው	-7.75263
ፕ	-7.75444
በር	-7.75802
▁R	-7.76013
▁19	-7.76741
▁7	-7.7721
▁ይችላል	-7.77646
7	-7.78213
▁እርሱም	-7.7844
ቻ	-7.79474
▁N	-7.79737
ጃ	-7.79766
ሪያ	-7.8007
▁ኢ	-7.80218
▁?	-7.80415
▁ዓመት	-7.80697
▁ሁለት	-7.80945
▁ሌሎች	-7.80997
5	-7.81178
ኪ	-7.82058
▁L	-7.82131
▁8	-7.82398
ጸ	-7.82462
▁ስም	-7.82627
▁ከመ	-7.82913
O	-7.83027
W	-7.83703
▁አሉ	-7.83847
it	-7.84034
▁አሁን	-7.84495
▁ኃይል	-7.8491
%	-7.85488
▁ባለ	-7.85503
፡፡	-7.8552
et	-7.85695
amp	-7.87267
▁–	-7.87627
ለት	-7.8881
K	-7.88928
▁እንጂ	-7.89146
▁ያለውን	-7.89259
10	-7.89349
▁ወ	-7.89405
ሥ	-7.89487
▁በእርሱ	-7.89487
8	-7.89768
ዎቹ	-7.8989
▁$	-7.89976
▁ፊት	-7.90607
or	-7.90804
▁ዓለም	-7.90876
▁ተጨማሪ	-7.91139
▁ምርቶች	-7.91229
mm	-7.91683
▁ይህን	-7.91789
ሶ	-7.91793
w	-7.91936
en	-7.92814
le	-7.93013
h	-7.93111
ችሁ	-7.93347
ፉ	-7.94023
ሎች	-7.94128
▁የምት	-7.94232
▁የማይ	-7.94492
ጻ	-7.94832
ተው	-7.95071
re	-7.95075
▁በላይ	-7.95525
ሐ	-7.95641
▁+	-7.95985
▁ማን	-7.96519
▁ከአ	-7.96742
መጣ	-7.96768
▁20	-7.96851
ኖች	-7.96933
N	-7.96946
▁መልካም	-7.97254
▁እየ	-7.9731
ነው	-7.97329
▁ከተ	-7.97366
▁እነዚህ	-7.97725
ቤ	-7.98236
▁ዩኒቨርሲቲ	-7.9857
ch	-7.99142
on	-7.99421
U	-8.00081
ሀ	-8.01089
▁ይሆናል	-8.01789
ታል	-8.02009
ዋል	-8.02604
”	-8.02885
_	-8.03059
50	-8.03217
▁ከተማ	-8.03585
▁ማሽን	-8.0414
ro	-8.04161
▁12	-8.04188
▁አምላክ	-8.04539
▁ይህም	-8.04751
6	-8.04834
▁እንዲሁም	-8.05951
▁የሆነ	-8.06426
▁ክፍል	-8.06606
▁ሁኔታ	-8.06855
st	-8.06957
▁የእ	-8.07225
ሆኑ	-8.08013
▁እንደሚ	-8.08101
▁“	-8.08187
▁መረጃ	-8.08196
ሰብ	-8.08344
▁ሆነ	-8.08485
▁9	-8.08827
▁ዓ	-8.0917
▁ቅጣት	-8.09348
9	-8.09506
00	-8.1029
▁አላ	-8.1052
ባት	-8.1077
▁እነርሱም	-8.11345
▁አላቸው	-8.12211
ዴ	-8.12578
...	-8.12617
▁ኦ	-8.12668
▁ከሆነ	-8.1284
▁ምድር	-8.12911
ቂ	-8.1321
▁ጠ	-8.13295
ተር	-8.13384
ቋ	-8.13442
▁W	-8.13615
▁ትምህርት	-8.13805
z	-8.13956
▁ብሎ	-8.14025
ለች	-8.14074
▁Co	-8.14267
▁•	-8.14279
at	-8.14532
ፒ	-8.14585
ቱን	-8.14908
ol	-8.14945
▁J	-8.14962
▁ሞ	-8.15232
▁ነበር።	-8.15983
▁ነኝ	-8.16217
ad	-8.16645
▁K	-8.16673
th	-8.16713
ፓ	-8.1673
▁ገጽ	-8.16918
ናቸው	-8.17075
▁ኤ	-8.17249
▁በላቸው	-8.17286
▁ማለት	-8.17486
ወጣ	-8.17503
ታቸው	-8.18091
▁'	-8.18136
▁V	-8.18161
▁ሕዝቦች	-8.18753
▁አለው	-8.1904
ur	-8.19045
▁ከእርሱ	-8.19429
▁ጥሩ	-8.19432
▁ነጻ	-8.19658
▁ምክንያት	-8.19687
▁ቦታ	-8.20253
ጂ	-8.20258
▁2018	-8.20395
ፀ	-8.20443
▁አያ	-8.20667
▁ልዩ	-8.20682
▁ጥራት	-8.21212
▁በዚያ	-8.21233
▁አገልግሎት	-8.21411
ጠራ	-8.21423
▁ፋብሪካ	-8.21586
▁ከሚ	-8.21609
X	-8.21758
ለሁ	-8.22443
ፈር	-8.22536
'	-8.22542
ተኛ	-8.22617
am	-8.22867
▁ሐ	-8.2287
▁ሙሉ	-8.23551
መር	-8.23704
▁ሊያ	-8.2403
ሰማ	-8.24153
ጀ	-8.24398
▁ለሚ	-8.24634
ቢያ	-8.25259
es	-8.25468
ዶች	-8.25747
ስተ	-8.2612
ዬ	-8.26144
30	-8.26207
ሆን	-8.26285
ፈራ	-8.26499
ra	-8.26776
▁አሳ	-8.26958
j	-8.2718
▁ዋና	-8.27459
▁በእ	-8.27634
▁ለእናንተ	-8.27856
el	-8.27927
ኦ	-8.28147
ኖር	-8.28457
000	-8.28655
▁ታላቅ	-8.2885
="1	-8.28879
Y	-8.28898
15	-8.295
▁ብት	-8.2979
▁ዐዋቂ	-8.29931
▁በምድር	-8.29941
ገኙ	-8.30212
▁ቁጥር	-8.3032
መራ	-8.30579
▁ዛሬ	-8.30643
ቪ	-8.31371
ደር	-8.31378
▁ማድረግ	-8.31516
▁ገንዘብ	-8.3153
▁አገር	-8.31768
ቼ	-8.31964
▁ናት	-8.31982
▁ማስ	-8.32104
v	-8.32158
ራቸው	-8.32179
▁ጀምሮ	-8.32207
▁ያስ	-8.32799
▁15	-8.328
ዜ	-8.33169
▁ብረት	-8.33681
ዙ	-8.337
▁በአላህ	-8.33876
▁ለማግኘት	-8.33903
ic	-8.33976
ለህ	-8.34091
▁ምርጥ	-8.34263
ውያን	-8.34757
▁ሚ	-8.3484
▁ሆይ፥	-8.35248
ወር	-8.35315
▁አቀፍ	-8.35856
ሠራ	-8.35901
co	-8.35917
ገለ	-8.36011
▁11	-8.36158
▁አንዱ	-8.36354
▁18	-8.36408
▁ሴቶች	-8.36503
19	-8.36726
ኬ	-8.36782
▁መጽሐፍ	-8.37104
11	-8.37154
መሰ	-8.37213
ኞች	-8.37457
▁ሴ	-8.37696
▁ንጉሥ	-8.38489
▁ሆኖ	-8.38949
ሆ	-8.38993
▁2019	-8.39035
12	-8.3908
▁ከእናንተ	-8.39363
▁እጅግ	-8.39376
ቸ	-8.39647
ዎን	-8.39811
▁እዚህ	-8.39879
▁2017	-8.40157
▁ከዚህ	-8.40581
ቦች	-8.40601
ቻቸው	-8.40648
un	-8.40761
▁X	-8.40976
is	-8.41206
ፎ	-8.41328
▁ለአ	-8.41382
▁በኩል	-8.41541
ፅ	-8.42258
ገል	-8.42286
ነፍ	-8.42472
▁ከፍ	-8.42772
ባል	-8.42932
▁እጅ	-8.42972
ሹ	-8.43146
ቹ	-8.43324
▁ተመ	-8.43841
▁*	-8.44933
▁የተለያዩ	-8.45363
▁መለያ	-8.45458
ሣ	-8.45508
▁30	-8.45519
us	-8.45583
▁O	-8.45608
፦	-8.45808
▁እንዳ	-8.4582
ጢ	-8.46234
ሃል	-8.46286
▁I	-8.46855
ጊ	-8.46918
ጦ	-8.46955
ላል	-8.47455
▁ሕዝብ	-8.47554
ደረግ	-8.47623
ጠር	-8.47736
▁እኔም	-8.4793
ገዛ	-8.48262
ሪዎች	-8.48339
▁ከአላህ	-8.48462
▁p	-8.48506
ታችሁ	-8.48813
ፌ	-8.49148
▁የለም	-8.49555
▁ዜና	-8.49604
ቸዋል	-8.49696
▁ሕይወት	-8.49709
▁እሱ	-8.49904
▁Ch	-8.5022
ገር	-8.50455
ሰበ	-8.50641
▁ኮ	-8.5092
▁ወር	-8.50989
▁ኖሮ	-8.51088
▁ይላሉ	-8.51163
▁እርስዎ	-8.51312
ረዳ	-8.51333
▁ምርት	-8.51388
▁ነበሩ	-8.51397
▁የንግድ	-8.51459
▁እነዚያም	-8.51663
▁ዓይነት	-8.51835
▁16	-8.51899
ጌ	-8.51989
▁በእናንተ	-8.52024
te	-8.52107
ኳ	-8.52151
▁ይላል	-8.52313
ጓ	-8.5232
▁ሕ	-8.52679
▁ስፍራ	-8.52858
il	-8.52871
ኛው	-8.52892
ሞች	-8.52979
40	-8.53048
▁ጥቅም	-8.53263
▁አቅራቢዎች	-8.53302
▁እንጅ	-8.53406
▁£	-8.53429
▁መብት	-8.53502
01	-8.53547
▁መሆን	-8.5372
ታዊ	-8.54167
ቫ	-8.54171
▁ነገሮች	-8.54441
▁ክፍሎች	-8.54704
ፍራ	-8.54958
▁መሆኑን	-8.54968
ang	-8.55107
▁13	-8.55611
ha	-8.56101
60	-8.56163
▁ቀላል	-8.56274
▁ማንኛውም	-8.56293
▁ቡድን	-8.56505
▁እነሱ	-8.56535
ሶች	-8.56606
▁በእግዚአብሔር	-8.56625
▁እያ	-8.56663
ation	-8.56744
ሰራ	-8.56765
▁አምራቾች	-8.56794
መጡ	-8.56982
▁ሲሆን	-8.56992
▁ሳይ	-8.57567
ሰው	-8.57932
▁ወንድ	-8.57974
▁24	-8.58055
▁ዶላር	-8.581
80	-8.58382
▁ዓመታት	-8.58711
▁ጉ	-8.58727
▁ሀ	-8.5903
መለስ	-8.59076
▁የእግዚአብሔር	-8.5916
16	-8.59225
▁U	-8.59322
▁c	-8.59338
ገኝ	-8.59456
በላ	-8.59666
ቂያ	-8.60047
ታችን	-8.60126
▁መኖሪያ	-8.60581
▁ያሉ	-8.60616
ፖ	-8.61094
ir	-8.61297
ne	-8.61306
id	-8.61395
▁ግልጽ	-8.61419
25	-8.6152
▁ኾነው	-8.61524
▁14	-8.61629
▁ሸ	-8.61784
ጆ	-8.61832
ሳይ	-8.61996
ate	-8.62089
▁እውነት	-8.62326
ላለ	-8.6238
ገደ	-8.62493
ራዊ	-8.62495
▁ጣቢያ	-8.62653
ዋቸው	-8.62831
ደረ	-8.62895
ሚያ	-8.63053
▁መሠረት	-8.63163
ጠፋ	-8.63191
▁ቴክኖሎጂ	-8.63461
ሺ	-8.63539
13	-8.63629
ul	-8.63832
▁ለእነርሱ	-8.63915
▁ለምን	-8.63985
▁ኩባንያ	-8.64001
▁ቤቶች	-8.64059
▁ተማሪዎች	-8.64712
▁ሃ	-8.64746
▁ዝርዝር	-8.64812
▁17	-8.64873
▁ባል	-8.65051
▁ጉዞ	-8.65056
as	-8.65246
ኅ	-8.65345
▁በአንድ	-8.65407
▁ነን	-8.65504
▁መስመር	-8.65671
▁ያህል	-8.65803
ሰጥ	-8.65937
▁ጎ	-8.66075
ረጋ	-8.66189
▁25	-8.66261
▁አለው።	-8.66457
▁ፓ	-8.66811
▁ማግኘት	-8.66848
▁ተከታታይ	-8.66959
▁አካባቢ	-8.67005
▁ድጋፍ	-8.67083
▁ይበልጥ	-8.67194
▁ትልቅ	-8.6723
J	-8.67245
▁ሆ	-8.67387
▁ነፃ	-8.67402
ፃ	-8.67407
▁አስፈላጊ	-8.67469
ተዋል	-8.67509
ዚ	-8.67527
ብረ	-8.67607
▁ለእርሱ	-8.67716
45	-8.68236
▁ዕ	-8.68623
▁the	-8.68824
ers	-8.68832
tr	-8.68859
ent	-8.68932
▁የእርስዎ	-8.69044
▁ስልክ	-8.69215
ዮች	-8.69311
ወሰ	-8.69322
▁ብርሃን	-8.69326
ገቡ	-8.69498
ሾ	-8.69567
▁ፍርድ	-8.69585
se	-8.69937
▁መመሪያ	-8.69944
18	-8.70337
ወጡ	-8.70431
ከል	-8.70448
ሥራ	-8.70474
ችኋል	-8.70498
ዌ	-8.70507
መድ	-8.70865
ተኞች	-8.70989
ናችሁ	-8.71054
▁ይልቅ	-8.71068
(	-8.71229
▁ጥያቄ	-8.71247
▁እሳት	-8.71356
▁ስርዓት	-8.71425
ፍር	-8.71456
▁ካርድ	-8.71465
li	-8.71782
ri	-8.71924
▁ፈቃድ	-8.71939
▁ጥቁር	-8.72026
ጁ	-8.7203
▁አንዳንድ	-8.72049
de	-8.72097
▁ሲኾኑ	-8.72098
0	-8.72327
▁ከእነርሱ	-8.72333
▁ይመ	-8.72435
▁አለበት	-8.72499
፡	-8.72519
ጹ	-8.72521
▁Ltd	-8.72524
ዞ	-8.73162
▁እንደሆነ	-8.73179
▁ሊሆን	-8.73324
▁0	-8.73342
ሟ	-8.73395
▁እንዲያ	-8.73407
ቷል	-8.73475
05	-8.73521
▁የእኛ	-8.73587
14	-8.73589
ከር	-8.73638
▁አለ።	-8.73664
▁ሰዓት	-8.73944
▁ዲ	-8.74098
▁ተስፋ	-8.74229
ጆች	-8.7424
መኑ	-8.74408
ባለ	-8.7455
▁ከእ	-8.7476
▁ጭ	-8.75078
▁የአላህ	-8.75133
▁50	-8.75208
▁Re	-8.75211
▁አደረገ	-8.75271
ላይ	-8.75288
ፎች	-8.75296
▁ፊ	-8.75429
ex	-8.75509
▁ኪ	-8.75721
▁ለማድረግ	-8.75738
ly	-8.75894
ቸውም	-8.76169
ግባ	-8.76358
ot	-8.76384
ሠ	-8.76574
▁f	-8.76629
▁ሕግ	-8.76658
ኢ	-8.76764
▁እየተ	-8.76893
02	-8.77044
="3	-8.7707
በረ	-8.77377
▁ቤተ	-8.77413
im	-8.77425
▁በእነርሱ	-8.7746
▁ሞዴል	-8.77497
ሳቸው	-8.77563
▁መቶ	-8.77584
▁መጣ	-8.77588
ia	-8.77598
ናገር	-8.77786
▁of	-8.77792
▁In	-8.77829
ላሉ	-8.78039
▁የአየር	-8.78286
ጠሩ	-8.7831
ኾን	-8.78313
ከራ	-8.78324
▁እንዳይ	-8.78337
ቶቹ	-8.78338
ሰጠ	-8.78371
▁መሣሪያዎች	-8.78523
▁ዘመን	-8.78581
▁ክፉ	-8.78626
ኛል	-8.78807
▁ውጭ	-8.78813
በሩ	-8.78833
ሄ	-8.78846
▁ሴት	-8.78898
ter	-8.78935
▁Y	-8.79023
ቸውን	-8.79038
ስቲ	-8.79149
17	-8.79199
▁ቀናት	-8.79274
ያዝ	-8.79303
06	-8.7935
▁ሦስት	-8.79382
▁ይሁን	-8.79617
ዉ	-8.79859
ጣት	-8.79966
▁ጉዳይ	-8.80059
▁100	-8.80316
to	-8.80453
▁የኾነ	-8.8051
&	-8.80597
▁ድር	-8.80639
▁ቁ	-8.81044
▁ኢትዮጵያ	-8.81044
▁ከዚያ	-8.81595
▁ፕሮግራም	-8.81907
▁አካል	-8.82395
▁m	-8.82601
ሞት	-8.82744
▁ጉርሻ	-8.82813
▁#	-8.83124
ኖሩ	-8.83164
21	-8.83177
▁ቀጣይ	-8.83315
▁ያግኙ	-8.83429
▁ችግር	-8.83512
24	-8.83581
36	-8.83636
ሰጡ	-8.83695
▁ዐ	-8.83876
ወደ	-8.84144
ma	-8.8421
▁ይህንን	-8.84295
ገኛ	-8.8452
22	-8.8483
አቸው	-8.84908
▁ጌታዬ	-8.84908
ገድ	-8.85028
ቀረ	-8.85049
▁ምልክት	-8.85263
▁የሰው	-8.85387
▁ልብ	-8.85461
▁ቀለም	-8.85607
ጋራ	-8.85685
መረ	-8.85733
▁ግብ	-8.85778
በቃ	-8.85839
ቀጣ	-8.85877
://	-8.86025
▁መሣሪያ	-8.86222
▁አይነት	-8.86327
▁200	-8.864
ወድ	-8.86465
ፈረ	-8.86718
▁ወረቀት	-8.86746
op	-8.86972
-1	-8.87192
▁በዓለም	-8.87248
▁ምግብ	-8.87313
▁አየር	-8.87541
ዥ	-8.87723
▁እግዚአብሔርም	-8.87971
34	-8.87986
▁የግል	-8.87992
ጣል	-8.88221
▁እነሆ፥	-8.88494
▁በታች	-8.88566
▁መጨረሻ	-8.88657
▁ውሃ	-8.88813
▁ጥቂት	-8.88816
ቶቻቸው	-8.88891
35	-8.88915
▁አውርድ	-8.89035
kv	-8.89153
▁ንድፍ	-8.89217
▁ትክክለኛ	-8.89406
▁w	-8.89568
la	-8.89773
መነ	-8.89922
ac	-8.89974
07	-8.901
ቻችሁ	-8.90129
▁መልስ	-8.90279
▁እውነተኛ	-8.90374
▁የቤት	-8.90409
▁ሁሉንም	-8.90686
ፈልጉ	-8.90921
▁ሰላም	-8.90964
▁ደስ	-8.9108
]	-8.91242
▁ኮድ	-8.91376
ቈ	-8.9145
ነሳ	-8.91558
ከፍተኛ	-8.91588
▁እንዲሁ	-8.91658
ቆጣ	-8.91744
ነሱ	-8.91758
▁ችሎታ	-8.91811
99	-8.9182
ኃ	-8.91868
ኝነት	-8.91904
Z	-8.91929
መልካ	-8.92013
▁ሜ	-8.92195
▁በርካታ	-8.92546
▁እነሆ	-8.92554
lo	-8.92686
ቺ	-8.92702
▁ፍጥነት	-8.93181
▁በርሱ	-8.93248
▁እኛም	-8.93534
▁b	-8.93657
▁ዙሪያ	-8.93823
▁ከእነሱ	-8.93837
ነበረ	-8.94189
ኤል	-8.94276
▁የበለጠ	-8.94396
▁ኪዳን	-8.94474
▁የኃይል	-8.9456
37	-8.94567
▁በጎ	-8.94779
▁የመጀመሪያ	-8.94783
ብሩ	-8.94788
▁ሺህ	-8.94804
ፈሩ	-8.94885
▁ብር	-8.95068
▁ኢየሱስ	-8.95142
ack	-8.95181
04	-8.95377
▁ጽ	-8.95583
▁የተሻለ	-8.95868
ሞላ	-8.95963
ሠሩት	-8.96116
▁ያላቸው	-8.96156
and	-8.96179
ገራ	-8.9623
▁የቀድሞው	-8.96238
ነቱ	-8.96251
▁ነፍስ	-8.96381
um	-8.96541
▁40	-8.96597
▁ተከ	-8.96953
▁በሙሉ	-8.97007
▁22	-8.97101
09	-8.97104
▁የኢትዮጵያ	-8.97208
ያዊ	-8.97259
▁ልክ	-8.97361
▁Z	-8.97491
▁ሲኾን	-8.97502
▁ክልል	-8.97515
▁ታሪክ	-8.97611
▁and	-8.97613
▁ወይስ	-8.97692
ሠሩ	-8.9779
▁በኢትዮጵያ	-8.97908
ጄ	-8.98064
ባሉ	-8.98066
▁መደበኛ	-8.98133
one	-8.98578
▁በእኛ	-8.98745
ub	-8.98802
▁ቅዱስ	-8.98816
▁ዝቅተኛ	-8.98821
ደርግ	-8.99004
е	-8.9904
▁መኪና	-8.99101
03	-8.99132
ጥፋ	-8.99194
▁ክፍያ	-8.99226
▁ልማት	-8.99292
▁የትምህርት	-8.99339
▁2016	-8.99392
▁ወቅት	-8.99441
@	-8.99475
28	-8.99568
ዎት	-8.9958
▁ግንኙነት	-8.9963
አል	-8.99771
▁21	-8.99808
os	-8.99917
▁ወንዶች	-8.99964
-20	-9.00113
▁ጸ	-9.00123
sh	-9.00241
08	-9.00542
ጠነ	-9.00543
▁እያንዳንዱ	-9.00634
ሄድ	-9.00774
▁ጌታህ	-9.00805
▁የምታ	-9.00857
ጥቅ	-9.00875
ዚያ	-9.0108
38	-9.01121
ጣሉ	-9.01145
ጠላ	-9.0115
▁ተመሳሳይ	-9.01335
ባችሁ	-9.01348
ኾኑ	-9.01368
▁FSX	-9.01495
▁ቤ	-9.01513
ጐ	-9.01632
▁ሚሜ	-9.01761
ill	-9.01794
all	-9.01836
▁ውኃ	-9.01918
.00	-9.02005
▁የእኔ	-9.0202
ልኝ	-9.02022
ወቅ	-9.02227
action	-9.02474
▁ተንቀሳቃሽ	-9.02474
ኃጢአ	-9.0251
33	-9.02525
▁to	-9.02536
ጤ	-9.02914
ጠቅ	-9.02934
▁በማድረግ	-9.0304
23	-9.03113
ለሁ።	-9.03143
▁የእኛን	-9.03334
▁ፎቶ	-9.03393
▁ገበያ	-9.03481
ተኛው	-9.0349
▁v	-9.03512
▁የምርት	-9.03557
▁አራት	-9.03584
ry	-9.03786
▁ኢንዱስትሪ	-9.03786
▁ምሳሌ	-9.0391
ወረደ	-9.03959
ሰሙ	-9.03967
▁የሚያስ	-9.04087
▁=	-9.04185
▁ተጠ	-9.04328
▁አበባ	-9.04428
▁የመስመር	-9.04727
ደረጉ	-9.04802
om	-9.04843
ard	-9.05077
ደርጉ	-9.05106
▁በወ	-9.0514
▁በእውነት	-9.05491
ow	-9.05611
ፔ	-9.0565
ho	-9.05716
▁ሰር	-9.05793
▁ስራ	-9.05909
▁እንኳ	-9.05913
ዎቻቸው	-9.05973
▁ፒ	-9.05983
ong	-9.06021
▁[	-9.06155
▁ኃጢአት	-9.06195
ዘር	-9.06209
▁መጥፎ	-9.06403
ጠቀ	-9.06424
▁ያልተ	-9.06589
▁a	-9.06672
ጩ	-9.06713
▁የኾኑ	-9.06771
▁የኢ	-9.0686
ay	-9.069
▁ቁርኣን	-9.06974
▁ጠንካራ	-9.07026
▁መጠቀም	-9.07105
▁ከእኔ	-9.07269
ዳቸው	-9.07299
▁ስር	-9.07338
▁አልተ	-9.07385
▁ልብስ	-9.07484
ታቸውን	-9.07635
per	-9.07648
▁ሥርዓት	-9.07715
▁ይገኛል	-9.07835
mo	-9.07889
ታገ	-9.08043
▁ቋንቋ	-9.08099
▁ሞተር	-9.08116
90	-9.08124
ion	-9.08162
ቧ	-9.08342
ሂ	-9.08386
▁ጠቃሚ	-9.08555
▁ለተ	-9.08825
▁ይገ	-9.08959
ራችሁ	-9.09064
▁ሶ	-9.09105
▁in	-9.09156
od	-9.09207
ኣ	-9.09213
▁አልለ	-9.09286
ገኘው	-9.09364
▁አድርጎ	-9.09859
▁ቅን	-9.09867
▁ናቸው።	-9.1004
55	-9.10083
▁የዘ	-9.10133
ገረ	-9.10218
ኵ	-9.10268
▁2013	-9.10326
ባባ	-9.10338
▁የካዱት	-9.10364
ገነ	-9.10422
ያቸው	-9.10427
▁የመጀመሪያው	-9.10471
▁አስተዳደር	-9.10495
▁ከእኛ	-9.10667
▁%	-9.10691
▁ከአንተ	-9.10714
ጾ	-9.10809
▁ኢሜይል	-9.10835
ሾች	-9.10863
▁ቪዲዮ	-9.10884
▁የእስራኤል	-9.10907
▁አሁንም	-9.10919
me	-9.11285
▁ካል	-9.11487
ut	-9.11537
▁ፍሬ	-9.11545
▁g	-9.11593
ab	-9.11736
▁ፈጣን	-9.11739
▁ድምፅ	-9.11847
▁ጸጋ	-9.11854
▁ሂደት	-9.11904
ረዱ	-9.11914
▁ወዘተ	-9.12012
▁Pro	-9.12045
▁ለአላህ	-9.12233
▁ትንሽ	-9.12309
▁ንግድ	-9.1234
▁አስታውስ	-9.12405
▁በመጠቀም	-9.12448
▁ምርምር	-9.12508
▁ማንም	-9.12537
▁አስተያየት	-9.12632
▁አስተ	-9.12671
▁ብርቱ	-9.12677
▁እንዳለ	-9.12738
▁የአሜሪካ	-9.12765
ip	-9.1279
200	-9.12913
ደረሰ	-9.12966
ከብ	-9.12981
▁ለማስ	-9.13018
▁Bitcoin	-9.13172
▁ባሪያ	-9.13179
di	-9.13204
na	-9.13227
▁23	-9.1323
29	-9.13263
ብኝ	-9.13297
▁በዚያም	-9.13406
ነግ	-9.13493
39	-9.13576
ፈጠር	-9.13649
አይ	-9.13728
ሰጠው	-9.1394
ቄ	-9.13953
ኋ	-9.13974
86	-9.14048
▁መሪ	-9.1405
▁አጠቃላይ	-9.14056
▁ቦርሳ	-9.1418
est	-9.14314
ጠረ	-9.14464
▁ቀጥ	-9.14524
▁ተሰ	-9.14555
▁ግምገማዎች	-9.14557
▁እርሷ	-9.14573
▁ከተሞች	-9.14582
▁ከባድ	-9.14622
ጠባ	-9.14627
▁አድራሻ	-9.14628
▁ለእነሱ	-9.1464
ጪ	-9.14696
ነቶች	-9.14733
▁መንፈስ	-9.14969
65	-9.15048
▁ኃ	-9.15108
▁ድርጅት	-9.15138
▁ምንዳ	-9.15175
ገኘ	-9.15287
67	-9.15522
ዣ	-9.15648
▁እምነት	-9.15714
▁ምክር	-9.15726
▁ባለቤት	-9.15753
ቻል	-9.15785
ሷ	-9.1583
▁ጨዋታ	-9.15949
▁እስራኤል	-9.15991
▁በማለት	-9.16004
ሄዱ	-9.16074
www	-9.1645
▁ጨምሮ	-9.16451
▁re	-9.16469
▁ሰባት	-9.16542
47	-9.16588
▁h	-9.16652
ቨር	-9.16654
26	-9.16721
ver	-9.16764
ric	-9.16854
▁በእኔ	-9.16918
75	-9.1693
ከለ	-9.17044
ant	-9.17141
70	-9.17208
▁በተጨማሪም	-9.17272
ፈጥ	-9.17338
ap	-9.17352
ቆች	-9.17418
-2	-9.17439
▁ጥበቃ	-9.17562
▁በሆነ	-9.17694
▁ቢሆን	-9.17712
mail	-9.1788
▁ወራት	-9.1789
▁Android	-9.17955
▁መግለጫ	-9.17957
ፈተ	-9.18031
ረገ	-9.18055
▁ማዕከል	-9.18142
▁መሥዋዕት	-9.18189
▁capacitor	-9.18364
▁ጥበብ	-9.18569
▁ጃ	-9.18649
ig	-9.18725
▁የሆኑ	-9.18883
ገባው	-9.18895
▁አገልግሎቶች	-9.18953
ator	-9.19153
▁ምርጫ	-9.19213
▁ዳዊት	-9.19234
▁ይሰጣል	-9.19248
po	-9.19529
››	-9.19549
ጎች	-9.19564
32	-9.19571
ቻችን	-9.19728
he	-9.19836
ta	-9.20018
ge	-9.20237
▁ቁጥጥር	-9.20256
▁እንደዚሁ	-9.20274
ag	-9.20564
▁ሕያው	-9.2062
69	-9.20637
▁አሜሪካ	-9.20644
▁በእርሷ	-9.20697
▁የዓለም	-9.20729
▁ለእኔ	-9.20822
▁መኾኑን	-9.20871
▁በሌላ	-9.2091
▁በስተቀር	-9.20915
27	-9.21014
Q	-9.21018
▁©	-9.21051
▁28	-9.21114
ff	-9.21118
▁ጥያቄዎች	-9.2143
▁የወ	-9.21517
▁የእግዚአብሔርን	-9.21524
▁ያደርጋል	-9.21579
ህንም	-9.21795
▁የእርስዎን	-9.22064
▁ደረጃዎች	-9.2214
▁ምድርን	-9.22156
▁ቦ	-9.22169
▁ጥናት	-9.22198
▁ብለው	-9.22205
▁የስራ	-9.22338
▁እርዳታ	-9.22375
ቶቻችሁ	-9.2238
ከፋ	-9.22409
ላንድ	-9.2245
▁የጌታ	-9.22489
▁ሳይንስ	-9.22541
ነሣ	-9.22568
▁ነበረ	-9.22591
▁በእስራኤል	-9.22672
▁ጌታችን	-9.22751
▁በውስጡ	-9.22795
ማቸው	-9.22861
▁ትዕዛዝ	-9.22958
▁አቅም	-9.23016
▁d	-9.23098
ይቱ	-9.23219
▁ፈተና	-9.23281
ine	-9.23288
▁ባለቤቶች	-9.23299
▁በመጀመሪያ	-9.23319
▁ሆነው	-9.23351
ዖ	-9.2347
▁ዝርዝሮች	-9.2347
▁ያንብቡ	-9.23532
▁ለእግዚአብሔር	-9.23813
▁ሽፋን	-9.23843
48	-9.23961
▁Ma	-9.24124
▁ነህ	-9.2437
▁ማረጋገጫ	-9.24399
▁ከሓዲዎች	-9.24419
▁ንብረት	-9.24433
ከተ	-9.24557
▁ሲል	-9.24726
▁ሁልጊዜ	-9.25086
▁የኤሌክትሪክ	-9.25136
ጮ	-9.25304
▁ፈጽሞ	-9.25337
▁ነጭ	-9.2545
ባይ	-9.25522
ገዙ	-9.25622
ቃሉ	-9.25632
▁አንተም	-9.25659
ity	-9.25698
▁እንኳን	-9.25749
▁የቁማር	-9.25778
up	-9.25946
ስቴ	-9.26361
መዝገብ	-9.26474
ቷ	-9.26481
▁ለእኛ	-9.26496
▁አምስት	-9.26509
ያዙ	-9.26617
▁እንድ	-9.26639
ሴት	-9.26673
▁የማያ	-9.26727
ከፍ	-9.26802
▁መስጠት	-9.26806
▁ዱቄት	-9.26855
ቅጣ	-9.26937
▁ክብር	-9.26992
ዲያ	-9.27056
ሦ	-9.27174
▁2015	-9.27208
▁ቅጥ	-9.27229
ቀኝ	-9.27549
▁Forex	-9.27566
▁ገና	-9.27588
ጧ	-9.27623
▁አላቸው።	-9.27769
▁መጀመሪያ	-9.27859
▁ቮልቴጅ	-9.27881
ቭ	-9.27945
▁አዛኝ	-9.27952
▁ገመድ	-9.2796
▁መቆጣጠሪያ	-9.2801
no	-9.28069
о	-9.28074
ሰሩ	-9.28114
▁ምክንያቱም	-9.28333
▁ስሪት	-9.28339
AR	-9.28404
▁St	-9.2844
▁በጌታ	-9.28462
▁ቦታዎች	-9.28519
ለዋል	-9.28568
▁በኾነ	-9.28582
ide	-9.28708
▁በውስጧ	-9.28722
ell	-9.28755
▁እስኪ	-9.28786
▁ሄ	-9.28827
▁ባለው	-9.29071
der	-9.29087
▁የነበሩት	-9.29111
▁በእርሱም	-9.29169
ኤስ	-9.29176
▁ለእ	-9.29203
መለሱ	-9.29249
ast	-9.29264
▁ለውጥ	-9.29323
ve	-9.29349
▁በኢ	-9.29366
if	-9.29401
▁ያንን	-9.29465
▁ይመልከቱ	-9.29504
▁ነበረ።	-9.29511
▁የሚችል	-9.29563
▁ብሔራዊ	-9.29645
ጮች	-9.29726
▁ቀይ	-9.29794
ov	-9.29816
▁ለእነዚያ	-9.29903
▁ያላቸውን	-9.29939
▁አነስተኛ	-9.30012
▁ነገ	-9.30023
▁በመካከላቸው	-9.30029
▁መጠ	-9.30211
ሮቹ	-9.30235
▁ጉዳዮች	-9.30491
▁ድምጽ	-9.30561
▁የሥራ	-9.30687
▁ክርስቶስ	-9.3069
▁ብጁ	-9.3072
▁ዕቃ	-9.30787
▁ወገን	-9.30832
ive	-9.30881
ca	-9.30917
ላቸዋል	-9.31
▁አጠገብ	-9.31088
31	-9.31146
85	-9.31168
▁ይሆናል።	-9.31284
▁ጨዋታዎች	-9.31299
▁ክብደት	-9.31357
▁መንግሥት	-9.3137
age	-9.31483
▁የቅርብ	-9.31489
oo	-9.31508
ሪክ	-9.31663
44	-9.3167
▁ኾነ	-9.31742
▁አማራጭ	-9.31755
▁ውጤት	-9.31823
▁26	-9.31873
▁ሲያ	-9.31986
ዘው	-9.32022
▁ካዚኖ	-9.32023
ess	-9.32135
▁ስላ	-9.32237
▁ኾኖ	-9.32293
▁የውጭ	-9.32307
▁500	-9.32471
ist	-9.32546
▁PVC	-9.32562
▁ታዋቂ	-9.3263
▁መንግስት	-9.32658
▁አሸናፊ	-9.32681
ቀመጥ	-9.32696
ከሩ	-9.32758
▁አቅርቦት	-9.32765
ያውቁ	-9.32771
▁ሥጋ	-9.32793
ment	-9.3298
▁ብጤ	-9.33126
ፈልግ	-9.33183
ችንን	-9.33279
▁በሚያ	-9.33341
88	-9.33474
ER	-9.3353
▁ፍቅር	-9.33581
▁አደጋ	-9.33629
ቤቱ	-9.33668
ፊያ	-9.33716
pl	-9.33773
▁ደህንነት	-9.33784
tic	-9.33793
▁ምንጭ	-9.33805
▁ቁልፍ	-9.33856
▁ሙቀት	-9.33992
▁°	-9.34027
▁ዘር	-9.34239
▁ሚሊዮን	-9.34264
ኞቹ	-9.34346
ሔ	-9.34536
▁ፍላጎት	-9.34554
pe	-9.34558
▁ይፈልጋሉ	-9.34608
▁የሚሆን	-9.3465
▁እባክዎ	-9.34677
XL	-9.34699
ተባበ	-9.34798
US	-9.34919
а	-9.34953
ሰባ	-9.35078
መለሰ	-9.35091
▁De	-9.35183
77	-9.35244
▁ሌሊት	-9.35299
ደርስ	-9.35363
▁ተቀማጭ	-9.35368
▁ነገሩ	-9.35706
ችሁን	-9.3576
▁ብል	-9.35795
▁ይዘ	-9.35802
▁ክር	-9.35959
▁ይጠ	-9.3597
41	-9.35982
ight	-9.3599
▁2014	-9.35994
▁ጀ	-9.35999
▁ሥር	-9.36028
66	-9.36028
▁ቀጥተኛ	-9.36032
በዛ	-9.36046
▁ጥቅል	-9.36116
▁ተራራ	-9.36123
▁እንግዲህ	-9.36135
▁የገንዘብ	-9.36137
▁የኮ	-9.36145
▁‹‹	-9.36206
አዲስ	-9.36209
▁ራስ	-9.36289
▁እነዚህን	-9.36337
ie	-9.36352
▁መከራ	-9.36372
▁€	-9.36408
▁ፖ	-9.36501
qu	-9.36501
መለከ	-9.36571
▁የነበረው	-9.36575
▁ተብሎ	-9.36637
▁መሓሪ	-9.36697
▁ሳለ	-9.36724
▁የምድር	-9.36847
ጊዜ	-9.3687
▁በቀር	-9.37124
ከሰ	-9.37148
▁ወዳ	-9.37215
▁ነበር፤	-9.37241
ቤት	-9.37374
ans	-9.37603
▁No	-9.37627
▁ወይ	-9.37656
ኙ	-9.37759
42	-9.38
▁ግራ	-9.38023
▁ጥር	-9.38112
▁እንቅስቃሴ	-9.38172
ዓት	-9.38322
95	-9.38363
ወገ	-9.38391
▁መሳሪያዎች	-9.38394
ታወቀ	-9.38408
ኞ	-9.38437
▁ባሕር	-9.38545
43	-9.38571
ኖረው	-9.38573
▁በአሁኑ	-9.38641
▁አድርግ	-9.38648
ሁለት	-9.38658
ፊት	-9.38737
ቲቱ	-9.38803
▁የውሃ	-9.38827
▁ችሮታ	-9.38844
ሳችሁ	-9.38881
▁ሄደ	-9.39005
▁ደንበኞች	-9.39052
▁እንድት	-9.39124
▁ዘመናዊ	-9.39189
▁ሜትር	-9.39206
▁መስፈርቶች	-9.39406
ሰጣቸው	-9.39454
▁by	-9.39456
ቆየ	-9.39534
ዩናይትድ	-9.39913
▁ወጣ	-9.39982
ti	-9.40042
▁የተወሰነ	-9.40071
▁27	-9.40224
▁ካሜራ	-9.40351
▁መልክ	-9.40357
ወረ	-9.40358
▁አውሮፕላን	-9.40401
▁35	-9.40504
ገሩ	-9.40568
▁ሳይሆን	-9.40632
▁ጥበበኛ	-9.40642
▁ያመናችሁ	-9.4079
ላዊ	-9.40887
ite	-9.41025
▁29	-9.41041
▁የምግብ	-9.41166
▁ግምገማ	-9.41175
▁ድርጅቶች	-9.4145
sk	-9.41454
hi	-9.41601
ቀረበ	-9.41633
ጊያ	-9.41813
▁ውርዶች	-9.41821
▁ሰማይ	-9.41836
ደረጃ	-9.41884
▁ያድርጉ	-9.41968
▁አይችልም	-9.41969
▁አቅራቢ	-9.42067
ጡት	-9.42079
▁አምራች	-9.42267
▁በተለይ	-9.42273
ያዘ	-9.42397
▁ተስማሚ	-9.42489
ber	-9.42525
▁እንደዚህ	-9.42538
▁Q	-9.42632
▁ቅር	-9.42657
▁ውጤቶች	-9.42787
መንገድ	-9.42788
net	-9.42853
▁በመጣ	-9.42878
▁አዋጅ	-9.42947
ph	-9.43001
▁የሚለው	-9.43035
ሃለሁ	-9.431
▁ቢሆንም	-9.43156
▁አሕዛብ	-9.43162
ft	-9.43296
▁ምስጋና	-9.43463
72	-9.43488
▁ሰፊ	-9.43535
▁ከእርሷ	-9.43613
▁100%	-9.43688
ሇ	-9.43688
▁ዓላማ	-9.43696
▁አለቆች	-9.43793
ቮ	-9.43839
▁ለዘላለም	-9.43839
▁ፕሮግራሞች	-9.4384
ሏቸው	-9.43878
ሃይ	-9.43898
ce	-9.43958
▁for	-9.43962
ኸ	-9.44039
▁~	-9.44112
መሩ	-9.44207
▁የቅጂ	-9.4423
98	-9.44276
▁60	-9.44293
▁ኋላ	-9.44309
▁ማሳያ	-9.44465
▁ጄ	-9.44569
51	-9.44788
▁ከሰማይ	-9.44831
▁ምልክቶች	-9.44903
▁መያዣ	-9.44981
ዐ	-9.44993
sp	-9.45018
▁አሉት	-9.45041
▁የባቡር	-9.45056
▁ያመኑት	-9.45063
▁2020	-9.45114
71	-9.45152
ጀመረ	-9.45161
▁የኢሜይል	-9.45219
▁አባላት	-9.45286
▁×	-9.45308
vi	-9.45496
▁ማዋቀር	-9.45592
0.0	-9.45626
▁ዘይት	-9.45692
መልክ	-9.45703
▁ለዚህ	-9.45859
▁በማስ	-9.45949
res	-9.45973
ለሁ፤	-9.46058
▁ተቋም	-9.46081
IN	-9.46134
▁ቤቱ	-9.46183
▁መግቢያ	-9.46214
art	-9.46221
ኘ	-9.46244
68	-9.46458
ጀመር	-9.46472
▁ይግዙ	-9.4653
ai	-9.46544
▁ትእዛዝ	-9.46597
▁መሬት	-9.46644
ame	-9.46668
▁ወዲያውኑ	-9.46675
ከተል	-9.46678
▁ሞት	-9.46692
ተካ	-9.467
▁ግል	-9.46826
▁de	-9.46995
▁አለቃ	-9.46996
▁ጠቅ	-9.47135
pr	-9.47141
▁ያቀርባል	-9.47142
ታል።	-9.47206
አልና	-9.47214
▁ወጥ	-9.4723
ster	-9.47231
▁ከእነርሱም	-9.47295
▁ይቻላል	-9.47299
57	-9.47346
▁ይህች	-9.47354
▁ገቢ	-9.47368
io	-9.4764
▁ሴራሚክ	-9.4769
▁ተግባራዊ	-9.4769
▁ጉዳት	-9.47699
▁የዚህ	-9.47859
ቬ	-9.47926
56	-9.47932
em	-9.47961
ችሁም	-9.48027
▁ብታ	-9.4816
▁ተግባር	-9.48325
▁ዕውቀት	-9.484
▁ስሙ	-9.48436
▁የአላህን	-9.48526
ian	-9.48659
▁ጤና	-9.48723
ou	-9.48763
ጕ	-9.4877
ነጋ	-9.48836
100	-9.4891
▁ሙሴ	-9.49008
ጥሩ	-9.49059
▁ትርጉም	-9.49114
▁ወሰን	-9.49184
ቀበል	-9.49269
ጋሪ	-9.49392
▁ይላል።	-9.49463
ቸዋለሁ	-9.49538
89	-9.49561
መለከቱ	-9.49582
les	-9.49584
mp	-9.49586
▁አንቀጾች	-9.49593
▁https	-9.4966
▁ቁሳዊ	-9.49687
▁መረብ	-9.49774
▁ብዛት	-9.49836
▁ሆኖም	-9.49837
ከረ	-9.4993
▁አይደሉም	-9.49994
መጨረሻ	-9.5003
ዕድ	-9.50073
▁አገሮች	-9.50084
49	-9.5012
▁ከእርሱም	-9.50142
▁ፖሊሲ	-9.5018
▁ባለሙያ	-9.50211
ፍሬ	-9.50285
ኒያ	-9.50479
▁iPhone	-9.50558
▁ሰማያዊ	-9.50652
▁ደንብ	-9.50664
▁ፍጹም	-9.5072
▁አዳዲስ	-9.50801
ጠመ	-9.50804
▁ለእነርሱም	-9.50859
ሆነ	-9.50872
▁ዕቃዎች	-9.50903
▁ወጪ	-9.5094
ዚህ	-9.51066
▁ኢንች	-9.51083
ec	-9.51092
▁ጌ	-9.51147
87	-9.51196
ለች።	-9.51343
▁ዴ	-9.51345
▁ፈርዖን	-9.51369
46	-9.51374
▁(_	-9.5139
▁መልኩ	-9.51408
IC	-9.51507
ዔ	-9.51532
▁ሁለቱ	-9.51546
ቀድሞ	-9.5161
▁እነሱም	-9.51629
="4	-9.51688
▁እርምጃ	-9.51701
0,000	-9.51788
▁ነጠላ	-9.51791
500	-9.51866
▁በእጅ	-9.51978
ታውቁ	-9.52036
▁ሽቦ	-9.52057
ጠቀሙ	-9.5218
▁የብረት	-9.52294
▁ውድ	-9.52298
ብረት	-9.52331
▁ያዘ	-9.52368
▁ስጦታ	-9.52437
▁ተገቢ	-9.52439
▁31	-9.52452
ፊቱ	-9.52468
▁ሽያጭ	-9.52469
2018	-9.52509
▁የኢንዱስትሪ	-9.5252
man	-9.52652
▁ስለሚ	-9.52672
▁Google	-9.52764
64	-9.52804
▁የሠራ	-9.52839
▁ሙሳ	-9.53052
▁ቅጣቱ	-9.53199
▁ኾናችሁ	-9.53245
▁ነበሩ።	-9.53299
ስቡ	-9.53388
we	-9.53417
ጦች	-9.53547
ዎቹን	-9.53551
▁ጽሑፍ	-9.53604
▁በምድርም	-9.53818
▁ማስረጃ	-9.53844
▁በተመለከተ	-9.53844
▁ኬ	-9.53874
ስተር	-9.53882
▁እንደገና	-9.53898
▁Tr	-9.53921
▁Ro	-9.53944
▁ጥሪ	-9.53971
▁ያሉት	-9.54156
▁ምስል	-9.54272
ወቀ	-9.5428
▁የኦ	-9.54362
መልከ	-9.54508
▁ጫማ	-9.54625
▁መልክተኛ	-9.54644
▁በትክክል	-9.54682
▁አልነበረም	-9.54686
▁ሙከራ	-9.54691
ማዊ	-9.54842
▁ፋይል	-9.54878
▁ንጉሡ	-9.54949
ጆቹ	-9.54957
▁የፕላስቲክ	-9.5502
ወቁ	-9.55112
PS	-9.55152
▁ሃይማኖት	-9.55176
ገበያ	-9.55212
▁ካለ	-9.55214
▁HVC	-9.55274
ለሁ፥	-9.55326
ከተሉ	-9.55334
▁ብቃት	-9.55363
▁ፕሮ	-9.55384
▁ጠቅላላ	-9.55443
▁ተቋማት	-9.55443
bo	-9.55596
▁Ad	-9.55622
ሻው	-9.55724
ፉት	-9.55829
▁ምንድን	-9.55874
▁መላእክት	-9.55902
▁ጂ	-9.55954
▁የለውም	-9.55992
▁ገጾች	-9.56124
ላፊ	-9.56172
▁ጌታችሁ	-9.56222
▁አፍሪካ	-9.56229
ET	-9.56238
ናገሩ	-9.5625
▁ገነት	-9.56268
▁ወርቅ	-9.56317
▁ያውቃል	-9.56381
▁ፍሩ	-9.56421
ጠፉ	-9.56502
▁ስልጠና	-9.56552
ስታወ	-9.56571
▁LED	-9.56745
▁ሶፍትዌር	-9.5681
▁ይዞ	-9.56834
2004	-9.56896
▁ሰኔ	-9.56933
IS	-9.56947
ከበረ	-9.57005
▁ሚስት	-9.57025
▁አንዲት	-9.57052
▁ባይ	-9.57054
▁መንገዶች	-9.57172
▁መጡ	-9.57176
AN	-9.57305
ቾች	-9.57377
▁ወደፊት	-9.57379
▁ውጤታማ	-9.57501
ml	-9.57561
▁ምርመራ	-9.5759
▁በቀላሉ	-9.57596
▁የስልክ	-9.57679
iv	-9.57752
▁መሰረት	-9.57762
▁የመኪና	-9.57765
▁ናችሁ	-9.57804
ኤፍ	-9.57839
▁ድንጋይ	-9.57848
▁አድርገው	-9.57849
ѕ	-9.57935
▁ሜባ	-9.57965
▁የጤና	-9.58042
▁ረዳት	-9.58267
ሏል	-9.5833
ሜይል	-9.58426
400	-9.58448
▁ማረፊያ	-9.58459
ቶቻችን	-9.58514
▁በቀን	-9.58638
▁ዛፍ	-9.58816
▁ጠባቂ	-9.58898
ነካ	-9.58921
ወዳ	-9.58932
▁አለባቸው	-9.58987
ቸዋለን	-9.58999
ገዱ	-9.59041
▁ሠ	-9.59058
▁ቢያ	-9.59067
ጨምር	-9.59123
▁Sh	-9.59152
▁ቪዛ	-9.59159
ወይ	-9.59161
▁በነገሩ	-9.59221
ጀት	-9.5926
▁እይታ	-9.59278
ተኞቹ	-9.59337
▁CNC	-9.59513
ኬት	-9.59706
▁ያስተ	-9.59728
▁ትኩረት	-9.59778
▁ማወቅ	-9.5978
▁ቅናሽ	-9.59869
▁በግልጽ	-9.599
በታል	-9.59916
▁መሳሪያ	-9.59971
▁ተወ	-9.60038
ቅዱ	-9.60077
ባዊ	-9.60189
ኮች	-9.60218
▁የሕክምና	-9.60223
▁ማህበራዊ	-9.60224
▁ይዘት	-9.60276
▁የመጨረሻ	-9.60283
▁የአካባቢ	-9.60323
ሰቡ	-9.60333
▁CO	-9.60341
መለከት	-9.60342
▁በእነሱ	-9.60364
ግሩ	-9.60472
▁ፕሮጀክት	-9.6049
600	-9.60715
▁ስቴትስ	-9.60735
cm	-9.60766
ፎር	-9.60844
▁ማዕ	-9.6087
ስተካከ	-9.60986
▁ስብሰባ	-9.61027
▁ምላሽ	-9.61032
pa	-9.61111
▁90	-9.61124
ከባ	-9.61168
58	-9.61188
▁መምሪያ	-9.6124
▁ፓርቲ	-9.61298
fi	-9.61515
▁የሚገኙ	-9.61638
ኸው	-9.6175
ለያዩ	-9.61841
▁አባል	-9.61891
ሰማያትና	-9.61919
▁በመቶ	-9.61965
▁ሁለተኛ	-9.62104
▁አስተያየቶች	-9.62109
»	-9.6211
*	-9.62111
ባቸዋል	-9.62117
ላኩ	-9.62227
▁ደብዳቤ	-9.62291
ud	-9.62299
▁ሁኔታዎች	-9.62394
▁ሁለቱም	-9.62458
pro	-9.62559
▁ኮን	-9.62605
ዘጋጀ	-9.62635
able	-9.62698
ኾነ	-9.62733
በደሉ	-9.62746
▁ስብስብ	-9.62746
▁ኳስ	-9.6275
ቴክ	-9.6294
▁መተግበሪያ	-9.63052
ts	-9.631
▁ቫልቭ	-9.63204
ኗ	-9.63295
▁መጋቢት	-9.633
end	-9.63307
▁አጠቃቀም	-9.63346
▁ምናልባት	-9.63387
▁አንቀጽ	-9.63393
▁ዩኒ	-9.63413
ash	-9.63419
ጠለ	-9.63439
▁ስሜት	-9.63478
▁እውቀት	-9.63573
ቍ	-9.63728
▁ዳርቻ	-9.63775
▁ማቅረብ	-9.63848
▁ኡሁ	-9.63851
▁ይሆን	-9.63875
73	-9.63895
▁ድረ	-9.6392
ቀርቡ	-9.63926
▁ሀብት	-9.63959
▁ሰይጣን	-9.63984
97	-9.64058
▁ባሉ	-9.64117
ረኛ	-9.64142
ፈረንሳይ	-9.64219
cc	-9.64305
▁ወሬ	-9.64335
▁ግንባታ	-9.64336
ይቱም	-9.64401
▁ባህሪያት	-9.64405
ጠይቅ	-9.64495
ይቱን	-9.64587
▁በሽታ	-9.64603
▁በእሳት	-9.64604
▁ቪ	-9.64656
ወንጀ	-9.64669
▁አልሉ	-9.6467
59	-9.64678
▁ልምድ	-9.64733
96	-9.64765
▁ፕላስቲክ	-9.64775
ተናል	-9.6478
▁2010	-9.64799
▁ርዝመት	-9.64868
AS	-9.64868
ክሬ	-9.64985
▁An	-9.65072
53	-9.65141
▁በኢየሩሳሌም	-9.65148
▁ይገባል	-9.65218
="5	-9.65252
▁ምስክር	-9.65336
iz	-9.65395
▁ነሐሴ	-9.65429
ፏ	-9.65523
ፁ	-9.65617
74	-9.65699
ኢትዮጵያ	-9.6575
ace	-9.65782
ሎጂ	-9.65932
▁መብቶች	-9.66022
ደርገው	-9.66095
▁Ningbo	-9.66182
▁Windows	-9.6623
ጀር	-9.66273
▁32	-9.66291
ቤል	-9.66318
▁ለምሳሌ	-9.664
▁APK	-9.66467
▁ማስታወቂያ	-9.66497
ጻፍ	-9.66519
▁ልጥፍ	-9.66564
hu	-9.66657
▁ሂ	-9.6667
▁ሰማ	-9.66926
ረከ	-9.66993
▁ቀደም	-9.67053
▁ከእግዚአብሔር	-9.67112
52	-9.67235
▁የሕ	-9.67276
▁ዲግሪ	-9.67328
▁ግዛት	-9.67464
▁በቂ	-9.6758
▁ክርስቲያን	-9.67673
▁ኀ	-9.67715
▁አባት	-9.6778
▁be	-9.6782
▁ተሸ	-9.6788
▁ዋስትና	-9.67897
▁በብዙ	-9.67916
▁በትንሣኤ	-9.67993
▁እነዚያንም	-9.67999
ob	-9.68076
ሓ	-9.68087
▁ክንድ	-9.68116
ኢዮ	-9.68125
▁አማልክት	-9.68208
min	-9.68229
ላችን	-9.68261
Coin	-9.68406
ላችኋል	-9.68406
ፈለግ	-9.68471
▁አቤቱ፥	-9.6848
ክሊ	-9.68517
መላክ	-9.68527
▁እንጀራ	-9.68573
eb	-9.68581
ሏ	-9.68703
ቀበሉ	-9.68705
ሯል	-9.68784
ቆይ	-9.68786
ቸውንም	-9.68814
ሻሻ	-9.68854
800	-9.68874
▁የሚችሉ	-9.68888
▁በእርስዎ	-9.68911
’	-9.6896
▁አሥራ	-9.68965
ice	-9.68976
av	-9.69013
br	-9.69053
ትምህር	-9.69101
▁ብዬ	-9.69128
ወሰደ	-9.69204
76	-9.69209
ኢየሱስ	-9.69244
ወራ	-9.69329
tor	-9.69364
▁ነበረ፤	-9.6941
ጨር	-9.6943
ጠበቅ	-9.69433
▁የቴክኒክ	-9.69447
ጋሩ	-9.69458
▁ሠራተኞች	-9.69465
ቋቋም	-9.69466
▁ልጁ	-9.69536
▁እንደሚያ	-9.69561
▁ሲሳይ	-9.69574
▁እርስ	-9.69728
ስኮ	-9.69757
81	-9.69838
▁ጥገና	-9.69841
▁ይችላል።	-9.69904
і	-9.69936
▁ግዴታ	-9.69938
ፈጸም	-9.69965
▁የከተማ	-9.70139
ክሩ	-9.7023
▁ጥንካሬ	-9.70231
▁የኤ	-9.70296
ru	-9.70302
▁አማርኛ	-9.70458
▁ማየት	-9.70609
ጠብቁ	-9.70663
ea	-9.70701
ታዘዙ	-9.70728
▁ባለሙያዎች	-9.70756
▁ጥቅምት	-9.70785
org	-9.70793
▁ምሕረት	-9.70809
▁ንጹሕ	-9.70823
▁ሪፖርት	-9.70827
▁አላህንም	-9.70986
▁ያካትታል	-9.71021
▁ይፋ	-9.71069
-10	-9.71167
▁መቼ	-9.712
▁የድር	-9.71205
▁ውይይት	-9.71319
▁መድረክ	-9.71419
▁ግፊት	-9.71437
▁Ar	-9.71445
▁ተጠቃሚዎች	-9.71458
so	-9.71474
እኔ	-9.71575
▁መልሶ	-9.71632
ዓለም	-9.71831
AC	-9.7186
▁ሰጠ	-9.71913
;&	-9.71926
▁2012	-9.71956
ተደረገ	-9.72009
▁ቦርድ	-9.72023
▁ሰከንዶች	-9.72118
1.5	-9.72155
-8	-9.72185
61	-9.72263
ዳችሁ	-9.72271
▁ይባላሉ	-9.7232
▁ኤም	-9.72492
▁ግንቦት	-9.72635
ነፋ	-9.72702
▁ንጉሡም	-9.72705
▁አውሮፓ	-9.72817
▁ዘውታሪዎች	-9.72826
▁ቋሚ	-9.72846
▁አረንጓዴ	-9.72892
▁የሚሻውን	-9.72935
ዋለሁ	-9.72939
ችኋለሁ	-9.73072
ጠጣ	-9.73163
▁ብሉ	-9.73227
ዮሐንስ	-9.73227
▁ቺፕ	-9.7323
▁ቻይ	-9.73244
▁አያውቁም	-9.73253
ገናኙ	-9.73337
78	-9.7342
▁ኤል	-9.73511
▁እንዲሆን	-9.73526
CC	-9.73551
▁ለአንተ	-9.73556
መንግስት	-9.73591
▁EA	-9.73596
▁የፖለቲካ	-9.73596
AT	-9.73648
ፐር	-9.73684
▁ቅንጅቶች	-9.73837
ግብር	-9.73854
▁Al	-9.73882
▁መስከረም	-9.73939
▁ለናንተ	-9.73942
▁ያደረገ	-9.74056
ዬን	-9.74069
ቲክ	-9.74083
▁መውሰድ	-9.74144
▁ጎማ	-9.74164
ኖቹ	-9.74238
ሰብአዊ	-9.74246
2019	-9.74249
63	-9.74337
▁ችግሮች	-9.74348
ba	-9.74367
▁1000	-9.74433
54	-9.74434
▁The	-9.74437
▁ዕድሜ	-9.74454
▁በከፍተኛ	-9.74549
ኹ	-9.74737
ጨመር	-9.74739
▁‹	-9.74748
▁ውሳኔ	-9.7476
▁ርዕስ	-9.74761
▁ሳጥን	-9.74774
›	-9.74841
▁መተግበሪያዎች	-9.74844
▁እርሱም።	-9.74997
ማኅበ	-9.75064
▁ስድስት	-9.7509
▁አማራጮች	-9.75171
▁በቀጥታ	-9.75172
▁ኤክስ	-9.75194
▁ነፋስ	-9.75205
▁ዋናው	-9.75226
▁ታስ	-9.75265
▁አስተማማኝ	-9.75275
▁ኣ	-9.75292
5%	-9.75325
79	-9.75375
▁150	-9.75384
gr	-9.75388
▁ቀጠሮ	-9.75444
ev	-9.75528
▁አዘጋጅ	-9.75579
▁ነጥብ	-9.75691
93	-9.75698
▁መነሻ	-9.75715
▁እስከሚ	-9.75748
▁Sp	-9.75769
ዑ	-9.75792
type	-9.75795
▁ጎን	-9.75811
▁ከርሱ	-9.75968
▁አይደለም።	-9.7604
▁በላጭ	-9.7604
lot	-9.7609
2.5	-9.7611
TC	-9.76197
▁ፀሐይ	-9.7621
▁የምስክር	-9.7621
▁ምክሮች	-9.76213
tt	-9.7622
▁አግኝ	-9.76234
ind	-9.76298
▁የእርሱ	-9.76528
EN	-9.7655
▁አስመ	-9.76552
▁መመለሻ	-9.76629
▁ማመልከቻ	-9.76629
▁በአንተ	-9.76699
ነዚህ	-9.76749
ain	-9.76807
ass	-9.76892
▁ሠራ	-9.76948
ፕሮግራ	-9.76973
እንግሊዝ	-9.77046
▁በፍጥነት	-9.77155
▁ንቁ	-9.77194
በረታ	-9.77196
ያችሁ	-9.77241
are	-9.77306
nd	-9.77341
▁የሽያጭ	-9.77352
sc	-9.77417
IT	-9.77432
ቆሙ	-9.77442
ust	-9.77447
oc	-9.77459
▁በእውነቱ	-9.77472
ኪያ	-9.77558
▁ደራሲ	-9.77578
▁ስህተት	-9.77683
▁ክፍት	-9.77737
▁የኾነን	-9.77745
ወረድ	-9.7776
ደርጋ	-9.7779
▁በሁሉም	-9.7779
si	-9.77796
ጣጣ	-9.77869
▁ፍለጋ	-9.77896
አካባቢ	-9.77897
▁መፍትሔ	-9.78002
yl	-9.78015
▁ረጅም	-9.78024
▁ለሰዎች	-9.78053
ገለግ	-9.78103
ኡ	-9.78104
▁የጋራ	-9.78111
au	-9.7815
ኒክ	-9.78166
ላችኋለሁ	-9.78168
MP	-9.78181
▁አማካኝነት	-9.78215
▁ቃላት	-9.78218
ቀርብ	-9.78406
ሰበሰቡ	-9.78457
ኼ	-9.78535
▁ወንዞች	-9.78536
▁ማህበረሰብ	-9.78545
▁ያሉትን	-9.78584
▁ንግግር	-9.78594
ህወሀት	-9.78749
▁ከሰዓት	-9.78751
SA	-9.78765
▁በሰው	-9.78775
▁የፈጠራ	-9.78831
▁ይልቁንም	-9.78856
▁አሉ።	-9.78891
▁የአሜሪካን	-9.78921
ፈቃ	-9.78981
▁ዶሴ	-9.79089
▁በአላህም	-9.79158
▁የእሳት	-9.792
ኖቻቸው	-9.79285
han	-9.79297
▁ልታ	-9.79529
▁ትውልድ	-9.79566
▁ዲዛይን	-9.79645
bu	-9.79752
▁ወንዝ	-9.79756
ቀመጡ	-9.79771
ST	-9.79862
▁አመሰግናለሁ	-9.79934
▁ኤስ	-9.79942
af	-9.79961
int	-9.80001
ore	-9.80038
▁ትልቁ	-9.80049
▁ጠብ	-9.80188
▁ጣቢያዎች	-9.80301
RO	-9.80309
አንደኛ	-9.80331
▁ፓነል	-9.80375
tage	-9.8039
▁ቁሳቁሶች	-9.80478
ታዩ	-9.80576
ዘረጋ	-9.80681
▁አስማሚ	-9.80696
▁ስፋት	-9.80703
ark	-9.80737
▁ወደርሱ	-9.80769
▁አማካሪ	-9.80806
ins	-9.80871
▁የላቀ	-9.80908
▁ለማየት	-9.80941
▁ቁር	-9.80975
eng	-9.8098
ጠየቅ	-9.81015
▁የካቲት	-9.81024
▁እንዳል	-9.81052
▁ሀገር	-9.81103
▁በሰማያት	-9.81143
▁ታዲያ	-9.81154
ect	-9.81293
▁ገሀነም	-9.81353
ልቴጅ	-9.81359
tu	-9.8144
▁ማጣሪያ	-9.81476
▁ዕድል	-9.81523
ፈለጉ	-9.81556
q	-9.81591
ሳዊ	-9.81625
▁ወይን	-9.81644
ID	-9.81647
▁በመጨረሻይቱ	-9.81685
▁ISO	-9.81686
▁ባቡር	-9.8169
ፈቀደ	-9.81711
▁አድርጓል	-9.81794
▁ከላይ	-9.81827
ሞቹ	-9.81834
MS	-9.81857
ዘነ	-9.8186
cl	-9.81925
መቻ	-9.81991
ፋይ	-9.82059
▁ሞተ	-9.82113
ፊዎች	-9.8212
▁ውሂብ	-9.82126
ib	-9.82145
ጋቢ	-9.8217
▁ትክክል	-9.82237
▁ቡድኖች	-9.82349
▁ጥቅሞች	-9.8235
ord	-9.82518
ሊያ	-9.82531
ance	-9.82578
▁በራስ	-9.82624
PC	-9.8263
▁ደስታ	-9.82681
ox	-9.82752
▁ክብ	-9.82759
91	-9.82797
ኖረ	-9.82859
▁Pa	-9.82876
▁አገልጋይ	-9.83016
▁ማሸግ	-9.83023
62	-9.83068
▁አመጣ	-9.83108
▁ለሁሉም	-9.8313
▁ንባብ	-9.83261
▁ስምምነት	-9.83266
go	-9.83343
▁ከእስራኤል	-9.83352
▁እድገት	-9.83353
▁እኩል	-9.83378
▁http	-9.83445
▁ያለበት	-9.8355
▁የማይዝግ	-9.8358
▁Po	-9.83598
▁በመሆኑ	-9.83605
do	-9.83624
▁አሳማሚ	-9.8369
▁ውሸት	-9.83694
▁የሚከተሉት	-9.83695
TS	-9.83708
▁ፕላ	-9.8372
▁Me	-9.8374
',	-9.83759
ነፃ	-9.83762
ምዕራብ	-9.83811
▁የነበሩትን	-9.83811
▁ኮሌጅ	-9.83915
▁እነሱን	-9.83988
▁ፈጠራ	-9.84122
▁የሚፈልጉ	-9.84144
be	-9.84151
▁መለያዎች	-9.84178
ጠበቀ	-9.84197
92	-9.84233
▁አለመ	-9.84238
▁በማንኛውም	-9.84244
▁ግድግዳ	-9.84254
▁ያልሆነ	-9.84257
▁We	-9.84291
ak	-9.84309
ግዛ	-9.8434
82	-9.84414
6"	-9.84482
▁ስፖርት	-9.84507
▁ገብ	-9.84574
lay	-9.84618
▁የቀረበ	-9.84631
▁ኢየሩሳሌም	-9.84708
▁አይችሉም	-9.84708
ial	-9.84715
▁ኩባንያዎች	-9.84735
83	-9.84765
▁አደረግን	-9.84799
▁የምንዛሬ	-9.84821
ock	-9.84911
▁በሕይወት	-9.84938
ግቡ	-9.85035
our	-9.85102
ጠብቅ	-9.85103
▁ጠራ	-9.85112
▁ቋንቋዎች	-9.85116
▁ለእስራኤል	-9.85163
0.2	-9.85198
▁መልክተኛውን	-9.85274
▁ተደርጓል	-9.85278
▁ሩሌት	-9.85393
ke	-9.85413
▁ከዚህም	-9.85472
ጌጥ	-9.85489
▁አገኘ	-9.85489
ፕላ	-9.85556
ስታን	-9.85602
▁አስደናቂ	-9.85621
▁ደቡብ	-9.85622
▁ፈጣሪ	-9.85624
▁you	-9.8568
▁አልባ	-9.8568
▁ይጠይቁ	-9.8572
▁ባላ	-9.85799
▁ዳዊትም	-9.85877
መገንባት	-9.85973
▁አየሁ	-9.85992
port	-9.86055
tur	-9.86069
out	-9.86123
▁FS	-9.86147
▁Te	-9.86211
ነገረ	-9.8627
▁የሆነውን	-9.86281
▁በተጨማሪ	-9.86342
2.0	-9.86365
▁ያዕቆብ	-9.86428
▁ዓይን	-9.86493
ስፖ	-9.86536
da	-9.86538
▁ጥሬ	-9.86554
+	-9.86557
▁መካከለኛ	-9.86557
8"	-9.86561
ሮቻቸው	-9.86664
ሞቱ	-9.86846
መሆኑ	-9.86848
▁በነበሩት	-9.86892
▁ማሽኖች	-9.8701
lic	-9.87103
ቆዩ	-9.87188
▁ጉብኝት	-9.87241
▁La	-9.87253
▁ክፍያዎች	-9.87265
▁እንዳት	-9.87279
▁የተነሣ	-9.87284
ገንዘብ	-9.87401
▁እግር	-9.8756
▁ጥረት	-9.87599
▁በአየር	-9.87652
▁የተጠበቀ	-9.87687
▁የተፈጠረ	-9.87792
ገናኘ	-9.87821
▁ማስታወሻ	-9.87826
▁80	-9.87831
▁ደህና	-9.87833
mi	-9.87873
▁ኢየሱስም	-9.87877
ni	-9.87886
▁ለመፍጠር	-9.87944
▁ተመልከት	-9.87948
▁pro	-9.87997
▁ዕቅድ	-9.88064
▁አዲሱ	-9.88168
-5	-9.88168
▁ሳምንት	-9.8818
▁ርቀት	-9.88201
▁ሰሚ	-9.88255
▁ተኳሃኝ	-9.88296
▁የተባለ	-9.88336
lu	-9.88375
▁ፈሳሽ	-9.88414
ወርድ	-9.8856
▁ፀረ	-9.88587
▁እናቀርባለን	-9.8865
▁አቅጣጫ	-9.88651
ወዱ	-9.88675
▁ከሚያ	-9.88684
ለፉ	-9.887
ቶቻቸውን	-9.88743
▁Casino	-9.88768
▁አሉት።	-9.88796
▁ቢሮ	-9.88885
▁መለኪያ	-9.88889
▁ቱቦ	-9.88932
ዘዝ	-9.8899
▁ለእርሱም	-9.89008
▁ተናገረ	-9.89064
▁ጭፍሮች	-9.89125
▁ያውቃሉ	-9.89129
▁አዎ	-9.89162
ron	-9.8923
▁ጫፍ	-9.89232
▁ይሆናሉ	-9.89243
▁አውታረ	-9.89244
ገዢ	-9.89359
ካሄድ	-9.89362
fr	-9.89368
▁ቁማር	-9.89369
▁መሪዎች	-9.89456
84	-9.89624
ዩኒቨርሲቲ	-9.89738
▁ቅርጽ	-9.89825
▁መፍጠር	-9.89844
▁ጋዝ	-9.89945
94	-9.89958
▁ፓምፕ	-9.89963
▁ይመጣል	-9.90034
▁ከምድር	-9.90086
▁የራሱ	-9.90173
ገደሉ	-9.90176
ሸፍ	-9.90295
EC	-9.90433
▁በቅርቢቱ	-9.9044
▁አስተዳዳሪ	-9.90521
▁ቀዳሚ	-9.90561
pp	-9.90594
▁ቢኾን	-9.90633
▁ግብር	-9.90693
ዎታል	-9.907
ታዘዝ	-9.9083
log	-9.9088
▁USD	-9.9105
ፖለቲካ	-9.91087
▁አደረጉ	-9.91177
ቃቸው	-9.91183
form	-9.912
▁የፀሐይ	-9.91286
▁ይሁዳ	-9.91303
mg	-9.91312
▁70	-9.91334
▁ላከ	-9.91435
ኮር	-9.91445
UR	-9.91479
▁አስቀ	-9.91633
300	-9.91636
▁ፎቶዎች	-9.9164
መልስ	-9.91682
አዋቂ	-9.91711
ጠፍ	-9.9173
▁Se	-9.91787
▁ወንድሞች	-9.91849
ፕሮ	-9.91975
▁ይሰማ	-9.91993
ran	-9.91994
MA	-9.92
ነጻ	-9.92008
▁ጆሮ	-9.92027
▁2011	-9.92068
▁ቀስ	-9.92089
ኀ	-9.92128
ዒ	-9.9213
▁ታች	-9.92209
▁ደቂቃ	-9.92282
▁ኤሌክትሪክ	-9.92298
▁ጦርነት	-9.92334
▁ሽልማት	-9.92385
act	-9.92451
gen	-9.92461
▁ዘዴ	-9.92466
▁Br	-9.92476
▁ተፈጥሯል	-9.92508
ON	-9.92523
▁የእስራኤልን	-9.92562
ጉር	-9.92583
▁መፍትሄ	-9.92631
▁ይሄ	-9.92698
ue	-9.92709
▁ተሞክሮ	-9.92754
▁ባለብዙ	-9.92755
▁በዙሪያ	-9.92757
▁ጕ	-9.92794
▁በተመሳሳይ	-9.92878
▁ስነ	-9.92955
ጫወት	-9.93017
ስማማ	-9.93074
▁ጠጅ	-9.93157
$	-9.93281
ci	-9.93364
▁ቁቃፊ	-9.93373
▁ንብርብር	-9.93385
ኖራቸው	-9.93397
▁ፊልም	-9.93452
▁የደህንነት	-9.93497
3.5	-9.93499
ከባቢ	-9.93545
ታለን	-9.93576
-0	-9.93597
▁አንዳች	-9.93606
▁የተሰጠው	-9.93647
ነዚያ	-9.93716
▁ጨርቅ	-9.93759
▁የፈጠረ	-9.93875
▁አምላክህ	-9.93932
▁የወይን	-9.93947
ረዋል	-9.9398
ኰ	-9.93994
▁ካርታ	-9.94045
▁Facebook	-9.94244
ep	-9.94248
ማሻሻያ	-9.94259
▁ባንክ	-9.94296
▁ስትራቴጂ	-9.94369
ase	-9.94388
ኾ	-9.94393
▁Play	-9.94459
▁ምስሎች	-9.945
▁ጥፋት	-9.94508
▁ከሁሉ	-9.94521
▁በሰማይ	-9.94546
ዎቻችሁ	-9.9463
ل	-9.94746
fer	-9.94757
ጽዋ	-9.94865
▁አፈጻጸም	-9.94872
▁ድንኳን	-9.94872
▁ያልሆኑ	-9.94886
ነጋገር	-9.9491
ዎቻችን	-9.94972
ፑ	-9.94997
▁የእነዚያ	-9.9503
AL	-9.95106
ሚሜ	-9.95207
air	-9.95248
▁ይምረጡ	-9.9525
ማችሁ	-9.95257
▁በዚያን	-9.95294
▁ሰባ	-9.95379
ier	-9.95399
▁ያወጣ	-9.95414
▁መዋቅር	-9.95503
▁ሁለተኛው	-9.95539
OR	-9.95555
▁የተጠ	-9.95625
▁ሳኦል	-9.9563
zhou	-9.95634
▁የስፖርት	-9.9564
ሞከር	-9.95674
▁በፍጹም	-9.95757
▁ጉባኤ	-9.95757
▁፪	-9.95795
ተወሰነ	-9.958
▁የማስ	-9.95859
ያምኑ	-9.95917
▁ባህሪ	-9.95947
▁ይሠሩት	-9.9601
▁ብላ	-9.96019
ከሓዲዎች	-9.96022
ሚከተለው	-9.96154
ወጥ	-9.96167
▁የሆነው	-9.96233
▁ማንኛውንም	-9.96266
▁ስትኾኑ	-9.96267
ሎቹ	-9.96332
ا	-9.96393
ዲጂታል	-9.96522
▁ሮድ	-9.96527
▁ቢያንስ	-9.96566
▁300	-9.96573
▁is	-9.96697
▁ቀኖች	-9.96744
▁የአውሮፓ	-9.96779
▁እርም	-9.96813
▁ባትሪ	-9.96842
-6	-9.96884
▁iPad	-9.96906
እውነት	-9.97034
ı	-9.97035
▁ወንጌል	-9.97035
▁የሠራዊት	-9.97164
ረፋ	-9.97207
▁ነው፡፡	-9.97238
▁ሕክምና	-9.97292
እዛ	-9.97395
▁አብዛኞቹ	-9.97421
ቸር	-9.97462
SS	-9.9749
ተቀመጠ	-9.97525
መቁረጥ	-9.97552
▁መንገ	-9.97618
▁አድር	-9.97639
▁አጠፋ	-9.97674
▁እርግጠኛ	-9.9768
▁እነሆም፥	-9.97707
▁አስፈራሪ	-9.9781
▁ገነቶች	-9.97836
▁የተለየ	-9.97839
▁AC	-9.97939
▁ሥልጣን	-9.97939
▁ቅንብሮች	-9.97939
day	-9.97973
▁Le	-9.98173
ሼ	-9.98199
መንግሥት	-9.98298
▁በተለያዩ	-9.98301
▁ለእናንተም	-9.98316
KV	-9.9833
emb	-9.98339
▁ነገድ	-9.98374
▁ባንተ	-9.98432
መጽሐፍ	-9.98433
cr	-9.98546
▁ቧንቧ	-9.9859
OS	-9.98592
▁ሲሉ	-9.98606
▁መስክ	-9.98634
▁፩	-9.98644
▁በራሱ	-9.98675
ጠቀም	-9.98776
ጸና	-9.98783
▁Be	-9.98853
▁የውስጥ	-9.98877
▁FX	-9.98907
▁ወጣት	-9.98913
ካይል	-9.98942
▁250	-9.99001
▁ድርብ	-9.99012
በደለ	-9.99076
▁መልክተኞች	-9.99145
ሟል	-9.99189
▁ኮር	-9.99213
▁መረጃዎች	-9.99231
▁Free	-9.99295
0.1	-9.99392
ፕሬ	-9.99406
▁ሞባይል	-9.99509
▁ላክ	-9.99566
▁ስትኾን	-9.99642
▁ውስጣዊ	-9.99773
▁ህዝብ	-9.99775
▁ያዙ	-9.99783
▁ጌታቸው	-9.99792
▁የአሁኑ	-9.99831
▁ትርፍ	-9.99923
ጓዝ	-9.99982
ld	-10.0012
ወሩ	-10.0013
▁በእነርሱም	-10.0014
▁ለርሱ	-10.0022
ንግድ	-10.0023
፫	-10.003
▁ነገሥታት	-10.003
▁ያገኛሉ	-10.003
▁ከሌሎች	-10.0031
ቀረቡ	-10.0032
▁መደብ	-10.0035
▁ሚዛን	-10.0045
▁አሳይ	-10.005
▁እውነታ	-10.0051
▁ከፊሉ	-10.0058
▁መልእክት	-10.0061
ገጽ	-10.0063
ዋለን	-10.0066
▁con	-10.0067
ጳ	-10.007
sta	-10.0078
ቆራ	-10.0083
▁ሰነዶች	-10.0084
▁መብራት	-10.0084
▁ያደርገዋል	-10.0097
ጥበብ	-10.0098
▁ራሱን	-10.0102
▁አወጣ	-10.0109
ens	-10.011
▁ጓደኛ	-10.0112
▁ጠላት	-10.0114
▁ደግ	-10.0114
▁ተቀባይነት	-10.0121
▁ቅድሚያ	-10.0124
▁በናንተ	-10.0125
▁ተመለሱ	-10.0129
▁ከአላህም	-10.0133
▁እርስዋም	-10.0133
ስተዋ	-10.0137
▁ለመስጠት	-10.0137
ሶቻቸው	-10.0141
ከታተ	-10.0144
ታወቅ	-10.0149
▁ንቅሳት	-10.0151
▁አካላት	-10.0151
▁በአላህና	-10.0155
ies	-10.0164
▁የጉዞ	-10.0164
▁ብዙዎች	-10.0174
ዯ	-10.0178
▁መልዕክት	-10.0191
▁አልተቻለም	-10.0191
▁የይሁዳ	-10.0191
ነታቸው	-10.0192
ረጅም	-10.0197
ኽ	-10.0205
▁በእነዚያ	-10.0207
fe	-10.021
ቃችሁ	-10.0213
▁አውራ	-10.0214
▁በይሁዳ	-10.0218
▁2000	-10.0218
MO	-10.0219
ተሮች	-10.022
kg	-10.0222
▁መኖር	-10.0227
ማንኛውም	-10.0234
ራለን	-10.0254
▁የተሰራ	-10.0257
▁የነበሩ	-10.0259
▁ምዝገባ	-10.0259
▁አግባብ	-10.026
ጠይቃ	-10.0271
ES	-10.0272
`	-10.0272
አውስትራሊያ	-10.0272
▁ቆዳ	-10.0277
ችሁት	-10.028
ሰማያትንና	-10.0286
▁ሂድ	-10.0293
▁Vi	-10.0294
ፖርት	-10.0297
ፈለገ	-10.0298
ኮምፒውተር	-10.03
▁እምላለሁ	-10.03
▁ብክለት	-10.03
▁Con	-10.0318
▁የሙያ	-10.032
መጸ	-10.0324
ish	-10.0326
▁ተጽዕኖ	-10.0327
▁ወዲያውም	-10.0329
PE	-10.033
▁ባዶ	-10.0338
▁ልውውጥ	-10.0341
can	-10.0343
▁ባየ	-10.035
▁በጌታቸው	-10.0351
▁አገናኝ	-10.0352
▁ወዲህ	-10.0355
▁ቅርብ	-10.0355
ግዱ	-10.0355
▁ምሕረትን	-10.0356
vo	-10.037
▁ዝግጁ	-10.0383
▁ተማሪ	-10.0384
ዕራ	-10.0397
ton	-10.0403
▁እንደዚሁም	-10.0407
▁መከላከያ	-10.0408
ያችን	-10.0412
▁ቍ	-10.0414
▁የመጣ	-10.0423
▁መሰረታዊ	-10.0423
▁ሶላትን	-10.0423
▁ቁመት	-10.0425
▁በዓል	-10.0437
▁ክወና	-10.0437
ዞር	-10.0449
▁መጥቶ	-10.0453
lor	-10.0466
▁አጭር	-10.0472
▁ዩኒቨርሲቲዎች	-10.0476
▁እሷ	-10.0487
▁በሁለቱ	-10.0493
ጣቸው	-10.0503
▁ዩክሬን	-10.0507
▁ጥልቅ	-10.0507
▁ሀያ	-10.0511
▁አስታውሱ	-10.0512
line	-10.0512
▁Fl	-10.0513
▁እንስሳ	-10.0514
ዋችሁ	-10.0526
▁Wi	-10.0527
▁አልላቸው	-10.0531
ፈልገው	-10.0533
▁Chapter	-10.0534
▁ደመና	-10.0535
▁አብረው	-10.0537
አፍሪካ	-10.0542
▁ቅድመ	-10.0549
▁Cl	-10.0549
ear	-10.0559
LE	-10.0561
▁በአጠቃላይ	-10.0561
ሑ	-10.0562
▁ሰራተኞች	-10.0563
▁ኤች	-10.0573
ors	-10.0575
▁ውፍረት	-10.0576
▁ዜጎች	-10.0577
ወጣው	-10.0582
▁ለማሻሻል	-10.0591
ወስድ	-10.0597
ኋቸው	-10.0604
ስፋፋ	-10.0605
▁ከአንድ	-10.0609
▁የጦር	-10.0609
ከለክ	-10.0619
0.5	-10.0626
hen	-10.0633
▁ሕዝቡም	-10.064
▁Hu	-10.0641
ical	-10.0642
▁ታይ	-10.0648
▁ቍርባን	-10.0661
▁እድል	-10.0664
▁ማነው	-10.0675
▁በሌሊት	-10.0689
▁የህዝብ	-10.0689
▁የመንጃ	-10.0692
ኤሌክትሮኒክ	-10.07
ዩኤስ	-10.0704
ጠቃ	-10.0707
▁የቪዲዮ	-10.0708
ps	-10.0717
▁የላቸውም	-10.0718
▁ተገዙ	-10.0726
▁የተደረገ	-10.0731
▁አመጸኞች	-10.0732
▁Ethiopia	-10.0739
ya	-10.0742
ሯ	-10.0743
፻	-10.0746
undo	-10.0747
ተጨማሪ	-10.0758
▁ፕሮጀክቶች	-10.0761
▁ታህሳስ	-10.0761
▁የመረጃ	-10.0761
▁አስቀድሞ	-10.0762
▁በከተማ	-10.0763
አእምሮ	-10.0766
ings	-10.0769
መረጡ	-10.0769
ሳችን	-10.0771
▁ያደረገው	-10.0774
▁መሠረታዊ	-10.0775
▁አስቸጋሪ	-10.0775
TO	-10.0777
CO	-10.0779
ፖሊስ	-10.0787
view	-10.0789
ጓደ	-10.0791
▁ስለሆነ	-10.0794
▁የመኖሪያ	-10.0797
▁ታላቁ	-10.0798
▁የለም።	-10.0803
▁ካህኑ	-10.0804
ጠጡ	-10.0808
▁Ba	-10.0812
▁ሶስት	-10.0814
▁ጓዶች	-10.0818
▁ናሙና	-10.0819
="6	-10.0827
▁በልቦቻቸው	-10.0832
▁መልአክ	-10.0832
ቻለ	-10.0837
▁ማጉያ	-10.0847
አንድ	-10.0848
▁ዩሮ	-10.0854
፲	-10.0861
▁አጋጣሚ	-10.0861
▁እውነቱ	-10.0862
▁አስቀምጥ	-10.0862
▁አመራር	-10.0864
▁ቤተሰቦች	-10.0876
▁ክፍ	-10.0878
ንቀሳቀስ	-10.089
▁ሚኒስትር	-10.089
▁Un	-10.0897
ሚክ	-10.0901
с	-10.0905
▁መስመሮች	-10.0905
ጠብቃ	-10.0908
inter	-10.0911
ቋል	-10.0917
-12	-10.0918
ng	-10.0918
CL	-10.0919
▁ጥላ	-10.0922
▁ህይወት	-10.0923
▁ልዩነት	-10.0923
▁የተመሠረተ	-10.0929
for	-10.0931
ኚ	-10.0934
▁አሸናፊው	-10.0941
SP	-10.0953
ገሥ	-10.0958
▁ቤተሰብ	-10.0961
▁Microsoft	-10.0963
▁ጳውሎስ	-10.0963
▁በባሕር	-10.0963
▁ምንጮች	-10.0963
▁አድርገን	-10.0964
▁ቅጽ	-10.0964
▁33	-10.0966
▁ሙሴም	-10.0972
ated	-10.0982
▁የራስ	-10.0984
ي	-10.0992
ቻለሁ	-10.1008
ማመን	-10.1009
▁ጀርመን	-10.1012
▁He	-10.1013
▁ውጣ	-10.1015
▁በእርሷም	-10.1016
pf	-10.102
ሕይወት	-10.1022
▁ኒው	-10.1023
▁ለሚያ	-10.103
▁በአውሮፓ	-10.1031
▁መርፌ	-10.1038
▁ግድ	-10.1039
▁ደቀ	-10.1039
HA	-10.104
▁Pr	-10.1042
▁ተጠቃሚ	-10.1042
▁To	-10.1043
▁የእስራኤልም	-10.1047
aw	-10.1048
▁ስራዎች	-10.1048
▁ነቢዩ	-10.1051
▁መጠበቅ	-10.1055
መጣላቸው	-10.1056
▁Ac	-10.1063
ጀምር	-10.1064
▁የእጅ	-10.1065
▁ስልጣን	-10.1066
ቴክኖሎጂ	-10.1068
▁በፊቱ	-10.1074
▁እንቅስቃሴዎች	-10.1079
▁ቍጣ	-10.108
▁መጽሐፉን	-10.108
▁ህክምና	-10.108
▁የሙቀት	-10.108
▁ሕንፃ	-10.108
▁መልክተኛው	-10.1081
ik	-10.1082
AP	-10.1093
▁ሞዴሎች	-10.1095
▁ጠፍቷል	-10.1095
ድስት	-10.11
▁ቪዲዮዎች	-10.1102
መስል	-10.1105
▁125	-10.1107
▁የፍቅር	-10.111
▁ምርጫዎች	-10.1139
▁የሕዝብ	-10.114
ጎዳ	-10.1144
ick	-10.1154
ሸሹ	-10.1162
▁ይጠቀሙ	-10.1162
▁የአምላክ	-10.1162
ok	-10.1163
▁ውጪ	-10.1163
▁ያለንን	-10.1164
ኮሩ	-10.1166
▁ፋይበር	-10.1169
▁ምቹ	-10.1174
▁ከነሱ	-10.1179
ሪያዎች	-10.1191
ቨ	-10.1191
ስገድ	-10.1192
sion	-10.1202
▁ላክን	-10.1204
▁ወለደ	-10.1212
መሳሰሉ	-10.1214
▁አልጋ	-10.1221
▁ጨለማ	-10.1222
ጨዋታ	-10.1223
ating	-10.1227
▁ያለፈ	-10.1228
▁ነፍሶቻቸውን	-10.1229
▁ነቢያት	-10.1229
▁መላኪያ	-10.1229
ቆጠ	-10.1236
▁በነጻ	-10.1243
▁ተግባራት	-10.1244
▁ኢያሱ	-10.1244
▁ካሬ	-10.1248
EL	-10.1252
▁ህግ	-10.1255
▁መመለስ	-10.1256
▁ነፍሴ	-10.126
ct	-10.1261
▁አሥር	-10.1263
▁ቅይጥ	-10.1274
▁አምሳ	-10.1275
ፐ	-10.1281
mon	-10.1281
ug	-10.1282
1.2	-10.1287
▁በየቀኑ	-10.1289
▁ለመሆን	-10.129
▁የሌለው	-10.1292
▁ሰዎቹ	-10.1295
▁እውነተኞች	-10.1304
▁መሠዊያ	-10.1319
▁ከጌታህ	-10.1319
አስተዳደ	-10.1319
ሁለተኛ	-10.1321
▁በደል	-10.1324
▁አእምሮ	-10.1329
▁ሚኒ	-10.1332
▁Generator	-10.1334
▁ሥራዎችን	-10.1335
▁በርሷ	-10.1337
ሰጣችሁ	-10.1344
▁መመሪያዎች	-10.1344
\	-10.1349
ረቡ	-10.1352
▁ዕጣ	-10.136
▁ተለዋዋጭ	-10.1365
▁ይመስላል	-10.1365
ሃይማኖት	-10.1379
ጠቁ	-10.1383
ree	-10.1386
▁ሙሳም	-10.1387
р	-10.1395
አብዛኛው	-10.1398
gu	-10.1399
▁ተናጋሪ	-10.1411
und	-10.1411
ቡድ	-10.1411
▁እርምጃዎች	-10.1414
ሎቻቸው	-10.1422
▁ስሜ	-10.1425
▁መድሃኒት	-10.1434
▁አይደለሁም	-10.1441
▁ጦማር	-10.1441
oll	-10.1442
▁እርሻ	-10.1448
ger	-10.145
▁ታውቃላችሁ	-10.1456
▁ያስፈልጋል	-10.1456
▁ይገኛሉ	-10.1457
▁ለማረጋገጥ	-10.1459
ረኞች	-10.1475
▁የነበረ	-10.1477
ደርሱ	-10.148
▁በማይ	-10.1482
▁ዓይኖች	-10.1487
0.00	-10.1501
▁መለዋወጫዎች	-10.1501
ile	-10.1502
▁ሰዓታት	-10.1502
▁ያነሰ	-10.1505
ደገፍ	-10.1507
▁ተከተሉ	-10.1509
▁ምንዛሬ	-10.1518
▁ጣዖታት	-10.1518
▁ከእነዚህ	-10.152
▁የተነሳ	-10.153
▁መቀመጫ	-10.1533
▁ዕይታ	-10.1534
▁ካለው	-10.1556
▁ኢኮኖሚ	-10.1558
ያረጋግጡ	-10.1564
▁የበረራ	-10.1566
▁ይግቡ	-10.157
3.0	-10.1571
du	-10.1575
▁ይቅር	-10.1579
▁ተጫዋቾች	-10.158
▁እንጨት	-10.1581
መልእክ	-10.159
▁በእያንዳንዱ	-10.1591
▁እፈልጋለሁ	-10.1595
ማዕከላዊ	-10.1595
▁ኃላፊነት	-10.1623
ኢንቨስትመንት	-10.1626
ምሳሌ	-10.1628
▁ጠቅላይ	-10.163
ቃጠል	-10.163
▁ርስት	-10.1634
ነበራችሁ	-10.1639
▁መገለጫ	-10.1642
700	-10.1658
▁ለውጦች	-10.1658
ka	-10.1665
ምርጫ	-10.1666
▁ስደተኞች	-10.1673
▁ምንንም	-10.1679
ካቸው	-10.1688
▁የለበትም	-10.1689
ደነገ	-10.1696
▁RFID	-10.1704
ከናወን	-10.1705
▁ማተሚያ	-10.1705
▁ደቂቃዎች	-10.1718
ተዉ	-10.1726
ያስፈልግ	-10.1731
▁For	-10.1732
▁ሕዝቡን	-10.1736
▁ፍርሃት	-10.1736
▁የተፈጥሮ	-10.1736
ዘጋጃ	-10.1738
ga	-10.1739
▁ሰሎሞን	-10.1752
▁በቅርቡ	-10.1752
▁የሚቆጠሩ	-10.1752
▁ለማወቅ	-10.1754
▁ወዲያ	-10.1759
▁ማሸጊያ	-10.1783
▁ለስላሳ	-10.1783
▁ሳይንሳዊ	-10.1783
▁ነቢይ	-10.1783
▁እያሉ	-10.1784
▁የአፍሪካ	-10.1787
▁መምረጥ	-10.1799
▁ምድቦች	-10.1799
ያለሁ	-10.1807
▁ተመልካች	-10.1815
box	-10.1818
▁IP	-10.1822
ሺህ	-10.1823
ፈሩት	-10.183
▁በደቡብ	-10.1831
▁የምርምር	-10.1831
▁አምባ	-10.1831
▁HP	-10.1836
▁Pl	-10.1837
▁ዘዴዎች	-10.1844
ቿ	-10.1847
ሄደ	-10.1849
▁$1	-10.1853
▁ብቸኛ	-10.1863
ነገር	-10.187
▁ኮሚቴ	-10.1879
ዶቹ	-10.1881
ሸሸ	-10.1885
▁ወጣቶች	-10.1887
▁ዲሲ	-10.1892
ዎርድፕረስ	-10.1895
▁በውስጣቸው	-10.1895
▁ወገኖች	-10.1895
▁ተሰኪ	-10.1908
▁Rikoooo	-10.1927
▁አካባቢዎች	-10.1928
vel	-10.1931
▁Fi	-10.194
ሠር	-10.1942
▁ባህላዊ	-10.1943
▁ዝግጅት	-10.1959
▁ተዓምር	-10.1959
ah	-10.196
ለህ።	-10.1969
ጣችሁ	-10.1971
▁ያጠፋ	-10.1971
ፋቸው	-10.1975
▁በመስጠት	-10.1992
▁ሣጥን	-10.2008
▁በሌሎች	-10.2008
bl	-10.2011
▁የሚኖሩ	-10.2023
▁ሻጋታ	-10.2024
▁የነበራችሁት	-10.2026
▁የሆኑት	-10.2026
አገልግሎ	-10.2033
▁አብሮ	-10.2034
▁ከሰዎች	-10.2038
ዘጋጁ	-10.204
▁ዝናብ	-10.2048
▁ከንቱ	-10.2052
▁ለማቅረብ	-10.2056
▁አሳልፎ	-10.2056
▁ምንድር	-10.2056
▁ብስክሌት	-10.2065
▁የሞተር	-10.2066
እናንተ	-10.2068
▁መታወቂያ	-10.2072
▁ተቆጣጣሪ	-10.2072
▁መዳረሻ	-10.2072
▁መስካሪ	-10.2073
▁በሥራ	-10.2081
▁ይባላል	-10.2089
▁ምድብ	-10.2093
ተገለጸ	-10.2093
ary	-10.2097
ሊዮ	-10.2097
▁ሲቀር	-10.2098
▁የትኛው	-10.2099
ዞች	-10.21
ome	-10.2101
▁አድርገዋል	-10.2105
▁ፋይሎች	-10.2105
▁ለሴቶች	-10.2106
▁መስራት	-10.2106
▁ፓርክ	-10.2106
▁እዝነት	-10.2106
▁ጭነት	-10.2108
▁ጀርባ	-10.212
▁ፋንታ	-10.2122
▁→	-10.2123
duct	-10.2124
▁አሮን	-10.213
ብርሃን	-10.2134
▁በቤት	-10.2139
አል።	-10.214
ወሰዱ	-10.2141
▁አውራጃ	-10.2143
ለወጥ	-10.2149
▁የቻይና	-10.215
▁ተወዳጅ	-10.2154
▁የአካል	-10.2157
che	-10.217
ድግግሞሽ	-10.2171
over	-10.2184
▁ቆመ	-10.2193
▁ልጆቹ	-10.2194
ስትሮ	-10.2202
▁ራሱ	-10.2203
▁እስክ	-10.2203
old	-10.2203
▁ኃይለኛ	-10.2204
▁አውሮፕላኖች	-10.2204
▁ሚኒስቴር	-10.2204
▁ሙታን	-10.2205
ari	-10.2216
▁[...]	-10.222
▁webmail	-10.222
▁ለመቀነስ	-10.222
▁ዓይነቶች	-10.2237
▁Bo	-10.2242
ከታተል	-10.2246
PR	-10.2253
▁ነጥቦች	-10.2253
▁የቀጥታ	-10.2254
ዌይ	-10.2254
▁የወርቅ	-10.2256
ler	-10.2256
▁እርስዋ	-10.226
▁የተሰጠ	-10.2268
▁እያለ	-10.2271
▁በረራ	-10.2272
ናገረው	-10.2282
▁አርባ	-10.2286
con	-10.2287
▁የተንቀሳቃሽ	-10.2293
ኤምኤ	-10.2293
▁ነበረች	-10.2299
▁ባሪያዎች	-10.23
▁የሞባይል	-10.2303
▁ሆኗል	-10.2303
son	-10.2307
▁ቅጂ	-10.2311
CT	-10.2312
▁የኢኮኖሚ	-10.2313
ሰዋል	-10.2317
2017	-10.2319
▁እንክብካቤ	-10.232
▁ፓስፖርት	-10.232
▁ሦስተኛ	-10.232
▁ሴሜ	-10.2325
ቻይና	-10.2331
▁ሆነ፤	-10.2333
▁እንችላለን	-10.2337
▁ቆንጆ	-10.2337
▁ክፋት	-10.2337
the	-10.2341
▁ኃላፊ	-10.2341
▁ሕዝቡ	-10.2345
ሰጠናቸው	-10.2349
፬	-10.2353
RE	-10.2355
ert	-10.2361
▁ይሆናል፤	-10.2367
▁ለመጀመሪያ	-10.2368
▁ፍጻሜ	-10.237
▁ዘጠኝ	-10.237
▁አጋር	-10.2378
ጎድ	-10.2378
▁እንደሚቻል	-10.238
ግሬ	-10.2387
▁ኀጢአት	-10.2387
▁የሴቶች	-10.2389
ኾናችሁ	-10.2391
▁መጠጥ	-10.2393
ets	-10.2398
▁Holm	-10.2404
▁የተጻፈ	-10.2404
▁ሸለቆ	-10.2404
▁የመጨረሻው	-10.241
▁ልጄ	-10.2416
▁ለመጠበቅ	-10.242
cryptocurrency	-10.2421
▁ለፊት	-10.2429
▁በሁለት	-10.2434
▁የኦሪጂናል	-10.2438
▁ጥቃት	-10.2438
▁2009	-10.2446
use	-10.2447
ብራራ	-10.2452
RA	-10.2453
▁ትብብር	-10.2455
press	-10.2456
በልጥ	-10.2458
▁ስጋ	-10.246
ጌታ	-10.2466
SE	-10.2468
▁ክለሳ	-10.2472
cy	-10.2477
▁ሳያ	-10.2478
ware	-10.2479
▁ዓመታዊ	-10.2489
ound	-10.2505
work	-10.2506
▁ወሳኝ	-10.2506
ium	-10.2512
▁የአንድ	-10.2515
▁በመልካም	-10.2516
▁ዳር	-10.2516
ዮቹ	-10.2518
ከበሩ	-10.252
፭	-10.2523
▁እናመሰግናለን	-10.2523
▁የተዘጋጀ	-10.2527
▁ዚፕ	-10.254
▁የጊዜ	-10.2545
▁120	-10.2553
HS	-10.2553
▁በመስመር	-10.2556
▁En	-10.2557
▁ሰይፍ	-10.2558
▁አስተዋ	-10.2572
▁ፕሬዚዳንት	-10.2574
PP	-10.2574
ኞቻችን	-10.2576
heng	-10.258
▁ብዙውን	-10.2585
▁መንግስታት	-10.2591
▁በማሳየት	-10.2591
▁ከናንተ	-10.2593
0.3	-10.2593
▁የሽቦ	-10.2593
መልሰው	-10.2597
2.1	-10.2601
tch	-10.2602
▁መዛሙርቱ	-10.2608
▁መብራቶች	-10.2608
▁እውቅና	-10.2608
ሁኑ	-10.2616
▁ስርጭት	-10.2626
▁ሰማያት	-10.2627
▁አባቱ	-10.2627
▁ሠሪዎች	-10.263
▁ባለፉት	-10.2634
▁የተመሰረተ	-10.2639
ሸሽ	-10.2658
▁ሰጠነው	-10.2667
ዞሩ	-10.2669
▁በግል	-10.2671
▁አላህንና	-10.2672
ዟ	-10.2677
▁የእንጨት	-10.2677
▁የሚሠራ	-10.268
ማርያም	-10.2682
ማግኘ	-10.2692
▁Psychic	-10.2695
▁ህዳር	-10.2695
ሂድ	-10.2702
ወደደ	-10.2703
▁አድራጊ	-10.2712
▁ስቴት	-10.2714
በቀል	-10.2719
4.5	-10.2726
▁SWGoH	-10.2729
▁ካዋሳኪ	-10.2729
▁በአንድነት	-10.273
▁ይኖራል	-10.273
▁ገዥ	-10.2732
que	-10.274
va	-10.2742
▁ከእነዚያ	-10.2749
▁ሩቅ	-10.276
mic	-10.2763
▁ዮሴፍ	-10.2764
▁ግንዛቤ	-10.2764
▁·	-10.2774
-9	-10.2783
▁የአገልግሎት	-10.2784
▁የሚያደርግ	-10.2793
ወለድ	-10.2811
▁የሙከራ	-10.2817
መቃብር	-10.2818
▁የጥራት	-10.2834
ሙስሊሞች	-10.2834
▁ልጆቻቸው	-10.2834
▁የባለሙያ	-10.2834
▁የቪዛ	-10.2835
▁SP	-10.2836
▁ለእርስዎ	-10.2843
▁ቢኖር	-10.2846
ven	-10.2848
ሸከም	-10.2861
መለክ	-10.2867
▁ስምንት	-10.2869
▁ሙዚቃ	-10.287
▁ሰንሰለት	-10.287
▁በውጭ	-10.287
▁የማዕድን	-10.287
ተፈቀደ	-10.2871
ደረሱ	-10.2872
ጀመሩ	-10.2874
1.0	-10.2877
table	-10.2881
▁የሚገኝ	-10.2886
▁with	-10.2887
ጉዳዩ	-10.2889
▁እዚያ	-10.289
ግዙ	-10.2895
▁ከቤት	-10.29
▁ተነሣ	-10.29
▁አጋዥ	-10.2905
አሜሪካ	-10.2908
▁ሥነ	-10.2913
▁ነህና	-10.2918
▁Capacitor	-10.2923
land	-10.2926
ush	-10.293
▁የሌለ	-10.2936
ግዚ	-10.2939
▁ዲያሜትር	-10.294
▁ግዙፍ	-10.2941
▁ሙያዊ	-10.2942
app	-10.2957
▁በማሽን	-10.2966
ኋችሁ	-10.2971
▁ማዘጋጀት	-10.2977
▁ሙቅ	-10.2989
▁አስደሳች	-10.2994
▁የተወረደ	-10.2995
▁ጦር	-10.2996
▁አባቴ	-10.2997
ትክክለኛ	-10.3003
አንተ	-10.3011
▁Bonus	-10.3012
▁ጴጥሮስ	-10.3012
▁ለማዘጋጀት	-10.3012
ማስተማር	-10.3012
▁መለዋወጫ	-10.3013
▁ወንጀል	-10.3018
▁አንቺ	-10.3021
▁ተቀብ	-10.3027
▁Honda	-10.303
▁አማካይ	-10.303
▁የይለፍ	-10.303
▁ማንበብ	-10.3031
▁ለመጠቀም	-10.3043
ተፈጸመ	-10.3044
ፋብሪካ	-10.3044
ن	-10.3048
▁ምእምናን	-10.3048
▁በታላቅ	-10.3048
ወላጆች	-10.3049
▁የተለመደ	-10.3049
ዓይነ	-10.3057
▁ኮርስ	-10.3061
▁ከጌታችሁ	-10.3066
▁የቀረቡ	-10.3079
▁ኢብራሂም	-10.3084
ail	-10.3084
▁እንግሊዝኛ	-10.3084
ፈዋል	-10.3086
▁ልቦች	-10.3088
▁አያያዝ	-10.3098
ውስጥ	-10.3101
▁ያሳያል	-10.3102
▁ክስተት	-10.3102
oss	-10.3103
1.1	-10.3104
▁መሄድ	-10.3111
▁ባዩ	-10.3111
▁አለኝ	-10.3116
ማህበረሰ	-10.3119
م	-10.312
ጠበቁ	-10.3125
ታወቁ	-10.3135
▁ጩኸት	-10.3138
▁ድርጊት	-10.3138
▁ገጽታዎች	-10.3139
▁ተቀባይ	-10.3143
▁የሚሆኑ	-10.3149
▁ይከጀላል	-10.3156
▁ንዑስ	-10.3156
▁ለማውረድ	-10.3174
▁ስርዓቶች	-10.3174
▁የክፍያ	-10.3174
ኃይል	-10.3175
ker	-10.3175
0.8	-10.3182
ተቃራኒ	-10.3192
▁ማውረድ	-10.3192
▁መግዛት	-10.3193
▁ጽኑ	-10.3197
▁ኮከብ	-10.32
▁ክፍለ	-10.3201
▁ቡና	-10.3206
ሒ	-10.3211
▁ወደእርሱ	-10.3211
ነበር	-10.3221
ign	-10.3232
ጠየቀ	-10.3232
ሳሳቱ	-10.3234
▁86-	-10.324
▁የሚያስችል	-10.3248
ክፍል	-10.3252
ኸኝ	-10.3253
ዷል	-10.3261
▁እንስሳት	-10.3262
▁ሆቴል	-10.3266
ach	-10.3268
hy	-10.3276
▁2008	-10.3277
ወገድ	-10.3278
እነርሱ	-10.3279
▁ያስቀ	-10.3283
መሰግኑ	-10.3284
▁አስተባበሉ	-10.3287
▁your	-10.3297
▁መግለጫዎች	-10.3302
▁ዝና	-10.331
New	-10.3315
▁Mobile	-10.3321
▁ምናባዊ	-10.3321
▁ብለዋል	-10.3326
▁ላንተ	-10.3341
The	-10.3345
ጥቁር	-10.3371
▁መክፈት	-10.3377
ጥራት	-10.3382
▁የሚሰራ	-10.339
▁Phone	-10.3395
▁የባህር	-10.3395
▁ጽድቅ	-10.3396
▁ይቅርታ	-10.3397
ጠየቁ	-10.3397
ይዙ	-10.34
▁ኢትዮጵያዊ	-10.3401
▁እንዳያ	-10.3413
▁ከእንግዲህ	-10.3414
▁የአትክልት	-10.3414
▁ሮለር	-10.3414
▁ማስገባት	-10.3414
▁የተቋቋመ	-10.3418
TR	-10.3419
ወላጅ	-10.3421
፩	-10.3425
ize	-10.3427
ዷ	-10.3429
▁መርከቦች	-10.3432
▁ሀሳብ	-10.3433
▁ምርኮ	-10.3434
▁ይሁኑ	-10.3436
ጀርመን	-10.3446
▁ለሰው	-10.3448
▁ውበት	-10.345
▁ኤሮ	-10.345
▁ክስተቶች	-10.3451
▁የተወሰኑ	-10.3451
ቲክስ	-10.3452
አንዱ	-10.3455
▁በእነዚህ	-10.3456
ተካሄደ	-10.3474
▁ባህል	-10.3477
ገናኝ	-10.3479
▁ብትኾኑ	-10.3479
ቤቶች	-10.3483
▁ረዳቶች	-10.3491
ምእመናን	-10.3507
▁ማጠራቀሚያ	-10.3507
▁በአሜሪካ	-10.3508
▁በመላው	-10.3516
ሞክራ	-10.3521
▁የሩሲያ	-10.3526
መልሱ	-10.3528
▁ፖሊ	-10.353
ካዊ	-10.3537
▁አልፎ	-10.3539
▁መላው	-10.3539
▁ዘላቂ	-10.3545
▁ምግቦች	-10.3545
▁ጥናቶች	-10.3545
ሰላማዊ	-10.3546
▁ታሪካዊ	-10.3564
▁ዝማኔ	-10.3564
መግለጽ	-10.3564
ጠባበቅ	-10.3583
ነገሩ	-10.3584
CAD	-10.3586
▁በመለያ	-10.3586
ተላለፍ	-10.3589
uk	-10.3593
▁ጥርስ	-10.3595
▁ሚያዝያ	-10.3602
▁ይወስዳል	-10.3602
▁በደንብ	-10.3603
ake	-10.3611
▁ለጌታ	-10.3616
▁ማምረት	-10.3621
ED	-10.3623
ዚሁ	-10.3628
▁ስኬት	-10.3628
▁የኾነች	-10.3628
▁ቀጠ	-10.3632
▁ንጥረ	-10.3643
▁ኮርሶች	-10.3643
▁መሙያ	-10.3643
gg	-10.3644
NG	-10.3649
2.7	-10.3653
▁ምዕራፍ	-10.3659
▁እቃዎች	-10.3662
▁እጁን	-10.3662
እንግዳ	-10.3667
▁አብዛኛዎቹ	-10.3678
▁የፓይፕ	-10.3678
▁አያውቅም	-10.3678
▁ሰሌዳ	-10.3678
tri	-10.3683
ለመደ	-10.3685
▁ተመሠረተ	-10.3696
▁ዘገባ	-10.37
ኬቶች	-10.3708
▁አማኞች	-10.3718
▁አወረደ	-10.372
▁ወጥቶ	-10.3722
▁ብለህ	-10.373
▁ሲሆኑ	-10.3731
▁ትንቢት	-10.3736
▁መቅደስ	-10.3736
▁በየዓመቱ	-10.3736
▁ደካማ	-10.3736
▁መክተቻዎች	-10.3755
▁ሥልጠና	-10.3755
▁ال	-10.3755
▁የመሬት	-10.3757
▁ሰሜን	-10.3759
▁የሕግ	-10.3768
▁መንገዱ	-10.3769
2.2	-10.3778
▁የልጆች	-10.378
▁Qu	-10.3781
▁ለመከላከል	-10.3782
ዓመት	-10.3787
ተከተለ	-10.3791
▁መስፈርት	-10.3794
▁ፀጉር	-10.3794
▁ማውጫ	-10.3797
መጀመሪያ	-10.3799
ለግሱ	-10.3801
dia	-10.3802
▁የማያውቁ	-10.381
▁አብዛኞቻቸው	-10.3813
▁ሌዘር	-10.3814
▁ጣፋጭ	-10.3832
መጣላችሁ	-10.3833
▁ማህበር	-10.3833
PF	-10.3835
▁Service	-10.3852
▁ይጫኑ	-10.3852
▁Th	-10.3865
▁ማከማቻ	-10.388
▁ምትክ	-10.3885
▁ልቦቻቸው	-10.3891
▁ለነርሱ	-10.3891
▁ሰዓቶች	-10.3891
▁ተከተል	-10.3906
▁ሽማግሌዎች	-10.3909
—	-10.391
▁ደረቅ	-10.3917
▁ሚዲያ	-10.3919
▁ሰነድ	-10.3919
±	-10.393
▁ከሁለቱ	-10.393
▁ወዴት	-10.3931
ull	-10.3931
▁መስኮት	-10.3931
ነሡ	-10.3948
በይነመረብ	-10.395
▁መታጠቢያ	-10.395
▁መጥተው	-10.3951
▁እጆቻቸው	-10.3969
▁መገናኛ	-10.3969
▁ውስጠ	-10.3971
▁ለሽያጭ	-10.3971
▁አንዴ	-10.3972
▁ይሰራል	-10.3972
አምላክ	-10.3976
▁በውኑ	-10.3978
ችኋቸው	-10.398
እንደ	-10.3983
፪	-10.3983
▁የቤተሰብ	-10.3986
▁በቁማር	-10.3989
▁ሚያዚያ	-10.3989
▁አደርጋለሁ	-10.3991
▁ለሚሻው	-10.3996
▁ልብሶች	-10.3998
▁ተራራዎች	-10.4008
▁ደንቦች	-10.4009
▁ቆሻሻ	-10.4009
6.5	-10.4011
▁አወረድን	-10.4013
▁አግድ	-10.402
rr	-10.4025
▁ግራጫ	-10.4027
▁በሰይፍ	-10.4029
▁የጅምላ	-10.4029
በኞች	-10.4032
ተሻሻለ	-10.4034
▁ተነሥ	-10.4039
▁ስኬታማ	-10.4048
ጠራችሁ	-10.4049
▁አይሁድ	-10.405
▁የጎማ	-10.4055
ፈጠሩ	-10.406
▁ማመን	-10.4066
▁ገደብ	-10.4079
ዓይን	-10.4082
▁የተረጋገጠ	-10.4088
ጠይቁ	-10.4093
las	-10.4095
▁Star	-10.4101
▁ተቀመጡ	-10.4102
አሉሚኒየም	-10.4108
ቤተሰቦ	-10.4115
lect	-10.4117
▁መኾናቸውን	-10.4119
▁ከታች	-10.412
▁የተጠቃሚ	-10.4121
▁መዝሙር	-10.4128
ስልጣን	-10.4129
▁ታይቷል	-10.4131
▁ሃይማኖ	-10.4134
▁ዘርፍ	-10.4137
▁ማስታወቂያዎች	-10.4142
▁ነበረ፥	-10.4143
▁የሚሰጡዋቸውን	-10.4148
ጠቅላላ	-10.4149
▁በምድረ	-10.4149
▁ሰጪ	-10.4153
ቦቹ	-10.4154
UN	-10.4159
▁ኢትዮጵያውያን	-10.416
ኜ	-10.4168
ኻ	-10.4168
▁ስዕሎች	-10.4168
▁ይሰጣሉ	-10.4169
▁በይፋ	-10.4177
CE	-10.4178
▁መጫን	-10.4178
ሐዋርያት	-10.4188
▁ደንበኛ	-10.4188
pcs	-10.419
▁ይጎብኙ	-10.4209
▁አመት	-10.4217
ገራችን	-10.4226
▁ፕሮፌሰር	-10.4229
▁በግብፅ	-10.4229
▁የሚሆነው	-10.423
▁CSGO	-10.4249
▁ስብስቦች	-10.4249
▁አካላዊ	-10.4249
ዴስክቶፕ	-10.4269
▁ክትትል	-10.4269
▁አባቶቻችን	-10.427
▁ጥራ	-10.4282
ቶቼ	-10.4289
▁ሙሐመድ	-10.429
▁ጥርጣሬ	-10.429
ለምኑ	-10.4299
▁ሆንሁ	-10.4304
ዢ	-10.4309
▁ኢነርጂ	-10.431
▁የቅርቢቱ	-10.431
▁በመጨረሻው	-10.4313
አል፤	-10.4316
ክርስቲያን	-10.4317
፳	-10.433
ቀላቀል	-10.4331
▁የተገነባ	-10.4331
▁አንባቢ	-10.4331
▁ብድር	-10.4332
▁ዞን	-10.4336
ቆቹ	-10.4348
▁ተናገሩ	-10.4359
▁ሜዳ	-10.436
ታላቁ	-10.4362
▁አንዳ	-10.4363
wa	-10.4369
ቴሌቪዥን	-10.4371
▁ምድሪቱ	-10.4371
▁አለኝ።	-10.4378
zip	-10.4382
▁Lo	-10.4383
▁ንግሥና	-10.4392
▁ከማይዝግ	-10.4392
▁ራእይ	-10.4392
ዘወትር	-10.4392
▁ሚስቱ	-10.4396
RS	-10.4399
▁ከፈለጉ	-10.4406
▁ለመድረስ	-10.4413
▁ወቅታዊ	-10.4413
▁ሳሉ	-10.4419
▁ደስተኛ	-10.4425
ገሠ	-10.4427
▁ቆይቷል	-10.4433
▁ባለፈው	-10.4435
ፈረሰ	-10.4439
▁ረገድ	-10.4444
ገድሉ	-10.4445
ተቋቋመ	-10.4449
▁ለመርዳት	-10.4454
▁ሠራዊት	-10.4454
ታየው	-10.4468
▁ቀዝቃዛ	-10.4474
▁ቻርተር	-10.4474
▁ሠላሳ	-10.4475
DS	-10.4475
▁ጠላቶች	-10.4476
tter	-10.4493
▁በመሆን	-10.4495
▁ተባባሪ	-10.4496
መፅ	-10.4499
▁ሰልፍ	-10.45
ታመን	-10.4504
▁ያመነ	-10.4512
ራል።	-10.4516
▁አምጡ	-10.4516
IL	-10.4522
▁ማስቀመጥ	-10.4524
▁በክርስቶስ	-10.4537
▁ወለል	-10.4541
ዞረ	-10.4541
▁በረከት	-10.4544
ምግባር	-10.4546
፯	-10.4558
ችኋለን	-10.4558
ence	-10.456
▁አይሆንም	-10.456
▁የሚያስተ	-10.4561
▁Gu	-10.4566
ከፈለ	-10.457
ተዳደር	-10.4577
▁የነዳጅ	-10.4579
▁ለእርሷ	-10.4579
▁Glass	-10.4579
▁ያውርዱ	-10.4579
▁ፓውንድ	-10.4579
ስዊድን	-10.4579
▁ስቃይ	-10.4579
▁መቀበል	-10.4583
▁Lu	-10.4599
▁የዘላለም	-10.46
▁ርካሽ	-10.46
▁ፈጠረ	-10.4602
5.5	-10.4609
▁በሰዎች	-10.4609
መካከለኛ	-10.4618
▁እንድታ	-10.4619
መደበኛ	-10.4619
▁ሕዝቦቼ	-10.4621
▁አምላካችሁ	-10.4621
▁ድንጋጌ	-10.4621
▁ግዢ	-10.4622
▁ሐምሌ	-10.4623
IG	-10.4629
ህይወ	-10.4637
▁ይፈልጋል	-10.4642
▁ፋውንዴሽን	-10.4642
▁ሀሳቦች	-10.4642
▁ካህናት	-10.4642
▁ቀዶ	-10.4647
▁ለአንድ	-10.4662
▁አምላካችን	-10.4663
▁ካርዶች	-10.4663
ሯቸው	-10.4664
▁ግቢ	-10.4666
ቲንግ	-10.4668
▁ሼንዘን	-10.4684
▁ቃለ	-10.4684
▁ቢኾኑ	-10.4689
▁ባህር	-10.469
ተወለደ	-10.4701
▁አውቃለሁ	-10.4705
ወያኔ	-10.4709
▁ቆሞ	-10.4713
▁ጤናማ	-10.4718
az	-10.4726
و	-10.4726
▁ይኾናል	-10.4726
▁ምድረ	-10.473
▁መቀየር	-10.4746
▁ታቦት	-10.4749
▁ለእያንዳንዱ	-10.4767
መደርደሪያ	-10.4769
ሚቀጥለው	-10.4769
ከለከሉ	-10.4769
▁በሕግ	-10.4775
ject	-10.4776
▁ዘመቻ	-10.478
▁ነጋዴዎች	-10.4781
▁የተለጠፈው	-10.4787
▁ይደውሉ	-10.479
▁ድንበር	-10.4791
▁LTD	-10.4812
ወስዱ	-10.4813
▁ለጥፍ	-10.4819
ማጋራት	-10.4825
ትራክ	-10.4833
▁McKnight	-10.4833
▁ስሞች	-10.4834
▁አዘዘ	-10.4839
▁የዚያን	-10.4851
▁ለሌላ	-10.4853
▁ይደረጋል	-10.4855
book	-10.4863
▁አድርጉ	-10.4866
MT	-10.4875
▁የዌብሜይል	-10.4876
ሕፃናት	-10.4876
▁የተማሪ	-10.4876
▁የሌዘር	-10.4877
▁አሞሌ	-10.4878
▁እቅድ	-10.4884
▁ሆስፒታል	-10.4898
ቀርበው	-10.4898
▁የለባቸውም	-10.4898
▁አጥፉ	-10.4901
▁ማስወገድ	-10.4901
▁ሠራሽ	-10.4912
ተኮር	-10.4916
▁Download	-10.4919
▁ግንኙነቶች	-10.492
▁በቅርብ	-10.492
▁መገናኘት	-10.4921
▁እጥፍ	-10.4924
▁ሉህ	-10.4924
▁Comp	-10.4935
ቫይረስ	-10.4941
▁ሳሙኤል	-10.4941
ወስዳ	-10.4958
ቀየር	-10.4959
▁ተወዳዳሪ	-10.4963
▁ያመጣል	-10.4966
▁ፎቅ	-10.4971
እውነተኛ	-10.4975
በረታታ	-10.4983
▁ያደርግ	-10.4994
▁ህጋዊ	-10.5007
▁ቁጣ	-10.5018
ግግር	-10.502
▁በንጉሡ	-10.5028
▁ኤርምያስ	-10.5028
▁እናውቃለን	-10.5028
own	-10.5029
▁ትግል	-10.5034
▁10%	-10.5037
ጓዙ	-10.5039
▁ኢሜል	-10.5049
▁መግነጢሳዊ	-10.505
▁ሻንዶንግ	-10.505
▁ዋነኛ	-10.5051
▁እንደሚችሉ	-10.5051
▁ዲስክ	-10.5052
▁ታማኝ	-10.5053
▁የማሽን	-10.506
ከላከል	-10.5063
ጠዋል	-10.5083
▁በእጁ	-10.5088
▁ምክንያቶች	-10.5094
▁ይመለሳሉ	-10.5094
▁በከፊሉ	-10.5094
▁ቢሊዮን	-10.5095
▁የቆዳ	-10.5103
▁አደራ	-10.5105
▁ትንሣኤ	-10.5116
ጠናቀቅ	-10.5117
▁ፍሰት	-10.5117
▁ዝቅ	-10.5122
በጀ	-10.5127
ጓጓ	-10.513
▁ግምት	-10.5131
KW	-10.5131
att	-10.5132
у	-10.5139
▁በመካከላችሁ	-10.5139
▁አሲስታን	-10.5139
ሡ	-10.514
0.9	-10.5148
▁አለችው	-10.5151
▁በአንቀጾቻችን	-10.5161
▁አብርሃም	-10.5161
▁የሚፈሱባቸው	-10.5161
▁አድርጋችሁ	-10.5161
▁ክሬዲት	-10.5161
▁አሰጣጥ	-10.5161
ቦርዱ	-10.5164
▁ይሠራል	-10.5164
ቋሚ	-10.5174
ction	-10.5177
ጽሑፍ	-10.518
▁ለወንዶች	-10.5183
▁ያደርጋሉ	-10.5183
▁ወዳንተ	-10.5185
▁አደባባይ	-10.5205
▁መረዳት	-10.521
▁የላችሁም	-10.5228
▁ግሩም	-10.523
▁ኮሪያ	-10.5241
▁ድርሻ	-10.5242
▁አስገራሚ	-10.525
ትግራይ	-10.525
▁ለመግዛት	-10.525
▁ይወጣል	-10.5253
▁ልቡ	-10.5263
▁ጭፍራ	-10.5264
▁ወዳጅ	-10.5269
ቸዋለህ	-10.527
አማልክ	-10.5271
▁Qingdao	-10.5272
▁መድኃኒት	-10.5272
▁ካምፓስ	-10.5272
▁ከችሮታው	-10.5273
ኬሚካ	-10.5274
▁ነጋዴ	-10.5283
▁1500	-10.5284
EX	-10.5286
▁አብዛኛውን	-10.529
▁ክላ	-10.529
ö	-10.5295
▁አልነበሩም	-10.5295
▁ወስዶ	-10.5296
▁እንደኾነ	-10.5303
OT	-10.5305
▁ብዙዎቹ	-10.5308
Com	-10.5315
▁አመለካከት	-10.5317
▁ሳጥኖች	-10.5317
▁መለወጥ	-10.533
▁ሳምንታት	-10.534
▁ይወዳል	-10.5341
9001	-10.5342
▁አድርጌ	-10.5343
ዓመቱ	-10.5344
ኤርትራ	-10.5348
▁ተፅዕኖ	-10.5363
▁የመጽሐፉ	-10.5363
▁ትግበራ	-10.5363
▁ተከታዮች	-10.5363
▁Mod	-10.537
▁ልጆቻችሁ	-10.5385
▁እናደርጋለን	-10.5385
▁አታውቁም	-10.539
ወለደች	-10.5397
መግባ	-10.5401
፮	-10.5408
▁ምስራቅ	-10.5408
▁ቅሬታ	-10.5408
▁ያምናሉ	-10.5408
ሊንግ	-10.5416
▁ማጥፋት	-10.5432
▁ህብረት	-10.5434
▁ኃይሎች	-10.5454
ዝምድና	-10.5454
▁መስታወት	-10.5455
▁የተጠበቁ	-10.5457
ness	-10.5464
text	-10.5466
ላደረገ	-10.5475
▁ይጠቀማል	-10.5476
▁ካህናቱ	-10.5476
▁መስማት	-10.5477
▁ክርክር	-10.5477
መስቀል	-10.5486
▁ውዴታ	-10.5499
▁በኾኑት	-10.5506
▁ማረጋገጥ	-10.5513
ተቀበለ	-10.5518
▁ድንቅ	-10.5527
▁በበጎ	-10.5529
▁ግማሽ	-10.5546
▁ትኩስ	-10.5547
▁ብለን	-10.5553
▁ሰጥቷል	-10.5569
ጻፉ	-10.5574
▁ፍላ	-10.5575
መኾናቸው	-10.558
▁የመቋቋም	-10.5588
4.0	-10.5591
▁ከነርሱ	-10.5592
▁ፍላጎቶች	-10.5592
▁ያገኘ	-10.5605
▁ትችላለህ	-10.5615
▁ማድረስ	-10.5615
▁Home	-10.5622
ፍላጎ	-10.5624
▁ፈንታ	-10.5635
▁ወዮ	-10.5637
▁ማይክሮ	-10.5638
▁ውድድር	-10.5639
▁ማውጣት	-10.5639
ries	-10.5651
በላሸ	-10.5656
በለጠ	-10.566
▁ተጠባባቂ	-10.5661
▁ይጀምራል	-10.5661
▁ለማንበብ	-10.5661
▁ጠቋሚ	-10.5665
▁እንደኾናችሁ	-10.5668
▁ኑሮ	-10.5677
ዦ	-10.5685
▁ብየዳ	-10.5685
▁በርሳቸው	-10.569
▁ማርች	-10.5696
▁የሚያምኑ	-10.5697
▁ተቀምጦ	-10.5708
▁የውሂብ	-10.5708
▁መቀነስ	-10.5708
▁ቀበቶ	-10.5708
በላሹ	-10.5725
ሃቸው	-10.573
▁ተጠንቀቁ	-10.5732
▁ዶክተር	-10.5732
▁አይደላችሁም	-10.5732
▁የደቡብ	-10.5732
▁ራሳቸውን	-10.5732
▁አመልካች	-10.5732
▁ዘወር	-10.5733
ችሮታ	-10.5748
▁ክሮ	-10.5753
▁ዝንባሌ	-10.5755
▁የወረቀት	-10.5755
▁ጸሐፊ	-10.5755
▁ሁነታ	-10.5779
ቋረጥ	-10.578
▁USB	-10.578
way	-10.5788
0.6	-10.5792
እርዳታ	-10.5801
ደንበኞች	-10.5801
ዴሞክራሲ	-10.5802
▁Outlook	-10.5802
▁ግለሰቦች	-10.5802
▁አለብዎት	-10.5826
▁ከወንድ	-10.5826
▁State	-10.5833
ከፈል	-10.5834
▁ስገዱ	-10.5835
2016	-10.5837
ማህበራዊ	-10.5849
▁ተሳትፎ	-10.585
ባለቤትነት	-10.5868
LO	-10.5873
▁ፍጥረት	-10.5874
▁ሕጋዊ	-10.5874
▁ሀምሌ	-10.5875
▁(2)	-10.588
=	-10.5886
እርስዎ	-10.5889
▁ከአሁን	-10.5894
▁በአሕዛብ	-10.5898
▁የሴራሚክ	-10.5898
▁የህክምና	-10.5898
▁ጣዖት	-10.5898
▁አስረጅ	-10.5898
ፈቀድ	-10.5907
▁ታዛዦች	-10.5921
▁ተንኮል	-10.5922
▁ማሻሻል	-10.5922
▁ንቅሳቶች	-10.5945
▁አካዳሚ	-10.5945
▁በሰሜን	-10.5946
ድርጅቱ	-10.5947
▁ለመጀመር	-10.595
▁የኤች	-10.5955
▁መግባት	-10.5956
▁እንዲያውም	-10.596
ባዮች	-10.5962
ኮምፒዩተ	-10.5969
▁ካታሎግ	-10.5969
▁ሲቀሩ	-10.5971
▁ለብዙ	-10.5971
1.6	-10.5976
▁ትዕዛዞች	-10.5994
▁እችላለሁ	-10.5994
0.4	-10.6012
▁ትንታኔ	-10.6018
▁ነዋሪዎች	-10.6018
▁ያነጋግሩ	-10.6018
▁ንጹህ	-10.6018
▁ትራንስፖርት	-10.6018
▁አግኝቷል	-10.6021
▁ፒሲ	-10.6024
▁ጸጸትን	-10.6027
▁ካፒቴን	-10.6042
▁የተቀደሰ	-10.6042
ኢሜፕ	-10.6043
▁ኢሜልዎን	-10.6045
▁ገፅ	-10.6049
አውሮፕላን	-10.6049
▁ማስገቢያ	-10.6066
▁ገላጭ	-10.6066
▁የዳዊት	-10.6066
▁ክፈት	-10.6067
ጠብቀ	-10.6068
▁አያምኑም	-10.607
info	-10.608
▁Mac	-10.6081
▁ያችን	-10.6083
ook	-10.6084
▁ስደተኛ	-10.6091
▁ዙር	-10.6091
▁በደስታ	-10.6092
▁ከእሳት	-10.6093
▁መጽሐፈ	-10.6115
board	-10.6118
▁የስነ	-10.6132
uck	-10.6137
▁ዘመናት	-10.6139
2.3	-10.6143
▁ፕሬስ	-10.6145
▁2005	-10.6146
ተሽከርካሪዎች	-10.6162
NUMX	-10.6164
▁جلاله	-10.6164
ድንጋጤ	-10.6164
▁ጓደኞች	-10.6164
▁መብቱ	-10.6183
▁መናፍቃን	-10.6188
▁አግኙን	-10.6188
▁ጻድቅ	-10.6188
▁ኬብል	-10.619
▁የጣቢያ	-10.619
ዘጋጅ	-10.6192
▁ሁላችሁ	-10.62
▁በህግ	-10.6211
▁ከመጽሐፉ	-10.6213
▁ተዓምራቶች	-10.6238
▁ደህንነቱ	-10.6238
▁ጽሑፎች	-10.6238
▁ጣሊያን	-10.6238
▁በነፍሶቻቸው	-10.6238
▁ሚስቶች	-10.6239
▁ጋሻ	-10.6245
ሰደዱ	-10.6246
▁ከሓዲ	-10.6249
▁ጣሪያ	-10.6251
▁ጥላቻ	-10.6253
▁የደንበኛ	-10.6263
▁ደጋፊዎች	-10.6263
▁ኢኮኖሚያዊ	-10.6265
አንገት	-10.628
▁አቀማመጥ	-10.6287
▁አይደለህም	-10.6287
▁አዳራሽ	-10.6287
▁ክልሎች	-10.6288
▁በዳይ	-10.6288
▁መተካት	-10.6289
▁ትሠሩት	-10.6291
▁ማስተላለፍ	-10.6291
▁በኀይል	-10.6312
▁ቅናሾች	-10.6312
▁ዕድገት	-10.6312
ፈጸሙ	-10.6313
▁የሚሉት	-10.6327
ዠ	-10.6337
▁አዝራር	-10.6337
▁ምሥራቅ	-10.6337
▁በስፋት	-10.6338
▁ዛፎች	-10.6339
▁በውኃ	-10.6343
▁አሲድ	-10.6344
▁ተሽከርካሪ	-10.6359
▁ማቀዝቀዣ	-10.6362
▁ሞተርሳይክሎች	-10.6362
▁ካርቦን	-10.6362
ስተካክሉ	-10.6362
▁ጥብቅ	-10.6363
▁ራስህን	-10.637
▁ተሳታፊ	-10.6387
top	-10.6387
▁ተራሮች	-10.6389
ነገሠ	-10.6399
▁እስካ	-10.6399
መስጠ	-10.64
▁የሌለበት	-10.6409
▁አለብን	-10.6409
▁ዝግ	-10.6409
▁አዝማሚያ	-10.6412
▁ወታደራዊ	-10.6412
▁ፍጆታ	-10.6412
▁የመግቢያ	-10.6413
▁የለኝም	-10.6413
መንግሥቱ	-10.6438
▁ድግምት	-10.6438
ደረጋችሁ	-10.6438
tech	-10.6451
}	-10.6463
▁አይደለንም	-10.6463
▁ማዕዘን	-10.6464
▁ለመቀበል	-10.6467
ኪንግ	-10.647
ቴክኒካዊ	-10.6488
▁CarGebeya	-10.6488
▁የቅንጦት	-10.6488
▁አንጻር	-10.6488
▁የሌላቸው	-10.6491
▁ብሏል	-10.6493
መሰረተ	-10.6494
ማድረግ	-10.6497
0.7	-10.651
ብሔር	-10.6515
▁ላሉት	-10.6524
ለወጠ	-10.6524
▁ገብቶ	-10.6536
▁መጭመቂያ	-10.6539
ä	-10.6539
▁የተመዘገበ	-10.6539
▁ይታያል	-10.6539
▁ቀዳዳ	-10.6539
ረጋግጥ	-10.654
▁የተባበሩት	-10.6564
▁ከእምነት	-10.6567
▁ከከተማ	-10.6567
lock	-10.6569
▁ይመጣሉ	-10.6575
▁በየትኛው	-10.659
▁ቀለሞች	-10.659
▁ምቾት	-10.659
▁ፍቃድ	-10.659
▁ከጌታቸው	-10.659
▁መውጣት	-10.6593
▁በመውሰድ	-10.6616
▁ለወንድ	-10.6616
▁አይወድም	-10.6617
▁ስጡ	-10.6619
▁ምሽት	-10.6624
▁ተነሥቶ	-10.6628
ኬንያ	-10.6638
▁መስፈሪያ	-10.6641
▁የባሕር	-10.6641
▁ቁጥሮች	-10.6641
▁በደለኞች	-10.6642
▁በመንፈስ	-10.6642
▁ይሄዳል	-10.6642
▁በእምነት	-10.6645
▁እየሰራ	-10.6646
▁ተቃዋሚ	-10.6667
▁የንጉሡ	-10.6667
▁እየጨመረ	-10.667
▁አጥፊ	-10.6671
▁መሆናቸውን	-10.6678
ወረዱ	-10.6684
ብራዚል	-10.6693
▁Visa	-10.6693
ኒየም	-10.6704
{	-10.6719
▁የፋይናንስ	-10.6719
▁ኩኪዎች	-10.6719
▁ልጥፎች	-10.6719
▁አልቻለም	-10.6719
▁ዳግም	-10.6722
መሐላ	-10.6729
▁ሞተርሳይክል	-10.6745
▁በይነገጽ	-10.6745
cks	-10.6771
▁ውስብስብ	-10.6771
▁አላውቅም	-10.6771
▁ጎዳና	-10.6779
▁ስፒ	-10.6784
Blockchain	-10.6797
▁ጠፍጣፋ	-10.6797
▁በእርስዋ	-10.6797
▁አገዛዝ	-10.6798
▁ወንበር	-10.68
▁ይበሉ	-10.6808
▁ቀሪ	-10.6811
▁ከሌላ	-10.6813
▁Official	-10.6823
▁አገናኞች	-10.6823
▁በጥብቅ	-10.6823
▁ቁራጭ	-10.6823
▁ጸሎት	-10.6824
▁ከፊላቸው	-10.6824
▁አስታው	-10.6843
▁Tra	-10.6843
▁መቁረጫ	-10.6849
▁የሚችለው	-10.6851
light	-10.6852
ሰይጣን	-10.6863
▁00:	-10.6873
ሶስተኛ	-10.6876
▁በጭራሽ	-10.6876
▁ብላቴና	-10.6876
ሳተፍ	-10.6881
▁ወዳጆች	-10.6882
ፈጸመ	-10.6882
saveatrain	-10.6902
▁ተደጋጋሚ	-10.6902
▁ከእርስዋ	-10.6902
▁ክፈፍ	-10.6902
▁ውሰድ	-10.6904
▁በፍርድ	-10.6906
መላእክት	-10.6918
▁መክፈል	-10.6929
ፌዴ	-10.6929
ካፒታል	-10.6929
▁የሞተ	-10.6939
▁ስልት	-10.6945
▁ለመፈለግ	-10.6954
®	-10.6955
አፈፃፀም	-10.6955
▁ተቃውሞ	-10.6955
▁ከርሷ	-10.6957
▁በክፉ	-10.6961
▁ትመለሳላችሁ	-10.6982
▁ቦይንግ	-10.6982
▁ይመዝገቡ	-10.6982
▁ንብረቶች	-10.6982
▁ጡባዊ	-10.6982
ሸከሙ	-10.6983
▁ኑሕ	-10.6989
cap	-10.699
▁ዕለት	-10.6992
ስፔን	-10.6995
ر	-10.7008
▁መስኮች	-10.701
ption	-10.7012
▁ርኩስ	-10.7036
▁ፋሽን	-10.7036
▁መጠጊያ	-10.7039
አምስት	-10.7043
▁ዋናዉ	-10.7052
▁ጥቂቶች	-10.7062
▁ለማሳየት	-10.7062
▁ሀገሮች	-10.7062
ብሔራዊ	-10.7085
ept	-10.7085
▁ልቤ	-10.7086
▁ምሥክርነት	-10.7089
▁በልቡ	-10.7089
▁ጴጥ	-10.7089
ገሰጹ	-10.709
▁እንደሚችል	-10.7091
▁ከተማይቱ	-10.7091
▁ይረዳል	-10.7092
ጨመረ	-10.7099
▁የሰዎች	-10.7109
▁ጥንቃቄ	-10.7116
▁እባክህ	-10.7116
▁ልማድ	-10.7118
ፈቅድ	-10.7124
▁ዒሳ	-10.7145
▁መሥራት	-10.7147
ative	-10.7157
ሃለን	-10.7168
▁Department	-10.717
▁ውርርድ	-10.717
▁አባቶቻችሁ	-10.7171
▁ሞገስ	-10.7172
▁ነዎት	-10.7174
▁ዞሮ	-10.7178
▁Moto	-10.7192
▁ሠራተኛ	-10.7194
▁ዮርክ	-10.7197
▁ወፍራም	-10.7198
▁የቤተ	-10.7208
▁ጥያቄዎን	-10.7215
▁የማስተዋወቂያ	-10.7224
▁ፋኩልቲ	-10.7224
ጫወቱ	-10.7225
መሣሪያ	-10.7232
▁ኮሚሽን	-10.7252
▁ዠይጂያንግ	-10.7252
መከላከያ	-10.7254
▁ከብዙ	-10.7255
!!!	-10.7255
ተፈጠረ	-10.7261
ተመረጠ	-10.7271
▁አቋም	-10.7275
ጸጸቱ	-10.728
ike	-10.7282
▁ኤጀንሲ	-10.7306
▁አይደለችም	-10.7306
–	-10.7311
አራት	-10.733
▁ተሰጥቷቸዋል	-10.7334
▁ተዛማጅ	-10.7334
▁ኮርፖሬሽን	-10.7334
▁ቅመሱ	-10.7334
ልቦና	-10.7354
▁Deposit	-10.7362
▁Instagram	-10.7362
▁ኢዮብ	-10.7367
▁ወዮላቸው	-10.7368
¥	-10.7388
▁ዳይሬክተር	-10.7389
▁KTM	-10.7389
▁ጓደኝነት	-10.7389
ጋደል	-10.7392
▁ሸክም	-10.7397
▁ለማሳደግ	-10.7417
▁የሃይድሮሊክ	-10.7417
▁የፌዴራል	-10.7417
▁ሕዝቤ	-10.7417
▁ተመልከቱ	-10.7417
▁የባንክ	-10.7418
ዘዛቸው	-10.7423
▁ላለው	-10.7441
▁መድረኮች	-10.7445
▁ምስጢር	-10.7445
▁ከግብፅ	-10.7445
▁ነዳጅ	-10.7445
▁March	-10.7445
▁ጭንቀት	-10.7445
ለዋወጥ	-10.7445
▁መምጣት	-10.7453
ت	-10.7473
ع	-10.7473
ሖ	-10.7473
▁ሂሳብ	-10.7473
ጽናና	-10.7478
▁ፍጠር	-10.7481
▁ገደለ	-10.7492
▁ከኋላ	-10.7496
ዊንዶውስ	-10.7501
▁ግጭት	-10.7501
መጠቀሚያ	-10.7502
▁አንብብ	-10.7503
time	-10.7505
▁አስቂስ	-10.7529
▁ይሞክሩ	-10.7529
▁በግምት	-10.7534
ጠይቀ	-10.7557
▁ምክንያታዊ	-10.7557
▁ሪፐብሊክ	-10.7557
▁የያዕቆብ	-10.7557
▁csgo	-10.7557
▁አሮጌ	-10.7558
▁የልጅ	-10.7559
▁የፕሬስ	-10.7559
▁ማደሪያ	-10.756
ጵ	-10.7585
▁Yamaha	-10.7585
▁ክህደት	-10.7585
▁ብራንድ	-10.7585
▁ማሞቂያ	-10.7586
▁ቶነር	-10.7586
▁ፈቀቅ	-10.7586
▁መሥሪያ	-10.7586
▁የሰላም	-10.7586
▁ምረቃ	-10.7587
▁በረዶ	-10.7595
▁በተቻለ	-10.76
▁ያስገቡ	-10.7607
▁Appointment	-10.7614
▁ያካትታሉ	-10.7614
▁جل	-10.7614
▁ቁምፊዎች	-10.7614
▁ቅርቢቱ	-10.7614
▁ሮዝ	-10.7621
▁የሚፈልጉትን	-10.7625
▁ከፊል	-10.7625
China	-10.7634
▁በሕዝቡ	-10.7642
▁ኮንፈረንስ	-10.7642
▁ይቀበላል	-10.7642
▁ይናገራል	-10.7642
▁ለሌሎች	-10.7643
▁መማር	-10.7652
▁Gear	-10.7654
ING	-10.7668
▁YouTube	-10.7671
▁በመጽሐፉ	-10.7671
▁ራሴ	-10.7672
አሸባሪ	-10.7672
▁ገንዳ	-10.7673
▁የፍርድ	-10.7675
tru	-10.7683
▁የካዱ	-10.7684
5,000	-10.7694
travel	-10.7699
▁እህል	-10.7699
ቀላቀሉ	-10.7699
ደብቁት	-10.7699
▁ቀርቦ	-10.7699
ብርጭቆ	-10.77
▁ሃሳብ	-10.77
▁የእግር	-10.7703
ዷቸው	-10.7712
="0.1	-10.7714
▁ይናገራሉ	-10.7728
▁ማስተካከያ	-10.7728
▁እሴቶች	-10.7728
▁iOS	-10.7729
▁ዘላለም	-10.7729
▁ይሽጡ	-10.7729
▁ከኾነው	-10.7729
▁ቾን	-10.7737
ሶስት	-10.774
ivers	-10.7747
▁በእርግጠኝነት	-10.7757
መሠረቱ	-10.7757
▁Wars	-10.7757
▁የካናዳ	-10.7757
▁ትውስታ	-10.7757
ization	-10.7763
▁ጠርዝ	-10.7765
▁ካፕቶፕ	-10.7785
▁የግንባታ	-10.7785
▁ወፍጮ	-10.7785
ፒክስል	-10.7786
▁ክፍተት	-10.7786
▁መምህር	-10.7787
▁ግብይት	-10.7788
ተማረ	-10.7796
ሤ	-10.7814
▁ለማሟላት	-10.7814
▁ሳምንቶች	-10.7814
▁ምስጉን	-10.7814
▁ዙፋን	-10.7814
▁በከንቱ	-10.7815
ወስደው	-10.7815
▁የምትሠሩትን	-10.7815
XXX	-10.7816
▁ዩኬ	-10.7817
ava	-10.7818
▁ባድማ	-10.7819
ግንኙነ	-10.7822
▁ለዓለማት	-10.7843
▁በተደጋጋሚ	-10.7843
▁ኦፊሴላዊ	-10.7843
ንጉሥ	-10.7843
4.9	-10.7844
▁ጭብጥ	-10.7844
እራሳቸው	-10.7855
▁በጨለማ	-10.7858
አንዳንድ	-10.787
በረከ	-10.7872
▁ተልዕኮ	-10.7872
▁የሙዚቃ	-10.7872
▁ታላላቅ	-10.7872
▁ሂደቶች	-10.7873
▁ፓሪስ	-10.7873
ነበቡ	-10.7874
▁የኋላ	-10.7874
▁አስተማሪ	-10.7876
ቈጠሩ	-10.7882
≤	-10.7902
▁ተጫዋች	-10.7902
▁የሻንጋይ	-10.7902
▁ህዝቦች	-10.7902
▁ዩሱፍ	-10.7902
▁ውጫዊ	-10.7902
eck	-10.7907
ወለዱ	-10.7912
▁በተያያዘ	-10.7931
▁ሕንጻ	-10.7932
▁ለማስወገድ	-10.7933
▁በነበራችሁት	-10.7934
▁አብይ	-10.7942
▁ቀፎ	-10.7945
▁መጠኖች	-10.7947
▁አቀራረብ	-10.796
é	-10.796
▁ውርደት	-10.796
▁ፍጡር	-10.796
▁እንዳዘዘ	-10.7961
▁ኪራይ	-10.7961
ዶርኖ	-10.7961
▁ውሰጥ	-10.7962
▁ማናቸውም	-10.7968
ተከተሉ	-10.7986
▁ሃርድዌር	-10.799
▁የክርስቶስ	-10.799
▁በሰላም	-10.799
▁ለመረዳት	-10.7991
▁መርከብ	-10.7992
▁(1)	-10.7997
▁ትሬዲንግ	-10.8019
▁ከምእምናን	-10.8019
▁የፈርዖን	-10.8019
▁ኤሌክትሮኒክስ	-10.8026
▁የቡድን	-10.8028
ፈሰሰ	-10.8032
▁ግለሰብ	-10.8049
▁በመፍጠር	-10.8049
▁በፊቴ	-10.805
አክሲዮን	-10.8078
▁መጋረጃ	-10.8078
▁በተለምዶ	-10.8078
▁ተደርጎ	-10.8079
▁ለማምጣት	-10.8079
▁ካልሆነ	-10.8083
▁ከሓዲዎቹ	-10.8083
▁የሚመጣው	-10.8083
▁ልኬቶች	-10.8084
▁ቁርጥራጮች	-10.8108
▁ታውቃለህ	-10.8108
▁የቀሩት	-10.8108
ከፋፈል	-10.8109
▁መመልከት	-10.811
▁ቅደም	-10.8112
▁መውጫ	-10.8121
ዲፕሎማ	-10.8138
▁ኹኔታ	-10.8138
visa	-10.8143
መሆናቸው	-10.8159
ተቀባ	-10.8165
▁አገልጋዮች	-10.8168
▁ሥራዎቻቸውን	-10.8169
▁በሁለተኛው	-10.817
▁የግብርና	-10.8171
gram	-10.8187
▁በኢሜልዎ	-10.8198
▁ወረቀቶች	-10.8198
▁ዮናታን	-10.8198
▁ፍልስጥኤማውያን	-10.8198
▁ስኩተር	-10.8198
▁ስዕል	-10.8199
▁የውጪ	-10.8204
እድሜ	-10.8216
▁ጥለት	-10.822
▁እያደገ	-10.8229
▁ታጋሽ	-10.8229
እንፋሎት	-10.8258
▁ስፕሪንግ	-10.8258
▁ካፒተር	-10.8258
▁የመላኪያ	-10.8258
▁በተወረደው	-10.8259
▁ገንቢ	-10.8259
▁that	-10.826
▁ካጋጠመን	-10.8289
▁ቅዱሳን	-10.8289
▁በተሳካ	-10.829
ያሳዩ	-10.8311
▁ማዋቀሩ	-10.8319
መሰለዎ	-10.8319
▁ስንኳ	-10.832
▁ጋዜጣዊ	-10.8324
▁ወንድሞቹ	-10.8324
▁የሁሉ	-10.8335
lum	-10.8336
▁የግላዊነት	-10.8349
▁አንዳንዶቹ	-10.8349
▁VPN	-10.8349
▁ካፕተር	-10.8349
▁ነባሪ	-10.835
▁Multi	-10.835
▁ኾና	-10.8353
link	-10.8353
▁የውኃ	-10.8357
▁ሊቀመንበር	-10.838
▁ቲያንጂን	-10.838
▁ይጨምራል	-10.838
▁ተመጣጣኝ	-10.838
▁ይለያያሉ	-10.8411
▁በድንገት	-10.8411
▁የሐሰት	-10.8411
▁ሕግጋት	-10.8413
▁የበጎ	-10.8413
▁ክንፍ	-10.8415
▁የወንድ	-10.8418
ያዛቸው	-10.8419
5.0	-10.844
▁ቅርንጫፍ	-10.8441
▁አስተዋጽኦ	-10.8441
ቮንቴክ	-10.8442
▁ርዕሰ	-10.8442
ኤምባሲ	-10.8442
▁ዕውር	-10.8448
▁ተነሳሽነት	-10.8472
▁አስተናጋጅ	-10.8472
▁አስፈጻሚ	-10.8472
▁ከዋክብት	-10.8472
▁ርዕሶች	-10.8472
▁ወሲባዊ	-10.8472
▁መዝናኛ	-10.8472
▁ገዳይ	-10.8473
▁ለማምረት	-10.8473
▁ዝገት	-10.8473
▁ለመግባት	-10.8474
▁ኦሪት	-10.8475
×	-10.8494
▁መቁጠሪያ	-10.8503
▁ቲዩብ	-10.8503
xBet	-10.8503
▁ትንተና	-10.8503
▁መዝሙረ	-10.8534
▁ቁልፎች	-10.8534
count	-10.8535
3.6	-10.8542
▁ሕንድ	-10.8549
እንዲ	-10.8561
▁ያልተገደበ	-10.8565
▁ግጥሚያ	-10.8565
▁በነርሱ	-10.8566
▁ከቆየሽ	-10.8566
▁ይቀጣል	-10.8569
▁ገደማ	-10.8576
አሁን	-10.8578
ፈጽም	-10.858
▁በሩቅ	-10.8589
ተጠናቀቀ	-10.8597
▁Auto	-10.86
መሠረተ	-10.861
▁በጆሮ	-10.8613
▁እስያ	-10.8614
▁ጋዜጣ	-10.8623
▁Tattoo	-10.8628
▁መንፈሳዊ	-10.8628
▁ላሜራ	-10.8628
▁Super	-10.8628
▁ኩራት	-10.8629
▁ጥርጥር	-10.8629
ጮኹ	-10.8631
▁ጠርቶ	-10.8633
▁ወተት	-10.8634
▁ልኬት	-10.8641
▁የወረዳ	-10.8641
▁ማስተዋወቂያ	-10.8659
▁እጆቻችሁ	-10.866
▁እላለሁ	-10.8661
▁ሰለባ	-10.8664
-03-	-10.8681
ንቀሳቀሱ	-10.8691
▁በተበየደው	-10.8691
▁የዌብሜር	-10.8691
▁ፈቃደኛ	-10.8691
ሚኒስትሮች	-10.8691
▁ምክትል	-10.8691
▁ተመልሶ	-10.8691
ution	-10.8699
▁አባቶች	-10.8699
▁ሽልማቶች	-10.8723
▁ጉድጓድ	-10.8723
ኮሎምቢያ	-10.8723
▁በመልክተኛው	-10.8723
ማጣቀሻ	-10.8723
▁የተሰጡት	-10.8725
▁በተራራ	-10.8728
▁የላቁ	-10.8738
▁ምንኛ	-10.8738
▁ተጨባጭ	-10.8754
አየር	-10.8757
▁የህንድ	-10.8757
ኦሮሞ	-10.8758
▁ከውጭ	-10.877
4.2	-10.8785
▁ሽከርካሪ	-10.8786
▁ከሥሮቻቸው	-10.8786
▁የመርየም	-10.8787
▁የውሸት	-10.8787
▁ታያለህ	-10.8787
▁ሰራዊት	-10.8787
▁የዲሲ	-10.8789
▁ኃላፊነቱ	-10.8789
፱	-10.8818
▁Server	-10.8818
▁መርጊያ	-10.882
▁ዕወቁ	-10.8826
▁ይሸፍናል	-10.885
▁ይደሰቱ	-10.885
▁ቍጥር	-10.8851
እረፍት	-10.8852
▁በመጫን	-10.8863
አዲሱ	-10.8871
አባትህ	-10.8872
▁ለቀለቀችው	-10.8882
▁ምህንድስና	-10.8882
▁ተወካዮች	-10.8882
▁ይፈርዳል	-10.8882
▁ብልጭታ	-10.8883
▁እንዳደረገ	-10.8883
▁አዎንታዊ	-10.8883
▁ዝርያ	-10.8884
▁ጽንሰ	-10.8889
ፖፕት	-10.889
ጸጸት	-10.8908
▁ንብርብ	-10.8912
▁ፌስቡክ	-10.8915
▁Crypto	-10.8915
▁መሙላት	-10.8915
▁TCN	-10.8915
▁ተከትሎ	-10.8915
▁ይጠይቃል	-10.8915
▁this	-10.8916
4.1	-10.8917
▁በሃይድሮሊክ	-10.8947
▁አስተሳሰብ	-10.8947
▁ጮኸ	-10.8947
▁አብሳሪ	-10.8948
▁ሰጥቶ	-10.8952
ቃወም	-10.8962
ኮምፒተር	-10.898
▁በየጊዜው	-10.898
▁ፈረሶች	-10.898
▁ሪፖርቶች	-10.9012
▁ታኅሣሥ	-10.9012
▁በሰፊው	-10.9012
▁ልምዶች	-10.9013
8.1	-10.9026
ችሎታ	-10.9039
▁ኢንቨስት	-10.9045
ዲስትሪክት	-10.9045
▁ኦክስጅን	-10.9045
▁ሌዋውያን	-10.9045
▁ይመለሳል	-10.9045
ህፃናት	-10.9045
▁ይኖረዋል	-10.9045
▁በመስራት	-10.9045
▁አራዊት	-10.9055
4.7	-10.9067
▁በመሠዊያው	-10.9078
▁ፕሮቶኮል	-10.9078
▁ይፈትሹ	-10.9078
▁በምትሠሩት	-10.9078
▁የኬሚካል	-10.9079
▁ከክፉ	-10.9081
▁str	-10.9095
▁ድካም	-10.9114
▁ሜጋን	-10.9115
°	-10.9125
▁መለወጫ	-10.9143
▁ተለውጧል	-10.9143
▁Pocket	-10.9143
▁መስጊድ	-10.9143
▁በተፈጥሮ	-10.9144
ስወግድ	-10.9144
▁ግርማ	-10.9147
▁አትክልቶች	-10.9148
▁ውሏል	-10.9157
▁ታሪኮች	-10.9177
ተመዘገቡ	-10.9177
▁ማጥመድ	-10.9177
▁ክሪስ	-10.9179
▁የሰማይ	-10.9182
▁ንጥል	-10.9193
ተከታታይ	-10.9194
ş	-10.921
ه	-10.921
▁ከጥቂት	-10.921
▁ምንጣፍ	-10.921
▁ዘካንም	-10.921
▁ተመላሽ	-10.921
▁ምኞት	-10.921
▁ምድጃ	-10.9211
▁የጭነት	-10.9216
▁ያያሉ	-10.9218
ገጣጠ	-10.9221
ሽያጭ	-10.9232
▁ዘውታሪ	-10.9242
▁Twitter	-10.9243
▁አቀፋዊ	-10.9243
▁ኪንግደም	-10.9243
▁ዘይቤ	-10.9243
▁በብዛት	-10.9243
▁ለማጥፋት	-10.9244
▁የኤሌክትሮኒክስ	-10.9246
▁መልክተኞቹ	-10.9246
አንጎል	-10.9252
ሱለይማን	-10.9277
▁WhatsApp	-10.9277
▁የአውታረ	-10.9277
▁ማሸነፍ	-10.9277
▁ወኪል	-10.9277
▁ጭማሪ	-10.9279
▁ፍርዱ	-10.9279
▁ለራሱ	-10.9284
▁መረጠ	-10.929
ዪ	-10.931
▁መጫወቻ	-10.931
▁እርጥበት	-10.931
ረጋገጥ	-10.9319
አማርኛ	-10.9337
ስተባበሉ	-10.9344
ሜክሲኮ	-10.9344
ጼ	-10.9344
▁መንግሥታት	-10.9344
▁አልረሕማን	-10.9344
▁አውቶማቲክ	-10.9344
▁ይታወቃል	-10.9344
▁እፈራለሁ	-10.9344
[	-10.9369
▁አንቀጾቻችን	-10.9378
▁የሲቪል	-10.9378
▁አወረድነው	-10.9378
▁ራውተር	-10.9378
▁ቶማስ	-10.9378
ሚደረገው	-10.9378
▁ከፊላችሁ	-10.9379
አሁኑኑ	-10.9379
▁1:1	-10.9399
ጨለማዎች	-10.941
▁ኤግዚቢሽን	-10.9411
▁ተደራሽ	-10.9412
▁ደሴቶች	-10.9412
▁መድረስ	-10.9412
▁መመገቢያ	-10.9446
▁ኢሳይያስ	-10.9446
▁ድንጋዮች	-10.9446
▁መገሰጫ	-10.9446
▁ይኖራሉ	-10.9446
▁ውጥረት	-10.9446
▁መሸጥ	-10.9449
▁ሻወር	-10.945
7.5	-10.946
ቀበለው	-10.9473
ማጭበርበር	-10.948
▁መጽሔት	-10.948
▁ድምጾች	-10.948
▁በሥጋ	-10.9484
ካተቱ	-10.9484
▁Freedom	-10.9514
▁Holmbygden	-10.9514
▁መድሃኒቶች	-10.9514
▁ተሰጥቶታል	-10.9514
▁ውፅዓት	-10.9514
▁ማቆሚያ	-10.9514
▁ለመስራት	-10.9514
▁የህይወት	-10.9517
▁ይኹን	-10.9518
▁እገዳ	-10.9519
▁ፆታ	-10.953
▁ሰንጠረዥ	-10.9548
▁በገሀነም	-10.9548
▁ተፈጻሚ	-10.9548
▁ሆርሞን	-10.9548
▁መፍጨት	-10.9548
▁ማለፊያ	-10.9549
▁ባንኮች	-10.9549
▁ማመልከት	-10.9549
▁እግሮች	-10.955
ቤተሰብ	-10.9555
▁ለሕዝቡ	-10.9583
▁ከይሁዳ	-10.9583
▁በተግባር	-10.9583
▁የጥርስ	-10.9584
▁የታመነ	-10.9587
▁ቴፕ	-10.9589
▁ጥንድ	-10.959
▁ክሊኒ	-10.9593
ያቃጥ	-10.9599
Tension	-10.9617
▁በጨረር	-10.9617
▁ባሻገር	-10.9617
▁ቅርጫት	-10.9618
▁በፊታቸው	-10.9618
▁አጋሮች	-10.9621
▁ስማርት	-10.9652
▁በጥንቃቄ	-10.9652
▁መልካሙን	-10.9652
▁ፋክስ	-10.9653
▁ህመም	-10.9657
▁አባቶቻቸው	-10.9657
▁ተጽእኖ	-10.9687
▁አስፈፃሚ	-10.9687
▁ዕለታዊ	-10.9687
▁እስካሁን	-10.9687
▁ሀብቶች	-10.9687
▁ቀጭን	-10.9688
ጨምሩ	-10.9696
5.1	-10.9721
ኺ	-10.9722
▁smtp	-10.9722
▁ወገኖቼ	-10.9722
▁የባቢሎን	-10.9722
▁አሠራር	-10.9729
-01-	-10.9735
መንዳት	-10.9748
▁blockchain	-10.9757
▁ለንጉሡ	-10.9757
▁ኢንተርናሽናል	-10.9757
▁ድርጊቶች	-10.9757
▁ይወድቃሉ	-10.9757
▁ራዕይ	-10.9757
▁የተያያዙ	-10.9757
▁ቀለበት	-10.9757
▁ገበታ	-10.9758
▁ከጌታው	-10.9758
▁የሚያስፈልገው	-10.976
▁Bajaj	-10.9792
▁ድራይቭ	-10.9792
▁አልቻሉም	-10.9792
ሲንጋፖር	-10.9827
▁tension	-10.9827
▁ማኔጅመንት	-10.9827
▁ማሟላት	-10.9828
▁ይቀላቀሉትና	-10.9828
▁ግላዊነት	-10.9828
▁ባቡሮች	-10.9828
▁ሲስተም	-10.983
ደበቁ	-10.9832
▁እንቅልፍ	-10.9863
▁ይዟል	-10.9864
▁ያገኛል	-10.9865
▁ነገሠ።	-10.9866
▁ልመና	-10.9875
▁ዮርዳኖስ	-10.9899
▁Gaming	-10.9899
▁የተሳሳተ	-10.9899
ሙስሊም	-10.9899
ቢዝነስ	-10.9899
▁ይሄዳሉ	-10.9899
▁ኢንጂነሪንግ	-10.9934
▁ማቀናበር	-10.9934
▁ይበልጣል	-10.9934
▁እንመልከት	-10.9935
▁ህንፃ	-10.9935
▁ልምምድ	-10.9935
▁ለኾኑት	-10.9938
▁የፋይል	-10.9938
ሰነድዎ	-10.9957
▁እያንዳንዳቸው	-10.997
▁የትራንስፖርት	-10.997
▁ድምፆች	-10.997
▁መጓጓዣ	-10.997
▁የዩክሬን	-10.997
▁የዱቄት	-10.997
▁Speed	-10.997
wiki	-10.997
▁ሐኪም	-10.9972
ዘገበ	-10.9975
ትውልድ	-10.9988
6.0	-10.9999
▁ሜዲካል	-11.0006
▁ለማሳካት	-11.0006
▁ቁፋሮ	-11.0006
ኤፒኬ	-11.0006
▁በፍቅር	-11.0006
▁ጥንታዊ	-11.0006
▁ሌሎቹ	-11.0007
ጥንቁቆቹ	-11.0042
▁ምንድነው	-11.0042
▁ጥልቀት	-11.0042
▁ለመውሰድ	-11.0042
▁ይቆጠራል	-11.0042
▁ሞዱል	-11.0043
ology	-11.0045
መስለው	-11.0052
ዝርዝር	-11.006
ጥያቄ	-11.006
▁በማቅረብ	-11.0078
▁0086-	-11.0078
▁GBP	-11.0079
▁ምረጡ	-11.0079
▁ማራኪ	-11.0081
▁የርቀት	-11.0081
ጠየቃ	-11.0096
▁እንፈልጋለን	-11.0115
▁ሰብሳቢ	-11.0115
▁መድረሻ	-11.0115
▁ዳንኤል	-11.0115
▁የማያስገባ	-11.0115
▁መርዳት	-11.0115
▁ፈንድ	-11.012
ተማሪ	-11.0121
▁unit	-11.0135
ዲዛይ	-11.0143
▁Prepar	-11.0151
▁የድንጋይ	-11.0151
▁በዳዊት	-11.0151
▁የድምፅ	-11.0151
▁የወንዶች	-11.0152
Open	-11.0152
▁ፖሊስተር	-11.0153
▁ልብሱን	-11.0154
▁የሥነ	-11.0157
4.3	-11.0162
መኖሪያ	-11.0166
ሚባለው	-11.018
▁ማስጀመሪያ	-11.0188
▁ኮክፒት	-11.0188
▁በዋናነት	-11.0188
▁እንግዶች	-11.0188
▁ደርሶ	-11.019
▁በተለየ	-11.0191
▁ምሰሶ	-11.0214
▁ዑደት	-11.0225
xbet	-11.0225
▁ቆይተዋል	-11.0225
▁መገኘት	-11.0228
ከማቸ	-11.0253
▁ሕብረቁምፊ	-11.0262
▁የሚቀርጸው	-11.0262
▁የሚቃጠለውን	-11.0262
▁ይኾናሉ	-11.0262
▁ዒላማ	-11.0262
ድንገተኛ	-11.0262
▁ሐሳቦች	-11.0262
▁ይውላል	-11.0266
ሰቃየ	-11.0269
መስመር	-11.028
ፆ	-11.0281
▁Blackjack	-11.0299
▁Europe	-11.0299
▁ሰብዓዊ	-11.0299
▁አፑስካርድ	-11.0299
▁የተለያየ	-11.0299
▁የወሲብ	-11.0299
▁ረዥም	-11.0299
▁አዝመራ	-11.0301
▁የሚሾር	-11.0301
▁እውቂያ	-11.0301
ቪድዮ	-11.0302
transposh	-11.0336
▁Technology	-11.0336
▁ሕዝቅያስ	-11.0336
▁በዓለማት	-11.0336
▁ያቀርባሉ	-11.0336
▁ምሁራን	-11.0336
▁AUD	-11.0336
▁ቅርጸት	-11.0336
▁ምረጥ	-11.034
▁አሸዋ	-11.0341
በኣል	-11.0353
▁መሸፈኛ	-11.0373
▁መዛግብት	-11.0373
▁ፑቲን	-11.0373
▁ወሮበላ	-11.0373
▁የወደፊት	-11.0373
▁3:1	-11.0374
▁ቃሌን	-11.0374
ቾ	-11.0377
4.4	-11.0386
▁English	-11.0411
▁በዮርዳኖስ	-11.0411
▁የአገልጋይ	-11.0411
▁ይፈጥራል	-11.0411
▁እጥረት	-11.0411
▁ፊልሞች	-11.0411
▁ትራንስ	-11.0411
ያስከትል	-11.0411
ሳተፉ	-11.0413
ፕሮጀክቱ	-11.0448
፰	-11.0448
▁PTFE	-11.0448
እርግዝና	-11.0448
▁ክላሲክ	-11.0448
▁ሀብታም	-11.0448
▁መስኮቶች	-11.0448
▁ቀጣዩ	-11.045
▁ሽማግሌ	-11.0451
▁አጋሪዎች	-11.0451
и	-11.0486
▁ሳንቲሞች	-11.0486
መኾናችን	-11.0486
▁ማወቂያ	-11.0486
▁ባደረገ	-11.0486
አምልኮ	-11.0494
▁ኮሌጆች	-11.0524
▁ከጌታዬ	-11.0524
▁ንገሩኝ	-11.0524
▁ካርቶን	-11.0524
▁ከሴቶች	-11.0525
▁ተጠያቂ	-11.0544
▁ነበልባል	-11.0562
▁የተቀናጀ	-11.0562
▁HGH	-11.0562
▁አዋቅር	-11.0562
ክርስቲያናት	-11.06
▁እሽቅድምድም	-11.06
▁መረጋጋት	-11.06
▁ለመገናኘት	-11.06
መምጣቱ	-11.0605
ተንቀሳቃሽ	-11.0627
▁ኢዮአብ	-11.0638
▁ያገለግላል	-11.0638
▁እንመነዳ	-11.0638
▁ከባሮቹ	-11.0639
▁ከሕዝቡ	-11.0677
ያስፈልጋቸው	-11.0677
▁ተለይተው	-11.0677
ንጽሕና	-11.0677
▁ተወያዩ	-11.0677
▁ማህበረሰቦች	-11.0677
ቸዋለች	-11.0677
▁ተረጋገጠ	-11.0715
▁የደብዳቤ	-11.0715
▁ምስክሮች	-11.0715
▁አጥራቢ	-11.0715
▁ለዳዊት	-11.0715
▁ሦስቱ	-11.0715
4.6	-11.0727
ሸከማ	-11.074
ቪዲዮ	-11.0749
▁አንቀሳቅሷል	-11.0754
ስማርትፎን	-11.0754
▁ኃጢአተኞች	-11.0755
▁ኪሳራ	-11.0755
ጦርነት	-11.0761
▁ልጆቼ	-11.0793
▁ተገኝተዋል	-11.0793
▁ማሳየት	-11.0793
▁ይሂዱ	-11.0793
እያንዳንዱ	-11.0816
▁አቀባበል	-11.0832
▁የካርቦን	-11.0832
▁ያካተተ	-11.0832
▁የሕዝቡ	-11.0832
▁ዉስጥ	-11.0832
ከናወነ	-11.0832
▁ስሪቶች	-11.0832
▁እጀታ	-11.0834
craft	-11.0871
፲፱፻፺	-11.0871
▁ጥምረት	-11.0871
▁ደጃፍ	-11.0871
▁መክፈቻ	-11.0872
https	-11.0883
ከፈቱ	-11.0902
▁ደንቆሮ	-11.0911
▁ያገለገለ	-11.0911
▁ODM	-11.0911
▁ቤተሰቦቹ	-11.0911
▁ደላላ	-11.0911
="3.9	-11.0912
ፍትወት	-11.0913
▁የልደት	-11.0914
This	-11.0936
አቤሴሎም	-11.095
▁ተቀምጠው	-11.095
▁ተዓምራት	-11.095
▁ፍልስፍና	-11.095
▁እሄዳለሁ	-11.095
▁ሽግግር	-11.0951
~	-11.0966
#	-11.0966
▁አታድርጉ	-11.099
▁ዳግመኛ	-11.099
▁የፍጥነት	-11.099
▁መለየት	-11.099
▁ማኅበራዊ	-11.099
▁ግምጃ	-11.0991
▁ተፈጥሯዊ	-11.103
▁ንዳይፈስ	-11.103
▁የአሕዛብ	-11.103
▁የግድግዳ	-11.103
▁ያረጋግጣል	-11.103
▁ትግርኛ	-11.103
▁ካቢኔ	-11.103
ስርዓቱ	-11.1033
ተከሰተ	-11.1057
▁ትንቢተ	-11.107
▁አሳልፌ	-11.107
ተጠያቂነት	-11.1088
▁ማዕከላት	-11.111
▁የቢስክሌት	-11.111
▁ጠረጴዛ	-11.111
▁SKU	-11.111
▁የብየዳ	-11.111
▁XXXL	-11.111
▁በደህና	-11.1111
▁ንጥሎች	-11.1111
content	-11.115
▁ይቀጥላል	-11.115
▁ለካዱት	-11.115
▁እርካታ	-11.115
▁ክልላዊ	-11.115
▁አድርገህ	-11.115
5.6	-11.1176
ኮሙኒኬሽን	-11.1191
▁Online	-11.1191
▁ርኵሰት	-11.1191
▁ተቀይሯል	-11.1191
▁ተፅእኖ	-11.1191
▁አሰጣጦች	-11.1191
▁የኢየሩሳሌም	-11.1191
▁የነርቭ	-11.1191
▁ወደኋላ	-11.1191
▁ኤልያስ	-11.1192
▁ጓንት	-11.1193
▁ከዓለማት	-11.1231
▁ግሳጼ	-11.1231
▁ባቢሎን	-11.1231
ገፆች	-11.1231
▁ትላልቅ	-11.1232
▁ተመራቂ	-11.1232
▁በመጥፎ	-11.1232
▁ማስተካከል	-11.1232
▁ኃያል	-11.1233
1,000	-11.1262
▁አፈጉባኤ	-11.1272
▁ኃያላን	-11.1272
▁ሩሲያ	-11.1272
ሃይድሮ	-11.1272
▁አመታት	-11.1273
▁መልእክተኛ	-11.1274
ኒሶታ	-11.128
▁አመስግኑ	-11.1313
▁የሞተርሳይክል	-11.1313
▁ይስሐቅ	-11.1313
▁አትፍሩ	-11.1313
▁ሲቪል	-11.1314
▁discusssions	-11.1354
▁ሾፌር	-11.1354
▁አከፋፋይ	-11.1354
▁ውህደት	-11.1354
▁እሰጣለሁ	-11.1354
▁ሮቦት	-11.1354
▁ማስታወስ	-11.1355
መፍቀድ	-11.1357
ታዳጊ	-11.1358
▁ከፈርዖን	-11.1396
▁ሕዝቦቹ	-11.1396
▁ተለዋጭ	-11.1396
hydro	-11.1396
▁እርግጥ	-11.1396
="2.6	-11.1396
▁ግዛቶች	-11.1397
ቀመጠው	-11.1406
ያዳምጡ	-11.1407
="1.8	-11.1429
ጴ	-11.1436
ናቡከደነፆር	-11.1437
▁ይመስለኛል	-11.1437
▁ጕድጓድ	-11.1437
▁አዋራጅ	-11.1437
▁ይውሰዱ	-11.1437
▁ኬሚካሎች	-11.1437
አስከፊ	-11.1438
▁የፕሮጀክት	-11.1479
▁ይስቀሉት	-11.1479
▁ጠቀሜታ	-11.1479
▁ይሏቸዋል	-11.1479
ቀጣጥፉ	-11.148
▁ኃጢአተኛ	-11.1491
▁የገሀነም	-11.1521
ከማቻ	-11.156
ሕዝቦች	-11.1561
አንቀጽ	-11.1563
Manufacturer	-11.1563
▁ምሕረቱ	-11.1563
▁ከቁርኣን	-11.1563
▁ዕረፍት	-11.1563
▁UHF	-11.1563
▁ኺዱ	-11.1563
▁አፍቃሪ	-11.1563
▁በዳዮቹ	-11.1563
ቻይንኛ	-11.1583
ኢንዱስትሪ	-11.1602
▁ለሕዝቦቹ	-11.1605
▁በቁርኣን	-11.1605
መሳሰል	-11.1605
▁ሻንጣ	-11.1606
▁የእርሻ	-11.1607
▁የጎንዮሽ	-11.1647
▁አመልካቾች	-11.1647
▁የፍለጋ	-11.1647
▁ሰጋጆች	-11.1647
▁ግመል	-11.1649
▁አላየህምን	-11.169
▁ክምችት	-11.169
▁የለባችሁም	-11.169
▁የማያምኑት	-11.169
▁ይሰጠዋል	-11.169
▁ንገራቸው	-11.169
8.5	-11.1691
▁ያስፈልገዋል	-11.1732
▁አድርገናል	-11.1732
▁ለማገልገል	-11.1732
▁መስገጃ	-11.1732
▁በአግባቡ	-11.1733
▁ማእከል	-11.1733
▁ሁከት	-11.1733
እርጅና	-11.1733
▁University	-11.1775
▁ቀለበቶች	-11.1775
▁ተከላካይ	-11.1775
▁አድራጎት	-11.1775
▁የግብይት	-11.1775
▁ሒሳብ	-11.1775
▁የተለመዱ	-11.1775
▁በሩሲያ	-11.1775
ኢህአዴግ	-11.1818
▁መሐንዲሶች	-11.1818
▁ተብቃቂ	-11.1818
▁ማኅተም	-11.1818
▁አልዓዛር	-11.1818
▁በግብጽ	-11.1819
▁ስንኾን	-11.182
▁ትርጓሜ	-11.1862
አክብሮት	-11.1862
ገነዘቡ	-11.1862
▁ቅዳሜ	-11.1862
▁ስልኮች	-11.1862
▁ጓንቶች	-11.1862
▁ፍራንክ	-11.1863
▁ይጠቀማሉ	-11.1905
▁አምነናል	-11.1905
▁ተመላሾች	-11.1905
ማንኛይቱም	-11.1906
▁ያብራራል	-11.1906
▁ሂደቱ	-11.1906
▁ቅጠል	-11.1906
▁ፍየል	-11.1906
▁መተላለፊያ	-11.1949
▁ድመቶች	-11.1949
▁ባሕሩ	-11.1949
▁የማገጃ	-11.1949
▁መጠቅለያ	-11.1993
▁ትሆናለች	-11.1993
▁ለመፍታት	-11.1993
▁ተዋጊ	-11.1994
እራስዎ	-11.1997
▁ጡንቻ	-11.2009
ያዛችሁ	-11.2034
▁ተርሚናል	-11.2037
▁ተዘጋጅቷል	-11.2037
▁ዝግጅቶች	-11.2037
▁ወኪሎች	-11.2037
▁በሰባተኛው	-11.2037
ough	-11.2056
አውቶቡስ	-11.2081
▁ፕሮፌሰሮች	-11.2081
▁Chrome	-11.2081
KHz	-11.2081
▁በጉጉት	-11.2081
▁በዋነኝነት	-11.2126
▁ዲሞክራሲያዊ	-11.2126
መንግስታዊ	-11.2126
▁ገለልተኛ	-11.2126
▁ከበላያቸው	-11.2126
▁አዛኙ	-11.2126
▁ሻንጋይ	-11.217
▁አመስጋኝ	-11.217
▁ያስፈልጋቸዋል	-11.217
س	-11.217
▁ለማሸነፍ	-11.217
▁በምሥራቅ	-11.217
▁ኪዳናቸው	-11.217
▁ለመምራት	-11.2171
አዕምሮ	-11.2171
CHF	-11.2172
▁ለምእምናን	-11.2215
▁ገንዘቦች	-11.2215
▁ከመልክተኞቹ	-11.2215
sitemap	-11.2215
▁አድናቂ	-11.2215
▁ኦዲዮ	-11.2215
ፓርላማ	-11.2215
▁አንዳንዶች	-11.2215
JPY	-11.2215
▁ምጽዋት	-11.2215
▁በሦስተኛው	-11.226
▁የአልሙኒየም	-11.226
▁ዶንግጓን	-11.226
▁ገመዶች	-11.226
▁ከግብጽ	-11.226
▁አንጎለ	-11.226
▁ሞጁል	-11.226
ንሸራተ	-11.226
▁ፍትሕ	-11.226
9.5	-11.2273
▁PayPal	-11.2305
▁ማስተላለፊያ	-11.2305
▁ስቱዲዮ	-11.2305
ሕይወቴ	-11.2305
▁BreatheLife	-11.2305
▁የሂሳብ	-11.2305
ያስተባብሉ	-11.2305
▁የተነደፈ	-11.2305
መዋዕለ	-11.2306
▁ያስተባበሉት	-11.2306
▁Drive	-11.2306
▁ደማቅ	-11.2306
6.9	-11.2338
routes	-11.2351
▁ለበርካታ	-11.2351
▁ከአጋሪዎቹ	-11.2351
▁ረቂቅ	-11.2351
▁ይይዛል	-11.2351
▁አያያዥ	-11.2351
▁ትከሻ	-11.2351
▁ደርሷል	-11.2396
▁ከረጢት	-11.2396
▁የፖስታ	-11.2396
▁መልቀቅ	-11.2397
ኤሌክትሪክ	-11.2438
▁ጽሕፈት	-11.2442
▁ጋላክሲ	-11.2442
▁የሚከራከሩ	-11.2442
▁ያስፈልግዎታል	-11.2442
▁NFC	-11.2442
▁ተወካይ	-11.2443
▁መግደል	-11.2443
▁በድብቅ	-11.2443
▁ሄበይ	-11.2443
▁ፍትሃዊ	-11.2478
▁ሊሰነጠቅ	-11.2488
▁ስህተቶች	-11.2488
▁ቅርንጫፎች	-11.2488
▁ዘምኗል	-11.2488
▁የዋስትና	-11.2488
▁NYE	-11.2489
▁ትናንሽ	-11.2489
▁ይወዳሉ	-11.2489
function	-11.2535
አሽከርካሪ	-11.2535
▁አደረጋቸው	-11.2535
▁ማግኔት	-11.2535
▁ወርሃዊ	-11.2535
▁በጽድቅ	-11.2535
▁ስትሪት	-11.2535
▁ሹራብ	-11.2535
▁ለመምረጥ	-11.2535
▁የተያያዘ	-11.2535
ተላለፈ	-11.2554
መተግበሪያ	-11.2573
▁ቁሳቁስ	-11.2581
▁አመላካች	-11.2581
▁የኮርፖሬት	-11.2581
▁በፈቃዱ	-11.2582
ጨነቁ	-11.2582
▁Blue	-11.2582
ጲ	-11.2628
▁ውሸታሞች	-11.2628
▁ጆርጅ	-11.2628
▁ገበሬ	-11.2628
▁የሰሜን	-11.2628
▁መቅደሱ	-11.2675
▁ኤርባስ	-11.2675
▁ኅዳር	-11.2675
▁አስተዳደራዊ	-11.2675
ወንድሞቻችሁ	-11.2675
▁በውሸት	-11.2675
▁Pneumatic	-11.2722
▁በነፍሶቻችሁ	-11.2722
▁ወታደሮች	-11.2722
ፋርማሲ	-11.2722
▁ተለይቶ	-11.2722
▁ማምረቻ	-11.2722
▁ITIL	-11.2722
▁በጥቂት	-11.2722
▁ማህተም	-11.2722
▁ኢንስቲትዩት	-11.2769
▁የዓለማት	-11.2769
▁አብያተ	-11.277
▁አጫውት	-11.277
▁እናድርግ	-11.277
ኤሌክትሮ	-11.2816
▁ሳምሰንግ	-11.2817
▁በነቢዩ	-11.2817
▁ፈላጊ	-11.2817
▁ዘመዶች	-11.2817
ስዊዘርላንድ	-11.2865
▁አርቲስት	-11.2865
▁ገንዘቦቻቸውን	-11.2865
google	-11.2865
▁አጋማሽ	-11.2865
▁ከመልክተኛ	-11.2867
▁Window	-11.2889
▁November	-11.2913
▁Toyota	-11.2913
▁ተናገራቸው	-11.2913
▁የማምረቻ	-11.2913
▁ዝውውር	-11.2913
="2.4	-11.2913
‹	-11.2917
€	-11.2918
▁Ducati	-11.2961
▁ጄኔሬተር	-11.2961
▁የመዝናኛ	-11.2961
▁ወንድሞቻቸው	-11.2961
▁በከፊል	-11.2961
▁ሰይጣናት	-11.301
▁ሳይንቲስቶች	-11.301
▁ባልንጀራ	-11.301
▁ቦረቦረ	-11.301
▁ተሰብስበው	-11.301
▁ማስተዋወቅ	-11.301
▁ሬዲዮ	-11.301
▁አስቂኝ	-11.301
▁ተሸካሚ	-11.301
▁ወደእነዚያ	-11.301
▁ሌሊቱ	-11.301
▁እናምናለን	-11.301
▁የሁለቱ	-11.301
ተጠቃሚ	-11.3037
▁ፌዴራላዊ	-11.3059
▁ቀለማት	-11.3059
▁እሆናለሁ	-11.3059
▁ዲቪዲ	-11.3059
▁በፓሪስ	-11.3059
▁ለመክፈት	-11.3059
▁አዝናኝ	-11.3059
▁ካሲኖ	-11.3059
▁አልተገኘም	-11.3059
▁የፋይበር	-11.3059
▁ይሰበስባ	-11.3059
▁በጅምላ	-11.3059
አንዲት	-11.3082
▁ሶዲየም	-11.3108
▁ፍራፍሬያማ	-11.3108
▁በፈርዖን	-11.3108
▁ከመቼውም	-11.3108
▁ይክፈሉ	-11.3108
▁መቀጠል	-11.3108
▁አምፖል	-11.3108
▁ልቅሶ	-11.3108
▁ታያቸዋ	-11.3114
አነስተኛ	-11.3121
ج	-11.3157
ግገዟቸው	-11.3157
▁ብስክሌቶች	-11.3157
▁አስኪያጅ	-11.3157
▁የተሸፈነ	-11.3157
▁ያተኮረ	-11.3157
▁የግብፅ	-11.3157
▁ፋሲካ	-11.3157
ጎበኙ	-11.3157
search	-11.3158
ኢኮኖሚ	-11.3192
“	-11.443
£	-11.5938
፺	-11.9583
«	-12.3463
·	-13.9132
•	-14.0616
©	-14.7148
●	-15.6648
ü	-15.6649
→	-15.665
丨	-15.665
