<unk>	0
<s>	0
</s>	0
<0x00>	0
<0x01>	0
<0x02>	0
<0x03>	0
<0x04>	0
<0x05>	0
<0x06>	0
<0x07>	0
<0x08>	0
<0x09>	0
<0x0A>	0
<0x0B>	0
<0x0C>	0
<0x0D>	0
<0x0E>	0
<0x0F>	0
<0x10>	0
<0x11>	0
<0x12>	0
<0x13>	0
<0x14>	0
<0x15>	0
<0x16>	0
<0x17>	0
<0x18>	0
<0x19>	0
<0x1A>	0
<0x1B>	0
<0x1C>	0
<0x1D>	0
<0x1E>	0
<0x1F>	0
<0x20>	0
<0x21>	0
<0x22>	0
<0x23>	0
<0x24>	0
<0x25>	0
<0x26>	0
<0x27>	0
<0x28>	0
<0x29>	0
<0x2A>	0
<0x2B>	0
<0x2C>	0
<0x2D>	0
<0x2E>	0
<0x2F>	0
<0x30>	0
<0x31>	0
<0x32>	0
<0x33>	0
<0x34>	0
<0x35>	0
<0x36>	0
<0x37>	0
<0x38>	0
<0x39>	0
<0x3A>	0
<0x3B>	0
<0x3C>	0
<0x3D>	0
<0x3E>	0
<0x3F>	0
<0x40>	0
<0x41>	0
<0x42>	0
<0x43>	0
<0x44>	0
<0x45>	0
<0x46>	0
<0x47>	0
<0x48>	0
<0x49>	0
<0x4A>	0
<0x4B>	0
<0x4C>	0
<0x4D>	0
<0x4E>	0
<0x4F>	0
<0x50>	0
<0x51>	0
<0x52>	0
<0x53>	0
<0x54>	0
<0x55>	0
<0x56>	0
<0x57>	0
<0x58>	0
<0x59>	0
<0x5A>	0
<0x5B>	0
<0x5C>	0
<0x5D>	0
<0x5E>	0
<0x5F>	0
<0x60>	0
<0x61>	0
<0x62>	0
<0x63>	0
<0x64>	0
<0x65>	0
<0x66>	0
<0x67>	0
<0x68>	0
<0x69>	0
<0x6A>	0
<0x6B>	0
<0x6C>	0
<0x6D>	0
<0x6E>	0
<0x6F>	0
<0x70>	0
<0x71>	0
<0x72>	0
<0x73>	0
<0x74>	0
<0x75>	0
<0x76>	0
<0x77>	0
<0x78>	0
<0x79>	0
<0x7A>	0
<0x7B>	0
<0x7C>	0
<0x7D>	0
<0x7E>	0
<0x7F>	0
<0x80>	0
<0x81>	0
<0x82>	0
<0x83>	0
<0x84>	0
<0x85>	0
<0x86>	0
<0x87>	0
<0x88>	0
<0x89>	0
<0x8A>	0
<0x8B>	0
<0x8C>	0
<0x8D>	0
<0x8E>	0
<0x8F>	0
<0x90>	0
<0x91>	0
<0x92>	0
<0x93>	0
<0x94>	0
<0x95>	0
<0x96>	0
<0x97>	0
<0x98>	0
<0x99>	0
<0x9A>	0
<0x9B>	0
<0x9C>	0
<0x9D>	0
<0x9E>	0
<0x9F>	0
<0xA0>	0
<0xA1>	0
<0xA2>	0
<0xA3>	0
<0xA4>	0
<0xA5>	0
<0xA6>	0
<0xA7>	0
<0xA8>	0
<0xA9>	0
<0xAA>	0
<0xAB>	0
<0xAC>	0
<0xAD>	0
<0xAE>	0
<0xAF>	0
<0xB0>	0
<0xB1>	0
<0xB2>	0
<0xB3>	0
<0xB4>	0
<0xB5>	0
<0xB6>	0
<0xB7>	0
<0xB8>	0
<0xB9>	0
<0xBA>	0
<0xBB>	0
<0xBC>	0
<0xBD>	0
<0xBE>	0
<0xBF>	0
<0xC0>	0
<0xC1>	0
<0xC2>	0
<0xC3>	0
<0xC4>	0
<0xC5>	0
<0xC6>	0
<0xC7>	0
<0xC8>	0
<0xC9>	0
<0xCA>	0
<0xCB>	0
<0xCC>	0
<0xCD>	0
<0xCE>	0
<0xCF>	0
<0xD0>	0
<0xD1>	0
<0xD2>	0
<0xD3>	0
<0xD4>	0
<0xD5>	0
<0xD6>	0
<0xD7>	0
<0xD8>	0
<0xD9>	0
<0xDA>	0
<0xDB>	0
<0xDC>	0
<0xDD>	0
<0xDE>	0
<0xDF>	0
<0xE0>	0
<0xE1>	0
<0xE2>	0
<0xE3>	0
<0xE4>	0
<0xE5>	0
<0xE6>	0
<0xE7>	0
<0xE8>	0
<0xE9>	0
<0xEA>	0
<0xEB>	0
<0xEC>	0
<0xED>	0
<0xEE>	0
<0xEF>	0
<0xF0>	0
<0xF1>	0
<0xF2>	0
<0xF3>	0
<0xF4>	0
<0xF5>	0
<0xF6>	0
<0xF7>	0
<0xF8>	0
<0xF9>	0
<0xFA>	0
<0xFB>	0
<0xFC>	0
<0xFD>	0
<0xFE>	0
<0xFF>	0
▁و	-0
▁ب	-1
ان	-2
▁ک	-3
▁ئ	-4
▁د	-5
▁ر	-6
▁ن	-7
▁b	-8
▁ل	-9
er	-10
▁ی	-11
▁d	-12
in	-13
an	-14
▁ه	-15
▁به	-16
▁خ	-17
▁م	-18
وو	-19
▁س	-20
▁ت	-21
ار	-22
▁ئه	-23
او	-24
▁ده	-25
▁پ	-26
ar	-27
▁ڕ	-28
ir	-29
ای	-30
▁له	-31
ên	-32
▁وه	-33
▁که	-34
▁k	-35
ات	-36
▁h	-37
یان	-38
▁bi	-39
ya	-40
▁(	-41
▁j	-42
▁هه	-43
ێت	-44
ek	-45
ست	-46
▁ش	-47
▁گ	-48
▁p	-49
▁di	-50
ێن	-51
مان	-52
▁t	-53
st	-54
▁ji	-55
▁ز	-56
ێک	-57
دا	-58
انه	-59
în	-60
ین	-61
en	-62
رد	-63
▁بۆ	-64
▁l	-65
▁خو	-66
▁û	-67
▁n	-68
▁s	-69
▁چ	-70
ەو	-71
▁de	-72
al	-73
ام	-74
▁m	-75
▁ڵ	-76
▁ku	-77
ەک	-78
انی	-79
at	-80
▁r	-81
▁سه	-82
et	-83
ده	-84
▁ج	-85
که	-86
اوه	-87
▁پێ	-88
▁نه	-89
▁e	-90
▁li	-91
on	-92
ەی	-93
وه	-94
or	-95
we	-96
▁خۆ	-97
▁یه	-98
یه	-99
iy	-100
el	-101
▁،	-102
▁x	-103
av	-104
به	-105
▁B	-106
ایه	-107
▁bo	-108
em	-109
am	-110
▁ئێ	-111
ەر	-112
ey	-113
▁P	-114
▁D	-115
▁ڕا	-116
▁گه	-117
irin	-118
▁ئا	-119
▁خوا	-120
▁g	-121
یش	-122
▁y	-123
▁کرد	-124
▁نا	-125
▁S	-126
▁لە	-127
▁w	-128
▁T	-129
▁v	-130
▁E	-131
وون	-132
▁ق	-133
▁ك	-134
es	-135
ستی	-136
ره	-137
▁c	-138
iya	-139
▁ف	-140
مه	-141
تان	-142
ay	-143
اری	-144
▁A	-145
▁M	-146
▁بە	-147
il	-148
▁په	-149
▁ست	-150
▁کات	-151
▁1	-152
▁وانه	-153
▁H	-154
▁a	-155
ەم	-156
ol	-157
▁ser	-158
▁بێ	-159
and	-160
▁.	-161
▁2	-162
ەن	-163
▁C	-164
شت	-165
ûn	-166
▁ته	-167
kirin	-168
گه	-169
kar	-170
▁N	-171
ۆر	-172
اڵ	-173
▁ya	-174
▁ڕاستی	-175
▁ç	-176
نی	-177
▁L	-178
ev	-179
▁xwe	-180
▁دا	-181
▁روه	-182
as	-183
ەوە	-184
ro	-185
▁یان	-186
ێکی	-187
▁R	-188
▁لێ	-189
de	-190
▁کان	-191
iş	-192
▁مه	-193
▁وت	-194
az	-195
▁بێت	-196
▁K	-197
له	-198
▁کە	-199
▁رد	-200
از	-201
ووه	-202
▁f	-203
ur	-204
▁دە	-205
eh	-206
ed	-207
ون	-208
اک	-209
رو	-210
îk	-211
ری	-212
▁ber	-213
om	-214
▁شت	-215
▁pê	-216
نه	-217
▁زۆر	-218
اره	-219
iyê	-220
end	-221
▁ئی	-222
▁G	-223
▁)	-224
tin	-225
▁z	-226
▁تۆ	-227
im	-228
ke	-229
▁خه	-230
▁بوو	-231
▁تی	-232
▁ئێمه	-233
▁ره	-234
وان	-235
it	-236
iv	-237
eya	-238
اد	-239
ew	-240
▁من	-241
▁موو	-242
eb	-243
▁J	-244
▁با	-245
▁هی	-246
ez	-247
▁ح	-248
▁ڕۆ	-249
ێك	-250
▁ژ	-251
تر	-252
▁باوه	-253
وێن	-254
▁nav	-255
رێت	-256
▁F	-257
êr	-258
işt	-259
اته	-260
ot	-261
ic	-262
▁ئەو	-263
ing	-264
▁ردگ	-265
یر	-266
▁بکه	-267
▁ئێوه	-268
00	-269
▁ne	-270
▁ڕێ	-271
ak	-272
andin	-273
▁re	-274
▁بک	-275
▁W	-276
ۆش	-277
ته	-278
▁فه	-279
غه	-280
▁her	-281
امه	-282
ast	-283
▁ş	-284
▁تر	-285
ad	-286
▁-	-287
گو	-288
را	-289
▁تا	-290
▁an	-291
ik	-292
ih	-293
▁بوون	-294
01	-295
▁ناو	-296
▁هێن	-297
kirina	-298
▁we	-299
▁کانی	-300
▁der	-301
▁ری	-302
▁ڕه	-303
▁ند	-304
ber	-305
ah	-306
ist	-307
is	-308
▁ئای	-309
▁jî	-310
▁ع	-311
ac	-312
زی	-313
▁yên	-314
êk	-315
ەکان	-316
▁ve	-317
▁كه	-318
▁گو	-319
▁نی	-320
aş	-321
▁هیچ	-322
▁جا	-323
▁کار	-324
).	-325
ana	-326
بێت	-327
ێر	-328
▁ew	-329
ئه	-330
oj	-331
▁q	-332
ەڵ	-333
ît	-334
کی	-335
▁مبه	-336
▁وی	-337
▁کاتێک	-338
▁دو	-339
▁زه	-340
▁"	-341
▁دڵ	-342
ab	-343
▁پێغه	-344
..	-345
eke	-346
▁پا	-347
un	-348
▁زان	-349
▁سته	-350
▁hat	-351
aw	-352
▁ye	-353
▁خۆی	-354
îna	-355
راو	-356
گومان	-357
▁/	-358
eyên	-359
▁ردگار	-360
ەت	-361
▁بڕ	-362
îş	-363
anê	-364
▁وس	-365
ok	-366
he	-367
▁ڕۆژ	-368
ال	-369
▁خش	-370
کرد	-371
▁3	-372
▁نج	-373
▁کی	-374
▁بێگومان	-375
▁کۆ	-376
▁kar	-377
▁dest	-378
یت	-379
سه	-380
▁pêş	-381
▁شه	-382
îs	-383
▁خوای	-384
▁I	-385
▁ها	-386
be	-387
▁بن	-388
dar	-389
دار	-390
le	-391
سی	-392
▁dikar	-393
▁پێش	-394
ion	-395
ۆز	-396
▁X	-397
▁me	-398
▁ئەم	-399
ma	-400
ûr	-401
ger	-402
▁Ji	-403
لی	-404
▁V	-405
▁yek	-406
بوو	-407
▁دوو	-408
▁درو	-409
îr	-410
eng	-411
▁te	-412
▁hê	-413
iyên	-414
ekî	-415
us	-416
گر	-417
ور	-418
▁rê	-419
per	-420
▁Di	-421
▁ئیمان	-422
▁رمان	-423
man	-424
▁201	-425
kin	-426
▁نجام	-427
▁&	-428
tir	-429
▁بڵ	-430
ۆن	-431
ij	-432
iz	-433
▁حه	-434
ەیە	-435
▁وره	-436
ایی	-437
▁al	-438
▁ئاس	-439
re	-440
êd	-441
ala	-442
gir	-443
ul	-444
▁کو	-445
▁o	-446
▁رده	-447
ێز	-448
▁Ç	-449
▁لای	-450
▁بی	-451
eta	-452
▁in	-453
ax	-454
ent	-455
ame	-456
eyê	-457
ut	-458
ێنه	-459
êş	-460
▁گر	-461
îst	-462
▁خۆیان	-463
înin	-464
▁O	-465
▁Bi	-466
▁hem	-467
uh	-468
anî	-469
اده	-470
yê	-471
ەکە	-472
▁vê	-473
▁شوێن	-474
ینه	-475
▁هاو	-476
یی	-477
▁دروست	-478
▁وێت	-479
...	-480
▁hûn	-481
په	-482
▁ڕاست	-483
▁خۆش	-484
eş	-485
▁ال	-486
ڵه	-487
گی	-488
arê	-489
▁چون	-490
▁pir	-491
▁tê	-492
▁دی	-493
▁مان	-494
▁چی	-495
ina	-496
شتی	-497
ێش	-498
ۆی	-499
tr	-500
▁نده	-501
ارد	-502
)،	-503
îne	-504
▁gir	-505
▁st	-506
▁در	-507
ov	-508
▁مو	-509
▁ئایا	-510
ap	-511
ind	-512
▁Ev	-513
▁bê	-514
▁جێ	-515
ag	-516
▁wê	-517
▁رن	-518
اس	-519
▁Li	-520
▁hil	-521
▁تێ	-522
لم	-523
îl	-524
ch	-525
ینی	-526
زان	-527
▁وان	-528
▁bikar	-529
▁ڕوو	-530
ەند	-531
▁الله	-532
geh	-533
▁کردووه	-534
art	-535
▁رچ	-536
▁bû	-537
▁kir	-538
یانه	-539
▁ئە	-540
▁قه	-541
um	-542
▁din	-543
▁سز	-544
▁چا	-545
▁عل	-546
▁Z	-547
▁دەک	-548
خۆش	-549
▁چه	-550
▁شێ	-551
ازی	-552
anîn	-553
؟!	-554
▁ئام	-555
▁نیه	-556
▁5	-557
od	-558
ayê	-559
ers	-560
ێژ	-561
▁قور	-562
îh	-563
ûna	-564
op	-565
ig	-566
ارو	-567
▁وسلم	-568
اتی	-569
راوه	-570
وی	-571
est	-572
▁بده	-573
▁Y	-574
▁چاک	-575
بن	-576
كه	-577
▁سو	-578
مانه	-579
yon	-580
▁tu	-581
▁قی	-582
▁gel	-583
اوی	-584
ine	-585
▁bike	-586
▁..	-587
êj	-588
os	-589
▁ئاگ	-590
▁4	-591
▁وا	-592
ib	-593
ezin	-594
▁ڵێن	-595
▁پی	-596
▁dike	-597
▁ڵام	-598
▁هە	-599
êm	-600
▁زی	-601
erm	-602
▁kirin	-603
tina	-604
id	-605
خو	-606
▁nû	-607
▁per	-608
amp	-609
▁چونکه	-610
ans	-611
ema	-612
▁بڵێ	-613
ایان	-614
gt	-615
enê	-616
ara	-617
▁bikin	-618
ow	-619
▁ئیماندار	-620
▁Ew	-621
▁ڵک	-622
▁نیش	-623
▁سەر	-624
▁نها	-625
iştî	-626
▁بکات	-627
▁هات	-628
▁ماڵ	-629
▁av	-630
شک	-631
erê	-632
bet	-633
▁_	-634
ra	-635
iye	-636
▁ژیان	-637
ەکی	-638
شی	-639
▁...	-640
▁خوایه	-641
ec	-642
کار	-643
▁علیه	-644
waz	-645
یشه	-646
بوون	-647
نیا	-648
▁hev	-649
▁roj	-650
▁قورئ	-651
▁U	-652
▁ڕی	-653
▁lê	-654
▁کرده	-655
صلی	-656
▁em	-657
ter	-658
▁dê	-659
▁wan	-660
▁rast	-661
▁وتی	-662
lo	-663
اه	-664
▁تاو	-665
▁نو	-666
▁ev	-667
▁تان	-668
▁هێناوه	-669
سەر	-670
aj	-671
yî	-672
▁بەڵ	-673
ft	-674
anên	-675
وانی	-676
▁می	-677
دو	-678
yar	-679
▁رب	-680
▁dem	-681
xwe	-682
▁xw	-683
▁baş	-684
وێند	-685
▁فر	-686
▁یا	-687
▁نێ	-688
▁زاته	-689
▁ڵگه	-690
▁ین	-691
بار	-692
▁جی	-693
ێنن	-694
▁ئین	-695
enc	-696
▁bil	-697
▁داو	-698
uher	-699
▁پێی	-700
ayî	-701
▁دوای	-702
ۆزه	-703
▁قیامه	-704
ەکانی	-705
▁par	-706
▁mezin	-707
▁dî	-708
▁سوێند	-709
ڕه	-710
fir	-711
اتر	-712
aybet	-713
▁Nav	-714
▁wek	-715
irî	-716
ess	-717
▁ڵکی	-718
▁ئەوە	-719
یاندا	-720
▁پاش	-721
▁پار	-722
▁هۆی	-723
▁پێیان	-724
▁دان	-725
▁ên	-726
▁گون	-727
▁نگ	-728
▁Î	-729
▁چۆن	-730
▁کارو	-731
▁mal	-732
دی	-733
ex	-734
înê	-735
▁sal	-736
êz	-737
▁dikarin	-738
▁kes	-739
▁بین	-740
جا	-741
▁نە	-742
▁min	-743
سا	-744
ane	-745
بین	-746
ket	-747
▁pl	-748
ka	-749
▁هەم	-750
▁بڕی	-751
می	-752
انە	-753
▁چاو	-754
▁ڕز	-755
▁لایه	-756
خه	-757
▁شتێک	-758
ۆره	-759
▁بد	-760
arên	-761
▁hey	-762
îkî	-763
زه	-764
▁بیر	-765
ud	-766
▁of	-767
▁میشه	-768
▁بەر	-769
▁bib	-770
▁جگه	-771
iha	-772
ێنێت	-773
دایه	-774
▁tenê	-775
ۆڕ	-776
▁ون	-777
▁he	-778
▁بەڵام	-779
▁da	-780
▁ez	-781
▁رو	-782
andina	-783
la	-784
▁چاکه	-785
▁دەر	-786
▁herî	-787
ووی	-788
▁St	-789
▁رست	-790
ard	-791
og	-792
ip	-793
▁Em	-794
▁ئیتر	-795
مە	-796
کە	-797
وە	-798
▁bin	-799
▁زانی	-800
ate	-801
یە	-802
▁taybet	-803
▁Ş	-804
▁pro	-805
ation	-806
جی	-807
▁19	-808
اند	-809
▁بچ	-810
▁be	-811
ve	-812
▁ناس	-813
▁دۆزه	-814
ker	-815
ivîs	-816
▁dema	-817
ep	-818
شه	-819
anîna	-820
▁گوناه	-821
dî	-822
ەڕ	-823
▁پادا	-824
ەوەی	-825
سته	-826
tî	-827
▁bel	-828
گەر	-829
▁hew	-830
ene	-831
▁یت	-832
دە	-833
هه	-834
îz	-835
▁ئاشک	-836
▁ساڵ	-837
▁بو	-838
▁6	-839
▁شی	-840
▁بڕو	-841
فر	-842
▁تاوان	-843
▁رکه	-844
nam	-845
ort	-846
▁یەک	-847
ردن	-848
▁شێوه	-849
▁ڕوون	-850
orm	-851
▁خاوه	-852
▁çê	-853
▁رام	-854
▁هەر	-855
!!	-856
▁بان	-857
▁خۆتان	-858
▁مندا	-859
▁رم	-860
vê	-861
▁کانیان	-862
▁Q	-863
▁to	-864
etê	-865
▁Ser	-866
▁کردن	-867
ekirin	-868
▁کاتێکدا	-869
امان	-870
▁ڕێب	-871
▁میه	-872
▁وسا	-873
▁ئەمە	-874
▁dix	-875
▁dikare	-876
▁ردگاری	-877
▁گوێ	-878
▁hilber	-879
to	-880
▁سوو	-881
مد	-882
▁The	-883
▁du	-884
▁سانه	-885
Name	-886
▁ئەوەی	-887
▁وە	-888
▁ئاو	-889
▁7	-890
▁Al	-891
geha	-892
▁جۆره	-893
▁میهره	-894
="	-895
▁ئاز	-896
بی	-897
▁ران	-898
▁جیه	-899
▁dibe	-900
▁کاته	-901
▁پشت	-902
▁دێت	-903
hem	-904
îşan	-905
بۆ	-906
erî	-907
▁پر	-908
فت	-909
زانن	-910
حمد	-911
▁ڕێن	-912
گار	-913
▁8	-914
▁وتیان	-915
▁dib	-916
▁En	-917
ost	-918
izm	-919
▁باو	-920
▁ڕیان	-921
▁An	-922
▁وام	-923
▁توان	-924
êv	-925
▁یاد	-926
▁کت	-927
▁وەک	-928
▁Ch	-929
▁gelek	-930
▁هێ	-931
▁pey	-932
ment	-933
▁هەموو	-934
وت	-935
▁kêm	-936
▁Am	-937
▁خرا	-938
gah	-939
انیش	-940
▁زین	-941
ڕا	-942
▁ئاماده	-943
▁0	-944
ontr	-945
▁ڵه	-946
▁دای	-947
زو	-948
îd	-949
▁کێ	-950
îv	-951
دان	-952
اش	-953
▁ئاسمانه	-954
ang	-955
▁bir	-956
îro	-957
rop	-958
▁پێوی	-959
ontrol	-960
▁[	-961
▁:	-962
▁ڵکو	-963
▁'	-964
بە	-965
▁hene	-966
inê	-967
▁ئینجا	-968
▁“	-969
▁رچی	-970
îm	-971
▁TV	-972
▁کاتی	-973
مانی	-974
if	-975
▁ئایه	-976
▁تای	-977
گیز	-978
▁ترس	-979
▁bilind	-980
▁10	-981
▁tev	-982
▁In	-983
▁).	-984
erên	-985
▁ê	-986
▁hemû	-987
kêş	-988
▁fir	-989
▁محمد	-990
▁وڵ	-991
oloj	-992
te	-993
bij	-994
ide	-995
ekn	-996
▁رنامه	-997
▁tişt	-998
شتر	-999
ûk	-1000
▁نێوان	-1001
af	-1002
گرت	-1003
orê	-1004
ێکه	-1005
ta	-1006
گە	-1007
▁نزی	-1008
نوو	-1009
کات	-1010
▁heye	-1011
▁خێر	-1012
oz	-1013
▁daw	-1014
▁سی	-1015
▁wer	-1016
▁خت	-1017
▁لەو	-1018
ەتی	-1019
▁têk	-1020
000	-1021
▁پاشان	-1022
▁tr	-1023
▁wekî	-1024
بەر	-1025
▁ڕو	-1026
▁کاتێك	-1027
▁Par	-1028
▁ئێست	-1029
دوو	-1030
▁am	-1031
ack	-1032
▁منداڵ	-1033
▁Ez	-1034
ora	-1035
▁ڕۆژی	-1036
▁çar	-1037
▁گرن	-1038
▁ئیمانداران	-1039
ەکەی	-1040
▁dir	-1041
ۆژ	-1042
▁ویدا	-1043
▁ژیانی	-1044
êde	-1045
▁dikin	-1046
▁کێش	-1047
خی	-1048
▁هەیە	-1049
▁پڕ	-1050
▁سوپ	-1051
▁ڕێگه	-1052
îkar	-1053
ۆک	-1054
▁sp	-1055
▁ناکه	-1056
sa	-1057
▁سزای	-1058
xist	-1059
▁yê	-1060
▁Pêş	-1061
▁زیاتر	-1062
خود	-1063
▁cîh	-1064
alak	-1065
ekê	-1066
▁شوێنی	-1067
▁کەس	-1068
etên	-1069
▁جۆر	-1070
bûna	-1071
ia	-1072
▁20	-1073
▁بار	-1074
▁12	-1075
▁divê	-1076
▁ڕێبازی	-1077
kirinê	-1078
چی	-1079
▁هاوه	-1080
▁ئاگاد	-1081
قی	-1082
▁ڕێنم	-1083
ck	-1084
-1	-1085
کردن	-1086
▁رمانی	-1087
irov	-1088
▁قسه	-1089
▁رگیز	-1090
ce	-1091
▁ئاده	-1092
201	-1093
orî	-1094
گەڵ	-1095
),	-1096
▁Ber	-1097
▁derb	-1098
▁لەسەر	-1099
▁هیدایه	-1100
ەیەکی	-1101
▁تەن	-1102
▁hêla	-1103
▁çi	-1104
▁خواو	-1105
omment	-1106
▁لەگەڵ	-1107
ڕێ	-1108
irs	-1109
▁)،	-1110
ef	-1111
ob	-1112
▁malper	-1113
توان	-1114
▁–	-1115
▁hatiye	-1116
ەوت	-1117
are	-1118
▁یی	-1119
▁hin	-1120
aniya	-1121
▁بگ	-1122
▁دنیا	-1123
ian	-1124
▁wî	-1125
yayê	-1126
▁دات	-1127
▁9	-1128
yên	-1129
▁veg	-1130
▁11	-1131
▁کتێ	-1132
▁یاخود	-1133
lat	-1134
▁ئێمە	-1135
aran	-1136
▁كرد	-1137
▁فریش	-1138
▁xizm	-1139
▁کاری	-1140
▁ئێستا	-1141
▁ئەگەر	-1142
ûb	-1143
▁kan	-1144
▁tem	-1145
lt	-1146
ub	-1147
▁pişt	-1148
▁موسا	-1149
وم	-1150
und	-1151
▁خشی	-1152
▁خوێن	-1153
up	-1154
êne	-1155
awa	-1156
iyan	-1157
▁تۆڵه	-1158
▁پشتی	-1159
▁baz	-1160
mend	-1161
ترین	-1162
ore	-1163
net	-1164
▁beş	-1165
▁دەست	-1166
uya	-1167
▁ڵات	-1168
▁نجامی	-1169
▁بۆیان	-1170
▁dixwaz	-1171
ht	-1172
xweş	-1173
alên	-1174
ust	-1175
▁aliyê	-1176
lek	-1177
اندا	-1178
asyon	-1179
▁سنوو	-1180
ایە	-1181
▁zêd	-1182
▁ڕۆژه	-1183
▁باڵ	-1184
▁شتی	-1185
▁zêde	-1186
tion	-1187
wer	-1188
▁پاداشتی	-1189
ahiya	-1190
▁نات	-1191
▁گرت	-1192
اب	-1193
گرن	-1194
▁ستی	-1195
ێری	-1196
ûp	-1197
▁جار	-1198
▁شتانه	-1199
ava	-1200
ێته	-1201
▁niha	-1202
▁bih	-1203
ها	-1204
▁cih	-1205
▁Pro	-1206
sî	-1207
▁کر	-1208
▁صلی	-1209
hên	-1210
▁پارێز	-1211
hat	-1212
▁گوم	-1213
▁قورئانه	-1214
com	-1215
eyî	-1216
امی	-1217
▁بووه	-1218
jm	-1219
عمه	-1220
.0	-1221
▁نیشانه	-1222
▁غه	-1223
▁لێک	-1224
ژم	-1225
داو	-1226
▁شار	-1227
عه	-1228
▁hilbij	-1229
▁tekn	-1230
cr	-1231
▁ئیس	-1232
▁نم	-1233
aq	-1234
▁kom	-1235
▁رپ	-1236
▁destp	-1237
▁kontrol	-1238
▁فریشته	-1239
سو	-1240
▁خوانه	-1241
ata	-1242
▁سوپاس	-1243
▁پێن	-1244
ies	-1245
▁رئه	-1246
▁دڵنیا	-1247
▁نیعمه	-1248
▁شێو	-1249
▁كان	-1250
îya	-1251
▁agah	-1252
▁خۆت	-1253
▁وتن	-1254
▁شتێکی	-1255
اف	-1256
bi	-1257
▁pêk	-1258
▁دەبێت	-1259
▁خوارد	-1260
elê	-1261
▁تێک	-1262
ser	-1263
▁لێی	-1264
ite	-1265
اکی	-1266
▁بر	-1267
▁got	-1268
etir	-1269
ۆڵ	-1270
▁توو	-1271
hemên	-1272
▁عه	-1273
▁ودو	-1274
20	-1275
eyan	-1276
▁aw	-1277
ha	-1278
▁xwend	-1279
کاری	-1280
رێته	-1281
▁ناوی	-1282
▁باش	-1283
▁پێویست	-1284
▁dax	-1285
▁داوه	-1286
yp	-1287
ەیت	-1288
▁دیاری	-1289
▁ڕزگار	-1290
dan	-1291
▁خەڵ	-1292
▁Her	-1293
ێڵ	-1294
▁ناخۆش	-1295
▁alîkar	-1296
هات	-1297
▁200	-1298
ژده	-1299
▁ویش	-1300
ێکیان	-1301
▁Kur	-1302
▁vir	-1303
تا	-1304
▁dan	-1305
▁بخ	-1306
▁the	-1307
▁كات	-1308
▁پیاو	-1309
co	-1310
▁قورئان	-1311
▁Yek	-1312
ingeh	-1313
▁دژ	-1314
▁vek	-1315
ity	-1316
ەیەک	-1317
ڕی	-1318
▁$	-1319
one	-1320
▁saz	-1321
▁Lê	-1322
▁ava	-1323
پر	-1324
اکه	-1325
▁Sp	-1326
orên	-1327
▁ھ	-1328
olê	-1329
▁lîst	-1330
▁girêd	-1331
eg	-1332
kirî	-1333
▁چەند	-1334
اڵی	-1335
da	-1336
کردنی	-1337
▁ar	-1338
▁بب	-1339
▁Xwe	-1340
▁%	-1341
▁ینه	-1342
▁hês	-1343
▁بڕیار	-1344
▁nîşan	-1345
▁مکار	-1346
êkol	-1347
رە	-1348
چه	-1349
▁کراوه	-1350
▁هێز	-1351
▁جه	-1352
اڵه	-1353
tirîn	-1354
▁لێخۆش	-1355
îka	-1356
وویی	-1357
اواز	-1358
▁Tr	-1359
▁bibe	-1360
▁گۆڕ	-1361
ارە	-1362
▁ببه	-1363
▁weş	-1364
▁هەڵ	-1365
onê	-1366
▁xeb	-1367
▁تایبه	-1368
ەوێت	-1369
arî	-1370
▁واته	-1371
هی	-1372
▁bide	-1373
▁مۆ	-1374
▁kur	-1375
▁bûn	-1376
▁کراو	-1377
نده	-1378
▁پرسی	-1379
یشی	-1380
eser	-1381
▁ندی	-1382
فره	-1383
th	-1384
▁درۆ	-1385
▁çalak	-1386
تانه	-1387
▁band	-1388
▁ودوا	-1389
سن	-1390
انەی	-1391
all	-1392
▁یار	-1393
atel	-1394
گاری	-1395
kê	-1396
▁تدا	-1397
▁رباره	-1398
▁heman	-1399
dê	-1400
▁bik	-1401
ûnê	-1402
tinê	-1403
▁سامان	-1404
▁بدات	-1405
EC	-1406
▁têkil	-1407
▁cud	-1408
▁بۆتان	-1409
رۆ	-1410
▁Pl	-1411
▁Per	-1412
uy	-1413
ەل	-1414
▁ڵکه	-1415
▁وایه	-1416
▁جوان	-1417
▁çav	-1418
▁zêdetir	-1419
اتە	-1420
ەین	-1421
era	-1422
▁nivîs	-1423
▁piştî	-1424
▁سێ	-1425
▁شایه	-1426
esaz	-1427
ahî	-1428
خۆ	-1429
niy	-1430
▁ئافره	-1431
ێڕ	-1432
irg	-1433
▁نین	-1434
▁big	-1435
▁dik	-1436
▁bikaranîn	-1437
▁kev	-1438
▁چاك	-1439
▁نزیک	-1440
enda	-1441
▁sed	-1442
▁داد	-1443
زانی	-1444
▁Name	-1445
ایدا	-1446
▁xuya	-1447
▁hêz	-1448
▁بیه	-1449
▁برد	-1450
▁mirov	-1451
کراو	-1452
▁واو	-1453
▁زیندوو	-1454
ant	-1455
▁paş	-1456
"&	-1457
▁روون	-1458
ەنج	-1459
▁15	-1460
▁welat	-1461
▁تاقی	-1462
din	-1463
▁نازو	-1464
êre	-1465
▁reng	-1466
▁Der	-1467
▁HD	-1468
▁کەم	-1469
▁2018	-1470
▁yekê	-1471
▁کۆم	-1472
▁تو	-1473
▁بەک	-1474
ێنی	-1475
▁بكه	-1476
▁civ	-1477
▁tel	-1478
▁Ar	-1479
▁baj	-1480
arok	-1481
▁dij	-1482
andinê	-1483
age	-1484
▁سان	-1485
▁میز	-1486
aqij	-1487
▁dur	-1488
îng	-1489
▁şîr	-1490
▁yekem	-1491
ەش	-1492
▁dawî	-1493
▁داوای	-1494
▁ناتوان	-1495
ستن	-1496
astina	-1497
ER	-1498
ign	-1499
بێ	-1500
oya	-1501
ewş	-1502
▁کردوون	-1503
گەی	-1504
▁خوان	-1505
bû	-1506
▁ریه	-1507
▁کرێت	-1508
▁دۆ	-1509
▁demê	-1510
▁ریان	-1511
تی	-1512
▁خز	-1513
▁meh	-1514
▁sê	-1515
▁وم	-1516
▁enc	-1517
▁باس	-1518
▁ئار	-1519
اریان	-1520
چون	-1521
▁دابه	-1522
▁پێک	-1523
بو	-1524
▁ra	-1525
ish	-1526
▁guher	-1527
▁واز	-1528
▁(1	-1529
▁mod	-1530
▁cuda	-1531
eq	-1532
eber	-1533
يه	-1534
▁بگه	-1535
▁خوایش	-1536
▁ڵی	-1537
ou	-1538
▁xwar	-1539
▁dide	-1540
▁رستن	-1541
▁خۆم	-1542
انیان	-1543
▁Kar	-1544
anîngeha	-1545
▁er	-1546
▁کردنی	-1547
▁Ma	-1548
▁pêw	-1549
▁navê	-1550
اسی	-1551
ewe	-1552
▁Ewrop	-1553
▁دەکات	-1554
▁pîş	-1555
▁bibînin	-1556
iyek	-1557
▁ناد	-1558
▁ڕێنموویی	-1559
▁ئیب	-1560
▁بهێنن	-1561
ens	-1562
▁hate	-1563
atê	-1564
▁bingeh	-1565
ووە	-1566
▁رز	-1567
▁day	-1568
ایسته	-1569
▁pirs	-1570
▁نوێژ	-1571
▁زۆربه	-1572
▁Roj	-1573
ادا	-1574
▁Tu	-1575
ater	-1576
▁دەتوان	-1577
▁Co	-1578
▁ردگارا	-1579
▁گومڕ	-1580
▁زانن	-1581
▁نابێت	-1582
▁ور	-1583
▁سێک	-1584
▁heta	-1585
▁ئاشکر	-1586
ener	-1587
bo	-1588
ەری	-1589
▁start	-1590
تره	-1591
▁pêşkêş	-1592
▁حمه	-1593
AN	-1594
▁ببێت	-1595
▁؟	-1596
.1	-1597
ۆته	-1598
▁دوور	-1599
▁هاوسه	-1600
▁ڵاتی	-1601
▁Sh	-1602
ult	-1603
ator	-1604
وک	-1605
ەنگ	-1606
پێک	-1607
▁شک	-1608
▁ناسان	-1609
▁çawa	-1610
▁خواوه	-1611
ێی	-1612
اتان	-1613
▁ac	-1614
▁سە	-1615
▁têne	-1616
▁رامبه	-1617
îf	-1618
▁گوفت	-1619
▁ویستی	-1620
ye	-1621
▁+	-1622
▁خراپ	-1623
ڕۆ	-1624
▁encam	-1625
▁ڕتان	-1626
lê	-1627
ive	-1628
چوون	-1629
AR	-1630
dana	-1631
awer	-1632
▁dirêj	-1633
▁•	-1634
oc	-1635
ئی	-1636
îkê	-1637
▁یشت	-1638
وار	-1639
ۆشی	-1640
▁hez	-1641
▁خراپه	-1642
irx	-1643
هێن	-1644
▁یادی	-1645
▁زانایه	-1646
ikar	-1647
ong	-1648
tern	-1649
▁ڵده	-1650
zan	-1651
▁Hem	-1652
▁خۆمان	-1653
▁nêz	-1654
▁Zanîngeha	-1655
avên	-1656
▁مرد	-1657
▁باشه	-1658
راهی	-1659
▁خته	-1660
▁bêtir	-1661
▁میزاد	-1662
ikê	-1663
çûk	-1664
▁ئاشکرا	-1665
یرعه	-1666
own	-1667
▁مل	-1668
▁ردا	-1669
ree	-1670
ێو	-1671
▁im	-1672
werde	-1673
pl	-1674
ێتان	-1675
▁ڕان	-1676
▁bernam	-1677
ekirina	-1678
▁avê	-1679
dew	-1680
▁ناک	-1681
▁hejm	-1682
▁ڕووی	-1683
ێكی	-1684
▁نر	-1685
▁ker	-1686
داوه	-1687
وس	-1688
داری	-1689
hil	-1690
▁کۆت	-1691
▁ئیبراهی	-1692
sta	-1693
ona	-1694
▁hes	-1695
▁ئاگادار	-1696
▁Kom	-1697
پار	-1698
ەنین	-1699
alê	-1700
EL	-1701
▁تیش	-1702
kên	-1703
▁taybetî	-1704
otin	-1705
▁ڕزق	-1706
anan	-1707
▁لەم	-1708
▁چاوه	-1709
▁berhemên	-1710
çe	-1711
▁hiş	-1712
▁دوژم	-1713
ûl	-1714
▁ئاسمان	-1715
▁13	-1716
▁van	-1717
▁ڕێک	-1718
▁بم	-1719
alît	-1720
▁کا	-1721
▁بینی	-1722
▁bikaranîna	-1723
ual	-1724
▁گەو	-1725
▁derbas	-1726
▁bibin	-1727
▁cîhanê	-1728
):	-1729
ile	-1730
▁100	-1731
ix	-1732
▁met	-1733
▁دایک	-1734
▁perg	-1735
▁Û	-1736
▁jin	-1737
▁دنی	-1738
گای	-1739
ert	-1740
▁Br	-1741
▁ژن	-1742
form	-1743
▁Dema	-1744
▁zanîn	-1745
▁مە	-1746
▁رتان	-1747
▁کانتان	-1748
▁هۆ	-1749
▁ندێک	-1750
▁تیایدا	-1751
▁دار	-1752
ug	-1753
▁بوونه	-1754
▁ردگارت	-1755
گیر	-1756
50	-1757
گری	-1758
-2	-1759
▁بزانن	-1760
▁oper	-1761
isp	-1762
ola	-1763
رێن	-1764
ێره	-1765
▁30	-1766
▁؟!	-1767
ade	-1768
دانی	-1769
▁مانه	-1770
▁یمان	-1771
▁زانیاری	-1772
▁pêv	-1773
ect	-1774
irk	-1775
▁١	-1776
▁خشه	-1777
▁فیرعه	-1778
حه	-1779
ight	-1780
▁2019	-1781
▁Gir	-1782
ariya	-1783
gehê	-1784
ێکدا	-1785
▁Amer	-1786
▁هێنا	-1787
▁سنوور	-1788
ure	-1789
ach	-1790
▁ڕاسته	-1791
▁*	-1792
ازه	-1793
▁dibêj	-1794
ûs	-1795
ayên	-1796
▁neh	-1797
▁Pr	-1798
▁کۆش	-1799
▁jiy	-1800
▁زانێت	-1801
▁girîng	-1802
▁2017	-1803
گوز	-1804
▁pîşesaz	-1805
▁nas	-1806
▁18	-1807
▁بەش	-1808
▁satel	-1809
▁خۆر	-1810
êkolîn	-1811
▁یاخی	-1812
▁کردو	-1813
وونه	-1814
▁diyar	-1815
ice	-1816
▁ڕانه	-1817
▁temam	-1818
▁یاند	-1819
▁بکەین	-1820
akê	-1821
ond	-1822
▁مێش	-1823
▁rastî	-1824
▁ئیبراهیم	-1825
▁دیه	-1826
▁derman	-1827
اون	-1828
▁گوناهو	-1829
ain	-1830
ewî	-1831
پرس	-1832
darî	-1833
▁سزایه	-1834
▁دەم	-1835
na	-1836
▁پاک	-1837
▁شایسته	-1838
ena	-1839
hest	-1840
pirs	-1841
IN	-1842
▁çend	-1843
▁Nû	-1844
▁خۆشی	-1845
▁ژێر	-1846
▁ردگاریان	-1847
tp	-1848
▁sala	-1849
▁kerema	-1850
اوە	-1851
▁Gel	-1852
avê	-1853
▁خوادا	-1854
met	-1855
کەوت	-1856
înî	-1857
▁bala	-1858
▁dîtin	-1859
▁پەی	-1860
▁گاڵ	-1861
▁biş	-1862
uc	-1863
▁لا	-1864
eweyî	-1865
▁ماوه	-1866
▁فێر	-1867
▁heft	-1868
rain	-1869
tê	-1870
ەوی	-1871
کرده	-1872
▁mil	-1873
êw	-1874
پێ	-1875
یا	-1876
▁رانی	-1877
▁bar	-1878
▁Hûn	-1879
▁نز	-1880
eyek	-1881
▁rewş	-1882
▁وبه	-1883
▁رمانبه	-1884
ks	-1885
▁پیل	-1886
▁لێیان	-1887
▁شته	-1888
hev	-1889
▁کەو	-1890
چونکه	-1891
qu	-1892
▁کاره	-1893
▁خشێت	-1894
▁Hev	-1895
xistin	-1896
▁24	-1897
▁رمانه	-1898
ewl	-1899
▁heb	-1900
▁وانی	-1901
andard	-1902
▁ron	-1903
▁Er	-1904
▁hêsan	-1905
▁DV	-1906
erc	-1907
bera	-1908
▁berê	-1909
▁جیاواز	-1910
▁بڕوایان	-1911
▁He	-1912
ord	-1913
▁یتان	-1914
▁دەکەن	-1915
▁for	-1916
▁پاداشت	-1917
ver	-1918
▁mak	-1919
▁nexweş	-1920
كی	-1921
ûpel	-1922
ەکەم	-1923
▁درێژ	-1924
▁کاندا	-1925
▁جو	-1926
▁piştgir	-1927
▁سزاو	-1928
پارێز	-1929
girêk	-1930
▁were	-1931
▁ئامۆژ	-1932
▁hatine	-1933
▁پیر	-1934
çeyên	-1935
▁تون	-1936
▁ئەوەیە	-1937
li	-1938
atto	-1939
▁sereke	-1940
emîn	-1941
▁هێشت	-1942
pr	-1943
▁Fr	-1944
▁مژده	-1945
صل	-1946
▁بیت	-1947
▁دره	-1948
▁کانیش	-1949
▁جێگه	-1950
▁مۆڵه	-1951
kî	-1952
agih	-1953
▁dew	-1954
▁sîst	-1955
uhest	-1956
▁تێدا	-1957
▁خەڵک	-1958
▁1.	-1959
▁هەو	-1960
able	-1961
.201	-1962
▁jêr	-1963
▁قو	-1964
▁بۆی	-1965
▁دنیادا	-1966
پی	-1967
▁یانه	-1968
olor	-1969
▁دەد	-1970
▁نییە	-1971
▁خێ	-1972
▁میان	-1973
▁satelît	-1974
▁بەه	-1975
▁هێنن	-1976
▁pêşniy	-1977
▁girêdayî	-1978
▁16	-1979
▁herêm	-1980
ڵی	-1981
manc	-1982
▁Dest	-1983
▁مووی	-1984
▁پێشتر	-1985
صلى	-1986
▁عليه	-1987
êl	-1988
okê	-1989
▁eger	-1990
▁كاتێك	-1991
▁pel	-1992
▁بتر	-1993
▁Comment	-1994
▁کتێب	-1995
▁شاره	-1996
▁بۆیه	-1997
▁بیان	-1998
یشیان	-1999
▁تووشی	-2000
▁ملکه	-2001
▁belav	-2002
▁جیاتی	-2003
▁germ	-2004
îsa	-2005
▁zarok	-2006
▁ڕۆزی	-2007
wend	-2008
▁ربه	-2009
▁Ne	-2010
▁تانه	-2011
ram	-2012
▁وانیش	-2013
▁teknoloj	-2014
ge	-2015
▁نارد	-2016
lam	-2017
lektr	-2018
ash	-2019
▁ad	-2020
▁وێ	-2021
▁ورد	-2022
▁هەند	-2023
▁گومان	-2024
▁پرسیار	-2025
▁cr	-2026
▁نای	-2027
▁destpêk	-2028
▁vî	-2029
اکان	-2030
▁Hil	-2031
ace	-2032
▁ab	-2033
▁pêvaj	-2034
▁گاڵته	-2035
▁لێده	-2036
قه	-2037
▁هاوڕێ	-2038
▁بووم	-2039
▁kesên	-2040
▁tête	-2041
▁مێ	-2042
▁رگه	-2043
ime	-2044
▁جاد	-2045
▁مرۆ	-2046
▁destê	-2047
▁بێته	-2048
els	-2049
▁dil	-2050
▁bikarhên	-2051
500	-2052
▁داده	-2053
ly	-2054
▁ناکات	-2055
▁لەبەر	-2056
arêz	-2057
▁هره	-2058
▁Ger	-2059
mm	-2060
▁În	-2061
بژ	-2062
رن	-2063
istanê	-2064
kan	-2065
▁New	-2066
çav	-2067
▁paqij	-2068
ibû	-2069
▁Mar	-2070
▁Pir	-2071
لام	-2072
▁bîr	-2073
io	-2074
▁جیهان	-2075
▁dikarî	-2076
▁pisp	-2077
▁bazirg	-2078
name	-2079
oka	-2080
▁بانه	-2081
etr	-2082
▁دانی	-2083
▁pêwîst	-2084
▁car	-2085
▁هەست	-2086
jeya	-2087
▁موع	-2088
▁هان	-2089
▁dixwazin	-2090
▁بکەن	-2091
baz	-2092
une	-2093
▁test	-2094
▁گیان	-2095
▁wat	-2096
مار	-2097
▁ومه	-2098
▁xizmeta	-2099
▁@	-2100
yal	-2101
▁xweş	-2102
▁malpera	-2103
ییە	-2104
▁بۆچی	-2105
جیزه	-2106
▁wir	-2107
▁خوێند	-2108
▁and	-2109
▁mişt	-2110
▁فری	-2111
endur	-2112
▁وته	-2113
▁باوک	-2114
ank	-2115
▁ئازار	-2116
▁سوپاسگوز	-2117
▁باسی	-2118
▁kanala	-2119
▁bidin	-2120
ne	-2121
▁تەنها	-2122
▁خێز	-2123
▁nava	-2124
▁رنج	-2125
▁کافر	-2126
war	-2127
▁بۆیە	-2128
▁کۆمەڵ	-2129
سە	-2130
yo	-2131
▁شتێك	-2132
▁Têk	-2133
▁کتر	-2134
▁on	-2135
▁giştî	-2136
lem	-2137
▁pr	-2138
▁deng	-2139
▁vekirî	-2140
▁یاری	-2141
ivî	-2142
▁تاوانبار	-2143
ikên	-2144
▁کرا	-2145
▁navbera	-2146
nîş	-2147
ەز	-2148
ada	-2149
▁27	-2150
▁ستای	-2151
▁باره	-2152
▁مرۆڤ	-2153
▁ڕیزی	-2154
▁وابوو	-2155
▁ragih	-2156
▁نهێنی	-2157
her	-2158
▁rû	-2159
▁رفر	-2160
وسف	-2161
▁ستن	-2162
▁دوژمن	-2163
▁ویست	-2164
کو	-2165
▁xwedî	-2166
▁daxwaz	-2167
▁bal	-2168
saz	-2169
▁nîş	-2170
▁Ewropayê	-2171
//	-2172
ێنین	-2173
qê	-2174
▁°	-2175
▁ردوو	-2176
▁پێده	-2177
▁Bil	-2178
▁رپا	-2179
▁or	-2180
▁Dax	-2181
://	-2182
▁în	-2183
▁بوونی	-2184
▁لێپرس	-2185
▁نوو	-2186
▁بیرو	-2187
▁Mezin	-2188
▁Heke	-2189
▁گرێت	-2190
لای	-2191
atîk	-2192
▁دین	-2193
▁چوو	-2194
▁چونکە	-2195
bar	-2196
▁گۆ	-2197
▁مردن	-2198
▁موعجیزه	-2199
Comment	-2200
▁mu	-2201
▁تیان	-2202
▁باشتر	-2203
▁zim	-2204
load	-2205
گرێت	-2206
▁سەی	-2207
بینن	-2208
▁des	-2209
▁ch	-2210
▁dev	-2211
▁دامه	-2212
act	-2213
▁hîn	-2214
▁Dewl	-2215
▁بنه	-2216
▁کاتێکیش	-2217
▁cur	-2218
bûyî	-2219
▁باز	-2220
yan	-2221
▁co	-2222
şker	-2223
▁بانگ	-2224
▁nikar	-2225
پێکەنین	-2226
▁Piştî	-2227
▁کردنه	-2228
▁مانگ	-2229
iew	-2230
▁Ex	-2231
شتن	-2232
▁balafir	-2233
izg	-2234
بارەی	-2235
▁چاود	-2236
ie	-2237
pen	-2238
gire	-2239
ڵمان	-2240
▁DVB	-2241
▁end	-2242
▁yan	-2243
30	-2244
ting	-2245
▁ماش	-2246
aya	-2247
وێت	-2248
.5	-2249
▁Rê	-2250
▁ئێش	-2251
لە	-2252
▁jê	-2253
▁یارمه	-2254
▁dûr	-2255
کردنه	-2256
▁gorî	-2257
▁چاکی	-2258
ومێ	-2259
▁--	-2260
▁داهات	-2261
بوونی	-2262
▁ئاگری	-2263
▁نیشان	-2264
▁çareser	-2265
emper	-2266
▁rêya	-2267
▁زیان	-2268
▁ئاره	-2269
▁دروستی	-2270
▁رانه	-2271
dariya	-2272
▁Bikar	-2273
▁یکه	-2274
▁یوسف	-2275
▁bix	-2276
▁ڕاستیدا	-2277
▁rêz	-2278
▁xel	-2279
▁bînin	-2280
TV	-2281
dro	-2282
▁elektr	-2283
ەیی	-2284
▁Bers	-2285
▁هیچی	-2286
iyon	-2287
▁satelîtê	-2288
▁ناچ	-2289
▁zan	-2290
▁pirt	-2291
▁ئارام	-2292
▁موویان	-2293
oş	-2294
▁dig	-2295
▁کیان	-2296
▁نەخۆش	-2297
▁2016	-2298
lu	-2299
asî	-2300
▁نابن	-2301
xistina	-2302
▁جوو	-2303
▁خواناس	-2304
eka	-2305
▁بەرد	-2306
va	-2307
ino	-2308
▁bet	-2309
pê	-2310
▁bij	-2311
▁Un	-2312
▁Bit	-2313
▁Pel	-2314
▁caran	-2315
enb	-2316
leh	-2317
گۆ	-2318
ick	-2319
dewam	-2320
▁منیش	-2321
▁یەکەم	-2322
ass	-2323
▁!!	-2324
▁بڕیاری	-2325
▁تەو	-2326
اییه	-2327
▁str	-2328
▁pakê	-2329
▁14	-2330
▁Bo	-2331
fa	-2332
ێنانی	-2333
▁,	-2334
akî	-2335
xan	-2336
▁Dem	-2337
ELEC	-2338
▁Hemû	-2339
."	-2340
îq	-2341
ردنی	-2342
▁پارێزکار	-2343
,000	-2344
▁کەواتە	-2345
▁بانی	-2346
▁mater	-2347
▁ئامۆژگاری	-2348
ial	-2349
▁بووین	-2350
اران	-2351
▁hatî	-2352
▁لو	-2353
▁gor	-2354
▁ساڵی	-2355
▁firot	-2356
▁hewce	-2357
▁gelemper	-2358
▁حی	-2359
▁ڤ	-2360
▁باڵاده	-2361
ûş	-2362
▁كو	-2363
▁pol	-2364
▁بت	-2365
انەیە	-2366
oft	-2367
خت	-2368
ware	-2369
▁destpê	-2370
▁گە	-2371
▁بزان	-2372
▁بێدار	-2373
ownload	-2374
▁pergala	-2375
ium	-2376
▁eşker	-2377
▁گیر	-2378
▁gelemperî	-2379
▁وێن	-2380
پیر	-2381
▁nirx	-2382
▁standard	-2383
bûn	-2384
jim	-2385
gerin	-2386
-4	-2387
٠٠	-2388
▁sh	-2389
pp	-2390
onus	-2391
asyona	-2392
andî	-2393
▁kanalên	-2394
▁لێپرسینه	-2395
for	-2396
▁پۆ	-2397
بینی	-2398
گرتن	-2399
sp	-2400
oll	-2401
veç	-2402
▁50	-2403
▁afir	-2404
ûm	-2405
▁zû	-2406
▁دووڕ	-2407
▁کاروکرده	-2408
ێم	-2409
ton	-2410
omar	-2411
2.	-2412
ave	-2413
amez	-2414
▁دوایی	-2415
▁veguher	-2416
zad	-2417
▁maf	-2418
▁دڵنی	-2419
▁weşana	-2420
فه	-2421
▁خۆشه	-2422
▁away	-2423
▁salan	-2424
▁destûr	-2425
▁ax	-2426
▁عی	-2427
fireh	-2428
▁ئاینده	-2429
▁ورات	-2430
nameya	-2431
ID	-2432
der	-2433
ell	-2434
▁Rêv	-2435
ینەوە	-2436
▁ئاینی	-2437
▁hilbijêre	-2438
ەپ	-2439
▁bawer	-2440
▁17	-2441
▁ناخۆشی	-2442
▁kalît	-2443
▁کۆتایی	-2444
ff	-2445
▁Pol	-2446
▁دڵی	-2447
ase	-2448
▁blo	-2449
▁رمه	-2450
▁موس	-2451
▁ڕێز	-2452
تاندا	-2453
▁زامه	-2454
▁veguhest	-2455
atên	-2456
ilî	-2457
▁ba	-2458
▁prof	-2459
▁ئەوان	-2460
▁ستیان	-2461
ەندی	-2462
▁Guher	-2463
▁Net	-2464
▁plat	-2465
▁رنا	-2466
▁ماو	-2467
erast	-2468
▁جادوو	-2469
▁پێبه	-2470
▁کانه	-2471
جه	-2472
tên	-2473
▁hatin	-2474
▁berdewam	-2475
▁hêza	-2476
▁زیاد	-2477
▁ردگارم	-2478
ann	-2479
▁ht	-2480
▁rêw	-2481
▁جێی	-2482
ۆزو	-2483
▁وای	-2484
▁بکەم	-2485
▁çêkirin	-2486
▁لی	-2487
▁ناحه	-2488
▁سێك	-2489
pey	-2490
▁Kurd	-2491
▁Mod	-2492
▁qey	-2493
▁وری	-2494
▁Mal	-2495
▁پێویستە	-2496
PE	-2497
ej	-2498
بڕ	-2499
uman	-2500
ەس	-2501
▁doz	-2502
▁free	-2503
▁Agah	-2504
▁بترسن	-2505
▁هاوار	-2506
▁bandor	-2507
NE	-2508
inc	-2509
▁ناه	-2510
▁نێت	-2511
▁ڕاز	-2512
▁ewleh	-2513
خش	-2514
▁چوار	-2515
AT	-2516
="1	-2517
▁ومی	-2518
▁رموێت	-2519
ەست	-2520
▁hemî	-2521
▁كی	-2522
▁dijî	-2523
▁lez	-2524
وانیت	-2525
▁سوود	-2526
omp	-2527
▁نایه	-2528
▁ناش	-2529
▁25	-2530
▁ردگارتان	-2531
yl	-2532
▁ot	-2533
▁color	-2534
▁»	-2535
▁kê	-2536
aser	-2537
▁wên	-2538
▁ختی	-2539
▁kevn	-2540
▁pirsgirêk	-2541
▁بکرێت	-2542
▁Ad	-2543
nîşan	-2544
▁زاند	-2545
▁Hêz	-2546
رده	-2547
ated	-2548
▁Tirk	-2549
▁hewl	-2550
لا	-2551
▁زوو	-2552
امن	-2553
▁گێڕ	-2554
AS	-2555
▁dar	-2556
▁Fir	-2557
▁پێم	-2558
▁كانی	-2559
▁بڵاو	-2560
ont	-2561
▁وز	-2562
▁پێد	-2563
▁cihê	-2564
▁telef	-2565
▁دەی	-2566
در	-2567
▁واوی	-2568
▁perwerde	-2569
▁xwendek	-2570
▁Bel	-2571
our	-2572
ansa	-2573
▁دانه	-2574
▁دەکرد	-2575
keta	-2576
▁IP	-2577
▁hilberîna	-2578
▁شم	-2579
▁makîn	-2580
▁پاڵ	-2581
▁پشتیوان	-2582
▁2.	-2583
aniyê	-2584
▁شیان	-2585
▁کێشه	-2586
neteweyî	-2587
این	-2588
urr	-2589
ons	-2590
بکه	-2591
dest	-2592
▁ger	-2593
îp	-2594
▁!	-2595
▁کچ	-2596
ency	-2597
mail	-2598
ill	-2599
▁Kan	-2600
▁pêd	-2601
▁گرنگ	-2602
işk	-2603
▁rûpel	-2604
▁lêkolîn	-2605
bûnê	-2606
▁http	-2607
▁parastina	-2608
▁hesab	-2609
▁پێمان	-2610
bend	-2611
▁sîstema	-2612
▁دروو	-2613
▁derbarê	-2614
▁کۆمه	-2615
▁هاتووه	-2616
îj	-2617
ivê	-2618
▁رگ	-2619
▁karsaz	-2620
60	-2621
▁بژ	-2622
artî	-2623
artin	-2624
▁bist	-2625
▁kontrola	-2626
پۆشی	-2627
▁زانستی	-2628
ake	-2629
meh	-2630
▁bûy	-2631
▁trans	-2632
▁دەڵ	-2633
▁پەیو	-2634
▁نموونه	-2635
ypto	-2636
ران	-2637
▁Ac	-2638
▁neb	-2639
▁We	-2640
▁ڕازی	-2641
▁خشین	-2642
▁سانێک	-2643
fr	-2644
▁çap	-2645
ika	-2646
▁شوێنه	-2647
▁نام	-2648
10	-2649
▁چاوی	-2650
▁رمووی	-2651
▁دانایه	-2652
▁رش	-2653
▁تاری	-2654
yn	-2655
▁٢	-2656
▁med	-2657
▁گەورە	-2658
▁ژی	-2659
ebij	-2660
▁زۆری	-2661
▁نازانن	-2662
▁هەندێک	-2663
iyeke	-2664
ند	-2665
▁ڵێت	-2666
▁دەگ	-2667
iq	-2668
ela	-2669
ێتی	-2670
▁tune	-2671
ED	-2672
▁وش	-2673
▁berî	-2674
.9	-2675
ink	-2676
▁فی	-2677
▁Go	-2678
▁یدا	-2679
endurist	-2680
sh	-2681
êrin	-2682
▁rêv	-2683
droid	-2684
▁نیشته	-2685
▁#	-2686
ژه	-2687
▁paşê	-2688
▁piştgiriya	-2689
ۆت	-2690
یشت	-2691
west	-2692
▁بری	-2693
▁Open	-2694
▁ئیسلام	-2695
ternetê	-2696
▁Bir	-2697
eve	-2698
best	-2699
▁ڕۆژێک	-2700
▁کوێ	-2701
îyê	-2702
▁is	-2703
▁پوو	-2704
gehên	-2705
▁فراو	-2706
▁armanc	-2707
▁رداری	-2708
erib	-2709
خست	-2710
▁th	-2711
▁veş	-2712
▁Android	-2713
▁alîkariya	-2714
▁dîro	-2715
▁نگی	-2716
▁ڵبه	-2717
▁دواتر	-2718
▁هێنێت	-2719
▁teknîkî	-2720
▁·	-2721
ناو	-2722
ingê	-2723
fo	-2724
emê	-2725
ery	-2726
ideo	-2727
▁پیلان	-2728
▁تیا	-2729
▁یش	-2730
▁جیهانی	-2731
AM	-2732
▁sa	-2733
▁i	-2734
etan	-2735
ویست	-2736
▁199	-2737
▁up	-2738
▁چن	-2739
▁trên	-2740
▁berbi	-2741
▁damez	-2742
وەها	-2743
▁لەوانەیە	-2744
▁Des	-2745
▁هۆش	-2746
اك	-2747
▁نرخ	-2748
▁زن	-2749
▁بانگه	-2750
▁دانیشت	-2751
▁پشتیوانی	-2752
ۆزی	-2753
▁ناتوانن	-2754
cess	-2755
▁مێشک	-2756
▁نابه	-2757
▁Re	-2758
ازان	-2759
▁تریش	-2760
▁Pirs	-2761
zanin	-2762
▁پایه	-2763
▁مکاران	-2764
ûrên	-2765
▁tecr	-2766
▁Yekbûyî	-2767
کاته	-2768
▁hejmara	-2769
ûka	-2770
tal	-2771
▁Baş	-2772
▁رێک	-2773
▁دیار	-2774
▁خواردن	-2775
▁نوح	-2776
▁وەر	-2777
▁hest	-2778
▁Çînê	-2779
▁î	-2780
ear	-2781
▁bic	-2782
▁خشن	-2783
▁ئاگر	-2784
çov	-2785
▁rap	-2786
▁خاو	-2787
▁باخه	-2788
▁şîrketa	-2789
▁دڵخۆش	-2790
▁Ro	-2791
▁نوێ	-2792
▁درۆز	-2793
ermî	-2794
êrîn	-2795
▁ببن	-2796
باوه	-2797
مانە	-2798
▁bers	-2799
▁temamî	-2800
▁ڵێنی	-2801
▁باشە	-2802
-201	-2803
▁ئاوا	-2804
PS	-2805
ry	-2806
▁sîn	-2807
attoo	-2808
▁endam	-2809
▁xwarinê	-2810
▁هەروەها	-2811
ەکانیان	-2812
igh	-2813
inên	-2814
▁girtin	-2815
▁پێناوی	-2816
▁پێکه	-2817
▁malperê	-2818
ary	-2819
uss	-2820
PEG	-2821
▁بك	-2822
▁Met	-2823
▁باپیر	-2824
▁بکاته	-2825
eberiya	-2826
ics	-2827
mê	-2828
▁رفراز	-2829
▁kr	-2830
▁لێخۆشبوو	-2831
▁As	-2832
endî	-2833
gîn	-2834
▁fer	-2835
▁تۆش	-2836
اوازی	-2837
نە	-2838
▁خۆن	-2839
tor	-2840
▁ناوه	-2841
iw	-2842
▁pi	-2843
▁Xane	-2844
▁ئەنج	-2845
▁Gelek	-2846
▁بتوان	-2847
ikin	-2848
▁رزه	-2849
▁taybetmend	-2850
تد	-2851
ادی	-2852
سان	-2853
ەنی	-2854
▁bim	-2855
sîk	-2856
ari	-2857
fer	-2858
▁ast	-2859
ەکەین	-2860
▁سانی	-2861
ەدا	-2862
ۆم	-2863
چێت	-2864
▁Min	-2865
▁tiştên	-2866
▁Best	-2867
▁چوون	-2868
▁دڵنیابن	-2869
.2	-2870
▁چیر	-2871
▁hema	-2872
▁design	-2873
▁تیه	-2874
ext	-2875
▁تاڵ	-2876
ork	-2877
▁biçûk	-2878
▁درووست	-2879
▁îro	-2880
▁تری	-2881
▁hel	-2882
xt	-2883
▁karûb	-2884
▁ڕاستیه	-2885
ەق	-2886
▁mij	-2887
▁رهه	-2888
ووده	-2889
▁mişterî	-2890
unt	-2891
ull	-2892
▁Te	-2893
اکانی	-2894
▁Med	-2895
▁خان	-2896
▁jiyana	-2897
▁materyal	-2898
▁دیاریکراو	-2899
80	-2900
ima	-2901
ome	-2902
line	-2903
▁ڕێنه	-2904
▁کردوو	-2905
▁نەک	-2906
▁گفت	-2907
ahiyê	-2908
▁داهاتوو	-2909
ەکانمان	-2910
ph	-2911
ûst	-2912
▁بخه	-2913
▁هتد	-2914
▁بڕوا	-2915
▁وتوو	-2916
▁وترێت	-2917
▁Bersiv	-2918
▁bigirin	-2919
▁pîv	-2920
▁...]	-2921
▁چارە	-2922
▁peyda	-2923
azî	-2924
▁واڵ	-2925
▁کوڕ	-2926
▁bingehîn	-2927
ود	-2928
▁تەم	-2929
▁derê	-2930
ەرە	-2931
ype	-2932
More	-2933
indow	-2934
▁Niha	-2935
▁کانمان	-2936
ێننه	-2937
▁dibêje	-2938
▁kiriye	-2939
▁dr	-2940
▁rojan	-2941
▁bêyî	-2942
▁باخ	-2943
▁دەربارەی	-2944
باره	-2945
asino	-2946
ical	-2947
▁هیو	-2948
▁بکەیت	-2949
▁غ	-2950
ریک	-2951
▁مڕۆ	-2952
artina	-2953
▁zeh	-2954
ebûl	-2955
",	-2956
▁hewc	-2957
uk	-2958
▁mes	-2959
▁خزمه	-2960
.,	-2961
ogle	-2962
▁mob	-2963
press	-2964
▁2013	-2965
▁dikim	-2966
11	-2967
▁Or	-2968
▁kl	-2969
old	-2970
ros	-2971
ێین	-2972
▁platform	-2973
kef	-2974
îteya	-2975
▁زراو	-2976
▁هێشتا	-2977
ûnî	-2978
▁ئاین	-2979
rist	-2980
▁bac	-2981
▁mêr	-2982
▁bazirganî	-2983
▁Cl	-2984
▁سپ	-2985
ames	-2986
بژارد	-2987
▁proj	-2988
ood	-2989
▁ڵکینه	-2990
▁nek	-2991
.2016	-2992
▁Navenda	-2993
rê	-2994
▁en	-2995
▁توانای	-2996
ower	-2997
▁çarçov	-2998
ern	-2999
▁دوا	-3000
▁Eger	-3001
▁amade	-3002
▁parast	-3003
▁چارەسەر	-3004
▁ڕاب	-3005
▁belg	-3006
....	-3007
▁زانست	-3008
van	-3009
▁22	-3010
▁ما	-3011
▁dad	-3012
▁hûr	-3013
irina	-3014
▁azad	-3015
▁awayekî	-3016
▁rêwît	-3017
▁crypto	-3018
wd	-3019
raf	-3020
▁US	-3021
▁ئەک	-3022
▁MPEG	-3023
▁یانوت	-3024
▁pêşket	-3025
▁بپارێز	-3026
ook	-3027
▁Navê	-3028
▁play	-3029
▁ڕن	-3030
emen	-3031
▁ئیسرا	-3032
دوای	-3033
▁بێگه	-3034
olojîk	-3035
îheng	-3036
/4	-3037
▁ماڵی	-3038
▁خوایان	-3039
▁teknolojiya	-3040
▁تاک	-3041
▁by	-3042
▁tim	-3043
ردوو	-3044
ڕاستی	-3045
land	-3046
▁بەم	-3047
▁گفتو	-3048
-0	-3049
ST	-3050
▁ندێکی	-3051
ji	-3052
درێژ	-3053
▁هاناو	-3054
بەت	-3055
▁بەردەو	-3056
▁Rûs	-3057
▁ژوو	-3058
▁وڵات	-3059
mana	-3060
▁pên	-3061
▁ئاوه	-3062
netewî	-3063
▁as	-3064
▁ژم	-3065
imûn	-3066
curr	-3067
lish	-3068
▁فڕێ	-3069
▁مام	-3070
▁dîsa	-3071
▁komp	-3072
زگه	-3073
▁it	-3074
▁ka	-3075
▁Dr	-3076
▁Xwedê	-3077
▁خۆیدا	-3078
▁pêvajoya	-3079
ینە	-3080
▁hun	-3081
▁sep	-3082
▁یارم	-3083
خس	-3084
▁CO	-3085
▁ترسن	-3086
▁firotanê	-3087
▁pêşniyar	-3088
ووت	-3089
▁form	-3090
oyê	-3091
coin	-3092
▁کوڕی	-3093
▁رمانڕه	-3094
▁destpêkê	-3095
ede	-3096
▁دێن	-3097
▁cara	-3098
▁ندێك	-3099
▁qebûl	-3100
▁dab	-3101
▁کام	-3102
زانم	-3103
▁hwd	-3104
▁belê	-3105
▁پاکی	-3106
ld	-3107
yona	-3108
▁tevl	-3109
▁بارو	-3110
cl	-3111
axa	-3112
▁Bike	-3113
▁ستان	-3114
▁نگه	-3115
▁bonus	-3116
▁نوێژه	-3117
▁navnîş	-3118
▁ئیسرائی	-3119
شن	-3120
iss	-3121
▁کردبێت	-3122
ilîz	-3123
▁دەن	-3124
▁ڕیسو	-3125
▁berbiçav	-3126
ral	-3127
▁دژی	-3128
girtina	-3129
▁بهێنێت	-3130
ستان	-3131
ڕاست	-3132
▁زمان	-3133
▁ناهێنن	-3134
▁mot	-3135
▁dixeb	-3136
ue	-3137
▁op	-3138
istan	-3139
▁نادرو	-3140
1]	-3141
▁فت	-3142
oy	-3143
îg	-3144
irêj	-3145
▁بات	-3146
▁تێب	-3147
▁ردی	-3148
▁یەکێک	-3149
irê	-3150
▁Uk	-3151
▁دەت	-3152
▁alavên	-3153
EN	-3154
▁وو	-3155
veyî	-3156
îroz	-3157
▁ڕێی	-3158
▁بەسەر	-3159
▁berfireh	-3160
inan	-3161
▁qeyd	-3162
▁فێری	-3163
uality	-3164
▁giran	-3165
▁Pey	-3166
▁دارو	-3167
▁هەبوو	-3168
isa	-3169
▁دڵه	-3170
▁رنجی	-3171
dêr	-3172
▁ریک	-3173
▁ناده	-3174
▁ریاندا	-3175
▁تانی	-3176
▁چاوپۆشی	-3177
▁Av	-3178
واته	-3179
▁post	-3180
▁کۆن	-3181
▁Aw	-3182
▁kêmtir	-3183
ما	-3184
▁bêh	-3185
▁çew	-3186
▁awayî	-3187
▁سوژده	-3188
înên	-3189
لۆ	-3190
زار	-3191
▁قوت	-3192
▁ندا	-3193
▁2020	-3194
▁ڕاده	-3195
urt	-3196
▁بز	-3197
imanî	-3198
انمان	-3199
▁بۆمان	-3200
▁nêzîkî	-3201
IR	-3202
ێرن	-3203
▁رچه	-3204
▁یڕه	-3205
gîd	-3206
▁at	-3207
weha	-3208
yemîn	-3209
▁Nivîs	-3210
▁Ph	-3211
▁dewl	-3212
راوە	-3213
▁kêf	-3214
▁Divê	-3215
▁پارچه	-3216
alî	-3217
▁zanist	-3218
OR	-3219
eç	-3220
êb	-3221
▁riya	-3222
▁کدا	-3223
gera	-3224
▁بیسه	-3225
▁Alman	-3226
گا	-3227
ateg	-3228
▁bîne	-3229
▁Sk	-3230
انیه	-3231
گیری	-3232
▁زات	-3233
astîk	-3234
▁خۆیه	-3235
▁ناڕه	-3236
emb	-3237
▁ئاڵ	-3238
▁hinek	-3239
▁rêbaz	-3240
▁tiştek	-3241
ift	-3242
▁To	-3243
▁Bar	-3244
یشمان	-3245
▁plan	-3246
▁man	-3247
▁ted	-3248
▁جوانی	-3249
اریی	-3250
دانه	-3251
▁ڕاو	-3252
▁قیقه	-3253
▁تۆمار	-3254
uf	-3255
îrê	-3256
▁rad	-3257
▁Play	-3258
▁Giştî	-3259
▁tên	-3260
▁karê	-3261
▁gr	-3262
ivers	-3263
▁رێکی	-3264
▁خواره	-3265
andinên	-3266
▁کردۆته	-3267
▁دڵس	-3268
▁tomar	-3269
▁بینیت	-3270
▁گوێره	-3271
34	-3272
▁psîk	-3273
▁Mic	-3274
▁نائ	-3275
▁Wekî	-3276
▁lêger	-3277
▁hêsanî	-3278
ibe	-3279
▁27500	-3280
▁باوکی	-3281
int	-3282
ۆکی	-3283
▁asta	-3284
▁واڵی	-3285
▁سوودی	-3286
▁Bikaranîna	-3287
men	-3288
دەک	-3289
▁Sal	-3290
▁Wez	-3291
▁کانم	-3292
▁کتێبه	-3293
ember	-3294
▁Stenb	-3295
▁خشیوون	-3296
▁شاراوه	-3297
▁bernameyên	-3298
وپ	-3299
▁ex	-3300
▁malb	-3301
▁ئاوی	-3302
▁شتێکدا	-3303
lec	-3304
▁Ku	-3305
jimêr	-3306
▁درێت	-3307
▁رستی	-3308
▁ڕێزی	-3309
▁telev	-3310
▁را	-3311
▁pere	-3312
▁هەمان	-3313
ئێ	-3314
lot	-3315
▁hêv	-3316
ref	-3317
یانە	-3318
▁qan	-3319
▁derket	-3320
▁bingeha	-3321
ژن	-3322
▁یب	-3323
▁nimûn	-3324
ڵە	-3325
▁سا	-3326
▁derf	-3327
▁وێنه	-3328
ube	-3329
▁هێزو	-3330
▁danûst	-3331
".	-3332
▁بەو	-3333
▁nayê	-3334
▁دادپه	-3335
▁Pêv	-3336
▁jor	-3337
▁دەو	-3338
▁بچوو	-3339
▁Train	-3340
▁serans	-3341
▁binivîs	-3342
▁çêkirina	-3343
کێش	-3344
port	-3345
▁Baj	-3346
▁weke	-3347
▁piçûk	-3348
▁گوناهه	-3349
▁Cîh	-3350
ilîzî	-3351
▁بەرز	-3352
ared	-3353
olog	-3354
▁Dan	-3355
▁ناپ	-3356
▁رگرت	-3357
▁şîrket	-3358
▁ڵك	-3359
▁Tev	-3360
▁بپه	-3361
▁چاودێری	-3362
oo	-3363
▁(2	-3364
ûnên	-3365
ox	-3366
▁خست	-3367
▁چێت	-3368
▁Lîst	-3369
▁3.	-3370
▁ئەن	-3371
با	-3372
ory	-3373
ێنا	-3374
▁فێڵ	-3375
êdana	-3376
▁ڕوات	-3377
▁Taybet	-3378
▁lîstik	-3379
▁bikarhênerên	-3380
qas	-3381
ejir	-3382
▁mer	-3383
otina	-3384
▁کرێن	-3385
▁گشتی	-3386
▁ئەمەش	-3387
▁خواپه	-3388
▁پیاوان	-3389
▁ڕای	-3390
▁Perg	-3391
▁بگرن	-3392
▁rêber	-3393
▁توانن	-3394
▁hevkar	-3395
di	-3396
خواز	-3397
▁تیادا	-3398
▁تیشدا	-3399
▁پل	-3400
▁dît	-3401
▁ساره	-3402
▁دەکەم	-3403
▁نجامداوه	-3404
▁بگرێت	-3405
▁dîtina	-3406
gel	-3407
▁Çawa	-3408
▁گی	-3409
▁Teb	-3410
▁off	-3411
12	-3412
▁ti	-3413
umin	-3414
▁bed	-3415
▁رزو	-3416
▁ماف	-3417
▁ملی	-3418
▁تەواو	-3419
ژی	-3420
▁dora	-3421
▁یامه	-3422
▁یاداوه	-3423
▁Bitcoin	-3424
▁ئیسرائیل	-3425
-3	-3426
yonê	-3427
▁پێشکه	-3428
▁کاریگەر	-3429
▁xizmetên	-3430
sy	-3431
قو	-3432
من	-3433
▁پۆش	-3434
▁زووی	-3435
▁derve	-3436
sên	-3437
▁تک	-3438
▁Hol	-3439
▁2014	-3440
▁دێته	-3441
ûç	-3442
uro	-3443
▁ساز	-3444
▁ماڵه	-3445
▁derveyî	-3446
▁Th	-3447
دەست	-3448
▁şex	-3449
anya	-3450
▁بخۆن	-3451
▁شتان	-3452
istana	-3453
▁teq	-3454
▁info	-3455
▁roja	-3456
achine	-3457
▁bistînin	-3458
▁şev	-3459
▁ماره	-3460
▁kap	-3461
ariyê	-3462
▁dayîn	-3463
Co	-3464
DE	-3465
ler	-3466
اندن	-3467
▁شدا	-3468
▁رامۆش	-3469
▁خۆیاندا	-3470
▁karanîna	-3471
▁Str	-3472
îroka	-3473
▁هەبێت	-3474
ication	-3475
▁جیاوازی	-3476
ihîş	-3477
انەت	-3478
▁part	-3479
▁بوایه	-3480
▁بڕاوه	-3481
▁bersiv	-3482
▁ئاگایه	-3483
▁Berhemên	-3484
▁3/4	-3485
▁گەش	-3486
▁kurt	-3487
▁یارمەتی	-3488
▁چین	-3489
▁xwez	-3490
▁سەرن	-3491
▁pêşveç	-3492
▁materyalên	-3493
▁Eng	-3494
▁zel	-3495
▁کۆڵ	-3496
▁meha	-3497
▁بیست	-3498
▁bihayê	-3499
▁profes	-3500
▁Ab	-3501
▁guh	-3502
▁ستایش	-3503
▁گومڕا	-3504
urg	-3505
reya	-3506
▁otom	-3507
nameger	-3508
▁bazara	-3509
▁afirandin	-3510
▁Sw	-3511
emên	-3512
indows	-3513
▁gotin	-3514
▁pirtûk	-3515
ۆری	-3516
▁بهێن	-3517
▁گۆڕان	-3518
▁navdar	-3519
اق	-3520
▁23	-3521
▁28	-3522
▁Veg	-3523
▁بهێنه	-3524
▁چاکتره	-3525
▁digerin	-3526
▁Perwerde	-3527
جار	-3528
▁naver	-3529
▁ئاستی	-3530
▁ئاشکرایه	-3531
ين	-3532
▁erdê	-3533
▁Xwend	-3534
جگه	-3535
▁ببین	-3536
▁وایە	-3537
▁لاواز	-3538
▁Mij	-3539
▁ترسی	-3540
çin	-3541
▁Bê	-3542
داره	-3543
▁trênê	-3544
▁tînin	-3545
▁زاناو	-3546
▁کانیدا	-3547
oh	-3548
ith	-3549
راون	-3550
▁hund	-3551
enaber	-3552
▁لێرە	-3553
▁پەیوەندی	-3554
îma	-3555
▁پێچ	-3556
▁2015	-3557
▁خێرو	-3558
▁چاکتر	-3559
-19	-3560
ÎNE	-3561
▁40	-3562
▁El	-3563
forman	-3564
▁ئاسان	-3565
▁Sûr	-3566
▁Tekn	-3567
▁دیهێن	-3568
▁کتێبی	-3569
▁60	-3570
▁هاتن	-3571
▁گەور	-3572
▁Dewletên	-3573
▁ak	-3574
▁لاد	-3575
▁anîn	-3576
▁قینه	-3577
▁Mirov	-3578
▁ئازاد	-3579
▁شیمان	-3580
▁نگانه	-3581
ark	-3582
ense	-3583
▁salê	-3584
▁دیاره	-3585
▁لێتان	-3586
▁bajarê	-3587
▁dixwazî	-3588
▁avakirina	-3589
▁ئەنجام	-3590
▁ناتوانێت	-3591
دات	-3592
▁Tel	-3593
▁کۆچ	-3594
چاو	-3595
ێکم	-3596
رایه	-3597
▁نجه	-3598
▁بەکار	-3599
▁hilberê	-3600
SC	-3601
go	-3602
زم	-3603
▁زڵ	-3604
▁دەکەین	-3605
▁ئاگاداره	-3606
رێنه	-3607
▁ket	-3608
▁خوایی	-3609
▁herêmî	-3610
▁ڕێنمووی	-3611
▁گوفتاری	-3612
.3	-3613
darê	-3614
▁Baz	-3615
▁یاس	-3616
▁Google	-3617
duc	-3618
ردە	-3619
▁21	-3620
▁nehat	-3621
▁خەڵکی	-3622
▁نەبوو	-3623
دۆ	-3624
چن	-3625
ونه	-3626
adem	-3627
▁bilî	-3628
▁fermî	-3629
▁jinan	-3630
)..	-3631
str	-3632
▁تێك	-3633
▁پێب	-3634
▁ئێوە	-3635
▁سامن	-3636
▁بەردەوام	-3637
îtal	-3638
asyonê	-3639
▁cerib	-3640
day	-3641
ire	-3642
ous	-3643
gere	-3644
▁پاك	-3645
▁دووره	-3646
▁pispor	-3647
edex	-3648
ومێد	-3649
▁Lib	-3650
▁بۆت	-3651
▁ڵاو	-3652
▁ردان	-3653
▁rasterast	-3654
fi	-3655
▁کور	-3656
ebijêr	-3657
▁دیهێنه	-3658
ux	-3659
îdyo	-3660
▁navenda	-3661
▁destpêkirin	-3662
ts	-3663
▁©	-3664
.00	-3665
▁Air	-3666
▁ویه	-3667
▁Xizm	-3668
▁beşa	-3669
▁یاوه	-3670
eder	-3671
▁Rizg	-3672
ET	-3673
▁برا	-3674
▁ژین	-3675
kerên	-3676
اندووه	-3677
▁تەنانەت	-3678
▁نێوانیاندا	-3679
îner	-3680
▁şexsî	-3681
تێ	-3682
▁îm	-3683
▁mad	-3684
▁پێوه	-3685
ییەکان	-3686
ild	-3687
▁Le	-3688
▁şer	-3689
▁karta	-3690
▁milyon	-3691
دڵ	-3692
▁Gr	-3693
▁Cih	-3694
▁موش	-3695
▁خێزان	-3696
▁حاڵ	-3697
▁پەر	-3698
xweyî	-3699
heng	-3700
▁Hin	-3701
▁bên	-3702
ating	-3703
eyeke	-3704
▁بڵێن	-3705
▁پێنه	-3706
▁تریان	-3707
▁pêdivî	-3708
▁دەتوانین	-3709
▁لێخۆشبوون	-3710
etî	-3711
ردنه	-3712
▁kol	-3713
▁pan	-3714
▁رزی	-3715
▁پله	-3716
▁Design	-3717
▁دەکرێت	-3718
▁Tîr	-3719
▁لێن	-3720
▁ناکرێت	-3721
êwir	-3722
▁bit	-3723
▁pay	-3724
▁rûn	-3725
▁ندو	-3726
▁Part	-3727
رگ	-3728
خان	-3729
înak	-3730
▁ئاش	-3731
▁دژایه	-3732
▁berhem	-3733
بیح	-3734
▁رین	-3735
▁xwed	-3736
▁سبیح	-3737
▁ئۆ	-3738
▁Car	-3739
▁ئەی	-3740
▁بینن	-3741
▁belaş	-3742
▁زیاده	-3743
بارە	-3744
▁بوخ	-3745
▁ستبه	-3746
▁سەیری	-3747
▁wateya	-3748
▁کارێکی	-3749
▁ڵكی	-3750
annel	-3751
▁ئەوەش	-3752
▁پێتان	-3753
▁Me	-3754
▁منداڵی	-3755
out	-3756
▁Russ	-3757
▁gava	-3758
▁pêşî	-3759
▁Çûna	-3760
▁ban	-3761
▁Nişt	-3762
▁encamên	-3763
▁herweha	-3764
تری	-3765
ange	-3766
eter	-3767
▁cûr	-3768
▁29	-3769
▁com	-3770
▁dih	-3771
▁خدا	-3772
▁Pirt	-3773
▁باوو	-3774
▁damezr	-3775
▁dizanin	-3776
ارم	-3777
▁No	-3778
WÎNE	-3779
itle	-3780
▁çêtir	-3781
ww	-3782
▁26	-3783
▁rastîn	-3784
▁net	-3785
du	-3786
▁300	-3787
▁ڵاڵ	-3788
▁تێده	-3789
gilîzî	-3790
▁باران	-3791
▁ئازاری	-3792
▁biryar	-3793
ûrê	-3794
ەمی	-3795
بەست	-3796
▁Dad	-3797
▁بڕیارد	-3798
UM	-3799
ڵاو	-3800
▁رس	-3801
eview	-3802
▁wind	-3803
▁وازی	-3804
▁کوشت	-3805
▁Paqij	-3806
▁lîsteya	-3807
son	-3808
▁ڕە	-3809
▁get	-3810
▁بەت	-3811
▁دەبن	-3812
▁Hilbij	-3813
▁plastîk	-3814
▁وەکو	-3815
▁cryptocurr	-3816
▁fîl	-3817
▁رپێ	-3818
karên	-3819
yonel	-3820
▁بردن	-3821
▁video	-3822
▁دراوه	-3823
▁دەدات	-3824
▁civakî	-3825
ەتا	-3826
▁كرده	-3827
▁games	-3828
▁چونكه	-3829
▁زاندووه	-3830
bal	-3831
ich	-3832
ence	-3833
▁یاندنی	-3834
▁xwendekarên	-3835
200	-3836
▁ڕون	-3837
enerj	-3838
▁Çiya	-3839
▁بش	-3840
êveb	-3841
▁پرس	-3842
▁خێرا	-3843
▁rêjeya	-3844
▁FEC	-3845
parêz	-3846
▁خواز	-3847
▁qez	-3848
▁بۆم	-3849
anîya	-3850
▁block	-3851
▁Xweser	-3852
▁rawest	-3853
NC	-3854
▁دڵیان	-3855
MA	-3856
▁رێ	-3857
▁Civ	-3858
▁بنچ	-3859
▁گەر	-3860
www	-3861
▁Bl	-3862
▁You	-3863
▁name	-3864
▁quality	-3865
40	-3866
ekin	-3867
ping	-3868
▁Mes	-3869
▁gaz	-3870
▁kuş	-3871
▁Pişt	-3872
▁کتان	-3873
▁کافران	-3874
▁serdana	-3875
اهه	-3876
manên	-3877
▁ڕۆژێك	-3878
▁کەسێک	-3879
▁یمانه	-3880
▁download	-3881
of	-3882
oot	-3883
chain	-3884
▁Hejm	-3885
▁نامه	-3886
▁zelal	-3887
▁ئاسووده	-3888
▁دووڕووه	-3889
uz	-3890
çeya	-3891
▁كار	-3892
▁mîna	-3893
کردنەوەی	-3894
PSK	-3895
▁malê	-3896
▁تووش	-3897
▁balkêş	-3898
▁بپارێزن	-3899
cam	-3900
dem	-3901
▁ڵێ	-3902
▁beşek	-3903
▁ستێره	-3904
▁Christ	-3905
ترو	-3906
▁Be	-3907
▁JI	-3908
keft	-3909
yara	-3910
elsat	-3911
▁ڕابو	-3912
▁ردگارته	-3913
.7	-3914
IK	-3915
کراوه	-3916
▁رباز	-3917
▁36	-3918
▁muz	-3919
▁حسا	-3920
▁خزم	-3921
▁بەرەو	-3922
areta	-3923
ایەتی	-3924
▁کردووە	-3925
▁رج	-3926
▁رۆژ	-3927
vanên	-3928
بوونه	-3929
▁ستدرێژ	-3930
▁ڕزگاری	-3931
سپ	-3932
▁game	-3933
▁دایه	-3934
▁enerj	-3935
▁baştir	-3936
▁xebatê	-3937
▁Rizgari	-3938
▁pêşn	-3939
▁بچێژ	-3940
▁رچاو	-3941
ەکەت	-3942
ماندا	-3943
▁Stenbolê	-3944
Bet	-3945
han	-3946
orn	-3947
par	-3948
yst	-3949
مدا	-3950
▁Îsa	-3951
▁یته	-3952
▁شتیه	-3953
▁guhertin	-3954
ock	-3955
▁بووە	-3956
▁وکاته	-3957
▁agahdar	-3958
tv	-3959
rom	-3960
▁şir	-3961
▁زمانی	-3962
▁وتوون	-3963
▁سبیحات	-3964
▁sû	-3965
arek	-3966
ڕایه	-3967
▁şûna	-3968
▁بچنه	-3969
▁سیست	-3970
▁جادووگه	-3971
▁Vê	-3972
▁قس	-3973
▁منه	-3974
▁هۆک	-3975
▁یامی	-3976
▁کردبوو	-3977
yr	-3978
▁et	-3979
▁Tur	-3980
▁زاڵ	-3981
▁سیش	-3982
▁welatên	-3983
▁«	-3984
▁fil	-3985
▁qer	-3986
▁شکه	-3987
▁بیرۆک	-3988
▁بینایه	-3989
▁çêk	-3990
▁نیە	-3991
ێتەوە	-3992
▁Vers	-3993
▁nimûne	-3994
ئا	-3995
▁کاف	-3996
▁rojê	-3997
▁شو	-3998
ihev	-3999
▁ببێته	-4000
ERS	-4001
log	-4002
▁un	-4003
▁more	-4004
▁Libre	-4005
▁rengê	-4006
▁روونی	-4007
▁Alîkar	-4008
les	-4009
ors	-4010
▁شا	-4011
▁Tebax	-4012
گرو	-4013
▁Reng	-4014
▁پێشه	-4015
▁zehmet	-4016
tîf	-4017
▁De	-4018
)...	-4019
irên	-4020
▁شاد	-4021
▁کرێنه	-4022
▁bernameya	-4023
onên	-4024
▁Dir	-4025
▁توانی	-4026
▁ڕێباز	-4027
▁tiştekî	-4028
▁ى	-4029
▁کڕ	-4030
eşop	-4031
▁Lic	-4032
▁rab	-4033
▁ندێ	-4034
▁eşkere	-4035
ines	-4036
▁xem	-4037
▁bûye	-4038
▁Trans	-4039
▁قوتاب	-4040
▁Amerîka	-4041
25	-4042
وا	-4043
ize	-4044
▁پێت	-4045
▁Navneteweyî	-4046
hilat	-4047
▁رچوو	-4048
▁سووره	-4049
▁ردگاره	-4050
▁Russian	-4051
▁çarçoveya	-4052
▁=	-4053
▁TR	-4054
▁Web	-4055
▁top	-4056
▁زۆرب	-4057
▁tevahî	-4058
کۆ	-4059
▁mîl	-4060
▁سرو	-4061
▁herê	-4062
▁گوێی	-4063
▁daxuy	-4064
▁ربگرن	-4065
▁قازان	-4066
îsê	-4067
▁pop	-4068
▁spî	-4069
▁جیا	-4070
▁درا	-4071
▁بوێت	-4072
ادە	-4073
کەر	-4074
evin	-4075
▁nex	-4076
▁vala	-4077
▁alîkarî	-4078
67	-4079
▁hak	-4080
▁دام	-4081
▁Comp	-4082
▁زەوی	-4083
سوڵمان	-4084
▁guman	-4085
▁temaş	-4086
▁Çalak	-4087
▁hatibû	-4088
▁ڕازاوه	-4089
▁Bİ	-4090
▁ko	-4091
▁Sep	-4092
▁fik	-4093
▁qut	-4094
▁میر	-4095
▁ببنه	-4096
▁sedema	-4097
▁çavkan	-4098
▁Windows	-4099
▁پێویستی	-4100
▁LibreELEC	-4101
29	-4102
▁نن	-4103
▁تمه	-4104
▁رنه	-4105
▁operator	-4106
▁profesyonel	-4107
▁Sc	-4108
istin	-4109
▁بزانێت	-4110
ئاو	-4111
شته	-4112
▁hêj	-4113
▁set	-4114
▁şew	-4115
▁serê	-4116
▁جاڵه	-4117
▁xwest	-4118
▁توندو	-4119
▁tattoo	-4120
▁lab	-4121
▁مای	-4122
▁پۆل	-4123
است	-4124
وونی	-4125
▁mon	-4126
▁ved	-4127
▁girtî	-4128
▁تەنیا	-4129
▁OpenELEC	-4130
▁£	-4131
ike	-4132
îlê	-4133
▁us	-4134
eran	-4135
ream	-4136
▁keç	-4137
▁wiha	-4138
▁تێکی	-4139
▁بازرگ	-4140
▁Bazirg	-4141
▁ندێکیان	-4142
▁ئیش	-4143
eberhên	-4144
تۆ	-4145
ارن	-4146
ۆست	-4147
▁xwezayî	-4148
19	-4149
ode	-4150
▁چۆ	-4151
aceb	-4152
▁ڕێگ	-4153
▁Univers	-4154
ail	-4155
ڵێن	-4156
▁Con	-4157
▁Zim	-4158
girtî	-4159
زانین	-4160
▁بینین	-4161
sk	-4162
ekt	-4163
îrok	-4164
▁لوط	-4165
▁Prof	-4166
▁Lêkolîn	-4167
êle	-4168
▁aj	-4169
XWÎNE	-4170
▁چاره	-4171
یشدا	-4172
▁Çav	-4173
lobal	-4174
کاتێک	-4175
▁action	-4176
▁rojnameger	-4177
weş	-4178
▁1,	-4179
hatî	-4180
مەوە	-4181
یانی	-4182
▁xêr	-4183
▁Hêza	-4184
▁xurt	-4185
▁karmend	-4186
▁înternetê	-4187
▁psîkolojîk	-4188
onîk	-4189
▁جۆراو	-4190
▁گوفتار	-4191
▁Amerîkî	-4192
▁LED	-4193
▁WeT	-4194
▁بەره	-4195
avel	-4196
iber	-4197
▁mala	-4198
▁سەرنج	-4199
بیت	-4200
▁vex	-4201
▁چال	-4202
iness	-4203
▁şert	-4204
▁asteng	-4205
▁موسڵمان	-4206
bit	-4207
atch	-4208
ەمان	-4209
ûz	-4210
عی	-4211
uper	-4212
▁tecrûb	-4213
▁500	-4214
▁Blu	-4215
▁reş	-4216
▁بته	-4217
▁وڵه	-4218
▁biguher	-4219
▁êr	-4220
îyên	-4221
▁ڵدا	-4222
▁سینه	-4223
▁ناوب	-4224
▁China	-4225
▁بێجگه	-4226
▁چیرۆک	-4227
▁Fl	-4228
kerê	-4229
ەندە	-4230
▁[1]	-4231
▁ژاره	-4232
▁Pêşniy	-4233
▁dawiya	-4234
▁kêfxweş	-4235
ەك	-4236
▁Çi	-4237
eroj	-4238
▁تاق	-4239
▁ڕاگه	-4240
oftware	-4241
رێ	-4242
رین	-4243
▁گێ	-4244
▁دۆز	-4245
▁پیش	-4246
▁باری	-4247
▁لەناو	-4248
▁Malper	-4249
▁License	-4250
▁بەڕاستی	-4251
▁ئاگاداربن	-4252
.”	-4253
▁Ira	-4254
▁dor	-4255
▁ram	-4256
▁داخ	-4257
▁رمی	-4258
ێکتان	-4259
▁هەوڵ	-4260
▁یتانه	-4261
▁ronahî	-4262
▁berpirs	-4263
▁pîşesaziya	-4264
okên	-4265
▁ناپه	-4266
▁binivîse	-4267
mas	-4268
ove	-4269
anek	-4270
▁پێدراوه	-4271
▁چاکترین	-4272
▁balafirên	-4273
▁Hot	-4274
fikirin	-4275
▁weşandin	-4276
▁destnîşan	-4277
فی	-4278
▁4.	-4279
▁çû	-4280
ition	-4281
▁weha	-4282
24	-4283
eed	-4284
بینیت	-4285
▁100%	-4286
▁kred	-4287
▁tevahiya	-4288
AL	-4289
aşê	-4290
ûra	-4291
ایت	-4292
▁Xel	-4293
ule	-4294
ance	-4295
deya	-4296
rast	-4297
ufact	-4298
▁Serokê	-4299
▁موسوڵمان	-4300
نا	-4301
ayn	-4302
ips	-4303
manî	-4304
باری	-4305
▁Col	-4306
▁ندن	-4307
▁mobîl	-4308
zm	-4309
▁31	-4310
▁ph	-4311
iyeyê	-4312
▁ڵایه	-4313
▁nêzîk	-4314
▁qedex	-4315
▁kevneşop	-4316
بک	-4317
CoV	-4318
înek	-4319
▁Eut	-4320
▁Hel	-4321
▁fêr	-4322
ێنێته	-4323
▁tîne	-4324
▁title	-4325
▁ڕووبار	-4326
▁دەتوانن	-4327
sê	-4328
stît	-4329
▁bişk	-4330
▁کارە	-4331
▁herêma	-4332
▁tendurist	-4333
org	-4334
▁Ed	-4335
▁cl	-4336
▁ciw	-4337
▁dim	-4338
ercên	-4339
▁قورب	-4340
▁نموون	-4341
asîteya	-4342
▁پێویسته	-4343
unc	-4344
▁br	-4345
▁biy	-4346
▁چیه	-4347
ەتەوە	-4348
▁amad	-4349
▁çiqas	-4350
▁casino	-4351
▁سوپاسگوزاری	-4352
39	-4353
▁Cr	-4354
▁cin	-4355
▁tes	-4356
▁وات	-4357
▁bend	-4358
▁واده	-4359
▁sporê	-4360
▁قڵ	-4361
▁Kes	-4362
▁dis	-4363
▁qon	-4364
▁وەڵ	-4365
▁نیانه	-4366
usiness	-4367
▁بارودۆ	-4368
▁خوێندن	-4369
▁hilberên	-4370
ze	-4371
ier	-4372
خاته	-4373
▁لەوە	-4374
ەکاندا	-4375
▁hişyar	-4376
▁pargîd	-4377
▁serbest	-4378
ise	-4379
▁pelê	-4380
▁rojane	-4381
دن	-4382
urê	-4383
▁ئاسمانی	-4384
▁گوێڕایه	-4385
jen	-4386
▁PC	-4387
بارو	-4388
▁تەند	-4389
▁خسته	-4390
▁یانکرد	-4391
ings	-4392
ێکمان	-4393
▁کێوه	-4394
▁veberhên	-4395
ormal	-4396
▁مووان	-4397
▁têkilî	-4398
ئین	-4399
▁Man	-4400
▁pêl	-4401
▁بیم	-4402
▁ناوچ	-4403
▁rewşa	-4404
▁zanîngehê	-4405
▁Ak	-4406
igma	-4407
▁Cur	-4408
▁web	-4409
êrîna	-4410
▁ئاما	-4411
▁سوله	-4412
ON	-4413
گێڕ	-4414
ەنە	-4415
ekan	-4416
lite	-4417
▁app	-4418
▁con	-4419
▁nerm	-4420
▁pênc	-4421
▁veguh	-4422
▁هێڵ	-4423
▁گاو	-4424
▁ردووک	-4425
▁ڕووخس	-4426
▁zimanê	-4427
▁حم	-4428
▁باوەڕ	-4429
47	-4430
ەتە	-4431
elên	-4432
▁bab	-4433
▁BİXWÎNE	-4434
پێش	-4435
▁زار	-4436
▁توێژ	-4437
▁هۆزی	-4438
ینەوەی	-4439
▁lêkol	-4440
▁Ewropa	-4441
▁زۆربەی	-4442
▁Îngilîzî	-4443
▁elektrîkê	-4444
▁ردگارتانه	-4445
row	-4446
îra	-4447
ێکە	-4448
Tube	-4449
▁ودا	-4450
▁ڕێژ	-4451
artinê	-4452
▁چەندین	-4453
crip	-4454
▁لام	-4455
▁هۆز	-4456
îkayê	-4457
▁ewle	-4458
▁ڕوان	-4459
▁کمان	-4460
▁şandin	-4461
▁no	-4462
دیاره	-4463
▁کردوه	-4464
▁Têkilî	-4465
▁تیاچوون	-4466
.8	-4467
any	-4468
berî	-4469
▁here	-4470
▁laser	-4471
▁rengî	-4472
▁ماوەی	-4473
▁Bilind	-4474
▁شوێنێکی	-4475
▁naveroka	-4476
tiya	-4477
usic	-4478
راوی	-4479
▁ned	-4480
▁وتنی	-4481
▁ڵیان	-4482
ath	-4483
exş	-4484
ێیت	-4485
sych	-4486
▁ژیر	-4487
▁سێکی	-4488
▁شێواز	-4489
65	-4490
br	-4491
▁گرنگی	-4492
▁ئینسان	-4493
▁پشتیان	-4494
▁seranserê	-4495
yek	-4496
▁ئاسانی	-4497
21	-4498
EM	-4499
eel	-4500
ایش	-4501
ووم	-4502
êdanê	-4503
▁mirin	-4504
▁بەکاره	-4505
ale	-4506
▁Wî	-4507
yaya	-4508
▁res	-4509
SL	-4510
وح	-4511
ebê	-4512
بووه	-4513
▁یوه	-4514
▁parêz	-4515
▁Tîrmeh	-4516
▁Ve	-4517
▁ناله	-4518
▁nikare	-4519
▁ستایشی	-4520
▁taybetmendiyên	-4521
mb	-4522
irt	-4523
▁Tê	-4524
▁fr	-4525
▁نێر	-4526
ement	-4527
▁پووچ	-4528
▁پێدا	-4529
▁یارو	-4530
▁bikim	-4531
▁salên	-4532
mên	-4533
olt	-4534
uler	-4535
▁Rêz	-4536
▁leş	-4537
ufactur	-4538
IG	-4539
se	-4540
▁ter	-4541
▁کامه	-4542
xaneya	-4543
▁qezenc	-4544
68	-4545
ەمە	-4546
▁تەک	-4547
▁سزا	-4548
▁بیری	-4549
▁رپێچی	-4550
▁لێکرد	-4551
▁مردوو	-4552
▁هاوبه	-4553
▁pakêta	-4554
ۆس	-4555
▁BO	-4556
▁Beş	-4557
▁heyî	-4558
▁نادات	-4559
▁penaber	-4560
▁Download	-4561
▁قا	-4562
ibin	-4563
iyar	-4564
▁ریك	-4565
▁جۆرە	-4566
▁کۆشش	-4567
:1	-4568
ût	-4569
eyn	-4570
▁سۆزو	-4571
▁ژیری	-4572
ەکەمان	-4573
▁Daxuy	-4574
▁xebit	-4575
▁şirket	-4576
▁سنووره	-4577
▁malperên	-4578
AD	-4579
▁pejir	-4580
▁خۆراک	-4581
▁dibêjin	-4582
▁Rêveberiya	-4583
▁مت	-4584
▁mêv	-4585
▁ڕێزه	-4586
▁بڕوای	-4587
▁agahiyên	-4588
▁bandorên	-4589
▁veguhestina	-4590
TC	-4591
▁نیگ	-4592
▁Gava	-4593
▁dibin	-4594
▁pêşîn	-4595
▁تەندرو	-4596
ba	-4597
dam	-4598
▁beh	-4599
▁hêvî	-4600
▁agahî	-4601
▁داهێن	-4602
emeniyê	-4603
▁مامۆست	-4604
▁Rûsyayê	-4605
▁Parastina	-4606
کرا	-4607
▁زێن	-4608
▁کاتێ	-4609
▁email	-4610
▁لایان	-4611
▁ڕۆیشت	-4612
acebook	-4613
▁توانێت	-4614
▁خێرایی	-4615
▁çêtirîn	-4616
awî	-4617
جاده	-4618
▁Saz	-4619
▁کانت	-4620
▁دەکەیت	-4621
▁daneyên	-4622
▁mirovan	-4623
▁pirtûka	-4624
mîn	-4625
tra	-4626
▁çêb	-4627
▁مین	-4628
▁winda	-4629
▁فراوان	-4630
وری	-4631
▁یبه	-4632
endên	-4633
▁جێبه	-4634
▁navxweyî	-4635
▁perwerdeya	-4636
▁شان	-4637
▁شیر	-4638
keftî	-4639
▁سەیر	-4640
▁Iraqê	-4641
▁ژماره	-4642
▁Hejmara	-4643
37	-4644
IL	-4645
UMX	-4646
▁کێک	-4647
▁گەڕ	-4648
▁پیرۆزه	-4649
▁parçeyên	-4650
▁telefonê	-4651
▁xwendina	-4652
-5	-4653
ES	-4654
کرن	-4655
reen	-4656
▁org	-4657
▁qet	-4658
▁نوق	-4659
olojî	-4660
▁ناوێت	-4661
▁کاتێکی	-4662
▁دەرکەوت	-4663
▁çalakiyên	-4664
▁ص	-4665
bir	-4666
xBet	-4667
▁سوڕ	-4668
▁قینی	-4669
▁وزاته	-4670
▁Niştimanî	-4671
-8	-4672
TS	-4673
▁na	-4674
▁ریش	-4675
▁Satel	-4676
▁cîhaz	-4677
▁https	-4678
وژ	-4679
eman	-4680
▁bis	-4681
▁ککه	-4682
▁IPtv	-4683
▁لێکۆڵ	-4684
ویستایه	-4685
▁گرتۆته	-4686
▁Pîv	-4687
▁Deng	-4688
▁ڕدار	-4689
▁بوویت	-4690
▁گومانی	-4691
▁mas	-4692
▁Roja	-4693
▁Psych	-4694
▁bigih	-4695
▁ماڵات	-4696
▁دڵنیاش	-4697
بره	-4698
ێشت	-4699
http	-4700
▁For	-4701
▁Hes	-4702
lectr	-4703
▁چاكه	-4704
▁گەرد	-4705
▁ڕاستگۆ	-4706
▁eşkereyî	-4707
mer	-4708
زانێت	-4709
▁mafê	-4710
▁çerm	-4711
▁سانێك	-4712
▁transp	-4713
Sh	-4714
ags	-4715
▁kod	-4716
▁ییه	-4717
یەکان	-4718
▁هێزی	-4719
▁وایی	-4720
▁didin	-4721
▁metal	-4722
▁ئامان	-4723
▁دابین	-4724
▁رچوون	-4725
▁وایان	-4726
69	-4727
LC	-4728
ڕو	-4729
گۆڕ	-4730
▁cam	-4731
▁بخوێن	-4732
▁بچووک	-4733
▁ragihand	-4734
gr	-4735
▁Du	-4736
▁ریا	-4737
▁خششی	-4738
▁hevdî	-4739
▁vîdyo	-4740
▁خاوێن	-4741
.4	-4742
eat	-4743
▁Ind	-4744
▁Jap	-4745
▁mar	-4746
▁ئێس	-4747
▁کیش	-4748
▁derd	-4749
▁navîn	-4750
▁بەهۆی	-4751
eza	-4752
angu	-4753
کارو	-4754
▁Gul	-4755
▁Free	-4756
▁ژمار	-4757
▁ئیماندارانه	-4758
aka	-4759
▁es	-4760
ates	-4761
sala	-4762
▁dos	-4763
▁راهه	-4764
▁خواناسی	-4765
▁سەرکەوت	-4766
▁تاوانباران	-4767
SO	-4768
▁Gu	-4769
وویه	-4770
▁Com	-4771
▁بڵن	-4772
akult	-4773
▁kesan	-4774
▁سنووری	-4775
▁‘	-4776
بینین	-4777
▁diçe	-4778
▁biryara	-4779
▁ردگارمان	-4780
td	-4781
ür	-4782
ung	-4783
▁قسە	-4784
اندنی	-4785
▁حاڵه	-4786
▁گونج	-4787
▁ئەندا	-4788
▁تاریک	-4789
▁یاندا	-4790
▁machine	-4791
▁projeyên	-4792
▁Satellite	-4793
\\	-4794
▁ـ	-4795
ets	-4796
îkên	-4797
پانی	-4798
▁Pêd	-4799
▁لێك	-4800
▁وێڵ	-4801
eklam	-4802
ەکانم	-4803
▁ڕێگە	-4804
▁دنیاو	-4805
▁Kontrol	-4806
şîv	-4807
▁Mêr	-4808
▁Weş	-4809
îtiya	-4810
▁bang	-4811
▁betal	-4812
▁vekiş	-4813
▁هۆکار	-4814
▁digire	-4815
▁ئاسایی	-4816
▁yekemîn	-4817
yd	-4818
ology	-4819
▁hevpey	-4820
▁nîşand	-4821
ۆچ	-4822
چەپ	-4823
danê	-4824
ارده	-4825
▁ئەف	-4826
▁دنیایه	-4827
▁destpêka	-4828
▁ستهێنانی	-4829
▁sazkirina	-4830
chn	-4831
eşt	-4832
دەی	-4833
زانیت	-4834
▁نانی	-4835
▁pîroz	-4836
▁زینده	-4837
35	-4838
arm	-4839
hiya	-4840
▁حەز	-4841
▁ژنان	-4842
▁کوڕه	-4843
ternat	-4844
▁ewlek	-4845
▁firotina	-4846
اسه	-4847
heck	-4848
▁CNC	-4849
▁Kor	-4850
▁رپه	-4851
ekirî	-4852
▁2012	-4853
▁Brît	-4854
▁مایه	-4855
جو	-4856
نام	-4857
▁سر	-4858
نیان	-4859
▁warê	-4860
▁خۆڕا	-4861
▁لاده	-4862
▁ناتر	-4863
▁Enigma	-4864
▁performan	-4865
/6	-4866
usa	-4867
شین	-4868
▁سن	-4869
ions	-4870
▁Kon	-4871
▁بنی	-4872
▁خات	-4873
▁نییه	-4874
▁موجاده	-4875
air	-4876
▁tîr	-4877
▁خول	-4878
▁نێن	-4879
îndar	-4880
▁blog	-4881
ahiyên	-4882
▁زر	-4883
îjan	-4884
ێکیش	-4885
▁Wek	-4886
▁Çar	-4887
▁مزگه	-4888
▁ڵێنه	-4889
▁Hilber	-4890
▁گوێیان	-4891
▁kalîteya	-4892
abl	-4893
mart	-4894
▁Mer	-4895
▁ئاسانه	-4896
▁rêwîtiyê	-4897
--	-4898
22	-4899
▁روو	-4900
▁Home	-4901
▁فرست	-4902
lement	-4903
eks	-4904
▁Bih	-4905
▁ماشا	-4906
▁Navîn	-4907
▁qereq	-4908
▁گومڕای	-4909
▁derbasdar	-4910
girê	-4911
manê	-4912
▁Zan	-4913
jîtal	-4914
westa	-4915
▁Tişt	-4916
▁زاتی	-4917
▁ناسی	-4918
▁رچاوه	-4919
▁ferheng	-4920
▁نادروست	-4921
▁avakirin	-4922
▁دروستکراو	-4923
▁kapasîteya	-4924
ترێت	-4925
خانە	-4926
▁نگن	-4927
▁heya	-4928
▁teng	-4929
▁خشنده	-4930
▁hesabê	-4931
▁option	-4932
▁کانیاندا	-4933
anc	-4934
▁ڕۆز	-4935
▁abon	-4936
▁kamp	-4937
▁Pêşkêş	-4938
▁werger	-4939
▁veşartî	-4940
▁pirsgirêkên	-4941
زۆر	-4942
▁siya	-4943
▁بەشێو	-4944
▁dîjîtal	-4945
▁pîşesaziyê	-4946
OM	-4947
قا	-4948
▁فا	-4949
▁پاڕ	-4950
▁بریت	-4951
ەکەیان	-4952
▁Mesîh	-4953
▁مانگی	-4954
▁amûrên	-4955
▁hêsantir	-4956
▁cryptocurrency	-4957
UR	-4958
lex	-4959
▁FS	-4960
▁ڤی	-4961
itin	-4962
▁Hat	-4963
ەکەدا	-4964
▁qada	-4965
▁كاته	-4966
▁duyemîn	-4967
▁demjimêr	-4968
mar	-4969
berê	-4970
ردەک	-4971
▁Bal	-4972
▁Del	-4973
▁Kod	-4974
▁lên	-4975
▁دەخ	-4976
ئینجا	-4977
▁tiştê	-4978
38	-4979
▁٣	-4980
pêk	-4981
ular	-4982
▁KDE	-4983
▁dak	-4984
▁ورو	-4985
▁چنه	-4986
▁rêveb	-4987
▁منداڵه	-4988
▁Tirkiyeyê	-4989
ner	-4990
▁bor	-4991
▁ئاخ	-4992
▁مێژ	-4993
▁نێو	-4994
▁ڵاته	-4995
▁hezar	-4996
▁saetan	-4997
▁تاوانه	-4998
▁تایبەت	-4999
▁هاواری	-5000
▁zarokên	-5001
ifş	-5002
تەر	-5003
▁text	-5004
▁هۆیه	-5005
▁aborî	-5006
▁dixebite	-5007
-15	-5008
hen	-5009
...]	-5010
NUMX	-5011
ilas	-5012
▁neç	-5013
▁Rewş	-5014
lament	-5015
▁بیستن	-5016
▁agahdariya	-5017
▁دروستکردنی	-5018
▁00	-5019
▁SP	-5020
▁پێنج	-5021
▁armanca	-5022
وێ	-5023
▁niz	-5024
▁مەتر	-5025
▁تێبگه	-5026
▁kirine	-5027
▁bûyerên	-5028
▁Eutelsat	-5029
▁daxwazên	-5030
▁Kurdistanê	-5031
êra	-5032
▁ڕژ	-5033
▁کل	-5034
anda	-5035
atej	-5036
▁new	-5037
aster	-5038
▁شارو	-5039
▁داناوه	-5040
▁têkildar	-5041
ebr	-5042
ilên	-5043
olar	-5044
▁تۆم	-5045
▁heyw	-5046
▁زانا	-5047
▁زانین	-5048
▁لەوەی	-5049
▁ڕێگەی	-5050
anguage	-5051
▁ئارامی	-5052
▁):	-5053
بووم	-5054
▁ڕێزو	-5055
▁Rêveb	-5056
▁çêbikin	-5057
پەڕ	-5058
▁ڕق	-5059
▁Bişk	-5060
ternet	-5061
▁bitik	-5062
stîtuya	-5063
▁bigire	-5064
▁شێوازی	-5065
▁karûbarên	-5066
box	-5067
bus	-5068
▁زا	-5069
▁سک	-5070
▁dom	-5071
▁şaş	-5072
▁Dibe	-5073
▁hişk	-5074
▁دانا	-5075
▁رگری	-5076
▁gihîş	-5077
▁درۆزن	-5078
▁گومڕایی	-5079
rol	-5080
uter	-5081
▁doza	-5082
êrê	-5083
▁5.	-5084
▁Ltd	-5085
▁Sîst	-5086
▁type	-5087
کردووه	-5088
▁Bajarê	-5089
▁demeke	-5090
▁hevalên	-5091
27	-5092
3,	-5093
qet	-5094
tan	-5095
▁ئافر	-5096
▁ewlehiyê	-5097
64	-5098
چوو	-5099
▁On	-5100
▁nak	-5101
▁زای	-5102
amost	-5103
▁petr	-5104
▁pola	-5105
▁دابن	-5106
▁ئاینه	-5107
▁Wezareta	-5108
کاره	-5109
▁دەنگ	-5110
▁meriv	-5111
▁normal	-5112
▁چاویان	-5113
▁populer	-5114
▁باشترین	-5115
▁جیهاندا	-5116
EK	-5117
Hz	-5118
کێ	-5119
say	-5120
▁qed	-5121
▁كتێ	-5122
▁Post	-5123
▁heke	-5124
▁رسام	-5125
▁بانگی	-5126
▁dixwazim	-5127
CS	-5128
kV	-5129
ght	-5130
▁hîd	-5131
▁لەلای	-5132
▁وتووه	-5133
زیش	-5134
▁cû	-5135
belê	-5136
▁kiş	-5137
▁Time	-5138
▁بەڵکو	-5139
▁بنچینه	-5140
▁هێنانی	-5141
▁xizmetê	-5142
ai	-5143
kr	-5144
پۆش	-5145
ibûn	-5146
▁key	-5147
▁رێك	-5148
▁لاب	-5149
▁Tenê	-5150
▁فتار	-5151
▁rojên	-5152
▁sînor	-5153
▁بچێژن	-5154
▁شێوەیە	-5155
▁endamên	-5156
▁mezintir	-5157
لله	-5158
▁Bila	-5159
▁ئاشك	-5160
▁dengê	-5161
▁biyanî	-5162
▁نەخۆشی	-5163
▁نائومێد	-5164
▁elektronîk	-5165
YA	-5166
ÎV	-5167
ette	-5168
ikan	-5169
خوای	-5170
▁بگر	-5171
▁نزیکه	-5172
▁daxwaza	-5173
▁ئاشکراو	-5174
▁Tendurist	-5175
90	-5176
▁خن	-5177
werd	-5178
▁dok	-5179
▁çewt	-5180
▁blockchain	-5181
mg	-5182
abr	-5183
îqaş	-5184
▁but	-5185
▁ئەت	-5186
▁mult	-5187
▁بچوک	-5188
▁encama	-5189
▁خۆشەوی	-5190
▁Pergala	-5191
▁makîneya	-5192
28	-5193
.07	-5194
اول	-5195
لێش	-5196
▁90	-5197
▁diz	-5198
▁not	-5199
▁zir	-5200
▁خاک	-5201
▁ناز	-5202
▁bank	-5203
▁بڵێم	-5204
▁ستێت	-5205
▁yekîn	-5206
▁فامان	-5207
▁hilweş	-5208
▁Vebijêr	-5209
▁Ap	-5210
olên	-5211
ures	-5212
▁ماد	-5213
▁ڕۆڵه	-5214
▁ئاگره	-5215
▁kuştin	-5216
▁YouTube	-5217
▁birêveb	-5218
▁€	-5219
▁OF	-5220
▁Pub	-5221
▁جێن	-5222
▁دادوه	-5223
▁xwarin	-5224
▁baştirîn	-5225
▁veguhestin	-5226
edia	-5227
orld	-5228
▁xerî	-5229
▁تێکه	-5230
▁کاران	-5231
▁kirîna	-5232
:%	-5233
ۆڵی	-5234
▁Dî	-5235
indî	-5236
▁fêm	-5237
▁sar	-5238
▁sedî	-5239
▁دۆزی	-5240
▁عیسا	-5241
▁Navnîş	-5242
ekên	-5243
îkro	-5244
count	-5245
ûpelê	-5246
▁سڵاو	-5247
▁کاریگەری	-5248
▁Îl	-5249
الله	-5250
▁Bin	-5251
▁nam	-5252
▁ڕێك	-5253
▁Hemî	-5254
▁serî	-5255
▁[...]	-5256
▁cinsî	-5257
▁بداته	-5258
îhengên	-5259
▁herêmê	-5260
▁xwediyê	-5261
2]	-5262
▁''	-5263
alîz	-5264
▁bikî	-5265
▁تێنا	-5266
▁رایه	-5267
▁شارد	-5268
▁mînak	-5269
▁AC	-5270
ling	-5271
▁ئاه	-5272
▁زیند	-5273
▁هاته	-5274
▁یشتن	-5275
▁jêrîn	-5276
▁بدرێت	-5277
▁firotin	-5278
▁software	-5279
بر	-5280
ete	-5281
گۆی	-5282
onks	-5283
xwaz	-5284
دایە	-5285
▁Cot	-5286
▁Ron	-5287
▁Port	-5288
▁Read	-5289
kaniya	-5290
uminium	-5291
▁Lîsteya	-5292
▁ردگاریانه	-5293
ARS	-5294
iyonê	-5295
▁xebat	-5296
▁داواک	-5297
▁دەیان	-5298
▁موشریک	-5299
▁مووتان	-5300
▁ناخۆشیه	-5301
15	-5302
75	-5303
▁Fil	-5304
▁Sor	-5305
▁تاز	-5306
▁نیم	-5307
▁رشۆڕ	-5308
▁ندازه	-5309
▁زۆریان	-5310
▁شیمانی	-5311
وخ	-5312
ere	-5313
▁'%	-5314
▁مێک	-5315
▁vers	-5316
▁تمان	-5317
▁dawiyê	-5318
▁televîz	-5319
▁دووبارە	-5320
▁فرستاده	-5321
▁ڕووناکی	-5322
▁ڕزگارمان	-5323
▁پاداشتیان	-5324
AP	-5325
IS	-5326
▁fîz	-5327
▁خەو	-5328
▁ئەزم	-5329
▁گران	-5330
▁ملیۆن	-5331
▁leşker	-5332
▁سامانی	-5333
▁گۆڕانکاری	-5334
nc	-5335
تە	-5336
یەوە	-5337
▁App	-5338
▁Red	-5339
▁Rom	-5340
▁سلی	-5341
ERSÎV	-5342
اروون	-5343
بیستن	-5344
▁bacê	-5345
▁best	-5346
▁full	-5347
▁ریانه	-5348
▁ئازارو	-5349
▁ڵبژارد	-5350
▁Xwendek	-5351
▁destûra	-5352
▁navnetewî	-5353
▁تاوانبارو	-5354
▁SR	-5355
▁Wê	-5356
▁ec	-5357
▁زل	-5358
▁salî	-5359
▁تەکن	-5360
▁series	-5361
▁navneteweyî	-5362
▁fl	-5363
▁del	-5364
▁gur	-5365
▁عقو	-5366
ایەکی	-5367
aniyên	-5368
▁lêpirs	-5369
▁dewletê	-5370
▁mirovên	-5371
▁دووباره	-5372
اغ	-5373
جێ	-5374
دەر	-5375
▁Ir	-5376
▁Sch	-5377
hilata	-5378
olojiya	-5379
▁گفتوگۆ	-5380
▁Enstîtuya	-5381
▁Pirsgirêk	-5382
ەوێ	-5383
▁ed	-5384
ەنگی	-5385
▁stat	-5386
▁cihên	-5387
▁بۆچوون	-5388
▁شوێنێک	-5389
▁binêrin	-5390
▁piraniya	-5391
çê	-5392
بون	-5393
▁بۆته	-5394
▁heval	-5395
▁دایکی	-5396
ekirinê	-5397
▁kirina	-5398
▁Ya	-5399
کەین	-5400
▁نوس	-5401
▁کوڵ	-5402
engaz	-5403
▁ئومێ	-5404
▁تازه	-5405
▁ڕمان	-5406
▁xilas	-5407
▁ئاوات	-5408
▁hilberîn	-5409
یشە	-5410
▁nab	-5411
▁ریی	-5412
▁شتە	-5413
▁مار	-5414
▁ناگه	-5415
▁Başûr	-5416
▁werin	-5417
▁کراون	-5418
▁Navnetewî	-5419
ict	-5420
êrî	-5421
بیر	-5422
▁bid	-5423
▁tij	-5424
▁nexş	-5425
▁نزیکەی	-5426
▁bandora	-5427
▁beşdarî	-5428
▁خواردنه	-5429
veb	-5430
▁چو	-5431
▁198	-5432
▁Dar	-5433
▁Hey	-5434
▁cel	-5435
▁diş	-5436
▁mir	-5437
▁تره	-5438
ametr	-5439
▁نزیکی	-5440
▁dewlem	-5441
HA	-5442
îy	-5443
▁رت	-5444
▁بكات	-5445
▁هەتا	-5446
▁Almanya	-5447
بەخش	-5448
▁بگۆڕ	-5449
▁ستکه	-5450
ml	-5451
îsan	-5452
اریه	-5453
ەنگە	-5454
▁Bak	-5455
▁raz	-5456
▁لەوێ	-5457
▁ناسه	-5458
▁danîn	-5459
▁ئەمڕۆ	-5460
keftina	-5461
akulteya	-5462
bê	-5463
wir	-5464
înim	-5465
▁ئەر	-5466
▁xeta	-5467
▁مافی	-5468
▁بێزار	-5469
▁ردانی	-5470
="3	-5471
ئای	-5472
utes	-5473
îlan	-5474
▁Pêw	-5475
▁داب	-5476
▁bîra	-5477
▁derz	-5478
▁نرخی	-5479
eneric	-5480
▁Parîsê	-5481
▁jiyanê	-5482
▁تۆوی	-5483
کردنەوە	-5484
▁نیشانی	-5485
▁وازیان	-5486
▁English	-5487
▁piştrast	-5488
▁بیروباوه	-5489
▁ڕزگاریان	-5490
▁derxistin	-5491
▁bikarhêner	-5492
IC	-5493
ku	-5494
nav	-5495
▁Hun	-5496
▁barê	-5497
▁داوا	-5498
▁Black	-5499
▁جیهاد	-5500
▁پێشوو	-5501
▁xemgîn	-5502
▁hewceyê	-5503
▁piştgirî	-5504
▁ئیماندارانی	-5505
66	-5506
MC	-5507
ole	-5508
اکە	-5509
خوا	-5510
oint	-5511
اکات	-5512
▁جەست	-5513
▁BERSÎV	-5514
▁çavdêr	-5515
▁dinyayê	-5516
▁ئاگاداری	-5517
Pl	-5518
enz	-5519
olum	-5520
▁قوڕ	-5521
▁کرێ	-5522
▁کوژ	-5523
▁Rast	-5524
▁عقوب	-5525
rosoft	-5526
▁veqet	-5527
▁کاتژم	-5528
▁bimînin	-5529
▁پێکەنین	-5530
oss	-5531
▁reh	-5532
▁you	-5533
▁تام	-5534
▁یری	-5535
▁ردار	-5536
▁پزیش	-5537
▁bixwe	-5538
▁هۆکاری	-5539
▁ڕۆژێکی	-5540
▁medyayê	-5541
▁Versiyon	-5542
▁hilbijartin	-5543
êje	-5544
▁2,	-5545
▁ziv	-5546
▁بەخ	-5547
ystem	-5548
▁Serm	-5549
▁rabû	-5550
▁پابه	-5551
▁شارۆچ	-5552
▁هێنان	-5553
okr	-5554
▁od	-5555
▁Rad	-5556
▁nîv	-5557
▁Çîn	-5558
▁بچن	-5559
▁دەب	-5560
▁wisa	-5561
▁with	-5562
▁قورس	-5563
▁گێڕن	-5564
iyonên	-5565
▁Rûpel	-5566
▁دەستی	-5567
▁ڵاتدار	-5568
enericName	-5569
îvê	-5570
ound	-5571
▁5/6	-5572
▁Ava	-5573
▁ڕێت	-5574
▁item	-5575
ations	-5576
▁rûniş	-5577
▁لادان	-5578
▁هاتنی	-5579
▁هێناون	-5580
▁Channel	-5581
AC	-5582
▁Serv	-5583
▁kesek	-5584
▁بەهێز	-5585
▁دابێت	-5586
▁نایان	-5587
▁Lêbelê	-5588
▁ناترسن	-5589
▁پشتگیری	-5590
17	-5591
انم	-5592
ەلە	-5593
▁45	-5594
▁80	-5595
roup	-5596
toya	-5597
▁Dîm	-5598
▁şik	-5599
▁هەرگیز	-5600
▁سامانیان	-5601
▁pêşketina	-5602
',	-5603
▁35	-5604
afir	-5605
ages	-5606
ious	-5607
oreş	-5608
▁ئاژ	-5609
▁برو	-5610
▁پیس	-5611
▁deyn	-5612
▁یانپه	-5613
2,	-5614
99	-5615
▁؛	-5616
ێکت	-5617
▁aut	-5618
▁سپی	-5619
لێشێو	-5620
ەوەیە	-5621
▁بمان	-5622
▁لووت	-5623
▁کەوت	-5624
istina	-5625
▁Hêzên	-5626
▁Nîşan	-5627
▁digel	-5628
▁ئینجی	-5629
ametreyên	-5630
▁Facebook	-5631
▁تاقیکردنه	-5632
IM	-5633
St	-5634
ump	-5635
▁Sib	-5636
▁ساد	-5637
▁شێر	-5638
iyona	-5639
▁Pêdivî	-5640
▁دانایی	-5641
▁Pirtûka	-5642
▁فریایان	-5643
▁bitikîne	-5644
▁دانیشتوانی	-5645
▁belavkirina	-5646
ikûm	-5647
▁Erê	-5648
▁دۆل	-5649
▁ركه	-5650
▁روا	-5651
انەوە	-5652
▁وتنه	-5653
▁گەشت	-5654
▁هێناو	-5655
▁bêhtir	-5656
▁zanistî	-5657
18	-5658
DF	-5659
yem	-5660
▁Is	-5661
▁Mag	-5662
▁بەن	-5663
▁تیم	-5664
▁خشش	-5665
▁سات	-5666
▁عبه	-5667
▁ڕام	-5668
▁ژوور	-5669
▁piranî	-5670
▁بوختان	-5671
▁تەکنەل	-5672
▁tevlihev	-5673
ys	-5674
aph	-5675
rên	-5676
▁مێك	-5677
▁Nexş	-5678
▁girt	-5679
▁بابه	-5680
▁چیان	-5681
▁Ewlek	-5682
▁peyka	-5683
▁berxwe	-5684
▁pisporên	-5685
ÊN	-5686
gram	-5687
▁Nîş	-5688
▁Wel	-5689
▁ونه	-5690
▁tool	-5691
▁داون	-5692
▁ستووه	-5693
▁لێدان	-5694
▁ڕۆزیه	-5695
beş	-5696
ool	-5697
▁یر	-5698
ster	-5699
▁bûne	-5700
▁nebe	-5701
▁Îtal	-5702
▁bajêr	-5703
▁germê	-5704
▁شێوەی	-5705
▁Server	-5706
▁dîroka	-5707
▁reklam	-5708
▁كاتێكدا	-5709
▁Language	-5710
▁70	-5711
▁CD	-5712
▁bak	-5713
îsyona	-5714
▁هاتوو	-5715
▁beşdar	-5716
▁welatê	-5717
▁دەمەوێت	-5718
▁sazkirin	-5719
▁hilbijartina	-5720
In	-5721
▁چر	-5722
▁kîm	-5723
▁mis	-5724
bixwe	-5725
danka	-5726
earch	-5727
▁kesê	-5728
▁كردن	-5729
girtin	-5730
▁wesay	-5731
▁توندی	-5732
▁dikarim	-5733
ied	-5734
كار	-5735
îlên	-5736
▁îst	-5737
▁نەخش	-5738
ipping	-5739
▁ئایین	-5740
▁كردووه	-5741
▁pêşeroj	-5742
70	-5743
OS	-5744
▁?	-5745
iir	-5746
ilê	-5747
top	-5748
ناس	-5749
irim	-5750
▁bêd	-5751
▁term	-5752
▁bicîh	-5753
▁کردیت	-5754
▁Hevbend	-5755
▁helwesta	-5756
çî	-5757
ۆشه	-5758
over	-5759
bawer	-5760
▁kevir	-5761
▁مەترسی	-5762
▁Malpera	-5763
▁hakeman	-5764
▁قوربانی	-5765
ification	-5766
▁otomatîk	-5767
▁karsaziyê	-5768
49	-5769
ın	-5770
osk	-5771
▁Wer	-5772
▁jîn	-5773
▁tam	-5774
îkaya	-5775
▁peya	-5776
▁لەبەرئ	-5777
▁deverên	-5778
▁zarokan	-5779
CD	-5780
way	-5781
ansê	-5782
ارنه	-5783
▁Nas	-5784
▁فرۆ	-5785
▁bixw	-5786
▁chat	-5787
▁gelê	-5788
▁this	-5789
▁نمون	-5790
▁پێگه	-5791
▁label	-5792
▁دڵنیابه	-5793
att	-5794
edê	-5795
ivin	-5796
xane	-5797
▁Cop	-5798
▁Daw	-5799
▁Har	-5800
▁Qan	-5801
dirêj	-5802
▁دینی	-5803
keftin	-5804
▁سەرەت	-5805
▁Pêşveç	-5806
▁Dadgeha	-5807
▁Xweseriya	-5808
23	-5809
▁٥	-5810
akt	-5811
خات	-5812
karê	-5813
lock	-5814
▁Wal	-5815
▁kûr	-5816
▁lîs	-5817
▁pac	-5818
▁Berî	-5819
▁حساب	-5820
▁لێره	-5821
ەکانیش	-5822
▁access	-5823
▁رلێشێو	-5824
پا	-5825
ose	-5826
اوو	-5827
dara	-5828
وممه	-5829
▁fre	-5830
▁Nirx	-5831
▁SARS	-5832
ulette	-5833
▁ئوممه	-5834
▁پیرۆز	-5835
▁چوونه	-5836
▁کافرو	-5837
▁ڵامدا	-5838
▁Microsoft	-5839
-6	-5840
VID	-5841
urd	-5842
▁Na	-5843
▁sc	-5844
▁دڕ	-5845
edar	-5846
menu	-5847
▁sex	-5848
ستانی	-5849
▁2000	-5850
▁High	-5851
▁bila	-5852
▁شاری	-5853
▁فرین	-5854
▁karên	-5855
▁خیانه	-5856
▁فریای	-5857
▁Cîhanê	-5858
▁xebata	-5859
▁nikarin	-5860
,,	-5861
ohn	-5862
▁Day	-5863
▁LLC	-5864
▁kon	-5865
▁Slot	-5866
▁چووه	-5867
▁کەمتر	-5868
▁ئیمانداره	-5869
▁ww	-5870
▁Fer	-5871
▁هەژ	-5872
▁tîma	-5873
▁bidest	-5874
▁perwerd	-5875
▁ئاشکرای	-5876
▁rêveberiya	-5877
bas	-5878
▁mm	-5879
▁deq	-5880
▁şîf	-5881
▁خاڵ	-5882
▁cûda	-5883
▁بڵند	-5884
▁Hesab	-5885
▁pelên	-5886
▁rapor	-5887
▁هێنین	-5888
▁biparêz	-5889
▁ronahiya	-5890
dr	-5891
▁Aut	-5892
▁ant	-5893
▁نەم	-5894
▁Şiir	-5895
▁ڕووناک	-5896
▁xwendin	-5897
▁hilberînê	-5898
HD	-5899
za	-5900
چە	-5901
بەتی	-5902
خوێن	-5903
ێرێت	-5904
▁120	-5905
▁www	-5906
▁serv	-5907
▁بایه	-5908
▁سێبه	-5909
▁میوه	-5910
▁kîjan	-5911
▁month	-5912
▁مێننه	-5913
▁xweşik	-5914
▁Publish	-5915
▁ئەوانەی	-5916
▁lîstikvanên	-5917
▁ragihandinê	-5918
ards	-5919
less	-5920
▁لەک	-5921
onder	-5922
▁Hind	-5923
▁gund	-5924
▁hebe	-5925
▁ناخی	-5926
▁گەنج	-5927
▁serok	-5928
▁ڕۆژدا	-5929
alîteya	-5930
asyonên	-5931
▁petrolê	-5932
▁alternat	-5933
▁и	-5934
شێو	-5935
▁cî	-5936
پەنج	-5937
▁cot	-5938
▁نان	-5939
erone	-5940
▁Tags	-5941
▁gazê	-5942
▁êrîş	-5943
▁چاکس	-5944
▁واندا	-5945
▁سانێکی	-5946
▁لەلایەن	-5947
▁بازرگانی	-5948
TM	-5949
ۆمه	-5950
ێنەر	-5951
▁Mon	-5952
▁پێو	-5953
▁Lond	-5954
▁Spas	-5955
▁high	-5956
car	-5957
ded	-5958
uck	-5959
arte	-5960
▁Bet	-5961
▁dîz	-5962
▁وپه	-5963
▁Parz	-5964
▁کردم	-5965
▁mişter	-5966
▁ترسێنه	-5967
▁كانیان	-5968
▁projeya	-5969
▁vekirin	-5970
▁çavkaniyên	-5971
▁şê	-5972
abol	-5973
▁Enq	-5974
▁2011	-5975
▁borî	-5976
▁Çima	-5977
▁بەڕێ	-5978
▁توند	-5979
▁خوار	-5980
▁زۆره	-5981
▁هەمو	-5982
nameyê	-5983
▁هەستی	-5984
▁pirsên	-5985
▁تاوانی	-5986
▁malbata	-5987
▁منداڵان	-5988
▁نجامدانی	-5989
45	-5990
▁SD	-5991
înan	-5992
▁Dis	-5993
▁تراز	-5994
▁خشینی	-5995
▁داوێن	-5996
▁شیانه	-5997
ational	-5998
▁Electr	-5999
▁kêmkirina	-6000
ڕێک	-6001
یەک	-6002
ێوه	-6003
etek	-6004
ەموو	-6005
▁Dib	-6006
▁HDP	-6007
▁وێر	-6008
▁ژنه	-6009
▁News	-6010
▁Oper	-6011
▁Test	-6012
▁live	-6013
▁ئائه	-6014
▁خۆگر	-6015
▁سەرد	-6016
▁كارو	-6017
▁nîqaş	-6018
▁tiştî	-6019
▁خۆزگه	-6020
rainian	-6021
▁avêtin	-6022
▁Peymana	-6023
▁شێوەیەکی	-6024
▁karmendên	-6025
ll	-6026
نەوە	-6027
▁سکی	-6028
▁شوو	-6029
▁وشک	-6030
ئیمان	-6031
گیرێت	-6032
▁ڵیدا	-6033
▁beşên	-6034
▁rewşê	-6035
▁خۆگرو	-6036
▁دەزانن	-6037
NA	-6038
بان	-6039
دەدات	-6040
▁Kurdî	-6041
▁گرێته	-6042
▁Sûriyê	-6043
▁gelekî	-6044
▁ئەمریک	-6045
▁bişînin	-6046
▁نجامیان	-6047
▁Ukrainian	-6048
▁dewlemend	-6049
gen	-6050
ومه	-6051
▁تێف	-6052
ustom	-6053
▁درێن	-6054
▁Karûb	-6055
▁music	-6056
▁ببینن	-6057
▁براکه	-6058
▁مانای	-6059
▁ڕوونی	-6060
▁خێزانی	-6061
▁ناتوانیت	-6062
pro	-6063
بەش	-6064
▁Qu	-6065
کران	-6066
▁Kir	-6067
▁شێت	-6068
▁غڵه	-6069
▁tora	-6070
▁دەچێت	-6071
▁روازه	-6072
▁وەڵام	-6073
▁komput	-6074
▁mîlyon	-6075
▁şîrketên	-6076
▁ڕاستیانه	-6077
osh	-6078
itch	-6079
uhez	-6080
▁siv	-6081
▁sûc	-6082
▁راز	-6083
▁نیو	-6084
▁وتم	-6085
▁horm	-6086
▁veger	-6087
▁ئامێر	-6088
▁باڵنده	-6089
▁pêkanîna	-6090
▁تەندروستی	-6091
IP	-6092
مود	-6093
▁ma	-6094
▁بجه	-6095
▁xelat	-6096
▁şewit	-6097
▁بووبێت	-6098
▁بەدەست	-6099
êwirmend	-6100
▁گوناهبار	-6101
▁têkiliyên	-6102
48	-6103
”,	-6104
The	-6105
٠٠٠	-6106
▁٢٠	-6107
yewî	-6108
▁Afr	-6109
▁Dec	-6110
▁Reş	-6111
▁alî	-6112
▁ner	-6113
▁ستم	-6114
wazin	-6115
انتان	-6116
ییەکی	-6117
▁Dost	-6118
▁hebû	-6119
▁رشتی	-6120
▁داگیر	-6121
▁ماشای	-6122
▁wêneyê	-6123
▁karûbarê	-6124
▁دیهێناوه	-6125
::	-6126
ls	-6127
لیس	-6128
▁(3	-6129
▁Es	-6130
▁iP	-6131
▁بس	-6132
inal	-6133
▁Wên	-6134
▁قۆن	-6135
▁وشت	-6136
▁یپه	-6137
▁Aust	-6138
▁Power	-6139
▁تۆمان	-6140
▁هۆشمه	-6141
▁کۆمپانی	-6142
▁Published	-6143
ûsa	-6144
لۆڤ	-6145
ێرین	-6146
▁Mot	-6147
▁teh	-6148
▁لایەن	-6149
▁qonaxa	-6150
▁قازانج	-6151
▁bikirin	-6152
59	-6153
▁خی	-6154
▁جوڵ	-6155
yarên	-6156
▁Heta	-6157
▁bêne	-6158
▁شتدا	-6159
irketa	-6160
▁mafên	-6161
aks	-6162
fik	-6163
▁At	-6164
ench	-6165
▁Pac	-6166
▁Van	-6167
▁تۆی	-6168
gehan	-6169
▁tevî	-6170
▁ترسم	-6171
▁کۆده	-6172
▁Tattoo	-6173
▁ئامانج	-6174
▁تێدایه	-6175
▁ماندوو	-6176
▁Sîstema	-6177
▁çalakiya	-6178
GH	-6179
ویه	-6180
▁Paş	-6181
▁کۆی	-6182
▁Light	-6183
▁motor	-6184
▁tîrêj	-6185
▁hejmar	-6186
▁دیارده	-6187
▁rastiyê	-6188
▁گفتوگۆی	-6189
▁ئامۆژگار	-6190
urn	-6191
îpa	-6192
▁Maf	-6193
▁val	-6194
▁هید	-6195
▁guru	-6196
▁prov	-6197
▁جیاک	-6198
▁جێگیر	-6199
▁کاتدا	-6200
▁modela	-6201
▁çandin	-6202
▁rêbazên	-6203
▁شێرپەنج	-6204
▁çapemeniyê	-6205
îla	-6206
▁دێ	-6207
iyaz	-6208
uary	-6209
▁رێز	-6210
otinê	-6211
▁2010	-6212
▁هۆشی	-6213
▁ڕێکخ	-6214
BC	-6215
je	-6216
qî	-6217
▁Vi	-6218
omat	-6219
▁19,	-6220
▁Top	-6221
▁kûç	-6222
▁هەن	-6223
▁بڵێت	-6224
▁بۆوه	-6225
▁mehan	-6226
بێگومان	-6227
▁piştev	-6228
cut	-6229
yarî	-6230
▁Can	-6231
▁کسه	-6232
▁بکرد	-6233
▁پاره	-6234
▁ندانه	-6235
▁کۆشکه	-6236
▁مەبەست	-6237
▁ستدرێژی	-6238
لێ	-6239
udio	-6240
▁Art	-6241
▁loc	-6242
▁چپه	-6243
▁جۆری	-6244
▁داته	-6245
▁نهێن	-6246
▁bilez	-6247
▁رهاتی	-6248
▁یاندن	-6249
▁زاتێکی	-6250
▁bajarên	-6251
▁سوپاسگوزار	-6252
iqû	-6253
▁qu	-6254
▁Îro	-6255
▁رهات	-6256
▁وامه	-6257
▁کەمێک	-6258
▁Kanada	-6259
▁Produc	-6260
▁gengaz	-6261
▁کەسێکی	-6262
▁Destpêk	-6263
▁قورئانی	-6264
▁دوژمنایه	-6265
▁ڵامیاندا	-6266
▁Parametreyên	-6267
Pr	-6268
▁ي	-6269
وخت	-6270
▁Oc	-6271
▁Rû	-6272
play	-6273
رانه	-6274
▁Ide	-6275
▁dîs	-6276
▁şop	-6277
انێکی	-6278
▁دلۆڤ	-6279
▁ربکه	-6280
▁berhev	-6281
▁inmenu	-6282
63	-6283
bolê	-6284
▁art	-6285
▁tun	-6286
▁ریکی	-6287
▁زگای	-6288
▁لێوه	-6289
▁نوێن	-6290
ection	-6291
▁دووەم	-6292
▁destûrê	-6293
؟"	-6294
-10	-6295
کمه	-6296
ینا	-6297
▁ربڕ	-6298
▁مەز	-6299
▁نزیك	-6300
▁Dîroka	-6301
▁online	-6302
▁هەڵبژارد	-6303
▁University	-6304
/3	-6305
MS	-6306
enu	-6307
یدا	-6308
ئێمه	-6309
▁dîw	-6310
▁qum	-6311
▁یانی	-6312
▁fonks	-6313
▁mîkro	-6314
▁cureyên	-6315
▁Înternetê	-6316
IT	-6317
Li	-6318
▁Îr	-6319
ATOR	-6320
oger	-6321
مانن	-6322
▁Fîl	-6323
▁deh	-6324
▁ent	-6325
▁şeş	-6326
▁نیت	-6327
▁وین	-6328
▁زایه	-6329
▁Zarok	-6330
▁dorpê	-6331
▁zêrîn	-6332
▁Nexweş	-6333
▁تێناگه	-6334
▁جارێکی	-6335
AV	-6336
pa	-6337
چۆ	-6338
erab	-6339
raul	-6340
ئیتر	-6341
▁Pêk	-6342
▁Win	-6343
▁سیان	-6344
▁COVID	-6345
▁fireh	-6346
▁دەگەڕ	-6347
▁pakêtê	-6348
▁vexwar	-6349
▁بهێنین	-6350
▁Piştgir	-6351
▁دەتوانێت	-6352
▁بەشێوەیەکی	-6353
ئە	-6354
ۆل	-6355
▁کن	-6356
exta	-6357
اورد	-6358
▁بکە	-6359
گرتنی	-6360
▁بەشی	-6361
attoos	-6362
▁شوێنکه	-6363
▁ڕوویان	-6364
▁televiz	-6365
▁دینداری	-6366
uş	-6367
ute	-6368
▁01	-6369
ison	-6370
▁Sel	-6371
▁sib	-6372
▁çep	-6373
▁بوه	-6374
çeyan	-6375
▁tarî	-6376
▁ویان	-6377
▁گرتن	-6378
▁پێشهات	-6379
▁desteser	-6380
▁enerjiyê	-6381
pt	-6382
ron	-6383
▁حوک	-6384
▁چەپ	-6385
ering	-6386
▁بەڵێ	-6387
▁دەرەوە	-6388
وور	-6389
▁erê	-6390
▁ڕۆح	-6391
ograf	-6392
▁ئاگا	-6393
▁ترتان	-6394
▁kevneşopî	-6395
▁خۆشەویستی	-6396
▁damezrandin	-6397
▁تم	-6398
▁Mun	-6399
▁mez	-6400
▁عاد	-6401
▁یاخ	-6402
ەنەوە	-6403
▁axaf	-6404
ategor	-6405
▁Techn	-6406
▁demên	-6407
▁پاشگه	-6408
▁hinekî	-6409
▁ئەمانە	-6410
▁ناچاری	-6411
▁navendî	-6412
▁kalîteyê	-6413
▁دەتوانیت	-6414
fe	-6415
رم	-6416
san	-6417
كات	-6418
ێنم	-6419
ایەوە	-6420
▁1000	-6421
▁kesî	-6422
▁بچێت	-6423
▁قواو	-6424
▁هەنگ	-6425
encies	-6426
▁Laser	-6427
iyariya	-6428
▁binçav	-6429
▁wesayît	-6430
▁lêkolînê	-6431
▁Christmas	-6432
▁pejirandin	-6433
OD	-6434
lan	-6435
▁Sa	-6436
▁hu	-6437
▁زۆ	-6438
▁pev	-6439
▁پته	-6440
▁تردا	-6441
▁دوان	-6442
▁hevbeş	-6443
▁modern	-6444
▁xwedan	-6445
▁پاڕاست	-6446
▁belgeyên	-6447
▁ragihandin	-6448
MU	-6449
▁ث	-6450
ayr	-6451
▁kel	-6452
▁kêr	-6453
▁pat	-6454
▁Çew	-6455
▁Holm	-6456
▁جوله	-6457
▁xweya	-6458
▁دەڵێن	-6459
▁زانیت	-6460
▁offers	-6461
▁پاڕانه	-6462
▁Nûçeyên	-6463
VC	-6464
ژو	-6465
▁tek	-6466
▁Euro	-6467
▁birr	-6468
▁World	-6469
▁بزانه	-6470
▁دڵسۆز	-6471
▁چاوەڕ	-6472
▁bibîne	-6473
▁درۆزانی	-6474
▁girêdana	-6475
▁tecrûbeya	-6476
enn	-6477
min	-6478
ژین	-6479
▁Sl	-6480
▁رخ	-6481
▁Erd	-6482
▁Pan	-6483
guman	-6484
▁behsa	-6485
▁ڕێگای	-6486
edariya	-6487
▁Casino	-6488
▁سامانه	-6489
▁ناومان	-6490
▁dixwaze	-6491
▁boriyeke	-6492
▁pêşveçûna	-6493
qa	-6494
Par	-6495
its	-6496
كرد	-6497
▁Aj	-6498
▁Pay	-6499
▁Xan	-6500
▁ولا	-6501
▁TRAN	-6502
▁ئیسح	-6503
▁بیرم	-6504
▁یمانی	-6505
▁Daxuyaniya	-6506
app	-6507
سای	-6508
▁Oz	-6509
ێنیت	-6510
▁Meh	-6511
کاران	-6512
▁بگره	-6513
▁تێپه	-6514
▁ترمان	-6515
▁ژاران	-6516
▁دڵنیایی	-6517
▁پەیوەند	-6518
▁serkeftî	-6519
▁پارێزکاران	-6520
kg	-6521
ital	-6522
ized	-6523
▁Zêd	-6524
▁can	-6525
raine	-6526
▁akadem	-6527
▁fîzîkî	-6528
▁ئیماندارن	-6529
مو	-6530
bîr	-6531
vên	-6532
▁١٠	-6533
evel	-6534
xetê	-6535
▁hot	-6536
▁بڕۆ	-6537
▁میس	-6538
▁کشت	-6539
inese	-6540
▁Xanî	-6541
▁phot	-6542
▁باشی	-6543
▁ڕووه	-6544
▁کران	-6545
▁dijîn	-6546
▁liser	-6547
▁button	-6548
▁dijwar	-6549
▁نابینن	-6550
▁damezir	-6551
▁parastin	-6552
▁Fakulteya	-6553
ret	-6554
êşa	-6555
بنه	-6556
ریت	-6557
▁le	-6558
ally	-6559
enas	-6560
▁بۆش	-6561
ATORS	-6562
▁veke	-6563
▁سارد	-6564
▁لاری	-6565
▁celeb	-6566
▁pirsa	-6567
▁vekin	-6568
▁ڕاهێن	-6569
▁ڕاکێش	-6570
SLATORS	-6571
▁Guherî	-6572
▁peywend	-6573
▁xebatên	-6574
▁کاتژمێر	-6575
▁TRANSLATORS	-6576
Ji	-6577
yle	-6578
▁كە	-6579
tual	-6580
▁out	-6581
▁ماس	-6582
▁بکوژ	-6583
▁شێوە	-6584
▁Arşîv	-6585
▁Karên	-6586
▁bikiş	-6587
▁nizan	-6588
▁کشتوک	-6589
▁wekhev	-6590
▁Nexşeya	-6591
▁avahiya	-6592
▁شوێنیان	-6593
ول	-6594
▁(4	-6595
سوڕه	-6596
ەکردن	-6597
▁date	-6598
▁بخات	-6599
▁demek	-6600
▁هاتنه	-6601
▁bazarê	-6602
▁bedena	-6603
▁guhertina	-6604
▁دوع	-6605
▁دەه	-6606
iyana	-6607
owder	-6608
êjeya	-6609
▁Plat	-6610
▁نیوه	-6611
▁هەفت	-6612
▁برێنه	-6613
▁بەیەک	-6614
▁گرنگە	-6615
▁گۆشتی	-6616
▁خۆشیان	-6617
▁خۆڕاگر	-6618
▁Company	-6619
▁pêşketî	-6620
▁ڕابردوو	-6621
▁zêdebûna	-6622
▁ئاسماندا	-6623
▁٤	-6624
▁١٩	-6625
ject	-6626
ەیان	-6627
▁Cam	-6628
▁cez	-6629
▁tik	-6630
▁رجه	-6631
guher	-6632
▁شمان	-6633
▁گۆڕی	-6634
▁Bonus	-6635
▁dabeş	-6636
▁hûrgel	-6637
▁ردووکیان	-6638
14	-6639
usê	-6640
گره	-6641
▁bl	-6642
▁قە	-6643
iver	-6644
▁pot	-6645
▁sel	-6646
▁sur	-6647
توانی	-6648
▁ecêb	-6649
▁rûyê	-6650
▁garan	-6651
▁پێکەوە	-6652
▁pêşniyaz	-6653
▁çavkaniya	-6654
dez	-6655
ray	-6656
êdî	-6657
چۆن	-6658
▁IT	-6659
▁زە	-6660
▁Ant	-6661
▁سیح	-6662
▁لات	-6663
▁baca	-6664
▁بەوە	-6665
▁تۆیه	-6666
▁هاوت	-6667
▁ڕێته	-6668
▁pêdiv	-6669
▁نوورو	-6670
▁بەکتری	-6671
▁رانیان	-6672
endurust	-6673
▁zûtirîn	-6674
33	-6675
MP	-6676
fl	-6677
کت	-6678
pêş	-6679
رام	-6680
▁//	-6681
inux	-6682
▁bax	-6683
danên	-6684
▁pişk	-6685
▁کاول	-6686
▁Pîroz	-6687
▁Têkil	-6688
▁جووله	-6689
▁خۆیشی	-6690
▁berdan	-6691
▁temaşev	-6692
▁قورئاندا	-6693
US	-6694
avor	-6695
navê	-6696
▁ISO	-6697
▁Xeb	-6698
▁Xud	-6699
▁link	-6700
▁raya	-6701
▁بتان	-6702
ermana	-6703
▁Ziman	-6704
▁hundir	-6705
▁xizmet	-6706
▁دیندار	-6707
▁stratej	-6708
ri	-6709
ele	-6710
onî	-6711
▁OSC	-6712
خستنی	-6713
▁Belg	-6714
▁heqê	-6715
▁parv	-6716
▁view	-6717
▁تاقم	-6718
▁بژارد	-6719
▁جوبره	-6720
▁بەرهەم	-6721
▁رفرازی	-6722
▁جوانترین	-6723
1,	-6724
77	-6725
asê	-6726
list	-6727
▁rêk	-6728
▁vîr	-6729
▁زیر	-6730
îneya	-6731
▁ئەست	-6732
▁دراو	-6733
▁گرۆی	-6734
yright	-6735
▁Girtî	-6736
▁Cotmeh	-6737
▁ئامادە	-6738
▁دەبێتە	-6739
▁wêneyên	-6740
jî	-6741
ûyê	-6742
ترس	-6743
جۆر	-6744
▁فڕ	-6745
▁Din	-6746
▁Pîş	-6747
▁air	-6748
▁تین	-6749
▁هون	-6750
▁2008	-6751
▁خاته	-6752
▁herdu	-6753
▁ترسان	-6754
▁نگیان	-6755
▁پێکرد	-6756
▁هەمیشە	-6757
▁Neteweyî	-6758
▁ewlehiya	-6759
▁liserxetê	-6760
▁بڕیارداوه	-6761
▁alternatîf	-6762
▁çareseriya	-6763
rî	-6764
▁si	-6765
▁ڵن	-6766
▁jet	-6767
▁veb	-6768
▁دەچ	-6769
▁داری	-6770
▁دەڵێت	-6771
▁Pêwîst	-6772
▁mesref	-6773
▁girêdan	-6774
▁خواردنی	-6775
بم	-6776
ats	-6777
یشم	-6778
واره	-6779
▁mêj	-6780
▁لێب	-6781
▁گوت	-6782
▁site	-6783
▁çima	-6784
▁برای	-6785
▁وێته	-6786
▁پاشا	-6787
▁خۆشیه	-6788
▁کراوی	-6789
▁Ukraine	-6790
▁herêmên	-6791
▁pêşniyarên	-6792
xy	-6793
ێل	-6794
axê	-6795
emî	-6796
kek	-6797
▁Ge	-6798
▁ڵا	-6799
oron	-6800
▁Sam	-6801
▁Tên	-6802
▁tex	-6803
▁wez	-6804
eleya	-6805
▁Komp	-6806
▁کوێر	-6807
▁Rewşa	-6808
▁dakêş	-6809
▁hesin	-6810
▁تەماش	-6811
▁bişîne	-6812
▁mamost	-6813
▁مردووه	-6814
▁Chinese	-6815
▁شارۆچکه	-6816
▁performansa	-6817
16	-6818
کا	-6819
▁"%	-6820
▁Ax	-6821
▁bêk	-6822
▁گۆر	-6823
▁بدۆز	-6824
▁زۆرو	-6825
▁کۆسپ	-6826
▁hingê	-6827
▁German	-6828
▁destikê	-6829
▁ڕاستیان	-6830
▁aboneyên	-6831
▁Rojhilata	-6832
enî	-6833
▁1:	-6834
îzmê	-6835
▁kul	-6836
▁ئەڵ	-6837
▁الم	-6838
▁ھەر	-6839
خوازی	-6840
▁hucr	-6841
▁serîl	-6842
afirîne	-6843
▁mobile	-6844
cription	-6845
▁بتوانێت	-6846
▁birîndar	-6847
▁ronahiyê	-6848
▁Bij	-6849
▁باک	-6850
▁یام	-6851
▁comp	-6852
▁بیاب	-6853
▁شکست	-6854
▁ناڵه	-6855
▁کینه	-6856
▁Jinan	-6857
▁lidar	-6858
▁شتێکه	-6859
▁System	-6860
▁یاریده	-6861
▁pêvajoyê	-6862
▁manufactur	-6863
eth	-6864
soz	-6865
barê	-6866
xbet	-6867
ئایا	-6868
hêner	-6869
▁تێگه	-6870
▁Sport	-6871
▁Mirovan	-6872
▁Mîhengên	-6873
▁Standard	-6874
ero	-6875
▁Tw	-6876
▁sk	-6877
word	-6878
yper	-6879
ادار	-6880
بەری	-6881
▁Nov	-6882
▁xir	-6883
▁بۆن	-6884
▁غاف	-6885
▁xist	-6886
▁ریدا	-6887
▁كاتی	-6888
▁گۆڕه	-6889
quency	-6890
▁جۆرێک	-6891
▁چالاک	-6892
▁rûpelê	-6893
▁رناگرن	-6894
▁Tattoos	-6895
▁بوونایه	-6896
▁desthilat	-6897
▁Perwerdehiya	-6898
uks	-6899
îtî	-6900
انت	-6901
yalê	-6902
▁Inc	-6903
▁دری	-6904
▁down	-6905
▁tije	-6906
▁بیکه	-6907
▁fiber	-6908
▁مێرده	-6909
▁salane	-6910
▁virtual	-6911
▁vekirina	-6912
▁ئیمانیان	-6913
▁گومڕاییه	-6914
AME	-6915
bec	-6916
wez	-6917
▁Su	-6918
▁gav	-6919
▁gul	-6920
▁sor	-6921
▁xew	-6922
▁قوڵ	-6923
▁şevê	-6924
▁30000	-6925
▁parve	-6926
▁pelan	-6927
▁خوازن	-6928
▁ڵکیدا	-6929
▁bêdeng	-6930
▁dîzayn	-6931
▁mîheng	-6932
▁bersiva	-6933
▁hemberî	-6934
hd	-6935
▁ط	-6936
ama	-6937
ڕۆژ	-6938
="2.	-6939
refa	-6940
ایەک	-6941
▁Bas	-6942
▁شۆڕ	-6943
▁لێم	-6944
▁خششه	-6945
▁سایه	-6946
▁ڤیدی	-6947
▁رناچن	-6948
▁تاریکی	-6949
▁خشراوه	-6950
▁خشیووه	-6951
▁ناردووه	-6952
▁rêxistin	-6953
Ez	-6954
esî	-6955
کەی	-6956
alan	-6957
خوات	-6958
▁HGH	-6959
▁Off	-6960
▁zew	-6961
▁ڵاق	-6962
▁berj	-6963
▁line	-6964
▁prot	-6965
▁wire	-6966
▁forma	-6967
▁jinên	-6968
▁lihev	-6969
▁لێمان	-6970
▁wateyê	-6971
▁جیهانه	-6972
▁هیچیان	-6973
▁نێوانیان	-6974
▁150	-6975
▁Kiş	-6976
▁یاڵ	-6977
forma	-6978
▁Coin	-6979
▁Plus	-6980
▁nake	-6981
▁کۆشک	-6982
▁diçin	-6983
▁nûjen	-6984
▁super	-6985
▁رتانه	-6986
▁رهاته	-6987
▁کرێته	-6988
▁Bişkoj	-6989
▁ناسانه	-6990
▁Projeya	-6991
▁bizanin	-6992
▁kîmyewî	-6993
MB	-6994
Tec	-6995
ife	-6996
پاش	-6997
▁ro	-6998
etin	-6999
▁Wood	-7000
▁xanî	-7001
▁ناكه	-7002
▁Serok	-7003
▁çewtî	-7004
▁بۆلای	-7005
▁Armanc	-7006
▁ئینجیل	-7007
▁دەردەک	-7008
▁رتاندا	-7009
▁گوفتارو	-7010
▁Amerîkayê	-7011
▁بەکارهێنانی	-7012
.[	-7013
54	-7014
ee	-7015
ۆنی	-7016
▁XW	-7017
îgort	-7018
ortcut	-7019
umreya	-7020
▁kevin	-7021
▁بکرێن	-7022
▁خزمان	-7023
▁چاکان	-7024
اکانیان	-7025
▁Travel	-7026
▁ئیسحاق	-7027
▁لێکدانه	-7028
▁Aluminium	-7029
▁makîneyên	-7030
▁بیویستایه	-7031
74	-7032
EST	-7033
قور	-7034
ەوەر	-7035
▁Form	-7036
▁جووت	-7037
▁نێرد	-7038
▁ciwan	-7039
▁çêkir	-7040
▁ڕازان	-7041
▁ڕوناک	-7042
▁dibînin	-7043
▁Agahiyên	-7044
ano	-7045
ning	-7046
▁هێر	-7047
▁ژار	-7048
▁گەی	-7049
▁Herî	-7050
▁port	-7051
▁ساڵه	-7052
▁مۆسی	-7053
dariyê	-7054
evious	-7055
▁Adarê	-7056
▁benda	-7057
▁دایان	-7058
▁ڕواڵه	-7059
▁kalîte	-7060
▁mercên	-7061
▁ئەوانە	-7062
▁تەواوی	-7063
▁ڕێیانه	-7064
-9	-7065
ird	-7066
وپڕ	-7067
▁EN	-7068
ablo	-7069
kara	-7070
ouse	-7071
شیان	-7072
▁Kev	-7073
▁Mac	-7074
▁Max	-7075
▁Res	-7076
▁are	-7077
▁meş	-7078
▁sax	-7079
aveat	-7080
▁John	-7081
keting	-7082
▁ڕێژەی	-7083
▁serokê	-7084
aveatrain	-7085
▁داهاتوودا	-7086
▁Mezinahiya	-7087
ica	-7088
set	-7089
ideos	-7090
▁Last	-7091
▁xerab	-7092
▁ئێوار	-7093
▁مێشکی	-7094
▁Zanist	-7095
▁لێرەدا	-7096
osterone	-7097
orp	-7098
ote	-7099
تدا	-7100
▁03	-7101
▁Az	-7102
▁dû	-7103
alog	-7104
چیان	-7105
▁nax	-7106
▁بون	-7107
▁qasî	-7108
▁size	-7109
▁user	-7110
▁زاری	-7111
▁بابەت	-7112
▁بنیات	-7113
▁ناشیر	-7114
▁Bingeh	-7115
▁bisekin	-7116
▁lênêrîna	-7117
▁naskirin	-7118
▁pêşxistina	-7119
دای	-7120
anag	-7121
▁[2]	-7122
▁gem	-7123
ییەوە	-7124
▁2009	-7125
▁Wêne	-7126
▁karb	-7127
▁semb	-7128
▁torê	-7129
▁WeTek	-7130
▁biçin	-7131
▁neheq	-7132
▁دنیای	-7133
▁hewayî	-7134
▁پێکهات	-7135
▁گرتووه	-7136
▁business	-7137
▁dibistanê	-7138
▁قورئانمان	-7139
▁Taybetmend	-7140
▁ceribandin	-7141
;/	-7142
OL	-7143
atî	-7144
الی	-7145
hiyê	-7146
wekî	-7147
ێنان	-7148
▁dah	-7149
▁ezm	-7150
▁rec	-7151
▁دەس	-7152
▁هێم	-7153
etiya	-7154
▁drav	-7155
▁باسه	-7156
▁تاکه	-7157
▁مێرد	-7158
▁پێیه	-7159
▁tevlî	-7160
▁دامەز	-7161
▁لەمەو	-7162
▁میرات	-7163
▁وروبه	-7164
▁کردین	-7165
▁Review	-7166
▁جێنشین	-7167
▁دوژمنی	-7168
▁بکردایه	-7169
▁هێنابوو	-7170
▁پیاوێکی	-7171
SP	-7172
nê	-7173
بات	-7174
گوێ	-7175
▁el	-7176
▁Hez	-7177
▁Sed	-7178
▁buh	-7179
▁kop	-7180
▁teş	-7181
▁بپر	-7182
▁خەم	-7183
▁سۆز	-7184
▁Priv	-7185
▁gerd	-7186
▁كاره	-7187
▁ندیه	-7188
▁ڕۆشن	-7189
▁گەشە	-7190
▁bicih	-7191
▁قۆناغ	-7192
▁هێنێته	-7193
eK	-7194
لو	-7195
="4	-7196
ape	-7197
url	-7198
کەن	-7199
▁do	-7200
îtîk	-7201
▁Nîs	-7202
▁ago	-7203
▁baw	-7204
▁رێت	-7205
▁چیت	-7206
▁Azad	-7207
▁file	-7208
▁spas	-7209
▁جێیه	-7210
▁ڵکێش	-7211
atorên	-7212
▁Feder	-7213
▁دووڕوو	-7214
▁difikirin	-7215
Di	-7216
îze	-7217
سێت	-7218
▁ek	-7219
▁wh	-7220
▁îs	-7221
êdan	-7222
îsên	-7223
▁Meg	-7224
▁rîs	-7225
atiya	-7226
▁More	-7227
▁واری	-7228
▁واڵم	-7229
▁چۆنه	-7230
▁ڕایه	-7231
▁bihêz	-7232
▁demekê	-7233
▁review	-7234
▁خۆیتان	-7235
▁ربگرێت	-7236
▁زاتێکه	-7237
Shortcut	-7238
▁pêbawer	-7239
▁dixebitin	-7240
▁hevkariya	-7241
▁pêşkêşkirina	-7242
▁kontrolkirina	-7243
55	-7244
▁Do	-7245
atab	-7246
hone	-7247
▁hav	-7248
erson	-7249
ified	-7250
▁Hack	-7251
▁Mizg	-7252
▁hişê	-7253
▁سووک	-7254
▁ڕێوه	-7255
▁OSCam	-7256
▁WeTeK	-7257
▁بڵندی	-7258
▁درێژی	-7259
▁دەدەن	-7260
ategorî	-7261
▁çîroka	-7262
▁ئارامگر	-7263
▁armancên	-7264
▁روونیاندا	-7265
:0	-7266
SS	-7267
aza	-7268
jin	-7269
دڵی	-7270
ness	-7271
yeya	-7272
▁Bro	-7273
▁Int	-7274
▁red	-7275
otrop	-7276
ument	-7277
▁dilê	-7278
▁hewa	-7279
▁hêdî	-7280
▁ئینگ	-7281
▁چییە	-7282
▁Heyva	-7283
▁watch	-7284
îkirina	-7285
▁ئاشکرادا	-7286
kir	-7287
بای	-7288
itor	-7289
قورئ	-7290
▁Dub	-7291
▁GHz	-7292
▁Jan	-7293
▁Pre	-7294
▁War	-7295
▁ڵكو	-7296
رابوو	-7297
▁توشی	-7298
▁رجێک	-7299
▁ماسی	-7300
actory	-7301
▁Rûsya	-7302
▁dabîn	-7303
▁tedaw	-7304
▁xwînê	-7305
▁دامان	-7306
▁درێته	-7307
▁پێشین	-7308
▁بزانین	-7309
▁میراتی	-7310
▁comment	-7311
▁هاواریان	-7312
saveatrain	-7313
26	-7314
eva	-7315
ids	-7316
پەر	-7317
▁كێ	-7318
▁فام	-7319
▁نزم	-7320
ender	-7321
▁hack	-7322
▁laşê	-7323
▁ئاخۆ	-7324
▁بدەن	-7325
▁مناڵ	-7326
êdanên	-7327
▁pêşan	-7328
▁rastê	-7329
▁ڕۆچوون	-7330
▁سامناکه	-7331
ûy	-7332
:00	-7333
▁CE	-7334
ider	-7335
▁log	-7336
▁ئێم	-7337
▁Gelo	-7338
▁Save	-7339
▁rêve	-7340
▁خشته	-7341
▁Endam	-7342
▁xalên	-7343
▁حیکمه	-7344
▁دابوو	-7345
▁رستان	-7346
▁bihîst	-7347
▁ئاماژه	-7348
▁pisporê	-7349
▁فریشتانه	-7350
.6	-7351
▁Ê	-7352
▁Sol	-7353
▁win	-7354
edana	-7355
▁Amaz	-7356
▁دەری	-7357
▁شوعه	-7358
ارەکان	-7359
▁maddî	-7360
▁بڵێسه	-7361
▁تێکۆش	-7362
▁یشتنه	-7363
▁endamê	-7364
▁makîne	-7365
▁nîşana	-7366
▁بردووه	-7367
▁داخواز	-7368
▁Partiya	-7369
▁parastî	-7370
DM	-7371
▁İ	-7372
bil	-7373
لێک	-7374
نیش	-7375
work	-7376
▁piş	-7377
▁wex	-7378
▁کێن	-7379
▁گات	-7380
▁Mult	-7381
▁smart	-7382
▁مردنی	-7383
▁Amûrên	-7384
▁dilsoz	-7385
▁rengên	-7386
▁pergalê	-7387
▁پرسیارت	-7388
▁Copyright	-7389
▁tendurust	-7390
▁Pêşniyarên	-7391
IY	-7392
لان	-7393
▁ef	-7394
bout	-7395
ecîh	-7396
ensî	-7397
ûpêk	-7398
▁شمی	-7399
▁ڕۆن	-7400
▁کۆر	-7401
ەکەوە	-7402
▁رووی	-7403
▁نانه	-7404
▁کێوی	-7405
▁کەوا	-7406
▁یشته	-7407
▁brand	-7408
▁بمانه	-7409
پارێزێت	-7410
▁Global	-7411
▁nirxên	-7412
▁بارانی	-7413
▁peymana	-7414
▁sêyemîn	-7415
▁باوکیان	-7416
▁sazkirinê	-7417
▁Technology	-7418
ۆکە	-7419
یەکی	-7420
▁دیز	-7421
▁دیم	-7422
atter	-7423
▁Ital	-7424
▁ling	-7425
▁بێنه	-7426
▁zindî	-7427
▁ئێسته	-7428
▁ئەویش	-7429
▁هەندێ	-7430
▁Control	-7431
▁Parzûna	-7432
▁lêgerîn	-7433
▁Previous	-7434
▁veşartin	-7435
▁mişteriyên	-7436
fta	-7437
ەرم	-7438
▁33	-7439
▁Îs	-7440
kurd	-7441
▁Che	-7442
▁eng	-7443
▁kax	-7444
▁nûn	-7445
ایاندا	-7446
▁hefte	-7447
▁خانوو	-7448
▁سروشت	-7449
▁نازانم	-7450
▁ئەمریکا	-7451
▁رمانمان	-7452
ugin	-7453
▁May	-7454
▁gun	-7455
▁rel	-7456
▁نزا	-7457
▁Idea	-7458
▁تاوه	-7459
▁پیشه	-7460
▁ئەبێت	-7461
▁ناوەڕ	-7462
▁گرانی	-7463
▁global	-7464
▁piştre	-7465
▁بڕیاره	-7466
▁پاشایه	-7467
▁danûstend	-7468
▁frequency	-7469
▁mezinbûna	-7470
▁parlament	-7471
▁Xwendekarên	-7472
ûd	-7473
حاڵ	-7474
▁Wh	-7475
دەین	-7476
محمد	-7477
▁Nev	-7478
▁خنه	-7479
▁لاو	-7480
▁گرۆ	-7481
▁bimîne	-7482
▁سوپاسی	-7483
▁cîhazên	-7484
▁نایزانن	-7485
▁هاوکاری	-7486
▁telefona	-7487
▁têkiliyê	-7488
▁alîkarîya	-7489
13	-7490
loy	-7491
ürt	-7492
وتی	-7493
ەڵە	-7494
▁Jê	-7495
berg	-7496
▁2007	-7497
▁Kong	-7498
▁تیاد	-7499
▁لاشه	-7500
▁واوه	-7501
▁پڕۆژ	-7502
ermend	-7503
▁Xudan	-7504
▁metre	-7505
▁kesane	-7506
▁باسکرا	-7507
▁ناخۆشه	-7508
▁هێنایه	-7509
▁misoger	-7510
▁بارودۆخ	-7511
▁بڕواتان	-7512
▁derfetên	-7513
▁qereqola	-7514
▁hilbijêrin	-7515
زە	-7516
بەڕ	-7517
▁Kr	-7518
wazî	-7519
▁rex	-7520
▁code	-7521
▁nifş	-7522
▁تیدا	-7523
▁نووس	-7524
▁وترا	-7525
▁hikûm	-7526
▁sêwir	-7527
▁دروسته	-7528
▁Medical	-7529
▁کتێبێکی	-7530
▁sîstemên	-7531
cel	-7532
fan	-7533
îmê	-7534
▁(%	-7535
▁02	-7536
▁3,	-7537
▁لم	-7538
گوزه	-7539
▁Rec	-7540
▁rom	-7541
darên	-7542
▁amûr	-7543
▁تازە	-7544
▁زیات	-7545
anyayê	-7546
xaneyê	-7547
▁Bitik	-7548
▁دەبین	-7549
▁وامیش	-7550
▁pêwend	-7551
▁pêşveb	-7552
▁پێگرتن	-7553
▁کردەوە	-7554
▁کێکیان	-7555
by	-7556
ca	-7557
oin	-7558
جیر	-7559
ێنە	-7560
▁UK	-7561
board	-7562
▁Inst	-7563
▁menu	-7564
▁ئاخر	-7565
▁بەست	-7566
▁زووه	-7567
▁کوفر	-7568
▁favor	-7569
▁ئاگاو	-7570
▁عیسای	-7571
▁گومڕاو	-7572
ئیماندار	-7573
▁mesrefa	-7574
▁بوختانه	-7575
anagement	-7576
▁navendên	-7577
▁نێوانتاندا	-7578
▁dîzaynkirin	-7579
شە	-7580
uit	-7581
▁AP	-7582
▁تن	-7583
girt	-7584
seta	-7585
ەوان	-7586
▁Mob	-7587
▁Set	-7588
ewend	-7589
▁Long	-7590
▁بگەڕ	-7591
▁دێنه	-7592
▁شێکی	-7593
شایسته	-7594
▁Video	-7595
▁نیازه	-7596
▁pîvana	-7597
▁yekane	-7598
▁تێفکرن	-7599
▁پیلانی	-7600
▁derziyê	-7601
▁pêşkêşî	-7602
▁dermanên	-7603
▁لێخۆشبووه	-7604
aze	-7605
ماڵ	-7606
▁Ra	-7607
▁box	-7608
▁dez	-7609
▁mûz	-7610
atorê	-7611
ەکانت	-7612
▁welê	-7613
▁گرته	-7614
▁ستمان	-7615
▁سێنێت	-7616
▁گیانی	-7617
▁یشتووه	-7618
▁krediyê	-7619
▁vîdyoyê	-7620
▁بێدارکه	-7621
▁چاکسازی	-7622
▁Xizmetên	-7623
▁Yekîtiya	-7624
lin	-7625
rêl	-7626
بەڵ	-7627
▁یە	-7628
ustr	-7629
شتنی	-7630
▁etc	-7631
▁ڵبژ	-7632
خوارد	-7633
▁رامه	-7634
▁difik	-7635
▁لێبکه	-7636
▁ولاشه	-7637
▁دڵنیام	-7638
▁سروشتی	-7639
▁هاروون	-7640
▁serbixwe	-7641
▁afirandina	-7642
itt	-7643
ûya	-7644
ونی	-7645
▁48	-7646
▁têg	-7647
▁şek	-7648
▁خوش	-7649
▁شای	-7650
▁گرو	-7651
▁zehf	-7652
▁بگێڕ	-7653
▁دایك	-7654
▁danas	-7655
▁ئەفری	-7656
xistinê	-7657
▁چاودێر	-7658
RE	-7659
hou	-7660
سیه	-7661
▁qur	-7662
▁fabr	-7663
▁پێست	-7664
change	-7665
▁cilên	-7666
▁توانا	-7667
▁زنجیر	-7668
▁dengên	-7669
▁encamê	-7670
▁kartên	-7671
▁نموونە	-7672
▁mijarên	-7673
▁پیاوانی	-7674
▁چارەسەری	-7675
▁operasyona	-7676
▁dermankirina	-7677
▁4,	-7678
▁Bed	-7679
▁Cal	-7680
▁Val	-7681
▁tak	-7682
ediya	-7683
▁Next	-7684
▁نیزه	-7685
▁bêkêm	-7686
▁نابین	-7687
▁civaka	-7688
▁زۆرمان	-7689
▁پێشبینی	-7690
Parastina	-7691
''	-7692
▁٦	-7693
lor	-7694
lên	-7695
خێر	-7696
ینەی	-7697
▁Rap	-7698
▁haw	-7699
▁tez	-7700
▁(1),	-7701
▁Zêde	-7702
▁derî	-7703
▁zinc	-7704
▁دینه	-7705
▁Hinek	-7706
▁Meriv	-7707
▁derhe	-7708
▁price	-7709
▁ئاماژ	-7710
▁پیاوه	-7711
▁Komara	-7712
▁گونجاو	-7713
▁Pîşesaz	-7714
▁pêşerojê	-7715
▁Dibistana	-7716
▁berxwedana	-7717
.)	-7718
mo	-7719
ڕە	-7720
ڕێت	-7721
کەم	-7722
▁II	-7723
idge	-7724
ones	-7725
yoya	-7726
▁USD	-7727
▁وتو	-7728
▁پڕۆ	-7729
امبەر	-7730
▁hêja	-7731
▁kirê	-7732
▁ڕێکی	-7733
▁کەسی	-7734
▁نهێنیه	-7735
▁TimeTec	-7736
▁bistîne	-7737
me	-7738
يە	-7739
iel	-7740
ۆجی	-7741
îran	-7742
▁فوو	-7743
▁مۆر	-7744
▁Blue	-7745
▁nîvê	-7746
▁unit	-7747
▁رستم	-7748
▁bedew	-7749
▁dikir	-7750
▁çavên	-7751
▁هەزار	-7752
▁muzîkê	-7753
▁Austral	-7754
▁nehatiye	-7755
44	-7756
xe	-7757
▁Da	-7758
▁تت	-7759
acet	-7760
evan	-7761
▁400	-7762
oison	-7763
▁Bide	-7764
▁Pack	-7765
▁href	-7766
▁çiya	-7767
▁بەخش	-7768
ebijar	-7769
▁dipey	-7770
▁زۆرێک	-7771
kirinên	-7772
▁Rêjeya	-7773
▁pêkhat	-7774
▁xweser	-7775
▁Dewletê	-7776
▁dermanê	-7777
▁دروستمان	-7778
▁materyalê	-7779
rûp	-7780
یته	-7781
▁aş	-7782
بیست	-7783
▁FSX	-7784
▁Got	-7785
▁West	-7786
▁nabe	-7787
▁pirr	-7788
▁ناخه	-7789
▁نرێت	-7790
andiye	-7791
▁Group	-7792
▁jixwe	-7793
▁ئاماد	-7794
▁باوکم	-7795
kurdish	-7796
ەکانەوە	-7797
▁karker	-7798
▁vegera	-7799
▁دەرمان	-7800
▁account	-7801
▁mezintirîn	-7802
RO	-7803
”.	-7804
ley	-7805
ric	-7806
خۆی	-7807
چڵه	-7808
ێكه	-7809
▁La	-7810
▁MB	-7811
ekêş	-7812
tain	-7813
داون	-7814
▁şûş	-7815
ading	-7816
ision	-7817
▁....	-7818
▁SPAM	-7819
▁holê	-7820
▁غافڵ	-7821
▁وێنە	-7822
▁nakin	-7823
▁radyo	-7824
▁xNUMX	-7825
▁بەناو	-7826
▁زۆریش	-7827
▁کراوە	-7828
▁Demjimêr	-7829
▁Navnîşana	-7830
▁paqijkirina	-7831
aja	-7832
lar	-7833
mal	-7834
roj	-7835
▁ap	-7836
▁نۆ	-7837
▁Sup	-7838
▁ناخ	-7839
▁ڵوێ	-7840
اکرێت	-7841
▁Code	-7842
▁Kürt	-7843
▁ئاست	-7844
▁تاکو	-7845
▁وازه	-7846
▁model	-7847
▁کڕنوو	-7848
▁Akadem	-7849
▁ئیمانی	-7850
▁نجامیش	-7851
▁ژیانیان	-7852
▁spartinê	-7853
▁نادروستی	-7854
▁Bitikînin	-7855
▁Hevbendiya	-7856
▁zêdekirina	-7857
lî	-7858
ۆگه	-7859
▁6.	-7860
▁ag	-7861
▁kî	-7862
ekar	-7863
ماعی	-7864
▁110	-7865
▁laş	-7866
▁ترو	-7867
▁عنه	-7868
دەکات	-7869
▁Bang	-7870
▁Mosk	-7871
▁Peya	-7872
▁تایی	-7873
▁ڵکرد	-7874
▁Mater	-7875
▁یادخه	-7876
▁Koreya	-7877
▁Pirtûk	-7878
▁mirinê	-7879
▁karsaziya	-7880
jd	-7881
uv	-7882
قر	-7883
ۆك	-7884
▁!&	-7885
▁".	-7886
▁06	-7887
▁75	-7888
▁شن	-7889
girş	-7890
lege	-7891
ogan	-7892
سانه	-7893
▁PDF	-7894
▁تۆو	-7895
▁ناگ	-7896
spamp	-7897
▁saet	-7898
▁متان	-7899
▁هۆزو	-7900
▁چێنن	-7901
▁جارێک	-7902
▁دەگۆڕ	-7903
▁پێشنی	-7904
▁خۆتانه	-7905
▁minutes	-7906
▁ردگاریه	-7907
▁خوێندکار	-7908
spampoison	-7909
نێت	-7910
▁BI	-7911
ەوتن	-7912
▁All	-7913
▁بێز	-7914
▁قای	-7915
▁های	-7916
▁واب	-7917
▁Tîpa	-7918
alafir	-7919
eneral	-7920
▁Derve	-7921
▁Bersîv	-7922
▁خۆیانه	-7923
▁ناویان	-7924
2)	-7925
aut	-7926
▁KO	-7927
ooth	-7928
▁Sub	-7929
▁did	-7930
▁پەن	-7931
erênî	-7932
▁سیفه	-7933
▁پێکی	-7934
▁ژێره	-7935
▁Dîrok	-7936
▁Metro	-7937
▁zûtir	-7938
▁تێگەی	-7939
▁خێزانه	-7940
▁ڕاستەق	-7941
▁فراوانی	-7942
▁balafirê	-7943
▁Hilbijêre	-7944
Qu	-7945
aye	-7946
▁04	-7947
▁2:	-7948
▁IC	-7949
▁NE	-7950
çeyê	-7951
çûna	-7952
▁Get	-7953
▁zer	-7954
▁Star	-7955
▁dane	-7956
▁news	-7957
▁Bikin	-7958
▁welêt	-7959
▁wextê	-7960
▁جاران	-7961
▁مێنێت	-7962
▁Qanûna	-7963
▁بەکارد	-7964
▁لەبارەی	-7965
▁نازانێت	-7966
▁لەبەرئەوەی	-7967
yc	-7968
▁Ko	-7969
ahid	-7970
face	-7971
ides	-7972
اکێش	-7973
وخته	-7974
ینەو	-7975
▁Mak	-7976
▁mov	-7977
▁شوم	-7978
▁کەن	-7979
5-201	-7980
▁نادی	-7981
▁نهان	-7982
▁هانی	-7983
▁cable	-7984
▁hêzên	-7985
▁موساو	-7986
▁وتمان	-7987
▁ئەوکات	-7988
▁خۆراکی	-7989
▁bifikirin	-7990
▁bisekinin	-7991
▁zanîngehên	-7992
Ex	-7993
IF	-7994
NT	-7995
evê	-7996
ush	-7997
çûn	-7998
▁Ah	-7999
ajên	-8000
▁Bib	-8001
▁bes	-8002
▁kam	-8003
▁هەس	-8004
▁وشك	-8005
▁پێك	-8006
▁ڕوه	-8007
ûşper	-8008
▁Kart	-8009
▁agir	-8010
▁ببیت	-8011
▁lingê	-8012
▁panel	-8013
▁ئاڵۆز	-8014
▁نجامه	-8015
▁bişkoj	-8016
▁سانێکن	-8017
▁Şiirler	-8018
▁hevdîtin	-8019
,"	-8020
900	-8021
▁CP	-8022
IGMA	-8023
ansî	-8024
ites	-8025
oyên	-8026
درێت	-8027
▁sim	-8028
▁هێل	-8029
▁وار	-8030
ereyê	-8031
iring	-8032
یاخود	-8033
▁City	-8034
▁hiqû	-8035
▁mehê	-8036
▁sekt	-8037
▁ئەوا	-8038
▁میسر	-8039
▁نیشت	-8040
▁Amedê	-8041
▁bajar	-8042
▁çermê	-8043
▁بدەین	-8044
▁نەبێت	-8045
▁وێران	-8046
▁French	-8047
▁Tebaxê	-8048
▁nehate	-8049
▁بینینی	-8050
uhestina	-8051
▁dibêjim	-8052
▁navçeya	-8053
▁دوژمنانی	-8054
▁dibistana	-8055
▁باپیرانمان	-8056
▁veberhênanê	-8057
36	-8058
85	-8059
ude	-8060
miss	-8061
▁kîl	-8062
▁qew	-8063
▁فەر	-8064
▁ڵای	-8065
▁لانی	-8066
▁وردی	-8067
▁وگار	-8068
▁Media	-8069
▁Pêvaj	-8070
▁sedem	-8071
▁تەمەن	-8072
▁ھەموو	-8073
▁format	-8074
▁status	-8075
▁tecrub	-8076
.07.2016	-8077
▁ڕابوارد	-8078
▁رپابوونی	-8079
imê	-8080
ror	-8081
هاو	-8082
▁Gl	-8083
istr	-8084
چەپڵ	-8085
estîv	-8086
كردنه	-8087
▁Fast	-8088
▁wêne	-8089
▁كانه	-8090
▁Hingê	-8091
▁chart	-8092
▁پێشبڕ	-8093
▁milyar	-8094
▁ئینگلی	-8095
▁girtina	-8096
▁xwarina	-8097
▁comments	-8098
▁جیهانیان	-8099
▁berjewend	-8100
▁çareserkirina	-8101
;&	-8102
ils	-8103
▁UR	-8104
▁تە	-8105
-200	-8106
alit	-8107
aper	-8108
dema	-8109
▁ڤای	-8110
nivîs	-8111
▁Lebê	-8112
▁Sing	-8113
▁bilê	-8114
▁serl	-8115
▁Rengê	-8116
▁چیتان	-8117
uheztina	-8118
▁نامێنێت	-8119
▁Internet	-8120
▁Almanyayê	-8121
▁lêkolînên	-8122
GenericName	-8123
-7	-8124
3]	-8125
ran	-8126
uha	-8127
ریك	-8128
▁AM	-8129
▁پش	-8130
\\\\	-8131
بازی	-8132
كردن	-8133
▁Çap	-8134
▁رموو	-8135
▁نزای	-8136
▁ڵتان	-8137
▁birin	-8138
▁erênî	-8139
▁ئومێد	-8140
▁كراوه	-8141
▁potans	-8142
▁دڵیاندا	-8143
▁yekîneyên	-8144
95	-8145
ua	-8146
ece	-8147
ira	-8148
▁GN	-8149
tiyê	-8150
وێنن	-8151
▁Ast	-8152
▁Dab	-8153
▁Gre	-8154
▁non	-8155
▁zêr	-8156
▁ئۆت	-8157
▁شەش	-8158
▁كێش	-8159
▁(201	-8160
▁بەبێ	-8161
▁زۆرد	-8162
enivîs	-8163
▁ئاشتی	-8164
▁ئافرەت	-8165
▁کۆمەڵگ	-8166
▁Kontrola	-8167
▁Bazirganî	-8168
▁Bernameya	-8169
-#	-8170
Ch	-8171
اڕ	-8172
amî	-8173
eyd	-8174
خور	-8175
engî	-8176
îtiyê	-8177
▁antî	-8178
▁hand	-8179
▁slot	-8180
▁برده	-8181
▁ترسه	-8182
▁توێی	-8183
▁تۆدا	-8184
▁رۆژی	-8185
▁کێکه	-8186
ulator	-8187
▁check	-8188
▁herin	-8189
▁paşîn	-8190
▁ریادا	-8191
▁نێرێت	-8192
▁وێنەی	-8193
▁ژووره	-8194
▁یاخیه	-8195
feransa	-8196
▁qanûnî	-8197
▁sîgort	-8198
▁کۆچیان	-8199
▁گوناهی	-8200
▁hefteyê	-8201
▁leşkerî	-8202
▁modelên	-8203
▁sedemên	-8204
▁Business	-8205
▁قوتابخانە	-8206
فو	-8207
asa	-8208
ێرو	-8209
ێکن	-8210
▁Up	-8211
ایەت	-8212
▁250	-8213
▁Dig	-8214
▁Hal	-8215
▁Tem	-8216
▁geş	-8217
▁rêj	-8218
▁سکه	-8219
▁وهه	-8220
mware	-8221
▁Band	-8222
▁Kons	-8223
▁back	-8224
▁list	-8225
▁تۆیش	-8226
▁خەری	-8227
▁سوور	-8228
▁سوێن	-8229
tember	-8230
▁erzan	-8231
▁بڕوان	-8232
▁سەرەکی	-8233
▁نزیکدا	-8234
▁Dewleta	-8235
▁Teknîkî	-8236
▁bazarên	-8237
▁زانیووه	-8238
▁گەردوون	-8239
▁têkiliya	-8240
▁بکەینەوە	-8241
ڤی	-8242
als	-8243
hes	-8244
lîm	-8245
الح	-8246
▁32	-8247
▁DC	-8248
ketî	-8249
şemê	-8250
حرام	-8251
ەکەش	-8252
▁Cap	-8253
▁anî	-8254
▁soz	-8255
▁چێژ	-8256
itter	-8257
jimar	-8258
بارەت	-8259
ماعیل	-8260
▁dost	-8261
▁kirî	-8262
▁çêbû	-8263
▁تتان	-8264
▁داود	-8265
▁First	-8266
▁dawîn	-8267
▁شتانە	-8268
▁ویداو	-8269
▁Destpê	-8270
▁tevger	-8271
▁فامانه	-8272
▁هاوارو	-8273
▁ڕوناکی	-8274
▁ڕۆژئاو	-8275
▁nîşanên	-8276
▁avahiyên	-8277
▁داخوازیه	-8278
▁hevalbend	-8279
▁televizyonê	-8280
2"	-8281
▁37	-8282
▁Sn	-8283
▁se	-8284
êjin	-8285
▁Mis	-8286
▁Rep	-8287
▁mek	-8288
▁بەڕ	-8289
▁رکی	-8290
▁هەرچ	-8291
▁nekin	-8292
▁بگرنه	-8293
▁میلله	-8294
▁ڕوبار	-8295
▁beriya	-8296
▁dîrokî	-8297
▁options	-8298
▁saziyên	-8299
▁بوونیان	-8300
▁دلۆڤانه	-8301
▁نجامتان	-8302
▁pîşesazî	-8303
▁Girtîgeha	-8304
▁tenduristiyê	-8305
fê	-8306
ینگ	-8307
▁(0	-8308
▁Se	-8309
ited	-8310
▁dep	-8311
▁fun	-8312
▁کچی	-8313
شترین	-8314
کاتێك	-8315
▁Pelê	-8316
▁TVyê	-8317
▁kinc	-8318
▁پاڵپ	-8319
astinê	-8320
▁لێبوو	-8321
▁ئایینی	-8322
▁دارخور	-8323
▁پێناکه	-8324
▁avahiyê	-8325
▁دەتوانی	-8326
▁xwendinê	-8327
▁ڕێبازێکی	-8328
▁destpêkirina	-8329
TO	-8330
elî	-8331
erd	-8332
ترە	-8333
رای	-8334
ێزی	-8335
▁34	-8336
▁go	-8337
▁sw	-8338
hats	-8339
kanî	-8340
گرین	-8341
▁sub	-8342
▁zay	-8343
▁تاك	-8344
▁فسی	-8345
▁فیز	-8346
▁Siya	-8347
▁cont	-8348
▁derk	-8349
▁wusa	-8350
▁ئاسه	-8351
▁ناچێت	-8352
▁cûrbec	-8353
▁dihêle	-8354
▁dîrokê	-8355
▁پاکانه	-8356
▁belgeya	-8357
▁nivîsîn	-8358
▁بیرۆکەی	-8359
▁ڕۆژێکدا	-8360
▁nîşandan	-8361
▁دروستکردووه	-8362
IV	-8363
nek	-8364
ریس	-8365
پێچ	-8366
icip	-8367
▁Lab	-8368
▁mag	-8369
▁Şîf	-8370
ercîh	-8371
▁Ders	-8372
▁Tevî	-8373
▁tund	-8374
▁دیمه	-8375
▁herdem	-8376
▁ئاواتی	-8377
▁تەمەنی	-8378
▁ناپوخت	-8379
▁projeyê	-8380
▁Çiyayên	-8381
▁بتوانین	-8382
▁جادوویه	-8383
▁گوفتاره	-8384
formation	-8385
▁زانیاریه	-8386
erj	-8387
ese	-8388
ترن	-8389
تون	-8390
cast	-8391
vanê	-8392
▁DVD	-8393
▁Tay	-8394
▁zev	-8395
▁سەد	-8396
▁هین	-8397
▁Term	-8398
▁nêzî	-8399
▁ژارو	-8400
▁berev	-8401
▁duyem	-8402
▁veava	-8403
▁بزانم	-8404
▁بواری	-8405
▁نەکرد	-8406
▁پەروە	-8407
▁carekê	-8408
▁kesekî	-8409
▁radest	-8410
▁بەڕێوە	-8411
▁رفرازو	-8412
▁rakirin	-8413
▁بانگیان	-8414
▁pêdiviyên	-8415
▁xebitandin	-8416
ça	-8417
OME	-8418
joy	-8419
key	-8420
▁By	-8421
ader	-8422
urop	-8423
اکرد	-8424
ییەک	-8425
▁2/3	-8426
▁Lar	-8427
▁bas	-8428
▁bav	-8429
▁ئیل	-8430
▁لەش	-8431
▁مرن	-8432
yonên	-8433
ییەکە	-8434
▁ثمود	-8435
▁کەسە	-8436
▁Zêrîn	-8437
▁şared	-8438
▁حسابی	-8439
▁زانینی	-8440
▁sedsala	-8441
▁xwestin	-8442
▁سەبارەت	-8443
▁کاروباری	-8444
▁veguherîne	-8445
▁Pirsgirêkên	-8446
▁bidestxistina	-8447
▁AD	-8448
▁ol	-8449
▁Muz	-8450
▁fîn	-8451
▁sif	-8452
▁منی	-8453
▁گور	-8454
ience	-8455
▁2006	-8456
▁feat	-8457
▁سوره	-8458
اکاندا	-8459
▁Machine	-8460
▁pêwîstî	-8461
▁Komeleya	-8462
▁Rêveberê	-8463
▁agahdarî	-8464
▁parastinê	-8465
89	-8466
bl	-8467
hel	-8468
▁8:	-8469
ents	-8470
سەری	-8471
▁DIK	-8472
▁Mil	-8473
▁بێن	-8474
▁فره	-8475
▁خۆره	-8476
▁دووچ	-8477
▁هاند	-8478
▁Block	-8479
▁Metal	-8480
nameyên	-8481
▁Netewî	-8482
▁Rêbend	-8483
▁analîz	-8484
▁bedenê	-8485
▁hebûna	-8486
▁کوشتنی	-8487
▁Daxistina	-8488
▁bazirganiya	-8489
▁binçavkirin	-8490
ng	-8491
ھا	-8492
bed	-8493
pek	-8494
دنی	-8495
aint	-8496
▁Est	-8497
▁çêd	-8498
▁êdî	-8499
.2018	-8500
رێنێت	-8501
چەپڵە	-8502
▁kesk	-8503
▁Îlon	-8504
▁Dubai	-8505
▁Steel	-8506
▁rêyên	-8507
▁دۆسیه	-8508
▁دەمان	-8509
▁پیرۆزی	-8510
▁Express	-8511
▁navnîşa	-8512
▁zimanên	-8513
▁داخوازی	-8514
▁bernameyê	-8515
▁پێویستمان	-8516
AI	-8517
ۆشن	-8518
karî	-8519
tine	-8520
ەنێت	-8521
▁Bur	-8522
▁Dep	-8523
▁Lat	-8524
▁Mid	-8525
▁OEM	-8526
▁pre	-8527
▁tûş	-8528
▁قوو	-8529
▁کلت	-8530
▁یره	-8531
ility	-8532
پاشان	-8533
▁klas	-8534
▁koma	-8535
▁ئاهو	-8536
▁حاڵی	-8537
▁کتری	-8538
▁ڵکیش	-8539
▁ڕەنگە	-8540
▁کاربه	-8541
▁Demokr	-8542
▁dimîne	-8543
▁temenê	-8544
▁بتوانن	-8545
enerator	-8546
ineering	-8547
▁sepanên	-8548
▁şirketa	-8549
▁daxistin	-8550
▁qutkirina	-8551
="2	-8552
Têk	-8553
ism	-8554
يان	-8555
▁Od	-8556
onya	-8557
▁Jet	-8558
anînê	-8559
▁Bank	-8560
▁Bird	-8561
▁Wîkî	-8562
▁sing	-8563
▁that	-8564
▁لامه	-8565
▁نگین	-8566
▁دواوه	-8567
▁ساڵێک	-8568
▁Pargîd	-8569
▁دەکەوێت	-8570
▁شتێکیان	-8571
▁favorite	-8572
▁neteweyî	-8573
▁بەیەکەوە	-8574
87	-8575
Em	-8576
QL	-8577
bên	-8578
وەک	-8579
ەرج	-8580
▁55	-8581
▁دز	-8582
▁پە	-8583
▁Ban	-8584
▁Sun	-8585
▁buy	-8586
▁رسه	-8587
▁وکه	-8588
▁گوڵ	-8589
▁merc	-8590
▁payt	-8591
▁pict	-8592
▁نرخه	-8593
▁نیگا	-8594
▁پارە	-8595
▁Ewrûp	-8596
▁paris	-8597
▁ئۆتۆم	-8598
▁رگرتن	-8599
▁زانای	-8600
▁نووری	-8601
▁توانیت	-8602
▁Municip	-8603
▁پرسیاری	-8604
▁hûrgelan	-8605
▁televîzyonê	-8606
HP	-8607
KK	-8608
ili	-8609
lîn	-8610
pis	-8611
qew	-8612
▁(5	-8613
▁كا	-8614
بێته	-8615
▁Gun	-8616
▁Pên	-8617
▁Wil	-8618
▁pîr	-8619
▁zil	-8620
▁بخۆ	-8621
▁ڕیز	-8622
▁word	-8623
▁دڵته	-8624
▁مەزن	-8625
▁ندیی	-8626
etooth	-8627
oronav	-8628
▁Rêber	-8629
▁stand	-8630
▁تێکەڵ	-8631
▁دانان	-8632
▁پۆشاک	-8633
▁dibist	-8634
▁دڵسۆزی	-8635
▁مێکیان	-8636
▁گۆڕانی	-8637
▁Weşanên	-8638
▁hevpeyv	-8639
▁Navnîşan	-8640
▁navnîşana	-8641
▁کۆمەڵایەتی	-8642
▁transponder	-8643
BS	-8644
lim	-8645
oma	-8646
زیک	-8647
▁ڵب	-8648
استن	-8649
▁Sil	-8650
▁راب	-8651
ivery	-8652
olume	-8653
▁çepê	-8654
▁بیرن	-8655
▁خۆرو	-8656
خستووه	-8657
▁نجینه	-8658
▁ڕاستگ	-8659
▁Hevpey	-8660
▁ewlehî	-8661
▁ئێستاش	-8662
▁تانکرد	-8663
▁دادگای	-8664
▁پێشووه	-8665
▁dadgehê	-8666
▁garantî	-8667
▁jîngehê	-8668
▁دەتوانم	-8669
▁نابیستن	-8670
▁دەبێتەوە	-8671
▁guhertoya	-8672
3)	-8673
="0	-8674
amb	-8675
ney	-8676
pit	-8677
sîn	-8678
tim	-8679
urî	-8680
حفو	-8681
وده	-8682
ۆکه	-8683
▁şa	-8684
ayan	-8685
بایی	-8686
تانی	-8687
▁dîn	-8688
▁qad	-8689
ative	-8690
▁Adar	-8691
▁mift	-8692
▁باخی	-8693
▁بیخه	-8694
▁نافه	-8695
▁کارم	-8696
▁گیرا	-8697
iginal	-8698
▁têkoş	-8699
▁ئاژەڵ	-8700
▁دۆلار	-8701
▁ستتان	-8702
▁فتاری	-8703
▁فرینی	-8704
▁پووچه	-8705
▁کۆتای	-8706
▁Ajansa	-8707
▁Derman	-8708
▁المحفو	-8709
▁کرابوو	-8710
▁Zêdetir	-8711
▁located	-8712
▁باسکران	-8713
▁ڵاتداری	-8714
▁heywanên	-8715
▁Bazirganiya	-8716
6)	-8717
ior	-8718
uch	-8719
okan	-8720
ûber	-8721
خانه	-8722
واری	-8723
ێڵێت	-8724
▁How	-8725
▁Kol	-8726
▁cnc	-8727
▁ton	-8728
iriya	-8729
tober	-8730
▁York	-8731
▁rizg	-8732
▁ئابو	-8733
▁شادی	-8734
▁لەسە	-8735
تەرنێت	-8736
▁Lêger	-8737
▁cihekî	-8738
▁kiribû	-8739
▁رمووده	-8740
▁شتەکان	-8741
▁berdest	-8742
▁رمانیدا	-8743
▁کشتوکاڵ	-8744
▁lêgerînê	-8745
▁رلێشێواو	-8746
▁September	-8747
AK	-8748
.01	-8749
سوڕ	-8750
▁Ag	-8751
▁Ba	-8752
▁îk	-8753
▁وپ	-8754
kera	-8755
îdar	-8756
▁11,	-8757
▁zor	-8758
▁لەن	-8759
▁نار	-8760
agram	-8761
▁Germ	-8762
▁Kodi	-8763
▁kirr	-8764
▁kons	-8765
▁kurê	-8766
▁درۆی	-8767
yariya	-8768
▁Dabeş	-8769
▁Plana	-8770
▁nenas	-8771
▁sekin	-8772
▁نمونه	-8773
▁کورسی	-8774
▁siyasî	-8775
▁بەشێکی	-8776
▁ردگارمه	-8777
▁باپیرانی	-8778
▁خوێنرێته	-8779
-20	-8780
ajî	-8781
ماو	-8782
گیرو	-8783
▁Not	-8784
▁لاس	-8785
▁پیت	-8786
▁کێك	-8787
ەسەند	-8788
▁gavê	-8789
▁ئاژه	-8790
▁باڵا	-8791
▁بروس	-8792
▁Parêz	-8793
▁Super	-8794
▁دەنگی	-8795
▁دەهێن	-8796
▁ناوچه	-8797
▁پێشکە	-8798
▁hewayê	-8799
▁ئەتوان	-8800
▁خۆتانی	-8801
▁دڵخۆشی	-8802
▁نیشاند	-8803
▁ڕاستیی	-8804
▁Armanca	-8805
▁deryayê	-8806
▁hefteya	-8807
▁rastiya	-8808
▁کارکردن	-8809
▁bixwînin	-8810
▁ڕوودەدات	-8811
sc	-8812
ÎN	-8813
ibr	-8814
mos	-8815
orr	-8816
rik	-8817
فرو	-8818
وژن	-8819
▁39	-8820
▁Mo	-8821
▁يه	-8822
abin	-8823
îyar	-8824
خوان	-8825
▁Gen	-8826
▁Rêw	-8827
▁hal	-8828
▁pak	-8829
▁بای	-8830
▁شەو	-8831
▁Aborî	-8832
▁bixeb	-8833
▁دەستم	-8834
alityar	-8835
▁cezayê	-8836
▁qedexe	-8837
▁ئابوری	-8838
▁بەرنام	-8839
▁ناشرین	-8840
▁گەورەی	-8841
▁nûçeyên	-8842
▁hefteyên	-8843
▁standardên	-8844
▁lidarxistin	-8845
1.	-8846
ury	-8847
اهی	-8848
▁ST	-8849
neya	-8850
▁Tim	-8851
▁میو	-8852
▁ڵكه	-8853
▁volt	-8854
▁şîro	-8855
kariya	-8856
raulîk	-8857
▁Nikar	-8858
▁heyec	-8859
▁plana	-8860
▁ومێکی	-8861
ییەکانی	-8862
▁lezgîn	-8863
▁بارانه	-8864
▁Helbest	-8865
▁hezaran	-8866
▁lîsteyê	-8867
▁process	-8868
▁کەسانەی	-8869
100	-8870
ezê	-8871
mak	-8872
ئەو	-8873
oooo	-8874
▁cid	-8875
▁niv	-8876
▁xet	-8877
▁کون	-8878
▁گژو	-8879
eless	-8880
انەدا	-8881
ەکەیە	-8882
▁Koma	-8883
▁cook	-8884
▁خواک	-8885
▁گێڕا	-8886
▁ڵامی	-8887
▁ڵستی	-8888
▁Herêm	-8889
▁komên	-8890
▁neçar	-8891
▁odeya	-8892
▁چیمان	-8893
▁ڤایرۆ	-8894
▁یەکتر	-8895
▁iPhone	-8896
▁plugin	-8897
▁بهێنیت	-8898
▁کارانه	-8899
▁کاریان	-8900
▁توانایی	-8901
▁رستراوه	-8902
▁مکارانه	-8903
▁biparêze	-8904
▁cûrbecûr	-8905
▁Municipalityar	-8906
let	-8907
ula	-8908
▁OS	-8909
yayî	-8910
پرسی	-8911
▁Hiş	-8912
▁USA	-8913
▁ڕەش	-8914
girên	-8915
▁Rail	-8916
▁curr	-8917
▁رابه	-8918
▁هاتو	-8919
▁وشتر	-8920
▁گینا	-8921
▁Bawer	-8922
▁Pelên	-8923
▁Serîl	-8924
▁peyva	-8925
▁pirsî	-8926
▁سواری	-8927
▁Bihayê	-8928
▁درۆیان	-8929
▁لێکراو	-8930
▁تیادایه	-8931
▁رگرتووه	-8932
▁xwarinên	-8933
▁ئینگلیزی	-8934
▁şêwirmend	-8935
)؟!	-8936
.10	-8937
alt	-8938
hai	-8939
ووس	-8940
axên	-8941
loud	-8942
▁tûr	-8943
▁تێر	-8944
▁گرم	-8945
خستنه	-8946
▁Cihê	-8947
▁nîne	-8948
▁rola	-8949
▁برین	-8950
▁یاڵی	-8951
aniyek	-8952
▁navên	-8953
▁nekir	-8954
▁Şoreş	-8955
▁ژنانی	-8956
▁کۆمپی	-8957
▁27500,	-8958
▁Xizmet	-8959
▁لەدەست	-8960
▁standin	-8961
HE	-8962
acy	-8963
واز	-8964
▁مس	-8965
Play	-8966
code	-8967
▁Bîr	-8968
▁بەل	-8969
=\\\\	-8970
etina	-8971
▁serm	-8972
▁Şert	-8973
Têkilî	-8974
اکردنی	-8975
▁hyper	-8976
▁دەژین	-8977
▁kursên	-8978
▁rêberê	-8979
▁saxlem	-8980
▁tedawî	-8981
▁ئومێدی	-8982
▁College	-8983
▁دەردەکەوێت	-8984
ept	-8985
que	-8986
umê	-8987
▁Sm	-8988
▁کم	-8989
▁tew	-8990
▁پشک	-8991
attoş	-8992
▁bavê	-8993
▁klîn	-8994
▁تێرو	-8995
▁تێهه	-8996
▁داره	-8997
▁لارو	-8998
▁Apple	-8999
▁mêran	-9000
▁شارەز	-9001
▁Mizgîn	-9002
▁Moskow	-9003
▁bipirs	-9004
▁سەرنجڕ	-9005
▁kategor	-9006
▁sektora	-9007
▁دەزانین	-9008
▁ناچاریی	-9009
▁ڕووداوه	-9010
▁Barkirina	-9011
▁Bluetooth	-9012
,.	-9013
▁Of	-9014
وەست	-9015
▁pes	-9016
▁داڕ	-9017
▁كتر	-9018
êreng	-9019
▁بێئا	-9020
▁گرفت	-9021
▁Encam	-9022
▁ziman	-9023
▁پێوان	-9024
بوونەوە	-9025
▁Module	-9026
▁destên	-9027
▁pîşeyî	-9028
▁خۆشبوو	-9029
▁بۆچوونی	-9030
▁سیستەمی	-9031
▁Exchange	-9032
▁qeydkirî	-9033
▁çalakiyê	-9034
▁tikandinê	-9035
▁hilberîner	-9036
YE	-9037
amê	-9038
ban	-9039
zem	-9040
دەم	-9041
دەن	-9042
▁Os	-9043
▁Ul	-9044
rown	-9045
كاری	-9046
▁bîh	-9047
▁nem	-9048
▁ببم	-9049
▁کوو	-9050
ckpit	-9051
ەوەری	-9052
▁Mift	-9053
▁xerc	-9054
▁ئیلی	-9055
▁بدەم	-9056
▁خوات	-9057
▁ومان	-9058
▁ڕەنگ	-9059
▁Tomar	-9060
▁dagir	-9061
▁راندا	-9062
▁Elektr	-9063
▁Pûşper	-9064
▁bûyerê	-9065
▁Berpirs	-9066
▁قازانجی	-9067
▁لێناکرێت	-9068
▁seranserî	-9069
▁operatorên	-9070
79	-9071
XL	-9072
غی	-9073
bon	-9074
gêr	-9075
ibî	-9076
الب	-9077
ونج	-9078
▁38	-9079
▁Jî	-9080
▁فش	-9081
ives	-9082
تەوە	-9083
▁Out	-9084
▁şeh	-9085
▁دۆع	-9086
▁سەل	-9087
▁Comm	-9088
▁خشیت	-9089
▁خوشک	-9090
▁مكار	-9091
▁ناته	-9092
▁bijîş	-9093
▁دووبه	-9094
▁لاتان	-9095
▁Mobile	-9096
▁Sermas	-9097
▁destan	-9098
▁Çiyayî	-9099
▁گۆڕینی	-9100
▁حاڵێکدا	-9101
▁روونیان	-9102
▁وراتمان	-9103
▁ژیانێکی	-9104
▁تەکنەلۆجی	-9105
▁دۆزینەوەی	-9106
cs	-9107
ڕن	-9108
ipe	-9109
ئاس	-9110
ێڕه	-9111
▁5,	-9112
▁‘’	-9113
heel	-9114
▁zex	-9115
▁بچو	-9116
▁رچن	-9117
▁شاخ	-9118
▁قاچ	-9119
înend	-9120
▁qenc	-9121
▁هۆزه	-9122
▁ژیرو	-9123
▁Îranê	-9124
▁بڕوات	-9125
▁خۆگری	-9126
▁رستین	-9127
▁Pêveka	-9128
▁hiştin	-9129
▁klasîk	-9130
▁rengek	-9131
▁texmîn	-9132
▁bihayên	-9133
▁hatibûn	-9134
▁version	-9135
▁براکانی	-9136
▁kampanya	-9137
▁ئاسمانیه	-9138
▁دووڕووانه	-9139
▁Manufactur	-9140
▁پارێزکاربن	-9141
▁piştevanîya	-9142
yt	-9143
.08	-9144
anb	-9145
کان	-9146
▁حک	-9147
▁ڵس	-9148
amîk	-9149
reyê	-9150
▁Dev	-9151
▁نەر	-9152
iyeta	-9153
olone	-9154
▁biax	-9155
▁xala	-9156
▁رامی	-9157
▁وردو	-9158
▁یڵێن	-9159
▁gavên	-9160
▁xetên	-9161
▁هێشته	-9162
unction	-9163
▁civîna	-9164
▁fikrên	-9165
▁screen	-9166
▁سەرسوڕه	-9167
▁navnîşan	-9168
▁کانتاندا	-9169
▁biafirîne	-9170
▁rawestandin	-9171
▁dermankirinê	-9172
43	-9173
:,	-9174
bî	-9175
ins	-9176
ûmê	-9177
ڵێم	-9178
▁7.	-9179
▁رک	-9180
IRIN	-9181
otal	-9182
yeke	-9183
؟!).	-9184
ئێوه	-9185
▁Dîs	-9186
▁لار	-9187
astin	-9188
oriya	-9189
▁Auto	-9190
▁amaz	-9191
▁leza	-9192
▁nişt	-9193
گیریان	-9194
▁Dirêj	-9195
▁داناو	-9196
▁شتیان	-9197
▁ندایه	-9198
▁هیوای	-9199
▁پارچە	-9200
▁Amazon	-9201
▁سامناک	-9202
▁هاوڕێک	-9203
▁وانمان	-9204
▁پزیشکی	-9205
بوونەوەی	-9206
▁derdora	-9207
▁nizanin	-9208
▁زێنراوه	-9209
▁نیگامان	-9210
▁Enqereyê	-9211
▁رناگیرێت	-9212
▁QShortcut	-9213
▁alîkariyê	-9214
▁tecrubeya	-9215
DA	-9216
nd	-9217
="5	-9218
▁qa	-9219
date	-9220
▁SER	-9221
▁Ter	-9222
▁şîn	-9223
▁كێك	-9224
▁کچه	-9225
https	-9226
خوانه	-9227
ینیان	-9228
▁hind	-9229
▁تکاک	-9230
▁وەست	-9231
▁پیاده	-9232
▁ڕژاند	-9233
▁ڵکیان	-9234
▁Berfan	-9235
▁mijara	-9236
▁muwekî	-9237
▁ئاواته	-9238
▁ماڵاته	-9239
plication	-9240
▁lêgerîna	-9241
▁sererast	-9242
▁temaşevanan	-9243
cm	-9244
▁Im	-9245
▁خا	-9246
▁دن	-9247
▁كۆ	-9248
çûnê	-9249
▁Jim	-9250
▁axa	-9251
▁qat	-9252
▁Şîr	-9253
▁وڵی	-9254
▁کاب	-9255
ution	-9256
▁Swêd	-9257
▁حوکم	-9258
▁لێکی	-9259
▁کانز	-9260
▁کورت	-9261
▁babet	-9262
▁medya	-9263
▁بەتەو	-9264
▁دایکم	-9265
▁دەبوو	-9266
▁pêşiya	-9267
▁بۆشایی	-9268
▁خواتان	-9269
▁ڕووداو	-9270
▁Rêbendan	-9271
▁دڵنیاییه	-9272
▁پارێزکاری	-9273
▁Piştgiriya	-9274
gl	-9275
وب	-9276
Pro	-9277
cop	-9278
ols	-9279
uhê	-9280
▁Kn	-9281
▁gen	-9282
▁ئەل	-9283
▁دکت	-9284
▁نەت	-9285
▁پەڕ	-9286
▁گشت	-9287
etiyê	-9288
▁Live	-9289
▁پۆلی	-9290
▁çandî	-9291
▁بیانه	-9292
▁دووری	-9293
▁ڕایان	-9294
▁کۆششی	-9295
▁search	-9296
▁بریتیه	-9297
▁بیابان	-9298
▁بەرگری	-9299
▁تواناو	-9300
▁تێبینی	-9301
▁دڵنیان	-9302
▁ڕێبازه	-9303
▁welatan	-9304
▁خۆیانیان	-9305
▁٧	-9306
yen	-9307
îşa	-9308
▁2-	-9309
îmên	-9310
▁gih	-9311
▁خەی	-9312
▁کەل	-9313
خانەی	-9314
▁kurs	-9315
▁هیوا	-9316
former	-9317
▁Avrêl	-9318
▁Frans	-9319
▁Telev	-9320
▁dirav	-9321
▁hîdro	-9322
▁stend	-9323
mission	-9324
▁dating	-9325
▁tedbîr	-9326
▁weşanê	-9327
▁سەرچاو	-9328
▁شتانەی	-9329
▁Destûra	-9330
▁bixweber	-9331
▁pergalên	-9332
▁tedawiya	-9333
▁هەموومان	-9334
▁hewldanên	-9335
SR	-9336
res	-9337
urs	-9338
▁îd	-9339
ross	-9340
çber	-9341
تانە	-9342
▁pîl	-9343
▁چۆڵ	-9344
▁Ereb	-9345
▁Tîma	-9346
▁film	-9347
▁neyê	-9348
▁inter	-9349
▁xirab	-9350
▁Pîvana	-9351
▁Xelata	-9352
▁player	-9353
▁خوێنده	-9354
▁دارایی	-9355
▁چالاکی	-9356
▁ئەوەندە	-9357
▁شتێکمان	-9358
▁operasyonê	-9359
den	-9360
the	-9361
کرۆ	-9362
▁05	-9363
▁2)	-9364
▁9:	-9365
burg	-9366
▁Kam	-9367
▁Key	-9368
▁Ray	-9369
▁cem	-9370
▁tîp	-9371
▁Şir	-9372
▁رپر	-9373
▁٢٠٠	-9374
itîne	-9375
وێنێت	-9376
▁King	-9377
▁Swîs	-9378
▁بژین	-9379
▁حکوم	-9380
▁نیاز	-9381
▁کانن	-9382
▁نوقمی	-9383
▁کوفرو	-9384
▁یخاته	-9385
▁Direct	-9386
▁bikeve	-9387
▁nîşanî	-9388
▁بیربکه	-9389
▁رستراو	-9390
▁October	-9391
▁şandina	-9392
▁ژیانمان	-9393
▁pêşveçûnê	-9394
▁teknolojî	-9395
▁Guherandinên	-9396
OW	-9397
aon	-9398
aug	-9399
ehê	-9400
▁Cî	-9401
oker	-9402
raft	-9403
▁Log	-9404
▁URL	-9405
▁Ven	-9406
▁پاس	-9407
چوونی	-9408
ەرەوە	-9409
▁cure	-9410
▁daye	-9411
▁neke	-9412
▁your	-9413
▁بڕۆن	-9414
▁زنجی	-9415
▁شانه	-9416
rafîkê	-9417
ەرەکان	-9418
▁ئەکات	-9419
▁وانیه	-9420
▁یشتنی	-9421
▁gotara	-9422
▁otomob	-9423
▁rizgar	-9424
▁ئازادی	-9425
▁هاتبێت	-9426
▁nexweşî	-9427
▁vebijêr	-9428
▁vexwend	-9429
▁ئینتەرنێت	-9430
4,	-9431
PC	-9432
▁65	-9433
▁Pê	-9434
▁Sê	-9435
▁Xw	-9436
iant	-9437
▁kit	-9438
▁شەق	-9439
cript	-9440
▁stêr	-9441
▁ریای	-9442
▁ندین	-9443
▁Check	-9444
▁Enter	-9445
▁takek	-9446
▁دەڵێم	-9447
▁civakê	-9448
▁doktor	-9449
▁nivîsê	-9450
▁ماڵەوە	-9451
▁کەسانی	-9452
ەکەینەوە	-9453
▁berhemê	-9454
▁hişmend	-9455
▁pereyan	-9456
▁tevgera	-9457
▁Parçeyên	-9458
▁qalîteya	-9459
▁بەرامبەر	-9460
▁گومانیان	-9461
▁çareseriyê	-9462
88	-9463
@}	-9464
BAR	-9465
ikî	-9466
oşe	-9467
îza	-9468
تفه	-9469
▁09	-9470
▁49	-9471
▁gu	-9472
here	-9473
ەندا	-9474
▁Dav	-9475
▁Sîn	-9476
▁کڕی	-9477
ansên	-9478
birin	-9479
▁Anal	-9480
▁تەلە	-9481
▁دۆست	-9482
▁هەشت	-9483
▁ورده	-9484
▁پیری	-9485
▁ڕوخس	-9486
▁GNOME	-9487
▁bendê	-9488
▁نوتفه	-9489
▁وکاره	-9490
▁کێشەی	-9491
▁Powder	-9492
▁لێکردن	-9493
▁ناکۆکی	-9494
▁derheqê	-9495
▁ویستیان	-9496
▁baweriya	-9497
▁دەکاتەوە	-9498
▁xwendekaran	-9499
▁danûstandinên	-9500
Ev	-9501
ym	-9502
sch	-9503
دره	-9504
ۆژی	-9505
▁Lo	-9506
▁tû	-9507
atur	-9508
eing	-9509
item	-9510
استی	-9511
چووه	-9512
▁10:	-9513
▁Far	-9514
▁PKK	-9515
▁Raw	-9516
▁Rik	-9517
▁San	-9518
▁Spî	-9519
▁sab	-9520
▁ناق	-9521
▁پڕه	-9522
inder	-9523
▁Gold	-9524
▁ئیسل	-9525
▁لیلی	-9526
▁پێدە	-9527
▁کوژن	-9528
▁Firot	-9529
▁dizan	-9530
▁دەوێت	-9531
▁لێهات	-9532
▁ڕۆژهه	-9533
▁xistin	-9534
▁بەرچاو	-9535
▁هاوسەر	-9536
▁ڕازاند	-9537
▁Derbarê	-9538
▁تەماشای	-9539
▁Pêvajoya	-9540
▁hewceyên	-9541
▁nirxandin	-9542
▁damezrandina	-9543
mc	-9544
ps	-9545
xw	-9546
.03	-9547
800	-9548
وته	-9549
یشن	-9550
▁99	-9551
▁HE	-9552
▁It	-9553
▁êş	-9554
yarê	-9555
لیۆن	-9556
▁Act	-9557
▁BIK	-9558
▁Mat	-9559
▁kov	-9560
▁جین	-9561
▁ناڕ	-9562
▁پان	-9563
astic	-9564
iyetê	-9565
▁Life	-9566
▁Phot	-9567
▁carî	-9568
▁زانه	-9569
▁هانا	-9570
▁ڕاوه	-9571
urgaon	-9572
▁Share	-9573
▁Veava	-9574
▁hesib	-9575
▁nirxa	-9576
▁sifrê	-9577
▁بخاته	-9578
▁سووده	-9579
▁لێشێو	-9580
▁گرتنی	-9581
▁بگرێته	-9582
▁شوێنكه	-9583
▁مێژووی	-9584
▁Program	-9585
▁ramanên	-9586
▁Çareser	-9587
▁مەبەستم	-9588
ebijarkên	-9589
▁barkirin	-9590
▁nikaribû	-9591
▁خواردووه	-9592
▁Ewlekariya	-9593
ewa	-9594
tîk	-9595
▁My	-9596
afûn	-9597
انێک	-9598
▁biz	-9599
▁poz	-9600
▁تۆز	-9601
▁جاڕ	-9602
▁ریت	-9603
▁مره	-9604
iyekê	-9605
ترینی	-9606
كردنی	-9607
▁Char	-9608
▁Ferm	-9609
▁time	-9610
▁بناس	-9611
▁خەون	-9612
▁ڵێین	-9613
itemap	-9614
▁slots	-9615
▁تووڕه	-9616
▁جاکات	-9617
▁روبوو	-9618
▁رچووه	-9619
▁نوێژی	-9620
▁هەستم	-9621
▁وڵاتی	-9622
▁ڕوونه	-9623
▁کخوان	-9624
▁گوایه	-9625
▁şertên	-9626
▁فرۆشتن	-9627
▁کرابێت	-9628
▁Psychic	-9629
▁kêrhatî	-9630
▁جیاوازه	-9631
▁Electron	-9632
▁Hindistanê	-9633
▁biguherîne	-9634
▁u	-9635
▁lo	-9636
ices	-9637
ille	-9638
▁Rem	-9639
▁ray	-9640
▁بسه	-9641
▁سیه	-9642
▁طور	-9643
▁مری	-9644
ileya	-9645
tings	-9646
▁Cent	-9647
▁Just	-9648
▁Miss	-9649
▁bête	-9650
▁خواش	-9651
▁خۆته	-9652
▁سلیم	-9653
▁شێته	-9654
▁وسان	-9655
▁bafûn	-9656
▁şahid	-9657
▁خولەک	-9658
▁ردانه	-9659
▁ودواش	-9660
▁ڵکێشی	-9661
▁photos	-9662
▁temaşe	-9663
▁نادرێت	-9664
▁چاکترو	-9665
▁Londonê	-9666
▁gerdûnî	-9667
▁لێکراوه	-9668
▁مکارتره	-9669
▁جیاکردنه	-9670
▁marketing	-9671
▁Bikarhêner	-9672
▁دروستکراوه	-9673
1)	-9674
Bi	-9675
aca	-9676
kes	-9677
ogr	-9678
ûrî	-9679
جین	-9680
▁mg	-9681
blog	-9682
lift	-9683
▁11:	-9684
▁TEN	-9685
▁duc	-9686
▁سره	-9687
ories	-9688
▁Jack	-9689
▁View	-9690
▁from	-9691
▁تاکە	-9692
▁ساده	-9693
▁ندان	-9694
▁کایه	-9695
▁binpê	-9696
▁رشانی	-9697
▁ناقۆڵ	-9698
▁ڕاندا	-9699
▁کوێرو	-9700
ێنێتەوە	-9701
▁careke	-9702
▁dereng	-9703
▁Çiyayê	-9704
▁درۆزنن	-9705
▁ڵاتمان	-9706
▁diranên	-9707
▁heyecan	-9708
▁hêmanên	-9709
▁مانگانه	-9710
▁lîstikên	-9711
▁şirketên	-9712
▁ئاگادارو	-9713
▁بڕیارمان	-9714
▁تاوانکار	-9715
▁Berfanbar	-9716
▁nivîsandin	-9717
▁سەرنجڕاکێش	-9718
▁Hilbijartina	-9719
73	-9720
PG	-9721
ün	-9722
con	-9723
tîv	-9724
ریش	-9725
▁ok	-9726
dayê	-9727
ican	-9728
torê	-9729
دووڕ	-9730
▁Sem	-9731
▁XWE	-9732
▁tir	-9733
▁تیژ	-9734
▁لیل	-9735
▁کێڵ	-9736
▁2005	-9737
▁Plan	-9738
▁Qada	-9739
▁Word	-9740
▁make	-9741
▁ندنه	-9742
▁bûyer	-9743
▁dîyar	-9744
▁رستنی	-9745
▁شارنه	-9746
▁یانده	-9747
▁Fransa	-9748
▁hêjayî	-9749
▁rapora	-9750
▁دوایدا	-9751
▁دوودڵی	-9752
▁مۆسیقا	-9753
▁Tirkiye	-9754
▁بکەنەوە	-9755
▁giraniya	-9756
▁hejmarek	-9757
▁یادخستنه	-9758
▁ڕاستگۆیان	-9759
▁xebatkarên	-9760
▁موسوڵمانان	-9761
▁Teknolojiya	-9762
▁pêşvebirina	-9763
AY	-9764
كە	-9765
▁sl	-9766
روست	-9767
گریت	-9768
▁Doz	-9769
▁Pat	-9770
▁USB	-9771
▁ئۆک	-9772
▁بوغ	-9773
ource	-9774
▁hêzê	-9775
▁jina	-9776
▁sand	-9777
▁vayr	-9778
▁باوك	-9779
▁پشکن	-9780
▁چاكی	-9781
▁ھەیە	-9782
▁بڵندو	-9783
▁بڵێین	-9784
▁دادەن	-9785
▁دوورو	-9786
▁ڕیسوا	-9787
▁کارێک	-9788
▁یاسای	-9789
▁Wezîrê	-9790
▁lingên	-9791
▁mijarê	-9792
▁odeyên	-9793
▁peldan	-9794
▁qanûna	-9795
▁ئازاره	-9796
▁پیرۆزو	-9797
▁چیرۆکی	-9798
▁کردارو	-9799
▁numreya	-9800
▁بەراورد	-9801
▁شتێکتان	-9802
▁چووزانی	-9803
▁Peldanka	-9804
▁nexweşên	-9805
▁potansiy	-9806
▁gihîştina	-9807
▁lîstikvan	-9808
▁rêxistinê	-9809
▁rûniştinê	-9810
▁têkildarî	-9811
▁باراندووه	-9812
▁veguhastina	-9813
do	-9814
ko	-9815
ودا	-9816
▁mo	-9817
feks	-9818
▁EMU	-9819
▁fut	-9820
▁تێی	-9821
▁ڵوه	-9822
-2012	-9823
înerê	-9824
▁Line	-9825
▁فامی	-9826
▁نوێی	-9827
▁واتە	-9828
ession	-9829
▁alîyê	-9830
▁qirêj	-9831
▁بڵنده	-9832
▁خزمەت	-9833
▁دێرین	-9834
▁مانگه	-9835
▁مانیش	-9836
▁پێچەو	-9837
ardware	-9838
▁Series	-9839
▁batter	-9840
▁ئامێری	-9841
▁دەگرێت	-9842
▁rêkûpêk	-9843
▁توانایه	-9844
▁December	-9845
▁Girêdana	-9846
▁Kategorî	-9847
▁barkirina	-9848
▁گوفتارێکی	-9849
▁Agahdariya	-9850
▁operasyonên	-9851
▁Taybetmendiyên	-9852
6"	-9853
تڕ	-9854
bin	-9855
▁Gal	-9856
▁bag	-9857
ature	-9858
croll	-9859
çeyek	-9860
ارێکی	-9861
چونكه	-9862
ەکانە	-9863
▁Java	-9864
▁gelo	-9865
▁saya	-9866
▁ببات	-9867
▁لۆمه	-9868
▁واڵه	-9869
maniya	-9870
پارێزن	-9871
▁ketin	-9872
▁تێپەڕ	-9873
▁کوشتن	-9874
▁multip	-9875
▁Çalakî	-9876
▁بوترێت	-9877
▁جیهادو	-9878
▁لاوازی	-9879
▁لەسەدا	-9880
▁ژمارەی	-9881
▁ئازاریان	-9882
▁کانیشیان	-9883
▁bikişînin	-9884
put	-9885
▁CS	-9886
▁kg	-9887
▁فس	-9888
edit	-9889
head	-9890
vest	-9891
weya	-9892
هێشت	-9893
▁Jiz	-9894
▁Mec	-9895
▁Weq	-9896
▁taw	-9897
giştî	-9898
jeyek	-9899
شتێکی	-9900
▁êriş	-9901
▁كاری	-9902
▁نیان	-9903
▁هێزه	-9904
▁پەنج	-9905
▁ڕۆشت	-9906
▁کاتە	-9907
▁گۆشت	-9908
▁گەرم	-9909
▁Short	-9910
▁Suene	-9911
▁birçî	-9912
▁bizan	-9913
▁بردنی	-9914
▁بەوەی	-9915
▁Daxwaz	-9916
▁Meriva	-9917
▁derfet	-9918
▁برایان	-9919
▁متمانه	-9920
▁کردنیان	-9921
▁mesrefên	-9922
▁شوێنێکدا	-9923
▁çavdêriya	-9924
▁ewlekariyê	-9925
▁wergirtina	-9926
▁تاقیکردنەوەی	-9927
IA	-9928
ۆپ	-9929
ێس	-9930
eye	-9931
ila	-9932
▁ڕم	-9933
گرام	-9934
▁600	-9935
▁BEL	-9936
▁Mad	-9937
▁sin	-9938
▁تاب	-9939
▁تەل	-9940
▁فرو	-9941
Query	-9942
manan	-9943
▁Roll	-9944
▁Sand	-9945
▁هەڵە	-9946
▁organ	-9947
▁داپۆش	-9948
▁دیوار	-9949
▁كتێبه	-9950
▁واتای	-9951
▁چۆنیه	-9952
▁Boeing	-9953
▁ئەنجامی	-9954
▁Roulette	-9955
▁Universe	-9956
▁لەمەوبەر	-9957
▁mişterîyên	-9958
HO	-9959
avy	-9960
hêl	-9961
باو	-9962
▁08	-9963
▁VC	-9964
esta	-9965
▁شەڕ	-9966
▁Beşa	-9967
▁Leza	-9968
▁Nûçe	-9969
▁Pisp	-9970
▁bîhn	-9971
▁hûrg	-9972
▁milê	-9973
▁خاڵی	-9974
birina	-9975
گوزاری	-9976
▁Mînak	-9977
▁testê	-9978
▁شیرین	-9979
▁منتان	-9980
▁هەسار	-9981
▁Nikare	-9982
▁Piştre	-9983
▁dorpêç	-9984
▁هاوتای	-9985
▁Network	-9986
▁Penaber	-9987
▁vegerin	-9988
▁دوژمنان	-9989
▁Brîtanya	-9990
▁veguherînin	-9991
Al	-9992
hr	-9993
êç	-9994
▁٨	-9995
ays	-9996
bel	-9997
use	-9998
▁YE	-9999
asin	-10000
ydro	-10001
ووله	-10002
▁Rob	-10003
▁Sky	-10004
▁zîv	-10005
▁سەم	-10006
▁لاڵ	-10007
▁ڵسو	-10008
idest	-10009
▁Love	-10010
▁book	-10011
▁تۆوه	-10012
▁مێکی	-10013
▁Jinên	-10014
▁jorîn	-10015
▁xeter	-10016
▁جێیان	-10017
▁هێمنی	-10018
▁Peldan	-10019
▁كانمان	-10020
▁related	-10021
▁زیاتریش	-10022
▁پاداشته	-10023
▁Parlament	-10024
▁belavbûna	-10025
▁penaberan	-10026
62	-10027
BP	-10028
ga	-10029
my	-10030
uel	-10031
ved	-10032
çeg	-10033
خۆر	-10034
dewl	-10035
yala	-10036
îhev	-10037
واند	-10038
▁Add	-10039
▁CAP	-10040
▁Dos	-10041
▁rol	-10042
▁برس	-10043
یشتان	-10044
▁Nort	-10045
▁tûşî	-10046
▁تێبگ	-10047
▁جاری	-10048
▁ساڵە	-10049
▁فڕێی	-10050
▁وریا	-10051
▁وێڵه	-10052
uminum	-10053
▁Belav	-10054
▁Naver	-10055
▁testa	-10056
▁دەسەڵ	-10057
▁ڕێگری	-10058
▁rengîn	-10059
▁travel	-10060
▁هەردوو	-10061
▁ڕاستەو	-10062
▁mezinan	-10063
▁surface	-10064
▁ڕیسوایی	-10065
▁Vebijêrk	-10066
▁peldanka	-10067
▁çapkirinê	-10068
js	-10069
.05	-10070
ING	-10071
tur	-10072
اگه	-10073
هیچ	-10074
پێی	-10075
ەون	-10076
▁IM	-10077
▁ms	-10078
▁بل	-10079
agon	-10080
waze	-10081
سانی	-10082
▁Reg	-10083
▁lew	-10084
▁tal	-10085
▁tic	-10086
▁ئال	-10087
▁لوو	-10088
▁موڵ	-10089
▁پرۆ	-10090
ities	-10091
خوازن	-10092
▁Mill	-10093
▁love	-10094
▁جەنگ	-10095
▁دەدا	-10096
▁پێشی	-10097
▁کۆتا	-10098
▁Click	-10099
▁Space	-10100
▁hebûn	-10101
▁speed	-10102
▁خراپی	-10103
▁لامان	-10104
▁ڕاستە	-10105
▁bijare	-10106
▁sepanê	-10107
▁دیداری	-10108
▁paytexta	-10109
▁Pêşveçûna	-10110
▁platformê	-10111
OT	-10112
▁;	-10113
ars	-10114
bîn	-10115
efa	-10116
raw	-10117
tic	-10118
▁TC	-10119
▁شۆ	-10120
etre	-10121
fect	-10122
▁125	-10123
▁Wan	-10124
▁درێ	-10125
▁لاف	-10126
▁لێر	-10127
▁ڵپه	-10128
▁ھاو	-10129
aneke	-10130
ingbo	-10131
▁Cert	-10132
▁List	-10133
▁ereb	-10134
▁werz	-10135
▁درۆو	-10136
▁زۆرم	-10137
▁سەری	-10138
▁شاند	-10139
▁لێبو	-10140
ozeyên	-10141
▁guneh	-10142
▁بریتی	-10143
▁شتێكی	-10144
▁ڵسوکه	-10145
▁یخوێن	-10146
▁Civakî	-10147
▁device	-10148
▁firîna	-10149
▁وشکانی	-10150
▁پشتگوێ	-10151
▁fermana	-10152
▁گیاندار	-10153
▁ئازارێکی	-10154
يا	-10155
tîh	-10156
ûsê	-10157
باز	-10158
ەیا	-10159
asma	-10160
ding	-10161
▁Hîn	-10162
▁erd	-10163
اییان	-10164
▁weld	-10165
▁zorê	-10166
▁ئیله	-10167
▁ربێت	-10168
▁مبار	-10169
bilind	-10170
▁Weqfa	-10171
▁rehet	-10172
▁track	-10173
▁Şared	-10174
▁دکتۆر	-10175
▁مۆبای	-10176
girtinê	-10177
▁pêşbaz	-10178
▁tercîh	-10179
▁zanyar	-10180
▁رنجیان	-10181
▁hormone	-10182
▁reviews	-10183
▁ناشیرین	-10184
▁ژیانتان	-10185
▁hezkirina	-10186
▁pêşxistin	-10187
▁گەورەترین	-10188
▁Vebijêrkên	-10189
▁damezirandin	-10190
دس	-10191
ily	-10192
▁هو	-10193
▁Den	-10194
▁sos	-10195
▁und	-10196
▁زره	-10197
▁سار	-10198
▁مرو	-10199
lînkê	-10200
xwest	-10201
îstan	-10202
▁Amûr	-10203
▁vedi	-10204
▁خوام	-10205
▁خۆری	-10206
▁دەرف	-10207
▁كافر	-10208
ahiyan	-10209
▁Fiber	-10210
▁Japan	-10211
▁dihat	-10212
▁سیاسی	-10213
▁ناچار	-10214
▁ڕووگه	-10215
▁کانیه	-10216
قورئانه	-10217
▁Kanûna	-10218
▁rewşên	-10219
▁yekser	-10220
▁دیزاین	-10221
▁رێکمان	-10222
▁ناوبرد	-10223
▁نرخێکی	-10224
▁وتبوون	-10225
▁پرسینه	-10226
▁یادیان	-10227
▁Tîrmehê	-10228
▁بیرناکه	-10229
▁bêkêmasî	-10230
▁تاوانیان	-10231
▁Karûbarên	-10232
▁ئامۆژگاریه	-10233
▁دروستکراوانی	-10234
▁desteserkirin	-10235
.06	-10236
wek	-10237
کوژ	-10238
ێرد	-10239
▁1)	-10240
▁ژو	-10241
▁195	-10242
▁800	-10243
▁SQL	-10244
▁Yên	-10245
▁laz	-10246
▁ساو	-10247
▁لان	-10248
▁متر	-10249
▁هود	-10250
▁ڵێی	-10251
fault	-10252
ketin	-10253
phone	-10254
▁Hand	-10255
▁QPSK	-10256
▁next	-10257
▁tips	-10258
▁سپڵه	-10259
▁لێسه	-10260
▁پاکه	-10261
▁ڵێکی	-10262
▁Enerj	-10263
▁alloy	-10264
▁xerîb	-10265
▁تێکدا	-10266
▁دەدەم	-10267
▁کۆچبه	-10268
berdana	-10269
▁Reşemî	-10270
▁Werger	-10271
▁domdar	-10272
▁پۆشاکی	-10273
▁کتریان	-10274
▁کرداره	-10275
▁amazing	-10276
▁ئاشکرام	-10277
▁ئیسلامه	-10278
▁Ronahiya	-10279
▁takekesî	-10280
▁hyperlînkê	-10281
▁پشتیوانیان	-10282
,5	-10283
tt	-10284
erg	-10285
irc	-10286
uff	-10287
دەت	-10288
▁7:	-10289
▁Bę	-10290
▁îl	-10291
▁ول	-10292
bare	-10293
efîl	-10294
▁(1)	-10295
▁Mel	-10296
▁رخه	-10297
▁ستا	-10298
▁مەی	-10299
urope	-10300
شتیان	-10301
ڕوانی	-10302
کەکان	-10303
▁binê	-10304
▁diam	-10305
▁çand	-10306
▁جووه	-10307
▁چیتر	-10308
▁ڕێگا	-10309
▁Mijar	-10310
▁Ragih	-10311
▁dariz	-10312
▁بەشێک	-10313
▁راستی	-10314
▁رمانم	-10315
▁پێناس	-10316
ebruary	-10317
▁nerazî	-10318
▁rewşan	-10319
▁tiştan	-10320
▁ئیبلیس	-10321
▁بیمیان	-10322
▁خزمایه	-10323
▁ستکاری	-10324
▁فرمانی	-10325
▁هۆکاره	-10326
alkirina	-10327
▁Bêguman	-10328
▁Bęjeyek	-10329
▁tattooê	-10330
▁یاندوون	-10331
▁ئیسماعیل	-10332
▁تەواوەتی	-10333
▁پیلانیان	-10334
▁ڕابوردوو	-10335
▁کانیشتان	-10336
▁Performan	-10337
cb	-10338
ÎD	-10339
acê	-10340
esh	-10341
med	-10342
nar	-10343
olf	-10344
ئەم	-10345
اڵح	-10346
ێڵن	-10347
▁So	-10348
anîz	-10349
اداو	-10350
ێدان	-10351
▁12:	-10352
▁NTV	-10353
▁Qer	-10354
▁add	-10355
▁توش	-10356
▁نگو	-10357
كاران	-10358
ویستی	-10359
▁Xwar	-10360
▁تیشک	-10361
▁زایی	-10362
▁یدان	-10363
opping	-10364
▁heger	-10365
▁بانیش	-10366
▁خشینه	-10367
▁دایبه	-10368
▁وەردە	-10369
▁چووین	-10370
▁ڕابگه	-10371
sterdam	-10372
▁Master	-10373
▁Pirsên	-10374
▁بووینه	-10375
▁موشریك	-10376
▁گۆرانی	-10377
▁یانیان	-10378
▁Agahiya	-10379
▁polîsan	-10380
▁ژیریتان	-10381
▁کۆمەڵێک	-10382
▁Zanistên	-10383
▁akademîk	-10384
▁lêkolîna	-10385
▁ماوەیەکی	-10386
▁هەرچەندە	-10387
▁çareseriyên	-10388
TP	-10389
çû	-10390
مۆ	-10391
win	-10392
▁07	-10393
▁AN	-10394
▁Ey	-10395
▁ge	-10396
▁km	-10397
ayîn	-10398
zanî	-10399
دووه	-10400
▁Pev	-10401
▁ney	-10402
▁sil	-10403
▁تێن	-10404
▁دۆخ	-10405
▁قام	-10406
Point	-10407
ocket	-10408
îranê	-10409
البقر	-10410
▁3/4.	-10411
▁Cast	-10412
▁ئارە	-10413
▁تێدە	-10414
▁سێنه	-10415
▁صالح	-10416
▁هێرش	-10417
▁کێشن	-10418
ashion	-10419
format	-10420
▁Mafên	-10421
▁ترسێت	-10422
▁دەردە	-10423
▁زیانی	-10424
▁ستانه	-10425
▁مکارن	-10426
▁نگێکی	-10427
▁چەپڵە	-10428
▁London	-10429
▁Online	-10430
▁xelata	-10431
▁سوێنده	-10432
▁وەڵامی	-10433
▁چوونیه	-10434
▁Tirkiyê	-10435
▁fêrbûna	-10436
▁ئایینده	-10437
▁ندێکتان	-10438
▁bixwazin	-10439
▁roulette	-10440
▁hesibandin	-10441
▁tomarkirin	-10442
▁bazirganiyê	-10443
▁berpirsiyariya	-10444
32	-10445
4)	-10446
RT	-10447
ır	-10448
deh	-10449
وود	-10450
▁îf	-10451
▁ele	-10452
▁pis	-10453
▁ئیم	-10454
▁خاش	-10455
▁سیف	-10456
▁ویت	-10457
بووین	-10458
▁Slov	-10459
▁تاڵی	-10460
▁زیوه	-10461
▁ساته	-10462
verter	-10463
گرتووه	-10464
▁Polît	-10465
▁Slots	-10466
▁Vîdyo	-10467
▁دەورو	-10468
▁hevpar	-10469
▁pratîk	-10470
▁tezmîn	-10471
▁tîrêjê	-10472
▁ئومێده	-10473
▁Moskowê	-10474
▁ناتوانم	-10475
▁هەموویان	-10476
▁20.07.2016	-10477
▁birêvebirina	-10478
▁rojnamegeran	-10479
8,	-10480
dy	-10481
gg	-10482
ja	-10483
-30	-10484
ati	-10485
back	-10486
keya	-10487
▁Sex	-10488
▁Sim	-10489
▁Tar	-10490
▁kêş	-10491
▁mum	-10492
▁sûd	-10493
▁îde	-10494
▁بەس	-10495
▁خور	-10496
▁دڵت	-10497
▁چاڵ	-10498
▁گبه	-10499
elash	-10500
çûnên	-10501
ەویست	-10502
▁Blog	-10503
▁fakt	-10504
▁pump	-10505
▁خانە	-10506
▁وزەی	-10507
▁ڕەفت	-10508
▁گرین	-10509
▁banga	-10510
▁banka	-10511
▁bêhem	-10512
▁بیننه	-10513
▁درێژه	-10514
▁ماندا	-10515
▁هەوڵی	-10516
دانەوەی	-10517
▁bakurê	-10518
▁bawerî	-10519
▁navend	-10520
▁ئاشكرا	-10521
▁element	-10522
▁futbolê	-10523
▁فێربوون	-10524
▁نابینیت	-10525
▁Karkerên	-10526
▁Nivîskar	-10527
▁pirtûkên	-10528
▁rakirina	-10529
▁ناتوانین	-10530
▁rayagiştî	-10531
▁transposh	-10532
▁منداڵەکان	-10533
▁testosterone	-10534
icî	-10535
▁3:	-10536
▁Ok	-10537
▁îh	-10538
.000	-10539
asib	-10540
avan	-10541
ever	-10542
wood	-10543
▁bro	-10544
▁bug	-10545
▁dol	-10546
▁ven	-10547
▁June	-10548
▁otob	-10549
▁tirs	-10550
▁yekî	-10551
▁ناسن	-10552
▁range	-10553
▁sifir	-10554
▁ئابوو	-10555
▁روونه	-10556
▁وڵاته	-10557
▁dikeve	-10558
▁giring	-10559
▁prensî	-10560
▁نابێته	-10561
▁هاتوچۆ	-10562
▁هەمووی	-10563
▁Alîkarî	-10564
▁Rêveber	-10565
▁بەشداری	-10566
▁lêpirsîn	-10567
▁serkeftin	-10568
zî	-10569
بڵ	-10570
kVA	-10571
▁3-	-10572
▁MO	-10573
▁ھە	-10574
band	-10575
îkop	-10576
لایه	-10577
گانه	-10578
▁Bab	-10579
▁End	-10580
▁Ref	-10581
▁mîq	-10582
▁rot	-10583
▁خاك	-10584
ights	-10585
▁Phen	-10586
▁Prem	-10587
▁giya	-10588
▁خۆرا	-10589
▁خێری	-10590
ketina	-10591
▁بوومه	-10592
▁بینێت	-10593
▁تیشکی	-10594
▁dayîna	-10595
▁dibîne	-10596
▁mirovî	-10597
▁zanîna	-10598
▁Îtalya	-10599
▁خۆرئاو	-10600
▁ناوبان	-10601
▁تریشیان	-10602
▁دەروونی	-10603
▁لەڕاستی	-10604
▁National	-10605
▁karkerên	-10606
▁diyarkirin	-10607
▁hilbijartî	-10608
▁platformeke	-10609
ەه	-10610
dib	-10611
fil	-10612
ico	-10613
▁RC	-10614
▁سم	-10615
bike	-10616
zhou	-10617
پێغه	-10618
گەین	-10619
▁She	-10620
▁hêr	-10621
▁maz	-10622
▁مێر	-10623
▁١٠٠	-10624
abûna	-10625
table	-10626
tinên	-10627
وپێکی	-10628
▁Axaf	-10629
▁Pakê	-10630
▁over	-10631
▁باڵی	-10632
▁دروش	-10633
▁دوێن	-10634
▁لێنه	-10635
▁پارچ	-10636
▁کیمی	-10637
essive	-10638
انەوەی	-10639
ەلێدان	-10640
▁prote	-10641
▁تریشی	-10642
▁Ningbo	-10643
▁Zimanî	-10644
▁cîhana	-10645
▁daxist	-10646
▁hatina	-10647
▁hember	-10648
▁خۆشتان	-10649
▁دەزانم	-10650
▁ڕۆیشتن	-10651
▁Birêveb	-10652
▁Nivîsar	-10653
▁Xanûber	-10654
▁birrîna	-10655
▁dakêşin	-10656
▁sînyala	-10657
▁درێژایی	-10658
▁rêxistina	-10659
▁veguherîna	-10660
LP	-10661
کش	-10662
asy	-10663
eli	-10664
gar	-10665
ply	-10666
çek	-10667
▁Je	-10668
▁id	-10669
▁ژه	-10670
iang	-10671
ikek	-10672
reak	-10673
اوەی	-10674
داوە	-10675
▁Ang	-10676
▁دژە	-10677
▁رخۆ	-10678
▁نەی	-10679
▁کۆل	-10680
ength	-10681
iyekî	-10682
▁aloz	-10683
▁card	-10684
▁gunc	-10685
▁masî	-10686
▁plak	-10687
▁kesay	-10688
▁رموون	-10689
▁شوێنە	-10690
▁شەقام	-10691
▁کاتەی	-10692
▁کۆنتڕ	-10693
▁Custom	-10694
▁biharê	-10695
▁ئاوێکی	-10696
▁پاراست	-10697
▁Balafir	-10698
▁Gurgaon	-10699
▁Konseya	-10700
▁bajaran	-10701
▁display	-10702
▁دەبینین	-10703
▁کردبوون	-10704
▁Fransayê	-10705
▁zanistên	-10706
▁دەکەنەوە	-10707
▁Kişandina	-10708
▁hejmareke	-10709
▁Tenduristiya	-10710
؟)	-10711
CDD	-10712
get	-10713
sed	-10714
▁CC	-10715
▁کش	-10716
.[1]	-10717
iral	-10718
irîn	-10719
شینی	-10720
▁Nor	-10721
▁duh	-10722
▁tec	-10723
▁ten	-10724
▁ئوت	-10725
▁خێو	-10726
بەڵام	-10727
▁Make	-10728
▁بەدڵ	-10729
▁داوە	-10730
▁فیزی	-10731
▁گوێت	-10732
hilatê	-10733
البقرة	-10734
▁Ahmet	-10735
▁نەخێر	-10736
▁پارەی	-10737
▁hevalê	-10738
▁malbat	-10739
▁رکاتێک	-10740
▁هاوکار	-10741
▁jêbirin	-10742
▁خوێندنی	-10743
▁کانیانه	-10744
▁Australia	-10745
▁destdirêj	-10746
▁سەرکەوتوو	-10747
▁Blockchain	-10748
▁pirsgirêka	-10749
▁بیرکردنەوە	-10750
▁fonksiyonên	-10751
Sp	-10752
▁٩	-10753
Ser	-10754
VÎD	-10755
nes	-10756
ots	-10757
دێت	-10758
ڵێت	-10759
ۆیە	-10760
enna	-10761
odes	-10762
▁arm	-10763
▁mor	-10764
▁ref	-10765
▁دۆڕ	-10766
dress	-10767
▁TCDD	-10768
▁Turk	-10769
▁karî	-10770
▁pack	-10771
▁tabl	-10772
▁ترسا	-10773
▁ڕەگە	-10774
acetam	-10775
▁Award	-10776
▁derew	-10777
▁kîlom	-10778
▁ئەکەن	-10779
▁تیتان	-10780
▁خۆشده	-10781
▁سەدەی	-10782
▁Daxist	-10783
▁binirx	-10784
▁buhayê	-10785
▁دەدەین	-10786
▁Daneyên	-10787
▁Private	-10788
▁بیرکاری	-10789
▁دووچاری	-10790
▁دەوترێت	-10791
▁ڵبژارده	-10792
▁دروستیان	-10793
▁ڕێکوپێکی	-10794
▁wordpress	-10795
▁پارێزگاری	-10796
▁agahdariyê	-10797
▁guherandin	-10798
▁Veguheztina	-10799
▁Ka	-10800
atol	-10801
ekek	-10802
ikip	-10803
ipas	-10804
time	-10805
▁Dûr	-10806
▁باب	-10807
▁کەش	-10808
atîkê	-10809
avayê	-10810
▁Cook	-10811
▁Horm	-10812
▁Kurt	-10813
▁Mecl	-10814
▁شیره	-10815
▁گیرو	-10816
▁ڵانه	-10817
▁about	-10818
▁amûrê	-10819
▁endez	-10820
▁sivîl	-10821
▁teqez	-10822
▁tevlê	-10823
▁تیمان	-10824
▁دووکه	-10825
▁زیرەک	-10826
▁شداری	-10827
▁ماسول	-10828
▁میوان	-10829
ainless	-10830
▁Mijdar	-10831
▁nûçeya	-10832
▁دوژمنه	-10833
▁سزایان	-10834
▁نێرینه	-10835
▁هەنگاو	-10836
▁Bingeha	-10837
▁Italian	-10838
▁qozeyên	-10839
▁خانووبه	-10840
▁axaftina	-10841
▁bigihîne	-10842
▁تاوانێکی	-10843
▁ڕزگارتان	-10844
▁Komîsyona	-10845
HT	-10846
ڤە	-10847
-12	-10848
rêz	-10849
sat	-10850
şem	-10851
▁hi	-10852
bert	-10853
osit	-10854
سلام	-10855
▁Dur	-10856
▁Kem	-10857
▁alb	-10858
▁cap	-10859
▁sec	-10860
▁vol	-10861
▁îdî	-10862
▁بره	-10863
▁رله	-10864
▁سوت	-10865
▁سود	-10866
▁میش	-10867
round	-10868
umber	-10869
گرێته	-10870
ێناوه	-10871
▁bêhn	-10872
▁muam	-10873
▁ئاسن	-10874
▁خورم	-10875
▁خۆمم	-10876
▁Lêkol	-10877
▁dolar	-10878
▁mekan	-10879
▁çavan	-10880
▁بانیه	-10881
▁تبینی	-10882
▁كاندا	-10883
▁واویی	-10884
▁پێناو	-10885
▁ژمارە	-10886
▁گژوگی	-10887
▁Nîsana	-10888
▁engine	-10889
▁kevnar	-10890
▁muzîka	-10891
▁rojnam	-10892
▁ئەستێر	-10893
▁ببینین	-10894
▁موباره	-10895
▁January	-10896
▁خۆتاندا	-10897
▁دارخورم	-10898
▁چاودێره	-10899
▁کۆمپیوت	-10900
▁dezgehên	-10901
▁rêwîtiya	-10902
▁kişandina	-10903
▁pêşniyara	-10904
▁vexwarinê	-10905
▁لەڕاستیدا	-10906
▁کردوویانه	-10907
8)	-10908
BA	-10909
FO	-10910
ypt	-10911
زین	-10912
▁ta	-10913
▁جل	-10914
▁یم	-10915
gerê	-10916
بەرد	-10917
▁Sar	-10918
▁ins	-10919
▁rez	-10920
▁sol	-10921
▁şar	-10922
▁الق	-10923
▁بشک	-10924
▁رگی	-10925
▁ملم	-10926
▁گله	-10927
▁ھەڵ	-10928
▁disc	-10929
▁خودی	-10930
▁رسته	-10931
▁نزاو	-10932
Scroll	-10933
▁Embed	-10934
▁Motor	-10935
▁ofîsa	-10936
▁xelas	-10937
▁رزیان	-10938
▁چاوسا	-10939
▁Saziya	-10940
▁رانمان	-10941
▁ناویدا	-10942
▁هێنرێت	-10943
▁چاوپۆش	-10944
▁کرداری	-10945
▁default	-10946
▁program	-10947
▁تایبەتی	-10948
▁جاکاتێک	-10949
▁رشتیاری	-10950
▁یاندووه	-10951
▁یمانمان	-10952
▁firmware	-10953
▁سەرکەوتن	-10954
▁کخواناسی	-10955
▁derketina	-10956
▁biguherînin	-10957
▁perwerdehiyê	-10958
6.	-10959
DP	-10960
bs	-10961
2"&	-10962
ody	-10963
uma	-10964
لوط	-10965
▁1'	-10966
▁Kh	-10967
▁aq	-10968
rade	-10969
اکەی	-10970
▁Bûy	-10971
▁Cez	-10972
▁Lez	-10973
▁fit	-10974
▁rep	-10975
▁têr	-10976
▁ئێن	-10977
▁رون	-10978
▁رژه	-10979
▁هەز	-10980
embed	-10981
eyekê	-10982
jiang	-10983
terên	-10984
▁)...	-10985
▁Drop	-10986
▁girs	-10987
▁حەوت	-10988
▁خانه	-10989
▁خۆدا	-10990
▁زینه	-10991
▁نوسی	-10992
imedia	-10993
▁Inter	-10994
▁Linux	-10995
▁Welat	-10996
▁civak	-10997
▁nirxê	-10998
▁şirov	-10999
▁باڵند	-11000
▁تیوان	-11001
▁رانیش	-11002
▁سلیمی	-11003
▁مسۆگه	-11004
▁ناهێن	-11005
▁نمونە	-11006
▁هەڵدە	-11007
▁ڕاپێچ	-11008
▁ڕۆژوو	-11009
▁Tiştên	-11010
▁custom	-11011
▁dubare	-11012
▁pirtir	-11013
▁webcam	-11014
▁ئیمانه	-11015
▁ئێشیان	-11016
▁السلام	-11017
▁بێزاری	-11018
▁خەمۆکی	-11019
▁سوێندی	-11020
▁مێنێته	-11021
▁هاتبوو	-11022
▁ڵێنانه	-11023
▁bêhempa	-11024
▁şîfreya	-11025
▁بارێنێت	-11026
▁بهێنایه	-11027
▁ڕاستگۆن	-11028
▁modified	-11029
▁نێردراوه	-11030
▁penaberên	-11031
Lê	-11032
)!!	-11033
.99	-11034
icy	-11035
isê	-11036
mod	-11037
mon	-11038
opê	-11039
îde	-11040
گوت	-11041
atic	-11042
elec	-11043
outh	-11044
uver	-11045
ردار	-11046
وکرو	-11047
▁Big	-11048
▁Bud	-11049
▁Dok	-11050
▁Gar	-11051
▁سێی	-11052
▁Karê	-11053
▁Park	-11054
▁Roya	-11055
▁rûnê	-11056
▁xwer	-11057
▁ردنی	-11058
▁سادو	-11059
▁هەوا	-11060
▁واتا	-11061
▁Broad	-11062
▁bankê	-11063
▁ewqas	-11064
▁kirîn	-11065
▁malên	-11066
▁sedan	-11067
▁تیاده	-11068
▁ڕۆزیی	-11069
▁کتوپڕ	-11070
▁aliyên	-11071
▁derûnî	-11072
▁giranî	-11073
▁koçber	-11074
▁بێباوه	-11075
▁تاڵاوی	-11076
▁خواییه	-11077
▁ماڵاتی	-11078
▁پێداون	-11079
▁کانیشی	-11080
▁ڵیاندا	-11081
▁Xizmeta	-11082
▁ئینکاری	-11083
▁نجامێکی	-11084
▁وابزانم	-11085
▁nivîsbar	-11086
▁original	-11087
▁Guhertoya	-11088
▁جیهانیانه	-11089
▁پرسیاریان	-11090
TH	-11091
UL	-11092
gal	-11093
jîn	-11094
ûnd	-11095
دیه	-11096
لوح	-11097
ژێر	-11098
imkî	-11099
îtên	-11100
شوێن	-11101
کیان	-11102
▁Bay	-11103
▁Jul	-11104
▁iOS	-11105
▁pen	-11106
▁قبو	-11107
▁لەه	-11108
▁منت	-11109
▁ڕوی	-11110
▁کەر	-11111
▁یكه	-11112
îsyen	-11113
▁2003	-11114
▁Holl	-11115
▁کێشە	-11116
یەکانی	-11117
▁Telef	-11118
▁kurdî	-11119
▁rates	-11120
▁ئەورو	-11121
▁حمتان	-11122
▁خواست	-11123
▁ڕووبه	-11124
زانیووه	-11125
▁Karnar	-11126
▁Transp	-11127
▁bihurî	-11128
▁deriyê	-11129
▁module	-11130
▁protok	-11131
▁testên	-11132
▁Çavkan	-11133
▁ئایینه	-11134
▁بەکاری	-11135
▁درۆزنه	-11136
▁دڵسۆزو	-11137
▁زاندوه	-11138
ikipedia	-11139
▁ciwanan	-11140
▁factory	-11141
▁ئێستادا	-11142
▁خوارەوە	-11143
▁دەرەوەی	-11144
▁nivîskar	-11145
▁بارودۆخی	-11146
▁خۆمانمان	-11147
▁شێرپەنجە	-11148
▁ئێواراندا	-11149
▁hilberandin	-11150
61	-11151
Ac	-11152
îye	-11153
اغه	-11154
▁خس	-11155
itan	-11156
êlin	-11157
▁0.1	-11158
▁mix	-11159
▁سلم	-11160
▁شێک	-11161
▁وشه	-11162
ahîya	-11163
ental	-11164
olumn	-11165
sînor	-11166
لەکان	-11167
ێکانی	-11168
▁Here	-11169
▁Hong	-11170
▁Mach	-11171
▁©200	-11172
îneyên	-11173
▁Bakur	-11174
▁added	-11175
▁dihew	-11176
▁tecaw	-11177
▁باخچه	-11178
▁بڵێیت	-11179
▁دابار	-11180
▁دوودڵ	-11181
▁وامان	-11182
▁پیاوی	-11183
▁گەردی	-11184
▁peyman	-11185
▁زریانه	-11186
▁چاکانه	-11187
▁Pergalê	-11188
▁gotinên	-11189
▁kevirên	-11190
▁rêveber	-11191
▁welding	-11192
▁تاریکیه	-11193
▁کۆکردنه	-11194
▁pêşniyarê	-11195
▁©2005-201	-11196
▁tecrûbeyên	-11197
);	-11198
SA	-11199
ny	-11200
rd	-11201
can	-11202
▁PM	-11203
▁شك	-11204
acle	-11205
engê	-11206
lînê	-11207
onan	-11208
rail	-11209
امین	-11210
دارو	-11211
وویت	-11212
کەیت	-11213
ەوری	-11214
▁toz	-11215
▁دەش	-11216
▁پای	-11217
eyekî	-11218
iland	-11219
çegih	-11220
▁like	-11221
▁park	-11222
▁îmze	-11223
▁لوپه	-11224
▁مانی	-11225
▁پیسی	-11226
▁ڕێکو	-11227
▁ڵمان	-11228
aynayê	-11229
bridge	-11230
couver	-11231
kirinî	-11232
îdyoya	-11233
▁KOVÎD	-11234
▁orbit	-11235
▁xelkê	-11236
▁تێکرد	-11237
▁پاراو	-11238
▁hakemê	-11239
▁mehane	-11240
▁patent	-11241
▁termîn	-11242
▁بینایی	-11243
▁كانتان	-11244
▁نائومێ	-11245
▁نجامدا	-11246
▁پارێزه	-11247
▁کرێینه	-11248
▁گواستن	-11249
▁bicerib	-11250
▁bikevin	-11251
▁pîvanên	-11252
▁serdema	-11253
▁hucreyên	-11254
▁peredana	-11255
▁خراپترین	-11256
▁سامانتان	-11257
▁گوناهکار	-11258
▁komputerê	-11259
▁©2005-2018	-11260
▁GenericName	-11261
▁Information	-11262
▁parvekirina	-11263
▁peywendîdar	-11264
ci	-11265
elo	-11266
nov	-11267
xml	-11268
؟!!	-11269
ازو	-11270
قوڵ	-11271
ڵەم	-11272
▁Hê	-11273
alls	-11274
ycle	-11275
بونی	-11276
▁1.5	-11277
▁10%	-11278
▁[3]	-11279
▁alk	-11280
▁kab	-11281
▁nef	-11282
▁rev	-11283
▁ببو	-11284
anîzm	-11285
ather	-11286
▁Amos	-11287
▁moda	-11288
▁roll	-11289
▁بۆئه	-11290
▁خۆشت	-11291
▁خیان	-11292
▁دۆخی	-11293
▁وێدا	-11294
▁پلەی	-11295
▁کێکی	-11296
▁arşîv	-11297
▁torên	-11298
▁مێژوو	-11299
▁گەیشت	-11300
ization	-11301
▁هۆشیان	-11302
▁لابردنی	-11303
▁February	-11304
▁Instagram	-11305
▁biparêzin	-11306
▁Engineering	-11307
▁Transformer	-11308
▁veguhestinê	-11309
31	-11310
CL	-11311
En	-11312
TA	-11313
bmc	-11314
ێژی	-11315
▁5:	-11316
▁Mc	-11317
▁ul	-11318
Poss	-11319
nect	-11320
▁And	-11321
▁Avê	-11322
▁Awa	-11323
▁Jin	-11324
▁Nêz	-11325
▁maq	-11326
▁meb	-11327
▁گری	-11328
etate	-11329
▁2004	-11330
▁bomb	-11331
▁تیژی	-11332
▁دووه	-11333
▁دیکە	-11334
▁سەرس	-11335
▁هێنه	-11336
▁پێچه	-11337
ییەکەی	-11338
ەکردنی	-11339
▁feder	-11340
▁خاوەن	-11341
▁دابەش	-11342
▁كانیش	-11343
▁نیازی	-11344
▁پێدان	-11345
▁کارده	-11346
▁گرنگه	-11347
dewletî	-11348
otropin	-11349
▁School	-11350
▁babete	-11351
▁dilîze	-11352
▁ئاڵتون	-11353
▁لەوانە	-11354
▁میزادو	-11355
▁وەرگرت	-11356
NamePoss	-11357
▁سوودیان	-11358
▁Piraniya	-11359
▁تەندروست	-11360
▁منداڵانی	-11361
▁منداڵێکی	-11362
▁ناویاندا	-11363
▁ewlekariya	-11364
NamePossessive	-11365
UT	-11366
’’	-11367
ems	-11368
اشە	-11369
لەی	-11370
ەخت	-11371
▁DJ	-11372
▁حە	-11373
▁گا	-11374
ermê	-11375
erîf	-11376
اندو	-11377
▁AAS	-11378
▁Sat	-11379
▁hîs	-11380
▁kêl	-11381
▁qir	-11382
▁şûn	-11383
▁زیل	-11384
▁شەپ	-11385
ektîf	-11386
▁Pass	-11387
▁çavê	-11388
▁بیرد	-11389
▁داتێ	-11390
▁رکرد	-11391
▁لەمە	-11392
▁چینی	-11393
▁ژاری	-11394
▁Smart	-11395
▁Ultra	-11396
▁daniş	-11397
▁refer	-11398
▁şoreş	-11399
▁بتانه	-11400
▁بەتای	-11401
▁Paceyê	-11402
▁Sports	-11403
▁kirînê	-11404
▁توانین	-11405
▁خۆمانه	-11406
▁دڵخۆشن	-11407
▁سەرەتا	-11408
▁Deryaya	-11409
▁cockpit	-11410
▁digirin	-11411
▁ئەندازی	-11412
▁Bişkojka	-11413
▁bipirsin	-11414
▁makîneyê	-11415
▁خواناسان	-11416
▁شێوازێکی	-11417
▁xwendekar	-11418
٥٠	-11419
aha	-11420
bat	-11421
def	-11422
hod	-11423
îqa	-11424
▁44	-11425
▁Dê	-11426
▁EC	-11427
▁Kl	-11428
▁سڵ	-11429
ager	-11430
amin	-11431
arth	-11432
▁1.1	-11433
▁Fix	-11434
▁Guh	-11435
▁Spr	-11436
▁Vol	-11437
▁azm	-11438
▁fak	-11439
▁هار	-11440
▁چار	-11441
ekine	-11442
rogen	-11443
sport	-11444
▁Full	-11445
▁penc	-11446
▁ئامر	-11447
▁باشت	-11448
▁بەجێ	-11449
رێتەوە	-11450
کردنەو	-11451
▁Damez	-11452
▁Model	-11453
▁Music	-11454
▁asayî	-11455
▁ئێمەی	-11456
▁ئەمان	-11457
olojiyê	-11458
▁devera	-11459
▁ferman	-11460
▁çêkirî	-11461
▁ئاسایش	-11462
▁بیرتان	-11463
▁گوێمان	-11464
▁Biguher	-11465
▁Rûpelên	-11466
▁bijartî	-11467
▁Çewtiya	-11468
▁Têkiliya	-11469
▁hikûmeta	-11470
▁nasnameya	-11471
▁بەردەوامی	-11472
▁daxuyaniya	-11473
7)	-11474
7,	-11475
HS	-11476
jê	-11477
xê	-11478
yg	-11479
ony	-11480
بۆن	-11481
سۆن	-11482
یتە	-11483
▁4:	-11484
▁Si	-11485
▁êv	-11486
▁سۆ	-11487
site	-11488
انیت	-11489
اوان	-11490
ێزان	-11491
▁30%	-11492
▁NAV	-11493
▁Nep	-11494
▁Saf	-11495
▁Sec	-11496
▁Tan	-11497
بهێنن	-11498
واندن	-11499
▁Card	-11500
▁mecb	-11501
▁mirî	-11502
▁şand	-11503
▁şerê	-11504
▁کۆشك	-11505
irtual	-11506
▁Yekem	-11507
▁stenb	-11508
▁ئەکەم	-11509
▁تەلەف	-11510
▁کردوە	-11511
ategory	-11512
▁Mehmet	-11513
▁بیریان	-11514
▁دەبینن	-11515
▁كردوون	-11516
▁مرواری	-11517
▁ئەزموون	-11518
▁ئەوەشدا	-11519
▁pêşnîyar	-11520
▁تێگەیشتن	-11521
▁Avakirina	-11522
▁Guhertina	-11523
▁difikirim	-11524
▁hilbijêrî	-11525
▁operasyon	-11526
▁serkeftina	-11527
▁ئاگادارتان	-11528
DC	-11529
OK	-11530
apt	-11531
kiş	-11532
osa	-11533
ott	-11534
squ	-11535
ubl	-11536
îdê	-11537
زوو	-11538
ەکو	-11539
osph	-11540
êran	-11541
ریکی	-11542
▁Hon	-11543
▁Hyd	-11544
▁cre	-11545
▁eyn	-11546
▁fta	-11547
▁qay	-11548
▁sît	-11549
▁توخ	-11550
ekarî	-11551
etinê	-11552
iforn	-11553
welat	-11554
îstîk	-11555
▁Edît	-11556
▁HDPê	-11557
▁graf	-11558
▁kont	-11559
▁sade	-11560
▁weka	-11561
▁زیلی	-11562
▁پلان	-11563
▁کچان	-11564
▁	-11565
ه	-11566
ا	-11567
و	-11568
ی	-11569
ن	-11570
e	-11571
a	-11572
i	-11573
n	-11574
ر	-11575
r	-11576
ب	-11577
ت	-11578
د	-11579
ک	-11580
ە	-11581
ێ	-11582
ê	-11583
t	-11584
م	-11585
k	-11586
d	-11587
o	-11588
b	-11589
ئ	-11590
l	-11591
î	-11592
س	-11593
s	-11594
y	-11595
ل	-11596
m	-11597
ۆ	-11598
.	-11599
ش	-11600
h	-11601
خ	-11602
گ	-11603
u	-11604
ڕ	-11605
،	-11606
ز	-11607
پ	-11608
w	-11609
v	-11610
p	-11611
g	-11612
ڵ	-11613
û	-11614
j	-11615
,	-11616
c	-11617
چ	-11618
ş	-11619
z	-11620
(	-11621
)	-11622
x	-11623
ج	-11624
0	-11625
ك	-11626
f	-11627
1	-11628
:	-11629
S	-11630
E	-11631
D	-11632
2	-11633
-	-11634
P	-11635
ژ	-11636
B	-11637
ف	-11638
T	-11639
A	-11640
ق	-11641
C	-11642
M	-11643
N	-11644
ç	-11645
H	-11646
R	-11647
L	-11648
"	-11649
K	-11650
3	-11651
ح	-11652
5	-11653
q	-11654
G	-11655
4	-11656
!	-11657
I	-11658
V	-11659
ع	-11660
9	-11661
F	-11662
/	-11663
6	-11664
J	-11665
8	-11666
W	-11667
7	-11668
O	-11669
غ	-11670
؟	-11671
;	-11672
X	-11673
&	-11674
U	-11675
Y	-11676
Ç	-11677
'	-11678
%	-11679
_	-11680
Î	-11681
Z	-11682
ص	-11683
?	-11684
ى	-11685
ي	-11686
Q	-11687
=	-11688
Ş	-11689
ڤ	-11690
٠	-11691
[	-11692
]	-11693
“	-11694
”	-11695
ھ	-11696
–	-11697
@	-11698
$	-11699
Û	-11700
+	-11701
١	-11702
’	-11703
*	-11704
ı	-11705
•	-11706
»	-11707
Ê	-11708
°	-11709
؛	-11710
٢	-11711
ü	-11712
ط	-11713
#	-11714
\	-11715
٥	-11716
·	-11717
İ	-11718
٣	-11719
ـ	-11720
ö	-11721
ę	-11722
٩	-11723
٤	-11724
и	-11725
٦	-11726
а	-11727
©	-11728
€	-11729
«	-11730
٨	-11731
е	-11732
é	-11733
£	-11734
ث	-11735
٧	-11736
ة	-11737
о	-11738
‘	-11739
}	-11740
