<unk>	0
<s>	0
</s>	0
.	-2.77162
,	-4.09925
▁	-4.27796
ം	-4.51749
്	-4.58444
▁ഒരു	-4.95599
ു	-5.08464
?	-5.13455
ും	-5.23554
:	-5.30307
▁ഈ	-5.50754
യ	-5.53734
)	-5.59004
മ	-5.61915
യും	-5.66418
ി	-5.6873
;	-5.69142
▁ആ	-5.72148
▁(	-5.72818
ത	-5.73303
ത്	-5.73913
ാ	-5.75952
ക്ക	-5.79349
വ	-5.83021
സ്	-5.97148
വും	-5.99555
ന	-6.02264
െ	-6.04084
സ	-6.04211
േ	-6.0636
ര	-6.12076
▁ഞാന്‍	-6.1209
▁"	-6.14244
ക	-6.16286
ാണ്	-6.17323
-	-6.17789
▁അത്	-6.19124
ുന്നു	-6.21473
ുക	-6.22129
▁അവര്‍	-6.22497
▁നീ	-6.23794
!	-6.25888
ില്‍	-6.26711
റ	-6.27291
▁എന്റെ	-6.27897
▁ഞാൻ	-6.29306
ങ്ങള്‍	-6.30093
യുടെ	-6.30529
ക്ക്	-6.30714
ർ	-6.31614
മാണ്	-6.33549
▁അ	-6.3424
s	-6.34241
▁നിങ്ങളുടെ	-6.34464
ോ	-6.34693
ല	-6.35259
ത്ത	-6.37385
ാന്‍	-6.3772
ുന്ന	-6.37798
മായ	-6.38947
▁പറഞ്ഞു	-6.39568
്‍	-6.39829
▁തന്നെ	-6.40258
ാൻ	-6.41473
ന്‍	-6.42729
യാണ്	-6.42942
ില്ല	-6.43683
ിൽ	-6.4447
▁“	-6.45233
ൻ	-6.4533
▁നിങ്ങള്‍	-6.46754
ങ്ങൾ	-6.48899
▁എന്ന	-6.5013
ൽ	-6.51909
ുകയും	-6.51923
ൂ	-6.53188
▁ഇത്	-6.54916
▁-	-6.56894
ര്‍	-6.57209
▁നാം	-6.58503
ത്തില്‍	-6.58769
മായി	-6.6095
ണം	-6.64809
t	-6.70865
▁അവരുടെ	-6.7164
ാം	-6.73242
ല്‍	-6.73414
കള്‍	-6.74284
ത്തിന്റെ	-6.74295
കൾ	-6.74318
ുന്നത്	-6.74379
▁അല്ലാഹു	-6.75405
യെ	-6.76055
യില്‍	-6.76151
നി	-6.80493
ണ	-6.81028
▁എന്ന്	-6.81994
അ	-6.82185
▁ക	-6.82188
ുകൾ	-6.8279
▁എന്നാല്‍	-6.84144
ട	-6.84508
ത്തെ	-6.84678
▁നിങ്ങൾ	-6.85716
▁?	-6.89898
ിന്റെ	-6.90293
ത്തിൽ	-6.92396
ക്	-6.92538
▁അവന്‍	-6.93279
യിൽ	-6.9438
യോ	-6.95099
ള	-6.95494
g	-6.95867
▁അദ്ദേഹം	-6.95953
▁എല്ലാ	-6.97257
തു	-6.98145
"	-6.9901
▁നല്ല	-6.99334
▁നമ്മുടെ	-7.00289
ായി	-7.01868
▁വളരെ	-7.02439
ിയ	-7.03085
▁എന്നെ	-7.0341
▁‘	-7.0353
ായ	-7.03894
പ്പ	-7.03926
▁എനിക്ക്	-7.04288
▁നിന്ന്	-7.04405
▁'	-7.04719
'	-7.05567
ന്	-7.06589
പ	-7.06683
ുള്ള	-7.07058
ിലെ	-7.07459
ിരിക്കുന്നു	-7.09279
▁മ	-7.09976
▁എന്നു	-7.10672
▁ചെയ്തു	-7.10983
▁ഏറ്റവും	-7.12399
▁ഇ	-7.12866
ല്ല	-7.13289
ിച്ചു	-7.13902
ക്കു	-7.14254
ക്കും	-7.1439
ങ്ങളും	-7.15132
▁അവർ	-7.15903
▁അവരെ	-7.1683
▁ഇവിടെ	-7.16906
▁വലിയ	-7.17061
ത്തിന്	-7.18024
▁ചില	-7.19476
▁അങ്ങനെ	-7.20031
▁സ	-7.22001
ച്ച	-7.22768
.”	-7.25372
”	-7.25965
▁നിന്റെ	-7.26105
▁പോലെ	-7.27154
▁ത	-7.27633
ിനെ	-7.27644
ാല്‍	-7.28228
ീ	-7.28524
▁സ്	-7.28715
▁അതു	-7.29268
റ്റ	-7.30619
’	-7.30979
സി	-7.3334
▁ന	-7.33636
ട്ട	-7.33781
▁ചെയ്ത	-7.34774
യ്	-7.34781
യാ	-7.34851
▁പുതിയ	-7.35061
▁ആണ്	-7.3508
▁അവിടെ	-7.35141
▁വി	-7.35829
▁എ	-7.36916
വി	-7.37691
▁വഴി	-7.3805
ുകള്‍	-7.39356
യുള്ള	-7.39707
▁...	-7.40107
▁അവൻ	-7.40134
ഡ്	-7.40364
വര്‍	-7.40435
കളും	-7.40787
▁the	-7.40985
▁എന്നാൽ	-7.41864
ന്റെ	-7.42337
ായിരുന്നു	-7.42338
▁:	-7.4331
▁തന്റെ	-7.44217
▁ഓരോ	-7.44803
▁പക്ഷേ	-7.44854
▁&	-7.45172
മാ	-7.45282
(	-7.46081
▁നിങ്ങളെ	-7.46536
മോ	-7.47014
▁അവ	-7.4742
▁1	-7.47937
▁കാരണം	-7.48102
▁വേണ്ടി	-7.48282
▁പ	-7.48297
▁ഇനി	-7.48963
ിരുന്നു	-7.49293
▁പിന്നെ	-7.49306
▁എങ്ങനെ	-7.49439
ദ	-7.4956
▁ദിവസം	-7.49902
വര	-7.49986
▁മാത്രം	-7.50763
ഹ	-7.51081
പ്പെട്ട	-7.51489
ങ്ങളുടെ	-7.51709
താണ്	-7.5186
▁തീര്‍ച്ചയായും	-7.54562
▁അവന്റെ	-7.55161
▁പറയുന്നു	-7.55528
ിച്ച	-7.55706
▁ഞങ്ങളുടെ	-7.55725
▁നിന്നും	-7.56006
മുള്ള	-7.56098
ലി	-7.56463
▁19	-7.5687
▁of	-7.57095
▁പല	-7.57419
ശ	-7.5799
▁രണ്ടു	-7.5843
ിന്	-7.58725
."	-7.58789
▁ചെയ്യും	-7.59016
ൊരു	-7.59674
▁കൂടുതൽ	-7.59741
ഇ	-7.60257
▁പറഞ്ഞ	-7.60772
▁വീണ്ടും	-7.61013
റി	-7.61467
▁പക്ഷെ	-7.63009
y	-7.63109
▁വ	-7.63361
രുത്	-7.63691
നെ	-7.63747
▁ഇല്ല	-7.64013
തും	-7.64112
▁അവനെ	-7.64637
▁ഞങ്ങൾ	-7.64814
▁അടുത്ത	-7.65236
▁ഞാന	-7.65981
▁2	-7.668
▁ജോലി	-7.66856
▁കൊണ്ട്	-7.67115
യിലെ	-7.67782
▁എത്ര	-7.69138
ന്ന	-7.69189
e	-7.69886
ിക്ക	-7.70104
യായി	-7.70235
▁ഞങ്ങള്‍	-7.70338
ച	-7.70685
ാനും	-7.70954
ഡ	-7.71057
കളെ	-7.71097
റ്റ്	-7.71219
ുണ്ട്	-7.71235
ാത്ത	-7.71303
ണ്ട	-7.71305
▁പ്ര	-7.71312
▁അതിന്റെ	-7.71995
▁ചെയ്യുന്ന	-7.72248
ങ്ങളെ	-7.72333
▁ചെയ്യ	-7.72711
▁അത	-7.7409
▁കൈ	-7.74292
ജ	-7.74353
▁കഴിഞ്ഞ	-7.74487
ങ്ങ	-7.75117
ട്ടെ	-7.75376
ാതെ	-7.75393
▁എല്ലാം	-7.75972
▁ദൈവം	-7.76059
തി	-7.76074
കള	-7.76116
▁നി	-7.76157
ടി	-7.76326
▁കാണ	-7.7732
▁വരെ	-7.77352
▁ശേഷം	-7.77375
ാൽ	-7.7748
കളുടെ	-7.77605
▁നിന്നെ	-7.77678
▁വര	-7.78078
▁കൂടി	-7.78103
▁ദൈവ	-7.78185
al	-7.78257
▁കൂടുതല്‍	-7.78562
ൊ	-7.7862
▁സമയം	-7.78711
▁നിങ്ങള്‍ക്ക്	-7.79178
▁അവര്‍ക്ക്	-7.79231
ത്ത്	-7.80102
▁അപ്പോള്‍	-7.8036
▁കഥ	-7.80412
▁കാര്യം	-7.80571
എ	-7.80643
ുമോ	-7.81094
നം	-7.81128
ുമ്പോള്‍	-7.81341
▁ഇതു	-7.82363
▁നമുക്ക്	-7.826
ഗ	-7.82849
▁സത്യം	-7.83226
▁എന്‍റെ	-7.8323
ുടെ	-7.8323
▁3	-7.83433
ഷ	-7.84428
▁/	-7.84534
ങ്ങളില്‍	-7.84744
ഴ	-7.84885
▁ആദ്യ	-7.85076
▁എന്താണ്	-7.85181
▁ചെയ്യുന്നു	-7.85208
er	-7.86323
ിട്ടുണ്ട്	-7.86871
ത്തി	-7.87322
ിട്ടില്ല	-7.87516
▁സി	-7.87696
ത്തിനു	-7.87735
▁വന്ന	-7.87736
വരെ	-7.87979
പി	-7.88351
തന്നെ	-7.88616
നാ	-7.88967
ൈ	-7.89888
▁ശിക്ഷ	-7.90005
ബ	-7.9028
▁ഹ	-7.9047
▁to	-7.90692
▁യാത്ര	-7.90704
മല്ല	-7.91044
▁ഇന്ന്	-7.91212
മായിരുന്നു	-7.9211
മി	-7.92145
▁5	-7.92181
യ്ക്ക്	-7.92242
ബി	-7.92533
n	-7.92784
ദ്	-7.92875
ുന്നില്ല	-7.93127
▁ച	-7.93133
രി	-7.93203
/	-7.93426
മില്ല	-7.93792
▁അല്ല	-7.93838
നായ	-7.93885
പ്പോള്‍	-7.94412
ില	-7.94613
മ്മ	-7.94943
വന്‍	-7.9495
▁ഉണ്ട്	-7.95138
▁പോയി	-7.9555
വാ	-7.95559
▁രണ്ട്	-7.95572
▁തന്നെയാണ്	-7.95638
പ്ര	-7.95811
▁ഉ	-7.96165
പ്	-7.96665
ര്	-7.96872
ാലും	-7.97227
നും	-7.9764
▁പറയ	-7.9787
▁ചെയ്യുക	-7.97957
▁കൂടെ	-7.9814
ഡി	-7.98366
▁വാ	-7.98721
▁P	-7.99165
▁അല്ലെങ്കിൽ	-7.99199
▁ഒരിക്കലും	-7.99204
ed	-7.99481
െങ്കിലും	-7.99595
▁ഉള്ള	-7.99825
▁ഓ	-7.99998
േണ്ട	-8.00013
▁അതിനാല്‍	-8.00114
വർ	-8.00179
▁S	-8.00299
വ്	-8.00774
▁എന്തു	-8.00815
▁മറ്റൊരു	-8.00998
ുകയാണ്	-8.01041
ുകയില്ല	-8.01194
▁ഇപ്പോൾ	-8.01283
ിലും	-8.01356
▁A	-8.01538
ിലേക്ക്	-8.01638
ing	-8.01807
ിക	-8.02015
▁കഴിയും	-8.0203
▁ഇങ്ങനെ	-8.02346
▁നിങ്ങൾക്ക്	-8.02378
▁വില	-8.02431
▁നന്ദി	-8.02818
f	-8.03005
▁വന്നു	-8.03074
യില്ല	-8.03256
▁!	-8.0332
▁പോലും	-8.03349
▁10	-8.03516
▁കണ്ട	-8.03809
▁ചെറിയ	-8.04528
ങ്ക	-8.04615
▁4	-8.04835
ൺ	-8.05163
▁and	-8.05735
▁ഇട	-8.0626
▁ഇപ്പോള്‍	-8.06301
ത്തു	-8.06462
▁എവിടെ	-8.06518
▁C	-8.06996
▁ഒന്നും	-8.0707
a	-8.07132
▁കാല	-8.07242
ിംഗ്	-8.07279
യില	-8.07344
ച്ചു	-8.07354
▁അതിനെ	-8.07668
ിക്കുന്ന	-8.07793
▁–	-8.08205
▁”	-8.08417
ുമ്പോൾ	-8.087
▁അവൾ	-8.08787
▁പിന്നീട്	-8.088
▁വേണം	-8.09017
ൾ	-8.09433
മുണ്ട്	-8.097
▁ബ	-8.09726
യി	-8.10056
▁അതില്‍	-8.10082
▁പി	-8.10255
ുകളും	-8.10768
▁മികച്ച	-8.11025
▁ഏറെ	-8.1139
രു	-8.11448
in	-8.11556
താ	-8.11655
▁തങ്ങളുടെ	-8.12183
▁സത്യ	-8.12515
ോട്	-8.12856
യായിരുന്നു	-8.12947
ാണോ	-8.13107
ബ്	-8.13221
▁''	-8.13257
ക്കി	-8.13544
▁in	-8.13687
ുവാന്‍	-8.13774
▁എനിക്കു	-8.14115
▁മറ്റു	-8.14279
▁പറയുക	-8.14314
മ്പ	-8.1452
?”	-8.14587
ിരുന്ന	-8.14676
ഗ്	-8.1479
മേ	-8.14839
ആ	-8.1522
▁സ്വന്തം	-8.15285
▁ഇവ	-8.15323
▁അവര	-8.15413
ിനു	-8.1547
▁എല്ലാവരും	-8.15605
▁അമ്മ	-8.15612
▁കണ്ടു	-8.15773
D	-8.15814
▁നിനക്ക്	-8.15889
ന്‍റെ	-8.15933
o	-8.16402
നീ	-8.16566
ഫ	-8.16611
▁സ്വയം	-8.16639
▁ഗ	-8.17117
▁F	-8.17594
▁കോ	-8.17607
A	-8.17625
▁a	-8.17798
ജി	-8.17971
▁മു	-8.18206
റിയ	-8.1889
▁ആദ്യം	-8.18983
▁രൂപ	-8.18984
ങ്ങളിൽ	-8.19085
ലാ	-8.19262
▁തല	-8.19798
C	-8.19848
▁അവള്‍	-8.20165
▁ചോദിച്ചു	-8.20536
▁എനിക്ക	-8.21152
]	-8.21293
c	-8.2135
▁രാത്രി	-8.21608
ഭ	-8.22001
▁നിങ്ങള	-8.22359
ഷ്	-8.22454
▁ശ	-8.22506
▁മറുപടി	-8.22627
▁B	-8.23076
▁ആയിരുന്നു	-8.23094
നു	-8.23162
▁അതിനു	-8.23259
p	-8.23461
കര	-8.23755
െന്ന്	-8.23832
m	-8.23915
ുമായി	-8.23979
യായ	-8.24033
▁നിയമ	-8.25094
ar	-8.25192
▁മുമ്പ്	-8.25193
▁ട	-8.25287
▁ജീവിതം	-8.26214
▁ഇത	-8.26499
നുള്ള	-8.2653
▁മാ	-8.26581
▁അല്ലാഹുവിന്റെ	-8.26618
കളില്‍	-8.26641
P	-8.27183
S	-8.27439
▁മാറ്റ	-8.27585
▁തീ	-8.27616
▁പ്രധാന	-8.27954
▁നില	-8.28227
▁ചോദ്യം	-8.28229
▁ല	-8.28301
▁നിന്നു	-8.285
▁6	-8.28755
▁അവളുടെ	-8.28973
3	-8.29064
▁പോക	-8.29214
▁കുടുംബ	-8.29225
ലെ	-8.29383
▁സിനിമ	-8.29403
▁എന്ത്	-8.2969
▁പോയ	-8.2996
▁മാത്രമാണ്	-8.30141
d	-8.30144
ഫ്	-8.30458
പ്പ്	-8.30474
▁പറയും	-8.30507
2	-8.30831
▁ഒ	-8.30848
▁നോക്ക	-8.30931
amp	-8.31087
▁നന്നായി	-8.31218
ട്ടി	-8.31267
▁പറയുന്നത്	-8.31276
പ്പെട	-8.31333
ള്‍	-8.31656
ിട	-8.31853
1	-8.3201
▁വരും	-8.32378
പ്പോൾ	-8.32507
▁അതിന്	-8.32588
▁ഏ	-8.32632
▁ഐ	-8.32711
▁ആരും	-8.32714
ിരിക്കുന്നത്	-8.32835
കൊണ്ട്	-8.32862
ല്ലോ	-8.33039
ായിരിക്കും	-8.33301
T	-8.33483
ന്നു	-8.33484
യല്ല	-8.33611
▁പാ	-8.33638
▁സു	-8.33743
▁T	-8.33828
.’	-8.34107
?"	-8.34289
ാര	-8.34539
ുന്നതിന്	-8.34608
▁പോ	-8.34832
ിത	-8.34864
▁അല്ലെങ്കില്‍	-8.34991
▁നിന്ന	-8.35037
I	-8.35099
▁മാത്രമേ	-8.35153
▁7	-8.35363
▁_	-8.35413
▁എപ്പോഴും	-8.35928
▁എന്നും	-8.36055
പോലെ	-8.3606
▁ഇത്തരം	-8.36119
5	-8.36226
▁ലോക	-8.36249
ിക്കുന്നു	-8.36265
▁കളി	-8.36541
▁മൂന്നു	-8.3655
▁ജീവിത	-8.36651
r	-8.36917
▁മത	-8.3694
ുമെന്ന്	-8.36955
▁നോക്കി	-8.36976
ുന്നതാണ്	-8.37247
ണ്‍	-8.37886
▁ഞാനും	-8.37931
▁വേണ്ട	-8.37993
l	-8.38095
▁മരണ	-8.38526
▁ഞങ്ങളെ	-8.38694
▁8	-8.38792
തിന്	-8.3906
ൗ	-8.39261
▁M	-8.39509
▁പറയുന്ന	-8.39573
4	-8.39888
▁ഒന്ന	-8.40069
▁ശരി	-8.40404
▁എന്നത്	-8.40529
ല്	-8.40583
re	-8.4063
▁എങ്കിലും	-8.40672
ാകുന്നു	-8.40677
ത്തോടെ	-8.40809
le	-8.4081
▁വെ	-8.40854
ണി	-8.41219
▁കമ്പനി	-8.41952
ിരിക്കുന്ന	-8.41998
വേ	-8.42131
‍	-8.42308
▁കാ	-8.42326
▁ഒരേ	-8.42328
▁ആയി	-8.4241
ളി	-8.42501
▁ബി	-8.4283
ത്തിന്‍റെ	-8.43142
▁കൂട്ട	-8.43512
▁18	-8.43631
ഞ്ഞ	-8.4364
▁റ	-8.43737
തായി	-8.43906
രെ	-8.43976
▁കു	-8.44207
an	-8.44245
യുണ്ട്	-8.44255
ുമായിരുന്നു	-8.44434
തില്‍	-8.44693
കു	-8.44926
▁സാധാരണ	-8.4503
▁അയാള്‍	-8.45384
b	-8.45519
▁12	-8.45617
M	-8.45619
▁ജന	-8.45874
▁ജ	-8.45945
▁മാത്രമല്ല	-8.4601
വരും	-8.46555
▁മതി	-8.46912
ൊക്കെ	-8.47041
▁ചൈന	-8.47312
▁പേര്	-8.4735
▁അറിയ	-8.4753
▁തുടങ്ങി	-8.48052
പ്പെട്ടു	-8.48318
▁E	-8.4857
ാവ	-8.48573
▁എന്നാണ്	-8.48695
ത്തിലും	-8.48801
lt	-8.48885
▁നല്‍കിയ	-8.48928
▁മി	-8.48997
റ്റി	-8.49099
▁9	-8.49199
▁തന്ന	-8.49238
O	-8.49318
▁എന്നിവ	-8.49404
▁G	-8.49476
ഖ	-8.49578
▁ബന്ധ	-8.49673
▁c	-8.49856
▁കാര്യങ്ങള്‍	-8.49947
▁ശക്തി	-8.50279
ുകയോ	-8.50481
▁മെ	-8.50674
▁പഴയ	-8.5068
th	-8.50724
▁പണം	-8.50819
E	-8.50992
ക്കാ	-8.51135
or	-8.51413
ിട്ട	-8.51545
▁രാജ്യ	-8.51716
▁കുറച്ചു	-8.51993
ല്ലേ	-8.52045
യർ	-8.52236
▁വേദന	-8.52419
▁I	-8.5263
▁നിന്‍റെ	-8.52654
ട്ട്	-8.52819
ാണ	-8.52843
▁തിരിച്ചു	-8.52873
▁കട	-8.5313
▁അവന	-8.53147
▁അവസാന	-8.53258
നായി	-8.53298
ഹ്	-8.5344
▁അതെ	-8.53577
ിട്ടു	-8.53734
▁വെള്ളം	-8.5389
%	-8.53896
▁കേട്ട	-8.53983
ക്ഷ	-8.53985
▁ഇവര്‍	-8.54066
▁സ്വീകരിക്ക	-8.54102
▁H	-8.54207
▁വര്‍ഷം	-8.54287
രാ	-8.5432
▁യേശു	-8.54437
▁നമ്മള്‍	-8.54601
▁നടക്ക	-8.54765
▁തവണ	-8.54824
B	-8.54855
▁ഒര	-8.54971
യിലേക്ക്	-8.54976
▁സെ	-8.55258
െങ്കില്‍	-8.55604
▁ഡി	-8.55693
▁ഭാഷ	-8.55801
00	-8.55947
ുന്നതും	-8.56064
▁കുറിച്ച്	-8.56486
കാര	-8.5658
▁കാര്യ	-8.56896
i	-8.5694
▁പറഞ്ഞത്	-8.57116
ക്കായി	-8.5714
▁വർഷം	-8.57172
ത്തിനും	-8.5737
▁ഉത്തരം	-8.57392
▁അതുകൊണ്ട്	-8.57593
▁സ്ത്രീ	-8.57796
▁എന്തെങ്കിലും	-8.58083
▁സാ	-8.58182
▁ൽ	-8.5825
▁തര	-8.5834
▁അതേ	-8.58448
തല്ല	-8.58535
▁15	-8.58541
▁അതാണ്	-8.58643
ur	-8.58659
▁20	-8.5879
▁താങ്കള്‍	-8.58857
നോ	-8.58894
.''	-8.58917
L	-8.58972
ന്ന്	-8.59007
▁ചെയ്യുന്നത്	-8.59044
▁ബാ	-8.59208
തര	-8.59332
▁അവസ്ഥ	-8.5936
ുന്നുണ്ട്	-8.59676
▁സ്വ	-8.59954
▁മറ്റ്	-8.60083
ിട്ട്	-8.60097
ഥ	-8.60112
മാര	-8.60204
ാക്ക	-8.60259
സ്റ്റ	-8.60295
▁അവളെ	-8.60298
▁is	-8.60384
ക്കോ	-8.60428
▁കുട്ടി	-8.6044
▁മാറി	-8.61003
▁കൊടുക്ക	-8.61105
ണ്ണ	-8.61131
വര്‍ക്ക്	-8.61318
▁D	-8.6138
▁ദ	-8.6142
▁വിശ്വാസ	-8.61566
▁അദ്ദേഹത്തിന്റെ	-8.61683
ന്ത	-8.61772
▁വിട	-8.61801
നേ	-8.61817
ധ	-8.61862
രുടെ	-8.61871
▁അത്ര	-8.62167
ത്തിലേക്ക്	-8.62373
▁ലെ	-8.62393
▁സമയ	-8.62466
മെ	-8.62474
▁ഉപയോഗിക്ക	-8.62599
നാണ്	-8.62776
ുവാൻ	-8.62975
സാ	-8.63017
▁ഭക്ഷണം	-8.63056
രിക്ക	-8.63394
▁നമ്മെ	-8.63557
▁ഏതു	-8.63616
▁ഭൂമി	-8.63702
യേ	-8.63747
▁for	-8.63748
ുകളുടെ	-8.63885
തെന്ന്	-8.63994
▁വേറെ	-8.64038
ിച്ച്	-8.64175
വരുടെ	-8.64204
െല്ലാം	-8.64397
▁ദിവസ	-8.64481
്റെ	-8.64702
▁ആരോഗ്യ	-8.64918
▁നിനക്കു	-8.65034
▁മാസ	-8.65069
▁ചോദിക്ക	-8.65141
▁പലപ്പോഴും	-8.65154
▁യാതൊരു	-8.65209
െയും	-8.65221
തോ	-8.65344
▁അല	-8.65404
▁ഹാ	-8.6542
▁പരസ്പരം	-8.65492
▁കിട്ട	-8.65586
▁പ്രതി	-8.65593
▁വരുന്ന	-8.65651
ഉ	-8.65683
ാവുന്ന	-8.65704
▁മൂന്ന്	-8.65798
യിലും	-8.65806
▁പലരും	-8.66023
▁f	-8.66033
▁നല്‍ക	-8.66123
േണ്ടത്	-8.66302
▁ശരിക്കും	-8.66304
it	-8.6655
ിക്കുക	-8.66615
▁മാറ	-8.66952
ുകയായിരുന്നു	-8.67003
8	-8.67038
▁എടുക്ക	-8.67088
at	-8.67097
▁സാക്ഷി	-8.67234
▁അതോ	-8.67461
കളിൽ	-8.67678
en	-8.67894
▁പേര	-8.68048
▁മര	-8.68077
ച്ച്	-8.68301
ഈ	-8.68449
▁വിളിച്ചു	-8.68485
ള്ള	-8.6889
▁കൂടാതെ	-8.6902
ജന	-8.69169
ിയത്	-8.69217
▁മനുഷ്യ	-8.69314
ch	-8.69464
പ്പെടുന്ന	-8.69552
▁11	-8.69559
▁ഇതാണ്	-8.69596
ാണു	-8.69639
▁ഇന്ത്യ	-8.69659
ീയ	-8.69731
▁നാമ	-8.69789
ക്കുന്ന	-8.69852
▁കെ	-8.69932
ic	-8.70016
ലോ	-8.70086
▁ചിന്ത	-8.70157
ക്കുള്ള	-8.70357
▁ഫ	-8.70598
യോടെ	-8.70644
▁ഉണ്ടായിരുന്നു	-8.70701
പ്പി	-8.70712
▁പരി	-8.70744
▁മുതൽ	-8.70788
ation	-8.70793
വോ	-8.70823
▁p	-8.7085
▁അതിന	-8.7091
▁ചെയ്യാൻ	-8.70933
es	-8.70934
▁ഉണ്ടാക്ക	-8.71004
▁വിവാഹം	-8.71069
▁ലഭിക്ക	-8.71112
▁യഹോവ	-8.71115
രോ	-8.7116
▁ഏത്	-8.71209
രായ	-8.71356
▁വിശ്വസിക്ക	-8.71518
ഞാന്‍	-8.71652
കൊണ്ടു	-8.71858
▁നാ	-8.71948
on	-8.71973
▁ഇപ്പോഴും	-8.71978
▁നേരെ	-8.72054
▁വിജയ	-8.72233
▁കഴിക്ക	-8.72308
ാണെന്ന	-8.72308
ങ്ങളാണ്	-8.72405
▁ആക	-8.72559
▁ഇതാ	-8.72673
▁ഒന്ന്	-8.72853
െന്ന	-8.72883
u	-8.72998
▁മല	-8.7321
ൊന്നു	-8.73405
ിലൂടെ	-8.73494
▁ഒരുപാട്	-8.73584
''	-8.73607
▁പര	-8.73667
▁ദൈവത്തിന്റെ	-8.73712
▁പകരം	-8.73749
▁നമ്മൾ	-8.73849
▁സമ	-8.73875
▁b	-8.7394
▁ആകാശ	-8.74005
▁ആരാണ്	-8.74334
▁തോ	-8.744
▁[	-8.74451
▁ചിത്ര	-8.74463
▁കൊല്ല	-8.74576
▁ലോകം	-8.74719
▁ഇനിയും	-8.74721
ല്യ	-8.74721
▁ആരെങ്കിലും	-8.74835
▁വെള്ള	-8.74864
ad	-8.74883
▁സൃഷ്ടി	-8.74906
▁W	-8.75008
▁വിവാഹ	-8.75016
എന്റെ	-8.75179
!!	-8.75299
▁ഭാര്യ	-8.75318
ത്തന്നെ	-8.75344
▁നാളെ	-8.7543
▁കാണാം	-8.75511
കളാണ്	-8.75638
േക്കാം	-8.75756
▁ആവശ്യ	-8.75832
വെ	-8.75891
▁പ്രവര്‍ത്തിക്ക	-8.75907
▁അവകാശ	-8.75989
▁അന്ന്	-8.75996
വുമായി	-8.7606
7	-8.76106
▁താഴെ	-8.76142
വന	-8.76155
▁പണി	-8.76164
എസ്	-8.76186
▁ജി	-8.76285
▁നിന്നുള്ള	-8.76401
▁ധാരാളം	-8.76456
▁തു	-8.76514
▁പാട	-8.76544
▁പദ്ധതി	-8.76678
▁മഹാ	-8.76773
ിരുന്നില്ല	-8.77033
പ്പോ	-8.77038
▁വെറും	-8.7716
▁ഉണ്ടാക	-8.77202
െന്നു	-8.7728
et	-8.77357
▁രാവിലെ	-8.77387
▁അയാൾ	-8.77443
▁സന്തോഷ	-8.77468
6	-8.77521
ഞ്ച	-8.77638
▁അനുഭവ	-8.77763
▁കര	-8.77795
▁കാലം	-8.78146
ത്ര	-8.78193
▁തോന്നി	-8.78486
്യം	-8.78696
▁തെറ്റ	-8.78719
ുണ്ടോ	-8.78874
▁ദിവസവും	-8.79037
▁അപ്പ	-8.7915
▁അവന്‍റെ	-8.79178
▁സമയത്ത്	-8.79214
ിട്ടുള്ള	-8.79552
▁കഴിയ	-8.79632
▁എന്ത	-8.80109
്യൂ	-8.80124
▁വ്യക്തി	-8.80674
▁വല്ല	-8.8073
▁നഗര	-8.80891
▁നബി	-8.80896
▁അനു	-8.80989
▁എന്നിട്ട്	-8.81136
▁ലി	-8.81227
▁മാസം	-8.81373
▁തോന്നുന്നു	-8.81498
▁മഴ	-8.81749
▁ശരിയായ	-8.81792
ങ്ങളിലും	-8.82132
G	-8.82185
▁നടന്ന	-8.82281
▁സാധ്യത	-8.82327
▁അറിയാം	-8.82582
w	-8.82633
ാക	-8.82728
ിക്കുകയും	-8.82733
▁താങ്കളുടെ	-8.82779
▁ഒന്നു	-8.82882
▁ഏക	-8.82923
▁എഴുത	-8.83072
▁പെ	-8.83108
പ്പെടുത്ത	-8.8318
▁L	-8.83212
ണ്ട്	-8.83266
്‍ക്ക്	-8.83304
h	-8.83388
▁എം	-8.83399
ol	-8.83399
▁വാങ്ങ	-8.83401
▁വിധി	-8.83409
▁കൊ	-8.83521
ോടൊപ്പം	-8.83578
▁പ്രകാരം	-8.83587
ത്രെ	-8.83602
▁ചെയ്തത്	-8.83658
▁മരിക്ക	-8.83839
▁കുറഞ്ഞ	-8.83937
▁ആകുന്നു	-8.84101
കാല	-8.84166
യാണോ	-8.84208
▁ചെയ്യാന്‍	-8.84241
▁നമുക്ക	-8.84241
▁പ്രശ്	-8.84277
▁പ്രത്യേക	-8.84541
തെല്ലാം	-8.84564
▁ചിത്രം	-8.84584
▁പുസ്തക	-8.84594
▁കൊടുത്ത	-8.84632
ാള	-8.84658
▁നടത്ത	-8.84711
ഹി	-8.84866
▁കഴിയില്ല	-8.85046
▁എത്ത	-8.85231
R	-8.8534
▁ഭക്ഷണ	-8.85412
▁N	-8.85523
▁നീതി	-8.85602
ter	-8.8575
ാറില്ല	-8.85826
▁കൊണ്ടു	-8.85871
▁അപ്പോൾ	-8.85892
രേ	-8.85985
▁re	-8.86026
▁അവസാനം	-8.86079
▁ഞങ്ങള	-8.8619
▁14	-8.86271
▁ഇതില്‍	-8.86401
ഞ്ഞു	-8.86417
▁ലഭിച്ച	-8.86422
യൊക്കെ	-8.86426
ion	-8.86481
▁അതിനാൽ	-8.86485
▁ഖുര്‍ആന്‍	-8.8664
▁ആർ	-8.86679
▁16	-8.86683
▁അതി	-8.8679
ാനാണ്	-8.86799
▁നന്മ	-8.86984
േണമേ	-8.87108
▁രീതി	-8.87128
▁w	-8.87134
▁വായിച്ച	-8.8733
ാക്കി	-8.87584
▁The	-8.87594
▁17	-8.87803
▁അഥവാ	-8.87986
ില്ലേ	-8.88008
▁കുടിക്ക	-8.88111
9	-8.88206
▁മരിച്ച	-8.88207
▁ആദ്യത്തെ	-8.88232
▁സൃഷ്ടിച്ച	-8.88373
▁സ്ഥല	-8.88381
ഒരു	-8.8842
▁നല്‍കി	-8.88421
▁വ്യക്തമായ	-8.88456
ടെ	-8.88654
ുന്നതു	-8.88655
ണമെന്ന്	-8.88675
▁നിനക്ക	-8.88719
ക്കുക	-8.88803
ിപ്പിച്ചു	-8.88832
▁വര്‍ഷ	-8.8884
▁മുഴുവന്‍	-8.88864
▁you	-8.88883
ോടു	-8.88913
el	-8.8897
ra	-8.8903
പോ	-8.89082
▁കിട്ടിയ	-8.89268
ണോ	-8.89271
▁മനസ്സിലാക്ക	-8.89274
▁അധികം	-8.89416
F	-8.89611
ലോക	-8.89651
▁കൊണ്ട	-8.89667
▁ഒറ്റ	-8.89691
ഹാ	-8.89736
▁കാണുന്ന	-8.89738
▁ഇഷ്ട	-8.89806
ദ്ധ	-8.89816
▁ഏതെങ്കിലും	-8.89931
▁കാഴ്ച	-8.89966
ക്സ്	-8.90047
▁സംശയ	-8.90137
വൻ	-8.90255
ല്ലാതെ	-8.90257
▁അറിവ	-8.90374
▁13	-8.90497
ംഗ	-8.90527
പാ	-8.90759
തുപോലെ	-8.90766
▁യുദ്ധ	-8.90821
ച്	-8.90822
[	-8.90851
▁ലാ	-8.90953
▁വിളിക്ക	-8.90983
▁ഇന്ന	-8.91
▁അദ്ദേഹത്തെ	-8.9126
▁സുഖ	-8.9129
▁തന്‍റെ	-8.913
▁ഫല	-8.91421
▁രോഗ	-8.91433
▁അനുഗ്രഹ	-8.9145
▁കവിത	-8.9149
മാകുന്നു	-8.91597
▁പാപ	-8.91634
തിനു	-8.91648
ജ്	-8.91703
▁കാര്യങ്ങൾ	-8.9173
0	-8.91782
ത്തിലാണ്	-8.9184
തെ	-8.91904
ത്തിനായി	-8.91922
▁ജോ	-8.92023
▁വരുത്ത	-8.92086
▁ചോദിച്ച	-8.92124
കള്‍ക്ക്	-8.92126
▁ഭാഗ	-8.92236
▁വ്യത്യസ്ത	-8.9238
▁ഒപ്പം	-8.92493
▁30	-8.92514
▁താ	-8.92515
കരമായ	-8.92529
▁ശ്രദ്ധ	-8.92569
▁പ്രതീക്ഷ	-8.92579
▁അറിയില്ല	-8.92613
▁പുറത്തു	-8.92645
കാ	-8.92726
ദി	-8.92865
ri	-8.92914
ിലാണ്	-8.9313
▁O	-8.93141
▁തോന്ന	-8.93188
ro	-8.93213
▁K	-8.933
▁എഴുതിയ	-8.93339
ബാ	-8.93369
▁രാഷ്ട്രീയ	-8.93371
▁ഹൃദയ	-8.93507
ാല	-8.93613
ിക്കും	-8.93768
വുമായ	-8.9386
▁പൂ	-8.94105
▁ഉണ്ടായിരുന്ന	-8.94107
ിപ്പിച്ച	-8.94128
▁മരണം	-8.94222
സ്റ്റ്	-8.94301
20	-8.94338
▁വേ	-8.94521
N	-8.94558
▁ഇതുവരെ	-8.94594
▁തുടങ്ങിയ	-8.94805
▁പുസ്തകം	-8.94928
H	-8.95018
▁തുടങ്ങ	-8.95111
▁സംസാരിക്ക	-8.95118
▁നാലു	-8.95225
മാണോ	-8.95639
▁ഭാഗം	-8.9567
▁നിങ്ങള്‍ക്കു	-8.95697
ദ്ര	-8.95724
ര്‍ത്ത	-8.95913
▁നെ	-8.95927
▁നിരവധി	-8.95942
;&	-8.96054
▁»	-8.96314
▁ടി	-8.96385
▁ഉപയോഗിച്ച്	-8.96461
▁ഉയർന്ന	-8.96549
ിന	-8.96587
ാകും	-8.96617
ട്	-8.96659
▁ഇത്ര	-8.96714
ൌ	-8.96859
▁രക്ഷ	-8.96975
ഒ	-8.97014
യുമായി	-8.97055
▁ബെ	-8.97085
▁അവന്	-8.97101
▁ഏകദേശം	-8.97131
▁വരുന്നു	-8.97145
▁സഹായം	-8.97193
യിലാണ്	-8.97205
▁നിര	-8.97409
ുണ്ടായിരുന്നു	-8.9755
വരാണ്	-8.97611
▁സമാധാനം	-8.97663
x	-8.97705
▁സംഭവ	-8.97921
▁ചാ	-8.97926
▁നട	-8.97953
▁പ്രണയ	-8.97954
പ്പെടുന്നു	-8.98031
പ്പെടും	-8.98056
▁സംഭവം	-8.98093
▁ഖ	-8.98113
▁എന്നതാണ്	-8.98132
▁വീട്	-8.98525
റോ	-8.98646
▁മുഖ	-8.98649
▁അവരില്‍	-8.9865
▁യു	-8.9866
▁എന്താ	-8.98743
േണ്ടി	-8.98809
▁നേരത്തെ	-8.989
ുകളിൽ	-8.9891
ത്തിന	-8.98922
▁തിരിച്ചറിയ	-8.98951
ിനും	-8.98977
▁പു	-8.99025
▁അവരോട്	-8.99104
ടാ	-8.99195
▁കുറച്ച്	-8.99276
▁കേന്ദ്ര	-8.99305
ുകളെ	-8.99419
▁സഹായിക്ക	-8.99474
▁കുറെ	-8.99492
▁ഭൂമിയില്‍	-8.99492
▁അടിസ്ഥാന	-8.9953
▁മേല്‍	-8.99702
ഫി	-8.99794
ലും	-8.99803
ാറുണ്ട്	-8.99842
▁ദിന	-8.99935
▁ഭയ	-9.00006
ികള്‍	-9.00017
10	-9.00057
▁വൈ	-9.00332
▁ആഴ്ച	-9.00358
▁തീരുമാന	-9.00372
▁ബോക്സ്	-9.00415
▁വാഗ്ദാനം	-9.00418
വുമില്ല	-9.00503
ടു	-9.00524
▁താന്‍	-9.00574
▁അയാളുടെ	-9.00582
▁നൽക	-9.0071
ഞാൻ	-9.00875
യോട്	-9.01147
ly	-9.01258
▁രാജ	-9.01293
▁ശതമാനം	-9.01327
▁വിശുദ്ധ	-9.01336
▁അതുപോലെ	-9.01339
▁ബന്ധപ്പെട്ട	-9.01534
▁കേള്‍ക്ക	-9.01642
▁സ്നേഹ	-9.01724
▁ആഗ്രഹിക്കുന്ന	-9.01846
▁കണ്ടെത്ത	-9.01919
യിട	-9.02085
▁വീഡിയോ	-9.02232
▁എസ്	-9.02245
▁സംസ്ഥാന	-9.02337
ിരുന്നത്	-9.02473
▁മുറി	-9.02514
വനെ	-9.0267
▁ബാക്കി	-9.02777
▁J	-9.02808
▁സം	-9.02945
എന്ന	-9.02946
▁വായിക്ക	-9.02965
▁ചെയ്	-9.02997
▁പറ്റി	-9.03012
َ	-9.03107
k	-9.0324
▁പഴ	-9.03257
തിന്റെ	-9.03468
ിങ്	-9.0349
▁എടുത്തു	-9.03531
▁സകല	-9.0355
▁start	-9.03594
▁പ്രതിഫലം	-9.03663
▁സ്ഥലം	-9.04172
▁പേരില്‍	-9.04214
▁തരം	-9.04353
ിലുള്ള	-9.04449
▁കാര്യത്തില്‍	-9.04469
▁മുഖം	-9.04589
▁പൊ	-9.04755
ന്റ്	-9.04864
ാതിരിക്ക	-9.04877
റെ	-9.05054
▁എന്നോട്	-9.0511
▁be	-9.05177
▁കാണാൻ	-9.05252
ക്കുന്നു	-9.05388
▁കരുത	-9.05526
▁കല	-9.05542
▁അതും	-9.0557
▁വിവരങ്ങൾ	-9.05614
▁കേരള	-9.0563
▁മുഴുവൻ	-9.05638
ശ്	-9.05642
▁കൂട	-9.05686
▁കുറവ	-9.05733
ുകളില്‍	-9.058
▁25	-9.05832
വല	-9.05893
▁പരാതി	-9.05953
W	-9.06038
ങ്	-9.06072
▁ഭാവി	-9.06181
▁ഡോ	-9.06222
▁dur	-9.0628
മായിരിക്കും	-9.06392
▁ഇതിന്റെ	-9.06447
മാര്‍	-9.06465
▁ലോ	-9.06491
▁സഭ	-9.06547
▁എന്നിട്ടും	-9.06655
▁ആര	-9.06693
▁വിവിധ	-9.06781
▁അതായത്	-9.06886
▁അദ്ദേഹത്തിന്	-9.06894
▁റി	-9.0695
▁കാണിക്ക	-9.07023
est	-9.07097
ഘ	-9.07191
▁മുതല്‍	-9.07411
▁കാണാന്‍	-9.07445
അല്ലാഹു	-9.07475
ir	-9.07497
▁നല്‍കുന്ന	-9.07534
ാനാവില്ല	-9.07591
▁Re	-9.07596
▁കൂട്ടുകാര	-9.07654
▁വീട്ടിൽ	-9.07741
▁അമേരിക്ക	-9.07768
▁സ്വതന്ത്ര	-9.08076
▁പഠിപ്പിക്ക	-9.08128
▁കഴിഞ്ഞു	-9.08209
▁സംരക്ഷിക്ക	-9.0834
▁തുറക്ക	-9.08357
നിന്നു	-9.08363
▁വിട്ടു	-9.08376
▁മനുഷ്യന്‍	-9.08453
▁ചിലര്‍	-9.0853
▁പറ	-9.08607
ശേഷം	-9.08693
മാർ	-9.08715
മാണെന്ന്	-9.0872
▁റോ	-9.08763
▁R	-9.08862
▁കഴിയുന്ന	-9.09017
▁മൂ	-9.09043
ക്കാര്‍	-9.09123
ിട്ടും	-9.09138
▁തീര	-9.09148
റാ	-9.09162
is	-9.09164
▁പ്രവർത്തിക്ക	-9.09232
▁കേൾക്ക	-9.09313
ാമോ	-9.09396
▁അതിൽ	-9.09514
▁അധിക	-9.0953
▁കുറ്റ	-9.0961
▁h	-9.09661
▁ചരിത്ര	-9.0969
കോ	-9.09702
മീ	-9.09798
▁തടയ	-9.09967
മില്ലാത്ത	-9.10161
▁അല്ലാഹുവിന്‍റെ	-9.10189
▁on	-9.10228
▁മരിച്ചു	-9.10258
▁l	-9.10276
▁എന്തുകൊണ്ട്	-9.10604
ക്സ	-9.10624
▁രണ്ടാം	-9.10718
ദാ	-9.10773
▁നിറ	-9.10778
▁മറക്ക	-9.10818
▁ഉണ്ടായ	-9.10972
?’	-9.1106
െന്നും	-9.11179
▁വിശ്വാസം	-9.11207
▁ട്ര	-9.11312
▁വിവര	-9.11315
▁അതൊരു	-9.11337
▁അഞ്ചു	-9.11537
▁യുദ്ധം	-9.11546
▁പ്രശ്ന	-9.11558
കെ	-9.11624
▁കുഞ്ഞ	-9.11732
▁അത്തരം	-9.11751
▁നടത്തിയ	-9.11769
▁സമാധാന	-9.11807
കാര്യ	-9.11904
ഷ്ട	-9.11919
ത്തേക്ക്	-9.12025
lo	-9.12168
ിച്ചത്	-9.12186
▁ഇസ്	-9.12238
▁മേഖല	-9.1227
▁24	-9.123
▁m	-9.12324
യുമ	-9.12344
▁ഭ	-9.12345
_	-9.12444
▁നമ്മള	-9.12459
▁അല്ലേ	-9.12908
ന്ദ	-9.1296
രൂപ	-9.12973
▁കാർ	-9.13001
▁ജനത	-9.13008
നിയ	-9.13075
▁എങ്കില്‍	-9.13092
▁സാധിക്ക	-9.1315
ത്തിലുള്ള	-9.13207
തിര	-9.13228
▁പേര്‍	-9.13247
▁പാട്ട	-9.13289
നിന്ന്	-9.13301
▁നമുക്കു	-9.13304
▁ഇരു	-9.13311
ശാ	-9.1337
▁ഇതിനെ	-9.13378
▁ഗുണ	-9.13385
ിട്ടുണ്ടോ	-9.13463
▁ബോ	-9.13465
ക്കാർ	-9.13601
▁താര	-9.1376
am	-9.13791
▁ചെയ്യാം	-9.13875
us	-9.13878
ാലോ	-9.13948
▁സാമ്പത്തിക	-9.13952
▁കടന്നു	-9.14061
ate	-9.14062
▁വിഭാഗ	-9.14084
▁ഷ	-9.14194
ഷൻ	-9.14243
▁ഇന്നു	-9.14266
▁മാറ്റി	-9.14368
▁V	-9.1437
▁പറയാം	-9.1439
▁വയസ്സ	-9.14419
ാര്‍	-9.14523
▁എങ്കിൽ	-9.14576
▁നാല്	-9.14636
െങ്കിൽ	-9.14669
ഓ	-9.14772
▁ഇതിനു	-9.1479
▁നടപടി	-9.14896
▁നില്‍ക്ക	-9.14904
▁ഇതിന്	-9.14907
▁വർഷ	-9.14988
▁അവസരം	-9.15008
യാണെന്ന്	-9.15125
▁കാരണ	-9.15136
▁എഴുതി	-9.15169
▁കാണുക	-9.15218
▁പിടിക്ക	-9.15339
പ്പു	-9.15355
▁നടന്നു	-9.15402
▁പ്രകൃതി	-9.15485
▁പ്രവൃത്തി	-9.15535
▁അവള	-9.15563
V	-9.15578
▁ഇതേ	-9.15583
▁കോടതി	-9.15663
▁*	-9.15672
▁അവരോടു	-9.15691
▁തുടര	-9.15697
▁നിയമം	-9.15833
സ്ഥ	-9.15853
▁അവര്‍ക്കു	-9.1586
▁രക്ഷിക്ക	-9.15878
ത്വം	-9.16
▁ഫാ	-9.16029
▁ഹോ	-9.16048
▁പിന്തുണ	-9.16243
▁ആള	-9.16351
▁പഠന	-9.16527
▁ജെ	-9.16583
▁ഫോ	-9.16598
ിനെയും	-9.16631
▁അറിഞ്ഞ	-9.16657
രിയ	-9.1673
▁രണ്ട	-9.16767
▁ഒഴിവാക്ക	-9.16861
▁കഴിവ	-9.16951
▁അന	-9.16962
▁പോകുന്ന	-9.16983
ോടും	-9.17006
പു	-9.17054
▁എത്തി	-9.17263
▁സഹ	-9.17307
യിലൂടെ	-9.17471
▁ഇന്നലെ	-9.17501
▁പോകുന്നു	-9.17505
un	-9.17519
പ്പോലെ	-9.17668
▁കി	-9.17733
▁അഭിപ്രായ	-9.1774
▁ഫോട്ടോ	-9.17828
ഐ	-9.17858
ർത്ത	-9.18058
▁ദൈവത്തെ	-9.18113
േക്ക്	-9.18144
▁ഹൃദയം	-9.18164
z	-9.18314
▁ഡ	-9.18315
▁വെറുതെ	-9.1839
വന്ന	-9.18432
▁സംഭവിക്ക	-9.18433
▁സംഭവിച്ച	-9.18609
▁വേഗം	-9.18711
യര്‍	-9.18769
▁എങ്ങനെയാണ്	-9.18839
▁സോ	-9.18843
▁തെ	-9.18849
▁പേർ	-9.18862
▁ഇത്രയും	-9.18908
▁പെട്ട	-9.18966
11	-9.18981
▁വിളിച്ച	-9.18982
▁തമ്മിലുള്ള	-9.18998
▁പറയാന്‍	-9.19074
ത്തിനുള്ള	-9.19096
▁സംബന്ധിച്ച	-9.19156
ിനോട്	-9.19165
U	-9.1922
▁സന്തോഷം	-9.19253
വിടെ	-9.19269
▁മനുഷ്യര	-9.19408
▁അന്ന	-9.19517
▁പ്രതീക്ഷിക്ക	-9.19518
▁എണ്ണ	-9.19567
▁നിര്‍	-9.19691
▁ഫലം	-9.19722
▁ന്	-9.19756
▁അറിയുന്നു	-9.19774
െടുക്ക	-9.19794
▁ചിന്തിക്ക	-9.1981
▁അംഗ	-9.19811
ഷ്യ	-9.19923
▁ചെ	-9.19945
ഷി	-9.20227
▁ശ്രീ	-9.20292
▁തിരികെ	-9.20321
ാകട്ടെ	-9.20413
▁ആകെ	-9.20417
il	-9.20438
ന്മാർ	-9.20505
▁ടോ	-9.20589
▁In	-9.20654
പോലും	-9.20988
▁ആര്‍	-9.21012
▁അങ്ങിനെ	-9.21027
▁അവയെ	-9.21033
▁ബ്ര	-9.21107
ുന്നവര്‍	-9.21129
ന്മാര്‍	-9.2113
ിയ്ക്ക	-9.21245
യ്യ	-9.21302
▁കോടി	-9.21308
തിൽ	-9.21317
പര	-9.21324
ിപ്പ	-9.21438
▁പള്ളി	-9.21764
ഞ	-9.21782
▁അധികാര	-9.21831
പ്പാ	-9.21861
▁ആളുകൾ	-9.21895
?'	-9.22017
സ്ഥാന	-9.22039
ാട	-9.22114
▁വെടി	-9.22118
▁പക്ഷം	-9.22119
▁രക്ത	-9.2212
ലീ	-9.22125
▁കുറേ	-9.22217
ഴി	-9.22236
ക്കാരന	-9.22408
▁ഫി	-9.2242
▁സംഘ	-9.22428
▁കാണുന്നു	-9.22467
ist	-9.22582
▁നല്ലത്	-9.22585
▁ഒരാള്‍	-9.2279
▁നായ	-9.22805
▁ഓഫ്	-9.22818
ച്ഛ	-9.22992
▁കാണുന്നത്	-9.231
▁വിഷയ	-9.23178
എം	-9.23294
▁അനുവദിക്ക	-9.23315
▁തീർച്ചയായും	-9.23327
മാക്കി	-9.23357
▁കളിക്ക	-9.23402
▁മേ	-9.23475
▁ചികിത്സ	-9.23533
▁അടുത്ത്	-9.23689
▁ചോദ്യ	-9.23689
▁തിരഞ്ഞെടുക്ക	-9.23727
തീ	-9.23743
▁പ്രിയ	-9.23744
▁ബന്ധം	-9.23852
▁പ്രശ്നം	-9.23899
▁ഉറപ്പ	-9.23952
▁ആദ്യമായി	-9.23971
ൻസ്	-9.24018
▁പൊതു	-9.24055
▁നടത്തി	-9.24117
ികൾ	-9.24222
▁ഇരിക്ക	-9.24251
▁എന്തായാലും	-9.24289
▁അല്ലാഹുവിന്	-9.24413
ാണെങ്കില്‍	-9.24597
റിഞ്ഞ	-9.24638
▁രോഗി	-9.24772
ിയിരിക്കുന്നു	-9.24825
▁വെച്ച	-9.24839
▁അവസര	-9.24867
ാനായി	-9.24915
റിയാം	-9.2496
ത്തര	-9.24987
ടുക്ക	-9.24992
പരി	-9.24994
കൾക്ക്	-9.2504
▁അത്ഭുത	-9.25094
▁പാടില്ല	-9.25113
ോളം	-9.25113
▁ദയവായി	-9.25125
com	-9.25129
▁മുമ്പ	-9.25133
▁മറ	-9.25215
▁പെണ്ണ	-9.25273
▁മൂസാ	-9.25338
▁ആത്മ	-9.2534
▁ആരംഭിക്ക	-9.25398
നില	-9.25403
K	-9.25495
▁അവർക്ക്	-9.25639
▁ഹെ	-9.2566
▁വെക്ക	-9.25685
▁വിജയം	-9.25723
▁നിങ്ങള്‍ക്ക	-9.25843
ിക്കാന്‍	-9.25902
▁പ്രാ	-9.25988
▁ജനങ്ങള്‍	-9.26005
ഗ്ര	-9.26068
ുകയാണെങ്കില്‍	-9.26109
▁കണ്ണ	-9.26159
ത്തിലൂടെ	-9.26166
▁ബുദ്ധിമുട്ട	-9.2617
▁പരിപാടി	-9.26263
▁ഉദ്ദേശിക്കുന്ന	-9.26282
വീ	-9.26406
കൂടി	-9.26419
▁എളുപ്പ	-9.26427
രീ	-9.26562
▁യഥാര്‍ത്ഥ	-9.26568
▁പ്രദേശ	-9.26579
▁എനിക്കും	-9.2658
യ്ക്കു	-9.26717
നാഥ	-9.26931
▁ഉണ്ടാവ	-9.2695
▁ആളുകള്‍	-9.27081
▁സംഘടന	-9.27299
▁മാറ്റം	-9.27402
▁സ്ഥിതി	-9.2766
▁സമൂഹ	-9.27731
▁ഇതൊക്കെ	-9.27774
▁കൊടുത്തു	-9.27801
▁21	-9.27849
ൃ	-9.27855
കൃത	-9.27866
▁തുറന്ന	-9.27875
വുമാണ്	-9.2791
▁വലുത	-9.27992
▁തന്നേ	-9.27993
ut	-9.28043
▁ഇതൊരു	-9.28126
▁അവനോടു	-9.28298
ent	-9.28309
▁അതല്ല	-9.28329
ക്കാൻ	-9.28419
▁വിള	-9.28477
▁റാ	-9.28515
▁കയറി	-9.28544
▁ഊ	-9.28544
▁കാറ	-9.28559
▁ജല	-9.28604
മാണിത്	-9.28677
▁കള	-9.28681
▁പേടി	-9.28778
▁kgm	-9.2882
▁ഫോൺ	-9.28827
വിട	-9.28878
▁ഞങ്ങള്‍ക്ക്	-9.28891
ുന്നതിനു	-9.28972
▁തേടി	-9.28987
പെട്ട	-9.29114
ത്തെയും	-9.2914
മാന	-9.29166
▁ശബ്ദം	-9.29218
▁മത്സര	-9.29334
ീകരണ	-9.29352
▁സൃഷ്ടിക്ക	-9.29361
▁എടുത്ത	-9.29385
▁വിശ്വസിക്കുന്ന	-9.2945
ുന്നുണ്ടോ	-9.29519
ിക്കുന്നത്	-9.29554
▁അര	-9.29555
െടുത്ത	-9.29563
▁കാണും	-9.29567
▁ബോധ	-9.29643
▁0	-9.29658
▁തീരുമാനം	-9.29731
സോ	-9.29743
▁വശ	-9.29897
▁നിറഞ്ഞ	-9.29956
▁കേ	-9.29973
▁ലഭിക്കും	-9.29985
ാനോ	-9.3001
▁ശക്തമായ	-9.30015
ക്കാന്‍	-9.30048
▁തി	-9.30076
▁ആഗ്രഹിക്കുന്നു	-9.30414
േഷൻ	-9.30437
▁എന്തോ	-9.30507
▁കള്ള	-9.30592
▁പുറത്ത	-9.30822
▁പത്ര	-9.3088
▁തുറന്നു	-9.30894
▁വിശ്വസിച്ച	-9.30902
▁തേട	-9.30969
▁സുരക്ഷിത	-9.30998
▁:)	-9.31043
ുമെന്ന	-9.31096
ുവാ	-9.31112
▁ലേഖനം	-9.31257
▁കൊണ്ടുവര	-9.31279
▁പിടിച്ച	-9.31281
ോള	-9.31384
▁ശരീര	-9.31458
ലേ	-9.31479
ത്തേ	-9.31494
യോഗ	-9.31512
ില്ലെങ്കില്‍	-9.31541
▁ഓര്‍മ്മ	-9.31557
▁ഉറങ്ങ	-9.31641
▁ഏഴു	-9.31686
യെല്ലാം	-9.31787
▁നാള	-9.31846
▁അഭിപ്രായം	-9.31887
േണം	-9.31898
▁മൈ	-9.31908
ാണല്ലോ	-9.32075
നിന്ന	-9.32107
▁ഉപ	-9.32141
▁നോക്കിയ	-9.32167
li	-9.32378
ിലേക്കു	-9.32464
ലാണ്	-9.3247
▁ഓടി	-9.32551
▁സീ	-9.32557
▁ലക്ഷ്യം	-9.32588
▁നിങ്ങളില്‍	-9.32611
▁നൽകിയ	-9.32639
മുണ്ടോ	-9.32739
im	-9.32762
▁കൃഷി	-9.32787
▁മനോഹരമായ	-9.32859
ില്ലാത്ത	-9.32981
▁ഓഫീസ	-9.33049
ച്ചി	-9.33058
▁ദേശ	-9.33075
▁മണിക്കൂറ	-9.33166
▁തിന്ന	-9.33224
▁എന്തിനാണ്	-9.33235
30	-9.33276
▁സംവിധാനം	-9.33305
▁സ്നേഹം	-9.33388
രുതു	-9.3344
50	-9.33467
പരമായ	-9.33545
▁പ്രമാണ	-9.33604
▁e	-9.33659
▁പേ	-9.33713
▁ഉയര	-9.33767
▁അവനു	-9.33882
▁അല്ലാഹുവെ	-9.33883
പ്പെടുകയും	-9.33958
▁വീട്ടില്‍	-9.33979
▁എണ്ണം	-9.34099
sh	-9.34146
▁ബുദ്ധി	-9.34226
▁22	-9.34296
▁പോവ	-9.343
"&	-9.34424
as	-9.34507
ഡോ	-9.34518
▁50	-9.34522
▁എൻ	-9.34583
▁പരീക്ഷ	-9.34696
▁മടങ്ങ	-9.34753
la	-9.34768
▁#	-9.34843
▁ആഗ്രഹ	-9.34859
വനും	-9.35036
▁ക്ഷമ	-9.3506
,000	-9.35086
▁പങ്കാളി	-9.35181
▁ചെറു	-9.35259
▁ഫാക്ടറി	-9.35346
▁ചെയ്യണം	-9.35366
യെന്ന്	-9.3537
id	-9.35515
നല്ല	-9.35545
▁വായിച്ചു	-9.35587
▁മനുഷ്യനെ	-9.35598
▁നേടിയ	-9.35747
▁പ്രതിഫല	-9.35783
tr	-9.35801
▁ആയിരിക്കും	-9.35877
▁എതിര	-9.35894
▁ലക്ഷ്യ	-9.35899
▁ഇന്നത്തെ	-9.35929
ാപ	-9.35939
▁കേട്ടു	-9.35942
▁ദു	-9.36175
▁ടെ	-9.36179
ia	-9.36213
ര്യ	-9.3622
▁മുടി	-9.36245
▁പേരും	-9.36369
▁അടുത്തു	-9.36399
▁അംഗീകരിക്ക	-9.36425
▁പട	-9.36456
▁പിടിച്ചു	-9.36492
▁മുട്ട	-9.36516
കൂ	-9.36595
▁വാഹന	-9.3663
ive	-9.36859
▁വരുന്നത്	-9.36876
▁സ്വാഗതം	-9.36901
റേ	-9.36967
▁ഗോ	-9.3708
▁പേപ്പർ	-9.37093
ട്ടു	-9.3717
▁നേര	-9.37171
▁പാത	-9.37272
à	-9.37387
പോയി	-9.37407
ക്കുകയും	-9.37486
▁യാ	-9.37567
op	-9.37567
▁കാത്തിരിക്ക	-9.37655
▁പ്രയാസ	-9.3767
▁കുട്ടികള്‍	-9.37799
▁നേട	-9.3783
▁വചനം	-9.37868
▁ഉണ്ടാകും	-9.37875
ശി	-9.37882
സിന്റെ	-9.37886
▁യഥാർത്ഥ	-9.37891
v	-9.37933
ിരിക്കുകയാണ്	-9.37993
▁കൂ	-9.38004
ിനി	-9.38026
ിരിക്കും	-9.38075
ുവാനും	-9.38094
▁നടക്കുന്ന	-9.38179
▁നോക്കൂ	-9.38247
ടുത്ത	-9.38269
▁ഇവരുടെ	-9.38291
X	-9.38335
▁പട്ടണ	-9.38373
ers	-9.38407
പക്ഷ	-9.38437
യെയും	-9.38487
▁ദേവ	-9.38545
▁പഠിക്ക	-9.38577
▁പകുതി	-9.38583
തിന	-9.38607
Y	-9.38614
▁ജീവന	-9.38661
പ്രകാരം	-9.38836
വാസ	-9.38953
▁മനസ്സ	-9.38989
▁അറിയിക്ക	-9.39002
▁അയച്ച	-9.39139
▁$	-9.39158
▁ഹൈ	-9.3933
വെക്ക	-9.39361
േണ്ടതുണ്ട്	-9.39419
“	-9.39426
▁100	-9.39617
▁സംഗീത	-9.39715
▁കീ	-9.39754
▁കടല	-9.3977
വ്വ	-9.39805
ാനു	-9.39857
▁കറുത്ത	-9.39872
▁അസ	-9.39897
▁അടി	-9.39966
j	-9.40005
▁സ്വകാര്യ	-9.40142
age	-9.40159
▁പാലിക്ക	-9.40192
▁നിങ്ങളോടു	-9.40201
▁ജനം	-9.40256
വഴി	-9.40278
▁ജാ	-9.40296
▁ഫ്ല	-9.40323
▁രക്ഷിതാവ്	-9.40348
തായിരുന്നു	-9.40373
യാണ	-9.40417
▁വികാര	-9.40505
▁വിഷമ	-9.40526
▁ഇരുവരും	-9.40607
ണമെന്ന	-9.40624
▁ജീവിക്ക	-9.40646
ഗാ	-9.4067
▁ഗ്രന്ഥ	-9.40696
▁തങ്ങള്‍	-9.40714
▁ചെലവ	-9.40775
▁അയാളെ	-9.40821
▁രണ്ടും	-9.40855
േറ്റ്	-9.41033
താണോ	-9.41035
▁by	-9.41038
ബു	-9.41208
▁ഹി	-9.41237
▁ക്ല	-9.41359
▁വന്നത്	-9.41365
▁പ്രകാശ	-9.41374
കൊണ്ട	-9.41413
ക്കൊണ്ട്	-9.41488
▁സര്‍ക്കാര്‍	-9.41538
▁ചേര	-9.41559
ണ്ടി	-9.41578
ദ്യ	-9.41618
േറ്റ	-9.41646
ക്കെതിരെ	-9.41664
കാലം	-9.41702
ce	-9.41757
▁എത്തിയ	-9.41829
▁തുക	-9.41837
യെന്ന	-9.41851
▁നാട	-9.41895
▁നോക്കുക	-9.41928
▁കയറ	-9.4194
▁ഉപയോഗിക്കുന്ന	-9.41952
▁മാര്‍ഗ	-9.4202
▁രസ	-9.42039
▁ഒരാള	-9.4204
ബോധ	-9.42047
▁de	-9.42061
റുകൾ	-9.42146
ുള്ളത്	-9.42225
▁സേവന	-9.4223
▁അടുക്കല്‍	-9.42269
▁കൂടുതല	-9.42315
ര്‍പ്പ	-9.42461
കട	-9.42484
ിതാ	-9.42488
▁നല്ക	-9.42494
▁വിവരം	-9.42516
▁പരിശോധിക്ക	-9.42556
▁വീട	-9.42616
▁ശരീരം	-9.42644
▁കാട്ട	-9.42657
▁പണ	-9.42671
▁കൂട്ടി	-9.42688
ിട്ടുള്ളത്	-9.42713
▁പറ്റിയ	-9.42731
ment	-9.42732
▁കിട്ടി	-9.42791
▁ആവശ്യമാണ്	-9.42846
▁അപേക്ഷ	-9.42877
ാവുന്നതാണ്	-9.42914
വെച്ച	-9.43032
▁ദുഃഖ	-9.4307
▁വാങ്ങി	-9.43146
തിനാല്‍	-9.43194
▁കല്ല	-9.43388
ഗ്ഗ	-9.43399
യിലുള്ള	-9.43486
▁ലേ	-9.43489
▁പ്രവര്‍ത്തിച്ച	-9.43547
▁ഇവർ	-9.43565
▁അന്നു	-9.43569
കളെയും	-9.43656
and	-9.43676
ഗോ	-9.4368
▁ഡെ	-9.43683
▁മൃഗ	-9.43702
▁അഞ്ച്	-9.4395
▁ഉടനെ	-9.43987
▁സ്ഥാന	-9.44006
ൊന്ന	-9.44128
▁കളയ	-9.44182
▁വ്യ	-9.44202
▁ഉപയോഗിച്ച	-9.44242
▁മൂന്ന	-9.44257
▁രഹസ്യ	-9.44259
▁പത്തു	-9.44375
▁നഷ്ട	-9.44384
▁വരിക	-9.4445
ുണ്ടായ	-9.44578
ിരുന്നെങ്കില്‍	-9.44598
▁നരക	-9.44792
▁വല	-9.44795
▁അപകട	-9.44813
▁ഉണ്ടോ	-9.44927
▁കൊള്ള	-9.45023
ുവിന്‍	-9.45062
▁ശുദ്ധ	-9.4512
ോടെ	-9.45125
ുന്നതില്‍	-9.45163
▁ഭരണ	-9.45177
ത്രേ	-9.4518
▁സുഹൃത്ത	-9.45189
യാണു	-9.45214
▁ശബ്ദ	-9.4524
▁ആൻഡ്	-9.45332
മേല്‍	-9.45377
▁U	-9.45438
അത്	-9.45444
ങ്ങി	-9.4549
▁പോസ്റ്റ്	-9.45666
കളിലും	-9.45678
▁നാഥന്‍	-9.4577
▁പൊറുക്ക	-9.45795
ോൾ	-9.45812
ങ്ങളില	-9.45824
▁ചര്‍ച്ച	-9.45844
ാന്ത	-9.45903
യ്ക്കും	-9.4601
ചി	-9.46066
▁ന്റെ	-9.46078
ായിരുന്ന	-9.461
▁വാക്കുകള്‍	-9.46121
▁വെളിച്ച	-9.46133
▁ഇതിന	-9.46154
▁ജീവ	-9.46202
ine	-9.46226
വരില്‍	-9.46262
▁നശിപ്പിക്ക	-9.46331
▁23	-9.46336
മാകും	-9.46397
ഇത്	-9.46525
▁സംശയം	-9.46594
▁കരുണ	-9.46604
▁എന്നാലും	-9.46647
▁കുട്ടികളെ	-9.46678
▁പ്രാര്‍ത്ഥന	-9.46722
▁ചു	-9.46739
▁ഇന്നും	-9.46747
ലിയ	-9.4676
▁മറന്നു	-9.46846
▁പരിശോധന	-9.46887
▁കുറയ്ക്ക	-9.46913
▁സ്വപ്ന	-9.46945
▁നിയന്ത്രിക്ക	-9.47009
▁ചി	-9.47017
▁മൂന്നാം	-9.4704
ദൈവ	-9.47043
▁കഴിച്ച	-9.47052
മാത്രം	-9.4707
▁മനസിലാക്ക	-9.4711
▁നിങ്ങളോട്	-9.47195
വ്യ	-9.47208
ل	-9.47283
െടുത്തു	-9.47339
▁ഞാനൊരു	-9.47401
▁ആഘോഷ	-9.47443
▁വായന	-9.47456
▁മക്കള	-9.47458
de	-9.4746
▁കൂടിയ	-9.47531
▁മാന	-9.47564
തിരുത്തുക	-9.47623
▁ഇവരെ	-9.47635
▁not	-9.47761
▁വാക്കുകള	-9.47781
▁നേഹ	-9.47824
▁കഷ്ട	-9.47852
▁പോലുള്ള	-9.47901
▁തെളിവ	-9.47916
▁പ്രവാചക	-9.47928
▁ജാതി	-9.47939
▁ആരുടെ	-9.48022
▁മന	-9.48026
▁ധ	-9.48136
ver	-9.48143
▁കുഞ്ഞു	-9.48158
ഏ	-9.48171
വുമ	-9.48186
ുകയുണ്ടായി	-9.48213
▁ചരിത്രം	-9.48221
▁അന്യ	-9.48232
▁കാര	-9.48333
തിനാൽ	-9.48336
▁നക്ഷത്ര	-9.48339
▁വീഴ	-9.48447
യൊരു	-9.48466
▁കടുത്ത	-9.48533
ിക്	-9.48577
▁അവധി	-9.48661
▁ഇൻ	-9.48717
▁ശ്രദ്ധിക്ക	-9.48743
▁വിട്ട	-9.48768
▁സ്പ	-9.48783
മാരുടെ	-9.48823
▁ഓട	-9.48905
വന്നു	-9.4896
▁നിൽക്ക	-9.49014
പറയ	-9.49172
▁വിദേശ	-9.49172
▁ഇത്തവണ	-9.49207
യാല്‍	-9.49212
ൂര്‍	-9.49214
കല	-9.49229
▁സഹായിക്കും	-9.49273
വാന	-9.49357
▁ഏതൊരു	-9.49438
വെന്ന്	-9.49496
കാരി	-9.49522
ബോ	-9.49557
se	-9.49738
▁കിടക്ക	-9.49791
▁ചുറ്റും	-9.49844
▁കുട	-9.49908
▁പദ	-9.49962
▁ഫോണ	-9.50003
▁സാധിക്കും	-9.50039
▁നേരം	-9.50149
▁ഉത്തര	-9.50214
▁വിമാന	-9.50296
▁ശാസ്ത്ര	-9.50304
യെങ്കിലും	-9.50368
പ്പോയി	-9.50372
▁ശ്രമിക്ക	-9.50484
ുന്നതിനുള്ള	-9.50502
um	-9.50565
▁ജീവിതത്തില്‍	-9.50596
മെന്ന	-9.50632
▁നല്ലൊരു	-9.50639
▁with	-9.50665
▁പരസ്യ	-9.50697
▁ലോകത്തിലെ	-9.50716
ho	-9.50758
▁ഒക്കെ	-9.50843
▁കരുതി	-9.50895
▁Home	-9.50913
▁തമാശ	-9.51007
▁കാറ്റ	-9.51175
▁ദേശീയ	-9.51265
▁കുട്ടികൾ	-9.51267
▁സൈ	-9.51328
▁സൂര്യ	-9.51358
▁മനുഷ്യന	-9.51413
▁ദിനം	-9.51443
▁ഇര	-9.51453
▁ധരിക്ക	-9.5146
വള	-9.51502
വിധ	-9.51642
തുമായ	-9.5177
രിക	-9.5178
▁തമ്മില്‍	-9.51861
▁ഉച്ച	-9.5188
▁കാണിച്ചു	-9.51921
ക്കൂട്ട	-9.51935
തുകൊണ്ട്	-9.51994
▁അതുകൊണ്ടു	-9.52003
▁സ്വീകരിച്ച	-9.52053
ത്തെക്കുറിച്ച്	-9.52087
ക്കൾ	-9.52318
▁ടാ	-9.5232
▁സർ	-9.52381
ോടുള്ള	-9.52428
▁പുറത്ത്	-9.52524
▁ബല	-9.52541
▁നല്‍കുകയും	-9.52549
▁അല്ലാതെ	-9.52605
യായിരിക്കും	-9.52614
ുപോക	-9.52627
▁ഒരാൾ	-9.5265
ിഷ്ട	-9.52744
▁നന്നായ	-9.52873
െന്നാണ്	-9.52885
▁പേരു	-9.52921
▁d	-9.53014
▁വിഷയം	-9.53086
▁ജയ	-9.53096
ണേ	-9.53126
▁നിമിഷ	-9.53142
▁പേരെ	-9.53225
▁ധന	-9.53236
▁രാജ്യം	-9.53361
▁പഠിച്ച	-9.53475
▁എക്സ്	-9.53505
▁വളര	-9.53539
നായിരുന്നു	-9.53542
ദേശ	-9.53584
▁സഹായ	-9.53591
▁പ്രവര്‍ത്തന	-9.53599
▁ഇപ്പോഴ	-9.53639
12	-9.53789
കളായി	-9.53842
▁ഭീകര	-9.53851
▁ആവശ്യം	-9.53863
ve	-9.53889
▁പോകും	-9.53917
ity	-9.53938
▁അവയുടെ	-9.53959
▁വാർത്ത	-9.53987
▁ആഴ	-9.54008
▁ഇപ്രകാരം	-9.54052
▁=	-9.54112
▁കണ്ണു	-9.54158
ിൻറെ	-9.54201
▁തീരുമാനിക്ക	-9.54264
▁വാര്‍ത്ത	-9.54341
▁നിമിഷം	-9.54376
ത്തോട്	-9.54381
▁ചിരി	-9.54422
▁ഭയപ്പെട	-9.54445
!”	-9.54598
സീ	-9.54625
▁ഇതിൽ	-9.54643
തോടെ	-9.5472
ാതിരുന്ന	-9.54733
▁ചെയ്ത്	-9.54798
▁വായിക്കുക	-9.54877
▁വാക്കു	-9.54907
▁വീ	-9.54995
▁കാണാന	-9.55017
വന്റെ	-9.55077
▁പോസ്റ്റ	-9.55136
▁പെട്ടെന്ന്	-9.55228
ഞാന	-9.55265
▁ഉപയോഗ	-9.5532
▁നിരാശ	-9.55342
പ്പറ്റി	-9.55426
▁സ്റ്റ	-9.55527
▁ശ്രമ	-9.5555
യുമില്ല	-9.55573
ക്കുന്നത്	-9.55664
▁ഗ്രാമ	-9.55667
▁അതിന്‍റെ	-9.55733
▁ലോകത്തെ	-9.55785
ബ്ര	-9.55846
ങ്ങളെയും	-9.55902
▁2018	-9.55918
ല്ലാ	-9.5592
▁എല്ലാവര്‍ക്കും	-9.5592
രീതി	-9.56058
&	-9.56079
▁ഇവര	-9.56106
കൊള്ള	-9.56166
ൂർ	-9.56172
്‍ക്കും	-9.56199
ot	-9.5624
▁മുസ്	-9.563
▁നിരക്ക്	-9.56305
▁പരിശുദ്ധ	-9.56341
▁പാല	-9.5635
▁അയച്ചു	-9.56413
▁+	-9.56419
രിച്ച	-9.5648
▁പോകുന്നത്	-9.56543
പ്പെടുന്നത്	-9.56639
▁ആളുകള	-9.56701
▁പെണ്‍കുട്ടി	-9.56711
▁കാണിച്ച	-9.56733
ക്കാല	-9.56744
ബന്ധ	-9.56764
▁യഹോവയുടെ	-9.56826
ഷന	-9.56842
▁വെളിപ്പെടുത്ത	-9.5686
▁പറയാൻ	-9.56872
ീന	-9.5701
▁വളരെയധികം	-9.57071
▁വ്യത്യാസ	-9.57096
▁മിനിറ്റ്	-9.57116
കുട്ടി	-9.57124
ന്തി	-9.57171
▁കുതിര	-9.57197
▁me	-9.572
▁പലതും	-9.57303
ul	-9.57361
▁സംസാരിച്ചു	-9.57424
ർട്ട്	-9.5743
▁റെ	-9.57438
▁നിര്‍ത്ത	-9.57463
▁ഏത	-9.57513
ീസ്	-9.57548
▁അവതരിപ്പിക്ക	-9.57631
▁അനുസരിക്ക	-9.57669
കളില	-9.57675
▁മാധ്യമ	-9.5772
ത്താല്‍	-9.57742
▁പട്ടിക	-9.57752
റ്റർ	-9.57784
▁ബാല	-9.57923
▁മണ്ണ	-9.57925
▁ഖുര്‍ആന	-9.57932
ുള്ളൂ	-9.57947
▁സാഹചര്യ	-9.58007
ുളള	-9.5802
ab	-9.58061
ത്തോളം	-9.58161
▁അമേരിക്കൻ	-9.5827
▁ശക്ത	-9.58297
▁•	-9.58298
ജ്ഞ	-9.58306
▁St	-9.58324
രായി	-9.58341
▁കേസ	-9.58343
▁കണക്കാക്ക	-9.58406
▁പ്രിയപ്പെട്ട	-9.5845
01	-9.58464
▁അല്ലാഹുവിനെ	-9.58514
രാജ	-9.58533
ാവശ്യ	-9.58569
te	-9.5858
▁ഇരുട്ട	-9.58645
▁കരയ	-9.58841
▁പോലീസ്	-9.58851
ാത്തത്	-9.58868
▁പരീക്ഷണ	-9.58879
▁അളവ	-9.58899
▁സഹോദര	-9.58937
വൈ	-9.59093
▁മാറിയ	-9.59153
▁പരിചയ	-9.59205
▁സന്ദേശം	-9.59261
ശാസ്ത്ര	-9.59311
നുസരിച്ച്	-9.59314
▁സ്നേഹിക്ക	-9.59324
▁അതില	-9.59439
▁തുല്യ	-9.59453
▁ബാധിച്ച	-9.59478
▁വച്ച	-9.59491
ge	-9.59556
▁മാതൃക	-9.59593
▁രീതിയില്‍	-9.59603
▁മറ്റൊന്ന	-9.5963
▁ആളുകളെ	-9.59651
...”	-9.59673
ന്മാരുടെ	-9.5974
our	-9.59747
▁നമ്പർ	-9.5975
▁രാജാവ	-9.5979
▁ആര്‍ക്കും	-9.59803
▁പതി	-9.59831
ഛ	-9.59863
▁ഡാ	-9.59907
▁ചീത്ത	-9.59936
▁തിരിച്ച	-9.59939
▁ഇംഗ്ലീഷ്	-9.59943
▁എന്നിരുന്നാലും	-9.59954
ചെ	-9.6003
▁തുടക്കം	-9.6012
▁ചൂട	-9.60282
▁വാക്ക്	-9.60301
▁പീ	-9.60319
▁എങ്ങിനെ	-9.60446
ലുകൾ	-9.60507
യുമാണ്	-9.60515
▁മെഷീൻ	-9.60667
കൊ	-9.60679
ങ്ങളിലെ	-9.60746
▁ഭ്രാന്ത	-9.6075
▁അല്പം	-9.60765
▁40	-9.60774
▁ഏതാനും	-9.60797
െത്തി	-9.60812
ഭാവ	-9.60938
▁പ്രവാചകന്‍	-9.60944
ത്തിലേക്കു	-9.60971
യാകുന്നു	-9.60995
▁മണി	-9.61045
▁വാദ	-9.6116
▁ആവശ്യമില്ല	-9.61199
▁ഓര്‍മ	-9.61275
▁it	-9.61285
▁അറിയുക	-9.61427
▁മുൻ	-9.61442
▁28	-9.61456
ീകരിച്ച	-9.61501
▁ന്യൂ	-9.61565
▁മുന്‍	-9.61574
▁തേ	-9.61597
ശ്വ	-9.61635
മാറ്റ	-9.61675
▁ഇടപെട	-9.61838
▁സൂക്ഷിക്ക	-9.61871
▁മടങ്ങി	-9.61893
ിനോടു	-9.61894
▁കാരുണ്യ	-9.61898
▁വ്യവസ്ഥ	-9.62007
▁!!	-9.62023
▁നദി	-9.62043
▁സേവനം	-9.62066
▁തിര	-9.62127
വരോട്	-9.62142
ill	-9.62193
ല്‍പ്പ	-9.62199
വർക്ക്	-9.62208
▁ആറു	-9.62278
▁ആശുപത്രി	-9.62284
▁സംസാരിച്ച	-9.62318
▁ആവശ്യമായ	-9.62364
ow	-9.62414
▁കുട്ടികള	-9.62441
▁യോഗ	-9.62465
▁ആത്മാവ	-9.62506
മാക്കിയ	-9.62513
ുന്നുവോ	-9.62591
ുമില്ല	-9.6265
ങ്ങനെ	-9.62708
▁ജനിച്ച	-9.62767
▁അടിമ	-9.62792
ക്കുവേണ്ടി	-9.62826
▁കണ്ടെത്തി	-9.62843
ിപ്പിക്കുന്ന	-9.62845
▁അയക്ക	-9.62847
ണ്ഡ	-9.62854
▁കുടുംബം	-9.62874
▁സ്റ്റാ	-9.62888
▁ക്ഷേത്ര	-9.62913
▁ദി	-9.62925
▁ചിലപ്പോള്‍	-9.62961
▁പ്രധാനപ്പെട്ട	-9.6298
സ്ട്ര	-9.63052
▁വെച്ച്	-9.63071
The	-9.6308
▁പിന്ന	-9.63115
▁മഹത്തായ	-9.63121
ast	-9.63142
▁നേരിട	-9.63177
▁നയിക്ക	-9.63285
▁അല്ലെ	-9.63287
ിക്കൊണ്ടിരിക്ക	-9.63328
▁സര്‍	-9.63426
▁ലോകത്ത്	-9.63506
Name	-9.63507
▁ആഗ്രഹം	-9.63525
ഠ	-9.63554
ഢ	-9.63558
യോടു	-9.63663
ry	-9.63763
▁ഔ	-9.63804
▁De	-9.63866
ൂര	-9.6389
▁അനുഭവം	-9.63901
▁ഇറങ്ങി	-9.63911
പ്പിച്ചു	-9.63966
▁കുറയ	-9.63998
‘	-9.64057
ack	-9.64095
ക്കുറിച്ചുള്ള	-9.64121
▁ശേഷി	-9.64175
ഹാര	-9.64197
ായാലും	-9.6421
▁ഓർമ്മ	-9.64215
▁ചോ	-9.64259
▁മോശ	-9.6427
പ്പോഴും	-9.64317
ില്ലെന്ന്	-9.64356
ര്‍മ്മ	-9.64399
▁നമ്മളെ	-9.64521
മുണ്ടാക്ക	-9.64528
▁പരലോക	-9.64604
▁പങ്കു	-9.64744
ിക്കാൻ	-9.64784
▁നിഷേധിക്ക	-9.64801
▁(2	-9.64861
▁വ്യക്തമാക്ക	-9.64874
▁സമ്മാന	-9.64905
▁സമര	-9.65102
▁രണ്ടാമത്തെ	-9.65138
▁വിദ്യാഭ്യാസ	-9.65175
▁ആണോ	-9.65177
തരം	-9.65224
ക്കിടയില്‍	-9.6523
▁ഞങ്ങൾക്ക്	-9.65299
ാര്‍ത്ഥ	-9.65345
▁എന്നോടു	-9.65346
he	-9.65386
▁പിതാവ്	-9.654
ങ്ങളുണ്ട്	-9.65408
▁are	-9.65425
▁രക്ഷിതാവ	-9.65444
25	-9.65469
▁ജില്ല	-9.65484
▁പക്ഷി	-9.65497
ായിരിക്കണം	-9.65501
▁നിറം	-9.65556
ാഴ്ച	-9.65576
ant	-9.65639
▁വെളിച്ചം	-9.65658
ലൈ	-9.65661
▁വണ്ടി	-9.65668
▁വചന	-9.6576
▁പ്രഭാത	-9.65855
▁ഇഷ്ടം	-9.65866
▁26	-9.65888
▁ജനാധിപത്യ	-9.65914
ബെ	-9.65924
ംഗ്	-9.65941
▁Next	-9.65954
ഴു	-9.65992
ിയായ	-9.65993
ാനാകും	-9.66015
ുപോയ	-9.66054
എനിക്ക്	-9.66087
യൊന്നും	-9.66119
വന്	-9.66202
ഴ്	-9.66229
അല്ല	-9.66271
▁നോട്ട	-9.66313
നിര	-9.66316
ങ്ങള്‍ക്കു	-9.66401
▁സമുദായ	-9.6642
▁പെരുമാറ	-9.66431
▁ക്ഷമിക്ക	-9.6646
▁27	-9.6648
▁ബാങ്ക	-9.6649
ുന്നവന	-9.66496
▁ഉപദേശ	-9.66515
ുടെയും	-9.66539
▁സംബന്ധിച്ച്	-9.66571
േണ്ടതില്ല	-9.66608
▁നഷ്ടപ്പെട	-9.66699
▁അതിലെ	-9.66721
▁ഇതെല്ലാം	-9.66777
▁ഭീഷണി	-9.66816
hi	-9.66832
▁പെൺകുട്ടി	-9.66847
▁ആരെയും	-9.66961
▁ശ്രമിച്ച	-9.66971
ind	-9.66983
▁നൽകുന്നു	-9.6703
▁തുടര്‍ന്ന്	-9.67101
▁ഭൂ	-9.67126
▁വേണ്ടത്	-9.67131
ha	-9.67158
▁പിടി	-9.67201
▁2019	-9.67201
ിപ്പി	-9.67242
െത്തിയ	-9.67256
▁പിതാവ	-9.67292
all	-9.67333
▁പാര്‍ട്ടി	-9.67372
▁മുന്ന	-9.67381
15	-9.67418
യാള	-9.67449
▁പറയാന	-9.67535
▁വിശ്വാസികള	-9.67544
ാണിത്	-9.67615
റ്റു	-9.6762
▁പുറമെ	-9.67683
▁സൂ	-9.67702
000	-9.67703
െന്താ	-9.67786
▁ഒരിക്കല്‍	-9.67791
▁കള്ളം	-9.67803
▁തിരിഞ്ഞു	-9.67839
െപ്പോലെ	-9.67859
▁കരുതുന്നു	-9.67972
വാദ	-9.67973
▁പരിഹരിക്ക	-9.68068
▁ഭാരം	-9.68097
▁ഉന്നത	-9.68193
ാക്കിയ	-9.68241
വരെയും	-9.68276
ാതിരിക്കുക	-9.68286
ത്തിയ	-9.68293
ുകാരന	-9.68312
▁ദുരന്ത	-9.68317
▁വരാം	-9.68333
▁മനുഷ്യന്റെ	-9.68361
▁പോര	-9.68374
കഥ	-9.6844
▁നുണ	-9.68456
▁പ്രാര്‍ത്ഥിക്ക	-9.68567
▁സൃഷ്ടിച്ചു	-9.68628
▁കൃത്യമായി	-9.68678
▁ഉമ്മ	-9.68723
▁വയസ	-9.68754
▁പറഞ്ഞാല്‍	-9.68842
കളുണ്ട്	-9.68852
▁ഇല്ലാത്ത	-9.68894
▁സുഹൃത്തുക്കള	-9.6904
ശാല	-9.6906
▁ദാ	-9.6907
▁കവി	-9.69096
ദു	-9.69119
▁ബിസിനസ്	-9.6914
per	-9.69215
▁പൊടി	-9.6925
ക്കാനുള്ള	-9.69357
▁നിന്നാണ്	-9.69359
ിംഗ	-9.69373
ുകയാണോ	-9.6938
▁Previous	-9.69409
പ്പെടുത്തിയ	-9.69455
ap	-9.69463
▁ശാന്ത	-9.6953
തായ	-9.69547
ക്കുറിച്ച്	-9.69549
ll	-9.6957
ത്തിന്നു	-9.69581
▁മനോഹര	-9.69606
ഫല	-9.69658
▁വ്യവസായ	-9.69665
▁ഡാറ്റ	-9.69675
▁വിശ്വസിക്കുകയും	-9.69676
ുമെന്നും	-9.6969
ില്‍നിന്ന്	-9.69702
▁ആയുധ	-9.69725
ട്ടോ	-9.69734
▁എനിക്കറിയാം	-9.69798
ന്മാരെ	-9.69799
▁ഉദ്ദേശിച്ച	-9.6982
▁തിരഞ്ഞെടുത്ത	-9.69881
▁കാലത്ത്	-9.69961
▁പ്രയോഗ	-9.70043
▁കൈകാര്യം	-9.70132
▁എഴുത്തുകാര	-9.70188
▁പരമാവധി	-9.70224
▁വസ്തുക്കള	-9.70226
▁താള	-9.70294
ഭാഷ	-9.70295
▁നഗരം	-9.70316
▁ഇന്ത്യൻ	-9.70348
േക്കു	-9.70352
ധ്യ	-9.70391
▁മകന്‍	-9.70402
▁പിന്നീട	-9.70445
ടിക്ക	-9.70474
വെച്ചു	-9.70506
ക്കൊണ്ടു	-9.70537
▁തിരക്ക	-9.70581
ണ്ടു	-9.70612
pe	-9.70619
▁മണ	-9.70637
▁ഒന്നാണ്	-9.70642
ൻഡ്	-9.70652
▁സ്ഥാനം	-9.70687
▁മനുഷ്യൻ	-9.70691
േക്കും	-9.70709
▁പരിധി	-9.70734
പ്ത	-9.70777
▁അക്ഷര	-9.70864
▁അങ്ങ്	-9.70882
റിഞ്ഞു	-9.70895
▁ഒട്ടും	-9.70918
▁സൂചന	-9.70923
റിന്റെ	-9.70984
▁വാക്കുകൾ	-9.71043
ക്കാള്‍	-9.71048
ma	-9.71109
▁ആശയ	-9.71162
▁അവിടുന്ന്	-9.7118
▁60	-9.71284
▁ചെന്നു	-9.71361
ാകാം	-9.71377
▁അവന്നു	-9.71403
ുന്നതിനും	-9.71409
▁or	-9.71455
▁സ്ഥാപിക്ക	-9.71566
▁ഒളി	-9.71629
▁സന്ദേശ	-9.71671
വില	-9.71692
▁വലിയൊരു	-9.7176
▁കെട്ടി	-9.71788
കളുമായി	-9.71855
▁ഗുരു	-9.71866
താര	-9.71866
തൊക്കെ	-9.71901
▁ചെന്ന	-9.7194
ുന്നവന്‍	-9.71984
▁പറ്റ	-9.71984
▁മുന്നില്‍	-9.72049
▁അറിയിച്ചു	-9.72054
▁2015	-9.72063
൦	-9.72145
▁രാ	-9.72147
ിക്കാനുള്ള	-9.72207
▁ആര്	-9.7226
▁നടപ്പാക്ക	-9.72279
▁X	-9.72372
ർച്ച	-9.72438
▁ടീമ	-9.72444
മാണ	-9.72458
▁your	-9.72471
▁സ്ഥാപന	-9.72486
▁സ്വപ്നം	-9.72492
▁́	-9.72543
▁സംസ്	-9.72596
ഭി	-9.72658
▁ആയിരിക്ക	-9.72661
ാമായിരുന്നു	-9.72698
▁വലതു	-9.72974
▁എൽ	-9.7302
േണ്ടതിന്നു	-9.73047
▁വിഭാഗം	-9.73056
▁വ്യത്യാസം	-9.73116
രണ	-9.73173
▁കണ്ടെത്തിയ	-9.73233
ന്നെ	-9.73255
വിന്	-9.73308
▁ചെയ്താല്‍	-9.73318
▁മേൽ	-9.73329
▁രക്തം	-9.73333
▁പുരുഷന	-9.73363
ടിയ	-9.73421
ർമ്മ	-9.73436
ിലേ	-9.73438
▁ചോദിക്കുക	-9.73515
ഫോ	-9.73567
?''	-9.73572
▁മാനസിക	-9.73622
▁ശത്രുക്കള	-9.73659
▁റഷ്യ	-9.7384
ോടുകൂടെ	-9.73913
▁ചിലപ്പോൾ	-9.73953
▁എന്തൊക്കെ	-9.73975
▁മഹ	-9.73985
om	-9.73997
▁നൽകി	-9.74032
വച്ച	-9.74042
▁എന്തുകൊണ്ടാണ്	-9.74061
▁മോഹ	-9.74132
▁പഠനം	-9.74139
▁വേദ	-9.74142
ൻഡ	-9.74146
▁ഇവിട	-9.74169
ഷണ	-9.74194
▁പൂർണ്ണ	-9.74248
▁പാപം	-9.74264
മാരെ	-9.74269
യായും	-9.74276
▁പരിഗണിക്ക	-9.74322
ീകരണം	-9.74397
ായിരുന്നില്ല	-9.74417
▁അഹ	-9.74456
▁കാര്‍	-9.74468
▁ദാസ	-9.74487
!"	-9.74496
▁വാക്ക	-9.74519
▁ലഭിച്ചു	-9.74604
▁അങ്ങ	-9.7462
▁സംവിധാന	-9.74639
▁കാര്യങ്ങള	-9.74672
ര്‍ച്ച	-9.74756
▁മൊബൈൽ	-9.74811
താവ	-9.75013
▁ലക്ഷം	-9.75051
ിവിടെ	-9.7507
▁he	-9.75127
ti	-9.75144
▁ക്ര	-9.75212
▁പറ്റില്ല	-9.7535
▁ബേ	-9.7536
▁ഉപയോഗിക്കുന്നു	-9.75433
▁2017	-9.75434
ചെയ്	-9.75476
▁കമന്റ	-9.75484
▁ക്രിസ്തു	-9.75504
▁തുടക്ക	-9.75569
▁നഷ്ടപ്പെട്ട	-9.75668
▁സുരക്ഷ	-9.75699
ികളുടെ	-9.75716
൨	-9.75721
▁തലമുറ	-9.75729
എല്ലാ	-9.75795
▁വികസന	-9.75799
▁അനുഗ്രഹം	-9.75882
▁പിന്നാലെ	-9.75896
▁ലൂ	-9.75908
▁അങ്ങയുടെ	-9.75923
▁ആരെ	-9.75931
▁നു	-9.75957
▁ജനങ്ങളെ	-9.75989
▁പ്രാവശ്യം	-9.76007
▁സൗകര്യ	-9.76089
ൂട്ട	-9.76098
▁ഒന്നാം	-9.76101
ാനാവ	-9.76108
▁കോട്ട	-9.76147
▁വീണ	-9.76291
▁കെട്ട	-9.76312
▁അനുമതി	-9.76358
▁ജ്ഞാന	-9.76379
▁കിട്ടും	-9.76386
▁29	-9.76404
▁ധരിച്ച	-9.76412
ത്തെപ്പറ്റി	-9.76422
▁ഇല്ലാതെ	-9.76427
ay	-9.76443
▁സ്വന്ത	-9.76458
▁നവ	-9.76513
▁അകത്ത	-9.76525
▁ചെലവഴിക്ക	-9.76555
▁മന്ത്രി	-9.76571
="1	-9.76576
▁തെറ്റായ	-9.76608
▁അറിയുന്ന	-9.76616
▁ചെവി	-9.76627
▁നിത്യ	-9.76646
▁ഇതുപോലെ	-9.76669
▁തീരുമാനിച്ചു	-9.76678
▁പാഠ	-9.76759
▁അതിനുള്ള	-9.76783
വര്‍ക്കും	-9.76791
യാക്ക	-9.76884
▁ആരോ	-9.76887
▁മുകളില	-9.76895
▁ഘട്ട	-9.76898
▁ജനങ്ങളുടെ	-9.76904
ഹു	-9.76956
ുന്നില്ലേ	-9.77063
▁പ്രണയം	-9.77076
▁പെരു	-9.77106
ിന്നു	-9.7711
ങ്ങളോ	-9.77132
ies	-9.77196
▁ആരാ	-9.77225
▁ലൈംഗിക	-9.77284
▁വെളുത്ത	-9.77333
▁ലേഖന	-9.7739
▁ശ്രദ്ധിക്കുക	-9.774
ൊന്ന്	-9.77414
▁അവിട	-9.77494
▁മുന്‍പ്	-9.775
▁അഭിമാന	-9.77518
▁ഉപേക്ഷിക്ക	-9.77534
ക്കറിയാം	-9.77541
▁ഉദാഹരണ	-9.77581
▁ആഹാരം	-9.77691
▁കുറ്റം	-9.77693
▁വിവരങ്ങള്‍	-9.77724
▁മിക്ക	-9.77734
▁രീതിയിൽ	-9.77738
▁സാങ്കേതിക	-9.77771
▁സ്വാതന്ത്ര്യ	-9.77805
▁ഷെ	-9.77813
▁താങ്കള	-9.7783
▁ബ്ലോഗ	-9.77896
▁k	-9.77899
▁കുട്ടികളുടെ	-9.77901
▁തിരു	-9.77964
മുഖ	-9.77994
▁അനേകം	-9.78004
ne	-9.78047
ംബ	-9.78069
മില്ലാതെ	-9.78085
▁ലോകത്ത	-9.78163
▁നിലയില്‍	-9.78167
ാണി	-9.7819
ക്കാണ	-9.782
▁തോന്നിയ	-9.78246
യാത്ര	-9.78247
▁കത്ത	-9.78312
▁ഉള്‍	-9.78357
യാൽ	-9.78379
രോഗ	-9.78405
▁പൂച്ച	-9.78426
▁വിശേഷ	-9.78428
▁മേല	-9.78477
▁അറബി	-9.78513
ോട്ട്	-9.78515
ിപ്പോക	-9.78581
▁രുചി	-9.78698
▁നോക്കാം	-9.78717
▁നാഥന	-9.78743
▁പ്രവേശിക്ക	-9.78782
▁ഉറക്ക	-9.7883
ികളെ	-9.78837
▁അയാള	-9.78856
▁സത്യവിശ്വാസികള	-9.78867
▁ഒരാളെ	-9.7889
▁@	-9.78905
▁മൊത്തം	-9.78919
ുകാർ	-9.78927
തന്നെയാണ്	-9.7893
ുണ്ടെന്ന്	-9.78949
▁നയ	-9.78965
▁വസ്ത്രം	-9.79029
▁നിർത്ത	-9.79055
പാല	-9.79061
▁അനുഭവിക്ക	-9.7911
▁രാവ	-9.79116
▁തെളിയിക്ക	-9.79121
▁പച്ച	-9.79138
▁പണിയ	-9.79175
▁ഹോട്ടല	-9.79183
മെന്റ്	-9.7923
▁പ്രായ	-9.79242
▁രാജ്യത്തെ	-9.79436
▁കുറിച്ച	-9.79445
▁കോള	-9.79459
▁ഭാഗ്യ	-9.79465
▁മുതല	-9.79484
ക്സി	-9.79484
▁ക്രമ	-9.7949
ുകളാണ്	-9.79605
▁വരൂ	-9.79621
വേഷ	-9.79679
ദിന	-9.79791
▁from	-9.79859
▁ദ്വീപ	-9.7987
▁ലളിത	-9.79893
▁വിശ്വാസി	-9.79898
▁ബോട്ട	-9.79915
ശക്തി	-9.80016
▁എല്ലാവർക്കും	-9.80028
▁ട്രെയിൻ	-9.80045
▁തികച്ചും	-9.8007
▁വിശ്വസിക്കുന്നു	-9.8008
▁ഒടുവിൽ	-9.80086
▁കോപ	-9.80127
▁കൊച്ചു	-9.80133
▁പ്രോ	-9.80167
▁ഒടുവില്‍	-9.80338
നിങ്ങൾ	-9.80454
വിന്റെ	-9.80463
17	-9.80501
60	-9.80538
പ്പൊ	-9.80545
ാണുള്ളത്	-9.80564
▁con	-9.80581
▁ദൈവമേ	-9.80653
▁നല്‍കും	-9.80674
ന്ധ	-9.80734
▁എയർ	-9.80743
ാനാ	-9.80829
▁തെറ്റു	-9.80832
▁മറ്റുള്ളവരെ	-9.80847
▁അവതരിപ്പിച്ച	-9.80851
അവര്‍	-9.80858
▁നാട്ടില്‍	-9.80867
▁കുഴപ്പ	-9.81021
▁നിങ്ങൾക്കു	-9.8104
ുടേയും	-9.81067
▁കൃത്യമായ	-9.81104
▁അക്	-9.81118
▁പ്രയോജന	-9.81125
▁മകന	-9.81126
200	-9.81139
ിയിരുന്നു	-9.81249
മാത്ര	-9.81263
▁Co	-9.81298
+	-9.81335
▁സ്ത്രീകള്‍	-9.81406
▁അപ	-9.81428
▁സമീപ	-9.81447
▁വക	-9.81463
▁ക്ഷ	-9.81501
ആര	-9.81536
▁ചിലർ	-9.81586
▁താങ്കൾ	-9.81587
ാന്	-9.81606
▁ഉൽപ്പന്ന	-9.81671
▁ഓൺലൈൻ	-9.81705
▁രോഗം	-9.81707
▁പാപങ്ങള്‍	-9.81826
▁കാര്യമാണ്	-9.81864
▁ജീവന്‍	-9.81875
▁അമിത	-9.8189
▁വസ്തുത	-9.81945
▁we	-9.8195
▁ഉയിര്‍ത്തെഴുന്ന	-9.82028
െഴുത	-9.82037
ദ്ധ്യ	-9.82045
▁തര്‍ക്ക	-9.82069
▁ലഭിക്കുന്ന	-9.82127
ില്ലല്ലോ	-9.82161
▁കലാ	-9.8229
ാർത്ഥ	-9.82293
▁ഭർത്താവ	-9.82335
▁വേഗത	-9.82379
▁ചുമ	-9.82415
▁st	-9.82469
▁മുമ്പില്‍	-9.82501
പൂ	-9.82539
ശു	-9.8256
em	-9.82563
▁എത്രയോ	-9.82584
▁അന്ത	-9.82603
ലിന്റെ	-9.82642
vi	-9.82646
പ്പാട	-9.82683
▁ചെറുത	-9.82716
▁മക്കളെ	-9.82717
▁വിലയിരുത്ത	-9.82763
ക്കൊണ്ട	-9.82788
നിന്നും	-9.82806
*	-9.8282
▁An	-9.82849
▁രേഖ	-9.82853
ീകരി	-9.82883
ക്കാൾ	-9.82885
▁അതോടെ	-9.829
▁ഭാവ	-9.82907
▁കൊണ്ടാണ്	-9.82926
▁സൈനിക	-9.8294
▁തരാം	-9.82964
▁ജീവിതത്തിൽ	-9.83003
▁വീണു	-9.83013
ക്കള	-9.83013
റ്ററ	-9.83026
മ്പി	-9.83045
ുകയുമില്ല	-9.83123
▁ഓര്‍ക്ക	-9.8313
▁വസ്ത്ര	-9.83132
സഭ	-9.83145
ty	-9.83168
▁ഗാ	-9.83169
▁സമ്പത്ത	-9.83179
▁നില്‍ക്കുന്ന	-9.83179
ിക്കാന	-9.83207
▁ആണ	-9.83216
▁ആലോചിക്ക	-9.83228
co	-9.83246
നബിയേ	-9.83263
േണ്ടതാണ്	-9.83298
▁pro	-9.83308
ജ്ഞാന	-9.83338
▁പ്രതിരോധ	-9.83369
മുണ്ടായിരുന്നു	-9.83415
▁വെച്ചു	-9.83439
▁ശത്രു	-9.83467
80	-9.83492
40	-9.83552
െണ്ണ	-9.83584
കഴിഞ്ഞ	-9.83595
വനാണ്	-9.83698
ിച്ചിരിക്കുന്നു	-9.8371
▁ബാധിക്ക	-9.83712
മനുഷ്യ	-9.83734
▁വിഷ	-9.83785
▁പാര	-9.8392
ശ്ര	-9.83956
ജെ	-9.84005
▁സാധാരണയായി	-9.84029
▁തണുപ്പ	-9.8406
▁പൊറുക്കുന്നവനും	-9.84154
▁സംഗതി	-9.84158
ud	-9.84248
▁name	-9.8436
▁Ma	-9.84367
▁നിന്നോട്	-9.84486
▁അറിയുന്നില്ല	-9.84525
▁se	-9.84543
ടോ	-9.84545
▁ശ്രമിച്ചു	-9.84609
▁Mo	-9.84625
▁വേണോ	-9.84645
99	-9.84667
ങ്ങളെല്ലാം	-9.8471
ികള	-9.84712
–	-9.84718
െന്നെ	-9.84722
പൊ	-9.84734
മെന്ന്	-9.84765
▁അറിയാമോ	-9.84828
▁കഴിഞ്ഞില്ല	-9.84858
▁ഉപദേശം	-9.84892
▁ഒപ്പ	-9.84902
▁വാങ്ങിയ	-9.84933
▁പ്രായം	-9.84962
▁തരത്തിലുള്ള	-9.84974
▁നിശ്ചിത	-9.84987
ാണെന്നു	-9.85077
▁Ch	-9.85095
ൊരിക്കലും	-9.85143
▁തൃപ്തി	-9.85163
ിരിക്കുക	-9.85201
▁തീര്‍ച്ച	-9.85228
േക്കാള്‍	-9.85276
▁ഷൂ	-9.85288
▁ചുരുക്ക	-9.85306
▁നേടി	-9.85309
▁സർക്കാർ	-9.85318
▁തെരഞ്ഞെടുക്ക	-9.8532
ോളൂ	-9.85365
▁മണിക്കൂർ	-9.85461
▁പതുക്കെ	-9.85479
യല്ലേ	-9.85525
▁മനുഷ്യര്‍	-9.85536
ക്കൊരു	-9.85568
ുണ്ടായിരുന്ന	-9.85576
ുന്നതിനായി	-9.85684
▁ആസ്വദിക്ക	-9.85691
▁തോട്ട	-9.85842
▁ചായ	-9.85848
തെന്ന	-9.85872
കളിലൂടെ	-9.85909
ുന്നതിൽ	-9.85951
▁മുൻപ്	-9.85955
▁അതാ	-9.85966
▁at	-9.8603
▁ലളിതമായ	-9.86039
▁ചോദിക്കുന്നു	-9.86061
▁വന്ന്	-9.86071
ian	-9.86084
ുന്നവരെ	-9.86093
ളള	-9.86107
ാരും	-9.86128
▁കാലാവസ്ഥ	-9.86234
▁എന്തിന്	-9.8627
▁ഭൂമിയുടെ	-9.86285
ോൺ	-9.86289
▁2014	-9.8631
മിന	-9.8639
▁[...]	-9.86507
ാകണം	-9.86517
ുകയുള്ളൂ	-9.86557
▁ഫോണ്‍	-9.86567
▁ബാഗ്	-9.86605
▁പ്രപഞ്ച	-9.86613
വശ	-9.86649
▁മറ്റ	-9.86652
▁ma	-9.86688
▁സിസ്റ്റം	-9.86704
▁നിശ്ചയിച്ച	-9.86721
▁അനുവദിച്ച	-9.86793
▁(1	-9.8683
▁ദിവസത്തെ	-9.86883
▁ജൂ	-9.86899
ോട്ട	-9.87012
▁‍	-9.87022
വല്ലോ	-9.8703
▁അച്ഛന	-9.87036
▁അഞ്ച	-9.87059
നോട്	-9.87071
▁നിങ്ങളും	-9.87164
ാണെങ്കിൽ	-9.87169
കൊള്ളുക	-9.87174
ര്‍ത്തി	-9.87221
ക്കാരുടെ	-9.87316
▁ഗവേഷണ	-9.87447
▁ശതമാന	-9.87466
ൊന്നുമല്ല	-9.87474
▁തെരുവ	-9.87475
▁സമുദ്ര	-9.87479
▁റീ	-9.87571
▁തരും	-9.87586
ാവാം	-9.87597
▁പുരോഹിത	-9.87597
പെടുത്ത	-9.87614
എന്	-9.87616
ാകാന്‍	-9.87631
21	-9.87663
മൊന്നും	-9.87668
▁ഉടൻ	-9.87681
▁കപ്പല	-9.87695
ph	-9.87698
▁യുക്തി	-9.87727
▁തിരുത്ത	-9.87753
▁ഇഷ്ടപ്പെടുന്ന	-9.87756
▁അതേസമയം	-9.87832
ാവസ്ഥ	-9.87873
▁സാമൂഹിക	-9.87889
▁31	-9.87902
ൊന്നുമില്ല	-9.8791
കളായ	-9.87914
റ്റുകൾ	-9.87926
ന്തു	-9.88012
▁പക	-9.88029
▁മാർ	-9.88063
2)	-9.88077
▁ന്യായ	-9.8808
ിക്കൽ	-9.88144
▁ചർച്ച	-9.88153
▁പറയുകയും	-9.88159
▁ഒരുപക്ഷേ	-9.88165
▁സൈറ്റ	-9.88184
▁അന്ത്യ	-9.88242
▁ഉം	-9.88311
▁വിശദീകരിക്ക	-9.88344
ങ്ങളുടെയും	-9.88362
▁നോ	-9.88368
ഃ	-9.88389
ice	-9.88397
ഴ്സ	-9.884
▁വ്യത്യസ്തമായ	-9.88403
ുള്ളതാണ്	-9.88404
ുമ്പോഴ	-9.88433
art	-9.88582
▁ചെയ്തിരുന്നു	-9.88608
▁ചെയ്യാന	-9.8861
me	-9.88613
തെന്നും	-9.8867
▁ഷോ	-9.88683
▁മഞ്ഞ	-9.88719
പ്പിച്ച	-9.88748
▁രംഗത്ത	-9.8877
▁പ്രതികരിക്ക	-9.88786
മണി	-9.88793
▁ഇല	-9.88804
▁ഇപ്പൊ	-9.88849
▁അറിഞ്ഞു	-9.88852
കൈ	-9.88871
▁മൂലം	-9.8892
▁വ്യാപ	-9.8896
പ്പുറം	-9.88996
22	-9.88997
▁ഇതും	-9.89022
ള്ളി	-9.89078
൧	-9.89093
േജ്	-9.89106
▁മിസ്	-9.89139
▁അറിവ്	-9.89141
▁ഉത്തമ	-9.89159
▁ടീം	-9.89161
▁സാക്ഷ്യം	-9.89182
▁മുകളിൽ	-9.8922
ther	-9.89222
ുടേത	-9.8924
▁ഉണര	-9.8924
▁ഫെ	-9.89247
സത്യ	-9.89308
ായിത്തീര	-9.89326
ard	-9.89351
▁വിതരണക്കാർ	-9.89351
▁വയ്ക്ക	-9.89394
▁താളിൽ	-9.89486
കാലത്ത്	-9.89492
താകുന്നു	-9.89531
▁നീക്കം	-9.89531
▁യൂ	-9.89545
▁ഉദ്	-9.8955
യിരിക്ക	-9.89583
ഖ്	-9.89603
▁സംഗീതം	-9.89652
▁മറന്ന	-9.89655
ുമുള്ള	-9.8966
ിരിക്കണം	-9.89675
▁ദൈവമായ	-9.89676
▁നമ്മ	-9.89693
▁പിന്തുടര	-9.8972
▁ജീവിക്കുന്ന	-9.89731
▁മൊ	-9.89734
ാകുന്ന	-9.89767
▁സത്യത്തില്‍	-9.89825
3)	-9.89833
▁പറഞ്ഞ്	-9.89912
ിച്ചിരുന്നു	-9.89931
▁മനുഷ്യരെ	-9.90079
മ്പ്	-9.90084
▁നേരിട്ട്	-9.90106
▁താങ്കള്‍ക്ക്	-9.90109
ിങ്ങനെ	-9.90134
▁സമരം	-9.90148
▁ശി	-9.90157
▁അന്വേഷിക്ക	-9.90194
▁ബാധ്യത	-9.90194
-1	-9.90201
പുത്ര	-9.9021
ുന്നവരാണ്	-9.90222
▁സത്യനിഷേധികള്‍	-9.90248
▁that	-9.9025
▁കട്ട	-9.90285
▁കഴിഞ്ഞ്	-9.90291
▁സ്ത്രീകൾ	-9.903
18	-9.90341
▁പ്രസവ	-9.90351
▁മൂല	-9.90402
▁മുമ്പത്തെ	-9.90417
ക്കാരി	-9.90448
▁വിതരണം	-9.9045
ചാര	-9.90464
▁എനിക്കൊരു	-9.90466
ust	-9.90484
മുണ്ടായ	-9.90487
▁ഡോക്ടർ	-9.90495
▁വെല്ലുവിളി	-9.90564
▁കണ്ടുമുട്ട	-9.90616
ന്നും	-9.90655
▁രണ്ടാ	-9.90699
പ്പെടുത്തി	-9.90734
one	-9.90743
▁വിപണി	-9.90812
▁പാപമോചനം	-9.90845
വിശ്വാസ	-9.90855
യൊ	-9.90876
▁കാത്തു	-9.90905
▁കഥാപാത്ര	-9.90909
യില്ലാത്ത	-9.90918
▁ജൂലൈ	-9.90999
▁ചെല്ല	-9.91001
ദിവസം	-9.91016
4)	-9.91059
ക്കുറിച്ചു	-9.91131
▁ആരംഭിച്ചു	-9.91226
▁വീട്ടില	-9.91228
▁Th	-9.91235
▁ശീല	-9.91236
▁എഫ്	-9.9129
േഴ്സ്	-9.91424
▁മോശം	-9.91448
ുകയാണെങ്കിൽ	-9.91448
ിക്കപ്പെട്ട	-9.91528
ദേവ	-9.91538
വിനെ	-9.91552
▁ചിന്തിച്ച	-9.91567
16	-9.9164
പെട	-9.91654
മെങ്കിലും	-9.91728
▁2013	-9.91756
▁മറ്റുള്ളവര	-9.91784
▁ഒരിക്കൽ	-9.91798
▁വ്യക്തമായി	-9.91807
▁മനസ്സില്‍	-9.91816
ായിരിക്കാം	-9.91867
ുവോ	-9.91894
നീയ	-9.91929
▁തെറ്റ്	-9.91929
▁മനസ	-9.9193
ുന്നതിനെ	-9.91935
ജീവ	-9.91967
▁നൽകുന്ന	-9.91969
▁പ്രവർത്തന	-9.92071
▁ഫെബ്രുവരി	-9.92098
▁അക്രമ	-9.92112
▁ആരാധിക്ക	-9.92133
▁പാവം	-9.92151
▁പ്രധാനമാണ്	-9.92152
ഹോ	-9.92191
▁ഇതോടെ	-9.922
ഡർ	-9.92215
▁ഏതാണ്ട്	-9.92223
▁വിചാരിച്ച	-9.92224
▁രേഖപ്പെടുത്ത	-9.92224
▁നല്‍കുന്നു	-9.92239
ങ്ങളുണ്ട	-9.92283
▁കാണിക്കുന്ന	-9.92295
▁ഫ്ര	-9.92323
▁പകര	-9.92383
▁വടക്ക	-9.92412
▁വിജയിക്ക	-9.92416
▁രസകരമായ	-9.92429
▁താൻ	-9.92452
ure	-9.92458
കൊണ്ടിരുന്നു	-9.92476
▁അവനോട്	-9.92501
▁പരീക്ഷിക്ക	-9.92541
▁ഉപയോഗിക്കുക	-9.92554
▁സന്ദര്‍ഭം	-9.9256
▁ഗ്രഹ	-9.92575
▁മക്കള്‍	-9.92615
▁മുന്നോട്ടു	-9.92631
▁വിളി	-9.92632
▁യുവ	-9.92645
▁പിന്നെയും	-9.92665
▁മലയാള	-9.92674
ുണ്ടാകും	-9.92704
ജീവിത	-9.92743
▁പറയൂ	-9.92833
▁സ്വാഭാവിക	-9.92839
ുമായുള്ള	-9.92844
ുന്നവനും	-9.9285
ുമ്പോഴും	-9.92868
47	-9.9287
യിലേക്കു	-9.92873
്‍റെ	-9.92884
="2	-9.92895
▁സ്വഭാവ	-9.92896
രാജ്യ	-9.92917
ഭാ	-9.92938
ങ്ങ്	-9.92965
▁കണ്ട്	-9.92968
യെക്കുറിച്ച്	-9.92982
▁ഉണ്ടാക്കി	-9.93013
▁വെബ്	-9.93021
ത്തിനെ	-9.93063
▁തിരിച്ചുവിട്ട	-9.9308
▁ദൂര	-9.93081
▁കഴിയുമോ	-9.93094
▁സ്ഥാപിച്ച	-9.93121
ാലയ	-9.93137
പ്പെട്ടത്	-9.9317
ഭാഗത്ത	-9.93226
▁this	-9.93237
▁അവസാനിക്ക	-9.93255
താണു	-9.93269
ങ്ങളായി	-9.93299
▁കഴിയാത്ത	-9.93301
▁തുടർന്ന്	-9.93318
ാന്തര	-9.93333
ക്ഷണ	-9.93457
മാരും	-9.93475
ങ്കില	-9.93552
▁90	-9.93583
▁ചിലത്	-9.93651
▁ഉണ്ടാക്കിയ	-9.93668
▁ചുമതല	-9.93694
യാന	-9.93714
ഷന്‍	-9.93747
▁കാസിനോ	-9.93771
▁ചേർക്ക	-9.93796
▁നാടക	-9.93828
തിന്‍റെ	-9.93873
▁നഷ്ടം	-9.93873
▁കേസ്	-9.93886
ടിച്ച	-9.93918
▁No	-9.93936
▁അനുകൂല	-9.93944
ിക്കണം	-9.93952
ുമുണ്ട്	-9.93969
▁പരമ	-9.93988
▁പ്രാപിക്ക	-9.9399
▁മാതാവ	-9.94025
▁നടത്തുന്ന	-9.94084
ല്ലാവരും	-9.94087
▁പ്രതീക്ഷിച്ച	-9.94088
▁കയ്യ	-9.94094
▁ഈജിപ്	-9.94195
ക്കാരെ	-9.94213
▁നല്‍കുക	-9.94237
▁ഗ്ര	-9.94237
▁പറഞ്ഞതു	-9.9424
കളോ	-9.94299
▁തൊട	-9.94314
ുണ്ടായിരുന്നില്ല	-9.94343
പൂര്‍വ	-9.9435
▁അധി	-9.94355
ബല	-9.94365
▁സത്യനിഷേധികള	-9.94396
ie	-9.94397
മെന്റ	-9.94417
▁തടസ്സ	-9.94503
if	-9.94508
ുമല്ലോ	-9.94534
ുന്നവര്‍ക്ക്	-9.94599
▁ഒരുപോലെ	-9.9463
▁നിശ്ചയമായും	-9.94657
▁അവസാനത്തെ	-9.94674
▁സ്വാതന്ത്ര്യം	-9.94674
▁തൊഴില	-9.94674
▁ചോദ്യങ്ങള്‍	-9.94734
▁മാര്‍	-9.94757
താക്കള	-9.94824
ിക്കാം	-9.9483
ight	-9.94865
▁പരിഹാര	-9.94906
▁ചിന്തിക്കുന്ന	-9.94912
ണ്ടാ	-9.94941
▁എന്‍	-9.94951
ാളി	-9.94966
▁ക്യാമറ	-9.95045
ത്തരം	-9.95071
റ്റാ	-9.95083
ക്കിട	-9.95166
▁ജീവി	-9.95169
▁നേരിട്ട	-9.95196
▁ഭവന	-9.95216
▁ചേട്ട	-9.95243
എൻ	-9.95273
റപ്പ	-9.95326
▁മനസ്സു	-9.95337
▁നാമം	-9.9536
▁ചെയ്യുകയും	-9.95364
▁പ്രത്യേകത	-9.95373
▁ചോദ്യങ്ങൾ	-9.95374
കളയ	-9.95379
▁ഷാ	-9.95393
താണെന്ന്	-9.95421
ുമാകുന്നു	-9.95437
▁മുന്‍പ	-9.95441
▁നാഥാ	-9.95466
▁സംഭവിച്ചു	-9.95506
കരണ	-9.95513
▁നേര്‍	-9.95534
▁അതിഥി	-9.95566
▁അടക്ക	-9.95596
സ്ഥല	-9.95649
▁ഡോക്ടര്‍	-9.95671
▁തയ്യാറ	-9.9572
5)	-9.95733
▁സഹായിക്കുന്നു	-9.95737
ല്ലെ	-9.95772
▁നീണ്ട	-9.95776
▁ശരിയാണ്	-9.95777
▁അല്ലാഹുവില്‍	-9.95788
▁സൂക്ഷിക്കുക	-9.95804
▁അമ്മയുടെ	-9.95824
▁Se	-9.95857
▁മധ്യ	-9.95859
▁ഉൽപ്പന്നങ്ങൾ	-9.95944
▁ആശയം	-9.95951
ുവാനുള്ള	-9.95962
▁ഈശ്വര	-9.95973
▁അവരും	-9.95974
▁മെച്ചപ്പെടുത്ത	-9.96024
ുമെന്നു	-9.9603
▁ഇണ	-9.96073
▁do	-9.96128
▁പുരുഷ	-9.96185
▁മതം	-9.9623
കൂടെ	-9.96299
▁ധൈര്യ	-9.96303
ance	-9.96317
തായിരിക്കും	-9.96349
▁കഠിന	-9.96365
▁പൂജ	-9.96526
ബർ	-9.96537
IN	-9.96544
ീഷ	-9.96565
▁പ്രാര്‍ഥിക്ക	-9.96577
▁താമസ	-9.96577
യാണിത്	-9.96586
േനെ	-9.96593
ell	-9.96675
▁ആയിരം	-9.9669
▁പൂര്‍ണ്ണ	-9.96739
▁ആശങ്ക	-9.96751
▁പ്രേമ	-9.96784
▁കടക്ക	-9.96849
▁കൊലപാതക	-9.96927
▁താങ്കളെ	-9.96982
ുചെയ്യ	-9.97019
▁മിക്കവാറും	-9.97143
രോധ	-9.97209
▁പ്രക്രിയ	-9.97215
ധന	-9.97218
സിനെ	-9.97224
ical	-9.9727
▁ഉള്ളത്	-9.97287
ഗതി	-9.97311
▁മുഴുവനും	-9.9732
ass	-9.97334
▁ബാങ്ക്	-9.97352
▁``	-9.97363
▁വിധേയ	-9.97382
േറെ	-9.97395
േക്കാൾ	-9.97418
▁സ്ഥിര	-9.97424
▁ഉദാഹരണത്തിന്	-9.9746
കൃതി	-9.97499
മാക്കുന്ന	-9.97512
▁തെരഞ്ഞെടുപ്പ	-9.97515
▁ചെയ്യരുത്	-9.97558
ക്കൊപ്പം	-9.97565
▁അമ്പ	-9.97579
കളിലെ	-9.97639
▁ഏര്‍	-9.9764
▁താമസിക്ക	-9.9775
▁article	-9.9782
▁തനിക്ക്	-9.97854
▁അതൊക്കെ	-9.97898
ിയാല്‍	-9.97922
▁ദൃഷ്ടാന്ത	-9.97927
▁ഇരുന്നു	-9.97948
▁പങ്കെടുക്ക	-9.98036
▁2016	-9.9804
പ്രതി	-9.9804
തന്ന	-9.9807
▁Con	-9.98117
ിലേറെ	-9.98146
▁നികുതി	-9.9816
▁പേജ	-9.98188
▁ഫീ	-9.98218
act	-9.98267
ര്‍ത്ഥ	-9.98308
കൊടുത്തു	-9.98363
ധികം	-9.98388
▁ചീ	-9.98426
▁പുറത്താക്ക	-9.98495
▁സംഖ്യ	-9.98499
▁കുറഞ്ഞത്	-9.98501
▁കിഴക്ക	-9.98518
▁കണ	-9.98568
▁നേര്‍വഴി	-9.98569
▁പുരുഷന്മാര	-9.98595
▁തന്നെയാകുന്നു	-9.98626
▁വിധം	-9.9864
▁തീയതി	-9.98645
▁സാർ	-9.98731
to	-9.98736
▁ഇറങ്ങ	-9.98781
▁ഭാര	-9.98796
ഞങ്ങള്‍	-9.98802
▁ഇവര്‍ക്ക്	-9.98831
▁കൂട്ടത്തില്‍	-9.98944
ാമെന്ന്	-9.98956
▁മാത്രമ	-9.99086
മുണ്ടാക	-9.99105
▁മുൻപ	-9.99143
▁ദൃശ്യ	-9.99158
▁അടുപ്പ	-9.99193
▁ദുഷ്ട	-9.99195
ശ്ശ	-9.99213
ഗി	-9.99259
ധി	-9.99283
▁പൊറുത്തു	-9.99305
▁mo	-9.99311
▁നിഷേധിച്ചു	-9.9932
▁തക	-9.99398
ശീല	-9.99473
▁ശ്രമിക്കുക	-9.99483
▁പോകാം	-9.99517
ish	-9.9952
▁രചന	-9.99541
▁വിവാദ	-9.99562
ുമായിരുന്നില്ല	-9.9969
▁നല്ലതാണ്	-9.99695
▁ആവേശ	-9.99696
▁To	-9.99705
▁സജീവ	-9.99718
6)	-9.99769
................	-9.99832
അതെ	-9.99848
ദ്ദ	-9.99851
▁ഇമെയിൽ	-9.99877
▁മനുഷ്യന്	-9.99953
▁നാഥന്റെ	-9.99982
▁അതുകൊണ്ടാണ്	-9.99991
ction	-9.99992
▁അതിനുശേഷം	-10.0005
▁ഇതിനായി	-10.0005
ങ്ങളിലൂടെ	-10.001
തെങ്കില്‍	-10.001
െയിൻ	-10.0011
ുകൊണ്ടിരിക്കുന്ന	-10.0014
ക്ഷി	-10.0021
▁ആഗ്രഹിക്ക	-10.0022
ക്കാലം	-10.0026
▁ജന്മ	-10.0028
▁നിക്ഷേപ	-10.0034
▁ദുര്‍	-10.0035
▁മുഖ്യ	-10.0035
▁അന്വേഷണ	-10.0038
▁ഡിസൈൻ	-10.0041
തിലും	-10.0042
▁മുറ	-10.0042
▁ആത്മഹത്യ	-10.0045
ിലാ	-10.0047
▁വിശപ്പ	-10.0051
▁ഉണ്ടായിരിക്ക	-10.0054
▁ക്ലാസ	-10.0054
▁പോകാൻ	-10.0054
▁വിളിക്കുന്നു	-10.006
ുണ്ടാക്കിയ	-10.006
▁തള	-10.0061
▁ആരാധന	-10.0064
14	-10.0065
▁പഠിപ്പിച്ച	-10.0068
able	-10.0068
70	-10.0069
▁ഗൗരവ	-10.0076
▁കീഴ്	-10.008
െങ്ങനെ	-10.0084
▁ഇപ്പോഴത്തെ	-10.0085
▁സലാം	-10.0087
▁an	-10.009
മായിരുന്നില്ല	-10.0092
തിരി	-10.0093
(1	-10.0097
▁n	-10.0097
▁അടുക്ക	-10.0098
▁അഭി	-10.0098
▁അമ്മയെ	-10.0102
▁വിനോദ	-10.0103
ുമെന്നാണ്	-10.0105
ത്തേക്കു	-10.0107
▁ദുര	-10.0108
▁ജോൺ	-10.011
▁ക്യാ	-10.0111
▁തീരെ	-10.0113
▁പ്രത്യക്ഷ	-10.0116
തൊന്നും	-10.0116
▁ആഫ്രിക്ക	-10.0119
▁ഉപയോഗം	-10.012
▁എനിക്കറിയില്ല	-10.013
▁വച്ച്	-10.0132
▁രൂപം	-10.0136
▁പോലീസ	-10.0138
▁ആധുനിക	-10.0141
der	-10.0144
▁ദൈവത്തിന്‍റെ	-10.0146
▁കിട്ടുന്ന	-10.0147
കെട്ട	-10.0148
▁അഹങ്കാര	-10.0148
▁നേ	-10.0148
വരുന്ന	-10.0151
ചിത	-10.0154
▁പത്ത്	-10.0159
▁കത്തി	-10.0161
▁അതിനായി	-10.0171
ന്‍മാര്‍	-10.018
▁കൊന്ന	-10.018
രുതേ	-10.0181
▁കാണണം	-10.0184
▁വോട്ട	-10.0184
ില്ലെങ്കിൽ	-10.0184
▁പറഞ്ഞാൽ	-10.0185
▁ശ്രമം	-10.0186
ുന്നതിന	-10.0187
▁ലിസ്റ്റ	-10.0192
പുര	-10.0196
▁വെട്ടി	-10.0197
▁ഹേ	-10.0198
▁കാണുന്നില്ല	-10.02
▁സങ്കട	-10.02
ൊഴികെ	-10.0204
28	-10.0204
▁ഭാഗ്യം	-10.0209
പ്പെടുക	-10.0225
33	-10.0226
▁കണ്ണുകള്‍	-10.0226
▁as	-10.0227
▁ജനസംഖ്യ	-10.0228
കൊടുത്ത	-10.0229
▁who	-10.0234
▁തമ്മിൽ	-10.0237
▁കണ്ടില്ല	-10.0241
ാടി	-10.0246
ല്ലാത്ത	-10.0246
!!!	-10.0246
ുണ്ടെങ്കില്‍	-10.0247
ാവുക	-10.0249
▁കണ്ടത്	-10.0252
▁സഹോദരി	-10.0254
▁മരുഭൂമി	-10.0255
▁നാല	-10.0256
യുണ്ടോ	-10.0258
▁മുഴ	-10.0261
ധാര	-10.0261
▁മോഡൽ	-10.0275
▁പിന്‍	-10.0277
▁Pro	-10.0278
▁ഭയം	-10.0282
ിറ്റി	-10.0282
▁ഉറപ്പായും	-10.0284
ക്കൊ	-10.0287
▁പേജ്	-10.029
പ്പുറത്ത	-10.0293
വേണ്ടി	-10.0293
▁so	-10.0297
▁ബന്ധപ്പെടുക	-10.03
ിയിട്ടുണ്ട്	-10.0302
▁സാറ	-10.0309
▁പിറക	-10.0312
പതി	-10.0319
▁മോച	-10.032
മതി	-10.0322
ect	-10.0325
ടിച്ചു	-10.0326
െല്ലാ	-10.0327
▁35	-10.0328
▁അധികാരം	-10.0336
രിഞ്ഞ	-10.0338
up	-10.034
▁അമേരിക്കന്‍	-10.0351
ുന്നുവെങ്കില്‍	-10.0357
▁ഇരുപത	-10.0358
ഞ്ഞ്	-10.0372
▁ആണെന്ന്	-10.0373
േയുള്ളൂ	-10.0375
ിതമായ	-10.0376
യാകും	-10.038
▁കൊണ്ടുപോക	-10.0386
19	-10.0388
▁അവിടുത്തെ	-10.0391
മാണു	-10.0392
▁തടവ	-10.0394
▁ജയിക്ക	-10.0395
▁സര്‍ക്കാര	-10.0396
▁ആണു	-10.0397
▁മിനിറ്റ	-10.0402
▁റോഡ	-10.0402
▁എപ്പോഴാണ്	-10.0403
▁ചേര്‍ന്ന	-10.0409
▁കരാറ	-10.0409
▁v	-10.041
▁സര്‍വ്വ	-10.0412
▁സുന്ദര	-10.0412
▁കാർഡ്	-10.0414
വര്‍ഗ	-10.0414
▁Sh	-10.0416
▁എന്തിനു	-10.0418
▁വ്യാജ	-10.0421
▁സുരക്ഷാ	-10.0425
▁ബ്ലോഗ്	-10.0426
qu	-10.0429
ായിരം	-10.0433
▁ആയിരുന്ന	-10.044
▁തള്ള	-10.0447
▁കുട്ട	-10.0447
▁ചേച്ചി	-10.0447
▁Y	-10.045
▁വരി	-10.0455
▁വിലക്ക	-10.0456
▁ആക്രമണ	-10.0456
▁എന്തിന	-10.046
ുന്നതെന്ന്	-10.0462
▁ദുരിത	-10.0465
▁ചേ	-10.0468
▁കണക്ക	-10.0468
▁ഏതായാലും	-10.0469
▁സ്നേഹിക്കുന്നു	-10.0475
വനാകുന്നു	-10.0477
▁ബഹുമാന	-10.0477
ശിക്ഷ	-10.0483
▁കഴുക	-10.0488
▁പുഴ	-10.0489
ാലു	-10.049
ാണു്	-10.0491
▁ഓർക്ക	-10.0492
▁ചെറുപ്പ	-10.0492
ിടത്തോളം	-10.0492
▁വായനക്കാര	-10.0494
▁മകൻ	-10.0495
▁ചേര്‍ത്ത	-10.0496
▁പോലെയാണ്	-10.0499
▁വീടു	-10.0502
▁അഗ്നി	-10.0507
ിരി	-10.0509
യാഗ	-10.0509
ങ്ങളുമായി	-10.051
ex	-10.0512
പ്പോയ	-10.0513
▁2011	-10.0513
=	-10.0521
▁ധാരണ	-10.0527
▁മറ്റേ	-10.0535
▁ജീവിതത്തിലെ	-10.0542
രാമ	-10.0542
▁എവിടെയാണ്	-10.0546
ചു	-10.0546
▁ഡ്ര	-10.0547
ാത്മക	-10.0555
▁കക്ഷി	-10.0562
▁പണ്ട	-10.0564
▁ജപ്പാന	-10.0565
▁ചന്ദ്രന	-10.0566
▁തന്നു	-10.0566
▁ആർക്കും	-10.0567
J	-10.0567
▁പ്രശസ്ത	-10.0572
▁ഛ	-10.0576
86	-10.0576
ിക്കളയ	-10.0578
ദിനം	-10.0581
35	-10.0581
▁പാർ	-10.0582
ര്‍ന്ന	-10.0585
▁മോഡ	-10.0586
കളിലേക്ക്	-10.0588
▁നീങ്ങ	-10.0588
▁കാലഘട്ട	-10.0588
▁നിയന്ത്രണ	-10.0591
▁കാൽ	-10.0592
വളെ	-10.0595
▁വൈകി	-10.0597
▁സമ്മാനം	-10.0599
▁വള	-10.0601
െടുത്ത്	-10.0604
▁ഉൾ	-10.0609
▁പ്രശ്നങ്ങൾ	-10.0612
▁ക്ഷണിക്ക	-10.062
തിനേക്കാള്‍	-10.062
▁സ്കൂള	-10.062
▁You	-10.0621
വതി	-10.0621
▁ചൊ	-10.0621
▁കൂള	-10.0625
ിച്ചാല്‍	-10.0626
ig	-10.0628
െന്നോ	-10.0635
▁ശവ	-10.0636
▁നാവ	-10.0636
ഷണം	-10.0637
▁വിരല	-10.0637
ാവൂ	-10.0643
▁ഓണ	-10.0644
യാക്കി	-10.065
end	-10.065
ില്ലാതെ	-10.0651
▁മടക്ക	-10.0654
▁ദിവ്യ	-10.0655
▁എളുപ്പമാണ്	-10.0662
▁ജീവിതത്തിന്റെ	-10.0666
▁സംസ്കാര	-10.0671
▁മനസ്സ്	-10.0671
▁യാത്രാ	-10.0679
▁ex	-10.0679
▁സമ്മതിക്ക	-10.068
▁എളുപ്പം	-10.0681
▁എന്തിനാ	-10.0681
▁വർഷങ്ങൾ	-10.0683
▁ഒരുമിച്ചു	-10.0683
ru	-10.0686
ag	-10.0686
26	-10.0687
േഷന	-10.0688
▁ട്രെയിന	-10.0688
ന്നാ	-10.0689
ുമൊക്കെ	-10.069
▁ഉടമ	-10.0693
ഞ്ച്	-10.0696
▁പരിശീലനം	-10.0698
▁ഉടന്‍	-10.0698
▁നിലപാട	-10.0699
▁ഉണ്ടായി	-10.0699
▁ഉപയോഗിക്കുന്നത്	-10.0704
വാഹ	-10.0704
ub	-10.0705
▁സാഹിത്യ	-10.0708
▁ആകാം	-10.071
▁മറ്റാര	-10.0711
8)	-10.0711
▁താമസിക്കുന്ന	-10.0715
▁ശൈലി	-10.0719
▁അവസാനിപ്പിക്ക	-10.0721
▁എവിട	-10.0722
▁ആഹാര	-10.0723
വശത്ത	-10.0724
▁പരിഹാരം	-10.0724
▁തന്നെയാണ	-10.0725
▁യൂണിവേഴ്സിറ്റി	-10.0728
▁സ്ത്രീകളെ	-10.0729
▁മീന	-10.0738
▁ഭര്‍ത്താവ	-10.0744
▁പോകാന്‍	-10.0744
cl	-10.0745
▁മുസ്ലിം	-10.0746
ില്ലായിരുന്നു	-10.0749
46	-10.075
രഹിത	-10.0757
ുവെന്ന	-10.0757
▁കടം	-10.0761
31	-10.0762
ിനായി	-10.0762
▁സ്വന്തമായി	-10.0762
▁കുറച്ച	-10.0765
യാള്‍	-10.077
▁പാർട്ടി	-10.077
▁നൽകാൻ	-10.077
യുണ്ട	-10.0773
▁വേഷ	-10.0774
▁ഭരണഘടന	-10.0778
▁വിവരണം	-10.0784
േറിയ	-10.0789
▁ദയ	-10.079
▁തിന്മ	-10.0792
bo	-10.0792
▁ഹരി	-10.0793
കള്‍ക്കും	-10.0794
13	-10.0799
▁മലയാളി	-10.0801
▁പരമകാരുണികന	-10.0805
▁കരുത്ത	-10.0805
▁മറിയ	-10.0805
▁തുടര്‍ന്നു	-10.0809
▁നടക്കുന്നത്	-10.0818
▁നിര്‍ബന്ധ	-10.0826
▁എന്നീ	-10.0827
▁ഇക്കാര്യം	-10.0827
ക്കുട്ടി	-10.0828
▁ദോഷ	-10.0828
use	-10.0829
ദീ	-10.0831
മേൽ	-10.0832
▁ചിത്രങ്ങൾ	-10.0834
ുന്നതല്ല	-10.0835
▁ഗാന	-10.0835
വാര	-10.0837
യിരുന്നു	-10.0839
29	-10.0843
മത്രെ	-10.0844
▁വൈകാതെ	-10.0844
▁വിധിക്ക	-10.0848
▁തുടർന്നു	-10.085
▁ഇഷ്ടപ്പെട	-10.0852
റിയില്ല	-10.0853
▁ഏതാണ്	-10.0853
▁ഇബ്	-10.0854
യായിരുന്ന	-10.0854
▁all	-10.0858
▁ബ്ല	-10.0862
@	-10.0867
ടീ	-10.0878
34	-10.088
▁അവനാണ്	-10.0883
▁ഇന്റ	-10.0884
▁അവകാശം	-10.0884
▁എഴുത്ത	-10.0884
▁അറിയാത്ത	-10.0885
▁വിലാസം	-10.0889
ങ്ങിയ	-10.0889
na	-10.0893
ci	-10.0894
▁തെളിഞ്ഞ	-10.0898
27	-10.0901
▁പരാജയ	-10.0912
▁പ്ലേ	-10.0914
▁ബീ	-10.0917
36	-10.0919
▁പറഞ്ഞില്ല	-10.0924
▁അനീതി	-10.0925
▁ഇസ്രായേല	-10.0925
▁മത്സരം	-10.093
▁എന്താണെന്ന്	-10.0934
സൺ	-10.0939
▁മിണ്ട	-10.094
ബിൾ	-10.0941
▁അപമാന	-10.0945
▁ആവശ്യമുള്ള	-10.0946
▁പ്ല	-10.0953
തൃ	-10.0958
▁നാട്ട	-10.096
▁വേണ	-10.096
▁ചുവന്ന	-10.0962
▁വര്‍ഷത്തെ	-10.0964
▁രാമ	-10.0966
▁തെറ്റി	-10.0969
▁ക്ഷീണ	-10.097
▁മനുഷ്യരുടെ	-10.0971
▁പദവി	-10.0971
▁വിശ്വ	-10.0976
ക്കുറിച്ച	-10.0976
പ്പോക	-10.0976
▁മറിച്ച്	-10.0978
▁കുപ്പി	-10.0979
▁ഇന്ത്യയിലെ	-10.0982
▁വളര്‍ത്ത	-10.0991
▁കുറവ്	-10.0991
▁പ്രൊ	-10.0992
▁ഇന്ത്യന്‍	-10.0994
▁പാറ	-10.0998
▁അന്ധ	-10.0999
റിയാ	-10.1009
▁കെട്ടിട	-10.1009
▁ഞ	-10.101
▁താഴ	-10.1012
▁will	-10.1024
▁ജനങ്ങൾ	-10.1024
▁ചെയ്യേണ്ട	-10.1026
▁ഉറക്കം	-10.1031
▁കാത്തിരിക്കുന്ന	-10.1031
▁ഓര്‍ക്കുക	-10.1033
▁സിറ്റി	-10.1034
▁കൃതി	-10.1038
▁അവതരിപ്പിച്ചു	-10.1038
ൈന	-10.104
▁നാശ	-10.1041
▁മാപ്പ	-10.1041
▁r	-10.1044
▁എല്ലാവരെയും	-10.1045
▁അനാഥ	-10.1045
തുകൊണ്ടു	-10.1048
▁സംഭാവന	-10.1049
ഭൂമി	-10.1049
▁ശാരീരിക	-10.1051
ങ	-10.1054
ost	-10.1061
നില്‍ക്ക	-10.1062
▁രണ്ടോ	-10.1067
▁വാക്യ	-10.1068
ta	-10.1068
▁ഒക്കെയും	-10.1069
ുന്നതുവരെ	-10.107
▁ജനുവരി	-10.1071
▁താല്പര്യ	-10.1071
7)	-10.1072
മാകുന്ന	-10.1072
▁നേട്ട	-10.1075
▁അത്രയും	-10.1078
ുകൊടുക്ക	-10.1078
▁തിരിച്ചെത്ത	-10.1079
▁ഭയങ്കര	-10.1083
mp	-10.1084
▁പൂർത്തിയാക്ക	-10.1085
ണമെന്നും	-10.1086
ര്‍ജ	-10.1088
▁ആരു	-10.1089
▁തരൂ	-10.1091
▁ചതി	-10.1094
▁വരില്ല	-10.1096
ാവുകയും	-10.1097
മാല	-10.1099
വചന	-10.1102
ട്ടേ	-10.1106
▁പ്രതികരണ	-10.1122
▁വിശ്വസ്ത	-10.1124
ോടി	-10.1124
ലുകള്‍	-10.1127
▁ചന്ദ്ര	-10.1132
രാജാവ	-10.1132
▁നിർമ്മാണ	-10.1133
കാര്യം	-10.1134
മാസ	-10.1137
▁ബാറ്ററി	-10.1139
ary	-10.1139
▁കേരളത്തിലെ	-10.114
▁അരി	-10.1142
പെ	-10.1142
പിന്നെ	-10.1146
▁പന്ത	-10.115
▁ഈശോ	-10.1152
പാത	-10.1153
ണമേ	-10.1157
ിലോ	-10.1159
▁നിശബ്ദ	-10.1159
ase	-10.1162
▁ഗു	-10.1168
▁ലഭ്യമാണ്	-10.1173
▁ചേര്‍ക്ക	-10.1174
▁കണ്ടിട്ടില്ല	-10.1175
▁അനുയോജ്യമായ	-10.1177
ഞ്ജ	-10.1181
56	-10.1186
▁അടുക്കള	-10.1187
▁സംഭവിച്ചത്	-10.1188
ര്‍ഹ	-10.119
ide	-10.119
കുല	-10.1192
▁വാതില	-10.1197
▁അർത്ഥ	-10.1199
▁പുലര്‍ത്ത	-10.1203
▁മാത്രമാകുന്നു	-10.1203
▁സഹകരണ	-10.1206
po	-10.1206
▁ആഗ്രഹിച്ച	-10.1209
▁അങ്ങനെയാണ്	-10.1212
▁ശത്രുവ	-10.1212
▁ഉപകരണങ്ങൾ	-10.1213
ാറു	-10.1217
▁തിരഞ്ഞെടുക്കുക	-10.1218
▁പ്രതിസന്ധി	-10.1218
സമയം	-10.1218
57	-10.122
▁പ്രസംഗ	-10.1221
▁അളവ്	-10.1226
▁ജനങ്ങള	-10.1238
▁കേരളം	-10.124
▁പ്രത്യേകിച്ച്	-10.124
▁വിചാരണ	-10.1241
▁ഹിന്ദു	-10.1243
▁വാർത്തകൾ	-10.125
mo	-10.1257
ജ്ജ	-10.1273
▁man	-10.1274
▁വെളി	-10.1278
ന്‍മാര	-10.1278
കളോട്	-10.1282
▁മാര്‍ഗത്തില്‍	-10.1282
▁കണ്ണുകള	-10.1286
ുന്നതായി	-10.1287
ob	-10.1289
hy	-10.1295
▁വൈക	-10.1295
ുണ്ടാകുന്ന	-10.1297
▁200	-10.1302
▁മുള	-10.1302
▁ഒരുമിച്ച്	-10.1307
േശ	-10.1307
▁എഴുന്നേറ്റു	-10.1321
▁ഉയര്‍ത്ത	-10.1324
▁ശിക്ഷിക്ക	-10.1324
▁സഹോദരന്മാര	-10.1325
▁ഡ്രൈവർ	-10.1325
ുന്നവരും	-10.1325
▁വല്ലവനും	-10.1325
▁മുന്നോട്ട്	-10.133
▁കാരണമാക	-10.1331
▁മുഖ്യമന്ത്രി	-10.1334
▁സൗജന്യ	-10.1336
ഫെ	-10.1339
▁അര്‍ത്ഥ	-10.1341
▁മനോ	-10.1341
▁മേഘ	-10.1344
▁എന്തും	-10.1349
ുകളിലും	-10.136
▁രാജാവ്	-10.136
▁ലീ	-10.1361
ac	-10.1363
▁ഭൂമിയെ	-10.1364
▁ആരോപണ	-10.1365
ുമായിരിക്കും	-10.1366
ഥാ	-10.1369
▁എന്തൊരു	-10.1374
no	-10.1381
▁സ്വപ്	-10.1382
റിയുന്ന	-10.1383
മനസ്	-10.139
▁പേടിക്ക	-10.1391
▁നിറവേറ്റ	-10.1392
▁ടൈ	-10.1392
▁ടെക്	-10.1394
▁വിമാനം	-10.1395
ർപ്പ	-10.1395
▁കോളേജ	-10.1398
▁Read	-10.1401
▁സൈന്യ	-10.1404
▁മൂല്യ	-10.1406
ാഴ്	-10.1412
ദൂ	-10.1413
മ്മാ	-10.1415
്യൂട്ട	-10.142
95	-10.1423
ക്കൂടി	-10.1429
മായിരിക്ക	-10.143
▁നിർ	-10.1434
▁യെഹൂദ	-10.1435
ബേ	-10.1435
ാണെന്നും	-10.1439
▁പലിശ	-10.1442
▁ഇന്‍	-10.1443
▁ചര	-10.1446
▁നിഴല	-10.1447
▁അധ്യാപക	-10.1447
▁നിന്നോടു	-10.1454
ഥി	-10.1455
▁ഘടന	-10.1456
മാണത്	-10.1459
▁കൈമാറ	-10.146
▁അവർക്കു	-10.1462
ങ്ങളായ	-10.1464
ശോ	-10.1466
▁ജീവൻ	-10.1467
ാലി	-10.148
ഭാഗ്യ	-10.1483
▁അപ്പോഴ	-10.1483
ന്ഗ്	-10.1484
▁പോരാട	-10.1485
ായിരുന്നോ	-10.1486
▁വിദ്യ	-10.149
ിറങ്ങ	-10.149
▁വേറൊരു	-10.1491
▁സ്കൂൾ	-10.1493
▁നടപ്പിലാക്ക	-10.1494
കളുടെയും	-10.1497
കളെല്ലാം	-10.1501
▁പഠിച്ചു	-10.1502
man	-10.1503
ിനൊപ്പം	-10.1505
▁മുറിവ	-10.1506
▁പ്രത്യേകം	-10.1514
▁സുന്ദരി	-10.1519
ട്ര	-10.1519
ദാന	-10.1521
ഡിയ	-10.1527
ണമെന്നില്ല	-10.153
▁മലയാളം	-10.1533
▁ചിരിക്ക	-10.1533
▁തിരിച്ചുവര	-10.1533
ബീ	-10.1536
▁വൃദ്ധ	-10.1539
▁ആകയാല്‍	-10.1542
ലൊ	-10.1543
▁ജനങ്ങള്‍ക്ക്	-10.1543
േലും	-10.1545
▁ഗുരുതരമായ	-10.1553
▁തന്ത്ര	-10.1554
▁അദ്ദേഹത്തിന്‍റെ	-10.1556
▁2008	-10.1557
▁കുട്ടിയെ	-10.1557
ധിക	-10.1561
▁ഇരുന്ന	-10.1563
▁അനുസരിച്ച്	-10.1565
lay	-10.1567
66	-10.1571
െങ്കിലുമ	-10.1571
▁കാപ്പി	-10.1572
▁വിഭവ	-10.1573
▁സമയത്ത	-10.1573
▁കൊല്ലം	-10.1573
▁ശിവ	-10.1577
സിസ്	-10.1577
▁ഗ്ലാസ്	-10.1589
▁പാക്കേജിംഗ്	-10.1591
▁പടിഞ്ഞാറ	-10.1592
കര്‍ത്താവ	-10.1593
▁വല്ലതും	-10.1594
▁Post	-10.1595
റിയാമോ	-10.1596
യെന്നു	-10.1597
▁നൂറു	-10.1598
▁%	-10.16
▁പ്രാധാന്യം	-10.1602
▁45	-10.1606
ങ്ങും	-10.1606
▁ഒഴിവ	-10.1611
കാരം	-10.1618
▁പ്രവാസി	-10.1618
▁ഉര	-10.162
▁അപ്പൊ	-10.1621
▁ആള്‍	-10.1622
ൊക്കെയും	-10.1622
▁റൂമ	-10.1622
റ്റര്‍	-10.1624
▁പിന്നില	-10.1624
▁Ar	-10.1625
▁എൻറെ	-10.1628
ഷ്ണ	-10.1629
▁പടി	-10.1632
▁32	-10.1635
▁പ്രോത്സാഹിപ്പി	-10.1637
തുമില്ല	-10.1639
▁വിശ്വാസികള്‍	-10.164
നിധി	-10.1649
▁നല്‍കപ്പെട്ട	-10.165
▁ഗ്രീ	-10.1655
▁സ്തുതി	-10.1666
▁2012	-10.1667
ിറക്ക	-10.1667
▁ഫയല	-10.1671
▁ഐക്യ	-10.1674
tic	-10.168
▁വ്യാപാര	-10.168
ചിത്ര	-10.1681
▁സന്	-10.1685
്യമായ	-10.1687
വയ്ക്ക	-10.1687
▁തൃ	-10.1689
ace	-10.169
▁വല്ലാതെ	-10.1691
ുണ്ടല്ലോ	-10.1694
69	-10.1697
▁ചെറുപ്പക്കാര	-10.1709
▁സംസാര	-10.1711
ang	-10.1711
മുള്ളവര	-10.1712
▁അങ്ങേ	-10.1716
നോക്ക	-10.1717
▁രക്ഷപ്പെട	-10.1718
ങ്ങളൊന്നും	-10.1719
വരിക	-10.1719
▁ആഘോഷിക്ക	-10.1719
▁can	-10.1723
▁താന	-10.1725
▁എതിർ	-10.1732
▁കല്‍പന	-10.1733
കീ	-10.1734
▁ഇല്ലാതാക്ക	-10.1735
▁എന്താണ	-10.1736
ip	-10.1744
▁കഠിനമായ	-10.1746
▁പിൻ	-10.1747
ങ്ങളുമ	-10.1751
▁മാര	-10.1754
▁റിസ	-10.1759
▁2010	-10.1764
ുണ്ടാവും	-10.1764
▁അച്ഛൻ	-10.1767
നിയമ	-10.1774
വിധം	-10.1778
▁പഠിപ്പിച്ചു	-10.1787
▁കുറവാണ്	-10.1787
▁പ്രവര്‍ത്തി	-10.179
▁മകനെ	-10.1793
▁തോന്നുന്നില്ല	-10.1794
ുണ്ടാവ	-10.1795
▁ടാങ്ക	-10.1797
▁സമൂഹം	-10.18
▁താക്കീത്	-10.1801
ക്കഴിഞ്ഞ	-10.1809
▁ആത്മീയ	-10.1813
▁അവന്ന്	-10.1815
ഷ്ഠ	-10.1819
▁സംസാരിക്കുന്ന	-10.1822
▁എന്നിട്ട	-10.1823
▁80	-10.1825
തരത്തില	-10.1832
▁മരുന്നു	-10.1833
▁ലക്ഷ	-10.184
▁പൊട്ടി	-10.1841
▁ഉത്തരവ	-10.1842
▁ഒന്നുമില്ല	-10.1844
യേശു	-10.1845
▁സ്റ്റീൽ	-10.1847
ue	-10.185
▁ജനന	-10.185
▁കുടി	-10.1851
▁അച്ച	-10.1852
son	-10.1859
ുണ്ടെന്ന	-10.1865
▁അനുഭവിച്ച	-10.1867
▁ഒരൊറ്റ	-10.1868
▁ഇതൊന്നും	-10.187
കൂട	-10.187
▁അപ്	-10.1871
▁words	-10.1877
▁കോഡ്	-10.1878
▁പുതുക്ക	-10.188
▁ഏഴ്	-10.1881
▁കരുതിയ	-10.1881
▁പ്രതികരണം	-10.1882
▁വിരോധ	-10.189
പറ്റി	-10.1893
▁ദൂതന	-10.1894
▁നല്‍കാന്‍	-10.1896
മുമ്പ	-10.1897
ുകാര്‍	-10.1902
▁പറയുന്നതു	-10.1904
od	-10.1906
ത്തിലേ	-10.1909
▁മധുര	-10.1911
oo	-10.1911
▁ക്ലാസ്	-10.1912
▁ഇഷ്ടമാണ്	-10.1913
▁സൗഹൃദ	-10.1915
▁2020	-10.1915
▁ആശംസ	-10.1919
▁ഡയ	-10.192
ാണെങ്കിലും	-10.192
32	-10.1922
ില്	-10.1925
▁യേശുവിനെ	-10.1927
▁ബിസിനസ്സ്	-10.1928
▁പ്രതിഷേധ	-10.1929
െവിടെ	-10.1933
രുത	-10.1937
ിച്ചിരുന്ന	-10.1938
▁അയയ്ക്ക	-10.194
▁up	-10.1943
▁സാധ	-10.1947
▁പ്രധാനമായും	-10.1947
▁അന്താരാഷ്ട്ര	-10.1951
▁സൂക്ഷ്മത	-10.1954
▁ചിന്തിച്ചു	-10.1958
59	-10.1959
▁കഴിക്കുന്ന	-10.196
▁ലേക്ക്	-10.1961
="3	-10.1962
▁എനിക്കിഷ്ട	-10.1962
▁തൊ	-10.1962
les	-10.1963
▁നങ്ങള്‍	-10.1963
▁സൈറ്റ്	-10.1963
▁മെയ്	-10.1964
▁മഹത്വ	-10.1964
വനു	-10.197
▁സഹിക്ക	-10.1972
നെയും	-10.1973
▁സ്വത്ത	-10.1974
▁മുത്ത	-10.1974
▁കണ്ടെത്താൻ	-10.1975
പിടിച്ച	-10.1977
ame	-10.1979
▁വിദ്യാഭ്യാസം	-10.1981
▁ഭാര്യമാര	-10.1983
യല്ലാതെ	-10.1984
▁ഉറച്ച	-10.1989
പ്രാ	-10.199
▁വീട്ട	-10.199
▁വച്ചു	-10.1991
ca	-10.1991
▁നല്‍കിയത്	-10.1992
▁നേതാവ	-10.1996
▁ലോകത്തിന്റെ	-10.1997
▁അന്വേഷണം	-10.1999
നുസരിച്ച	-10.2004
െന്ത്	-10.2005
▁സഹായി	-10.2005
പ്പേര	-10.2007
▁ചിത്രങ്ങള്‍	-10.2008
▁ഭംഗി	-10.2014
ൈഡ്	-10.2015
▁മൂട	-10.2021
▁യുഎസ്	-10.2022
സാക്ഷി	-10.2026
▁തണുത്ത	-10.2026
▁ബോണസ്	-10.2029
▁have	-10.2029
ER	-10.2037
▁മനസ്സിലാക്കിയ	-10.2037
▁അടുത്തേക്ക്	-10.2037
▁പെരുമാറ്റ	-10.2043
▁2009	-10.2044
▁പരു	-10.2045
▁പറയേണ്ട	-10.2047
ാമത്തെ	-10.2048
ഘട്ട	-10.2049
▁മോദി	-10.2049
▁അറിയാതെ	-10.2051
▁ജീവിതത്തെ	-10.2051
▁ജീവിച്ച	-10.2052
▁നൈ	-10.2053
▁അനിവാര്യ	-10.2054
▁ഉപയോഗിക്കാൻ	-10.2054
ചോ	-10.206
▁ചേർന്ന	-10.2061
▁പുക	-10.2062
han	-10.2063
യാണെങ്കില്‍	-10.2063
▁ഗ്ല	-10.2067
പേ	-10.2068
▁വംശ	-10.207
ങ്ക്	-10.2075
▁കരി	-10.2081
ലിനെ	-10.2085
ഭരണ	-10.2087
▁കൃത്യ	-10.2089
▁കൂട്ടത്തില	-10.2091
▁കുഞ്ഞിനെ	-10.2092
ിക്കേണ്ട	-10.2093
▁പ്രവാചകന	-10.2094
▁പിടികൂട	-10.2097
▁നിശ്ചയം	-10.2099
▁പോയത്	-10.2102
▁ബന്ധുക്കള	-10.2103
▁70	-10.2104
▁തീരുമാനിച്ച	-10.2106
▁ഉപകരണ	-10.2107
▁(19	-10.2109
▁ഉപയോഗിക്കാം	-10.2109
▁നോമ്പ	-10.211
▁ലാഭ	-10.2113
ഫാ	-10.2116
ai	-10.2117
ിക്കപ്പെട	-10.2118
▁കഴിച്ചു	-10.2122
ജു	-10.2123
ാവണം	-10.2125
▁സംരക്ഷണ	-10.2125
▁വന്നെത്ത	-10.213
24	-10.2131
▁ഉത്തരവാദിത്ത	-10.2134
▁He	-10.2138
ാവില്ല	-10.2139
▁കുഴ	-10.2139
സിന്	-10.2142
iz	-10.2148
വിധി	-10.2157
▁നിരീക്ഷണ	-10.2157
ുന്നവരുടെ	-10.2157
▁സ്ത്രീകള	-10.2158
▁ഇടതു	-10.2159
ിപ്പോ	-10.216
▁അടുത്തത്	-10.2166
എഫ്	-10.2166
▁പരിശോധിക്കുക	-10.2167
പത്ര	-10.2167
▁അടുക്കൽ	-10.2168
AR	-10.217
ൻസി	-10.2171
വരുന്നു	-10.2173
സിഡ	-10.2177
▁അല്ലാത്ത	-10.2183
വര്‍ക്കു	-10.2183
▁ദൂരം	-10.2184
▁വിൽക്ക	-10.2185
▁ഭക്ഷിക്ക	-10.2187
▁വിഡ്ഢി	-10.2187
▁കാര്യത്തിൽ	-10.2188
ാവകാശ	-10.2189
▁കൊള്ളുക	-10.219
▁ലൈ	-10.2191
ഗെ	-10.2193
▁യേശുവ	-10.2198
▁അദ്ദേഹത്ത	-10.2199
▁അവര്	-10.22
▁WEB	-10.2204
▁33	-10.2205
ോട്ടു	-10.2206
ുന്നുവെന്ന്	-10.2206
▁താഴ്	-10.2209
പറഞ്ഞ	-10.2209
ണമെങ്കില്‍	-10.2213
▁വോട്ട്	-10.2216
▁അച്ഛന്‍	-10.2222
മക്കള	-10.2227
▁ഉപകാര	-10.2227
▁36	-10.2233
▁ആലോചിച്ച	-10.2237
ക്ഷൻ	-10.2251
▁അപ്രകാരം	-10.2256
ൂടെ	-10.2257
▁j	-10.2258
au	-10.2258
▁കല്പന	-10.2259
▁പ്രഖ്യാപിക്ക	-10.2261
▁റേഡിയോ	-10.2264
▁വ്യക്തിപരമായ	-10.2265
▁കുള	-10.2268
▁ദൈവിക	-10.2269
മ്പു	-10.2269
▁പാവ	-10.2269
ിലെത്തി	-10.2271
-2	-10.2273
▁വൈകുന്നേരം	-10.2273
▁പങ്കിട	-10.2279
▁തിരഞ്ഞെടുപ്പ	-10.228
▁ഇട്ട	-10.2284
▁കൊണ്ടുവന്ന	-10.2286
വൾ	-10.2289
ath	-10.2291
െക്കാള്‍	-10.2296
ഭ്ര	-10.2298
ൊപ്പം	-10.2299
▁ഡിസംബർ	-10.23
യുണ്ടായിരുന്നു	-10.2301
▁ഹോം	-10.2302
▁പരിശീലന	-10.2304
▁ചെയ്തിട്ടില്ല	-10.2305
െന്തു	-10.2306
ിതര	-10.2309
ൈറ്റ്	-10.231
sk	-10.231
▁ഭാര്യയെ	-10.2311
▁മണിക്കൂര്‍	-10.2313
▁തിരിയ	-10.2314
▁അകലെ	-10.2321
58	-10.2322
▁വെറുപ്പ	-10.2324
▁ദൂരെ	-10.2326
ood	-10.2329
▁വാള	-10.233
▁മനസ്സിലായി	-10.2332
വൃ	-10.2333
▁തുടങ്ങിയവ	-10.2335
▁Ro	-10.2336
ാര്‍ഥ	-10.2337
▁അനുഭവപ്പെട	-10.2337
▁മരുന്ന്	-10.2338
കുമാര	-10.2341
യ്ക്കുന്ന	-10.2346
▁സംരംഭ	-10.2346
▁കാലയളവ	-10.2347
▁സ്റ്റേഷന	-10.2348
▁സമയവും	-10.2348
▁വര്‍ഷങ്ങള്‍	-10.2354
min	-10.2355
▁un	-10.2355
തല്ലേ	-10.2357
▁വർദ്ധിപ്പിക്ക	-10.2359
03	-10.2359
▁ഊർജ്ജ	-10.2359
▁തുടരുന്നു	-10.236
വള്‍	-10.236
▁ആനന്ദ	-10.2361
▁നൽകുക	-10.2366
▁കുറഞ്ഞു	-10.2367
ന്ത്ര	-10.2368
▁ലിമിറ്റഡ്	-10.2369
▁പൊട്ട	-10.2375
മറിയ	-10.2377
ence	-10.2377
▁ചുറ്റി	-10.239
▁സ്വര്‍ഗ	-10.2397
▁ഉറപ്പാക്ക	-10.2399
മൊ	-10.24
-20	-10.2401
▁സഹായിക്കുന്ന	-10.2402
1)	-10.2406
▁നേരത്തേ	-10.2408
▁പൊളി	-10.241
▁ജീ	-10.241
▁ഓൺ	-10.2415
▁ബുക്ക്	-10.2418
▁am	-10.242
▁അതിക്രമ	-10.242
ബോധം	-10.2426
▁നിർമ്മിക്ക	-10.2427
പ്റ്റ	-10.2427
▁ബൈ	-10.2429
▁നിരക്ക	-10.243
▁നടന്നത്	-10.243
രക്ഷ	-10.2432
▁പ്രമുഖ	-10.2433
ong	-10.2438
▁മുകളില്‍	-10.2438
▁മുന്നിൽ	-10.2442
ak	-10.2445
▁മന്ത്ര	-10.2448
▁കാര്യങ്ങളും	-10.2448
▁കൊന്നു	-10.245
▁ഇന്ത്യയിൽ	-10.2451
▁സമാധാനവും	-10.2452
▁കയ്യില്‍	-10.2453
▁പിഴ	-10.2453
ദെ	-10.2457
▁ചുറ്റ	-10.2457
▁ക്രിസ്തുവ	-10.2458
തൊ	-10.2458
▁ലക്ഷണ	-10.2458
ക്കൂട	-10.2462
▁റസൂല	-10.2469
ting	-10.247
▁പാട്ട്	-10.2475
▁പൂര്‍ണ	-10.2476
▁യന്ത്ര	-10.2482
▁ഭൂതകാല	-10.2485
▁മറു	-10.2489
▁പ്രസിദ്ധ	-10.249
9)	-10.249
▁ഉപയോഗിച്ചു	-10.2491
▁ഫറവോ	-10.2492
▁പൈസ	-10.2493
ിറങ്ങി	-10.2493
▁ചെയ്തിട്ടുണ്ട്	-10.2493
▁ഭക്തി	-10.2498
▁ഗിഫ്റ്റ്	-10.2502
ഗ്രഹ	-10.2504
ിപ്പിക്കുകയും	-10.2508
▁ബോധ്യ	-10.2509
▁പരമ്പര	-10.2511
▁ഉൽ	-10.2512
▁തരുന്ന	-10.2514
ക്കാരന്‍	-10.2518
▁എട്ടു	-10.2518
ത്തീ	-10.2521
ദര്‍ശന	-10.2522
▁അതുകൊണ്ടുതന്നെ	-10.2523
ിലേക്കുള്ള	-10.2524
▁തൊട്ട	-10.2524
09	-10.2526
രുള	-10.2531
െഴുതിയ	-10.2533
ശേഷി	-10.2534
▁പുറം	-10.2534
▁ഇതിനകം	-10.2536
പ്രദേശ	-10.2537
▁പൊറുത്തുകൊടുക്ക	-10.2539
▁ഓർമ	-10.2541
▁ഇഷ്ടപ്പെട്ട	-10.2542
വിട്ട	-10.2543
മായിരുന്ന	-10.2543
▁വേഗത്തിൽ	-10.2544
▁ഉള്ളൂ	-10.2545
മാണെന്ന	-10.2547
അങ്ങനെ	-10.2549
▁യുവതി	-10.2551
▁അവഗണിക്ക	-10.2553
▁വാതിൽ	-10.2555
▁തിന്നു	-10.2555
തീര	-10.2559
ലുകള	-10.2561
വിവര	-10.2562
വിന്‍റെ	-10.2565
▁നല്‍കുന്നത്	-10.2572
02	-10.2575
ൽപ	-10.2576
▁രാത്രിയില്‍	-10.2577
▁നടി	-10.2585
▁നടക്കും	-10.2592
▁തിരിച്ച്	-10.2594
▁സൌ	-10.2602
.“	-10.2607
സാഹ	-10.2614
▁അനുഗ്രഹിക്ക	-10.2615
ങ്ങളിലേക്ക്	-10.2618
വരായി	-10.2618
▁പിശാച്	-10.262
▁വയ്യ	-10.2621
▁ബൈബിൾ	-10.2632
▁ഗുണം	-10.2632
▁അഭിനയ	-10.2634
ന്താ	-10.2636
പേര	-10.2636
▁കര്‍മ	-10.2637
ര്‍ന്നു	-10.2639
▁പുണ്യ	-10.264
97	-10.264
▁സംശയമില്ല	-10.264
▁ചിരിച്ചു	-10.2641
▁നിഷ്	-10.2646
▁നിർമ്മിച്ച	-10.2647
"(	-10.2651
ക്രിയ	-10.2652
▁സാര്‍	-10.2654
▁താനും	-10.2656
▁പറയണം	-10.2657
▁പരാമര്‍ശ	-10.2663
ഗമ	-10.2665
85	-10.2666
ഭാഗം	-10.2673
▁സാങ്കേതികവിദ്യ	-10.2674
▁more	-10.2675
▁യഥാര്‍ഥ	-10.2676
ഗു	-10.2683
▁?”	-10.2684
▁ഉണ്ടാകുന്ന	-10.2689
▁ഡിസൈന	-10.2692
▁എച്ച്	-10.2694
ശരി	-10.27
▁മാർഗ	-10.2703
ാമെന്ന	-10.2705
▁ഇഷ്	-10.2709
lu	-10.2712
ുണ്ടാക്ക	-10.2713
88	-10.2715
▁വിരുദ്ധ	-10.2717
▁ചോദിക്കും	-10.2718
▁ത്ര	-10.2721
▁അംഗീകരിച്ച	-10.2724
പദ	-10.2733
മെന്നു	-10.2734
▁ചെയ്യാത്ത	-10.2737
▁ശുഭ	-10.2738
53	-10.2738
▁പകല	-10.2741
▁പരിശ്രമ	-10.2741
▁കാഴ്ചപ്പാട	-10.2744
ോടൊപ്പമ	-10.2745
യെടുക്ക	-10.2746
ാനാവും	-10.2749
യ്ക്കായി	-10.2749
യോഗ്യ	-10.275
ന്മാരും	-10.2751
▁സാധിച്ച	-10.2751
▁ഇരട്ട	-10.2754
ട്രാ	-10.2759
▁നിശ്ചയിക്ക	-10.2759
▁സ്ത്രീകളുടെ	-10.276
▁യോഗ്യത	-10.2764
േണ്ടിവരും	-10.2765
▁കുരിശ	-10.2766
▁അതിലും	-10.2768
▁അസൂയ	-10.2769
ാതിരിക്കാന്‍	-10.2769
▁Google	-10.277
▁വാഗ്ദാന	-10.2774
04	-10.2774
67	-10.2776
ങ്ങള്	-10.2777
05	-10.2781
▁പാക	-10.2782
പോകുന്ന	-10.2783
45	-10.2785
port	-10.2786
തീര്‍ച്ച	-10.2788
▁കഴിയുന്നില്ല	-10.2791
▁രാജ്യത്ത്	-10.2792
▁Be	-10.2794
▁my	-10.2794
▁കാട	-10.2797
▁വിദഗ്ധ	-10.2797
63	-10.2798
▁ഓഫീസ്	-10.2802
▁വരികള്‍	-10.2803
▁സ്നേഹിക്കുന്ന	-10.2807
▁സഹായിച്ച	-10.2807
▁ഓരോരുത്തരും	-10.2812
▁ബൂ	-10.2813
▁തുട	-10.2814
▁ഔദ്യോഗിക	-10.2814
▁ഉണ്ടെങ്കിൽ	-10.2814
നെപ്പോലെ	-10.2816
▁ബാധകമ	-10.2818
▁co	-10.2819
▁ഇടയിൽ	-10.2821
▁മാത്രമാണ	-10.2822
▁ബാഗ	-10.2822
റ്റോ	-10.2825
മ്യ	-10.2825
▁നേതാക്കള	-10.2827
▁ഫലമായി	-10.2833
ില്‍നിന്നു	-10.2834
ിലേക്കും	-10.2834
▁അറിയാൻ	-10.2835
ാകുന്നത്	-10.2837
▁ഗെയിം	-10.284
06	-10.2847
▁പ്രസിദ്ധീകരിച്ച	-10.2849
▁സൗ	-10.285
ിനുള്ളിൽ	-10.2852
ഡാ	-10.2859
പ്പഴ	-10.2862
▁ഒഴികെ	-10.2862
▁യൂണിറ്റ	-10.2865
▁ശ്രദ്ധിച്ച	-10.2867
▁നേഹിക്ക	-10.2868
▁പവർ	-10.2881
▁പുറപ്പെട്ടു	-10.2881
▁മുന്നില	-10.2881
▁തീവ്ര	-10.2882
▁പിറന്ന	-10.2882
▁തെളിവുകള	-10.2885
▁ചെലവ്	-10.2885
▁വായ	-10.2886
യെപ്പറ്റി	-10.2891
▁യാഥാര്‍ത്ഥ്യ	-10.2892
▁റോമ	-10.2893
▁കുത്ത	-10.2895
▁എഡി	-10.2897
▁മോഡല	-10.2898
▁കഴുത്ത	-10.2898
ിയിട്ടില്ല	-10.29
77	-10.2901
▁ആരോഗ്യം	-10.2904
▁മാതാപിതാക്കള്‍	-10.2905
▁വായിക്കുന്ന	-10.2908
▁സിംഹാസന	-10.2909
▁ഉപമ	-10.291
▁ഇന്ത്യയുടെ	-10.2911
▁ആൾ	-10.2912
▁?"	-10.2914
യോഹ	-10.2915
▁മുന്നറിയിപ്പ്	-10.2916
ബറ	-10.2917
▁പൊലീസ്	-10.2919
▁ജീവിച്ചിരിക്ക	-10.292
▁കൊണ്ടിരിക്കുന്ന	-10.2924
▁സവിശേഷത	-10.2926
ത്രി	-10.2926
ാനായില്ല	-10.293
ർന്ന	-10.2931
▁ഡ്രൈവ	-10.2931
▁For	-10.2933
▁രാഷ്ട്ര	-10.2933
ന്റേത	-10.2934
▁എന്നൊരു	-10.2936
▁മൂടി	-10.2936
വരുത്ത	-10.2939
▁നമസ്	-10.294
െന്റ	-10.294
City	-10.2946
mm	-10.2946
യായിരിക്ക	-10.2948
ിങ്ങ	-10.2949
വെങ്കില്‍	-10.2949
▁സൃഷ്	-10.2953
62	-10.2956
സ്റ്റി	-10.2957
▁about	-10.2958
▁മരം	-10.2961
ran	-10.2961
▁രണ്ടുപേരും	-10.2963
▁പാസ്	-10.2964
അവന	-10.2965
▁ശിഷ്യ	-10.2968
▁ബഹു	-10.2968
▁ജൂത	-10.297
▁നടപ്പ	-10.297
▁te	-10.2971
▁ഭൂമിയിലെ	-10.2974
പാടു	-10.2974
ണിയ	-10.2976
വസാന	-10.2977
▁കേരളത്തില്‍	-10.2981
▁നീട്ടി	-10.2981
▁നിലപാട്	-10.2986
ite	-10.299
▁ആറ്	-10.2992
▁ദുര്‍ബല	-10.2994
0,000	-10.2995
▁ഉണ്ട	-10.2996
▁ഇറാന	-10.2997
▁കഴിവ്	-10.2998
▁പുറ	-10.2998
▁അതെല്ലാം	-10.3001
▁നിര്‍വഹിക്ക	-10.3007
ിരിക്കാം	-10.3007
ഭയ	-10.3008
▁പക്കല്‍	-10.3011
▁കൂടിയാണ്	-10.3013
▁പൂക്കള	-10.3018
ർമാർ	-10.3019
െന്താണ്	-10.3025
▁എന്തുകൊണ്ട	-10.3025
ിനെതിരെ	-10.3029
▁കാര്യമ	-10.3029
▁സംഭവിക്കുന്നത്	-10.303
പറഞ്ഞു	-10.303
▁നയിക്കുന്ന	-10.303
റ്റിക്	-10.3032
▁ഇടപാട	-10.3033
രാക	-10.3035
▁മുമ്പേ	-10.3038
ear	-10.3039
▁വില്ല	-10.3046
▁മഹത്വം	-10.3047
▁ബസ്	-10.3049
▁കുരു	-10.305
തെന്നു	-10.305
▁ദാന	-10.3052
▁ഭഗ	-10.3052
▁പേരിൽ	-10.3054
▁തുണി	-10.3054
▁പ്രാര്‍ഥന	-10.3057
▁വിശ്രമ	-10.3059
റ്റീവ്	-10.306
ളോ	-10.3067
ാള്‍	-10.3069
റ്റെ	-10.3069
▁കയ്യിൽ	-10.3072
പ്പെടുത്തുന്ന	-10.3073
രാക്ക	-10.3075
▁നിമിത്തം	-10.3076
▁500	-10.3076
38	-10.3078
▁ഉദാഹരണം	-10.308
മേറിയ	-10.3083
▁മരുന്ന	-10.3091
▁സന്ദര്‍ഭ	-10.3093
▁ഇങ്ങ	-10.3095
▁പുഞ്ചിരി	-10.3095
▁കൊടുക്കുക	-10.3099
▁പാത്ര	-10.3101
▁നിലനിര്‍ത്ത	-10.3103
കള്‍ക്കു	-10.3105
land	-10.3108
▁us	-10.311
രാഷ്ട്ര	-10.3111
മൃത	-10.3112
▁സംഭവിക്കുന്ന	-10.3112
▁പോല	-10.3112
▁ബന്ധപ്പെട	-10.3113
68	-10.3113
ുമ്പോഴാണ്	-10.3119
▁ഭാഗമാണ്	-10.312
▁വിചാരിക്ക	-10.3124
▁എപ്പോൾ	-10.3125
വണ്ണം	-10.3126
▁കരുതുന്ന	-10.3129
േല്‍പ	-10.313
▁മറ്റുള്ളവരുടെ	-10.3132
ായിരുന്നെങ്കില്‍	-10.3133
▁താരം	-10.3133
▁ടിവി	-10.3136
▁ശ്ര	-10.3137
രൊ	-10.3139
മല്ലേ	-10.3141
▁ആരംഭിച്ച	-10.3149
▁വഹിക്ക	-10.3149
ാവട്ടെ	-10.3152
കളേ	-10.3153
കാരണം	-10.3155
▁കണക്കു	-10.3157
▁ചൈനീസ്	-10.3159
▁തിരയ	-10.316
▁അറ്റ	-10.3165
പോയ	-10.3165
▁മോശമായ	-10.3165
▁പ്രാപിച്ച	-10.3166
▁പരിസ്ഥിതി	-10.3167
▁ഒഴിവാക്കുക	-10.3173
▁വെട്ട	-10.3177
form	-10.3177
▁കളിക്കാര	-10.3178
07	-10.318
▁ഭേദ	-10.3181
▁തയ്യാറാക്ക	-10.3181
ുമെല്ലാം	-10.3185
▁പ്രൊഫഷണൽ	-10.3188
ew	-10.3191
ory	-10.3194
ട്രി	-10.3201
▁ഉണ്ടു	-10.3201
▁പുതു	-10.3201
നേരം	-10.3202
യാണെന്ന	-10.3204
▁മറ്റുള്ളവർ	-10.3206
കർത്താവ	-10.3206
54	-10.3209
▁മനസ്സിലാക	-10.3214
▁ശര	-10.3216
▁വിപ്ലവ	-10.3217
ുണ്ടായി	-10.3218
▁ഭാഗമായി	-10.3222
▁ചാനല	-10.3223
▁കൊള്ളാം	-10.3223
AT	-10.3225
▁ആരുമില്ല	-10.3225
▁നിയോഗിച്ച	-10.3225
▁അയാള്‍ക്ക്	-10.3226
▁ഒരാഴ്ച	-10.3228
െപ്പറ്റി	-10.3228
ള്ളൂ	-10.3229
ach	-10.3231
▁റോഡ്	-10.3231
▁ആഗോള	-10.3233
ുവിന്റെ	-10.3234
AN	-10.3235
ികമായ	-10.3236
▁അല്ലാഹുവാണ്	-10.3236
▁മാര്‍ഗം	-10.3238
▁നശിച്ച	-10.3239
▁പറയുന്നില്ല	-10.3239
▁അലി	-10.3241
▁തോറ്റ	-10.3244
sp	-10.3245
▁ഓർഡർ	-10.3247
ا	-10.3249
▁പിതാവിന്റെ	-10.325
ക്കാരായ	-10.3251
▁വിട്ട്	-10.3251
▁നേഹം	-10.3253
ുകള്‍ക്ക്	-10.3253
▁വർഷത്തെ	-10.3255
▁നമ്പര്‍	-10.3256
▁അദ്ദേഹത്തിനു	-10.3258
ിരിയ്ക്ക	-10.3258
▁അവള്‍ക്ക്	-10.3261
▁ശമ്പളം	-10.3261
own	-10.3263
▁വൈകുന്നേര	-10.3265
▁സംഘം	-10.3266
di	-10.3269
▁വരാന്‍	-10.3272
▁ഒന്നോ	-10.3272
▁കുറിച്ചു	-10.3274
▁രാജാവിന്റെ	-10.3274
ിലുണ്ട്	-10.3275
▁അവരിൽ	-10.3278
▁ഉയര്‍ന്ന	-10.3278
▁സൃഷ്ടിച്ചത്	-10.328
▁കൃപ	-10.3281
▁ലിം	-10.3282
ിങ്ങ്	-10.3284
ൻറെ	-10.3284
▁പ്രളയ	-10.3284
രാത്രി	-10.3287
▁കച്ചവട	-10.3287
▁റബ്ബ	-10.3288
▁കാരുണ്യം	-10.3291
▁നേരിടുന്ന	-10.3291
ീര	-10.3295
പുസ്തക	-10.3297
▁ഒത്തു	-10.3299
െനിക്ക്	-10.3301
▁Ex	-10.3306
▁അടയാള	-10.3312
ാണെന്നാണ്	-10.3319
▁ഗി	-10.3319
▁നിബന്ധന	-10.3321
മിക	-10.3322
▁വൃക്ഷ	-10.3326
▁നിർദ്ദേശ	-10.333
89	-10.3331
▁ജനത്തെ	-10.3334
തവണ	-10.3334
▁ചൊല്ല	-10.3336
39	-10.3336
▁പട്ടി	-10.3339
87	-10.3339
pl	-10.334
▁നാശം	-10.334
▁താങ്ങ	-10.3341
▁മലക്കുകള	-10.3342
ചേര	-10.3343
▁ഇടതുപക്ഷ	-10.3344
▁ലൈറ്റ്	-10.3347
os	-10.335
ാകാൻ	-10.3351
▁കുറു	-10.3351
91	-10.3352
ൈൻ	-10.3354
പേര്‍	-10.3357
തിനേക്കാൾ	-10.3357
കളി	-10.3357
പരമായി	-10.3359
കൊണ്ടിരിക്കുന്നു	-10.3361
▁വന	-10.3362
▁അക്കൗണ്ട	-10.3364
▁ക്ലാസ്സ	-10.3365
ens	-10.3366
▁സത്യമാണ്	-10.3367
തെന്തു	-10.3369
▁ഗ്രൂപ്പ	-10.337
ഇല്ല	-10.3373
▁ആവശ്യപ്പെട്ട	-10.3373
▁എന്തെന്നാല്‍	-10.3375
▁സാധ്യമല്ല	-10.3375
ism	-10.3379
▁പെട്ടി	-10.3379
വേദന	-10.338
▁വീടുകള	-10.338
▁വിളിച്ച്	-10.3385
▁മീറ്റ	-10.3387
▁രക്ഷിതാവിന്‍റെ	-10.3393
ില്‍നിന്നും	-10.3395
71	-10.3397
ാകെ	-10.3397
▁അറിയിച്ച	-10.3405
▁ഇസ്രായേല്‍	-10.3405
▁പുറപ്പെട	-10.3405
▁അദൃശ്യ	-10.3408
▁പറയട്ടെ	-10.3409
▁പ്രാദേശിക	-10.3409
പ്പുറ	-10.3411
▁ബലി	-10.3413
രുമ	-10.3414
▁ചെടി	-10.3415
▁വിജ്ഞാന	-10.3417
pa	-10.3422
യുണ്ടായ	-10.3426
▁നിർബന്ധ	-10.3426
▁കൊടുക്കുന്ന	-10.3427
▁തൊഴിൽ	-10.3429
വാദി	-10.3431
▁സുവിശേഷ	-10.3432
▁ശരാശരി	-10.3432
▁സുഹൃത്ത്	-10.3433
▁വരുമ്പോള്‍	-10.3434
ാൾ	-10.344
▁അടിച്ച	-10.344
▁ആഗ്രഹിക്കുന്നത്	-10.3442
▁എത്രമാത്രം	-10.3443
▁പുറമേ	-10.3444
▁ദരിദ്ര	-10.3445
ാധി	-10.3449
വിരുദ്ധ	-10.3449
:12	-10.3451
▁പ്രഖ്യാപിച്ചു	-10.3453
ിലേയ്ക്ക്	-10.3455
93	-10.3458
▁ഇക്കാര്യത്തില്‍	-10.3458
▁സൂര്യന	-10.3462
്യമ	-10.3464
▁പ്രഭ	-10.3466
▁Ad	-10.3469
▁കൊച്ചി	-10.3472
ിരിക്കെ	-10.3472
▁കോണ്‍ഗ്രസ	-10.3473
▁തന്നെയായിരുന്നു	-10.3473
ics	-10.3473
37	-10.3474
ാക്കുകയും	-10.3484
റിംഗ്	-10.3484
90	-10.3486
ുന്നവർ	-10.3488
▁രക്ഷിതാവിങ്കല്‍	-10.3488
റുക്ക	-10.3488
▁അറിയും	-10.3495
▁പ്രധാനമന്ത്രി	-10.3497
▁സൂചിപ്പിക്കുന്ന	-10.3499
▁ബൈബിള	-10.3499
▁ചെയ്യേണ്ടത്	-10.3502
വരാകുന്നു	-10.3503
ത്തിൻറെ	-10.3505
▁ഏറ്റെടുക്ക	-10.3507
▁അറിയാവുന്ന	-10.3507
▁മാത്ര	-10.3515
▁കഥകള്‍	-10.3517
േഷ	-10.3519
▁നാള്‍	-10.3523
പ്രദ	-10.3523
▁പ്രചോദന	-10.3525
ികളായ	-10.3528
▁സേവ	-10.3529
▁കൈകള്‍	-10.3529
▁കാത്തിരിക്കുക	-10.3529
യാണല്ലോ	-10.353
▁വിറ്റു	-10.3531
▁വില്‍ക്ക	-10.3532
ര്‍ഥ	-10.3532
▁തുടങ്ങും	-10.3533
വേദ	-10.3533
▁കര്‍മ്മ	-10.3533
ശ്യ	-10.3534
▁സെക്	-10.3535
▁സ്ഥലത്ത്	-10.3535
ലിന്	-10.3536
▁തുടങ്ങിയത്	-10.3538
ose	-10.3542
▁മാറുന്നു	-10.3543
മെടുക്ക	-10.3547
▁ആയിര	-10.3549
▁പങ്കാളികള	-10.3553
▁അറിയാന്‍	-10.3554
▁പശു	-10.3555
നാകുന്നു	-10.356
തിനെപ്പറ്റി	-10.356
▁ഇരട്ടി	-10.356
▁പ്രകടനം	-10.3566
▁പേരാണ്	-10.3567
IS	-10.3568
▁ഫ്രാൻസ	-10.3569
▁—	-10.3571
പേർ	-10.3573
▁വിറ	-10.3576
തൊക്കെയും	-10.3579
ാകുമോ	-10.3579
:13	-10.3583
ഭക്ത	-10.3584
▁തുടരും	-10.3584
▁ഉപകരണം	-10.3585
▁ഉപ്പ	-10.3593
▁പ്രഖ്യാപിച്ച	-10.3595
▁പുറത്തേക്ക	-10.3595
ടുപ്പ	-10.3596
▁അതിന്നു	-10.3604
▁ആരാധകര	-10.3606
ress	-10.3606
tter	-10.3607
▁പ്രധാനം	-10.361
▁പുകവലി	-10.3612
ിലായിരുന്നു	-10.3612
▁Le	-10.3612
ക്കാരും	-10.3616
ിൽനിന്നു	-10.3616
▁വൃത്തിയാക്ക	-10.3616
▁എന്നായിരുന്നു	-10.3619
ിരുന്നുവെങ്കില്‍	-10.362
▁മെച്ചപ്പെട്ട	-10.362
ഒന്ന	-10.3621
▁വളർത്ത	-10.3622
▁post	-10.3624
▁കടന്ന	-10.3624
▁മനസ്സിൽ	-10.3625
ങ്ങളാണ	-10.3633
ങ്ങളെക്കുറിച്ച്	-10.3634
പ്പോഴാണ്	-10.3639
▁ഭൂമിയിൽ	-10.364
▁പോകുക	-10.3645
▁പിന്നില്‍	-10.3648
കരമാണ്	-10.365
▁അതിശയ	-10.365
▁ഒരുപാടു	-10.3651
▁ഓഹരി	-10.3651
▁വര്‍ഷവും	-10.3652
▁പങ്കെടുത്ത	-10.3655
▁താല്‍പര്യ	-10.3662
ഫ്ര	-10.3663
▁വന്നാല്‍	-10.3666
മൊക്കെ	-10.3668
ഴുത	-10.3669
▁സദ്	-10.3673
നിന്നുള്ള	-10.3676
▁സന്ദർശിക്ക	-10.3677
▁സാമൂഹ്യ	-10.368
▁തനിച്ച	-10.3681
▁നിലവിലുള്ള	-10.3683
ന്നേ	-10.3683
▁പട്ട	-10.3683
▁കുത്തി	-10.3684
മൊഴി	-10.3684
▁go	-10.3686
▁ചട്ട	-10.3686
▁ഇംഗ്ലീഷ	-10.3687
▁നിലയിൽ	-10.3688
▁su	-10.3688
▁എഞ്ചിന	-10.3696
▁അല്ലാഹുവിനോട്	-10.3697
▁കൊണ്ടും	-10.3697
▁വട്ട	-10.37
▁മറ്റും	-10.3705
▁സ്വീകരിക്കുകയും	-10.3707
ിക്കൊടുക്ക	-10.3707
▁സാഹചര്യം	-10.3707
ആർ	-10.3707
ക്കുകയാണ്	-10.3708
▁ഇന്ത്യയില്‍	-10.3709
▁സത്യവിശ്വാസി	-10.371
▁സ്വര്‍ഗ്ഗ	-10.3721
ല്ലൊ	-10.3727
ated	-10.373
▁പൂര്‍ത്തിയാക്ക	-10.373
▁ദേഷ്യ	-10.3738
▁കാല്‍	-10.374
▁അകത്തു	-10.3743
പ്പറഞ്ഞ	-10.375
▁അനുഭവിക്കുന്ന	-10.3751
പിടി	-10.3753
ജീവിതം	-10.3754
cial	-10.3757
▁കൈവശ	-10.3757
▁no	-10.3763
▁കാര്യമായ	-10.3763
▁പ്രവാചകന്മാര	-10.3771
ാണത്	-10.3772
▁വ്യാഖ്യാന	-10.3775
ുമ്പ	-10.3778
സാര	-10.3781
▁നല്ലതു	-10.3785
mi	-10.3788
▁വൃത്തി	-10.3788
92	-10.3789
▁ജീവനക്കാര	-10.3789
▁പ്രവർത്തനം	-10.3789
▁ഉറവിട	-10.379
ട്രോ	-10.3791
ാരോ	-10.3791
ജീവി	-10.3793
യ്ക്കുള്ള	-10.3796
ഹീ	-10.3799
▁മനസ്സിലാക്കുന്ന	-10.3801
▁പ്രാർത്ഥന	-10.3804
▁Di	-10.3805
▁ഫലങ്ങൾ	-10.3805
▁di	-10.3809
▁മാറ്റങ്ങള്‍	-10.3809
കിട	-10.381
▁കുഴി	-10.3811
▁മനസ്സിലായ	-10.3813
▁വിവേക	-10.3815
▁നിലനിർത്ത	-10.3815
▁സംരക്ഷണം	-10.3815
▁ഇദ്ദേഹം	-10.3817
▁രക്ഷിതാവേ	-10.3819
ഞ്ചു	-10.3821
മൂന്ന	-10.3822
▁ചലന	-10.3823
▁പരിമിത	-10.3823
കൊണ്ടുള്ള	-10.3828
▁38	-10.3834
ോട്ടെ	-10.3835
▁കാശ	-10.3835
▁ചോര	-10.3835
▁കണ്ടോ	-10.3837
▁തികഞ്ഞ	-10.3839
▁ദീപ	-10.384
ort	-10.384
▁ഓട്ടോ	-10.3841
മാനം	-10.3841
▁സ്വീകരിച്ചു	-10.3846
ുന്നതിലൂടെ	-10.3847
▁ആവശ്യപ്പെട	-10.3849
▁ഉറപ്പ്	-10.3849
▁നൽകും	-10.385
are	-10.3853
▁ഒരാളുടെ	-10.3853
▁കാണാതായ	-10.3854
▁ഉള്ളിൽ	-10.3855
▁സഞ്ചരിക്ക	-10.3858
▁വൈദ്യുതി	-10.3859
▁ആകും	-10.3865
▁അലുമിനിയം	-10.3867
▁കല്‍പിക്ക	-10.3867
▁വൃത്ത	-10.3871
▁പ്രകാശം	-10.3873
താപ	-10.3874
▁ഇടയില്‍	-10.3875
▁രാജാവു	-10.3877
▁വളർച്ച	-10.3877
▁അനന്ത	-10.3878
തായും	-10.3879
ങ്കല	-10.3879
േഴ്	-10.388
▁റിപ്പോര്‍ട്ട്	-10.3882
▁ഇതിലും	-10.3884
▁നിസ്	-10.3885
ാംഗ	-10.3887
▁ഗംഭീര	-10.389
▁സമാ	-10.3891
▁മത്സ്യ	-10.3891
▁ബ്രിട്ടീഷ്	-10.3891
വിള	-10.3892
▁ആകാശം	-10.3892
അമ്മ	-10.3894
▁അന്തരീക്ഷ	-10.3897
▁പിന്‍പറ്റ	-10.3897
ick	-10.3898
▁വെള്ളി	-10.3899
▁പതിപ്പ്	-10.3906
▁ഞങ്ങള്‍ക്കു	-10.3909
▁Sp	-10.3913
ിനെക്കുറിച്ച്	-10.3914
▁പാക്കേജ	-10.3919
▁മാത്രമായിരുന്നു	-10.3919
ാനാവാത്ത	-10.3921
▁മക്കൾ	-10.3922
▁കാള	-10.3922
▁ദശലക്ഷം	-10.3924
▁തടി	-10.3927
പുത്രന്മാര	-10.3928
വെന്നും	-10.3934
ിരുന്നോ	-10.3935
▁മാനുഫാക്ചറേഴ്സ്	-10.3936
▁ജയില	-10.3937
▁കുട്ടിയുടെ	-10.3938
മിട	-10.3939
ക്കെല്ലാം	-10.394
▁ഉണ്ടെങ്കില്‍	-10.3942
▁ചോദിക്കുന്ന	-10.3948
▁ശേഖരിക്ക	-10.3948
▁മീഡിയ	-10.3949
ുകൊണ്ടിരുന്ന	-10.395
കരം	-10.3952
▁നിയന്ത്രണം	-10.3956
ജാ	-10.3956
ുമ്പോ	-10.3956
േഷന്‍	-10.3957
▁തെളിവുകള്‍	-10.3958
▁ഒരേയൊരു	-10.396
▁സിസ്റ്റ	-10.396
▁സമ്പന്ന	-10.3962
▁എന്നറിയ	-10.3965
so	-10.3965
08	-10.3967
▁ബഹുമാനിക്ക	-10.3968
വരല്ല	-10.3968
▁യോജിക്ക	-10.397
വച്ചു	-10.3971
▁ചെയ്യപ്പെട്ട	-10.3972
ക്റ്റ	-10.3973
ഗ്ന	-10.3973
▁വയല	-10.3974
▁ചെയ്യുന്നില്ല	-10.3975
▁ജോണ്‍	-10.398
▁വെറുക്ക	-10.3987
▁വ്യക്തമാക്കി	-10.3988
▁കിടക്കുന്ന	-10.3988
ിൻ്റെ	-10.3989
▁തോന്നുന്ന	-10.3992
തുടങ്ങി	-10.3993
▁തയാറ	-10.3993
ന്റി	-10.3997
48	-10.4
വർത്തി	-10.4001
▁ഇറക്ക	-10.4002
▁ചേർത്ത	-10.4004
▁അമ്മയും	-10.4012
▁ദ്രോഹ	-10.4012
▁അപ്പോഴും	-10.4013
ാറുണ്ടോ	-10.4015
ാനാകില്ല	-10.4015
▁കരാര്‍	-10.4018
▁വിമര്‍ശിക്ക	-10.4018
▁കര്‍ഷക	-10.4022
ുന്നുവെന്ന	-10.4023
ിനുള്ള	-10.403
▁ദൂതന്‍മാര	-10.4031
▁2007	-10.4036
യ്ക്കുക	-10.4038
▁ഇയാള്‍	-10.4039
br	-10.404
▁കാരണങ്ങള	-10.4043
▁ദൈവത്തിന്	-10.4044
▁എത്രത്തോളം	-10.4044
▁കൃഷ്ണ	-10.4046
ഹേ	-10.4046
▁അടിസ്ഥാനമാക്കി	-10.4046
io	-10.4047
ക്കാലത്ത്	-10.4048
▁ഡീ	-10.4049
▁‘‘	-10.405
▁എല്ലാവരുടെയും	-10.4058
▁പൈ	-10.4064
ഭൂരിപക്ഷ	-10.4064
▁അന്നേ	-10.4065
തിക	-10.4069
ണമെന്നു	-10.4071
▁ഭാഗങ്ങൾ	-10.4073
▁ട്രെ	-10.4073
▁ഡോക്ടറ	-10.4073
▁ഇടത്	-10.4075
▁കാലാവധി	-10.4077
▁മനസ്സിലാക്കി	-10.4081
സംഘ	-10.4088
നുഭവ	-10.409
▁തള്ളി	-10.409
▁കിടന്ന	-10.4097
▁എഴുതുന്ന	-10.4099
▁സഹായിക്കുക	-10.41
അദ്ദേഹം	-10.41
ബൈ	-10.4103
▁ശരിയായി	-10.4103
▁was	-10.4105
▁ഞായറാഴ്ച	-10.4107
മാസം	-10.4109
▁വരുത്തി	-10.4109
ങ്കി	-10.4111
▁ഭാഗങ്ങള	-10.4111
▁തൊട്ടു	-10.4112
▁അടിക്ക	-10.4115
▁So	-10.4118
▁കഴിഞ്ഞാല്‍	-10.4121
▁മാറും	-10.4123
▁ഉല്‍	-10.4127
▁സന്ദര്‍ശിക്ക	-10.4129
▁എഴുന്ന	-10.413
▁കണ്ടുപിടിക്ക	-10.413
ave	-10.4134
▁ആശ	-10.414
▁നേതൃത്വം	-10.4144
▁കടമ	-10.4148
▁അക്രമി	-10.4149
red	-10.4151
rit	-10.4152
rea	-10.4159
▁അസ്വസ്ഥ	-10.416
▁വസന്ത	-10.416
▁സ്വര	-10.4168
ത്തേയും	-10.4169
▁പൂര്‍ണമായും	-10.4169
രുവ	-10.417
▁വളരുന്ന	-10.4171
വിശ്വസ	-10.4175
ey	-10.4177
76	-10.4179
har	-10.418
▁വാങ്ങാൻ	-10.4181
ah	-10.4182
മുക്ത	-10.4184
▁കരുതുന്നത്	-10.4185
റുടെ	-10.4187
▁കൈയ്യ	-10.4188
ഖാ	-10.4189
▁സത്യത്തിൽ	-10.419
▁ഡോളർ	-10.4191
▁പ്ലാസ്റ്റിക്	-10.4191
ഗീ	-10.4191
▁കേള്‍ക്കുന്ന	-10.4193
▁എളുപ്പത്തിൽ	-10.4194
▁ബിൽ	-10.4195
▁നിരീക്ഷിക്ക	-10.4197
മുമ്പ്	-10.4197
▁വീട്ടിലെ	-10.4198
▁അപകടം	-10.4205
▁ഗ്രന്ഥം	-10.4206
▁ബു	-10.4206
▁തോന്നുന്നത്	-10.4207
▁കൂടുതലും	-10.4209
വാസികള	-10.421
▁പോകണം	-10.4214
ld	-10.4215
▁നേതൃത്വ	-10.4218
▁ചിലരെ	-10.422
▁ചെയ്തില്ല	-10.4221
▁സര്‍വ	-10.4221
▁വചനങ്ങള്‍	-10.4221
▁കരുണാനിധിയുമ	-10.4222
▁പ്രവർത്തനങ്ങൾ	-10.4228
▁ഉയർത്ത	-10.4234
▁യഥാർത്ഥത്തിൽ	-10.4234
▁വാടക	-10.4235
▁കാമ	-10.4243
▁സമീപിക്ക	-10.4244
സ്ഥിതി	-10.4246
▁സസ്യ	-10.4255
▁മെഡിക്കൽ	-10.4256
▁നിഷേധിച്ച	-10.4258
▁മരിക്കും	-10.426
ഞ്ചി	-10.4264
ഡുകൾ	-10.4266
▁അകറ്റ	-10.427
▁ഏഴ	-10.4274
▁ആരംഭ	-10.4274
83	-10.4277
▁100%	-10.4277
▁ഇതിലെ	-10.4281
55	-10.4282
▁പ്രോഗ്രാമ	-10.4288
▁അധ	-10.4288
ess	-10.429
▁India	-10.4292
94	-10.4293
▁ആടു	-10.4296
എന്താ	-10.4298
ise	-10.4298
▁ആചാര	-10.4303
▁നാളില്‍	-10.4304
▁മറക്കരുത്	-10.4306
▁അവനും	-10.431
▁ചുറ്റുമുള്ള	-10.431
▁ഉള്ളില്‍	-10.4314
ായിരിക്കുന്നു	-10.4314
▁പോവുക	-10.4316
▁എത്രയും	-10.4316
ഇവിടെ	-10.4316
എന്നാല്‍	-10.4317
▁ലഭ്യമാക്ക	-10.4317
▁അല്‍പം	-10.4317
▁ജന്മദിന	-10.4323
▁രഹസ്യം	-10.4323
ധാരണ	-10.4324
▁പ്രകടിപ്പിക്ക	-10.4325
▁പ്രാധാന്യ	-10.4326
▁വിദ്യാർത്ഥികൾ	-10.4327
കേന്ദ്ര	-10.4327
▁ശീർഷകങ്ങൾ	-10.4328
വിശേഷ	-10.4333
84	-10.4333
ചെയ്തു	-10.434
ത്തിലെത്ത	-10.434
▁എല്ലായിടത്തും	-10.4341
▁കളിച്ച	-10.4343
optional	-10.4348
َا	-10.4348
▁ഡോളറ	-10.4351
പീ	-10.4361
▁ദേഹ	-10.4367
ജാല	-10.4369
▁മീ	-10.4376
ങ്ങളേ	-10.4378
▁അങ്ങനെയുള്ള	-10.4378
▁പ്രതാപിയും	-10.4379
▁പിശാച	-10.438
iv	-10.4381
നുമായ	-10.4381
വര്‍ഷം	-10.4382
▁എന്താണു	-10.4385
മുതല്‍	-10.4388
▁യഹൂദ	-10.4391
മുണ്ടാകും	-10.4393
:15	-10.4393
രേഖ	-10.4398
▁ഇപ്പോ	-10.4398
ign	-10.4399
ുന്നതുപോലെ	-10.4399
▁യഥാർഥ	-10.4401
▁ഓരോന്ന	-10.4401
▁ഏറ്റ	-10.4402
▁കുറിച്ചുള്ള	-10.4404
▁Tr	-10.4404
യാൾ	-10.4404
▁മുദ്ര	-10.4405
▁മുഹമ്മദ്	-10.4409
ർജ	-10.4409
കാലത്തു	-10.4412
▁ശേഖര	-10.4415
65	-10.4418
▁`	-10.4419
▁ക്രിസ്ത്യാനി	-10.442
ിട്ടുണ്ടെന്ന	-10.4421
▁അസ്ഥി	-10.4421
:14	-10.4424
▁ഇങ്ങിനെ	-10.4424
െക്കുറിച്ച്	-10.4426
ബര്‍	-10.4426
▁ആണെന്ന	-10.4429
▁നിലവിൽ	-10.443
79	-10.4431
▁സൗദി	-10.4432
▁എപ്പോഴ	-10.4433
ber	-10.4433
തന്ത്ര	-10.4433
75	-10.4433
▁സമ്മേളന	-10.4436
▁സൂക്ഷ്മമായി	-10.4437
▁മുമ്പിൽ	-10.4437
▁സമാനമായ	-10.4437
▁കൊല	-10.4439
av	-10.4441
▁ഞാനത്	-10.4442
▁നേര്‍വഴിയിലാക്ക	-10.4442
ാസന	-10.4442
▁വരുമ്പോൾ	-10.4443
നേര	-10.4445
▁സത്യത്തെ	-10.4447
പ്രകാരമ	-10.4447
▁മദ്യ	-10.4448
▁താത്പര്യ	-10.4448
ദൃ	-10.4449
▁ദുഷ്	-10.4451
▁പ്രവചന	-10.4451
▁ആദി	-10.4454
▁അപരിചിത	-10.4455
ചിന്ത	-10.4467
▁പഠിക്കുന്ന	-10.4471
എന്‍റെ	-10.4472
െത്ര	-10.4473
▁അക്കൗണ്ട്	-10.4473
▁രൂപകൽപ്പന	-10.4474
:18	-10.4476
▁തൊഴിലാളി	-10.4477
ാദി	-10.4478
െഴുത്ത	-10.4478
▁മൂന്നാമത്തെ	-10.4478
വെങ്കിൽ	-10.4478
▁കയറിയ	-10.4481
▁മോളെ	-10.4485
▁പുരസ്	-10.4486
▁പ്രസ്താവന	-10.4487
▁34	-10.4488
യുമായ	-10.4489
▁ഉറപ്പു	-10.4493
ധര്‍മ്മ	-10.45
കേട്ട	-10.4502
▁സാക്ഷ്യ	-10.4502
വസര	-10.4507
കൂടാ	-10.4511
വിഭാഗ	-10.4512
ിരിപ്പ	-10.4512
ുകളിലെ	-10.4513
മല്ലാതെ	-10.4513
▁അക്രമം	-10.4514
▁കണ്ടാല്‍	-10.4516
ഘോഷ	-10.4517
▁തട്ടി	-10.4517
▁തെരഞ്ഞെടുത്ത	-10.4519
ial	-10.4519
▁എൽഇഡി	-10.4538
▁ഏഷ്യ	-10.4541
െങ്കിലോ	-10.4541
▁രാജ്യത്തിന്റെ	-10.4541
ton	-10.4545
▁ഉൾപ്പെടെ	-10.4551
▁അവൾക്ക്	-10.4553
ord	-10.4554
▁നിസ്സാര	-10.4554
▁കല്	-10.4555
▁വാഴ	-10.4558
▁ഫ്രീ	-10.4559
▁കാര്യവും	-10.4563
▁ഏതോ	-10.4563
▁മണ്ട	-10.4563
▁ആവര്‍ത്തിക്ക	-10.4566
ത്താൽ	-10.4569
▁മന്ത്രിമാര	-10.4569
▁ലിസ്റ്റ്	-10.4575
ടുത്തു	-10.4576
മേഖല	-10.4579
▁sa	-10.458
▁പ്രവര്‍ത്തനങ്ങള	-10.4581
▁ഞെട്ടി	-10.4583
▁മാറ്റിയ	-10.4587
ത്തോടു	-10.4596
▁i	-10.4596
വരായ	-10.4598
▁കിട	-10.4599
വിൻ	-10.46
മല്ലാത്ത	-10.4602
▁സ്വന്തമാക്ക	-10.4602
ോളജി	-10.4607
▁ഉപദ്രവ	-10.4609
കണ്ട	-10.4609
▁പ്ലീസ്	-10.461
കഴിഞ്ഞു	-10.461
▁ഗാന്ധി	-10.4611
ാടക	-10.4613
1-	-10.4614
▁37	-10.4617
▁ഈശ്വരന	-10.4619
▁പൗര	-10.4621
▁വലിപ്പം	-10.4622
ചൊ	-10.4623
oc	-10.4624
▁ഇറ്റലി	-10.4625
▁കണ്ടപ്പോള്‍	-10.463
▁ഉൾപ്പെടുന്നു	-10.4633
▁അറിയുന്നവന	-10.4635
ms	-10.4637
▁അതോടൊപ്പം	-10.4638
▁കുടിച്ച	-10.4639
യഥാര്‍ത്ഥത്തില്‍	-10.4643
▁പീഡന	-10.4645
▁ശരിയല്ല	-10.4648
▁ത്രീ	-10.4649
RE	-10.465
▁ചൂട്	-10.4651
▁അത്യാവശ്യ	-10.4653
▁സൃഷ്ടിക്കുന്ന	-10.4653
▁പാമ്പ	-10.4653
▁സൗന്ദര്യ	-10.4654
▁വൈകിയ	-10.4656
▁കൊതി	-10.4658
തുതന്നെ	-10.4659
▁പുല	-10.4659
:16	-10.4661
▁സേവനങ്ങൾ	-10.4662
▁Un	-10.4663
▁ഘട്ടം	-10.4663
ാഞ്ഞ	-10.4665
▁അസത്യ	-10.4667
▁സംസാരിക്കുന്നു	-10.467
നോടു	-10.467
▁അല്ലാഹുവിങ്കല്‍	-10.467
▁ബാക്കിയുള്ള	-10.4671
ില്ലെന്ന	-10.4676
ുന്നതിന്റെ	-10.4677
ധര	-10.4677
▁യേശുവിന്റെ	-10.4678
സ്റ്റർ	-10.4685
ile	-10.4685
▁സല്‍	-10.4687
ുണ്ടെങ്കിൽ	-10.4689
▁കമ്പനിയുടെ	-10.4692
ee	-10.4693
▁അകല	-10.4693
[1]	-10.4693
▁ശ്വാസം	-10.4694
▁Q	-10.4694
▁ഐഡിയ	-10.4696
▁യെരൂശലേമ	-10.4697
▁ക്ലിക്ക്	-10.4705
▁but	-10.4705
നാള്‍	-10.4706
▁താമസിച്ച	-10.4708
▁പാദ	-10.4709
കൊണ്ടും	-10.4713
▁പുരോഗതി	-10.4713
—	-10.4714
▁സേവിക്ക	-10.4717
▁നഷ്	-10.4717
ങ്ങളോട്	-10.4718
▁വിശ്വസിച്ചു	-10.4718
▁We	-10.4719
▁പൂര	-10.4719
ബന്ധം	-10.4719
െടുക്കുന്ന	-10.4722
▁റിപ്പോർട്ട്	-10.4723
ഇതു	-10.4723
ിലായി	-10.4724
▁പരിചയപ്പെടുത്ത	-10.4724
OR	-10.4724
▁മാതാപിതാക്കൾ	-10.4739
▁Cl	-10.4741
നമ്മുടെ	-10.4743
▁ട്രേഡ	-10.475
▁പൂട്ട	-10.4755
ിച്ചിട്ടുണ്ട്	-10.4757
▁ധൈര്യം	-10.4757
▁മാറ്റങ്ങൾ	-10.4758
:17	-10.4758
▁ഇട്ടു	-10.4759
പൂർ	-10.4763
ാഗ്രഹ	-10.4764
▁എതിരാളി	-10.4764
▁അവലോകനം	-10.4769
▁മോള	-10.4769
▁മകനായ	-10.4774
▁സീറ്റ	-10.478
23	-10.478
▁നാലാം	-10.4782
.’’	-10.4785
▁മൂസ	-10.4786
44	-10.4789
പാദ	-10.4793
▁ചടങ്ങ	-10.4797
ഖ്യ	-10.4798
▁ഏപ്രിൽ	-10.4798
ക്കെട്ട	-10.4798
▁ദൂതന്മാര	-10.48
ദൈവം	-10.4805
▁കണ്ടെത്തുക	-10.4806
▁പ്രാണ	-10.4812
▁സംസാരിക്കുന്നത്	-10.4812
▁വായിക്കാന്‍	-10.4813
▁സ്ഥലത്തു	-10.4815
▁ശനിയാഴ്ച	-10.4818
61	-10.4821
▁കോളേജ്	-10.4827
▁than	-10.483
▁ഗൃഹ	-10.483
നാണോ	-10.4831
lic	-10.4835
lect	-10.4839
AL	-10.4842
ംബര	-10.4844
▁ശമ	-10.4846
▁അഭിമുഖ	-10.4849
ിത്യ	-10.4853
ject	-10.4853
nd	-10.4854
കളഞ്ഞു	-10.4857
▁മഞ്ഞു	-10.4857
▁അനുയോജ്യ	-10.4857
UR	-10.486
▁ചെയ്യുന്നതാണ്	-10.4863
▁അതായിരുന്നു	-10.4863
▁സ്രഷ്ടാവ	-10.4868
ാരോഗ്യ	-10.4869
▁നൃത്തം	-10.4869
▁ഓര്‍ത്ത	-10.4873
▁സുഖം	-10.4873
രാഗ	-10.4874
ിയ്ക്കുന്ന	-10.4876
േഴ്സ	-10.4878
TH	-10.4879
▁ഇവന്‍	-10.4881
▁വിവരിക്ക	-10.4885
▁നിലനില്‍ക്ക	-10.4885
▁ഗ്രാ	-10.4886
▁പിടികൂടി	-10.489
▁ബസ്സ	-10.489
ഭോ	-10.4894
▁Me	-10.4894
▁പ്രസ്ഥാന	-10.4897
▁ആലോചിച്ചു	-10.4902
പ്പുകൾ	-10.4902
▁മതിയായ	-10.4903
▁൧	-10.4906
▁വിശാലമായ	-10.4907
▁അവസാനമായി	-10.4908
▁സ്വാധീന	-10.4914
▁പരീക്ഷണം	-10.4914
▁ഗര്‍ഭ	-10.4915
യിലായിരുന്നു	-10.4915
▁തിരിഞ്ഞ	-10.4915
▁കമ്പ	-10.4918
ൂരി	-10.4922
▁പെട	-10.4924
▁Pa	-10.4927
കൃഷ്ണ	-10.4928
▁എല്ലായ്പ്പോഴും	-10.4931
▁ജനിച്ചു	-10.4932
▁മൊത്ത	-10.4934
നാശ	-10.4935
▁പോകുന്നില്ല	-10.4936
▁ചെയ്യുമ്പോൾ	-10.4936
▁കണ്ണി	-10.4937
dy	-10.494
ഫലം	-10.4943
▁അല്ലാഹുവോട്	-10.4945
▁തൊഴിലാളികള	-10.4947
▁തരിക	-10.495
ഗത	-10.495
▁പ്രസക്ത	-10.4951
ual	-10.4955
▁ഇതില	-10.4955
▁വേണ്ടിയാണ്	-10.4955
ചാ	-10.4961
▁ഇഞ്ച	-10.4962
ണ്ണി	-10.4963
ർത്തി	-10.4963
▁കണ്ണുകൾ	-10.4965
▁അതിരു	-10.4966
▁ആവശ്യപ്പെട്ടു	-10.4967
▁ബാധിക്കുന്ന	-10.4971
െതിരെ	-10.4973
ള്ളു	-10.4973
മരണ	-10.4975
സഹ	-10.4975
▁നഗ്ന	-10.4977
▁പിതാവേ	-10.4977
▁സൂപ്പർ	-10.4985
ത്തിനിട	-10.4986
▁പുതിയൊരു	-10.4987
▁ഗ്രേ	-10.4988
▁വാഹനം	-10.4989
യേയും	-10.499
▁ഫലകം	-10.4992
ിട്ടില്ലാത്ത	-10.4995
▁Do	-10.4996
▁ഇസ്ലാമ	-10.4996
▁എവിടെയും	-10.4997
ട്ടർ	-10.4999
നൊ	-10.5
ാവുന്നത്	-10.5005
▁തത്വ	-10.5008
▁ചിറക	-10.5008
▁ദൃഷ്ടാന്തങ്ങള	-10.5009
യെപ്പോലെ	-10.5009
ഖി	-10.5009
▁ഭയപ്പെടുന്നു	-10.501
74	-10.5013
▁നോക്ക്	-10.5015
▁വധ	-10.5016
▁മുതിർന്ന	-10.5018
▁ഇരിക്കുന്ന	-10.5019
▁അസാധ്യ	-10.502
േരി	-10.502
▁മാംസം	-10.5024
▁ഭാരത	-10.5028
കിട്ട	-10.5028
യുളള	-10.5029
▁നടക്കുന്നു	-10.503
▁നശിക്ക	-10.5031
▁തങ്ങളെ	-10.5034
▁എന്റേത	-10.5034
▁സാര	-10.5037
▁വരവ	-10.5037
കളുള്ള	-10.5038
▁എന്തെല്ലാം	-10.5038
സഹായ	-10.5038
▁വിശാല	-10.5041
▁വിഗ്രഹ	-10.5044
▁മനസ്സിലാവ	-10.5044
മുഖം	-10.5045
▁നിഷേധ	-10.5047
▁അടച്ച	-10.5048
▁വേണമെങ്കിലും	-10.5049
▁ആരാധിക്കുന്ന	-10.5049
ക്ഷേപ	-10.5052
▁വൈദ്യ	-10.5054
ചെയ്യുന്ന	-10.5055
ിപ്പാൻ	-10.5056
▁മറ്റുള്ളവര്‍	-10.5056
▁വകുപ്പ	-10.5061
▁നല്‍കപ്പെട	-10.5066
73	-10.5068
താഴ	-10.5068
▁രക്ഷിച്ച	-10.507
▁നയിച്ച	-10.5072
ക്റ്റ്	-10.5072
ങ്ങോട്ട	-10.5073
▁പങ്ക	-10.5075
▁കൊണ്ടുവന്നു	-10.5076
▁നമസ്കാരം	-10.5079
▁മദ്ധ്യ	-10.508
▁ചക്ര	-10.508
▁ആവശ്യങ്ങൾ	-10.5081
▁വോട്ടു	-10.5082
▁ആത്മാവിനെ	-10.5085
▁ഞെട്ട	-10.5092
▁2006	-10.5094
▁അനന്തരം	-10.5096
▁വേദപുസ്തക	-10.5097
▁മനസ്	-10.5097
▁അടിയ	-10.5098
▁സാധിക്കില്ല	-10.51
▁ഇല്ലായിരുന്നു	-10.51
▁ശാസ്ത്രീയ	-10.5101
▁പാർക്ക	-10.5101
▁നേടുക	-10.5102
▁പശ്ചാത്തല	-10.5103
ബൂ	-10.5103
▁തള്ളിപ്പറഞ്ഞ	-10.5103
▁പക്ഷ	-10.5105
▁കാര്യങ്ങളില്‍	-10.5108
▁വിളിക്കുന്നത്	-10.5113
▁എന്നൊക്കെ	-10.5114
▁അജ	-10.5119
▁കാലത്ത	-10.5119
▁മൊഴി	-10.512
▁റെഡി	-10.5122
േഷ്	-10.5122
ുണ്ടാവുക	-10.5123
ഭാഗ	-10.5125
78	-10.5126
▁48	-10.5129
വാദം	-10.5129
▁മാർച്ച്	-10.513
▁കഴിയൂ	-10.5132
ാതിരിക്കുകയും	-10.5132
▁en	-10.5136
ുണ്ടെങ്കിലും	-10.5137
▁അമേരിക്കയില്‍	-10.5141
ിന്ഗ്	-10.515
▁തോന്നും	-10.515
▁ദിലീപ	-10.5151
82	-10.5152
റിയാതെ	-10.5158
▁പ്രോഗ്രാം	-10.5158
▁നീന്ത	-10.5158
ദോ	-10.5162
▁ഒക്ടോബർ	-10.5164
▁സംഭവിക്കും	-10.5166
▁ലിങ്ക	-10.5167
▁ചെയ	-10.517
ര്‍ജ്ജ	-10.5174
▁ഗുഹ	-10.5175
പൂര്‍വ്വം	-10.5175
▁സ്വഭാവം	-10.5177
▁സ്ത്രീകളും	-10.518
▁സഞ്ചാര	-10.5181
▁മുമ്പുള്ള	-10.5181
▁നന്നാക്ക	-10.5182
▁http	-10.5188
▁കാണുകയും	-10.5189
▁എന്നറിയില്ല	-10.519
▁സ്വര്‍ഗത്തില്‍	-10.519
▁ഫലപ്രദമായ	-10.5193
യുദ്ധ	-10.5194
▁ഉടമ്പടി	-10.5195
വുമുണ്ട്	-10.5202
▁റൂം	-10.5203
▁അനുവദനീയ	-10.5205
▁ശുശ്രൂഷ	-10.5205
ന്‍ഡ	-10.5206
▁Vi	-10.5211
▁മുഴുവന	-10.5214
▁സത്യവും	-10.5216
▁വിറ്റ	-10.5218
49	-10.5224
ര്‍ഷ	-10.5225
▁പ്രസിഡന്റ്	-10.5229
പോല	-10.5229
▁കുടുംബത്തെ	-10.5232
▁ജ്ഞാനം	-10.5233
▁കുളി	-10.5235
▁വിഷയത്തില്‍	-10.5237
ിപ്പിക്കുന്നു	-10.5237
▁വേല	-10.5237
▁കീഴ	-10.5239
ിക്കരുത്	-10.5239
▁ഭിന്ന	-10.524
▁നോവല	-10.5241
▁ദൈവത്തിനു	-10.5245
▁വേര	-10.5246
ലേറ്റ	-10.5246
ക്കുറവ	-10.525
▁പുത്രന	-10.5253
▁ചെയ്യപ്പെട	-10.5254
▁സമര്‍പ്പിക്ക	-10.5254
▁മനുഷ്യർ	-10.5257
▁വിമാനത്താവള	-10.5257
ings	-10.5261
▁മോശെ	-10.5261
പൂര്‍വം	-10.5261
▁ഉണ്ടായിരിക്കും	-10.5261
▁മേശ	-10.5262
▁അതൊന്നും	-10.5262
ബ്ബ	-10.5263
42	-10.5264
▁അഴിമതി	-10.5264
▁വിവരിച്ച	-10.5267
▁ഇംഗ്ലണ്ട	-10.5267
▁ക്ലി	-10.5268
▁അവനില്‍	-10.5269
▁വാതില്‍	-10.5272
▁നീണ്ടു	-10.5273
▁ഭൂമിയും	-10.5275
▁വേദി	-10.5275
▁ദൂത	-10.5277
way	-10.5282
ിട്ടുണ്ടാവ	-10.5282
▁ചെയ്യാനുള്ള	-10.5289
ni	-10.5289
▁നടപടികള്‍	-10.5291
▁സഞ്ചരിച്ച	-10.5291
▁ഉറപ്പുവരുത്ത	-10.5292
ീകൃത	-10.5294
▁ഗോത്ര	-10.5297
ഷാ	-10.5297
▁മോട്ടോർ	-10.5298
▁വിദ്യാര്‍ഥി	-10.5298
▁വഹിച്ച	-10.5301
▁La	-10.5302
▁ബോക്സ	-10.5304
പ്രവർത്തക	-10.5305
വാസി	-10.5305
ank	-10.531
▁കയ്യില	-10.5311
▁ഇല്ലെങ്കില്‍	-10.5312
▁ബാധിക്കും	-10.5313
▁dis	-10.5315
▁സൂക്ഷിച്ച	-10.5316
▁ദൂതനെ	-10.5317
▁എലി	-10.532
▁വന്നെത്തിയ	-10.5322
▁അനിയ	-10.5328
▁വിചാരിക്കുന്ന	-10.5329
▁അറിയിക്കുക	-10.5329
▁തനിക്കു	-10.5331
▁പെട്ടെന്ന	-10.5333
▁അതിക്രമം	-10.5334
▁നിരോധിച്ച	-10.5337
▁തൈ	-10.5337
▁ത്വ	-10.5338
▁ഉദ്ദേശ്യ	-10.5338
▁വഴക്ക	-10.5347
▁പറ്റുമോ	-10.5349
oss	-10.535
▁ഇഷ്ടമുള്ള	-10.5352
▁വേണമെന്ന	-10.5354
▁ലഭിച്ചത്	-10.5357
▁താപനില	-10.5364
ണമെന്നാണ്	-10.5366
▁പരിശോധിച്ച	-10.5368
▁ലഭ്യമായ	-10.5369
▁സന്തതികള	-10.5369
▁ശ്രമിക്കുന്ന	-10.5369
▁എടുത്ത്	-10.537
▁ഞങ്ങളോട്	-10.537
മാണെന്നു	-10.5373
▁ദൃഷ്ടാന്തങ്ങള്‍	-10.5373
▁ഉപേക്ഷിച്ച	-10.5378
▁അരുളിച്ചെയ്യ	-10.5382
ണ്ടേ	-10.5383
▁ദാഹ	-10.5385
▁ആഗ്രഹിച്ചു	-10.5385
ുമെങ്കില്‍	-10.5391
▁താഴ്ന്ന	-10.5393
▁പോളി	-10.5393
▁സ്ഥിരമായി	-10.5394
▁ദൃഢ	-10.5396
ിക്കപ്പെടുന്ന	-10.5398
▁ഗണ	-10.5399
▁മന്ത്രവാദി	-10.54
▁ഉദ്ദേശ	-10.5402
▁വരികയും	-10.5404
പാട്	-10.5407
വരുമ	-10.5408
ron	-10.541
ിലൊന്ന	-10.5412
▁ആവശ്യപ്പെടുന്ന	-10.5413
▁എന്തുചെയ്യ	-10.5415
▁കുറ്റവാളികള	-10.5415
▁അപ്പോ	-10.542
മുണ്ടായി	-10.5424
▁അവരാണ്	-10.5425
▁ലജ്ജ	-10.5428
ിലേക്കാണ്	-10.543
▁നാട്ടുകാര	-10.543
▁കോർ	-10.543
▁അര്‍ഥ	-10.5431
▁കുറിപ്പ	-10.5435
▁നിലവിളി	-10.5436
ng	-10.5436
▁കസേര	-10.5438
ome	-10.544
▁പിന്തുടരുക	-10.5442
റുകള്‍	-10.5443
▁നിങ്ങളിൽ	-10.5444
▁ഉപദ്രവിക്ക	-10.5445
▁അവളോട്	-10.5446
▁മിനി	-10.545
▁യിസ്രായേല	-10.545
▁പ്രകടന	-10.545
▁ചെയ്യില്ല	-10.5452
▁വല്ലാത്ത	-10.5453
▁പൊരുത	-10.5461
ഡിംഗ്	-10.5462
പേക്ഷ	-10.5465
▁ടൈപ്പ്	-10.5466
▁ഭാഗത്ത്	-10.547
പറയുക	-10.547
ാവു	-10.5473
വേല	-10.5476
▁sp	-10.5476
▁നീക്കി	-10.5478
പിച്ചു	-10.5479
തെങ്ങനെ	-10.5482
▁ജേ	-10.5487
കൂടിയ	-10.5488
ാമല്ലോ	-10.5489
▁അബദ്ധ	-10.5491
▁പതിവ്	-10.5493
▁പറ്റുന്ന	-10.5494
▁ആശ്രയിച്ച	-10.5494
ക്കളുടെ	-10.5497
▁ബോംബ	-10.5499
▁ഭയന്ന	-10.55
▁And	-10.5501
▁ഥ	-10.5501
ത്തില്‍നിന്നു	-10.5504
ുന്നവനാണ്	-10.5506
▁എല്ലാരും	-10.5507
▁സ്വകാര്യത	-10.5512
നിൽക്ക	-10.5513
▁ദിശ	-10.5514
▁സമയമായി	-10.5516
▁സത്യസന്ധ	-10.5519
▁ഭക്ത	-10.5523
▁മുല	-10.5525
▁ക്ഷമിക്കണം	-10.5528
▁ദാസന്മാര	-10.5529
▁വിധ	-10.553
ST	-10.5535
▁ഉത്തമമായ	-10.5536
ബാധ	-10.5537
▁കൊറിയ	-10.5538
▁അന്തിമ	-10.5543
▁എഴുതിയത്	-10.5545
▁നിർത്തി	-10.5549
ല്ല്യ	-10.5552
യുടേത	-10.5553
▁ജീവിക്കാന്‍	-10.5558
▁സാമ	-10.5568
മിനി	-10.5573
▁ആളുകളുടെ	-10.5575
▁പുസ്തകങ്ങള്‍	-10.5577
▁അപേക്ഷിക്ക	-10.5578
▁ദിവസമാണ്	-10.5579
▁ഖേദ	-10.5583
▁പ്രി	-10.5584
▁അനാ	-10.5584
അവൻ	-10.5585
▁ഗതാഗത	-10.5586
ക്കൊള്ള	-10.5586
സ്ത്രീ	-10.5587
▁അല്ലാഹുവിലും	-10.5587
▁അര്‍ത്ഥം	-10.5591
▁നവംബർ	-10.5594
▁പങ്ക്	-10.56
▁അകന്ന	-10.5601
▁വഴികൾ	-10.5601
▁സർക്കാര	-10.5601
mb	-10.5602
▁പാഠം	-10.5603
we	-10.5604
▁ആയിരുന്നില്ല	-10.5606
▁തിക	-10.5615
വരായിരുന്നു	-10.5616
-3	-10.5618
▁തകര്‍ക്ക	-10.562
▁ഉത്സവ	-10.5622
low	-10.5623
മുണ്ട	-10.5624
സമയ	-10.5625
▁one	-10.5631
▁ഇടയ	-10.5632
▁ബിരുദ	-10.5634
ർദ്ദ	-10.5635
▁ഓസ്	-10.5635
▁വിചാര	-10.5637
പാദന	-10.5641
▁En	-10.5641
▁പുര	-10.5643
ചിക	-10.5645
▁നടത്തുകയും	-10.5647
പ്പെടേണ്ട	-10.5648
ഹരി	-10.565
▁ആത്മാവ്	-10.5654
▁പ്രീ	-10.5655
▁ഉട	-10.5657
ിനുള്ളില്‍	-10.5658
നമുക്ക	-10.5658
▁വെബ്സൈറ്റ്	-10.566
▁നായകന	-10.5665
▁വേര്‍	-10.5665
▁ജഡ്ജി	-10.5665
വീഴ	-10.5666
▁ദിവസങ്ങള്‍	-10.5666
ഫീ	-10.5667
▁വരുമാന	-10.5672
ൊരാള	-10.5672
▁തിരുവ	-10.5673
▁മകനേ	-10.5678
൦൦	-10.5679
▁കൊടുക്കും	-10.5679
▁വസ്തുവ	-10.568
du	-10.5684
▁ഉപയോഗപ്പെടുത്ത	-10.5684
ത്തുനിന്നു	-10.5689
▁അസുഖ	-10.5693
▁മുഖേന	-10.5695
▁പന്ത്രണ്ട	-10.5695
▁പ്രത്യേകിച്ചും	-10.5695
പൂർവ്വ	-10.5695
ത്തില്‍നിന്ന്	-10.5699
▁താമസം	-10.57
▁സത്യമായ	-10.5701
▁ഔദാര്യ	-10.5701
▁നിരന്തരം	-10.5701
▁പ്രകടിപ്പിച്ച	-10.5709
ous	-10.5709
ത്തിനുശേഷം	-10.571
കൊണ്ടാണ്	-10.5711
ങ്ങിനെ	-10.5712
▁കോൺ	-10.5712
ങ്കല്‍	-10.5712
▁ഡൗൺലോഡ്	-10.5712
▁അഭ്യ	-10.5716
▁കമ്പ്യൂട്ടറ	-10.5716
▁2000	-10.572
ox	-10.5723
▁സബ്	-10.5724
▁നാണ	-10.5724
െടുപ്പ	-10.5726
▁അതിജീവിക്ക	-10.5726
▁ശുപാർശ	-10.573
▁time	-10.5731
ep	-10.5731
▁പരിഷ്	-10.5737
▁day	-10.574
▁അദ്ധ്യാപക	-10.5741
▁തമിഴ്	-10.5742
▁ഉപദേശിക്ക	-10.5743
▁കണ്ണ്	-10.5748
▁ശക്തമായി	-10.5749
▁ഒട്ടേറെ	-10.5749
▁മനസ്സില	-10.5751
▁സംസാരിക്കുക	-10.5752
▁നാട്	-10.5754
ക്ഷമ	-10.5754
▁ഭാര്യയും	-10.5755
▁പൂർണ	-10.5756
ഹൃദയ	-10.5757
▁തൂക്ക	-10.576
ചെയ്ത	-10.576
▁അതുവഴി	-10.5763
▁പൗ	-10.5765
മൊന്നുമില്ല	-10.577
▁എത്തിക്ക	-10.5771
ake	-10.5772
▁സഹോദരന	-10.5779
▁അന്നത്തെ	-10.5779
▁സോറി	-10.5779
മുട്ട	-10.5781
േക്കാളും	-10.5781
▁like	-10.5782
old	-10.5783
▁പറയരുത്	-10.5785
▁ഇങ്ങനെയാണ്	-10.5787
തൊര	-10.5789
▁രാത്രിയിൽ	-10.579
െടാ	-10.5793
▁ലഹരി	-10.5795
▁പ്ലാന	-10.5796
▁ദാസന്‍മാര	-10.5796
ങ്ങളോടു	-10.5797
▁Al	-10.5797
▁എന്തായിരുന്നു	-10.5798
▁വര്‍ഷമായി	-10.5798
▁said	-10.58
▁കൂടുതലായി	-10.5801
ാക്കുന്നു	-10.5806
▁ബിസിനസ	-10.5806
▁നശിപ്പിച്ചു	-10.5808
▁ദൈവദൂതന	-10.581
▁തടാക	-10.581
മാക്കുകയും	-10.5811
▁ധീര	-10.5813
യില്ലേ	-10.5813
▁സഹായിക്കാൻ	-10.5814
ിനെക്കുറിച്ച	-10.5817
ire	-10.5817
▁മാംസ	-10.582
പോർട്ട	-10.5826
▁യാതൊന്നും	-10.5827
▁വിനയ	-10.5827
ash	-10.5832
▁പ്രാഥമിക	-10.5832
▁ജാലവിദ്യ	-10.5838
▁നിലവില്‍	-10.584
▁ചെലവഴിച്ച	-10.584
▁കൊണ്ടുപോയി	-10.5843
In	-10.5844
ിപ്പാന്‍	-10.5844
▁ടീ	-10.5846
▁പ്രതിനിധി	-10.5846
://	-10.5847
▁പതിവ	-10.5848
ക്ഷമത	-10.5849
കളഞ്ഞ	-10.5852
▁ദോഷം	-10.5856
▁Su	-10.586
▁ഇവരില്‍	-10.5862
▁കാണിക്കുന്നു	-10.5863
ോടുകൂടി	-10.5864
ത്തിലായിരുന്നു	-10.5867
▁Ho	-10.5868
ark	-10.5873
▁നബിയേ	-10.5875
▁വരാൻ	-10.5877
▁തട്ട	-10.5877
എൽ	-10.5879
▁റേ	-10.5879
line	-10.588
▁അറിയേണ്ട	-10.5886
▁പ്രതാപ	-10.5886
ോളും	-10.5893
ക്കണക്ക	-10.5894
▁എന്നിങ്ങനെ	-10.5895
പ്പാട്	-10.5899
▁വ്യക്തിഗത	-10.59
▁ഇരുള	-10.5908
▁യാഥാര്‍ഥ്യ	-10.5909
▁ഇഷ്ടപ്പെടുന്നു	-10.591
പക്ഷേ	-10.5912
▁ലംഘിക്ക	-10.5913
▁കവാട	-10.5913
▁ദാവീദ്	-10.5915
ടക്കം	-10.5915
▁പോരാട്ട	-10.5917
▁സൌകര്യ	-10.5919
ന്മാരായ	-10.5919
▁നിശ്ചയ	-10.592
▁പണമ	-10.5922
യോടും	-10.5924
▁Lo	-10.5925
▁നടത്തിയത്	-10.5925
▁കൺ	-10.5926
▁പോലെയുള്ള	-10.5927
▁നിലവാരമുള്ള	-10.5928
▁സൂക്ഷിച്ചു	-10.5929
ൊഴുക	-10.5932
രാണെന്ന്	-10.5933
വനല്ല	-10.5933
▁പ്രവര്‍ത്തനം	-10.5935
="4	-10.5935
▁പ്രത്യാശ	-10.5936
▁എന്നാല	-10.5938
▁ലു	-10.5941
▁ഘടക	-10.5942
മുണ്ടാവ	-10.5942
▁അവിശ്വാസികള	-10.5944
▁മാസങ്ങള	-10.5945
വാങ്ങ	-10.5946
▁പരിശുദ്ധാത്മാവ	-10.5947
▁തിങ്കളാഴ്ച	-10.595
▁കീഴടങ്ങ	-10.5957
▁ദീര്‍ഘ	-10.5957
▁വെബ്സൈറ്റ	-10.5959
▁കണക്ക്	-10.5963
▁ആന്റി	-10.5965
ഇപ്പോൾ	-10.5968
പിടിക്ക	-10.597
▁നമ്പറ	-10.597
▁അടിച്ചു	-10.597
▁ജീവിപ്പിക്ക	-10.5976
▁നാളുകള	-10.598
േണ്ടതു	-10.598
41	-10.598
മാര്‍ക്ക്	-10.5984
ാകില്ല	-10.5984
▁വനിതാ	-10.5991
72	-10.5992
വർഗ	-10.5994
ിലധികം	-10.5994
▁തെളിവ്	-10.5999
റ്റിംഗ്	-10.6003
▁ശാപ	-10.6005
▁തീവണ്ടി	-10.6006
ാമെന്നു	-10.6007
▁കാണുമ്പോള്‍	-10.6014
പ്പെടുകയോ	-10.6015
▁കുല	-10.6016
▁കാണിക്കുകയും	-10.6018
▁അഭയ	-10.6019
▁മുന്നേറ	-10.6021
യാണത്	-10.6022
▁ക്രോ	-10.6026
▁വിളിക്കും	-10.6026
പോകും	-10.6027
രണ്ടു	-10.6028
തെന്തെന്ന	-10.6028
▁കാശ്	-10.6031
▁പാരമ്പര്യ	-10.6032
▁പ്രയോഗിക്ക	-10.6033
▁സന്തുഷ്ട	-10.6035
▁പ്രവേശിപ്പിക്ക	-10.6035
▁പൂവ	-10.6037
▁ഡൈ	-10.6037
▁കാലത്തു	-10.6037
▁ചാര	-10.6039
▁ഫൈ	-10.6039
▁മുന്നറിയിപ്പു	-10.6043
▁അരുളിച്ചെയ്ത	-10.6043
നാണെന്ന്	-10.6044
ലേഖ	-10.6046
▁അനാവശ്യ	-10.6046
▁ഒരുമിച്ചുകൂട്ട	-10.6047
▁ഉയര്‍ത്തി	-10.6048
▁വിഷമിക്ക	-10.6049
ദ്ദേശ	-10.6049
▁അവയില്‍	-10.6053
▁തടഞ്ഞു	-10.6053
▁മാത്രമായി	-10.6056
▁ആക്രമിക്ക	-10.6058
ക്കേട	-10.6058
സമയത്ത്	-10.606
യില്ലാതെ	-10.606
▁സല്‍കര്‍മ്മ	-10.6061
▁പാഴാക്ക	-10.6069
▁എന്നിവര	-10.607
▁വാങ്ങുന്ന	-10.6073
▁മുമ്പാകെ	-10.6078
▁തുടര്‍ന്ന	-10.6081
▁കോഴി	-10.6082
ps	-10.6083
▁അപ്പോഴാണ്	-10.6083
▁അതിലൂടെ	-10.6084
▁ആനുകൂല്യ	-10.6084
▁ശ്രേഷ്ഠ	-10.6084
യാവു	-10.6088
▁വന്നില്ല	-10.609
ദിക്ക	-10.609
▁ശേഷമാണ്	-10.6091
▁ആരോടും	-10.6091
▁കോമ	-10.6095
▁ചിത്രങ്ങള	-10.6098
:19	-10.6103
▁കാണിക്കുക	-10.6106
വരോ	-10.6107
ദന	-10.6107
▁ജൂൺ	-10.6109
വരായിരിക്കും	-10.611
▁ഫോർ	-10.6112
▁സഹായിച്ചു	-10.6114
റിന്	-10.6116
▁കാക്ക	-10.6122
▁ഭാ	-10.6124
ന്‍റ്	-10.6127
ര്‍ദ്ദ	-10.6131
▁ക്രെഡിറ്റ്	-10.6133
▁അവരവരുടെ	-10.6135
▁പൂര്‍വ്വ	-10.6136
king	-10.6143
▁തെറ്റുകള്‍	-10.6143
▁ഉത്	-10.6146
▁സാക്ഷികള	-10.6149
മാക്കുക	-10.6149
▁പേരില	-10.6149
▁സത്യമായി	-10.6154
▁നാടു	-10.6156
▁വരുമാനം	-10.6157
▁കുറ്റപ്പെടുത്ത	-10.6159
▁തിരുമേനി	-10.6159
െന്തിനാ	-10.6163
▁പ്രതിഫലവും	-10.6164
▁പരിഭാഷ	-10.6167
▁his	-10.6167
▁മൈക്രോ	-10.6167
▁ബോധനം	-10.6168
▁നടത്തും	-10.6168
▁ജനിച്ചത്	-10.617
▁ദേഷ്യം	-10.617
രുതെന്ന്	-10.617
തിനെക്കാള്‍	-10.617
▁നാഥനില്‍	-10.6172
ail	-10.6173
▁need	-10.6174
▁കേട്ട്	-10.6179
വേള	-10.6187
കൊണ്ടിരിക്കും	-10.6187
▁ശൂന്യ	-10.6188
▁അന്യോന്യം	-10.6197
▁ആശ്വാസ	-10.6197
ions	-10.6199
▁വീഴ്ച	-10.62
▁വയസ്സ്	-10.6202
ാകുകയും	-10.6202
vo	-10.6206
▁വാല	-10.6212
ON	-10.6212
വർക്കും	-10.6214
ke	-10.6217
േറ്റു	-10.6217
▁കേസുകള	-10.6218
▁നശിപ്പിച്ച	-10.6218
▁ഉടമസ്ഥ	-10.6218
▁യിസ്രായേല്‍	-10.6219
▁പിന്ത	-10.622
നോട്ട	-10.6222
▁പറഞ്ഞിരുന്നു	-10.6226
▁സ്കോ	-10.6228
തുകൊണ്ടാണ്	-10.6228
▁സാധന	-10.6228
▁കുട്ടികളും	-10.623
യായാലും	-10.6232
▁Sa	-10.6235
▁അല്ലാഹുവിന	-10.6236
ful	-10.6237
▁ആരാണ	-10.6237
▁Ra	-10.6237
▁ജീവിക്കുന്നത്	-10.624
മെല്ലാം	-10.6247
▁നിയമസഭ	-10.6248
വിദ്യ	-10.6248
▁പുരുഷന്മാർ	-10.6249
▁വിദഗ്ദ്ധ	-10.625
▁തിരിച്ചടി	-10.6252
▁ഒന്നിച്ചു	-10.6252
▁മൂല്യം	-10.6253
▁കോപ്പി	-10.6253
▁ദാനം	-10.6254
▁പേരുടെ	-10.6256
▁ഏതൊക്കെ	-10.6259
▁തിരയുന്ന	-10.626
▁ലോകകപ്പ	-10.6261
മൂല	-10.6261
യാണെങ്കിലും	-10.6261
▁എത്തിച്ചേര	-10.6263
▁കോൺഗ്രസ	-10.6266
ാനുഭവ	-10.6268
▁പിന്തുണയ്ക്ക	-10.6268
▁സൂക്ഷ്മ	-10.6276
▁ലൈന	-10.6281
▁39	-10.6287
▁ഇറക്കി	-10.6287
▁സ്വര്‍ഗം	-10.6289
പടി	-10.6293
▁മനുഷ്യനും	-10.6294
▁ഡിസ്	-10.6296
▁കണ്‍	-10.6296
▁ഭൂത	-10.6297
▁എല്ല	-10.6297
▁ഊഹ	-10.6298
ീഷ്	-10.63
▁പ്രചരിപ്പിക്ക	-10.63
▁വികസിപ്പിക്ക	-10.63
▁വാദം	-10.6301
▁അജ്ഞാത	-10.6304
▁നിനക്കറിയ	-10.6306
▁മാന്യ	-10.6309
▁അതിവേഗം	-10.6314
▁നിൽക്കുന്ന	-10.6317
▁മാതാപിതാക്കള	-10.6318
▁മദ്യം	-10.632
▁നിര്‍ത്തി	-10.6321
▁കളഞ്ഞ	-10.6322
വട്ടം	-10.6326
▁പട്ടിണി	-10.6328
മുറി	-10.6328
▁വേദഗ്രന്ഥ	-10.633
ർത്ഥ	-10.6331
`	-10.6331
▁ശു	-10.6332
▁പാതി	-10.6332
ങ്ങളൊക്കെ	-10.6332
▁ഇൻസ്റ്റ	-10.6336
▁മിനിട്ട	-10.6339
െത്തുന്ന	-10.6339
ോരു	-10.634
▁മെറ്റൽ	-10.6342
െക്കാളും	-10.6343
▁പ്രായോഗിക	-10.6344
▁ആയിരിക്കണം	-10.6345
▁അഭിനന്ദന	-10.6346
▁യഥാ	-10.6346
▁വടി	-10.6346
▁ആശ്രയിക്ക	-10.6349
▁മറ്റൊരാള	-10.6349
▁സംതൃപ്തി	-10.6351
▁പരസ്പര	-10.6352
▁നടത്തുന്നത്	-10.6355
be	-10.6359
▁Mar	-10.6362
മുതൽ	-10.6363
▁സന്തോഷിക്ക	-10.6363
ർന്നു	-10.6364
▁പ്രാർത്ഥിക്ക	-10.6364
ത്തേക്ക	-10.6368
▁അടിമകള	-10.6369
▁നിരപരാധി	-10.6369
▁പിന്നിൽ	-10.6369
ൗണ്ട്	-10.6372
▁ജിന്ന	-10.6376
ാനിടയ	-10.6377
▁ഒരിട	-10.6379
ക്കിടയില	-10.6379
▁ദാരിദ്ര്യ	-10.6381
mon	-10.6383
▁ശിശു	-10.6385
▁ജനത്തിന്റെ	-10.6387
▁വക്കീല	-10.6389
▁ടിക്കറ്റ്	-10.6396
▁കഠിനമായി	-10.6396
▁അവളോടു	-10.6399
കൊണ്ടിരിക്ക	-10.6402
▁പടം	-10.6402
▁ഏഴാം	-10.6404
▁നില്ക്ക	-10.6404
▁കഥകൾ	-10.6409
കൂടുതൽ	-10.641
▁മടക്കി	-10.6411
▁കിട്ടിയില്ല	-10.6413
▁നേതാവ്	-10.6423
▁നിറഞ്ഞു	-10.6425
▁കനത്ത	-10.6428
▁ചിന്തകള്‍	-10.6428
▁കൂട്ടു	-10.6429
▁വരണം	-10.643
▁ആരോഗ്യകരമായ	-10.643
▁ഉപജീവന	-10.6431
wi	-10.6443
ug	-10.6443
▁വാങ്ങുക	-10.6446
▁കല്പിച്ച	-10.6447
ഫ്റ്റ്	-10.6452
gen	-10.6455
▁വേണ്ടിയുള്ള	-10.6455
ര്‍ത്ഥം	-10.6457
▁ആവശ്യകത	-10.6459
▁ജന്മം	-10.646
കളൊന്നും	-10.6461
▁150	-10.6461
രെയും	-10.6461
▁അത്ഭുതകരമായ	-10.6465
nc	-10.6465
▁മാലാഖ	-10.6466
െഴുതി	-10.6467
പാഠ	-10.6468
▁അഭിനയിക്ക	-10.6469
▁എപ്പോഴെങ്കിലും	-10.647
▁മാഷ	-10.6472
▁നോവ	-10.6473
▁തീര്‍ന്ന	-10.6474
▁ഗോൾ	-10.6475
▁ഞാ	-10.6475
▁പ്രേരിപ്പിക്ക	-10.6478
▁മറച്ചു	-10.648
▁ഗതി	-10.6481
www	-10.6482
ക്കുറിപ്പ	-10.6482
▁രാജകുമാരി	-10.6482
▁സ്പെ	-10.6482
മൂലം	-10.6482
▁വിശദമായി	-10.6483
▁നിയമപരമായ	-10.6483
▁ال	-10.6485
ാകുമ്പോള്‍	-10.6487
98	-10.6489
▁കാത്തിരുന്ന	-10.649
ാകരുത്	-10.6494
ിനായുള്ള	-10.6495
▁ഇഷ്ടമായി	-10.6498
lan	-10.6502
▁തെളിയ	-10.6503
▁ആക്രമണം	-10.6509
▁കമ്പ്യൂട്ടർ	-10.6513
രിഞ്ഞു	-10.6513
സൂത്ര	-10.6514
tu	-10.6515
▁വീട്ടിലേക്ക്	-10.6516
▁ആത്മവിശ്വാസം	-10.6517
▁എത്തും	-10.6517
ത്തിലാക്ക	-10.6519
arch	-10.652
െടുക്കുക	-10.6522
ാറുള്ള	-10.6523
▁അമേരിക്കയുടെ	-10.6523
▁ജീവിക്കും	-10.6525
▁നിന്നോ	-10.6525
▁മോനെ	-10.6525
action	-10.6526
ര്‍ട്ട്	-10.6527
ാധിപ	-10.6528
ov	-10.6528
▁300	-10.653
ിട്ടുണ്ടാക	-10.6531
▁പൂർണ്ണമായും	-10.6533
▁പുരാതന	-10.6533
ണമോ	-10.6533
▁നരകം	-10.6537
▁ഉപേക്ഷിച്ചു	-10.6545
▁താരതമ്യം	-10.6546
ജോ	-10.6546
▁ഉദ്യോഗസ്ഥ	-10.6548
air	-10.6549
▁പിതാവിനെ	-10.6551
ക്ട്	-10.6552
▁കുറ്റവാളി	-10.6554
▁ജലം	-10.6558
nu	-10.6559
ധാന	-10.6561
▁Your	-10.6561
എക്സ്	-10.6567
▁തനി	-10.657
▁തകര്‍ന്ന	-10.6572
ിപ്പിക്കുക	-10.6573
▁എന്നാണു	-10.6574
▁അശുദ്ധ	-10.6576
▁സെറ്റ്	-10.6578
നിര്‍ദേശ	-10.6578
IT	-10.6579
▁ഓസ്ട്രേലിയ	-10.6584
നിര്‍ദ്ദേശ	-10.6588
ലോൺ	-10.6589
▁ഭാവന	-10.6589
ണമെങ്കിൽ	-10.6589
▁കുട്ടികള്‍ക്ക്	-10.659
▁ഡിഗ്രി	-10.6592
▁പയ്യ	-10.6595
ശരീര	-10.6601
▁മെഷീന	-10.6603
▁സംസാരിക്കാന്‍	-10.6604
മാകാം	-10.6606
▁How	-10.6607
▁പിതാക്കന്മാര	-10.6607
▁പ്രൊഫ	-10.661
ത്തോടും	-10.6615
▁യുക്തിമാനുമ	-10.6615
യുണ്ടാക്ക	-10.6621
▁ചവിട്ട	-10.6625
ിട്ടുമില്ല	-10.6628
▁മനഃ	-10.6633
▁ഉത്പാദന	-10.6635
▁വിചാരിച്ചു	-10.6637
▁കാര്യമില്ല	-10.6637
▁God	-10.6638
▁കണ്ടില്ലേ	-10.6638
▁സൂചിപ്പിച്ച	-10.6643
ുവിൻ	-10.6646
▁ക്യാമ്പ	-10.6648
▁വീര	-10.6658
▁സൂക്ത	-10.6659
▁വരെയുള്ള	-10.6661
6-	-10.6661
വൃത്തി	-10.6663
▁കാത	-10.6666
ബോർഡ	-10.6666
▁വധശിക്ഷ	-10.6667
▁എന്തിനാണ	-10.6668
ൌണ്ട	-10.6669
▁ഭയപ്പെടേണ്ട	-10.6669
ki	-10.667
▁ഞാനെന്റെ	-10.6671
▁കര്‍ത്താവ്	-10.6673
▁പ്രസാദ	-10.6675
▁അമേരിക്കയിലെ	-10.6675
▁വർഷവും	-10.6678
▁US	-10.668
ാതിരിക്കട്ടെ	-10.6681
▁വിജയി	-10.6687
▁നിന്ദ	-10.669
▁ഫ്രഞ്ച്	-10.6691
ശാസ്ത്രജ്ഞ	-10.6692
ക്കഴിഞ്ഞു	-10.6693
▁സന്തോഷവാര്‍ത്ത	-10.6695
▁വിളിക്കാം	-10.6696
▁അടയ്ക്ക	-10.6697
gu	-10.67
▁നിറയ	-10.6702
▁ദര്‍ശന	-10.6706
▁എട്ട്	-10.6709
tain	-10.6709
▁കാണിച്ചുതര	-10.671
▁ശപിക്ക	-10.6711
▁തീര്‍ത്തും	-10.6711
52	-10.6714
▁കടല്‍	-10.6715
ാകുക	-10.6716
▁മേയ്	-10.6716
ഭേദ	-10.6717
ദാസ	-10.6718
▁സാധ്യതയുണ്ട്	-10.672
ക്ഷര	-10.6726
▁കൊട്ടാര	-10.6728
▁ചാടി	-10.673
▁ശബരിമല	-10.673
മായിത്തീര	-10.6731
▁ഒഴിവാക്കി	-10.6731
▁ഉണ്ടാവും	-10.6734
▁ഒട്ട	-10.6735
▁അച്ചടി	-10.6736
▁വഹിക്കുന്ന	-10.6738
▁ആലയ	-10.6739
▁വീണ്ടെടുക്ക	-10.6742
▁സംഭാഷണ	-10.6746
▁ഹലോ	-10.6748
വരിൽ	-10.675
അപ്പോള്‍	-10.675
▁പശ്ചാത്താപം	-10.675
▁ശ്രമിക്കുന്നു	-10.6752
▁സിനിമാ	-10.6752
▁അന്വേഷിച്ചു	-10.6758
81	-10.6759
ീരിയ	-10.6759
തിനെക്കുറിച്ച്	-10.676
500	-10.6761
▁75	-10.6761
▁പ്രസംഗം	-10.6763
▁തൊഴില്‍	-10.6765
പ്പോലും	-10.6766
▁ട്രാക്ക	-10.6767
സുര	-10.6768
day	-10.677
▁അനേക	-10.6776
▁കാര്യമല്ല	-10.6778
▁ജോണി	-10.6779
വരോടു	-10.6779
▁വസ്തുക്കൾ	-10.6779
▁ചുവപ്പ	-10.6781
▁തരുമോ	-10.6781
ult	-10.6781
മത്തായി	-10.6782
▁ക്രൂര	-10.6782
▁മറഞ്ഞ	-10.6784
▁ഒമ്പത	-10.6785
▁തീര്‍ക്ക	-10.6786
▁വാചക	-10.6786
ലൂക്ക	-10.6786
▁സൂര്യനെ	-10.6787
▁വിധത്തില	-10.6791
▁രാജ്യത്ത	-10.6798
▁തുടരുക	-10.6799
▁ഞാനാണ്	-10.6803
▁സംസാരം	-10.6803
▁തകര്‍ത്ത	-10.6804
ഷിപ്പ	-10.6805
▁നീതിമാന	-10.6808
▁സമ്മത	-10.6809
▁2005	-10.681
▁ബിജെപി	-10.6811
▁രക്ഷകന	-10.6813
▁പ്രീതി	-10.6813
▁അവരെല്ലാം	-10.6815
▁വഴികള്‍	-10.6815
ാന്റ	-10.6815
▁നന്‍മ	-10.6817
ുന്നതുമാണ്	-10.682
▁തള്ളിക്കളയ	-10.6824
ടിഞ്ഞ	-10.6824
ിരിക്കുന്നതു	-10.6828
െടുക്കാന്‍	-10.6828
▁തലവേദന	-10.6831
ാശയ	-10.6832
row	-10.6836
ങ്ങളുള്ള	-10.6836
▁ഖുര്‍ആനില്‍	-10.6836
ുണ്ടാക്കുന്ന	-10.6837
വാള	-10.6838
മൃഗ	-10.6839
▁الل	-10.6844
▁നിയമങ്ങൾ	-10.6847
43	-10.6847
▁ഏറ്റു	-10.6848
▁ലാഭം	-10.6848
യുമുണ്ട്	-10.685
▁ലാമ	-10.685
▁ശ്രദ്ധിച്ചു	-10.6851
▁നേഹിക്കുന്ന	-10.6855
▁മാർഗ്ഗ	-10.6857
▁തടവുകാര	-10.686
മാകുന്നത്	-10.6864
▁കുതി	-10.6865
▁വസ്തു	-10.6865
ിട്ടില്ലേ	-10.6867
▁ഡിജിറ്റൽ	-10.6867
▁ചെയ്യുന്നവര്‍	-10.6868
▁സാധിച്ചു	-10.687
വർഷം	-10.6871
▁മലക്കുകള്‍	-10.6874
▁കിടന്നു	-10.688
▁കൊഴുപ്പ	-10.6884
▁ചെയ്തിരുന്ന	-10.6886
▁റൂ	-10.6886
ാതി	-10.6888
▁ശമ്പള	-10.6888
▁42	-10.6888
da	-10.689
▁ഉറങ്ങി	-10.6893
▁കത്ത്	-10.6894
റിയാത്ത	-10.6895
▁ക്രമീകരിക്ക	-10.6897
▁ലഭിക്കുന്നത്	-10.6898
▁അവസാനിച്ചു	-10.6898
▁റൂട്ട	-10.6899
▁വിശ്വസിക്കുക	-10.69
▁രേഖപ്പെടുത്തിയ	-10.6903
വരെല്ലാം	-10.6907
ea	-10.6907
▁ജീവനുള്ള	-10.6915
▁വിദൂര	-10.6917
▁ശേഷവും	-10.6919
▁മിടുക്ക	-10.6922
▁Li	-10.6925
▁ജനങ്ങളേ	-10.693
വീണ	-10.6932
ES	-10.6932
▁വിശിഷ്ട	-10.6932
▁തോന്നിയത്	-10.6933
▁ഭരണാധികാരി	-10.6937
▁പറയില്ല	-10.6937
മാണെന്നും	-10.6938
യില്‍നിന്ന്	-10.6939
▁ഇത്തരത്തിലുള്ള	-10.6941
▁അവിശ്വാസ	-10.6941
▁നഷ്ടപ്പെട്ടു	-10.6942
ിനേയും	-10.6943
pp	-10.6943
പ്പെട്ടിരിക്ക	-10.6944
▁fe	-10.6946
ക്കാരൻ	-10.6953
▁അതീവ	-10.6954
▁മനോഭാവ	-10.6954
▁ചെറിയൊരു	-10.6954
▁1000	-10.6955
▁സംസാരിക്കാൻ	-10.6956
▁മറ്റെല്ലാ	-10.6959
▁യുവാക്കള	-10.6962
▁ലൈബ്രറി	-10.6965
▁ഞങ്ങളും	-10.6966
▁വൈറസ	-10.6966
▁പ്രശ്നങ്ങള	-10.6967
▁സമാന	-10.6969
▁ഇസ്ലാം	-10.6974
ഘാത	-10.6974
തോറും	-10.6974
▁ഓടിക്ക	-10.6975
▁സവിശേഷതകൾ	-10.6979
▁ഇവിടുത്തെ	-10.6982
▁മരണത്തെ	-10.6987
▁പിന്തുടരുന്ന	-10.6988
ുവാനായി	-10.6988
▁ബസ	-10.6989
▁എഴു	-10.699
നാരായണ	-10.6991
▁പരിഹാസ	-10.6992
▁കുഴപ്പം	-10.6992
▁മുറിച്ചു	-10.6996
സത്യം	-10.6997
▁അറിയുന്നവനാണ്	-10.6999
▁ഡോക്ടറെ	-10.7
▁പെട്ടെന്നു	-10.7
▁ജീവിക്കാൻ	-10.7
▁കാണാതെ	-10.7001
▁വേട്ടയാട	-10.7002
▁ഭ്രമ	-10.7002
fi	-10.7004
▁പുറത്തിറക്ക	-10.7004
▁നിലനില്‍ക്കുന്ന	-10.7006
ക്കാര്‍ക്ക്	-10.7008
▁വരുത്തിയ	-10.701
ങ്ങളിലൊന്ന	-10.7011
▁ഉത്തമം	-10.7013
▁നിയമങ്ങള്‍	-10.7015
മാവുക	-10.7016
▁ജീവനോടെ	-10.7017
ത്തൊ	-10.7017
വാദികള	-10.7018
▁കാരം	-10.7018
▁പരിഗണന	-10.7018
▁ജാലവിദ്യക്കാര	-10.7019
sta	-10.7019
ത്തിനുവേണ്ടി	-10.702
▁മുഴു	-10.7022
വനായ	-10.7023
മായിട്ടാണ്	-10.7024
▁സന്തോഷവും	-10.7025
യുക്ത	-10.7025
▁യൂറോപ്പ	-10.7032
▁കറുപ്പ	-10.7032
ഭുത	-10.7033
▁ധനം	-10.7036
വേശ	-10.7036
▁വന്നിരിക്കുന്നു	-10.704
▁പ്രാര്‍ഥിച്ച	-10.7044
▁തലച്ചോറ	-10.7047
▁യൂറോപ്യൻ	-10.7051
▁ഭീതി	-10.7052
▁ശൈ	-10.7053
▁സുരക്ഷിതമായ	-10.7058
▁സജ്ജ	-10.7061
▁കാര്യങ്ങളെ	-10.7062
▁പടച്ച	-10.7062
▁ഇത്തിരി	-10.7063
▁ആൻഡ്രോയിഡ്	-10.7064
▁Day	-10.7064
ില്ലെന്നും	-10.7067
▁വിഷാദ	-10.7073
▁അറിയുന്നവനും	-10.7073
96	-10.7074
സമൂഹ	-10.7075
▁പറക്ക	-10.7076
▁കേൾക്കാൻ	-10.708
64	-10.7084
▁ഇത്തരത്തില്‍	-10.7085
▁വിശദീകരിച്ചു	-10.7087
▁ധ്യാന	-10.7088
▁ചെയ്യുമ്പോള്‍	-10.7089
▁തിരിച്ചറിഞ്ഞ	-10.7089
▁കാര്യത്തിലും	-10.7093
▁വര്‍ത്തമാന	-10.7097
▁അംഗങ്ങള	-10.7097
▁ഉചിതമായ	-10.7099
▁വിശദീകരണം	-10.7099
പിരി	-10.71
എനിക്കു	-10.7103
▁താഴെയുള്ള	-10.7104
▁കമ്പനികൾ	-10.7105
▁അതുകൊണ്ട	-10.7106
▁പാവപ്പെട്ട	-10.7106
▁മാക്	-10.7107
ഇതാ	-10.7107
ner	-10.7108
▁വായ്	-10.7111
▁അച്ഛനെ	-10.7113
▁വീതി	-10.7114
▁നെഞ്ച	-10.7117
▁മന്ത്രവാദം	-10.712
▁വിട്ടേക്ക	-10.7123
ാർഥ	-10.7123
wa	-10.7128
▁കൊണ്ടുവരിക	-10.713
▁അത്യുന്നത	-10.713
▁വാൾ	-10.7132
▁പുനര	-10.7133
പ്പെട്ടാല്‍	-10.7135
▁എഴുതാന്‍	-10.7138
▁അംഗീകാരം	-10.7139
▁വാര്‍ത്തകള്‍	-10.7141
▁അധ്യാപകര	-10.7142
▁എളുപ്പമുള്ള	-10.7145
▁യഹോവേ	-10.715
▁കൊള	-10.7156
താങ്	-10.7157
▁ആസ്വദിച്ച	-10.7159
▁കടൽ	-10.716
▁ഇങ്ങനെയൊരു	-10.7163
ുചെയ്ത	-10.7163
▁ജീവിക്കുന്നു	-10.7169
വിഷയ	-10.7169
▁അടങ്ങിയ	-10.7169
▁കീഴിൽ	-10.717
രുതെന്ന	-10.7171
▁ശേഖരിച്ച	-10.7172
▁വലിച്ച	-10.7175
ore	-10.7177
▁കുടിയ	-10.7177
▁ആളെ	-10.7178
ബ്രാ	-10.7178
കയറ	-10.7179
▁പശ്ചാത്തപിച്ച	-10.718
▁വേശ്യ	-10.7183
▁അടച്ചു	-10.7184
▁ജയിച്ച	-10.7186
്യത	-10.719
▁ഗെയിമുകൾ	-10.7191
▁ജീവിതവും	-10.7193
യച്ചു	-10.7193
▁അറിഞ്ഞിരിക്ക	-10.7194
▁വിജയിച്ചു	-10.7195
▁ഇവനെ	-10.7196
▁പരിക്കേറ്റ	-10.7198
▁നഷ്ടപ്പെടുത്ത	-10.7199
▁കേട്ടോ	-10.721
▁സത്യവിശ്വാസികളേ	-10.7211
▁കല്യാണം	-10.7213
▁ലോഡ്	-10.7217
▁നിലയില	-10.7217
gin	-10.7224
▁അറസ്റ്റ്	-10.7224
▁ടെസ്റ്റ്	-10.7224
▁വലുതാണ്	-10.7227
▁നാട്ടുകാര്‍	-10.723
▁വരട്ടെ	-10.7231
ഹൃദ	-10.7233
▁ആധിപത്യം	-10.7235
▁ന്യായമായ	-10.7236
▁എട്ട	-10.7239
▁നാമത്തില്‍	-10.7239
▁shall	-10.7248
▁ഉത്തരവാദിത്വ	-10.7249
▁ടെസ്റ്റ	-10.725
▁നിവേദനം	-10.7252
▁മതിയാക	-10.7252
▁ആശയവിനിമയ	-10.7252
▁ഒഴുക്ക	-10.7253
▁പല്ലു	-10.7254
▁വലുപ്പം	-10.7255
▁കാണുന്നില്ലേ	-10.7255
ven	-10.7256
അവർ	-10.7257
പിച്ച	-10.7257
ുപയോഗിച്ച	-10.7257
▁വിശദമായ	-10.7259
▁ശാന്തി	-10.7259
▁പ്രദാനം	-10.726
▁ജാഗ്രത	-10.7261
▁;)	-10.7265
പണി	-10.7269
▁കോണ	-10.7271
ans	-10.7271
cy	-10.7271
ാതിരി	-10.7272
ിനകം	-10.7273
മന്ദിര	-10.7275
▁കൂടെയുള്ള	-10.7277
ലോഡ	-10.7279
▁ലഭിക്കുന്നു	-10.7281
▁വിജയിച്ച	-10.7281
കാരണ	-10.7284
ഡ്യൂ	-10.7287
▁ഗോള	-10.7287
▁സിറിയ	-10.7288
▁നാണയ	-10.7288
കൂടാതെ	-10.729
▁വായ്പ	-10.7292
നിര്‍ത്ത	-10.7292
▁വായിക്കാൻ	-10.7292
▁ലൈൻ	-10.7293
▁കഴിയുക	-10.7293
▁ദേശത്തു	-10.7294
പരിധി	-10.7294
▁പതിപ്പ	-10.7295
സൃഷ്ടി	-10.7296
▁ആദരിക്ക	-10.7299
▁ലിങ്ക്	-10.7302
▁മാലിന്യ	-10.7302
ചന്ദ്ര	-10.7303
▁സന്തോഷത്തോടെ	-10.7305
കാരൻ	-10.7306
▁എഴുത്തു	-10.7308
ങ്ങളിലേക്ക	-10.7308
പ്രവാചക	-10.7311
വകാശ	-10.7312
▁ഗർഭ	-10.7313
▁സിനിമയുടെ	-10.7316
റിയാന്‍	-10.7318
▁തിരഞ്ഞെടുപ്പ്	-10.7319
വുമുണ്ട	-10.7319
മുറ	-10.7321
▁ഇന്	-10.7321
▁പഞ്ച	-10.7322
▁വനിത	-10.7325
▁ചെയ്താൽ	-10.7326
▁Pre	-10.7328
വ്യവസ്ഥ	-10.7328
ആദ്യ	-10.7329
▁ചോദ്യങ്ങള	-10.7329
ാനില്ല	-10.733
con	-10.7331
▁നഷ്ടമായ	-10.7333
ജാത	-10.7335
▁ബ്രോ	-10.7336
▁ഭാഷയിൽ	-10.7337
▁തന്ത്രം	-10.7338
▁വിതരണ	-10.7338
▁സന്നിധിയ	-10.7341
ക്കിയിരിക്കുന്നു	-10.7341
mail	-10.7343
ക്കാർക്ക്	-10.7344
▁എങ്ങോട്ട	-10.7345
▁ഫിര്‍ഔന	-10.7345
▁49	-10.7346
▁ഇരുണ്ട	-10.7347
▁ഡേറ്റ	-10.7349
serv	-10.7354
▁എക്സ	-10.7354
▁ക്രിക്കറ്റ	-10.7358
ek	-10.736
▁കലാകാരന	-10.7365
▁ഉയരം	-10.7365
▁കരഞ്ഞു	-10.7366
▁അനുവാദം	-10.7366
▁കേള്‍ക്കുന്നവന	-10.7367
▁ഇന്റർനെറ്റ്	-10.7369
▁പോള	-10.737
യിസ്	-10.737
▁കടപ്പാട്	-10.7373
▁തേടുകയും	-10.7374
▁പ്രസിഡന്റ	-10.7375
▁എഴുത്ത്	-10.7375
▁സ്നേഹവും	-10.7378
▁തങ്ങള്‍ക്ക്	-10.7379
▁എടുക്കുക	-10.7385
▁All	-10.7389
▁അശ്രദ്ധ	-10.7391
പൂര്‍ണ്ണ	-10.7396
വനായി	-10.7397
▁വിവാഹമോചന	-10.74
▁സാധ്യമായ	-10.7402
▁പ്രവർത്തിച്ച	-10.7402
കുമാര്‍	-10.7403
ൊടു	-10.7404
▁അമ്മേ	-10.741
▁വെറുമൊരു	-10.7413
▁എഴുതുക	-10.7415
▁ഇഷ്ടമല്ല	-10.7415
സ്റ്റോ	-10.7417
▁പ്രസിദ്ധീകരിക്ക	-10.7418
മാണെങ്കില്‍	-10.7421
മുളള	-10.7423
▁ഇവയുടെ	-10.7424
▁ഭൂമിയില	-10.7424
▁നൂറ	-10.7425
ുവിനെ	-10.7426
▁സംവിധായകന	-10.7428
കരിച്ച	-10.7429
▁നിലവിലെ	-10.7431
▁കണ്ണാടി	-10.7437
▁വിചിത്ര	-10.744
▁സന്തതി	-10.7446
▁പൊതുവായ	-10.7447
മാക്കുന്നു	-10.7448
▁മുടക്ക	-10.745
▁ഉണങ്ങ	-10.7452
▁കാരുണ്യവും	-10.7456
▁ചെയ്യാനും	-10.7461
ർജ്ജ	-10.7463
▁ഗുണനിലവാര	-10.7465
▁മക്കളും	-10.7465
▁വളര്‍ച്ച	-10.747
▁മടിയ	-10.7471
ചരിത്ര	-10.7474
ാക്കിയത്	-10.7474
▁അറിയണം	-10.7474
▁ഭരണകൂട	-10.7475
▁ചെയ്യട്ടെ	-10.7475
▁ടൈം	-10.7476
▁പെണ്‍	-10.7479
▁love	-10.748
▁ദിവസങ്ങൾ	-10.7481
നന്ദി	-10.7483
▁തകര	-10.7485
ന്ത്യ	-10.7489
▁അലങ്കാര	-10.7495
▁തെളിയിച്ച	-10.75
▁കേള്‍ക്കാന്‍	-10.7501
▁പുതുതായി	-10.7507
▁പരമ്പരാഗത	-10.7512
▁കളിയാക്ക	-10.7513
▁സൃഷ്ടിക്കുന്നു	-10.7513
▁മനസ്സിലായില്ല	-10.7517
▁തയ്യാറാക	-10.7521
▁അച്ഛനും	-10.7521
വേണം	-10.7522
▁Man	-10.7524
▁ഐഹികജീവിത	-10.7524
വിചാര	-10.7524
▁ഐശ്വര്യ	-10.7525
▁മൂന്നോ	-10.7528
വാസികള്‍	-10.7528
▁സമിതി	-10.753
▁മുതലാളി	-10.7531
▁നല്കിയ	-10.7535
▁നാഥനെ	-10.7537
ത്തിലേക്കുള്ള	-10.7538
▁കളഞ്ഞു	-10.7539
▁ജനിക്ക	-10.754
▁ഉറപ്പിച്ചു	-10.7544
വാക്യ	-10.7547
നിശ്ചയ	-10.7548
▁കഴിവുള്ള	-10.7549
▁പിശാചുക്കള	-10.7553
▁സോഫ്റ്റ്വെയർ	-10.7555
▁കായിക	-10.7559
▁LED	-10.756
നിനക്ക	-10.7562
വെച്ച്	-10.7562
ഴിഞ്ഞ	-10.7564
▁പ്രശസ്തമായ	-10.7566
ിനടുത്ത	-10.7569
▁വ്യത്യസ്തമാണ്	-10.7571
▁അന്വേഷിച്ച	-10.7574
▁സ്ത്രീയെ	-10.7574
▁പ്രമേയ	-10.7577
ിത്തന്ന	-10.7579
▁ബ്രിട്ട	-10.7582
▁തള്ളിപ്പറയ	-10.7586
▁ദുഖ	-10.7587
▁ഈസാ	-10.7587
യാണു്	-10.7589
▁വായിക്കാം	-10.7591
▁ആള്‍ക്കാര	-10.7592
▁അവരോടൊപ്പം	-10.7593
▁ഇതായിരുന്നു	-10.7595
▁ഓരോരുത്തര	-10.7596
▁തകർന്ന	-10.7597
▁സൂര്യന്‍	-10.7602
▁സന്നദ്ധ	-10.7608
▁ജീവിച്ചിരുന്ന	-10.7609
▁ലീഗ	-10.761
▁മുമ്പെ	-10.7615
▁സംതൃപ്	-10.7615
മുടി	-10.7616
▁പരിവർത്തന	-10.7621
▁അധ്യായ	-10.7621
▁പുള്ളി	-10.7621
▁വരികള	-10.7623
▁ഗർഭിണി	-10.7625
Comment	-10.7625
ations	-10.7628
▁നയം	-10.7628
▁ദശ	-10.7629
▁വേദനയേറിയ	-10.7631
ിച്ചുകളയ	-10.7632
▁വായു	-10.7632
▁വ്യക്തിത്വ	-10.7633
▁നായിക	-10.7633
▁വൈകാരിക	-10.7634
▁ഡാറ്റാബേസ	-10.7638
ിറങ്ങിയ	-10.7639
▁പുലി	-10.7639
va	-10.764
▁പൊയ്	-10.764
▁പുസ്തകങ്ങൾ	-10.7641
▁അനുയായികള	-10.7642
▁അവതരണ	-10.7644
▁മണ്ഡല	-10.7646
മൂല്യ	-10.7646
▁മേരി	-10.765
സ്സു	-10.7652
▁പുസ്	-10.7652
▁നടത്തുക	-10.7654
:23	-10.7655
▁അങ്ങനെയൊരു	-10.7662
▁മറികടക്ക	-10.7665
▁ye	-10.7667
▁കിട്ടിയത്	-10.7667
▁ദീന	-10.7669
▁വരുമോ	-10.7669
യാണെന്നു	-10.7669
▁ഹൃദയത്തില്‍	-10.7671
▁തയ്യാറായ	-10.7672
▁സംസാരിക്കും	-10.7675
▁ചുംബന	-10.7678
▁മാര്‍ഗ്ഗ	-10.768
ുന്നതില	-10.7682
▁ചത്ത	-10.7684
▁കഴുകി	-10.7687
▁വീട്ടു	-10.7689
ോര്‍ക്ക	-10.7692
നാട്ട	-10.7694
▁പോകരുത്	-10.7696
▁ഇന്ധന	-10.7696
▁ന്യായം	-10.7696
▁ആരൊക്കെ	-10.7699
പ്പെടുത്തുകയും	-10.77
പ്തി	-10.7701
വരാരോ	-10.7704
േഷ്യ	-10.7706
▁നാട്ടിലെ	-10.7706
▁വിളിക്കുന്ന	-10.7708
▁സ്നേഹിച്ച	-10.771
▁വീട്ടുകാര	-10.7711
ik	-10.7711
▁ലൈറ്റിംഗ്	-10.7711
▁പാലം	-10.7712
▁സ്ഥിതിചെയ്യുന്ന	-10.7714
▁വിധത്തില്‍	-10.7716
▁സോഷ്യൽ	-10.7717
its	-10.7718
▁അല്ലാഹുവിനു	-10.7718
▁വേണമെങ്കില്‍	-10.772
▁വധിക്ക	-10.772
▁ശേഷമ	-10.7721
ോണിയ	-10.7721
▁പുറകില	-10.7723
▁comment	-10.7727
വളുടെ	-10.7728
െത്തും	-10.7734
▁പാപമോചനവും	-10.7736
▁does	-10.7739
▁അച്ഛന്റെ	-10.7739
▁സന്താന	-10.774
▁എന്തേ	-10.774
▁വിശദമാക്ക	-10.7741
▁അദ്ദേഹമ	-10.7741
▁ബ്രഷ്	-10.7744
▁എടുക്കും	-10.7744
▁അവയവ	-10.7747
cle	-10.7752
ste	-10.7755
അവരുടെ	-10.7755
പെടുന്ന	-10.7757
▁അനുബന്ധ	-10.7758
വിശ്വാസികള	-10.7761
▁സത്യവിശ്വാസം	-10.7762
▁പ്രശ്നങ്ങള്‍	-10.7762
പ്പെടാത്ത	-10.7764
നോക്കി	-10.7765
▁റെക്കോർഡ	-10.7766
ിനിടയില	-10.7767
▁ചോദ്യത്തിന്	-10.7769
▁റിപ്പോർട്ട	-10.777
▁ചിഹ്ന	-10.7772
ബുദ്ധി	-10.7775
▁വിൽപ്പന	-10.7775
▁അനുസരണ	-10.7784
▁വീതം	-10.7785
▁പരാജയപ്പെട	-10.7788
ഫൈ	-10.7789
▁റോള	-10.7791
▁അഭിപ്രായങ്ങൾ	-10.7793
▁അദ്ധ്യായ	-10.7793
▁സ്വാഭാവികമായും	-10.7793
ally	-10.7794
▁ഒടുക്ക	-10.7795
പ്പിടിച്ച	-10.7796
▁ഉപഭോക്താക്കള	-10.7797
▁എന്റ	-10.78
▁ആലോചന	-10.7802
▁സമ്പാദിച്ച	-10.7802
▁പിശക	-10.7804
less	-10.7806
കാർ	-10.7809
▁പദ്ധതിയുടെ	-10.781
▁ക്ലോ	-10.781
▁രീതിയില	-10.7812
▁ഓർക്കുക	-10.7815
▁സ്ഥലങ്ങള	-10.7816
▁41	-10.7818
കളായിരുന്നു	-10.7819
▁തലസ്ഥാന	-10.7828
▁കീഴടക്ക	-10.783
▁അനുഗ്രഹങ്ങള്‍	-10.783
▁ദിവസങ്ങളിൽ	-10.7835
▁വഴികാട്ടി	-10.7835
Q	-10.7837
▁കാലത്തെ	-10.7839
▁മനസിലായി	-10.7842
▁ഇഹലോകത്ത	-10.7842
IC	-10.7843
▁പാചക	-10.7848
thing	-10.7849
▁ലോകത്തില്‍	-10.7851
▁വിപരീത	-10.7851
▁സ്വര്‍ണ	-10.7851
▁മീറ്റർ	-10.7853
▁പഠിക്കുക	-10.7854
▁ജാലക	-10.7855
▁രക്ഷിതാക്കള	-10.786
▁പറ്റൂ	-10.7862
ound	-10.7862
▁അത്തരമൊരു	-10.7864
▁വ്യായാമ	-10.7867
▁ഇതാണോ	-10.7868
▁തുല	-10.7869
വെള്ള	-10.7869
ോളാം	-10.7876
▁തരുന്നു	-10.7879
▁തനിക്ക	-10.7879
ാധികാര	-10.788
▁ജീവിച്ചു	-10.788
▁ബഹിരാകാശ	-10.7882
▁മുങ്ങി	-10.7886
മാർക്ക്	-10.7889
▁സെപ്റ്റംബർ	-10.7898
▁സാമ്രാജ്യ	-10.7901
▁പൊള്ള	-10.7903
പ്രദമായ	-10.7906
▁ഡേ	-10.7907
▁ഇക്കാര്യ	-10.7907
▁ഔട്ട്	-10.7907
▁ഫയൽ	-10.7909
▁ബാല്യ	-10.7911
ഫോണ	-10.7913
ത്തിന്‍	-10.7914
▁മകളെ	-10.7914
▁പ്രവണത	-10.7914
▁ലഘു	-10.7915
വിളി	-10.7916
▁2004	-10.7919
▁നിറയെ	-10.7925
യോളം	-10.7932
▁വാഴ്ത്ത	-10.7934
▁ബാധ	-10.7935
▁സ്ത്രീയുടെ	-10.7938
▁യാത്രക്കാര	-10.794
view	-10.794
കളിലാണ്	-10.7943
▁പന്നി	-10.7944
▁വ്യായാമം	-10.7947
▁ഒഴിഞ്ഞ	-10.7951
▁വിശ്രമിക്ക	-10.7956
ത്തിലോ	-10.7957
▁പണ്ട്	-10.7957
ങ്ങളിലുള്ള	-10.7958
▁കൃത്രിമ	-10.7959
▁ഫേസ്ബുക്ക	-10.7959
ത്രയും	-10.7961
▁മീന്‍	-10.7964
▁സംശയിക്ക	-10.7965
▁ബ്രാ	-10.797
0)	-10.797
▁മൊബൈല്‍	-10.7976
ുണ്ടാക്കി	-10.7977
▁കവർ	-10.7978
സംഖ്യ	-10.7979
▁നല്‍കുന്നതാണ്	-10.7982
ശ്രീ	-10.7984
നുഗ്രഹ	-10.7987
▁നീങ്ങി	-10.7988
സ്റ്റിക്	-10.7991
▁ദൈവവചന	-10.7994
▁കഴിയുന്നു	-10.7995
ായിട്ടാണ്	-10.7996
▁റഷ്യൻ	-10.7996
▁അനുഗ്രഹവും	-10.7996
▁ചോദിച്ചാല്‍	-10.7999
▁കൂടുതലാണ്	-10.8
▁മനസ്സിലാക്കാന്‍	-10.8007
▁ഭയപ്പെട്ടു	-10.8009
ുമാറ	-10.8009
▁ദിവസങ്ങളില്‍	-10.801
▁വെള്ളിയാഴ്ച	-10.8013
▁കരാർ	-10.8014
ാർഡ്	-10.8016
▁വിദ്യാർത്ഥി	-10.8016
▁പ്രശംസ	-10.8018
▁വന്നപ്പോള്‍	-10.802
വാന്മാര	-10.802
▁വിക്കി	-10.8021
▁മനസ്സിനെ	-10.8025
▁പട്ടാള	-10.8026
▁വിമര്‍ശന	-10.8027
▁മാതൃ	-10.8029
▁ആഹ്ലാദ	-10.8031
▁ഭാവിയിൽ	-10.8032
പ്പോലുള്ള	-10.8034
▁ഉണ്ടെന്ന്	-10.8036
▁സിദ്ധ	-10.8039
az	-10.804
▁ഉണ്ടായത്	-10.8042
▁പേശി	-10.8042
▁അനുവദിക്കുക	-10.8045
▁പര്യ	-10.8046
ഗണ	-10.8048
▁പപ്പ	-10.8049
▁വേണമെങ്കിൽ	-10.8051
▁Pri	-10.8055
▁My	-10.8058
▁വിപുലമായ	-10.8062
ാവാന്‍	-10.8063
▁പ്രമേഹ	-10.8063
app	-10.8065
▁ബുക്ക	-10.8066
▁ബോധം	-10.8068
▁ഓർത്ത	-10.8069
▁അറിയാമായിരുന്നു	-10.807
▁ഒരെണ്ണം	-10.8072
▁ഗൈഡ്	-10.8073
▁ഏറ്റെടുത്ത	-10.8075
▁പൂര്‍ണ്ണമായും	-10.8077
▁ബ്രാൻഡ്	-10.808
▁ആണെങ്കിൽ	-10.808
പോവ	-10.808
che	-10.8083
▁കെട്ടിടം	-10.8083
യുണ്ടാക	-10.8084
ുന്നവയ	-10.8091
ഹാസ	-10.8092
മാകട്ടെ	-10.8097
ible	-10.8099
▁ഇവയെ	-10.81
ുണ്ടാവില്ല	-10.8101
▁പറഞ്ഞിട്ടുണ്ട്	-10.8102
ka	-10.8102
ഫോൺ	-10.8102
▁കാത്തിരുന്നു	-10.8104
▁കണ്ടെത്തും	-10.8106
▁ചെയ്യുന്നുണ്ട്	-10.8108
ിനകത്ത	-10.8108
▁ഗര്‍ഭിണി	-10.8109
ward	-10.811
▁വഴികേടില	-10.8114
▁വിസ്മയ	-10.8114
▁വല്യ	-10.8116
▁തിരക്കഥ	-10.8117
▁44	-10.8119
▁മറ്റെന്ത	-10.8121
▁സർവകലാശാല	-10.8123
▁സമ്മർദ്ദ	-10.8123
പ്പെടാന്‍	-10.8124
റേറ്റ	-10.8124
51	-10.8124
▁തുള	-10.8125
▁ഖുര്‍	-10.8126
▁ട്രി	-10.8127
▁ചിലര്‍ക്ക്	-10.8128
ർത്ഥം	-10.8129
▁പിതാവു	-10.813
ഗ്രാം	-10.8133
▁ട്യൂ	-10.8135
ത്തിലാണ	-10.8137
▁യുവാവ	-10.8138
▁ചൊല്ലി	-10.814
പ്രകാരമാണ്	-10.814
▁പച്ചക്കറി	-10.8141
▁ആജ്ഞ	-10.8149
▁കല്‍പിച്ച	-10.8152
ത്തിനിടെ	-10.8152
▁പോരാ	-10.8156
▁കഴിക്കുന്നത്	-10.816
▁ബാർ	-10.8163
▁സഹായിക്കാന്‍	-10.8163
▁മുംബൈ	-10.8164
▁നീളം	-10.8165
▁ഉപകരണങ്ങള	-10.8167
▁സുഹൃത്തുക്കൾ	-10.8169
▁മുമ്പായി	-10.8171
▁ആരുണ്ട്	-10.8172
കഴിയ	-10.8174
5%	-10.8175
▁ബുദ്ധ	-10.8175
mer	-10.8175
▁സന്ധ്യ	-10.8179
▁അവര്‍ക്കിടയില്‍	-10.8182
▁വിളിക്കുക	-10.8188
▁has	-10.8188
ney	-10.8193
▁രക്ഷിച്ചു	-10.8193
▁പനി	-10.8199
▁സൈക്കിള	-10.8202
▁തകരാറ	-10.8202
▁ഞാനെന്ത	-10.8204
▁ജനതയുടെ	-10.8204
▁കഴിഞ്ഞാൽ	-10.8205
▁ധാന്യ	-10.8207
▁മിന്ന	-10.8208
▁ഇരിക്കുന്നു	-10.821
▁പഠിക്കാൻ	-10.8211
▁ഒഴിഞ്ഞു	-10.8212
▁ഭാഷാ	-10.8213
▁ഉള്ളടക്കം	-10.8215
▁പിണറായി	-10.8215
▁പ്രായമായ	-10.8216
▁സാധനം	-10.8217
ഭിമാന	-10.8219
org	-10.8221
▁പരിഹസിക്ക	-10.8224
▁അവതാര	-10.8225
ram	-10.8226
മാണു്	-10.8227
▁വഴിയിൽ	-10.8228
▁ഭാഗത്തു	-10.8228
▁ഡിസംബര്‍	-10.8229
പത്തി	-10.8231
ഷണൽ	-10.8233
▁ഇസ്രായേൽ	-10.8234
▁ശിക്ഷയില്‍	-10.8236
ത്തീര്‍	-10.8237
▁ഫുട്	-10.8237
▁അമേരിക്കയിൽ	-10.8238
▁ബ്ലാക്ക്	-10.8239
▁രക്ഷപ്പെടുത്ത	-10.824
▁ഇരിക്കും	-10.8241
▁ചുരുങ്ങിയ	-10.8242
▁വഷള	-10.8243
▁സേന	-10.8246
▁നേട്ടം	-10.8247
ഗൃഹ	-10.8249
ok	-10.8252
▁മാനദണ്ഡ	-10.8252
ാനന്തര	-10.8254
▁ഫീസ്	-10.8255
ഡ്രോ	-10.8255
▁അറിയിപ്പ	-10.8257
ഭ്യ	-10.8261
▁ശതമാനവും	-10.8261
▁മാന്യമായ	-10.8262
▁നൊ	-10.8262
▁സ്വാമി	-10.8262
ത്തിലുണ്ട	-10.8263
▁വിജയകരമായി	-10.8263
▁ഉൾക്കൊള്ള	-10.8264
ാണെന്റെ	-10.8268
▁നൃത്ത	-10.8269
മനുസരിച്ച്	-10.8271
ുക്കള്‍	-10.8272
▁വ്യാഴാഴ്ച	-10.8273
▁നേതാക്കള്‍	-10.8273
െന്നറിയ	-10.8273
മാണല്ലോ	-10.8273
സമാധാനം	-10.8275
▁നേടാൻ	-10.8276
▁Comments	-10.8276
▁അപ്പോഴേക്കും	-10.8277
ുന്നതെങ്ങനെ	-10.8278
▁ടെലി	-10.8279
▁പഞ്ചസാര	-10.8281
▁ആരോട	-10.8282
▁വിശക്ക	-10.8283
▁ഒറ്റയ്ക്ക	-10.8287
▁തിരിക്ക	-10.8287
▁റദ്ദാക്ക	-10.829
▁ക്രിസ്	-10.829
▁പിന്തുടര്‍ന്ന	-10.829
▁ഇറങ്ങിയ	-10.8292
▁എത്തിയത്	-10.8292
ങ്ങളില്ല	-10.8292
▁പറ്റും	-10.8296
▁ജൈവ	-10.8299
▁വേഗത്തില	-10.8299
കൊടുക്കുക	-10.83
▁തയ്യാറായി	-10.8302
▁ഫോറെക്സ്	-10.8304
▁അദ്ദേഹത്തോട്	-10.8304
▁എവിടെയോ	-10.8308
▁അദ്ഭുത	-10.8308
▁Or	-10.8309
▁കിലോ	-10.8311
ത്തില്	-10.8313
▁കെട്ടിച്ചമച്ച	-10.8313
▁പോയിരുന്നു	-10.8316
▁നിലവാരം	-10.8317
പ്പിടിക്ക	-10.8317
▁പൊലീസ	-10.832
രായിരിക്ക	-10.8322
▁വിചിത്രമായ	-10.8324
▁ദൈവത്തില്‍	-10.8324
▁അവര്‍ക്കുള്ള	-10.8326
▁com	-10.8327
▁ഭീമ	-10.8329
▁അഭയം	-10.8329
▁വർഗ്ഗം	-10.8332
vent	-10.8337
▁കൊടുക്കുന്നു	-10.834
▁അഞ്ചാം	-10.8341
ൊഴിഞ്ഞ	-10.8343
▁സുപ്രധാന	-10.8343
▁വലിപ്പ	-10.8346
▁രക്ഷാധികാരി	-10.8346
▁നൂറ്	-10.8346
▁സഖ്യ	-10.8348
▁പുതുമ	-10.8352
▁ശരിയാക്ക	-10.8352
റിയാമല്ലോ	-10.8354
▁ഇസ്രയേല്‍	-10.8356
▁വകുപ്പ്	-10.8357
▁ജീവന്റെ	-10.836
▁കുറക്ക	-10.8364
▁world	-10.8366
ആര്‍	-10.8369
▁പോക്കറ്റ	-10.837
AS	-10.837
▁കുറച്ചുകൂടി	-10.8371
▁അടയാളം	-10.8371
▁സൈന്യം	-10.8372
▁പ്രവേശന	-10.8374
കൊണ്ടേയിരിക്ക	-10.8374
കളേയും	-10.8377
tal	-10.8378
▁ഡോളര്‍	-10.8379
▁ഗ്രൂപ്പ്	-10.8382
▁മെറ്റീരിയൽ	-10.8384
▁65	-10.8385
ൻറ്	-10.8388
▁കടന്നുപോക	-10.8388
▁തേടുക	-10.8388
ക്കിടയിൽ	-10.8388
മാറി	-10.839
▁ഓർ	-10.8391
▁പകല്‍	-10.8392
കുഞ്ഞ	-10.8393
യ്യാ	-10.8396
ib	-10.8399
▁രംഗ	-10.84
:24	-10.8401
ning	-10.8404
▁ലോഹ	-10.8405
ന്തോ	-10.8406
▁സൊ	-10.8406
മൂസാ	-10.8407
ിലേയ്ക്കു	-10.841
▁റോബ	-10.8413
▁സഹോദരന്‍	-10.8415
വാരി	-10.8415
▁ആകാശത്ത്	-10.8419
▁പദ്ധതികൾ	-10.8422
▁തെര	-10.8424
▁One	-10.8425
▁കുട്ടികൾക്ക്	-10.8425
▁കര്‍ത്താവേ	-10.8427
എച്ച്	-10.8429
▁സമയത്തും	-10.8429
▁നിറുത്ത	-10.843
പ്രശ്ന	-10.843
▁ന്യായപ്രമാണ	-10.8436
▁ആദ്യകാല	-10.8436
▁ആത്മവിശ്വാസ	-10.8437
▁പുനര്‍	-10.8438
നിനക്ക്	-10.8439
▁തീർത്ത	-10.8442
▁അവയെല്ലാം	-10.8443
▁അല്ലാഹുവേ	-10.8446
യ്ക്കാ	-10.8449
സംബന്ധമായ	-10.8451
▁പോവുകയാണ്	-10.8452
കൃത്യ	-10.8454
്യവും	-10.8454
യിരിക്കും	-10.8458
▁വിധത്തിൽ	-10.8459
▁നിർമ്മാതാവ	-10.8459
▁പോകാന	-10.8459
▁നാടകം	-10.846
ായുധ	-10.8464
▁പ്രതീക	-10.8465
▁ലഭ്യമല്ല	-10.8466
▁വിവരണ	-10.8472
▁ആഭ്യന്തര	-10.8474
▁പൊറുത്ത്	-10.8474
ഇന്ന്	-10.8474
▁കല്യാണ	-10.8477
▁സ്റ്റേറ്റ്	-10.8477
കൂട്ടി	-10.8477
ാത്മാവ	-10.8482
▁പരിരക്ഷ	-10.8482
▁നൽകുന്നത്	-10.8483
▁പരിസര	-10.8484
▁മെച്ച	-10.8484
▁പാനീയ	-10.8485
▁ഉല	-10.8488
ാതിരുന്നത്	-10.8493
▁സഹായക	-10.8494
▁ഒട്ടക	-10.8494
▁ചെയ്തവരാരോ	-10.8495
▁പോലീസുകാര	-10.85
▁read	-10.8506
▁കയറ്റ	-10.8507
▁കാവല്‍	-10.8508
ിടത്ത്	-10.8508
ശ്വാസ	-10.8508
▁നിക്ഷേപം	-10.8513
ork	-10.8515
▁വിദ്യാർഥി	-10.8517
▁അവരില	-10.8524
▁മരണവും	-10.8525
▁സൗജന്യമായി	-10.8527
▁ദാവൂദ	-10.8531
▁ഗ്രഹിക്ക	-10.8533
▁ഭക്ഷണവും	-10.8534
സ്കോ	-10.8542
▁ചെന്ന്	-10.8543
▁ലീഡ	-10.8544
▁വെറുതേ	-10.8545
▁യജമാന	-10.8546
കാലത്തെ	-10.8546
▁സാരമില്ല	-10.8547
▁നുറുങ്ങുകൾ	-10.855
▁സൈക്കിൾ	-10.8551
▁സഹായവും	-10.8553
▁സംഭാഷണം	-10.8556
അല്ലാഹുവാണ	-10.8557
ശീ	-10.8558
▁തെറി	-10.8559
കൃഷ്ട	-10.856
▁കല്പിച്ചു	-10.856
▁ഡോക്	-10.8562
രാജാക്കന്മാര	-10.8566
▁തീരുമാനമെടുക്ക	-10.8568
▁പ്രേത	-10.8572
▁മനസിലാക	-10.8574
ക്ടറ	-10.8574
▁ആരംഭിക്കുക	-10.8574
▁ദാവീദ	-10.8575
▁പറയുന്നുണ്ട്	-10.8576
യുണ്ടാകും	-10.8576
യാണെങ്കിൽ	-10.8577
▁സ്ഥിരം	-10.8578
▁കേവലം	-10.8579
▁ഫിലിപ്പ	-10.8581
പ്രവൃത്തി	-10.8584
ple	-10.8585
▁ഭാഗമായ	-10.8588
▁നടപടികൾ	-10.8589
▁സർവീസ	-10.859
യിലോ	-10.859
▁ഇൻഡ	-10.8591
▁പറയാമോ	-10.8594
▁മരുന്നുകൾ	-10.8595
LE	-10.8598
പുരുഷ	-10.8603
▁ഉപയോക്താക്കൾ	-10.8603
▁ദൈവത്തോടു	-10.8605
▁ഒഴുകി	-10.8607
ck	-10.8607
താക്കൾ	-10.8607
▁കാഴ്ചകൾ	-10.8608
▁സ്മാർട്ട്	-10.8608
▁Po	-10.8609
▁റിലീസ്	-10.8609
▁എപ്പോള്‍	-10.861
▁രാജ്യങ്ങളിൽ	-10.8613
▁New	-10.8613
▁സിംഹ	-10.8613
▁അല്ലയോ	-10.8615
▁സംവാദം	-10.8615
▁ഗവേഷണം	-10.8615
▁സംയുക്ത	-10.8624
▁പിറ്റേ	-10.8625
▁നിരോധിക്ക	-10.8627
▁സ്റ്റോറ	-10.8628
▁മൂത്ത	-10.863
▁സെൻസ	-10.863
▁ഗുഡ്	-10.8632
▁ചിന്തിക്കുക	-10.8635
▁പറയുമ്പോള്‍	-10.8637
▁വീടിന്റെ	-10.8641
ണ്യ	-10.8643
▁Off	-10.8644
▁ഭര്‍ത്താവ്	-10.8644
▁കളിക്കാൻ	-10.8644
▁അക്രമികള്‍	-10.8647
▁സജ്ജമാക്ക	-10.865
▁സുഹൃത്തുക്കളെ	-10.8653
▁രക്ഷിതാവിനെ	-10.8654
▁ഭൂരിഭാഗം	-10.8656
▁ഇരിപ്പ	-10.8657
▁ട്രാൻസ്	-10.8657
▁സല്‍ക്കര്‍മ	-10.8657
▁നാട്ടിൽ	-10.8662
▁കുറ്റകൃത്യ	-10.8662
യ്ക്കാന്‍	-10.8663
സ്കി	-10.8668
▁അനുവാദ	-10.8669
▁കാരണങ്ങൾ	-10.8669
▁ആശയങ്ങൾ	-10.8671
▁താക്കീതു	-10.8678
▁യൂസുഫ	-10.8678
▁യൂറോപ്പ്	-10.8679
▁തയ്യാറാണ്	-10.8679
▁51	-10.8679
net	-10.8682
▁വിരുന്ന	-10.8684
▁ഒരുമിച്ച	-10.8687
▁റിപ്പോര്‍ട്ട	-10.869
ക്കൊന്നും	-10.8691
▁ഇഷ്ടമായ	-10.8691
OS	-10.8691
▁സ്ഥാനത്ത	-10.8694
▁കണ്ണീര	-10.8694
▁കളിച്ചു	-10.8694
▁നിങ്ങളില	-10.8694
▁പ്രൊഫൈൽ	-10.8695
ിപ്പിക്കും	-10.8697
രുതി	-10.8697
▁ഉണ്ടാകാം	-10.8704
▁എളുപ്പമല്ല	-10.8705
▁മൃഗങ്ങള	-10.8707
▁കഴിക്കാന്‍	-10.8709
▁വസിക്കുന്ന	-10.8712
fer	-10.8714
▁ഒരാള്‍ക്ക്	-10.8715
▁ഗുരുതര	-10.8718
UM	-10.8718
▁പ്ലാൻ	-10.8718
▁അങ്ങനെയല്ല	-10.8719
ുറപ്പിച്ച	-10.8721
യാണി	-10.8723
▁ബുധനാഴ്ച	-10.8724
[2]	-10.8724
▁വാചകം	-10.8725
▁അനുസരിച്ച	-10.8726
▁കാന്ത	-10.8728
▁വചനങ്ങളെ	-10.873
▁മാപ്പ്	-10.8732
▁ഭംഗിയായി	-10.8735
▁It	-10.874
▁അറിയപ്പെടുന്ന	-10.8741
കളൊക്കെ	-10.8746
rom	-10.8747
▁നാട്ടില	-10.8748
▁വഴിതെറ്റി	-10.8749
▁വര്‍ഷങ്ങളായി	-10.8752
▁ശിഷ്യന്മാര	-10.8753
▁വില്പന	-10.8754
▁നിര്‍മ്മാണ	-10.8754
▁കൂലി	-10.8754
▁ഭയപ്പെടുത്ത	-10.8755
▁മോനേ	-10.8756
▁പേര്‍ക്ക്	-10.8757
▁സ്ഥാനത്ത്	-10.8758
▁പൈപ്പ്	-10.8758
▁കഴിയുന്നത്	-10.8758
▁ഉപരിതല	-10.8759
ിനെപ്പറ്റി	-10.8761
▁അസുഖം	-10.8765
▁കാര്യമായി	-10.8765
▁രക്ഷപ്പെടുത്തി	-10.8768
▁മുഖത്ത്	-10.8768
cc	-10.877
▁നേടിയെടുക്ക	-10.8772
▁തീർന്ന	-10.8773
▁തുടങ്ങുന്നു	-10.8776
വരുമായ	-10.8776
▁കാരണങ്ങള്‍	-10.8777
ition	-10.8784
▁പാലിച്ച	-10.8788
▁അയ്യോ	-10.8792
▁എന്തായിരിക്കും	-10.8794
േയുള്ളു	-10.8795
ness	-10.8795
▁ഭരിക്ക	-10.8796
▁ഇക്കൂട്ടര്‍	-10.8798
േട്ടാ	-10.88
▁പിതാക്കള	-10.8801
▁ദേ	-10.8804
▁മരിച്ചത്	-10.8805
ോത്സവ	-10.8808
▁തരണം	-10.8809
▁ഫണ്ട	-10.881
തിനുള്ള	-10.881
▁വിദ്യാര്‍ത്ഥി	-10.8813
▁പദ്ധതികള്‍	-10.8817
▁അപ്ഡേറ്റ	-10.8818
▁ബലഹീന	-10.8818
▁മിക്കവരും	-10.8819
▁പരാജയപ്പെട്ട	-10.8822
ങ്ങളേയും	-10.8823
▁പോരാട്ടം	-10.8825
ount	-10.883
▁ഉൾപ്പെടുത്ത	-10.8832
▁അറിഞ്ഞില്ല	-10.8835
▁ടെക്നോളജി	-10.8837
▁വചനങ്ങള	-10.8839
▁നല്‍കണം	-10.8839
മായിരുന്നോ	-10.884
▁സഹകരിക്ക	-10.884
▁മമ്മി	-10.8841
േല്‍ക്ക	-10.8841
വസ്തു	-10.8842
▁രണ്ടുപേര	-10.8843
Qu	-10.8846
▁വിപ്ലവം	-10.8846
▁what	-10.8847
▁പ്രബോധന	-10.8848
▁കണ്ടെത്താന്‍	-10.885
▁രക്ഷാ	-10.8855
▁എഴുതാൻ	-10.8855
തെന്ത്	-10.8861
▁പൊതുജന	-10.8861
▁any	-10.8865
▁മീതെ	-10.8866
▁നിർദേശ	-10.8869
▁നിങ്ങളുടേത	-10.8869
▁ഡിസ്ക	-10.887
ink	-10.8871
നടക്ക	-10.8871
▁പരാജയം	-10.8876
▁അന്വേഷിക്കുന്ന	-10.8877
▁അവരുമായി	-10.8877
ാവലി	-10.8878
മ്ര	-10.888
▁അദ്ദേഹത്തിന	-10.8881
ഓപ്പറേറ്റ	-10.8884
▁out	-10.8886
▁യേശുക്രിസ്തു	-10.8887
▁ദൃഷ്ടി	-10.8892
േട്ടന	-10.8893
ാറ്	-10.8894
▁പ്രചാര	-10.8895
ക്ടർ	-10.8896
▁ഇപ്പോള	-10.8896
▁pre	-10.8896
ക്കറിയില്ല	-10.8897
▁മ്യൂസിയ	-10.8902
▁ക്രിസ്തുവിന്റെ	-10.8903
▁വീടുകളില്‍	-10.8903
ative	-10.8908
▁മാറ്റാൻ	-10.8913
▁തെറ്റാണ്	-10.8913
▁നിത്യവാസികള	-10.8915
ുണ്ടായിരിക്കും	-10.8922
▁നടത്താൻ	-10.8922
▁കുറിക്ക	-10.8922
എത്ര	-10.8922
▁അങ്കി	-10.8931
▁പര്‍വ്വത	-10.8933
▁അവള്‍ക്കു	-10.8934
▁World	-10.8936
ആകാശഭൂമികള	-10.8937
ദൃശ്യ	-10.8943
▁താൽപ്പര്യ	-10.8946
▁ത്രി	-10.8949
യെന്ത	-10.8953
Re	-10.8958
യില്‍നിന്നു	-10.8958
▁ശ്രമിക്കുന്നത്	-10.8959
▁വ്യക്തിയുടെ	-10.896
▁സ്കൂളിൽ	-10.8961
▁മാഷേ	-10.8963
മുണ്ടെന്ന	-10.8963
▁പറയാനുള്ളത്	-10.8964
▁തത്ത്വ	-10.8964
ിട്ടുമുണ്ട്	-10.897
▁പഠി	-10.8972
▁കര്‍ത്താവു	-10.8974
▁ക്വാ	-10.8975
▁ഉദ്ഘാടന	-10.8976
▁കുടിച്ചു	-10.8977
▁Br	-10.8982
യായിരുന്നില്ല	-10.8983
റിയാവുന്ന	-10.8983
▁ടോപ്പ്	-10.8985
ുമൊ	-10.8989
▁അനുവദിക്കുന്നു	-10.8989
▁ആവാം	-10.899
▁സമഗ്ര	-10.899
ലീല	-10.8991
▁അനുസരിച്ചു	-10.8995
▁മാനേജർ	-10.8995
▁നരകത്തില്‍	-10.8997
▁ഇന്ദ്ര	-10.8998
▁blog	-10.9001
ാഗ്രഹിക്കുന്ന	-10.9002
rain	-10.9003
ബോള	-10.9004
▁പരിപാലിക്ക	-10.9004
ാറുള്ളത്	-10.9006
ിരിക്കട്ടെ	-10.9009
▁സീരീസ്	-10.9017
▁യൂറോ	-10.9018
▁പരീക്ഷിച്ചു	-10.9019
cre	-10.9019
▁മാനേജ്	-10.9022
ാനുണ്ട്	-10.9024
▁അവിടുന്നു	-10.9026
▁കടന്നുപോയ	-10.9027
▁കൊടുക്കണം	-10.9029
▁വിഴുങ്ങ	-10.9032
▁Wi	-10.9037
കളെക്കുറിച്ച്	-10.9037
▁ഇഷ്ടപ്പെട്ടു	-10.9041
ദൂര	-10.9041
▁കൊല്ലപ്പെട്ട	-10.9044
▁ഘടകം	-10.9045
ren	-10.9045
▁പോയിന്റ്	-10.905
▁പ്രതികാരം	-10.9051
▁അണിയ	-10.9052
ത്തെക്കുറിച്ച	-10.9055
▁സമീപിച്ച	-10.9055
ari	-10.9056
▁തിരുവനന്തപുരം	-10.9057
ുപയോഗിക്ക	-10.9059
▁വേണമെന്ന്	-10.9061
▁പങ്കുചേര്‍ക്ക	-10.9062
ണമായിരുന്നു	-10.9066
▁ഭക്ഷ്യ	-10.9067
▁വിപത്ത	-10.9067
▁ഹൃദയങ്ങള്‍	-10.907
▁പ്രസക്തി	-10.9071
തുടങ്ങ	-10.9075
▁ജർമ്മനി	-10.9077
▁അനുസരിക്കുകയും	-10.9077
യിലേക്ക	-10.9078
▁ഒതുങ്ങ	-10.9079
▁ഒഴുകുന്ന	-10.9079
▁ചിന്തകൾ	-10.9082
▁സുഗന്ധ	-10.9082
▁വര്‍ദ്ധിപ്പിക്ക	-10.9082
▁ആരെയെങ്കിലും	-10.9085
▁വിശകലനം	-10.9086
▁അര്‍ഹിക്കുന്ന	-10.9088
▁ജയിലില	-10.9088
▁ഒന്നുകൂടി	-10.909
▁പകലും	-10.9092
▁വളരെയേറെ	-10.9097
ഞങ്ങള	-10.9097
▁ലോഗോ	-10.9098
▁ശശി	-10.9102
▁അഭിനയിച്ച	-10.9104
▁അർഥ	-10.9108
പ്രധാന	-10.9108
▁sc	-10.9108
▁വിശദീകരണ	-10.911
▁ആളുകൾക്ക്	-10.9112
▁വേഗത്തില്‍	-10.9114
▁സോഫ്റ്റ്	-10.9114
▁Mi	-10.9114
▁കഴിഞ്ഞപ്പോള്‍	-10.9116
▁കഴുത	-10.9116
▁ധൃതി	-10.9118
▁അയാൾക്ക്	-10.9118
▁കിളി	-10.9118
▁ചെയ്യൂ	-10.9122
▁കൊടും	-10.9124
▁pri	-10.9125
▁ധിക്കാര	-10.9127
▁അപ്ലിക്കേഷൻ	-10.9128
▁ബാഹ്യ	-10.9128
gr	-10.9128
▁ദുര്‍മാര്‍ഗ	-10.9129
▁പേരുകള്‍	-10.9135
▁ദേവി	-10.9136
▁തമ്മില	-10.9136
മന്ത്രി	-10.9136
▁വസിക്ക	-10.9138
▁മുറിക്ക	-10.9141
▁ഭാവിയില്‍	-10.9141
▁യൂണിയന	-10.9143
▁തകർക്ക	-10.9145
െന്തെങ്കിലും	-10.9145
▁സ്പാ	-10.9148
▁വീട്ടിലേക്കു	-10.9151
▁പോകുകയാണ്	-10.9151
▁സ്വാധീനം	-10.9152
▁മീൻ	-10.9152
▁പ്രസ്തുത	-10.9153
വര്‍ത്തിക്ക	-10.9159
▁നമുക്കറിയാം	-10.9161
EM	-10.9163
dia	-10.9163
▁മുതിര്‍ന്ന	-10.9163
ോടോ	-10.9166
ാപരമായ	-10.9166
▁തുണ	-10.9168
▁ഇങ്ങനെയുള്ള	-10.9168
▁ടീച്ചറ	-10.9169
ചാർജ	-10.917
▁ഒരോ	-10.9172
▁പിന്മാറ	-10.9174
▁സ്തുതിക്ക	-10.9175
▁ഇല്ലെങ്കിൽ	-10.9176
▁ബൈക്ക്	-10.9177
▁വിചാരം	-10.9178
▁വിഹിത	-10.9179
▁പലര്‍ക്കും	-10.9179
ുന്നതിനെപ്പറ്റി	-10.9181
▁ഭാഷയില്‍	-10.9183
▁ഹെഡ്	-10.9184
▁കൊമ്പ	-10.9186
▁സാദ്ധ്യത	-10.919
ator	-10.9193
▁പാര്‍ക്ക	-10.9193
ചര്യ	-10.9196
▁കുടുംബത്തിലെ	-10.9197
▁സമ്മതം	-10.92
േടത്ത	-10.9203
▁ഭയപ്പെടുന്ന	-10.9204
▁പിള്ള	-10.9204
atch	-10.9205
ക്കിൾ	-10.9208
▁app	-10.9209
▁ഉപയോക്താക്കള	-10.9209
നാമം	-10.9211
െടുക്കാൻ	-10.9213
▁സമ്പാദിക്ക	-10.922
▁സന്ധി	-10.9221
▁രാശി	-10.9221
താങ്കള്‍	-10.9222
േറ്റഡ്	-10.9223
▁നാണക്കേട	-10.9225
▁ദിവസങ്ങള	-10.9226
▁പ്രിന്റ	-10.9227
മുണ്ടെന്ന്	-10.9228
വസ്ത്ര	-10.9232
▁വീക്ഷണ	-10.9232
▁സൃഷ്ടിക്കാൻ	-10.9233
ൊഴിച്ച	-10.9233
കൊല്ല	-10.9234
▁വൈറ്റ്	-10.9236
▁സീസണ	-10.9238
▁വീടുകള്‍	-10.9239
ിട്ടുണ്ടെങ്കില്‍	-10.9243
-10	-10.9243
▁ഒതുക്ക	-10.9243
▁ഡേവിഡ്	-10.9245
▁സമര്‍പ്പിച്ച	-10.9246
▁ദൗത്യം	-10.9248
▁ആക്ഷേപ	-10.9249
ദര്‍ശ	-10.9252
▁മൃതദേഹം	-10.9254
▁അസാധാരണമായ	-10.9255
▁ഇലക്ട്രിക്	-10.9256
▁ബഹള	-10.9256
▁സീറ്റ്	-10.9257
▁പാചകം	-10.9258
ത്തുനിന്ന്	-10.9259
▁ആശ്വാസം	-10.926
▁സംഭവങ്ങള്‍	-10.926
▁കിരീട	-10.9261
▁ഉല്‍ബോധന	-10.9261
▁നാലാമത്തെ	-10.9262
▁മുതലായവ	-10.9263
▁സംഭവിക്കുന്നു	-10.9263
വുമുള്ള	-10.9265
▁വിശ്വസനീയ	-10.9266
▁വ്യക്തമാക്കിയ	-10.9266
യേറ്റ	-10.9266
▁ഇടവേള	-10.927
▁നടത്തുന്നു	-10.9272
ന്തര	-10.9276
▁നേരായ	-10.9277
ond	-10.9278
▁നേടുകയും	-10.928
▁ഓര്‍ത്തു	-10.9281
▁കരുതിയത്	-10.9281
▁ഗാർ	-10.9285
ാനാകുമോ	-10.9285
▁ഭൂരിഭാഗവും	-10.9287
▁പൂർത്തിയായ	-10.9287
▁പ്രഖ്യാപനം	-10.9288
▁അവസ്ഥയില	-10.9289
സ്പെ	-10.9291
▁ഷോപ്പ	-10.9292
▁ഭാര്യയുടെ	-10.9293
▁വിലപ്പെട്ട	-10.9295
▁എന്നാണോ	-10.9296
▁പ്രായമുള്ള	-10.9297
▁കാണാത്ത	-10.9299
▁പറഞ്ഞതുപോലെ	-10.93
▁സെക്രട്ടറി	-10.9302
▁കോശ	-10.9304
▁നേടാന്‍	-10.9304
▁തന്നെയല്ലേ	-10.9305
▁പ്ലാ	-10.9306
▁കഴിവുകള	-10.9308
▁ഒരുപക്ഷെ	-10.9308
▁വേദഗ്രന്ഥം	-10.9309
▁കുറിപ്പ്	-10.9313
▁മാസത്തെ	-10.9313
▁കോഴിക്കോട്	-10.9315
ിനോട	-10.9316
▁പോന്ന	-10.9321
▁ഫുട്ബോൾ	-10.9323
▁അടുത്തുള്ള	-10.9324
ഖുര്‍ആന്‍	-10.9325
▁they	-10.9326
▁മലിന	-10.9327
▁ഡോക്ടറുടെ	-10.9327
▁പറയാതെ	-10.9328
▁കണ്ണട	-10.9328
വെള്ളം	-10.9329
▁ആദിവാസി	-10.933
ടയ്ക്ക	-10.9332
▁ഉള്‍പ്പെടുത്ത	-10.9335
▁400	-10.9337
▁ഓഫ	-10.9338
ിനുവേണ്ടി	-10.9342
▁പെണ്ണുങ്ങള	-10.9346
▁ഡ്രൈവറ	-10.9346
▁കൊടിയ	-10.9347
▁കലാപ	-10.9349
▁ക്സനുമ്ക്സ	-10.935
ക്കുള്ളില്‍	-10.9351
▁സഹന	-10.9351
▁ചൊവ്വാഴ്ച	-10.9352
▁നാൾ	-10.9356
ക്കുള്ളിൽ	-10.9357
▁വർഷമായി	-10.9363
▁അബ്ദു	-10.9364
▁ചെക്ക്	-10.9368
▁ജനങ്ങളോട്	-10.9369
▁(1)	-10.937
▁ബുദ്ധിമുട്ടാണ്	-10.9372
▁ജഡ	-10.9374
▁കോഴ്സ്	-10.9375
▁തോന്നിയില്ല	-10.9378
▁തട്ടിപ്പ	-10.9379
▁സമീപന	-10.9388
ാഅ്	-10.9389
▁പെയിന്റ	-10.9391
▁പരിശോധിച്ചു	-10.9395
▁മനസിലായ	-10.9396
▁കേട	-10.9398
▁ഇതിലൂടെ	-10.9399
▁ഞാനിവിടെ	-10.9401
▁അർഹ	-10.9402
▁ഉദ്ദേശിച്ചത്	-10.9404
▁മടിക്ക	-10.9404
നില്ക്ക	-10.9407
ാനാണ	-10.9407
▁തോമസ്	-10.9408
▁കാര്യങ്ങളാണ്	-10.941
ഗ്രാഫ	-10.9411
▁ഇവിടെയുണ്ട്	-10.9412
▁മാജിക്	-10.9413
▁ജ്യോതി	-10.9416
▁സകാത്ത്	-10.9417
▁നഷ്ടമായി	-10.9417
▁ഉണ്ണി	-10.9418
AC	-10.9419
ature	-10.9419
ക്കാട	-10.942
പീഠ	-10.942
▁ഹീ	-10.9421
മാണി	-10.9421
▁നിര്‍മ്മിക്ക	-10.9422
▁വർഷങ്ങളായി	-10.9422
▁കാരണമായി	-10.9423
▁ധാരാളമായി	-10.9424
▁മുറുകെ	-10.9427
▁ശേഖരിച്ചത്	-10.9428
▁അവിടത്തെ	-10.943
്യന്‍	-10.943
ces	-10.9431
▁സമയമാണ്	-10.9431
മുണ്ടായിരിക്ക	-10.9433
വെളി	-10.9433
▁പുറത്തിറങ്ങ	-10.9436
ങ്ങളുമുണ്ട്	-10.9436
▁നിലവാര	-10.9439
▁ജ്വല	-10.9439
പ്രിയ	-10.944
▁വിശുദ്ധി	-10.944
▁സാധ്യമാക	-10.9442
▁വലുപ്പ	-10.9444
▁മുഹമ്മദ	-10.9446
വസ്ഥ	-10.9446
▁ചുവടു	-10.9447
▁ഹോട്ടൽ	-10.9448
▁പരലോകത്ത്	-10.9448
▁കാരണമായ	-10.9448
▁ആദമ	-10.9449
ാണാവോ	-10.9451
▁അക്വേറിയം	-10.9451
▁മുറിയിൽ	-10.9452
▁പണ്ഡിത	-10.9453
▁ലോകത്തിൽ	-10.9457
▁മൾട്ടി	-10.9458
▁ഉയർത്തി	-10.9459
▁മക്കളുടെ	-10.946
▁കണ്ടെത്താന	-10.946
ഗ്രന്ഥ	-10.9461
AD	-10.9462
▁അറിയുന്നത്	-10.9469
യോഹന്നാന്‍	-10.9471
വുമല്ല	-10.9477
▁ഒന്നിലധികം	-10.9477
▁55	-10.948
▁നേർ	-10.9482
വെട്ട	-10.9483
▁സ്ഥിരമായ	-10.9484
▁പ്രവേശിച്ചു	-10.9485
▁കുളിക്ക	-10.9486
▁വഞ്ചിക്ക	-10.9487
▁പിരിയ	-10.9487
▁അധീന	-10.9488
▁പറയാനുള്ള	-10.9494
▁മനസ്സിലാക്കാൻ	-10.9494
▁യഹോവയെ	-10.9495
▁കണ്ടുപിടിച്ച	-10.9496
▁ഡ്രൈവ്	-10.9497
den	-10.9501
▁when	-10.9501
▁തിന്നുകയും	-10.9502
▁കഴിവുള്ളവന	-10.9502
പേരും	-10.9503
▁കണ്ടിട്ടുണ്ട്	-10.9504
▁അവശേഷിക്കുന്ന	-10.9506
▁ഫോറ	-10.9507
▁പിതാവും	-10.9509
േന്ദ്ര	-10.9509
മെന്താണ്	-10.951
▁നിലത്തു	-10.9511
▁Malayalam	-10.9511
▁43	-10.9511
▁വ്യാപാരി	-10.9511
▁ഉയര്‍ന്നു	-10.9512
ത്തേക്കാള്‍	-10.9513
▁മാർക്കറ്റ	-10.9516
▁പ്രവേശനം	-10.9517
▁ശ്രദ്ധിക്കണം	-10.9519
▁തരത്തില്‍	-10.9519
▁പഠിക്കാന	-10.952
ദർശ	-10.9524
ന്‍മാരെ	-10.9527
▁തര്‍ക്കിക്ക	-10.9528
▁ക്ലയന്റ	-10.9528
▁പ്ലസ്	-10.9528
SS	-10.9528
▁ചെയ്യാവുന്ന	-10.9529
▁വഴങ്ങ	-10.9529
▁ചെറുതായി	-10.9529
▁ബിസിനസ്സ	-10.9529
▁അവശ	-10.9531
▁അതാണു	-10.9536
▁ട്രേലിയ	-10.9538
▁ജയിച്ചു	-10.954
▁കീഴില	-10.9542
▁മോണ	-10.9543
▁ഫയല്‍	-10.9543
ക്കായുള്ള	-10.9545
ജ്യ	-10.9545
▁നിശ്ശബ്ദ	-10.9548
▁ദെ	-10.9551
എവിടെ	-10.9552
uch	-10.9552
▁ഇത്തരമൊരു	-10.9553
▁new	-10.9554
▁അഭിമാനിക്ക	-10.9557
▁വിലാസ	-10.9558
ുറങ്ങ	-10.9562
▁ആവര്‍ത്തിച്ച	-10.9565
rr	-10.9566
▁കണ്ണൂര	-10.9568
▁നഷ്ടമാക	-10.9569
ക്കിടെ	-10.9573
▁ചുവടെ	-10.9573
▁കരുതിയിരുന്ന	-10.9576
]]	-10.9576
▁ആരാണെന്ന്	-10.9577
und	-10.9578
▁ഇസ്രയേല	-10.9579
മാര്‍ഗ	-10.9579
▁പങ്കുവെക്ക	-10.958
▁ഭൂമിയിലുള്ള	-10.9582
▁ആശംസകള്‍	-10.9583
▁അവാർഡ	-10.9587
▁ഐഫോൺ	-10.9588
▁അറിയുമോ	-10.9591
▁അവസാനിക്കുന്ന	-10.9594
▁വഞ്ചന	-10.9596
ാവിന്റെ	-10.9597
സംഭവ	-10.9599
▁പിഴച്ച	-10.96
▁തുടരുകയാണ്	-10.96
മുള്ളവന	-10.9603
dom	-10.9605
▁China	-10.9607
ദർശന	-10.9609
SE	-10.961
ever	-10.9611
▁പരാജയപ്പെട്ടു	-10.9612
▁വേഗ	-10.9612
▁ചെകുത്താന	-10.9617
CC	-10.9622
▁വിശദാംശങ്ങള	-10.9623
▁അറിയപ്പെടുന്നു	-10.9623
▁ലംഘന	-10.9628
▁വേള	-10.9629
ത്തിരി	-10.963
▁കര്‍ത്താവിന്റെ	-10.963
പഠന	-10.9632
▁അപ്രത്യക്ഷ	-10.9633
▁കാത്തിരിപ്പ	-10.9633
▁മോശമായി	-10.9634
▁here	-10.9634
▁ശെരി	-10.9634
▁നൂറ്റാണ്ടില	-10.9636
▁സമീപനം	-10.9641
▁തീര്‍ത്ത	-10.9641
▁ഭാഗ്യവാന	-10.9641
▁ലഭ്യമാക	-10.9644
▁സ്ഥിരത	-10.9644
▁നയിക്കും	-10.9645
ത്തെക്കുറിച്ചു	-10.9647
▁വീടുകൾ	-10.965
▁പൊറുത്തുതര	-10.9654
പാപ	-10.9656
▁നിര്‍ഭയ	-10.9657
▁National	-10.9665
▁ലൈസൻസ	-10.9666
ായിരിക്കുക	-10.9667
▁ബോഡി	-10.9669
▁മറ്റോ	-10.9671
▁വ്യഭിചാര	-10.9671
▁വിലയേറിയ	-10.9674
▁മാധ്യമങ്ങള്‍	-10.9675
കുടുംബ	-10.9676
▁അടുത്തിടെ	-10.9676
▁പോകേണ്ട	-10.968
▁ചുരുക്കി	-10.9681
▁കരിക്ക	-10.9681
▁വിരമിക്ക	-10.9683
▁ഗൌരവ	-10.9687
▁ടാനുസൃത	-10.9687
▁സ്നേഹിച്ചു	-10.969
▁കഴിക്കാൻ	-10.9692
▁പരിണാമ	-10.9692
▁എനിക്കുള്ള	-10.9693
ൊഴിയ	-10.9694
▁വിശ്വസിക്കാത്ത	-10.9694
▁State	-10.9697
▁രംഗം	-10.9698
ral	-10.9699
out	-10.97
▁പരാമർശ	-10.9703
IL	-10.9707
▁ഭൗതിക	-10.9708
▁രാജ്ഞി	-10.9709
▁ദൈവങ്ങളെ	-10.9715
▁ട്രംപ	-10.9715
▁കൗതുക	-10.9719
▁മൂപ്പ	-10.9721
▁മുന്‍പില്‍	-10.9732
▁ആശയങ്ങള	-10.9734
ച്ചേര	-10.9735
▁അക്കാദമി	-10.9735
▁വെറുത്ത	-10.9735
▁ആധാര	-10.9737
▁മടങ്ങിവര	-10.9744
▁സാധിച്ചില്ല	-10.9745
▁പുരുഷന്മാര്‍	-10.9748
ഗുണ	-10.9749
▁ശാഖ	-10.9752
▁ആക്സസ്	-10.9754
▁സൃഷ്ടിക്കുകയും	-10.9757
▁പറ്റാത്ത	-10.976
▁ദുഃഖിക്ക	-10.9763
▁ആരംഭിച്ചത്	-10.9765
▁അരുളി	-10.9768
▁മുത്തശ്ശി	-10.9768
നുഷ്ഠിക്ക	-10.977
▁മുറിയില്‍	-10.9771
▁നെറ്റ്വർക്ക	-10.9772
▁കൈവരിക്ക	-10.9774
▁പ്രചാരണ	-10.9777
▁പ്രവചിക്ക	-10.9779
ാതിരിക്കാൻ	-10.978
ത്തിലായി	-10.9781
▁ദീർഘകാല	-10.9782
▁സമ്പാദ്യ	-10.9784
▁ആശുപത്രിയില്‍	-10.9787
▁വാങ്ങാന്‍	-10.9788
▁ഹാജരാക്ക	-10.9789
എഴുന്നേറ്റ	-10.9791
ിട്ടുള്ളൂ	-10.9792
▁കുടുംബാംഗങ്ങള	-10.9793
താമസ	-10.9796
▁പൊതുവേ	-10.9798
പാത്ര	-10.9799
െനിക്ക	-10.9799
▁അതിനെപ്പറ്റി	-10.98
സൂറ	-10.98
▁രവി	-10.9801
േറ്റർ	-10.9801
▁അബൂ	-10.9802
ുടമ	-10.9805
ബാധിത	-10.9807
▁കൊടു	-10.9807
െനിക്കു	-10.981
▁പുരുഷന്‍മാര	-10.981
▁ബൈബിള്‍	-10.981
ാനന്ദ	-10.9812
മുണ്ടെങ്കില്‍	-10.9813
ന്തിനാണ്	-10.9815
തിനുശേഷം	-10.9815
▁കറൻസി	-10.9817
എന്തു	-10.9819
▁ചെയ്യേണമേ	-10.982
▁വിശ്വസിച്ചവരേ	-10.9822
▁വേദനിപ്പിക്ക	-10.9824
SP	-10.9825
▁ആഗസ്റ്റ്	-10.9828
▁മനുഷ്യര്‍ക്ക്	-10.9829
▁സൃഷ്ടാവ	-10.9835
▁Bo	-10.9837
▁നന്നാവ	-10.9838
▁രക്ഷിതാവിന്റെ	-10.9838
▁പെൺ	-10.9839
▁Act	-10.984
▁സുഹൃത്തുക്കള്‍	-10.9843
▁വിപുല	-10.9844
▁പ്രോസസ	-10.9844
▁ഇതിനുള്ള	-10.9847
പേരെ	-10.9849
▁വരവ്	-10.9849
പ്പണി	-10.9849
▁പ്രൊഫഷണല	-10.985
▁CO	-10.9851
▁പേടിച്ച	-10.9852
ശക്തന	-10.9853
വളരെ	-10.9856
▁take	-10.9861
▁സുന്ദരമായ	-10.987
▁അറ്റ്ലാന്റിക്	-10.9871
▁മുമ്പില	-10.9873
▁ശ്വാസ	-10.9876
ക്യു	-10.9876
▁രാസ	-10.9879
▁വ്യക്തമാണ്	-10.988
▁എളുപ്പത്തില്‍	-10.9883
▁ഇത്രയധികം	-10.9888
▁ഇറക്കുമതി	-10.9888
▁എന്നിവര്‍	-10.9889
▁This	-10.9889
▁അവരതില്‍	-10.989
പോവുക	-10.9891
▁അവസാനിച്ച	-10.9892
▁സന്ദർഭ	-10.9893
നിന്നെ	-10.9899
▁സാധാരണക്കാര	-10.9903
▁മറ്റുള്ള	-10.9906
▁ഒത്തിരി	-10.9906
▁അന്തര	-10.9908
▁സ്വപ്നങ്ങള	-10.9909
▁തീർക്ക	-10.991
▁നിയോഗിക്ക	-10.9914
▁ആധികാരിക	-10.9915
▁ഇറാഖ	-10.9915
US	-10.9916
▁എറിയ	-10.9919
▁ഓര്‍മ്മകള്‍	-10.992
▁പിന്തിരിഞ്ഞു	-10.9927
▁വയറ	-10.9927
▁ഹദീസ	-10.9927
യുമല്ല	-10.9928
ix	-10.9929
▁യജമാനന	-10.9931
▁വിധിച്ച	-10.9934
▁Ne	-10.9935
▁കൃത്യത	-10.9937
▁വാണിജ്യ	-10.9937
▁അതുതന്നെ	-10.9938
▁അല്പ	-10.9941
▁120	-10.9941
▁കിലോമീറ്റർ	-10.9943
രംഗത്ത	-10.9946
▁അവഗണിച്ച	-10.9947
പോലുള്ള	-10.9948
▁യഥാര്‍ഥത്തില്‍	-10.9949
ുണ്ടായിരുന്നത്	-10.9952
▁പ്രൊഫൈല	-10.9955
ME	-10.9956
▁കേരളത്തിൽ	-10.9956
▁സെൽ	-10.9957
കൊടുക്കുന്ന	-10.9958
▁നഗരത്തിൽ	-10.996
▁സ്വീ	-10.9964
▁ഉപഭോക്താക്കൾ	-10.9965
▁തൂക്കി	-10.9968
▁നിങ്ങള്ക്ക്	-10.9968
▁നേരില്‍	-10.9968
▁ദുർബല	-10.997
▁ആരാധിച്ച	-10.9971
േല്പ	-10.9972
ID	-10.9973
ഗുരു	-10.9977
കാണിക്ക	-10.9981
▁ഹൃദയത്തെ	-10.9982
▁അയ്യപ്പ	-10.9984
ുയര്‍ത്ത	-10.9984
▁അളക്ക	-10.9984
▁മൂത്ര	-10.9984
അല്ലാഹുവിന്റെ	-10.9985
സഹോദര	-10.9985
▁ഓണ്‍ലൈന	-10.9987
▁വിതരണക്കാര	-10.9987
▁പിഴവ	-10.9989
▁Dr	-10.999
▁2003	-10.9992
▁തണല	-10.9996
▁ഉപരി	-10.9996
▁കണ്ടിട്ടു	-10.9997
▁ആഴ്ചയിൽ	-10.9998
▁മോന	-10.9998
RI	-10.9999
▁translation	-11.0004
നൊന്നും	-11.0007
▁ദൃഷ്ടാന്തങ്ങളെ	-11.0014
▁വയർ	-11.0015
▁ദീർഘ	-11.0017
പഥ	-11.002
യിലേക്കുള്ള	-11.002
നിഷ്ഠ	-11.002
▁അല്‍പ	-11.0023
▁സ്കൂള്‍	-11.0025
-19	-11.0026
▁ടീമിന	-11.003
▁രോഗികള	-11.0032
ശാലി	-11.0035
▁ഹൃദയത്തിൽ	-11.0044
ത്തിലേറെ	-11.0044
▁പ്രേരിപ്പിച്ച	-11.0048
▁ചെയ്യുന്നതിന്	-11.0049
NA	-11.0049
ത്തിനെതിരെ	-11.0052
▁ഫ്രാന്‍സ	-11.0055
▁ആയാലും	-11.0057
▁പലതരം	-11.0058
ുണ്ടു്	-11.006
കുറിച്ച	-11.0062
ശേഷമ	-11.0067
ദോഷ	-11.0071
▁വയ്ക്കുക	-11.0072
▁ദൗത്യ	-11.0073
▁യുകെ	-11.0074
▁ഒഴിച്ച	-11.0076
▁വരുന്നുണ്ട്	-11.0077
ുകള്	-11.0077
▁കളർ	-11.0079
▁ഇയാളെ	-11.0086
▁ഭീഷണിപ്പെടുത്ത	-11.0086
യാണെന്നും	-11.0087
▁ഒറ്റയ്ക്ക്	-11.0088
▁പേരുകൾ	-11.0091
▁ഇളയ	-11.0094
ത്വമ	-11.0099
▁ചൈനയിൽ	-11.0099
▁ചാറ്റ്	-11.0099
▁മന്ത്രവാദ	-11.01
▁ഇഷ്ട്ട	-11.0102
▁അഭിപ്രായങ്ങള്‍	-11.0102
▁ജനവിഭാഗ	-11.0103
ology	-11.0104
▁പിരിഞ്ഞു	-11.0105
▁ഉള്‍ക്കൊള്ള	-11.0105
▁ജോസഫ്	-11.0108
▁കുഞ്ഞുങ്ങളെ	-11.0109
മായിരിക്കാം	-11.0111
▁ജനത്തിന്	-11.0117
▁നിമിഷവും	-11.0119
▁പുനഃ	-11.0121
▁യിസ്രായേൽ	-11.0121
word	-11.0121
▁ആചരിക്ക	-11.0122
▁പകൽ	-11.0122
▁പ്രയാസമാണ്	-11.0122
▁കുടുംബത്തിന്റെ	-11.0125
ഭിപ്രായ	-11.0126
▁പൊങ്ങ	-11.0129
▁മരിച്ചവരെ	-11.013
▁സമ്പ്രദായ	-11.0132
▁പക്കല	-11.0139
▁ക്രിസ്മസ്	-11.0143
▁മാത്രമെ	-11.0146
▁സമൂഹത്തില്‍	-11.0147
▁വലിച്ചു	-11.0148
▁ഓർത്തു	-11.0148
▁നൂറ്റാണ്ടു	-11.0148
="0.	-11.0149
eep	-11.0149
▁അവനല്ലാതെ	-11.0154
▁തോക്കു	-11.0156
▁എളുപ്പമാക്ക	-11.0157
▁മകന്റെ	-11.0161
▁പാപികള	-11.0163
▁മാധവ	-11.0163
▁കണ്ണികൾ	-11.0166
▁വര്ഷം	-11.0166
▁ഈയിടെ	-11.0167
ങ്ങളിലായി	-11.0167
പിതാവ	-11.0168
സ്രോതസ്സ	-11.0171
▁തള്ളിയ	-11.0172
▁ചന്ദ്രന്‍	-11.0173
▁നെയ്	-11.0179
▁അരുവികള	-11.0184
▁ഗുണമേന്മയുള്ള	-11.0184
▁തന്നെയാണോ	-11.0185
▁ചെയ്തിട്ടുള്ള	-11.0186
▁ഖണ്ഡ	-11.0188
▁വാരി	-11.0189
സ്ട്രോ	-11.0191
▁എന്നിവയിൽ	-11.0191
▁അവിശ്വസനീയ	-11.0194
▁other	-11.0194
ായിക്കൊണ്ട്	-11.02
▁രാജാവിനെ	-11.0203
▁കൂടാര	-11.0205
▁കേട്ടിട്ടില്ല	-11.0206
▁തിന്‍മ	-11.0211
▁ഹാരി	-11.0212
▁സ്ത്രീകള്‍ക്ക്	-11.0213
▁തിരഞ്ഞ	-11.0214
▁അക്കാലത്ത്	-11.0217
▁ആദരവ	-11.0217
തോന്ന	-11.0218
വര്‍ഷത്ത	-11.0222
PS	-11.0222
▁ഗുരുവ	-11.0224
▁വീഴ്ത്ത	-11.0224
▁വഞ്ചി	-11.0224
▁ആളുകള്‍ക്ക്	-11.0231
▁ഒഴിവാക്കാൻ	-11.0236
ാകുന്നില്ല	-11.0239
▁അധികപേരും	-11.0241
▁ചുറ്റുപാട	-11.0245
പതിനായിര	-11.0246
▁കസ്റ്റം	-11.0246
▁കേള്‍ക്കുകയും	-11.0247
▁പ്രിന്റിംഗ്	-11.0249
ുവോളം	-11.025
▁ആദ്യത്തേത	-11.025
▁life	-11.0251
സേന	-11.0255
▁ഭയക്കുന്ന	-11.0257
▁അഭിമുഖീകരിക്ക	-11.0257
▁പങ്കുവയ്ക്ക	-11.0259
▁തീവ്രവാദി	-11.0259
▁നില്‍ക്കുന്നു	-11.0259
▁ഹേയ്	-11.0259
▁അതിനെക്കുറിച്ച്	-11.0259
▁എന്നതായിരുന്നു	-11.026
▁പറഞ്ഞിട്ടില്ല	-11.0262
▁നമ്മോടു	-11.0262
▁സുരക്ഷിതമായി	-11.0262
▁ഉണര്‍ന്ന	-11.0263
▁സ്വർഗ്ഗ	-11.0268
▁ഓരോരുത്ത	-11.0271
പ്രവര്‍ത്തകര	-11.0274
ിച്ചുകൊണ്ടിരിക്ക	-11.0275
▁തുടങ്ങുന്നത്	-11.0277
ിരുന്നെങ്കിൽ	-11.0277
▁ഒരുക്കിയ	-11.0282
▁അത്യാവശ്യമാണ്	-11.0282
കളുമ	-11.0284
ലോഗ	-11.0285
യേറിയ	-11.0288
▁ക്രോധ	-11.0288
ration	-11.029
▁നടപടിക്രമ	-11.029
▁ആവിഷ്	-11.0291
▁സത്യനിഷേധ	-11.0291
▁ഘടകങ്ങൾ	-11.0291
▁നിലകൊള്ളുന്ന	-11.0295
ock	-11.0296
▁ഗവേഷകർ	-11.0296
▁Car	-11.0299
▁ആയിരക്കണക്കിന്	-11.0302
രുടേ	-11.0304
▁അംഗീകാര	-11.0307
▁പെൻ	-11.0311
▁എതിര്‍ത്ത	-11.0312
പൂർണ്ണ	-11.0316
▁ആണവ	-11.0317
▁വെളുപ്പ	-11.0317
▁തിളങ്ങ	-11.032
▁സുഹൃത്തേ	-11.0322
▁സ്റ്റെ	-11.0323
ങ്ങളെക്കുറിച്ച	-11.0325
▁പണവും	-11.0325
▁വിശദാംശങ്ങൾ	-11.0325
▁നിര്‍ബന്ധിത	-11.0326
▁മൂന്നാമത	-11.0329
▁ക്രൂരത	-11.0333
▁വ്യാപകമായി	-11.0337
▁ആര്‍ക്കാണ്	-11.0337
CH	-11.0337
▁വ്യത്യസ്ഥ	-11.0338
▁അയ്യ	-11.0339
▁സഹോദരങ്ങള	-11.034
▁അറിയാമ	-11.0343
▁വാസ്തവ	-11.0347
▁പ്രവേശിച്ച	-11.0348
▁നമ്മുടേത	-11.0349
▁ഓഫർ	-11.0351
100	-11.0355
▁ജനപ്രിയ	-11.0356
▁ക്വ	-11.0358
▁അതുവരെ	-11.0359
ിപ്പോഴും	-11.0359
▁താങ്കൾക്ക്	-11.0359
▁◆◆◆	-11.0359
എന്തിന	-11.036
▁മിനു	-11.0361
▁അല്ലാഹുവിങ്കലേ	-11.0362
▁തിരിച്ചറിഞ്ഞു	-11.0362
ദേഹം	-11.0363
പ്പോഴേക്കും	-11.0363
▁മില്ലി	-11.037
മാവില്ല	-11.0372
ക്കൊള്ളുക	-11.0373
▁ജനറൽ	-11.0377
▁What	-11.038
▁റീഫ്	-11.0381
.........	-11.0381
▁ചെലുത്ത	-11.0382
▁സത്യസന്ധത	-11.0383
പ്രവര്‍ത്തന	-11.0388
ana	-11.0388
for	-11.0389
▁പിസി	-11.0391
ക്ടര്‍	-11.0394
▁വിട്ടുവീഴ്ച	-11.0394
▁ഉത്തരവാദി	-11.0395
നൂറ	-11.0395
▁തുടർ	-11.0396
▁വളർന്നു	-11.0398
▁ഇന്റര്‍നെറ്റ	-11.04
▁ബജറ്റ	-11.0402
ത്വവും	-11.0404
▁ചിത്രത്തിന്റെ	-11.0408
▁വസ്ത്രങ്ങൾ	-11.041
▁1990	-11.0416
മുണ്ടെങ്കിൽ	-11.0417
▁ഉണ്ടാവില്ല	-11.0418
▁ശോഭ	-11.0418
▁എന്നേക്കും	-11.0419
ൊരാള്‍	-11.0419
▁പുറത്തുവന്ന	-11.0424
▁കറങ്ങ	-11.0425
▁ശരീരത്തിന്റെ	-11.0427
▁തിരിച്ചറിവ	-11.0427
ുന്നവരുണ്ട്	-11.0428
▁ഉറപ്പാക്കുക	-11.0428
▁സമൂഹത്തിന്റെ	-11.0428
▁പുനർ	-11.043
▁മണിക്ക്	-11.0434
MS	-11.0437
േണ്ടിയിരുന്ന	-11.0438
ക്രമം	-11.0443
▁രക്ഷിക്കാന്‍	-11.0444
▁സൂക്ഷിക്കുകയും	-11.0444
▁ഇരുമ്പ	-11.0445
▁ഉത്പന്ന	-11.0446
="5	-11.0447
▁ജീവനെ	-11.045
ൊട്ടും	-11.045
▁സഭയുടെ	-11.0452
▁നേതാക്കൾ	-11.0452
▁രാഹുല	-11.0453
ിരിക്കാന്‍	-11.0453
▁വരുന്നില്ല	-11.0454
John	-11.0458
▁വെയ്ക്ക	-11.0459
▁നേരുന്നു	-11.046
▁സ്വാധീനിക്ക	-11.0462
▁മത്സരിക്ക	-11.0464
നഗര	-11.0465
▁എഴുത്തുകാരന	-11.0468
പെര	-11.0468
കളോടെ	-11.0468
▁മാനേജ്മെന്റ്	-11.047
▁2001	-11.047
▁ചാർട്ട	-11.0471
▁വൈദ്യുത	-11.0471
▁കഴിയുകയില്ല	-11.0471
▁പഠിക്കാന്‍	-11.0474
▁കഴിഞ്ഞുപോയ	-11.0476
▁സെമി	-11.0476
▁വിശ്വാസത്തിന്റെ	-11.0477
തലമുറ	-11.048
▁ചെയ്യേണ്ടത	-11.0487
ാശംസ	-11.0488
▁മാള	-11.0492
ക്കാരാണ്	-11.0492
ഔ	-11.0493
▁ബ്രഹ്മ	-11.0493
▁അറിയുന്നവനുമ	-11.0498
അതേ	-11.0499
▁പേപ്പറ	-11.0499
▁കഴിഞ്ഞപ്പോൾ	-11.05
▁വിവരങ്ങളും	-11.0502
ുമെങ്കിൽ	-11.0505
▁Best	-11.0506
ഭരിത	-11.0507
▁ശരീരത്തിൽ	-11.0508
▁ന്യൂറോ	-11.0509
▁which	-11.051
▁താഴ്ത്തി	-11.0511
▁വിൻഡോ	-11.0514
▁ഒന്നിന	-11.0518
▁പോലുമില്ല	-11.0521
▁വയസ്സുള്ള	-11.0521
َل	-11.0522
▁പ്രത്യ	-11.0522
▁വാർഷിക	-11.0522
▁മിഴി	-11.0527
▁ശ്രദ്ധേയ	-11.0527
▁കൂട്ടായ്മ	-11.0528
▁താഴ്ഭാഗത്ത	-11.0529
▁ശസ്ത്രക്രിയ	-11.0533
ould	-11.0534
▁സഹോദരനെ	-11.0536
െൻറ	-11.0537
ിംഗിന	-11.0541
▁പ്രതികരിച്ച	-11.0545
▁എതിരെ	-11.0545
▁അവലംബ	-11.0545
▁ലേസർ	-11.0545
▁അണു	-11.0546
▁വാഗ്	-11.0548
▁രീതികൾ	-11.0548
▁ശരിയാണോ	-11.0548
▁കണ്ടിരുന്നു	-11.0549
CE	-11.055
▁ചുംബിക്ക	-11.0552
▁നക്ഷത്രങ്ങള	-11.0554
▁പ്രതികരിച്ചു	-11.0554
▁ചാട	-11.0554
▁inter	-11.0561
▁വളര്‍ന്നു	-11.0561
▁കണി	-11.0564
▁മിക്കപ്പോഴും	-11.0565
▁അധര	-11.0566
▁യിസ്രായേലിന്റെ	-11.0568
▁എന്നതിന്റെ	-11.0568
▁ഗീത	-11.0571
ക്രോ	-11.0579
2018	-11.0592
▁ലൈഫ്	-11.0592
▁ക്രമേണ	-11.0592
RO	-11.0595
▁ഉറക്കെ	-11.0596
▁സമ്മതിച്ചു	-11.0596
▁ആസൂത്രണം	-11.0598
▁come	-11.0602
ിക്കളഞ്ഞു	-11.0603
▁thought	-11.0604
▁പരിഗണിച്ച	-11.0604
▁നേടാന	-11.0604
▁ചെയ്യുന്നവന	-11.0606
▁കഴിയുമെന്ന്	-11.0606
▁പെണ്ണിനെ	-11.0609
ിപ്പിക്കാന്‍	-11.061
വെയ്ക്ക	-11.0612
▁സീന	-11.0612
▁സത്യവാന്‍മാര	-11.0616
യാളെ	-11.0619
▁More	-11.0621
▁ജനതയെ	-11.0621
എന്താണ്	-11.0625
▁ചുമ്മാ	-11.0631
▁ദക്ഷിണ	-11.0631
▁സർവ്വ	-11.0634
▁സദാ	-11.0635
▁ഉപഭോക്തൃ	-11.0639
▁വിദ്യാലയ	-11.064
▁പറന്നു	-11.0642
ിരിക്കുകയാണോ	-11.0643
▁കാവ്യ	-11.0646
▁ഒളിച്ചു	-11.0646
▁വ്യക്തിയെ	-11.065
▁sub	-11.065
▁ബുദ്ധിമാന	-11.0651
▁കൊലപ്പെടുത്ത	-11.0652
▁ചെയ്‍വ	-11.0653
▁എടുക്കാം	-11.0655
ുമാറാകട്ടെ	-11.0656
▁നമ്മുക്ക്	-11.0657
▁ഊരി	-11.066
duct	-11.0661
▁വിട്ടുമാറ	-11.0663
▁ശൂന്യമായ	-11.0664
ook	-11.0668
▁പെയ്യ	-11.0668
▁എത്രയെത്ര	-11.0669
▁ഘടകങ്ങള	-11.067
▁ഒന്നുകില്‍	-11.067
EN	-11.0674
െസ്സ	-11.0676
▁സാത്താന	-11.0678
▁ജയിലില്‍	-11.0683
▁വ്യക്തമല്ല	-11.0683
▁രചിച്ച	-11.0687
▁പൌര	-11.0694
▁പറഞ്ഞിട്ട	-11.0697
അടുത്ത	-11.0702
▁വളര്‍ന്ന	-11.0702
bu	-11.0703
▁സിഗരറ്റ	-11.0704
▁സാധനങ്ങൾ	-11.0705
▁കവിതകള്‍	-11.0705
▁അസാധാരണ	-11.0705
▁വിപണിയിൽ	-11.0706
▁സ്വീകാര്യ	-11.0706
▁മൃദു	-11.0706
▁സ്കൂളില്‍	-11.0709
ഭൂമിയില്‍	-11.0709
▁റോബോട്ട	-11.0712
നാൾ	-11.0715
▁റെഡ്	-11.0716
റേഷൻ	-11.0719
ality	-11.0721
▁ചൂണ്ട	-11.0726
▁മരിച്ചുപോയ	-11.0726
▁ദാവീദിന്റെ	-11.0729
▁അവിടേ	-11.073
▁റൊ	-11.0734
▁ജനകീയ	-11.0734
ഘടന	-11.0737
▁പ്രാര്‍ത്ഥിച്ചു	-11.0739
▁വിവേചന	-11.074
▁നിന്ദ്യ	-11.0741
വധി	-11.0741
▁പ്രഭാഷണ	-11.0742
▁അങ്ങോട്ട്	-11.0743
▁മാതാപിതാക്കളെ	-11.0743
▁വാസ്തവത്തിൽ	-11.0745
▁ഡെലിവറി	-11.0746
ാണവര്‍	-11.0747
▁ഊര്‍ജ്ജ	-11.0748
▁ബ്ലൂ	-11.0749
▁പുറത്തിറങ്ങി	-11.0751
▁കുഞ്ഞിന്റെ	-11.0752
▁കോൾ	-11.0756
ികൊടുക്ക	-11.0758
▁പകര്‍ത്ത	-11.0759
ama	-11.0767
▁ശരീരത്തെ	-11.0767
▁അതിര്‍ത്തി	-11.0769
uk	-11.0771
▁know	-11.0772
▁പതിയെ	-11.0772
▁ചൊവ്വ	-11.0772
തിന്നു	-11.0781
▁പുലര	-11.0783
▁ആദം	-11.0783
▁വരാനിരിക്കുന്ന	-11.0788
▁വാസസ്ഥല	-11.0788
▁ചൂടുള്ള	-11.0791
▁സംവാദ	-11.0792
▁ഏല്പിച്ച	-11.0794
▁നന്നായറിയുന്നവന	-11.0794
▁കയറ്റുമതി	-11.08
▁free	-11.08
▁മദ്യപാന	-11.0801
▁ശക്തിപ്പെടുത്ത	-11.0802
▁റസൂല്‍	-11.0803
തെന്തിന	-11.0805
▁ക്രീ	-11.081
▁ദരിദ്രര	-11.081
▁into	-11.081
▁മമ്മൂട്ടി	-11.0812
▁നട്ടെല്ല	-11.0812
▁എന്തൊക്കെയാണ്	-11.0814
▁രാധ	-11.0815
ൊഉ	-11.0816
ുകൊണ്ടിരിക്കുക	-11.0816
െയിന	-11.0816
▁ബാബു	-11.0818
▁വാഗ്ദത്ത	-11.0818
▁ചെയ്യുമെന്ന്	-11.0818
▁ആണെങ്കില്‍	-11.0819
▁Ba	-11.0819
ത്തിലായിരിക്ക	-11.0821
▁പാപമോചന	-11.0825
▁കിടപ്പ	-11.0827
▁ബാധിക്കുന്നു	-11.0832
ുനില്‍ക്കുന്ന	-11.0833
ാത്മ	-11.0835
▁ബൈക്ക	-11.0837
ുകളുണ്ട	-11.0837
▁പുസ്തകങ്ങള	-11.0841
▁കാഴ്ച്ച	-11.0842
▁കമ്മിറ്റി	-11.0842
▁റാഹീം	-11.0842
ണ്ഠ	-11.0843
▁പ്രസംഗിക്ക	-11.0843
▁വിഭാഗങ്ങൾ	-11.0846
▁സുധ	-11.0848
▁ഉണര്‍ത്ത	-11.0851
▁മന്ദ	-11.0851
▁സാമാന്യ	-11.0854
▁സുതാര്യ	-11.0854
ുനല്‍ക	-11.0859
നിമിത്തം	-11.0861
▁ശരിയാക	-11.0861
▁സെറ്റ	-11.0864
▁പുരുഷൻ	-11.0867
ുമായും	-11.0872
▁him	-11.0873
▁അവിശ്വസിച്ച	-11.0873
▁പഠനങ്ങൾ	-11.0874
▁work	-11.0874
▁സാഹചര്യത്തിൽ	-11.0875
▁മൃഗങ്ങളെ	-11.0876
▁തമിഴ	-11.0877
▁ചെയ്യുവാന്‍	-11.0877
text	-11.0878
ാകുമെന്ന്	-11.0879
▁നിസ്സഹായ	-11.0879
▁തുടക്കത്തിൽ	-11.0879
▁രേഖകൾ	-11.0881
▁ഇയാൾ	-11.0882
▁അയാളോട്	-11.0883
▁ഉണ്ടെന്നു	-11.0886
▁ആദര്‍ശ	-11.0888
▁പുറത്തുവര	-11.0888
▁എത്തുന്നത്	-11.0893
▁യുഗ	-11.0895
▁യോജിച്ച	-11.0897
ുകാരെ	-11.0898
▁കാമ്പ	-11.0903
ക്രൈ	-11.0908
▁ചങ്ങാതി	-11.0909
▁പ്രേക്ഷകര	-11.0911
മാണെങ്കിലും	-11.0912
▁മാഡം	-11.0916
▁മോളേ	-11.0917
▁പാപ്പ	-11.0917
▁തരാമോ	-11.0917
light	-11.0917
▁രണ്ടാഴ്ച	-11.092
▁കൊലയാളി	-11.0921
▁മറിച്ചു	-11.0922
▁നമസ്കാര	-11.0926
▁നമ്മില്‍	-11.0928
▁തടസ	-11.0929
▁മനുഷ്യാവകാശ	-11.0931
▁സഹായത്തോടെ	-11.0932
▁News	-11.0932
▁സാഹചര്യത്തില്‍	-11.0932
മുല	-11.0933
▁പുത്രന്മാർ	-11.0933
▁കർത്താവേ	-11.0934
▁നിഷിദ്ധമാക്ക	-11.0934
▁ട്വ	-11.0936
▁3:1	-11.0938
▁കന്നുകാലികള	-11.0939
$	-11.094
▁നാഴിക	-11.0942
▁ബാറ	-11.0942
െയ്ൻ	-11.0944
▁ഉറ്റ	-11.0948
▁സാധ്യതയുള്ള	-11.0952
▁ബോർഡ്	-11.0954
▁52	-11.096
▁ബൊ	-11.0962
▁സ്റ്റീ	-11.0963
▁ആക്രമിച്ച	-11.0964
▁സ്പീഡ്	-11.097
▁ഫിലിം	-11.0971
▁സഖാവ	-11.0974
▁പൊതുവെ	-11.0974
▁സന്ദര്‍ശന	-11.0977
ക്കെതിരായ	-11.0977
ായിരിക്കുകയും	-11.0978
▁ഹോസ്റ്റ	-11.0985
▁കര്‍ത്താവിന	-11.0985
▁മാത്രമുള്ള	-11.0985
▁അകൃത്യ	-11.0987
പര്യാപ്ത	-11.0988
ഡീസ	-11.0991
പ്പറയ	-11.0992
▁മറ്റുള്ളവര്‍ക്ക	-11.0992
▁ചെയ്യപ്പെടുന്ന	-11.0994
ദീപ	-11.0995
▁കണ്ടാൽ	-11.1
▁ക്രിസ്റ്റ	-11.1005
▁വേണ്ടത്ര	-11.1006
▁ടീച്ചര്‍	-11.1006
▁ആയിരിക്കാം	-11.1007
▁പരിചയപ്പെട	-11.1014
▁പര്യായം	-11.1019
ായ്ക	-11.1023
▁രോമ	-11.1025
▁ദുബായി	-11.1028
▁കൊല്ലപ്പെട്ടു	-11.1028
▁പെൺകുട്ടികൾ	-11.103
▁ഓട്ടോമാറ്റിക്	-11.1037
▁ചെന്നായ	-11.1037
▁സംഘര്‍ഷ	-11.1039
▁മുസ്ലീം	-11.1043
ക്കാളും	-11.1044
ാഘോഷ	-11.1052
▁യാഥാർത്ഥ്യ	-11.1056
▁സ്ക്രീൻ	-11.1056
ശ്രദ്ധ	-11.1057
▁പുറത്തിറങ്ങിയ	-11.1057
ത്തിലാക	-11.1058
▁ഊഹിക്ക	-11.1059
▁ഏറ്റുമുട്ട	-11.1062
▁പശുക്കള	-11.1064
സ്പര്‍ശ	-11.1069
▁ടാബ്	-11.1075
ലൈൻ	-11.1082
▁തനിയെ	-11.1083
▁സൈന്യങ്ങളുടെ	-11.1083
▁1999	-11.1086
▁എങ്ങിനെയാണ്	-11.1086
▁ഒന്നാമത്തെ	-11.1086
▁കേള്‍വി	-11.1087
▁ഇലക്ട്രോണിക്	-11.1087
▁ഭേദഗതി	-11.1088
▁ജനമേ	-11.1088
▁ദഹന	-11.1093
വൃത്ത	-11.1097
▁ഇവയെല്ലാം	-11.1098
▁സന്‍മാര്‍ഗ	-11.1099
▁മതിയാവ	-11.11
▁ബന്ധിപ്പിക്ക	-11.11
▁നിലനിൽക്ക	-11.11
▁നിരാകര	-11.1102
മാക്കാന്‍	-11.1103
▁ഏരിയ	-11.1105
▁നല്‍കാന	-11.1106
▁സാധിക്കുമോ	-11.111
▁ക്ഷണിച്ചു	-11.1111
▁തെറ്റിദ്ധാരണ	-11.1111
▁നമസ്കരിക്ക	-11.1112
▁നിരസിക്ക	-11.1115
▁ഉദ്ദേശിക്ക	-11.1118
▁സമയത്തു	-11.1119
▁കമ്മീഷന	-11.1124
▁ജീവിതത്തിലേക്ക്	-11.1128
▁അഭാവ	-11.1128
▁ഇടപെട്ട	-11.113
▁ജനാല	-11.1131
▁പ്രതിപക്ഷ	-11.1134
▁കോപ്പ	-11.1135
ിന്‍റെയും	-11.1135
▁വിത്തു	-11.1137
കോടി	-11.114
▁കർഷക	-11.1144
▁സഹായത്തിന	-11.1145
ദിവസത്ത	-11.1145
▁പിശാചിന്റെ	-11.1145
▁there	-11.1145
▁ഈടാക്ക	-11.115
▁ചിലവഴിക്ക	-11.115
▁2002	-11.1152
ശൈലി	-11.1152
തെന്താണ്	-11.1153
▁ഉല്പന്നങ്ങൾ	-11.1153
▁കിണറ	-11.1154
െഴുന്ന	-11.1155
▁പീഡിപ്പിക്ക	-11.1155
▁കെടുത്ത	-11.1156
▁സംഭവിക്കാം	-11.1156
▁പാളി	-11.1158
പരിചരണ	-11.1162
▁അറിയപ്പെടുന്നത്	-11.1162
▁ശാശ്വത	-11.1162
▁കാണിക്കുന്നത്	-11.1169
▁വിഷയത്തിൽ	-11.117
സുഖ	-11.117
▁എവിടെയെങ്കിലും	-11.1171
കിട്ടിയ	-11.1173
▁ആവശ്യമുണ്ട്	-11.1174
ാവുകയില്ല	-11.1179
▁പിന്നിട്ട	-11.1179
▁തൊഴിലാളികള്‍	-11.1179
ച്ക്	-11.118
ിന്റേയും	-11.1181
▁ശ്രദ്ധയോടെ	-11.1182
കക്ഷി	-11.1183
▁നഗരത്തിലെ	-11.1184
ുസ്സ	-11.1184
യെക്കുറിച്ചു	-11.1187
▁ബീച്ച	-11.1187
ത്തിലധികം	-11.1187
▁കൂള്‍	-11.1193
▁ഉണ്ടായിരിക്കണം	-11.1194
▁ലേഖനങ്ങൾ	-11.1194
▁ഓഗസ്റ്റ്	-11.1198
▁ഇതുപോലുള്ള	-11.1203
▁ഇളക്ക	-11.1204
▁കയറ്റി	-11.1205
▁താക്കോല	-11.1206
▁ബ്രിട്ടന	-11.1207
▁രഹസ്യമായി	-11.1211
ക്കാരം	-11.1212
ത്തെക്കാള്‍	-11.1212
stan	-11.1212
▁കുടുങ്ങി	-11.1212
▁അന്ധകാര	-11.1214
▁അപ്രതീക്ഷിതമായ	-11.1214
▁നിഷ്കളങ്ക	-11.1217
മുദ്ര	-11.1219
▁നെറ്റ്	-11.1222
▁പുറപ്പെട്ട	-11.1224
വിവാഹ	-11.1227
▁ആശ്ചര്യ	-11.123
▁സിദ്ധാന്ത	-11.1231
7"&	-11.1234
▁പരിഹസിച്ച	-11.1236
ങ്ങളെപ്പറ്റി	-11.1237
▁തിളക്ക	-11.1239
▁എല്ലാവരേയും	-11.1242
▁സഞ്ചരിക്കുന്ന	-11.1243
എന്നാൽ	-11.1243
▁ഇടയാക്ക	-11.1248
▁ചിട്ട	-11.1248
▁ലംഘിച്ച	-11.1249
▁ഉദാ	-11.125
▁തെറാപ്പി	-11.1255
▁സന്താനങ്ങള	-11.1255
ttle	-11.1258
സാന്നിധ്യ	-11.126
▁Tag	-11.126
▁സാറേ	-11.126
൨൦	-11.1261
▁അന്നേരം	-11.1262
▁താൾ	-11.1263
ായിരിക്കുമെന്ന	-11.1265
▁ഉപാധി	-11.1269
▁കേബിൾ	-11.127
▁ഭദ്ര	-11.1271
▁FSX	-11.1274
▁സ്റ്റിറോയിഡ	-11.1274
▁വർണ്ണ	-11.1274
▁അവനിച്ഛിക്കുന്ന	-11.128
▁ക്രൈസ്തവ	-11.128
▁കാണപ്പെടുന്നു	-11.1281
▁കപട	-11.1283
വാര്‍ത്ത	-11.1284
▁പൂര്‍ത്തിയായ	-11.1293
▁സംഘടിപ്പിച്ച	-11.1294
▁ചിതറി	-11.1296
▁ശൂന്യത	-11.1299
▁ചലച്ചിത്ര	-11.1299
▁Synonym	-11.1299
▁വലിക്ക	-11.1299
▁നല്ലവണ്ണം	-11.1301
▁സന്തോഷമുണ്ട്	-11.1312
SA	-11.1316
ുണ്ടായിരിക്ക	-11.1316
▁സമ്മതിച്ച	-11.1319
ഡ്ജ്	-11.1322
വരുമാണ്	-11.1322
press	-11.1322
▁മാണി	-11.1323
UN	-11.1325
▁കുട്ടിക്കാല	-11.1327
▁നവംബര്‍	-11.1331
ാറുണ്ടായിരുന്നു	-11.1331
▁Gu	-11.1339
▁America	-11.1343
▁ഭരമേല്‍പിക്ക	-11.1343
▁മുക്കി	-11.1345
▁വെറുക്കുന്നു	-11.1346
▁സര്‍ക്കാരിന്റെ	-11.1348
▁പ്രഖ്യാപന	-11.1348
▁നേരിടേണ്ടി	-11.1351
▁മിനുട്ട	-11.1352
വിഭവ	-11.1353
▁വള്ള	-11.1355
▁ദൂതന്‍	-11.1355
▁അഡാപ്റ്റർ	-11.1356
▁നോർ	-11.1356
▁സഹോദരൻ	-11.136
▁say	-11.136
▁കളിക്കാർ	-11.1361
പുതിയ	-11.137
▁വീശ	-11.1371
▁മാസത്തില	-11.1371
▁തെറ്റിയ	-11.1373
▁പുത്രിമാര	-11.1375
▁ആറാം	-11.1377
▁പൊരുത്ത	-11.1379
വിജയ	-11.1379
▁ഊന്ന	-11.1381
▁പുത്രന്‍	-11.1386
പ്രവാഹ	-11.1388
▁ഉണ്ടെന്ന	-11.1388
▁തൊലി	-11.1391
▁രാജ്യങ്ങളില്‍	-11.1392
▁ഉപദേശിച്ചു	-11.1393
കുമാറ	-11.1398
▁മര്യാദ	-11.1401
▁കടലാസ	-11.1404
ങ്ങളായിരുന്നു	-11.1404
▁ജീവിക്കാന	-11.1405
▁കിഴ	-11.1406
▁നേരിയ	-11.1406
▁ഭൃത്യന	-11.1407
▁പഞ്ചായത്ത	-11.1408
▁comp	-11.1414
ാരെങ്കിലും	-11.1422
▁ഒഴുക	-11.1423
▁തൊപ്പി	-11.1425
▁മൗന	-11.1425
▁പ്രതികൂല	-11.1426
▁ചെയ്യണമെന്ന	-11.1429
▁മറ്റുള്ളവ	-11.143
▁മറന്നുപോയ	-11.1432
▁ഹജ്ജ്	-11.1433
ഹീന	-11.1433
▁പൊന്ന	-11.1435
▁സന്ദര്‍ശിച്ച	-11.1439
▁Time	-11.1439
▁ശ്രമിക്കാം	-11.144
ctor	-11.1452
▁എന്നുള്ളത	-11.1455
▁ഇച്ഛിക്കുന്ന	-11.1459
▁അനുഗമിക്ക	-11.1459
▁കണ്ടിട്ട്	-11.1461
cent	-11.1466
▁പഠിക്കണം	-11.147
ുണ്ടാകാം	-11.147
▁വലത്തു	-11.147
കര്‍മ	-11.1473
▁add	-11.1475
▁ഇമേജ	-11.1477
▁വാട്ടർ	-11.1478
▁തങ്ങള	-11.1479
▁വീഞ്ഞു	-11.1483
ാതിരിക്കാന	-11.1485
▁ക്രൂരമായ	-11.1486
▁മറ്റൊരാള്‍	-11.1486
▁മതവിശ്വാസ	-11.1487
▁വരികൾ	-11.1487
▁ടിക്കറ്റ	-11.1489
▁കഴിയുന്നത്ര	-11.1493
▁രക്ഷപെട	-11.1502
▁പൊതിഞ്ഞ	-11.1503
കേരള	-11.1506
▁ധോണി	-11.1508
▁മാസ്റ്റർ	-11.1509
▁പൊന്നു	-11.151
▁App	-11.151
േണ്ടിവന്നു	-11.1512
▁ഒന്നിനും	-11.1513
▁കൂടിക്കാഴ്ച	-11.1516
NE	-11.1517
▁നിങ്ങളോടൊപ്പം	-11.1518
▁നിര്‍മാണ	-11.1518
ുമ്പോഴേക്കും	-11.1518
കളുമാണ്	-11.1525
ക്രിസ്	-11.1525
val	-11.1533
▁മികവ	-11.1536
▁തുള്ളി	-11.1537
▁ബാങ്കുകള	-11.1538
▁കൈക്കൊള്ള	-11.1539
▁നിലനിർത്താൻ	-11.1539
▁മുദ്രാവാക്യ	-11.1548
കൊള്ളട്ടെ	-11.1548
▁പിള്ളേര	-11.1549
▁ഡയറി	-11.1549
▁പേടിക്കേണ്ട	-11.1555
▁പവിത്ര	-11.1561
▁ബീജ	-11.1562
▁ദൈവത്തോട്	-11.1563
▁ജാമ്യ	-11.1565
▁ഇതിന്‍റെ	-11.1565
കളിലൊന്ന	-11.1566
▁വയറു	-11.1567
▁വിദ്യാര്‍ത്ഥികള	-11.1568
▁ചുമത്ത	-11.157
que	-11.1574
▁നിശ്ചല	-11.1574
▁നരകത്തീയ	-11.1579
▁ഇസ്ലാമിക	-11.1579
▁മെഴുകുതിരി	-11.1581
▁ഉത്ഭവ	-11.1584
▁റിയൽ	-11.1585
▁മരണപ്പെട്ട	-11.1587
▁മോചിപ്പിക്ക	-11.1598
▁മാര്‍ച്ച്	-11.16
▁സംഘടിപ്പിക്ക	-11.1601
▁സയൻസ	-11.1603
▁അതുതന്നെയാണ്	-11.1608
▁റെയിൽ	-11.1608
▁അവധിക്കാല	-11.1613
▁അതെങ്ങനെ	-11.1617
▁നിറച്ച	-11.1617
▁ബോൾ	-11.1621
IF	-11.1622
ത്തിലുമ	-11.1623
ജാതി	-11.1624
▁സമർപ്പിക്ക	-11.1624
▁സ്പര്‍ശിക്ക	-11.1632
▁കേട്ടിട്ടുണ്ട്	-11.1634
▁തുടർച്ചയായി	-11.1638
▁ഇന്ത്യക്കാര	-11.1639
▁മോതിരം	-11.1639
▁നിലവിലുണ്ട	-11.1644
പ്രാപ്തി	-11.1645
▁രൂക്ഷ	-11.1646
ുകയുള്ളു	-11.1646
▁ഗെയിമ	-11.1648
▁ഭോഷ	-11.165
▁ആര്‍ക്കു	-11.1651
▁നിങ്ങളുമായി	-11.166
▁നോവേറിയ	-11.166
▁സമയമില്ല	-11.1663
ular	-11.1668
▁കുഞ്ഞിന്	-11.1668
മാതാവ	-11.1669
സ്വഭാവ	-11.167
▁നിൻറെ	-11.1671
▁അത്യന്തം	-11.1672
▁ആപ്പിൾ	-11.1672
ിലുണ്ടായിരുന്ന	-11.1678
▁ചാനൽ	-11.1679
▁ഇൻസ്റ്റാൾ	-11.1679
▁വിശ്വാസ്യത	-11.1682
▁64	-11.1684
▁തേങ്ങ	-11.1684
തുടര്‍ന്ന	-11.1686
റുതി	-11.1696
▁നോൺ	-11.1697
▁പൂര്‍ണമായി	-11.1704
▁പുല്ല	-11.1707
▁പ്രവിശ്യ	-11.1712
▁അത്ഭുതപ്പെടുത്ത	-11.1721
ഭൂത	-11.1724
▁പോളിസി	-11.1733
▁സെന്റ്	-11.1735
▁ചാരി	-11.1737
▁കഠിനാധ്വാന	-11.1738
▁കാർഡ്ബോർഡ്	-11.1738
▁യാക്കോബി	-11.1738
▁കർത്താവിന്റെ	-11.1738
കാണാ	-11.1742
െങ്കില്	-11.1745
▁ഫൈബർ	-11.1745
ാവുമോ	-11.1747
▁ഡേറ്റിംഗ്	-11.175
▁make	-11.175
▁ലണ്ടനില	-11.1753
▁അത്തരക്കാര്‍	-11.1753
▁അപകടകരമായ	-11.1762
സൂചക	-11.1762
ോളിവുഡ	-11.1764
▁ഓപ്ഷനുകൾ	-11.1767
▁വിനീത	-11.1769
▁രീതിയിലാണ്	-11.1769
▁അവങ്കലേക്ക	-11.1778
▁250	-11.1779
▁വിഷയങ്ങള	-11.178
▁ഇവിടത്തെ	-11.1784
േശ്വര	-11.1787
▁Android	-11.1791
▁മാത്രമായിരിക്ക	-11.1793
കവിത	-11.1796
▁നിഗൂഢ	-11.1797
▁അവരൊക്കെ	-11.18
▁വരുന്നതു	-11.1805
ചെയ്യുക	-11.1807
▁ആയുസ്സ	-11.1811
▁ഇരുപത്തി	-11.1817
▁ഉപഭോഗ	-11.1817
▁അങ്ങയെ	-11.182
▁മനസ്സിന	-11.1821
▁പ്രതിരോധിക്ക	-11.1822
▁ചരിത്രപരമായ	-11.1823
▁വെളിപ്പെടുത്തിയ	-11.1824
▁ലാബ	-11.1827
▁വിൻഡോസ്	-11.1827
തേയില്ല	-11.1827
▁വിശേഷിപ്പിക്ക	-11.183
▁എതിര്‍പ്പ	-11.183
▁ഇതെന്റെ	-11.1831
▁കേള്‍പ്പ	-11.1831
ിക്കുവാന	-11.1836
▁പ്രോജക്ട	-11.1837
▁ഒറ്റപ്പെട്ട	-11.1838
ough	-11.1839
AP	-11.184
▁തുടര്‍ച്ചയായി	-11.1841
▁അധ്വാന	-11.1844
▁ഹൃദയങ്ങളില്‍	-11.1848
▁മതേതര	-11.1851
ന്‍െറ	-11.1852
നോക്കൂ	-11.186
▁only	-11.1861
▁എന്നതിനെ	-11.1863
▁Response	-11.1864
▁ഉപഭോക്താവ	-11.1864
അവിശ്വസിക്കുകയും	-11.1866
▁ചുട്ടു	-11.1874
▁probably	-11.1877
▁തായ്	-11.188
une	-11.188
▁ജീവിതത്തില	-11.1883
▁അടങ്ങ	-11.1886
▁പുത്രനെ	-11.1889
▁ആന്തരിക	-11.1891
▁ക്ഷേമ	-11.1891
▁ചെയ്യണമെന്ന്	-11.1892
ശൂന്യ	-11.1892
▁പിശാചിനെ	-11.1892
▁Art	-11.1894
▁Indian	-11.1895
ലാൻഡ്	-11.1895
▁കേറി	-11.1895
amb	-11.1896
▁സാധിക്കുകയില്ല	-11.1897
▁പ്രവർത്തി	-11.1904
▁മെട്രോ	-11.1905
▁ഇറക്കിയ	-11.1907
▁നിനക്കെന്ത	-11.191
▁കലഹ	-11.1911
▁മുന്തിരി	-11.1911
▁ലൈറ്റ	-11.1914
▁രസകരമ	-11.1914
▁ചൂഷണ	-11.1919
Com	-11.1921
▁അഴിച്ചു	-11.1923
കാട്ട	-11.1924
▁റിവ്യൂ	-11.1924
▁ടൂറിസ	-11.1925
സമര	-11.1925
▁നിർമാണ	-11.1926
൧൦	-11.1926
▁ക്ലിനിക്ക	-11.1927
▁ഹാർഡ്	-11.193
▁കന്യക	-11.1931
▁ചങ്ങല	-11.1931
▁വന്നുകിട്ടിയ	-11.1935
▁മരിച്ചവരുടെ	-11.1936
സങ്കീ	-11.1938
▁ഓക്കേ	-11.1938
▁ഓക്സ	-11.1938
▁പെട്ടവന	-11.1938
▁മാതാപിതാക്കളുടെ	-11.194
▁ലിംകള	-11.194
▁പുനരുത്ഥാന	-11.1945
▁On	-11.1946
▁പോയിന്റ	-11.1947
േട്ടന്‍	-11.1948
▁കാണുന്നുണ്ട്	-11.1949
▁സംസ്ഥാനത്ത്	-11.1949
▁ആശ്രയ	-11.1954
ോര്‍ത്ത്	-11.1954
▁അതിനാലാണ്	-11.1956
കൂട്ടര	-11.1957
വിനിമയ	-11.1958
▁പറക്കുന്ന	-11.1966
hu	-11.1967
തുകൊണ്ടാ	-11.1969
ിരട്ടി	-11.197
ഗിരി	-11.1973
▁ഇങ്ങോട്ട്	-11.1973
▁ആത്മാക്കള	-11.1974
▁Ri	-11.1977
▁ക്രാഫ്റ്റ്	-11.1978
ൊരിക്കല്‍	-11.1981
▁ഉദ്യോഗസ്ഥര	-11.1986
▁സുലൈമാന	-11.1992
ിനേക്കാള്‍	-11.1995
▁ചൊരിയ	-11.1996
േല്‍പിന്‍റെ	-11.1999
▁നൂതന	-11.1999
▁സൌഹൃദ	-11.1999
ര്ത്ഥ	-11.2
▁ago	-11.2003
രാശി	-11.2004
▁താൽപര്യ	-11.2005
▁കാനഡ	-11.2006
▁ഔദ്യോഗികമായി	-11.2011
▁പാനപാത്ര	-11.2012
And	-11.2014
▁get	-11.2015
ദ്ദേഹത്തെ	-11.2026
▁ഇമാം	-11.2029
▁കേന്ദ്രീകരിക്ക	-11.2029
ചതുരശ്ര	-11.203
▁വെറുക്കുന്ന	-11.2031
▁വിജയകരമായ	-11.2032
കേള്‍പിക്ക	-11.2033
▁നിര്‍മ്മിച്ച	-11.2034
ങ്ങളല്ല	-11.2038
▁ശീത	-11.2042
▁അപകടത്തില	-11.2042
▁രേഖകള്‍	-11.2043
▁72	-11.2046
▁രചയിതാവ	-11.2053
▁ശരീരത്തിന്	-11.2054
▁പ്രതിജ്ഞ	-11.2055
▁ജൂണ്‍	-11.2062
▁തടഞ്ഞ	-11.2062
▁വിട്ടുപോക	-11.2064
ബ്ബാ	-11.2065
▁വൈവിധ്യ	-11.2067
▁വാശി	-11.207
ൊന്ഗ്	-11.2071
▁രോഗികളെ	-11.2071
▁മാന്ത്രിക	-11.2073
▁എല്ലാവരോടും	-11.2074
▁ഉള്ളടക്ക	-11.2074
▁ഗോപുര	-11.2076
▁നിര്‍മിക്ക	-11.2085
▁വോള	-11.2088
▁സ്വസ്ഥ	-11.209
െന്‍റ	-11.2091
2019	-11.2092
▁പരീക്ഷിച്ച	-11.2101
▁വ്യക്തത	-11.2101
▁ഭൂകമ്പ	-11.2108
▁സദാചാര	-11.2108
▁പിൻവലിക്ക	-11.2108
▁യൂറോപ്പിൽ	-11.2109
▁ലിംഗ	-11.211
▁മലയാളികള്‍	-11.2112
▁മുന്‍കൂട്ടി	-11.2115
▁ശരീരത്തിലെ	-11.2123
ഇന്ത്യ	-11.2126
▁Hack	-11.2131
ഥ്യ	-11.2132
▁നാളുകള്‍	-11.2133
▁car	-11.2135
▁ഫോട്ടോഗ്രാഫ	-11.2136
▁വിധവ	-11.2137
▁imp	-11.214
▁നാഗ	-11.214
▁യുണൈറ്റഡ്	-11.2142
▁നിര്‍മിച്ച	-11.2148
lution	-11.2149
▁പെണ്‍കുട്ടികള്‍	-11.2151
▁വാതിലുകള	-11.2157
▁കീറി	-11.2158
▁മനസ്സിലാകുന്ന	-11.2163
▁പിടിപ്പ	-11.2164
▁ഉറവ	-11.2165
ship	-11.2166
▁വാൽവ്	-11.217
▁ശേഷമുള്ള	-11.2173
▁സത്യസന്ധമായ	-11.2175
ലോകമെമ്പാടുമുള്ള	-11.2176
ലക്ഷ്യ	-11.2177
അവള്‍	-11.2183
▁ഉണർന്ന	-11.219
▁മാർക്കറ്റിംഗ്	-11.2194
▁Manufacturer	-11.2197
▁പവിഴ	-11.2197
ാക്രമ	-11.2197
▁എന്താണെന്നു	-11.2201
യാളുടെ	-11.2203
▁ഉദാര	-11.221
▁വൈദിക	-11.2211
▁ഉപകരിക്ക	-11.2211
▁വളർന്ന	-11.2215
പ്രയോജനപ്പെടുത്ത	-11.2216
ുകയാണുണ്ടായത്	-11.2216
ient	-11.2219
▁വാസ്തവത്തില്‍	-11.2221
വസ്തുക്കള	-11.2222
▁ദോഷകര	-11.2224
star	-11.2224
ാകുമെന്ന	-11.2233
കളുമുണ്ട്	-11.2235
▁നമ്മോട്	-11.2236
ense	-11.2238
▁വിളക്കു	-11.2245
▁ചൂതാട്ട	-11.2245
▁സാരി	-11.2247
▁നിര്‍ദേശം	-11.2248
▁ജനിക്കുന്ന	-11.2252
▁പര്‍വത	-11.2256
▁സംഗമ	-11.2257
▁കിട്ടാന	-11.2258
▁അച്ചടിച്ച	-11.226
▁IP	-11.226
▁വിട്ടുപോയ	-11.2264
▁ഇച്ഛിച്ച	-11.2267
ങള	-11.2268
▁പിതൃ	-11.2276
▁പതിവായി	-11.2277
▁ഉദയ	-11.2285
▁വേദനാജനക	-11.2287
▁പരിമിതികള	-11.2287
▁പതിനഞ്ച	-11.2288
▁സ്നേഹിത	-11.2289
▁വർദ്ധിച്ച	-11.2301
▁ദുഷിച്ച	-11.2302
ുമാറാക്ക	-11.2305
▁രാജകുമാരന	-11.2306
▁ഒരിക്കല	-11.2308
▁ഭീരു	-11.2311
posit	-11.2312
ഓരോരുത്തര്‍ക്കും	-11.2316
ാനുള്ളത്	-11.2317
▁ശരിയാവ	-11.232
▁സത്യനിഷേധികളുടെ	-11.2321
qui	-11.2323
▁വര്‍ഷങ്ങള്‍ക്കു	-11.2326
▁ജാലവിദ്യക്കാര്‍	-11.2332
എങ്ങനെ	-11.2335
ാനുമുള്ള	-11.2336
ട്രിക്	-11.2342
▁മടുത്തു	-11.2349
Gener	-11.2351
▁വിശദീകരിച്ച	-11.2353
lex	-11.2353
vid	-11.2359
▁കൊട്ട	-11.2365
▁ഉത്സാഹ	-11.2372
ോയിഡ	-11.2376
▁വൈകിട്ട്	-11.2377
▁സങ്കല്‍പ്പ	-11.2379
ശ്ശേരി	-11.2379
▁വര്‍ദ്ധിച്ച	-11.2386
തെളി	-11.2388
ക്രമണ	-11.2393
▁സൂക്ഷ	-11.2395
▁ചുര	-11.2397
▁ഉണ്ടായിട്ടില്ല	-11.2399
▁നരകത്തില	-11.2399
പ്രാവശ്യം	-11.24
ാനുളള	-11.24
▁പ്രതിഭാസ	-11.2402
മത്താ	-11.2406
▁പോഷക	-11.2407
▁എനിക്കെന്ത	-11.2409
▁should	-11.2413
▁ചിക്ക	-11.2414
▁പ്രാര്‍ത്ഥിച്ച	-11.2423
▁വീടിനു	-11.2425
▁താരതമ്യ	-11.2426
ാകുമായിരുന്നു	-11.2431
▁താഴേക്ക്	-11.2431
▁മോഷ്ടിക്ക	-11.2435
കുളം	-11.2438
▁പ്രദർശിപ്പിക്ക	-11.2442
▁ഇയാളുടെ	-11.2443
▁അമേരിക്കക്കാര	-11.2447
▁സ്ഥാപനങ്ങള	-11.2449
▁Dis	-11.2449
▁രജിസ്റ്റർ	-11.245
▁കുടിവെള്ള	-11.245
ാകുമ്പോൾ	-11.2451
▁സുന്ദരിയായ	-11.2452
▁ധാരാളമ	-11.2453
▁ആപ്പിള	-11.2455
▁അതിജീവന	-11.2456
▁എഞ്ചിൻ	-11.2456
public	-11.2463
▁തക്കവണ്ണം	-11.2463
▁പ്രകടമായ	-11.2466
▁ഇന്നുവരെ	-11.2467
▁പ്രദേശങ്ങള	-11.2469
▁മുന്നണി	-11.2476
▁സ്വര്‍ഗത്തോപ്പു	-11.2477
▁മാര്‍ഗദര്‍ശനം	-11.2477
▁പേരുകള	-11.2478
▁തൊഴിലാളികൾ	-11.2478
▁കാണപ്പെടുന്ന	-11.2482
▁രേഖകള	-11.2483
▁മയക്കുമരുന്ന	-11.2484
▁മിസ്രയീമ	-11.2484
ോടാണ്	-11.2487
▁സ്ഥലങ്ങളിൽ	-11.2488
▁സമാധാനത്തോടെ	-11.2489
ോടൊത്ത	-11.2489
▁പതിവുപോലെ	-11.2491
ന്റു	-11.2492
▁കണക്കുകള്‍	-11.2494
▁പൊരുത്തപ്പെട	-11.2495
▁യഹോവേക്കു	-11.2499
▁ഏജന്റ	-11.2507
▁താവള	-11.2508
ike	-11.2508
▁അങ്ങേയറ്റം	-11.2513
▁every	-11.2513
▁ദളിത	-11.2519
▁never	-11.2521
▁മിഥ്യ	-11.2522
ായിരുന്നല്ലോ	-11.2523
▁ആകയാൽ	-11.2528
▁ഇതിനെതിരെ	-11.2528
▁മാനേജര	-11.2531
weather	-11.2534
▁സാമീപ്യ	-11.2541
▁നിഗമന	-11.2542
▁പുരോഹിതന്മാര	-11.2546
▁യേശുവിന്‍റെ	-11.2548
▁ഡെപ്പോസിറ്റ്	-11.2548
▁അടിയന്തര	-11.2549
▁ദര്‍ശിക്ക	-11.2551
ml	-11.2553
▁ബ്ലോക്ക	-11.2555
▁ഉപയോഗിച്ചിരുന്ന	-11.2556
ശേഖര	-11.2559
MA	-11.2562
▁അഭിഭാഷക	-11.2563
പ്പോഴാ	-11.2566
▁കുതന്ത്ര	-11.2568
ാധിപത്യ	-11.257
▁തിരയൽ	-11.2572
▁രജ	-11.2574
▁കണ്ടിട്ടുണ്ടോ	-11.2576
▁താടി	-11.258
▁പലർക്കും	-11.2585
▁ആഗ്രഹിച്ചിരുന്ന	-11.2585
ല്ലാതാ	-11.2586
▁കണ്ടെത്തുന്നത	-11.2588
▁പ്രയോജനപ്പെട	-11.2588
▁ദിവസേന	-11.259
▁പൂർണമായും	-11.2592
▁കഴിയാതെ	-11.2598
▁ഫുഡ്	-11.2599
▁കണക്കുകൂട്ട	-11.2599
തരക്കാര	-11.2602
▁താമസിച്ചിരുന്ന	-11.2603
▁തർക്ക	-11.2605
▁നീയെന്നെ	-11.2605
▁കത്തോലിക്ക	-11.2613
▁അന്ത്യദിനത്തില	-11.2614
▁സ്ക്രീന	-11.2615
▁സംവിധായകന്‍	-11.2617
സംഘടന	-11.2624
▁സൂചിപ്പിക്ക	-11.2628
▁സുരക്ഷിതത്വ	-11.2628
▁അവശ്യ	-11.2634
▁ന്യായാധിപ	-11.2634
▁Christ	-11.2635
▁അടയാളങ്ങള	-11.2636
▁നാഷണൽ	-11.2645
▁ഉദ്ബോധന	-11.2649
[3]	-11.2657
▁പറയാറുണ്ട്	-11.2658
▁പശ്ചാത്തപിക്ക	-11.266
▁അഫ്ഗാന	-11.2664
ാറായി	-11.2664
ശബ്ദ	-11.2667
▁കഥാപാത്രങ്ങള	-11.2667
▁പാനൽ	-11.2672
ാനാവുമോ	-11.2674
▁ശ്രേണി	-11.2678
▁ഉപവാസ	-11.2684
ാതീത	-11.2691
▁ടേപ്പ്	-11.2693
▁രജിസ്	-11.2698
▁ലാമിക	-11.2699
▁OF	-11.27
▁നിർമ്മാതാക്ക	-11.27
▁മാഷ്	-11.27
▁മുഖത്തു	-11.2701
emb	-11.2703
ഭംഗ	-11.2707
▁ഗ്രാമീണ	-11.2707
▁ആദ്യമായാണ്	-11.2709
▁അഗാധ	-11.2714
▁Trans	-11.2715
▁സ്മരിക്ക	-11.2715
▁മൌന	-11.2717
▁ന്യൂനപക്ഷ	-11.2722
▁വാക്കിന	-11.2723
LO	-11.2727
▁സീറ്റുകള	-11.2727
ക്കൊല്ല	-11.273
െര്സ്	-11.2732
▁താരതമ്യേന	-11.2735
▁ഷർട്ട	-11.2735
▁str	-11.2737
▁കോഫി	-11.2738
▁കഴിയുമായിരുന്ന	-11.2738
▁സർവേ	-11.274
▁പ്രതിഭ	-11.2742
▁സംരക്ഷിച്ച	-11.2744
▁ആധിപത്യ	-11.2744
▁സ്മരണ	-11.2745
▁ഒരുത്തന്‍	-11.2746
▁ഇതുവഴി	-11.2748
പദ്ധതി	-11.2749
▁ഷീറ്റ്	-11.2751
▁യുക്തിവാദി	-11.2755
പരിപാടി	-11.2756
▁ദൈവത്തിന	-11.2757
▁സ്വദേശി	-11.276
▁ഇല്ലാതാക	-11.2763
▁കൊടുങ്കാറ്റ	-11.2766
▁ആക്കിയ	-11.2767
▁താഴ്വര	-11.2771
▁ഉണ്ടല്ലോ	-11.2772
തെന്തോ	-11.2773
▁Author	-11.278
▁അടിത്തറ	-11.278
▁എഴുതാന	-11.2786
▁നിരീക്ഷിച്ച	-11.2787
▁സമ്പദ്	-11.2795
▁സ്പഷ്ടമായ	-11.2796
▁അച്ഛാ	-11.2796
നിമിഷ	-11.2801
പരിഹാര	-11.2801
▁സ്ക്ര	-11.2801
▁ചന്ത	-11.2805
▁തോന്നുന്നുണ്ടോ	-11.2808
▁അനുഗൃഹീത	-11.2809
▁സാമ്പിൾ	-11.2809
▁വിലമതിക്ക	-11.2811
ിലൊരാള	-11.2812
െന്തിന്	-11.2813
ിലുടനീള	-11.2817
▁good	-11.2818
▁ഹാജര	-11.2821
▁സാഷ്ടാംഗം	-11.2824
▁right	-11.2826
▁same	-11.2826
gree	-11.2828
▁തറവാട	-11.2836
▁ദുബായ്	-11.2839
ധ്വ	-11.2843
▁അപകടകര	-11.2844
▁ആകർഷിക്ക	-11.2846
▁ഹാറൂന	-11.2847
▁കാമുകി	-11.2853
▁പേടിച്ചു	-11.2856
▁Sub	-11.2864
▁USD	-11.2866
▁പ്രാസം	-11.2873
സൃഷ്ടിക്കപ്പെട്ട	-11.2877
ാദ്യം	-11.2878
▁പതാക	-11.2882
▁ചുവട	-11.2883
▁പ്രേക്ഷക	-11.2887
പൊട്ട	-11.2889
▁first	-11.2891
ഗ്രാമ	-11.2899
▁വൃക്ക	-11.2905
▁ന്യായവിധി	-11.2907
▁1998	-11.2908
▁മറ്റൊരാളുടെ	-11.2908
▁നിവാസികള	-11.2913
source	-11.2917
▁ബോധ്യപ്പെടുത്ത	-11.2924
▁ഏജൻസി	-11.2928
▁വലയം	-11.2938
▁അതില്‍നിന്ന്	-11.294
ാശ്രയ	-11.294
ദൃശ	-11.2945
▁മണ്ടത്തര	-11.2948
▁ലോണ്‍	-11.295
▁താല്‍പ്പര്യ	-11.2957
▁റമദാന	-11.2958
▁യുക്തിമാനും	-11.2965
▁വിഭവങ്ങള	-11.2965
color	-11.2965
െല്ലി	-11.297
▁പലതവണ	-11.2971
vil	-11.2972
▁കുഴപ്പമുണ്ടാക്ക	-11.2983
▁സംവരണ	-11.2985
▁അകത്തേക്ക്	-11.2985
പരിശോധന	-11.2988
പ്രയോഗ	-11.2991
▁തള്ളിക്കളഞ്ഞ	-11.2992
▁ലൈറ്റുകൾ	-11.2994
▁don	-11.2995
▁തീവ്രവാദ	-11.2998
▁വികസിപ്പിച്ച	-11.2999
1"&	-11.2999
▁അൽപം	-11.3003
▁ഭക്ഷിച്ച	-11.3007
▁സൌജന്യ	-11.3017
▁യൂറോപ്പിലെ	-11.3019
▁സപ്ലൈ	-11.3025
▁ഘട്ടങ്ങള	-11.3025
▁ചേരുവ	-11.3026
▁ഓപ്ഷൻ	-11.3032
▁ഉടുപ്പ	-11.3037
▁രണ്ടുപേര്‍	-11.3045
▁സംസാരിക്കാന	-11.3047
▁ആശയക്കുഴപ്പ	-11.3047
▁ഘോര	-11.3047
▁പിന്തിരിയ	-11.3047
▁പ്രയത്ന	-11.3047
▁അനുസ്മര	-11.3049
ിപ്പിക്കാൻ	-11.3049
▁സമാധാനമുണ്ടാക	-11.305
▁വ്യക്തമാക	-11.3052
▁ഇതിനിടെ	-11.3055
▁കൃഷിക്കാര	-11.3055
▁ഇതുമൂലം	-11.3055
▁Life	-11.3063
▁ഇക്കാര്യത്തിൽ	-11.3064
▁പുലർത്ത	-11.3066
▁നിക്ഷേപിക്ക	-11.3066
▁വിശന്ന	-11.3068
▁നിരന്തരമായ	-11.307
▁ജൂതന്മാര	-11.307
ious	-11.307
▁വിലകുറഞ്ഞ	-11.3073
▁അതിനിടെ	-11.3078
▁sm	-11.3079
▁നിലപാടുകള	-11.308
▁സ്വർണ	-11.3081
▁കൈവിട്ട	-11.3083
▁ഫ്രെയിം	-11.3085
വർഷത്ത	-11.3089
ാളുകള	-11.3092
▁ജര്‍മനി	-11.3093
▁നിര്‍ത്തിയ	-11.3095
▁ശ്രദ്ധേയമായ	-11.3102
▁അപമാനിക്ക	-11.3106
▁സാക്ഷാല്‍	-11.3108
▁ഫീൽഡ	-11.311
▁അംശ	-11.3111
അദ്ദേഹ	-11.3112
ഭവിച്ച	-11.3113
▁ദാമ്പത്യ	-11.3115
▁സ്ഥാപിതമായ	-11.3115
▁സമൂഹത്തില	-11.3119
▁ഉദ്ധരണി	-11.3123
▁പറുദീസ	-11.3123
▁സ്പോർട്സ്	-11.3123
ഹൈഡ്ര	-11.3123
▁അമ്മാവന	-11.3125
▁നരകാഗ്നി	-11.313
▁ആര്‍ക്കെങ്കിലും	-11.313
▁ഇറക്കിത്തന്ന	-11.3131
▁ഉമര്‍	-11.3132
▁ചിത്രകാരന	-11.3133
നുവേണ്ടി	-11.3135
▁സ്കൂളുകള	-11.3136
▁ഷോട്ട്	-11.3137
ുന്തോറും	-11.3138
self	-11.3139
▁അനുകരിക്ക	-11.314
▁നന്ദികാണിക്ക	-11.3142
▁വയനാട	-11.3146
▁സ്ലോട്ടുകൾ	-11.3153
▁ഡോക്ടർമാർ	-11.3168
▁വര്‍ദ്ധിക്ക	-11.3169
▁ഓളം	-11.3171
▁അന്ധവിശ്വാസ	-11.3171
▁ശിക്ഷിക്കപ്പെട	-11.3175
▁സൂപ്പര്‍	-11.3176
▁അതിജീവിച്ച	-11.3176
പുരോഹിത	-11.3187
സൂര്യ	-11.3188
▁അനങ്ങ	-11.3189
▁തലക്കെട്ട	-11.319
▁Review	-11.3193
ണമല്ലോ	-11.3193
കൊണ്ടിരുന്നത്	-11.3196
▁ട്യൂബ്	-11.3197
തിനാലാ	-11.32
▁തൂങ്ങി	-11.3201
▁വര്‍ണ	-11.3216
▁ഓപ്ഷന	-11.3219
▁വ്യതിയാന	-11.3222
കൃഷി	-11.3222
▁ന്യായീകരിക്ക	-11.3225
▁രഥ	-11.3226
▁ജെയിംസ്	-11.3229
▁മിത്ര	-11.323
മ്പിള	-11.3236
▁see	-11.3242
▁കഷ്ടപ്പാട	-11.3242
▁ചിലപ്പോഴൊക്കെ	-11.3245
▁പുഷ്പ	-11.3245
ല്പം	-11.3248
▁അപ്ലിക്കേഷന	-11.3252
▁വര്‍ധിക്ക	-11.3253
▁പ്രതിഷ്ഠ	-11.3258
▁how	-11.3259
▁പ്രദർശന	-11.3259
rror	-11.326
▁people	-11.326
▁രണ്ടാമത്തേത	-11.326
▁അടിസ്ഥാനപരമായി	-11.3262
▁ചെമ്പ	-11.3264
▁പതിനൊന്ന	-11.3265
oint	-11.3268
▁സാന്നിധ്യം	-11.327
▁ഭാഗമാക	-11.3278
▁റെയിൽവേ	-11.3278
വരാണവര്‍	-11.3279
round	-11.328
അമേരിക്ക	-11.3281
ുകാരുടെ	-11.3283
▁ഉത്കണ്ഠ	-11.3283
▁വിവർത്തന	-11.3283
വിളിക്ക	-11.3284
▁പട്ടാളക്കാര	-11.3289
▁സന്തോഷിപ്പിക്ക	-11.3293
▁അപേക്ഷിച്ച്	-11.3295
van	-11.3296
▁YouTube	-11.3299
▁അരുളപ്പാടു	-11.3299
പൈലറ്റ	-11.3299
iving	-11.3306
▁അമ്മയോട	-11.331
▁ആൽബ	-11.3314
▁നിര്‍ണായക	-11.3314
▁പ്രോത്സാഹന	-11.3314
▁രീതിയിലുള്ള	-11.3315
▁സംഭരണ	-11.3318
കുറഞ്ഞ	-11.3321
▁മസ്തിഷ്ക	-11.3322
▁സഹായകരമ	-11.3322
▁ഉന്നയിക്ക	-11.3322
▁അങ്ങനെയെങ്കില്‍	-11.3322
▁ആരെന്ന	-11.3324
q	-11.3324
വംശ	-11.3327
▁അപകടകാരി	-11.3328
▁സങ്കല്‍പ	-11.3329
▁ബട്ടൺ	-11.333
തിലക	-11.3337
▁ദൈനംദിന	-11.3337
േണ്ടതുണ്ടോ	-11.334
നടപടി	-11.3343
▁ശാശ്വതമായ	-11.3343
ക്വുര്‍ആന്‍	-11.3344
▁ഇസ്രായീല്‍	-11.3345
▁ഭാരതീയ	-11.3349
▁ക്രൂശിക്ക	-11.3351
വിശുദ്ധ	-11.3351
മാത്രമേ	-11.3353
▁part	-11.3355
▁സാമ്യ	-11.3359
ities	-11.3359
▁കുറ്റക്കാര	-11.3363
ിരിക്കേണ്ട	-11.3369
▁ആന്റണി	-11.3376
ബുഖാരി	-11.3376
▁ചരിത്രത്തിലെ	-11.3377
▁ത്യാഗ	-11.3378
▁പൗരത്വ	-11.3384
▁നടുവിൽ	-11.3384
▁ആത്മാവിന	-11.3391
▁പാരീസ്	-11.3395
നിർണയ	-11.3397
▁അദ്ധ്വാന	-11.3399
▁ഏറ്റവുമധികം	-11.3399
lock	-11.3409
ിനേക്കാൾ	-11.3414
▁അറേബ്യ	-11.3415
▁അര്‍പ്പിക്ക	-11.3416
ത്തിലല്ല	-11.3418
ുന്നതിനുമുമ്പ്	-11.3418
ചൈതന്യ	-11.3423
ഫിലി	-11.3423
▁ഹിന്ദുക്കള	-11.3427
▁തയ്യാറാക്കിയ	-11.3429
▁നന്ദികേട	-11.3431
▁ഉന്നയിച്ച	-11.3431
▁സന്ദർശന	-11.3431
▁സഹോദരിമാര	-11.3435
നാലാമ	-11.3437
▁മറ്റുചില	-11.3439
▁അറുപത	-11.344
▁അവരോട	-11.3445
ാറുണ്ട	-11.3447
െന്നപോലെ	-11.345
ഭിഷേക	-11.3454
▁ക്ഷണിച്ച	-11.3455
▁അപ്പോള	-11.3457
ാവസ്ഥയില	-11.3461
▁മറയ്ക്ക	-11.3462
turn	-11.3463
▁സാദ്ധ്യമ	-11.3464
▁വേറിട്ട	-11.3465
യടുത്ത്	-11.3467
▁ശുപാര്‍ശ	-11.347
ഡബ്ല്യ	-11.347
▁ദേവാലയ	-11.3473
സുന്ദര	-11.3476
▁സിംഗിൾ	-11.3478
▁പങ്കുവെച്ച	-11.3481
▁ക്ള	-11.3484
▁ജീവിതകാലം	-11.3486
▁കാര്യത്തില	-11.3487
ജോലി	-11.3494
▁ഹീറോ	-11.3495
ാത്തതെന്ത	-11.3496
▁കാർഡുകൾ	-11.3496
▁പിളര	-11.35
▁സാധനങ്ങള	-11.35
▁നിലാവ	-11.3501
▁ഏറ്റുവാങ്ങ	-11.3502
▁ആണെങ്കിലും	-11.3502
▁സുഖപ്പെടുത്ത	-11.3504
ദാഹരണ	-11.3506
▁പ്രദര്‍ശിപ്പ	-11.351
ുദ്ദേശിച്ച	-11.3513
▁കുഴപ്പമില്ല	-11.3515
▁അടിസ്ഥാനത്തില	-11.352
▁വര്‍ധിപ്പിക്ക	-11.3525
▁കപടവിശ്വാസികള	-11.3525
▁some	-11.3525
▁ആറുമാസ	-11.3526
▁ഡാഡി	-11.353
വകുപ്പ	-11.3532
▁ദുരൂഹ	-11.3533
▁ഗണ്യമായ	-11.3535
▁ആവർത്തിക്ക	-11.3537
▁യാചിക്ക	-11.3538
▁അള്ളാഹു	-11.3541
▁പ്രസ്താവിക്ക	-11.3541
▁പെയ്ത	-11.355
▁മനുഷ്യപുത്രന	-11.3558
എങ്കില്‍	-11.3558
▁ക്രമീകരണം	-11.3559
▁ആൺകുട്ടി	-11.3564
▁യോജിപ്പ	-11.3565
▁കവറ	-11.3567
പ്പെടാനുള്ള	-11.3567
▁വാദിക്കുന്ന	-11.3569
▁സ്റ്റേഷൻ	-11.357
ിപ്പിക്കാന	-11.3576
▁മദ്യപിച്ച	-11.3579
▁മുന്നറിയിപ്പ	-11.3581
സ്തംഭ	-11.3582
▁നിലവിളിച്ചു	-11.3583
You	-11.3588
▁കളിപ്പാട്ട	-11.3588
▁ബട്ടണ	-11.3588
▁സംശയത്തില	-11.359
ഞ്ഞുപോക	-11.3593
റിഞ്ഞുകൂട	-11.3596
▁1996	-11.3606
▁അടയാളപ്പെടുത്ത	-11.361
ific	-11.3615
▁ഫ്രണ്ട്	-11.3619
▁English	-11.362
▁ഒന്നുകിൽ	-11.3621
▁താക്കീതുകാരന	-11.363
▁അതിലൊന്ന	-11.3631
▁പോരാളി	-11.3636
▁അമേരിക്കയില	-11.3636
cket	-11.3643
▁അന്തരിച്ചു	-11.365
▁ഓഡിയോ	-11.3652
▁മുന്പ	-11.3657
▁എല്ലാറ്റിനും	-11.366
▁അക്രമികളായ	-11.3661
▁വീണ്ടുമ	-11.3661
▁ശപഥ	-11.3664
▁വിരമിച്ച	-11.3668
▁ആരാണെന്ന	-11.3669
▁കാവൽ	-11.3669
▁കാമുകന	-11.3669
▁നല്‍കേണ്ട	-11.3675
ദൈര്‍ഘ്യ	-11.3676
▁നാമനിർദ്ദേശം	-11.3676
ിരിക്കുമ്പോള്‍	-11.3677
GB	-11.3682
▁പറയാറ	-11.3685
▁നിർണ്ണയിക്ക	-11.3698
▁പകർത്ത	-11.3699
▁ഉറപ്പിക്ക	-11.3702
പൂര്‍ണമായ	-11.3702
▁Posted	-11.3703
▁എനിയ്ക്ക	-11.3706
ccess	-11.3709
ൊഒ	-11.3711
▁നടത്താന	-11.3712
മടയ	-11.3715
▁ഇല്ലാതായ	-11.3718
▁ആര്‍ത്തവ	-11.372
ീശ്വര	-11.3721
ഫീസ	-11.3722
▁തയ്യാറാവ	-11.3723
▁ജോസഫ	-11.3727
▁നല്‍കിയിട്ടുള്ള	-11.3731
▁മാതൃഭൂമി	-11.3734
▁വായിക്കാന	-11.3736
▁അടഞ്ഞ	-11.3744
▁മുടങ്ങ	-11.3744
െസ്റ്റോസ്റ്റിറോൺ	-11.3748
▁ആപ്ലിക്കേഷന	-11.3748
▁കാറുകള	-11.3749
▁ബഹുമതി	-11.375
▁രാഷ്	-11.3753
യഹോവ	-11.3754
▁ശുദ്ധീകരിക്ക	-11.3755
▁ജപ്പാൻ	-11.3757
▁നിറയ്ക്ക	-11.3759
▁പ്രബല	-11.3766
▁തിരിച്ചുപോക	-11.3768
▁പ്രഥമ	-11.3774
▁സന്മാര്‍ഗ	-11.3775
കിരണ	-11.3777
▁കൈമാറ്റം	-11.3781
ുകയെന്നത്	-11.3784
▁നന്ദിയുള്ളവര	-11.3785
ോന്യ	-11.3787
▁നിഷിദ്ധ	-11.3788
പ്രവർത്തന	-11.3793
▁അബ്രാഹ	-11.3804
▁മനോരമ	-11.3806
▁മദീന	-11.3806
▁പാളയ	-11.3808
▁മലയാളികള	-11.3825
▁അറബ്	-11.3838
▁ക്ഷമയോടെ	-11.3842
ിലൊരാള്‍	-11.3845
ങ്ങളാക	-11.3849
▁പ്ലാന്റ	-11.3854
മാനേജ	-11.3858
▁അരികില	-11.386
▁ഗുജറാത്ത	-11.3862
ക്കുമിടയില്‍	-11.3876
▁അതിനാല	-11.388
▁ദൈവദൂതന്മാര	-11.3881
▁ക്വി	-11.3882
▁പിശാചിന	-11.3886
▁സോവിയറ്റ്	-11.3886
▁തയാറാക്ക	-11.3887
▁മെയിലിംഗ്	-11.3895
ക്ഷേത്ര	-11.39
▁വിളിച്ചുപറയ	-11.39
▁ഒടുവില	-11.3902
▁പത്രോസ	-11.3903
▁സൌന്ദര്യ	-11.3903
▁സങ്കീർണ്ണ	-11.3903
▁now	-11.3906
കൊണ്ടിരിക്കുന്നത	-11.3908
▁നിസ്സംശയം	-11.3911
▁നേഹിച്ച	-11.3913
▁പലരെയും	-11.3922
സാന്നിദ്ധ്യ	-11.3927
ിങ്കൽ	-11.393
▁Also	-11.3936
▁കുടുംബത്തോട	-11.3946
സാധന	-11.395
ദൈർഘ്യ	-11.3951
▁പ്രായത്തില	-11.3953
ഭാര്യ	-11.3954
ൊരാൾ	-11.3957
സമയത്തു	-11.3959
വയസ്സ	-11.3963
.(4	-11.3963
▁തുടച്ചു	-11.3969
▁വിറ്റഴി	-11.3969
▁state	-11.3969
ഊ	-11.3975
▁നിര്‍വഹിച്ച	-11.3977
▁സമാപ	-11.3977
തെങ്ങിനെ	-11.3978
▁നിലനിൽക്കുന്ന	-11.3981
book	-11.3982
▁മറ്റേതെങ്കിലും	-11.3985
▁അരങ്ങേറ	-11.3994
▁വളഞ്ഞ	-11.3999
▁ആകർഷണ	-11.4002
▁ഏകാന്തത	-11.4003
▁അതിർത്തി	-11.4006
▁സോഫ	-11.4008
സംരക്ഷണ	-11.4009
▁പണിയെടുക്ക	-11.4009
ദേശീയ	-11.4009
മില്ലീമീറ്റർ	-11.401
റുപ്പ	-11.4013
▁പ്രവർത്തിപ്പി	-11.4013
ഫെഡറ	-11.4016
ചക്ര	-11.4017
▁വിവാഹിതരായ	-11.4018
▁സങ്കല്പ	-11.4021
▁ആണല്ലോ	-11.4023
▁Year	-11.4028
തിനാലാണ്	-11.4028
▁ഷിപ്പിംഗ്	-11.4035
▁റേഡിയ	-11.4036
▁വീട്ടിലെത്തി	-11.4036
അഭിവാദ്യ	-11.4043
ident	-11.4043
▁ആത്യന്തിക	-11.4043
▁സാധ്യമാണ്	-11.4043
▁അഭിനന്ദിക്ക	-11.4043
▁എല്ലാവര്ക്കും	-11.4051
ായിരിക്കില്ല	-11.4063
▁ഷോപ്പിംഗ്	-11.4065
▁ലഭ്യമ	-11.4065
▁നഷ്ടപരിഹാരം	-11.4068
ഹൂദ	-11.4071
▁അനായാസ	-11.4078
▁പകർപ്പവകാശം	-11.4093
ുറപ്പിക്ക	-11.4093
പരിശീലക	-11.4095
▁ഇബ്രാഹീം	-11.4101
▁ജനത്തോടു	-11.4104
ന്മാരാ	-11.412
നിഷേധ	-11.4124
▁യൂണിയൻ	-11.4126
▁ചാർജ്	-11.4128
മുതല	-11.413
നടന്ന	-11.4131
▁ഉപദേഷ്ടാ	-11.4135
▁പുറകെ	-11.4138
▁മഹത്തര	-11.4143
▁XXX	-11.4144
▁അന്ത്യസമയ	-11.4147
▁രാഷ്ട്രീയക്കാര	-11.4151
▁മിസ്റ്റർ	-11.4152
▁വികാസ	-11.4161
▁ഓക്സിജൻ	-11.4168
▁ബിറ്റ്കോയിൻ	-11.4168
▁ബഹുദൈവ	-11.4172
▁:-)	-11.4173
▁മേധാവി	-11.4177
▁വഴിപിഴച്ച	-11.4177
▁ദമ്പതികൾ	-11.4177
▁സാംസ്കാരിക	-11.4177
ിലേക്കെത്ത	-11.4183
▁സഹോദരന്മാർ	-11.4192
▁പരിചിത	-11.4193
▁നിവൃത്തി	-11.4195
ക്രിപ്റ്റ	-11.4196
ഭാരം	-11.4197
ഇദ്ദേഹ	-11.4203
▁അര്‍ഹത	-11.4205
▁സൂര്യപ്രകാശ	-11.4211
#	-11.4212
▁തിരിച്ചുവന്ന	-11.4213
▁പിന്‍വലിക്ക	-11.4214
▁ആഹ്വാനം	-11.4219
▁കമ്മ്യൂണിറ്റി	-11.4219
സാധാരണ	-11.4225
▁അവനവന	-11.4226
ഹൗസ	-11.4234
▁ഭിന്നിച്ച	-11.4237
▁എന്നറിയപ്പെട	-11.4237
▁എളിയ	-11.4238
▁ജ്വല്ലറി	-11.4244
▁നിമിത്ത	-11.4246
▁സഹതാപ	-11.4249
▁അനിഷ്ട	-11.4252
▁ക്രിസ്തീയ	-11.4253
▁എഴുന്നേല്‍ക്ക	-11.4253
▁തമ്പുരാന	-11.4254
▁ഓഫറുകൾ	-11.4254
▁വ്യാസ	-11.426
▁ശങ്കര	-11.4261
▁വര്‍ധിച്ച	-11.4262
▁ദഹിപ്പിക്ക	-11.4262
▁പോലുമ	-11.4265
▁University	-11.427
▁പിശുക്ക	-11.4272
▁മൂലധന	-11.4272
▁കൊളുത്ത	-11.4276
യോഹന്നാൻ	-11.4278
▁നൂഹിന	-11.428
▁ജോലിക്കാര	-11.4282
ാകണമെന്ന	-11.4283
നുഭവിക്കുന്ന	-11.4284
▁വന്യ	-11.4291
▁ടീച്ചർ	-11.4296
▁അങ്കിള	-11.4299
▁ക്രമീകരിച്ച	-11.4299
▁സന്ദർശിച്ച	-11.4304
ിതുവരെ	-11.4305
▁ഭവിക്ക	-11.4306
▁Book	-11.4308
▁ടാക്സി	-11.431
▁ഔഷധ	-11.4312
▁ആഡംബര	-11.4313
െനിക്കറിയില്ല	-11.4313
▁അടങ്ങിയിരിക്ക	-11.4315
▁അദ്ദേഹത്തോടൊപ്പ	-11.4316
▁ന്യൂയോർക്ക	-11.4321
▁തയ്യാറെടുപ്പ	-11.4322
ആകാശ	-11.4324
െന്തേ	-11.4327
▁ഫ്രാങ്ക	-11.433
▁അവകാശികള	-11.4332
▁അതിനുവേണ്ടി	-11.4332
▁ജാക്കറ്റ	-11.4338
▁മഹത്വപ്പെടുത്ത	-11.4338
സമാധാന	-11.4343
▁Facebook	-11.4347
▁പിവിസി	-11.4347
ാവസാനം	-11.4358
രാജ്യങ്ങള	-11.4358
ീട്ടു	-11.4362
▁ബ്രിട്ടീഷുകാര	-11.4364
▁ഇവ്വിധം	-11.4364
▁ഗണിത	-11.4366
▁പിന്നോട്ട	-11.4368
ിട്ടുണ്ടല്ലോ	-11.4371
▁മാലാഖമാര	-11.4373
▁ഹിന്ദി	-11.4373
▁ആകർഷക	-11.4381
▁വേര്‍തിരിച്ച	-11.4383
മാധ്യമങ്ങള	-11.4383
▁വാതക	-11.4385
2.1	-11.4387
▁അവ്യക്ത	-11.439
▁ട്രാഫിക്	-11.439
▁Right	-11.4403
▁ടൂൾ	-11.4407
▁വലത്തോട്ട	-11.4407
▁തത്സമയ	-11.4414
▁ഉൾപ്പെടുത്തിയ	-11.4424
▁Rhymes	-11.4424
▁എക്സ്ചേഞ്ച്	-11.4424
▁ചികിത്സിക്ക	-11.4431
▁മോഷ്ടിച്ച	-11.4433
=&	-11.4434
നൂറ്റാണ്ട	-11.4438
▁ഇടപഴക	-11.4441
▁ഒരുക്കിവെച്ച	-11.4442
▁വാസ്തു	-11.4442
▁കണ്ണുനീര	-11.4446
▁വേനല	-11.4446
രചന	-11.4447
▁നിര്‍ദേശിച്ച	-11.4449
നാളെ	-11.4452
▁തൊട്ടടുത്ത	-11.4455
▁ധിക്കരിക്ക	-11.4459
▁വ്യത്യസ്	-11.4466
▁വേണ്ടിയത്രെ	-11.4468
▁വാങ്ങാന	-11.4472
▁നാടുകടത്ത	-11.4476
▁വിധേയമാക്ക	-11.4477
▁വിനിയോഗിക്ക	-11.4479
▁ഇളം	-11.4484
▁ഒരുപാട	-11.4487
▁ക്ലബ്ബ	-11.4487
▁ധിക്കാരികള	-11.4487
▁അപവാദ	-11.4489
വിരല	-11.449
വീണ്ടും	-11.449
▁ഡയറക്ടറ	-11.4493
▁ഓർഡറ	-11.4494
▁ഹൃദയത്തില	-11.4502
▁സൃഷ്ടിക്കപ്പെട	-11.4502
▁മിശ്രിത	-11.4502
▁മാത്രമേയുള്ളൂ	-11.4513
▁തളർന്ന	-11.4517
▁നിർവച	-11.4525
▁ഗുളിക	-11.4525
▁കേന്ദ്രസര്‍ക്കാ	-11.4528
▁without	-11.4529
അന്ത്യനാള	-11.4542
▁ഘട്ടത്തില	-11.4544
▁സ്ലോട്ട്	-11.4546
കാരുണ്യ	-11.4552
ാണെങ്കിലോ	-11.4553
▁സെറാമിക്	-11.4554
തുല്യമായത്	-11.4555
ാനാണിത്	-11.4556
▁ഇന്റർനെറ്റ	-11.4557
mark	-11.457
▁നിര്‍വ്വഹ	-11.4572
▁സമ്പൂര്‍ണ	-11.4574
▁മധു	-11.4577
▁ചിന്താഗതി	-11.4589
▁അല്ലാഹുവിലേക്ക്	-11.4591
▁സഹകരിച്ച	-11.4595
ification	-11.4597
▁പുരോഗമന	-11.4607
▁ഇബ്രാഹീമ	-11.4607
▁യുഎഇ	-11.4607
▁നാലുപേര	-11.462
▁സഹായിക്കാന	-11.4623
▁ജർമനി	-11.4625
▁പരിഭ്രമ	-11.4625
▁ഉള്‍പ്പെടെ	-11.4625
▁സുസ്ഥിര	-11.4633
▁മെത്രാ	-11.4634
2:1	-11.4637
▁വിവരങ്ങള	-11.4651
ുണ്ടാകില്ല	-11.4655
▁പൊതിയ	-11.4655
▁ജീവനക്കാർ	-11.4655
▁വയറ്റ	-11.4658
▁Equivalent	-11.466
േല്‍പുനാള	-11.4661
വര്‍ഷങ്ങള	-11.4665
തെന്താണെന്ന	-11.4666
▁പര്യവസാനം	-11.4669
▁യോസേഫ	-11.4686
ium	-11.4687
▁മന്ത്രാലയ	-11.4688
▁വിരൽ	-11.4688
uck	-11.469
▁അതിശയകരമായ	-11.4692
▁പ്രകീര്‍ത്തിക്ക	-11.4693
നിശ്ചിത	-11.4695
▁വാര്‍ഷിക	-11.4695
ിരിക്കാൻ	-11.4698
▁ഉപരോധ	-11.4708
▁നിര്‍ദ്ദേശം	-11.4716
▁നിങ്ബോ	-11.4722
▁വക്താ	-11.4725
ിട്ടുണ്ടെങ്കിൽ	-11.4729
▁പുരോഗമിക്ക	-11.4731
▁മേക്കപ്പ്	-11.4731
▁മാനസികാവസ്ഥ	-11.4733
ക്കൊപ്പമ	-11.4737
▁ബ്രാൻഡ	-11.4739
▁month	-11.474
ഭയപ്പെടേണ്ടതില്ല	-11.4757
▁സമൃദ്ധി	-11.4759
രോരുത്ത	-11.476
▁ദുരിതാശ്വാസ	-11.4767
ായിരുന്നെങ്കിൽ	-11.4769
▁കര്‍ശന	-11.4776
പരിചയ	-11.4778
▁മദ്യപിക്ക	-11.4782
പ്രഭാ	-11.4784
script	-11.4784
▁Jesus	-11.4784
▁ഡിസ്പ്ലേ	-11.4784
▁ഉദ്ധരിക്ക	-11.4785
▁ട്രോള	-11.4785
▁ക്ലാസിക്	-11.4788
cept	-11.4794
▁കർത്താവായ	-11.4796
▁വേതന	-11.4796
▁നിര്‍ദ്ദേശങ്ങള	-11.4797
ference	-11.4802
▁അസ്തിത്വ	-11.4802
▁ദയാപരനുമ	-11.4802
▁better	-11.4806
▁പ്രത്യാഘാത	-11.4811
▁യൂദാ	-11.4812
▁Lord	-11.4815
▁എൺപത്	-11.4821
▁Health	-11.4829
▁ഫെലിസ്ത്യ	-11.4829
▁സുന്നത്ത	-11.483
▁ഊര്‍ജ	-11.4833
ുകിടക്കുന്ന	-11.4834
▁ഉത്പാദിപ്പിക്ക	-11.4838
▁അവരിരുവര	-11.4838
▁പിടിച്ചെടുക്ക	-11.4843
മീഡിയ	-11.4845
▁കാർബൺ	-11.4847
▁മറുവശത്ത്	-11.4847
▁അറസ്റ്റ	-11.4848
▁സെക്കന്റ	-11.4851
▁കരച്ചില	-11.4855
▁ജോലിചെയ്യ	-11.4859
▁Black	-11.4865
▁ഇനങ്ങള	-11.4866
▁ചെറുകിട	-11.4868
▁രൂപീകരിക്ക	-11.4879
[4]	-11.4883
ക്കടല	-11.489
▁കൌതുക	-11.4892
▁പ്രത്യക്ഷപ്പെട	-11.4893
▁പ്രക്ഷോഭ	-11.4895
▁ദയവു	-11.4897
▁വിഷ്ണു	-11.49
▁ശിര്‍ക്ക	-11.4901
▁എഴുന്നേൽക്ക	-11.4901
▁ജർമ്മൻ	-11.4901
വെക്കൂടാതെ	-11.4904
▁വിളിച്ചപേക്ഷി	-11.4905
െന്താണെന്ന്	-11.4907
▁ഉണക്ക	-11.491
▁പരമാധികാര	-11.4911
▁നികത്ത	-11.4916
▁ആവുന്ന	-11.4917
▁gra	-11.4918
▁എന്നോട	-11.4926
Constellation	-11.4929
▁മൊത്തത്തിലുള്ള	-11.4932
▁ഭാഗത്തുനിന്ന	-11.4933
▁ജനറേറ്റർ	-11.4938
സ്ഥാപന	-11.4939
▁പാപമോചനത്തിന	-11.4943
▁അവിശ്വസിക്ക	-11.4958
▁പശ്ചാത്തപിക്കുക	-11.496
▁trans	-11.4965
▁മെമ്മറി	-11.4974
▁സഹിതം	-11.4984
▁അതെനിക്ക	-11.4986
▁സമയമെടുത്ത	-11.4988
▁ചുംബിച്ച	-11.4993
▁പുരാണ	-11.4997
▁അനശ്വര	-11.5002
▁അയല്‍ക്കാര	-11.5002
▁സംഗ്രഹ	-11.5006
▁അതിരാവിലെ	-11.5011
▁ഖജനാവ	-11.5011
ചേര്‍ന്ന	-11.5013
മടങ്ങ	-11.5017
▁ക്യാപ്റ്റന	-11.5017
▁തളര്‍ന്ന	-11.5017
▁നിരാശപ്പെടുത്ത	-11.5023
▁XX	-11.5024
▁അഡ്മിനിസ്ട്രേ	-11.5029
ാനൊരുങ്ങ	-11.5033
▁ബോര്‍ഡ	-11.5033
▁സാഹസിക	-11.5038
▁വിടുവിക്ക	-11.5039
▁തീരുമാനമെടുത്ത	-11.5041
▁Women	-11.5047
▁ഹ്രസ്വ	-11.5057
ജന്മ	-11.5057
കളുമായ	-11.5059
▁കഴിയുമെന്ന	-11.5059
▁യാഥാർഥ്യ	-11.5066
▁വൈരുദ്ധ്യ	-11.5066
▁മുറിവുകള	-11.5073
▁ടാഗുകൾ	-11.5075
▁മുരളി	-11.5075
▁ഭരമേ	-11.5076
▁ശ്വസിക്ക	-11.5079
▁ഗൂഗിള	-11.5084
▁ഉദര	-11.5084
സമ്പന്ന	-11.5087
4:1	-11.5088
▁ശപിച്ച	-11.5092
▁കൊതിക്കുന്ന	-11.5093
▁പേയ്മെന്റ്	-11.5103
സന്തോഷ	-11.5107
ക്കെതിരേ	-11.5108
▁1.5	-11.5109
▁നൂഹ്	-11.5112
▁under	-11.5114
▁പ്രസ്താവിച്ച	-11.5121
▁സ്റ്റാൻഡേർഡ്	-11.5121
▁please	-11.5121
▁വൈറല	-11.5123
▁കാണിച്ചുകൊടുക്ക	-11.5123
േട്ടൻ	-11.5125
കൂടുതല്‍	-11.5127
കുറച്ചു	-11.5129
▁കൊണ്ടിരിക്കുകയ	-11.513
▁ഇത്രയേറെ	-11.513
▁പ്രവാചകന്‍മാര	-11.5131
▁സമീപകാല	-11.5135
സ്വപ്ന	-11.5136
▁ആത്മാര്‍ഥമായി	-11.514
▁നിർവഹ	-11.514
▁കല്ലെറിയ	-11.5141
▁ഉപകാരപ്രദമ	-11.5145
സമ്മത	-11.5149
▁നിർഭാഗ്യവശാൽ	-11.5149
▁ഫോർമാറ്റ	-11.5151
▁link	-11.5151
▁കുരങ്ങ	-11.5152
▁പുതുവര്‍ഷ	-11.5153
▁മടക്കപ്പെട	-11.5157
▁ഗിത്താർ	-11.5158
▁വോൾട്ടേജ്	-11.5158
▁അണുബാധ	-11.5164
▁അതിക്രമികള	-11.5165
▁ദീര്‍ഘകാല	-11.5167
▁സ്പെക്ട്ര	-11.5168
▁അങ്ങോട്ടു	-11.5169
▁മൃതദേഹ	-11.517
▁കൊല്ലപ്പെടുകയ	-11.5171
▁വികസിപ്പിച്ചെടു	-11.5172
▁വിവാഹിതയ	-11.5173
സാമഗ്രി	-11.5176
ാകാനുള്ള	-11.5193
ിനെതിരായ	-11.5194
ദായക	-11.5194
▁കടന്നുപോകുന്ന	-11.5194
▁സജീവമാക്ക	-11.5194
▁വെളിപാട	-11.5196
▁വിശദ	-11.5202
▁അടിയന്തിര	-11.5205
▁പ്രീമിയം	-11.5205
▁അനുഗ്രഹീത	-11.5206
▁ശിക്ഷിക്കുന്നവന	-11.5207
▁പരിമിതപ്പെടുത്ത	-11.5207
▁സിഗ്നല	-11.5208
▁ഊർജ	-11.5208
വായന	-11.5209
ിക്കൊള്ളും	-11.5214
▁ഗവേഷകര	-11.5214
ഇതൊരു	-11.5222
▁ദ്രാവക	-11.5223
▁ഭയാനക	-11.5225
▁അമ്മയ്ക്ക	-11.5231
.(8	-11.5232
▁ബ്രാഹ്മണ	-11.5233
▁അല്ലാഹുവല്ലാതെ	-11.5233
▁സംരക്ഷക	-11.5241
▁സമ്മാനിച്ച	-11.5249
സങ്കീര്‍ത്തന	-11.5252
▁ഫ്ലൈറ്റ്	-11.5264
▁പരാജയപ്പെടുത്ത	-11.5265
അതായത്	-11.5268
▁ഡൽഹി	-11.527
▁സമ്മര്‍ദ്ദ	-11.528
▁കമ്മ്യൂണിസ്റ്റ	-11.528
▁ഒന്നാമതായി	-11.5281
▁വിഭജിക്ക	-11.5289
▁creat	-11.5291
▁പകർപ്പ	-11.5293
▁രണ്ടെണ്ണം	-11.5299
▁ചിത്രീകരിക്ക	-11.5299
▁സമാഹര	-11.5302
കണക്ക	-11.5303
▁നിര്‍ബന്ധിക്ക	-11.5304
സംവിധാന	-11.5306
▁കമ്യൂണിസ്റ്റ	-11.5308
മടക്ക	-11.5308
പോലുമില്ല	-11.5313
▁With	-11.5314
▁ഇടവക	-11.5323
ലക്ഷ്മി	-11.5324
▁വർദ്ധിക്ക	-11.5327
▁മുഴുകി	-11.5328
▁സെൽഫി	-11.5329
▁വുഡ്	-11.5336
▁അലോയ്	-11.5337
▁പായ്ക്ക	-11.5337
PubMed	-11.5346
കാണിച്ച	-11.5349
▁ഡിറ്റക്ടർ	-11.5355
▁ഉപയോക്തൃ	-11.5365
വിധേയ	-11.5365
▁give	-11.5366
മിത്രങ്ങള	-11.5373
ബ്ലൊച്ക്ഛൈന്	-11.5374
▁ഏല്പിക്ക	-11.5374
▁പാലിക്കുന്നവര	-11.5375
▁ലാഭിക്ക	-11.5377
▁നൂറുകണക്കിന്	-11.5384
▁പൊറുത്തുതരികയും	-11.5384
ഡൗൺ	-11.5384
▁അപകടസാധ്യത	-11.5384
medi	-11.5386
▁തകർത്തു	-11.5386
direct	-11.5402
▁നൊമ്പര	-11.5403
▁ബധിര	-11.5403
When	-11.5403
▁tri	-11.5406
▁eye	-11.5412
▁എനിക്കെന്റെ	-11.5413
▁നനഞ്ഞ	-11.5423
▁വൃത്തികെട്ട	-11.5423
പിശാച	-11.5424
▁സത്യസന്ദേശ	-11.5434
▁ഖനന	-11.5436
▁friend	-11.5441
▁പ്രേരണ	-11.5441
▁സർട്ടിഫിക്കേഷൻ	-11.5441
▁ദിവസങ്ങളില	-11.5444
സ്വന്തം	-11.5451
▁സ്ഥിരീകരിച്ച	-11.5454
സമിതി	-11.5461
▁ദൈവങ്ങള	-11.5469
▁സ്പർശ	-11.5479
▁അദ്ദേഹവും	-11.548
നിർണ്ണയ	-11.5482
▁എണീറ്റ	-11.5489
▁പ്ലാറ്റ്ഫോം	-11.5498
▁കുടിയേറ്റ	-11.5501
▁things	-11.5509
സ്വാതന്ത്ര്യ	-11.5509
matic	-11.5521
▁അനവധി	-11.5529
ാറായ	-11.5532
▁ലക്ഷണങ്ങള	-11.5534
▁തീര്ച്ച	-11.5535
▁ദൈവപുത്രന	-11.5535
▁ആരോപിക്ക	-11.5537
strict	-11.5537
▁ആസ്തി	-11.5538
▁ക്രൂശ	-11.5541
▁പൊറുക്കപ്പെട	-11.5544
▁വാഹനങ്ങള	-11.5545
▁Orphek	-11.5547
▁മല്‍സര	-11.5547
▁എന്നൊന്നും	-11.555
▁ട്രേഡിങ്ങ്	-11.5557
▁ആരോപിച്ച	-11.556
▁Online	-11.5566
▁സംവദിക്ക	-11.5567
▁പരിശീലകന	-11.5567
▁രണ്ടാമത്	-11.5567
ഓര്‍ക്കുക	-11.5568
ുകയുമാണെങ്കില്‍	-11.5571
▁കൊന്നുകളയ	-11.5579
▁ഗൂഗിൾ	-11.5585
▁story	-11.5587
▁great	-11.5595
മലയാള	-11.5607
▁ശാസ്ത്രജ്ഞര	-11.5614
▁മൊബൈല	-11.5617
▁കൂട്ടിച്ചേര്‍	-11.5619
പരീക്ഷ	-11.5623
ശ്രദ്ധേയമാകുന്നു	-11.5623
മാവുന്നു	-11.5624
▁ദമ്പതികള	-11.5624
▁വര്‍ധന	-11.5625
▁കഴിച്ചുകൂട്ട	-11.5627
സന്ദേശ	-11.5634
▁പ്രാർഥിക്ക	-11.5639
▁ഞെരുക്ക	-11.5644
▁ഐക്യനാടുകള	-11.5653
▁ഒന്‍പത	-11.5659
▁മുൻഗണന	-11.5663
ശത്രു	-11.5667
മണ്ഡല	-11.5668
▁over	-11.5674
▁ഉയിര്‍പ്പ	-11.5683
▁ഇനങ്ങൾ	-11.5705
▁ചെലവാക്ക	-11.5709
അദ്ധേഹ	-11.5712
▁കഴിവുറ്റവന	-11.5712
ency	-11.5722
ലക്ഷം	-11.5725
പതിനാറ	-11.5725
പ്രകടന	-11.5727
▁പ്രവർത്തനങ്ങള	-11.5731
▁ഇടയ്ക്കിടെ	-11.5732
▁ഉപഗ്രഹ	-11.5735
▁ഹര്‍ത്താല	-11.5736
▁അവയ്ക്കിടയില	-11.5745
▁ആപത്ത	-11.575
▁ഒക്ടോബര്‍	-11.5751
▁ച്ര്യ്പ്തൊ	-11.5751
▁ഡൌൺലോഡ്	-11.5751
▁ഉളവാക്ക	-11.5751
▁(199	-11.5771
▁ഓപ്പറേഷൻ	-11.5771
▁ഉണർത്ത	-11.5772
പൂർവം	-11.5781
▁ആദരിച്ച	-11.5781
പ്രഖ്യാപ	-11.5782
ENT	-11.5787
▁മിനിമം	-11.5792
▁ദയനീയ	-11.5793
▁അതീത	-11.5796
▁മുയല	-11.5798
▁വിക്കിപീഡിയ	-11.5801
▁ബെൽറ്റ്	-11.5801
▁കപ്പൽ	-11.5802
▁2:2	-11.5809
▁ബജാജ്	-11.5811
▁കച്ചവടക്കാര	-11.5829
▁പാശ്ചാത്യ	-11.5831
▁വീക്കം	-11.5833
ിരിക്കുമ്പോൾ	-11.5835
▁സച്ചിന	-11.5838
▁ഹൈഡ്രോളിക്	-11.584
▁നശിച്ചുപോക	-11.5844
▁യൂറോപ്യന്‍	-11.585
▁നരേന്ദ്ര	-11.585
▁മിസ്റ്റര്‍	-11.5853
▁കുപ്പായ	-11.5861
▁മുൻകൂട്ടി	-11.5862
▁ഇടുങ്ങിയ	-11.587
▁പ്രവചിച്ച	-11.5871
▁sl	-11.5871
ിട്ടുണ്ടായിരുന്ന	-11.5873
▁കേടുപാട	-11.588
▁മാറ്റിമറിക്ക	-11.5881
▁പൂരിപ്പിക്ക	-11.5884
▁നിത്യജീവന	-11.5885
നുസൃതമായ	-11.5888
▁follow	-11.589
▁ചൂണ്ടിക്കാട്ട	-11.589
▁സെന്റർ	-11.589
▁ഇടുക്കി	-11.5891
▁നേട്ടങ്ങള	-11.5891
തിനെക്കാൾ	-11.5895
▁കലാകാരന്മാര	-11.5896
രഹസ്യ	-11.5897
▁ഉപയോക്താവിന	-11.59
▁മനുഷ്യത്വ	-11.5901
വർഷങ്ങള	-11.5904
ൂട്ടിച്ചേര്‍ത്തു	-11.5905
▁ദൈർഘ്യം	-11.5912
▁ഏറെക്കുറെ	-11.592
▁മറച്ചുവെക്ക	-11.5927
▁പ്രായശ്ചിത്ത	-11.593
▁സ്വര്‍ഗീയാരാമ	-11.593
▁ദൌത്യ	-11.594
▁അല്‍പ്പം	-11.5942
▁ഇടപെടലുകള	-11.5945
▁ഒളിച്ചോട	-11.5949
സേവന	-11.5949
▁person	-11.5951
▁എങ്ങന	-11.5956
സ്നേഹം	-11.5958
▁ഇബ്റാഹീം	-11.5961
സെപ്തംബ	-11.5961
സാധ്യത	-11.5962
="6	-11.5962
തിരിച്ചുവിട	-11.5964
▁Blog	-11.5971
▁അവരുടേതായ	-11.5971
യിത്തീർന്ന	-11.5973
▁ഇനിപ്പറയുന്ന	-11.5975
മലിനീകരണ	-11.5988
▁അഭിനേതാക്കള	-11.5991
▁സ്തോത്ര	-11.5991
▁നരകാവകാശികള	-11.5991
▁വെളിപ്പെട	-11.5993
▁പാനല	-11.5996
മുൻപ	-11.6001
▁സന്ദർശക	-11.6001
▁ആകാശഭൂമികളുടെ	-11.6002
▁ആകാശത്തിലെ	-11.6002
▁അന്യായമായി	-11.6003
▁പിന്തുടർന്ന	-11.6011
▁പെരുന്നാള്‍	-11.6011
▁യാക്കോബ്	-11.6011
▁മടങ്ങിയെത്ത	-11.6012
പുരുഷന്മാര	-11.6016
evel	-11.6017
വാതില	-11.6017
▁ശ്രവിക്ക	-11.6021
▁ആരാധകന	-11.6022
▁മോട്ടോ	-11.6024
▁പ്രവര്‍ത്തകര്‍	-11.6025
ഭക്ഷണം	-11.603
▁ഹാക്കുചെയ്യുക	-11.6031
▁ഉദ്ധരിച്ച	-11.6031
▁ഫേസ്	-11.6033
▁ser	-11.6038
▁LORD	-11.6041
▁ശലോമോന	-11.6042
▁തേടിയെത്ത	-11.6042
▁എന്തെല്ലാമ	-11.6043
ഭ്യാസ	-11.6045
▁ചുരുങ്ങ	-11.6045
▁before	-11.6052
▁അടിപൊളി	-11.6062
▁ഹോർമോൺ	-11.6062
▁പൂര്‍ത്തീകരിക്ക	-11.6062
▁സഖാക്കള	-11.6062
▁പണ്ഡിതന്മാര	-11.6063
▁ഓരോരുത്തരുടെയും	-11.6063
ാരാധന	-11.6065
▁റാഈല	-11.6077
ചേര്‍ത്ത	-11.6082
United	-11.6082
▁ശരീരഭാരം	-11.6083
നത്തിലെ	-11.6088
▁ഡയറക്ടർ	-11.6092
▁വഴിയൊരുക്ക	-11.6093
▁അപൂർവ	-11.6094
▁സംഭവങ്ങള	-11.6094
▁അതിവേഗ	-11.6095
▁കരിയറ	-11.6098
സൗകര്യ	-11.6112
▁സർവ്വകലാശാല	-11.6113
▁പുകഴ്ത്ത	-11.6113
▁വലിച്ചെറിയ	-11.6123
▁നിങ്ങളോട	-11.6133
▁വോട്ടെടുപ്പ	-11.6134
▁power	-11.6143
▁അല്ലാഹുവിനോട	-11.6144
▁ഗ്രാമത്തില	-11.6158
▁Labels	-11.6164
▁ബിഷപ്പ	-11.6165
▁ഡയലോഗ	-11.6175
▁നമസ്കരിച്ചു	-11.6176
പുലര്‍ത്ത	-11.6185
▁മുസ്ലിമ	-11.6189
▁മറ്റെന്തെങ്കില	-11.6194
▁ഗൂഢാലോചന	-11.6195
0.0	-11.6196
▁ഐഹിക	-11.6198
▁വ്യാഴ	-11.6201
▁അവിടെയെത്ത	-11.6203
▁പലയിടത്തും	-11.6205
▁പിരിച്ചുവിട	-11.6206
▁Category	-11.6226
▁എക്കാലവും	-11.6226
തിഒന്	-11.6226
▁വിദ്യാർത്ഥികള	-11.6234
▁തിരുവനന്തപുരത്ത	-11.6236
▁ബാധ്യസ്ഥ	-11.6236
▁സ്ഥിരീകരിക്ക	-11.6237
▁മറികടന്ന	-11.6246
▁വിദേശികള	-11.6252
▁അഭ്യർത്ഥന	-11.6257
▁എയർപോർട്ട	-11.6258
ാനാകാത്ത	-11.6263
▁കമ്മീഷൻ	-11.6267
▁പേടിപ്പിക്ക	-11.6282
▁ആശ്വസിപ്പിക്ക	-11.6288
▁വ്യവഹാര	-11.6288
▁ശുഭവാര്‍ത്ത	-11.6289
▁download	-11.6298
▁സുപ്രീംകോടതി	-11.6298
▁condition	-11.6309
▁സൗമ്യ	-11.6311
▁ദ്വീപുകള	-11.6317
▁തെളിച്ച	-11.632
▁സുപ്രീം	-11.633
▁ഗവൺമെന്റ	-11.634
▁ദ്വാര	-11.6351
കയറ്റ	-11.6361
▁ജനിതക	-11.6361
▁പെണ്‍മക്കള	-11.6362
▁പതിനായിരം	-11.6364
ബിന്ദു	-11.6372
▁ബന്ധുവ	-11.6378
▁യഅ്ഖൂബ	-11.6382
▁തെറ്റിദ്ധരിക്ക	-11.6382
▁നൂറ്റാണ്ടിൽ	-11.6382
കൊണ്ടിരിക്കുകയാണ	-11.6383
▁നമുക്കിടയ	-11.6385
▁പിന്നോക്ക	-11.6393
graph	-11.6394
WEB	-11.6396
▁സ്വർണ്ണ	-11.6397
മെന്തെന്ന	-11.6407
▁ഫ്ള	-11.6414
▁ആയതിനാല്‍	-11.6415
ാസക്ത	-11.6423
ശേഷവും	-11.6424
▁പണക്കാര	-11.6426
▁സ്വാഗത	-11.6432
▁info	-11.6434
▁വേര്‍തിരി	-11.6444
▁ഡൗൺലോഡുകൾ	-11.6445
▁തുർക്കി	-11.6445
ിലാണെന്ന്	-11.6446
വാക്കുകള	-11.6454
▁എൻജിന	-11.6456
▁Medi	-11.646
▁കേരളത്തില	-11.6463
▁ചതുര	-11.6463
▁നിർദ്ദേശിക്ക	-11.6466
▁൧ക്സബെത്	-11.6466
▁spec	-11.6466
ൊഴുക്ക	-11.6468
▁കർശനമായ	-11.6477
▁മാത്യു	-11.6489
▁മായാജാല	-11.6496
▁ഇദ്ദേഹത്തിന്റെ	-11.6498
▁അസംബന്ധ	-11.6505
▁Kerala	-11.6509
▁Casino	-11.6519
▁കുളിമുറി	-11.652
▁ഉപയോഗപ്രദമ	-11.6528
▁പരിണമി	-11.6528
▁മരണമടഞ്ഞ	-11.653
▁പ്രത്യുത	-11.6534
▁രോഷ	-11.6538
▁പൊട്ടിത്തെറി	-11.6541
മുന്‍പ	-11.6543
▁സ്വര്‍ഗത്തില	-11.655
▁യൂണിവേഴ്	-11.6551
▁ആർക്കൈവ്	-11.6551
അയ്യോ	-11.6558
▁പരിഭവ	-11.6558
▁പ്ലെയ	-11.656
6:1	-11.6562
▁മുന്‍ഗാമികള	-11.6562
▁മനുഷ്യപുത്രാ	-11.6562
▁heaven	-11.6562
▁ഒബാമ	-11.6563
െതിരായി	-11.657
▁പെറു	-11.6573
▁കശ്മീരി	-11.6573
▁think	-11.6573
▁ഉറുമ്പ	-11.6573
യതിനെ	-11.6581
▁ആദരണീയ	-11.6583
▁കാത്തുസൂക്ഷിക്ക	-11.6583
▁റിപ്പബ്ലിക്	-11.6583
▁പ്രപഞ്ചനാഥന	-11.6585
▁പാരീസില	-11.6585
മൂടി	-11.6586
▁സൈറ്റുകള	-11.6589
▁സാക്ഷാത്	-11.6594
▁അവിവേക	-11.6594
ുണര്‍ത്ത	-11.6599
▁പാര്‍ശ്വഫല	-11.6605
▁വിവാഹിതന	-11.6609
struct	-11.6616
▁കമ്പ്യൂട്ടര്‍	-11.6626
▁തെറ്റിദ്ധരിപ്പി	-11.6626
▁ദേശീയോദ്യാന	-11.6626
ുനൽക	-11.663
▁നമ്പൂതിരി	-11.6637
▁ശ്വാസകോശ	-11.6637
▁സാവധാന	-11.6637
▁സമർപ്പിച്ച	-11.6639
▁തുടർച്ചയായ	-11.664
▁സ്മാരക	-11.6644
▁പ്രാരംഭ	-11.6648
ഇനിയും	-11.6657
▁പോഷകാഹാര	-11.6659
aff	-11.6666
▁ധര്‍മ്മനിഷ്ഠ	-11.667
▁ഇൻഷുറൻസ്	-11.667
▁വിപണന	-11.668
▁നിർമിച്ച	-11.6686
▁പിടിയിലായ	-11.6688
തരട്ടെയോ	-11.6688
▁ഹൃദയാഘാത	-11.6702
സുഹൃത്ത	-11.672
▁ലണ്ടൻ	-11.6724
▁പൗരന്മാര	-11.6725
▁ഇതുപോലൊരു	-11.6735
▁എസ്റ്റേറ്റ്	-11.6735
▁കള്ളപ്പണ	-11.6745
▁വസ്ത്രങ്ങള	-11.675
▁ചുണ്ടുകള	-11.6756
▁ഒൻപത	-11.6756
▁പുത്രന്മാര്‍	-11.6773
വെയറ	-11.6776
▁പാക്കിസ്ഥാന	-11.6778
▁ബ്രൗസ	-11.6779
▁ഹൗസ്	-11.678
▁അപ്രതീക്ഷിത	-11.6783
ത്തിനിരയാ	-11.6791
▁ഖത്തറ	-11.6792
▁വിമര്‍ശിച്ച	-11.68
▁സെർവർ	-11.68
പിന്നീട്	-11.6809
▁വിരലടയാള	-11.6811
▁അജ്ഞത	-11.6812
▁യുവത്വ	-11.6812
▁മുസ്ലിങ്ങള	-11.6822
▁സര്‍വ്വജ്ഞനു	-11.6822
▁മാത്രവുമല്ല	-11.6823
ിട്ടേയില്ല	-11.683
ദാര്‍ഢ്യ	-11.6833
▁ഉടനടി	-11.6833
▁മ്യൂസിക്	-11.6834
ാനാഗ്രഹിക്കുന്ന	-11.6843
▁ജാതക	-11.6844
സംഹാര	-11.6854
സ്വാമി	-11.6854
▁ബ്രസീല	-11.6856
സങ്കീർത്തനം	-11.6866
▁ജർമൻ	-11.6866
▁പാകിസ്താന	-11.6866
▁വെള്ളപ്പൊക്ക	-11.6866
▁ആകര്‍ഷിക്ക	-11.6874
▁Child	-11.6877
▁നുറുങ്ങ	-11.6877
▁പ്രോജക്റ്റ	-11.6888
▁പാവങ്ങള	-11.6889
▁ഇതിനോടകം	-11.6899
▁പൈതൃക	-11.6899
▁വിദ്വേഷ	-11.6899
▁ഇതുസംബന്ധിച്ച	-11.691
▁സംവിധായകര	-11.691
▁മലയാളത്തില	-11.6915
നിർമ്മാണ	-11.6919
▁യോശുവ	-11.6921
▁ഉപയോക്താവ്	-11.6921
▁മറ്റൊരാൾ	-11.6922
▁ഇൻസ്റ്റിറ്റ്യൂ	-11.6932
മകനേ	-11.6934
ദിവസവും	-11.6939
▁ശബ്ബത്ത	-11.694
വിദ്യാഭ്യാസ	-11.6943
▁യാന്ത്രിക	-11.6943
▁പ്രാർഥന	-11.6943
ക്കാരോട	-11.6948
▁മറ്റൊര	-11.6952
▁നോട്ട്ബുക്ക്	-11.6955
▁എല്ലാവരുടേയും	-11.6955
▁താഴെപ്പറയുന്ന	-11.6955
▁കാലഘട്ടത്തില	-11.6968
▁ഭക്തന്മാര	-11.6975
▁പരിചരിക്ക	-11.6977
▁കാലിഫോർണിയ	-11.6988
▁system	-11.6988
▁മറ്റൊരിടത്ത	-11.6996
▁ലൂത്വ്	-11.6999
▁അമ്പരപ്പ	-11.7
ൊരിക്കൽ	-11.7004
ക്കിഷ്ടമ	-11.7004
▁ദൈവഹിത	-11.701
▁മാനുവൽ	-11.7021
കല്പന	-11.7022
▁5:2	-11.7029
▁നവോത്ഥാന	-11.7033
▁സംഘർഷ	-11.7033
▁പരിഹരിച്ച	-11.7033
▁നിർമിക്ക	-11.7041
▁നിർണായക	-11.7044
▁ബലാത്സംഗ	-11.7044
▁എഞ്ചിനീയർ	-11.7044
▁ഓര്‍മ്മിപ്പിക്ക	-11.7048
▁അന്തസ്സ	-11.7049
ുദ്ദേശിക്കുന്ന	-11.7064
ഗീകരിക്ക	-11.7065
▁ലോകമഹായുദ്ധ	-11.7066
malayalam	-11.7078
▁ലോഗിൻ	-11.7078
മാക്കാന	-11.7081
▁അനന്തരാവകാശ	-11.7089
▁അക്കൌണ്ട	-11.7089
▁ആപ്ലിക്കേഷൻ	-11.71
ൊതുക്ക	-11.7107
ന്മാരോടു	-11.7114
▁Power	-11.7123
▁തസ്തിക	-11.7123
▁സർട്ടിഫിക്കറ്റ്	-11.7134
▁അതിമനോഹര	-11.7145
വ്യക്തി	-11.7148
▁സഹായകമാക	-11.7153
▁അരുള്‍	-11.7157
േട്ടന്റെ	-11.716
ോരോരുത്തര	-11.7163
▁മായ്ക്ക	-11.7165
▁നിയന്ത്രിച്ച	-11.7168
▁അമ്മൂമ്മ	-11.7168
▁പെട്രോള	-11.7168
▁വികസിക്ക	-11.7173
▁സ്വാതന്ത്യ	-11.7179
വത്കരണ	-11.718
▁പര്‍വതങ്ങള	-11.719
▁പാർശ്വഫലങ്ങൾ	-11.7191
▁ഒറ്റയടി	-11.7192
▁ഫാമിലി	-11.7202
▁URL	-11.7202
▁തിയ്യതി	-11.7202
▁place	-11.7202
▁ഇനിയൊരിക്കലും	-11.7202
▁ഇത്തരത്തിൽ	-11.7203
▁കാഠിന്യ	-11.7214
▁ഇന്‍ഡ്യ	-11.7215
▁സാധ്യമാക്ക	-11.7219
▁പേഴ്സണല്‍	-11.7225
▁സ്ഥാനാര്‍ഥി	-11.7225
ുണ്ടാകുമോ	-11.723
ഭാഗങ്ങള	-11.723
▁വിമർശന	-11.7236
▁title	-11.7236
▁പാക്കിംഗ്	-11.7237
▁ഖുറാന	-11.7237
▁ബദല	-11.7241
present	-11.7248
▁അങ്ങനെയെങ്കിൽ	-11.7248
മേനോന	-11.7249
▁ഇന്റീരിയർ	-11.7259
▁എന്തെന്നാൽ	-11.7259
▁പ്രണമിക്ക	-11.726
▁ദുല്‍ഖര്‍	-11.7271
▁ദ്രുത	-11.7271
തൊഴിലാളി	-11.7276
▁Write	-11.728
▁ഞാനിപ്പോള്‍	-11.7283
▁ദൈവീക	-11.7286
▁മുസ്ലീങ്ങള	-11.729
▁വിവരിച്ചുകൊടു	-11.7291
▁Islam	-11.7294
▁ഖുർആൻ	-11.7294
▁തുറമുഖ	-11.7294
▁കണ്ടറിയുന്നവന	-11.7296
▁ജോർജ്	-11.7301
▁മാതാപിതാക്കളോട	-11.7303
▁സെക്യൂരിറ്റി	-11.7305
▁വലിച്ചിഴ	-11.7305
▁ഗള്‍ഫ	-11.7306
▁she	-11.7307
ഇതെന്ത	-11.7315
▁Israel	-11.7328
▁ടേബിള	-11.7328
▁വാറന്റി	-11.7328
▁ഇരുവരുടെയും	-11.7328
▁വിവരമറിയിക്ക	-11.7329
▁സഹപ്രവര്‍ത്തക	-11.7329
▁വിരള	-11.7333
▁ഓപ്പറേഷന	-11.734
▁game	-11.7342
▁ശില്പ	-11.7348
▁പൂര്‍വികര	-11.7352
▁മഹാത്മാ	-11.7357
▁കണക്ട	-11.7357
▁ബഹുദൈവവിശ്വാസി	-11.7373
▁അത്രയേറെ	-11.7375
▁ഒഴിപ്പ	-11.7379
നക്ഷത്ര	-11.738
▁വിലപിക്ക	-11.738
വിലാസ	-11.7385
▁വേനൽക്കാല	-11.7386
▁ജമാഅത്ത	-11.7387
▁പാര്‍പ്പിട	-11.7398
▁മെലിഞ്ഞ	-11.7398
▁Language	-11.7409
▁കിലോമീറ്ററ	-11.7421
▁എണീക്ക	-11.7433
▁ചിലവഴിച്ച	-11.7435
▁കര്‍ത്താവായ	-11.7435
▁ക്രിപ്റ്റോ	-11.7443
▁പുതപ്പ	-11.7443
▁പുരുഷാരം	-11.7445
▁നിര്‍ദേശിക്ക	-11.7453
മുനിസിപ്പാലിറ്റി	-11.7456
▁ബാക്ടീരിയ	-11.7468
▁നാല്പതു	-11.7468
▁അങ്ങനെയിരിക്കെ	-11.7468
കര്‍ത്താക്കള	-11.7468
വർദ്ധന	-11.7469
െന്തിനു	-11.7476
▁photo	-11.7478
▁സ്പ്രിംഗ്	-11.7491
▁സാഹചര്യത്തില	-11.7495
ാലോചിച്ച	-11.7496
▁പ്രകൃതിദത്ത	-11.7503
▁സാധുവ	-11.751
▁ചാമ്പ്യ	-11.7515
▁തൃശൂര	-11.7515
▁അനുസൃതമായി	-11.7527
▁വരയ്ക്ക	-11.7533
ൊതുങ്ങ	-11.7536
▁History	-11.7538
▁പുറപ്പെടുവിക്ക	-11.7539
▁ഇൻഡസ്ട്രിയൽ	-11.755
▁പൃഥ്വി	-11.755
▁സോഷ്യല്‍	-11.755
▁മുറ്റത്ത	-11.7554
world	-11.7558
▁വേലക്കാര	-11.756
▁പടയാളി	-11.7562
൦ംമ്	-11.7568
▁അതിന്റേതായ	-11.7574
▁ഇബാദത്ത	-11.7574
▁മെസ്സേജ	-11.7586
സംശയ	-11.7594
▁11:2	-11.7596
▁കോർപ്പറേറ്റ്	-11.7597
▁ക്വാളിറ്റി	-11.7597
ified	-11.7598
▁സ്റ്റോക്ക്	-11.7598
▁സങ്കീര്‍ണ	-11.7599
▁അഴുക്ക	-11.7603
▁ചെന്നെത്ത	-11.7609
ുളവാക്ക	-11.7614
▁Microsoft	-11.7621
▁സോളാർ	-11.7621
▁താമസിയാതെ	-11.7621
▁ഒരിടത്തും	-11.7621
▁സ്വഹാബ	-11.7623
▁മൃദുവായ	-11.7629
സത്യവിശ്വാസികളേ	-11.763
▁ചോക്ലേറ്റ്	-11.7633
▁ഒന്നാമന	-11.7634
▁സ്റ്റോർ	-11.7634
▁വിഭജന	-11.7645
▁ടെലിവിഷന	-11.7645
▁കേൾപ്പ	-11.7646
ാതവണ്ണം	-11.7651
▁പിടികിട്ടി	-11.7653
▁അഡ്രസ്	-11.7657
▁കഅ്ബ	-11.7657
▁കുലുക്ക	-11.7657
▁പ്രലോഭന	-11.7669
▁Windows	-11.7669
▁മനസിലാവ	-11.7669
▁വേട്ടക്കാര	-11.7672
▁ഉടലെടു	-11.7674
▁അസംസ്കൃത	-11.7681
▁ഇന്റർനാഷണൽ	-11.7681
വ്യത്യാസ	-11.7691
▁മഞ്ജു	-11.7714
[...]
