<unk>	0
<s>	0
</s>	0
.	-2.82173
▁	-4.13771
,	-4.15077
ം	-4.35556
്	-4.54715
ു	-4.92516
▁ഒരു	-5.00467
?	-5.18382
ും	-5.20451
:	-5.22756
മ	-5.44275
യ	-5.44455
ി	-5.53045
▁ഈ	-5.55393
ത	-5.5859
ാ	-5.59177
)	-5.61183
ത്	-5.66961
വ	-5.67116
▁ആ	-5.67278
ക്ക	-5.70761
യും	-5.7109
;	-5.73644
▁(	-5.77933
േ	-5.82239
ക	-5.83957
സ്	-5.85663
സ	-5.86343
ന	-5.8638
ര	-5.89651
െ	-5.916
റ	-5.92664
വും	-5.94044
▁അ	-6.00146
ുക	-6.07141
ല	-6.13087
ത്ത	-6.13094
ോ	-6.13626
-	-6.16351
▁ഞാന്‍	-6.17265
ുന്നു	-6.18022
ാണ്	-6.18686
▁"	-6.19514
ർ	-6.2192
ക്ക്	-6.22966
▁അത്	-6.23854
▁അവര്‍	-6.25816
ങ്ങള്‍	-6.26336
യുടെ	-6.27607
▁നീ	-6.27989
ില്‍	-6.28516
ാൻ	-6.2884
ൽ	-6.29195
ാന്‍	-6.29716
ുന്ന	-6.30579
!	-6.30842
s	-6.31617
▁എന്റെ	-6.33072
മായ	-6.33961
മാണ്	-6.34032
▁ഞാൻ	-6.34477
ില്ല	-6.37194
ങ്ങൾ	-6.38987
ിൽ	-6.3948
▁നിങ്ങളുടെ	-6.39619
ന്‍	-6.39887
ൻ	-6.41535
▁തന്നെ	-6.43929
▁പറഞ്ഞു	-6.4503
്‍	-6.45828
ൂ	-6.46784
യാണ്	-6.4683
ുകയും	-6.49487
▁എന്ന	-6.4974
ത്തില്‍	-6.50017
▁“	-6.50432
ര്‍	-6.50513
▁നിങ്ങള്‍	-6.52171
മായി	-6.5268
ണം	-6.56986
▁ഇത്	-6.59383
ണ	-6.60485
▁-	-6.62281
▁നാം	-6.6375
യെ	-6.65866
ല്‍	-6.65964
ള	-6.66035
കൾ	-6.6663
t	-6.67461
ട	-6.6878
കള്‍	-6.6984
യില്‍	-6.70383
ുന്നത്	-6.70438
ാം	-6.71769
ത്തിന്റെ	-6.72149
നി	-6.74024
പ	-6.75798
ത്തെ	-6.75891
അ	-6.76012
ക്	-6.76241
▁അവരുടെ	-6.76793
▁അല്ലാഹു	-6.76982
▁ക	-6.78759
ുകൾ	-6.79181
യിൽ	-6.8134
പ്പ	-6.82127
ത്തിൽ	-6.82323
ന്	-6.83578
ിന്റെ	-6.84425
g	-6.85923
▁എന്ന്	-6.87287
▁എന്നാല്‍	-6.89304
▁നിങ്ങൾ	-6.90944
ിയ	-6.91456
യോ	-6.9209
തു	-6.92649
ായ	-6.95691
▁?	-6.9619
ുള്ള	-6.96458
▁മ	-6.97881
▁അവന്‍	-6.98472
▁നല്ല	-6.99624
ിച്ചു	-7.00589
▁എല്ലാ	-7.00727
▁അദ്ദേഹം	-7.01112
ായി	-7.01293
"	-7.02859
▁ഇ	-7.03728
▁സ	-7.03773
ീ	-7.05021
▁നമ്മുടെ	-7.05449
ിലെ	-7.05718
ച്ച	-7.06951
▁വളരെ	-7.07598
ല്ല	-7.07927
▁എന്നെ	-7.08347
▁‘	-7.08698
▁എനിക്ക്	-7.09508
▁നിന്ന്	-7.09647
▁'	-7.10114
'	-7.10571
ക്കു	-7.11096
ിരിക്കുന്നു	-7.11403
▁വി	-7.13986
ട്ട	-7.14906
ങ്ങളും	-7.15475
▁എന്നു	-7.15865
▁ചെയ്ത	-7.16683
▁ചെയ്തു	-7.17264
യ്	-7.17282
റ്റ	-7.17322
▁ഏറ്റവും	-7.17557
ത്തിന്	-7.18653
മാ	-7.18825
ക്കും	-7.1922
▁ഇവിടെ	-7.19803
▁അങ്ങനെ	-7.20617
▁അവർ	-7.21221
▁ന	-7.2138
▁ത	-7.21647
▁അവരെ	-7.22084
▁വലിയ	-7.22222
▁ചില	-7.23538
▁എ	-7.24137
▁സ്	-7.24751
ിനെ	-7.2493
വി	-7.25844
ഡ്	-7.26944
ദ	-7.27532
▁അതു	-7.28311
സി	-7.28503
▁വഴി	-7.29399
.”	-7.3031
”	-7.30687
▁നിന്റെ	-7.31289
ലി	-7.32324
ാല്‍	-7.32337
▁പോലെ	-7.32428
ുകള്‍	-7.32581
വര്‍	-7.3299
ച	-7.33955
യാ	-7.34011
▁പ	-7.35868
തി	-7.36265
▁അവ	-7.3649
യുള്ള	-7.36519
’	-7.3654
▁ചെയ്യ	-7.37216
ശ	-7.37781
ൊ	-7.38032
ഹ	-7.38875
▁അവിടെ	-7.38966
e	-7.39438
▁പുതിയ	-7.40219
വര	-7.40296
▁ആണ്	-7.40484
▁the	-7.4087
ിച്ച	-7.40892
പ്പെട്ട	-7.41438
ന്റെ	-7.41552
ിരുന്നു	-7.4267
▁ഉ	-7.42804
കളും	-7.43155
▁പറഞ്ഞ	-7.43506
▁വ	-7.44506
▁...	-7.45339
▁അവൻ	-7.45426
ങ്ങ	-7.46191
മോ	-7.46456
▁1	-7.46544
(	-7.46641
▁എന്നാൽ	-7.47012
ഗ	-7.47275
ായിരുന്നു	-7.47302
▁വര	-7.47304
ന്ന	-7.47779
ിക്ക	-7.47795
▁പ്ര	-7.48602
▁തന്റെ	-7.49379
ജ	-7.49634
▁ഓരോ	-7.49937
▁പക്ഷേ	-7.50005
n	-7.50175
▁&	-7.50381
y	-7.51087
▁നിങ്ങളെ	-7.51534
▁ഇനി	-7.51681
▁19	-7.52098
ങ്ങളുടെ	-7.53423
▁കാരണം	-7.53493
▁വേണ്ടി	-7.53569
റി	-7.5357
▁പല	-7.53757
▁പിന്നെ	-7.54395
▁എങ്ങനെ	-7.54531
താണ്	-7.55153
▁കഴിഞ്ഞ	-7.55225
▁ദിവസം	-7.55256
▁മാത്രം	-7.55883
ഇ	-7.56153
ഡ	-7.56498
▁വാ	-7.57915
ണ്ട	-7.5844
ിന്	-7.58667
▁ഞാന	-7.59089
ങ്ങളെ	-7.59092
ാൽ	-7.59206
മുള്ള	-7.59535
▁തീര്‍ച്ചയായും	-7.59713
▁പറയുന്നു	-7.59807
നെ	-7.59892
▁അവന്റെ	-7.60334
▁ഞങ്ങളുടെ	-7.60883
▁നിന്നും	-7.61299
റ്റ്	-7.61576
▁ദൈവ	-7.61693
ൊരു	-7.61848
രുത്	-7.6238
ഷ	-7.6296
▁of	-7.62963
▁രണ്ടു	-7.63139
രി	-7.63237
."	-7.63553
▁ഇല്ല	-7.64027
▁ചെയ്യും	-7.64427
▁കൂടുതൽ	-7.64903
പ്ര	-7.65049
നം	-7.6585
കള	-7.65855
▁വീണ്ടും	-7.6617
al	-7.66225
▁ഓ	-7.66232
ട്ടെ	-7.6633
▁2	-7.66473
▁അടുത്ത	-7.66593
ങ്ക	-7.6677
ൾ	-7.67091
ുണ്ട്	-7.67229
ത്ത്	-7.67879
▁പക്ഷെ	-7.68143
ാത്ത	-7.68223
▁നി	-7.68263
ുമോ	-7.68436
വാ	-7.68442
നാ	-7.68448
▁ചെയ്യുന്ന	-7.68695
▁കാണ	-7.69151
ത്തി	-7.69217
മ്മ	-7.69353
▁അവനെ	-7.69647
തും	-7.69788
▁ഞങ്ങൾ	-7.69964
ാനും	-7.70258
▁കൈ	-7.70282
കളെ	-7.70343
ാതെ	-7.70919
എ	-7.71259
▁ജോലി	-7.72028
ടി	-7.72249
▁കൊണ്ട്	-7.72405
യിലെ	-7.73171
വർ	-7.73259
ഴ	-7.73389
▁എത്ര	-7.74279
ുടെ	-7.74973
യായി	-7.75297
▁അത	-7.75406
▁ഞങ്ങള്‍	-7.75637
▁വന്ന	-7.75744
▁പറയ	-7.76505
പ്പോള്‍	-7.76585
er	-7.77103
▁അതിന്റെ	-7.77187
മി	-7.77502
ിട്ടില്ല	-7.78779
വരെ	-7.7935
ങ്ങളില്‍	-7.79422
മ്പ	-7.79769
കളുടെ	-7.79803
▁കഥ	-7.79915
▁ഇട	-7.80091
രു	-7.80813
▁ഇതു	-7.81567
▁എല്ലാം	-7.81579
▁ദൈവം	-7.81617
ുമ്പോള്‍	-7.81922
പി	-7.82116
▁കണ്ട	-7.82291
ില	-7.82471
▁ശേഷം	-7.8259
▁നിന്നെ	-7.82811
ിട്ടുണ്ട്	-7.82945
▁ഹ	-7.83012
o	-7.83217
▁വരെ	-7.83285
▁കൂടുതല്‍	-7.83725
▁സമയം	-7.84112
▁ശിക്ഷ	-7.842
▁നിങ്ങള്‍ക്ക്	-7.84418
▁അവര്‍ക്ക്	-7.84507
ൈ	-7.84572
▁കൂടി	-7.84638
ിക	-7.84742
▁ച	-7.84795
ുകയാണ്	-7.84977
ുന്നില്ല	-7.85356
▁3	-7.85516
▁അപ്പോള്‍	-7.85547
▁കാര്യം	-7.86015
ച്ചു	-7.86799
ത്തു	-7.87761
▁നമുക്ക്	-7.8779
▁P	-7.87836
ക്കി	-7.87964
c	-7.8834
▁എന്‍റെ	-7.88408
▁സത്യം	-7.88575
റിയ	-7.8897
▁5	-7.89346
മായിരുന്നു	-7.89661
ിക്കുന്ന	-7.8973
▁/	-7.89929
▁ആദ്യ	-7.89999
ദ്	-7.90139
▁ബ	-7.90147
▁സി	-7.90163
▁എന്താണ്	-7.90318
▁ചെയ്യുന്നു	-7.90386
▁കോ	-7.90547
a	-7.90561
തന്നെ	-7.90628
ബ	-7.90802
നായ	-7.91187
ത്തിനു	-7.91355
ed	-7.91394
ഡി	-7.91836
ുകയില്ല	-7.91849
ഫ	-7.91923
ing	-7.91969
ിംഗ്	-7.92006
മില്ല	-7.92037
▁S	-7.92391
മല്ല	-7.92744
▁A	-7.92975
ബി	-7.93367
▁അല്ല	-7.936
▁എവിടെ	-7.93649
യ്ക്ക്	-7.9417
വ്	-7.94202
കര	-7.94377
െങ്കിലും	-7.95117
f	-7.95381
▁യാത്ര	-7.95816
യില	-7.95996
▁അവര	-7.96099
▁ഇന്ന്	-7.96387
▁to	-7.96454
▁C	-7.96514
/	-7.96774
▁വില	-7.96792
r	-7.96811
ബ്	-7.96824
ഭ	-7.97091
ര്	-7.9749
ൺ	-7.97607
പ്	-7.97989
നും	-7.98252
▁ശ	-7.98487
▁കാല	-7.98607
യി	-7.99121
A	-7.9916
▁B	-7.9937
ാലും	-7.99768
▁ഉണ്ട്	-8.00355
വന്‍	-8.00514
▁രണ്ട്	-8.00725
▁തന്നെയാണ്	-8.00917
▁പോയി	-8.00919
േണ്ട	-8.01735
▁ഇവ	-8.01957
▁ഇങ്ങനെ	-8.02109
ിത	-8.02411
▁പി	-8.02503
▁നന്ദി	-8.02822
1	-8.03001
▁കൂടെ	-8.03345
ിരുന്ന	-8.03952
ിലും	-8.04051
യില്ല	-8.04223
▁ഒരിക്കലും	-8.04356
▁അല്ലെങ്കിൽ	-8.04357
▁വന്നു	-8.04465
ിലേക്ക്	-8.04515
▁4	-8.04539
▁ചെയ്യുക	-8.04726
▁സത്യ	-8.04809
▁ഉള്ള	-8.04866
ണി	-8.0498
ഗ്	-8.04995
S	-8.0506
ിനു	-8.05217
▁അതിനാല്‍	-8.05288
മുണ്ട്	-8.05346
മേ	-8.0541
▁എന്തു	-8.06007
▁മറ്റു	-8.06046
▁മറ്റൊരു	-8.06133
ക്ഷ	-8.06306
in	-8.06314
▁ഇപ്പോൾ	-8.06465
വേ	-8.06472
▁കാ	-8.06562
ുമ്പോൾ	-8.06783
▁കഴിയും	-8.07355
▁നിങ്ങൾക്ക്	-8.07578
▁അമ്മ	-8.07831
▁പോലും	-8.08568
▁10	-8.09139
▁നില	-8.09358
ോട്	-8.09412
▁സെ	-8.09525
ുകളും	-8.09527
?”	-8.09583
▁ചെറിയ	-8.09688
ാവ	-8.0973
]	-8.09804
▁!	-8.10254
താ	-8.10306
▁പാ	-8.10342
ar	-8.10368
▁അതിനെ	-8.10503
▁ല	-8.1086
ലാ	-8.10891
▁and	-8.10962
D	-8.11071
p	-8.11317
▁ഇപ്പോള്‍	-8.11487
നു	-8.12122
▁ഗ	-8.12334
▁ഒന്നും	-8.1237
C	-8.12457
▁മാ	-8.12599
▁അതില്‍	-8.13287
▁–	-8.13397
▁മു	-8.13676
▁നിയമ	-8.13755
ുവാന്‍	-8.13813
ജി	-8.13837
ള്‍	-8.13874
ആ	-8.13903
▁പിന്നീട്	-8.13966
▁അവൾ	-8.13976
ത്ര	-8.141
▁”	-8.14137
▁വേണം	-8.14158
പ്പെട	-8.14403
നുള്ള	-8.14559
ല്	-8.14584
ാണോ	-8.14866
▁in	-8.14996
ന്‍റെ	-8.15046
▁എനിക്ക	-8.15049
P	-8.15108
i	-8.15749
▁നിങ്ങള	-8.15907
▁മികച്ച	-8.16177
l	-8.1628
▁ഏറെ	-8.16543
▁ജന	-8.16666
ാര	-8.16916
m	-8.17077
u	-8.17323
▁തങ്ങളുടെ	-8.1735
I	-8.17614
▁സിനിമ	-8.18049
▁M	-8.18089
▁എനിക്കു	-8.18316
▁''	-8.18525
▁ഏ	-8.18527
▁അവള്‍	-8.18725
ങ്ങളിൽ	-8.18844
re	-8.19194
ുമായി	-8.19577
▁അറിയ	-8.19601
ഷ്	-8.19946
നീ	-8.20166
▁സ്വന്തം	-8.20481
▁പറയുക	-8.20489
ന്നു	-8.20563
യായിരുന്നു	-8.20704
▁എല്ലാവരും	-8.20756
▁തല	-8.20853
▁നിനക്ക്	-8.21073
▁F	-8.21173
▁പ്രധാന	-8.21327
▁കു	-8.21547
▁സ്വയം	-8.21792
an	-8.2189
പ്പ്	-8.21974
▁കണ്ടു	-8.22057
ല്ലോ	-8.22191
പ്പെടുത്ത	-8.22353
▁a	-8.22405
ിക്കുന്നു	-8.22503
റ്റി	-8.22745
▁ജീവിത	-8.22785
▁ഒ	-8.22919
▁മെ	-8.2312
▁തീ	-8.23283
ന്ത	-8.23631
▁രൂപ	-8.24032
▁ആദ്യം	-8.24404
ഞ്ഞ	-8.24732
ട്ടി	-8.24774
ധ	-8.25068
▁മാറ്റ	-8.25114
▁ഇത	-8.25482
▁കേട്ട	-8.25567
ിട്ട	-8.25696
സാ	-8.25755
ിട	-8.25799
▁ചോദിച്ചു	-8.2584
▁അതിനു	-8.26106
▁നോക്ക	-8.2614
ളി	-8.26344
ുമെന്ന്	-8.26524
യായ	-8.26623
3	-8.26694
▁പോയ	-8.26761
▁രാത്രി	-8.26769
ഥ	-8.27228
ണ്‍	-8.27283
▁ജ	-8.27549
▁കുടുംബ	-8.27629
▁മറുപടി	-8.27778
▁ആയിരുന്നു	-8.28269
ഖ	-8.28271
5	-8.28284
ഫ്	-8.28287
▁T	-8.2832
▁ട	-8.28461
b	-8.28723
▁നിന്ന	-8.28847
▁ലോക	-8.28899
d	-8.29389
കളില്‍	-8.29494
ലെ	-8.29508
െന്ന്	-8.29594
or	-8.29598
▁മരണ	-8.29871
▁സു	-8.29953
E	-8.30021
▁പോക	-8.30044
2	-8.30499
▁മുമ്പ്	-8.30582
പ്പോൾ	-8.30731
ക്കാ	-8.31153
▁തര	-8.31175
le	-8.31319
യല്ല	-8.31713
▁എഴുത	-8.31735
▁അല്ലാഹുവിന്റെ	-8.31792
▁ജീവിതം	-8.31807
▁6	-8.31962
ര്‍ത്ത	-8.32133
ൗ	-8.32143
ത്തോടെ	-8.32397
ുന്നതിന്	-8.32784
▁കൂട്ട	-8.32799
▁മി	-8.32808
▁ഐ	-8.32938
▁ചോദ്യം	-8.33453
▁പോ	-8.33489
▁ഭാഷ	-8.3378
▁നിന്നു	-8.33865
▁അവളുടെ	-8.34132
ാണ	-8.3457
പോലെ	-8.34618
M	-8.34765
▁ഒന്ന	-8.34812
▁ബാ	-8.34814
▁എന്ത്	-8.35028
T	-8.35108
▁മാത്രമാണ്	-8.35324
രെ	-8.35788
▁കഴിയ	-8.35945
▁പറയും	-8.35951
▁കാര്യ	-8.35962
▁കളി	-8.3598
▁നന്നായി	-8.36147
O	-8.36157
amp	-8.36173
കാര	-8.36188
▁മത	-8.36203
യർ	-8.36363
▁പറയുന്നത്	-8.36516
▁പ്രതി	-8.36817
ിരിക്കുന്നത്	-8.37529
▁ആരും	-8.37689
ായിരിക്കും	-8.37914
▁വെ	-8.38139
▁വരും	-8.38203
▁അതിന്	-8.38228
▁കൊടുക്ക	-8.38321
.’	-8.38422
▁സ്വ	-8.38498
▁ദ	-8.39042
▁ശരി	-8.39088
?"	-8.39103
കൊണ്ട്	-8.39494
രിക്ക	-8.39599
▁I	-8.39864
▁രാജ്യ	-8.39962
▁ബി	-8.40026
ുന്നതാണ്	-8.40102
▁അല്ലെങ്കില്‍	-8.40142
▁മാത്രമേ	-8.40272
▁നടത്ത	-8.40609
ട്ട്	-8.40615
രാ	-8.40663
▁_	-8.40676
▁c	-8.40792
▁7	-8.41076
▁എപ്പോഴും	-8.4109
തിന്	-8.41184
▁ഇത്തരം	-8.41283
▁വേണ്ട	-8.41346
▁സ്ത്രീ	-8.41399
▁എന്നിവ	-8.41502
▁മൂന്നു	-8.4169
en	-8.41691
യുണ്ട്	-8.41756
00	-8.42026
▁എന്നും	-8.4221
▁പറയുന്ന	-8.42508
തില്‍	-8.42636
▁നോക്കി	-8.42928
▁എടുക്ക	-8.42991
it	-8.43141
▁ഞാനും	-8.43274
ുമായിരുന്നു	-8.43664
▁ഞങ്ങളെ	-8.43669
പ്പെട്ടു	-8.43677
▁ദിവസ	-8.43786
th	-8.44089
നായി	-8.44151
▁G	-8.44294
▁നാ	-8.44323
▁ചൈന	-8.44843
▁വാങ്ങ	-8.44977
L	-8.4507
ണ്ണ	-8.4514
തര	-8.45225
ുന്നുണ്ട്	-8.45376
▁ഡി	-8.45752
▁എങ്കിലും	-8.45823
▁എന്നത്	-8.45957
ിരിക്കുന്ന	-8.46027
തായി	-8.46133
ിട്ടു	-8.46538
▁സാ	-8.46591
വരുടെ	-8.46595
▁കട	-8.46709
▁H	-8.46766
▁8	-8.46918
▁അവന	-8.4693
▁തു	-8.46958
▁കമ്പനി	-8.47055
▁ആയി	-8.47151
മാര	-8.47219
4	-8.47354
▁ഒരേ	-8.47527
▁ഹൃദയ	-8.47703
ൊക്കെ	-8.48111
ള്ള	-8.48182
▁12	-8.48185
▁പരി	-8.48208
‍	-8.48266
ത്തിന്‍റെ	-8.48339
▁ശക്തി	-8.48392
▁യഹോവ	-8.48429
ത്തിലും	-8.48462
▁നല്‍കിയ	-8.48754
▁18	-8.4901
ാക്ക	-8.49362
▁തോ	-8.49426
▁അവസാന	-8.49617
▁പദ്ധതി	-8.4966
▁സമയ	-8.49752
ിക്കുക	-8.498
ലോ	-8.49821
ാകുന്നു	-8.49884
സ്റ്റ	-8.50008
▁ഫ	-8.50049
ക്കുള്ള	-8.50098
▁സാധാരണ	-8.50132
വരും	-8.50263
ുകയോ	-8.50281
▁അയാള്‍	-8.5055
▁ബന്ധ	-8.50561
ation	-8.50679
▁തിരിച്ചു	-8.5086
▁കഴിക്ക	-8.51013
▁മാത്രമല്ല	-8.5126
▁തന്ന	-8.51324
▁E	-8.51407
▁നല്‍ക	-8.51422
രോ	-8.51657
▁അതെ	-8.51872
ിട്ട്	-8.52214
ാവുന്ന	-8.52237
▁വിശ്വസിക്ക	-8.52294
▁മതി	-8.52382
▁മനസ്സിലാക്ക	-8.52424
▁സംസാരിക്ക	-8.52609
വെ	-8.52616
▁യേശു	-8.52616
▁പേര്	-8.52642
▁ഉണ്ടാക	-8.52644
▁W	-8.52944
▁D	-8.53242
െന്ന	-8.53265
▁ഒര	-8.53421
▁9	-8.53591
▁താ	-8.53709
▁തുടങ്ങി	-8.53894
B	-8.53897
▁എന്നാണ്	-8.5392
നേ	-8.54088
ic	-8.54195
െയും	-8.54318
▁പെ	-8.54435
ദാ	-8.54556
at	-8.54682
ച്ച്	-8.54808
ിച്ച്	-8.54967
▁കണ്ടെത്ത	-8.55124
▁കാര്യങ്ങള്‍	-8.55212
lt	-8.55369
ക്കോ	-8.55396
വന	-8.55443
▁പഴയ	-8.55734
ur	-8.55981
▁പണം	-8.56523
ാല	-8.56564
െല്ലാം	-8.567
▁ആകാശ	-8.56751
▁കുട്ടി	-8.56793
യേ	-8.56958
നോ	-8.5698
▁വിജയ	-8.57007
▁കുറച്ചു	-8.57169
യോടെ	-8.57334
ിയത്	-8.57414
▁വിശ്വാസ	-8.57479
ഉ	-8.57573
▁ഹാ	-8.57611
▁വേദന	-8.57658
▁നിന്‍റെ	-8.57818
തോ	-8.57927
ല്ലേ	-8.57927
▁ചാ	-8.57943
▁വിളിക്ക	-8.58326
മെ	-8.5837
▁നിറ	-8.58433
▁വരുന്ന	-8.58528
ുന്നതും	-8.58936
ഹ്	-8.58943
▁അതിന	-8.59129
ത്തിലേക്ക്	-8.5913
%	-8.5918
▁വെള്ളം	-8.59221
▁സ്വീകരിക്ക	-8.59249
ജന	-8.59382
▁സമ	-8.59399
▁ഇവര്‍	-8.59426
▁സന്തോഷ	-8.5946
▁നടക്ക	-8.59501
▁വര്‍ഷം	-8.59624
▁നമ്മള്‍	-8.59744
k	-8.59898
ിട്ടുള്ള	-8.6002
▁തവണ	-8.60119
▁മാസ	-8.60161
രുടെ	-8.60162
▁കൊല്ല	-8.60297
യിലേക്ക്	-8.60432
ter	-8.60469
▁O	-8.60483
ന്ന്	-8.60619
▁f	-8.60817
പ്പെടുന്ന	-8.61019
ീയ	-8.61059
▁നാമ	-8.6108
es	-8.61446
R	-8.61503
▁കുറിച്ച്	-8.61647
▁എത്ത	-8.61723
▁പേര	-8.61736
▁കണ്ണ	-8.61813
ത്തിനും	-8.61924
കാ	-8.62026
ക്കുന്ന	-8.62142
▁സൃഷ്ടിക്ക	-8.6229
▁ലാ	-8.62318
നാണ്	-8.62391
ക്കായി	-8.62416
ാക	-8.62483
▁കേള്‍ക്ക	-8.62521
▁പറഞ്ഞത്	-8.62576
▁ഉത്തരം	-8.62628
ഹാ	-8.62713
▁അതുകൊണ്ട്	-8.6278
▁വർഷം	-8.62781
on	-8.62817
▁മരിച്ച	-8.62942
▁അനുഗ്രഹ	-8.62994
െങ്കില്‍	-8.63059
▁കാരണ	-8.63103
കാല	-8.63115
▁ചിന്ത	-8.6319
▁എന്തെങ്കിലും	-8.63243
▁എന്ത	-8.63251
▁സഹായിക്ക	-8.6338
ിക്കുകയും	-8.63415
▁അത്ര	-8.63434
▁അതേ	-8.63617
▁കൊ	-8.63786
.''	-8.63813
▁15	-8.63948
▁താങ്കള്‍	-8.64024
▁അതാണ്	-8.64041
▁ആക	-8.64364
▁സം	-8.64407
▁ചെയ്യുന്നത്	-8.64492
കൊണ്ടു	-8.64509
▁20	-8.64552
▁അവസ്ഥ	-8.64579
▁b	-8.64828
et	-8.64942
▁പഠിക്ക	-8.65004
▁വ്യക്തി	-8.65031
▁അവളെ	-8.65038
▁വേ	-8.65145
െടുക്ക	-8.6521
ുകളുടെ	-8.654
▁മറ്റ്	-8.65702
▁is	-8.65812
h	-8.65998
▁N	-8.66002
തല്ല	-8.66099
ഹി	-8.66407
▁വിളിച്ചു	-8.66473
▁കെ	-8.66609
▁ആവശ്യ	-8.66714
▁പുസ്തക	-8.66755
ദ്ധ	-8.66792
വര്‍ക്ക്	-8.66819
▁ഉപയോഗിക്ക	-8.66835
▁അദ്ദേഹത്തിന്റെ	-8.66835
▁വെള്ള	-8.66931
പ്പോ	-8.67024
ൊന്നു	-8.67057
ണ്ട്	-8.67303
▁തെറ്റ	-8.67553
▁വിട	-8.67591
▁മല	-8.67631
തുപോലെ	-8.677
▁ലെ	-8.67869
ുകയായിരുന്നു	-8.67918
രായ	-8.68006
w	-8.68007
▁p	-8.68025
▁മാറി	-8.68083
ുവാൻ	-8.68219
പോ	-8.68421
ങ്ങളാണ്	-8.68445
▁അല	-8.68449
▁ഭക്ഷണം	-8.68469
▁അനു	-8.68865
▁ഏതു	-8.6887
▁നമ്മെ	-8.68955
▁ചിത്ര	-8.69061
▁ഭാര്യ	-8.69192
▁വേറെ	-8.69241
യിലും	-8.69276
▁for	-8.69347
േണ്ടത്	-8.69418
ഫി	-8.69529
കരമായ	-8.69837
പ്പി	-8.69858
▁ആരോഗ്യ	-8.6986
▁നിനക്കു	-8.70068
▁ഭൂമി	-8.70247
▁മാറ	-8.70283
▁പു	-8.70291
▁പലപ്പോഴും	-8.70312
▁കിട്ട	-8.70316
▁യാതൊരു	-8.70361
▁ചോദിക്ക	-8.70401
ടുത്ത	-8.70592
▁സുഖ	-8.70609
▁പരസ്പരം	-8.7067
തെന്ന്	-8.7071
▁11	-8.70752
ut	-8.70907
▁മൂന്ന്	-8.70973
തെ	-8.71027
▁നെ	-8.71031
▁ലഭിക്ക	-8.71111
ംഗ	-8.71113
▁പലരും	-8.71176
രിയ	-8.71376
▁ശരിക്കും	-8.71458
▁അയാൾ	-8.71475
യാണോ	-8.715
െന്നു	-8.71547
▁മര	-8.71557
▁മനുഷ്യ	-8.7211
▁മുറി	-8.72145
ല്യ	-8.72156
കളിൽ	-8.72179
ch	-8.72539
▁സാക്ഷി	-8.72732
▁അതോ	-8.72734
ാണു	-8.73039
▁മൂ	-8.73191
െങ്കിൽ	-8.7329
▁ബ്ര	-8.73357
ഈ	-8.7336
ad	-8.74205
▁അവകാശ	-8.74206
▁കൂടാതെ	-8.74208
8	-8.74298
▁ഭക്ഷണ	-8.74389
▁വിവാഹ	-8.74513
▁ഇന്ത്യ	-8.74598
▁വിധി	-8.74657
▁ഇതാണ്	-8.74803
6	-8.74904
്യൂ	-8.75001
▁നഗര	-8.75129
പാ	-8.7517
20	-8.75182
▁സ്നേഹ	-8.75299
▁തുടങ്ങ	-8.75457
ാണെന്ന	-8.7569
▁സഹ	-8.75754
▁ജി	-8.75841
▁രക്ഷ	-8.75894
▁മുതൽ	-8.75975
ടെ	-8.75985
ല്ലാതെ	-8.76147
▁ഉണ്ടാക്ക	-8.76288
തീ	-8.76291
F	-8.76326
▁ചെയ്യാൻ	-8.76391
▁വിവാഹം	-8.76472
ഞാന്‍	-8.76566
വുമായി	-8.76613
▁പര	-8.76631
▁ഖ	-8.76633
▁ഏത്	-8.76639
▁w	-8.77114
▁ഇപ്പോഴും	-8.7715
0	-8.77259
ജ്	-8.77312
▁നേരെ	-8.7739
▁ഇതാ	-8.77554
ടു	-8.77604
ാള	-8.77611
എസ്	-8.77653
▁L	-8.77676
▁[	-8.77764
▁സാധ്യത	-8.77791
▁ഉണ്ടായിരുന്നു	-8.77881
7	-8.77903
കളാണ്	-8.77981
▁മഹാ	-8.78146
ഞ്ച	-8.78174
▁ഒന്ന്	-8.78248
▁ശരീര	-8.78441
▁ഞങ്ങള	-8.78515
്യം	-8.78544
ർത്ത	-8.78615
▁ഒരുപാട്	-8.78693
▁ഒറ്റ	-8.78693
▁രീതി	-8.78791
''	-8.78898
▁പകരം	-8.78941
▁ദൈവത്തിന്റെ	-8.78946
▁നമ്മൾ	-8.79014
ഞ്ഞു	-8.79057
▁കര	-8.7916
▁സൃഷ്ടി	-8.79302
▁ആരാണ്	-8.79483
▁ചു	-8.79586
▁സംഭവ	-8.79689
ിലൂടെ	-8.79694
▁അപകട	-8.79728
ോടൊപ്പം	-8.79744
▁അന	-8.79774
▁ഇനിയും	-8.79774
▁ആരെങ്കിലും	-8.79963
എന്റെ	-8.80118
▁കിട്ടിയ	-8.80262
!!	-8.80349
▁ലോകം	-8.80404
▁കല	-8.80529
ിരുന്നില്ല	-8.80565
▁നാളെ	-8.80575
ഒ	-8.80621
ികള്‍	-8.80625
▁പണി	-8.80643
▁കാണാം	-8.8072
ion	-8.80772
േണമേ	-8.80826
േക്കാം	-8.80902
▁നേര	-8.81181
▁പ്രവര്‍ത്തിക്ക	-8.81185
▁അന്ന്	-8.81265
▁താഴെ	-8.8133
യ്യ	-8.81439
ത്തന്നെ	-8.81523
▁റി	-8.81573
▁ധാരാളം	-8.81607
സ്റ്റ്	-8.8161
▁ഭാഗ	-8.81664
▁നിന്നുള്ള	-8.81718
▁ഇഷ്ട	-8.81887
ാപ	-8.81907
▁കാഴ്ച	-8.82003
▁അനുഭവ	-8.82072
വോ	-8.82238
▁വെറും	-8.82312
ണമെന്ന്	-8.82384
▁ഭാവി	-8.82432
G	-8.82498
▁വ്യത്യസ്ത	-8.82499
▁രാവിലെ	-8.82537
▁പൊ	-8.82571
▁നടന്ന	-8.82855
ri	-8.82897
ക്കാർ	-8.82928
്റെ	-8.83065
പ്പെടുന്നു	-8.83497
▁ലി	-8.83498
▁നമുക്ക	-8.8356
ra	-8.83575
▁അതി	-8.83593
▁വർഷ	-8.83697
▁വൈ	-8.8378
▁പാട	-8.83795
ൌ	-8.83843
ങ്ങളിലും	-8.83898
▁സഹായ	-8.83928
▁വീ	-8.83985
ിക്കും	-8.84023
ent	-8.84051
ദ്ര	-8.84178
▁ദിവസവും	-8.8431
▁അവന്‍റെ	-8.84346
▁കാലം	-8.8437
▁അപ്പ	-8.844
ിപ്പിച്ചു	-8.84591
ol	-8.84672
▁സമയത്ത്	-8.84686
10	-8.84727
▁തെ	-8.84739
▁കഴിയുന്ന	-8.8498
ശ്	-8.85229
ില്ലേ	-8.85338
▁ഫല	-8.85348
ക്കുക	-8.85435
▁തോന്നി	-8.85479
▁ജനത	-8.85551
▁നബി	-8.85624
▁R	-8.85642
▁ഏക	-8.8568
▁കവിത	-8.85687
ുന്നതു	-8.85885
▁ശ്രദ്ധ	-8.85902
കള്‍ക്ക്	-8.85944
▁വല്ല	-8.86023
▁എന്നിട്ട്	-8.86324
▁ചെ	-8.86815
ലൈ	-8.86815
▁തോന്നുന്നു	-8.86856
▁മഴ	-8.87015
▁മാസം	-8.87032
▁ശരിയായ	-8.87038
കോ	-8.87095
▁പുറത്തു	-8.87132
ക്സ്	-8.87246
▁അറിവ	-8.87502
▁വയസ്സ	-8.87615
ാനാണ്	-8.87795
▁അറിയാം	-8.87855
▁താങ്കളുടെ	-8.87932
▁ഉണ്ടായ	-8.87961
[	-8.87997
▁കേ	-8.88018
▁വായിച്ച	-8.88114
ച്	-8.88122
രേ	-8.8815
ുണ്ടോ	-8.88174
ബാ	-8.88206
▁വിശുദ്ധ	-8.88217
▁ഒന്നു	-8.8822
▁അമേരിക്ക	-8.88246
റോ	-8.88601
ാറില്ല	-8.88609
ത്രെ	-8.8867
▁re	-8.88745
el	-8.88778
▁തുടര	-8.88865
▁പ്രകാരം	-8.88886
്‍ക്ക്	-8.88919
il	-8.88999
▁കുറഞ്ഞ	-8.89026
ന്ദ	-8.89134
ശി	-8.89181
▁ചെയ്തത്	-8.89314
▁പൂ	-8.89357
▁ഒഴിവാക്ക	-8.89396
▁പ്രത്യേക	-8.89424
▁പ്രശ്	-8.89469
▁ആകുന്നു	-8.8949
ികൾ	-8.8959
ത്തിന	-8.89592
തെല്ലാം	-8.89661
▁തോന്ന	-8.89664
▁ചെയ്യാന്‍	-8.89726
ാക്കി	-8.8981
▁ഊ	-8.89831
▁വായിക്ക	-8.89922
▁കൊടുത്ത	-8.89982
▁മരിക്ക	-8.90084
▁ചിത്രം	-8.90102
▁നീതി	-8.90108
▁കൊണ്ട	-8.9039
▁സംശയ	-8.90444
▁കഴിയില്ല	-8.90673
N	-8.90827
▁ആർ	-8.90887
▁എം	-8.90913
ോള	-8.91105
ത്തിലാണ്	-8.91109
▁അപ്പോൾ	-8.91199
▁ലഭിച്ച	-8.91302
▁16	-8.91311
▁ജോ	-8.91412
സ്ഥ	-8.9143
▁ബോ	-8.91485
▁കാണുന്ന	-8.915
▁അഭിപ്രായ	-8.91559
▁സ്ഥല	-8.91579
▁അവസാനം	-8.91657
▁അതിനാൽ	-8.91696
▁ഇതില്‍	-8.91763
▁ഖുര്‍ആന്‍	-8.91789
ിരുന്നത്	-8.91799
▁ഭ	-8.9185
യൊക്കെ	-8.92074
▁വിവര	-8.92109
▁നന്മ	-8.92139
പ്പെടും	-8.92296
▁14	-8.92311
▁ആഴ്ച	-8.92317
ത്തിനായി	-8.92348
▁നാലു	-8.92445
▁യു	-8.92507
▁ഡോ	-8.92546
▁കുഞ്ഞ	-8.92725
െന്നും	-8.9275
ിപ്പിച്ച	-8.92797
▁The	-8.92823
പ്പറ്റി	-8.92991
▁കൊണ്ടു	-8.93054
▁അഥവാ	-8.93063
est	-8.9314
am	-8.93213
▁17	-8.9334
ഒരു	-8.93342
▁സൃഷ്ടിച്ച	-8.93347
us	-8.93354
▁വ്യക്തമായ	-8.93388
ജ്ഞ	-8.93411
▁ആദ്യത്തെ	-8.93417
മാർ	-8.9354
▁പറ	-8.93581
▁ഇന്ന	-8.93609
▁കുടിക്ക	-8.93669
▁യുദ്ധ	-8.93804
ോടു	-8.93836
▁ഉറപ്പ	-8.93861
▁മുഖ	-8.93864
തിനു	-8.93878
▁പണ	-8.93924
▁മുഴുവന്‍	-8.94006
▁you	-8.94026
േക്ക്	-8.9409
▁നല്‍കി	-8.94357
▁നിനക്ക	-8.94402
ലീ	-8.94514
ിലാണ്	-8.94529
േണ്ടി	-8.94596
▁അധികം	-8.94758
ണോ	-8.94798
▁വര്‍ഷ	-8.9482
ly	-8.94875
▁അടിസ്ഥാന	-8.9488
▁സാധിക്ക	-8.94976
▁അനുവദിക്ക	-8.95031
േഷൻ	-8.95037
ro	-8.95049
ലോക	-8.95059
ാറുണ്ട്	-8.95062
ഘ	-8.95074
▁ഏതെങ്കിലും	-8.95084
▁സുരക്ഷിത	-8.95226
മാകുന്നു	-8.95253
▁രോഗ	-8.9544
▁ലോ	-8.95613
ാതിരിക്ക	-8.95858
▁പാപ	-8.95906
▁സമാധാന	-8.95957
▁നിര	-8.96042
▁അദ്ദേഹത്തെ	-8.96091
ന്റ്	-8.96179
യിലാണ്	-8.96201
▁13	-8.96456
▁തന്‍റെ	-8.96474
▁നേട	-8.96585
▁വ്യ	-8.96686
ാമോ	-8.96688
▁സംസ്ഥാന	-8.96694
▁പ്രതീക്ഷ	-8.96758
▁കേരള	-8.96866
▁സ്റ്റ	-8.96923
ിച്ചത്	-8.96929
▁ചോദിച്ച	-8.96967
തിന്റെ	-8.96976
▁കാര്യങ്ങൾ	-8.96976
▁രാ	-8.97018
▁വരുത്ത	-8.97042
ുകളിൽ	-8.97085
വൻ	-8.97113
▁സ്ഥാന	-8.97246
ുകളില്‍	-8.97274
▁രാജ	-8.97345
▁ഉണ്ടാവ	-8.97372
▁പ്രണയ	-8.9739
▁ചിലര്‍	-8.97401
ഴി	-8.97411
▁നൽക	-8.97436
എന്ന	-8.97474
▁30	-8.97581
▁ഉണ്ടായിരുന്ന	-8.97618
▁നിര്‍	-8.97666
▁ഒപ്പം	-8.97719
▁be	-8.9784
▁കൂട	-8.98015
▁ചരിത്ര	-8.98019
വുമായ	-8.98078
▁ഇരു	-8.98435
▁രാഷ്ട്രീയ	-8.98444
is	-8.98559
▁അറിയില്ല	-8.98633
▁K	-8.98709
▁ഡ	-8.98776
▁ഉപ	-8.98783
ട്	-8.98968
9	-8.99081
ര്യ	-8.9911
ുകളെ	-8.99332
യുമ	-8.99335
▁കണക്ക	-8.99337
▁തീരുമാന	-8.99387
▁സഭ	-8.99554
▁തുടങ്ങിയ	-8.9969
▁h	-8.99698
ുണ്ടായിരുന്നു	-8.99803
▁ഇതുവരെ	-8.99809
മാണോ	-8.99863
▁Re	-8.99912
▁വല	-8.99916
▁മരണം	-9.00059
ക്കാന്‍	-9.00115
▁നാട	-9.00141
▁എഴുതിയ	-9.00168
ിനും	-9.0017
▁നിങ്ങള്‍ക്കു	-9.00224
▁വിഭാഗ	-9.00243
ടാ	-9.00547
▁പുസ്തകം	-9.00655
un	-9.0066
H	-9.00862
ക്കുന്നു	-9.00916
വ്യ	-9.01037
▁നിരവധി	-9.01092
;&	-9.01224
▁ഭാഗം	-9.01306
▁m	-9.01341
▁»	-9.01474
▁l	-9.01578
▁വീട	-9.01631
▁ഉയർന്ന	-9.01701
പ്പു	-9.01713
▁ഉപയോഗിച്ച്	-9.01737
▁നട	-9.01885
ാകും	-9.01903
▁ഇത്ര	-9.02014
▁വിഷയ	-9.02055
ദി	-9.0209
▁വരുന്നു	-9.02111
ശാ	-9.02161
▁ഏകദേശം	-9.0223
▁എന്താ	-9.02239
▁ആള	-9.02317
▁കാർ	-9.02376
▁ബെ	-9.02435
ത്തര	-9.02535
ിക്കുന്നത്	-9.02562
▁on	-9.02636
▁ട്ര	-9.02682
ാലോ	-9.02706
യുമായി	-9.02751
▁ഫാ	-9.02982
▁പക	-9.03023
▁സമാധാനം	-9.03032
▁പ്രശ്ന	-9.03128
▁J	-9.03175
▁സഹായം	-9.03257
▁എന്നതാണ്	-9.03299
ക്കാര്‍	-9.03332
▁നടപടി	-9.03482
മാര്‍	-9.03613
ിയ്ക്ക	-9.03616
x	-9.03637
ഷൻ	-9.03652
▁വീട്	-9.03657
▁ഇരിക്ക	-9.03668
യാണ	-9.03683
▁സംഭവം	-9.03773
▁സകല	-9.03778
▁അവന്	-9.03813
▁പേര്‍	-9.03908
▁പരീക്ഷ	-9.0393
വാദ	-9.03939
▁സമൂഹ	-9.03958
▁തിരിച്ചറിയ	-9.03974
▁നേരത്തെ	-9.04153
▁അവരോട്	-9.04218
▁ദിന	-9.04235
▁പ്രാ	-9.04257
▁സംഭവിക്ക	-9.04432
▁കുറച്ച്	-9.0444
▁അവരില്‍	-9.04487
▁കേന്ദ്ര	-9.04514
▁ഭൂമിയില്‍	-9.04602
▁കുറെ	-9.04649
ട്ടു	-9.04736
▁അറിഞ്ഞ	-9.04797
▁ടി	-9.04819
W	-9.04821
▁മുമ്പ	-9.0491
▁ഭയ	-9.0499
▁ചെയ്	-9.0504
▁മേല്‍	-9.05072
▁ഹോ	-9.05094
ത്തിലുള്ള	-9.05117
മീ	-9.05234
ാകട്ടെ	-9.05284
ഷി	-9.05292
▁ബോക്സ്	-9.05578
▁വാഗ്ദാനം	-9.05623
▁വാഹന	-9.05708
▁അയാളുടെ	-9.05721
വരാണ്	-9.05786
ഞാൻ	-9.05806
▁തീര	-9.05904
▁താന്‍	-9.06065
വുമില്ല	-9.0628
▁റെ	-9.06357
ിട്ടുണ്ടോ	-9.06456
▁വിട്ടു	-9.0648
പക്ഷ	-9.06508
▁ഫോ	-9.06652
▁അതുപോലെ	-9.06667
▁ബന്ധപ്പെട്ട	-9.06687
യിട	-9.06699
▁കി	-9.06736
▁ശതമാനം	-9.06771
ച്ഛ	-9.06912
പരി	-9.06933
▁ആഗ്രഹിക്കുന്ന	-9.07106
ക്സ	-9.07179
▁25	-9.07207
▁മറ്റ	-9.07213
യോട്	-9.07248
ഷ്ട	-9.07301
ir	-9.07364
▁വീഡിയോ	-9.07383
▁ജല	-9.0745
യാള	-9.0754
▁ഹെ	-9.07578
▁പേടി	-9.07614
▁ചിന്തിക്ക	-9.07655
▁ഇന്നു	-9.07696
▁പഠന	-9.07722
▁സഹോദര	-9.07907
പ്പാ	-9.07964
ന്മാർ	-9.08058
▁ബാക്കി	-9.08084
ാര്‍	-9.08136
േറ്റ	-9.08209
11	-9.08213
َ	-9.08259
▁എസ്	-9.0836
▁പട	-9.08379
ിങ്	-9.08384
▁കാണിക്ക	-9.085
വനെ	-9.08532
ate	-9.08634
▁സോ	-9.08659
▁start	-9.08748
▁എടുത്ത	-9.08762
നിയ	-9.08799
ോളം	-9.088
“	-9.08839
▁നരക	-9.08839
▁കരുത	-9.08871
▁പഴ	-9.08905
▁രക്ഷിക്ക	-9.08987
▁പ്രതിഫലം	-9.09019
▁എടുത്തു	-9.09152
▁പേരില്‍	-9.09399
ഗ്ര	-9.09424
▁സ്ഥലം	-9.09586
മായിരിക്കും	-9.09623
ാണെങ്കില്‍	-9.0963
▁കാര്യത്തില്‍	-9.09713
▁പറ്റി	-9.09781
com	-9.10152
വിധ	-9.10157
▁പ്ല	-9.10166
▁മുഖം	-9.10176
▁ആളുകൾ	-9.10177
▁എന്നോട്	-9.10206
▁ആര്‍	-9.10293
ിപ്പ	-9.10299
ദൈവ	-9.10335
▁റോ	-9.10374
X	-9.10467
▁കാണാൻ	-9.10578
പരമായ	-9.10776
▁മുഴുവൻ	-9.10787
▁വിവരങ്ങൾ	-9.1082
▁ഗുണ	-9.10826
▁കുറവ	-9.10892
വീ	-9.1091
▁പെട്ട	-9.10964
▁ഒരാള്‍	-9.11003
ia	-9.11031
▁പരാതി	-9.11102
▁ക്ല	-9.11166
ോടും	-9.11251
ങ്	-9.11263
വല	-9.11331
▁തരം	-9.11333
ിലുള്ള	-9.11414
▁dur	-9.11434
▁അഞ്ചു	-9.1162
തിര	-9.11641
▁ഇതിന്റെ	-9.11646
▁എന്നിട്ടും	-9.11818
▁അതായത്	-9.11923
▁വിവിധ	-9.11974
▁കളിക്ക	-9.12013
▁അദ്ദേഹത്തിന്	-9.12106
▁സംഘ	-9.1226
▁ദേവ	-9.12301
ിട്ടും	-9.12361
അല്ലാഹു	-9.12384
▁സ്ഥിര	-9.124
റെ	-9.12473
▁ആരംഭിക്ക	-9.12515
"&	-9.12542
▁മുതല്‍	-9.12617
▁കൂട്ടുകാര	-9.12638
▁നിറഞ്ഞ	-9.12651
▁നാല്	-9.12706
▁കാണാന്‍	-9.12744
▁അതും	-9.12792
ാനാവില്ല	-9.12865
▁വീട്ടിൽ	-9.12954
ുപോക	-9.13021
▁പ്രവർത്തിക്ക	-9.13023
▁കഴിഞ്ഞു	-9.13156
▁കള	-9.13207
▁സ്വതന്ത്ര	-9.13231
▁പഠിപ്പിക്ക	-9.1328
കൂടി	-9.13308
വുമ	-9.13348
▁പ്രകൃതി	-9.13441
▁സംരക്ഷിക്ക	-9.13495
മില്ലാത്ത	-9.13556
▁ഷ	-9.13576
▁തുറക്ക	-9.13591
lo	-9.13666
▁മനുഷ്യന്‍	-9.1367
ശേഷം	-9.13702
ക്കാൻ	-9.13861
▁തേട	-9.13888
▁മാറ്റി	-9.1398
▁ജീവിക്ക	-9.14142
▁ബുദ്ധിമുട്ട	-9.14156
മാണെന്ന്	-9.14289
ver	-9.14332
▁കേൾക്ക	-9.14453
▁In	-9.14479
▁അധിക	-9.14531
▁കള്ള	-9.14564
▁അതിൽ	-9.14712
▁പൊതു	-9.14712
ിക്കാന്‍	-9.14745
ത്വം	-9.1477
▁മറ	-9.14788
▁കുറ്റ	-9.14828
▁എളുപ്പ	-9.14895
▁ബോധ	-9.14897
ുപോയ	-9.15068
▁പെണ്ണ	-9.15079
▁ഇസ്	-9.1508
▁തടയ	-9.15127
▁അല്ലാഹുവിന്‍റെ	-9.15355
▁നല്‍കുന്ന	-9.1538
▁V	-9.15389
ത്തേക്ക്	-9.15408
?’	-9.15573
▁എന്തുകൊണ്ട്	-9.15764
▁ജീവന	-9.16021
▁രണ്ടാം	-9.16102
▁നില്‍ക്ക	-9.16226
▁മരിച്ചു	-9.16227
നിന്ന്	-9.16483
▁മറക്ക	-9.16484
▁അതൊരു	-9.16496
▁അത്ഭുത	-9.16567
▁വിശ്വാസം	-9.16867
ുന്നതിനു	-9.16901
ഷ്യ	-9.16944
▁യുദ്ധം	-9.16965
▁അത്തരം	-9.16978
▁ഫി	-9.16984
▁കീ	-9.17022
▁ആളുകള്‍	-9.17153
▁ഇതിനു	-9.17208
▁ഉയര	-9.17266
▁വിള	-9.17327
ിനെയും	-9.1733
_	-9.17355
വെച്ച	-9.17362
▁തി	-9.17419
വന്ന	-9.17473
▁മേഖല	-9.17484
കാര്യ	-9.17567
ാണല്ലോ	-9.176
▁പിതാവ	-9.17624
ുന്നുണ്ടോ	-9.17626
op	-9.1764
രൂപ	-9.17676
▁മനുഷ്യര	-9.17867
ഐ	-9.17891
▁അവിട	-9.17927
▁നടത്തിയ	-9.1796
▁24	-9.18064
ാട	-9.18111
▁ഇതിനെ	-9.18182
▁ചികിത്സ	-9.18184
▁എങ്കില്‍	-9.1827
▁നമുക്കു	-9.18474
ുന്നവര്‍	-9.18497
▁നമ്മള	-9.18524
▁പ്രദേശ	-9.18898
▁പാട്ട	-9.18944
െടുത്ത	-9.19097
▁സാമ്പത്തിക	-9.19103
▁അവര്‍ക്കു	-9.1911
▁ശ്രീ	-9.19164
ന്മാര്‍	-9.19192
▁തിന്ന	-9.19214
▁ചെയ്യാം	-9.19299
▁ഓര്‍മ്മ	-9.1933
ബു	-9.19346
ിഷ്ട	-9.19373
▁കടന്നു	-9.1938
ത്തിനുള്ള	-9.19441
▁അല്ലേ	-9.19467
പു	-9.19596
▁താര	-9.19636
▁ധന	-9.19649
▁ജെ	-9.19671
▁പറയാം	-9.19676
ഓ	-9.19681
▁എങ്കിൽ	-9.19727
ക്കാരന	-9.19886
റ്റു	-9.19992
▁മാത്രമ	-9.20004
നിന്നു	-9.20127
▁അവരോടു	-9.20198
▁ഇതിന്	-9.20257
▁അവസരം	-9.20338
▁സീ	-9.20464
V	-9.20488
യാണെന്ന്	-9.2049
സ്ഥാന	-9.20504
ers	-9.20521
▁റാ	-9.20546
പെട്ട	-9.20598
യര്‍	-9.20651
ിക്	-9.20679
▁കോടതി	-9.2073
▁പ്രവൃത്തി	-9.20741
നിന്ന	-9.20825
▁ഇതേ	-9.20934
▁*	-9.20947
കൾക്ക്	-9.21035
▁പിന്തുണ	-9.21338
ുവാ	-9.2134
▁നടന്നു	-9.21356
▁നിങ്ങള്‍ക്ക	-9.21372
▁പിടിക്ക	-9.21434
▁വെടി	-9.21618
▁കഴിവ	-9.21619
യെല്ലാം	-9.21695
▁സമീപ	-9.21733
▁അവള	-9.21788
▁കാണുക	-9.21823
▁നിയമം	-9.22025
▁എഴുതി	-9.22163
മാക്കി	-9.22297
▁ദൈവത്തെ	-9.22499
ാനു	-9.2254
▁ഇന്നലെ	-9.22655
▁ആത്മാവ	-9.22664
േണം	-9.2284
ഴു	-9.22864
ല്‍പ്പ	-9.22884
ൻസ്	-9.22912
▁പോകുന്നു	-9.22943
▁ഫോട്ടോ	-9.22981
▁പോകുന്ന	-9.23006
ിക്കാൻ	-9.23038
um	-9.23065
▁എത്തി	-9.23189
റുകൾ	-9.23236
യിലൂടെ	-9.23236
▁പ്രവര്‍ത്തന	-9.23306
▁സംഭവിച്ച	-9.23355
K	-9.2342
ടുക്ക	-9.23535
▁വെറുതെ	-9.23541
വഴി	-9.23559
എം	-9.23562
ിനോട്	-9.2357
യോഗ	-9.23622
ിയിരിക്കുന്നു	-9.23676
▁വേഗം	-9.23678
id	-9.23823
ീന	-9.23879
▁എങ്ങനെയാണ്	-9.23957
▁തെളിവ	-9.23996
▁ഇത്രയും	-9.24025
▁പേർ	-9.24108
▁എണ്ണ	-9.24133
▁തമ്മിലുള്ള	-9.24151
▁അച്ഛന	-9.24154
▁രണ്ട	-9.24223
ക്ഷി	-9.24257
പര	-9.24268
▁സംബന്ധിച്ച	-9.2427
ങ്ങളില	-9.24295
▁എതിര	-9.24306
▁പ്രായ	-9.24349
▁പിന്ന	-9.24401
ist	-9.24416
▁പറയാന്‍	-9.24502
▁കുഴപ്പ	-9.24583
ിനി	-9.24602
വാസ	-9.24638
▁ഹൃദയം	-9.2468
▁വാദ	-9.24729
▁അംഗ	-9.2482
▁പാല	-9.24847
▁കൂടുതല	-9.24874
sh	-9.24898
▁അല്ലാഹുവിന്	-9.24938
▁പ്രയാസ	-9.25016
▁ചെറു	-9.25043
z	-9.2507
േക്കു	-9.25101
▁സന്തോഷം	-9.25205
രീ	-9.25232
താവ	-9.25268
ീസ്	-9.25306
▁ഉദ്ദേശിക്കുന്ന	-9.25325
▁ആകെ	-9.25338
U	-9.25386
▁ഫലം	-9.25431
▁തിരികെ	-9.25472
▁പിടിച്ച	-9.25582
ൃ	-9.25614
ലാണ്	-9.2564
തായിരുന്നു	-9.25674
▁ചെന്ന	-9.2578
ാനായി	-9.25804
▁പ്രതീക്ഷിക്ക	-9.25862
▁വിളിച്ച	-9.25924
ദേശ	-9.25937
▁അവയെ	-9.25961
പോലും	-9.26039
ങ്ങി	-9.26115
▁എത്തിയ	-9.26155
▁അങ്ങിനെ	-9.26246
▁അറിയുന്നു	-9.26321
▁കോടി	-9.26428
?'	-9.26451
▁മേ	-9.26548
▁ടാ	-9.2657
▁ലക്ഷ്യ	-9.26592
▁അന്ന	-9.2669
▁ശ്രമിക്ക	-9.26698
▁ടോ	-9.26713
▁ക്ഷമ	-9.26722
▁അധികാര	-9.26797
▁സാഹചര്യ	-9.26836
▁പള്ളി	-9.26923
▁നിൽക്ക	-9.26925
▁പക്ഷം	-9.26982
▁രക്ത	-9.27078
ച്ചി	-9.27165
▁മക്കള	-9.2722
▁മനുഷ്യന	-9.27283
ity	-9.27323
▁കുറേ	-9.2735
▁കാണുന്നു	-9.27497
▁വിട്ട	-9.2755
ഞ	-9.27645
50	-9.27661
tr	-9.27755
▁ഓഫ്	-9.27769
▁തേടി	-9.27781
v	-9.27848
▁ഇതിന	-9.27859
വിടെ	-9.28013
▁നല്ലത്	-9.2813
മാന	-9.28187
▁കാണുന്നത്	-9.28381
▁പ്രിയ	-9.28395
ക്കൊണ്ട്	-9.28397
▁തീർച്ചയായും	-9.28402
▁രോഗി	-9.28407
▁സുഹൃത്തുക്കള	-9.28434
യ്ക്കു	-9.28446
▁തിരഞ്ഞെടുക്ക	-9.28459
ൂര	-9.28709
രിച്ച	-9.28772
▁നഷ്ട	-9.28868
▁ചോദ്യ	-9.28884
ുള്ളത്	-9.28966
im	-9.28989
▁തയ്യാറ	-9.28997
ത്തെയും	-9.29
▁ആദ്യമായി	-9.29132
▁അടുത്ത്	-9.29217
ുള്ളൂ	-9.29256
നില	-9.29326
▁സ്കൂള	-9.29399
▁എന്തായാലും	-9.29443
ുളള	-9.29453
▁പ്രശ്നം	-9.29489
▁പാടില്ല	-9.29492
▁ചി	-9.29499
കാലം	-9.29588
ive	-9.29606
▁ബന്ധം	-9.29632
ിരിക്കും	-9.29694
▁നാള	-9.2983
▁അവസര	-9.29845
ുകയാണെങ്കില്‍	-9.29865
റിഞ്ഞ	-9.29989
▁ആണ	-9.29995
▁സ്പ	-9.30258
▁ദയവായി	-9.30276
▁നായ	-9.30373
▁രേഖ	-9.30397
▁വെച്ച	-9.30568
▁മൂസാ	-9.30595
ുമെന്ന	-9.30668
വ്വ	-9.30752
▁ആത്മ	-9.30757
▁എൻ	-9.30902
▁അവർക്ക്	-9.30968
▁സുഹൃത്ത	-9.3122
ണ്ഡ	-9.31276
▁ജാ	-9.31345
▁നടത്തി	-9.31445
▁പരിപാടി	-9.31446
ത്തിലൂടെ	-9.31664
▁ജനങ്ങള്‍	-9.31667
▁വിജയം	-9.31672
ധ്യ	-9.31689
മാണ	-9.31748
വുമാണ്	-9.31759
ോടെ	-9.3177
▁0	-9.31833
▁വെക്ക	-9.31853
▁പത്ര	-9.3189
റിയാം	-9.31917
▁രഹസ്യ	-9.31952
പ്പെടുകയും	-9.31967
▁സംഘടന	-9.32485
▁എനിക്കും	-9.32602
നാഥ	-9.32612
കൃത	-9.32625
കൊണ്ട	-9.32644
▁അപേക്ഷ	-9.32665
se	-9.32666
▁കൂ	-9.32686
▁യഥാര്‍ത്ഥ	-9.32827
▁21	-9.32839
ാനോ	-9.32844
▁തുറന്ന	-9.32856
▁മണിക്കൂറ	-9.32861
▁സ്ഥിതി	-9.32959
ില്ലെങ്കില്‍	-9.32966
വന്നു	-9.32979
▁ഇതൊക്കെ	-9.33085
യാണു	-9.33119
ക്കുകയും	-9.33136
▁ഇതൊരു	-9.33141
▁കൊടുത്തു	-9.33282
▁അവനു	-9.33327
പോയി	-9.33355
▁വലുത	-9.33358
▁മാറ്റം	-9.33364
▁തന്നേ	-9.33376
▁അതല്ല	-9.33517
യെങ്കിലും	-9.33602
▁അവനോടു	-9.33622
▁പരീക്ഷണ	-9.33694
▁മത്സര	-9.33714
ക്കാല	-9.3377
▁:)	-9.33822
▁kgm	-9.33971
▁പ്രതിഫല	-9.33999
▁ഫോൺ	-9.3405
as	-9.34059
ീകരണ	-9.34059
ൊന്ന	-9.34078
▁ഞങ്ങള്‍ക്ക്	-9.34117
ീകരിച്ച	-9.34118
▁യാ	-9.34131
▁ശ്രദ്ധിക്ക	-9.34154
▁ധ	-9.34155
▁നോ	-9.34181
▁ഫ്ല	-9.34254
▁ഉപയോഗിച്ച	-9.34356
▁എഴുത്ത	-9.34407
▁കാര	-9.34481
▁ശബ്ദം	-9.34532
▁കുഞ്ഞു	-9.34542
ണമെന്ന	-9.34705
മാണിത്	-9.34706
▁പറയാന	-9.34771
▁ചെലവ	-9.34902
വിട	-9.35009
ബന്ധ	-9.35058
▁പോര	-9.35059
▁കുട്ടികൾ	-9.35068
▁കാണും	-9.35179
▁ലഭിക്കും	-9.35227
▁മടങ്ങ	-9.35234
▁തീരുമാനം	-9.35243
▁അടുത്തു	-9.35268
▁ശക്തമായ	-9.35348
▁അന്ത	-9.35557
▁എന്തോ	-9.35639
▁കാറ	-9.35642
പ്പോലെ	-9.3565
▁കുട്ടികള	-9.35782
വെക്ക	-9.35816
▁d	-9.35888
▁ആഗ്രഹിക്കുന്നു	-9.35935
▁വിശ്വസിച്ച	-9.35944
ത്തോട്	-9.35946
ാതിരുന്ന	-9.36099
▁കയറി	-9.36164
▁നോക്കിയ	-9.36221
▁തുറന്നു	-9.36222
▁വശ	-9.36298
▁കൊണ്ടുവര	-9.36333
▁ഉറങ്ങ	-9.36475
30	-9.36534
▁വിഷമ	-9.36549
▁പേ	-9.36575
▁പുറത്ത	-9.36627
▁ഇൻ	-9.36731
▁ലേഖനം	-9.36745
ായിരുന്ന	-9.3675
▁പതി	-9.36861
▁ഏഴു	-9.36896
സിന്റെ	-9.36966
മുണ്ടോ	-9.36995
▁മൈ	-9.37197
ight	-9.37228
ില്ലാത്ത	-9.37233
കളില	-9.37292
പ്പാട	-9.37368
▁നിമിഷ	-9.37422
▁st	-9.37479
തിനാല്‍	-9.3764
ോൾ	-9.37724
li	-9.3775
▁അഭിപ്രായം	-9.37791
▁ഭയപ്പെട	-9.37812
▁മനോഹരമായ	-9.37866
ോൺ	-9.37922
▁കൃഷി	-9.37954
▁രക്ഷിതാവ	-9.37971
ക്കുറിച്ചു	-9.37987
▁നേഹ	-9.37993
▁നൽകിയ	-9.38109
▁ലക്ഷ്യം	-9.38116
രണ	-9.38148
▁ഓഫീസ	-9.38159
യെയും	-9.38212
കാരി	-9.38278
▁നിങ്ങളില്‍	-9.38317
▁കഷ്ട	-9.3836
▁എന്തിനാണ്	-9.38398
ഗാ	-9.38402
രുതു	-9.38409
▁പ്രമാണ	-9.38438
നല്ല	-9.38528
▁കാരുണ്യ	-9.38554
ക്കുറിച്ച്	-9.38574
▁സംവിധാനം	-9.38583
▁ദേശ	-9.38607
ഭാ	-9.38638
തിന	-9.38798
നുസരിച്ച്	-9.38813
ഭാവ	-9.3885
ക്സി	-9.38915
കൂ	-9.38971
ിപ്പി	-9.39138
▁പ്രകാശ	-9.39265
▁പൊറുക്ക	-9.39351
▁അല്ലാഹുവെ	-9.39353
▁അനുസരിക്ക	-9.39371
യിലുള്ള	-9.39407
ദ്യ	-9.39426
▁വീട്ടില്‍	-9.39433
▁22	-9.39462
▁സ്നേഹം	-9.39478
▁എണ്ണം	-9.39478
▁പട്ടണ	-9.39574
▁e	-9.39579
▁രസ	-9.39579
▁വിശ്വസിക്കുന്ന	-9.39604
ഡോ	-9.39607
▁കൂടിയ	-9.39679
▁ആഗ്രഹ	-9.3968
▁ബുദ്ധി	-9.39745
ീകരി	-9.39868
▁പോവ	-9.39936
▁50	-9.39949
▁#	-9.40025
▁ലേ	-9.40091
▁നിരാശ	-9.40132
ങ്ങനെ	-9.40219
യെന്ന്	-9.40237
▁മാധ്യമ	-9.40244
എന്	-9.40374
▁പങ്കാളി	-9.40424
മാത്ര	-9.40443
▁ഫാക്ടറി	-9.40497
പറയ	-9.4054
la	-9.40541
▁ദു	-9.40564
തായ	-9.40608
▁എക്സ്	-9.40661
▁മനുഷ്യനെ	-9.40912
ഹാര	-9.40921
▁ചെയ്യണം	-9.40934
▁പേരു	-9.40972
ധന	-9.41012
▁ആയിരിക്കും	-9.41064
▁ഇന്നത്തെ	-9.41149
▁de	-9.41158
െടുത്തു	-9.41166
യൊരു	-9.41173
▁ടെ	-9.41259
▁വായിച്ചു	-9.41261
ിപ്പോക	-9.41287
▁തേ	-9.4145
ho	-9.41538
▁അംഗീകരിക്ക	-9.41576
,000	-9.4164
▁മുടി	-9.4171
▁പേരും	-9.41787
ൻഡ്	-9.41876
വനും	-9.41909
▁പിടിച്ചു	-9.41932
▁മുട്ട	-9.41942
ment	-9.41949
▁സ്വാഗതം	-9.42072
ിലേക്കു	-9.42111
▁പേപ്പർ	-9.42136
▁മാന	-9.42188
▁ഗോ	-9.42282
▁അന്യ	-9.42369
▁with	-9.42463
▁വരുന്നത്	-9.42463
▁സർ	-9.42487
à	-9.42538
▁ന്യായ	-9.42542
▁നേടിയ	-9.42568
കളെയും	-9.42628
ാക്കിയ	-9.42697
ുണ്ടായ	-9.42703
▁വിദേശ	-9.42786
ിരിക്കുകയാണ്	-9.42865
ക്കിടയില്‍	-9.42915
▁രാജാവ	-9.42941
▁ഓടി	-9.4299
▁യഥാർത്ഥ	-9.43032
▁കേട്ടു	-9.43034
▁പാത	-9.43075
േണ്ടതുണ്ട്	-9.4314
▁വചനം	-9.43157
▁നോക്കൂ	-9.43258
▁കുട്ടികള്‍	-9.43298
▁ജ്ഞാന	-9.43314
▁ഉണ്ടാകും	-9.43413
▁കാത്തിരിക്ക	-9.43494
▁താമസ	-9.43523
▁ഇവരുടെ	-9.43525
ിട്ടുള്ളത്	-9.43531
പ്രകാരം	-9.43679
വള	-9.43691
▁പകുതി	-9.43735
ാകാം	-9.43745
▁ടീമ	-9.43773
▁നടക്കുന്ന	-9.43795
Y	-9.43814
ുവാനും	-9.43832
പ്പെടുന്നത്	-9.43838
▁ആശയ	-9.43848
ടിക്ക	-9.43999
ലിയ	-9.44074
▁100	-9.44111
▁ശാന്ത	-9.44162
▁അയച്ച	-9.44209
▁വെളിപ്പെടുത്ത	-9.44233
he	-9.44233
▁പെണ്‍കുട്ടി	-9.44257
സ്ട്ര	-9.44289
▁$	-9.44353
▁കയറ	-9.44374
▁ഹൈ	-9.44406
പൂര്‍വ	-9.44408
ഷ്ഠ	-9.44497
▁ആശുപത്രി	-9.44499
▁മനസ്സ	-9.44524
▁നയിക്ക	-9.44541
▁മണി	-9.44574
▁പിടി	-9.44617
▁ചൂട	-9.4462
▁കുറയ്ക്ക	-9.44624
▁സംഗീത	-9.44679
താണോ	-9.44713
പ്പോഴും	-9.44731
if	-9.44743
▁പാഠ	-9.44764
േറ്റ്	-9.4479
ul	-9.44884
▁പറ്റ	-9.44907
▁നിങ്ങളോടു	-9.44912
j	-9.44913
▁ജീവ	-9.45018
▁കറുത്ത	-9.45023
മാകും	-9.45142
ബ്ര	-9.45248
ിൻറെ	-9.45304
ധി	-9.45353
യ്ക്കും	-9.45364
ാവുന്നതാണ്	-9.45419
രിക	-9.45455
റ്റർ	-9.45511
▁സ്വകാര്യ	-9.45512
▁എങ്ങിനെ	-9.45539
and	-9.45676
▁ഗ്രന്ഥ	-9.45708
▁അയാളെ	-9.45743
▁ഇരുവരും	-9.45763
ce	-9.45778
age	-9.45811
▁രക്ഷിതാവ്	-9.45849
▁=	-9.45876
▁കൊള്ള	-9.45904
▁വികാര	-9.46048
ha	-9.46094
▁അടി	-9.46097
▁കടല	-9.46171
▁by	-9.46218
ുന്നതില്‍	-9.46234
▁കരുണ	-9.46254
േക്കാള്‍	-9.46304
▁ഒരാള	-9.46322
ിതാ	-9.46389
▁വരിക	-9.46401
▁ഒളി	-9.46534
▁മുൻ	-9.46534
ത്രേ	-9.46559
&	-9.46613
▁തങ്ങള്‍	-9.46705
▁സര്‍ക്കാര്‍	-9.46713
ഏ	-9.46811
de	-9.46882
▁സേവന	-9.46886
▁വന്നത്	-9.4693
▁ചേര	-9.46974
▁മൃഗ	-9.46974
്‍ക്കും	-9.47104
തരം	-9.47104
ബോധ	-9.47169
മുണ്ടാക്ക	-9.47182
ഗ്ഗ	-9.47212
▁രണ്ടും	-9.47213
ിയായ	-9.47283
▁കല്ല	-9.4729
▁ജനം	-9.47321
ര്‍പ്പ	-9.47323
▁തുടക്ക	-9.47329
▁പറ്റിയ	-9.47353
▁കൂട്ടി	-9.474
▁അടുക്കല്‍	-9.47437
▁പരിശോധിക്ക	-9.47509
▁നല്ക	-9.47518
▁മാര്‍ഗ	-9.47633
ack	-9.47689
▁പാലിക്ക	-9.47742
▁പരസ്യ	-9.47784
ിപ്പിക്കുന്ന	-9.47905
▁ക്ര	-9.47909
ൂര്‍	-9.47913
▁ദുഃഖ	-9.47917
▁ദോഷ	-9.47992
▁നോക്കുക	-9.47995
▁ഉപയോഗിക്കുന്ന	-9.48025
യെന്ന	-9.48032
▁ആവശ്യമാണ്	-9.48052
▁വോട്ട	-9.48083
▁X	-9.4815
ഇത്	-9.48199
▁തുക	-9.48226
ശാല	-9.48275
▁വിവരം	-9.4836
യോടു	-9.48466
ണ്ടി	-9.48588
ല്ലാ	-9.4859
▁നഷ്ടപ്പെട്ട	-9.48592
ുന്നതിനുള്ള	-9.48623
▁ഡെ	-9.48647
▁നമ്മ	-9.48686
▁പ്രവര്‍ത്തിച്ച	-9.48732
one	-9.4877
▁അറിയിക്ക	-9.48788
ിരുന്നെങ്കില്‍	-9.48882
▁അന്നു	-9.48892
▁കാട്ട	-9.48999
ര്‍ത്തി	-9.49113
▁ഉപദേശ	-9.4914
▁ശരീരം	-9.49144
▁ഉടനെ	-9.4915
കൊള്ള	-9.49171
▁അഞ്ച്	-9.49183
ാലയ	-9.49201
▁കിട്ടി	-9.49238
▁ഇവർ	-9.49259
▁അതില	-9.49353
▁ഹി	-9.49453
▁ബിസിനസ്	-9.49495
▁അപ	-9.49536
▁മുസ്	-9.49593
▁നയ	-9.49642
▁പത്തു	-9.49645
ാന്ത	-9.49656
▁ഡാ	-9.49736
ാനാ	-9.49818
▁മൂന്ന	-9.49852
▁പോസ്റ്റ	-9.50003
▁ഓട	-9.50005
കട	-9.5005
ജാ	-9.50065
▁ഉദ്ദേശിച്ച	-9.50074
ഗോ	-9.50081
▁ഉണ്ടോ	-9.50121
ക്കെതിരെ	-9.50143
▁വസ്ത്ര	-9.50188
ുവിന്‍	-9.50201
▁ശബ്ദ	-9.50242
▁ശുദ്ധ	-9.50259
പേര	-9.50366
ab	-9.50372
മേല്‍	-9.50505
കളിലും	-9.50584
ine	-9.50614
▁ക്രമ	-9.50622
▁പെൺകുട്ടി	-9.50623
▁ആൻഡ്	-9.5063
ow	-9.50641
▁കളയ	-9.50662
▁ഭരണ	-9.5069
▁സ്വപ്ന	-9.50719
നബിയേ	-9.50744
om	-9.50793
▁കാറ്റ	-9.50821
▁നാഥന്‍	-9.50846
▁ഇടപെട	-9.50852
▁se	-9.50862
കൊ	-9.50873
വാഹ	-9.50886
മാരുടെ	-9.50931
▁പോസ്റ്റ്	-9.50966
▁സൂര്യ	-9.50985
▁ചര്‍ച്ച	-9.50998
▁പ്രവാചക	-9.51006
▁അങ്ങ	-9.51009
യിരിക്ക	-9.51081
▁വെളിച്ച	-9.51117
▁ആറു	-9.51204
▁വാങ്ങി	-9.51226
▁വാക്കുകള്‍	-9.51248
മ്പി	-9.51345
▁പുരുഷ	-9.51462
▁നശിപ്പിക്ക	-9.51482
ൻഡ	-9.51515
▁ജാതി	-9.51537
വരില്‍	-9.51636
ുണ്ടായിരുന്ന	-9.51756
▁വായന	-9.51827
▁ഇറങ്ങി	-9.51831
ഫല	-9.51841
▁എന്നാലും	-9.51842
▁കഴിച്ച	-9.51857
തുകൊണ്ട്	-9.51861
▁പ്രാര്‍ത്ഥന	-9.51873
▁23	-9.51875
േക്കും	-9.51926
▁ആഘോഷ	-9.5193
te	-9.52021
▁പരിശോധന	-9.52077
▁എഴുത്തുകാര	-9.52128
▁നിയന്ത്രിക്ക	-9.52161
▁സംശയം	-9.52186
▁മൂന്നാം	-9.52195
അത്	-9.52216
▁വാക്കുകള	-9.52235
▁നിങ്ങളോട്	-9.52238
ുമില്ല	-9.52242
▁മനസിലാക്ക	-9.52261
െന്നാണ്	-9.52322
▁കുട	-9.5235
▁കുട്ടികളെ	-9.52359
▁നിക്ഷേപ	-9.52429
ل	-9.52435
▁ഇന്നും	-9.52446
▁ഇവരെ	-9.52476
▁കാണിച്ച	-9.52565
▁ഞാനൊരു	-9.52585
▁മുന്ന	-9.52593
▁പങ്കു	-9.52603
ിക്കാന	-9.52615
മാത്രം	-9.52641
▁അടയാള	-9.52654
തിരുത്തുക	-9.52722
▁പോലുള്ള	-9.52765
▁ആരുടെ	-9.52776
ാളി	-9.52785
▁ചിരി	-9.52895
ചി	-9.52916
ge	-9.52923
▁ഗുരു	-9.52958
▁not	-9.52969
ങ്ങളെയും	-9.52992
ുകയുണ്ടായി	-9.53005
കളായി	-9.53063
ag	-9.53128
നായിരുന്നു	-9.53175
▁പ്രവാചകന്‍	-9.53273
▁ശക്ത	-9.53299
മാക്കുന്ന	-9.53306
ബോ	-9.5332
▁മറന്നു	-9.53365
▁കണ	-9.53488
ot	-9.53503
▁സൈ	-9.53525
നിര	-9.53552
▁കടുത്ത	-9.53673
▁അവധി	-9.53691
ികള	-9.53699
തിനാൽ	-9.53706
▁നക്ഷത്ര	-9.53706
ത്തിയ	-9.53757
▁ഈശ്വര	-9.5378
▁വീഴ	-9.53814
ുടെയും	-9.53924
▁ന്റെ	-9.53942
▁പുറ	-9.53953
▁ചരിത്രം	-9.53996
▁തിരിച്ച	-9.54125
▁അക്	-9.54146
ലുകൾ	-9.54194
▁ഇത്തവണ	-9.54379
▁കാണിച്ചു	-9.54383
▁ഞ	-9.54401
൦	-9.54449
▁ഗാ	-9.54491
▁ഏതൊരു	-9.54591
ുണ്ടെന്ന്	-9.54656
ടോ	-9.54683
സീ	-9.54764
മാരെ	-9.54864
▁സമയത്ത	-9.54879
▁സഹായിക്കും	-9.54928
ry	-9.54986
▁ചുറ്റും	-9.55012
▁മുഴ	-9.55069
▁സൂ	-9.55076
▁ഉത്തര	-9.55095
ുന്നവന	-9.55196
▁വിമാന	-9.55229
വാന	-9.55244
ക്കുന്നത്	-9.55335
▁ശാസ്ത്ര	-9.55361
▁നിര്‍ത്ത	-9.55363
▁ഫോണ	-9.55397
മാക്കിയ	-9.55433
▁സാധിക്കും	-9.55436
▁സമ്മാന	-9.55458
▁മന	-9.55461
പ്പോയി	-9.55493
ട്രോ	-9.55563
▁ആയിരിക്ക	-9.55628
▁പദ	-9.55685
▁വേണ്ടത്	-9.55716
▁ജയ	-9.55784
▁പരിചയ	-9.55797
▁നല്ലൊരു	-9.55809
ാവശ്യ	-9.55833
▁ലോകത്തിലെ	-9.5588
▁എന്തൊക്കെ	-9.55907
▁ജീവിതത്തില്‍	-9.55919
▁ഒക്കെ	-9.56011
യാല്‍	-9.56066
▁Home	-9.56066
▁സൈന്യ	-9.56156
▁തമാശ	-9.56159
▁ദേശീയ	-9.56214
േറിയ	-9.56324
▁കിടക്ക	-9.56341
ാവസ്ഥ	-9.56402
ര്‍ത്ഥ	-9.565
▁സൂക്ഷിക്ക	-9.5663
പ്പിച്ചു	-9.56636
▁ധരിക്ക	-9.56703
▁ആരെ	-9.56705
വില	-9.56718
ത്തെക്കുറിച്ച്	-9.56726
▁മുന്‍	-9.5677
▁നേരം	-9.56867
▁സ്വീകരിച്ച	-9.56931
▁തമ്മില്‍	-9.5701
ോട്ട	-9.57011
▁ഓര്‍മ	-9.57019
▁അതുകൊണ്ടു	-9.57046
▁ന്യൂ	-9.5706
▁ദിനം	-9.57077
01	-9.57161
പ്പെടുത്തിയ	-9.57296
▁ഉത്തമ	-9.57301
മാറ്റ	-9.57449
▁ഉച്ച	-9.57498
വെന്ന്	-9.57503
▁പേരെ	-9.57635
മെന്ന	-9.57669
▁പുറത്ത്	-9.57744
ൂർ	-9.57753
തുമായ	-9.57755
▁ഏത	-9.57764
▁നല്‍കുകയും	-9.57775
▁ഒരാൾ	-9.57793
▁ഇര	-9.57912
യായിരിക്കും	-9.57945
▁ഇവിട	-9.57961
▁അല്ലാതെ	-9.57966
ണേ	-9.57995
സത്യ	-9.58071
▁പഠിച്ച	-9.58177
▁സാധിച്ച	-9.58195
ങ്ങളിലെ	-9.58241
▁മഹ	-9.58246
ഭി	-9.58249
▁Co	-9.58308
ോടുള്ള	-9.5833
ങ്ങള്‍ക്കു	-9.58387
ക്കൂട്ട	-9.58398
പെ	-9.58458
▁ബല	-9.5871
തന്നെയാണ്	-9.58792
▁അതിക്രമ	-9.58799
▁കരുതി	-9.58803
▁ഉറക്ക	-9.58803
▁ഇപ്പോഴ	-9.58806
മൂല	-9.5883
▁നന്നായ	-9.58848
ാര്‍ത്ഥ	-9.58874
▁ലേഖന	-9.58877
▁(1	-9.58921
ാണി	-9.58967
▁ഭീകര	-9.59007
▁വിഷയം	-9.59017
മ്പ്	-9.59063
!”	-9.59145
▁വാർത്ത	-9.59198
▁ശ്രമ	-9.59209
▁ഇപ്രകാരം	-9.59213
വന്റെ	-9.59246
mp	-9.59252
▁വാര്‍ത്ത	-9.59336
▁അവയുടെ	-9.59435
me	-9.59442
▁ശതമാന	-9.59458
▁പോകും	-9.59463
▁വളര	-9.59469
▁പരാജയ	-9.59488
റിയില്ല	-9.59515
യല്ലേ	-9.59614
▁ഉപയോഗ	-9.5962
വിശ്വാസ	-9.59633
ായിരുന്നില്ല	-9.59662
ണ്ടു	-9.59674
തോടെ	-9.5968
▁മടങ്ങി	-9.59697
ർച്ച	-9.59706
▁രാജ്യം	-9.59709
ാനാവ	-9.59742
▁ഇതിൽ	-9.59778
ന്മാരുടെ	-9.59799
▁കാണാന	-9.59829
വന്	-9.59859
ര്‍മ്മ	-9.59864
▁ആവശ്യം	-9.59877
▁U	-9.59975
▁നിമിഷം	-9.60024
ഞാന	-9.6003
19	-9.60031
ve	-9.60054
▁സാധന	-9.60056
ിയിരുന്നു	-9.60313
▁അയാള	-9.60322
ക്കൾ	-9.60368
12	-9.60375
▁ആഴ	-9.60431
▁കാര്യങ്ങള	-9.60523
രായി	-9.60544
qu	-9.60553
ാത്തത്	-9.60596
വശ	-9.60631
ികളെ	-9.60672
▁ഗ്രാമ	-9.60699
െപ്പോലെ	-9.6071
▁മോശ	-9.60799
▁വായിക്കുക	-9.6083
▁താങ്കൾ	-9.6087
▁പെട്ടെന്ന്	-9.6088
▁ലോകത്തെ	-9.60881
ഡിയ	-9.60893
▁ഗവേഷണ	-9.60916
▁അതിന്‍റെ	-9.60987
99	-9.60989
▁വിചാരിച്ച	-9.60995
▁എല്ലാവര്‍ക്കും	-9.6107
രീതി	-9.61105
▁2018	-9.61121
ies	-9.61142
▁ബീ	-9.61166
▁അര്‍ത്ഥ	-9.61173
ംഗ്	-9.61179
▁40	-9.6122
▁തീരുമാനിക്ക	-9.61295
ൊരാള	-9.61348
െത്തിയ	-9.61381
ില്‍നിന്ന്	-9.6139
ായാലും	-9.61458
▁പരിശുദ്ധ	-9.61492
▁നിരക്ക്	-9.61526
▁അയച്ചു	-9.6162
ക്കുറിച്ചുള്ള	-9.61735
▁പോകുന്നത്	-9.61755
▁+	-9.61758
ന്തി	-9.61797
▁കത്ത	-9.61827
ുന്നുവോ	-9.61858
കുട്ടി	-9.6191
▁നേട്ട	-9.61957
ികളുടെ	-9.61998
ത്തോളം	-9.62
▁പിശാച	-9.62006
▁ഡ്രൈവ	-9.62016
▁വ്യത്യാസ	-9.62083
▁ചുരുക്ക	-9.62084
▁ഇവര	-9.62089
▁യഹോവയുടെ	-9.62133
▁ആളുകള	-9.62157
▁വളരെയധികം	-9.62222
റിഞ്ഞു	-9.62229
ബർ	-9.62229
ിച്ചിരിക്കുന്നു	-9.62274
▁മിനിറ്റ്	-9.62297
▁പറയാൻ	-9.62408
▁തിരിഞ്ഞു	-9.62441
റ്റുകൾ	-9.62463
▁കുതിര	-9.62463
▁പലതും	-9.62472
▁അഹ	-9.62543
▁മാനസിക	-9.62551
▁മണ്ണ	-9.62704
ില്ലെന്ന്	-9.62708
▁പട്ടിക	-9.62757
▁ലാഭ	-9.62759
▁St	-9.62765
▁അവതരിപ്പിക്ക	-9.62783
▁വാക്കു	-9.62842
▁ഭൂ	-9.62871
ുന്നതിൽ	-9.62939
▁ജന്മ	-9.6297
▁ദയ	-9.63009
ിലേ	-9.63087
▁അകത്ത	-9.63095
▁ഖുര്‍ആന	-9.63122
ma	-9.63129
▁ബൈ	-9.6313
ട്ടോ	-9.63154
iv	-9.63274
ിനോടു	-9.63274
ഷന	-9.63317
▁വാക്ക	-9.63338
ത്താല്‍	-9.63385
യാൽ	-9.63386
മുഖ	-9.63391
ുടേയും	-9.63409
▁•	-9.63458
▁ബാധിച്ച	-9.63479
▁അമേരിക്കൻ	-9.63508
▁പാര	-9.63581
▁മാറിയ	-9.63604
▁പ്രിയപ്പെട്ട	-9.63608
▁സ്വര്‍ഗ	-9.63613
▁സംസാരിച്ചു	-9.63642
▁കേസ	-9.6381
ർട്ട്	-9.63944
▁me	-9.63956
▁അല്ലാഹുവിനെ	-9.63988
ഭൂമി	-9.63997
▁പോലീസ്	-9.64026
ാണെന്നു	-9.64071
...”	-9.64071
▁ഇരുട്ട	-9.64087
▁അളവ	-9.64115
▁കലാ	-9.64137
▁De	-9.64168
യുമില്ല	-9.642
ശാസ്ത്ര	-9.64235
ill	-9.64241
▁കരയ	-9.64256
▁ആളുകളെ	-9.64305
യുമാണ്	-9.6442
െന്താണ്	-9.64478
▁മിസ്	-9.64522
വിന്റെ	-9.64565
our	-9.64569
▁സന്ദേശം	-9.64582
▁ബാല	-9.64609
▁തുല്യ	-9.64642
രാജ	-9.64642
ത്തിലേക്കു	-9.64675
വരെയും	-9.64676
ind	-9.647
ീകരണം	-9.64705
▁ആര്‍ക്കും	-9.64731
▁അന്ധ	-9.64765
പ്പെടുത്തി	-9.64775
▁ചുമ	-9.64787
▁സംസാര	-9.64799
ഛ	-9.64802
പ്റ്റ	-9.64822
▁രീതിയില്‍	-9.64857
▁നമ്പർ	-9.64901
▁വച്ച	-9.64926
▁കണക്കാക്ക	-9.64927
▁മാതൃക	-9.64937
വർക്ക്	-9.65037
25	-9.65086
▁മനുഷ്യര്‍	-9.65088
▁എന്നിരുന്നാലും	-9.65105
ആര	-9.65111
ചെ	-9.65135
▁ഇംഗ്ലീഷ്	-9.65136
▁ചീത്ത	-9.65139
ചെയ്	-9.65177
▁ലഭിക്കുന്ന	-9.65285
ടിയ	-9.65311
യാക്ക	-9.65312
▁പീ	-9.65349
▁ഫീ	-9.65397
മിന	-9.65405
▁പ്രതിരോധ	-9.6544
▁നാടക	-9.65453
വൈ	-9.65514
▁ആരാ	-9.65576
▁തിര	-9.65694
▁സ്ത്രീകള്‍	-9.6572
▁ചെറുത	-9.65738
▁യൂറോപ്പ	-9.65783
▁മെഷീൻ	-9.65818
വരോട്	-9.65822
▁തുടക്കം	-9.65884
േറെ	-9.65886
▁ഭ്രാന്ത	-9.65901
▁con	-9.65909
▁അല്പം	-9.65932
▁ഏതാനും	-9.65951
തിരി	-9.65952
▁ആരോ	-9.65967
▁പ്രയോജന	-9.66073
നീയ	-9.66074
▁ആക്രമണ	-9.66148
▁ലോകത്ത	-9.66179
▁മറ്റൊന്ന	-9.6621
യാകുന്നു	-9.66258
▁കണ്ണു	-9.66306
▁വാക്ക്	-9.66316
per	-9.66437
ോട്ട്	-9.66539
▁മേൽ	-9.66556
ne	-9.66646
▁ആവശ്യമില്ല	-9.66648
ant	-9.66777
ിക്കൊണ്ടിരിക്ക	-9.66803
▁28	-9.66971
പ്ത	-9.67048
ip	-9.6716
രോഗ	-9.67195
ast	-9.67207
െത്തി	-9.67219
▁നദി	-9.67269
▁വ്യവസ്ഥ	-9.6732
ങ്ങളുണ്ട്	-9.67396
▁സേവനം	-9.67457
ിക്കാനുള്ള	-9.67539
ഠ	-9.6765
െന്താ	-9.6767
▁തള	-9.67703
ാണെങ്കിൽ	-9.67824
▁ലൂ	-9.67838
▁വെച്ച്	-9.67861
ap	-9.67876
▁കുറയ	-9.67922
The	-9.67997
േണ്ടതില്ല	-9.68022
▁അഭി	-9.68043
ാനാകും	-9.68065
▁ക്ഷേത്ര	-9.68106
ായിരിക്കണം	-9.68119
▁ഡയ	-9.68137
ശ്വ	-9.68164
▁സംസാരിച്ച	-9.68179
▁ആവശ്യമായ	-9.68185
▁യോഗ	-9.68189
▁ചിലപ്പോള്‍	-9.68197
▁പ്രധാനപ്പെട്ട	-9.68207
▁നില്‍ക്കുന്ന	-9.68233
▁മഹത്തായ	-9.68272
▁അയക്ക	-9.68295
▁താഴ്	-9.68361
▁നമ്മളെ	-9.68365
▁അടിമ	-9.68369
▁ഫ്ര	-9.68404
▁പക്ഷി	-9.68473
▁ജനിച്ച	-9.68605
▁!!	-9.6861
▁അല്ലെ	-9.6862
▁(2	-9.68631
▁ജൂ	-9.68675
ഢ	-9.6871
▁നിർ	-9.68714
ിരിക്കുക	-9.68716
Name	-9.68724
▁വിപണി	-9.68724
▁സ്നേഹിക്ക	-9.68799
ത്തിന്നു	-9.68822
▁വയ്ക്ക	-9.68869
▁നേരിട	-9.68902
▁ലോകത്ത്	-9.68908
ദ്ധ്യ	-9.68928
▁ആഗ്രഹം	-9.68935
ചാര	-9.6895
▁മുന്‍പ	-9.68951
‘	-9.68973
ൂട്ട	-9.68989
▁ഔ	-9.69011
ുന്നവന്‍	-9.69022
▁സര്‍	-9.69032
▁കുടുംബം	-9.69119
▁it	-9.69152
▁ഘടക	-9.69173
▁വ്യക്തമാക്ക	-9.69222
ദു	-9.69235
ിക്കപ്പെട്ട	-9.69328
▁ഓർമ്മ	-9.69367
ുന്നില്ലേ	-9.69402
▁യൂ	-9.69468
വെച്ചു	-9.69543
▁അനുഭവം	-9.69545
▁ചെയ്യാന	-9.69597
▁കണ്ടെത്തി	-9.69617
▁പ്രസംഗ	-9.6966
▁മലയാളി	-9.69683
ക്കുവേണ്ടി	-9.69695
▁ശേഷി	-9.69714
പൊ	-9.69715
▁പരലോക	-9.69748
▁എന്നോടു	-9.69871
തിനെപ്പറ്റി	-9.69916
▁പണിയ	-9.69917
▁ചോ	-9.69971
▁ദ്വീപ	-9.70051
▁മോഹ	-9.70129
ക്കുറിച്ച	-9.70151
▁വിദ്യാഭ്യാസ	-9.70167
15	-9.70231
art	-9.70278
▁രണ്ടാമത്തെ	-9.70287
nd	-9.7029
ിക്കാം	-9.70347
▁നിഷേധിക്ക	-9.70352
യായും	-9.70396
▁കാര്‍	-9.70407
▁ആണോ	-9.70542
▁ഞങ്ങൾക്ക്	-9.70564
▁26	-9.70658
▁ജീവിക്കുന്ന	-9.70666
▁are	-9.70723
ിന്നു	-9.70726
▁സമര	-9.70761
▁അറിയുക	-9.70777
▁യുക്തി	-9.70794
▁ജില്ല	-9.70799
ഭാഷ	-9.70806
▁വണ്ടി	-9.7084
ബെ	-9.7089
▁എയർ	-9.70929
▁ഹേ	-9.70931
ക്കാനുള്ള	-9.70936
എനിക്ക്	-9.70999
▁പ്രഭാത	-9.71005
കഥ	-9.71014
▁സുന്ദര	-9.7102
▁വെളിച്ചം	-9.71042
▁ജനാധിപത്യ	-9.71067
▁വേദ	-9.71076
▁Next	-9.71105
അല്ല	-9.7111
pe	-9.71152
റ്റാ	-9.71182
ന്മാരെ	-9.71189
▁അക്രമ	-9.71209
കളയ	-9.71228
▁പിതാവ്	-9.71345
▁തുടര്‍ന്ന്	-9.71372
▁ബാങ്ക	-9.71374
പ്പൊ	-9.71389
യൊന്നും	-9.7141
hi	-9.71445
▁സമുദായ	-9.71454
em	-9.71541
▁പെരുമാറ	-9.71545
കളുണ്ട്	-9.71657
▁തുട	-9.71665
ംബ	-9.71675
ുമുള്ള	-9.71701
ുണ്ടാകും	-9.71705
▁മൂല്യ	-9.71733
ാഴ്ച	-9.71754
▁സംബന്ധിച്ച്	-9.71782
ക്കാൾ	-9.71801
▁ഇഷ്ടം	-9.71815
▁വചന	-9.71816
▁ശ്രമിച്ച	-9.71893
▁അതിലെ	-9.71911
▁സ്റ്റാ	-9.71935
▁ഇതെല്ലാം	-9.71958
▁വിശ്വാസികള	-9.72004
▁ആരെയും	-9.72023
▁അറിയുന്ന	-9.7207
▁2019	-9.72073
▁27	-9.72085
ay	-9.72161
▁ഭീഷണി	-9.72193
▁ദി	-9.72372
റിന്റെ	-9.72395
ന്നെ	-9.72486
ുമെന്നും	-9.72518
▁പാര്‍ട്ടി	-9.72523
▁or	-9.7253
▁നഷ്ടപ്പെട	-9.72584
all	-9.72625
▁നൽകുന്നു	-9.72628
▁നോട്ട	-9.72664
▁നിറം	-9.72758
▁ഭാഗ്യ	-9.72781
▁നേ	-9.72799
▁പുറമെ	-9.7285
ക്കൊണ്ടു	-9.72873
▁തീവ്ര	-9.72877
▁ക്ഷമിക്ക	-9.72891
തിന്‍റെ	-9.72929
▁ഒരിക്കല്‍	-9.7294
▁വള	-9.73048
ാമായിരുന്നു	-9.73063
ഴ്	-9.73099
ുകളാണ്	-9.73219
▁പരിഹരിക്ക	-9.73224
vi	-9.73246
▁pro	-9.73277
▁കരുതുന്നു	-9.73317
▁പിന്‍	-9.73327
▁കെട്ട	-9.73365
▁ഉന്നത	-9.73365
ക്കാള്‍	-9.73386
ഹു	-9.73417
▁ദുരന്ത	-9.73475
▁ബ്ല	-9.73486
▁നുണ	-9.73507
▁മനുഷ്യന്റെ	-9.73521
▁തിരു	-9.73578
ക്കൊള്ള	-9.73606
▁മാതാപിതാക്കള	-9.73613
▁കള്ളം	-9.73669
▁ഭാരം	-9.73671
▁പ്രാര്‍ത്ഥിക്ക	-9.73722
▁കൃത്യമായി	-9.73741
▁രണ്ടാ	-9.73745
താര	-9.73764
ിലേറെ	-9.7379
▁ഡോക്ടർ	-9.73831
▁വരാം	-9.73868
▁പുരുഷന്മാര	-9.73887
വേണ്ടി	-9.73965
▁വയസ	-9.73966
▁അന്ത്യ	-9.73974
കളുമായി	-9.73992
ാണിത്	-9.74027
▁പറഞ്ഞാല്‍	-9.74105
ുകാരന	-9.74111
▁മാര്‍	-9.74112
ാതിരിക്കുക	-9.74117
▁പ്രയോഗ	-9.74126
▁ഇല്ലാത്ത	-9.74158
▁സന്	-9.74172
▁സൃഷ്ടിച്ചു	-9.74191
▁പണ്ട	-9.74248
ന്ധ	-9.74291
▁നാട്ട	-9.74323
ിനെതിരെ	-9.74328
▁ഉമ്മ	-9.74396
▁Ch	-9.74424
▁കൂള	-9.74525
▁Previous	-9.7456
▁നിന്നാണ്	-9.74593
▁പൊടി	-9.74694
37	-9.74756
▁വ്യവസായ	-9.74816
▁വിശ്വസിക്കുകയും	-9.7482
000	-9.74864
▁ആയുധ	-9.74876
▁ഡാറ്റ	-9.74901
▁എനിക്കറിയാം	-9.74951
▁മനോഹര	-9.74968
▁കാലത്ത്	-9.74986
ുകയാണോ	-9.7499
▁കവി	-9.74992
▁തിരഞ്ഞെടുത്ത	-9.75024
പെട	-9.75033
▁നേര്‍	-9.75067
ുണ്ടെങ്കില്‍	-9.75088
ങ്ങളോ	-9.75124
▁ഭര്‍ത്താവ	-9.75163
▁കെട്ടിട	-9.75173
▁വസ്തുക്കള	-9.75209
▁നവ	-9.75274
▁കൈകാര്യം	-9.75285
ശു	-9.75287
▁പരമാവധി	-9.75375
▁മകന്‍	-9.75476
▁ടൈ	-9.75479
▁പിന്നീട	-9.75483
▁നേതാവ	-9.75502
▁ഇന്ത്യൻ	-9.75513
ുചെയ്യ	-9.75692
ിതമായ	-9.75789
റ്ററ	-9.75815
▁സത്യനിഷേധികള	-9.75854
ൊരിക്കലും	-9.7587
▁ഒന്നാണ്	-9.75874
▁മനുഷ്യൻ	-9.75908
▁അവന്നു	-9.75926
▁കെട്ടി	-9.75953
▁പരിധി	-9.75991
▁തിരക്ക	-9.7604
▁അക്ഷര	-9.76073
▁ഒട്ടും	-9.76074
▁സൂചന	-9.76074
▁സാറ	-9.76103
ുന്നതിനും	-9.76137
▁60	-9.76196
▁വാക്കുകൾ	-9.76216
ഗമ	-9.76228
കിട്ട	-9.76249
ിംഗ	-9.76279
▁അങ്ങ്	-9.76289
▁നഗരം	-9.76293
▁അവിടുന്ന്	-9.76344
▁താള	-9.76401
കെട്ട	-9.7641
▁മൂല	-9.76593
▁തന്ത്ര	-9.76624
൧	-9.76714
▁സ്ഥാപിക്ക	-9.76718
ഗി	-9.76718
▁ആര്	-9.76745
ഷണ	-9.76794
തൊക്കെ	-9.76893
▁വലിയൊരു	-9.76899
▁സന്ദേശ	-9.76931
മ്പു	-9.76951
വിന്	-9.76961
▁നടപ്പാക്ക	-9.77171
▁2015	-9.77213
▁സ്ഥാനം	-9.77229
▁മുന്നില്‍	-9.77277
▁co	-9.77313
▁നൽകുന്ന	-9.77322
ധാര	-9.7734
േണ്ടതിന്നു	-9.77376
▁ദാവീദ	-9.77395
▁ചെന്നു	-9.77432
▁അറിയിച്ചു	-9.77433
▁മണ	-9.77521
▁ദാ	-9.77572
കുല	-9.77607
▁your	-9.77643
മുണ്ടാക	-9.77646
▁പുതു	-9.77656
▁́	-9.77703
▁സൈറ്റ	-9.77707
▁സ്ഥാപന	-9.77767
▁മലയാള	-9.77828
▁സ്വപ്നം	-9.77916
ിവിടെ	-9.77925
ബല	-9.77962
ോടുകൂടെ	-9.78071
▁ശത്രുക്കള	-9.78113
ൊന്ന്	-9.7812
ഫോ	-9.78238
ുകാർ	-9.78277
▁സംസ്	-9.78303
▁വലതു	-9.7831
ഹീ	-9.78359
▁എൽ	-9.78364
▁പകല	-9.78368
?''	-9.78444
▁വ്യത്യാസം	-9.78492
ll	-9.78539
മെന്റ്	-9.78542
നോക്ക	-9.78568
ice	-9.78613
▁ചെയ്താല്‍	-9.78628
ലിന്റെ	-9.78691
24	-9.78706
▁മേല	-9.78743
▁രക്തം	-9.78809
act	-9.78899
!"	-9.78904
▁റഷ്യ	-9.78949
-1	-9.79018
ര്‍ച്ച	-9.79049
▁വിഭാഗം	-9.79057
െന്ത്	-9.79086
▁ചിലപ്പോൾ	-9.79113
ബ്ബ	-9.79133
21	-9.79169
താണു	-9.79176
തൃ	-9.79189
▁എന്തുകൊണ്ടാണ്	-9.7921
ക്കൊണ്ട	-9.79214
▁we	-9.79265
വാര	-9.7928
യാഗ	-9.79336
▁പുല	-9.79347
▁ഉണ്ടായിരിക്ക	-9.79433
▁ചോദിക്കുക	-9.7944
▁വെറുക്ക	-9.79442
ിക്കണം	-9.79453
▁പൂർണ്ണ	-9.79465
▁പരിഗണിക്ക	-9.79472
▁ദാസ	-9.79506
▁സംവിധാന	-9.79639
▁വീണ	-9.79652
ായിരിക്കാം	-9.79725
▁ഷോ	-9.798
െടുപ്പ	-9.79802
ിരി	-9.79844
▁പരമ	-9.79845
▁പാപം	-9.79876
▁മൊബൈൽ	-9.79962
▁പഠനം	-9.79969
▁നൽകി	-9.80035
ാവുക	-9.80183
▁സര്‍ക്കാര	-9.80188
▁ലക്ഷം	-9.80205
ന്നാ	-9.80218
ചിത	-9.80278
▁ലഭിച്ചു	-9.8035
▁സുരക്ഷ	-9.80409
ുമുണ്ട്	-9.80433
കൊള്ളുക	-9.80446
വര്‍ക്കും	-9.80534
▁2017	-9.80584
▁ക്രിസ്തു	-9.80587
മാണു	-9.80604
▁കമന്റ	-9.80651
പ്രതി	-9.80666
▁തിരഞ്ഞെടുപ്പ	-9.8068
ൈൻ	-9.80682
കളോ	-9.80719
▁v	-9.80719
▁പറ്റില്ല	-9.80747
േജ്	-9.80754
▁മാപ്പ	-9.80763
ദര്‍ശന	-9.80793
▁വീട്ട	-9.80849
ിച്ചിരുന്നു	-9.80858
▁ജനങ്ങളെ	-9.80911
▁തലമുറ	-9.80947
▁വികസന	-9.80951
ie	-9.80964
▁he	-9.80978
▁പിന്നാലെ	-9.81047
▁മൊ	-9.81052
▁ഉപയോഗിക്കുന്നു	-9.81135
▁ദാന	-9.81144
▁അങ്ങയുടെ	-9.81147
▁പ്രാവശ്യം	-9.81214
എല്ലാ	-9.81227
▁സൗകര്യ	-9.81278
▁ബാധിക്ക	-9.81301
▁ഒന്നാം	-9.81322
ഞ്ജ	-9.81372
▁സീറ്റ	-9.81435
ഃ	-9.81489
▁ഷെ	-9.81491
ാണു്	-9.8151
▁അനുമതി	-9.81515
കരണ	-9.81542
ർമ്മ	-9.81545
മില്ലാതെ	-9.81569
▁ധരിച്ച	-9.81595
ക്കാണ	-9.81616
▁മുകളില	-9.81618
▁കിട്ടും	-9.81647
൨	-9.81668
▁സൂക്ഷിക്കുക	-9.81674
▁ഇല്ലാതെ	-9.8168
ിക്കൽ	-9.81683
▁ചെലവഴിക്ക	-9.81708
വിള	-9.81725
="1	-9.81729
▁സ്വന്ത	-9.81754
▁ബേ	-9.81761
▁നിത്യ	-9.818
ന്നും	-9.81836
▁യുവ	-9.81865
▁അഭിമാന	-9.81879
▁ചെവി	-9.81913
▁ഇതുപോലെ	-9.81921
ർപ്പ	-9.81938
ക്കറിയാം	-9.81969
▁പെരു	-9.81982
▁അതിനുള്ള	-9.81985
ഗ്രഹ	-9.81989
ദിന	-9.81995
▁തെറ്റായ	-9.82008
▁തീരുമാനിച്ചു	-9.82013
▁കണ്ടെത്തിയ	-9.82022
മതി	-9.82057
ദീ	-9.82083
ത്തെപ്പറ്റി	-9.82152
▁ജനങ്ങളുടെ	-9.82178
ങ്ങിയ	-9.82225
▁കോട്ട	-9.82225
▁കാണിക്കുന്ന	-9.82229
▁29	-9.82378
▁ലൈംഗിക	-9.82435
േക്കാൾ	-9.8245
പ്പിച്ച	-9.82469
▁വെളുത്ത	-9.82484
ian	-9.82537
▁ഉദാഹരണ	-9.82544
▁അനുഗ്രഹം	-9.82655
▁ഉപേക്ഷിക്ക	-9.82689
▁ചൊ	-9.82721
▁സ്വാതന്ത്ര്യ	-9.82806
▁പ്രണയം	-9.82811
ങ്ങളായ	-9.82856
▁സാങ്കേതിക	-9.82922
വച്ച	-9.82922
▁രീതിയിൽ	-9.82963
▁ആഹാരം	-9.82985
▁മന്ത്രി	-9.8301
▁ബ്ലോഗ	-9.8301
▁മുന്‍പ്	-9.83046
▁തോന്നിയ	-9.83052
▁ശിക്ഷിക്ക	-9.8306
▁വിവരങ്ങള്‍	-9.83096
▁വ്യാപ	-9.83102
ാന്തര	-9.83126
▁കുട്ടികളുടെ	-9.83133
▁സ്തുതി	-9.83148
വാദി	-9.83149
▁കുറ്റം	-9.83217
▁ഘട്ട	-9.83218
▁അനേകം	-9.83233
യാത്ര	-9.83271
▁ശ്രദ്ധിക്കുക	-9.8332
▁കരുതിയ	-9.83343
യൊ	-9.83373
▁താങ്കള	-9.8341
ദൂ	-9.8341
ിയിട്ടുണ്ട്	-9.83508
▁നിലയില്‍	-9.83515
ക്കഴിഞ്ഞ	-9.83549
▁ഒരാളെ	-9.83595
ഭക്ത	-9.83602
▁പൂച്ച	-9.83634
▁അറബി	-9.83666
▁ഉള്‍	-9.83718
▁മിക്ക	-9.83734
▁ഇല	-9.8377
പൂ	-9.83785
▁ബഹു	-9.83786
▁വിശേഷ	-9.83799
ാകുന്ന	-9.83799
39	-9.83802
ോടി	-9.83812
der	-9.83825
കീ	-9.83844
ub	-9.83853
▁രുചി	-9.83856
▁സത്യവിശ്വാസികള	-9.83864
വൃ	-9.83913
▁രാജ്യത്തെ	-9.83919
▁പ്രവേശിക്ക	-9.83933
▁നോക്കാം	-9.83946
▁നീക്കം	-9.84076
able	-9.84155
▁വ്യാപാര	-9.84163
രോധ	-9.84178
=	-9.84185
േണ്ടതാണ്	-9.84235
▁@	-9.84236
▁നാഥന	-9.84265
▁മുന്നോട്ടു	-9.84313
▁വെളി	-9.84336
▁നിർത്ത	-9.84337
▁ഹോട്ടല	-9.84351
ിലായി	-9.8439
▁മൊത്തം	-9.84401
ധാരണ	-9.84417
▁മാർ	-9.84469
ുകയുമില്ല	-9.84523
ർന്ന	-9.84583
കളായ	-9.84613
▁പച്ച	-9.84613
▁ദേഷ്യ	-9.8463
▁തെളിയിക്ക	-9.84671
▁മുതല	-9.84695
▁ഫയല	-9.84769
▁സത്യസന്ധ	-9.84771
ില്ലല്ലോ	-9.84795
▁ക്ലാസ	-9.84826
വണ്ണം	-9.84828
ഴ്സ	-9.84921
▁വസ്ത്രം	-9.84932
ശക്തി	-9.84938
▁കുറിച്ച	-9.84971
▁നിങ്ങൾക്കു	-9.84996
▁from	-9.8501
ത്തരം	-9.85021
ാലു	-9.85022
ക്കൊ	-9.85028
ുള്ളതാണ്	-9.85062
22	-9.8507
▁സഹോദരി	-9.85077
▁എല്ലാവർക്കും	-9.85178
▁തെറ്റി	-9.85186
▁ട്രെയിൻ	-9.85197
▁തികച്ചും	-9.85221
പാല	-9.85231
▁ഒടുവിൽ	-9.85238
▁വരൂ	-9.85345
▁കൊച്ചു	-9.85346
▁ലളിത	-9.85357
ence	-9.85359
▁ക്ഷ	-9.85457
▁ജീവിച്ച	-9.85481
co	-9.85487
▁ഒടുവില്‍	-9.85487
▁അനുഭവിക്ക	-9.85529
▁An	-9.85623
ud	-9.85643
്യമായ	-9.85667
വിധി	-9.8573
▁പ്രത്യക്ഷ	-9.85756
വനാണ്	-9.85805
▁അവതരിപ്പിച്ച	-9.85841
ാണെന്നും	-9.85862
▁ദൈവമേ	-9.85961
17	-9.85979
▁മറ്റുള്ളവരെ	-9.8598
അവര്‍	-9.86043
മായിരിക്ക	-9.86077
നിങ്ങൾ	-9.86109
▁ആശംസ	-9.86161
▁കോപ	-9.86168
▁ബോട്ട	-9.86232
+	-9.86245
▁നല്‍കും	-9.86274
താണെന്ന്	-9.86424
ദ്ദ	-9.86434
▁ശൂന്യ	-9.86474
ace	-9.86509
െന്നെ	-9.86539
▁വേഗത	-9.86551
▁കാത്തു	-9.86555
▁കോള	-9.86594
80	-9.86625
▁r	-9.86638
▁വിശ്വസിക്കുന്നു	-9.86641
▁നാട്ടില്‍	-9.86699
▁കൃത്യമായ	-9.86713
ുണ്ടെങ്കിൽ	-9.86736
ന്ഗ്	-9.86745
െഴുത	-9.86754
ിയാല്‍	-9.86782
▁ഉൽപ്പന്ന	-9.86806
ac	-9.86808
▁വസ്തുത	-9.86817
▁നീങ്ങ	-9.86835
60	-9.86836
▁ഓൺലൈൻ	-9.86855
▁അമ്പ	-9.86866
▁മകന	-9.86878
▁do	-9.86894
വേഷ	-9.86944
പോല	-9.86949
ex	-9.86972
ജ്ഞാന	-9.86982
▁പാപങ്ങള്‍	-9.87009
ci	-9.87029
▁ചിലർ	-9.8703
▁കാര്യമാണ്	-9.87069
▁Y	-9.87119
▁ജീവന്‍	-9.87151
▁അമിത	-9.87169
▁ഉയിര്‍ത്തെഴുന്ന	-9.87179
▁തര്‍ക്ക	-9.87194
mm	-9.87214
▁പ്രോ	-9.87256
▁തക	-9.87289
▁സാധ	-9.87361
▁രോഗം	-9.87367
▁താഴ	-9.87379
▁ഭർത്താവ	-9.87486
ങ്ങളെല്ലാം	-9.87553
ard	-9.87593
▁എത്രയോ	-9.87728
*	-9.87732
ാവില്ല	-9.87735
ക്രിസ്	-9.87745
ക്കാരി	-9.87745
രാമ	-9.87749
േയുള്ളൂ	-9.87761
▁മറ്റേ	-9.87782
ുന്നവരാണ്	-9.87788
ure	-9.87791
ങ	-9.87799
ന്‍മാര	-9.87799
ക്കാരുടെ	-9.87803
▁പുത്രന	-9.87804
▁വിലയിരുത്ത	-9.87914
40	-9.88028
നോട്	-9.88031
▁സൈനിക	-9.88091
ke	-9.88107
മെന്റ	-9.88117
▁മുമ്പില്‍	-9.88132
▁നടത്തുന്ന	-9.88162
▁അതോടെ	-9.88164
▁ഓര്‍ക്ക	-9.88166
▁കൊണ്ടാണ്	-9.88188
ുന്നവനും	-9.88213
പ്പെട്ടത്	-9.88231
▁പേടിക്ക	-9.88266
▁ജീവിതത്തിൽ	-9.88299
▁തരാം	-9.883
▁ആലോചിക്ക	-9.88379
▁കാശ	-9.88408
കഴിഞ്ഞ	-9.88416
ശ്ര	-9.8852
▁ക്രൂര	-9.88549
ാർത്ഥ	-9.88577
▁കൃത്യ	-9.8862
▁സമ്പത്ത	-9.88631
▁അപമാന	-9.88638
മ്യ	-9.88643
മനുഷ്യ	-9.88643
ധികം	-9.88658
▁ഇറങ്ങ	-9.88694
സഭ	-9.88741
മൊ	-9.88751
ുവോ	-9.88777
ങ്ങളുണ്ട	-9.88795
ig	-9.88889
▁മക്കളെ	-9.88905
ുന്നതിനെ	-9.88938
ുകയാണെങ്കിൽ	-9.88987
▁വിശ്വാസി	-9.88999
ty	-9.89072
▁പുരുഷന	-9.89161
▁മദ്യ	-9.89162
▁സാധാരണയായി	-9.89167
ുണ്ടാക്കിയ	-9.89169
▁വെച്ചു	-9.89202
ങ്ങളായി	-9.89204
▁തണുപ്പ	-9.89211
▁മാഷ	-9.89243
▁പൊറുക്കുന്നവനും	-9.89306
▁സംഗതി	-9.89315
മെന്ന്	-9.89325
▁ഭാവ	-9.89361
ന്തു	-9.89388
▁അറിഞ്ഞു	-9.89389
ള്ളി	-9.89418
▁നിന്നോട്	-9.89449
കളിലൂടെ	-9.89451
▁ശത്രു	-9.89473
▁Ar	-9.89475
ലൊ	-9.89481
▁name	-9.89508
▁ദൃശ്യ	-9.89519
▁പിഴ	-9.8961
–	-9.89629
ജെ	-9.89694
യാണെന്ന	-9.89758
▁വക	-9.89766
▁നിശ്ചയിച്ച	-9.89812
ുന്നതിനായി	-9.89838
സിനെ	-9.89848
▁വേണോ	-9.89848
▁അറിയുന്നില്ല	-9.89876
ുന്നവര്‍ക്ക്	-9.89914
തെന്നും	-9.89977
▁വിഷ	-9.89992
▁അറിയാമോ	-9.9
ികളായ	-9.90012
ക്ഷണ	-9.90015
കാലത്ത്	-9.90108
▁കഴിഞ്ഞില്ല	-9.90139
ര്‍ജ	-9.90145
▁തരത്തിലുള്ള	-9.90145
▁തെറ്റു	-9.90154
ശീല	-9.90171
▁നിശ്ചിത	-9.90186
മുണ്ടായിരുന്നു	-9.9019
നിൽക്ക	-9.90228
ക്കാരെ	-9.90278
▁തൃപ്തി	-9.90315
▁മടക്ക	-9.90316
▁ചൊല്ല	-9.90342
▁ശ്രമിച്ചു	-9.90372
▁ഷൂ	-9.9038
ക്കൊരു	-9.90413
▁ഒപ്പ	-9.90437
ാകണം	-9.90457
െണ്ണ	-9.90468
▁തെരഞ്ഞെടുക്ക	-9.90471
▁സർക്കാർ	-9.90478
▁No	-9.9049
▁തീര്‍ച്ച	-9.90538
▁വീണു	-9.90573
ത്തിനെ	-9.90586
▁മണിക്കൂർ	-9.90612
▁പതുക്കെ	-9.9063
▁ഉപദേശം	-9.90659
▁ചീ	-9.90679
ുന്നവരെ	-9.90681
▁sa	-9.90797
▁ആസ്വദിക്ക	-9.90842
▁അടുക്ക	-9.90844
▁ലളിതമായ	-9.90859
ോളൂ	-9.91048
▁അതാ	-9.91106
ളള	-9.91123
ബാധ	-9.91145
▁മുൻപ്	-9.91149
▁കൊന്ന	-9.91168
▁ഇഷ്ടപ്പെട്ട	-9.9118
ട്രി	-9.91207
ഖ്	-9.91224
▁തോട്ട	-9.91257
ാകാന്‍	-9.91277
▁വീട്ടില	-9.9128
ുകൊണ്ടിരിക്കുന്ന	-9.91304
▁കാലാവസ്ഥ	-9.91334
ഹോ	-9.91357
▁തൊ	-9.91359
▁ചോദിക്കുന്നു	-9.91381
4)	-9.91415
▁പ്രായം	-9.91436
▁ഭൂമിയുടെ	-9.91449
▁2014	-9.9146
ുകയുള്ളൂ	-9.91476
▁ഗ്രൂപ്പ	-9.91482
മാരും	-9.91522
▁തൊഴിലാളി	-9.91541
ther	-9.91558
ഡർ	-9.9157
▁നേടി	-9.91655
▁[...]	-9.91658
ിലാ	-9.91671
▁ഹിന്ദു	-9.91674
▁ചെയ്യേണ്ട	-9.91682
▁ഫോണ്‍	-9.91717
ep	-9.91722
▁പ്രപഞ്ച	-9.91766
▁ദിവസത്തെ	-9.9178
▁വൈക	-9.91784
▁ബാഗ്	-9.91827
ാണുള്ളത്	-9.91833
ുണ്ടായിരുന്നില്ല	-9.91932
▁അനുവദിച്ച	-9.91944
▁റീ	-9.91955
▁വാങ്ങിയ	-9.91962
▁സിസ്റ്റം	-9.91966
ശേഷമ	-9.91977
ണ്ടാ	-9.91994
ാരും	-9.92024
യ്ക്കുന്ന	-9.92035
ust	-9.92043
ear	-9.92063
▁എന്തിന്	-9.92064
പെടുത്ത	-9.92091
മണി	-9.92118
▁ഉറപ്പാക്ക	-9.92146
താകുന്നു	-9.9216
▁നിര്‍ബന്ധ	-9.92181
ൊന്നുമല്ല	-9.92189
▁വിപ്ലവ	-9.92231
ിലേക്കുള്ള	-9.92267
ance	-9.92271
ide	-9.924
▁ചായ	-9.92405
▁ലിം	-9.92435
▁യഥാര്‍ഥ	-9.92484
വല്ലോ	-9.92492
ടിച്ച	-9.92493
തെന്ന	-9.92513
▁തെരുവ	-9.92533
▁രാവ	-9.92597
▁Mo	-9.92629
▁സമുദ്ര	-9.92635
90	-9.9267
▁31	-9.9275
▁അഞ്ച	-9.92752
ങ്ങളുടെയും	-9.92834
▁നിങ്ങളും	-9.92873
▁ഉടൻ	-9.92883
▁വന്ന്	-9.92911
ൊന്നുമില്ല	-9.92913
മക്കള	-9.92935
▁മറന്ന	-9.92942
▁അറിയുന്നവന	-9.92943
▁k	-9.92977
▁പുരോഹിത	-9.92982
▁അതേസമയം	-9.92986
▁സാമൂഹിക	-9.93041
ാവാം	-9.93043
▁കപ്പല	-9.93064
▁ഇഷ്ടപ്പെടുന്ന	-9.93069
▁at	-9.93076
മൊന്നും	-9.93089
പുത്ര	-9.9309
▁so	-9.93112
▁‍	-9.93143
ര്‍ന്ന	-9.93212
▁കാലഘട്ട	-9.93265
യിലേക്കു	-9.93281
▁ഒരുപക്ഷേ	-9.93301
▁ചർച്ച	-9.93318
▁തിരുത്ത	-9.93347
200	-9.93375
ൈറ്റ്	-9.93386
▁ചെയ്തിരുന്നു	-9.93449
▁ma	-9.9346
▁വിശദീകരിക്ക	-9.93496
▁പറയുകയും	-9.93539
ക്കാലം	-9.93558
ാണെങ്കിലും	-9.93572
ുമ്പോഴ	-9.93574
▁തരും	-9.93609
▁മറ്റൊരാള	-9.93618
▁un	-9.93625
▁റസൂല	-9.93748
പൂർ	-9.93758
ാടി	-9.93779
മായിരുന്ന	-9.93809
▁മൂലം	-9.93926
▁ചന്ദ്രന	-9.93936
സ്റ്റർ	-9.93971
▁പ്രതികരിക്ക	-9.93979
▁ഇപ്പൊ	-9.94025
മുണ്ട	-9.94116
▁വ്യത്യസ്തമായ	-9.94156
ak	-9.9422
▁തന്നെയാണ	-9.94224
യാന	-9.94263
ുണ്ടല്ലോ	-9.94268
പ്പുറം	-9.9428
▁മഞ്ഞ	-9.94295
▁നിയന്ത്രണ	-9.94323
റിയാ	-9.94348
ായിത്തീര	-9.94372
▁ടീം	-9.94408
താക്കള	-9.94412
▁മുകളിൽ	-9.94426
▁സാക്ഷ്യം	-9.94443
▁വിതരണക്കാർ	-9.94497
bo	-9.94498
▁ഉണര	-9.94618
▁ഏറ്റ	-9.94623
▁പിന്തുടര	-9.94628
▁അറിവ്	-9.94651
▁താളിൽ	-9.94669
▁ക്യാ	-9.94718
യില്ലാത്ത	-9.94735
▁മറ്റുള്ളവര	-9.94753
മിക	-9.94766
കൈ	-9.94833
കളഞ്ഞ	-9.94839
യായിരുന്ന	-9.94884
ിക്കപ്പെട	-9.94932
▁വരുമാന	-9.94951
മെങ്കിലും	-9.9497
ജീവ	-9.94993
▁Post	-9.95009
▁ഉയര്‍ന്ന	-9.9501
▁ഫെ	-9.95012
▁ഇഷ്	-9.95042
▁സംഗീതം	-9.95118
▁വിതരണം	-9.95123
ph	-9.95212
▁ആരംഭിച്ച	-9.95217
▁നേരിട്ട്	-9.95282
ഷന്‍	-9.95313
▁താങ്കള്‍ക്ക്	-9.95316
▁സത്യത്തില്‍	-9.95327
▁ബാധ്യത	-9.95345
tic	-9.9538
▁കിട	-9.95384
▁that	-9.95402
▁പ്രസവ	-9.95511
▁മുമ്പത്തെ	-9.95511
▁an	-9.95532
▁ദൈവമായ	-9.95532
▁സമരം	-9.95535
▁കഠിന	-9.95583
▁എനിക്കൊരു	-9.95644
ുണ്ടാവ	-9.95692
കളേ	-9.95711
▁വെല്ലുവിളി	-9.95715
▁സത്യനിഷേധികള്‍	-9.95733
▁Ma	-9.9574
▁കണ്ടുമുട്ട	-9.95766
▁മനുഷ്യരെ	-9.95788
്യൂട്ട	-9.95789
16	-9.95835
നിന്നും	-9.9585
ുവെന്ന	-9.95869
ശ്ശ	-9.95899
ame	-9.96031
▁കഥാപാത്ര	-9.96117
▁പറഞ്ഞതു	-9.96119
▁സ്ത്രീകൾ	-9.96151
▁ജൂലൈ	-9.96162
▁മീ	-9.9617
ദിവസം	-9.96197
▁വിളി	-9.96217
18	-9.96232
▁Th	-9.96247
▁വൈകി	-9.96253
നൂറ	-9.96265
▁പാപമോചനം	-9.96322
▁ഉണ്ടെന്ന	-9.96411
ിച്ചാല്‍	-9.96433
▁മനസ	-9.96441
▁പൂര്‍ണ	-9.96448
▁ചെല്ല	-9.9645
▁വീടു	-9.96482
ുമെന്നു	-9.96492
ുമായുള്ള	-9.96496
▁ചേ	-9.96527
ോട്ടു	-9.96549
▁അടച്ച	-9.96573
റ്റര്‍	-9.96582
▁എഫ്	-9.966
ical	-9.96606
ലുകള്‍	-9.96622
ദേവ	-9.96623
▁ഇതും	-9.96666
വിന്‍റെ	-9.96691
▁ആരംഭിച്ചു	-9.96712
േഴ്സ്	-9.96718
▁അന്വേഷിക്ക	-9.96763
▁വ്യക്തമായി	-9.96802
▁ശീല	-9.9683
▁2013	-9.96906
ഞ്ച്	-9.96907
▁ഒരിക്കൽ	-9.96953
▁രസകരമായ	-9.96961
▁ചിന്തിച്ച	-9.96964
5)	-9.96972
▁മനസ്സില്‍	-9.96988
▁മോശം	-9.97003
യെക്കുറിച്ച്	-9.9702
▁ഉദ്	-9.9704
▁തടവ	-9.97049
ട്ര	-9.9706
സമയം	-9.97064
▁രേഖപ്പെടുത്ത	-9.97123
ുന്നതിന	-9.97125
വർത്തി	-9.97169
ell	-9.97178
47	-9.97205
▁Se	-9.97231
▁കട്ട	-9.97235
▁ഫെബ്രുവരി	-9.97249
ങ്കില	-9.97255
▁തള്ള	-9.9726
മുണ്ടായ	-9.97317
ഭരണ	-9.97332
▁ഇതോടെ	-9.97373
▁ഏതാണ്ട്	-9.97374
പരമായി	-9.97392
▁പ്രധാനമാണ്	-9.97412
ിരിക്കണം	-9.97416
▁പാവം	-9.97432
ായിരുന്നോ	-9.9745
ിങ്ങ്	-9.97468
കാരം	-9.97473
▁ചന്ദ്ര	-9.97476
▁ബൈബിള	-9.97479
ജീവിത	-9.97502
രുത	-9.97504
▁ദൂര	-9.97577
IN	-9.97585
▁വടക്ക	-9.97599
▁പിന്നെയും	-9.97656
▁ലിങ്ക	-9.9768
▁അവനോട്	-9.97682
വള്‍	-9.97698
ുകൊടുക്ക	-9.97733
▁പ്രവർത്തന	-9.97772
മാര്‍ഗ	-9.97803
▁തെറ്റ്	-9.97828
▁സന്ദര്‍ഭം	-9.97836
to	-9.97848
▁ജീവി	-9.97871
▁സ്വാഭാവിക	-9.97872
28	-9.97897
ട്ടർ	-9.979
▁ഉണ്ടാക്കി	-9.97911
▁സ്വഭാവ	-9.97941
ാവുകയും	-9.97943
▁നല്‍കുന്നു	-9.97977
="2	-9.98031
ുമ്പോഴും	-9.98039
െക്കാള്‍	-9.98081
▁മറ്റാര	-9.98149
▁ഗ്രഹ	-9.98171
▁സുന്ദരി	-9.98197
▁ആരാധിക്ക	-9.98209
▁പെട്ടെന്ന	-9.9822
▁തിരിച്ചുവിട്ട	-9.98234
▁സ്ഥാപിച്ച	-9.98273
പാത	-9.98276
കൊണ്ടിരുന്നു	-9.98298
▁മക്കള്‍	-9.98311
▁തൊട	-9.98337
49	-9.98352
2)	-9.98353
▁കഴിയുമോ	-9.98355
രാജ്യ	-9.98365
▁വെബ്	-9.98383
ല്ലാവരും	-9.98386
▁പറയൂ	-9.98387
▁this	-9.98389
▁മുറിവ	-9.98399
▁തുടർന്ന്	-9.98463
ങ്കല	-9.98494
▁ഉണ്ട	-9.98538
▁ഉപയോഗിക്കുക	-9.98563
▁താൻ	-9.98582
ുമാകുന്നു	-9.98617
ർത്ഥ	-9.98631
▁ഉണ്ടാക്കിയ	-9.98756
▁രംഗത്ത	-9.98802
▁ചേട്ട	-9.98811
▁വിജയിക്ക	-9.98823
▁ചുമതല	-9.98845
▁മഹത്വ	-9.98854
▁മാതാവ	-9.98857
▁ആരു	-9.9887
തായിരിക്കും	-9.98885
▁കാസിനോ	-9.98922
▁പൂജ	-9.98945
സ്റ്റി	-9.98946
▁ചേർക്ക	-9.98948
ബൂ	-9.98966
▁കഴിയാത്ത	-9.98966
ക്കാലത്ത്	-9.98967
ങ്ങളുമായി	-9.98993
▁കുളി	-9.99001
ഭാഗത്ത	-9.99057
▁അനുകൂല	-9.99095
ുന്നതെന്ന്	-9.99112
കളഞ്ഞു	-9.9913
ബേ	-9.99221
▁പ്രാപിക്ക	-9.99225
▁ചിലത്	-9.99249
▁പ്രതീക്ഷിച്ച	-9.99271
ുമല്ലോ	-9.99296
▁ഈജിപ്	-9.9935
▁90	-9.99382
▁ഇന്‍	-9.99398
3)	-9.99449
ect	-9.99525
▁പരിഹാര	-9.9953
▁കേസ്	-9.99564
തന്ന	-9.99583
▁തടസ്സ	-9.99654
▁ഷാ	-9.99691
ദ്ദേശ	-9.99721
▁ഔദ്യോഗിക	-9.9973
▁കയ്യ	-9.99763
▁നിശ്ചയമായും	-9.99808
െടുത്ത്	-9.99819
▁നഷ്ടം	-9.99826
▁തൊഴില	-9.99831
▁ഒരുപോലെ	-9.99849
▁ചോദ്യങ്ങള്‍	-9.99861
▁Con	-9.99886
86	-9.99939
▁പകര	-9.99956
▁അവസാനത്തെ	-9.99962
▁സ്വാതന്ത്ര്യം	-10.0005
▁ബോധ്യ	-10.0006
ുടേത	-10.0009
▁അധി	-10.0013
▁ഇബ്	-10.0014
ശ്യ	-10.0019
▁എന്‍	-10.0019
▁ക്യാമറ	-10.002
ന്‍മാര്‍	-10.0025
▁മുറ	-10.0026
ti	-10.0033
▁ഗ്ര	-10.0035
▁ഭവന	-10.004
▁ദരിദ്ര	-10.0047
▁പുറത്തിറങ്ങ	-10.005
ര്‍ഹ	-10.0055
▁ചോദ്യങ്ങൾ	-10.0056
▁നീണ്ട	-10.0056
കൂടെ	-10.0057
▁അവസാനിക്ക	-10.0059
▁പ്രത്യേകത	-10.0061
യെടുക്ക	-10.0061
▁നാശ	-10.0062
▁കണ്ട്	-10.0064
മാകുന്ന	-10.0067
▁നാഥാ	-10.0067
av	-10.007
▁മനസ്സു	-10.007
▁അതിഥി	-10.0072
▁അർത്ഥ	-10.008
▁ഡോക്ടര്‍	-10.0082
സ്ഥല	-10.0083
ങ്ങളിലൂടെ	-10.0085
എൻ	-10.0087
▁ex	-10.0088
▁തിരയ	-10.0091
ഗതി	-10.0091
▁ഉയർത്ത	-10.0095
▁ശരിയാണ്	-10.0095
▁നല്‍കുക	-10.0098
പ്പെടുക	-10.01
▁ഉൽപ്പന്നങ്ങൾ	-10.0101
▁അല്ലാഹുവില്‍	-10.0102
▁മെച്ചപ്പെടുത്ത	-10.0105
▁ആത്മവിശ്വാസ	-10.0107
▁അറിയപ്പെടുന്ന	-10.0108
▁ധൈര്യ	-10.0109
▁മധ്യ	-10.011
▁ചെയ്യുകയും	-10.011
▁അമ്മയുടെ	-10.0117
▁വരി	-10.0117
▁സ്വാധീന	-10.012
ish	-10.0121
▁ഗണ	-10.0126
ുവാനുള്ള	-10.0129
ടിച്ചു	-10.013
use	-10.0132
ാമെന്ന്	-10.0133
യാണിത്	-10.0133
▁തുടര്‍ന്നു	-10.0137
▁കിഴക്ക	-10.0138
ction	-10.0139
ക്കെട്ട	-10.0139
▁ഇസ്രായേല	-10.014
സമയ	-10.0142
ുമെന്നാണ്	-10.0143
▁അടക്ക	-10.0146
ില്ലായിരുന്നു	-10.0151
▁സഹായിക്കുന്നു	-10.0154
▁താങ്കളെ	-10.0156
ന്റി	-10.016
▁വീടുകള	-10.0161
▁വകുപ്പ	-10.0163
ദർശ	-10.0169
▁പ്രാര്‍ഥിക്ക	-10.0173
ass	-10.0183
രിഞ്ഞ	-10.0184
ite	-10.0187
▁ആശങ്ക	-10.0188
▁നാമം	-10.019
▁ആശയം	-10.0196
▁പ്രേമ	-10.0197
▁ആയിരം	-10.0198
▁പൂര്‍ണ്ണ	-10.02
▁ഇണ	-10.0205
ക്കിട	-10.0208
കര്‍ത്താവ	-10.0208
ത്രി	-10.0209
▁കൊലപാതക	-10.0209
pl	-10.0215
▁മന്ത്ര	-10.0222
കൊടുത്തു	-10.0223
ress	-10.0224
▁മിക്കവാറും	-10.0229
▁വിധേയ	-10.0235
▁പ്രക്രിയ	-10.0238
▁പരീക്ഷിക്ക	-10.0239
രക്ഷ	-10.0239
േനെ	-10.024
ഥാ	-10.0244
▁കടക്ക	-10.0248
▁മുഴുവനും	-10.0248
▁അവരും	-10.025
ിക്കേണ്ട	-10.025
▁``	-10.0251
ല്ലെ	-10.0254
▁വിചാര	-10.0254
▁വര്‍ഷങ്ങള്‍	-10.0254
േഷന	-10.0255
▁ബാങ്ക്	-10.0255
▁തെരഞ്ഞെടുപ്പ	-10.0255
വരുന്ന	-10.0258
▁ദൃഷ്ടാന്ത	-10.0258
▁no	-10.0259
▁ഉദാഹരണത്തിന്	-10.026
▁ഭാര	-10.026
▁പുറത്താക്ക	-10.0263
▁ഉള്ളത്	-10.0264
ിലധികം	-10.0266
െങ്കിലോ	-10.0266
വനാകുന്നു	-10.0272
ുമായിരുന്നില്ല	-10.0272
▁മതം	-10.0274
ook	-10.0275
na	-10.0277
▁മനസ്സിലാക	-10.028
▁തൊട്ട	-10.0281
ിക്കളയ	-10.0283
▁സംഭവിച്ചു	-10.029
▁ചെയ്യരുത്	-10.0295
▁പങ്കെടുക്ക	-10.0297
▁article	-10.0297
▁ശി	-10.0298
▁ഏര്‍	-10.0301
േലും	-10.0304
▁തനിക്ക്	-10.0304
ക്കൊപ്പം	-10.0307
കൃതി	-10.031
േഷ	-10.0313
▁2016	-10.0319
▁ഇരുന്നു	-10.0321
കളിലെ	-10.0326
▁പേജ	-10.0328
▁നികുതി	-10.0331
അതെ	-10.0335
od	-10.0336
ുണ്ടെന്ന	-10.0336
ശോ	-10.0337
വിനെ	-10.035
▁ഇന്റ	-10.035
കൊടുത്ത	-10.0359
▁വിധം	-10.0363
വതി	-10.0365
ത്തേക്കു	-10.0368
റ്റിക്	-10.0371
ഞങ്ങള്‍	-10.0372
▁നേര്‍വഴി	-10.0373
▁കുറഞ്ഞത്	-10.0373
പ്രദ	-10.0375
▁സംഖ്യ	-10.0376
▁തന്നെയാകുന്നു	-10.0377
മാസ	-10.0377
▁അതൊക്കെ	-10.0377
▁തീയതി	-10.0379
▁പ്രസക്ത	-10.0383
ുണ്ടാക്ക	-10.0388
70	-10.0391
26	-10.0396
▁മുൻപ	-10.0406
▁ഇവര്‍ക്ക്	-10.0408
െവിടെ	-10.041
▁വിവാദ	-10.0414
▁സാർ	-10.0415
▁സര്‍വ	-10.0422
െങ്ങനെ	-10.0427
▁കൂട്ടത്തില്‍	-10.0432
▁(19	-10.0436
▁ദുഷ്ട	-10.0438
▁രചന	-10.0438
▁പ്രൊ	-10.0439
▁ഓര്‍ത്ത	-10.0444
▁അടുപ്പ	-10.0445
▁പൊറുത്തു	-10.0446
രുതേ	-10.0456
▁വേണ	-10.0457
ുന്നതല്ല	-10.0457
▁നിഷേധിച്ചു	-10.0459
▁ആഗ്രഹിക്ക	-10.0466
▁നേരിട്ട	-10.0469
▁ദൂതന	-10.0471
▁പോകാം	-10.0472
ീഷ	-10.0482
▁ആവേശ	-10.0485
കള്‍ക്കും	-10.0486
▁നല്ലതാണ്	-10.0486
ാറു	-10.049
▁കരി	-10.0494
ary	-10.0495
................	-10.0499
▁യെഹൂദ	-10.0501
▁ഇമെയിൽ	-10.0503
▁സജീവ	-10.0505
തൊന്നും	-10.0505
തെങ്കില്‍	-10.0507
▁നാഥന്റെ	-10.0513
man	-10.0514
ക്ഷേപ	-10.0515
ങ്ങളേ	-10.0518
▁അതുകൊണ്ടാണ്	-10.0518
െയിൻ	-10.0521
▁ഇതിനായി	-10.0522
▁അതിനുശേഷം	-10.0523
▁മുത്ത	-10.0523
ദൃ	-10.0531
▁നിലനിർത്ത	-10.0531
▁അന്വേഷണ	-10.0534
ിങ്ങനെ	-10.0541
്യമ	-10.0543
▁ദുര്‍	-10.0546
▁വേര്‍	-10.0548
55	-10.0549
▁പഠിപ്പിച്ച	-10.0551
▁ഡിസൈൻ	-10.0556
▁വിളിക്കുന്നു	-10.0557
▁ആത്മഹത്യ	-10.056
തവണ	-10.0561
▁ചിന്തിക്കുന്ന	-10.0561
!!!	-10.0564
▁വിശപ്പ	-10.0566
തിലും	-10.0574
▁മുഖ്യ	-10.0576
▁ആരാധന	-10.058
▁പോകാൻ	-10.0586
di	-10.0588
യാൾ	-10.059
▁ഗൗരവ	-10.0591
27	-10.0593
ാറുള്ള	-10.0595
മായിരുന്നില്ല	-10.0595
▁കീഴ്	-10.0597
▁വാസ്തവ	-10.0599
▁സലാം	-10.0603
▁ഇപ്പോഴത്തെ	-10.0605
▁മനുഷ്യന്	-10.0608
▁വിനോദ	-10.0618
കൂട	-10.0618
end	-10.0619
ിലോ	-10.062
ിതര	-10.0623
▁അല്ലാഹുവിന	-10.0623
▁കാണുന്നില്ല	-10.0627
▁ജോൺ	-10.063
▁ആഫ്രിക്ക	-10.0634
ഞ്ഞ്	-10.0638
▁മോശമായ	-10.0639
▁അമ്മയെ	-10.0641
▁തീരെ	-10.0645
▁എനിക്കറിയില്ല	-10.0647
വിധം	-10.0649
▁ആധുനിക	-10.0653
വചന	-10.0654
▁അത്യാവശ്യ	-10.0659
▁താമസിക്ക	-10.066
▁വച്ച്	-10.0662
▁അഹങ്കാര	-10.0663
▁ദൈവത്തിന്‍റെ	-10.0664
▁പോലീസ	-10.0665
▁ശുഭ	-10.0666
ർജ	-10.0666
ik	-10.0667
▁ഉപയോഗം	-10.0667
33	-10.0673
▁can	-10.0679
തിനേക്കാള്‍	-10.068
ിയിട്ടില്ല	-10.0689
46	-10.0692
▁ലിസ്റ്റ	-10.0692
ാര്‍ഥ	-10.0692
▁അതിനായി	-10.0693
▁പത്ത്	-10.0696
▁അഭയ	-10.0696
▁അസുഖ	-10.0696
oo	-10.0697
▁ദുര	-10.0704
ൊഴികെ	-10.0705
ിച്ചിരുന്ന	-10.0707
നിര്‍ദേശ	-10.071
▁കിട്ടുന്ന	-10.0711
കളിലേക്ക്	-10.0714
▁സങ്കട	-10.0715
▁പറഞ്ഞാൽ	-10.0724
▁കഴിക്കുന്ന	-10.0729
▁കാണണം	-10.0729
▁To	-10.073
▁as	-10.0733
▁ശ്രമം	-10.0734
▁രംഗ	-10.0738
▁ഉൽ	-10.0738
▁ജനസംഖ്യ	-10.0743
▁who	-10.0749
വസാന	-10.0751
▁തമ്മിൽ	-10.0753
പ്പുറത്ത	-10.0754
▁mo	-10.0756
▁പരിശോധിച്ച	-10.0763
▁കണ്ണുകള്‍	-10.0764
ല്ലാത്ത	-10.0764
▁മരുഭൂമി	-10.0769
▁ഭാഗ്യം	-10.0769
▁കുറിപ്പ	-10.077
▁രൂപം	-10.0772
▁കൊന്നു	-10.078
ang	-10.0782
▁വെട്ടി	-10.0784
െന്നോ	-10.0787
▁മോഡൽ	-10.0793
▁ഓർക്ക	-10.0795
▁കണ്ടില്ല	-10.0797
▁ഉറപ്പായും	-10.0799
ശേഷി	-10.0804
▁Pro	-10.0805
ru	-10.0805
▁പേജ്	-10.0812
▁ആരാണ	-10.0815
ദെ	-10.0819
▁പിറക	-10.0821
29	-10.0822
▁ബന്ധപ്പെടുക	-10.0823
പുര	-10.0824
യുണ്ടോ	-10.0826
▁വിറ്റ	-10.0828
▁വേണമെന്ന	-10.0829
ഘോഷ	-10.083
▁ദൃഷ്ടാന്തങ്ങള	-10.083
ന്താ	-10.0836
▁പോരാട്ട	-10.0845
▁മോച	-10.0851
▁ഭയം	-10.0852
14	-10.0853
▁35	-10.0854
സാഹ	-10.0857
31	-10.0859
▁റോഡ	-10.0862
▁മോള	-10.0876
▁അമേരിക്കന്‍	-10.0879
▁കണ്ടത്	-10.0879
6)	-10.0882
▁ആണെന്ന്	-10.0891
▁അധികാരം	-10.0894
▁കാത്തിരുന്ന	-10.0896
▁ഇരുപത	-10.09
▁ശ്രമിക്കുക	-10.0901
▁എന്താണ	-10.0901
▁ബഹുമാന	-10.0906
▁അവിടുത്തെ	-10.0906
▁കൊണ്ടുപോക	-10.0907
35	-10.0912
▁എന്തിനു	-10.0915
തീര	-10.0915
വര്‍ഗ	-10.0917
▁എപ്പോഴാണ്	-10.0919
▁കരാറ	-10.0921
▁പോളി	-10.0921
▁ആയിരുന്ന	-10.0922
▁സമ്മതിക്ക	-10.0923
▁ചേര്‍ന്ന	-10.093
8)	-10.093
▁കഴുക	-10.0932
▁സര്‍വ്വ	-10.0932
▁വ്യാജ	-10.0936
പിച്ചു	-10.0937
മരണ	-10.0938
▁Sh	-10.0939
▁ടെസ്റ്റ	-10.094
▁കാർഡ്	-10.094
യാകും	-10.0941
▁മിനിറ്റ	-10.0945
▁സുരക്ഷാ	-10.0946
▁ബ്ലോഗ്	-10.0946
നിശ്ചയ	-10.0948
▁തയ്യാറാക്ക	-10.0952
up	-10.0957
പ്പോയ	-10.0962
▁ചേച്ചി	-10.0963
ുന്നുവെങ്കില്‍	-10.0964
ില്ലെങ്കിൽ	-10.0965
▁India	-10.097
യാക്കി	-10.0973
▁ഡ്ര	-10.0981
▁ദുരിത	-10.0981
ശിക്ഷ	-10.0983
▁ഏതായാലും	-10.0984
▁ചേര്‍ത്ത	-10.0987
കർത്താവ	-10.099
▁കത്തി	-10.0998
▁ജയിക്ക	-10.1001
ൻസി	-10.1002
▁പോലെയാണ്	-10.1005
ിടത്തോളം	-10.1008
▁ചെറുപ്പ	-10.1009
▁കുട്ട	-10.101
▁സ്നേഹിക്കുന്നു	-10.101
▁മകൻ	-10.1011
ory	-10.1019
▁അഗ്നി	-10.1022
സ്റ്റോ	-10.1024
▁വായനക്കാര	-10.1026
▁2011	-10.1029
▁കുടിച്ച	-10.103
▁കല്പിച്ച	-10.1031
▁ജീവിതത്തിലെ	-10.1031
ണമെന്നും	-10.1033
ബറ	-10.1035
▁നിഷ്	-10.1039
സിഡ	-10.1044
ർത്തി	-10.1045
▁കക്ഷി	-10.1049
▁മോഡ	-10.1051
ാത്മക	-10.1052
▁പുഴ	-10.1058
J	-10.1058
▁ഐക്യ	-10.106
▁സൗ	-10.106
നിധി	-10.1064
ില്ലാതെ	-10.1076
▁എവിടെയാണ്	-10.1079
▁ആർക്കും	-10.1081
മത്രെ	-10.1088
▁പ്രശസ്ത	-10.1089
▁ഉൾ	-10.1093
▁ജപ്പാന	-10.1093
ായിരം	-10.1096
ദിനം	-10.11
ുകളിലും	-10.1106
െല്ലാ	-10.1111
▁റിസ	-10.1113
▁വിലക്ക	-10.1121
പതി	-10.1126
▁ഛ	-10.113
cl	-10.1132
താപ	-10.1134
▁നിലപാട	-10.1136
ട്ടേ	-10.1136
▁പ്രശ്നങ്ങൾ	-10.1138
▁You	-10.1142
▁ക്ഷണിക്ക	-10.1143
▁ധാരണ	-10.1155
വളെ	-10.1159
▁നാല	-10.1162
ാർഡ്	-10.117
▁ദിവ്യ	-10.117
▁ആണു	-10.1171
▁സമ്മാനം	-10.1173
▁കാൽ	-10.1174
ുമൊക്കെ	-10.1174
▁വലിച്ച	-10.1174
ാവൂ	-10.1175
▁തന്നു	-10.1177
▁അപ്	-10.118
mo	-10.1183
▁എളുപ്പമാണ്	-10.1185
▁സംസ്കാര	-10.1187
▁നിർമ്മിക്ക	-10.119
െനിക്ക	-10.1192
▁സംഭാഷണ	-10.1193
▁മനസ്സ്	-10.1195
▁ജീവിതത്തിന്റെ	-10.1196
▁വിരല	-10.1196
▁എന്തിന	-10.1198
▁എവിട	-10.12
▁ഒരുമിച്ചു	-10.1201
▁അവസാനിപ്പിക്ക	-10.1204
▁ട്രെയിന	-10.1204
▁ആശ്വാസ	-10.1209
▁സംഭവിക്കുന്ന	-10.1211
34	-10.1211
ീരിയ	-10.1211
തന്ത്ര	-10.1218
ca	-10.1218
▁ഉടന്‍	-10.122
▁വർഷങ്ങൾ	-10.122
▁തൃ	-10.1221
▁സാഹിത്യ	-10.1223
കളോട്	-10.1224
▁ഉപയോഗിക്കുന്നത്	-10.1224
▁തൂക്ക	-10.1228
▁ഉടമ	-10.1229
▁പരിശീലനം	-10.1229
▁രീതിയില	-10.123
▁ഭക്തി	-10.1233
വിട്ട	-10.1234
▁വിധിക്ക	-10.1235
▁ആകാം	-10.1236
▁ആഹാര	-10.1239
▁താമസിക്കുന്ന	-10.124
▁യൂണിവേഴ്സിറ്റി	-10.1243
▁ശൈലി	-10.1244
ob	-10.1244
▁മുസ്ലിം	-10.1245
▁കാത്തിരിക്കുന്ന	-10.1246
▁യിസ്രായേല	-10.1247
ലുകള	-10.1252
▁പാർ	-10.1256
െങ്കിലുമ	-10.1259
▁നശിച്ച	-10.1259
▁യാത്രാ	-10.126
▁വിവരണം	-10.1261
▁പരിഹാരം	-10.1261
ഷണം	-10.1263
▁ശവ	-10.1265
മിട	-10.1267
▁കുറച്ച	-10.127
▁സ്വന്തമായി	-10.1272
▁പോകാന്‍	-10.1273
നെയും	-10.1274
▁ലക്ഷ	-10.1277
രഹിത	-10.128
വശത്ത	-10.1284
▁എന്തിനാ	-10.1285
▁പാർട്ടി	-10.1285
▁എളുപ്പം	-10.129
▁വാചക	-10.1291
▁വേദഗ്രന്ഥ	-10.1291
▁ഭരണഘടന	-10.1294
യാള്‍	-10.1294
▁നൽകാൻ	-10.1297
▁അതിശയ	-10.1301
മുമ്പ്	-10.1304
▁തിന്മ	-10.1309
ുന്നതായി	-10.1309
തുകൊണ്ടു	-10.1316
36	-10.1317
ബോധം	-10.1319
ink	-10.132
▁സ്ത്രീകളെ	-10.1325
ൊക്കെയും	-10.1325
▁പരമകാരുണികന	-10.1326
so	-10.1326
▁വേഷ	-10.1334
▁ഇസ്ലാമ	-10.1338
▁മറിയ	-10.1339
▁നടക്കുന്നത്	-10.134
രാണെന്ന്	-10.134
▁എന്നറിയ	-10.1343
▁തയാറ	-10.1344
▁നൈ	-10.1344
മ്മാ	-10.1348
▁തുടർന്നു	-10.1353
▁മണ്ട	-10.1355
@	-10.1358
▁കരുത്ത	-10.1359
▁വൈകാതെ	-10.1361
▁ചിത്രങ്ങൾ	-10.1362
ാഴ്	-10.1363
മേൽ	-10.137
ുന്നതുവരെ	-10.1374
▁ഏതാണ്	-10.1376
വൃത്തി	-10.1376
▁ഉണ്ടായി	-10.1378
കളുടെയും	-10.1379
ക്കുട്ടി	-10.1385
▁ഇക്കാര്യം	-10.139
56	-10.1396
▁കല്യാണ	-10.14
▁എന്നീ	-10.1402
▁നാവ	-10.1404
ost	-10.1405
▁റേ	-10.1407
▁അപ്പൊ	-10.1408
▁മീന	-10.1411
▁ഇഷ്ടപ്പെട	-10.1411
▁വിലാസം	-10.1412
▁തെളിഞ്ഞ	-10.1413
ങ്ങളുമ	-10.1414
ുന്നവരും	-10.1414
▁all	-10.1416
▁അവനാണ്	-10.1423
ുണ്ടാവും	-10.1427
▁കടം	-10.143
▁തരുന്ന	-10.1435
▁അറിയാത്ത	-10.144
▁അനീതി	-10.144
▁പരിമിത	-10.1442
▁എഴുന്ന	-10.1442
▁ഗാന	-10.1444
▁പാക	-10.1445
▁എന്താണെന്ന്	-10.145
പോകുന്ന	-10.1454
▁വര്‍ഷത്തെ	-10.1455
▁നിർദ്ദേശ	-10.1463
▁ആവശ്യമുള്ള	-10.1464
ടുപ്പ	-10.1465
▁മിണ്ട	-10.147
ബിൾ	-10.1473
കിട	-10.1479
▁ക്ഷീണ	-10.1485
▁പദവി	-10.1487
▁ഇറക്ക	-10.1488
▁മത്സരം	-10.1489
▁വ്യായാമ	-10.1489
▁തട്ടി	-10.1491
വയ്ക്ക	-10.1494
▁മറിച്ച്	-10.1495
▁ഹരി	-10.1495
▁ചുവന്ന	-10.1498
▁വിശ്വ	-10.1498
▁കുപ്പി	-10.15
▁ഇന്ത്യയിലെ	-10.15
▁മനുഷ്യരുടെ	-10.1503
പാദ	-10.1504
▁ജയില	-10.1507
▁അവകാശം	-10.1507
▁ഇന്ത്യന്‍	-10.1511
95	-10.1512
▁കുറവ്	-10.1517
▁പറഞ്ഞില്ല	-10.1519
▁കുള	-10.1519
▁അധ	-10.1532
▁വളര്‍ത്ത	-10.1534
ജ്ജ	-10.1537
▁will	-10.1539
രാജാവ	-10.1551
▁സിറ്റി	-10.1553
ദര്‍ശ	-10.1554
lu	-10.1554
േശ	-10.1554
റ്റെ	-10.1555
റ്റോ	-10.1559
▁എല്ലാവരെയും	-10.1561
▁സംഭാവന	-10.1564
▁ശാരീരിക	-10.1566
▁ഓര്‍ക്കുക	-10.1575
▁അനാഥ	-10.1575
▁അവതരിപ്പിച്ചു	-10.1575
▁തള്ളി	-10.1578
ാണത്	-10.158
▁അനുവാദ	-10.158
▁ഒക്കെയും	-10.1581
▁പൊട്ടി	-10.1581
▁ജനങ്ങൾ	-10.1584
▁കൃതി	-10.1584
▁അത്രയും	-10.1584
▁ജനുവരി	-10.1586
▁താല്പര്യ	-10.1586
▁രണ്ടോ	-10.159
▁അപ്പോഴ	-10.1595
▁വാക്യ	-10.1597
മാണെന്ന	-10.1597
▁ഭയങ്കര	-10.1598
▁പൂർത്തിയാക്ക	-10.16
സൺ	-10.1602
▁തിരിച്ചെത്ത	-10.1603
ടീ	-10.1606
▁വാതില	-10.1606
(1	-10.1615
▁വൃത്തി	-10.1617
▁പ്രതികരണ	-10.162
യോഹ	-10.162
▁ഉറക്കം	-10.1622
നില്‍ക്ക	-10.1623
ത്തിലേ	-10.1623
ase	-10.1628
ess	-10.1633
▁വിശ്വസ്ത	-10.1639
▁വിശദീകരണ	-10.1648
▁കേരളത്തിലെ	-10.1648
▁നിർമ്മാണ	-10.1653
ണമെന്നില്ല	-10.1654
▁ബാറ്ററി	-10.1655
ord	-10.1656
ിക്കൊടുക്ക	-10.1662
▁ഒഴിഞ്ഞ	-10.1663
▁കണ്ടിട്ടില്ല	-10.1674
▁ഈശോ	-10.1674
▁നിശബ്ദ	-10.1675
▁ഓണ	-10.1675
ue	-10.1675
പിന്നെ	-10.1676
▁തരൂ	-10.1682
കാര്യം	-10.1682
▁ശത്രുവ	-10.1686
▁ചേര്‍ക്ക	-10.1687
▁ലഭ്യമാണ്	-10.1688
▁വരില്ല	-10.169
ണമേ	-10.1698
▁അനുയോജ്യമായ	-10.1698
ങ്ങും	-10.17
▁ചതി	-10.1701
pp	-10.1702
ുണ്ടാകുന്ന	-10.1702
ലിനെ	-10.1706
▁ഗു	-10.1707
▁അടുക്കള	-10.1709
▁സംഭവിച്ചത്	-10.171
▁മാത്രമാകുന്നു	-10.172
▁സഹകരണ	-10.1722
▁അങ്ങനെയാണ്	-10.1729
▁ഉപകരണങ്ങൾ	-10.173
13	-10.1733
ta	-10.1733
▁പ്രതിസന്ധി	-10.1733
▁ഉട	-10.1736
▁പുലര്‍ത്ത	-10.1737
▁ശേഖരിച്ച	-10.1738
വനു	-10.1747
▁അളവ്	-10.1748
▁പാറ	-10.1749
▁പ്രത്യേകിച്ച്	-10.1756
▁Di	-10.1758
▁പന്ത	-10.1758
57	-10.1758
▁ആഗ്രഹിച്ച	-10.1761
ick	-10.1762
▁വിചാരണ	-10.1765
▁വാർത്തകൾ	-10.1766
കളെല്ലാം	-10.1767
ന്റേത	-10.1777
▁മന്ത്രവാദ	-10.1779
▁ഉയര്‍ത്ത	-10.1785
▁Al	-10.179
സിസ്	-10.1791
നുഭവ	-10.1799
▁മാര്‍ഗത്തില്‍	-10.1805
▁അവർക്കു	-10.1807
മറിയ	-10.1808
▁man	-10.1808
min	-10.1813
▁കൈമാറ	-10.1818
▁ഒരുമിച്ച്	-10.1824
▁തിരഞ്ഞെടുക്കുക	-10.1825
ധിക	-10.183
▁200	-10.1831
ിപ്പിക്കുകയും	-10.1833
ന്ത്യ	-10.1834
66	-10.1837
▁എഴുന്നേറ്റു	-10.1839
▁വല്ലവനും	-10.184
▁മുന്നോട്ട്	-10.1845
▁മുഖ്യമന്ത്രി	-10.1849
▁സൗജന്യ	-10.185
▁go	-10.1852
▁മേഘ	-10.1859
▁കേരളം	-10.1866
ഫെ	-10.1871
▁മനോ	-10.1872
▁വലുപ്പ	-10.1872
▁ഭൂമിയെ	-10.1876
port	-10.1878
▁ആരോപണ	-10.188
▁ടെക്	-10.1885
െന്തു	-10.1889
ിറങ്ങ	-10.1889
-20	-10.1891
▁മുള	-10.1891
▁എന്തൊരു	-10.1893
▁ബാധിക്കുന്ന	-10.1895
98	-10.1896
ാവണം	-10.1896
ക്കൂടി	-10.1898
ood	-10.1899
▁നിറവേറ്റ	-10.19
▁കോളേജ	-10.1909
7)	-10.1911
മനസ്	-10.1915
▁Read	-10.1917
▁പോരാട	-10.192
▁ഭാരത	-10.1921
▁രാജാവ്	-10.1927
ചിക	-10.1927
▁രാമ	-10.1932
യുണ്ട	-10.1941
hy	-10.1943
au	-10.1943
ിനൊപ്പം	-10.1946
തൊ	-10.1947
▁വിമാനം	-10.1948
43	-10.1949
▁പ്ലേ	-10.1955
▁പലിശ	-10.1957
▁താമസിച്ച	-10.1962
▁നിഴല	-10.1966
ുമായിരിക്കും	-10.1968
▁നിന്നോടു	-10.197
ികമായ	-10.1976
ഭാഗ്യ	-10.1978
▁ഘടന	-10.1981
ens	-10.1982
▁നൂറു	-10.1984
ക്കാരന്‍	-10.1985
മുറി	-10.1986
▁ജീവൻ	-10.1987
▁ഡ്രൈവർ	-10.1993
▁സ്വപ്	-10.2005
▁വേറൊരു	-10.2006
▁സ്കൂൾ	-10.2009
▁നടപ്പിലാക്ക	-10.2009
▁റൂമ	-10.2009
ൈന	-10.2011
▁അധ്യാപക	-10.2021
▁തിരിച്ചുവര	-10.2022
▁കോൺ	-10.2022
▁വിദ്യ	-10.2025
▁സമാ	-10.2028
▁സഹോദരന്മാര	-10.2033
മാണത്	-10.2033
വസ്തു	-10.2037
▁വിഭവ	-10.2037
▁ഗുരുതരമായ	-10.2038
sp	-10.2042
ിപ്പോ	-10.2043
▁ശിവ	-10.2043
ുമാറ	-10.2044
▁ആശ്രയ	-10.2054
▁വൃദ്ധ	-10.2054
▁ആകയാല്‍	-10.2057
▁ജനങ്ങള്‍ക്ക്	-10.2062
▁ഇരുന്ന	-10.2069
▁ആൾ	-10.207
▁അദ്ദേഹത്തിന്‍റെ	-10.2071
▁പോകുക	-10.2071
▁2008	-10.2071
റ്റീവ്	-10.2074
▁സഹോദരന	-10.2075
▁പാസ്	-10.2076
ുകാര്‍	-10.2082
▁എന്തും	-10.2083
▁പടിഞ്ഞാറ	-10.2089
▁കുട്ടിയെ	-10.2093
lay	-10.2094
സിന്	-10.2095
32	-10.2097
▁കാപ്പി	-10.2098
▁പ്രത്യേകം	-10.21
▁ഒഴിവ	-10.2101
▁പഠിച്ചു	-10.2103
▁ഗ്ലാസ്	-10.2104
▁പാക്കേജിംഗ്	-10.2107
▁മലയാളം	-10.2107
▁വല്ലതും	-10.2108
▁പാചക	-10.211
▁ചിരിക്ക	-10.211
AN	-10.2112
no	-10.2116
ran	-10.2116
വെള്ള	-10.212
▁പതിവ	-10.212
AT	-10.212
യെന്നു	-10.2125
▁അരി	-10.2131
▁പ്രാധാന്യം	-10.2132
്‍റെ	-10.214
▁വിശ്വാസികള്‍	-10.2142
▁എൻറെ	-10.2145
▁പ്രോത്സാഹിപ്പി	-10.2152
വരിക	-10.2152
▁നല്‍കപ്പെട്ട	-10.2154
▁അനുസരിച്ച്	-10.2158
▁32	-10.2158
ര്‍ന്നു	-10.2159
ER	-10.2162
▁45	-10.2166
▁കാരണമാക	-10.2167
ath	-10.2168
▁കണ്ണുകള	-10.217
ഫാ	-10.2171
യായിരിക്ക	-10.2174
▁ഗ്രീ	-10.2174
▁അംഗീകാര	-10.2181
തുമില്ല	-10.2181
▁2012	-10.2182
▁കൊടുക്കുന്ന	-10.2189
▁ചര	-10.219
▁അടിച്ച	-10.2202
▁ആള്‍	-10.2202
ey	-10.2207
▁വല്ലാതെ	-10.2216
▁ചെറുപ്പക്കാര	-10.223
ങ്ങളൊന്നും	-10.2231
ഷ്ണ	-10.2232
▁കൊതി	-10.2234
app	-10.2234
▁%	-10.2238
▁മനസിലായ	-10.2238
▁കൺ	-10.2242
▁ഇല്ലാതാക്ക	-10.2246
▁എതിർ	-10.2248
▁തിരിച്ചറിഞ്ഞ	-10.2248
▁പ്രവര്‍ത്തി	-10.2248
▁കല്‍പന	-10.2248
ബീ	-10.2255
▁കഠിനമായ	-10.2256
▁നിലവിളി	-10.2256
മാണെന്നു	-10.2256
69	-10.2256
▁ജീവിതത്തെ	-10.2257
▁കാര്യമായ	-10.2258
മുള്ളവര	-10.2262
പുത്രന്മാര	-10.2263
▁രക്ഷപ്പെട	-10.2264
ഥി	-10.2265
▁മാര	-10.2266
▁പ്രവാസി	-10.2267
റിയാമോ	-10.2269
72	-10.2271
▁മകനെ	-10.2273
ിരിക്കാം	-10.2273
▁മൊത്ത	-10.2273
▁കൈവശ	-10.2276
sk	-10.2276
▁2010	-10.228
ting	-10.2281
▁കൊല്ലം	-10.2281
▁അച്ഛൻ	-10.2283
▁ഇരിക്കുന്ന	-10.2286
▁പിൻ	-10.2288
രൊ	-10.2288
ഹേ	-10.229
▁ടാങ്ക	-10.2294
▁താക്കീത്	-10.2297
▁തോന്നുന്നില്ല	-10.2302
▁കുറവാണ്	-10.2302
ചിത്ര	-10.2306
നിയമ	-10.231
▁കുരു	-10.2312
AR	-10.2317
മുമ്പ	-10.2324
ൈഡ്	-10.2326
▁ആത്മീയ	-10.2329
യേശു	-10.2338
iz	-10.2339
▁പഠിപ്പിച്ചു	-10.234
▁ഭിന്ന	-10.2342
▁ട്രേഡ	-10.2343
▁അവന്ന്	-10.2343
po	-10.2345
▁ഒന്നുമില്ല	-10.2347
ിനായി	-10.2347
▁എന്നിട്ട	-10.2348
ുന്നുവെന്ന്	-10.2353
▁സ്റ്റീൽ	-10.2356
▁80	-10.236
▁താന	-10.2363
രുവ	-10.2363
▁അങ്ങേ	-10.2366
കരമാണ്	-10.2368
▁മരുന്നു	-10.2376
▁ഉത്തരവ	-10.2376
▁പറയുന്നതു	-10.2378
67	-10.238
ങ്ങിനെ	-10.2382
▁ലീ	-10.2382
▁ത്ര	-10.2383
▁ഒരൊറ്റ	-10.2383
▁ആഘോഷിക്ക	-10.2384
ുകൊണ്ടിരുന്ന	-10.2385
▁ഇതൊന്നും	-10.2386
os	-10.2388
▁വീട്ടിലെ	-10.2388
▁മധുര	-10.2393
▁words	-10.2393
han	-10.2393
▁യേശുവിനെ	-10.2394
▁കുത്തി	-10.2394
▁അനുസരിച്ച	-10.2394
നെപ്പോലെ	-10.2397
▁ഏഴ്	-10.2399
ber	-10.2403
പ്പേര	-10.2407
ുണ്ടായി	-10.2408
▁വിരോധ	-10.2409
▁സ്ത്രീകള	-10.241
രുള	-10.2413
▁ബിസിനസ്സ്	-10.2414
▁ക്ലാസ്	-10.2417
▁പ്രതികരണം	-10.2418
▁അനുഭവിച്ച	-10.2419
▁കോഡ്	-10.2421
▁സൗഹൃദ	-10.243
▁2020	-10.2431
▁രക്ഷപ്പെടുത്ത	-10.2435
▁നല്‍കാന്‍	-10.2435
ുമെല്ലാം	-10.2436
▁ഇഷ്ടമാണ്	-10.2437
വരുന്നു	-10.2443
▁നിലവാര	-10.2444
▁പ്രതിഷേധ	-10.2444
▁su	-10.2458
പേര്‍	-10.2458
son	-10.2458
▁പൊട്ട	-10.2459
ിറക്ക	-10.246
▁അയയ്ക്ക	-10.2462
▁പ്രധാനമായും	-10.2463
▁അന്താരാഷ്ട്ര	-10.2467
▁സമൂഹം	-10.2468
▁സൂക്ഷ്മത	-10.2472
വരായി	-10.2474
="3	-10.2477
▁എനിക്കിഷ്ട	-10.248
പിടിച്ച	-10.2482
▁മൂട	-10.2482
▁ഉദ്യോഗസ്ഥ	-10.2484
ന്മാരും	-10.2484
▁up	-10.2485
▁US	-10.2485
വര്‍ക്കു	-10.2486
▁ലേക്ക്	-10.2487
96	-10.2499
ഡ്രോ	-10.2505
െനിക്ക്	-10.2506
നുസരിച്ച	-10.2508
പറ്റി	-10.2509
▁പ്രവേശന	-10.2511
ong	-10.2512
▁ഉറച്ച	-10.2512
▁വളർത്ത	-10.2515
▁മെയ്	-10.2516
▁സൈറ്റ്	-10.2516
െക്കാളും	-10.2521
ous	-10.2522
ാകെ	-10.2524
59	-10.2526
ദാന	-10.2526
▁ലോകത്തിന്റെ	-10.2528
▁വിദ്യാഭ്യാസം	-10.2529
▁ചിത്രങ്ങള്‍	-10.2533
▁ഭംഗി	-10.2534
▁നല്‍കിയത്	-10.2534
▁കണ്ടെത്താൻ	-10.2537
▁യുഎസ്	-10.2537
▁അന്വേഷണം	-10.2538
ൻറെ	-10.2541
▁നിശ്ചയം	-10.2541
▁തണുത്ത	-10.2541
കൂടാ	-10.2542
▁പിടികൂട	-10.2543
▁വംശ	-10.2544
▁have	-10.2544
▁ബോണസ്	-10.2544
ഘട്ട	-10.2551
ക്ഷൻ	-10.2553
▁അടുത്തേക്ക്	-10.2557
▁പെരുമാറ്റ	-10.2558
▁ചേർന്ന	-10.2558
▁2009	-10.2559
സാക്ഷി	-10.256
▁മോദി	-10.2564
ാമത്തെ	-10.2566
▁അനിവാര്യ	-10.2569
▁പിന്നില	-10.257
▁ഓർത്ത	-10.2572
യാവു	-10.2574
▁ചിന്തിച്ചു	-10.2578
▁നങ്ങള്‍	-10.2579
▁വച്ചു	-10.2579
▁ഉപയോഗിക്കാൻ	-10.2582
▁അറിയാതെ	-10.2582
▁കുഞ്ഞിനെ	-10.2588
▁70	-10.2592
സാര	-10.2592
ൊപ്പം	-10.2607
യല്ലാതെ	-10.2609
UR	-10.2612
വാസികള	-10.2616
▁അനന്ത	-10.262
▁പുതുക്ക	-10.2622
▁ഉപയോഗിക്കാം	-10.2627
▁സംരക്ഷണ	-10.2629
▁പടി	-10.2635
▁കുഴ	-10.2636
▁ബന്ധുക്കള	-10.2636
▁36	-10.2638
▁ഗ്ല	-10.2638
▁പരു	-10.2639
ങ്ങള്	-10.2639
▁താരതമ്യ	-10.2639
▁കൊടു	-10.2643
▁ഉത്തരവാദിത്ത	-10.2648
▁പോയത്	-10.2653
▁റേഡിയോ	-10.266
എഫ്	-10.2662
▁ഭാര്യമാര	-10.2663
റുക്ക	-10.2664
▁നിരീക്ഷണ	-10.2672
ർമാർ	-10.2672
ത്തോടു	-10.2677
▁നോമ്പ	-10.2679
▁അച്ചടി	-10.2679
▁ഉപകരണ	-10.2683
യ്ക്കുക	-10.2686
▁ജനന	-10.2688
▁കുടി	-10.2691
▁അടുക്കൽ	-10.2691
ങ്ങളിലേക്ക്	-10.2693
▁തീരുമാനിച്ച	-10.2697
പറഞ്ഞ	-10.2699
52	-10.2702
▁വിഡ്ഢി	-10.2702
ാവകാശ	-10.2704
▁ചുറ്റ	-10.2705
▁ഭക്ഷിക്ക	-10.2708
▁പരിശോധിക്കുക	-10.2709
▁കഴിച്ചു	-10.2709
▁അല്ലാത്ത	-10.2709
▁വിൽക്ക	-10.2715
▁He	-10.2716
തെങ്ങനെ	-10.2717
▁ആലോചിച്ച	-10.2717
▁വന്നെത്ത	-10.2717
ധര	-10.2719
▁ദൂരം	-10.2724
▁WEB	-10.2725
▁മത്സ്യ	-10.2725
▁കാര്യത്തിൽ	-10.2726
ചോ	-10.2727
▁ഇടതു	-10.2727
ിലെത്തി	-10.2727
ണമെങ്കില്‍	-10.2729
▁അടുത്തത്	-10.2732
പാടു	-10.2741
▁ജയിച്ച	-10.2743
▁ഡേറ്റ	-10.2759
ാള്‍	-10.2765
▁ഉപകാര	-10.2766
ർന്നു	-10.2773
▁പ്രഖ്യാപിക്ക	-10.2776
▁മനസ്സിലായി	-10.2779
▁കല്പന	-10.2779
▁33	-10.278
ശ്വാസ	-10.2783
▁പറയേണ്ട	-10.2785
▁അപ്രകാരം	-10.2787
85	-10.2788
പാദന	-10.2788
▁കൊണ്ടുവന്ന	-10.2791
▁പങ്കിട	-10.2795
▁അദ്ദേഹത്ത	-10.2796
88	-10.2797
▁യജമാന	-10.2797
▁കൊള്ളുക	-10.2799
▁പരിശീലന	-10.28
ുവിന്റെ	-10.2802
▁പുക	-10.2804
▁വൈകുന്നേരം	-10.2805
വേദ	-10.2806
▁നിശ്ചയിക്ക	-10.2809
▁മോന	-10.2811
▁ഡിസംബർ	-10.2815
58	-10.2815
71	-10.2815
▁ബ്രിട്ട	-10.282
▁മണിക്കൂര്‍	-10.2828
▁j	-10.2828
▁ശ്രമിക്കുന്ന	-10.2829
ുകള്‍ക്ക്	-10.2836
97	-10.2836
▁ദൈവിക	-10.2838
▁വെറുപ്പ	-10.2838
▁പ്രവാചകന	-10.2839
▁അകലെ	-10.2839
▁കാലയളവ	-10.2841
▁വോട്ട്	-10.2841
▁ദൂരെ	-10.2846
▁തിരിയ	-10.2848
▁സ്വത്ത	-10.2851
▁അച്ഛന്‍	-10.2854
▁വ്യക്തിപരമായ	-10.2854
ചേര	-10.2854
▁മരുന്ന്	-10.2855
▁സഹായി	-10.2858
▁ചെയ്തിട്ടില്ല	-10.286
▁സംരംഭ	-10.2861
▁ഭാര്യയെ	-10.2862
ated	-10.2868
▁വർദ്ധിപ്പിക്ക	-10.2874
▁ഊർജ്ജ	-10.2875
▁ആനന്ദ	-10.2877
ന്ത്ര	-10.288
▁നടി	-10.2884
▁ലിമിറ്റഡ്	-10.2884
▁ഇട്ട	-10.2885
▁മിനി	-10.2886
▁ഉദ്ദേശ	-10.2886
▁എട്ടു	-10.2887
▁തുടങ്ങിയവ	-10.289
ങ്ങളാണ	-10.2895
▁സ്റ്റേഷന	-10.2897
▁സമയവും	-10.2897
▁പുര	-10.2912
▁ലക്ഷണ	-10.2919
ൂടെ	-10.2919
▁ബുക്ക്	-10.2922
▁തുടരുന്നു	-10.2922
▁അനുഭവപ്പെട	-10.2926
പത്ര	-10.2926
09	-10.2931
കുമാര	-10.2935
own	-10.294
ഗെ	-10.2942
ില്‍നിന്നു	-10.2942
04	-10.2942
തല്ലേ	-10.2944
▁ഹോം	-10.2944
▁ഓൺ	-10.2948
യാണെങ്കില്‍	-10.2951
▁പ്രമുഖ	-10.2952
-2	-10.2953
les	-10.2956
9)	-10.2958
▁ശ്ര	-10.2959
▁കുറഞ്ഞു	-10.296
▁നടന്നത്	-10.296
▁മുകളില്‍	-10.2962
▁മുന്നിൽ	-10.2967
ach	-10.2967
▁സംസാരിക്കുന്ന	-10.2967
▁am	-10.297
▁ഇന്ത്യയിൽ	-10.2973
▁ക്രിസ്തുവ	-10.2976
▁പ്രസിദ്ധ	-10.2977
▁പൊളി	-10.2977
▁അവര്	-10.2978
ult	-10.298
▁ജീ	-10.2983
മെടുക്ക	-10.2984
ai	-10.2988
▁സമാധാനവും	-10.2991
▁നേരത്തേ	-10.2991
▁ഭൂതകാല	-10.2992
91	-10.2994
▁നിരക്ക	-10.2996
▁യന്ത്ര	-10.2997
മാസം	-10.2998
▁കയ്യില്‍	-10.2999
▁കാര്യങ്ങളും	-10.2999
▁പരമ്പര	-10.3002
45	-10.3002
െഴുതിയ	-10.3004
വേള	-10.3005
ര്‍ദ്ദ	-10.3006
▁ഫറവോ	-10.3007
ഭാഗ	-10.3007
▁പാട്ട്	-10.3007
ark	-10.3016
▁ഗിഫ്റ്റ്	-10.3017
▁പൈസ	-10.3025
02	-10.3028
▁ചെയ്തിട്ടുണ്ട്	-10.303
▁ഓർമ	-10.3034
പ്രദേശ	-10.3038
▁അതുകൊണ്ടുതന്നെ	-10.3046
▁പാവ	-10.3046
തിനെക്കുറിച്ച്	-10.3047
line	-10.3048
അങ്ങനെ	-10.3048
▁പരാജയപ്പെട്ട	-10.3049
▁ഇതിനകം	-10.3052
▁പൊറുത്തുകൊടുക്ക	-10.3054
▁വേഗത്തിൽ	-10.3054
▁അഭിനയ	-10.3056
▁സഹിക്ക	-10.3057
ിറങ്ങി	-10.3058
▁വാതിൽ	-10.306
▁ഉള്ളൂ	-10.3062
▁അവഗണിക്ക	-10.3067
▁സാര	-10.3067
യുണ്ടായിരുന്നു	-10.3071
ഡിംഗ്	-10.3072
▁യുവതി	-10.3073
സഹായ	-10.3078
▁ജാലവിദ്യക്കാര	-10.3079
ാമെന്ന	-10.3082
03	-10.3084
ിപ്പിക്കുന്നു	-10.309
▁വയ്യ	-10.3091
പോർട്ട	-10.3093
"(	-10.3095
ുന്നവരുടെ	-10.3097
64	-10.3097
▁യേശുവ	-10.3098
▁രാത്രിയില്‍	-10.3098
നില്ക്ക	-10.3098
വിവര	-10.3098
▁കര്‍മ	-10.3098
ലിന്	-10.31
ort	-10.3104
▁നല്‍കുന്നത്	-10.3108
05	-10.3111
▁ദീര്‍ഘ	-10.312
▁നടക്കും	-10.3121
▁En	-10.3126
0,000	-10.3128
▁പൈ	-10.3128
rea	-10.3128
77	-10.3133
▁സൌ	-10.3133
▁ഉപയോഗിച്ചു	-10.3135
▁So	-10.3135
യ്ക്കായി	-10.3136
▁നൽകുക	-10.3137
ഭ്ര	-10.3139
ount	-10.3141
▁തിരിച്ച്	-10.3144
▁ബൈബിൾ	-10.3147
രാക	-10.3149
▁സംശയമില്ല	-10.3154
▁പുണ്യ	-10.3156
▁ചിരിച്ചു	-10.3159
▁നിർമ്മിച്ച	-10.3163
▁വന	-10.3164
കൃത്യ	-10.3168
തരത്തില	-10.3169
▁ജനങ്ങള	-10.3177
കള്‍ക്കു	-10.3178
▁പരാമര്‍ശ	-10.3178
ിച്ചിട്ടുണ്ട്	-10.3183
വൾ	-10.3186
▁ഒഴുക	-10.3186
▁ഓട്ടോ	-10.3187
▁സാങ്കേതികവിദ്യ	-10.3189
▁more	-10.319
▁താനും	-10.3195
▁സ്നേഹിക്കുന്ന	-10.3196
▁ആധിപത്യ	-10.3197
▁ഫോർ	-10.3197
യെപ്പറ്റി	-10.3201
06	-10.3202
▁സാര്‍	-10.3204
▁Ro	-10.3206
ld	-10.3207
▁അഭ്യ	-10.3207
▁ഡിസൈന	-10.3208
േണ്ടിവരും	-10.3208
▁കൂട്ടത്തില	-10.3209
ഭാഗം	-10.3213
ക്കൂട	-10.322
▁മാർഗ	-10.3222
▁പുറം	-10.3223
സേന	-10.3223
▁പറയണം	-10.3225
▁സംവാദ	-10.3231
▁കൊണ്ടിരിക്കുന്ന	-10.3234
▁ദൗത്യ	-10.3234
ാനാവും	-10.3234
▁എച്ച്	-10.3236
▁കാഴ്ചപ്പാട	-10.3236
ോടൊപ്പമ	-10.3238
▁ഗുണം	-10.3239
▁അംഗീകരിച്ച	-10.324
▁മാലാഖ	-10.324
▁ഇരട്ട	-10.324
ുമ്പോ	-10.324
▁വേല	-10.3243
▁ചോദിക്കും	-10.3243
▁രാജ്യത്ത്	-10.3247
ിരിക്കെ	-10.3252
▁വിരുദ്ധ	-10.3255
▁പരിശ്രമ	-10.3256
▁ഗി	-10.3262
▁പിശാച്	-10.3264
▁തയ്യാറായ	-10.3267
▁വാഗ്ദാന	-10.327
▁സംവിധായകന	-10.3272
ക്കാരായ	-10.3272
▁യോഗ്യത	-10.3279
തീര്‍ച്ച	-10.328
▁കുരിശ	-10.3281
▁അസൂയ	-10.3283
▁Google	-10.3285
▁New	-10.3287
▁സ്ത്രീകളുടെ	-10.3293
▁ഒരുപാടു	-10.3294
▁സഹായിക്കുന്ന	-10.3298
▁ഒറ്റയ്ക്ക	-10.3298
ാതിരിക്കാന്‍	-10.3298
തുതന്നെ	-10.33
form	-10.33
io	-10.3304
▁ചുറ്റി	-10.3305
▁ശ്രദ്ധിച്ച	-10.3306
▁ഇടയിൽ	-10.3307
▁അതിലും	-10.331
ിരുന്നോ	-10.331
ഹരി	-10.3311
▁പുറപ്പെട്ടു	-10.3311
▁വിദഗ്ധ	-10.3312
▁ബാധകമ	-10.3314
▁my	-10.3315
▁അക്രമി	-10.3318
▁വിദ്യാർത്ഥി	-10.332
ശരി	-10.332
യോഗ്യ	-10.332
▁ചെയ	-10.3321
▁For	-10.3321
ics	-10.3325
▁ഓഫീസ്	-10.3327
▁അപ്പോ	-10.3327
ബ്രാ	-10.3329
▁മറു	-10.3329
▁ഉണ്ടെങ്കിൽ	-10.3331
▁കഴിയുന്നില്ല	-10.3332
▁പൂക്കള	-10.3333
▁വരികള്‍	-10.3334
മെന്നു	-10.3342
ക്രിയ	-10.3343
▁ഓരോരുത്തരും	-10.3345
▁നേതാക്കള	-10.3345
▁ഫലമായി	-10.3347
▁ബാഗ	-10.3355
▁തിന്നു	-10.3355
▁ഗെയിം	-10.3356
▁പ്രസിദ്ധീകരിച്ച	-10.3365
ാനായില്ല	-10.3368
▁തുണി	-10.3369
▁ഒഴികെ	-10.3377
▁യൂണിറ്റ	-10.338
ില്‍നിന്നും	-10.3382
▁ഇറക്കി	-10.3386
▁തോന്നുന്ന	-10.3389
ാക്കുകയും	-10.339
▁ഉല്‍	-10.3391
▁കുടിയ	-10.3393
38	-10.3395
ാകുന്നത്	-10.3395
are	-10.3395
▁കയറ്റ	-10.3398
▁പിറന്ന	-10.3399
സ്ഥിതി	-10.3405
▁യാഥാര്‍ത്ഥ്യ	-10.3407
▁അറിയാൻ	-10.341
പ്പഴ	-10.3413
▁വയറ	-10.3419
▁മാത്രമാണ	-10.3421
▁വാള	-10.3423
നിര്‍ദ്ദേശ	-10.3424
▁സിംഹാസന	-10.3424
▁കഴുത്ത	-10.3424
▁പവർ	-10.3429
▁ഇന്ത്യയുടെ	-10.3429
▁എഡി	-10.343
െന്റ	-10.343
▁മുന്നറിയിപ്പ്	-10.3431
തിനേക്കാൾ	-10.3436
mb	-10.344
▁സവിശേഷത	-10.344
▁ചെലവ്	-10.3442
▁ഭാഗമായി	-10.3445
ിനുള്ളിൽ	-10.3448
ക്കാരും	-10.3451
▁ചക്ര	-10.3451
ഭയ	-10.3452
▁പൊലീസ്	-10.3455
▁നമസ്	-10.3455
▁റോമ	-10.3457
ങ്ങളെക്കുറിച്ച്	-10.3458
▁എന്നൊരു	-10.346
പദ	-10.346
▁മുന്നില	-10.3466
വരുത്ത	-10.3466
▁സൃഷ്	-10.3467
▁ഒരിട	-10.347
▁രാഷ്ട്ര	-10.3472
▁about	-10.3473
▁മനസ്സിലാക്കിയ	-10.3475
▁കുത്ത	-10.3476
▁എന്തുകൊണ്ട	-10.3478
ിരിയ്ക്ക	-10.348
ഡാ	-10.3481
തെന്നു	-10.3481
▁ഭൂമിയിലെ	-10.3482
ഫീ	-10.3483
ാവട്ടെ	-10.3486
53	-10.3489
▁പ്രവേശിച്ച	-10.3491
വെങ്കില്‍	-10.3491
▁രണ്ടുപേരും	-10.3494
▁ഉപമ	-10.3495
ുകളിലെ	-10.3495
▁വഞ്ചി	-10.3498
▁മോഡല	-10.35
▁നിലപാട്	-10.3508
▁ദുര്‍ബല	-10.3509
City	-10.3509
▁കേരളത്തില്‍	-10.3512
▁ആറ്	-10.3519
പാട്	-10.3521
62	-10.3521
▁വിശ്രമ	-10.3521
▁നിര്‍വഹിക്ക	-10.3522
▁കൂടിയാണ്	-10.3524
07	-10.3524
ാക്കുന്നു	-10.3525
▁ആരോഗ്യം	-10.3525
▁പക്കല്‍	-10.3525
▁കഴിവ്	-10.3526
63	-10.3529
▁ജൂത	-10.3529
ew	-10.354
പറഞ്ഞു	-10.3544
▁നടപ്പ	-10.3544
വാദികള	-10.3545
ock	-10.3546
▁അതെല്ലാം	-10.3549
▁500	-10.3556
▁Be	-10.3557
▁ദൂത	-10.3561
IS	-10.3563
▁വെട്ട	-10.3566
▁ശിഷ്യ	-10.3567
▁പാത്ര	-10.3567
▁സംഭവിക്കുന്നത്	-10.3568
▁പ്രാര്‍ഥന	-10.3572
▁ബസ്	-10.3573
87	-10.3576
▁ബൂ	-10.3576
▁ഇറാന	-10.3577
tter	-10.3577
▁ഇടപാട	-10.3585
▁പേരിൽ	-10.3585
ിൽനിന്നു	-10.359
▁നേടുക	-10.359
▁മരം	-10.3591
▁ചെയ്യാത്ത	-10.3594
▁മരുന്ന	-10.3596
▁ഭഗ	-10.3596
▁?"	-10.3596
▁മുമ്പേ	-10.3597
ായിരുന്നെങ്കില്‍	-10.3599
രാഷ്ട്ര	-10.3601
േഷ്	-10.3603
രാക്ക	-10.3604
▁ബന്ധപ്പെട	-10.3607
ണമെന്നു	-10.3607
▁വായിക്കുന്ന	-10.3608
▁പ്രഭ	-10.3608
▁നിമിത്തം	-10.3609
▁പുഞ്ചിരി	-10.3611
▁നീട്ടി	-10.3611
▁കാട	-10.3614
▁നിലനിര്‍ത്ത	-10.3617
േല്‍പ	-10.3619
▁സന്ദര്‍ഭ	-10.3621
ലേറ്റ	-10.3623
▁ഇങ്ങ	-10.3625
ിലേക്കും	-10.3625
▁അനുഗ്രഹിക്ക	-10.3626
▁മഹത്വം	-10.3626
▁തെളിവുകള	-10.3627
▁ഉദാഹരണം	-10.3629
▁കയ്യിൽ	-10.3632
യുണ്ടായ	-10.3634
ുമ്പോഴാണ്	-10.3634
മൃത	-10.364
▁പറയുന്നില്ല	-10.3643
▁മൂടി	-10.3644
▁ഭാഗമാണ്	-10.3647
▁മറ്റുള്ളവരുടെ	-10.3647
▁എപ്പോൾ	-10.3651
▁മാതാപിതാക്കള്‍	-10.3651
തെന്തു	-10.3654
▁ടിവി	-10.3654
▁മറ്റുള്ളവർ	-10.3656
കഴിഞ്ഞു	-10.3657
▁ഉള്ളടക്ക	-10.3659
ാകാൻ	-10.3668
▁ഇക്കാര്യ	-10.3672
തുടര്‍ന്ന	-10.3675
▁ചൈനീസ്	-10.3676
ome	-10.3677
▁വിദ്യാര്‍ത്ഥി	-10.3678
േഷന്‍	-10.3682
▁പരിസ്ഥിതി	-10.3683
കാരണം	-10.3691
▁അദ്ദേഹത്തിനു	-10.3692
▁കരുതുന്ന	-10.3692
▁Un	-10.3692
▁മുല	-10.3693
89	-10.3698
▁പോല	-10.3702
▁പ്രൊഫഷണൽ	-10.3703
മല്ലേ	-10.3704
▁താരം	-10.3709
▁പ്രാപിച്ച	-10.371
മാനം	-10.371
▁ഭേദ	-10.3713
▁സാമ	-10.3713
▁മറച്ചു	-10.3713
ട്രാ	-10.3714
▁ആവശ്യപ്പെട്ട	-10.372
േഴ്സ	-10.3721
▁ജീവിച്ചിരിക്ക	-10.3723
ഇല്ല	-10.3724
▁നേഹിക്ക	-10.3729
▁കുറിച്ചു	-10.373
▁ഒരാഴ്ച	-10.3739
▁നിയോഗിച്ച	-10.3741
▁കൊള്ളാം	-10.3741
ail	-10.3741
▁വില്ല	-10.3742
:12	-10.3743
way	-10.3743
▁ആരുമില്ല	-10.3747
▁ആഗോള	-10.3748
▁ഉര	-10.375
നിന്നുള്ള	-10.375
54	-10.375
▁അല്ലാഹുവാണ്	-10.3752
▁അയാള്‍ക്ക്	-10.3752
▁റോഡ്	-10.3757
▁ചാനല	-10.3758
▁വഹിക്ക	-10.376
▁വൈകുന്നേര	-10.3761
▁ഓർഡർ	-10.3762
ا	-10.3764
▁ഉണ്ടു	-10.3768
▁നമ്പര്‍	-10.3771
▁സജ്ജ	-10.3777
▁കളിക്കാര	-10.3777
▁നേരിടുന്ന	-10.3778
ഷണൽ	-10.3778
രാത്രി	-10.378
▁പിതാവിന്റെ	-10.3781
പുസ്തക	-10.3788
നാകുന്നു	-10.3789
▁ശമ്പളം	-10.3789
▁പരിഷ്	-10.3793
▁റബ്ബ	-10.3794
▁വർഷത്തെ	-10.3795
▁രാജാവിന്റെ	-10.3796
▁കച്ചവട	-10.3796
▁കൃപ	-10.3796
▁അവള്‍ക്ക്	-10.38
▁പ്രളയ	-10.38
▁മാര്‍ഗം	-10.3801
വരാകുന്നു	-10.3803
rit	-10.3806
▁സഹായിച്ച	-10.3806
▁സൃഷ്ടിച്ചത്	-10.3807
view	-10.3808
▁മൃഗങ്ങള	-10.3809
മേറിയ	-10.3813
▁Le	-10.3814
▁ലൈറ്റ്	-10.3816
ഫ്ര	-10.3821
▁Ex	-10.3821
▁വിചാരിക്ക	-10.3824
▁അലി	-10.3833
ON	-10.3834
▁നിബന്ധന	-10.3836
▁ഒന്നോ	-10.3838
we	-10.3839
▁അവരിൽ	-10.384
ശാസ്ത്രജ്ഞ	-10.384
നേരം	-10.3841
▁വൃക്ഷ	-10.3842
▁ഒത്തു	-10.3842
ക്ട്	-10.3843
▁തൊഴിലാളികള	-10.3844
▁പറക്ക	-10.3845
▁പ്രഖ്യാപന	-10.3845
തൊക്കെയും	-10.3848
93	-10.3849
68	-10.385
ism	-10.3851
▁Su	-10.3855
▁ഇടതുപക്ഷ	-10.386
▁നേഹം	-10.386
▁മലക്കുകള	-10.3868
ിലേയ്ക്ക്	-10.3868
വേദന	-10.387
▁കുറു	-10.3871
നാശ	-10.3872
▁അക്കൗണ്ട	-10.3875
▁വിട്ട്	-10.3878
▁us	-10.3886
റിംഗ്	-10.3889
▁എന്തെന്നാല്‍	-10.389
▁സാധ്യമല്ല	-10.389
ിനെക്കുറിച്ച്	-10.3892
▁ജനത്തെ	-10.3893
▁പട്ടി	-10.3897
പോകും	-10.3902
▁Ad	-10.3902
▁സംഘം	-10.3902
▁സത്യമാണ്	-10.3904
▁നാശം	-10.3906
▁വരാന്‍	-10.3906
▁വിളിച്ച്	-10.3908
▁രക്ഷിതാവിന്‍റെ	-10.3908
വര്‍ഷം	-10.3911
▁ഇന്റർനെറ്റ	-10.3913
▁സൂചിപ്പിക്കുന്ന	-10.3915
▁ട്യൂ	-10.392
▁ഇസ്രായേല്‍	-10.3922
▁പ്രാദേശിക	-10.3924
▁കാരുണ്യം	-10.3927
▁അദൃശ്യ	-10.3927
▁ക്ലാസ്സ	-10.3931
▁വിജ്ഞാന	-10.3935
യ്ക്കുള്ള	-10.3938
വിരുദ്ധ	-10.394
▁ഒഴിവാക്കുക	-10.3941
▁നിർബന്ധ	-10.3943
▁പറയട്ടെ	-10.3944
▁തൊഴിൽ	-10.3944
▁ചെടി	-10.3945
ാന്റ	-10.3947
▁സുവിശേഷ	-10.3947
▁ശരാശരി	-10.3947
▁ആഗ്രഹിക്കുന്നത്	-10.3954
▁എത്രമാത്രം	-10.3958
▁പുറമേ	-10.3964
▁താങ്ങ	-10.3965
▁വരുമ്പോള്‍	-10.3971
ത്തിൻറെ	-10.3972
ാകില്ല	-10.3973
▁ശര	-10.3973
ാകുമോ	-10.3975
റുടെ	-10.3976
▁തന്നെയായിരുന്നു	-10.3979
ാദി	-10.3979
▁ഇക്കാര്യത്തില്‍	-10.398
അവന	-10.3982
▁പെട്ടി	-10.3983
▁പ്രഖ്യാപിച്ചു	-10.3983
▁കൊച്ചി	-10.3987
▁കോണ്‍ഗ്രസ	-10.3988
▁te	-10.3991
▁ചെയ്യേണ്ടത്	-10.3993
ിരുന്നുവെങ്കില്‍	-10.3994
▁രക്ഷിതാവിങ്കല്‍	-10.4003
▁ബലി	-10.4003
കരിച്ച	-10.4005
▁ഏറ്റെടുക്ക	-10.4007
92	-10.4009
▁സേവ	-10.4011
പ്പോഴാണ്	-10.4012
▁പ്രധാനമന്ത്രി	-10.4012
▁സുഹൃത്ത്	-10.4013
ങ്ങോട്ട	-10.4022
▁മാതൃ	-10.4023
▁അതിന്നു	-10.4026
▁ആയിര	-10.4026
▁dis	-10.4035
ound	-10.4038
പ്പുറ	-10.4038
▁പ്രചോദന	-10.404
▁പങ്കാളികള	-10.4043
:13	-10.4049
▁കര്‍മ്മ	-10.4051
▁൧	-10.4052
▁കഥകള്‍	-10.4052
▁സ്ഥലത്ത്	-10.4053
മൊഴി	-10.4058
▁വില്‍ക്ക	-10.4062
▁കടന്ന	-10.4062
cy	-10.4064
▁തുടങ്ങിയത്	-10.4066
ാണെന്നാണ്	-10.4069
▁നാള്‍	-10.4069
▁മീറ്റ	-10.4073
land	-10.4073
▁ഞായറാഴ്ച	-10.4075
▁കൈകള്‍	-10.408
ിലായിരുന്നു	-10.4086
▁ഗ്രാ	-10.409
▁ഫ്രാൻസ	-10.4094
▁പേരാണ്	-10.4095
▁പ്രഖ്യാപിച്ച	-10.4095
▁പ്രകടനം	-10.4097
▁പുറപ്പെട	-10.4099
ത്തുനിന്നു	-10.4102
▁—	-10.4107
▁മെച്ചപ്പെട്ട	-10.4108
▁ഇരട്ടി	-10.4111
▁അറിയാവുന്ന	-10.4116
▁അറിയാന്‍	-10.4117
▁ഉപകരണം	-10.412
▁തുടങ്ങും	-10.412
▁ആരാധകര	-10.4121
▁തനിച്ച	-10.4124
▁പുകവലി	-10.4126
▁ഫൈ	-10.4127
▁sp	-10.4129
▁സത്യമായ	-10.4129
▁വൃത്തിയാക്ക	-10.4134
▁പ്രതികരിച്ച	-10.4135
▁എന്നായിരുന്നു	-10.4136
▁post	-10.4139
െതിരെ	-10.4139
ose	-10.414
▁മനസ്സിൽ	-10.4143
ാവുന്നത്	-10.4145
▁മാറുന്നു	-10.4149
▁പശു	-10.4151
▁സ്നേഹിച്ച	-10.4159
▁ഭൂമിയിൽ	-10.4162
▁പങ്കെടുത്ത	-10.4165
▁ഓഹരി	-10.4168
പേർ	-10.417
▁വര്‍ഷവും	-10.4172
▁അറിയും	-10.4173
▁തുടരും	-10.4175
▁താല്‍പര്യ	-10.4177
▁നയിക്കുന്ന	-10.4183
▁സ്ഥലങ്ങള	-10.4183
കൊണ്ടിരിക്കുന്നു	-10.4184
▁കൊണ്ടും	-10.4189
▁സന്ദർശിക്ക	-10.4192
▁വന്നാല്‍	-10.4193
▁സാമൂഹ്യ	-10.4195
ാസന	-10.4197
▁നിലവിലുള്ള	-10.4198
▁ഇംഗ്ലീഷ	-10.4199
ave	-10.42
ise	-10.4203
▁ഓരോരുത്തര	-10.4204
▁പിന്നില്‍	-10.4205
ുന്നുവെന്ന	-10.4205
ഒന്ന	-10.4207
യാണല്ലോ	-10.421
നാണോ	-10.4211
▁എഞ്ചിന	-10.4214
▁ചോദിക്കുന്ന	-10.4215
▁അല്ലാഹുവിനോട്	-10.4215
oc	-10.4216
▁ചട്ട	-10.4224
▁സ്വീകരിക്കുകയും	-10.4225
ൌണ്ട	-10.4227
▁ഇന്ത്യയില്‍	-10.423
ആർ	-10.4232
▁അനുഭവിക്കുന്ന	-10.4235
▁നിലയിൽ	-10.4239
▁സത്യവിശ്വാസി	-10.4242
▁പുറത്തേക്ക	-10.4244
▁പൂര്‍ത്തിയാക്ക	-10.4245
പ്പറഞ്ഞ	-10.4257
മൊക്കെ	-10.4257
പിടി	-10.4258
▁ഞങ്ങള്‍ക്കു	-10.4258
▁കാത്തിരിക്കുക	-10.4263
▁വളര്‍ന്ന	-10.4266
കൊണ്ടുള്ള	-10.427
ഭ്യ	-10.427
▁നോവല	-10.4275
▁കൊടുക്കുക	-10.4277
ജീവിതം	-10.4277
ർദ്ദ	-10.4277
▁പ്രവാചകന്മാര	-10.4282
ര്‍ഥ	-10.4286
▁വ്യാഖ്യാന	-10.429
▁സദ്	-10.4295
▁ഉറവിട	-10.4305
▁നാളുകള	-10.4306
ുന്നതിലൂടെ	-10.4307
▁ദീപ	-10.4311
76	-10.4315
▁പ്രാർത്ഥന	-10.4319
േഴ്	-10.4322
▁കിടക്കുന്ന	-10.4326
▁വിവേക	-10.4329
▁ഇദ്ദേഹം	-10.4333
▁പ്രവർത്തനം	-10.4334
ഞ്ചു	-10.4336
▁ഫലങ്ങൾ	-10.4336
▁ചലന	-10.4336
▁Li	-10.4339
മൂന്ന	-10.4339
▁സ്വര്‍ഗ്ഗ	-10.4346
▁മാർക്കറ്റ	-10.4349
▁മാറ്റങ്ങള്‍	-10.4349
▁കാരണങ്ങള	-10.4351
▁സംരക്ഷണം	-10.4353
▁തികഞ്ഞ	-10.4354
▁കാല്‍	-10.4368
▁നിര്‍ത്തി	-10.437
ാധികാര	-10.437
▁രക്ഷിതാവേ	-10.4371
▁കാണാതായ	-10.4371
▁ചോര	-10.4373
▁ഒരാളുടെ	-10.4373
▁38	-10.4374
▁കുഴി	-10.4377
▁വൈദ്യുതി	-10.4378
48	-10.4379
▁ഉള്ളിൽ	-10.4381
▁അലുമിനിയം	-10.4382
▁കല്‍പിക്ക	-10.4382
▁വൃത്ത	-10.4387
▁സാഹചര്യം	-10.4387
▁മനസ്സിലാക്കി	-10.4391
▁വളർച്ച	-10.4393
▁നൽകും	-10.4394
ms	-10.4397
mi	-10.4399
▁റിപ്പോര്‍ട്ട്	-10.44
▁ദൂതന്‍മാര	-10.4402
▁ഇതിലും	-10.4405
▁ബ്രിട്ടീഷ്	-10.4407
▁ഗംഭീര	-10.441
▁സൂര്യന	-10.4411
▁അന്തരീക്ഷ	-10.4412
▁പിന്‍പറ്റ	-10.4414
സമാധാന	-10.4415
▁ദൈവത്തിന്	-10.4417
▁വട്ട	-10.4417
▁അകത്തു	-10.4419
▁മീഡിയ	-10.442
▁പതിപ്പ്	-10.4427
▁ഖേദ	-10.4428
തായും	-10.4428
▁സ്വീകരിച്ചു	-10.4428
ക്കേട	-10.4429
അമ്മ	-10.4431
സ്സു	-10.4432
▁സമ്പന്ന	-10.4434
▁പാക്കേജ	-10.4434
▁മാത്രമായിരുന്നു	-10.4439
▁ദശലക്ഷം	-10.4439
ിക്കപ്പെടുന്ന	-10.444
▁ആകും	-10.444
ual	-10.4441
▁മക്കൾ	-10.4441
▁സഞ്ചരിക്ക	-10.4443
ാനാവാത്ത	-10.4446
▁മാനുഫാക്ചറേഴ്സ്	-10.4452
ജീവി	-10.4452
ഖ്യ	-10.4452
▁അറിയിച്ച	-10.4452
ാർഥ	-10.4454
▁മനസ്സിലായ	-10.4455
▁ഉണ്ടെങ്കില്‍	-10.4457
▁di	-10.4457
▁ഒന്നിന	-10.4458
ബന്ധം	-10.4463
▁പ്രകാശം	-10.4464
വരല്ല	-10.4464
▁കണ്ടോ	-10.4465
▁കുട്ടിയുടെ	-10.4467
നുമായ	-10.4468
84	-10.4472
▁Sp	-10.4473
▁ഒരേയൊരു	-10.4476
ിലൊന്ന	-10.4476
▁തെളിവുകള്‍	-10.448
▁ഇടയില്‍	-10.4483
ിൻ്റെ	-10.4484
▁ചെയ്യുന്നില്ല	-10.4484
▁യോജിക്ക	-10.4485
ാരോ	-10.4489
▁വിറ്റു	-10.4491
83	-10.4491
▁രാജാവു	-10.4491
ാറുണ്ടോ	-10.4493
▁സിസ്റ്റ	-10.4496
ുണ്ടായിരിക്ക	-10.4497
▁ജോണ്‍	-10.4497
ക്കെല്ലാം	-10.4498
▁കര്‍ഷക	-10.4506
ര്‍ട്ട്	-10.4507
▁നിസ്	-10.4508
ല്ലൊ	-10.4511
▁ഉറപ്പ്	-10.4512
ാനാകില്ല	-10.4517
▁ചേർത്ത	-10.452
▁ശരിയായി	-10.4522
▁വയല	-10.4524
▁ദ്രോഹ	-10.4527
▁നിയന്ത്രണം	-10.4529
▁വിമര്‍ശിക്ക	-10.4534
▁കരാര്‍	-10.4534
08	-10.4537
ോട്ടെ	-10.454
▁വെള്ളി	-10.4541
thing	-10.4541
▁ശേഖരിക്ക	-10.4542
▁തടി	-10.4543
നോടു	-10.4548
▁2007	-10.455
ial	-10.4551
ions	-10.4552
▁പെണ്‍	-10.4554
▁ഇയാള്‍	-10.4555
▁വളരുന്ന	-10.4556
▁അമ്മയും	-10.4556
▁എത്രത്തോളം	-10.4559
ുന്നവനാണ്	-10.456
▁അപ്പോഴും	-10.4563
▁‘‘	-10.4564
ile	-10.4566
▁അടിസ്ഥാനമാക്കി	-10.4568
ത്തേയും	-10.4568
94	-10.4573
▁എല്ലാവരുടെയും	-10.4573
▁ഡീ	-10.4574
സംഘ	-10.4578
ഭൂരിപക്ഷ	-10.4579
ത്തിലെത്ത	-10.458
▁ഡോക്ടറ	-10.4583
▁കൃഷ്ണ	-10.4583
▁ആരംഭ	-10.4584
▁അന്നേ	-10.4585
ഗ്ന	-10.4588
▁കാലാവധി	-10.4592
▁ജീവനക്കാര	-10.4592
▁വ്യക്തമാക്കി	-10.4597
▁ട്രെ	-10.4599
പാഠ	-10.4606
▁ഭാഗങ്ങൾ	-10.4608
▁ആവശ്യപ്പെട	-10.461
▁ബഹുമാനിക്ക	-10.4612
▁നഷ്ടമായ	-10.4613
വരായ	-10.4618
▁was	-10.4619
വച്ചു	-10.4622
ബൈ	-10.4626
▁കണ്ടുപിടിക്ക	-10.4644
▁സന്ദര്‍ശിക്ക	-10.4644
▁മാറും	-10.4656
▁കഴിഞ്ഞാല്‍	-10.4659
ാധി	-10.4672
:14	-10.4673
അദ്ദേഹം	-10.4673
▁അസ്വസ്ഥ	-10.4675
ah	-10.4675
▁വസന്ത	-10.4675
▁അടിക്ക	-10.4677
▁നേതൃത്വം	-10.4679
വിശ്വസ	-10.4683
:15	-10.4685
▁പൂര്‍ണമായും	-10.4685
▁വരുത്തി	-10.4685
ഞ്ചി	-10.4688
▁കടമ	-10.4691
യുമായ	-10.4692
▁കരുതുന്നത്	-10.4697
ചൊ	-10.4701
രാഗ	-10.4702
ുണ്ടാവുക	-10.4705
▁പ്ലാസ്റ്റിക്	-10.4706
▁ഡോളർ	-10.4706
തൊര	-10.471
▁നിരീക്ഷിക്ക	-10.4712
▁നേതൃത്വ	-10.4714
▁ചിലരെ	-10.4716
ദിക്ക	-10.4717
▁എളുപ്പത്തിൽ	-10.4719
▁കൈയ്യ	-10.4725
▁കിടന്ന	-10.4727
▁സത്യത്തിൽ	-10.473
▁വിൻഡോ	-10.4731
▁വാതില്‍	-10.4732
▁തോന്നുന്നത്	-10.4733
▁വചനങ്ങള്‍	-10.4735
▁കരുണാനിധിയുമ	-10.4737
▁പോകണം	-10.4743
▁ചെയ്യപ്പെട്ട	-10.4745
▁പ്രവർത്തനങ്ങൾ	-10.4746
മുക്ത	-10.475
മുഖം	-10.4752
▁യഥാർത്ഥത്തിൽ	-10.4752
▁വാടക	-10.4754
ിട്ടില്ലാത്ത	-10.4756
▁വാങ്ങാൻ	-10.4757
ഫലം	-10.4759
▁നിഷേധിച്ച	-10.4764
▁കൂടുതലും	-10.4768
പേക്ഷ	-10.477
ുന്നതിന്റെ	-10.477
▁മെഡിക്കൽ	-10.4771
അദ്ദേഹ	-10.4774
▁ഗ്രന്ഥം	-10.4774
▁സസ്യ	-10.4775
▁മരിക്കും	-10.4782
▁കാലത്തു	-10.4791
തുടങ്ങി	-10.4791
▁100%	-10.4792
79	-10.4792
▁ഇതിലെ	-10.4796
യഥാര്‍ത്ഥത്തില്‍	-10.48
▁രണ്ടുപേര	-10.4802
▁എത്രയും	-10.4802
▁പ്രോഗ്രാമ	-10.4802
▁തൊട്ടു	-10.4806
▁ബിൽ	-10.4806
ഇവിടെ	-10.4807
എന്നാല്‍	-10.481
കേന്ദ്ര	-10.4812
▁അകറ്റ	-10.4813
:18	-10.4813
യിലായിരുന്നു	-10.4819
വിശേഷ	-10.4819
▁ഏഴ	-10.482
▁മറക്കരുത്	-10.4821
▁പ്രാധാന്യ	-10.4822
▁നാളില്‍	-10.4823
▁ചുറ്റുമുള്ള	-10.4825
▁കാള	-10.4826
75	-10.4827
ിപ്പിക്കുക	-10.4828
▁ഉള്ളില്‍	-10.4828
▁ലഭ്യമാക്ക	-10.483
▁ആചാര	-10.4833
േല്‍ക്ക	-10.4835
▁Q	-10.4835
കാണിക്ക	-10.4835
▁പ്രകടിപ്പിക്ക	-10.484
▁ശീർഷകങ്ങൾ	-10.4843
▁അല്‍പം	-10.4844
▁ജന്മദിന	-10.4845
ക്ഷര	-10.4848
optional	-10.4856
▁എല്ലായിടത്തും	-10.4856
▁എന്താണു	-10.486
വെന്നും	-10.4862
ഭോ	-10.4863
َا	-10.4863
▁മുഹമ്മദ്	-10.4864
▁ഡോളറ	-10.4867
രേഖ	-10.4868
ign	-10.4868
മുതല്‍	-10.4878
61	-10.4879
▁ക്ലി	-10.4881
▁സ്വര	-10.4891
▁പോവുക	-10.4893
▁പ്രതാപിയും	-10.4894
▁എപ്പോഴ	-10.4896
br	-10.4896
ിരിപ്പ	-10.49
ോടുകൂടി	-10.4902
▁വളർന്ന	-10.4905
▁അങ്ങനെയുള്ള	-10.4906
▁യഹൂദ	-10.4907
▁കടന്നുപോക	-10.4908
ഴുത	-10.4908
▁വിദ്യാർത്ഥികൾ	-10.4914
▁യഥാർഥ	-10.4916
▁ഇപ്പോ	-10.4917
കൂട്ടി	-10.4918
OR	-10.492
കളുമ	-10.4921
▁കുറിച്ചുള്ള	-10.4922
▁ഷോപ്പ	-10.4931
▁ഉൾപ്പെടുത്ത	-10.4932
▁ക്രിസ്ത്യാനി	-10.4935
▁മുദ്ര	-10.4935
▁സത്യത്തെ	-10.4937
▁അസ്ഥി	-10.4939
▁സമാനമായ	-10.4939
ത്തേക്ക	-10.4942
▁ഇങ്ങിനെ	-10.4944
▁നിലവിൽ	-10.4945
▁സൗദി	-10.4948
▁കോർ	-10.495
വിഭാഗ	-10.4951
▁കയറിയ	-10.4952
▁`	-10.4954
▁സൂക്ഷ്മമായി	-10.4954
▁രഹസ്യം	-10.4955
▁സമ്മേളന	-10.4956
▁നേര്‍വഴിയിലാക്ക	-10.4957
ിട്ടുണ്ടെന്ന	-10.4962
▁ദുഷ്	-10.4963
▁താത്പര്യ	-10.4963
har	-10.4964
:16	-10.4964
▁ആടു	-10.4965
▁ഓരോന്ന	-10.4966
▁പ്രവചന	-10.4969
▁ശേഖര	-10.4969
▁അപരിചിത	-10.497
എന്‍റെ	-10.497
▁കാമ	-10.4974
ചിന്ത	-10.4978
▁വരുമ്പോൾ	-10.4978
gen	-10.4978
wa	-10.4986
▁രൂപകൽപ്പന	-10.4989
▁അവനും	-10.4992
▁അക്കൗണ്ട്	-10.4993
▁മൂന്നാമത്തെ	-10.4993
▁സാക്ഷ്യ	-10.4998
ങ്ങളോട്	-10.4999
con	-10.5001
▁പ്രസ്താവന	-10.5002
65	-10.5003
▁ആദി	-10.5004
▁അസത്യ	-10.5012
കാലത്തു	-10.5012
▁പുരസ്	-10.5015
ിനകം	-10.5015
ഗീ	-10.5017
പ്രകാരമ	-10.5022
fer	-10.5024
ടിഞ്ഞ	-10.5024
ധര്‍മ്മ	-10.5026
വസര	-10.5028
▁മോളെ	-10.5032
▁തെരഞ്ഞെടുത്ത	-10.5034
▁ധിക്കാര	-10.5035
▁എന്നിവര	-10.5036
▁കളിച്ച	-10.5042
▁ദേഹ	-10.5042
▁ഉപ്പ	-10.5044
▁ഇതില	-10.5044
▁മുമ്പിൽ	-10.5046
▁Tr	-10.5047
ക്റ്റ്	-10.5047
▁കണ്ടാല്‍	-10.5051
▁34	-10.5051
യുണ്ടാക	-10.5052
▁എൽഇഡി	-10.5053
കേട്ട	-10.5054
മല്ലാതെ	-10.5055
TH	-10.5056
▁ഏഷ്യ	-10.5058
നേര	-10.5063
▁ഉൾപ്പെടെ	-10.5066
▁രാജ്യത്തിന്റെ	-10.5066
▁കൊല	-10.5069
▁നിസ്സാര	-10.5069
▁സ്വന്തമാക്ക	-10.507
മേഖല	-10.5071
ബര്‍	-10.5074
▁ആവര്‍ത്തിക്ക	-10.5083
വെങ്കിൽ	-10.5085
▁അവൾക്ക്	-10.5085
▁ഫ്രീ	-10.5092
▁ഏതോ	-10.5092
മല്ലാത്ത	-10.5092
▁ഉപദ്രവ	-10.5095
▁മന്ത്രിമാര	-10.5096
െഴുത്ത	-10.5097
▁ലിസ്റ്റ്	-10.5097
മുണ്ടാകും	-10.5098
▁ഗാന്ധി	-10.5098
മൃഗ	-10.5114
sta	-10.5121
ജാല	-10.5123
▁പ്ലീസ്	-10.5128
arch	-10.5128
▁അക്രമം	-10.5132
൦൦	-10.5132
▁പ്രാര്‍ത്ഥിച്ച	-10.5136
▁ഇറ്റലി	-10.514
▁കാര്യവും	-10.5141
▁ശ്വാസം	-10.5146
ire	-10.5149
▁ഉൾപ്പെടുന്നു	-10.5149
▁വലിപ്പം	-10.5151
▁അതോടൊപ്പം	-10.5155
▁Me	-10.5159
▁പീഡന	-10.516
▁ആണെന്ന	-10.5164
▁കണ്ടപ്പോള്‍	-10.5167
▁പൗര	-10.5169
▁സൗന്ദര്യ	-10.5169
▁വാഴ	-10.5171
▁ത്രീ	-10.5173
ton	-10.5174
▁സേവനങ്ങൾ	-10.5181
AL	-10.5182
▁ഭാഗങ്ങള	-10.5184
▁അല്ലാഹുവിങ്കല്‍	-10.5186
▁ശരിയല്ല	-10.5186
▁ബാക്കിയുള്ള	-10.5187
ov	-10.519
▁യേശുവിന്റെ	-10.5194
ണമെന്നാണ്	-10.5194
ചെയ്തു	-10.5195
▁ഊഹ	-10.5197
നാള്‍	-10.5198
:17	-10.5198
—	-10.5205
[1]	-10.5208
▁കമ്പനിയുടെ	-10.5211
44	-10.5211
▁യെരൂശലേമ	-10.5212
▁ഐഡിയ	-10.5213
എന്താ	-10.5215
▁Vi	-10.5218
ാടക	-10.522
▁ഘട്ടം	-10.5222
▁ക്ലിക്ക്	-10.5224
▁but	-10.5226
▁പുരോഗതി	-10.5228
ഇതു	-10.5231
▁മകനായ	-10.5233
നമ്മുടെ	-10.5234
▁ചൂട്	-10.5237
ചെയ്യുന്ന	-10.5237
ൗണ്ട്	-10.5238
▁പരിചയപ്പെടുത്ത	-10.5238
▁ലൈന	-10.5238
യെപ്പോലെ	-10.524
▁റിപ്പോർട്ട്	-10.5241
king	-10.5244
▁മതിയായ	-10.5246
▁മാതാപിതാക്കൾ	-10.5254
▁അകല	-10.526
▁ജനിക്ക	-10.5267
▁വിശ്വസിച്ചു	-10.5269
82	-10.5274
ിലേക്കാണ്	-10.5274
▁തിരിഞ്ഞ	-10.528
▁എതിരാളി	-10.528
▁നഷ്	-10.5282
▁അവലോകനം	-10.5284
▁കൊള	-10.529
▁പൂട്ട	-10.5295
.’’	-10.5296
▁നാലാം	-10.5297
▁മാറ്റങ്ങൾ	-10.53
▁ധൈര്യം	-10.5304
ോളജി	-10.5307
▁ശ്രദ്ധേയ	-10.5307
▁We	-10.5312
▁ഞെട്ടി	-10.5312
▁ചടങ്ങ	-10.5312
▁ഏപ്രിൽ	-10.5313
െത്തുന്ന	-10.5316
▁പാമ്പ	-10.5318
ാംഗ	-10.5319
▁ഇട്ടു	-10.532
ron	-10.5323
74	-10.5329
ുണ്ടെങ്കിലും	-10.533
▁അവയവ	-10.5333
▁ശനിയാഴ്ച	-10.5333
▁സേവിക്ക	-10.5334
▁than	-10.5337
▁വൈകിയ	-10.5338
▁ജോസഫ	-10.5339
▁വായിക്കാന്‍	-10.5347
▁കോളേജ്	-10.5348
▁പ്രശ്നങ്ങള	-10.5349
▁സംസാരിക്കുന്നു	-10.5352
▁കമ്പ	-10.5353
▁മാറ്റിയ	-10.5358
▁മഞ്ഞു	-10.5359
▁ദൂതന്മാര	-10.5362
▁ഗൃഹ	-10.5362
▁അനുയോജ്യ	-10.5363
▁മൃതദേഹ	-10.5363
▁സംസാരിക്കുന്നത്	-10.5367
▁അഭിമുഖ	-10.5368
ject	-10.5368
42	-10.5375
ാരോഗ്യ	-10.5381
▁പൂര	-10.5382
▁സ്രഷ്ടാവ	-10.5383
▁പോകുന്നില്ല	-10.5383
▁ഞെട്ട	-10.5387
ുവിനെ	-10.5389
ഹൃദ	-10.5391
▁സ്ഥലത്തു	-10.5393
▁നൃത്തം	-10.5398
ൊടു	-10.5399
▁ചെയ്യുന്നതാണ്	-10.54
▁ആരാധിക്കുന്ന	-10.5401
മാക്കുകയും	-10.5402
▁ഗ്രേ	-10.5404
▁വിശാലമായ	-10.5411
▁അതായിരുന്നു	-10.5415
▁നിലനില്‍ക്ക	-10.5417
▁പ്രസ്ഥാന	-10.5418
കൃഷ്ണ	-10.5419
▁ഭാഗത്തു	-10.5421
va	-10.5427
▁ഗര്‍ഭ	-10.543
ർജ്ജ	-10.543
▁ഇവന്‍	-10.5431
▁പാദ	-10.5434
▁അവസാനമായി	-10.5442
മാക്കുക	-10.5444
▁എല്ലായ്പ്പോഴും	-10.5446
ംബര	-10.5447
▁മൂസ	-10.5448
▁പ്രാണ	-10.5449
ox	-10.545
▁സെക്	-10.5455
▁വേണ്ടിയാണ്	-10.5458
▁വധ	-10.5459
▁അല്ലാഹുവോട്	-10.546
▁ബസ്സ	-10.546
ൊഴുക	-10.5461
▁ആലോചിച്ചു	-10.5464
▁നിഷേധ	-10.5468
▁തനിക്കു	-10.5474
cial	-10.5475
▁ഭയപ്പെടുന്നു	-10.5476
▁ചെയ്യുമ്പോൾ	-10.5477
▁Do	-10.5478
78	-10.5482
▁ആത്മാവിനെ	-10.5483
▁ദൈവത്തിനു	-10.5485
▁പിടികൂടി	-10.5488
pa	-10.549
▁വസ്തുവ	-10.549
▁നഗ്ന	-10.5494
▁പുതിയൊരു	-10.55
▁സൂപ്പർ	-10.55
▁തരിക	-10.5501
▁അതിരു	-10.5502
കളുള്ള	-10.5504
▁പൊരുത്ത	-10.5504
▁ഫലകം	-10.5508
ത്തില്‍നിന്നു	-10.551
▁കണ്ണുകൾ	-10.5514
▁Cl	-10.552
▁ജനിച്ചു	-10.5521
▁തത്വ	-10.5522
world	-10.5523
▁അടിയ	-10.5526
ത്തിനിട	-10.5529
്യന്‍	-10.553
വെയ്ക്ക	-10.5531
ആകാശഭൂമികള	-10.5531
▁തങ്ങളെ	-10.5533
▁മുതിർന്ന	-10.5533
▁ചിറക	-10.5534
യേയും	-10.5534
▁മുഴുവന	-10.5538
പ്രവര്‍ത്തകര	-10.5545
▁മനസ്സിലാവ	-10.5547
▁മറ്റുള്ളവര്‍	-10.555
ാകുമെന്ന	-10.5553
▁നശിക്ക	-10.5555
▁പിതാവേ	-10.5556
▁എന്തെല്ലാം	-10.5557
▁മാംസം	-10.5557
▁അസാധ്യ	-10.5561
▁വേണമെങ്കിലും	-10.5564
▁വിഗ്രഹ	-10.5567
▁പട്ട	-10.5568
▁വൈദ്യ	-10.557
▁വിശാല	-10.5576
▁സാധിക്കില്ല	-10.558
41	-10.5584
ത്തിലായിരുന്നു	-10.5584
ിനുള്ളില്‍	-10.5584
▁2006	-10.5589
▁നടക്കുന്നു	-10.559
▁മദ്ധ്യ	-10.5601
▁സമീപിക്ക	-10.5602
ുചെയ്ത	-10.5605
▁നമസ്കാരം	-10.5605
▁കൊണ്ടുവന്നു	-10.5606
▁അനന്തരം	-10.5612
▁വേദപുസ്തക	-10.5612
lect	-10.5612
▁ശാസ്ത്രീയ	-10.5616
▁ആവശ്യപ്പെട്ടു	-10.5617
▁പശ്ചാത്തല	-10.5618
▁ഇല്ലായിരുന്നു	-10.5618
▁തള്ളിപ്പറഞ്ഞ	-10.5618
▁ആവശ്യങ്ങൾ	-10.5621
▁എന്നാല	-10.5622
▁നീന്ത	-10.5624
▁റൂം	-10.5625
▁ഇഞ്ച	-10.5629
▁എന്റേത	-10.5633
▁വിളിക്കുന്നത്	-10.5635
ാഗ്രഹ	-10.5636
▁എന്നൊക്കെ	-10.5636
▁രോഗികള	-10.5638
▁കയ്യില	-10.5639
red	-10.564
low	-10.5641
▁മാർച്ച്	-10.5646
▁കാര്യങ്ങളില്‍	-10.5647
23	-10.565
▁പാർക്ക	-10.5653
ാതിരിക്കുകയും	-10.5655
▁റെഡി	-10.5661
മുണ്ടായി	-10.5664
▁ദിലീപ	-10.5666
ib	-10.5667
▁മൊഴി	-10.5671
▁പ്രോഗ്രാം	-10.5672
▁അമേരിക്കയില്‍	-10.5673
ത്തില്‍നിന്ന്	-10.5678
ank	-10.5679
73	-10.5679
▁ഒക്ടോബർ	-10.5679
യുളള	-10.5684
▁ഗുഹ	-10.5687
യുദ്ധ	-10.5689
പൂര്‍വ്വം	-10.569
▁48	-10.5691
▁സഞ്ചാര	-10.5696
▁കുടുംബത്തെ	-10.5697
ങ്ങളോടു	-10.5697
ര്‍ജ്ജ	-10.5698
▁തോന്നും	-10.57
▁http	-10.5703
▁കഴിയൂ	-10.5708
▁സ്ത്രീകളും	-10.5709
▁ഉടമ്പടി	-10.571
ിട്ടുണ്ടാവ	-10.5712
▁ഫലപ്രദമായ	-10.5714
▁മുമ്പുള്ള	-10.5714
▁സൂക്ഷിച്ച	-10.5718
▁അനുവദനീയ	-10.572
▁ശുശ്രൂഷ	-10.572
ഡ്യൂ	-10.5721
▁മനസ്	-10.5722
ടക്കം	-10.5722
താഴ	-10.5724
▁സ്വഭാവം	-10.5726
▁സംഭവിക്കും	-10.5736
ഥ്യ	-10.5736
▁കാണുകയും	-10.5736
വുമുണ്ട്	-10.5737
▁എന്നറിയില്ല	-10.574
▁സ്ഥിരമായി	-10.5745
▁പ്രസിഡന്റ്	-10.5747
▁La	-10.5748
നൂറ്റാണ്ട	-10.5758
▁ഇഷ്ടമായി	-10.5758
▁സ്വര്‍ഗത്തില്‍	-10.5767
▁സമര്‍പ്പിക്ക	-10.5769
▁വിമാനത്താവള	-10.5772
▁ശാശ്വത	-10.5775
▁വിഷയത്തില്‍	-10.5776
▁ഭൂമിയും	-10.5777
▁പെട	-10.5778
▁അഴിമതി	-10.5779
▁അനുസരണ	-10.5779
▁ഇംഗ്ലണ്ട	-10.5782
▁മേശ	-10.5785
▁മനുഷ്യർ	-10.5786
▁സത്യവും	-10.5788
▁അതൊന്നും	-10.579
സാന്നിധ്യ	-10.5796
ക്കുറവ	-10.5802
▁മോശെ	-10.5805
▁ഉപേക്ഷിച്ച	-10.5806
ന്മാരായ	-10.5806
▁മോട്ടോർ	-10.5807
▁ഉറപ്പുവരുത്ത	-10.5807
▁സഞ്ചരിച്ച	-10.5807
oss	-10.5807
കൊണ്ടിരിക്ക	-10.5807
ിപ്പാൻ	-10.5808
പ്തി	-10.5808
ിത്യ	-10.5809
ീകൃത	-10.581
▁ഉണ്ടായിരിക്കും	-10.581
▁പങ്ക	-10.581
▁വിദ്യാര്‍ഥി	-10.5814
▁ഗോത്ര	-10.5816
▁കീഴ	-10.5816
▁അവനില്‍	-10.5817
▁ക്ഷണിച്ച	-10.5817
tain	-10.5818
▁വഹിച്ച	-10.582
പ്രവർത്തക	-10.5821
▁ഇല്ലെങ്കില്‍	-10.5827
▁നടപടികള്‍	-10.5828
▁ബോക്സ	-10.5828
RE	-10.5834
റിയാതെ	-10.5836
▁ലഭ്യമായ	-10.5841
▁ബാധിക്കും	-10.5841
▁ആവശ്യപ്പെടുന്ന	-10.5843
▁നിരോധിച്ച	-10.5852
പറയുക	-10.5859
▁വഴക്ക	-10.5865
ES	-10.5865
▁കോപ്പി	-10.5866
▁പറ്റുമോ	-10.587
▁ഉദ്ദേശ്യ	-10.587
▁ഇഷ്ടമുള്ള	-10.587
▁തൈ	-10.5873
വാസികള്‍	-10.5875
▁നാട്ടുകാര	-10.5879
▁താപനില	-10.588
▁ചെയ്യാനുള്ള	-10.5884
▁ലഭിച്ചത്	-10.5886
▁ഞങ്ങളോട്	-10.5888
▁അരുളിച്ചെയ്യ	-10.5897
▁ദൃഷ്ടാന്തങ്ങള്‍	-10.5899
▁വേദി	-10.59
▁ദാഹ	-10.5903
old	-10.5903
▁വന്നെത്തിയ	-10.5904
ുമെങ്കില്‍	-10.5907
▁മാർഗ്ഗ	-10.5909
▁Lo	-10.591
▁ദൃഢ	-10.5911
▁നീണ്ടു	-10.5913
വിശ്വാസികള	-10.5913
▁നയിച്ച	-10.5916
▁വരികയും	-10.5918
▁കുറ്റവാളികള	-10.5919
▁പൊരുത	-10.5921
▁വിചാരിക്കുന്ന	-10.5921
ലീല	-10.5924
▁എന്തുചെയ്യ	-10.5927
▁എലി	-10.5933
വനല്ല	-10.5936
രായിരിക്ക	-10.5939
▁അനിയ	-10.5943
▁ആഗ്രഹിച്ചു	-10.5944
▁ലജ്ജ	-10.5944
േക്കാളും	-10.5949
▁And	-10.5949
▁കസേര	-10.5953
▁അര്‍ഥ	-10.5955
▁പ്രകടന	-10.5955
ാഗ്രഹിക്കുന്ന	-10.5955
▁സ്വകാര്യത	-10.596
EN	-10.5961
▁പോലുമ	-10.5961
▁അവളോട്	-10.5962
▁അറിയിക്കുക	-10.5962
▁താഴ്ന്ന	-10.5966
▁ദാസന്മാര	-10.5969
lic	-10.597
▁വല്ലാത്ത	-10.597
പ്പെടേണ്ട	-10.5976
▁സന്തതികള	-10.5982
▁ടൈപ്പ്	-10.5984
യുണ്ടാക്ക	-10.5988
്യത	-10.5992
▁ഉപദ്രവിക്ക	-10.5992
▁ഭയന്ന	-10.5992
▁ഭാഗത്ത്	-10.5993
▁നിങ്ങളിൽ	-10.5999
▁ദൂതനെ	-10.6004
▁നല്‍കപ്പെട	-10.6006
▁അബദ്ധ	-10.6006
ള്ളു	-10.6007
ാമല്ലോ	-10.601
▁ക്വ	-10.6012
▁ബോംബ	-10.6021
▁എല്ലാരും	-10.6024
▁ദിശ	-10.6024
▁അവരാണ്	-10.6029
▁ത്വ	-10.6039
ങ്ങളൊക്കെ	-10.6041
▁ക്ഷമിക്കണം	-10.6046
▁ഓപ്ഷന	-10.6049
▁സമയമായി	-10.605
▁അന്തിമ	-10.6059
▁കൊറിയ	-10.6066
▁പതിവ്	-10.607
▁എഴുതിയത്	-10.6073
▁ഗതാഗത	-10.6074
▁രക്ഷിച്ച	-10.6075
സ്ത്രീ	-10.6076
അവൻ	-10.6081
▁ആയിരുന്നില്ല	-10.6081
ാമെന്നു	-10.6083
ന്‍റ്	-10.6085
▁മനസ്സില	-10.6087
വരായിരുന്നു	-10.609
രിഞ്ഞു	-10.6094
▁ആളുകളുടെ	-10.6095
▁പിന്തുടരുക	-10.6096
ോര്‍ക്ക	-10.6099
▁തകര്‍ക്ക	-10.61
▁ജീവിക്കാന്‍	-10.61
▁തിക	-10.6102
▁അല്ലാഹുവിലും	-10.6102
ash	-10.6104
▁പുസ്തകങ്ങള്‍	-10.6106
▁ഉത്തമമായ	-10.6108
റ്റിംഗ്	-10.6108
▁നവംബർ	-10.6109
▁പങ്ക്	-10.6109
മൊന്നുമില്ല	-10.6114
▁ജാലവിദ്യ	-10.6117
▁സർക്കാര	-10.6128
മിനി	-10.6129
▁ദിവസമാണ്	-10.613
ങ്ങളിലേക്ക	-10.6135
▁നിർത്തി	-10.6136
▁ഉത്സവ	-10.6138
യുടേത	-10.6142
▁ബിരുദ	-10.615
ത്തിലാണ	-10.6163
▁പ്ലാന	-10.6164
▁മകനേ	-10.6166
ല്ല്യ	-10.6168
വീഴ	-10.6173
▁അണു	-10.6174
▁ഉപയോഗപ്പെടുത്ത	-10.6178
▁വെബ്സൈറ്റ്	-10.6179
▁ജഡ്ജി	-10.6181
▁പാപമോചന	-10.6181
നമുക്ക	-10.6185
▁നടത്തുകയും	-10.6189
പൂർവ്വ	-10.619
▁തനിക്ക	-10.6194
dy	-10.6199
ST	-10.6206
െടാ	-10.6207
▁പൊലീസ	-10.6208
▁മുഖേന	-10.6209
▁പന്ത്രണ്ട	-10.621
▁പ്രത്യേകിച്ചും	-10.621
▁2000	-10.6215
നാണെന്ന്	-10.6216
ത്തിനുശേഷം	-10.6216
▁ദിവസങ്ങള്‍	-10.6216
▁ഔദാര്യ	-10.6217
▁നിരന്തരം	-10.6217
▁വിവരിക്ക	-10.6219
▁പ്രകടിപ്പിച്ച	-10.6224
▁ഡൗൺലോഡ്	-10.6227
▁കമ്പ്യൂട്ടറ	-10.6231
▁അതിജീവിക്ക	-10.6238
▁നായകന	-10.6243
▁ശുപാർശ	-10.6245
▁time	-10.6246
▁ശക്തമായി	-10.6248
▁അദ്ധ്യാപക	-10.6256
▁തമിഴ്	-10.626
▁ഒട്ടേറെ	-10.6264
▁തിരുവ	-10.6264
ഹൃദയ	-10.6266
പതിനായിര	-10.6266
▁പൂർണ	-10.6272
▁day	-10.6279
ക്കാര്‍ക്ക്	-10.628
ചാർജ	-10.6281
▁അതുവഴി	-10.6284
▁ഭാര്യയും	-10.6285
▁കൂടുതലായി	-10.6289
▁സബ്	-10.6291
▁അന്നത്തെ	-10.6293
▁like	-10.6296
▁ദാസന്‍മാര	-10.6299
മാര്‍ക്ക്	-10.6303
▁വര്‍ഷമായി	-10.6305
▁ഇങ്ങനെയാണ്	-10.6306
▁സോറി	-10.631
▁ലഹരി	-10.6312
ക്ഷമത	-10.6313
▁said	-10.6316
▁എന്തായിരുന്നു	-10.6318
▁ബിസിനസ	-10.6319
▁രാത്രിയിൽ	-10.6319
▁പറയരുത്	-10.6321
െത്തും	-10.6323
മുട്ട	-10.6324
▁ദൈവദൂതന	-10.6325
▁തടാക	-10.6326
▁ധീര	-10.6327
▁മാംസ	-10.6333
▁വിവരിച്ച	-10.6334
▁നശിപ്പിച്ചു	-10.6337
▁മുന്നറിയിപ്പു	-10.6341
▁യാതൊന്നും	-10.6342
▁പ്രാഥമിക	-10.6347
▁കൊണ്ടുപോയി	-10.6349
▁നിലവില്‍	-10.6356
▁ചെലവഴിച്ച	-10.6356
▁പൗ	-10.6362
://	-10.6362
▁പ്രതിനിധി	-10.6362
വരുമ	-10.6366
ത്തിലാക്ക	-10.637
▁കാര്യങ്ങളെ	-10.6375
▁പ്രീ	-10.6375
81	-10.638
▁വിനയ	-10.638
▁ഇവരില്‍	-10.6384
▁സഹായിക്കാൻ	-10.6389
▁മന്ത്രവാദി	-10.6392
▁ടീ	-10.6396
▁പ്രതാപ	-10.6406
തുകൊണ്ടാണ്	-10.6406
▁എന്നിങ്ങനെ	-10.6408
▁സൌകര്യ	-10.641
വാസി	-10.6414
▁വ്യക്തിഗത	-10.6414
െടുക്കാന്‍	-10.6416
▁യാഥാര്‍ഥ്യ	-10.6424
▁Ho	-10.6426
▁ലംഘിക്ക	-10.6428
▁കവാട	-10.6429
▁അധീന	-10.643
▁ഇഷ്ടപ്പെടുന്നു	-10.6433
യുമുണ്ട്	-10.6443
net	-10.6443
ക്കണക്ക	-10.6443
▁ആശ്രയിച്ച	-10.6447
▁നിലവാരമുള്ള	-10.6447
▁പോലെയുള്ള	-10.6448
="4	-10.6451
▁പ്രത്യാശ	-10.6452
▁സൂക്ഷിച്ചു	-10.6453
ിപ്പാന്‍	-10.6456
ിപ്പിക്കും	-10.6457
▁നടത്തിയത്	-10.6458
▁പരിശുദ്ധാത്മാവ	-10.6462
ഇപ്പോൾ	-10.6464
▁തിങ്കളാഴ്ച	-10.6465
▁ചാടി	-10.6466
▁സാക്ഷികള	-10.6466
ോണിയ	-10.6469
▁വെബ്സൈറ്റ	-10.647
▁കീഴടങ്ങ	-10.6473
പക്ഷേ	-10.6474
സുര	-10.6474
പിടിക്ക	-10.648
ിന്ഗ്	-10.6486
▁നമ്പറ	-10.6487
▁ശാപ	-10.6492
▁വിധത്തില	-10.6505
▁ആന്റി	-10.6506
ലേഖ	-10.6508
▁വനിതാ	-10.6513
▁ക്രോ	-10.6519
▁തീവണ്ടി	-10.6521
േണ്ടതു	-10.6521
കൊണ്ടാണ്	-10.6522
▁കാണുമ്പോള്‍	-10.6539
തിനെക്കാള്‍	-10.6539
സമയത്ത്	-10.654
തെന്തെന്ന	-10.6544
വർഷം	-10.6544
▁കാണിക്കുകയും	-10.6546
▁പാരമ്പര്യ	-10.6547
▁വിശകലന	-10.6547
▁ജീവിപ്പിക്ക	-10.6547
▁തട്ട	-10.6549
▁സന്തുഷ്ട	-10.655
▁പ്രവേശിപ്പിക്ക	-10.655
വർക്കും	-10.6551
▁കാണിക്കുന്നു	-10.6552
▁അരുളിച്ചെയ്ത	-10.6558
സമൃദ്ധ	-10.6562
വർഗ	-10.6563
▁അനാവശ്യ	-10.6563
▁ഒരുമിച്ചുകൂട്ട	-10.6564
▁അവിശ്വാസികള	-10.6566
▁നീക്കി	-10.657
▁നാണ	-10.6571
▁ആക്രമിക്ക	-10.6573
▁സല്‍കര്‍മ്മ	-10.6577
രുതെന്ന്	-10.6578
സങ്കീ	-10.6578
വരായിരിക്കും	-10.658
പടി	-10.6582
▁പാഴാക്ക	-10.6585
:19	-10.6586
▁അടിച്ചു	-10.6587
▁ശേഷമാണ്	-10.6588
▁ഡൈ	-10.6589
▁മാത്രമായി	-10.6592
▁മുമ്പാകെ	-10.6593
AS	-10.6598
രണ്ടു	-10.6599
▁അതിലൂടെ	-10.6599
▁ആനുകൂല്യ	-10.6599
▁ശ്രേഷ്ഠ	-10.6599
▁ആരോടും	-10.6606
▁കോഴി	-10.6608
▁ചെയ്യപ്പെട	-10.6608
▁അപ്പോഴാണ്	-10.6609
യില്ലാതെ	-10.6609
▁ഇരുള	-10.6614
▁പേരില	-10.6614
കൊല്ല	-10.6614
ാകുകയും	-10.6616
▁മുന്നേറ	-10.662
▁വേര	-10.6625
▁ജൂൺ	-10.6627
▁അപേക്ഷിക്ക	-10.663
▁തടഞ്ഞു	-10.6631
▁കുറ്റപ്പെടുത്ത	-10.6637
ാകുമ്പോള്‍	-10.6639
മുഹമ്മദ	-10.6646
▁ക്രെഡിറ്റ്	-10.6648
▁ഉയര്‍ത്തി	-10.665
▁പൂര്‍വ്വ	-10.6652
▁പ്രത്യ	-10.6657
▁അവരവരുടെ	-10.6661
▁പറ്റുന്ന	-10.6665
▁നിനക്കറിയ	-10.6668
▁തെറ്റുകള്‍	-10.667
▁തിരുമേനി	-10.6674
▁അറിയേണ്ട	-10.6677
കുറഞ്ഞ	-10.668
▁മൈക്രോ	-10.6682
▁പരിഭാഷ	-10.6684
▁സ്കോ	-10.6684
▁need	-10.669
▁ബോധനം	-10.6691
▁പ്രതിഫലവും	-10.6691
▁സഹായിച്ചു	-10.6696
▁പര്‍വ്വത	-10.6696
▁ജനിച്ചത്	-10.6697
ിനുവേണ്ടി	-10.6699
▁വീഴ്ച	-10.6704
▁കാണിക്കുക	-10.6705
▁അന്യോന്യം	-10.6712
വിദ്യ	-10.6713
▁നശിപ്പിച്ച	-10.672
▁നാഥനില്‍	-10.6726
▁ഉപദേശിക്ക	-10.6727
serv	-10.6729
▁പൂവ	-10.6729
െന്തിനാ	-10.673
▁സാധ്യമാക	-10.673
▁ഉടമസ്ഥ	-10.6734
ക്കിടയില	-10.6736
ത്തോടും	-10.6738
▁യിസ്രായേല്‍	-10.6743
▁പിന്ത	-10.6744
▁പ്രയോഗിക്ക	-10.6756
▁നിയമസഭ	-10.6765
▁പുരുഷന്മാർ	-10.6765
▁വിദഗ്ദ്ധ	-10.6765
ek	-10.6767
വട്ടം	-10.6774
▁ഏതൊക്കെ	-10.6775
▁his	-10.6777
▁ലോകകപ്പ	-10.6778
▁എത്തിച്ചേര	-10.6778
യായാലും	-10.6781
▁തിരിച്ചടി	-10.6781
ഴിഞ്ഞ	-10.6782
▁കോൺഗ്രസ	-10.6782
▁സൂക്ഷ്മ	-10.6783
▁അടിമകള	-10.6783
▁ഒന്നിച്ചു	-10.6783
ful	-10.6784
ിനായുള്ള	-10.6789
▁ജീവിക്കുന്നത്	-10.6799
▁പറഞ്ഞിരുന്നു	-10.6802
▁പിന്തുണയ്ക്ക	-10.6808
ാനിടയ	-10.6813
കളൊന്നും	-10.6815
▁പ്രചരിപ്പിക്ക	-10.6815
▁വികസിപ്പിക്ക	-10.6815
ിനെക്കുറിച്ച	-10.6818
▁അജ്ഞാത	-10.6819
`	-10.6823
നോട്ട	-10.6823
ാനുഭവ	-10.683
▁അതിവേഗം	-10.6836
▁പട്ടിണി	-10.6839
▁ഗതി	-10.6843
▁പേരുടെ	-10.6846
▁പരസ്പര	-10.6848
മുതൽ	-10.6854
▁മെറ്റൽ	-10.6857
▁കണ്‍	-10.6859
▁പ്രായോഗിക	-10.6859
▁അഭിനന്ദന	-10.6861
▁യഥാ	-10.6862
▁ഇൻസ്റ്റ	-10.6867
▁മാന്യ	-10.6868
▁സംതൃപ്തി	-10.6868
ിട്ടുമില്ല	-10.6869
▁കിട്ടിയില്ല	-10.687
▁ആയിരിക്കണം	-10.6872
ങ്ങളുള്ള	-10.6878
▁പ്രാർത്ഥിക്ക	-10.688
ുവിൻ	-10.6883
▁നിരപരാധി	-10.6884
▁അവളോടു	-10.689
▁മടക്കി	-10.6892
▁എത്തിക്ക	-10.6892
air	-10.6893
യാണെങ്കിലും	-10.6893
ാധിപ	-10.6893
▁ദാരിദ്ര്യ	-10.6896
▁ശിശു	-10.69
കൂടുതൽ	-10.6901
▁തെളിയ	-10.6903
▁കാര്യമില്ല	-10.6903
▁വക്കീല	-10.6904
▁വിഷമിക്ക	-10.6908
▁മാസങ്ങള	-10.691
▁ടിക്കറ്റ്	-10.6913
▁പിന്നിൽ	-10.6914
▁150	-10.6915
▁കഠിനമായി	-10.6916
▁മിനിട്ട	-10.6918
▁ഏഴാം	-10.6919
▁ജിന്ന	-10.6924
ിട്ടുണ്ടാക	-10.6926
▁ഭൂത	-10.693
▁കേസുകള	-10.6932
▁നടത്തുന്നത്	-10.6934
▁സ്പെ	-10.6939
row	-10.6941
▁ഉപജീവന	-10.6946
▁വടി	-10.6946
▁ജനത്തിന്റെ	-10.6948
▁ആരോഗ്യകരമായ	-10.6949
▁കനത്ത	-10.6952
rr	-10.6954
▁ദശ	-10.6969
മാകുന്നത്	-10.6969
ാനുള്ളത്	-10.6971
▁ആവശ്യകത	-10.6974
▁വേണ്ടിയുള്ള	-10.6976
ഫ്റ്റ്	-10.6976
▁ചിന്തകള്‍	-10.6981
▁അത്ഭുതകരമായ	-10.6983
IT	-10.6984
▁എപ്പോഴെങ്കിലും	-10.6985
▁പാതി	-10.6988
ാകരുത്	-10.699
മായിത്തീര	-10.6992
▁പ്രേരിപ്പിക്ക	-10.6993
▁തീര്‍ന്ന	-10.6995
▁രാജകുമാരി	-10.6997
www	-10.6997
ക്കുറിപ്പ	-10.6997
▁ഗോൾ	-10.6998
▁ال	-10.7
▁300	-10.7005
▁വിശദമായി	-10.7009
യില്‍നിന്ന്	-10.7024
▁കമ്പ്യൂട്ടർ	-10.7028
വാങ്ങ	-10.7032
action	-10.7033
▁വീട്ടിലേക്ക്	-10.7035
▁ഭൂമിയില	-10.7036
ുണ്ടാവില്ല	-10.7041
▁പൂർണ്ണമായും	-10.7048
▁പുരാതന	-10.7048
ഭൂത	-10.7049
▁അമേരിക്കയിലെ	-10.7051
ക്യു	-10.7054
▁സെറ്റ്	-10.7057
എക്സ്	-10.7062
▁അമേരിക്കയുടെ	-10.7066
പ്പെടുകയോ	-10.7066
ുന്നതുമാണ്	-10.7067
▁സൂര്യനെ	-10.7069
ക്കിയിരിക്കുന്നു	-10.7071
▁മോനെ	-10.7074
▁എന്തിനാണ	-10.7077
▁ചിത്രങ്ങള	-10.7078
െഴുതി	-10.7078
▁Your	-10.7079
▁ഞാ	-10.7079
▁കുറ്റവാളി	-10.7082
▁മരണത്തെ	-10.7087
vo	-10.7089
▁അശുദ്ധ	-10.7091
▁തകര്‍ന്ന	-10.7091
ശരീര	-10.7092
കൊണ്ടിരിക്കും	-10.7094
▁ജയിലില	-10.7095
▁ഓസ്ട്രേലിയ	-10.7099
ake	-10.71
ണമെങ്കിൽ	-10.7105
▁ഡിഗ്രി	-10.7107
▁അഭിനയിക്ക	-10.7108
▁കുട്ടികള്‍ക്ക്	-10.7114
▁How	-10.7117
mon	-10.7117
▁മെഷീന	-10.7118
ത്തിലുണ്ട	-10.7119
▁ഭാവന	-10.712
▁കാണിച്ചുതര	-10.7121
സൂത്ര	-10.7121
▁പിതാക്കന്മാര	-10.7122
▁പയ്യ	-10.7123
▁പ്രൊഫ	-10.7127
▁യുക്തിമാനുമ	-10.7131
▁വഹിക്കുന്ന	-10.7133
താങ്	-10.7136
ക്കാരൻ	-10.7137
▁എന്നാണു	-10.7138
▁ചവിട്ട	-10.7143
▁എട്ട്	-10.7147
ധാന	-10.7148
▁മനഃ	-10.7148
▁ഉത്പാദന	-10.715
▁God	-10.7154
day	-10.7155
ിനോട	-10.7155
േട്ടന	-10.7155
▁നിയമപരമായ	-10.7158
▁സൂചിപ്പിച്ച	-10.7158
▁ഉപേക്ഷിച്ചു	-10.7159
▁മൃദു	-10.7162
▁സൂക്ത	-10.7174
▁കണ്ടില്ലേ	-10.7177
ബോർഡ	-10.7179
▁ക്യാമ്പ	-10.7179
▁വരെയുള്ള	-10.718
▁കാര്യമല്ല	-10.718
▁സംസാരിക്കാന്‍	-10.718
▁വധശിക്ഷ	-10.7182
▁മറഞ്ഞ	-10.7184
▁തീര്‍ത്തും	-10.7186
▁ഞാനെന്റെ	-10.7186
▁കര്‍ത്താവ്	-10.7189
▁പ്രസാദ	-10.719
▁മാക്	-10.7191
▁നിന്ദ	-10.7199
ാതിരിക്കട്ടെ	-10.7202
▁ഫ്രഞ്ച്	-10.7207
▁സന്തോഷവാര്‍ത്ത	-10.721
ഭേദ	-10.7212
▁നേഹിക്കുന്ന	-10.7213
▁മേയ്	-10.7222
▁അടയ്ക്ക	-10.7222
▁ശപിക്ക	-10.7232
▁സാധ്യതയുണ്ട്	-10.7237
▁പശ്ചാത്താപം	-10.7238
▁കൊട്ടാര	-10.7242
വരോടു	-10.7243
▁പിതാവിനെ	-10.7244
▁ശബരിമല	-10.7246
▁ഭയപ്പെടേണ്ട	-10.7246
▁വിളിക്കാം	-10.7248
du	-10.7248
▁തിരയുന്ന	-10.7249
ഷിപ്പ	-10.7251
▁വീണ്ടെടുക്ക	-10.7258
▁ആലയ	-10.7265
▁കടല്‍	-10.7268
▁Mar	-10.7269
പ്പോലും	-10.7271
▁ഹലോ	-10.7274
▁അനേക	-10.7275
▁തൊഴില്‍	-10.7278
▁കിടന്നു	-10.7283
▁fe	-10.7283
▁75	-10.7286
▁അവസാനിച്ചു	-10.7293
▁വസ്തുക്കൾ	-10.7294
▁ജോണി	-10.7294
▁പ്രവര്‍ത്തനങ്ങള	-10.7296
▁ട്രാക്ക	-10.7297
▁ചുവപ്പ	-10.7298
ിരിക്കുന്നതു	-10.7299
▁തീര്‍ക്ക	-10.7301
മത്തായി	-10.7302
▁റൂട്ട	-10.7303
ലൂക്ക	-10.7304
IC	-10.7306
▁ഒമ്പത	-10.7309
▁അന്വേഷിച്ചു	-10.7311
റേറ്റ	-10.7312
ങ്ങളിലൊന്ന	-10.7312
▁തരുമോ	-10.7315
▁തകര്‍ത്ത	-10.7322
▁2005	-10.7325
▁പശ്ചാത്തപിക്ക	-10.7326
▁ബിജെപി	-10.7326
തെന്തിന	-10.7326
▁പ്രീതി	-10.733
▁തടവുകാര	-10.7332
▁നന്‍മ	-10.7333
ീഷ്	-10.7335
▁തള്ളിക്കളയ	-10.7339
▁അവരെല്ലാം	-10.7345
▁പ്രോസസ	-10.7345
▁തലവേദന	-10.7346
ക്സനുമ്ക്സ	-10.7354
െന്നറിയ	-10.7356
▁الل	-10.7359
▁ഖുര്‍ആനില്‍	-10.7367
lan	-10.7369
▁42	-10.7373
ാനില്ല	-10.7376
▁മലക്കുകള്‍	-10.7381
▁ഡിജിറ്റൽ	-10.7382
▁ശേഷവും	-10.7382
▁ശമ്പള	-10.7384
▁രക്ഷകന	-10.7385
▁ഒട്ട	-10.7386
▁അവിശ്വാസ	-10.739
ക്കാട	-10.7391
▁പിന്തുടരുന്ന	-10.7397
▁കൊഴുപ്പ	-10.7399
▁ശ്രമിക്കുന്നു	-10.7402
വരെല്ലാം	-10.7409
▁തുടർച്ചയായ	-10.7411
▁ക്രമീകരിക്ക	-10.7413
▁വിദൂര	-10.7427
In	-10.743
▁നീതിമാന	-10.7433
ാശയ	-10.7435
500	-10.7436
▁1000	-10.7436
▁മിടുക്ക	-10.7439
▁വിശിഷ്ട	-10.7448
▁ലഭിക്കുന്നത്	-10.7448
▁കുതി	-10.7448
▁മുറിച്ചു	-10.7449
▁ജനങ്ങളേ	-10.7449
:23	-10.7451
▁ഭരണാധികാരി	-10.7452
▁ജീവനുള്ള	-10.7454
▁ഇത്തരത്തിലുള്ള	-10.7456
▁തോന്നിയത്	-10.7456
▁ചെറിയൊരു	-10.7468
▁മനോഭാവ	-10.7469
▁അതീവ	-10.747
ഇദ്ദേഹ	-10.7472
▁യുവാക്കള	-10.7477
▁ലൈബ്രറി	-10.748
ിനേയും	-10.748
▁Ra	-10.7485
▁ഇസ്ലാം	-10.7489
ഘാത	-10.7494
▁നിയോഗിക്ക	-10.7494
▁സവിശേഷതകൾ	-10.7496
▁ഇവിടുത്തെ	-10.7497
▁വൈറസ	-10.7501
▁നിലനില്‍ക്കുന്ന	-10.7502
തോറും	-10.7505
▁പരിഹാസ	-10.7506
നാരായണ	-10.7509
ത്തീര്‍	-10.7512
ുവാനായി	-10.7513
▁വേട്ടയാട	-10.7517
▁ഓടിക്ക	-10.7518
▁രേഖപ്പെടുത്തിയ	-10.7518
▁ഭ്രമ	-10.7518
▁പുറത്തിറക്ക	-10.7519
▁ഡോക്ടറെ	-10.7522
വീണ	-10.7525
▁വിപുല	-10.7528
▁അറിയുന്നവനാണ്	-10.7532
▁കാണാതെ	-10.7532
▁പരിഗണന	-10.7534
▁ജീവനോടെ	-10.7534
▁ഉറങ്ങി	-10.7535
ത്തിനുവേണ്ടി	-10.7536
ven	-10.7537
▁മറ്റെല്ലാ	-10.754
▁കറുപ്പ	-10.7542
▁സമാന	-10.7543
യുക്ത	-10.7545
▁അധ്യാപകര	-10.7548
▁ജീവിക്കാൻ	-10.7551
റിയാത്ത	-10.7555
ഭുത	-10.7559
▁പ്രാര്‍ഥിച്ച	-10.756
▁തലച്ചോറ	-10.7562
സമൂഹ	-10.7566
മായിട്ടാണ്	-10.7566
▁യൂറോപ്യൻ	-10.7567
▁ഭീതി	-10.7567
ഇതാ	-10.7575
▁ആൻഡ്രോയിഡ്	-10.7579
▁Day	-10.758
▁ശൈ	-10.7584
▁ഇത്തിരി	-10.7585
▁വിഷാദ	-10.7588
Malayalam	-10.7591
എനിക്കു	-10.7593
ുണ്ടാക്കുന്ന	-10.7594
▁വായ്പ	-10.7598
▁ഇത്തരത്തില്‍	-10.76
▁വരുത്തിയ	-10.7601
▁ധ്യാന	-10.7605
▁കേൾക്കാൻ	-10.7606
ചെയ്ത	-10.7611
▁വര്‍ത്തമാന	-10.7612
▁വിശദീകരിച്ചു	-10.7614
▁കാര്യത്തിലും	-10.7614
▁ഉചിതമായ	-10.7616
▁കമ്പനികൾ	-10.762
▁താഴെയുള്ള	-10.762
▁പാവപ്പെട്ട	-10.7622
▁പടച്ച	-10.7636
▁ചെയ്യുമ്പോള്‍	-10.7643
▁അത്യുന്നത	-10.7646
▁കൊണ്ടുവരിക	-10.7648
പോവുക	-10.7649
Qu	-10.7651
▁നെഞ്ച	-10.7653
▁വാര്‍ത്തകള്‍	-10.7657
വിഷയ	-10.7661
കൂടാതെ	-10.7662
▁എളുപ്പമുള്ള	-10.7663
▁പുനര	-10.7666
▁വിട്ടേക്ക	-10.7668
▁ലോഡ്	-10.7671
▁ആസ്വദിച്ച	-10.7675
ുന്നതില	-10.7679
▁ശ്രദ്ധിച്ചു	-10.7679
▁ഇങ്ങനെയൊരു	-10.7679
▁കീഴിൽ	-10.7689
▁പശ്ചാത്തപിച്ച	-10.7695
▁വേശ്യ	-10.77
▁അതുകൊണ്ട	-10.7703
▁യൂസുഫ	-10.7704
▁വാൾ	-10.7705
▁ഗെയിമുകൾ	-10.7707
▁പരിക്കേറ്റ	-10.7712
വേശ	-10.7715
▁മതിയാക	-10.7725
▁നാട്ടുകാര്‍	-10.7734
▁വലുതാണ്	-10.7741
▁വീതി	-10.7744
▁സത്യവിശ്വാസികളേ	-10.7751
ുക്കള്‍	-10.7752
▁ചോദ്യങ്ങള	-10.7752
▁ഇവനെ	-10.7753
▁വിജയിച്ചു	-10.7754
▁പതിപ്പ	-10.7756
▁നഷ്ടപ്പെടുത്ത	-10.7759
▁ഉത്തരവാദിത്വ	-10.776
▁അംഗങ്ങള	-10.7761
▁shall	-10.7763
▁നിവേദനം	-10.7767
▁ആശയവിനിമയ	-10.7767
▁ഒഴുക്ക	-10.7772
▁വിശദമായ	-10.7773
▁പ്രദാനം	-10.7775
▁പ്രവർത്തിച്ച	-10.7776
ുപയോഗിച്ച	-10.7776
▁ജാഗ്രത	-10.7782
▁കാണുന്നില്ലേ	-10.7787
പരിധി	-10.7788
സൃഷ്ടി	-10.7789
മന്ദിര	-10.779
ചന്ദ്ര	-10.7795
▁കൂടെയുള്ള	-10.7796
▁വിജയകരമായി	-10.7799
▁നാണയ	-10.7803
പ്രവാചക	-10.7804
▁സന്തോഷിക്ക	-10.781
▁ന്യായമായ	-10.7811
പ്പെട്ടിരിക്ക	-10.7814
▁ആദരിക്ക	-10.7814
പെടുന്ന	-10.7816
▁മാലിന്യ	-10.7818
രുതെന്ന	-10.782
ആദ്യ	-10.7821
▁താക്കീതു	-10.7825
വകാശ	-10.7826
▁സന്തോഷത്തോടെ	-10.7826
▁ഗർഭ	-10.7828
▁സിറിയ	-10.7829
▁പല്ലു	-10.783
വ്യവസ്ഥ	-10.783
▁ട്വ	-10.7832
▁വനിത	-10.7836
▁കേള്‍ക്കുന്നവന	-10.784
▁സന്തതി	-10.7843
▁കരഞ്ഞു	-10.7846
▁അടങ്ങിയ	-10.7853
ത്തിലോ	-10.7856
▁സന്നിധിയ	-10.7856
▁അറിഞ്ഞിരിക്ക	-10.7857
▁ഫിര്‍ഔന	-10.786
▁എങ്ങോട്ട	-10.7862
▁നിങ്ങളില	-10.7868
▁പഞ്ച	-10.7868
▁ക്രിക്കറ്റ	-10.7873
▁തേടുകയും	-10.7874
▁Pre	-10.7877
▁ഇരുണ്ട	-10.7878
ാത്മാവ	-10.7879
▁കടപ്പാട്	-10.7886
▁പ്രസിഡന്റ	-10.7886
mail	-10.7894
ram	-10.7894
▁തങ്ങള്‍ക്ക്	-10.79
കയറ	-10.7903
▁ദേശത്തു	-10.7905
▁സാധ്യമായ	-10.7909
▁അശ്രദ്ധ	-10.7911
▁വിവാഹമോചന	-10.7915
പ്പെടാത്ത	-10.7922
പൂര്‍ണ്ണ	-10.7923
▁വെറുമൊരു	-10.7928
▁കലാകാരന	-10.7929
▁ഇഷ്ടമല്ല	-10.7929
▁പ്രസിദ്ധീകരിക്ക	-10.7933
കുമാര്‍	-10.7941
▁നിലവിലെ	-10.7946
▁All	-10.7954
▁കണ്ണാടി	-10.7955
▁മനസ്സിലായില്ല	-10.7957
▁പൊതുവായ	-10.7964
▁മുടക്ക	-10.7966
▁ക്രൂശ	-10.7967
ചരിത്ര	-10.7968
▁Man	-10.7969
▁നാഥനെ	-10.7971
▁ഉണങ്ങ	-10.7973
▁ഗോള	-10.7975
▁ഗുണനിലവാര	-10.798
ിറങ്ങിയ	-10.7982
▁വളര്‍ച്ച	-10.7986
▁വിചിത്ര	-10.799
▁ഭരണകൂട	-10.799
▁കളിയാക്ക	-10.7991
▁love	-10.7997
ിച്ചുകളയ	-10.8002
▁പര്‍വത	-10.8006
മുറ	-10.8007
വര്‍ഷത്ത	-10.8008
▁കഴിവുള്ള	-10.8008
▁അലങ്കാര	-10.801
നിനക്ക	-10.8016
▁മടിയ	-10.8016
കാരണ	-10.8022
▁തെളിയിച്ച	-10.8022
നോക്കി	-10.8023
വിചാര	-10.8024
▁പുതുതായി	-10.8025
▁വീട്ടുകാര	-10.8026
▁പരമ്പരാഗത	-10.8027
▁ഐഹികജീവിത	-10.8036
നന്ദി	-10.8039
▁ഐശ്വര്യ	-10.804
വാക്യ	-10.8041
▁വിജയിച്ച	-10.8045
ത്തിലേക്കുള്ള	-10.8046
▁മുതലാളി	-10.8046
▁അന്വേഷിച്ച	-10.8047
▁മൂന്നോ	-10.8056
ദേഹം	-10.8068
▁സോഫ്റ്റ്വെയർ	-10.8071
ിത്തന്ന	-10.8074
▁LED	-10.8075
▁കായിക	-10.8076
▁പ്രശസ്തമായ	-10.8077
▁ഉറപ്പിച്ചു	-10.8082
ണ്യ	-10.8084
▁പ്രമേയ	-10.8093
യില്‍നിന്നു	-10.8097
▁ദുഖ	-10.8099
▁തള്ളിപ്പറയ	-10.8101
▁നല്കിയ	-10.8106
ലോഡ	-10.8107
its	-10.8111
▁അവരോടൊപ്പം	-10.8114
▁ഇതായിരുന്നു	-10.8118
▁വായിക്കാം	-10.812
▁സന്നദ്ധ	-10.8123
▁സൂര്യന്‍	-10.8124
▁പിശാചുക്കള	-10.8126
▁സംതൃപ്	-10.8128
▁തകർന്ന	-10.813
▁പരിവർത്തന	-10.8136
▁അധ്യായ	-10.8136
▁ലീഗ	-10.8137
Comment	-10.814
▁ഗർഭിണി	-10.814
▁പുള്ളി	-10.8143
▁വേദനയേറിയ	-10.8145
nu	-10.8148
▁വൈകാരിക	-10.8149
മുടി	-10.8149
▁ഡാറ്റാബേസ	-10.8153
▁അവതരണ	-10.8158
▁നന്നാക്ക	-10.816
▁ആള്‍ക്കാര	-10.8161
▁അനുയായികള	-10.8161
▁നായിക	-10.8162
▁വ്യക്തിത്വ	-10.8168
▁മേരി	-10.8168
▁നിലയില	-10.8174
▁പൊയ്	-10.8175
▁മറികടക്ക	-10.818
▁അങ്ങനെയൊരു	-10.818
▁എക്സ	-10.8185
▁ചുംബന	-10.8193
▁മാര്‍ഗ്ഗ	-10.8196
▁ആരൊക്കെ	-10.8203
▁നാട്ടിലെ	-10.8205
വരാരോ	-10.8209
▁ഇന്ധന	-10.8211
▁വിധത്തില്‍	-10.8213
▁പോകരുത്	-10.8214
ാറ്	-10.8223
▁ലൈറ്റിംഗ്	-10.8224
▁സ്ഥിതിചെയ്യുന്ന	-10.8229
▁സോഷ്യൽ	-10.8233
▁വേണമെങ്കില്‍	-10.8236
▁ദീന	-10.8237
▁comment	-10.8241
cle	-10.8251
വളുടെ	-10.8253
ങ്ങളില്ല	-10.8254
▁does	-10.8255
▁അച്ഛന്റെ	-10.8257
▁41	-10.8262
▁പാപമോചനവും	-10.8265
ബുദ്ധി	-10.8266
▁വിശദമാക്ക	-10.8266
ത്തില്	-10.8269
▁ബ്രഷ്	-10.8269
▁ചോദ്യത്തിന്	-10.827
EM	-10.8273
▁സത്യവിശ്വാസം	-10.8277
▁അനുബന്ധ	-10.8277
▁സന്താന	-10.8277
ങ്ങളിലുള്ള	-10.8278
▁റെക്കോർഡ	-10.8281
▁റിപ്പോർട്ട	-10.8282
▁ചിഹ്ന	-10.8287
▁വിൽപ്പന	-10.829
▁ഞാനെന്ത	-10.8292
േഷ്യ	-10.8302
▁വീതം	-10.8302
▁വേഗത്തില	-10.8306
▁അദ്ധ്യായ	-10.8308
▁സ്വാഭാവികമായും	-10.8308
▁ഉപഭോക്താക്കള	-10.8312
▁ഒടുക്ക	-10.8313
▁തയ്യാറാക	-10.8315
▁അദ്ദേഹമ	-10.8315
മൂല്യ	-10.8317
▁ആലോചന	-10.8317
▁സമ്പാദിച്ച	-10.8317
▁ആരോട	-10.8321
▁പിശക	-10.8322
▁ബുക്ക	-10.8324
▁വധിക്ക	-10.8329
OS	-10.833
5%	-10.8333
▁പുറകില	-10.8339
less	-10.8342
▁ജീവിച്ചിരുന്ന	-10.8342
മുണ്ടായിരിക്ക	-10.8343
▁ദിവസങ്ങളിൽ	-10.8343
▁കീഴടക്ക	-10.8343
▁തലസ്ഥാന	-10.8344
Q	-10.8344
az	-10.8346
▁വഴികാട്ടി	-10.8348
▁ഓർക്കുക	-10.8355
▁ഇഹലോകത്ത	-10.8357
▁വിവരങ്ങള	-10.836
▁കഴുകി	-10.8364
▁വിപരീത	-10.8366
▁ജാലക	-10.8371
▁മീറ്റർ	-10.8372
▁രക്ഷിതാക്കള	-10.8375
ാനുണ്ട്	-10.8375
▁അത്തരമൊരു	-10.8379
▁തുടര്‍ച്ചയായ	-10.8379
പരിശീലക	-10.8384
▁ഇതാണോ	-10.8388
റിയാമല്ലോ	-10.8395
▁പറ്റൂ	-10.8397
▁ബഹിരാകാശ	-10.8397
▁റോള	-10.8409
▁സാമ്രാജ്യ	-10.8416
▁ബാല്യ	-10.8418
ോളാം	-10.842
▁മൂന്നാമത	-10.8421
ായിട്ടാണ്	-10.8422
▁ഔട്ട്	-10.8423
▁ഫയൽ	-10.8425
▁പൊള്ള	-10.8426
▁പ്രവണത	-10.843
▁ലഘു	-10.843
▁2004	-10.8434
▁വരികള	-10.844
▁എന്റ	-10.8441
ഫൈ	-10.8442
▁വാഴ്ത്ത	-10.845
▁ye	-10.8452
പ്പിടിച്ച	-10.8453
ിച്ചുകൊണ്ടിരിക്ക	-10.8456
▁യാത്രക്കാര	-10.8459
▁പന്നി	-10.8465
ദൈർഘ്യ	-10.8465
▁സ്വര്‍ണ	-10.8467
സംഖ്യ	-10.8468
ally	-10.847
▁കൃത്രിമ	-10.8474
▁ഫേസ്ബുക്ക	-10.8474
ക്ടർ	-10.8488
▁ദിവസങ്ങളില്‍	-10.8489
▁മൊബൈല്‍	-10.849
▁മുന്തിരി	-10.8492
▁മീന്‍	-10.8493
ശ്രീ	-10.8494
▁pri	-10.8496
▁നല്‍കുന്നതാണ്	-10.8499
ുന്നതെങ്ങനെ	-10.8502
▁ദൈവവചന	-10.8512
▁ചോദിച്ചാല്‍	-10.8513
▁റഷ്യൻ	-10.8513
▁മനസ്സിനെ	-10.8526
▁ഡിസ്ക	-10.8527
▁വെള്ളിയാഴ്ച	-10.8528
▁കരാർ	-10.8529
▁പ്രശംസ	-10.8533
▁ഭയപ്പെട്ടു	-10.8536
▁പട്ടാള	-10.8536
ിനടുത്ത	-10.8537
▁ഉപകരണങ്ങള	-10.8539
▁വിമര്‍ശന	-10.8542
കുഞ്ഞ	-10.8546
▁ആഹ്ലാദ	-10.8546
പ്പോലുള്ള	-10.8547
▁വിശ്രമിക്ക	-10.8557
▁പേശി	-10.856
▁സിദ്ധ	-10.8562
പ്രദമായ	-10.8564
▁വേണമെങ്കിൽ	-10.8567
da	-10.8573
ത്തുനിന്ന്	-10.8576
▁പ്രമേഹ	-10.8578
▁പര്യ	-10.8579
▁അറിയാമായിരുന്നു	-10.8583
▁ഒരെണ്ണം	-10.8588
▁ഗൈഡ്	-10.8589
▁പൂര്‍ണ്ണമായും	-10.8592
▁ആണെങ്കിൽ	-10.86
ാതിരി	-10.8601
ഫോൺ	-10.8603
▁വിപുലമായ	-10.8613
ible	-10.8616
ക്ടറ	-10.8619
▁തിരക്കഥ	-10.8622
ഫോണ	-10.8623
▁ഗര്‍ഭിണി	-10.8624
▁വഴികേടില	-10.8629
▁വിസ്മയ	-10.8629
▁ഏറ്റെടുത്ത	-10.8633
▁Pri	-10.8633
▁തകരാറ	-10.8635
ward	-10.8637
▁സമ്മർദ്ദ	-10.8638
▁സർവകലാശാല	-10.8638
▁ഖുര്‍	-10.8641
ഭാരം	-10.8641
▁യുവാവ	-10.8645
▁വല്യ	-10.8653
▁പോകാന	-10.8653
▁ബുദ്ധ	-10.8654
നുഗ്രഹ	-10.8655
പ്രകാരമാണ്	-10.8655
▁പച്ചക്കറി	-10.8656
▁ആരുണ്ട്	-10.8663
▁കല്‍പിച്ച	-10.8667
▁പരാജയപ്പെട	-10.8668
▁മുങ്ങി	-10.8674
▁മുംബൈ	-10.8679
▁സുഹൃത്തുക്കൾ	-10.8684
ത്തിനിടെ	-10.8685
▁നീളം	-10.8686
കളെക്കുറിച്ച്	-10.869
▁സന്ധ്യ	-10.8696
▁മുമ്പായി	-10.8701
കൊടുക്കുക	-10.8702
▁has	-10.8706
▁സൈക്കിള	-10.8717
▁44	-10.872
▁ധാന്യ	-10.8722
ness	-10.8729
ഭിമാന	-10.873
▁പിണറായി	-10.873
▁പരിഹസിക്ക	-10.874
▁മാന്യമായ	-10.874
ഗൃഹ	-10.874
▁ഡിസംബര്‍	-10.8744
▁അവതാര	-10.8744
▁രക്ഷിച്ചു	-10.8747
▁സംശയിക്ക	-10.8747
തിനാലാ	-10.8747
▁ഇസ്രായേൽ	-10.8749
▁ബ്ലാക്ക്	-10.8754
▁വഷള	-10.8758
▁ചുരുങ്ങിയ	-10.8763
ാനന്തര	-10.8763
ുന്നവയ	-10.8764
▁നൃത്ത	-10.8765
▁മാനദണ്ഡ	-10.8767
▁ഫുട്	-10.8769
▁ഉൾക്കൊള്ള	-10.8778
▁നേതാക്കള്‍	-10.8782
▁ആദ്യകാല	-10.8783
▁വ്യാഴാഴ്ച	-10.8786
▁Comments	-10.8791
▁പഞ്ചസാര	-10.8796
▁അപ്പോഴേക്കും	-10.8798
ദിവസത്ത	-10.8799
വാന്മാര	-10.88
▁ടെലി	-10.8801
▁വിശക്ക	-10.8803
▁മിന്ന	-10.8805
▁റദ്ദാക്ക	-10.8805
▁വിചിത്രമായ	-10.8805
▁പിന്തുടര്‍ന്ന	-10.8805
സംബന്ധമായ	-10.8808
്യവും	-10.8814
ിപ്പിക്കാന്‍	-10.8814
▁ജൈവ	-10.8815
ney	-10.8815
▁അറിയിപ്പ	-10.8817
▁ഫോറെക്സ്	-10.8819
▁അദ്ദേഹത്തോട്	-10.882
▁അദ്ഭുത	-10.8823
▁കെട്ടിച്ചമച്ച	-10.8828
▁കിലോ	-10.8835
vent	-10.8839
ാണെന്റെ	-10.8839
▁ഭീമ	-10.8844
▁വലിപ്പ	-10.8846
▁വർഗ്ഗം	-10.8847
▁അഞ്ചാം	-10.8857
കഴിയ	-10.8857
▁മറ്റെന്ത	-10.8857
▁സുപ്രധാന	-10.8859
▁രക്ഷാധികാരി	-10.8861
▁സഖ്യ	-10.8866
കൊണ്ടേയിരിക്ക	-10.8866
▁ഇസ്രയേല്‍	-10.887
▁റോബ	-10.8871
▁ശരിയാക്ക	-10.8877
▁ജീവന്റെ	-10.8877
▁65	-10.8882
ിലേയ്ക്കു	-10.8883
▁കുറച്ചുകൂടി	-10.8886
▁പോക്കറ്റ	-10.8887
▁ഡോളര്‍	-10.8894
മൂസാ	-10.8898
▁മെറ്റീരിയൽ	-10.8899
ക്കിടയിൽ	-10.8899
ത്തിലായിരിക്ക	-10.8903
▁കുറക്ക	-10.8905
ൊരാൾ	-10.8908
വരുമായ	-10.891
▁പുലി	-10.8913
▁One	-10.892
പ്രശ്ന	-10.8921
rain	-10.8924
und	-10.8924
ition	-10.8928
▁വചനങ്ങളെ	-10.893
എച്ച്	-10.8931
നിനക്ക്	-10.8935
▁കര്‍ത്താവേ	-10.8942
▁ചൂണ്ട	-10.8944
▁ആകാശത്ത്	-10.895
▁ന്യായപ്രമാണ	-10.8951
▁ലോഹ	-10.8951
ൊഴിഞ്ഞ	-10.8957
▁പുനര്‍	-10.8958
▁വിധത്തിൽ	-10.8961
▁അവയെല്ലാം	-10.8967
▁തീർത്ത	-10.8967
▁പോവുകയാണ്	-10.8968
▁ലഭ്യമല്ല	-10.8973
▁നിർമ്മാതാവ	-10.8974
ഇന്ന്	-10.8975
▁പോലീസുകാര	-10.898
▁പ്രതീക	-10.8982
ായുധ	-10.8983
േയുള്ളു	-10.8987
പ്പിടിക്ക	-10.8987
▁ആഭ്യന്തര	-10.8989
▁പൊറുത്ത്	-10.8989
ാനന്ദ	-10.899
▁വൈവിധ്യ	-10.8994
▁സ്റ്റേറ്റ്	-10.8995
▁പരിസര	-10.8999
▁പരിരക്ഷ	-10.9
▁പാനീയ	-10.9004
▁ചെയ്തവരാരോ	-10.9011
▁രക്ഷിതാവിനെ	-10.9016
▁ഒട്ടക	-10.9017
▁അന്വേഷിക്കുന്ന	-10.9021
▁read	-10.9022
സന്ദേശ	-10.9023
▁കാവല്‍	-10.9024
ൻറ്	-10.9024
▁വിദ്യാർഥി	-10.9032
പിരി	-10.9035
▁ലീഡ	-10.9038
അല്ലാഹുവാണ	-10.9043
▁സൗജന്യമായി	-10.9043
▁ദാവൂദ	-10.9046
▁തിരിക്ക	-10.9053
▁വെറുതേ	-10.906
▁തുല	-10.9063
▁സൈക്കിൾ	-10.9065
▁നുറുങ്ങുകൾ	-10.9065
▁സാരമില്ല	-10.9066
രുടേ	-10.9067
കൃഷ്ട	-10.9075
പ്രവൃത്തി	-10.9081
രാജാക്കന്മാര	-10.9082
▁തീരുമാനമെടുക്ക	-10.9082
കളൊക്കെ	-10.9083
▁മനസിലാക	-10.9089
▁ഫിലിപ്പ	-10.9091
▁കേവലം	-10.9094
ough	-10.9095
ork	-10.9095
▁പ്രേത	-10.9095
പുരുഷ	-10.9099
ുറപ്പിച്ച	-10.9105
▁സർവീസ	-10.9105
▁മരുന്നുകൾ	-10.9111
▁ഭയപ്പെടുത്ത	-10.9115
▁വസിക്കുന്ന	-10.9116
▁ഉപയോക്താക്കൾ	-10.9118
തുടങ്ങ	-10.9118
▁പറയാമോ	-10.9119
▁ശിഷ്യന്മാര	-10.9121
▁സിംഹ	-10.9122
▁സ്മാർട്ട്	-10.9123
സാധ്യത	-10.9124
▁നേടിയെടുക്ക	-10.9132
▁രാജ്യങ്ങളിൽ	-10.9133
▁സംയുക്ത	-10.914
▁പിറ്റേ	-10.914
▁ദൈവത്തോടു	-10.9141
▁നിരോധിക്ക	-10.9143
നടപടി	-10.9143
▁ഗുഡ്	-10.9149
UM	-10.9155
▁സ്റ്റോറ	-10.9157
▁ഗ്രഹിക്ക	-10.9159
▁സല്‍ക്കര്‍മ	-10.9167
▁ഭൂരിഭാഗം	-10.9171
▁ട്രാൻസ്	-10.9172
▁ഇരിപ്പ	-10.9173
വുമുണ്ട	-10.9177
▁കുറ്റകൃത്യ	-10.9178
താക്കൾ	-10.9191
▁സജ്ജമാക്ക	-10.9194
▁അക്രമികള്‍	-10.9198
▁റിപ്പോര്‍ട്ട	-10.9202
ഞങ്ങള	-10.9204
▁പ്രൊഫൈൽ	-10.921
▁എളുപ്പമല്ല	-10.922
▁വര്‍ഷങ്ങളായി	-10.9233
LE	-10.9237
▁തെറി	-10.9237
▁ബുധനാഴ്ച	-10.9239
[2]	-10.9239
▁ഒരുമിച്ച	-10.924
▁ഭംഗിയായി	-10.924
▁കണ്ണീര	-10.9242
▁വഴിതെറ്റി	-10.9265
▁വില്പന	-10.9269
▁നിര്‍മ്മാണ	-10.9269
ക്രിപ്റ്റ	-10.927
▁ഉപരിതല	-10.9274
▁പൈപ്പ്	-10.9274
▁അസാധാരണമായ	-10.9275
ക്കൊന്നും	-10.9275
rom	-10.9275
▁കളിച്ചു	-10.9282
▁കൂലി	-10.9283
ടയ്ക്ക	-10.9286
▁മുഖത്ത്	-10.9291
ിനിടയില	-10.9298
▁ഗുരുതര	-10.93
▁എന്തായിരിക്കും	-10.9311
▁ഇക്കൂട്ടര്‍	-10.9313
▁പിതാക്കള	-10.9317
ോത്സവ	-10.9323
രോരുത്ത	-10.9325
മ്ര	-10.9329
▁ബലഹീന	-10.9333
▁അപ്ഡേറ്റ	-10.9333
▁മിക്കവരും	-10.9334
▁ഭരിക്ക	-10.934
▁സെൻസ	-10.9347
▁ഇൻഡ	-10.9348
▁മമ്മി	-10.9349
▁ടെക്നോളജി	-10.9352
▁തീർന്ന	-10.9357
▁കാന്ത	-10.9361
▁സഹകരിക്ക	-10.9361
▁what	-10.9362
▁പ്രബോധന	-10.9363
നടക്ക	-10.9365
ിട്ടുമുണ്ട്	-10.9374
മുള്ളവന	-10.9375
▁പഠി	-10.9377
▁പൊതുജന	-10.9379
▁any	-10.9383
▁Off	-10.9384
▁മീതെ	-10.9385
▁നിങ്ങളുടേത	-10.9385
▁നിർദേശ	-10.9385
േട്ടാ	-10.9387
▁വചനങ്ങള	-10.9392
▁pre	-10.9397
ഓപ്പറേറ്റ	-10.9397
ദൃശ്യ	-10.94
▁യേശുക്രിസ്തു	-10.9402
ഹൗസ	-10.9407
▁ദൃഷ്ടി	-10.9407
▁ഇപ്പോള	-10.9415
▁മ്യൂസിയ	-10.9417
▁ക്രിസ്തുവിന്റെ	-10.9419
ിനകത്ത	-10.942
ative	-10.9427
▁നിത്യവാസികള	-10.9432
സ്കി	-10.9447
▁World	-10.9452
ക്രമം	-10.9454
▁താൽപ്പര്യ	-10.9461
▁കുറിക്ക	-10.9463
▁ജഡ	-10.9465
േറ്റഡ്	-10.947
▁യൂറോ	-10.947
▁കടന്നുപോയ	-10.9475
▁പ്രചാര	-10.9479
▁തത്ത്വ	-10.948
▁ഉദ്ഘാടന	-10.9492
▁കര്‍ത്താവു	-10.9493
▁ടോപ്പ്	-10.9502
▁സമഗ്ര	-10.951
▁മാനേജർ	-10.951
▁ആവാം	-10.9511
▁ഇന്ദ്ര	-10.9512
▁blog	-10.9517
▁പരിപാലിക്ക	-10.952
െന്തെങ്കിലും	-10.9525
▁സീരീസ്	-10.9532
▁മാനേജ്	-10.9538
▁അണിയ	-10.9546
▁വിഴുങ്ങ	-10.9547
▁നാട്ടില	-10.9556
ste	-10.9564
▁പ്രതികാരം	-10.9568
▁പോയിന്റ്	-10.957
▁തിരുവനന്തപുരം	-10.9572
▁സ്വർണ	-10.9573
ുപയോഗിക്ക	-10.9574
▁sc	-10.9577
▁പങ്കുചേര്‍ക്ക	-10.9577
▁ഭക്ഷ്യ	-10.9582
ക്കെതിരായ	-10.9583
▁ജർമ്മനി	-10.9592
▁ഒതുങ്ങ	-10.9595
▁സുഗന്ധ	-10.9597
▁വര്‍ദ്ധിപ്പിക്ക	-10.9597
പ്രധാന	-10.96
▁ആരെയെങ്കിലും	-10.9601
▁അര്‍ഹിക്കുന്ന	-10.9603
▁ഒന്നുകൂടി	-10.9606
AD	-10.961
▁വളരെയേറെ	-10.9613
▁ലോഗോ	-10.9613
▁വേഗത്തില്‍	-10.9615
▁അർഥ	-10.9623
▁കഴുത	-10.9624
▁സോഫ്റ്റ്	-10.9629
മന്ത്രി	-10.963
▁ധൃതി	-10.9633
ച്ചേര	-10.9635
▁ശശി	-10.9637
▁അഭിനയിച്ച	-10.9638
▁കിളി	-10.964
▁ഫണ്ട	-10.9641
ാനാകുമോ	-10.9643
▁അപ്ലിക്കേഷൻ	-10.9643
▁ബാഹ്യ	-10.9643
▁ദുര്‍മാര്‍ഗ	-10.9644
▁തമ്മില	-10.9655
▁യൂണിയന	-10.9656
▁വിപത്ത	-10.9657
▁തകർക്ക	-10.966
▁പോകേണ്ട	-10.9662
▁അദ്ദേഹത്തിന	-10.9666
▁പ്രസ്തുത	-10.9668
▁ക്വാ	-10.9671
▁കണ്ടെത്താന	-10.9672
വര്‍ത്തിക്ക	-10.9675
▁നമുക്കറിയാം	-10.9676
▁പ്രിന്റ	-10.9676
▁മുതിര്‍ന്ന	-10.9678
▁പിന്മാറ	-10.9681
▁ടീച്ചറ	-10.9684
▁പലര്‍ക്കും	-10.9694
▁വിഹിത	-10.9694
▁സാദ്ധ്യത	-10.9708
നാമം	-10.9709
േടത്ത	-10.9712
▁കുടുംബത്തിലെ	-10.9712
atch	-10.9715
ിട്ടുണ്ടെങ്കില്‍	-10.972
താങ്കള്‍	-10.9721
▁ഉപയോക്താക്കള	-10.9724
വസ്ത്ര	-10.9726
▁പിള്ള	-10.9728
▁അവസ്ഥയില	-10.9735
▁സമ്പാദിക്ക	-10.9735
▁നാണക്കേട	-10.974
▁വീക്ഷണ	-10.975
▁സന്ധി	-10.9754
▁സീസണ	-10.9755
▁ഒതുക്ക	-10.9758
▁പാര്‍ക്ക	-10.9759
▁ഡേവിഡ്	-10.976
▁സമര്‍പ്പിച്ച	-10.9762
▁ഇലക്ട്രിക്	-10.9771
▁ബഹള	-10.9771
▁കിരീട	-10.9776
▁ഉല്‍ബോധന	-10.9776
▁നാലാമത്തെ	-10.9777
▁മുതലായവ	-10.9777
▁വിശ്വസനീയ	-10.9781
▁ഇടവേള	-10.9789
വെളി	-10.9795
▁വസിക്ക	-10.9798
▁ഭൂരിഭാഗവും	-10.9802
▁പൂർത്തിയായ	-10.9802
ഖുര്‍ആന്‍	-10.9811
ഗുണ	-10.9813
▁സെക്രട്ടറി	-10.9817
ൊഴിച്ച	-10.982
▁ഒരുപക്ഷെ	-10.9824
▁കോഴിക്കോട്	-10.983
▁ഫുട്ബോൾ	-10.9838
ix	-10.984
▁ഉള്‍പ്പെടുത്ത	-10.9843
▁ഡോക്ടറുടെ	-10.9843
▁തോന്നിയില്ല	-10.9844
ങ്ങളുമുണ്ട്	-10.9856
▁പ്രായമുള്ള	-10.9858
▁ആദിവാസി	-10.9859
▁വീട്ടിലേക്കു	-10.9862
CC	-10.9864
▁കൊടിയ	-10.9866
▁ചൊവ്വാഴ്ച	-10.9867
ator	-10.9867
▁ഫൈബർ	-10.987
▁വീടുകള്‍	-10.9871
▁പാലിച്ച	-10.9876
▁അബ്ദു	-10.988
▁ജനങ്ങളോട്	-10.9885
▁കോഴ്സ്	-10.989
▁സുപ്രീം	-10.9895
▁വ്യക്തമാക്കിയ	-10.9897
▁പെയിന്റ	-10.9907
▁ഇതിലൂടെ	-10.9914
▁വർഷങ്ങളായി	-10.9917
▁ഞാനിവിടെ	-10.9917
▁അർഹ	-10.9918
പീഠ	-10.9924
▁തോമസ്	-10.9925
▁ഉണ്ണി	-10.993
ature	-10.9931
▁ജ്യോതി	-10.9932
▁സകാത്ത്	-10.9932
▁ധാരാളമായി	-10.9933
▁പോന്ന	-10.9934
▁മുറുകെ	-10.9942
▁നിര്‍മ്മിക്ക	-10.9944
ഗ്രന്ഥ	-10.9952
▁പെണ്ണുങ്ങള	-10.9955
▁ജ്വല	-10.9955
▁പണ്ഡിത	-10.9961
കൊടുക്കുന്ന	-10.9961
യോഹന്നാന്‍	-10.9963
▁ഹോട്ടൽ	-10.9963
▁മാജിക്	-10.9964
▁പരലോകത്ത്	-10.9966
ബാധിത	-10.9969
▁മൾട്ടി	-10.9974
▁കീഴില	-10.9975
ബോള	-10.9978
▁തട്ടിപ്പ	-10.9979
▁ആദമ	-10.9982
▁മക്കളുടെ	-10.9992
▁വിലാസ	-10.9995
▁ഒന്നിലധികം	-10.9996
▁കണ്ടുപിടിച്ച	-11.0011
▁when	-11.0017
▁പിരിയ	-11.0018
uch	-11.0018
▁അവശേഷിക്കുന്ന	-11.0021
േന്ദ്ര	-11.0032
എവിടെ	-11.0034
vid	-11.004
▁ക്ലയന്റ	-11.0044
▁വഴങ്ങ	-11.0045
പ്പറയ	-11.0048
▁തര്‍ക്കിക്ക	-11.0052
▁ട്രേലിയ	-11.0053
▁അവസാനിക്കുന്ന	-11.0054
▁നിശ്ശബ്ദ	-11.0063
SP	-11.0064
▁ഇത്തരമൊരു	-11.0069
▁new	-11.0069
▁ആവര്‍ത്തിച്ച	-11.0081
▁കഴിവുകള	-11.0083
സംഭവ	-11.0089
▁ഇസ്രയേല	-11.0095
▁കഴിവുള്ളവന	-11.0096
▁പങ്കുവെക്ക	-11.0097
ിരിക്കട്ടെ	-11.0097
▁ഐഫോൺ	-11.0103
▁ഭൂമിയിലുള്ള	-11.0103
ുണ്ടു്	-11.0107
ഗ്രാഫ	-11.0107
▁വഞ്ചന	-11.0112
ക്കിടെ	-11.0117
▁China	-11.0122
▁know	-11.0122
പഠന	-11.0123
▁ലഭ്യമാക	-11.013
▁ചെകുത്താന	-11.0132
▁വിശദാംശങ്ങള	-11.0138
ത്വമ	-11.0142
▁ലംഘന	-11.0143
▁കര്‍ത്താവിന്റെ	-11.0145
▁അപ്രത്യക്ഷ	-11.0148
▁കാത്തിരിപ്പ	-11.0148
▁here	-11.0149
▁ശെരി	-11.015
കുടുംബ	-11.0168
▁പൊറുത്തുതര	-11.017
US	-11.0172
▁നിര്‍ഭയ	-11.0172
▁National	-11.0181
▁ലൈസൻസ	-11.0181
▁നഷ്ടമാക	-11.0181
▁വ്യഭിചാര	-11.0186
▁വിലയേറിയ	-11.0186
dom	-11.0191
▁അടുത്തിടെ	-11.0192
▁ഒഴുകുന്ന	-11.0192
▁വിരമിക്ക	-11.0202
▁ഗൌരവ	-11.0202
▁ടാനുസൃത	-11.0202
▁മോണ	-11.0204
▁പരിണാമ	-11.0208
▁State	-11.0212
▁പരാമർശ	-11.0218
▁ഭൗതിക	-11.0224
▁രാജ്ഞി	-11.0224
▁മടങ്ങിവര	-11.0224
▁പ്രചാരണ	-11.0226
▁കൗതുക	-11.0234
▁ട്രംപ	-11.0236
ത്തിലാക	-11.0237
ുകള്	-11.0248
ത്വവും	-11.0248
▁നൂറ്റാണ്ടില	-11.0249
▁അക്കാദമി	-11.0251
▁വെറുത്ത	-11.0251
നുസൃതമായ	-11.0254
▁നെറ്റ്വർക്ക	-11.0256
ന്തിനാണ്	-11.0263
ൊഴിയ	-11.0266
▁ശാഖ	-11.0267
▁ആക്സസ്	-11.0268
▁നേടാന	-11.0271
▁ഹാജരാക്ക	-11.0281
▁മുത്തശ്ശി	-11.0283
▁ദീർഘകാല	-11.0283
താമസ	-11.0284
തിനുശേഷം	-11.0291
▁പിഴച്ച	-11.0293
▁കൈവരിക്ക	-11.0293
▁പ്രവചിക്ക	-11.0294
▁പറ്റാത്ത	-11.0295
▁സമ്പാദ്യ	-11.0299
▁അരുളി	-11.0303
▁കുടുംബാംഗങ്ങള	-11.0308
▁വിതരണക്കാര	-11.031
▁വേദനിപ്പിക്ക	-11.0312
ാണാവോ	-11.0313
▁Act	-11.0318
▁പൊതുവേ	-11.0323
▁രവി	-11.0327
▁കറൻസി	-11.0332
▁വിശ്വസിച്ചവരേ	-11.0337
▁ആഗസ്റ്റ്	-11.0343
വളരെ	-11.0348
▁അഭിമാനിക്ക	-11.0348
▁സൃഷ്ടാവ	-11.035
ുടമ	-11.0353
▁നന്നാവ	-11.0356
▁പ്രൊഫഷണല	-11.0365
ുറങ്ങ	-11.0368
നുഷ്ഠിക്ക	-11.0368
▁ഭാഗ്യവാന	-11.0369
▁ദുഃഖിക്ക	-11.037
▁take	-11.0376
രംഗത്ത	-11.0376
ശക്തന	-11.0378
ക്കാരാണ്	-11.0379
▁അറ്റ്ലാന്റിക്	-11.0386
▁പഠിക്കാന	-11.0389
▁സാധാരണക്കാര	-11.0403
▁ഇറക്കുമതി	-11.0403
▁ഇത്രയധികം	-11.0403
▁This	-11.0404
▁സന്ദർഭ	-11.0408
ുകളുണ്ട	-11.0413
ഗുരു	-11.0414
▁തീർക്ക	-11.0423
▁ഒത്തിരി	-11.0425
▁ആധികാരിക	-11.043
▁ഇറാഖ	-11.043
▁പിന്തിരിഞ്ഞു	-11.0441
▁അല്പ	-11.0442
▁ഹദീസ	-11.0443
ീശ്വര	-11.0446
▁വാണിജ്യ	-11.0452
▁പുരുഷന്‍മാര	-11.0455
▁സത്യനിഷേധ	-11.0457
▁കിലോമീറ്റർ	-11.0458
▁അവഗണിച്ച	-11.0458
▁പിരിഞ്ഞു	-11.0464
▁പ്രൊഫൈല	-11.047
സഹോദര	-11.0475
അല്ലാഹുവിന്റെ	-11.0477
എഴുന്നേറ്റ	-11.0477
▁ഉപഭോക്താക്കൾ	-11.048
▁നിങ്ങള്ക്ക്	-11.0484
▁ദുർബല	-11.0485
▁അയ്യപ്പ	-11.0486
▁ആരാധിച്ച	-11.0486
▁കരുതിയിരുന്ന	-11.0487
ാഅ്	-11.05
▁ഓണ്‍ലൈന	-11.0502
േല്പ	-11.0504
▁2003	-11.0506
▁അല്‍പ	-11.051
▁ഭീഷണിപ്പെടുത്ത	-11.0516
▁translation	-11.0519
ദോഷ	-11.0532
ക്ടര്‍	-11.054
കുറിച്ച	-11.0545
▁ദീർഘ	-11.0546
▁മുമ്പില	-11.0548
▁സ്വപ്നങ്ങള	-11.0552
▁തണല	-11.0561
▁പ്രേരിപ്പിച്ച	-11.0563
▁അളക്ക	-11.0564
നൊന്നും	-11.057
▁എളുപ്പമാക്ക	-11.0572
▁ആയാലും	-11.0572
▁യുകെ	-11.0581
▁ഫ്രാന്‍സ	-11.0581
▁ഒഴിച്ച	-11.0586
▁ഇയാളെ	-11.0595
ുയര്‍ത്ത	-11.0596
▁ഉള്‍ക്കൊള്ള	-11.0616
▁ഇളയ	-11.0616
▁ജനവിഭാഗ	-11.0619
ology	-11.0619
▁അവാർഡ	-11.0624
ഭിപ്രായ	-11.0634
▁യിസ്രായേൽ	-11.0636
▁പുനഃ	-11.0636
▁ആചരിക്ക	-11.0638
▁സമ്പ്രദായ	-11.0647
▁പക്കല	-11.0656
▁ക്രിസ്മസ്	-11.0658
="0.	-11.0664
▁ഭയക്കുന്ന	-11.0665
word	-11.0666
▁മകന്റെ	-11.0676
▁വര്ഷം	-11.0681
▁ഈയിടെ	-11.0682
▁മാധവ	-11.0684
സ്രോതസ്സ	-11.0687
▁തിരഞ്ഞ	-11.0698
▁ഗുണമേന്മയുള്ള	-11.0698
▁അരുവികള	-11.0701
▁ഖണ്ഡ	-11.0707
▁അവിശ്വസനീയ	-11.0709
▁other	-11.0709
CH	-11.0715
▁നൂറ്റാണ്ടു	-11.0717
▁തിന്‍മ	-11.0727
ത്തിലുമ	-11.073
▁ആദരവ	-11.0733
▁വീഴ്ത്ത	-11.074
▁അധികപേരും	-11.0755
▁ചുറ്റുപാട	-11.076
▁കസ്റ്റം	-11.0762
േണ്ടിയിരുന്ന	-11.0764
▁പ്രിന്റിംഗ്	-11.0764
▁life	-11.0766
▁അഭിമുഖീകരിക്ക	-11.0773
▁പങ്കുവയ്ക്ക	-11.0774
▁ഉണര്‍ന്ന	-11.0779
ികൊടുക്ക	-11.0779
▁സ്വർഗ്ഗ	-11.0783
ുവോളം	-11.0796
▁ക്രോധ	-11.0805
▁നടപടിക്രമ	-11.0805
▁ആവിഷ്	-11.0806
▁ഗവേഷകർ	-11.0811
പൂർണ്ണ	-11.0812
▁നിലകൊള്ളുന്ന	-11.0815
▁ആയിരക്കണക്കിന്	-11.0817
സൂറ	-11.082
▁കണ്ണൂര	-11.0829
▁വെളുപ്പ	-11.083
▁എതിര്‍ത്ത	-11.0831
ിരിക്കാന്‍	-11.0833
▁തിളങ്ങ	-11.0835
▁വിശദാംശങ്ങൾ	-11.084
ുന്നവരുണ്ട്	-11.085
▁ആര്‍ക്കാണ്	-11.0852
▁വ്യത്യസ്ഥ	-11.0853
▁come	-11.0864
▁വ്യാപകമായി	-11.0867
▁നമ്മുടേത	-11.0867
▁ജനപ്രിയ	-11.0869
പ്പോഴേക്കും	-11.0872
▁അല്ലാഹുവിങ്കലേ	-11.0874
▁◆◆◆	-11.0874
▁നിര്‍ബന്ധിത	-11.0876
▁ഒരുക്കിയ	-11.0882
▁ജനറൽ	-11.0893
.........	-11.0895
▁റീഫ്	-11.0896
▁ചെലുത്ത	-11.0898
▁നക്ഷത്രങ്ങള	-11.0899
▁മില്ലി	-11.09
▁വിട്ടുവീഴ്ച	-11.0909
▁ഇന്റര്‍നെറ്റ	-11.0915
പ്രവര്‍ത്തന	-11.0917
▁ബജറ്റ	-11.0919
▁ശോഭ	-11.0934
▁2001	-11.0935
▁ഉത്തരവാദി	-11.0942
cept	-11.0943
▁തിരിച്ചറിവ	-11.0944
▁കറങ്ങ	-11.095
െയിന	-11.0953
▁ഉത്പന്ന	-11.0961
="5	-11.0962
െൻറ	-11.0967
▁നേതാക്കൾ	-11.0968
▁പുറത്തുവന്ന	-11.0969
▁നമ്മോടു	-11.0969
▁രാഹുല	-11.097
തലമുറ	-11.0971
John	-11.0973
▁വൈദ്യുത	-11.0979
▁പുനർ	-11.098
നഗര	-11.098
എന്തിന	-11.0982
ഔ	-11.0984
▁മാനേജ്മെന്റ്	-11.0985
▁സമീപിച്ച	-11.0991
അതേ	-11.0993
ിംഗിന	-11.0997
ാശംസ	-11.1004
▁ബ്രഹ്മ	-11.1009
▁പേപ്പറ	-11.1014
▁ബുദ്ധിമാന	-11.1016
▁ന്യൂറോ	-11.102
▁which	-11.1025
ഭരിത	-11.1028
duct	-11.1029
َل	-11.1036
▁വാർഷിക	-11.1037
▁കൂട്ടായ്മ	-11.1043
ുമെങ്കിൽ	-11.1043
▁പാപികള	-11.1044
▁താഴ്ഭാഗത്ത	-11.1046
ould	-11.1046
▁ശസ്ത്രക്രിയ	-11.1048
▁ചാർട്ട	-11.1049
▁അവലംബ	-11.106
▁ലേസർ	-11.1061
▁ചുംബിക്ക	-11.1067
ിക്കളഞ്ഞു	-11.1069
▁ആദ്യത്തേത	-11.1079
▁മിക്കപ്പോഴും	-11.1081
▁ഗീത	-11.1088
▁ലൈഫ്	-11.1102
2018	-11.1102
ുകാരെ	-11.1106
▁ക്രമേണ	-11.1108
▁ആസൂത്രണം	-11.1113
▁thought	-11.1119
▁പരിഗണിച്ച	-11.1119
ുനില്‍ക്കുന്ന	-11.1125
▁വിട്ടുമാറ	-11.1128
▁സത്യവാന്‍മാര	-11.1131
▁More	-11.1134
▁കൊലപ്പെടുത്ത	-11.1135
▁ചെയ്‍വ	-11.1142
▁വിശദ	-11.1145
ിരിക്കുകയാണോ	-11.115
▁സർവ്വ	-11.1152
▁ഉപഭോക്തൃ	-11.1154
▁വിദ്യാലയ	-11.1156
▁വ്യക്തമല്ല	-11.116
ുമാറാകട്ടെ	-11.1163
▁ചുമ്മാ	-11.1167
▁sub	-11.1167
▁നമ്മുക്ക്	-11.1173
▁മരിച്ചുപോയ	-11.1178
emb	-11.1181
▁എത്രയെത്ര	-11.1184
▁ഒന്നുകില്‍	-11.1185
▁രചിച്ച	-11.1203
▁പൌര	-11.121
▁സിഗരറ്റ	-11.122
▁സ്വീകാര്യ	-11.122
ഘടന	-11.1227
ദിവസങ്ങള	-11.1227
▁റോബോട്ട	-11.123
ിലുണ്ടായിരുന്ന	-11.1239
▁ജനകീയ	-11.125
▁വിവേചന	-11.1255
▁പ്രഭാഷണ	-11.1257
▁അങ്ങോട്ട്	-11.1259
▁മത്സരിക്ക	-11.126
▁ഡെലിവറി	-11.1261
▁സാത്താന	-11.1263
▁ഊര്‍ജ്ജ	-11.1264
ിന്‍റെയും	-11.1274
▁നിന്ദ്യ	-11.1282
▁അതിര്‍ത്തി	-11.1288
▁ചൊവ്വ	-11.1292
▁വരാനിരിക്കുന്ന	-11.1303
▁വാസസ്ഥല	-11.1303
▁ഏല്പിച്ച	-11.1309
▁നന്നായറിയുന്നവന	-11.131
ാത്തതെന്ത	-11.1311
▁കയറ്റുമതി	-11.1315
▁free	-11.1316
▁മദ്യപാന	-11.1317
▁into	-11.1326
▁മമ്മൂട്ടി	-11.1327
▁നട്ടെല്ല	-11.1328
▁വാഗ്ദത്ത	-11.1333
▁ആണെങ്കില്‍	-11.1339
നിമിത്തം	-11.1352
▁കാഴ്ച്ച	-11.1357
▁കമ്മിറ്റി	-11.1357
▁റാഹീം	-11.1357
▁ശരിയാക	-11.1358
▁ഉണര്‍ത്ത	-11.1367
▁സാമാന്യ	-11.137
▁സുതാര്യ	-11.137
▁മറ്റുള്ളവര്‍ക്ക	-11.137
ണ്ഠ	-11.1372
▁ഓരോരുത്ത	-11.1384
UN	-11.1386
▁തമിഴ	-11.1388
▁അവിശ്വസിച്ച	-11.1389
▁work	-11.139
▁him	-11.139
text	-11.1394
▁നിസ്സഹായ	-11.1394
▁പേരുകള	-11.1395
ക്രൈ	-11.1407
▁യോജിച്ച	-11.1412
▁നമസ്കാര	-11.1423
▁ചങ്ങാതി	-11.1424
▁രണ്ടാഴ്ച	-11.1428
$	-11.1431
▁മാഡം	-11.1431
▁കൊലയാളി	-11.1436
▁നിഷിദ്ധമാക്ക	-11.1439
ുനല്‍ക	-11.144
▁തടസ	-11.1445
▁മനുഷ്യാവകാശ	-11.1446
▁പുത്രന്മാർ	-11.1448
▁കർത്താവേ	-11.145
▁കന്നുകാലികള	-11.1454
▁നാഴിക	-11.1467
൨൦	-11.1469
െയ്ൻ	-11.1469
▁ബോർഡ്	-11.1469
▁ആക്രമിച്ച	-11.1479
ുകൊണ്ടിരിക്കുക	-11.1479
▁സ്പീഡ്	-11.1485
▁സഖാവ	-11.1485
▁ഫിലിം	-11.1486
ാറുണ്ടായിരുന്നു	-11.1492
▁സന്ദര്‍ശന	-11.1493
▁നരകത്തില	-11.1499
ങ്ങളല്ല	-11.1502
▁പശുക്കള	-11.1503
പര്യാപ്ത	-11.1503
ിന്റേയും	-11.1506
▁ടീച്ചര്‍	-11.1522
▁പര്യായം	-11.1534
ശ്രദ്ധ	-11.1542
▁3:1	-11.1551
▁ഓട്ടോമാറ്റിക്	-11.1552
▁സംഘര്‍ഷ	-11.1552
▁മുസ്ലീം	-11.1559
▁അറിയുന്നവനുമ	-11.1562
▁യാഥാർത്ഥ്യ	-11.1571
▁സ്ക്രീൻ	-11.1571
▁രോമ	-11.1571
▁ദുബായി	-11.1572
▁കര്‍ത്താവിന	-11.1572
▁പരിചയപ്പെട	-11.1576
▁ഏറ്റുമുട്ട	-11.1577
സ്പര്‍ശ	-11.1585
▁മാസത്തില	-11.1585
▁ഒന്നാമത്തെ	-11.1601
▁ഇലക്ട്രോണിക്	-11.1602
▁കേള്‍വി	-11.1602
▁ഭേദഗതി	-11.1603
▁പ്രേക്ഷകര	-11.1609
▁ദഹന	-11.1609
▁സഞ്ചരിക്കുന്ന	-11.1614
▁സന്‍മാര്‍ഗ	-11.1615
▁നിരാകര	-11.1619
▁മതിയാവ	-11.1622
▁തെറ്റിദ്ധാരണ	-11.1626
▁നമസ്കരിക്ക	-11.1628
▁നിരസിക്ക	-11.1635
▁ബന്ധിപ്പിക്ക	-11.1638
▁കമ്മീഷന	-11.164
കളുമാണ്	-11.164
ശൈലി	-11.1643
െഴുന്ന	-11.1644
▁ഈടാക്ക	-11.1652
▁കർഷക	-11.166
സുഖ	-11.1664
▁ചിലവഴിക്ക	-11.1664
▁2002	-11.1667
▁പീഡിപ്പിക്ക	-11.167
പരിചരണ	-11.1677
▁നേരിടേണ്ടി	-11.1688
▁നഗരത്തിലെ	-11.1693
മുദ്ര	-11.171
▁ഇതുപോലുള്ള	-11.1714
▁ഓഗസ്റ്റ്	-11.1714
▁താക്കോല	-11.1727
ഡീസ	-11.1728
▁കുടുങ്ങി	-11.173
▁നിഷ്കളങ്ക	-11.1732
▁സന്താനങ്ങള	-11.1739
▁ഇളക്ക	-11.1743
▁ആശ്ചര്യ	-11.1745
▁സിദ്ധാന്ത	-11.1746
▁പരിഹസിച്ച	-11.1751
ക്കാരം	-11.1757
▁എല്ലാവരേയും	-11.1757
▁ലംഘിച്ച	-11.1764
▁തെറാപ്പി	-11.177
▁അന്നേരം	-11.1777
▁ഉപാധി	-11.1785
▁കേബിൾ	-11.1787
▁സ്റ്റിറോയിഡ	-11.1789
▁FSX	-11.1789
▁വർണ്ണ	-11.179
കളിലൊന്ന	-11.1795
▁അവനിച്ഛിക്കുന്ന	-11.1795
▁ക്രൈസ്തവ	-11.1795
▁കപട	-11.1798
▁സ്വാധീനിക്ക	-11.1805
▁പൂര്‍ത്തിയായ	-11.1808
▁സംഘടിപ്പിച്ച	-11.1809
ttle	-11.1811
▁Synonym	-11.1814
▁ചലച്ചിത്ര	-11.1814
▁trans	-11.1827
വരുമാണ്	-11.1827
▁നരേന്ദ്ര	-11.1833
▁ഊഹിക്ക	-11.1836
▁ചിതറി	-11.1844
വിഭവ	-11.1845
ിക്കുവാന	-11.1845
▁നവംബര്‍	-11.1846
▁ചെയ്യപ്പെടുന്ന	-11.1856
▁ഭരമേല്‍പിക്ക	-11.1858
▁America	-11.1858
പുതിയ	-11.1862
▁അഡാപ്റ്റർ	-11.1871
വിജയ	-11.1871
▁കിണറ	-11.1875
▁മറന്നുപോയ	-11.1881
▁പുത്രിമാര	-11.189
▁ആറാം	-11.1892
▁ആശയങ്ങള	-11.1899
▁മര്യാദ	-11.1916
▁ഭൃത്യന	-11.1922
▁പഞ്ചായത്ത	-11.1923
▁കടലാസ	-11.1933
▁മൗന	-11.194
▁പ്രതികൂല	-11.1941
▁തൊപ്പി	-11.1943
▁ഹജ്ജ്	-11.1948
▁സന്ദര്‍ശിച്ച	-11.1954
▁Time	-11.1955
evel	-11.1955
▁നല്‍കാന	-11.1963
▁മായാജാല	-11.1967
▁ഇച്ഛിക്കുന്ന	-11.1974
ുകയുള്ളു	-11.1975
▁അനുഗമിക്ക	-11.1975
▁add	-11.1991
▁ഇമേജ	-11.1995
കേരള	-11.2002
▁ടിക്കറ്റ	-11.201
▁പൊതിഞ്ഞ	-11.2019
▁ധോണി	-11.2024
▁കൂടിക്കാഴ്ച	-11.2031
ുമ്പോഴേക്കും	-11.2034
ായിരിക്കുമെന്ന	-11.2041
▁മുദ്രാവാക്യ	-11.2063
▁പിള്ളേര	-11.2067
▁ഉത്ഭവ	-11.2072
▁തുള്ളി	-11.2074
▁പവിത്ര	-11.2077
▁ജാമ്യ	-11.2082
▁മികവ	-11.2084
▁നിശ്ചല	-11.2089
▁നരകത്തീയ	-11.209
▁മോചിപ്പിക്ക	-11.2092
▁മെഴുകുതിരി	-11.2096
▁റിയൽ	-11.2105
▁എന്നതിനെ	-11.211
▁സംഘടിപ്പിക്ക	-11.2116
▁സയൻസ	-11.2123
തരക്കാര	-11.2134
െന്തിന്	-11.2138
▁സമർപ്പിക്ക	-11.2141
▁ജീവിക്കാന	-11.2145
▁സ്പര്‍ശിക്ക	-11.2149
▁മോതിരം	-11.2155
▁നിലവിലുണ്ട	-11.2159
▁രൂക്ഷ	-11.2161
സ്വഭാവ	-11.2161
▁ഗെയിമ	-11.2163
▁ഭോഷ	-11.2166
പ്രാപ്തി	-11.2172
ctor	-11.2173
ാതിരിക്കാന	-11.2173
▁നോവേറിയ	-11.2174
ുണ്ടാകാം	-11.2181
▁അത്യന്തം	-11.2187
▁ആപ്പിൾ	-11.2187
▁ഇൻസ്റ്റാൾ	-11.2194
▁ചാനൽ	-11.2195
▁വിശ്വാസ്യത	-11.2197
▁അവധിക്കാല	-11.2198
േശ്വര	-11.2206
തെന്താണെന്ന	-11.221
റുതി	-11.2225
▁തങ്ങള	-11.2226
▁പ്രവിശ്യ	-11.2227
▁ഇന്ത്യക്കാര	-11.2228
▁ബാങ്കുകള	-11.2231
അവിശ്വസിക്കുകയും	-11.2243
▁കഠിനാധ്വാന	-11.2253
▁കാർഡ്ബോർഡ്	-11.2253
▁യാക്കോബി	-11.2253
▁കർത്താവിന്റെ	-11.2254
▁make	-11.2267
▁അത്തരക്കാര്‍	-11.2269
▁ലണ്ടനില	-11.2269
പ്രയോജനപ്പെടുത്ത	-11.2277
ോളിവുഡ	-11.228
സൂചക	-11.228
▁വിനീത	-11.2288
▁അവങ്കലേക്ക	-11.2293
െങ്കില്	-11.2304
▁Android	-11.2306
▁നിഗൂഢ	-11.2313
ാക്കിത്തീര്‍ക്ക	-11.2324
▁ആയുസ്സ	-11.2326
തേയില്ല	-11.2327
▁ഉപഭോഗ	-11.2333
▁ഇരുപത്തി	-11.234
▁വിശേഷിപ്പിക്ക	-11.2341
▁എതിര്‍പ്പ	-11.2345
▁ഇതെന്റെ	-11.2346
▁കേള്‍പ്പ	-11.2347
▁പ്രോജക്ട	-11.2353
▁അധ്വാന	-11.2359
▁മതേതര	-11.2366
▁പ്രസംഗിക്ക	-11.2368
ന്‍െറ	-11.237
▁അടങ്ങ	-11.2375
▁ജീവിതത്തില	-11.2377
▁Response	-11.2379
▁ഉപഭോക്താവ	-11.2379
ശൂന്യ	-11.2382
▁മനസ്സിന	-11.2389
▁സമൂഹത്തില	-11.2389
▁probably	-11.2393
▁സർട്ടിഫിക്കേ	-11.2406
▁ആന്തരിക	-11.2406
▁ക്ഷേമ	-11.2407
▁imp	-11.2417
▁ടൂറിസ	-11.2421
▁പോയിന്റ	-11.2429
▁നിനക്കെന്ത	-11.2432
▁ചൂഷണ	-11.2434
കവിത	-11.2438
▁അഴിച്ചു	-11.2439
▁റിവ്യൂ	-11.244
▁ക്ലിനിക്ക	-11.2442
▁കന്യക	-11.2446
▁നിർമാണ	-11.2446
▁ചങ്ങല	-11.2447
▁ഓക്കേ	-11.2458
േട്ടന്‍	-11.2458
▁പുനരുത്ഥാന	-11.246
▁തടഞ്ഞ	-11.2464
വിനിമയ	-11.2474
ൊരിക്കല്‍	-11.2482
▁ആത്മാക്കള	-11.2487
▁ഇങ്ങോട്ട്	-11.2488
▁ക്രാഫ്റ്റ്	-11.2493
ചതുരശ്ര	-11.2507
▁സുലൈമാന	-11.2507
▁എന്നുള്ളത	-11.2508
േല്‍പിന്‍റെ	-11.2514
▁നൂതന	-11.2514
▁സൌഹൃദ	-11.2514
ര്ത്ഥ	-11.252
▁താൽപര്യ	-11.252
▁കാനഡ	-11.2521
▁എനിക്കെന്ത	-11.2523
▁പാനപാത്ര	-11.2527
▁get	-11.2531
ിരട്ടി	-11.2532
▁കേന്ദ്രീകരിക്ക	-11.2545
കേള്‍പിക്ക	-11.2548
▁ഇമാം	-11.2548
▁നിര്‍മ്മിച്ച	-11.255
കാണാ	-11.2551
▁ശീത	-11.2556
▁ഘട്ടങ്ങള	-11.2558
▁രചയിതാവ	-11.2568
▁മാന്ത്രിക	-11.2589
▁എല്ലാവരോടും	-11.2589
▁ഗോപുര	-11.2591
വസ്തുക്കള	-11.2603
▁വ്യക്തത	-11.2616
▁പിൻവലിക്ക	-11.262
ോര്‍ത്ത്	-11.262
▁സദാചാര	-11.2623
▁ഭൂകമ്പ	-11.2623
▁നിര്‍മിക്ക	-11.2628
▁മുന്‍കൂട്ടി	-11.2631
▁ശരീരത്തിലെ	-11.2645
▁ഫോട്ടോഗ്രാഫ	-11.2651
▁സഹോദരങ്ങള	-11.2654
▁യുണൈറ്റഡ്	-11.2657
തുകൊണ്ടാ	-11.2661
ുകയാണുണ്ടായത്	-11.2664
lution	-11.2667
▁നിര്‍മിച്ച	-11.267
ലക്ഷ്യ	-11.2673
▁വാൽവ്	-11.2685
ലോകമെമ്പാടുമുള്ള	-11.2691
▁ഉണർന്ന	-11.2706
▁Manufacturer	-11.2712
▁പവിഴ	-11.2713
▁വയനാട	-11.2724
▁വൈദിക	-11.2726
▁ഉപകരിക്ക	-11.2727
posit	-11.2736
▁ചൂതാട്ട	-11.2761
ദ്ദേഹത്തെ	-11.2764
▁രസകരമ	-11.2777
▁ഇച്ഛിച്ച	-11.2783
കൂട്ടര	-11.2797
▁വേദനാജനക	-11.2802
▁പതിനഞ്ച	-11.2803
▁ഉദയ	-11.2805
▁വർദ്ധിച്ച	-11.2816
▁ദുഷിച്ച	-11.2817
▁രാജകുമാരന	-11.2823
▁ഭീരു	-11.2824
▁ഒരിക്കല	-11.2832
ാനുളള	-11.2844
▁ശരിയാവ	-11.2848
▁വിശദീകരിച്ച	-11.285
ഓരോരുത്തര്‍ക്കും	-11.2862
Gener	-11.2866
ത്തിലല്ല	-11.2876
ക്രമണ	-11.2884
▁ഉത്സാഹ	-11.2886
പ്രാവശ്യം	-11.2891
ശ്ശേരി	-11.2894
▁സങ്കല്‍പ്പ	-11.2894
▁വര്‍ദ്ധിച്ച	-11.2901
▁പ്രതിഭാസ	-11.2908
ാക്രമ	-11.2913
▁പോഷക	-11.2922
▁സ്ഥാപനങ്ങള	-11.2924
Serv	-11.2927
▁should	-11.2929
▁കുടിവെള്ള	-11.2944
▁ആഗ്രഹിച്ചിരുന്ന	-11.2946
▁മോഷ്ടിക്ക	-11.295
▁വാതിലുകള	-11.295
▁പ്രദർശിപ്പിക്ക	-11.2957
▁കിട്ടാന	-11.2961
▁രജിസ്റ്റർ	-11.2965
star	-11.2965
▁അതിജീവന	-11.2971
▁എഞ്ചിൻ	-11.2971
public	-11.2978
▁തക്കവണ്ണം	-11.2978
▁ധാരാളമ	-11.2979
▁പ്രകടമായ	-11.2982
▁ആപ്പിള	-11.2984
▁പുരോഹിതന്മാര	-11.2992
▁സ്വര്‍ഗത്തോപ്പു	-11.2992
▁മാര്‍ഗദര്‍ശനം	-11.2992
▁മിസ്രയീമ	-11.2999
▁മയക്കുമരുന്ന	-11.2999
ുമാറാക്ക	-11.3001
▁പതിവുപോലെ	-11.3007
▁ഏജന്റ	-11.3022
▁every	-11.3028
▁അങ്ങേയറ്റം	-11.3028
▁never	-11.3035
▁ദളിത	-11.3038
ോയിഡ	-11.3045
weather	-11.3049
ശേഖര	-11.305
ോടൊത്ത	-11.3055
▁സാമീപ്യ	-11.3056
▁നിഗമന	-11.3057
▁ഡെപ്പോസിറ്റ്	-11.3064
▁അടിയന്തര	-11.3064
▁മാനേജര	-11.3069
▁ബ്ലോക്ക	-11.3077
▁അഭിഭാഷക	-11.3078
ാധിപത്യ	-11.3083
▁ദര്‍ശിക്ക	-11.3096
▁കണക്കുകൂട്ട	-11.31
▁പലർക്കും	-11.31
▁പൂർണമായും	-11.3107
▁ദിവസേന	-11.3109
▁നീയെന്നെ	-11.3115
സംഘടന	-11.3116
▁കത്തോലിക്ക	-11.3128
▁അന്ത്യദിനത്തില	-11.3129
▁സ്ക്രീന	-11.3132
▁Christ	-11.315
▁ന്യായാധിപ	-11.3151
മിത്രങ്ങള	-11.3155
ശബ്ദ	-11.3157
▁കഥാപാത്രങ്ങള	-11.316
▁ഉദ്ബോധന	-11.3164
[3]	-11.3172
▁പരിമിതികള	-11.3172
▁അഫ്ഗാന	-11.3179
▁പ്രേക്ഷക	-11.3185
▁പാനൽ	-11.3187
▁ശ്രേണി	-11.3193
▁രജിസ്	-11.3203
▁ടേപ്പ്	-11.3208
െര്സ്	-11.321
▁സ്ക്ര	-11.321
ാതീത	-11.3215
▁നിർമ്മാതാക്ക	-11.3215
▁ഗ്രാമീണ	-11.3223
▁ആദ്യമായാണ്	-11.3224
▁അഗാധ	-11.323
▁Trans	-11.323
▁സ്മരിക്ക	-11.3231
▁മൌന	-11.3233
▁ന്യൂനപക്ഷ	-11.3237
പദ്ധതി	-11.324
പരിപാടി	-11.3247
▁ഷർട്ട	-11.3249
▁താരതമ്യേന	-11.3258
▁സംരക്ഷിച്ച	-11.3259
▁സുരക്ഷിതത്വ	-11.3264
▁ഷീറ്റ്	-11.3266
▁മാത്രമായിരിക്ക	-11.327
▁സ്വദേശി	-11.3277
▁ഇല്ലാതാക	-11.3278
▁കൊടുങ്കാറ്റ	-11.3281
നിമിഷ	-11.3293
▁Author	-11.3295
▁അടിത്തറ	-11.3296
▁നിരീക്ഷിച്ച	-11.3303
▁സമ്പദ്	-11.331
▁സ്പഷ്ടമായ	-11.3311
▁അച്ഛാ	-11.3312
▁അനുഗൃഹീത	-11.3325
▁സാമ്പിൾ	-11.3325
gree	-11.3325
▁വിലമതിക്ക	-11.3327
ിലുടനീള	-11.3332
▁good	-11.3334
കുളം	-11.3335
▁സാഷ്ടാംഗം	-11.3339
▁വ്യക്തമാക	-11.3354
▁ദുബായ്	-11.3354
▁ആകർഷിക്ക	-11.3361
▁ഹാറൂന	-11.3364
▁തറവാട	-11.3364
▁കാമുകി	-11.3368
▁ഹാജര	-11.3375
▁അമേരിക്കക്കാര	-11.3385
▁സൂചിപ്പിക്ക	-11.3392
▁പതാക	-11.3398
▁first	-11.3406
▁വൃക്ക	-11.3416
source	-11.3428
▁ഏജൻസി	-11.3443
ാശ്രയ	-11.3462
▁താല്‍പ്പര്യ	-11.3473
▁റമദാന	-11.3473
പരിശോധന	-11.3479
▁യുക്തിമാനും	-11.348
color	-11.3481
ിനെതിരായ	-11.3492
▁സംവരണ	-11.3501
▁തള്ളിക്കളഞ്ഞ	-11.3504
േണ്ടതുണ്ടോ	-11.3508
▁ചേരുവ	-11.3515
▁അൽപം	-11.3517
ഭവിച്ച	-11.3531
▁സൌജന്യ	-11.3532
▁ഭക്ഷിച്ച	-11.3533
▁സപ്ലൈ	-11.354
▁ഓപ്ഷൻ	-11.3547
▁ആശയക്കുഴപ്പ	-11.3562
▁ഘോര	-11.3562
▁പിന്തിരിയ	-11.3562
▁പ്രയത്ന	-11.3563
▁അനുസ്മര	-11.3565
▁ജൂതന്മാര	-11.3568
▁ഇതിനിടെ	-11.357
▁കൃഷിക്കാര	-11.3582
▁നിരന്തരമായ	-11.3585
▁വിശന്ന	-11.3586
▁അതിനിടെ	-11.3593
ാദ്യം	-11.3596
▁ഫ്രെയിം	-11.36
▁ജര്‍മനി	-11.3608
പ്പോഴാ	-11.362
▁സാക്ഷാല്‍	-11.3623
▁ഫീൽഡ	-11.3627
▁ദാമ്പത്യ	-11.363
▁സ്ഥാപിതമായ	-11.363
▁പറുദീസ	-11.3638
▁ഉദ്ധരണി	-11.3638
▁സ്പോർട്സ്	-11.3638
പ്രഭുക്കന്മാ	-11.3645
▁നരകാഗ്നി	-11.3646
▁ആര്‍ക്കെങ്കിലും	-11.3646
▁ഇറക്കിത്തന്ന	-11.3647
ുന്തോറും	-11.3654
self	-11.3654
▁അനുകരിക്ക	-11.3663
▁സ്ലോട്ടുകൾ	-11.3668
തിലക	-11.3669
▁വിഭവങ്ങള	-11.3669
പുരോഹിത	-11.3678
സൂര്യ	-11.3679
▁ഭാഗമാക	-11.368
▁വര്‍ദ്ധിക്ക	-11.3684
▁സൂപ്പര്‍	-11.3691
▁അതിജീവിച്ച	-11.3692
▁ചിത്രകാരന	-11.37
കൃഷി	-11.3715
▁തൂങ്ങി	-11.3719
▁വ്യതിയാന	-11.3737
ഹൈഡ്ര	-11.3741
▁ന്യായീകരിക്ക	-11.3743
▁ജെയിംസ്	-11.3745
ങ്ങളാക	-11.375
q	-11.3758
▁ചിലപ്പോഴൊക്കെ	-11.376
oint	-11.3766
▁അപ്ലിക്കേഷന	-11.3768
▁വികസിപ്പിച്ച	-11.3768
▁വര്‍ധിക്ക	-11.3769
അമേരിക്ക	-11.3771
ക്വുര്‍ആന്‍	-11.3771
▁people	-11.3775
▁രണ്ടാമത്തേത	-11.3776
▁പതിനൊന്ന	-11.3782
▁പുഷ്പ	-11.3787
▁ഉത്കണ്ഠ	-11.3798
▁വിവർത്തന	-11.3798
▁അമ്മാവന	-11.3807
▁പട്ടാളക്കാര	-11.3812
രാജ്യങ്ങള	-11.3812
▁YouTube	-11.3814
▁അരുളപ്പാടു	-11.3814
▁നിര്‍ണായക	-11.3829
▁പ്രോത്സാഹന	-11.3829
▁മസ്തിഷ്ക	-11.3837
▁അങ്ങനെയെങ്കില്‍	-11.3837
▁ഉന്നയിക്ക	-11.3838
പൈലറ്റ	-11.384
▁ആൽബ	-11.3841
വിശുദ്ധ	-11.3842
▁സങ്കല്‍പ	-11.3844
▁ബട്ടൺ	-11.3845
▁ദൈനംദിന	-11.3852
▁ഇസ്രായീല്‍	-11.386
▁നിലപാടുകള	-11.3863
▁ഇഷ്ടാനുസൃത	-11.3868
You	-11.3872
▁വായിക്കാന	-11.3877
▁പൗരത്വ	-11.3882
ബുഖാരി	-11.3891
▁ആന്റണി	-11.3891
▁ചരിത്രത്തിലെ	-11.3892
▁നടുവിൽ	-11.3899
ിരിക്കേണ്ട	-11.3906
▁അമ്മയോട	-11.3912
▁അദ്ധ്വാന	-11.3915
▁ഏറ്റവുമധികം	-11.3915
നിർണയ	-11.3917
▁കുറ്റക്കാര	-11.3918
▁അറേബ്യ	-11.393
ുറപ്പിക്ക	-11.3932
▁അര്‍പ്പിക്ക	-11.3937
ചൈതന്യ	-11.3938
▁നന്ദികേട	-11.3946
▁സന്ദർശന	-11.3946
▁ഉന്നയിച്ച	-11.3946
▁മറ്റുചില	-11.3954
സുന്ദര	-11.3967
ഭിഷേക	-11.397
▁മറയ്ക്ക	-11.3974
turn	-11.398
▁സന്തോഷിപ്പിക്ക	-11.3982
▁സാദ്ധ്യമ	-11.3983
▁വേറിട്ട	-11.3984
▁ശുപാര്‍ശ	-11.3985
ഡബ്ല്യ	-11.3985
നാലാമ	-11.399
▁സിംഗിൾ	-11.3993
വകുപ്പ	-11.4011
▁ഏറ്റുവാങ്ങ	-11.4016
ദാഹരണ	-11.4019
▁പ്രദര്‍ശിപ്പ	-11.4026
▁വര്‍ധിപ്പിക്ക	-11.404
▁കപടവിശ്വാസികള	-11.404
▁ദുരൂഹ	-11.4048
എങ്കില്‍	-11.4049
▁യാചിക്ക	-11.4056
▁അള്ളാഹു	-11.4056
▁പ്രസ്താവിക്ക	-11.4056
▁ആവർത്തിക്ക	-11.4058
▁ആൺകുട്ടി	-11.408
▁യോജിപ്പ	-11.408
▁പെയ്ത	-11.408
പ്പെടാനുള്ള	-11.4081
▁സംശയത്തില	-11.4091
സ്തംഭ	-11.4098
▁മനുഷ്യപുത്രന	-11.4098
ിലേക്കെത്ത	-11.4102
▁അറുപത	-11.4103
▁കളിപ്പാട്ട	-11.4103
▁ബട്ടണ	-11.411
▁മദ്യപിച്ച	-11.4132
▁English	-11.4135
▁ഒന്നുകിൽ	-11.4137
▁താക്കീതുകാരന	-11.4145
▁മുന്പ	-11.4173
▁എല്ലാറ്റിനും	-11.4175
▁വിരമിച്ച	-11.4183
▁വീണ്ടുമ	-11.4184
▁കാവൽ	-11.4185
▁കാമുകന	-11.419
ദൈര്‍ഘ്യ	-11.4191
▁നാമനിർദ്ദേശം	-11.4191
▁ഓഡിയോ	-11.4191
പൂര്‍ണമായ	-11.4212
▁നിർണ്ണയിക്ക	-11.4214
ccess	-11.4223
▁എനിയ്ക്ക	-11.4224
▁ഇല്ലാതായ	-11.424
യഹോവ	-11.4247
▁അടഞ്ഞ	-11.4261
▁മുടങ്ങ	-11.4261
▁ആപ്ലിക്കേഷന	-11.4263
െസ്റ്റോസ്റ്റിറോൺ	-11.4263
▁ശുദ്ധീകരിക്ക	-11.4271
▁ജപ്പാൻ	-11.4272
പ്രവർത്തന	-11.4284
▁പ്രഥമ	-11.429
▁അപകടത്തില	-11.4292
▁കൈമാറ്റം	-11.4296
ുദ്ദേശിച്ച	-11.4299
▁നന്ദിയുള്ളവര	-11.4301
▁കാര്യത്തില	-11.4304
ുകയെന്നത്	-11.4306
മലിനീകരണ	-11.4314
ോന്യ	-11.4315
▁നിഷിദ്ധ	-11.4316
▁അബ്രാഹ	-11.432
▁മനോരമ	-11.4321
▁മദീന	-11.4322
മാനേജ	-11.4327
▁കാറുകള	-11.4338
▁ഗുജറാത്ത	-11.4377
ക്ഷേത്ര	-11.4392
▁ദൈവദൂതന്മാര	-11.4397
▁സോവിയറ്റ്	-11.4401
▁സങ്കീർണ്ണ	-11.4418
▁സൌന്ദര്യ	-11.4418
▁ഒടുവില	-11.4418
▁അരികില	-11.4421
ക്കുമിടയില്‍	-11.4426
▁നിസ്സംശയം	-11.4426
▁പത്രോസ	-11.4427
▁കഴിയുമായിരുന്ന	-11.4441
സാന്നിദ്ധ്യ	-11.4442
വയസ്സ	-11.446
ഊ	-11.4466
▁അരങ്ങേറ	-11.4479
▁നിറയ്ക്ക	-11.4488
ഫെഡറ	-11.4489
▁നിര്‍വഹിച്ച	-11.4492
സംരക്ഷണ	-11.45
▁ആകർഷണ	-11.4517
▁ഏകാന്തത	-11.4521
കിരണ	-11.4521
മില്ലീമീറ്റർ	-11.4525
▁അടങ്ങിയിരിക്ക	-11.453
▁വിവാഹിതരായ	-11.4534
ാനാണിത്	-11.4537
▁ഷിപ്പിംഗ്	-11.455
▁സങ്കല്പ	-11.4551
▁ആത്യന്തിക	-11.4558
▁സാധ്യമാണ്	-11.4558
▁അഭിനന്ദിക്ക	-11.4559
▁ഹൃദയത്തില	-11.456
അഭിവാദ്യ	-11.4561
▁എല്ലാവര്ക്കും	-11.4566
▁മുന്നറിയിപ്പ	-11.4574
▁നഷ്ടപരിഹാരം	-11.4583
▁അനായാസ	-11.4592
ഹൂദ	-11.4593
ിരിക്കുമ്പോള്‍	-11.4596
▁പകർപ്പവകാശം	-11.4608
കാണിച്ച	-11.4611
നിഷേധ	-11.4615
മുതല	-11.4615
▁ഇബ്രാഹീം	-11.4616
▁തമ്പുരാന	-11.4625
▁അടിസ്ഥാനത്തില	-11.4641
▁യൂണിയൻ	-11.4642
▁ഉപദേഷ്ടാ	-11.465
▁വികാസ	-11.4678
▁ഓക്സിജൻ	-11.4684
▁ബിറ്റ്കോയിൻ	-11.4684
#	-11.4703
»	-12.3314
•	-12.8893
́	-13.0337
◆	-13.2631
