<unk>	0
<s>	0
</s>	0
.	-3.04124
ം	-3.96332
▁	-3.96403
്	-4.35774
,	-4.36682
ു	-4.4918
യ	-4.78268
വ	-4.91559
മ	-4.92018
ാ	-5.02916
ത	-5.10669
െ	-5.12113
ര	-5.12295
േ	-5.13234
ി	-5.14647
ന	-5.16168
ക	-5.16707
▁ഒരു	-5.19371
ും	-5.21795
▁അ	-5.25317
ക്ക	-5.28534
റ	-5.29935
ോ	-5.32384
ല	-5.32496
▁ആ	-5.36115
?	-5.37904
:	-5.39789
ത്	-5.45515
സ	-5.4915
ർ	-5.49378
യും	-5.58247
ട	-5.65505
സ്	-5.66519
ത്ത	-5.66837
)	-5.74429
▁ഈ	-5.75867
ുക	-5.76212
ൂ	-5.80106
ര്‍	-5.8545
▁ക	-5.93378
▁(	-5.94711
ള	-5.94916
ണ	-5.95213
;	-5.96019
പ	-5.97404
ൻ	-6.00706
ക്ക്	-6.03741
വും	-6.0549
ൽ	-6.06981
ീ	-6.08905
മായ	-6.09023
ുന്ന	-6.09104
e	-6.14329
s	-6.1613
ാണ്	-6.17081
ങ്ങള്‍	-6.18546
ശ	-6.18949
ില്‍	-6.19536
ന്‍	-6.20398
ക്	-6.20803
ില്ല	-6.22531
▁മ	-6.23415
ുന്നു	-6.25034
▁ത	-6.2855
ന്	-6.28602
തി	-6.29639
t	-6.30253
യുടെ	-6.31106
ിൽ	-6.31116
പ്പ	-6.31393
മാണ്	-6.32167
ിച്ചു	-6.32403
-	-6.3264
ിച്ച	-6.32853
ിയ	-6.33035
ങ്ങൾ	-6.33975
റ്റ	-6.35174
ാൻ	-6.35736
▁നീ	-6.36421
▁പ്ര	-6.39415
▁ഞാന്‍	-6.39659
▁പ	-6.40578
▁വി	-6.41345
ണം	-6.4205
▁"	-6.42119
ത്തെ	-6.42462
ട്ട	-6.42482
▁എന്ന	-6.42737
ല്‍	-6.43189
▁അത്	-6.43658
ാന്‍	-6.43886
ൊ	-6.44088
▁സ	-6.44176
▁ഇ	-6.45726
!	-6.45903
മായി	-6.46508
ിക്ക	-6.47547
നി	-6.47606
ത്തില്‍	-6.48453
▁അവര്‍	-6.48905
ഹ	-6.49867
യാണ്	-6.52669
▁ഉ	-6.53099
▁എന്റെ	-6.55513
▁വ	-6.55652
ാം	-6.56013
▁ഞാൻ	-6.56863
ഗ	-6.57286
ുകയും	-6.57762
▁തന്നെ	-6.59396
വി	-6.60316
്‍	-6.60589
ദ	-6.61833
▁നിങ്ങളുടെ	-6.62013
▁ന	-6.6204
യെ	-6.65388
തു	-6.65605
▁എ	-6.65842
അ	-6.67252
▁പറഞ്ഞു	-6.67738
ുന്നത്	-6.6866
▁നിങ്ങള്‍	-6.68886
ല്ല	-6.68998
മാ	-6.69269
യില്‍	-6.71851
ച്ച	-6.72562
▁“	-6.72831
o	-6.73352
g	-6.73554
▁ച	-6.73888
ുള്ള	-6.73962
ന്ന	-6.76552
▁ഇത്	-6.76626
ഴ	-6.77559
ായി	-6.77782
യാ	-6.78988
ങ്ങ	-6.82141
വര	-6.82655
ച	-6.83966
ത്തിന്റെ	-6.84021
കള്‍	-6.84118
ഷ	-6.84323
ലി	-6.84653
▁-	-6.85007
ത്തിൽ	-6.85173
യിൽ	-6.85227
ക്കു	-6.85227
a	-6.85767
ുകൾ	-6.85786
ായ	-6.85892
ഡ്	-6.86612
▁നാം	-6.86633
▁അല്ലാഹു	-6.86707
ിന്റെ	-6.86958
ക്കും	-6.88278
ിലെ	-6.89211
കൾ	-6.89289
ൈ	-6.89984
യോ	-6.90953
2	-6.91406
ാല്‍	-6.94671
ഡ	-6.94755
i	-6.95373
മ്പ	-6.96293
കള	-6.97458
c	-6.98679
▁അവരുടെ	-6.99283
ത്തി	-6.99674
ിനെ	-6.99974
▁നല്ല	-7.01613
ണ്ട	-7.01785
y	-7.03994
ഭ	-7.04649
▁എല്ലാ	-7.04922
▁അറിയ	-7.05245
യ്	-7.06021
ൾ	-7.06183
ത്ത്	-7.06396
ൊരു	-7.06763
▁പാ	-7.0699
രി	-7.0752
▁നിങ്ങൾ	-7.08132
"	-7.09351
ങ്ക	-7.09712
മ്മ	-7.10166
▁നി	-7.10271
▁എന്ന്	-7.10634
ക്ഷ	-7.10814
▁കു	-7.10846
ജ	-7.10881
രു	-7.11065
സി	-7.11174
കാര	-7.11227
▁എന്നാല്‍	-7.11725
▁കാ	-7.11877
ത്ര	-7.12793
▁വാ	-7.1336
▁ചില	-7.13659
3	-7.14771
p	-7.14854
ന്റെ	-7.15619
ന്നു	-7.15664
വര്‍	-7.15766
n	-7.16108
ാവ	-7.16289
▁ഓ	-7.16618
▁ചെയ്ത	-7.16849
ബ	-7.17195
റ്റ്	-7.17552
▁അവ	-7.17679
നം	-7.18133
റി	-7.18618
▁ബ	-7.19533
▁?	-7.19728
▁വര	-7.20342
ിക	-7.20439
▁കാണ	-7.20858
താ	-7.20945
പ്ര	-7.20979
▁അവന്‍	-7.21082
ത്തു	-7.21256
▁ചെയ്യ	-7.21345
'	-7.21556
5	-7.2167
ടി	-7.2272
യുള്ള	-7.23376
▁അദ്ദേഹം	-7.23439
ാര	-7.23778
ങ്ങളും	-7.24315
4	-7.24464
▁പി	-7.2474
▁ഗ	-7.25544
an	-7.25872
9	-7.26208
ിക്കുന്ന	-7.26554
6	-7.26619
ന്ത	-7.26907
ത്തിന്	-7.27031
ുകള്‍	-7.2728
ിപ്പ	-7.27546
1	-7.27711
▁മു	-7.27731
8	-7.27758
▁‘	-7.27777
▁നമ്മുടെ	-7.27778
▁വളരെ	-7.27953
▁അവർ	-7.28123
പ്പെട്ട	-7.28321
ാത്ത	-7.29275
ട്ടി	-7.2942
റിയ	-7.29608
ധ	-7.30018
പ്	-7.30483
▁അങ്ങനെ	-7.30724
നെ	-7.3119
ായിരുന്നു	-7.31728
നാ	-7.319
▁സ്	-7.31927
7	-7.3218
▁എനിക്ക്	-7.32325
▁എന്നെ	-7.32333
▁നിന്ന്	-7.3246
▁'	-7.3304
ോട്	-7.33124
ില	-7.33713
▁അതു	-7.34448
▁പറഞ്ഞ	-7.3464
ാക	-7.34928
രാ	-7.35417
r	-7.35607
▁സാ	-7.35751
വാ	-7.36234
ണി	-7.36478
▁ശ	-7.36755
മുള്ള	-7.37009
▁വലിയ	-7.3712
▁ദൈവ	-7.37346
▁ജ	-7.37509
എ	-7.37901
വർ	-7.38248
▁എന്നു	-7.38772
മില്ല	-7.38886
▁ചെയ്തു	-7.39671
ഇ	-7.39869
▁ഏറ്റവും	-7.39915
▁2	-7.40074
▁മാ	-7.40632
ിരിക്കുന്നു	-7.40868
▁ജന	-7.41118
▁വഴി	-7.4169
▁ഇവിടെ	-7.42202
.”	-7.43128
er	-7.43312
”	-7.43452
▁ല	-7.43715
▁അടുത്ത	-7.44395
ിന്	-7.4451
d	-7.45031
▁അവരെ	-7.45237
ങ്ങളെ	-7.45677
▁പോലെ	-7.45743
k	-7.46416
താണ്	-7.46434
മി	-7.46482
മേ	-7.46624
ക്കാ	-7.47147
▁കഴിഞ്ഞ	-7.47311
ിരുന്നു	-7.48283
▁പറയ	-7.48767
ലാ	-7.49013
ാതെ	-7.49064
▁ഒ	-7.49352
l	-7.5015
al	-7.50422
ഗ്	-7.50618
മോ	-7.51544
▁കണ്ട	-7.51909
m	-7.52088
▁കോ	-7.5217
രുത്	-7.52182
ള്‍	-7.52361
കര	-7.52362
ഫ	-7.52489
▁A	-7.52866
▁നിന്റെ	-7.53885
u	-7.53948
▁S	-7.54305
വേ	-7.54343
or	-7.54422
▁ഭ	-7.54595
ങ്ങളുടെ	-7.54873
പ്പെട	-7.55283
’	-7.5591
ുന്നില്ല	-7.56439
▁3	-7.56453
▁പല	-7.56503
വരെ	-7.5658
(	-7.56748
ര്‍ത്ത	-7.56873
▁ദ	-7.56985
ുടെ	-7.57028
▁ഞാന	-7.57065
ാൽ	-7.57437
▁ആവശ്യ	-7.57631
▁വേ	-7.5774
▁നില	-7.58152
▁പുതിയ	-7.58357
▁ഇത	-7.58827
തര	-7.59152
ഥ	-7.59169
▁പരി	-7.59393
ൺ	-7.59399
ച്ചു	-7.59564
ഷ്	-7.59576
ഡി	-7.5994
െങ്കിലും	-7.59958
ദ്ധ	-7.59997
മല്ല	-7.60134
ar	-7.60634
കളും	-7.60677
▁രണ്ടു	-7.6145
▁അവിടെ	-7.61583
▁ഇല്ല	-7.61625
▁പോക	-7.61825
▁ഏ	-7.62411
ന്‍റെ	-7.62474
▁പു	-7.62615
ിക്കുന്നു	-7.6267
▁കൈ	-7.62724
▁the	-7.63243
ഞ്ഞ	-7.63444
▁20	-7.63487
▁ആണ്	-7.63641
▁തര	-7.63644
ുമോ	-7.63994
▁ഇട	-7.63998
▁ഹ	-7.64274
പി	-7.64539
▁ഓരോ	-7.65294
ട്ടെ	-7.65394
ിട	-7.65395
▁വേണ്ടി	-7.65783
ക്കി	-7.65963
തും	-7.66415
▁വന്ന	-7.66515
▁എത്ര	-7.66522
▁...	-7.66545
▁സത്യ	-7.67187
ഞ്ച	-7.67378
on	-7.67431
▁അവൻ	-7.67526
ളി	-7.6756
▁പിന്നെ	-7.67916
▁കൊ	-7.68744
▁വെ	-7.68916
▁എന്നാൽ	-7.69438
റ്റി	-7.70325
ുണ്ട്	-7.71141
സ്ഥ	-7.71367
യായി	-7.71415
ിട്ടില്ല	-7.71587
ഖ	-7.71768
▁തന്റെ	-7.72007
െന്ന്	-7.72192
▁പക്ഷേ	-7.72316
രോ	-7.72728
▁&	-7.72803
യിലെ	-7.72885
▁ഇനി	-7.73258
ിക്കുക	-7.73564
b	-7.73808
▁ഞങ്ങള്‍	-7.73962
ിംഗ്	-7.74384
▁അത	-7.75019
▁നിങ്ങളെ	-7.75127
▁19	-7.75185
▁അവര	-7.75307
▁സി	-7.75325
▁പേര	-7.75451
ബ്	-7.75537
▁കാരണം	-7.76073
ോള	-7.76106
in	-7.76532
െന്ന	-7.76611
▁എങ്ങനെ	-7.76956
▁നല്‍ക	-7.76992
▁ഡ	-7.77303
ൃ	-7.77458
ic	-7.77544
ാണ	-7.77763
▁C	-7.77834
▁ലോക	-7.77863
re	-7.77952
▁മാത്രം	-7.78035
S	-7.78092
▁P	-7.78374
▁ദിവസം	-7.78527
ിട്ടുണ്ട്	-7.78561
സ്റ്റ	-7.78853
▁കാല	-7.78913
ദി	-7.79403
പ്പോള്‍	-7.79406
ുമ്പോള്‍	-7.79414
▁എനിക്ക	-7.7954
▁ചെയ്യുന്ന	-7.79603
പ്പ്	-7.79613
▁ഞങ്ങൾ	-7.79693
f	-7.79874
v	-7.8003
▁1	-7.80657
h	-7.80696
▁കൂടി	-7.80853
▁4	-7.81154
ിത	-7.81407
ങ്ങളില്‍	-7.8167
▁കട	-7.81679
ഫ്	-7.81783
നുള്ള	-7.81923
▁തീര്‍ച്ചയായും	-7.82086
▁പറയുന്നു	-7.8245
തന്നെ	-7.82565
▁അവന്റെ	-7.82757
ed	-7.82779
▁ഒന്ന	-7.83216
▁ഞങ്ങളുടെ	-7.83252
ദ്	-7.83291
ിക്കുകയും	-7.83344
യില	-7.83591
ാനും	-7.83695
▁തീ	-7.83815
▁നിന്നും	-7.84
."	-7.84332
ോടു	-7.84454
▁of	-7.84577
ിച്ച്	-7.84666
ിട്ട	-7.84774
w	-7.848
A	-7.84813
രിക്ക	-7.85072
▁ഉള്ള	-7.85329
▁കാര്യ	-7.85393
സാ	-7.85749
മായിരുന്നു	-7.85782
▁ജീവിത	-7.85783
▁5	-7.85789
▁മി	-7.85877
▁അതി	-7.86894
▁M	-7.86931
▁ചെയ്യും	-7.87183
▁കൂടുതൽ	-7.87202
ൗ	-7.87233
▁ഇതു	-7.8748
▁ഫ	-7.87702
ാല	-7.88369
▁ചു	-7.88396
▁വീണ്ടും	-7.8851
ാകുന്നു	-7.88753
▁നോക്ക	-7.89075
it	-7.89784
▁ജോലി	-7.89959
▁നിങ്ങള	-7.90109
ിലും	-7.90518
▁പക്ഷെ	-7.90525
ബി	-7.9084
ആ	-7.90911
ing	-7.91608
▁മെ	-7.92025
േണ്ട	-7.92043
ിരുന്ന	-7.9242
ജി	-7.92536
▁എന്ത	-7.9259
▁അവനെ	-7.92698
ണ്ണ	-7.93288
▁ശിക്ഷ	-7.93649
കളെ	-7.93666
▁അമ്മ	-7.93902
ത്തിനു	-7.94049
കളുടെ	-7.94229
▁കഥ	-7.94465
▁നിയമ	-7.94479
ധി	-7.94492
പ്പി	-7.95159
നും	-7.95185
▁അവന	-7.95287
▁കൊണ്ട്	-7.95481
ുകയാണ്	-7.95574
▁വില	-7.9558
ൊക്കെ	-7.95699
▁സം	-7.96231
▁കൂട്ട	-7.96252
▁അല്ല	-7.96278
▁ബാ	-7.96462
നേ	-7.96486
▁m	-7.96984
ിക്കും	-7.97074
es	-7.97413
▁തെറ്റ	-7.97464
▁മനുഷ്യ	-7.976
▁ഇവ	-7.97859
▁രാജ്യ	-7.98023
കാല	-7.98124
▁ഇഷ്ട	-7.98822
▁T	-7.99143
▁പൂ	-7.99338
ാണു	-7.99412
▁അതിന്റെ	-7.9978
▁സെ	-8.00045
E	-8.00053
▁പൊ	-8.00078
ഹി	-8.00126
ായിരിക്കും	-8.00415
ദ്ര	-8.00547
▁മാറ്റ	-8.00595
ധ്യ	-8.00831
ാലും	-8.00882
▁w	-8.00933
▁പ്രധാന	-8.00956
ികള്‍	-8.00957
at	-8.01101
▁ആദ്യ	-8.01352
▁വരെ	-8.01392
പ്പെടുത്ത	-8.01431
▁സ്വ	-8.01523
en	-8.01586
നായ	-8.01862
ല്ലാതെ	-8.0228
▁യാത്ര	-8.0231
▁നാ	-8.02435
▁നിന്ന	-8.02601
▁a	-8.02655
ടു	-8.03
▁വിശ്വാസ	-8.03105
ല്ലോ	-8.03509
ഞ്ഞു	-8.03585
വന്‍	-8.03611
യ്ക്ക്	-8.03697
▁ഇന്ത്യ	-8.03704
▁നടത്ത	-8.03994
െങ്കിൽ	-8.04006
▁നൽക	-8.0447
ര്യ	-8.04636
മാര	-8.04842
്യൂ	-8.0491
ിനു	-8.04928
▁എവിടെ	-8.04968
ക്കുന്ന	-8.05084
ിലേക്ക്	-8.05316
▁ശേഷം	-8.05494
യില്ല	-8.0555
/	-8.05621
le	-8.05866
▁കൂടുതല്‍	-8.06074
▁തീരുമാന	-8.06109
▁ദൈവം	-8.06125
▁എല്ലാം	-8.06166
െല്ലാം	-8.06192
ഗ്ര	-8.06435
I	-8.06565
▁B	-8.06581
▁നിങ്ങള്‍ക്ക്	-8.06762
▁നിന്നെ	-8.06865
▁അനു	-8.06909
ദാ	-8.07049
C	-8.07133
ണ്‍	-8.07191
▁അവര്‍ക്ക്	-8.0731
▁സമയം	-8.07313
▁വിജയ	-8.07875
ഘ	-8.07924
്യം	-8.08019
▁അപ്പോള്‍	-8.08341
▁കുടുംബ	-8.08365
▁ദിവസ	-8.08476
▁വിവര	-8.08517
ർത്ത	-8.08828
▁വൈ	-8.09424
ലൈ	-8.09493
▁കാര്യം	-8.09855
▁ബന്ധ	-8.10256
▁ഭൂമി	-8.10296
▁നമുക്ക്	-8.10301
▁തല	-8.10448
as	-8.10599
▁ദു	-8.10694
▁എന്‍റെ	-8.10816
▁എന്തു	-8.10953
ംഗ	-8.1099
▁സമ	-8.11344
ട്ട്	-8.11368
ുകയില്ല	-8.11425
രുടെ	-8.1159
▁ഇങ്ങനെ	-8.11646
ന്ത്ര	-8.11702
▁പോ	-8.11857
െടുക്ക	-8.11977
▁ഷ	-8.12046
]	-8.12294
▁കഴിയ	-8.12412
▁സത്യം	-8.12804
▁/	-8.12873
▁എന്താണ്	-8.13123
പാ	-8.13202
ുമ്പോൾ	-8.13295
00	-8.13633
രിയ	-8.13923
▁ചെയ്യുന്നു	-8.13953
▁സു	-8.14176
▁അവസാന	-8.14354
പ്പോ	-8.14407
▁നിർ	-8.14523
▁പോയി	-8.14569
ങ്ങളിൽ	-8.14624
▁കണ്ടെത്ത	-8.14765
▁മുമ്പ	-8.14854
▁അനുഭവ	-8.15114
പ്പോൾ	-8.15438
▁കണ്ണ	-8.15803
▁മറ്റ	-8.15821
ുമായി	-8.15989
▁സന്തോഷ	-8.16423
ശ്	-8.16538
T	-8.16615
▁ജീവ	-8.16622
▁താ	-8.16654
▁രക്ഷ	-8.16697
▁ഉപ	-8.16859
ാണോ	-8.16883
െടുത്ത	-8.17065
നീ	-8.17108
ാണെന്ന	-8.17696
▁to	-8.17947
D	-8.18065
ൊന്നു	-8.18137
▁ഫല	-8.18186
▁നന്ദി	-8.18542
കൊണ്ട	-8.18609
▁ഇന്ന്	-8.18917
ാപ	-8.18923
▁ശരി	-8.18978
െങ്കില്‍	-8.19309
R	-8.19325
▁കൂടെ	-8.19394
0	-8.19413
ഴി	-8.19699
▁വീ	-8.19718
രീ	-8.19871
▁പര	-8.19874
▁സമയ	-8.20068
▁സ്ത്രീ	-8.20535
ുകളും	-8.20705
▁നേര	-8.20706
ലോ	-8.20823
▁ചെയ്യുക	-8.21036
യോഗ	-8.21089
▁മറ	-8.21128
▁ഭാഗ	-8.21176
▁പ്രതി	-8.21191
▁കേട്ട	-8.21289
▁ട്ര	-8.21349
▁എനിക്കു	-8.21374
▁സ്റ്റ	-8.21673
▁F	-8.21843
ദ്യ	-8.21933
▁ചെ	-8.2203
is	-8.22097
നായി	-8.22327
ള്ള	-8.22357
▁മനസ്സ	-8.22465
▁ഉണ്ട്	-8.2266
▁തന്നെയാണ്	-8.22745
▁ചോദിക്ക	-8.22862
വാദ	-8.22895
▁സ്ഥല	-8.22906
us	-8.2306
▁സ്നേഹ	-8.23099
മാന	-8.23226
▁ഐ	-8.23637
▁രണ്ട്	-8.23729
▁6	-8.23816
ന്ന്	-8.23957
▁കിട്ട	-8.23974
ിച്ചത്	-8.24414
▁അമേരിക്ക	-8.24484
▁കര	-8.24702
വരും	-8.24765
പോലെ	-8.24815
▁സഹായിക്ക	-8.24939
▁വ്യ	-8.24988
▁10	-8.25083
ന്ദ	-8.25221
േറ്റ	-8.25264
th	-8.25289
▁ചെറിയ	-8.2529
ഴു	-8.25426
▁!	-8.25443
▁മര	-8.25449
▁വല	-8.25641
▁ഹൃദയ	-8.25943
▁ഒര	-8.26166
▁മേ	-8.26198
ക്കുക	-8.26331
P	-8.26455
യാള	-8.2657
നിന്നു	-8.26648
▁ഒരിക്കലും	-8.26707
▁അല്ലെങ്കിൽ	-8.26758
▁അവൾ	-8.2755
▁നിര	-8.27557
തായി	-8.27714
ോട്ട	-8.27736
▁അതിനാല്‍	-8.27786
▁തന്ന	-8.27814
പ്പെട്ടു	-8.27941
രായ	-8.27943
ിക്കാന്‍	-8.28065
ക്കുറിച്ച്	-8.2831
▁മറ്റു	-8.28574
▁ഡി	-8.28583
▁മറ്റൊരു	-8.28585
▁രൂപ	-8.28598
▁അതിനു	-8.28646
തില്‍	-8.28729
▁രാത്രി	-8.2879
▁ഇപ്പോൾ	-8.28825
▁കരുത	-8.28852
▁തു	-8.28979
O	-8.29083
ംബ	-8.2914
▁L	-8.29394
▁യേശു	-8.29439
▁p	-8.29511
▁രീതി	-8.29588
▁H	-8.2968
▁അതിനെ	-8.29764
▁കഴിയും	-8.29984
നാണ്	-8.30117
▁നിങ്ങൾക്ക്	-8.30144
▁കണ്ടു	-8.30181
മുണ്ട്	-8.30202
▁c	-8.30595
▁വന്നു	-8.30612
ഹ്	-8.3074
▁അവള്‍	-8.30888
▁E	-8.30982
▁സന്	-8.31054
▁പോലും	-8.31118
▁ബോ	-8.31161
▁ധ	-8.31303
?”	-8.31449
ിക്കുന്നത്	-8.31522
രണ	-8.31902
▁വര്‍ഷ	-8.32237
ch	-8.32377
▁in	-8.32466
▁കൊണ്ട	-8.32603
ീയ	-8.32903
▁ചാ	-8.32925
ഷ്ട	-8.3311
▁ഉപയോഗിക്ക	-8.33142
▁and	-8.33692
വരുടെ	-8.33764
▁ആയി	-8.33954
▁ഇപ്പോള്‍	-8.33994
▁കൊടുക്ക	-8.34064
▁മുഖ	-8.34298
▁പറയുക	-8.34451
▁മത	-8.34714
ച്ച്	-8.34732
▁ബി	-8.3481
▁7	-8.34943
ദേശ	-8.35149
▁D	-8.35486
▁–	-8.35829
▁ഏറെ	-8.3587
▁ഒന്നും	-8.35932
▁പോയ	-8.35988
▁കുട്ടി	-8.36048
N	-8.36086
യല്ല	-8.36122
ുവാന്‍	-8.36152
▁അതില്‍	-8.36223
▁നിറ	-8.36265
▁ഇതിന	-8.3633
▁പിന്നീട്	-8.36362
‍	-8.3654
M	-8.36596
▁വേണം	-8.3661
▁ആണ	-8.36637
▁വായിക്ക	-8.36648
യായിരുന്നു	-8.36793
et	-8.37126
▁ചിത്ര	-8.37385
▁മുന്ന	-8.37481
▁”	-8.37685
▁സംസാരിക്ക	-8.37776
▁അതിന	-8.37967
വിധ	-8.3814
▁കളി	-8.38486
▁മികച്ച	-8.38552
▁പുറത്ത	-8.38656
ികൾ	-8.39263
ിട്ടു	-8.39474
▁വേണ്ട	-8.39551
▁ഭയ	-8.39564
▁പ്രത്യേക	-8.39872
▁നഷ്ട	-8.39887
ുണ്ടോ	-8.3994
▁ഉണ്ടാക	-8.39971
▁തങ്ങളുടെ	-8.40024
ിക്കാൻ	-8.40289
ad	-8.4029
▁മൂ	-8.40328
▁മരണ	-8.40403
▁സിനിമ	-8.40404
ാതിരിക്ക	-8.40425
▁തിര	-8.40783
▁തുടര	-8.41125
ol	-8.41452
▁''	-8.41487
തിന്	-8.41564
▁പ്രശ്ന	-8.416
ാട	-8.41947
കൊണ്ടു	-8.41992
ാളി	-8.41996
▁സഹായ	-8.42087
കരമായ	-8.42143
▁നടന്ന	-8.42153
ിരിക്കുന്ന	-8.42306
▁W	-8.42313
▁I	-8.42396
ുമെന്ന്	-8.42396
▁പറയുന്ന	-8.42539
am	-8.4261
▁യഹോവ	-8.42917
ട്ടു	-8.43169
▁എല്ലാവരും	-8.43178
ത്തിന്‍റെ	-8.43268
▁സംശയ	-8.43282
ിലൂടെ	-8.43355
▁സ്വന്തം	-8.43396
▁രക്ഷിതാവ	-8.43553
തീ	-8.43574
പ്പെടുന്ന	-8.43593
▁നിനക്ക്	-8.43622
▁എളുപ്പ	-8.44142
%	-8.44164
▁സാധാരണ	-8.44166
▁സ്വയം	-8.44185
യായ	-8.44342
▁N	-8.44513
▁വിളിക്ക	-8.44711
▁പെ	-8.44738
ല്ലേ	-8.44854
▁ബ്ര	-8.44975
ിട്ടുള്ള	-8.45264
െന്നു	-8.45469
െന്നും	-8.45492
20	-8.45499
ൌ	-8.45552
▁പ്രാ	-8.45674
▁8	-8.45831
ക്കുന്നു	-8.45862
ാര്‍	-8.45877
ുമെന്ന	-8.4602
പ്പു	-8.46047
▁ഇരു	-8.4611
▁അനുഗ്രഹ	-8.46229
▁വിശ്വസിക്ക	-8.46285
ത്തോടെ	-8.46408
▁തോന്ന	-8.46847
L	-8.47295
.’	-8.4731
ണമെന്ന	-8.47329
ur	-8.47412
▁ഭാര്യ	-8.47459
യാണ	-8.47521
തിര	-8.47527
ശി	-8.47669
ല്യ	-8.47792
▁മനസ്സിലാക്ക	-8.47815
ുന്നവന	-8.47873
▁ആദ്യം	-8.47958
▁9	-8.48024
▁വാങ്ങ	-8.48142
താവ	-8.48237
ത്തിലും	-8.48239
!!	-8.48407
▁ലഭിക്ക	-8.48466
▁ചോദിച്ചു	-8.48618
▁200	-8.48705
ri	-8.4872
▁കമ്പനി	-8.48728
ധന	-8.48732
▁കള	-8.48818
il	-8.49162
ഷ്യ	-8.49348
ശ്ര	-8.49442
▁G	-8.49477
?"	-8.49497
വിടെ	-8.49497
▁പതി	-8.49848
കളില്‍	-8.49918
▁മറുപടി	-8.50151
നില്‍ക്ക	-8.50299
▁വ്യക്തി	-8.50516
ടുത്ത	-8.50578
ങ്ങളില	-8.50631
▁ആയിരുന്നു	-8.50895
പോ	-8.51139
ിയത്	-8.51226
▁f	-8.51494
ക്കുള്ള	-8.51662
ation	-8.51812
ുന്നതാണ്	-8.51856
▁എന്നിവ	-8.52034
▁ഉണ്ടാക്ക	-8.52083
ാക്കി	-8.52133
യ്യ	-8.52173
▁പുറ	-8.52261
▁കുഞ്ഞ	-8.52523
ഭാഗ	-8.52734
യുണ്ട്	-8.52839
▁മന	-8.5291
▁പാപ	-8.53006
ക്ഷി	-8.53079
ണ്ട്	-8.53476
▁ചൈന	-8.53525
▁വള	-8.53548
▁മാറ	-8.5379
▁തോ	-8.54014
▁മുമ്പ്	-8.54074
▁അല്ലാഹുവിന്റെ	-8.54122
▁എഴുത	-8.54348
ാവുന്ന	-8.54357
▁ഹാ	-8.54366
▁പിതാവ	-8.54491
▁നിര്‍	-8.5452
തെന്ന്	-8.54615
മാര്‍	-8.54675
▁കഴിക്ക	-8.54765
▁രണ്ട	-8.54949
▁വർഷ	-8.55012
▁b	-8.55038
▁ശരീര	-8.55124
ിരിക്കുന്നത്	-8.5516
ൊന്ന	-8.5518
ത്തിന	-8.55376
▁O	-8.55429
▁ചിന്ത	-8.55538
ലീ	-8.55552
▁ശ്രദ്ധ	-8.55607
▁മതി	-8.55852
▁രാ	-8.55919
യാണോ	-8.56006
▁ജീവിതം	-8.56329
▁അവളുടെ	-8.56496
ut	-8.56579
▁ഖ	-8.56619
▁അങ്ങ	-8.56659
▁ഭാഷ	-8.56669
▁വല്ല	-8.56744
▁നല്‍കിയ	-8.56818
ഞ	-8.56897
ുന്നതിന്	-8.56934
ുകയോ	-8.57001
ow	-8.57033
▁മുറി	-8.57042
ra	-8.57068
▁തിരിച്ചു	-8.5707
▁ചോദ്യം	-8.57116
ജന	-8.57153
ിലേക്കു	-8.5719
▁വേദന	-8.57198
▁ഒരേ	-8.57399
▁മാത്രമ	-8.57571
▁യുദ്ധ	-8.57638
▁മാത്രമാണ്	-8.57658
▁നന്നായി	-8.57824
▁നാമ	-8.57927
▁അല്ലാഹുവിന	-8.58019
el	-8.58054
ുന്നുണ്ട്	-8.58264
amp	-8.58334
▁അയാള്‍	-8.58481
നിയ	-8.58484
ro	-8.5858
▁അടി	-8.58612
മാണ	-8.58775
കളാണ്	-8.58793
ര്‍ത്ഥ	-8.58919
ബന്ധ	-8.58948
▁ജോ	-8.58966
▁എന്ത്	-8.58997
▁നിന്നു	-8.59061
▁പറയും	-8.59101
▁ഊ	-8.59217
▁പറയുന്നത്	-8.59237
▁ആഗ്രഹിക്കുന്ന	-8.59266
▁ആരും	-8.59899
▁നഗര	-8.60064
ജ്ജ	-8.60246
വര്‍ക്ക്	-8.60433
ാമോ	-8.60478
റിയാം	-8.60535
▁സാധിക്ക	-8.60758
▁കൊല്ല	-8.60789
ുന്നതു	-8.60833
▁ലി	-8.61273
▁നടക്ക	-8.61394
▁ലാ	-8.61403
▁ചോദ്യ	-8.61462
വചന	-8.616
▁R	-8.6162
▁_	-8.61766
▁വരുന്ന	-8.61881
ീസ്	-8.61882
▁അതിന്	-8.62172
▁കൊടുത്ത	-8.62224
▁കുറ്റ	-8.62245
▁മാത്രമേ	-8.62299
▁അല്ലെങ്കില്‍	-8.62542
വ്വ	-8.62684
മീ	-8.62889
▁വരും	-8.62938
ങ്ങി	-8.63006
▁താങ്കള്‍	-8.63021
ന്തി	-8.63073
▁നേട	-8.63289
▁തിരിച്ച	-8.63316
▁ഉറപ്പ	-8.63444
▁ഇത്തരം	-8.63593
▁എപ്പോഴും	-8.63661
▁മൂന്ന	-8.63698
തല്ല	-8.63711
ങ്ങനെ	-8.63879
▁വെള്ള	-8.63885
▁ക്ര	-8.63924
▁ആരോഗ്യ	-8.63928
ോടും	-8.63947
ക്കാല	-8.63994
▁12	-8.6401
പക്ഷ	-8.64156
▁സഹ	-8.64379
പ്പെടുന്നു	-8.64436
▁വായിച്ച	-8.64568
▁പറ്റ	-8.64574
▁സൃഷ്ടിച്ച	-8.64587
ികള	-8.64657
ുമായിരുന്നു	-8.64919
കൃത	-8.64981
ജീവ	-8.6501
▁അഭിപ്രായ	-8.65066
19	-8.65111
്‍ക്ക്	-8.65144
യ്ക്കു	-8.65219
▁സഹോദര	-8.65252
ുണ്ടായിരുന്നു	-8.65337
▁എടുക്ക	-8.6543
പ്പറ്റി	-8.65597
▁മൂന്നു	-8.65643
ർത്ഥ	-8.65907
ion	-8.6594
ഹാ	-8.65959
▁ഞാനും	-8.66004
പരി	-8.66015
lo	-8.66091
ോടൊപ്പം	-8.66092
ീന	-8.66159
▁മാസ	-8.66321
▁പ്ല	-8.66337
▁കുറഞ്ഞ	-8.66592
▁വിഷയ	-8.66695
▁ഇര	-8.66737
▁സ്വീകരിക്ക	-8.66741
▁ലഭിച്ച	-8.66839
▁യു	-8.6688
കൊണ്ട്	-8.66946
വ്യ	-8.67013
ക്കാന്‍	-8.67026
▁കേ	-8.67048
ഗ്രഹ	-8.67099
id	-8.67174
ച്ഛ	-8.67189
▁സർ	-8.67201
ജ്	-8.67208
▁ഞങ്ങളെ	-8.67316
▁അത്ര	-8.67488
ൂട്ട	-8.67501
▁അപ്പ	-8.67606
ക്കായി	-8.67634
ay	-8.67875
തുപോലെ	-8.679
▁അതെ	-8.68007
▁എന്നും	-8.68028
▁എങ്കിലും	-8.68197
▁സംസാര	-8.68281
ter	-8.68298
ക്കാര്‍	-8.6832
''	-8.68455
പരമായ	-8.68474
▁കാരണ	-8.68545
ബാ	-8.68654
▁ഇവര്‍	-8.68678
ാഴ്ച	-8.68777
സ്റ്റ്	-8.69015
▁പണി	-8.69045
▁ടെ	-8.69144
ജ്ഞ	-8.69255
▁ചരിത്ര	-8.69479
▁കുറച്ചു	-8.69687
▁ആകാശ	-8.69778
▁എന്നത്	-8.69916
ില്ലേ	-8.69988
▁എത്ത	-8.70216
ിപ്പിച്ച	-8.70356
ുപോക	-8.70401
ായിരുന്ന	-8.70425
▁18	-8.70488
ാണിത്	-8.70501
om	-8.70561
000	-8.70579
ീകരണ	-8.7072
ക്ഷണ	-8.70971
▁മാന	-8.71166
▁നോക്കി	-8.71314
▁വിചാര	-8.71357
ിപ്പിച്ചു	-8.7141
▁മക്കള	-8.7151
▁ശക്തി	-8.7158
50	-8.71645
▁കേരള	-8.71669
ാക്കിയ	-8.717
B	-8.71731
▁പദ്ധതി	-8.71941
ir	-8.71968
▁റോ	-8.72323
ക്കാരന	-8.72528
മാക്കി	-8.7253
ത്തിലുള്ള	-8.72617
▁h	-8.72619
െപ്പോലെ	-8.72696
▁കെ	-8.72699
ീകരി	-8.72833
lt	-8.73162
▁വിവാഹ	-8.73254
▁ഒന്നു	-8.73283
X	-8.7341
ക്കാൻ	-8.73456
ഫി	-8.73748
ണ്ടു	-8.73781
un	-8.73831
▁നോ	-8.73899
▁മാത്രമല്ല	-8.7392
▁കേള്‍ക്ക	-8.73961
▁താമസ	-8.74059
▁ചെറു	-8.74147
▁മാറി	-8.74182
മാരെ	-8.74182
ശ്വ	-8.74196
ശേഷം	-8.74355
▁പക	-8.74402
▁യാ	-8.74407
തെല്ലാം	-8.74464
▁അവകാശ	-8.74681
ിട്ട്	-8.74854
▁സീ	-8.74869
▁രോഗ	-8.74947
▁ആഗ്രഹ	-8.75087
മാകുന്നു	-8.75113
▁സ്പ	-8.75125
ാധി	-8.75233
▁പുസ്തക	-8.75263
▁റി	-8.75612
10	-8.75635
ങ്ങളാണ്	-8.75872
▁നാട	-8.76171
▁വ്യത്യസ്ത	-8.76507
▁മനുഷ്യന	-8.76679
ുകളുടെ	-8.7669
=	-8.76841
▁എന്നാണ്	-8.76892
ിലേ	-8.77087
▁വെച്ച	-8.77178
േഷൻ	-8.77202
ക്സ്	-8.7721
▁കഴിവ	-8.77252
പേര	-8.77282
ക്കാർ	-8.7736
▁ആത്മ	-8.77442
▁പേര്	-8.77473
▁കാഴ്ച	-8.77503
▁തുടങ്ങി	-8.77575
▁ക്ല	-8.7761
വീ	-8.77651
▁കാര്യങ്ങള്‍	-8.77794
▁അവസ്ഥ	-8.77832
▁നട	-8.77915
▁അവസര	-8.7801
▁പഠിക്ക	-8.78178
ാകും	-8.78234
▁പഴയ	-8.78289
▁ഹോ	-8.78302
▁അന്ന	-8.78364
▁15	-8.78389
േണ്ടത്	-8.784
im	-8.78551
▁വിധി	-8.78619
ുന്നതും	-8.78701
[	-8.789
▁ലോ	-8.78955
▁തുടങ്ങിയ	-8.79019
▁എന്തിന	-8.79248
എസ്	-8.7954
ത്തിലേക്ക്	-8.7955
ഉ	-8.79605
▁മനുഷ്യര	-8.79623
യുമ	-8.79623
▁സോ	-8.79648
ചി	-8.79652
▁ഞങ്ങള	-8.79719
x	-8.79733
ദ്ദ	-8.79742
▁d	-8.79808
▁സൃഷ്ടിക്ക	-8.79825
▁തുടങ്ങ	-8.79866
ത്രെ	-8.79913
▁അഭി	-8.79943
ുവാ	-8.79967
▁അറിഞ്ഞ	-8.80179
▁പ്രതീക്ഷ	-8.80263
യിലും	-8.80276
▁മരിച്ച	-8.80281
▁നിന്‍റെ	-8.80374
യോടെ	-8.80382
▁നെ	-8.80481
▁അറിവ	-8.8054
ക്സ	-8.8063
▁ദിന	-8.80635
കൂടി	-8.80646
▁പണം	-8.80712
▁you	-8.8074
ഠ	-8.80773
▁l	-8.80895
ര്‍മ്മ	-8.80956
ടിയ	-8.80991
ent	-8.81125
ദര്‍ശ	-8.8114
▁കി	-8.81226
ിലുള്ള	-8.81236
▁തയ്യാറ	-8.81269
▁സാക്ഷി	-8.81322
▁ഡോ	-8.8155
ുണ്ടാക്ക	-8.8158
▁പറ്റി	-8.81801
▁കുറവ	-8.8184
യിലേക്ക്	-8.82096
പ്രകാരം	-8.82116
▁ഒറ്റ	-8.82127
വരാണ്	-8.8214
്റെ	-8.82143
▁തവണ	-8.82148
ീകരിച്ച	-8.82193
നാഥ	-8.82197
▁നമ്മള്‍	-8.822
ോൺ	-8.82222
റിഞ്ഞ	-8.82301
ുണ്ടായ	-8.82572
▁വെള്ളം	-8.82674
ര്‍ന്ന	-8.82674
▁സൂ	-8.8271
▁യൂ	-8.82727
വിന്റെ	-8.82752
ഭാവ	-8.83008
▁സംഘ	-8.83173
▁സ്ഥാന	-8.83239
ve	-8.8332
▁വിശദ	-8.83369
▁ഗുണ	-8.83409
▁മോശ	-8.83559
▁പിന്ന	-8.83583
ന്റ്	-8.83619
▁കുറിച്ച്	-8.83706
ഒ	-8.83738
ിപ്പിക്കുന്ന	-8.83742
▁കാർ	-8.83809
▁വര്‍ഷം	-8.83951
▁കുട്ടികള	-8.84231
▁ഫോ	-8.84271
ോട്ട്	-8.84272
▁പ്രണയ	-8.84328
ത്തിനും	-8.84412
ul	-8.84457
േണ്ടി	-8.84716
ദ്ധ്യ	-8.84751
▁ഫ്ര	-8.84783
▁എണ്ണ	-8.84805
od	-8.84833
▁വിഭാഗ	-8.84844
ുകയായിരുന്നു	-8.84851
▁ലക്ഷ്യ	-8.85107
▁അതുകൊണ്ട്	-8.85161
ha	-8.85203
▁ജീവന	-8.85207
വിശ്വാസ	-8.853
▁രാജാവ	-8.85308
▁വ്യക്തമായ	-8.85341
ിനി	-8.85456
▁ഉണ്ടായ	-8.85505
▁ശ്രമിക്ക	-8.85624
▁മുൻ	-8.85628
ുകളിൽ	-8.85668
▁എന്തെങ്കിലും	-8.85705
▁താഴെ	-8.85731
▁പറഞ്ഞത്	-8.85814
▁ജി	-8.8588
▁കിട്ടിയ	-8.85938
▁ഉത്തരം	-8.85995
ചാര	-8.86165
ാനു	-8.86357
▁വരുത്ത	-8.86397
വനും	-8.86446
▁വർഷം	-8.86471
ഈ	-8.86475
ഷി	-8.86563
കൂട	-8.86633
▁സാധ്യത	-8.86662
▁ഏത	-8.86699
മുണ്ട	-8.86729
വെച്ച	-8.86758
കെട്ട	-8.86781
.''	-8.86802
ര്‍ച്ച	-8.86871
കളിൽ	-8.86968
▁ആയിരിക്ക	-8.87021
ലോക	-8.8704
വഴി	-8.87179
ടുക്ക	-8.8723
▁അതേ	-8.87358
▁ചെയ്യുന്നത്	-8.87461
▁അവളെ	-8.87469
േക്കു	-8.87532
ുകളില്‍	-8.87598
▁തുറന്ന	-8.87617
com	-8.8765
▁ജൂ	-8.87848
▁അതാണ്	-8.87918
▁കാണുന്ന	-8.87942
ക്കൾ	-8.88064
▁സംഭവിച്ച	-8.88258
▁for	-8.88406
ate	-8.88435
▁മാര്‍ഗ	-8.88779
15	-8.88818
▁രാജ	-8.8884
ര്‍പ്പ	-8.88896
▁മറ്റുള്ളവര	-8.8911
ാന്ത	-8.89222
കള്‍ക്ക്	-8.89257
▁അദ്ദേഹത്തിന്റെ	-8.89257
ഭി	-8.89261
▁ഇന്നു	-8.8936
▁Re	-8.89401
കളില	-8.89471
▁തെ	-8.89769
▁ശി	-8.89882
▁വിളിച്ചു	-8.89943
ര്‍ത്തി	-8.89959
വന്ന	-8.90062
മുഖ	-8.90064
▁ലെ	-8.90079
വുമ	-8.90095
▁കൊണ്ടു	-8.90133
▁പേടി	-8.90133
▁ആശയ	-8.90166
രിക	-8.90298
▁പഠന	-8.90365
▁[	-8.90592
▁11	-8.90645
▁is	-8.9071
ിക്കാന	-8.90726
▁മറ്റ്	-8.90792
▁അടിസ്ഥാന	-8.90856
▁പ്രായ	-8.90865
ുവാൻ	-8.91032
▁നേഹ	-8.91123
U	-8.91195
▁U	-8.91359
ിലാണ്	-8.91361
▁ഒഴിവാക്ക	-8.91381
▁ഭക്ഷണം	-8.91428
ുണ്ടാവ	-8.9154
▁വേറെ	-8.9159
പ്പെടും	-8.91741
▁നിനക്ക	-8.91746
▁സമൂഹ	-8.91775
▁വിട	-8.91869
▁പറ	-8.91937
▁സേവന	-8.9198
▁നിനക്കു	-8.92035
▁പുരുഷ	-8.9206
sh	-8.92105
വേണ്ടി	-8.92217
▁കഴിയുന്ന	-8.92229
H	-8.92403
ന്മാർ	-8.92414
nd	-8.92527
▁ഏതു	-8.92549
▁വീട	-8.92567
▁സംഭവ	-8.92604
▁പലപ്പോഴും	-8.92708
▁യാതൊരു	-8.92735
▁ഇൻ	-8.92793
യിരിക്ക	-8.92819
▁പരസ്പരം	-8.92867
ദ്ദേശ	-8.92883
▁നമ്മെ	-8.92907
▁സുഖ	-8.92914
▁കള്ള	-8.93021
മാർ	-8.93068
പാദ	-8.93207
വിട	-8.93259
▁ഇസ്	-8.93526
▁തള്ള	-8.9354
▁പലരും	-8.93563
▁ഏഴ	-8.93573
▁നമ്മള	-8.93623
ഭ്യ	-8.93637
ണമെന്ന്	-8.93699
▁അയാൾ	-8.93788
▁മാർ	-8.93822
▁സമാധാന	-8.93894
▁ശരിക്കും	-8.93952
em	-8.93977
▁ശരിയായ	-8.94015
ബോധ	-8.94064
▁പരീക്ഷ	-8.94093
ഖ്യ	-8.94107
േറ്റ്	-8.94111
▁നാള	-8.94145
പിടിച്ച	-8.94659
▁മൂന്ന്	-8.94718
▁അതോ	-8.94777
ങ്ങിയ	-8.94784
േഷന	-8.94791
▁റെ	-8.94807
ജ്ഞാന	-8.94966
▁ശബ്ദ	-8.95019
▁പിടി	-8.9509
▁അപകട	-8.95148
▁തീര	-8.95233
▁നല്‍കുന്ന	-8.95254
▁ഉപയോഗ	-8.95268
▁നമുക്ക	-8.95379
ിയ്ക്ക	-8.95528
ുന്നതിനു	-8.95643
▁നരക	-8.95688
▁re	-8.95721
▁ഒരാള	-8.95752
11	-8.9596
▁പൊതു	-8.96094
ver	-8.96222
▁നടപടി	-8.96257
▁ഭക്ഷണ	-8.96267
ബു	-8.96349
▁കൂടാതെ	-8.9639
തൃ	-8.96751
▁മല	-8.96847
ഷണ	-8.96999
▁ആളുകള	-8.97293
ന്മാര്‍	-8.97528
ne	-8.97645
ിരുന്നത്	-8.97674
12	-8.97697
▁തെളിവ	-8.97868
▁ഇതാണ്	-8.98072
ിക്കപ്പെട്ട	-8.98078
▁മുതൽ	-8.98126
വുമായി	-8.98204
▁സംബന്ധിച്ച	-8.98288
F	-8.9836
ിരുന്നില്ല	-8.98384
തിനു	-8.98392
▁ഭരണ	-8.98499
▁മഹാ	-8.98524
َ	-8.9855
▁സൂര്യ	-8.98668
ഞാന്‍	-8.98717
▁തിരു	-8.98793
എന്ന	-8.9901
▁ചെയ്യാൻ	-8.99062
ത്തിലാണ്	-8.99171
ുകളെ	-8.99201
he	-8.99231
▁നീതി	-8.99349
ത്തന്നെ	-8.99445
z	-8.99492
തിരി	-8.99634
▁മലയാള	-8.99648
▁ഇപ്പോഴും	-8.99787
▁വിവാഹം	-8.99972
പ്പാട	-9.00008
▁ഇതാ	-9.00123
▁ലേഖന	-9.00252
▁ഫി	-9.00355
▁സൃഷ്ടി	-9.0038
ടിക്ക	-9.00386
സ്ഥാന	-9.00475
ച്	-9.00506
യിലാണ്	-9.00546
▁തൊഴില	-9.00617
tr	-9.00617
▁ടി	-9.00648
▁നേരെ	-9.00683
തിന്റെ	-9.00802
▁ഒരുപാട്	-9.00933
▁പകരം	-9.00956
▁ഉണ്ടായിരുന്നു	-9.00974
▁നിമിഷ	-9.01019
ab	-9.01148
മായിരിക്കും	-9.01184
തോടെ	-9.01243
ച്ചി	-9.0133
G	-9.01407
▁ഏത്	-9.01409
▁നമ്മൾ	-9.01439
▁ദൈവത്തിന്റെ	-9.01482
റിയില്ല	-9.01497
▁ആരാണ്	-9.0151
▁ഗോ	-9.01532
▁പ്രവര്‍ത്തിക്ക	-9.01559
▁ഏക	-9.01657
ho	-9.01738
ികളെ	-9.01756
ിക്കാം	-9.01766
ഗ്ഗ	-9.01792
▁ജാ	-9.01996
▁വിട്ട	-9.0224
▁ഇനിയും	-9.02334
▁ആരെങ്കിലും	-9.02345
എന്റെ	-9.02369
ങ്ങളിലും	-9.02393
രോധ	-9.02582
▁സ്വര്‍ഗ	-9.02586
വാന	-9.02586
▁രക്ത	-9.02693
േണമേ	-9.03092
▁എഴുതിയ	-9.03109
പ്പോഴും	-9.03154
▁കീഴ	-9.03167
േക്കാം	-9.03173
▁ഭാവി	-9.03233
▁നാളെ	-9.03287
▁ഒന്ന്	-9.03297
വാസ	-9.0337
▁കാത്തിരിക്ക	-9.03424
▁നിന്നുള്ള	-9.03476
17	-9.03605
ചെയ്	-9.03641
▁കാണാം	-9.03655
ിയിരിക്കുന്നു	-9.0367
റുകൾ	-9.03723
ാണെങ്കില്‍	-9.03726
▁കൂടുതല	-9.03744
കൃത്യ	-9.03841
▁ഉപദേശ	-9.03902
ുളള	-9.03904
▁ധാരാളം	-9.03981
▁അതില	-9.04008
▁അംഗ	-9.0401
▁മകന	-9.04125
ഹാര	-9.04299
▁പട	-9.04377
▁ചോദിച്ച	-9.04446
ിഷ്ട	-9.04544
ഗാ	-9.04558
all	-9.04656
ണ്ഡ	-9.04681
▁വെറും	-9.04694
യൊരു	-9.04698
ിയായ	-9.04755
▁നാട്ട	-9.04841
▁സ്വപ്ന	-9.04849
▁രാവിലെ	-9.04882
▁ടാ	-9.04965
▁ഇന്ന	-9.04999
കാര്യ	-9.05109
▁പോസ്റ്റ	-9.053
est	-9.05306
▁മരിക്ക	-9.05347
▁അച്ഛന	-9.05355
▁ഉപയോഗിക്കുന്ന	-9.05448
പുത്ര	-9.05448
▁പേ	-9.05503
▁ബോധ	-9.0553
ക്കാൾ	-9.05582
ദിന	-9.05599
▁അവള	-9.05603
▁അന്ന്	-9.05621
▁പുറത്തു	-9.05649
ങ്	-9.06015
ത്വം	-9.06044
▁അയച്ച	-9.06387
▁സമയത്ത്	-9.06424
▁ഉത്തര	-9.06552
▁ഇത്ര	-9.06583
▁ജീവിക്ക	-9.06589
ിനും	-9.06619
ess	-9.06694
ികളുടെ	-9.06728
▁ദിവസവും	-9.06838
▁അവന്‍റെ	-9.06864
▁ആരെ	-9.07074
▁ന്യായ	-9.07173
▁ലോകം	-9.0726
ത്തോളം	-9.07269
്യമായ	-9.07277
▁ചെലവ	-9.07469
▁കവിത	-9.07515
▁സംഭവിക്ക	-9.07572
▁സ്ഥിര	-9.0758
▁മുസ്	-9.07728
▁പോകുന്ന	-9.07765
ാനാണ്	-9.07962
Y	-9.07977
േറിയ	-9.08057
▁അവിട	-9.08156
op	-9.08176
ന്തു	-9.0818
▁രസ	-9.08239
▁വിള	-9.08277
▁മത്സര	-9.08383
ശാല	-9.08425
▁എന്നിട്ട്	-9.08451
▁സുരക്ഷിത	-9.08473
ity	-9.08517
▁നബി	-9.0866
▁കേന്ദ്ര	-9.08718
▁തോന്നുന്നു	-9.08953
14	-9.08953
▁തുടക്ക	-9.08969
ത്തേക്ക്	-9.09167
▁കണക്ക	-9.09189
ia	-9.09299
▁ഭാര	-9.09423
▁J	-9.09488
൦	-9.09492
▁സമീപ	-9.09498
▁കാലം	-9.09557
▁എതിര	-9.09584
▁14	-9.09655
▁ലേ	-9.09677
▁ദൂതന	-9.09693
▁തോന്നി	-9.09709
ാറില്ല	-9.0973
▁ചിന്തിക്ക	-9.09797
ുമ്പോഴ	-9.09806
▁വയസ്സ	-9.09874
16	-9.09892
▁സുഹൃത്ത	-9.0996
▁സംവിധാന	-9.09969
▁ബാക്കി	-9.09987
j	-9.10101
ot	-9.1016
▁മാസം	-9.1032
▁താങ്കളുടെ	-9.10321
▁വിശുദ്ധ	-9.10461
▁അക്രമ	-9.1059
▁അധിക	-9.10776
▁പ്രശ്	-9.10787
ായാലും	-9.10801
▁കൂട	-9.10945
▁ജനത	-9.10987
ചിത	-9.11131
▁13	-9.11136
▁ആകുന്നു	-9.11299
ഷൻ	-9.11306
▁മഴ	-9.11359
▁പെട്ട	-9.11471
▁ഭയപ്പെട	-9.11522
▁16	-9.11537
▁കഴിയില്ല	-9.11579
യിട	-9.11687
നിന്ന	-9.11841
▁അറിയാം	-9.11894
▁0	-9.12121
▁ചെയ്യാന്‍	-9.12384
▁ആഴ്ച	-9.12557
ാണെന്നു	-9.12577
ാണല്ലോ	-9.12601
▁പണ	-9.12616
▁വിളിച്ച	-9.12678
ാകട്ടെ	-9.12684
▁പാട	-9.12688
ിക്കേണ്ട	-9.12705
▁അധികാര	-9.12717
▁ചെയ്തത്	-9.12812
▁നിങ്ങള്‍ക്കു	-9.1284
▁രാഷ്ട്രീയ	-9.12857
▁പ്രകാരം	-9.12875
▁കടന്നു	-9.12878
▁ഇരിക്ക	-9.13137
ിനെയും	-9.13342
▁മൂല	-9.13471
▁17	-9.13534
ല്‍പ്പ	-9.13564
▁വെളിച്ച	-9.13607
▁ബഹു	-9.13665
▁അവന്	-9.13674
▁കയ്യ	-9.13702
▁നാഥന	-9.13734
▁be	-9.13782
ങ്ങളോ	-9.13814
ങ്ങളുണ്ട	-9.13835
ത്തിനായി	-9.13853
▁ഖുര്‍ആന്‍	-9.13864
യൊക്കെ	-9.13978
▁ചിരി	-9.1412
ഷ്ഠ	-9.14179
▁അതിനാൽ	-9.14266
▁പൊറുക്ക	-9.14293
▁തിന്ന	-9.14333
▁അപ്പോൾ	-9.14489
▁The	-9.1451
ോടെ	-9.14511
വുമായ	-9.1454
▁നന്മ	-9.14541
കര്‍ത്താവ	-9.14597
ദൃ	-9.14609
തൊക്കെ	-9.14693
▁മാറ്റി	-9.1476
▁ശ്രമ	-9.1481
രോഗ	-9.14824
▁ഇതില്‍	-9.1489
▁ചെന്ന	-9.14894
▁K	-9.1492
▁ചിത്രം	-9.14933
▁ചെയ്	-9.15079
▁V	-9.15333
ുന്നവര്‍	-9.1535
▁അഥവാ	-9.15439
▁30	-9.15447
W	-9.15451
ഒരു	-9.15452
▁കാര്യങ്ങള	-9.15667
▁സാഹചര്യ	-9.1573
ly	-9.15899
അല്ലാഹു	-9.15901
സ്ട്ര	-9.15924
▁ആദ്യത്തെ	-9.15936
പോയി	-9.15947
▁നാലു	-9.15993
▁ഇവര	-9.16109
ുമുണ്ട്	-9.16253
▁മുഴുവന്‍	-9.16419
▁തിരഞ്ഞെടുക്ക	-9.16648
▁കാണിക്ക	-9.16776
ിറങ്ങ	-9.16786
ist	-9.16867
▁നടക്കുന്ന	-9.16982
ിച്ചിരിക്കുന്നു	-9.1702
ാറുണ്ട്	-9.17021
▁അവസാനം	-9.17233
▁ഉദാഹരണ	-9.17256
▁താര	-9.17277
▁നമ്മ	-9.17375
▁അനുവദിക്ക	-9.17405
▁ഏതെങ്കിലും	-9.17506
▁നടത്തിയ	-9.1778
ുടേത	-9.17805
la	-9.17926
▁വിശ്വസിച്ച	-9.17955
കഴിഞ്ഞ	-9.18014
▁അധികം	-9.18026
മാണോ	-9.18331
തൊന്നും	-9.18535
▁ഉണ്ടായിരുന്ന	-9.18552
ബോ	-9.18564
▁വിട്ടു	-9.18672
▁കേൾക്ക	-9.18691
ില്ലാത്ത	-9.18853
▁വിശ്വസിക്കുന്ന	-9.18869
▁വസ്ത്ര	-9.18906
▁അദ്ദേഹത്ത	-9.18929
▁ഉണ്ടാവ	-9.1908
▁സംസ്ഥാന	-9.191
▁തേട	-9.19111
▁പങ്കു	-9.19193
▁ഔ	-9.19216
വൃത്തി	-9.19245
▁അത്ഭുത	-9.1935
▁പോവ	-9.19427
ധാന	-9.19455
▁തന്‍റെ	-9.1959
▁ഒപ്പം	-9.19604
▁നല്‍കി	-9.19659
▁കാര്യങ്ങൾ	-9.1972
ല്ലാത്ത	-9.19746
▁അദ്ദേഹത്തെ	-9.19761
പുര	-9.19765
ാനായി	-9.19783
▁സംഗീത	-9.19798
▁പുതു	-9.19866
ഫോ	-9.19933
ിങ്	-9.20161
ിക്കപ്പെട	-9.2022
താക്കള	-9.2025
▁ശ്രദ്ധിക്ക	-9.20292
▁പോലീസ	-9.20293
ഭാ	-9.20492
സമയ	-9.20563
▁അറിയില്ല	-9.207
ധാരണ	-9.20785
▁സ്ത്രീകള	-9.208
▁മറക്ക	-9.20851
ശ്യ	-9.2098
▁യുവ	-9.21161
▁ജനങ്ങള്‍	-9.21172
▁ചിലര്‍	-9.21196
▁നായ	-9.21199
▁ബെ	-9.21253
പ്രവാചക	-9.21283
▁ആത്മാവ	-9.21394
ിട്ടുണ്ടോ	-9.21444
ിച്ചിരുന്നു	-9.21445
▁സൂക്ഷിക്ക	-9.21449
▁പാട്ട	-9.21487
if	-9.2154
വനെ	-9.21569
പ്രദ	-9.21573
ുപോയ	-9.21767
▁ഇറങ്ങ	-9.21821
▁ഇതുവരെ	-9.21905
ബ്ര	-9.21956
um	-9.22126
▁സ്വന്ത	-9.22533
ദൈവ	-9.22691
ുണ്ടായിരുന്ന	-9.22743
▁പെണ്ണ	-9.22795
▁വ്യത്യാസ	-9.22912
ശേഷി	-9.22936
▁പിന്തുണ	-9.22963
ശീല	-9.2302
▁വ്യാപ	-9.23219
വയ്ക്ക	-9.23225
▁ഉപകരണ	-9.23266
ive	-9.2329
▁അടുക്ക	-9.23302
െഴുത	-9.23386
ost	-9.23402
▁സന്ദേശ	-9.23439
▁നിരവധി	-9.23466
;&	-9.23558
കളിലും	-9.23779
യുമില്ല	-9.23781
ാനാവ	-9.23795
▁»	-9.2386
ment	-9.23887
▁സഭ	-9.24019
ത്തിനുള്ള	-9.24029
▁ഉയർന്ന	-9.24073
േറെ	-9.24226
▁പുസ്തകം	-9.24296
▁മരണം	-9.24407
▁ശാസ്ത്ര	-9.24499
▁റാ	-9.24585
▁ഏകദേശം	-9.24604
▁ഉപയോഗിച്ച്	-9.24611
▁പരാജയ	-9.24649
▁പോര	-9.24658
തായിരുന്നു	-9.24722
ാലോ	-9.24759
▁വരുന്നു	-9.24797
▁കുടിക്ക	-9.24866
കൾക്ക്	-9.24944
നുസരിച്ച്	-9.25051
ex	-9.2506
ശ്വാസ	-9.25131
▁കുട	-9.25153
▁പ്രവര്‍ത്തന	-9.25269
▁കഠിന	-9.25372
നീയ	-9.25431
40	-9.25482
▁എന്താ	-9.2554
▁വരിക	-9.25629
▁പിശാച	-9.25651
വുമില്ല	-9.25741
പൂര്‍വ	-9.2592
ില്‍നിന്ന്	-9.2593
▁25	-9.25942
▁എന്നതാണ്	-9.25975
▁ഭൂമിയില്‍	-9.26069
▁ക്ലാസ	-9.26069
▁ജനങ്ങള	-9.26159
▁സകല	-9.26193
+	-9.26309
▁വീട്	-9.26363
യിലുള്ള	-9.2641
▁കുറച്ച്	-9.26451
എന്	-9.2646
യുമായി	-9.26476
_	-9.26507
െക്കാള്‍	-9.26597
▁സമാധാനം	-9.26617
പറയ	-9.26635
▁അവരോട്	-9.26674
നിന്ന്	-9.26678
▁ബാങ്ക	-9.26784
▁നേരത്തെ	-9.2686
▁മേല്‍	-9.26863
▁കുറെ	-9.2702
▁അവരില്‍	-9.27026
▁ഭാഗം	-9.27087
▁ബാധിക്ക	-9.27102
▁തിരിച്ചറിയ	-9.2712
▁സംഭവം	-9.27125
▁കേസ	-9.27149
▁ഹെ	-9.27165
▁മൊ	-9.27241
▁വച്ച	-9.27306
രിഞ്ഞ	-9.2731
▁രഹസ്യ	-9.27315
ദർശ	-9.27472
ൊരാള	-9.27644
ഢ	-9.27675
▁ബോക്സ്	-9.2775
▁കഴിച്ച	-9.27783
▁ഓഫീസ	-9.27865
▁പേര്‍	-9.27894
ിൻറെ	-9.28039
ഞാൻ	-9.28045
ഹീ	-9.28048
▁അയാളുടെ	-9.28068
മില്ലാത്ത	-9.2808
▁വാഹന	-9.28088
and	-9.2815
▁വാഗ്ദാനം	-9.2817
▁ഭാഗ്യ	-9.2818
▁ഫാ	-9.28248
▁സൈ	-9.28251
▁സഹായം	-9.28386
▁കൊള്ള	-9.28419
▁ടോ	-9.28433
വിശേഷ	-9.28552
ന്‍മാര	-9.2863
യെല്ലാം	-9.28689
▁പാല	-9.2884
▁ബന്ധപ്പെട്ട	-9.29053
വേഷ	-9.29164
▁ദൂര	-9.29175
ഫല	-9.2918
േജ്	-9.293
പോലും	-9.29448
▁ശതമാനം	-9.29511
മാറ്റ	-9.29519
▁മോഡ	-9.29528
▁കാരുണ്യ	-9.29649
▁അതുപോലെ	-9.29665
▁ഉപയോഗിച്ച	-9.29697
▁എടുത്ത	-9.29704
▁വീഡിയോ	-9.29757
പൂർ	-9.29924
ഛ	-9.29958
പ്പെടുത്തിയ	-9.29968
വിശ്വാസികള	-9.30036
▁മുന്‍പ	-9.3025
പാടു	-9.30287
60	-9.30653
ill	-9.30661
▁പ്രവർത്തന	-9.30698
▁അവര്‍ക്കു	-9.30804
“	-9.30869
ിട്ടും	-9.30887
▁താന്‍	-9.30914
പ്റ്റ	-9.30945
ers	-9.30981
ങ്ങളുമ	-9.30982
▁100	-9.30985
െന്റ	-9.31019
▁പിന്തുടര	-9.31112
▁start	-9.31117
പ്പെടുന്നത്	-9.31277
▁ക്രമ	-9.31328
▁ഓടി	-9.31336
▁പങ്കാളി	-9.31468
ുണ്ടെന്ന	-9.31566
▁അപേക്ഷ	-9.31639
▁പ്രകാശ	-9.31725
ഓ	-9.31775
പ്പെടുത്തി	-9.31887
▁പ്രതിഫല	-9.32012
▁പരിചയ	-9.32126
ഭാഷ	-9.32177
▁നയിക്ക	-9.32231
▁പ്രതിഫലം	-9.32269
ജാ	-9.32293
▁ആരംഭിക്ക	-9.32377
▁പേരില്‍	-9.32415
▁കാര്യത്തില്‍	-9.32423
▁ആളുകൾ	-9.32432
▁പരിശോധിക്ക	-9.32637
▁പെട്ടെന്ന	-9.32638
ാനാവില്ല	-9.327
▁സമ്മാന	-9.32743
▁കളിക്ക	-9.32807
▁ബിസിനസ്	-9.32811
നിശ്ചയ	-9.33053
മാണെന്ന്	-9.3306
▁അഞ്ചു	-9.33067
▁ഫോട്ടോ	-9.33067
▁മുഴുവൻ	-9.3316
▁വീഴ	-9.3318
▁എടുത്തു	-9.33182
ക്കിട	-9.33212
▁ഹൈ	-9.33217
▁എന്നോട്	-9.33346
▁പരാതി	-9.33477
▁വിവരങ്ങൾ	-9.33614
▁താള	-9.33621
▁കാണാൻ	-9.33622
▁ഇപ്പോഴ	-9.33662
ക്സി	-9.33673
▁അദ്ദേഹത്തിന്	-9.33757
▁dur	-9.33827
വെക്ക	-9.33841
▁വിഷമ	-9.33875
▁ഒരാള്‍	-9.33888
ل	-9.33997
▁എന്നിട്ടും	-9.34033
▁എസ്	-9.34161
▁ദേവ	-9.3428
▁അതായത്	-9.34297
ect	-9.34445
ഴ്സ	-9.34459
▁ഇതിന്റെ	-9.34491
▁പഴ	-9.34495
▁കൂട്ടുകാര	-9.3456
▁ഒക്കെ	-9.34594
▁ഓര്‍മ്മ	-9.34601
▁മുതല്‍	-9.34642
▁ആഘോഷ	-9.34659
▁വിവിധ	-9.3471
▁വലുത	-9.34743
വിശ്വസ	-9.34782
▁എന്താണ	-9.34832
▁ജെ	-9.34864
"&	-9.34904
യോട്	-9.34909
െന്നാണ്	-9.34994
▁മൃഗ	-9.35159
▁യഥാർത്ഥ	-9.35262
▁വീട്ടിൽ	-9.35355
▁പ്രവർത്തിക്ക	-9.35389
▁എത്തി	-9.35422
▁ജല	-9.35492
▁സ്വതന്ത്ര	-9.35596
▁മരിച്ചു	-9.35645
▁പഠിപ്പിക്ക	-9.35646
▁കാണാന്‍	-9.35691
▁തുറക്ക	-9.35794
▁വിമാന	-9.35803
▁പ്രകൃതി	-9.35806
▁സംരക്ഷിക്ക	-9.35858
▁സ്ഥിതി	-9.35913
▁മിനിറ്റ	-9.35921
▁നാല്	-9.35947
▁നിറഞ്ഞ	-9.36
▁ചേര	-9.36089
▁ന്യൂ	-9.36118
▁വേദ	-9.36255
▁വ്യക്തമാക്ക	-9.36347
▁ഉറക്ക	-9.36527
▁ബുദ്ധിമുട്ട	-9.36527
▁നേരിട	-9.36577
▁സുന്ദര	-9.36584
വാദി	-9.36669
▁ഉറങ്ങ	-9.36669
▁കൊണ്ടുവര	-9.3667
ശേഖര	-9.36712
▁വീട്ട	-9.3673
▁കയറി	-9.36765
▁ശക്തമായ	-9.36788
?’	-9.36817
ാവശ്യ	-9.36986
▁സമര	-9.37001
▁ഗ്രന്ഥ	-9.37046
▁ക്രിസ്തു	-9.37066
▁ഇതിനെ	-9.37137
▁ദാസ	-9.37193
ാര്‍ഥ	-9.37229
▁ഫോണ	-9.37452
▁അതിൽ	-9.37475
▁വാർത്ത	-9.3751
▁സത്യനിഷേധികള	-9.37653
▁അല്ലാഹുവിന്‍റെ	-9.37676
▁പഠിച്ച	-9.37779
▁തടയ	-9.3778
▁24	-9.37796
▁എന്തുകൊണ്ട്	-9.37807
▁രോഗി	-9.37817
▁രണ്ടാം	-9.38002
▁മനുഷ്യന്‍	-9.38055
▁ഡെ	-9.38145
▁In	-9.38175
യുണ്ട	-9.38198
മാകും	-9.38204
രാജ	-9.38267
▁വോട്ട	-9.38394
▁ചൂട	-9.38451
ig	-9.3852
പ്പെടുകയും	-9.38579
ട്ര	-9.38587
ങ്ങളായി	-9.38962
സത്യ	-9.39037
ine	-9.39083
▁അത്തരം	-9.39095
▁അതൊരു	-9.39148
age	-9.39221
▁മേഖല	-9.39445
ഘടന	-9.39515
▁പദ	-9.39575
▁അതുകൊണ്ടു	-9.39661
ുന്നുണ്ടോ	-9.39673
▁ഘട്ട	-9.39812
▁ഡ്രൈവ	-9.39885
▁ആളുകള്‍	-9.399
ഐ	-9.39922
▁നമുക്കു	-9.39997
▁സ്വകാര്യ	-9.40163
▁അന്യ	-9.40167
▁ഇതിനു	-9.40235
രൂപ	-9.40312
▁പറയാന	-9.4042
▁എങ്കില്‍	-9.40475
▁ചികിത്സ	-9.40558
▁അളവ	-9.40653
18	-9.40772
▁താഴ്	-9.40829
ിനോട്	-9.4094
യാണെന്ന്	-9.4105
▁ഉയര	-9.41121
▁ലളിത	-9.41128
▁പ്രദേശ	-9.41186
▁ശ്രീ	-9.41204
പോല	-9.41305
ാമെന്ന	-9.41446
▁സാമ്പത്തിക	-9.41477
▁പൈ	-9.4163
ക്രിസ്	-9.41799
▁വാങ്ങി	-9.4194
▁ഇക്കാര്യ	-9.41962
ിലോ	-9.41979
▁എങ്കിൽ	-9.42103
▁അല്ലേ	-9.42109
▁ശ്രമിച്ച	-9.42121
▁കിടക്ക	-9.42217
▁ചെയ്യാം	-9.42321
V	-9.42523
pl	-9.42591
▁പറയാം	-9.42609
കളെയും	-9.42797
▁നേടിയ	-9.42807
▁പ്രവൃത്തി	-9.43019
ർട്ട്	-9.4306
▁സ്കൂള	-9.4307
▁കോടതി	-9.43109
▁Ch	-9.43232
▁*	-9.43495
പെട്ട	-9.43744
▁അവരോടു	-9.43779
▁താങ്കള	-9.43789
ിക്കാനുള്ള	-9.43963
▁സ്വാതന്ത്ര്യ	-9.43967
▁പത്ര	-9.43998
ാകാം	-9.44139
വാസികള	-9.4418
ഃ	-9.44313
ിരുന്നെങ്കില്‍	-9.44405
▁സ്വീകരിച്ച	-9.44456
▁നോക്കിയ	-9.44531
▁ബൈ	-9.44578
▁ഇറക്ക	-9.44614
അദ്ദേഹ	-9.44749
▁ബുദ്ധി	-9.44793
▁കുട്ടികള്‍	-9.44847
▁ഇന്നലെ	-9.45007
ായിരുന്നില്ല	-9.45141
▁ദൈവത്തെ	-9.45192
90	-9.45195
▁ചെയ്യാന	-9.45385
▁ക്ഷമ	-9.45411
K	-9.45455
വെന്ന്	-9.45572
ുകയാണെങ്കില്‍	-9.45604
▁വെടി	-9.45614
േഴ്	-9.4564
യിലൂടെ	-9.45687
വസ്തു	-9.45764
▁വളര	-9.45886
▁സൌ	-9.45899
▁വെറുതെ	-9.45914
▁ബ്ല	-9.45951
▁മുന്‍	-9.45953
മാക്കുന്ന	-9.45988
▁വേഗം	-9.46067
▁എത്തിയ	-9.46102
▁എഴുതി	-9.46154
ജീവിത	-9.46195
▁ആദ്യമായി	-9.46206
▁എങ്ങനെയാണ്	-9.46287
▁നല്ക	-9.46453
▁പേർ	-9.46498
▁തമ്മിലുള്ള	-9.46503
▁പോകുന്നു	-9.46515
▁ഇത്രയും	-9.4658
▁ഉൽപ്പന്ന	-9.46711
▁അവയെ	-9.46727
ാനോ	-9.46738
▁രക്ഷിക്ക	-9.46825
▁കുഴപ്പ	-9.469
▁വിദ്യാഭ്യാസ	-9.46903
ാമത്തെ	-9.46945
▁കൃഷി	-9.47186
▁ഉദ്ദേശിക്കുന്ന	-9.47187
▁പറയാന്‍	-9.4725
▁സുരക്ഷ	-9.47255
▁ആകെ	-9.47388
▁പ്രയാസ	-9.474
െയിൻ	-9.474
▁തെളിയ	-9.47437
ഭക്ത	-9.47532
80	-9.4759
൧	-9.47597
പെട	-9.47686
▁തോന്നിയ	-9.47718
ിരിക്കും	-9.47723
▁തിരികെ	-9.47847
മായിരുന്നില്ല	-9.47993
യ്ക്കുന്ന	-9.48191
▁ഉള്‍	-9.48224
▁നമസ്	-9.48251
▁ആരംഭിച്ച	-9.48297
▁ബ്ലോഗ	-9.4855
▁യുക്തി	-9.48687
▁അങ്ങിനെ	-9.48741
ക്കുറിച്ചു	-9.48892
▁തേടി	-9.49054
▁പിടിക്ക	-9.49115
▁പള്ളി	-9.49297
up	-9.49299
▁ഇംഗ്ലീഷ	-9.493
▁ഉത്തമ	-9.49414
▁പക്ഷം	-9.49447
വുമാണ്	-9.49522
▁ഗുരു	-9.49527
ക്കൊണ്ട്	-9.49733
▁കുറേ	-9.49754
$	-9.49936
ക്കൊള്ള	-9.4996
▁ജന്മ	-9.50028
ub	-9.50346
ന്മാരുടെ	-9.50408
▁പാടില്ല	-9.50411
one	-9.50439
▁ഓഫ്	-9.5044
#	-9.50511
ുണ്ടാകും	-9.50583
▁സുഹൃത്തുക്കള	-9.50618
▁കോടി	-9.50683
▁തീർച്ചയായും	-9.50776
▁നാല	-9.50886
@	-9.50889
▁കയറ	-9.50941
▁രേഖ	-9.51042
▁എക്സ്	-9.51097
▁ദുഃഖ	-9.51174
ിരിക്കുക	-9.51324
▁st	-9.51375
▁കാണുന്നത്	-9.51711
▁എന്തായാലും	-9.51856
▁തനിക്ക	-9.51882
▁കാണിച്ചു	-9.51949
▁അറിയുന്നവന	-9.51955
▁കാണുന്നു	-9.52191
‘	-9.5234
▁പാപമോചന	-9.52351
▁മൂസാ	-9.52551
▁ദയവായി	-9.52649
ിരിക്കുകയാണ്	-9.52707
▁അവതരിപ്പിച്ച	-9.5274
ുന്നുവോ	-9.52755
ിലായിരുന്നു	-9.52985
ത്തിലൂടെ	-9.53023
ില്ലെങ്കില്‍	-9.53133
▁മാതാപിതാക്കള	-9.53249
കൊള്ള	-9.53261
30	-9.53347
▁പരിശുദ്ധ	-9.53366
▁മുതല	-9.5341
▁ഇവിട	-9.53429
കൊണ്ടിരിക്ക	-9.53474
▁പരിപാടി	-9.5361
ാക്കുകയും	-9.5372
▁സൈറ്റ	-9.53789
▁ഓര്‍ക്ക	-9.53945
ബർ	-9.54034
▁നിര്‍ത്ത	-9.54035
▁വീട്ടില	-9.54085
▁അല്ലാഹുവെ	-9.54505
▁സംഘടന	-9.54692
▁ഇതൊക്കെ	-9.54714
നിധി	-9.54824
▁നേരിട്ട	-9.55075
▁മണിക്കൂറ	-9.55121
▁വാര്‍ത്ത	-9.55201
▁ശത്രു	-9.55259
▁21	-9.55373
മാകുന്ന	-9.55483
താണോ	-9.55547
▁ഗ്രാമ	-9.55557
കൊടുത്ത	-9.55616
▁22	-9.55796
മെന്റ്	-9.55808
▁രംഗ	-9.55809
▁ഇബ്	-9.55842
െന്താ	-9.5586
രുതു	-9.55867
▁ഇതൊരു	-9.55968
▁അതല്ല	-9.56087
ബ്ബ	-9.56088
▁ഫോൺ	-9.56198
▁:)	-9.56238
▁kgm	-9.56345
▁വാക്കുകള	-9.56417
പൂര്‍ണ്ണ	-9.56712
▁എഴുത്ത	-9.56722
▁പരീക്ഷണ	-9.56772
▁യഥാര്‍ത്ഥ	-9.56786
▁നക്ഷത്ര	-9.56878
▁ഖുര്‍ആന	-9.56941
▁മറന്നു	-9.57041
▁മാധ്യമ	-9.57282
▁സത്യവിശ്വാസികള	-9.5733
ക്കാരി	-9.57431
▁ഫ്ല	-9.57679
▁പ്രസിദ്ധ	-9.57697
ack	-9.5786
പറഞ്ഞ	-9.57866
▁കുട്ടികൾ	-9.5803
▁സൂക്ഷ്മ	-9.58296
ക്കാരെ	-9.58491
ക്കെതിരെ	-9.58619
▁മടങ്ങി	-9.58698
▁അവനോടു	-9.58892
▁പരിഹാര	-9.5898
▁ശുദ്ധ	-9.59011
▁മദ്യ	-9.59076
▁അകത്ത	-9.59143
▁കുടി	-9.59162
▁വൈകി	-9.59251
ുചെയ്യ	-9.59344
▁അവധി	-9.59381
▁മനോഹരമായ	-9.59407
▁മടങ്ങ	-9.59434
▁പെരു	-9.59464
ക്കൂട്ട	-9.59532
ight	-9.59602
കളായി	-9.59649
തുകൊണ്ട്	-9.59702
ction	-9.59799
തിനാല്‍	-9.60089
▁മനസ്സിലായ	-9.60278
ാതിരുന്ന	-9.60374
qu	-9.60463
▁നൽകിയ	-9.60631
70	-9.60681
▁എന്തിനാണ്	-9.60722
▁സന്ദര്‍ഭ	-9.6085
കുട്ടി	-9.60944
ോടുള്ള	-9.60952
ph	-9.61059
▁പ്രമാണ	-9.61286
▁നിലപാട	-9.61324
മൂല	-9.6133
▁പട്ടണ	-9.6145
നോക്ക	-9.61457
▁മുട്ട	-9.6149
▁ടൈ	-9.61727
▁അനുസരിക്ക	-9.61748
ിപ്പോക	-9.61754
▁നിരാശ	-9.61855
▁വീട്ടില്‍	-9.61939
▁കഷ്ട	-9.61944
ക്കിടയില്‍	-9.62093
ക്കൂട	-9.62237
കൊള്ളുക	-9.62239
▁ക്ഷമിക്ക	-9.62423
▁ഉണ്ടായിരിക്ക	-9.6276
▁ഫാക്ടറി	-9.62871
മാരുടെ	-9.62883
ther	-9.63074
our	-9.63223
▁de	-9.63482
35	-9.63636
ുവാനും	-9.6388
▁അംഗീകരിക്ക	-9.63947
▁കരുണ	-9.63958
▁പ്രയോഗ	-9.63996
േക്കാള്‍	-9.64062
▁ടീമ	-9.64083
ാഴ്	-9.6411
▁സ്വാഗതം	-9.64314
െല്ലാ	-9.64364
▁മുടി	-9.64477
ികളായ	-9.64492
▁പേപ്പർ	-9.6451
▁നിത്യ	-9.64547
▁നന്നായ	-9.64793
▁with	-9.64838
▁ഇന്നത്തെ	-9.64869
à	-9.64912
▁പ്രതീക്ഷിക്ക	-9.65141
േണ്ടതുണ്ട്	-9.65499
ind	-9.65581
കുമാര	-9.65592
▁വിദേശ	-9.65672
▁കുറയ്ക്ക	-9.65992
▁വെളിപ്പെടുത്ത	-9.66056
▁പകുതി	-9.66114
▁ക്യാ	-9.66362
▁ഇവരുടെ	-9.66381
▁ശക്ത	-9.6647
▁ശാന്ത	-9.66584
▁പെണ്‍കുട്ടി	-9.66628
ാവുന്നതാണ്	-9.66662
▁പാഠ	-9.66745
▁ആശുപത്രി	-9.66873
ുവെന്ന	-9.67063
▁പഠിപ്പിച്ച	-9.67109
▁പൂര്‍ണ	-9.6716
ശേഷമ	-9.67288
▁ലഭിക്കുന്ന	-9.6732
▁എപ്പോഴ	-9.67326
▁ഒളി	-9.67348
▁കറുത്ത	-9.67399
▁വെക്ക	-9.67512
▁ദേശീയ	-9.67567
മാര്‍ഗ	-9.67622
▁പൂർണ്ണ	-9.67701
▁ചെയ്യേണ്ട	-9.67726
▁എങ്ങിനെ	-9.67882
▁അന്വേഷണ	-9.67912
▁പേജ	-9.67964
▁പരലോക	-9.68034
▁ഇരുവരും	-9.68193
ട്രോ	-9.68465
&	-9.68729
▁by	-9.68754
▁മഹത്വ	-9.68795
ഏ	-9.68854
▁സര്‍ക്കാര്‍	-9.69062
▁നിയന്ത്രണ	-9.69648
▁പ്രയോജന	-9.69705
തിരുത്തുക	-9.69712
ന്റേത	-9.69808
▁നിങ്ങളോടു	-9.69878
ായിത്തീര	-9.6991
ചിത്ര	-9.69973
▁അടുക്കല്‍	-9.69986
▁ദോഷ	-9.70041
▁ഇഷ്ടപ്പെടുന്ന	-9.70095
▁പരസ്യ	-9.70179
33	-9.7018
വാക്യ	-9.70349
▁not	-9.7042
▁പ്രവര്‍ത്തിച്ച	-9.70521
▁ജീവിക്കുന്ന	-9.70529
ുമാറ	-9.70611
▁ഓരോരുത്തര	-9.70708
മുമ്പ	-9.70749
▁അഞ്ച്	-9.70767
ുവിന്‍	-9.70983
▁പാലിക്ക	-9.71
▁ഭീഷണി	-9.71087
ൊന്നുമില്ല	-9.71305
▁ഉദ്ദേശിച്ച	-9.71409
▁pro	-9.71433
▁സാക്ഷ്യ	-9.71469
▁ഉടനെ	-9.715
▁ഇസ്രായേല	-9.71587
▁റഷ്യ	-9.71644
ുന്നതിനുള്ള	-9.72035
▁നഷ്ടപ്പെട്ട	-9.7218
▁ഇടപെട	-9.72202
▁ഉണ്ടോ	-9.72359
നബിയേ	-9.72365
സ്ഥിതി	-9.72477
ുണ്ടെങ്കില്‍	-9.72544
▁ആൻഡ്	-9.7258
▁പ്രസംഗ	-9.72611
▁do	-9.72696
ുകൊടുക്ക	-9.7273
▁പ്രവാചകന്‍	-9.72834
▁പരിശീലന	-9.72892
▁ഇന്റ	-9.72966
▁വാക്കുകള്‍	-9.72994
▁പെൺകുട്ടി	-9.72997
▁You	-9.73003
ുകയുണ്ടായി	-9.73013
▁സ്നേഹിക്കുന്ന	-9.73169
▁പ്രതികരണ	-9.73169
▁sa	-9.73505
▁ചര്‍ച്ച	-9.73631
േണ്ടതില്ല	-9.73783
▁നശിപ്പിക്ക	-9.73872
▁നാഥന്‍	-9.73877
ായിരിക്കണം	-9.73954
▁കരുതിയ	-9.74189
▁പരിശോധന	-9.74198
▁ആറു	-9.74235
▁പ്രാര്‍ത്ഥന	-9.74247
▁എഴുത്തുകാര	-9.74254
▁ജാതി	-9.74405
ിലേക്കുള്ള	-9.74525
▁നിയന്ത്രിക്ക	-9.74539
പ്പോയി	-9.74577
▁മനസിലാക്ക	-9.7463
▁മടക്ക	-9.74662
രാജ്യ	-9.7471
▁നിക്ഷേപ	-9.74774
▁അഭിനയ	-9.74787
▁നിങ്ങളോട്	-9.74892
▁con	-9.74934
ാവകാശ	-9.7497
ell	-9.75033
▁അടയാള	-9.75035
▁പോലുള്ള	-9.75082
▁പെരുമാറ	-9.75129
തിനാൽ	-9.75293
▁ആരാധിക്ക	-9.75307
േല്‍പ	-9.75356
▁തൊട്ട	-9.75469
▁വായന	-9.75609
മുണ്ടാക	-9.75777
ക്കുറിച്ച	-9.75809
▁നിഷേധിച്ച	-9.76017
▁സ്വഭാവ	-9.76087
▁ഈശ്വര	-9.76179
ard	-9.76411
ശാസ്ത്ര	-9.7643
െന്താണ്	-9.76479
തുകൊണ്ടാണ്	-9.7654
▁ഇത്തവണ	-9.76671
▁ധൈര്യ	-9.76781
▁ഘടക	-9.76793
▁കാണാന	-9.76968
▁ചുറ്റും	-9.7712
▁ഏതൊരു	-9.77125
▁പട്ടിക	-9.77193
▁സാധിച്ച	-9.77294
നുസരിച്ച	-9.77455
ങ്ങോട്ട	-9.77742
ിക്കൊണ്ടിരിക്ക	-9.77841
▁ലോകത്തിലെ	-9.7816
▁അഭിമാന	-9.78233
▁De	-9.78266
▁Home	-9.78428
▁എന്തൊക്കെ	-9.78446
▁മുഴുവന	-9.78447
▁സൈന്യ	-9.78535
▁തമാശ	-9.78538
ായിരിക്കാം	-9.78974
▁ചിന്തിച്ച	-9.79229
▁തമ്മില്‍	-9.79349
▁ഓര്‍മ	-9.79412
▁വചനങ്ങള	-9.79418
െന്ത്	-9.79446
▁ധരിക്ക	-9.79546
െനിക്ക	-9.79859
▁സ്ഥാപന	-9.80039
▁ഒരാൾ	-9.80169
ങ്ങളിലേക്ക	-9.80177
▁മറ്റൊന്ന	-9.80279
▁പൊറുത്തു	-9.80382
പ്പോഴാണ്	-9.80414
൨	-9.80573
കർത്താവ	-9.80718
Q	-9.80752
▁അനന്ത	-9.80877
▁അതിക്രമ	-9.8106
▁ശതമാന	-9.81216
ുടേയും	-9.81347
▁ഭീകര	-9.81443
ക്കുറിച്ചുള്ള	-9.81454
▁തടവ	-9.81484
▁ലിസ്റ്റ	-9.8163
▁തര്‍ക്ക	-9.81704
▁തിരിഞ്ഞു	-9.81998
•	-9.82038
ാണെങ്കിലും	-9.8229
ഭേദ	-9.83123
▁2018	-9.83207
▁താങ്കൾ	-9.83238
▁ഗവേഷണ	-9.83293
▁ഡോക്ടറ	-9.83328
▁എല്ലാവര്‍ക്കും	-9.83369
▁രേഖപ്പെടുത്ത	-9.83473
ുകൊണ്ടിരിക്കുന്ന	-9.83512
▁നേട്ട	-9.84312
▁റോഡ	-9.84368
ാർഥ	-9.84449
▁ചുരുക്ക	-9.84465
▁വളരെയധികം	-9.84595
▁സ്വാഭാവിക	-9.84715
▁മാനസിക	-9.8494
ഞാന	-9.85065
▁പാക്കേജ	-9.85087
▁അവതരിപ്പിക്ക	-9.8516
ോടുകൂടെ	-9.85211
▁ആയിരുന്ന	-9.8547
ിക്കളയ	-9.85507
▁വൈകുന്നേര	-9.85771
▁മോഹ	-9.85772
▁സംഭവിക്കുന്ന	-9.85784
ഭ്ര	-9.85809
▁ബാധിച്ച	-9.85825
▁പ്രിയപ്പെട്ട	-9.85869
▁അന്വേഷിക്ക	-9.86
ഭൂമി	-9.86172
വണ്ണം	-9.86265
▁പ്രഭാത	-9.86483
▁തുല്യ	-9.8655
▁അനുയോജ്യ	-9.86689
യുമാണ്	-9.86691
▁മാതൃക	-9.868
▁ആഗ്രഹിച്ച	-9.86915
▁പ്രാധാന്യ	-9.8692
▁അന്ധ	-9.86972
▁ആര്‍ക്കും	-9.86989
▁നമ്പർ	-9.87284
▁സംരക്ഷണ	-9.8733
▁ചീത്ത	-9.8736
▁നിര്‍ബന്ധ	-9.87429
ിനെതിരെ	-9.87438
▁എന്നിരുന്നാലും	-9.87479
▁കണക്കാക്ക	-9.8757
ുകാരന	-9.8757
▁പ്രതിരോധ	-9.8786
▁കോളേജ	-9.87878
▁യൂറോപ്പ	-9.87917
▁അല്പം	-9.87986
▁മെഷീൻ	-9.88192
▁ഭ്രാന്ത	-9.88275
▁so	-9.88299
▁ഏതാനും	-9.88386
ുന്നതിൽ	-9.88411
രാഷ്ട്ര	-9.88427
▁ആക്രമണ	-9.88454
ുന്നതിനെ	-9.88499
▁കാണിക്കുന്ന	-9.88553
വിരുദ്ധ	-9.8901
▁യിസ്രായേല	-9.89272
ങ്ങളായ	-9.89446
▁പുനര	-9.89555
▁നിഷേധിക്ക	-9.89556
▁പിന്നീട	-9.89566
The	-9.90085
▁ക്ഷേത്ര	-9.90209
▁എഴുന്ന	-9.90384
തിനെപ്പറ്റി	-9.90528
▁മഹത്തായ	-9.90645
ാനാകും	-9.90779
ഹൃദ	-9.90782
ിലധികം	-9.90835
Name	-9.90875
▁വിപണി	-9.91104
▁മന്ത്രവാദ	-9.91115
▁വന്നെത്ത	-9.91185
ൊരിക്കലും	-9.91695
▁ഓർമ്മ	-9.917
▁ഓർക്ക	-9.92057
യൊന്നും	-9.92245
നുഭവ	-9.92283
▁ദ്വീപ	-9.92424
▁ഉയര്‍ത്ത	-9.92454
▁രണ്ടാമത്തെ	-9.92685
▁കുറയ	-9.92782
▁കൃത്യമായി	-9.92817
▁കൂള	-9.92819
▁പ്രശസ്ത	-9.92901
▁കഴുക	-9.93014
▁ആലോചിച്ച	-9.93015
എനിക്ക്	-9.9304
▁എയർ	-9.93104
▁ആശ്രയ	-9.93176
▁വണ്ടി	-9.93269
▁ജനാധിപത്യ	-9.93435
▁പ്രഖ്യാപിച്ച	-9.93435
ാണുള്ളത്	-9.93458
▁Next	-9.93478
▁തുടര്‍ന്ന്	-9.93697
ake	-9.93824
▁സമുദായ	-9.93827
▁വിദ്യാർത്ഥി	-9.939
▁കൊണ്ടുവന്ന	-9.94114
▁പിടികൂട	-9.94689
▁പാര്‍ട്ടി	-9.94902
▁പുറമെ	-9.95209
▁തീവ്ര	-9.95251
▁ഒരിക്കല്‍	-9.95282
▁നിലവാര	-9.95497
▁കഥാപാത്ര	-9.95531
▁പരിഹരിക്ക	-9.95586
▁വീടുകള	-9.95608
തെങ്ങനെ	-9.95748
▁ഉന്നത	-9.95821
▁ദുരന്ത	-9.95831
▁നുണ	-9.95944
ا	-9.96036
▁പ്രാര്‍ത്ഥിക്ക	-9.96098
ിലേറെ	-9.96176
▁ഡോക്ടർ	-9.962
́	-9.9629
സങ്കീ	-9.96305
മൊഴി	-9.96457
▁സ്വാധീന	-9.96499
▁Previous	-9.96934
താണെന്ന്	-9.96973
▁അധ്യാപക	-9.97129
▁വ്യവസായ	-9.9719
▁അക്കൗണ്ട	-9.97235
▁വസ്തുക്കള	-9.97241
▁ആയുധ	-9.97251
▁കെട്ടിട	-9.9726
▁തിരഞ്ഞെടുത്ത	-9.9731
▁ഭര്‍ത്താവ	-9.97538
▁കൈകാര്യം	-9.9763
▁വയസ	-9.97675
▁പരമാവധി	-9.97748
▁നേതാവ	-9.97863
▁ജാലവിദ്യ	-9.97885
ence	-9.97999
▁വാക്കുകൾ	-9.98143
▁ഒട്ടും	-9.98251
▁സൂചന	-9.9845
▁അക്ഷര	-9.98468
▁മനോഹര	-9.98552
പുസ്തക	-9.98574
▁ദാന	-9.9859
▁നടപ്പാക്ക	-9.98717
▁പ്രപഞ്ച	-9.98727
▁അവിടുന്ന്	-9.98729
▁വാതില	-9.9874
ഗൃഹ	-9.98873
നൂറ്റാണ്ട	-9.98968
ഇദ്ദേഹ	-9.98999
▁സ്ഥാപിക്ക	-9.99095
—	-9.9946
േണ്ടതിന്നു	-9.99722
▁ദാവീദ	-9.99771
▁നേതൃത്വ	-10.0002
▁മകന്‍	-10.0037
▁പൊലീസ	-10.0047
▁ശത്രുക്കള	-10.0058
െടുപ്പ	-10.0074
▁സൗജന്യ	-10.0118
▁ദൃഷ്ടാന്ത	-10.0139
▁എന്തുകൊണ്ടാണ്	-10.0145
ന്മാരും	-10.0146
▁പരിഗണിക്ക	-10.0185
▁പുരുഷന്മാര	-10.0196
▁മൊബൈൽ	-10.0234
▁സര്‍ക്കാര	-10.0245
▁അടിച്ച	-10.0247
▁ദൃഷ്ടാന്തങ്ങള	-10.0282
ചെയ്യുന്ന	-10.0285
കൃഷ്ണ	-10.0297
▁തിരഞ്ഞെടുപ്പ	-10.0305
▁കമന്റ	-10.0322
▁പ്രാവശ്യം	-10.0323
▁വികസന	-10.0333
▁സൗകര്യ	-10.034
▁പിന്നാലെ	-10.0342
▁മോച	-10.0347
ook	-10.0368
എല്ലാ	-10.0378
ഞ്ജ	-10.0404
▁വിധേയ	-10.0405
="1	-10.0413
▁ചെലവഴിക്ക	-10.0416
ണമെങ്കില്‍	-10.0419
ിരിപ്പ	-10.0441
▁ആഹാരം	-10.0443
▁ലൈംഗിക	-10.0481
ങ്ങളെല്ലാം	-10.0483
▁വെളുത്ത	-10.0486
▁കണ്ണുകള	-10.0494
▁ഉപേക്ഷിക്ക	-10.0505
▁അനേകം	-10.0509
▁ഉണര	-10.0511
▁സാങ്കേതിക	-10.0553
▁സ്തുതി	-10.0556
▁സവിശേഷത	-10.0569
▁മൊത്തം	-10.0592
▁അറബി	-10.0607
▁അടച്ച	-10.0622
▁രുചി	-10.0627
▁പ്രവേശിക്ക	-10.063
സഹായ	-10.0637
▁ഭംഗി	-10.0641
▁ഞെട്ട	-10.0655
ശക്തി	-10.0671
▁ഹോട്ടല	-10.0685
▁ദേഷ്യ	-10.07
▁വഹിക്ക	-10.0714
▁സത്യസന്ധ	-10.0714
▁ശമ്പള	-10.0731
▁from	-10.0738
▁എല്ലാവർക്കും	-10.0751
▁തികച്ചും	-10.0759
▁ഒടുവിൽ	-10.0761
▁ഒടുവില്‍	-10.0783
▁പ്രത്യക്ഷ	-10.0811
▁മലക്കുകള	-10.0819
▁ഉപദ്രവ	-10.0839
▁ശൂന്യ	-10.0845
▁ആശംസ	-10.0854
▁മുന്നോട്ടു	-10.0872
▁വേഗത	-10.0877
വസാന	-10.0904
▁ഓൺലൈൻ	-10.0923
▁വസ്തുത	-10.0924
▁ഫയല	-10.0928
േയുള്ളൂ	-10.0932
▁ഉയിര്‍ത്തെഴുന്ന	-10.0955
▁അമിത	-10.0971
*	-10.0976
▁പരിമിത	-10.0985
▁ഭർത്താവ	-10.0986
▁നേതാക്കള	-10.1003
മുഹമ്മദ	-10.1021
▁വിലയിരുത്ത	-10.1029
▁വിശ്രമ	-10.1031
▁സൈനിക	-10.1046
ങ	-10.1059
മനുഷ്യ	-10.1064
▁മീറ്റ	-10.1067
▁ദുരിത	-10.1071
▁ആലോചിക്ക	-10.1075
▁ക്രൂര	-10.1092
▁അപമാന	-10.1095
ുകയാണെങ്കിൽ	-10.1098
▁ദൃശ്യ	-10.1134
`	-10.115
▁തണുപ്പ	-10.1159
–	-10.1166
ുന്നതിനായി	-10.118
▁സമ്പത്ത	-10.1183
▁name	-10.1188
നിര്‍ദേശ	-10.1191
▁കിടന്ന	-10.1206
▁നിശ്ചിത	-10.1225
▁നിശ്ചയിച്ച	-10.1242
▁തൃപ്തി	-10.1269
▁തെരഞ്ഞെടുക്ക	-10.1284
▁മണിക്കൂർ	-10.1299
▁പതുക്കെ	-10.13
▁ഐക്യ	-10.1302
ുന്നുവെങ്കില്‍	-10.1303
▁ആസ്വദിക്ക	-10.1322
വെള്ള	-10.1329
▁സിസ്റ്റം	-10.136
ുകയുള്ളൂ	-10.1368
നിഷേധ	-10.1383
▁ഗ്രൂപ്പ	-10.1385
▁സര്‍വ്വ	-10.1386
ുണ്ടെങ്കിൽ	-10.1386
▁സൂക്ഷിച്ച	-10.1387
ദിവസം	-10.1389
▁[...]	-10.1403
▁ഹിന്ദു	-10.1403
▁ഇരുപത	-10.1404
▁അനുവദിച്ച	-10.1432
▁വിപ്ലവ	-10.146
▁യഥാര്‍ഥ	-10.1486
▁തെരുവ	-10.1488
▁സമുദ്ര	-10.1498
▁ഉറപ്പാക്ക	-10.1502
▁വിഭവ	-10.1512
▁ഉടൻ	-10.1516
▁അതേസമയം	-10.1534
▁ഒരുപക്ഷേ	-10.1536
▁സാമൂഹിക	-10.1541
ങ്ങളിലൂടെ	-10.1545
▁കാലഘട്ട	-10.1561
▁ചർച്ച	-10.1567
ബോർഡ	-10.1586
▁വിശദീകരിക്ക	-10.1587
ിരിക്കണം	-10.1604
▁സൃഷ്	-10.1609
▁റസൂല	-10.1612
▁ടീം	-10.1613
▁വെബ്സൈറ്റ	-10.1629
▁ഇപ്പൊ	-10.163
▁പ്രതികരിക്ക	-10.1643
▁su	-10.1666
▁വിതരണക്കാർ	-10.1687
▁ഉണ്ടെന്ന	-10.1692
▁വരുമാന	-10.1732
▁ഉയര്‍ന്ന	-10.1738
▁വിതരണം	-10.175
▁ഉപേക്ഷിച്ച	-10.1764
▁ബാധ്യത	-10.1772
▁that	-10.1778
ല്ലാവരും	-10.1781
▁വെല്ലുവിളി	-10.1809
▁കണ്ടുമുട്ട	-10.1813
▁റിപ്പോര്‍ട്ട	-10.182
▁നശിപ്പിച്ച	-10.1837
ുണ്ടല്ലോ	-10.1843
▁താരതമ്യ	-10.1906
▁പൗര	-10.191
▁2013	-10.1927
▁ഒരിക്കൽ	-10.1931
▁റിപ്പോർട്ട	-10.1951
▁ഫെബ്രുവരി	-10.1962
▁ഏതാണ്ട്	-10.1974
▁ബൈബിള	-10.1986
നിമിത്തം	-10.2025
="2	-10.2041
▁തിരിച്ചുവിട്ട	-10.2059
▁പ്രസിഡന്റ	-10.2065
▁സ്ഥാപിച്ച	-10.2065
▁നാട്ടുകാര	-10.2068
▁this	-10.2077
▁തുടർന്ന്	-10.2084
▁ചുമതല	-10.212
▁കാസിനോ	-10.213
▁ചേർക്ക	-10.213
▁അനുകൂല	-10.2147
▁ഈജിപ്	-10.2171
▁തടസ്സ	-10.2203
▁ഔദ്യോഗിക	-10.221
▁പ്രാപിക്ക	-10.2211
▁നിശ്ചയമായും	-10.2218
▁നൃത്ത	-10.2246
▁ക്യാമറ	-10.2258
പ്പുറത്ത	-10.2259
ount	-10.2262
▁ദരിദ്ര	-10.2284
▁ഡോക്ടര്‍	-10.2319
J	-10.2324
▁ഉയർത്ത	-10.2331
ഔ	-10.4482
q	-11.6152
ഊ	-11.6669
»	-12.5518
◆	-12.5518
