<unk>	0
<s>	0
</s>	0
.	-2.89921
▁	-4.04464
ം	-4.20173
,	-4.22769
്	-4.42723
ു	-4.69215
▁ഒരു	-5.06873
ും	-5.20792
യ	-5.241
:	-5.25578
മ	-5.2581
?	-5.25983
വ	-5.3123
ത	-5.4013
ാ	-5.43691
ി	-5.44717
േ	-5.44833
ത്	-5.5402
ര	-5.54532
▁ആ	-5.56783
ക്ക	-5.5923
ക	-5.60015
▁ഈ	-5.62206
ന	-5.63279
െ	-5.65972
)	-5.66018
സ	-5.6878
യും	-5.69596
▁അ	-5.71812
റ	-5.71943
സ്	-5.75306
;	-5.81382
▁(	-5.85621
ർ	-5.90515
വും	-5.92463
ല	-5.92822
ോ	-5.95512
ുക	-5.96309
ത്ത	-5.98159
ക്ക്	-6.1097
ുന്ന	-6.16109
ാണ്	-6.16129
s	-6.20291
-	-6.22281
മായ	-6.22289
ുന്നു	-6.22444
ൽ	-6.22838
ങ്ങള്‍	-6.2307
ില്‍	-6.23584
ാൻ	-6.23585
ാന്‍	-6.24849
▁ഞാന്‍	-6.25014
ര്‍	-6.25581
ട	-6.26787
ൂ	-6.27049
▁നീ	-6.27106
ില്ല	-6.27209
▁"	-6.27301
പ	-6.27614
ൻ	-6.28721
യുടെ	-6.29956
▁അത്	-6.3008
മാണ്	-6.31352
ിൽ	-6.31792
ള	-6.32428
▁അവര്‍	-6.33827
ങ്ങൾ	-6.34482
ന്‍	-6.36116
ണ	-6.36854
!	-6.38459
മായി	-6.39203
▁എന്ന	-6.39477
▁എന്റെ	-6.40842
▁ഞാൻ	-6.42226
യാണ്	-6.46458
ുകയും	-6.46855
▁നിങ്ങളുടെ	-6.47364
ത്തില്‍	-6.4874
ക്	-6.48838
▁തന്നെ	-6.50288
▁ക	-6.5041
t	-6.51603
ല്‍	-6.52373
▁പറഞ്ഞു	-6.52811
ണം	-6.55032
്‍	-6.5591
▁“	-6.58183
നി	-6.60111
▁നിങ്ങള്‍	-6.60365
ീ	-6.60951
ന്	-6.6324
കള്‍	-6.65093
ുന്നത്	-6.65186
യില്‍	-6.65462
▁ഇത്	-6.65658
അ	-6.66379
ത്തെ	-6.7021
▁-	-6.7024
പ്പ	-6.70779
ാം	-6.7092
കൾ	-6.71409
▁നാം	-6.71607
യെ	-6.72952
ത്തിന്റെ	-6.73168
ിച്ചു	-6.74485
ിയ	-6.75289
യിൽ	-6.77121
ത്തിൽ	-6.77861
ട്ട	-6.78846
തു	-6.79606
▁മ	-6.83062
▁വി	-6.83079
g	-6.83185
ുകൾ	-6.83767
ിന്റെ	-6.84289
▁അവരുടെ	-6.84574
▁അല്ലാഹു	-6.85493
▁സ	-6.86752
▁ഇ	-6.8701
▁ത	-6.87355
വര	-6.87458
▁പ	-6.90219
ുള്ള	-6.90829
വി	-6.91816
ശ	-6.92268
ിനെ	-6.92819
ായി	-6.93993
ായ	-6.94095
ല്ല	-6.94684
▁എന്ന്	-6.95551
ിലെ	-6.96244
യോ	-6.96622
തി	-6.96814
▁എന്നാല്‍	-6.9703
▁പ്ര	-6.97665
e	-6.97676
▁നിങ്ങൾ	-6.98638
റ്റ	-6.99344
ലി	-6.99509
ദ	-7.00134
▁എ	-7.00174
ക്കു	-7.00875
ൊ	-7.01587
ച്ച	-7.02121
▁എല്ലാ	-7.03934
▁?	-7.04596
മാ	-7.04607
ഹ	-7.0477
ഡ്	-7.05351
യ്	-7.05413
▁ന	-7.06015
"	-7.06221
▁അവന്‍	-7.06232
▁നല്ല	-7.07377
▁വ	-7.08424
▁അദ്ദേഹം	-7.08801
സി	-7.094
ിച്ച	-7.09504
ിക്ക	-7.10034
ഗ	-7.10938
ങ്ങ	-7.1175
ക്കും	-7.12328
▁നമ്മുടെ	-7.13196
▁ചെയ്ത	-7.13759
▁ഉ	-7.14441
▁വളരെ	-7.15312
യുള്ള	-7.15576
▁അങ്ങനെ	-7.16034
▁‘	-7.16452
▁എന്നെ	-7.166
ച	-7.1674
ങ്ങളും	-7.17198
▁എനിക്ക്	-7.17322
▁നിന്ന്	-7.17501
▁'	-7.18027
'	-7.18239
ാല്‍	-7.18453
▁ചില	-7.19007
ത്തിന്	-7.20081
▁ചെയ്യ	-7.21308
▁സ്	-7.2142
ിരിക്കുന്നു	-7.21755
y	-7.22994
▁എന്നു	-7.23981
▁അവർ	-7.24009
ായിരുന്നു	-7.24252
▁ചെയ്തു	-7.24901
▁ഏറ്റവും	-7.25279
ന്ന	-7.26073
ഡ	-7.26494
▁ഇവിടെ	-7.27518
ജ	-7.27568
ഴ	-7.28209
▁വര	-7.28361
▁അതു	-7.29089
ുകള്‍	-7.29124
▁വലിയ	-7.29975
രു	-7.30444
▁അവരെ	-7.30684
ന്റെ	-7.30686
▁പോലെ	-7.30849
o	-7.31953
വര്‍	-7.32011
ൈ	-7.34127
▁പാ	-7.35323
▁അവ	-7.3537
ഇ	-7.35727
യാ	-7.35872
▁വഴി	-7.36227
റിയ	-7.37149
.”	-7.37653
n	-7.38749
”	-7.38943
▁നിന്റെ	-7.39079
ടി	-7.39121
ഷ	-7.39729
മോ	-7.3986
രി	-7.40206
’	-7.40386
റ്റ്	-7.40408
നം	-7.41003
▁പറഞ്ഞ	-7.41083
ൾ	-7.41119
▁വാ	-7.41215
റി	-7.43608
▁പുതിയ	-7.43717
മ്മ	-7.44183
പ്പെട്ട	-7.4439
നെ	-7.46042
▁ഓ	-7.46412
▁ശ	-7.46537
▁അവിടെ	-7.46756
ത്ത്	-7.46932
കളും	-7.47113
പ്ര	-7.47245
(	-7.47513
ത്തു	-7.47783
ിന്	-7.48127
ഭ	-7.48129
▁ആണ്	-7.48475
▁the	-7.48609
▁ദൈവ	-7.49054
മുള്ള	-7.49061
കള	-7.49113
ിരുന്നു	-7.50223
▁1	-7.50254
ൊരു	-7.50297
ാത്ത	-7.5087
a	-7.50961
▁നി	-7.50966
മ്പ	-7.5119
▁വേണ്ടി	-7.51214
രുത്	-7.51793
ങ്ക	-7.52135
▁ഓരോ	-7.52512
ിക	-7.52733
▁അവൻ	-7.52785
▁കണ്ട	-7.52952
▁...	-7.53071
▁അറിയ	-7.53711
ത്തി	-7.54589
▁എന്നാൽ	-7.54768
▁ബ	-7.5493
ണ്ട	-7.55011
▁പല	-7.55125
ങ്ങളെ	-7.5583
എ	-7.56008
▁അവര	-7.56701
al	-7.57059
ില	-7.57075
▁തന്റെ	-7.57176
ട്ടെ	-7.57231
▁കഴിഞ്ഞ	-7.57626
▁പക്ഷേ	-7.57677
ബ	-7.57705
വർ	-7.57937
▁ഇനി	-7.58053
▁&	-7.58144
നാ	-7.58318
വാ	-7.58899
ങ്ങളുടെ	-7.5898
▁കാണ	-7.59107
ൺ	-7.59484
▁ഇല്ല	-7.59537
▁നിങ്ങളെ	-7.59732
▁ഇട	-7.59888
▁പറയ	-7.60153
c	-7.60189
▁കൈ	-7.60853
▁19	-7.60904
▁കാരണം	-7.61213
▁ഗ	-7.61226
താണ്	-7.61448
താ	-7.62044
▁എങ്ങനെ	-7.6227
▁പിന്നെ	-7.62304
▁ച	-7.62583
▁ഞാന	-7.62629
r	-7.63005
▁ദിവസം	-7.63399
▁മാത്രം	-7.63645
▁അടുത്ത	-7.63708
▁അത	-7.64401
ഫ	-7.64694
ുമ്പോള്‍	-7.64781
ിട്ടില്ല	-7.64803
ാൽ	-7.65125
പി	-7.65737
ാതെ	-7.6595
ിക്കുന്ന	-7.66257
er	-7.66422
▁വന്ന	-7.66719
ുമോ	-7.67158
▁തീര്‍ച്ചയായും	-7.67451
ാനും	-7.67479
▁കാ	-7.6749
ുടെ	-7.67544
▁കോ	-7.67558
▁പറയുന്നു	-7.67767
▁അവന്റെ	-7.68102
▁പി	-7.68502
▁ഞങ്ങളുടെ	-7.68626
▁ജന	-7.68712
▁ചെയ്യുന്ന	-7.69051
▁നിന്നും	-7.69322
മി	-7.69422
ുണ്ട്	-7.69447
▁S	-7.69813
▁രണ്ടു	-7.69838
."	-7.69956
മല്ല	-7.70425
▁മു	-7.70492
ള്‍	-7.70566
▁of	-7.70728
▁സി	-7.70764
▁സത്യ	-7.72173
▁ഒ	-7.7233
▁ചെയ്യും	-7.72375
▁എത്ര	-7.72618
▁കൂടുതൽ	-7.72649
▁2	-7.72931
re	-7.73412
പ്	-7.73578
▁വീണ്ടും	-7.73873
പ്പെട	-7.74107
ഞ്ഞ	-7.74443
യിലെ	-7.74625
കര	-7.7466
▁ജോലി	-7.75302
▁പക്ഷെ	-7.75883
ഡി	-7.75966
കാര	-7.75976
കളെ	-7.76555
f	-7.76595
▁ഞങ്ങള്‍	-7.76772
ങ്ങളില്‍	-7.76776
▁ഹ	-7.76997
ing	-7.77065
ിട്ടുണ്ട്	-7.77228
p	-7.77325
▁ഉള്ള	-7.77445
ക്കി	-7.77461
തും	-7.77559
▁അവനെ	-7.77632
▁ഞങ്ങൾ	-7.77684
പ്പോള്‍	-7.77976
ക്ഷ	-7.77989
ച്ചു	-7.78117
▁ഇതു	-7.78142
1	-7.78153
ത്ര	-7.78254
▁കാര്യ	-7.78717
യായി	-7.78781
ുന്നില്ല	-7.79004
ണി	-7.79804
▁കഥ	-7.8
ാവ	-7.80127
▁കൊണ്ട്	-7.80311
ത്തിനു	-7.80754
ുകയാണ്	-7.81088
ിംഗ്	-7.81154
▁3	-7.81556
▁ഏ	-7.81569
S	-7.81583
മില്ല	-7.81818
2	-7.81838
▁ഇത	-7.82487
▁P	-7.82572
കളുടെ	-7.82944
▁പോക	-7.83657
ബ്	-7.83665
▁കൂടി	-7.83906
ഥ	-7.84805
ോട്	-7.84954
i	-7.84957
▁അതിന്റെ	-7.85012
u	-7.85035
ധ	-7.8523
പ്പ്	-7.8527
▁നില	-7.85544
▁വരെ	-7.86082
േണ്ട	-7.86677
ദ്	-7.86733
വേ	-7.86975
ാക	-7.87382
▁വില	-7.87562
ിപ്പ	-7.88555
വരെ	-7.88825
▁ആദ്യ	-7.89356
യില	-7.89473
തന്നെ	-7.89928
▁എല്ലാം	-7.89939
ിലും	-7.90021
▁ദൈവം	-7.90024
ഖ	-7.90028
െങ്കിലും	-7.90322
ed	-7.90538
▁ശേഷം	-7.90555
ിത	-7.90693
▁നിന്നെ	-7.90779
▁A	-7.90926
d	-7.91007
ഷ്	-7.91037
▁ശിക്ഷ	-7.91153
ന്ത	-7.91197
ര്	-7.91434
▁സെ	-7.91436
▁കൂടുതല്‍	-7.91441
A	-7.91735
▁ല	-7.91834
▁B	-7.91862
ട്ടി	-7.91897
ആ	-7.9201
▁സമയം	-7.92275
▁നിങ്ങള്‍ക്ക്	-7.92291
▁അവര്‍ക്ക്	-7.9241
in	-7.92533
ന്നു	-7.92729
▁യാത്ര	-7.92942
▁മാ	-7.93174
▁അപ്പോള്‍	-7.93395
▁ജ	-7.93951
രിക്ക	-7.94163
നായ	-7.94454
▁കാര്യം	-7.94578
ാര	-7.94617
മായിരുന്നു	-7.94813
l	-7.94951
▁C	-7.95197
▁കാല	-7.9524
▁നമുക്ക്	-7.95632
▁എന്‍റെ	-7.96065
▁ഇവ	-7.96367
പ്പെടുത്ത	-7.96391
ന്‍റെ	-7.96545
രാ	-7.96742
യി	-7.96874
▁ഇങ്ങനെ	-7.96951
▁സത്യം	-7.97128
▁5	-7.97376
മേ	-7.97385
ര്‍ത്ത	-7.97477
ല്	-7.97546
ബി	-7.97581
ുകയില്ല	-7.97629
▁4	-7.97751
ളി	-7.97774
▁/	-7.97829
ിക്കുന്നു	-7.98169
▁എന്താണ്	-7.98217
ലാ	-7.98235
▁ചെയ്യുന്നു	-7.98449
നും	-7.98463
ുമ്പോൾ	-7.98666
or	-7.99128
ഗ്	-7.99698
k	-8.00323
▁അമ്മ	-8.00376
E	-8.00503
C	-8.00516
▁പോയി	-8.00642
ഫ്	-8.00707
▁തീ	-8.00724
റ്റി	-8.00969
യ്ക്ക്	-8.01077
▁നിങ്ങള	-8.0124
▁എവിടെ	-8.01334
▁സാ	-8.01467
ഞ്ച	-8.01719
at	-8.01961
ിലേക്ക്	-8.02015
▁കു	-8.02353
▁അല്ല	-8.02507
▁ഒന്ന	-8.02644
ാലും	-8.02739
നു	-8.03234
നുള്ള	-8.03312
വന്‍	-8.03381
ിരുന്ന	-8.03538
▁to	-8.04011
▁നന്ദി	-8.04051
▁ഇന്ന്	-8.04088
▁M	-8.04159
/	-8.04337
▁നിയമ	-8.04698
യില്ല	-8.04713
▁കൂടെ	-8.04905
ങ്ങളിൽ	-8.05342
▁എന്തു	-8.05555
m	-8.05773
ക്കാ	-8.05788
3	-8.0591
ar	-8.05946
ിട്ട	-8.0596
തര	-8.05968
ദ്ധ	-8.06463
സ്റ്റ	-8.06516
I	-8.07265
▁വേ	-8.07479
▁മി	-8.07977
▁കട	-8.08157
▁ഉണ്ട്	-8.08221
▁രണ്ട്	-8.08593
▁തന്നെയാണ്	-8.08757
▁സ്വ	-8.08945
▁മാറ്റ	-8.09244
on	-8.09408
D	-8.09631
▁ഭാഗ	-8.0978
an	-8.10375
]	-8.10587
▁ചെറിയ	-8.10613
ട്ട്	-8.10881
ൊക്കെ	-8.1094
മുണ്ട്	-8.11032
▁ദ	-8.1132
ുകളും	-8.1153
ിനു	-8.1165
▁ദിവസ	-8.11934
ൗ	-8.11998
▁ഒരിക്കലും	-8.12071
▁അല്ലെങ്കിൽ	-8.121
▁10	-8.12634
▁വന്നു	-8.12746
ാണോ	-8.12777
▁അവൾ	-8.1278
▁മറ്റു	-8.12805
▁അതിനാല്‍	-8.13056
▁തര	-8.13313
▁ചെയ്യുക	-8.13522
▁മറ്റൊരു	-8.13881
▁രൂപ	-8.1391
▁ഇപ്പോൾ	-8.14119
▁രാത്രി	-8.14329
▁അതിനെ	-8.14669
le	-8.14908
P	-8.14965
▁പ്രതി	-8.14975
▁മെ	-8.15095
▁കഴിയും	-8.1516
▁തല	-8.15233
▁നിങ്ങൾക്ക്	-8.15399
▁കൊ	-8.15598
നീ	-8.1585
▁in	-8.15998
▁അവള്‍	-8.16207
4	-8.16372
▁പോലും	-8.16422
?”	-8.16992
▁ട	-8.17053
ജി	-8.17142
▁താ	-8.17457
▁സംസാരിക്ക	-8.17549
ാണ	-8.17571
▁ശരി	-8.17574
നേ	-8.17624
▁എനിക്ക	-8.17811
ിട	-8.18048
പ്പോൾ	-8.18186
▁മത	-8.18262
en	-8.1879
▁and	-8.18796
സാ	-8.1881
െല്ലാം	-8.18913
െടുക്ക	-8.19221
▁ബാ	-8.19239
▁ഇപ്പോള്‍	-8.19252
it	-8.1929
▁!	-8.19291
▁പേര	-8.1942
ണ്ണ	-8.19484
▁T	-8.19485
▁തെറ്റ	-8.19618
▁ലോക	-8.20104
യായിരുന്നു	-8.20275
തായി	-8.20324
▁ഒന്നും	-8.20563
▁അതില്‍	-8.20717
▁പോയ	-8.21009
▁–	-8.21165
ുവാന്‍	-8.21202
▁ഏറെ	-8.2123
ണ്‍	-8.21432
രെ	-8.21526
▁പിന്നീട്	-8.21706
▁വേണം	-8.22021
▁പോ	-8.22248
▁”	-8.22255
ായിരിക്കും	-8.22265
വന	-8.22318
T	-8.22613
▁പരി	-8.22664
00	-8.23314
▁കണ്ടു	-8.23668
▁മികച്ച	-8.23915
നായി	-8.24067
▁സു	-8.24451
ാക്ക	-8.24976
b	-8.25118
▁തങ്ങളുടെ	-8.25151
▁കുടുംബ	-8.25234
ലോ	-8.25251
M	-8.25448
5	-8.2559
▁F	-8.25691
▁സിനിമ	-8.25766
▁മരണ	-8.25894
▁ജീവിത	-8.2594
▁എനിക്കു	-8.26
വരും	-8.26107
w	-8.2616
▁സമയ	-8.26201
▁''	-8.26335
▁a	-8.26344
ദാ	-8.26471
▁നല്‍ക	-8.26615
▁അതി	-8.26618
ിക്കുക	-8.26722
▁L	-8.26984
▁രാജ്യ	-8.27192
പ്പി	-8.27758
▁കൊടുക്ക	-8.27766
▁സ്വന്തം	-8.28208
ുമായി	-8.28312
ഞ്ഞു	-8.28489
▁എല്ലാവരും	-8.2852
▁പറയുക	-8.28892
▁നിനക്ക്	-8.28932
▁പ്രധാന	-8.28997
യല്ല	-8.29033
▁സ്വയം	-8.29535
▁H	-8.29906
▁കളി	-8.29919
വരുടെ	-8.29934
▁എന്ത	-8.29972
▁നാ	-8.30087
യായ	-8.30686
▁കഴിയ	-8.31048
▁അതിനു	-8.31297
രോ	-8.31334
ല്ലോ	-8.31466
▁ഐ	-8.31766
ത്തോടെ	-8.31862
▁നടത്ത	-8.32493
മാര	-8.32571
▁ആദ്യം	-8.32622
▁അവസാന	-8.32692
▁D	-8.32714
L	-8.32812
ിക്കുകയും	-8.32923
ാകുന്നു	-8.33141
ിട്ടു	-8.33254
th	-8.33325
▁ഭൂമി	-8.3365
▁കേട്ട	-8.33691
▁ചോദിച്ചു	-8.33707
▁ഇഷ്ട	-8.33851
▁വെ	-8.339
▁കമ്പനി	-8.34089
‍	-8.34216
▁W	-8.34228
ുമെന്ന്	-8.34353
▁നോക്ക	-8.34383
▁മനസ്സ	-8.34601
.’	-8.34607
ദ്ര	-8.34735
▁G	-8.34745
?"	-8.35101
▁മറുപടി	-8.35515
ള്ള	-8.35762
▁നിന്ന	-8.35999
ic	-8.36024
▁കൂട്ട	-8.36131
▁ആയിരുന്നു	-8.36242
ലീ	-8.36539
O	-8.36815
▁6	-8.36825
ുന്നതാണ്	-8.37035
▁എന്നിവ	-8.37042
പോലെ	-8.37122
കളില്‍	-8.37287
▁അവന	-8.37427
ലെ	-8.37538
▁I	-8.37982
▁ചിത്ര	-8.38136
▁കണ്ടെത്ത	-8.38283
▁മുമ്പ്	-8.38713
▁p	-8.38851
▁എഴുത	-8.38951
ത്തിലും	-8.38971
ാവുന്ന	-8.39015
ക്കുന്ന	-8.39253
െങ്കില്‍	-8.39263
▁അല്ലാഹുവിന്റെ	-8.39448
▁സം	-8.3959
▁ജീവിതം	-8.3966
▁കഴിക്ക	-8.39822
▁വാങ്ങ	-8.39851
ാല	-8.39949
▁പറയുന്ന	-8.39974
ുന്നതിന്	-8.40004
യുണ്ട്	-8.40028
ാപ	-8.40046
▁ഡി	-8.40128
ിക്കും	-8.40188
▁ഭ	-8.40463
%	-8.40534
▁7	-8.40566
പ്പെട്ടു	-8.40693
▁ഭയ	-8.40694
െന്ന്	-8.41054
▁ചോദ്യം	-8.41403
et	-8.41451
▁നല്‍കിയ	-8.41538
▁സന്തോഷ	-8.41554
ഹ്	-8.41739
▁ഭാഷ	-8.41825
▁അവളുടെ	-8.41861
▁ആയി	-8.41863
▁മുമ്പ	-8.42127
h	-8.42375
ന്ന്	-8.42496
▁നിന്നു	-8.42515
▁പൂ	-8.42613
ുകയോ	-8.4273
es	-8.42825
▁തന്ന	-8.43134
▁മാത്രമാണ്	-8.43136
▁മനുഷ്യ	-8.43254
▁കണ്ണ	-8.43291
▁എന്ത്	-8.43312
▁വിജയ	-8.43329
▁ഇന്ത്യ	-8.43402
കാല	-8.43449
തില്‍	-8.43453
▁ചാ	-8.4361
▁നന്നായി	-8.43637
amp	-8.43761
▁പറയും	-8.44012
▁വിളിക്ക	-8.44073
ീയ	-8.44155
▁അയാള്‍	-8.442
▁പൊ	-8.44307
▁പറയുന്നത്	-8.44414
ിച്ച്	-8.44595
ാണു	-8.44955
▁ബി	-8.44956
▁യേശു	-8.45011
ിരിക്കുന്ന	-8.45064
▁ആക	-8.45271
▁ചോദിക്ക	-8.45495
▁ആരും	-8.45577
▁തു	-8.45619
▁c	-8.45696
ിരിക്കുന്നത്	-8.4572
ക്കുള്ള	-8.45775
്യൂ	-8.45797
▁കൊല്ല	-8.45861
▁മതി	-8.45893
രിയ	-8.45897
പ്പോ	-8.45935
▁ഹൃദയ	-8.4635
ഗ്ര	-8.46558
▁സഹായിക്ക	-8.46574
▁അതിന്	-8.46672
ക്കോ	-8.46711
▁തോന്ന	-8.46828
▁നാമ	-8.46844
▁മാറ	-8.46986
▁_	-8.47044
ുന്നുണ്ട്	-8.4707
▁വരും	-8.471
▁വായിക്ക	-8.47215
▁f	-8.47251
▁മാത്രമേ	-8.47337
ല്ലാതെ	-8.47367
▁ഹാ	-8.47371
തിന്	-8.47543
▁ആവശ്യ	-8.4757
▁മനസ്സിലാക്ക	-8.47633
ല്ലേ	-8.47823
▁അല്ലെങ്കില്‍	-8.47887
കൊണ്ട്	-8.48019
▁പെ	-8.48044
▁നടക്ക	-8.48239
െന്നു	-8.4831
▁സ്ത്രീ	-8.4834
▁വേണ്ട	-8.48493
െങ്കിൽ	-8.48533
കാ	-8.48659
▁8	-8.48779
ra	-8.48905
▁എപ്പോഴും	-8.48905
▁ഇത്തരം	-8.49024
▁അമേരിക്ക	-8.49107
▁മര	-8.49267
▁ആരോഗ്യ	-8.49291
ion	-8.49424
മെ	-8.49487
▁മൂന്നു	-8.49663
▁പു	-8.4979
ഹി	-8.49835
▁കുട്ടി	-8.49895
ച്ച്	-8.50047
ch	-8.50082
▁വര്‍ഷ	-8.50259
▁E	-8.50271
െയും	-8.50328
▁തോ	-8.50381
▁മൂ	-8.50708
▁എടുക്ക	-8.50771
▁നോക്കി	-8.51061
▁ഞാനും	-8.51084
▁അത്ര	-8.51093
▁ഫ	-8.51445
▁എന്നും	-8.51452
യർ	-8.51513
▁സമ	-8.51607
ല്യ	-8.5166
ുമായിരുന്നു	-8.5179
▁ഞങ്ങളെ	-8.51832
▁സ്വീകരിക്ക	-8.52108
ടു	-8.52268
ക്കുക	-8.52307
▁ഡ	-8.52337
▁ചിന്ത	-8.5235
▁എളുപ്പ	-8.52352
▁ബ്ര	-8.52531
▁ചൈന	-8.52574
ദി	-8.52696
▁വീ	-8.52724
ജന	-8.53001
▁ഖ	-8.53259
വെ	-8.5329
ol	-8.53532
▁എങ്കിലും	-8.53561
▁കര	-8.53585
ur	-8.53837
ംഗ	-8.53873
ൌ	-8.53925
ഴി	-8.54009
ാതിരിക്ക	-8.54313
കരമായ	-8.54425
ter	-8.54635
▁എന്നത്	-8.54683
ോടു	-8.54927
ad	-8.54961
▁സഹായ	-8.55052
▁ആകാശ	-8.55132
▁അനു	-8.5518
▁O	-8.55184
ര്യ	-8.55213
യ്യ	-8.55214
▁ഒരേ	-8.5537
ൊന്നു	-8.55392
▁കുറച്ചു	-8.55437
ation	-8.55557
ത്തിന്‍റെ	-8.55557
▁12	-8.55628
▁രക്ഷ	-8.55797
▁റി	-8.55814
ിയത്	-8.55985
തോ	-8.56005
ർത്ത	-8.56026
▁ചു	-8.5606
ri	-8.56076
▁യഹോവ	-8.56088
▁ശക്തി	-8.56464
▁തിരിച്ചു	-8.56572
is	-8.56801
ിട്ട്	-8.56873
െന്ന	-8.569
▁20	-8.56942
▁ഫല	-8.56997
▁കേരള	-8.57003
ോടൊപ്പം	-8.5724
B	-8.57258
▁ഉപയോഗിക്ക	-8.57283
▁പദ്ധതി	-8.57305
▁വിശ്വാസ	-8.57342
ണ്ട്	-8.575
ാണെന്ന	-8.57656
നോ	-8.57806
▁18	-8.58165
▁സാധാരണ	-8.58217
▁തുടര	-8.58479
ന്ദ	-8.58739
am	-8.58887
▁റോ	-8.58978
▁വെള്ള	-8.59079
▁മാത്രമല്ല	-8.59126
▁വർഷ	-8.59266
രായ	-8.59278
▁കേള്‍ക്ക	-8.59332
▁അതെ	-8.59589
നാണ്	-8.59708
▁ലോ	-8.59936
▁ഒര	-8.59937
▁ഉണ്ടാക	-8.60011
▁അവകാശ	-8.6008
ഹാ	-8.60246
▁മാസ	-8.60281
▁അന	-8.603
▁നിറ	-8.60312
▁ബന്ധ	-8.60326
▁വിശ്വസിക്ക	-8.60416
ികള്‍	-8.60539
▁അതിന	-8.606
▁നിര്‍	-8.6069
ുകളുടെ	-8.6069
▁പുസ്തക	-8.6075
▁പേര്	-8.61168
▁നഷ്ട	-8.61211
പ്പെടുന്ന	-8.61635
▁നൽക	-8.61732
▁എന്നാണ്	-8.62013
▁ട്ര	-8.62041
▁തുടങ്ങി	-8.62168
R	-8.62304
7	-8.62462
▁9	-8.62575
▁കഴിവ	-8.62606
നിന്നു	-8.62674
ുന്നതും	-8.62749
▁എത്ത	-8.6279
ണമെന്ന	-8.62805
▁മുറി	-8.62821
▁അവസ്ഥ	-8.63029
▁കാര്യങ്ങള്‍	-8.6331
lt	-8.63566
▁പഴയ	-8.63582
രുടെ	-8.63757
▁ഭാര്യ	-8.6376
▁മറ	-8.63815
കോ	-8.63939
നിയ	-8.64001
v	-8.64399
ങ്ങി	-8.64445
ിലൂടെ	-8.64578
▁h	-8.64719
വോ	-8.64722
▁പണം	-8.64769
ിക്കാന്‍	-8.64829
▁തുടങ്ങ	-8.64892
യോടെ	-8.64949
▁അല	-8.65108
ഉ	-8.65135
സ്ഥ	-8.65297
▁വേദന	-8.65381
▁തുടങ്ങിയ	-8.65546
▁നിന്‍റെ	-8.65584
▁b	-8.65703
ത്തിലേക്ക്	-8.65934
തെന്ന്	-8.65982
ടെ	-8.66177
▁15	-8.66243
▁മരിച്ച	-8.66279
ാട	-8.66334
▁ഇവര്‍	-8.66488
▁സാക്ഷി	-8.66792
യിലേക്ക്	-8.6682
▁വെള്ളം	-8.67389
▁m	-8.6741
സ്റ്റ്	-8.67422
▁നമ്മള്‍	-8.67486
ശ്	-8.67898
▁തവണ	-8.67899
▁പിതാവ	-8.6796
▁ഉപ	-8.6821
▁വര്‍ഷം	-8.68283
8	-8.68344
ിട്ടുള്ള	-8.68427
▁നിര	-8.68518
▁വരുന്ന	-8.68585
്യം	-8.68799
▁നെ	-8.68841
ത്തിനും	-8.68875
▁വല	-8.68881
▁പര	-8.68988
തല്ല	-8.69116
ir	-8.6948
ങ്ങളാണ്	-8.69489
▁നടന്ന	-8.69549
▁ഉറപ്പ	-8.69684
മീ	-8.69703
▁കൊണ്ടു	-8.69727
▁കുറിച്ച്	-8.69805
us	-8.69874
▁അനുഗ്രഹ	-8.69914
▁ലാ	-8.69944
▁വിവാഹ	-8.70038
▁സൃഷ്ടിക്ക	-8.70139
el	-8.70166
ക്കായി	-8.7021
▁അതുകൊണ്ട്	-8.70427
▁കാരണ	-8.70564
പ്പു	-8.70575
▁പറഞ്ഞത്	-8.70659
▁ഞങ്ങള	-8.70792
▁ഉത്തരം	-8.70879
റോ	-8.70905
▁എന്തെങ്കിലും	-8.71001
▁രാജാവ	-8.7113
.''	-8.71162
▁വർഷം	-8.71166
▁താഴെ	-8.71212
ent	-8.71484
▁താങ്കള്‍	-8.71566
▁ക്ല	-8.71658
ുകയായിരുന്നു	-8.71696
ut	-8.7176
▁വിട	-8.71803
▁അതേ	-8.71831
തീ	-8.71853
യിലും	-8.71901
▁വരുത്ത	-8.7197
ഈ	-8.72005
▁അതാണ്	-8.72105
20	-8.7211
ുന്നതു	-8.72123
▁സാധ്യത	-8.72195
▁ഉണ്ടായ	-8.72197
▁കിട്ട	-8.72216
N	-8.72235
▁R	-8.72265
പോ	-8.72282
ലൈ	-8.72366
▁ഇരു	-8.72495
▁ചെയ്യുന്നത്	-8.72588
▁നേട	-8.72595
▁വ്യക്തി	-8.72843
6	-8.72854
▁ഹോ	-8.72867
as	-8.72953
ജ്	-8.72955
േണ്ടത്	-8.72996
▁ജി	-8.73069
▁w	-8.73088
▁പ്രത്യേക	-8.73258
▁അവളെ	-8.7332
▁പഠിക്ക	-8.73341
പക്ഷ	-8.73354
ക്സ	-8.73682
ട്ടു	-8.73735
▁കിട്ടിയ	-8.73841
▁for	-8.73855
▁നഗര	-8.73884
▁കരുത	-8.73908
ഷ്യ	-8.73916
▁മറ്റ്	-8.73967
ികൾ	-8.74202
കൊണ്ടു	-8.74289
ക്കാര്‍	-8.74293
കള്‍ക്ക്	-8.74315
▁is	-8.74407
▁മല	-8.74431
▁അദ്ദേഹത്തിന്റെ	-8.74583
▁ബോ	-8.7473
▁കുറഞ്ഞ	-8.74743
▁വിളിച്ചു	-8.74955
്റെ	-8.75164
തുപോലെ	-8.75266
▁N	-8.75392
ഷി	-8.75451
▁കഴിയുന്ന	-8.75549
ോള	-8.75562
ശ്ര	-8.75562
▁നിനക്ക	-8.75575
▁വീട	-8.75624
ിച്ചത്	-8.75648
▁കെ	-8.75683
▁ചെ	-8.75727
വീ	-8.7582
ശി	-8.75853
▁മേ	-8.75871
▁ലഭിക്ക	-8.75918
ുവാൻ	-8.75921
▁ലെ	-8.76066
യാണോ	-8.76115
▁ഭക്ഷണം	-8.76408
▁മാറി	-8.7643
x	-8.76635
വര്‍ക്ക്	-8.76694
▁ആണ	-8.76792
▁പറ്റ	-8.76821
െന്നും	-8.76836
▁ഒഴിവാക്ക	-8.76949
▁വേറെ	-8.77101
▁ഏതു	-8.77102
▁കേ	-8.77118
ക്കുറിച്ച്	-8.77132
▁നമ്മെ	-8.77282
▁സമൂഹ	-8.77361
പാ	-8.7739
ക്സ്	-8.77497
▁സഹ	-8.77659
▁സംശയ	-8.7774
▁ജീവിക്ക	-8.77779
▁വൈ	-8.77817
▁ശരീര	-8.77846
ുണ്ടായിരുന്നു	-8.77947
▁പലപ്പോഴും	-8.78058
ബാ	-8.78078
▁ഒന്നു	-8.78085
▁യാതൊരു	-8.78098
▁സുഖ	-8.78239
ചാര	-8.78249
▁നിനക്കു	-8.78314
▁പരസ്പരം	-8.78437
▁അന്ന	-8.78469
▁സോ	-8.78629
▁വ്യ	-8.78852
▁പലരും	-8.78918
▁മൂന്ന്	-8.7894
▁ശരിയായ	-8.79182
ോടും	-8.7919
ിക്കുന്നത്	-8.79196
▁re	-8.79213
▁അയാൾ	-8.79234
▁ശരിക്കും	-8.79242
▁തെ	-8.79357
▁സ്പ	-8.79384
▁മാത്രമ	-8.79417
▁രക്ഷിതാവ	-8.79478
▁പതി	-8.7964
▁സൃഷ്ടിച്ച	-8.79663
▁നമുക്ക	-8.79689
▁സമാധാന	-8.79982
ടുക്ക	-8.8016
▁അതോ	-8.80283
▁അപ്പ	-8.8034
▁അപകട	-8.80522
▁11	-8.80526
കളിൽ	-8.80563
റ്റു	-8.80812
▁യു	-8.8082
▁കാഴ്ച	-8.80831
▁സ്ഥല	-8.81087
തെല്ലാം	-8.81104
▁സ്നേഹ	-8.81214
▁പറ	-8.81242
ിപ്പിച്ചു	-8.81459
▁ലഭിച്ച	-8.81574
ടുത്ത	-8.81608
കളാണ്	-8.81663
ക്കുന്നു	-8.81697
ിപ്പിച്ച	-8.81708
▁കുറ്റ	-8.81723
ില്ലേ	-8.8175
ഫി	-8.81778
▁ഭക്ഷണ	-8.81924
il	-8.8203
▁കൂടാതെ	-8.82053
ഴു	-8.82118
▁മരിക്ക	-8.8223
▁[	-8.82723
▁ഇതാണ്	-8.82819
▁മറ്റ	-8.8286
▁വിധി	-8.82884
ാള	-8.82951
ന്മാർ	-8.83161
യുമ	-8.83179
േറ്റ	-8.83274
▁നീതി	-8.83461
▁കി	-8.83599
ക്കാന്‍	-8.83669
▁ഊ	-8.83686
കട	-8.83731
▁മുതൽ	-8.83739
[	-8.83848
F	-8.83891
ദ്യ	-8.83892
വുമായി	-8.83899
▁നിർ	-8.83909
▁വല്ല	-8.84068
▁സംഭവിക്ക	-8.8412
▁പുറത്തു	-8.84126
ഞാന്‍	-8.84153
ംബ	-8.84232
▁ഇതാ	-8.84237
എന്ന	-8.84353
▁ചെയ്യാൻ	-8.84383
പ്പെടുന്നു	-8.84419
▁വിവാഹം	-8.84619
▁ജോ	-8.84637
▁സാധിക്ക	-8.84786
▁സ്റ്റ	-8.84886
▁ഇപ്പോഴും	-8.84916
തിന്റെ	-8.84959
്‍ക്ക്	-8.8498
ച്ഛ	-8.85027
േഷൻ	-8.85126
▁ഉണ്ടാക്ക	-8.85129
സ്ഥാന	-8.85162
▁നേരെ	-8.85199
▁ഏത്	-8.85314
വ്യ	-8.85352
▁സംഘ	-8.85467
പരി	-8.85484
ന്റ്	-8.85527
എസ്	-8.85558
ീകരി	-8.85608
▁സംഭവ	-8.85628
▁നട	-8.85641
ടാ	-8.8568
0	-8.85781
▁സന്	-8.85923
▁മഹാ	-8.85937
▁കാണിക്ക	-8.86135
ിക്കാൻ	-8.86144
ro	-8.86199
ങ്ങളില	-8.86201
ാക്കി	-8.86338
വൻ	-8.86444
▁ഒരുപാട്	-8.86447
ത്തിലാണ്	-8.86547
▁ഉപയോഗ	-8.86599
▁രീതി	-8.86605
തിനു	-8.86617
▁പണി	-8.86693
▁പകരം	-8.8675
ിലാണ്	-8.8675
▁ദൈവത്തിന്റെ	-8.86765
▁നമ്മൾ	-8.86779
ിരുന്നില്ല	-8.86817
G	-8.86933
''	-8.86982
കൊണ്ട	-8.87106
▁ഒന്ന്	-8.87142
▁ഒറ്റ	-8.87179
▁ഏക	-8.8724
▁സൃഷ്ടി	-8.87269
▁ആരാണ്	-8.87296
▁ഉണ്ടായിരുന്നു	-8.87316
ഒ	-8.87461
▁ഇനിയും	-8.87552
ുളള	-8.87606
▁ആരെങ്കിലും	-8.87702
എന്റെ	-8.87748
!!	-8.87868
▁ഇരിക്ക	-8.87977
ബന്ധ	-8.88082
▁കൊണ്ട	-8.88249
▁കുറവ	-8.8838
ശേഷം	-8.88436
▁നരക	-8.88482
▁നാളെ	-8.88507
▁കാണാം	-8.88542
േണമേ	-8.88576
▁ശ്രദ്ധ	-8.88602
േക്കാം	-8.88641
▁പ്രവര്‍ത്തിക്ക	-8.88658
ാനാണ്	-8.88695
▁രാ	-8.88741
▁മുഖ	-8.88833
ടിയ	-8.88861
▁ഫോ	-8.88892
▁ലോകം	-8.88912
▁ഗോ	-8.89058
▁കൂടുതല	-8.891
▁ജീവന	-8.89153
ച്	-8.89233
▁അനുഭവ	-8.89257
ടിക്ക	-8.89278
▁അവള	-8.89305
ണമെന്ന്	-8.8933
▁ധാരാളം	-8.89345
▁നേര	-8.89407
▁നിന്നുള്ള	-8.89537
▁പ്രാ	-8.89619
ങ്ങളിലും	-8.8966
▁ഇൻ	-8.89716
ുകളെ	-8.89805
ate	-8.89854
▁അന്ന്	-8.89923
ത്തന്നെ	-8.89942
▁വെറും	-8.90051
▁എഴുതിയ	-8.90058
▁വ്യത്യസ്ത	-8.90102
▁പിന്ന	-8.90273
▁രാവിലെ	-8.90277
▁വിഷയ	-8.90281
▁ചോദിച്ച	-8.90294
േണ്ടി	-8.9037
ങ്	-8.90413
▁ഗുണ	-8.9042
ധ്യ	-8.90509
▁ഷ	-8.90578
കൂടി	-8.90627
മായിരിക്കും	-8.90631
ാണെങ്കില്‍	-8.90978
▁ഭാവി	-8.90986
▁മാന	-8.91067
ക്കാർ	-8.91094
ഘ	-8.91105
രിക	-8.91276
ചെയ്	-8.91542
▁നടപടി	-8.91952
തിര	-8.91957
ത്രെ	-8.92011
▁അവന്‍റെ	-8.92052
▁ദിവസവും	-8.92165
▁തിരിച്ച	-8.92242
▁സമയത്ത്	-8.92246
10	-8.9231
വിധ	-8.92353
est	-8.92404
ധി	-8.9245
▁കല	-8.92577
ഷൻ	-8.92645
▁റെ	-8.92748
▁സ്ഥിര	-8.92944
▁വിവര	-8.93005
▁കാലം	-8.93172
▁മുന്ന	-8.93226
▁കവിത	-8.93344
▁തോന്നി	-8.93364
▁ആഗ്രഹിക്കുന്ന	-8.93503
▁മത്സര	-8.93747
▁നബി	-8.93819
▁എന്നിട്ട്	-8.93827
ശാ	-8.93931
ുണ്ടോ	-8.93947
ാമോ	-8.93994
▁സുരക്ഷിത	-8.94024
▁അടി	-8.94047
▁തോന്നുന്നു	-8.94144
ത്തിന	-8.94205
പ്പെടും	-8.94211
▁ജനത	-8.94393
▁പാപ	-8.94507
വിടെ	-8.94615
▁ബാക്കി	-8.94684
▁നേഹ	-8.94823
▁മാസം	-8.94829
▁അടിസ്ഥാന	-8.94852
▁പൊതു	-8.94854
വ്വ	-8.94875
▁മഴ	-8.951
▁അറിവ	-8.95228
▁വയസ്സ	-8.95236
ണ്ടു	-8.9524
ജ്ഞ	-8.95278
▁താങ്കളുടെ	-8.95671
▁ലി	-8.95825
▁വിശുദ്ധ	-8.95825
▁വായിച്ച	-8.9597
മാര്‍	-8.9597
▁അറിയാം	-8.9597
രണ	-8.96164
ാറില്ല	-8.96273
ിരുന്നത്	-8.96359
▁പെട്ട	-8.96378
യാള	-8.96422
9	-8.96463
H	-8.96545
▁ആശയ	-8.96605
U	-8.96678
ുകളില്‍	-8.9683
▁ചരിത്ര	-8.96852
ിപ്പിക്കുന്ന	-8.96865
▁be	-8.96895
ക്കാൻ	-8.96902
യിലാണ്	-8.96953
▁ദു	-8.96975
ow	-8.97018
▁രാജ	-8.9712
▁പ്രകാരം	-8.97138
▁രോഗ	-8.97226
▁പ്രശ്	-8.97232
▁തീരുമാന	-8.97248
▁നല്‍കുന്ന	-8.97291
ണോ	-8.97322
▁ആകുന്നു	-8.97361
യിട	-8.97406
▁ചെയ്തത്	-8.97591
▁വിളിച്ച	-8.97604
▁കള	-8.9767
▁കൊടുത്ത	-8.97718
▁പേ	-8.97749
▁ചെയ്യാന്‍	-8.97771
▁പട	-8.9778
▁കണക്ക	-8.97802
▁പാട	-8.97939
നിന്ന്	-8.98046
▁അധികാര	-8.98079
യൊക്കെ	-8.98127
▁രാഷ്ട്രീയ	-8.98221
▁ആര്‍	-8.98276
▁കഴിയില്ല	-8.98522
ബു	-8.98535
▁l	-8.98549
കൃത	-8.98696
▁മാറ്റി	-8.98701
▁ബോധ	-8.9873
▁ചിത്രം	-8.98952
വഴി	-8.98973
▁14	-8.99051
ഷ്ട	-8.99068
▁അഭിപ്രായ	-8.99087
▁അപ്പോൾ	-8.99209
▁ഖുര്‍ആന്‍	-8.99233
ത്തിനായി	-8.99251
▁ഇതില്‍	-8.99441
▁അതിനാൽ	-8.99479
ാകട്ടെ	-8.99562
▁ആഴ്ച	-8.99638
▁16	-8.99643
▁കാണുന്ന	-8.99746
ാനു	-8.9983
ുകളിൽ	-8.99862
ിപ്പി	-8.99871
▁നന്മ	-8.99882
കാര്യ	-8.99891
▁നാട	-8.9991
ിനി	-9.00023
പോയി	-9.00029
▁K	-9.00165
▁തി	-9.0018
യാണ	-9.00269
▁കുഞ്ഞ	-9.00358
▁അവസാനം	-9.00359
ുവാ	-9.00442
▁V	-9.00581
▁The	-9.00731
ിനും	-9.00741
▁അഥവാ	-9.00801
▁ആള	-9.00885
ഒരു	-9.00935
W	-9.00983
▁നാലു	-9.00988
un	-9.01052
ദേശ	-9.01056
▁ഡോ	-9.01091
▁സാഹചര്യ	-9.01094
▁വ്യക്തമായ	-9.01131
sh	-9.01141
▁തിന്ന	-9.01183
▁ആദ്യത്തെ	-9.01214
▁ഇന്ന	-9.01382
▁താര	-9.01429
▁കേന്ദ്ര	-9.01482
▁യുദ്ധ	-9.01486
▁ഇത്ര	-9.01559
▁മുഴുവന്‍	-9.01739
▁you	-9.01754
▁മറക്ക	-9.0182
▁17	-9.0184
▁പ്രതീക്ഷ	-9.0185
▁പണ	-9.02183
പ്പറ്റി	-9.0223
▁ഭയപ്പെട	-9.02239
▁30	-9.02269
ിലുള്ള	-9.02375
മാന	-9.02425
▁പാട്ട	-9.02454
▁അധികം	-9.02708
ശ്യ	-9.02749
▁അനുവദിക്ക	-9.02769
ാറുണ്ട്	-9.02771
▁തേട	-9.0278
▁ഏതെങ്കിലും	-9.02832
ne	-9.02899
▁J	-9.03062
▁നല്‍കി	-9.03067
ബോധ	-9.0308
▁കാർ	-9.03101
ലോക	-9.03193
ly	-9.03226
▁വിശ്വസിച്ച	-9.03253
im	-9.03277
ൃ	-9.03284
lo	-9.03347
▁നമ്മ	-9.03498
ാണല്ലോ	-9.03503
▁എം	-9.03543
َ	-9.0355
ver	-9.03604
▁വിട്ട	-9.03708
ശാല	-9.03728
മാകുന്നു	-9.0385
▁ഉണ്ടായിരുന്ന	-9.03892
മാണോ	-9.03917
ക്കാരന	-9.03956
▁ബെ	-9.03983
▁കേൾക്ക	-9.04067
▁യാ	-9.04177
▁അദ്ദേഹത്തെ	-9.0424
▁കുടിക്ക	-9.04252
▁നിങ്ങള്‍ക്കു	-9.04255
▁തന്‍റെ	-9.04357
ുടേത	-9.04385
▁സംസ്ഥാന	-9.04447
ിനെയും	-9.04483
▁സഹോദര	-9.04662
ക്കൾ	-9.04706
വുമായ	-9.04708
▁അത്ഭുത	-9.04714
▁കൂട	-9.04715
േറ്റ്	-9.04765
▁പ്രണയ	-9.04923
▁കാര്യങ്ങൾ	-9.05034
ാര്‍	-9.05125
▁മനുഷ്യന	-9.05196
ുപോയ	-9.05255
▁ഉണ്ടാവ	-9.05413
▁ചിലര്‍	-9.05519
▁ഒപ്പം	-9.05525
▁സ്ഥാന	-9.05624
മാർ	-9.05652
▁13	-9.0568
ഗ്രഹ	-9.05682
▁Re	-9.05786
പറയ	-9.06012
▁നടത്തിയ	-9.06058
ന്മാര്‍	-9.06101
വാസ	-9.06128
പരമായ	-9.06232
അല്ലാഹു	-9.06304
▁അറിയില്ല	-9.06341
▁ന്യായ	-9.06359
▁നാള	-9.06396
ിട്ടുണ്ടോ	-9.06684
▁ആത്മാവ	-9.06776
ത്വം	-9.06861
പ്പാ	-9.07111
▁റാ	-9.07247
▁ഇതുവരെ	-9.07577
യൊരു	-9.07768
വിന്റെ	-9.07776
വനെ	-9.08002
▁ഉത്തര	-9.08139
ദൈവ	-9.08216
▁ഫി	-9.08282
ങ്ങിയ	-9.083
▁വിഭാഗ	-9.08421
▁രണ്ട	-9.086
▁മരണം	-9.08678
▁മാര്‍ഗ	-9.08706
▁നിരവധി	-9.0883
ീന	-9.0886
▁ധ	-9.08869
▁സഭ	-9.08878
;&	-9.08948
▁പുസ്തകം	-9.09002
ൂര	-9.09088
▁»	-9.09218
▁പേടി	-9.09273
ിയ്ക്ക	-9.09356
▁ഉയർന്ന	-9.09441
op	-9.0948
▁ജാ	-9.09586
▁വരുന്നു	-9.0972
▁ഉപയോഗിച്ച്	-9.09875
െടുത്ത	-9.09882
▁ഏകദേശം	-9.09968
ാകും	-9.09974
▁സുഹൃത്ത	-9.09988
ത്തിലുള്ള	-9.10117
▁ഹെ	-9.1031
ഭാവ	-9.1031
▁പരീക്ഷ	-9.10311
രീ	-9.10384
യുമായി	-9.10404
ത്തേക്ക്	-9.10433
ൊന്ന	-9.10451
ീകരിച്ച	-9.10487
തിരി	-9.10544
▁എതിര	-9.10767
വരാണ്	-9.10813
ിങ്	-9.10857
▁ഭാഗം	-9.10971
▁പ്രശ്ന	-9.1098
▁എന്നതാണ്	-9.11127
▁ചെലവ	-9.11158
ഭാ	-9.11294
▁ഭൂമിയില്‍	-9.11303
▁എന്താ	-9.11307
വാദ	-9.11321
▁വിട്ടു	-9.1133
▁സമാധാനം	-9.11409
▁ജീവ	-9.11505
▁സകല	-9.1152
ia	-9.11815
▁സംഭവം	-9.11818
▁നേരത്തെ	-9.11899
▁കടന്നു	-9.1191
te	-9.11928
▁തിരിച്ചറിയ	-9.11972
▁സഹായം	-9.12011
യോട്	-9.12025
_	-9.12036
▁വീട്	-9.1209
▁അവരോട്	-9.12094
▁കുറച്ച്	-9.12221
▁ചെയ്	-9.12233
▁കുറെ	-9.12362
▁അവരില്‍	-9.12385
▁ഫാ	-9.12416
▁on	-9.12437
ാലോ	-9.12475
▁രഹസ്യ	-9.12679
▁ദിന	-9.12745
യെല്ലാം	-9.12791
▁പേര്‍	-9.12797
▁തീര	-9.12889
താവ	-9.12925
▁പുരുഷ	-9.12968
ിയിരിക്കുന്നു	-9.13012
▁ബോക്സ്	-9.13094
ജീവ	-9.13102
▁മേല്‍	-9.13122
▁മകന	-9.13228
▁ഓഫീസ	-9.13228
▁d	-9.1323
▁25	-9.13405
ഞാൻ	-9.13409
▁വാഗ്ദാനം	-9.1342
ക്കാല	-9.13426
▁വാഹന	-9.13452
▁അയാളുടെ	-9.13461
ിൻറെ	-9.13479
▁അറിഞ്ഞ	-9.13581
▁അവന്	-9.13597
▁ഭാഗ്യ	-9.13604
▁സമീപ	-9.13705
▁കാര്യങ്ങള	-9.13798
പോലും	-9.13814
▁ഇസ്	-9.13862
റുകൾ	-9.13879
▁ജൂ	-9.13946
▁ഫ്ര	-9.14027
വുമില്ല	-9.14093
▁ഉപയോഗിച്ച	-9.14159
▁പക	-9.14255
▁ബന്ധപ്പെട്ട	-9.14392
തായിരുന്നു	-9.144
com	-9.14496
▁അതുപോലെ	-9.14534
▁ടി	-9.14597
▁ദൂര	-9.14611
▁ശതമാനം	-9.14635
▁താന്‍	-9.14651
▁ടെ	-9.14703
രിച്ച	-9.14719
യ്ക്കു	-9.14738
ബോ	-9.14801
50	-9.14803
ൂട്ട	-9.14863
▁അച്ഛന	-9.14875
പ്രകാരം	-9.14887
ികള	-9.14946
▁കാരുണ്യ	-9.15013
▁പഠന	-9.15021
▁വീഡിയോ	-9.15121
▁എസ്	-9.15193
▁പോവ	-9.15442
▁ഇന്നു	-9.15515
വെച്ച	-9.15532
▁ശ്രമ	-9.15646
വന്ന	-9.15654
റിയാം	-9.15679
ല്‍പ്പ	-9.15697
▁വരിക	-9.15724
z	-9.1573
▁തയ്യാറ	-9.15893
▁ചോദ്യ	-9.15912
വള	-9.15931
ുന്നവര്‍	-9.16037
▁പ്രായ	-9.16055
▁പ്രവർത്തന	-9.16061
▁എടുത്ത	-9.16093
all	-9.16111
ോളം	-9.16192
11	-9.16335
▁പഴ	-9.16351
▁ടോ	-9.16363
“	-9.16399
▁ആത്മ	-9.1647
▁start	-9.16487
j	-9.16564
ers	-9.16639
ാന്ത	-9.16815
▁പാല	-9.16973
▁കുറിച്ച	-9.17014
▁ജല	-9.17022
▁പ്രകാശ	-9.1709
ഞ	-9.17184
▁തെളിവ	-9.17192
▁പ്രതിഫലം	-9.1723
▁പേരില്‍	-9.17304
▁200	-9.17321
▁എടുത്തു	-9.17329
കൾക്ക്	-9.17394
ാളി	-9.17648
▁കാര്യത്തില്‍	-9.17736
▁പ്രതിഫല	-9.17779
▁പ്ല	-9.17868
▁സ്ഥലം	-9.17902
▁ആളുകൾ	-9.17927
ോട്ട്	-9.17982
ോടെ	-9.17984
▁പരിശോധിക്ക	-9.18002
▁മുഖം	-9.18012
X	-9.1803
▁സമ്മാന	-9.18107
▁എന്നോട്	-9.18167
ത്തിനുള്ള	-9.18204
ിലേക്കു	-9.18247
▁മക്കള	-9.18273
▁മരിച്ചു	-9.18295
ive	-9.1841
▁ഫോട്ടോ	-9.18438
ist	-9.18472
▁കാണാൻ	-9.18517
▁മുഴുവൻ	-9.18524
▁വിവരങ്ങൾ	-9.18586
ഓ	-9.18628
▁ഒരാള്‍	-9.18634
▁പരാതി	-9.18836
▁ക്ര	-9.18879
കര്‍ത്താവ	-9.18951
▁ചിന്തിക്ക	-9.18971
▁അദ്ദേഹത്തിന്	-9.19059
▁കൂ	-9.19075
▁dur	-9.19179
▁പങ്കു	-9.19323
മാണെന്ന്	-9.19341
▁എന്നിട്ടും	-9.19391
▁പോകുന്ന	-9.19442
▁കാത്തിരിക്ക	-9.19455
ിക്കാന	-9.19457
▁ഇതിന്റെ	-9.1958
ര്‍ത്തി	-9.1964
▁അഞ്ചു	-9.19657
▁അതായത്	-9.19661
ര്‍മ്മ	-9.19733
▁രക്ഷിക്ക	-9.19755
▁വിവിധ	-9.19777
▁ഓര്‍മ്മ	-9.19889
ുന്നുണ്ടോ	-9.19944
▁വലുത	-9.19985
ഫല	-9.20075
ഷണ	-9.20127
▁ദേവ	-9.20228
"&	-9.20274
12	-9.20295
▁കൂട്ടുകാര	-9.20329
▁ഇതിനെ	-9.20341
ul	-9.20361
ീസ്	-9.2039
id	-9.20391
▁മുതല്‍	-9.20426
ുപോക	-9.20527
▁സ്ഥിതി	-9.20558
▁വിഷമ	-9.20595
▁യഥാർത്ഥ	-9.20628
യെന്ന	-9.20655
▁കാണാന്‍	-9.20675
▁വീട്ടിൽ	-9.20677
▁ആരംഭിക്ക	-9.20701
ദ്ധ്യ	-9.2072
▁പ്രവർത്തിക്ക	-9.20767
▁നിറഞ്ഞ	-9.20775
ാനാവില്ല	-9.20833
▁പറ്റി	-9.20882
▁തരം	-9.20895
▁സ്വതന്ത്ര	-9.20971
പ്പോഴും	-9.21014
▁പഠിപ്പിക്ക	-9.21019
ര്‍പ്പ	-9.21024
മില്ലാത്ത	-9.21042
മാക്കി	-9.21087
▁നാല്	-9.21127
▁വോട്ട	-9.21147
▁കഴിഞ്ഞു	-9.21217
▁പ്രകൃതി	-9.21225
▁സംരക്ഷിക്ക	-9.21253
▁തുറക്ക	-9.21349
ഠ	-9.21394
ിട്ടും	-9.2153
▁ഇതിനു	-9.21547
▁വിമാന	-9.21677
▁വ്യക്തമാക്ക	-9.21711
▁അധിക	-9.21712
ഫോ	-9.21751
▁ന്യൂ	-9.21782
▁ഉറക്ക	-9.21871
▁ബുദ്ധിമുട്ട	-9.21895
▁In	-9.21933
▁ഉറങ്ങ	-9.21974
ുന്നവന	-9.22172
▁അതിൽ	-9.22189
▁കള്ള	-9.22243
▁എത്തി	-9.22258
രക്ഷ	-9.2226
ാവശ്യ	-9.22561
▁കാണുക	-9.22645
▁ഗ്രന്ഥ	-9.22686
▁പെണ്ണ	-9.22768
ോൺ	-9.22802
മാണ	-9.22881
▁കയറി	-9.22892
ുന്നതിനു	-9.22904
▁തടയ	-9.22933
?’	-9.2294
▁പുറ	-9.23016
▁അവര്‍ക്കു	-9.23082
▁അല്ലാഹുവിന്‍റെ	-9.23088
▁മനുഷ്യന്‍	-9.23092
▁അഭി	-9.23092
ണ്ഡ	-9.23276
ബ്ര	-9.23318
▁ശക്തമായ	-9.23321
യെങ്കിലും	-9.23355
▁അതും	-9.23364
▁പഠിച്ച	-9.23435
▁എന്തുകൊണ്ട്	-9.23541
ുമുണ്ട്	-9.23561
▁ചൂട	-9.2369
ഛ	-9.23775
▁നായ	-9.2386
▁രണ്ടാം	-9.2399
യിലുള്ള	-9.24021
▁കളിക്ക	-9.2404
▁സേവന	-9.24078
▁കൊണ്ടുവര	-9.24179
▁വിള	-9.24296
നില	-9.243
▁അതൊരു	-9.24304
സത്യ	-9.24335
▁ഇതിന	-9.24338
ലിയ	-9.24415
um	-9.24426
▁മുസ്	-9.24441
om	-9.24488
വേഷ	-9.24505
വാന	-9.24604
▁ആളുകള്‍	-9.24728
▁അത്തരം	-9.24755
if	-9.24891
▁യുദ്ധം	-9.24974
ഗാ	-9.25041
െപ്പോലെ	-9.25043
വേണ്ടി	-9.25089
▁ദേശ	-9.25135
▁കീ	-9.25148
രൂപ	-9.25151
ത്തെയും	-9.25187
▁വിശ്വാസം	-9.25214
▁മേഖല	-9.25268
▁ഉയര	-9.25286
▁24	-9.25368
▁ഔ	-9.25428
ഐ	-9.25455
▁ടാ	-9.25469
▁സ്വകാര്യ	-9.25518
ച്ചി	-9.256
▁മനുഷ്യര	-9.25607
▁അവിട	-9.25704
▁അളവ	-9.2574
▁ഘട്ട	-9.25761
▁എങ്കില്‍	-9.25838
ാനായി	-9.25883
▁ചികിത്സ	-9.25922
▁തക	-9.25952
od	-9.26064
▁യൂ	-9.26069
ക്ഷി	-9.26208
▁നമ്മള	-9.26412
▁താഴ്	-9.26467
▁നമുക്കു	-9.26489
▁ശ്രീ	-9.26556
നില്‍ക്ക	-9.26585
▁ഏത	-9.26687
വെക്ക	-9.26688
▁നില്‍ക്ക	-9.2674
ില്‍നിന്ന്	-9.26747
▁പ്രദേശ	-9.26759
▁സാമ്പത്തിക	-9.26841
ഗി	-9.26885
▁നിങ്ങള്‍ക്ക	-9.26951
ിഷ്ട	-9.26986
▁ചെയ്യാം	-9.2727
▁എങ്കിൽ	-9.27465
ഗ്ഗ	-9.27466
പ്പെടുത്തി	-9.27476
▁ജെ	-9.27521
▁പറയാം	-9.27567
യാണെന്ന്	-9.27572
പെട്ട	-9.27617
▁അവനു	-9.2766
ോട്ട	-9.27677
▁നയ	-9.27728
▁അല്ലേ	-9.27878
വുമ	-9.27905
V	-9.28041
ക്സി	-9.28077
▁പത്ര	-9.28178
ment	-9.28217
▁പ്രവൃത്തി	-9.28251
▁അവസരം	-9.2827
▁സ്കൂള	-9.28433
▁ഇതിന്	-9.28464
▁കോടതി	-9.28469
വിട	-9.28471
▁അവരോടു	-9.28721
ാനാ	-9.2874
▁*	-9.28774
▁ധന	-9.28796
കൊ	-9.28828
േജ്	-9.28864
നിന്ന	-9.29069
▁പിന്തുണ	-9.29075
ിയായ	-9.29166
തൊക്കെ	-9.29516
▁വെടി	-9.29554
▁ഉപദേശ	-9.29619
▁നടന്നു	-9.29702
▁ഇതേ	-9.29753
▁പിടിക്ക	-9.29765
▁സ്വീകരിച്ച	-9.29795
▁പിശാച	-9.29844
▁കുട്ടികള്‍	-9.30065
▁നേടിയ	-9.3009
la	-9.30151
19	-9.30174
▁സീ	-9.30201
ിരിക്കും	-9.30203
ഹാര	-9.30225
പ്പെടുകയും	-9.30327
▁ഇന്നലെ	-9.30392
▁ദൈവത്തെ	-9.30502
se	-9.30545
▁ചോ	-9.30548
▁എഴുതി	-9.30566
ന്തി	-9.30681
▁പ്രവര്‍ത്തന	-9.30754
ീകരണ	-9.30771
▁സംഭവിച്ച	-9.30797
▁ബുദ്ധി	-9.30817
യിലൂടെ	-9.3082
സ്ട്ര	-9.30824
ാക്കിയ	-9.30949
▁പോകുന്നു	-9.30955
K	-9.30981
▁സൂ	-9.31049
▁നിയമം	-9.31134
ിനോട്	-9.31178
▁വെറുതെ	-9.31279
▁വേഗം	-9.31418
പര	-9.31421
ുകയാണെങ്കില്‍	-9.31422
▁ജനിച്ച	-9.31428
▁നാട്ട	-9.31625
യോഗ	-9.31645
▁സ്വര്‍ഗ	-9.31693
നല്ല	-9.31699
▁എങ്ങനെയാണ്	-9.31699
കളില	-9.31743
▁ആരോ	-9.31759
▁എണ്ണ	-9.31779
▁ഇത്രയും	-9.31814
പ്പെടുത്തിയ	-9.31836
നാഥ	-9.31838
ഭാഷ	-9.31842
▁തങ്ങള്‍	-9.31862
▁നാഥന	-9.31864
▁സംബന്ധിച്ച	-9.31881
▁തമ്മിലുള്ള	-9.31889
▁നല്ക	-9.3189
▁മലയാള	-9.31974
▁നടക്കുന്ന	-9.32036
▁ലേ	-9.32049
▁പേർ	-9.32109
▁ഹൈ	-9.32303
▁കുഴപ്പ	-9.32329
▁വിദ്യാഭ്യാസ	-9.3241
▁അറിയുന്നു	-9.32415
ശ്വ	-9.32485
▁പറയാന്‍	-9.32496
▁വാദ	-9.32545
▁കൃഷി	-9.32549
▁സർ	-9.32738
▁പ്രയാസ	-9.32755
▁അവയെ	-9.32829
▁ശ്രമിക്ക	-9.32841
▁മൂന്ന	-9.32849
em	-9.32882
▁ഉള്‍	-9.32961
ജാ	-9.33004
േണം	-9.3302
ദൃ	-9.33031
tr	-9.33043
▁അംഗ	-9.33114
▁ചെറു	-9.33173
വിധം	-9.33177
▁ഹൃദയം	-9.33177
▁തിരികെ	-9.3321
▁മോശ	-9.33283
18	-9.33367
▁നാല	-9.33375
▁അല്ലാഹുവിന്	-9.33399
▁ആകെ	-9.33435
?'	-9.33495
▁ചെന്ന	-9.33576
▁നമസ്	-9.33586
മാകും	-9.33589
പ്ത	-9.33698
▁ക്ഷമ	-9.33747
▁പിടിച്ച	-9.33827
▁ബ്ലോഗ	-9.33849
ുണ്ടായ	-9.33854
▁എത്തിയ	-9.33873
▁ലക്ഷ്യ	-9.33894
▁അങ്ങിനെ	-9.33929
▁ഫലം	-9.33949
എം	-9.33968
15	-9.33994
▁ആയിരിക്ക	-9.34073
ങ്ങളായി	-9.34162
ുള്ളത്	-9.34179
▁സന്തോഷം	-9.34184
ത്തിയ	-9.3419
▁ഭരണ	-9.34274
▁ഉദ്ദേശിക്കുന്ന	-9.34301
മ്പി	-9.34309
▁കാണിച്ചു	-9.34427
തിന	-9.34532
▁രക്ത	-9.34605
▁പിന്തുടര	-9.34681
▁പള്ളി	-9.34697
നിന്നും	-9.34711
മുഖ	-9.34718
▁ഉത്തമ	-9.34718
ity	-9.3474
▁പക്ഷം	-9.34747
▁നിൽക്ക	-9.34811
▁ഗുരു	-9.3486
െടുത്തു	-9.34984
▁കാറ	-9.34986
ക്കൊള്ള	-9.34999
ha	-9.35016
േക്കു	-9.35031
ധാരണ	-9.35036
▁കോടി	-9.35062
▁കുറേ	-9.3509
ുമ്പോഴ	-9.35103
വചന	-9.35114
▁രസ	-9.35269
ഷ്ഠ	-9.35302
കാലം	-9.354
▁ഇര	-9.35455
തായ	-9.35596
▁ഓഫ്	-9.35602
▁നോക്കിയ	-9.35603
എന്	-9.35619
േക്കും	-9.35642
റിയില്ല	-9.35712
ക്കൊണ്ട്	-9.35791
▁പുതു	-9.35817
▁സുഹൃത്തുക്കള	-9.35981
▁കാണുന്നു	-9.35989
വന്നു	-9.36028
▁തിരഞ്ഞെടുക്ക	-9.36131
▁തീർച്ചയായും	-9.3614
▁തോന്നിയ	-9.36233
▁അപ	-9.36287
▁പൈ	-9.36313
▁നല്ലത്	-9.36334
▁കാണുന്നത്	-9.36347
ദിന	-9.36421
▁വിശദ	-9.36488
▁പാടില്ല	-9.36489
▁ക്രമ	-9.36514
▁ദുഃഖ	-9.36538
▁രേഖ	-9.36822
▁പ്രിയ	-9.36833
▁പ്രതീക്ഷിക്ക	-9.3687
▁കടല	-9.36894
▁ആദ്യമായി	-9.36955
▁നിര്‍ത്ത	-9.36996
റ്റർ	-9.37037
ക്കുറിച്ചു	-9.37085
▁എന്തായാലും	-9.37192
യാണു	-9.37273
▁ബന്ധം	-9.37294
ാകാം	-9.37295
പുര	-9.37304
ൂര്‍	-9.37339
▁അവസര	-9.3742
▁തേടി	-9.37458
▁പ്രശ്നം	-9.37523
ഗോ	-9.37578
റിഞ്ഞ	-9.37627
▁st	-9.37633
വിശ്വാസ	-9.37652
▁അക്രമ	-9.37806
ുള്ളൂ	-9.37826
▁മൂസാ	-9.37858
age	-9.37859
▁ഓടി	-9.37969
▁ദയവായി	-9.38014
ര്‍ന്ന	-9.38021
Y	-9.38082
▁അവതരിപ്പിച്ച	-9.38102
ess	-9.38174
▁കൂടിയ	-9.38231
▁അടുത്ത്	-9.38239
ുമെന്ന	-9.3827
▁ചെയ്യാന	-9.38274
ാലയ	-9.38299
▁അല്ലാഹുവെ	-9.38408
▁ഇവര	-9.38456
up	-9.38618
▁വെച്ച	-9.38644
വുമാണ്	-9.38753
▁അപേക്ഷ	-9.38957
▁പരിപാടി	-9.38974
േറിയ	-9.39034
ക്കുന്നത്	-9.3904
▁അവർക്ക്	-9.39071
▁എൻ	-9.39079
വെന്ന്	-9.39224
ത്തിലൂടെ	-9.39235
ായിരുന്ന	-9.393
പുത്ര	-9.3937
▁പിടി	-9.39404
one	-9.39461
ില്ലെങ്കില്‍	-9.39494
▁കുട	-9.39595
▁പേരു	-9.39781
ാനോ	-9.39783
▁കുഞ്ഞു	-9.39788
▁ഇതൊക്കെ	-9.39854
▁അറിയുന്നവന	-9.39946
രിഞ്ഞ	-9.3995
▁മറ്റുള്ളവര	-9.39962
ചി	-9.40014
▁സൂര്യ	-9.40017
▁സംഘടന	-9.40023
17	-9.40099
ഖ്യ	-9.40105
▁രോഗി	-9.40141
▁വാര്‍ത്ത	-9.40216
ർന്ന	-9.40262
▁സൈറ്റ	-9.40459
ികളുടെ	-9.40464
▁അതല്ല	-9.40478
▁മണിക്കൂറ	-9.40485
▁ജനങ്ങള്‍	-9.40495
ായാലും	-9.40567
▁നോ	-9.40609
▁വിജയം	-9.40617
▁0	-9.40723
ിലോ	-9.40807
▁ഞ	-9.40853
ികളെ	-9.40857
▁ഗ്രാമ	-9.4091
▁തുറന്ന	-9.40987
▁ഇതൊരു	-9.40997
ധന	-9.41019
▁പറയാന	-9.4104
▁വെക്ക	-9.41076
▁ദി	-9.41098
▁എനിക്കും	-9.41111
▁പരീക്ഷണ	-9.41125
▁നടത്തി	-9.41178
▁ആഗ്രഹ	-9.41209
▁കൊടുത്തു	-9.41265
▁21	-9.41309
▁ചി	-9.41326
▁ചേര	-9.41326
ho	-9.41327
വനും	-9.41383
ل	-9.41427
വേദ	-9.41443
▁ഫോൺ	-9.4149
▁തന്നേ	-9.41538
▁യഥാര്‍ത്ഥ	-9.41552
▁:)	-9.41598
▁വീഴ	-9.41676
▁മുന്‍	-9.41693
▁kgm	-9.41709
▁കുട്ടികള	-9.4173
ിച്ചിരിക്കുന്നു	-9.41848
മെന്റ്	-9.4185
▁അവനോടു	-9.41869
▁കാര	-9.41881
ിരിക്കുകയാണ്	-9.41884
൧	-9.4203
▁ഞങ്ങള്‍ക്ക്	-9.42061
▁അകത്ത	-9.4209
മാണിത്	-9.42118
▁ഫ്ല	-9.42151
▁എഴുത്ത	-9.42175
▁ഏഴ	-9.42202
▁ഖുര്‍ആന	-9.42297
ാനാവ	-9.42314
▁അടിമ	-9.42419
▁പരാജയ	-9.42447
▁ശബ്ദം	-9.42452
▁കല്ല	-9.42617
സിന്റെ	-9.42676
താണോ	-9.427
80	-9.42704
▁പാത	-9.4275
▁ഭൂ	-9.4276
▁കയറ	-9.42777
ാഴ്ച	-9.42804
ുണ്ടായിരുന്ന	-9.42865
വൃത്തി	-9.42881
▁മാറ്റം	-9.4291
▁കുട്ടികൾ	-9.42973
▁ലഭിക്കും	-9.43013
ഭി	-9.43058
▁തിര	-9.43135
ack	-9.43229
ഡോ	-9.4323
ില്ലാത്ത	-9.43231
▁അന്ത	-9.43366
മിന	-9.43369
യാക്ക	-9.43376
li	-9.43491
▁തീരുമാനം	-9.43492
nd	-9.43534
▁കാണും	-9.43535
▁തുറന്നു	-9.43557
▁ക്ലാസ	-9.43561
നീയ	-9.43629
▁അടുത്തു	-9.43682
▁മുട്ട	-9.43687
▁എന്തോ	-9.43724
ഗതി	-9.43733
ിലേ	-9.43836
▁ആരെ	-9.43885
പ്പെടുന്നത്	-9.43921
30	-9.44018
ിക്കാം	-9.44029
ce	-9.44061
ാതിരുന്ന	-9.44102
▁ഉദാഹരണ	-9.44228
▁ശ്രദ്ധിക്ക	-9.44237
▁മടങ്ങി	-9.44239
ve	-9.44258
മുണ്ടോ	-9.44284
▁പരിഹാര	-9.44286
▁ശുദ്ധ	-9.44372
താക്കള	-9.4442
▁അവധി	-9.44425
ചിത	-9.4445
▁മാധ്യമ	-9.44479
▁മിക്ക	-9.44507
▁പോര	-9.4453
▁മടങ്ങ	-9.44604
ക്ഷണ	-9.44604
ലുകൾ	-9.44604
▁മൈ	-9.44621
▁പരിചയ	-9.44631
▁ലേഖനം	-9.44654
പ്പാട	-9.44721
▁നിമിഷ	-9.44726
ദ്ദ	-9.44792
ശു	-9.44814
ect	-9.449
ight	-9.44966
ത്തോട്	-9.45018
ബർ	-9.4505
ay	-9.4508
and	-9.45284
▁ഒളി	-9.45305
▁ആഗ്രഹിക്കുന്നു	-9.45437
തിനാല്‍	-9.45463
കൊള്ളുക	-9.45477
▁നിങ്ങളില്‍	-9.45493
▁വീട്ട	-9.45732
▁മനോഹരമായ	-9.45737
രുതു	-9.4574
man	-9.45754
▁എന്തിനാണ്	-9.45817
ാമായിരുന്നു	-9.45843
കളെയും	-9.45873
▁അഭിപ്രായം	-9.45877
▁ഏഴു	-9.45943
▁മൊ	-9.46003
ോൾ	-9.46035
കൊണ്ടിരിക്ക	-9.4606
▁ലക്ഷ്യം	-9.46095
▁പ്രമാണ	-9.46286
▁കഷ്ട	-9.4632
▁മുൻ	-9.46361
▁ഹി	-9.46376
▁തിരു	-9.46443
▁സംവിധാനം	-9.46462
നുസരിച്ച്	-9.46523
വനാണ്	-9.46674
▁22	-9.46681
▁പട്ടണ	-9.46725
▁വിശ്വസിക്കുന്ന	-9.46747
▁പുറത്ത	-9.4684
ുമില്ല	-9.46852
▁ക്ഷമിക്ക	-9.46909
യ്ക്കും	-9.46977
▁ബല	-9.47006
൦	-9.47031
▁വീട്ടില്‍	-9.47031
▁നിലപാട	-9.47038
്യമായ	-9.4705
ag	-9.47054
യെയും	-9.47084
ge	-9.4709
▁പൊറുക്ക	-9.47094
▁അനുസരിക്ക	-9.4711
▁കൊള്ള	-9.47129
▁നിരാശ	-9.47187
▁അല്ലാഹുവിന	-9.47361
▁ഷോ	-9.47392
ിപ്പോക	-9.47409
▁ടൈ	-9.4741
▁എണ്ണം	-9.47465
▁സ്നേഹം	-9.47488
▁നൽകിയ	-9.47499
മെന്ന	-9.47617
▁വശ	-9.47622
പ്റ്റ	-9.47679
ക്കിട	-9.47713
▁പാലിക്ക	-9.47729
▁കണ്ണു	-9.47761
▁എക്സ്	-9.47776
▁#	-9.47784
▁അങ്ങ	-9.47837
ക്കിടയില്‍	-9.47946
മാത്ര	-9.48081
▁അറിയിക്ക	-9.48123
▁50	-9.48161
▁ഫാക്ടറി	-9.48235
▁ബാധിക്ക	-9.48262
െന്താ	-9.48286
to	-9.48309
▁ഓട	-9.48353
ധാന	-9.48503
പ്രദ	-9.48556
▁വേദ	-9.48686
▁100	-9.4876
▁താമസ	-9.48781
▁ആളുകള	-9.48822
▁വായിച്ചു	-9.48826
യെന്ന്	-9.48897
ാണെന്നു	-9.48898
▁ഇന്നത്തെ	-9.48902
▁ആയിരിക്കും	-9.48969
ുവാനും	-9.48981
▁ചെയ്യണം	-9.49003
▁അതില	-9.4903
▁പങ്കാളി	-9.49053
വരില്‍	-9.49053
▁St	-9.49064
35	-9.49077
ിലായിരുന്നു	-9.49163
▁മുടി	-9.49174
▁മനുഷ്യനെ	-9.49301
▁കരുണ	-9.49301
▁അംഗീകരിക്ക	-9.49315
▁ദാ	-9.49339
▁വചന	-9.496
▁സ്വാഗതം	-9.49678
▁ഡെ	-9.4968
▁പിടിച്ചു	-9.49714
▁ടീമ	-9.4972
ot	-9.49866
▁പേപ്പർ	-9.49874
▁കേട്ടു	-9.49895
▁നിത്യ	-9.49902
ദര്‍ശന	-9.49927
he	-9.49967
▁ലഭിക്കുന്ന	-9.50006
▁with	-9.50201
à	-9.50276
▁de	-9.50277
ത്രേ	-9.50368
▁ഡയ	-9.50379
ിക്കണം	-9.50465
ുന്നതില്‍	-9.50469
▁അന്യ	-9.50559
രായി	-9.50604
▁വിദേശ	-9.50608
ിതാ	-9.5062
▁വരുന്നത്	-9.50645
▁പേരും	-9.50726
ുണ്ടാക്ക	-9.50735
▁തൊഴിലാളി	-9.50816
േണ്ടതുണ്ട്	-9.50834
▁ഉണ്ടായിരിക്ക	-9.50841
▁മാര്‍	-9.50952
16	-9.50954
▁നോക്കൂ	-9.51101
▁ജ്ഞാന	-9.51155
▁ഉണ്ടാകും	-9.51186
കളയ	-9.51284
ുടെയും	-9.51288
കൃതി	-9.51325
ിട്ടുള്ളത്	-9.51374
▁ഇവരുടെ	-9.5141
▁വചനം	-9.51468
▁പകുതി	-9.51474
▁കൂട്ടി	-9.51515
,000	-9.5154
▁തേ	-9.51565
▁ക്യാ	-9.51587
ഡിയ	-9.51667
ാവുന്നതാണ്	-9.51796
▁പെണ്‍കുട്ടി	-9.51995
▁ശാന്ത	-9.52044
ങ്ങനെ	-9.52055
മാക്കിയ	-9.52122
▁$	-9.52123
▁അയച്ച	-9.52139
▁സംഗീത	-9.52187
▁കുറയ്ക്ക	-9.52213
▁മറന്നു	-9.52226
▁ആശുപത്രി	-9.52237
പൂര്‍വ	-9.52256
ിക്കപ്പെട്ട	-9.52257
യിരിക്ക	-9.52313
▁വെളിപ്പെടുത്ത	-9.52351
മുണ്ടാക്ക	-9.5247
മാറ്റ	-9.52476
▁he	-9.52521
▁പഠിപ്പിച്ച	-9.52553
▁പാഠ	-9.52619
കഴിഞ്ഞ	-9.5262
▁തിരക്ക	-9.52714
▁കറുത്ത	-9.52761
ട്ര	-9.52941
▁വള	-9.52955
▁ദേശീയ	-9.52966
▁സത്യവിശ്വാസികള	-9.53051
▁എങ്ങിനെ	-9.53244
▁അന്വേഷണ	-9.53277
▁കണ	-9.53278
▁നിങ്ങളോടു	-9.53333
▁പരലോക	-9.53363
▁മണി	-9.53401
സീ	-9.53412
ംഗ്	-9.53426
▁അയാളെ	-9.53434
pe	-9.5344
▁ഇരുവരും	-9.53527
കുട്ടി	-9.53554
▁വികാര	-9.5357
അദ്ദേഹ	-9.53676
മാസ	-9.53805
▁ശക്ത	-9.53879
▁ഒരാള	-9.5392
▁=	-9.53932
▁by	-9.54007
▁ഉണ്ട	-9.54066
തുകൊണ്ട്	-9.5409
ുണ്ടാവ	-9.54181
ര്‍ച്ച	-9.54186
&	-9.5421
ിക്കേണ്ട	-9.54276
ഏ	-9.54361
േറെ	-9.54434
വില	-9.54435
▁മഹത്വ	-9.54438
▁സര്‍ക്കാര്‍	-9.54444
our	-9.54475
്‍ക്കും	-9.54485
നിര	-9.54501
താര	-9.54533
ab	-9.54541
▁സൈ	-9.54607
▁കുടി	-9.5463
തെന്ന	-9.54676
70	-9.54815
▁തുടക്ക	-9.54859
ുമാറ	-9.54862
▁രക്ഷിതാവ്	-9.54918
ട്രോ	-9.54959
▁നിയന്ത്രണ	-9.55011
േക്കാള്‍	-9.55074
▁അടുക്കല്‍	-9.55187
പോല	-9.55313
▁പറ്റിയ	-9.55328
▁വന്നത്	-9.55331
മേല്‍	-9.55371
കളായി	-9.55372
▁നേരിട	-9.55385
▁ദോഷ	-9.55402
▁പരസ്യ	-9.55525
മാക്കുന്ന	-9.55553
ജീവിത	-9.55607
ജ്ജ	-9.55643
▁ഫീ	-9.55684
മ്പ്	-9.55753
▁ഉപയോഗിക്കുന്ന	-9.55796
ചിത്ര	-9.55887
▁നോക്കുക	-9.55915
▁നാശ	-9.55917
▁ആവശ്യമാണ്	-9.55925
ർപ്പ	-9.55984
▁X	-9.56143
000	-9.56261
▁കിട്ടി	-9.5636
▁ഉച്ച	-9.56393
െഴുത	-9.56395
▁ഭീഷണി	-9.56451
മുമ്പ	-9.56453
▁പിന്‍	-9.56463
▁മൃഗ	-9.56467
▁പ്രവര്‍ത്തിച്ച	-9.56468
ങ്ങളെയും	-9.56491
തരം	-9.56504
▁രണ്ടും	-9.56574
▁വിവരം	-9.567
ഭ്യ	-9.56714
നോക്ക	-9.56714
മാരുടെ	-9.56783
ുന്നതിനുള്ള	-9.56801
സമയ	-9.56807
ങ്ങള്‍ക്കു	-9.56839
▁ഉടനെ	-9.56897
▁റഷ്യ	-9.56988
കളിലെ	-9.57091
ന്മാരുടെ	-9.57135
▁നഷ്ടപ്പെട്ട	-9.57152
ുണ്ടാകും	-9.5716
▁അഞ്ച്	-9.57166
▁ബിസിനസ്	-9.57239
14	-9.57252
മുണ്ടാക	-9.57317
ർട്ട്	-9.57321
▁വസ്ത്ര	-9.57349
പ്പോലെ	-9.57424
ine	-9.57465
ൻഡ	-9.57486
▁ശബ്ദ	-9.5752
▁നയിക്ക	-9.57524
▁ശരീരം	-9.57572
▁പോസ്റ്റ	-9.57593
ഇത്	-9.57604
▁ഇവർ	-9.5761
ദർശ	-9.57612
നബിയേ	-9.57698
iv	-9.57701
ക്കുറിച്ച	-9.57731
കൊള്ള	-9.57756
ിരിക്കുക	-9.57762
▁വാക്കുകള	-9.57765
▁not	-9.57787
െന്നാണ്	-9.57869
രോധ	-9.57875
▁പത്തു	-9.57921
ക്കെതിരെ	-9.57923
ുവിന്‍	-9.57952
▁ഉദ്ദേശിച്ച	-9.57953
▁പ്രസംഗ	-9.57972
▁ഉണ്ടോ	-9.57975
▁ആഘോഷ	-9.5812
കളിലും	-9.58137
ുകയുണ്ടായി	-9.58149
ിയിരുന്നു	-9.58188
▁പരിശീലന	-9.58255
ind	-9.58325
▁പെൺകുട്ടി	-9.58361
പേര	-9.58363
ർമ്മ	-9.5838
െന്തു	-9.58381
▁ആൻഡ്	-9.58391
ുണ്ടെങ്കില്‍	-9.58412
വിശ്വാസികള	-9.58423
▁കഴിച്ച	-9.5844
qu	-9.58469
▁ഇറങ്ങി	-9.58506
▁പ്രതികരണ	-9.58537
മാര്‍ഗ	-9.58548
▁തുക	-9.58552
ല്ലാ	-9.58635
▁വെളിച്ച	-9.58659
▁സ്വപ്ന	-9.58667
▁ചര്‍ച്ച	-9.58756
ast	-9.58757
▁വാക്കുകള്‍	-9.58838
▁പോസ്റ്റ്	-9.58852
ാത്തത്	-9.5888
▁ബാങ്ക	-9.58932
▁se	-9.59027
യോടു	-9.59041
▁ആറു	-9.59062
ൊന്നുമില്ല	-9.59078
▁നാഥന്‍	-9.59115
art	-9.59172
▁ഇടപെട	-9.5919
▁നശിപ്പിക്ക	-9.59223
▁U	-9.59244
▁23	-9.59359
▁ജാതി	-9.59383
ിക്കാനുള്ള	-9.59387
ടീ	-9.59453
▁ജീവിക്കുന്ന	-9.5946
de	-9.5946
▁എന്നാലും	-9.59497
▁അന്നു	-9.59507
ല്ലാത്ത	-9.59549
▁പ്രാര്‍ത്ഥന	-9.59611
▁പതിവ	-9.59621
നായിരുന്നു	-9.59681
▁മുതല	-9.5969
▁ജനം	-9.59729
▁മടക്ക	-9.59805
▁പ്രവാചക	-9.5981
▁എഴുത്തുകാര	-9.59827
▁പരിശോധന	-9.59843
▁നിയന്ത്രിക്ക	-9.59899
വാഹ	-9.59917
▁മൂന്നാം	-9.59973
▁മനസിലാക്ക	-9.59996
മുണ്ട	-9.60006
mo	-9.60041
▁വായന	-9.60046
▁Co	-9.60051
▁നിങ്ങളോട്	-9.60057
▁കാട്ട	-9.60136
▁അഭിനയ	-9.60142
▁നിക്ഷേപ	-9.60173
പ്പിച്ചു	-9.60182
▁മോഡ	-9.60184
▁ഭാവ	-9.60239
▁തൊഴില	-9.60328
▁കുട്ടികളെ	-9.6038
▁ഞാനൊരു	-9.60381
▁അടയാള	-9.60393
▁വാങ്ങി	-9.60395
ൻഡ്	-9.60441
▁പോലുള്ള	-9.60444
തിരുത്തുക	-9.60446
ിരുന്നെങ്കില്‍	-9.60448
▁ഇന്നും	-9.60465
മാത്രം	-9.60481
ന്റി	-9.60599
▁നേ	-9.60653
▁യുവ	-9.60664
▁ആരുടെ	-9.60702
ത്തോളം	-9.6072
▁ആരാ	-9.60802
▁യുക്തി	-9.60805
mp	-9.60912
▁ചുമ	-9.60918
13	-9.6092
▁സംശയം	-9.60934
▁കളയ	-9.60949
രാമ	-9.60964
▁പ്രൊ	-9.61069
പാടു	-9.6109
കാരി	-9.61102
▁ചിരി	-9.61166
ങ്ങളിലെ	-9.61267
തിനാൽ	-9.61278
പെട	-9.6132
▁സ്വഭാവ	-9.61414
മാരെ	-9.61444
ുന്നുവോ	-9.61482
▁കടുത്ത	-9.61499
▁സാധ	-9.61522
▁ഈശ്വര	-9.61525
ിവിടെ	-9.61535
▁പട്ടിക	-9.61548
ാവകാശ	-9.61659
കൂട	-9.6166
▁ഇവരെ	-9.61661
ോടുള്ള	-9.61664
▁con	-9.61676
▁പ്രവാചകന്‍	-9.61765
▁തൊട്ട	-9.61906
ണ്ടി	-9.62094
▁ഇത്തവണ	-9.62112
▁do	-9.62136
▁ധൈര്യ	-9.62145
▁ഘടക	-9.62157
▁നക്ഷത്ര	-9.62248
▁ചരിത്രം	-9.62346
▁ഏതൊരു	-9.62359
തൃ	-9.62448
▁മദ്യ	-9.62493
▁ലോകത്ത	-9.62517
▁ആഗ്രഹിച്ച	-9.62614
▁ബ്ല	-9.62673
യാന	-9.62732
▁കാറ്റ	-9.62734
▁ചുറ്റും	-9.62753
▁നിർത്ത	-9.6276
പ്പോയി	-9.62768
തന്നെയാണ്	-9.62829
ard	-9.62985
▁കാണിച്ച	-9.62986
▁ഇക്കാര്യ	-9.62993
▁ഫോണ	-9.63009
36	-9.63087
▁സഹായിക്കും	-9.63101
ുണ്ടെന്ന്	-9.63167
ില്ലെന്ന്	-9.6317
▁An	-9.63198
▁ഇങ്ങ	-9.63235
യല്ലേ	-9.63274
▁ശാസ്ത്ര	-9.63339
▁ജീവിതത്തില്‍	-9.63394
▁ദൂതന	-9.63395
▁സാധിക്കും	-9.63403
മ്യ	-9.63435
നിധി	-9.63509
ിച്ചിരുന്നു	-9.63579
ry	-9.63598
▁അഭിമാന	-9.63613
▁നല്ലൊരു	-9.63625
▁ലോകത്തിലെ	-9.63636
▁എന്തൊക്കെ	-9.63707
ഗമ	-9.63723
▁ഒക്കെ	-9.63749
ിലേക്കുള്ള	-9.63762
▁വൈദ്യ	-9.6379
▁Home	-9.6381
ാതിരിക്കുക	-9.63845
▁വേണ്ടത്	-9.63893
▁സൈന്യ	-9.63894
▁തമാശ	-9.63895
ര്‍ത്ഥ	-9.64004
ീകരണം	-9.64008
ായിരുന്നില്ല	-9.64076
്യൂട്ട	-9.64116
ill	-9.64141
ear	-9.64159
▁അതുകൊണ്ടു	-9.64205
▁ഇഷ്ടപ്പെടുന്ന	-9.64238
ക്കൊ	-9.6431
▁ദിനം	-9.64314
▁ധരിക്ക	-9.64329
▁നേരം	-9.64329
▁മുഴ	-9.64343
ന്ത്ര	-9.64354
▁Ch	-9.64367
ാവസ്ഥ	-9.64368
▁വൈകി	-9.64393
▁De	-9.6445
▁പദ	-9.64482
▁മനോ	-9.64525
ങ്ങളോ	-9.64693
▁തമ്മില്‍	-9.64746
▁ഓര്‍മ	-9.6476
ാവില്ല	-9.64786
റ്റുകൾ	-9.6479
▁കാണാന	-9.64894
ുന്നവനും	-9.64895
▁സൂക്ഷിക്ക	-9.64941
▁ഉപകരണ	-9.64958
▁പിഴ	-9.64992
വൃ	-9.65031
െല്ലാ	-9.65085
ത്തെക്കുറിച്ച്	-9.65234
പൂർ	-9.65299
vi	-9.6532
വന്റെ	-9.65325
▁ജീവിച്ച	-9.65407
▁ഇവിട	-9.65451
▁കരുതിയ	-9.65524
▁വ്യാപ	-9.65529
▁ഒരാൾ	-9.65531
▁ഡാ	-9.65542
▁പുറത്ത്	-9.65642
▁മോള	-9.65666
▁പൊറുത്തു	-9.65678
▁നല്‍കുകയും	-9.65696
ഹീ	-9.65759
ant	-9.6578
▁ബാല	-9.65794
൨	-9.65938
ാണിത്	-9.65993
▁ചൊ	-9.6601
കർത്താവ	-9.66018
▁ജയ	-9.66057
▁ആഴ	-9.66089
ൊരാള	-9.66194
▁അല്ലാതെ	-9.66209
ത്തിലേക്കു	-9.66215
തൊന്നും	-9.66216
▁ലിസ്റ്റ	-9.66227
!”	-9.66364
ായിത്തീര	-9.66383
▁ലേഖന	-9.66404
▁കിടക്ക	-9.66572
ിനോടു	-9.66605
▁അതിക്രമ	-9.66609
ക്കൂട്ട	-9.66651
മൂല	-9.66688
ുടേയും	-9.66722
ac	-9.6676
പൊ	-9.66761
▁ഭീകര	-9.66762
യായിരിക്കും	-9.66784
ാര്‍ത്ഥ	-9.66817
▁എന്താണ	-9.66838
▁പുല	-9.66842
ാണെങ്കിലും	-9.66894
ക്കുറിച്ചുള്ള	-9.66957
▁ശതമാന	-9.66983
▁സാധിച്ച	-9.6699
▁ഇപ്രകാരം	-9.67022
▁വാർത്ത	-9.67022
▁തര്‍ക്ക	-9.67023
▁മന	-9.67202
ഭാഗ	-9.67231
▁അവയുടെ	-9.67318
തുമായ	-9.67394
ക്രിസ്	-9.67413
ന്മാരെ	-9.67453
തോടെ	-9.67483
▁അയാള	-9.67551
ction	-9.67552
▁മഹ	-9.67584
▁ഇപ്പോഴ	-9.67607
▁അഞ്ച	-9.67653
▁it	-9.67676
ിങ്ങനെ	-9.67697
▁വിഷയം	-9.67708
▁വിചാര	-9.67734
▁നന്നായ	-9.67748
▁ഇതിൽ	-9.67785
ബൂ	-9.67819
ip	-9.67879
▁കരുതി	-9.67913
വരെയും	-9.68011
ഭേദ	-9.68022
▁നിമിഷം	-9.68029
▁പേരെ	-9.68034
െത്തിയ	-9.68044
ർച്ച	-9.6807
ഞാന	-9.68155
വാദി	-9.68183
▁സാധന	-9.68333
pl	-9.68356
▁വളര	-9.68358
▁തെറ്റി	-9.6838
ാമത്തെ	-9.68407
99	-9.6841
റ്റാ	-9.68491
▁2018	-9.68524
▁കുതിര	-9.68582
▁താങ്കൾ	-9.68602
ure	-9.68615
▁റോഡ	-9.68645
▁പെട്ടെന്ന്	-9.68652
▁ഗവേഷണ	-9.68656
▁ഡോക്ടറ	-9.68693
▁പോകും	-9.68771
▁എല്ലാവര്‍ക്കും	-9.68807
ാണി	-9.68821
▁സംസാര	-9.6883
▁അതിന്‍റെ	-9.68872
▁ലോകത്തെ	-9.68881
co	-9.68889
▁നിരക്ക്	-9.68951
രീതി	-9.68977
▁രേഖപ്പെടുത്ത	-9.68987
▁അര്‍ത്ഥ	-9.68996
▁ബീ	-9.69047
ർന്നു	-9.69074
▁തിരയ	-9.69075
ദീ	-9.69088
▁അയച്ചു	-9.69155
▁പരിശുദ്ധ	-9.6923
▁രാജ്യം	-9.69274
ങ്ങളുണ്ട്	-9.69278
▁ആവശ്യം	-9.69281
ട്ടോ	-9.69284
സഭ	-9.69307
▁ജനങ്ങള	-9.69328
▁ആയിരുന്ന	-9.69352
▁വ്യത്യാസ	-9.69434
▁തിരിഞ്ഞു	-9.69514
▁ഡ്രൈവ	-9.69526
▁മഞ്ഞ	-9.69574
ത്താല്‍	-9.6958
▁+	-9.69632
ത്തോടു	-9.69643
റിഞ്ഞു	-9.69685
ലിന്റെ	-9.69734
ies	-9.69749
▁നേട്ട	-9.69765
▁വിശേഷ	-9.69806
sp	-9.69815
▁ചുരുക്ക	-9.69827
ുകയാണോ	-9.69829
▁യഹോവയുടെ	-9.69857
▁സംസാരിച്ചു	-9.69881
▁v	-9.69909
ിതമായ	-9.69946
▁വളരെയധികം	-9.6996
▁പ്രോ	-9.69976
പറഞ്ഞ	-9.69989
▁പോകുന്നത്	-9.70012
34	-9.70036
▁നോട്ട	-9.70036
▁മിനിറ്റ്	-9.70094
▁കെട്ട	-9.70105
▁അപ്പോഴ	-9.70216
▁പലതും	-9.70218
െന്താണ്	-9.7028
▁മാനസിക	-9.70294
▁വിചാരിച്ച	-9.70414
▁കാണിക്കുന്ന	-9.70462
▁അവതരിപ്പിക്ക	-9.70521
▁40	-9.70536
▁പറയാൻ	-9.70541
രാജ	-9.70551
▁ശി	-9.70555
▁ലാഭ	-9.70557
▁മണ്ണ	-9.70645
▁വായിക്കുക	-9.70674
▁കലാ	-9.70678
ിക്കൽ	-9.70713
ഷന	-9.70733
ായിരിക്കണം	-9.70741
ന്റേത	-9.70752
▁സമയത്ത	-9.70788
ther	-9.70815
▁ജന്മ	-9.70922
▁പണിയ	-9.70964
...”	-9.70985
ഹരി	-9.71013
ിതര	-9.71038
▁(1	-9.71066
▁മോഹ	-9.71084
▁വൈകുന്നേര	-9.71135
25	-9.71162
▁•	-9.71202
ap	-9.71211
▁ബാധിച്ച	-9.71237
▁പ്രിയപ്പെട്ട	-9.71338
ുചെയ്യ	-9.7134
▁അന്വേഷിക്ക	-9.71364
▁ഗാ	-9.71417
കളുണ്ട്	-9.71426
യുമാണ്	-9.71445
വണ്ണം	-9.71481
മുണ്ടായ	-9.71481
▁അമേരിക്കൻ	-9.71522
▁അല്ലെ	-9.71605
ുന്നതിൽ	-9.71623
ുന്നില്ലേ	-9.71653
ഭൂമി	-9.71658
▁കേസ	-9.7166
ിന്നു	-9.71748
▁വച്ച	-9.71765
ശാസ്ത്ര	-9.71802
▁പോലീസ്	-9.7184
▁പ്രഭാത	-9.71845
▁തുല്യ	-9.71859
ഭാഗത്ത	-9.71874
▁ബൈ	-9.71998
▁ദയ	-9.72003
യാല്‍	-9.72036
ിംഗ	-9.72072
▁വിറ്റ	-9.72205
ex	-9.72205
di	-9.72248
▁പ്രാധാന്യ	-9.72284
01	-9.72292
യാൽ	-9.72305
ിയിട്ടുണ്ട്	-9.72329
▁ആളുകളെ	-9.72368
ിക്കൊണ്ടിരിക്ക	-9.72397
▁സന്ദേശം	-9.72508
▁ആര്‍ക്കും	-9.72516
ത്തിന്നു	-9.72534
▁ബഹു	-9.72535
▁രീതിയില്‍	-9.72575
▁അന്ധ	-9.72592
▁ഇരുട്ട	-9.72595
▁തൊ	-9.72603
െത്തി	-9.72618
▁നമ്പർ	-9.7264
▁സംരക്ഷണ	-9.72695
▁മാതൃക	-9.72706
▁അല്ലാഹുവിനെ	-9.72707
▁റീ	-9.72725
▁നിര്‍ബന്ധ	-9.72763
▁ഇംഗ്ലീഷ്	-9.72774
▁തീരുമാനിക്ക	-9.72817
▁മനുഷ്യര്‍	-9.72842
▁എന്നിരുന്നാലും	-9.72843
▁ചീത്ത	-9.72906
▁ചെറുത	-9.72938
െനിക്ക	-9.72941
▁കണക്കാക്ക	-9.72992
മാകുന്ന	-9.73062
▁വാക്കു	-9.73066
▁പാര	-9.73088
ma	-9.73128
▁പ്രതിരോധ	-9.73192
▁നാണ	-9.73206
ന്‍മാര	-9.73225
▁യൂറോപ്പ	-9.73281
▁Mo	-9.73296
വർക്ക്	-9.7332
ുന്നവന്‍	-9.73333
▁അല്പം	-9.7335
▁ഓരോരുത്തര	-9.73353
▁പ്രയോജന	-9.73411
▁നില്‍ക്കുന്ന	-9.73414
യാകുന്നു	-9.73441
▁നാടക	-9.7348
▁കോളേജ	-9.73496
▁സ്ത്രീകള്‍	-9.73537
▁മെഷീൻ	-9.73556
വാക്യ	-9.73564
▁ഭ്രാന്ത	-9.73639
▁ഏതാനും	-9.73714
രാഷ്ട്ര	-9.7379
▁മാറിയ	-9.73828
▁മിസ്	-9.73836
▁കീഴ	-9.73851
▁തുടക്കം	-9.7387
▁ആക്രമണ	-9.73919
ാവുക	-9.74012
ാനാകും	-9.74034
ig	-9.74078
യുമില്ല	-9.74103
▁ലൂ	-9.74115
▁മനസ	-9.74154
ന്‍മാര്‍	-9.74156
ൊന്ന്	-9.74176
ന്നാ	-9.74179
വരോട്	-9.74196
▁28	-9.74309
വിരുദ്ധ	-9.74344
ഹൃദ	-9.74388
ിക്കപ്പെട	-9.7446
▁വലതു	-9.7453
ക്കാനുള്ള	-9.74539
▁ആവശ്യമില്ല	-9.74552
▁യിസ്രായേല	-9.74636
ദര്‍ശ	-9.74715
▁മേൽ	-9.7472
▁മറ്റൊന്ന	-9.74733
▁an	-9.74765
▁ഗ്രഹ	-9.74768
▁നിഷേധിക്ക	-9.74858
▁വാക്ക	-9.74868
▁വാക്ക്	-9.7488
▁വെളി	-9.74888
▁അദ്ദേഹത്ത	-9.74901
ുകളാണ്	-9.74931
ഘടന	-9.74938
▁താള	-9.74943
▁നദി	-9.74997
▁പിന്നീട	-9.75018
▁പെരു	-9.75023
▁നടത്തുന്ന	-9.75149
▁വ്യവസ്ഥ	-9.75211
ക്കാരെ	-9.75299
ചെ	-9.75368
▁പീ	-9.75386
▁നവ	-9.75392
▁അഹ	-9.75396
▁me	-9.75444
▁മുന്‍പ	-9.75546
The	-9.75569
▁ക്ഷേത്ര	-9.75573
ിച്ചിരുന്ന	-9.75583
▁കരയ	-9.75632
▁മരുന്നു	-9.75661
േഷ	-9.75677
േണ്ടതില്ല	-9.75733
തിനെപ്പറ്റി	-9.75742
▁വെച്ച്	-9.75799
▁പ്രധാനപ്പെട്ട	-9.75887
▁കുറയ	-9.75965
▁pro	-9.75989
▁ചിലപ്പോള്‍	-9.7599
▁ക്ഷ	-9.76009
▁മഹത്തായ	-9.7601
ഭക്ത	-9.76046
▁സേവനം	-9.76091
▁യോഗ	-9.76199
വശ	-9.76277
=	-9.76298
രോഗ	-9.76306
▁സംസാരിച്ച	-9.76349
▁നമ്മളെ	-9.76374
Name	-9.76432
ഢ	-9.76447
▁വിപണി	-9.76463
▁co	-9.76504
▁സൌ	-9.76507
‘	-9.76543
▁പക്ഷി	-9.76563
▁നീണ്ട	-9.76569
മാണു	-9.76591
▁അയക്ക	-9.76659
act	-9.76683
ക്കുവേണ്ടി	-9.76719
▁(2	-9.7674
വൈ	-9.76746
ആര	-9.76796
റിന്റെ	-9.76801
▁are	-9.76802
ാണെങ്കിൽ	-9.76908
▁എന്നറിയ	-9.76921
വെച്ചു	-9.76974
▁ലോകത്ത്	-9.77031
യാഗ	-9.77035
ൊരിക്കലും	-9.77059
▁ആഗ്രഹം	-9.77087
ങ്ങളിലേക്ക	-9.77123
▁ഓർമ്മ	-9.77134
▁!!	-9.77201
▁സുന്ദര	-9.77229
▁മന്ത്രവാദ	-9.77229
▁ഓർക്ക	-9.77262
▁വാതില	-9.77263
▁Th	-9.77292
ിലധികം	-9.77332
ലൊ	-9.77342
▁ജയില	-9.77508
▁so	-9.77617
യൊന്നും	-9.7771
▁ഉയര്‍ത്ത	-9.77719
▁ശേഷി	-9.77744
▁തള	-9.7775
അല്ല	-9.77773
▁ദ്വീപ	-9.77789
▁അനുഭവം	-9.77802
തിന്‍റെ	-9.77864
പ്രതി	-9.77871
നുഭവ	-9.7795
▁രണ്ടാമത്തെ	-9.78032
ph	-9.78115
▁കണ്ടെത്തി	-9.78165
▁രണ്ടുപേര	-9.78165
▁കഴുക	-9.78176
▁26	-9.78251
▁പ്രശസ്ത	-9.78264
▁എന്നോടു	-9.78271
37	-9.78294
ടിച്ചു	-9.78352
▁കുടുംബം	-9.78368
▁ആലോചിച്ച	-9.78379
▁ഞങ്ങൾക്ക്	-9.78493
▁ആശ്രയ	-9.7853
38	-9.78553
എനിക്ക്	-9.78565
▁ആവശ്യമായ	-9.78603
കുമാര	-9.78612
പ്പിച്ച	-9.78615
▁വണ്ടി	-9.78623
നാള്‍	-9.78732
▁എയർ	-9.78739
▁ജനാധിപത്യ	-9.78799
▁പ്രഖ്യാപിച്ച	-9.78799
▁ആണോ	-9.788
▁Next	-9.78842
താപ	-9.78844
▁സര്‍	-9.78851
െന്നെ	-9.7895
▁ജില്ല	-9.78965
േഷന	-9.78965
po	-9.79005
3)	-9.79025
▁വെളിച്ചം	-9.7904
▁ഹേ	-9.79082
ശ്ശ	-9.79099
▁തുടര്‍ന്ന്	-9.79109
mm	-9.79146
െണ്ണ	-9.79169
▁സമുദായ	-9.79191
▁പിടികൂട	-9.79198
▁സമര	-9.79228
▁27	-9.79233
▁വിദ്യാർത്ഥി	-9.79265
▁പെരുമാറ	-9.79285
ിനെതിരെ	-9.79293
ങ്കില	-9.79349
▁ഇരട്ട	-9.79381
▁കരുതുന്നു	-9.7939
ബെ	-9.79415
ക്കൊണ്ടു	-9.79433
▁You	-9.79449
▁മൂല്യ	-9.79523
▁വിശ്വാസികള	-9.79537
per	-9.79623
ബാധ	-9.79641
കളുമായി	-9.79692
▁കാണുന്നില്ല	-9.79696
▁സംബന്ധിച്ച്	-9.79723
ak	-9.79751
▁2019	-9.79823
▁ആരെയും	-9.79869
▁ദുര്‍	-9.79874
▁ഇതെല്ലാം	-9.79885
ക്കാരുടെ	-9.79891
▁വയ്ക്ക	-9.79907
▁കാര്‍	-9.79943
ിലേറെ	-9.79972
ഴ്സ	-9.79996
▁അതിലെ	-9.80001
ഹോ	-9.80026
ക്കാൾ	-9.80103
▁സ്ത്രീകള	-9.80145
സ്ഥല	-9.80166
യായും	-9.80167
▁ഉൾ	-9.80202
▁പാര്‍ട്ടി	-9.80262
കളഞ്ഞു	-9.80339
താണു	-9.8041
▁തുട	-9.8042
റ്ററ	-9.805
▁സ്നേഹിക്ക	-9.80511
▁പ്രയോഗ	-9.80547
▁നൽകുന്നു	-9.80569
▁പുറമെ	-9.80605
▁തീവ്ര	-9.80615
▁ഒരിക്കല്‍	-9.80645
▁കൊണ്ടുവന്ന	-9.80668
▁പിതാവ്	-9.80852
ുകാരന	-9.80864
▁നിലവാര	-9.80888
▁ശ്രമിച്ച	-9.80926
▁പരിഹരിക്ക	-9.8098
ുന്നതിനെ	-9.8106
▁ഭാരം	-9.81061
▁ഉന്നത	-9.81116
യ്ക്കുന്ന	-9.81197
▁ദുരന്ത	-9.81226
▁ഉദ്	-9.81251
▁വീടുകള	-9.81254
▁നുണ	-9.81267
ത്തിനെ	-9.81272
ില്ലല്ലോ	-9.81295
ുമെന്നും	-9.8135
▁കൃത്യമായി	-9.81353
▁മനുഷ്യന്റെ	-9.81362
ിച്ചാല്‍	-9.81368
▁സ്റ്റാ	-9.81388
ോടുകൂടെ	-9.81443
▁പ്രാര്‍ത്ഥിക്ക	-9.81467
▁നഷ്ടപ്പെട	-9.81469
സങ്കീ	-9.81478
▁നിറം	-9.81488
▁മീന	-9.81519
▁മാതാപിതാക്കള	-9.81562
▁ഇന്റ	-9.81563
▁ഡോക്ടർ	-9.81572
▁ആരു	-9.81577
▁അന്ത്യ	-9.81598
ുമുള്ള	-9.81663
▁രണ്ടാ	-9.81668
▁തട്ടി	-9.81702
▁ഉമ്മ	-9.81715
▁കള്ളം	-9.81793
ക്കാരി	-9.81817
െക്കാള്‍	-9.8183
▁സ്വാധീന	-9.81863
▁വയസ	-9.81941
ങ്ങളായ	-9.81967
▁പറഞ്ഞാല്‍	-9.82023
▁വരാം	-9.8205
▁വീട്ടില	-9.82075
കഥ	-9.82125
▁ഇല്ലാത്ത	-9.82135
▁Previous	-9.82298
ub	-9.82356
▁നിന്നാണ്	-9.82363
ക്കഴിഞ്ഞ	-9.8238
▁ദൃഷ്ടാന്ത	-9.82402
▁സത്യനിഷേധികള	-9.82457
▁അധ്യാപക	-9.82493
▁മനോഹര	-9.82527
▁വ്യവസായ	-9.82554
▁വിശ്വസിക്കുകയും	-9.82573
െന്ത്	-9.82584
▁വസ്തുക്കള	-9.826
▁ആയുധ	-9.82614
▁ഡാറ്റ	-9.82619
▁അക്കൗണ്ട	-9.82623
▁തിരഞ്ഞെടുത്ത	-9.82675
▁ഇഷ്ടം	-9.82689
▁എനിക്കറിയാം	-9.82699
▁സൃഷ്ടിച്ചു	-9.82713
▁കണ്ടില്ല	-9.82718
▁അവന്നു	-9.82734
▁സമാ	-9.82793
ice	-9.82798
ിരി	-9.82852
മതി	-9.82855
▁ഭര്‍ത്താവ	-9.82901
▁കെട്ടിട	-9.82979
▁കൈകാര്യം	-9.82993
▁കാലത്ത്	-9.83
▁പൊട്ടി	-9.8302
ib	-9.83052
▁പരമാവധി	-9.83113
▁മലയാളി	-9.83113
ാമെന്ന	-9.83166
▁പരിധി	-9.83207
▁അധ	-9.83221
▁നേതാവ	-9.83251
പ്പൊ	-9.83338
ബൈ	-9.83355
ന്ധ	-9.83356
▁പൊടി	-9.8344
▁മനുഷ്യൻ	-9.83454
ായിരിക്കാം	-9.83473
▁ഇന്ത്യൻ	-9.83497
▁നേര്‍	-9.83508
റ്റിക്	-9.83537
▁പുരുഷന്മാര	-9.83589
▁ഒട്ടും	-9.83606
ക്കാണ	-9.83652
▁അക്ഷര	-9.837
24	-9.83804
▁സൂചന	-9.83813
ഷ്ണ	-9.8387
▁കവി	-9.83895
▁വാക്കുകൾ	-9.83921
▁അധി	-9.83954
▁ഒന്നാണ്	-9.84055
▁അവിടുന്ന്	-9.84081
▁പ്രപഞ്ച	-9.84088
ടിച്ച	-9.8414
▁കെട്ടി	-9.84203
ke	-9.84212
▁അറിയുക	-9.84393
▁അങ്ങ്	-9.84422
▁സ്ഥാപിക്ക	-9.84456
ുള്ളതാണ്	-9.84494
▁സന്ദേശ	-9.84534
▁തന്ത്ര	-9.84571
ci	-9.84664
ൈൻ	-9.84672
കെട്ട	-9.84708
av	-9.8471
▁വലിയൊരു	-9.84714
ie	-9.84727
ങ്ങളുമ	-9.84737
നോട്	-9.84754
▁or	-9.84772
▁മൂല	-9.84793
—	-9.84824
▁നടപ്പാക്ക	-9.84921
▁അറിയിച്ചു	-9.84932
▁2015	-9.84965
▁നഗരം	-9.84967
ാകുന്ന	-9.84987
വര്‍ക്കും	-9.85024
▁ഫെ	-9.85038
▁മകന്‍	-9.85048
വയ്ക്ക	-9.85056
േണ്ടതിന്നു	-9.85061
▁ദാവീദ	-9.85133
ള്ളി	-9.85162
ുന്നതിനും	-9.85211
േല്‍പ	-9.85286
▁മുന്നില്‍	-9.85309
ക്കൊണ്ട	-9.8531
▁സാറ	-9.85362
▁നേതൃത്വ	-9.8538
▁your	-9.85403
പിടിച്ച	-9.85432
▁́	-9.85447
▁സ്ഥാനം	-9.85466
ദ്ദേശ	-9.85498
ികളായ	-9.855
▁60	-9.8552
ust	-9.85537
▁സൂര്യന	-9.85551
ിലായി	-9.85593
യാണെന്ന	-9.85636
പാദ	-9.85641
▁ചെന്നു	-9.85672
▁സംഭവിക്കുന്ന	-9.85789
മായിരിക്ക	-9.85792
▁പൊലീസ	-9.85805
▁ശത്രുക്കള	-9.85838
ber	-9.8588
?''	-9.85922
▁സ്വപ്നം	-9.85932
ശീല	-9.85933
തെങ്ങനെ	-9.85936
ence	-9.86
!"	-9.86015
der	-9.86152
തെന്നും	-9.8618
▁കൂള	-9.86214
ുകാർ	-9.8624
ail	-9.86265
ലുകള്‍	-9.86273
വാസികള	-9.86287
ര്‍ഹ	-9.86291
ീരിയ	-9.86414
▁സംസ്	-9.86431
▁സ്ഥാപന	-9.86467
▁വ്യത്യാസം	-9.86481
▁സൗജന്യ	-9.86549
ബ്ബ	-9.86556
me	-9.8657
യുണ്ട	-9.86604
▁ചെയ്താല്‍	-9.86616
ില്ലാതെ	-9.86654
▁പൂർണ്ണ	-9.8677
▁മേല	-9.86892
മെന്റ	-9.86899
▁സംവിധാന	-9.869
▁രക്തം	-9.86903
ന്നെ	-9.86938
▁എന്തുകൊണ്ടാണ്	-9.86938
▁ചിലപ്പോൾ	-9.8694
▁ആര്	-9.86945
വർത്തി	-9.86959
ക്കാലം	-9.87
▁മണ	-9.87017
▁ക്രിസ്തു	-9.87096
▁പകല	-9.87115
▁വെറുക്ക	-9.87187
െടുപ്പ	-9.87192
▁എൽ	-9.87198
▁വിഭാഗം	-9.8721
▁പരിഗണിക്ക	-9.8721
▁we	-9.87211
േണ്ടതാണ്	-9.87317
ങ്ങോട്ട	-9.87346
കളോ	-9.87367
ന്തു	-9.87514
▁മറന്ന	-9.87531
മൊഴി	-9.87661
ാഴ്	-9.8768
▁മൊബൈൽ	-9.877
▁ചെവി	-9.87731
▁സര്‍ക്കാര	-9.87917
ത്രി	-9.88
കിട്ട	-9.88002
▁പണ്ട	-9.8802
ധാര	-9.8805
▁ദാസ	-9.88109
▁പഠനം	-9.88145
ങ്ങളുണ്ട	-9.88148
▁പുനര	-9.88166
▁ലക്ഷം	-9.88229
▁2017	-9.88337
കൃഷ്ണ	-9.88341
▁തിരഞ്ഞെടുപ്പ	-9.88416
▁കമന്റ	-9.88431
▁പാപം	-9.885
▁എന്തിന	-9.88567
▁പ്രാവശ്യം	-9.88595
▁നൽകി	-9.88618
▁ആവശ്യപ്പെട്ട	-9.88629
▁ഷെ	-9.88631
▁തന്നെയാണ	-9.88668
▁വികസന	-9.88689
▁സൂക്ഷിക്കുക	-9.88694
▁തലമുറ	-9.88722
22	-9.88744
എല്ലാ	-9.8875
ian	-9.88757
▁സൗകര്യ	-9.88769
ർത്ഥ	-9.88775
▁പിന്നാലെ	-9.88785
▁സുരക്ഷ	-9.88786
മില്ലാതെ	-9.88879
ുന്നവരെ	-9.88914
▁അങ്ങയുടെ	-9.88917
ll	-9.88928
ത്തെപ്പറ്റി	-9.88951
▁ലഭിച്ചു	-9.88979
▁പരമ	-9.89019
ുന്നവര്‍ക്ക്	-9.8905
ord	-9.89065
▁Ma	-9.89067
ാകണം	-9.89099
ഞ്ജ	-9.89168
പരമായി	-9.89223
ഃ	-9.89227
▁കാർഡ്	-9.89252
▁അനുമതി	-9.89259
▁ധരിച്ച	-9.89294
മിക	-9.89302
▁ഉപയോഗിക്കുന്നു	-9.89316
▁ഒന്നാം	-9.89346
21	-9.89392
▁വിധേയ	-9.89412
▁അതിനുള്ള	-9.89425
ത്തരം	-9.89428
▁സീറ്റ	-9.89431
="1	-9.8947
▁ചെലവഴിക്ക	-9.89485
ജെ	-9.89513
▁ജനങ്ങളെ	-9.89583
▁കിട്ടും	-9.89593
ide	-9.89606
ണമെങ്കില്‍	-9.89613
▁ഇല്ലാതെ	-9.89666
▁സ്വന്ത	-9.89666
▁ഇതുപോലെ	-9.89727
ുകയുമില്ല	-9.89769
▁തീരുമാനിച്ചു	-9.89814
▁അവസാനിക്ക	-9.89883
▁29	-9.899
ുന്നവരാണ്	-9.89925
▁വീണ	-9.89974
▁സാര	-9.89992
മണി	-9.9
39	-9.90007
▁ദാന	-9.90064
▁Y	-9.90144
ണ്ടാ	-9.90165
▁ലൈംഗിക	-9.90173
▁വെളുത്ത	-9.90222
▁ജനങ്ങളുടെ	-9.90232
▁ചോദിക്കുക	-9.90311
ക്കറിയാം	-9.90331
▁സ്വാതന്ത്ര്യ	-9.9036
▁പറ്റില്ല	-9.90365
▁ഉപേക്ഷിക്ക	-9.90433
ശേഷമ	-9.90435
േക്കാൾ	-9.90461
▁ക്വ	-9.90573
▁താങ്കള	-9.90598
▁വൈക	-9.90615
▁ബേ	-9.90651
▁സാങ്കേതിക	-9.90662
ുവെന്ന	-9.9069
▁രീതിയിൽ	-9.90715
▁കുട്ടികളുടെ	-9.90785
ോടി	-9.90787
▁അടച്ച	-9.90848
▁കഠിന	-9.9085
▁മുന്‍പ്	-9.90862
▁വിവരങ്ങള്‍	-9.90869
▁ആഹാരം	-9.90883
▁സ്തുതി	-9.90896
കരണ	-9.90924
ൈറ്റ്	-9.90961
48	-9.91037
▁പ്രണയം	-9.91048
▁സവിശേഷത	-9.91055
▁അനേകം	-9.91058
യാത്ര	-9.91075
▁അനുഗ്രഹം	-9.91135
hi	-9.91184
▁ശ്രദ്ധിക്കുക	-9.91185
ിയാല്‍	-9.91262
▁പുത്രന	-9.9129
▁നിലയില്‍	-9.91375
▁കണ്ടെത്തിയ	-9.91395
▁അറബി	-9.91407
ാന്തര	-9.91481
▁വഹിക്ക	-9.91547
രാജ്യ	-9.91561
▁പൂച്ച	-9.91594
▁രുചി	-9.91598
60	-9.91653
▁പ്രവേശിക്ക	-9.91663
▁മന്ത്രി	-9.91694
▁നോക്കാം	-9.91697
▁ഒരാളെ	-9.91748
▁ഭംഗി	-9.91765
സഹായ	-9.91783
▁രാജ്യത്തെ	-9.91833
end	-9.9185
▁നീക്കം	-9.91878
able	-9.91911
▁കോട്ട	-9.91922
▁വ്യാപാര	-9.91925
▁ഞെട്ട	-9.91926
ാകാന്‍	-9.91992
ബിൾ	-9.92078
▁നിങ്ങൾക്കു	-9.9208
▁@	-9.92103
അവര്‍	-9.92134
ചെയ്യുന്ന	-9.92156
▁ഹോട്ടല	-9.92171
ശക്തി	-9.92226
ാലു	-9.92232
▁മുന്നോട്ടു	-9.92242
▁മൊത്തം	-9.92284
വിശ്വസ	-9.92292
▁ദേഷ്യ	-9.92359
▁സത്യസന്ധ	-9.92508
ുമാകുന്നു	-9.92509
ാര്‍ഥ	-9.92531
ഥാ	-9.92638
▁ഇബ്	-9.92657
▁ശമ്പള	-9.92676
▁from	-9.92741
േഴ്സ്	-9.92768
▁കുറ്റം	-9.92787
▁ദൃഷ്ടാന്തങ്ങള	-9.9281
▁ഫയല	-9.92823
▁നൽകുന്ന	-9.92836
▁ലളിത	-9.92841
▁എല്ലാവർക്കും	-9.92876
▁കഠിനമായ	-9.92883
പാല	-9.929
▁ട്രെയിൻ	-9.9294
▁തികച്ചും	-9.92958
▁ഒടുവിൽ	-9.92975
▁വസ്ത്രം	-9.92977
▁സജീവ	-9.93035
സാഹ	-9.93037
▁ഉണര	-9.93072
ശ്വാസ	-9.93147
കളിലൂടെ	-9.93153
ell	-9.93174
▁ഒടുവില്‍	-9.93193
▁കാത്തു	-9.93216
ang	-9.9322
▁കൊച്ചു	-9.93252
▁പച്ച	-9.93256
▁മലക്കുകള	-9.93402
ുകൊണ്ടിരിക്കുന്ന	-9.9341
▁പ്രത്യക്ഷ	-9.93506
▁തെറ്റായ	-9.93568
▁മാർ	-9.93611
▁വിദ്യ	-9.93756
▁ദൈവമേ	-9.93796
+	-9.93809
tic	-9.93865
▁ആശംസ	-9.939
▁വിശ്വസിക്കുന്നു	-9.93965
വസാന	-9.94028
▁പിന്ത	-9.94087
▁വരൂ	-9.94112
▁കോപ	-9.94178
ുകൊടുക്ക	-9.94236
▁ശൂന്യ	-9.94256
▁സഹോദരി	-9.94278
▁കത്തി	-9.94296
ബല	-9.94434
▁മുകളില	-9.9444
നിര്‍ദേശ	-9.94443
ഡർ	-9.94451
▁അടിച്ച	-9.94507
▁No	-9.94515
താണെന്ന്	-9.94516
▁ഉൽപ്പന്ന	-9.94536
▁വേഗത	-9.94538
ജ്ഞാന	-9.94553
ങ്ങളെല്ലാം	-9.94556
▁താഴ	-9.94559
▁വസ്തുത	-9.94564
▁ഓൺലൈൻ	-9.94593
▁മുമ്പില്‍	-9.9462
▁കൃത്യമായ	-9.94649
▁ശ്രമിക്കുന്ന	-9.94805
▁പാപങ്ങള്‍	-9.94822
▁നല്‍കും	-9.94828
ory	-9.94861
പ്പെട്ടത്	-9.94866
▁മാപ്പ	-9.94869
കുല	-9.94874
ുണ്ടാക്കിയ	-9.94885
▁ദുര	-9.94904
▁ഉയിര്‍ത്തെഴുന്ന	-9.94917
ഷണം	-9.94952
▁Con	-9.94996
▁നാട്ടില്‍	-9.95009
▁അമിത	-9.95045
▁ഇല	-9.95093
യാകും	-9.951
ud	-9.95126
വിള	-9.95136
കൃത്യ	-9.95166
▁പരിമിത	-9.95197
▁ഭർത്താവ	-9.95224
4)	-9.95226
ace	-9.95236
▁വീണു	-9.95275
▁കൊണ്ടാണ്	-9.95278
*	-9.95296
മായിരുന്ന	-9.95298
യിലേക്കു	-9.95347
▁നേതാക്കള	-9.95408
േയുള്ളൂ	-9.95482
ran	-9.95511
▁എത്രയോ	-9.95512
ദൂ	-9.9556
▁മറ്റുള്ളവരെ	-9.95562
▁കാര്യമാണ്	-9.95611
▁വിലയിരുത്ത	-9.95652
▁വിശ്രമ	-9.95672
ക്കാലത്ത്	-9.95713
വിധി	-9.9575
ായിരുന്നോ	-9.95776
▁സൈനിക	-9.95828
ru	-9.9585
▁രോഗം	-9.95862
▁ഓര്‍ക്ക	-9.9596
▁Ar	-9.95986
▁മീറ്റ	-9.95997
ങ	-9.96008
▁അതോടെ	-9.96045
▁ജീവിതത്തിൽ	-9.96091
▁മറ്റേ	-9.96098
▁ആലോചിക്ക	-9.96117
▁ചിലർ	-9.962
മനുഷ്യ	-9.96228
▁തരാം	-9.96262
▁എപ്പോഴ	-9.96276
ുണ്ടെങ്കിൽ	-9.96281
▁ക്രൂര	-9.96299
▁സൂക്ഷ്മ	-9.96372
▁ജീവന്‍	-9.96389
▁അപമാന	-9.96398
മെന്ന്	-9.9642
▁Al	-9.96434
ുന്നുവെങ്കില്‍	-9.96451
▁ദുരിത	-9.96473
ുകയാണെങ്കിൽ	-9.96529
കാലത്ത്	-9.96548
▁തെളിയിക്ക	-9.96605
▁ക്രിസ്തുവ	-9.96625
▁സമ്പത്ത	-9.9663
മിട	-9.96691
▁ദൃശ്യ	-9.96706
▁ബോട്ട	-9.96746
75	-9.96747
▁അമ്പ	-9.96782
▁അറിയുന്നില്ല	-9.96798
▁നിന്നോട്	-9.96853
വശത്ത	-9.96856
`	-9.96861
▁സാധാരണയായി	-9.96892
ാർത്ഥ	-9.96931
▁ശിക്ഷിക്ക	-9.96932
▁തണുപ്പ	-9.96949
ുന്നതെന്ന്	-9.96964
ന്ത്യ	-9.96964
▁കൃത്യ	-9.97021
▁പൊറുക്കുന്നവനും	-9.97046
▁സംഗതി	-9.97078
ical	-9.97119
▁വെച്ചു	-9.97121
▁പേടിക്ക	-9.97125
മുണ്ടായിരുന്നു	-9.97178
–	-9.97193
▁അറിഞ്ഞു	-9.97205
▁un	-9.97222
▁name	-9.97246
▁തനിക്ക	-9.97393
▁നിശ്ചയിച്ച	-9.97555
▁നിശ്ചിത	-9.97612
40	-9.97656
▁ശ്രമിച്ചു	-9.97664
▁വേണോ	-9.97665
▁ചെയ്യേണ്ട	-9.97666
ുണ്ടായി	-9.97743
▁മാംസ	-9.97747
ome	-9.97754
▁മക്കളെ	-9.97796
▁കഴിഞ്ഞില്ല	-9.97821
ുന്നതിനായി	-9.97837
സമയം	-9.97841
▁എഴുന്ന	-9.97855
യാക്കി	-9.97882
▁അറിയാമോ	-9.97894
▁തരത്തിലുള്ള	-9.97898
ധികം	-9.97953
▁ഇറങ്ങ	-9.98007
▁അനുഭവിക്ക	-9.9801
▁തൃപ്തി	-9.98051
▁കോള	-9.98071
▁ചൊല്ല	-9.98158
▁തെരഞ്ഞെടുക്ക	-9.98209
▁സർക്കാർ	-9.98219
▁ശത്രു	-9.98246
നിൽക്ക	-9.98264
ുന്നുവെന്ന	-9.9829
വസ്തു	-9.98311
▁(19	-9.98312
▁മണിക്കൂർ	-9.9835
▁പതുക്കെ	-9.98368
▁തീര്‍ച്ച	-9.98412
മാരും	-9.98446
▁ചോദിക്കുന്നു	-9.98555
▁ആസ്വദിക്ക	-9.9858
സ്റ്റർ	-9.98612
ക്കൊരു	-9.98725
ാവാം	-9.98864
▁ലളിതമായ	-9.98867
▁മാഷ	-9.9887
▁ബാഗ്	-9.98889
▁നേടി	-9.98929
▁വെട്ടി	-9.98943
▁സിസ്റ്റം	-9.98956
▁മുൻപ്	-9.99039
▁കാലാവസ്ഥ	-9.99073
ങ്ങളുടെയും	-9.99075
▁അടുക്ക	-9.99129
വെള്ള	-9.99143
▁സൂക്ഷിച്ച	-9.99207
▁2014	-9.99213
▁ഗ്രൂപ്പ	-9.99218
വാര	-9.99224
ുകയുള്ളൂ	-9.99294
▁സര്‍വ്വ	-9.99318
▁ma	-9.99341
ബോർഡ	-9.99343
▁[...]	-9.99396
▁ഉപദേശം	-9.99398
▁ഹിന്ദു	-9.994
▁തോട്ട	-9.9941
ദിവസം	-9.99419
ame	-9.9944
നിഷേധ	-9.99441
റ്റര്‍	-9.99455
▁ഫോണ്‍	-9.99457
കളായ	-9.99471
ോളൂ	-9.99475
65	-9.99483
▁കിടന്ന	-9.9952
▁ഭൂമിയുടെ	-9.99522
▁ചീ	-9.99555
▁വാങ്ങിയ	-9.99602
▁കൊന്ന	-9.99605
ance	-9.99669
▁അനുവദിച്ച	-9.99682
▁വിഷ	-9.99688
90	-9.99754
▁ഷൂ	-9.9978
ുമായുള്ള	-9.99878
ുന്നതിന	-9.99916
ൊന്നുമല്ല	-9.99966
▁വിപ്ലവ	-9.99968
കിട	-10.0008
▁ദിവസത്തെ	-10.0013
▁പ്രായം	-10.0014
ർത്തി	-10.0016
ുന്നതല്ല	-10.0017
▁ഇഷ്ടപ്പെട്ട	-10.002
കൂട്ടി	-10.0021
▁യഥാര്‍ഥ	-10.0022
▁തെരുവ	-10.0027
▁ലിം	-10.0031
▁ഉറപ്പാക്ക	-10.0032
▁സമുദ്ര	-10.0035
ുണ്ടായിരുന്നില്ല	-10.004
▁കാശ	-10.0046
▁വിഭവ	-10.0046
ര്‍ജ	-10.0054
ന്ഗ്	-10.0056
ാണുള്ളത്	-10.006
മൊന്നും	-10.0066
▁പുരോഹിത	-10.0067
▁ഉടൻ	-10.0067
യോഹ	-10.0069
▁ഒരുപക്ഷേ	-10.0072
▁അതേസമയം	-10.0072
▁ശ്രദ്ധിച്ച	-10.0076
▁സാമൂഹിക	-10.0078
▁രസകരമായ	-10.008
▁ചന്ദ്രന	-10.0088
▁കാലഘട്ട	-10.01
വേള	-10.0102
പെടുത്ത	-10.0105
▁ചർച്ച	-10.0107
പ്പുറം	-10.0122
▁ഫൈ	-10.0124
▁വിശദീകരിക്ക	-10.0125
▁കപ്പല	-10.0127
▁su	-10.0127
▁രാവ	-10.013
▁എന്തിന്	-10.0132
വല്ലോ	-10.0132
മാണെന്നു	-10.0135
▁മറ്റൊരാള	-10.0136
▁go	-10.0142
ങ്ങളേ	-10.0145
▁ചെയ്തിരുന്നു	-10.0147
▁സത്യത്തില്‍	-10.0147
▁റസൂല	-10.0149
ങ്ങളുമായി	-10.015
▁ടീം	-10.0154
47	-10.0155
▁വലിച്ച	-10.016
▁വെബ്സൈറ്റ	-10.0165
▁പറയുകയും	-10.0169
▁നിങ്ങളും	-10.0169
▁31	-10.017
▁പ്രതികരിക്ക	-10.0178
▁ഇപ്പൊ	-10.0178
താകുന്നു	-10.0181
▁ചായ	-10.019
▁മൂലം	-10.0192
ോട്ടു	-10.0207
ാറു	-10.0208
ുമെന്നു	-10.021
ഷന്‍	-10.0214
▁താളിൽ	-10.022
ാരും	-10.0223
▁വിതരണക്കാർ	-10.0223
▁മുകളിൽ	-10.0227
▁സാക്ഷ്യം	-10.023
▁തരും	-10.0232
മക്കള	-10.0236
ase	-10.0239
-1	-10.0241
▁കിട	-10.0242
▁ഇരുപത	-10.0243
▁തിരുത്ത	-10.0248
▁വ്യത്യസ്തമായ	-10.0255
▁ഒപ്പ	-10.0257
ത്തിലേ	-10.0259
ാധിപ	-10.0261
▁എന്തിനാ	-10.0262
ുണ്ടല്ലോ	-10.0262
▁വരുമാന	-10.027
▁ഉയര്‍ന്ന	-10.0274
വിന്‍റെ	-10.0274
▁Post	-10.0275
▁അറിവ്	-10.0275
▁ആരംഭിച്ച	-10.0277
ik	-10.0278
െടുത്ത്	-10.0283
28	-10.0284
▁വിതരണം	-10.0286
▁വിരല	-10.0288
യില്ലാത്ത	-10.0293
റുക്ക	-10.0295
ല്ലാവരും	-10.0298
▁ഉപേക്ഷിച്ച	-10.0301
▁Se	-10.0307
▁വിശ്വാസി	-10.0308
▁ബാധ്യത	-10.0308
▁നേരിട്ട്	-10.0314
▁എഫ്	-10.0314
▁that	-10.0314
▁താങ്കള്‍ക്ക്	-10.0315
മെങ്കിലും	-10.0319
▁സംഗീതം	-10.0321
▁sa	-10.0322
▁പ്രസവ	-10.033
▁സത്യനിഷേധികള്‍	-10.033
▁സഹായിച്ച	-10.033
▁എനിക്കൊരു	-10.0343
ake	-10.0344
▁പറഞ്ഞതു	-10.0345
▁വെല്ലുവിളി	-10.0345
▁പുരുഷന	-10.0347
യായിരുന്ന	-10.035
▁കണ്ടുമുട്ട	-10.0351
▁സമരം	-10.0355
▁വിളി	-10.0355
▁റിപ്പോര്‍ട്ട	-10.0356
ങ്കല	-10.0359
▁മുമ്പത്തെ	-10.036
▁സ്ത്രീകൾ	-10.0366
▁നശിപ്പിച്ച	-10.0369
▁ഉണ്ടാക്കി	-10.0374
▁തൃ	-10.0378
49	-10.0391
▁ജൂലൈ	-10.0392
ുമല്ലോ	-10.0419
▁പൂര്‍ണ	-10.042
ary	-10.0422
മുള്ളവര	-10.0425
▁ആഗ്രഹിക്ക	-10.0426
▁ചേ	-10.0431
▁പാവം	-10.0433
▁താരതമ്യ	-10.0442
▁പൗര	-10.0443
5)	-10.0445
▁വ്യക്തമായി	-10.0453
വനാകുന്നു	-10.0453
▁മനുഷ്യരെ	-10.0462
▁2013	-10.0466
▁ആരംഭിച്ചു	-10.0467
▁ഒരിക്കൽ	-10.0469
▁ദൈവമായ	-10.047
ദേവ	-10.0472
▁ചെല്ല	-10.0473
ite	-10.0473
▁പാപമോചനം	-10.0481
നൂറ	-10.0482
ക്കേട	-10.0486
▁ഉണ്ടെന്ന	-10.0487
▁റിപ്പോർട്ട	-10.0487
▁കഥാപാത്ര	-10.0489
▁ചേട്ട	-10.0491
ങ്ങളിലൂടെ	-10.0492
▁ഫെബ്രുവരി	-10.0499
▁ശീല	-10.05
▁ഉണ്ടാക്കിയ	-10.0501
▁തടവ	-10.0506
ഭരണ	-10.0507
▁എന്‍	-10.051
▁ഏതാണ്ട്	-10.051
▁ഇതോടെ	-10.0518
▁പ്രധാനമാണ്	-10.0518
▁ഇഷ്	-10.052
▁തള്ള	-10.052
ഫെ	-10.0521
▁ബൈബിള	-10.0522
ാവുകയും	-10.0525
cl	-10.0526
▁മനസ്സില്‍	-10.0527
ീഷ	-10.0528
day	-10.0542
▁ലിങ്ക	-10.0546
എൻ	-10.0546
▁പിന്നെയും	-10.0548
▁അവനോട്	-10.055
▁വടക്ക	-10.0553
bo	-10.0553
IN	-10.0556
▁മറ്റാര	-10.0559
▁സ്വാഭാവിക	-10.0561
നിമിത്തം	-10.0561
യെക്കുറിച്ച്	-10.0564
▁സന്ദര്‍ഭം	-10.0572
മനസ്	-10.0574
="2	-10.0577
▁മോശം	-10.0594
▁തിരിച്ചുവിട്ട	-10.0596
▁തൊട	-10.0597
കള്‍ക്കും	-10.0597
▁ചിന്തിച്ച	-10.06
▁പ്രസിഡന്റ	-10.0601
▁സ്ഥാപിച്ച	-10.0601
ob	-10.0609
▁ചന്ദ്ര	-10.0612
▁this	-10.0613
▁കഴിയുമോ	-10.0613
86	-10.0617
▁വെബ്	-10.0619
▁തുടർന്ന്	-10.062
▁മുൻപ	-10.0624
▁മക്കള്‍	-10.0629
ുമ്പോഴും	-10.0633
യ്ക്കുക	-10.0654
▁ചുമതല	-10.0658
▁അടക്ക	-10.0659
▁മുറിവ	-10.0662
കൈ	-10.0663
▁കാസിനോ	-10.0666
▁ചേർക്ക	-10.0669
▁പെട്ടെന്ന	-10.0671
▁മാതാവ	-10.0673
27	-10.0676
ട്രി	-10.0676
▁അക്രമി	-10.0678
ിങ്ങ്	-10.0683
▁അനുകൂല	-10.0683
ിറങ്ങി	-10.0685
▁പറയൂ	-10.0688
▁കഴിയാത്ത	-10.0692
ാകുന്നത്	-10.0699
ക്കാള്‍	-10.0705
▁ഈജിപ്	-10.0709
▁പ്രാപിക്ക	-10.0714
▁രംഗത്ത	-10.0715
▁പകര	-10.0722
ത്തിനിട	-10.073
പ്പുറത്ത	-10.0733
പാത	-10.0733
കളിലേക്ക്	-10.0735
▁തടസ്സ	-10.0739
▁90	-10.0743
▁നല്‍കുന്നു	-10.0746
▁ഔദ്യോഗിക	-10.0747
▁പുറത്തിറങ്ങ	-10.0748
▁ഒരുപോലെ	-10.0754
്യമ	-10.0754
ഗൃഹ	-10.0755
▁നിശ്ചയമായും	-10.0755
▁സുന്ദരി	-10.0759
ass	-10.0759
▁ചോദ്യങ്ങള്‍	-10.0765
▁ഉപയോഗിക്കുക	-10.0771
▁പൂജ	-10.0772
▁തെളിവുകള	-10.0774
െന്റ	-10.0775
▁ഇപ്പോ	-10.0775
▁പ്രതീക്ഷിച്ച	-10.0778
▁നൃത്ത	-10.0782
▁കേസ്	-10.0786
▁നാട്ടുകാര	-10.0786
▁ആരാധിക്ക	-10.0789
▁ക്യാമറ	-10.0794
▁തെളിയ	-10.0796
les	-10.0797
ധിക	-10.0798
ുവാനുള്ള	-10.0799
▁ഇന്‍	-10.08
▁അവസാനത്തെ	-10.0801
കൊണ്ടിരുന്നു	-10.0801
ലുകള	-10.0804
▁സ്വാതന്ത്ര്യം	-10.0804
▁ബോധ്യ	-10.0813
ിരിക്കണം	-10.0819
▁ദരിദ്ര	-10.0821
ിപ്പിക്കുകയും	-10.0829
കൊടുത്തു	-10.0836
▁സഹായിക്കുന്നു	-10.0837
പ്രകാരമ	-10.0839
▁ചോദ്യങ്ങൾ	-10.0839
▁ഇറക്ക	-10.0839
▁ജീവി	-10.0841
▁ഭവന	-10.0846
▁അതിഥി	-10.0846
▁നാഥാ	-10.0847
ബറ	-10.0855
▁ഡോക്ടര്‍	-10.0856
▁മന്ത്ര	-10.0859
ുമെന്നാണ്	-10.0862
▁അർത്ഥ	-10.0868
▁ഉയർത്ത	-10.0871
▁ഉൽപ്പന്നങ്ങൾ	-10.0876
▁ഉട	-10.0879
▁മെച്ചപ്പെടുത്ത	-10.0879
▁ആത്മവിശ്വാസ	-10.0882
▁പ്രത്യേകത	-10.0884
▁ആയിരം	-10.0886
മായിരുന്നില്ല	-10.0886
▁ഷാ	-10.089
▁അല്ലാഹുവില്‍	-10.0891
▁തുടര്‍ന്നു	-10.0892
▁ശരിയാണ്	-10.0896
▁ലക്ഷ	-10.0897
▁വകുപ്പ	-10.0897
തായിരിക്കും	-10.0901
▁മധ്യ	-10.0902
▁അതൊക്കെ	-10.0904
26	-10.0907
▁അമ്മയുടെ	-10.0909
▁കിഴക്ക	-10.0912
▁ഇസ്രായേല	-10.0916
▁ex	-10.0926
മത്രെ	-10.093
▁പാപമോചന	-10.0931
ish	-10.094
യാവു	-10.0941
▁കുളി	-10.0946
ാമെന്ന്	-10.0947
▁പ്രാര്‍ഥിക്ക	-10.0948
▁ചെയ്യുകയും	-10.0951
▁മനസ്സിലാക	-10.0951
▁വളര്‍ത്ത	-10.0958
44	-10.096
▁ആശങ്ക	-10.0962
200	-10.0965
use	-10.0966
ാമല്ലോ	-10.0966
ക്കെട്ട	-10.0974
▁പ്രേമ	-10.0981
▁പൂര്‍ണ്ണ	-10.0981
▁കൊലപാതക	-10.0981
ook	-10.0986
▁താങ്കളെ	-10.0997
▁മിക്കവാറും	-10.1003
യാണിത്	-10.1004
ത്തേക്കു	-10.1013
▁പ്രക്രിയ	-10.1014
29	-10.1016
▁പശു	-10.1017
▁സംഭവിച്ചു	-10.1021
▁മുഴുവനും	-10.1023
▁നല്‍കുക	-10.1023
▁``	-10.1025
▁പുറത്താക്ക	-10.1026
മരണ	-10.1026
▁വനിത	-10.1028
▁തെരഞ്ഞെടുപ്പ	-10.1029
▁ഭാര	-10.1037
െങ്കിലോ	-10.104
▁ഉദാഹരണത്തിന്	-10.104
േലും	-10.1043
വര്‍ത്തിക്ക	-10.1046
ുമായിരുന്നില്ല	-10.1048
കരമാണ്	-10.1053
കൊടുത്ത	-10.1062
ress	-10.1063
▁പങ്കെടുക്ക	-10.1065
55	-10.1069
▁article	-10.1071
ക്കൊപ്പം	-10.1075
വിഭാഗ	-10.1075
-20	-10.1078
▁ബാങ്ക്	-10.1083
▁സംഖ്യ	-10.1084
▁ഉപകാര	-10.1087
▁2016	-10.1094
▁ചെയ്യരുത്	-10.1098
▁ഡ്ര	-10.1102
ഞങ്ങള്‍	-10.1103
▁പുറപ്പെട	-10.1103
▁നികുതി	-10.1105
▁പേജ	-10.1105
▁ഇരുന്നു	-10.1109
app	-10.1122
▁He	-10.1126
▁നേരിട്ട	-10.1139
▁ഇണ	-10.114
▁നേര്‍വഴി	-10.1147
▁തന്നെയാകുന്നു	-10.115
▁തീയതി	-10.1154
▁തനിക്ക്	-10.1156
▁പ്രസക്ത	-10.1157
▁കൂട്ടത്തില്‍	-10.1162
പ്പോയ	-10.1168
▁ഏര്‍	-10.1173
കളോട്	-10.1183
ാധി	-10.1184
ിറങ്ങ	-10.1184
▁സര്‍വ	-10.1185
▁ചിന്തിക്കുന്ന	-10.119
▁കുറഞ്ഞത്	-10.1193
▁വിവാദ	-10.1196
▁വേണ	-10.1197
രുതേ	-10.1198
▁ഇവര്‍ക്ക്	-10.12
▁രചന	-10.1212
െങ്ങനെ	-10.1216
▁ദുഷ്ട	-10.1217
▁നിഷേധിച്ചു	-10.1219
!!!	-10.1224
▁അടുപ്പ	-10.1226
▁അമ്മയെ	-10.1227
തിനേക്കാള്‍	-10.123
ുമൊക്കെ	-10.1233
▁സഞ്ചരിക്ക	-10.124
െയിൻ	-10.1243
▁ആവേശ	-10.1243
ുണ്ടെന്ന	-10.1246
▁നല്ലതാണ്	-10.1254
................	-10.1273
ിക്കളയ	-10.1274
▁യെഹൂദ	-10.1275
▁ഇമെയിൽ	-10.1277
▁റേ	-10.1281
ഭ്ര	-10.1282
▁അതുകൊണ്ടാണ്	-10.1286
ക്ഷേപ	-10.1287
പ്പോഴാണ്	-10.1288
▁നാഥന്റെ	-10.1289
▁അതിനുശേഷം	-10.1289
▁വര്‍ഷങ്ങള്‍	-10.129
▁വചനങ്ങള	-10.129
ിരുന്നുവെങ്കില്‍	-10.1296
▁ഇതിനായി	-10.1296
▁ഓര്‍ത്ത	-10.1298
▁പോകാം	-10.13
▁സാർ	-10.1304
▁നിലനിർത്ത	-10.1305
▁വിജയിക്ക	-10.1306
▁സംതൃപ്	-10.1319
▁ഡിസൈൻ	-10.133
▁ലക്ഷണ	-10.1332
▁ആത്മഹത്യ	-10.1334
▁കട്ട	-10.134
▁അറിയപ്പെടുന്ന	-10.1341
▁വിശപ്പ	-10.1343
▁ആരാധന	-10.1354
▁വിളിക്കുന്നു	-10.1364
▁കഴിച്ചു	-10.1364
▁ഗൗരവ	-10.1365
▁വാസ്തവ	-10.1373
port	-10.1375
▁സലാം	-10.1377
തവണ	-10.1379
▁ഇപ്പോഴത്തെ	-10.138
ര്‍ദ്ദ	-10.1381
തെങ്കില്‍	-10.1387
യാൾ	-10.1387
▁അനന്ത	-10.1388
▁രംഗ	-10.1388
▁മുഖ്യ	-10.139
▁എന്തിനു	-10.1391
▁വിനോദ	-10.1392
ില്ലെങ്കിൽ	-10.1393
ിലൊന്ന	-10.1397
ക്ഷൻ	-10.1404
▁ഗണ	-10.1405
▁ആഫ്രിക്ക	-10.1408
ാവൂ	-10.1408
own	-10.1408
ാറുള്ള	-10.1409
▁ജോൺ	-10.1415
▁പരീക്ഷിക്ക	-10.1415
▁വേര്‍	-10.1421
▁എനിക്കറിയില്ല	-10.1423
▁ആധുനിക	-10.1426
▁പോലീസ	-10.1431
ost	-10.1432
▁അത്യാവശ്യ	-10.1433
▁അഹങ്കാര	-10.1437
46	-10.1439
▁ദൈവത്തിന്‍റെ	-10.1442
▁പോകാൻ	-10.1447
▁തീരെ	-10.1451
▁ശുഭ	-10.1452
▁അഭയ	-10.1453
▁can	-10.1456
▁അസുഖ	-10.1462
▁കിട്ടുന്ന	-10.1462
8)	-10.1466
▁Pro	-10.1467
▁മനസ്സിലായ	-10.1468
▁ഒരുമിച്ചു	-10.1469
▁വച്ച്	-10.1473
▁അതിനായി	-10.1475
▁വിധത്തില	-10.1478
ൊഴികെ	-10.1481
ക്കാരന്‍	-10.1482
▁ബഹുമാന	-10.1484
▁കീഴ്	-10.1487
▁സങ്കട	-10.1489
െന്നോ	-10.149
▁പറഞ്ഞാൽ	-10.1501
ca	-10.151
▁അന്വേഷിച്ച	-10.1514
▁ജനസംഖ്യ	-10.1516
ാക്കുകയും	-10.152
▁കണ്ണുകള്‍	-10.1522
▁who	-10.1524
▁തമ്മിൽ	-10.1527
33	-10.1536
▁പരിശോധിച്ച	-10.1537
▁കാണണം	-10.1538
▁മരുഭൂമി	-10.1543
95	-10.1544
▁കുറിപ്പ	-10.1544
▁മനസ്സിലായി	-10.1544
കൂടെ	-10.1546
▁പത്ത്	-10.1554
അതെ	-10.1567
▁ഉറപ്പായും	-10.1573
െവിടെ	-10.1574
▁മോഡൽ	-10.1583
▁കയ്യ	-10.1585
Q	-10.1591
▁കൊന്നു	-10.1595
▁ബന്ധപ്പെടുക	-10.1596
ഘോഷ	-10.16
ശേഷി	-10.1607
സ്റ്റോ	-10.1609
▁പിറക	-10.161
▁പേജ്	-10.1617
▁പോരാട്ട	-10.1619
ചിക	-10.162
▁മിനിറ്റ	-10.1633
നിര്‍ദ്ദേശ	-10.1637
▁സുരക്ഷാ	-10.1651
യുണ്ടോ	-10.1653
▁ചേര്‍ന്ന	-10.1654
വര്‍ഗ	-10.1658
▁മോച	-10.1661
ണമെങ്കിൽ	-10.1667
▁ആണെന്ന്	-10.167
മേൽ	-10.1672
ര്‍ജ്ജ	-10.1675
▁ഇഷ്ടപ്പെട	-10.1679
▁അവിടുത്തെ	-10.168
▁കാത്തിരുന്ന	-10.1684
നൂറ്റാണ്ട	-10.1687
▁അമേരിക്കന്‍	-10.169
▁കൊണ്ടുപോക	-10.1693
▁സമ്മതിക്ക	-10.1697
▁കരാറ	-10.1704
▁ശ്രമിക്കുക	-10.1709
▁എപ്പോഴാണ്	-10.1709
▁വ്യാജ	-10.171
▁To	-10.1713
▁വേണമെന്ന	-10.1717
നിശ്ചയ	-10.1718
▁വായനക്കാര	-10.172
ated	-10.1722
▁പോളി	-10.1726
▁അഭ്യ	-10.1732
▁ചേച്ചി	-10.1737
ുകളിലും	-10.1737
▁സ്നേഹിക്കുന്നു	-10.174
▁ജീവിതത്തിലെ	-10.1741
iz	-10.1743
ശിക്ഷ	-10.1743
▁India	-10.1744
mb	-10.1746
▁ഏതായാലും	-10.1759
▁ചേര്‍ത്ത	-10.1764
ടയ്ക്ക	-10.1772
▁കുള	-10.1774
▁ഊഹ	-10.1778
ink	-10.1778
ക്കാരും	-10.1783
ിടത്തോളം	-10.1783
▁ടെസ്റ്റ	-10.1783
▁മകൻ	-10.1784
െങ്കിലുമ	-10.1785
തുകൊണ്ടു	-10.1796
▁അഗ്നി	-10.1796
▁ചെറുപ്പ	-10.1799
▁2011	-10.1803
▁തയ്യാറാക്ക	-10.1804
▁കല്പിച്ച	-10.1804
▁മുത്ത	-10.1809
J	-10.1814
▁നിഷ്	-10.1815
േഴ്സ	-10.1819
ാത്മക	-10.1828
▁ആർക്കും	-10.183
▁താമസിക്കുന്ന	-10.1832
31	-10.1832
▁ആരാണ	-10.1833
57	-10.1833
▁ഐക്യ	-10.1833
▁കടക്ക	-10.1834
▁കക്ഷി	-10.1839
ount	-10.1851
▁no	-10.1852
▁എവിടെയാണ്	-10.1854
▁കുട്ട	-10.1857
▁താമസിക്ക	-10.1866
▁സൗ	-10.1879
98	-10.1882
ങ്ങള്	-10.1888
ണമെന്നില്ല	-10.1892
▁വിപുല	-10.1897
ult	-10.1899
മുറി	-10.1912
▁പ്രശ്നങ്ങൾ	-10.1914
▁പുഴ	-10.1922
▁ജപ്പാന	-10.1937
▁സംസ്കാര	-10.1944
രാണെന്ന്	-10.1944
▁ക്ഷണിക്ക	-10.1945
▁ദിവ്യ	-10.1946
6)	-10.1953
▁സംഭാഷണ	-10.1966
▁ജീവിതത്തിന്റെ	-10.1973
▁ട്രെയിന	-10.1975
▁എവിട	-10.1977
ous	-10.1978
▁ജയിക്ക	-10.1983
▁നിർമ്മിക്ക	-10.1985
▁അവസാനിപ്പിക്ക	-10.1986
▁മാന്യ	-10.1993
▁സാഹിത്യ	-10.1997
▁ഉടന്‍	-10.1997
▁മോശമായ	-10.2003
▁ആശ്വാസ	-10.2003
ന്മാരും	-10.2003
▁രീതിയില	-10.2005
ens	-10.2008
▁എളുപ്പമാണ്	-10.2008
▁തൂക്ക	-10.2009
▁ഭക്തി	-10.2009
▁ആഹാര	-10.2015
▁യൂണിവേഴ്സിറ്റി	-10.2016
▁മുസ്ലിം	-10.2019
▁വർഷങ്ങൾ	-10.202
തന്ത്ര	-10.2022
▁നശിച്ച	-10.2023
▁ഉപയോഗിക്കുന്നത്	-10.2025
▁സ്വന്തമായി	-10.2026
യാള്‍	-10.2027
▁ഉടമ	-10.2028
▁കുറച്ച	-10.2029
ായിരം	-10.2031
▁ആകാം	-10.2031
▁മറിയ	-10.2035
▁വിവരണം	-10.204
്യന്‍	-10.2041
▁വിധിക്ക	-10.2043
ാർഡ്	-10.205
▁പാർട്ടി	-10.2056
ിപ്പിക്കുക	-10.2062
രഹിത	-10.2062
▁കച്ചവട	-10.2065
▁വേദഗ്രന്ഥ	-10.2065
▁വാചക	-10.2065
▁ഭരണഘടന	-10.2068
▁പരമകാരുണികന	-10.2076
▁അതിശയ	-10.2076
വളെ	-10.2077
no	-10.2079
▁തിന്മ	-10.2085
▁കാത്തിരിക്കുന്ന	-10.2093
▁കാൽ	-10.2099
hy	-10.21
▁നൽകാൻ	-10.2108
▁ഇസ്ലാമ	-10.2112
▁കുടിച്ച	-10.2113
@	-10.2114
▁തയാറ	-10.2119
▁തുടർന്നു	-10.2128
56	-10.213
▁വിലാസം	-10.2131
▁വൈകാതെ	-10.2136
ുന്നതുവരെ	-10.214
▁ശേഖരിച്ച	-10.214
യുക്ത	-10.215
കളുമ	-10.2152
മാണത്	-10.2154
▁കണ്ടിട്ടില്ല	-10.2157
▁നടക്കുന്നത്	-10.2158
വരിക	-10.2166
▁മണ്ട	-10.217
▁സിറ്റി	-10.2173
▁കല്യാണ	-10.2174
▁ചിത്രങ്ങൾ	-10.2174
▁കരുത്ത	-10.2185
▁തെളിഞ്ഞ	-10.2187
▁ഏതാണ്	-10.2189
തീര	-10.2189
▁മത്സ്യ	-10.2189
ഘാത	-10.2191
▁അപ്പൊ	-10.2206
▁അനീതി	-10.2214
▁സ്ത്രീകളെ	-10.2218
▁എന്താണെന്ന്	-10.2225
▁പങ്കിട	-10.2225
▁നിർദ്ദേശ	-10.2238
ark	-10.224
▁ആവശ്യമുള്ള	-10.2252
▁ഗാന	-10.2256
▁ക്ഷീണ	-10.2259
▁അവനാണ്	-10.2261
▁പദവി	-10.2262
▁വ്യായാമ	-10.2263
▁വര്‍ഷത്തെ	-10.2265
▁മറിച്ച്	-10.2274
എഫ്	-10.2275
▁ചുവന്ന	-10.2276
▁മനുഷ്യരുടെ	-10.2281
ick	-10.2282
▁ഇന്ത്യയിലെ	-10.2283
▁കുപ്പി	-10.2289
റിയാമോ	-10.2296
പോകുന്ന	-10.2297
ുണ്ടാവും	-10.2303
▁അറിയാത്ത	-10.2304
രാജാവ	-10.2307
▁will	-10.2313
▁ഓര്‍ക്കുക	-10.2314
▁മിണ്ട	-10.2316
▁ഇന്ത്യന്‍	-10.2321
▁ശത്രുവ	-10.2328
ിനൊപ്പം	-10.2331
▁കേരളത്തിലെ	-10.2334
▁എല്ലാവരെയും	-10.2335
▁സംഭാവന	-10.2338
ക്കുട്ടി	-10.2339
▁ശാരീരിക	-10.234
▁തമിഴ	-10.234
കളെല്ലാം	-10.2346
ക്കൂട	-10.2354
▁അനുവാദ	-10.2355
▁ഒക്കെയും	-10.2356
▁താല്പര്യ	-10.236
▁ജനുവരി	-10.236
▁Ro	-10.2364
▁ഗുരുതരമായ	-10.2366
▁ഭയങ്കര	-10.2372
▁തള്ളി	-10.2373
▁പൂർത്തിയാക്ക	-10.2374
▁അനാഥ	-10.2374
66	-10.2381
ർമാർ	-10.2381
▁രണ്ടോ	-10.2392
▁വൃത്ത	-10.2394
▁നിർമ്മാണ	-10.2394
▁ഈശോ	-10.2404
▁വിശ്വസ്ത	-10.2413
ile	-10.2414
മാനം	-10.2415
ചേര	-10.2419
▁ബാറ്ററി	-10.243
ue	-10.2435
▁ഒഴിഞ്ഞ	-10.2436
മുട്ട	-10.244
wa	-10.244
05	-10.2445
▁നിശബ്ദ	-10.2447
▁Sh	-10.2449
ടുപ്പ	-10.245
▁മാര്‍ഗത്തില്‍	-10.2452
▁ജനങ്ങൾ	-10.2453
▁ലഭ്യമാണ്	-10.2456
▁ചേര്‍ക്ക	-10.246
ിരിപ്പ	-10.2461
▁വിശദീകരണ	-10.2471
▁രക്ഷപ്പെട	-10.2478
▁അനുയോജ്യമായ	-10.2482
ിക്കൊടുക്ക	-10.2485
▁പുലര്‍ത്ത	-10.2489
▁അടുക്കള	-10.2491
▁കൈമാറ	-10.2492
▁സഹകരണ	-10.2496
▁മാത്രമാകുന്നു	-10.2499
ണമേ	-10.2502
▁സംഭവിച്ചത്	-10.2502
പിന്നെ	-10.2505
▁പ്രതിസന്ധി	-10.2507
ാർഥ	-10.2512
▁തരൂ	-10.2518
▁കുത്തി	-10.2518
▁ഉപകരണങ്ങൾ	-10.252
ER	-10.2527
▁പിന്നില	-10.2531
▁കളിച്ച	-10.2533
▁പ്രത്യേകിച്ച്	-10.2533
▁വാർത്തകൾ	-10.2539
ാകുമോ	-10.2545
▁ഒരുമിച്ച്	-10.2548
▁വിചാരണ	-10.2553
▁തിരിച്ചെത്ത	-10.2559
▁ഇറക്കി	-10.256
ുണ്ടായിരിക്ക	-10.2569
▁ഹരി	-10.2573
ഡ്രോ	-10.2584
പേക്ഷ	-10.2587
ങ്ങളാണ	-10.2596
▁എഴുന്നേറ്റു	-10.2612
▁തിരഞ്ഞെടുക്കുക	-10.2613
▁വല്ലവനും	-10.2615
▁കുഴ	-10.2616
▁കുട്ടിയെ	-10.2619
▁മുന്നോട്ട്	-10.2622
▁മുഖ്യമന്ത്രി	-10.2623
▁മേഘ	-10.2636
▁വിശ്വ	-10.2639
04	-10.2646
▁വലുപ്പ	-10.2646
േഷന്‍	-10.2647
▁ഭൂമിയെ	-10.2651
▁എഞ്ചിന	-10.2655
▁ആരോപണ	-10.2655
▁45	-10.2666
▁പോരാട	-10.2667
ങ്ങളോട്	-10.267
32	-10.2674
▁നിറവേറ്റ	-10.2674
▁എന്തൊരു	-10.2683
OR	-10.269
▁Read	-10.2692
ക്കൂടി	-10.2694
ാവണം	-10.2698
ുകാര്‍	-10.2705
▁ഭാരത	-10.2711
▁സഹോദരന	-10.2716
69	-10.2716
67	-10.2724
നെപ്പോലെ	-10.2728
▁പലിശ	-10.2731
ക്ടർ	-10.2737
ുണ്ടാകുന്ന	-10.2741
▁നിന്നോടു	-10.2742
▁തിരിച്ചുവര	-10.2746
േഴ്	-10.2751
han	-10.2757
ഭാഗ്യ	-10.2757
▁നൂറു	-10.2758
▁നിഴല	-10.2759
ood	-10.2767
▁ചതി	-10.277
▁ജീവൻ	-10.2772
97	-10.2773
സൂത്ര	-10.2773
▁ടെക്	-10.2778
▁വേറൊരു	-10.278
▁സ്കൂൾ	-10.2782
▁നടപ്പിലാക്ക	-10.2782
▁റൂമ	-10.2784
▁പന്ത	-10.2804
▁ഡ്രൈവർ	-10.2808
സ്ഥിതി	-10.281
02	-10.2824
▁വൃദ്ധ	-10.2828
റ്റീവ്	-10.2829
rit	-10.283
▁വേഗത്തില	-10.2831
▁ആകയാല്‍	-10.2832
AR	-10.2836
▁അദ്ദേഹത്തിനു	-10.2841
▁ജനങ്ങള്‍ക്ക്	-10.2843
▁അദ്ദേഹത്തിന്‍റെ	-10.2844
▁കോൺ	-10.2847
▁സഹോദരന്മാര	-10.2854
▁2008	-10.2857
▁പടിഞ്ഞാറ	-10.2863
▁ഗ്രീ	-10.2868
▁ചിരിക്ക	-10.2873
59	-10.2878
▁ഗ്ലാസ്	-10.2878
▁പാക്കേജിംഗ്	-10.2881
▁വല്ലതും	-10.2883
▁പ്ലേ	-10.2885
▁പാചക	-10.2886
▁വിശ്വാസികള്‍	-10.2887
ath	-10.2892
▁ഒഴിവ	-10.2895
▁കാപ്പി	-10.2898
▁32	-10.2907
▁എൻറെ	-10.2909
▁En	-10.2914
AN	-10.2914
▁കാരണമാക	-10.2916
▁താമസിച്ച	-10.2921
▁പ്രോത്സാഹിപ്പി	-10.2925
AT	-10.2938
തുമില്ല	-10.295
▁അംഗീകാര	-10.2954
▁2012	-10.2958
▁പൂർണ	-10.2958
▁ജീവിതത്തെ	-10.296
▁അനുസരിച്ച്	-10.2962
ുകൊണ്ടിരുന്ന	-10.2969
ങ്ങളൊന്നും	-10.2969
▁മൂടി	-10.297
യായിരിക്ക	-10.2972
▁നല്‍കപ്പെട്ട	-10.2974
ാക്കുന്നു	-10.2983
▁ചെറുപ്പക്കാര	-10.2988
96	-10.2996
ശേഖര	-10.2997
ഭൂത	-10.2998
09	-10.2999
▁തോന്നുന്നില്ല	-10.3001
▁അങ്ങേ	-10.3009
▁ഇരുന്ന	-10.3017
▁ഇല്ലാതാക്ക	-10.302
▁വല്ലാതെ	-10.3021
▁കല്‍പന	-10.3022
▁വീട്ടിലെ	-10.3023
▁എതിർ	-10.3024
lay	-10.3026
▁നിലവിളി	-10.3037
പാട്	-10.3037
▁മനസിലായ	-10.3042
▁അനുഭവിച്ച	-10.305
oo	-10.3051
▁കൈവശ	-10.3052
ലേറ്റ	-10.3053
▁2010	-10.3054
▁അച്ഛൻ	-10.3056
▁തിരിച്ചറിഞ്ഞ	-10.3058
▁സ്വപ്	-10.3059
▁മൊത്ത	-10.306
▁യേശുവിനെ	-10.3068
ത്തുനിന്നു	-10.3069
▁താക്കീത്	-10.3071
▁ടാങ്ക	-10.3072
85	-10.3075
ക്കാരായ	-10.3079
യേശു	-10.3084
▁കുറവാണ്	-10.31
▁ആത്മീയ	-10.3105
▁ശിവ	-10.3105
▁ഭിന്ന	-10.3116
▁ട്രേഡ	-10.3122
ക്ട്	-10.3122
▁ഒന്നുമില്ല	-10.3125
▁കുരു	-10.3128
▁സ്റ്റീൽ	-10.313
▁അവന്ന്	-10.3136
03	-10.314
▁പ്രവര്‍ത്തി	-10.3142
▁US	-10.3148
ിരിക്കാം	-10.3153
▁ഒരൊറ്റ	-10.3156
▁അനുസരിച്ച	-10.3164
▁words	-10.3166
▁മധുര	-10.3166
▁ഇതൊന്നും	-10.317
UR	-10.3171
▁പറയുന്നതു	-10.3179
43	-10.3193
▁വിരോധ	-10.3194
▁ബിസിനസ്സ്	-10.3195
▁മരുന്ന്	-10.3195
ോടൊപ്പമ	-10.3199
പുത്രന്മാര	-10.3202
▁സൗഹൃദ	-10.3204
▁പറയേണ്ട	-10.3205
▁2020	-10.3206
ിനോട	-10.3211
▁പ്രതിഷേധ	-10.3218
72	-10.3223
▁പ്രവാചകന	-10.323
▁പ്രധാനമായും	-10.3236
▁അന്താരാഷ്ട്ര	-10.324
▁കൊതി	-10.3246
▁അയയ്ക്ക	-10.3248
="3	-10.3251
ഗ്രാഫ	-10.3254
▁എനിക്കിഷ്ട	-10.3254
▁dis	-10.3255
▁ഉദ്യോഗസ്ഥ	-10.3258
low	-10.3258
നുസരിച്ച	-10.3261
▁ലേക്ക്	-10.3264
▁മകനെ	-10.3266
▁പ്രവാസി	-10.327
▁ബന്ധുക്കള	-10.3276
▁വച്ചു	-10.3278
▁ബാധിക്കുന്ന	-10.3283
െക്കാളും	-10.3284
▁ചിന്തിച്ചു	-10.3284
▁പ്രവേശന	-10.3285
സ്സു	-10.3286
ധര്‍മ്മ	-10.3288
▁വളർത്ത	-10.329
▁സൂക്ഷ്മത	-10.3291
ron	-10.3292
പ്പേര	-10.3294
▁ഉറച്ച	-10.3296
▁ഉദ്ദേശ	-10.3299
58	-10.3304
▁ഇസ്രയേല	-10.3305
88	-10.3305
▁മെയ്	-10.3305
▁have	-10.3308
▁യുഎസ്	-10.3312
▁അടുത്തേക്ക്	-10.3314
▁തണുത്ത	-10.3315
▁നിശ്ചയം	-10.3316
▁ബോണസ്	-10.3318
▁കുഞ്ഞിനെ	-10.3319
07	-10.3324
▁വംശ	-10.3324
▁കണ്ണുകള	-10.3325
▁ഭാര്യമാര	-10.3325
▁2009	-10.3331
▁പെരുമാറ്റ	-10.3332
▁രക്ഷിച്ച	-10.3333
▁മോദി	-10.3338
▁അനിവാര്യ	-10.3343
▁ചേർന്ന	-10.3343
ഘട്ട	-10.3353
▁സ്വര്‍ഗ്ഗ	-10.336
77	-10.3368
▁കയ്യില്‍	-10.3376
▁അറിയാതെ	-10.3379
min	-10.3382
▁ഉത്തരവാദിത്ത	-10.3385
▁മനസ്സിലാക്കിയ	-10.3388
പോവുക	-10.3394
▁ഓർത്ത	-10.3401
പേര്‍	-10.3402
▁ഉപയോഗിക്കാം	-10.3416
▁ദൈവദൂതന	-10.3417
▁റേഡിയോ	-10.3434
▁നോമ്പ	-10.3435
▁കൊടു	-10.3443
0,000	-10.3445
▁നിരീക്ഷണ	-10.3446
▁Un	-10.3451
▁WEB	-10.3461
▁ഗ്ല	-10.3463
▁അടുക്കൽ	-10.3467
▁അച്ചടി	-10.3467
▁അച്ഛന്‍	-10.3471
▁വിഡ്ഢി	-10.3476
▁ആഘോഷിക്ക	-10.3488
▁ഭക്ഷിക്ക	-10.3491
▁ദൈവിക	-10.3492
▁ചുറ്റ	-10.3498
▁വന്നെത്ത	-10.3506
ിക്കപ്പെടുന്ന	-10.3512
ുമെല്ലാം	-10.3516
▁കല്പന	-10.3517
▁വിൽക്ക	-10.3518
▁അല്ലാത്ത	-10.352
52	-10.3525
▁ഗെയിമ	-10.353
കൊടുക്കുക	-10.3532
▁പ്രഖ്യാപിക്ക	-10.3537
IS	-10.3539
▁ജയിച്ച	-10.3541
64	-10.3558
▁അനുഭവപ്പെട	-10.3562
▁യജമാന	-10.3571
▁തീരുമാനിച്ച	-10.3571
▁Di	-10.3578
▁ഭാര്യയെ	-10.358
▁നിശ്ചയിക്ക	-10.3586
▁ഡിസംബർ	-10.3589
▁ഡേറ്റ	-10.3591
ach	-10.3594
പാദന	-10.3597
▁മണിക്കൂര്‍	-10.3601
ാണെന്നാണ്	-10.3603
▁ബ്രിട്ട	-10.3604
▁വെറുപ്പ	-10.3612
▁കാലയളവ	-10.3614
▁ബന്ധപ്പെട	-10.3617
▁അകലെ	-10.3619
െഴുതിയ	-10.3619
▁വ്യക്തിപരമായ	-10.3622
▁സംരംഭ	-10.3635
▁ഊർജ്ജ	-10.3648
▁വർദ്ധിപ്പിക്ക	-10.3648
ത്തിലെത്ത	-10.3658
▁ലിമിറ്റഡ്	-10.3658
▁33	-10.366
▁ആനന്ദ	-10.3666
▁തിരിയ	-10.367
▁വിചാരിക്കുന്ന	-10.3672
വര്‍ഷം	-10.3675
▁സൂചിപ്പിക്കുന്ന	-10.3676
▁പുതുക്ക	-10.3682
▁എട്ടു	-10.3687
06	-10.3691
കൂടാ	-10.3704
▁കര്‍മ	-10.3706
ത്തിലാണ	-10.3707
വാദികള	-10.3728
ഡിംഗ്	-10.3736
▁പ്രമുഖ	-10.3739
▁സ്റ്റേഷന	-10.3746
▁ഭൂതകാല	-10.375
▁നേരത്തേ	-10.375
▁പ്രസിദ്ധ	-10.375
യുദ്ധ	-10.375
▁മുകളില്‍	-10.3754
േണ്ടിവരും	-10.3758
▁ഓൺ	-10.3765
▁യന്ത്ര	-10.3772
▁പൊളി	-10.3772
▁ഇന്ത്യയിൽ	-10.3775
▁പരമ്പര	-10.3775
▁പടി	-10.3777
▁ഫറവോ	-10.378
▁ഗിഫ്റ്റ്	-10.3791
ave	-10.3792
line	-10.3792
45	-10.3795
പ്രദേശ	-10.3805
അങ്ങനെ	-10.3807
▁ഓർമ	-10.3809
▁അതുകൊണ്ടുതന്നെ	-10.3818
▁ഇതിനകം	-10.3827
▁വേഗത്തിൽ	-10.3828
▁ചൂണ്ട	-10.3832
▁വാതിൽ	-10.3835
▁പൊറുത്തുകൊടുക്ക	-10.3837
▁പരാജയപ്പെട്ട	-10.384
▁അവഗണിക്ക	-10.3841
▁സ്നേഹിക്കുന്ന	-10.3842
au	-10.3843
തരത്തില	-10.3856
▁യുവതി	-10.386
ായിരുന്നെങ്കില്‍	-10.3881
▁കുഴി	-10.3883
▁ദീര്‍ഘ	-10.3894
▁വയ്യ	-10.3897
87	-10.3899
ാനായില്ല	-10.391
പോർട്ട	-10.3914
പ്പോഴേക്കും	-10.3915
▁കയ്യിൽ	-10.3917
▁ബൈബിൾ	-10.3921
▁ഒറ്റയ്ക്ക	-10.3923
form	-10.3923
വുമുണ്ട	-10.393
▁പുണ്യ	-10.3931
▁ചിരിച്ചു	-10.3931
യെപ്പറ്റി	-10.3935
▁സംശയമില്ല	-10.3937
▁നിർമ്മിച്ച	-10.3937
യ്ക്കായി	-10.3937
▁എച്ച്	-10.3941
തോറും	-10.3951
▁പരാമര്‍ശ	-10.3952
▁more	-10.396
▁സാങ്കേതികവിദ്യ	-10.3963
▁ഓട്ടോ	-10.3963
▁ആധിപത്യ	-10.3971
വസര	-10.3973
ിരിയ്ക്ക	-10.3974
▁ഡിസൈന	-10.3981
▁ജാലവിദ്യക്കാര	-10.3982
▁പ്രത്യ	-10.3983
▁For	-10.3986
(1	-10.3995
▁മാർഗ	-10.4
▁കൂട്ടത്തില	-10.4004
▁സംവാദ	-10.4006
▁ദൗത്യ	-10.4008
▁കാഴ്ചപ്പാട	-10.4011
▁മാലാഖ	-10.4013
▁അംഗീകരിച്ച	-10.4014
ound	-10.4017
▁വാഗ്ദാന	-10.4023
▁ക്ലാസ്സ	-10.4026
▁പരിശ്രമ	-10.403
▁സ്ത്രീകളുടെ	-10.4035
തീര്‍ച്ച	-10.4037
▁രാജ്യത്ത്	-10.4039
71	-10.404
കൊണ്ടിരിക്കുന്നു	-10.4043
▁എന്റ	-10.4045
▁സംവിധായകന	-10.4046
ങ്ങളെക്കുറിച്ച്	-10.4046
▁പ്രിന്റ	-10.4047
▁വരികള്‍	-10.4047
ിറക്ക	-10.405
▁കുരിശ	-10.4053
▁യോഗ്യത	-10.4054
▁അസൂയ	-10.4057
lu	-10.4057
91	-10.4059
▁Google	-10.4059
▁New	-10.4059
സേന	-10.4063
▁അതിലും	-10.4083
▁വിദഗ്ധ	-10.4086
▁ബാധകമ	-10.4089
▁ഭൂമിയിലെ	-10.409
▁പുറപ്പെട്ടു	-10.4091
തിനേക്കാൾ	-10.4092
ണ്യ	-10.4102
▁ഉണ്ടെങ്കിൽ	-10.4107
▁my	-10.4108
യോഗ്യ	-10.4117
89	-10.412
രായിരിക്ക	-10.4126
▁ഗെയിം	-10.4129
ുമ്പോ	-10.413
▁പ്രസിദ്ധീകരിച്ച	-10.4139
▁വിവരിച്ച	-10.4143
▁പൂക്കള	-10.4149
▁ഒഴികെ	-10.4151
▁യൂണിറ്റ	-10.4154
▁തുണി	-10.4156
▁മുന്നറിയിപ്പ്	-10.417
▁മൃഗങ്ങള	-10.4174
62	-10.4176
▁പിറന്ന	-10.4179
▁യാഥാര്‍ത്ഥ്യ	-10.4181
▁ചുറ്റി	-10.4182
▁എന്തുകൊണ്ട	-10.4194
▁സിംഹാസന	-10.4197
▁കഴുത്ത	-10.4199
▁മാത്രമാണ	-10.4217
▁കയറ്റ	-10.4224
▁സൃഷ്	-10.4235
▁ഒരിട	-10.4246
▁about	-10.4247
▁ആറ്	-10.4254
▁ദീർഘ	-10.4255
ock	-10.4263
▁പ്രവേശിച്ച	-10.4263
City	-10.4268
▁ആവശ്യപ്പെടുന്ന	-10.427
▁500	-10.4282
▁ദുര്‍ബല	-10.4283
▁പക്കല്‍	-10.4292
▁നിര്‍വഹിക്ക	-10.4296
▁ഉള്ളടക്ക	-10.4314
▁ശിഷ്യ	-10.4324
ിനുള്ളിൽ	-10.4332
▁താക്കീതു	-10.4335
▁സഹിക്ക	-10.4341
68	-10.4346
▁പ്രാര്‍ഥന	-10.4346
വരുത്ത	-10.435
ാവട്ടെ	-10.4359
▁ഭഗ	-10.4374
▁മാതാപിതാക്കള്‍	-10.4385
▁പുഞ്ചിരി	-10.4387
ൂടെ	-10.439
▁നിലനിര്‍ത്ത	-10.4391
▁സന്ദര്‍ഭ	-10.4393
നിന്നുള്ള	-10.4395
54	-10.4401
▁പാത്ര	-10.4407
▁പ്രാപിച്ച	-10.4423
▁നടപ്പ	-10.4428
പോകും	-10.443
▁മറ്റുള്ളവർ	-10.443
▁മറ്റുള്ളവരുടെ	-10.4434
▁ടിവി	-10.4442
മൃത	-10.4444
ക്രിയ	-10.4449
▁തയ്യാറായ	-10.4449
▁ചൈനീസ്	-10.445
▁വിദ്യാര്‍ത്ഥി	-10.4452
▁പരിസ്ഥിതി	-10.4458
▁ഇടപാട	-10.4459
▁നയിക്കുന്ന	-10.4468
ism	-10.447
▁വയറ	-10.4472
▁പ്രൊഫഷണൽ	-10.4477
ിലേയ്ക്ക്	-10.4478
ൊപ്പം	-10.449
തുടര്‍ന്ന	-10.4491
▁മറച്ചു	-10.4501
▁Ex	-10.4511
cial	-10.4511
▁നിയോഗിച്ച	-10.4514
▁ഒരാഴ്ച	-10.4516
▁കൊള്ളാം	-10.4517
▁കളിക്കാര	-10.4518
▁ആഗോള	-10.4522
▁സന്തതികള	-10.4525
▁ആരുമില്ല	-10.4526
▁അല്ലാഹുവാണ്	-10.4527
സാക്ഷി	-10.4528
▁ഇറാന	-10.453
▁ഓർഡർ	-10.4536
ا	-10.4538
രാത്രി	-10.4541
▁നമ്പര്‍	-10.4545
പുസ്തക	-10.4545
way	-10.4548
▁കിടക്കുന്ന	-10.4563
▁ചാനല	-10.4564
▁റബ്ബ	-10.4568
▁കൃപ	-10.457
▁പ്രളയ	-10.4577
▁പങ്കാളികള	-10.4578
view	-10.4581
▁പരിഷ്	-10.4583
▁ലൈറ്റ്	-10.4592
ശാസ്ത്രജ്ഞ	-10.4594
▁സജ്ജ	-10.4595
▁ശേഖരിക്ക	-10.46
▁വഞ്ചി	-10.4604
▁നിബന്ധന	-10.461
▁വൃക്ഷ	-10.4615
▁പ്രഖ്യാപന	-10.4618
63	-10.4621
ON	-10.4621
▁കൊണ്ടിരിക്കുന്ന	-10.4625
▁ഇടതുപക്ഷ	-10.4632
▁Ad	-10.4637
53	-10.4647
േട്ടന	-10.4649
92	-10.465
ത്തിലുണ്ട	-10.466
▁എന്തെന്നാല്‍	-10.4664
▁സാധ്യമല്ല	-10.4664
▁പട്ടാള	-10.467
▁രക്ഷിതാവിന്‍റെ	-10.4681
▁ഇന്റർനെറ്റ	-10.4687
▁ഇസ്രായേല്‍	-10.4694
▁പ്രാദേശിക	-10.4698
▁മുന്നില	-10.47
▁വിജ്ഞാന	-10.4714
▁തൊഴിൽ	-10.4718
▁സേവ	-10.4719
▁നിർബന്ധ	-10.472
▁കുറു	-10.472
▁ശരാശരി	-10.4721
▁സുവിശേഷ	-10.4721
▁അനുഭവിക്കുന്ന	-10.473
▁എത്രമാത്രം	-10.4732
▁അനുഗ്രഹിക്ക	-10.4733
▁നേരിടുന്ന	-10.4734
▁പുറമേ	-10.4743
▁ട്യൂ	-10.4745
▁ചെടി	-10.4751
▁കോണ്‍ഗ്രസ	-10.4761
▁ഏറ്റെടുക്ക	-10.4764
▁ഇക്കാര്യത്തില്‍	-10.4774
▁കൊച്ചി	-10.4783
▁ചെയ്യേണ്ടത്	-10.4783
▁പ്രധാനമന്ത്രി	-10.4785
▁മാതൃ	-10.4794
▁ജീവിച്ചിരിക്ക	-10.4796
▁പ്രചോദന	-10.4814
▁അതിന്നു	-10.4816
ോളജി	-10.4816
▁രജിസ്	-10.4823
▁സ്ഥലത്ത്	-10.4837
ലേഖ	-10.4842
▁ഞായറാഴ്ച	-10.4848
ിരിക്കെ	-10.4852
▁ഫ്രാൻസ	-10.4853
ാനാകില്ല	-10.4864
▁വില്‍ക്ക	-10.4869
ഒന്ന	-10.4878
▁വൃത്തിയാക്ക	-10.4879
▁മെച്ചപ്പെട്ട	-10.4882
▁പുറത്തേക്ക	-10.4886
▁ആരാധകര	-10.4895
▁പങ്കെടുത്ത	-10.4896
▁പുകവലി	-10.4898
▁കാരണങ്ങള	-10.4907
▁പ്രതികരിച്ച	-10.4908
93	-10.4908
▁post	-10.4913
▁തനിച്ച	-10.4917
▁ഓഹരി	-10.4949
▁താല്‍പര്യ	-10.4951
നന്ദി	-10.4957
▁ഇംഗ്ലീഷ	-10.496
സംഘ	-10.4966
▁സന്ദർശിക്ക	-10.4967
▁സാമൂഹ്യ	-10.4969
▁സ്ഥലങ്ങള	-10.4971
▁നിലവിലുള്ള	-10.4972
▁വളര്‍ന്ന	-10.499
▁വളരുന്ന	-10.5
▁പൂര്‍ത്തിയാക്ക	-10.5019
പ്പറഞ്ഞ	-10.5025
76	-10.5026
▁ദീപ	-10.5035
land	-10.5047
08	-10.505
94	-10.5052
▁വ്യാഖ്യാന	-10.5063
▁നോവല	-10.5069
▁പ്രവാചകന്മാര	-10.5069
▁ഉറവിട	-10.5078
പേർ	-10.5088
▁പ്രാർത്ഥന	-10.5093
▁വിവേക	-10.5104
▁ഇദ്ദേഹം	-10.5107
▁ചലന	-10.5113
▁തികഞ്ഞ	-10.5118
▁മാർക്കറ്റ	-10.5121
ാസന	-10.5126
▁ദൂത	-10.5133
ിത്തന്ന	-10.5138
മൂന്ന	-10.5138
ാധികാര	-10.5138
▁ഒരാളുടെ	-10.5147
മാക്കുകയും	-10.515
▁കാണാതായ	-10.515
▁അലുമിനിയം	-10.5156
▁കല്‍പിക്ക	-10.5156
ോണിയ	-10.516
▁വളർച്ച	-10.5167
▁പിന്‍പറ്റ	-10.5178
▁സ്നേഹിച്ച	-10.5179
▁ബ്രിട്ടീഷ്	-10.518
ൌണ്ട	-10.518
▁ധാരാളമ	-10.518
▁ആരംഭ	-10.5185
▁അന്തരീക്ഷ	-10.5186
▁മീഡിയ	-10.5192
84	-10.52
▁ഖേദ	-10.5202
▁സമ്പന്ന	-10.5207
▁പാക്കേജ	-10.521
▁ദൂതന്‍മാര	-10.521
ാനാവാത്ത	-10.5213
▁ദശലക്ഷം	-10.5213
▁മാനുഫാക്ചറേഴ്സ്	-10.5225
ുന്നതിലൂടെ	-10.5227
രോരുത്ത	-10.5233
▁ഉണ്ടെങ്കില്‍	-10.5234
കൊടുക്കുന്ന	-10.5244
▁ഒരേയൊരു	-10.5252
പ്രവര്‍ത്തകര	-10.5253
▁യോജിക്ക	-10.5259
ാറുണ്ടോ	-10.5266
യഥാര്‍ത്ഥത്തില്‍	-10.5267
ിൻ്റെ	-10.5272
▁ജോണ്‍	-10.5273
▁കര്‍ഷക	-10.528
ose	-10.5284
കൊണ്ടുള്ള	-10.5285
▁ചേർത്ത	-10.5296
▁ദ്രോഹ	-10.5301
കൂടാതെ	-10.5305
▁വിമര്‍ശിക്ക	-10.5307
▁was	-10.5307
▁കരാര്‍	-10.5312
▁നിഷേധിച്ച	-10.5316
▁2007	-10.5325
▁സമാനമായ	-10.5328
▁പെണ്‍	-10.5331
▁ഇയാള്‍	-10.5332
▁എത്രത്തോളം	-10.5334
▁‘‘	-10.5336
▁അടിസ്ഥാനമാക്കി	-10.5341
79	-10.5347
▁എല്ലാവരുടെയും	-10.5347
ഭൂരിപക്ഷ	-10.5353
ത്തേയും	-10.5361
▁കാലാവധി	-10.5365
പാഠ	-10.5392
▁വയല	-10.5396
▁കണ്ടുപിടിക്ക	-10.5412
▁സന്ദര്‍ശിക്ക	-10.5419
൦൦	-10.542
▁കലാകാരന	-10.5427
ാന്റ	-10.544
arch	-10.5447
▁അസ്വസ്ഥ	-10.5449
▁വസന്ത	-10.5449
▁പൂര്‍ണമായും	-10.5458
ിത്യ	-10.5471
ൗണ്ട്	-10.5474
▁നാളുകള	-10.5477
▁പ്ലാസ്റ്റിക്	-10.548
▁ഡോളർ	-10.548
▁നിരീക്ഷിക്ക	-10.5486
ക്കാരൻ	-10.5488
െതിരെ	-10.549
കാണിക്ക	-10.5493
▁വിൻഡോ	-10.5505
▁കരുണാനിധിയുമ	-10.5511
▁വാടക	-10.5525
83	-10.5528
▁മെഡിക്കൽ	-10.5545
▁നേഹിക്കുന്ന	-10.555
▁സസ്യ	-10.5557
▁100%	-10.5567
▁ജീവനക്കാര	-10.5572
▁ലഭ്യമാക്ക	-10.5573
▁പ്രോഗ്രാമ	-10.5576
▁ജന്മദിന	-10.5585
▁രോഗികള	-10.5594
യുണ്ടാക	-10.5595
▁ചുറ്റുമുള്ള	-10.5599
▁പ്രകടിപ്പിക്ക	-10.5614
രേഖ	-10.5615
▁ശീർഷകങ്ങൾ	-10.5617
സമാധാന	-10.5629
മുതല്‍	-10.5629
optional	-10.563
▁എല്ലായിടത്തും	-10.563
ign	-10.5631
َا	-10.5637
േല്‍ക്ക	-10.5638
▁മുഹമ്മദ്	-10.5638
തുകൊണ്ടാണ്	-10.5638
▁ഡോളറ	-10.5641
ങ്ങളോടു	-10.5656
നാണെന്ന്	-10.5657
▁പ്രതാപിയും	-10.5667
▁ബസ്സ	-10.5669
▁അകറ്റ	-10.567
▁ബഹുമാനിക്ക	-10.568
▁യഹൂദ	-10.568
▁യഥാർഥ	-10.569
വിശേഷ	-10.5691
▁മന്ത്രിമാര	-10.5693
TH	-10.5697
▁കടന്നുപോക	-10.5708
▁ക്രിസ്ത്യാനി	-10.5709
ുന്നതില	-10.5715
സ്പര്‍ശ	-10.5716
▁അസ്ഥി	-10.5719
▁നിലവിൽ	-10.572
▁സൗദി	-10.5721
▁വളർന്ന	-10.573
▁നേര്‍വഴിയിലാക്ക	-10.5731
▁താത്പര്യ	-10.5737
▁അപരിചിത	-10.5744
ചിന്ത	-10.575
▁സാക്ഷ്യ	-10.5751
മുക്ത	-10.5752
▁ദുഷ്	-10.5756
▁രൂപകൽപ്പന	-10.5763
▁മൂന്നാമത്തെ	-10.5768
ക്കണക്ക	-10.577
▁പ്രസ്താവന	-10.5776
ിട്ടുണ്ടെന്ന	-10.5776
▁ഉപദ്രവ	-10.5777
ould	-10.5783
▁തെരഞ്ഞെടുത്ത	-10.5808
▁ധിക്കാര	-10.5809
▁സ്വന്തമാക്ക	-10.5818
▁എൽഇഡി	-10.5827
മേഖല	-10.5828
▁ഉൾപ്പെടെ	-10.584
▁നിസ്സാര	-10.5843
▁ആരാധിക്കുന്ന	-10.5846
▁ഉൾപ്പെടുത്ത	-10.5868
ിന്ഗ്	-10.5869
മൃഗ	-10.587
▁ദേഹ	-10.5872
▁ഗാന്ധി	-10.5872
▁പ്ലീസ്	-10.5903
▁പ്രാര്‍ത്ഥിച്ച	-10.5903
ത്തേക്ക	-10.5906
കേട്ട	-10.5914
ോടുകൂടി	-10.5914
▁ഇറ്റലി	-10.5914
▁ത്രീ	-10.5917
▁ശ്വാസം	-10.5922
▁ഉൾപ്പെടുന്നു	-10.5926
▁പീഡന	-10.5934
െത്തുന്ന	-10.5939
▁സൗന്ദര്യ	-10.5943
പുരുഷ	-10.5948
▁അല്ലാഹുവിങ്കല്‍	-10.5959
▁യേശുവിന്റെ	-10.596
Qu	-10.5972
[1]	-10.5982
▁യെരൂശലേമ	-10.5985
▁ഐഡിയ	-10.5989
നമ്മുടെ	-10.5991
▁but	-10.6
▁പുരോഗതി	-10.6002
▁പ്രശ്നങ്ങള	-10.6013
ിട്ടുണ്ടാവ	-10.6015
ൊഴുക	-10.6015
െഴുത്ത	-10.6024
▁മാതാപിതാക്കൾ	-10.6028
78	-10.6051
▁എതിരാളി	-10.6056
▁അവലോകനം	-10.6057
ിലേക്കാണ്	-10.6065
▁than	-10.6068
ിനകം	-10.6075
▁ശ്രദ്ധേയ	-10.6085
▁ഏപ്രിൽ	-10.6087
▁ചടങ്ങ	-10.6088
▁ശനിയാഴ്ച	-10.6107
▁അവയവ	-10.6111
▁ജോസഫ	-10.6114
▁പരിചയപ്പെടുത്ത	-10.6115
▁അനുയോജ്യ	-10.6122
▁അഭിമുഖ	-10.6129
ഥ്യ	-10.613
▁ലൈന	-10.6131
▁ദൂതന്മാര	-10.6134
▁മൃതദേഹ	-10.6137
ject	-10.6144
ാകുമെന്ന	-10.615
ാരോഗ്യ	-10.6154
▁സ്രഷ്ടാവ	-10.6157
▁മനസ്സിലാവ	-10.6191
▁ഗര്‍ഭ	-10.6205
▁അകല	-10.6211
പെടുന്ന	-10.6219
▁എല്ലായ്പ്പോഴും	-10.622
▁തിരിഞ്ഞ	-10.6221
ചാർജ	-10.6223
എന്താ	-10.6224
▁നുറുങ്ങ	-10.6226
▁അല്ലാഹുവോട്	-10.6234
▁സേവിക്ക	-10.6241
ുണ്ടെങ്കിലും	-10.6253
▁കയ്യില	-10.6259
▁നഗ്ന	-10.626
െന്തിനാ	-10.6262
▁പോലുമ	-10.6268
▁സൂപ്പർ	-10.6274
▁പൊരുത്ത	-10.6278
▁ഒന്നിന	-10.6281
ആകാശഭൂമികള	-10.6281
▁ഫലകം	-10.6284
world	-10.6297
▁മുതിർന്ന	-10.6307
▁ചിറക	-10.6308
വാസികള്‍	-10.6313
▁ആണെന്ന	-10.6314
▁മുഴുവന	-10.6315
▁വസ്തുവ	-10.633
ത്തിലാക്ക	-10.6331
▁വേണമെങ്കിലും	-10.6338
▁അസാധ്യ	-10.6338
▁ഗുഹ	-10.635
▁നശിക്ക	-10.6352
▁ലഭ്യമായ	-10.6365
▁തത്വ	-10.6374
▁2006	-10.6377
വെയ്ക്ക	-10.6383
▁വേദപുസ്തക	-10.6386
▁അനന്തരം	-10.6386
▁ശാസ്ത്രീയ	-10.6391
▁പശ്ചാത്തല	-10.6392
▁തള്ളിപ്പറഞ്ഞ	-10.6392
▁റൂം	-10.6399
▁മാർച്ച്	-10.642
▁ദിലീപ	-10.644
▁പ്രോഗ്രാം	-10.6446
▁ഫലപ്രദമായ	-10.6452
▁ഒക്ടോബർ	-10.6453
പൂര്‍വ്വം	-10.647
▁സഞ്ചാര	-10.647
▁http	-10.6477
ങ്ങളൊക്കെ	-10.6478
▁ഉടമ്പടി	-10.6484
▁അനുവദനീയ	-10.6494
▁ശുശ്രൂഷ	-10.6494
▁സത്യവിശ്വാസി	-10.6495
▁വ്യത്യസ്	-10.65
oss	-10.6517
▁സമര്‍പ്പിക്ക	-10.6544
▁വിമാനത്താവള	-10.6546
▁ശാശ്വത	-10.6549
▁അഴിമതി	-10.6553
▁അനുസരണ	-10.6553
▁ഇംഗ്ലണ്ട	-10.6556
▁കുറ്റവാളികള	-10.6564
സാന്നിധ്യ	-10.657
▁പണ്ഡിത	-10.6577
▁മോട്ടോർ	-10.658
▁ഉറപ്പുവരുത്ത	-10.658
▁സഞ്ചരിച്ച	-10.658
ാനുള്ളത്	-10.6582
▁വിദ്യാര്‍ഥി	-10.6587
ക്കുറവ	-10.659
പ്രവർത്തക	-10.6595
▁വഹിച്ച	-10.661
▁മറ്റെന്ത	-10.661
▁ക്ഷണിച്ച	-10.6616
▁നിരോധിച്ച	-10.6627
▁ഉദ്ദേശ്യ	-10.6638
ക്കിടയില	-10.664
▁വഴക്ക	-10.6649
▁താപനില	-10.6653
▁വന്നെത്തിയ	-10.6654
tain	-10.6659
▁അരുളിച്ചെയ്യ	-10.6671
▁മാർഗ്ഗ	-10.6684
▁ദൃഢ	-10.6685
ുമെങ്കില്‍	-10.6686
▁എന്തുചെയ്യ	-10.6707
▁പൊരുത	-10.6712
▁ജാലവിദ്യ	-10.6719
േക്കാളും	-10.6723
▁ലജ്ജ	-10.6725
ാഗ്രഹിക്കുന്ന	-10.6725
▁കസേര	-10.6727
ങ്ങളുള്ള	-10.6727
▁ദാസന്മാര	-10.6747
ല്ല്യ	-10.6755
▁അബദ്ധ	-10.678
▁എല്ലാരും	-10.6802
▁ബോംബ	-10.6808
▁പ്ലാന	-10.6812
പതിനായിര	-10.6812
തെന്തിന	-10.6822
▁ഓപ്ഷന	-10.6823
സ്ത്രീ	-10.6833
▁അന്തിമ	-10.6834
▁ഗതാഗത	-10.6848
▁ഉപദ്രവിക്ക	-10.6867
▁അല്ലാഹുവിലും	-10.6877
▁നവംബർ	-10.6883
▁തകര്‍ക്ക	-10.6902
▁ഉത്സവ	-10.6911
▁സർക്കാര	-10.6912
തിനെക്കാള്‍	-10.6913
▁ബിരുദ	-10.6924
▁ജഡ്ജി	-10.6954
പൂർവ്വ	-10.6966
▁മുഖേന	-10.6967
▁പന്ത്രണ്ട	-10.6984
▁പ്രത്യേകിച്ചും	-10.6985
നമുക്ക	-10.6987
▁ഔദാര്യ	-10.699
▁നിരന്തരം	-10.699
▁പ്രകടിപ്പിച്ച	-10.6998
▁ഡൗൺലോഡ്	-10.7001
▁കമ്പ്യൂട്ടറ	-10.7005
▁ശുപാർശ	-10.7019
▁time	-10.702
▁അതിജീവിക്ക	-10.7024
▁അദ്ധ്യാപക	-10.703
▁ഒട്ടേറെ	-10.7037
ക്ഷമത	-10.7069
▁like	-10.707
▁ബിസിനസ	-10.708
▁said	-10.709
▁തടാക	-10.71
▁ധീര	-10.7102
▁സമീപിക്ക	-10.7106
▁ദാസന്‍മാര	-10.711
▁യാതൊന്നും	-10.7118
▁പ്രാഥമിക	-10.7121
▁നല്‍കപ്പെട	-10.7124
▁നിലവില്‍	-10.713
▁ചെലവഴിച്ച	-10.7131
ോര്‍ക്ക	-10.7133
://	-10.7136
▁സൌകര്യ	-10.7183
▁നായകന	-10.7186
▁വ്യക്തിഗത	-10.7188
▁യാഥാര്‍ഥ്യ	-10.7198
െത്തും	-10.72
▁ലംഘിക്ക	-10.7202
▁കവാട	-10.7203
▁വിനയ	-10.7203
▁അധീന	-10.7205
▁പ്രത്യാശ	-10.7224
="4	-10.7224
▁പരിശുദ്ധാത്മാവ	-10.7236
▁തിങ്കളാഴ്ച	-10.7239
▁കീഴടങ്ങ	-10.7247
▁നമ്പറ	-10.7265
പീഠ	-10.7294
▁തീവണ്ടി	-10.7294
വർഷം	-10.7302
തെന്തെന്ന	-10.7314
▁പാരമ്പര്യ	-10.732
▁വിശകലന	-10.732
▁പ്രവേശിപ്പിക്ക	-10.7324
▁സന്തുഷ്ട	-10.7324
▁അരുളിച്ചെയ്ത	-10.7332
സമൃദ്ധ	-10.7336
▁ഒരുമിച്ചുകൂട്ട	-10.7346
▁ആക്രമിക്ക	-10.7347
▁സല്‍കര്‍മ്മ	-10.735
▁പാഴാക്ക	-10.736
▁ശേഷമാണ്	-10.7362
▁മുമ്പാകെ	-10.7365
▁ആനുകൂല്യ	-10.7373
▁ശ്രേഷ്ഠ	-10.7373
കളൊന്നും	-10.7413
▁പൂര്‍വ്വ	-10.7419
മുഹമ്മദ	-10.742
▁ക്രെഡിറ്റ്	-10.7422
▁ജീവിപ്പിക്ക	-10.7434
കുറഞ്ഞ	-10.7444
▁തിരുമേനി	-10.7448
▁മൈക്രോ	-10.7456
ിട്ടുണ്ടാക	-10.7458
▁need	-10.7464
▁പര്‍വ്വത	-10.7472
▁വീഴ്ച	-10.7483
▁അന്യോന്യം	-10.7486
ത്തിലാക	-10.75
serv	-10.7502
ത്തീര്‍	-10.7507
▁ഉടമസ്ഥ	-10.7509
ാനിടയ	-10.7513
▁വിദഗ്ദ്ധ	-10.7539
▁എത്തിച്ചേര	-10.7546
▁കര്‍ത്താവിന	-10.7552
▁സാധ്യമാക	-10.7555
▁ലോകകപ്പ	-10.7556
▁കോൺഗ്രസ	-10.7556
▁മുന്നേറ	-10.7574
ിനായുള്ള	-10.7579
▁പിന്തുണയ്ക്ക	-10.7582
▁പ്രചരിപ്പിക്ക	-10.7589
▁വികസിപ്പിക്ക	-10.7589
▁അജ്ഞാത	-10.7593
▁പരസ്പര	-10.7601
മുതൽ	-10.7611
▁മെറ്റൽ	-10.7631
▁യഥാ	-10.7632
▁പ്രായോഗിക	-10.7633
▁അഭിനന്ദന	-10.7635
▁പ്രാർത്ഥിക്ക	-10.7656
കൂടുതൽ	-10.7657
▁നിരപരാധി	-10.7658
▁ദാരിദ്ര്യ	-10.767
▁ശിശു	-10.7673
▁വക്കീല	-10.7678
▁കേസുകള	-10.7683
▁ഉപജീവന	-10.772
▁കനത്ത	-10.7741
▁ആവശ്യകത	-10.7749
▁മോനെ	-10.7751
ദേഹം	-10.7754
▁പ്രേരിപ്പിക്ക	-10.7767
www	-10.7771
▁രാജകുമാരി	-10.7771
ക്കുറിപ്പ	-10.7773
▁ال	-10.7774
ുവിൻ	-10.7787
▁കമ്പ്യൂട്ടർ	-10.7802
▁തകര്‍ന്ന	-10.7819
▁പുരാതന	-10.7821
▁പൂർണ്ണമായും	-10.7822
ശരീര	-10.785
▁സങ്കല്‍പ	-10.7864
▁അശുദ്ധ	-10.7865
▁ഓസ്ട്രേലിയ	-10.7872
▁ഡിഗ്രി	-10.7881
▁പ്രയോഗിക്ക	-10.7889
▁മെഷീന	-10.7894
▁പിതാക്കന്മാര	-10.7896
▁യുക്തിമാനുമ	-10.7905
▁പുനഃ	-10.7908
▁ചവിട്ട	-10.7916
▁മനഃ	-10.7922
▁ഉത്പാദന	-10.7924
▁സൂചിപ്പിച്ച	-10.7932
▁മൃദു	-10.7936
▁സൂക്ത	-10.7948
▁വധശിക്ഷ	-10.7956
▁ഞാനെന്റെ	-10.796
▁പ്രസാദ	-10.7964
▁ഫ്രഞ്ച്	-10.798
▁സന്തോഷവാര്‍ത്ത	-10.7983
▁അപേക്ഷിക്ക	-10.7999
▁കുറ്റവാളി	-10.8003
▁പശ്ചാത്താപം	-10.8011
▁കൊട്ടാര	-10.8015
▁ശബരിമല	-10.8019
▁വീണ്ടെടുക്ക	-10.8031
▁അനേക	-10.8034
▁ശപിക്ക	-10.8044
▁വസ്തുക്കൾ	-10.8067
▁ചുവപ്പ	-10.8079
▁റൂട്ട	-10.8079
▁തീര്‍ക്ക	-10.8081
▁തടവുകാര	-10.8084
▁വിവരിക്ക	-10.8087
▁പ്രീതി	-10.8093
▁അറിഞ്ഞിരിക്ക	-10.8097
▁പശ്ചാത്തപിക്ക	-10.81
▁ബിജെപി	-10.81
▁നന്‍മ	-10.8108
▁തള്ളിക്കളയ	-10.8113
ക്സനുമ്ക്സ	-10.8128
▁الل	-10.8133
▁പ്രോസസ	-10.8146
▁ആള്‍ക്കാര	-10.8147
▁ഒമ്പത	-10.8151
▁ഡിജിറ്റൽ	-10.8156
▁ശേഷവും	-10.8156
▁കൊഴുപ്പ	-10.8173
▁പുനർ	-10.8178
▁തുടർച്ചയായ	-10.8185
▁ക്രമീകരിക്ക	-10.8188
▁വിദൂര	-10.8201
ിനേയും	-10.822
▁വിശിഷ്ട	-10.8221
▁ഭരണാധികാരി	-10.8226
▁ഇത്തരത്തിലുള്ള	-10.823
മായിട്ടാണ്	-10.824
ഇദ്ദേഹ	-10.8244
▁അതീവ	-10.8247
▁രക്ഷകന	-10.8247
▁മാസങ്ങള	-10.8249
▁പ്രവര്‍ത്തനങ്ങള	-10.825
▁യുവാക്കള	-10.8251
▁ലൈബ്രറി	-10.8254
▁ഇസ്ലാം	-10.8263
▁നിയോഗിക്ക	-10.8269
▁ഇവിടുത്തെ	-10.8271
▁പരിഹാസ	-10.828
▁ഞാനെന്ത	-10.8281
നാരായണ	-10.8286
▁വൈറസ	-10.8288
▁വേട്ടയാട	-10.8291
▁പുറത്തിറക്ക	-10.8292
▁ഭ്രമ	-10.8294
▁പരിഗണന	-10.8307
തിനാലാ	-10.831
▁വധിക്ക	-10.831
▁കറുപ്പ	-10.8316
സമൂഹ	-10.8323
▁പ്രാര്‍ഥിച്ച	-10.8334
▁തലച്ചോറ	-10.8336
▁യൂറോപ്യൻ	-10.834
▁ഭീതി	-10.8341
▁ആൻഡ്രോയിഡ്	-10.8353
എനിക്കു	-10.8357
ത്തിലായിരിക്ക	-10.8358
▁വിഷാദ	-10.8361
Malayalam	-10.8365
▁ഇത്തരത്തില്‍	-10.8374
▁ധ്യാന	-10.8384
▁വര്‍ത്തമാന	-10.8386
▁ഉചിതമായ	-10.8392
വിഷയ	-10.8415
▁വിട്ടേക്ക	-10.8415
▁അത്യുന്നത	-10.8419
▁അംഗങ്ങള	-10.8436
▁ആസ്വദിച്ച	-10.8448
▁പശ്ചാത്തപിച്ച	-10.8469
▁യൂസുഫ	-10.8478
പ്പെട്ടിരിക്ക	-10.8486
▁പരിക്കേറ്റ	-10.8486
▁ഉത്തരവാദിത്വ	-10.8507
▁വിജയകരമായി	-10.8521
▁shall	-10.8536
▁ആശയവിനിമയ	-10.8541
▁നിവേദനം	-10.8541
▁ഒഴുക്ക	-10.8542
സൃഷ്ടി	-10.8543
ുപയോഗിച്ച	-10.8548
▁പ്രദാനം	-10.8549
▁പ്രവർത്തിച്ച	-10.855
ചന്ദ്ര	-10.8559
പ്രവാചക	-10.8561
▁ജാഗ്രത	-10.8575
മന്ദിര	-10.858
▁ആദരിക്ക	-10.8589
▁മാലിന്യ	-10.8591
വ്യവസ്ഥ	-10.8601
▁ഗർഭ	-10.8605
വകാശ	-10.8616
▁സന്നിധിയ	-10.8632
െന്തെങ്കിലും	-10.8635
▁മതിയാക	-10.8641
▁ഫിര്‍ഔന	-10.8643
▁ക്രിക്കറ്റ	-10.8648
ാത്മാവ	-10.8658
▁കടപ്പാട്	-10.8659
▁വിവാഹമോചന	-10.8689
▁വെറുമൊരു	-10.8702
▁പ്രസിദ്ധീകരിക്ക	-10.8707
▁നിലവിലെ	-10.872
ചരിത്ര	-10.8726
പൂര്‍ണ്ണ	-10.873
▁മുടക്ക	-10.8739
▁ക്രൂശ	-10.8741
ങ്ങളില്ല	-10.8742
▁പൊതുവായ	-10.8749
▁ഗുണനിലവാര	-10.8753
▁പല്ലു	-10.8757
▁love	-10.8766
▁ഉണങ്ങ	-10.8771
ology	-10.8775
▁പര്‍വത	-10.8782
▁അലങ്കാര	-10.8784
▁പരമ്പരാഗത	-10.8801
▁പിശാചുക്കള	-10.8806
▁ഐഹികജീവിത	-10.881
▁ഐശ്വര്യ	-10.8814
▁സോഫ്റ്റ്വെയർ	-10.8844
▁LED	-10.8849
▁വീട്ടുകാര	-10.8853
▁കായിക	-10.8857
▁യാത്രക്കാര	-10.8861
▁പ്രമേയ	-10.8867
▁തള്ളിപ്പറയ	-10.8875
▁വ്യക്തിത്വ	-10.8887
▁സന്നദ്ധ	-10.8897
▁പരിവർത്തന	-10.891
▁അധ്യായ	-10.891
വാന്മാര	-10.8912
Comment	-10.8914
▁ഗർഭിണി	-10.8914
▁വേദനയേറിയ	-10.8918
▁വൈകാരിക	-10.8923
▁ഡാറ്റാബേസ	-10.8927
▁അവതരണ	-10.8934
▁പുള്ളി	-10.8935
▁അനുയായികള	-10.8935
▁ചോദ്യങ്ങള	-10.8938
▁മറികടക്ക	-10.8954
▁ചുംബന	-10.8967
പ്രവര്‍ത്തന	-10.8968
▁ആരൊക്കെ	-10.8978
▁നന്നാക്ക	-10.8983
▁ഇന്ധന	-10.8985
▁ലൈറ്റിംഗ്	-10.8997
▁സോഷ്യൽ	-10.9006
ിനടുത്ത	-10.9013
▁comment	-10.9015
ബുദ്ധി	-10.9023
▁സത്യവിശ്വാസം	-10.9051
▁റെക്കോർഡ	-10.9055
▁ചിഹ്ന	-10.9061
▁വിൽപ്പന	-10.9064
▁അദ്ധ്യായ	-10.9082
▁സ്വാഭാവികമായും	-10.9082
▁ഉപഭോക്താക്കള	-10.9086
മൂല്യ	-10.9087
▁ആലോചന	-10.909
▁സമ്പാദിച്ച	-10.909
ുറപ്പിച്ച	-10.9107
▁പിശക	-10.9109
▁സന്താന	-10.9112
▁വഴികാട്ടി	-10.9122
▁ഇഹലോകത്ത	-10.9131
▁വിപരീത	-10.914
▁കീഴടക്ക	-10.9142
▁ജാലക	-10.9145
▁രക്ഷിതാക്കള	-10.9149
▁അത്തരമൊരു	-10.9153
▁തുടര്‍ച്ചയായ	-10.9153
പരിശീലക	-10.9159
▁ബഹിരാകാശ	-10.9171
▁വിശദമാക്ക	-10.9186
▁സാമ്രാജ്യ	-10.9189
▁മൂന്നാമത	-10.9194
▁ഫയൽ	-10.9199
▁ലഘു	-10.9204
▁പ്രവണത	-10.9205
ക്രമം	-10.9215
▁വാഴ്ത്ത	-10.9221
ദൈർഘ്യ	-10.9238
▁കൃത്രിമ	-10.9248
▁ഫേസ്ബുക്ക	-10.9248
▁പന്നി	-10.9263
▁മുന്തിരി	-10.9266
▁ഏറ്റെടുത്ത	-10.9285
▁വിവരങ്ങള	-10.9285
▁വെള്ളിയാഴ്ച	-10.9302
▁കരാർ	-10.9304
▁പ്രശംസ	-10.9307
▁വിമര്‍ശന	-10.9316
▁ആഹ്ലാദ	-10.932
പ്പോലുള്ള	-10.932
ായിട്ടാണ്	-10.9327
▁പ്രമേഹ	-10.9352
▁ഒരെണ്ണം	-10.9361
▁പൂര്‍ണ്ണമായും	-10.9366
▁ഗര്‍ഭിണി	-10.9398
▁സ്വര്‍ണ	-10.9402
▁വഴികേടില	-10.9402
▁വിസ്മയ	-10.9403
▁തകരാറ	-10.9411
▁സമ്മർദ്ദ	-10.9412
▁സർവകലാശാല	-10.9412
▁ബുദ്ധ	-10.9425
▁പച്ചക്കറി	-10.943
▁കല്‍പിച്ച	-10.9439
▁മുംബൈ	-10.9454
▁സുഹൃത്തുക്കൾ	-10.9458
▁സൈക്കിള	-10.9492
▁ധാന്യ	-10.9498
▁പിണറായി	-10.9504
ാനന്ദ	-10.9505
▁പരിഹസിക്ക	-10.9513
▁ഡിസംബര്‍	-10.9518
▁ഇസ്രായേൽ	-10.9523
▁ബ്ലാക്ക്	-10.9528
▁വഷള	-10.9533
ാനന്തര	-10.9537
▁പുറകില	-10.9539
▁മാനദണ്ഡ	-10.9541
▁വ്യാഴാഴ്ച	-10.956
▁know	-10.956
▁Comments	-10.9565
▁പഞ്ചസാര	-10.9569
▁റദ്ദാക്ക	-10.9579
▁പിന്തുടര്‍ന്ന	-10.958
നുസൃതമായ	-10.9583
▁ജൈവ	-10.9589
▁ഫോറെക്സ്	-10.9593
▁അദ്ഭുത	-10.9597
▁കെട്ടിച്ചമച്ച	-10.9602
സംബന്ധമായ	-10.9611
▁വർഗ്ഗം	-10.9621
▁ഭീമ	-10.9625
ാണെന്റെ	-10.9634
▁രക്ഷാധികാരി	-10.9635
കൊണ്ടേയിരിക്ക	-10.9645
▁പോക്കറ്റ	-10.9664
▁ഡോളര്‍	-10.9668
▁മെറ്റീരിയൽ	-10.9672
പ്രശ്ന	-10.9678
ൊരാൾ	-10.9682
▁ഫുട്	-10.9693
▁ന്യായപ്രമാണ	-10.9724
▁പോലീസുകാര	-10.9743
▁നിർമ്മാതാവ	-10.9748
▁പ്രതീക	-10.9759
▁ആഭ്യന്തര	-10.9762
▁പൊറുത്ത്	-10.9762
▁വൈവിധ്യ	-10.9767
സന്ദേശ	-10.9779
▁വിദ്യാർഥി	-10.9806
▁ദാവൂദ	-10.982
▁വെറുതേ	-10.9834
▁സൈക്കിൾ	-10.9839
കൃഷ്ട	-10.9849
▁തീരുമാനമെടുക്ക	-10.9853
സാധ്യത	-10.9857
▁മനസിലാക	-10.9863
ത്തിലുമ	-10.9864
രാജാക്കന്മാര	-10.9865
▁ഫിലിപ്പ	-10.9866
▁കേവലം	-10.9868
ough	-10.9868
അല്ലാഹുവാണ	-10.987
▁സർവീസ	-10.988
നടപടി	-10.9892
▁ഉപയോക്താക്കൾ	-10.9892
▁സ്മാർട്ട്	-10.9897
▁നിരോധിക്ക	-10.9921
ഔ	-11.1728
$	-11.2187
q	-11.464
ഊ	-11.5223
#	-11.546
»	-12.4071
•	-12.9649
́	-13.1094
◆	-13.3404
