<unk>	0
<s>	0
</s>	0
.	-3.04759
▁	-3.69367
,	-4.09645
▁आहे	-4.4302
ी	-4.49953
त	-4.55657
च	-4.65762
र	-4.69271
स	-4.6995
▁आणि	-4.87452
ा	-4.8875
े	-4.88998
क	-4.91331
ला	-4.96275
ल	-4.98622
न	-4.99444
ं	-5.23424
?	-5.23937
▁नाही	-5.24062
म	-5.25716
य	-5.33913
व	-5.41056
▁या	-5.41559
ू	-5.45401
प	-5.48879
ट	-5.50304
▁एक	-5.52422
ले	-5.57285
ात	-5.57407
च्या	-5.57465
▁ते	-5.5914
)	-5.61258
▁मी	-5.61596
चा	-5.61661
▁हे	-5.63563
ही	-5.69452
:	-5.73392
▁व	-5.73945
ड	-5.74465
▁(	-5.76262
ने	-5.77958
▁आहेत	-5.79156
ता	-5.833
▁अ	-5.85405
-	-5.85979
ली	-5.87359
▁का	-5.87607
चे	-5.90039
ची	-5.90324
▁हा	-5.97432
ज	-5.98198
▁त्या	-6.02601
▁तो	-6.06792
ग	-6.08347
▁पण	-6.09032
वर	-6.09185
ून	-6.12746
▁काही	-6.14298
▁आपण	-6.16391
▁आ	-6.18221
▁तर	-6.18454
ि	-6.19008
ळ	-6.20673
▁काय	-6.21402
ण	-6.2258
▁मला	-6.23783
!	-6.24427
ो	-6.25004
▁होते	-6.25117
▁की	-6.26156
वा	-6.27416
ना	-6.27853
री	-6.30209
ब	-6.30494
▁न	-6.32512
e	-6.35531
s	-6.35675
ित	-6.35917
▁क	-6.37008
द	-6.38924
▁ही	-6.39543
;	-6.42924
▁असे	-6.44383
▁आपल्या	-6.44913
ह	-6.46794
▁सर्व	-6.47059
्य	-6.47197
’	-6.48963
ते	-6.48999
▁‘	-6.505
रा	-6.54167
श	-6.55666
▁ती	-6.55879
ाचा	-6.57702
ाच्या	-6.59667
िक	-6.59672
ु	-6.60277
ाची	-6.63286
▁-	-6.63524
ल्या	-6.64142
मध्ये	-6.65417
तो	-6.68447
▁आता	-6.68671
▁होती	-6.69595
▁त्यांना	-6.70152
t	-6.70552
▁"	-6.70957
▁आम्ही	-6.71217
▁प	-6.71529
▁होता	-6.71952
o	-6.7235
▁तुम्ही	-6.72499
णे	-6.72794
ती	-6.7281
▁म्हणून	-6.73333
साठी	-6.73375
र्	-6.73489
▁वि	-6.74409
ाला	-6.76191
▁सा	-6.76529
▁करा	-6.769
▁केले	-6.77209
▁म	-6.79219
ाने	-6.80119
▁त्यांच्या	-6.80131
▁त्यामुळे	-6.80511
▁प्र	-6.80661
फ	-6.80794
ख	-6.8195
ांना	-6.82208
▁किंवा	-6.82241
▁ब	-6.83634
▁ज	-6.83809
▁लोक	-6.83954
मा	-6.85153
्या	-6.8588
▁माझ्या	-6.86062
का	-6.86444
ाचे	-6.86727
▁काम	-6.86998
वि	-6.87375
▁मा	-6.88355
▁सं	-6.88619
▁“	-6.88744
शी	-6.92471
▁ना	-6.94455
▁आज	-6.94738
▁नि	-6.95073
▁वा	-6.95171
▁त्याला	-6.95655
▁दिवस	-6.95692
i	-6.95848
्	-6.95904
▁उ	-6.96418
ॉ	-6.97442
▁विचार	-6.97728
▁झाले	-6.98642
णार	-6.99772
▁केली	-7.00514
या	-7.00877
ावर	-7.02202
▁कारण	-7.02282
ंड	-7.02776
▁त्यांनी	-7.02813
▁वापर	-7.03351
कडे	-7.0466
ंग	-7.04708
▁अनेक	-7.06171
वे	-7.06261
तील	-7.0657
d	-7.06958
भ	-7.07811
y	-7.0828
▁तुम्हाला	-7.09184
a	-7.09744
ध	-7.09975
ण्यासाठी	-7.10054
कार	-7.10731
ातील	-7.10847
▁म्हणजे	-7.11059
▁करू	-7.11064
सा	-7.11254
थ	-7.11656
ई	-7.11751
▁जे	-7.11977
▁ग	-7.13052
p	-7.13097
▁वेळ	-7.13544
▁मध्ये	-7.13608
डी	-7.13736
▁वर्ष	-7.13753
क्ष	-7.13868
ां	-7.14328
ायला	-7.14597
णी	-7.14833
मी	-7.15036
c	-7.15253
▁खूप	-7.15607
ष	-7.15958
नी	-7.15974
▁केला	-7.16059
रे	-7.16129
▁देव	-7.16277
▁त्याच्या	-7.1752
"	-7.19701
▁आले	-7.19786
लं	-7.1994
त्र	-7.20144
▁अधिक	-7.20789
▁:	-7.21205
▁दोन	-7.21479
g	-7.21547
▁इ	-7.21607
ांची	-7.21611
▁तुमच्या	-7.21944
पा	-7.22158
ेल	-7.22201
▁ह	-7.22377
ांनी	-7.22796
▁द	-7.23324
▁'	-7.24079
तात	-7.24555
लो	-7.24689
्स	-7.25037
वी	-7.25363
▁असा	-7.25486
▁श	-7.25735
ॅ	-7.2587
▁तेव्हा	-7.25932
हा	-7.26099
▁बा	-7.26264
िंग	-7.26788
n	-7.27983
▁असते	-7.28002
▁प्रत्येक	-7.28031
स्त	-7.28493
▁पा	-7.29548
'	-7.29727
ांच्या	-7.29953
▁&	-7.30348
▁सु	-7.30547
r	-7.30682
gt	-7.30917
दा	-7.31091
▁एका	-7.31111
1	-7.31174
▁बदल	-7.31458
▁वाढ	-7.31651
▁कोण	-7.31984
▁ख	-7.3222
▁आमच्या	-7.32307
टी	-7.32348
▁देश	-7.32362
ठ	-7.3267
▁फक्त	-7.32985
▁1	-7.33387
झ	-7.33932
▁झाला	-7.34448
▁ठेव	-7.34947
ै	-7.35135
▁तू	-7.35236
▁करण्यासाठी	-7.35814
▁माहिती	-7.3601
▁असेल	-7.36271
l	-7.36763
व्ह	-7.37439
u	-7.37777
स्ट	-7.38115
▁कमी	-7.38361
▁नाहीत	-7.38992
ंत	-7.39169
▁राह	-7.39405
▁दे	-7.40058
▁को	-7.40073
बा	-7.40318
▁करून	-7.41171
▁जा	-7.4139
प्र	-7.41543
ंना	-7.41837
१	-7.4264
▁/	-7.42688
▁झाली	-7.42703
ांचा	-7.42991
▁खेळ	-7.4322
▁ज्या	-7.43828
ल्	-7.44106
ढ	-7.44322
▁तयार	-7.44444
▁नाव	-7.44464
▁करत	-7.44632
स्	-7.44794
ासाठी	-7.44886
er	-7.44946
नि	-7.45047
ाय	-7.451
▁मदत	-7.46228
अ	-7.47229
ए	-7.48006
आ	-7.48007
▁अशा	-7.48281
▁खा	-7.48293
▁बोल	-7.48352
कर	-7.48394
in	-7.49167
▁वाट	-7.49173
दार	-7.49411
8	-7.49881
S	-7.50633
▁2	-7.50981
3	-7.51338
शा	-7.51667
▁मे	-7.52196
5	-7.52376
चं	-7.52648
▁आपल्याला	-7.52696
▁पड	-7.53209
k	-7.53247
▁नवीन	-7.53706
ांत	-7.53979
▁घर	-7.54078
▁गोष्टी	-7.54305
▁ह्या	-7.54485
▁तरी	-7.54862
▁S	-7.54982
▁पुन्हा	-7.55015
▁इतर	-7.55082
िया	-7.55355
घ	-7.55653
▁करतो	-7.56209
or	-7.56385
▁कि	-7.56421
2	-7.56536
जी	-7.5701
▁जास्त	-7.57122
ळी	-7.57197
ाई	-7.57621
ण्याची	-7.58201
▁होत	-7.5878
ar	-7.59255
▁सांग	-7.59257
▁भ	-7.59261
ळा	-7.59296
ंद	-7.60099
▁त्याने	-7.60131
ांचे	-7.60274
०	-7.60415
▁स्वतः	-7.60842
m	-7.60902
▁असतात	-7.61314
▁होणार	-7.61565
on	-7.6162
h	-7.61668
▁फ	-7.61788
▁करणे	-7.62353
▁मुहम्मद	-7.62374
▁असतो	-7.62392
▁बघ	-7.62415
▁करण्यात	-7.62597
▁किती	-7.62667
ाव	-7.63137
टा	-7.63165
▁सो	-7.63745
an	-7.64056
ग्र	-7.64372
▁आली	-7.64502
▁पाह	-7.64595
▁पाहिजे	-7.65128
ेट	-7.65133
/	-7.65195
▁परंतु	-7.65213
▁प्रश्न	-7.65243
▁करणार	-7.65403
4	-7.65421
▁येथे	-7.65774
▁जाते	-7.65781
▁शोध	-7.66232
मान	-7.66235
▁ए	-7.66348
b	-7.66411
ण्या	-7.66449
▁घ्या	-7.66782
▁मात्र	-7.67504
f	-7.67649
ीय	-7.68109
▁A	-7.68205
▁सर्वात	-7.68223
▁शकते	-7.68346
▁P	-7.68557
ंट	-7.6873
पासून	-7.68947
▁3	-7.68963
ऱ्या	-7.6936
▁परत	-7.69658
▁जो	-7.69701
िन	-7.6991
A	-7.70435
▁ओ	-7.70606
▁येत	-7.70616
▁म्हण	-7.70701
▁कर	-7.70854
▁सुरू	-7.71039
▁C	-7.71379
ण्यात	-7.71823
00	-7.72307
▁आला	-7.72343
पर्यंत	-7.73028
▁भाग	-7.73198
▁5	-7.7327
▁गरज	-7.73286
▁मग	-7.73516
C	-7.73856
▁होतो	-7.73975
▁से	-7.74022
▁ऐक	-7.74052
▁शकता	-7.7486
क्स	-7.74935
al	-7.74978
त्या	-7.75152
re	-7.75172
▁होईल	-7.75617
▁द्या	-7.7578
▁हो	-7.75977
▁कार्य	-7.76008
(	-7.76046
ौ	-7.76065
भा	-7.76093
▁भेट	-7.76573
▁तसेच	-7.7665
▁–	-7.76863
▁जात	-7.76891
इ	-7.76968
▁कधी	-7.77054
बद्दल	-7.77173
▁ध	-7.77246
▁आहोत	-7.77281
मुळे	-7.77284
▁दिले	-7.7752
▁पूर्ण	-7.77556
▁जीवन	-7.78217
▁मि	-7.79111
▁केवळ	-7.79262
ृ	-7.79342
▁प्रेम	-7.79429
▁त्यात	-7.79709
▁गो	-7.79762
त्त	-7.79971
ंब	-7.80054
▁तीन	-7.80378
▁पुस्तक	-7.80606
▁दु	-7.80612
▁शकतो	-7.80683
▁T	-7.807
▁सरकार	-7.81074
णा	-7.81321
▁!	-7.81359
▁शि	-7.81579
पी	-7.81633
▁अल्लाह	-7.81925
”	-7.82014
▁शकत	-7.82014
▁कु	-7.82028
%	-7.82161
्व	-7.82219
▁बस	-7.82464
ष्ट	-7.82487
पणे	-7.82691
▁जर	-7.82759
हे	-7.83236
न्	-7.83533
▁चाल	-7.83638
en	-7.83923
▁वर	-7.83954
▁प्रयत्न	-7.8446
▁सम	-7.84484
▁हि	-7.84501
▁घड	-7.852
▁अशी	-7.8589
▁करतात	-7.86258
▁आपले	-7.86268
▁M	-7.86321
▁आनंद	-7.86535
P	-7.86553
▁शब्द	-7.86647
जा	-7.86691
▁गेले	-7.87051
▁आम्हाला	-7.87074
लि	-7.87313
रो	-7.87515
T	-7.87871
▁पि	-7.87943
▁आवश्यक	-7.88056
▁होऊ	-7.88127
▁माझा	-7.88131
▁असं	-7.8836
स्थ	-7.88471
6	-7.8881
उ	-7.88813
पेक्षा	-7.88964
▁अस	-7.89303
D	-7.89538
डा	-7.89669
▁आण	-7.8979
▁नका	-7.89834
▁मो	-7.9009
▁सेवा	-7.902
▁भारत	-7.90444
रण	-7.9075
▁काढ	-7.91185
at	-7.91595
▁तुला	-7.91704
▁गा	-7.92114
▁रा	-7.92454
ing	-7.92592
२	-7.92599
▁राज्य	-7.92632
▁दा	-7.92689
ंची	-7.92693
▁त्याचा	-7.9274
▁B	-7.92752
▁१९	-7.9283
v	-7.93073
▁स्	-7.93163
I	-7.9329
▁बे	-7.93873
▁माझे	-7.9393
E	-7.94031
▁बाहेर	-7.94392
it	-7.94544
▁ति	-7.94844
▁त्याचे	-7.94846
▁अर्थ	-7.94847
ic	-7.9511
▁ओळख	-7.95125
▁आई	-7.95184
को	-7.95469
▁मिळ	-7.95557
ावे	-7.95603
es	-7.95647
▁सि	-7.95773
▁पुढे	-7.95774
▁मार्ग	-7.95784
▁त्यांचे	-7.95791
▁तिला	-7.96024
▁पो	-7.96079
="	-7.96324
▁प्रकार	-7.9641
४	-7.96441
▁करता	-7.96913
▁२	-7.96933
▁कसे	-7.96975
ंचा	-7.97231
▁व्यक्ती	-7.9727
9	-7.97514
▁माझी	-7.9822
▁जग	-7.98331
ंच्या	-7.98855
ंनी	-7.98964
▁4	-7.99021
▁म्हणाला	-7.99219
▁विश्वास	-7.99575
▁मित्र	-7.99905
रि	-7.99921
▁...	-7.99997
▁करते	-8.0016
हि	-8.0037
▁स्ट	-8.00439
▁बंद	-8.00519
ायचे	-8.00533
▁इथे	-8.00848
▁20	-8.00861
M	-8.01015
▁चीन	-8.01161
▁१	-8.01167
▁उत्तर	-8.01502
▁नंतर	-8.01663
▁त्यांची	-8.01667
ed	-8.01785
▁समज	-8.02136
▁लेख	-8.02394
नंतर	-8.02504
▁म्हणाले	-8.02651
▁पर	-8.02855
▁विशेष	-8.02928
▁निवड	-8.02977
▁चित्रपट	-8.0301
रु	-8.03081
्यु	-8.03305
x	-8.0332
तु	-8.03535
▁तिच्या	-8.03966
7	-8.0428
न्स	-8.04368
बरोबर	-8.0444
▁कंपनी	-8.04479
▁मन	-8.04587
▁स्व	-8.04621
्र	-8.04851
ण्याचा	-8.04972
प्रमाणे	-8.04994
▁निर्णय	-8.0515
▁घ	-8.05155
▁प्रवास	-8.05537
▁त्याची	-8.05645
▁कुठे	-8.05678
w	-8.06317
५	-8.06489
▁म्हणजेच	-8.06603
▁जाऊ	-8.06722
▁लोकांना	-8.06744
खा	-8.0686
डे	-8.06934
त्	-8.07122
▁महा	-8.07732
पण	-8.0776
ळ्या	-8.07788
▁के	-8.07802
▁सह	-8.07815
कडून	-8.0797
टे	-8.08071
६	-8.08093
20	-8.08124
▁मु	-8.08155
▁झ	-8.08196
व्या	-8.08247
▁_	-8.08362
मधील	-8.08494
ांमध्ये	-8.08526
▁तुझ्या	-8.0857
क्त	-8.08699
▁चांगले	-8.08822
गा	-8.08873
▁लक्ष	-8.09394
▁योग्य	-8.09428
▁पे	-8.09494
▁सल	-8.09498
▁10	-8.09587
९	-8.10094
७	-8.10227
▁पाणी	-8.10346
O	-8.10418
बी	-8.10445
▁गोष्ट	-8.10525
नो	-8.10585
▁रि	-8.11178
▁दिली	-8.11201
ऊ	-8.113
▁ठर	-8.11379
सह	-8.11426
▁चि	-8.11485
▁भर	-8.11498
▁परिणाम	-8.11819
R	-8.12026
▁ये	-8.12133
ातून	-8.12331
▁गु	-8.12619
णाऱ्या	-8.12704
तून	-8.12877
र्म	-8.12966
▁चार	-8.1301
३	-8.13044
एस	-8.13478
▁विषय	-8.13523
ताना	-8.13533
▁डो	-8.13896
ांसाठी	-8.14261
▁अव	-8.14318
▁शहर	-8.14455
श्	-8.14814
पूर्वी	-8.14821
यो	-8.14866
्यू	-8.14887
▁देखील	-8.15005
▁मान	-8.15009
▁महिला	-8.15114
▁येणार	-8.15142
र्क	-8.15236
▁आय	-8.15291
▁सी	-8.15567
▁तिथे	-8.15869
र्ट	-8.15924
▁H	-8.15958
▁उप	-8.16238
▁माहीत	-8.16242
ुन	-8.16409
लेल्या	-8.16808
पूर	-8.1721
मो	-8.17241
मि	-8.1728
▁प्रति	-8.17309
st	-8.17396
▁तु	-8.17861
▁उत्पादन	-8.17923
▁साध	-8.1818
लेले	-8.18378
▁अनुभव	-8.1853
▁थ	-8.18671
▁ऑ	-8.18705
अर	-8.18828
▁बन	-8.18957
▁सर	-8.19051
▁त्यांचा	-8.19258
▁घेऊन	-8.19302
िल	-8.19365
▁वाटते	-8.1937
▁6	-8.19508
त्व	-8.19562
धी	-8.19661
▁मुख्य	-8.19687
ंचे	-8.19815
lt	-8.1987
ol	-8.20185
ियन	-8.20256
▁फार	-8.2048
▁दाखव	-8.20515
ुक	-8.208
▁ब्र	-8.21248
▁कॅ	-8.21257
्म	-8.2149
▁सांगितले	-8.21518
▁दिस	-8.21611
▁प्रेषित	-8.22014
वून	-8.22066
▁मार	-8.22138
शि	-8.22213
▁सुरुवात	-8.22213
▁कोणत्याही	-8.22249
▁श्री	-8.2231
▁कळ	-8.22379
▁लाग	-8.22694
▁भारतीय	-8.22805
▁F	-8.23131
जे	-8.23152
▁टाक	-8.23163
▁शकतात	-8.23185
▁मुली	-8.23475
▁हात	-8.23494
▁वेळी	-8.23661
दी	-8.23681
ro	-8.23881
0	-8.23953
et	-8.24141
▁रे	-8.24192
▁पु	-8.24748
▁बि	-8.24837
is	-8.24986
▁पाच	-8.25082
▁त्यानंतर	-8.25126
▁मिळव	-8.25169
▁लाव	-8.25173
▁येईल	-8.25453
▁करीत	-8.25473
▁आपला	-8.2587
▁स्वत	-8.25937
▁आहात	-8.26261
▁झाल्या	-8.2628
र्ड	-8.26359
ज्ञ	-8.26567
अम्	-8.26619
▁सोड	-8.26696
था	-8.26696
िका	-8.26772
▁अप	-8.27094
भर	-8.2713
▁काळ	-8.27275
८	-8.27318
▁व्यवसाय	-8.27546
N	-8.27564
le	-8.27702
▁आपली	-8.27745
▁सुंदर	-8.27877
▁देऊ	-8.28151
▁लहान	-8.28164
▁रंग	-8.28218
▁D	-8.28428
▁7	-8.2848
▁आणखी	-8.28497
▁दिला	-8.28745
▁यांच्या	-8.2907
▁कोणी	-8.29076
▁G	-8.29079
▁पक्ष	-8.29259
▁जातो	-8.29452
▁आवड	-8.29538
▁शे	-8.29656
▁म्हणतात	-8.29745
▁यांनी	-8.29915
▁करायला	-8.29929
▁ट्र	-8.29977
▁यु	-8.30099
ra	-8.30204
▁रो	-8.30491
▁घेत	-8.30498
र्ग	-8.30802
▁सगळ्या	-8.30916
▁४	-8.30946
▁उच्च	-8.31065
B	-8.31137
क्	-8.31219
▁L	-8.31231
▁करण्याची	-8.31246
▁दूर	-8.31318
▁शिक	-8.31425
▁बनव	-8.31519
▁अल्लाहचे	-8.31647
सुद्धा	-8.31818
▁लग्न	-8.31839
ch	-8.31913
▁केल्या	-8.31994
▁जन्म	-8.32166
▁इलाह	-8.32205
L	-8.32311
मु	-8.32433
▁इल्लल्लाह	-8.32642
▁रसूलुल्लाह	-8.32661
ांवर	-8.32769
्रे	-8.32814
▁छ	-8.32836
ायचं	-8.3293
▁निर्माण	-8.33428
र्स	-8.33521
▁महिन्या	-8.33667
ळे	-8.3369
▁शिक्षण	-8.33885
धार	-8.33891
▁शरीर	-8.34011
बंध	-8.34118
वरील	-8.3437
▁२०	-8.3438
▁३	-8.34482
ोन	-8.34634
▁भा	-8.34887
▁p	-8.34968
▁दि	-8.3515
▁आधी	-8.35307
▁गेल्या	-8.3551
स्क	-8.35711
▁b	-8.3585
▁जाणार	-8.35903
▁टी	-8.36102
▁दिसत	-8.36342
जन	-8.364
▁8	-8.36499
▁माणसा	-8.36509
▁उपलब्ध	-8.3652
शिवाय	-8.36693
▁दोन्ही	-8.36741
▁खर्च	-8.3698
▁हवे	-8.3703
ओ	-8.37172
▁संपूर्ण	-8.37217
▁घरी	-8.37392
50	-8.37525
द्ध	-8.37765
शे	-8.37766
दर्श	-8.37787
▁भाषा	-8.37831
▁कॉ	-8.37907
पैकी	-8.3791
ur	-8.3798
▁वर्षे	-8.3802
▁जवळ	-8.38021
ri	-8.38097
▁मत	-8.38135
▁19	-8.382
▁पुढील	-8.38218
▁पी	-8.38353
▁महत्त्व	-8.38489
सारखे	-8.38588
विषयी	-8.38592
योग	-8.38739
10	-8.38745
▁आयुष्य	-8.38867
क्ट	-8.38899
▁अमेरिके	-8.38909
▁दिवशी	-8.38923
▁मोठा	-8.38973
▁वेळा	-8.39076
▁मोठ्या	-8.39326
्‍	-8.39387
▁गेला	-8.394
th	-8.3948
ेड	-8.39722
▁वाटत	-8.39871
सोबत	-8.40415
▁E	-8.40564
▁अनु	-8.40649
▁N	-8.40672
▁समाज	-8.4086
▁अगदी	-8.40868
्रो	-8.4095
▁५	-8.41257
▁गाव	-8.41323
▁जी	-8.41542
▁येते	-8.41568
▁समस्या	-8.42077
▁टे	-8.42217
▁तास	-8.42392
▁हजार	-8.42497
▁चुक	-8.42538
▁लक्षात	-8.42598
H	-8.42662
▁पैसे	-8.43157
▁मराठी	-8.43275
▁संप	-8.43427
गार	-8.43612
]	-8.43628
म्ह	-8.4365
▁असू	-8.43757
▁कदाचित	-8.43786
ेशन	-8.4403
▁प्रभाव	-8.44238
▁इं	-8.4424
ठा	-8.44347
▁चित्र	-8.44402
▁कसा	-8.44429
ंध	-8.44459
णं	-8.44598
▁पासून	-8.44626
▁नव्हते	-8.44803
▁जु	-8.44951
▁चांगला	-8.44969
▁रात्री	-8.44986
▁ठिकाणी	-8.45457
द्वारे	-8.4559
दे	-8.45635
▁एकत्र	-8.45661
▁बाळ	-8.45705
▁घाल	-8.45709
▁विविध	-8.46152
▁सगळे	-8.46191
▁राजा	-8.46476
▁सुद्धा	-8.46603
पणा	-8.46715
काळ	-8.46732
▁सुरक्षित	-8.46822
▁सत्य	-8.46829
▁start	-8.46881
"&	-8.47012
▁लिह	-8.47027
▁नये	-8.47254
▁dur	-8.47365
▁मृत्यू	-8.47451
▁जातात	-8.47469
▁दर	-8.47499
ण्यास	-8.47694
▁विरोध	-8.47976
▁पहिल्या	-8.47989
ड्या	-8.47996
▁W	-8.47997
▁राज	-8.48039
▁शक	-8.48154
▁लि	-8.49061
▁सध्या	-8.49179
ति	-8.49185
▁पाय	-8.49186
त्य	-8.49225
▁क्र	-8.49282
▁नियम	-8.49326
▁डि	-8.494
▁सामान्य	-8.49497
▁परि	-8.49609
▁मुलां	-8.49777
दि	-8.49786
▁फोन	-8.49804
▁स्पष्ट	-8.49855
▁शांत	-8.49942
▁नेहमी	-8.50123
▁पुर	-8.50148
▁व्या	-8.50213
▁धर्म	-8.50385
▁परमेश्वर	-8.50469
बल	-8.5081
z	-8.50857
ीकरण	-8.50863
▁राष्ट्र	-8.51021
▁सू	-8.51134
▁c	-8.51218
▁मनुष्य	-8.51265
▁पुरुष	-8.51281
टिंग	-8.5134
▁अजून	-8.51384
▁9	-8.51578
▁अतिशय	-8.5173
देश	-8.51813
शन	-8.52141
ल्ड	-8.5241
▁क्षेत्र	-8.52487
▁जेव्हा	-8.52504
▁असलेल्या	-8.52595
▁काहीतरी	-8.52727
▁बॉ	-8.52773
▁खरेदी	-8.53018
▁खो	-8.53207
▁जण	-8.53471
▁बॅ	-8.53621
▁केंद्र	-8.5371
am	-8.53767
▁मुला	-8.53785
ad	-8.53834
F	-8.53892
▁पाठव	-8.54073
as	-8.54226
us	-8.54229
धा	-8.54229
▁पॅ	-8.54362
▁उत्तम	-8.5437
▁शा	-8.54556
ामध्ये	-8.54623
▁नव	-8.54869
ावा	-8.54872
▁त्यासाठी	-8.54912
▁खु	-8.5493
ोर	-8.55005
▁माणूस	-8.55109
G	-8.55153
▁आवडत	-8.5522
▁अन्य	-8.55339
▁प्रकाश	-8.55375
12	-8.56329
▁उघड	-8.56456
▁जोड	-8.56562
कु	-8.5673
▁चांगली	-8.56884
लेली	-8.56894
▁m	-8.56962
▁झोप	-8.57159
▁जि	-8.57263
▁इतिहास	-8.57293
▁मुंबई	-8.57499
▁(1	-8.57606
ंज	-8.57841
▁क्ल	-8.57931
un	-8.57972
िट	-8.58141
▁मोठी	-8.58152
ट्ट	-8.58209
▁पद	-8.58255
शास्त्र	-8.58324
ण्याचे	-8.58357
▁विभाग	-8.58488
▁कुटुंब	-8.58715
प्त	-8.58893
▁पहा	-8.58894
▁काळजी	-8.58923
▁योजना	-8.58951
▁नको	-8.58989
▁ग्	-8.5904
राम	-8.5911
▁करण्या	-8.59113
ॅन	-8.59209
वृत्त	-8.59219
el	-8.59334
सि	-8.59436
▁लाख	-8.59505
▁गाडी	-8.59538
▁गेली	-8.59582
र्ज	-8.59651
▁अभ्यास	-8.59982
▁घेतला	-8.60065
▁कधीच	-8.60325
▁एकदा	-8.60349
▁शेवटी	-8.60395
▁देत	-8.60454
▁संघ	-8.6085
▁निघ	-8.60857
▁परिस्थिती	-8.60929
▁तेथे	-8.61224
▁R	-8.61306
▁तुमचा	-8.61316
▁डा	-8.61482
▁घेतले	-8.61599
li	-8.61895
▁ग्राहक	-8.61904
▁पाहिले	-8.62127
▁कार्यक्रम	-8.62151
▁वर्षी	-8.62244
▁कधीही	-8.62344
▁माग	-8.62509
वार	-8.62522
ालय	-8.62801
▁अभि	-8.62855
▁भाव	-8.62983
▁प्रवेश	-8.62995
▁डे	-8.63349
▁मुलगा	-8.63717
▁वाचा	-8.63781
ेश	-8.63976
▁जाईल	-8.64001
11	-8.64046
ँ	-8.64077
▁असत	-8.64093
▁यामुळे	-8.64232
ag	-8.64556
क्र	-8.64722
▁जाग	-8.64844
il	-8.64874
▁असताना	-8.65166
▁संपर्क	-8.65343
▁किंमत	-8.65438
▁स्त्री	-8.65473
he	-8.65649
गु	-8.65691
▁घेऊ	-8.65753
▁मशीन	-8.65924
श्र	-8.65927
पु	-8.66138
▁असून	-8.66403
▁येतो	-8.66442
▁औषध	-8.66675
▁फे	-8.667
▁डॉक्टर	-8.66783
प्ल	-8.66792
▁मिळत	-8.66818
ॉल	-8.66877
▁माहित	-8.66886
▁संख्या	-8.66917
प्प	-8.67294
्‍या	-8.67317
▁हवा	-8.67402
▁संबंध	-8.67403
▁घेण्या	-8.67451
वाद	-8.67467
▁जाणून	-8.67476
▁मिळाले	-8.67506
▁तुमची	-8.67628
▁एस	-8.67675
▁O	-8.67777
▁लढ	-8.67814
्रा	-8.67902
▁शेवट	-8.68139
▁नेहमीच	-8.68161
▁बोलत	-8.68238
शील	-8.68291
ः	-8.68299
▁सदस्य	-8.68395
▁I	-8.68678
▁अजूनही	-8.68795
व्य	-8.68915
पत्र	-8.69002
क्या	-8.6916
▁मॅ	-8.69276
▁w	-8.69318
▁प्राप्त	-8.6938
▁12	-8.69426
_	-8.69585
▁साठी	-8.69636
क्रम	-8.69641
▁ऑफ	-8.69687
भाव	-8.69718
▁व्हा	-8.69763
▁‘‘	-8.6992
▁ई	-8.70139
▁उद्या	-8.70153
▁करावे	-8.7036
▁बो	-8.70414
▁त्यावर	-8.70461
▁नव्हता	-8.70527
▁तुमचे	-8.7065
▁प्रमाण	-8.70703
ha	-8.70768
▁नोकरी	-8.70769
▁संधी	-8.71226
ग्	-8.71251
▁जाण	-8.71274
▁मुले	-8.71287
मंडळ	-8.71427
▁काहीही	-8.71457
व्ही	-8.71575
ाइ	-8.71861
▁परमेश्वरा	-8.71926
रूप	-8.71954
▁करण्याचा	-8.72221
▁तरीही	-8.72255
ter	-8.72435
एम	-8.72462
ay	-8.72561
ापासून	-8.72567
राज	-8.72673
▁प्रथम	-8.72679
▁स्प	-8.7283
िस	-8.72838
▁विकास	-8.7291
▁सात	-8.72928
sh	-8.72934
▁करण्यास	-8.73065
▁विमान	-8.73256
▁तिने	-8.73266
▁प्रा	-8.73391
j	-8.73453
▁”	-8.73471
▁ठ	-8.73477
ाशी	-8.73597
करण	-8.73802
▁आत्म	-8.73949
र्ण	-8.74226
▁डी	-8.74249
युक्त	-8.74461
▁उपचार	-8.74521
▁घेतली	-8.74542
न्न	-8.74634
▁बाजार	-8.74717
▁येशू	-8.74727
क्क	-8.74866
कृत	-8.74906
▁थांब	-8.7496
▁डाउनलोड	-8.74999
▁ऑनलाइन	-8.75156
▁युद्ध	-8.75202
▁खास	-8.75469
▁हर	-8.7552
र्य	-8.75661
ac	-8.75722
ॉट	-8.75726
▁महाराष्ट्र	-8.75786
.”	-8.75978
▁संस्था	-8.7599
▁खरे	-8.7611
ंदी	-8.76259
▁तसे	-8.76376
एक्स	-8.76408
15	-8.76419
ne	-8.76514
िके	-8.76517
▁यासाठी	-8.76532
▁शक्य	-8.76536
▁असणार	-8.76556
हो	-8.76592
▁पाठ	-8.76599
▁गाय	-8.76656
▁इच्छा	-8.7669
ड्र	-8.76903
▁प्रो	-8.76953
lo	-8.77072
▁मागे	-8.77072
▁देणार	-8.77091
ायची	-8.77259
▁15	-8.77493
द्या	-8.77496
हून	-8.77784
▁आकार	-8.78119
डि	-8.78226
ष्ठ	-8.78405
▁जागा	-8.78453
द्र	-8.78814
▁in	-8.78828
गो	-8.79009
पुर	-8.79127
▁ज्ञान	-8.79179
▁घो	-8.79222
▁पृथ्वी	-8.79303
▁पर्याय	-8.7951
▁रोज	-8.79697
▁बांध	-8.79778
ot	-8.80038
▁कशी	-8.80139
▁बाजू	-8.80155
र्थ	-8.80309
▁लागले	-8.80368
▁असल्या	-8.80374
ँड	-8.80388
▁संगीत	-8.80622
▁नव्हती	-8.80622
▁होतात	-8.80636
▁शाळा	-8.8071
▁चर्चा	-8.80743
कि	-8.8086
▁*	-8.80934
सु	-8.81019
▁वाईट	-8.81073
▁लागेल	-8.81164
णारा	-8.81412
▁रक्त	-8.81501
समोर	-8.81527
▁स्थान	-8.81677
ुर	-8.81755
▁विसर	-8.81815
▁प्रकारे	-8.8183
▁पूर्व	-8.81936
▁येतात	-8.81965
ut	-8.8201
ir	-8.82066
22	-8.82088
▁लो	-8.82129
▁मुलगी	-8.82167
▁मंत्र	-8.82217
▁मध्य	-8.82268
▁मोठे	-8.82274
व्हा	-8.82381
▁पोस्ट	-8.82466
de	-8.82521
▁मिनिट	-8.82667
▁दुसऱ्या	-8.82675
▁विक	-8.82739
न्या	-8.83289
▁भविष्य	-8.8331
▁कम	-8.83346
▁[	-8.83363
▁होतं	-8.83488
19	-8.83675
राव	-8.83701
▁अधिकार	-8.83846
U	-8.83861
▁पृष्ठ	-8.83983
▁सुमारे	-8.83984
▁स्वप्न	-8.83994
▁वेग	-8.84003
▁अत्यंत	-8.84027
18	-8.84029
▁हवी	-8.84034
ंवर	-8.84066
▁गुण	-8.84108
id	-8.84153
▁शक्ती	-8.84389
▁पुरस्कार	-8.84599
वान	-8.8473
मधून	-8.84736
▁म्हणतो	-8.84778
तः	-8.84806
▁पत्र	-8.84934
क्षे	-8.84934
▁उपयोग	-8.84966
▁आवाज	-8.84994
र्न	-8.85259
▁दरम्यान	-8.85269
▁एखाद्या	-8.85289
▁संदेश	-8.85343
▁बी	-8.8555
▁आरोग्य	-8.85572
नुसार	-8.85695
26	-8.85697
▁मिळेल	-8.85702
amp	-8.85779
ंमध्ये	-8.85829
W	-8.85865
16	-8.85896
कृती	-8.85927
▁सर्वोत्तम	-8.85975
्यात	-8.86061
▁शिकव	-8.86063
ध्द	-8.86094
▁कल्पना	-8.86176
िम	-8.86218
वाह	-8.86273
▁फोटो	-8.86368
com	-8.86405
ॅट	-8.86491
▁#	-8.86495
27	-8.86579
▁करताना	-8.86625
घा	-8.86932
▁घटना	-8.86936
बे	-8.86986
▁पर्यंत	-8.86987
28	-8.87075
▁निर्	-8.872
र्व	-8.87203
V	-8.87413
▁देशात	-8.875
▁जिंक	-8.87602
▁तरुण	-8.87996
▁वर्ग	-8.88077
ामुळे	-8.88138
▁भारतात	-8.8818
40	-8.88304
▁K	-8.884
न्ह	-8.8841
▁कठीण	-8.8841
▁बरोबर	-8.88691
▁घरात	-8.88731
▁खाली	-8.88908
▁मुक्त	-8.88944
▁पार	-8.88965
▁महान	-8.89079
21	-8.89102
▁+	-8.89291
▁f	-8.8988
▁पत्नी	-8.89957
▁घे	-8.90004
टो	-8.90046
▁एकूण	-8.90164
▁म्हटले	-8.90311
वरून	-8.90317
17	-8.9034
आय	-8.90415
▁त्यावेळी	-8.90481
फा	-8.90485
▁मुलांना	-8.90488
▁V	-8.90579
▁चांगल्या	-8.90585
▁स्क	-8.90615
▁ठरव	-8.90644
पती	-8.90676
▁जन	-8.90734
भाग	-8.90847
▁संबंधित	-8.90923
्यांना	-8.91109
▁रु	-8.91115
▁टॅ	-8.91262
द्	-8.91363
च्छ	-8.91414
23	-8.91523
▁बु	-8.91575
▁६	-8.91629
षण	-8.91797
▁ठेवा	-8.91803
▁सहा	-8.91804
▁१०	-8.9206
▁तार	-8.92153
▁खेळाडू	-8.92317
▁पहिला	-8.92413
▁भू	-8.92462
▁of	-8.92549
ायचा	-8.92563
▁सापड	-8.92578
विले	-8.92602
ार्थ	-8.92702
▁विजय	-8.9274
▁टॅटू	-8.92892
▁कोणाला	-8.92996
स्ट्र	-8.93002
पद	-8.93098
▁उपाय	-8.93168
▁नागरिक	-8.93218
▁वस्तू	-8.93332
▁पाण्या	-8.93372
ॉन	-8.93557
▁अॅ	-8.93692
गृह	-8.93791
▁चौ	-8.93824
▁आठ	-8.94071
▁11	-8.94134
बाबत	-8.9416
▁लाभ	-8.9417
शु	-8.94189
▁असल्याचे	-8.94227
▁येऊ	-8.94281
बि	-8.94359
ियम	-8.94499
▁संरक्षण	-8.94556
▁विवाह	-8.94583
▁दहा	-8.94599
▁देण्यात	-8.94649
दान	-8.94759
ation	-8.94767
▁टो	-8.94821
जवळ	-8.94826
▁0	-8.94877
गाव	-8.94878
लिंग	-8.94969
्मा	-8.9497
▁अमेरिकन	-8.95069
स्व	-8.95139
▁असतील	-8.95404
▁एम	-8.95427
▁मान्य	-8.95628
▁18	-8.9586
▁धन्यवाद	-8.95887
▁आग	-8.95923
णारे	-8.96083
▁इस्राएल	-8.96141
▁त्यातून	-8.96212
▁शिक्षक	-8.96216
वादी	-8.96282
▁लवकर	-8.96415
▁प्रक्रिया	-8.96446
▁यश	-8.96501
▁U	-8.96522
िप	-8.96694
▁गंभीर	-8.96772
▁कोणत्या	-8.9714
▁साधन	-8.97453
▁यांना	-8.97468
भूत	-8.97535
os	-8.97651
▁न्याय	-8.97761
X	-8.97768
ow	-8.97793
▁होत्या	-8.97815
अल	-8.97908
▁इच्छित	-8.97936
्ड	-8.97949
▁the	-8.97984
ांक	-8.98155
ाऊ	-8.98265
▁क्षण	-8.98342
▁30	-8.98354
▁स्थिती	-8.98369
▁युरोप	-8.98381
▁मंदिर	-8.9843
म्प	-8.98459
▁बँक	-8.98536
▁जगात	-8.98603
▁नेम	-8.98621
ंसाठी	-8.98644
▁फ्ल	-8.98712
op	-8.98722
▁धाव	-8.98785
▁सकाळी	-8.9884
▁स्वीकार	-8.98905
▁स्वा	-8.99061
▁विक्री	-8.99129
Y	-8.99363
बो	-8.99397
पूर्ण	-8.99434
धान	-8.99441
▁उत्पादने	-8.99652
▁केलेल्या	-8.99801
▁आमचे	-8.99902
▁J	-8.99958
▁प्रणाली	-8.99966
▁पोलिस	-9.00005
स्त्र	-9.00097
▁कशा	-9.00129
र्‍या	-9.00169
योजन	-9.00286
पाल	-9.00333
ध्य	-9.00357
झा	-9.00763
▁पद्धती	-9.0078
▁नसते	-9.00835
▁व्हिडिओ	-9.00964
▁साहित्य	-9.01003
▁»	-9.01088
▁मू	-9.01169
▁उठ	-9.01214
फे	-9.01262
▁क्षमता	-9.01308
60	-9.01369
▁भाऊ	-9.01462
▁भाजप	-9.01543
वारी	-9.01599
खे	-9.01671
धि	-9.01706
▁डेटा	-9.01754
▁महत्व	-9.01892
▁गण	-9.02048
▁सहन	-9.02093
▁पाकिस्तान	-9.02127
om	-9.02217
ाचं	-9.02252
▁200	-9.02286
30	-9.02313
ाकडे	-9.02419
▁दक्षिण	-9.02474
▁यू	-9.0248
▁नव्हे	-9.02611
▁जगातील	-9.02704
29	-9.0275
▁समावेश	-9.02953
▁सुरक्षा	-9.0296
▁करावा	-9.03195
▁असले	-9.03309
▁शक्यता	-9.03397
▁आधार	-9.035
▁क्षमा	-9.03516
▁रेल्वे	-9.03759
▁कुणा	-9.03772
▁तंत्रज्ञान	-9.03785
▁पवित्र	-9.03864
▁खरोखर	-9.03903
किंग	-9.04076
पो	-9.04241
▁देतो	-9.04412
आर	-9.04472
जो	-9.04497
▁डॉ	-9.0452
▁साली	-9.0463
▁यावेळी	-9.04652
▁कृपया	-9.04664
च्च	-9.04724
▁राष्ट्रीय	-9.04729
▁टॉम	-9.04758
▁तुझे	-9.04811
ंद्र	-9.04834
▁दुसरा	-9.05503
K	-9.05511
▁लवकरच	-9.0561
▁and	-9.05612
▁आंतरराष्ट्रीय	-9.05631
▁नक्की	-9.05893
▁दृष्टी	-9.05912
▁वजन	-9.05937
se	-9.05959
▁पकड	-9.0607
▁पुरवठादार	-9.06138
▁वै	-9.06162
▁पेक्षा	-9.06166
▁मिळाली	-9.06185
वेद	-9.0633
एल	-9.06383
▁लांब	-9.06412
▁सोडून	-9.06499
▁जपान	-9.06692
▁नियंत्रण	-9.06769
मुख	-9.06771
▁फॅ	-9.06984
▁म्हणत	-9.06993
▁७	-9.07066
000	-9.07067
ट्स	-9.07211
▁विद्यार्थ्यां	-9.07214
▁निश्चित	-9.0735
ho	-9.07468
▁आयुष्यात	-9.07609
▁विकत	-9.07748
▁विद्यार्थी	-9.07811
▁पोहोच	-9.07853
▁खरं	-9.07862
▁उत्पादक	-9.07865
ess	-9.07953
tion	-9.07971
▁जेवण	-9.0805
▁प्रसिद्ध	-9.08056
देव	-9.08165
▁बहु	-9.08274
▁आमची	-9.08315
▁सामाजिक	-9.08398
वेळी	-9.08464
▁सोपे	-9.08479
▁Re	-9.08519
▁मतदान	-9.08537
▁स्वागत	-9.08581
▁पुरव	-9.08591
ल्यावर	-9.08685
▁उद्योग	-9.0869
01	-9.08745
ate	-9.08762
▁दोघां	-9.08785
▁शो	-9.08827
▁कर्ज	-9.08829
▁फायदा	-9.08934
▁सुख	-9.09025
▁नव्या	-9.09044
▁to	-9.09145
००	-9.09189
▁प्रशिक्षण	-9.09208
▁$	-9.0929
▁व्यवस्था	-9.09291
35	-9.09313
थे	-9.09334
80	-9.09347
▁मिळणार	-9.09354
▁लागू	-9.09596
▁करु	-9.09606
▁विचारले	-9.09636
▁लागली	-9.0972
▁विश्व	-9.09883
▁हस	-9.09988
▁2018	-9.10085
▁फा	-9.102
▁आढळ	-9.10279
▁दुर्	-9.10413
3)	-9.10452
▁करायचे	-9.10563
▁प्रमाणात	-9.10624
la	-9.10722
▁व्यावसायिक	-9.10835
▁बद्दल	-9.10847
▁आर्थिक	-9.10892
डो	-9.10949
▁लेखक	-9.10978
ानंतर	-9.11062
▁घटक	-9.11102
▁जाऊन	-9.11253
▁एल	-9.11357
▁चर्च	-9.11358
▁एकमेकां	-9.1137
▁एकाच	-9.11435
सारखा	-9.11477
दु	-9.11569
ग्न	-9.11658
▁वेगळे	-9.11898
दैव	-9.11908
▁उदाहरण	-9.12049
▁२००	-9.12079
▁होण्या	-9.12156
▁विद्यापीठ	-9.12205
▁मागणी	-9.12283
▁अंतर	-9.12419
▁त्रास	-9.12548
▁•	-9.12564
▁व्यापार	-9.12587
▁होय	-9.12627
▁100	-9.12682
13	-9.12685
▁आजही	-9.12717
▁प्रकरण	-9.12843
▁खालील	-9.12969
▁ख्रिस्त	-9.1319
▁झाड	-9.13213
em	-9.13223
▁साइट	-9.13509
ात्मक	-9.13542
▁अधिकारी	-9.13582
▁चालव	-9.13587
▁असल्यास	-9.13625
▁आवश्यकता	-9.1363
▁९	-9.13655
▁सुरु	-9.13842
▁आशा	-9.14021
▁पट	-9.14069
▁फि	-9.14103
▁सुधार	-9.14217
▁पूर्णपणे	-9.14594
ma	-9.1461
14	-9.14685
25	-9.14737
ul	-9.14821
45	-9.14869
▁उत्	-9.14946
▁राजकारण	-9.14956
▁एन	-9.14969
▁ऱ्ह	-9.14986
▁16	-9.15068
▁धर	-9.15114
▁सिद्ध	-9.15211
▁करेल	-9.15297
▁आरोप	-9.15337
▁सूर्य	-9.15403
▁पाहू	-9.15428
▁अरे	-9.15461
▁रुग्ण	-9.15558
▁करावी	-9.15596
▁सांगत	-9.15662
▁प्रकल्प	-9.15669
▁खरंच	-9.1568
▁दुसरी	-9.15741
▁होऊन	-9.15757
ढा	-9.15887
▁माझ्यासाठी	-9.16013
▁भि	-9.16015
▁जर्मन	-9.16126
▁14	-9.16267
▁उपस्थित	-9.16281
▁चालू	-9.16499
▁पहिल्यांदा	-9.16534
प्रे	-9.16547
▁कोणीही	-9.16587
▁८	-9.16651
▁सर्वांना	-9.16657
▁स्वतःला	-9.168
▁काळात	-9.16909
▁अंदाज	-9.17203
▁अन्न	-9.17212
▁मांड	-9.17254
36	-9.17342
▁इथ	-9.17363
▁बाब	-9.17461
▁13	-9.17464
um	-9.176
▁नाहीये	-9.17605
▁खोली	-9.17629
▁लागते	-9.17701
▁सांगतो	-9.18121
▁संशोधन	-9.18149
▁वाटतं	-9.1826
ृष्ट	-9.18308
▁फिर	-9.18355
di	-9.18384
ाइन	-9.18406
▁केलं	-9.18445
▁सगळं	-9.18594
▁प्रदान	-9.18614
▁व्य	-9.18822
▁पुनर्	-9.18883
▁घेता	-9.18888
▁दाखल	-9.19043
▁राहणार	-9.19046
▁वैशिष्ट्य	-9.19073
▁देते	-9.19103
घात	-9.19144
▁वापरले	-9.19297
▁आल्या	-9.19376
▁वडील	-9.19385
▁पहिली	-9.1941
99	-9.19461
▁समोर	-9.19465
▁आलो	-9.19555
4)	-9.19671
▁समुद्र	-9.1974
37	-9.19747
▁मृत	-9.19914
▁ब्लॅक	-9.20009
▁पुणे	-9.20023
▁कोटी	-9.20052
▁भावना	-9.20092
▁टाळ	-9.20103
05	-9.20159
▁यादी	-9.2017
िश	-9.2035
▁दिन	-9.20366
▁बाकी	-9.20417
▁ब्ल	-9.20437
्ज	-9.20535
▁टक्के	-9.20545
ल्स	-9.20567
मंत्र	-9.20615
▁प्रार्थना	-9.20623
ॉप	-9.20758
▁वाग	-9.20794
ap	-9.20887
▁राजकीय	-9.20995
▁प्रदेश	-9.21012
▁शपथ	-9.21076
ग्राम	-9.21097
चित्र	-9.21105
38	-9.21186
▁नुकसान	-9.21212
▁17	-9.21224
▁पावडर	-9.21243
▁तुझी	-9.21338
▁तसा	-9.21446
▁करुन	-9.21531
▁25	-9.21544
▁धु	-9.21657
▁आठवण	-9.21801
▁a	-9.21836
▁एक्स	-9.22138
▁झालेल्या	-9.22217
▁कार्ड	-9.22312
▁कायदा	-9.22355
▁मानले	-9.22362
▁प्रमुख	-9.22405
▁थोडा	-9.22527
▁अध्यक्ष	-9.22638
▁इंग्रजी	-9.22685
▁प्रयोग	-9.22692
▁इमारत	-9.22701
ाइट	-9.22827
क्षण	-9.22876
31	-9.22892
ल्ट	-9.2302
▁लिहिले	-9.23083
▁साथ	-9.23207
खंड	-9.23289
▁राहिले	-9.23365
▁हु	-9.23384
▁पाळ	-9.23421
▁एफ	-9.23517
▁घाबर	-9.23589
07	-9.23598
▁भरपूर	-9.23616
▁तिचा	-9.23629
▁गि	-9.23754
▁यांचे	-9.23778
सारख्या	-9.23844
फो	-9.23911
▁रस्त्या	-9.23913
▁पालक	-9.23964
▁अंत	-9.24177
▁डिझाइन	-9.24212
▁पाप	-9.24317
▁बहुतेक	-9.24341
▁सतत	-9.24493
ाबद्दल	-9.24588
▁शेतकऱ्यां	-9.24597
▁कशाला	-9.24613
ॅम	-9.24615
मेंट	-9.24719
32	-9.24839
▁अंतिम	-9.24935
▁पुढ	-9.24942
▁अल्	-9.24958
प्ट	-9.24973
ांशी	-9.2508
▁उंच	-9.25085
▁पुढच्या	-9.25172
क्षित	-9.25186
▁लागला	-9.25493
ers	-9.25498
श्‍	-9.25558
▁भूमिका	-9.256
▁फ्र	-9.25764
▁वास्तव	-9.25818
▁तुम्हांला	-9.25992
ण्याच्या	-9.26021
▁आजार	-9.26132
▁प्रत्यक्ष	-9.26137
▁वाद	-9.26208
▁कथा	-9.26225
▁समान	-9.26281
▁खात्री	-9.26372
▁फु	-9.26505
and	-9.26541
▁झालं	-9.26584
▁सॉफ्टवेअर	-9.26694
▁स्त्रियां	-9.26746
सारखी	-9.26827
▁मागील	-9.26956
्यांनी	-9.27008
▁राख	-9.27089
▁मिळाला	-9.27179
्‍य	-9.27182
ack	-9.27507
विरुद्ध	-9.27554
▁आठवत	-9.27633
▁(2	-9.27683
▁लोकप्रिय	-9.27751
श्या	-9.27826
06	-9.27854
ab	-9.27961
▁मते	-9.27985
▁24	-9.27988
▁अर्थात	-9.28007
▁मनात	-9.28113
▁खरा	-9.28114
▁लोकांनी	-9.2824
▁कार्यालय	-9.28283
▁थोडे	-9.28518
ब्र	-9.28603
▁पळ	-9.2867
▁केलेले	-9.28699
▁यांचा	-9.29034
भाष	-9.29158
▁तुझा	-9.29197
▁गट	-9.29244
▁अस्तित्व	-9.29257
▁जीव	-9.29494
▁नक्कीच	-9.29503
▁क्रमांक	-9.29528
बु	-9.29607
▁नगर	-9.29639
▁एच	-9.29954
्यावर	-9.30085
▁शत्रू	-9.30242
▁ब्लॉग	-9.30291
वर्त	-9.30343
▁आदेश	-9.3052
mm	-9.30645
90	-9.30708
@	-9.30786
्यांची	-9.30809
रोध	-9.30884
फ्ट	-9.31315
ly	-9.31324
▁उतर	-9.31383
ent	-9.31594
▁संगणक	-9.31611
▁पॉ	-9.31611
▁यांची	-9.31621
▁कॅसिनो	-9.31628
▁अनेकदा	-9.31672
▁शाळेत	-9.31729
▁चंद्र	-9.31747
▁सांगा	-9.31747
▁धोरण	-9.31838
▁2019	-9.3196
▁दिसते	-9.31981
▁स्टील	-9.32122
▁ऍ	-9.32133
▁उद्	-9.3214
▁१८	-9.32295
04	-9.32299
र्ती	-9.32306
▁समजून	-9.32321
▁गॅ	-9.32356
साहेब	-9.32458
▁रहा	-9.32478
▁अर्ज	-9.32494
▁दोघे	-9.32495
हित	-9.32512
co	-9.32526
ive	-9.32589
33	-9.32597
▁नसेल	-9.32687
▁नदी	-9.32767
र्द	-9.32795
▁गुणवत्ता	-9.32808
▁सेक्स	-9.32875
-20	-9.32896
▁मूल्य	-9.33016
▁विज्ञान	-9.33076
▁आकाश	-9.33087
▁चिंता	-9.33097
08	-9.33129
▁इतके	-9.33229
▁डॉलर	-9.33259
▁असणे	-9.33302
▁जवळपास	-9.33424
ल्यानंतर	-9.33494
▁थंड	-9.33495
़	-9.33526
▁असता	-9.33576
▁सौ	-9.33705
▁संस्कृती	-9.33986
दायक	-9.33988
▁मोफत	-9.34114
▁थेट	-9.34161
▁काढून	-9.34366
▁X	-9.34369
▁पहिले	-9.34395
▁पैसा	-9.34447
▁फो	-9.34679
बळ	-9.34825
▁करणारे	-9.34851
▁घेणे	-9.34927
▁ठेवले	-9.35071
▁चोर	-9.35135
स्थान	-9.35166
▁सूचना	-9.35278
▁दुकान	-9.3532
▁समर्थन	-9.35339
▁कंपन्या	-9.35374
▁लॉ	-9.35405
▁व्यक्ति	-9.35589
im	-9.35595
ाइड	-9.35612
▁केस	-9.35649
▁सद	-9.35654
▁इतकी	-9.35697
▁बातम्या	-9.35715
▁In	-9.35729
▁भाषे	-9.3588
▁गुरु	-9.35962
▁१५	-9.36197
▁फायदे	-9.36257
▁सहज	-9.36263
▁कोणताही	-9.36263
▁तपास	-9.36379
▁वेगळी	-9.36383
▁यशस्वी	-9.36473
34	-9.36707
▁स्वच्छ	-9.36741
▁रड	-9.3686
me	-9.36912
▁सुट	-9.36912
▁करायची	-9.3698
▁मज	-9.37129
▁॥	-9.37156
▁रोजी	-9.37232
▁शहरात	-9.37275
Z	-9.3731
▁कुठून	-9.3731
▁शकेल	-9.37323
▁कपडे	-9.37331
▁प्रगत	-9.37361
▁व्हि	-9.37481
ip	-9.37543
▁लागणार	-9.37664
▁जिल्हा	-9.377
ट्या	-9.37831
▁म्हणाली	-9.37999
▁तिचे	-9.38025
▁ठिकाण	-9.38116
पोर्ट	-9.38237
39	-9.383
▁मानव	-9.38441
र्ध	-9.38445
▁साधारण	-9.38451
▁विशिष्ट	-9.38468
▁जून	-9.38537
ub	-9.38603
▁देतात	-9.38644
▁तिथ	-9.39025
्वे	-9.39133
▁दोष	-9.39278
▁असलेले	-9.39333
▁डोळे	-9.3945
▁असल्याने	-9.39536
▁सलाम	-9.39559
▁व्यक्त	-9.39596
▁पर्यावरण	-9.39601
▁पदार्थ	-9.39633
▁सत्	-9.39743
▁वाह	-9.39828
▁कोणतीही	-9.39903
▁कोड	-9.39936
▁कालावधी	-9.39995
av	-9.40051
आधी	-9.4018
hi	-9.40191
िओ	-9.40291
देखील	-9.40293
▁मोबाइल	-9.40314
▁चूक	-9.40437
▁वाहन	-9.40444
▁इंटरनेट	-9.40446
▁मालक	-9.40503
▁दर्शव	-9.4054
▁कोणती	-9.40759
▁रू	-9.40812
▁प्रिय	-9.40881
▁जागतिक	-9.40903
▁दररोज	-9.40938
▁नाटक	-9.41015
▁सादर	-9.41112
▁प्राणी	-9.41145
▁बुद्ध	-9.41167
▁टॉ	-9.41295
▁कुणी	-9.41343
48	-9.41494
▁किमान	-9.41685
▁आवडते	-9.41893
▁तसं	-9.42
ज्ञान	-9.4205
▁तोंड	-9.42115
▁मागा	-9.42128
▁मूळ	-9.42285
▁जसे	-9.42306
▁करणाऱ्या	-9.42316
▁तिची	-9.42338
▁सभा	-9.42379
▁प्रेरणा	-9.42402
ang	-9.42477
काम	-9.42592
द्द	-9.42617
09	-9.42647
=	-9.42659
ia	-9.42705
▁अर्ध	-9.42709
▁निर्मिती	-9.4285
▁स्थानिक	-9.4311
▁ईश्वर	-9.43315
70	-9.43334
ऑ	-9.4343
▁फरक	-9.43479
▁लाल	-9.43484
▁वर्षांपूर्वी	-9.43528
▁निकाल	-9.43652
▁सक्षम	-9.43704
▁घेतो	-9.43727
▁कागद	-9.43837
क्रि	-9.43892
▁माझ्याकडे	-9.44013
24	-9.44061
▁कर्मचारी	-9.44133
▁आतापर्यंत	-9.44141
▁अति	-9.4423
▁सैन्य	-9.44486
ov	-9.44501
करिता	-9.44578
est	-9.44687
▁गेलो	-9.44689
तुम्ही	-9.44691
▁2017	-9.44761
▁करण्याचे	-9.44793
ऋ	-9.4482
▁महत्त्वाचे	-9.44931
▁उमेदवार	-9.44958
▁वेगळा	-9.45032
▁आठवड्यात	-9.45071
▁सगळी	-9.45085
▁मुद्दा	-9.45136
▁जाहिरात	-9.45155
ex	-9.4517
▁परवानगी	-9.45234
▁देणे	-9.45254
47	-9.4535
▁अपेक्षा	-9.45424
▁ऑक्टोबर	-9.45452
▁प्रकारच्या	-9.45465
वेळ	-9.45504
▁न्यायालय	-9.4552
▁मानवी	-9.45624
one	-9.45717
▁प्ले	-9.45747
▁कायद्या	-9.45783
▁कविता	-9.45961
▁१२	-9.46024
▁फळ	-9.46085
▁घेणार	-9.4611
कल्प	-9.4619
▁मजा	-9.4627
▁आश्चर्य	-9.46287
साक्ष	-9.46292
▁मिळते	-9.46403
▁हातात	-9.46428
िस्ट	-9.46459
▁सल्ला	-9.46492
▁जानेवारी	-9.46649
▁मोदी	-9.46665
▁सार्वजनिक	-9.46708
एफ	-9.46919
▁नोंद	-9.47002
▁होणे	-9.47224
णूक	-9.47248
▁वैयक्तिक	-9.47312
▁आमचा	-9.47586
▁संवाद	-9.47606
▁मुलं	-9.47641
▁व्यवस्थापन	-9.47711
पुढे	-9.47868
▁मार्च	-9.47939
▁त्यातील	-9.47942
▁जाण्या	-9.47943
▁समिती	-9.47972
▁प्रस्ताव	-9.48083
▁कळत	-9.4809
▁वाचन	-9.48212
▁मालिका	-9.48599
▁हवं	-9.48658
▁निवडणूक	-9.48769
▁सामना	-9.48856
▁आईची	-9.48875
श्व	-9.48893
ig	-9.48918
▁मरण	-9.4895
▁Ch	-9.49209
▁थोडी	-9.4925
▁सहभागी	-9.49291
▁इतका	-9.49323
▁बोनस	-9.4939
▁हॉटेल	-9.49435
▁पाड	-9.49535
▁येथील	-9.49641
▁स्वतंत्र	-9.49684
▁भांड	-9.49685
▁घोषणा	-9.49726
िटी	-9.49793
▁दृश्य	-9.49869
▁गुंतवणूक	-9.50034
▁वेगवेगळ्या	-9.50076
▁माध्यमातून	-9.50123
▁नाश	-9.50171
▁भो	-9.50175
▁श्रीमंत	-9.5041
up	-9.50411
▁बैठक	-9.50513
▁वडिलां	-9.50517
▁अचानक	-9.50534
▁प्रकारचे	-9.50562
▁महत्वाचे	-9.50603
▁सत्ता	-9.50605
ज्ज	-9.50617
▁गड	-9.50633
▁कॉल	-9.5066
ध्या	-9.50681
▁£	-9.50816
▁मॉडेल	-9.51035
▁व्यवहार	-9.51056
विद्य	-9.51133
ऐ	-9.5149
▁चढ	-9.51649
02	-9.51656
▁चाचणी	-9.5173
▁आलं	-9.51815
▁विकसित	-9.51923
▁बाबा	-9.51982
▁शुद्ध	-9.52005
;&	-9.52058
▁रॉ	-9.52419
▁रात्र	-9.52442
▁होण्याची	-9.52451
क्शन	-9.52508
▁दिसून	-9.52578
।	-9.5262
▁ठीक	-9.52644
▁जिवंत	-9.52684
▁दुसरे	-9.52752
▁आत्ता	-9.52811
▁कॅम	-9.53017
▁हक्क	-9.53046
▁टीव्ही	-9.53105
▁महिने	-9.53113
ष्ण	-9.53136
▁बाबतीत	-9.53172
▁रुपये	-9.53196
▁करायचा	-9.53252
▁असो	-9.53328
▁पाऊस	-9.53394
▁बरेच	-9.53509
▁लागतो	-9.53548
▁उलट	-9.53699
▁पुनरावलोकन	-9.53733
▁नोंदणी	-9.53756
▁नसल्या	-9.53857
▁परीक्षा	-9.5395
▁स्वरूप	-9.53977
▁आधारित	-9.54025
▁कारवाई	-9.54057
▁जाहीर	-9.54257
▁दो	-9.5444
▁अंतर्गत	-9.54447
="2	-9.54494
▁दर्जा	-9.54501
य़ा	-9.54621
▁स्थापना	-9.54707
46	-9.5472
▁जबाबदारी	-9.54808
ver	-9.55011
▁साजरा	-9.55127
▁रोग	-9.55157
▁येऊन	-9.55247
75	-9.55655
▁उचल	-9.55661
मराठ	-9.55705
▁दिल्ली	-9.55822
▁फॅक्टरी	-9.5602
Name	-9.56066
▁पुत्र	-9.56157
▁वेबसाइट	-9.56196
▁कलाकार	-9.56212
03	-9.5638
▁जमीन	-9.56391
▁प्रतिक्रिया	-9.5653
all	-9.56722
▁समाविष्ट	-9.56727
▁सुधारणा	-9.56827
▁वातावरण	-9.56994
▁सुरवात	-9.57109
▁रचना	-9.57114
▁पातळी	-9.57807
▁करतील	-9.57846
if	-9.57899
▁मार्गदर्शन	-9.57911
▁याबाबत	-9.58084
55	-9.58194
▁अहवाल	-9.58405
▁वचन	-9.58417
▁देवाने	-9.58454
▁आज्ञा	-9.58487
ाखाली	-9.58565
▁जमा	-9.58617
▁नियमित	-9.5893
42	-9.59077
▁सुविधा	-9.59107
ांनो	-9.5913
▁2015	-9.59163
▁लॅ	-9.59274
▁झालो	-9.59477
▁शासन	-9.595
ist	-9.59513
कृष्ण	-9.5952
▁St	-9.59711
▁येण्या	-9.60067
▁लिहित	-9.60129
▁लगेच	-9.60135
▁हस्त	-9.60157
ant	-9.60192
▁टिक	-9.60261
▁उत्कृष्ट	-9.60364
▁समाधान	-9.60457
▁जिल्ह्या	-9.60503
65	-9.60607
▁गरीब	-9.60627
▁धोका	-9.60712
▁कोणतेही	-9.60762
▁कामगिरी	-9.60858
Q	-9.61076
ानुसार	-9.6111
67	-9.61207
57	-9.61328
▁मोह	-9.61611
▁क्लिक	-9.61676
्यांचा	-9.61687
▁माझं	-9.6169
56	-9.61718
86	-9.61801
97	-9.61806
ect	-9.61813
▁[...]	-9.61848
आम्ही	-9.61851
▁वर्णन	-9.61953
▁असलेली	-9.62047
▁प्रतिसाद	-9.6213
▁जवळजवळ	-9.62244
ak	-9.62307
▁दुख	-9.62402
▁स्पर्धा	-9.62405
▁अमेरिका	-9.6241
▁परिषद	-9.62462
कर्ता	-9.62546
▁चेहरा	-9.62645
▁राहतात	-9.62665
▁अनुप्रयोग	-9.62668
[	-9.62692
▁भाषण	-9.62774
▁आठवड्या	-9.62863
तनांसाठी	-9.62869
▁जुन्या	-9.62883
▁वर्षांत	-9.62895
▁३०	-9.63066
▁हत्या	-9.63069
▁रुपया	-9.63151
▁पात्र	-9.63263
ऐवजी	-9.63306
▁उल्लेख	-9.63567
▁An	-9.63622
▁पंतप्रधान	-9.6371
▁मोज	-9.63725
▁जमिनी	-9.63734
▁आवृत्ती	-9.63811
ांपेक्षा	-9.63824
▁सामग्री	-9.64091
नगर	-9.64186
▁एप्रिल	-9.64306
▁पत्रकार	-9.64309
▁थांबव	-9.64363
▁कामगार	-9.64418
▁निराश	-9.64565
▁बातमी	-9.64609
▁तारीख	-9.64693
अभिवादन	-9.64827
कुमार	-9.6491
41	-9.64994
▁एवढे	-9.65099
▁अभिमान	-9.65114
▁2014	-9.65156
▁दिल्या	-9.65262
▁रद्द	-9.65272
98	-9.6529
▁De	-9.65419
▁सप्टेंबर	-9.65486
०००	-9.65578
▁प्रशासन	-9.65631
▁स्वातंत्र्य	-9.65704
▁क्रिकेट	-9.65899
▁पद्धत	-9.66014
आणि	-9.66182
▁उभे	-9.66224
▁अडचण	-9.66514
वर्ष	-9.66542
ांकडे	-9.66689
▁फुल	-9.66708
▁वाचव	-9.66842
ity	-9.66951
▁येतील	-9.66969
▁सर्वाधिक	-9.67162
&	-9.67203
▁वाक्य	-9.67223
bo	-9.673
▁प्रकाशित	-9.67338
▁माध्यम	-9.67536
77	-9.67579
87	-9.67732
▁मजबूत	-9.67764
▁रविवार	-9.67791
फाय	-9.67822
ांपासून	-9.67884
▁आव्हान	-9.67909
▁माणसे	-9.67962
▁उपक्रम	-9.67991
▁2016	-9.68065
▁शकणार	-9.68086
▁जादूगार	-9.68329
▁आभार	-9.68595
95	-9.68774
▁ऑस्ट्रेलिया	-9.6881
▁तपशील	-9.68835
▁कॉलेज	-9.68918
▁चहा	-9.68985
▁सिनेमा	-9.69217
▁शेती	-9.69234
▁आधुनिक	-9.69261
▁राहिला	-9.69307
िअर	-9.69405
▁शेअर	-9.69414
▁सायकल	-9.69491
44	-9.6953
ब्ब	-9.69586
▁शाळे	-9.69658
▁राहील	-9.6968
▁स्वयंपाक	-9.69841
▁अपघात	-9.69939
ांकडून	-9.70207
▁जिथे	-9.70235
49	-9.70306
▁रशिया	-9.70324
▁व्यायाम	-9.70426
▁त्यानुसार	-9.70558
▁गांधी	-9.70708
ब्ल	-9.70714
▁लागतात	-9.70818
▁छान	-9.71032
▁अटक	-9.71033
▁पावसा	-9.71309
▁ऑफिस	-9.71396
▁प्रतिमा	-9.71456
▁भीती	-9.71564
ment	-9.71572
▁मोटर	-9.71836
▁फॉ	-9.71851
▁हृदय	-9.71989
▁कुठल्या	-9.72093
▁घेण्यासाठी	-9.72208
▁वैद्यकीय	-9.72429
▁शतक	-9.7244
▁चु	-9.72469
▁लढाई	-9.72629
▁स्मार्ट	-9.72637
▁मानसिक	-9.72644
▁हॅ	-9.72708
▁कोणीतरी	-9.72776
▁प्रचंड	-9.72891
▁नंबर	-9.73148
म्ब	-9.73162
▁सांगतात	-9.73196
ांमुळे	-9.73222
▁वीर्यपिचकारी	-9.73263
ऱ	-9.73683
▁विस्तार	-9.73736
▁दरवाजा	-9.73947
66	-9.7433
स्टार	-9.74379
▁पवार	-9.74526
▁उदाहरणार्थ	-9.74527
▁अद्याप	-9.74555
▁नेतृत्व	-9.74581
▁योजने	-9.74592
▁सैनिक	-9.7466
▁चौकशी	-9.74742
▁जगभरात	-9.74779
त्त्व	-9.74886
▁मूवीस	-9.74901
▁तथापि	-9.75166
▁गरम	-9.75336
▁खाऊ	-9.75448
मधे	-9.75583
▁प्रारंभ	-9.75674
छ	-9.75753
▁रोख	-9.7584
ानं	-9.75941
96	-9.76016
▁उपकरणे	-9.76024
▁विजे	-9.76049
▁नसतो	-9.76223
▁शिक्षा	-9.76407
▁छोट्या	-9.76455
▁गर्भ	-9.76663
▁मूर्ख	-9.76672
▁वास्तविक	-9.76819
▁तत्त्व	-9.77078
▁निर्देश	-9.77346
▁आवडेल	-9.77421
▁जनते	-9.77505
▁बोलाव	-9.77512
▁इन्	-9.77521
▁Home	-9.77733
▁कसं	-9.77845
▁सुपर	-9.78137
▁अवलंबून	-9.7842
▁अधिकृत	-9.78702
▁आंदोलन	-9.78806
▁दगड	-9.78952
▁पूजा	-9.79032
▁संदर्भ	-9.79062
▁निसर्ग	-9.79087
▁जेथे	-9.79347
▁अखेर	-9.79403
▁१००	-9.79564
▁नेते	-9.79621
▁विसरू	-9.79771
▁प्रदर्शन	-9.79791
able	-9.79808
▁संस्थे	-9.79896
▁डोंगर	-9.79971
▁प्रश्‍न	-9.80257
मागे	-9.80434
▁आहार	-9.80516
▁चलन	-9.80635
▁तपासणी	-9.80663
▁for	-9.8082
सीए	-9.80846
▁जॉन	-9.80919
▁’’	-9.81063
▁देईल	-9.81164
▁पसर	-9.81246
▁२५	-9.81305
▁नजर	-9.81329
▁तापमान	-9.81385
▁you	-9.81531
▁इंजिन	-9.81556
▁गुंत	-9.81672
▁पोलीस	-9.81942
▁नैसर्गिक	-9.82039
▁विनामूल्य	-9.82211
▁दुरुस्त	-9.8224
▁अधिकाऱ्यां	-9.82269
▁जुलै	-9.82471
▁सवय	-9.82478
▁करीन	-9.82498
▁शेतकरी	-9.82526
▁फेब्रुवारी	-9.8267
▁ग्रंथ	-9.82843
qu	-9.82865
▁लिमिटेड	-9.82929
69	-9.83004
▁बांधकाम	-9.83012
▁उद्देश	-9.83106
ेश्वर	-9.833
▁वंश	-9.83454
▁वायर	-9.83469
▁मुख्यमंत्री	-9.83479
▁घ्यायला	-9.83508
▁इटालियन	-9.83537
▁भागीदार	-9.836
▁दुपारी	-9.83654
▁जादू	-9.83785
▁तक्रार	-9.83856
ाधिक	-9.83946
▁११	-9.84004
स्थापित	-9.84101
▁मीडिया	-9.84131
बोध	-9.84231
▁गेम	-9.84385
▁स्लॉट	-9.84411
▁अब्	-9.84489
▁उपयुक्त	-9.84585
▁जंगल	-9.846
▁हल्ला	-9.84622
व्यवस्थे	-9.84762
▁करील	-9.84935
ill	-9.84998
▁स्थिर	-9.84999
▁उत्साह	-9.85307
▁दुसर्‍या	-9.85618
▁इंग्लंड	-9.85647
▁तशी	-9.85661
▁निवडणुकी	-9.85795
▁सहकार्य	-9.85829
▁श्रेणी	-9.85885
▁दिशा	-9.85911
▁ऑगस्ट	-9.85915
▁पालन	-9.86334
▁महाराज	-9.86669
▁गाड्या	-9.86939
▁2013	-9.87002
▁पश्चिम	-9.87471
▁जहाज	-9.87728
▁वाजता	-9.88125
▁संघर्ष	-9.88289
▁कॉफी	-9.88294
▁फॉर्म	-9.88447
रित्या	-9.88522
किशोर	-9.88546
▁हिंदू	-9.88595
▁ठार	-9.88655
▁वर्षांपासून	-9.88783
▁रशियन	-9.88838
▁गुन्हा	-9.89053
▁वाढदिवस	-9.89076
▁स्तर	-9.89219
▁विमानतळ	-9.89225
▁दीर्घ	-9.89236
▁वाहतूक	-9.89267
▁अंक	-9.89379
▁डिसेंबर	-9.8939
▁महिना	-9.89484
▁फ्रान्स	-9.89544
▁ब्रिटिश	-9.89821
▁रक्षण	-9.8999
▁कर्तव्य	-9.90007
▁पॅकेज	-9.90193
गिरी	-9.90203
▁दूध	-9.90292
▁कार्यरत	-9.90397
89	-9.90468
▁अतिरिक्त	-9.90503
▁शीर्ष	-9.90597
▁उत्पन्न	-9.90597
संदर्भात	-9.9062
▁पुष्कळ	-9.90721
लॉग	-9.90882
▁परिसर	-9.90931
▁आदर	-9.91081
▁तलवार	-9.91137
▁तुम्हा	-9.91311
▁गुप्त	-9.91365
▁जलद	-9.91451
तंय	-9.91549
▁फाइल	-9.91734
▁पराभव	-9.91755
माझ्या	-9.9176
▁परिपूर्ण	-9.91807
▁उशीर	-9.91895
▁दिवाळी	-9.91976
पट्टी	-9.91987
▁सगळ	-9.92019
▁शनिवार	-9.92076
▁फ्रेंच	-9.92134
J	-9.92183
▁अजिबात	-9.92292
▁शुक्रवार	-9.92355
▁पसंत	-9.92444
▁Google	-9.92545
ock	-9.92594
ठ्ठ	-9.92778
▁कुठले	-9.92802
▁रक्कम	-9.92896
▁ट्रेन	-9.93022
▁अनुवाद	-9.93195
▁प्रसार	-9.93483
▁अभ्यासक्रम	-9.93503
ष्क	-9.93645
▁रस्ता	-9.93731
▁दशक	-9.93837
▁शुल्क	-9.94177
▁साखर	-9.94314
▁ईमेल	-9.94373
राष्ट्र	-9.94399
▁आमदार	-9.94578
▁पर्वत	-9.94724
▁सांभाळ	-9.94857
▁दावीद	-9.94925
▁इतक्या	-9.9499
ight	-9.95184
ट्रि	-9.953
▁पॉलि	-9.95349
▁बचत	-9.95376
ानु	-9.95536
▁सांगितलं	-9.95576
▁संध्याकाळ	-9.9564
व्यवस्था	-9.95644
▁विनंती	-9.95804
▁पंच	-9.96018
▁निष्	-9.96066
▁वर्तमान	-9.96102
▁तुलना	-9.96183
▁और	-9.96463
▁काँग्रेस	-9.96528
▁आशिया	-9.96667
▁तुलनेत	-9.96826
▁सामर्थ्य	-9.96859
▁नेटवर्क	-9.96892
▁नसले	-9.97061
▁शिष्य	-9.97276
▁do	-9.97342
▁याजक	-9.97419
▁सन्मान	-9.97424
व्यतिरिक्त	-9.97724
▁उत्सुक	-9.97893
▁आरक्षण	-9.97963
कालीन	-9.9815
▁ऊर्जा	-9.9823
ell	-9.98496
▁विश्लेषण	-9.98664
▁एखादा	-9.98665
मुद्र	-9.98897
▁दुष्काळ	-9.99036
▁वेब	-9.99205
▁फेसबुक	-9.99342
▁स्त्रिया	-9.99613
▁दुःख	-10.0002
▁अशक्य	-10.0006
▁सुरुवातीला	-10.0021
▁ऑनलाईन	-10.0026
▁तांत्रिक	-10.003
▁उन्हा	-10.0038
▁नव्हतं	-10.0054
▁पार्टी	-10.0058
▁सर्व्ह	-10.0086
▁सामन्या	-10.0092
▁जाणीव	-10.0108
▁कमाल	-10.0112
▁आयोजित	-10.0112
▁संपत्ती	-10.0113
▁मार्गदर्शक	-10.0133
▁संकल्पना	-10.0148
▁डिजिटल	-10.0157
▁पाहिला	-10.0164
निमित्त	-10.0182
▁संकट	-10.0229
▁सॅ	-10.0238
▁स्पर्धे	-10.0262
▁पिढी	-10.0266
▁कृपा	-10.0298
▁प्रमाणपत्र	-10.0314
एक्सएनयूएमएक्स	-10.0365
▁फुटबॉल	-10.0372
▁सहमत	-10.0381
▁वाचले	-10.0395
▁अंमलबजावणी	-10.0418
‘	-10.0422
▁दबाव	-10.0423
▁थोड्या	-10.0432
भूमी	-10.0434
▁चमत्कार	-10.0446
दरम्यान	-10.0496
▁कठोर	-10.0515
दायी	-10.0515
▁परिवर्तन	-10.0544
▁प्रसंग	-10.0549
▁ग्रह	-10.0554
▁Next	-10.0572
ायचो	-10.0574
▁ताकद	-10.0577
▁ध्येय	-10.0601
कडील	-10.0602
+	-10.0626
▁तीव्र	-10.0627
▁चुकीचे	-10.0639
▁वितरण	-10.0661
▁सानुकूल	-10.0663
▁संघटना	-10.0673
▁वकील	-10.0675
▁सक्रिय	-10.07
▁सर्वकाही	-10.0709
–	-10.0712
▁नृत्य	-10.0719
▁दुर्लक्ष	-10.0761
▁क्रेडिट	-10.0766
▁आघाडी	-10.0788
▁गमाव	-10.0792
▁यरुशलेम	-10.0803
▁यहूदा	-10.0807
▁संकेतस्थळ	-10.0807
▁वाचून	-10.0808
▁पुण्य	-10.0812
▁पाटील	-10.0823
▁प्राथमिक	-10.0825
▁याप्रसंगी	-10.084
▁बचाव	-10.0847
▁धक्का	-10.0848
▁कारखाना	-10.0874
▁जबाबदार	-10.0883
▁घड्याळ	-10.0893
▁शुभेच्छा	-10.0907
▁स्थळ	-10.0908
▁ईमानधारक	-10.0911
▁कर्तृत्वाला	-10.0911
▁आपलं	-10.0932
▁आत्महत्या	-10.0934
दिवस	-10.0964
▁कौशल्य	-10.0983
▁प्रतिष्ठा	-10.0994
▁लोकसंख्या	-10.1024
▁हिंदु	-10.1024
शक्ती	-10.1031
▁लष्कर	-10.1032
▁ऐतिहासिक	-10.1043
▁अ‍ॅ	-10.1043
▁कॅमेरा	-10.1078
▁Previous	-10.1089
▁ऑपरेशन	-10.1104
▁औद्योगिक	-10.1127
जमावतो	-10.1158
▁बऱ्याच	-10.1159
▁धातू	-10.1164
▁अंधार	-10.1186
▁माणसं	-10.1208
▁You	-10.1219
▁लैंगिक	-10.125
▁पुरेसे	-10.125
▁सकारात्मक	-10.1254
*	-10.1269
▁FSX	-10.127
▁हाताळ	-10.1274
सारखं	-10.1282
▁Android	-10.1301
▁प्रभु	-10.1332
▁समुदाय	-10.1344
▁खाजगी	-10.1348
▁नेत्यां	-10.1359
▁बहिणी	-10.1379
▁महाविद्यालय	-10.1383
▁द्वार	-10.1406
▁इत्यादी	-10.1426
▁प्लास्टिक	-10.143
▁विद्युत	-10.1442
▁बायको	-10.1458
▁article	-10.1482
▁ट्रॅक	-10.1503
▁जाणवत	-10.1541
▁शैक्षणिक	-10.1545
▁अपयश	-10.1546
▁अथवा	-10.1546
▁गैर	-10.1551
▁धार्मिक	-10.1553
▁निर्माता	-10.1569
▁बहुतांश	-10.1582
▁गौरव	-10.1594
▁म्हटलं	-10.1601
▁मिळाल्या	-10.1605
▁एखादी	-10.1609
▁शंका	-10.1613
स्फोट	-10.1618
▁शुभ	-10.1622
▁म्हणालो	-10.1642
▁प्रक्रिये	-10.165
▁नोव्हेंबर	-10.1658
▁कधीकधी	-10.1662
▁अचूक	-10.1666
▁निवास	-10.1666
▁सरासरी	-10.167
▁प्राचीन	-10.1686
▁आफ्रिके	-10.169
▁आशीर्वाद	-10.169
▁वृक्ष	-10.169
▁मैत्री	-10.1698
▁स्वयंचलित	-10.1698
▁बायबल	-10.1698
ाधिकार	-10.173
▁फिल्टर	-10.1731
▁पैशा	-10.1751
▁कायदेशीर	-10.1755
▁उड्डाण	-10.1763
▁सावध	-10.1768
▁मजकूर	-10.1771
▁पेपर	-10.1775
▁मांजर	-10.1779
▁छोटी	-10.1796
▁राहिली	-10.1834
कर्त्या	-10.1848
▁मोबाईल	-10.1874
▁दिशेने	-10.1882
▁आपोआप	-10.1886
▁सर्वेक्षण	-10.1887
▁हलव	-10.1903
▁अर्पण	-10.1917
▁संशोधक	-10.1919
ग्राफ	-10.1928
▁मेच्यूर	-10.1944
▁अपेक्षित	-10.1965
▁लोकशाही	-10.197
▁सिंह	-10.1971
▁शारीरिक	-10.1978
▁प्रेक्षक	-10.1978
▁वृद्ध	-10.1982
▁गोंधळ	-10.1986
▁आकर्षक	-10.1994
▁तिसऱ्या	-10.2003
▁स्क्रीन	-10.2007
▁एकमेव	-10.2014
▁वेदना	-10.2029
▁इस्लाम	-10.2037
▁अगोदर	-10.204
▁सौंदर्य	-10.2053
▁व्हायला	-10.2058
▁कॅनडा	-10.2066
▁विकिपीडिया	-10.2086
▁गर्दी	-10.2095
▁मुलाखत	-10.2154
▁व्याख्या	-10.2154
▁स्टिरॉइड	-10.2158
▁फायबर	-10.2158
▁मर्यादित	-10.2163
▁मालमत्ता	-10.2184
▁लिंक	-10.2199
ोत्सव	-10.2215
▁उत्सव	-10.2217
▁ऑर्डर	-10.2257
marathi	-10.2291
▁थोडक्यात	-10.2291
▁यहूदी	-10.2299
▁वारंवार	-10.2338
▁श्वास	-10.2338
▁भगवान	-10.2343
▁सहकारी	-10.2352
▁संभाव्य	-10.2356
▁मूलभूत	-10.2377
▁एवढी	-10.2386
▁घटने	-10.2391
▁इराण	-10.2401
▁ध्यान	-10.2401
▁मुदत	-10.2432
▁चांगलं	-10.2447
▁नियंत्रित	-10.246
▁मर्यादा	-10.2469
▁भिंती	-10.2482
▁कुत्र्या	-10.2492
▁राजधानी	-10.2513
▁वैज्ञानिक	-10.253
▁चळवळ	-10.2539
ाबाद	-10.2558
▁परंपरा	-10.2561
▁दहशतवाद	-10.2565
▁प्रोफाइल	-10.2592
▁पाईप	-10.2616
▁स्नायू	-10.2623
▁संकेत	-10.2646
▁टप्प्या	-10.2659
▁प्रिंट	-10.2664
▁एवढा	-10.2686
▁जखमी	-10.269
▁देईन	-10.2706
▁सजावट	-10.2712
▁फाईल	-10.2714
▁कहाणी	-10.2717
▁तुमचं	-10.2758
▁रेकॉर्ड	-10.2771
▁दशलक्ष	-10.2784
▁आश्चर्यकारक	-10.2834
▁पाहिलं	-10.2844
▁योगदान	-10.2866
▁प्रतीक्षा	-10.2875
▁समाप्त	-10.2912
▁ठाकरे	-10.2916
▁त्वरित	-10.2916
▁चेंडू	-10.2921
▁पुटपुटत	-10.2944
क्रांती	-10.296
▁नमुना	-10.2972
▁सहाय्य	-10.2972
▁सेकंद	-10.2976
▁पाऊल	-10.3006
औ	-10.4241
•	-10.437
‍	-10.7619
“	-10.9425
$	-11.0153
q	-11.0929
॥	-11.2485
»	-11.2896
#	-11.3594
ऍ	-12.1706
£	-12.3972
ञ	-12.5029
