<unk>	0
<s>	0
</s>	0
.	-2.80695
,	-3.84875
▁आहे	-4.18559
▁	-4.2738
▁आणि	-4.62475
च	-4.84842
▁नाही	-4.99559
?	-5.13297
त	-5.21089
ला	-5.26437
▁एक	-5.32331
▁ते	-5.36778
▁मी	-5.37436
▁हे	-5.40495
▁या	-5.43587
)	-5.44304
ी	-5.48109
स	-5.50734
▁आहेत	-5.52256
:	-5.55084
ही	-5.62672
▁(	-5.63982
च्या	-5.67389
-	-5.72399
चा	-5.77031
े	-5.78533
▁व	-5.79351
▁हा	-5.81159
ा	-5.81863
▁तो	-5.83045
▁का	-5.83234
▁पण	-5.83691
र	-5.84654
चे	-5.88735
▁काही	-5.89828
ची	-5.90253
▁आपण	-5.92872
▁तर	-5.96631
▁मला	-5.98551
न	-5.99954
▁होते	-6.00017
▁की	-6.00336
!	-6.00539
▁काय	-6.01633
ल	-6.0333
▁त्या	-6.06057
ात	-6.06146
क	-6.10873
▁ही	-6.1157
ने	-6.11906
ं	-6.1289
;	-6.17963
▁असे	-6.19736
य	-6.22893
▁‘	-6.25512
▁आपल्या	-6.27861
▁ती	-6.29728
▁-	-6.37411
’	-6.3831
▁सर्व	-6.3863
ले	-6.40258
वर	-6.40649
▁आता	-6.43399
ली	-6.44969
▁त्यांना	-6.45162
▁"	-6.45257
▁आम्ही	-6.46198
म	-6.46637
ता	-6.46871
▁तुम्ही	-6.47468
▁होता	-6.47503
▁होती	-6.49316
मध्ये	-6.51634
ाचा	-6.54458
▁त्यामुळे	-6.55514
▁म्हणून	-6.57079
▁किंवा	-6.57306
ाची	-6.57325
▁केले	-6.58407
ाच्या	-6.60336
▁“	-6.63765
▁करा	-6.67545
ाचे	-6.6931
▁त्याला	-6.69898
▁काम	-6.70772
s	-6.71074
▁केली	-6.7548
▁माझ्या	-6.77296
▁त्यांनी	-6.77844
ून	-6.81217
ड	-6.8158
ाला	-6.82558
▁त्यांच्या	-6.82581
▁तुम्हाला	-6.8424
▁विचार	-6.84761
▁न	-6.85315
▁म्हणजे	-6.86213
▁करू	-6.86315
▁अनेक	-6.86536
▁मध्ये	-6.86607
ाने	-6.87072
▁अ	-6.87297
साठी	-6.8833
व	-6.89549
▁केला	-6.90916
▁आज	-6.91025
▁:	-6.91372
▁कारण	-6.91729
ांना	-6.93432
▁लोक	-6.93561
▁जे	-6.95839
ू	-6.97051
▁झाले	-6.9742
ना	-6.98853
▁दोन	-6.99047
प	-7.00826
ज	-7.01185
▁खूप	-7.01682
▁अधिक	-7.02106
▁असते	-7.02813
▁दिवस	-7.03465
▁वेळ	-7.03465
्स	-7.04417
▁&	-7.05289
▁'	-7.05342
▁तेव्हा	-7.05522
"	-7.05531
gt	-7.06212
▁एका	-7.07134
ट	-7.07277
▁आले	-7.07423
▁फक्त	-7.08027
▁झाला	-7.09468
▁असेल	-7.10153
▁तू	-7.10331
▁त्याच्या	-7.10591
▁करण्यासाठी	-7.10784
▁प्रत्येक	-7.12551
ावर	-7.14316
ांची	-7.14404
▁कमी	-7.14696
ते	-7.15108
▁नाहीत	-7.15124
▁करून	-7.15509
▁/	-7.16749
▁माहिती	-7.16895
'	-7.17466
▁झाली	-7.17753
▁?	-7.18056
▁1	-7.18647
▁करत	-7.20006
ल्या	-7.20927
वा	-7.21795
ब	-7.22439
ण	-7.25253
▁आमच्या	-7.26992
▁आपल्याला	-7.27075
▁तरी	-7.2719
▁ह्या	-7.28314
ांच्या	-7.28359
री	-7.29298
णे	-7.29545
▁पुन्हा	-7.30087
▁तयार	-7.30148
▁तुमच्या	-7.31664
▁नवीन	-7.3182
▁मदत	-7.32731
▁ना	-7.32864
ासाठी	-7.33707
ांनी	-7.34049
▁त्याने	-7.34456
▁असा	-7.34473
▁होत	-7.34681
▁असतात	-7.361
▁कोण	-7.36797
▁करण्यात	-7.37223
▁असतो	-7.37278
▁करणे	-7.37317
शी	-7.37395
▁मुहम्मद	-7.37415
▁इतर	-7.3746
▁2	-7.37893
▁आली	-7.3844
▁अशा	-7.39257
▁करतो	-7.39275
▁गोष्टी	-7.39289
▁जास्त	-7.39556
या	-7.39817
मी	-7.40177
▁जाते	-7.40218
▁परंतु	-7.40281
ांचा	-7.40312
▁येथे	-7.4081
तील	-7.41122
▁किती	-7.41588
▁खेळ	-7.42314
▁मात्र	-7.4243
▁सर्वात	-7.42632
िंग	-7.428
▁शकते	-7.4293
▁होणार	-7.43086
▁आला	-7.44601
रा	-7.44664
▁प्रश्न	-7.4555
ित	-7.45909
▁मग	-7.47583
द	-7.47958
ळ	-7.4854
▁परत	-7.4858
▁होतो	-7.4878
▁नाव	-7.49103
▁पाहिजे	-7.49303
▁शकता	-7.49884
▁होईल	-7.50657
▁!	-7.51411
▁तसेच	-7.51635
▁–	-7.51735
▁आहोत	-7.52321
▁सुरू	-7.5315
▁3	-7.5376
▁तीन	-7.54069
/	-7.54144
▁केवळ	-7.54304
▁त्यात	-7.54311
▁शकतो	-7.55526
ंना	-7.55593
तो	-7.55706
▁वर	-7.5577
▁पूर्ण	-7.56714
”	-7.56881
▁अल्लाह	-7.56911
▁येत	-7.57241
▁कधी	-7.58371
▁वापर	-7.58927
▁देव	-7.58962
▁प्रयत्न	-7.59501
मा	-7.59662
ातील	-7.5973
श	-7.60058
▁करतात	-7.60512
▁आ	-7.60741
▁आपले	-7.61321
ांचे	-7.61478
▁आम्हाला	-7.62224
ग	-7.62442
का	-7.62948
▁माझा	-7.63206
▁आवश्यक	-7.63232
▁होऊ	-7.63556
y	-7.63675
▁घर	-7.63771
▁शकत	-7.64006
ह	-7.64856
▁गरज	-7.65067
ो	-7.65739
▁तुला	-7.66441
▁त्याचा	-7.66879
्या	-7.68222
▁बदल	-7.68222
▁माझे	-7.69054
▁प्रेम	-7.69301
▁त्याचे	-7.69396
▁इ	-7.69624
▁असं	-7.70117
▁पुढे	-7.70252
▁तिला	-7.70443
▁गेले	-7.70709
▁त्यांचे	-7.70803
▁अशी	-7.70965
▁सेवा	-7.71372
▁5	-7.71766
▁कसे	-7.72041
ती	-7.72101
▁बाहेर	-7.72256
पासून	-7.73033
ई	-7.73253
▁माझी	-7.73336
कर	-7.73717
▁शब्द	-7.73781
्	-7.73845
▁जो	-7.74193
▁म्हणाला	-7.74207
कडे	-7.74709
▁नंतर	-7.75028
▁च्या	-7.75092
नी	-7.76155
▁त्यांची	-7.76638
लं	-7.76704
▁जात	-7.77523
▁...	-7.77707
▁म्हणाले	-7.77718
▁करता	-7.7819
▁करते	-7.78704
डी	-7.79256
▁करणार	-7.79268
▁भाग	-7.79323
ु	-7.79892
▁त्याची	-7.80111
▁निर्णय	-7.8019
3	-7.8042
1	-7.80818
▁विश्वास	-7.81065
%	-7.81196
▁म्हणजेच	-7.8122
▁लोकांना	-7.81646
ि	-7.81764
ीत	-7.81775
▁वाढ	-7.8203
▁जाऊ	-7.82094
▁क	-7.83038
िक	-7.83604
▁मार्ग	-7.83625
▁_	-7.83827
▁चांगले	-7.83867
▁जर	-7.84416
▁योग्य	-7.84541
▁जीवन	-7.84706
▁व्यक्ती	-7.84788
▁आनंद	-7.84848
(	-7.85331
▁4	-7.85534
सा	-7.8562
▁देश	-7.85707
▁चित्रपट	-7.8589
▁वि	-7.86054
▁दिली	-7.86083
▁गोष्ट	-7.86084
ंची	-7.8618
▁म	-7.86243
▁नका	-7.86666
▁ब	-7.8696
ंचा	-7.87154
ंच्या	-7.87314
▁इथे	-7.87507
="	-7.87685
▁ज्या	-7.87917
▁जा	-7.88272
▁पाणी	-7.88811
वि	-7.88875
▁दिले	-7.89024
▁10	-7.89597
▁देखील	-7.89739
ायला	-7.90079
▁चीन	-7.90284
▁सु	-7.90535
2	-7.9069
▁माहीत	-7.91268
चं	-7.91523
▁प	-7.91572
▁उत्तर	-7.91686
ख	-7.91815
▁प्रवास	-7.92166
लो	-7.92601
▁मित्र	-7.92886
▁कर	-7.93233
▁उत्पादन	-7.93438
्य	-7.93512
▁अनुभव	-7.9357
रे	-7.93639
▁वाटते	-7.93772
ण्यासाठी	-7.93777
▁घेऊन	-7.9406
▁त्यांचा	-7.94221
ंनी	-7.94241
▁चार	-7.94317
टी	-7.94489
णार	-7.95281
lt	-7.95593
▁S	-7.95716
▁वेळी	-7.95757
▁भेट	-7.95784
वे	-7.95965
▁बंद	-7.96395
▁सांगितले	-7.96555
▁प्रेषित	-7.97055
▁शकतात	-7.97091
▁कोणत्याही	-7.97301
▁अर्थ	-7.97862
▁पुस्तक	-7.97886
▁भारतीय	-7.97904
थ	-7.98249
ेल	-7.98479
D	-7.98696
▁सल	-7.98713
जी	-7.98856
▁कार्य	-7.99096
▁कंपनी	-7.9927
णी	-7.99414
▁कि	-7.99462
▁राज्य	-7.99468
▁स्वत	-7.99706
▁त्यानंतर	-8.00017
▁प्र	-8.00319
▁येईल	-8.00494
▁आई	-8.007
▁द्या	-8.00776
▁आपला	-8.00983
▁परिणाम	-8.01165
▁आहात	-8.01295
वी	-8.01379
मुळे	-8.01453
▁C	-8.01657
▁येणार	-8.01689
▁घ्या	-8.01874
▁तिच्या	-8.02168
ंचे	-8.02653
▁आपली	-8.02805
▁सुंदर	-8.03008
▁वर्ष	-8.03273
दा	-8.03335
अम्	-8.03638
▁19	-8.0444
फ	-8.04483
▁म्हणतात	-8.0465
▁प्रकार	-8.04676
▁यांनी	-8.04793
▁करायला	-8.04846
▁सुरुवात	-8.04952
▁विशेष	-8.0533
ास	-8.05878
▁पाच	-8.06066
▁करण्याची	-8.06084
ण्याची	-8.06557
▁अल्लाहचे	-8.06685
t	-8.06983
▁इलाह	-8.07243
▁१९	-8.07642
▁इल्लल्लाह	-8.07683
▁रसूलुल्लाह	-8.07702
▁कुठे	-8.07752
▁दिला	-8.07786
सुद्धा	-8.07945
तात	-8.07965
▁तिथे	-8.08328
सी	-8.08475
▁निर्माण	-8.08506
▁करीत	-8.08939
▁व्यवसाय	-8.09116
▁आणखी	-8.09152
▁शोध	-8.09157
ंग	-8.09193
▁जातो	-8.09216
ातून	-8.09269
अ	-8.10028
▁मुख्य	-8.10088
▁ए	-8.10247
▁घरी	-8.10322
▁ग	-8.10373
▁वर्षे	-8.10932
▁लेख	-8.10968
हा	-8.11216
▁उपलब्ध	-8.11561
ील	-8.1158
▁दोन्ही	-8.11781
▁खर्च	-8.12017
e	-8.1228
▁लहान	-8.12465
▁रंग	-8.12486
▁6	-8.1255
▁स्वतः	-8.12913
▁वा	-8.1321
▁शिक्षण	-8.13408
▁P	-8.13847
▁उच्च	-8.13895
▁मोठा	-8.1398
▁दिवशी	-8.14064
▁तुझ्या	-8.14091
स्	-8.14199
▁दूर	-8.14224
▁मोठ्या	-8.14435
▁विषय	-8.14471
▁गेला	-8.14471
▁कोणी	-8.14515
o	-8.14886
ंड	-8.15021
▁नि	-8.15273
▁लग्न	-8.15529
▁येते	-8.15549
▁मे	-8.15702
▁अगदी	-8.15933
ांमध्ये	-8.16227
▁संपूर्ण	-8.1626
ांसाठी	-8.1669
▁पासून	-8.16715
A	-8.16776
▁तास	-8.17079
▁समस्या	-8.17095
▁हात	-8.17192
▁लक्षात	-8.17277
er	-8.17314
से	-8.18129
▁A	-8.18197
▁पैसे	-8.18201
ing	-8.18446
▁असू	-8.18484
▁कसा	-8.18824
▁गेल्या	-8.18868
▁कदाचित	-8.1887
▁पुढील	-8.18966
▁उ	-8.19059
P	-8.19237
p	-8.1946
▁बस	-8.19626
▁वेळा	-8.1969
▁यांच्या	-8.19784
▁महिला	-8.19842
▁नव्हते	-8.19843
▁चांगला	-8.20017
▁ठिकाणी	-8.20191
▁मन	-8.20202
▁सुद्धा	-8.20399
▁विविध	-8.21197
n	-8.21414
▁start	-8.21922
in	-8.21938
▁जातात	-8.22007
"&	-8.22402
▁dur	-8.22407
▁7	-8.22682
▁पहिल्या	-8.23065
बद्दल	-8.23187
▁शहर	-8.2354
▁मा	-8.23843
▁१	-8.2388
के	-8.2407
▁राजा	-8.24334
▁जन्म	-8.24339
]	-8.2453
▁श्री	-8.24549
▁ओ	-8.24561
M	-8.24749
4	-8.24867
▁पक्ष	-8.25136
▁जी	-8.25173
▁’	-8.25207
▁सत्य	-8.25316
i	-8.25828
जा	-8.2606
▁अजून	-8.26472
▁पुरुष	-8.26477
▁अतिशय	-8.26771
पी	-8.26858
m	-8.26932
▁मराठी	-8.27158
▁रात्री	-8.27338
▁धर्म	-8.2734
▁8	-8.27423
▁दर	-8.27426
▁असलेल्या	-8.27533
▁जेव्हा	-8.27554
▁सरकार	-8.27598
▁वाटत	-8.27734
▁काहीतरी	-8.27818
ीय	-8.27947
▁भाषा	-8.28034
ांवर	-8.28162
ामध्ये	-8.28477
▁B	-8.28584
▁हवे	-8.28795
त्या	-8.28941
▁द	-8.29029
▁सं	-8.29085
ed	-8.29134
▁नये	-8.2915
▁नेहमी	-8.29254
▁उत्तम	-8.29434
▁त्यासाठी	-8.29444
▁मृत्यू	-8.2946
सह	-8.29465
नि	-8.29492
ायचे	-8.29997
पणे	-8.3007
▁माणूस	-8.3018
तून	-8.30183
S	-8.30196
शा	-8.31353
▁याचा	-8.31508
मान	-8.31565
▁मुली	-8.31801
की	-8.3181
B	-8.3183
▁चांगली	-8.31935
▁जग	-8.32216
00	-8.32221
▁सह	-8.32294
al	-8.32657
प्र	-8.32851
▁सुरक्षित	-8.32863
▁नियम	-8.32955
▁फोन	-8.32963
मधील	-8.33026
▁मोठी	-8.33194
▁ख	-8.3335
▁योजना	-8.33507
▁खरेदी	-8.33568
▁सध्या	-8.33705
ांत	-8.34101
बा	-8.34214
बी	-8.34337
▁शेवटी	-8.34497
▁घेतला	-8.34516
▁एकदा	-8.34555
▁गेली	-8.3463
▁9	-8.34731
▁साठी	-8.34915
▁कधीच	-8.34971
▁अभ्यास	-8.35032
णा	-8.35153
▁सी	-8.35225
▁जाणार	-8.35274
▁भर	-8.35292
▁देऊ	-8.35932
▁G	-8.36144
▁तेथे	-8.36204
▁तुमचा	-8.36399
▁२	-8.36461
पर्यंत	-8.36547
ऱ्या	-8.36963
▁पाहिले	-8.37161
▁कधीही	-8.37385
पेक्षा	-8.37512
▁जवळ	-8.37713
▁वाट	-8.37996
आ	-8.38354
C	-8.3858
▁मुलगा	-8.38761
▁हि	-8.38776
▁यामुळे	-8.38842
▁जाईल	-8.3904
▁F	-8.39245
▁भारत	-8.39657
▁हजार	-8.39721
▁फार	-8.4008
▁असताना	-8.40136
▁वर्षी	-8.40362
स्ट	-8.40483
ंत	-8.40753
▁एकत्र	-8.4083
5	-8.40848
▁मशीन	-8.40953
▁दिसत	-8.40962
▁कार	-8.41361
▁ह	-8.41467
ण्यात	-8.41515
▁ओळख	-8.41713
▁हो	-8.41777
▁काळजी	-8.41969
▁संख्या	-8.42051
▁सामान्य	-8.42201
▁आयुष्य	-8.42202
▁जाणून	-8.42357
▁सगळे	-8.42562
▁माहित	-8.42628
▁तुमची	-8.42723
▁के	-8.42975
▁स्त्री	-8.43138
a	-8.43139
ावे	-8.43561
▁प्रवेश	-8.43666
▁अजूनही	-8.43862
▁कार्यक्रम	-8.44068
▁वाचा	-8.44228
▁नेहमीच	-8.44372
F	-8.44382
दार	-8.44514
▁प्राप्त	-8.44563
0	-8.44586
▁करावे	-8.44963
▁‘‘	-8.44971
▁लक्ष	-8.44977
▁गाडी	-8.45103
▁निवड	-8.45478
▁नव्हता	-8.45566
▁तुमचे	-8.45753
▁मुले	-8.45787
▁”	-8.45905
▁नोकरी	-8.45913
▁परमेश्वर	-8.46053
▁संधी	-8.461
नंतर	-8.46107
▁मान	-8.46152
▁देत	-8.46365
▁काळ	-8.46438
▁४	-8.46497
▁याची	-8.46507
ै	-8.46706
ए	-8.46758
▁काहीही	-8.46768
ण्याचा	-8.46865
▁करण्याचा	-8.46909
▁तरीही	-8.47371
r	-8.47558
▁तिने	-8.47699
▁करण्यास	-8.47764
▁जण	-8.4797
न्स	-8.48579
▁३	-8.48719
▁झोप	-8.48876
▁20	-8.49154
▁को	-8.49164
▁ज	-8.49208
▁सर	-8.49221
▁घेतली	-8.49261
c	-8.49346
कार	-8.49353
▁घेतले	-8.49363
g	-8.49379
6	-8.49537
▁उपचार	-8.49552
हे	-8.49639
▁विभाग	-8.49654
▁ई	-8.49678
▁डाउनलोड	-8.5004
▁आधी	-8.50049
G	-8.5006
▁ऑनलाइन	-8.50197
▁जागा	-8.50223
डा	-8.50284
an	-8.50315
▁यासाठी	-8.5041
▁संबंध	-8.50625
▁लाख	-8.50644
▁इतिहास	-8.50686
▁येतो	-8.50697
▁मुंबई	-8.5082
▁त्यावर	-8.50903
▁मागे	-8.50948
▁होतात	-8.51065
▁घेऊ	-8.51149
▁प्रकाश	-8.51265
ओ	-8.51268
▁तसे	-8.51566
▁इच्छा	-8.51735
▁आकार	-8.52122
उ	-8.52609
पणा	-8.52823
व्ह	-8.52927
▁संपर्क	-8.52929
लेले	-8.53364
u	-8.53382
▁दे	-8.53454
▁स्पष्ट	-8.53542
h	-8.53646
9	-8.53753
▁लागले	-8.53931
▁चित्र	-8.54085
▁कशी	-8.54091
▁विकास	-8.5439
ठ	-8.5446
▁12	-8.54469
L	-8.54541
8	-8.54992
ाशी	-8.55068
टा	-8.55074
▁सदस्य	-8.55103
▁चर्चा	-8.55237
कडून	-8.55543
re	-8.55567
झ	-8.55608
▁नव्हती	-8.55662
d	-8.55777
▁उद्या	-8.55781
▁प्रकारे	-8.55828
▁लागेल	-8.56104
▁वाईट	-8.56147
▁येतात	-8.56331
▁पर्यंत	-8.56388
▁शरीर	-8.56457
▁विमान	-8.56551
▁मार	-8.56623
▁५	-8.56672
▁समाज	-8.57039
▁सा	-8.57104
▁मुलगी	-8.5721
▁मोठे	-8.57317
▁होतं	-8.57417
▁*	-8.57663
▁दुसऱ्या	-8.57717
▁किंमत	-8.57756
▁[	-8.57798
▁E	-8.57841
▁ज्ञान	-8.57927
▁बी	-8.58195
▁प्रथम	-8.58234
▁हवी	-8.58732
k	-8.58739
▁15	-8.58772
▁पा	-8.58821
▁सुमारे	-8.59024
▁अत्यंत	-8.59067
▁बरोबर	-8.59256
▁M	-8.59297
▁म्हणतो	-8.59369
▁T	-8.59402
▁सगळ्या	-8.5944
▁पहा	-8.59454
▁पुरस्कार	-8.59637
▁भाव	-8.59651
▁शक्य	-8.5978
▁दरम्यान	-8.59826
ुन	-8.59898
पा	-8.60009
▁आवाज	-8.60032
▁संघ	-8.60146
▁संदेश	-8.60251
▁एखाद्या	-8.60369
▁बे	-8.60515
T	-8.60516
▁मिळेल	-8.60571
▁श	-8.60683
▁पि	-8.60804
x	-8.61001
▁सर्वोत्तम	-8.61016
20	-8.61095
इ	-8.61099
▁कल्पना	-8.61203
▁शाळा	-8.61336
amp	-8.61372
▁सात	-8.61383
▁करताना	-8.61404
ंट	-8.61422
▁#	-8.61446
▁मु	-8.61711
▁केल्या	-8.6193
7	-8.61969
▁रि	-8.62072
▁केंद्र	-8.62321
लेल्या	-8.62333
▁गो	-8.62392
▁शक्ती	-8.62469
▁पोस्ट	-8.62525
रो	-8.62547
▁युद्ध	-8.62685
डे	-8.62755
▁आय	-8.62952
णाऱ्या	-8.62967
▁रे	-8.62976
▁प्रति	-8.63012
▁डॉक्टर	-8.63059
ाकडे	-8.63109
▁कठीण	-8.63451
▁खाली	-8.63803
▁+	-8.63955
▁भारतात	-8.64049
▁मुक्त	-8.64243
▁मत	-8.64402
▁संगीत	-8.64425
ष	-8.64696
▁घटना	-8.64783
ताना	-8.64788
ामुळे	-8.6483
शे	-8.64896
▁मुलांना	-8.65229
l	-8.65308
▁म्हटले	-8.65351
▁त्यावेळी	-8.65429
▁असून	-8.65441
▁खा	-8.65537
▁परिस्थिती	-8.65584
▁चांगल्या	-8.65629
▁सि	-8.65803
▁उघड	-8.65804
▁संबंधित	-8.65807
▁महान	-8.65967
▁अधिकार	-8.65972
es	-8.66207
ॅ	-8.66218
जे	-8.66344
▁संस्था	-8.66386
_	-8.66623
▁गाव	-8.66835
▁ये	-8.66848
▁देशात	-8.66939
▁फोटो	-8.67244
मे	-8.67344
▁पहिला	-8.67452
▁१०	-8.6749
I	-8.67607
.”	-8.67632
▁पर्याय	-8.67778
▁टॅटू	-8.67931
▁आरोग्य	-8.68321
▁वस्तू	-8.68365
व्या	-8.68472
गा	-8.68884
▁असल्याचे	-8.69032
१	-8.69387
ाय	-8.69407
▁देण्यात	-8.69605
▁संरक्षण	-8.69643
▁येऊ	-8.69674
▁H	-8.69719
▁स्वप्न	-8.69752
O	-8.69888
▁18	-8.70127
▁अमेरिकन	-8.70173
▁रक्त	-8.70196
▁असतील	-8.7027
▁मनुष्य	-8.70279
▁घेत	-8.7048
▁of	-8.70526
ar	-8.7054
▁in	-8.70701
ौ	-8.70784
▁मिळाले	-8.70796
▁D	-8.70963
▁धन्यवाद	-8.70968
▁अन्य	-8.71046
▁नको	-8.71049
▁घरात	-8.7122
▁प्रक्रिया	-8.71488
▁सहा	-8.71492
पण	-8.71623
▁यांना	-8.71683
▁यश	-8.71722
▁डी	-8.71757
W	-8.7197
▁कोणत्या	-8.72027
b	-8.72081
▁पाय	-8.72264
ेन	-8.72475
▁होत्या	-8.72536
ड्या	-8.72556
ळे	-8.72578
▁भ	-8.72602
w	-8.72756
le	-8.72776
ंमध्ये	-8.7314
R	-8.73201
▁ठेवा	-8.7328
▁ठेव	-8.73283
ां	-8.73628
को	-8.73679
▁राज	-8.73702
▁ग्राहक	-8.73719
▁उत्पादने	-8.7375
▁the	-8.7385
▁सकाळी	-8.7398
ापासून	-8.74055
▁बघ	-8.74068
▁केलेल्या	-8.74214
▁11	-8.74296
ra	-8.74369
▁मि	-8.74397
३	-8.74487
ायची	-8.74821
▁पत्नी	-8.7486
▁तरुण	-8.74938
▁आमचे	-8.75052
▁प्रणाली	-8.75104
ण्या	-8.75283
▁I	-8.75418
▁बोलत	-8.75596
घ	-8.75638
▁पेक्षा	-8.75757
▁सहन	-8.758
▁एकूण	-8.7582
▁नसते	-8.75903
▁व्हिडिओ	-8.76005
▁»	-8.76017
▁समज	-8.76097
ंवर	-8.76302
▁क्षमता	-8.76453
हि	-8.7646
▁कु	-8.76482
▁उपयोग	-8.76505
▁उप	-8.76531
▁भाऊ	-8.76571
▁लाभ	-8.76823
▁30	-8.76835
िन	-8.76845
▁आत	-8.76866
▁साली	-8.77185
▁करावा	-8.77196
मो	-8.77393
ीन	-8.7751
ीकरण	-8.77586
▁जगातील	-8.77611
▁नव्हे	-8.77661
▁दक्षिण	-8.77665
▁खरे	-8.77704
▁दाखव	-8.77736
ॉ	-8.77782
▁खेळाडू	-8.77824
▁सुरक्षा	-8.77855
र्स	-8.77859
त्व	-8.77914
H	-8.77933
्यु	-8.77957
▁औषध	-8.77973
▁समावेश	-8.77993
▁शक्यता	-8.78221
▁दहा	-8.78235
▁क्षमा	-8.78549
ाव	-8.7861
en	-8.78648
▁देतो	-8.7879
▁रेल्वे	-8.788
▁तंत्रज्ञान	-8.7883
▁मिळत	-8.78853
▁पवित्र	-8.79025
र्	-8.79335
▁यावेळी	-8.79502
▁शिक्षक	-8.79518
▁बद्दल	-8.7957
ळी	-8.79578
10	-8.79583
▁पत्र	-8.79631
ध	-8.79693
▁रोज	-8.7974
▁टी	-8.79744
▁कृपया	-8.79754
▁राष्ट्रीय	-8.79858
▁विकत	-8.79958
▁तुझे	-8.79978
▁येशू	-8.79986
on	-8.80239
at	-8.80267
▁बा	-8.80391
▁लवकरच	-8.80409
खा	-8.8046
▁वजन	-8.80463
मला	-8.80484
▁से	-8.80484
▁दुसरा	-8.80548
or	-8.80595
▁आंतरराष्ट्रीय	-8.80718
▁उपाय	-8.80758
▁यावर	-8.80793
▁असणार	-8.80821
▁लागू	-8.80858
▁नक्की	-8.81091
▁सोडून	-8.81141
▁पुरवठादार	-8.81189
▁मिळाली	-8.81219
ायचा	-8.81252
▁सम	-8.81303
▁जगात	-8.81303
▁दु	-8.81661
▁लवकर	-8.81725
▁नियंत्रण	-8.8181
ंद	-8.81859
▁विवाह	-8.82048
२	-8.82147
वून	-8.82147
प्रमाणे	-8.82572
▁and	-8.82612
50	-8.82622
▁विद्यार्थी	-8.82852
▁विचारले	-8.82936
▁उत्पादक	-8.82949
▁जि	-8.83033
▁आयुष्यात	-8.83177
▁साहित्य	-8.83375
th	-8.83414
▁त्यातून	-8.83416
▁जेवण	-8.83447
▁आमची	-8.83476
▁सामाजिक	-8.83477
▁सोपे	-8.83516
▁स्वागत	-8.83618
▁उद्योग	-8.83714
ंसाठी	-8.83934
▁मिळणार	-8.83942
▁फायदा	-8.83974
नं	-8.83978
▁लेखक	-8.84066
सारखे	-8.84078
▁करु	-8.84092
▁लागली	-8.84135
▁एस	-8.84156
▁$	-8.84173
▁प्रशिक्षण	-8.84254
ळा	-8.84396
▁क्षेत्र	-8.84437
▁गंभीर	-8.84459
▁तु	-8.84536
▁आठ	-8.84782
▁बाळ	-8.84801
▁न्याय	-8.84885
▁महाराष्ट्र	-8.84901
▁प्रमाणात	-8.84906
शील	-8.85095
▁जाऊन	-8.85098
▁डेटा	-8.85295
▁2018	-8.85375
▁पी	-8.85508
▁करायचे	-8.85511
▁K	-8.85532
▁स्थान	-8.85561
▁प्रभाव	-8.85764
15	-8.85784
▁व्यावसायिक	-8.85912
▁आर्थिक	-8.85932
रि	-8.86053
▁पूर्व	-8.86152
▁होय	-8.86262
▁घटक	-8.86336
▁इस्राएल	-8.86399
▁कुटुंब	-8.86639
V	-8.8675
▁आर	-8.86784
▁N	-8.8687
▁स्वीकार	-8.86936
ol	-8.87036
▁विजय	-8.87185
▁मागणी	-8.87205
▁प्रमाण	-8.87211
▁विद्यापीठ	-8.87246
▁•	-8.87253
▁आजही	-8.87327
▁असल्यास	-8.87618
▁राष्ट्र	-8.87631
▁अधिकारी	-8.87646
अर	-8.87752
▁एम	-8.879
▁गुण	-8.87936
▁to	-8.88073
▁आशा	-8.88096
▁शे	-8.88247
▁आवश्यकता	-8.88253
▁चालू	-8.88377
्‍या	-8.88669
▁सुरु	-8.88728
भ	-8.89109
▁होऊन	-8.89314
▁पूर्णपणे	-8.89568
▁देणार	-8.89596
▁0	-8.89601
▁स्वतःला	-8.89653
▁विक्री	-8.89804
▁वापरले	-8.89839
बरोबर	-8.8993
णं	-8.89932
ः	-8.8994
▁पार	-8.89946
▁करेल	-8.90064
▁भाजप	-8.90319
▁करावी	-8.90329
▁खरंच	-8.90396
सोबत	-8.90616
▁प्रकल्प	-8.90635
▁माझ्यासाठी	-8.9075
न्	-8.91371
ाबद्दल	-8.91531
▁कोणीही	-8.91574
▁16	-8.91594
पे	-8.91609
▁समोर	-8.91701
▁शि	-8.91833
ण्याचे	-8.92125
▁पृष्ठ	-8.92154
N	-8.92219
▁एकाच	-8.92324
▁काळात	-8.9244
▁देते	-8.92506
▁सांगतो	-8.92531
▁लागते	-8.92542
▁राहणार	-8.92663
▁घाल	-8.92713
ाई	-8.92731
ये	-8.9289
▁खास	-8.92902
▁भावना	-8.92955
▁मतदान	-8.9304
▁नाहीये	-8.9318
▁संशोधन	-8.93189
▁आलो	-8.93338
▁सगळं	-8.93406
नो	-8.93461
▁प्रदान	-8.93526
एस	-8.93638
ंज	-8.93673
स्त	-8.93817
▁डॉ	-8.93829
▁दाखल	-8.9411
▁शांत	-8.94201
f	-8.94256
▁पाप	-8.94302
▁ट	-8.94305
▁महा	-8.94315
ंक	-8.94317
▁पहिली	-8.94449
▁संप	-8.94465
▁वडील	-8.9458
30	-8.94721
▁पुणे	-8.94932
▁पद	-8.95027
X	-8.95206
▁बोल	-8.95236
ण्यास	-8.95288
U	-8.9543
▁बाकी	-8.95431
▁प्रार्थना	-8.95663
▁अन्न	-8.95932
▁वर्ग	-8.9595
▁करुन	-8.95997
▁राजकीय	-8.96035
▁शपथ	-8.96116
▁ड	-8.96177
▁म्हणूनच	-8.96213
▁पावडर	-8.96284
▁तुझी	-8.96382
▁मानले	-8.96384
com	-8.96487
▁झालेल्या	-8.9656
▁वेगळे	-8.96565
E	-8.96576
▁प्रसिद्ध	-8.96603
▁कायदा	-8.96621
▁14	-8.96689
▁त्रास	-8.96765
ाचं	-8.96861
▁कर्ज	-8.96897
तू	-8.96924
▁कार्ड	-8.96933
▁झ	-8.97015
िका	-8.97416
▁प्रमुख	-8.97468
▁17	-8.97506
▁तिचा	-8.97525
क्ष	-8.97546
K	-8.97624
un	-8.98019
▁काल	-8.98258
▁राहिले	-8.98416
11	-8.98556
▁भरपूर	-8.98583
▁यांचे	-8.98594
ri	-8.9871
▁टाक	-8.98729
▁गट	-8.98735
▁लागला	-8.98806
▁13	-8.98923
▁बनव	-8.98979
▁आण	-8.99027
▁कशाला	-8.99112
▁नुकसान	-8.9914
▁डिझाइन	-8.99252
et	-8.99379
▁बहुतेक	-8.99381
▁अप	-8.99479
▁सतत	-8.9951
मि	-8.99557
स्थ	-8.99576
▁मो	-8.99736
टे	-8.99788
▁पुढच्या	-8.99864
▁मते	-8.99922
▁अंतिम	-9.00014
▁भूमिका	-9.0064
▁स्थिती	-9.00701
▁24	-9.00828
▁लि	-9.00836
▁केलेले	-9.00911
▁तुम्हांला	-9.01073
ंब	-9.01157
ढ	-9.01216
▁समान	-9.01218
▁मनात	-9.01295
▁खात्री	-9.01413
▁डि	-9.0144
लेली	-9.01472
▁चाल	-9.01632
▁सॉफ्टवेअर	-9.01735
▁अस	-9.01831
▁मिळाला	-9.01846
▁a	-9.01882
ur	-9.01999
▁ठेवले	-9.02096
▁मागील	-9.02121
▁आधार	-9.02166
el	-9.02219
▁L	-9.02483
त्र	-9.02546
▁ब्लॅक	-9.02555
▁खरं	-9.02697
▁लोकप्रिय	-9.02807
दी	-9.02887
ेट	-9.02925
▁लोकांनी	-9.02971
▁दि	-9.03049
▁पर	-9.03087
नुसार	-9.0311
▁हवा	-9.0313
▁25	-9.03185
द्वारे	-9.03225
▁O	-9.0358
णारा	-9.03583
्यू	-9.03617
▁यांचा	-9.03639
▁डे	-9.03702
▁शाळेत	-9.03709
st	-9.03734
▁आग	-9.03766
ic	-9.03771
▁तुझा	-9.04316
▁नक्कीच	-9.04342
▁इच्छित	-9.04427
it	-9.0445
▁टक्के	-9.04461
ायचं	-9.04516
▁R	-9.04722
▁कोटी	-9.04841
विषयी	-9.0504
▁आदेश	-9.05139
▁शत्रू	-9.0528
▁पाकिस्तान	-9.05316
▁दिसते	-9.05355
▁ब्लॉग	-9.05392
▁जोड	-9.05425
िया	-9.05488
il	-9.05491
▁स्व	-9.05688
ाळ	-9.05826
▁मंदिर	-9.05872
▁करार	-9.05885
▁केलं	-9.06089
▁यांची	-9.06181
ानंतर	-9.0629
▁अनेकदा	-9.06358
▁पु	-9.06388
▁कॅसिनो	-9.06669
▁ऐक	-9.06675
्‍	-9.06703
▁समजून	-9.0678
17	-9.06781
▁सांगा	-9.06815
▁बन	-9.06822
▁धोरण	-9.06876
▁मान्य	-9.06962
▁कथा	-9.07016
▁करणारे	-9.07087
▁स्टील	-9.07143
▁सूर्य	-9.07264
▁2019	-9.0729
▁बाजार	-9.07345
▁शिकव	-9.07368
४	-9.07442
बे	-9.07683
▁नसेल	-9.0782
▁गुणवत्ता	-9.07849
▁असणे	-9.07852
िल	-9.08024
▁अध्यक्ष	-9.08122
▁विज्ञान	-9.08171
धा	-9.08219
लि	-9.08301
▁साथ	-9.0837
▁झाल्या	-9.08445
▁जवळपास	-9.08469
▁वय	-9.08489
जन	-9.0852
▁काढून	-9.08628
्यात	-9.08788
▁एल	-9.08819
z	-9.08833
▁थांब	-9.08883
▁६	-9.08942
▁आवडत	-9.08993
▁थेट	-9.0902
▁मोफत	-9.0915
पर	-9.09186
▁संस्कृती	-9.09273
▁थोडा	-9.094
▁पहिले	-9.09434
▁पैसा	-9.09498
जवळ	-9.09511
▁घेणे	-9.09811
18	-9.09859
▁भविष्य	-9.10106
र्ट	-9.102
ेशन	-9.10278
▁सूचना	-9.1029
▁केस	-9.10291
▁आवड	-9.1036
▁झाड	-9.1036
▁समर्थन	-9.10483
ly	-9.10588
▁रोजी	-9.10749
▁बातम्या	-9.10756
▁अंदाज	-9.10757
ुक	-9.10812
▁इतकी	-9.10855
▁जून	-9.10857
▁सर्वांना	-9.11023
▁कोड	-9.11041
मधून	-9.11159
▁जीव	-9.11458
▁विरोध	-9.11512
▁कोणताही	-9.11573
▁पाठव	-9.11702
▁आल्या	-9.11808
▁नागरिक	-9.11808
▁उदाहरण	-9.11947
▁करायची	-9.11973
वले	-9.11981
25	-9.12003
▁॥	-9.12031
▁लागणार	-9.12081
▁तिचे	-9.12091
ter	-9.12133
▁लिहिले	-9.1217
▁शकेल	-9.1218
▁पोहोच	-9.12333
▁कुठून	-9.12364
▁कपडे	-9.12382
ad	-9.12405
▁जाण	-9.12508
▁फ	-9.12564
▁W	-9.12574
▁शहरात	-9.12802
14	-9.12974
▁७	-9.13028
▁असता	-9.13059
▁देतात	-9.1311
▁म्हणाली	-9.1317
राव	-9.13185
पो	-9.13414
▁विशिष्ट	-9.13516
▁साधन	-9.13529
▁रु	-9.13771
▁१८	-9.13785
▁असलेले	-9.13851
▁कळ	-9.13975
वादी	-9.13995
000	-9.14077
वरील	-9.14095
13	-9.14098
▁असल्याने	-9.14123
▁यादी	-9.14136
▁इंग्रजी	-9.14162
▁डोळे	-9.14409
▁पर्यावरण	-9.14642
▁पदार्थ	-9.14651
▁समुद्र	-9.14897
▁कोणतीही	-9.14965
▁सांग	-9.15002
▁कोणती	-9.15005
▁सलाम	-9.15108
टर	-9.15153
▁आवडते	-9.15154
▁मोबाइल	-9.15355
क्त	-9.15513
▁चूक	-9.1553
▁खालील	-9.15585
▁व्यक्त	-9.15591
▁उपस्थित	-9.15594
▁शिक	-9.15709
▁सिद्ध	-9.15775
▁क्र	-9.15834
mm	-9.15864
▁जागतिक	-9.1594
था	-9.15946
▁दररोज	-9.15978
ेश	-9.15997
▁नाटक	-9.16046
22	-9.1607
▁थोडे	-9.16181
▁प्राणी	-9.16216
▁तिची	-9.16352
80	-9.16419
देखील	-9.16422
4)	-9.16454
▁किमान	-9.16494
▁खूपच	-9.16616
▁लाल	-9.16701
▁मूळ	-9.16975
▁हर	-9.17192
▁करणाऱ्या	-9.17246
िट	-9.17255
▁जसे	-9.17314
▁बो	-9.17351
▁चालव	-9.17424
▁नगर	-9.17426
▁चिंता	-9.17479
▁स्	-9.17503
▁सुख	-9.17742
▁(2	-9.17766
▁मानव	-9.17804
▁निश्चित	-9.17935
▁स्थानिक	-9.17952
▁संगणक	-9.18016
▁वाटतं	-9.18093
▁घेतो	-9.18107
▁निर्मिती	-9.18112
▁क्षण	-9.18305
▁ईश्वर	-9.18355
te	-9.18359
▁माझ्याकडे	-9.18389
▁फरक	-9.1854
▁मागा	-9.18541
▁V	-9.18566
क्स	-9.18569
▁वर्षांपूर्वी	-9.1857
▁पे	-9.18594
12	-9.18627
▁निकाल	-9.18672
▁सक्षम	-9.18748
v	-9.18804
▁आतापर्यंत	-9.18867
▁हातात	-9.18881
▁पट	-9.19103
▁कर्मचारी	-9.19184
देव	-9.19266
▁करण्याचे	-9.19342
▁अपेक्षा	-9.19347
▁ठरव	-9.19355
am	-9.1948
▁देणे	-9.19482
us	-9.19511
▁तोंड	-9.19521
▁मिळते	-9.19657
▁दुसरी	-9.19715
▁मानवी	-9.19727
▁गेलो	-9.19734
▁झालं	-9.19744
▁महत्त्वाचे	-9.19752
▁2017	-9.19766
▁यशस्वी	-9.19797
ृ	-9.19816
▁प्रकारच्या	-9.19902
▁दिन	-9.19946
▁वेगळा	-9.19987
वत	-9.20008
सु	-9.20037
▁अन	-9.20059
▁पुर	-9.2006
▁रा	-9.20066
▁मजा	-9.20082
▁परवानगी	-9.20275
▁एन	-9.20461
वाद	-9.20478
▁ऑक्टोबर	-9.20493
▁गा	-9.20504
▁नव्या	-9.20572
▁मांड	-9.20659
16	-9.20674
▁प्रयोग	-9.20797
तुम्ही	-9.2082
▁क्रमांक	-9.2092
▁कविता	-9.2099
▁कॉल	-9.21083
ति	-9.21104
ch	-9.21142
▁लांब	-9.21179
▁घेणार	-9.21213
कु	-9.21376
▁कंपन्या	-9.21421
▁जानेवारी	-9.21689
▁होणे	-9.2174
▁त्यातील	-9.21788
▁सार्वजनिक	-9.21821
हो	-9.21913
id	-9.21944
▁लाव	-9.22058
००	-9.221
आर	-9.22163
▁दा	-9.22169
▁पद्धती	-9.22294
▁सेक्स	-9.22336
णारे	-9.22402
▁असत	-9.22418
जर	-9.22445
▁सांगत	-9.2248
▁मुलं	-9.22531
▁संवाद	-9.22577
▁साइट	-9.22638
शिवाय	-9.22658
▁आमचा	-9.22716
▁व्यवस्थापन	-9.22738
▁शिवाय	-9.22743
▁समिती	-9.23003
▁२०	-9.23069
▁अर्ज	-9.23151
▁मार्च	-9.23185
▁असले	-9.23367
▁पृथ्वी	-9.23424
▁आईची	-9.2354
एक	-9.23574
▁मालिका	-9.23652
▁नदी	-9.23775
▁निवडणूक	-9.23784
▁पडले	-9.23797
▁पूर्वी	-9.24005
60	-9.24008
▁प्रदेश	-9.24074
▁सामना	-9.24217
▁शोधत	-9.24236
▁महिन्यात	-9.24274
▁पाळ	-9.24294
▁b	-9.24322
▁50	-9.24328
▁ध	-9.2434
▁बोनस	-9.24415
▁Re	-9.24442
▁इतका	-9.24484
▁सहभागी	-9.24537
▁गु	-9.24589
▁१५	-9.24601
3)	-9.24644
▁येथील	-9.24682
▁टॉम	-9.24716
▁घोषणा	-9.24744
▁पड	-9.24825
श्	-9.2493
▁वेगवेगळ्या	-9.25117
▁माध्यमातून	-9.25159
▁प्रकारचे	-9.25222
▁f	-9.25357
▁श्रीमंत	-9.25455
▁महत्वाचे	-9.25518
ावा	-9.2552
▁अचानक	-9.25574
▁कला	-9.25741
▁£	-9.25797
▁आलं	-9.25864
▁वाढत	-9.25887
रु	-9.26018
▁मॉडेल	-9.26076
▁हस	-9.26145
▁व्यवहार	-9.26287
सारखी	-9.26326
▁शो	-9.26358
शि	-9.26396
▁बघा	-9.26399
गो	-9.26651
भर	-9.26678
▁करणारा	-9.26744
▁अनु	-9.26768
▁चाचणी	-9.2677
▁वास्तव	-9.26866
एम	-9.2687
▁राहू	-9.26935
▁होण्याची	-9.26953
▁दिसून	-9.26957
▁विकसित	-9.26961
▁सो	-9.2703
▁बि	-9.27119
;&	-9.27139
▁युरोप	-9.27153
▁सोड	-9.27156
▁शुद्ध	-9.27277
थे	-9.27294
▁थंड	-9.2732
बाबत	-9.27367
▁चुक	-9.27454
▁कुणा	-9.27566
सारखा	-9.2768
▁वैयक्तिक	-9.27699
▁जिवंत	-9.27732
ळ्या	-9.27745
▁सोबत	-9.27784
▁दुसरे	-9.27798
▁म्हणत	-9.2784
▁ठीक	-9.27854
▁धाव	-9.27859
▁८	-9.27878
दर	-9.27888
▁विश्व	-9.27927
▁हक्क	-9.27937
▁धु	-9.2796
▁तसा	-9.27968
मन	-9.27971
▁१२	-9.27972
▁कार्यालय	-9.28019
▁उठ	-9.28079
24	-9.2818
▁महिने	-9.28187
▁लागतो	-9.28232
▁करायचा	-9.2824
▁रुपये	-9.28241
▁महिन्या	-9.28326
▁क्ल	-9.28333
▁ऱ्ह	-9.28353
▁बाबतीत	-9.28413
▁पाऊस	-9.2843
रण	-9.28457
▁उलट	-9.28592
▁वेगळी	-9.28649
वान	-9.28654
▁व्हा	-9.28724
▁पुस्तके	-9.2876
▁व्यापार	-9.28766
▁ठेवली	-9.28897
▁आजार	-9.28977
▁बरेच	-9.28987
ेड	-9.2899
▁परीक्षा	-9.28994
▁आधारित	-9.29009
▁द्वारे	-9.29076
▁कायद्या	-9.29076
▁कारवाई	-9.29104
▁जाहीर	-9.29275
एल	-9.2928
▁जबाबदारी	-9.29466
▁येऊन	-9.29537
02	-9.29637
▁व्यवस्था	-9.29665
▁अंतर्गत	-9.29719
्र	-9.29769
21	-9.29832
▁पालक	-9.29874
▁ऑफ	-9.29986
▁अमेरिकेत	-9.30055
▁स्थापना	-9.30055
▁re	-9.30109
▁साजरा	-9.30162
▁अरे	-9.30226
▁J	-9.30307
ma	-9.30338
is	-9.30523
▁आकाश	-9.30533
▁देऊन	-9.30542
ro	-9.30653
राज	-9.30658
▁खरोखर	-9.30684
भा	-9.30689
▁पहिल्यांदा	-9.30707
▁ख्रिस्त	-9.30838
▁रचना	-9.30842
सारख्या	-9.30992
▁आपल्याकडे	-9.31049
▁आधीच	-9.3105
35	-9.31053
▁फॅक्टरी	-9.31061
▁काळा	-9.31075
▁राम	-9.31162
▁उतर	-9.31175
▁भा	-9.31179
दु	-9.31187
▁पुत्र	-9.31252
▁कलाकार	-9.3127
09	-9.31368
▁जमीन	-9.31427
त्य	-9.31495
▁नोंद	-9.31513
▁पान	-9.31513
▁सुधारणा	-9.31537
▁प्रतिक्रिया	-9.31571
▁वर्षात	-9.31618
19	-9.31639
▁100	-9.31691
ापेक्षा	-9.3179
▁पाहू	-9.31846
▁यु	-9.31875
ानुसार	-9.31999
आय	-9.32092
▁विक	-9.32112
▁बु	-9.32114
र्क	-9.3221
▁मर	-9.32296
▁वाचन	-9.32465
▁अव	-9.32485
▁(1	-9.32562
▁फायदे	-9.32704
▁करतील	-9.32722
ीम	-9.32956
▁मार्गदर्शन	-9.32968
पूर	-9.32987
▁देवाने	-9.32988
▁सैन्य	-9.33034
▁वाग	-9.33238
ल्ड	-9.33277
गाव	-9.33377
▁अहवाल	-9.33446
ल्	-9.33472
▁माल	-9.3362
▁झालेले	-9.33637
▁खरा	-9.33678
▁आठवड्यात	-9.33716
▁कोणाला	-9.33726
▁मोदी	-9.33792
▁करण्या	-9.33812
शन	-9.33945
▁इंटरनेट	-9.33981
क्या	-9.34011
▁सादर	-9.34064
फा	-9.34078
▁आरोप	-9.34082
op	-9.34136
▁2015	-9.34158
40	-9.34246
▁सुविधा	-9.3427
▁पाड	-9.34301
▁मुद्दा	-9.34438
▁माझ्यावर	-9.34448
▁झालो	-9.34526
▁पोलिस	-9.34604
▁९	-9.34609
ांशी	-9.34649
▁ठिकाण	-9.34659
▁मिनिट	-9.34732
▁रोग	-9.34832
la	-9.34859
▁देवाच्या	-9.34895
िश	-9.34902
ation	-9.34922
▁प्रेरणा	-9.34945
▁जर्मनी	-9.3503
▁डॉलर	-9.35065
▁राजकारण	-9.35075
एक्स	-9.35143
▁लगेच	-9.35176
▁वाहन	-9.35241
▁जिल्हा	-9.35296
▁उत्कृष्ट	-9.35405
▁वाटले	-9.35483
क्क	-9.35494
▁झालेली	-9.35527
▁केलेली	-9.35656
▁गरीब	-9.3566
▁पाहा	-9.35845
▁कामगिरी	-9.35885
▁c	-9.36032
▁कोणतेही	-9.361
▁सेट	-9.36115
पि	-9.36211
▁कशा	-9.36301
▁ऐकले	-9.36353
ha	-9.36356
▁चि	-9.36372
▁क्लिक	-9.36393
="2	-9.36483
▁मरण	-9.36628
▁असलेली	-9.36644
06	-9.36698
▁माझं	-9.36854
▁22	-9.36879
▁[...]	-9.36889
वार	-9.36928
▁प्रतिसाद	-9.37169
▁एफ	-9.37171
पूर्ण	-9.37266
▁जवळजवळ	-9.3727
▁राहतात	-9.37282
▁मोड	-9.37342
▁काढ	-9.3743
▁वर्णन	-9.37458
▁अर्थात	-9.37466
▁p	-9.37488
▁अमेरिका	-9.37527
▁चेहरा	-9.37693
32	-9.37705
▁भाषण	-9.37708
▁अनुप्रयोग	-9.37709
▁सहज	-9.37714
▁मध्य	-9.37771
29	-9.37803
▁21	-9.37848
▁ऑ	-9.37857
▁जुन्या	-9.37877
▁जरा	-9.37972
आम्ही	-9.37979
ers	-9.37988
▁कायम	-9.38062
दि	-9.38074
▁मूल्य	-9.38105
▁इतके	-9.38196
▁उमेदवार	-9.38328
▁आठवण	-9.38384
de	-9.3842
तनांसाठी	-9.38432
▁बांध	-9.38487
▁आत्मा	-9.38622
▁थोडी	-9.38673
दे	-9.38712
▁पंतप्रधान	-9.38751
वेळी	-9.38751
▁आज्ञा	-9.38811
▁आवृत्ती	-9.38854
▁मिळव	-9.3887
▁याबाबत	-9.38876
मु	-9.39023
▁चढ	-9.39089
▁कामगार	-9.39203
▁पत्रकार	-9.39204
स्व	-9.39266
▁सामग्री	-9.3927
▁एप्रिल	-9.39347
▁कोणता	-9.39421
▁घेता	-9.39439
▁बातमी	-9.39636
▁फिर	-9.39637
li	-9.39651
ंदा	-9.39726
▁तारीख	-9.39731
▁प्रकरण	-9.39763
▁X	-9.39791
▁नव	-9.39845
▁बघत	-9.39861
▁हॉटेल	-9.39965
▁अभिमान	-9.40038
पद	-9.4005
23	-9.40132
▁ति	-9.40233
▁सारे	-9.40236
▁is	-9.4028
▁रद्द	-9.40288
▁कालावधी	-9.40291
▁धर	-9.40301
▁2014	-9.40342
ग्र	-9.40438
▁सप्टेंबर	-9.40527
ज्ञ	-9.40577
▁प्रशासन	-9.40675
राम	-9.40746
▁स्वातंत्र्य	-9.40859
▁स्वतंत्र	-9.40893
▁मुला	-9.40921
▁क्रिकेट	-9.4094
▁लढ	-9.41043
▁असतं	-9.41084
▁बाजू	-9.41088
▁ऑफर	-9.41223
▁पद्धत	-9.41244
▁चालत	-9.41268
▁उभे	-9.41271
▁बाजूला	-9.41309
क्	-9.41329
▁चंद्र	-9.41352
▁गावात	-9.41414
▁वर्षांत	-9.41419
se	-9.41583
▁म्हण	-9.41671
Name	-9.41682
▁अॅ	-9.41746
▁पकड	-9.41788
▁m	-9.41792
वली	-9.41834
▁येतील	-9.41874
ल्स	-9.41925
▁दिवसात	-9.41937
ate	-9.41974
▁प्रकाशित	-9.41985
▁देवा	-9.42102
&	-9.42103
▁त्यांच्यावर	-9.42108
▁असो	-9.42233
▁होतील	-9.42243
▁वाक्य	-9.42258
▁बँक	-9.42263
टो	-9.423
आणि	-9.42313
पु	-9.42334
▁फळ	-9.42417
▁सर्वाधिक	-9.42519
▁चर्च	-9.42519
47	-9.42634
र्ड	-9.42668
▁वचन	-9.42754
▁शकणार	-9.42755
▁साधा	-9.42768
वरून	-9.42786
▁मजबूत	-9.42805
▁प्रस्ताव	-9.42822
ुम	-9.42846
ne	-9.42873
वू	-9.42945
▁शा	-9.42955
▁उपक्रम	-9.42964
▁पाहून	-9.42978
▁माणसे	-9.4301
▁परि	-9.43038
▁घडले	-9.43132
रू	-9.43165
▁कळत	-9.43287
▁2016	-9.43296
▁जादूगार	-9.43357
ुर	-9.43411
01	-9.43445
▁प्रभावी	-9.43529
ावी	-9.43574
co	-9.43627
▁रो	-9.43666
▁चहा	-9.4377
▁राहील	-9.4377
हून	-9.43796
▁ऑस्ट्रेलिया	-9.43896
▁कॉलेज	-9.44076
▁शेती	-9.44186
▁सिनेमा	-9.44253
03	-9.44267
▁आधुनिक	-9.44302
99	-9.4431
▁शेअर	-9.44353
सो	-9.44458
डो	-9.44463
▁सायकल	-9.4456
▁मंडळ	-9.44617
▁राहिला	-9.44674
▁व्या	-9.44688
▁भागात	-9.44793
ाखाली	-9.44809
▁त्याबद्दल	-9.44883
07	-9.44903
34	-9.44911
▁In	-9.44943
▁प्रा	-9.45007
▁खरी	-9.45009
▁समाविष्ट	-9.45118
▁टीव्ही	-9.452
▁जिथे	-9.45255
▁रशिया	-9.45365
▁कामे	-9.45385
▁त्यानुसार	-9.4539
26	-9.45397
▁अंतर	-9.45456
▁व्यायाम	-9.45461
▁थ	-9.45567
ोन	-9.45592
▁कल	-9.45661
▁टीम	-9.45747
▁कॅ	-9.45753
▁लागतात	-9.45768
04	-9.45775
िय	-9.45785
▁रड	-9.45809
▁23	-9.45907
▁प्रतिमा	-9.45927
▁लेखन	-9.45928
▁छान	-9.46056
▁राहा	-9.46145
पुर	-9.46209
▁स्वतःच्या	-9.46275
िस	-9.46386
38	-9.46531
▁अटक	-9.46541
▁भीती	-9.46593
▁आश्चर्य	-9.46613
▁लागत	-9.46648
पट	-9.46668
▁कम	-9.46694
▁तपास	-9.46704
▁U	-9.46746
▁रहा	-9.46751
▁घेण्यासाठी	-9.46791
▁अंत	-9.47076
ot	-9.47078
▁सत्ता	-9.47106
समोर	-9.47206
▁हवं	-9.47298
▁सरकारने	-9.4732
▁लढाई	-9.47558
▁वैद्यकीय	-9.47591
▁सांगतात	-9.47619
▁नाम	-9.47622
▁कोणीतरी	-9.47834
▁प्रचंड	-9.47913
▁अशाच	-9.48129
▁नंबर	-9.48233
▁मुलाला	-9.48275
▁वीर्यपिचकारी	-9.48304
▁कप	-9.4838
▁मोज	-9.48392
०००	-9.48411
शास्त्र	-9.48436
▁स्वच्छ	-9.48472
ाना	-9.48484
▁स्पर्धा	-9.4859
▁तयारी	-9.48605
▁गुंतवणूक	-9.48624
र्‍या	-9.48686
पत्र	-9.48722
▁प्रो	-9.48723
▁ओळखले	-9.48732
▁विस्तार	-9.48777
▁बाबा	-9.48922
▁दरवाजा	-9.48988
▁घाबर	-9.49043
▁पवार	-9.49139
▁नष्ट	-9.49145
बो	-9.49221
दान	-9.49339
ँ	-9.49401
▁खोली	-9.49419
Y	-9.49506
गी	-9.49576
▁अद्याप	-9.4959
ल्यावर	-9.49612
▁उदाहरणार्थ	-9.49617
▁नेतृत्व	-9.49622
▁झालेला	-9.49634
▁३०	-9.49642
▁चौकशी	-9.49805
▁सैनिक	-9.49839
me	-9.49885
▁सल्ला	-9.49912
▁मूवीस	-9.49947
67	-9.49996
▁d	-9.50204
▁तथापि	-9.50208
ver	-9.50247
▁रोख	-9.50265
▁गरम	-9.50276
ent	-9.50389
▁नकोस	-9.5039
27	-9.50409
बु	-9.50437
▁नोंदणी	-9.50496
जो	-9.50532
▁40	-9.50682
65	-9.50734
as	-9.50757
ांकडे	-9.50971
ia	-9.50987
ta	-9.50995
▁वर्षांचा	-9.51007
39	-9.51015
पैकी	-9.51091
▁एक्स	-9.51105
▁डोस	-9.5113
▁शिव	-9.51151
▁उपकरणे	-9.5123
▁नसतो	-9.51246
भाव	-9.51282
▁28	-9.51336
▁शिक्षा	-9.51449
ul	-9.51459
▁बाब	-9.51486
▁छोट्या	-9.51496
▁वास्तविक	-9.51682
ष्ट	-9.51715
▁मंत्र	-9.51847
di	-9.5194
▁क्षेत्रात	-9.51997
▁सरकारी	-9.52039
▁कॅम	-9.5206
▁आवडेल	-9.52172
▁फे	-9.52322
▁दिल्ली	-9.52337
▁प्रिय	-9.52357
▁दिस	-9.52386
▁उल्लेख	-9.52416
▁छ	-9.52437
ियन	-9.5259
िम	-9.52645
▁लोकांच्या	-9.52654
ण्याच्या	-9.52659
कट	-9.52687
▁नियमित	-9.5272
▁Home	-9.52783
▁कसं	-9.52887
08	-9.52936
▁निघून	-9.52984
प्त	-9.53318
▁अवलंबून	-9.53491
▁सुपर	-9.53538
▁कुणी	-9.53581
▁अधिकृत	-9.5381
▁आंदोलन	-9.53847
▁तुमच्यासाठी	-9.53886
▁दगड	-9.54122
▁निसर्ग	-9.54124
▁पूजा	-9.54251
▁कोणते	-9.54268
▁मिळू	-9.5427
▁जेथे	-9.54335
▁नकार	-9.54372
▁महत्त्व	-9.54392
▁नवी	-9.54438
▁नेते	-9.5444
▁जाती	-9.54505
ांकडून	-9.54658
▁त्याचं	-9.54679
व्य	-9.54702
ापर्यंत	-9.54756
▁वरील	-9.54765
▁एच	-9.54779
गे	-9.54816
▁प्रदर्शन	-9.54838
▁आजच्या	-9.5492
▁सांगू	-9.54929
▁उंच	-9.55059
▁संस्थे	-9.55107
द्	-9.55111
▁वापरून	-9.5515
▁सुरवात	-9.55267
▁प्रश्‍न	-9.55296
▁राहतो	-9.55318
▁आणले	-9.55439
▁दोष	-9.55458
▁on	-9.55484
▁आहार	-9.55531
▁26	-9.55599
▁तपासणी	-9.55614
▁समाधान	-9.55617
ti	-9.55644
▁पडला	-9.55681
ॉन	-9.55693
▁ब्र	-9.55767
▁सुट	-9.56007
▁माणसाला	-9.56029
▁शासन	-9.56075
▁नजर	-9.5611
▁देईल	-9.56199
अल	-9.56274
▁माग	-9.56306
70	-9.56397
▁पडत	-9.56402
▁तापमान	-9.56436
मागे	-9.5662
▁अम	-9.56639
▁वातावरण	-9.5667
▁साधने	-9.56673
फे	-9.56677
▁’’	-9.56686
बि	-9.56732
▁दिल्या	-9.5674
▁लक्ष्य	-9.56764
▁पुरवठा	-9.56822
ार्थ	-9.56831
▁देण्यासाठी	-9.5685
▁सगळी	-9.56868
ce	-9.5688
▁पोलीस	-9.56967
▁प्रकारची	-9.57127
▁नैसर्गिक	-9.57133
37	-9.57224
28	-9.57233
▁विनामूल्य	-9.57253
▁सुधार	-9.57304
▁असाल	-9.57332
05	-9.57345
▁रात्र	-9.57368
▁पुनरावलोकन	-9.57434
▁करीन	-9.57454
▁जुलै	-9.5751
▁शेतकरी	-9.57585
31	-9.57624
▁मीटर	-9.57662
▁आठवत	-9.57663
▁फेब्रुवारी	-9.57711
▁याबद्दल	-9.57806
▁लिमिटेड	-9.5797
▁परमेश्वराने	-9.57975
▁बांधकाम	-9.58047
▁दोघेही	-9.58063
▁उद्देश	-9.58118
तु	-9.58164
हर	-9.58171
गर	-9.58234
▁बिल	-9.5833
▁हृदय	-9.58332
▁चलन	-9.58451
im	-9.58457
na	-9.58505
▁be	-9.58522
▁घ्यायला	-9.58524
▁मुख्यमंत्री	-9.58538
▁महत्त्वाचा	-9.58554
▁त्यांच्याकडे	-9.58561
he	-9.58586
सि	-9.58652
▁इटालियन	-9.58655
▁जीवनात	-9.58676
▁भारतातील	-9.58737
▁मंडळी	-9.58783
▁दुपारी	-9.58796
ant	-9.58797
▁निर्	-9.5884
▁जादू	-9.58855
▁मधील	-9.58875
33	-9.58891
स्क	-9.58901
▁सारखे	-9.58912
द्र	-9.58932
र्थ	-9.58942
विले	-9.59007
▁पती	-9.59061
▁खाते	-9.59091
▁मिळ	-9.59091
▁पो	-9.59094
ang	-9.59108
▁e	-9.59164
▁पुरव	-9.59294
▁w	-9.59311
▁मीडिया	-9.59371
▁१००	-9.59397
▁आनंदी	-9.59433
▁देशातील	-9.59438
गत	-9.59441
▁स्लॉट	-9.59453
▁गेम	-9.59454
▁तपशील	-9.59534
▁उपयुक्त	-9.59554
क्र	-9.59645
▁पुनर्	-9.59657
▁हल्ला	-9.59672
69	-9.59717
▁लोकांचा	-9.59741
मेंट	-9.59833
▁हत्या	-9.59915
त्	-9.5997
रूप	-9.5998
▁करील	-9.60034
▁स्थिर	-9.60039
36	-9.60134
[	-9.60135
व्ही	-9.60154
95	-9.60178
▁बदलले	-9.60209
▁लोकांची	-9.60441
▁दुसर्‍या	-9.60661
45	-9.60687
and	-9.60692
88	-9.60704
▁रुग्ण	-9.60805
▁गती	-9.60912
▁श्रेणी	-9.60925
▁ऑगस्ट	-9.60955
mo	-9.6097
▁पाहत	-9.61016
66	-9.61016
▁कृती	-9.61025
▁माध्यम	-9.61074
गु	-9.61097
▁सहकार्य	-9.61108
▁इं	-9.61246
▁संयुक्त	-9.61276
98	-9.61304
▁स्थापन	-9.61416
▁तसं	-9.6148
५	-9.61549
▁पालन	-9.61589
▁साध	-9.61634
hi	-9.61663
▁गाड्या	-9.6173
▁महाराज	-9.61804
lo	-9.61818
▁दृष्टीने	-9.61937
▁वेबसाइट	-9.62003
▁2013	-9.62035
▁बाल	-9.62048
ाकडून	-9.62069
▁यंत्र	-9.62161
▁''	-9.62324
▁=	-9.6235
▁सरळ	-9.62362
▁यानंतर	-9.62414
▁निधी	-9.62631
▁दात	-9.62664
▁पश्चिम	-9.62746
▁जहाज	-9.62754
▁प्रगती	-9.62783
▁De	-9.62951
ासह	-9.63113
टक	-9.63117
आता	-9.63153
▁वाजता	-9.63289
57	-9.63311
▁कॉफी	-9.63333
▁संघर्ष	-9.63338
ir	-9.63429
▁गायब	-9.63455
वं	-9.63509
▁घ्यावे	-9.6357
▁ठार	-9.63579
८	-9.63604
▁हिंदू	-9.63634
यो	-9.63688
▁देता	-9.63769
▁वर्षांपासून	-9.63772
▁रशियन	-9.6388
▁योग	-9.63909
▁अंक	-9.63927
ांपेक्षा	-9.63982
▁काढले	-9.63992
ंध	-9.64072
▁वाढदिवस	-9.64075
▁गुन्हा	-9.64096
ऊ	-9.64113
▁मृत	-9.64134
ठा	-9.64217
▁विसर	-9.6431
▁200	-9.64373
िके	-9.64383
▁फा	-9.64404
▁g	-9.64412
▁वाहतूक	-9.64417
▁डिसेंबर	-9.64431
्ड	-9.64448
जि	-9.64454
▁तळ	-9.6454
▁ऐ	-9.64562
▁दृश्य	-9.64567
▁पावसा	-9.64579
▁फ्रान्स	-9.64585
▁२५	-9.64587
धी	-9.64598
▁मानसिक	-9.64767
▁सगळ्यांना	-9.64829
▁नाश	-9.64846
▁गांधी	-9.64858
▁ब्रिटिश	-9.64862
▁जिंक	-9.64868
▁for	-9.64892
▁कोणालाही	-9.64895
▁अटी	-9.64922
▁रक्षण	-9.64989
▁कर्तव्य	-9.65048
▁जपान	-9.65078
▁घे	-9.65202
▁चोर	-9.65202
▁दूध	-9.65327
▁ऑफिस	-9.65349
▁प्रारंभ	-9.65355
▁कार्यरत	-9.65366
▁पाहता	-9.65529
▁अतिरिक्त	-9.65544
▁म्हणता	-9.65614
▁उत्पन्न	-9.65637
68	-9.65645
२०	-9.65647
▁दिसतात	-9.65651
▁होण्यासाठी	-9.65693
▁इमारत	-9.65728
▁पुष्कळ	-9.65762
▁मिळवा	-9.65879
▁जॉन	-9.65895
▁वाद	-9.65938
▁पॅ	-9.66048
▁बाजारात	-9.66048
गार	-9.66061
sh	-9.6613
▁तलवार	-9.66169
▁पत्ता	-9.66252
▁विद्यार्थ्यांना	-9.66315
रिया	-9.66316
▁सन	-9.66364
▁रस्त्यावर	-9.66389
▁वाचव	-9.66469
▁दार	-9.66559
▁हाती	-9.66678
▁पराभव	-9.66797
▁परिपूर्ण	-9.66807
ॅट	-9.6691
▁अपघात	-9.66953
ity	-9.67063
▁हु	-9.67126
▁दिवाळी	-9.67163
▁जमा	-9.67262
ात्मक	-9.67288
र्न	-9.67326
▁अजिबात	-9.67333
▁घड	-9.67346
▁फ्रेंच	-9.67365
▁मालक	-9.67418
ावरील	-9.6744
▁27	-9.67532
▁फुल	-9.6754
▁तुलना	-9.67555
▁जन	-9.67591
▁कारणे	-9.67618
▁Google	-9.67642
▁११	-9.67743
ाविषयी	-9.67772
▁कराल	-9.67867
▁कुठले	-9.67878
माझ्या	-9.6789
▁कोर	-9.67894
▁रक्कम	-9.67936
▁ठेवला	-9.68016
▁वार	-9.68053
▁निवडा	-9.68057
▁प्रत्यक्ष	-9.68063
-1	-9.68068
▁वाटतो	-9.68108
बर	-9.68121
वन	-9.68128
▁जलद	-9.6825
▁यू	-9.68283
▁जरी	-9.68301
▁इमारती	-9.68418
▁घेतात	-9.68423
▁स्प	-9.68425
वय	-9.68441
ूर	-9.68494
▁अभ्यासक्रम	-9.68499
कू	-9.68511
ion	-9.68651
▁दिलेल्या	-9.68671
72	-9.68687
▁ट्रेन	-9.68701
▁मूर्ख	-9.68706
देश	-9.68766
▁रस्ता	-9.68771
युक्त	-9.68857
▁राख	-9.68894
घर	-9.68937
▁बोलू	-9.68976
▁अस्तित्व	-9.68993
ल्यानंतर	-9.68996
58	-9.6912
87	-9.69212
▁महत्त्वाची	-9.6922
all	-9.69234
▁संदर्भ	-9.69252
▁साखर	-9.69303
▁ईमेल	-9.69432
▁शुल्क	-9.69458
▁बॉक्स	-9.69548
▁संच	-9.69555
▁त्याच्यावर	-9.69584
▁खरोखरच	-9.6961
▁आमदार	-9.69621
ानं	-9.69691
▁पर्वत	-9.69757
▁सांभाळ	-9.69898
घा	-9.69902
▁ज्यामुळे	-9.69907
▁इतक्या	-9.70028
▁साधारण	-9.70056
▁बचत	-9.70088
▁पाठ	-9.70116
▁डो	-9.70163
▁जाहिरात	-9.70228
▁पक्षी	-9.70237
▁स्वतःची	-9.70247
▁मिनिटे	-9.70281
▁पिक	-9.70335
▁नसतात	-9.70347
▁पगार	-9.70361
▁अभि	-9.70543
▁सांगितलं	-9.70615
तरी	-9.7068
स्टर	-9.70682
▁दिवसांत	-9.70684
▁पात्र	-9.70727
▁पळ	-9.70811
▁राग	-9.70829
▁विनंती	-9.70845
काम	-9.70856
▁शाळे	-9.70869
▁सण	-9.70876
▁टाळ	-9.70922
▁राह	-9.70933
▁डाय	-9.70943
▁भु	-9.70956
न्या	-9.70976
▁दावा	-9.71064
ine	-9.71116
▁वाटेल	-9.71218
▁h	-9.71248
▁असावे	-9.71285
वणे	-9.71299
▁आदर्श	-9.71359
▁५०	-9.71385
▁स्वरूप	-9.71391
▁पृथ्वीवर	-9.71568
▁काँग्रेस	-9.71569
न्न	-9.71569
एफ	-9.71646
धार	-9.71675
ts	-9.71777
▁तुलनेत	-9.71866
▁सामर्थ्य	-9.719
▁नेटवर्क	-9.71933
▁ज्यांना	-9.71951
▁टो	-9.72062
▁याजक	-9.72064
▁पोट	-9.72119
▁परिस्थितीत	-9.72124
▁योजने	-9.72184
आपण	-9.72234
71	-9.72265
▁आलेल्या	-9.72281
▁कशासाठी	-9.72313
▁आप	-9.72378
▁उचल	-9.72413
▁लो	-9.72425
▁बार	-9.72442
लोक	-9.7247
77	-9.7255
▁एअर	-9.72592
▁सन्मान	-9.72604
ॉल	-9.7262
up	-9.72706
▁होम	-9.72716
गड	-9.72747
र्ज	-9.72773
ie	-9.72798
ंशी	-9.72865
▁असली	-9.72922
▁आरक्षण	-9.73012
▁तिथेच	-9.73016
▁प्रत्यक्षात	-9.73108
▁घ	-9.73137
▁विद्यार्थ्यां	-9.73314
कि	-9.73367
▁ऊर्जा	-9.73373
▁संत	-9.73378
▁@	-9.73424
▁यातून	-9.73472
▁माणसा	-9.73642
▁त्यांच्यासाठी	-9.73645
▁विश्लेषण	-9.73705
▁एखादा	-9.73768
▁मिळतो	-9.73774
ृत	-9.73837
▁राहत	-9.7387
▁न्यू	-9.73883
▁प्रवाह	-9.73887
▁ऐकून	-9.73934
ाप	-9.73944
ut	-9.73979
▁डा	-9.73989
42	-9.74029
र्ण	-9.74037
णारी	-9.74076
▁मासे	-9.74082
▁दुष्काळ	-9.74097
अरे	-9.74124
▁वेब	-9.74127
▁ग्राहकांना	-9.7414
▁2020	-9.7416
▁वेग	-9.74166
▁हमी	-9.74245
▁दिशा	-9.74309
▁आपल्यासाठी	-9.74317
▁जावे	-9.74346
ig	-9.74356
▁रूप	-9.74388
▁माफ	-9.7442
▁ठ	-9.74478
पूर्वी	-9.74498
धि	-9.74563
▁फॅट	-9.7464
कृत	-9.74721
est	-9.74785
▁नऊ	-9.74789
▁पद्धतीने	-9.74826
59	-9.74918
▁टिक	-9.74937
▁बघायला	-9.74995
▁दुःख	-9.75065
द्ध	-9.75072
▁अशक्य	-9.75098
▁सुरुवातीला	-9.75213
▁म्हणते	-9.75254
्व	-9.75276
▁ऑनलाईन	-9.75305
86	-9.75331
▁तांत्रिक	-9.75338
निक	-9.75344
विरुद्ध	-9.75364
▁मतदार	-9.75472
वळ	-9.75484
▁प्ले	-9.75556
▁नव्हतं	-9.75579
▁पार्टी	-9.75624
▁औषधे	-9.75631
▁Y	-9.75686
▁भू	-9.75751
vi	-9.75764
खर	-9.75797
▁गाय	-9.75808
96	-9.75818
J	-9.75821
▁कमाल	-9.75895
pe	-9.75915
ry	-9.75938
▁29	-9.75946
ोप	-9.76005
डि	-9.76075
▁आढळ	-9.76088
▁स्ट	-9.76088
▁खोलीत	-9.76123
▁आयोजित	-9.76172
▁घेण्यात	-9.76199
▁संपत्ती	-9.76294
सू	-9.76338
▁देवाला	-9.7634
▁मार्गदर्शक	-9.76385
▁नाणी	-9.76421
▁हेतू	-9.76479
▁संकल्पना	-9.76541
▁31	-9.76542
▁गोळा	-9.76557
▁विमा	-9.76573
▁The	-9.76611
▁डिजिटल	-9.76615
▁पाहिला	-9.76655
▁आमच्याकडे	-9.76686
▁जुळ	-9.76765
▁आव्हान	-9.76792
ment	-9.76811
विणे	-9.7685
नाही	-9.76876
च्छ	-9.76896
@	-9.76906
▁खो	-9.76954
to	-9.76965
▁खाऊ	-9.77039
▁स्वतःचे	-9.77063
मेल	-9.77085
▁घेतल्या	-9.77103
▁t	-9.77113
▁संकट	-9.77143
ल्ल	-9.77195
55	-9.77247
नाथ	-9.77331
▁Ma	-9.77334
56	-9.77469
um	-9.77489
▁दुकान	-9.77614
काळ	-9.77681
▁पिढी	-9.77713
▁रस	-9.77722
▁60	-9.77739
द्द	-9.77862
प्प	-9.77891
▁गुप्त	-9.77954
▁नावे	-9.77965
्यांना	-9.7798
म्	-9.78001
▁मंत्री	-9.78048
▁राज्यात	-9.78054
▁असलेला	-9.78134
▁प्रमाणपत्र	-9.7814
▁।	-9.78146
▁बाप	-9.78233
▁फ्ल	-9.78295
▁वायर	-9.78356
▁वाचले	-9.78374
▁उड	-9.78422
▁शतक	-9.78423
ोर	-9.78428
▁१४	-9.78429
र्त	-9.78438
पाल	-9.78454
▁अंग	-9.7847
▁अस्तित्वात	-9.78474
▁असावा	-9.78487
▁वाटलं	-9.78507
49	-9.78563
90	-9.78596
▁भि	-9.78633
▁किलो	-9.78662
▁दिसतो	-9.78663
▁%	-9.78677
▁सहमत	-9.78741
▁आदर	-9.78748
▁फुटबॉल	-9.78759
▁चला	-9.78798
▁विचित्र	-9.78827
▁Z	-9.78849
▁हजारो	-9.78988
▁अति	-9.78993
▁रू	-9.78997
▁बसला	-9.79001
97	-9.7901
j	-9.79049
▁उंची	-9.79067
▁St	-9.79146
▁जाता	-9.79207
▁अंमलबजावणी	-9.7922
▁उभा	-9.79245
▁दबाव	-9.79256
▁देवाची	-9.79257
▁ऍ	-9.79303
ाप्रमाणे	-9.79328
▁जनते	-9.79367
▁थोड्या	-9.79422
▁आठवड्या	-9.79451
▁चमत्कार	-9.79505
▁सांगता	-9.79641
▁भाषेत	-9.79707
▁नियोजन	-9.79736
▁भेटी	-9.79944
▁दर्शन	-9.79964
▁टेबल	-9.79983
▁बैठक	-9.8013
▁झाल्यानंतर	-9.80161
▁महिना	-9.80171
लिंग	-9.80178
▁फि	-9.80182
▁कठोर	-9.80187
र्य	-9.80196
िली	-9.80201
▁वैशिष्ट्य	-9.80227
▁रुपया	-9.80287
‘	-9.80307
▁एकमेकांना	-9.80356
योग	-9.80399
▁स्त्रिया	-9.80413
▁स्मार्ट	-9.80438
्ज	-9.80472
▁विषयी	-9.80472
▁गाणी	-9.80501
der	-9.80537
▁हवाई	-9.80544
▁इंग्लंड	-9.80545
▁फॉर्म	-9.80588
▁देवी	-9.80612
ल्ट	-9.80628
▁परिवर्तन	-9.80673
▁भाषे	-9.80746
▁Next	-9.80765
ंडा	-9.80782
▁ताकद	-9.80802
▁व्ही	-9.80806
▁v	-9.80916
▁संघटना	-9.80924
▁ठरले	-9.80989
▁ध्येय	-9.81055
▁मानक	-9.8113
▁घेण्याची	-9.8114
ाइ	-9.81228
िर	-9.81235
वेळ	-9.81359
▁चुकीचे	-9.81421
▁आलेले	-9.81457
▁कॉ	-9.81471
▁देण्याची	-9.81495
ग्	-9.81513
िला	-9.81545
▁वितरण	-9.81638
▁विसरू	-9.81648
ांपैकी	-9.81681
▁वकील	-9.81798
िनी	-9.81895
▁करणारी	-9.81953
▁माफी	-9.81994
लेट	-9.82009
▁सक्रिय	-9.82041
▁तुमच्याकडे	-9.8209
▁मोह	-9.82179
▁में	-9.82193
▁नृत्य	-9.82225
एन	-9.82233
▁सीमा	-9.82245
▁सोडव	-9.82252
▁सर्वकाही	-9.82263
खे	-9.82311
▁वैशिष्ट्ये	-9.82351
करिता	-9.82368
▁सांगणार	-9.82394
काय	-9.82432
तोय	-9.82461
▁बदलत	-9.82567
▁Co	-9.82595
▁ग्रंथ	-9.82602
44	-9.82623
▁दुर्लक्ष	-9.82632
▁वर्षांची	-9.82641
▁पातळी	-9.82658
▁क्रेडिट	-9.82703
▁सांगते	-9.82736
▁जातील	-9.82743
▁प्रकारचा	-9.828
▁जय	-9.82842
▁जायचे	-9.82876
▁आघाडी	-9.82925
▁द्यावे	-9.83036
▁न्यायालय	-9.83052
▁संकेतस्थळ	-9.83111
▁यरुशलेम	-9.83147
▁बहु	-9.83199
▁यहूदा	-9.83245
▁पाटील	-9.83274
▁प्राथमिक	-9.83295
करी	-9.8332
▁याप्रसंगी	-9.83444
▁बचाव	-9.83471
▁वाचून	-9.83478
▁१७	-9.83608
करण	-9.83625
▁मारले	-9.83648
▁गुरु	-9.8365
▁नेता	-9.83736
▁कारखाना	-9.83784
▁घड्याळ	-9.83966
तः	-9.83982
▁पाहिजेत	-9.84032
▁कृपा	-9.84078
▁खंड	-9.84081
ोल	-9.84098
▁दर्जा	-9.84109
▁शुभेच्छा	-9.84116
▁एकमेकां	-9.84131
▁ईमानधारक	-9.84153
▁सू	-9.84166
▁कर्तृत्वाला	-9.84169
▁इन	-9.84172
पू	-9.84182
▁आत्महत्या	-9.84378
▁आपलं	-9.8439
▁स्थळ	-9.84413
▁फो	-9.84439
▁जबाबदार	-9.84527
per	-9.84545
▁त्यापैकी	-9.84551
▁करतोय	-9.84584
ांस	-9.84588
ांसह	-9.84682
खी	-9.84689
om	-9.8469
▁असला	-9.84711
▁असल्या	-9.84752
▁दृष्टी	-9.84752
▁बरे	-9.84777
▁माय	-9.84838
▁कौशल्य	-9.84953
▁जमिनी	-9.8504
पुढे	-9.85087
ांपासून	-9.8513
्‍य	-9.85149
▁Ch	-9.85176
▁लोकसंख्या	-9.85317
▁केल्यानंतर	-9.85344
▁माणसां	-9.85348
▁सगळेच	-9.85456
▁ऐतिहासिक	-9.85473
नाम	-9.85569
▁जाणे	-9.85579
▁विरोधी	-9.85665
▁No	-9.85675
▁आवडी	-9.8572
ल्यास	-9.85758
▁बनले	-9.85759
▁अनुवाद	-9.85778
▁by	-9.85798
▁धोका	-9.85812
▁कॅमेरा	-9.85816
▁यंत्रणा	-9.85828
▁बॅग	-9.85829
▁Previous	-9.85929
▁बळी	-9.85958
man	-9.86072
▁ऑपरेशन	-9.86082
▁मोटर	-9.86096
▁आत्म	-9.86237
▁औद्योगिक	-9.86312
ow	-9.86393
क्षण	-9.86422
▁लागल्या	-9.86467
▁फाइल	-9.86494
क्रम	-9.86495
▁कुठेही	-9.86511
▁प्रचार	-9.86556
जमावतो	-9.86619
टन	-9.86669
ap	-9.86748
▁you	-9.86759
▁झाल्यावर	-9.86868
▁आख	-9.86947
79	-9.86969
▁देवाचे	-9.87046
▁माणसं	-9.87119
हू	-9.87162
ियर	-9.87184
▁उत्साह	-9.87378
▁बॅ	-9.87469
▁महाग	-9.8748
▁वीज	-9.87508
▁कट	-9.87512
खाली	-9.8754
▁लैंगिक	-9.87544
▁पुरेसे	-9.87554
▁सकारात्मक	-9.87583
▁वापरा	-9.87628
▁१६	-9.87632
▁जम	-9.87639
▁शकले	-9.87662
▁FSX	-9.87743
▁अखेर	-9.87752
81	-9.87757
▁हाताळ	-9.87787
ंप	-9.87809
ंडी	-9.87821
सारखं	-9.87856
▁घडव	-9.87886
▁पोच	-9.87889
ab	-9.87953
सर्व	-9.87991
ाऊ	-9.88003
▁सार	-9.88006
▁गीत	-9.88014
▁माती	-9.8802
▁Android	-9.88049
श्‍	-9.88067
तेने	-9.88089
▁बोट	-9.8817
ठे	-9.8822
▁शोधा	-9.88244
-20	-9.88282
ाइट	-9.88304
▁पुस्तकं	-9.88307
▁उत्तरे	-9.88317
्वा	-9.88403
▁आवडतात	-9.88426
75	-9.88433
▁समुदाय	-9.88478
▁म्हणणे	-9.88507
आज	-9.88514
▁खाजगी	-9.88518
▁प्रत्येकाला	-9.88542
▁त्याच्याकडे	-9.88591
▁जायला	-9.88637
▁ठेवू	-9.88701
▁रविवारी	-9.88719
▁वाह	-9.88755
▁प्रभु	-9.88771
ni	-9.88898
▁पाह	-9.88907
▁महाविद्यालय	-9.88982
▁दिवसभर	-9.89036
▁बहिणी	-9.89048
▁त्यापेक्षा	-9.89063
▁भविष्यात	-9.89081
▁मान्यता	-9.89091
▁जपानी	-9.89106
▁अल	-9.89208
▁निवडून	-9.89227
हार	-9.89251
कारण	-9.89274
▁इत्यादी	-9.89303
▁प्लास्टिक	-9.89343
74	-9.89437
▁विद्युत	-9.89461
▁de	-9.89476
ांमुळे	-9.89541
शक्ती	-9.89583
▁जाणीव	-9.89586
िव	-9.89607
▁अशीच	-9.89614
लिन	-9.89617
▁बायको	-9.89626
able	-9.89629
्ये	-9.89634
▁ओढ	-9.89634
६	-9.89637
▁सोन्या	-9.89685
ंगा	-9.89686
ांक	-9.89702
िओ	-9.89706
▁दावीद	-9.89792
▁अडचणी	-9.8985
▁article	-9.89857
▁बदलू	-9.90005
▁युरोपियन	-9.90188
श्र	-9.90191
▁साल	-9.90208
78	-9.90243
▁और	-9.90321
ill	-9.90325
▁देशाच्या	-9.90361
▁दर्शव	-9.9038
अस्	-9.90468
▁वाढते	-9.90486
▁शैक्षणिक	-9.90493
▁अथवा	-9.90494
चित्र	-9.90537
▁धार्मिक	-9.90573
▁तुम्हा	-9.90587
▁वापरली	-9.90613
▁खु	-9.90643
टीन	-9.90698
▁निर्माता	-9.90733
▁करण्याच्या	-9.9074
▁स्वयंपाक	-9.90847
▁इंजिन	-9.9085
▁बहुतांश	-9.90856
▁मिळाल्या	-9.90873
▁गौरव	-9.90976
▁म्हटलं	-9.91054
▁तुमच्यासमोर	-9.91076
os	-9.91206
▁ज्याला	-9.91233
▁एखादी	-9.91234
▁राहते	-9.91341
▁पाण्या	-9.91349
▁असूनही	-9.91364
53	-9.91411
▁खरच	-9.91463
▁दुर्	-9.91481
▁म्हणालो	-9.91502
ru	-9.91546
झा	-9.91582
em	-9.9161
▁नोव्हेंबर	-9.91617
▁कधीकधी	-9.91677
▁अचूक	-9.91698
-2	-9.91715
्यावर	-9.91735
▁सरासरी	-9.91739
▁यातील	-9.91756
▁प्राचीन	-9.91865
▁आशीर्वाद	-9.91941
▁विमानतळ	-9.91968
▁इथ	-9.91993
▁स्वयंचलित	-9.92022
▁बायबल	-9.92024
स्थान	-9.92073
▁खेळत	-9.92078
ट्या	-9.92104
ive	-9.92166
▁विधान	-9.92194
वंत	-9.92329
▁पाया	-9.92338
▁नाकार	-9.92339
▁ऐकू	-9.92345
▁फिल्टर	-9.92346
▁सगळ्यात	-9.92541
▁द्यायला	-9.92557
▁कायदेशीर	-9.92591
▁प्रती	-9.92604
▁पैशा	-9.92639
▁उड्डाण	-9.92672
कोण	-9.92689
▁फारच	-9.92691
▁राणी	-9.92735
▁चुका	-9.92743
▁पेपर	-9.92743
▁मजकूर	-9.92754
▁लांबी	-9.92796
+	-9.92801
▁टे	-9.92834
नेट	-9.92835
ानी	-9.9284
क्शन	-9.92884
▁गाठ	-9.92892
▁वापरू	-9.92893
▁स्क	-9.92929
▁मांजर	-9.92972
बंध	-9.92987
▁छोटी	-9.92999
63	-9.93055
48	-9.93065
यू	-9.93118
▁निघ	-9.93142
▁ठेवून	-9.93145
▁स्टार	-9.93224
▁आत्ता	-9.93229
िड	-9.93253
▁शेवटच्या	-9.93289
▁म्हणू	-9.93308
▁शंका	-9.9341
▁स्वतःचा	-9.93441
▁राहिली	-9.93521
▁स्वस्त	-9.93527
़	-9.93635
ारा	-9.93653
one	-9.93665
▁सवय	-9.93676
▁उशीर	-9.93773
▁मोबाईल	-9.9378
▁दिशेने	-9.93862
▁मेरी	-9.93895
▁समजले	-9.93902
▁आपोआप	-9.93904
▁सर्वेक्षण	-9.93904
▁विरोधात	-9.94087
▁खाणार	-9.94173
▁कायदे	-9.94195
▁आरोपी	-9.94206
▁संशोधक	-9.94234
▁प्रांत	-9.9424
▁प्रेमात	-9.94274
▁पळून	-9.94291
ll	-9.94292
ांचं	-9.94292
▁जल	-9.94314
ावरून	-9.94322
▁(5	-9.94348
▁लाग	-9.9443
▁थांबव	-9.94448
▁मेच्यूर	-9.94483
▁जागी	-9.94585
ड्र	-9.94597
हित	-9.94603
▁१३	-9.94615
▁विरुद्ध	-9.94653
▁अपेक्षित	-9.94691
रित्या	-9.94701
▁देशांमध्ये	-9.94714
वारी	-9.94728
▁ठर	-9.94753
94	-9.94767
▁हॅ	-9.94772
▁अर्पण	-9.94773
बू	-9.94804
▁शारीरिक	-9.94816
▁लोकशाही	-9.94822
▁गोंधळ	-9.949
▁जर्मन	-9.94903
▁आकर्षक	-9.94983
▁तिसऱ्या	-9.95067
▁स्क्रीन	-9.95109
ist	-9.9511
▁An	-9.95124
▁जाग	-9.95131
▁शेवटचा	-9.95167
▁भागीदार	-9.95176
▁लॉ	-9.95182
▁बोलणे	-9.95205
▁बसून	-9.95261
▁एकमेव	-9.95291
ex	-9.95298
व्हर	-9.9531
▁इथेच	-9.95336
▁इस्लाम	-9.95447
▁वेदना	-9.95457
ाइड	-9.95494
▁व्हायला	-9.95573
▁जास्तीत	-9.95619
▁आभार	-9.95647
▁अगोदर	-9.95652
▁कॅनडा	-9.95713
▁मॉ	-9.95766
ay	-9.9577
▁रॉ	-9.95782
▁करणं	-9.95787
▁अन्यथा	-9.95816
▁शास्त्र	-9.95879
▁घ्यावी	-9.95959
▁खुश	-9.9597
▁गर्दी	-9.9599
▁विकिपीडिया	-9.96009
वणार	-9.96021
ठी	-9.96038
तंय	-9.96047
माल	-9.96047
ac	-9.96058
▁x	-9.96116
▁(4	-9.9615
▁कव्हर	-9.96203
▁यंदा	-9.96207
▁सूत्र	-9.9627
▁स्टेशन	-9.96304
▁तक्रार	-9.96313
▁व्यापारी	-9.9632
▁हवामान	-9.96348
93	-9.96356
▁कोरिया	-9.96375
▁पंप	-9.96382
▁विषयावर	-9.9641
▁केल्यास	-9.96446
▁राष्ट्रवादी	-9.96487
▁लढत	-9.96536
▁व्याख्या	-9.96588
51	-9.96633
▁मर्यादित	-9.96667
▁करायचं	-9.9669
टिंग	-9.96706
▁मूर्ती	-9.96712
▁शेवट	-9.96729
▁साचा	-9.96775
▁पसर	-9.96806
ढी	-9.96858
▁कस	-9.96865
▁मालमत्ता	-9.96879
▁जतन	-9.96885
ge	-9.96937
इन	-9.96985
da	-9.96986
▁लिंक	-9.97014
▁केंद्रित	-9.97015
▁सभा	-9.9712
▁उत्सव	-9.97179
▁चोरी	-9.97218
▁असावी	-9.9722
▁चल	-9.97329
▁उर	-9.97344
ढा	-9.97359
द्या	-9.97367
85	-9.97416
▁असल्यामुळे	-9.97435
▁हवेत	-9.97437
▁घरे	-9.97461
भाष	-9.97471
▁शिष्य	-9.97605
▁ऑर्डर	-9.97606
ालय	-9.97633
▁आराम	-9.97736
76	-9.97775
▁घडत	-9.97785
▁बँके	-9.97803
न्य	-9.97891
ke	-9.97944
▁थोडक्यात	-9.97949
marathi	-9.97949
▁ज्यात	-9.98036
▁यहूदी	-9.98041
ho	-9.98048
▁गुलाम	-9.98049
▁साध्य	-9.98121
▁टाकले	-9.98172
▁गप्पा	-9.98179
▁st	-9.98236
व्हि	-9.98252
▁पंच	-9.98283
▁गोड	-9.98283
ांग	-9.9832
▁पिता	-9.98328
▁श्वास	-9.98424
▁भगवान	-9.9847
▁नावाने	-9.98487
▁अन्	-9.98488
▁प्रकाशन	-9.985
▁वृक्ष	-9.98573
▁संभाव्य	-9.98596
▁वर्षांच्या	-9.98618
▁कुणाला	-9.98628
▁जुनी	-9.98636
▁युवा	-9.98667
▁जंगल	-9.98696
▁सहकारी	-9.98727
▁आलेली	-9.98773
▁मूलभूत	-9.98815
tion	-9.98821
▁दिसणार	-9.98897
43	-9.98931
▁ध्यान	-9.98958
्ल	-9.99012
ाइन	-9.99021
▁येणे	-9.99023
▁एवढी	-9.99053
्वे	-9.99079
काही	-9.99106
▁सापड	-9.99111
▁घटने	-9.99142
▁त्यांच्याशी	-9.99169
▁चेक	-9.99228
▁एवढे	-9.99236
▁मुदत	-9.99297
▁विशेषतः	-9.99341
ांबद्दल	-9.99379
िता	-9.99427
ag	-9.99474
▁परमेश्वरा	-9.99506
▁चांगलं	-9.99538
ॉट	-9.99559
ल्ला	-9.99568
▁शिकार	-9.99569
▁इराण	-9.99599
▁ठेवणे	-9.99616
▁लिह	-9.99617
▁जाळ	-9.99667
र्म	-9.99694
▁नियंत्रित	-9.99769
▁वयाच्या	-9.99798
▁मर्यादा	-9.99897
ॅम	-9.99947
▁लोकांचे	-9.99999
▁कागद	-10.0002
▁दोघे	-10.0003
▁महिले	-10.0005
▁वाचक	-10.0009
▁शांतता	-10.0011
▁राजधानी	-10.0017
89	-10.002
▁रम	-10.0026
▁भिंती	-10.0026
▁सर्वांत	-10.0031
▁साठ	-10.0034
▁प्रे	-10.0035
▁मुलांसाठी	-10.0036
यु	-10.0039
ell	-10.0039
▁वेगळ्या	-10.004
▁संग्रह	-10.0043
▁नव्याने	-10.0044
▁वैज्ञानिक	-10.0046
ट्स	-10.0049
गिरी	-10.0059
▁परंपरा	-10.0065
▁इन्	-10.007
▁रस्त्या	-10.007
act	-10.0071
बळ	-10.0072
▁डोंगर	-10.0083
▁वाचत	-10.0085
्यांची	-10.0086
bo	-10.0086
अप	-10.0087
▁प्रोफाइल	-10.0096
ांनो	-10.0105
▁प्रमाणावर	-10.0106
त्त्व	-10.011
▁पाईप	-10.0118
ca	-10.0124
▁स्नायू	-10.0127
▁२४	-10.0127
वर्त	-10.0128
मिन	-10.013
▁यापूर्वी	-10.0141
▁आजवर	-10.0143
्याची	-10.0152
▁ः	-10.016
lu	-10.0163
▁पडली	-10.0164
ाद्वारे	-10.0167
▁(20	-10.0169
▁आईला	-10.0173
▁गणित	-10.0174
▁सर्वांनी	-10.0176
▁व्हि	-10.0177
▁पोलिसांनी	-10.018
ब्र	-10.0181
▁मुलां	-10.0186
▁सेवक	-10.0193
दोन	-10.0198
ong	-10.0198
▁एवढा	-10.0206
41	-10.0206
अभिवादन	-10.0207
▁देईन	-10.0208
▁सेल	-10.021
झी	-10.0211
▁४०	-10.0212
▁विरोधक	-10.0213
▁जखमी	-10.0213
▁सौ	-10.0215
▁प्रवासी	-10.0215
▁शुभ	-10.0216
▁सजावट	-10.0216
▁प्राण	-10.0217
▁फाईल	-10.0217
▁कहाणी	-10.0221
ॅन	-10.0226
▁कचरा	-10.0226
▁कर्म	-10.0236
▁निर्देश	-10.0238
ोड	-10.0252
▁जोडले	-10.0256
▁वाचायला	-10.0258
▁तोपर्यंत	-10.0258
▁पाव	-10.026
कार्य	-10.0261
▁तुमचं	-10.0261
▁कुठेतरी	-10.0262
▁भिन्न	-10.0262
िले	-10.0264
▁वर्तमान	-10.0274
▁पाहायला	-10.0275
▁रेकॉर्ड	-10.0275
▁पदवी	-10.0276
गण	-10.0286
▁दुख	-10.0287
▁वर्षांनी	-10.0288
▁दशलक्ष	-10.0288
▁प्या	-10.0289
ॉक	-10.0296
य़ा	-10.0298
▁प्रमाणे	-10.0299
▁सामील	-10.0303
▁निराश	-10.0305
▁वृद्ध	-10.0307
Z	-10.0309
िप	-10.0309
▁चौ	-10.0314
ack	-10.0319
▁मह	-10.0321
▁बघू	-10.0324
46	-10.0329
▁जाण्यासाठी	-10.0336
▁गुरू	-10.0337
▁आश्चर्यकारक	-10.0339
▁विशेषत	-10.0343
ंचं	-10.0347
▁पाहिलं	-10.0347
क्ट	-10.0349
वल	-10.0349
▁उत्	-10.0354
फ्ट	-10.0359
टि	-10.036
▁इटली	-10.0361
▁योगदान	-10.0371
▁मिळतात	-10.0375
▁प्रतीक्षा	-10.038
▁मिळून	-10.0392
संबंधी	-10.0399
▁येण्या	-10.0399
▁मेल	-10.04
ुल	-10.04
भाग	-10.0401
ंडे	-10.0402
▁फुट	-10.0402
84	-10.0404
ध्य	-10.0405
va	-10.0412
▁वडिलां	-10.0415
▁गृह	-10.0415
▁समाप्त	-10.0416
▁वळ	-10.042
▁ठाकरे	-10.042
▁त्वरित	-10.042
▁चेंडू	-10.0425
▁केव्हा	-10.0427
ियम	-10.0433
▁धन	-10.0436
▁दया	-10.0436
ेज	-10.0438
▁पहिल्यांदाच	-10.044
▁तशी	-10.0442
थी	-10.0444
▁शेतकऱ्यांना	-10.0446
▁पुटपुटत	-10.0448
▁प्रगत	-10.046
▁सहभाग	-10.0464
▁दिलं	-10.0467
▁बंदी	-10.047
फर	-10.047
ep	-10.0473
▁कोठे	-10.0473
▁नमुना	-10.0475
▁सेकंद	-10.048
▁ठेवतो	-10.0483
▁मूल	-10.0488
वट	-10.0489
▁अंडी	-10.0507
▁पाऊल	-10.0508
▁नाराज	-10.0508
गृह	-10.0509
▁फायबर	-10.0512
व्हा	-10.0514
ऱ्हाम	-10.0517
▁निर्यात	-10.0528
भे	-10.0529
ंदी	-10.0532
▁शिर	-10.0537
्यांनी	-10.0543
▁कळले	-10.0545
av	-10.0545
▁त्यांचं	-10.0551
▁बारा	-10.0553
▁शैली	-10.0554
▁पाहण्यासाठी	-10.056
▁मैदान	-10.0569
िटी	-10.0569
cl	-10.0574
ess	-10.0575
भोवती	-10.0583
लेख	-10.0584
▁आम	-10.0591
▁वाघ	-10.0593
स्ता	-10.0593
▁कोट	-10.0594
▁फेसबुक	-10.0598
निया	-10.06
day	-10.0611
वड	-10.0614
▁सुखी	-10.0617
▁जन्माला	-10.0617
▁शिफारस	-10.0619
▁दरवर्षी	-10.062
वेळा	-10.0627
▁100%	-10.0628
बल	-10.0628
▁मुल	-10.063
▁लप	-10.0631
डू	-10.0631
▁प्रोत्साहन	-10.0633
▁स्वतःच	-10.0636
▁चालले	-10.064
▁फिल्म	-10.0647
▁500	-10.0654
▁प्रदर्शित	-10.0657
▁प्रसार	-10.0659
▁बाळग	-10.0664
▁फ्र	-10.0664
▁बुद्ध	-10.0668
▁शांती	-10.0673
▁बोलला	-10.0674
▁जाण्याची	-10.0679
मार	-10.0679
तीन	-10.068
▁बाद	-10.068
▁मालकी	-10.0684
लंय	-10.0686
▁तीव्र	-10.0688
शाही	-10.0698
▁अनुकूल	-10.0699
▁पासपोर्ट	-10.0699
▁भय	-10.0699
▁बाग	-10.0713
▁शुक्रवारी	-10.0714
▁काढला	-10.072
▁रोजगार	-10.0729
▁तंत्र	-10.073
फी	-10.0736
▁पडतो	-10.0738
▁सोने	-10.0741
▁आवडतं	-10.0742
क्षे	-10.0744
73	-10.0744
▁मॅन	-10.0744
▁कुठल्याही	-10.0748
▁कसोटी	-10.0751
91	-10.0755
min	-10.0756
▁मिल	-10.0758
धारक	-10.0758
▁डोळ्यां	-10.0761
▁दादा	-10.077
ल्याने	-10.0774
▁शीर्ष	-10.0775
▁स्टेनलेस	-10.0784
▁ग्रह	-10.0788
▁2012	-10.0791
▁ऐकत	-10.0793
▁मिसर	-10.0794
सलाम	-10.0794
▁स्वभाव	-10.0796
▁कं	-10.0796
▁निरीक्षण	-10.0798
▁आठवणी	-10.0798
▁दिवसांनी	-10.0802
्न	-10.0809
54	-10.081
▁साय	-10.0812
फि	-10.0813
▁मिमी	-10.0817
▁दल	-10.082
क्षा	-10.0821
▁मासिक	-10.0823
▁ताण	-10.0829
▁Pro	-10.083
ov	-10.0831
▁मंजूर	-10.0832
▁बोलाव	-10.0841
▁हिंदी	-10.0848
mp	-10.085
▁गाणे	-10.0857
▁छोटे	-10.0875
▁मुळात	-10.0875
▁सोय	-10.0876
▁त्वचा	-10.0876
र्व	-10.0877
▁लु	-10.088
जण	-10.0881
▁गरजेचे	-10.0885
िव्ह	-10.0889
▁बोलता	-10.0889
▁क्रीडा	-10.089
शिवसेने	-10.0895
▁शक्तिशाली	-10.0899
▁हॉट	-10.0906
▁नाहीतर	-10.0907
▁किलोमीटर	-10.0908
▁समजत	-10.0911
▁वसंत	-10.0914
वती	-10.0916
▁बसले	-10.0918
▁मुसलमान	-10.0918
▁वेड	-10.0918
▁व्य	-10.0926
▁तिसरा	-10.0927
▁चक्र	-10.0928
83	-10.0937
▁येणाऱ्या	-10.0944
▁दिलेली	-10.0949
तेचा	-10.0952
▁अपमान	-10.0954
▁चुकीच्या	-10.0961
▁मिश्रण	-10.0968
▁मुलांच्या	-10.0979
▁अमेरिकेच्या	-10.0979
▁एशियन	-10.0982
मंत्री	-10.0988
क्षित	-10.099
▁मेहनत	-10.099
▁मेंदू	-10.0991
▁हल	-10.1
▁नेम	-10.1004
▁एकत्रित	-10.1004
▁Mo	-10.1009
▁झाल्यास	-10.102
▁बर्याच	-10.1024
▁आमच्याशी	-10.1029
▁घो	-10.1032
▁ग्लास	-10.1032
▁खान	-10.104
▁शकतील	-10.1042
▁म्ह	-10.1042
▁घट	-10.1042
▁प्रभू	-10.1045
ty	-10.1046
▁आम्हा	-10.1051
▁सांस्कृतिक	-10.1053
कडील	-10.1054
▁con	-10.1058
▁बऱ्याच	-10.106
▁ट्रॅक	-10.1069
ांतील	-10.1071
▁चालणार	-10.1074
▁वापरत	-10.1075
▁दिसले	-10.1076
▁कष्ट	-10.1078
ंबर	-10.1083
▁अपवाद	-10.1086
▁तत्त्व	-10.1087
▁हस्त	-10.1088
▁शिकत	-10.1094
mi	-10.1096
▁दशक	-10.1098
▁भेटायला	-10.1105
त्त	-10.111
Q	-10.1111
82	-10.1121
▁स्पर्श	-10.1124
दू	-10.1126
▁निवडणुका	-10.1126
▁तेव्हापासून	-10.1127
▁भारताच्या	-10.113
▁तार	-10.113
▁खाण्या	-10.1133
घात	-10.1133
▁परिषद	-10.115
ॅक	-10.1152
▁गंध	-10.1154
्रे	-10.1155
▁बोलताना	-10.1157
▁सिटी	-10.1163
▁महाराष्ट्रात	-10.1166
▁लिफ्ट	-10.1177
▁देखभाल	-10.1181
▁संध्याकाळी	-10.1182
▁जु	-10.1182
▁शस्त्र	-10.1183
ite	-10.1185
ट्ट	-10.1187
ga	-10.1188
▁मुंबईत	-10.1189
▁दातृत्व	-10.1196
▁डाव	-10.1198
▁सहसा	-10.1201
▁बोलतो	-10.1203
▁देवाचा	-10.1204
ताई	-10.1206
▁लावले	-10.1209
▁जागे	-10.121
▁उपकरण	-10.1212
▁(10	-10.1215
▁वेगळं	-10.1216
बाई	-10.1217
्यांचा	-10.1217
मू	-10.1217
▁कडून	-10.1221
▁परमेश्वराच्या	-10.1222
▁खासदार	-10.1223
मुक्त	-10.1223
▁पुण्य	-10.1224
▁पाण्यात	-10.123
ण्यापूर्वी	-10.1234
▁ठाऊक	-10.1235
▁बेट	-10.1236
▁राहुल	-10.1236
▁मुद्दे	-10.124
▁(6	-10.1244
▁अंश	-10.1248
▁निवडणुकी	-10.1248
▁नेमके	-10.1248
▁निधन	-10.1253
ंद्र	-10.1256
▁सूची	-10.1259
▁खात	-10.1264
्मा	-10.1267
qu	-10.128
▁मध्यम	-10.1283
प्रे	-10.1288
दायक	-10.1288
▁होणारे	-10.1292
▁समजू	-10.1293
▁आस	-10.1293
▁झडप	-10.1296
▁ब्ल	-10.1301
्री	-10.1305
▁दंड	-10.1308
▁बोलण्या	-10.1316
एच	-10.1318
▁आपणास	-10.1324
▁भरले	-10.1326
▁मू	-10.1329
▁राहून	-10.133
▁लंडन	-10.1331
▁धावा	-10.1332
▁लावून	-10.1332
▁स्त्रियां	-10.1334
▁टिप्पण्या	-10.1335
▁रस्ते	-10.1335
▁पांढरा	-10.1343
▁जाहिराती	-10.1345
▁साइड	-10.1346
▁देशाची	-10.1352
▁जेणेकरून	-10.1355
मधे	-10.1361
म्ब	-10.1363
▁ma	-10.1365
▁गुणवंतांच्या	-10.137
स्ट्र	-10.1374
▁टिपा	-10.1374
▁मस्त	-10.1376
▁मुख	-10.1379
▁पाठविले	-10.1383
▁कलम	-10.1391
▁ब्रँड	-10.1391
▁सौंदर्य	-10.1406
ance	-10.1408
▁चूचे	-10.1409
▁वनस्पती	-10.1416
▁35	-10.1416
▁व्यक्ति	-10.1421
▁अक्षर	-10.1422
श्री	-10.1423
ांपर्यंत	-10.1425
▁वास	-10.1427
▁दुष्ट	-10.1427
ak	-10.143
▁लिहून	-10.1432
tra	-10.1436
ka	-10.1444
age	-10.1444
▁महिलांना	-10.1448
क्‍त	-10.1451
▁रह	-10.1462
▁सुरूवात	-10.1463
▁उन्हाळ्यात	-10.1465
▁गुन्हेगार	-10.1467
▁अॅल्युमिनियम	-10.1472
ज्या	-10.1477
ंपैकी	-10.1478
▁परीक्षे	-10.1478
▁मुस्लिम	-10.1492
पती	-10.1493
▁याशिवाय	-10.1496
▁n	-10.1499
▁लढा	-10.15
▁वाजव	-10.1502
no	-10.1506
▁प्रतिनिधी	-10.1511
धान	-10.1513
द्य	-10.1514
नगर	-10.1515
▁आजपर्यंत	-10.1516
go	-10.1517
▁धक्का	-10.1517
▁बॅटरी	-10.1519
▁करण्यापूर्वी	-10.1522
साक्ष	-10.1524
▁नवे	-10.1524
▁वयात	-10.1527
▁मतदारसंघ	-10.1528
▁(7	-10.1528
▁घातले	-10.153
▁वै	-10.1533
बोल	-10.1536
▁शोधण्यासाठी	-10.1545
▁दर्जाचे	-10.1551
▁स्वामी	-10.1556
61	-10.1557
कथा	-10.1557
▁बराच	-10.1558
▁कित्येक	-10.1559
▁ख्रिश्चन	-10.1559
▁परदेशी	-10.1559
▁कोणीच	-10.1566
0,000	-10.1571
▁तुमच्यावर	-10.1575
▁सुट्टी	-10.1577
पूर्व	-10.1577
▁प्लॅस्टिक	-10.1579
tt	-10.1584
▁32	-10.1585
▁आवडतो	-10.1589
▁भांड	-10.1605
ash	-10.1607
▁होण्या	-10.1608
▁विधानसभा	-10.1615
ेकर	-10.1624
▁पाहतो	-10.1628
▁शकलो	-10.1629
▁करेन	-10.1629
हेही	-10.1638
दर्शन	-10.1639
▁रेडिओ	-10.1642
▁रोड	-10.1645
92	-10.165
जु	-10.1656
▁आत्म्या	-10.1657
62	-10.1661
▁घ्याल	-10.1662
▁प्राण्यां	-10.1664
ाबरोबर	-10.1665
▁बलात्कार	-10.1667
ub	-10.1671
▁जप	-10.1679
▁अभिवादनाला	-10.1683
वाडी	-10.1688
▁सकाळ	-10.1689
▁मोशे	-10.1692
▁स्पॅनिश	-10.1693
यकुम	-10.1693
art	-10.1699
▁स्थापित	-10.1699
आपल्या	-10.17
▁परिणामी	-10.1705
▁बुड	-10.1714
▁ढ	-10.1718
मार्ग	-10.1719
▁परिवार	-10.1721
▁ठेवण्यात	-10.1723
▁सदैव	-10.1724
▁चित्रे	-10.1724
▁सेवे	-10.1728
52	-10.1728
▁स्थित	-10.1728
▁दारू	-10.1735
ाव्या	-10.1737
▁ठरवले	-10.1742
▁छाप	-10.1745
▁जनावर	-10.1748
▁रेड	-10.175
ध्द	-10.175
▁प्रसंग	-10.175
▁अभिनय	-10.175
▁बाई	-10.1752
ian	-10.1757
▁खायला	-10.1759
▁सानुकूल	-10.176
▁संकेत	-10.176
▁जगभरातील	-10.1761
ियो	-10.1763
▁90	-10.1766
▁शहा	-10.1768
▁नोट	-10.1773
ज्	-10.1773
▁मज	-10.1774
▁यायला	-10.1775
▁खासगी	-10.1777
▁व्हावे	-10.178
▁त्याचबरोबर	-10.1787
र्ग	-10.1789
ee	-10.1795
▁रोल	-10.1804
▁Sh	-10.1809
▁ऊ	-10.1809
▁Me	-10.1809
▁बोलले	-10.1811
64	-10.1817
▁45	-10.1818
▁क्रिया	-10.1818
कारक	-10.1822
▁स्थितीत	-10.1824
▁दरवाजे	-10.1829
▁सांगण्यात	-10.1829
्त	-10.185
▁देशाला	-10.1853
▁कुमार	-10.1856
▁गळ	-10.1859
▁आसपास	-10.1861
▁प्रतिबंध	-10.1862
▁कॉम	-10.1864
▁त्याप्रमाणे	-10.1866
▁सुरक्षे	-10.1872
ध्या	-10.1873
▁कोरियन	-10.1873
▁जळ	-10.188
▁उत्सुक	-10.1887
▁घन	-10.1889
▁सगळा	-10.189
▁हलव	-10.1894
▁बांधले	-10.1894
बद्ध	-10.1897
▁घालून	-10.19
▁होणाऱ्या	-10.1908
▁सदर	-10.191
▁लिंग	-10.1912
▁दिलेला	-10.1912
▁प्राधान्य	-10.1914
ies	-10.1919
▁नवा	-10.1919
▁२१	-10.1921
▁काढा	-10.1922
ai	-10.1923
जू	-10.1925
ph	-10.193
▁वर्षांनंतर	-10.1932
ष्ठ	-10.1936
▁शोधू	-10.1937
tu	-10.194
▁जेट	-10.1943
▁आमच्यासाठी	-10.1946
▁तसंच	-10.1953
वेल	-10.1955
किंग	-10.1955
▁कृषी	-10.1956
▁हरकत	-10.1957
झर	-10.1961
▁विदेशी	-10.1964
निमित्त	-10.1967
▁समजा	-10.1974
▁धातू	-10.198
▁वर्षाच्या	-10.198
▁टॅग	-10.1984
ass	-10.1989
▁गमाव	-10.1989
▁खिडकी	-10.1994
=	-10.1997
▁मिळवून	-10.2
▁इतरांना	-10.2003
out	-10.2005
▁टीका	-10.2005
▁ग्	-10.2005
▁खात्या	-10.2007
▁कारखाने	-10.2015
▁pro	-10.2015
।	-10.2022
▁बोर्ड	-10.2025
▁येत्या	-10.2027
▁मनो	-10.2028
▁जगभरात	-10.2041
▁खुप	-10.2041
▁पृष्ठभाग	-10.2043
लिक	-10.2044
ल्ली	-10.2044
▁म्हणाल्या	-10.2048
▁दान	-10.2051
▁खाच	-10.2052
ba	-10.206
ोद	-10.2062
▁सां	-10.2063
▁अवघड	-10.2069
▁टि	-10.2079
▁लोकांसाठी	-10.2079
▁(12	-10.2081
ांमधील	-10.2083
tic	-10.2086
▁एक्सएनयूएमएक्स	-10.2087
▁इलेक्ट्रिक	-10.2096
▁एवढेच	-10.2104
धर्म	-10.2105
▁आढळले	-10.2106
▁बाह्य	-10.2108
▁अण्णा	-10.2109
ंकडे	-10.2114
▁शक	-10.2114
पक्ष	-10.2115
▁सरकारला	-10.2116
▁म्हणायचे	-10.2123
▁सब	-10.2131
▁प्रौढ	-10.2134
▁आदिवासी	-10.214
▁सराव	-10.214
▁चरबी	-10.2145
▁इंजेक्शन	-10.215
▁साम	-10.2153
▁महत्वाचा	-10.2154
▁गर्भवती	-10.2156
ऑन	-10.2157
▁समूह	-10.216
▁साफ	-10.2165
▁गोळी	-10.2165
▁गायन	-10.2165
▁बघून	-10.2173
दिन	-10.2173
▁लावला	-10.2173
▁सामने	-10.2177
▁ज्येष्ठ	-10.2177
▁मांस	-10.2184
▁घेते	-10.2184
▁05	-10.2187
▁येतं	-10.219
▁पीसी	-10.219
▁उद्	-10.2192
पार	-10.2193
▁पार्क	-10.2194
▁वापरला	-10.2199
▁ट्यूब	-10.2199
▁खरेच	-10.2201
▁Ad	-10.2206
▁महत्व	-10.221
ाजवळ	-10.2212
िक्स	-10.2213
▁वर्षा	-10.2219
▁मस्क	-10.2225
▁आयोग	-10.2225
▁मित्रांनो	-10.2231
िं	-10.2231
▁गि	-10.2231
कारी	-10.2241
▁पुस्तकात	-10.2243
▁ब्रा	-10.2246
▁सोडले	-10.2247
▁आवश्‍यक	-10.2249
▁दृष्टिकोन	-10.2249
▁आल्यावर	-10.2249
▁विंडोज	-10.2249
▁परिचय	-10.226
▁पसंती	-10.2268
गम	-10.2271
▁ज्यांनी	-10.2272
तेची	-10.2275
ुष	-10.2276
▁खोटे	-10.2278
ve	-10.2279
श्या	-10.2281
▁बोलतात	-10.2291
▁दिसेल	-10.2294
▁मैत्री	-10.2295
ace	-10.2297
वाह	-10.23
षा	-10.23
▁80	-10.2302
▁नकारात्मक	-10.2305
्रो	-10.2308
▁बोलणार	-10.2309
त्ता	-10.2316
▁फूट	-10.2316
▁अन्याय	-10.2318
▁गॅस	-10.2319
हु	-10.232
▁निवडले	-10.232
ight	-10.2322
छा	-10.2325
▁पाहिली	-10.2332
▁मानतो	-10.2342
▁साक्ष	-10.2342
▁वेगवेगळे	-10.2354
▁हसत	-10.2354
▁En	-10.2354
▁शरीरात	-10.2355
▁दोघांनी	-10.2358
▁धमकी	-10.2365
घे	-10.2366
▁प्रेक्षक	-10.2366
▁साम्राज्य	-10.237
://	-10.2371
▁टॉ	-10.2373
▁कौतुक	-10.2381
▁मॅ	-10.2381
ातल्या	-10.2384
लू	-10.2386
▁सिंह	-10.2391
▁एकटे	-10.2391
▁सांगितली	-10.2393
▁वापरकर्ता	-10.2397
▁वर्षाचा	-10.24
▁लाखो	-10.2404
▁पित्या	-10.2405
फाय	-10.2408
▁अर्थातच	-10.2414
▁पकडले	-10.2414
▁त्यामुळं	-10.2415
▁मिळविण्यासाठी	-10.2415
िस्ट	-10.2416
▁संविधान	-10.2418
▁घ्यावा	-10.2421
ऑ	-10.2423
▁अड	-10.2423
▁सापडले	-10.2424
▁टेक	-10.2425
-3	-10.2427
▁सोपा	-10.2428
ard	-10.243
▁ऐका	-10.2433
▁बहुधा	-10.2433
▁महत्वाची	-10.244
साहेब	-10.2444
▁कृष्ण	-10.2448
▁बनवले	-10.2453
ांतून	-10.2456
▁सुर	-10.2456
▁किंमती	-10.246
▁आत्मविश्वास	-10.2465
▁ताब्यात	-10.2465
▁नीट	-10.2468
od	-10.247
▁आग्रह	-10.2472
णूक	-10.2473
शु	-10.2475
▁येथून	-10.2477
▁माझ्याशी	-10.2477
▁विष	-10.2484
▁चरण	-10.249
▁रिअल	-10.2492
ेंट	-10.2493
▁माहितीसाठी	-10.2504
▁अनेकांना	-10.2505
▁अल्	-10.2517
2004	-10.2517
▁दुरुस्ती	-10.2523
सेस	-10.2525
▁जाणवत	-10.2531
विषयक	-10.2532
भी	-10.2534
▁ट्र	-10.2535
▁मृत्यु	-10.2536
▁शेतकऱ्यां	-10.2537
▁टन	-10.2542
णार्‍या	-10.2547
▁खाण	-10.2547
▁जुना	-10.255
▁आरंभ	-10.255
▁वारंवार	-10.255
्टर	-10.2551
port	-10.2553
▁आठवडे	-10.2556
▁रहस्य	-10.2556
▁संदर्भात	-10.2556
▁धार	-10.2557
▁बरं	-10.2564
ांतर	-10.2565
▁समाजात	-10.2567
▁उभार	-10.2568
ish	-10.2569
▁चु	-10.2575
au	-10.2581
▁शनिवारी	-10.2583
▁दो	-10.2585
▁कनेक्ट	-10.259
▁नागरिकांना	-10.2592
▁वाढली	-10.2594
▁मुलीला	-10.2594
▁आशिया	-10.2595
वतो	-10.2599
ंगी	-10.2605
लाइन	-10.2606
▁सर्व्हर	-10.2607
▁तणाव	-10.2613
▁बहीण	-10.2614
▁सुसंगत	-10.2618
▁भ्रष्टाचार	-10.2618
▁व्यक्तीला	-10.2624
▁काळी	-10.2624
▁व्यस्त	-10.2625
कॉ	-10.2627
ya	-10.263
▁ठेवण्यासाठी	-10.2634
▁अर्धा	-10.2635
▁कुठल्या	-10.2636
▁पास	-10.2638
▁Marathi	-10.2639
▁ख्रिस्ती	-10.264
▁कार्यकर्ते	-10.2643
ॅप	-10.265
▁लिहिण्या	-10.2654
▁अर्थव्यवस्था	-10.2655
▁Read	-10.2661
▁तसाच	-10.2664
▁स्मरण	-10.2676
▁पातळीवर	-10.2676
▁ब्रेक	-10.268
▁क्षणी	-10.268
▁मुलांची	-10.2684
१९	-10.2685
▁जॅक	-10.2687
▁यावे	-10.2688
▁प्रदूषण	-10.2693
▁आयात	-10.2695
▁कार्यक्षमता	-10.2702
▁पोह	-10.2703
▁अॅप	-10.2707
▁पाठवले	-10.2707
▁यूएस	-10.271
भि	-10.271
▁किशोर	-10.2712
▁बर्फ	-10.2716
ंबद्दल	-10.2718
▁सॉ	-10.272
मुख	-10.2722
▁वाढले	-10.2726
▁हळूहळू	-10.2727
▁कडक	-10.273
▁कटिंग	-10.2736
▁Be	-10.2736
▁बघतो	-10.2736
▁अभिनेत्री	-10.2739
▁बाटली	-10.2739
▁बर	-10.2742
ction	-10.2746
▁देवदूत	-10.275
▁स्त्रियांना	-10.2752
▁घराण्या	-10.2756
▁लोकसभे	-10.2756
▁दिलेले	-10.276
▁स्तर	-10.2761
▁देह	-10.2762
▁आठवडा	-10.2762
म्हणजे	-10.2762
▁टाका	-10.2762
▁असल्याची	-10.277
धन	-10.2771
▁मंगळवारी	-10.2773
▁त्रुटी	-10.2773
▁अट	-10.2774
▁थक	-10.2775
फ्रे	-10.2791
▁तारे	-10.2795
▁रागाव	-10.2795
▁पाण्याची	-10.2796
▁२२	-10.2801
▁दुरुस्त	-10.2801
म्प	-10.2803
▁श्रेष्ठ	-10.2808
▁संप्रेरक	-10.2808
त्मक	-10.2809
ासमोर	-10.2813
▁पर्यटन	-10.2814
▁सारख्या	-10.2815
▁अँ	-10.2816
स्त्र	-10.2817
पूर्वक	-10.2818
▁सवलत	-10.282
▁इंच	-10.2826
▁निर	-10.2826
ाबाबत	-10.2831
कर्ता	-10.2839
▁सर्वसामान्य	-10.2843
▁अत्याचार	-10.2843
प्ट	-10.2852
▁पेय	-10.2854
▁इंडिया	-10.2855
▁इंधन	-10.2855
▁अश्या	-10.286
▁तेथील	-10.2861
▁70	-10.2863
▁Al	-10.2865
▁पर्यटक	-10.2866
▁To	-10.2867
▁मालिके	-10.2868
▁sp	-10.2871
▁वर्गात	-10.2872
र्द	-10.2879
क्टर	-10.2882
▁वेबकॅम	-10.2884
▁सिस्टम	-10.2884
▁श्रद्धा	-10.289
ick	-10.2891
ख्या	-10.2896
▁धोकादायक	-10.2896
▁दुसरीकडे	-10.2897
▁कुत्रा	-10.2897
▁दाखवून	-10.2897
▁शाखा	-10.2898
▁सर्वत्र	-10.2898
▁सर्वोच्च	-10.2902
दरम्यान	-10.2902
▁सागर	-10.2904
▁स्रोत	-10.2907
▁घडली	-10.2912
ys	-10.2914
▁व्यापक	-10.2914
100	-10.2915
▁त्यांच्याबरोबर	-10.2915
oo	-10.2917
▁प्रामाणिक	-10.2917
▁अधिकाऱ्यां	-10.292
▁वेळेस	-10.2921
▁सर्वजण	-10.2923
ग्रस्त	-10.2928
our	-10.293
les	-10.2931
▁भव्य	-10.2932
▁लिखाण	-10.2937
▁घेण्याचा	-10.294
▁तज्ञ	-10.2943
▁चर्चे	-10.2945
▁उभी	-10.2946
▁आजकाल	-10.2947
▁जरूर	-10.2947
वलं	-10.2951
▁गोल	-10.2956
सार	-10.2965
▁सांगितल्या	-10.2966
▁स्वच्छता	-10.2972
▁जगत	-10.2973
▁चिनी	-10.2973
▁वेगाने	-10.2979
र्ब	-10.298
▁भयानक	-10.2984
▁होण्यास	-10.2987
▁Ro	-10.2993
▁असती	-10.2993
fe	-10.3004
▁साप	-10.3011
ind	-10.3011
▁स्वर्ग	-10.3013
▁त्यानं	-10.3019
▁अनुदान	-10.3022
son	-10.303
▁इलेक्ट्रॉनिक	-10.3031
▁बिघड	-10.3031
▁साइटवर	-10.3032
हन	-10.304
▁धैर्य	-10.3043
▁चुकीचा	-10.3044
▁अमेरिके	-10.3049
▁चॉकलेट	-10.3049
▁हुशार	-10.3049
▁दोघां	-10.3053
iv	-10.3053
▁रासायनिक	-10.3055
वर्ग	-10.3056
▁अधिकाऱ्या	-10.3057
▁सोशल	-10.3061
▁बोलायला	-10.3063
▁पाठी	-10.3064
▁प्रक्रिये	-10.3067
क्षेत्र	-10.3068
▁यो	-10.308
▁तुट	-10.3082
▁r	-10.3084
▁सॅ	-10.3091
if	-10.3103
IN	-10.3113
▁दुष्परिणाम	-10.3115
▁स्पष्टपणे	-10.3118
▁वंश	-10.3119
▁do	-10.3125
▁नावाचा	-10.3126
▁बुद्धी	-10.3126
▁इतकं	-10.3127
ip	-10.3128
ावं	-10.313
*	-10.3132
स्को	-10.314
▁आफ्रिकन	-10.3145
▁गांडचटाई	-10.3145
▁co	-10.3145
200	-10.3153
▁लाज	-10.3156
मग	-10.3158
ोज	-10.316
▁जोरदार	-10.3165
ाबाहेर	-10.3165
▁चालक	-10.3167
छ	-10.3171
▁देण्याचा	-10.3173
▁झु	-10.3181
▁गैर	-10.3181
ळू	-10.3183
▁मध	-10.3185
▁चांदी	-10.3188
▁वेळेवर	-10.319
वाढ	-10.319
ेंद्र	-10.3191
▁कळेल	-10.3192
▁छोटा	-10.3193
▁डाऊनलोड	-10.3199
▁निदान	-10.32
▁टोक	-10.3207
▁असल्याचा	-10.3208
०	-10.3211
▁फ्लॅट	-10.3212
bu	-10.3214
▁शासकीय	-10.3223
▁पडणार	-10.3227
▁व्याज	-10.3229
तुला	-10.3232
ोट	-10.3234
ल्ह	-10.3245
▁धरण	-10.3248
▁एकदम	-10.3249
▁खोल	-10.3253
▁रडत	-10.3254
▁भूक	-10.3256
▁पॉवर	-10.3259
आप	-10.326
▁धान्य	-10.3263
▁उस	-10.3267
▁so	-10.3268
▁अंधार	-10.3268
▁मुळ	-10.3271
▁त्याचप्रमाणे	-10.3273
▁इथं	-10.3278
▁नेले	-10.3278
▁विसरून	-10.3279
end	-10.3279
▁राष्ट्रपती	-10.328
▁राज्यातील	-10.3281
बाबा	-10.3284
▁६०	-10.329
▁बघता	-10.3291
▁36	-10.3292
▁कळलं	-10.3298
500	-10.33
सेवा	-10.3303
▁सोमवारी	-10.3306
▁साहेब	-10.3307
▁बनला	-10.3308
▁कोर्ट	-10.3308
▁शिकवण	-10.3315
▁स्त्रोत	-10.3315
▁केबल	-10.3315
▁भो	-10.3316
ST	-10.3317
▁कादंबरी	-10.3322
वाय	-10.3326
▁घेण्यास	-10.3328
▁1000	-10.3331
▁यापुढे	-10.3337
▁लिहा	-10.3337
▁अंध	-10.3337
▁मिळवू	-10.3338
▁नमस्कार	-10.3339
▁याआधी	-10.3339
▁ठरत	-10.3341
▁मिळतील	-10.3342
▁मास्टर	-10.3342
▁प्रामुख्याने	-10.3345
▁Cl	-10.3349
▁विचारलं	-10.3351
७	-10.3351
▁पॅंटीस	-10.3352
▁प्रकट	-10.3353
▁वृत्तपत्र	-10.3354
्याचा	-10.3355
▁अडक	-10.3356
▁नाग	-10.3357
विध	-10.3358
गुण	-10.3368
▁मॅक	-10.3371
▁शेत	-10.3371
▁खराब	-10.3371
▁WEB	-10.3372
Co	-10.3373
▁कधीतरी	-10.3374
▁आभारी	-10.3375
▁येशूने	-10.3387
▁an	-10.3387
▁आणून	-10.3388
▁गाण्या	-10.3393
▁बालक	-10.3395
वर्ष	-10.3396
▁दिवा	-10.3397
▁कुत्र्या	-10.3399
▁घोषित	-10.3407
▁विनोद	-10.3408
▁मंत्रालय	-10.3408
▁आफ्रिका	-10.3413
▁कोसळ	-10.3413
टल	-10.3414
शर	-10.3416
▁किमी	-10.3416
्म	-10.3423
▁नव्हतो	-10.3425
ृष्ट	-10.3428
▁म्हणा	-10.3429
▁वर्षं	-10.3436
wa	-10.3438
त्री	-10.3442
▁अस्वस्थ	-10.3445
▁ओळ	-10.3445
५०	-10.3448
▁चिन्ह	-10.3452
ोलोन	-10.346
▁गोपनीयता	-10.3462
▁देवता	-10.347
ber	-10.3471
▁वाटू	-10.3479
▁उदा	-10.3487
▁more	-10.3488
▁मात	-10.3494
▁वापरकर्ते	-10.3496
▁पडू	-10.3497
▁लागवड	-10.3501
▁प्रोग्राम	-10.3505
▁प्रभावित	-10.3507
▁आफ्रिके	-10.3507
pl	-10.3508
▁स्पष्टीकरण	-10.3509
▁पू	-10.3516
▁स्वरूपात	-10.3517
▁k	-10.352
▁आकर्षण	-10.3525
▁नो	-10.3529
्याचे	-10.3532
▁परवाना	-10.3533
▁Te	-10.3534
▁व्यवस्थापक	-10.3537
न्ड	-10.3542
▁भास	-10.3543
ंमुळे	-10.3544
▁देशाचे	-10.3545
▁शेवटचे	-10.3554
वयास	-10.3563
▁दाब	-10.3563
बाब	-10.3565
ood	-10.3568
ci	-10.3569
▁दिसू	-10.3573
▁पै	-10.3576
▁ओळखत	-10.358
▁भक्त	-10.3585
▁तिकीट	-10.3587
▁फसवणूक	-10.3588
▁वाटतंय	-10.359
▁al	-10.3594
▁मुलींना	-10.3597
▁बळ	-10.3597
▁डिव्हाइस	-10.36
▁मार्गाने	-10.3605
र्जी	-10.3605
▁सगळीकडे	-10.361
▁अज्ञात	-10.3613
▁प्रदेशात	-10.3617
▁हॉल	-10.362
▁मिळालं	-10.3625
पाय	-10.3627
▁घरातील	-10.363
▁वेळेत	-10.3632
▁भारी	-10.3634
▁परा	-10.3637
▁घरगुती	-10.3644
▁उद्योजक	-10.3644
▁शास्त्रज्ञ	-10.3645
▁बॉ	-10.3651
▁चित्रपटात	-10.3654
▁दोषी	-10.3655
▁com	-10.3655
▁गड	-10.3656
▁द्वारा	-10.366
▁अज	-10.3667
▁खातो	-10.3668
sa	-10.3669
ण्ड	-10.3669
अस	-10.367
▁पॉ	-10.3672
▁वर्ण	-10.3674
गल	-10.3674
▁(8	-10.3679
▁गरजा	-10.368
ins	-10.3683
▁रबर	-10.3683
▁Su	-10.3692
▁दृश्ये	-10.3694
डिया	-10.3698
▁2011	-10.3701
ल्फ	-10.3706
ॅग	-10.371
▁लागतील	-10.3712
▁लाट	-10.3723
▁बेस	-10.3725
▁तब्बल	-10.3727
▁प्लॅटफॉर्म	-10.3727
ेश्वर	-10.3727
▁युवक	-10.3733
▁l	-10.3739
▁ड्राइव्ह	-10.3739
▁गाज	-10.3742
पान	-10.3743
ide	-10.3744
▁जोशी	-10.3744
▁अडचण	-10.3753
▁घडते	-10.3757
▁ठरला	-10.3761
पास	-10.3763
▁एवढ्या	-10.3765
▁विराट	-10.3765
वण	-10.3775
▁शब्दात	-10.3777
▁होईपर्यंत	-10.3778
▁अमेरिकेतील	-10.3781
ाधिक	-10.3782
▁वार्षिक	-10.379
▁परिषदे	-10.3792
▁सरकारच्या	-10.3795
▁जीएसटी	-10.3795
▁पूल	-10.3795
▁सुलभ	-10.3797
res	-10.3803
▁मंदिरात	-10.3803
▁जातं	-10.3805
▁रोम	-10.3807
काल	-10.3811
▁जमिनीवर	-10.3814
▁माजी	-10.3815
्यांचे	-10.3823
▁सोपी	-10.3824
ॉर	-10.3825
▁खाद्य	-10.3825
्याने	-10.3829
स्थिती	-10.3831
▁खून	-10.3832
▁पुल	-10.3833
▁धुवून	-10.3834
▁रॅ	-10.3836
भूमी	-10.3836
▁त्रि	-10.3837
▁ज्याने	-10.3842
▁जड	-10.3843
▁घेण्या	-10.3852
▁उदाहरणे	-10.3853
ॅक्ट	-10.3856
▁दम	-10.3856
▁परम	-10.3861
▁(13	-10.3862
▁फी	-10.3865
▁साकार	-10.3866
▁साधारणपणे	-10.3866
▁पूरक	-10.3871
टेल	-10.3871
▁Se	-10.3871
्टन	-10.3871
▁संपादक	-10.3874
▁हाताने	-10.3876
▁वैध	-10.3878
▁गर्व	-10.3886
▁माझ्याबरोबर	-10.3886
▁हून	-10.3886
▁se	-10.3888
▁लक्षणे	-10.389
▁उर्वरित	-10.3894
शिया	-10.3896
▁शिवाजी	-10.39
▁काढू	-10.39
▁निघाले	-10.3902
▁संचालक	-10.3902
▁आकर्षित	-10.3907
▁तथ्य	-10.3907
▁शु	-10.3911
▁वाचता	-10.3914
▁आवडता	-10.3914
▁गॅ	-10.3918
▁निष्कर्ष	-10.392
ुरी	-10.392
▁परदेशात	-10.392
▁असणाऱ्या	-10.392
▁बदला	-10.3921
▁सत्ते	-10.3922
▁पीक	-10.3925
▁काढता	-10.3926
ांबरोबर	-10.3939
▁लष्कर	-10.3943
वाणी	-10.3943
▁वाटा	-10.3945
▁धूम्रपान	-10.3946
▁हंगाम	-10.3946
▁लिहिली	-10.3947
▁वापरतात	-10.3949
ायचो	-10.3952
gu	-10.3953
▁कौ	-10.3955
▁बॉल	-10.3956
ग्ल	-10.3956
▁Le	-10.3957
▁कै	-10.3959
▁पॅरिस	-10.3959
पॅ	-10.396
fi	-10.3961
▁क्लब	-10.3961
▁आर्ट	-10.3964
▁कर्मचाऱ्यां	-10.3966
धो	-10.397
▁आवडले	-10.3973
▁चव	-10.3974
स्कर	-10.3975
▁पुरावा	-10.3975
▁बंधन	-10.3978
वीर	-10.3978
▁अर्ध	-10.3978
▁सिद्धांत	-10.3982
आमच्या	-10.3984
▁पॅकिंग	-10.3985
▁बोललो	-10.3987
ज्ज	-10.3988
▁स्वा	-10.3989
▁बाळा	-10.3991
▁जिल्ह्या	-10.3992
व्यात	-10.3993
लँड	-10.3997
▁त्याऐवजी	-10.4001
▁तुकडे	-10.4005
ाइल	-10.4009
▁टिप्पणी	-10.4011
▁टाळण्यासाठी	-10.4011
▁असामान्य	-10.4012
▁नोकर	-10.4013
िज	-10.4016
▁अग	-10.4017
▁करिअर	-10.402
▁लाइन	-10.402
▁उष्णता	-10.4026
फार	-10.4029
▁टॉमला	-10.4032
▁विन	-10.4036
▁व्यवस्थित	-10.4044
▁दुसर्या	-10.4044
▁भरून	-10.4045
▁काढली	-10.4048
ँड	-10.4049
जीवन	-10.4056
ायत	-10.4062
▁टॅ	-10.4076
▁निरोप	-10.4077
▁बौद्ध	-10.4078
▁सामान्यतः	-10.4081
use	-10.4082
खु	-10.4086
▁अर्	-10.4086
▁वरच्या	-10.4089
वै	-10.409
▁उघडले	-10.4091
▁अपयश	-10.4095
▁सज्ज	-10.4097
र्ध	-10.4106
▁भाग्य	-10.4106
▁आंबेडकर	-10.411
▁पाने	-10.4111
▁बेड	-10.4112
▁खेळू	-10.4112
ob	-10.4113
▁कवी	-10.4113
ice	-10.4116
▁कार्बन	-10.4117
▁अवयव	-10.4117
▁अनुसरण	-10.4117
▁विश्‍वास	-10.4118
▁परमेश्वराला	-10.412
▁कल्याण	-10.4121
sk	-10.4122
ंगे	-10.4123
▁आध्यात्मिक	-10.4123
▁33	-10.4131
▁वर्षभर	-10.4135
▁प्रतिष्ठा	-10.4136
▁लोड	-10.4136
▁चो	-10.4137
▁नागपूर	-10.4137
▁आजारी	-10.4144
▁युनिट	-10.415
▁जनता	-10.4151
▁वीस	-10.4151
▁वेतन	-10.4152
–	-10.4157
निष्ठ	-10.4162
▁नॅस्टी	-10.4163
च्च	-10.4171
bi	-10.4172
र्ष	-10.4175
▁शरद	-10.4176
▁प्रशिक्षक	-10.4177
▁सत्र	-10.4182
▁सुटका	-10.4183
▁राष्ट्राध्यक्ष	-10.4184
▁सुचव	-10.4185
▁थर	-10.4185
▁लिहित	-10.4186
बंदी	-10.4187
▁बदलून	-10.4187
▁पाक	-10.4193
▁सूट	-10.4193
▁बटण	-10.4193
▁ऑफीस	-10.4197
▁अर्थव्यवस्थे	-10.4198
▁Tag	-10.4198
योजन	-10.42
▁Li	-10.4202
ast	-10.4203
▁मुख्यपृष्ठ	-10.421
▁द्यावी	-10.4214
▁गुजरात	-10.4216
AS	-10.4216
▁कण	-10.4217
गळ	-10.4217
▁ऑटो	-10.4219
▁वापरता	-10.4219
▁कोर्स	-10.4223
▁मुलगे	-10.4224
▁वरिष्ठ	-10.4226
दृष्ट्या	-10.423
▁टेप	-10.4231
आई	-10.4232
▁ताप	-10.4233
pa	-10.4235
▁with	-10.4236
▁दृष्टीकोन	-10.4243
▁बदलला	-10.4245
▁बाजूने	-10.425
ki	-10.425
▁i	-10.4251
▁(11	-10.4253
▁स्थानक	-10.4255
▁अर्थाने	-10.4257
tr	-10.426
▁येण्याची	-10.4262
▁ठराव	-10.4262
hu	-10.4264
▁उरले	-10.4268
ans	-10.427
▁ago	-10.4279
▁रविवार	-10.4283
▁अवस्था	-10.4285
▁जाणारे	-10.4289
▁भांडवल	-10.429
▁वगैरे	-10.429
▁त्याच्याशी	-10.4297
तेय	-10.43
▁निराकरण	-10.4304
▁आम्हांला	-10.4311
▁So	-10.4312
▁वर्तन	-10.4319
▁बिग	-10.432
▁तिथून	-10.4321
मराठ	-10.4326
▁महत्त्वपूर्ण	-10.4326
RE	-10.4328
▁ओरड	-10.4334
▁वळण	-10.4335
ढे	-10.4337
▁परस्पर	-10.4337
▁पुण्यात	-10.434
▁ऐकायला	-10.4345
त्रे	-10.4351
app	-10.4354
ट्रॉ	-10.4356
▁असतांना	-10.4356
▁विसरले	-10.4357
▁संवेदनशील	-10.4358
▁(9	-10.4358
▁लपव	-10.4359
▁शोधून	-10.4362
▁लाड	-10.4362
han	-10.4364
▁निश्‍चित	-10.4365
▁तिकडे	-10.437
▁sa	-10.4379
▁पॅक	-10.4381
त्ती	-10.4382
ींग	-10.4384
ासारखे	-10.4386
▁स्पर्धे	-10.4392
▁राजे	-10.4392
▁परमेश्वराचा	-10.4396
▁बाळाला	-10.4397
वयाचे	-10.4398
▁इतकेच	-10.4402
▁दिवसांपूर्वी	-10.4405
▁जुगार	-10.4406
▁स्वयं	-10.4406
▁बदलली	-10.4407
▁कड	-10.4408
▁प्रेस	-10.4408
▁हरवले	-10.4412
ens	-10.4412
▁चॅनेल	-10.4412
ामधील	-10.4416
ox	-10.4416
मंड	-10.4417
▁भयंकर	-10.4419
▁बंदूक	-10.442
▁गंमत	-10.4426
ण्याआधी	-10.4428
ग्रह	-10.443
ज्ञान	-10.4432
त्ते	-10.4435
▁जाण्याचा	-10.4441
▁संकल्प	-10.4443
ster	-10.4451
लिया	-10.4451
▁ओळी	-10.4452
▁अ‍ॅ	-10.4456
ांश	-10.4462
▁स्टोअर	-10.4467
▁चीनमध्ये	-10.447
▁पाहिल्या	-10.4475
▁सामान	-10.4477
▁निराशा	-10.4478
ाशिवाय	-10.4484
▁कोणाची	-10.4484
▁उपस्थिती	-10.4485
▁तिथ	-10.449
▁मेटल	-10.4493
परि	-10.4494
ष्क	-10.4497
▁पाठवा	-10.45
▁शौल	-10.4502
mb	-10.4505
▁भूत	-10.451
▁चौकट	-10.4511
टिक	-10.4512
▁तिथं	-10.4516
2018	-10.4517
▁ग्रीक	-10.4522
▁जिल्ह्यातील	-10.4524
▁शेवटची	-10.4526
ॉक्स	-10.4526
ंपासून	-10.453
▁युती	-10.453
फो	-10.4535
▁भारताने	-10.4535
▁प्रत्येकजण	-10.4541
स्ती	-10.4548
▁पडतात	-10.4549
आउट	-10.4553
▁कारखान्या	-10.4557
महा	-10.456
tch	-10.4564
▁Ex	-10.4566
▁ग्रामीण	-10.457
ब्ल	-10.4571
▁युग	-10.4571
▁साधना	-10.4573
▁भार	-10.4574
▁(19	-10.4576
पुरुष	-10.4579
▁यूके	-10.4583
▁वाटे	-10.4584
▁दीप	-10.4586
▁०	-10.4588
▁रुग्णालयात	-10.4591
▁युनायटेड	-10.4605
▁देण्या	-10.4608
▁देशासाठी	-10.461
ल्य	-10.4612
▁कापड	-10.4615
str	-10.4616
▁वेबसाईट	-10.4619
कर्त्या	-10.4621
वणी	-10.4626
ळकर	-10.4626
▁विक्रम	-10.4628
▁गुरूवार	-10.463
▁स्तरावर	-10.4632
▁Th	-10.4634
▁दिसला	-10.4637
▁गे	-10.4637
ach	-10.4638
▁आव	-10.4641
ँग	-10.4643
▁पॅकेजिंग	-10.4646
सिस	-10.4647
▁राखीव	-10.4647
▁आवाहन	-10.4654
nd	-10.4654
▁छायाचित्र	-10.4659
▁पोहच	-10.4659
▁वृत्त	-10.4665
▁गोष्टींचा	-10.4668
▁कंपनीच्या	-10.4668
▁चाक	-10.4671
▁फोड	-10.4671
▁आवडला	-10.4672
न्ट	-10.4675
प्रा	-10.4676
▁इंग्रज	-10.4688
▁खोटं	-10.4703
७५	-10.4704
▁निळा	-10.4704
▁पेशी	-10.4705
▁द्राक्ष	-10.4711
▁मार्क	-10.4713
▁वाऱ्या	-10.4714
▁ex	-10.4715
▁पाहण्या	-10.4718
▁केल्याने	-10.472
▁उपासना	-10.4722
▁सुगंध	-10.4724
▁तज्ज्ञ	-10.4725
धर	-10.4727
ting	-10.4731
▁देण्यास	-10.4733
▁कॅप	-10.4734
▁खि	-10.4735
▁हॉ	-10.4737
ह्या	-10.4738
▁बघितले	-10.4739
विरोधात	-10.474
▁it	-10.4741
▁राहतील	-10.4743
▁साधक	-10.4743
न्ह	-10.4749
▁सद	-10.475
ld	-10.475
▁2009	-10.4759
▁शिल्लक	-10.4759
▁स्वयंसेवक	-10.4759
ड्रा	-10.4764
pp	-10.4765
▁ऐकतो	-10.4766
▁शहरे	-10.477
भारतीय	-10.477
दो	-10.477
▁थोर	-10.4771
▁फ्री	-10.4771
▁मुलांनी	-10.4773
▁तृतीय	-10.4774
▁क्ष	-10.478
▁अद्वितीय	-10.4781
▁विस्तृत	-10.4781
वेद	-10.4782
▁पॅनेल	-10.4784
संदर्भात	-10.4787
▁राहिलो	-10.479
▁ठरते	-10.4791
du	-10.4795
मधल्या	-10.4796
▁कुटुंबीय	-10.4801
▁वर्षां	-10.4801
▁तुझं	-10.4802
▁(17	-10.4802
▁पूर्वज	-10.4804
पाशी	-10.4805
स्टार	-10.4807
▁सुरक्षितता	-10.4808
▁रुप	-10.4808
▁उपयोगी	-10.481
▁उघडा	-10.4811
गन	-10.4813
▁साहाय्य	-10.4816
▁गुणधर्म	-10.4818
▁द्यावा	-10.482
Comment	-10.482
लु	-10.4822
▁कसले	-10.4824
gr	-10.4826
क्व	-10.4829
▁फिटनेस	-10.483
▁गर्ल	-10.483
bl	-10.4831
▁शनिवार	-10.4832
रिन	-10.4837
ोम	-10.4838
▁अभाव	-10.484
▁तलाव	-10.4842
▁ऑक्स	-10.4842
▁खाल्ले	-10.4845
▁डिस्क	-10.4846
▁काढणे	-10.485
१०	-10.4853
कृती	-10.4858
▁अधि	-10.4859
संबंध	-10.4862
IS	-10.4865
▁वास्तव्य	-10.4865
▁सौर	-10.4866
▁फॅशन	-10.4867
▁लेखात	-10.4875
▁झि	-10.4878
▁दीर्घ	-10.4887
▁पॅकेज	-10.4888
▁श्र	-10.4888
भारत	-10.489
▁48	-10.4893
▁Lo	-10.4893
▁परिसर	-10.4893
▁विजे	-10.4897
▁जीवनाचा	-10.4898
▁तुझ्यासाठी	-10.4902
▁घडवून	-10.4904
ण्य	-10.4905
▁सापडत	-10.4905
▁आणली	-10.4906
▁चौक	-10.4907
▁कू	-10.4911
▁झाल्याने	-10.4913
▁वाया	-10.4914
विण्यात	-10.4915
▁चीनी	-10.4915
▁विश्रांती	-10.4916
प्रति	-10.4921
▁आवडली	-10.4922
▁निविदा	-10.4923
▁तुझ्यावर	-10.4924
विचार	-10.4924
▁तारा	-10.4926
▁हिंदु	-10.4929
▁फु	-10.4935
ical	-10.4936
बॉल	-10.494
वरुन	-10.4942
कल्प	-10.4943
▁आत्ताच	-10.4943
▁पाठिंबा	-10.4945
▁जाताना	-10.4946
▁प्लेट	-10.4948
▁गणेश	-10.4948
▁मित्रांना	-10.4949
▁भौतिक	-10.4954
▁तिच्यावर	-10.4958
▁300	-10.496
mg	-10.4965
▁ठरेल	-10.4965
▁कॅश	-10.4966
▁तेवढा	-10.4966
ेपर्यंत	-10.4972
▁नसले	-10.4973
▁सामायिक	-10.4974
▁कोकण	-10.4983
▁यापैकी	-10.4989
▁me	-10.499
▁are	-10.4992
▁Ar	-10.4995
▁भूमी	-10.4997
▁आड	-10.5
▁2010	-10.5001
▁आढावा	-10.5003
▁घ्यायची	-10.5003
▁दाखवा	-10.5009
▁काश्मीर	-10.501
▁डिझाईन	-10.501
▁शिपिंग	-10.5011
▁२०१९	-10.5011
▁झाडे	-10.5012
▁दिसली	-10.5015
▁or	-10.5015
▁स्पर्धेत	-10.5017
प्पा	-10.5021
▁घट्ट	-10.5026
प्रकार	-10.5026
▁घाई	-10.5027
▁जायचं	-10.5028
▁दुकानात	-10.5035
▁विचारू	-10.5036
बंद	-10.5037
आधी	-10.5039
▁सोडत	-10.5044
▁विवेक	-10.5046
सुध्दा	-10.5047
▁लॉक	-10.505
विण्यासाठी	-10.505
भाई	-10.5053
▁फक्किंग	-10.5053
▁ब्रिटन	-10.5053
▁खत	-10.5056
▁फेरी	-10.5058
▁वेल	-10.506
▁सूक्ष्म	-10.5061
▁सांगायला	-10.5061
▁Ha	-10.5065
▁हित	-10.5067
▁नाशिक	-10.5067
▁महत्त्वाचं	-10.5071
▁सामन्यात	-10.5071
we	-10.5089
▁धोनी	-10.509
2019	-10.5095
▁ऑर्जी	-10.5101
ाधिकार	-10.5103
▁स्कूल	-10.5104
ऐ	-10.5105
▁जगाला	-10.5107
क्षी	-10.5108
▁प्रतिकार	-10.511
▁दफन	-10.5112
▁माणसाने	-10.5118
▁2008	-10.5122
▁आणू	-10.5128
▁थोडं	-10.5129
ऊन	-10.5131
▁राजकारणात	-10.5133
३०	-10.5133
ud	-10.5138
▁शंभर	-10.5142
▁जिल्ह्यात	-10.5145
▁सांगून	-10.5147
int	-10.5147
करता	-10.5152
▁गण	-10.5152
ॉप	-10.5153
▁आयोजन	-10.5154
▁संघटने	-10.5156
▁सलग	-10.5156
कुल	-10.5158
▁करीता	-10.5161
▁Q	-10.5162
▁वाक	-10.5162
▁संपत	-10.5163
▁निवडणुकीत	-10.5167
ायच्या	-10.5173
▁मनुष्या	-10.5176
एसए	-10.5176
वडिल	-10.5177
▁याकोब	-10.5179
ांमधून	-10.5182
▁Post	-10.5185
▁हानी	-10.5189
▁पहात	-10.5189
▁Con	-10.5189
▁विजयी	-10.5192
▁about	-10.5193
▁किल्ला	-10.5198
▁अॅनाबॉलिक	-10.52
▁आश्वासन	-10.52
झे	-10.5204
▁वाटचाल	-10.5206
फल	-10.5209
टू	-10.521
▁अॅड	-10.5215
▁बायका	-10.5219
▁करणार्‍या	-10.5223
▁मिसळ	-10.5237
ाईट	-10.5242
ff	-10.5245
▁दाद	-10.5246
▁प्राध्यापक	-10.5252
vel	-10.5254
▁भेटलो	-10.5254
cu	-10.5255
▁महायुद्ध	-10.526
▁महत्त्वाच्या	-10.5266
▁साखळी	-10.5267
▁देखावा	-10.5268
▁दुध	-10.5268
▁पॉलिसी	-10.527
पीए	-10.5271
▁आंब	-10.5273
gi	-10.5277
▁एर	-10.5277
▁ऋण	-10.5279
▁दुवा	-10.528
▁42	-10.5283
झो	-10.5284
▁त्याग	-10.5287
▁डॉलर्स	-10.5288
-4	-10.5292
ानु	-10.5292
▁ज्यामध्ये	-10.5296
ासारखा	-10.5299
▁देख	-10.53
ase	-10.5303
पाद	-10.5303
▁India	-10.5304
▁तेथून	-10.5304
▁पसंत	-10.5322
▁एकट्या	-10.5326
▁पार्श्वभूमी	-10.5334
▁पत्रक	-10.5335
▁Wi	-10.5336
▁लावण्या	-10.5342
ct	-10.5344
▁कार्यकारी	-10.5346
▁सेवानिवृत्त	-10.5348
▁दुहेरी	-10.5349
▁नसल्याने	-10.5353
ds	-10.5354
वायला	-10.5354
▁ठरणार	-10.5355
▁प्रवाशा	-10.5356
▁स्टिरॉइड्स	-10.5363
▁फॉ	-10.5368
▁बुक	-10.5369
▁नॉन	-10.5371
▁आक्रमण	-10.5371
ence	-10.5376
TC	-10.5377
हिर	-10.5379
▁ठेवणार	-10.5379
ंडर	-10.5379
नीय	-10.5385
▁नातेवाईक	-10.5386
▁हल्ल्या	-10.5387
ंनो	-10.5389
अल्लाह	-10.5391
ल्क	-10.5392
▁निरोगी	-10.5394
▁पोलिसांना	-10.5396
▁सोन	-10.5399
▁सातारा	-10.5405
▁फळे	-10.5406
▁मरणार	-10.5408
▁रसूल	-10.5409
ron	-10.5415
▁पारंपारिक	-10.5416
र्च	-10.5417
▁स्विच	-10.5418
▁भारताला	-10.5421
lic	-10.5422
भव	-10.5422
▁सेंट	-10.5424
▁न्यडिस्ट	-10.5424
▁न्यूयॉर्क	-10.5424
▁घुस	-10.5424
▁संपर्कात	-10.5424
मुल	-10.5424
ट्री	-10.5425
▁पं	-10.5426
▁वेद	-10.543
▁अभियांत्रिकी	-10.5431
▁आयटम	-10.5432
▁फेक	-10.5438
गुरु	-10.5441
▁You	-10.5442
▁मारली	-10.5445
▁व्याप	-10.5445
ER	-10.5447
▁गिर	-10.5448
▁होण्याचा	-10.5448
▁त्वचे	-10.5449
ser	-10.545
▁समस्ये	-10.5454
▁Bo	-10.5454
▁Casino	-10.5456
▁२६	-10.5459
फिक	-10.546
▁डबल	-10.5464
-5	-10.5465
▁इतिहासात	-10.5466
▁स्पेन	-10.5466
▁क्षमते	-10.547
▁परिसरात	-10.547
▁सारखी	-10.5472
▁प्रकरणात	-10.5473
सिड	-10.5474
्झ	-10.5475
▁आणला	-10.5477
ated	-10.548
▁वाचतो	-10.548
▁कनेक्शन	-10.5484
▁लेझर	-10.5485
▁उद्भव	-10.5485
▁साक्षी	-10.5485
ोस	-10.5486
▁बाबी	-10.5489
▁शेतकऱ्या	-10.5499
▁कार्यालयात	-10.5499
नु	-10.55
be	-10.5501
मंत्र	-10.5502
▁संपले	-10.5502
▁मानतात	-10.5503
ug	-10.5505
▁लोकसंख्ये	-10.5507
▁देणगी	-10.5507
रिक	-10.5507
▁टीन	-10.551
▁संसार	-10.5511
▁तारण	-10.5514
▁सुधारित	-10.5515
▁जणू	-10.5519
▁ऋतू	-10.5523
▁असंख्य	-10.5525
con	-10.5526
आयए	-10.5527
▁किल्ल्या	-10.553
मिक	-10.5535
▁येईन	-10.554
▁द्रव	-10.554
▁पशु	-10.5543
▁समर्थ	-10.5544
▁चालेल	-10.5549
ाईड	-10.5553
▁गोलंदाज	-10.5553
▁शेतात	-10.5553
▁मै	-10.5555
शू	-10.5556
▁कमाई	-10.5557
म्ह	-10.556
▁38	-10.556
▁प्रोजेक्ट	-10.5561
▁मिस	-10.5562
▁देशाचा	-10.5562
▁Vi	-10.5566
▁शिकलो	-10.5567
▁जोर	-10.5568
दास	-10.5569
▁पावले	-10.558
▁व्हायचे	-10.5584
▁पर्	-10.5588
पॉ	-10.5594
▁बसत	-10.5596
▁व्हॅ	-10.5597
form	-10.5599
▁सारा	-10.56
▁९०	-10.5605
▁खरंतर	-10.5607
्चर	-10.5611
▁ठेवी	-10.5612
रुप	-10.5612
▁इथून	-10.5612
▁झाल्याचे	-10.5614
▁संमेलन	-10.5615
▁चर्चेत	-10.5618
▁सापडला	-10.5619
ुळ	-10.562
▁भेटले	-10.5622
र्ती	-10.5623
प्स	-10.5624
▁पाण्याचे	-10.5632
▁कारभार	-10.5632
इल	-10.5633
▁त्यांच्याकडून	-10.5633
▁अल्प	-10.5636
वाडा	-10.5637
▁पाळीव	-10.5639
भार	-10.5639
▁दर्शवित	-10.5639
▁पाट	-10.5644
▁परीक्षण	-10.5646
▁अधिकाधिक	-10.5648
▁बजाव	-10.5648
▁हार्ड	-10.5649
ायचंय	-10.5651
▁खऱ्या	-10.5652
▁क्रांती	-10.5653
▁आयफोन	-10.5654
ंपेक्षा	-10.5654
ik	-10.5655
तर्फे	-10.5656
▁तत्व	-10.5658
▁लिहायला	-10.566
▁वर्ल्ड	-10.5661
पोर्ट	-10.5664
▁धीर	-10.5666
▁वाज	-10.5667
▁ho	-10.5667
लंड	-10.5668
▁पुन	-10.5672
▁टू	-10.5673
भूत	-10.5675
तुम्हाला	-10.5685
द्रा	-10.569
▁कॅस्टिंग	-10.5692
▁लॉग	-10.5692
▁धडा	-10.5694
▁मधे	-10.5696
▁क्षेत्रातील	-10.5698
सुर	-10.5699
▁८०	-10.5702
▁सहाय्य	-10.5709
▁भारताचा	-10.5711
ावली	-10.5714
▁सर्वोत्कृष्ट	-10.5715
▁सुनिश्चित	-10.5715
▁पाउडर	-10.5723
▁शंकर	-10.5724
▁प्रत	-10.5729
▁कामकाज	-10.5731
▁फेर	-10.5735
▁चालते	-10.5737
▁चुकीची	-10.5739
▁शकतं	-10.5739
वीत	-10.574
▁वरून	-10.5741
▁निक	-10.5742
▁महिन्यांत	-10.5744
▁खडक	-10.5746
▁संशय	-10.5755
▁मराठा	-10.5757
ton	-10.5758
▁भाषांतर	-10.5762
gen	-10.5764
▁शकला	-10.5765
▁प्रकृती	-10.5765
ks	-10.5767
▁पेट	-10.5769
▁मागण्या	-10.577
मार्फत	-10.577
▁वाहून	-10.5774
कॅ	-10.5775
दारी	-10.578
ana	-10.5782
एमए	-10.5782
▁आगमन	-10.5782
do	-10.5782
▁दस्तऐवज	-10.5785
▁सूचित	-10.5785
▁लावली	-10.5794
▁लोकसभा	-10.5794
▁देण्याचे	-10.5796
ूळ	-10.5797
▁लॅ	-10.5802
▁अद्भुत	-10.5809
बाजी	-10.5815
▁ट्रक	-10.5816
▁फर	-10.5817
▁घ्यायचे	-10.5817
▁पुरेसा	-10.5819
▁दास	-10.5821
रंग	-10.5822
▁ज्याचा	-10.5824
ree	-10.5825
ोबा	-10.5827
किंवा	-10.5828
▁बाबेल	-10.5828
▁आयुक्त	-10.5829
▁धरून	-10.5829
▁व्यवस्थे	-10.5831
▁खाणे	-10.5834
▁वाचली	-10.5834
▁दौरा	-10.5838
बर्ग	-10.5843
▁अंतरावर	-10.5843
▁जाणाऱ्या	-10.5843
राज्य	-10.5845
स्टो	-10.5847
▁लवचिक	-10.5848
▁कंप	-10.585
▁कच्चा	-10.5858
▁बोला	-10.5858
▁जसा	-10.5862
दर्श	-10.5872
▁गुड	-10.588
▁विद्या	-10.5881
▁su	-10.5881
क्रि	-10.5881
▁दिनांक	-10.5882
▁आशियाई	-10.5886
▁साताऱ्या	-10.5888
ous	-10.5893
▁नसत	-10.5895
र्फ	-10.5895
ea	-10.5899
टेड	-10.5905
▁अंतर्	-10.5906
▁माणसांना	-10.5908
▁नियुक्ती	-10.591
▁कर्करोग	-10.5911
ट्टी	-10.5913
▁लेक	-10.5914
यान	-10.5917
▁निवास	-10.5922
▁सांगायचे	-10.5922
ग्न	-10.5925
▁तितकी	-10.5927
▁हॉस्पिटल	-10.5928
परमेश्वर	-10.5932
▁लागलो	-10.5934
▁युक्रेन	-10.5935
▁चाहत्यां	-10.5943
▁(15	-10.5943
low	-10.5945
▁पेर	-10.5947
▁घाट	-10.5947
टेक	-10.5948
▁ठरली	-10.5949
▁वापरणे	-10.5952
▁लॉगिन	-10.5953
▁घोडा	-10.5955
पट्टी	-10.5957
▁पाण्याचा	-10.5958
▁अशोक	-10.5959
▁वाटली	-10.596
▁जुने	-10.5964
▁लघु	-10.5967
▁२०१७	-10.5967
▁शिकले	-10.5968
▁मागच्या	-10.5973
काळी	-10.5975
▁बरा	-10.5976
▁ढकल	-10.5978
▁कंपनीने	-10.5979
▁आणण्यासाठी	-10.5983
▁शहरातील	-10.5986
▁साइन	-10.5988
▁बर्‍याच	-10.5991
▁सावध	-10.5992
▁ग्रुप	-10.5999
▁सहजपणे	-10.5999
▁तरूण	-10.6002
▁sh	-10.6004
प्राप्त	-10.6006
▁सिलिकॉन	-10.6007
ook	-10.6011
▁जाणतो	-10.6014
▁Ho	-10.6014
▁34	-10.6015
जित	-10.6016
▁वाळू	-10.6018
▁गेट	-10.602
▁इथल्या	-10.6021
▁आठवड्यां	-10.6023
▁किमती	-10.6023
▁j	-10.6023
व्यवस्था	-10.6024
▁दीड	-10.6027
▁चॅट	-10.6028
▁राहावे	-10.6033
▁150	-10.6038
▁बदलणार	-10.6038
▁समजावून	-10.6041
▁खालीलप्रमाणे	-10.6045
▁टॉमने	-10.6053
ूट	-10.6055
▁एकतर	-10.6056
▁आयटी	-10.6057
▁37	-10.6061
▁उद्दिष्ट	-10.6063
▁बरीच	-10.6064
हान	-10.607
▁सर्वांचे	-10.6078
▁विश्वसनीय	-10.6079
लेस्बियन	-10.6079
▁घ्यायचा	-10.608
▁Qu	-10.6081
air	-10.6082
▁साधे	-10.6087
ंकडून	-10.6093
▁कुर	-10.6095
▁कामासाठी	-10.6098
▁केंद्रीय	-10.6098
▁तिचं	-10.61
▁भोग	-10.6103
▁स्मृती	-10.6103
वल्या	-10.6103
▁लिहिता	-10.6104
▁ट्रेडिंग	-10.6107
▁डीव्हीडी	-10.6111
▁मार्केट	-10.6115
माझे	-10.6116
▁आंतर	-10.6117
▁नसून	-10.6121
गांड	-10.6123
▁ज्यांच्या	-10.6123
▁गाणं	-10.6125
▁यात्रा	-10.6125
्टे	-10.6126
▁मुलाखत	-10.6127
▁खेड	-10.6128
▁भारताचे	-10.6129
▁एड	-10.6131
▁छळ	-10.6132
केट	-10.6133
▁वादळ	-10.6135
▁सल्लागार	-10.6138
दीप	-10.6142
▁La	-10.6143
▁तरतूद	-10.6144
eng	-10.6149
▁चमक	-10.6151
▁चालला	-10.6151
यंत्र	-10.6152
▁देखरेख	-10.6152
▁उल्लंघन	-10.616
प्ल	-10.616
▁घडलं	-10.6167
वाले	-10.6168
▁ढग	-10.6169
▁धावत	-10.6172
▁तपासा	-10.6176
▁इशारा	-10.6176
The	-10.6177
▁रिपोर्ट	-10.6178
-10	-10.6179
...”	-10.6179
▁शिवसेना	-10.6185
▁बंगाल	-10.6185
RO	-10.6186
▁ठेवतात	-10.6186
▁टेनिस	-10.6193
▁२३	-10.6198
▁कितीतरी	-10.6201
▁भरती	-10.6202
▁परमेश्वराची	-10.6203
▁पॉलि	-10.6203
▁डोळा	-10.6204
▁अक्षय	-10.6205
▁मुलांचे	-10.6206
▁विशाल	-10.6209
▁म्हणावे	-10.6213
▁बैठकीत	-10.6216
म्म	-10.6217
▁घातली	-10.6218
▁li	-10.6222
▁घोड्या	-10.6222
▁देणाऱ्या	-10.6223
ाईन	-10.6224
▁राहण्या	-10.6225
▁कृत्रिम	-10.6225
ास्पद	-10.6233
▁कोल्हापूर	-10.6233
त्रा	-10.6241
▁स्तुती	-10.6242
▁सवाल	-10.6242
▁शेतकर्‍यां	-10.6242
वेअर	-10.6243
मुली	-10.6246
ल्हा	-10.6248
▁म्हणे	-10.625
▁लस	-10.6251
-6	-10.6252
▁ब्लॉक	-10.6253
▁द्यायचे	-10.6267
▁टीप	-10.627
▁अवघ्या	-10.6274
▁संसदे	-10.6274
▁अनंत	-10.6275
वतात	-10.6278
▁गोळ्या	-10.6282
▁पॅंटीहोस	-10.6283
▁अभिनेता	-10.6291
▁कागदपत्रे	-10.6292
▁खुले	-10.6292
▁जगण्या	-10.6296
▁नेत्यां	-10.6297
वाई	-10.6298
▁पीव्हीसी	-10.6299
hy	-10.63
▁ch	-10.63
▁व्यक्तिगत	-10.63
rd	-10.6304
▁इंटर	-10.6305
▁2000	-10.6306
▁रूपांतर	-10.6311
ऱया	-10.6317
▁विभागात	-10.6318
टाळ	-10.6323
▁जवान	-10.6324
▁फटका	-10.6324
▁पेन	-10.6325
▁मोल	-10.6328
▁फाशी	-10.6334
▁७०	-10.6336
लाईन	-10.6336
▁नावाच्या	-10.6337
▁सर्वांनाच	-10.6337
▁तशीच	-10.6337
▁ताबडतोब	-10.634
▁तेवढ्या	-10.634
▁पर्यायी	-10.634
िब	-10.6343
▁फल	-10.6353
▁त्यावरून	-10.6364
▁We	-10.6366
▁Ra	-10.637
ाहेत	-10.6371
झि	-10.6371
▁समृद्ध	-10.6376
▁फारसे	-10.6376
▁यापेक्षा	-10.6377
▁त्याच्याबरोबर	-10.6379
▁कळव	-10.638
▁आमचं	-10.6381
▁गोल्ड	-10.6381
▁क्रि	-10.6383
▁मार्	-10.639
▁पासवर्ड	-10.6391
▁वॉल	-10.6392
▁परवा	-10.6397
▁शिकायला	-10.6398
▁वेध	-10.6401
▁इजिप्त	-10.6407
प्ला	-10.6407
फिल	-10.6411
▁असायला	-10.6412
▁समजते	-10.6413
▁वेबसाइटवर	-10.6414
ID	-10.6423
▁Sp	-10.6423
म्य	-10.6429
ंबा	-10.643
▁अधिवेशन	-10.6432
▁खेळायला	-10.6432
▁घाबरत	-10.6435
ou	-10.644
ठ्ठ	-10.6441
▁गेल्यावर	-10.6441
▁सध्याच्या	-10.6442
▁मद्य	-10.6442
▁मिशन	-10.6444
विद्य	-10.6444
▁गाडीत	-10.6445
▁टप्प्या	-10.6448
▁सीएनसी	-10.6449
▁तितका	-10.6449
▁ओळखी	-10.6455
▁वाचू	-10.6456
▁पाठलाग	-10.6457
▁निर्दोष	-10.6457
▁बाळासाहेब	-10.6457
▁आजोबा	-10.646
▁पॅन	-10.6468
▁वस्त्र	-10.6471
▁हव्या	-10.6473
▁उच्चार	-10.6474
▁शर्यत	-10.6474
▁मदतीने	-10.6476
ock	-10.648
▁दोनदा	-10.6482
▁अग्र	-10.6487
▁तितके	-10.6488
▁इफेक्ट्स	-10.649
▁नैतिक	-10.649
▁आयुष्यभर	-10.6491
आम्हाला	-10.6495
ah	-10.6499
▁जॉर्ज	-10.65
▁झो	-10.6502
ec	-10.6502
▁कालावधीत	-10.6506
एनए	-10.651
▁वस्ती	-10.6514
शोध	-10.6514
▁ऑस्ट्रेलियन	-10.6516
AN	-10.6521
▁निघाला	-10.6521
▁जवळच्या	-10.6523
▁ठाम	-10.6525
▁युद्धात	-10.653
ठ्या	-10.6531
जन्य	-10.6532
▁आठवते	-10.6538
PS	-10.654
▁पडून	-10.6541
▁अपराध	-10.6542
▁टाळा	-10.6546
ेटर	-10.6546
▁विपणन	-10.655
▁धन्य	-10.6551
▁वर्षीय	-10.6553
▁tr	-10.6553
ाहून	-10.6559
▁पात्रता	-10.6565
▁गायक	-10.6565
▁धाडस	-10.6566
5"	-10.6568
▁जारी	-10.6574
परी	-10.6575
▁Di	-10.6575
▁है	-10.6577
▁सोडा	-10.6578
▁विकले	-10.6579
कर्म	-10.658
▁बनविण्या	-10.658
old	-10.6588
▁सांगण्या	-10.6591
▁करताय	-10.6596
पुरा	-10.6596
सेट	-10.6601
▁विधी	-10.6604
▁गणपती	-10.6609
▁द्वेष	-10.6612
▁वाढू	-10.6614
▁डॉक्‍टर	-10.6617
ran	-10.662
जीव	-10.662
SS	-10.6622
▁यादीत	-10.6625
▁न्यायालयात	-10.6626
▁राय	-10.6627
▁आवडत्या	-10.6629
▁न्या	-10.663
िकल	-10.6633
,–	-10.6635
▁आनंदाने	-10.6639
▁श्यामला	-10.6639
▁दाखवले	-10.664
▁इकडे	-10.6642
▁जागृत	-10.6645
▁नाट्य	-10.6646
▁निश्चितच	-10.6646
▁(14	-10.6649
▁दुस	-10.665
▁पेंट	-10.6652
▁प्रेमाची	-10.6653
▁मराठीत	-10.6653
▁कमाव	-10.6654
पीठ	-10.6654
▁गुंत	-10.6658
▁करावं	-10.666
▁बदली	-10.6666
▁नायक	-10.6668
▁भिंत	-10.667
▁शाई	-10.6671
▁नागरी	-10.6673
▁स्टॉक	-10.6673
▁न्यायालयाने	-10.6676
▁निवृत्ती	-10.6685
▁मनोरंजक	-10.6686
▁आकडेवारी	-10.6686
कडं	-10.6688
▁राव	-10.6688
▁प्यायला	-10.6694
गती	-10.6697
पंच	-10.6698
वण्यासाठी	-10.6702
▁कर्नाटक	-10.6711
▁गुरुवारी	-10.6712
▁करण	-10.6713
▁लोकांशी	-10.6714
▁बिंदू	-10.6717
▁मारहाण	-10.672
-8	-10.6723
▁नसतील	-10.6724
▁मिनी	-10.6727
▁चळवळी	-10.6732
▁पोर्ट	-10.6733
▁देणारे	-10.6736
्रा	-10.6737
▁दुबई	-10.6737
▁पौल	-10.6738
वण्यात	-10.6739
▁मनी	-10.6742
वो	-10.6754
▁राहणे	-10.6754
▁संरक्षित	-10.6754
ाईल	-10.6758
mon	-10.6759
▁टा	-10.6762
▁सर्वांसाठी	-10.6763
▁दौ	-10.6765
▁वाटला	-10.6769
ft	-10.6771
ze	-10.6772
▁बर्	-10.6772
▁इस्राएलच्या	-10.6775
▁पुनरावलोकने	-10.6777
डब्ल्यू	-10.678
▁ठेवत	-10.6783
▁असल्याचं	-10.6789
▁01	-10.6793
▁Pa	-10.6796
▁चाचण्या	-10.6798
▁जेम्स	-10.6798
AT	-10.6801
king	-10.6803
▁अब्ज	-10.6805
▁वारसा	-10.6808
▁फ़	-10.6812
▁विक्रीसाठी	-10.6816
▁सभासद	-10.6821
▁पुढचा	-10.6832
dia	-10.6836
▁उगव	-10.6839
पथ	-10.6839
च्छा	-10.684
▁Pre	-10.6843
वेग	-10.6845
ric	-10.6845
▁जाल	-10.685
▁तुरुंगात	-10.685
US	-10.6852
▁धारण	-10.6853
▁वर्षांचे	-10.6853
▁बेल	-10.6853
▁For	-10.6855
ासोबत	-10.6856
श्व	-10.6857
गट	-10.6857
▁संभाषण	-10.6858
als	-10.6859
▁म्हणाल	-10.686
▁चाळीस	-10.686
▁आसन	-10.6861
▁आईने	-10.6862
▁थीम	-10.6862
PC	-10.6868
▁आकाशात	-10.6868
▁जागेवर	-10.6871
▁अँड	-10.6874
▁चट	-10.6874
▁भाड्याने	-10.6876
▁लॉटरी	-10.6876
▁विचारतो	-10.6881
ue	-10.6881
▁जबरदस्त	-10.6885
▁ऑडिओ	-10.6885
६५	-10.6887
▁जाळी	-10.6888
व्हे	-10.6892
▁we	-10.6895
▁लक्षणीय	-10.6896
▁ओळखतो	-10.6897
▁ठरविले	-10.6897
▁ऑर्	-10.6898
▁वाचला	-10.6899
lan	-10.6899
▁स्ट्र	-10.69
▁भरा	-10.69
org	-10.6904
▁वेदी	-10.6908
▁सचिन	-10.6911
देवी	-10.6915
ner	-10.6915
▁अज्ञान	-10.6915
▁प्राण्या	-10.6916
▁उठव	-10.6916
cial	-10.6918
स्टी	-10.6918
si	-10.6921
ज़	-10.6925
▁आढळून	-10.693
लिस	-10.6931
lect	-10.6933
▁टाकी	-10.6935
▁संस्कार	-10.6937
▁दोघी	-10.6937
▁संलग्न	-10.6937
ort	-10.6939
▁महिन्याच्या	-10.6944
▁किरण	-10.6945
▁झाक	-10.6946
▁तेंव्हा	-10.6946
▁सुधारण्यासाठी	-10.696
ंसह	-10.6963
▁ठरू	-10.6963
▁तेवढे	-10.6965
red	-10.6967
▁He	-10.697
थि	-10.697
und	-10.6973
ial	-10.6976
che	-10.6977
▁प्रिंट	-10.6981
▁जुगाराचा	-10.6982
▁55	-10.6988
▁साडे	-10.6989
▁ट्विटर	-10.6989
▁Mar	-10.6989
▁व्यवस्थापित	-10.699
ok	-10.6997
मराठी	-10.6997
केंद्र	-10.6998
▁निषेध	-10.6999
▁नसलेल्या	-10.7
▁अंदाजे	-10.7007
▁उशिरा	-10.7008
▁ध्वनी	-10.7008
▁आश्रम	-10.7008
ाइम	-10.7012
▁व्हे	-10.7015
▁शकाल	-10.7017
▁बाबासाहेब	-10.7018
▁वापरतो	-10.702
line	-10.7027
▁उपग्रह	-10.7027
इंड	-10.7028
▁वाय	-10.7029
▁दत्त	-10.703
“	-10.7038
नियम	-10.7043
▁मल	-10.7043
▁भूमिके	-10.7043
ंगळ	-10.7046
तुमच्या	-10.7048
ताहेत	-10.7049
▁तितक्या	-10.7052
ाधिकारी	-10.7053
▁ऑन	-10.7054
▁गर्भ	-10.7056
▁बनावट	-10.7062
▁शांतपणे	-10.7067
▁भाडे	-10.7069
▁मुलाखती	-10.707
▁देणारा	-10.7071
ांप्रमाणे	-10.7072
▁तुझ्याकडे	-10.7072
▁साव	-10.7073
▁लेवी	-10.7073
wi	-10.7074
▁जगाच्या	-10.7075
ाबाद	-10.7075
▁एजंट	-10.7079
▁चार्ज	-10.7081
४०	-10.7087
▁योसेफ	-10.7088
▁महोत्सव	-10.7088
▁घेतलं	-10.7091
▁वारा	-10.7094
ल्यामुळे	-10.7096
ath	-10.7105
▁महासागर	-10.7106
▁संपादन	-10.7106
▁रुग्णालय	-10.7107
▁मनापासून	-10.7107
▁व्यसन	-10.7108
▁नावाची	-10.711
▁कळते	-10.7112
▁शेजारी	-10.7113
▁सचिव	-10.7114
ther	-10.7115
▁जणांना	-10.7116
प्रमाणेच	-10.712
अधिक	-10.7121
▁ग्रा	-10.7122
▁Pe	-10.7124
▁रज	-10.7126
वर्ड	-10.7128
SA	-10.7129
▁नरक	-10.7131
▁निघालो	-10.7132
हशा	-10.7134
▁निवृत्त	-10.7137
▁मनाला	-10.7144
▁डेटिंगचा	-10.7144
br	-10.7145
▁गुन्हे	-10.7149
▁वृत्ती	-10.7153
ेबल	-10.7154
▁चक्क	-10.7155
▁कक्ष	-10.7156
▁मुर	-10.7159
▁मागितली	-10.7159
▁रहात	-10.7161
▁नकाशा	-10.7162
▁ओल्ड	-10.717
ेक्ट	-10.717
6"	-10.7174
▁Ba	-10.7175
▁प्रीमियम	-10.7177
▁चाहते	-10.7177
▁सावधान	-10.718
▁अमेरिकेला	-10.7183
▁सामोरे	-10.7186
▁रूम	-10.7186
▁भांडण	-10.719
▁तेवढी	-10.7195
▁वाटतात	-10.7199
▁अंतराळ	-10.72
▁मंच	-10.7205
▁जंगलात	-10.7206
▁पंख	-10.7211
▁२०१४	-10.7214
▁गोष्टींची	-10.7214
▁विद्यार्थ्यांनी	-10.7219
▁अमेरिकी	-10.7222
▁तिसरी	-10.7222
tter	-10.7223
ॅड	-10.7223
▁चेहरे	-10.7224
▁नोटा	-10.7224
▁प्रिंटर	-10.7225
ऋ	-10.7225
▁चळवळ	-10.7227
▁प्लॅन	-10.7235
▁पाकिस्तानी	-10.7236
▁अडथळा	-10.724
▁उन्हा	-10.7241
▁शीर्षक	-10.7248
▁फिलिप	-10.7252
साय	-10.7255
▁ऐवजी	-10.7257
▁थांबा	-10.7258
▁इच्छुक	-10.7258
मिळ	-10.7258
▁नफा	-10.726
▁सगळ्यांनी	-10.7262
▁कृतज्ञता	-10.7262
▁माता	-10.7264
बाहेर	-10.7264
▁डॅ	-10.7264
ोरा	-10.7268
▁मतभेद	-10.7269
▁व्यास	-10.7269
▁लष्करी	-10.7272
११	-10.7273
▁सर्वसाधारण	-10.7273
▁Un	-10.7275
वॉ	-10.7275
▁राशी	-10.7276
विणार	-10.7283
▁इच्छितो	-10.7285
▁उत्सुकता	-10.7285
▁मिळवले	-10.7292
▁याविषयी	-10.7293
ations	-10.7296
-19	-10.73
▁किनार	-10.7301
▁विषाणू	-10.7304
▁ठोक	-10.7305
ger	-10.7305
▁अमेरिकेचे	-10.731
▁मार्गावर	-10.7311
शौकिया	-10.7313
▁राज्यपाल	-10.7313
har	-10.7319
िना	-10.732
उतार	-10.732
AR	-10.7321
▁कपड्यां	-10.7324
▁घोडे	-10.7326
dr	-10.7327
▁योहान	-10.7329
क्‍या	-10.7329
‍	-10.7333
▁कुल	-10.7333
▁ठेवता	-10.7337
▁कुकीज	-10.734
tri	-10.7341
▁फिरत	-10.7346
ष्टी	-10.7346
▁डोके	-10.7348
न्ना	-10.7351
▁शहराच्या	-10.7352
ms	-10.7352
▁भोजन	-10.7352
▁भक्ती	-10.7353
▁समुद्रात	-10.7363
▁डु	-10.7366
▁पत	-10.7367
म्हा	-10.7367
▁भारताची	-10.7368
▁विश्वचषक	-10.7368
▁टॅग्ज	-10.7369
ांविषयी	-10.7376
▁गडद	-10.7377
▁इच्छिता	-10.738
▁रेट	-10.7382
▁उद्यान	-10.7385
धू	-10.7385
▁अद्ययावत	-10.7386
▁गाळ	-10.7386
lin	-10.739
ांसोबत	-10.7395
लिस्ट	-10.7396
▁व्यतिरिक्त	-10.7399
▁गणना	-10.74
▁त्‍या	-10.7402
▁क्रियाकलाप	-10.7405
▁नाश्ता	-10.7405
ऐवजी	-10.7406
▁पध्दती	-10.7406
▁महामार्ग	-10.7407
▁पडेल	-10.7411
रत्न	-10.7413
▁कुलकर्णी	-10.7414
▁सुनावणी	-10.7414
▁संबोध	-10.7416
▁गार	-10.7416
▁400	-10.7421
▁नसल्यास	-10.7422
▁सक्ती	-10.7423
▁मोकळे	-10.7423
खंड	-10.7423
▁फंड	-10.7424
▁आंधळ	-10.7424
▁रसायन	-10.7424
▁00	-10.7425
▁सोडणार	-10.7426
▁परिवहन	-10.7432
सुंदर	-10.7433
▁वगळ	-10.7433
ear	-10.7434
रोह	-10.7436
क्षम	-10.7445
▁स्ल	-10.7446
www	-10.7448
▁ग्रे	-10.745
▁विकार	-10.745
▁नेमका	-10.7451
▁पिशवी	-10.7451
▁at	-10.7452
▁दिव्य	-10.7453
▁सभे	-10.7454
ार्थी	-10.7458
▁पुनरावृत्ती	-10.746
▁निष्	-10.7463
प्रकारे	-10.7465
▁४५	-10.7466
▁काळे	-10.7468
▁नसताना	-10.7471
▁फुले	-10.7473
▁याव्यतिरिक्त	-10.7475
▁am	-10.7475
▁उदय	-10.7477
▁नात्या	-10.7485
▁आमंत्रण	-10.7488
▁राहात	-10.7491
▁साऱ्या	-10.7491
▁२७	-10.7492
tor	-10.7493
▁डॉक्टरांनी	-10.7505
▁कोल	-10.7507
▁साधू	-10.7509
▁99	-10.751
ips	-10.7516
▁क्लायंट	-10.7516
▁संसर्ग	-10.7516
▁जोखीम	-10.7516
१२	-10.7518
▁खर	-10.7521
ानंद	-10.7524
0.0	-10.7524
▁कारकीर्द	-10.7525
▁पारंपरिक	-10.7525
▁स्मार्टफोन	-10.7525
▁यज्ञ	-10.7526
▁Day	-10.7526
▁काका	-10.7529
▁देशांत	-10.7534
▁पिढ्या	-10.7536
ics	-10.7536
▁तक्रारी	-10.7538
▁अध	-10.754
एक्सएक्सएक्स	-10.7541
▁नियमशास्त्र	-10.7543
▁गॉ	-10.7543
▁रिक्त	-10.7543
▁Mi	-10.7546
▁गेलेले	-10.7549
▁मायक्रोसॉफ्ट	-10.7553
▁उजव्या	-10.7553
▁नॉ	-10.7555
दिवशी	-10.7556
क्ल	-10.7563
▁श्रेय	-10.7564
yl	-10.757
▁वाढवा	-10.7571
▁पायऱ्या	-10.7571
▁नमूद	-10.7572
गोल	-10.7572
su	-10.7574
▁निकष	-10.7575
▁कमतरता	-10.7581
▁प्रशासकीय	-10.7583
▁वर्षानंतर	-10.7584
▁पुस	-10.7584
▁Free	-10.7585
फ्ल	-10.7588
▁विलक्षण	-10.759
▁खड	-10.759
▁विद्यमान	-10.759
▁टक्क्या	-10.7591
▁चिकट	-10.7593
▁राहणाऱ्या	-10.7595
▁वडिलांना	-10.7597
▁बाय	-10.7598
▁फायदेशीर	-10.76
▁अनेकांनी	-10.76
रोग	-10.7603
न्हा	-10.7607
▁हिम्मत	-10.7609
(4	-10.7612
▁घेताना	-10.7613
▁Do	-10.7614
▁वॉटर	-10.7614
▁बैल	-10.7615
▁खोल्या	-10.7615
▁पेत्र	-10.7618
▁घातला	-10.762
▁दशकात	-10.762
▁शाप	-10.7625
▁प्रतिनिधित्व	-10.7628
▁नमुने	-10.7628
र्पण	-10.7628
▁रान	-10.7632
▁तर्क	-10.7634
▁फोनवर	-10.7636
▁this	-10.7637
▁जाधव	-10.7638
थो	-10.7639
▁चालवत	-10.7641
▁बना	-10.7643
ांद्वारे	-10.7644
▁लोकांमध्ये	-10.7646
NA	-10.7646
▁हिंसा	-10.7647
▁कारणीभूत	-10.7647
▁जिंकले	-10.7648
CC	-10.7648
▁शोक	-10.765
▁संपला	-10.7654
▁दैनंदिन	-10.7656
▁शून्य	-10.7657
▁पॉल	-10.7657
▁75	-10.7659
MA	-10.766
▁आठवले	-10.7664
ण्यापेक्षा	-10.7667
8"	-10.767
▁मानला	-10.7675
▁पारदर्शक	-10.7676
षण	-10.7678
▁पलीकडे	-10.7679
▁सेना	-10.768
योजक	-10.7681
▁ड्रायव्हर	-10.7685
▁राक्षस	-10.7685
▁छाती	-10.7687
▁फ्रेम	-10.7695
टोन	-10.7696
▁सवयी	-10.7697
▁देताना	-10.7698
▁मजेदार	-10.7704
▁दुचाकी	-10.7704
pi	-10.7705
▁वेगवान	-10.7706
▁गेलं	-10.7706
ome	-10.7707
▁भागीदारी	-10.7707
▁सर्वप्रथम	-10.7709
▁पाठवू	-10.7709
▁संख्ये	-10.771
▁गवत	-10.7711
▁वास्तू	-10.7713
जिन	-10.7719
▁पोर्	-10.772
ॉय	-10.772
▁घेऊया	-10.7721
स्थळ	-10.7722
▁घेईल	-10.7723
▁आपत्ती	-10.7723
▁असण्याची	-10.7725
▁थोड	-10.7729
▁क्रम	-10.773
▁शाह	-10.773
▁जिंकली	-10.7732
▁आगामी	-10.7732
ॅक्स	-10.7735
खोर	-10.7737
▁dis	-10.7741
▁सारखा	-10.7743
▁शक्ति	-10.7745
pos	-10.7749
▁बनली	-10.775
ny	-10.7755
▁उपकार	-10.776
sta	-10.776
▁महापालिके	-10.7761
$	-10.7766
▁इंग्लिश	-10.7766
ary	-10.7775
▁पुरेशी	-10.7775
मार्क	-10.7777
▁सेंटर	-10.7783
मित्र	-10.7787
▁टप्प्यात	-10.779
SP	-10.7791
▁सोडली	-10.7791
पणाने	-10.7792
▁तिच्याशी	-10.7793
▁त्याहून	-10.7794
पट्ट	-10.7796
▁उडी	-10.7797
▁कुटुंबातील	-10.7797
▁ठळक	-10.7799
▁२०११	-10.78
▁बॅक	-10.7802
र्प	-10.7803
own	-10.7804
म्हणून	-10.7804
▁हं	-10.7813
इस	-10.7814
ina	-10.7814
▁रवी	-10.7815
▁लक्षण	-10.7816
▁फसव	-10.7823
▁वंशज	-10.7826
▁व्यासपीठ	-10.7828
▁चेहऱ्यावर	-10.7829
▁टेस्ट	-10.783
oc	-10.7833
दिवस	-10.7835
बॉ	-10.7835
▁ऐकली	-10.7838
शिष्ट	-10.7838
▁राहण्याची	-10.784
ीकृत	-10.7842
▁येतोय	-10.7842
7"	-10.7842
▁लाइट	-10.7848
ene	-10.7848
▁भेटू	-10.7848
वितो	-10.7849
▁धोक्या	-10.7856
▁संजय	-10.7857
▁आणा	-10.786
▁सांगली	-10.786
▁प्रथमच	-10.786
▁पोल	-10.7865
घट	-10.7865
▁दैनिक	-10.7866
▁ट्रम्प	-10.7867
ator	-10.7868
▁हत्ती	-10.7869
िद	-10.787
▁बनवू	-10.7871
▁डॉक्टरांना	-10.7873
▁फिट	-10.7875
▁टाकून	-10.7875
▁विदर्भ	-10.7876
▁येशूला	-10.7876
tal	-10.7877
▁निश्चितपणे	-10.7879
▁एचडी	-10.7881
▁घडणार	-10.7892
▁शुक्रवार	-10.7893
▁विधानसभे	-10.7895
▁निव्वळ	-10.7895
▁कुळ	-10.79
▁एनल	-10.79
▁शतकात	-10.7907
ादरम्यान	-10.7908
▁दखल	-10.7915
ore	-10.7915
▁उपाययोजना	-10.7916
▁माणसाच्या	-10.792
दायी	-10.7921
४७	-10.793
शियन	-10.7933
▁बुद्धिमान	-10.7934
▁क्रिस्टल	-10.7934
बदल	-10.7935
fer	-10.7936
ण्याचं	-10.7936
▁मंगळ	-10.7937
▁संध्याकाळ	-10.7941
क्रो	-10.7943
राष्ट्र	-10.7946
▁व्यवसायात	-10.7946
▁आईवडिलां	-10.7947
▁फॅ	-10.7949
▁भग	-10.7951
▁यावर्षी	-10.7951
▁बल	-10.7958
स्तव	-10.7964
(12	-10.7965
▁हवंय	-10.7969
ापूर्वी	-10.7969
ाकार	-10.7971
▁चव्हाण	-10.7973
▁आतील	-10.7976
▁एमेच्योर	-10.7976
डीए	-10.7977
▁नाते	-10.7982
▁दिवसातून	-10.7984
▁भले	-10.7987
▁पडते	-10.7987
▁म्हणुन	-10.799
▁व्हायचं	-10.799
▁किरकोळ	-10.7992
▁सिंचन	-10.7992
▁संरचना	-10.7994
AL	-10.7994
▁खात्यात	-10.7997
▁आयुष्यातील	-10.8001
▁स्टिरॉइड	-10.8003
▁FS	-10.8004
ari	-10.8007
▁बसलो	-10.8012
ट्	-10.8012
pro	-10.8013
▁कळा	-10.8013
▁ध्वज	-10.8022
ros	-10.8024
▁नवीनतम	-10.8024
▁अजित	-10.8025
▁अवस्थेत	-10.8026
कोश	-10.8029
▁आक्रमक	-10.8031
▁मुद्रण	-10.8031
▁जनरल	-10.8032
▁अद्यतन	-10.8036
▁सुवर्ण	-10.8041
पार्ट	-10.8043
▁घेतलेल्या	-10.8053
AC	-10.8053
फु	-10.8055
▁years	-10.8055
▁असणारे	-10.8055
▁विना	-10.8057
▁बूट	-10.8058
▁घातक	-10.8062
िष्ट	-10.8062
▁सावरकर	-10.8065
▁टिप	-10.8066
▁प्रशंसा	-10.8071
IC	-10.8073
▁येणारा	-10.8073
▁तांब	-10.8074
ose	-10.8079
▁कारणास्तव	-10.808
ंदे	-10.8081
▁जीवनशैली	-10.8082
▁Sa	-10.8082
▁अंगावर	-10.8085
्द	-10.8085
▁कंपनीचे	-10.8085
▁उचलाल	-10.8086
लिटी	-10.8086
▁पिन	-10.8088
▁मोटार	-10.8091
▁अखेरीस	-10.8091
▁अहो	-10.8092
▁वाढत्या	-10.8096
▁नसता	-10.8097
Porn	-10.8099
▁आजपासून	-10.8101
work	-10.8101
▁शिल्प	-10.8101
▁वित्तीय	-10.8102
िष	-10.8103
▁रोप	-10.8105
▁जखम	-10.811
▁प्रि	-10.8111
▁सारी	-10.8119
▁that	-10.812
ect	-10.8122
ण्यासारखे	-10.8124
▁वापरुन	-10.8127
▁गुंतवणूकदार	-10.8128
▁रीतीने	-10.813
▁हार्मोन	-10.813
ile	-10.813
िझ	-10.8131
▁दिवसांपासून	-10.8133
▁हळू	-10.8134
▁हाऊस	-10.8139
▁पाहु	-10.8141
▁शहरी	-10.8141
▁बोध	-10.8141
▁समाजातील	-10.8143
ml	-10.8145
ure	-10.8145
▁मेट्रो	-10.8152
्यो	-10.8153
▁लढव	-10.8153
▁झालंय	-10.8156
▁प्रविष्ट	-10.816
▁ख्रिसमस	-10.816
▁ठाणे	-10.816
▁कुणीही	-10.816
▁कागदपत्र	-10.816
ोरी	-10.8162
▁तालुक्या	-10.8163
▁can	-10.8166
▁मोठं	-10.8169
▁बहुमत	-10.817
▁परी	-10.817
▁रंगीत	-10.8173
ांकन	-10.8175
दुर्ग	-10.8178
▁अयोग्य	-10.8179
▁असुरक्षित	-10.8179
स्टि	-10.8179
▁तिच्याकडे	-10.818
दृष्टी	-10.8181
▁ग्रीन	-10.8181
▁टाकली	-10.8188
▁अलि	-10.8189
▁व्यक्तिमत्त्व	-10.8189
▁ठिकाणे	-10.8193
▁वस्तु	-10.8197
▁सोयी	-10.8197
▁ब्रह्म	-10.8199
▁प्रसन्न	-10.8199
▁शास्त्रीय	-10.82
▁रॉक	-10.8204
क्षक	-10.8205
▁अह	-10.8208
▁व्यक्तिमत्व	-10.8209
ावेत	-10.821
▁मनुष्याला	-10.821
▁सलमान	-10.8212
बाळ	-10.8214
वाज	-10.8217
▁पूर	-10.8223
▁भागातील	-10.8226
▁चालली	-10.8227
▁रात्रीच्या	-10.8228
▁समर्पित	-10.8229
शिक्षण	-10.823
▁पॅड	-10.8234
▁गुलाब	-10.8239
▁अरेबियन	-10.8239
▁लोट्टो	-10.8239
▁निमित्ताने	-10.8239
विश्व	-10.8241
▁तरुणी	-10.8241
▁देय	-10.8244
▁निवडी	-10.8246
▁सै	-10.8247
▁वाढणार	-10.8248
▁रक्तदाब	-10.8249
▁देतील	-10.8252
▁कोप	-10.8254
▁(16	-10.8257
▁कोन	-10.8261
▁राहण्यासाठी	-10.8262
▁उपदेश	-10.8264
▁विकली	-10.8267
▁भाजपला	-10.8268
▁हसू	-10.8269
प्ले	-10.8272
▁ओळखला	-10.8273
rr	-10.8273
▁फॉर	-10.8278
▁हालचाली	-10.8278
▁अवलंब	-10.8279
▁एसी	-10.8279
▁बोलली	-10.828
▁अपयशी	-10.8282
ंमधील	-10.8286
▁त्यातूनच	-10.8286
▁सरदार	-10.8287
▁कृष्णा	-10.8287
▁मुलांचा	-10.8288
▁शब्दांत	-10.8288
भाऊ	-10.829
पात्र	-10.8291
▁नेत्या	-10.8292
संस्था	-10.8294
▁post	-10.8295
▁लिहितो	-10.8299
मंत	-10.8299
▁जोपर्यंत	-10.83
▁41	-10.8302
युग	-10.8307
▁अग्नी	-10.831
▁येणारे	-10.831
▁वाढवू	-10.8311
▁टप्पा	-10.8312
II	-10.8312
▁लोह	-10.8316
dy	-10.8318
▁फॅब्रिक	-10.832
▁पंधरा	-10.832
लिखित	-10.832
▁मिळवण्यासाठी	-10.8321
▁आईच्या	-10.8322
▁Hu	-10.8328
▁दी	-10.8329
▁शिकवले	-10.8332
▁लोन	-10.8332
q	-10.8333
rn	-10.8334
भो	-10.8334
▁औ	-10.8335
ट्रो	-10.8335
mer	-10.8339
▁अवैध	-10.834
▁घटस्फोट	-10.834
स्क्र	-10.8341
१८	-10.8344
▁थंडी	-10.8345
▁डेव्हिड	-10.8347
▁ऐकता	-10.8351
▁सगळ	-10.8352
्थ	-10.8353
८५	-10.8355
▁संक्रमण	-10.836
▁Po	-10.8364
▁संपली	-10.8364
ja	-10.8364
माझी	-10.8365
पुत्र	-10.8365
कुमार	-10.8365
ब्ब	-10.8368
▁वाढेल	-10.837
▁फूल	-10.8375
▁संकलन	-10.838
▁फर्	-10.838
▁भान	-10.838
▁प्रमाणित	-10.8381
संग्रह	-10.8382
कुट	-10.8384
फळ	-10.8385
▁बसू	-10.8385
▁षटक	-10.8387
▁बॅंगिंग	-10.839
शो	-10.8391
▁स्फोट	-10.8391
cy	-10.8396
▁३५	-10.84
▁गुणवत्ते	-10.8401
▁सातत्याने	-10.8401
▁मदतीसाठी	-10.8402
प्रसाद	-10.8403
▁डोक्यावर	-10.841
▁सोडण्या	-10.841
जग	-10.8416
▁विवाहित	-10.8417
९	-10.8418
ग्या	-10.8419
▁(1)	-10.8422
▁वातावरणात	-10.8425
▁पाहणे	-10.8428
▁अब्राहाम	-10.8431
▁मौल्यवान	-10.8431
▁भरपाई	-10.8431
▁रोलर	-10.8432
▁मिळणे	-10.8434
स्वामी	-10.8436
देशी	-10.8437
माझा	-10.8439
▁गुगल	-10.8443
▁बसणार	-10.8448
▁एखादे	-10.845
▁स्वीकारले	-10.845
▁वाटणार	-10.8451
क्रा	-10.8453
▁विद्यार्थ्या	-10.8454
▁लागलं	-10.8455
▁वापरल्या	-10.8455
▁कार्यकर्त्यां	-10.8456
▁Windows	-10.8462
▁नसे	-10.8467
▁शिस्त	-10.847
▁पुढाकार	-10.8472
▁पकडून	-10.8472
ates	-10.8478
स्थापन	-10.8479
▁ग्रॅम	-10.8479
▁लोकांवर	-10.8481
▁वेगवेगळी	-10.8482
ps	-10.8482
▁वॉश	-10.8483
▁झाकून	-10.8485
▁कार्यशाळा	-10.8486
▁पुर्ण	-10.8486
▁मिळविण्या	-10.8487
▁स्तन	-10.8488
▁गंभीरपणे	-10.8491
▁घाऊक	-10.8493
▁चुंबक	-10.8493
विल्या	-10.8493
▁मिळालेली	-10.8494
▁काव्य	-10.8494
▁कारकिर्दी	-10.8503
▁प्रजासत्ताक	-10.8503
▁डाग	-10.8503
▁Da	-10.8508
hen	-10.8508
▁लुट	-10.8509
▁एन्	-10.851
▁कन्	-10.851
▁केक	-10.8511
स्टिक	-10.8512
▁कळू	-10.8512
ets	-10.8513
▁पाण्याच्या	-10.8517
▁हट	-10.8518
विना	-10.8518
▁संस्कृत	-10.8519
▁टाय	-10.8521
▁चार्ट	-10.8521
▁वेळोवेळी	-10.8523
्ति	-10.8525
▁सद्	-10.8525
▁यावरून	-10.8528
par	-10.853
▁Ju	-10.8531
ाबाई	-10.8534
▁ट्रॅ	-10.8534
▁मिळालेल्या	-10.8535
▁सांगणे	-10.854
एक्सएनयूएमएक्स	-10.854
▁काढण्यात	-10.854
▁वाटप	-10.854
▁वाढवण्या	-10.8549
धु	-10.8549
विकास	-10.855
▁no	-10.8554
▁उभयलिंग	-10.8554
▁मृतदेह	-10.8554
▁दोघांना	-10.8555
▁जगू	-10.8559
▁आंघोळ	-10.8565
▁ट्रान्स	-10.8565
▁पडल्या	-10.8566
▁120	-10.8566
▁चिम	-10.8569
▁पालकांना	-10.857
बोध	-10.8571
▁तिथल्या	-10.8576
िन्स	-10.8576
▁बिन	-10.8577
▁काढण्यासाठी	-10.8579
प्रभा	-10.8582
▁वर्षाची	-10.8585
ट्र	-10.8586
▁नावावर	-10.8586
विरोधी	-10.859
▁चंद्रावर	-10.8592
▁धाक	-10.8592
८९	-10.8593
land	-10.8593
(7	-10.8595
▁कबूल	-10.8596
▁डोळ्या	-10.8596
रेषा	-10.86
▁अद्यतनित	-10.8602
▁लिही	-10.8602
क्‍स	-10.8603
▁जोडीदार	-10.8608
▁सापडली	-10.8612
भु	-10.8612
▁नसल्याचे	-10.8616
▁समलिंगी	-10.8616
▁इच्छे	-10.8616
▁युरो	-10.8618
मंडळ	-10.8618
▁वगळता	-10.8619
fl	-10.862
▁करणार्या	-10.8622
▁घरातून	-10.8622
कळ	-10.8624
▁बनविले	-10.8626
▁IFPUG	-10.8627
UN	-10.8627
१५	-10.8629
▁ट्रिप	-10.8629
▁पुरावे	-10.8629
प्रो	-10.8633
ail	-10.8635
▁दाखवतो	-10.8637
▁शाश्वत	-10.8637
▁मधून	-10.8638
ake	-10.8639
▁जपानीस	-10.8641
▁दुप्पट	-10.8648
▁आकडा	-10.8648
म्या	-10.8649
▁लिलाव	-10.8649
▁ज्ञात	-10.8649
▁रात्रभर	-10.8651
▁बोलून	-10.8654
CA	-10.8656
▁गेलेल्या	-10.8656
▁कॉपीराइट	-10.8658
ल्प	-10.866
▁पिऊ	-10.8661
▁मदतीची	-10.8662
ning	-10.8663
मोन	-10.8674
▁दुर्दैवाने	-10.8674
▁वाढविण्या	-10.8678
▁pre	-10.8679
▁कोहली	-10.8679
▁मधुमेह	-10.8679
▁राबव	-10.8681
▁www	-10.8682
cks	-10.8683
▁फ्लो	-10.869
▁पायलट	-10.869
▁बनवण्यासाठी	-10.8692
-12	-10.8692
▁प्रतीक	-10.8696
▁पोटात	-10.8699
▁कॉंग्रेस	-10.87
▁अवश्य	-10.87
▁फ्लॅश	-10.87
▁स्टे	-10.8704
▁जिम	-10.8708
▁अंधारात	-10.8708
▁घाला	-10.8709
▁39	-10.871
▁Dr	-10.872
▁२०१६	-10.8722
▁२०१०	-10.8722
योग्य	-10.8726
▁निवडू	-10.8726
▁गर्भात	-10.8732
▁जगभर	-10.8735
▁मैत्रिणी	-10.8735
▁परमेश्वराचे	-10.8738
प्रिय	-10.874
▁टाकला	-10.8741
रात्र	-10.8741
▁रुपांतर	-10.8742
▁गुलाबी	-10.8743
▁Bu	-10.8747
ोत्	-10.8749
▁जाडी	-10.8752
▁आभासी	-10.8752
▁विसरला	-10.8754
▁चालना	-10.8764
▁राहायला	-10.8764
▁महामंडळ	-10.8764
▁2007	-10.8765
▁डोळ्यात	-10.877
way	-10.8772
संपादन	-10.8772
▁विंडो	-10.8777
▁ज्याची	-10.8782
▁युनियन	-10.8784
io	-10.8784
▁बुधवारी	-10.8785
▁मुलाच्या	-10.8786
▁राहिल्या	-10.8786
ोळी	-10.8787
▁यादव	-10.8788
▁ठराविक	-10.879
▁कृत्य	-10.8793
ding	-10.8795
असे	-10.8796
▁जोडी	-10.8798
ire	-10.8799
▁भावनिक	-10.8801
▁po	-10.8803
शाळा	-10.8803
▁कंट्रोल	-10.8805
▁मंडप	-10.8806
▁वाहत	-10.8807
▁बाईक	-10.8807
▁स्टॅ	-10.8807
▁टॅक्सी	-10.8808
▁स्वप्ने	-10.881
▁दिग्दर्शक	-10.8816
▁समागम	-10.8816
▁उद्धव	-10.8816
▁अवकाश	-10.8816
▁सांगितला	-10.8816
दादा	-10.8818
ren	-10.8822
▁दुवे	-10.8823
ating	-10.8823
▁44	-10.8824
िष्ठ	-10.8824
▁विधेयक	-10.8826
▁per	-10.8827
ness	-10.8828
▁इंग्रजीत	-10.8831
▁शॉट	-10.8831
▁पृथ्वीवरील	-10.8831
▁कारणांमुळे	-10.8832
▁वापरकर्त्यां	-10.8836
दर्शक	-10.8836
▁रेडहेड	-10.8837
▁दलित	-10.884
▁मांडले	-10.8841
▁कॅम्प	-10.8841
▁वळून	-10.8844
ME	-10.8846
▁जिंकणार	-10.8849
ग्रा	-10.8851
▁as	-10.8854
▁चित्रकार	-10.8857
▁क्लासिक	-10.8857
▁सोयीस्कर	-10.8859
▁रेखा	-10.886
मोड	-10.8861
▁घडला	-10.8864
▁कुटुंबियां	-10.8865
▁अतिरेक	-10.8866
▁बेस्ट	-10.8867
▁दाखवली	-10.887
▁निर्धारित	-10.8873
▁बांगलादेशी	-10.8874
कधी	-10.8876
ट्रा	-10.8877
▁करतेय	-10.8877
मान्य	-10.8879
▁डाव्या	-10.888
▁अहरोन	-10.888
▁मंद	-10.888
▁भटक	-10.888
▁काळ्या	-10.8881
▁App	-10.8886
▁As	-10.8886
▁सहयोग	-10.8887
▁लाद	-10.8887
12)	-10.889
▁विचारतात	-10.8891
▁अरब	-10.8895
पाणी	-10.8897
बेट	-10.8899
▁तत्त्वज्ञान	-10.8902
▁मूल्यांकन	-10.8902
▁सरकारची	-10.8905
▁महत्वाच्या	-10.8906
▁यात्रे	-10.8911
▁तिरस्कार	-10.8912
▁मॅन्युअल	-10.8912
▁घेईन	-10.8912
▁बहुसंख्य	-10.8912
ib	-10.8916
गडी	-10.8917
ele	-10.8919
▁फेस	-10.8919
▁प्ल	-10.8921
▁शलमोन	-10.8922
▁माया	-10.8923
क्यू	-10.8927
▁काढत	-10.8929
In	-10.8931
mail	-10.8932
▁Air	-10.8933
▁फायली	-10.8934
▁देयक	-10.8935
▁सोल	-10.8937
▁ट्रे	-10.8937
▁वर्क	-10.8937
▁जिवा	-10.8938
मूल्य	-10.8939
▁बनवा	-10.8939
तंत्र	-10.894
▁छंद	-10.8941
▁म्हणण्या	-10.8941
▁सिंगापूर	-10.8944
▁चौरस	-10.8945
संख्या	-10.8947
▁पावला	-10.8948
▁जाईन	-10.8948
▁त्याबाबत	-10.8951
▁देणारी	-10.8951
डय़ा	-10.8952
▁ग्राम	-10.8953
कोर	-10.8953
▁उर्	-10.8954
▁कापूस	-10.8955
▁अवमान	-10.8956
▁पुष्टी	-10.8958
▁ठेवावे	-10.8959
ven	-10.8959
▁लिहीत	-10.896
▁जवळचे	-10.896
▁ताल	-10.8963
▁हायड्रोलिक	-10.8966
▁जाणारी	-10.8972
भू	-10.8975
शांत	-10.8977
▁दूत	-10.8983
▁तुमच्याशी	-10.8986
▁तिच्यासाठी	-10.8987
▁मर्	-10.8992
मात्र	-10.8992
▁फलंदाज	-10.8994
▁देशभरात	-10.8995
▁नुसार	-10.8996
▁मजला	-10.8998
▁सुरवातीला	-10.8998
मिशन	-10.9
कऱ्यां	-10.9003
भ्र	-10.9004
▁नेट	-10.9005
▁जाण्या	-10.9005
▁प्रसिद्धी	-10.9006
▁न्यायाधीश	-10.9008
▁विनिमय	-10.9008
▁दुसरं	-10.9009
▁माण	-10.9018
▁झोपे	-10.9019
▁ठरवलं	-10.9019
▁पैकी	-10.902
▁43	-10.9021
▁फस	-10.903
▁कुशल	-10.903
MS	-10.9031
▁एव्ह	-10.9034
▁बर्न	-10.9036
▁पोर	-10.9038
OS	-10.9041
खड	-10.9044
▁Wa	-10.9046
(6	-10.9047
▁घडू	-10.9047
▁अशुद्ध	-10.905
▁अस्व	-10.9051
▁बॉस	-10.9052
▁मिनिटात	-10.9053
ोत्तर	-10.9056
उदा	-10.9058
▁2005	-10.9059
फ्रि	-10.9062
ix	-10.9063
▁संग्रहालय	-10.9064
▁पाहात	-10.9065
▁घालण्या	-10.9065
ral	-10.9065
fo	-10.9067
▁काळजीपूर्वक	-10.9067
रियल	-10.9067
▁शोधात	-10.9068
▁कृतज्ञ	-10.9069
चालन	-10.9072
अक्षरशः	-10.9074
▁अलीकडे	-10.9074
▁ठेवते	-10.9076
▁घसर	-10.9084
▁स्टेपमोंम	-10.9084
▁हिंमत	-10.9084
▁मनसे	-10.9085
▁अकरा	-10.9091
▁मागतो	-10.9092
▁वापरण्यासाठी	-10.9092
▁साधी	-10.9098
vers	-10.9098
ऱ्हा	-10.9099
▁देवळा	-10.9104
▁परंतू	-10.9107
▁लागे	-10.9109
▁your	-10.911
▁लाकडी	-10.9117
▁लोगो	-10.912
▁सेने	-10.9124
▁नांव	-10.9127
▁ऐक्रेलिक	-10.9128
संघ	-10.913
शिप	-10.9136
पब्लिक	-10.9139
मुद्र	-10.9141
16)	-10.9145
▁कॅन	-10.9149
▁कर्जमाफी	-10.915
▁गिटार	-10.915
▁विसरलो	-10.9151
▁भाकरी	-10.9164
▁शिखर	-10.9165
ंबरोबर	-10.917
▁बॅंक	-10.9171
▁मुख्यमंत्र्यां	-10.9171
▁पाठविण्या	-10.9172
▁जाण्यास	-10.9172
▁रुंदी	-10.9172
स्तर	-10.9173
▁मऊ	-10.9175
नायक	-10.9181
▁उलगड	-10.9183
▁धूळ	-10.9184
झन	-10.9185
MP	-10.9187
▁टोपी	-10.9192
▁खेच	-10.9193
▁केरळ	-10.9194
▁माघार	-10.9194
थ्या	-10.9196
▁निबंध	-10.9202
▁२००९	-10.9206
rk	-10.9211
▁Gu	-10.9218
LE	-10.922
एमसी	-10.922
▁मृत्यूनंतर	-10.9223
▁सम्राट	-10.9227
▁स्वतःवर	-10.9235
लेखन	-10.9236
▁ओळखता	-10.9236
▁Hack	-10.9238
▁निँगबॉ	-10.9238
▁श्रीकृष्ण	-10.924
▁स्वयंपाकघर	-10.9241
▁मिट	-10.9242
अनु	-10.9242
▁वर्षापूर्वी	-10.9243
▁केल्यावर	-10.9243
ॉर्न	-10.9244
▁फिरव	-10.9248
▁लोखंड	-10.925
▁नोंदणीकृत	-10.9251
▁गावातील	-10.9256
▁पृथ्वीच्या	-10.9258
-7	-10.9259
▁मेक्सिको	-10.926
▁मेळ	-10.9261
▁बंधू	-10.9262
▁घाण	-10.9263
▁अजुन	-10.9264
▁होंडा	-10.9267
राई	-10.9269
▁म्हणतील	-10.927
▁आपापल्या	-10.9271
▁ओपन	-10.9272
▁यकृत	-10.9272
▁इराक	-10.9272
▁भाविक	-10.9275
▁शोषण	-10.9278
▁स्थानावर	-10.9278
▁स्वित्झर्लंड	-10.9282
▁नियुक्त	-10.9283
▁वाढविण्यासाठी	-10.9288
▁अरेरे	-10.929
▁यांच्याशी	-10.929
▁गुर	-10.9293
▁काठी	-10.9294
▁(26	-10.9295
▁संकुल	-10.9298
्की	-10.9299
▁मिनिटांत	-10.9299
▁अमर	-10.9299
▁३१	-10.9303
▁लहानपणी	-10.9305
▁रिंग	-10.9307
तुझ्या	-10.9311
▁स्वीडन	-10.9316
▁चिर	-10.9316
▁शहाणपण	-10.9316
▁निवेदन	-10.9316
ame	-10.9316
▁२०१८	-10.9317
ted	-10.9319
▁स्वर्गात	-10.9321
िएट	-10.9323
▁सिंगल	-10.933
भंग	-10.933
▁म्हणणार	-10.9331
▁कॉपी	-10.9335
mar	-10.9335
▁तुकडा	-10.9338
▁गरिब	-10.9339
▁ठोस	-10.9339
▁इंटरनेटवर	-10.9343
▁राजाने	-10.9344
▁निघत	-10.9345
▁मुख्यालय	-10.9346
मुख्य	-10.9351
▁ज्याचे	-10.9351
▁जाणारा	-10.9351
सिद्ध	-10.9355
sha	-10.9355
९९	-10.9356
ंतून	-10.9363
▁पडलो	-10.9368
▁मारा	-10.9368
▁कर्मचार्‍यां	-10.9372
▁पराभूत	-10.9372
▁नशीब	-10.9372
▁द्यायची	-10.9373
▁Sc	-10.9373
▁वैद्य	-10.9375
▁संयोजन	-10.9376
▁क्रमांकावर	-10.9378
▁मिळवली	-10.938
▁राहता	-10.938
IT	-10.9381
▁संपणार	-10.9381
ंमधून	-10.9384
▁पोत	-10.9386
▁IP	-10.9386
▁अमेरिकेचा	-10.9386
▁कॅर	-10.9391
▁ad	-10.9393
▁आदी	-10.9394
view	-10.9394
▁वेळापत्रक	-10.9394
▁घडल्या	-10.9394
▁Bi	-10.9395
▁येताना	-10.9401
rit	-10.9401
(5	-10.9405
▁निलंबित	-10.9405
▁लाकूड	-10.9405
▁म्हणेल	-10.9407
▁कसला	-10.9411
▁सदा	-10.9412
५५	-10.9413
▁नयेत	-10.9414
▁प्रस्थापित	-10.9419
▁संघात	-10.9423
▁त्याविषयी	-10.9425
िर्	-10.9425
▁त्याकडे	-10.9428
लेक्स	-10.944
▁स्वतःहून	-10.9441
▁अमृत	-10.9442
▁खाऊन	-10.9442
▁प्रथा	-10.9455
▁घेतील	-10.9457
▁कोणालाच	-10.9457
णि	-10.9458
▁एकूणच	-10.9458
▁बँका	-10.9458
ism	-10.9459
▁ब्लू	-10.9459
▁क्रॉस	-10.9461
विशेष	-10.9461
▁एफओबी	-10.9462
▁लेसर	-10.9462
▁मल्टी	-10.9462
▁व्यक्तींना	-10.9465
▁गोव्या	-10.9473
▁Mobile	-10.9473
▁स्थायी	-10.9473
▁आणखीन	-10.9476
▁सौम्य	-10.9477
▁पुढची	-10.9481
▁थांबले	-10.9483
क्रांती	-10.9484
▁चौथ्या	-10.9485
मीटर	-10.9485
४६	-10.9487
ान्त	-10.9491
▁मारत	-10.9494
▁क्वचित	-10.9496
▁द्यायचा	-10.9497
६२	-10.9503
▁(30	-10.9503
▁जिंकला	-10.9505
▁नेपाळ	-10.9507
▁ड्रॉप	-10.9507
▁सनातन	-10.9508
गीत	-10.9508
▁तालुका	-10.9518
▁बदलण्याची	-10.9519
▁स्वर	-10.9522
▁(36	-10.9524
▁सहाय्यक	-10.9524
▁शरीराच्या	-10.9531
▁दिल्लीत	-10.9532
▁वेगळीच	-10.9532
▁प्रस्तावित	-10.9533
▁लावू	-10.9534
▁वडिलांनी	-10.9541
▁from	-10.9542
▁800	-10.9545
पै	-10.9551
▁मुळीच	-10.9554
पीएस	-10.9554
▁Go	-10.9558
▁अमेरिकेने	-10.9561
झोन	-10.9562
▁46	-10.9563
▁२८	-10.9564
▁सिग्नल	-10.9564
▁दुर	-10.9565
▁हजर	-10.9565
▁वर्षभरात	-10.9573
▁एस्	-10.9574
▁https	-10.9575
▁सायंकाळी	-10.9575
▁दोघं	-10.9575
▁पैलू	-10.9576
▁अनुकरण	-10.9578
▁महाराष्ट्रातील	-10.9578
▁Ne	-10.9579
ॅश	-10.9581
▁छत	-10.9583
▁वायू	-10.9586
▁उडव	-10.9586
▁आक्षेप	-10.9587
▁रथ	-10.9595
▁श्रीमती	-10.9598
▁माझ्याकडून	-10.9598
कोड	-10.9602
▁निष्ठा	-10.9605
▁pa	-10.9608
▁सोहळा	-10.961
▁ह्रदय	-10.961
▁Ta	-10.9611
ग्री	-10.9612
▁मिश्र	-10.9614
▁कसली	-10.9619
बुधवार	-10.9621
ॅन्	-10.9621
१६	-10.9621
▁2006	-10.9623
▁वतीने	-10.9624
tro	-10.9628
▁OEM	-10.9633
▁पालिके	-10.9633
▁कॉर्	-10.9636
▁जगाचा	-10.9639
▁नदीच्या	-10.9641
▁बग	-10.9642
▁कट्टर	-10.9645
▁वेस्ट	-10.9646
▁लेबल	-10.9646
▁रुग्णांना	-10.9648
▁वाव	-10.9648
▁बोलावले	-10.965
vo	-10.9651
ware	-10.9655
▁बनू	-10.9655
▁अपहरण	-10.9656
▁ग्रेड	-10.9658
▁देशभक्त	-10.9659
▁250	-10.9662
▁ठरतो	-10.9664
▁वाहने	-10.9665
प्रेम	-10.9666
▁मंजुरी	-10.9667
▁प्लीज	-10.9667
▁शर्ट	-10.9676
ally	-10.9676
ांसमोर	-10.9677
▁थकले	-10.9677
▁विपरीत	-10.9679
▁लिहू	-10.9682
▁साधला	-10.9688
▁आफ्रिकेत	-10.9688
▁ओळखा	-10.9689
▁खेळणार	-10.9689
▁गाई	-10.9695
▁सादरीकरण	-10.9698
▁महिन्याला	-10.9698
उप	-10.9699
ग्राम	-10.9702
▁दडप	-10.9702
▁अनंतकाळ	-10.9703
▁काढण्या	-10.9709
▁२०१२	-10.9715
पदी	-10.9716
िअर	-10.9721
Tube	-10.9723
▁जोडा	-10.9724
▁चॅनल	-10.9725
गाडी	-10.9729
▁बेबी	-10.973
des	-10.9731
वळ्या	-10.9734
▁सरकारचा	-10.9738
वृत्त	-10.9743
▁आत्तापर्यंत	-10.9743
▁Ge	-10.9746
▁टेस्टोस्टेरॉन	-10.9748
▁पीटर	-10.9748
NUM	-10.9748
11)	-10.9749
chi	-10.975
ship	-10.9751
▁संभव	-10.9753
▁५००	-10.9753
▁पथक	-10.9753
▁खाल	-10.9756
स्थानी	-10.9757
▁वंचित	-10.976
▁कांही	-10.9762
▁क्रूर	-10.9764
▁ताज्या	-10.9772
▁कार्यवाही	-10.9772
▁चिड	-10.9775
▁शिकण्या	-10.9775
ev	-10.9776
▁हुक	-10.9777
▁दुपार	-10.978
टॅ	-10.9787
▁टॉवर	-10.9787
▁सोमवार	-10.9789
▁नेमकी	-10.9789
▁मनोरंजन	-10.9795
▁प्रसंगी	-10.9796
▁मागत	-10.9797
▁आणणार	-10.9801
▁प्रभाग	-10.9804
जन्म	-10.9806
▁विश्वासार्ह	-10.9807
िनो	-10.9808
▁थांबवू	-10.9813
फोन	-10.9813
rin	-10.9813
▁कार्ये	-10.9818
▁कॅबिनेट	-10.9818
ON	-10.9822
▁नाणे	-10.9828
▁अनुयायी	-10.983
▁सील	-10.9831
▁खेळाडूंना	-10.9831
▁पोषण	-10.9831
ट्रिक	-10.9832
▁आवडणार	-10.9836
वर्षी	-10.9838
▁नेऊ	-10.9839
▁तिन्ही	-10.9842
▁शालेय	-10.9842
▁२०१५	-10.9843
▁सीट	-10.9848
▁नाद	-10.9855
▁त्यातल्या	-10.9855
ten	-10.9856
▁Mu	-10.9857
▁जनतेला	-10.9857
▁दहशतवादी	-10.9858
▁शक्‍यता	-10.9859
ica	-10.9861
for	-10.9864
▁si	-10.9864
ासंबंधी	-10.9866
▁कुटुंबात	-10.9873
▁उमेदवारी	-10.9875
▁टिळक	-10.9878
▁Ja	-10.9879
प्रकरणी	-10.9881
▁not	-10.9882
(11	-10.9886
क्लो	-10.9888
▁तेजस्वी	-10.9889
▁चाहता	-10.9889
▁हार्डवेअर	-10.9889
▁विषयांवर	-10.9891
▁खेळतो	-10.9893
▁त्याशिवाय	-10.9896
▁शासनाने	-10.9897
▁भीषण	-10.9901
ors	-10.9902
▁घराच्या	-10.9902
कोट	-10.9902
्टी	-10.9903
▁चौथा	-10.9903
▁संस्थान	-10.9906
▁मुलीच्या	-10.9908
▁यम	-10.9909
▁मुख्यतः	-10.991
▁एक्सप्रेस	-10.9913
पाच	-10.9913
▁मोहीम	-10.9919
▁समजेल	-10.9921
▁प्रश्नांची	-10.9924
▁वसाहत	-10.9924
वचन	-10.9925
तेव्हा	-10.9926
ॉर्ड	-10.9926
९४	-10.9931
ुर्	-10.9933
▁जवळून	-10.9933
▁राणे	-10.9934
ट्रि	-10.9934
▁चालणे	-10.9938
▁विमाने	-10.9942
fa	-10.9943
▁देशमुख	-10.9944
▁राजीनामा	-10.9948
पिक	-10.9949
▁बायो	-10.995
दक्षिण	-10.9953
्टि	-10.9954
▁शरीराला	-10.9955
▁ग्रेट	-10.9959
ings	-10.9959
▁सोसायटी	-10.996
▁फोल्डर	-10.996
राष्ट्रीय	-10.996
▁अधिनियम	-10.996
▁युरोपीय	-10.9963
▁वापरकर्त्यांना	-10.9964
▁Of	-10.9964
▁नग्न	-10.9965
▁पायरी	-10.9966
▁करशील	-10.9968
▁बायोडेटा	-10.9972
▁सविस्तर	-10.9972
▁जागरूक	-10.9972
▁त्याचवेळी	-10.9973
▁रुपयांची	-10.9973
▁दिवे	-10.9974
▁वर्षापासून	-10.9977
▁आधारे	-10.9977
▁इंद्र	-10.998
▁मेघ	-10.9981
▁वर्षांमध्ये	-10.9983
▁इस्	-10.9983
▁पातळ	-10.9983
▁पुनर्वसन	-10.9984
▁प्रतिबंधित	-10.9985
▁पाहूया	-10.9986
▁ऐकला	-10.9988
उंड	-10.9989
▁स्थलांतर	-10.999
CO	-10.999
▁जाणवले	-10.9992
एफडी	-10.9992
▁बदलते	-10.9995
▁यांत्रिक	-10.9996
▁आतंकवाद	-10.9996
▁चिंतन	-10.9997
▁मोटर्स	-11
▁आल्यानंतर	-11.0003
▁Man	-11.0006
ET	-11.0008
▁भाषांमध्ये	-11.0009
EN	-11.001
▁आठवड्यातून	-11.0014
▁प्री	-11.0017
ler	-11.0018
▁झा	-11.0019
▁मानली	-11.0019
▁संमती	-11.002
▁मायक्रो	-11.002
▁डिग्री	-11.0021
▁गमावले	-11.0023
▁कार्यक्षम	-11.0026
सीए	-11.0026
▁लक्ष्मी	-11.0028
मरण	-11.0028
ल्याशिवाय	-11.0028
press	-11.0029
▁अदा	-11.0031
▁निर्णायक	-11.0031
▁प्रेरणादायी	-11.0033
लियन	-11.0035
▁मनुष्यबळ	-11.0036
लायक	-11.0037
▁कुठं	-11.0041
▁Act	-11.0042
ांहून	-11.0045
▁आशे	-11.0048
▁शूटिंग	-11.0048
▁देशांच्या	-11.0048
▁फारसा	-11.0048
मुळं	-11.0052
विरुध्द	-11.0055
▁महात्मा	-11.0055
▁संस्थापक	-11.0056
▁वाईन	-11.0056
▁हस्तक्षेप	-11.0057
्यांवर	-11.0058
300	-11.006
धारी	-11.0062
ग्राफ	-11.0067
▁उमट	-11.0068
0.5	-11.007
qui	-11.0075
▁Online	-11.0079
▁डेस्कटॉप	-11.0079
▁ठेवायला	-11.008
▁बंड	-11.0082
रियन	-11.0084
▁सिंग	-11.0087
▁कोश	-11.0088
▁जायची	-11.0089
▁डोंगरावर	-11.0089
्ग	-11.0093
॥	-11.0098
TI	-11.0102
ave	-11.0104
▁मुखपृष्ठ	-11.0104
▁२००	-11.0106
tom	-11.0114
▁पुरे	-11.0115
▁मध्यभागी	-11.0116
▁कारणांसाठी	-11.0118
▁बेथ	-11.0118
▁वापरासाठी	-11.0118
▁काळातील	-11.0119
▁हल्ली	-11.0121
▁पांढ	-11.0122
▁पाळी	-11.0123
▁बोलायचे	-11.0123
▁घालू	-11.0123
▁बालपण	-11.0128
▁लिहिलेले	-11.0128
ture	-11.013
▁बाजारपेठ	-11.0132
४९	-11.0136
▁अनुमती	-11.014
▁विलंब	-11.014
▁कर्णधार	-11.014
CE	-11.0147
ाध्यक्ष	-11.0147
▁बेल्ट	-11.0147
▁आकृती	-11.0148
स्टेर	-11.0149
ढ्या	-11.0149
▁सावर	-11.0151
▁कळवा	-11.0151
▁सानुकूलित	-11.0153
▁स्वतःसाठी	-11.0155
▁हिंदुत्व	-11.0155
▁हॅक	-11.0159
▁कृपे	-11.0164
▁व्हिडीओ	-11.0164
व्यतिरिक्त	-11.0164
▁२०१३	-11.0165
SC	-11.0165
▁पहाटे	-11.0166
▁मातृ	-11.0167
▁56	-11.0167
▁जातोय	-11.0168
▁तुमच्याबरोबर	-11.017
▁दुकाने	-11.0173
▁दिल	-11.0176
रीत्या	-11.0176
▁त्यांत	-11.0176
▁दीर्घकालीन	-11.0176
▁रांग	-11.0177
▁जमले	-11.0177
▁वर्तमानपत्र	-11.0178
▁सृष्टी	-11.0181
चिन्ह	-11.0184
▁प्रियकर	-11.0185
▁धागा	-11.0188
▁करणा	-11.019
box	-11.0195
gg	-11.0196
्स्	-11.0197
सृष्टी	-11.0198
निर्मिती	-11.0199
▁ब्रिटीश	-11.02
▁सर्वशक्तिमान	-11.02
▁06:	-11.0203
▁दुखाव	-11.0205
दूर	-11.0211
▁मालमत्ते	-11.0213
▁घोटाळा	-11.0213
▁मेडिकल	-11.0213
cle	-11.0213
▁उठला	-11.0214
▁लावा	-11.0217
रक्षक	-11.022
▁नसतं	-11.0221
▁फिन	-11.0223
बोर्ड	-11.0225
▁वर्गीकरण	-11.0225
वडील	-11.0225
▁ईश्‍वर	-11.0225
▁नकळत	-11.0225
▁समारंभ	-11.0226
▁सफल	-11.0226
▁टॉप	-11.0229
▁600	-11.0236
ंविषयी	-11.0236
▁करण्यासारखे	-11.0237
च्ची	-11.0238
कर्ते	-11.0239
▁मेष	-11.0243
▁क्लास	-11.0246
▁आमंत्रित	-11.0249
▁शिंदे	-11.0251
▁आयडी	-11.0257
▁मामा	-11.0258
आरए	-11.0259
▁संदेष्ट्या	-11.0262
▁पॉइंट	-11.0262
▁स्टेट	-11.0262
▁२९	-11.0265
▁संबंधी	-11.0269
▁जमत	-11.0272
list	-11.0273
▁प्रकरणी	-11.0275
bs	-11.0276
▁सुरेश	-11.0277
▁दोस्त	-11.0279
चंद्र	-11.0279
▁क्वा	-11.0284
▁मोर	-11.0285
▁बघितला	-11.0286
▁आशय	-11.0286
ney	-11.0287
▁पत्नीला	-11.0287
▁बळकट	-11.0288
समवेत	-11.029
▁स्तंभ	-11.0294
▁साई	-11.0294
▁निम	-11.0296
▁अमरावती	-11.0298
▁शेकडो	-11.0298
▁खालच्या	-11.0299
▁व्हाल	-11.0299
▁भ्रम	-11.0299
▁अधिकाऱ्यांनी	-11.0303
डिओ	-11.0305
टाळ्या	-11.0306
▁सावली	-11.0307
▁कमकुवत	-11.0311
ling	-11.0311
py	-11.0314
▁सव	-11.0316
▁वापरकर्त्या	-11.0317
▁कैद	-11.0317
▁बोलते	-11.0318
▁World	-11.032
▁तिर	-11.0324
▁उठून	-11.0325
▁वास्तु	-11.0326
▁एकमेकांच्या	-11.0326
ED	-11.0327
▁असलं	-11.0331
पटू	-11.0332
▁शक्‍य	-11.0333
▁पेपैल	-11.0335
▁मॉड्यूल	-11.0335
▁स्मारक	-11.0335
▁दुखापत	-11.0336
मधला	-11.0336
▁हल्ले	-11.0337
▁संताप	-11.0339
▁जेवायला	-11.0339
▁Ab	-11.0345
▁लागतं	-11.0349
▁मावळ	-11.0351
▁अनाथ	-11.0352
पीएम	-11.0352
▁आइ	-11.0355
ब्रा	-11.0359
▁पन्नास	-11.036
▁प्रतिष्ठापन	-11.0361
▁मनाने	-11.0365
▁अशाप्रकारे	-11.0368
▁पुढीलप्रमाणे	-11.0373
▁महिलांसाठी	-11.0373
संवाद	-11.0374
▁डॉट	-11.0374
▁चाळ	-11.0375
TO	-11.0382
▁उद	-11.0382
▁अनिश्चित	-11.0385
▁बॉलिवूड	-11.0385
▁विहिरी	-11.0385
pri	-11.0386
▁वादा	-11.0389
▁एकटाच	-11.0392
ावधी	-11.0393
▁परतावा	-11.0394
ज्योत	-11.0397
▁थांबला	-11.0397
▁कुत्रे	-11.04
कालीन	-11.0401
110	-11.0401
▁अस्त	-11.0402
▁झाल्यामुळे	-11.0408
▁स्वाभाविक	-11.041
▁प्रजाती	-11.041
▁वीडियोस	-11.041
▁लिहिला	-11.0411
▁पट्टी	-11.0422
NE	-11.0423
▁दैवत	-11.0425
▁स्त्रियांच्या	-11.0426
▁दहशतवाद	-11.0427
▁नवरा	-11.0429
▁गोष्टींवर	-11.0432
मूर्ती	-11.0435
▁प्रक्रियेत	-11.0436
▁अखंड	-11.0436
▁पीडित	-11.0437
▁उत्साही	-11.0438
३७	-11.0441
▁पाहणार	-11.0442
त्यांना	-11.0442
▁ब्रश	-11.0443
▁सापडेल	-11.0444
बेल	-11.0446
▁अपलोड	-11.0447
▁खातात	-11.0454
▁दोघांनाही	-11.0454
▁सुमारास	-11.0459
▁पहायला	-11.0461
▁दुनिया	-11.0463
▁संख्येने	-11.0464
▁वागत	-11.0464
▁Dis	-11.0467
▁स्टॉकिंग्स	-11.0472
▁फायर	-11.0474
▁फॅक्स	-11.0475
▁माळ	-11.0475
▁अरबी	-11.048
▁संगीतकार	-11.0482
▁एकटा	-11.0483
आयसी	-11.0485
पालन	-11.0485
RA	-11.0487
▁क्रश	-11.0493
▁एकमेकांशी	-11.0493
▁असणारा	-11.0494
▁माणसाचा	-11.0494
▁शक्यतो	-11.0494
▁धीरे	-11.0496
▁Fe	-11.0497
▁वाहतुकी	-11.0497
▁सफरचंद	-11.0497
18)	-11.0499
▁गति	-11.05
cc	-11.0502
▁फेसबुकवर	-11.0503
▁पाकिस्तानात	-11.0503
▁सोलापूर	-11.051
»	-11.051
▁तिसरे	-11.051
▁एकटीच	-11.0511
▁मारून	-11.0513
▁संक्षिप्त	-11.0522
एनएक्स	-11.0524
▁नवं	-11.0525
▁http	-11.0527
▁मॅच	-11.0528
28)	-11.053
▁आधारावर	-11.0532
वळी	-11.0532
][	-11.0533
सेना	-11.0534
▁केलंय	-11.0535
▁अविश्वसनीय	-11.0535
▁शमुवेल	-11.0535
▁अँटी	-11.0543
५६	-11.0544
८४	-11.0548
▁अपंग	-11.0548
tory	-11.0549
वळे	-11.0549
▁मुक	-11.0554
▁आदि	-11.0554
▁फार्म	-11.0556
▁बैठकी	-11.0557
प्रेमी	-11.0559
▁कॉर्पोरेट	-11.056
▁दागिने	-11.056
६४	-11.0561
▁बँकिंग	-11.0565
वासा	-11.0567
▁जप्त	-11.057
27)	-11.0573
▁अवतार	-11.0574
xi	-11.0576
शुद्ध	-11.0578
▁समाधानी	-11.058
▁होण्याचे	-11.0582
▁भात	-11.0582
▁WhatsApp	-11.0585
▁खूश	-11.0585
ड्यू	-11.0585
▁म्हणायला	-11.0591
▁भविष्यातील	-11.0593
▁यांच्यावर	-11.0594
▁Facebook	-11.0598
▁आश्चर्यचकित	-11.0598
▁पंजाब	-11.0598
▁भाग्यवान	-11.06
▁येण्यासाठी	-11.0601
▁सूर	-11.0604
▁ग्लॅमर	-11.061
▁शॉवर	-11.0611
शिक	-11.0615
▁आदित्य	-11.0615
▁विमानतळावर	-11.0615
lock	-11.0617
१४	-11.0617
▁निदर्शन	-11.0618
▁रसिक	-11.062
▁नवशिक्या	-11.0623
▁आयपीएल	-11.0623
▁असण्या	-11.0624
प्शन	-11.0624
▁आणते	-11.0625
१७	-11.0634
▁वीडियो	-11.0635
▁अमित	-11.0635
iss	-11.0642
▁श्रम	-11.0645
▁ब्लोजॉब	-11.0648
▁इंडियन	-11.0649
▁अणु	-11.0649
▁आठवतो	-11.0651
▁लवकरात	-11.0654
▁समाजाला	-11.0655
▁Tra	-11.0658
५४	-11.0659
▁बागेत	-11.066
▁तेवढेच	-11.066
▁गप्प	-11.066
▁अर्थसंकल्प	-11.0661
▁पोशाख	-11.0661
lor	-11.0662
of	-11.0662
▁नमाज	-11.0665
दोष	-11.0665
▁स्प्रे	-11.0666
▁शेतक	-11.0672
▁कौटुंबिक	-11.0674
▁बक्षिस	-11.0674
▁लेदर	-11.0675
बुक	-11.0679
▁बांधून	-11.0682
ंडो	-11.0682
▁व्हिसा	-11.0684
pcs	-11.0687
▁माझ्याजवळ	-11.0693
पिंग	-11.0696
ound	-11.07
▁रेटिंग	-11.0701
ions	-11.0701
▁जळगाव	-11.0702
▁साधारणतः	-11.0702
▁वापरण्यात	-11.0707
row	-11.0709
uro	-11.0711
▁पकडला	-11.0712
▁निघाली	-11.0713
rs	-11.0713
ख्ख	-11.0715
ष्ण	-11.0715
▁अपघातात	-11.0716
▁सेक्सी	-11.0717
▁कर्मचा	-11.0719
२५	-11.0719
▁ठेवल्या	-11.0722
▁नारायण	-11.0725
TA	-11.0732
ाकरिता	-11.0735
▁ब्राह्मण	-11.0738
▁मुहूर्त	-11.0738
▁जैन	-11.0738
▁नेवासा	-11.0738
▁गावी	-11.0746
▁निर्देशांक	-11.0746
▁वायु	-11.0747
▁ब्राउझर	-11.0752
मै	-11.0752
▁प्रयोगशाळा	-11.0752
▁संवर्धन	-11.0753
19)	-11.0754
▁ट्रेक	-11.0759
▁तिनं	-11.0759
▁तप	-11.0762
समूह	-11.0765
▁फायद्या	-11.0766
▁साक्षीदार	-11.0768
▁CO	-11.0768
▁बै	-11.077
ving	-11.0774
९२	-11.0775
पंथ	-11.0776
▁Pay	-11.0777
▁३००	-11.0781
▁वित्त	-11.0782
▁क्वि	-11.0783
▁सांगावे	-11.0784
▁अशावेळी	-11.0784
▁वाचण्या	-11.0785
▁पाठवून	-11.0788
▁कार्यक्रमात	-11.0789
▁नरेंद्र	-11.079
▁अधिकाऱ्यांना	-11.0793
▁क्लिप	-11.0794
▁सैतान	-11.0794
▁शेतकऱ्यांच्या	-11.0795
▁रक्षक	-11.0795
▁स्टेट्स	-11.08
▁श्रीलंके	-11.0803
▁नेमकं	-11.0803
▁प्रभावीपणे	-11.0803
▁शस्त्रक्रिया	-11.0803
▁बारीक	-11.0803
▁विसरता	-11.0808
र्ह	-11.081
बाबतीत	-11.0812
्का	-11.0812
▁जोडणी	-11.0815
▁पुरूष	-11.0815
▁पदवीधर	-11.0816
▁असणारी	-11.0816
▁बेटा	-11.0818
पुन्हा	-11.0821
मधली	-11.0825
▁la	-11.0827
▁विवरण	-11.0827
▁आण्विक	-11.0828
▁फडणवीस	-11.0828
▁हिस्सा	-11.0828
▁मोकळा	-11.0828
▁माहेर	-11.0832
▁रवि	-11.0834
ंढर	-11.0834
वाहिन्या	-11.0835
िफ	-11.0835
▁वेळेला	-11.0838
▁स्वारस्य	-11.0841
▁टिकाऊ	-11.0843
▁पाण	-11.0848
बाज	-11.0849
रोधक	-11.0851
९७	-11.0852
▁कुठला	-11.0852
▁नियमितपणे	-11.0853
▁बक्षीस	-11.0854
▁बाटल्या	-11.0854
▁गोवा	-11.0855
▁काहीजण	-11.0857
▁डोक्यात	-11.0858
▁सामन्या	-11.0858
त्रि	-11.0863
ple	-11.0865
▁Sha	-11.0866
▁न्यूझीलंड	-11.0867
▁प्रादेशिक	-11.0867
▁स्ट्रॅप	-11.0868
▁दाखवला	-11.087
▁जब	-11.0872
▁उन्हाळ्या	-11.0873
▁अमेरिकेची	-11.0876
▁गियर	-11.0878
▁पाठीशी	-11.0881
पुर्वी	-11.0881
▁स्पर्धात्मक	-11.0882
प्रत्येक	-11.0886
▁पृष्ठे	-11.0886
ब्रो	-11.0886
दाद	-11.0889
▁मिळालेले	-11.089
आहे	-11.089
▁प्रशिक्षित	-11.0893
▁गोळीबार	-11.0893
▁विकृत	-11.0894
▁नद्या	-11.0898
less	-11.0901
मॅन	-11.0901
▁मिळण्याची	-11.0901
ative	-11.0905
net	-11.0905
▁आयुर्वेद	-11.0906
▁क्लॅसिक	-11.0906
▁अश्व	-11.091
▁चिं	-11.0917
CI	-11.0917
▁अपराधी	-11.0918
▁कळणार	-11.0919
▁होळी	-11.0919
▁तलाक	-11.092
lot	-11.0925
कडच्या	-11.0927
▁पुढचे	-11.0929
duct	-11.0932
▁डॅन्सिंग	-11.0933
मह	-11.0934
स्टिंग	-11.0937
▁शर्मा	-11.0939
▁टाकू	-11.0941
▁हटव	-11.0945
▁ऋतु	-11.0946
▁लाँच	-11.0946
▁उपास	-11.0946
▁link	-11.0946
स्मा	-11.0947
▁कपूर	-11.0948
▁पटेल	-11.0951
▁योजनेचा	-11.0952
▁कर्ण	-11.096
▁हास्य	-11.0964
ांवरील	-11.0965
▁चुकले	-11.0966
▁क्यू	-11.0966
▁प्रधान	-11.0968
▁XXX	-11.0972
▁तात्काळ	-11.0972
▁ब्लोंड	-11.0972
▁हायड्रॉलिक	-11.0972
विरूद्ध	-11.0972
३९	-11.0973
mit	-11.0974
▁चालतो	-11.0981
▁लावणार	-11.0983
▁आणीबाणी	-11.0985
▁इस्रायल	-11.0985
▁अध्याय	-11.0985
jo	-11.0985
▁समर्थक	-11.0986
▁आढळतात	-11.0997
▁बजेट	-11.0998
राणी	-11.1
▁तारखे	-11.1001
▁ट्राय	-11.1001
कोणी	-11.1011
▁Win	-11.1011
▁ब्राझील	-11.1012
▁गॅगिंग	-11.1012
▁गडबड	-11.1012
▁वक्तव्य	-11.1012
र्जन	-11.1014
▁दाखवू	-11.1014
▁यायचे	-11.1019
las	-11.1021
▁घराबाहेर	-11.1022
पाठ	-11.1024
▁डब्ल्यू	-11.1024
▁माउंट	-11.1025
ांनंतर	-11.1025
▁मेगा	-11.1028
▁पुनर्प्राप्ती	-11.1038
▁मॅट	-11.1041
खळ	-11.1043
▁सामन्यां	-11.1044
▁शं	-11.1048
▁ग्रंथालय	-11.1053
ेन्ट	-11.1055
पत्नी	-11.1059
▁स्कॅन	-11.1063
▁रेस्टॉरंट	-11.1064
▁फुकट	-11.1066
Re	-11.1067
फ़	-11.1069
▁कंटाळ	-11.1071
शब्द	-11.1072
सरकार	-11.1074
▁फेड	-11.1075
शॉप	-11.1079
ऱ	-11.1082
▁सहकार	-11.1084
▁सप्ताह	-11.1091
सत्ता	-11.1092
▁ऐकलं	-11.1092
Video	-11.1093
SE	-11.1093
वाद्यां	-11.1095
▁चालविण्या	-11.1098
▁मांडणी	-11.11
▁हॉस्पिटलमध्ये	-11.1103
▁ट्रेलर	-11.1105
▁२००४	-11.1106
▁कंटेनर	-11.1118
०१	-11.1118
▁पेट्रोल	-11.1118
▁नेमणूक	-11.1119
ara	-11.1119
▁उशीरा	-11.112
▁08:	-11.112
▁शेतकऱ्यांनी	-11.1121
▁शरीरावर	-11.1124
ES	-11.1127
▁कॉन्फिगर	-11.1131
▁तितकेच	-11.1135
त्तर	-11.1138
▁मैल	-11.114
▁आमच्याबरोबर	-11.1141
गुरू	-11.1144
▁मासेमारी	-11.1144
▁नव्हत्या	-11.1144
▁here	-11.1145
▁शूज	-11.1145
▁उदार	-11.115
३८	-11.1156
▁हस्तांतरण	-11.1158
cho	-11.1158
▁पाठवला	-11.116
▁साडी	-11.116
▁दौऱ्या	-11.1161
▁थांबवा	-11.1165
▁कार्यकर्ता	-11.1166
पुढील	-11.1167
▁लोट	-11.1169
▁व्हील	-11.1171
▁हत्ये	-11.1171
▁प्रतिभा	-11.1175
▁भीम	-11.1178
OR	-11.1179
▁माणसाचे	-11.118
ition	-11.1184
गॅंगबॅंग	-11.1185
▁मोठय़ा	-11.1185
▁कथे	-11.1185
▁राजकुमारी	-11.1188
▁भाज्या	-11.1188
(10	-11.1189
tin	-11.1196
▁महि	-11.1203
▁मुलाची	-11.1206
#	-11.1208
▁गुंतव	-11.1209
▁खांद्यावर	-11.1212
▁सशक्त	-11.1212
▁सेवेत	-11.1213
▁त्याआधी	-11.1215
GB	-11.1218
▁पोर्टल	-11.1218
▁करो	-11.1219
1.0	-11.1225
▁प्राधिकरण	-11.1225
▁मधु	-11.1229
let	-11.123
▁टूर	-11.1234
▁दाबा	-11.1235
0.00	-11.1236
▁घास	-11.1236
▁डेटिंग	-11.1238
▁जीवनातील	-11.1239
▁अभ्यागत	-11.1239
▁प्रतिबिंब	-11.1239
▁64	-11.124
▁नाकारले	-11.124
▁Tu	-11.1242
अहो	-11.1242
▁एसटी	-11.1247
▁पडदा	-11.1249
ँट	-11.1249
▁द्रव्य	-11.125
▁तुलनेने	-11.1252
▁धडक	-11.1254
▁शाखे	-11.1255
६९	-11.1259
मिती	-11.126
ोत्सव	-11.1261
▁दुर्दैवी	-11.1266
▁भूतकाळ	-11.1269
▁नर्स	-11.1272
▁भेटणार	-11.1276
▁पाठपुरावा	-11.1279
▁YouTube	-11.1279
▁अंमल	-11.128
▁खोड	-11.1288
्युट	-11.1288
▁कुठलाही	-11.129
▁चेन्नई	-11.1293
▁ग्रॅनड्मा	-11.1293
▁गाढव	-11.1293
▁आणणे	-11.1294
▁07:	-11.1296
▁ट्रस्ट	-11.1297
▁राहिल	-11.1298
▁शिका	-11.1305
pen	-11.1305
ji	-11.1306
▁Bonus	-11.1306
▁महिन्यांपूर्वी	-11.1306
प्रभु	-11.1307
▁घडेल	-11.1307
रिस	-11.1309
करीता	-11.131
▁अडीच	-11.131
▁व्हायरस	-11.131
▁उर्जा	-11.131
▁टीव्हीवर	-11.132
▁कूपन	-11.132
किना	-11.132
▁मुलांवर	-11.1321
▁वापरते	-11.1323
▁वापरण्यास	-11.1323
▁पूर्णतः	-11.1325
▁अपत्य	-11.1326
यहूद	-11.1326
▁धातूंचे	-11.1328
▁अनोळखी	-11.1334
▁भेद	-11.1334
ुंब	-11.1335
▁कलाकृती	-11.1335
▁वस्तुमान	-11.1337
▁शरण	-11.1338
▁वैभव	-11.1348
pur	-11.1349
▁हालचाल	-11.1349
▁मोहिमे	-11.1352
uck	-11.1353
फक्त	-11.1354
▁तशा	-11.1354
▁घेतलेले	-11.1355
▁दोघांच्या	-11.1358
▁बिया	-11.1358
▁कारणामुळे	-11.1358
▁हरि	-11.1358
▁फीड	-11.1361
▁भूकंप	-11.1362
▁असावेत	-11.137
eg	-11.137
▁रोमन	-11.137
बॅक	-11.137
▁51	-11.1372
▁मंत्रिमंडळ	-11.1374
▁स्पीड	-11.1375
▁दाट	-11.1375
▁बॉम्ब	-11.1375
▁अरुण	-11.1376
▁कॉन्	-11.1379
▁पितो	-11.1379
▁शाळेच्या	-11.1379
▁शोधणे	-11.1379
right	-11.1384
ोसिस	-11.1384
kg	-11.1387
001	-11.1387
▁धडपड	-11.1388
▁मध्यवर्ती	-11.1388
▁दयाळू	-11.1389
▁घालवत	-11.1391
▁QR	-11.1391
▁स्क्रू	-11.1403
▁मेंढ्या	-11.1403
▁धक्कादायक	-11.1403
▁ग्रीस	-11.1404
▁यूएसए	-11.1409
ket	-11.141
▁वीर	-11.1415
▁टॉपलेस	-11.1416
▁२००८	-11.1417
▁परिधान	-11.1418
दंड	-11.1422
रचना	-11.1427
▁जनक	-11.1428
पेट	-11.1429
▁वेल्डिंग	-11.1429
▁पदावर	-11.143
▁(2)	-11.1441
▁ठरवून	-11.1442
▁दर्शक	-11.1443
▁अभिप्राय	-11.1443
▁Ri	-11.1444
भक्त	-11.1445
▁पाण्याने	-11.1452
त्यांच्या	-11.1456
▁महिलांनी	-11.1456
▁चिन्हे	-11.1456
▁आयुष्याचा	-11.1457
▁52	-11.1458
ट्यू	-11.1458
▁मिळवला	-11.1471
▁समन्वय	-11.1471
▁बनवून	-11.1472
अंतर्गत	-11.1473
▁दहावी	-11.1476
▁शीट	-11.1478
काळात	-11.1482
86)	-11.1483
▁एसएमएस	-11.1485
▁आश्रय	-11.1485
▁गुन्ह्या	-11.1485
▁व्हाइट	-11.1485
▁ऊस	-11.1489
▁घाबरले	-11.149
गांव	-11.1492
▁शांघाय	-11.1498
▁खांब	-11.1498
▁परिचित	-11.1499
▁स्वतंत्रपणे	-11.1499
▁चिंते	-11.1503
▁अपूर्ण	-11.1504
▁साध्या	-11.151
▁गुंतागुंती	-11.151
▁शकली	-11.151
▁HGH	-11.1512
वर्धन	-11.1513
▁इतिहासातील	-11.152
▁नविन	-11.1522
▁संसाधने	-11.1525
▁आर्	-11.1525
▁प्लेयर	-11.1527
▁विसरणार	-11.1529
▁बोलव	-11.153
▁Ac	-11.1535
▁लग	-11.1536
PA	-11.1538
▁उत्तीर्ण	-11.154
▁फलंदाजी	-11.1545
सुधा	-11.1547
▁सेवन	-11.1548
▁प्रश्नः	-11.1554
▁जनरेटर	-11.1554
▁शौचालय	-11.1554
▁ड्रेस	-11.1554
▁मोर्चा	-11.1555
▁गुंडाळी	-11.1555
▁एवढं	-11.1559
ata	-11.156
▁बनवते	-11.156
▁राखून	-11.156
ert	-11.1564
▁महापौर	-11.1568
▁सुदैवाने	-11.1568
▁स्नान	-11.1569
▁शुक्र	-11.158
▁inter	-11.1581
▁पोहोचले	-11.1582
▁अवशेष	-11.1583
ाविरुद्ध	-11.1584
▁बाण	-11.1587
▁२०००	-11.1589
▁वाचलं	-11.1589
पूर्ती	-11.159
▁व्हावी	-11.1591
▁संपादित	-11.1596
▁राजकारणी	-11.1601
स्ट्री	-11.161
▁खिडक्या	-11.161
▁हेलिकॉप्टर	-11.161
▁बोलायचं	-11.1611
▁मंगळवार	-11.1612
▁सोपव	-11.1612
▁मुलाचा	-11.1613
▁सोडू	-11.1614
▁क्षणात	-11.1617
▁बनण्या	-11.1617
ual	-11.1624
▁अमर्यादित	-11.1624
▁खनिज	-11.1624
▁थकवा	-11.1626
▁मुलाचे	-11.1629
७७	-11.1629
टेन	-11.1631
शान	-11.1633
▁घडून	-11.1634
▁वाचण्यासाठी	-11.1636
▁खुला	-11.1637
▁खेळणी	-11.1639
▁आडनाव	-11.1639
▁त्यांच्यासोबत	-11.1643
ांनुसार	-11.1646
▁देवो	-11.1647
▁घेण्याचे	-11.1649
▁नसल्या	-11.1652
▁वितरित	-11.1652
▁रकमे	-11.1652
▁रिक्षा	-11.1652
▁तुझ्याशी	-11.1655
▁शरीरातील	-11.1658
13)	-11.1659
ali	-11.1662
कर्ष	-11.1663
▁मनुष्याच्या	-11.1666
▁गावे	-11.1666
41)	-11.1667
▁यंत्रणे	-11.167
▁यिर्मया	-11.167
▁लिहितात	-11.1671
पाट	-11.1672
मेट	-11.1675
▁फारो	-11.1675
▁उपोषण	-11.168
▁स्टेरॉइड	-11.168
▁हिरव्या	-11.168
▁एकेकाळी	-11.1681
मोठ्या	-11.1687
▁झुक	-11.1687
-01	-11.1691
ane	-11.1691
▁रूग्ण	-11.1694
▁कालबाह्य	-11.1695
▁ऍसिड	-11.1695
▁पर्वा	-11.17
▁हायड्रो	-11.1708
पश्चात्ताप	-11.1709
▁थायलंड	-11.1709
▁दृढ	-11.1709
BC	-11.1711
▁प्रवृत्ती	-11.1711
▁दिलासा	-11.1713
gn	-11.1713
्स्ट	-11.1714
get	-11.172
▁होस्ट	-11.1722
▁पिवळा	-11.1723
▁कविते	-11.1723
▁बर्लिन	-11.1724
▁पाचवा	-11.1724
▁बनते	-11.1725
▁थोडेसे	-11.173
ध्व	-11.1735
400	-11.1737
▁खबरदारी	-11.1737
कार्ड	-11.1738
▁थोडासा	-11.174
▁माझ्यापेक्षा	-11.174
▁आयुष्याची	-11.1745
▁बेब	-11.1746
▁All	-11.1749
▁लग्नाला	-11.175
▁उभ्या	-11.1751
▁तह	-11.1751
▁पडण्या	-11.1752
▁अक्ष	-11.1753
▁द्वार	-11.1753
▁भडक	-11.1755
▁डीसी	-11.1759
होय	-11.176
▁जपानमध्ये	-11.1762
▁निर्धार	-11.1766
▁पडणे	-11.1767
85)	-11.1772
▁फेकून	-11.1772
▁वापरावे	-11.1779
▁अध्यात्म	-11.178
ावरुन	-11.178
▁(33	-11.178
▁येण्यास	-11.1781
ko	-11.1783
nc	-11.1785
▁कशामुळे	-11.1786
▁केळी	-11.179
▁तिकिट	-11.1794
▁उन्हाळा	-11.1796
▁वधू	-11.1801
ॉइड	-11.1804
▁मध्यरात्री	-11.1808
▁अभियंता	-11.1808
▁ऑक्सिजन	-11.1808
▁विभाजन	-11.1808
▁हिरो	-11.181
कृष्ण	-11.181
▁चिकन	-11.1812
▁ठेऊ	-11.1812
किशोर	-11.1816
37)	-11.1818
▁Car	-11.1818
▁कुठ	-11.1819
▁परिपक्व	-11.1824
▁युध्द	-11.1825
▁तत्त्वे	-11.1826
▁समजतात	-11.1829
▁शरीराचे	-11.1836
६६	-11.1836
▁उष्ण	-11.1836
▁पालकांनी	-11.1837
▁नम्र	-11.1837
dd	-11.1837
क्री	-11.1837
140	-11.1838
Indian	-11.1838
▁सांगायचं	-11.1838
45)	-11.1843
▁आणल्या	-11.185
▁साहजिकच	-11.1851
▁स्टोरेज	-11.1851
खो	-11.1852
▁माधव	-11.1854
▁दिसायला	-11.1856
▁खाती	-11.1856
▁मासा	-11.186
चालक	-11.1864
▁चुंबन	-11.1866
▁घंटा	-11.1866
▁भाष्य	-11.1866
▁बसतो	-11.1868
▁पटकन	-11.1869
▁चमकदार	-11.1869
▁गार्डन	-11.1871
ात्म	-11.1872
▁टाइम	-11.1873
▁मॅग	-11.1874
▁प्रकरणे	-11.1875
▁अडव	-11.1875
▁पलिष्ट्यां	-11.188
▁मोटारसायकल	-11.188
▁मिळतं	-11.188
कॉन	-11.1881
46)	-11.1881
विभाग	-11.1881
__	-11.1882
▁हॉटेलमध्ये	-11.1882
▁गुरुदेव	-11.1884
पुरते	-11.1886
▁एवढंच	-11.1889
▁PM	-11.189
▁ऑल	-11.1892
▁गुंतवणुकी	-11.1894
▁विजेते	-11.1895
RS	-11.1899
▁समजतो	-11.1902
वृत्ती	-11.1909
▁प्रीति	-11.1911
yn	-11.1911
▁द्वि	-11.1915
▁म्हणेन	-11.1916
▁सुटे	-11.1916
▁वकिल	-11.1917
▁मळ	-11.1918
▁वाटून	-11.1922
▁शिकू	-11.1928
ांसारखे	-11.1932
▁अंगण	-11.1933
ring	-11.1934
▁Or	-11.1936
▁चिकित्सा	-11.1938
▁Rikoooo	-11.1938
▁क्रमाने	-11.194
▁वाळवंट	-11.1941
▁मनुष्याचा	-11.1942
▁जॉब	-11.1943
क्रिया	-11.1945
az	-11.1947
▁सभेत	-11.1948
▁ट्रेड	-11.1951
▁वागणूक	-11.1954
HE	-11.1955
▁आणतो	-11.1957
▁कन्या	-11.1958
▁कदम	-11.1959
▁शांति	-11.1963
▁आव्हाने	-11.1963
▁कुटुंबाला	-11.1964
lf	-11.1964
▁वृध्द	-11.1967
▁Get	-11.197
▁मिळायला	-11.197
92)	-11.1972
इंग्रजी	-11.1974
▁सावंत	-11.1978
▁विठ्ठल	-11.1982
▁२००६	-11.1982
▁फाट	-11.1983
▁वैशिष्ट्यांचे	-11.1987
मध	-11.1988
▁त्यांच्याबद्दल	-11.1988
▁कमीतकमी	-11.1996
▁परकीय	-11.1996
▁जितके	-11.1996
▁हिंसाचार	-11.1996
fr	-11.1999
▁टाकणार	-11.2001
▁इजा	-11.2002
▁नळी	-11.2002
▁सदस्यता	-11.2002
▁ठेवण्याची	-11.2003
▁चित्रीकरण	-11.2003
ram	-11.2004
▁झोपेत	-11.2007
▁थांबणार	-11.2008
▁बनवली	-11.2012
LI	-11.2017
शहा	-11.2022
▁घरच्यां	-11.2025
▁संयम	-11.2031
▁बियाणे	-11.2032
विवाह	-11.2033
arch	-11.2033
तुझे	-11.2034
▁होईना	-11.2035
▁वाचल्या	-11.2037
▁कृत्ये	-11.2038
▁नाराजी	-11.2039
▁क्रमवारी	-11.204
▁खरेदीदार	-11.2048
▁जमाती	-11.2049
▁महत्वपूर्ण	-11.2056
▁जाणवते	-11.2061
▁हट्ट	-11.2065
▁सेटिंग्ज	-11.2069
▁दिवसापासून	-11.207
▁गांधीजी	-11.2071
▁स्त्रियांसाठी	-11.2073
व्हो	-11.2076
पुस्तक	-11.2078
▁समाजाच्या	-11.2083
▁गरोदर	-11.2084
ise	-11.2087
▁निवासी	-11.2088
▁करायचो	-11.209
▁खिळ	-11.2094
89)	-11.2098
▁अकादमी	-11.2098
स्टोन	-11.2099
पोटी	-11.21
75)	-11.2103
char	-11.2104
▁नॉटी	-11.2104
▁ओव्हर	-11.2108
▁सुरुवातीपासून	-11.2113
eck	-11.2114
▁दुर्मिळ	-11.2114
76)	-11.2114
▁अधीन	-11.2116
▁पाडले	-11.2117
▁निवडलेल्या	-11.2117
▁मिळविले	-11.212
▁योनी	-11.2124
▁54	-11.2125
▁गंगा	-11.2126
▁अनावश्यक	-11.2128
▁यामागचे	-11.2128
▁तुम्हांस	-11.2128
▁पोकळ	-11.2131
▁ताबा	-11.2131
▁माध्यमिक	-11.2133
▁कुंभ	-11.2133
▁आरोग्यासाठी	-11.2136
▁यांच्याकडे	-11.2142
▁cryptocurrency	-11.2142
▁अग्रगण्य	-11.2142
▁फर्निचर	-11.2142
▁उत्पाद	-11.2145
▁होवो	-11.2146
▁दुराव	-11.2146
▁मिळवता	-11.2151
▁बदलेल	-11.2151
▁तत्काळ	-11.2157
▁शुध्द	-11.2158
You	-11.2168
▁एकदिवसीय	-11.2172
ject	-11.2174
cess	-11.2177
▁किंबहुना	-11.2187
▁दुर्घटना	-11.2187
▁लक्झरी	-11.2187
▁तुर्की	-11.2187
▁पितळ	-11.2189
62)	-11.2189
▁१९९०	-11.2189
▁कापून	-11.2189
▁व्यावहारिक	-11.2202
▁मिग्रॅ	-11.2202
▁वाणी	-11.2205
▁जगणे	-11.2205
▁मुद्दाम	-11.2205
▁देशातून	-11.2209
▁लेप	-11.2209
▁सत्	-11.221
''.	-11.2211
▁ऑफिसमध्ये	-11.2213
90)	-11.2215
▁अभिनंदन	-11.2217
▁लिहिणार	-11.2217
▁शिष्यवृत्ती	-11.2217
fin	-11.2219
▁टाकण्यात	-11.2222
48)	-11.2225
▁प्रशासक	-11.2229
▁२००१	-11.223
▁तंबू	-11.2232
▁माझ	-11.2232
्मय	-11.2234
▁रोहित	-11.2235
▁सर्वसाधारणपणे	-11.2236
▁देशांनी	-11.2241
▁उतरव	-11.2244
रोध	-11.2245
▁गोंदणे	-11.2248
▁ग्रूप	-11.2248
डॉ	-11.2251
log	-11.2252
▁चांद	-11.2256
▁कळतं	-11.2261
संगीत	-11.2261
▁फंक्शन	-11.2261
▁टोय्स	-11.2261
▁मंदिराच्या	-11.2262
▁कैद्यां	-11.2266
▁विजेता	-11.2267
२१	-11.2271
xBet	-11.2276
▁संपुष्टात	-11.2276
▁फौज	-11.2277
▁चाललो	-11.228
▁पेटंट	-11.228
back	-11.2289
पवित्र	-11.229
▁सखोल	-11.2291
▁रवाना	-11.2291
▁Comments	-11.2292
▁पार्किंग	-11.2293
भावना	-11.2295
▁भरणा	-11.2302
▁लिटर	-11.2302
▁यॉर्क	-11.2306
▁बुरशी	-11.2307
▁सारांश	-11.2308
पासुन	-11.2309
▁वळव	-11.2309
ऑफ	-11.2316
२६	-11.2317
▁गडकरी	-11.2323
▁see	-11.2323
▁ज्यू	-11.2326
1.1	-11.2329
time	-11.2331
▁दोघांची	-11.2331
▁वाढतो	-11.2334
▁Phone	-11.2336
▁आकलन	-11.2337
ेटिव्ह	-11.234
▁शिक्षणासाठी	-11.2346
▁काढण्याची	-11.2349
▁घोळ	-11.2352
▁होईन	-11.2357
▁ओठ	-11.2358
▁वडिलांच्या	-11.2358
▁विश्‍व	-11.2363
▁तपासून	-11.2365
▁दिल्याबद्दल	-11.2366
▁पूर्तता	-11.2367
▁मोकळी	-11.2367
▁कॅन्सर	-11.2367
▁रोमांचक	-11.2368
▁दर्शविले	-11.2369
▁रॉयल	-11.2369
▁04:	-11.237
▁ख्रिस्ताच्या	-11.237
▁महिलांच्या	-11.2372
▁कुणालाही	-11.2373
▁पोप	-11.2374
▁सीडी	-11.2377
भेद	-11.2378
▁मुलींची	-11.2379
फुल	-11.2382
▁कमजोर	-11.2382
▁परिषदेत	-11.2382
cm	-11.2382
▁स्पेस	-11.2388
क्यु	-11.239
▁बार्	-11.239
▁पिऊन	-11.2391
▁मतदानाचा	-11.2391
▁New	-11.2395
▁किनाऱ्या	-11.2397
word	-11.2401
▁जिद्द	-11.2403
▁जिंकण्यासाठी	-11.2409
▁भाजी	-11.241
▁अलीकडील	-11.2412
▁वेस्टर्न	-11.2413
91)	-11.2416
▁कुत्र्यां	-11.2417
▁उचलून	-11.2417
स्का	-11.2419
▁सत्तेत	-11.242
नुरूप	-11.2421
▁म्हणणं	-11.2421
▁निर्देशक	-11.2424
▁अनिवार्य	-11.2427
▁निमंत्रण	-11.2427
arm	-11.2427
▁लिहिलं	-11.2428
आऊट	-11.2429
बाग	-11.2429
▁फ्लाइट	-11.243
डीएस	-11.2431
प्रमुख	-11.2432
▁पेटी	-11.244
▁पोहोचलो	-11.2442
▁दिवसेंदिवस	-11.2443
▁स्कूटर	-11.2443
▁मुंडे	-11.2449
न्द	-11.2449
▁वर्षातून	-11.245
▁कोणतं	-11.2451
▁मैत्रीण	-11.2452
ाइज	-11.2453
▁Ni	-11.2457
▁नेत्यांना	-11.2457
▁गृहीत	-11.2458
▁have	-11.2461
▁कुठलीही	-11.2462
▁वाचवू	-11.2464
▁स्थलांतरित	-11.2465
▁परवडणार	-11.2467
▁शहरांमध्ये	-11.2485
व्यवहार	-11.2488
▁विष्णू	-11.2488
▁पंडित	-11.2488
▁वाद्य	-11.2489
▁करायचंय	-11.2491
सीएस	-11.2491
▁वाढवण्यासाठी	-11.2496
▁वतन	-11.2499
वाहिनी	-11.25
▁Com	-11.2501
▁तारखेला	-11.2502
वार्ता	-11.2503
▁पदक	-11.2503
▁साथीदार	-11.2504
▁पायाभूत	-11.2505
▁सर्व्ह	-11.2506
▁बोलतोय	-11.2509
▁ठेवावा	-11.251
▁बाळाच्या	-11.252
ाशय	-11.2521
▁नेहमीप्रमाणे	-11.2523
▁हर्	-11.2523
▁वाचताना	-11.2524
▁विकेट	-11.2527
▁Red	-11.2531
800	-11.2534
▁सुरळीत	-11.2534
▁चुकून	-11.2536
स्ट्रो	-11.2537
EC	-11.2539
▁माणसाची	-11.2544
▁पत्कर	-11.255
▁महसूल	-11.255
49)	-11.255
▁रॅप	-11.2552
▁वेगळेपण	-11.2556
▁धारणा	-11.2563
▁अडथळे	-11.2565
▁प्रचलित	-11.2565
▁शाकाहारी	-11.2565
▁२००५	-11.2567
▁व्हावा	-11.2572
फॉर्म	-11.2574
▁बांधली	-11.2575
▁Lu	-11.2577
▁तपकिरी	-11.2581
▁प्रस्तुत	-11.2581
▁परीक्षक	-11.2581
▁म्हणायचं	-11.2581
▁चित्रकला	-11.2582
५७	-11.2583
uk	-11.2584
्रु	-11.2586
▁but	-11.2587
▁नवरात्र	-11.2587
▁शिक्षकांना	-11.2587
४३	-11.2589
यचो	-11.2589
▁पाहणी	-11.2594
▁उजळ	-11.2597
▁ऍड	-11.2597
gan	-11.2598
▁विलीन	-11.2598
▁थोडीशी	-11.2606
▁वर्षातील	-11.2607
▁फेरीत	-11.2608
▁कपात	-11.2609
▁जगातल्या	-11.2611
▁असोसिएशन	-11.2612
▁पावसाळ्यात	-11.2612
५९	-11.2615
स्तु	-11.2621
Hz	-11.2622
▁सांगेन	-11.2626
▁अपार्टमेंट	-11.2627
82)	-11.2628
▁बाथरूम	-11.2628
▁ग्रहण	-11.263
▁नंद	-11.2631
डेक्स	-11.2631
▁आणी	-11.2633
▁भिड	-11.2634
af	-11.2635
▁राब	-11.264
▁दाखवणार	-11.2642
▁कठिण	-11.2643
▁मलेशिया	-11.2643
प्रकाश	-11.2644
▁कुणीतरी	-11.2646
▁रूपात	-11.2652
▁सैन्याने	-11.2653
3.5	-11.2654
▁ओरडत	-11.2655
▁थांबली	-11.2656
▁गॅलरी	-11.2658
▁डेटाबेस	-11.2659
zz	-11.266
▁देवस्थान	-11.2663
▁घेणं	-11.2665
▁प्रीती	-11.2666
निवड	-11.2669
International	-11.2674
▁कालांतराने	-11.2674
▁नुकताच	-11.2674
मिया	-11.2676
▁बनतो	-11.2677
▁तुमच्याकडून	-11.268
▁आरती	-11.2682
▁स्पाइ	-11.2685
▁भावंड	-11.2686
▁पळा	-11.2688
▁दूरध्वनी	-11.2689
ium	-11.2692
▁चित्त	-11.2696
▁यातना	-11.2696
▁कैदी	-11.2698
बिया	-11.27
थोड	-11.27
▁आतून	-11.2702
▁ट्विट	-11.2706
▁सोस	-11.2707
▁समीकरण	-11.2707
▁कार्यकर्त्यांनी	-11.2712
▁समृद्धी	-11.2716
ठीक	-11.2718
▁Ke	-11.2719
▁Question	-11.2721
▁अनपेक्षित	-11.2721
▁घडामोडी	-11.2721
▁सोप्या	-11.2721
▁बघितलं	-11.2721
▁One	-11.2728
▁sc	-11.273
61)	-11.273
52)	-11.2732
▁गाल	-11.2732
▁पाचव्या	-11.2733
▁बॉस्	-11.2734
▁स्टेरॉईड	-11.2736
▁भेदभाव	-11.2737
▁दर्शवा	-11.2741
▁विकासासाठी	-11.2743
▁मागून	-11.2746
▁परिणामकारक	-11.2746
विज्ञान	-11.2748
युद्ध	-11.2749
▁कुठली	-11.2749
▁रॉबर्ट	-11.2752
▁बोईंग	-11.2752
▁मोशेने	-11.2756
ाधीन	-11.2758
▁बापू	-11.2758
प्रती	-11.2766
व्यवस्थे	-11.2768
▁उपभोग	-11.2768
▁तटस्थ	-11.2768
▁मुक्काम	-11.2768
▁वेढ	-11.2769
▁गायी	-11.2773
▁दोघांचे	-11.2779
▁इनपुट	-11.2783
▁टाइप	-11.2783
▁सांड	-11.2785
८८	-11.2785
▁पसरले	-11.2792
▁काढायला	-11.2792
▁घडवि	-11.2796
▁नागरिकत्व	-11.2797
▁अब्	-11.2798
▁बांधण्यात	-11.2798
▁इस्टेट	-11.2799
▁Holm	-11.2799
▁लिहिल्या	-11.28
▁iOS	-11.28
▁फील्ड	-11.2801
अकस	-11.2805
▁पेमेंट	-11.2805
▁नक्षल	-11.2809
▁तुमच्यापेक्षा	-11.281
▁आराखडा	-11.2815
▁बेपत्ता	-11.2815
PE	-11.2816
TV	-11.2819
ful	-11.282
इंट	-11.2823
▁ज्यांची	-11.2829
▁नवऱ्या	-11.283
▁छावणी	-11.2831
हाउस	-11.2831
फेक	-11.2835
▁अंत्य	-11.284
मोह	-11.2842
▁धडे	-11.2845
▁विक्रेत्या	-11.2847
▁चुकीचं	-11.2847
▁पट्टा	-11.2848
▁जांभ	-11.2848
ेट्स	-11.2848
▁लॅब	-11.2852
▁पीएच	-11.2857
▁ट्रेंड	-11.2858
▁प्रवेशद्वार	-11.2859
प्लिकेशन	-11.2863
▁लीग	-11.287
▁माहितीनुसार	-11.2873
▁प्रेरित	-11.2879
▁कुंपण	-11.2879
शर्ट	-11.2879
▁त्यापूर्वी	-11.2879
▁ताजे	-11.2881
▁कमांड	-11.2882
▁अध्यक्षपद	-11.2885
▁मरतात	-11.2886
▁कागदावर	-11.2886
▁३३	-11.2888
▁टाटा	-11.2893
pol	-11.2893
▁४००	-11.2894
▁दर्जेदार	-11.2894
▁लॅपटॉप	-11.2894
▁विधवा	-11.2895
▁सजीव	-11.2895
द्रोह	-11.2897
▁News	-11.29
क्लि	-11.2902
६०	-11.2905
अभि	-11.2907
▁शूट	-11.2909
▁निश्चय	-11.2911
▁हिडन	-11.2911
(15	-11.2912
नवीन	-11.2913
▁स्टॅक	-11.2917
2012	-11.2918
▁आकडे	-11.2918
▁And	-11.2918
▁सेमी	-11.2923
▁कर्मचाऱ्यांना	-11.2925
ley	-11.2926
▁एचजीएच	-11.2926
▁वृषणात	-11.2926
▁सोडतीचे	-11.2927
▁कंटाळा	-11.2927
▁काढणार	-11.2932
▁दुष्	-11.2933
▁बोलावून	-11.2933
▁पशू	-11.2934
७९	-11.2935
▁घडतात	-11.2935
▁अ‍ॅड	-11.2937
▁jackpot	-11.2942
▁कॅलिफोर्निया	-11.2942
▁समायोजित	-11.2942
नाशक	-11.2943
पुणे	-11.2944
▁व्याजदर	-11.2945
पद्धती	-11.2945
ker	-11.2946
▁मंदी	-11.2946
▁ग्राहकांच्या	-11.2951
▁नितीन	-11.2953
▁ठाण्या	-11.2953
▁परवड	-11.2953
que	-11.2958
▁पिंपरी	-11.2958
▁इंजिनिअर	-11.2959
▁सप	-11.2959
▁पराक्रम	-11.296
▁सौदी	-11.2963
एसई	-11.2964
▁व्रत	-11.2968
▁अडकले	-11.2973
RT	-11.2973
मंत्रिपद	-11.2975
▁अर्जुन	-11.2975
▁अभियान	-11.2977
ब्बा	-11.2978
▁साईट	-11.298
▁संगणकावर	-11.2983
▁सभ्य	-11.299
▁सुस्पष्ट	-11.299
▁सुसज्ज	-11.299
▁एटीएम	-11.2991
▁तोडगा	-11.2991
▁बाहेरील	-11.3005
▁परंपरे	-11.3007
▁ISO	-11.3007
▁कोणाशी	-11.3011
निश्च	-11.3015
▁xHamster	-11.3023
▁नोटीस	-11.3024
६८	-11.3025
▁कोटींची	-11.3028
▁तीव्रता	-11.3028
other	-11.3032
TE	-11.3032
क्‍ट	-11.3034
लॅंड	-11.3037
▁यहोशवा	-11.3039
▁ग्रॅ	-11.304
▁ड्रम	-11.304
▁निर्बंध	-11.3042
chan	-11.3042
रेषे	-11.3044
७८	-11.3046
▁घेवून	-11.3047
▁शेर	-11.3048
▁ग्लोबल	-11.3055
▁महापालिका	-11.3055
▁प्रार्थने	-11.3055
▁पुराण	-11.3056
दैव	-11.3056
▁संसाधन	-11.3057
▁डोक्या	-11.3057
अभय	-11.3059
स्त्री	-11.306
TH	-11.3066
भूषण	-11.3068
▁संवेदना	-11.3071
▁प्लगइन	-11.3072
इस्राएल	-11.3079
योहान	-11.3081
वाल्यां	-11.3086
▁स्वाक्षरी	-11.3087
▁खोट्या	-11.309
८७	-11.3096
रॉन	-11.3101
८६	-11.3102
▁पेज	-11.3105
▁कॅट	-11.3105
▁लव	-11.3106
▁त्रासदायक	-11.3108
पुरवठा	-11.3108
▁Jo	-11.3111
▁जोरात	-11.3111
▁अतुल	-11.312
▁वायरलेस	-11.312
▁जिंकण्या	-11.3121
▁Mon	-11.3122
▁हिरवा	-11.3125
▁दुखत	-11.313
बॉक्स	-11.3131
▁वाटेत	-11.3131
▁चतुर	-11.3134
▁बंधनकारक	-11.3137
▁गोठ	-11.3139
▁उतरले	-11.3139
2016	-11.3139
▁लावतात	-11.3147
RC	-11.3147
0.3	-11.3148
▁अॅक्सेसरीज	-11.3153
▁कँडी	-11.3153
ries	-11.3155
▁यहो	-11.3156
२२	-11.3157
▁फुग	-11.3161
पति	-11.3164
▁चांदण्या	-11.3165
▁धरले	-11.3167
▁विचारसरणी	-11.3169
▁iPhone	-11.3169
▁समतोल	-11.3169
▁हत्यार	-11.3172
▁साधकांना	-11.3175
९५	-11.3176
▁नागरिकांनी	-11.3179
सिंह	-11.3179
स्तरीय	-11.3181
▁साठा	-11.3184
▁बांधव	-11.3184
▁सर्जनशील	-11.3185
▁डोमेन	-11.3185
fu	-11.3187
▁खुद्द	-11.3188
FA	-11.319
▁info	-11.3191
▁पर्स	-11.3192
▁१५०	-11.3194
▁चैतन्य	-11.3202
▁रहिवासी	-11.3202
▁संरक्षक	-11.3205
ments	-11.3206
▁दहशतवाद्यां	-11.3208
▁मेथ	-11.3208
खेळ	-11.3208
इंग	-11.3209
▁विचारवंत	-11.3212
▁ओघ	-11.3214
▁ऐकल्या	-11.3214
▁नखे	-11.3216
▁आजूबाजूला	-11.3216
▁जायचंय	-11.3218
▁रिचर्ड	-11.3218
▁युनिव्हर्सिटी	-11.3219
▁इंग्लंडमध्ये	-11.322
▁आरामदायक	-11.322
ब्रि	-11.3222
vent	-11.3222
▁भारतामध्ये	-11.3233
▁doubt	-11.3235
▁आवर्जून	-11.3235
▁साहस	-11.3238
▁HD	-11.3243
निर्मित	-11.3246
▁सामान्यपणे	-11.3247
▁प्रथिने	-11.3249
विष्कार	-11.3251
▁जिल्हाधिकारी	-11.3251
▁क्षणभर	-11.3259
ल्ले	-11.3261
▁प्रोमो	-11.3261
▁डोकेदुखी	-11.3268
▁आडिशन	-11.3268
▁पोर्टेबल	-11.3268
▁पद्म	-11.3269
▁समाजासाठी	-11.3271
▁झेप	-11.3274
▁जमाव	-11.328
व्हायरस	-11.328
समलैंगिक	-11.3284
▁संकलित	-11.3284
▁Play	-11.3285
▁पुढ	-11.3285
▁कल्पने	-11.3285
▁मानसिकता	-11.3286
▁Off	-11.3287
▁मनोमन	-11.3287
▁खुल्या	-11.3288
▁सुरुवातीच्या	-11.3288
▁आईवडील	-11.3289
▁ओझे	-11.3291
▁घालवू	-11.3293
फिन	-11.3296
▁पॅशनेट	-11.3301
▁सिंहासन	-11.3301
▁परतफेड	-11.3301
▁घालतात	-11.3302
▁सद्य	-11.3304
▁जाणवेल	-11.3304
▁कुंड	-11.3306
▁छायाचित्रे	-11.3307
▁शिकणे	-11.3308
▁सीए	-11.3309
▁बनतात	-11.3314
▁स्वाद	-11.3315
ण्याकरिता	-11.3317
▁ऑस्ट्रिया	-11.3318
▁अनियमित	-11.3318
▁ऍपल	-11.3319
▁मिळवण्या	-11.3319
▁Posted	-11.3323
▁कोपर	-11.3325
▁आर्म	-11.3325
▁125	-11.3325
परंतु	-11.3329
▁प्रेक्षकांना	-11.333
▁बॅंके	-11.3331
Fl	-11.3331
▁तब्येत	-11.3334
▁अयशस्वी	-11.3334
▁एखाद	-11.3335
▁अनिता	-11.3339
ंतर्गत	-11.3346
अजून	-11.3346
▁असणं	-11.3348
600	-11.3349
▁नुकतेच	-11.3351
▁साक्षात्कार	-11.3351
▁अलीशा	-11.3351
sex	-11.3351
▁नसलेले	-11.3356
त्यांनी	-11.3358
▁लग्नानंतर	-11.3362
▁मार्केटिंग	-11.3363
▁टायर	-11.3365
▁अपरिहार्य	-11.3368
▁तत्कालीन	-11.3368
▁गूढ	-11.3368
गेट	-11.3373
ट्रे	-11.3384
▁बिअर	-11.3384
किशोरी	-11.3385
▁वसूल	-11.339
७६	-11.3392
▁3:1	-11.3393
▁स्थाप	-11.3394
▁दंत	-11.3399
▁निर्मात्या	-11.3401
▁करोड	-11.3403
▁जीपीएस	-11.3405
▁सरकारकडून	-11.3409
्रिक	-11.341
bit	-11.3411
▁फॅन	-11.3414
▁इम्	-11.3414
▁बघणार	-11.3418
▁देशपांडे	-11.3418
▁सार्वत्रिक	-11.3418
▁वर्चस्व	-11.3418
▁विषारी	-11.3418
▁प्रत्यय	-11.3418
▁चू	-11.3418
▁पिल्ल	-11.3419
▁राखण्यासाठी	-11.3419
▁Bit	-11.342
▁2003	-11.3423
ano	-11.3423
▁याचिका	-11.3426
एमआय	-11.343
cha	-11.343
▁ठेवलं	-11.3432
▁वाढीव	-11.3433
आठ	-11.3434
▁तड	-11.3434
▁अस्थिर	-11.3435
MI	-11.3447
▁LED	-11.3453
▁शेतकऱ्यांची	-11.3456
▁एकत्रितपणे	-11.346
▁स्ट्रिंग	-11.3463
क्षमता	-11.3466
गोओ	-11.3468
▁जगतो	-11.3468
▁उत्तेजन	-11.3468
▁कॉर्पोरेशन	-11.3468
▁व्हायरल	-11.3468
▁व्हॅक्यूम	-11.3468
खेरीज	-11.3468
▁रुपयांचा	-11.347
▁नेत्र	-11.3473
▁बेडरूम	-11.3475
▁महिलांची	-11.3475
love	-11.3479
्‍हा	-11.348
▁अत्याधुनिक	-11.3485
▁प्रोत्साहित	-11.3485
▁मेकअप	-11.3485
▁मार्टिन	-11.3485
▁सोपं	-11.3485
लिप	-11.349
tube	-11.3494
▁संपूर्णपणे	-11.3495
▁ज्योतिष	-11.3502
▁कंत्राट	-11.3502
▁जयंती	-11.3502
▁२००७	-11.3503
▁शिक्का	-11.3504
▁टिकून	-11.3506
▁सनद	-11.3508
▁आर्क	-11.351
▁शेवटपर्यंत	-11.3511
▁मेजवानी	-11.3519
▁परिश्रम	-11.3519
▁प्लस	-11.352
▁थांबवि	-11.3524
७०	-11.3525
43)	-11.3528
▁स्‍	-11.3533
शास्त्रज्ञ	-11.3534
▁पोर्तुगीज	-11.3536
▁छप्पर	-11.3536
▁Power	-11.3536
वणुकी	-11.3541
▁रूपांतरित	-11.3548
999	-11.3549
मुख्यमंत्र्यांनी	-11.355
▁अनिल	-11.355
▁राजस्थान	-11.355
▁पिशव्या	-11.3553
123	-11.3557
▁स्टेज	-11.3559
▁मिरव	-11.356
▁कॉम्प	-11.3561
▁सासर	-11.3564
ारंभ	-11.3566
▁1:1	-11.3569
▁लाइव्ह	-11.357
▁स्टुडिओ	-11.357
▁smile	-11.357
▁शिबिर	-11.357
▁उधळ	-11.357
ॅम्प	-11.3572
▁किट	-11.3578
PO	-11.3582
▁४२	-11.3586
▁तटबंदी	-11.3587
्फेट	-11.3589
▁स्पॉट	-11.359
▁अत्यावश्यक	-11.3604
▁एसीटेट	-11.3604
▁ठिय्या	-11.3604
▁साप्ताहिक	-11.3604
▁स्वास्थ्य	-11.3604
▁आठवतंय	-11.3604
▁बनवतात	-11.3606
▁झटका	-11.3607
▁रास्त	-11.3612
सूत्र	-11.3616
1.3	-11.3618
म्हणे	-11.3618
थ्र	-11.3619
▁नारळ	-11.362
▁विक्रेता	-11.3621
▁National	-11.3623
▁कॉटन	-11.3624
101	-11.3625
▁name	-11.3626
▁दत्तक	-11.3627
MT	-11.3627
▁नित्य	-11.3637
▁लेन	-11.3638
▁रखड	-11.3639
वितात	-11.3641
▁काढतो	-11.3653
▁अनुभूती	-11.3656
▁मागितले	-11.3656
▁share	-11.3657
▁कलावंत	-11.366
▁प्रशांत	-11.3661
▁आधीपासूनच	-11.3661
▁बाप्पा	-11.3661
मधले	-11.3662
▁cr	-11.3664
▁बनलेले	-11.3664
▁कंपन्यांना	-11.3666
▁विभागीय	-11.3667
▁Author	-11.3673
▁दृष्टि	-11.3673
▁निरीक्षक	-11.3673
▁कबुली	-11.3673
▁गुरुजी	-11.3673
▁अपडेट	-11.3673
▁विद्यालय	-11.3673
▁टॅबलेट	-11.3673
▁ड्रोन	-11.3675
▁गंतव्य	-11.369
▁नूतनीकरण	-11.369
▁नौदल	-11.369
▁एक्सचेंज	-11.369
▁खुर्ची	-11.369
▁क्रिप्टो	-11.3694
मिथ	-11.3694
त्पाद	-11.3698
▁कस्तुरी	-11.3707
▁पदार्पण	-11.3707
एफटी	-11.3708
▁साजरी	-11.3708
▁प्रसारित	-11.3711
▁तपशीलवार	-11.3713
▁उतारा	-11.3715
▁सभागृह	-11.3717
बीएस	-11.3718
▁शीत	-11.3718
▁अक्षम	-11.3721
▁अधिकार्‍यां	-11.3722
६७	-11.3724
▁सत्ताधारी	-11.3726
bb	-11.3732
▁झाल	-11.3739
▁मूर्खपणा	-11.374
▁मादी	-11.3742
मुंबई	-11.3742
▁Instagram	-11.3742
▁absolute	-11.3742
▁पुस्तिका	-11.3742
निर्देश	-11.3743
▁सपाट	-11.3743
play	-11.3744
kar	-11.3751
्लॉ	-11.3753
▁लढणार	-11.3758
▁एजन्सी	-11.3759
▁Deposit	-11.3759
▁तेवढं	-11.3759
▁खटला	-11.376
▁मुलभूत	-11.376
ization	-11.3762
▁विजेत्या	-11.377
▁तुझ्याबरोबर	-11.3776
▁नॅशनल	-11.3777
▁पारितोषिक	-11.3777
▁निगडीत	-11.3777
(16	-11.378
▁---	-11.378
▁उमज	-11.3782
▁तिघां	-11.3787
▁न्यूज	-11.3788
▁कार्यकाळ	-11.3789
▁आणतात	-11.3793
▁अश्लील	-11.3794
▁comp	-11.3796
▁उगाच	-11.3796
▁RA	-11.3799
▁होवू	-11.3801
▁राहण्याचा	-11.3801
प्रवास	-11.3803
▁मुलांमध्ये	-11.3804
▁मोदींनी	-11.3804
▁Ste	-11.3805
▁संतुलन	-11.3812
▁स्नानगृह	-11.3812
▁उपाध्यक्ष	-11.3814
रॉटिक	-11.3814
LO	-11.3815
▁अजय	-11.3817
▁खुलासा	-11.3817
स्थापित	-11.3817
▁मिलियन	-11.3817
▁लै	-11.3818
▁प्रवृत्त	-11.3818
CT	-11.3819
▁बांगलादेश	-11.3821
▁पॉप	-11.3827
▁भ्रष्ट	-11.3829
▁भौगोलिक	-11.3829
umb	-11.3836
▁सभागृहात	-11.3838
▁ग्रॉनी	-11.3847
▁शॉर्ट	-11.3847
▁स्क्वेअर	-11.3847
वयस्क	-11.3848
▁फ्रांस	-11.3849
८१	-11.3852
▁फॉलो	-11.3855
▁चालवायला	-11.3864
ग्रॅनड्पा	-11.3864
▁फाउंडेशन	-11.3864
▁तआला	-11.3864
▁मुद्रित	-11.3864
▁will	-11.3867
▁ओलांड	-11.3871
▁ज्यु	-11.3872
▁पत्त्या	-11.3882
▁खोलवर	-11.3882
▁केटोन	-11.3886
▁शेख	-11.3889
▁आंतरिक	-11.389
▁फाइल्स	-11.3891
▁जंत	-11.3892
▁नेवासे	-11.3899
▁व्यापाऱ्यां	-11.3899
pdf	-11.3899
▁आचरण	-11.39
▁आचरणात	-11.3903
बिग	-11.3907
▁टाळता	-11.3909
▁हंगेरी	-11.3917
▁लोकप्रतिनिधी	-11.3923
="10	-11.3929
▁corrup	-11.3935
▁चेतावणी	-11.3935
▁बाप्तिस्मा	-11.3935
▁मुद्द्यां	-11.3935
▁अकोला	-11.3935
▁सॉफ्ट	-11.3936
▁घाबरतात	-11.3937
▁Archives	-11.3939
▁टाकतो	-11.3942
येशू	-11.3943
▁अर्ध्या	-11.3944
▁होण्यापूर्वी	-11.3944
▁प्रतिज्ञा	-11.3949
▁थॉमस	-11.3952
▁नौका	-11.3953
▁टिप्स	-11.3953
▁श्रीराम	-11.3955
प्रणाली	-11.3956
▁नोकऱ्या	-11.3956
▁आर्य	-11.3957
▁चढाई	-11.3962
द्वारा	-11.3964
ough	-11.3964
▁नेत्यांनी	-11.3969
अच्छे	-11.397
▁त्यायोगे	-11.397
▁क्रोध	-11.397
ोक्त	-11.3971
▁कालखंड	-11.3973
val	-11.3973
ापुढे	-11.3974
rop	-11.3978
▁समाविष्टीत	-11.3982
▁बाथ	-11.3983
NC	-11.3983
▁बॉडीस्टॉकिंग	-11.3988
▁अर्धनग्न	-11.3988
▁टर्मिनल	-11.3988
▁बघितली	-11.3988
▁अनुसर	-11.3991
▁संचार	-11.3994
▁दावे	-11.3994
▁देखिल	-11.3997
count	-11.4001
▁तारखा	-11.4004
लौकिक	-11.4006
▁अनुसूचित	-11.4006
▁थेरपी	-11.4006
▁बेकायदेशीर	-11.4006
▁ओबीस	-11.4008
▁कार्यसंघ	-11.4011
▁उंचाव	-11.4011
rom	-11.4014
▁उगम	-11.4015
▁ठेऊन	-11.4018
▁स्पर्धक	-11.4023
▁Comp	-11.4024
▁अभिषेक	-11.4027
▁वाचकांना	-11.4027
पश्चिम	-11.4028
बाप	-11.4032
▁अंबा	-11.4041
▁सभापती	-11.4043
DE	-11.4043
पीपी	-11.4043
▁कनान	-11.4061
BS	-11.4062
▁ओळखतात	-11.4063
ham	-11.4065
भाजप	-11.4065
वंश	-11.4067
▁लॅटिन	-11.4077
्युलर	-11.4078
▁आजूबाजू	-11.4079
▁विरह	-11.4082
OL	-11.4085
▁होणं	-11.4087
ाक्षर	-11.4087
▁टॉर्चर	-11.4095
▁प्रतिष्ठित	-11.4095
तरुण	-11.4098
▁ऑपरेटर	-11.4106
द्रव्य	-11.4107
▁2:1	-11.4107
वाक्य	-11.4108
▁सर्दी	-11.4113
▁टु	-11.4114
TS	-11.4119
text	-11.412
▁कार्ल	-11.412
▁दालन	-11.4123
ष्म	-11.4125
▁बऱ्याचदा	-11.4125
▁अल्बम	-11.4127
▁मारणार	-11.4129
▁URL	-11.4131
▁must	-11.4131
▁इंडोनेशिया	-11.4131
▁संतुलित	-11.4131
▁व्याकरण	-11.4135
मंदिर	-11.4137
▁हलके	-11.4141
▁महेश	-11.4143
▁वाळवंटात	-11.4145
▁व्हर्	-11.4148
▁पडद्यावर	-11.4148
▁फिटिंग्ज	-11.4149
▁शिक्षिका	-11.4149
▁Title	-11.4149
▁थ्रेड	-11.4149
एशियाई	-11.4149
▁गंज	-11.4152
▁मार्क्स	-11.4157
NT	-11.4157
▁उसकी	-11.4157
ांबाबत	-11.4159
▁दावीदाने	-11.4161
▁दिवसांनंतर	-11.4161
▁इंडस्ट्री	-11.4167
▁पोषक	-11.4167
▁अठरा	-11.4167
▁क्षेत्रफळ	-11.417
▁अदृश्य	-11.4174
▁फास्ट	-11.4175
▁विझ	-11.4176
▁1.5	-11.4177
▁स्वार्थ	-11.4181
▁स्वयंपाकघरात	-11.4183
ान्व	-11.4183
▁असण्याचा	-11.4183
Blockchain	-11.4185
▁ऋषी	-11.4185
▁औपचारिक	-11.4185
▁सुप्रसिद्ध	-11.4185
▁Slots	-11.4185
▁नोबेल	-11.4186
▁पुरातन	-11.4186
▁खरेतर	-11.4188
▁कळप	-11.4188
▁खावे	-11.4193
▁जिंकून	-11.4194
▁मेलेल्या	-11.4196
▁car	-11.4197
▁शोधतो	-11.4201
▁रोमेनियन	-11.4204
▁छत्रपती	-11.4204
▁कॅलरी	-11.4204
▁free	-11.4207
ड्रो	-11.421
इंग्लिश	-11.4211
▁वारी	-11.4211
▁दाखविण्या	-11.4212
▁घेणाऱ्या	-11.4214
▁ओलांडून	-11.4215
हार्डकोर	-11.4216
▁पत्रिका	-11.4219
tain	-11.422
▁साहित्यिक	-11.422
▁चयापचय	-11.4222
▁साजरे	-11.4222
▁लीड	-11.4226
▁ऑपरेटिंग	-11.4227
▁टक्केवारी	-11.4227
▁कबर	-11.4234
▁वारंवारता	-11.4238
▁पसरव	-11.4239
▁टॅब्लेट	-11.424
▁50%	-11.424
▁बॉस्टन	-11.4241
डाउन	-11.4243
▁बोलण्याची	-11.425
▁सर्वश्रेष्ठ	-11.4258
▁संतोष	-11.4258
उत्पत्ती	-11.4258
▁परिमाण	-11.4261
ND	-11.4261
▁मुद्रा	-11.4263
▁खोटा	-11.4268
▁सातव्या	-11.4269
fun	-11.4272
▁सोम	-11.4275
▁अहमद	-11.4276
▁संप्रेषण	-11.4276
▁छपाई	-11.4276
▁हार्दिक	-11.4276
किती	-11.4279
▁नसल्यामुळे	-11.4281
▁गोंदण	-11.4282
▁लढाऊ	-11.4282
इतर	-11.4288
▁जिवे	-11.4288
ड्रि	-11.4291
▁मिनीट	-11.4292
▁प्राचार्य	-11.4295
द्वीप	-11.4295
▁अ‍ॅप	-11.4295
▁जगण्याचा	-11.43
2.1	-11.4303
CH	-11.4304
SH	-11.4307
▁चंद	-11.4316
top	-11.4325
▁आवक	-11.4326
▁खेळपट्टी	-11.4327
▁बनवतो	-11.4328
वाचून	-11.4329
▁राजकुमार	-11.433
friend	-11.4332
▁अशक्त	-11.4332
▁वितरीत	-11.4332
▁विनाश	-11.4335
ves	-11.4337
▁करण्यापेक्षा	-11.4338
EL	-11.4339
▁बँड	-11.4342
आरटी	-11.4347
ल्युमिनियम	-11.4349
▁विरोधाभास	-11.435
▁वर्तुळ	-11.435
▁लहानपणापासून	-11.435
▁चेहऱ्या	-11.435
▁उल्लेखनीय	-11.4352
▁गोपनीय	-11.4353
▁फूड	-11.4353
den	-11.4354
▁पुढं	-11.4356
ांकरिता	-11.4356
सामान्य	-11.4358
▁प्रयोगशाळे	-11.4358
▁सिस्टीम	-11.4361
olone	-11.4361
cus	-11.4364
▁रीड	-11.4365
घोड	-11.4367
▁What	-11.4368
▁गृहनिर्माण	-11.4369
blog	-11.4369
ांगण	-11.4371
८०	-11.4373
अर्थात	-11.4379
▁दिग्दर्शन	-11.4387
▁ध्रुव	-11.4387
5,000	-11.4389
▁वेश्या	-11.439
▁चेअर	-11.4392
▁समर्थित	-11.4401
▁प्रबंध	-11.4402
▁नियंत्रक	-11.4405
▁फिर्याद	-11.4406
▁Pri	-11.4412
ym	-11.4415
आधारित	-11.4416
न्झ	-11.4418
▁सांगेल	-11.4421
▁३२	-11.4424
▁प्रोसेसर	-11.4424
पापण्या	-11.4427
संदर्भातील	-11.4429
▁दुकानदार	-11.443
▁मागव	-11.4431
▁उकळ	-11.4433
▁डीजे	-11.4433
▁सहवास	-11.4434
ोलॉजी	-11.4441
▁Web	-11.4442
▁जीवाणू	-11.4442
▁दुनिये	-11.4442
dio	-11.4443
▁मापन	-11.4445
mor	-11.4447
▁आनंददायी	-11.445
▁वाजले	-11.4451
▁नेहरू	-11.4461
▁मूल्यमापन	-11.4461
▁मेंढपाळ	-11.4461
▁सिलेंडर	-11.4461
▁हातमोजे	-11.4461
▁अप्रतिम	-11.4461
ड्रॉ	-11.4463
▁चावी	-11.4464
▁मिटू	-11.4472
▁कोटिंग	-11.4476
▁सुभाष	-11.4477
▁गर्भधारणा	-11.448
ावस्थेत	-11.448
▁new	-11.448
▁नगरसेवक	-11.4481
▁नाईक	-11.4481
▁पंचायत	-11.4481
▁कुत्री	-11.4485
साधारण	-11.4486
▁देणं	-11.4487
▁निवासस्थान	-11.449
▁कोरडे	-11.4491
सागर	-11.4498
▁चार्ल्स	-11.4498
▁सर्किट	-11.45
फ्रा	-11.4502
▁होकार	-11.4504
▁पुढल्या	-11.4508
▁Trans	-11.451
▁बॅट	-11.4515
▁गैरसमज	-11.4517
▁नैराश्य	-11.4517
▁नमुन्या	-11.4517
▁नक्षत्र	-11.4517
▁मुख्यत्वे	-11.4518
▁एयर	-11.4519
ational	-11.4521
▁action	-11.4522
▁आढळते	-11.4522
▁विभक्त	-11.4523
▁उन्नत	-11.4524
▁लावणे	-11.4527
मागील	-11.4529
शुल्क	-11.453
बहु	-11.4533
विक्री	-11.4535
जेव्हा	-11.4536
▁मंगल	-11.454
▁चेह	-11.454
०९	-11.4543
फॉ	-11.4547
▁विद्वान	-11.4555
graph	-11.4555
▁एड्स	-11.4557
▁अप्रत्यक्ष	-11.4559
▁पालट	-11.456
▁उपवास	-11.4565
२४	-11.4567
▁स्वरुपात	-11.4571
▁सांगायची	-11.4571
▁नुकतीच	-11.4574
▁पुतळा	-11.4574
▁चोख	-11.4576
▁कार्यपद्धती	-11.4578
itive	-11.4585
light	-11.4587
▁लिपी	-11.4588
▁ओळखपत्र	-11.459
▁लेखिका	-11.4591
्टिक	-11.4595
▁गेज	-11.4596
▁समित्या	-11.4596
▁प्यार	-11.4599
SI	-11.4601
▁समांतर	-11.4602
▁सर्क	-11.4603
▁महादेव	-11.4604
fect	-11.4608
▁स्पॅंकिंग	-11.4611
▁एलईडी	-11.4611
▁जलरोधक	-11.4612
▁बांधणी	-11.4617
▁लोकांबरोबर	-11.4621
▁शाळांमध्ये	-11.4621
▁टॅबू	-11.4622
▁उभारणी	-11.4623
▁महिन्यांनी	-11.4624
105	-11.4626
▁नुसते	-11.463
▁विसंगत	-11.463
▁अध्ययन	-11.4649
▁त्वरीत	-11.4649
▁गुपित	-11.465
▁इतरांपेक्षा	-11.465
▁किल्ले	-11.4653
▁डोळ्यांनी	-11.4654
▁नेमले	-11.4657
१३	-11.4657
▁बॉडी	-11.4662
▁टॅब	-11.4667
▁आयर्लंड	-11.4668
▁अश्रू	-11.4668
video	-11.4668
▁स्त्रियांची	-11.4671
▁03:	-11.4673
एनजी	-11.4682
▁हरवून	-11.4683
▁पूरग्रस्तांना	-11.4687
▁गौरी	-11.4687
▁पहिलं	-11.4687
▁प्रतिकूल	-11.4687
▁पांढरे	-11.4693
लॉग	-11.4697
▁बिट	-11.4701
▁चाकू	-11.4702
▁आश्‍चर्य	-11.4706
▁द्रुत	-11.4706
▁अफवा	-11.4707
▁महिन्यांपासून	-11.4709
▁त्यावेळेस	-11.4712
▁दाखविले	-11.4716
▁तडजोड	-11.4726
▁झळक	-11.4727
▁हयात	-11.4728
च्चा	-11.4735
पर्यत	-11.4736
▁उठाव	-11.4738
▁ऑप्टिकल	-11.4745
▁सहकाऱ्यां	-11.4745
▁प्रबोधन	-11.4745
▁नाजूक	-11.4745
▁सिध्द	-11.4751
▁पेरणी	-11.4753
प्राण	-11.4754
िकरण	-11.4755
▁सत्कार	-11.4755
छत्र	-11.4763
book	-11.4763
▁निर्माते	-11.4764
▁मेसेज	-11.4764
ology	-11.4778
कॉमर्स	-11.4781
▁अलेक्झांडर	-11.4783
▁भेटवस्तू	-11.4783
▁लायब्ररी	-11.4783
▁तरतुदी	-11.4783
▁स्वरुप	-11.4789
▁सहायक	-11.4799
संदिग्ध	-11.4802
▁दुय्यम	-11.4802
▁शत्रु	-11.4802
▁सुरेख	-11.4804
▁राष्ट्रसंघ	-11.4805
▁बनवायला	-11.4811
▁भागवत	-11.4814
▁टिटजॉब	-11.4822
▁रोटरी	-11.4822
col	-11.4828
▁आणीन	-11.4835
▁जायचा	-11.4835
▁सुधारते	-11.4836
▁ऊर्जे	-11.4841
▁तातडीने	-11.4841
▁फोटोग्राफी	-11.4841
▁थेंब	-11.4841
▁आक्रोबॅटिक	-11.486
▁हिंसक	-11.486
▁आज्ञे	-11.4861
▁पाइप	-11.4861
प्रमाण	-11.4868
▁किचन	-11.487
तज्ज्ञ	-11.4879
▁वर्षानुवर्षे	-11.488
▁पार्टनर	-11.488
▁प्रियांका	-11.488
▁गार्ड	-11.4882
िष्णु	-11.4883
▁विशेषज्ञ	-11.4886
HO	-11.4887
▁than	-11.4888
▁मिळण्या	-11.4896
▁बहर	-11.4897
▁ऐकणार	-11.4899
▁ऑलिंपिक	-11.4899
▁औरंगाबाद	-11.4899
▁मृत्युमुखी	-11.4899
▁Topic	-11.4899
▁अपेक्षे	-11.4899
▁जटिल	-11.4899
▁लाकडा	-11.4899
▁टेलिफोन	-11.4899
▁सेनापती	-11.49
जापानी	-11.4902
▁कार्यकर्त्यांना	-11.4903
विसाव्या	-11.4904
▁स्नेह	-11.4905
oz	-11.4905
▁निसट	-11.4905
bre	-11.4908
स्फोट	-11.4917
▁तुरुंग	-11.4919
▁म्हटल्या	-11.492
▁स्त्रियांनी	-11.4935
शिक्षक	-11.4935
व्यवसाय	-11.4937
▁गलफुला	-11.4938
▁थरथानेवाला	-11.4938
▁विद्यार्थिनी	-11.4938
▁मवाब	-11.4941
▁बिहार	-11.4944
ोनिया	-11.4948
▁सदस्यत्व	-11.4948
▁मदतीला	-11.4953
▁महिन्यांची	-11.4954
▁लातूर	-11.4958
▁टॅक्स	-11.4958
▁Jan	-11.4959
ized	-11.4973
▁रत्नागिरी	-11.4977
▁लठ्ठपणा	-11.4977
यात्रा	-11.4981
३५	-11.4982
▁सुवार्ता	-11.4982
▁मानधन	-11.4985
▁उत्पादित	-11.4985
दत्त	-11.4986
▁मिळावे	-11.499
शिवसेना	-11.4997
▁अफगाणिस्तान	-11.4997
इतके	-11.5001
▁आम्ल	-11.5003
एक्सएनएक्सएक्स	-11.5004
▁करवून	-11.5011
▁अवतर	-11.5011
▁घाम	-11.5011
▁खुणा	-11.5012
▁पुठ्ठा	-11.5017
▁चिंताजनक	-11.5017
▁फॉर्म्युला	-11.5017
▁कळेना	-11.5017
2014	-11.5021
▁प्रारंभिक	-11.5022
▁टर्म	-11.5024
महाराष्ट्र	-11.5033
▁फायद्यासाठी	-11.5033
▁कक्षा	-11.5034
▁महाजन	-11.5034
शेष	-11.5035
▁लेडीबॉय	-11.5037
▁गहाण	-11.5037
▁हुकूम	-11.5037
▁साम्य	-11.5039
IP	-11.5039
▁स्वराज्य	-11.504
▁अनुवादित	-11.5047
4.5	-11.5048
▁वागण्या	-11.5054
▁शेजाऱ्या	-11.5056
▁बाबीसंबंधी	-11.5057
▁१९६०	-11.506
▁लागण	-11.5063
▁गुंडाळ	-11.5075
▁करायच्या	-11.5075
▁निराशाजनक	-11.5076
▁खाल्ल्या	-11.5077
तुमचे	-11.5078
ible	-11.5083
-2017	-11.5088
▁मागणार	-11.509
▁निघणार	-11.5093
▁युनिव्हर्स	-11.5096
▁खाद्यपदार्थ	-11.5096
▁पडताळणी	-11.5096
चिकित्सक	-11.5096
▁बऱ्यापैकी	-11.5096
▁कसरत	-11.5099
खाना	-11.5099
HS	-11.5099
▁फडक	-11.5101
▁शकेन	-11.5103
▁महाभारत	-11.5106
▁खंडित	-11.5107
▁शिकतो	-11.5107
ण्याऐवजी	-11.5107
▁हर्ष	-11.5113
▁साधण्या	-11.5114
आज्ञाधारक	-11.5115
▁पेस्ट	-11.5117
महिला	-11.5121
▁ठेवण्याचा	-11.5129
▁अविस्मरणीय	-11.5136
▁येईपर्यंत	-11.5136
▁शेजार	-11.514
▁यायचं	-11.5144
▁अग्नि	-11.5156
▁पोहोचव	-11.5156
▁भगवंता	-11.5156
▁उपनगर	-11.5162
▁मिळण्यासाठी	-11.517
▁पकडण्यात	-11.5174
▁यार्देन	-11.5176
▁नियती	-11.5176
▁अंतर्भूत	-11.5176
जास्त	-11.5178
▁जाण्याचे	-11.5184
▁विश्वासघात	-11.5193
▁आर्द्रता	-11.5196
▁व्हर्च्युअल	-11.5196
▁कुलगुरू	-11.5196
▁मल्टि	-11.5197
▁मज्जा	-11.5198
▁मंत्र्यां	-11.5205
▁चीज	-11.5215
▁मोकळ्या	-11.5216
▁निवांत	-11.5216
▁मजुरी	-11.5217
▁War	-11.5218
▁अतिथी	-11.5218
zip	-11.522
▁शै	-11.522
read	-11.5222
▁शहाणा	-11.5224
▁तांदूळ	-11.5236
▁महानगरपालिका	-11.5236
▁गाऊ	-11.5239
बांधणी	-11.5239
▁१९८०	-11.5239
dge	-11.5242
▁जोडण्या	-11.5244
▁Live	-11.5247
▁Cheat	-11.5256
▁रचने	-11.5257
▁सूचक	-11.5257
शंकर	-11.526
▁Game	-11.5262
▁दुर्दैव	-11.5266
111	-11.5266
▁निको	-11.5272
▁टाय्स	-11.5274
▁तंतोतंत	-11.5276
▁power	-11.5276
▁अस्सल	-11.5277
▁टचिंग	-11.5277
▁घुम	-11.5279
▁निभाव	-11.5279
▁दलाल	-11.5282
hand	-11.529
▁तुर्कस्तान	-11.5297
▁उबदार	-11.5297
▁दरवाज्या	-11.5297
▁संपन्न	-11.5305
5.0	-11.5308
गुदा	-11.5317
▁फुलपाखर	-11.5317
▁संदेष्टा	-11.5317
▁लाइफ	-11.5317
▁स्मित	-11.5319
▁02:	-11.5322
▁आगाऊ	-11.5323
▁वाचणार	-11.5325
▁महानगर	-11.5336
▁अस्पष्ट	-11.5337
▁चिन्हांकित	-11.5337
▁व्हिटॅमिन	-11.5337
▁लूक	-11.5348
▁2.5	-11.5355
▁अनधिकृत	-11.5358
▁अव्वल	-11.5358
▁तिसर्‍या	-11.5358
status	-11.5358
९१	-11.5367
▁कोंडी	-11.537
1.5	-11.537
▁भौतिकशास्त्र	-11.5373
page	-11.5374
▁व्याप्ती	-11.5378
▁स्विकार	-11.538
इफेक्ट्स	-11.5383
▁सर्व्हिस	-11.5383
ेंस	-11.5391
▁खुन	-11.5393
महर्षि	-11.5398
▁आत्मसमर्पण	-11.5398
▁कुतूहल	-11.5398
▁अल्ट्रा	-11.5399
▁रुंद	-11.5399
▁सल्ल्या	-11.5403
▁पूर्णवेळ	-11.5408
काळजी	-11.5409
▁Page	-11.5412
९८	-11.5418
▁सामूहिक	-11.5419
▁धमक्या	-11.5419
▁शॉपिंग	-11.5419
▁परिसरातील	-11.5421
▁मोनो	-11.5438
▁कोंबडी	-11.5439
▁ध्वनि	-11.5439
▁ड्रग	-11.544
▁गिफ्ट	-11.5441
▁दाव्या	-11.5443
▁अवधी	-11.5446
CL	-11.5448
तुझा	-11.5449
▁राज्यसभे	-11.546
▁मदद	-11.546
▁कोरोना	-11.546
▁खडतर	-11.546
▁स्लाइड	-11.5461
▁भंग	-11.5466
▁बास्केट	-11.548
▁logged	-11.5481
▁माणुसकी	-11.5481
▁याठिकाणी	-11.5481
▁बॉटल	-11.5482
▁ठेवण्यास	-11.5482
▁Blog	-11.5484
▁एलीया	-11.5487
मनुष्य	-11.5487
▁sl	-11.5487
tech	-11.5493
▁शिकण्यासाठी	-11.5495
▁HIV	-11.5501
▁registered	-11.5501
▁झटपट	-11.5501
ular	-11.5502
▁घराणे	-11.5502
▁शूर	-11.5505
▁प्रतिरोधक	-11.5507
क्रॉ	-11.5508
▁सिमेंट	-11.5514
▁लगा	-11.5516
▁खूष	-11.5522
▁प्रशस्त	-11.5522
▁स्टेडियम	-11.5522
▁गणेशोत्सव	-11.5522
▁परिशिष्ट	-11.5524
▁दीर्घकाळ	-11.5526
▁Mac	-11.5526
▁डोंगराळ	-11.5528
▁तहान	-11.5528
▁वितळ	-11.5529
cent	-11.5529
▁जिल्हाधिकाऱ्यां	-11.5543
चिंचवड	-11.5543
▁३४	-11.5545
९०	-11.5547
▁लक	-11.5551
▁यंग	-11.5552
▁डान्स	-11.5556
▁असायचे	-11.5557
▁वंशातील	-11.556
▁बौद्धिक	-11.5561
▁सार्थ	-11.5561
▁सोळा	-11.5562
▁अफाट	-11.5564
▁आवरण	-11.5564
▁असायची	-11.5567
स्तंभ	-11.5577
▁गांभीर्य	-11.5584
▁गुळगुळीत	-11.5584
▁डिटेक्टर	-11.5584
▁मुस्लीम	-11.5584
▁घ्यायचं	-11.5585
▁धूप	-11.5585
▁धम्म	-11.5595
▁ग्रामपंचायत	-11.5605
▁अविश्वास	-11.5605
▁बदनाम	-11.5605
▁वाढवते	-11.5606
▁साबण	-11.5606
▁घसरण	-11.5607
▁दैवी	-11.5608
▁शिकण्याची	-11.5608
▁शिजव	-11.5608
▁कार्यक्षमते	-11.5613
▁स्विस	-11.5616
▁सांगण्याची	-11.5625
▁दवाखान्या	-11.5626
▁निरनिराळ्या	-11.5629
▁खालीलपैकी	-11.5634
▁अश्शूर	-11.5647
ायझेशन	-11.5647
▁पार्श	-11.5657
▁टाइम्स	-11.566
▁वाफ	-11.5665
▁मजेशीर	-11.5668
▁पुजारी	-11.5668
यातले	-11.5671
▁ऑपरेट	-11.5671
▁महागाई	-11.5675
▁जागवाय	-11.5679
▁जमेल	-11.5681
▁चौदा	-11.5686
▁व्होल्टेज	-11.5689
▁देशद्रोह्या	-11.5689
▁अहंकार	-11.5689
ency	-11.5691
▁१९९८	-11.5693
ju	-11.5694
▁थरथर	-11.5711
▁चिखल	-11.5713
▁ख्रिस	-11.5714
tric	-11.5716
▁रूपये	-11.5719
▁राहायचे	-11.5726
शियल	-11.573
▁सरन्यायाधीश	-11.5731
▁युवराज	-11.5732
▁स्ट्रीट	-11.5732
▁नियोजित	-11.5734
▁अनन्य	-11.5742
▁राधा	-11.5747
▁पोस्टेड	-11.575
ब्रु	-11.5751
▁गळती	-11.5752
▁सूचीबद्ध	-11.5754
▁आव्हानात्मक	-11.5756
▁मजल्यावर	-11.5757
▁sub	-11.5765
इतकी	-11.5766
▁बहुदा	-11.5771
▁दहशत	-11.5772
▁प्रतिस्पर्धी	-11.5774
▁तत्वज्ञान	-11.5775
बाह्य	-11.5783
पलीकडे	-11.5788
▁इंदिरा	-11.5795
▁डोमीनेट्रिक्स	-11.5795
▁वर्डप्रेस	-11.5795
▁लॅडीस	-11.5795
▁अभिवचन	-11.5796
▁पुनः	-11.5799
▁महिनाभर	-11.5801
०२	-11.5802
गढ	-11.5804
138	-11.5813
▁किंचित	-11.5816
▁यजमान	-11.5816
▁यूनियन	-11.5816
▁कच्च्या	-11.5816
▁कॅमलतो	-11.5817
▁मोजमाप	-11.5817
▁गोविंद	-11.5817
▁लाईट	-11.5818
▁झपाट	-11.5819
porn	-11.5824
▁थक्क	-11.5824
वृक्ष	-11.5828
▁जैविक	-11.5838
▁तंदुरुस्त	-11.5838
▁बेळगाव	-11.5838
▁रिसर्च	-11.5838
▁वितरक	-11.5838
▁महत्वाचं	-11.5843
▁कांद्या	-11.5844
अभावी	-11.5849
विदेश	-11.5854
▁इसहाक	-11.5859
▁भयभीत	-11.5859
▁videos	-11.5859
▁निवारण	-11.586
▁उचित	-11.5861
▁सायबर	-11.5862
पत्रिका	-11.5877
▁हॅलो	-11.5878
भोवताल	-11.588
▁प्रत्युत्तर	-11.5881
▁प्रलंबित	-11.5881
▁फ्लॉवर	-11.5881
▁औषधोपचार	-11.5882
▁thoughts	-11.5887
ण्यायोग्य	-11.5891
▁जॉ	-11.59
▁कार्यान्वित	-11.5902
▁कॅनेडियन	-11.5902
▁व्यभिचार	-11.5902
▁ज्ञानेश्वर	-11.5909
फ्यू	-11.5914
मराठवाड्या	-11.5924
▁VIDEO	-11.5924
▁तैनात	-11.5924
▁संकुचित	-11.5924
▁प्रक्षेपण	-11.5924
▁जेंव्हा	-11.5924
▁ललित	-11.5924
▁अँड्रॉइड	-11.5945
स्फूर्त	-11.5945
▁इंटरफेस	-11.5945
▁असायचा	-11.5948
शास्त्रीय	-11.5952
▁ब्लॅकमेल	-11.5953
▁मिठी	-11.5954
▁DN	-11.5957
▁अल्फा	-11.5957
मैत्रिणी	-11.5959
lea	-11.5965
▁साठवण	-11.5966
▁एकंदर	-11.5967
▁अभयारण्य	-11.5967
▁काल्पनिक	-11.5967
▁मालेडोंम	-11.5967
▁स्वीडिश	-11.5967
▁लक्ष्मण	-11.5967
▁संभाजी	-11.5967
▁अनुक्रमे	-11.5967
▁मिक्स	-11.5968
board	-11.5969
▁आपट	-11.5969
▁ध्यास	-11.597
139	-11.5972
हायड्र	-11.5979
▁गडावर	-11.5981
ient	-11.5982
▁पटवून	-11.5984
श्यामला	-11.5987
▁Best	-11.5988
▁एसजीसीबी	-11.5989
▁फवारणी	-11.5989
▁स्वीकृती	-11.5989
▁कस्टम	-11.5989
▁आत्मसात	-11.5989
ृष	-11.599
इतका	-11.5991
▁संज्ञा	-11.6003
▁iPad	-11.601
▁इव्हेंट	-11.601
▁जबाबदाऱ्या	-11.601
▁थकबाकी	-11.601
="0.1	-11.601
▁दाखवितो	-11.601
▁परिच्छेद	-11.6011
▁पाठवण्यात	-11.6016
▁खिशात	-11.6017
▁पडद्या	-11.6019
▁संतुष्ट	-11.6032
▁मेमरी	-11.6033
▁मेनू	-11.6035
▁भविष्यकाळ	-11.6038
▁दरवाढ	-11.6042
▁सासू	-11.6046
प्रश्न	-11.6047
▁म्हातारा	-11.6054
▁सांत्वन	-11.6054
▁हिमालय	-11.6054
आमेन	-11.6063
योजित	-11.6068
off	-11.6071
▁गिळ	-11.6073
▁घालणार	-11.6073
▁मानसशास्त्र	-11.6075
▁हैदराबाद	-11.6076
▁blockchain	-11.6076
▁द्राक्षारस	-11.6076
▁प्रिन्सेस	-11.6076
▁फार्मास्युटिकल	-11.6076
▁कितपत	-11.6076
अर्थ	-11.6077
▁नवनवीन	-11.6077
▁विदेशात	-11.6078
▁बलवान	-11.6078
▁तथा	-11.6084
gro	-11.609
यिर्मया	-11.6091
▁काश्मिर	-11.6098
▁निलंबन	-11.6098
▁तुळशी	-11.6098
▁कर्नल	-11.6098
▁जेलमध्ये	-11.6102
▁फिक्स	-11.6109
▁अक्षरश	-11.6113
इथे	-11.6116
▁संशयित	-11.6116
ॅनिक	-11.6119
▁अध्यापक	-11.612
▁डेबिट	-11.612
▁संस्करण	-11.612
▁month	-11.612
▁वीर्य	-11.6128
late	-11.6131
ांमधे	-11.6132
▁मिळणाऱ्या	-11.6133
xbet	-11.6142
▁कुस्ती	-11.6147
साहित्य	-11.6158
▁ऑक्ट	-11.6162
▁Download	-11.6164
▁तुकड्या	-11.6164
▁कलामांना	-11.6164
वर्धक	-11.6166
▁२००२	-11.6168
oph	-11.6178
▁टेकडी	-11.6181
long	-11.6184
उत्तर	-11.6184
▁world	-11.6186
▁तृप्त	-11.6186
▁स्थायिक	-11.6186
▁ट्रॅक्टर	-11.6188
▁१९७०	-11.619
वैयक्तिकरित्या	-11.6191
▁sm	-11.6192
▁mod	-11.6202
डॉक्टर	-11.6203
▁धोके	-11.6208
6.0	-11.6211
व्व्या	-11.6213
संस्थे	-11.6225
▁सरोवर	-11.6231
sign	-11.6246
तुमची	-11.625
▁बोलणं	-11.625
▁खबर	-11.6251
▁अन्वेषण	-11.6253
▁अविभाज्य	-11.6253
▁यादृच्छिक	-11.6253
▁वयोगटातील	-11.6253
▁प्रतिष्ठे	-11.6253
▁रोबोट	-11.6253
▁ऍमेझॉन	-11.6253
बाजार	-11.6254
▁तिघे	-11.6256
▁टॅंड	-11.6262
IR	-11.6272
▁मोहिम	-11.6273
▁धनुष्य	-11.6275
▁मोबदला	-11.6275
▁टॉवेल	-11.6277
क्‍क	-11.6281
▁१९५०	-11.6286
▁एकाचवेळी	-11.6288
▁बाजारपेठेत	-11.6289
▁नसणार	-11.629
डाऊन	-11.6292
▁dec	-11.6295
▁अवरोधित	-11.6297
▁श्रीनिवास	-11.6297
▁मेट्रिक	-11.6303
०७	-11.6306
प्रवाह	-11.6313
heng	-11.6314
▁APK	-11.632
▁ताट	-11.632
▁Youtube	-11.632
▁धूर	-11.632
ात्म्य	-11.6321
▁दर्शविण्या	-11.6321
स्वार	-11.6324
▁चाललंय	-11.6326
▁झटक	-11.6328
▁करण्याकरिता	-11.633
▁नोंदवले	-11.6336
▁चष्मा	-11.6342
▁तोडून	-11.6347
▁विकण्या	-11.6349
▁वेशी	-11.6354
ities	-11.6358
awa	-11.6362
▁वर्तव	-11.6364
▁तत्पर	-11.6365
▁सुनील	-11.6368
▁सजव	-11.6368
▁मुलांनो	-11.6376
▁How	-11.6383
कदाचित	-11.6385
▁स्वायत्त	-11.6387
▁विल्यम	-11.6387
4.1	-11.6388
▁डोळ्यासमोर	-11.6389
अनेक	-11.6409
▁सॅमसंग	-11.641
▁स्निफिंग	-11.641
▁नॉर्वे	-11.641
▁वाजेपर्यंत	-11.6411
▁एकुण	-11.6412
▁प्रेशर	-11.6412
▁सोडियम	-11.6415
प्रचार	-11.6417
▁हातभार	-11.6419
पूजा	-11.6424
▁बेरोजगार	-11.6433
▁हनुमान	-11.6433
▁निगडित	-11.6433
▁हळद	-11.6435
▁पत्ते	-11.6445
▁विकल्प	-11.6447
▁परराष्ट्र	-11.6449
परिपक्व	-11.6454
▁सॅटिन	-11.6455
▁अंत्यसंस्कार	-11.6456
▁ओबामा	-11.6456
▁देसाई	-11.6456
▁अखिल	-11.6456
▁अनुपस्थित	-11.6456
▁सूर्यप्रकाश	-11.6457
९६	-11.6476
▁बुद्धिमत्ता	-11.6478
▁हमखास	-11.6478
▁ग्राफिक्स	-11.6478
▁झेंडा	-11.6478
▁रेशीम	-11.6478
▁यशस्वीरित्या	-11.6484
205	-11.6494
▁असशील	-11.6498
वृद्ध	-11.65
▁शब्बाथ	-11.6501
▁सुधीर	-11.6501
▁वाचनालय	-11.6506
पाकिस्तान	-11.6523
फ्रेंच	-11.6524
विरोध	-11.6529
▁पूजे	-11.653
०६	-11.6542
०५	-11.6546
▁नियतकालिक	-11.6547
▁पीडीएफ	-11.6547
▁दाढी	-11.6552
▁ठरविण्या	-11.6563
▁Photo	-11.657
▁Vessoft	-11.657
▁दिशाभूल	-11.657
▁योगायोग	-11.657
▁स्पेशल	-11.657
▁रिलीज	-11.6571
▁पॉलिस्टर	-11.6572
▁वादग्रस्त	-11.6572
▁निष्पाप	-11.6593
▁मॅडम	-11.6593
▁संघटित	-11.6593
▁गमती	-11.6593
girl	-11.6594
ward	-11.6594
▁मजूर	-11.6597
▁लेणी	-11.6602
▁तालुक्यातील	-11.6607
▁मेणबत्ती	-11.6616
▁जितका	-11.6617
cast	-11.6622
▁स्टिकर	-11.6632
▁बॅलरीना	-11.6639
▁निष्क्रिय	-11.6639
▁मॅरीड	-11.6639
▁शानदार	-11.6639
▁शिवराय	-11.6639
▁श्याम	-11.6639
माहिती	-11.664
▁कापणी	-11.6642
▁who	-11.6643
▁करण्यायोग्य	-11.6645
ature	-11.6646
▁डेस्क	-11.6657
▁आर्किटेक्चर	-11.6662
▁बन्यामीन	-11.6662
▁अस्पृश्य	-11.6662
▁नियामक	-11.6662
▁अरेबिया	-11.6664
▁comment	-11.6672
▁नंदनवन	-11.6686
▁जोडप्यांना	-11.6686
▁निरर्थक	-11.6686
▁मर्यादे	-11.6686
▁सामावून	-11.6686
▁लढण्या	-11.6686
▁लाभार्थी	-11.669
िस्तान	-11.6707
▁फाऊंडेशन	-11.6709
▁बांधिलकी	-11.6709
▁बोलीभाषा	-11.6709
▁तिमाही	-11.6709
▁स्टॉप	-11.6711
फोर्	-11.6711
▁आसाम	-11.6712
▁रिसेप्टर	-11.6732
▁पुढारी	-11.6732
निहाय	-11.6734
▁जाणवू	-11.6737
▁पाणीपुरवठा	-11.6738
ऑक्स	-11.6739
▁सायन्स	-11.6746
▁द्यायचं	-11.6757
ॉर्म	-11.6759
▁व्यर्थ	-11.6759
ऱ्हे	-11.6762
aster	-11.6778
▁मोटरसायकल	-11.6779
▁लॅक्टेटिंग	-11.6779
▁प्रदाता	-11.6779
▁सभोवताल	-11.678
पहिल्या	-11.6782
▁प्रामाणिकपणे	-11.6789
▁सिल्	-11.6791
▁अभिनव	-11.6803
▁निर्भय	-11.6803
▁टांग	-11.6804
निर्माण	-11.6805
▁जुळवून	-11.6813
▁शर्	-11.6814
9001	-11.6817
च्छेद	-11.6828
▁ब्लेड	-11.6831
▁game	-11.6831
▁कॅफे	-11.6833
▁चंद्रपूर	-11.6835
▁पागल	-11.6838
▁दीर्घिका	-11.6845
▁मॉनिटर	-11.685
▁भोसले	-11.685
▁वस्तुस्थिती	-11.6851
▁मसाज	-11.6851
मागून	-11.6854
▁जाणवलं	-11.6854
phone	-11.6856
▁मूत्र	-11.6857
०८	-11.6865
4.2	-11.6873
▁हिंदुस्थान	-11.6874
▁बॉंबशेल	-11.6874
▁आयएसओ	-11.6874
▁कृषि	-11.6874
▁बजाज	-11.6874
▁घाव	-11.6875
▁वर्धा	-11.6877
▁शिमोन	-11.6877
२७	-11.6879
▁गोल्फ	-11.688
▁विहीर	-11.6893
जागृती	-11.6893
▁कम्युनिस्ट	-11.6897
▁बर्‍यापैकी	-11.6897
▁मतमोजणी	-11.6897
▁सफाई	-11.6897
▁अमिताभ	-11.6897
▁निरंतर	-11.6897
▁समुह	-11.6897
▁रस्त्यांवर	-11.6905
▁प्लग	-11.6908
▁टेम्पलेट	-11.6921
▁मध्यमवर्गीय	-11.6921
▁मिरर	-11.6923
▁स्टीम	-11.6929
5.5	-11.693
▁धंदा	-11.6931
२९	-11.6932
▁कोळसा	-11.6945
▁उजाड	-11.6945
▁समर्पण	-11.6949
▁सुधारण्या	-11.6955
▁भेडसाव	-11.6969
▁मोल्डिंग	-11.6969
एम्बेड	-11.6969
▁एकाग्रता	-11.6969
▁आभाळ	-11.6969
▁दुर्बल	-11.6972
जर्मन	-11.6976
सूर्य	-11.6985
▁वैश्विक	-11.6993
▁ब्रॉड	-11.6993
▁बांबू	-11.6993
▁सिनेमे	-11.6993
▁जितक्या	-11.6993
सेवक	-11.6999
सामग्री	-11.6999
▁पाहुण्या	-11.6999
▁कातडी	-11.7001
▁स्क्रिप्ट	-11.7017
▁उत्तेजित	-11.7017
▁दूषित	-11.7017
ण्याजोगी	-11.7019
▁ग्रामस्थ	-11.702
▁सर्च	-11.702
▁बुलेट	-11.7024
▁स्क्	-11.7026
▁टेस्टोस्टेरोन	-11.7041
▁देवाणघेवाण	-11.7041
▁प्रसिध्द	-11.7041
▁बेल्जियम	-11.7041
▁स्थगित	-11.7041
▁समाधी	-11.7041
▁गर्भाशय	-11.7041
▁नातेसंबंध	-11.7042
▁ममता	-11.7044
पृष्ठ	-11.7044
Fran	-11.7046
▁बहुजन	-11.7049
▁April	-11.7065
▁यराबाम	-11.7065
▁रब्बी	-11.7065
▁काउंटर	-11.7065
▁खूण	-11.7066
▁दरबार	-11.7069
▁मिळावा	-11.7073
▁पुरोगामी	-11.7089
▁पोर्तुगाल	-11.7089
▁बच्चन	-11.7089
▁श्रीलंका	-11.709
▁Pune	-11.709
▁रहदारी	-11.7091
▁भूखंड	-11.7091
मत्तय	-11.7091
▁पठाण	-11.7114
▁स्लॅप	-11.7115
▁रायगड	-11.7116
जीएसटी	-11.7121
▁ताजा	-11.7121
▁निशाण	-11.7122
▁ऑक्‍टोबर	-11.7138
▁हृदयविकार	-11.7138
▁आचार्य	-11.7138
▁प्रसारमाध्यम	-11.7138
लक्ष्मी	-11.7146
▁नफ्या	-11.7146
▁जसं	-11.7148
ब्रेट	-11.7151
▁अणू	-11.7156
▁वाढवता	-11.7158
▁उदयनराजे	-11.7162
▁शॅन्डाँग	-11.7162
▁सिगरेट	-11.7162
▁स्वाभिमान	-11.7162
▁एलसीडी	-11.7162
▁अर्धवट	-11.7164
▁झुंज	-11.7169
▁तडा	-11.7186
▁एचआयव्ही	-11.7187
▁सहानुभूती	-11.7187
▁हस्तांतरित	-11.7187
▁पुतळ्या	-11.7187
▁एकमेका	-11.7187
▁आळशी	-11.7187
▁सियोन	-11.7187
▁पुनर्रचना	-11.7188
▁टोकियो	-11.7188
▁सत्तर	-11.7193
▁आरएच	-11.7196
▁कायद्यानुसार	-11.72
▁आपापसांत	-11.7211
▁डिलिव्हरी	-11.7211
▁नुसती	-11.7211
▁पांथस्थ	-11.7211
▁तिहेरी	-11.7211
▁बडबड	-11.7211
▁Sec	-11.7217
▁SMS	-11.7219
सहाय्य	-11.7221
▁लेडी	-11.7223
This	-11.7225
▁डिझेल	-11.7236
▁यवाब	-11.7236
▁१९९१	-11.724
▁छत्री	-11.7241
▁प्लान	-11.7254
▁आत्महत्ये	-11.7261
▁सोहळ्या	-11.7261
▁मूर्ति	-11.7261
ोपचार	-11.7261
▁उन्हाळी	-11.7265
किरण	-11.7265
▁राजकारण्यां	-11.7278
▁शिकवण्या	-11.728
▁१९७१	-11.7285
▁कोलकाता	-11.7285
▁पेन्सिल	-11.7285
०३	-11.7289
ific	-11.7301
▁गमव	-11.7307
▁part	-11.7309
▁रिमोट	-11.731
▁वाहनचालक	-11.7312
▁सीएएस	-11.7312
gram	-11.7314
▁१९९९	-11.7317
▁नायट्रोजन	-11.7335
▁यवतमाळ	-11.7335
▁हंडजोब	-11.7335
▁अधोरेखित	-11.7335
▁ऑटोमोटिव्ह	-11.7335
▁नेवाळकर	-11.7335
▁चकित	-11.7335
▁एकंदरीत	-11.734
india	-11.7341
▁पध्दत	-11.7355
2.5	-11.7358
▁सीबीआय	-11.736
▁सुझुकी	-11.736
▁सौंदर्यप्रसाधन	-11.736
▁मॅनेजर	-11.736
▁मातृभाषा	-11.736
▁करावयाची	-11.736
▁जिहाद	-11.736
▁जर्सी	-11.7363
4.7	-11.7373
▁टेलि	-11.7376
rator	-11.7381
▁फूटजोब	-11.7385
▁सक्रीय	-11.7385
▁USB	-11.7385
▁विजेतेपद	-11.7386
▁उदासीन	-11.741
▁Time	-11.7411
▁प्यायले	-11.7412
▁संकोच	-11.7412
▁कळिकाळा	-11.7435
▁कॅल्शियम	-11.7435
▁उलाढाल	-11.7435
▁कोंबड्या	-11.7435
▁प्रसूती	-11.7435
▁वचनबद्ध	-11.7439
विजय	-11.7451
▁नातं	-11.7453
▁गाभा	-11.7453
▁संमिश्र	-11.746
▁रॅवेज	-11.746
▁कच्चे	-11.746
▁अहमदनगर	-11.746
▁नक्कल	-11.746
▁डिझायनर	-11.7485
▁हिटलर	-11.7485
▁व्हाईट	-11.7485
▁गरजेचं	-11.7486
संस्कृती	-11.7498
महाराज	-11.7501
▁व्हॅलेंटाईन	-11.751
▁थिएटर	-11.751
▁आवृत्त्या	-11.751
▁आकड्या	-11.7511
▁सव्वा	-11.7511
▁प्लॉट	-11.7511
▁स्टँड	-11.7513
▁पॅकेजेस	-11.7513
▁सीमेवर	-11.7513
▁Poly	-11.7513
▁इंजिनियर	-11.7514
▁२००३	-11.7515
▁फक्‍त	-11.7516
परिवर्तन	-11.7524
▁पाल्य	-11.7528
▁क्षियामेन	-11.7536
▁संभोग	-11.7536
▁व्यत्यय	-11.7536
▁रिकामी	-11.7536
▁कचऱ्या	-11.7537
▁अंगभूत	-11.7537
▁१९९५	-11.7541
कुठे	-11.7556
▁has	-11.756
▁पुनरुत्थान	-11.7561
▁स्टार्टअप	-11.7561
सीओव्ही	-11.7561
▁खुर्च्या	-11.7561
▁मान्सून	-11.7561
▁पैश्या	-11.7563
टाउन	-11.7564
▁अब्दुल	-11.7568
रंजन	-11.7583
▁वादविवाद	-11.7586
▁बंधु	-11.7587
▁विसरु	-11.759
▁जवळीक	-11.759
▁.......	-11.7603
▁welded	-11.7612
▁एफ्राईम	-11.7612
▁फ्रेमवर्क	-11.7612
▁जादुई	-11.7612
source	-11.7612
▁खजिना	-11.7612
▁शिबीर	-11.7613
▁बॅकअप	-11.7613
▁KDE	-11.7614
▁इलाज	-11.7615
▁१९९६	-11.7616
ग्रंथ	-11.7628
▁दायित्व	-11.7638
▁प्रदीर्घ	-11.7638
▁पॅरोडी	-11.7638
▁अतिक्रमण	-11.7638
▁शर्ती	-11.7649
▁कर्तृत्व	-11.7652
माध्यम	-11.7653
▁नबुखद्नेस्सर	-11.7663
▁व्यक्तिरेखा	-11.7663
▁China	-11.7665
▁अकाउंट	-11.7689
▁अल्पवयीन	-11.7689
▁बहिष्कार	-11.7689
▁सुशिक्षित	-11.7689
zhou	-11.7689
▁स्पीकर	-11.7689
▁स्कॉटलंड	-11.7689
▁जितकी	-11.7689
▁सच्चा	-11.769
▁शिकागो	-11.7691
उत्पादन	-11.7706
ण्याकरीता	-11.771
▁हिज्कीया	-11.7715
▁SKU	-11.7715
▁मथळा	-11.7715
▁समीक्षा	-11.7715
mission	-11.7715
▁पाककृती	-11.7716
▁स्टॅम्प	-11.7716
▁मशिन	-11.7717
0.4	-11.7739
▁अंघोळ	-11.774
▁तितकं	-11.774
▁कार्तिक	-11.7742
▁email	-11.7742
▁स्टोरी	-11.7742
दृश्य	-11.7747
▁रस्त्यां	-11.7752
▁Digital	-11.7766
▁अनभिज्ञ	-11.7766
▁कॉम्प्रेसर	-11.7766
▁दुर्घटने	-11.7766
▁मॅनेजमेंट	-11.7766
▁वैशिष्ट्यीकृत	-11.7768
▁पोलिश	-11.7769
▁Winstrol	-11.7792
▁इन्शुरन्स	-11.7792
▁मनश्शे	-11.7792
▁विरघळ	-11.7792
▁लिहिणे	-11.7792
▁पुरेपूर	-11.7794
▁ढाल	-11.7795
▁समकालीन	-11.7795
▁लव्ह	-11.7797
▁अल्पसंख्य	-11.7801
▁बारामती	-11.7818
▁बाइक	-11.782
▁13:2	-11.7834
▁काटेकोरपणे	-11.7844
▁गौतम	-11.7845
▁तुकाराम	-11.7845
▁सिंधू	-11.7845
▁विसर्जन	-11.7845
▁धमकाव	-11.7845
body	-11.7846
▁दडले	-11.7847
आयआर	-11.7859
▁छाया	-11.7859
धंद्या	-11.7861
▁आमेचर	-11.7871
▁अडखळ	-11.7871
▁बघितल्या	-11.7878
▁करें	-11.7886
भूमि	-11.7886
तुमचा	-11.7892
▁एचसीएल	-11.7897
▁प्रजनन	-11.7897
▁पटकाव	-11.7899
▁कंपाऊंड	-11.7923
▁क्षेपणास्त्र	-11.7923
▁चांगुलपणा	-11.7923
▁भयावह	-11.7923
▁शेंझेन	-11.7923
▁परभणी	-11.7923
▁जल्दी	-11.7923
▁मागोवा	-11.7923
▁त्रिकोण	-11.7927
अमेरिकन	-11.7943
▁उज्ज्वल	-11.795
▁जम्मू	-11.795
▁कॅप्चा	-11.795
▁?????????	-11.795
▁३सम	-11.7951
7.5	-11.7958
▁Work	-11.7976
▁मिरची	-11.7978
▁1:2	-11.7985
ॉईड	-11.7986
..........	-11.7994
स्‍त	-11.7997
औ	-11.7998
▁सावित्री	-11.8003
▁वॉशिंग्टन	-11.8003
▁कावासाकी	-11.8003
चाळीस	-11.8003
▁माशां	-11.8006
आनंद	-11.8026
▁बेल्जियन	-11.8029
▁खंबीर	-11.8029
▁इयत्ता	-11.8029
▁स्ट्रोक	-11.8031
▁प्रियंका	-11.8034
▁प्रताप	-11.8038
0.6	-11.8043
▁System	-11.8056
▁निरागस	-11.8056
▁यहुदी	-11.8056
▁शोमरोन	-11.8056
▁आरामदायी	-11.8057
▁3:3	-11.8058
▁पालिका	-11.8058
▁क्लिष्ट	-11.8058
▁मूलतः	-11.8059
▁सुवास	-11.806
▁सर्प	-11.8064
▁खेड्यात	-11.8067
Maharashtra	-11.8083
▁भवितव्य	-11.8083
▁लक्षवेधी	-11.8083
▁फाळणी	-11.8083
▁मुर्ख	-11.8083
▁पाकीट	-11.8083
▁उत्कट	-11.8087
▁तथाकथित	-11.8109
▁व्यंगचित्र	-11.8109
▁खड्डे	-11.8109
▁हिंसे	-11.811
▁खटल्या	-11.811
▁सावधगिरी	-11.8111
▁उभारण्या	-11.8113
▁लेन्स	-11.813
सैनिक	-11.8133
▁श्वसन	-11.8136
▁संश्लेषण	-11.8136
▁सिगारेट	-11.8136
▁स्पॅंड्क्स	-11.8136
▁बिल्डिंग	-11.8136
▁पौंड	-11.8136
शासन	-11.8137
▁काळोख	-11.8138
▁डोकाव	-11.8139
▁सुप्री	-11.8141
know	-11.8147
▁मोसम	-11.8155
▁सोल्यूशन	-11.8163
▁बिझनेस	-11.8163
▁मूत्रपिंड	-11.8163
▁तारखेसाठीचे	-11.8163
▁11:2	-11.8188
▁उद्ध्वस्त	-11.819
▁फोर्कलिफ्ट	-11.819
▁म्युच्युअल	-11.819
▁हिवाळा	-11.819
▁कॅटलॉग	-11.819
▁हरवला	-11.8191
▁चेंबर	-11.8193
▁फरार	-11.82
जिज्ञासू	-11.8217
▁स्प्रिंग	-11.8217
▁USD	-11.8218
▁स्कॉट	-11.822
▁ब्रिज	-11.8222
▁उद्घाटन	-11.8245
▁कॅलेंडर	-11.8245
▁ट्रॅंपलिंग	-11.8245
▁दाऊद	-11.8245
▁१९४५	-11.8245
▁टोपली	-11.8245
▁like	-11.8246
परिषद	-11.827
▁यहुदा	-11.8272
▁वधस्तंभावर	-11.8272
▁address	-11.8272
▁युक्तिवाद	-11.8272
▁देशांतर्गत	-11.8272
▁कोठून	-11.8272
▁प्रभावशाली	-11.8272
▁उघडकीस	-11.8272
▁फोकस	-11.8274
▁Labels	-11.8299
▁रंजक	-11.8299
Query	-11.8299
▁ब्राझिल	-11.8299
सुविधा	-11.8301
▁रचला	-11.8301
▁जुळवणी	-11.8301
▁जाणीवपूर्वक	-11.8301
▁शुगर	-11.8302
एक्सएमएक्स	-11.8324
▁Mumbai	-11.8327
▁Samsung	-11.8327
▁आंध्र	-11.8327
▁प्रोफाईल	-11.8327
▁सरस्वती	-11.8327
▁नांदेड	-11.8327
▁गायकवाड	-11.8327
▁स्टीव्ह	-11.8327
▁स्मिथ	-11.8328
▁क्रॅश	-11.8329
6.5	-11.8332
▁12:1	-11.8342
▁Love	-11.8346
▁पुनर्संचयित	-11.8354
▁रोमँटिक	-11.8354
▁सिंड्रोम	-11.8354
▁भक्कम	-11.8354
▁आयसीसी	-11.8354
▁किंचाळ	-11.8355
▁मायकेल	-11.8382
▁मदतनीस	-11.8383
ण्याकरता	-11.8408
▁क्रांतिकारक	-11.8409
▁दानीएल	-11.8409
▁नामजप	-11.8409
▁मौन	-11.8411
▁आपत्कालीन	-11.8437
▁ठेकेदार	-11.8437
▁बळजबरी	-11.8437
▁अलविदा	-11.8437
▁सापेक्ष	-11.8437
▁स्तनपान	-11.8438
▁हायपर	-11.8439
▁7:1	-11.8446
▁Twitter	-11.8465
▁जेणेकरुन	-11.8465
▁सतर्क	-11.8465
▁अनुयायां	-11.8465
▁बिल्डर	-11.8465
▁Life	-11.8466
संस्कार	-11.8485
▁CSGO	-11.8492
▁little	-11.8492
▁ऍक्रेलिक	-11.8492
▁प्रॉपर्टी	-11.8492
▁अधिसूचना	-11.8492
▁बिबट्या	-11.8493
▁उद्रेक	-11.8493
▁what	-11.8493
▁फॉन्ट	-11.8494
▁why	-11.8495
▁कथानक	-11.8496
▁नसावे	-11.8498
▁TabletWise	-11.852
▁Txxx	-11.852
▁फुफ्फुस	-11.852
▁मिठाई	-11.852
▁पालखी	-11.8521
▁कॅमेरे	-11.8521
अगोदर	-11.8521
▁Year	-11.8522
▁राज्यकर्त्यां	-11.8526
िअम	-11.8533
्रोजन	-11.8547
▁तंबाखू	-11.8548
▁नाविन्यपूर्ण	-11.8548
***	-11.8548
▁रणवीर	-11.8548
बकवास	-11.8549
▁बंडखोर	-11.8549
▁मिळकत	-11.8557
▁योनाथान	-11.8577
="0.2	-11.8577
▁समजूतदार	-11.8577
▁स्कोअर	-11.8577
▁वाट्याला	-11.8578
▁अमलात	-11.8581
▁Moto	-11.8583
▁समीक्षक	-11.8605
▁योद्धा	-11.8605
▁टाईम	-11.8605
▁हँडल	-11.8605
▁रेखाचित्र	-11.8606
▁हॉर्	-11.862
maharashtra	-11.8633
▁कुलदैवत	-11.8633
▁टोमॅटो	-11.8633
▁वसतिगृह	-11.8633
▁हस्तमैथुन	-11.8633
▁मिलीग्राम	-11.8633
▁रिकाम्या	-11.8633
▁Tablet	-11.8633
▁हिरावून	-11.8633
▁नशिबा	-11.8633
ification	-11.8634
▁शांततेत	-11.8634
▁गवस	-11.8636
▁नायलॉन	-11.8661
▁महानगरपालिके	-11.8661
▁फॉरेक्स	-11.8661
▁सत्ताधाऱ्यां	-11.8661
▁ठिबक	-11.8661
▁गरुड	-11.8661
-08-	-11.8674
▁इंटीरियर	-11.869
▁प्रोटोकॉल	-11.869
▁प्रमोशन	-11.869
▁भटकंती	-11.869
नाट्य	-11.8691
▁लूट	-11.8694
ोग्राफी	-11.8696
▁कवच	-11.8709
▁बट्फकिंग	-11.8718
•••••	-11.8718
▁हुसेन	-11.8718
▁अहाब	-11.8719
▁स्ट्रेच	-11.8719
▁गुप्तचर	-11.872
ख्रिस्त	-11.8722
▁2:2	-11.8726
केमिकल	-11.873
ण्णा	-11.8738
▁तालुक्‍या	-11.8747
पश्‍चिम	-11.8747
पाठोपाठ	-11.8747
▁PDF	-11.8747
▁ओव्हन	-11.8747
▁नांगर	-11.8754
Law	-11.8762
▁बांग्लादेश	-11.8775
▁घृणा	-11.8777
▁रांगेत	-11.8786
ब्लॅक	-11.879
मौखिक	-11.8804
▁आउटपुट	-11.8804
▁दिवाळखोर	-11.8804
▁परिभाषित	-11.8804
▁सुट्ट्या	-11.8805
▁जनजागृती	-11.8805
▁नसावी	-11.8805
▁म्हंटल	-11.8825
▁प्रओलॅप्स	-11.8833
▁Chrome	-11.8833
▁गृहिणी	-11.8833
▁गर्भपात	-11.8833
▁केबिन	-11.8833
▁भाषिक	-11.8833
▁रक्षा	-11.8836
आंटी	-11.8842
▁आचारसंहिता	-11.8862
▁उत्तेजक	-11.8862
▁दुरूस्त	-11.8862
▁पक्का	-11.8862
▁शहीद	-11.8863
▁टेक्न	-11.8866
▁बहिण	-11.8878
▁कंटाळवाणा	-11.8891
▁कॉम्प्युटर	-11.8891
▁प्रायोगिक	-11.8891
▁स्तुति	-11.8891
▁Christ	-11.8891
▁पिक्सेल	-11.8891
▁???????	-11.892
▁पदव्युत्तर	-11.892
▁उंदीर	-11.892
▁डायरेक्ट	-11.892
▁जामीन	-11.8921
शासित	-11.8929
िअन	-11.893
भ्यास	-11.8939
▁नावीन्यपूर्ण	-11.8949
▁कुरआन	-11.8949
▁दूतावास	-11.8949
▁मित्रमंडळी	-11.8949
▁किस्सा	-11.8949
curity	-11.895
▁निरनिराळ	-11.8974
▁चतुर्थी	-11.8978
▁विहंगावलोकन	-11.8978
▁हिवाळ्यात	-11.8978
▁छिद्र	-11.8978
▁नुसता	-11.8978
▁मानवजाती	-11.8978
▁चपळ	-11.8978
▁जीवनसत्त्व	-11.8978
▁रिंगणात	-11.8979
▁मत्स्य	-11.8979
▁राजीव	-11.8979
कॉलेज	-11.8987
▁कुटूंब	-11.9008
▁दस्तावेज	-11.9008
▁संदेष्टे	-11.9008
▁त्रस्त	-11.9008
▁बासरी	-11.9008
▁खोकला	-11.9009
▁खोऱ्यात	-11.9015
स्वातंत्र्य	-11.9016
▁पंढरपूर	-11.9037
▁सह्याद्री	-11.9037
▁होमार्पण	-11.9037
▁(2015)	-11.9037
▁प्रवीण	-11.9037
▁जॉन्सन	-11.9037
प्रतिनिधी	-11.9066
▁अभियंते	-11.9067
▁निषिद्ध	-11.9067
▁पौष्टिक	-11.9067
▁प्रयत्‍न	-11.9067
▁मॅथ्यू	-11.9067
▁उजेड	-11.9067
▁विचारपूस	-11.9067
▁वाचविण्या	-11.9068
आमची	-11.9078
▁14:1	-11.9087
saveatrain	-11.9096
▁आंदोलक	-11.9096
▁कॉकपिट	-11.9096
▁निरपराध	-11.9096
▁पृष्‍ठ	-11.9096
▁शौर्य	-11.9096
▁वैचारिक	-11.9096
पश्चात	-11.9096
▁मार्शल	-11.9097
वाइफ	-11.9103
वैद्यकीय	-11.9106
▁स्कि	-11.911
मेझॉन	-11.9125
▁COVID	-11.9126
▁एम्ब्रेटे	-11.9126
▁फ्लोरिडा	-11.9126
▁स्नॅप	-11.9126
▁हानिकारक	-11.9126
निवडणुक	-11.9128
▁हौस	-11.9143
▁Unlimited	-11.9156
▁भुजबळ	-11.9156
▁वाजपेयी	-11.9156
▁सोयाबीन	-11.9156
▁खळबळ	-11.9156
United	-11.9156
▁मंगेश	-11.9156
▁गहाळ	-11.9156
View	-11.9156
▁फ्रँक	-11.9156
▁थरार	-11.9156
मेथिल	-11.9178
▁टाय्लेट	-11.9185
▁सामुग्री	-11.9185
▁१९४८	-11.9185
▁नाश्त्या	-11.9185
▁तेंडुलकर	-11.9215
▁आजतागायत	-11.9215
▁आस्वाद	-11.9215
▁संकेतशब्द	-11.9216
▁प्रणय	-11.9216
बिंदू	-11.9227
▁मांसाहार	-11.9245
▁मरीया	-11.9247
▁माकड	-11.9256
▁कोट्यवधी	-11.9275
▁कॉपीराईट	-11.9276
▁तत्सम	-11.9276
▁दिग्गज	-11.9276
▁ऑफशोर	-11.9276
▁आशिष	-11.9276
▁प्रतिष्ठापीत	-11.9276
▁स्क्रोल	-11.9276
▁बहाल	-11.9276
▁नसावा	-11.9277
▁हजेरी	-11.9306
▁कांबळे	-11.9306
ऍ	-11.9319
▁Blackjack	-11.9336
▁सत्यापित	-11.9336
▁faith	-11.9366
▁डिफ्यूझर	-11.9366
▁बॅकरूम	-11.9366
▁बॉलीवूड	-11.9366
▁उभं	-11.9367
▁उपासमार	-11.9368
कल्याण	-11.9375
खूप	-11.9381
▁आच्छादन	-11.9397
▁ब्रुनेट	-11.9397
▁सेंट्रल	-11.9397
▁आश्चर्यजनक	-11.9397
▁धावपळ	-11.9399
▁सुंता	-11.9399
▁Blue	-11.9428
▁चेतना	-11.9428
▁वसुली	-11.9428
▁किताब	-11.9429
▁पलंग	-11.9433
▁अभूतपूर्व	-11.9458
▁मौसम	-11.9458
▁गूगल	-11.9458
▁उगीच	-11.9458
▁हेल्थ	-11.9459
▁Dianabol	-11.9489
▁Health	-11.9489
▁अहिंसा	-11.9489
▁साइटमॅप	-11.9489
▁मुबलक	-11.9489
▁एकात्मिक	-11.9489
▁रहस्यमय	-11.9489
▁घोडेस्वार	-11.9489
▁लबाड	-11.949
direct	-11.9496
आमचे	-11.9507
▁वाणिज्य	-11.952
▁विध्वंस	-11.952
▁विखुरले	-11.952
▁निखिल	-11.952
▁राऊत	-11.952
▁विणलेल्या	-11.952
▁द्वितीय	-11.952
▁श्रावण	-11.952
नोंदणी	-11.9536
▁अर्धशतक	-11.9551
▁विणकाम	-11.9551
▁टाईप	-11.9551
▁त्याठिकाणी	-11.9551
▁नवजात	-11.9551
▁डिस्प्ले	-11.9582
▁साफसफाई	-11.9582
▁विश्लेषक	-11.9582
▁हेरलेस	-11.9582
▁ग्राउंड	-11.9582
▁ओलावा	-11.9583
इंटररेशियल	-11.9613
▁एफआरपी	-11.9613
▁कॅप्सूल	-11.9613
▁मॅरेथॉन	-11.9613
▁महिन्यांनंतर	-11.9613
▁Friends	-11.9613
▁कुराण	-11.9613
▁बास्केटबॉल	-11.9613
▁कोरीव	-11.9614
▁निजाम	-11.9614
▁short	-11.9614
वर्दी	-11.9614
▁काबीज	-11.9614
soft	-11.9635
blowjob	-11.9644
▁Microsoft	-11.9644
▁१९७२	-11.9644
▁टेक्नॉलॉजी	-11.9644
▁सतीश	-11.9644
▁just	-11.9644
▁जीवनसत्व	-11.9645
▁समाचार	-11.9645
▁नितांत	-11.9645
▁गुहेत	-11.9649
▁year	-11.9664
ग्राहक	-11.9664
श्लेष	-11.9668
2,000	-11.9672
GenericName	-11.9676
▁August	-11.9676
▁Gratuit	-11.9676
▁द्रवपदार्थ	-11.9676
▁रिझर्व्ह	-11.9676
▁सौष्ठव	-11.9676
▁स्मृति	-11.9676
▁ट्रेडमिल	-11.9676
▁अदोम	-11.9677
▁संपवण्या	-11.969
▁Zhejiang	-11.9707
▁अध्यापन	-11.9707
▁स्टीफन	-11.9707
▁बलिदान	-11.9707
▁टप्पे	-11.9707
▁अंधेरी	-11.9707
▁मावशी	-11.9707
ष्‍ट	-11.9714
दिवाळी	-11.9727
अखेर	-11.9727
शाळेत	-11.973
▁टगजॉब	-11.9739
▁व्हिडियो	-11.9739
विरूध्द	-11.9739
▁गॅरेज	-11.9739
▁जॅक्सन	-11.9739
▁कोठार	-11.9739
ण्याजोगे	-11.9743
▁फेसिअल	-11.977
▁व्हिएतनाम	-11.977
▁अभिनेते	-11.977
▁वन्यजीव	-11.977
▁गोलाकार	-11.9772
प्रथम	-11.9774
▁अकाऊंट	-11.9802
▁गर्भधारणे	-11.9802
Trenbolone	-11.9802
▁पेन्शन	-11.9802
▁हकालपट्टी	-11.9802
▁आदल्या	-11.9802
style	-11.9804
अमेरिके	-11.9823
http	-11.9823
0.7	-11.9832
Pirater	-11.9834
▁तावडे	-11.9834
▁बीएसएफ	-11.9834
▁मापदंड	-11.9834
▁एकादशी	-11.9834
▁धातु	-11.9834
▁कत्तल	-11.9835
▁केशव	-11.9841
हाऊस	-11.9843
▁October	-11.9866
▁Uncategorized	-11.9866
▁अडॅप्टर	-11.9866
▁अण्वस्त्र	-11.9866
▁उद्दीष्ट	-11.9866
▁कादंबऱ्या	-11.9866
▁गैरवापर	-11.9866
▁डॅनियल	-11.9866
▁बदलानुकारी	-11.9866
▁reading	-11.9866
▁गिलाद	-11.9866
▁नाताळ	-11.9868
शायर	-11.9871
दाखल	-11.9885
▁चांगल	-11.9893
▁Continue	-11.9898
▁अनिरुद्ध	-11.9898
▁सर्वसमावेशक	-11.9898
▁स्काईप	-11.9898
▁जॉर्डन	-11.9898
▁हेन्री	-11.9899
▁पंकज	-11.9906
▁रचले	-11.9907
▁कारवाया	-11.9911
▁?????	-11.993
▁Service	-11.993
▁Category	-11.993
▁कदापि	-11.993
▁लहरी	-11.993
▁लॉन्च	-11.993
▁पितृ	-11.993
फ्लेक्स	-11.9931
▁केनेडियन	-11.9962
▁प्रात्यक्षिक	-11.9962
▁वैकल्पिक	-11.9962
▁पिंजरा	-11.9962
▁जिंदगी	-11.9995
▁जेवढे	-11.9995
▁पुरेसं	-11.9995
▁सूर्यास्त	-11.9995
▁फांद्या	-11.9995
▁झपाट्याने	-11.9995
▁पलीकड	-11.9998
▁नायट्र	-12.001
▁इंटरनॅशनल	-12.0027
▁जॅमेका	-12.0027
▁देणग्या	-12.0027
▁प्रदूषित	-12.0027
▁भरभराट	-12.0027
▁रणधुमाळी	-12.0027
▁विक्रेते	-12.0027
▁सन्बॅदिंग	-12.0027
▁पुनर्वापर	-12.0027
▁शक्तीशाली	-12.0027
▁controls	-12.006
▁इलेक्ट्रो	-12.006
▁पुढाऱ्या	-12.006
▁शिलालेख	-12.006
▁पंचवीस	-12.006
द्वेष	-12.006
▁प्लांट	-12.006
▁उणीव	-12.0065
मेडि	-12.0068
▁label	-12.0092
▁शाहरुख	-12.0092
▁प्रेयसी	-12.0092
मांजर	-12.0093
▁आश्‍वासन	-12.0125
▁ड्रायव्हिंग	-12.0125
▁KTM	-12.0125
▁मशिदी	-12.0125
▁गद्दार	-12.0125
▁श्लोक	-12.0125
▁लँडिंग	-12.0125
▁ब्राउझ	-12.0156
▁फुतुनारी	-12.0158
▁याउलट	-12.0158
▁अतिनील	-12.0158
▁मादक	-12.0159
▁केजरीवाल	-12.0191
▁नीतिमान	-12.0191
▁सेक्रेटरी	-12.0191
▁बाजीराव	-12.0191
▁उजवा	-12.0191
▁तुकडी	-12.0191
▁Auto	-12.0193
▁चुलत	-12.0202
संपर्क	-12.0218
सन्मान	-12.0219
▁Contact	-12.0224
▁हाँगकाँग	-12.0224
craft	-12.0224
▁पठार	-12.0225
▁मुलाबाळां	-12.0226
आयुष्य	-12.0252
▁डेन्मार्क	-12.0257
▁निर्वासित	-12.0257
▁रोमॅन्स	-12.0257
▁सांख्यिकी	-12.0257
स्टार्ट	-12.0262
▁रेणू	-12.0267
आत्म	-12.028
शैली	-12.0283
▁अजिंक्य	-12.0291
▁पाश्चात्य	-12.0291
▁शुक्राणू	-12.0291
▁मध्यंतरी	-12.0291
▁मम्मी	-12.0291
▁आदमी	-12.0291
▁रेसिंग	-12.0291
▁7:2	-12.0299
कंपनी	-12.032
▁कॉपिअर	-12.0324
▁सबमिट	-12.0324
▁कोठडी	-12.0324
▁संभ्रम	-12.0324
▁डार्विन	-12.0358
पौर्णिमा	-12.0358
▁आठवडय़ा	-12.0358
▁निर्दिष्ट	-12.0358
▁म्‍हण	-12.0358
▁सूर्योदय	-12.0358
£	-12.1585
ञ	-12.2526
•	-13.0396
