<unk>	0
<s>	0
</s>	0
.	-2.91153
,	-3.95767
▁	-3.97719
▁आहे	-4.29392
▁आणि	-4.73562
च	-4.77295
त	-4.82962
ी	-4.90889
ला	-5.08107
?	-5.10058
▁नाही	-5.10421
स	-5.13268
र	-5.29869
े	-5.30564
ा	-5.35175
ल	-5.35215
न	-5.39219
▁एक	-5.3962
)	-5.4651
▁ते	-5.47958
▁मी	-5.48699
क	-5.50071
▁या	-5.50078
▁हे	-5.51042
च्या	-5.53553
:	-5.60992
▁आहेत	-5.64287
ही	-5.66513
ं	-5.68585
▁(	-5.68911
▁व	-5.7157
चा	-5.75135
-	-5.75374
ात	-5.75443
य	-5.7583
म	-5.78797
▁का	-5.81589
ू	-5.8657
▁हा	-5.87189
चे	-5.87593
ने	-5.90144
▁तो	-5.93609
ची	-5.94375
▁पण	-5.94878
▁काही	-6.00384
ले	-6.011
▁आपण	-6.03961
व	-6.04672
▁तर	-6.07046
▁त्या	-6.08173
▁काय	-6.09162
ली	-6.09575
▁मला	-6.0966
ट	-6.10189
!	-6.1114
▁होते	-6.11158
▁की	-6.11796
ता	-6.14954
ड	-6.16671
प	-6.19745
▁ही	-6.23809
;	-6.29045
▁अ	-6.30162
▁असे	-6.30641
वर	-6.32751
▁‘	-6.36605
▁आपल्या	-6.38834
▁ती	-6.40835
s	-6.41481
ून	-6.41567
ज	-6.42439
ना	-6.44334
▁सर्व	-6.44628
▁-	-6.48702
’	-6.48916
ाचा	-6.49261
मध्ये	-6.52852
▁आता	-6.54618
▁होती	-6.55467
▁त्यांना	-6.56234
▁"	-6.56709
▁आम्ही	-6.57305
ळ	-6.58111
▁होता	-6.58373
ाच्या	-6.58427
▁तुम्ही	-6.58581
▁म्हणून	-6.59442
ाची	-6.59582
वा	-6.60183
▁त्यामुळे	-6.66609
ग	-6.66724
▁न	-6.68194
▁किंवा	-6.68396
ित	-6.68672
▁केले	-6.6932
ते	-6.7071
▁करा	-6.71955
री	-6.7321
ाचे	-6.74498
▁“	-6.74855
▁काम	-6.75051
ाने	-6.76309
ल्या	-6.76472
ाला	-6.79031
ण	-6.79069
▁त्याला	-6.81298
▁माझ्या	-6.81363
ांना	-6.81385
ब	-6.83574
▁विचार	-6.85042
▁केली	-6.86591
साठी	-6.88499
▁त्यांच्या	-6.88721
▁त्यांनी	-6.88926
▁अनेक	-6.92299
▁कारण	-6.92347
्य	-6.93641
श	-6.95148
▁तुम्हाला	-6.95346
▁आ	-6.95891
द	-6.96478
▁म्हणजे	-6.97254
▁करू	-6.97276
▁लोक	-6.97377
शी	-6.97765
णे	-6.98641
▁मध्ये	-6.9866
▁जे	-6.98808
रा	-6.9931
▁आज	-6.99465
िक	-7.0065
ावर	-7.01827
▁केला	-7.02079
्स	-7.02659
ो	-7.0288
तो	-7.03311
▁:	-7.04712
"	-7.06433
▁दोन	-7.07623
▁दिवस	-7.07975
▁झाले	-7.08185
मा	-7.09473
▁वेळ	-7.12469
▁खूप	-7.12691
▁वापर	-7.12893
▁अधिक	-7.13205
▁असते	-7.13957
▁क	-7.14164
्या	-7.1457
▁ना	-7.14819
का	-7.15527
▁त्याच्या	-7.15535
या	-7.15702
▁&	-7.16413
▁तेव्हा	-7.16599
▁एका	-7.16727
▁'	-7.16916
gt	-7.17278
ह	-7.1732
ातील	-7.17818
▁आले	-7.18581
▁फक्त	-7.1909
ंग	-7.2019
ि	-7.2031
▁झाला	-7.20544
▁1	-7.20959
e	-7.21196
▁तू	-7.21216
▁असेल	-7.2183
▁करण्यासाठी	-7.21887
ांची	-7.2261
▁नाहीत	-7.22963
▁प्रत्येक	-7.23635
▁ब	-7.24386
'	-7.24584
्	-7.25166
▁कमी	-7.25852
▁वि	-7.25953
▁माहिती	-7.26457
▁करून	-7.26919
ती	-7.27298
डी	-7.27555
ासाठी	-7.27797
▁/	-7.28163
▁झाली	-7.28823
o	-7.28945
वि	-7.29029
▁खेळ	-7.29337
▁करत	-7.29711
तील	-7.29775
सा	-7.30361
▁प	-7.30751
▁नि	-7.31233
ांनी	-7.31386
णार	-7.31465
ांच्या	-7.32556
▁बदल	-7.32724
▁म	-7.32829
िंग	-7.32877
▁तुमच्या	-7.34003
फ	-7.34589
▁प्र	-7.35158
ु	-7.35816
▁आमच्या	-7.35939
मी	-7.361
तात	-7.36711
▁मदत	-7.38405
▁आपल्याला	-7.3845
y	-7.3849
▁कोण	-7.38582
ंड	-7.38679
▁तरी	-7.39347
▁ह्या	-7.39986
▁गोष्टी	-7.40206
नी	-7.40495
▁पुन्हा	-7.41137
▁तयार	-7.41295
▁नाव	-7.42679
▁2	-7.42695
▁नवीन	-7.42957
▁ग	-7.43454
▁उ	-7.43622
▁होत	-7.4512
▁अशा	-7.45278
▁असा	-7.45477
▁वाढ	-7.45531
▁त्याने	-7.45831
लं	-7.45883
▁इतर	-7.46845
▁असतात	-7.47272
ायला	-7.47418
थ	-7.47768
▁होणार	-7.47838
टी	-7.47923
कर	-7.47968
▁असतो	-7.48397
▁करणे	-7.48418
▁करण्यात	-7.48485
▁मुहम्मद	-7.48496
दा	-7.48747
▁आली	-7.49789
▁करतो	-7.50303
कडे	-7.50337
ांचा	-7.50418
▁जास्त	-7.50673
▁परंतु	-7.51335
▁प्रश्न	-7.51364
▁जाते	-7.51501
▁येथे	-7.51893
ण्यासाठी	-7.52063
णी	-7.52126
▁किती	-7.52683
▁3	-7.52715
▁वर्ष	-7.53299
▁मात्र	-7.5349
▁सर्वात	-7.5401
▁शकते	-7.54207
▁इ	-7.54798
▁परत	-7.5513
▁घर	-7.55647
▁ज्या	-7.55731
ेल	-7.5608
▁आला	-7.56391
▁ह	-7.56792
ई	-7.56966
▁देव	-7.56988
ख	-7.5706
▁S	-7.57426
▁वा	-7.58047
n	-7.58054
▁सु	-7.58243
लो	-7.58594
ांचे	-7.58949
भ	-7.58957
▁मग	-7.5912
▁देश	-7.59565
▁होतो	-7.59951
▁पाहिजे	-7.60139
ंना	-7.60611
▁शकता	-7.60926
p	-7.61186
वे	-7.61298
▁सं	-7.61608
▁होईल	-7.61738
▁येत	-7.61796
रे	-7.61978
▁तसेच	-7.62736
(	-7.6277
▁–	-7.62924
अ	-7.63195
▁पूर्ण	-7.63376
▁आहोत	-7.63402
पासून	-7.63449
▁त्यात	-7.63622
▁वर	-7.64142
▁सुरू	-7.64205
▁जो	-7.64632
▁!	-7.64691
/	-7.64742
1	-7.64779
▁केवळ	-7.6539
▁तीन	-7.65941
u	-7.66546
▁शकतो	-7.66657
▁गरज	-7.67076
र्	-7.6722
c	-7.6776
i	-7.67805
▁अल्लाह	-7.68012
”	-7.68034
▁कधी	-7.69419
▁ज	-7.69557
▁शकत	-7.69561
▁मा	-7.69852
S	-7.69985
ॉ	-7.70426
▁जा	-7.70556
▁प्रयत्न	-7.70582
00	-7.7077
वी	-7.71144
er	-7.71217
से	-7.71489
स्ट	-7.71875
▁करतात	-7.72006
▁आपले	-7.7242
3	-7.72738
▁शब्द	-7.72852
▁गेले	-7.73162
▁आम्हाला	-7.73338
▁ए	-7.73447
▁मे	-7.73787
शा	-7.73901
▁P	-7.73923
▁माझा	-7.74228
▁आवश्यक	-7.74228
▁होऊ	-7.74434
झ	-7.74728
▁प्रेम	-7.75129
ास	-7.76273
r	-7.76646
%	-7.76933
ण्याची	-7.77333
▁तुला	-7.77578
C	-7.77841
ंची	-7.78137
▁त्याचा	-7.78157
हा	-7.78197
१	-7.78696
ing	-7.78786
▁असं	-7.79839
▁सा	-7.79926
▁5	-7.79933
▁माझे	-7.80151
पा	-7.80478
▁बाहेर	-7.80608
▁त्याचे	-7.80647
ीय	-7.80766
a	-7.80909
स्	-7.80966
▁कि	-7.81156
al	-7.81189
▁पुढे	-7.81544
▁ख	-7.81634
▁तिला	-7.81704
▁त्यांचे	-7.81883
ष	-7.81988
▁मार्ग	-7.81991
▁जात	-7.81999
▁कर	-7.82118
▁वाट	-7.82205
▁अशी	-7.82271
▁सेवा	-7.82448
A	-7.82466
चं	-7.82478
▁जीवन	-7.82517
जी	-7.82572
▁दिले	-7.82661
="	-7.82772
▁१९	-7.82791
ंचा	-7.8294
बा	-7.82979
▁व्यक्ती	-7.83298
▁कसे	-7.83298
▁जग	-7.83467
▁भाग	-7.83621
▁कार्य	-7.83892
ठ	-7.84008
t	-7.84075
▁माझी	-7.8434
▁भेट	-7.84449
k	-7.84653
▁करणार	-7.85116
▁करता	-7.85141
▁म्हणाला	-7.85256
ऱ्या	-7.85468
ां	-7.85527
ंनी	-7.85632
जा	-7.85733
▁करते	-7.85781
ंच्या	-7.86386
▁नंतर	-7.86553
▁...	-7.86813
▁4	-7.86922
D	-7.87106
▁चीन	-7.87173
▁आनंद	-7.87257
▁कु	-7.87515
▁त्यांची	-7.87765
▁A	-7.87926
मुळे	-7.87954
▁द	-7.88159
g	-7.88493
प्र	-7.88508
▁म्हणाले	-7.8877
▁चित्रपट	-7.89137
पणे	-7.89371
▁विश्वास	-7.89726
▁तिच्या	-7.89852
▁ओ	-7.90474
▁कंपनी	-7.90606
▁C	-7.91255
▁निर्णय	-7.91271
▁त्याची	-7.913
दार	-7.91351
टा	-7.91533
▁श	-7.91699
▁नका	-7.92051
5	-7.92237
▁ठेव	-7.92319
▁म्हणजेच	-7.9246
▁पा	-7.92598
▁लोकांना	-7.92778
इ	-7.92859
▁जाऊ	-7.92989
ंद	-7.93056
ेट	-7.93058
कार	-7.93249
के	-7.93442
▁B	-7.93557
त्र	-7.9357
की	-7.93591
त्या	-7.93844
ावे	-7.93859
▁_	-7.94157
P	-7.94171
▁जर	-7.9468
▁मित्र	-7.94758
▁तुझ्या	-7.94776
▁चांगले	-7.94944
ण्या	-7.95053
▁सल	-7.95084
in	-7.95177
▁योग्य	-7.95567
▁स्वतः	-7.95644
2	-7.95716
ंत	-7.95733
मान	-7.95817
आ	-7.95868
नि	-7.95922
▁आण	-7.96
or	-7.96254
▁पाणी	-7.96345
▁आई	-7.96496
M	-7.96774
▁गोष्ट	-7.96992
▁दिली	-7.97193
▁को	-7.97421
▁परिणाम	-7.9794
m	-7.98264
▁पुस्तक	-7.98577
▁इथे	-7.98587
▁बे	-7.99294
▁ओळख	-7.99441
ar	-7.99485
▁मन	-7.99519
▁घ्या	-7.9986
▁राज्य	-7.99976
▁उत्तर	-8.00246
an	-8.0026
▁शहर	-8.00387
▁अर्थ	-8.00537
▁10	-8.00622
▁बस	-8.00652
▁सरकार	-8.00653
▁देखील	-8.00955
ातून	-8.01238
▁हि	-8.01492
▁येणार	-8.01565
२	-8.01628
▁शोध	-8.01679
▁चार	-8.01719
ाय	-8.01772
उ	-8.02036
▁भारत	-8.02243
ॅ	-8.02313
▁माहीत	-8.02351
ण्यात	-8.02431
▁द्या	-8.02567
▁प्रवास	-8.02895
▁बंद	-8.0428
▁उत्पादन	-8.04371
▁खा	-8.04475
ळी	-8.04605
▁अनुभव	-8.04651
ध	-8.04972
▁वाटते	-8.05097
णा	-8.05275
▁घेऊन	-8.05288
▁त्यांचा	-8.05344
पी	-8.0554
T	-8.05636
▁मुख्य	-8.0586
d	-8.05948
ळा	-8.06134
lt	-8.06836
ed	-8.06993
▁गो	-8.07061
▁सांगितले	-8.07637
ाई	-8.07734
▁वेळी	-8.07917
▁प्रेषित	-8.08136
▁T	-8.08273
▁सुरुवात	-8.08338
▁कोणत्याही	-8.08376
▁शकतात	-8.08743
4	-8.08805
▁भारतीय	-8.09054
▁ट	-8.09081
मि	-8.09148
ांमध्ये	-8.09349
▁पाच	-8.09653
▁लेख	-8.09699
पेक्षा	-8.09833
O	-8.09947
▁भर	-8.10244
कडून	-8.10255
re	-8.10449
▁H	-8.10469
E	-8.1054
▁हो	-8.10574
▁स्वत	-8.10978
▁दु	-8.11036
▁त्यानंतर	-8.11128
▁सि	-8.11356
I	-8.11405
▁करीत	-8.11536
▁येईल	-8.11575
ांत	-8.11875
0	-8.1188
५	-8.11996
▁आपला	-8.12114
व्ह	-8.12193
रो	-8.12258
▁आहात	-8.12373
▁महिला	-8.12453
▁पे	-8.12574
ांसाठी	-8.12619
f	-8.12798
पर्यंत	-8.12923
▁विशेष	-8.13049
बद्दल	-8.13292
▁व्यवसाय	-8.13726
▁कोणी	-8.13726
▁आपली	-8.13911
▁मि	-8.14042
▁सुंदर	-8.14122
▁रंग	-8.14291
अम्	-8.14464
▁दिला	-8.14515
स्त	-8.14601
▁आणखी	-8.14625
ंचे	-8.14657
ै	-8.14686
▁हात	-8.14701
▁शिक	-8.14806
▁G	-8.14843
दी	-8.15043
▁रि	-8.15076
▁यांच्या	-8.15093
at	-8.1515
▁सी	-8.15204
▁F	-8.15209
िन	-8.15374
▁जातो	-8.15378
न्स	-8.15388
क्ष	-8.15523
▁M	-8.15585
▁19	-8.15648
बी	-8.15686
ौ	-8.15711
▁प्रकार	-8.1583
▁म्हणतात	-8.15856
▁यांनी	-8.15959
▁करायला	-8.15972
▁ऐक	-8.16461
▁दाखव	-8.16772
▁करण्याची	-8.17239
▁३	-8.17527
▁चाल	-8.17617
▁अल्लाहचे	-8.17774
▁लग्न	-8.17954
▁इलाह	-8.18324
४	-8.18479
सुद्धा	-8.18542
b	-8.18544
▁इल्लल्लाह	-8.18763
व्या	-8.18778
▁रसूलुल्लाह	-8.18783
▁कुठे	-8.18808
▁श्री	-8.18821
▁6	-8.19069
▁विषय	-8.19077
le	-8.19108
▁मुली	-8.19203
▁तिथे	-8.1945
▁निर्माण	-8.19667
▁फ	-8.19762
८	-8.19813
▁पड	-8.19912
▁लहान	-8.19957
मे	-8.19965
▁शिक्षण	-8.19996
▁शरीर	-8.20121
it	-8.203
▁मु	-8.21482
▁दूर	-8.21555
ांवर	-8.21615
▁गेल्या	-8.21624
▁सह	-8.21658
▁स्	-8.21911
▁जी	-8.21926
▁भ	-8.22052
ए	-8.22168
▁घरी	-8.22171
ण्याचा	-8.22216
▁वर्षे	-8.2264
▁उपलब्ध	-8.22642
▁जाणार	-8.22694
▁दोन्ही	-8.22863
▁खर्च	-8.23097
▁संपूर्ण	-8.23304
▁D	-8.23371
▁टाक	-8.23392
▁मान	-8.23414
▁के	-8.23504
B	-8.23547
▁जवळ	-8.23593
ंट	-8.23756
x	-8.23776
टे	-8.2385
▁फार	-8.24195
▁पुढील	-8.24432
ायचे	-8.24561
▁उच्च	-8.24995
▁मोठा	-8.25067
▁दिवशी	-8.25181
ंब	-8.25215
▁मोठ्या	-8.25448
▁गेला	-8.25511
l	-8.25661
h	-8.25691
डे	-8.25933
on	-8.25973
मधील	-8.26219
▁म्हण	-8.26254
तून	-8.26389
गा	-8.26919
▁समाज	-8.26977
▁मार	-8.26983
▁अगदी	-8.26989
▁येते	-8.27039
▁7	-8.27067
न्	-8.27612
▁समस्या	-8.28183
▁तास	-8.28267
▁लक्षात	-8.28467
्यु	-8.28778
हि	-8.29092
▁पासून	-8.29162
▁पैसे	-8.29286
▁मराठी	-8.2939
मो	-8.29562
▁असू	-8.29568
]	-8.2975
▁२	-8.29885
▁कदाचित	-8.29908
▁चित्र	-8.29969
▁कसा	-8.30298
▁सम	-8.30381
सह	-8.30388
▁बा	-8.30722
L	-8.30746
▁दर	-8.30799
▁नव्हते	-8.30924
▁बन	-8.30926
▁रात्री	-8.30982
▁चांगला	-8.31091
▁वेळा	-8.31118
6	-8.31198
▁पि	-8.31215
▁४	-8.31356
▁ठिकाणी	-8.31426
जे	-8.3169
▁सुद्धा	-8.32031
▁विविध	-8.32291
▁सत्य	-8.32362
▁पर	-8.3247
▁8	-8.32727
▁राजा	-8.32731
▁उप	-8.32847
लि	-8.32851
▁जन्म	-8.3294
▁सुरक्षित	-8.32943
▁शि	-8.32958
ुन	-8.32981
▁start	-8.33003
▁भाषा	-8.33073
"&	-8.33139
▁आयुष्य	-8.33299
▁नये	-8.33352
▁जातात	-8.33393
▁वाटत	-8.33402
▁काळ	-8.33438
▁dur	-8.33489
▁मृत्यू	-8.33565
▁बनव	-8.33775
▁रा	-8.33855
६	-8.33985
▁पहिल्या	-8.34102
▁दे	-8.34611
▁अस	-8.34905
▁चि	-8.34959
७	-8.35019
▁निवड	-8.35277
▁सध्या	-8.35295
ch	-8.35357
▁आय	-8.354
▁नियम	-8.3541
▁संप	-8.35576
ाव	-8.35592
▁काढ	-8.35594
▁फोन	-8.35629
क्स	-8.35674
्यू	-8.35784
▁नेहमी	-8.35803
को	-8.3583
िका	-8.35837
९	-8.36052
बरोबर	-8.36101
▁पक्ष	-8.3616
▁सर	-8.36202
ामध्ये	-8.36303
नंतर	-8.36341
▁रे	-8.36384
▁से	-8.36569
डा	-8.36596
▁सांग	-8.36635
▁लाव	-8.36676
▁धर्म	-8.36684
▁जि	-8.36927
▁(1	-8.3697
▁मनुष्य	-8.37457
▁अजून	-8.3749
▁पुरुष	-8.37614
▁बोल	-8.37646
▁भा	-8.37717
▁अतिशय	-8.37852
10	-8.37903
▁प्रति	-8.38272
▁जेव्हा	-8.38597
▁असलेल्या	-8.38647
▁जण	-8.38685
▁काहीतरी	-8.38838
३	-8.38894
ओ	-8.38982
▁खरेदी	-8.39141
घ	-8.39335
▁’	-8.39466
लेल्या	-8.39474
▁हवे	-8.39623
H	-8.39639
et	-8.39773
8	-8.39794
हे	-8.39872
▁लक्ष	-8.39906
लेले	-8.40097
R	-8.4017
▁राज	-8.40356
खा	-8.40483
▁उत्तम	-8.40489
▁त्यासाठी	-8.40615
F	-8.40618
es	-8.40642
वून	-8.40968
w	-8.41101
▁माणूस	-8.41231
▁परमेश्वर	-8.41668
▁सोड	-8.41845
en	-8.41973
▁ट्र	-8.42203
▁20	-8.42222
▁झ	-8.42265
णाऱ्या	-8.42316
▁उघड	-8.42574
पणा	-8.42611
▁चांगली	-8.43005
▁याचा	-8.43049
▁आवड	-8.43112
▁झोप	-8.43296
▁पहा	-8.43368
▁इतिहास	-8.43415
ग्र	-8.43513
z	-8.44065
▁कळ	-8.44176
▁पु	-8.44269
▁मोठी	-8.4428
ol	-8.44386
▁9	-8.44412
▁विभाग	-8.44544
▁योजना	-8.44752
▁वर्षी	-8.4489
▁काळजी	-8.45018
▁सो	-8.45494
▁गाडी	-8.45553
▁घाल	-8.45646
▁समज	-8.45664
रण	-8.45677
▁गेली	-8.45696
▁शेवटी	-8.45766
▁घेतला	-8.45832
▁अभ्यास	-8.46106
▁कधीच	-8.46124
▁एकदा	-8.46192
▁घेतले	-8.46627
▁देऊ	-8.4682
रु	-8.46941
N	-8.4733
▁तेथे	-8.47356
▁तुमचा	-8.47435
ळे	-8.47459
एस	-8.47534
▁कॅ	-8.47565
रि	-8.47614
▁भाव	-8.47701
▁सामान्य	-8.47882
7	-8.47939
पण	-8.47998
▁पाहिले	-8.48246
▁कार्यक्रम	-8.48251
▁कार	-8.4827
▁कधीही	-8.48437
▁तु	-8.48971
ri	-8.49159
▁साठी	-8.49162
▁१	-8.49456
▁केल्या	-8.49679
▁मुलगा	-8.49839
्व	-8.49887
▁मो	-8.49978
▁यामुळे	-8.50055
ृ	-8.50056
▁जाईल	-8.5012
▁शे	-8.50133
▁घेत	-8.50171
▁मिळव	-8.50308
ताना	-8.50322
सारखे	-8.5037
G	-8.50509
▁हजार	-8.50762
र्स	-8.50784
▁L	-8.50886
▁N	-8.51012
टर	-8.51078
त्व	-8.51105
▁पी	-8.51159
▁राह	-8.51165
▁असताना	-8.5122
ाशी	-8.51311
▁संपर्क	-8.51448
▁किंमत	-8.5156
▁स्त्री	-8.51587
प्रमाणे	-8.51774
▁५	-8.51775
20	-8.51825
▁मशीन	-8.52037
▁घेऊ	-8.52078
िल	-8.5209
▁येतो	-8.52346
▁एकत्र	-8.52504
▁डॉक्टर	-8.52908
जन	-8.52971
▁संख्या	-8.53178
▁12	-8.53287
▁माहित	-8.5332
▁जाणून	-8.5352
▁मिळाले	-8.53588
▁सगळे	-8.53613
▁तुमची	-8.53748
र्ड	-8.53752
शि	-8.5382
ः	-8.54083
तु	-8.54121
▁सदस्य	-8.54508
ळ्या	-8.54522
श्	-8.54527
▁घड	-8.54535
▁दिसत	-8.54791
▁प्रवेश	-8.54791
▁नेहमीच	-8.54814
▁अजूनही	-8.54928
ीकरण	-8.54996
त्त	-8.55162
▁प्राप्त	-8.55706
▁ध	-8.55891
▁‘‘	-8.56047
▁करावे	-8.56157
▁उद्या	-8.56177
क्	-8.56231
9	-8.56241
_	-8.56311
नो	-8.56333
▁आधी	-8.56376
▁ये	-8.56439
▁त्यावर	-8.56645
▁नव्हता	-8.56647
▁तुमचे	-8.5677
▁माग	-8.56871
▁देत	-8.56894
शे	-8.56984
▁नोकरी	-8.56998
▁मुले	-8.57023
ापासून	-8.57024
▁वाचा	-8.57209
▁संधी	-8.57222
▁ई	-8.5735
▁गाव	-8.57404
▁E	-8.5747
ढ	-8.5761
▁काहीही	-8.577
▁याची	-8.57735
ra	-8.57963
▁थांब	-8.58038
▁करण्याचा	-8.58109
▁”	-8.58142
णं	-8.58193
शील	-8.58222
धी	-8.58254
▁तरीही	-8.5841
▁संघ	-8.58526
र्क	-8.58533
स्थ	-8.5861
▁संबंध	-8.58615
ंज	-8.58796
▁प्रथम	-8.58797
▁तिने	-8.58955
▁करण्यास	-8.59094
▁विकास	-8.5923
▁सगळ्या	-8.59263
▁बघ	-8.59296
12	-8.59352
▁गा	-8.59856
िया	-8.5988
र्ट	-8.59897
▁महा	-8.5994
ro	-8.60013
▁केंद्र	-8.60337
▁घेतली	-8.60467
▁विमान	-8.60519
ic	-8.60577
▁उपचार	-8.60637
▁येशू	-8.60847
▁पाठव	-8.61009
▁डाउनलोड	-8.61121
▁मुंबई	-8.61245
▁ऑनलाइन	-8.61278
▁युद्ध	-8.61298
▁यासाठी	-8.61607
▁जागा	-8.61732
▁लाख	-8.61734
▁खरे	-8.61991
▁प्रकाश	-8.62179
क्त	-8.62223
ुक	-8.62555
▁शक्य	-8.62562
▁तसे	-8.62622
▁मागे	-8.62671
▁दा	-8.62674
विषयी	-8.62721
▁इच्छा	-8.62812
ल्ड	-8.63127
▁पाय	-8.63127
▁देणार	-8.63307
ायची	-8.6334
▁आकार	-8.63349
▁असणार	-8.63539
▁15	-8.63781
.”	-8.63874
धार	-8.63935
ण्यास	-8.6434
▁होतात	-8.64411
▁बी	-8.6446
▁डे	-8.6446
▁स्पष्ट	-8.64614
▁ज्ञान	-8.64784
सोबत	-8.64789
▁ति	-8.64906
▁लागले	-8.65242
ur	-8.65273
▁छ	-8.65458
▁कशी	-8.65499
▁पो	-8.65567
त्य	-8.65595
▁पर्याय	-8.6563
▁लि	-8.65695
▁पुर	-8.65699
ड्या	-8.65757
ल्	-8.65788
11	-8.66183
वले	-8.66228
▁चर्चा	-8.66415
अर	-8.66543
▁कुटुंब	-8.66577
▁नव्हती	-8.66743
▁संगीत	-8.66744
▁शाळा	-8.66858
हून	-8.66882
▁*	-8.66894
▁प्रकारे	-8.6707
▁डी	-8.67088
▁लागेल	-8.67177
▁वाईट	-8.67294
▁स्थान	-8.67477
▁p	-8.67617
▁येतात	-8.67753
्‍	-8.6805
▁in	-8.68123
th	-8.68126
▁बि	-8.6817
पे	-8.68266
▁मुलगी	-8.68289
▁मोठे	-8.68401
ियन	-8.68541
▁पोस्ट	-8.68551
▁विक	-8.68573
ंमध्ये	-8.68599
▁W	-8.6862
▁संस्था	-8.68679
▁सात	-8.68728
▁दुसऱ्या	-8.68796
▁दिस	-8.68946
▁होतं	-8.68955
▁पर्यंत	-8.68975
▁O	-8.69032
ज्ञ	-8.69066
▁[	-8.69213
भा	-8.69234
▁पत्र	-8.69339
ामुळे	-8.6942
▁c	-8.69589
us	-8.69698
▁एस	-8.69788
बे	-8.69818
काळ	-8.6984
50	-8.6989
▁हवी	-8.69904
ंवर	-8.69975
कु	-8.70063
्र	-8.7008
▁सुमारे	-8.70105
▁स्वप्न	-8.70116
▁अत्यंत	-8.70148
▁बाळ	-8.70254
▁अधिकार	-8.70288
योग	-8.70306
▁शक्ती	-8.70323
गो	-8.70408
▁R	-8.70501
▁म्हणतो	-8.70664
▁पुरस्कार	-8.70718
हो	-8.70934
▁अप	-8.70965
▁उपयोग	-8.71067
▁आवाज	-8.71109
▁झाल्या	-8.71132
ad	-8.71157
▁दरम्यान	-8.71208
▁संदेश	-8.71362
▁एखाद्या	-8.71411
▁जोड	-8.71459
पर	-8.71478
▁आरोग्य	-8.71693
▁मिळेल	-8.71694
▁मिळ	-8.71735
▁बरोबर	-8.71941
ण्याचे	-8.72016
amp	-8.72097
▁सर्वोत्तम	-8.72097
ेड	-8.72139
▁आर	-8.72171
नुसार	-8.72203
▁कल्पना	-8.72285
ेश	-8.72398
▁फोटो	-8.72484
▁#	-8.72567
15	-8.72597
▁करताना	-8.72608
▁क्र	-8.72759
▁घटना	-8.72886
शन	-8.72932
▁लो	-8.73142
▁क्षेत्र	-8.73169
ेशन	-8.7324
▁नव	-8.7331
▁जाण	-8.734
▁देशात	-8.73536
▁महान	-8.7368
▁जिंक	-8.7372
▁K	-8.74016
▁तरुण	-8.74105
▁कठीण	-8.74532
▁डि	-8.74646
▁टी	-8.74737
▁मत	-8.75026
▁खाली	-8.75066
▁+	-8.75226
▁घरात	-8.75244
▁मुक्त	-8.75449
▁भारतात	-8.75597
▁विसर	-8.75654
▁I	-8.75809
▁क्ल	-8.7589
सि	-8.76143
▁शांत	-8.76187
द्ध	-8.76192
▁ठेवा	-8.76223
j	-8.76261
▁एकूण	-8.7627
▁पत्नी	-8.76277
▁मुलांना	-8.76393
▁लिह	-8.76421
▁म्हटले	-8.76433
▁परिस्थिती	-8.76528
▁त्यावेळी	-8.76541
▁स्ट	-8.76641
▁चांगल्या	-8.76707
▁अव	-8.76854
▁संबंधित	-8.76972
▁महिन्या	-8.77017
▁असून	-8.77059
▁पद	-8.7719
W	-8.77252
▁ग्राहक	-8.77263
▁१०	-8.77278
▁ठर	-8.77353
फा	-8.77393
▁साध	-8.77503
ति	-8.77632
ायचा	-8.77721
V	-8.78042
▁सहा	-8.78248
▁आठ	-8.78419
▁खेळाडू	-8.78439
st	-8.78475
▁पहिला	-8.78533
▁रक्त	-8.78614
▁of	-8.78717
ाकडे	-8.788
▁विजय	-8.78844
था	-8.78953
▁टॅटू	-8.79012
▁पूर्व	-8.79028
un	-8.79395
▁वस्तू	-8.79448
▁11	-8.79478
बाबत	-8.79672
▁असल्याचे	-8.80116
▁लाभ	-8.80125
▁बोलत	-8.80153
▁दहा	-8.80404
is	-8.80413
16	-8.80501
▁येऊ	-8.80555
▁विवाह	-8.80603
▁संरक्षण	-8.80678
णारा	-8.80756
▁देण्यात	-8.80796
▁18	-8.80882
▁खु	-8.8118
▁निर्	-8.81251
▁अमेरिकन	-8.81276
▁परि	-8.81298
▁असतील	-8.81355
am	-8.81893
▁गु	-8.81929
▁त्यातून	-8.81982
▁धन्यवाद	-8.82009
▁नको	-8.82028
▁अन्य	-8.82211
▁शिक्षक	-8.82344
▁स्व	-8.82359
▁इस्राएल	-8.82402
भर	-8.82435
▁अनु	-8.82442
▁प्रक्रिया	-8.82566
▁लवकर	-8.82631
▁यांना	-8.82811
▁गंभीर	-8.82894
▁यश	-8.82963
▁औषध	-8.82987
वृत्त	-8.83091
▁कोणत्या	-8.83179
▁मिळत	-8.83225
▁क्षण	-8.83253
▁मुला	-8.83348
शिवाय	-8.83357
▁प्रमाण	-8.83724
▁होत्या	-8.83759
▁दि	-8.83822
▁इच्छित	-8.84058
मु	-8.8414
ड्र	-8.84241
ंसाठी	-8.8427
▁एम	-8.84369
▁महाराष्ट्र	-8.84467
X	-8.84491
▁मंदिर	-8.84554
्रो	-8.84574
il	-8.84591
सु	-8.84725
▁जगात	-8.84739
▁30	-8.84955
▁स्वीकार	-8.85025
▁the	-8.85105
▁सकाळी	-8.85136
▁विक्री	-8.85259
▁उत्पादने	-8.85278
v	-8.85637
▁केलेल्या	-8.85683
ायचं	-8.85801
▁J	-8.85841
▁माणसा	-8.86036
त्	-8.86073
▁प्रणाली	-8.86088
▁आमचे	-8.86106
ावा	-8.86122
▁उठ	-8.86193
पु	-8.86271
वाद	-8.86613
ation	-8.86948
▁नसते	-8.87072
▁व्हिडिओ	-8.87086
▁साहित्य	-8.87124
▁»	-8.87148
el	-8.87387
▁सहन	-8.87393
▁क्षमता	-8.87431
वरील	-8.87442
▁मॅ	-8.87476
▁स्प	-8.87512
▁भाऊ	-8.87514
्म	-8.87538
लेली	-8.87566
गी	-8.87591
▁भाजप	-8.87661
▁डेटा	-8.87836
▁पाकिस्तान	-8.88353
▁अन	-8.88479
▁यावर	-8.88523
▁आत	-8.88608
ter	-8.88614
▁करावा	-8.88638
19	-8.88713
▁नव्हे	-8.88726
▁दक्षिण	-8.88799
▁जगातील	-8.88807
▁साली	-8.88843
▁पेक्षा	-8.88859
▁सुरक्षा	-8.88932
▁समावेश	-8.89074
ne	-8.89306
▁आधार	-8.89374
▁इं	-8.89395
मधून	-8.89408
▁शक्यता	-8.89425
▁0	-8.89452
▁क्षमा	-8.89626
▁रेल्वे	-8.89881
30	-8.89918
▁तंत्रज्ञान	-8.89925
▁पवित्र	-8.89985
▁देतो	-8.90014
U	-8.90295
▁डॉ	-8.90506
▁यावेळी	-8.90635
op	-8.90647
▁रोज	-8.90652
▁टॉम	-8.90702
िस	-8.90714
▁कृपया	-8.90786
धा	-8.90802
▁राष्ट्रीय	-8.90803
▁तुझे	-8.90932
▁and	-8.91079
ir	-8.91083
ष्ट	-8.91287
17	-8.91491
▁प्रभाव	-8.91511
▁दुसरा	-8.91621
▁लवकरच	-8.91628
▁आंतरराष्ट्रीय	-8.91753
्यात	-8.91784
क्र	-8.91785
▁वजन	-8.91829
०	-8.91968
र्म	-8.91973
▁उपाय	-8.92007
▁पॅ	-8.92094
▁नक्की	-8.92115
▁राष्ट्र	-8.92119
▁बांध	-8.92179
K	-8.92236
▁बद्दल	-8.92265
▁पुरवठादार	-8.92277
▁मिळाली	-8.92302
▁पृष्ठ	-8.92307
देव	-8.92387
▁सोडून	-8.924
▁m	-8.92425
वू	-8.92439
िम	-8.92589
▁पार	-8.92598
पैकी	-8.92665
▁लागू	-8.92783
ाऊ	-8.92792
▁नियंत्रण	-8.92891
ानंतर	-8.93046
ाळ	-8.9323
▁निश्चित	-8.93471
▁विकत	-8.93862
▁विद्यार्थी	-8.93933
▁पोहोच	-8.93975
▁आयुष्यात	-8.94027
▁उत्पादक	-8.94074
01	-8.94151
▁प्रसिद्ध	-8.94178
▁शो	-8.942
▁करण्या	-8.94328
▁सामाजिक	-8.94519
▁आमची	-8.9452
▁जेवण	-8.94571
िट	-8.94584
पूर	-8.94591
▁सोपे	-8.94618
▁मतदान	-8.94639
००	-8.94653
▁विचारले	-8.94679
▁स्वागत	-8.94698
▁६	-8.94702
▁वर्ग	-8.94761
्‍या	-8.94767
▁उद्योग	-8.948
णारे	-8.94998
▁फायदा	-8.95055
80	-8.9507
▁फे	-8.95091
▁करु	-8.9517
▁$	-8.95324
▁लागली	-8.95325
▁प्रशिक्षण	-8.9533
दे	-8.95391
▁रो	-8.95436
▁मिळणार	-8.95568
▁पट	-8.95604
▁लेखक	-8.9569
▁एल	-8.95787
र्ण	-8.95803
▁न्याय	-8.95885
▁बॉ	-8.95908
▁b	-8.95975
राव	-8.95989
▁थ	-8.95999
me	-8.96095
शास्त्र	-8.96147
▁प्रमाणात	-8.96562
▁2018	-8.96563
▁करायचे	-8.96618
देश	-8.96622
13	-8.96627
▁व्या	-8.96692
द्वारे	-8.96725
▁रु	-8.96733
▁जाऊन	-8.96778
▁यु	-8.96792
▁व्यावसायिक	-8.96957
थे	-8.96966
▁आर्थिक	-8.97013
▁एकाच	-8.97174
li	-8.9719
▁a	-8.97215
दर	-8.97354
▁ऑ	-8.97463
▁घटक	-8.97469
14	-8.97554
▁होय	-8.97657
▁आवडत	-8.97702
सारखा	-8.97703
▁वेगळे	-8.97996
बि	-8.98075
पो	-8.98164
▁उदाहरण	-8.98173
▁विद्यापीठ	-8.98326
▁•	-8.98341
▁मागणी	-8.98353
▁आजही	-8.98383
आय	-8.9844
▁to	-8.98453
वार	-8.9851
18	-8.98616
▁त्रास	-8.98671
▁असल्यास	-8.98742
▁अधिकारी	-8.9918
टिंग	-8.99185
▁झाड	-8.99293
▁ख्रिस्त	-8.99312
समोर	-8.99361
▁आशा	-8.99443
▁आवश्यकता	-8.99575
▁गुण	-8.996
▁सुरु	-8.99836
युक्त	-8.99956
▁२००	-9.00035
▁डो	-9.00119
▁बु	-9.00119
क्या	-9.00187
▁सुधार	-9.00239
▁प्रा	-9.00287
जर	-9.0037
र्न	-9.0041
▁२०	-9.00512
▁पूर्णपणे	-9.00703
ट्ट	-9.00735
▁शिकव	-9.01002
▁चालू	-9.01026
▁भविष्य	-9.01074
▁राजकारण	-9.01078
▁सापड	-9.0108
आर	-9.01082
▁होऊन	-9.01139
वली	-9.01204
▁करेल	-9.01239
भूत	-9.01369
▁करावी	-9.01403
▁स्वतःला	-9.01412
▁खो	-9.01433
▁सूर्य	-9.01471
▁खरंच	-9.01528
▁चुक	-9.0158
पद	-9.01609
▁व्हा	-9.01626
▁प्रकल्प	-9.01735
▁माझ्यासाठी	-9.01891
ऊ	-9.0192
एम	-9.0203
▁लढ	-9.02054
▁w	-9.02061
▁14	-9.02086
▁16	-9.02152
ाचं	-9.0216
▁नागरिक	-9.0247
▁प्रकरण	-9.02491
ोन	-9.02538
▁चालव	-9.02555
कृत	-9.02566
▁सर्वांना	-9.02608
▁उपस्थित	-9.02629
▁कोणीही	-9.02728
▁एन	-9.02855
द्	-9.02934
▁मांड	-9.02953
▁वापरले	-9.03107
ार्थ	-9.03108
▁13	-9.03265
▁अंदाज	-9.03326
▁शा	-9.03367
▁फिर	-9.03455
▁काळात	-9.03567
▁f	-9.03567
क्क	-9.0357
▁अन्न	-9.03602
▁नाहीये	-9.03628
वरून	-9.03643
▁पृथ्वी	-9.03848
▁लागते	-9.0385
▁ठरव	-9.03866
▁सांगतो	-9.03868
▁समोर	-9.03921
▁वाटतं	-9.03989
▁देते	-9.04008
sh	-9.04018
as	-9.04094
▁हर	-9.04183
▁अम	-9.04186
▁संशोधन	-9.0427
▁भावना	-9.04502
▁सगळं	-9.04506
▁राहणार	-9.04527
▁प्रदान	-9.0463
▁आलो	-9.04706
ाबद्दल	-9.04782
▁केलं	-9.05017
▁दाखल	-9.0513
▁वाग	-9.05236
फे	-9.05319
▁पहिली	-9.05531
जवळ	-9.05574
्रे	-9.05594
35	-9.05741
▁प्रो	-9.05821
▁समुद्र	-9.05854
000	-9.05873
▁वडील	-9.0591
▁(2	-9.05947
▁पुणे	-9.05996
▁खास	-9.06078
▁यादी	-9.06096
▁अमेरिके	-9.06097
▁ब्लॅक	-9.06134
▁कोटी	-9.06195
ay	-9.06472
▁बाकी	-9.0657
▁पाप	-9.06654
▁टक्के	-9.06667
com	-9.06728
▁प्रार्थना	-9.06744
ul	-9.06789
▁घे	-9.06889
▁प्रदेश	-9.06987
▁साधन	-9.07067
▁राजकीय	-9.07117
वळ	-9.07169
▁शपथ	-9.07194
र्थ	-9.07256
▁25	-9.07294
पुर	-9.07297
▁नुकसान	-9.07334
▁करुन	-9.07358
▁पावडर	-9.07365
▁आग	-9.07387
▁कला	-9.07391
▁तसा	-9.07425
▁तुझी	-9.07459
▁मिनिट	-9.07731
दि	-9.07739
▁मानले	-9.07811
वान	-9.07935
▁मुलां	-9.07937
▁झालेल्या	-9.07952
दु	-9.08046
▁कर्ज	-9.08053
▁वाद	-9.08061
स्ट्र	-9.08174
▁कार्ड	-9.082
▁कायदा	-9.08209
ालय	-9.08216
ॉन	-9.0836
▁प्रमुख	-9.08445
ha	-9.08465
गे	-9.08617
▁थोडा	-9.08649
▁अध्यक्ष	-9.08759
▁पाण्या	-9.08856
▁तिचा	-9.08904
ठा	-9.08937
▁साथ	-9.09177
▁इंग्रजी	-9.09192
▁लिहिले	-9.09202
32	-9.09217
▁धाव	-9.09217
ॉल	-9.09461
▁अभि	-9.09462
▁राहिले	-9.09473
▁17	-9.09508
▁यांचे	-9.09628
▁भरपूर	-9.09682
▁घाबर	-9.0971
सारख्या	-9.10003
▁पालक	-9.10032
▁असत	-9.10086
▁लागला	-9.10201
र्ज	-9.10299
▁डिझाइन	-9.10333
▁कशाला	-9.10339
स्क	-9.10433
▁बहुतेक	-9.10462
म्प	-9.10485
05	-9.10527
▁सतत	-9.10596
▁फा	-9.1091
▁अंतिम	-9.11052
id	-9.11155
▁पुढच्या	-9.11247
ॉट	-9.11314
ly	-9.11361
ांक	-9.11417
निक	-9.11552
▁कॉ	-9.1158
▁भूमिका	-9.11721
▁मते	-9.11848
▁स्थिती	-9.11853
च्छ	-9.11867
▁गट	-9.11964
▁आजार	-9.12013
▁तुम्हांला	-9.12113
▁डा	-9.12125
▁शक	-9.12176
▁समान	-9.12312
▁24	-9.12324
▁कथा	-9.12465
▁खात्री	-9.12513
lo	-9.12651
▁झालं	-9.12712
▁सॉफ्टवेअर	-9.12816
पूर्ण	-9.12847
▁केलेले	-9.12952
सारखी	-9.13007
▁मिळाला	-9.13042
▁मागील	-9.13069
▁नेम	-9.1307
▁टो	-9.1314
्‍य	-9.1325
प्त	-9.13341
▁V	-9.13356
▁अर्थात	-9.13656
▁खरं	-9.13687
खे	-9.13808
3)	-9.13833
▁लोकप्रिय	-9.1389
▁धर	-9.13946
▁आठवत	-9.13963
ow	-9.14025
▁लोकांनी	-9.14108
36	-9.14114
ers	-9.14119
45	-9.14156
▁मनात	-9.14174
▁अॅ	-9.14175
गाव	-9.14211
ंप	-9.14219
▁कार्यालय	-9.14364
▁सांगा	-9.14578
वेद	-9.14601
्यांना	-9.14638
▁थोडे	-9.1464
▁हवा	-9.14764
बल	-9.14835
▁यांचा	-9.14891
▁नगर	-9.1496
▁बो	-9.14993
स्व	-9.1522
राम	-9.15252
▁तुझा	-9.15298
25	-9.15391
▁नक्कीच	-9.15496
कि	-9.1563
90	-9.1564
▁क्रमांक	-9.15649
ाइ	-9.15807
▁कस	-9.15834
द्या	-9.15889
पि	-9.15982
▁ठेवले	-9.16066
te	-9.16103
पत्र	-9.16166
▁आदेश	-9.16311
▁शत्रू	-9.16362
▁अल्	-9.16393
▁ब्लॉग	-9.16412
▁अरे	-9.16603
यो	-9.16771
▁दिसते	-9.16866
07	-9.16899
▁७	-9.17156
▁बाजार	-9.1734
ma	-9.17367
▁उतर	-9.17371
▁यांची	-9.17508
▁आल्या	-9.1759
▁प्रयोग	-9.1763
ate	-9.17631
▁अनेकदा	-9.17683
▁संगणक	-9.17733
▁कॅसिनो	-9.1775
ावी	-9.17826
▁चंद्र	-9.17849
जो	-9.17869
99	-9.17876
▁मान्य	-9.1795
▁धोरण	-9.17958
▁समजून	-9.1815
▁शाळेत	-9.18172
▁स्टील	-9.18213
▁ऍ	-9.1822
▁पकड	-9.18227
▁अर्ज	-9.18353
▁१८	-9.18378
▁खालील	-9.18392
▁हस	-9.18395
▁बँक	-9.18454
▁2019	-9.18495
▁ब्र	-9.1857
▁नदी	-9.18661
ोर	-9.18673
लिंग	-9.18711
▁पाह	-9.18787
▁नसेल	-9.18809
▁सेक्स	-9.18816
ांशी	-9.18886
▁गुणवत्ता	-9.1893
▁करणारे	-9.18955
06	-9.18996
mm	-9.19066
▁असणे	-9.19087
▁विज्ञान	-9.1914
▁पोलिस	-9.19179
▁आकाश	-9.19198
▁चिंता	-9.1921
▁इतके	-9.19352
▁परमेश्वरा	-9.1951
▁जवळपास	-9.19544
▁थंड	-9.1959
▁X	-9.1963
न्न	-9.19813
▁काढून	-9.19928
करण	-9.19986
▁थेट	-9.20147
co	-9.20174
▁मोफत	-9.20232
▁संस्कृती	-9.20236
22	-9.20487
▁पहिले	-9.20515
▁करार	-9.20536
▁दुर्	-9.20549
▁पैसा	-9.20597
um	-9.20607
र्य	-9.20842
डो	-9.20952
▁घेणे	-9.2096
▁बाजू	-9.20965
4)	-9.20988
साक्ष	-9.21154
38	-9.2116
▁re	-9.21282
▁सूचना	-9.21372
▁दुकान	-9.21385
▁कंपन्या	-9.21507
▁तपास	-9.21549
▁विरोध	-9.21564
प्ल	-9.21652
बु	-9.21653
▁युरोप	-9.21696
▁समर्थन	-9.2177
▁इतकी	-9.2182
▁रड	-9.21836
▁बातम्या	-9.21836
▁मर	-9.21912
▁केस	-9.22095
वादी	-9.2213
स्थान	-9.22135
▁रोजी	-9.22288
37	-9.22323
▁वेगळी	-9.22434
▁जून	-9.22534
पाल	-9.22547
▁यशस्वी	-9.22595
▁८	-9.22617
▁कोणताही	-9.22643
▁मानव	-9.22826
ho	-9.22966
▁करायची	-9.23081
▁पाळ	-9.2318
▁॥	-9.23185
झा	-9.2324
▁शकेल	-9.23311
▁कोड	-9.23336
िय	-9.2334
▁कुठून	-9.23432
गर	-9.23445
▁लागणार	-9.23446
▁कपडे	-9.23473
▁तिचे	-9.23476
क्रम	-9.23501
▁दर्शव	-9.23516
he	-9.23569
ँ	-9.23596
मेंट	-9.23728
वेळी	-9.24037
▁शहरात	-9.24039
▁९	-9.24077
▁म्हणाली	-9.24113
राज	-9.2414
▁जीव	-9.24144
न्या	-9.24272
▁200	-9.24299
▁फ्ल	-9.24445
भाव	-9.2448
ip	-9.24549
▁विशिष्ट	-9.24609
▁असता	-9.24622
▁ठिकाण	-9.24624
33	-9.24642
तः	-9.24661
▁देतात	-9.24733
▁Re	-9.24805
ent	-9.24851
and	-9.249
षण	-9.24935
▁असलेले	-9.25042
ॅन	-9.25046
▁असल्याने	-9.25228
▁50	-9.25284
ess	-9.25365
▁दोष	-9.25385
▁प्रिय	-9.25411
▁डोळे	-9.25509
एल	-9.25618
▁पर्यावरण	-9.25723
▁पदार्थ	-9.25742
▁पाहू	-9.25848
▁आढळ	-9.25864
ta	-9.25989
▁कोणतीही	-9.26033
करी	-9.26108
▁कालावधी	-9.26116
▁कोणती	-9.26323
70	-9.26367
ल्स	-9.26381
▁सलाम	-9.26388
▁साइट	-9.26388
▁मोबाइल	-9.26436
ष्ठ	-9.2655
▁चूक	-9.26551
▁वाहन	-9.26557
ुम	-9.26564
▁इंटरनेट	-9.26568
▁कोणाला	-9.266
▁महत्त्व	-9.26646
▁सिद्ध	-9.26647
▁दिन	-9.26735
▁आवडते	-9.26773
▁व्यक्त	-9.26808
▁एच	-9.26811
ल्यावर	-9.26935
▁स्क	-9.2701
देखील	-9.2702
▁जागतिक	-9.27022
▁१५	-9.27045
▁दररोज	-9.27059
di	-9.27076
▁नाटक	-9.27108
▁सादर	-9.2727
▁कुणी	-9.27285
34	-9.27346
▁प्राणी	-9.27523
▁किमान	-9.27649
▁तिची	-9.27722
▁पुढ	-9.27752
▁मूळ	-9.28115
▁खूपच	-9.28227
▁करणाऱ्या	-9.28359
▁लाल	-9.28415
▁पडत	-9.28493
▁प्रेरणा	-9.28512
▁अंत	-9.28539
▁जसे	-9.28582
श्र	-9.28585
▁फळ	-9.28765
ट्या	-9.28769
▁सुख	-9.28777
▁एक्स	-9.28952
▁ऑफ	-9.2897
▁निर्मिती	-9.28975
▁स्थानिक	-9.29142
02	-9.29159
▁चौ	-9.29168
पट	-9.29378
se	-9.29397
▁घेतो	-9.29399
▁ईश्वर	-9.29437
▁फरक	-9.2956
ध्द	-9.29566
जि	-9.29571
▁वर्षांपूर्वी	-9.2965
▁माझ्याकडे	-9.29651
ियम	-9.29676
▁निकाल	-9.29705
▁h	-9.29741
▁फि	-9.29818
▁सक्षम	-9.2983
▁t	-9.29942
▁आतापर्यंत	-9.30043
टो	-9.30102
▁कर्मचारी	-9.30255
▁मागा	-9.30265
▁वै	-9.30336
घा	-9.30422
करिता	-9.3054
▁करण्याचे	-9.30621
▁सैन्य	-9.30624
▁तोंड	-9.30649
▁देणे	-9.30678
ुर	-9.30679
एक्स	-9.30749
▁कळत	-9.30759
▁दुसरी	-9.3077
▁गेलो	-9.30807
▁अपेक्षा	-9.3081
▁2017	-9.30857
▁महत्त्वाचे	-9.30869
08	-9.30942
▁उमेदवार	-9.31079
▁वेगळा	-9.31081
▁प्रकारच्या	-9.31153
▁घेता	-9.31215
▁मिळते	-9.31218
▁मानवी	-9.31238
▁मुद्दा	-9.31257
स्त्र	-9.3127
▁परवानगी	-9.31356
▁आठवड्यात	-9.31412
तुम्ही	-9.31418
भाष	-9.31425
▁लाग	-9.31431
▁इथ	-9.31456
▁ऑक्टोबर	-9.31574
▁गाय	-9.31583
▁न्यायालय	-9.31629
▁एफ	-9.31654
▁मजा	-9.31694
▁कायद्या	-9.31737
▁लांब	-9.31979
▁नव्या	-9.31999
▁कविता	-9.32074
▁हातात	-9.32082
ट्स	-9.32108
om	-9.32232
▁निघ	-9.32246
पूर्वी	-9.32321
▁पाड	-9.32358
60	-9.32397
to	-9.32397
39	-9.32437
द्र	-9.32643
▁कशा	-9.32668
▁मोदी	-9.3272
40	-9.32764
▁जानेवारी	-9.3277
▁सार्वजनिक	-9.3283
▁टाळ	-9.32879
ia	-9.32925
▁घ	-9.3294
▁घेणार	-9.32969
▁होणे	-9.32989
▁भू	-9.33025
▁त्यातील	-9.33063
्रा	-9.33214
▁नोंद	-9.33223
व्य	-9.3323
▁पद्धती	-9.33424
▁संवाद	-9.33496
▁मुलं	-9.33619
ोड	-9.33642
▁व्यवस्थापन	-9.3382
▁आमचा	-9.33851
▁कॉल	-9.33919
र्‍या	-9.33961
▁मार्च	-9.34046
▁समिती	-9.34085
▁प्रस्ताव	-9.34205
▁वाह	-9.34239
▁वाचन	-9.3426
▁१२	-9.34444
▁अंग	-9.3453
24	-9.34537
▁असले	-9.34638
▁आईची	-9.34749
▁हवं	-9.34771
▁मालिका	-9.34791
▁राहा	-9.34856
▁निवडणूक	-9.34874
एक	-9.35013
बंध	-9.35093
▁सामना	-9.35178
▁शोधत	-9.35345
▁थोडी	-9.35372
▁धु	-9.35399
▁इतका	-9.35437
21	-9.35478
▁बोनस	-9.35499
▁शिवाय	-9.35544
▁हॉटेल	-9.35583
▁विश्व	-9.3559
▁वाढत	-9.35625
▁सहभागी	-9.35759
▁येथील	-9.35763
▁स्वतंत्र	-9.35808
▁घोषणा	-9.35826
डि	-9.35949
ोप	-9.36115
गु	-9.36156
▁गुंतवणूक	-9.36156
▁वेगवेगळ्या	-9.36198
▁माध्यमातून	-9.36247
काम	-9.36275
▁प्रकारचे	-9.36323
▁दृश्य	-9.36361
ॅम	-9.36362
▁सत्ता	-9.36508
▁श्रीमंत	-9.36531
▁महत्वाचे	-9.36655
▁अचानक	-9.36656
▁सौ	-9.3667
खर	-9.36689
27	-9.36782
▁पूर्वी	-9.36834
▁वडिलां	-9.36871
▁£	-9.36904
▁Ch	-9.3694
र्ग	-9.37014
▁रहा	-9.37156
▁मॉडेल	-9.37158
26	-9.37167
▁टे	-9.37169
▁वर्षात	-9.37252
▁सांगत	-9.37254
्मा	-9.37284
ot	-9.37321
▁मध्य	-9.37328
▁पाहा	-9.37364
िश	-9.37388
▁प्रभावी	-9.37398
व्हा	-9.37403
▁व्यवहार	-9.37434
ack	-9.37493
▁चढ	-9.37573
वंत	-9.3758
▁वार	-9.37694
la	-9.37725
▁वास्तव	-9.37802
▁चाचणी	-9.37851
▁प्रे	-9.37862
▁जम	-9.3795
ंदा	-9.37965
▁विकसित	-9.38043
▁शुद्ध	-9.38138
▁होण्याची	-9.38171
▁महिन्यात	-9.38198
;&	-9.382
▁दिसून	-9.382
ण्याच्या	-9.38235
बर	-9.38267
▁आलं	-9.38323
48	-9.38331
णारी	-9.38364
▁राहू	-9.384
▁रात्र	-9.38643
▁करणारा	-9.38674
मुख	-9.38674
▁In	-9.38706
▁कुणा	-9.38754
▁ठीक	-9.38758
▁वैयक्तिक	-9.3882
▁जिवंत	-9.3883
व्ही	-9.38846
▁दुसरे	-9.3887
▁आत्ता	-9.38978
="2	-9.39004
▁हक्क	-9.39075
ive	-9.39076
03	-9.39127
▁टीव्ही	-9.39186
▁महिने	-9.39233
▁पडले	-9.39246
▁बाबतीत	-9.39286
▁रुपये	-9.39318
▁बघा	-9.3933
▁काळा	-9.39332
ut	-9.39335
▁करायचा	-9.39347
▁लागतो	-9.39455
▁ऱ्ह	-9.39462
▁पाऊस	-9.39512
▁व्यापार	-9.39584
▁म्हणत	-9.39617
23	-9.39641
▁राख	-9.39667
▁पान	-9.3968
▁उलट	-9.39727
▁नोंदणी	-9.3985
▁पुनरावलोकन	-9.39855
▁नसल्या	-9.39954
▁आधारित	-9.40062
▁कॅम	-9.4007
▁परीक्षा	-9.40071
▁बरेच	-9.40103
बो	-9.40149
▁कारवाई	-9.40179
कृती	-9.40184
ve	-9.40269
tt	-9.40333
▁जाहीर	-9.40361
Y	-9.40423
▁पुनर्	-9.40476
हित	-9.4057
▁सार	-9.40623
▁अंतर्गत	-9.40636
्ड	-9.40647
▁रोग	-9.40668
▁लागत	-9.40676
▁जबाबदारी	-9.40705
▁ठेवली	-9.40709
▁पुस्तके	-9.4074
▁सोबत	-9.40779
द्द	-9.4087
▁व्यवस्था	-9.40875
ल्ट	-9.40888
अल	-9.40892
▁आधीच	-9.40963
▁येऊन	-9.41004
ex	-9.41063
09	-9.41112
▁साजरा	-9.41243
▁स्थापना	-9.4126
प्प	-9.41275
▁स्पर्धा	-9.41315
च्च	-9.41319
्री	-9.41436
▁द्वारे	-9.41438
▁100	-9.41474
▁ब्ल	-9.4153
ंडा	-9.41561
▁मज	-9.41562
▁हु	-9.41567
ti	-9.4167
▁रचना	-9.41704
▁पहिल्यांदा	-9.41752
▁खरोखर	-9.41804
▁चालत	-9.41837
ॅट	-9.4185
▁दिल्ली	-9.41952
▁पुत्र	-9.42101
▁कप	-9.42115
▁फॅक्टरी	-9.42142
▁देऊन	-9.42149
os	-9.42212
िप	-9.42215
28	-9.42241
im	-9.42271
शु	-9.42281
▁वेबसाइट	-9.42318
▁कलाकार	-9.4238
▁आपल्याकडे	-9.42387
▁अमेरिकेत	-9.42421
▁जमीन	-9.4251
एफ	-9.42578
▁गि	-9.42599
▁प्रतिक्रिया	-9.4265
▁समाविष्ट	-9.42849
▁देवा	-9.4288
ोल	-9.43028
ँड	-9.43078
▁सुधारणा	-9.43096
▁वातावरण	-9.43116
ठी	-9.43179
-20	-9.43394
्वा	-9.43538
▁करतील	-9.4368
ग्	-9.43782
▁फायदे	-9.43785
▁माल	-9.43867
▁मार्गदर्शन	-9.44056
04	-9.44124
▁याबाबत	-9.44138
ॅक	-9.44301
▁देवाने	-9.4431
▁शेवट	-9.44378
▁अहवाल	-9.44527
हर	-9.44581
र्द	-9.44591
▁स्त्रियां	-9.4461
▁कम	-9.44653
29	-9.44717
▁वचन	-9.4475
42	-9.44766
▁खरा	-9.44856
▁आरोप	-9.44866
▁नियमित	-9.449
▁फ्र	-9.45063
▁माय	-9.45174
▁2015	-9.45253
▁सुविधा	-9.45259
िले	-9.45309
▁टॉ	-9.4531
रूप	-9.45436
75	-9.45463
▁शासन	-9.45566
▁झालो	-9.45595
▁झालेले	-9.45597
▁g	-9.45604
कृष्ण	-9.45639
▁जर्मनी	-9.4569
ापेक्षा	-9.4574
ry	-9.45882
▁फुल	-9.46115
▁डॉलर	-9.46147
▁माझ्यावर	-9.46156
▁देवाच्या	-9.46198
▁22	-9.46236
▁लगेच	-9.46256
ver	-9.46293
िर	-9.46315
ig	-9.46328
▁नाम	-9.46335
फि	-9.46364
ानुसार	-9.46384
▁जिल्हा	-9.46419
de	-9.46473
▁उत्कृष्ट	-9.46486
▁दिवसात	-9.46495
▁समाधान	-9.46578
▁ढ	-9.46613
▁जमा	-9.46725
बळ	-9.46734
▁गरीब	-9.46743
▁लॉ	-9.4679
▁राम	-9.46792
▁रूप	-9.46942
▁एकमेकां	-9.46973
▁कामगिरी	-9.46976
ल्यानंतर	-9.47027
गार	-9.47104
▁कोणतेही	-9.47169
Q	-9.47198
सो	-9.47317
वाह	-9.47327
▁झालेली	-9.47391
▁वाटले	-9.47565
्यांची	-9.47597
▁क्लिक	-9.47649
विले	-9.47728
▁माझं	-9.47807
र्त	-9.47821
▁असलेली	-9.47835
▁मरण	-9.47839
▁केलेली	-9.47915
▁पाव	-9.47919
▁[...]	-9.4797
▁टिक	-9.4801
ल्ल	-9.48026
▁वर्णन	-9.48094
▁प्रतिसाद	-9.48251
▁21	-9.48284
▁जवळजवळ	-9.48361
▁मोज	-9.48383
mo	-9.48424
▁राहतात	-9.48481
▁अमेरिका	-9.48532
▁उड	-9.48536
आम्ही	-9.48577
▁आठवड्या	-9.48724
क्षा	-9.48765
▁चेहरा	-9.48767
▁सहज	-9.48779
▁अनुप्रयोग	-9.4879
▁भाषण	-9.48849
▁रुग्ण	-9.48873
▁हत्या	-9.4892
ृत	-9.48948
▁जुन्या	-9.48964
तनांसाठी	-9.4901
▁पात्र	-9.49047
▁रुपया	-9.49287
▁ऐकले	-9.49352
▁मूल्य	-9.49378
▁मोड	-9.49401
[	-9.49419
▁आश्चर्य	-9.49587
Name	-9.49624
▁उल्लेख	-9.49689
स्ती	-9.49695
▁पंतप्रधान	-9.49831
▁ठ	-9.49847
▁आत्मा	-9.49927
▁आवृत्ती	-9.49928
▁आज्ञा	-9.49971
▁मंत्र	-9.50044
▁सांगू	-9.50048
ज्ञान	-9.5012
▁दिल्या	-9.50154
ियर	-9.50204
▁सामग्री	-9.50213
▁जरा	-9.50232
▁आठवण	-9.50259
▁कामगार	-9.50314
▁पत्रकार	-9.5033
▁सेट	-9.50351
▁महत्व	-9.50392
▁एप्रिल	-9.50428
▁निराश	-9.5064
ab	-9.50698
▁बातमी	-9.5072
est	-9.50731
ढा	-9.50778
▁तारीख	-9.50812
ाईन	-9.50816
▁शिव	-9.50846
कुमार	-9.50924
47	-9.51038
श्‍	-9.51134
▁अभिमान	-9.51154
ang	-9.51247
▁2014	-9.5126
▁जन	-9.51357
▁कोणता	-9.51361
▁रद्द	-9.51376
गड	-9.51434
प्रे	-9.51446
▁सप्टेंबर	-9.51608
दान	-9.51686
▁प्रशासन	-9.51753
▁गुरु	-9.51807
▁स्वातंत्र्य	-9.51826
▁धन	-9.51884
▁सारे	-9.51903
▁क्रिकेट	-9.5202
▁गावात	-9.52042
▁गड	-9.52074
▁An	-9.52208
▁बाल	-9.52243
▁U	-9.52312
▁उभे	-9.52339
▁व्हि	-9.52402
▁असतं	-9.52445
▁पद्धत	-9.52519
▁is	-9.52635
▁बघत	-9.52674
ावं	-9.52705
▁बाजूला	-9.52725
क्षण	-9.52729
▁येतील	-9.52831
▁उंच	-9.52872
ts	-9.52883
आणि	-9.52907
▁वाक्य	-9.52915
▁ऑफर	-9.5292
▁रॉ	-9.5309
ांपेक्षा	-9.53116
▁चर्च	-9.53176
०००	-9.53196
▁प्रकाशित	-9.53235
निया	-9.53455
▁अंतर	-9.53495
▁सर्वाधिक	-9.53506
▁असो	-9.53597
ाखाली	-9.53606
▁माध्यम	-9.53654
▁त्यांच्यावर	-9.5372
▁मजबूत	-9.53886
&	-9.53888
ity	-9.53922
ंगा	-9.53932
▁आव्हान	-9.53963
मेल	-9.53966
्ल	-9.54005
यु	-9.54011
संबंधी	-9.54034
▁उपक्रम	-9.54068
▁माणसे	-9.54084
▁2016	-9.54156
na	-9.54212
ांकडे	-9.54217
▁Co	-9.54241
▁यंत्र	-9.54319
▁वाचव	-9.54353
▁जादूगार	-9.54439
▁पोट	-9.54492
▁शकणार	-9.54502
▁पाहून	-9.54614
▁आभार	-9.54647
▁यू	-9.54706
▁देता	-9.54721
41	-9.54759
ist	-9.54845
▁चहा	-9.5491
▁ऑस्ट्रेलिया	-9.54931
▁तपशील	-9.54957
65	-9.55005
hi	-9.55034
▁कॉलेज	-9.55034
▁राहील	-9.55078
▁अति	-9.552
55	-9.55262
▁शाळे	-9.55262
▁सू	-9.55279
ानं	-9.55295
▁सुट	-9.55299
▁वर्षांत	-9.55327
▁सिनेमा	-9.55337
▁आधुनिक	-9.55383
▁मोह	-9.55414
▁राहिला	-9.55427
▁कोर	-9.55435
वण	-9.55453
▁शेअर	-9.55463
▁खड	-9.55562
▁भागात	-9.55593
▁शेती	-9.55597
ment	-9.55611
▁सायकल	-9.55624
▁रू	-9.557
all	-9.55769
▁साधा	-9.55816
दायक	-9.55946
▁अपघात	-9.56027
▁३०	-9.56038
▁उत्	-9.56038
▁जपान	-9.56126
▁त्याबद्दल	-9.56133
▁विद्यार्थ्यां	-9.56162
▁जिथे	-9.56362
▁रशिया	-9.56448
▁खरी	-9.56497
▁व्यायाम	-9.56545
▁मंडळ	-9.56562
▁त्यानुसार	-9.56647
ंद्र	-9.56771
▁गांधी	-9.56827
ांपासून	-9.56931
ंध	-9.56992
्यावर	-9.57012
▁टीम	-9.57043
ce	-9.57045
▁लागतात	-9.57064
▁अटक	-9.57078
▁छान	-9.57139
one	-9.5714
तोय	-9.57166
46	-9.5728
▁प्रतिमा	-9.57316
▁23	-9.57353
र्व	-9.57365
▁ऑफिस	-9.57489
रिया	-9.57502
▁तिथ	-9.57537
86	-9.5754
▁40	-9.57545
56	-9.57669
▁भीती	-9.57675
▁घेण्यासाठी	-9.57954
▁स्वतःच्या	-9.58025
▁घडले	-9.58047
▁हृदय	-9.58111
▁लेखन	-9.5813
ॉप	-9.58254
▁साधारण	-9.58277
▁बोलाव	-9.58315
▁थांबव	-9.58333
▁वैशिष्ट्य	-9.58343
▁शतक	-9.58387
▁फॉ	-9.58402
▁वैद्यकीय	-9.58551
िड	-9.58648
▁लढाई	-9.58684
▁मानसिक	-9.58761
▁हॅ	-9.58867
▁कोणीतरी	-9.58893
ात्मक	-9.58905
▁प्रचंड	-9.58999
▁सरकारने	-9.59005
वेळ	-9.59058
▁तयारी	-9.59107
▁सांगतात	-9.59156
नाथ	-9.59274
▁नंबर	-9.59359
▁वीर्यपिचकारी	-9.59385
▁स्वच्छ	-9.59506
ंदी	-9.59619
▁विस्तार	-9.59858
ion	-9.59862
▁l	-9.59918
खंड	-9.60038
▁अशाच	-9.60051
▁दरवाजा	-9.60069
ांमुळे	-9.60069
▁मुलाला	-9.60088
-1	-9.60139
ांकडून	-9.60205
धान	-9.60253
▁पवार	-9.6032
़	-9.60331
▁नष्ट	-9.60388
▁खोली	-9.60424
▁ओळखले	-9.60626
▁उदाहरणार्थ	-9.60645
▁बार	-9.60673
▁अद्याप	-9.60674
▁योजने	-9.60683
▁शेतकऱ्यां	-9.60685
▁नेतृत्व	-9.60703
▁सैनिक	-9.60786
▁चौकशी	-9.60862
क्षे	-9.60957
▁सल्ला	-9.60997
▁असावे	-9.61005
ावरील	-9.6101
▁मूवीस	-9.61045
▁28	-9.61203
भाग	-9.61207
▁तथापि	-9.61288
▁St	-9.61387
▁गरम	-9.61395
tr	-9.6146
िके	-9.61498
▁थक	-9.61499
▁रोख	-9.61505
▁बाबा	-9.61559
ोज	-9.61572
म्	-9.61655
िटी	-9.61661
ध्या	-9.6179
▁प्रारंभ	-9.61821
▁विजे	-9.61824
▁नकोस	-9.61944
▁झालेला	-9.62119
▁पळ	-9.62134
▁वर्षांचा	-9.62134
▁दोघां	-9.62139
▁व्ही	-9.62148
ेंट	-9.62246
▁खाऊ	-9.62259
ाइड	-9.62304
▁नसतो	-9.62368
▁उपकरणे	-9.62414
▁बॅ	-9.62495
छ	-9.62518
▁शिक्षा	-9.62553
▁छोट्या	-9.62576
▁Ma	-9.62594
▁क्षेत्रात	-9.62641
त्री	-9.62667
▁रस	-9.627
हु	-9.62706
▁आप	-9.6276
▁मूर्ख	-9.62793
लंय	-9.62804
▁गृह	-9.62808
▁वास्तविक	-9.62827
▁प्रती	-9.62943
▁De	-9.6296
्ज	-9.62973
▁डोस	-9.6315
▁जनते	-9.63355
▁आवडेल	-9.63378
▁प्ले	-9.63416
▁सन	-9.63451
▁भु	-9.63593
विरुद्ध	-9.63721
▁उचल	-9.63751
▁लोकांच्या	-9.63767
44	-9.63843
▁निर्देश	-9.63852
▁Home	-9.63855
▁जुळ	-9.63893
गृह	-9.64065
67	-9.64072
▁बाब	-9.64209
▁निघून	-9.64219
▁संदर्भ	-9.6448
▁डाय	-9.64547
▁अवलंबून	-9.64587
▁कसं	-9.64618
31	-9.64727
▁सुपर	-9.64819
88	-9.64864
▁न्यू	-9.64878
▁अधिकृत	-9.64919
▁आंदोलन	-9.64928
▁तुमच्यासाठी	-9.6505
▁दगड	-9.65093
▁पूजा	-9.65178
▁निसर्ग	-9.65205
कोण	-9.65325
▁सरकारी	-9.65382
लेख	-9.65398
em	-9.654
▁दुख	-9.65436
▁जेथे	-9.65478
▁नेते	-9.65596
57	-9.6563
▁बहु	-9.65711
▁मिळू	-9.65771
ाइट	-9.6588
▁कोणते	-9.65885
ap	-9.65891
▁प्रदर्शन	-9.6595
▁संस्थे	-9.66013
▁त्याचं	-9.66039
▁डोंगर	-9.66071
कारक	-9.66204
▁be	-9.66261
▁यो	-9.66309
▁सुरवात	-9.66346
▁प्रश्‍न	-9.66377
▁बैठक	-9.66469
िओ	-9.66507
पोर्ट	-9.66522
▁26	-9.66623
▁आहार	-9.66668
▁चलन	-9.66689
▁पुरव	-9.66706
▁राहतो	-9.66734
▁तपासणी	-9.66745
▁जॉन	-9.66765
क्रि	-9.66825
▁टॅ	-9.66865
▁आजच्या	-9.66905
घर	-9.67
▁जाती	-9.67043
▁पसर	-9.6716
▁योग	-9.67173
▁नवी	-9.67184
ie	-9.67202
चित्र	-9.67224
▁नकार	-9.67237
▁नोट	-9.67251
▁देईल	-9.6728
▁गुंत	-9.67298
मागे	-9.67336
▁नजर	-9.674
ापर्यंत	-9.67499
▁तापमान	-9.67521
धि	-9.67531
▁वरील	-9.67601
49	-9.67645
बोध	-9.67658
▁वापरून	-9.67677
▁इंजिन	-9.67678
▁’’	-9.67699
▁शु	-9.67706
ब्र	-9.67712
भि	-9.67753
ंडे	-9.67818
▁जु	-9.67879
ant	-9.67937
98	-9.67976
▁सगळी	-9.6803
▁देण्यासाठी	-9.68049
▁पोलीस	-9.68051
▁माणसाला	-9.68067
▁लक्ष्य	-9.6807
▁you	-9.68115
▁नैसर्गिक	-9.68161
▁प्रकारची	-9.68176
▁पुरवठा	-9.68209
रोध	-9.6824
मधे	-9.68241
धू	-9.68286
66	-9.68312
▁विनामूल्य	-9.68333
त्रे	-9.68338
▁बोलू	-9.68454
दैव	-9.68509
▁जपानी	-9.68512
▁करीन	-9.68531
▁जुलै	-9.68591
▁सवय	-9.68592
▁१००	-9.68647
▁शेतकरी	-9.68658
▁साधने	-9.68666
▁तळ	-9.68746
▁फेब्रुवारी	-9.68792
▁पडला	-9.68815
▁म्ह	-9.68872
95	-9.68884
▁ग्रंथ	-9.68965
qu	-9.68985
त्ता	-9.69033
▁लिमिटेड	-9.69051
▁मीटर	-9.69132
▁दोघेही	-9.69135
▁याबद्दल	-9.69164
▁ऐ	-9.69165
स्टर	-9.69178
▁उद्देश	-9.69206
▁बांधकाम	-9.69206
▁वायर	-9.6929
43	-9.69301
up	-9.69336
▁घो	-9.69395
▁परमेश्वराने	-9.69443
▁मोटर	-9.69483
▁वंश	-9.69536
▁घ्यायला	-9.69611
▁मुख्यमंत्री	-9.69619
▁इटालियन	-9.69658
▁भागीदार	-9.69718
▁महत्त्वाचा	-9.69719
▁दुपारी	-9.69775
िनी	-9.6985
▁मंडळी	-9.69855
▁आणले	-9.69862
▁त्यांच्याकडे	-9.69881
▁जीवनात	-9.69955
▁जादू	-9.69958
▁तक्रार	-9.69978
▁व्य	-9.69979
▁भारतातील	-9.6999
टि	-9.70052
थी	-9.70117
av	-9.70156
52	-9.70348
age	-9.70376
▁जल	-9.7041
साहेब	-9.70421
▁गेम	-9.70471
▁मीडिया	-9.70511
▁स्लॉट	-9.70533
्यांनी	-9.70536
▁जंगल	-9.70593
▁स्थापन	-9.70601
▁Y	-9.70614
▁असाल	-9.70645
▁उपयुक्त	-9.70669
▁हल्ला	-9.70777
▁देशातील	-9.70797
▁लोकांचा	-9.708
▁बाप	-9.70843
▁खाते	-9.70844
▁करील	-9.70988
ध्य	-9.71014
▁स्थिर	-9.7112
टीन	-9.71126
▁on	-9.71196
्याची	-9.71208
ge	-9.71243
फ्ट	-9.71266
षा	-9.71304
▁बिल	-9.71379
ढी	-9.71401
▁उत्साह	-9.71424
▁लोकांची	-9.71515
▁तशी	-9.71524
▁पती	-9.71584
फो	-9.71669
▁कट	-9.71684
ke	-9.71705
▁दिशा	-9.71727
▁दुसर्‍या	-9.7174
▁इंग्लंड	-9.71769
▁येण्या	-9.71886
▁निवडणुकी	-9.71917
69	-9.71933
▁सहकार्य	-9.71966
▁में	-9.71982
▁श्रेणी	-9.72007
▁११	-9.72011
▁लॅ	-9.7202
▁ऑगस्ट	-9.72036
▁गती	-9.7213
ॅप	-9.72171
▁आनंदी	-9.72237
वणे	-9.72264
▁होम	-9.72269
वर्त	-9.72272
▁२५	-9.72332
▁पालन	-9.7237
ियो	-9.72408
▁संयुक्त	-9.72434
▁तसं	-9.72513
▁स्वा	-9.72526
ill	-9.72584
▁संच	-9.72698
▁महाराज	-9.72733
▁गाड्या	-9.72871
▁भि	-9.72876
ांस	-9.72886
िला	-9.72896
▁वेग	-9.72928
▁मधील	-9.72933
णूक	-9.72943
87	-9.73004
▁दृष्टीने	-9.73062
▁2013	-9.731
▁नॉ	-9.73142
लोक	-9.73227
लिन	-9.73258
▁सारखे	-9.73293
▁''	-9.73332
विध	-9.73524
wa	-9.73554
ard	-9.73651
▁=	-9.73705
▁यानंतर	-9.7372
▁भांड	-9.73737
▁आराम	-9.73744
मराठ	-9.73758
▁पाठ	-9.73827
▁सरळ	-9.73828
▁शास्त्र	-9.73837
▁जहाज	-9.73838
▁निधी	-9.73901
▁पश्चिम	-9.73909
अप	-9.73924
ies	-9.73992
▁बदलले	-9.73999
▁प्रगती	-9.74003
▁फु	-9.74044
▁कृती	-9.74138
▁नाश	-9.74227
लाइन	-9.74239
प्रकार	-9.74393
▁कॉफी	-9.74411
▁संघर्ष	-9.74429
77	-9.74432
▁वाजता	-9.74457
कॉ	-9.74532
आता	-9.74547
▁फॉर्म	-9.74549
ऑ	-9.74605
▁गायब	-9.74637
्टर	-9.74659
िं	-9.74669
▁ठार	-9.74677
▁आत्म	-9.74693
bo	-9.7471
▁हिंदू	-9.74716
▁पोह	-9.74738
▁घ्यावे	-9.74761
▁वर्षांपासून	-9.74871
▁संत	-9.74905
▁रशियन	-9.7496
स्ता	-9.74991
▁इन्	-9.75051
▁सोय	-9.75066
एन	-9.75081
▁अंक	-9.75103
खी	-9.75154
▁वाढदिवस	-9.75166
▁साठ	-9.75167
▁गुन्हा	-9.75174
म्ब	-9.75239
▁मृत	-9.75274
▁विमानतळ	-9.75333
▁समजत	-9.75338
तंय	-9.7534
▁कर्म	-9.75342
▁दीर्घ	-9.75358
ag	-9.75362
▁वाहतूक	-9.75389
▁कल	-9.75415
58	-9.75461
▁डिसेंबर	-9.75512
▁महिना	-9.75605
▁फ्रान्स	-9.75666
▁for	-9.75826
▁पावसा	-9.75883
▁सगळ्यांना	-9.75924
▁५०	-9.75938
▁ब्रिटिश	-9.75943
▁ब्रा	-9.76048
▁कोणालाही	-9.76053
पुढे	-9.76066
▁रक्षण	-9.76079
▁कर्तव्य	-9.76129
▁परा	-9.76147
ac	-9.76289
▁दूध	-9.76409
▁कार्यरत	-9.76465
ak	-9.7647
▁चोर	-9.76603
▁अतिरिक्त	-9.76625
▁श्र	-9.76629
▁d	-9.76643
▁उत्पन्न	-9.76718
▁शीर्ष	-9.7672
▁जय	-9.76752
बू	-9.76783
वेल	-9.76807
▁पुष्कळ	-9.76843
▁राहत	-9.76876
दू	-9.76878
ासह	-9.7689
▁जाग	-9.76973
▁होण्यासाठी	-9.76976
▁परिसर	-9.77013
▁अटी	-9.77034
▁पाहत	-9.77086
able	-9.77133
▁दिसतात	-9.77171
▁आदर	-9.77205
▁तलवार	-9.77251
▁पत्ता	-9.77391
▁गुप्त	-9.77403
▁इमारत	-9.77403
▁नाकार	-9.77419
▁पाहता	-9.7743
68	-9.77468
▁विद्यार्थ्यांना	-9.77496
▁तुम्हा	-9.77507
संदर्भात	-9.77538
no	-9.77568
ine	-9.77592
▁संग्रह	-9.77611
▁फाइल	-9.77865
बाई	-9.77874
▁पराभव	-9.77877
▁परिपूर्ण	-9.77905
▁उशीर	-9.77954
97	-9.77965
▁रस्त्या	-9.77965
▁म्हणता	-9.78002
न्ट	-9.78003
पट्टी	-9.78056
▁दिवाळी	-9.78118
र्ष	-9.78228
▁फ्रेंच	-9.78256
▁शेत	-9.78324
▁अजिबात	-9.78413
▁गर्भ	-9.78417
ठे	-9.78425
र्ध	-9.78487
माझ्या	-9.7849
▁जागे	-9.78492
▁तुलना	-9.78639
▁मालक	-9.78647
▁प्रत्यक्ष	-9.78661
▁Google	-9.78667
्यांचा	-9.78672
व्हर	-9.78678
श्व	-9.7868
ov	-9.78692
वारी	-9.78766
▁पाया	-9.78808
51	-9.78862
▁इमारती	-9.78892
J	-9.7891
▁बाजारात	-9.78916
हार	-9.78916
▁कुठले	-9.78922
▁जलद	-9.78944
▁दात	-9.78964
▁रक्कम	-9.79017
▁27	-9.79069
▁अस्तित्व	-9.79101
न्ह	-9.79105
▁v	-9.79143
▁ट्रेन	-9.79175
▁अनुवाद	-9.79265
श्या	-9.79475
96	-9.79525
▁प्रसार	-9.79555
▁अभ्यासक्रम	-9.79597
▁पंच	-9.79678
▁पृथ्वीवर	-9.7969
72	-9.79778
▁अँ	-9.79828
क्ट	-9.79831
▁रस्ता	-9.79859
▁de	-9.79882
▁दशक	-9.79926
ai	-9.80021
▁जाळ	-9.80128
▁वाटतो	-9.80138
▁दिलेल्या	-9.80167
गण	-9.80298
▁शुल्क	-9.80303
▁खंड	-9.8033
per	-9.80342
▁महत्त्वाची	-9.80374
76	-9.80379
▁साखर	-9.80437
▁बॉक्स	-9.80441
ज्ज	-9.80501
▁ईमेल	-9.8052
▁काढले	-9.80534
▁पॉ	-9.80555
▁महाग	-9.80585
▁निवडा	-9.80588
▁खरोखरच	-9.80634
▁घेतात	-9.80717
pe	-9.80721
▁आमदार	-9.80722
▁रस्त्यावर	-9.8076
▁पर्वत	-9.80838
▁मिळवा	-9.80899
िस्ट	-9.80904
▁नसले	-9.80916
्वे	-9.80939
▁सांभाळ	-9.80979
ाकडून	-9.81007
if	-9.81012
▁वाटेल	-9.81022
▁दावीद	-9.81045
▁इतक्या	-9.8111
▁फो	-9.8111
▁ज्यामुळे	-9.81145
राष्ट्र	-9.81156
▁ऊ	-9.81203
▁जाहिरात	-9.81208
▁त्याच्यावर	-9.8124
▁हाती	-9.81244
▁बचत	-9.81269
▁लु	-9.813
ight	-9.81305
▁स्वतःची	-9.81435
▁पगार	-9.81509
▁स्वरूप	-9.81566
▁सांगितलं	-9.81697
▁प्या	-9.81751
▁मध	-9.81798
▁ठेवला	-9.81847
ाईट	-9.81871
▁विनंती	-9.81925
▁नसतात	-9.81938
▁मिनिटे	-9.81943
▁दिवसांत	-9.82048
क्षक	-9.82069
▁१४	-9.821
▁जरी	-9.82173
प्ट	-9.82174
▁वर्तमान	-9.82222
▁आदर्श	-9.82482
▁पिक	-9.82534
▁सण	-9.82563
▁दावा	-9.82593
▁पक्षी	-9.82634
▁काँग्रेस	-9.8265
पार	-9.82654
नगर	-9.82696
एच	-9.82723
▁साम	-9.82742
आपण	-9.82876
ite	-9.82903
▁तुलनेत	-9.82947
▁दल	-9.82956
▁सामर्थ्य	-9.8298
▁नेटवर्क	-9.83014
▁राग	-9.83031
ंडी	-9.83136
पूर्वक	-9.83175
▁याजक	-9.83262
▁ज्यांना	-9.8327
पती	-9.83396
▁कशासाठी	-9.83418
▁अधिकाऱ्यां	-9.83443
सीए	-9.83445
iv	-9.83453
▁सन्मान	-9.83546
▁परिस्थितीत	-9.8361
▁एअर	-9.8374
▁ग्	-9.83759
व्यतिरिक्त	-9.83846
वर्ष	-9.8387
tion	-9.83885
▁किलो	-9.8389
▁60	-9.83918
▁चर्चे	-9.83929
ect	-9.8393
▁पदवी	-9.83984
ाविषयी	-9.83989
▁उत्सुक	-9.84013
▁विमा	-9.84065
▁आरक्षण	-9.84104
▁आलेल्या	-9.84175
▁ऊर्जा	-9.84349
▁बनले	-9.8438
▁तिथेच	-9.84407
59	-9.84452
▁प्रत्यक्षात	-9.84591
▁नो	-9.84694
▁कुणाला	-9.84703
▁असली	-9.84749
▁विश्लेषण	-9.84786
▁एखादा	-9.84786
▁यातून	-9.84803
▁त्यांच्यासाठी	-9.84815
▁प्रवाह	-9.84864
▁रोम	-9.8487
▁गॅ	-9.84898
od	-9.84935
▁@	-9.84973
▁होण्या	-9.85042
▁सॅ	-9.85049
ong	-9.85059
▁करायचं	-9.8511
85	-9.85153
▁दुष्काळ	-9.85158
▁वेब	-9.85198
▁2020	-9.85243
▁ग्राहकांना	-9.85279
▁साय	-9.85309
▁आपल्यासाठी	-9.85393
▁मिळतो	-9.85417
▁मासे	-9.85455
▁फेसबुक	-9.85463
ज्या	-9.8547
व्हि	-9.85612
अरे	-9.85753
▁हमी	-9.8576
▁ऐकून	-9.85865
▁माफ	-9.85952
ांसह	-9.85985
▁पद्धतीने	-9.86002
▁नऊ	-9.86066
▁इन	-9.8608
▁दया	-9.861
▁दुःख	-9.86147
▁फॅट	-9.86167
▁अशक्य	-9.86179
▁बघायला	-9.86179
▁भय	-9.86223
89	-9.86291
▁सुरुवातीला	-9.86309
▁ऑनलाईन	-9.86385
▁झु	-9.86414
▁तांत्रिक	-9.86419
▁उन्हा	-9.8647
▁(20	-9.86483
vi	-9.86504
ंशी	-9.86572
▁मतदार	-9.86601
▁नव्हतं	-9.8666
▁पार्टी	-9.86695
▁कागद	-9.86761
२०	-9.86764
▁उद्	-9.86787
ru	-9.86802
▁जावे	-9.86857
▁घेतल्या	-9.86878
झर	-9.86972
▁सभा	-9.86977
▁मॉ	-9.86997
िक्स	-9.87009
▁कमाल	-9.87011
▁म्हणते	-9.87011
तीन	-9.87051
▁सामन्या	-9.87061
ction	-9.87064
▁निष्	-9.87083
▁अर्ध	-9.87112
▁जाणीव	-9.87167
▁हेतू	-9.872
▁आयोजित	-9.87246
▁संपत्ती	-9.87246
▁जिल्ह्या	-9.87247
▁औषधे	-9.87293
बद्ध	-9.87297
▁भाषे	-9.87405
काय	-9.87477
▁मार्गदर्शक	-9.87477
@	-9.87504
▁डिजिटल	-9.87696
▁घेण्यात	-9.87703
▁संकल्पना	-9.87708
▁फी	-9.87741
▁पाहिला	-9.87746
झि	-9.87761
▁गोळा	-9.8779
▁देवाला	-9.87853
▁29	-9.87884
म्म	-9.87885
▁आमच्याकडे	-9.87931
▁The	-9.87955
▁नाणी	-9.87993
▁खात्या	-9.88013
प्पा	-9.8803
▁खोलीत	-9.88094
▁स्त्रिया	-9.88185
▁संकट	-9.88235
54	-9.88406
▁स्वतःचे	-9.88433
ub	-9.88441
ंबर	-9.88455
रुप	-9.88497
ग्न	-9.88547
भूमी	-9.8857
▁31	-9.88576
sa	-9.88602
विणे	-9.88662
▁स्पर्धे	-9.88744
▁नाराज	-9.88784
▁पिढी	-9.8881
▁जळ	-9.89004
▁कृपा	-9.89096
ेंद्र	-9.89176
▁वाचक	-9.89191
▁राज्यात	-9.89201
▁प्रमाणपत्र	-9.89233
िव्ह	-9.89289
६०	-9.89314
रित्या	-9.89355
▁असलेला	-9.89405
▁चिन्ह	-9.89525
▁।	-9.89545
क्टर	-9.89581
▁वाचले	-9.89589
ाव्या	-9.89675
91	-9.89742
िव	-9.89831
▁फुटबॉल	-9.89842
▁सहमत	-9.89854
▁वाटलं	-9.89915
▁विचित्र	-9.89964
▁रोल	-9.90011
▁मंत्री	-9.90013
▁बाई	-9.90056
महा	-9.90085
▁हजारो	-9.90233
▁अंमलबजावणी	-9.90301
▁दबाव	-9.90338
▁असावा	-9.90367
▁पातळी	-9.90382
▁Z	-9.90397
▁थोड्या	-9.90444
92	-9.90485
▁देवाची	-9.90525
▁भेटी	-9.90527
▁दिसतो	-9.9055
ग्राम	-9.90573
▁चमत्कार	-9.90586
▁उभा	-9.90614
▁अस्तित्वात	-9.90635
▁दार	-9.90666
▁नियोजन	-9.90866
▁मू	-9.90897
ep	-9.90924
‘	-9.90925
त्त्व	-9.90944
▁उंची	-9.9097
ायचो	-9.91023
71	-9.91036
▁आख	-9.91037
▁टेबल	-9.91076
ca	-9.91107
दायी	-9.91192
▁कठोर	-9.91268
▁झाल्यानंतर	-9.91274
किंग	-9.91299
झो	-9.91362
▁बाग	-9.91422
▁स्मार्ट	-9.91521
pl	-9.91526
ाइन	-9.91538
▁परिवर्तन	-9.91557
▁एकमेकांना	-9.91591
▁प्रसंग	-9.91601
▁हल	-9.9163
▁हवाई	-9.91635
जण	-9.91657
दरम्यान	-9.91688
▁१७	-9.91729
▁गाणी	-9.91736
▁शोधा	-9.91737
▁बसला	-9.91808
▁Next	-9.91846
कल्प	-9.91856
ांपैकी	-9.91877
▁ताकद	-9.91884
▁दर्शन	-9.91894
▁तार	-9.91936
62	-9.91986
▁संघटना	-9.91998
ff	-9.92016
act	-9.9202
कडील	-9.92131
▁ध्येय	-9.92136
▁साध्य	-9.9219
▁आम	-9.92211
▁सांगता	-9.92233
▁घेण्याची	-9.92359
▁मह	-9.92368
▁तीव्र	-9.92392
▁चुकीचे	-9.92505
▁तत्त्व	-9.92544
▁नावे	-9.92555
▁ग्रह	-9.9267
▁देण्याची	-9.92695
▁वितरण	-9.92723
▁सानुकूल	-9.92755
we	-9.92831
▁वकील	-9.92889
गिरी	-9.9293
▁प्रतिबंध	-9.92979
+	-9.92985
▁लिहित	-9.93056
क्रो	-9.93114
▁सक्रिय	-9.93121
end	-9.93168
▁सर्वकाही	-9.93204
▁जाता	-9.93257
▁नृत्य	-9.93309
▁विसरू	-9.93313
▁सां	-9.93361
▁तुमच्याकडे	-9.93383
▁माफी	-9.9339
art	-9.93454
▁सीमा	-9.93553
▁दुर्लक्ष	-9.93717
क्शन	-9.93771
▁क्रेडिट	-9.93784
▁वैशिष्ट्ये	-9.93821
–	-9.93847
घात	-9.93885
▁वर्षांची	-9.9389
▁प्रकारचा	-9.93933
▁गमाव	-9.93968
▁आघाडी	-9.94006
▁आलेले	-9.94091
64	-9.94112
▁जायचे	-9.94128
▁यरुशलेम	-9.94154
▁बदलू	-9.94162
▁संकेतस्थळ	-9.94191
ऐवजी	-9.94224
▁सेंट	-9.94231
▁द्यावे	-9.9424
▁१६	-9.94277
योजन	-9.9432
▁पाटील	-9.94342
▁प्राथमिक	-9.94376
▁भक्त	-9.94381
▁वाचून	-9.94386
▁यहूदा	-9.9441
▁असल्या	-9.94441
▁सांगते	-9.94447
▁याप्रसंगी	-9.94525
▁बचाव	-9.94586
▁धक्का	-9.946
▁जातील	-9.94602
82	-9.94663
▁जमिनी	-9.94738
दर्शन	-9.94769
▁कारखाना	-9.9486
▁देवी	-9.94935
▁डोळ्या	-9.94977
▁स्थळ	-9.94996
▁मिल	-9.95003
▁सांगणार	-9.95038
सेस	-9.95044
▁घड्याळ	-9.9505
▁बळ	-9.95062
क्षित	-9.95063
▁मानक	-9.95094
▁शुभेच्छा	-9.95197
▁दर्जा	-9.95199
▁रह	-9.95228
▁ईमानधारक	-9.95234
▁कर्तृत्वाला	-9.95251
▁राहण्या	-9.95269
▁नेता	-9.95291
ल्ली	-9.95303
▁उभार	-9.9532
▁जबाबदार	-9.95335
▁भाषेत	-9.9538
▁आत्महत्या	-9.95459
der	-9.95479
धन	-9.95497
▁आपलं	-9.95508
mp	-9.95625
▁करणारी	-9.95715
▁खात	-9.95738
▁सेवे	-9.95763
▁मारले	-9.9583
ल्फ	-9.95855
▁कौशल्य	-9.95949
▁त्यापैकी	-9.95951
▁दृष्टी	-9.95964
▁घडव	-9.95981
खाली	-9.96084
▁एकत्रित	-9.961
▁बरे	-9.96118
79	-9.96201
▁हिंदु	-9.96365
▁लोकसंख्या	-9.96397
▁लष्कर	-9.96441
▁केल्यानंतर	-9.96473
फाय	-9.96481
▁No	-9.9649
▁गण	-9.96547
▁ऐतिहासिक	-9.96554
▁अ‍ॅ	-9.96556
ुष	-9.96638
81	-9.9666
▁सगळेच	-9.96735
▁com	-9.96775
ran	-9.96891
▁धोका	-9.96891
▁कॅमेरा	-9.96898
विण्यासाठी	-9.96903
▁by	-9.96969
▁Previous	-9.9701
▁यंत्रणा	-9.97036
ावरून	-9.97037
▁करतोय	-9.97071
▁समर्थ	-9.97138
▁ऑपरेशन	-9.97163
▁बॅग	-9.97194
▁विषयी	-9.9722
अस्	-9.97289
▁Mo	-9.97392
▁औद्योगिक	-9.97392
▁प्रचार	-9.97438
▁कुठेही	-9.97513
▁दो	-9.97575
▁विरोधी	-9.97595
53	-9.97601
ांतर	-9.97655
जमावतो	-9.97699
▁बऱ्याच	-9.97705
▁पाहिजेत	-9.97711
▁धातू	-9.97742
93	-9.9777
▁जुगार	-9.97864
61	-9.97889
▁असला	-9.97929
▁ठरले	-9.97942
▁बोलतो	-9.97948
▁बळी	-9.97958
▁अंधार	-9.97977
ाप्रमाणे	-9.98077
▁जाणे	-9.98164
नीय	-9.98186
▁माणसं	-9.982
▁झाल्यावर	-9.98225
▁सद	-9.98234
▁देवाचे	-9.98294
▁कोट	-9.98337
▁रॅ	-9.98465
▁टेक	-9.98499
▁स्वर्ग	-9.98561
▁लैंगिक	-9.98625
▁पुरेसे	-9.98626
▁लागल्या	-9.98644
▁अखेर	-9.98664
▁सकारात्मक	-9.98664
▁ट्रॅक	-9.98711
▁वीज	-9.98781
▁FSX	-9.98819
िली	-9.98826
दो	-9.98853
▁बुद्ध	-9.98877
▁हाताळ	-9.98897
▁माती	-9.98901
सारखं	-9.9894
▁टाय	-9.99001
▁अन्	-9.99006
▁खोल	-9.99096
man	-9.9911
▁Android	-9.9913
▁गीत	-9.9926
▁आवडी	-9.99265
ानु	-9.99343
*	-9.99421
▁प्रभु	-9.99443
▁मोशे	-9.99453
78	-9.99479
वणार	-9.99538
▁समुदाय	-9.99559
सर्व	-9.99581
-2	-9.99596
▁खाजगी	-9.99599
▁नेत्यां	-9.99626
▁You	-9.99634
▁प्रत्येकाला	-9.99702
▁आवडतात	-9.99808
ांनो	-9.99808
वती	-9.99866
▁st	-9.99909
▁बहिणी	-9.99912
▁भविष्यात	-9.99926
▁त्याच्याकडे	-9.99931
▁महाविद्यालय	-9.99951
▁रविवारी	-9.99982
ांबद्दल	-9.99994
▁म्हणणे	-10.0001
▁प्राण	-10.0001
ian	-10.0002
शक्ती	-10.001
▁डाव	-10.0012
▁जायला	-10.0018
▁दिवसभर	-10.0023
▁अडचणी	-10.0023
प्ला	-10.0028
▁१३	-10.0028
▁मान्यता	-10.003
▁सोन्या	-10.0033
ber	-10.0034
मंडळ	-10.0036
▁इत्यादी	-10.0038
र्ब	-10.0041
▁प्लास्टिक	-10.0042
▁शकले	-10.0043
▁पुस्तकं	-10.0047
▁मूल	-10.0047
प्रति	-10.0052
▁विद्युत	-10.0054
▁निवडून	-10.0062
▁त्यापेक्षा	-10.0062
▁बायको	-10.007
▁उत्तरे	-10.0077
▁se	-10.0078
हू	-10.0093
▁article	-10.0094
कारण	-10.0095
▁बोट	-10.0099
94	-10.0103
▁ओढ	-10.0109
▁और	-10.0117
▁अशीच	-10.0125
▁युरोपियन	-10.0129
▁सोडव	-10.0131
▁जाणवत	-10.0149
▁ठेवू	-10.0151
▁अपयश	-10.0152
▁शैक्षणिक	-10.0157
▁अथवा	-10.0158
tic	-10.0165
▁धार्मिक	-10.0165
त्मक	-10.0169
ell	-10.0173
▁निर्माता	-10.0181
▁खरच	-10.0186
63	-10.0188
▁स्वयंपाक	-10.0193
▁बहुतांश	-10.0194
▁देशाच्या	-10.0196
बॉल	-10.0199
▁मिळाल्या	-10.0201
▁गौरव	-10.0206
▁पार्क	-10.0207
▁म्हटलं	-10.0214
▁स्टार	-10.0218
▁पोच	-10.022
▁एखादी	-10.0222
▁तुमच्यासमोर	-10.0224
▁शंका	-10.0238
▁असूनही	-10.024
▁करण्याच्या	-10.0241
▁वाढते	-10.0241
▁अब्	-10.0242
▁सॉ	-10.0251
▁म्हणालो	-10.0254
lu	-10.0254
ांचं	-10.0254
▁प्रक्रिये	-10.0262
्टन	-10.0265
ाधिकार	-10.0268
▁सूची	-10.0269
▁नोव्हेंबर	-10.027
▁कधीकधी	-10.0274
▁निवास	-10.0275
▁अचूक	-10.0278
▁सरासरी	-10.0282
▁प्राचीन	-10.0296
▁आफ्रिके	-10.0302
▁आशीर्वाद	-10.0302
▁वृक्ष	-10.0302
ear	-10.0303
▁स्वयंचलित	-10.031
▁बायबल	-10.031
▁मैत्री	-10.0311
▁राहते	-10.0314
ऑन	-10.0317
कर्ता	-10.0324
ide	-10.0325
▁मनो	-10.0328
ast	-10.0329
▁घडत	-10.0332
▁अक्षर	-10.0339
▁विधान	-10.0341
▁वाज	-10.0342
▁फिल्टर	-10.0343
ys	-10.0348
ll	-10.0352
▁राणी	-10.0363
▁द्यायला	-10.0365
▁कायदेशीर	-10.0367
▁उड्डाण	-10.0375
ind	-10.0383
▁मजकूर	-10.0383
▁पैशा	-10.0386
▁मांजर	-10.0389
▁यातील	-10.039
▁पेपर	-10.0394
▁छोटी	-10.0408
▁बारा	-10.0414
va	-10.0422
▁वापरली	-10.0425
▁पाठी	-10.0427
▁उदा	-10.0434
ni	-10.0437
▁राहिली	-10.0447
▁गाठ	-10.045
▁लांबी	-10.045
▁शुभ	-10.0457
▁खि	-10.0459
कर्त्या	-10.0464
▁सगळ्यात	-10.0466
▁स्वस्त	-10.0468
ांतील	-10.0473
▁Sh	-10.0474
▁शेवटच्या	-10.0476
▁ऐकू	-10.0482
▁पेट	-10.0484
▁मोबाईल	-10.0486
▁दिशेने	-10.0494
▁स्वतःचा	-10.0496
▁आपोआप	-10.0498
▁सर्वेक्षण	-10.0499
▁ठराव	-10.0502
ik	-10.0514
्यांचे	-10.0517
▁हस्त	-10.0518
74	-10.052
▁मध्यम	-10.0522
▁फारच	-10.0528
▁संशोधक	-10.0532
ल्ला	-10.0537
▁अर्पण	-10.0538
▁म्हणे	-10.054
▁ठेवून	-10.0545
▁पळून	-10.0549
▁शहा	-10.055
▁कायदे	-10.0556
▁मेच्यूर	-10.0556
ण्यापूर्वी	-10.0557
▁सिंह	-10.0567
▁म्हणू	-10.0569
▁मॅन	-10.057
▁अपेक्षित	-10.0577
▁ज्याला	-10.0578
▁समजले	-10.0578
आज	-10.0579
ॉक	-10.0582
▁प्रांत	-10.0584
▁मेरी	-10.0584
▁आरोपी	-10.0585
▁शारीरिक	-10.059
▁लोकशाही	-10.059
▁प्रेक्षक	-10.0591
▁देशांमध्ये	-10.0593
▁वृद्ध	-10.0594
िअर	-10.0598
▁गोंधळ	-10.0598
य़ा	-10.0599
▁आकर्षक	-10.0606
▁खाणार	-10.0613
▁तिसऱ्या	-10.0615
▁फॅ	-10.0618
▁स्क्रीन	-10.0619
▁जास्तीत	-10.0622
dr	-10.0624
▁प्रेमात	-10.063
▁जागी	-10.0632
५०	-10.0634
▁वेदना	-10.0638
▁विरोधात	-10.0645
▁इस्लाम	-10.0649
▁व्यक्ति	-10.065
▁एकमेव	-10.0651
▁जर्मन	-10.0652
▁अगोदर	-10.0652
▁शेवटचा	-10.0654
▁con	-10.066
▁बोलणे	-10.0661
▁गप्पा	-10.0664
▁व्हायला	-10.0666
कालीन	-10.0667
▁चुका	-10.0671
▁(5	-10.0672
जीव	-10.0675
▁वर्षभर	-10.0676
▁कॅनडा	-10.0678
ेक्ट	-10.068
▁करणं	-10.0686
▁विरुद्ध	-10.069
▁इथेच	-10.0691
▁अन्यथा	-10.0691
▁बसून	-10.0692
पान	-10.0692
ग्राफ	-10.0697
▁विकिपीडिया	-10.0699
▁घ्यावी	-10.0702
▁गर्दी	-10.0707
▁सूत्र	-10.0719
▁इंटर	-10.0727
▁यंदा	-10.073
▁कव्हर	-10.0737
▁४०	-10.0739
▁भूक	-10.0743
▁स्टेशन	-10.0743
▁हवामान	-10.0746
▁पंप	-10.0749
ष्क	-10.075
▁कोरिया	-10.075
ाबाहेर	-10.0755
क्‍त	-10.0756
▁राष्ट्रवादी	-10.0757
▁घेण्या	-10.0762
▁मुलाखत	-10.0763
▁असावी	-10.0765
▁व्याख्या	-10.0767
ाहेत	-10.077
▁फायबर	-10.0771
▁मर्यादित	-10.0775
ांश	-10.0778
Z	-10.0785
७०	-10.0787
वलं	-10.079
▁विष	-10.0791
▁व्यापारी	-10.0792
नायक	-10.0793
▁मालमत्ता	-10.0796
▁मूर्ती	-10.0796
▁वापरू	-10.0799
▁जतन	-10.08
▁२४	-10.08
परि	-10.0804
ब्ल	-10.0805
▁लिंक	-10.0809
▁काढण्या	-10.0817
कारी	-10.0822
▁En	-10.0823
▁उत्सव	-10.0827
▁केंद्रित	-10.0842
▁ठरत	-10.0844
▁यूएस	-10.0848
▁समजू	-10.0848
▁असल्यामुळे	-10.0852
▁ऑर्डर	-10.0869
▁शिष्य	-10.0869
▁बेट	-10.0877
▁चो	-10.0878
▁चोरी	-10.0878
ph	-10.088
▁केल्यास	-10.0881
▁(4	-10.0897
marathi	-10.0903
▁थोडक्यात	-10.0903
ud	-10.0906
फ्रे	-10.0907
▁यहूदी	-10.0912
▁गुलाम	-10.0914
IS	-10.0943
▁चक्र	-10.0944
▁डोळ्यां	-10.0944
क्षम	-10.0948
▁विषयावर	-10.095
▁वारंवार	-10.095
▁श्वास	-10.0951
▁भगवान	-10.0955
▁बँके	-10.0957
▁सहकारी	-10.0966
▁संभाव्य	-10.0968
▁शिकार	-10.0973
▁जुनी	-10.0978
▁कं	-10.0983
▁वर्षांच्या	-10.0984
han	-10.0987
▁मूलभूत	-10.0991
▁एवढी	-10.0998
our	-10.0999
▁नावाने	-10.1
▁साचा	-10.1005
▁इराण	-10.1006
▁ध्यान	-10.1008
▁युवा	-10.1009
▁द्वार	-10.1011
▁एवढे	-10.1012
▁घटने	-10.1027
▁येणे	-10.1028
▁भाग्य	-10.103
पूर्व	-10.1033
▁हवेत	-10.1038
▁मुदत	-10.1041
▁विशेषतः	-10.1046
▁प्रकाशन	-10.1052
ame	-10.1055
▁वयाच्या	-10.1056
▁चांगलं	-10.1059
▁नियंत्रित	-10.1072
▁मर्यादा	-10.1081
▁माणसां	-10.1085
ाइम	-10.1086
cl	-10.1089
▁मृत्यु	-10.1093
▁कुत्र्या	-10.11
लँड	-10.1104
▁महिले	-10.1108
▁त्यांच्याशी	-10.111
▁दोघे	-10.1112
ric	-10.1113
▁लोकांचे	-10.1119
▁राजधानी	-10.1125
▁चेक	-10.1128
▁ठेवणे	-10.1128
▁भिंती	-10.1131
र्ती	-10.1135
▁आलेली	-10.1138
▁अडक	-10.114
त्ते	-10.1141
▁वैज्ञानिक	-10.1142
▁पिता	-10.1146
▁वेगळ्या	-10.115
▁चळवळ	-10.1151
वाणी	-10.1153
आधी	-10.1158
▁शांतता	-10.1159
▁सर्वांत	-10.1161
▁मुलांसाठी	-10.1164
▁नव्याने	-10.1164
▁व्याज	-10.1173
▁परंपरा	-10.1173
▁प्रमाणे	-10.1178
▁गोड	-10.1179
▁टाकले	-10.1192
वर्ग	-10.1194
ऊन	-10.1197
▁प्रोफाइल	-10.1204
▁पै	-10.121
▁खुश	-10.1213
▁मुख	-10.1214
▁साल	-10.122
▁पाईप	-10.1227
ॉक्स	-10.1233
▁स्नायू	-10.1235
▁शस्त्र	-10.1253
▁दिसणार	-10.1253
▁ताण	-10.1258
▁संकेत	-10.1258
युग	-10.126
▁गणित	-10.1269
▁टप्प्या	-10.1271
▁प्रिंट	-10.1276
▁सेवक	-10.1276
▁यापूर्वी	-10.1283
▁पोलिसांनी	-10.1292
घे	-10.1295
▁पुन	-10.1296
▁आजवर	-10.1297
▁एवढा	-10.1298
्चर	-10.1303
▁सर्वांनी	-10.1304
▁पू	-10.1315
▁पर्	-10.1315
अभिवादन	-10.1315
▁देईन	-10.1316
▁सजावट	-10.1325
▁फाईल	-10.1325
▁कहाणी	-10.1329
▁वाचता	-10.133
▁जखमी	-10.1335
▁कचरा	-10.1336
▁घरे	-10.1338
▁आव	-10.1345
ob	-10.1355
▁कागदपत्र	-10.1358
▁कुठेतरी	-10.1366
▁वाचायला	-10.1367
▁तुमचं	-10.137
▁भिन्न	-10.1371
▁विरोधक	-10.1374
▁रेकॉर्ड	-10.1383
▁परिषदे	-10.1383
bl	-10.1384
▁शोधू	-10.1389
▁सेल	-10.1392
दोन	-10.1392
वै	-10.1392
▁पाहायला	-10.1394
ेश्वर	-10.1396
▁दशलक्ष	-10.1397
▁पडली	-10.1397
▁रम	-10.1406
▁तोपर्यंत	-10.1409
▁सामील	-10.1413
▁फूट	-10.142
णार्‍या	-10.1425
les	-10.1433
▁वर्षांनी	-10.1433
▁प्रमाणावर	-10.1441
▁आईला	-10.1442
▁आश्चर्यकारक	-10.1448
▁लढत	-10.1452
▁पाहिलं	-10.1456
▁०	-10.146
▁सत्ते	-10.1467
▁इटली	-10.147
ाद्वारे	-10.1474
डिया	-10.1476
▁योगदान	-10.148
▁जाण्यासाठी	-10.1484
▁प्रतीक्षा	-10.1489
रक्षक	-10.1492
थो	-10.1496
▁गुरू	-10.1502
ग्ल	-10.1504
ox	-10.1508
▁बघू	-10.151
ka	-10.1516
▁समाप्त	-10.1524
▁ठाकरे	-10.1528
▁त्वरित	-10.1528
▁चेंडू	-10.1533
जु	-10.1535
▁केव्हा	-10.154
▁गळ	-10.154
▁सहभाग	-10.1543
▁प्रगत	-10.1544
▁मिळतात	-10.1545
▁जाण्या	-10.1546
ass	-10.1554
▁पहिल्यांदाच	-10.1556
▁पुटपुटत	-10.1556
क्रांती	-10.1565
84	-10.1567
▁शेतकऱ्यांना	-10.1573
▁प्रवासी	-10.158
▁नमुना	-10.1584
▁सहाय्य	-10.1584
▁कोठे	-10.1584
▁मिळून	-10.1588
▁सेकंद	-10.1588
धारक	-10.1594
▁दिलं	-10.1597
ance	-10.1601
▁फुट	-10.1602
▁विशेषत	-10.1608
▁जोडले	-10.1614
▁पाऊल	-10.1616
▁500	-10.1625
स्क्र	-10.1627
▁वस्तु	-10.163
▁अंडी	-10.1631
▁निर्यात	-10.1636
pa	-10.1638
▁शैली	-10.1639
ऱ्हाम	-10.1641
▁मांस	-10.1641
ांबरोबर	-10.1643
▁कर्मचाऱ्यां	-10.1648
लॉग	-10.1648
▁त्यांचं	-10.1658
ंचं	-10.1659
▁खाण	-10.1659
▁ठेवतो	-10.1673
▁मैदान	-10.1677
▁पाहण्यासाठी	-10.1678
hy	-10.1682
भोवती	-10.1692
oo	-10.1704
▁थर	-10.1708
▁दाब	-10.171
▁साफ	-10.1725
▁शिफारस	-10.1727
▁दरवर्षी	-10.1727
▁जन्माला	-10.173
▁बंधन	-10.173
▁झाक	-10.1734
▁100%	-10.1736
ock	-10.1736
▁प्रोत्साहन	-10.1741
▁देख	-10.1754
▁फिल्म	-10.1755
▁प्रदर्शित	-10.1765
▁वाघ	-10.1766
ग्रस्त	-10.1775
▁आठवणी	-10.1775
▁कार्यकर्त्यां	-10.1775
प्रा	-10.1779
धो	-10.178
▁किशोर	-10.178
ci	-10.1786
▁प्रामाणिक	-10.1793
कार्य	-10.1793
ायत	-10.1795
▁सुखी	-10.1804
▁दादा	-10.1806
▁निवडले	-10.1806
▁अनुकूल	-10.1807
▁पासपोर्ट	-10.1807
ांपर्यंत	-10.1809
▁Al	-10.1813
▁कळले	-10.1814
und	-10.1816
वेळा	-10.1822
▁जाण्याची	-10.1827
▁ओरड	-10.1828
▁मालकी	-10.1836
▁शुक्रवारी	-10.1838
▁रोजगार	-10.1838
▁Pro	-10.1843
▁बाद	-10.1848
▁कुठल्याही	-10.1855
▁मिसर	-10.1855
▁2012	-10.1856
▁लप	-10.1858
▁कसोटी	-10.1859
▁बाळग	-10.1861
▁शिर	-10.1866
वाडी	-10.1867
सलाम	-10.1868
▁प्राण्यां	-10.1869
tra	-10.1871
▁do	-10.1881
▁तंत्र	-10.1884
▁बंदी	-10.1888
▁स्टेनलेस	-10.1892
ty	-10.1904
▁स्वभाव	-10.1906
▁निरीक्षण	-10.1906
▁दिवसांनी	-10.1923
▁आवडतं	-10.1929
▁मासिक	-10.1933
▁सोने	-10.1936
▁नसत	-10.1936
▁मंजूर	-10.194
▁शांती	-10.1943
▁मार्क	-10.1954
▁मिमी	-10.1955
▁हिंदी	-10.196
day	-10.1967
▁पडतो	-10.1973
▁रहस्य	-10.1973
fi	-10.1978
▁सब	-10.1979
▁छोटे	-10.1983
▁त्वचा	-10.1986
▁मुळात	-10.199
▁Se	-10.1992
▁गरजेचे	-10.1994
▁क्रीडा	-10.1997
▁गाणे	-10.1997
▁कॅप	-10.1998
शिवसेने	-10.2003
▁शक्तिशाली	-10.2007
▁किलोमीटर	-10.2016
ँग	-10.2018
▁बोलला	-10.2021
▁वसंत	-10.2023
▁मुसलमान	-10.2026
▁धीर	-10.2027
▁अनंत	-10.2028
▁तिसरा	-10.2036
▁चु	-10.2039
▁भो	-10.204
▁हॉट	-10.2041
▁बोलण्या	-10.2042
Comment	-10.2045
▁येणाऱ्या	-10.2056
▁नसता	-10.2059
▁मिश्रण	-10.2064
मंत्री	-10.2067
शाही	-10.207
▁चुकीच्या	-10.207
▁अपमान	-10.2071
संघ	-10.2074
▁मै	-10.2076
▁घट	-10.2084
संपादन	-10.2085
mi	-10.2086
▁एशियन	-10.2089
ya	-10.2094
▁मेहनत	-10.2098
▁काढला	-10.2099
▁मेंदू	-10.2099
▁Lo	-10.21
ुरी	-10.2102
▁पाक	-10.2124
▁जॅक	-10.2132
▁बर्याच	-10.2132
▁शकतील	-10.2133
वाढ	-10.2133
▁Ro	-10.2137
▁ग्लास	-10.2141
US	-10.2147
▁सांस्कृतिक	-10.2152
▁प्रभू	-10.2152
▁आम्हा	-10.2156
go	-10.2162
▁दिलेली	-10.2164
▁मुलांच्या	-10.2174
▁बोलता	-10.2182
▁कष्ट	-10.2183
▁अमेरिकेच्या	-10.2185
▁महाराष्ट्रात	-10.2188
▁आमच्याशी	-10.2193
fe	-10.2198
▁अपवाद	-10.2198
▁निवडणुका	-10.2201
ांमधील	-10.2203
▁परिषद	-10.2215
▁स्पर्श	-10.222
www	-10.222
पक्ष	-10.2225
▁दान	-10.223
▁वेड	-10.223
▁बसले	-10.2238
▁भेटायला	-10.2242
▁उन्हाळ्यात	-10.2244
▁तेव्हापासून	-10.2244
▁छायाचित्र	-10.225
▁टोक	-10.2263
▁झाल्यास	-10.227
▁बोलताना	-10.2275
▁गंध	-10.2285
▁लिफ्ट	-10.2287
▁स्तर	-10.2288
▁भारताच्या	-10.2288
▁देखभाल	-10.2289
मुक्त	-10.2289
▁चालले	-10.229
ढे	-10.2292
IN	-10.2295
▁कृतज्ञ	-10.2299
▁(6	-10.2301
▁दातृत्व	-10.2304
▁so	-10.2306
▁उपकरण	-10.2306
▁संध्याकाळी	-10.2306
▁सिटी	-10.2307
▁फेरी	-10.2315
▁वेगळं	-10.2324
▁विद्या	-10.2331
▁खासदार	-10.2336
▁सहसा	-10.2339
▁ठाऊक	-10.2344
▁राहुल	-10.2344
▁मुद्दे	-10.2349
▁बॅक	-10.235
▁लढा	-10.2354
▁देवाचा	-10.2358
min	-10.2358
▁हॉस्पिटल	-10.2358
▁दिसले	-10.2359
ens	-10.236
▁अंश	-10.236
▁फेक	-10.2363
▁नेमके	-10.2365
▁निधन	-10.2368
ga	-10.2371
स्थिती	-10.2374
▁झडप	-10.2405
▁अधि	-10.2406
▁परमेश्वराच्या	-10.2413
▁कॉम	-10.2413
ort	-10.2418
यंत्र	-10.2419
▁बौद्ध	-10.2428
▁लंडन	-10.2428
▁वाचत	-10.2435
ांतून	-10.2441
▁साधक	-10.2443
▁दंड	-10.2443
▁टिप्पण्या	-10.2443
▁रस्ते	-10.2443
▁पांढरा	-10.2455
▁साइड	-10.2456
▁जेणेकरून	-10.2463
▁जाहिराती	-10.2468
ther	-10.2477
▁गुणवंतांच्या	-10.2479
▁अद्यतन	-10.2489
▁पाठविले	-10.2495
ायचंय	-10.2496
ick	-10.2497
▁ब्रँड	-10.2501
▁दुष्ट	-10.2505
क्षेत्र	-10.2507
mb	-10.2508
ld	-10.2509
▁चूचे	-10.2509
▁लावून	-10.2514
▁सौंदर्य	-10.2514
▁आपणास	-10.2514
एसए	-10.2517
पीए	-10.2517
▁देशाची	-10.252
ल्क	-10.2524
▁वनस्पती	-10.2524
▁चालणार	-10.2526
▁टिपा	-10.2529
▁पुण्य	-10.2538
दर्श	-10.2541
▁२१	-10.2549
ug	-10.2552
ib	-10.2558
▁गैर	-10.256
▁महिलांना	-10.2562
▁राहून	-10.2571
▁गुन्हेगार	-10.2575
eng	-10.2575
▁अॅल्युमिनियम	-10.258
▁परीक्षे	-10.2585
▁दिवा	-10.2585
Tube	-10.2588
▁कलम	-10.2591
▁अधिकाऱ्या	-10.2591
▁सुरूवात	-10.2593
▁लिहून	-10.2594
▁प्रतिनिधी	-10.2595
▁वयात	-10.2599
हेही	-10.2599
da	-10.2599
▁मुस्लिम	-10.26
▁(7	-10.2615
▁बराच	-10.2617
▁वापरकर्त्यां	-10.2618
श्री	-10.2621
▁Post	-10.2621
0,000	-10.2625
म्ह	-10.2625
▁बॅटरी	-10.2626
भारत	-10.2633
▁करण्यापूर्वी	-10.2634
▁मतदारसंघ	-10.2636
ical	-10.2638
▁आजपर्यंत	-10.2642
▁घातले	-10.2642
▁मुंबईत	-10.2647
ook	-10.2647
83	-10.2653
AS	-10.2654
ash	-10.2656
▁दर्जाचे	-10.266
▁याशिवाय	-10.2664
ब्ब	-10.2664
▁कित्येक	-10.2667
▁ख्रिश्चन	-10.2667
▁परदेशी	-10.2667
▁गुलाब	-10.2667
▁अपराध	-10.2667
▁भरले	-10.2669
▁शोधण्यासाठी	-10.2677
ba	-10.2677
▁सुट्टी	-10.2682
▁प्लॅस्टिक	-10.2687
ठ्ठ	-10.2688
▁अंध	-10.2692
▁स्वामी	-10.2695
र्जी	-10.2697
har	-10.2706
▁तितके	-10.2718
73	-10.2723
▁विधानसभा	-10.2723
संस्कार	-10.2725
▁करेन	-10.2726
▁त्रि	-10.2731
▁मस्त	-10.2735
टेड	-10.2738
▁रेडिओ	-10.275
आपल्या	-10.275
▁शकलो	-10.275
▁तुमच्यावर	-10.2751
▁ऑटो	-10.2753
▁आवडतो	-10.2759
▁वाजव	-10.2759
▁चाक	-10.2759
▁आत्म्या	-10.276
▁सकाळ	-10.277
स्को	-10.2771
पाद	-10.2775
▁बलात्कार	-10.2775
▁चमक	-10.2781
▁अभिवादनाला	-10.2791
▁पाहतो	-10.2791
ंपैकी	-10.2791
▁धावा	-10.2795
▁स्पॅनिश	-10.2801
यकुम	-10.2802
मार्ग	-10.2804
▁हॉ	-10.2806
विण्यात	-10.2807
▁स्थित	-10.2811
▁रोड	-10.2813
▁तेवढे	-10.2817
▁परिवार	-10.2833
▁सदैव	-10.2834
gr	-10.2839
ृष्ट	-10.284
डब्ल्यू	-10.2853
▁छाप	-10.2854
▁ठेवण्यात	-10.2857
बोल	-10.2859
▁अभिनय	-10.2859
फ़	-10.286
▁जगभरातील	-10.2864
▁जनावर	-10.2864
▁लावले	-10.2864
ach	-10.2869
▁Ar	-10.2871
▁दारू	-10.2872
▁पाण्यात	-10.2872
कथा	-10.2875
▁क्रिया	-10.2876
व्यवस्थे	-10.2881
ster	-10.2885
▁खासगी	-10.2888
▁नवे	-10.2891
▁शिकवण	-10.2895
▁त्याचबरोबर	-10.2896
▁व्हावे	-10.2898
▁यायला	-10.2902
▁ठरवले	-10.2908
▁स्थापित	-10.2908
▁सांगण्यात	-10.2913
▁खायला	-10.2913
▁टि	-10.2916
▁जायचं	-10.2924
▁दरवाजे	-10.2937
▁त्याप्रमाणे	-10.2941
वरुन	-10.2949
lan	-10.2954
out	-10.2964
▁आसपास	-10.2969
▁बुड	-10.2976
▁सुरक्षे	-10.2979
▁कोरियन	-10.2983
▁हलव	-10.3001
▁pro	-10.3003
▁सगळा	-10.3008
▁जगभरात	-10.3011
ST	-10.3019
▁स्थितीत	-10.3019
▁देशाला	-10.302
app	-10.3021
▁स्टॅ	-10.3021
▁प्राधान्य	-10.3022
▁होणाऱ्या	-10.3026
▁द्राक्ष	-10.3034
▁भौतिक	-10.3038
▁वर्षांनंतर	-10.3038
=	-10.3057
विषयक	-10.3057
▁आमच्यासाठी	-10.3057
▁रेड	-10.3057
▁घालून	-10.3063
▁लाज	-10.3063
▁कृषी	-10.3064
▁हरकत	-10.3066
▁विदेशी	-10.307
▁तसंच	-10.307
▁गणेश	-10.3074
निमित्त	-10.3075
int	-10.3076
ft	-10.3076
▁Ad	-10.3078
।	-10.3082
ood	-10.3099
▁खिडकी	-10.3102
▁टीका	-10.3114
▁बोलले	-10.3117
▁टॅग	-10.3117
▁कारखाने	-10.3123
स्टो	-10.3124
▁इतरांना	-10.3135
▁म्हणाल्या	-10.314
चालक	-10.3143
▁साप	-10.3144
▁पृष्ठभाग	-10.3153
बाब	-10.3157
▁वर्षाच्या	-10.316
ताई	-10.3161
▁संख्ये	-10.3166
▁India	-10.3167
▁मिळवून	-10.317
▁अवघड	-10.3177
▁बाह्य	-10.3177
▁Be	-10.3188
▁जप	-10.319
▁लोकांसाठी	-10.3196
▁येत्या	-10.3198
निष्ठ	-10.3198
▁बोर्ड	-10.3198
▁खुप	-10.3199
▁इलेक्ट्रिक	-10.3204
▁सदर	-10.3209
▁अण्णा	-10.3215
▁घन	-10.3216
▁एवढेच	-10.3219
▁एक्सएनयूएमएक्स	-10.3221
▁समृद्ध	-10.3226
▁पीसी	-10.3228
▁आदिवासी	-10.3237
्झ	-10.3241
▁प्रौढ	-10.3242
▁म्हणायचे	-10.3246
द्रा	-10.3251
▁प्रतिष्ठा	-10.3251
▁चरबी	-10.3253
▁इंजेक्शन	-10.3258
संबंध	-10.326
▁गर्भवती	-10.3265
▁मार्केट	-10.3272
▁महत्वाचा	-10.3282
▁सराव	-10.3284
धर्म	-10.3284
▁ज्येष्ठ	-10.3286
▁समूह	-10.3289
▁सत्	-10.3294
▁गोळी	-10.3296
▁आढळले	-10.3299
ल्ह	-10.3301
ins	-10.3307
▁ट्यूब	-10.3307
▁बांधले	-10.331
▁सामने	-10.3311
▁मित्रांनो	-10.334
▁मस्क	-10.3349
▁विंडोज	-10.3351
▁बघून	-10.3352
▁आवश्‍यक	-10.3357
▁दृष्टिकोन	-10.3357
▁आयोग	-10.3367
▁परिचय	-10.3369
▁धारण	-10.338
▁आल्यावर	-10.3382
au	-10.3386
▁खोटे	-10.3394
▁बाबी	-10.3395
धु	-10.3397
▁पसंती	-10.3399
lot	-10.3404
▁गायन	-10.3404
AT	-10.3405
▁ज्यांनी	-10.3413
▁नकारात्मक	-10.3413
▁दिसेल	-10.3423
▁अन्याय	-10.3435
▁पाहिली	-10.3441
▁आंतर	-10.3444
ाइल	-10.3451
खोर	-10.3457
खु	-10.346
▁वेगवेगळे	-10.3462
▁रूपांतर	-10.3463
▁२२	-10.3466
▁धमकी	-10.3473
▁दोघांनी	-10.3475
▁साम्राज्य	-10.3478
्यो	-10.3479
://	-10.3479
▁अंतर्	-10.348
▁su	-10.3489
▁कौतुक	-10.349
▁मानतो	-10.3495
▁पॅकेज	-10.35
▁सांगितली	-10.3501
▁We	-10.3501
▁बोलतात	-10.351
आउट	-10.3511
▁वापरकर्ता	-10.3512
ण्ड	-10.3517
▁त्यामुळं	-10.3522
▁पित्या	-10.3525
▁मिळविण्यासाठी	-10.3525
▁संविधान	-10.3528
▁लाखो	-10.3534
ace	-10.3535
port	-10.3537
▁बहुधा	-10.3543
राज्य	-10.3555
▁Te	-10.3556
▁घ्यावा	-10.3562
▁तारखे	-10.3564
▁सोपा	-10.3566
▁महत्वाची	-10.3567
भ्र	-10.3569
▁आत्मविश्वास	-10.3573
▁ताब्यात	-10.3573
▁पकडले	-10.3578
▁गॅस	-10.3582
▁येथून	-10.3585
▁नीट	-10.3588
▁आग्रह	-10.359
▁रिअल	-10.3605
िष्ट	-10.361
▁माहितीसाठी	-10.3615
▁ट्विट	-10.3618
▁सर्वसाधारण	-10.3618
▁सभे	-10.3624
▁बोलणार	-10.3625
▁चरण	-10.3636
ल्हा	-10.3645
▁बरं	-10.3652
2004	-10.3654
▁दोघांना	-10.3658
▁आरंभ	-10.3658
▁दुरुस्ती	-10.3658
▁सोडले	-10.3659
▁आठवडे	-10.3664
▁तत्व	-10.3668
दिन	-10.3671
▁जुना	-10.3679
▁कनेक्ट	-10.37
▁आशिया	-10.3706
▁नागरिकांना	-10.3712
▁शनिवारी	-10.3716
ख्या	-10.3718
▁तणाव	-10.3721
▁बहीण	-10.3723
▁भ्रष्टाचार	-10.3726
▁सुसंगत	-10.3726
ष्ण	-10.373
ोलोन	-10.373
▁Marathi	-10.3732
▁व्यस्त	-10.3738
▁कुठल्या	-10.3743
▁अॅप	-10.375
▁कार्यकर्ते	-10.3751
▁सर्व्हर	-10.3754
▁हिंसा	-10.3761
▁अर्थव्यवस्था	-10.3763
१९	-10.3765
▁लिहिण्या	-10.3769
▁Read	-10.3771
▁ब्रेक	-10.3783
▁स्मरण	-10.3784
▁कडक	-10.3786
▁ठेवण्यासाठी	-10.3789
ॅक्ट	-10.3795
str	-10.3796
▁प्रदूषण	-10.3801
▁अर्धा	-10.3803
▁बर्फ	-10.3812
▁कार्यक्षमता	-10.3817
म्हणजे	-10.3822
▁लाट	-10.3823
▁संशय	-10.3824
शिवसेना	-10.3824
AR	-10.3825
र्पण	-10.3826
▁अरब	-10.3827
▁देण्या	-10.3833
▁हळूहळू	-10.3835
▁अभिनेत्री	-10.3847
▁बाटली	-10.3847
▁मुलांची	-10.3857
▁देवदूत	-10.3858
ाजवळ	-10.3862
▁मंगळवारी	-10.3864
▁लोकसभे	-10.3864
▁स्वयं	-10.3865
▁आठवडा	-10.387
ator	-10.387
▁Un	-10.3872
▁हालचाल	-10.3872
▁कटिंग	-10.3877
▁असल्याची	-10.3877
▁घराण्या	-10.388
▁दुरुस्त	-10.3881
▁त्रुटी	-10.3881
▁देह	-10.3887
▁स्त्रियांना	-10.3889
▁रागाव	-10.3889
▁कंटाळ	-10.3893
▁बघतो	-10.3895
ence	-10.3906
▁द्रव	-10.3913
▁श्रेष्ठ	-10.3916
▁संप्रेरक	-10.3916
▁पॉलि	-10.3916
ree	-10.3921
▁पर्यटन	-10.3922
▁सवलत	-10.3928
▁सर्वसामान्य	-10.3945
▁कॉम्प	-10.3946
▁तारे	-10.3951
▁अत्याचार	-10.3951
▁इंडिया	-10.3965
▁इंधन	-10.3965
▁मास्टर	-10.3969
▁तेथील	-10.3969
ice	-10.3969
▁पर्यटक	-10.3974
▁हॉल	-10.3975
▁सापडले	-10.3976
▁मालिके	-10.3976
▁सागर	-10.3992
▁अश्या	-10.3992
▁वेबकॅम	-10.3992
▁सिस्टम	-10.3992
▁पाण्याची	-10.3997
▁श्रद्धा	-10.3998
योहान	-10.3999
▁व्यापक	-10.4004
▁धोकादायक	-10.4005
▁कुत्रा	-10.4006
▁शाखा	-10.4006
▁दुसरीकडे	-10.4008
▁सर्वोच्च	-10.401
▁दत्त	-10.4014
▁डॅ	-10.4015
▁स्रोत	-10.4016
▁वेळेस	-10.4033
▁दहशतवाद	-10.4033
▁त्यानं	-10.4034
▁मिनी	-10.4035
▁सर्वजण	-10.4037
▁लिखाण	-10.4045
▁आजकाल	-10.4046
▁भव्य	-10.4048
▁उभी	-10.4051
▁जरूर	-10.4053
▁त्यांच्याबरोबर	-10.4059
▁पाठवले	-10.4062
▁तज्ञ	-10.4069
▁घेण्याचा	-10.4071
▁सांगितल्या	-10.4075
ॅग	-10.4078
▁कंप	-10.4082
▁sp	-10.4082
▁वेगाने	-10.4092
▁भयानक	-10.4092
▁स्वच्छता	-10.4094
▁दाखवून	-10.41
▁लिहिता	-10.4109
टोन	-10.4111
▁खाण्या	-10.4119
▁चिनी	-10.4122
gen	-10.4127
▁इलेक्ट्रॉनिक	-10.4128
▁अनुदान	-10.4132
ंतर्गत	-10.4139
▁घडली	-10.4139
▁बिघड	-10.414
बदल	-10.4146
ग्रह	-10.4149
इफेक्ट्स	-10.4151
▁धैर्य	-10.4151
▁चुकीचा	-10.4152
▁चॉकलेट	-10.4157
▁हुशार	-10.4158
▁हसत	-10.416
▁रासायनिक	-10.4163
▁होण्यास	-10.4164
▁सोशल	-10.417
मुद्र	-10.4191
▁बनवले	-10.4197
▁Con	-10.4197
▁बोलायला	-10.4201
स्कर	-10.4203
जीवन	-10.4214
▁दुष्परिणाम	-10.4223
▁स्पष्टपणे	-10.4233
▁इतकं	-10.4235
▁आफ्रिकन	-10.4253
▁गांडचटाई	-10.4253
दर्शक	-10.4261
▁बुद्धी	-10.4263
स्तंभ	-10.4266
▁जोरदार	-10.4271
▁तुट	-10.4272
ट्रॉ	-10.4274
▁चांदी	-10.4279
▁वर्गात	-10.4282
▁पातळीवर	-10.4294
▁देण्याचा	-10.4297
▁छोटा	-10.4301
▁Me	-10.4302
▁वेळेवर	-10.4302
▁डाऊनलोड	-10.4307
फु	-10.4311
▁असल्याचा	-10.4318
▁निदान	-10.4319
▁फ्लॅट	-10.4322
▁कळेल	-10.4329
▁शासकीय	-10.4332
▁बालक	-10.4339
▁एकदम	-10.436
▁फलंदाज	-10.4362
सृष्टी	-10.4362
स्टार	-10.4371
▁धान्य	-10.4376
▁त्याचप्रमाणे	-10.4381
▁पॉवर	-10.4384
▁राष्ट्रपती	-10.4389
▁बघता	-10.4394
IC	-10.4394
ina	-10.4397
▁1000	-10.4412
▁कादंबरी	-10.4417
▁राज्यातील	-10.442
▁स्त्रोत	-10.4423
▁केबल	-10.4429
▁कोर्ट	-10.4429
▁सोमवारी	-10.443
बाबा	-10.4435
▁नेले	-10.4439
▁नमस्कार	-10.4447
▁साइटवर	-10.445
▁पॅंटीस	-10.4453
▁प्रामुख्याने	-10.4453
▁यापुढे	-10.4455
▁प्रकट	-10.4456
▁उरले	-10.4458
▁इथं	-10.4459
▁WEB	-10.446
▁वृत्तपत्र	-10.446
▁कळलं	-10.4463
▁मिळतील	-10.4463
▁असण्या	-10.4464
▁कृत्य	-10.4464
bi	-10.4466
Porn	-10.4467
▁याआधी	-10.4468
▁कधीतरी	-10.4473
▁Th	-10.448
▁खराब	-10.4486
▁घेण्यास	-10.4489
▁विसरून	-10.449
▁सावध	-10.449
▁वाढवण्या	-10.4496
▁टिप	-10.4507
न्ड	-10.4507
ish	-10.4513
▁घोषित	-10.4515
▁विनोद	-10.4516
▁मंत्रालय	-10.4518
▁आफ्रिका	-10.4521
▁कोसळ	-10.4522
▁Cl	-10.4532
▁नव्हतो	-10.4534
du	-10.4541
गुण	-10.4546
▁अस्वस्थ	-10.4552
▁किमी	-10.4553
एनए	-10.4561
▁गोपनीयता	-10.4564
▁more	-10.4596
▁वापरकर्ते	-10.4606
ID	-10.4613
▁लागवड	-10.4613
▁प्रोग्राम	-10.4614
▁ग्रा	-10.4619
▁स्पष्टीकरण	-10.462
▁आकर्षण	-10.4633
▁परवाना	-10.4633
▁व्यवस्थापक	-10.4646
▁प्रभावित	-10.4648
▁पडणार	-10.4649
इंग्लिश	-10.4652
ated	-10.4653
▁खेड	-10.4658
ER	-10.4661
▁धरण	-10.4665
▁वीडियो	-10.4696
▁तिकीट	-10.4696
▁फसवणूक	-10.4696
▁शेवटचे	-10.47
use	-10.4703
▁डिव्हाइस	-10.4708
▁स्टेट	-10.4714
▁मुलींना	-10.4714
▁शास्त्रज्ञ	-10.4714
fl	-10.4719
▁सगळीकडे	-10.472
▁अज्ञात	-10.4721
▁मिळालं	-10.4734
▁Vi	-10.4748
▁घरगुती	-10.4752
▁उद्योजक	-10.4753
▁ऑपरेट	-10.4759
LE	-10.4776
▁भारी	-10.4779
form	-10.4792
▁2011	-10.4792
▁रबर	-10.4795
वयास	-10.4797
▁स्वरूपात	-10.4801
▁वेळेत	-10.4807
विद्य	-10.482
▁लागतील	-10.4826
▁तब्बल	-10.4835
▁प्लॅटफॉर्म	-10.4835
▁पिऊ	-10.4836
▁युवक	-10.4842
▁अनुसरण	-10.4845
▁ड्राइव्ह	-10.4847
yl	-10.4853
▁Le	-10.4857
▁एवढ्या	-10.4873
▁वार्षिक	-10.4873
▁विराट	-10.4874
▁होईपर्यंत	-10.4886
▁अमेरिकेतील	-10.4902
▁सुलभ	-10.4906
▁खातो	-10.4917
▁सुचव	-10.4933
▁धुवून	-10.4944
▁सोपी	-10.495
ase	-10.4959
▁पूरक	-10.496
वयाचे	-10.4962
▁घडते	-10.4963
▁माजी	-10.4964
▁पूल	-10.4966
एमए	-10.497
▁अडचण	-10.4975
▁साधारणपणे	-10.4979
▁संपादक	-10.4982
ाधिक	-10.4989
▁संचालक	-10.4995
▁गाज	-10.4999
▁उर्वरित	-10.5002
▁लक्षणे	-10.5007
▁शिवाजी	-10.5008
▁कै	-10.5011
▁निघाले	-10.5013
▁आकर्षित	-10.5015
▁तथ्य	-10.5015
▁खाद्य	-10.5016
▁साकार	-10.5019
▁निष्कर्ष	-10.5028
▁माझ्याबरोबर	-10.5037
▁असणाऱ्या	-10.5041
आमच्या	-10.5045
▁परदेशात	-10.5053
▁धूम्रपान	-10.5054
▁हंगाम	-10.5054
▁लिहिली	-10.5057
ब्रि	-10.5064
▁पॅरिस	-10.5067
ांमधून	-10.5068
▁गर्व	-10.5069
▁आर्ट	-10.5071
lic	-10.5085
म्हा	-10.5087
▁पॅकिंग	-10.5089
▁पुरावा	-10.509
▁सिद्धांत	-10.5096
▁वेस्ट	-10.5108
RE	-10.5108
▁क्लब	-10.5112
▁असामान्य	-10.5113
▁वळण	-10.5114
▁टिप्पणी	-10.5119
▁बोललो	-10.5123
▁उष्णता	-10.5126
▁नोकर	-10.5129
बाजी	-10.5129
▁टाळण्यासाठी	-10.513
▁कौ	-10.5131
▁करिअर	-10.5132
▁त्याऐवजी	-10.5133
▁तुकडे	-10.5135
▁व्यवस्थित	-10.5152
▁दुसर्या	-10.5152
उतार	-10.5162
▁जमिनीवर	-10.5162
▁मुळ	-10.5164
▁वैध	-10.5179
वाडा	-10.5183
▁निरोप	-10.5185
‍	-10.5186
▁बॅंक	-10.5192
▁सामान्यतः	-10.5192
▁कल्याण	-10.52
▁सज्ज	-10.5207
▁शाह	-10.5213
शिया	-10.5216
▁आंबेडकर	-10.5218
▁बांगलादेश	-10.5218
बंदी	-10.5222
▁कार्बन	-10.5225
▁अवयव	-10.5225
शिष्ट	-10.5226
▁विश्‍वास	-10.5227
▁आध्यात्मिक	-10.5231
▁रज	-10.5235
▁लपव	-10.5242
▁नागपूर	-10.5244
▁अभाव	-10.5253
▁चव	-10.5257
▁युनिट	-10.5258
▁वेतन	-10.5261
▁नॅस्टी	-10.5271
▁Tag	-10.5271
▁प्रशिक्षक	-10.5284
▁शरद	-10.5285
▁जनता	-10.5289
▁राष्ट्राध्यक्ष	-10.5292
▁सुटका	-10.5299
वर्धन	-10.53
स्फोट	-10.5305
▁ऑफीस	-10.5306
▁द्यावी	-10.5308
▁अर्थव्यवस्थे	-10.5309
▁वीस	-10.5314
▁बटण	-10.5315
▁मुख्यपृष्ठ	-10.5318
९९	-10.5324
▁स्थलांतर	-10.5324
▁गुजरात	-10.5324
आई	-10.5326
▁वरिष्ठ	-10.5331
▁मुलगे	-10.5331
दृष्ट्या	-10.5338
▁with	-10.5345
विश्व	-10.535
▁दृष्टीकोन	-10.5351
▁सूट	-10.5351
ट्रिक	-10.5353
▁कोर्स	-10.5357
▁रविवार	-10.5359
▁ago	-10.5388
▁ताप	-10.539
▁टेप	-10.5391
▁अवस्था	-10.5395
स्थापित	-10.5396
▁वगैरे	-10.5398
▁येण्याची	-10.5402
▁निराकरण	-10.5412
▁आम्हांला	-10.5419
▁भांडवल	-10.5422
पीएस	-10.5425
▁सत्र	-10.5428
ron	-10.5428
िएट	-10.543
▁वर्तन	-10.543
▁महत्त्वपूर्ण	-10.5436
▁ओळी	-10.5445
▁परस्पर	-10.5446
▁चौकट	-10.545
▁तिथून	-10.5462
▁बाळाला	-10.5472
▁निश्‍चित	-10.5473
▁असतांना	-10.5478
bu	-10.5484
▁लाड	-10.5489
▁ऐकायला	-10.55
▁तिकडे	-10.5503
2018	-10.5505
भेद	-10.5505
▁दिवसांपूर्वी	-10.5514
▁चॅनेल	-10.552
▁भयंकर	-10.5527
▁हरवले	-10.5527
▁बंदूक	-10.553
▁गंमत	-10.5534
▁संकल्प	-10.5541
low	-10.5543
▁कैद	-10.5544
७५	-10.5553
▁कक्ष	-10.5562
▁वाचण्या	-10.557
आयए	-10.5574
▁स्टोअर	-10.5575
▁मेटल	-10.5578
▁स्वयंपाकघर	-10.5583
▁पाहिल्या	-10.5585
▁सेवानिवृत्त	-10.5589
▁जाण्याचा	-10.5596
१०	-10.5601
▁शौल	-10.561
▁सामान	-10.5611
वडील	-10.5615
cial	-10.5618
AN	-10.5624
▁ग्रीक	-10.563
▁बिग	-10.5635
▁जिल्ह्यातील	-10.5637
पुरुष	-10.564
डय़ा	-10.564
विरोधात	-10.5642
▁फ्रेम	-10.5646
▁प्रत्येकजण	-10.5651
▁युती	-10.5662
▁कारखान्या	-10.5665
▁Ex	-10.5678
▁ग्रामीण	-10.5679
▁काढता	-10.5684
▁तालुक्या	-10.5692
▁गाण्या	-10.5695
▁यूके	-10.5696
0.0	-10.5704
▁युनायटेड	-10.5713
▁वेबसाईट	-10.5727
▁गुरूवार	-10.5734
▁कापड	-10.5735
▁शेतकऱ्या	-10.5741
▁विक्रम	-10.5756
▁राखीव	-10.5756
▁पॅकेजिंग	-10.5756
▁आवाहन	-10.5762
▁है	-10.5766
्टि	-10.5768
▁इंग्रज	-10.5772
▁फोड	-10.5802
भारतीय	-10.5807
pos	-10.5808
▁खोटं	-10.5812
▁उपासना	-10.5825
ारंभ	-10.5829
▁पाहु	-10.583
▁सुगंध	-10.5832
▁घोडे	-10.5839
▁Qu	-10.584
निर्मित	-10.5847
▁बघितले	-10.5847
▁साडे	-10.5849
▁देण्यास	-10.5859
▁स्वयंसेवक	-10.5867
▁शिल्लक	-10.5868
▁2009	-10.5872
▁रुग्णालयात	-10.5879
मैत्रिणी	-10.5882
▁तृतीय	-10.5882
▁राहतील	-10.5885
▁अद्वितीय	-10.5889
▁विस्तृत	-10.5889
▁थोर	-10.5889
▁पॅनेल	-10.589
▁एवढं	-10.5896
▁राहिलो	-10.5896
▁मुलांनी	-10.5906
▁शनिवार	-10.5909
▁तुझं	-10.591
▁ऑक्स	-10.5917
▁साहाय्य	-10.5924
▁कुटुंबीय	-10.5926
▁गुणधर्म	-10.5926
▁फिटनेस	-10.5938
▁गर्ल	-10.594
▁डिस्क	-10.5944
▁२६	-10.5945
▁तलाव	-10.5952
▁खाल्ले	-10.5953
ture	-10.596
▁मंद	-10.5968
▁फॅशन	-10.5978
ाध्यक्ष	-10.5993
विचार	-10.5998
▁वास्तव्य	-10.6004
▁तारा	-10.6007
▁घसर	-10.6009
mg	-10.6014
▁वाढविण्या	-10.6017
▁काढणे	-10.6022
▁विश्रांती	-10.6024
▁निविदा	-10.6031
▁घडवून	-10.6038
TC	-10.6041
▁पाठिंबा	-10.6053
ॉर्न	-10.6062
vel	-10.6062
▁जाताना	-10.6067
▁तेवढा	-10.6075
मधल्या	-10.6076
▁सामायिक	-10.6082
▁are	-10.6086
कोश	-10.6092
▁कोकण	-10.6096
▁काश्मीर	-10.6096
▁ठरेल	-10.6101
▁आढावा	-10.6111
▁घ्यायची	-10.6112
▁2010	-10.6117
▁डिझाईन	-10.6118
▁शिपिंग	-10.6118
▁२०१९	-10.6119
▁घट्ट	-10.6137
▁घाई	-10.6148
▁विवेक	-10.6156
सुध्दा	-10.6157
▁फक्किंग	-10.6161
▁ब्रिटन	-10.6161
ऐ	-10.6165
▁सूक्ष्म	-10.6169
▁महत्त्वाचं	-10.6181
PS	-10.6181
▁नाशिक	-10.6184
▁प्लेट	-10.619
▁फसव	-10.6191
▁धोनी	-10.6198
▁सांगायला	-10.6209
▁ऑर्जी	-10.6211
▁स्कूल	-10.6213
▁थोडं	-10.622
▁दफन	-10.6221
ंढर	-10.6221
३०	-10.6234
▁2008	-10.6237
▁प्रतिकार	-10.6247
▁शंभर	-10.6249
2019	-10.6254
औ	-10.6258
▁संघटने	-10.6264
▁आयोजन	-10.6275
▁याकोब	-10.6287
वडिल	-10.63
▁about	-10.6301
▁मिसळ	-10.6304
▁अॅनाबॉलिक	-10.6308
▁आश्वासन	-10.6308
▁किल्ला	-10.6308
▁बायका	-10.6312
▁वॉश	-10.6324
▁पुण्यात	-10.6326
▁वाटचाल	-10.6337
▁करणार्‍या	-10.6345
▁पांढ	-10.635
▁प्राध्यापक	-10.636
▁महायुद्ध	-10.6367
▁साखळी	-10.6375
▁पॉलिसी	-10.6375
▁देखावा	-10.6377
▁होईन	-10.6379
▁ऋण	-10.6386
▁डॉलर्स	-10.6397
▁पसंत	-10.64
▁तेथून	-10.6414
व्हायरस	-10.642
mail	-10.6424
ण्याआधी	-10.6424
मंत्र	-10.6428
▁संसाधन	-10.6434
▁पार्श्वभूमी	-10.6442
अल्लाह	-10.6451
▁दुहेरी	-10.6457
▁कार्यकारी	-10.6457
▁प्रवाशा	-10.6466
▁स्टिरॉइड्स	-10.6471
▁आक्रमण	-10.648
▁स्तन	-10.6481
▁नातेवाईक	-10.6494
▁हल्ल्या	-10.6496
▁निरोगी	-10.6502
गुरु	-10.6507
▁सातारा	-10.651
▁रसूल	-10.6517
▁८०	-10.6522
▁पारंपारिक	-10.6524
▁स्विच	-10.6529
▁मरणार	-10.6531
▁न्यडिस्ट	-10.6532
▁न्यूयॉर्क	-10.6532
▁घुस	-10.6532
▁अभियांत्रिकी	-10.654
▁आयटम	-10.654
▁सद्	-10.6544
▁Casino	-10.6547
▁९०	-10.6556
▁त्वचे	-10.6559
air	-10.6562
▁समस्ये	-10.6562
▁डबल	-10.6572
▁स्पेन	-10.6573
▁क्षमते	-10.6578
▁ठरणार	-10.6589
▁वीर	-10.6592
▁वाचतो	-10.6592
▁कनेक्शन	-10.6593
▁उद्भव	-10.6593
▁लेझर	-10.6594
▁कार्यक्षम	-10.6601
▁होण्याचा	-10.6601
▁लोकसंख्ये	-10.6615
▁देणगी	-10.6615
▁दुध	-10.6616
▁संसार	-10.6617
तर्फे	-10.6629
▁ऋतू	-10.6631
▁असंख्य	-10.6632
ाबाद	-10.6637
▁किल्ल्या	-10.6639
▁येईन	-10.6649
ॅन्	-10.665
▁रेखा	-10.6655
▁गोलंदाज	-10.6661
▁प्रोजेक्ट	-10.6669
▁पशु	-10.6671
▁कमाई	-10.6673
▁व्हायचे	-10.6693
▁दाद	-10.6698
▁पाळीव	-10.6709
▁व्हॅ	-10.6713
▁खरंतर	-10.6717
▁संमेलन	-10.6724
▁पाहण्या	-10.673
▁कारभार	-10.6739
तुम्हाला	-10.6745
▁सुवर्ण	-10.6753
▁परीक्षण	-10.6753
वचन	-10.6755
▁अधिकाधिक	-10.6755
▁बजाव	-10.6761
▁आयफोन	-10.6761
RO	-10.6764
▁वर्ल्ड	-10.6769
▁शंकर	-10.6777
▁२३	-10.6792
▁कॅस्टिंग	-10.68
▁भटक	-10.6804
▁धडा	-10.6818
▁सर्वोत्कृष्ट	-10.6823
▁सुनिश्चित	-10.6823
▁पाउडर	-10.6831
▁कामकाज	-10.684
▁फायद्या	-10.6846
▁चुकीची	-10.6847
दिवस	-10.6862
▁भाषांतर	-10.6871
▁मराठा	-10.6871
मार्फत	-10.6878
▁आगमन	-10.6887
किंवा	-10.6888
▁तारण	-10.689
▁दस्तऐवज	-10.6893
▁प्रकृती	-10.6894
▁सूचित	-10.6894
▁लोकसभा	-10.6904
old	-10.6905
▁अद्भुत	-10.6917
▁बाजारपेठ	-10.6917
▁देण्याचे	-10.6918
तंत्र	-10.6922
▁पुरेसा	-10.6925
▁घ्यायचे	-10.6926
▁दौरा	-10.694
▁बाबेल	-10.6941
▁वाचली	-10.6945
▁स्तरावर	-10.6953
▁लवचिक	-10.6956
▁दूत	-10.6963
▁कच्चा	-10.6964
▁महिन्यांत	-10.6992
▁दिनांक	-10.6992
▁आशियाई	-10.6995
▁साताऱ्या	-10.6996
परमेश्वर	-10.6997
फ्रि	-10.6999
▁कर्करोग	-10.7019
▁ठेऊ	-10.703
गुरू	-10.7035
▁तितकी	-10.7035
▁माणसांना	-10.7041
▁युक्रेन	-10.7043
▁सांगायचे	-10.7047
▁चाहत्यां	-10.7051
▁लागलो	-10.7056
▁लॉगिन	-10.7059
PC	-10.7061
▁घाट	-10.7063
▁घोडा	-10.7066
प्राप्त	-10.7066
▁अशोक	-10.7067
▁२०१७	-10.7075
▁लघु	-10.7075
व्यवस्था	-10.7082
▁व्हे	-10.7086
▁ढकल	-10.7093
▁साइन	-10.7094
▁बर्‍याच	-10.7099
▁ग्रुप	-10.7108
▁सहजपणे	-10.7112
▁सिलिकॉन	-10.7115
▁वाळू	-10.713
▁दीड	-10.7131
▁किमती	-10.7131
▁चॅट	-10.7142
लक्ष्मी	-10.7144
▁तरूण	-10.7146
▁समजावून	-10.7147
▁वाळवंट	-10.7155
▁खालीलप्रमाणे	-10.7156
▁यात्रा	-10.7168
ास्पद	-10.7169
▁उद्दिष्ट	-10.7171
माझे	-10.7171
▁बरीच	-10.7175
लेस्बियन	-10.7187
▁विश्वसनीय	-10.7187
▁घ्यायचा	-10.7189
▁भोग	-10.7211
▁स्मृती	-10.7211
▁ट्रेडिंग	-10.7211
▁बैठकीत	-10.7217
▁डीव्हीडी	-10.7219
The	-10.7222
▁नसून	-10.7233
▁अंतरावर	-10.7234
▁गाणं	-10.7244
▁सल्लागार	-10.7246
भाई	-10.7251
▁तरतूद	-10.7252
▁देखरेख	-10.726
▁उल्लंघन	-10.7268
फ्ल	-10.7273
▁इशारा	-10.7284
▁अक्षय	-10.7286
▁रिपोर्ट	-10.7293
▁कितीतरी	-10.7295
▁बंगाल	-10.7295
▁ऑर्	-10.7296
▁टेनिस	-10.7301
▁मातृ	-10.7301
▁कॉपी	-10.7302
बोर्ड	-10.731
▁विशाल	-10.7319
▁द्वि	-10.7322
▁घातली	-10.7326
▁डोळा	-10.7327
▁घोड्या	-10.7333
▁कृत्रिम	-10.7333
▁गुंडाळ	-10.7334
▁देणाऱ्या	-10.7341
▁कोल्हापूर	-10.7342
ोत्सव	-10.7342
▁शेतकर्‍यां	-10.735
▁स्तुती	-10.735
▁सवाल	-10.735
▁राबव	-10.7364
▁द्यायचे	-10.7376
▁अवघ्या	-10.7383
▁संसदे	-10.7383
▁गोंदण	-10.7391
▁पॅंटीहोस	-10.7391
▁अभिनेता	-10.7399
▁पीव्हीसी	-10.7407
▁व्यक्तिगत	-10.7407
आयसी	-10.7425
▁पोर्	-10.7426
रत्न	-10.7433
▁फटका	-10.7433
ऱया	-10.7446
▁ताबडतोब	-10.7449
▁तेवढ्या	-10.7449
▁ब्लॉक	-10.7449
▁जवान	-10.7451
शोध	-10.7464
line	-10.7468
▁आमचं	-10.7492
▁पासवर्ड	-10.7498
द्रव्य	-10.7504
▁वेध	-10.7513
▁इजिप्त	-10.7515
lect	-10.7532
▁आसन	-10.7539
▁अधिवेशन	-10.754
▁उत्पाद	-10.7546
▁वाचू	-10.7547
आम्हाला	-10.7555
▁सीएनसी	-10.7557
▁तितका	-10.7557
▁आजोबा	-10.7558
▁निर्दोष	-10.7565
▁बाळासाहेब	-10.7565
▁पाठलाग	-10.7565
▁सै	-10.7565
▁उच्चार	-10.7572
प्रभा	-10.758
▁शर्यत	-10.7583
▁मदतीने	-10.7588
▁नैतिक	-10.7599
▁जॉर्ज	-10.7607
▁आयुष्यभर	-10.7607
कडं	-10.761
▁ऑस्ट्रेलियन	-10.7624
▁ठाम	-10.7636
▁विपणन	-10.7658
▁श्यामला	-10.7674
▁धाडस	-10.7674
▁मद्य	-10.7679
▁द्वेष	-10.7684
वार्ता	-10.7697
▁गणपती	-10.7718
▁नाट्य	-10.7725
▁डॉक्‍टर	-10.7725
▁कमाव	-10.7767
▁भिंत	-10.7784
▁बिंदू	-10.7785
पद्धती	-10.7788
▁मनोरंजक	-10.7794
▁आकडेवारी	-10.7794
▁प्यायला	-10.7803
यिर्मया	-10.7811
▁आजूबाजू	-10.7811
बाहेर	-10.7812
▁स्टॉक	-10.7815
▁कर्नाटक	-10.7819
▁गुरुवारी	-10.7822
▁मारहाण	-10.7828
▁नसतील	-10.7831
ान्त	-10.7833
▁दुबई	-10.7845
▁पौल	-10.7851
▁संरक्षित	-10.7862
▁वॉटर	-10.789
▁असल्याचं	-10.7898
▁चाचण्या	-10.7906
▁जेम्स	-10.7907
▁सभासद	-10.7915
▁चाळीस	-10.7923
▁सभागृह	-10.7951
किशोर	-10.7955
▁उगव	-10.7957
▁मुख्यमंत्र्यां	-10.7965
▁संभाषण	-10.7967
▁थीम	-10.797
▁सर्व्ह	-10.7971
▁अतिरेक	-10.7976
▁भाड्याने	-10.7984
▁लॉटरी	-10.7984
▁रुग्णालय	-10.7992
▁ऑडिओ	-10.7993
▁जबरदस्त	-10.7993
▁लक्षणीय	-10.8002
▁ठरविले	-10.8013
▁वाचला	-10.8015
▁सचिन	-10.8019
▁दोघी	-10.8045
परिपक्व	-10.8045
▁संलग्न	-10.8045
▁तेंव्हा	-10.8055
▁डु	-10.8063
▁आचरण	-10.8076
“	-10.8098
▁व्यवस्थापित	-10.8098
▁निषेध	-10.8107
तुमच्या	-10.811
▁ध्वनी	-10.8116
▁उशिरा	-10.8116
▁आश्रम	-10.8116
▁बाबासाहेब	-10.8127
▁शकाल	-10.8128
▁उपग्रह	-10.8137
▁भूमिके	-10.8151
▁तितक्या	-10.816
uck	-10.8165
▁बनावट	-10.8169
अधिक	-10.8185
▁एजंट	-10.8187
▁लेवी	-10.8189
▁चार्ज	-10.8194
▁योसेफ	-10.8196
▁महोत्सव	-10.8196
▁पंख	-10.8207
▁महासागर	-10.8214
▁ओलांड	-10.8214
▁जागृत	-10.8218
▁सचिव	-10.8222
▁विद्यार्थ्या	-10.8225
▁व्यसन	-10.8227
▁निघालो	-10.824
नवीन	-10.8252
▁गुन्हे	-10.8257
▁नरक	-10.8266
▁मागितली	-10.8268
▁चक्क	-10.8269
▁प्रीमियम	-10.8285
▁युनिव्हर्स	-10.8285
▁चाहते	-10.8285
▁सावधान	-10.8286
▁सामोरे	-10.8294
प्रिय	-10.8295
▁तेवढी	-10.8304
▁अंतराळ	-10.8309
▁२०१४	-10.8321
▁अमेरिकी	-10.833
▁चेहरे	-10.833
▁तिसरी	-10.8331
ऋ	-10.8334
▁प्लॅन	-10.834
▁अडथळा	-10.8348
▁इच्छुक	-10.8367
▁मतभेद	-10.8378
▁उदय	-10.8395
▁विषाणू	-10.8412
▁ठोक	-10.8414
▁मंच	-10.8418
शब्द	-10.8418
शौकिया	-10.8421
▁किनार	-10.8421
▁कपड्यां	-10.8433
प्रकाश	-10.8438
▁फिलिप	-10.8441
▁कुकीज	-10.8449
▁भोजन	-10.8463
▁विश्वचषक	-10.8476
▁टॅग्ज	-10.8477
▁पध्दती	-10.8485
सुंदर	-10.8493
▁अद्ययावत	-10.8494
प्रकरणी	-10.8507
▁क्रियाकलाप	-10.8513
▁नाश्ता	-10.8513
▁महामार्ग	-10.8516
▁त्‍या	-10.852
▁कुलकर्णी	-10.8522
▁सुनावणी	-10.8522
▁मोकळे	-10.8531
▁सक्ती	-10.8531
▁रसायन	-10.8533
▁आंधळ	-10.8533
▁परिवहन	-10.854
▁पिशवी	-10.8559
▁पुनरावृत्ती	-10.8568
▁आमंत्रण	-10.8596
स्टेर	-10.8614
दिवशी	-10.8615
▁क्लायंट	-10.8624
▁जोखीम	-10.8624
▁संसर्ग	-10.8624
▁बैल	-10.863
▁कारकीर्द	-10.8633
▁पारंपरिक	-10.8633
▁स्मार्टफोन	-10.8633
▁यज्ञ	-10.8638
▁पिढ्या	-10.8644
एक्सएक्सएक्स	-10.8661
▁मायक्रोसॉफ्ट	-10.8661
▁उजव्या	-10.8661
▁श्रेय	-10.8675
▁नमूद	-10.868
▁निकष	-10.8681
▁कमतरता	-10.8689
▁भ्रम	-10.869
▁प्रशासकीय	-10.8692
▁Free	-10.8696
▁विद्यमान	-10.8699
▁विलक्षण	-10.8699
▁टक्क्या	-10.87
▁फायदेशीर	-10.8708
▁हिम्मत	-10.8717
▁तर्क	-10.8718
▁घातला	-10.8731
▁प्रतिनिधित्व	-10.8736
▁नमुने	-10.8736
▁this	-10.8746
▁जाधव	-10.8746
▁कारणीभूत	-10.8755
▁दैनंदिन	-10.8764
▁शून्य	-10.8766
▁बनविण्या	-10.8768
▁पारदर्शक	-10.8785
▁ड्रायव्हर	-10.8793
▁चेहऱ्यावर	-10.8793
▁राक्षस	-10.8793
▁छाती	-10.8797
योजक	-10.8807
▁सर्वप्रथम	-10.8812
▁मजेदार	-10.8812
▁दुचाकी	-10.8812
▁वेगवान	-10.8815
▁वास्तू	-10.8821
▁शक्ति	-10.8821
$	-10.8825
पुरवठा	-10.8825
▁आपत्ती	-10.8831
▁घेईल	-10.8831
▁आगामी	-10.884
▁स्वरुप	-10.8854
म्हणून	-10.8864
▁महापालिके	-10.8869
▁dis	-10.8871
▁अवस्थेत	-10.8897
▁२०११	-10.8907
▁ठळक	-10.8907
▁व्यासपीठ	-10.8936
tube	-10.8956
▁लाइट	-10.8958
▁धोक्या	-10.8965
▁संजय	-10.8966
▁शुक्रवार	-10.8969
▁दैनिक	-10.8974
▁विदर्भ	-10.8984
▁निव्वळ	-10.9003
▁विधानसभे	-10.9003
▁संध्याकाळ	-10.9018
▁दखल	-10.9023
▁यावर्षी	-10.9023
ट्रि	-10.9025
▁उपाययोजना	-10.9025
▁डेव्हिड	-10.9032
▁बुद्धिमान	-10.9042
▁क्रिस्टल	-10.9042
▁आईवडिलां	-10.9054
▁चव्हाण	-10.9081
▁किरकोळ	-10.91
▁संरचना	-10.91
▁सिंचन	-10.91
▁व्हायचं	-10.9105
▁स्टिरॉइड	-10.9111
▁अजित	-10.9113
कऱ्यां	-10.9116
▁ध्वज	-10.913
▁नवीनतम	-10.9137
▁आक्रमक	-10.914
▁मुद्रण	-10.914
▁जनरल	-10.9142
ाशय	-10.9142
▁years	-10.9159
▁सगळ	-10.9163
▁सावरकर	-10.9169
▁घातक	-10.9172
▁प्रशंसा	-10.9179
▁तांब	-10.9188
▁कारणास्तव	-10.9189
▁जीवनशैली	-10.9189
▁जखम	-10.9193
▁उचलाल	-10.9194
▁अखेरीस	-10.9199
▁मोटार	-10.92
▁वित्तीय	-10.9208
work	-10.9209
▁शिल्प	-10.9209
▁that	-10.9228
▁रीतीने	-10.9238
▁हार्मोन	-10.9238
दृष्टी	-10.924
▁दिव्य	-10.9258
▁ख्रिसमस	-10.9268
▁प्रविष्ट	-10.9268
▁ठाणे	-10.9269
▁मोठं	-10.9278
▁बहुमत	-10.9279
▁असुरक्षित	-10.9287
▁ग्रीन	-10.9289
▁व्यक्तिमत्त्व	-10.9297
▁प्रसन्न	-10.9308
▁ब्रह्म	-10.9308
▁व्यक्तिमत्व	-10.9317
▁समर्पित	-10.9337
▁अरेबियन	-10.9347
▁लोट्टो	-10.9347
▁निमित्ताने	-10.9348
▁रक्तदाब	-10.9357
संस्था	-10.9367
▁अवलंब	-10.9382
▁डोक्यावर	-10.9399
▁अग्नी	-10.9418
video	-10.942
▁फॅब्रिक	-10.9428
▁पंधरा	-10.9428
▁post	-10.9429
लिखित	-10.943
संग्रह	-10.944
▁अवैध	-10.9448
▁घटस्फोट	-10.9448
▁संक्रमण	-10.9468
▁संकलन	-10.9488
स्वामी	-10.9497
▁बॅंगिंग	-10.9499
▁गुणवत्ते	-10.9509
▁सातत्याने	-10.9509
▁मदतीसाठी	-10.9511
प्रसाद	-10.9521
▁षटक	-10.9522
▁अब्राहाम	-10.9539
▁मौल्यवान	-10.9539
▁भरपाई	-10.9539
q	-10.9542
▁गुगल	-10.9551
निर्माण	-10.9558
▁Windows	-10.957
स्थापन	-10.9571
▁पुढाकार	-10.958
▁वेगवेगळी	-10.959
एक्सएनयूएमएक्स	-10.96
▁घाऊक	-10.9601
▁चुंबक	-10.9601
▁फूल	-10.9603
विकास	-10.9609
▁कारकिर्दी	-10.9611
▁प्रजासत्ताक	-10.9611
▁वेळोवेळी	-10.9632
विरोधी	-10.9632
▁मिळविण्या	-10.9634
▁संस्कृत	-10.9639
▁उभयलिंग	-10.9662
▁मृतदेह	-10.9662
▁आंघोळ	-10.9673
▁ट्रान्स	-10.9673
▁चार्ट	-10.9684
▁धाक	-10.9703
▁कबूल	-10.9704
▁जोडीदार	-10.9714
▁समलिंगी	-10.9725
▁इच्छे	-10.9725
▁IFPUG	-10.9735
▁शाश्वत	-10.9745
▁दुप्पट	-10.9756
▁आकडा	-10.9756
▁लिलाव	-10.9759
▁ज्ञात	-10.9762
▁कॉपीराइट	-10.9766
▁देयक	-10.9768
▁दुर्दैवाने	-10.9777
▁मधुमेह	-10.9787
▁कोहली	-10.9787
▁पायलट	-10.98
▁कॉंग्रेस	-10.9808
▁फ्लॅश	-10.9808
▁अवश्य	-10.9808
▁२०१६	-10.9829
▁२०१०	-10.9831
दृश्य	-10.9841
▁रुपांतर	-10.985
▁आभासी	-10.9861
▁टॅक्सी	-10.9882
▁युनियन	-10.9892
▁बुधवारी	-10.9893
▁यादव	-10.9903
▁कंट्रोल	-10.9913
▁अहमद	-10.9913
▁मंडप	-10.9914
▁दिग्दर्शक	-10.9924
▁समागम	-10.9924
▁अवकाश	-10.9924
▁उद्धव	-10.9924
▁सांगितला	-10.9925
▁विधेयक	-10.9935
▁रेडहेड	-10.9945
▁सोयीस्कर	-10.9966
▁कुटुंबियां	-10.9975
▁अहरोन	-10.9988
मूल्य	-10.9989
पत्नी	-10.9994
▁मूल्यांकन	-11.0009
▁तत्त्वज्ञान	-11.0011
▁बहुसंख्य	-11.0018
▁तिरस्कार	-11.002
▁मॅन्युअल	-11.002
▁घेईन	-11.002
▁शलमोन	-11.003
▁फायली	-11.0043
संख्या	-11.0044
▁सिंगापूर	-11.0052
▁चौरस	-11.0058
▁कापूस	-11.0063
▁पुष्टी	-11.0068
▁हायड्रोलिक	-11.0073
▁सुरवातीला	-11.0107
▁न्यायाधीश	-11.0117
▁विनिमय	-11.0117
▁दुसरं	-11.0117
ोत्तर	-11.0136
▁कुशल	-11.0139
बांधणी	-11.0154
अक्षरशः	-11.016
ऱ्हा	-11.0172
▁अलीकडे	-11.0183
▁स्टेपमोंम	-11.0192
▁हिंमत	-11.0192
▁अग्नि	-11.0205
▁परंतू	-11.0215
▁लाकडी	-11.0225
▁नांव	-11.023
▁ऐक्रेलिक	-11.0236
▁अकरा	-11.0244
पब्लिक	-11.0248
▁कर्जमाफी	-11.0258
▁गिटार	-11.0258
पुस्तक	-11.0282
▁उलगड	-11.0291
▁केरळ	-11.0304
▁माघार	-11.0304
अनु	-11.0318
▁देशभरात	-11.0331
▁सम्राट	-11.0335
▁निँगबॉ	-11.0346
▁वर्षापूर्वी	-11.0346
वाद्यां	-11.0359
▁मेक्सिको	-11.0368
▁पाठविण्या	-11.0369
▁अजुन	-11.0369
तुझ्या	-11.0371
▁बंधू	-11.0374
▁आपापल्या	-11.0379
▁ओपन	-11.0381
▁इराक	-11.0382
▁स्वित्झर्लंड	-11.039
▁लहानपणी	-11.0413
▁स्वीडन	-11.0424
▁२०१८	-11.0424
▁शहाणपण	-11.0424
▁निवेदन	-11.0426
▁तुकडा	-11.0446
▁ठोस	-11.0447
▁गरिब	-11.0448
▁घाण	-11.0477
▁कर्मचार्‍यां	-11.048
▁नशीब	-11.0481
▁द्यायची	-11.0481
भोवताल	-11.0491
▁वैद्य	-11.0495
view	-11.0502
▁वेळापत्रक	-11.0502
▁निलंबित	-11.0513
▁लाकूड	-11.0513
विशेष	-11.0519
क्‍स	-11.0519
▁चतुर	-11.0567
▁एफओबी	-11.057
▁मल्टी	-11.057
▁लेसर	-11.057
▁क्रॉस	-11.0571
रियल	-11.0581
▁Mobile	-11.0581
▁स्थायी	-11.0581
▁सौम्य	-11.0582
▁चौथ्या	-11.0592
▁क्वचित	-11.0604
▁तालुका	-11.0604
▁द्यायचा	-11.0606
▁ड्रॉप	-11.0615
▁नेपाळ	-11.0615
▁सनातन	-11.0617
▁not	-11.0634
▁from	-11.0649
▁मुळीच	-11.0663
▁https	-11.0672
▁सिग्नल	-11.0672
▁सायंकाळी	-11.0683
▁दोघं	-11.0683
▁पैलू	-11.0684
▁आक्षेप	-11.0696
▁श्रीमती	-11.0707
▁ह्रदय	-11.0718
▁सोहळा	-11.0718
बुधवार	-11.0728
▁OEM	-11.0741
▁पालिके	-11.0741
ऱ	-11.0759
▁देशभक्त	-11.0764
▁अपहरण	-11.0764
▁मंजुरी	-11.0775
▁प्लीज	-11.0775
▁विपरीत	-11.0787
▁चॅनल	-11.0833
▁दडप	-11.0845
NUM	-11.0856
▁टेस्टोस्टेरॉन	-11.0856
▁पथक	-11.0861
▁सोमवार	-11.0866
▁वंचित	-11.0868
▁कार्यवाही	-11.0881
▁ताज्या	-11.0881
▁मनोरंजन	-11.0903
▁विश्वासार्ह	-11.0915
▁कॅबिनेट	-11.0926
▁अनुयायी	-11.0938
▁तिन्ही	-11.095
▁शालेय	-11.0951
क्‍क	-11.0978
▁टिळक	-11.0985
▁तेजस्वी	-11.0997
▁हार्डवेअर	-11.0997
▁चाहता	-11.0997
▁भीषण	-11.1009
दक्षिण	-11.1012
▁एक्सप्रेस	-11.1021
▁मोहीम	-11.1028
▁वसाहत	-11.1033
▁राजीनामा	-11.1056
▁सोसायटी	-11.1068
▁अधिनियम	-11.1068
▁फोल्डर	-11.1068
0.5	-11.1073
▁जागरूक	-11.108
▁बायोडेटा	-11.108
▁सविस्तर	-11.108
▁त्याचवेळी	-11.1081
▁पुनर्वसन	-11.1092
▁यांत्रिक	-11.1104
▁आतंकवाद	-11.1104
▁चिंतन	-11.1105
▁डिग्री	-11.1128
press	-11.1128
▁संमती	-11.1128
मुळं	-11.1138
▁निर्णायक	-11.114
▁शूटिंग	-11.1152
॥	-11.1158
▁महात्मा	-11.1164
विरुध्द	-11.1164
▁संस्थापक	-11.1165
▁हस्तक्षेप	-11.1165
▁Online	-11.1188
▁डेस्कटॉप	-11.1188
▁हायड्रो	-11.1212
▁मुखपृष्ठ	-11.1212
▁मध्यभागी	-11.1224
▁Act	-11.1231
चिन्ह	-11.1244
▁कर्णधार	-11.1248
▁अनुमती	-11.1248
▁विलंब	-11.1249
▁व्हिडीओ	-11.1272
▁कृपे	-11.1272
▁२०१३	-11.1272
▁कुंभ	-11.1297
▁धागा	-11.1297
जागृती	-11.1306
▁सर्वशक्तिमान	-11.1309
▁ब्रिटीश	-11.1309
▁मेडिकल	-11.1321
▁घोटाळा	-11.1321
▁मालमत्ते	-11.1321
▁निरनिराळ	-11.1333
▁ईश्‍वर	-11.1333
▁नकळत	-11.1333
▁सफल	-11.1334
▁आमंत्रित	-11.1357
कर्ते	-11.1359
▁पॉइंट	-11.137
▁संदेष्ट्या	-11.137
▁World	-11.1394
▁बघितला	-11.1395
समवेत	-11.1405
▁अमरावती	-11.1406
▁शेकडो	-11.1406
▁कमकुवत	-11.1419
ology	-11.1431
▁वास्तु	-11.1432
▁पेपैल	-11.1443
▁मॉड्यूल	-11.1443
▁स्मारक	-11.1443
▁हल्ले	-11.1444
▁दुखापत	-11.1444
▁पन्नास	-11.1468
▁प्रतिष्ठापन	-11.1472
▁अनिश्चित	-11.1493
▁बॉलिवूड	-11.1493
▁विहिरी	-11.1493
मूर्ती	-11.1493
▁बास्केट	-11.1505
▁स्वाभाविक	-11.1518
▁प्रजाती	-11.1518
ज्योत	-11.1541
▁पीडित	-11.1544
▁अपलोड	-11.1555
▁सुमारास	-11.1568
»	-11.1569
▁स्टॉकिंग्स	-11.158
▁सफरचंद	-11.1605
▁वाहतुकी	-11.1605
निर्देश	-11.1608
▁सोलापूर	-11.1618
▁तिसरे	-11.1618
▁संक्षिप्त	-11.163
▁अविश्वसनीय	-11.1643
▁शमुवेल	-11.1643
▁कॉर्पोरेट	-11.1668
▁दागिने	-11.1668
▁WhatsApp	-11.1693
▁खूश	-11.1694
▁Facebook	-11.1706
▁आश्चर्यचकित	-11.1706
▁पंजाब	-11.1706
▁ग्लॅमर	-11.1719
▁आदित्य	-11.1719
▁शॉवर	-11.1719
▁नवशिक्या	-11.1731
▁आयपीएल	-11.1731
प्शन	-11.1735
▁इंडियन	-11.1757
▁अणु	-11.1763
▁अर्थसंकल्प	-11.1769
▁पोशाख	-11.1769
▁कौटुंबिक	-11.1782
▁बक्षिस	-11.1782
pcs	-11.1798
ख्ख	-11.1804
समूह	-11.1821
▁निघाली	-11.1821
▁ब्राह्मण	-11.1846
▁मुहूर्त	-11.1846
▁नेवासा	-11.1846
▁जैन	-11.1847
▁झपाट	-11.1863
▁नरेंद्र	-11.1898
▁सैतान	-11.1907
▁शस्त्रक्रिया	-11.1911
▁श्रीलंके	-11.1911
▁पुरूष	-11.1924
▁फडणवीस	-11.1937
▁आण्विक	-11.1937
▁हिस्सा	-11.1937
▁मोकळा	-11.1937
▁माहेर	-11.1944
प्रत्येक	-11.1945
#	-11.2268
ऍ	-12.0378
£	-12.2645
ञ	-12.3605
•	-13.1455
