<unk>	0
<s>	0
</s>	0
▁	-3.05556
.	-3.31686
े	-3.97526
त	-3.99664
ा	-4.00518
र	-4.05519
न	-4.14032
स	-4.17674
ी	-4.2461
,	-4.38811
क	-4.40852
ल	-4.44457
ं	-4.50342
च	-4.50696
ि	-4.66559
म	-4.66632
▁आहे	-4.71638
ट	-4.78308
व	-4.79275
य	-4.88585
ो	-4.92172
ला	-4.92956
प	-4.95038
ड	-5.09063
ू	-5.15714
▁आणि	-5.16774
ले	-5.23084
▁आ	-5.27713
ज	-5.28515
ु	-5.31583
▁नाही	-5.40668
▁अ	-5.40776
ण	-5.4293
्	-5.43706
▁प	-5.44861
ात	-5.45054
▁या	-5.46538
श	-5.52948
?	-5.53285
ग	-5.57728
ता	-5.60086
द	-5.6126
▁व	-5.61843
्य	-5.62332
र्	-5.62738
ली	-5.62869
ही	-5.63209
चा	-5.65389
वा	-5.65626
▁एक	-5.67214
ब	-5.68198
च्या	-5.74357
ून	-5.76202
ने	-5.79209
▁ब	-5.79967
ना	-5.80498
▁ते	-5.81825
्या	-5.83935
चे	-5.84517
)	-5.84948
▁ज	-5.86791
िक	-5.87196
e	-5.87656
ह	-5.8879
ची	-5.89592
▁मी	-5.90122
▁त्या	-5.90683
▁क	-5.94194
▁हे	-5.94416
▁प्र	-5.94666
री	-5.96332
▁(	-5.97301
▁म	-5.98184
ळ	-5.99958
o	-6.00275
रा	-6.00299
:	-6.00528
a	-6.00765
वर	-6.0146
▁वि	-6.04683
ित	-6.06619
▁का	-6.0816
-	-6.1003
▁आहेत	-6.11469
s	-6.11867
ॉ	-6.12287
t	-6.16199
ॅ	-6.16883
क्ष	-6.17522
▁हा	-6.17668
ध	-6.17788
ठ	-6.18312
i	-6.19023
दा	-6.23944
▁सा	-6.2422
ल्या	-6.26365
▁अस	-6.26366
ख	-6.27227
▁फ	-6.28542
फ	-6.287
ती	-6.30065
▁ह	-6.32634
त्र	-6.33373
l	-6.34674
!	-6.34863
▁तो	-6.35224
▁पा	-6.35539
▁सं	-6.36256
▁काही	-6.36376
ष	-6.36531
वे	-6.38063
का	-6.38925
▁पण	-6.39083
▁काय	-6.4127
▁तर	-6.41781
5	-6.42479
थ	-6.43055
णार	-6.44713
▁आपण	-6.4567
m	-6.45796
भ	-6.46412
्र	-6.46948
मा	-6.47392
▁उ	-6.47588
0	-6.48851
साठी	-6.52633
▁मला	-6.54194
ाय	-6.54254
▁होते	-6.55003
▁सर्व	-6.55257
वि	-6.5544
▁ग	-6.56333
▁इ	-6.5702
▁की	-6.57678
2	-6.58389
णी	-6.58637
शी	-6.60184
d	-6.613
▁श	-6.61887
▁मा	-6.63209
u	-6.63507
तो	-6.64034
▁वा	-6.64623
कार	-6.64981
▁द	-6.65815
णे	-6.6777
;	-6.67827
▁करा	-6.68762
ै	-6.69478
6	-6.69797
▁‘	-6.69835
ल्	-6.69924
व्ह	-6.70521
▁नि	-6.71275
’	-6.71336
p	-6.7146
हा	-6.72261
मध्ये	-6.728
पा	-6.73692
▁आपल्या	-6.74225
3	-6.75324
ंड	-6.75705
▁असे	-6.76119
ृ	-6.76914
8	-6.77559
▁ए	-6.77762
4	-6.77988
7	-6.78575
▁ही	-6.79368
▁ख	-6.7938
9	-6.80045
▁मु	-6.81766
c	-6.84002
▁वर्ष	-6.84266
ढ	-6.8457
डी	-6.84646
ाचा	-6.8547
▁सु	-6.86644
▁बा	-6.86945
▁ती	-6.88338
▁घ	-6.88392
▁मिळ	-6.89164
णा	-6.89266
▁केले	-6.89277
वी	-6.90254
स्त	-6.90281
ाला	-6.90346
ंग	-6.90477
टी	-6.91435
ाच्या	-6.91506
▁ध	-6.91551
▁होता	-6.92122
ए	-6.92614
ांना	-6.93175
▁दु	-6.93502
▁आता	-6.93534
लं	-6.93639
ई	-6.93733
ण्या	-6.9451
▁लोक	-6.94686
▁वेळ	-6.94801
▁रा	-6.95073
h	-6.96776
ाची	-6.97214
▁स्व	-6.97547
ष्ट	-6.97591
▁-	-6.98053
y	-6.98075
▁कोण	-6.98109
▁माझ्या	-6.99088
▁होती	-6.99536
▁त्यांना	-6.99578
झ	-7.00237
▁जा	-7.00393
▁आम्ही	-7.00433
▁पु	-7.00762
स्ट	-7.01343
▁लाग	-7.01354
▁तुम्ही	-7.01686
▁"	-7.01722
घ	-7.02114
▁म्हणून	-7.02825
लो	-7.02879
n	-7.03784
मान	-7.03802
िंग	-7.04276
▁कर	-7.04446
शा	-7.04889
तील	-7.04968
▁दे	-7.05044
ाचे	-7.0511
ाने	-7.05178
▁काम	-7.05576
▁दि	-7.05595
नंतर	-7.06497
ळी	-7.0694
कडे	-7.07381
▁भ	-7.07567
▁आज	-7.07576
▁म्हणजे	-7.07799
g	-7.08127
▁त्यांच्या	-7.09412
▁त्यामुळे	-7.09964
▁खा	-7.0997
हि	-7.10878
क्र	-7.10987
▁किंवा	-7.1159
▁2	-7.11928
तात	-7.122
आ	-7.12525
b	-7.12697
द्ध	-7.12729
रु	-7.13917
भा	-7.14601
▁विचार	-7.1575
स्थ	-7.16162
त्या	-7.16446
ंद	-7.16963
▁ना	-7.17356
▁झाले	-7.1783
▁“	-7.18131
स्	-7.1847
जी	-7.18742
▁वापर	-7.18767
िया	-7.19077
धी	-7.19267
▁गा	-7.19538
▁येत	-7.20624
▁उप	-7.20703
▁राह	-7.20754
▁मो	-7.21361
▁घेत	-7.22863
er	-7.22898
प्र	-7.23106
ातील	-7.23618
ौ	-7.23693
1	-7.24188
▁जे	-7.24659
पासून	-7.24849
ाई	-7.24853
▁दिवस	-7.24947
ांत	-7.25474
▁अनेक	-7.25566
▁त्याला	-7.26073
▁करत	-7.27169
▁20	-7.27887
द्या	-7.28174
▁ति	-7.29081
▁सांग	-7.29817
▁केली	-7.29977
▁सम	-7.30071
जा	-7.30433
ळा	-7.30822
ांनी	-7.31142
दी	-7.31475
रण	-7.31502
▁कारण	-7.31893
▁सह	-7.32102
▁त्यांनी	-7.32266
ग्र	-7.32977
ायला	-7.33344
्स	-7.33363
ावर	-7.3341
▁कु	-7.34187
an	-7.34653
▁ठेव	-7.34773
र्म	-7.34958
f	-7.3552
ण्यासाठी	-7.35854
▁अधिक	-7.36037
▁देव	-7.36128
२	-7.37491
०	-7.38163
▁म्हण	-7.38373
▁तुम्हाला	-7.3849
ांच्या	-7.38772
ंना	-7.38815
▁हो	-7.39079
▁कधी	-7.39856
▁करू	-7.40154
▁घर	-7.40604
ांची	-7.40688
▁१	-7.40933
▁कार्य	-7.41253
▁को	-7.4161
बा	-7.42432
▁बोल	-7.42604
k	-7.42698
मुळे	-7.42847
देश	-7.42863
▁होत	-7.4372
in	-7.43794
ंब	-7.44076
्व	-7.44209
▁गु	-7.44299
▁खूप	-7.44962
क्त	-7.45526
▁तु	-7.45537
▁केला	-7.45618
धार	-7.45621
त्त	-7.45631
▁करण्या	-7.45932
▁जात	-7.45977
खा	-7.46684
"	-7.46783
▁त्याच्या	-7.47207
▁देश	-7.47366
00	-7.48629
▁मध्ये	-7.48666
▁आले	-7.49228
▁दोन	-7.50755
▁शि	-7.51079
▁तुमच्या	-7.51295
द्	-7.51322
▁एका	-7.51663
अ	-7.52314
▁ऑ	-7.52789
”	-7.53056
w	-7.53115
▁वाढ	-7.53881
▁थ	-7.5498
▁तेव्हा	-7.552
▁'	-7.55612
'	-7.56814
▁असते	-7.57201
D	-7.57363
▁प्रत्येक	-7.57378
▁सगळ	-7.57551
▁असा	-7.5768
v	-7.58454
ण्याची	-7.58527
ंनी	-7.58745
▁भा	-7.58826
▁तरी	-7.58868
५	-7.59113
▁मान	-7.59441
▁शा	-7.5984
▁&	-7.60444
gt	-7.60476
I	-7.6053
▁:	-7.60876
▁बदल	-7.60925
१	-7.6107
▁आमच्या	-7.6168
पर्यंत	-7.61785
ांचा	-7.6189
▁कि	-7.62363
▁फक्त	-7.62542
ांचे	-7.63228
ाइ	-7.63463
▁अल्लाह	-7.6368
▁झाला	-7.63847
▁प्रकार	-7.64025
▁शकता	-7.64323
ळे	-7.64443
स्त्र	-7.64746
ऱ्या	-7.6483
▁तू	-7.6518
▁शक	-7.6521
▁करण्यासाठी	-7.65363
▁माहिती	-7.65416
▁जग	-7.65591
पेक्षा	-7.65676
B	-7.66057
▁वाटत	-7.66335
▁3	-7.66432
बद्दल	-7.66528
▁असेल	-7.66759
ar	-7.66957
दार	-7.67201
▁कमी	-7.67284
▁जो	-7.67478
▁पाह	-7.67587
भाव	-7.67651
▁1	-7.67737
इ	-7.67855
▁माग	-7.68161
▁रो	-7.68687
योग	-7.69099
E	-7.70374
S	-7.70526
or	-7.70537
ण्यात	-7.70601
▁प्रा	-7.70659
R	-7.70667
▁चाल	-7.70681
en	-7.71033
▁स्वतः	-7.71094
▁मे	-7.7146
३	-7.7158
▁ज्या	-7.71994
▁झाली	-7.72055
▁करून	-7.72226
४	-7.72244
▁चि	-7.72271
▁खेळ	-7.72592
N	-7.72658
▁सो	-7.72874
▁तयार	-7.73792
▁/	-7.7389
on	-7.73995
▁आवड	-7.7453
▁S	-7.7466
▁नाव	-7.74893
जवळ	-7.74929
▁मदत	-7.75657
र्ग	-7.76082
▁झ	-7.76314
▁प्रति	-7.76956
H	-7.77806
▁सि	-7.77868
▁करणार	-7.77884
▁अशा	-7.78509
▁महा	-7.78769
▁पो	-7.78875
▁A	-7.7897
▁स्प	-7.79244
▁स्	-7.79407
▁काळ	-7.79485
▁से	-7.80091
▁स्ट	-7.80382
▁C	-7.80424
्रे	-7.81045
ासाठी	-7.8211
▁आपल्याला	-7.82162
्‍	-7.82573
▁दर	-7.82853
▁नवीन	-7.83052
क्रम	-7.83196
F	-7.83783
▁गोष्टी	-7.83836
क्स	-7.84311
▁पुन्हा	-7.84363
▁वाट	-7.84485
es	-7.84514
al	-7.84552
▁ह्या	-7.84554
▁इतर	-7.84566
▁लक्ष	-7.84827
▁पूर्ण	-7.85271
पूर	-7.85288
ंची	-7.86027
दर्श	-7.86516
▁जास्त	-7.86652
at	-7.86828
ँ	-7.86831
▁करतो	-7.86842
st	-7.87365
19	-7.87595
▁भारत	-7.8809
▁घ्या	-7.8826
▁पड	-7.88442
पणे	-7.88707
▁त्यात	-7.88828
र्ज	-7.89753
वाद	-7.89844
▁त्याने	-7.90469
▁भाग	-7.90777
▁असतात	-7.9079
▁होणार	-7.9094
▁ये	-7.90941
r	-7.91377
re	-7.91678
▁मुहम्मद	-7.91722
▁बघ	-7.91789
L	-7.91801
▁करणे	-7.91936
▁किती	-7.922
/	-7.92268
▁आवश्यक	-7.92337
▁असतो	-7.9235
▁निवड	-7.92399
▁गो	-7.92727
▁होऊ	-7.92893
▁P	-7.93456
▁4	-7.93463
▁वेग	-7.94031
▁करता	-7.94302
_	-7.94391
▁करण्यात	-7.94407
▁पाहिजे	-7.94476
▁परंतु	-7.94561
▁प्रश्न	-7.9459
A	-7.94739
O	-7.95072
▁येथे	-7.95155
▁शोध	-7.9551
म्ह	-7.96076
▁असल्या	-7.96177
व्या	-7.96325
▁जाण	-7.96487
त्व	-7.96869
▁यु	-7.96901
हे	-7.97044
C	-7.97046
▁मार्ग	-7.97068
ंचा	-7.97254
▁जाते	-7.97357
th	-7.97363
▁मात्र	-7.97444
▁छ	-7.97711
द्र	-7.97751
ायचे	-7.97953
बरोबर	-7.97975
G	-7.97992
▁आली	-7.98072
ातून	-7.9823
▁सर्वात	-7.98235
▁साध	-7.98314
▁परत	-7.98429
र्ट	-7.98465
▁शकते	-7.98814
श्व	-7.9895
सुद्धा	-7.99014
▁काढ	-7.99019
le	-7.99828
▁घेऊ	-7.99879
थे	-7.9995
ियन	-8.00064
८	-8.0017
▁सुरू	-8.00412
▁अर्थ	-8.00674
x	-8.00878
क्क	-8.01306
६	-8.01412
▁शकत	-8.01918
▁ओ	-8.02366
▁ठर	-8.02527
▁गरज	-8.02679
▁के	-8.02844
▁लेख	-8.02879
(	-8.03118
प्त	-8.03163
▁ऐक	-8.03434
ऊ	-8.03803
▁मि	-8.04278
▁डो	-8.04342
अर	-8.04568
▁होतो	-8.04572
▁होईल	-8.04966
▁मग	-8.05046
न्स	-8.05172
▁कॉ	-8.05271
▁हि	-8.05549
▁तसेच	-8.05634
▁परि	-8.05926
▁भेट	-8.05935
▁शे	-8.05981
▁देत	-8.06015
▁लिह	-8.0608
▁जाऊ	-8.06235
▁आई	-8.06255
▁घड	-8.06306
▁दिले	-8.06394
▁–	-8.06441
▁आहोत	-8.06628
="	-8.06968
▁कॅ	-8.07053
▁जीवन	-8.07288
▁M	-8.07342
७	-8.07386
20	-8.07433
धान	-8.07611
12	-8.08385
▁केवळ	-8.08611
र्ड	-8.08631
it	-8.08708
▁समज	-8.08784
15	-8.0893
९	-8.09021
T	-8.09047
▁प्रेम	-8.09072
P	-8.09724
▁जाग	-8.09851
18	-8.09942
▁पुस्तक	-8.09959
▁सरकार	-8.10367
ांसाठी	-8.10373
▁T	-8.10472
▁उत्पादन	-8.10692
▁कोणी	-8.10789
▁शकतो	-8.10807
W	-8.11127
%	-8.11509
ic	-8.11763
्‍या	-8.12829
▁तीन	-8.12996
▁प्रयत्न	-8.13808
क्ट	-8.14526
▁सू	-8.14582
ण्याचा	-8.1493
▁नका	-8.15515
▁10	-8.15555
▁आपले	-8.15679
्यू	-8.15693
▁व्या	-8.15707
पूर्वी	-8.15847
▁आनंद	-8.159
उ	-8.15902
▁शब्द	-8.15995
ार्थ	-8.16195
ाऊ	-8.16197
्यु	-8.16415
▁आम्हाला	-8.16422
▁गेले	-8.16427
▁शिक	-8.1669
▁अशी	-8.16721
कृत	-8.16727
▁भर	-8.16833
▁सल	-8.16878
▁मुख्य	-8.17222
▁माझा	-8.17452
गार	-8.1749
▁करतात	-8.17684
कडून	-8.17798
णाऱ्या	-8.17981
▁शहर	-8.18166
ro	-8.18499
▁नेहमी	-8.18767
ः	-8.18811
▁सोड	-8.19014
देखील	-8.19223
ांमध्ये	-8.19402
▁अनु	-8.19405
कल्प	-8.19729
▁अजून	-8.19764
▁सेवा	-8.20266
▁परमेश्वर	-8.20654
▁दिसत	-8.21016
▁राज्य	-8.21289
ing	-8.21946
▁तुला	-8.22092
▁१९	-8.22222
ज्ञ	-8.23004
ज्ञान	-8.23153
▁माझे	-8.23285
▁त्याचा	-8.23345
▁उत्	-8.23558
▁बाहेर	-8.23743
ओ	-8.23811
▁शेवट	-8.24271
▁पुढे	-8.24396
▁ओळख	-8.24473
ळ्या	-8.24565
▁मुलां	-8.24641
ed	-8.24789
▁त्यांचे	-8.24973
▁त्याचे	-8.25474
▁२०	-8.26122
ra	-8.26131
स्क	-8.26523
▁तिला	-8.2664
▁कसे	-8.26641
▁व्यक्ती	-8.27061
▁श्री	-8.27146
▁आयुष्य	-8.27475
▁माझी	-8.27573
M	-8.28117
▁ट्र	-8.28486
▁म्हणाला	-8.28694
▁निर्	-8.2888
▁विश्वास	-8.28911
16	-8.28936
ालय	-8.29406
▁मित्र	-8.29415
▁इथे	-8.30156
▁सत्	-8.3026
▁बंद	-8.30305
17	-8.30699
पत्र	-8.30728
▁उत्तर	-8.30887
▁चीन	-8.31118
▁त्यांची	-8.31205
13	-8.31422
न्न	-8.31568
▁कळ	-8.31628
मंत्र	-8.31895
14	-8.31981
▁म्हणाले	-8.3202
▁प्रमाण	-8.32059
▁विशेष	-8.32276
▁चित्रपट	-8.32347
▁डि	-8.32728
▁तिच्या	-8.33825
▁कंपनी	-8.33827
▁ब्र	-8.34126
▁निर्णय	-8.34501
▁प्रवास	-8.34941
▁कुठे	-8.35036
▁सुरुवात	-8.35965
▁लोकांना	-8.36122
प्रमाणे	-8.36285
▁पहिल्या	-8.36533
न्ह	-8.36646
मधील	-8.37878
▁तुझ्या	-8.37918
11	-8.38023
▁चांगले	-8.3817
▁महत्त्व	-8.382
▁संबंध	-8.38563
▁योग्य	-8.38808
▁गोष्ट	-8.39652
▁पाणी	-8.40762
▁परिणाम	-8.41168
ांवर	-8.41703
▁दिली	-8.4179
काळ	-8.42399
प्ल	-8.43493
▁विषय	-8.43775
ri	-8.44291
▁अभि	-8.44447
▁येणार	-8.44462
▁महिला	-8.44498
U	-8.44691
▁तिथे	-8.45111
▁माहीत	-8.45629
10	-8.45835
ष्ठ	-8.4586
▁रि	-8.46054
ेशन	-8.46645
ch	-8.46759
▁चार	-8.47676
▁अनुभव	-8.47881
▁संघ	-8.48505
▁त्यांचा	-8.48797
V	-8.49014
▁दाखव	-8.49805
▁नियम	-8.49806
▁बनव	-8.49942
बाबत	-8.50243
▁सांगितले	-8.50866
नुसार	-8.50927
▁प्रेषित	-8.51362
▁कोणत्याही	-8.51439
वृत्त	-8.5198
▁भारतीय	-8.521
▁फार	-8.52138
▁टाक	-8.52486
30	-8.52664
▁चुक	-8.5336
च्छ	-8.54279
▁येईल	-8.54803
प्प	-8.5484
▁चर्च	-8.55046
▁करीत	-8.55071
▁आपला	-8.55336
▁झाल्या	-8.55522
ायचं	-8.55638
अम्	-8.55669
▁आहात	-8.5569
▁लाव	-8.55948
▁प्रकाश	-8.56483
K	-8.5662
tion	-8.56681
▁केल्या	-8.56765
▁क्ल	-8.56849
▁व्यवसाय	-8.56894
▁आपली	-8.57156
▁सुंदर	-8.57232
X	-8.57279
▁लहान	-8.57517
▁देऊ	-8.57589
▁आणखी	-8.57843
▁यांच्या	-8.57935
▁रंग	-8.57939
▁अधिकार	-8.58128
००	-8.58424
▁म्हणतात	-8.591
▁बहु	-8.59123
समोर	-8.59323
▁करायला	-8.59484
▁उच्च	-8.60368
ur	-8.60483
▁दूर	-8.60753
▁लवकर	-8.60937
▁लग्न	-8.61178
▁जन्म	-8.61461
▁इलाह	-8.61567
▁इल्लल्लाह	-8.61989
▁रसूलुल्लाह	-8.62009
▁निर्माण	-8.62776
▁महिन्या	-8.63015
▁शिक्षण	-8.63221
बंध	-8.63386
▁शरीर	-8.63413
रूप	-8.63587
व्यवस्था	-8.64076
▁घेण्या	-8.64088
ट्ट	-8.64126
▁पाठव	-8.64142
वरील	-8.64569
▁गेल्या	-8.64852
मुख	-8.65021
▁उपलब्ध	-8.65868
▁माणसा	-8.6593
▁अभ्यास	-8.65968
▁दोन्ही	-8.66093
शिवाय	-8.66128
विषयी	-8.66157
▁खर्च	-8.66366
▁संपूर्ण	-8.66644
▁स्थान	-8.66859
▁लढ	-8.67241
पैकी	-8.67259
▁आत्म	-8.67381
▁पुढील	-8.67562
▁भाषा	-8.67819
सारखे	-8.67936
एक्स	-8.67964
▁अमेरिके	-8.68256
▁दिवशी	-8.68276
▁मोठा	-8.683
▁मोठ्या	-8.68677
▁गेला	-8.68855
▁डॉ	-8.69555
सोबत	-8.69862
▁थांब	-8.70018
▁अगदी	-8.70222
▁समाज	-8.70268
▁समस्या	-8.71447
▁खरं	-8.7182
‘	-8.71824
▁हजार	-8.71859
▁पैसे	-8.72505
▁मराठी	-8.72612
]	-8.72976
द्वारे	-8.7312
▁कदाचित	-8.73134
▁रात्री	-8.73972
▁नव्हते	-8.7415
▁चांगला	-8.74317
ीकरण	-8.75043
युक्त	-8.75086
[	-8.75389
▁विविध	-8.75504
▁सुरक्षित	-8.76169
▁start	-8.76228
"&	-8.76374
▁नये	-8.76635
▁dur	-8.76718
▁मृत्यू	-8.76785
▁घाल	-8.76856
▁नक्की	-8.77033
▁विरोध	-8.77272
▁सध्या	-8.78521
▁बांध	-8.78603
▁फोन	-8.78787
▁न्याय	-8.78799
▁सामान्य	-8.78849
z	-8.80204
▁येऊ	-8.80259
▁मनुष्य	-8.80613
▁पुरुष	-8.80629
ऐ	-8.80977
▁अतिशय	-8.81078
▁जेव्हा	-8.81798
▁क्षेत्र	-8.81836
▁काहीतरी	-8.82113
▁खरेदी	-8.82344
▁केंद्र	-8.8304
▁महत्व	-8.83341
▁उत्तम	-8.8375
▁माणूस	-8.84457
▁अन्य	-8.84608
▁उघड	-8.85807
▁चांगली	-8.86232
▁झोप	-8.86541
*	-8.86551
▁इतिहास	-8.86641
▁मुंबई	-8.86847
▁मोठी	-8.87514
▁विभाग	-8.87752
▁नको	-8.88009
▁कुटुंब	-8.88063
योजन	-8.88555
▁गेली	-8.88997
▁परिस्थिती	-8.90277
▁योजना	-8.90342
▁तुमचा	-8.90675
▁ग्राहक	-8.91252
▁पाहिले	-8.91492
+	-8.91596
पूर्ण	-8.9225
▁प्रवेश	-8.9236
▁मुलगा	-8.93065
▁जाईल	-8.93372
▁संपर्क	-8.94653
▁किंमत	-8.94788
ाधिक	-8.95154
▁मशीन	-8.95344
J	-8.95824
▁माहित	-8.95983
▁औषध	-8.96022
▁डॉक्टर	-8.96132
▁संख्या	-8.9666
▁व्यक्त	-8.96691
▁मिळाले	-8.9688
▁तुमची	-8.96986
▁सदस्य	-8.97732
▁उदाहरण	-8.98514
▁नव्हता	-8.99876
▁तुमचे	-9.00008
▁नोकरी	-9.00117
ात्मक	-9.00554
Y	-9.00672
मंडळ	-9.01744
▁प्रथम	-9.02057
j	-9.02801
़	-9.03547
▁बाजार	-9.04082
▁येशू	-9.04084
▁डाउनलोड	-9.04347
▁ऑनलाइन	-9.04504
▁संस्था	-9.04928
▁महाराष्ट्र	-9.05124
▁इच्छा	-9.06052
#	-9.07907
▁वास्तव	-9.08141
▁पृथ्वी	-9.08651
▁पर्याय	-9.08858
▁नव्हती	-9.09971
▁संगीत	-9.09972
▁मध्य	-9.10301
▁नोंद	-9.10336
▁मुलगी	-9.11516
▁मिनिट	-9.12011
▁दुसऱ्या	-9.12028
▁भविष्य	-9.12658
▁शक्ती	-9.13058
▁सुमारे	-9.13332
▁पृष्ठ	-9.13332
▁स्वप्न	-9.13343
▁अत्यंत	-9.13374
▁आठवड्या	-9.13599
▁पुरस्कार	-9.13944
&	-9.15733
•	-9.18048
»	-9.2068
$	-9.24981
औ	-9.34408
Q	-9.51419
॥	-9.52254
ऍ	-9.55845
@	-9.60133
Z	-9.66657
ऑ	-9.70402
=	-9.72027
ऋ	-9.74167
£	-9.7474
।	-9.81968
q	-9.87325
‍	-10.0047
छ	-10.0284
ऱ	-10.0572
–	-10.3419
“	-11.2132
ञ	-12.7997
