<unk>	0
<s>	0
</s>	0
.	-2.84475
,	-3.88864
▁	-4.17678
▁आहे	-4.22608
▁आणि	-4.66604
च	-4.82721
▁नाही	-5.03602
त	-5.079
ला	-5.1588
?	-5.16537
ी	-5.27008
▁एक	-5.35876
स	-5.38064
)	-5.39455
▁ते	-5.40949
▁मी	-5.41624
▁हे	-5.44111
▁या	-5.46575
▁आहेत	-5.5668
:	-5.56766
ा	-5.59728
ही	-5.62513
र	-5.62826
े	-5.64638
च्या	-5.6496
▁(	-5.67067
न	-5.72453
ल	-5.72889
-	-5.73888
चा	-5.74754
▁व	-5.7518
▁का	-5.79339
▁हा	-5.84229
चे	-5.85566
▁तो	-5.87005
▁पण	-5.87848
ची	-5.88284
क	-5.92061
▁काही	-5.93432
ात	-5.94466
▁आपण	-5.97003
ं	-5.99135
▁तर	-6.00671
य	-6.01892
▁मला	-6.02735
▁होते	-6.04162
!	-6.04528
▁की	-6.04554
▁त्या	-6.05205
▁काय	-6.05774
ने	-6.08229
▁ही	-6.1606
म	-6.1645
;	-6.22091
▁असे	-6.23806
ले	-6.23978
▁‘	-6.29643
▁आपल्या	-6.31929
▁ती	-6.33658
ता	-6.34996
ली	-6.35601
वर	-6.35991
▁-	-6.41196
’	-6.42301
▁सर्व	-6.42472
▁आता	-6.47568
▁त्यांना	-6.49282
▁"	-6.4946
मध्ये	-6.49612
▁आम्ही	-6.50334
▁होता	-6.5157
▁तुम्ही	-6.51605
ड	-6.53047
▁होती	-6.53408
ाचा	-6.54594
s	-6.57048
ाच्या	-6.57419
ाची	-6.57674
ून	-6.57762
▁त्यामुळे	-6.59646
व	-6.59926
▁म्हणून	-6.61196
▁किंवा	-6.61436
▁केले	-6.62487
▁अ	-6.63673
ू	-6.64028
▁करा	-6.66464
▁“	-6.67896
ाचे	-6.71737
ज	-6.74026
▁त्याला	-6.74191
प	-6.74835
▁काम	-6.75071
ना	-6.76208
▁न	-6.76624
▁माझ्या	-6.77359
▁केली	-6.79621
▁विचार	-6.80899
ट	-6.81106
ाला	-6.81445
▁त्यांनी	-6.81967
▁त्यांच्या	-6.8412
ते	-6.84328
साठी	-6.85526
ाने	-6.85965
▁तुम्हाला	-6.88374
▁अनेक	-6.88617
▁म्हणजे	-6.90329
वा	-6.90356
▁करू	-6.9039
▁मध्ये	-6.91072
ांना	-6.91787
ण	-6.92158
▁कारण	-6.9275
▁आज	-6.93219
▁केला	-6.95095
्स	-6.95804
▁:	-6.9618
▁लोक	-6.9665
ब	-6.97592
▁जे	-6.98229
▁झाले	-7.01425
ल्या	-7.02862
▁दोन	-7.03172
▁दिवस	-7.04807
▁खूप	-7.05782
▁अधिक	-7.06243
ावर	-7.06449
▁असते	-7.06957
▁वेळ	-7.07583
री	-7.07665
▁&	-7.0943
▁'	-7.0964
▁तेव्हा	-7.09661
"	-7.09922
gt	-7.10353
▁एका	-7.10514
▁आले	-7.11562
▁फक्त	-7.12132
▁झाला	-7.13593
ित	-7.1417
▁असेल	-7.14486
▁तू	-7.14491
णे	-7.14645
▁नाहीत	-7.14737
▁त्याच्या	-7.1477
▁करण्यासाठी	-7.14922
ांची	-7.16105
▁प्रत्येक	-7.16678
'	-7.17968
▁कमी	-7.18847
▁1	-7.19425
▁माहिती	-7.19432
▁करून	-7.19762
▁ना	-7.20384
▁/	-7.20974
▁झाली	-7.21879
द	-7.2252
ळ	-7.23282
▁?	-7.23338
▁करत	-7.23759
रा	-7.24027
शी	-7.24896
तो	-7.25717
श	-7.26408
ांच्या	-7.26575
▁तुमच्या	-7.27063
ासाठी	-7.27856
या	-7.28351
ांनी	-7.28381
▁आमच्या	-7.28992
▁आपल्याला	-7.3136
▁तरी	-7.31684
▁ह्या	-7.32624
िंग	-7.32786
▁तयार	-7.34182
▁पुन्हा	-7.34218
▁मदत	-7.34243
▁आ	-7.34613
▁वापर	-7.35176
ग	-7.35257
मी	-7.35948
▁नवीन	-7.35979
▁खेळ	-7.36877
▁2	-7.3753
▁कोण	-7.38203
▁असा	-7.38386
▁होत	-7.38535
▁त्याने	-7.38659
ो	-7.39652
▁इतर	-7.39901
▁असतात	-7.40252
तील	-7.40508
▁गोष्टी	-7.40899
▁अशा	-7.40908
▁करण्यात	-7.41393
▁असतो	-7.41418
▁करणे	-7.41448
▁मुहम्मद	-7.41543
▁आली	-7.42631
▁करतो	-7.4337
▁जास्त	-7.43662
ांचा	-7.43816
▁जाते	-7.44394
▁परंतु	-7.44412
▁प्रश्न	-7.44434
ातील	-7.4451
िक	-7.44516
▁येथे	-7.44939
का	-7.45543
▁किती	-7.45704
▁नाव	-7.45774
▁मात्र	-7.46566
▁सर्वात	-7.46848
▁शकते	-7.47103
▁होणार	-7.47209
ह	-7.47569
ती	-7.48311
्	-7.48797
▁आला	-7.48953
्य	-7.48971
मा	-7.50146
▁बदल	-7.50351
▁मग	-7.51799
y	-7.52294
▁परत	-7.52759
▁होतो	-7.52946
▁पाहिजे	-7.53354
ंना	-7.53758
▁शकता	-7.54003
▁होईल	-7.54785
▁3	-7.55367
▁वर	-7.55631
ि	-7.55709
▁त्यात	-7.55723
ु	-7.55768
▁तसेच	-7.55769
▁–	-7.55936
▁!	-7.5617
▁आहोत	-7.56449
▁सुरू	-7.5728
सा	-7.57676
▁क	-7.57842
▁देव	-7.57964
/	-7.58132
▁केवळ	-7.58434
▁तीन	-7.58497
डी	-7.58591
▁ब	-7.58666
▁वि	-7.58864
▁पूर्ण	-7.59037
▁शकतो	-7.59659
▁म	-7.59764
▁अल्लाह	-7.61037
”	-7.61108
▁येत	-7.61204
ांचे	-7.61801
ई	-7.62152
▁कधी	-7.62498
▁इ	-7.62742
नी	-7.63029
्या	-7.6311
दा	-7.63236
▁घर	-7.6343
▁प्रयत्न	-7.63629
▁करतात	-7.64768
ख	-7.65363
▁आपले	-7.65457
▁गेले	-7.66348
▁गरज	-7.66359
▁आम्हाला	-7.66364
णी	-7.6638
ीत	-7.67216
▁माझा	-7.67332
▁आवश्यक	-7.67382
▁होऊ	-7.67613
▁प्र	-7.6765
▁शकत	-7.67986
कडे	-7.67993
णार	-7.68109
वि	-7.68738
कर	-7.706
▁तुला	-7.70619
1	-7.70775
▁त्याचा	-7.71129
पासून	-7.71285
तात	-7.71818
ण्यासाठी	-7.71922
▁5	-7.72525
▁प	-7.73023
▁असं	-7.73101
▁माझे	-7.73179
▁प्रेम	-7.73233
टी	-7.73548
▁बाहेर	-7.73633
▁त्याचे	-7.73646
o	-7.74143
▁पुढे	-7.74469
▁तिला	-7.74615
e	-7.74819
▁त्यांचे	-7.74932
▁अशी	-7.75147
▁सेवा	-7.75539
ंची	-7.75813
▁जो	-7.75924
लं	-7.75979
▁कसे	-7.76203
▁शब्द	-7.7682
▁सु	-7.77426
▁माझी	-7.77459
3	-7.77879
ंग	-7.7798
▁म्हणाला	-7.78342
▁करते	-7.78545
▁ज्या	-7.78711
="	-7.78986
ायला	-7.79153
▁नंतर	-7.79248
लो	-7.79852
▁...	-7.79912
रे	-7.80049
(	-7.80135
फ	-7.80669
▁त्यांची	-7.80804
▁भाग	-7.81025
▁च्या	-7.81125
▁देश	-7.81209
▁जात	-7.81259
▁वाढ	-7.81325
▁वर्ष	-7.81486
▁मा	-7.81727
▁कर	-7.81833
▁म्हणाले	-7.8185
▁जीवन	-7.82292
▁करता	-7.82393
%	-7.82479
▁विश्वास	-7.82771
ंचा	-7.83149
▁करणार	-7.83185
अ	-7.84122
▁निर्णय	-7.84318
▁त्याची	-7.84358
▁व्यक्ती	-7.84432
▁१९	-7.84541
▁जा	-7.84761
वी	-7.85243
थ	-7.85341
▁नि	-7.85385
चं	-7.85393
▁म्हणजेच	-7.85393
ंच्या	-7.85395
ंड	-7.8553
▁लोकांना	-7.85781
▁आनंद	-7.86132
▁जाऊ	-7.86154
▁जर	-7.86321
ंनी	-7.8653
▁_	-7.87021
▁कार्य	-7.87052
जी	-7.87107
▁कि	-7.87315
▁4	-7.87556
हा	-7.87738
▁मार्ग	-7.87846
▁चांगले	-7.8799
▁योग्य	-7.88685
▁पाणी	-7.89438
▁S	-7.89908
वे	-7.8999
▁भेट	-7.90048
▁चित्रपट	-7.90058
▁गोष्ट	-7.9012
▁दिली	-7.90201
▁नका	-7.90768
D	-7.91395
▁उ	-7.91435
2	-7.91584
▁इथे	-7.91595
ेल	-7.91615
▁ग	-7.92002
▁10	-7.9299
▁दिले	-7.93036
▁देखील	-7.93907
c	-7.94037
▁चीन	-7.94325
▁उत्तर	-7.94522
▁येणार	-7.94528
n	-7.9472
▁मित्र	-7.95133
▁माहीत	-7.95397
ण्याची	-7.95426
▁आई	-7.95597
▁प्रवास	-7.96203
सी	-7.96408
▁C	-7.96425
▁चार	-7.97425
▁कंपनी	-7.9751
▁उत्पादन	-7.97541
▁अनुभव	-7.97698
स्	-7.97783
▁वाटते	-7.97965
▁मे	-7.98065
▁घेऊन	-7.98231
▁त्यांचा	-7.98374
S	-7.98505
ास	-7.98859
मुळे	-7.98954
▁बंद	-7.99124
▁P	-7.99414
p	-7.99516
M	-8.00264
▁वेळी	-8.00266
lt	-8.00402
▁सांगितले	-8.00683
▁तिच्या	-8.00808
▁प्रेषित	-8.01183
▁शकतात	-8.01392
▁परिणाम	-8.01426
▁कोणत्याही	-8.01429
▁शोध	-8.01577
00	-8.01856
▁अर्थ	-8.01946
▁पुस्तक	-8.02028
▁भारतीय	-8.02048
▁पाच	-8.02168
से	-8.02199
P	-8.02232
▁सल	-8.02416
ंत	-8.02848
t	-8.02961
▁द्या	-8.03745
ॉ	-8.03858
▁राज्य	-8.03876
▁स्वत	-8.03979
▁त्यानंतर	-8.04151
in	-8.04385
▁येईल	-8.04622
▁ह	-8.05059
▁आपला	-8.0514
▁A	-8.05356
▁आहात	-8.05423
▁स्वतः	-8.05621
▁घ्या	-8.06075
ठ	-8.0609
▁विशेष	-8.06216
▁ज	-8.06491
बा	-8.06693
▁व्यवसाय	-8.06762
प्र	-8.06919
▁आपली	-8.06942
▁ओ	-8.06958
▁सुंदर	-8.07145
▁वा	-8.07235
अम्	-8.0725
er	-8.07297
▁दिला	-8.07475
▁आणखी	-8.07669
A	-8.07671
▁द	-8.07821
▁यांच्या	-8.08114
▁19	-8.08139
▁ए	-8.08161
ातून	-8.08225
▁जातो	-8.08334
i	-8.08637
ंचे	-8.08738
▁प्रकार	-8.08757
▁म्हणतात	-8.08807
▁यांनी	-8.0897
जा	-8.08988
▁करायला	-8.08989
▁सुरुवात	-8.09079
त्या	-8.09375
आ	-8.09743
▁तुझ्या	-8.09758
m	-8.09798
▁करण्याची	-8.10244
शा	-8.10377
▁महिला	-8.10483
C	-8.10496
▁बस	-8.10522
▁6	-8.1058
▁B	-8.106
ांमध्ये	-8.10778
▁अल्लाहचे	-8.10827
▁लग्न	-8.11
▁इलाह	-8.11371
▁लेख	-8.11535
▁जग	-8.11635
ील	-8.11681
▁इल्लल्लाह	-8.1181
▁रसूलुल्लाह	-8.1183
▁कुठे	-8.11833
सुद्धा	-8.11932
ीय	-8.11987
पी	-8.12201
नि	-8.12241
▁तिथे	-8.12445
▁निर्माण	-8.12638
▁मन	-8.12821
ै	-8.12973
▁करीत	-8.13019
▁शिक्षण	-8.13139
ष	-8.13272
▁रंग	-8.13684
▁सरकार	-8.14162
▁मुख्य	-8.14226
4	-8.14294
▁सं	-8.14383
ांसाठी	-8.14515
▁दूर	-8.14576
▁घरी	-8.14649
▁वर्षे	-8.15235
▁को	-8.15506
झ	-8.15657
▁उपलब्ध	-8.15689
णा	-8.15795
▁शहर	-8.15808
▁दोन्ही	-8.15909
ण्यात	-8.16093
▁खर्च	-8.16147
इ	-8.1621
▁संपूर्ण	-8.1634
ed	-8.16352
व्ह	-8.16525
▁ख	-8.16581
▁लहान	-8.16593
की	-8.16707
▁सी	-8.16823
बद्दल	-8.16995
al	-8.17116
के	-8.17124
टा	-8.17217
ing	-8.17452
ावे	-8.17892
पणे	-8.17895
▁उच्च	-8.18021
▁मोठा	-8.1811
5	-8.18147
स्ट	-8.18196
▁दिवशी	-8.18202
▁मोठ्या	-8.1857
▁गेला	-8.1863
कार	-8.18698
▁विषय	-8.18796
पेक्षा	-8.18797
▁कोणी	-8.18816
▁हात	-8.19119
▁येते	-8.1975
२	-8.19791
▁अगदी	-8.20038
▁7	-8.20357
▁के	-8.20469
▁सह	-8.20878
▁पासून	-8.21202
▁समस्या	-8.21224
▁तास	-8.21233
▁लक्षात	-8.21428
g	-8.21693
u	-8.21751
ऱ्या	-8.21935
▁भर	-8.22084
▁पैसे	-8.22332
▁हि	-8.22491
▁मराठी	-8.22559
▁असू	-8.226
▁G	-8.22726
▁कदाचित	-8.23003
▁गेल्या	-8.23037
▁कसा	-8.23058
▁पुढील	-8.23104
तून	-8.23336
▁वेळा	-8.23706
▁श्री	-8.23778
उ	-8.23927
▁नव्हते	-8.23971
▁रात्री	-8.23975
▁चांगला	-8.24138
▁वाट	-8.24161
▁मुली	-8.24302
▁ओळख	-8.24311
▁ठिकाणी	-8.2435
▁वाटत	-8.24653
▁राजा	-8.24675
▁सुद्धा	-8.24688
▁जवळ	-8.24718
▁जी	-8.2473
ांवर	-8.25125
▁सत्य	-8.25158
▁विविध	-8.25327
▁कु	-8.25395
▁जाणार	-8.25486
▁दर	-8.25574
B	-8.25827
ायचे	-8.25869
बी	-8.25903
▁शरीर	-8.25919
▁start	-8.2605
▁जन्म	-8.26082
न्स	-8.2616
▁हो	-8.26167
▁जातात	-8.26225
▁नये	-8.26465
▁F	-8.26519
▁dur	-8.26535
"&	-8.26576
T	-8.26777
▁१	-8.27127
▁पहिल्या	-8.27197
ामध्ये	-8.27843
▁मान	-8.27891
ळी	-8.27892
▁३	-8.27995
दार	-8.28013
मान	-8.2816
▁नेहमी	-8.28373
▁श	-8.28408
]	-8.28658
▁पक्ष	-8.29252
▁पि	-8.29378
ए	-8.29864
▁सा	-8.30012
मधील	-8.30189
▁’	-8.30243
le	-8.30587
▁अजून	-8.30617
▁पुरुष	-8.30621
▁अतिशय	-8.30899
a	-8.30942
▁धर्म	-8.31504
▁जेव्हा	-8.31631
▁असलेल्या	-8.31674
▁काहीतरी	-8.31946
ंट	-8.3196
ण्याचा	-8.31964
▁खरेदी	-8.32175
▁भाषा	-8.32337
re	-8.32424
सह	-8.32464
▁ठेव	-8.32511
▁8	-8.32627
▁मार	-8.32832
▁हवे	-8.32897
an	-8.33194
ar	-8.33499
▁पा	-8.335
▁उत्तम	-8.33534
▁मृत्यू	-8.33589
▁त्यासाठी	-8.33645
▁आयुष्य	-8.34122
▁माणूस	-8.34278
L	-8.34465
k	-8.34603
ांत	-8.34857
▁M	-8.3566
र्	-8.35762
▁याचा	-8.35852
हे	-8.35915
▁चांगली	-8.36052
0	-8.36272
पर्यंत	-8.36366
▁मु	-8.36407
▁झोप	-8.36553
▁२	-8.36877
▁सुरक्षित	-8.36969
▁नियम	-8.37104
▁निवड	-8.37173
▁फोन	-8.37182
▁मोठी	-8.37325
▁योजना	-8.37657
▁ट	-8.37679
▁सध्या	-8.37825
F	-8.37869
r	-8.37979
▁9	-8.3823
▁कार	-8.38347
▁शेवटी	-8.38669
▁गाडी	-8.38682
▁घेतला	-8.38688
▁भारत	-8.38723
कडून	-8.38752
▁गेली	-8.38769
▁फार	-8.38861
▁एकदा	-8.39014
▁४	-8.39047
▁कधीच	-8.39118
▁अभ्यास	-8.39154
▁काळ	-8.39324
▁आण	-8.39693
पा	-8.39696
▁देऊ	-8.39992
ंद	-8.40097
▁साठी	-8.40149
डे	-8.40286
▁तेथे	-8.40391
▁तुमचा	-8.40482
जे	-8.40617
ओ	-8.40638
▁सामान्य	-8.40922
▁दे	-8.41103
▁गो	-8.412
▁पाहिले	-8.4129
▁कार्यक्रम	-8.41293
H	-8.41403
▁समाज	-8.41503
ौ	-8.41512
▁कधीही	-8.41513
b	-8.418
ां	-8.41831
३	-8.42184
▁दाखव	-8.42525
▁मुलगा	-8.42891
▁यामुळे	-8.42996
▁जाईल	-8.4317
ण्या	-8.43389
I	-8.43461
▁हजार	-8.43837
लेल्या	-8.43861
डा	-8.43958
रो	-8.44191
▁असताना	-8.44237
पणा	-8.44302
▁स्त्री	-8.44624
मो	-8.44653
▁वर्षी	-8.44698
▁दिसत	-8.44976
▁मशीन	-8.45082
स्त	-8.45084
हि	-8.45125
▁सि	-8.45134
▁एकत्र	-8.45193
▁येतो	-8.45309
▁मनुष्य	-8.45855
▁काळजी	-8.46044
▁संख्या	-8.46193
▁जाणून	-8.46511
▁परमेश्वर	-8.46554
▁माहित	-8.46664
▁सगळे	-8.46678
▁तुमची	-8.46795
नंतर	-8.46875
▁घेतले	-8.4707
वून	-8.47462
▁सदस्य	-8.47554
्यु	-8.47605
मे	-8.47665
लेले	-8.47677
▁प्रवेश	-8.47808
▁अजूनही	-8.47991
▁बा	-8.48055
▁विभाग	-8.48231
▁राज	-8.4829
▁इतिहास	-8.48397
▁नेहमीच	-8.48441
▁प्राप्त	-8.4871
or	-8.4875
x	-8.48978
▁लक्ष	-8.48982
6	-8.49008
▁वाचा	-8.49086
▁‘‘	-8.49097
▁करावे	-8.49102
h	-8.49148
▁उद्या	-8.49197
ाय	-8.49368
▁नव्हता	-8.49694
_	-8.497
▁बनव	-8.4981
▁तुमचे	-8.49888
▁सर	-8.49904
▁मुले	-8.50031
िन	-8.50047
▁नोकरी	-8.50056
▁बे	-8.50211
▁संधी	-8.50231
▁देत	-8.50279
▁थांब	-8.503
▁मि	-8.50321
▁”	-8.50366
▁संबंध	-8.50367
l	-8.50385
▁12	-8.50515
f	-8.50836
▁याची	-8.50845
▁20	-8.50875
O	-8.50894
▁काहीही	-8.50922
▁करण्याचा	-8.51087
▁चित्र	-8.5149
▁तरीही	-8.51501
▁प्रथम	-8.51844
▁तिने	-8.51859
▁करण्यास	-8.51966
9	-8.52137
▁विकास	-8.52218
ाव	-8.52335
▁जण	-8.524
ाशी	-8.52624
▁सम	-8.52701
▁ई	-8.52718
ुन	-8.52748
G	-8.52816
▁खा	-8.53053
▁घेतली	-8.53404
ळे	-8.53508
▁विमान	-8.53608
ाई	-8.53618
▁उपचार	-8.53681
िका	-8.53953
▁डाउनलोड	-8.54168
▁जागा	-8.54213
7	-8.54233
▁ऑनलाइन	-8.54325
▁रे	-8.54388
▁आधी	-8.54454
▁यासाठी	-8.54624
▁H	-8.54721
▁लाख	-8.54772
१	-8.548
▁मुंबई	-8.54902
ॅ	-8.54933
व्या	-8.5505
न्	-8.55127
▁घेऊ	-8.55193
गा	-8.55203
▁रि	-8.55233
▁मागे	-8.55271
▁त्यावर	-8.55295
▁प्रकाश	-8.55353
▁संघ	-8.55529
▁शक्य	-8.55604
▁T	-8.55681
▁तसे	-8.55684
▁मिळाले	-8.55833
20	-8.55843
▁इच्छा	-8.55863
en	-8.55874
▁होतात	-8.55917
▁असणार	-8.56001
▁प्रति	-8.56251
▁से	-8.56253
▁E	-8.56262
▁आकार	-8.56293
▁भाव	-8.5631
णाऱ्या	-8.56408
R	-8.56575
▁केल्या	-8.56614
10	-8.56662
ेन	-8.56706
▁संपर्क	-8.57003
▁आय	-8.57171
बरोबर	-8.57173
8	-8.57355
d	-8.57373
▁घाल	-8.57397
▁ज्ञान	-8.57472
▁गाव	-8.57633
▁स्पष्ट	-8.57665
▁N	-8.57812
▁लागले	-8.58117
▁डी	-8.58202
▁कशी	-8.5829
▁जि	-8.58341
▁दु	-8.587
▁स्	-8.59023
▁चर्चा	-8.59465
es	-8.59501
ंवर	-8.59507
▁नव्हती	-8.5979
▁शाळा	-8.59905
▁प्रकारे	-8.60051
▁सात	-8.60158
▁लागेल	-8.60242
▁वाईट	-8.6031
z	-8.60363
▁येतात	-8.60559
▁पर्यंत	-8.60769
रि	-8.60934
ामुळे	-8.60962
▁बी	-8.61171
▁मुलगी	-8.61339
ेट	-8.61424
▁मोठे	-8.61446
▁५	-8.61475
▁संस्था	-8.61492
▁पोस्ट	-8.61554
▁होतं	-8.61679
र्स	-8.61691
खा	-8.6174
▁किंमत	-8.61784
▁*	-8.61816
▁दुसऱ्या	-8.61846
▁[	-8.61976
ंज	-8.62242
क्ष	-8.62457
▁उघड	-8.62654
शे	-8.62844
▁हवी	-8.62871
▁बाळ	-8.62873
▁टाक	-8.63011
▁15	-8.63121
▁सुमारे	-8.63152
▁स्वप्न	-8.63163
▁अत्यंत	-8.63195
▁शक्ती	-8.63276
▁म्हणतो	-8.63511
▁सगळ्या	-8.6352
▁पहा	-8.63647
▁बन	-8.63699
▁उप	-8.63709
▁पुरस्कार	-8.63765
▁अस	-8.63791
को	-8.63943
▁बरोबर	-8.63969
at	-8.63972
▁दरम्यान	-8.63981
▁आवाज	-8.64155
▁संदेश	-8.64388
▁एखाद्या	-8.64468
ol	-8.64591
पण	-8.64671
▁एस	-8.64686
▁मिळेल	-8.64715
▁आरोग्य	-8.6474
त्व	-8.65107
ताना	-8.65131
▁सर्वोत्तम	-8.65144
घ	-8.65284
amp	-8.65288
▁कल्पना	-8.65331
ड्या	-8.65344
ीकरण	-8.65425
▁भ	-8.65507
नुसार	-8.65548
▁करताना	-8.65552
▁#	-8.65586
w	-8.65728
त्र	-8.65805
▁घटना	-8.6587
▁देशात	-8.65883
▁मत	-8.65919
ायची	-8.66135
▁बघ	-8.66166
▁महा	-8.66192
▁आर	-8.66193
▁पाय	-8.66363
▁ये	-8.664
▁केंद्र	-8.66442
▁महान	-8.66516
णं	-8.66614
▁युद्ध	-8.66824
मि	-8.67113
अर	-8.67175
▁डॉक्टर	-8.67188
▁तरुण	-8.67247
प्रमाणे	-8.67316
ंब	-8.67358
ध	-8.67456
▁कठीण	-8.67579
ra	-8.67822
▁खाली	-8.67913
▁भारतात	-8.68024
▁+	-8.68122
ाकडे	-8.68347
▁मुक्त	-8.68405
दी	-8.68469
▁K	-8.68499
▁संगीत	-8.68556
भ	-8.68663
क्स	-8.69276
▁पत्नी	-8.69287
▁एकूण	-8.69312
▁मुलांना	-8.69397
्यू	-8.69423
▁संप	-8.69447
▁म्हटले	-8.69479
▁बोल	-8.69575
▁त्यावेळी	-8.69591
▁परिस्थिती	-8.69695
▁चांगल्या	-8.69754
▁असून	-8.69759
▁संबंधित	-8.69965
▁अधिकार	-8.70008
▁समज	-8.70131
▁ग्राहक	-8.70321
ापासून	-8.70561
▁१०	-8.70605
ळा	-8.70618
W	-8.70648
▁कुटुंब	-8.71073
.”	-8.71096
ंमध्ये	-8.71172
▁येशू	-8.7124
▁फोटो	-8.71373
▁पहिला	-8.7158
▁रक्त	-8.71654
▁of	-8.71727
▁ठेवा	-8.7176
▁बोलत	-8.71782
▁पर्याय	-8.71813
ायचा	-8.71837
ण्यास	-8.71909
▁टॅटू	-8.72061
▁वस्तू	-8.72494
▁11	-8.72541
▁झ	-8.72781
▁बि	-8.72893
लि	-8.73044
▁शे	-8.73081
▁लाभ	-8.73155
▁असल्याचे	-8.73165
टे	-8.73338
▁in	-8.73403
▁दहा	-8.73412
नो	-8.73467
एस	-8.73526
▁18	-8.73644
▁संरक्षण	-8.73724
▁येऊ	-8.73732
▁देण्यात	-8.73766
िया	-8.73942
on	-8.7422
▁अमेरिकन	-8.74307
▁घेत	-8.74429
▁असतील	-8.74439
ः	-8.74593
▁त्यातून	-8.74936
▁घरात	-8.74949
▁गा	-8.75012
▁धन्यवाद	-8.75057
▁नको	-8.75131
▁अन्य	-8.75169
▁D	-8.75256
▁शिक्षक	-8.75386
it	-8.75434
▁प्रक्रिया	-8.75617
▁मो	-8.75688
▁लवकर	-8.75713
▁मिळत	-8.75768
▁शि	-8.75853
▁यांना	-8.75874
▁यश	-8.75886
▁औषध	-8.76175
▁कोणत्या	-8.76179
▁लि	-8.76211
४	-8.76589
▁सहा	-8.76651
▁होत्या	-8.76694
50	-8.76748
▁पत्र	-8.76931
15	-8.76967
▁जगात	-8.77258
▁कळ	-8.77649
▁आत	-8.77814
X	-8.77874
▁उत्पादने	-8.77998
मला	-8.7803
▁the	-8.78102
शि	-8.78126
▁सकाळी	-8.78131
जन	-8.78153
▁स्व	-8.78182
▁पद	-8.78233
E	-8.78278
▁केलेल्या	-8.78486
▁पे	-8.78515
पे	-8.78538
▁तु	-8.78614
सारखे	-8.7889
▁आमचे	-8.79139
12	-8.79232
▁प्रणाली	-8.79242
V	-8.79266
et	-8.79526
▁शिक	-8.79583
ये	-8.79675
▁ऐक	-8.79841
ch	-8.79856
▁I	-8.79895
▁नसते	-8.80041
▁सहन	-8.80128
▁व्हिडिओ	-8.80133
▁»	-8.8016
▁चाल	-8.80243
▁साहित्य	-8.80258
th	-8.8037
▁क्षमता	-8.80477
▁उपयोग	-8.80544
रु	-8.80635
▁पेक्षा	-8.80647
▁भाऊ	-8.80723
▁यावर	-8.80779
▁L	-8.80802
▁भाजप	-8.80815
स्थ	-8.80907
▁30	-8.80999
रण	-8.81077
▁देणार	-8.81119
11	-8.81137
▁सो	-8.81217
▁क्षेत्र	-8.81317
▁करावा	-8.81327
▁साली	-8.81437
▁नव्हे	-8.81773
▁जगातील	-8.81781
▁खरे	-8.81791
▁दक्षिण	-8.81808
ण्याचे	-8.81885
▁खेळाडू	-8.81951
▁सुरक्षा	-8.81983
ic	-8.82024
▁समावेश	-8.82121
▁रा	-8.82295
▁आधार	-8.82379
▁शक्यता	-8.8241
▁क्षमा	-8.8267
N	-8.82762
▁रेल्वे	-8.82928
▁तंत्रज्ञान	-8.82958
▁देतो	-8.82987
▁पवित्र	-8.83165
▁ध	-8.83361
▁डॉ	-8.83452
▁शांत	-8.83545
विषयी	-8.83672
▁यावेळी	-8.83696
शील	-8.8371
▁रोज	-8.83805
ri	-8.8382
▁कृपया	-8.83887
▁राष्ट्रीय	-8.84014
▁फ	-8.84017
▁तुझे	-8.84116
▁बद्दल	-8.84229
सोबत	-8.84363
▁0	-8.84394
▁काढ	-8.84579
▁लवकरच	-8.84637
30	-8.84662
▁दुसरा	-8.84679
▁वजन	-8.8471
▁प्रभाव	-8.84753
▁राष्ट्र	-8.84814
ढ	-8.84842
▁आंतरराष्ट्रीय	-8.84851
▁उपाय	-8.8487
▁आठ	-8.84922
▁विकत	-8.8493
▁नक्की	-8.85203
▁लागू	-8.85205
▁महिन्या	-8.85218
▁सोडून	-8.85282
▁पुरवठादार	-8.85319
01	-8.85333
▁मिळाली	-8.85348
▁पृष्ठ	-8.85441
मधून	-8.85473
▁दा	-8.85488
▁टी	-8.85621
▁नियंत्रण	-8.85938
▁कॅ	-8.86129
▁विवाह	-8.86233
नं	-8.86738
▁and	-8.86969
▁विद्यार्थी	-8.8698
▁पाठव	-8.8698
▁सांग	-8.87018
▁पोहोच	-8.87021
un	-8.87072
▁उत्पादक	-8.871
▁प्रसिद्ध	-8.87231
▁आयुष्यात	-8.8727
▁a	-8.87397
▁विचारले	-8.87409
▁जेवण	-8.87515
▁R	-8.87551
▁आमची	-8.87556
▁सामाजिक	-8.87566
श्	-8.87574
राव	-8.87623
▁सोपे	-8.87651
▁मतदान	-8.87685
▁स्वागत	-8.87747
▁पी	-8.8779
▁उद्योग	-8.87843
▁फायदा	-8.88102
▁अप	-8.88118
16	-8.88168
ृ	-8.88196
▁करु	-8.88222
▁लागली	-8.88283
▁$	-8.88321
▁लेखक	-8.88321
▁प्रशिक्षण	-8.88383
ंसाठी	-8.88401
▁मिळणार	-8.88406
▁गंभीर	-8.88583
पर	-8.88815
▁स्थान	-8.889
▁न्याय	-8.89001
▁प्रमाणात	-8.89094
▁महाराष्ट्र	-8.89155
▁डेटा	-8.89436
▁जाऊन	-8.89442
▁2018	-8.89543
ad	-8.89553
▁करायचे	-8.89655
▁जोड	-8.89745
▁डे	-8.89783
्‍	-8.89851
▁व्यावसायिक	-8.90004
▁मिळ	-8.90036
▁एकाच	-8.9004
▁आर्थिक	-8.9006
क्त	-8.90076
▁पूर्व	-8.90186
▁होय	-8.90407
▁घटक	-8.90474
▁इस्राएल	-8.9053
▁मुला	-8.9087
▁बांध	-8.91038
▁स्वीकार	-8.91057
▁to	-8.91117
▁विजय	-8.91142
▁प्रमाण	-8.91227
▁मागणी	-8.91358
▁विद्यापीठ	-8.91374
▁•	-8.91383
st	-8.91434
▁आजही	-8.91505
▁पर	-8.91581
▁इच्छित	-8.91655
▁असल्यास	-8.91768
र्ट	-8.91863
▁अधिकारी	-8.91893
▁पार	-8.92011
ंक	-8.92264
ur	-8.92269
▁आशा	-8.92286
▁आवश्यकता	-8.92309
ुक	-8.92394
▁गुण	-8.92447
▁एम	-8.92493
▁डि	-8.92647
▁चालू	-8.928
▁सुरु	-8.92877
▁उठ	-8.93053
▁पड	-8.93152
am	-8.93234
ेशन	-8.93266
▁चालव	-8.93466
ाचं	-8.93488
▁होऊन	-8.93708
▁पूर्णपणे	-8.9371
▁विक्री	-8.93939
▁स्वतःला	-8.9405
▁करेल	-8.94219
▁काळात	-8.94232
▁करावी	-8.94372
्‍या	-8.94415
▁सूर्य	-8.94513
▁खरंच	-8.94538
▁प्रकल्प	-8.94768
त्य	-8.94868
▁माझ्यासाठी	-8.94936
▁व्हा	-8.94953
▁वापरले	-8.94972
il	-8.95034
▁16	-8.95109
धा	-8.95171
हो	-8.95492
▁नागरिक	-8.95528
बे	-8.95561
णारा	-8.95632
▁W	-8.95668
▁कोणीही	-8.95703
ेश	-8.95862
▁13	-8.9593
▁समोर	-8.96018
▁14	-8.96033
लेली	-8.96172
▁भविष्य	-8.96247
शिवाय	-8.96262
ाबद्दल	-8.96392
▁पाकिस्तान	-8.96576
▁अन्न	-8.96599
v	-8.96604
▁आग	-8.96668
▁सांगतो	-8.96742
▁लागते	-8.96753
▁देते	-8.96758
▁O	-8.96789
▁राहणार	-8.96835
▁मिळव	-8.96908
▁भावना	-8.97024
▁संशोधन	-8.97317
▁खास	-8.97351
▁नाहीये	-8.97411
▁सगळं	-8.97539
▁आलो	-8.97552
▁प्रदान	-8.97662
K	-8.97684
el	-8.97806
ाळ	-8.97829
▁केलं	-8.97991
काळ	-8.98012
▁दाखल	-8.98174
▁दि	-8.98265
▁पहिली	-8.98577
18	-8.9859
ति	-8.98613
▁चि	-8.98749
us	-8.98868
▁वडील	-8.98869
▁पुणे	-8.9894
र्ड	-8.99023
▁मंदिर	-8.99062
▁पाप	-8.99073
▁कोटी	-8.99089
क्	-8.99123
17	-8.99133
▁ब्लॅक	-8.99272
थे	-8.99297
गो	-8.99379
▁क्षण	-8.99571
▁बाकी	-8.99579
तू	-8.99616
▁टक्के	-8.99714
▁प्रार्थना	-8.99791
▁(2	-8.99872
U	-9.00081
जवळ	-9.00093
▁राजकीय	-9.00163
▁वर्ग	-9.00223
▁करुन	-9.00224
▁शपथ	-9.00246
com	-9.00264
▁नुकसान	-9.00381
▁पावडर	-9.00412
▁तुझी	-9.00511
▁म्हणूनच	-9.00535
▁मानले	-9.00684
▁वेगळे	-9.00765
▁झालेल्या	-9.00798
▁त्रास	-9.00892
ानंतर	-9.00956
▁कार्ड	-9.01029
▁कर्ज	-9.01049
▁कायदा	-9.01051
र्क	-9.01309
▁हर	-9.01433
ro	-9.01501
िल	-9.01541
▁जाण	-9.016
▁प्रमुख	-9.01614
▁निश्चित	-9.01636
▁थोडा	-9.01697
▁तिचा	-9.01723
्यात	-9.01818
▁गु	-9.01835
▁c	-9.01887
▁17	-9.01935
िट	-9.02047
पो	-9.021
▁लिहिले	-9.02237
▁इंग्रजी	-9.02399
भर	-9.02434
▁राहिले	-9.02551
▁माग	-9.02684
▁यांचे	-9.02686
▁ऑ	-9.02698
▁भरपूर	-9.0272
वत	-9.02763
▁नव	-9.02834
ायचं	-9.0289
▁लागला	-9.03012
▁लाव	-9.03133
▁क्र	-9.03162
▁कशाला	-9.03345
▁डिझाइन	-9.0338
▁गट	-9.03461
▁बहुतेक	-9.03509
▁सतत	-9.03639
▁25	-9.03678
कु	-9.03724
op	-9.03897
▁अंतिम	-9.04095
▁पुढच्या	-9.04115
▁बो	-9.04181
ेड	-9.0423
▁मते	-9.04353
te	-9.04412
वले	-9.04526
क्क	-9.04722
ावा	-9.0474
ly	-9.04755
▁भूमिका	-9.04769
13	-9.04841
▁चुक	-9.04844
▁स्थिती	-9.04941
ल्	-9.04947
▁शिकव	-9.04998
▁24	-9.05121
▁तुम्हांला	-9.05159
li	-9.05186
▁कथा	-9.05221
▁समान	-9.05359
▁केलेले	-9.05386
▁मनात	-9.05452
ग्र	-9.05495
▁खात्री	-9.05547
वाद	-9.05566
८	-9.05616
▁सॉफ्टवेअर	-9.05863
▁सोड	-9.06006
पूर	-9.0603
▁मिळाला	-9.06042
▁मागील	-9.06277
14	-9.06717
▁खरं	-9.0677
सु	-9.06814
▁लोकप्रिय	-9.06938
▁लोकांनी	-9.07136
▁हवा	-9.07316
▁ठेवले	-9.07536
▁थोडे	-9.07688
▁यांचा	-9.07854
द्वारे	-9.0786
25	-9.08059
▁शाळेत	-9.08266
▁तुझा	-9.08335
▁नक्कीच	-9.08491
▁J	-9.08677
▁वाग	-9.08726
▁b	-9.08991
▁एल	-9.09162
▁साध	-9.09285
▁आदेश	-9.09303
ation	-9.09346
▁शत्रू	-9.09408
▁ब्लॉग	-9.09459
▁दिसते	-9.09549
▁ठरव	-9.09578
▁p	-9.09937
3)	-9.10189
▁उतर	-9.1039
▁यांची	-9.10509
▁पु	-9.10523
▁पृथ्वी	-9.10565
▁रु	-9.10565
▁अनेकदा	-9.10636
क्या	-9.10675
▁संगणक	-9.10779
▁कॅसिनो	-9.10797
▁धोरण	-9.11004
▁समजून	-9.11013
पद	-9.11093
सारखा	-9.11186
▁करार	-9.11201
▁खालील	-9.11202
▁मान्य	-9.11283
▁स्टील	-9.11285
पुर	-9.11288
▁थ	-9.11296
▁करणारे	-9.11396
▁अर्ज	-9.1143
▁बाजार	-9.11462
▁2019	-9.11462
वरील	-9.1152
▁सांगा	-9.11571
▁नदी	-9.11573
▁सेक्स	-9.1183
▁नसेल	-9.11962
▁गुणवत्ता	-9.11977
▁असणे	-9.12035
क्र	-9.1208
▁विज्ञान	-9.12159
▁X	-9.12199
▁आकाश	-9.12242
99	-9.12274
▁अध्यक्ष	-9.12367
▁छ	-9.12396
▁झाल्या	-9.12415
▁साथ	-9.12579
▁जवळपास	-9.12598
बाबत	-9.12611
▁थंड	-9.12611
▁अन	-9.12693
▁काढून	-9.1287
ta	-9.12995
▁आवडत	-9.13006
▁अव	-9.13037
शन	-9.1304
देव	-9.13089
▁थेट	-9.13161
▁मोफत	-9.13278
▁संस्कृती	-9.13427
ळ्या	-9.13447
▁पहिले	-9.13562
कि	-9.13607
▁पैसा	-9.13636
देश	-9.13743
स्क	-9.13762
▁पुर	-9.13762
as	-9.13887
टर	-9.13909
▁घेणे	-9.13966
शास्त्र	-9.13987
ter	-9.14071
००	-9.14148
था	-9.14223
▁Re	-9.14241
▁पाळ	-9.14265
▁आवड	-9.14325
▁झाड	-9.14345
▁सूचना	-9.14418
▁लढ	-9.14535
▁कंपन्या	-9.14547
mm	-9.14555
▁६	-9.14614
णारे	-9.14631
▁समर्थन	-9.14735
आर	-9.14777
▁अंदाज	-9.14837
▁पट	-9.14863
ल्ड	-9.14883
▁बातम्या	-9.14884
▁केस	-9.1491
▁इतकी	-9.14995
▁रोजी	-9.15013
▁क्ल	-9.15039
▁सर्वांना	-9.15168
▁जून	-9.15192
▁विरोध	-9.15343
वादी	-9.15362
०	-9.15379
▁वेगळी	-9.15476
▁७	-9.1552
▁कोड	-9.15562
▁यशस्वी	-9.15642
▁कोणताही	-9.157
38	-9.15825
▁उदाहरण	-9.16027
▁जीव	-9.16039
▁करण्या	-9.16092
80	-9.16106
▁करायची	-9.16117
▁मिनिट	-9.16118
22	-9.16128
▁॥	-9.1618
▁आल्या	-9.16254
▁लागणार	-9.16256
▁तिचे	-9.16294
▁विक	-9.1631
▁शकेल	-9.16317
र्थ	-9.16347
▁कुठून	-9.16478
▁V	-9.16484
▁कपडे	-9.16516
id	-9.16517
भा	-9.16732
000	-9.16782
▁w	-9.16789
▁शहरात	-9.16835
आय	-9.16862
▁परि	-9.16874
ha	-9.16898
▁१८	-9.169
तु	-9.16922
५	-9.16937
वेळी	-9.17045
▁मर	-9.17066
राम	-9.17109
▁नगर	-9.17158
▁समुद्र	-9.17252
▁म्हणाली	-9.17322
la	-9.17337
▁असता	-9.17354
▁देतात	-9.17384
▁विशिष्ट	-9.1765
▁50	-9.17664
▁साधन	-9.17918
▁खो	-9.18004
▁असलेले	-9.18019
▁ति	-9.18031
▁असल्याने	-9.1826
९	-9.18308
37	-9.18346
▁पकड	-9.18382
▁यादी	-9.1846
▁माणसा	-9.18494
▁प्रकरण	-9.18496
बि	-9.18498
▁डोळे	-9.18544
▁विसर	-9.18606
▁पर्यावरण	-9.1877
▁पदार्थ	-9.18782
▁वाहन	-9.18816
फे	-9.18978
▁कोणतीही	-9.19094
▁कोणती	-9.19218
▁सलाम	-9.19292
▁आवडते	-9.19353
▁मोबाइल	-9.19483
▁कला	-9.19543
▁कोणाला	-9.19569
▁चूक	-9.19597
गी	-9.19601
▁इंटरनेट	-9.19617
▁उपस्थित	-9.19618
4)	-9.19719
34	-9.19746
▁पालक	-9.19848
▁व्यक्त	-9.19874
जर	-9.19879
19	-9.19894
▁सिद्ध	-9.19931
▁एन	-9.20058
▁जागतिक	-9.20068
▁दररोज	-9.20106
▁नाटक	-9.20199
िम	-9.20336
▁प्राणी	-9.20406
देखील	-9.20409
▁जिंक	-9.20511
▁तिची	-9.20555
▁किमान	-9.20641
ुम	-9.20731
▁खूपच	-9.20898
▁लाल	-9.20991
▁मूळ	-9.21125
▁ख्रिस्त	-9.21196
ज्ञ	-9.21346
▁मागा	-9.2136
▁करणाऱ्या	-9.21391
▁जसे	-9.21493
पि	-9.21544
▁अनु	-9.21557
▁चिंता	-9.21565
▁पो	-9.21568
▁बु	-9.21624
▁सुख	-9.21962
▁आठवड्यात	-9.21986
▁निर्मिती	-9.22021
▁स्थानिक	-9.22102
▁मानव	-9.22207
▁f	-9.22232
▁घेतो	-9.22297
▁वाटतं	-9.22311
▁ईश्वर	-9.22483
▁माझ्याकडे	-9.22573
्र	-9.22668
▁फरक	-9.22689
▁वर्षांपूर्वी	-9.227
▁(1	-9.22762
▁निकाल	-9.2287
▁सक्षम	-9.22875
पैकी	-9.22988
▁आतापर्यंत	-9.22997
िस	-9.23207
पत्र	-9.23288
▁कर्मचारी	-9.23302
मन	-9.23331
▁हातात	-9.23385
त्त	-9.23404
▁राजकारण	-9.23455
▁करण्याचे	-9.23553
▁१५	-9.23563
▁अपेक्षा	-9.23612
गर	-9.23643
▁देणे	-9.23659
▁सैन्य	-9.23663
▁तोंड	-9.23722
वार	-9.23732
पु	-9.23739
▁झालं	-9.23825
▁दुसरी	-9.23845
60	-9.23851
▁गेलो	-9.23868
▁महत्त्वाचे	-9.23882
▁2017	-9.23896
▁मिळते	-9.2396
▁मानवी	-9.2398
is	-9.24007
▁प्रकारच्या	-9.24059
02	-9.24087
▁वेगळा	-9.24118
▁उमेदवार	-9.24126
पूर्वी	-9.24246
वू	-9.24285
▁मुद्दा	-9.24304
▁दिन	-9.24397
▁परवानगी	-9.24403
▁मजा	-9.24493
▁भा	-9.24599
▁पाड	-9.24609
▁ऑक्टोबर	-9.24621
ul	-9.2477
▁धाव	-9.24779
▁नव्या	-9.24794
तुम्ही	-9.24807
ावी	-9.24808
▁कायद्या	-9.2485
▁प्रयोग	-9.25
▁मांड	-9.25005
▁पाहा	-9.25015
▁क्रमांक	-9.25074
▁कविता	-9.25118
▁लांब	-9.25217
▁कशा	-9.2533
पूर्ण	-9.25413
▁कॉल	-9.2556
वान	-9.25582
▁re	-9.25624
▁अरे	-9.25625
▁घेणार	-9.25665
▁मोदी	-9.25728
एम	-9.2578
▁जानेवारी	-9.25817
एल	-9.25905
▁होणे	-9.25933
▁शो	-9.25947
▁सार्वजनिक	-9.25957
▁फा	-9.25961
▁त्यातील	-9.26027
▁नोंद	-9.26235
स्थान	-9.26357
39	-9.26376
▁बँक	-9.26524
राज	-9.2656
▁पद्धती	-9.26664
बु	-9.26696
▁२०	-9.26716
▁संवाद	-9.26737
▁मुलं	-9.2674
▁सांगत	-9.26756
▁साइट	-9.26801
▁व्यवस्थापन	-9.26866
▁आमचा	-9.26871
▁शोधत	-9.26947
24	-9.27049
▁समिती	-9.27131
▁वर्षात	-9.2718
▁वाचन	-9.27266
दि	-9.27314
▁अभि	-9.2732
▁प्रा	-9.27328
▁मार्च	-9.27368
दु	-9.27435
ूर	-9.27489
▁असले	-9.27535
▁शिवाय	-9.27536
di	-9.27641
▁आईची	-9.27783
▁मालिका	-9.27827
▁असत	-9.27853
▁निवडणूक	-9.27913
मेंट	-9.27964
▁खु	-9.28019
▁वाढत	-9.28104
भाव	-9.28183
▁प्रदेश	-9.2829
▁सामना	-9.2839
▁थोडी	-9.2842
रू	-9.28471
एक	-9.2849
▁विश्व	-9.28507
▁बोनस	-9.28544
▁हॉटेल	-9.28623
▁इतका	-9.28626
▁सहभागी	-9.28707
▁येथील	-9.2881
▁टॉम	-9.28835
▁घोषणा	-9.28872
फा	-9.2892
▁घड	-9.28933
ोन	-9.28951
▁पूर्वी	-9.2897
▁प्रो	-9.28971
▁पडले	-9.29028
वरून	-9.29064
▁ऑफ	-9.29085
▁चंद्र	-9.29124
21	-9.29168
ma	-9.29192
ent	-9.29211
▁वेगवेगळ्या	-9.29245
ऊ	-9.29252
▁माध्यमातून	-9.29292
▁अम	-9.29304
▁प्रकारचे	-9.29381
▁१२	-9.29488
▁श्रीमंत	-9.29578
▁महिन्यात	-9.29592
गु	-9.29606
▁महत्वाचे	-9.29663
▁अचानक	-9.29702
▁९	-9.29718
▁£	-9.29932
▁मॉडेल	-9.30204
▁वाद	-9.30222
सारखी	-9.30305
▁मध्य	-9.3032
▁हस	-9.3032
▁आलं	-9.30408
▁व्यवहार	-9.30434
दर	-9.30495
▁काळा	-9.30545
▁चढ	-9.30593
द्या	-9.30597
▁८	-9.30801
▁चाचणी	-9.30898
▁वास्तव	-9.30934
▁धर	-9.31012
▁राहू	-9.31027
▁म्हणत	-9.31076
▁विकसित	-9.31089
ँ	-9.31141
▁दिसून	-9.31159
▁होण्याची	-9.31164
▁करणारा	-9.31169
▁बघा	-9.31224
;&	-9.3126
▁युरोप	-9.31301
▁शुद्ध	-9.31432
▁डो	-9.31551
योग	-9.31568
▁घाबर	-9.31632
▁कुणा	-9.31725
▁ठीक	-9.31798
▁वैयक्तिक	-9.31819
27	-9.31865
▁जिवंत	-9.31867
▁दुसरे	-9.31927
03	-9.31993
▁हक्क	-9.32086
▁राख	-9.32101
▁तसा	-9.32104
▁घे	-9.32166
▁कार्यालय	-9.32203
हर	-9.32211
ंदा	-9.32225
▁टीव्ही	-9.32227
▁महिने	-9.3228
▁बाबतीत	-9.32324
▁धु	-9.32346
▁सोबत	-9.32347
▁रुपये	-9.3237
▁करायचा	-9.32388
▁लागतो	-9.32407
▁ऱ्ह	-9.3251
टो	-9.32553
▁पाऊस	-9.32558
▁उलट	-9.32732
▁व्यापार	-9.32819
26	-9.32924
▁लागत	-9.32941
ल्यावर	-9.33014
▁आजार	-9.33036
▁पुस्तके	-9.33065
▁परीक्षा	-9.33123
▁बरेच	-9.33125
▁आधारित	-9.33209
▁ठेवली	-9.33222
▁कारवाई	-9.33225
▁In	-9.33339
▁द्वारे	-9.33381
▁जाहीर	-9.33404
ers	-9.33454
▁पुनर्	-9.33482
▁यु	-9.33618
▁जबाबदारी	-9.33648
▁कप	-9.33757
▁येऊन	-9.33805
▁व्यवस्था	-9.33831
▁अंतर्गत	-9.33874
पट	-9.33875
▁रोग	-9.33965
▁स्ट	-9.34065
गाव	-9.34097
िश	-9.34133
▁स्थापना	-9.3424
▁साजरा	-9.3429
र्ज	-9.34333
▁अमेरिकेत	-9.34374
▁दिस	-9.34575
▁फे	-9.34623
="2	-9.34633
ंप	-9.34685
▁खरोखर	-9.34825
▁पहिल्यांदा	-9.34829
▁देऊन	-9.3486
▁आधीच	-9.34865
स्व	-9.34896
सारख्या	-9.34968
ate	-9.34979
▁दिल्ली	-9.34996
09	-9.3506
ोप	-9.351
▁रचना	-9.35129
▁फॅक्टरी	-9.35188
▁आपल्याकडे	-9.35243
वली	-9.35301
23	-9.3535
▁पुत्र	-9.35397
▁कलाकार	-9.35406
▁माल	-9.35496
▁जमीन	-9.3555
▁m	-9.35566
▁प्रतिक्रिया	-9.35699
▁100	-9.35766
▁मज	-9.35796
▁सुधारणा	-9.35806
▁समाविष्ट	-9.35896
▁पाहू	-9.35935
र्म	-9.36084
40	-9.36147
de	-9.36227
▁व्या	-9.36269
▁अंत	-9.36368
35	-9.3639
▁एफ	-9.36397
ापेक्षा	-9.36472
28	-9.36591
▁राम	-9.36776
▁पान	-9.36778
▁फायदे	-9.36832
▁करतील	-9.3691
▁कळत	-9.36922
▁याबाबत	-9.36948
▁मार्गदर्शन	-9.37102
▁देवाने	-9.37166
ne	-9.37336
▁सुधार	-9.3744
▁अहवाल	-9.37574
▁वचन	-9.37591
▁खरा	-9.3764
ांशी	-9.37961
▁ब्र	-9.38046
▁झालेले	-9.38076
▁आरोप	-9.38126
▁सादर	-9.38196
▁2015	-9.38291
▁नाम	-9.38334
▁सुविधा	-9.38409
जि	-9.38472
▁ठिकाण	-9.38556
▁झालो	-9.38649
ॉन	-9.38665
▁तपास	-9.38705
▁पोलिस	-9.38729
ठी	-9.38761
▁माझ्यावर	-9.38788
धार	-9.38802
गे	-9.38813
बर	-9.38827
ल्स	-9.38842
ानुसार	-9.38916
▁जन	-9.38991
▁प्रेरणा	-9.39072
▁देवाच्या	-9.39105
▁रो	-9.39118
▁डॉलर	-9.39185
▁जर्मनी	-9.39214
▁रूप	-9.39255
र्य	-9.39291
▁लगेच	-9.39304
ाप	-9.39385
▁जिल्हा	-9.39423
29	-9.395
▁उत्कृष्ट	-9.39533
समोर	-9.3956
▁समाधान	-9.39625
▁जमा	-9.39634
एक्स	-9.39703
त्	-9.39757
दे	-9.39787
▁गरीब	-9.39788
▁वाटले	-9.39824
▁झालेली	-9.39843
-20	-9.39909
मु	-9.39977
▁कामगिरी	-9.4002
▁केलेली	-9.40075
निक	-9.40085
खे	-9.40107
▁कोणतेही	-9.40228
सू	-9.40263
32	-9.40304
▁22	-9.40319
07	-9.4036
पाल	-9.40429
06	-9.40461
▁कायम	-9.40489
▁क्लिक	-9.40562
ठा	-9.40598
▁असलेली	-9.40802
टक	-9.40814
▁सेट	-9.40825
ुर	-9.40835
▁माझं	-9.40854
▁मरण	-9.40915
▁ऐकले	-9.40948
▁[...]	-9.41016
द्	-9.41059
करिता	-9.4107
▁स्त्रियां	-9.4115
▁प्रतिसाद	-9.41297
▁चालत	-9.41403
▁जवळजवळ	-9.41407
▁राहतात	-9.41458
▁अर्थात	-9.41528
▁अमेरिका	-9.41578
▁वर्णन	-9.41586
▁सहज	-9.41667
▁हु	-9.41735
▁मोड	-9.41743
काम	-9.41775
▁21	-9.41805
▁चेहरा	-9.41814
▁हत्या	-9.41823
▁अनुप्रयोग	-9.41837
▁भाषण	-9.41849
75	-9.41878
ti	-9.41919
36	-9.41959
आम्ही	-9.41966
▁एक्स	-9.41993
▁जुन्या	-9.42006
तनांसाठी	-9.4205
▁दुर्	-9.42093
ाऊ	-9.42177
वय	-9.42209
▁आठवण	-9.42215
▁इतके	-9.42325
▁मूल्य	-9.42336
▁दुकान	-9.424
्व	-9.42426
▁जरा	-9.42582
▁आश्चर्य	-9.42635
Name	-9.42636
▁कॅम	-9.42805
▁पंतप्रधान	-9.42878
▁आत्मा	-9.42917
▁आज्ञा	-9.42962
▁आवृत्ती	-9.42974
and	-9.4308
he	-9.43095
▁दिल्या	-9.4314
▁अॅ	-9.433
▁पत्रकार	-9.43348
▁कामगार	-9.43352
▁सामग्री	-9.43411
▁फिर	-9.43433
▁एप्रिल	-9.43475
डो	-9.43511
सो	-9.43591
▁म्हण	-9.43624
अल	-9.43634
▁घेता	-9.43673
▁कोणता	-9.43762
▁बातमी	-9.43765
co	-9.43836
▁तारीख	-9.43859
▁बघत	-9.43948
▁is	-9.43981
▁शा	-9.44019
▁अभिमान	-9.44178
▁देवा	-9.44268
्यांना	-9.44279
▁2014	-9.443
▁कालावधी	-9.44343
न्या	-9.4435
se	-9.44392
▁रद्द	-9.44417
▁सारे	-9.44446
क्रम	-9.44455
▁सप्टेंबर	-9.44655
धी	-9.44672
▁डा	-9.4479
▁प्रशासन	-9.448
▁स्वातंत्र्य	-9.44999
▁स्वतंत्र	-9.45018
▁क्रिकेट	-9.45068
▁बाजू	-9.45151
यो	-9.45151
▁असतं	-9.45262
▁पद्धत	-9.45287
▁गावात	-9.45303
▁उभे	-9.45403
▁ऍ	-9.45404
बो	-9.45464
▁बाजूला	-9.45496
▁ऑफर	-9.45531
08	-9.45558
ार्थ	-9.45776
▁भू	-9.45827
करण	-9.45862
▁उंच	-9.45878
&	-9.45942
▁येतील	-9.46024
▁वर्षांत	-9.46025
▁सुट	-9.46123
▁प्रकाशित	-9.46166
गार	-9.46182
आणि	-9.46296
▁चर्च	-9.46362
▁त्यांच्यावर	-9.46408
▁दिवसात	-9.46421
▁असो	-9.46421
▁वाक्य	-9.46504
कट	-9.46511
▁शिव	-9.46523
▁सर्वाधिक	-9.46588
िय	-9.46603
33	-9.46634
47	-9.46713
▁इं	-9.46795
ाखाली	-9.46849
▁प्रस्ताव	-9.46928
▁मजबूत	-9.46932
▁आव्हान	-9.47
▁माध्यम	-9.47005
▁यंत्र	-9.47052
▁फळ	-9.47054
▁शकणार	-9.47077
ष्ट	-9.47081
▁उपक्रम	-9.47099
▁माणसे	-9.47131
▁मोह	-9.47189
▁2016	-9.47192
▁पाहून	-9.47239
ाइ	-9.47278
जो	-9.473
▁g	-9.47325
▁प्रिय	-9.47334
ment	-9.47449
▁e	-9.47482
▁जादूगार	-9.47486
प्त	-9.47568
ot	-9.47666
र्त	-9.47675
▁साधा	-9.47747
झा	-9.4785
▁प्रभावी	-9.47874
▁चहा	-9.47919
▁होतील	-9.47926
▁घ	-9.47946
▁राहील	-9.47963
▁ऑस्ट्रेलिया	-9.47978
▁तपशील	-9.48007
▁कॉलेज	-9.4808
45	-9.48248
▁घडले	-9.4827
डि	-9.48302
ver	-9.48351
▁सिनेमा	-9.48381
▁आधुनिक	-9.4843
▁शेअर	-9.48495
ॉल	-9.48546
▁भागात	-9.48552
▁शेती	-9.48585
ang	-9.48683
▁सायकल	-9.48691
▁राहिला	-9.48812
▁रड	-9.48867
▁मंडळ	-9.48897
र्न	-9.49069
▁अपघात	-9.49072
▁त्याबद्दल	-9.49104
▁खरी	-9.49148
हून	-9.49205
▁जपान	-9.49351
▁जिथे	-9.49396
90	-9.49408
▁रशिया	-9.49494
mo	-9.49538
▁व्यायाम	-9.49591
▁अंतर	-9.49646
ण्याच्या	-9.49689
▁त्यानुसार	-9.49705
Y	-9.49725
ड्र	-9.498
▁गांधी	-9.49874
▁स्क	-9.49903
me	-9.49925
▁टीम	-9.4996
▁लागतात	-9.49992
▁23	-9.50039
▁U	-9.50056
वं	-9.50114
▁प्रतिमा	-9.50116
▁छान	-9.50186
▁अंग	-9.50195
ल्ल	-9.5031
सि	-9.50401
संबंधी	-9.50404
▁राहा	-9.50426
न्न	-9.50436
वळ	-9.50463
▁कामे	-9.50465
▁ऑफिस	-9.50529
▁लेखन	-9.50537
ion	-9.50549
▁स्वतःच्या	-9.50592
द्र	-9.50623
▁भीती	-9.50721
ive	-9.50802
▁अटक	-9.50859
▁घेण्यासाठी	-9.50962
55	-9.50983
ॅट	-9.51066
▁सत्ता	-9.51139
▁मॅ	-9.51149
▁फि	-9.51352
▁हवं	-9.51402
र्‍या	-9.51446
▁रहा	-9.51462
▁वैशिष्ट्य	-9.51532
▁वाचव	-9.51596
▁सरकारने	-9.51622
05	-9.51702
▁लढाई	-9.51705
▁निघ	-9.51705
▁वैद्यकीय	-9.51731
▁मानसिक	-9.51807
ांपेक्षा	-9.51816
▁पळ	-9.51821
▁निर्	-9.51856
▁सांगतात	-9.51883
ात्मक	-9.51903
sh	-9.51937
▁कोणीतरी	-9.51962
▁प्रचंड	-9.52042
56	-9.52127
hi	-9.52155
▁नंबर	-9.52397
▁वीर्यपिचकारी	-9.52432
▁अशाच	-9.52552
▁स्वच्छ	-9.52583
धि	-9.52625
▁कोर	-9.52638
▁स्पर्धा	-9.52719
▁शाळे	-9.52731
▁गुंतवणूक	-9.52748
▁मोज	-9.52886
▁विस्तार	-9.52905
▁मुलाला	-9.52919
46	-9.5308
▁ओळखले	-9.5311
▁दरवाजा	-9.53115
०००	-9.53204
ir	-9.53238
▁कम	-9.53285
▁पवार	-9.53288
▁नष्ट	-9.53296
▁टो	-9.53309
65	-9.5333
▁बाबा	-9.53346
▁जम	-9.53351
ोर	-9.53424
▁३०	-9.53476
▁दोष	-9.53516
▁कल	-9.53524
▁तयारी	-9.53573
▁वाह	-9.536
▁उदाहरणार्थ	-9.53681
ांकडे	-9.53689
▁अद्याप	-9.53719
▁योजने	-9.53725
▁नेतृत्व	-9.53749
▁सन	-9.5375
घा	-9.53781
▁खोली	-9.53816
▁सैनिक	-9.53831
गत	-9.5385
▁असावे	-9.53885
▁चौकशी	-9.53935
▁सल्ला	-9.5404
▁मूवीस	-9.54107
▁महत्त्व	-9.54166
▁28	-9.5424
म्	-9.54271
est	-9.54291
▁तथापि	-9.54335
▁गरम	-9.54413
▁व्ही	-9.54415
▁रोख	-9.54439
04	-9.54474
▁झालेला	-9.54485
▁नोंदणी	-9.54526
ियन	-9.54543
▁40	-9.54612
86	-9.5462
67	-9.54685
▁नकोस	-9.54687
▁विजे	-9.54753
▁प्रारंभ	-9.5485
बल	-9.54905
na	-9.54947
▁रात्र	-9.55042
▁खाऊ	-9.55205
▁वर्षांचा	-9.55216
▁दोघां	-9.55244
▁नसतो	-9.5538
▁उपकरणे	-9.55384
दान	-9.5542
ce	-9.55441
करी	-9.5549
ia	-9.5556
▁डोस	-9.55578
▁शिक्षा	-9.55583
▁छोट्या	-9.55623
▁स्प	-9.55636
▁मंत्र	-9.55696
वेळ	-9.55748
▁वास्तविक	-9.55833
▁मूर्ख	-9.5584
▁क्षेत्रात	-9.56046
▁लो	-9.5621
▁आवडेल	-9.56305
▁मुलां	-9.56469
▁उल्लेख	-9.56544
▁जुळ	-9.56578
६	-9.56589
▁बाब	-9.56699
▁उचल	-9.56702
▁जनते	-9.5671
▁200	-9.56788
▁लोकांच्या	-9.56809
▁सरकारी	-9.56824
ापर्यंत	-9.56901
▁Home	-9.56913
▁नियमित	-9.56915
▁टाळ	-9.56971
र्ण	-9.57034
▁h	-9.57113
विरुद्ध	-9.57121
▁कसं	-9.57127
▁निघून	-9.57184
44	-9.5725
कोण	-9.57384
वंत	-9.57391
▁पॅ	-9.57439
ंध	-9.57574
▁De	-9.57614
▁अवलंबून	-9.57626
▁सुपर	-9.57698
▁न्यू	-9.5771
im	-9.57765
▁कुणी	-9.5781
▁अधिकृत	-9.5794
▁आंदोलन	-9.57975
▁तुमच्यासाठी	-9.58125
▁पूजा	-9.58218
▁Ch	-9.5822
▁अति	-9.58226
▁निसर्ग	-9.58252
▁दगड	-9.58253
ांकडून	-9.58299
पू	-9.58329
व्य	-9.5834
▁मिळू	-9.5849
▁d	-9.58493
▁जेथे	-9.58505
▁नेते	-9.5859
प्ल	-9.58639
▁कोणते	-9.5866
▁बहु	-9.58719
lo	-9.58777
▁त्याचं	-9.58961
▁प्रदर्शन	-9.58983
तोय	-9.58992
स्टर	-9.58996
▁नकार	-9.59056
▁नवी	-9.59082
▁सांगू	-9.59103
व्ही	-9.5911
31	-9.5918
▁जाती	-9.59216
▁संस्थे	-9.59252
per	-9.59262
▁आजच्या	-9.59265
▁वरील	-9.5928
ाना	-9.59352
70	-9.59357
▁सुरवात	-9.59395
▁प्रश्‍न	-9.59424
▁एच	-9.5944
्ल	-9.59446
▁राहतो	-9.59478
्ड	-9.59491
▁26	-9.59525
▁बैठक	-9.59637
▁आहार	-9.59679
▁जॉन	-9.59754
▁तपासणी	-9.59763
▁वापरून	-9.59828
▁शासन	-9.60061
मेल	-9.60154
▁गाय	-9.60163
▁पसर	-9.60181
▁पडला	-9.6022
▁नजर	-9.60307
▁on	-9.60324
▁देईल	-9.60327
▁एकमेकां	-9.60481
▁माणसाला	-9.6055
▁तळ	-9.60551
▁तापमान	-9.60564
द्ध	-9.60579
मागे	-9.60635
▁वातावरण	-9.6077
▁’’	-9.60788
▁जीवनात	-9.60801
▁लक्ष्य	-9.60909
▁आप	-9.60956
▁पुरव	-9.61014
▁सगळी	-9.6102
▁देण्यासाठी	-9.6103
▁साधने	-9.61042
▁पोलीस	-9.61096
▁पुरवठा	-9.61162
▁नैसर्गिक	-9.61208
▁आणले	-9.61209
ut	-9.6127
▁प्रकारची	-9.61285
▁जपानी	-9.61346
▁विनामूल्य	-9.6138
▁ब्ल	-9.61452
ोज	-9.61477
▁टिक	-9.61509
▁पुनरावलोकन	-9.61515
▁करीन	-9.61521
▁जुलै	-9.61638
▁शेतकरी	-9.617
▁आठवत	-9.6178
▁फेब्रुवारी	-9.61839
49	-9.6185
खर	-9.61868
▁मीटर	-9.61899
▁गि	-9.62002
▁Y	-9.62054
▁याबद्दल	-9.62064
▁लिमिटेड	-9.62098
्म	-9.6214
88	-9.62142
▁परमेश्वराने	-9.62159
ट्स	-9.62175
66	-9.62177
▁दोघेही	-9.62191
▁असाल	-9.62222
▁उद्देश	-9.62249
▁बांधकाम	-9.62255
pe	-9.62256
▁पाठ	-9.62315
▁हृदय	-9.62387
▁१००	-9.62409
▁बॉ	-9.62515
▁पडत	-9.62602
▁घ्यायला	-9.62654
▁मुख्यमंत्री	-9.62665
▁महत्त्वाचा	-9.62689
▁इटालियन	-9.62705
▁त्यांच्याकडे	-9.62758
▁भारतातील	-9.62905
▁चलन	-9.62916
▁दुपारी	-9.62948
▁जादू	-9.62995
▁मंडळी	-9.63021
▁आढळ	-9.63101
▁गुरु	-9.63154
age	-9.63184
98	-9.63217
▁पती	-9.63291
ब्र	-9.63301
▁ऐ	-9.63337
▁खाते	-9.63403
ढी	-9.63476
▁मीडिया	-9.63569
▁स्लॉट	-9.63579
▁गेम	-9.63646
▁देशातील	-9.63649
▁सारखे	-9.63652
▁सू	-9.63677
▁उपयुक्त	-9.63683
ant	-9.63757
▁हल्ला	-9.63807
▁लोकांचा	-9.6385
▁मधील	-9.63853
▁भि	-9.63968
to	-9.64043
57	-9.64079
[	-9.64121
एफ	-9.64121
43	-9.6413
▁स्थिर	-9.64167
ग्	-9.64168
▁आनंदी	-9.64196
▁करील	-9.64204
one	-9.64284
▁बिल	-9.64298
गड	-9.64322
95	-9.64363
रूप	-9.6437
▁उत्साह	-9.64469
▁पाह	-9.64523
▁लोकांची	-9.64564
69	-9.64589
▁be	-9.64658
▁दुसर्‍या	-9.64789
▁इंग्लंड	-9.64816
▁रुग्ण	-9.64829
▁रुपया	-9.65002
▁सहकार्य	-9.65013
लोक	-9.65039
▁श्रेणी	-9.65053
▁ऑगस्ट	-9.65083
▁यू	-9.6512
▁पाहत	-9.65209
▁गती	-9.65328
▁स्थापन	-9.65331
▁बाप	-9.65376
▁पालन	-9.65394
▁कृती	-9.65397
▁संयुक्त	-9.65407
▁राह	-9.65426
-1	-9.65464
▁बदलले	-9.65506
▁तसं	-9.65593
▁टॅ	-9.65594
vi	-9.65621
घर	-9.65738
▁महाराज	-9.6578
बंध	-9.65801
्मा	-9.65816
▁गाड्या	-9.65885
विले	-9.65895
िके	-9.65983
रिया	-9.66021
▁दृष्टीने	-9.66072
▁2013	-9.66137
▁वेबसाइट	-9.66173
ig	-9.66189
▁भु	-9.663
▁''	-9.66443
▁t	-9.66447
▁यानंतर	-9.66549
▁सरळ	-9.66552
▁=	-9.66558
▁वेग	-9.6672
▁संच	-9.66743
▁निधी	-9.6678
▁नाश	-9.66799
▁जहाज	-9.66883
▁पश्चिम	-9.66897
▁येण्या	-9.66978
▁प्रगती	-9.66982
▁साठ	-9.67025
om	-9.67268
▁बाल	-9.67324
्वा	-9.67399
▁वाजता	-9.67452
ासह	-9.67455
▁कॉफी	-9.67461
▁अल्	-9.67463
आता	-9.67466
▁संघर्ष	-9.67476
▁२५	-9.67518
द्द	-9.67528
▁गायब	-9.6762
▁ठार	-9.67711
▁घ्यावे	-9.67712
वारी	-9.67725
▁हिंदू	-9.67762
no	-9.6781
▁पाव	-9.67892
ावरील	-9.67893
▁संदर्भ	-9.67901
▁वर्षांपासून	-9.6791
▁Co	-9.67927
▁जय	-9.67975
▁रशियन	-9.68009
णारी	-9.68083
ाइड	-9.68108
ाकडून	-9.68119
▁अंक	-9.68172
▁देता	-9.68177
▁वाढदिवस	-9.68206
▁गुन्हा	-9.68225
▁मृत	-9.68267
all	-9.68366
ts	-9.68371
प्प	-9.68375
▁वाहतूक	-9.68436
७	-9.6846
▁डिसेंबर	-9.68559
▁कर्म	-9.6861
▁महिना	-9.68652
▁फ्रान्स	-9.68713
▁पावसा	-9.68785
68	-9.68824
र्ष	-9.68878
▁दात	-9.68882
▁दृश्य	-9.68921
▁सगळ्यांना	-9.68962
▁ब्रिटिश	-9.6899
87	-9.69012
▁रक्षण	-9.69119
▁कोणालाही	-9.69121
52	-9.69122
▁कर्तव्य	-9.69176
भाष	-9.69209
ke	-9.69215
खी	-9.69229
▁for	-9.69237
▁योग	-9.69324
ल्यानंतर	-9.6934
▁पाण्या	-9.69344
▁वार	-9.69372
च्छ	-9.69402
पुढे	-9.69439
▁दूध	-9.69455
▁कार्यरत	-9.69499
ालय	-9.69511
▁बार	-9.69552
▁अटी	-9.69558
ढा	-9.69566
▁म्हणता	-9.69587
▁चोर	-9.69616
▁कस	-9.69667
▁अतिरिक्त	-9.69672
▁Ma	-9.69686
▁ढ	-9.69702
▁इमारत	-9.69762
▁उत्पन्न	-9.69765
▁पाहता	-9.69856
▁पुष्कळ	-9.6989
▁दिसतात	-9.69916
▁होण्यासाठी	-9.69918
▁होम	-9.7001
▁आदर	-9.70113
▁११	-9.70166
▁बाजारात	-9.70216
▁नाकार	-9.70236
▁तलवार	-9.70297
▁घो	-9.70377
▁पत्ता	-9.70395
▁गुप्त	-9.70436
58	-9.70441
▁विद्यार्थ्यांना	-9.70451
िर	-9.70659
ity	-9.70699
▁काढले	-9.7072
म्प	-9.70798
कृत	-9.70798
▁गृह	-9.70863
▁फाइल	-9.70902
ard	-9.70916
▁पराभव	-9.70925
नेट	-9.70928
▁परिपूर्ण	-9.7094
▁उशीर	-9.70974
▁पिक	-9.70984
▁रस्त्यावर	-9.70998
▁दिवाळी	-9.71158
▁दर्शव	-9.71192
वणे	-9.71239
▁खंड	-9.71253
▁फ्रेंच	-9.71302
▁अजिबात	-9.7146
लिंग	-9.71465
▁मालक	-9.71614
▁तुलना	-9.71684
▁Google	-9.71714
ॅक	-9.71822
▁मिळवा	-9.71842
माझ्या	-9.71877
▁हाती	-9.71904
▁27	-9.71922
चित्र	-9.71961
▁कुठले	-9.71969
व्हा	-9.71978
▁प्रत्यक्ष	-9.72039
▁रक्कम	-9.72064
ill	-9.72129
ॅन	-9.72138
ँड	-9.72145
▁शक	-9.72156
▁फो	-9.72196
bo	-9.72265
▁अनुवाद	-9.72276
48	-9.7231
▁जलद	-9.72321
▁शेतकऱ्यां	-9.72339
▁फुल	-9.72368
स्ता	-9.72404
ंद्र	-9.72433
ियर	-9.72456
77	-9.725
▁वाटतो	-9.72528
▁प्रसार	-9.7261
j	-9.7261
▁बॅ	-9.72615
ry	-9.72634
▁अभ्यासक्रम	-9.72637
▁इमारती	-9.72642
▁प्या	-9.72718
▁कारणे	-9.72725
▁घेतात	-9.72775
ie	-9.72826
▁निवडा	-9.72898
▁दिलेल्या	-9.72901
▁रस्ता	-9.72901
▁अस्तित्व	-9.73033
▁ठेवला	-9.73095
युक्त	-9.73133
▁श्र	-9.73175
लेट	-9.73184
▁बोलू	-9.73188
▁जरी	-9.73257
एन	-9.73269
▁St	-9.73283
स्त्र	-9.73298
ow	-9.73348
▁महत्त्वाची	-9.73355
▁बॉक्स	-9.73432
▁साखर	-9.73444
ल्ट	-9.73535
▁टे	-9.73563
▁ईमेल	-9.73564
▁ट्रेन	-9.73594
▁शुल्क	-9.73611
तरी	-9.73678
▁दार	-9.73687
▁खरोखरच	-9.73719
▁आमदार	-9.73755
▁पोट	-9.73784
ine	-9.73818
▁त्याच्यावर	-9.73818
▁रस्त्या	-9.7382
▁पर्वत	-9.73903
▁ठ	-9.73904
टू	-9.73941
ाविषयी	-9.73951
▁सांभाळ	-9.74026
▁ज्यामुळे	-9.74071
76	-9.74076
▁दावीद	-9.74091
▁इतक्या	-9.74157
▁साधारण	-9.74212
▁बचत	-9.74248
▁जाहिरात	-9.7426
क्षण	-9.74262
ानं	-9.74273
▁मह	-9.74301
▁पगार	-9.74512
▁नसतात	-9.74535
ies	-9.74575
▁मिनिटे	-9.7461
▁महाग	-9.74631
▁स्वतःची	-9.74634
श्‍	-9.74689
▁सांगितलं	-9.74743
▁दिवसांत	-9.7476
▁पक्षी	-9.74775
▁संत	-9.74918
▁पात्र	-9.74953
▁विनंती	-9.74973
▁बनले	-9.75007
up	-9.7513
ॉट	-9.75138
▁सण	-9.75198
▁डाय	-9.75201
▁राग	-9.75213
▁de	-9.75218
51	-9.75229
ंडी	-9.75263
os	-9.75275
नगर	-9.75311
तः	-9.75326
▁दावा	-9.75352
्रा	-9.75447
▁स्वरूप	-9.75453
▁आदर्श	-9.75494
tion	-9.75533
▁५०	-9.75563
वन	-9.75618
72	-9.75659
▁काँग्रेस	-9.75696
▁वाटेल	-9.75741
▁पृथ्वीवर	-9.75834
▁तुलनेत	-9.75994
स्ट्र	-9.76009
▁सामर्थ्य	-9.76027
▁वै	-9.76036
▁नेटवर्क	-9.7606
ंशी	-9.76116
▁स्त्रिया	-9.76139
▁ज्यांना	-9.7616
▁विमा	-9.76167
ap	-9.76198
▁याजक	-9.76214
आपण	-9.7628
▁परिस्थितीत	-9.76303
ांक	-9.76437
▁कशासाठी	-9.76469
▁Mo	-9.76557
▁सन्मान	-9.76592
▁साय	-9.76614
▁लाग	-9.76702
▁आलेल्या	-9.76713
▁फ्ल	-9.76715
▁एअर	-9.76721
▁बोलाव	-9.76773
दू	-9.76822
वृत्त	-9.76855
▁चल	-9.76874
ांग	-9.76893
काय	-9.76941
बू	-9.77066
वर्ष	-9.77128
ृत	-9.77143
▁आरक्षण	-9.77146
▁विद्यार्थ्यां	-9.77182
97	-9.77188
▁60	-9.77233
▁तिथेच	-9.77233
▁असली	-9.77269
▁प्रत्यक्षात	-9.77287
गण	-9.77362
▁ऊर्जा	-9.77395
▁चौ	-9.77508
▁कुणाला	-9.77666
▁@	-9.77688
▁माय	-9.77692
वर्त	-9.77778
्री	-9.77796
▁यातून	-9.77812
्‍य	-9.77817
कारक	-9.77822
▁विश्लेषण	-9.77833
▁प्रवाह	-9.77844
▁त्यांच्यासाठी	-9.77869
▁एखादा	-9.7791
्ये	-9.77973
▁शेवट	-9.78028
हार	-9.78045
um	-9.78054
▁करायचं	-9.7807
्ज	-9.78126
▁उत्	-9.78153
ho	-9.78197
▁वेब	-9.78209
२०	-9.78216
▁दुष्काळ	-9.78218
ंबर	-9.78237
▁मिळतो	-9.78261
59	-9.78269
▁ऐकून	-9.78273
▁2020	-9.78286
96	-9.7829
▁ग्राहकांना	-9.78294
वाह	-9.78297
▁मासे	-9.78319
ठे	-9.78369
▁राहत	-9.78388
85	-9.78497
▁जावे	-9.78499
▁हमी	-9.78506
▁दिशा	-9.78507
▁फेसबुक	-9.7851
▁आपल्यासाठी	-9.78526
अरे	-9.78538
▁झु	-9.78608
हु	-9.78609
िड	-9.78615
42	-9.78637
▁थांबव	-9.78688
J	-9.78719
▁माफ	-9.78726
कू	-9.78765
▁फॅट	-9.78915
क्षा	-9.78959
▁पद्धतीने	-9.78969
▁नऊ	-9.79009
▁बघायला	-9.7915
▁दुःख	-9.79193
▁अशक्य	-9.79226
▁घेतल्या	-9.79315
त्री	-9.79321
▁प्ले	-9.79342
▁सुरुवातीला	-9.79346
बद्ध	-9.79356
▁म्हणते	-9.79368
▁ऑनलाईन	-9.79432
▁तांत्रिक	-9.79466
▁मतदार	-9.79613
ोल	-9.79633
ong	-9.79659
▁नव्हतं	-9.79706
▁पार्टी	-9.79749
89	-9.79773
▁कागद	-9.79782
ab	-9.79849
▁हॅ	-9.79873
41	-9.79888
▁(20	-9.79902
▁v	-9.79922
▁An	-9.79936
▁औषधे	-9.79941
टिंग	-9.80002
ंडा	-9.80027
▁कमाल	-9.80045
▁जाणीव	-9.802
िले	-9.80234
▁खोलीत	-9.80256
▁इंजिन	-9.80257
▁आयोजित	-9.80293
▁संपत्ती	-9.80303
▁आठवड्या	-9.80449
▁29	-9.80501
▁मार्गदर्शक	-9.80522
▁घेण्यात	-9.80538
▁देवाला	-9.80634
▁संकल्पना	-9.80696
▁गोळा	-9.80708
▁निर्देश	-9.80735
▁डिजिटल	-9.80743
▁हेतू	-9.80755
▁पाहिला	-9.80785
▁नाणी	-9.80808
▁आमच्याकडे	-9.80865
@	-9.80893
▁१४	-9.80914
ac	-9.80948
▁The	-9.80966
▁यो	-9.81077
▁31	-9.81134
ांस	-9.8118
▁होण्या	-9.81203
▁साध्य	-9.81248
54	-9.8125
ल्यास	-9.81282
▁संकट	-9.81288
▁परमेश्वरा	-9.81349
▁आख	-9.81374
विणे	-9.81405
्यांनी	-9.8143
▁स्वतःचे	-9.81449
ंदी	-9.81451
ni	-9.81649
▁राज्यात	-9.81662
भि	-9.81724
नाथ	-9.81739
▁वडिलां	-9.81766
▁नाराज	-9.81808
▁पिढी	-9.81856
▁रस	-9.819
रित्या	-9.82087
ंडे	-9.82125
ज्ञान	-9.8213
▁कृपा	-9.82143
फ्ट	-9.82177
▁वाचक	-9.82197
▁प्रमाणपत्र	-9.82273
पट्टी	-9.82344
▁असलेला	-9.82364
▁।	-9.82366
▁शतक	-9.82394
▁मंत्री	-9.82397
ca	-9.8251
▁वाचले	-9.82529
▁बदलत	-9.82562
▁दुख	-9.82567
▁वायर	-9.82652
▁वाटलं	-9.82681
▁अस्तित्वात	-9.82698
ru	-9.82709
हू	-9.82714
▁किलो	-9.82867
▁नावे	-9.82869
▁सहमत	-9.82882
▁फुटबॉल	-9.82888
जण	-9.82892
▁असावा	-9.82942
▁दिसतो	-9.82957
▁विचित्र	-9.82977
ॅम	-9.83002
▁Z	-9.83155
▁हजारो	-9.83164
▁जल	-9.83222
▁कॉ	-9.83266
महा	-9.83313
ाप्रमाणे	-9.83313
बळ	-9.83316
▁अंमलबजावणी	-9.83348
▁दबाव	-9.83384
▁शोधा	-9.8342
ge	-9.83447
▁देवाची	-9.83468
तीन	-9.83473
▁थोड्या	-9.83492
▁उंची	-9.83509
▁टेक	-9.83581
▁घडत	-9.83583
▁उभा	-9.83608
▁चमत्कार	-9.83633
्यावर	-9.83682
्यांची	-9.83811
▁भाषेत	-9.83813
▁बसला	-9.83843
▁तार	-9.83853
▁नियोजन	-9.83869
▁सांगता	-9.8397
▁जाता	-9.84075
▁पुढ	-9.84095
▁टेबल	-9.8412
▁%	-9.84136
निया	-9.84142
ex	-9.84286
▁झाल्यानंतर	-9.84286
91	-9.84293
‘	-9.84301
▁कठोर	-9.84315
फि	-9.84348
▁रू	-9.84365
▁उड	-9.8452
▁एकमेकांना	-9.84534
▁स्मार्ट	-9.84565
▁दर्शन	-9.8461
▁प्रसंग	-9.8466
▁हवाई	-9.84676
▁गाणी	-9.84709
घात	-9.84732
▁फॉर्म	-9.84754
▁परिवर्तन	-9.84821
ction	-9.84863
ंगा	-9.84869
▁Next	-9.84893
▁भाषे	-9.84899
▁ताकद	-9.8493
र्व	-9.84957
▁ठरले	-9.85044
▁संघटना	-9.8506
▁भेटी	-9.85112
▁प्रे	-9.85155
थी	-9.85178
▁ध्येय	-9.85183
▁साम	-9.85244
ानी	-9.85305
▁घेण्याची	-9.85363
र्ग	-9.8538
ांपैकी	-9.85382
▁प्रती	-9.85418
▁तीव्र	-9.85438
▁ग्रह	-9.85524
▁चुकीचे	-9.8555
▁तत्त्व	-9.85587
▁लॉ	-9.85625
▁डोंगर	-9.85645
ोड	-9.85659
▁देण्याची	-9.8567
71	-9.85762
▁वितरण	-9.85767
ाइट	-9.85799
▁विसरू	-9.85841
▁देवी	-9.85884
▁वकील	-9.85931
लंय	-9.85936
▁व्य	-9.86103
▁आलेले	-9.8612
▁सक्रिय	-9.86168
▁माफी	-9.86235
▁विषयी	-9.86238
श्र	-9.86295
▁तुमच्याकडे	-9.86308
▁नृत्य	-9.86353
▁सर्वकाही	-9.86386
▁सीमा	-9.86414
न्ट	-9.86456
▁मानक	-9.86578
ारा	-9.86602
धन	-9.86646
▁वैशिष्ट्ये	-9.86667
▁ग्रंथ	-9.86749
▁दुर्लक्ष	-9.86762
▁करणारी	-9.86822
▁क्रेडिट	-9.86831
▁ट्रे	-9.86837
▁पातळी	-9.86856
▁सांगणार	-9.86909
▁वर्षांची	-9.86913
▁सांगते	-9.86947
िला	-9.86954
▁असल्या	-9.86964
▁प्रकारचा	-9.86976
▁आराम	-9.87001
64	-9.87034
▁आघाडी	-9.87052
▁जायचे	-9.8707
▁जातील	-9.8716
▁न्यायालय	-9.87179
▁द्यावे	-9.87185
▁यरुशलेम	-9.87201
तेने	-9.87219
▁संकेतस्थळ	-9.8724
–	-9.87247
ध्या	-9.87261
▁सोडव	-9.87286
▁वाचून	-9.87364
▁पाटील	-9.87403
▁यहूदा	-9.87406
दर्शन	-9.87409
▁प्राथमिक	-9.87423
गृह	-9.87434
▁समजत	-9.8745
ांसह	-9.87479
▁याप्रसंगी	-9.87572
▁बचाव	-9.87611
▁भविष्यात	-9.87637
लेख	-9.87698
62	-9.87809
द्य	-9.87834
▁नेता	-9.87867
▁कारखाना	-9.87907
ve	-9.87925
तंय	-9.88083
▁१७	-9.88091
▁घड्याळ	-9.88095
अप	-9.88096
िनी	-9.88151
ांपासून	-9.88199
▁दर्जा	-9.88234
▁शुभेच्छा	-9.88244
▁ईमानधारक	-9.88281
▁कर्तृत्वाला	-9.88297
▁उभार	-9.883
▁बेट	-9.88421
ite	-9.88482
▁आत्महत्या	-9.88506
▁आपलं	-9.88528
▁मारले	-9.88542
▁जबाबदार	-9.88562
▁मुल	-9.8861
▁इन्	-9.88619
व्हि	-9.88651
▁सेवे	-9.88692
खाली	-9.88695
▁स्थळ	-9.88727
▁पर्	-9.8873
▁त्यापैकी	-9.88806
▁कट	-9.8887
▁दृष्टी	-9.88927
able	-9.88929
▁एकत्रित	-9.88952
गम	-9.88968
▁पाहिजेत	-9.88973
▁वापरा	-9.88977
▁में	-9.88988
▁कौशल्य	-9.88996
der	-9.8901
▁बरे	-9.89096
qu	-9.89114
▁जमिनी	-9.89183
िली	-9.89194
▁करतोय	-9.89234
िव	-9.89244
ip	-9.89299
ियो	-9.89347
ध्द	-9.89352
82	-9.8939
▁लोकसंख्या	-9.89445
▁केल्यानंतर	-9.89487
man	-9.89598
▁ऐतिहासिक	-9.89601
▁हल	-9.89601
▁अ‍ॅ	-9.89603
ष्ठ	-9.89603
▁जाग	-9.89608
81	-9.89641
▁सगळेच	-9.89649
▁असला	-9.89656
गिरी	-9.89748
▁आत्म	-9.89828
ist	-9.89849
▁पंच	-9.89861
▁धोका	-9.8994
▁कॅमेरा	-9.89944
92	-9.89953
▁by	-9.89963
ेंट	-9.89966
▁यंत्रणा	-9.89991
▁इन	-9.90012
▁विरोधी	-9.90046
▁बॅग	-9.90049
▁Previous	-9.90057
▁जाणे	-9.90059
▁आवडी	-9.90067
▁st	-9.9007
क्ट	-9.90174
▁l	-9.90184
▁ऑपरेशन	-9.9021
▁मोटर	-9.90226
▁बळी	-9.90289
▁समर्थ	-9.90337
61	-9.90356
▁बोलतो	-9.9037
्न	-9.90397
▁औद्योगिक	-9.90439
▁प्रचार	-9.90457
▁शु	-9.9052
नाम	-9.9059
▁सार	-9.90609
वट	-9.90626
▁कुठेही	-9.90639
य़ा	-9.90673
जमावतो	-9.90747
▁बऱ्याच	-9.90749
▁you	-9.90896
च्च	-9.90898
▁लागल्या	-9.90919
ऑ	-9.90943
▁झाल्यावर	-9.91013
ियम	-9.91044
em	-9.9105
79	-9.91098
▁म्ह	-9.91103
टीन	-9.91177
▁देवाचे	-9.91237
▁माणसं	-9.91247
▁नेम	-9.91327
▁ऊ	-9.91388
if	-9.91521
कॉ	-9.91604
▁लैंगिक	-9.91672
▁पुरेसे	-9.91693
▁अखेर	-9.9171
▁सकारात्मक	-9.91711
▁वीज	-9.91717
ov	-9.91734
म्म	-9.91761
सर्व	-9.91866
▁FSX	-9.91872
▁गीत	-9.91882
ांमुळे	-9.91922
▁हाताळ	-9.91927
ay	-9.91943
सारखं	-9.91985
त्त्व	-9.92141
▁Android	-9.92177
▁com	-9.92204
अस्	-9.92218
ऑन	-9.92269
74	-9.9231
▁शकले	-9.92327
▁मोशे	-9.92471
ट्या	-9.92484
▁लिह	-9.92522
▁फॉ	-9.92548
53	-9.92549
▁माती	-9.92575
▁समुदाय	-9.92606
▁महत्व	-9.92622
▁पोच	-9.92629
▁खाजगी	-9.92646
▁म्हणणे	-9.92658
▁पुस्तकं	-9.92664
▁आवडतात	-9.92697
▁प्रत्येकाला	-9.92702
▁त्याच्याकडे	-9.92771
▁उत्तरे	-9.9282
▁१६	-9.9285
▁जायला	-9.92887
▁रविवारी	-9.92903
▁प्रभु	-9.92945
▁बहिणी	-9.92959
टन	-9.92971
▁महाविद्यालय	-9.92998
यु	-9.93065
▁ठेवू	-9.93086
78	-9.93088
▁मूल	-9.93088
▁धन	-9.931
▁बोट	-9.93213
▁दिवसभर	-9.93214
▁उदा	-9.93223
्वे	-9.93237
▁मान्यता	-9.93253
▁अर्ध	-9.93348
▁इत्यादी	-9.93431
▁त्यापेक्षा	-9.93469
▁प्लास्टिक	-9.93471
शक्ती	-9.93488
ाईट	-9.93502
कारण	-9.93503
▁निवडून	-9.93577
▁विद्युत	-9.93589
ावरून	-9.93634
▁घडव	-9.93707
▁बायको	-9.93755
आज	-9.93835
श्या	-9.93841
▁अशीच	-9.93904
▁सोन्या	-9.93905
लिन	-9.93935
▁article	-9.93985
▁अडचणी	-9.94046
▁और	-9.94187
▁ओढ	-9.94208
त्ता	-9.94249
▁युरोपियन	-9.94316
▁वाढते	-9.94453
▁No	-9.94514
▁स्टार	-9.94516
५०	-9.94544
▁शैक्षणिक	-9.94621
▁अथवा	-9.94622
▁देशाच्या	-9.94624
▁मॉ	-9.94635
▁बदलू	-9.9466
▁तुम्हा	-9.94681
63	-9.94689
▁धार्मिक	-9.94701
▁खरच	-9.94856
▁निर्माता	-9.94861
▁स्वयंपाक	-9.94975
▁बहुतांश	-9.94984
▁पार्क	-9.95014
▁मिळाल्या	-9.9503
▁करण्याच्या	-9.95048
षा	-9.95086
▁गौरव	-9.95105
इन	-9.95125
▁म्हटलं	-9.95182
▁तुमच्यासमोर	-9.95222
▁एखादी	-9.95385
▁वापरली	-9.95462
▁असूनही	-9.95494
▁राहते	-9.95544
र्द	-9.95619
▁म्हणालो	-9.95639
va	-9.95642
▁प्रक्रिये	-9.95665
▁कोट	-9.95675
▁सूची	-9.95714
▁नोव्हेंबर	-9.95745
▁कधीकधी	-9.95804
▁अचूक	-9.95826
्याची	-9.95844
▁सरासरी	-9.95866
़	-9.95931
▁इथ	-9.95933
िओ	-9.95974
▁अमेरिके	-9.95977
▁प्राचीन	-9.95996
▁खात	-9.96015
▁आम	-9.96053
▁आफ्रिके	-9.96069
▁आशीर्वाद	-9.96069
▁यातील	-9.96073
िप	-9.96083
▁स्वयंचलित	-9.9615
▁बायबल	-9.96153
▁मैत्री	-9.96154
▁माणसां	-9.96156
▁जाणवत	-9.96224
▁स्ट्र	-9.9628
▁१३	-9.96288
▁विमानतळ	-9.96332
▁विधान	-9.96347
▁वृक्ष	-9.96359
यू	-9.96409
▁अक्षर	-9.96411
▁ज्याला	-9.96449
▁फिल्टर	-9.96474
▁राणी	-9.9651
94	-9.96537
ऊन	-9.96548
-2	-9.96569
▁शंका	-9.96572
▁ऐकू	-9.96589
ack	-9.96628
▁सौ	-9.96642
मधे	-9.96645
▁द्यायला	-9.96688
▁कायदेशीर	-9.96719
▁खेळत	-9.96762
+	-9.96789
▁उड्डाण	-9.968
▁थक	-9.96802
▁सगळ्यात	-9.96839
▁पैशा	-9.96877
▁मजकूर	-9.96882
▁पेपर	-9.96891
▁साल	-9.96929
▁मांजर	-9.96931
क्शन	-9.97033
▁लांबी	-9.97119
▁फारच	-9.97121
▁छोटी	-9.97127
▁शुभ	-9.97304
▁म्हणू	-9.97428
▁डोळ्यां	-9.97466
▁शेवटच्या	-9.9751
▁गाठ	-9.97517
▁आत्ता	-9.97574
▁दीर्घ	-9.97576
▁राहिली	-9.97678
▁ठेवून	-9.9769
▁स्वस्त	-9.97696
▁वापरू	-9.97713
▁मू	-9.97766
▁सवय	-9.97774
▁पाया	-9.97829
ci	-9.97837
ांचं	-9.97866
▁रह	-9.97881
व्हर	-9.97886
▁स्वतःचा	-9.97907
▁मोबाईल	-9.97908
ph	-9.97974
▁दिशेने	-9.9799
▁आपोआप	-9.98031
▁सर्वेक्षण	-9.98032
ll	-9.98086
▁शेत	-9.98127
▁चुका	-9.98156
93	-9.98172
▁समजले	-9.98222
▁मेरी	-9.98262
▁शहा	-9.9834
▁कायदे	-9.9836
▁संशोधक	-9.98362
▁विरोधात	-9.98414
▁खाणार	-9.98471
▁पळून	-9.985
▁प्रांत	-9.98501
▁आरोपी	-9.98503
▁मेच्यूर	-9.98611
डू	-9.98614
▁प्रेमात	-9.98637
▁रॉ	-9.98768
▁अपेक्षित	-9.98819
ess	-9.98869
▁देशांमध्ये	-9.98879
▁जागी	-9.98879
▁शारीरिक	-9.98944
▁लोकशाही	-9.98947
▁प्रेक्षक	-9.98948
▁जर्मन	-9.98956
▁गोंधळ	-9.99028
▁अर्पण	-9.99033
क्षे	-9.99059
art	-9.99069
da	-9.99069
्रे	-9.99073
माल	-9.99109
▁आकर्षक	-9.99111
▁तिसऱ्या	-9.99195
▁भागीदार	-9.99206
▁स्क्रीन	-9.99236
▁वृद्ध	-9.99265
▁शेवटचा	-9.99383
▁विरुद्ध	-9.99404
▁बोलणे	-9.99437
▁एकमेव	-9.99456
▁(4	-9.99486
▁इस्लाम	-9.99578
▁वेदना	-9.99582
▁इथेच	-9.99605
▁बसून	-9.99699
▁आभार	-9.99703
▁व्हायला	-9.99705
lu	-9.99779
▁अगोदर	-9.998
▁कॅनडा	-9.99824
गल	-9.9984
▁जास्तीत	-9.9984
▁करणं	-9.99863
िता	-9.99936
▁अन्यथा	-9.99945
▁घ्यावी	-9.99975
▁विकिपीडिया	-10.0003
▁सूत्र	-10.0009
▁गर्दी	-10.0012
▁ठर	-10.0022
वणार	-10.0027
हित	-10.003
▁यंदा	-10.0034
▁तक्रार	-10.0034
ाहेत	-10.0034
▁कव्हर	-10.0035
क्‍त	-10.0038
▁(5	-10.0043
▁स्टेशन	-10.0045
▁हवामान	-10.0048
▁विषयावर	-10.0048
▁कोरिया	-10.0053
▁ट्रॅक	-10.0053
▁पंप	-10.0054
▁असावी	-10.0059
▁व्यापारी	-10.006
▁राष्ट्रवादी	-10.0062
क्षम	-10.0063
▁व्याख्या	-10.0072
▁कं	-10.0073
▁समजू	-10.0075
▁फायबर	-10.0075
▁मर्यादित	-10.0079
▁मूर्ती	-10.0089
▁गळ	-10.0092
ल्ला	-10.0095
▁केल्यास	-10.0097
▁मालमत्ता	-10.0101
▁प्रमाणे	-10.0102
▁जतन	-10.0102
▁सापड	-10.0103
▁लिंक	-10.0118
मार	-10.0118
▁केंद्रित	-10.0123
Z	-10.0124
▁शास्त्र	-10.0129
▁उत्सव	-10.0131
▁सभा	-10.0134
▁x	-10.014
▁साचा	-10.0142
ाव्या	-10.0143
▁४०	-10.0145
ण्यापूर्वी	-10.0145
ांनो	-10.0146
ight	-10.015
▁चोरी	-10.0151
▁वाज	-10.0154
▁खुश	-10.0156
▁असल्यामुळे	-10.0157
▁चिन्ह	-10.0158
स्ती	-10.0168
िं	-10.0173
▁ऑर्डर	-10.0173
▁शिष्य	-10.0174
▁हवेत	-10.0181
दैव	-10.0194
ag	-10.0201
▁थोडक्यात	-10.0208
marathi	-10.0208
फर	-10.021
▁बँके	-10.0215
एच	-10.0216
▁यहूदी	-10.0217
▁गुलाम	-10.0218
प्ट	-10.0237
▁गप्पा	-10.0239
ांबद्दल	-10.0245
▁वारंवार	-10.0255
▁श्वास	-10.0255
ide	-10.0257
▁भगवान	-10.026
ट्ट	-10.0263
▁मुख	-10.0264
्यांचा	-10.0267
ंगी	-10.0269
▁सहकारी	-10.027
▁संभाव्य	-10.0272
▁नावाने	-10.0273
▁बोलण्या	-10.0274
▁जुनी	-10.0277
oo	-10.0278
ल्फ	-10.0279
▁लढत	-10.0282
▁युवा	-10.0285
▁वर्षांच्या	-10.0293
▁गोड	-10.0294
▁मूलभूत	-10.0295
▁अन्	-10.0301
▁जंगल	-10.0302
▁एवढी	-10.0303
▁प्रकाशन	-10.0304
84	-10.031
▁ध्यान	-10.031
▁इराण	-10.031
वेल	-10.0317
▁गॅ	-10.0318
ाइम	-10.032
▁एवढे	-10.0321
▁येणे	-10.0322
▁आलेली	-10.0328
▁घटने	-10.0328
▁रोम	-10.0331
mp	-10.0332
fi	-10.0333
कुमार	-10.0335
▁टाकले	-10.0337
क्षित	-10.0341
▁दिसणार	-10.0342
▁मुदत	-10.0343
काही	-10.0343
▁विशेषतः	-10.0348
ांतर	-10.035
वाणी	-10.035
ॅप	-10.0351
▁त्यांच्याशी	-10.0354
▁वयाच्या	-10.036
▁ज्यात	-10.0361
▁चांगलं	-10.0364
▁चेक	-10.0371
▁घरे	-10.0375
▁नियंत्रित	-10.0377
▁पिता	-10.0379
▁२४	-10.0384
किंग	-10.0385
▁मर्यादा	-10.0386
▁चो	-10.0392
▁ठेवणे	-10.0393
▁कुत्र्या	-10.0403
ल्याने	-10.0411
▁महिले	-10.0413
▁लोकांचे	-10.0413
▁दोघे	-10.0416
्टर	-10.0416
▁वाचत	-10.0417
टि	-10.0427
▁राजधानी	-10.0429
पार	-10.043
ell	-10.0436
▁शांतता	-10.0439
▁सर्वांत	-10.0439
▁भिंती	-10.0444
▁अडक	-10.0446
▁वैज्ञानिक	-10.0447
ोद	-10.0447
▁शिकार	-10.0448
▁वेगळ्या	-10.0453
▁जाळ	-10.0457
▁रम	-10.0458
▁मुलांसाठी	-10.0459
▁नव्याने	-10.046
▁संग्रह	-10.0462
▁फी	-10.0464
▁घेण्या	-10.0477
▁परंपरा	-10.0478
दोन	-10.0489
▁पै	-10.0489
ॉक	-10.05
▁उर	-10.05
ाइन	-10.0507
▁प्रोफाइल	-10.0509
▁प्रमाणावर	-10.0516
ग्ल	-10.0519
▁जु	-10.0523
▁पाईप	-10.0531
घे	-10.0535
ga	-10.0537
▁स्नायू	-10.054
▁ताण	-10.054
▁प्राण	-10.0543
प्ला	-10.055
वलं	-10.0552
▁शस्त्र	-10.0552
ty	-10.0554
▁संकेत	-10.0562
▁टॉ	-10.0568
शु	-10.0573
▁सेवक	-10.058
▁आजवर	-10.0582
▁विन	-10.0586
▁गणित	-10.0586
▁उस	-10.0588
▁यापूर्वी	-10.059
▁भांड	-10.0592
▁पोलिसांनी	-10.0594
▁पडली	-10.0597
▁शिर	-10.0598
▁टाय	-10.06
▁एवढा	-10.0602
ai	-10.0602
ाद्वारे	-10.0603
▁सर्वांनी	-10.0604
अभिवादन	-10.062
▁देईन	-10.0621
आधी	-10.0623
ian	-10.0627
▁सजावट	-10.0629
▁जखमी	-10.063
▁फाईल	-10.063
छ	-10.0632
प्रे	-10.0633
▁कहाणी	-10.0634
▁व्हि	-10.0638
▁कचरा	-10.0639
▁विरोधक	-10.064
वड	-10.0663
▁आईला	-10.0669
▁वाचायला	-10.0671
▁तोपर्यंत	-10.0672
ेश्वर	-10.0673
▁तुमचं	-10.0674
▁कुठेतरी	-10.0674
▁परिषदे	-10.0675
▁भिन्न	-10.0675
धान	-10.0676
▁वर्तमान	-10.0687
▁रेकॉर्ड	-10.0688
▁पाहायला	-10.069
▁खोल	-10.0691
▁पदवी	-10.0693
▁दशलक्ष	-10.0701
▁प्रवासी	-10.0705
▁ः	-10.0709
ुरी	-10.071
▁निराश	-10.0711
▁वर्षांनी	-10.0717
▁सामील	-10.0719
कार्य	-10.0727
िस्ट	-10.0728
▁अट	-10.0731
▁उद्	-10.0736
रक्षक	-10.0742
▁बघू	-10.0748
▁गुरू	-10.0751
▁आश्चर्यकारक	-10.0752
▁रॅ	-10.0754
भूत	-10.0754
ुष	-10.0758
▁पाहिलं	-10.076
▁जाण्यासाठी	-10.0763
▁जोडले	-10.0768
िक्स	-10.077
▁सत्ते	-10.0771
ka	-10.0772
▁इटली	-10.0774
▁योगदान	-10.0784
▁प्रतीक्षा	-10.0793
ग्राम	-10.0795
मराठ	-10.08
मिन	-10.08
▁विशेषत	-10.0811
▁दाब	-10.0814
भाग	-10.0815
▁मिळतात	-10.0815
▁समाप्त	-10.0829
ांबरोबर	-10.083
▁ma	-10.0831
ाईन	-10.0831
▁ठाकरे	-10.0833
▁त्वरित	-10.0833
▁चेंडू	-10.0838
फ्रे	-10.0839
▁केव्हा	-10.0842
जु	-10.0842
▁मिळून	-10.0844
▁बॅक	-10.0844
ॉक्स	-10.0851
▁पहिल्यांदाच	-10.0854
झी	-10.0856
▁दया	-10.0856
ंचं	-10.0857
ep	-10.0857
▁तशी	-10.0859
▁फुट	-10.086
▁पुटपुटत	-10.0861
act	-10.0862
▁शेतकऱ्यांना	-10.0867
▁प्रगत	-10.0867
फाय	-10.0868
▁सहभाग	-10.0868
fe	-10.0868
▁दिलं	-10.0879
▁कोठे	-10.0888
▁नमुना	-10.0888
▁सेकंद	-10.0893
▁वाचता	-10.0899
िटी	-10.091
▁पाऊल	-10.0921
▁ठेवतो	-10.0925
▁अंडी	-10.0926
वाडी	-10.0927
ऱ्हाम	-10.0935
▁लप	-10.0939
od	-10.0939
▁निर्यात	-10.0941
▁शैली	-10.0944
▁वंश	-10.0945
▁पॉ	-10.0946
▁फ्र	-10.0948
▁दल	-10.095
▁कर्मचाऱ्यां	-10.0953
र्ब	-10.096
▁त्यांचं	-10.0964
▁पाहण्यासाठी	-10.0976
▁बंदी	-10.0977
go	-10.0981
▁मैदान	-10.0982
▁अज	-10.0984
डिया	-10.0987
▁पू	-10.0993
भोवती	-10.0997
ee	-10.1009
day	-10.1011
▁वाघ	-10.1015
ुल	-10.102
▁कळले	-10.1022
▁दरवर्षी	-10.1032
▁शिफारस	-10.1032
▁जन्माला	-10.1033
▁(10	-10.1035
▁गुंत	-10.1036
▁100%	-10.104
▁प्रोत्साहन	-10.1046
▁वापरत	-10.1047
▁सुखी	-10.1054
▁फिल्म	-10.106
ेकर	-10.1065
▁किशोर	-10.1066
ग्रस्त	-10.1066
tt	-10.1067
▁प्रदर्शित	-10.1069
▁500	-10.1076
▁कार्यकर्त्यां	-10.108
ub	-10.1087
▁बुद्ध	-10.1092
▁सब	-10.1094
▁स्वतःच	-10.1096
▁प्रामाणिक	-10.1098
min	-10.1098
▁लढा	-10.1099
वेळा	-10.1102
वण	-10.1102
▁जाण्याची	-10.1104
▁वळ	-10.1106
▁दादा	-10.1107
▁मालकी	-10.1109
▁अनुकूल	-10.1112
▁पासपोर्ट	-10.1112
्याने	-10.1118
ass	-10.1121
▁बाद	-10.1121
▁बारा	-10.1129
▁भय	-10.113
▁सेल	-10.113
▁शुक्रवारी	-10.1132
▁ओरड	-10.1132
▁शांती	-10.1137
▁रोजगार	-10.1143
शाही	-10.1143
▁तंत्र	-10.1149
▁बाळग	-10.1154
▁2012	-10.1157
▁लॅ	-10.1157
▁कुठल्याही	-10.116
▁आवडतं	-10.1161
▁चालले	-10.1163
प्रा	-10.1163
▁कसोटी	-10.1164
▁बोलला	-10.1168
▁मिल	-10.1169
िव्ह	-10.1176
ायचो	-10.1178
ध्य	-10.118
▁Pro	-10.1182
▁पडतो	-10.1182
▁शीर्ष	-10.1187
ance	-10.1192
▁सोने	-10.1194
▁बाग	-10.1196
▁स्टेनलेस	-10.1197
सलाम	-10.12
▁जळ	-10.1202
फी	-10.121
▁स्वभाव	-10.121
▁मिसर	-10.1211
▁निरीक्षण	-10.1211
▁काढला	-10.1225
▁दिवसांनी	-10.1227
▁निवडले	-10.1228
बाई	-10.1231
▁आठवणी	-10.1232
ast	-10.1234
▁मासिक	-10.1237
pa	-10.1238
▁मिमी	-10.124
ak	-10.1241
▁मंजूर	-10.1244
tra	-10.1247
भे	-10.1262
▁हिंदी	-10.1263
ob	-10.1267
धारक	-10.127
▁ऐकत	-10.1277
▁नेत्यां	-10.1277
▁रहस्य	-10.1278
▁मेल	-10.1284
▁मुळात	-10.1285
▁गाणे	-10.1285
▁छोटे	-10.1287
▁त्वचा	-10.129
पूर्वक	-10.129
▁धीर	-10.1293
▁गरजेचे	-10.1298
र्ध	-10.1298
▁लु	-10.1302
▁क्रीडा	-10.1303
शिवसेने	-10.1307
▁शक्तिशाली	-10.1311
▁किलोमीटर	-10.1321
▁अनंत	-10.1323
▁हॉट	-10.1324
cl	-10.1325
▁En	-10.1327
▁वसंत	-10.1327
▁मुसलमान	-10.1331
83	-10.1332
▁चक्र	-10.1337
▁तिसरा	-10.134
लिक	-10.1347
सेस	-10.1356
कर्त्या	-10.1358
फो	-10.1358
▁येणाऱ्या	-10.1358
▁मै	-10.1363
कडील	-10.1365
73	-10.1368
▁अपमान	-10.1369
▁सोय	-10.137
▁बोलता	-10.1371
▁सां	-10.1374
▁चुकीच्या	-10.1374
▁दिलेली	-10.1378
ब्ल	-10.1382
▁मिश्रण	-10.1382
▁पुन	-10.1384
▁भो	-10.1392
मंत्री	-10.1393
▁एशियन	-10.1395
▁मेहनत	-10.1403
▁मेंदू	-10.1404
▁अमेरिकेच्या	-10.1406
्रो	-10.1409
▁चु	-10.141
▁वेड	-10.1412
वाढ	-10.1414
▁खान	-10.1415
ांतील	-10.142
▁मुलांच्या	-10.1424
▁टोक	-10.1426
hy	-10.1432
▁बर्याच	-10.1437
▁ग्लास	-10.1445
▁बसले	-10.1445
▁झाल्यास	-10.1447
▁वाटे	-10.145
▁Se	-10.1454
▁सांस्कृतिक	-10.1456
▁आमच्याशी	-10.1458
▁प्रभू	-10.146
▁शकतील	-10.146
▁आम्हा	-10.1461
ॉप	-10.1462
▁मॅन	-10.1469
▁con	-10.1482
▁घट	-10.1484
▁गड	-10.1491
▁अपवाद	-10.15
▁कष्ट	-10.15
▁दशक	-10.1501
▁वयात	-10.1502
पक्ष	-10.1505
Q	-10.1506
▁महाराष्ट्रात	-10.1506
▁डाव	-10.1511
वती	-10.1513
▁दिसले	-10.152
▁Sh	-10.1523
www	-10.1525
▁स्पर्श	-10.1525
▁भेटायला	-10.1525
▁फु	-10.1529
▁हस्त	-10.1531
▁(12	-10.1534
▁चालणार	-10.1538
काल	-10.154
▁तेव्हापासून	-10.1542
▁भारताच्या	-10.1549
▁निवडणुका	-10.155
▁शिकत	-10.1552
▁छायाचित्र	-10.1554
▁Ro	-10.1555
▁फेक	-10.1558
▁परिषद	-10.1561
▁आस	-10.1567
▁90	-10.1567
▁गंध	-10.1571
▁बोलताना	-10.1572
▁सिटी	-10.1585
▁लिफ्ट	-10.1591
▁देखभाल	-10.1594
▁गे	-10.1597
▁संध्याकाळी	-10.16
▁दातृत्व	-10.1609
▁उपकरण	-10.1622
▁साधक	-10.1622
मुक्त	-10.1623
▁सहसा	-10.1627
▁वेगळं	-10.1628
▁मुंबईत	-10.1629
▁देवाचा	-10.1629
ानु	-10.1633
▁जागे	-10.1635
▁खासदार	-10.1637
संघ	-10.1647
▁ठाऊक	-10.1648
▁राहुल	-10.1649
▁परमेश्वराच्या	-10.165
▁(6	-10.1652
▁मुद्दे	-10.1653
▁निवडणुकी	-10.1657
▁नेमके	-10.1662
▁हॉस्पिटल	-10.1663
end	-10.1664
▁अंश	-10.1665
▁निधन	-10.1668
log	-10.1689
्याचा	-10.169
लँड	-10.1694
हन	-10.1694
▁दंड	-10.1698
▁पुण्य	-10.1698
ढे	-10.17
दायक	-10.1702
▁झडप	-10.1709
▁मध्यम	-10.1712
ांमधील	-10.1712
टिक	-10.1723
▁पाण्यात	-10.1726
av	-10.1727
ांपर्यंत	-10.1728
▁जॅक	-10.1728
ंपासून	-10.1731
▁बौद्ध	-10.1733
▁लंडन	-10.1733
▁लावले	-10.1735
र्च	-10.1745
▁टिप्पण्या	-10.1748
▁रस्ते	-10.1748
▁पांढरा	-10.1758
▁आपणास	-10.1758
▁साइड	-10.1759
▁लावून	-10.1766
▁जेणेकरून	-10.1768
▁राहून	-10.1769
▁धावा	-10.1769
▁जाहिराती	-10.1772
▁होणारे	-10.1777
▁देशाची	-10.1778
▁गुणवंतांच्या	-10.1783
▁व्यक्ति	-10.1783
स्थिती	-10.1791
▁पाठविले	-10.1797
▁कलम	-10.1798
▁फेरी	-10.1803
▁ब्रँड	-10.1805
▁चूचे	-10.1814
▁टिपा	-10.1817
▁सौंदर्य	-10.1819
▁वनस्पती	-10.1829
▁नसले	-10.1829
प्रति	-10.1832
म्ब	-10.1833
क्षेत्र	-10.1835
▁भरले	-10.1835
क्टर	-10.1838
श्री	-10.1839
▁०	-10.1845
▁दुष्ट	-10.1845
ba	-10.1852
▁मस्त	-10.1853
▁लिहून	-10.1853
▁35	-10.1856
▁कडून	-10.186
▁महिलांना	-10.1867
▁उन्हाळ्यात	-10.1874
▁सुरूवात	-10.1879
▁गुन्हेगार	-10.188
▁अॅल्युमिनियम	-10.1885
▁वास	-10.1889
▁परीक्षे	-10.1891
▁आव	-10.1893
▁प्रतिनिधी	-10.19
▁मुस्लिम	-10.1905
wa	-10.1916
ld	-10.1922
ताई	-10.1926
▁Li	-10.1927
▁Post	-10.1927
जू	-10.1929
▁आजपर्यंत	-10.193
▁धक्का	-10.193
▁बॅटरी	-10.193
tic	-10.1932
ster	-10.1935
ya	-10.1936
▁करण्यापूर्वी	-10.1938
▁मतदारसंघ	-10.1941
▁याशिवाय	-10.1942
साक्ष	-10.1945
▁घातले	-10.1946
राष्ट्र	-10.1948
0,000	-10.1957
र्जी	-10.1961
▁32	-10.1965
▁दर्जाचे	-10.1965
▁Lo	-10.1967
▁शोधण्यासाठी	-10.1969
▁कित्येक	-10.1971
▁ख्रिश्चन	-10.1971
▁परदेशी	-10.1971
▁अपराध	-10.1972
▁बराच	-10.1972
out	-10.1973
▁प्राण्यां	-10.1973
▁अंध	-10.1977
▁स्वामी	-10.1977
▁सुट्टी	-10.199
बोल	-10.199
▁कोणीच	-10.1992
▁प्लॅस्टिक	-10.1992
▁(7	-10.1994
पूर्व	-10.1994
iv	-10.1996
दायी	-10.1998
ंपैकी	-10.1999
स्को	-10.2
▁आवडतो	-10.2008
IN	-10.2008
▁नवे	-10.2008
पती	-10.2016
▁निवास	-10.2019
▁तितके	-10.2023
▁विधानसभा	-10.2028
▁तुमच्यावर	-10.203
हेही	-10.2039
▁शकलो	-10.2045
▁करेन	-10.2049
▁रोड	-10.2054
▁ग्	-10.2054
कथा	-10.2054
▁रेडिओ	-10.2055
▁पाहतो	-10.2056
▁ऑटो	-10.2057
-3	-10.2057
म्ह	-10.2062
स्टो	-10.2068
ash	-10.2072
▁त्रि	-10.2074
mi	-10.2074
धू	-10.2075
▁जायचं	-10.2076
▁बलात्कार	-10.208
▁स्टॅ	-10.2085
▁सॉ	-10.2091
▁सकाळ	-10.2094
▁आत्म्या	-10.2094
▁अभिवादनाला	-10.2095
दो	-10.2099
आपल्या	-10.21
▁स्पॅनिश	-10.2106
यकुम	-10.2106
▁स्थापित	-10.2117
▁तेवढे	-10.2121
मार्ग	-10.2122
्झ	-10.2126
पान	-10.2126
ind	-10.2127
▁स्थित	-10.2131
▁परिवार	-10.2135
▁सदैव	-10.2138
णार्‍या	-10.2139
▁घ्याल	-10.2144
▁ठेवण्यात	-10.2145
▁दारू	-10.2156
▁चाक	-10.2156
▁बुड	-10.2157
▁स्वा	-10.2157
डब्ल्यू	-10.2158
▁मार्क	-10.2158
▁छाप	-10.216
▁अभिनय	-10.2163
▁जनावर	-10.2168
▁२१	-10.2169
▁सानुकूल	-10.2171
ळू	-10.2173
▁जगभरातील	-10.2174
▁चित्रे	-10.2174
▁वाजव	-10.2181
▁खायला	-10.2181
▁ठरवले	-10.2186
ोट	-10.2188
▁पोर्ट	-10.2189
▁खासगी	-10.219
ys	-10.2193
▁यायला	-10.2194
▁व्हावे	-10.2198
▁त्याचबरोबर	-10.2201
छा	-10.2201
▁ग्रा	-10.2203
▁बाई	-10.2209
▁परिणामी	-10.2215
त्ते	-10.2215
विषयक	-10.2218
▁त्याप्रमाणे	-10.222
▁कुर	-10.2238
▁जप	-10.2241
▁क्रिया	-10.2241
▁रोल	-10.2241
▁दरवाजे	-10.2242
▁गर्भ	-10.2244
िज	-10.2245
▁su	-10.2248
▁खाण्या	-10.2249
▁रेड	-10.2253
▁स्थितीत	-10.2255
▁जोर	-10.2262
▁सांगण्यात	-10.2263
▁विष	-10.2269
▁45	-10.2272
▁आसपास	-10.2274
▁प्रतिबंध	-10.2274
▁देशाला	-10.2279
▁कॉम	-10.2279
▁सुरक्षे	-10.2284
▁कोरियन	-10.2287
▁नोट	-10.2289
▁बोलले	-10.2295
▁उत्सुक	-10.2298
ष्क	-10.2299
णूक	-10.2306
▁सगळा	-10.2307
▁होणाऱ्या	-10.2324
▁प्राधान्य	-10.2326
▁घालून	-10.2334
▁सदर	-10.2342
▁भौतिक	-10.2342
ज्या	-10.2346
▁वर्षांनंतर	-10.2347
बोध	-10.2354
वै	-10.2355
bi	-10.2356
ाबरोबर	-10.2358
▁घन	-10.2359
ांतून	-10.236
▁sh	-10.2361
ens	-10.2362
▁आमच्यासाठी	-10.2367
▁तसंच	-10.2369
▁कृषी	-10.2369
▁हरकत	-10.237
भारत	-10.2372
▁विदेशी	-10.2374
प्पा	-10.2379
निमित्त	-10.238
▁दिलेला	-10.2383
▁शोधू	-10.2384
▁लिंग	-10.2385
▁कुमार	-10.2385
si	-10.2386
▁धातू	-10.2393
▁pro	-10.2394
=	-10.2396
▁नवा	-10.2398
▁वर्षाच्या	-10.24
▁गमाव	-10.2403
▁खिडकी	-10.2406
▁टॅग	-10.2407
▁लाज	-10.2409
वीर	-10.2417
▁पाक	-10.2418
।	-10.2421
▁जगभरात	-10.2421
▁टीका	-10.2421
▁इतरांना	-10.2421
▁कारखाने	-10.2428
▁खात्या	-10.2438
▁येत्या	-10.2447
▁मिळवून	-10.2449
भार	-10.245
▁पृष्ठभाग	-10.2456
▁टा	-10.2457
▁म्हणाल्या	-10.2462
▁जेट	-10.2469
▁संख्ये	-10.2471
▁India	-10.2476
▁बोर्ड	-10.2477
▁खुप	-10.248
▁अवघड	-10.2482
▁सत्	-10.2483
ल्ली	-10.2488
दारी	-10.2489
▁मनो	-10.2494
▁लोकांसाठी	-10.2494
▁एक्सएनयूएमएक्स	-10.2507
▁इलेक्ट्रिक	-10.2509
▁पोह	-10.2513
क्षक	-10.2513
विध	-10.2514
▁एवढेच	-10.2519
▁अण्णा	-10.252
ear	-10.2522
▁बाह्य	-10.2525
▁समृद्ध	-10.253
▁म्हणायचे	-10.2536
▁पीसी	-10.254
▁आदिवासी	-10.2541
▁आढळले	-10.2542
वर्ग	-10.2544
▁शरीरात	-10.2545
▁प्रौढ	-10.2547
▁प्रतिष्ठा	-10.2557
▁चरबी	-10.2558
बाब	-10.2558
▁सराव	-10.2559
▁खाच	-10.2562
▁म्हणे	-10.2562
▁इंजेक्शन	-10.2563
▁हलव	-10.2567
▁गर्भवती	-10.2569
▁मार्केट	-10.2572
▁महत्वाचा	-10.2572
ेपर्यंत	-10.2576
▁so	-10.2576
▁समूह	-10.2579
▁बर	-10.2584
▁do	-10.2584
▁गोळी	-10.2584
▁पुस्तकात	-10.2589
▁ज्येष्ठ	-10.259
धर्म	-10.2595
▁साफ	-10.2599
▁मांस	-10.26
ick	-10.2601
ेक्ट	-10.2602
▁सामने	-10.2603
संबंध	-10.2609
▁दान	-10.2609
▁ट्यूब	-10.2612
▁बघून	-10.2614
▁गायन	-10.2618
▁खरेच	-10.2621
▁घेते	-10.2621
sa	-10.2621
▁अंतर्	-10.2639
▁लावला	-10.2641
क्रि	-10.2642
वतो	-10.2643
▁सरकारला	-10.2643
▁मित्रांनो	-10.2644
▁मस्क	-10.2645
▁आयोग	-10.2647
▁निर	-10.2648
▁येतं	-10.2648
टोन	-10.2653
▁बांधले	-10.2656
▁समजा	-10.2656
▁धार	-10.2657
▁आवश्‍यक	-10.2661
▁दृष्टिकोन	-10.2661
दिन	-10.2661
▁विंडोज	-10.2663
षण	-10.2664
▁बाबी	-10.2668
▁आल्यावर	-10.267
▁परिचय	-10.2673
▁05	-10.2681
▁सॅ	-10.2685
▁पसंती	-10.2688
▁Be	-10.2691
▁नो	-10.2692
▁हिंदु	-10.2692
▁खोटे	-10.2694
▁ज्यांनी	-10.2696
वरुन	-10.2699
कृती	-10.2702
▁दिसेल	-10.271
ाजवळ	-10.2714
▁संदर्भात	-10.2714
▁नकारात्मक	-10.2718
▁सोडले	-10.272
ट्र	-10.2723
्याचे	-10.2723
▁ट्र	-10.2725
▁दो	-10.2726
वणी	-10.2726
▁फूट	-10.2729
▁अन्याय	-10.2733
▁पाहिली	-10.2745
▁बोलतात	-10.2746
▁आंतर	-10.2746
ical	-10.2749
ाइल	-10.275
▁Ad	-10.2755
▁80	-10.2758
pl	-10.2762
▁Me	-10.2765
▁वेगवेगळे	-10.2766
▁रूपांतर	-10.2768
▁साक्ष	-10.2769
ting	-10.2772
▁मानतो	-10.2776
▁दोघांनी	-10.2777
▁धमकी	-10.2778
ser	-10.2778
▁साम्राज्य	-10.2783
://	-10.2783
au	-10.2788
▁ब्रा	-10.279
▁कौतुक	-10.2794
ॅग	-10.2799
▁बोलणार	-10.2799
▁गॅस	-10.2799
ज्	-10.2804
शो	-10.2804
▁पॅकेज	-10.2805
▁सांगितली	-10.2805
▁सिंह	-10.2809
▁वापरकर्ता	-10.2811
▁एड	-10.2813
▁घ्यावा	-10.2814
▁वर्षाचा	-10.282
▁लाखो	-10.2823
▁पित्या	-10.2823
▁त्यामुळं	-10.2827
▁मिळविण्यासाठी	-10.2829
▁अर्थातच	-10.283
▁संविधान	-10.2831
ace	-10.2839
▁सापडले	-10.2843
साहेब	-10.2843
ण्ड	-10.2844
▁बहुधा	-10.2847
▁अर्	-10.2849
▁सोपा	-10.285
tu	-10.2852
▁एकटे	-10.2856
eng	-10.2856
▁महत्वाची	-10.2859
कल्प	-10.286
कारी	-10.2861
राज्य	-10.2867
▁तारखे	-10.2868
▁पकडले	-10.2876
▁मात	-10.2877
▁आत्मविश्वास	-10.2878
▁ताब्यात	-10.2878
▁कृष्ण	-10.2879
▁२२	-10.2881
▁नीट	-10.2882
▁आग्रह	-10.2888
▁येथून	-10.2889
▁We	-10.2893
▁You	-10.2897
▁पेट	-10.2898
▁रिअल	-10.2906
▁चरण	-10.2916
ंकडे	-10.292
▁राहण्या	-10.2921
जीव	-10.2923
▁माझ्याशी	-10.2926
▁माहितीसाठी	-10.2926
▁किंमती	-10.2926
2004	-10.2929
▁अनेकांना	-10.2929
▁सभे	-10.293
ूट	-10.2943
▁दुरुस्ती	-10.2944
टेल	-10.2947
▁मृत्यु	-10.295
▁समाजात	-10.295
झि	-10.2952
▁दोघांना	-10.2953
▁अँ	-10.2958
क्यू	-10.2962
▁आरंभ	-10.2963
▁जुना	-10.2966
▁वाटू	-10.2967
▁तत्व	-10.2968
▁आठवडे	-10.2968
▁हसत	-10.2975
▁वाटा	-10.2975
▁बरं	-10.2984
▁अॅप	-10.299
लाइन	-10.2994
▁काढा	-10.3001
ud	-10.3002
▁शनिवारी	-10.3003
▁कनेक्ट	-10.3003
ख्या	-10.3008
ोलोन	-10.3009
▁आशिया	-10.3009
▁नागरिकांना	-10.3012
tor	-10.3025
▁तणाव	-10.3025
▁बहीण	-10.3027
▁सुसंगत	-10.3031
▁भ्रष्टाचार	-10.3031
▁पेर	-10.3032
ook	-10.3033
▁Marathi	-10.3037
▁वाढली	-10.3038
▁व्यस्त	-10.304
▁सर्व्हर	-10.3044
▁धारण	-10.3044
▁कुठल्या	-10.3046
port	-10.3049
▁कार्यकर्ते	-10.3056
्यांचे	-10.3057
▁ठेवण्यासाठी	-10.3062
▁अर्थव्यवस्था	-10.3068
▁लिहिण्या	-10.3068
▁Read	-10.3075
▁लिहिता	-10.3077
गळ	-10.3079
▁तसाच	-10.3081
▁ख्रिस्ती	-10.3081
▁पातळीवर	-10.3083
▁ऐका	-10.3087
▁स्मरण	-10.3088
les	-10.3092
▁ब्रेक	-10.3094
▁मुलीला	-10.3098
▁अरब	-10.3103
ins	-10.3105
▁प्रदूषण	-10.3105
मुख	-10.3115
▁अर्धा	-10.3116
▁कार्यक्षमता	-10.312
▁se	-10.312
▁स्तर	-10.3122
ार्थी	-10.3123
▁यूएस	-10.3125
▁संशय	-10.3128
▁व्यक्तीला	-10.3129
son	-10.3131
▁मुलांची	-10.3131
▁बर्फ	-10.3132
▁वर्षां	-10.3138
▁हळूहळू	-10.314
स्टी	-10.314
झर	-10.314
ik	-10.314
▁आयात	-10.3142
संदर्भात	-10.3145
▁कडक	-10.3145
▁टन	-10.3146
▁अभिनेत्री	-10.3151
▁बाटली	-10.3151
▁कटिंग	-10.3154
ांश	-10.3154
▁क्षणी	-10.3157
म्हणजे	-10.3161
▁देवदूत	-10.3163
▁लोकसभे	-10.3169
▁स्वयं	-10.3169
▁यावे	-10.317
ावं	-10.3172
▁घराण्या	-10.3173
▁वाढले	-10.3173
▁आठवडा	-10.3175
▁स्त्रियांना	-10.318
app	-10.318
▁असल्याची	-10.3184
▁परा	-10.3186
▁त्रुटी	-10.3186
▁मंगळवारी	-10.319
ame	-10.3193
▁रागाव	-10.3196
▁परिसर	-10.3197
त्मक	-10.3197
▁सुर	-10.3201
▁बघतो	-10.3202
बॉल	-10.3203
▁देह	-10.3204
▁दुरुस्त	-10.3205
▁दिलेले	-10.3206
han	-10.3207
▁हॉल	-10.3211
करता	-10.3216
▁दत्त	-10.322
▁श्रेष्ठ	-10.3221
▁संप्रेरक	-10.3221
भी	-10.3223
▁पास	-10.3223
▁पर्यटन	-10.3227
ence	-10.3229
▁तारे	-10.3229
▁पाण्याची	-10.323
कर्ता	-10.323
▁सवलत	-10.3233
▁काळी	-10.3234
ish	-10.3236
▁पाठवले	-10.3246
▁सर्वसामान्य	-10.325
▁अत्याचार	-10.3256
▁अधिकाऱ्यां	-10.3268
▁सारख्या	-10.3268
▁इंडिया	-10.3268
▁इंधन	-10.3269
▁वर्गात	-10.3272
▁तेथील	-10.3274
▁सागर	-10.3278
▁इंच	-10.3279
▁पर्यटक	-10.3279
▁मालिके	-10.3281
▁अश्या	-10.3281
द्रा	-10.3282
दरम्यान	-10.3293
ाबाबत	-10.3295
ंबद्दल	-10.3296
▁वेबकॅम	-10.3297
yl	-10.3297
▁सिस्टम	-10.3297
धो	-10.33
▁मिनी	-10.3303
▁श्रद्धा	-10.3303
▁खाण	-10.3304
▁कुत्रा	-10.3309
▁धोकादायक	-10.3309
१९	-10.331
त्ती	-10.331
▁दुसरीकडे	-10.331
▁सर्वोच्च	-10.3314
▁स्रोत	-10.332
ायच्या	-10.332
▁शाखा	-10.3323
ग्रह	-10.3329
▁व्यापक	-10.333
▁थर	-10.3331
▁बनवले	-10.3331
▁70	-10.3332
▁वेळेस	-10.3333
▁लिहित	-10.3336
▁सर्वत्र	-10.3338
▁दाखवून	-10.3342
▁सर्वजण	-10.3342
▁घडली	-10.3344
▁sp	-10.3345
▁भव्य	-10.3346
▁त्यांच्याबरोबर	-10.3346
du	-10.3347
▁ओळखत	-10.3347
▁Al	-10.3348
▁To	-10.335
▁लिखाण	-10.335
▁तज्ञ	-10.3358
▁उभी	-10.3359
▁(11	-10.3361
▁आजकाल	-10.3362
har	-10.3362
▁जरूर	-10.3364
▁घेण्याचा	-10.3369
▁Cl	-10.337
▁गोल	-10.337
रुप	-10.3379
▁सांगितल्या	-10.3379
▁चर्चे	-10.338
▁दहशतवाद	-10.3389
▁स्वच्छता	-10.3389
▁टि	-10.3391
▁वेगाने	-10.3394
▁चिनी	-10.3394
▁भयानक	-10.3397
ासमोर	-10.3401
जीवन	-10.3403
100	-10.3403
our	-10.3414
र्ती	-10.3415
ff	-10.342
▁(13	-10.3425
▁पेय	-10.3427
▁२००	-10.3427
ंगे	-10.3429
ox	-10.3429
▁इलेक्ट्रॉनिक	-10.3432
▁शिकवण	-10.3432
▁अनुदान	-10.3435
▁होण्यास	-10.3437
▁साइटवर	-10.3437
▁त्यानं	-10.3438
ST	-10.3438
▁असती	-10.344
▁बिघड	-10.3444
tr	-10.3451
▁धैर्य	-10.3456
▁चुकीचा	-10.3457
▁चॉकलेट	-10.3462
▁हुशार	-10.3462
▁रासायनिक	-10.3468
ल्ह	-10.3471
▁सोशल	-10.3474
▁बोलायला	-10.3483
▁co	-10.3485
▁स्वर्ग	-10.3485
▁36	-10.3498
▁मध	-10.35
▁साप	-10.3501
▁ch	-10.3504
▁पाठी	-10.3508
▁बालक	-10.3512
▁पॉलि	-10.3518
▁बुद्धी	-10.3525
▁दुष्परिणाम	-10.3528
*	-10.3531
▁स्पष्टपणे	-10.3532
दर्शक	-10.3533
▁अधिकाऱ्या	-10.3538
▁तुट	-10.3538
्द	-10.3539
▁६०	-10.354
▁इतकं	-10.354
▁जगत	-10.3542
▁r	-10.355
▁नावाचा	-10.3558
▁गांडचटाई	-10.3558
▁आफ्रिकन	-10.3558
तुला	-10.3562
gr	-10.357
ाबाहेर	-10.3575
ेंद्र	-10.3575
▁जोरदार	-10.3579
▁चांदी	-10.3583
▁k	-10.3586
▁देण्याचा	-10.3592
▁गैर	-10.3594
सार	-10.3598
▁वेळेवर	-10.3603
▁छोटा	-10.3606
▁डाऊनलोड	-10.3612
▁कळेल	-10.3612
▁निदान	-10.3615
▁असल्याचा	-10.3623
▁फ्लॅट	-10.3625
▁शासकीय	-10.3636
▁हॉ	-10.3644
▁व्याज	-10.3655
▁टाका	-10.3656
▁जड	-10.3657
▁एकदम	-10.3663
▁फलंदाज	-10.3667
सृष्टी	-10.3667
▁Te	-10.3675
▁धान्य	-10.3677
▁पॉवर	-10.3679
थोड	-10.3685
▁त्याचप्रमाणे	-10.3686
▁राष्ट्रपती	-10.3693
▁चालक	-10.3695
▁इंटर	-10.3695
▁इथं	-10.3696
▁अंधार	-10.3696
▁राज्यातील	-10.3702
▁भूक	-10.3703
▁पडणार	-10.3704
▁नेले	-10.3705
सेवा	-10.3706
सीए	-10.3715
▁बघता	-10.3718
▁कादंबरी	-10.3721
▁सोमवारी	-10.3724
▁कोर्ट	-10.3725
▁1000	-10.3725
▁स्त्रोत	-10.3728
▁विसरून	-10.3728
▁कळलं	-10.373
आप	-10.3731
▁केबल	-10.3732
▁साहेब	-10.3735
ाईड	-10.3751
▁नमस्कार	-10.3752
▁पॅंटीस	-10.3758
▁प्रामुख्याने	-10.3758
▁मास्टर	-10.3761
▁यापुढे	-10.3762
▁कृत्य	-10.3764
▁WEB	-10.3764
▁वृत्तपत्र	-10.3765
▁घेण्यास	-10.3768
▁याआधी	-10.377
▁मिळतील	-10.377
▁प्रकट	-10.3771
▁लिहा	-10.3771
▁मिळवू	-10.3774
▁विचारलं	-10.3781
ator	-10.3787
▁कधीतरी	-10.3787
▁खराब	-10.3789
▁वाढवण्या	-10.3791
▁डोळ्या	-10.3792
▁सावध	-10.3797
▁टिप	-10.3797
▁आभारी	-10.3802
AS	-10.3815
▁ठरत	-10.3818
▁येशूने	-10.3818
▁घोषित	-10.382
▁विनोद	-10.3821
▁मंत्रालय	-10.3821
▁दिवा	-10.3823
न्ह	-10.3824
▁आफ्रिका	-10.3826
▁कोसळ	-10.3827
ort	-10.3827
gu	-10.3828
ृष्ट	-10.3833
▁Le	-10.3834
▁नव्हतो	-10.3838
▁ओळ	-10.3842
▁किमी	-10.3845
▁धरण	-10.3846
एसए	-10.3851
ber	-10.3851
क्रो	-10.3851
nd	-10.3854
▁अस्वस्थ	-10.3858
▁बनला	-10.386
ट्रॉ	-10.3862
गुण	-10.3863
बाबा	-10.3864
▁आणून	-10.3864
फु	-10.3869
▁गोपनीयता	-10.3875
धु	-10.3883
ॅक्ट	-10.3884
मग	-10.3899
▁more	-10.3901
▁वापरकर्ते	-10.391
▁खेड	-10.3912
▁लागवड	-10.3915
त्रे	-10.3915
▁प्रोग्राम	-10.3917
▁स्पष्टीकरण	-10.3923
▁फॅ	-10.3924
▁प्रभावित	-10.3931
▁पडू	-10.3931
▁मुळ	-10.3935
▁आकर्षण	-10.3938
▁नाग	-10.3939
▁an	-10.3942
ated	-10.3943
▁स्वरूपात	-10.3943
▁परवाना	-10.3946
▁व्यवस्थापक	-10.395
▁वर्षं	-10.3959
▁रडत	-10.3966
we	-10.3967
▁देशाचे	-10.3969
▁शेवटचे	-10.3978
टेड	-10.3985
500	-10.3992
▁al	-10.3993
▁दिसू	-10.3995
▁वीडियो	-10.4
▁तिकीट	-10.4
▁फसवणूक	-10.4001
▁शास्त्रज्ञ	-10.4007
ंमुळे	-10.401
ood	-10.4011
▁me	-10.4011
▁प्रदेशात	-10.4012
▁भास	-10.4012
▁डिव्हाइस	-10.4013
▁म्हणा	-10.4014
▁मुलींना	-10.4016
▁वाटतंय	-10.4017
▁मार्गाने	-10.4019
ric	-10.4022
▁सगळीकडे	-10.4023
▁अज्ञात	-10.4026
▁चित्रपटात	-10.4026
▁गण	-10.4037
▁मिळालं	-10.4038
▁वेळेत	-10.4048
▁भक्त	-10.4054
▁घरगुती	-10.4057
▁उद्योजक	-10.4057
▁घरातील	-10.406
▁गरजा	-10.4063
▁भारी	-10.4063
▁ऑपरेट	-10.4063
ल्य	-10.4068
▁द्वारा	-10.4078
ron	-10.4085
परि	-10.4087
▁राय	-10.4087
वयास	-10.409
▁2011	-10.4092
▁दोषी	-10.4096
▁(8	-10.4096
▁लाट	-10.4097
▁रबर	-10.4097
▁Su	-10.4098
▁देवता	-10.4099
▁वर्ण	-10.4106
▁घाबरत	-10.411
▁काढता	-10.411
▁Ar	-10.4117
▁दृश्ये	-10.4117
cu	-10.4117
▁देख	-10.4126
▁खातो	-10.4126
▁लागतील	-10.4129
▁स्टे	-10.4139
▁प्लॅटफॉर्म	-10.4139
▁तब्बल	-10.4139
▁युवक	-10.4146
पोर्ट	-10.4148
▁ड्राइव्ह	-10.4152
▁अडचण	-10.4155
form	-10.4163
▁So	-10.4165
Co	-10.4166
▁अधि	-10.4166
उतार	-10.4167
▁जोशी	-10.4171
str	-10.4177
▁एवढ्या	-10.4178
▁वार्षिक	-10.4178
▁विराट	-10.4178
bu	-10.4179
▁बळ	-10.4181
ft	-10.4181
▁ठरला	-10.4184
▁होईपर्यंत	-10.4191
९९	-10.4193
▁अमेरिकेतील	-10.4197
▁घडते	-10.4198
पास	-10.4201
▁सुलभ	-10.421
▁जीएसटी	-10.4211
▁शब्दात	-10.4212
res	-10.4213
▁जमिनीवर	-10.4224
पाय	-10.4232
भूमी	-10.4237
▁पूल	-10.4237
▁गाज	-10.4238
▁सोपी	-10.4244
▁धुवून	-10.4248
▁माजी	-10.4251
▁बेस	-10.426
▁मंदिरात	-10.4261
▁पूरक	-10.4263
ाधिक	-10.4264
▁जातं	-10.4267
▁सरकारच्या	-10.4269
क्षी	-10.4272
▁खाद्य	-10.4276
▁साधारणपणे	-10.428
▁उदाहरणे	-10.4283
▁संपादक	-10.4287
▁साकार	-10.4289
▁कै	-10.4291
▁कक्ष	-10.4292
▁खून	-10.4294
▁हाताने	-10.4294
विद्य	-10.4295
▁संचालक	-10.4296
वयाचे	-10.4296
स्क्र	-10.4297
ब्ब	-10.43
लु	-10.4301
▁पिऊ	-10.4303
▁गर्व	-10.4306
▁उर्वरित	-10.4306
▁ज्याने	-10.4309
▁शिवाजी	-10.4313
▁लक्षणे	-10.4314
▁निघाले	-10.4316
▁आकर्षित	-10.4319
▁तथ्य	-10.432
▁माझ्याबरोबर	-10.4321
फळ	-10.4324
use	-10.4325
▁पुरे	-10.4331
ग्न	-10.4332
▁खत	-10.4332
▁निष्कर्ष	-10.4332
वेद	-10.4333
▁परदेशात	-10.4333
▁पुल	-10.4335
▁असणाऱ्या	-10.4337
ran	-10.4338
▁काढू	-10.434
▁वैध	-10.434
बाजी	-10.4346
▁लष्कर	-10.4348
शिया	-10.435
मंडळ	-10.4351
कॅ	-10.4351
▁आवडता	-10.4352
ज्ज	-10.4356
शांत	-10.4358
▁धूम्रपान	-10.4358
▁हंगाम	-10.4359
वाडा	-10.4359
▁लिहिली	-10.4359
cy	-10.4363
▁सद	-10.4363
▁आर्ट	-10.4365
▁मॅक	-10.437
▁पीक	-10.4371
▁पॅरिस	-10.4372
US	-10.4375
▁आवडले	-10.4376
विण्यासाठी	-10.4379
आमच्या	-10.4383
▁क्लब	-10.4386
▁कौ	-10.4386
▁पुरावा	-10.4389
▁परम	-10.4393
▁सिद्धांत	-10.4395
▁हून	-10.4396
▁पॅकिंग	-10.4399
ग्या	-10.4402
CO	-10.4403
▁बंधन	-10.4404
ID	-10.4404
धर	-10.4404
▁बोललो	-10.4408
▁जिल्ह्या	-10.4408
▁दम	-10.4408
▁निष्	-10.4409
्चर	-10.4414
▁त्याऐवजी	-10.4414
▁नोकर	-10.4416
▁देण्या	-10.4419
▁चव	-10.4419
int	-10.442
▁तुकडे	-10.4422
▁असामान्य	-10.4423
▁टिप्पणी	-10.4424
▁वापरतात	-10.4424
200	-10.4424
▁टाळण्यासाठी	-10.4428
रोग	-10.4429
शिष्ट	-10.443
खु	-10.443
ांमधून	-10.4432
▁करिअर	-10.4434
▁उष्णता	-10.4439
लिया	-10.444
वतात	-10.4451
▁लाइन	-10.4452
▁गाण्या	-10.4455
▁व्यवस्थित	-10.4457
▁दुसर्या	-10.4457
क्व	-10.4463
▁टॉमला	-10.4464
फार	-10.4489
▁निरोप	-10.4491
▁सामान्यतः	-10.4494
स्कर	-10.4495
▁अपयश	-10.4499
▁भरून	-10.4499
▁बॅंक	-10.45
▁काढली	-10.45
▁कल्याण	-10.4504
ice	-10.4505
lan	-10.451
ायचंय	-10.451
▁सज्ज	-10.451
पॅ	-10.4513
▁हार्ड	-10.4519
▁आंबेडकर	-10.4523
▁उघडले	-10.4523
▁उन्हा	-10.4524
▁कार्बन	-10.453
▁अवयव	-10.453
▁अनुसरण	-10.453
▁विश्‍वास	-10.4531
▁आध्यात्मिक	-10.4536
IS	-10.4545
ase	-10.4547
▁नागपूर	-10.455
ंडर	-10.455
RE	-10.455
▁कवी	-10.4551
▁वर्षभर	-10.4555
वायला	-10.4556
▁सुचव	-10.4557
▁खड	-10.4559
▁it	-10.4562
▁युनिट	-10.4563
ina	-10.4564
▁परमेश्वराला	-10.4564
▁वेतन	-10.4565
ट्रिक	-10.4566
अस	-10.4568
खंड	-10.4569
▁लोड	-10.4569
▁(19	-10.4571
▁भाग्य	-10.4571
▁नॅस्टी	-10.4576
▁मार्	-10.4578
▁33	-10.4579
▁वीस	-10.4579
▁जनता	-10.4583
▁आजारी	-10.4587
▁प्रशिक्षक	-10.4589
AR	-10.4589
▁शरद	-10.4589
▁बॉल	-10.4592
sk	-10.4594
▁राष्ट्राध्यक्ष	-10.4597
ल्क	-10.4598
▁सुटका	-10.46
▁द्यावी	-10.4601
बंदी	-10.4602
▁Tag	-10.4602
ach	-10.4603
▁अग	-10.4604
▁बेड	-10.4608
▁बटण	-10.4609
स्फोट	-10.4609
▁ऑफीस	-10.461
▁अर्थव्यवस्थे	-10.461
पीएस	-10.4615
योजन	-10.4616
▁सूट	-10.4622
▁मुख्यपृष्ठ	-10.4623
▁खेळू	-10.4624
ans	-10.4628
▁पोल	-10.4629
▁गुजरात	-10.4629
▁स्थलांतर	-10.4629
low	-10.4629
mb	-10.463
▁जगण्या	-10.4634
▁उरले	-10.4635
▁पाने	-10.4635
▁कोप	-10.4636
▁मुलगे	-10.4637
▁वरिष्ठ	-10.4639
निष्ठ	-10.4641
दृष्ट्या	-10.4643
▁टेप	-10.4648
आई	-10.4649
▁with	-10.4649
▁कोर्स	-10.4651
ल्हा	-10.4654
▁ठराव	-10.4655
▁दृष्टीकोन	-10.4656
▁Vi	-10.4657
-4	-10.4658
▁बाजूने	-10.4666
▁अर्थाने	-10.4671
प्रेम	-10.4673
▁विद्या	-10.4678
विश्व	-10.4681
▁सत्र	-10.4683
▁ताप	-10.4684
▁रविवार	-10.4686
▁स्थानक	-10.4687
▁ago	-10.4692
▁येण्याची	-10.4697
▁अवस्था	-10.4699
▁वगैरे	-10.4703
▁भांडवल	-10.4703
▁बदलून	-10.4706
▁निराकरण	-10.4716
फिक	-10.4718
▁आम्हांला	-10.4723
▁वर्तन	-10.4733
▁त्याच्याशी	-10.4734
▁तिथून	-10.4737
▁परिसरात	-10.4738
▁महत्त्वपूर्ण	-10.4739
▁वळण	-10.4742
▁परस्पर	-10.475
ेटर	-10.4756
▁मंद	-10.4764
मान्य	-10.4765
▁ऐकायला	-10.4765
▁असतांना	-10.477
▁संवेदनशील	-10.4773
▁बाळाला	-10.4775
▁पुण्यात	-10.4776
▁निश्‍चित	-10.4777
▁निक	-10.4779
▁जाणारे	-10.4782
▁वॉल	-10.4783
र्पण	-10.4786
▁लपव	-10.4786
▁तिकडे	-10.4788
ासारखे	-10.4791
pp	-10.4791
▁दीप	-10.4794
▁पॅक	-10.4795
▁लाड	-10.4799
व्यात	-10.4803
2018	-10.4804
▁वापरता	-10.4806
▁स्पर्धे	-10.4815
▁दिवसांपूर्वी	-10.4818
▁जुगार	-10.4819
▁इतकेच	-10.4819
विण्यात	-10.482
ामधील	-10.482
▁चॅनेल	-10.4825
▁परमेश्वराचा	-10.4825
▁हरवले	-10.4827
▁द्रव	-10.4831
▁शोधून	-10.4831
▁भयंकर	-10.4832
▁बंदूक	-10.4833
▁गंमत	-10.4839
▁बिग	-10.4843
▁वेल	-10.4846
▁फेर	-10.4848
▁कैद	-10.4851
▁संकल्प	-10.4852
▁प्रेस	-10.4853
वेग	-10.4854
▁(17	-10.4859
dr	-10.4862
ki	-10.4862
न्ड	-10.4867
▁जाण्याचा	-10.487
▁(9	-10.4877
खोर	-10.4878
▁स्टोअर	-10.488
▁चीनमध्ये	-10.4886
▁स्वयंपाकघर	-10.4888
▁पाहिल्या	-10.4888
▁ओळी	-10.4891
▁सेवानिवृत्त	-10.4894
▁सामान	-10.4894
▁मेटल	-10.4901
▁निराशा	-10.4902
▁कोणाची	-10.4906
ीकृत	-10.4907
▁तिथ	-10.4913
▁बदलली	-10.4914
▁शौल	-10.4915
▁राजे	-10.4915
▁चौकट	-10.4925
▁कण	-10.4925
ib	-10.4926
▁तिथं	-10.4932
▁ग्रीक	-10.4935
▁उपस्थिती	-10.4936
▁जिल्ह्यातील	-10.4938
मिक	-10.4945
्टन	-10.4945
▁Wi	-10.4946
▁युती	-10.4948
▁विसरले	-10.4948
▁सांगण्या	-10.495
▁शेवटची	-10.4951
▁भारताने	-10.4953
▁प्रत्येकजण	-10.4957
यंत्र	-10.4958
विरोधात	-10.4963
आउट	-10.4967
▁कारखान्या	-10.4969
▁Ho	-10.4972
‍	-10.4974
ायत	-10.4974
ct	-10.4976
▁Ex	-10.4977
पुरुष	-10.4978
▁पडतात	-10.4979
▁साधना	-10.4981
▁ग्रामीण	-10.4983
▁इंग्रज	-10.4991
dy	-10.4991
▁यूके	-10.4997
▁तालुक्या	-10.4997
▁रुग्णालयात	-10.4998
ॅक्स	-10.501
स्टार	-10.5013
▁युनायटेड	-10.5018
▁स्तरावर	-10.5018
ठ्ठ	-10.5019
▁युग	-10.5022
▁लस	-10.503
▁वेबसाईट	-10.5032
▁कापड	-10.5032
१०	-10.5032
bl	-10.5034
वडील	-10.5034
▁देशासाठी	-10.5037
▁गुरूवार	-10.5044
▁है	-10.5045
ँग	-10.5045
भव	-10.5048
▁विक्रम	-10.5049
▁राखीव	-10.506
▁पॅकेजिंग	-10.5061
▁sa	-10.5064
स्टि	-10.5067
▁आवाहन	-10.5067
▁वस्तु	-10.5078
ाईल	-10.5079
▁पोहच	-10.508
▁पाहु	-10.5084
▁गोष्टींचा	-10.5087
▁दिसला	-10.5101
▁फोड	-10.5108
▁फर	-10.5109
▁आवडला	-10.511
▁Th	-10.511
tch	-10.5116
▁कंपनीच्या	-10.5116
▁खोटं	-10.5116
ea	-10.5116
ट्रा	-10.5124
▁द्राक्ष	-10.5124
▁निळा	-10.5126
▁साडे	-10.513
▁पेशी	-10.5135
▁वाऱ्या	-10.5136
▁सुगंध	-10.5137
▁उपासना	-10.514
▁घोडे	-10.5143
▁तज्ज्ञ	-10.5143
भारतीय	-10.5144
▁बघितले	-10.5152
▁केल्याने	-10.5155
▁देण्यास	-10.5155
▁राहतील	-10.5158
▁भार	-10.5159
निर्मित	-10.5161
▁पाठवा	-10.5167
ाशिवाय	-10.5172
▁स्वयंसेवक	-10.5172
▁शिल्लक	-10.5172
▁2009	-10.5173
▁थोर	-10.5178
▁j	-10.5181
▁सद्	-10.5185
मैत्रिणी	-10.5186
▁तृतीय	-10.5186
▁पं	-10.519
▁ex	-10.5191
ूळ	-10.5193
ks	-10.5193
▁फ्री	-10.5193
▁अद्वितीय	-10.5193
▁विस्तृत	-10.5193
▁पॅनेल	-10.5197
▁एवढं	-10.52
AT	-10.5202
मंड	-10.5202
▁राहिलो	-10.5204
▁मुलांनी	-10.5204
cial	-10.5207
म्हा	-10.5208
▁ठरते	-10.521
▁तुझं	-10.5215
७५	-10.5215
▁ऑक्स	-10.5218
▁कुटुंबीय	-10.522
▁अभाव	-10.5225
▁पूर्वज	-10.5226
▁ऐकतो	-10.5228
Comment	-10.5229
▁साहाय्य	-10.5229
मधल्या	-10.523
▁गुणधर्म	-10.5231
▁शनिवार	-10.5235
▁द्यावा	-10.5236
▁सुरक्षितता	-10.5239
▁फिटनेस	-10.5243
▁गर्ल	-10.5243
पाशी	-10.5248
टेक	-10.525
▁भूत	-10.5251
▁तलाव	-10.5256
▁खाल्ले	-10.5257
▁डिस्क	-10.5261
▁कसले	-10.5264
▁300	-10.5267
▁शहरे	-10.5267
▁खि	-10.5269
fl	-10.527
▁उपयोगी	-10.5275
▁फॅशन	-10.528
▁काढणे	-10.5283
▁उघडा	-10.529
▁वास्तव्य	-10.5293
▁कड	-10.5297
▁वृत्त	-10.5298
▁सौर	-10.53
▁घसर	-10.5307
▁लेखात	-10.5309
ड्रा	-10.5313
gen	-10.5318
▁तारा	-10.5321
▁आत्ताच	-10.5324
▁जीवनाचा	-10.5325
▁घडवून	-10.5325
विचार	-10.5327
▁तुझ्यासाठी	-10.5327
▁विश्रांती	-10.5329
▁झाल्याने	-10.533
▁रुप	-10.5331
▁48	-10.5331
▁निविदा	-10.5336
dia	-10.534
पीए	-10.5341
▁आवडली	-10.5342
▁कॅप	-10.5345
▁वाया	-10.5353
ींग	-10.5357
▁पाठिंबा	-10.5358
भेद	-10.5358
▁गणेश	-10.5362
▁जाताना	-10.5362
▁Po	-10.5363
▁तुझ्यावर	-10.5364
िष्ट	-10.5365
▁मित्रांना	-10.5367
ंनो	-10.537
ह्या	-10.5372
▁आंब	-10.5372
▁प्लेट	-10.5378
▁ठरेल	-10.5379
▁तेवढा	-10.5379
▁डॅ	-10.5384
▁सामायिक	-10.5386
बंद	-10.5393
▁तिच्यावर	-10.5394
▁आणली	-10.5395
mg	-10.5396
▁कोकण	-10.5398
▁काश्मीर	-10.5401
३०	-10.5405
2019	-10.5406
▁are	-10.541
वण्यात	-10.5412
▁आढावा	-10.5415
▁2010	-10.5416
र्प	-10.5416
▁घ्यायची	-10.5416
▁स्पर्धेत	-10.5419
▁डिझाईन	-10.5423
▁शिपिंग	-10.5423
▁२०१९	-10.5424
▁कंटाळ	-10.5432
▁भूमी	-10.5433
प्रकार	-10.5435
▁घट्ट	-10.5439
▁यापैकी	-10.5441
▁झाडे	-10.5442
▁घाई	-10.5443
▁दिसली	-10.5444
▁चीनी	-10.5454
▁पाहण्या	-10.5454
ER	-10.5456
▁Sp	-10.5457
▁विवेक	-10.5459
सुध्दा	-10.546
गती	-10.5462
gi	-10.5465
▁चौक	-10.5465
▁फक्किंग	-10.5466
▁ब्रिटन	-10.5466
▁सूक्ष्म	-10.5473
▁लॉक	-10.5479
▁सांगायला	-10.5481
▁नाशिक	-10.5481
▁सामन्यात	-10.5482
ळकर	-10.5482
▁महत्त्वाचं	-10.5484
▁कॅश	-10.5489
▁इतिहासात	-10.5498
▁धोनी	-10.5503
TC	-10.5504
ऐ	-10.5504
▁ऑर्जी	-10.5515
▁स्कूल	-10.5517
▁दुध	-10.5519
▁रज	-10.552
ण्याआधी	-10.5521
ाधिकार	-10.5522
▁दफन	-10.5525
▁थोडं	-10.5525
▁Con	-10.5532
▁2008	-10.5536
▁प्रतिकार	-10.5539
सिस	-10.554
▁दुकानात	-10.5544
▁एर	-10.5549
▁जगाला	-10.555
▁शंभर	-10.5554
▁जिल्ह्यात	-10.5554
ou	-10.5562
ug	-10.5567
औ	-10.5568
▁माणसाने	-10.5568
▁आयोजन	-10.5568
▁संघटने	-10.5569
▁इस्	-10.5576
कोर	-10.5577
▁करीता	-10.5578
▁राजकारणात	-10.5585
▁निवडणुकीत	-10.5586
▁याकोब	-10.5591
▁सलग	-10.5593
कुल	-10.5598
▁आणू	-10.56
वडिल	-10.5602
▁अॅड	-10.5605
▁about	-10.5605
▁सांगून	-10.5609
▁किल्ला	-10.5612
▁अॅनाबॉलिक	-10.5613
▁आश्वासन	-10.5613
▁पांढ	-10.562
▁वाटचाल	-10.5621
भाई	-10.5628
▁अध	-10.563
▁पहात	-10.5632
▁करणार्‍या	-10.5637
▁आड	-10.5639
झो	-10.5646
्थ	-10.5647
▁मिसळ	-10.5649
▁बायका	-10.5651
▁विजयी	-10.5654
hu	-10.5657
▁सापडत	-10.5659
▁प्राध्यापक	-10.5665
▁कू	-10.5672
▁महायुद्ध	-10.5673
▁हानी	-10.5676
▁भेटलो	-10.5679
▁साखळी	-10.5679
▁होईन	-10.568
▁देखावा	-10.5681
▁महत्त्वाच्या	-10.5682
▁पॉलिसी	-10.5684
▁२६	-10.5691
▁ऋण	-10.5693
रोधक	-10.5695
▁डॉलर्स	-10.5703
vel	-10.5709
▁तेथून	-10.5718
▁नॉ	-10.5724
व्हायरस	-10.5724
▁दुवा	-10.5725
▁पसंत	-10.5726
▁नेत्या	-10.5728
mail	-10.5736
▁संसाधन	-10.5739
▁एकट्या	-10.5744
▁ज्यामध्ये	-10.5745
▁पार्श्वभूमी	-10.5746
▁वाक	-10.5756
▁स्तन	-10.5758
▁कार्यकारी	-10.5759
▁दुहेरी	-10.5761
▁ठरणार	-10.5767
▁प्रवाशा	-10.5769
वल्या	-10.5773
▁नसल्याने	-10.5776
▁स्टिरॉइड्स	-10.5776
▁झि	-10.5782
lic	-10.5783
▁आक्रमण	-10.5784
▁पत्रक	-10.5785
आयए	-10.5785
▁Q	-10.5788
▁42	-10.5788
अल्लाह	-10.579
▁दाद	-10.5791
▁नातेवाईक	-10.5799
▁हल्ल्या	-10.58
▁निरोगी	-10.5807
▁पोलिसांना	-10.5809
▁नॉन	-10.5811
▁साव	-10.5811
नियम	-10.5816
▁दाखवा	-10.5817
▁सातारा	-10.5818
ष्टी	-10.5819
ट्री	-10.5822
▁रसूल	-10.5822
ds	-10.5826
▁पारंपारिक	-10.5829
▁स्विच	-10.5832
▁सोन	-10.5835
▁न्यडिस्ट	-10.5837
▁न्यूयॉर्क	-10.5837
▁घुस	-10.5837
▁मरणार	-10.5837
▁फळे	-10.5838
▁सेंट	-10.5839
▁भारताला	-10.584
▁९०	-10.584
चालक	-10.5841
गुरु	-10.5841
▁८०	-10.5842
▁अभियांत्रिकी	-10.5844
▁आयटम	-10.5844
लियन	-10.5845
भू	-10.5848
▁संपर्कात	-10.585
▁Casino	-10.5852
▁शेतकऱ्या	-10.5852
▁त्वचे	-10.5862
▁समस्ये	-10.5867
PS	-10.5868
▁डबल	-10.5875
▁हित	-10.588
▁स्पेन	-10.5881
▁क्षमते	-10.5883
मंत्र	-10.5885
▁त्याग	-10.5887
con	-10.5887
स्टिक	-10.589
▁वाचतो	-10.5891
▁होण्याचा	-10.5891
वचन	-10.5894
AN	-10.5894
▁कार्यालयात	-10.5896
ांनंतर	-10.5896
▁कनेक्शन	-10.5897
▁लेझर	-10.5898
▁उद्भव	-10.5898
मुल	-10.5898
ाबाद	-10.5904
▁कार्यक्षम	-10.5907
▁वेद	-10.5911
▁साक्षी	-10.5912
▁मारली	-10.5915
king	-10.5916
न्ना	-10.5918
▁लोकसंख्ये	-10.592
▁देणगी	-10.592
▁संसार	-10.5924
▁ऋतू	-10.5935
श्व	-10.5936
▁मानतात	-10.5936
▁असंख्य	-10.5937
र्फ	-10.5938
▁सारखी	-10.5939
▁सुधारित	-10.5939
ासारखा	-10.5942
▁किल्ल्या	-10.5943
▁येईन	-10.5953
फल	-10.5954
▁पशु	-10.5958
▁सोडत	-10.5959
▁जणू	-10.5959
▁गोलंदाज	-10.5966
▁प्रकरणात	-10.5968
▁चालेल	-10.597
नीय	-10.597
▁कमाई	-10.5972
-5	-10.5973
▁प्रोजेक्ट	-10.5974
िझ	-10.5977
▁शिकलो	-10.599
lect	-10.5992
बेट	-10.5994
▁देशाचा	-10.5996
▁व्हायचे	-10.5997
▁तारण	-10.6002
शियन	-10.6007
▁व्याप	-10.601
▁जाण्या	-10.601
▁पाळीव	-10.6012
▁वीर	-10.6014
▁चर्चेत	-10.6016
▁व्हॅ	-10.6016
RA	-10.6018
▁खरंतर	-10.6021
do	-10.6024
▁संमेलन	-10.6028
▁we	-10.6028
▁इथून	-10.603
▁झाल्याचे	-10.6031
▁रेखा	-10.6031
▁मिट	-10.6032
▁टीन	-10.6034
-6	-10.6036
एमए	-10.6042
▁शिकण्या	-10.6044
▁सापडला	-10.6046
▁कारभार	-10.6047
▁गिर	-10.6055
तर्फे	-10.6058
▁सुवर्ण	-10.6058
▁परीक्षण	-10.6059
▁ठेवणार	-10.606
▁अधिकाधिक	-10.6061
▁दर्शवित	-10.6062
▁त्यांच्याकडून	-10.6063
▁बजाव	-10.6063
स्तंभ	-10.6067
▁पाण्याचे	-10.6067
▁आयफोन	-10.6067
▁सारा	-10.6071
▁ठेवी	-10.6072
▁वर्ल्ड	-10.6074
▁लिहायला	-10.6074
▁खऱ्या	-10.6074
▁शाह	-10.6075
▁क्रांती	-10.6077
ंदे	-10.608
▁पावले	-10.6082
तुम्हाला	-10.6084
दर्श	-10.6087
ट्टी	-10.6088
▁फेड	-10.6088
▁अल्प	-10.61
▁कॅस्टिंग	-10.6104
▁भटक	-10.6108
▁धडा	-10.6113
▁क्षेत्रातील	-10.6118
▁भेटले	-10.6121
▁संपले	-10.6124
▁सहाय्य	-10.6125
▁शेतात	-10.6127
▁सर्वोत्कृष्ट	-10.6128
▁सुनिश्चित	-10.6128
▁बुक	-10.6129
▁भारताचा	-10.613
▁(15	-10.6135
▁पाउडर	-10.6136
air	-10.6139
▁शंकर	-10.614
▁कामकाज	-10.6144
डीए	-10.6147
▁फायद्या	-10.6151
▁चुकीची	-10.6152
▁आणला	-10.6153
ene	-10.6155
▁महिन्यांत	-10.6159
be	-10.6164
ny	-10.6169
▁मराठा	-10.6172
▁गेट	-10.6174
▁भाषांतर	-10.6175
▁प्रकृती	-10.6181
▁लॉग	-10.6183
मार्फत	-10.6183
डय़ा	-10.6184
▁चालते	-10.6186
▁पेन	-10.6191
▁मधे	-10.6194
▁आगमन	-10.6196
▁दस्तऐवज	-10.6198
▁संपत	-10.6198
▁सूचित	-10.6198
-8	-10.62
दिवस	-10.6204
▁लोकसभा	-10.6207
▁वाहून	-10.6209
▁गॉ	-10.6211
▁देण्याचे	-10.6215
▁शकतं	-10.6216
▁अद्भुत	-10.6221
ंपेक्षा	-10.6223
▁अंतरावर	-10.6226
किंवा	-10.6227
▁घ्यायचे	-10.623
▁लावली	-10.6232
्ति	-10.6235
▁पुरेसा	-10.6236
▁बाबेल	-10.6241
ary	-10.6242
▁शकला	-10.6243
▁आयुक्त	-10.6245
▁दौरा	-10.6245
▁वाचली	-10.6247
पाद	-10.6249
▁व्यवस्थे	-10.625
▁ट्रक	-10.6256
▁धरून	-10.6258
▁जाणाऱ्या	-10.6261
▁लवचिक	-10.6261
▁कच्चा	-10.6269
▁कंप	-10.6269
रिन	-10.6271
▁खाणे	-10.6272
बर्ग	-10.6273
भक्त	-10.6274
ana	-10.6278
घट	-10.6281
▁Bo	-10.6281
▁Qu	-10.6294
▁दिनांक	-10.6295
ज़	-10.6296
▁आशियाई	-10.6299
▁साताऱ्या	-10.63
सुर	-10.6301
▁जसा	-10.6312
ट्यू	-10.6318
▁ज्याचा	-10.6322
▁कर्करोग	-10.6324
5"	-10.6326
▁नियुक्ती	-10.6329
▁नसत	-10.633
▁माणसांना	-10.633
पॉ	-10.6331
परमेश्वर	-10.6332
▁ठेऊ	-10.6335
▁सांगायचे	-10.6339
▁तितकी	-10.634
wi	-10.6341
▁पाठवू	-10.6341
▁युक्रेन	-10.6348
▁व्हे	-10.6348
▁लागलो	-10.635
▁गुड	-10.6351
▁चाहत्यां	-10.6356
▁मिस	-10.6357
▁वरून	-10.6358
▁घाट	-10.6362
▁ठरली	-10.6366
▁लॉगिन	-10.6366
भ्र	-10.6368
▁घोडा	-10.637
▁अशोक	-10.6373
▁Ha	-10.6374
▁नसल्या	-10.6377
▁लघु	-10.638
▁२०१७	-10.638
▁जुने	-10.6382
▁सव	-10.6392
▁ढकल	-10.6393
▁चिर	-10.6393
▁पाण्याचा	-10.6399
▁लेक	-10.6401
▁साइन	-10.6402
▁Mar	-10.6403
▁बर्‍याच	-10.6404
प्राप्त	-10.6405
▁ग्रुप	-10.6412
▁सहजपणे	-10.6413
▁शहरातील	-10.6416
▁वाटली	-10.6419
व्यवस्था	-10.6419
▁सिलिकॉन	-10.642
▁आणण्यासाठी	-10.642
▁कंपनीने	-10.6421
स्थळ	-10.6425
▁तरूण	-10.6425
▁दास	-10.6429
▁दीड	-10.643
▁पाट	-10.6432
▁वाळू	-10.6434
▁किमती	-10.6436
▁वापरणे	-10.6436
▁इथल्या	-10.6437
tri	-10.6438
ree	-10.6439
▁जाणतो	-10.644
▁चॅट	-10.6442
▁खडक	-10.6445
लक्ष्मी	-10.6446
▁राहावे	-10.6447
▁२३	-10.645
▁यात्रा	-10.645
▁Sa	-10.6454
▁समजावून	-10.6455
-10	-10.6455
▁150	-10.6456
ock	-10.6458
▁खालीलप्रमाणे	-10.646
▁वाळवंट	-10.646
ठ्या	-10.6462
▁मागच्या	-10.6465
▁एकतर	-10.6468
▁टॉमने	-10.6469
ण्यापेक्षा	-10.647
▁बरा	-10.647
▁ऑर्	-10.6471
▁उद्दिष्ट	-10.6476
▁बरीच	-10.6478
ton	-10.6478
▁आयटी	-10.6479
▁बैठकीत	-10.6487
▁सर्वांचे	-10.649
बदल	-10.6491
▁फसव	-10.6491
लेस्बियन	-10.6492
▁विश्वसनीय	-10.6492
▁घ्यायचा	-10.6493
ah	-10.6501
▁लावण्या	-10.6509
माझे	-10.651
▁रिंग	-10.6511
▁केंद्रीय	-10.6515
▁स्मृती	-10.6516
▁ट्रेडिंग	-10.6516
▁तिचं	-10.6518
RO	-10.6521
▁७०	-10.6522
▁भोग	-10.6523
▁डीव्हीडी	-10.6524
▁आठवड्यां	-10.6525
६०	-10.6526
▁झो	-10.6527
▁मुलाखत	-10.6528
▁Di	-10.6529
थि	-10.653
▁कामासाठी	-10.6532
काळी	-10.6534
▁नसून	-10.6536
▁ho	-10.6542
▁गाणं	-10.6544
▁भारताचे	-10.6546
केट	-10.6546
▁ज्यांच्या	-10.6546
ath	-10.6547
▁सल्लागार	-10.6551
org	-10.6556
▁बदलणार	-10.6557
▁तरतूद	-10.6557
...”	-10.6561
▁चमक	-10.6563
▁देखरेख	-10.6565
▁उल्लंघन	-10.6573
The	-10.6575
▁छळ	-10.6575
▁(14	-10.6579
भंग	-10.6582
▁टीप	-10.6583
▁इशारा	-10.6589
▁अक्षय	-10.659
▁रिपोर्ट	-10.6592
▁राबव	-10.6593
▁बंगाल	-10.6599
▁शिवसेना	-10.6603
▁टेनिस	-10.6605
▁ठेवतात	-10.6609
▁कितीतरी	-10.6614
▁घडलं	-10.6617
▁साधे	-10.6617
SS	-10.662
▁डोळा	-10.662
▁विशाल	-10.6622
ोबा	-10.6623
▁द्वि	-10.6625
▁ढग	-10.6626
▁म्हणावे	-10.6628
दीप	-10.663
▁घातली	-10.6631
ावली	-10.6632
▁भरती	-10.6633
▁परमेश्वराची	-10.6633
▁घोड्या	-10.6638
▁कृत्रिम	-10.6638
▁गुंडाळ	-10.6638
▁देणाऱ्या	-10.664
▁कोल्हापूर	-10.6646
▁मागण्या	-10.6647
बोर्ड	-10.6647
che	-10.6652
▁शेतकर्‍यां	-10.6654
▁स्तुती	-10.6654
▁सवाल	-10.6655
▁काढण्या	-10.6659
मुली	-10.6661
▁मुलांचे	-10.6663
स्ट्रो	-10.6664
▁चालला	-10.6665
rd	-10.6671
old	-10.6671
वेअर	-10.6675
नायक	-10.6676
▁पेंट	-10.6678
▁द्यायचे	-10.668
▁अवघ्या	-10.6687
▁संसदे	-10.6687
▁गोंदण	-10.6693
▁पॅंटीहोस	-10.6695
ॅश	-10.6696
▁गोळ्या	-10.6698
▁Ra	-10.6702
▁अभिनेता	-10.6704
▁कागदपत्रे	-10.6708
▁शिकले	-10.671
▁पीव्हीसी	-10.6712
▁व्यक्तिगत	-10.6713
▁तपासा	-10.6717
▁ब्लॉक	-10.672
▁वादळ	-10.6725
▁2000	-10.673
▁फटका	-10.6737
ऱया	-10.6739
▁जवान	-10.6742
▁खुले	-10.6748
▁क्रि	-10.6749
▁प्रि	-10.675
▁तशीच	-10.6753
▁ताबडतोब	-10.6753
▁तेवढ्या	-10.6753
▁सर्वांनाच	-10.6757
▁धावत	-10.6761
▁फाशी	-10.6762
वर्ड	-10.6769
▁विभागात	-10.677
ंकडून	-10.6774
ous	-10.6778
िअर	-10.6778
युग	-10.6781
▁नावाच्या	-10.6784
ट्रि	-10.6785
als	-10.679
▁आमचं	-10.6795
▁फारसे	-10.6796
▁गोल्ड	-10.6798
▁पासवर्ड	-10.6803
▁त्याच्याबरोबर	-10.6809
ाहून	-10.6814
▁वेध	-10.6815
▁वेबसाइटवर	-10.6816
▁त्यावरून	-10.6816
▁इजिप्त	-10.682
▁पर्यायी	-10.682
लाईन	-10.6821
▁शिकायला	-10.6821
ल्यामुळे	-10.6821
▁असायला	-10.6839
▁परवा	-10.684
ास्पद	-10.6842
▁अधिवेशन	-10.6845
गोल	-10.6853
▁टप्प्या	-10.686
कालीन	-10.6861
▁वाचू	-10.6861
▁सीएनसी	-10.6861
▁तितका	-10.6862
▁सध्याच्या	-10.6863
▁गेल्यावर	-10.6864
▁खेळायला	-10.6866
▁समजते	-10.6867
▁अग्र	-10.6867
▁बाळासाहेब	-10.687
▁पाठलाग	-10.687
▁निर्दोष	-10.687
▁आजोबा	-10.6872
▁मिशन	-10.6873
ट्रो	-10.6874
गट	-10.6874
्टे	-10.6877
ture	-10.6878
PC	-10.6886
▁शर्यत	-10.6887
▁उच्चार	-10.6888
▁उत्पाद	-10.6889
▁मदतीने	-10.689
गांड	-10.689
आम्हाला	-10.6894
▁घडू	-10.6899
par	-10.69
▁नैतिक	-10.6903
▁इफेक्ट्स	-10.6907
▁आयुष्यभर	-10.6908
▁फल	-10.6909
▁जॉर्ज	-10.6912
ांविषयी	-10.6918
्टि	-10.6918
फ्ल	-10.6918
▁वस्त्र	-10.6924
▁हव्या	-10.6927
▁ऑस्ट्रेलियन	-10.6929
प्रभा	-10.693
▁मद्य	-10.6931
▁ठाम	-10.6938
▁युद्धात	-10.6942
▁कालावधीत	-10.6944
▁निघाला	-10.6948
फ्रि	-10.6949
▁बंड	-10.6951
▁वस्ती	-10.6954
शोध	-10.6955
▁दोनदा	-10.6955
जन्य	-10.6956
▁विपणन	-10.6962
▁आठवते	-10.6965
सेट	-10.6968
टाळ	-10.697
br	-10.6971
▁धाडस	-10.6979
एनए	-10.6981
▁पात्रता	-10.6983
▁For	-10.6987
▁द्वेष	-10.6988
ग्राफ	-10.6992
▁धन्य	-10.6996
▁पडून	-10.6998
▁श्यामला	-10.7
▁पॅन	-10.7006
ome	-10.7007
▁जवळच्या	-10.7008
कडं	-10.7016
▁नाट्य	-10.7017
▁गणपती	-10.7022
▁विधी	-10.7024
▁वर्षीय	-10.7027
▁जारी	-10.7029
▁डॉक्‍टर	-10.703
▁गायक	-10.703
red	-10.7031
▁न्यायालयात	-10.704
▁यादीत	-10.7043
▁आवडत्या	-10.7046
▁करताय	-10.7052
▁आनंदाने	-10.7058
▁विकले	-10.7059
मिथ	-10.7062
▁बनवू	-10.7063
▁कमाव	-10.7063
▁प्रेमाची	-10.7067
ect	-10.7067
▁Un	-10.7069
११	-10.7069
▁इकडे	-10.7072
▁भिंत	-10.708
▁करावं	-10.7083
▁नागरी	-10.7088
▁न्यायालयाने	-10.7089
▁बिंदू	-10.709
▁tr	-10.709
टॅ	-10.7091
▁मनोरंजक	-10.7098
▁आकडेवारी	-10.7098
वार्ता	-10.7099
▁शाई	-10.71
▁स्टॉक	-10.71
▁वाढू	-10.7101
▁निवृत्ती	-10.7105
▁प्यायला	-10.7107
▁मोल	-10.711
प्रकरणी	-10.7113
यिर्मया	-10.7116
▁आजूबाजू	-10.7116
ner	-10.7121
▁झाक	-10.7122
In	-10.7123
▁कर्नाटक	-10.7124
▁लोकांशी	-10.7126
▁गुरुवारी	-10.7126
पद्धती	-10.7128
ॉर्न	-10.7131
▁मारहाण	-10.7133
▁ओळखी	-10.7134
▁नायक	-10.7135
▁नसतील	-10.7138
पंच	-10.7144
ue	-10.7149
▁दुबई	-10.715
▁पौल	-10.7152
▁चळवळी	-10.7156
कर्म	-10.7163
▁संरक्षित	-10.7167
सिड	-10.7167
ांप्रमाणे	-10.7168
▁राहणे	-10.7173
▁न्या	-10.7176
▁सर्वांसाठी	-10.7181
भो	-10.7183
tter	-10.7183
▁दुस	-10.7184
▁इस्राएलच्या	-10.7193
▁वॉटर	-10.7198
ॉर्ड	-10.7198
▁असल्याचं	-10.7203
▁पुनरावलोकने	-10.7204
▁देणारे	-10.7206
▁चाचण्या	-10.721
▁जेम्स	-10.7211
▁चट	-10.7214
▁सभासद	-10.7219
▁चाळीस	-10.7228
▁विक्रीसाठी	-10.723
ok	-10.7235
▁टाकी	-10.7235
▁वारसा	-10.7235
▁फ़	-10.7235
▁अब्ज	-10.7236
▁म्हणाल	-10.7237
▁बनविण्या	-10.7239
ics	-10.7252
▁उगव	-10.7254
▁सभागृह	-10.7255
देवी	-10.7256
▁रांग	-10.7263
▁कन्	-10.7269
ze	-10.7269
▁संभाषण	-10.7271
▁थीम	-10.7273
▁टाळा	-10.7273
▁तुरुंगात	-10.7273
▁आसन	-10.7276
▁असण्या	-10.7277
▁अतिरेक	-10.728
▁जागेवर	-10.7282
▁भाड्याने	-10.7289
▁लॉटरी	-10.7289
▁वर्षांचे	-10.7291
बॉ	-10.7291
पीठ	-10.7293
किशोर	-10.7295
▁सर्व्ह	-10.7296
▁जबरदस्त	-10.7297
▁ऑडिओ	-10.7298
च्छा	-10.7302
ations	-10.7302
रचना	-10.7304
▁पुढचा	-10.7305
▁लक्षणीय	-10.7309
▁ठरविले	-10.7311
SP	-10.7312
▁दाखवले	-10.7313
▁वाचला	-10.7313
▁आईने	-10.7319
▁सचिन	-10.7324
▁Pre	-10.7324
▁किरण	-10.7327
द्रव्य	-10.7331
▁वेदी	-10.7332
▁जाळी	-10.7335
▁अज्ञान	-10.7347
▁संलग्न	-10.735
▁दोघी	-10.735
परिपक्व	-10.735
▁ओळखतो	-10.7351
▁संस्कार	-10.7354
▁डु	-10.7356
▁आढळून	-10.7356
▁तेंव्हा	-10.7359
▁सोडा	-10.7366
▁Pa	-10.7373
▁आचरण	-10.7375
▁सुधारण्यासाठी	-10.7376
फिल	-10.7379
6"	-10.7381
▁ठरू	-10.7382
▁प्रिंट	-10.7388
▁जुगाराचा	-10.7395
ips	-10.7399
▁व्यवस्थापित	-10.7403
ासोबत	-10.7404
▁ट्विटर	-10.7406
▁निषेध	-10.7412
▁Da	-10.7419
▁नसलेल्या	-10.7419
▁उशिरा	-10.742
▁आश्रम	-10.742
▁ध्वनी	-10.742
▁बाबासाहेब	-10.743
६५	-10.7432
▁शकाल	-10.7434
“	-10.7437
▁उपग्रह	-10.7441
▁अंदाजे	-10.7443
▁महिन्याच्या	-10.7447
तुमच्या	-10.7447
मराठी	-10.7449
▁भूमिके	-10.7456
▁He	-10.7463
४०	-10.7464
▁तितक्या	-10.7465
७०	-10.7466
▁La	-10.7467
▁अँड	-10.7468
ाधिकारी	-10.747
▁ओळखता	-10.7474
▁बनावट	-10.7475
हशा	-10.7476
ther	-10.748
केंद्र	-10.7484
▁शांतपणे	-10.7484
▁भाडे	-10.7485
▁लेवी	-10.7488
▁एजंट	-10.7491
▁वृत्ती	-10.7494
▁शिका	-10.7494
▁तुझ्याकडे	-10.7495
▁चार्ज	-10.7495
▁मुलाखती	-10.7496
परी	-10.7499
▁योसेफ	-10.75
▁महोत्सव	-10.7501
▁बेल	-10.7502
प्रिय	-10.7503
-19	-10.7504
पथ	-10.7506
▁घेतलं	-10.7508
▁शेजारी	-10.7516
▁महासागर	-10.7518
▁ओलांड	-10.7519
▁व्यसन	-10.7523
लेक्स	-10.7524
▁मनापासून	-10.7524
अधिक	-10.7525
▁सचिव	-10.7527
▁रुग्णालय	-10.7528
▁जणांना	-10.7531
▁संपादन	-10.7531
▁कळव	-10.7534
▁जगाच्या	-10.7534
नवीन	-10.7536
▁वापरकर्त्यां	-10.7536
ंसह	-10.7545
▁निघालो	-10.7545
▁निवृत्त	-10.7549
▁नरक	-10.7552
▁वापरतो	-10.7557
▁नोटा	-10.7557
▁डेटिंगचा	-10.7557
▁देणारा	-10.7559
▁गुन्हे	-10.7562
▁वारा	-10.7564
▁चक्क	-10.757
▁पुस	-10.7572
▁मागितली	-10.7572
TI	-10.7574
▁मनाला	-10.7579
▁कळते	-10.7583
▁जंगलात	-10.7583
ंगळ	-10.7587
▁ओल्ड	-10.7588
▁वाय	-10.7588
▁मार्गावर	-10.7589
AC	-10.7589
▁प्रीमियम	-10.759
▁चाहते	-10.759
▁नकाशा	-10.759
▁सावधान	-10.7593
▁Pe	-10.7595
▁रूम	-10.7598
▁सामोरे	-10.7599
▁तेवढी	-10.7608
▁अंतराळ	-10.7613
http	-10.7617
▁जागृत	-10.7617
▁२०१४	-10.7627
१२	-10.7628
▁चळवळ	-10.7629
▁पंख	-10.763
▁विद्यार्थ्यांनी	-10.7634
▁अमेरिकी	-10.7635
▁चेहरे	-10.7635
▁तिसरी	-10.7635
ऋ	-10.7636
▁गोष्टींची	-10.7643
▁प्लॅन	-10.7644
▁अमेरिकेला	-10.7644
▁प्रिंटर	-10.7645
▁२७	-10.7647
▁ट्रॅ	-10.7648
▁अडथळा	-10.7653
▁शीर्षक	-10.7664
ांद्वारे	-10.7667
बाहेर	-10.7668
▁इच्छुक	-10.7671
▁41	-10.7674
लिस्ट	-10.7675
▁कृतज्ञता	-10.7677
▁सगळ्यांनी	-10.7677
▁उदय	-10.7681
▁Bi	-10.7681
▁मंच	-10.7682
▁मतभेद	-10.7683
▁नफा	-10.7683
▁ऐवजी	-10.7685
▁सर्वसाधारण	-10.7685
म्या	-10.7687
Porn	-10.7687
▁लष्करी	-10.7695
CC	-10.7699
▁उत्सुकता	-10.7702
▁इच्छितो	-10.771
▁किनार	-10.7711
▁राशी	-10.7712
und	-10.7713
▁फिलिप	-10.7714
ॅड	-10.7715
▁विषाणू	-10.7717
▁ठोक	-10.7718
मिळ	-10.7721
उदा	-10.7724
line	-10.7725
शौकिया	-10.7726
▁व्यास	-10.7727
▁राज्यपाल	-10.773
▁(16	-10.7732
0.0	-10.7732
ॅन्	-10.7733
▁पाकिस्तानी	-10.7735
्यो	-10.7736
▁कपड्यां	-10.7737
▁अमेरिकेचे	-10.7745
▁भांडण	-10.7748
▁योहान	-10.775
क्‍या	-10.7752
▁समुद्रात	-10.7752
▁प्राण्या	-10.7753
▁कुकीज	-10.7753
ari	-10.7755
शब्द	-10.7757
▁ठेवता	-10.7758
▁याविषयी	-10.7761
▁डोके	-10.7766
▁भोजन	-10.7766
▁नात्या	-10.7771
▁भक्ती	-10.7772
▁ब्लू	-10.7774
▁उपास	-10.7775
प्रकाश	-10.7777
7"	-10.7778
ांसोबत	-10.7779
▁विश्वचषक	-10.7781
▁टॅग्ज	-10.7782
▁भारताची	-10.7788
▁शहराच्या	-10.7791
रोह	-10.7793
▁400	-10.7795
▁गडद	-10.7796
▁चिड	-10.7796
▁अद्ययावत	-10.7799
▁४५	-10.7802
▁po	-10.7802
मुद्र	-10.781
fer	-10.7813
ial	-10.7816
▁त्‍या	-10.7816
▁क्रियाकलाप	-10.7817
▁नाश्ता	-10.7818
▁Do	-10.7819
▁गणना	-10.7819
▁महामार्ग	-10.782
▁व्यतिरिक्त	-10.7823
▁पध्दती	-10.7823
ऐवजी	-10.7823
▁कुलकर्णी	-10.7827
▁सुनावणी	-10.7827
सुंदर	-10.7831
▁संबोध	-10.7832
▁लग	-10.7832
▁पडेल	-10.7834
रत्न	-10.7835
▁सक्ती	-10.7836
▁मोकळे	-10.7836
▁रसायन	-10.7837
▁आंधळ	-10.7837
▁कुल	-10.7839
थो	-10.7841
▁परिवहन	-10.7845
8"	-10.7847
▁नसताना	-10.7848
▁ग्रे	-10.7855
OS	-10.7856
▁वगळ	-10.7857
▁नसल्यास	-10.7861
▁सोडणार	-10.7863
▁ब्राउझ	-10.7864
▁पिशवी	-10.7864
(4	-10.7866
▁फंड	-10.7866
▁नेमका	-10.7868
प्रकारे	-10.787
क्लो	-10.7871
▁पुनरावृत्ती	-10.7873
▁दिव्य	-10.7874
▁याव्यतिरिक्त	-10.7887
arch	-10.789
▁विकार	-10.7896
▁आमंत्रण	-10.7901
िएट	-10.7903
▁फुले	-10.791
लिस	-10.791
▁वाढवा	-10.7914
▁साऱ्या	-10.7915
NA	-10.7919
▁रहात	-10.792
▁डॉक्टरांनी	-10.7921
▁देशांत	-10.7921
IC	-10.7927
▁क्लायंट	-10.7928
▁संसर्ग	-10.7928
▁जोखीम	-10.7929
▁बैल	-10.793
▁कारकीर्द	-10.7938
▁पारंपरिक	-10.7938
▁स्मार्टफोन	-10.7938
▁यज्ञ	-10.794
▁Day	-10.7944
▁फिरत	-10.7945
▁रेट	-10.7949
▁पिढ्या	-10.795
दिवशी	-10.7954
एक्सएक्सएक्स	-10.7954
इंड	-10.7959
▁नियमशास्त्र	-10.7959
▁रिक्त	-10.7961
▁मायक्रोसॉफ्ट	-10.7966
▁उजव्या	-10.7966
▁तक्रारी	-10.7972
▁श्रेय	-10.7978
ros	-10.798
▁नमूद	-10.7984
▁पायऱ्या	-10.7989
▁निकष	-10.799
▁कमतरता	-10.7994
▁प्रशासकीय	-10.7996
▁गाळ	-10.7998
▁Free	-10.7999
▁वर्षानंतर	-10.7999
▁विलक्षण	-10.8003
▁विद्यमान	-10.8003
▁टक्क्या	-10.8004
▁चिकट	-10.8008
▁राहणाऱ्या	-10.8009
▁तर्क	-10.8012
▁फायदेशीर	-10.8013
▁वडिलांना	-10.8015
mon	-10.8017
ure	-10.8017
▁हिम्मत	-10.8022
▁घेताना	-10.8026
SA	-10.8028
▁घातला	-10.8034
▁सेना	-10.8035
▁पेत्र	-10.8035
▁फोनवर	-10.804
▁प्रतिनिधित्व	-10.8041
▁नमुने	-10.8041
▁मिळवले	-10.8048
lin	-10.8048
▁this	-10.805
▁जाधव	-10.805
▁हिंसा	-10.8059
▁कारणीभूत	-10.806
▁दशकात	-10.8061
▁लोकांमध्ये	-10.8068
▁दैनंदिन	-10.8069
▁शून्य	-10.807
▁आठवले	-10.8078
▁शाप	-10.8082
▁राहात	-10.8085
mer	-10.8086
▁पारदर्शक	-10.809
▁चेहऱ्यावर	-10.8097
▁ड्रायव्हर	-10.8097
▁राक्षस	-10.8098
▁शोक	-10.8098
▁पलीकडे	-10.81
लॉग	-10.81
(12	-10.81
▁छाती	-10.8101
न्हा	-10.8106
▁फ्रेम	-10.8108
योजक	-10.8112
▁देताना	-10.8114
ाशय	-10.8115
▁सर्वप्रथम	-10.8116
▁मजेदार	-10.8116
▁दुचाकी	-10.8116
▁वेगवान	-10.812
▁वास्तू	-10.8126
▁dis	-10.8126
▁शक्ति	-10.8127
▁सवयी	-10.8131
ष्ण	-10.8135
▁घेईल	-10.8135
▁गेलं	-10.8135
▁आपत्ती	-10.8136
▁उठव	-10.8139
▁भागीदारी	-10.8142
▁घेऊया	-10.8145
▁आगामी	-10.8145
▁गवत	-10.8145
▁खोल्या	-10.8146
pro	-10.815
net	-10.8151
ानंद	-10.8153
▁स्वरुप	-10.8157
▁असण्याची	-10.8159
शिप	-10.8161
▁Ba	-10.8162
$	-10.8164
पुरवठा	-10.8164
ड्रो	-10.8168
मित्र	-10.8168
▁महापालिके	-10.8173
८९	-10.8175
▁उपकार	-10.8177
पट्ट	-10.8184
▁जिंकली	-10.8184
विणार	-10.8184
मार्क	-10.8185
▁इंग्लिश	-10.8187
▁पुरेशी	-10.8194
▁अवस्थेत	-10.8202
म्हणून	-10.8203
▁टप्प्यात	-10.8204
▁बर्	-10.8206
▁त्याहून	-10.8206
▁सेंटर	-10.8207
▁ठळक	-10.8212
▁२०११	-10.8213
▁टेस्ट	-10.8214
▁कुटुंबातील	-10.8221
▁तिच्याशी	-10.8225
tube	-10.8226
▁बनली	-10.823
▁रवी	-10.8232
▁सोडली	-10.8234
▁व्यासपीठ	-10.8241
ेबल	-10.8243
AL	-10.8255
▁वंशज	-10.8256
▁लाइट	-10.8261
योग्य	-10.8264
▁बाय	-10.8268
▁धोक्या	-10.8269
▁संजय	-10.827
▁राहण्याची	-10.8271
▁उडी	-10.8273
▁साधू	-10.8276
▁दैनिक	-10.8279
▁ट्रम्प	-10.828
▁हत्ती	-10.8284
▁FS	-10.8287
▁डॉक्टरांना	-10.8288
▁विदर्भ	-10.8289
▁एचडी	-10.829
९५	-10.8291
▁जिंकले	-10.8292
▁ऐकली	-10.8296
▁शुक्रवार	-10.8296
▁निश्चितपणे	-10.8296
▁लक्षण	-10.8301
▁विधानसभे	-10.8308
▁निव्वळ	-10.8308
▁रान	-10.8308
own	-10.831
▁सांगली	-10.8315
▁?????	-10.8318
▁टाकून	-10.8324
स्तव	-10.8326
▁दखल	-10.8327
▁यावर्षी	-10.8328
▁उपाययोजना	-10.8328
▁त्याबाबत	-10.8331
ादरम्यान	-10.8333
▁डेव्हिड	-10.8337
▁संध्याकाळ	-10.8344
▁बुद्धिमान	-10.8347
▁क्रिस्टल	-10.8347
▁मंगळ	-10.8351
▁आईवडिलां	-10.8359
▁एनल	-10.8361
▁एमेच्योर	-10.8366
▁शतकात	-10.8369
way	-10.838
▁चव्हाण	-10.8385
▁खात्यात	-10.8386
▁घडणार	-10.8395
▁पोर्	-10.8397
▁हवंय	-10.8398
▁भग	-10.8401
▁म्हणुन	-10.8404
tal	-10.8404
▁किरकोळ	-10.8405
▁सिंचन	-10.8405
▁व्हायचं	-10.8406
▁माणसाच्या	-10.8407
▁संरचना	-10.8408
▁स्टिरॉइड	-10.8415
▁दिवसातून	-10.8415
ness	-10.8417
४७	-10.8417
ile	-10.8419
▁पडते	-10.8429
▁आयुष्यातील	-10.8431
▁पॉल	-10.8432
▁अहो	-10.8433
hen	-10.8433
▁अजित	-10.8434
▁ध्वज	-10.8435
▁नवीनतम	-10.8438
▁बसलो	-10.844
▁रॉक	-10.8443
▁आक्रमक	-10.8444
▁मुद्रण	-10.8444
▁भले	-10.8444
▁जनरल	-10.8445
▁आतील	-10.8446
▁अद्यतन	-10.8446
▁एन्	-10.8448
ets	-10.8458
▁years	-10.8464
▁Ja	-10.8464
बाळ	-10.8472
▁सावरकर	-10.8474
rk	-10.8474
▁घातक	-10.8475
ांकन	-10.8475
▁बूट	-10.8477
ोत्	-10.8478
tro	-10.8482
▁प्रशंसा	-10.8483
▁तांब	-10.8488
▁घेतलेल्या	-10.849
▁जीवनशैली	-10.8493
▁कारणास्तव	-10.8493
१८	-10.8497
▁उचलाल	-10.8499
लिटी	-10.8502
कोश	-10.8503
▁Dr	-10.8504
▁अखेरीस	-10.8504
▁मोटार	-10.8504
▁हाऊस	-10.8511
ण्यासारखे	-10.8513
▁शिल्प	-10.8515
work	-10.8515
▁वित्तीय	-10.8515
▁जखम	-10.8515
ल्प	-10.8524
▁वाढत्या	-10.8524
▁that	-10.8533
▁Gu	-10.8534
ब्रि	-10.854
ler	-10.8541
▁गुंतवणूकदार	-10.8542
▁रीतीने	-10.8543
▁हार्मोन	-10.8543
▁दिवसांपासून	-10.8546
▁हळू	-10.8549
ाबाई	-10.855
▁शास्त्रीय	-10.855
▁रोप	-10.8553
▁नसता	-10.8554
▁वापरुन	-10.856
▁अंगावर	-10.8562
▁फिट	-10.8564
ंढर	-10.8564
EN	-10.8564
ml	-10.8566
▁मेट्रो	-10.8567
▁कागदपत्र	-10.857
पार्ट	-10.8571
▁प्रविष्ट	-10.8572
▁ख्रिसमस	-10.8572
▁ठाणे	-10.8573
▁कुणीही	-10.8573
▁समाजातील	-10.8576
दृष्टी	-10.8579
▁मोठं	-10.8582
▁बहुमत	-10.8583
▁मनुष्याला	-10.8587
ning	-10.8587
▁अलि	-10.8587
▁लिहीत	-10.8588
ose	-10.8589
▁झालंय	-10.859
▁असुरक्षित	-10.8592
▁ग्रीन	-10.8593
▁अयोग्य	-10.8596
▁रंगीत	-10.8599
▁व्यक्तिमत्त्व	-10.8602
▁तिच्याकडे	-10.8603
फोन	-10.8603
▁सारी	-10.8608
▁ब्रह्म	-10.8612
▁प्रसन्न	-10.8612
ral	-10.8616
▁व्यक्तिमत्व	-10.8622
▁ठिकाणे	-10.8626
▁सलमान	-10.8627
▁सोयी	-10.8628
शिक्षण	-10.863
▁समर्पित	-10.8642
▁गुलाब	-10.8642
ram	-10.8651
▁अरेबियन	-10.8652
▁लोट्टो	-10.8652
▁निमित्ताने	-10.8652
▁भागातील	-10.8659
▁रक्तदाब	-10.8662
▁सै	-10.8664
▁टाकली	-10.8664
▁पॅड	-10.8667
▁वाढणार	-10.8667
IT	-10.8672
ates	-10.8673
▁शब्दांत	-10.8675
▁Mi	-10.8675
▁कृष्णा	-10.8676
▁चालली	-10.8678
▁देतील	-10.8679
▁उपदेश	-10.8682
वितो	-10.8683
▁राहण्यासाठी	-10.8686
संस्था	-10.8687
▁अवलंब	-10.8689
रियन	-10.8689
DE	-10.8691
▁हसू	-10.8693
भाऊ	-10.8695
▁हालचाली	-10.8698
▁कुळ	-10.8698
▁करणा	-10.8699
▁फार्म	-10.8701
▁डोक्यावर	-10.8702
पात्र	-10.8703
▁सरदार	-10.8705
▁post	-10.8705
▁अपयशी	-10.8709
▁विकली	-10.8711
▁लिहितो	-10.8713
▁जोपर्यंत	-10.8715
▁अग्नी	-10.8723
▁टप्पा	-10.8727
ix	-10.8732
▁फॅब्रिक	-10.8732
▁पंधरा	-10.8732
लिखित	-10.8734
MA	-10.8739
▁सगळ	-10.8739
▁can	-10.874
▁बोलली	-10.8744
▁मिळवण्यासाठी	-10.8747
▁अवैध	-10.8753
▁घटस्फोट	-10.8753
ger	-10.8759
pi	-10.8761
q	-10.8762
▁मुलांचा	-10.8764
पुत्र	-10.8764
माझी	-10.8766
▁लोह	-10.8767
▁Hu	-10.8771
▁संक्रमण	-10.8773
रोध	-10.8773
▁परी	-10.8779
▁शिकवले	-10.878
संग्रह	-10.8782
६२	-10.8787
▁फूल	-10.8789
▁संकलन	-10.8793
▁वाढेल	-10.8794
▁कॉम्प	-10.8798
▁बॅंगिंग	-10.8803
▁षटक	-10.8806
▁प्रमाणित	-10.8809
▁गुणवत्ते	-10.8813
▁सातत्याने	-10.8813
▁लोकांवर	-10.8814
▁मदतीसाठी	-10.8815
प्रसाद	-10.882
▁भान	-10.8822
▁संपली	-10.8826
स्वामी	-10.8835
▁विवाहित	-10.8841
८५	-10.8843
▁नसे	-10.8844
▁अब्राहाम	-10.8844
▁मौल्यवान	-10.8844
▁भरपाई	-10.8844
▁इंद्र	-10.8846
▁वातावरणात	-10.8848
माझा	-10.8848
▁पाहणे	-10.8849
▁लोन	-10.8857
▁गुगल	-10.8858
मीटर	-10.8858
▁एखादे	-10.8866
▁स्वीकारले	-10.8868
▁रोलर	-10.8874
▁Windows	-10.8875
▁बसू	-10.8877
▁मिळणे	-10.888
▁पुढाकार	-10.8885
▁लागलं	-10.8891
▁वेगवेगळी	-10.8895
▁वॉश	-10.8896
स्थापन	-10.8896
▁ग्रॅम	-10.8897
▁कार्यशाळा	-10.8899
▁पुर्ण	-10.8899
▁बसणार	-10.89
▁झाकून	-10.8901
II	-10.8903
▁तप	-10.8904
▁घाऊक	-10.8905
▁चुंबक	-10.8905
▁गंभीरपणे	-10.8906
▁कारकिर्दी	-10.8916
▁प्रजासत्ताक	-10.8916
▁मिळविण्या	-10.8921
▁संस्कृत	-10.8922
▁लढव	-10.8925
▁शिस्त	-10.893
▁वाढवू	-10.8932
▁पकडून	-10.8934
▁वेळोवेळी	-10.8936
आरए	-10.8937
एक्सएनयूएमएक्स	-10.8939
▁विद्यार्थ्या	-10.8941
(7	-10.8947
विकास	-10.895
▁चार्ट	-10.8952
▁पाण्याच्या	-10.8959
▁वाटणार	-10.8961
▁डाग	-10.8963
▁उभयलिंग	-10.8967
▁मृतदेह	-10.8967
विरोधी	-10.897
▁सांगणे	-10.8974
▁मिळालेल्या	-10.8977
▁आंघोळ	-10.8977
▁ट्रान्स	-10.8978
▁बना	-10.8979
▁120	-10.8982
lor	-10.8987
भु	-10.8987
▁पालकांना	-10.899
▁तिथल्या	-10.8991
▁काढण्यात	-10.8996
▁धाक	-10.9007
▁लुट	-10.9008
▁कबूल	-10.9009
▁वाटप	-10.901
▁चंद्रावर	-10.9012
▁काढण्यासाठी	-10.9014
CA	-10.9017
▁अद्यतनित	-10.9017
▁युरो	-10.902
▁जोडीदार	-10.9022
▁समलिंगी	-10.9029
▁इच्छे	-10.9029
▁सापडली	-10.903
▁वगळता	-10.9032
▁ऐकता	-10.9034
▁IFPUG	-10.904
▁ट्रिप	-10.9042
▁नसल्याचे	-10.9046
▁पुरावे	-10.9046
▁काव्य	-10.9047
▁बनविले	-10.9048
▁शाश्वत	-10.905
▁दुप्पट	-10.906
▁आकडा	-10.9061
▁लिलाव	-10.9062
▁ज्ञात	-10.9063
▁रात्रभर	-10.9065
▁घरातून	-10.9065
▁देयक	-10.9068
▁फ्लो	-10.907
▁कॉपीराइट	-10.9071
▁वाढविण्या	-10.9072
क्‍स	-10.9076
▁मदतीची	-10.9076
▁पोटात	-10.9076
▁दुर्दैवाने	-10.9081
ren	-10.9089
▁करणार्या	-10.9091
▁मधुमेह	-10.9092
▁कोहली	-10.9092
▁अंधारात	-10.9096
▁पायलट	-10.9103
▁दाखवतो	-10.9104
प्ले	-10.9105
१५	-10.9112
▁कॉंग्रेस	-10.9113
▁अवश्य	-10.9113
▁फ्लॅश	-10.9113
▁चिम	-10.9115
Tube	-10.9128
▁रुंदी	-10.9129
▁बनवण्यासाठी	-10.913
रेषा	-10.9133
▁प्रतीक	-10.9134
▁२०१६	-10.9135
▁२०१०	-10.9135
▁फॉर	-10.9137
▁pre	-10.9141
▁बोलून	-10.9141
ja	-10.9142
pos	-10.9149
▁रुपांतर	-10.9155
िद	-10.9161
▁आभासी	-10.9165
▁गुलाबी	-10.9166
संपादन	-10.9171
rit	-10.9177
▁2007	-10.9178
▁Wa	-10.9179
▁महामंडळ	-10.9179
▁राहायला	-10.9181
LE	-10.9182
दृश्य	-10.9184
▁टॅक्सी	-10.9186
▁विंडो	-10.9189
▁निवडू	-10.919
असे	-10.9192
▁जाडी	-10.9194
कुट	-10.9196
▁युनियन	-10.9197
▁बुधवारी	-10.9198
▁यादव	-10.9201
▁राहिल्या	-10.9205
▁ठराविक	-10.9206
UN	-10.9208
▁चालना	-10.9211
▁गर्भात	-10.9212
वाद्यां	-10.9215
▁भावनिक	-10.9216
▁जगभर	-10.9218
▁अहमद	-10.9218
▁कंट्रोल	-10.9218
▁मंडप	-10.9219
ake	-10.9223
▁दिग्दर्शक	-10.9229
▁समागम	-10.9229
▁उद्धव	-10.9229
▁अवकाश	-10.9229
शाळा	-10.9229
▁सांगितला	-10.9229
▁फर्	-10.9229
land	-10.9239
▁विधेयक	-10.9239
ating	-10.924
▁मांडले	-10.9244
▁कारणांमुळे	-10.9245
▁पृथ्वीवरील	-10.9246
▁दुवे	-10.9248
▁शॉट	-10.9248
▁रेडहेड	-10.925
▁बाईक	-10.9251
▁कॅम्प	-10.9255
▁दलित	-10.9259
jo	-10.926
▁वळून	-10.9263
▁क्लासिक	-10.9269
ंडो	-10.9271
▁सोयीस्कर	-10.9271
▁चित्रकार	-10.9276
▁कुटुंबियां	-10.928
प्रो	-10.9285
▁निर्धारित	-10.9288
▁बेस्ट	-10.929
▁हट	-10.9292
▁अहरोन	-10.9292
▁बांगलादेशी	-10.9293
▁App	-10.9298
▁Ju	-10.9303
दुर्ग	-10.9313
▁मूल्यांकन	-10.9315
▁तत्त्वज्ञान	-10.9315
कधी	-10.9318
▁अब्	-10.932
▁डाव्या	-10.9321
मात्र	-10.9321
विल्या	-10.9323
ON	-10.9324
▁तिरस्कार	-10.9324
▁मॅन्युअल	-10.9324
▁घेईन	-10.9325
मूल्य	-10.9325
▁बहुसंख्य	-10.9326
▁यात्रे	-10.9331
▁महत्वाच्या	-10.9331
रात्र	-10.9331
पत्नी	-10.9333
पाणी	-10.9334
▁शलमोन	-10.9335
▁कॉन्	-10.934
तंत्र	-10.9341
for	-10.9341
▁डोळ्यात	-10.9345
▁फायली	-10.9347
▁Air	-10.9348
vers	-10.9349
संख्या	-10.9351
▁ठेवावे	-10.9354
▁सिंगापूर	-10.9357
▁शरण	-10.9359
▁चौरस	-10.936
▁पडल्या	-10.9361
▁जोडी	-10.9364
▁छंद	-10.9364
ave	-10.9366
▁जाईन	-10.9366
▁कापूस	-10.9368
▁पुष्टी	-10.9371
▁अवमान	-10.9372
▁जिंकणार	-10.9376
▁हायड्रोलिक	-10.9378
▁लाद	-10.9382
▁दूत	-10.9401
मिशन	-10.9401
९१	-10.9405
ध्व	-10.9408
▁सुरवातीला	-10.9412
▁देशभरात	-10.9412
▁जिवा	-10.9419
▁न्यायाधीश	-10.9421
▁विनिमय	-10.9421
▁दुसरं	-10.9421
विवाह	-10.9422
िष्ठ	-10.9433
ोत्तर	-10.9437
▁कुशल	-10.9443
बांधणी	-10.9444
(6	-10.945
▁ठरवलं	-10.9455
कऱ्यां	-10.9456
▁IP	-10.9464
अक्षरशः	-10.9465
▁अशुद्ध	-10.9465
ding	-10.9466
ally	-10.947
▁माया	-10.947
▁2005	-10.9476
▁संग्रहालय	-10.9477
▁कृतज्ञ	-10.9479
▁काळजीपूर्वक	-10.948
▁अलीकडे	-10.9487
▁बर्न	-10.9496
▁स्टेपमोंम	-10.9497
▁हिंमत	-10.9497
ऱ्हा	-10.9502
▁अग्नि	-10.9509
▁ठेवते	-10.951
▁मनसे	-10.9512
▁तड	-10.9515
▁अकरा	-10.9518
▁परंतू	-10.9519
▁your	-10.9521
▁नांव	-10.9521
▁अस्व	-10.9526
▁लाकडी	-10.953
▁लोगो	-10.9535
▁ऐक्रेलिक	-10.9541
पब्लिक	-10.9552
▁म्हणण्या	-10.9554
▁मागतो	-10.9554
थ्या	-10.9556
मोड	-10.9556
चालन	-10.9558
rin	-10.9558
▁२८	-10.9561
▁कर्जमाफी	-10.9563
▁गिटार	-10.9563
▁विसरलो	-10.9576
▁भाकरी	-10.9578
▁शिखर	-10.9581
▁देवळा	-10.9586
▁मुख्यमंत्र्यां	-10.9588
▁पाठविण्या	-10.9594
▁उलगड	-10.9596
▁धूळ	-10.9598
▁मऊ	-10.9604
▁केरळ	-10.9607
▁माघार	-10.9608
▁टोपी	-10.9609
▁२००९	-10.9619
CE	-10.962
▁जाण्यास	-10.962
पुस्तक	-10.9621
▁निबंध	-10.9621
▁लागे	-10.9622
▁स्वर्गात	-10.9627
▁खेच	-10.9627
लेखन	-10.963
▁मळ	-10.9633
▁मृत्यूनंतर	-10.9636
▁३१	-10.9638
▁सम्राट	-10.964
अनु	-10.9645
▁Hack	-10.965
▁निँगबॉ	-10.9651
▁वर्षापूर्वी	-10.9651
▁श्रीकृष्ण	-10.9653
▁स्थानावर	-10.9654
▁लोखंड	-10.9663
▁नोंदणीकृत	-10.9664
▁मेक्सिको	-10.9673
vo	-10.9675
▁बंधू	-10.9675
▁अजुन	-10.9678
▁होंडा	-10.9682
▁आपापल्या	-10.9684
▁ओपन	-10.9685
▁यकृत	-10.9685
▁म्हणतील	-10.9685
▁इराक	-10.9686
▁गावातील	-10.9686
▁नियुक्त	-10.969
▁Ta	-10.9693
▁स्वित्झर्लंड	-10.9695
कोड	-10.9701
▁वाढविण्यासाठी	-10.9702
uck	-10.9703
▁घाण	-10.9705
▁शोषण	-10.9707
▁अरेरे	-10.9708
तुझ्या	-10.971
▁संकुल	-10.9711
▁मिनिटांत	-10.9715
▁लहानपणी	-10.9718
▁भाविक	-10.972
ET	-10.9724
▁स्वीडन	-10.9728
▁शहाणपण	-10.9729
▁निवेदन	-10.9729
▁२०१८	-10.973
रियल	-10.9738
▁फिरव	-10.9742
▁म्हणणार	-10.9744
▁सिंगल	-10.9747
▁कॉपी	-10.9749
▁तुकडा	-10.9751
▁ठोस	-10.9751
मुख्य	-10.9752
▁गरिब	-10.9752
सिद्ध	-10.9753
▁मुख्यालय	-10.9761
▁भाजी	-10.9764
्मय	-10.9771
▁विषयांवर	-10.9773
▁क्रमांकावर	-10.9775
▁कर्मचार्‍यां	-10.9784
▁पराभूत	-10.9785
▁नशीब	-10.9785
▁द्यायची	-10.9786
▁संयोजन	-10.9789
▁सोडण्या	-10.9791
▁पडलो	-10.9793
▁वैद्य	-10.9793
भोवताल	-10.9796
ism	-10.9797
▁पोर	-10.9801
▁राहता	-10.9803
view	-10.9807
▁वेळापत्रक	-10.9807
९७	-10.9814
▁येताना	-10.9814
▁मेळ	-10.9815
▁निलंबित	-10.9818
▁लाकूड	-10.9818
rn	-10.9828
▁अमेरिकेचा	-10.9828
▁प्रस्थापित	-10.9832
▁उर्	-10.9832
▁आदी	-10.9837
▁800	-10.9838
▁स्वतःहून	-10.9855
▁अमृत	-10.9856
▁म्हणेल	-10.9856
fa	-10.9857
विशेष	-10.9858
lot	-10.9868
▁क्रॉस	-10.9873
▁एफओबी	-10.9874
▁मल्टी	-10.9874
▁लेसर	-10.9875
च्छेद	-10.9875
एमसी	-10.9876
▁सदा	-10.9876
९६	-10.9877
▁संपणार	-10.9877
क्रांती	-10.9881
▁घेतील	-10.9881
▁Mobile	-10.9886
▁स्थायी	-10.9886
▁सौम्य	-10.989
▁उडव	-10.989
▁प्रथा	-10.9891
▁चौथ्या	-10.9898
(11	-10.9899
▁एस्	-10.99
▁गोव्या	-10.9903
▁क्वचित	-10.9908
▁द्यायचा	-10.991
▁ड्रॉप	-10.992
▁नेपाळ	-10.992
▁सनातन	-10.9921
ring	-10.9922
(5	-10.9922
▁तालुका	-10.9928
OR	-10.9935
▁not	-10.9937
▁सहाय्यक	-10.9941
▁from	-10.9954
▁प्रस्तावित	-10.9956
▁वडिलांनी	-10.9959
▁पुढची	-10.9963
▁बदलण्याची	-10.9964
▁मुळीच	-10.9967
राष्ट्रीय	-10.997
▁ताल	-10.9977
▁सिग्नल	-10.9977
cess	-10.9977
▁https	-10.9977
▁लावू	-10.9979
▁घडल्या	-10.9982
ME	-10.9984
▁वर्षभरात	-10.9984
▁हजर	-10.9986
▁शर्ट	-10.9986
▁सायंकाळी	-10.9988
▁दोघं	-10.9988
▁पैलू	-10.9988
कोट	-10.9988
TO	-10.9989
▁अनुकरण	-10.9993
▁अमेरिकेने	-10.9995
▁महाराष्ट्रातील	-10.9998
▁आक्षेप	-11
▁वायू	-11.0005
५५	-11.0006
▁श्रीमती	-11.0011
▁निष्ठा	-11.0019
▁रथ	-11.002
▁ह्रदय	-11.0022
▁सोहळा	-11.0022
▁मिश्र	-11.0026
ान्त	-11.003
बुधवार	-11.0033
ware	-11.0034
▁2006	-11.0037
▁वतीने	-11.0038
▁अडव	-11.0038
▁OEM	-11.0045
▁पालिके	-11.0045
▁५००	-11.0052
▁कसली	-11.0055
ांसमोर	-11.0056
त्रि	-11.0058
▁कट्टर	-11.0058
▁वेस्ट	-11.0059
▁लेबल	-11.006
▁रुग्णांना	-11.0061
▁अपहरण	-11.0068
▁देशभक्त	-11.0074
ling	-11.0078
▁मंजुरी	-11.008
▁प्लीज	-11.008
▁ग्रेड	-11.0084
▁ठरतो	-11.0086
▁विपरीत	-11.0092
▁लिहू	-11.0102
▁एकंदर	-11.0109
▁सादरीकरण	-11.0112
▁बेबी	-11.0113
▁बोलावले	-11.0114
ऱ	-11.0115
▁दडप	-11.0119
▁२०१२	-11.0127
४६	-11.0131
▁चॅनल	-11.0138
ship	-11.0141
गाडी	-11.0148
▁आत्तापर्यंत	-11.0156
cle	-11.0159
▁टेस्टोस्टेरॉन	-11.0161
NUM	-11.0161
▁पीटर	-11.0163
गडी	-11.0165
▁संभव	-11.0166
▁पथक	-11.0166
▁वंचित	-11.0173
▁कांही	-11.0178
▁क्रूर	-11.018
▁ताज्या	-11.0185
▁कार्यवाही	-11.0185
▁दुपार	-11.0185
▁सोमवार	-11.0192
▁नेमकी	-11.0205
▁मनोरंजन	-11.0208
▁टॉवर	-11.0213
des	-11.0215
▁आवडणार	-11.0216
▁विश्वासार्ह	-11.0219
▁प्रभाग	-11.022
tom	-11.0227
▁कॅबिनेट	-11.0231
▁आइ	-11.0237
▁कॉर्	-11.0241
▁अनुयायी	-11.0243
▁खेळाडूंना	-11.0245
▁पोषण	-11.0245
▁गाई	-11.0249
जन्म	-11.025
▁तिन्ही	-11.0255
▁शालेय	-11.0255
▁२०१५	-11.0256
▁शक्‍यता	-11.0274
झोन	-11.0277
ांहून	-11.0286
▁थकले	-11.029
▁टिळक	-11.029
िनो	-11.0297
१६	-11.0297
▁तेजस्वी	-11.0302
▁चाहता	-11.0302
▁हार्डवेअर	-11.0302
▁Ab	-11.0306
▁शासनाने	-11.0311
▁भीषण	-11.0314
▁चौथा	-11.0317
▁मुख्यतः	-11.0324
▁एक्सप्रेस	-11.0325
क्‍क	-11.033
वळ्या	-11.033
▁मोहीम	-11.0331
▁वसाहत	-11.0337
▁समजेल	-11.0341
तेव्हा	-11.0345
▁एव्ह	-11.0349
दक्षिण	-11.0351
▁देशमुख	-11.0357
▁राजीनामा	-11.0361
▁सोसायटी	-11.0373
▁फोल्डर	-11.0373
▁अधिनियम	-11.0373
▁चालणे	-11.0373
▁वापरकर्त्यांना	-11.0376
▁ग्रेट	-11.0377
▁युरोपीय	-11.0378
▁राणे	-11.0378
▁नग्न	-11.0383
▁बायोडेटा	-11.0385
▁सविस्तर	-11.0385
▁जागरूक	-11.0385
▁त्याचवेळी	-11.0386
▁करशील	-11.0387
▁यम	-11.039
▁रुपयांची	-11.039
▁वर्षापासून	-11.0391
▁दिवे	-11.0392
▁पुनर्वसन	-11.0397
▁थांबवू	-11.04
▁बायो	-11.0401
▁प्रतिबंधित	-11.0402
▁पाहूया	-11.0405
▁Man	-11.0405
▁जाणवले	-11.0408
▁यांत्रिक	-11.0408
▁आतंकवाद	-11.0409
▁चिंतन	-11.0409
▁पातळ	-11.0413
▁मोटर्स	-11.0415
▁हरि	-11.0417
▁भाषांमध्ये	-11.0423
▁आल्यानंतर	-11.0423
▁डिग्री	-11.0432
▁कुठं	-11.0432
▁संमती	-11.0433
▁मायक्रो	-11.0433
▁गमावले	-11.0435
मुळं	-11.0437
▁निर्णायक	-11.0444
▁प्रेरणादायी	-11.0446
NE	-11.0449
▁मनुष्यबळ	-11.0452
▁शूटिंग	-11.0461
विरुध्द	-11.0468
▁महात्मा	-11.0468
एफडी	-11.0468
▁संस्थापक	-11.0469
▁हस्तक्षेप	-11.0469
▁Of	-11.0471
४९	-11.0475
▁आशे	-11.0481
▁लेन	-11.0482
जागृती	-11.0482
▁उमट	-11.0482
▁फारसा	-11.0483
▁डोंगरावर	-11.0484
▁मेघ	-11.0485
▁Online	-11.0492
▁डेस्कटॉप	-11.0492
॥	-11.0497
▁Act	-11.0503
▁हायड्रो	-11.0516
▁मुखपृष्ठ	-11.0517
▁जायची	-11.0517
क्लि	-11.0518
▁ठेवायला	-11.052
▁मध्यभागी	-11.0528
0.5	-11.0532
▁हल्ली	-11.0536
लायक	-11.054
▁बालपण	-11.054
▁बाजारपेठ	-11.0543
▁बोलायचे	-11.0543
▁सिंग	-11.0545
press	-11.0549
▁अनुमती	-11.0553
▁विलंब	-11.0553
▁कर्णधार	-11.0553
ाध्यक्ष	-11.0555
▁बेल्ट	-11.0561
व्यतिरिक्त	-11.0564
▁आकृती	-11.0567
▁हिंदुत्व	-11.0569
ound	-11.057
▁सानुकूलित	-11.0571
▁बेथ	-11.0573
▁व्हिडीओ	-11.0577
▁२०१३	-11.0577
▁कृपे	-11.0577
▁मातृ	-11.0581
चिन्ह	-11.0581
▁पहाटे	-11.0584
▁दीर्घकालीन	-11.059
▁वर्तमानपत्र	-11.0592
▁धागा	-11.0601
▁प्रियकर	-11.0601
▁ब्रिटीश	-11.0613
▁सर्वशक्तिमान	-11.0613
▁कळवा	-11.0615
▁06:	-11.0616
▁मालमत्ते	-11.0625
▁घोटाळा	-11.0625
▁मेडिकल	-11.0625
▁दुखाव	-11.0627
डिओ	-11.0636
▁ईश्‍वर	-11.0638
▁निरनिराळ	-11.0638
▁नकळत	-11.0638
▁सफल	-11.0639
▁समारंभ	-11.0639
▁वर्गीकरण	-11.0639
▁नसतं	-11.064
ढ्या	-11.0647
▁टॉप	-11.0652
▁करण्यासारखे	-11.0653
कर्ते	-11.0657
box	-11.0658
८४	-11.0661
▁आमंत्रित	-11.0662
▁शिंदे	-11.0665
▁मावळ	-11.0671
▁संदेष्ट्या	-11.0674
▁पॉइंट	-11.0674
▁खालच्या	-11.0676
▁क्लास	-11.0686
▁मेष	-11.069
▁सुरेश	-11.0691
qui	-11.0698
▁World	-11.0699
▁बघितला	-11.0699
▁आशय	-11.07
▁बळकट	-11.0701
स्टेर	-11.0703
समवेत	-11.0704
▁क्वा	-11.071
पीएम	-11.0711
▁अमरावती	-11.0711
▁शेकडो	-11.0711
▁भ्रम	-11.0712
▁दोस्त	-11.0715
▁अधिकाऱ्यांनी	-11.0717
▁स्टेट	-11.072
▁कमकुवत	-11.0723
▁एकटाच	-11.0725
▁सावली	-11.0732
▁वास्तु	-11.0736
uro	-11.0744
▁शक्‍य	-11.0745
vent	-11.0745
ण्यायोग्य	-11.0745
▁पेपैल	-11.0748
▁मॉड्यूल	-11.0748
▁स्मारक	-11.0748
▁हल्ले	-11.0748
▁दुखापत	-11.0749
▁जेवायला	-11.0753
▁संताप	-11.0754
ED	-11.0757
ण्याकरिता	-11.0757
▁असलं	-11.0761
▁हॅक	-11.0768
▁पन्नास	-11.0773
संवाद	-11.0774
▁प्रतिष्ठापन	-11.0775
▁अनाथ	-11.0776
▁अशाप्रकारे	-11.0781
माध्यम	-11.0783
मधला	-11.0787
▁महिलांसाठी	-11.0788
▁पुढीलप्रमाणे	-11.079
ney	-11.0792
▁आणणार	-11.0797
▁बॉलिवूड	-11.0798
▁अनिश्चित	-11.0798
▁विहिरी	-11.0798
टाळ्या	-11.0806
च्ची	-11.0809
▁बास्केट	-11.081
▁कोश	-11.0812
▁कुत्रे	-11.0815
▁परतावा	-11.0816
ावधी	-11.0816
▁झाल्यामुळे	-11.0822
▁स्वाभाविक	-11.0822
▁प्रजाती	-11.0822
ज्योत	-11.0824
▁लिहिला	-11.0824
umb	-11.0826
▁Dis	-11.0829
list	-11.0829
मूर्ती	-11.0832
▁क्रश	-11.0832
▁जमले	-11.084
chi	-11.0849
▁पीडित	-11.0849
६४	-11.0853
▁नवरा	-11.0855
▁सापडेल	-11.0858
▁अखंड	-11.0859
▁अपलोड	-11.086
३७	-11.086
▁दैवत	-11.0861
५४	-11.0868
▁सुमारास	-11.0872
▁पहायला	-11.0874
▁दुनिया	-11.0879
▁ब्रश	-11.0883
▁स्टॉकिंग्स	-11.0885
cks	-11.0887
▁फायर	-11.0888
rr	-11.0889
▁फॅक्स	-11.0891
row	-11.0901
१४	-11.0903
▁संगीतकार	-11.0903
»	-11.0908
▁वाहतुकी	-11.091
▁सफरचंद	-11.091
आयसी	-11.0912
▁खातात	-11.0913
▁पाहणार	-11.0913
▁एकमेकांशी	-11.0916
▁सोलापूर	-11.0922
▁तिसरे	-11.0922
▁चाळ	-11.0923
▁गति	-11.0929
▁एकटीच	-11.0931
▁संक्षिप्त	-11.0935
एनएक्स	-11.094
][	-11.0946
निर्देश	-11.0947
▁अविश्वसनीय	-11.0947
▁शमुवेल	-11.0947
▁कुंभ	-11.095
▁आर्क	-11.0951
pri	-11.0954
▁विमानतळावर	-11.0955
▁अँटी	-11.0958
▁कॉर्पोरेट	-11.0973
▁दागिने	-11.0973
शुद्ध	-11.0973
५६	-11.0976
▁आदि	-11.0987
▁अवतार	-11.0988
▁बँकिंग	-11.0989
▁जप्त	-11.0989
lock	-11.0993
▁WhatsApp	-11.0998
▁खूश	-11.0998
▁म्हणायला	-11.1008
▁Facebook	-11.1011
▁आश्चर्यचकित	-11.1011
▁पंजाब	-11.1011
▁भाग्यवान	-11.1013
▁ग्लॅमर	-11.1023
▁शॉवर	-11.1023
▁आदित्य	-11.1028
▁नवशिक्या	-11.1036
▁आयपीएल	-11.1036
प्शन	-11.1038
fu	-11.1044
ving	-11.1049
▁गप्प	-11.1058
मेझॉन	-11.1061
▁इंडियन	-11.1061
▁अणु	-11.1063
▁रसिक	-11.1066
▁आठवतो	-11.1067
▁अर्थसंकल्प	-11.1074
▁पोशाख	-11.1074
▁बागेत	-11.1074
दोष	-11.1076
▁३००	-11.1078
▁नमाज	-11.1079
▁स्प्रे	-11.1083
ोसिस	-11.1083
▁कौटुंबिक	-11.1087
▁बक्षिस	-11.1087
▁लेदर	-11.1089
▁अमित	-11.109
pcs	-11.1101
▁व्हिसा	-11.1102
▁साधारणतः	-11.1115
▁जळगाव	-11.1115
▁रेटिंग	-11.1116
▁निघाली	-11.1126
३९	-11.1128
ख्ख	-11.1136
समूह	-11.1147
▁मुहूर्त	-11.1151
▁ब्राह्मण	-11.1151
▁नेवासा	-11.1151
▁जैन	-11.1151
▁निर्देशांक	-11.116
▁झपाट	-11.1164
▁प्रयोगशाळा	-11.1165
▁संवर्धन	-11.1166
▁वायु	-11.1167
२५	-11.1173
▁तिनं	-11.1175
▁Pay	-11.1177
▁साक्षीदार	-11.1181
▁लावा	-11.1199
▁क्वि	-11.12
▁अधिकाऱ्यांना	-11.1201
▁टूर	-11.1201
१७	-11.1202
▁नरेंद्र	-11.1203
▁हटव	-11.1205
▁सांगावे	-11.1205
▁क्लिप	-11.1206
▁सैतान	-11.1207
▁वाचण्या	-11.1208
▁Tra	-11.121
▁स्टेट्स	-11.1214
▁श्रीलंके	-11.1215
▁नेमकं	-11.1216
▁शस्त्रक्रिया	-11.1216
▁बारीक	-11.1216
▁प्रभावीपणे	-11.1217
▁वित्त	-11.1218
▁यहो	-11.1219
mit	-11.1219
पुन्हा	-11.122
पंथ	-11.122
▁पुरूष	-11.1228
▁पदवीधर	-11.1229
▁होस्ट	-11.1235
▁विवरण	-11.1241
▁फडणवीस	-11.1241
▁आण्विक	-11.1241
▁हिस्सा	-11.1241
▁मोकळा	-11.1241
▁रवि	-11.1244
▁जोडणी	-11.1246
▁माहेर	-11.1247
वाहिन्या	-11.125
▁वेळेला	-11.1254
▁स्वारस्य	-11.1254
मधली	-11.1257
▁टिकाऊ	-11.1258
▁बक्षीस	-11.1267
▁बाटल्या	-11.1267
▁नियमितपणे	-11.1268
EC	-11.1273
कडच्या	-11.1274
▁न्यूझीलंड	-11.128
▁प्रादेशिक	-11.128
▁स्ट्रॅप	-11.1282
प्रत्येक	-11.1284
▁स्पर्धात्मक	-11.1295
पुर्वी	-11.1295
▁उन्हाळ्या	-11.1295
▁पाठीशी	-11.1296
▁गियर	-11.1297
▁प्रशिक्षित	-11.1306
▁गोळीबार	-11.1306
▁मिळण्याची	-11.1312
फ़	-11.1317
▁सामन्या	-11.1317
ative	-11.1317
less	-11.1318
▁आयुर्वेद	-11.1319
▁क्लॅसिक	-11.1319
ji	-11.1328
▁अश्व	-11.1331
स्वार	-11.1333
▁तलाक	-11.1333
▁डॅन्सिंग	-11.1345
▁शर्मा	-11.1348
▁होळी	-11.1351
▁ऋतु	-11.1359
▁लाँच	-11.1359
▁link	-11.1359
▁पटेल	-11.1372
६९	-11.1374
▁कळणार	-11.1377
▁कपूर	-11.1382
▁तात्काळ	-11.1385
▁हायड्रॉलिक	-11.1385
▁ब्लोंड	-11.1385
विरूद्ध	-11.1385
▁प्रधान	-11.1385
▁हास्य	-11.1385
३८	-11.1387
▁कर्ण	-11.1396
▁आणीबाणी	-11.1398
▁इस्रायल	-11.1398
▁अध्याय	-11.1398
०१	-11.1399
▁बजेट	-11.1411
▁सामन्यां	-11.1415
▁आढळतात	-11.1418
▁Sha	-11.1422
▁ट्राय	-11.1423
▁ब्राझील	-11.1424
▁गॅगिंग	-11.1424
▁गडबड	-11.1425
▁वक्तव्य	-11.1425
▁घराबाहेर	-11.1435
▁माउंट	-11.1438
▁यायचे	-11.1438
ica	-11.1449
▁पुनर्प्राप्ती	-11.1451
gg	-11.1465
▁ग्रंथालय	-11.1466
mar	-11.1468
▁रेस्टॉरंट	-11.1477
सरकार	-11.1479
▁फुकट	-11.148
▁स्कॅन	-11.1486
▁सप्ताह	-11.1504
▁ट्रेलर	-11.1518
▁२००४	-11.1521
▁मांडणी	-11.1522
▁कंटेनर	-11.1531
▁पेट्रोल	-11.1531
▁नेमणूक	-11.1532
▁08:	-11.1534
1.0	-11.1544
▁कॉन्फिगर	-11.1544
▁शेतकऱ्यांनी	-11.1545
गुरू	-11.1547
SE	-11.1551
▁मासेमारी	-11.1557
▁नव्हत्या	-11.1557
▁लावणार	-11.1557
▁शूज	-11.1558
पुढील	-11.1566
▁विकृत	-11.1566
▁हस्तांतरण	-11.1571
▁दौऱ्या	-11.1571
140	-11.1576
▁कार्यकर्ता	-11.1579
▁हत्ये	-11.1584
▁भीम	-11.1588
▁प्रतिभा	-11.1591
HE	-11.1593
त्पाद	-11.1595
▁मोठय़ा	-11.1597
गॅंगबॅंग	-11.1597
duct	-11.1599
▁भाज्या	-11.1601
#	-11.1607
0.00	-11.1611
शॉप	-11.1616
▁मधु	-11.1619
▁खांद्यावर	-11.1624
▁सशक्त	-11.1625
get	-11.1625
▁प्राधिकरण	-11.1638
ब्रो	-11.1641
▁ऐकलं	-11.1641
▁भूतकाळ	-11.1641
▁अभ्यागत	-11.1651
▁प्रतिबिंब	-11.1651
▁डेटिंग	-11.1652
▁घास	-11.1661
पाठ	-11.1664
▁तुलनेने	-11.1665
dd	-11.1665
GB	-11.1667
▁धडक	-11.1668
▁चालविण्या	-11.1668
▁शाखे	-11.167
▁पडदा	-11.1681
ोत्सव	-11.1683
▁घालण्या	-11.1686
▁राहिल	-11.1691
▁पाठपुरावा	-11.1692
▁YouTube	-11.1692
▁अंमल	-11.1693
७७	-11.1695
▁अपत्य	-11.17
▁चेन्नई	-11.1705
▁ग्रॅनड्मा	-11.1705
▁गाढव	-11.1706
प्रभु	-11.1707
▁07:	-11.1709
वाक्य	-11.171
▁ट्रस्ट	-11.1717
▁Bonus	-11.1719
▁महिन्यांपूर्वी	-11.1719
▁अडीच	-11.1723
▁उर्जा	-11.1726
यहूद	-11.1728
▁घडेल	-11.173
▁कूपन	-11.1733
▁पूर्णतः	-11.1741
▁धातूंचे	-11.1741
▁अनोळखी	-11.1746
िष्णु	-11.1748
▁कलाकृती	-11.1749
▁वस्तुमान	-11.1751
▁हालचाल	-11.1752
▁What	-11.176
▁वैभव	-11.1761
▁भूकंप	-11.1776
▁तशा	-11.1777
▁मंत्रिमंडळ	-11.1787
▁स्पीड	-11.1788
▁बॉम्ब	-11.1789
▁अरुण	-11.1791
्स्ट	-11.1792
▁धडपड	-11.1801
▁मध्यवर्ती	-11.1801
▁दयाळू	-11.1802
▁QR	-11.1805
right	-11.1808
▁ग्रीस	-11.1815
▁स्क्रू	-11.1815
▁मेंढ्या	-11.1815
▁धक्कादायक	-11.1816
▁यूएसए	-11.1819
▁टॉपलेस	-11.1829
▁चिंते	-11.1829
▁२००८	-11.1831
▁परिधान	-11.1832
▁वेल्डिंग	-11.1842
RS	-11.1852
▁अभिप्राय	-11.1856
अंतर्गत	-11.1873
▁जिंकण्या	-11.1873
▁समन्वय	-11.1884
▁एसएमएस	-11.1897
▁गुन्ह्या	-11.1897
▁आश्रय	-11.1897
▁व्हाइट	-11.1898
▁शीट	-11.1905
▁खांब	-11.1909
▁शांघाय	-11.1911
▁परिचित	-11.1912
▁स्वतंत्रपणे	-11.1914
▁HGH	-11.1925
वर्धन	-11.1927
▁ग्रॅ	-11.1935
▁प्लेयर	-11.194
▁नविन	-11.1944
▁माळ	-11.1945
▁उत्तीर्ण	-11.1953
गांव	-11.1963
▁सेवन	-11.1963
▁२०००	-11.1966
▁शौचालय	-11.1967
▁जनरेटर	-11.1967
▁ड्रेस	-11.1967
▁मोर्चा	-11.1968
ise	-11.198
▁महापौर	-11.1981
▁सुदैवाने	-11.1981
▁स्नान	-11.1983
▁inter	-11.1995
▁अवशेष	-11.1995
▁विसरणार	-11.1995
▁वाचलं	-11.2004
पूर्ती	-11.2007
▁संपादित	-11.2009
▁मंगळवार	-11.2016
ऱ्हे	-11.2017
▁खिडक्या	-11.2023
▁हेलिकॉप्टर	-11.2023
▁अमर्यादित	-11.2037
▁खनिज	-11.2038
▁वाचण्यासाठी	-11.2049
▁आडनाव	-11.2052
अकस	-11.2058
▁वितरित	-11.2065
▁रकमे	-11.2065
▁रिक्षा	-11.2066
▁बोलायचं	-11.2083
मोठ्या	-11.2086
▁उपोषण	-11.2093
▁स्टेरॉइड	-11.2093
▁हिरव्या	-11.2093
▁एकेकाळी	-11.2093
▁रूग्ण	-11.2107
▁कालबाह्य	-11.2107
▁ऍसिड	-11.2109
▁घालवत	-11.2116
पश्चात्ताप	-11.2121
▁थायलंड	-11.2121
▁दृढ	-11.2121
▁सोपव	-11.2134
▁पिवळा	-11.2136
▁कविते	-11.2136
▁बर्लिन	-11.2136
▁खबरदारी	-11.215
▁And	-11.215
▁द्वार	-11.2163
▁thought	-11.2164
▁उभ्या	-11.2164
▁भडक	-11.2169
▁निर्धार	-11.2174
▁All	-11.2177
eck	-11.2187
▁अध्यात्म	-11.2192
▁तिकिट	-11.2207
कृष्ण	-11.221
▁उन्हाळा	-11.221
▁ऑक्सिजन	-11.2221
▁अभियंता	-11.2221
▁मध्यरात्री	-11.2221
▁विभाजन	-11.2221
▁चिकन	-11.2226
ॉइड	-11.2233
▁युध्द	-11.2239
▁उष्ण	-11.2249
▁नम्र	-11.225
▁Get	-11.2256
▁साहजिकच	-11.2264
▁स्टोरेज	-11.2264
क्रिया	-11.2264
▁माधव	-11.2268
▁गुंतव	-11.2277
▁चुंबन	-11.2278
▁घंटा	-11.2279
▁भाष्य	-11.2279
▁चमकदार	-11.2283
विभाग	-11.2283
▁पटकन	-11.2283
▁सांगायचं	-11.2285
▁पलिष्ट्यां	-11.2293
▁मोटारसायकल	-11.2293
▁गुरुदेव	-11.2298
६६	-11.2301
सुधा	-11.2301
▁गुंतवणुकी	-11.2307
CI	-11.2321
▁प्रीति	-11.2322
▁वकिल	-11.2344
ोक्त	-11.2345
▁Ste	-11.2348
▁Rikoooo	-11.235
▁जॉब	-11.235
▁वागणूक	-11.2368
इंग्रजी	-11.2372
▁कदम	-11.2372
▁वृध्द	-11.2379
mor	-11.2393
▁विठ्ठल	-11.2395
▁२००६	-11.2396
▁सावंत	-11.2399
▁कमीतकमी	-11.2409
▁परकीय	-11.2409
▁जितके	-11.2409
▁हिंसाचार	-11.2409
तुझे	-11.2432
▁बियाणे	-11.2438
▁घरच्यां	-11.2443
▁संयम	-11.2446
▁क्रमवारी	-11.2452
▁वाचल्या	-11.2469
▁महत्वपूर्ण	-11.2471
▁सेटिंग्ज	-11.2482
▁करायचो	-11.2494
▁गरोदर	-11.2496
▁अकादमी	-11.2511
▁खिळ	-11.2513
▁नॉटी	-11.252
▁ओव्हर	-11.2524
▁Play	-11.2526
▁सुरुवातीपासून	-11.2526
▁अधीन	-11.2526
▁दुर्मिळ	-11.2527
▁हट्ट	-11.2527
▁मिळविले	-11.254
▁अनावश्यक	-11.254
▁यामागचे	-11.254
▁तुम्हांस	-11.2541
▁गंगा	-11.2545
▁पोकळ	-11.2546
▁ताबा	-11.2547
You	-11.2554
▁cryptocurrency	-11.2555
▁अग्रगण्य	-11.2555
▁फर्निचर	-11.2555
▁होवो	-11.2555
▁Tu	-11.2562
▁तत्काळ	-11.257
▁शुध्द	-11.2572
TE	-11.2578
▁एकदिवसीय	-11.2585
ject	-11.2588
ेटिव्ह	-11.2598
▁किंबहुना	-11.26
▁दुर्घटना	-11.26
▁लक्झरी	-11.26
▁१९९०	-11.26
▁तुर्की	-11.26
▁कापून	-11.2604
▁व्यावहारिक	-11.2615
▁मिग्रॅ	-11.2615
▁पितळ	-11.2616
▁वळव	-11.262
▁अभिनंदन	-11.2629
▁शिष्यवृत्ती	-11.2629
▁लिहिणार	-11.263
▁प्रशासक	-11.2641
▁तंबू	-11.2644
▁रोहित	-11.2649
▁सर्वसाधारणपणे	-11.2649
▁२००१	-11.2649
time	-11.2656
संगीत	-11.266
▁ग्रूप	-11.2661
▁फंक्शन	-11.2674
▁टोय्स	-11.2674
▁लेप	-11.2678
xBet	-11.2689
▁संपुष्टात	-11.2689
▁फौज	-11.269
पवित्र	-11.269
▁पेटंट	-11.2696
▁सखोल	-11.2704
..........	-11.2704
▁रवाना	-11.2704
▁Comments	-11.2705
back	-11.2715
▁यॉर्क	-11.2719
▁बुरशी	-11.2719
▁लिटर	-11.272
▁सारांश	-11.2721
नुरूप	-11.2727
पासुन	-11.2735
▁गडकरी	-11.2737
ऑफ	-11.2747
▁Phone	-11.2749
▁आकलन	-11.2749
६८	-11.2766
▁विश्‍व	-11.2776
▁पूर्तता	-11.2779
▁मोकळी	-11.278
▁कॅन्सर	-11.278
▁रोमांचक	-11.2781
▁04:	-11.2783
▁दर्शविले	-11.2783
▁कमजोर	-11.2795
▁रॉयल	-11.2797
▁विकेट	-11.2797
▁स्पेस	-11.2803
▁किनाऱ्या	-11.281
word	-11.2817
▁जिद्द	-11.282
▁अलीकडील	-11.2825
▁वेस्टर्न	-11.2826
प्रमुख	-11.2833
▁म्हणणं	-11.2836
▁अनिवार्य	-11.284
▁निमंत्रण	-11.284
▁लिहिलं	-11.284
▁फ्लाइट	-11.2843
आऊट	-11.2843
1.1	-11.2848
▁टाकणार	-11.2849
▁दिवसेंदिवस	-11.2855
▁स्कूटर	-11.2855
▁see	-11.2858
▁कोणतं	-11.2864
▁परवडणार	-11.2865
▁मुंडे	-11.2866
▁have	-11.2872
व्यवहार	-11.2887
▁विष्णू	-11.2901
▁वेगळेपण	-11.2901
▁पंडित	-11.2901
▁साथीदार	-11.2917
▁पायाभूत	-11.2918
वाहिनी	-11.2941
५९	-11.2946
▁सुरळीत	-11.2947
▁पत्कर	-11.2963
▁महसूल	-11.2963
फॉर्म	-11.2964
▁बार्	-11.2966
▁sc	-11.2972
▁अडथळे	-11.2978
▁शाकाहारी	-11.2978
▁प्रचलित	-11.2978
▁२००५	-11.2981
८८	-11.2982
▁म्हणायचं	-11.2988
▁तपकिरी	-11.2993
▁प्रस्तुत	-11.2993
▁परीक्षक	-11.2994
▁बाथरूम	-11.2995
▁चित्रकला	-11.2996
▁but	-11.3002
▁नवरात्र	-11.301
▁उजळ	-11.301
▁विलीन	-11.3013
▁असोसिएशन	-11.3024
▁पावसाळ्यात	-11.3025
▁अपार्टमेंट	-11.304
▁कठिण	-11.3055
▁मलेशिया	-11.3055
▁कुणीतरी	-11.3059
५७	-11.3069
▁कैद्यां	-11.3071
▁गॅलरी	-11.3071
▁डेटाबेस	-11.3072
▁प्रीती	-11.3074
निवड	-11.3077
▁घेणं	-11.3084
3.5	-11.3086
International	-11.3086
▁कालांतराने	-11.3086
▁नुकताच	-11.3086
▁स्पाइ	-11.31
▁दूरध्वनी	-11.3102
▁ट्विट	-11.3112
▁Question	-11.3133
▁अनपेक्षित	-11.3133
▁घडामोडी	-11.3133
▁सोप्या	-11.3133
▁बघितलं	-11.3134
▁One	-11.3143
▁स्टेरॉईड	-11.3149
▁भेदभाव	-11.3149
युद्ध	-11.3155
▁बॉस्	-11.3156
▁रॉबर्ट	-11.3165
▁बोईंग	-11.3165
व्यवस्थे	-11.3166
▁उपभोग	-11.318
▁तटस्थ	-11.318
▁मुक्काम	-11.3181
ाधीन	-11.3181
▁चित्त	-11.3189
▁अध्यक्षपद	-11.3191
▁इनपुट	-11.3196
▁टाइप	-11.3196
▁वेढ	-11.3212
▁इस्टेट	-11.3212
▁iOS	-11.3212
▁Holm	-11.3212
▁लिहिल्या	-11.3212
▁फील्ड	-11.3216
▁नक्षल	-11.3226
७८	-11.3226
▁आराखडा	-11.3228
▁बेपत्ता	-11.3228
▁छावणी	-11.3244
▁प्रवेशद्वार	-11.3247
▁विक्रेत्या	-11.3259
▁चुकीचं	-11.326
▁पट्टा	-11.3261
▁जांभ	-11.3261
▁पीएच	-11.3271
प्लिकेशन	-11.3275
हाउस	-11.3284
▁News	-11.3291
▁प्रेरित	-11.3291
▁कुंपण	-11.3292
▁ट्रेंड	-11.3293
▁घडवि	-11.3294
▁कमांड	-11.3295
▁ताजे	-11.3296
▁लीग	-11.3303
▁दर्जेदार	-11.3307
▁लॅपटॉप	-11.3307
▁विधवा	-11.3308
▁सजीव	-11.3309
▁दुष्	-11.3315
▁टाटा	-11.3315
द्रोह	-11.3316
ful	-11.332
नाशक	-11.3322
▁निश्चय	-11.3324
▁हिडन	-11.3324
▁शूट	-11.3325
▁एचजीएच	-11.3339
▁वृषणात	-11.3339
▁पशू	-11.3339
▁सोडतीचे	-11.334
▁jackpot	-11.3355
▁कॅलिफोर्निया	-11.3355
▁समायोजित	-11.3355
▁व्याजदर	-11.3358
▁पिंपरी	-11.3371
▁इंजिनिअर	-11.3372
▁पराक्रम	-11.3373
▁सौदी	-11.3378
▁ठाण्या	-11.3382
▁परवड	-11.3383
मंत्रिपद	-11.3388
▁अभियान	-11.3389
▁व्रत	-11.3391
▁सुस्पष्ट	-11.3403
▁सभ्य	-11.3403
▁सुसज्ज	-11.3403
▁एटीएम	-11.3404
▁तोडगा	-11.3404
▁परंपरे	-11.3419
▁ISO	-11.3419
▁xHamster	-11.3435
▁नोटीस	-11.3437
▁यहोशवा	-11.3452
निश्च	-11.3452
▁ड्रम	-11.3454
▁निर्बंध	-11.3456
▁पुराण	-11.3462
रेषे	-11.3463
▁ग्लोबल	-11.3468
▁महापालिका	-11.3468
▁प्रार्थने	-11.3468
other	-11.3474
इस्राएल	-11.3478
योहान	-11.3478
अभय	-11.3482
▁प्लगइन	-11.3484
▁संवेदना	-11.3484
लॅंड	-11.3498
▁स्वाक्षरी	-11.35
▁खोट्या	-11.3505
▁3:1	-11.3509
भूषण	-11.3515
▁चांदण्या	-11.3517
0.3	-11.3518
▁त्रासदायक	-11.352
▁वायरलेस	-11.3533
▁अतुल	-11.3534
▁हिरवा	-11.3534
▁बंधनकारक	-11.3551
▁चतुर	-11.3551
▁अॅक्सेसरीज	-11.3565
▁कँडी	-11.3566
▁संज्ञा	-11.3575
सिंह	-11.3578
▁iPhone	-11.3582
▁विचारसरणी	-11.3582
▁समतोल	-11.3583
ium	-11.3597
▁सर्जनशील	-11.3598
▁डोमेन	-11.3598
स्तरीय	-11.3602
▁info	-11.3602
▁खुद्द	-11.3603
८६	-11.3609
▁रहिवासी	-11.3615
▁चैतन्य	-11.3615
▁रिचर्ड	-11.3631
▁युनिव्हर्सिटी	-11.3631
▁आरामदायक	-11.3633
▁doubt	-11.3648
▁आवर्जून	-11.3648
▁प्रथिने	-11.3648
▁साहस	-11.3653
८७	-11.3663
विष्कार	-11.3664
▁जिल्हाधिकारी	-11.3664
वाल्यां	-11.368
▁डोकेदुखी	-11.3681
▁आडिशन	-11.3681
▁पोर्टेबल	-11.3681
▁स्‍	-11.3685
▁झेप	-11.3686
समलैंगिक	-11.3697
▁संकलित	-11.3697
▁कल्पने	-11.3698
▁मनोमन	-11.3701
▁सुरुवातीच्या	-11.3702
▁पॅशनेट	-11.3714
▁सिंहासन	-11.3714
▁परतफेड	-11.3714
▁जाणवेल	-11.3718
▁एखाद	-11.3724
परंतु	-11.3728
▁Off	-11.373
▁ऑस्ट्रिया	-11.373
▁अनियमित	-11.373
▁ऍपल	-11.3733
अजून	-11.3745
▁अयशस्वी	-11.3747
▁तब्येत	-11.3747
▁अनिता	-11.3753
ंतर्गत	-11.3758
▁नुकतेच	-11.3764
▁साक्षात्कार	-11.3764
▁अलीशा	-11.3764
▁पद्म	-11.377
▁अपरिहार्य	-11.378
▁तत्कालीन	-11.378
▁गूढ	-11.378
▁1:1	-11.3786
▁वसूल	-11.3806
▁निर्मात्या	-11.3814
▁देशपांडे	-11.3831
▁सार्वत्रिक	-11.3831
▁वर्चस्व	-11.3831
▁विषारी	-11.3831
▁प्रत्यय	-11.3831
love	-11.3832
▁याचिका	-11.3844
▁अस्थिर	-11.3847
▁वाढीव	-11.3855
▁LED	-11.3866
▁नेत्र	-11.3881
▁कॉर्पोरेशन	-11.3881
▁व्हायरल	-11.3881
▁व्हॅक्यूम	-11.3881
▁उत्तेजन	-11.3881
खेरीज	-11.3881
▁बेडरूम	-11.3888
▁अत्याधुनिक	-11.3898
▁प्रोत्साहित	-11.3898
▁मेकअप	-11.3898
▁मार्टिन	-11.3898
▁सोपं	-11.3898
▁स्थाप	-11.3905
▁कंत्राट	-11.3915
▁ज्योतिष	-11.3915
▁शिक्का	-11.3915
७६	-11.3916
▁२००७	-11.3917
एमआय	-11.3925
▁मेजवानी	-11.3932
▁परिश्रम	-11.3932
वणुकी	-11.3942
▁पोर्तुगीज	-11.3949
▁छप्पर	-11.3949
▁Power	-11.3949
▁पिशव्या	-11.3966
मुख्यमंत्र्यांनी	-11.3976
ारंभ	-11.398
▁smile	-11.3983
▁स्टुडिओ	-11.3983
▁लाइव्ह	-11.3983
▁Comp	-11.3983
▁शिबिर	-11.3983
▁उधळ	-11.3983
▁तटबंदी	-11.4
▁स्पॉट	-11.4004
क्‍ट	-11.4009
▁अत्यावश्यक	-11.4017
▁एसीटेट	-11.4017
▁ठिय्या	-11.4017
▁साप्ताहिक	-11.4017
▁स्वास्थ्य	-11.4017
▁आठवतंय	-11.4017
▁सासर	-11.4022
▁विक्रेता	-11.4034
▁National	-11.4034
▁कॉटन	-11.4037
▁name	-11.404
▁नारळ	-11.4046
▁रखड	-11.4051
्फेट	-11.4061
▁अनुभूती	-11.4068
▁share	-11.4069
▁मागितले	-11.407
हायड्र	-11.407
▁आधीपासूनच	-11.4074
▁Author	-11.4086
▁टॅबलेट	-11.4086
▁दृष्टि	-11.4086
▁निरीक्षक	-11.4086
▁कबुली	-11.4086
▁अपडेट	-11.4086
▁विद्यालय	-11.4086
▁ड्रोन	-11.409
1.3	-11.4095
▁नूतनीकरण	-11.4103
▁क्रिप्टो	-11.4103
▁नौदल	-11.4103
▁गंतव्य	-11.4103
▁एक्सचेंज	-11.4103
▁खुर्ची	-11.4103
▁कस्तुरी	-11.412
▁पदार्पण	-11.412
▁साजरी	-11.4121
मधले	-11.4133
▁अधिकार्‍यां	-11.4133
▁सत्ताधारी	-11.4138
मुंबई	-11.4141
▁absolute	-11.4155
▁Instagram	-11.4155
▁पुस्तिका	-11.4155
▁सपाट	-11.4155
play	-11.4158
▁झाल	-11.4159
पश्चात	-11.416
▁Deposit	-11.4172
▁एजन्सी	-11.4172
▁तेवढं	-11.4172
▁खटला	-11.4174
▁मुलभूत	-11.4174
ization	-11.4175
▁नॅशनल	-11.419
▁पारितोषिक	-11.419
▁निगडीत	-11.419
प्रवास	-11.4201
▁तिघां	-11.4204
▁अश्लील	-11.4207
▁उगाच	-11.421
▁उमज	-11.4217
▁बांगलादेश	-11.4224
▁संतुलन	-11.4224
▁खुलासा	-11.4225
▁स्नानगृह	-11.4225
▁उपाध्यक्ष	-11.4227
रॉटिक	-11.4228
▁मिलियन	-11.4232
▁भ्रष्ट	-11.4242
▁भौगोलिक	-11.4242
▁ग्रॉनी	-11.4259
▁स्क्वेअर	-11.4259
▁शॉर्ट	-11.4259
▁फ्रांस	-11.4262
स्थापित	-11.4273
2.1	-11.4277
▁फाउंडेशन	-11.4277
ग्रॅनड्पा	-11.4277
▁तआला	-11.4277
▁मुद्रित	-11.4277
▁पत्त्या	-11.4296
▁नेवासे	-11.4312
▁व्यापाऱ्यां	-11.4312
pdf	-11.4312
▁पडण्या	-11.4317
६७	-11.4319
द्वारा	-11.4323
▁लोकप्रतिनिधी	-11.433
▁हंगेरी	-11.433
येशू	-11.4338
▁घालवू	-11.4339
▁Archives	-11.4347
▁corrup	-11.4347
▁चेतावणी	-11.4347
▁बाप्तिस्मा	-11.4347
▁मुद्द्यां	-11.4348
▁अकोला	-11.4349
▁सॉफ्ट	-11.4349
प्रणाली	-11.4355
▁दहशतवाद्यां	-11.4359
▁थॉमस	-11.4365
▁नौका	-11.4366
ough	-11.4367
▁प्रतिज्ञा	-11.4368
▁नोकऱ्या	-11.4373
▁कालखंड	-11.4383
▁क्रोध	-11.4384
▁त्यायोगे	-11.4384
अच्छे	-11.44
▁अर्धनग्न	-11.4401
▁टर्मिनल	-11.4401
▁बॉडीस्टॉकिंग	-11.4401
▁बघितली	-11.4401
▁अनुसर	-11.4406
▁संचार	-11.4409
▁देखिल	-11.4411
▁2:1	-11.4416
count	-11.4416
लौकिक	-11.4418
▁अनुसूचित	-11.4418
▁थेरपी	-11.4418
▁बेकायदेशीर	-11.4418
▁ओबीस	-11.4422
पश्चिम	-11.4427
▁स्पर्धक	-11.4436
्युलर	-11.444
▁सभापती	-11.4456
भाजप	-11.4465
▁कनान	-11.4485
▁लॅटिन	-11.449
तरुण	-11.4493
▁विरह	-11.4503
▁टॉर्चर	-11.4508
▁प्रतिष्ठित	-11.4508
▁सर्दी	-11.4526
text	-11.4533
मंदिर	-11.4536
▁अल्बम	-11.4541
▁इंडोनेशिया	-11.4544
▁URL	-11.4544
▁must	-11.4544
▁संतुलित	-11.4544
▁दालन	-11.4544
▁फिटिंग्ज	-11.4562
▁थ्रेड	-11.4562
▁शिक्षिका	-11.4562
▁Title	-11.4562
एशियाई	-11.4562
▁इंडस्ट्री	-11.458
▁पोषक	-11.458
▁अठरा	-11.458
Blockchain	-11.4598
▁ऋषी	-11.4598
▁औपचारिक	-11.4598
▁सुप्रसिद्ध	-11.4598
▁Slots	-11.4598
▁नोबेल	-11.4598
▁पुरातन	-11.4599
▁खरेतर	-11.4601
इंग्लिश	-11.4609
▁छत्रपती	-11.4616
▁रोमेनियन	-11.4616
▁कॅलरी	-11.4617
ान्व	-11.4619
▁free	-11.4621
▁चयापचय	-11.4634
हार्डकोर	-11.4635
▁साजरे	-11.4635
▁दाखविण्या	-11.4635
▁टॅब्लेट	-11.4653
▁बॉस्टन	-11.4653
डाउन	-11.4659
▁विनाश	-11.4668
▁सर्वश्रेष्ठ	-11.4671
▁संतोष	-11.4671
उत्पत्ती	-11.4671
▁परिमाण	-11.4676
▁संप्रेषण	-11.4689
▁छपाई	-11.4689
▁हार्दिक	-11.4689
ाक्षर	-11.4696
▁प्राचार्य	-11.4708
द्वीप	-11.4708
▁प्रयोगशाळे	-11.4726
friend	-11.4744
▁वितरीत	-11.4744
ल्युमिनियम	-11.4762
▁विरोधाभास	-11.4763
▁वर्तुळ	-11.4763
▁लहानपणापासून	-11.4763
▁गोपनीय	-11.4763
▁फूड	-11.4764
▁उल्लेखनीय	-11.4765
▁सिस्टीम	-11.4776
▁गृहनिर्माण	-11.4782
5,000	-11.4793
▁दिग्दर्शन	-11.48
▁ध्रुव	-11.48
▁वेश्या	-11.4805
आधारित	-11.4814
▁नियंत्रक	-11.4818
▁फिर्याद	-11.4819
▁प्रोसेसर	-11.4837
▁सहवास	-11.4838
▁उकळ	-11.4844
ोलॉजी	-11.4854
▁जीवाणू	-11.4855
▁दुनिये	-11.4855
पापण्या	-11.4859
▁मापन	-11.4859
▁नेहरू	-11.4874
▁मूल्यमापन	-11.4874
▁मेंढपाळ	-11.4874
▁सिलेंडर	-11.4874
▁हातमोजे	-11.4874
▁अप्रतिम	-11.4874
▁निवासस्थान	-11.4877
साधारण	-11.4891
▁गर्भधारणा	-11.4893
▁नगरसेवक	-11.4893
ावस्थेत	-11.4893
▁new	-11.4893
▁पंचायत	-11.4894
▁नाईक	-11.4894
▁सर्किट	-11.4911
▁Trans	-11.4911
▁चार्ल्स	-11.4911
मागील	-11.4928
विक्री	-11.4929
▁गैरसमज	-11.493
▁नैराश्य	-11.493
▁नमुन्या	-11.493
▁नक्षत्र	-11.493
▁मुख्यत्वे	-11.4931
▁एयर	-11.4933
शुल्क	-11.4937
▁उन्नत	-11.4944
▁विद्वान	-11.4968
graph	-11.4968
▁उपवास	-11.4969
▁बनण्या	-11.4971
▁पालट	-11.498
▁मंगल	-11.4981
▁नुकतीच	-11.4986
▁पुतळा	-11.4986
▁समित्या	-11.501
▁स्पॅंकिंग	-11.5024
▁एलईडी	-11.5024
▁जलरोधक	-11.5026
▁नुसते	-11.5043
▁विसंगत	-11.5043
▁अध्ययन	-11.5062
▁त्वरीत	-11.5062
▁गुपित	-11.5063
▁आयर्लंड	-11.5081
video	-11.5081
▁अश्रू	-11.5081
▁पूरग्रस्तांना	-11.51
▁पहिलं	-11.51
▁प्रतिकूल	-11.51
▁गौरी	-11.51
▁आश्‍चर्य	-11.5119
▁द्रुत	-11.5119
▁अफवा	-11.5121
▁तडजोड	-11.5138
ology	-11.514
▁झळक	-11.5141
▁हयात	-11.5143
▁ऑप्टिकल	-11.5157
▁सहकाऱ्यां	-11.5157
▁नाजूक	-11.5158
▁प्रबोधन	-11.5158
पर्यत	-11.5162
▁निर्माते	-11.5177
▁मेसेज	-11.5177
▁अलेक्झांडर	-11.5196
▁भेटवस्तू	-11.5196
▁लायब्ररी	-11.5196
▁तरतुदी	-11.5196
कॉमर्स	-11.5199
▁सहायक	-11.521
संदिग्ध	-11.5215
▁दुय्यम	-11.5215
▁शत्रु	-11.5215
▁सुरेख	-11.5217
▁टिटजॉब	-11.5234
▁रोटरी	-11.5235
▁ऊर्जे	-11.5254
▁तातडीने	-11.5254
▁फोटोग्राफी	-11.5254
▁थेंब	-11.5254
▁तहान	-11.5259
प्रमाण	-11.5264
▁आक्रोबॅटिक	-11.5273
▁हिंसक	-11.5273
▁आज्ञे	-11.5273
▁पाइप	-11.5273
तज्ज्ञ	-11.5285
▁पार्टनर	-11.5293
▁प्रियांका	-11.5293
▁than	-11.5299
▁तुरुंग	-11.5307
▁टेलिफोन	-11.5312
▁ऑलिंपिक	-11.5312
▁औरंगाबाद	-11.5312
▁मृत्युमुखी	-11.5312
▁Topic	-11.5312
▁अपेक्षे	-11.5312
▁जटिल	-11.5312
▁लाकडा	-11.5312
▁सेनापती	-11.5313
जापानी	-11.5315
विसाव्या	-11.532
▁निसट	-11.5324
▁म्हटल्या	-11.5333
व्यवसाय	-11.5335
▁स्नेह	-11.5341
▁विद्यार्थिनी	-11.5351
▁गलफुला	-11.5351
▁थरथानेवाला	-11.5351
▁मवाब	-11.5356
▁लातूर	-11.5371
ized	-11.5389
▁रत्नागिरी	-11.539
▁लठ्ठपणा	-11.539
शिवसेना	-11.5395
इतके	-11.5402
▁अफगाणिस्तान	-11.541
एक्सएनएक्सएक्स	-11.5417
▁पुठ्ठा	-11.543
▁चिंताजनक	-11.543
▁फॉर्म्युला	-11.543
▁कळेना	-11.5431
▁घाम	-11.5432
▁अवतर	-11.5445
▁लेडीबॉय	-11.5449
▁हुकूम	-11.5449
▁गहाण	-11.5449
▁शेजाऱ्या	-11.5469
ण्याऐवजी	-11.5476
तुमचे	-11.5478
▁निराशाजनक	-11.5489
▁खाल्ल्या	-11.549
▁युनिव्हर्स	-11.5508
चिकित्सक	-11.5509
▁खाद्यपदार्थ	-11.5509
▁पडताळणी	-11.5509
▁बऱ्यापैकी	-11.5509
आज्ञाधारक	-11.5512
▁कसरत	-11.5514
▁फडक	-11.5518
▁अविस्मरणीय	-11.5549
▁येईपर्यंत	-11.5549
4.5	-11.5552
fect	-11.5566
▁भगवंता	-11.5569
▁शेजार	-11.5575
▁यार्देन	-11.5589
▁नियती	-11.5589
▁आर्द्रता	-11.5609
▁व्हर्च्युअल	-11.5609
▁कुलगुरू	-11.5609
▁मल्टि	-11.5609
▁मज्जा	-11.5611
▁मोकळ्या	-11.5629
▁निवांत	-11.5629
▁तांदूळ	-11.5649
▁महानगरपालिका	-11.5649
शंकर	-11.5665
▁Cheat	-11.5669
▁रचने	-11.567
▁सूचक	-11.567
▁तंतोतंत	-11.5689
▁power	-11.5689
▁अस्सल	-11.569
▁टचिंग	-11.569
▁तुर्कस्तान	-11.5709
▁दरवाज्या	-11.5709
▁उबदार	-11.5709
▁फुलपाखर	-11.573
▁संदेष्टा	-11.573
▁लाइफ	-11.573
▁स्मित	-11.5735
▁वाचणार	-11.5742
▁अस्पष्ट	-11.575
▁चिन्हांकित	-11.575
▁व्हिटॅमिन	-11.575
▁लूक	-11.5751
5.0	-11.5763
▁अनधिकृत	-11.577
▁अव्वल	-11.577
▁तिसर्‍या	-11.577
status	-11.577
इफेक्ट्स	-11.5781
▁व्याप्ती	-11.5791
▁स्विकार	-11.5791
▁मंत्र्यां	-11.5797
▁मिळवण्या	-11.5805
▁आत्मसमर्पण	-11.5811
▁कुतूहल	-11.5811
महर्षि	-11.5811
▁सल्ल्या	-11.5813
▁सामूहिक	-11.5832
▁धमक्या	-11.5832
▁शॉपिंग	-11.5832
▁ध्वनि	-11.5851
▁कोंबडी	-11.5852
▁ड्रग	-11.5854
▁राज्यसभे	-11.5873
▁कोरोना	-11.5873
▁मदद	-11.5873
▁खडतर	-11.5874
मनुष्य	-11.5885
▁logged	-11.5893
▁माणुसकी	-11.5893
▁याठिकाणी	-11.5893
▁एलीया	-11.5901
▁registered	-11.5914
▁HIV	-11.5914
▁झटपट	-11.5914
▁घराणे	-11.5916
▁खूष	-11.5935
▁गणेशोत्सव	-11.5935
▁प्रशस्त	-11.5935
▁स्टेडियम	-11.5935
▁जिल्हाधिकाऱ्यां	-11.5956
चिंचवड	-11.5956
▁अफाट	-11.5976
▁गांभीर्य	-11.5997
▁गुळगुळीत	-11.5997
▁डिटेक्टर	-11.5997
▁मुस्लीम	-11.5997
▁घ्यायचं	-11.5998
▁धूप	-11.5998
▁ग्रामपंचायत	-11.6018
▁बदनाम	-11.6018
▁वाढवते	-11.6019
▁साबण	-11.6019
▁शिजव	-11.6037
▁दवाखान्या	-11.6039
▁आवरण	-11.6057
▁अश्शूर	-11.606
ायझेशन	-11.6061
▁दहशत	-11.6075
▁पार्श	-11.6078
▁मजेशीर	-11.6081
▁पुजारी	-11.6081
▁जागवाय	-11.61
घोड	-11.6101
▁अहंकार	-11.6102
▁व्होल्टेज	-11.6102
▁देशद्रोह्या	-11.6102
▁थरथर	-11.6123
▁ख्रिस	-11.6128
▁चिखल	-11.6129
▁सरन्यायाधीश	-11.6144
▁स्ट्रीट	-11.6145
शियल	-11.6145
▁युवराज	-11.6149
इतकी	-11.6168
▁अनन्य	-11.6168
बाह्य	-11.6183
▁प्रतिस्पर्धी	-11.6187
पलीकडे	-11.6188
▁डोमीनेट्रिक्स	-11.6208
▁वर्डप्रेस	-11.6208
▁इंदिरा	-11.6208
▁लॅडीस	-11.6208
वृक्ष	-11.6227
▁किंचित	-11.6229
▁यजमान	-11.6229
▁यूनियन	-11.6229
▁कच्च्या	-11.6229
▁मोजमाप	-11.6229
▁कॅमलतो	-11.6229
▁गोविंद	-11.623
▁sl	-11.6231
▁जैविक	-11.6251
▁तंदुरुस्त	-11.6251
▁बेळगाव	-11.6251
▁रिसर्च	-11.6251
▁वितरक	-11.6251
▁कांद्या	-11.6261
porn	-11.6272
▁इसहाक	-11.6272
▁भयभीत	-11.6272
▁videos	-11.6272
▁निवारण	-11.6287
▁प्रत्युत्तर	-11.6293
▁प्रलंबित	-11.6293
▁फ्लॉवर	-11.6293
▁कार्यान्वित	-11.6315
▁कॅनेडियन	-11.6315
▁व्यभिचार	-11.6315
▁VIDEO	-11.6337
▁तैनात	-11.6337
▁संकुचित	-11.6337
▁प्रक्षेपण	-11.6337
▁जेंव्हा	-11.6337
▁ललित	-11.6338
▁अँड्रॉइड	-11.6358
स्फूर्त	-11.6358
▁इंटरफेस	-11.6358
▁अभयारण्य	-11.638
▁स्वीडिश	-11.638
▁काल्पनिक	-11.638
▁मालेडोंम	-11.638
▁संभाजी	-11.638
▁अनुक्रमे	-11.638
▁लक्ष्मण	-11.638
इतका	-11.6397
अभावी	-11.64
▁एसजीसीबी	-11.6401
▁फवारणी	-11.6401
▁स्वीकृती	-11.6402
▁कस्टम	-11.6402
▁आत्मसात	-11.6402
▁iPad	-11.6423
▁जबाबदाऱ्या	-11.6423
▁इव्हेंट	-11.6423
▁थकबाकी	-11.6423
="0.1	-11.6423
▁दाखवितो	-11.6423
▁खिशात	-11.6432
▁संतुष्ट	-11.6445
▁मानसशास्त्र	-11.6445
▁मेमरी	-11.6446
प्रश्न	-11.6446
▁विदेशात	-11.6463
▁म्हातारा	-11.6467
▁हिमालय	-11.6467
▁सांत्वन	-11.6467
▁हैदराबाद	-11.6489
▁blockchain	-11.6489
ऍ	-11.9717
£	-12.1984
ञ	-12.2947
•	-13.0794
