<unk>	0
<s>	0
</s>	0
▁	-2.7144
,	-3.18283
.	-3.94107
:	-4.07795
s	-4.53866
▁/	-5.00213
)	-5.04667
▁-	-5.11587
-	-5.16462
▁(	-5.22494
;	-5.33582
ຂອງ	-5.44601
▁ແລະ	-5.50586
ແລະ	-5.62142
▁_	-5.64004
▁&	-5.68187
▁ການ	-5.82394
▁1	-6.0401
gt	-6.04433
ໃນ	-6.07852
ການ	-6.0855
D	-6.09485
m	-6.11816
▁2	-6.1351
ing	-6.16661
▁C	-6.16874
▁A	-6.16999
y	-6.17299
ທີ່	-6.19027
d	-6.23138
er	-6.23358
▁...	-6.23559
▁S	-6.23604
r	-6.23805
3	-6.25095
C	-6.25842
▁ໃນ	-6.27122
/	-6.28973
▁3	-6.30495
A	-6.31368
▁T	-6.33976
2	-6.34227
mm	-6.35008
x	-6.35027
▁B	-6.35052
▁$	-6.36581
g	-6.42554
n	-6.43323
S	-6.43627
amp	-6.43935
▁5	-6.45453
▁ຂອງ	-6.48151
4	-6.49607
▁4	-6.50501
▁–	-6.508
com	-6.52028
M	-6.52512
in	-6.52623
ເປັນ	-6.53726
!	-6.58148
on	-6.58255
▁M	-6.58457
▁ສໍາລັບ	-6.60982
▁ທີ່	-6.61916
▁2018	-6.62468
L	-6.62678
ed	-6.6348
▁Co	-6.64773
an	-6.65548
ສໍາລັບ	-6.661
B	-6.67987
1	-6.68068
▁P	-6.68159
▁ຈີນ	-6.69363
e	-6.70612
▁L	-6.70982
T	-6.71096
▁ເຄື່ອງ	-6.71113
▁10	-6.72174
▁H	-6.73181
ໄດ້	-6.73501
i	-6.73641
al	-6.76721
"	-6.77409
▁D	-6.78377
t	-6.78661
ກັບ	-6.78912
▁ໂດຍ	-6.79006
G	-6.80599
▁R	-6.8161
V	-6.81703
5	-6.82274
▁+	-6.82527
W	-6.84829
▁ຫນ້າທໍາອິດ	-6.85184
▁ຜະລິດຕະພັນ	-6.85919
▁tattoos	-6.87096
▁ສະ	-6.8825
▁E	-6.8918
▁ມີ	-6.89467
▁"	-6.90361
en	-6.92014
▁2019	-6.92165
▁ໄດ້	-6.93063
ນ	-6.93662
▁K	-6.98105
?	-6.99666
▁*	-6.99697
▁F	-7.0067
k	-7.00799
▁Dust	-7.01406
ມີ	-7.01659
P	-7.0196
▁6	-7.02859
or	-7.03141
▁ແມ່ນ	-7.0405
c	-7.04423
▁G	-7.04464
F	-7.04607
▁2017	-7.05171
20	-7.07535
K	-7.07623
▁8	-7.10264
▁Printer	-7.10952
▁ກັບ	-7.12125
a	-7.13235
▁ສໍາ	-7.13662
H	-7.1432
N	-7.14377
▁ຜູ້ຜະລິດ	-7.14623
o	-7.14829
▁and	-7.15723
▁the	-7.15873
6	-7.16484
ຜະລິດຕະພັນ	-7.17039
▁ເຊົ່າລົດ	-7.17143
▁W	-7.17576
ຈາກ	-7.17581
u	-7.17803
▁2016	-7.18422
et	-7.18637
...	-7.20635
▁7	-7.20918
ດ	-7.22623
l	-7.22985
b	-7.23133
p	-7.23733
▁ເປັນ	-7.23787
ແມ່ນ	-7.24608
▁9	-7.24902
ກ	-7.25176
▁20	-7.25769
▁of	-7.25836
ໂດຍ	-7.26768
R	-7.26999
▁ເດືອນ	-7.27227
ມ	-7.27335
(	-7.28668
▁N	-7.30269
▁ລັບ	-7.30446
ທີ່ມີ	-7.3046
10	-7.30473
at	-7.31023
▁Collector	-7.31845
ທັງຫມົດ	-7.31845
@	-7.32167
▁to	-7.32302
▁V	-7.32481
le	-7.33392
▁Hack	-7.33901
7	-7.34231
X	-7.34405
▁Y	-7.34424
ເຄື່ອງ	-7.35068
f	-7.35396
'	-7.35629
▁»	-7.35658
▁12	-7.35793
h	-7.36413
▁No	-7.37527
ນີ້	-7.387
▁0	-7.39356
co	-7.39643
re	-7.39663
lt	-7.39862
▁ຂ່າວ	-7.40035
O	-7.40207
▁Ltd	-7.40742
8	-7.42064
ບ	-7.42239
▁Bag	-7.42268
▁£	-7.42277
▁ທ່ານ	-7.42765
ar	-7.431
▁ຄວາມ	-7.43412
]	-7.44653
E	-7.44703
el	-7.44873
▁Casino	-7.45117
▁[	-7.45495
▁ຫນ້າ	-7.45505
9	-7.45621
es	-7.46069
Y	-7.46632
▁Android	-7.468
▁ປະເພດ	-7.47116
th	-7.47819
▁©	-7.49909
▁Valve	-7.50114
ງ	-7.50141
st	-7.52006
ນ້ໍາ	-7.52358
50	-7.53591
▁ຫຼື	-7.53653
0	-7.53667
▁30	-7.54369
▁ໂທລະສັບ	-7.54903
▁I	-7.55036
▁ພວກ	-7.55243
v	-7.55829
▁15	-7.56014
00	-7.56166
I	-7.56302
▁ກ່ຽວກັບ	-7.5631
▁by	-7.56541
ur	-7.57922
_	-7.58807
▁ປີ	-7.59016
▁ເມືອງ	-7.59364
▁in	-7.5974
▁ລະຫັດ	-7.60012
▁ຈາກ	-7.60086
▁ເກມ	-7.60962
▁ຂະຫນາດ	-7.61934
se	-7.62277
ຂອງພວກເຮົາ	-7.62572
▁ດາວນ໌ໂຫລດ	-7.63312
▁Europe	-7.6357
30	-7.63839
▁ໂຮງງານ	-7.6505
ຂອງທ່ານ	-7.65155
▁#	-7.65254
J	-7.66615
▁Filter	-7.67263
▁a	-7.67367
▁Equipment	-7.67874
ic	-7.68343
▁11	-7.68496
ຈາກປະເທດຈີນ	-7.7057
ch	-7.70645
ກ່ຽວກັບ	-7.70748
ສະ	-7.70874
▁ທີ່ຜ່ານມາ	-7.71138
ຍ	-7.71258
▁J	-7.71379
ຄວາມ	-7.71694
▁ບໍ່	-7.7193
▁X	-7.71983
w	-7.72239
▁ຄໍາ	-7.72389
▁ປະ	-7.72957
▁ທີ່ຢູ່	-7.73045
cm	-7.74045
ໃຫ້	-7.74187
am	-7.7421
z	-7.75882
la	-7.76433
▁ສຸດ	-7.76591
▁19	-7.77283
▁ດາວໂຫລດ	-7.77699
▁Steel	-7.77985
▁for	-7.78232
ໄປ	-7.78472
▁O	-7.78503
▁tattoo	-7.78551
▁18	-7.78973
ro	-7.79014
us	-7.79165
15	-7.79598
ເພື່ອ	-7.79598
ri	-7.80068
it	-7.80114
11	-7.80255
▁Windows	-7.80599
▁ອີເມລ໌	-7.82264
▁ຕໍ່	-7.82479
▁16	-7.82614
▁The	-7.82987
▁c	-7.83226
▁24	-7.83371
”	-7.83571
▁Protection	-7.84172
▁ລິຂະສິດ	-7.84293
▁2015	-7.84541
ra	-7.84947
▁Re	-7.85239
ly	-7.85549
▁Bonus	-7.85568
▁Botou	-7.85627
lo	-7.85908
▁Vessoft	-7.86117
ສູງ	-7.86351
ໃຫມ່	-7.87056
▁Environmental	-7.8723
Z	-7.87744
▁UV	-7.88901
45	-7.89691
▁ໂຮງງານຜະລິດ	-7.89742
▁100	-7.89985
16	-7.89997
▁50	-7.90027
40	-7.90122
▁2020	-7.90771
▁25	-7.90879
id	-7.91551
ສີ	-7.91552
U	-7.91678
000	-7.91691
▁ມື	-7.92278
ທີ່ຈະ	-7.92296
&	-7.92325
ຢູ່	-7.92541
://	-7.92862
▁ລາວ	-7.9291
▁ຊື່	-7.92957
12	-7.9317
ent	-7.93217
ບໍ່	-7.93623
▁Z	-7.93762
ວ	-7.93901
is	-7.94428
ສາຍ	-7.94628
60	-7.94791
▁LTD	-7.95104
▁ສາຍ	-7.95201
▁ມັນ	-7.95675
▁ລະ	-7.95748
▁f	-7.96069
▁200	-7.9619
ຫຼາຍ	-7.97146
ແບບ	-7.97674
▁“	-7.97714
▁ຕໍ່ໄປ	-7.98095
▁U	-7.98252
ເ	-7.98551
ang	-7.99453
ຫຼື	-7.99582
▁ກໍາ	-8.00196
pe	-8.00598
li	-8.01161
▁ຈໍາ	-8.01664
ວ່າ	-8.01842
▁Top	-8.01962
key	-8.02611
ສ	-8.0301
▁14	-8.03032
ໄຟຟ້າ	-8.03255
sh	-8.03258
ry	-8.04248
▁ລາຍລະອຽດ	-8.04289
XL	-8.0476
▁ນໍາ	-8.05284
ຍີ່ຫໍ້	-8.05381
ຜູ້	-8.05407
▁Koh	-8.05445
ຈະ	-8.05477
ມັນ	-8.05724
▁LED	-8.06211
ທ່ານ	-8.0679
18	-8.06804
▁Rong	-8.06858
▁13	-8.06861
ປີ	-8.07045
ມາ	-8.07312
%	-8.0733
▁ຊຸດ	-8.07675
ລ	-8.07681
▁Free	-8.08014
ad	-8.08549
un	-8.08644
▁60	-8.08825
19	-8.09138
ol	-8.0923
້	-8.09538
ໃຊ້	-8.09677
17	-8.09826
▁ລາ	-8.10049
ສາມາດ	-8.10292
to	-8.10332
ine	-8.10338
▁ຜູ້	-8.10633
▁ສ	-8.10951
ຢູ່ໃນ	-8.11024
na	-8.11256
▁ໃຫ້	-8.11355
▁ລະບົບ	-8.11445
ers	-8.11486
▁ຕິດຕໍ່ຕອນນີ້	-8.11502
um	-8.11608
▁Industrial	-8.11919
▁ຮູບພາບ	-8.12422
▁ລາຄາຖືກ	-8.13013
▁ສີ	-8.13029
▁East	-8.13034
ຈາກຈີນ	-8.13077
ຫນ້າ	-8.13972
▁ລາຄາ	-8.14141
ສໍາລັບການ	-8.14277
▁Manufacturer	-8.14381
▁ທໍາ	-8.14393
ac	-8.1447
▁°	-8.15103
il	-8.15268
25	-8.15551
ອື່ນໆ	-8.15864
ie	-8.16427
▁ບໍລິສັດ	-8.16428
▁ນີ້	-8.1712
ສອງ	-8.17323
ຂໍ້ມູນ	-8.17404
▁Tag	-8.17417
24	-8.17432
▁2014	-8.18012
ທຸລະກິດ	-8.18043
3}	-8.18183
▁ອຸປະກອນ	-8.18279
ຜະລິດ	-8.18306
▁City	-8.18395
▁ເຈົ້າ	-8.1859
ma	-8.18669
ອຸປະກອນ	-8.18688
▁ພາສາລາວ	-8.18736
▁ວັນ	-8.18855
ter	-8.18895
▁you	-8.19075
ແລະຜູ້ຜະລິດ	-8.19309
▁{_	-8.19487
▁~	-8.19646
▁ແລະອື່ນໆ	-8.19801
ທີ	-8.19887
35	-8.20158
▁h	-8.20574
▁ສາ	-8.20646
ທາງ	-8.20694
▁ຫນຶ່ງໃນ	-8.20698
ເກມ	-8.20857
▁ມັງກອນ	-8.20954
▁Pulse	-8.21174
ປະເພດ	-8.21353
▁p	-8.21591
▁2013	-8.21739
▁Wholesale	-8.22028
ate	-8.22108
ດ້ວຍ	-8.22184
55	-8.22193
▁de	-8.22266
oujian	-8.22418
▁40	-8.22555
ne	-8.22575
▁17	-8.22672
▁USD	-8.22879
ັບ	-8.23416
▁ຍີ່ຫໍ້	-8.23674
▁500	-8.2379
▁ຢູ່	-8.23887
▁ໃຊ້	-8.23924
▁ຜ້າ	-8.23959
▁Webtalk	-8.24028
▁21	-8.24052
j	-8.24101
▁ເຮົາ	-8.24267
▁ທໍ່	-8.24295
▁ຄວາມຫມາຍ	-8.2451
ລະບົບ	-8.25088
80	-8.25164
ດ້ານ	-8.25285
kg	-8.25307
ລາຄາຕໍ່າ	-8.25476
▁ວິທີການ	-8.25605
▁ອ່ານ	-8.2583
▁ມີຄຸນນະພາບສູງ	-8.25857
as	-8.25893
33	-8.26382
14	-8.2644
▁ນໍາໄປສູ່	-8.26759
▁In	-8.27102
ເຮົາກໍາລັງພິເສດ	-8.27128
▁ISO	-8.27182
ion	-8.27328
▁'	-8.27479
▁Tags	-8.278
▁ອຸດສາຫະກໍາ	-8.27829
ຫ	-8.27885
▁•	-8.27886
▁ເພື່ອ	-8.27887
21	-8.27901
ອຸດສາຫະກໍາ	-8.28018
▁ວິທະຍາໄລ	-8.28174
ດີ	-8.28175
▁WordPress	-8.28241
▁ພາ	-8.28272
▁Home	-8.28297
▁ພວກເຮົາ	-8.28541
▁is	-8.28665
ບໍລິສັດ	-8.28819
te	-8.28864
▁re	-8.28987
▁ເ	-8.29145
ta	-8.29205
▁Air	-8.29753
01	-8.30245
▁ດີ	-8.30385
ອາຫານ	-8.30398
▁ຖະຫນົນ	-8.30794
▁District	-8.30896
▁Main	-8.30921
ເຖິງ	-8.30997
▁Tattoos	-8.31009
ເງິນ	-8.31198
▁Mark	-8.31329
ປະເພດທຸລະກິດ	-8.31542
▁ຟຣີ	-8.31602
▁ປ	-8.31791
▁Pro	-8.31879
est	-8.32061
▁ຈະ	-8.32255
ການຜະລິດ	-8.32447
China	-8.32574
13	-8.32707
ທໍ່	-8.32783
▁×	-8.33093
▁€	-8.33155
▁ໂທ	-8.33218
▁Series	-8.33427
tv	-8.33545
▁Theme	-8.3406
ap	-8.34074
▁ໄປ	-8.34261
່	-8.34284
23	-8.34816
▁t	-8.35037
ອ	-8.35154
ຊ	-8.35367
man	-8.35691
▁St	-8.35733
▁ໃຫມ່	-8.35747
▁ປະເພດຜະລິດຕະພັນ	-8.35808
▁ນ້ໍາ	-8.35903
▁Live	-8.36052
me	-8.36123
ຂ່າວ	-8.36146
▁ສີດໍາ	-8.36385
-1	-8.36476
▁RN	-8.36552
ut	-8.36865
-2	-8.37047
▁ສ່ວນ	-8.37083
ຖົງ	-8.37454
im	-8.37454
ກັນ	-8.37499
ປະ	-8.37687
em	-8.37945
▁ກົດ	-8.38044
▁Ningbo	-8.38063
ລົດ	-8.38107
▁ພະລັງງານ	-8.38304
www	-8.38367
▁Machine	-8.38831
34	-8.39566
▁ຜູ້ສົ່ງອອກ	-8.39741
▁Mobile	-8.39814
age	-8.40102
ອອກ	-8.40142
▁ຫ້ອງ	-8.40203
▁ບັດ	-8.40257
▁00	-8.40334
▁De	-8.40354
▁withoutwax	-8.40359
▁ພະ	-8.40479
▁ແຕ່	-8.4056
▁Cheats	-8.40631
▁ຮຸ່ນ	-8.40899
ant	-8.40914
ia	-8.40949
75	-8.41198
ce	-8.41527
ຕໍ່	-8.41621
▁http	-8.4165
70	-8.41791
▁ຖົງ	-8.41985
ER	-8.42211
28	-8.42303
200	-8.42475
▁Line	-8.42504
©	-8.42544
’	-8.4271
▁ນ້ໍາຫນັກ	-8.42794
ຕ່າງໆ	-8.43145
▁ອອນໄລນ໌	-8.4366
▁ລົດ	-8.43798
29	-8.44241
500	-8.44325
▁ຫາ	-8.44471
ລະ	-8.44603
ong	-8.44647
▁Laser	-8.44676
▁ຫນາດ	-8.44728
▁ການທົບທວນຄືນ	-8.4478
ist	-8.4504
▁=	-8.45254
de	-8.45436
os	-8.45486
ir	-8.45564
▁ຫຼິ້ນ	-8.4557
da	-8.456
ຄົນ	-8.45812
▁ການຫຸ້ມຫໍ່	-8.46232
▁ຫມົດ	-8.46274
ວັນ	-8.46419
▁New	-8.46615
▁ທັງຫມົດ	-8.46616
02	-8.46756
▁Jet	-8.46886
99	-8.46937
▁ເຄື່ອງພິມ	-8.47657
▁Sp	-8.47685
▁ມມ	-8.47779
▁ຫນ	-8.47919
ຂາຍ	-8.48311
di	-8.48421
ພວກເຮົາ	-8.48442
05	-8.48444
ຈີນ	-8.48615
22	-8.48667
▁ຄາສິໂນ	-8.48754
*	-8.48841
▁22	-8.4886
he	-8.48862
ເຮັດ	-8.48956
ba	-8.49059
▁ສີຂາວ	-8.49157
ເວລາ	-8.49258
ອອນໄລນ໌	-8.49267
and	-8.49505
ໃນການ	-8.49583
26	-8.49625
51	-8.49805
ting	-8.49858
▁ເວັບໄຊທ໌	-8.50073
▁ຮູບ	-8.50135
▁Star	-8.50147
04	-8.50447
▁Ma	-8.50545
▁b	-8.5067
▁ຕິດ	-8.50746
▁ຂະ	-8.50779
▁ຈໍານວນ	-8.50872
▁QR	-8.50878
▁Technology	-8.51064
▁Lao	-8.51215
ລາຄາ	-8.51519
ປາ	-8.51596
07	-8.51759
▁Type	-8.51993
ite	-8.52003
ns	-8.52542
06	-8.52883
▁ຂໍ້	-8.52937
▁Blue	-8.52965
▁Cyclone	-8.53136
90	-8.53286
▁(1	-8.53396
▁be	-8.53479
ຟຣີ	-8.53505
39	-8.5359
ທີ່ດີທີ່ສຸດ	-8.53778
36	-8.53921
▁ທະ	-8.54192
▁ທີ່ໃຊ້ເວລາ	-8.54309
▁	-8.54359
▁w	-8.54368
▁ອາ	-8.54377
08	-8.54618
▁1000	-8.54654
ge	-8.54795
\	-8.54817
org	-8.55039
▁ໂທລະສັບມືຖື	-8.55094
▁ຫນູນ	-8.55372
▁Online	-8.5556
86	-8.55653
▁Press	-8.55665
ເຊັ່ນ	-8.55902
▁ທົດລອງ	-8.56145
▁ນ	-8.5617
▁Worldwide	-8.56357
▁start	-8.56479
32	-8.56561
ຄ	-8.57013
▁ດາວ	-8.57016
▁Fiber	-8.57115
ຫນຶ່ງ	-8.57134
ລາວ	-8.57151
"&	-8.57363
ot	-8.57596
▁ເມສາ	-8.57608
ທີ່ສຸດ	-8.58027
ian	-8.58441
▁Straightener	-8.58507
ຮູບພາບ	-8.58529
▁ເບິ່ງ	-8.58543
65	-8.58551
ment	-8.5857
▁ຜູ້ຈໍາຫນ່າຍ	-8.58617
88	-8.58883
▁Feeder	-8.58965
▁24)	-8.59048
▁Black	-8.5924
AR	-8.59351
44	-8.59367
ແຜ່ນ	-8.59425
ຝຸ່ນ	-8.59432
▁ຮັບ	-8.59538
▁Plastic	-8.59631
95	-8.59665
▁USB	-8.59708
Q	-8.59728
▁ຊື້	-8.59737
▁ສິງຫາ	-8.59892
▁ນາ	-8.59893
48	-8.59971
68	-8.59986
▁CO	-8.60038
ation	-8.60161
ໄດ້ຮັບ	-8.60309
▁100%	-8.60514
▁LAK	-8.60662
▁Tube	-8.60694
ເຮັດໃຫ້	-8.60828
▁ລິ	-8.61145
ຕົວ	-8.61188
▁CNC	-8.61224
ສັດ	-8.61271
▁ພັນ	-8.61284
▁FIMT	-8.6144
▁iPhone	-8.61441
ຂະຫນາດ	-8.61509
▁ພຶດສະພາ	-8.61513
ຕິດຕໍ່ຕອນນີ້	-8.61545
▁\	-8.61959
52	-8.61963
tion	-8.62011
ກົດ	-8.62044
100	-8.62262
ell	-8.62306
lu	-8.62455
▁PVC	-8.6249
▁ຢາງ	-8.62629
ປ	-8.62842
▁ຄວາມຄິດເຫັນທີ່	-8.62875
mo	-8.62889
▁300	-8.6295
▁Wall	-8.62998
ul	-8.63013
ເຂົ້າ	-8.6317
▁Chat	-8.63233
▁ສັບ	-8.63332
▁ອິດ	-8.63475
▁Servo	-8.63549
▁ສູງ	-8.63585
▁ແຜ່ນ	-8.63585
67	-8.63666
▁dur	-8.63696
ts	-8.63733
▁Roulette	-8.63815
▁EUR	-8.63893
▁Li	-8.63966
41	-8.64136
▁35	-8.64226
ພິມ	-8.6439
ຕ	-8.64434
ເປີດ	-8.64661
-6	-8.64741
io	-8.64787
▁High	-8.65169
ຊື່	-8.65284
+	-8.65411
ເບິ່ງ	-8.65451
able	-8.65588
op	-8.65666
£	-8.65821
▁ຄູ່ມື	-8.65836
▁ເຊິ່ງ	-8.65981
ton	-8.66031
77	-8.66127
ຈັດ	-8.66163
▁Me	-8.6618
▁IP	-8.66184
▁Flatbed	-8.66248
37	-8.66295
▁spy	-8.66434
ຢາ	-8.66512
63	-8.66515
one	-8.66536
▁ແບບ	-8.66554
▁Q	-8.66592
66	-8.66867
ພະລັງງານ	-8.66959
ear	-8.67071
ອັດຕະໂນມັດ	-8.67173
▁ກ່ອງ	-8.67255
▁ອາທິດ	-8.6746
31	-8.67534
ig	-8.6765
▁ສົ່ງ	-8.67957
▁150	-8.67974
▁ໄຟຟ້າ	-8.68025
IN	-8.68251
ສ່ວນ	-8.68299
ak	-8.68401
ຫາ	-8.68509
▁Be	-8.68554
▁ໂທລະ	-8.68645
▁fabric	-8.6867
▁ເຮັດ	-8.68744
-5	-8.68773
ish	-8.68847
▁pm	-8.69003
▁with	-8.69016
ກອງ	-8.69066
▁ມີນາ	-8.69106
▁Board	-8.69316
ru	-8.69348
▁Asia	-8.69367
າ	-8.6964
▁@	-8.69725
au	-8.69858
hi	-8.69888
LE	-8.70041
ill	-8.70083
38	-8.70154
56	-8.70204
▁North	-8.7044
▁Spy	-8.70495
ຢາງ	-8.70514
ສ້າງ	-8.70519
ຮູບແບບ	-8.70579
▁ກັນຍາ	-8.7073
▁ໍາ	-8.71032
ni	-8.7127
▁To	-8.71278
-8	-8.7129
ຕາ	-8.71363
▁ເຂົ້າ	-8.71593
ໂລຫະ	-8.71759
69	-8.7176
per	-8.71892
▁Markets	-8.72031
▁XL	-8.72135
ເມືອງ	-8.72276
▁ດອກ	-8.72294
▁ຖື	-8.72324
▁ຫຼາຍ	-8.72388
▁2011	-8.72399
ປະຕູ	-8.72476
up	-8.72502
58	-8.72724
ໂທລະສັບ	-8.72816
ລະດັບ	-8.7293
▁ຕຸລາ	-8.72945
;&	-8.72947
▁Google	-8.73039
▁Charter	-8.73055
▁Tattoo	-8.73137
▁Al	-8.73336
▁Ch	-8.73512
ປະເທດ	-8.74045
ຕາມ	-8.7413
AN	-8.74179
pa	-8.74192
▁ວັດສະດຸ	-8.742
ໄປສະນີ	-8.74215
ກ່ອນຫນ້ານີ້	-8.74218
▁tattoostattoos	-8.74255
ບໍ່ມີ	-8.74305
ide	-8.7449
▁English	-8.74493
27	-8.74594
▁Suppliers	-8.74903
ເຮັດວຽກ	-8.7504
ຢ່າງ	-8.7505
▁ທີ	-8.75139
ການນໍາໃຊ້	-8.7527
▁App	-8.75272
▁ຫນັງສືພິມ	-8.7541
▁West	-8.75488
59	-8.75515
ຄໍາ	-8.75602
ສາມ	-8.75807
ໂຄງການ	-8.75923
art	-8.75926
▁Cage	-8.76036
▁your	-8.76073
▁Call	-8.7618
▁Mo	-8.76183
76	-8.76261
▁23	-8.76565
sa	-8.76571
▁Stainless	-8.76617
▁Price	-8.76629
09	-8.76687
▁ຊັ້ນ	-8.76735
▁v	-8.76793
▁ເງິນ	-8.76805
ເກັບ	-8.76814
▁ຫນາ	-8.76979
▁26	-8.7704
▁ກະ	-8.7705
▁ມາ	-8.77078
▁ຕົວ	-8.7718
ໄຟ	-8.77246
ຊຸດ	-8.77563
ຜ່ານ	-8.77684
ice	-8.77784
ປະມານ	-8.77838
42	-8.77839
▁Contact	-8.7784
53	-8.77947
ay	-8.78
▁ເຖິງ	-8.78101
ho	-8.7819
▁Park	-8.7821
ກະ	-8.78475
ສົ່ງ	-8.78624
ຣ	-8.78834
ຜ້າ	-8.78847
ລະຫວ່າງ	-8.78855
▁ສ້າງ	-8.789
ab	-8.79052
▁Bo	-8.79195
ທົ່ວໄປ	-8.79266
end	-8.79468
▁Mini	-8.79494
ໂລກ	-8.79835
ha	-8.79873
▁ກຸມພາ	-8.79942
▁Zhejiang	-8.80012
▁PTFE	-8.80012
tic	-8.80291
▁Ro	-8.8039
ver	-8.80577
▁ວິນາທີ	-8.80644
ຍັງ	-8.80713
MA	-8.8083
▁ຄາ	-8.80886
ຖືກ	-8.81011
les	-8.81264
▁FREE	-8.81276
▁XXL	-8.81382
▁Web	-8.81395
▁ວິດີໂອ	-8.81487
▁45	-8.81506
▁ບ້ານ	-8.8174
ອາກາດ	-8.81745
▁Power	-8.81783
▁ວ່າ	-8.81812
▁Aluminum	-8.81914
96	-8.8199
▁Le	-8.82015
▁RFC	-8.8204
▁ກ່ຽວ	-8.82067
▁Cert	-8.8207
▁ພິມ	-8.821
▁ນິ້ວ	-8.82145
ity	-8.82244
ການເຮັດວຽກ	-8.82393
yl	-8.8244
▁hack	-8.82572
▁Up	-8.82619
▁ວິ	-8.8284
ໂຮງງານຜະລິດ	-8.8288
▁Light	-8.82952
bo	-8.83036
ພາຍໃນ	-8.83075
ec	-8.833
46	-8.83405
AS	-8.83603
▁For	-8.83608
▁ຜ່ານ	-8.83616
▁ເຄື່ອງຈັກ	-8.83822
ster	-8.8385
▁Road	-8.83884
▁ຫ	-8.83924
▁ສາມາດ	-8.83929
43	-8.84061
sta	-8.84077
ພິເສດ	-8.84352
▁28	-8.84369
-10	-8.84418
▁Double	-8.84461
▁Conveyor	-8.84507
▁Vaccine	-8.84507
▁ເຄື່ອງມື	-8.8459
ke	-8.84748
ນໍາໃຊ້	-8.84751
ການຄ້າ	-8.84795
ຮັບ	-8.84803
▁ອັດຕະໂນມັດ	-8.84906
92	-8.84953
▁Shenzhen	-8.85075
▁Microsoft	-8.85168
74	-8.85176
54	-8.85223
ໄມ້	-8.85386
ບໍລິການ	-8.85401
0,000	-8.8562
62	-8.85629
AT	-8.85895
ເຊ	-8.86087
▁All	-8.86125
▁Forex	-8.86175
ph	-8.86236
▁ແກ້ວ	-8.86303
▁ໂຫລດ	-8.86517
IC	-8.86646
net	-8.86661
▁ບໍລິການ	-8.86725
bu	-8.86765
tattoos	-8.86786
▁Polyester	-8.86835
land	-8.86856
ແລ້ວ	-8.86875
▁ບໍ່ມີ	-8.86979
ໃຫຍ່	-8.87041
▁20%	-8.87113
ຫ້ອງ	-8.87136
no	-8.87202
▁ໄມ້	-8.87213
ip	-8.8729
71	-8.874
less	-8.87523
▁90	-8.87539
ຕ່ໍາ	-8.87588
▁me	-8.87785
▁ກ	-8.87807
▁Rotary	-8.87846
300	-8.88043
ary	-8.88067
▁ຫມາຍ	-8.88107
▁ຫນຶ່ງ	-8.88161
ເຄື່ອງຈັກ	-8.88247
ass	-8.88255
▁XXXL	-8.88528
ໂທລະສັບມືຖື	-8.8866
▁ໂຄງການ	-8.88759
▁໌	-8.88799
ກັດ	-8.88953
▁ພະຈິກ	-8.89214
SS	-8.8928
ໃສ່	-8.893
49	-8.89409
ເຄື່ອງພິມ	-8.89444
be	-8.89729
▁ຕັດ	-8.89751
ແກ້ວ	-8.89773
82	-8.89792
▁2012	-8.89866
▁Dress	-8.89911
▁ອາຫານ	-8.89984
▁ມື້	-8.90037
ag	-8.90053
lin	-8.90212
ສູງສຸດ	-8.90259
89	-8.90369
▁PDF	-8.90443
ສຽງ	-8.90545
▁Email	-8.90661
▁ມິຖຸນາ	-8.90781
ລີ	-8.9109
ard	-8.91098
ຕັດ	-8.91404
▁La	-8.91521
▁WhatsApp	-8.91531
▁Global	-8.91556
ຫົວ	-8.91699
ພັກ	-8.91725
der	-8.91849
▁ໄທ	-8.91978
▁Sheet	-8.9203
ັກ	-8.92067
cc	-8.92175
ub	-8.92315
▁ຕາຕະລາງ	-8.9235
ຂຶ້ນ	-8.9254
ow	-8.92689
▁Pu	-8.92774
▁app	-8.92781
▁AC	-8.9279
▁Art	-8.92794
om	-8.92807
▁ຜູ້ສະຫນອງ	-8.92817
▁PC	-8.92843
ka	-8.92866
ນາ	-8.92964
57	-8.92986
97	-8.93011
▁ຂໍ້ມູນ	-8.93025
▁Square	-8.93074
▁ເປີດ	-8.93157
ື	-8.93292
▁Vi	-8.93433
▁Whiteboard	-8.93439
Hebei	-8.93492
ກາ	-8.93661
▁sp	-8.93766
▁Other	-8.93793
ນັ້ນ	-8.93868
ຕ້ອງ	-8.93935
ທີ່ກ່ຽວຂ້ອງ	-8.94003
▁ຫະ	-8.94168
▁ປ່ຽນ	-8.94183
="	-8.94469
▁Custom	-8.94471
▁ທັນວາ	-8.94581
ສະຫນັບສະຫນູນ	-8.94696
▁ບໍ	-8.9474
▁OEM	-8.949
▁Pump	-8.94919
ຊັ້ນ	-8.95082
9001,	-8.95084
ບັນຊີ	-8.95206
ling	-8.95234
▁Laotian	-8.95251
▁ຊີ	-8.95269
▁ອາດ	-8.95369
ເຮືອນ	-8.9547
ຊື້	-8.95482
73	-8.95681
ທາງການ	-8.95686
47	-8.95863
▁ເຄື່ອງຕັດ	-8.95865
▁ບັນ	-8.95872
ຄຸນນະພາບ	-8.95933
▁Si	-8.95945
out	-8.9602
ດຽວ	-8.96215
hy	-8.96491
▁+86	-8.96513
81	-8.96521
ຊີວິດ	-8.96696
▁motor	-8.96723
ການສຶກສາ	-8.96765
84	-8.96934
▁HD	-8.96965
▁ຜະລິດ	-8.97084
ໆ	-8.97142
▁ອອກ	-8.9716
ທ	-8.97192
EN	-8.97248
ti	-8.97279
ຈໍາກັດ	-8.97292
▁ການອອກແບບ	-8.97454
▁Smart	-8.97463
ທໍາອິດ	-8.97571
▁27	-8.97708
▁75	-8.97717
ສອນ	-8.97748
▁Group	-8.9784
▁ກອນ	-8.98057
▁News	-8.98122
ພຽງແຕ່	-8.98154
▁Bu	-8.98193
ລູກຄ້າ	-8.98229
61	-8.9826
91	-8.98411
ໃຈ	-8.98495
ລວມ	-8.98607
▁ຜົງ	-8.98722
▁ຮູບແບບ	-8.98752
ລົງ	-8.98782
ັ	-8.98889
▁ສູນ	-8.98931
▁info	-8.98964
▁pro	-8.99041
▁Win	-8.99048
ມາດຕະຖານ	-8.99059
87	-8.99103
▁tattoostattoo	-8.99132
▁Download	-8.9915
ນໍາ	-8.99154
ເຫຼັກ	-8.99258
arm	-8.99277
ຍາວ	-8.99296
▁05	-8.99388
ON	-8.99458
▁ໂລຫະ	-8.99459
oo	-8.99513
ຮ	-8.99658
▁Caribbean	-8.99731
▁DC	-8.99737
▁that	-8.99759
▁Phone	-8.9978
ວິທີການ	-8.99906
▁Ba	-8.99919
AL	-8.9993
▁ຫນ່ວຍ	-9.00038
▁Africa	-9.00114
▁America	-9.00198
ໄດ້ຮັບການ	-9.00221
▁31	-9.00323
SA	-9.00349
ສະຖານທີ່	-9.00368
▁ໃບຢັ້ງຢືນ	-9.004
ve	-9.00498
▁Copier	-9.00499
▁ນາທີ	-9.00566
▁ພາບ	-9.00714
mon	-9.00742
▁ຂ້າພະເຈົ້າ	-9.00787
tor	-9.00792
ຕັ້ງ	-9.00799
ໄດ້ຖືກ	-9.00954
▁ທີ່ດີທີ່ສຸດ	-9.00963
ວິດີໂອ	-9.0099
▁are	-9.01022
▁ເຫັນ	-9.01063
ບ້ານ	-9.01095
▁ວາວ	-9.0119
ະ	-9.01257
▁ຄວາມໄວ	-9.0138
ຂ້າພະເຈົ້າ	-9.01423
ai	-9.01518
▁Middle	-9.01661
our	-9.01668
ອນ	-9.01699
▁ລາຍ	-9.017
▁Qu	-9.01706
vi	-9.01931
▁ທາງ	-9.01981
▁ທ່ານສາມາດ	-9.01996
ສະຫນອງ	-9.02026
▁David	-9.02051
64	-9.02305
79	-9.02328
▁ສະຖານທີ່	-9.02348
▁ຫົວຂໍ້	-9.02415
ສິນຄ້າ	-9.02416
ແຫ້ງ	-9.02442
▁Samloem	-9.02444
ca	-9.02453
▁ກັນ	-9.02454
ex	-9.02522
▁Se	-9.02661
ty	-9.02765
▁Street	-9.02838
▁29	-9.02901
▁APK	-9.02973
▁Car	-9.02995
94	-9.03022
ສານ	-9.03115
ຂະ	-9.03132
▁Post	-9.0316
▁Coil	-9.03215
▁An	-9.03313
ພ	-9.03331
▁ອຸປະກອນການ	-9.0334
▁Super	-9.03463
▁ສະລັອດຕິງ	-9.03466
▁ຮ້ອນ	-9.03481
q	-9.03647
▁ການນໍາໃຊ້	-9.03709
ຄວາມຮ້ອນ	-9.03875
▁Pa	-9.03886
▁UK	-9.03889
ING	-9.0389
ci	-9.04028
▁Chalkboard	-9.04031
▁He	-9.04071
93	-9.04123
▁ກ່ຽວກັບພວກເຮົາ	-9.04124
▁Ha	-9.04184
ເສັ້ນ	-9.04228
ator	-9.04332
▁Blockchain	-9.04428
▁Oceania	-9.04433
▁Flash	-9.04472
▁ພາສາ	-9.04491
ການພັດທະນາ	-9.04642
▁Mar	-9.04987
▁design	-9.05233
▁Video	-9.05233
▁ປະເທດ	-9.05488
▁ຂອງທ່ານ	-9.05513
OR	-9.05569
▁Case	-9.05617
che	-9.05693
ps	-9.05818
85	-9.06054
▁120	-9.06056
ou	-9.06111
▁ບັນຊີ	-9.0619
▁1500	-9.06254
ock	-9.06287
RI	-9.06297
line	-9.06299
ance	-9.06341
ກໍາລັງ	-9.06351
sk	-9.06389
rip	-9.06452
▁ໄດ້ຮັບ	-9.06469
ST	-9.06476
act	-9.06493
ເຄືອຂ່າຍ	-9.06645
CE	-9.0666
ene	-9.06757
gu	-9.06793
ga	-9.06807
▁Skeleton	-9.06863
ຂະຫນາດໃຫຍ່	-9.07068
ick	-9.0708
ack	-9.07117
▁Bitcoin	-9.07274
▁ກະລຸນາ	-9.07447
▁Français	-9.07573
ພັນ	-9.07672
▁Digital	-9.07687
▁Solenoid	-9.07687
ຜູ້ຜະລິດ	-9.07705
▁Zone	-9.07746
ຄວບຄຸມ	-9.07747
ຈໍານວນ	-9.08089
ສາກົນ	-9.08117
nd	-9.08207
ພາສາ	-9.08276
ວັດ	-9.0854
▁ຫນັງ	-9.08618
ຈ	-9.08667
ລະຫັດ	-9.08772
▁ລ້ານ	-9.08813
ı	-9.08937
▁wordpress	-9.08937
pl	-9.09137
ແຫ່ງຊາດ	-9.09186
▁ຂາຍ	-9.09186
▁ເອກະຊົນ	-9.09195
ES	-9.09254
EL	-9.09312
▁csgo	-9.09358
ພື້ນຖານ	-9.09365
ລາ	-9.09415
78	-9.09452
▁ນະ	-9.0948
▁ວຽກ	-9.09605
▁Ho	-9.0967
▁am	-9.09681
eng	-9.0973
ຂອງຕົນ	-9.09773
▁admin	-9.09781
ການບໍລິການ	-9.09797
▁ຖານ	-9.09962
min	-9.09975
az	-9.1012
ning	-9.10163
▁Company	-9.10203
▁spring	-9.10204
ວັດສະດຸ	-9.10228
ik	-9.10239
▁32	-9.10247
back	-9.10256
800	-9.10343
▁ເຮັດໃຫ້	-9.10359
▁800	-9.10504
▁ຝຸ່ນ	-9.10504
ium	-9.10595
▁Samsung	-9.10629
way	-9.10718
tattoo	-9.10763
▁ເຫມາະສົມ	-9.10795
ອັນ	-9.1084
ທຸກ	-9.10878
oc	-9.10916
83	-9.10918
▁ໄຟ	-9.11021
hu	-9.11083
▁https	-9.11086
▁→	-9.11172
▁And	-9.11237
▁ເອ	-9.11382
ຕິດ	-9.11399
ທີ່ຢູ່	-9.11499
▁Pe	-9.11634
all	-9.11674
od	-9.11725
ob	-9.11847
▁ກໍລະກົດ	-9.11916
▁Honda	-9.11917
ອອກແບບ	-9.12072
ອາ	-9.12147
▁ໃຈ	-9.12165
03	-9.12187
▁ເຄືອບ	-9.12249
▁Software	-9.12354
ຄອມພິວເຕີ	-9.12428
vo	-9.12494
ກະດານ	-9.12518
▁ສົມ	-9.12584
72	-9.12585
▁Sh	-9.12624
ok	-9.12649
▁80	-9.12676
ສະລັອດຕິງ	-9.12946
ໄວ	-9.12987
hand	-9.13069
່ງ	-9.13169
▁ຍິນດີຕ້ອນຮັບ	-9.13189
▁reply	-9.13221
ເລືອກ	-9.13342
her	-9.13397
ວິທະຍາໄລ	-9.13408
are	-9.13533
▁600	-9.13701
▁ເວລາ	-9.13736
ຸ	-9.13918
▁ຄວາມຫນາ	-9.13937
ຜົນ	-9.13975
▁ສີແດງ	-9.14009
ດູດ	-9.14075
ມື້ນີ້	-9.14127
ບັດ	-9.14142
▁ຊົ່ວໂມງ	-9.14231
▁University	-9.14542
▁Box	-9.14546
ປັບ	-9.14566
▁ອ	-9.14632
ການຝຶກອົບຮົມ	-9.14681
ຊາຍ	-9.14724
ບານ	-9.1477
ash	-9.14831
engrui	-9.15035
ET	-9.15193
-7	-9.15239
fa	-9.15347
ຂຽນ	-9.1535
pcs	-9.15358
ບໍ່ໄດ້	-9.15371
▁ຈຸດ	-9.15371
ກາງ	-9.15604
ປັບປຸງ	-9.1572
ek	-9.15724
CA	-9.15732
ແລະອື່ນໆ	-9.15752
ain	-9.15791
ຕະ	-9.15849
▁Single	-9.15884
▁iOS	-9.15889
ort	-9.15939
▁ຕາມ	-9.16055
OS	-9.16189
▁ເຟສບຸກ	-9.16203
ທີ່ດີ	-9.1626
11%	-9.16283
▁ຊອບແວ	-9.16294
ເດືອນ	-9.16302
ົນ	-9.16305
ຫຼິ້ນ	-9.16316
ຫຼາຍກວ່າ	-9.16409
ມື	-9.16423
av	-9.16465
ive	-9.16558
▁ມາດ	-9.16569
ຂ	-9.16614
ຂີ້ຝຸ່ນ	-9.16668
▁ເລືອກ	-9.16751
▁ຍາ	-9.16778
▁can	-9.1679
220	-9.16804
▁Di	-9.16945
▁ຕາ	-9.1703
▁casino	-9.17048
do	-9.17104
▁ແຂວງ	-9.17107
-01	-9.17119
▁NC	-9.17136
▁04	-9.17227
▁j	-9.17249
}	-9.17474
▁Products	-9.17519
ວັນທີ	-9.1768
▁bitcoin	-9.17696
▁con	-9.17697
▁ma	-9.17746
ສະແດງ	-9.17778
RA	-9.17832
▁kr	-9.17854
▁ທໍາມະຊາດ	-9.18254
▁Red	-9.18311
AC	-9.18316
▁min	-9.18362
້າ	-9.18479
▁Mac	-9.18482
▁Mill	-9.18483
ັນ	-9.18484
ເດັກນ້ອຍ	-9.18512
ຕົ້ນຕໍ	-9.18535
▁Slot	-9.18573
GVMG	-9.18615
ເວັບໄຊທ໌	-9.18651
1%	-9.18672
ace	-9.18718
▁ສານ	-9.18786
ner	-9.18849
ea	-9.18931
▁Mi	-9.19061
▁Plus	-9.19094
▁Italian	-9.19114
ໃນປັດຈຸບັນ	-9.19121
▁Do	-9.19153
▁ຄົນ	-9.1918
▁width	-9.19253
▁ຄ	-9.19299
ກາວ	-9.19408
▁Muay	-9.19552
▁ດໍາ	-9.19557
▁Archives	-9.1974
ພັດທະນາ	-9.19747
ເຫັນ	-9.19762
ກໍານົດ	-9.19766
▁Design	-9.19865
ທີ່ສໍາຄັນ	-9.19883
▁so	-9.19894
uk	-9.1998
ah	-9.20032
ປະກອບດ້ວຍ	-9.20058
600	-9.20113
▁01	-9.20274
▁ຫົວ	-9.20419
▁Cheat	-9.20444
ຫມຶກ	-9.20462
ການຊໍາລະເງິນ	-9.20484
ສາດ	-9.20617
▁ທັນ	-9.20753
▁ເສັ້ນໃຍສັງເຄາະ	-9.20952
▁NO	-9.20993
▁Iron	-9.21001
▁Flat	-9.21063
▁di	-9.21068
▁ຕື່ມ	-9.21131
▁Diaphragm	-9.21164
250	-9.21221
▁Best	-9.21377
RE	-9.21483
ໄວ້	-9.21511
fish	-9.21589
ໍ	-9.21611
▁Tape	-9.21749
▁ຕະ	-9.21781
ພາບ	-9.21819
▁ຕຸ	-9.21866
▁www	-9.22155
go	-9.22231
▁Bar	-9.22288
ສຸຂະພາບ	-9.22312
▁IFMA	-9.22381
ຖ	-9.22389
qu	-9.22396
ger	-9.22547
98	-9.22582
ຈັບ	-9.22591
MP	-9.22648
ຫລາຍ	-9.22679
▁US	-9.22686
ເຄື່ອງມື	-9.22688
ous	-9.227
ລາຍລະອຽດ	-9.22702
▁ເຊັ່ນ	-9.22778
ຕິດຕາມ	-9.2289
▁ດ້ວຍ	-9.229
ຕ້ອງການ	-9.22944
best	-9.22949
ທີ່ແຕກຕ່າງກັນ	-9.22956
▁Ga	-9.22994
▁Slots	-9.23015
ຢ	-9.23053
▁ບົບ	-9.23332
▁Toner	-9.23367
▁ສະບັບເລກທີ	-9.23406
▁ພະນັກງານ	-9.23501
▁ໂອ	-9.23509
0.00	-9.23518
ko	-9.23609
ທັງ	-9.2372
▁400	-9.23808
▁ຢາ	-9.23814
▁Uncoiler	-9.2383
ດັ່ງກ່າວ	-9.23831
▁it	-9.23888
▁ການປັບປຸງ	-9.24186
ຄາສິໂນ	-9.2421
ແສງ	-9.24252
▁ວາ	-9.24326
▁Portable	-9.24331
▁ຮູບເງົາ	-9.24364
ຕໍ່ໄປ	-9.2444
bar	-9.24533
ast	-9.24571
▁ໂລກ	-9.24639
ml	-9.24848
IS	-9.24945
cat	-9.25014
▁ຕ້ອງ	-9.25108
ຕົວຢ່າງ	-9.25136
wa	-9.25142
ຮູບ	-9.25154
ric	-9.25284
ການອອກແບບ	-9.25302
▁ຕິດຕໍ່	-9.25329
▁ຕິ	-9.25377
▁2000	-9.25483
▁ການບໍລິການ	-9.25547
▁ຖືກ	-9.25612
po	-9.25629
▁ເພີ່ມ	-9.25651
▁GB	-9.25665
▁Page	-9.2567
▁ອີເມວ	-9.25671
▁Inc	-9.25739
board	-9.25794
▁type	-9.25845
ue	-9.25867
ft	-9.25898
ສີຂາວ	-9.25903
ອາດຈະ	-9.25906
▁ເງື່ອນໄຂ	-9.2597
▁03	-9.2599
▁sales	-9.26016
▁Dry	-9.26092
▁ວັນທີ	-9.26173
▁ບົດ	-9.26178
▁as	-9.26241
ລັດ	-9.26262
▁vs	-9.26271
▁ເບິ່ງຊອບແວຫຼາຍ	-9.26293
ຸນ	-9.26357
ll	-9.26364
ຂະຫນາດນ້ອຍ	-9.26379
ຕິດຕໍ່	-9.26386
ຕອບ	-9.26462
ເຕັກໂນໂລຊີ	-9.26533
ຄວາມປອດໄພ	-9.26553
ຄື	-9.26568
▁250	-9.26717
▁Crack	-9.26794
▁Foam	-9.26803
▁ນັກ	-9.26916
▁Pox	-9.26973
▁Wi	-9.26993
tro	-9.27131
pr	-9.27217
▁Guangzhou	-9.27295
▁Qingdao	-9.27295
▁International	-9.27421
sun	-9.2743
▁Wire	-9.27458
ສະເຫນີ	-9.27555
▁ອຸນຫະພູມ	-9.27692
▁ລັງ	-9.27749
▁Shopify	-9.27825
ໂຊ	-9.27843
▁ປາ	-9.27864
▁ມູນ	-9.27872
▁PM	-9.27886
ວິທະຍາສາດ	-9.28009
ກອງປະຊຸມ	-9.28031
ປ່ຽນ	-9.28063
ee	-9.28067
▁Blog	-9.28206
é	-9.28308
▁ສະພາບອາກາດໃນ	-9.28316
ake	-9.28664
ເອົາ	-9.28804
▁ເມ	-9.2883
▁Play	-9.28888
▁Gas	-9.28912
▁Anti	-9.29015
▁ຂ້າ	-9.29086
tt	-9.2912
ກ່ຽວກັບການ	-9.2913
ມີຄວາມ	-9.2928
▁ປະຕູ	-9.29285
▁laser	-9.29332
OOD	-9.29396
▁un	-9.29422
▁do	-9.29472
rn	-9.29514
ສະແຕນເລດ	-9.29579
gen	-9.29589
▁(1)	-9.29717
ງ່າຍ	-9.29763
▁·	-9.29972
og	-9.30037
va	-9.30038
lan	-9.30311
о	-9.30365
▁Multi	-9.30365
▁By	-9.30447
ຫຍໍ້ຂອງ	-9.30489
▁ຢ້ຽມຢາມ	-9.3059
du	-9.30594
▁Trade	-9.30596
cy	-9.30617
ເມ	-9.30624
▁ຫນັກ	-9.30713
ປະກອບມີ	-9.30777
ໂຮງແຮມ	-9.30804
ໃດ	-9.30816
▁White	-9.30876
▁ກຸມ	-9.30876
US	-9.3091
▁ບົດຄວາມ	-9.30923
▁70%	-9.30975
ກວ່າ	-9.3106
▁ໆ	-9.31079
▁System	-9.31137
▁ສິດ	-9.31198
▁Fu	-9.315
▁jet	-9.31522
so	-9.31554
▁CAS	-9.31719
▁ປະຕິບັດຕາມ	-9.31726
▁Test	-9.31803
ya	-9.31805
ຂີ້ເຫຍື້ອ	-9.31806
▁ສະຫນັບສະຫນູນ	-9.31927
ray	-9.31928
cross	-9.31939
ອາຍຸ	-9.31947
EC	-9.31997
ຜົນກະທົບ	-9.32015
bit	-9.32052
5%	-9.32346
▁ຄວາມຄິດເຫັນ	-9.32371
ess	-9.324
▁ການເດີນທາງ	-9.32444
ome	-9.32454
bi	-9.32516
ave	-9.32525
▁ອອກແບບ	-9.32573
▁{	-9.32628
lic	-9.32655
▁ເສັ້ນ	-9.32663
ພາ	-9.32761
▁17,	-9.32852
▁ຄໍາຖາມ	-9.32872
over	-9.32894
ຟ	-9.32924
ze	-9.32936
ເຂົ້າຮ່ວມ	-9.32967
IT	-9.3299
nt	-9.33011
▁ສະແດງ	-9.33102
▁Apple	-9.33115
cl	-9.33166
ນີ້ແມ່ນ	-9.33246
▁PCB	-9.33251
ງານ	-9.33359
▁ຕັ້ງ	-9.33379
▁ມາດຕະຖານ	-9.33403
▁ແລ້ວ	-9.33431
▁cryptocurrency	-9.33432
▁ແຜນຜັງເວັບໄຊ	-9.33531
▁Twitter	-9.33605
▁Flight	-9.33622
ren	-9.33668
ໂຄ	-9.33792
001	-9.33807
ຕະຫຼາດ	-9.33818
່ນ	-9.33933
SI	-9.33934
ບັນຈຸ	-9.34006
ler	-9.34009
▁CE	-9.34074
ປະຕິບັດ	-9.3409
ເພີ່ມ	-9.34105
ຄ່າ	-9.34176
ປິດ	-9.34192
-12	-9.342
ຸດ	-9.34248
SD	-9.34319
ສີ່	-9.34327
ຫ້ອງການ	-9.34356
ຊ່ວຍ	-9.34379
▁ກາ	-9.34401
ade	-9.34442
nc	-9.34527
▁ທັງ	-9.34573
ປາກ	-9.34593
▁ສິ່ງທີ່ຄວນຮູ້	-9.34609
▁ການຄາດຄະເນ	-9.34611
ຟັງ	-9.34636
ຫຼາຍກ່ວາ	-9.34653
ລໍ້	-9.347
▁Micro	-9.34797
eye	-9.34803
ອ່ານ	-9.34847
uck	-9.34859
ທາງເລືອກ	-9.34873
ເຄືອບ	-9.34965
ບິນ	-9.35009
port	-9.35066
ມືຖື	-9.35101
ອື່ນ	-9.35115
▁Instagram	-9.35153
▁Dreadbag	-9.35153
▁HGH	-9.35156
▁ຜົນ	-9.35211
nic	-9.35217
▁Center	-9.35234
ຈຸດ	-9.35312
ated	-9.35353
▁Hat	-9.35449
▁ຈັດ	-9.35484
▁Fittings	-9.35528
▁Hebei	-9.35608
ປ້ອງກັນ	-9.35654
▁One	-9.3566
▁ປະເທດຈີນ	-9.3573
▁Belt	-9.35826
▁ຈ່າຍ	-9.35964
mb	-9.36087
ຊີ	-9.36096
ຊິ	-9.36171
▁ວິທີ	-9.36233
ພາດສະຕິກ	-9.36249
ສະມາຊິກ	-9.36249
ສູບ	-9.36249
ັດ	-9.36249
▁ແນວຄວາມຄິດ	-9.36302
▁MH	-9.36373
▁ເງິນຝາກ	-9.36401
NS	-9.36446
ນັກ	-9.36457
ຮ້ອນ	-9.36479
pp	-9.36504
ດິຈິຕອນ	-9.3653
ຫມ	-9.36618
ອກ	-9.36646
aw	-9.36696
ບາງ	-9.36763
ware	-9.36835
ທີ່ແທ້ຈິງ	-9.37017
ກິລາ	-9.37124
▁no	-9.37165
▁Pi	-9.37189
▁ລະດັບ	-9.37194
ຊະນະ	-9.37286
▁ເດັກນ້ອຍ	-9.37317
ເອກະສານ	-9.37424
▁2010	-9.37477
▁ຄົ້ນຫາ	-9.37738
ane	-9.37839
ປົກກະຕິ	-9.37866
▁ຝຶກ	-9.3791
ted	-9.37912
ven	-9.37974
ture	-9.37985
ສິ່ງທີ່	-9.37997
han	-9.38128
ight	-9.38234
ical	-9.38321
ກໍ່	-9.38396
mi	-9.38438
▁ລັດ	-9.38442
ຫຼ້າສຸດ	-9.38491
▁NEW	-9.38494
ນ້	-9.38501
box	-9.38501
KW	-9.38549
ize	-9.3856
▁ຖາມ	-9.38593
ເພີ່ມເຕີມ	-9.38639
ath	-9.38644
ole	-9.38692
▁ໃຫຍ່	-9.3878
gi	-9.38883
ຍ່ອຍ	-9.3897
▁ຄູ	-9.38993
Hz	-9.3901
we	-9.3901
ແມ່ເຫຼັກ	-9.3902
res	-9.3902
▁Español	-9.39159
ກິນ	-9.39224
ina	-9.39302
TS	-9.39328
▁%	-9.39435
Ltd	-9.39437
▁MB	-9.3946
▁Shanghai	-9.3961
▁Server	-9.39613
ung	-9.39665
▁Jo	-9.39668
▁ສະບັບ	-9.39682
▁ໂຮງແຮມ	-9.39699
ມະ	-9.39775
-0	-9.39794
▁Blythe	-9.39826
▁China	-9.39834
fe	-9.39853
ລິ	-9.3987
rate	-9.3988
▁02	-9.40002
ສາ	-9.40029
ທໍາມະຊາດ	-9.40057
ten	-9.40139
е	-9.40182
▁Vientiane	-9.40182
ັງ	-9.40386
▁ການກັ່ນຕອງ	-9.4043
ການກັ່ນຕອງ	-9.40437
▁ຮັກ	-9.40624
ວົງ	-9.40656
▁Mold	-9.40693
low	-9.40746
ies	-9.40747
▁Ceramic	-9.40756
▁Varicella	-9.40756
▁Chrome	-9.40757
▁ຂອບ	-9.40763
▁Min	-9.40811
▁Ri	-9.40815
▁crate	-9.40821
▁ທ	-9.40838
CH	-9.40845
ການຄວບຄຸມ	-9.40854
king	-9.40905
ng	-9.40909
▁ສິ່ງ	-9.40952
▁was	-9.40969
▁ກິລາ	-9.40969
ບໍ	-9.41027
ສິ່ງ	-9.41064
ust	-9.41173
ຕິ	-9.41177
▁wooden	-9.41337
▁free	-9.41395
ence	-9.41508
pt	-9.4156
▁ລູກຄ້າ	-9.41575
ix	-9.41675
ແປ	-9.41713
PA	-9.41775
▁State	-9.41811
▁ຂ້ອຍ	-9.41835
shan	-9.41861
▁ລວມທັງ	-9.41912
ເທິງ	-9.41913
▁Cartridge	-9.41916
▁Rights	-9.41917
ນອນ	-9.41937
▁Pre	-9.41975
▁Golden	-9.41985
ປະສິດທິພາບ	-9.41985
ອີເມວ	-9.42012
▁ເພີ່ມເຕີມ	-9.42024
ນອກ	-9.42043
ld	-9.42093
▁Set	-9.42141
▁ລ	-9.42163
ການຂາຍ	-9.42164
ູ	-9.42201
▁Sa	-9.42204
-9	-9.42266
ED	-9.42345
▁ນະໂຍບາຍ	-9.42396
▁butterfly	-9.42445
lay	-9.42481
▁Erase	-9.42502
▁Fiberglass	-9.42504
ເມື່ອ	-9.42506
PT	-9.42508
ລໍາ	-9.42551
▁19,	-9.42571
▁ປັບ	-9.42597
▁ສໍາລັບຜູ້ຊາຍ	-9.42607
▁Long	-9.42643
▁≤	-9.42684
ind	-9.42754
▁ຮ້ານ	-9.42763
IA	-9.42809
▁ເວັບ	-9.42837
lock	-9.42867
ພະ	-9.42992
▁Key	-9.43011
=	-9.43037
ວິ	-9.43052
ພະຍາດ	-9.43089
ຊຸມຊົນ	-9.4309
xi	-9.43097
bird	-9.43102
ron	-9.43132
▁ສຽງ	-9.4318
kw	-9.43224
GB	-9.4323
▁Dr	-9.43259
MM	-9.43279
des	-9.43314
ach	-9.4343
▁Th	-9.43447
ເພ	-9.43494
▁PP	-9.43585
sp	-9.436
ໂມ	-9.43615
ພິ	-9.43637
▁Nylon	-9.43681
ເຢັນ	-9.43762
▁Tri	-9.43764
▁ຖ້າ	-9.43828
▁Shirt	-9.43841
▁($	-9.44137
▁Gu	-9.44193
ນ້ໍາມັນ	-9.44212
▁Capital	-9.44276
▁ປະເທດໄທ	-9.44282
▁Office	-9.44288
ສໍາຫລັບ	-9.44368
▁Su	-9.44425
ວາວ	-9.44462
▁Marketing	-9.44504
ber	-9.44516
ດໍາເນີນການ	-9.44541
▁Pet	-9.44546
ປະທານ	-9.44706
▁Cl	-9.4471
▁Print	-9.44777
ວຽກ	-9.44853
▁Lu	-9.44854
ສື່ມວນຊົນ	-9.44874
▁Assembly	-9.44875
▁Dedusting	-9.44875
▁ເຫນີ	-9.44875
ຄົນອັບເດດ	-9.44897
ound	-9.44918
▁Photo	-9.44979
ໃນໄລຍະ	-9.45002
▁Book	-9.45022
ana	-9.45142
tu	-9.45173
ສຸດ	-9.45342
▁ໄລ	-9.45446
▁ອີ	-9.45456
▁ແມັດ	-9.45468
ສັ້ນ	-9.45473
▁Wireless	-9.45494
▁ສວນ	-9.45545
ພວກເຂົາ	-9.45561
▁ອື່ນໆ	-9.4557
ff	-9.45584
▁ເຕັກໂນໂລຊີ	-9.45612
ປະຊາຊົນ	-9.45625
ug	-9.45681
-2018	-9.45684
ກິດ	-9.45761
ປະເພດຂອງ	-9.45801
ກ່ອນ	-9.45818
▁09	-9.45891
ep	-9.45933
ຮູ້	-9.45943
▁Ke	-9.46018
ord	-9.46036
▁Hyperbaric	-9.46251
ິ	-9.46276
▁Lo	-9.46279
ran	-9.46314
▁Ideas	-9.46368
▁Direct	-9.4638
mail	-9.46412
ele	-9.46424
▁07	-9.4643
ure	-9.46473
ov	-9.46493
ao	-9.46501
▁War	-9.46531
▁Na	-9.46538
▁bo	-9.46572
tra	-9.46592
▁ສໍາລັບການ	-9.46631
▁ນັບ	-9.4667
ding	-9.46692
▁Green	-9.46695
▁Carbon	-9.46701
▁ເອົາ	-9.46717
▁Cam	-9.46763
zhou	-9.46868
▁ໂຄມໄຟ	-9.46963
▁ການປະຕິບັດ	-9.47038
ທະ	-9.47053
ຄະນະ	-9.47084
▁Da	-9.47101
pi	-9.47147
ໂດຍກົງ	-9.47182
▁ຊາ	-9.47211
ລົງທະບຽນ	-9.47233
▁ມັນເປັນ	-9.47268
ເຂົ້າໄປໃນ	-9.47278
▁Deduster	-9.47306
▁Shijiazhuang	-9.47306
▁ແວ	-9.47327
▁will	-9.47359
▁this	-9.47403
▁55	-9.47412
ຊອກຫາ	-9.47466
▁Roller	-9.47516
ib	-9.47523
▁AM	-9.47543
▁Led	-9.47603
▁House	-9.47639
▁Ra	-9.47688
lion	-9.47894
light	-9.47907
▁Karnar	-9.47924
tal	-9.47937
fi	-9.47946
fu	-9.4797
▁1.5	-9.48083
ໂຕ	-9.4814
▁ກະທູ້	-9.48178
▁Ph	-9.48238
້ໍາ	-9.48238
▁06	-9.48311
ew	-9.4834
ເຫຼົ່ານີ້	-9.48403
▁Motor	-9.48459
ເສດຖະກິດ	-9.48545
con	-9.48586
▁Metal	-9.4868
ພູ	-9.48717
ຂົນສົ່ງ	-9.48746
▁ສະແຕນເລດ	-9.48809
ໂຮງງານ	-9.48929
▁ເຮືອນ	-9.48989
ຶ	-9.49166
▁Suzuki	-9.4917
▁Ukraine	-9.4917
▁ບຸກ	-9.4917
▁Giant	-9.4917
▁ຕອບ	-9.49172
▁ສໍາລັບເດັກຍິງ	-9.49207
▁64	-9.49228
▁ຄໍາເຫັນ	-9.4923
ວິທີ	-9.4936
ອີກ	-9.49389
ISO	-9.49483
In	-9.49507
book	-9.49531
ເລີ່ມຕົ້ນ	-9.4954
▁MT	-9.49563
▁ຈ	-9.49574
▁ເມື່ອ	-9.49608
▁PE	-9.49682
ເກີດ	-9.49731
▁Rikoooo	-9.49799
▁Organosilicon	-9.498
ປະຫວັດສາດ	-9.49801
▁Opera	-9.4981
▁dev	-9.49859
ຄືນ	-9.49919
▁36	-9.49924
▁ນ້ອຍ	-9.4998
ສັນ	-9.5006
FA	-9.50122
▁ແມ່ນຫຍັງ	-9.50317
▁Go	-9.50351
▁ກອບ	-9.50395
▁YouTube	-9.50432
ຄວນ	-9.50479
▁have	-9.50636
▁28,	-9.50638
▁70	-9.50683
men	-9.50709
▁PR	-9.50717
▁King	-9.50728
ef	-9.50793
mp	-9.50873
400	-9.50876
ລົດໄຟ	-9.5093
ert	-9.50963
▁Fe	-9.50986
▁ເວ	-9.51017
ຮູບເງົາ	-9.51017
▁We	-9.51033
ຫນ້າຈໍ	-9.51058
▁Galvanized	-9.51068
▁October	-9.51068
▁ມະ	-9.51086
ລົມ	-9.51093
ການພິມ	-9.51158
ect	-9.51235
▁ເຟ	-9.51245
ຂ້ອຍ	-9.51271
ພາກ	-9.51271
▁110	-9.5129
▁ຄະນະກໍາມະ	-9.51347
▁3000	-9.51368
chi	-9.51505
ລຸ້ນ	-9.5153
ud	-9.51581
▁ລໍ້	-9.51602
▁21,	-9.51657
ຂະຫຍາຍ	-9.51685
ລິຂະສິດ	-9.51706
▁Dubai	-9.5171
ໂຮງຮຽນ	-9.51718
ຮັກ	-9.51719
ble	-9.51725
ial	-9.51727
car	-9.51758
ມ້ວນ	-9.51797
COM	-9.51816
▁Message	-9.51824
▁10%	-9.51827
▁up	-9.51965
▁Last	-9.51984
ຍາ	-9.52015
ino	-9.52047
read	-9.52141
▁ວັດ	-9.52186
ປະກອບ	-9.52214
▁Bl	-9.52229
eb	-9.52251
▁ປິດ	-9.52296
а	-9.52352
▁Spring	-9.52356
▁ແສງ	-9.52434
▁Night	-9.52436
hua	-9.52466
▁23,	-9.52487
▁Xin	-9.52501
▁ເວັບໄຊ	-9.52567
▁So	-9.52629
ມັກ	-9.52738
old	-9.52833
ມືອາຊີບ	-9.52858
▁ຫັດ	-9.52909
203	-9.52926
▁ໄຊ	-9.52946
ຕະຫຼອດ	-9.53004
▁SlotJar	-9.53004
ສິ່ງແວດລ້ອມ	-9.53004
▁World	-9.53004
ox	-9.53041
ເຕັມ	-9.53107
ກຸ່ມ	-9.53131
ບັນຫາ	-9.5316
que	-9.53218
ອມ	-9.53246
ham	-9.53302
▁65	-9.53329
▁not	-9.53436
▁020	-9.53438
▁Site	-9.53468
wi	-9.53597
IF	-9.53613
ຕົກ	-9.53652
▁ຫມວດ	-9.53655
▁Service	-9.53658
▁ສະຫງວນລິຂະສິດ	-9.53658
▁Deposit	-9.53661
▁Skype	-9.53668
▁fl	-9.53698
▁ປະລິມານ	-9.53742
▁125	-9.53758
▁Door	-9.53789
▁ຊົມ	-9.53866
▁Port	-9.53895
▁It	-9.5392
ມມ	-9.53921
▁Powered	-9.53929
ດິນ	-9.53967
▁DN	-9.54065
▁30%	-9.54087
RO	-9.54126
angel	-9.54203
ລາງວັນ	-9.54223
▁ອາຄານ	-9.54228
▁Fl	-9.54257
ດິນຟ້າອາກາດ	-9.54315
®	-9.54315
▁Nakhon	-9.54316
ໂບນັດ	-9.54316
▁Panel	-9.54317
TH	-9.54322
▁Chiang	-9.54338
Heart	-9.54345
▁sign	-9.54358
ການບິນ	-9.54387
ano	-9.54429
່າ	-9.5443
CO	-9.54457
▁ກະດານ	-9.54466
ເວົ້າ	-9.54482
-15	-9.54527
▁ກອງປະຊຸມ	-9.54543
1000	-9.54551
▁Du	-9.54558
€	-9.54558
ບຸກຄົນ	-9.54569
ct	-9.54584
▁ເມັດ	-9.54657
ale	-9.5467
ຫລື	-9.54673
head	-9.54699
້ງ	-9.54735
ແພ	-9.54763
ark	-9.54886
PE	-9.54891
ມາຈາກ	-9.54919
▁ສປປ	-9.54959
ຄູ່	-9.54969
ö	-9.54978
▁Butterfly	-9.54978
▁Crusher	-9.54978
▁Thani	-9.54982
▁Disk	-9.54996
ink	-9.55083
▁2005	-9.55204
▁ລົງ	-9.55283
tes	-9.55286
▁Hua	-9.55353
▁ຮ	-9.55481
▁ເຄ	-9.55507
ຈ່າຍ	-9.55565
EA	-9.55565
▁ຕິດຕາມ	-9.55574
ກະສິກໍາ	-9.55644
▁Tweet	-9.55645
mg	-9.55682
▁Fa	-9.55685
▁ແມ່ຍິງ	-9.55688
▁ກະເປົ໋າ	-9.55752
by	-9.55771
ແຕ່	-9.55799
▁tape	-9.55818
▁Jan	-9.55832
▁ຍັງ	-9.55869
▁ເທດ	-9.55876
▁gr	-9.55888
Guangdong	-9.55928
▁ທ້າຍ	-9.55929
top	-9.5606
▁ເຫຼັກ	-9.56116
Pin	-9.56149
ທີ່ຖືກ	-9.56197
▁ໂດຍທົ່ວໄປ	-9.56205
▁Hot	-9.56256
ອິນເຕີເນັດ	-9.56261
▁ພັກ	-9.56266
▁ຕ	-9.56292
▁ໂຮງຮຽນ	-9.56311
▁Injection	-9.56316
▁McKnight	-9.56316
ເຮືອບິນ	-9.56338
▁from	-9.56344
ຈໍານວນຫຼາຍ	-9.56357
foot	-9.56437
▁ສາຍແອວ	-9.56453
▁John	-9.56492
hr	-9.56536
val	-9.56588
ile	-9.56588
ພື້ນທີ່	-9.56804
OL	-9.56855
ເທົ່ານັ້ນ	-9.56861
ທຶນ	-9.5693
2018	-9.56936
phone	-9.5699
▁ຊອບ	-9.56997
▁ພາກຮຽນ	-9.57036
ev	-9.57216
UN	-9.57221
▁ອັດຕາ	-9.5725
ຂອງຂ້າພະເຈົ້າ	-9.57317
ari	-9.57357
ຂໍ້	-9.57357
moon	-9.57385
ເຈົ້າ	-9.57487
▁ອຸ	-9.57489
ກາເຟ	-9.57503
▁ກົດຫມາຍ	-9.57529
▁PA	-9.57682
▁RoHS	-9.57683
▁Pay	-9.5775
ເພີ່ມຂຶ້ນ	-9.57797
form	-9.57837
ໂທ	-9.57861
hai	-9.58013
▁ອຸປະກອນເສີມ	-9.58019
ກໍລະນີ	-9.58099
ຜູ້ໃຊ້	-9.58123
▁ອິນເດຍ	-9.58126
ü	-9.58153
ສະຫະລັດ	-9.58209
ປະສົມ	-9.58265
PS	-9.58355
Infinity	-9.58356
▁iPad	-9.58356
▁ຂຽນເມື່ອສຸດ	-9.58356
▁Pressure	-9.58378
▁Ka	-9.58435
ali	-9.58454
▁tr	-9.58459
ຂາວ	-9.58465
0%	-9.58484
ros	-9.58501
ການປິ່ນປົວ	-9.58524
van	-9.58557
ສີດ	-9.58802
×	-9.58828
bra	-9.5884
ase	-9.58917
и	-9.59046
▁Chicken	-9.59046
tribal	-9.59046
▁Epson	-9.59046
ຊະນິດ	-9.59047
ອາບນ້ໍາ	-9.59064
iv	-9.59072
ຖືກນໍາໃຊ້	-9.59122
▁Send	-9.59129
▁©20	-9.59145
▁08	-9.59146
999	-9.59186
air	-9.59225
ການຊ່ວຍເຫຼືອ	-9.59233
▁Card	-9.59279
▁su	-9.59299
ness	-9.59348
ເຂດ	-9.59349
FC	-9.59425
▁ທົ່ວ	-9.59469
▁ຊຶ່ງ	-9.59495
ext	-9.59621
ເລ	-9.59662
ໃນປີ	-9.59726
ເອງ	-9.59732
▁Province	-9.59741
▁gallery	-9.59741
ຄວາມເປັນສ່ວນຕົວ	-9.59741
Supermarket	-9.59741
▁modified	-9.59741
watercolor	-9.59742
▁GAME	-9.59745
Feather	-9.59748
▁ກັບການຝຶກອົບຮົມ	-9.5988
▁ສະຫະລັດ	-9.59883
und	-9.60025
str	-9.60027
▁ms	-9.60043
int	-9.60142
▁ເກີບ	-9.60171
▁he	-9.60187
▁Pot	-9.60214
ເຈ	-9.60326
ນໍ້າ	-9.6034
▁Shandong	-9.6044
dragon	-9.6044
▁ວົງ	-9.60494
ຊາ	-9.60502
▁Pipe	-9.60555
ແ	-9.60796
ບາ	-9.6083
app	-9.61038
OT	-9.61081
▁Lyophilized	-9.61144
ຫມຸນ	-9.61156
skull	-9.61178
ຫນັງສື	-9.61178
05-2018	-9.61186
EX	-9.61199
▁ກັນນ້ໍາ	-9.61256
ວນ	-9.61307
ສໍາຄັນ	-9.61456
cent	-9.61479
ເບ	-9.61506
▁ລວມ	-9.6151
$	-9.61545
ຕົນເອງ	-9.61611
ຄວາມໄວ	-9.61716
▁ຫຼັງຈາກ	-9.61721
CT	-9.61765
ris	-9.61816
ຫນຽວ	-9.61853
▁custom	-9.61853
▁ມິຕິ	-9.61859
ໂອກາດ	-9.61877
ຜູ້ຊາຍ	-9.61906
ຜົນປະໂຫຍດ	-9.61922
▁ບ່ອນທີ່	-9.61943
9002	-9.61972
ste	-9.61982
▁DJ	-9.62041
ດໍາ	-9.62052
2019	-9.62181
▁ຄວາມກົດດັນ	-9.62201
arrow	-9.6224
henna	-9.62258
RT	-9.623
ທິດ	-9.62381
BC	-9.62397
ຍະ	-9.62421
mar	-9.62452
ສິລະປະ	-9.62568
ທົວ	-9.62568
Ankle	-9.62568
▁online	-9.62583
ຕາຕະລາງ	-9.6259
ບັນຊີລາຍການ	-9.62592
▁Report	-9.62619
rose	-9.62664
ປະກາດ	-9.62716
ຫຍັງ	-9.62745
js	-9.62771
VAC	-9.62801
▁ຄະນະ	-9.62872
▁MP	-9.63006
▁ລິດ	-9.6303
rus	-9.63036
long	-9.63103
▁Big	-9.63166
ຫນາ	-9.63222
▁ການໂຄສະນາ	-9.63258
bl	-9.63306
▁0086-	-9.63319
▁ຕົວຢ່າງ	-9.63334
▁ກໍ	-9.63335
acock	-9.63338
ree	-9.63344
ລູກ	-9.63352
▁Doll	-9.63355
ຕິດຕັ້ງ	-9.63395
ຕົ້ນ	-9.63483
ຄັ້ງ	-9.63522
▁On	-9.63582
py	-9.63628
ທີ່ທ່ານ	-9.63643
▁ຄືນ	-9.63659
don	-9.63696
▁ພາກ	-9.63745
log	-9.63777
▁48	-9.63802
WS	-9.63817
0.0	-9.63837
▁້	-9.63914
ສູນ	-9.63921
ແຮງ	-9.64007
▁crusher	-9.64012
▁ມົມ	-9.64012
anchor	-9.64013
▁mini	-9.64014
▁ideas	-9.64016
table	-9.64042
▁tattootattoos	-9.64128
▁450	-9.64155
▁ບັນທຶກ	-9.64183
ຫຼັງຈາກ	-9.6419
AP	-9.64267
ໃຊ້ເວລາ	-9.64309
▁Model	-9.64392
▁Idea	-9.64402
ame	-9.64436
ຫນ້ອຍ	-9.64436
ເປ	-9.6445
cute	-9.6449
▁ທຸກ	-9.64535
ຮັບປະກັນ	-9.64591
ara	-9.64692
zodiac	-9.64742
ອາລູມິນຽມ	-9.64742
▁Cixi	-9.64742
▁Work	-9.64748
ຂາ	-9.64862
▁we	-9.64878
day	-9.64929
ສີດໍາ	-9.64956
▁ST	-9.64982
▁GBP	-9.65001
ອາເມລິກາ	-9.65039
ລັກສະນະ	-9.65075
ປ່ຽງ	-9.65102
▁ບານ	-9.65105
▁ເວົ້າ	-9.65125
ພາຍໃຕ້	-9.6515
▁ຈໍາກັດ	-9.6516
je	-9.65173
▁ນີ້ແມ່ນ	-9.65176
▁Sha	-9.65183
▁ຄູ່	-9.65218
▁ຍາວ	-9.6524
▁per	-9.65326
-2017	-9.65392
ແລກປ່ຽນ	-9.65416
ຂື້ນ	-9.65441
▁PU	-9.6545
送	-9.65477
▁Review	-9.65508
ທົນທານຕໍ່	-9.65516
ສະຫ	-9.65532
▁ພື້ນທີ່	-9.65594
▁ຄຸນ	-9.65617
▁ຕູ້	-9.65623
uc	-9.65674
▁Poly	-9.65698
SH	-9.657
ສັງຄົມ	-9.65704
RC	-9.6573
▁ຂຽນ	-9.65762
▁ເບີ	-9.65779
ສຸດທ້າຍ	-9.65783
rc	-9.65864
ວຽກງານ	-9.65894
້ນ	-9.65953
ການເດີນທາງ	-9.65959
▁1200	-9.65989
▁game	-9.66041
▁En	-9.66144
ost	-9.66209
▁blossom	-9.66218
ໄຟລ໌	-9.66219
▁Frame	-9.6622
▁Remover	-9.66236
ຍົນ	-9.66239
▁฿	-9.66246
ຕູ້ເຢັນ	-9.66276
▁Sc	-9.66309
▁Driver	-9.66324
eg	-9.66328
BO	-9.66368
ເດ	-9.66373
ພັບ	-9.66395
ຄະ	-9.66427
▁IN	-9.66444
ນີ	-9.66464
ise	-9.6654
▁Str	-9.66543
▁ການຝຶກອົບຮົມ	-9.66606
ແນວໃດ	-9.66822
▁ງານ	-9.66829
ual	-9.6686
ການປະຕິບັດ	-9.66903
▁37	-9.66917
ສາທາລະນະ	-9.6696
ແນວ	-9.66969
cherry	-9.66984
▁lotus	-9.66986
ຍອດ	-9.66998
▁Gl	-9.67057
▁str	-9.67168
ລວມທັງ	-9.67244
▁ແດງ	-9.67254
ຄອບຄົວ	-9.67297
▁ພວກເຮົາມີ	-9.67332
ດາ	-9.67378
▁You	-9.67417
▁Apps	-9.67429
▁ກິດຈະກໍາ	-9.6747
pro	-9.6765
ເກົ່າ	-9.67716
▁double	-9.67716
▁Biotechnology	-9.67716
▁AUD	-9.6774
ຄາດຄະເນ	-9.67742
▁ອັບ	-9.67753
▁LO	-9.67804
▁Bay	-9.67808
▁22,	-9.67813
ຮັບຜິດຊອບ	-9.67847
cn	-9.6787
▁ນັກສຶກສາ	-9.6787
ົງ	-9.67875
SE	-9.67891
ອັງກິດ	-9.67912
▁GPS	-9.67929
▁ຂ	-9.67944
oz	-9.67947
ເຄ	-9.67949
PC	-9.67989
▁ພາຍໃນ	-9.67993
the	-9.68034
ຮັກສາ	-9.68054
ດາວໂຫລດ	-9.68101
ຄວາມກົດດັນ	-9.68104
▁ຄິດ	-9.68127
▁ເອກະສານ	-9.68145
ຮ່ວມ	-9.68219
▁—	-9.68223
ore	-9.6828
▁ຊ່ອງ	-9.68315
▁ຢ່າງ	-9.68316
▁ອອກຈາກ	-9.68317
har	-9.68337
▁ການພັດທະນາ	-9.68412
▁ລູກ	-9.68418
ຄໍ	-9.68433
ail	-9.6844
reamcatcher	-9.68473
ຍຸດທະສາດ	-9.68473
▁Pinterest	-9.68473
信	-9.68473
▁Glass	-9.68488
ລ້າງ	-9.68496
ຍາກ	-9.68499
▁ເສັ້ນຜ່າສູນກາງ	-9.68552
can	-9.68575
ຫ້າ	-9.68649
alk	-9.68649
▁ເພດ	-9.68728
▁Size	-9.68754
MS	-9.68774
SIN	-9.68792
▁ສິ້ນ	-9.68851
ຄູ່ມື	-9.68882
▁ເພງ	-9.6889
ອາທິດ	-9.68901
▁ອະລູມິນຽມ	-9.68915
ບັນທຶກ	-9.68994
▁ປ້າຍ	-9.69032
IG	-9.69046
ໂລ	-9.69047
ຫຼັກ	-9.69058
▁ເປັນຫຍັງ	-9.69141
▁Reserved	-9.69237
▁galvanized	-9.69237
发	-9.69237
息	-9.69237
▁Summer	-9.69237
ehndi	-9.69238
ດາວໂຫຼດ	-9.69288
ann	-9.69302
ຈອງ	-9.69315
cu	-9.69327
ເຊັນ	-9.69335
ທະເລ	-9.69342
ຄອງ	-9.69351
▁350	-9.69382
ກົງ	-9.69406
▁Aug	-9.69513
▁Cnc	-9.69527
▁Jun	-9.69539
QS	-9.69627
▁Solutions	-9.69632
▁ຕົ້ນ	-9.69636
ized	-9.69639
ໃບ	-9.69761
dove	-9.69866
ຕົກແຕ່ງ	-9.6987
ງ່າຍດາຍ	-9.69893
ວງ	-9.69918
▁Virtual	-9.70004
ສາວຕາຕັກ	-9.70006
ສ້ອຍຂໍ້ມືເພັດ	-9.70006
ຫນ້າຕາຕັບ	-9.70006
▁Fabric	-9.70006
ຊ້າງຊ້າງ	-9.70007
ຄູ່ຜົວເມຍຄູ່	-9.70007
▁ເຂັມທິດ	-9.7001
ແຂງ	-9.7001
▁Dining	-9.70031
ເອີ້ນວ່າ	-9.70065
ການຄຸ້ມຄອງ	-9.7008
ດ້ານວິຊາການ	-9.70119
ທີ່ດິນ	-9.70246
IP	-9.70283
ress	-9.70284
▁ການສຶກສາ	-9.70362
uff	-9.70391
ນ້ໍາຫນັກ	-9.70456
ose	-9.70458
▁pre	-9.70507
▁ki	-9.70546
ຕ່າງປະເທດ	-9.70776
▁ຄວາມສູງ	-9.70776
KG	-9.70777
н	-9.70781
▁Blackjack	-9.70781
▁Boiler	-9.70782
▁yarn	-9.70782
▁Soft	-9.70785
ມື້ອື່ນ	-9.70797
▁Jin	-9.70801
-40	-9.70906
ລອງ	-9.70919
▁ການແປພາສາ	-9.70941
▁FI	-9.70951
ໄລຍະ	-9.71003
▁Sand	-9.71229
oot	-9.71287
ທີ່ຜ່ານມາ	-9.71294
ໂດຍການ	-9.71295
CN	-9.71539
▁Ac	-9.71543
▁ex	-9.71552
▁jackpot	-9.71562
▁ພຽງແຕ່	-9.71568
ລັດຖະບານ	-9.71568
▁TO	-9.71631
▁SMS	-9.71784
▁ທິ	-9.71799
den	-9.71849
▁VS	-9.71895
▁ຂວດ	-9.7192
ຕອບສະຫນອງ	-9.71939
▁CHF	-9.71954
▁HP	-9.71969
▁ໄວ	-9.71973
ເງິນຝາກ	-9.71975
▁Tool	-9.7204
fo	-9.72108
▁Ca	-9.72198
yang	-9.72232
ຊີ້ຂາດ	-9.72242
▁Pneumatic	-9.7235
▁ຄາວາຊາກິ	-9.7235
▁ໃບ	-9.72374
▁ຫນອງ	-9.72377
▁Bank	-9.72433
ມື້	-9.72442
▁RJ	-9.72443
▁Beach	-9.72599
▁ກໍລະນີ	-9.72632
tri	-9.72671
▁ba	-9.72679
▁mold	-9.72697
▁ເຄືອຂ່າຍ	-9.72737
▁Lock	-9.72805
ຂອງບໍລິສັດ	-9.72821
ອຸນຫະພູມ	-9.72827
▁Gr	-9.72868
▁ເກົ້າອີ້	-9.72925
hen	-9.72996
-18	-9.73007
AMI	-9.73063
▁ຂະຫນາດນ້ອຍ	-9.73066
ວາງ	-9.73103
▁ເຂົາ	-9.73133
▁ຄວາມອາດສາມາດ	-9.73142
▁cookies	-9.73143
▁joomla	-9.73143
▁ກຸ່ມນະໂຍບາຍ	-9.73146
ເຢຍລະມັນ	-9.73212
▁Chain	-9.7326
-16	-9.73277
▁Full	-9.73285
▁ບາງ	-9.73421
ການຄົ້ນຄວ້າ	-9.73462
▁ຊ	-9.73473
ອົງການ	-9.73497
ຈໍາ	-9.73549
jo	-9.73557
ood	-9.73565
▁ຂໍ້ຄວາມ	-9.73583
▁ZR	-9.73595
▁ພຣະ	-9.73625
▁ຂໍ	-9.73757
▁Get	-9.738
▁ເຈ້ຍ	-9.73839
lip	-9.73863
of	-9.73898
cr	-9.73899
ົາ	-9.73907
ເທົ່າ	-9.73927
▁friend	-9.73929
▁Casengo	-9.73949
▁printer	-9.73954
wp	-9.73995
ສົນທະນາ	-9.74046
emb	-9.74076
ເບີ	-9.74117
700	-9.74156
ley	-9.74185
▁Whatsapp	-9.74193
▁Cap	-9.74203
ທີ່ມີຄຸນນະພາບສູງ	-9.7425
▁Plate	-9.74325
▁ໃນປີ	-9.74394
▁ນັບຕັ້ງແຕ່	-9.74483
▁(2)	-9.74493
▁ແນະນໍາ	-9.74502
▁2009	-9.74511
ຊັບ	-9.7456
▁ຜົນກະທົບ	-9.74576
EM	-9.74629
AF	-9.74635
ເຊີ	-9.74671
pper	-9.7471
▁ນາງ	-9.74746
ແຍກ	-9.7475
▁Sale	-9.74785
ຍິງ	-9.7479
ແທ້	-9.74827
ທີ່ມີຊື່ສຽງ	-9.74832
ເສ	-9.74861
ພືດ	-9.74873
▁Auto	-9.74907
ຖ່ານຫີນ	-9.74919
▁ຜະ	-9.7492
ທີ່ບໍ່ແມ່ນ	-9.75004
ການສ້າງ	-9.75031
ຍົກ	-9.75061
ຂອງເຂົາເຈົ້າ	-9.75121
▁Un	-9.75127
ຄ່າໃຊ້ຈ່າຍ	-9.75178
ire	-9.75227
ເຄມີ	-9.75239
TER	-9.75437
▁2008	-9.75457
▁Seal	-9.75508
▁SH	-9.75533
▁Chamber	-9.75563
▁Display	-9.75565
▁Speed	-9.75565
ull	-9.75568
▁ນວນ	-9.75594
ຖື	-9.75606
yu	-9.75618
tech	-9.75667
ເຈ້ຍ	-9.75671
▁ນັ້ນ	-9.7575
ກິດຈະກໍາ	-9.75819
ອງ	-9.75824
▁ຕິດຕັ້ງ	-9.75831
▁ແປງ	-9.75849
ັ່ງ	-9.75864
meter	-9.75896
▁ຫມາ	-9.76025
▁Supplier	-9.76133
ຕີ	-9.76136
ction	-9.76158
ye	-9.76167
.0.2	-9.76211
▁ຄໍາຮ້ອງສະຫມັກ	-9.76231
▁ຄໍາສັ່ງ	-9.76232
ປະຈໍາ	-9.76249
ອັດ	-9.76255
dge	-9.76259
▁ລາຍຊື່	-9.76298
▁ເຢຍລະມັນ	-9.76311
ature	-9.7632
Українська	-9.76383
ສະຫມັກ	-9.7639
▁Grand	-9.76418
▁ຊມ	-9.76477
ເລື່ອງ	-9.76511
RS	-9.76519
ພີ	-9.76656
camp	-9.7666
▁ໂປ	-9.76696
▁ຍີ່ປຸ່ນ	-9.76715
▁Net	-9.76736
▁ຂັ້ນຕອນ	-9.76742
ຄໍາສັ່ງ	-9.76849
ID	-9.76951
▁ແບ່ງປັນ	-9.76974
▁Hi	-9.77011
▁ເຢັນ	-9.77034
▁ກູໂກ	-9.77042
▁ຖົງມື	-9.77051
ward	-9.77068
ປະສົບການ	-9.77135
ຫຼັງ	-9.77193
ຍືດ	-9.77206
▁scooter	-9.77209
ຜູ້ຊາຍແລະແມ່ຍິງ	-9.77226
▁Clear	-9.77235
ເກ	-9.77268
ຫນັກ	-9.77322
▁gsm	-9.77347
▁br	-9.77381
Wholesale	-9.77428
▁ຜ	-9.77451
-25	-9.77465
▁dis	-9.77555
Rider	-9.7773
ກໍ່ສ້າງ	-9.77784
▁Ta	-9.77789
nu	-9.7783
▁OS	-9.77846
▁ໂລ	-9.77859
▁ຕະຫຼາດ	-9.77924
BwebsiteWS	-9.78042
▁conveyor	-9.78042
▁Fruity	-9.78042
▁Gasket	-9.78043
▁Pulverized	-9.78044
VE	-9.78045
▁Tu	-9.7815
ເກັບຂີ້ຝຸ່ນ	-9.78163
ແຕ່ງ	-9.78248
▁gay	-9.78249
ເວທີ	-9.78279
່າງ	-9.7829
ແນະນໍາ	-9.78333
ຂໍ້ຄວາມ	-9.78375
-02	-9.78385
▁Bonuses	-9.78449
▁Kids	-9.7853
ຫລ	-9.78536
ເຫດການ	-9.78592
▁ໂຕ	-9.78611
▁ຄວາມປອດໄພ	-9.78681
ime	-9.7873
ook	-9.78747
ei	-9.78757
lar	-9.7876
win	-9.78764
ເຊື້ອ	-9.78875
Distributor	-9.78883
ວິສາຫະກິດ	-9.78883
天	-9.78883
聊	-9.78883
▁Profile	-9.78883
▁FXCL	-9.78883
▁Holm	-9.78885
att	-9.78888
▁ຈິກ	-9.7889
▁po	-9.78904
ຕັ້ງຢູ່ໃນ	-9.78908
▁MS	-9.78977
ບອກ	-9.78985
LS	-9.78991
▁My	-9.78996
▁ເຂດ	-9.79021
▁ແຫນ້ນ	-9.79053
▁Xi	-9.7906
▁Clamp	-9.79118
▁38	-9.79124
▁Mat	-9.79148
▁top	-9.79171
▁Sun	-9.79186
ດັດ	-9.79216
▁Magic	-9.79224
▁ແນະ	-9.79228
▁±	-9.79233
,000.00	-9.79237
ເພງ	-9.79337
ເປົ່າ	-9.79363
ິວ	-9.79497
▁ອື່ນ	-9.79526
PH	-9.79529
ສະເພາະ	-9.79552
▁ມ້ວນ	-9.79615
6.0	-9.7963
ເຕີ	-9.79634
ສົດ	-9.79649
▁ນ້ໍາມັນ	-9.79693
▁Bluetooth	-9.7973
▁Gold	-9.79743
▁380	-9.79755
let	-9.79812
ຫັນ	-9.79879
MO	-9.79913
▁Mu	-9.79985
▁ໂມງ	-9.79998
ping	-9.8
▁ຫມາກ	-9.80011
ເອ	-9.80024
STON	-9.80135
ການປ່ຽນແປງ	-9.80141
work	-9.80274
ແຂນ	-9.803
St	-9.8035
▁ຄອມພິວເຕີ	-9.80353
▁ການຄວບຄຸມ	-9.80366
▁ລາງວັນ	-9.80376
hang	-9.80381
▁Magnetic	-9.80403
▁2.0	-9.80545
▁Bangkok	-9.80585
▁MUAY	-9.80585
▁CSGO	-9.80585
ຫຼຸດລົງ	-9.8059
▁Viber	-9.80604
▁66	-9.80605
ເບຍ	-9.8064
▁ບັນຈຸ	-9.80643
ໂດຍກົງກັບ	-9.80742
▁Magnetics	-9.80802
ປະສິດທິພາບສູງ	-9.8085
▁Off	-9.80868
ller	-9.80975
ຮ້ານ	-9.80993
inder	-9.81019
ເຄີຍ	-9.8105
tin	-9.81105
ການຂົນສົ່ງ	-9.81132
▁Gh	-9.81232
ັ່ນ	-9.81246
ທີ່ໃຊ້ເວລາ	-9.81294
▁85	-9.81364
▁ດັ່ງນັ້ນ	-9.81377
ຫລັງ	-9.81394
▁machine	-9.81421
ນົມ	-9.81431
▁Amazon	-9.81447
▁corrugated	-9.81447
ກັບຄືນໄປບ່ອນ	-9.81447
ແລະຜູ້ສະຫນອງ	-9.81448
mil	-9.81449
▁Changzhou	-9.81454
ພຣະອົງ	-9.81458
▁Club	-9.81468
ມັດ	-9.81474
ອາຊີ	-9.81525
ຄອນ	-9.81577
ກໍາ	-9.81645
ough	-9.81676
▁TV	-9.81679
▁ລາຍການ	-9.81692
ອດ	-9.81711
ການແພດ	-9.81747
zi	-9.81793
ME	-9.81794
lon	-9.81888
ອີ	-9.8195
▁ສູງສຸດ	-9.81988
ji	-9.82021
oul	-9.82073
ນັກຮຽນ	-9.82095
▁Casting	-9.82109
▁CAD	-9.8217
RN	-9.82191
ສະພາ	-9.82199
ສັນຍາ	-9.82228
ອະທິບາຍ	-9.8227
▁ຄ່າ	-9.82278
ປະຕິບັດງານ	-9.82304
▁CHEATS	-9.82316
▁ເທິງ	-9.82317
▁Dongguan	-9.82319
▁Saint	-9.82328
ຫນັງ	-9.82344
▁ski	-9.82374
ຫູ	-9.82383
ນ້ອຍ	-9.82384
ທາງອາກາດ	-9.8242
▁roller	-9.82467
▁Coal	-9.82564
GO	-9.82642
▁out	-9.82644
ເສັ້ນທາງ	-9.82665
ໂປ	-9.82756
bet	-9.82777
ຄວາມໄວສູງ	-9.82801
ເຮົາ	-9.82849
ພະນັກງານ	-9.82909
ສາຍແອວ	-9.83034
house	-9.83109
▁Standard	-9.83134
▁ຫຼ້າ	-9.83166
ໂປແກຼມ	-9.83194
▁Minnesota	-9.83194
▁Oxygen	-9.83194
▁Pvc	-9.83195
▁Film	-9.83195
ເຄິ່ງ	-9.83217
The	-9.83222
ີ	-9.83226
ປະຈໍາປີ	-9.83227
LI	-9.83263
FE	-9.83282
▁ຕົວແບບ	-9.83302
▁Food	-9.83303
▁ຮ່ວມ	-9.83316
ສົ່ງເສີມ	-9.8338
▁ຈັນ	-9.83388
ຄວາມສາມາດ	-9.83409
▁Je	-9.83426
ນະ	-9.83428
ສ່ວນບຸກຄົນ	-9.8343
vis	-9.83455
ຂະບວນການ	-9.83477
ໄກ່	-9.83583
▁go	-9.83591
▁ໃນໄລຍະ	-9.83689
GE	-9.8372
▁pu	-9.83873
ການທົດລອງ	-9.83887
▁Deutsch	-9.83896
ຂັບ	-9.83909
▁Max	-9.83942
ຜ	-9.83953
ດົນຕີ	-9.83959
ເຂົາ	-9.83991
ໃຜ	-9.84079
▁Separator	-9.84079
▁solenoid	-9.84079
ຈຸດປະສົງ	-9.84079
ການດໍາເນີນງານ	-9.84079
▁Bulk	-9.8408
ຂວາ	-9.84189
ທີ່ບໍ່	-9.84201
▁ພາກສ່ວນ	-9.84206
TO	-9.84243
▁Pla	-9.84261
▁Shi	-9.84262
▁ເຕີ	-9.84315
ວີ	-9.8433
▁ອົງການ	-9.84337
▁ຊາຍ	-9.84337
load	-9.84348
▁ບ່ອນ	-9.84458
888	-9.84674
▁ຂະຫນາດໃຫຍ່	-9.847
▁ມໍເຕີ	-9.84719
ການສັກຢາ	-9.84753
ແຮງດັນ	-9.84774
-19	-9.8479
run	-9.84795
“	-9.84804
▁Or	-9.84847
ຕໍາແຫນ່ງ	-9.84869
▁ການກໍ່ສ້າງ	-9.84894
ເຫ	-9.8495
ຂໍ້ມູນຂ່າວສານ	-9.84971
ໄຫຼ	-9.84971
▁Meyelashstore	-9.84971
▁ຖັດໄປ	-9.84971
ທາດເຫຼັກ	-9.84974
▁130	-9.85003
▁ລາຄາປົກກະຕິ	-9.85021
ແຫ່ງ	-9.85063
▁ປ່ອຍ	-9.85274
▁ເລກ	-9.85314
▁get	-9.85336
ປະໂຫຍດ	-9.85456
ເນ	-9.85485
▁Guangdong	-9.85489
UF	-9.85511
ນາມ	-9.85526
erson	-9.85578
▁ສີເທົາ	-9.85593
ລວດ	-9.85638
▁Ko	-9.85712
▁ພ	-9.85733
▁ແຜນ	-9.85763
▁PS	-9.858
▁Yu	-9.85833
ş	-9.85872
▁Sodium	-9.85872
▁ມັງ	-9.85876
▁dust	-9.85931
▁2.5	-9.85941
▁Mesh	-9.85981
za	-9.86007
150	-9.8602
ວິຊາ	-9.86028
ທັນທີ	-9.86036
ja	-9.86037
ຊູ	-9.86242
▁Nov	-9.86281
eo	-9.8632
ກະດານຂາວ	-9.86353
900	-9.86413
▁ຂັ້ນ	-9.86441
▁Core	-9.86529
cast	-9.86555
ແມ່ຍິງ	-9.86567
ປັດຈຸບັນ	-9.86685
ໄຊ	-9.86731
ເດັກ	-9.86737
ໂກ	-9.86751
▁TRUSTED	-9.86782
▁Temperature	-9.86782
▁South	-9.86787
▁Golf	-9.86789
▁pump	-9.8681
ແຕ່ລະ	-9.86818
▁cat	-9.86822
content	-9.86828
ອ່ອນ	-9.86857
ສໍາ	-9.86861
ແມ່	-9.86863
▁ຫຼ	-9.86879
ອບ	-9.86919
ier	-9.87007
ute	-9.87029
ຊັກ	-9.87032
ພາສີ	-9.8704
ຊາດ	-9.87123
▁CR	-9.87139
ally	-9.8716
ຮຽນ	-9.87238
Sets	-9.87263
▁Gra	-9.87278
ອະນຸຍາດ	-9.87279
▁Bra	-9.87288
▁ການປ່ຽນແປງ	-9.87474
cker	-9.87515
ທາ	-9.87607
▁ຕີ	-9.8761
ວຍ	-9.87654
ສວນ	-9.8768
ສະພາບອາກາດ	-9.87695
ແຫຼ່ງ	-9.87697
ຜົມ	-9.87699
ວັດທະນະທໍາ	-9.87699
▁Crypto	-9.87702
▁DVD	-9.87705
▁ສິງ	-9.87714
zh	-9.87716
▁Production	-9.8773
ຖັງ	-9.87769
▁0.5	-9.87847
▁98	-9.87897
ຮ່າງກາຍ	-9.87902
▁Shot	-9.87902
ທາງດ້ານ	-9.87946
ral	-9.87975
ການເຄື່ອນໄຫວ	-9.87998
▁Printing	-9.88028
ຣາ	-9.88054
TE	-9.88082
2.5	-9.88114
ການເຊື່ອມຕໍ່	-9.8813
ວດ	-9.88141
▁play	-9.88166
ຕັນ	-9.88177
ION	-9.88183
120	-9.88245
ບາດ	-9.88297
-03	-9.88297
ທົດສອບ	-9.88312
name	-9.8832
uit	-9.88433
▁qu	-9.88443
qui	-9.88461
ດ່ວນ	-9.88477
lit	-9.88515
ປະຊຸມ	-9.88608
▁El	-9.88613
ທັດສະນະ	-9.88625
▁Galaxy	-9.88625
▁Linux	-9.88625
▁ອອກຄໍາເຫັນເປັນ	-9.88625
ບົດ	-9.88626
▁Copyshop	-9.88627
nbsp	-9.88629
▁Package	-9.88638
ເກືອບ	-9.88655
▁ໂມດູນ	-9.88658
▁feeder	-9.8868
star	-9.88693
ສະຖາບັນ	-9.88707
▁Stone	-9.8871
▁Strip	-9.88711
ບູ	-9.88713
▁ຜູ້ຊາຍ	-9.88716
ຫົວຂໍ້	-9.88725
ພາສາອັງກິດ	-9.88727
ລາຍງານ	-9.88736
ຂັບລົດ	-9.88783
▁ດຽວ	-9.88786
▁Wa	-9.88791
▁cr	-9.88795
ຂອງພວກເຂົາ	-9.88798
▁Dec	-9.88798
▁PRO	-9.88813
▁ສູງສຸດທີ່ເຄຍ	-9.88819
▁Chang	-9.88896
▁sleeve	-9.88906
▁neck	-9.88915
ເສຍ	-9.88971
▁ສີຂຽວ	-9.88972
▁ອາກາດ	-9.88987
ເລດ	-9.88992
▁ຄລາສສິກ	-9.89091
▁Hu	-9.89202
ກວດສອບ	-9.89222
າະ	-9.89248
▁ຕົວຊີ້ວັດ	-9.8927
▁ຫລື	-9.89279
ກ້າ	-9.89295
▁EN	-9.89317
imp	-9.89349
▁Uncategorized	-9.89367
view	-9.89468
ຄັ້ງທໍາອິດ	-9.89546
ຄົ້ນຄ້ວາ	-9.89559
ທ້ອງຖິ່ນ	-9.89559
ບໍລິເວນ	-9.89559
▁Screw	-9.89565
▁PROMO	-9.89565
▁ຫມັກ	-9.89583
cal	-9.89602
ຊ້ໍາ	-9.89645
ຫລັກ	-9.89652
ທໍາຄວາມສະອາດ	-9.8966
iz	-9.8967
ope	-9.89683
▁58	-9.89752
▁RF	-9.89822
▁Of	-9.89834
▁Dong	-9.89841
par	-9.89848
ນິຍົມ	-9.89874
1.5	-9.89896
▁off	-9.89919
UT	-9.89944
ສະພາແຫ່ງ	-9.89962
ງາມ	-9.89999
▁ຊີວິດ	-9.90071
print	-9.90075
▁4.0	-9.90099
▁Ti	-9.9011
▁SP	-9.90119
▁ປົກ	-9.90162
▁Fr	-9.90221
ວາ	-9.90251
ular	-9.90342
▁Zipper	-9.90348
▁3.0	-9.90363
lf	-9.90364
-200	-9.90365
▁Code	-9.90456
cho	-9.90467
▁ຄັ້ງ	-9.90472
▁Ducati	-9.90503
▁Quality	-9.90503
ຍອມຮັບ	-9.90503
▁Brush	-9.90503
ແບ່ງ	-9.90508
▁ຮ້ານຄ້າ	-9.9051
▁Trading	-9.90511
well	-9.90547
▁ຄວາມຍາວ	-9.90574
ALL	-9.9059
HS	-9.90593
ລິນ	-9.90609
ກີ	-9.9061
ດາວ	-9.90615
ທຸກຄົນ	-9.90618
ກາຍ	-9.90691
ກົດຫມາຍ	-9.90725
ອາຍແກັສ	-9.90731
ທັງສອງ	-9.90747
ພ້ອມ	-9.90797
ຄົ້ນຫາ	-9.9081
af	-9.90812
▁Posted	-9.90827
▁Pad	-9.90844
ນາງ	-9.90897
ild	-9.90908
pc	-9.9092
ຄວາມເຂັ້ມແຂງ	-9.90928
▁mo	-9.90964
ພາກພື້ນ	-9.90985
ກວດ	-9.91081
uch	-9.91098
▁Ash	-9.9112
DP	-9.91124
ແພດ	-9.91158
▁ສາມ	-9.91172
ກາກບອນ	-9.91233
111	-9.91294
▁ບາ	-9.91316
▁Royal	-9.9134
▁ສະຖາບັນ	-9.9137
▁games	-9.91385
dro	-9.91391
▁car	-9.91437
ເສັ້ນໃຍ	-9.91455
ລົດຖີບ	-9.91455
ສະກຸນເງິນ	-9.91455
▁BreatheLife	-9.91455
ທົດແທນ	-9.91457
ແກ້	-9.91462
ຖານ	-9.91463
ຜິວ	-9.91466
▁ຄອມ	-9.91472
ດຽວກັນ	-9.91475
▁semicolon	-9.91491
▁123456	-9.91492
▁GA	-9.91572
ible	-9.91653
ທົ່ວໂລກ	-9.91656
ຂັ້ນ	-9.91665
ການທົດສອບ	-9.9172
ແສງສະຫວ່າງ	-9.91737
ຂັ້ນຕອນ	-9.91775
▁ຕົ້ນສະບັບ	-9.91786
▁ເມນູ	-9.91854
▁ປຸ່ມ	-9.91866
▁RO	-9.91897
▁ເຄື່ອງປະດັບ	-9.91915
UR	-9.91982
eth	-9.9201
▁ອາເມລິກາ	-9.92017
="1	-9.92065
5,000	-9.92132
ສົມ	-9.9218
▁ອະ	-9.92284
ຄິດ	-9.92297
ກ່ວາ	-9.92333
▁Ge	-9.92356
▁Touch	-9.92369
ການໃຫ້ອາຫານ	-9.9239
ເຫລໍກ	-9.92409
ປັ໊ມ	-9.92409
▁Hydraulic	-9.92417
▁Luxury	-9.92417
▁NZD	-9.92418
▁Router	-9.92418
▁BTC	-9.92437
ຂັດ	-9.92476
▁Relay	-9.92482
ຜັກ	-9.92548
CI	-9.92554
ການພະນັນ	-9.92583
▁nad	-9.92585
▁ຄໍາແນະນໍາ	-9.92598
ປ້າຍ	-9.92669
atch	-9.92712
▁ບິດ	-9.92719
ສິດ	-9.92875
ນັບ	-9.92953
-04	-9.92977
ໃຫ້ບໍລິການ	-9.92991
່າຍ	-9.92993
pin	-9.93051
zz	-9.93125
ືອ	-9.9315
OM	-9.93197
▁TN	-9.9321
▁Ink	-9.93304
umb	-9.93357
р	-9.93387
ພັກຜ່ອນ	-9.93388
▁Converter	-9.93388
ອະນຸມັດ	-9.9339
ປັນຍາ	-9.93391
▁ROHS	-9.93394
ແລ່ນ	-9.93399
ນະຄອນຫຼວງ	-9.93399
▁micro	-9.9342
ໂອ	-9.93425
▁Mount	-9.93458
▁ດົນຕີ	-9.9352
ານ	-9.93528
ຕີນ	-9.93532
;#	-9.93624
post	-9.93665
NO	-9.93708
▁Ne	-9.9374
▁Chi	-9.93778
shi	-9.93793
ໂຄງສ້າງ	-9.93808
ອອກຈາກ	-9.93842
ອຍ	-9.93856
▁ປ່ຽງ	-9.93883
cks	-9.93886
▁Hand	-9.939
▁ຈຸ	-9.93916
for	-9.94042
fer	-9.94077
ການກໍ່ສ້າງ	-9.94083
ລາຍ	-9.94105
ju	-9.94131
▁ກຸ່ມ	-9.94223
▁Et	-9.94228
▁ຕອນ	-9.94252
PR	-9.94336
ຕາເວັນອອກ	-9.94357
▁ben	-9.9436
▁61	-9.94362
▁Comments	-9.94368
▁County	-9.94368
▁Tagged	-9.94369
▁screw	-9.94372
▁ຫນ້າຈໍ	-9.9442
ຮຽນຮູ້	-9.94452
ຂົນ	-9.94456
▁Lead	-9.94471
▁Cutter	-9.94472
▁ຂ່າວສານ	-9.94523
ການຕິດຕັ້ງ	-9.94564
ຖອນ	-9.94597
▁Die	-9.94643
pad	-9.94651
▁ສຸກ	-9.94664
ເຊົ່າ	-9.94747
9.00	-9.94766
eak	-9.94798
ສາມາດໄດ້ຮັບການ	-9.94802
▁ສະຖານີ	-9.94817
▁ໃນເວລາທີ່	-9.94821
ທະນາຄານ	-9.94862
ທີ່ນີ້	-9.94869
ນິ	-9.94934
▁49	-9.94936
ຮູ້ສຶກ	-9.94942
ບໍລິຫານ	-9.94951
▁crypto	-9.95014
ທີ່ມີຄວາມ	-9.9503
ທ່ານສາມາດ	-9.95135
ຂອງຂ້ອຍ	-9.95192
▁Ja	-9.95206
▁ມັນແມ່ນ	-9.95307
press	-9.95351
ສະດວກ	-9.95357
▁Limited	-9.95358
▁Premium	-9.95358
▁phantom	-9.95358
ແລ	-9.9536
▁Cloth	-9.95362
ເລີ່ມ	-9.9537
ization	-9.95379
pet	-9.95393
▁Blackboard	-9.95396
ຕັ້ງແຕ່	-9.95432
▁cnc	-9.95442
ເກີດຂຶ້ນ	-9.95483
▁26,	-9.95499
▁all	-9.9551
▁160	-9.95556
▁ມິ	-9.95577
▁3.5	-9.95618
ດິດ	-9.9569
▁ເຊົ່າ	-9.95712
▁Ju	-9.95771
ຕ້ານການ	-9.95784
ຟລີ	-9.95987
ບົດຄວາມ	-9.95992
▁ID	-9.96027
rit	-9.9605
▁ສິ່ງທີ່	-9.9607
chat	-9.96095
play	-9.96143
▁ໂຣກ	-9.96146
▁ເຄື່ອງນຸ່ງຫົ່ມ	-9.96148
▁ໄລຍະ	-9.96192
ກະດູກ	-9.96324
▁ພຶດ	-9.96353
▁Jizerou	-9.96358
ກໍາແພງ	-9.96358
ທອງແດງ	-9.96359
▁Island	-9.9636
▁marketing	-9.96363
▁ເດດ	-9.96365
ໃຫ້ທ່ານ	-9.96409
ໃນເວລາທີ່	-9.9641
ການແກ້ໄຂ	-9.96416
-21	-9.96457
▁ພາຍ	-9.96477
word	-9.96495
▁API	-9.96504
▁UN	-9.96509
▁ຕ້ານ	-9.96745
ku	-9.96772
uz	-9.96783
ດໍາເນີນ	-9.96784
ການສະແດງ	-9.96792
▁ຄຸນນະສົມບັດ	-9.96811
▁ປ້ອງກັນ	-9.96866
ology	-9.96886
ໃບອະນຸຍາດ	-9.97007
ສີຂຽວ	-9.97011
136	-9.97017
ປູ	-9.97029
ເວັບໄຊ	-9.97044
▁Rd	-9.97076
ram	-9.97134
ຫຼ	-9.9721
▁ບັນຫາ	-9.97267
ຂອງພວກເຮົາແມ່ນ	-9.97296
ຫຼາຍທີ່ສຸດ	-9.9732
oom	-9.97333
▁ຊິ້ນ	-9.97334
NE	-9.97346
cha	-9.97361
▁Misslamode	-9.97368
▁Vintage	-9.97368
▁Jiangsu	-9.97369
▁Vinyl	-9.97369
▁Burner	-9.97369
pm	-9.97369
ສາມາດເຂົ້າເຖິງ	-9.97369
▁James	-9.9737
▁Eyelash	-9.9737
▁ຫຼວດ	-9.97374
ທີ່ດີເລີດ	-9.97375
ແຮ່	-9.9738
▁Roger	-9.97407
▁Paper	-9.97414
▁ການທົດສອບ	-9.9743
ica	-9.97477
ທຸກໆ	-9.97514
▁Machinery	-9.97527
ຕໍາ	-9.97548
yo	-9.97742
bon	-9.97783
row	-9.97785
▁ເລີ່ມ	-9.97813
ຄຸນນະພາບສູງ	-9.97842
ບັນລຸ	-9.97979
ຄວາມຮູ້	-9.97982
ໂຄສະນາ	-9.98017
ຈິງ	-9.9806
5.0	-9.98094
▁my	-9.98153
▁RM	-9.98153
▁ເຂົ້າຮ່ວມ	-9.98203
▁ແກນ	-9.98236
HO	-9.98243
4.5	-9.98265
▁ລະຫັດຜ່ານ	-9.98304
ເຮືອ	-9.98328
с	-9.98384
ປັດ	-9.98388
ທີ່ຍິ່ງໃຫຍ່	-9.98389
ຮ້າຍ	-9.98389
▁Oxford	-9.98389
▁Cauda	-9.98391
▁Dusting	-9.98405
ລຸ່ມ	-9.98454
▁Silicone	-9.98463
MB	-9.98538
ທີ່ເຫມາະສົມ	-9.98555
ນັ່ງ	-9.98632
▁back	-9.98713
▁Tablet	-9.98728
▁180	-9.98752
-17	-9.98803
ender	-9.98956
eu	-9.98961
▁ຂາຍສົ່ງ	-9.98972
▁Sticker	-9.98999
▁USA	-9.99056
ແປງ	-9.99093
▁transposh	-9.99101
ຝຣັ່ງ	-9.99105
▁ເຊື່ອມ	-9.99109
berg	-9.99146
ໍາ	-9.99146
rad	-9.99146
tar	-9.99199
▁CH	-9.99222
UM	-9.99291
▁sc	-9.99308
ສໍາເລັດ	-9.99313
ຂ້າງ	-9.99329
ຄຸນະພາບ	-9.99417
ປະສົມປະສານ	-9.99419
ຮຸ້ນ	-9.99419
ທີ່ໃຫຍ່ທີ່ສຸດ	-9.9942
▁Length	-9.9942
ຢຸດ	-9.99439
ສູ່	-9.99444
▁CF	-9.99467
Fi	-9.99475
ຊ້າ	-9.99483
▁tattootattoo	-9.99486
ຮ່ວມກັນ	-9.99498
link	-9.99531
▁Edge	-9.99554
ທໍ	-9.99564
▁Bike	-9.99578
▁Rock	-9.99596
▁ສະເຫນີ	-9.99699
▁ຈີນຜູ້ຜະລິດ	-9.99732
▁Block	-9.99758
ີ່	-9.99759
▁Color	-9.9979
▁ໃບອະນຸຍາດ	-9.99803
▁(35	-9.99815
▁Rod	-9.99822
lash	-9.99887
HZ	-9.99894
pan	-9.99927
▁ຄັ້ງທີ	-10.0002
ບໍ່ສາມາດ	-10.0004
II	-10.001
່ມ	-10.0013
ຫນຶ່ງໃນ	-10.0018
eck	-10.0026
gsm	-10.0032
ຫນ່ວຍ	-10.0039
jiang	-10.0044
▁ພື້ນ	-10.0044
น	-10.0046
▁Application	-10.0046
▁Apk	-10.0046
▁Facebook	-10.0047
▁Poker	-10.0047
▁ABS	-10.0047
▁(0)	-10.005
▁IC	-10.0054
▁Watch	-10.0055
▁Promo	-10.0056
ແຊ	-10.0058
SO	-10.0059
UL	-10.0062
▁ຫຼັງຈາກນັ້ນ	-10.0065
▁46	-10.0066
▁PET	-10.0069
ella	-10.0071
ຫນຶ່ງຂອງ	-10.0071
▁ເຫມາະ	-10.0072
▁ການຢັ້ງຢືນ	-10.0073
lat	-10.0074
▁ເສື້ອຜ້າ	-10.0074
▁eagle	-10.0077
ONE	-10.0078
ບໍ່ແມ່ນ	-10.0079
▁Comp	-10.0081
if	-10.0082
ແຜນທີ່	-10.0083
▁Tra	-10.0084
▁ສະຫນອງ	-10.0086
ການຮັບຮອງ	-10.009
▁ລັກ	-10.0094
ພາກສ່ວນ	-10.0094
!!!	-10.0096
▁ຖ	-10.0101
▁ຄື	-10.0107
ຄັນ	-10.0113
ship	-10.0113
▁ບໍ່ແມ່ນ	-10.0115
ities	-10.0118
▁ອົງການຈັດຕັ້ງ	-10.012
▁ເອີຣົບ	-10.0127
ກະເປົ໋າ	-10.0134
ແຈ	-10.0136
▁ຂະຫຍາຍ	-10.0137
▁ມັນມີ	-10.0138
ໃນປະຈຸບັນ	-10.0141
gra	-10.0143
ຕອນ	-10.0148
▁ຝາ	-10.015
▁Pattaya	-10.0151
▁Venturi	-10.0151
▁pvc	-10.0151
▁valve	-10.0152
ຫຼັກສູດ	-10.0152
▁Studio	-10.0152
▁ຖຸ	-10.0153
lim	-10.0153
ມຸມ	-10.0155
ພາຍນອກ	-10.0158
▁This	-10.0159
ith	-10.016
▁ປະທານ	-10.0162
▁Wood	-10.0162
lot	-10.0163
ິນ	-10.0168
ເຊື່ອ	-10.0178
105	-10.0188
ທາດ	-10.0195
FI	-10.0196
fit	-10.0197
▁Cake	-10.0199
fr	-10.0209
▁ສໍາຫລັບ	-10.0227
ກ່ອງ	-10.023
-80	-10.0231
ເນື້ອ	-10.0233
era	-10.0235
ສະບັບ	-10.024
▁ເຕັມ	-10.0241
ຊານ	-10.0246
▁Φ	-10.0251
ການຮ່ວມມື	-10.0256
ທີມງານ	-10.0256
ເຊິ່ງ	-10.0256
ອິ	-10.0256
▁virtual	-10.0258
▁Excel	-10.0258
▁Unlimited	-10.0258
▁ພິວ	-10.0259
ປ່າໄມ້	-10.0259
▁ການຄ້າ	-10.0261
▁new	-10.0261
▁Coffee	-10.0262
ola	-10.0264
▁ກູ	-10.0268
ປະຈຸບັນ	-10.0268
BT	-10.027
101	-10.0272
ala	-10.0281
ກ່າວວ່າ	-10.0293
ທ່ອງທ່ຽວ	-10.0298
0.8	-10.0301
ຊ່ວຍໃຫ້	-10.0305
USD	-10.031
ຄວາມຕ້ອງການ	-10.0313
eep	-10.0322
ini	-10.0326
▁du	-10.0328
ຂອງມະນຸດ	-10.0333
່ອນ	-10.0334
ries	-10.0337
▁ເຄື່ອງປ້ອນ	-10.0345
ໂດຍບໍ່ມີການ	-10.035
▁Laos	-10.036
▁ການຕິດຕັ້ງ	-10.0361
▁ຄ່າໃຊ້ຈ່າຍທັງ	-10.0363
▁29,	-10.0363
Pro	-10.0364
ປົກປັກຮັກສາ	-10.0365
▁Compressor	-10.0365
▁Hippie	-10.0365
▁Express	-10.0365
ສາມາດໃຊ້ໄດ້	-10.0367
ສໍາເລັດຮູບ	-10.037
ເລິກ	-10.0371
ຮອບ	-10.0371
-60	-10.0372
ເດີ	-10.0374
ester	-10.0374
▁made	-10.0375
▁ຄວາມກວ້າງ	-10.0375
▁ແຮງດັນ	-10.0378
ແປດ	-10.0379
own	-10.0381
▁ເງິນສົດ	-10.0386
HR	-10.039
ສັກຢາ	-10.0392
ຜູ້ນໍາ	-10.0392
ມະນຸດ	-10.0397
ຫານ	-10.0399
122	-10.0404
ມອບ	-10.041
ເທ	-10.0411
ສະອາດ	-10.0414
ຢູ່ທີ່	-10.0414
▁Back	-10.0414
▁ຂຶ້ນ	-10.0416
່ອງ	-10.0417
ຕ້ອງການທີ່ຈະ	-10.0426
▁Tester	-10.0427
▁າ	-10.0428
bot	-10.0428
adi	-10.0429
TI	-10.0434
▁ລັກສະນະ	-10.0437
ves	-10.0438
▁ງາມ	-10.044
DI	-10.0445
ati	-10.0448
ທີ່ສາມາດ	-10.0463
▁GP	-10.0467
ການຫຸ້ມຫໍ່	-10.0468
т	-10.0474
ກວມເອົາ	-10.0474
▁Countdown	-10.0474
▁Ubuntu	-10.0474
ສະມາຄົມ	-10.0474
▁ໃດ	-10.0474
ຫມັ້ນ	-10.0475
▁block	-10.0475
▁ລາຍຊື່ອີເມວ	-10.0475
▁Tower	-10.0476
▁blog	-10.0478
▁ການຂົນສົ່ງ	-10.048
ຕ່າງ	-10.0481
rch	-10.0481
/2018	-10.0485
mu	-10.0486
▁River	-10.0487
▁Rai	-10.0489
ປ່າ	-10.049
▁Dj	-10.0493
SP	-10.0508
▁bag	-10.0512
ກ້ອນ	-10.0513
info	-10.0522
▁ກໍານົດ	-10.0522
▁ທະນາຄານ	-10.0529
▁ນິດ	-10.0543
▁Electrostatic	-10.0546
ຂອງໂລກ	-10.0546
▁ແສງສະຫວ່າງ	-10.0551
▁DX	-10.0558
▁PL	-10.0558
▁ກ້ອງ	-10.0559
ado	-10.0565
ຫວ່າງ	-10.0583
ພົວພັນ	-10.0583
ไทย	-10.0584
▁Pocket	-10.0584
▁Image	-10.0584
▁ແຫຼ່ງຂໍ້ມູນ	-10.0584
ຫລໍ່	-10.0584
▁Ninjago	-10.0585
▁Program	-10.0586
ໂບ	-10.0587
ank	-10.0587
ຂອບເຂດ	-10.0591
hine	-10.0592
002	-10.0593
▁Over	-10.06
▁UL	-10.0601
ເລື່ອນ	-10.0604
ອົງປະກອບ	-10.0604
ຄໍາຮ້ອງສະຫມັກ	-10.0604
aker	-10.0607
pu	-10.0608
▁cheats	-10.061
oke	-10.061
ສິບ	-10.0613
▁47	-10.0614
ື່ອ	-10.0615
ech	-10.0618
ທໍາ	-10.062
▁Chon	-10.0627
zo	-10.0634
▁ປອກເປືອກ	-10.0638
▁ຜົນໄດ້ຮັບ	-10.0643
▁ໍ	-10.0644
▁ຄ້າ	-10.0647
▁ປະສິດທິພາບ	-10.0647
▁Mai	-10.0654
▁ສ້າງຕັ້ງຂຶ້ນ	-10.0656
▁over	-10.0658
ple	-10.0681
="1.	-10.0687
ຄົງ	-10.0688
▁Engine	-10.0695
ສຸມໃສ່	-10.0695
ທຽນ	-10.0695
▁Precipitator	-10.0695
▁ງວນລິຂະສິດ	-10.0695
▁Fridge	-10.0695
ເຊື້ອຊາດ	-10.0696
ເສຍຊີວິດ	-10.0697
▁ອອນ	-10.0697
ເລເຊີ	-10.0698
▁She	-10.0698
▁ຫນົນ	-10.07
▁Cu	-10.0702
ໄຂ່	-10.0704
▁Bio	-10.0705
ທອງ	-10.0706
ເຊື່ອມ	-10.0708
▁Machines	-10.0711
ຫົວໃຈ	-10.0715
ຕ້ານ	-10.0715
ຄໍາຖາມ	-10.0724
▁ການຕະຫຼາດ	-10.0727
ແຂວງ	-10.0728
▁ສະນັ້ນ	-10.0728
ນາຍ	-10.0732
ຄຸ້ມຄອງ	-10.0733
ພື້ນຜິວ	-10.0735
▁Molding	-10.0736
▁web	-10.0737
ການເງິນ	-10.0737
ita	-10.0738
ອຸປະກອນການ	-10.0745
▁Day	-10.0745
TY	-10.0747
ໂພ	-10.0749
ຊົນ	-10.075
▁ໂນ	-10.0751
mq	-10.0755
▁ການຄຸ້ມຄອງ	-10.076
▁Corn	-10.0762
▁ມະຫາຊົນ	-10.0765
▁Gate	-10.0766
▁ໂຍ	-10.0767
▁230	-10.077
▁ທໍາມະດາ	-10.078
ການສົນທະນາ	-10.0786
ຕຽງ	-10.0789
▁ພືດ	-10.079
1.6	-10.0797
1.3	-10.0798
້ມ	-10.0799
proof	-10.08
▁ທົບ	-10.0807
Atlanta	-10.0807
ຂັບເຄື່ອນ	-10.0807
ພິຈາລະນາ	-10.0807
▁Gurgaon	-10.0807
▁rotary	-10.0807
▁collector	-10.0807
▁FSX	-10.0808
▁FAQ	-10.0808
ວາລະສານ	-10.0808
ພັດລົມ	-10.0808
▁Cross	-10.0808
▁ໃນປັດຈຸບັນ	-10.0809
▁THB	-10.0809
ເສີມ	-10.081
ພົບ	-10.0811
ຜູ້ອໍານວຍການ	-10.0812
▁Bearing	-10.0813
ເຊື່ອມຕໍ່	-10.0814
len	-10.0816
▁Data	-10.0822
▁Hotel	-10.0822
▁Inter	-10.0823
kin	-10.0825
ຜູ້ທີ່	-10.0825
▁ເວົ້າວ່າ	-10.0826
▁Maxi	-10.0833
ໃບຢັ້ງຢືນ	-10.0837
ການກວດສອບ	-10.0841
▁ເຮັດວຽກ	-10.0842
ປົກ	-10.0847
ກົມ	-10.0853
right	-10.0853
ions	-10.0854
ການເຂົ້າເຖິງ	-10.0863
shop	-10.0863
ບ່ອນ	-10.0865
▁Stick	-10.0866
▁ການບັນຈຸ	-10.0872
ຖືກຕ້ອງ	-10.0873
tian	-10.0875
▁Roll	-10.0878
▁ອັບເດດຫຼ້າສຸດ	-10.0881
UV	-10.0893
TP	-10.0895
anc	-10.0896
▁ໂກ	-10.09
▁ຄ່າໃຊ້ຈ່າຍ	-10.0912
▁May	-10.0917
2.0	-10.0917
▁86	-10.0918
-300	-10.092
▁IT	-10.0921
MEDIA	-10.0921
▁ໄພ	-10.0921
▁Open	-10.0921
▁WMC	-10.0922
ONG	-10.0922
▁LCD	-10.0922
IO	-10.0924
ສູນກາງ	-10.0925
▁Acid	-10.0927
▁poly	-10.093
aft	-10.0931
ທຽມ	-10.0938
▁ຝ້າຍ	-10.0944
ຫ້ອງຮຽນ	-10.0947
▁Clash	-10.0948
JS	-10.0951
ສັ່ງ	-10.0954
▁Mountains	-10.0955
km	-10.0956
▁Hard	-10.0963
ຜູ້ຊ່ຽວຊານ	-10.0964
ເກີບ	-10.097
▁ຄຸນນະພາບ	-10.0975
▁Bill	-10.0977
▁Player	-10.098
▁Bit	-10.0981
▁Log	-10.0982
▁Moto	-10.0984
ຄ້າ	-10.0985
▁ຄວາມຮ້ອນ	-10.0991
ama	-10.0991
▁Pol	-10.0992
▁mi	-10.0997
ຊ່ອງ	-10.1003
▁ເລື່ອງ	-10.1018
▁Jul	-10.102
zip	-10.1022
▁sl	-10.1023
ious	-10.1025
ຕົວເມືອງ	-10.1025
▁ຍິງ	-10.1028
count	-10.1029
home	-10.103
ທົນທານ	-10.103
ຄົວ	-10.1031
▁win	-10.1032
ເລືອດ	-10.1036
໊	-10.1036
▁Garbowicz	-10.1036
▁Cloud	-10.1036
▁Electromagnetic	-10.1036
▁ຫງວນລິຂະສິດ	-10.1036
▁Chemical	-10.1036
▁ສົນ	-10.1038
ຈັດອັນດັບ	-10.1038
▁ເດືອນທັນວາ	-10.1039
▁NYE	-10.1039
ຊາວ	-10.104
ທີ່ມີຢູ່	-10.1044
▁has	-10.1045
▁Blasting	-10.1047
ແຜ່ນກະດານ	-10.1049
ພອນ	-10.105
▁ສູດ	-10.1054
▁FL	-10.1055
▁115	-10.1058
wo	-10.1058
▁comp	-10.1059
how	-10.1059
ຈະເປັນ	-10.107
ທີ່ບໍ່ມີ	-10.1073
▁Hai	-10.1086
night	-10.1087
ເວັບ	-10.1089
Manufacturer	-10.109
down	-10.1093
ຮາ	-10.1096
▁BK	-10.1096
▁ຍົກ	-10.1098
VI	-10.1102
ໄປຫາ	-10.1102
ຖ້າ	-10.1105
▁ທ່ຽວ	-10.1108
▁ລົດໄຟ	-10.1113
▁ga	-10.1116
▁Fast	-10.1131
▁Cable	-10.1132
▁Piece	-10.1149
▁Magnet	-10.1149
▁Metatrader	-10.1152
ຈົດທະບຽນ	-10.1152
▁Plant	-10.1154
▁Connector	-10.1155
ບ່ອນນັ່ງ	-10.1157
lb	-10.1161
ຼ	-10.1162
▁our	-10.1164
ທີ່ສວຍງາມ	-10.1164
ສັນຍານ	-10.1166
ມົນ	-10.117
▁ຂຸດຄົ້ນບໍ່ແຮ່	-10.1173
▁Sign	-10.1174
▁px	-10.1174
ບັນ	-10.1176
▁String	-10.1184
▁Rome	-10.1187
ຣິ	-10.1187
feng	-10.1192
▁ແຂນ	-10.1194
▁0.2	-10.1195
ເດີນທາງ	-10.1196
▁57	-10.1199
ຝຶກອົບຮົມ	-10.1208
ຊອງ	-10.1209
ບັນດາ	-10.1211
andy	-10.1212
ເຫມາະສົມ	-10.1217
ການປ້ອງກັນ	-10.1219
ຖະ	-10.122
ສະຖານີ	-10.122
ເມັດ	-10.1221
▁Run	-10.1221
ຕັ້ງຢູ່	-10.1222
▁650	-10.1227
cheng	-10.123
ຫ້ອງນ້ໍາ	-10.1231
▁Tour	-10.1238
ໂດຍທົ່ວໄປ	-10.1241
▁ປະສົບການ	-10.1251
ການແກ້ໄຂໃນ	-10.1253
mic	-10.1259
ຕາເວັນຕົກ	-10.1263
▁ໂມເລກຸນ	-10.1263
LO	-10.1264
ປະທັບຕາ	-10.127
ມ່ວນ	-10.127
▁Relief	-10.127
ແບບຟອມ	-10.127
▁Neo	-10.127
ໃກ້	-10.127
▁ສະຫະລັດອາເມລິກາ	-10.1271
▁Arm	-10.1275
▁more	-10.1282
▁Adder	-10.1282
▁Oct	-10.1287
▁ຂ້າງ	-10.1291
▁ໃນມື້ນີ້	-10.1301
ການດູແລ	-10.1303
▁work	-10.1312
▁900	-10.1316
ero	-10.1326
້ອງ	-10.1331
▁Electric	-10.1331
▁ຫມູ່	-10.1332
003	-10.1334
▁Sol	-10.1335
▁ຄອບຄົວ	-10.1336
180	-10.1337
ເອເລັກໂຕຣນິກ	-10.134
ເຈາະ	-10.1341
IB	-10.1342
izer	-10.1343
ຊົມ	-10.1346
ຍັງມີ	-10.1347
▁ເດັກ	-10.1347
oll	-10.1348
▁Part	-10.1349
▁240	-10.1351
ທີ່ສົມບູນແບບ	-10.1354
AND	-10.1354
ວິຊາການ	-10.1355
▁ເທກໂນໂລຍີ	-10.1373
▁Unthank	-10.1373
time	-10.1374
ວະ	-10.1375
▁service	-10.1381
▁ຈັກ	-10.1386
pot	-10.1387
▁Material	-10.1389
▁Phuket	-10.1389
▁万象资本	-10.1389
▁电话	-10.1389
clubs	-10.1389
ການາດາ	-10.1389
▁ສູດໂມເລກຸນ	-10.1389
company	-10.1389
Outs	-10.139
▁Final	-10.1391
ເກັບກໍາ	-10.1391
▁ບົດຄວາມຕໍ່ໄປ	-10.1391
ໂຟມ	-10.1392
ພັດ	-10.1392
ເຫລືອ	-10.1392
▁ເດືອນພຶດສະພາ	-10.1393
ign	-10.1395
▁Discharger	-10.1397
▁PHP	-10.1398
▁Range	-10.1399
▁Trans	-10.14
ເລກ	-10.14
▁Gun	-10.14
▁Fi	-10.14
▁ທີມ	-10.1404
▁ອະໄຫລ່	-10.1415
ike	-10.1417
PL	-10.1417
pack	-10.1423
▁mobile	-10.1428
▁ຊື່ຂອງທ່ານ	-10.1434
▁sub	-10.1437
ຫມາກ	-10.1437
ເລັບ	-10.1439
-08	-10.1439
ໄຟຟ້າລາວ	-10.1441
ຈັດການ	-10.1452
ການທ່ອງທ່ຽວ	-10.1457
ຄາ	-10.146
ຊອບແວ	-10.146
ປ່ອຍ	-10.1462
ເຟ	-10.147
ແກ້ໄຂ	-10.147
▁ສັງຄົມ	-10.1472
▁ຮູ້	-10.1474
▁ຈໍ	-10.1476
itch	-10.1476
ວົງຈອນ	-10.1484
▁ຕິດຕໍ່ພວກເຮົາ	-10.1504
▁ຂໍຂອບໃຈ	-10.1506
ປ່ອງຢ້ຽມ	-10.1509
ຟຟລ	-10.1509
▁ທຶກ	-10.1509
ສະເຫມີ	-10.1509
▁ດາວໂຫຼດຟຣີ	-10.151
▁Manager	-10.151
ຈະບໍ່	-10.151
ການບໍລິຫານ	-10.151
ແຮ່ທາດ	-10.1511
ການເລີ່ມຕົ້ນ	-10.1512
▁ຄວາມຖີ່	-10.1513
▁10000	-10.1515
▁pa	-10.1523
ເສື້ອ	-10.1523
▁ຖ້າທ່ານ	-10.1523
▁Jack	-10.1525
▁ຖ້າຫາກວ່າ	-10.1527
ເອດ	-10.1533
IE	-10.1535
ປື້ມ	-10.1536
oh	-10.1544
▁ພິເສດ	-10.1545
ຊັງ	-10.1548
▁750	-10.1549
▁ທ່ານຈະ	-10.155
ຢ່າງກວ້າງຂວາງ	-10.1554
xml	-10.1554
▁ວາງ	-10.1554
▁ພູເຂົາ	-10.1555
▁ຟລີ	-10.1558
▁Unit	-10.1567
ສັງ	-10.157
▁Qi	-10.1573
▁ຖ້າຫາກວ່າທ່ານ	-10.1573
FL	-10.1579
ເປັນຜູ້	-10.1583
ctor	-10.1595
oil	-10.1598
ແນ່ນອນ	-10.1598
▁Media	-10.1599
Shirt	-10.1599
ຈີ	-10.1601
ຕູ້	-10.1602
▁Linen	-10.1602
▁Te	-10.1615
▁0.1	-10.1616
itter	-10.162
ປຽບທຽບ	-10.162
ມຸງ	-10.1621
ອຸດສາຫະ	-10.1631
ເຕືອນ	-10.1631
ç	-10.1631
▁Extrusion	-10.1631
▁acrylic	-10.1631
▁Knitting	-10.1631
▁Sensor	-10.1631
▁mavic	-10.1631
▁Turkey	-10.1631
▁SKU	-10.1632
ຜິດ	-10.1633
▁ນອນ	-10.1633
ກອງທຶນ	-10.1634
ໃນປະເທດຈີນ	-10.1635
▁Water	-10.1635
For	-10.1635
ette	-10.1637
water	-10.1639
▁ລະບົບຕ່ອງໂສ້	-10.164
love	-10.1642
▁Union	-10.1643
other	-10.1647
▁Dresses	-10.1652
▁Show	-10.1657
2.8	-10.1666
▁FX	-10.1669
ການສະ	-10.1669
▁ຖະ	-10.168
hot	-10.1686
PP	-10.171
ອັດຕາ	-10.1711
▁Che	-10.1713
ຕົ້ນສະບັບ	-10.1714
PO	-10.1714
rew	-10.1725
▁End	-10.1731
ນັກສຶກສາ	-10.1731
ການຈັດສົ່ງ	-10.1732
ສະພາບ	-10.1732
▁ສີເຫຼືອງ	-10.1734
use	-10.1734
▁1.2	-10.1741
OP	-10.1744
▁one	-10.1744
ຂ້າມ	-10.1746
▁78	-10.1748
▁Col	-10.1751
cul	-10.1752
pic	-10.1753
ຊຽງໄຮ	-10.1755
▁roulette	-10.1755
ສຸກເສີນ	-10.1755
▁ສະບາຍດີ	-10.1755
ຫາດຊາຍ	-10.1755
▁ການເດີນທາງລົດໄຟ	-10.1757
▁Load	-10.1762
▁Visa	-10.1763
ທົນ	-10.1765
▁ລົດຈັກ	-10.1765
ນໍາພາ	-10.1766
▁ເຕົາ	-10.177
▁Cement	-10.1771
iti	-10.1772
▁ການພິມ	-10.1772
ພຣະເຈົ້າ	-10.1776
ວັນສຸກ	-10.1777
ການຢັ້ງຢືນ	-10.1783
nate	-10.179
bb	-10.1791
▁ຂາວ	-10.1791
Site	-10.1794
▁ການແຂ່ງຂັນ	-10.1796
rail	-10.1797
ແມ່ນມີ	-10.1798
sia	-10.1801
ທາງລົດໄຟ	-10.1803
▁ການສະກົດຈິດ	-10.1811
▁ກົນ	-10.1813
▁ອັງກິດ	-10.1817
ຊ່ຽວຊານ	-10.1818
ttle	-10.1819
PM	-10.1823
▁Tech	-10.1827
ຮອງຮັບ	-10.1828
▁Po	-10.1833
ແຜນການ	-10.1834
▁Wind	-10.1834
ection	-10.1844
wall	-10.1845
get	-10.1845
▁cam	-10.1848
▁ຫມໍ້ໄຟ	-10.1856
ENT	-10.1856
ຄໍາແນະນໍາ	-10.1857
ິກ	-10.1859
ປະລິມານ	-10.1864
ສະບັບເລກທີ	-10.1864
ili	-10.1864
ເພັດ	-10.1865
▁ກໍາລັງ	-10.1865
▁rn	-10.1866
ໃນທົ່ວໂລກ	-10.1866
▁ເຂັມ	-10.187
▁Sl	-10.1871
rom	-10.1871
ການຂະຫຍາຍຕົວ	-10.1875
▁ມຸມ	-10.1876
ຊັ່ນ	-10.1877
ແຫວນ	-10.1877
olmbygden	-10.188
▁Institute	-10.188
▁cosmos	-10.188
ເກາະ	-10.188
▁KTM	-10.188
▁EVA	-10.188
▁Tai	-10.1881
▁ເດືອນກຸມພາ	-10.1882
ເວົ້າວ່າ	-10.1887
ສິ້ນສຸດ	-10.1887
ໂດຍຜ່ານ	-10.1888
ແກ່ນ	-10.189
iver	-10.189
▁89.00	-10.1891
▁ສໍາເລັດ	-10.1893
▁ໃສ່	-10.1894
cation	-10.1897
ຕົວເລກ	-10.1897
▁Liam	-10.19
huang	-10.1902
▁ເພັດ	-10.1903
ບໍລິ	-10.1912
ແທ	-10.1912
▁ຣ	-10.1916
▁Tian	-10.1917
ເກີນ	-10.1935
160	-10.1936
ໂທຫາ	-10.1936
ຮູ້ຈັກ	-10.1937
▁ໃຕ້	-10.1938
Exp	-10.1943
ຈະໄດ້ຮັບການ	-10.1947
▁76	-10.1949
ker	-10.1949
▁ການອ່ານ	-10.1952
-13	-10.1958
ຕາຍ	-10.1973
▁Eva	-10.1977
stone	-10.1983
ool	-10.1983
ສັກ	-10.1985
ຣີ	-10.1993
ຮັບຮູ້	-10.1995
ຫໍ	-10.1996
▁ວິທະຍາໄລຂອງ	-10.1997
ເປົ້າຫມາຍ	-10.1998
ລັດເຊຍ	-10.1998
ພາກຮຽນ	-10.2
▁ຊ່ວຍ	-10.2004
ພົມ	-10.2006
ລົບ	-10.2006
ທີ່ທັນສະໄຫມ	-10.2006
ໂປ່ງໃສ	-10.2006
ສໍານັກງານ	-10.2006
ອາຊິດ	-10.2006
▁ຜູ້ທີ່	-10.2007
▁Point	-10.2007
▁ທວນ	-10.2008
▁DIN	-10.2012
ເນຍ	-10.2013
ລະອຽດ	-10.2013
▁ລັດເຊຍ	-10.2014
ດັນ	-10.2015
rum	-10.202
▁Sep	-10.2022
▁ກໍ່	-10.2024
ການປັບປຸງ	-10.2025
omb	-10.2027
▁ພະແນກ	-10.2028
ເງິນອອນໄລນ໌	-10.2029
▁(25	-10.2033
ອາດ	-10.2036
▁Sub	-10.204
▁Aria	-10.2046
ສົນໃຈ	-10.2048
ບໍ່ມີເງິນຝາກ	-10.2048
▁RSS	-10.2051
225	-10.2054
ique	-10.2055
ຄາດ	-10.2061
EST	-10.2062
ສື	-10.2062
▁2006	-10.2065
matic	-10.2072
ທັນ	-10.2076
ອະ	-10.2077
▁ໂຄງສ້າງ	-10.2081
ຮູ	-10.2082
2016	-10.2086
ui	-10.2086
▁ປະຊາຊົນ	-10.2087
▁cre	-10.2095
0.5	-10.2098
▁TR	-10.2102
sky	-10.2102
▁Real	-10.2105
▁ກະຊວງ	-10.2107
▁ຄວາມຕ້ອງການ	-10.2107
ແຄ	-10.2108
ອຸ	-10.2109
ຄວາມຖືກຕ້ອງ	-10.2111
▁Spin	-10.2114
ດື່ມ	-10.2116
urat	-10.2117
▁2007	-10.2122
▁Ni	-10.2124
ໃຫ້ພວກເຮົາ	-10.2125
▁86-5	-10.2127
ແກ່	-10.2127
ສຶກສາ	-10.213
ເສົາ	-10.2131
ອະນາໄມ	-10.2135
ອໍານາດ	-10.2135
ເສັ້ນໄຍ	-10.2135
▁Odisha	-10.2135
▁iSpyoo	-10.2135
ສະນະແມ່ເຫຼັກ	-10.2135
▁Samui	-10.2135
▁Angle	-10.2135
▁Factory	-10.2135
▁DMF	-10.2135
▁Korat	-10.2135
▁option	-10.2136
▁Games	-10.2136
▁'',	-10.2137
dom	-10.2137
▁Guide	-10.2138
▁Optical	-10.2142
ເພດານ	-10.2142
ລາຄາຖືກ	-10.2144
▁matt	-10.2144
▁live	-10.2146
▁cake	-10.2146
vin	-10.2153
▁Cooler	-10.2158
ບັບ	-10.2158
ຕົວແທນ	-10.2162
ເນື້ອໃນ	-10.2162
br	-10.2163
Lao	-10.2168
▁4000	-10.2169
▁ພະຍາຍາມ	-10.2169
ທິ	-10.2169
ato	-10.2174
▁Fire	-10.2175
450	-10.2188
▁time	-10.219
▁700	-10.219
ຍ່າງ	-10.2197
▁Sea	-10.2197
ຫມາຍ	-10.2209
ັມ	-10.221
▁Rent	-10.2212
bol	-10.2212
▁Game	-10.2213
▁ເດືອນມິຖຸນາ	-10.2216
Re	-10.2217
ີນ	-10.2222
AI	-10.2228
▁II	-10.223
INE	-10.2231
▁ຖ່ານຫີນ	-10.2232
ປີ້	-10.2234
125	-10.2242
ຄວາມຮູ້ສຶກ	-10.2244
ປອມ	-10.2245
▁ນອກ	-10.2246
▁air	-10.2248
▁ລີ	-10.2252
side	-10.2252
tive	-10.2256
ຈ້າງ	-10.2258
ການຈັດການ	-10.2261
ຍ້າຍ	-10.2263
ທີ່ໄດ້ຮັບ	-10.2264
ວຽດນາມ	-10.2264
ຊັບພະຍາກອນ	-10.2264
ສະເລ່ຍ	-10.2264
ເຟີນິເຈີ	-10.2264
▁Acrylic	-10.2264
▁ກົກ	-10.2264
ກະດາດ	-10.2264
▁Pathom	-10.2264
▁Sludge	-10.2264
▁Krabi	-10.2264
ວຽງຈັນ	-10.2264
▁ASTM	-10.2265
ອຸດົມສົມບູນ	-10.2265
▁Rayong	-10.2266
▁ດັບ	-10.2268
ever	-10.2268
ທ້ອງ	-10.227
▁Virus	-10.227
ເຫດຜົນ	-10.2271
ໄທ	-10.2273
ເຂັມ	-10.2274
໌	-10.2276
▁JW	-10.2276
ກອບ	-10.2278
▁ສຸຂະພາບ	-10.2283
ອໍາ	-10.2284
train	-10.229
ທີ່ຖືກຕ້ອງ	-10.2297
▁Forum	-10.23
ການລົງທຶນ	-10.2301
▁ໂຄງ	-10.2302
EE	-10.2304
▁tri	-10.2305
▁ໄລຍະເວລາ	-10.2306
▁inter	-10.2315
ໂລຫະປະສົມ	-10.2317
ສ່ວນຕົວ	-10.2319
▁pen	-10.2323
cial	-10.233
ປະຕິບັດການ	-10.2335
▁etc	-10.2345
ເຂົ້າໃຈ	-10.2348
▁ບິນ	-10.2351
▁ກ່າວ	-10.2359
▁Stan	-10.2368
ຮັບຮອງ	-10.2368
▁ຕົວແທນ	-10.2369
▁ຮອງ	-10.237
▁ແຂ້ວ	-10.2373
ສິດທິ	-10.2393
ປະຫຍັດ	-10.2395
ແຖບ	-10.2396
▁Enterprise	-10.2396
▁ເອດພີ	-10.2396
ນວນເງິນຂອງບັນທຶກ	-10.2396
▁(2015)	-10.2396
▁Shopping	-10.2396
▁Hui	-10.2397
ສິດທິບັດ	-10.2397
▁Quick	-10.24
▁ທີມງານ	-10.24
ໃດໆ	-10.2401
ເຮືອນຄົວ	-10.2402
▁ຜູ້ຂຽນ	-10.2405
ຊະ	-10.2411
ອີງຕາມ	-10.2412
▁ປະຕິບັດ	-10.2415
,000,000	-10.2417
140	-10.2423
ami	-10.2425
ສີຟ້າ	-10.2431
▁ການປິ່ນປົວ	-10.2432
▁ຂາ	-10.2439
▁ປະຕິທິນ	-10.2442
ແຜ່ນໂລຫະ	-10.2444
-2019	-10.2453
tag	-10.2454
▁ຂະບວນການ	-10.2455
319	-10.2465
ville	-10.2467
ifi	-10.2472
▁Yan	-10.2474
▁ກົມ	-10.2476
ອຸນຫະພູມສູງ	-10.2477
▁ເດືອນກໍລະກົດ	-10.2479
▁ພ້ອມ	-10.2484
bug	-10.2486
▁SE	-10.2489
້ວ	-10.2493
IU	-10.25
ຄວາມງາມ	-10.251
DN	-10.2518
ເຫນືອ	-10.2526
▁ອີເມລ	-10.2529
HG	-10.2529
ກົນໄກ	-10.2529
▁Desktop	-10.2529
▁Refinecolor	-10.2529
▁ຢ່າລືມກ່ຽວກັບ	-10.2529
ສິນລະປະ	-10.2529
▁Powder	-10.2529
▁KIDS	-10.2529
ເວບໄຊທ໌	-10.2529
▁Lampang	-10.253
ເຕັ້ນ	-10.253
ຫວັງ	-10.253
ບວກ	-10.2532
Pieces	-10.2534
▁AR	-10.2535
▁Paris	-10.2537
▁ທີ່ຢູ່ອີເມວ	-10.254
ລອຍ	-10.2542
ປ່ຽນແປງ	-10.2542
soft	-10.2545
ຫີນ	-10.2545
▁Royale	-10.2546
▁ລົງທະບຽນ	-10.2546
▁ໄດ້ຖືກ	-10.2549
▁Yai	-10.2554
ກະຊວງ	-10.2556
ລົດໃຫຍ່	-10.2557
▁ຊູແອັດ	-10.2558
ໂຣກ	-10.2559
ສີແດງ	-10.256
▁who	-10.2568
UB	-10.2569
▁DR	-10.257
118	-10.257
ນໍາສະເຫນີ	-10.2571
ຫາຍ	-10.2572
▁make	-10.2573
ຫຼຸດຜ່ອນ	-10.2574
ຄວາມຄິດ	-10.2575
ອາຊີບ	-10.2575
ການສໍາຫຼວດ	-10.2587
▁ເຮັດໃຫ້ມີແສງ	-10.259
▁ປັບແຕ່ງ	-10.2591
unt	-10.2599
ໃຫມ່ຂອງ	-10.26
ather	-10.2601
▁Note	-10.261
▁ພວກເຮົາໄດ້	-10.2611
ເອີຣົບ	-10.2617
ຍານ	-10.2618
▁Views	-10.2624
▁ສ່ວນປະກອບ	-10.2627
▁Pos	-10.2632
▁190	-10.2634
ຢາກ	-10.2638
▁Tel	-10.2639
-06	-10.264
ລະບຽບ	-10.2642
▁Non	-10.2646
020	-10.2654
235	-10.2662
ພື້ນ	-10.2664
ແຕກ	-10.2664
л	-10.2664
ວິສະວະກໍາ	-10.2664
ເຊືອກ	-10.2664
▁ເກມອອນ	-10.2664
▁Calendar	-10.2664
▁LogmeOnce	-10.2664
▁Thammarat	-10.2664
ເຜີຍແຜ່	-10.2665
▁Ultra	-10.2665
ຍານພາຫະນະ	-10.2665
▁Cookie	-10.2665
▁Snap	-10.2665
▁Network	-10.2665
▁Loei	-10.2666
▁also	-10.2667
ມີຄວາມສຸກ	-10.2669
ຍຸ	-10.2672
ຍືດຫຍຸ່ນ	-10.2675
▁+856	-10.2675
uo	-10.2679
ຈະມີ	-10.268
▁Buri	-10.268
▁WPC	-10.268
ເວີ	-10.2682
▁GMP	-10.2691
ແບ	-10.2692
50,000	-10.2693
▁ໃນຂະນະທີ່	-10.27
ຄຸນສົມບັດ	-10.2703
ມໍເຕີ	-10.2703
ເຟສບຸກ	-10.2703
ແບ່ງປັນ	-10.2703
▁ອົດສະຕາລີ	-10.2707
ສາວ	-10.271
▁Feb	-10.2718
▁27,	-10.2719
ສະແດງໃຫ້ເຫັນ	-10.2724
▁Ve	-10.2727
▁50%	-10.2734
▁Hall	-10.2736
▁ສະແດງໃຫ້ເຫັນ	-10.2743
▁ການເຄືອບ	-10.2743
▁Cent	-10.2748
ອົງການຈັດຕັ້ງ	-10.2754
amine	-10.2755
▁ຕ່ໍາ	-10.2758
▁Chip	-10.2765
ສາຂາ	-10.2767
ບົບໄຮໂດຼລິກ	-10.2767
▁ກາຕູນ	-10.2772
▁ແລະມັນ	-10.2776
rank	-10.2777
hong	-10.2789
ແກ້ໄຂບັນຫາ	-10.279
ode	-10.279
▁86-	-10.2791
▁ແຈ້ງ	-10.2797
ແຜນ	-10.2797
▁ບລັອກ	-10.2798
ອິຕາລີ	-10.2801
ລໍາດັບ	-10.2801
ໄວ້ໃນຕອນຕົ້ນ	-10.2801
▁Adapter	-10.2801
▁Diffuser	-10.2801
▁Nonthaburi	-10.2801
▁Ratchathani	-10.2801
▁Recovery	-10.2801
▁Textile	-10.2801
▁Ultimate	-10.2801
▁sonitattoo	-10.2801
ເອດເອດເອ	-10.2801
▁Sitemap	-10.2801
▁Soccer	-10.2801
▁pulse	-10.2801
เ	-10.2802
▁ແຟັກ	-10.2802
▁BCHT	-10.2802
ເດືອນມີນາ	-10.2802
▁TPU	-10.2802
▁ແມ່	-10.2802
▁ອົງສາ	-10.2802
ຊ່ວຍເຫຼືອ	-10.2803
ເປັນໄປໄດ້	-10.2805
▁plugin	-10.2807
▁LAO	-10.2807
ຮ່ອງ	-10.2808
ຊົງ	-10.2808
▁ບາຍ	-10.2809
ລັດຖະ	-10.2809
ມ້າ	-10.2812
▁ຟໍ	-10.2813
▁Xbox	-10.2814
▁0.6	-10.2815
▁Pri	-10.2816
PCS	-10.2816
▁Drop	-10.2819
▁Fair	-10.2826
▁#1	-10.2827
▁Link	-10.2829
▁Heng	-10.283
ຫມໍ້ໄຟ	-10.283
▁FOR	-10.2836
▁ແມ່ເຫຼັກ	-10.2846
ອັບເດດຫຼ້າສຸດ	-10.285
–	-10.2851
▁ອົງ	-10.2852
360	-10.2853
apk	-10.2857
ອະນຸຍາດໃຫ້	-10.2861
▁Mc	-10.2863
lao	-10.2868
▁ຟ	-10.2873
HT	-10.2873
▁ງ່າຍ	-10.2877
▁ມົນທົນຊານຕົງ	-10.2883
▁FN	-10.2884
110	-10.2886
hao	-10.2886
ັ້ນ	-10.2887
bank	-10.2889
ກ່ອງໄມ້	-10.2889
ມິ	-10.2891
RP	-10.2899
▁ພວກເຂົາເຈົ້າ	-10.29
▁ຮົ້ວ	-10.2903
▁ສີຟ້າ	-10.2909
▁Wars	-10.291
▁ແອ	-10.2911
▁94	-10.2916
▁1/2	-10.2918
856	-10.2918
ພື້ນທີ່ຂອງທ່ານ	-10.2919
ກວ້າງ	-10.292
▁XP	-10.2923
case	-10.2927
ກອນ	-10.2927
▁ຕົນເອງ	-10.2929
ມີຄວາມຍືດຫຍຸ່ນ	-10.293
kgs	-10.293
▁ໂລຫະປະສົມ	-10.2931
▁ໃນວັນທີ	-10.2931
ຊັນ	-10.294
ຕູ້ຄອນເທນເນີ	-10.294
ລອນດອນ	-10.294
ອັກສອນ	-10.294
ເຕັກໂນໂລຢີ	-10.294
▁1528113	-10.294
▁terminal	-10.294
▁ທີ່ຖືກອອກແບບໂດຍ	-10.294
▁Guitar	-10.294
▁Rubber	-10.294
ຢ່າງເປັນທາງການ	-10.294
▁Pixel	-10.294
▁German	-10.2941
▁Cotton	-10.2941
NIL	-10.2941
▁Microfiber	-10.2941
▁ເຊັ່ນດຽວກັນກັບ	-10.2941
▁Trang	-10.2942
ແປ້ງ	-10.2942
▁spark	-10.2943
ອັບໂຫລດ	-10.2943
▁3.2.	-10.2945
▁ເລືອກເມືອງ	-10.2946
article	-10.2946
▁Castle	-10.2946
▁vi	-10.2948
ມູນຄ່າ	-10.2948
▁Jacket	-10.2949
code	-10.295
ເນື່ອງຈາກ	-10.295
ຄັດ	-10.2952
yuan	-10.2953
ທີ່ຢູ່ອາໄສ	-10.2955
ຫມູ	-10.2956
▁ຫມໍ້	-10.2962
▁but	-10.2963
ກົດລະບຽບ	-10.2963
▁ຍາດ	-10.2964
ໃນໂລກ	-10.2965
hat	-10.2966
▁With	-10.2966
▁Kit	-10.2969
▁ພວກເຮົາແມ່ນ	-10.2969
tw	-10.297
▁Out	-10.2973
craft	-10.2974
▁ແສງຕາເວັນ	-10.2974
AU	-10.2979
ພູມ	-10.2983
SU	-10.2984
440	-10.2986
▁JPY	-10.2994
ອະລູມິນຽມ	-10.2999
1.0	-10.3001
rick	-10.3003
145	-10.3005
▁6000	-10.3009
ເຕ	-10.3009
illa	-10.3011
ຂອງລູກຄ້າ	-10.3019
2.1	-10.302
1.8	-10.3023
▁ມູນນິທິ	-10.3028
▁AMP	-10.3037
ແນ	-10.3042
ສອບຖາມ	-10.3044
-27	-10.3045
▁ຕາຫນ່າງ	-10.3053
▁high	-10.3056
▁Feed	-10.3057
1.1	-10.3067
urr	-10.3069
tti	-10.3069
ຫນ້າທໍາອິດ	-10.3071
▁ສິນຄ້າ	-10.3074
anda	-10.3074
pg	-10.3074
ລັອກ	-10.3076
ສູ້	-10.308
▁Ninja	-10.308
ร	-10.3081
ລະດູຫນາວ	-10.3081
ລຶບ	-10.3081
Pirater	-10.3081
▁Furnace	-10.3081
▁Gratuit	-10.3081
▁discuss	-10.3081
▁Vegas	-10.3081
▁Sliding	-10.3081
▁smart	-10.3081
ສັງເຄາະ	-10.3081
▁ເຄັດລັບ	-10.3082
ປະເມີນຜົນ	-10.3082
ສໍາເລັດຂອງ	-10.3083
▁Pilon	-10.3083
▁Village	-10.3083
▁PO	-10.3084
▁clamp	-10.3084
▁ຫ້ອງການ	-10.3084
ທີ່ກໍານົດໄວ້	-10.3085
color	-10.3086
ຂໍ້ມູນເພີ່ມເຕີມ	-10.3086
▁ຖົງການກັ່ນຕອງ	-10.3087
ກໍ່ຕັ້ງ	-10.3087
▁MO	-10.3088
▁ການລົງທຶນ	-10.3088
ການສອບເສັງ	-10.3089
8.00	-10.3089
turn	-10.309
▁ກວດສອບ	-10.3091
▁ການວິເຄາະ	-10.3092
▁youjian	-10.3092
ໃນປະເທດ	-10.31
▁ນໍ້າ	-10.3102
ແດ	-10.3103
EP	-10.3111
▁ເດືອນພະຈິກ	-10.3111
ເຫລັກ	-10.3112
ລະບົບປະຕິບັດການ	-10.3115
wood	-10.3118
ຍີ່ປຸ່ນ	-10.3119
▁Ft	-10.312
▁Feng	-10.3123
▁ຫົວຫນ້າ	-10.3123
ຜູ້ເຂົ້າຮ່ວມ	-10.3124
▁Sales	-10.3132
▁ປຸກ	-10.3133
▁ຊີ້	-10.3136
▁EAS	-10.3136
▁they	-10.3138
▁card	-10.3141
dian	-10.315
ໃຕ້	-10.315
ພວກ	-10.3151
ຈະຖືກ	-10.3152
SPY	-10.3153
ຄະນະກໍາມະ	-10.3154
▁ສົມບັດ	-10.3154
rag	-10.3154
gang	-10.3159
▁2006-20	-10.3163
▁ປອດ	-10.3165
ສົ່ງອອກ	-10.3167
▁List	-10.3174
▁ພວກເຂົາ	-10.3175
ຖ່າຍ	-10.3179
▁ແຜງ	-10.3196
-150	-10.3199
▁ຄຸນນະພາບສູງ	-10.32
dia	-10.32
▁72	-10.3203
bert	-10.3203
▁1100	-10.3205
▁si	-10.3222
ຊັດເຈນ	-10.3224
в	-10.3224
▁Avenue	-10.3224
▁Changchun	-10.3224
▁Sombath	-10.3224
▁jacket	-10.3224
churchofchrist	-10.3224
▁Admin	-10.3224
▁CPU	-10.3224
▁Level	-10.3224
▁Planner	-10.3225
ຫຼັກຊັບ	-10.3225
▁≥	-10.3227
▁super	-10.3228
▁ERW	-10.3229
▁Java	-10.323
ground	-10.3231
ລະຫວ່າງປະເທດ	-10.3231
ector	-10.3232
ແກະ	-10.3232
▁Charger	-10.3233
ສູງເຖິງ	-10.3233
▁gl	-10.3234
ຄວາມຈິງ	-10.3235
ກັ່ນຕອງ	-10.3236
▁Tanzania	-10.324
lv	-10.3241
▁ກິ	-10.3242
▁Word	-10.3243
-28	-10.3243
▁Yula	-10.3248
▁1.0	-10.3251
▁Starter	-10.3254
▁Thread	-10.3255
ich	-10.3258
▁Great	-10.3271
amide	-10.3274
▁ກ່ອນ	-10.3275
ria	-10.3275
▁Yang	-10.3276
ສົງ	-10.3279
▁Hyp	-10.328
0.9	-10.3281
hui	-10.3284
ໃຫ້ແກ່	-10.3291
▁GSM	-10.3295
▁ບົດລາຍງານ	-10.3296
ສາມາດນໍາໃຊ້	-10.3299
▁Cash	-10.3304
ໂຄມໄຟ	-10.3305
»	-10.3305
ປັບແຕ່ງ	-10.3306
ເພດ	-10.3314
▁ຕັ້ງຢູ່ໃນ	-10.3319
script	-10.3325
▁SAP	-10.3328
▁Drive	-10.3352
▁XR	-10.3365
ຄົມ	-10.3369
▁Graphite	-10.3369
▁Management	-10.3369
▁Precision	-10.3369
ກະຕຸ້ນ	-10.3369
▁Business	-10.3369
▁download	-10.3369
▁Width	-10.3369
ການປ່ອຍສິນເຊື່ອ	-10.3369
html	-10.337
ຍຶດ	-10.337
ພາກສະຫນາມ	-10.337
Nm	-10.3374
late	-10.3378
ຫລອດ	-10.338
▁ໂດ	-10.3382
ການແລກປ່ຽນ	-10.3383
▁‘	-10.3384
orn	-10.3385
ທະຫານ	-10.3388
ໂດຍສະເພາະ	-10.3392
ໂທລະພາບ	-10.34
▁ວິດ	-10.3403
232	-10.3411
▁ຖ່າຍ	-10.3412
▁ນິ	-10.3413
ກໍາຈັດ	-10.3417
lling	-10.3425
123	-10.3427
▁Master	-10.3427
ກວດກາ	-10.3435
ກາຍເປັນ	-10.3441
▁mod	-10.3441
▁Time	-10.3444
ບໍ່ເສຍຄ່າ	-10.3454
ball	-10.3457
▁ສຸດທ້າຍ	-10.3458
▁5000	-10.3459
▁ມະຫາວິທະຍາໄລ	-10.346
ຊົ່ວໂມງ	-10.3461
ພູເຂົາ	-10.3462
visa	-10.347
▁ການພະນັນ	-10.3479
ສ່ວນໃຫຍ່	-10.3488
▁ຮຽນ	-10.349
ການຢ້ຽມຢາມ	-10.3491
▁Control	-10.3498
▁ສະຫນາມບິນ	-10.3501
ໂຫຼດ	-10.3503
▁ຄວບຄຸມ	-10.3507
ກຽມ	-10.3509
ວັກຊີນ	-10.3516
ຂະແຫນງ	-10.3516
ğ	-10.3516
▁7.4.7	-10.3516
▁Alibaba	-10.3516
▁Graphic	-10.3516
▁Yamaha	-10.3516
▁unlimited	-10.3516
▁stretch	-10.3516
▁Beige	-10.3516
▁Rendering	-10.3516
ຊໍາລະ	-10.3516
▁black	-10.3516
▁Resort	-10.3516
▁Switch	-10.3516
▁Intel	-10.3516
▁Project	-10.3517
▁Automatic	-10.3517
▁Stepper	-10.3517
ຫລວງ	-10.3517
▁travel	-10.3517
▁flute	-10.3518
▁1.0%	-10.3521
▁ຫໍ່	-10.3523
▁Grade	-10.3523
▁Christ	-10.3525
▁ປຽບທຽບ	-10.3532
▁ເຖິງແມ່ນວ່າ	-10.3537
▁ຄວາມໄວສູງ	-10.3539
ACK	-10.354
3.1	-10.3549
tai	-10.3553
nation	-10.3557
▁ຄວາມຫນາແຫນ້ນ	-10.3563
▁Wide	-10.3563
ີດ	-10.3566
2015	-10.3567
▁ນຸ	-10.3571
ໄປທີ່	-10.3574
▁OD	-10.3576
▁ເອເລັກໂຕຣນິກ	-10.3577
ການເຊື່ອມໂລຫະ	-10.3579
▁ບັນດາ	-10.3582
rge	-10.3583
▁ສື່	-10.3587
hip	-10.3601
ima	-10.3603
▁ໄດ້ຮັບການ	-10.3617
="3	-10.3625
▁ລາຄາຂອງ	-10.3627
▁ວັນຈັນ	-10.3632
ສູດ	-10.364
http	-10.3644
0.7	-10.3645
life	-10.3645
▁SEC	-10.3646
ແຕ້ມ	-10.3647
▁Option	-10.3656
▁ເຕັກ	-10.3664
ຈົດ	-10.3664
ຫຸ່ນຍົນ	-10.3665
า	-10.3665
á	-10.3665
uangyan	-10.3665
ຊີເອັນຊີ	-10.3665
ວຽກເຮັດງານທໍາ	-10.3665
ສະພາບແວດລ້ອມ	-10.3665
ຮໍໂມນ	-10.3665
▁Bowflex	-10.3665
▁Disposable	-10.3665
▁Khaki	-10.3665
▁Removal	-10.3665
▁Scooter	-10.3665
▁Security	-10.3665
▁ceramic	-10.3665
▁elegant	-10.3665
▁ນົດ	-10.3665
▁Solomons	-10.3665
▁USMLE	-10.3665
edlgen	-10.3665
ກຶງ	-10.3665
▁Spiral	-10.3665
▁Copyright	-10.3666
▁Flexible	-10.3666
▁Electronic	-10.3666
▁ຄຸນປະຫຍັດ	-10.3666
▁Huafu	-10.3667
▁ສີສົ້ມ	-10.3667
▁dresses	-10.367
▁Joint	-10.3671
ຈິດ	-10.3673
▁ຖານຂໍ້ມູນ	-10.3679
clo	-10.368
▁ODM	-10.3681
ນັບຕັ້ງແຕ່ປີ	-10.3681
lli	-10.3685
▁Porn	-10.3687
edu	-10.3688
▁VIP	-10.369
▁ຮ້ອງ	-10.3691
▁ການເກັບຮັກສາ	-10.3692
▁Head	-10.3694
lis	-10.3697
▁ວົງຈອນ	-10.3698
ລອກ	-10.37
▁ການຕັ້ງຄ່າ	-10.37
ກາດ	-10.3707
▁ປະຈໍາເດືອນ	-10.3708
▁Nc	-10.3712
▁prev	-10.3713
izing	-10.3714
ພະຍາຍາມ	-10.3714
▁ເຫດ	-10.3715
005	-10.3718
▁RE	-10.3721
▁Trapezoid	-10.3733
ເລືອກເອົາ	-10.3739
▁ຕື້	-10.374
ani	-10.374
▁ການເຊື່ອມຕໍ່	-10.3742
ເອກ	-10.3742
▁ພຽງ	-10.3746
ຄົ້ນຄວ້າ	-10.3749
▁ITS	-10.3749
ico	-10.376
7.5	-10.3761
▁ກວດ	-10.3766
NC	-10.3769
ການຕັດ	-10.3769
ໄດ້ຖືກນໍາໃຊ້	-10.377
ປາຍ	-10.3772
ຈໍາເປັນ	-10.3778
ແສງຕາເວັນ	-10.378
1.00	-10.378
ຮູບຮ່າງ	-10.3781
▁ຊາດ	-10.3782
▁TOP	-10.3787
ລາດ	-10.379
▁ເສັ້ນທາງ	-10.3793
ອີງໃສ່	-10.3795
ທີ່ແນະນໍາ	-10.3799
້ອນ	-10.3799
ພໍ	-10.3801
▁Cha	-10.3802
▁fr	-10.3804
▁Cast	-10.3806
630	-10.3807
380	-10.3809
▁ອ່ອນ	-10.3809
▁VI	-10.381
ປະເມີນ	-10.3816
ification	-10.3816
ຈັດພີມມາ	-10.3816
ຄ້າຍຄື	-10.3817
ກະຈາຍ	-10.3817
ຝົນ	-10.3817
▁February	-10.3817
▁Terminal	-10.3817
ง	-10.3817
ຄວາມຄິດສ້າງສັນ	-10.3817
ໄຟອັນຕລາຍ	-10.3817
ຢາງພາລາ	-10.3817
▁PayPal	-10.3817
▁multi	-10.3817
ສືບຕໍ່	-10.3817
ກະຕ່າ	-10.3818
ງານວາງສະແດງ	-10.382
ເປັນເອກະລັກ	-10.3821
ພາກໃຕ້	-10.3821
ໄປສູ່	-10.3823
260	-10.3824
gue	-10.3824
ຄວາມກວ້າງ	-10.3825
▁ເລັດ	-10.3826
ພອດ	-10.3826
ທໍາລາຍ	-10.3832
ໂດ	-10.3832
▁ຕໍາແຫນ່ງ	-10.3834
550	-10.3838
▁(3)	-10.3839
▁Sealed	-10.3842
▁Solid	-10.3844
ຂອງມັນ	-10.3845
MAN	-10.3846
ump	-10.3848
▁Job	-10.3853
ຝ້າຍ	-10.3853
/201	-10.3855
ຈະແຈ້ງ	-10.3855
▁dr	-10.3856
ຜູ້ໃຫຍ່	-10.386
ການແຂ່ງຂັນ	-10.3861
▁FM	-10.3863
▁View	-10.3866
elated	-10.3869
rine	-10.387
▁Rack	-10.3872
png	-10.3885
ລັບ	-10.3885
ລາຍການ	-10.3894
▁ເມວ	-10.3901
rac	-10.3901
days	-10.3904
oe	-10.3912
TF	-10.3917
▁ດິນ	-10.3919
ຜິວຫນັງ	-10.3922
▁ຄຸນສົມບັດ	-10.3928
HC	-10.393
▁ໄຂ	-10.3934
2017	-10.3934
▁ຮາກ	-10.3939
▁ສັງກະສີ	-10.394
ຄໍາວ່າ	-10.3941
`	-10.3943
ພະແນກ	-10.3944
▁ໂຮງ	-10.3945
ຮ້ອງ	-10.3945
ຈັກ	-10.3946
ຫຼັງຈາກນັ້ນ	-10.3947
ເງິນສົດ	-10.3947
▁ຊອກຫາ	-10.3949
ຈໍາເປັນຕ້ອງ	-10.395
ເຕົາ	-10.3951
▁360	-10.3951
ລູ	-10.3963
ເສັ້ນປະກອບ	-10.3969
ສະຫງວນ	-10.3969
▁distribut	-10.3971
ຄ່າທໍານຽມ	-10.3971
ລໍາໂພງ	-10.3971
▁Supply	-10.3971
▁Welded	-10.3971
ກະເບື້ອງ	-10.3971
▁spindle	-10.3971
▁Needle	-10.3971
ວັດຖຸດິບ	-10.3971
ສະເປນ	-10.3971
▁Channel	-10.3971
▁microfiber	-10.3971
▁Collection	-10.3971
ກົນຈັກ	-10.3972
ເຫຼັກກ້າ	-10.3976
▁Team	-10.3977
▁ຄວາມລະອຽດ	-10.3978
▁under	-10.398
▁Paul	-10.398
uro	-10.3982
ລ້ຽງ	-10.3988
SGD	-10.3993
ຕານ	-10.3994
▁other	-10.3997
▁Chen	-10.3998
▁Tank	-10.3998
▁Flow	-10.4001
▁ມັນສາມາດ	-10.4004
▁ກາເຟ	-10.4007
ດອກໄມ້	-10.401
ຂອງລາວ	-10.4012
▁Ub	-10.4014
▁CRM	-10.4015
▁ພົບ	-10.4021
ຕົວເລືອກ	-10.4021
▁Fitting	-10.4024
▁their	-10.4027
350	-10.4028
-09	-10.4034
▁if	-10.4037
330	-10.4038
▁MAC	-10.4042
duction	-10.4043
▁ການຕໍ່ຕ້ານ	-10.4048
rop	-10.4049
134	-10.4057
ພ້ອມກັບ	-10.4058
▁ອັດ	-10.406
ເປັນຫນຶ່ງໃນ	-10.4061
ສົມບູນ	-10.4062
ການສູນເສຍ	-10.4063
TR	-10.4065
sulf	-10.4073
ຫາກ	-10.4074
ຟ້າ	-10.4074
email	-10.4078
ration	-10.408
▁ເຂົ້າສູ່ລະບົບ	-10.4084
ການຕິດຕໍ່	-10.4085
▁Band	-10.4087
cept	-10.4089
even	-10.4091
-90	-10.4094
▁ອົງປະກອບ	-10.4099
ສັດລ້ຽງ	-10.4103
▁star	-10.4105
ເຊື່ອມຕໍ່ກັບ	-10.4109
ກ່າວ	-10.4111
ແນວຄວາມຄິດ	-10.4112
▁Vol	-10.4113
ຈໍາຫນ່າຍ	-10.4117
ບໍ່ຈໍາກັດ	-10.4122
ໂອນ	-10.4122
ສັງເກດ	-10.4125
▁ດັ່ງ	-10.4126
ແທນ	-10.4126
▁JACKPOT	-10.4127
▁Mubarak	-10.4127
▁Teflon	-10.4127
ຂົວ	-10.4127
ຊີມັງ	-10.4127
ໃນຕອນທ້າຍ	-10.4127
▁Hangzhou	-10.4127
▁ຢ່າງໃດກໍຕາມ	-10.4127
ກອບເປັນຈໍານວນ	-10.4127
▁WIFI	-10.4127
▁Hydro	-10.4127
ຊັບສິນ	-10.4127
▁Wallpaper	-10.4128
▁program	-10.4128
ທ່າ	-10.4128
ຫມາຍຄວາມວ່າ	-10.4129
ຂີ້	-10.4129
ໄດ້ຮັບການດາວໂຫຼດ	-10.413
▁Heroes	-10.4131
DKK	-10.4131
▁ວັນທີ່	-10.4138
ມາຮອດ	-10.4139
ograph	-10.4141
ada	-10.4145
ຕໍ່າ	-10.4155
▁Kies	-10.4156
▁From	-10.4161
▁SN	-10.4161
Co	-10.4163
▁Match	-10.4163
ມັນເປັນ	-10.4166
ິດ	-10.4167
ປູກ	-10.4171
▁ແກ້ໄຂ	-10.4176
▁ປູ	-10.4179
▁ການປົກປ້ອງ	-10.4179
▁Clip	-10.4185
ການເກັບຮັກສາ	-10.4188
ທີ່ໃຊ້	-10.4197
▁ຄົ້ນພົບ	-10.4204
▁God	-10.4213
▁¥	-10.422
ຢ່າງກວ້າງຂວາງໃນ	-10.4229
▁ເດັກຍິງ	-10.4233
▁QC	-10.4234
▁720	-10.4235
▁Jia	-10.424
▁ກໍ່ສ້າງ	-10.4242
▁ກະເປົາ	-10.4254
ora	-10.426
▁ນ້	-10.4261
coc	-10.4268
och	-10.4271
ຂອບ	-10.4273
ິ່ງ	-10.4273
▁Silicon	-10.4274
ນະຄອນ	-10.4274
່ຽງ	-10.4281
ຄວາມຖີ່	-10.4281
~	-10.4282
ົ້ນ	-10.4282
ດຶງ	-10.4285
refinecolor	-10.4286
ຖະຫນົນຫົນທາງ	-10.4286
ສະຕິກເກີ	-10.4286
▁Affiliate	-10.4286
▁Indicator	-10.4286
ກາຊວນ	-10.4286
ສະຖິຕິ	-10.4286
▁Container	-10.4286
▁Webcam	-10.4286
▁Pallet	-10.4286
world	-10.4286
ຂອງຂວັນ	-10.4286
▁SQL	-10.4286
ໂດເມນ	-10.4286
ມົນຕີ	-10.4286
Catalogue	-10.4286
▁ຊອກ	-10.4286
084.2	-10.4287
▁SGS	-10.4287
▁Update	-10.4288
ຍັງສາມາດ	-10.4288
▁Music	-10.4288
ອອນລາຍ	-10.4288
▁HDPE	-10.4289
▁ATV	-10.429
ໃນຕະຫຼາດ	-10.4292
▁Spray	-10.4292
▁ລະຫັດການເງິນ	-10.4293
ສ້າງຕັ້ງຂຶ້ນໃນປີ	-10.4293
ຖອດ	-10.4293
ເບກ	-10.4295
Free	-10.4299
ຫ້ອງທົດລອງ	-10.4299
ism	-10.4299
ຮູ້ວ່າ	-10.4304
ການປັບປຸງໂດຍ	-10.4304
ogen	-10.4304
▁Punching	-10.4304
ສ່ວນໃຫຍ່ແມ່ນ	-10.4306
ຫມາຍເລກ	-10.4308
ໄດ້ຢ່າງງ່າຍດາຍ	-10.4309
ມີດ	-10.431
▁Maker	-10.4311
▁Town	-10.4313
▁ຫລັກສູດ	-10.4314
ເຮັດແນວໃດ	-10.4317
▁850	-10.4318
▁Pack	-10.4319
▁Lake	-10.4333
hol	-10.4333
ທີ່ກ່ຽວຂ້ອງກັບ	-10.4336
2.9	-10.4346
▁ວີດີໂອ	-10.4348
ເຄື່ອງໃຊ້	-10.4349
event	-10.4356
ບີ	-10.4361
5.00	-10.4362
ສູນເສຍ	-10.4367
rot	-10.4368
cut	-10.4378
▁Sex	-10.4381
▁ດໍາລົງຊີວິດ	-10.4392
FO	-10.4395
ITE	-10.4396
OG	-10.4413
▁ສິນ	-10.4415
ຄູ	-10.4426
▁ບໍ່ສາມາດ	-10.4433
="2	-10.4435
Mar	-10.4442
ຄວາມແມ່ນຍໍາ	-10.4443
ATE	-10.4443
▁ບັນທຶກທັງ	-10.4447
໋	-10.4447
ກາງເກງ	-10.4447
ເມັກຊິໂກ	-10.4447
ເອົາໃຈໃສ່	-10.4447
▁Battery	-10.4447
▁Koowheel	-10.4447
▁Laptop	-10.4447
▁ethereum	-10.4447
▁favorite	-10.4447
▁ຂໍ້ມູນຈໍາເພາະ	-10.4447
▁CRASH	-10.4447
▁UAE	-10.4447
▁Layer	-10.4447
▁ໄວລຸ້ນ	-10.4449
▁Cup	-10.445
ຫວານ	-10.445
ຕູ	-10.4454
°	-10.4454
ເຊັ່ນດຽວກັນ	-10.4458
ລະດູ	-10.4459
▁SEK	-10.4459
/2017	-10.446
ດັ່ງນັ້ນ	-10.4461
ທາຍ	-10.4464
▁hero	-10.4466
▁ITALIAN	-10.4467
▁【	-10.447
nia	-10.4477
wu	-10.448
url	-10.448
▁Hong	-10.4482
▁Wei	-10.4484
-2016	-10.4485
ຖົງຂີ້ເຫຍື້ອ	-10.4487
▁ຊື່ຍີ່ຫໍ້	-10.4488
້ອຍ	-10.4488
ວາງແຜນ	-10.4494
ສະຖານ	-10.4496
▁8.1	-10.4506
wing	-10.4507
▁Lace	-10.4514
▁Vir	-10.4515
▁ໂຕນ	-10.4517
vid	-10.452
ຸ່ມ	-10.4524
▁ຝຶກອົບຮົມ	-10.4527
▁ເອົາຮູບ	-10.4528
▁Systems	-10.4532
▁Mag	-10.4532
CF	-10.454
ຕົວກອງ	-10.454
ສຸ	-10.4541
▁pi	-10.4541
▁Mail	-10.4542
195	-10.4543
ດ້ວຍຕົນເອງ	-10.4546
▁ມູນຄ່າ	-10.455
▁ປະກອບ	-10.455
▁ve	-10.4553
ທີສອງ	-10.4553
▁0.15	-10.4555
ote	-10.4559
ຄວາມຍາວ	-10.4564
9001	-10.4565
ທັບ	-10.4567
789	-10.457
234	-10.4574
ແຈ້ງ	-10.4575
▁Taxi	-10.458
▁ຮູບຊົງກະບອກ	-10.4589
▁Roman	-10.4591
ຄົນອື່ນ	-10.4597
ຖານຂໍ້ມູນ	-10.46
▁bonus	-10.4605
▁AI	-10.4606
▁Plug	-10.4609
ລະບຸ	-10.461
Ω	-10.4611
ຮຸນແຮງ	-10.4611
SERIES	-10.4611
ສໍາເນົາ	-10.4611
ອະດີດ	-10.4611
ໂຮງຫມໍ	-10.4611
▁Canvas	-10.4611
▁Coinbase	-10.4611
▁Istanbul	-10.4611
▁LinkedIn	-10.4611
▁Packaging	-10.4611
▁Taffeta	-10.4611
▁Unloader	-10.4611
▁vibrating	-10.4611
▁ຈໍານວນຕົວແບບ	-10.4611
ສະຫຼຸບ	-10.4611
▁Azure	-10.4611
▁Marvel	-10.4611
uploads	-10.4611
▁MYR	-10.4611
ຂຸມ	-10.4611
▁price	-10.4611
ຮ້ອງຂໍ	-10.4612
▁ສົມພອນ	-10.4613
▁Under	-10.4614
▁carton	-10.4614
▁ປ່ອງ	-10.4615
ສຸກ	-10.4615
ຍ້ອນ	-10.4616
▁Loop	-10.4616
▁optic	-10.4619
ເກຍ	-10.462
ciation	-10.462
ທາງການແພດ	-10.4622
ຊັ້ນນໍາ	-10.4623
▁ນະຄອນ	-10.4624
ທ່ອງ	-10.4625
▁EU	-10.4628
hal	-10.4628
ata	-10.4628
ສະຫນາມບິນ	-10.4628
▁Listing	-10.4636
MH	-10.4638
▁Cams	-10.4645
▁ວີ	-10.4649
ube	-10.465
▁line	-10.4651
▁ມຸງ	-10.4654
yp	-10.4657
ແກ	-10.4659
▁UP	-10.466
▁ເຊື່ອມຕໍ່	-10.4664
▁★	-10.4665
Chang	-10.4666
ຂໍ	-10.4667
ຈຸ	-10.4668
ສິ	-10.4668
▁ເຈາະ	-10.4678
ມິດ	-10.4679
lie	-10.4687
▁ຫນ່ວຍຄວາມຈໍາ	-10.4692
ສະຕິ	-10.4708
ການຮັກສາ	-10.4715
▁ເຊີນ	-10.4717
ຈັດຕັ້ງປະຕິບັດ	-10.4719
bro	-10.4719
▁31,	-10.4723
▁1%	-10.4728
ການຄັດເລືອກ	-10.4734
▁ອາຍແກັສ	-10.4737
▁ເລ	-10.4746
▁Mode	-10.4754
ໄຂມັນ	-10.476
ຂອງປະເທດ	-10.4762
228	-10.4762
Be	-10.4762
▁140	-10.4767
▁mg	-10.4774
▁ຊ່ຽວ	-10.4774
▁ຄຸ້ມ	-10.4776
▁Pronoun	-10.4778
ກັບຝາ	-10.4778
ທາງເທີງ	-10.4778
▁Generator	-10.4778
▁Mosquito	-10.4778
▁Platform	-10.4778
ຂອງທ່ານໃນທຸກ	-10.4778
▁ຄຸນະພາບສູງ	-10.4778
▁DIY	-10.4778
▁ຂໍ້ກໍາຫນົດ	-10.4779
▁dji	-10.478
▁0.3	-10.4781
ທັດ	-10.4782
BR	-10.4782
ສາມາດເຮັດໄດ້	-10.4782
ລູກປືນ	-10.4783
avi	-10.4784
▁Jar	-10.4791
ໃດຫນຶ່ງ	-10.4791
ຄອມພິວເຕີ້	-10.4793
▁lot	-10.4796
direct	-10.4799
ປະເທດອັງກິດ	-10.48
▁Patch	-10.4801
ກິດຈະ	-10.4803
uv	-10.4804
[	-10.4806
ແຂ້ວ	-10.4806
ນະໂຍບາຍ	-10.4807
▁Wave	-10.4808
ກາຕູນ	-10.4813
138	-10.4814
ງ່າຍທີ່ຈະ	-10.4823
▁ແນ່ນອນ	-10.4824
▁ສໍາລັບການຂາຍ	-10.4827
▁data	-10.4831
ທານ	-10.4831
ການປະມວນຜົນ	-10.4841
nb	-10.4842
4.00	-10.4843
9%	-10.4848
▁ເຕີມ	-10.4849
pol	-10.485
ທ່ານຈະ	-10.4862
410	-10.4862
▁Disc	-10.4863
▁ແ	-10.4863
▁ຕ້ອງການ	-10.4866
ura	-10.487
led	-10.4873
▁Guan	-10.4878
wer	-10.4883
ຄວນຈະ	-10.4891
omi	-10.4892
ໃນມື້ນີ້	-10.4895
▁ຂໍ້ກໍານົດ	-10.4903
Com	-10.4904
▁ຮ່າງກາຍ	-10.491
▁here	-10.4926
▁Parts	-10.4929
ຄວາມສາມາດໃນ	-10.493
▁filter	-10.4942
lug	-10.4943
ທຽບ	-10.4945
▁170	-10.4946
ເປົ້າ	-10.4947
ຫົກ	-10.4947
ເຍຍລະມັນ	-10.4947
▁Bohemian	-10.4947
▁COINFLIP	-10.4947
▁Exchange	-10.4947
▁Universal	-10.4947
▁ລາຄາປະກະຕິ	-10.4947
ຖິ້ມ	-10.4947
ໄຮ້ສາຍ	-10.4947
▁Version	-10.4947
▁software	-10.4947
▁eyelash	-10.4947
▁Medium	-10.4947
ONDA	-10.4947
▁android	-10.4947
▁BCEL	-10.4947
xBet	-10.4948
▁ເກາະ	-10.4948
piece	-10.4948
▁Axis	-10.4948
▁like	-10.4949
▁HKD	-10.4949
ທ່ານກໍາລັງຊອກຫາ	-10.495
▁ເມລິ	-10.495
white	-10.4951
▁Ray	-10.4951
▁ດາ	-10.4952
▁ອາດຈະເປັນ	-10.4952
▁Basel	-10.4953
▁Villa	-10.4954
ຕາລາງ	-10.4955
▁Zi	-10.4957
▁ຍຸ	-10.4958
▁Money	-10.496
▁2500	-10.4963
▁RUB	-10.4963
ຂອງພຣະຄຣິດ	-10.4963
ເລັກ	-10.4964
▁Side	-10.4966
ຈອກ	-10.4968
HQ	-10.4969
▁ຊີ້ຂາດ	-10.4971
▁LTE	-10.4972
▁Gem	-10.4974
▁bir	-10.4982
ສ້າງຕັ້ງຂຶ້ນ	-10.4983
ທໍາມະດາ	-10.4988
ກູໂກ	-10.4989
nnel	-10.4994
▁ນີ	-10.4994
▁page	-10.4994
ລະຫັດຜ່ານ	-10.4995
GHz	-10.4995
ແກນ	-10.4996
ful	-10.4997
▁ໂດຍລວມ	-10.5
—	-10.5004
▁ແຮງດັນໄຟຟ້າ	-10.5007
170	-10.5009
▁Internet	-10.5009
▁any	-10.501
304	-10.501
ລະລາຍ	-10.5011
▁Ski	-10.5015
ລ່າ	-10.5016
▁Low	-10.5018
phen	-10.5023
lp	-10.5024
Share	-10.5026
oxy	-10.5027
▁Apr	-10.5028
▁Mono	-10.5029
ໄປຢ້ຽມຢາມ	-10.503
ລືອກເອົາທາງເລືອກ	-10.5036
ໃນລະດັບ	-10.5042
ສະກັດ	-10.5043
ask	-10.5044
▁ວິທະຍາສາດ	-10.5048
you	-10.5049
2-3	-10.5053
▁ກາງແຈ້ງ	-10.5055
▁Rob	-10.5055
ngo	-10.5058
▁ການແກ້ໄຂ	-10.5058
ຫຼີ້ນ	-10.5061
▁ລົມ	-10.5071
▁ໄຮໂດລິກ	-10.5085
▁Ball	-10.5087
▁DE	-10.5091
▁ເຂື່ອນ	-10.5094
▁ໂດລາ	-10.5098
anzania	-10.5101
1-2	-10.5105
cel	-10.5105
ການສະຫນອງ	-10.5114
▁Cool	-10.5117
▁ກີບ	-10.5117
ຈານ	-10.5117
▁dress	-10.5118
ລ້ານ	-10.5119
ຍົກເວັ້ນ	-10.5119
+00:00	-10.5119
ກຽດ	-10.5119
ທຽນຈິນ	-10.5119
▁Acetate	-10.5119
▁Circular	-10.5119
▁Crystal	-10.5119
▁Development	-10.5119
▁Machining	-10.5119
▁extrusion	-10.5119
▁ຄລິບ	-10.5119
	-10.5119
ລະເບີດ	-10.5119
▁Detector	-10.5119
▁extension	-10.5119
ຄວາມສ່ຽງ	-10.512
▁ripple	-10.512
▁Sponge	-10.512
sheng	-10.512
▁polyester	-10.512
2013	-10.512
▁deposit	-10.5121
▁2010-2019	-10.5121
ຈິດໃຈ	-10.5121
▁ເບີໂທ	-10.5121
▁CBD	-10.5122
ການປະກັນໄພ	-10.5125
▁Shell	-10.5128
0.000	-10.5131
▁ໃນຖານະເປັນ	-10.5131
ມັນແມ່ນ	-10.5132
nner	-10.514
ello	-10.5141
ແມ່ພິມ	-10.5143
▁Sim	-10.5144
duct	-10.5146
ຕົ້ນໄມ້	-10.5147
ປະທານປະເທດ	-10.5149
ວ່າຈະ	-10.515
ການໃຊ້	-10.5159
▁Def	-10.5159
▁FRP	-10.516
ລົດເມ	-10.516
▁Ind	-10.5163
▁ຮູບຮ່າງ	-10.5164
▁1800	-10.517
▁ເສື້ອ	-10.5171
="0.	-10.5172
erry	-10.5175
▁1.1	-10.518
▁pcs	-10.5182
ໂຍ	-10.5186
ພວກເຂົາເຈົ້າ	-10.5187
▁ຊອບແວທີ່	-10.519
▁Product	-10.5191
ອ້າງ	-10.5196
MPa	-10.5203
▁mac	-10.5205
▁NW	-10.5226
-100	-10.523
▁ຜູ້ນ	-10.5232
ສາດສະຫນາຈັກ	-10.5236
▁Yes	-10.524
ຸກ	-10.5242
ski	-10.5249
ຈະໄດ້ຮັບ	-10.5251
ກັບຄືນ	-10.5251
006	-10.5257
="2.	-10.5273
ສ້າງຕັ້ງ	-10.5278
▁Imp	-10.5279
ສາມາດຜະລິດ	-10.5281
asi	-10.5289
▁ປຸງ	-10.5293
ທຸ	-10.5293
165	-10.5294
▁ອິນ	-10.5294
ກໍາໄລ	-10.5295
ຫຍິບ	-10.5295
ຯ	-10.5295
▁Academy	-10.5295
▁Webtkco	-10.5295
▁guitar	-10.5295
ບັງຄັບ	-10.5295
ວີຊ່າ	-10.5295
▁Sweater	-10.5295
function	-10.5295
▁Floral	-10.5295
▁Screen	-10.5295
ສາຍພານ	-10.5295
▁ສິ	-10.5295
▁Adele	-10.5295
▁CZK	-10.5295
▁ຈັດພີມມາໂດຍ	-10.5295
ຕັດສິນໃຈ	-10.5296
▁LLC	-10.5296
ປົກຄອງ	-10.5296
▁Bulb	-10.5297
▁drone	-10.5297
ເນື້ອຫາ	-10.5298
▁Chalk	-10.5298
AMP	-10.5299
▁Lee	-10.5299
ae	-10.53
ສອດຄ່ອງກັບ	-10.5302
▁Travel	-10.5303
ປອດໄພ	-10.5308
▁ILS	-10.5308
▁ສະຊອບແວ	-10.5311
▁sur	-10.5311
▁ຄາສິໂນອອນໄລນ໌	-10.5311
▁ຂະຫນາດບັນຈຸ	-10.5311
4.0	-10.5316
ບ່າ	-10.5318
ຜ່ານມາ	-10.5319
▁108	-10.5329
ປະເທດຝຣັ່ງ	-10.5333
280	-10.5333
▁ຈົດຫມາຍ	-10.5334
ທີ່ເຂັ້ມແຂງ	-10.5335
▁«	-10.5339
▁ml	-10.5345
▁ກ້ອງຖ່າຍຮູບ	-10.5345
▁Val	-10.5348
ເພີ່ມເຕີມກ່ຽວກັບ	-10.5351
▁ວັນຄຣິດສະມາດ	-10.5351
ological	-10.5352
ທົ່ວປະເທດ	-10.5354
ຂາດ	-10.5357
▁Guy	-10.5358
▁var	-10.536
ໃນເຂດ	-10.5362
ມະຫາວິທະຍາໄລ	-10.5362
ກາງແຈ້ງ	-10.5362
ເອກະຊົນ	-10.5363
ການໂຄສະນາ	-10.5365
ຄວາມສົນໃຈ	-10.5368
ຢູ	-10.5369
▁Tie	-10.5371
▁Pass	-10.5372
ອາຍ	-10.5377
ພາຍໃຕ້ການ	-10.5377
ເຄື່ອງດື່ມ	-10.5386
▁ເວັບໄຊຕ໌	-10.5391
ອຸປະກອນເສີມ	-10.5391
▁video	-10.5394
ອ້າງອີງ	-10.5395
ເຄື່ອງຫມາຍ	-10.5408
ລູກຄ້າຂອງພວກເຮົາ	-10.5411
chu	-10.5425
▁Toy	-10.5426
ຂາຍຮ້ອນ	-10.5426
ຫຍໍ້	-10.543
une	-10.5432
ative	-10.5434
1.9	-10.5436
▁ເລື່ອນ	-10.5441
157	-10.5441
ໃນຂະນະທີ່	-10.5444
▁580	-10.5458
010	-10.5459
▁ຍິນ	-10.5459
ຕໍ່ສູ້	-10.546
ດີກວ່າ	-10.5466
8.0	-10.5471
ຄຸມ	-10.5473
м	-10.5473
ຢືນຢັນ	-10.5473
ຊອຟແວ	-10.5473
ປະຕິເສດ	-10.5473
ປະທັບໃຈ	-10.5473
ປຶກສາຫາລື	-10.5473
ຜ້າຫົ່ມ	-10.5473
ຮາດແວ	-10.5473
▁Firefox	-10.5473
▁Industry	-10.5473
▁Inverter	-10.5473
▁January	-10.5473
▁RayHaber	-10.5473
●	-10.5473
ຫິມະ	-10.5473
▁Equina	-10.5473
▁Paypal	-10.5473
▁Wuxi	-10.5473
▁Cutting	-10.5473
▁servo	-10.5474
▁Reply	-10.5474
▁CANN	-10.5474
▁vinyl	-10.5474
ບໍາລຸງຮັກສາ	-10.5474
▁NEMA	-10.5474
▁MXN	-10.5474
▁Prince	-10.5474
▁Safety	-10.5474
ຈົບການສຶກສາ	-10.5474
▁ທຸງ	-10.5475
▁BRL	-10.5475
▁film	-10.5476
▁August	-10.5476
▁Satin	-10.5476
ແມວ	-10.5476
▁what	-10.5477
116	-10.5477
ຊ່ວງ	-10.5478
ford	-10.5478
▁Human	-10.5478
ເປີດເຜີຍ	-10.5478
ANG	-10.5479
▁Matt	-10.548
IDE	-10.5482
ອາຈານ	-10.5483
▁Space	-10.5484
ຖັກ	-10.5485
ລົດຍົນ	-10.5485
ທຸລະກິດຂະ	-10.5486
▁PLN	-10.5488
chlor	-10.5492
steel	-10.5493
▁ການຊື້ຂາຍ	-10.55
ຜູ້ໃຫ້ບໍລິການ	-10.55
fol	-10.5501
ພົບເຫັນ	-10.5501
▁Copy	-10.5507
Break	-10.5509
▁some	-10.5511
MN	-10.5515
▁trans	-10.5518
▁Four	-10.5523
▁Raw	-10.5525
▁Wallet	-10.5526
ປະຕິບັດຕາມ	-10.5532
trade	-10.554
each	-10.5541
ນຸ	-10.5552
ພຽງ	-10.5554
ສິ້ນ	-10.5555
▁Neon	-10.5556
PDF	-10.5557
ຫມູ່	-10.5563
▁Downloader	-10.5568
▁exp	-10.5577
ສາມາດບັນລຸ	-10.5585
▁ເຮືອ	-10.5592
▁bi	-10.5595
▁ເພີ້ມ	-10.56
▁2012.	-10.56
▁ຊ່ວຍເຫຼືອ	-10.5605
▁ເຄື່ອງສໍາອາງ	-10.5606
▁Nac	-10.561
ຂາຍສົ່ງ	-10.562
nz	-10.563
ເຫມາະສົມສໍາລັບ	-10.5637
▁Punch	-10.5646
990	-10.5649
-05-	-10.565
IAN	-10.565
ໃຫ້ກັບ	-10.565
ement	-10.565
ເກືອ	-10.565
ທະນາຍຄວາມ	-10.5653
▁304	-10.5655
ຈຶ່ງ	-10.5655
ກະຈົກ	-10.5655
Mississippi	-10.5655
μ	-10.5655
ປະຖົມ	-10.5655
ພຣະເຢຊູ	-10.5655
ພລາສຕິກ	-10.5655
ສົດໃສ	-10.5655
ອີເມລ໌ໃຫ້ພວກເຮົາ	-10.5655
▁Chocolate	-10.5655
▁Collecting	-10.5655
▁Genotropin	-10.5655
▁Messenger	-10.5655
▁Sihanoukville	-10.5655
▁Vacuum	-10.5655
ຄູປອງ	-10.5655
▁fiberglass	-10.5655
▁window	-10.5655
ສີມ່ວງ	-10.5655
▁School	-10.5655
ລືມ	-10.5655
▁Wedding	-10.5655
Jilin	-10.5655
ສະດວກສະບາຍ	-10.5656
▁XML	-10.5656
▁ກອງທັບເຮືອ	-10.5656
Static	-10.5656
methyl	-10.5656
ໂຄງຮ່າງການ	-10.5656
▁Passport	-10.5656
▁poker	-10.5656
shirt	-10.5657
▁fitting	-10.5658
ຕົ້ນກໍາເນີດ	-10.5658
facebook	-10.5659
▁Instrumental	-10.5659
▁Flex	-10.5659
ເຫຼືອ	-10.566
ສະຫວັນ	-10.5661
ໂຄງປະກອບ	-10.5663
ນັກຄົ້ນຄວ້າ	-10.5664
ບົດຮຽນ	-10.5669
OF	-10.5669
ສານເຄມີ	-10.5669
ກິໂລ	-10.5671
▁rack	-10.5673
ຄິດວ່າ	-10.5676
ແປກ	-10.5678
▁Dist	-10.5679
▁`	-10.5684
▁ເຄື່ອງຕົກແຕ່ງ	-10.5686
ື້	-10.5687
▁ທາ	-10.569
▁use	-10.5691
0.6	-10.5695
ava	-10.5697
ໂ	-10.5698
▁ບັນຊີລາຍຊື່	-10.5702
pitch	-10.571
flow	-10.5713
ຂອງສາດສະຫນາຈັກ	-10.5716
ໄດ້ຮັບລາງວັນ	-10.5729
▁680	-10.5738
▁ຢືນ	-10.574
ຄົ້ນພົບ	-10.575
afe	-10.5751
ສົມບັດ	-10.5751
GSM	-10.5752
ຖະຫນົນ	-10.5752
ການທົບທວນຄືນ	-10.5752
6.5	-10.5754
ໂນ	-10.5755
ເພື່ອໃຫ້	-10.5755
ສະຫຼ	-10.5759
ທີ່ຕ້ອງການ	-10.5765
▁Mana	-10.5765
="4	-10.5767
ປະມວນຜົນ	-10.5769
▁ພັດທະນາ	-10.5776
▁316	-10.5781
Blog	-10.5783
ສິ່ງທີ່ທ່ານ	-10.5798
▁Mod	-10.5801
Wax	-10.5802
▁ເດືອນກັນຍາ	-10.5803
ວ່າມັນ	-10.5805
▁ເພື່ອໃຫ້	-10.5807
hoo	-10.5814
ລັກ	-10.5814
abi	-10.5819
lian	-10.5821
240	-10.5839
▁cont	-10.5839
158	-10.5839
mission	-10.584
ທີ່ລັບເລັບແມວ	-10.584
ເຟີນີເຈີ	-10.584
▁Browser	-10.584
▁Chloride	-10.584
▁clarinet	-10.584
▁tutorial	-10.584
▁ຄົບຮອບ	-10.584
▁BONUS	-10.584
▁Dewatering	-10.584
▁Foundation	-10.584
▁Tianjin	-10.584
▁Youtube	-10.5841
ດັ່ງຕໍ່ໄປນີ້	-10.5841
▁ນອກຈາກນີ້	-10.5842
ລອດ	-10.5842
ອະນຸ	-10.5843
▁tank	-10.5846
▁need	-10.585
▁ຮ້ານອາຫານ	-10.585
▁cha	-10.585
-70	-10.5853
▁Ride	-10.5853
tch	-10.5856
exam	-10.5866
▁Hook	-10.5872
ທີ່ພວກເຮົາ	-10.5873
▁Rolling	-10.5878
▁Train	-10.5878
▁Kid	-10.5879
▁ແລະການຜະລິດ	-10.588
▁ພວກເຮົາແມ່ນຜູ້	-10.5881
▁pay	-10.5904
▁real	-10.5907
plex	-10.5909
.27	-10.5913
1.20	-10.5913
ປອກ	-10.5914
▁ເຕົາອົບ	-10.5926
▁Matte	-10.5934
ຫມາ	-10.5935
gram	-10.5936
▁ຕີນ	-10.5938
ida	-10.5942
ude	-10.5946
raw	-10.5949
ປຸ່ມ	-10.595
{	-10.5951
ເປີດຕົວ	-10.5951
ກະທູ້	-10.5951
▁ຕົວຫນ່ຽວນໍາ	-10.5951
▁But	-10.5953
mit	-10.5957
▁ເຄື່ອງດື່ມ	-10.596
ເຈົ້າຂອງ	-10.596
RU	-10.5962
▁ປອດໄພ	-10.5962
▁ຕ່ໍາສຸດ	-10.5963
ປັນ	-10.5965
▁ເສີມ	-10.5969
aya	-10.5973
▁Motors	-10.5978
ໂກນ	-10.5982
mobile	-10.5983
▁ຫວ	-10.5991
▁Forums	-10.5995
▁para	-10.6
1390	-10.6013
ເຂົ້າໃນ	-10.6017
ะ	-10.6029
ວັດຖຸ	-10.6029
ກ້ວາງ	-10.6029
ຢາເສບຕິດ	-10.6029
ວິສະວະກອນ	-10.6029
ອຸປະຕິເຫດ	-10.6029
ເຕັບປິ້ງມໍເຕີ	-10.6029
▁Nashville	-10.6029
▁Paradise	-10.6029
▁Coinfalls	-10.6029
▁Hospital	-10.6029
▁Oracle	-10.6029
▁Shepherd	-10.6029
▁insulation	-10.6029
▁ຍື່ນພາຍໃຕ້	-10.6029
▁ອອກຄວາມເຫັນໄດ້	-10.6029
ກົດຫມາຍວ່າດ້ວຍ	-10.6029
ກ້ຽງ	-10.6029
ຮາງວັນ	-10.6029
▁Orange	-10.6029
▁oxford	-10.6029
▁Trimmer	-10.6029
▁Silk	-10.6029
▁Western	-10.6029
ລາຍະການ	-10.603
▁token	-10.603
▁wallet	-10.603
pel	-10.603
RM	-10.6032
ປະສົບ	-10.6033
text	-10.6033
▁Zhong	-10.6033
▁280	-10.6034
▁porn	-10.6038
▁Mega	-10.6042
▁ເປົ້າຫມາຍ	-10.6042
off	-10.6042
ຍົກລະດັບ	-10.6042
band	-10.6044
ຫຼຸດ	-10.6044
▁(1,5	-10.6045
▁ທີ່ຢູ່ເວັບໄຊທ໌	-10.6048
ລ້າ	-10.6053
▁ດໍາເນີນ	-10.6054
▁Packing	-10.6055
ເປັນເວລາ	-10.6061
▁Curl	-10.6064
▁Ave	-10.6064
▁ສຸ	-10.6066
1.2	-10.6068
ລີດ	-10.6072
▁ການນໍາສະເຫນີ	-10.6074
ສ້າງຕັ້ງຂຶ້ນໃນ	-10.6075
ີ້	-10.6079
▁ວິຕາມິນ	-10.6083
▁Ice	-10.6084
PI	-10.6089
ແອ	-10.6093
▁HF	-10.6093
rypt	-10.6096
▁Caps	-10.6099
ຜົນຜະລິດ	-10.6108
ເງື່ອນໄຂ	-10.6117
ໃຊ້ງານ	-10.6123
▁ຊາວຫນຸ່ມ	-10.6123
▁ເພື່ອນ	-10.6134
ຫນູ	-10.6135
▁135	-10.6138
ຄີ	-10.6141
ຕື່ມ	-10.6148
ປະຕິທິນ	-10.6154
-32	-10.6155
ຜົງ	-10.6156
ປຸກ	-10.6156
ເທດ	-10.6161
ສາຍໄຟ	-10.6162
ລາຍໄດ້	-10.6166
▁1080	-10.6167
▁ຜູ້ຈັດການ	-10.6167
ມີການປ່ຽນແປງ	-10.6169
▁Masters	-10.617
ເລນ	-10.6173
▁hacker	-10.6176
APK	-10.6181
ວັນພັກ	-10.6182
ເຄື່ອງຕັດ	-10.6191
via	-10.6193
▁ແຫ່ງ	-10.6198
lly	-10.6199
▁Cont	-10.6204
ເອີ້ນ	-10.6206
▁bit	-10.621
107	-10.6211
ຊີ້	-10.6219
testosterone	-10.6221
ການຂະຫຍາຍຂົນຕາ	-10.6221
ກ໊ອກນ້ໍາ	-10.6221
ເພາະວ່າ	-10.6221
ໄນໂຕຣເຈນ	-10.6221
▁Insulation	-10.6221
▁NINGBO	-10.6221
▁ninja	-10.6221
ສະຫມອງ	-10.6221
ອີຕາລີ	-10.6221
▁Pongee	-10.6221
▁which	-10.6221
▁ຊົມເຊີຍ	-10.6221
▁Munich	-10.6221
▁Wuhan	-10.6221
ເດີມພັນ	-10.6221
ເຮັດຄວາມເຢັນ	-10.6221
▁Rooder	-10.6222
field	-10.6222
▁Dream	-10.6222
▁Course	-10.6222
▁ນອກຈາກນັ້ນ	-10.6222
▁GTA	-10.6222
▁ຂ້ອງ	-10.6222
▁winding	-10.6223
▁Keygen	-10.6225
burg	-10.6226
▁Grating	-10.6226
ຖົ່ວ	-10.6226
▁ຂໍ້ມູນມືຖື	-10.6227
▁webca	-10.6227
▁slots	-10.6228
▁Friends	-10.6229
▁lego	-10.623
ຊັດ	-10.6231
ການສົ່ງ	-10.6235
ເລີດ	-10.6237
bel	-10.6239
▁Add	-10.6239
ດັງ	-10.6246
▁Cell	-10.6246
▁Semi	-10.6249
ຂະຫຍາຍຕົວ	-10.6249
▁Name	-10.6253
▁Form	-10.6253
▁ຫນຸ່ມ	-10.6254
ໂຈ	-10.6256
▁Dark	-10.6259
▁ສາຍການຜະລິດ	-10.6259
▁ແຕ່ວ່າ	-10.626
▁PLC	-10.626
blast	-10.6261
ສໍາລັບທ່ານ	-10.6261
rule	-10.6265
▁ການສື່ສານ	-10.6273
ໃບຫນ້າ	-10.6274
ແຟ	-10.6283
ຸງ	-10.6283
106	-10.629
▁Table	-10.6293
▁ໂກນ	-10.6299
▁ພວກເຮົາຈະ	-10.6304
china	-10.6309
ໄລຍະເວລາ	-10.6312
KV	-10.6313
▁How	-10.6314
NET	-10.6316
▁128	-10.6319
230	-10.6319
OO	-10.632
▁Solo	-10.6321
ວິເຄາະ	-10.6321
▁ການປົກຫຸ້ມຂອງ	-10.6324
▁Reg	-10.633
▁ຊົນ	-10.6332
ໃຫ້ແນ່ໃຈວ່າ	-10.6338
ສອກ	-10.6339
ori	-10.635
ພຶດສະພາ	-10.6357
▁ຄວາມຕ້ານທານ	-10.6358
3.0	-10.6362
ກ້ອງຖ່າຍຮູບ	-10.6362
Po	-10.6363
→	-10.6364
ປະຈໍາເດືອນ	-10.6365
zen	-10.6365
▁Tong	-10.6365
Tags	-10.6366
ສ່ວນປະກອບ	-10.6367
ຄວາມຄິດເຫັນ	-10.6367
ຜະ	-10.6376
ສະຫນອງພະລັງງານ	-10.6378
▁Ud	-10.6385
198	-10.6389
199	-10.6399
ova	-10.64
ວາຍ	-10.6408
ຕັ້ງຄ່າ	-10.641
ຮອດ	-10.6412
▁ສຶກ	-10.6415
▁ກອງທັບ	-10.6417
ຄໍາຄິດຄໍາເຫັນ	-10.6418
ສິ່ງເສດເຫຼືອ	-10.6418
ສົງຄາມ	-10.6418
▁Antivirus	-10.6418
▁Conditioner	-10.6418
▁Ductile	-10.6418
▁Function	-10.6418
▁Prototype	-10.6418
▁desktop	-10.6418
▁ສະເຕນເລດ	-10.6418
ຕົ້ມ	-10.6418
▁Corporation	-10.6418
▁Plasma	-10.6418
Component	-10.6418
▁ຫມາຍເຫດ	-10.6419
▁Canon	-10.6419
▁FIFA	-10.642
ຂ້າງເທິງ	-10.642
ຫມົດ	-10.642
ຮ້ອຍ	-10.642
▁auto	-10.6421
▁ເດືອນຕຸລາ	-10.6423
▁ຄວາມສຸກ	-10.6425
▁tube	-10.6425
▁`%.25	-10.6426
ເກີນໄປ	-10.6427
ແຄມ	-10.6428
ສະແຕນເລດສະແຕນເລດ	-10.6429
card	-10.6432
ແຂ່ງລົດ	-10.6432
▁SU	-10.6434
ເກດ	-10.6434
sure	-10.6443
▁IR	-10.6443
▁0.4	-10.6447
▁ບົດຄວາມທີ່ຜ່ານ	-10.6448
ກ່ອນທີ່ຈະ	-10.645
ຈິ	-10.6454
▁ເລກທີ່	-10.6464
ິ້ງ	-10.647
ທີ່ຫນ້າສົນໃຈ	-10.6477
▁CWS	-10.6481
ຢ່າງຕໍ່ເນື່ອງ	-10.6487
▁ຂໍ້ສະເຫນີ	-10.6489
▁CPA	-10.6493
▁£5	-10.6495
▁del	-10.6496
ການຮຽນຮູ້	-10.6504
ຫົວຫນ້າ	-10.6506
▁Zhen	-10.6512
▁MHz	-10.6519
#	-10.6523
▁ການສະເຫນີ	-10.654
ປະສິດທິຜົນ	-10.6549
▁war	-10.6552
▁trac	-10.656
▁Market	-10.6568
ຖາມ	-10.6569
▁American	-10.6573
Casino	-10.6577
▁ການຕັດ	-10.6595
▁Bearings	-10.6608
▁Hotels	-10.6608
ໂຣ	-10.6612
▁Face	-10.6614
126	-10.6614
ຢ່າ	-10.6615
к	-10.6617
google	-10.6618
ກໍ່ຕັ້ງຂຶ້ນໃນປີ	-10.6618
ສິງກະໂປ	-10.6618
ເຂົ້າຫນົມ	-10.6618
▁Cambodia	-10.6618
▁ENERGY	-10.6618
▁Florence	-10.6618
▁Pacific	-10.6618
▁Technical	-10.6618
▁WORLD	-10.6618
í	-10.6618
ປັກກິ່ງ	-10.6618
ລົດບັນທຸກ	-10.6618
ວັນອັງຄານ	-10.6618
ແຜ່ນດິນໃຫຍ່	-10.6618
▁STORM	-10.6618
▁Volume	-10.6618
ເກົາຫຼີ	-10.6618
▁Church	-10.6618
▁Bullet	-10.6618
ຄົນພິການ	-10.6618
▁Alloy	-10.6618
▁VPN	-10.6618
▁Surface	-10.6618
▁Extract	-10.6618
▁about	-10.6618
ຫຼີ້ນການພະນັນ	-10.6618
▁OFF	-10.6618
▁Active	-10.6619
Cl	-10.6619
▁magic	-10.6619
▁expert	-10.6619
ille	-10.6621
▁crack	-10.6621
ການປົກປ້ອງ	-10.6623
▁ວິທີການຕິດຕັ້ງ	-10.6627
▁mol	-10.6628
ສົນທະນາສົດ	-10.6629
▁ທອງເຫລືອງ	-10.6633
aff	-10.6634
113	-10.6635
9001:	-10.6637
▁(4)	-10.664
ຈັນ	-10.6642
▁MAG	-10.6642
ເພື່ອເຮັດໃຫ້	-10.6645
App	-10.6649
thi	-10.6651
▁CAR	-10.6655
▁call	-10.666
▁June	-10.666
race	-10.6662
▁dec	-10.6662
ຄວາມຜິດພາດ	-10.6663
.0.1	-10.6663
ຖົງປະເພດຂີ້ຝຸ່ນ	-10.6673
RY	-10.6681
lab	-10.6689
Mpa	-10.669
unch	-10.6691
▁offer	-10.6693
UP	-10.6694
▁cap	-10.6694
▁Gear	-10.6698
▁MI	-10.6698
ສາງ	-10.6702
ເນັ້ນ	-10.6703
ໂດຍໃຊ້	-10.671
.360	-10.6714
It	-10.6715
media	-10.6715
▁365	-10.6721
slot	-10.6722
▁Buy	-10.6729
ຜ້າຝ້າຍ	-10.673
tation	-10.6733
PER	-10.6734
ຫຍ້າ	-10.6747
0-4	-10.6748
ສັ່ງຊື້	-10.6756
ປຸງແຕ່ງ	-10.6758
ໃນບັນດາ	-10.6767
▁Times	-10.6768
114	-10.6769
lation	-10.678
ຢູ່ທີ່ນີ້	-10.6783
Photos	-10.6792
ເຖິງແມ່ນວ່າ	-10.6792
ການຊື້ຂາຍ	-10.6794
132	-10.6801
ໂຫລດ	-10.6803
ຫຼາຍໆ	-10.6804
eater	-10.6806
ປ້ອນ	-10.6809
▁ອ່ານເພີ່ມເຕີມ	-10.6812
ທາງສັງຄົມ	-10.6813
haw	-10.6815
ພັດທະນາການຜະລິດ	-10.6815
ount	-10.6818
ເງົາ	-10.6819
▁Ocean	-10.6819
ຢູ່ໃກ້	-10.682
▁Electro	-10.6821
ອາຟຣິກາ	-10.6821
▁ເນີນ	-10.6821
ຄໍາສັບ	-10.6822
▁ສີນ້ໍາຕານ	-10.6822
ກະແສ	-10.6822
ພົນລະເມືອງ	-10.6822
ແຜ່ນໃບຄ້າຍຄື	-10.6822
▁AASraw	-10.6822
▁Credit	-10.6822
▁Drifter	-10.6822
▁FLEGT	-10.6822
▁Michael	-10.6822
▁Yueqing	-10.6822
▁diaphragm	-10.6822
▁MYHH	-10.6822
▁Spotify	-10.6822
▁Texas	-10.6822
▁Harley	-10.6822
▁Holder	-10.6822
▁Coupon	-10.6822
▁Tesser	-10.6822
▁Hunter	-10.6822
▁know	-10.6822
ພໍ່ແມ່	-10.6822
▁Pcb	-10.6822
▁place	-10.6822
▁(2016)	-10.6822
▁ມື້ຄ່ໍາ	-10.6823
▁Certified	-10.6823
ແຮງງານ	-10.6823
▁ກົດປຸ່ມ	-10.6824
▁after	-10.6825
ພື້ນເມືອງ	-10.6825
▁Marble	-10.6826
ເຄື່ອງໃຊ້ໄຟຟ້າ	-10.6826
ກໍ	-10.683
▁Dragon	-10.6831
▁(7)	-10.6832
ຮ່າງ	-10.6833
smos	-10.6834
015	-10.6836
ການບັນທຶກ	-10.6838
▁GW	-10.6841
▁most	-10.6841
aj	-10.6845
▁Good	-10.6849
ຊິ້ນສ່ວນ	-10.6851
Live	-10.6854
▁Flu	-10.6856
ການປິ່ນປົວດ້ວຍ	-10.6861
ດອນ	-10.6862
eph	-10.6865
una	-10.687
ປິ່ນປົວ	-10.6873
ໃຊ້ວຽກ	-10.6875
ຂອງລັດ	-10.6877
mate	-10.6882
ຈຸລັງ	-10.6886
ໃນການຜະລິດ	-10.6887
▁ປ່ຽນກັບ	-10.689
▁£200	-10.6891
uj	-10.6891
iff	-10.6892
uki	-10.6892
▁Ext	-10.6893
andro	-10.6894
gov	-10.6899
fen	-10.6903
ຄວາມພະຍາຍາມ	-10.6906
▁ຄວາມສາມາດໃນການ	-10.6906
▁Peter	-10.6914
▁Swi	-10.6918
▁Solution	-10.6922
ບໍລິສຸດ	-10.6925
ທ່ານຈະໄດ້ຮັບ	-10.6927
ຜະລິດພັນ	-10.6943
4000	-10.6944
0.3	-10.6956
ນິກ	-10.6957
ໂດຍຜ່ານການ	-10.6958
0.1	-10.6966
▁030	-10.6971
▁Psa	-10.6976
HP	-10.6997
▁XS	-10.7
ແຕກຕ່າງກັນ	-10.7004
fc	-10.7009
iva	-10.7013
▁ໄອ	-10.7014
ລະບົບຕ່ອງໂສ້	-10.7015
ລົດຈັກ	-10.7018
ການຕັ້ງຄ່າ	-10.702
ຂອງນາງ	-10.7021
▁ຕ້ອນ	-10.7028
ທົດລອງ	-10.7028
ເຂັ້ມ	-10.7029
ຫຼຽນ	-10.703
ການເຊື່ອມໂຍງ	-10.703
ສັ່ນສະເທືອນ	-10.703
ເປື້ອນ	-10.703
ທາງສ່ວນຫນ້າຂອງ	-10.703
ລຽບ	-10.703
ໄສ້	-10.703
▁2.6.4.16113	-10.703
▁Filament	-10.703
▁Initiative	-10.703
▁ໂທຣຫາພວກເຮົາ	-10.703
▁Domain	-10.703
ຫມູ່ເພື່ອນ	-10.703
Frozen	-10.703
▁Medical	-10.703
ຂ້າງລຸ່ມນີ້	-10.703
▁protected	-10.703
▁Huawei	-10.7031
▁Penny	-10.7031
▁Social	-10.7031
▁TCP	-10.7031
▁Aprilia	-10.7032
guan	-10.7033
ສິນເຊື່ອ	-10.7033
ນັກລົງທຶນ	-10.7034
ຄລິກ	-10.7034
ໃນໄລຍະຍາວ	-10.7034
▁gold	-10.7036
803	-10.7036
ບ່ອນທີ່	-10.704
▁ໂກງ	-10.7041
ຄຸນລັກສະນະ	-10.7043
wan	-10.7045
▁Slide	-10.7046
ຄູ່ຮ່ວມງານ	-10.7049
▁Reed	-10.705
ມວນ	-10.7051
ຈັດຂຶ້ນ	-10.7055
▁CEO	-10.7057
▁IOS	-10.7059
ney	-10.7061
▁rod	-10.7062
▁Dia	-10.7064
▁Read	-10.7066
ທີ່ທ່ານຕ້ອງການ	-10.7069
hn	-10.7072
▁Rocker	-10.7074
gmail	-10.7087
LY	-10.7088
ສັນຍາລັກ	-10.7093
law	-10.7095
ການປຸງແຕ່ງ	-10.7101
ຫ້ອງນອນ	-10.7104
▁inc	-10.7107
▁Bad	-10.7111
▁Tile	-10.7113
AIR	-10.7117
utter	-10.7122
▁Stop	-10.7127
່ອມ	-10.7127
▁HY	-10.7135
】:	-10.7139
tics	-10.714
▁ການໃຊ້	-10.7144
5.6	-10.7155
ສະຖານະ	-10.7173
▁25%	-10.7173
product	-10.7174
007	-10.7182
Air	-10.7189
ລວມມີ	-10.7191
ປະເພດຂີ້ຝຸ່ນ	-10.7193
mum	-10.7195
4.4	-10.7198
ຂອງຕົນເອງ	-10.7208
ທົບທວນ	-10.7211
Cheng	-10.7214
▁PLA	-10.7223
▁ທໍ່ເຫຼັກ	-10.7225
ພັດທະນາໂດຍ	-10.723
▁Optic	-10.7231
ປືນ	-10.7235
ກໍາເນີດ	-10.7239
▁Gro	-10.724
ລະບາຍ	-10.724
▁ຄົ້ນ	-10.7242
ວຽນ	-10.7242
ຫຸ້ມ	-10.7243
ສະນຸກເກີ	-10.7243
ຫນັງສືຜ່ານແດນ	-10.7243
ຫໍສະຫມຸດ	-10.7243
ແຖວ	-10.7243
▁Energy	-10.7243
▁Membrane	-10.7243
▁Previous	-10.7243
▁Private	-10.7243
▁Purifier	-10.7243
▁CHINA	-10.7243
ຕຶກ	-10.7243
▁Patrick	-10.7243
ຂໍ້ຕົກລົງ	-10.7243
▁ITIL	-10.7243
▁hosting	-10.7243
▁Concept	-10.7243
▁Killer	-10.7243
▁Letter	-10.7243
ຄວາມອາດສາມາດ	-10.7243
▁Malta	-10.7243
▁ຍິ່ງ	-10.7243
▁german	-10.7243
▁Enfield	-10.7243
▁Demo	-10.7244
ຍອດນິຍົມ	-10.7244
▁cardboard	-10.7244
▁money	-10.7245
▁charter	-10.7245
ຮ້ານອາຫານ	-10.7247
▁when	-10.7249
ເຮັດຄວາມສະອາດ	-10.725
ເຫດ	-10.7251
▁0.18	-10.7256
▁leg	-10.7257
tract	-10.7259
fold	-10.7262
free	-10.7263
▁forex	-10.7265
ພາຍໃນປະເທດ	-10.7267
▁Metro	-10.7269
▁ການວາງສະແດງ	-10.727
▁PIE	-10.7273
max	-10.7286
▁80%	-10.7288
ປະຊາ	-10.7293
ບໍ່ພຽງແຕ່	-10.7297
▁Chuan	-10.7298
wear	-10.7306
▁Girls	-10.7307
▁say	-10.731
HAN	-10.731
ີບ	-10.7313
▁Phil	-10.7314
ສະຖານະການ	-10.7314
ຄັດເລືອກ	-10.7314
▁Uni	-10.7318
ika	-10.7325
ໃນເອີຣົບ	-10.7332
▁Gray	-10.7337
ental	-10.7339
▁Class	-10.7346
ກ້າວ	-10.7347
ility	-10.7353
▁his	-10.7354
ປະຈໍາວັນ	-10.7355
▁char	-10.7375
▁File	-10.7378
ຍັງໄດ້	-10.7386
ການຫຼຸດຜ່ອນ	-10.7387
ທ່ານໄດ້	-10.7393
hun	-10.7393
3%	-10.7394
ພວກເຮົາມີ	-10.7402
ທົ່ວ	-10.7408
▁NY	-10.7422
▁Colle	-10.7427
ຟາ	-10.7428
ການສະຫນັບສະຫນູນ	-10.7435
ຂະຫນາດກາງ	-10.7439
ຂອງໂຄງການ	-10.7444
▁Shun	-10.7445
▁Stud	-10.7446
ຫະພາບເອີຣົບ	-10.7449
▁Sky	-10.746
OH	-10.746
ວິໄສທັດ	-10.746
ເອກະລາດ	-10.746
ກຽວ	-10.746
ພີກເຊລ	-10.746
▁Association	-10.746
▁Composite	-10.746
▁Frequency	-10.746
▁HANUMAN	-10.746
▁WeChat	-10.746
▁WebTalK	-10.746
▁altcoin	-10.746
ການຈະລາຈອນ	-10.746
ການແຜ່ກະຈາຍ	-10.746
ຫຸ້ນ	-10.746
▁Decoiler	-10.746
▁People	-10.746
ສະໂມສອນ	-10.746
▁Gallery	-10.746
▁should	-10.746
▁support	-10.746
Ribbon	-10.746
▁WebTK	-10.746
▁nylon	-10.746
▁Brown	-10.746
▁ເຍຍ	-10.746
ປະຊາກອນ	-10.746
▁class	-10.7461
ລວດຕາຂ່າຍ	-10.7461
ທ໌	-10.7461
▁tips	-10.7461
▁Valley	-10.7461
▁Candle	-10.7461
ເທື່ອ	-10.7461
ເຣັກ	-10.7461
ພຽງພໍ	-10.7461
▁piano	-10.7461
▁Longgang	-10.7461
▁Without	-10.7462
ເຕັກນິກ	-10.7462
▁ຕອບຫຼ້າສຸດ	-10.7463
OWER	-10.7464
▁Tips	-10.7464
▁cyclone	-10.7465
6%	-10.7466
ແກັດ	-10.7468
▁foil	-10.7468
▁ວັນອາທິດ	-10.7469
▁tower	-10.747
ປະທານອາຫານ	-10.7471
3.5	-10.7471
▁DRK	-10.7474
ces	-10.7476
ຍິນດີຕ້ອນຮັບ	-10.7476
▁VCI	-10.7477
▁there	-10.7479
▁Study	-10.7481
ນາທີ	-10.7481
▁Training	-10.7485
▁want	-10.7491
ຕອນນີ້	-10.7496
▁Resi	-10.75
ູ້	-10.7501
Bank	-10.7501
▁Fo	-10.7505
▁chip	-10.7507
▁ເຄື່ອງເຮັດ	-10.7509
▁cage	-10.7509
ເຫຼັກກາກບອນ	-10.7511
▁ວິນ	-10.7528
php	-10.7537
ລັງ	-10.7539
▁take	-10.754
ການວິເຄາະ	-10.7556
ດູ	-10.7568
127	-10.7581
▁635	-10.759
cia	-10.759
▁ຊື່ຜະລິດຕະພັນ	-10.7595
▁Hill	-10.7601
130	-10.7604
ຕາມຄວາມຕ້ອງການ	-10.7608
ຄວາມເຂົ້າໃຈ	-10.7612
▁GU	-10.7623
ການວາງແຜນ	-10.7637
▁!!	-10.7641
ຮອງ	-10.7648
▁Spins	-10.7648
ສໍາລັບຜູ້	-10.7654
ທິດທາງ	-10.7655
▁CES	-10.7658
ຕໍ່ປີ	-10.7658
▁ຕໍ	-10.766
HK	-10.7668
ແມ	-10.7673
ove	-10.7674
ເຊົ້າ	-10.7674
ສົ້ມ	-10.7679
uses	-10.768
ຈົບ	-10.7681
ว	-10.7682
ອອກກໍາລັງກາຍ	-10.7682
ເຕີບໂຕ	-10.7682
д	-10.7682
ລະເຫີຍ	-10.7682
ສະຖຽນລະພາບ	-10.7682
ເດືອນສິງຫາ	-10.7682
ເຕົ່າ	-10.7682
ແນວໂນ້ມ	-10.7682
ແລະມີຄົນຫຼິ້ນໃນ	-10.7682
▁BORDER	-10.7682
▁Embroidery	-10.7682
▁HTML	-10.7682
▁Rokytnice	-10.7682
▁Skateboard	-10.7682
▁Yuyao	-10.7682
▁brushless	-10.7682
▁shelf	-10.7682
▁ຈຸດເດັ່ນ	-10.7682
▁ຕົມ	-10.7682
🔥	-10.7682
192.168.	-10.7682
ы	-10.7682
ໂອລິມປິກ	-10.7682
à	-10.7682
ເດືອນເມສາ	-10.7682
▁Focus	-10.7682
▁Health	-10.7682
▁ຈາກຫຼືໄປ	-10.7682
▁Drawing	-10.7682
▁SHOW	-10.7682
ການປະມູນ	-10.7682
▁});	-10.7682
▁LIVE	-10.7682
▁chloride	-10.7682
▁equine	-10.7682
▁ECHO	-10.7683
ຂຸດເຈາະ	-10.7683
▁Rangers	-10.7683
▁Lady	-10.7683
ຮ່ອງກົງ	-10.7683
▁Pouch	-10.7683
່ວງ	-10.7684
▁Jiang	-10.7684
▁help	-10.7684
▁RFID	-10.7684
▁1.4	-10.7684
▁every	-10.7685
▁ກວດເບິ່ງ	-10.7685
▁Brass	-10.7686
ປະຕູຮົ້ວ	-10.7688
ຜົນສໍາເລັດ	-10.7689
▁CHAMPIONSHIPS	-10.769
ອາຫານເຊົ້າ	-10.7691
303	-10.7691
▁Land	-10.7692
ທາງເພດ	-10.7694
ແຊກ	-10.7698
▁ດຽວນີ້	-10.77
ໂທລະທັດ	-10.77
▁ແມ່ນຖືກຕ້ອງ	-10.7701
▁Bone	-10.7703
▁Peach	-10.7703
▁full	-10.7707
▁Miss	-10.7708
▁Shop	-10.7711
ໂດລາ	-10.7712
Unthank	-10.7713
lle	-10.7714
	-10.7715
ລາຍຊື່	-10.7715
ອາຄານ	-10.7715
▁ການທົບທວນ	-10.7715
ໂຮງ	-10.7717
Up	-10.7718
▁Alex	-10.7718
▁Deep	-10.7719
stock	-10.772
008	-10.7727
ubb	-10.7728
▁doll	-10.7728
ທີມ	-10.7742
222	-10.7742
ຮາກ	-10.7743
ມໍ	-10.7743
▁Blast	-10.7745
berry	-10.7747
▁APP	-10.7747
▁than	-10.7752
ຫັດ	-10.7761
▁86-13	-10.7782
▁Your	-10.7783
ບໍ່ເຄີຍ	-10.7786
ິບ	-10.7789
ທີ່ມີຊີວິດ	-10.7795
oney	-10.7806
▁India	-10.781
9.99	-10.781
▁Hole	-10.7812
▁Dryer	-10.7825
ນໍາເຂົ້າ	-10.7844
▁plan	-10.7846
ປື້ມບັນ	-10.7851
Sho	-10.7853
6.2	-10.7858
ເລຍ	-10.7859
▁2030	-10.7861
jia	-10.7862
▁ພວກເຮົາສາມາດ	-10.7871
▁1600	-10.7889
▁Start	-10.7889
graph	-10.7893
ເຍ	-10.7896
ົ່ວ	-10.7902
▁ໂປຣ	-10.7909
ອູແກຣນ	-10.791
▁ອອນໄລນ	-10.791
ก	-10.791
Asbestos	-10.791
ຍົກເລີກ	-10.791
▁December	-10.791
▁Florida	-10.791
▁Inductor	-10.791
▁Thomas	-10.791
▁coffee	-10.791
▁eBook	-10.791
▁halloween	-10.791
▁ເພິ່ມ	-10.791
◆	-10.791
commerce	-10.791
ທ້າທາຍ	-10.791
▁sensor	-10.791
โ	-10.791
ໃນຕອນກາງຄືນ	-10.791
▁Rabies	-10.791
▁Alpha	-10.791
▁HBOT	-10.791
▁Cisco	-10.791
ວິທະຍາເຂດ	-10.791
▁single	-10.791
▁series	-10.791
▁ສື່ສັງຄົມ	-10.7911
▁ຜົງດິບ	-10.7911
▁Deals	-10.7911
body	-10.7911
▁Selfie	-10.7911
ູ່	-10.7912
▁Lucks	-10.7912
▁iphone	-10.7912
ຮ່ວມເພດ	-10.7913
▁ເນື່ອງຈາກວ່າ	-10.7914
▁ຕອບທີ່ຢູ່	-10.7914
ຈອດ	-10.7916
▁ຂາຍແລ້ວ	-10.7918
ປະຕິວັດລາວ	-10.7919
Element	-10.7919
ຕິດຕາມກວດກາ	-10.792
ຫຼວງ	-10.792
▁ເຢ	-10.7922
▁Cleaning	-10.7923
▁Saga	-10.7924
nny	-10.7926
ຊໍາ	-10.7926
12345	-10.7927
ified	-10.7934
▁ລະຫັດສິນຄ້າ	-10.794
tru	-10.7953
ໄຮໂດລິກ	-10.7956
ກະເປົາ	-10.7956
ສັງກະສີ	-10.7956
ຕາຫນ່າງ	-10.7956
ພຣະ	-10.7957
ເຄື່ອງນຸ່ງຫົ່ມ	-10.7958
▁Bolt	-10.7958
ension	-10.796
olo	-10.7964
not	-10.7969
▁Shen	-10.7975
point	-10.7988
▁Mont	-10.7988
ຫຼາກຫຼາຍ	-10.7989
▁2.2	-10.7996
▁++	-10.8003
ເປັນຫຍັງ	-10.8006
ສະສົມ	-10.801
ສະຫນອງໃຫ້	-10.801
▁Fort	-10.8016
▁Milling	-10.8019
▁site	-10.8019
Asia	-10.8019
ປະກົດ	-10.8021
ເປັນມືອາຊີບ	-10.8022
CAD	-10.8024
▁ວັ	-10.8045
8.5	-10.805
▁part	-10.8053
ໄດ້ເລີ່ມຕົ້ນ	-10.8058
flu	-10.8061
ລົງທຶນ	-10.8076
sible	-10.8078
hou	-10.8079
ຜິດພາດ	-10.8089
nom	-10.809
▁DNS	-10.8097
qi	-10.8099
ຮູບລັກສະນະ	-10.81
▁ZM	-10.8103
255	-10.8112
ເປັນຮູບ	-10.8119
ht	-10.812
▁ໄຟລ	-10.8126
ກວ້າງຂວາງ	-10.814
ກໍາຫນົດ	-10.814
▁ລຸ	-10.8141
ຮຽກຮ້ອງ	-10.8142
ກະປ໋ອງ	-10.8142
ແຈກຢາຍ	-10.8142
ແຫລ່ງ	-10.8142
esulphurization	-10.8142
ກໍາປູເຈຍ	-10.8142
ຈົນກ່ວາ	-10.8142
ອັນຕະລາຍ	-10.8142
ແທັບເລັດ	-10.8142
ແຫຼວ	-10.8142
▁Capacitor	-10.8142
▁Petersburg	-10.8142
▁features	-10.8142
▁pixels	-10.8142
▁ນົກ	-10.8142
ງົບປະມານ	-10.8142
▁ເຕິມ	-10.8142
▁Adobe	-10.8142
ພຣະຜູ້ເປັນເຈົ້າ	-10.8142
▁Directory	-10.8142
Methyl	-10.8142
▁Laminate	-10.8142
▁Protector	-10.8142
▁shaft	-10.8143
▁Pharma	-10.8143
▁Geocon	-10.8143
▁photo	-10.8143
▁Zhenhai	-10.8143
▁Search	-10.8143
▁TGG	-10.8143
▁April	-10.8144
ability	-10.8144
ACT	-10.8144
▁ຕິດຕໍ່ພົວພັນ	-10.8144
ຫາຍໃຈ	-10.8144
▁URL	-10.8144
ເກີດຂື້ນ	-10.8145
▁ຫນົມ	-10.8147
ແທນທີ່ຈະ	-10.8148
omics	-10.8148
▁Shock	-10.8149
▁Streaming	-10.8149
▁Short	-10.8149
▁ສະຫະພາບເອີຣົບ	-10.8154
ຊ້າງ	-10.8154
ຕັດສິນ	-10.8159
▁Base	-10.816
bil	-10.8164
▁today	-10.8165
▁Prep	-10.8165
power	-10.8165
ສໍາລັບເດັກນ້ອຍ	-10.8168
ພັກປະຊາຊົນ	-10.8172
ຫລັບ	-10.8174
▁Pulsed	-10.8174
▁Decal	-10.8179
▁Thor	-10.819
unny	-10.8192
▁90%	-10.8192
ຈໍ	-10.8199
ຮົ້ວ	-10.82
ໃຫ້ເຂົາເຈົ້າ	-10.8202
ພ້ອມດ້ວຍ	-10.8203
ເຄື່ອງສໍາອາງ	-10.8205
ເຂົ້າສູ່ລະບົບ	-10.8206
ua	-10.8207
ສິນ	-10.8207
Player	-10.8208
▁Linear	-10.8209
ນິ້ວ	-10.8209
ການຕະຫຼາດ	-10.8209
-201	-10.8211
▁ທີ່ນີ້	-10.8217
▁test	-10.8218
▁ແລະໂຮງງານຜະລິດ	-10.8222
2.2	-10.8222
ທີ່ປຶກສາ	-10.8223
here	-10.823
ທີ່ດີທີ່ສຸດຂອງ	-10.8232
ແນະນໍາໃຫ້	-10.8236
▁Bao	-10.8239
ມີປະສົບການ	-10.8242
▁Step	-10.8244
ດອກ	-10.8246
▁More	-10.8246
ໍ່	-10.8258
ຕໍ່ຕ້ານ	-10.8259
7-2	-10.8261
▁add	-10.827
had	-10.827
▁Window	-10.8275
ປົກປ້ອງ	-10.8295
ເຄື່ອນໄຫວ	-10.8302
ມີຄວາມເຂັ້ມແຂງ	-10.8303
xiang	-10.8305
ແລະຄວາມຕ້ອງການ	-10.8332
ຄວາມຮັບຜິດຊອບ	-10.8338
ບັງ	-10.8342
OUT	-10.8343
▁5.5	-10.8355
cz	-10.836
▁(5)	-10.8361
MU	-10.8367
ແມ່ນຫຍັງ	-10.8373
▁ໃສ	-10.8378
▁plus	-10.8379
ล	-10.838
ກັງວົນ	-10.838
ບັນເທີງ	-10.838
ສະເຫຼີມສະຫຼອງ	-10.838
ເຂົ້າຫນົມອົມ	-10.838
Midwest	-10.838
peptide	-10.838
ເກືອບທຸກຮູບຮ່າງ	-10.838
▁Dariussssss	-10.838
▁Guzzi	-10.838
▁Melbourne	-10.838
▁Walmart	-10.838
▁jailbreak	-10.838
▁ທ້າວ	-10.838
▁ຟລີໂຄ້ດ	-10.838
	-10.838
ທູດ	-10.838
▁Therapy	-10.838
▁ກິໂລແມັດ	-10.838
▁ຜິດຖຽງດາວ	-10.838
▁Anchor	-10.838
▁Yinzhou	-10.838
▁Silver	-10.838
▁National	-10.838
▁Lotus	-10.838
city	-10.8381
▁York	-10.8381
church	-10.8381
▁hyper	-10.8381
▁Controller	-10.8382
Davidson	-10.8382
▁Large	-10.8383
fiber	-10.8383
▁mount	-10.8383
ຜູກ	-10.8384
▁MOQ	-10.8384
▁ແຜ່ນມຸງ	-10.8384
▁ຕົນ	-10.8384
▁Baby	-10.8385
▁drum	-10.8388
▁ສາຍການໃຫ້ອາຫານ	-10.839
▁0086-57	-10.839
▁alto	-10.8393
▁ຄໍາອະທິບາຍ	-10.8393
▁hover	-10.8394
ency	-10.8396
▁Dollar	-10.84
▁ຊີ້ນ	-10.8401
▁Teen	-10.8402
▁ກົດເບິ່ງ	-10.8402
▁PJS	-10.8408
1-5	-10.8414
▁ECN	-10.8415
ໂທລະເລກ	-10.8419
▁86-574-8	-10.8422
▁Billing	-10.8426
▁Hero	-10.8426
ອິນເດຍ	-10.8426
xbet	-10.8428
▁big	-10.8431
▁Radio	-10.8434
▁JT	-10.8438
IST	-10.8447
ເດັກຍິງ	-10.8448
▁\(	-10.8449
ສົບຜົນສໍາເລັດ	-10.8449
ພາສາລາວ	-10.8456
ການກະກຽມ	-10.8456
▁188	-10.8457
ຕຸລາ	-10.8458
omo	-10.8461
ຂ້າ	-10.8461
ດໍາລົງຊີວິດ	-10.8462
ແມ່ນຢູ່ໃນ	-10.8466
▁777	-10.8467
ຕ່ໍາສຸດ	-10.8472
ເຂດພື້ນທີ່	-10.8474
ຮັບຮອງເອົາ	-10.8478
casino	-10.8482
ສາກ	-10.8487
▁ZY	-10.849
ແບບບໍ່ມີ	-10.8491
ເຊີນ	-10.8501
▁Our	-10.8504
hack	-10.8504
wei	-10.8513
▁Aqua	-10.8519
ິ່ນ	-10.8521
▁Inch	-10.8525
BI	-10.8532
▁Martin	-10.8532
ເນີ	-10.8533
rance	-10.8535
▁Rose	-10.8544
▁sale	-10.8547
itz	-10.8552
ຄວາມຕ້ອງການຂອງ	-10.8552
heng	-10.8558
ຄວາມຫມາຍ	-10.8564
1-4	-10.8564
ແທ້ຈິງ	-10.8588
▁Rui	-10.8597
▁Tours	-10.8606
950	-10.8617
325	-10.8623
▁ຫມໍ	-10.8623
ຄາບອນ	-10.8624
б	-10.8624
ຢ່າງເຕັມສ່ວນ	-10.8624
ຫມໍ້ຫຸງຕົ້ມ	-10.8624
ຄອນກີດ	-10.8624
ຈັນຍາບັນ	-10.8624
ຖາວອນ	-10.8624
ເຄື່ອນຍ້າຍ	-10.8624
ເຫຼົ້າ	-10.8624
▁Asphalt	-10.8624
▁BANGKOK	-10.8624
▁Kharkiv	-10.8624
▁September	-10.8624
▁people	-10.8624
▁ບ່ອນຈອດລົດ	-10.8624
▁ວັນພຸດ	-10.8624
ການໂຕ້ຕອບ	-10.8624
▁Bioproducts	-10.8624
▁Inkjet	-10.8624
▁WinRAR	-10.8624
Ö	-10.8624
ຜູ້ຊົມໃຊ້	-10.8624
▁Fitness	-10.8624
▁Somphone	-10.8624
▁course	-10.8624
▁resources	-10.8624
▁Broker	-10.8624
▁Voice	-10.8624
youtube	-10.8624
▁FIDH	-10.8624
▁Spider	-10.8624
▁Jumper	-10.8624
▁Cordura	-10.8624
ການເລືອກຕັ້ງ	-10.8624
ຖ່ານ	-10.8624
▁Cinema	-10.8624
▁Harem	-10.8625
▁account	-10.8625
▁ultra	-10.8625
▁Proxy	-10.8625
ໃນປະເທດໄທ	-10.8625
▁static	-10.8625
▁Sports	-10.8625
▁ລ້ານໂດລາ	-10.8625
▁ງໍ	-10.8626
▁ຊ່າງ	-10.8626
▁Compact	-10.8627
▁Cabin	-10.8628
▁unlock	-10.8629
ຄວາມແມ່ນຍໍາສູງ	-10.863
▁Brand	-10.8631
▁ເຄື່ອງພິມກາເຟ	-10.8632
ທຸກປະເພດຂອງ	-10.8637
ທີ່ເຮັດວຽກ	-10.8639
ແຕະ	-10.864
avo	-10.8642
▁Tattoostattoos	-10.8642
ບອດ	-10.8643
ແຜນງານ	-10.8643
▁Grill	-10.8644
ບັນຈຸພັນ	-10.8646
ມີຢູ່ໃນ	-10.8653
▁now	-10.8654
▁sight	-10.8654
▁0086	-10.8655
507	-10.8663
▁Room	-10.8666
▁Jinan	-10.8666
6.3	-10.8668
▁ຂະຫນາດຫນຶ່ງ	-10.8674
ຄັງ	-10.8677
ການຂຽນ	-10.8683
▁ການເຊື່ອມ	-10.8685
ໄຮໂດຼລິກ	-10.8685
▁nitr	-10.8686
edici	-10.8687
ມັງກອນ	-10.8688
▁ສອບຖາມຂໍ້ມູນ	-10.8689
▁Oil	-10.8692
rui	-10.8692
▁HTC	-10.8695
▁Rail	-10.8703
ຄານ	-10.8703
ນິດ	-10.8705
▁Ever	-10.8709
▁Extensions	-10.8712
▁Life	-10.8713
▁2.3	-10.8714
ແຂ່ງຂັນ	-10.8719
▁OP	-10.8721
aster	-10.8724
▁FR	-10.8728
4.8	-10.8732
ຂຶ້ນກັບ	-10.8734
Par	-10.8738
ເວັບໄຊຕ໌	-10.8738
707	-10.8742
ບໍ່ດີ	-10.8747
ເຄື່ອງພິມດິຈິຕອນ	-10.8749
159	-10.8756
spir	-10.8768
ERS	-10.8772
luck	-10.8773
▁ios	-10.8777
▁Ol	-10.8795
▁Abu	-10.8817
ula	-10.883
▁Cover	-10.8831
ຕຸ	-10.8835
5.2	-10.8837
ວາງສະແດງ	-10.8844
850	-10.885
ລະບົບການ	-10.8851
metal	-10.8863
ການຄາດຄະເນ	-10.8865
ໂຮ	-10.887
search	-10.8873
▁ທົດ	-10.8873
ໃດກໍ່ຕາມ	-10.8873
ຕາຂ່າຍ	-10.8874
.05.2018	-10.8874
å	-10.8874
ກ໊າຊ	-10.8874
ປັດໄຈ	-10.8874
ອາພາດເມັນ	-10.8874
ເທກນິກ	-10.8874
ເພີດເພີນ	-10.8874
້ຽວ	-10.8874
▁(2014)	-10.8874
▁Beroean	-10.8874
▁Gelatin	-10.8874
▁Gibbs	-10.8874
▁Nickelodeon	-10.8874
▁Pickets	-10.8874
▁Rainbow	-10.8874
▁Thunderstruck	-10.8874
▁Vertical	-10.8874
▁corrosion	-10.8874
▁prototype	-10.8874
▁through	-10.8874
▁ຈອງຕົ໋ວ	-10.8874
ບັນນາທິການ	-10.8874
ພິພິທະພັນ	-10.8874
ແຍກຕ່າງຫາກ	-10.8874
▁Zombie	-10.8874
ປຶ້ມ	-10.8874
▁profile	-10.8874
ຊຸບ	-10.8874
▁Meleti	-10.8874
ເຄື່ອງປັບອາກາດ	-10.8874
public	-10.8874
▁[...]	-10.8874
▁Remote	-10.8875
▁Javascript	-10.8875
ຫລັງຄາ	-10.8875
ສ້າງຕັ້ງຂື້ນ	-10.8875
▁ການສົ່ງເສີມການ	-10.8876
▁rec	-10.8876
▁Pants	-10.8876
▁month	-10.8877
▁Spool	-10.8879
ພະນັນ	-10.8879
ຟາຍ	-10.8879
.03.20	-10.8879
ຮອຍ	-10.888
ແຂກ	-10.888
ເລັ່ງ	-10.888
ວິຊາຊີບ	-10.888
043	-10.8881
▁Decker	-10.8882
▁villa	-10.8882
studio	-10.889
ຜົນກະທົບຕໍ່	-10.889
ຕອງ	-10.8891
▁Reader	-10.8898
▁Fly	-10.8903
rpm	-10.8905
▁Swing	-10.891
space	-10.8917
ໃນເວລາທີ່ທ່ານ	-10.8918
fort	-10.892
ຂອງເດັກນ້ອຍ	-10.8924
Region	-10.8928
▁ESD	-10.8934
ສະກູ	-10.8935
▁(3.5	-10.8942
ການຊອກຫາ	-10.8951
ທີ່ສົມບູນແບບແລະ	-10.8952
Bags	-10.8956
▁Fix	-10.8959
ການເຂົ້າ	-10.8959
163.	-10.8963
ໃນອະນາຄົດ	-10.8964
109	-10.898
▁ເປັນບໍລິສັດ	-10.8986
▁2020]	-10.8992
ການປົກຫຸ້ມຂອງ	-10.8995
ໃນແຕ່ລະ	-10.8997
▁ມີດ	-10.9002
▁ພວກເຮົາມີຄວາມ	-10.9003
ອອກມາ	-10.902
▁Wang	-10.9029
▁may	-10.9029
1200	-10.9029
ຄວາມຫນາ	-10.9031
ທີ່ທ່ານສາມາດ	-10.9038
610	-10.9044
270	-10.9051
▁ຜູ້ຂາຍ	-10.9062
ອ່ານຕໍ່	-10.9072
ຜົນໄດ້ຮັບ	-10.9075
▁15%	-10.9083
▁ປ້າຍໂຄສະນາ	-10.9084
Logo	-10.9086
fill	-10.9089
▁256	-10.909
itation	-10.9094
ທີ່ໃຊ້ໃນ	-10.9117
▁8.2.3	-10.9123
2,000	-10.9124
ປະຫວັດ	-10.913
ا	-10.913
어	-10.913
ม	-10.9131
ລໍຖ້າ	-10.9131
ຫລ້າສຸດ	-10.9131
ອິນໂດເນເຊຍ	-10.9131
▁MACHINE	-10.9131
Sprinkler	-10.9131
ซ	-10.9131
ມາເລເຊຍ	-10.9131
ສະທ້ອນ	-10.9131
ຫລິ້ນ	-10.9131
ເບຢ້ຽມ	-10.9131
ເສັ້ນດ້າຍ	-10.9131
▁770-872-7978	-10.9131
▁Bajaj	-10.9131
▁CAPTCHA	-10.9131
▁Ethernet	-10.9131
▁JavaScript	-10.9131
▁Minneapolis	-10.9131
▁Multifunctional	-10.9131
▁Vivlon	-10.9131
▁mFortune	-10.9131
▁pizza	-10.9131
▁scratch	-10.9131
▁ນໍາທິດສະນີ	-10.9131
▁(2012)	-10.9131
▁Seamless	-10.9131
▁ມົນທົນກວາງຕຸ້ງ	-10.9131
▁LASER	-10.9131
▁stairs	-10.9131
▁Visual	-10.9131
ommerical	-10.9131
ເງິນກູ້	-10.9131
▁TEAM	-10.9131
▁ເທົາ	-10.9131
▁ComPro	-10.9131
ິດທິພາບສູງ	-10.9131
▁ເງື່ອນ	-10.9131
school	-10.9131
▁Denim	-10.9131
▁JPG	-10.9131
ຜູກມັດ	-10.9131
▁Modular	-10.9131
▁ເສື້ອຍືດ	-10.9132
▁PFS	-10.9132
ອົງກອນ	-10.9132
▁Foshan	-10.9132
Module	-10.9132
▁Dtg	-10.9132
ທາງດ້ານກົດຫມາຍ	-10.9132
ລະບາຍຄວາມຮ້ອນ	-10.9132
▁Loose	-10.9133
▁Battle	-10.9133
▁SALE	-10.9133
▁Style	-10.9135
▁Lathe	-10.9135
▁Rule	-10.9136
▁ເລືອກເດືອນ	-10.9137
▁just	-10.9138
▁Flute	-10.9138
▁Jerry	-10.9138
▁review	-10.9139
GPRS	-10.914
ຟອກ	-10.914
3]:	-10.9142
ການຮັບ	-10.9145
ເດຍ	-10.9146
▁cool	-10.915
▁only	-10.915
ເພື່ອສ້າງ	-10.915
▁ຫນ້າຫຼັກ	-10.9151
▁ຂ້າພະເຈົ້າໄດ້	-10.9154
▁Foil	-10.9155
ະຫນັບສະຫນູນການໂທ	-10.9157
▁ການສໍາພາດ	-10.9159
obi	-10.916
ຮູບແຕ້ມ	-10.9161
ຂັ້ນສູງ	-10.9163
ໄຊຊະນະ	-10.9164
▁coll	-10.9169
▁Copper	-10.9172
▁spin	-10.9172
2-8	-10.9175
ການຊື້	-10.9178
ການຈ່າຍເງິນ	-10.918
▁Eye	-10.9181
ແຜ່ນເຫຼັກ	-10.9185
fall	-10.9187
213	-10.9188
ຮັບເອົາ	-10.9192
(12)	-10.9196
▁anti	-10.9205
▁Adv	-10.9212
1,9	-10.9212
ຄວາມສູງ	-10.9216
▁him	-10.9224
ປະຕິ	-10.9225
ສະແກນ	-10.9232
ທີ່ດີກວ່າ	-10.9246
390	-10.9247
ເປັນເຈົ້າຂອງ	-10.9261
ຄວາມບໍລິສຸດ	-10.9263
3-4	-10.9264
ຢືນ	-10.9267
ທ້າຍ	-10.9269
ເຕົາອົບ	-10.9273
ເຮັດໃຫ້ມີແສງ	-10.9273
▁Archive	-10.9273
▁Blu	-10.9274
ການສະກົດຈິດ	-10.9274
ຄວາມສະອາດ	-10.9275
ຄຸນນະສົມບັດ	-10.9275
Model	-10.9275
ສື່	-10.9278
ຂວດ	-10.9278
▁Mix	-10.9279
ເຄື່ອງປະດັບ	-10.9279
exe	-10.929
282	-10.929
ໂມ້	-10.9302
ຢ້ຽມຢາມ	-10.9309
step	-10.9326
ແລະການປັບປຸງ	-10.9327
ການໂອນ	-10.933
fre	-10.9331
855	-10.9332
ເຣ	-10.9339
DU	-10.9354
▁0086-13	-10.9369
▁sex	-10.9377
ປະກັນໄພ	-10.9386
ເຜົາ	-10.939
ສະຫນາມ	-10.9392
XCHARX	-10.9394
ຂີ້ເຜີ້ງ	-10.9394
ດ່ຽວ	-10.9394
ຊີວະພາບ	-10.9394
ປະລິນຍາຕີ	-10.9394
ວັນເດືອນປີເກີດ	-10.9394
ສໍາຜັດ	-10.9394
ເສັ້ນຜ່າກາງ	-10.9394
ແບດເຕີລີ່	-10.9394
ໄລຍະໄກ	-10.9394
▁Antenna	-10.9394
▁Biodegradable	-10.9394
▁League	-10.9394
▁Molecular	-10.9394
▁PlayStation	-10.9394
▁Regulator	-10.9394
▁Smelting	-10.9394
▁Synthetic	-10.9394
▁litecoin	-10.9394
▁trolley	-10.9394
▁ຕົວຂຶ້ນໄປຈໍານວນ	-10.9394
▁ສວນສະຫນຸກ	-10.9394
ພັຍ	-10.9394
ລ່ວງຫນ້າ	-10.9394
▁Liquid	-10.9394
▁STEEL	-10.9394
▁Scratch	-10.9394
▁powder	-10.9394
▁Agusta	-10.9394
▁Audio	-10.9394
▁Disney	-10.9394
▁Friday	-10.9394
▁Shadow	-10.9394
ຄົນເຈັບ	-10.9394
▁Tribal	-10.9394
▁Admission	-10.9394
▁Nozzle	-10.9394
Arabic	-10.9394
▁HTTP	-10.9394
▁Trailer	-10.9394
ຈໍສະແດງຜົນ	-10.9394
▁Jesus	-10.9394
ໄດ້ຍິນ	-10.9394
▁ມຸງຫລັງຄາ	-10.9394
ກ້າວຫນ້າທາງດ້ານ	-10.9394
▁Zhongtai	-10.9394
▁Stamping	-10.9394
▁GALA	-10.9394
▁Transfer	-10.9395
▁ຂ່າຍ	-10.9396
▁Laura	-10.9396
pdf	-10.9396
▁ບານວາວ	-10.9397
▁Christian	-10.9397
▁CCC	-10.9398
ລິການຫລັງການຂາຍ	-10.9399
▁cutter	-10.94
ຜູ້ຊ່ຽວຊານດ້ານ	-10.94
▁Shaft	-10.94
▁+/-	-10.94
▁ແມ່ແບບ	-10.9401
▁ປວດ	-10.9401
▁Spark	-10.9403
▁ແຮງດັນສູງ	-10.9404
▁promo	-10.9407
ສິດທິໃນການ	-10.9411
▁views	-10.9414
▁ເຄື່ອງຫຼີ້ນ	-10.9414
8%	-10.9415
eve	-10.942
ກ່ຽວຂ້ອງ	-10.9421
▁Ferry	-10.9421
ຂໍ້ມູນກ່ຽວກັບ	-10.9422
▁Tracker	-10.9425
Sept	-10.9426
▁95%	-10.9433
▁ເຄື່ອງພິມແບບ	-10.9436
▁Nano	-10.9443
ປ້າຍໂຄສະນາໂດຍ	-10.9444
ກອງປະຊຸມໃຫຍ່	-10.9452
▁Carl	-10.9453
equi	-10.946
ün	-10.9473
ເຂົາເຈົ້າ	-10.9478
ຖ້າຫາກວ່າ	-10.9488
ນອງ	-10.9494
701	-10.9498
master	-10.9504
ກູ	-10.9509
ເຄື່ອງເປົ່າ	-10.951
bike	-10.9523
ຈື່	-10.9532
ແດງ	-10.9536
128	-10.9537
▁If	-10.954
▁1300	-10.9546
▁86-0	-10.9553
CHF	-10.9553
ວີດີໂອ	-10.9559
JPY	-10.9559
Blythe	-10.9561
width	-10.9561
ດາວນ໌ໂຫລດ	-10.9562
1-1	-10.9564
ອະນາຄົດ	-10.9568
ກົນ	-10.9568
lance	-10.9582
▁deal	-10.9584
ເຕີມ	-10.9585
9.1	-10.9591
ເພື່ອໃຫ້ໄດ້ຮັບ	-10.9593
ກະດານແມ່ເຫຼັກ	-10.9594
ເງິນທີ່ແທ້ຈິງ	-10.9596
ລິດ	-10.9605
▁find	-10.9616
ຄົນຂັບ	-10.962
ຕະຫລາດ	-10.9643
hq	-10.9646
ສອບເສັງ	-10.965
iga	-10.965
▁doc	-10.9652
▁Coffe	-10.9653
ແຜ່	-10.9654
▁Brazil	-10.9662
ໄຫລ່	-10.9663
ຄູຝຶກ	-10.9664
я	-10.9664
ປອກຕຸຍການ	-10.9664
ພູມສັນຖານ	-10.9664
generateur	-10.9664
ສະວິດເຊີແລນ	-10.9664
ອະສັງຫາລິມະສັບ	-10.9664
ອາຊຽນ	-10.9664
ອາລູມີນຽມ	-10.9664
▁86-755-	-10.9664
▁Community	-10.9664
▁Halloween	-10.9664
▁Tailoress	-10.9664
▁Toshiba	-10.9664
▁available	-10.9664
▁iTunes	-10.9664
▁luxury	-10.9664
▁raillynews	-10.9664
▁ຍ້າຍໄປລະບົບ	-10.9664
п	-10.9664
ອາໃສ	-10.9664
ເຄື່ອງໃຊ້ໃນບ້ານ	-10.9664
ໂຮງງານຕັດຫຍິບ	-10.9664
▁Carbide	-10.9664
▁Shipping	-10.9664
▁nozzle	-10.9664
.10.2018	-10.9664
ບ້ວງ	-10.9664
▁NORTH	-10.9664
▁Ankara	-10.9664
ໄອແລນ	-10.9664
▁EMBA	-10.9664
▁Yoga	-10.9664
ການດູດຊຶມ	-10.9664
▁Jumma	-10.9664
▁cloud	-10.9664
▁Broad	-10.9664
▁Cyber	-10.9664
▁Monster	-10.9664
▁mixer	-10.9664
▁Temple	-10.9664
▁ເນີດ	-10.9665
▁Horizontal	-10.9665
ຫຼັກຖານສະແດງ	-10.9665
▁ສ້າງແບບຈໍາລອງ	-10.9665
▁kids	-10.9665
,00€	-10.9665
▁Waterproof	-10.9665
christ	-10.9665
▁quote	-10.9665
ທາງດ້ານການເງິນ	-10.9665
ເຊື່ອຖື	-10.9665
▁ເງິນຝາກຄໍາວ່າ	-10.9666
▁Huizhou	-10.9666
▁FOB	-10.9666
▁Bingo	-10.9666
position	-10.9666
ແຂງແຮງ	-10.9666
ັງວ່າຈະຮ່ວມມືກັບ	-10.9667
▁Sony	-10.9668
▁scene	-10.9668
ການຕໍ່ຕ້ານ	-10.9669
}}	-10.967
ພາກເຫນືອ	-10.9671
ເຮັດດ້ວຍ	-10.9672
▁hora	-10.9672
▁Lego	-10.9673
aven	-10.9673
▁ສອບ	-10.9673
▁Santa	-10.9674
ນ້ໍາຖ້ວມ	-10.9675
▁Chair	-10.9675
(33)	-10.9676
▁Zhang	-10.9676
isabled	-10.9677
ຫຸ້ມຫໍ່	-10.9677
▁Steam	-10.9677
▁Cleaner	-10.9679
ການປ່ອຍ	-10.9679
▁Heater	-10.9681
▁ເລືອກປະເພດ	-10.9682
CKP	-10.9683
▁Sharp	-10.9684
▁7000	-10.9686
engyuan	-10.9686
▁1998	-10.9688
▁Plugin	-10.9689
plas	-10.9694
ປະກອບສ່ວນ	-10.9694
▁cost	-10.9698
ify	-10.97
uangjian	-10.9703
▁SEO	-10.9703
▁Iq	-10.9703
watch	-10.9704
triche	-10.9705
ເປັນຈິງ	-10.9711
ບັນດາປະເທດ	-10.9714
▁Sheng	-10.9717
▁Printed	-10.9726
KGS	-10.9727
ການສົ່ງອອກ	-10.9735
EMI	-10.9753
▁**	-10.9754
▁Api	-10.9771
▁Nico	-10.9773
ລຸນ	-10.9786
▁Jiao	-10.9795
ໃນເມືອງ	-10.9797
ສິ່ງນີ້	-10.9801
▁fac	-10.981
▁Fuse	-10.9827
Plane	-10.983
ດິບ	-10.9833
▁Saw	-10.9845
ບໍ່ຖືກຕ້ອງ	-10.985
ວັນຄຣິດສະມາດ	-10.9853
ອົດສະຕາລີ	-10.9853
້ຍ	-10.9854
ຄວາມຫນາແຫນ້ນ	-10.9854
ແຮງດັນໄຟຟ້າ	-10.9855
Whatsapp	-10.9855
ຂໍ້ສະເຫນີ	-10.9856
▁bill	-10.9859
▁eagletattoo	-10.986
▁neuro	-10.9863
560	-10.9865
ບິດ	-10.9866
ໂມງ	-10.9874
ໂວ	-10.9877
ເຮັດໃຫ້ມັນ	-10.9878
6000	-10.9884
ແຫນ້ນ	-10.9884
▁2.7	-10.9885
ຜະລິດພິເສດ	-10.9893
Spot	-10.9894
ຄວາມດັນ	-10.9895
ໂຕນ	-10.9897
ຖອນເງິນ	-10.99
ຄວາມຮັກ	-10.9905
▁ການຕໍ່ສູ້	-10.9914
ມີພຽງແຕ່	-10.9915
ໂທດ	-10.992
oline	-10.992
ສອດຄ່ອງ	-10.9931
▁Date	-10.9935
▁9999	-10.9937
ເກົາຫລີ	-10.9941
ຕື່ນເຕັ້ນ	-10.9942
ຂຸດຄົ້ນ	-10.9942
ມະເຮັງ	-10.9942
ເຮັດໃຫ້ປະລາດ	-10.9942
ແກະສະຫລັກ	-10.9942
ແສ່ວ	-10.9942
▁Straight	-10.9942
.08.2018	-10.9942
й	-10.9942
ກະທັດຮັດ	-10.9942
ຊາຍແດນ	-10.9942
ຊ່ວຍປະຢັດ	-10.9942
ເສື້ອທີເຊີດ	-10.9942
▁Council	-10.9942
▁Jacquard	-10.9942
▁Kevlar	-10.9942
▁Preventive	-10.9942
▁Responsive	-10.9942
▁Treatment	-10.9942
▁Valentine	-10.9942
▁affiliate	-10.9942
▁exacthacks	-10.9942
▁handbag	-10.9942
ຄວາມຫມັ້ນຄົງ	-10.9942
ຜົນບັງຄັບໃຊ້	-10.9942
▁Luquan	-10.9942
▁leggings	-10.9942
ໃຍແກ້ວນໍາແສງ	-10.9942
▁trailer	-10.9942
▁Device	-10.9942
▁before	-10.9942
ຜູ້ສູງອາຍຸ	-10.9942
▁Hubei	-10.9942
ພາລະກິດ	-10.9942
▁Rapid	-10.9942
▁Twill	-10.9942
▁Happy	-10.9942
screen	-10.9942
▁ສື່ມວນຊົນສັງຄົມ	-10.9942
▁Queen	-10.9942
▁Creative	-10.9942
ໃກ້ຊິດ	-10.9942
▁Fighter	-10.9942
▁Snow	-10.9943
▁ເທບ	-10.9943
▁Armati	-10.9943
▁milling	-10.9943
mAh	-10.9943
▁Framework	-10.9944
▁Triple	-10.9944
▁Label	-10.9944
▁College	-10.9944
▁Staff	-10.9945
▁Pepper	-10.9946
▁SMD	-10.9946
▁Front	-10.9946
▁77.00	-10.9948
▁ວັນເສົາ	-10.9948
ຕໍ່ມາ	-10.9949
compro	-10.9951
▁SSL	-10.9951
▁bonuses	-10.9952
▁1400	-10.9957
***	-10.996
▁park	-10.9961
▁≤1	-10.9963
▁Mixer	-10.9964
ອຸ່ນ	-10.9969
ຄຸກ	-10.9969
ຈໍານວນຫລາຍ	-10.9969
ໄຟເບີ	-10.9971
▁cash	-10.9973
▁file	-10.9976
▁ເຄື່ອງສີດ	-10.998
ແອບ	-10.998
▁elect	-10.9981
▁ເປັນປະເພດຂອງ	-10.9981
ຍັງຄົງ	-10.9984
▁UPS	-10.9986
▁ທ່ານກໍາລັງຢູ່	-10.999
ກິ	-10.9992
gging	-10.9994
ແລະເງື່ອນໄຂ	-10.9995
305	-11.0001
ເປັນມິດ	-11.0004
rink	-11.0011
▁Coated	-11.0012
▁Sealing	-11.0019
ທົ່ງ	-11.0028
275	-11.003
ອາບ	-11.0031
ເສື້ອຜ້າ	-11.0032
287	-11.0036
▁Prote	-11.0044
▁into	-11.0062
bay	-11.0075
▁been	-11.0078
▁770	-11.0079
ປະກັນ	-11.0094
ການສ້າງຕັ້ງ	-11.0095
▁ເຮ	-11.0095
ເປັນທີ່ຮູ້ຈັກ	-11.0099
hard	-11.0112
ໄດ້ເຫັນ	-11.0112
▁see	-11.0123
▁Hex	-11.0136
▁(6)	-11.0138
ຮ່ວມມືກັບ	-11.0143
Color	-11.0147
ວິທີແກ້ໄຂ	-11.0153
ບັນຊີລາຍຊື່	-11.0155
«	-11.0156
ຂໍຂອບໃຈ	-11.0156
Industrial	-11.0159
ຄຸນ	-11.0168
▁Now	-11.0176
ຫນຸ່ມ	-11.0183
▁ມັນຍັງ	-11.0191
▁ເບີໂທລະສັບ	-11.0195
ສໍາພາດ	-11.0196
ysa	-11.0211
ບັດທຸລະກິດ	-11.0216
ອັບເດດ	-11.0216
▁pip	-11.022
Ray	-11.0224
ອຸດົມ	-11.0227
ความ	-11.0227
ี	-11.0227
ອີກເທື່ອຫນຶ່ງ	-11.0227
ຂ້ອນຂ້າງ	-11.0227
ຄວາມໄວ້ວາງໃຈ	-11.0227
.05.2019	-11.0227
^	-11.0227
ດັດຊະນີ	-11.0227
ປະລິນຍາເອກ	-11.0227
ມີສ່ວນຮ່ວມໃນ	-11.0227
ສະຫວິດ	-11.0227
▁Cruiser	-11.0227
▁Empire	-11.0227
▁Francisco	-11.0227
▁History	-11.0227
▁Jersey	-11.0227
▁Saracen	-11.0227
▁Torrent	-11.0227
▁iPod	-11.0227
▁quintet	-11.0227
▁ວັນພະຫັດ	-11.0227
ຍ້ອມ	-11.0227
ພາລາມິເຕີ	-11.0227
ມໍລະດົກ	-11.0227
ຫມໍ້ຫຸງເຂົ້າ	-11.0227
▁Adhesive	-11.0227
▁Holiday	-11.0227
▁Sweden	-11.0227
▁develop	-11.0227
▁enjoy	-11.0227
instagram	-11.0227
▁Bonded	-11.0227
▁Special	-11.0227
▁pirates	-11.0227
▁Access	-11.0228
▁Edition	-11.0228
▁Wenzhou	-11.0228
▁shopping	-11.0228
▁great	-11.0228
▁Nokia	-11.0228
▁Garment	-11.0228
▁Jumbo	-11.0228
▁ເສີນ	-11.0228
▁Client	-11.0228
▁Delta	-11.0228
ແລະພວກເຮົາຈະ	-11.0228
▁72.00	-11.0228
▁ໂທຫາພວກເຮົາ	-11.0228
▁heels	-11.0228
ຢ່າງເຕັມທີ່	-11.0228
▁Bending	-11.0228
izitin	-11.0228
▁(2013)	-11.0228
cycle	-11.0228
▁ພິທີ	-11.0228
ດຶງດູດ	-11.0229
▁ກະລຸນາເລືອກເອົາ	-11.023
ເຄື່ອງຫມາຍການຄ້າ	-11.023
▁shell	-11.023
▁Camera	-11.023
▁Gym	-11.023
▁WiFi	-11.023
▁ແສງອາທິດ	-11.0231
▁Compare	-11.0231
ໂຄ້ງ	-11.0231
ເກີ	-11.0233
▁xbox	-11.0233
town	-11.0234
ກິລາບານເຕະ	-11.0235
▁Dayton	-11.0235
ນິຕິ	-11.0236
▁Robert	-11.0236
758	-11.0238
▁comment	-11.0239
▁DICE	-11.0239
▁ເລືອກຂະຫນາດ	-11.024
▁ຂະຫນາດກ່ອງ	-11.0241
▁ຊື່ຜູ້ໃຊ້	-11.0244
▁cheater	-11.0245
ແບນ	-11.0248
▁ໃນຕະຫລາດ	-11.025
▁fake	-11.025
ທາງອິນເຕີເນັດ	-11.0251
hole	-11.0252
▁ເປັນຄັ້ງທໍາອິດ	-11.0253
▁Grab	-11.0258
▁pass	-11.0258
ຄວາມແຕກຕ່າງ	-11.026
ກົງກັນຂ້າມ	-11.0263
▁Grey	-11.0263
▁using	-11.0264
▁Archiver	-11.0264
level	-11.027
▁linen	-11.027
ລີກ	-11.0274
ປິກ	-11.0275
ການຫຼິ້ນ	-11.0277
▁1997	-11.0277
flex	-11.0282
▁stud	-11.0285
▁ສາຍອາຫານ	-11.0285
uda	-11.0288
▁Down	-11.0295
▁create	-11.0295
3.40	-11.0297
ຟື້ນຟູ	-11.0299
ຈົດຫມາຍ	-11.03
image	-11.0302
▁ຫຼັກການ	-11.0303
▁Lip	-11.031
ເຫຼົ່ານີ້ແມ່ນ	-11.0315
485	-11.0327
ທີ່ເປັນປະໂຫຍດ	-11.0334
ongxiang	-11.0337
ໄດ້ງ່າຍ	-11.0338
ວກ	-11.034
ຄ່າບໍລິການ	-11.0344
▁2021	-11.0347
▁Uv	-11.0347
678	-11.0348
▁Marc	-11.0351
ເກັບຮັກສາ	-11.0356
▁ອີງຕາມການ	-11.0366
active	-11.0376
ການສື່ສານ	-11.0387
ຂອງໄກ່	-11.0391
ຄວາມສໍາເລັດ	-11.0412
ໄດ້ກາຍເປັນ	-11.0415
▁non	-11.0421
ໃນຂົງເຂດ	-11.0432
ສັນຍາລັກຂອງ	-11.0433
290	-11.0452
ຟີ	-11.0457
▁Zip	-11.0461
▁PPS	-11.0461
ທັນວາ	-11.0465
ຫລັກສູດ	-11.0469
ຂຸດຄົ້ນບໍ່ແຮ່	-11.0469
ຫມໍ້	-11.0475
ປອນ	-11.0475
▁021	-11.0487
016	-11.0487
ince	-11.049
▁ມັນຈະ	-11.0496
Jul	-11.0507
▁ມູ	-11.0514
7%	-11.052
ຄ່ໍາ	-11.052
market	-11.052
scape	-11.0521
ເຫລົ້າ	-11.0521
▁Thermo	-11.0522
บ	-11.0522
ລົງທືນ	-11.0522
▁(+856	-11.0522
ຍືນຍົງ	-11.0522
ລວບລວມ	-11.0522
.09.2018	-11.0522
iopharmaceutical	-11.0522
ຊົນລະປະທານ	-11.0522
ຊົ່ວຄາວ	-11.0522
ທີ່ມີຄຸນະພາບສູງ	-11.0522
ສູນຍາກາດ	-11.0522
ອັດໂນມັດ	-11.0522
ເນເທີແລນ	-11.0522
ແພກເກດ	-11.0522
▁Deluxe	-11.0522
▁Desiccant	-11.0522
▁November	-11.0522
▁zombie	-11.0522
▁ຊິງຕັນດີຊີ	-11.0522
▁ໄວ້ວາງໃຈ	-11.0522
ສົນທິສັນຍາ	-11.0522
ແວ່ນຕາ	-11.0522
▁Scroll	-11.0522
ຊົນເຜົ່າ	-11.0522
▁Public	-11.0522
▁FTTH	-11.0522
▁Mutant	-11.0522
▁Chengdu	-11.0522
▁Rigid	-11.0522
▁Socket	-11.0522
include	-11.0522
▁Serial	-11.0522
▁ສາທາລະນະລັດ	-11.0522
▁Bldg	-11.0522
computer	-11.0522
ພືດຫມູນວຽນ	-11.0523
▁ANSI	-11.0523
▁ລະດັບຄວາມສູງ	-11.0523
ມັກຫຼີ້ນ	-11.0523
ສະຖານະພາບ	-11.0523
▁Louis	-11.0523
ໃນເວລາດຽວກັນ	-11.0525
▁look	-11.0525
ຜະສົມ	-11.0526
▁Cardboard	-11.0526
▁ຊທີ່ແທ້ຈິງ	-11.0526
Box	-11.0526
▁ຂອບໃຈ	-11.0528
▁match	-11.0529
ປົກກະຕິແລ້ວ	-11.0529
ຊີ້ນໍາ	-11.0529
▁PMP	-11.053
.12.20	-11.0533
ຖ້າຫາກວ່າທ່ານ	-11.0533
▁Funny	-11.0535
▁5.50	-11.054
ລະຄອນ	-11.0541
ໃຫ້ຄໍາແນະນໍາ	-11.0542
▁Solar	-11.0542
▁very	-11.0542
▁Wool	-11.0543
▁DMC	-11.0544
ຫລັງຈາກ	-11.0548
ຕົວຈິງ	-11.055
MHz	-11.0553
ລົດຊາດ	-11.0554
ຈອນ	-11.0555
ຫມາກໄມ້	-11.0557
▁Prix	-11.0562
ເຂື່ອນໄຟຟ້າ	-11.0565
ທາງດ່ວນ	-11.0569
0/1	-11.0574
531	-11.0574
▁gel	-11.0584
▁05%	-11.0585
757	-11.0587
▁PSP	-11.0593
ມັກຈະ	-11.0595
▁Thai	-11.0609
ການສ້ອມແປງ	-11.0622
ຕໍ່ສູ້ກັບ	-11.0623
ການບໍລິການລູກຄ້າ	-11.0626
MIL	-11.0627
ຂອງທ່ານໄປ	-11.0635
ຫາດ	-11.0641
PIN	-11.0666
ພົບກັບ	-11.067
nav	-11.0674
7.6	-11.0684
ບາງຢ່າງ	-11.0686
ຄົງທີ່	-11.0691
Neck	-11.071
ilia	-11.071
▁DEL	-11.0715
▁Extension	-11.0716
▁0.01	-11.072
▁1,000	-11.0724
ຈໍານວນເງິນ	-11.0727
psi	-11.0729
ອຸປະກອນການກໍາຈັດ	-11.0733
rafts	-11.0733
ຫ່າງຈາກ	-11.0738
Vero	-11.0744
ມູນ	-11.0748
ການໂຈມຕີ	-11.0768
▁86-574-	-11.0772
131	-11.078
ຫຼີ	-11.0781
ເສັ້ນຜ່າສູນກາງ	-11.0793
•	-11.0794
ຊິ້ນ	-11.0796
TAG	-11.0797
Phone	-11.0798
▁Discharge	-11.0805
irt	-11.0805
ໂຟ	-11.0819
ທີ່ທ່ານໄດ້ຮັບ	-11.0819
ອັນດັບ	-11.0819
▁Track	-11.082
ຮ່ວມມື	-11.0822
▁ແລກ	-11.0823
ພາຫະນະ	-11.0824
ຄະແນນ	-11.0825
ໃສ່ອີເມວຂອງທ່ານ	-11.0825
ການບີບອັດ	-11.0825
ຊຽງ	-11.0825
ວິໄຈ	-11.0825
ສະໄຫມ	-11.0825
ສັດຕະວະແພດ	-11.0825
ສຽບ	-11.0825
ເຊລາມິກ	-11.0825
ຊົດເຊີຍ	-11.0825
ປະສານງານ	-11.0825
ປະເທດສະວິດ	-11.0825
ຢ້ານ	-11.0825
ລາຍລັກອັກສອນ	-11.0825
▁Australia	-11.0825
▁California	-11.0825
▁Canberra	-11.0825
▁Diamond	-11.0825
▁Dokitto	-11.0825
▁Enertia	-11.0825
▁Forklift	-11.0825
▁Gabardine	-11.0825
▁Nevada	-11.0825
▁Philadelphia	-11.0825
▁SharePoint	-11.0825
▁Survey	-11.0825
▁costumes	-11.0825
▁eScooter	-11.0825
▁ladies	-11.0825
▁中文	-11.0825
İ	-11.0825
ь	-11.0825
ລູກຟູກ	-11.0825
ສີຂີ້ເຖົ່າ	-11.0825
▁Victoria	-11.0825
▁security	-11.0825
▁ຫນ້າແລກ	-11.0825
▁Editor	-11.0825
▁diavel	-11.0825
ອ້າຍ	-11.0825
▁Pillow	-11.0825
▁interior	-11.0825
▁WLAN	-11.0825
▁Fancy	-11.0825
ຫົວຫນ້າຄລາສສິກ	-11.0825
▁trading	-11.0825
▁Title	-11.0825
▁Washer	-11.0825
▁Piston	-11.0825
oftkelo	-11.0825
▁Facetime	-11.0825
▁Patchwork	-11.0826
ແຕ້ມຮູບ	-11.0827
ສາກໄຟ	-11.0827
ພໍໃຈ	-11.0827
▁loop	-11.0827
▁Resource	-11.0828
▁ຕ່ໍາລົງ	-11.0828
▁height	-11.0829
ໂສ	-11.083
▁urease	-11.083
▁Duty	-11.0831
ລາງ	-11.0831
ຣິກ	-11.0834
ສາມາດພິມໄດ້	-11.0834
▁ກິລາອັດຕະໂນມັດ	-11.0835
▁Store	-11.0835
▁Making	-11.0836
▁(1,2	-11.0836
▁ຢາງຕິດຕາມ	-11.0837
▁ການປິ່ນປົວນ້ໍາ	-11.0839
▁ຊື່ເຄມີ	-11.0839
▁NBR	-11.0839
▁Handic	-11.084
type	-11.0843
kov	-11.0845
glass	-11.0847
899	-11.0849
ສີບົວ	-11.085
▁Iphone	-11.0851
▁NFC	-11.0858
▁Made	-11.0859
path	-11.0862
rammo	-11.0863
▁2017-2018	-11.087
ໃຫ້ເຊົ່າ	-11.0875
ellip	-11.0877
ສໍາຮອງ	-11.0877
▁Safe	-11.0884
▁8.2	-11.0885
(18)	-11.0887
ິ້ນໃຫມ່ເທົ່ານັ້ນ	-11.0889
▁Round	-11.089
▁Pink	-11.0892
ພາຍ	-11.0896
▁tent	-11.0909
ຂົງເຂດ	-11.0918
ethane	-11.0924
ສ່ວນບຸກຄົນທີ່ມີ	-11.0933
ຖົງຖົງ	-11.0933
ທີ່ສົມບູນ	-11.0936
019	-11.0942
▁Xinf	-11.0953
▁gif	-11.0953
▁2.4	-11.0955
ຊື່ວ່າ	-11.0961
4,5	-11.0964
▁Cord	-11.0965
▁0.07	-11.097
▁swi	-11.0976
ພັດທະນາເຂດ	-11.0995
495	-11.0997
born	-11.101
ປ້ອນຂໍ້ມູນ	-11.1011
ຟໍ	-11.1012
8.8	-11.1019
OUR	-11.1021
RWT	-11.1022
ເຄື່ອງປ້ອນ	-11.1032
129	-11.1033
ສໍາລັບການອອກແບບ	-11.1044
ເບົາ	-11.1045
ILL	-11.106
ຊີນ	-11.1061
ທີ່ມີຄຸນນະພາບ	-11.1096
ຈໍານວນຂອງ	-11.111
▁fly	-11.1111
ຄີມ	-11.1124
ແຂ	-11.1125
ໂມດູນ	-11.1126
High	-11.1128
ຂຽວ	-11.113
ສິລະປິນ	-11.1131
ຫໍ່	-11.1134
ຍົມ	-11.1136
▁urea	-11.1137
แ	-11.1137
у	-11.1137
ຈັດລຽງ	-11.1137
ຕອນແລງ	-11.1137
้	-11.1137
ຄະນິດສາດ	-11.1137
.06.2018	-11.1137
angqian	-11.1137
ั	-11.1137
ທາດໂປຼຕີນ	-11.1137
ຫນັບສະຫນູນອີເມລ໌	-11.1137
ອະແດບເຕີ	-11.1137
ໄຕ້ຫວັນ	-11.1137
▁Accessories	-11.1137
▁Antistatic	-11.1137
▁Mechanical	-11.1137
▁Professional	-11.1137
▁Ultrasonic	-11.1137
▁Welcome	-11.1137
▁private	-11.1137
▁sprites	-11.1137
▁ສານສະກັດຈາກ	-11.1137
ພັນທະບັດ	-11.1137
▁Beilun	-11.1137
▁Handmade	-11.1137
▁Stretch	-11.1137
▁VIDEO	-11.1137
▁Voltage	-11.1137
▁Warehouse	-11.1137
▁browser	-11.1137
▁ເປັນການຄ້າຫນ້ອຍ	-11.1137
▁(2010)	-11.1137
▁Instant	-11.1137
▁sodium	-11.1137
ໂທລະສັບສະຫຼາດ	-11.1137
▁Indoor	-11.1137
▁PocketWin	-11.1137
▁pallet	-11.1137
▁Woven	-11.1137
▁Claret	-11.1137
▁ຈັດພີມມາສຸດ	-11.1137
▁twink	-11.1137
▁Smith	-11.1137
group	-11.1137
▁Henry	-11.1137
aprox	-11.1137
▁Groove	-11.1137
▁Easy	-11.1138
▁Watts	-11.1138
▁Canton	-11.1138
▁Story	-11.1138
▁hoverboard	-11.1138
▁ເຈຍ	-11.1138
special	-11.1139
▁Chiller	-11.1139
▁Taizhou	-11.1139
▁Clans	-11.114
ຝາຜະ	-11.114
▁Certification	-11.114
▁William	-11.1141
ຂັ້ນຕອນຂອງການ	-11.1141
URAL	-11.1141
▁oversize	-11.1142
ຕ້ອນຮັບ	-11.1142
▁0.05	-11.1142
▁wifi	-11.1143
ຕົກແຕ່ງພາຍໃນ	-11.1143
ວົງແຫວນ	-11.1143
▁Drain	-11.1144
▁Roof	-11.1144
▁sonic	-11.1144
▁alfa	-11.1144
ວາງຈໍາຫນ່າຍ	-11.1145
ແຕ່ລະຄົນ	-11.1145
▁FCC	-11.1145
Sphere	-11.1146
▁ບໍລິສັດເຊົ່າ	-11.1147
ຕົວເອງ	-11.1149
▁2.0%	-11.1152
ຟອງ	-11.1153
▁Stator	-11.1157
▁show	-11.1158
▁many	-11.1159
▁98%	-11.1159
(40)	-11.1159
▁ETC	-11.116
Tech	-11.1162
▁Wifi	-11.1163
▁Dustproof	-11.1163
▁Drag	-11.1164
▁unite	-11.1164
ທຸກທ່ານ	-11.1167
▁57.0.2987.1	-11.1168
ຢ່າງວ່ອງໄວແລະ	-11.1172
▁Euro	-11.1172
ກາງຄືນ	-11.1173
▁Ant	-11.1173
▁4.1	-11.1173
▁IEC	-11.1174
▁LEE	-11.1175
Guard	-11.1176
title	-11.1183
▁ສໍາລັບແມ່ຍິງ	-11.1188
▁18+	-11.1189
ແອັບ	-11.119
ມະຫາ	-11.1191
ຕໍ່ມື້	-11.1201
ແອວ	-11.1201
▁doi	-11.1201
java	-11.1202
▁Cream	-11.1209
MAX	-11.1211
ຕໍ່ໄປຂອງທ່ານ	-11.1215
ວາດ	-11.1215
/12/	-11.1227
ón	-11.1231
TON	-11.1234
ການກວດກາ	-11.1238
ມີປະສິດທິຜົນສູງ	-11.1245
Biz	-11.1258
ວ່າງ	-11.1271
▁40%	-11.1273
3-26	-11.1277
oji	-11.1294
3.8	-11.133
898	-11.1347
ORT	-11.1348
ໂຫ	-11.1364
▁prep	-11.1368
0.75	-11.1378
▁ເລີ່ມຕົ້ນທີ່	-11.1388
1.25	-11.1393
ສູງກວ່າ	-11.1394
▁mono	-11.1403
▁4.2	-11.1405
ຍູ	-11.1418
hold	-11.1418
ສາມາດເຮັດໃຫ້	-11.1435
▁Charge	-11.1441
▁(10)	-11.1449
ການສັກຢາປ້ອງກັນ	-11.1456
▁hydro	-11.1457
ໄດ້ປຽບ	-11.1457
▁Horizon	-11.1459
ມົນລະພິດ	-11.1459
ຫຼາດ	-11.1459
ຢ່າງຫຼວງຫຼາຍ	-11.146
olyaluminium	-11.146
ຊິລິໂຄນ	-11.146
ຕົບແຕ່ງ	-11.146
ສົມເຫດສົມຜົນ	-11.146
ເຄື່ອງໃຊ້ໃນເຮືອນ	-11.146
ໂພຊະນາການ	-11.146
▁Advanced	-11.146
▁Baiyun	-11.146
▁Calcium	-11.146
▁Efficiency	-11.146
▁Elastic	-11.146
▁Elizabeth	-11.146
▁GoQuick	-11.146
▁Liangxi	-11.146
▁Powerpuff	-11.146
▁SpongeBob	-11.146
▁Telegram	-11.146
▁blockchain	-11.146
▁espresso	-11.146
▁gambling	-11.146
▁laminated	-11.146
▁lantern	-11.146
▁lithium	-11.146
▁★★★★★	-11.146
uanjie	-11.146
ໂປແກມ	-11.146
▁Britain	-11.146
▁chrome	-11.146
▁information	-11.146
DongGuan	-11.146
fresher	-11.146
▁ຕາລາງແມັດ	-11.146
▁Charles	-11.146
▁number	-11.146
▁UPVC	-11.146
▁THAI	-11.146
▁snow	-11.146
ຍົນພິວເຕີໃກ້ຂ້ອຍ	-11.146
nforced	-11.146
▁Baseball	-11.146
▁latte	-11.146
▁Basic	-11.146
▁resort	-11.146
▁Tourism	-11.1461
▁Jiaozhou	-11.1461
▁taxi	-11.1461
▁ຍີ່	-11.1461
.04.2019	-11.1461
▁laden	-11.1461
▁TKT	-11.1461
ແຊ້ມ	-11.1461
▁Railway	-11.1461
▁stuff	-11.1461
▁{{	-11.1461
ມາດຕະການ	-11.1461
▁ເສດ	-11.1462
ແນວຄິດ	-11.1462
▁Brazilian	-11.1462
hydroxy	-11.1462
▁Lyon	-11.1462
▁Scott	-11.1463
▁bending	-11.1463
▁where	-11.1463
▁Phase	-11.1464
ontinue	-11.1465
ຜູ້ຜະລິດມືອາຊີບ	-11.1466
ແມັດ	-11.1468
▁Badge	-11.1468
filter	-11.1469
▁Benz	-11.1469
▁ລຸງ	-11.1469
▁Month	-11.147
ພໍ່	-11.147
ຜູ້ບໍລິໂພກ	-11.1471
▁ດາວໂຫລດປື້ມ	-11.1471
▁(8)	-11.1474
▁ນອກຈາກ	-11.1475
▁swing	-11.1476
▁Grid	-11.1476
▁≥10	-11.1476
ໂດຍສະເພາະແມ່ນ	-11.1476
ບລັອກ	-11.1481
xxx	-11.1482
weight	-11.1484
▁Crafts	-11.1484
▁Frank	-11.1485
ໃຈກາງ	-11.1489
▁Chao	-11.1492
ກີບ	-11.1493
▁ນຸດ	-11.1494
▁Meter	-11.1495
▁Finder	-11.1496
APF	-11.1505
▁6090	-11.1506
▁Beam	-11.1513
▁Maria	-11.1513
478	-11.1515
▁Fund	-11.1517
block	-11.1518
ພ້ອມທີ່ຈະ	-11.1528
▁Station	-11.1529
▁8.9	-11.1532
ເຫັນວ່າ	-11.1534
ustria	-11.1536
ຂໍຂອບໃຈທ່ານ	-11.1549
▁Meta	-11.155
ຍຸກ	-11.1554
▁March	-11.1561
▁REP	-11.1578
ຢູ່ເທິງ	-11.1583
▁Terr	-11.1591
6.4	-11.1595
ເຂົ້າມາ	-11.1618
】	-11.162
ເມຍ	-11.1632
opt	-11.1643
2.4	-11.1653
corp	-11.1668
▁pole	-11.1669
▁ຂໍ້ດີ	-11.167
ຮັງ	-11.1675
ເປັນທີ່ນິຍົມ	-11.1679
ລາວໄດ້	-11.1688
ລິກ	-11.1694
▁ICO	-11.1707
▁face	-11.1719
ADE	-11.1729
147	-11.1747
ຄວາມເສຍຫາຍ	-11.1757
ຢ່າງວ່ອງໄວ	-11.1759
ໃຫ້ການສະ	-11.1772
ຕິດຕໍ່ພວກເຮົາ	-11.1779
▁ago	-11.178
ເຜີຍ	-11.1784
▁`%	-11.1784
▁ອົບ	-11.1793
ຢູ່ໃນການສໍາພັດ	-11.1793
ກ້າມເນື້ອ	-11.1793
Circle	-11.1793
ຄວາມຝັນ	-11.1793
ປັ້ນດິນເຜົາ	-11.1793
ອ້າງອິງ	-11.1793
▁Exhaust	-11.1793
▁Lantern	-11.1793
▁Moscow	-11.1793
▁Pencil	-11.1793
▁Testosterone	-11.1793
▁acetate	-11.1793
▁jacquard	-11.1793
▁redecorate	-11.1793
▁ຍທຂ	-11.1793
▁ຕົ໋ວ	-11.1793
▁ມິນລິເມດ	-11.1793
▁ອອຟໂລດ	-11.1793
Ø	-11.1793
ຍຸດຕິທໍາ	-11.1793
ຖ້ວຍ	-11.1793
ຢາປົວພະຍາດ	-11.1793
▁FIGHT	-11.1793
▁Jaishi	-11.1793
▁Sketch	-11.1793
▁Taylor	-11.1793
▁ທໍ່ສົ່ງນ້	-11.1793
ທິດສະດີ	-11.1793
ປານກາງ	-11.1793
▁Automation	-11.1793
▁ຊຕມ	-11.1793
▁ເເລະ	-11.1793
ເຕະບານ	-11.1793
ເອເຊຍ	-11.1793
▁bulk	-11.1793
▁stepping	-11.1793
▁HDMI	-11.1793
▁Computer	-11.1793
▁ຫມວກ	-11.1793
▁lady	-11.1793
▁Engineering	-11.1793
▁Romper	-11.1793
▁Navy	-11.1793
▁Sarah	-11.1793
ແຫ້ງແລ້ງ	-11.1793
▁ແນວຕັ້ງ	-11.1793
▁Nomex	-11.1793
▁ວົງຢືມ	-11.1794
LINK	-11.1794
▁satin	-11.1794
▁disney	-11.1794
▁ເສື້ອແຂນ	-11.1794
ບັດປະຈໍາຕົວ	-11.1794
▁Central	-11.1795
▁Zhongshan	-11.1795
ລວດລາຍ	-11.1795
▁Shutter	-11.1795
▁Milk	-11.1795
▁Rosin	-11.1795
▁Weather	-11.1795
ຜ່າຕັດ	-11.1795
▁ຢູ່ທູບ	-11.1796
▁rotor	-11.1797
▁flame	-11.1797
ົນມິດ	-11.1798
▁Flame	-11.1799
▁Vape	-11.1799
ສັດປ່າ	-11.1799
ATION	-11.1799
▁SMT	-11.1799
▁inhibitor	-11.18
▁ຊື່ລາຍການ	-11.1801
ກາແຟ	-11.1803
ຄູອາຈານ	-11.1804
▁Rating	-11.1806
ສັດລ້ຽງຍ	-11.1806
ຫມຶກພິມ	-11.1806
▁ຫນ່ວຍບໍລິການ	-11.1806
▁buy	-11.1807
▁Lift	-11.1807
ລ໌	-11.1808
ກັບຈຸດຫມາຍປາຍທາງ	-11.1808
ແຟນ	-11.181
ຫອມ	-11.1811
ສີດພົ່ນ	-11.1811
ສາມາດເຂົ້າໄປໃນ	-11.1812
▁64.00	-11.1813
ໂມເລກຸນ	-11.1813
▁What	-11.1815
(10)	-11.1824
Nitro	-11.1826
ອ່ານເພີ່ມເຕີມ	-11.1829
Custom	-11.1829
▁same	-11.1829
ຈາ	-11.1837
ມີລາຍໄດ້	-11.1838
ປະເທດອິນເດຍ	-11.1843
ເດືອນມັງກອນ	-11.1844
▁vol	-11.1845
ຕົ້ນຕໍແມ່ນ	-11.1846
ບັນດາໂຄງການ	-11.1849
▁used	-11.1861
urity	-11.187
▁ຂຽນໂດຍ	-11.1872
▁Love	-11.1881
live	-11.1883
ຕໍ່ໄປນີ້	-11.1884
(20)	-11.1893
▁ອີງ	-11.1896
ເພື່ອຮັບປະກັນ	-11.1899
Check	-11.19
▁86-18	-11.1903
ບໍ່ຄວນ	-11.1911
ແບບອັດຕະໂນມັດ	-11.1913
869	-11.1924
ແບບຄົງທີ່	-11.1944
speed	-11.1945
ການເທຣດ	-11.1953
ຖົງຢາງ	-11.1956
ngqiao	-11.197
hab	-11.1975
385	-11.198
▁7.2	-11.1987
ອົງ	-11.1987
ຈະໄປຢ້ຽມຢາມ	-11.1988
crea	-11.1994
▁Syr	-11.2
ການຟື້ນຟູ	-11.2053
▁ແຕ່ຍັງ	-11.2069
ພົ່ນ	-11.2119
▁mid	-11.2125
magnetic	-11.2138
phosph	-11.2138
ຫນ້າຫວາດສຽວ	-11.2138
ເຮືອຂ້າມຟາກ	-11.2138
ໂຖປັດສະວະ	-11.2138
▁Refrigerat	-11.2138
Buddhatrends	-11.2138
CLICK	-11.2138
ບໍ່ເທົ່າກັນ	-11.2138
ລະເບີດຝັງດິນ	-11.2138
ວິທະຍຸ	-11.2138
ຫັດຖະກໍາ	-11.2138
▁Category	-11.2138
▁Dreadlocks	-11.2138
▁Hangheng	-11.2138
▁ITALY	-11.2138
▁Impulse	-11.2138
▁JBoss	-11.2138
▁LadyLuck	-11.2138
▁Phantom	-11.2138
▁Polypropylene	-11.2138
▁ProgressPlay	-11.2138
▁Titanium	-11.2138
▁Zurich	-11.2138
▁cylinder	-11.2138
▁spongebob	-11.2138
Commerce	-11.2138
ຊ່ື	-11.2138
ອຸປະສັກ	-11.2138
▁(2011)	-11.2138
▁Rotating	-11.2138
▁Samewe	-11.2138
AGUE	-11.2138
ສຽງໂຫວດທັງຫມົດ	-11.2138
▁Caravan	-11.2138
▁Freebies	-11.2138
▁Skills	-11.2138
▁wedding	-11.2138
▁ເທີງ	-11.2138
จ	-11.2138
▁FULL	-11.2138
▁Metrobus	-11.2138
▁process	-11.2138
▁BLACK	-11.2138
ຢ່າງໄວວາ	-11.2138
▁Random	-11.2138
▁website	-11.2138
▁Christmas	-11.2138
▁Kenya	-11.2138
▁ລ້າສຸດ	-11.2138
ຮຽກຮ້ອງໃຫ້ມີ	-11.2138
▁Winnings	-11.2138
▁Bursa	-11.2138
▁Expert	-11.2138
ທີ່ເກີດຈາກ	-11.2138
▁Script	-11.2138
ຫນ້າກາກ	-11.2138
ຄວາມຊື້ນ	-11.2138
▁Tiantai	-11.2139
▁Combo	-11.2139
ສະຫຼອງ	-11.2139
ທຽບເທົ່າ	-11.2139
ການບໍລິຈາກ	-11.2139
▁Baoding	-11.2139
▁Haitian	-11.2139
▁ໂບດ	-11.2139
▁ເນີນງານ	-11.2139
▁fluor	-11.2139
ການຫັນເປັນ	-11.2139
▁SWG	-11.214
▁Sauna	-11.214
▁BOX	-11.214
▁Dyed	-11.2141
ບາງສ່ວນຂອງ	-11.2142
▁Young	-11.2142
່ງທີ່ເຫັນແລະເຮັດ	-11.2145
▁peach	-11.2146
ການບໍລິໂພກ	-11.2147
based	-11.2147
▁Chuck	-11.2149
▁brick	-11.2149
▁Alert	-11.2149
ເພີ່ມຂື້ນ	-11.2149
ລະດັບຊາດ	-11.215
▁players	-11.2151
▁ATM	-11.2151
▁Spect	-11.2151
▁Milan	-11.2152
ຄາຂອງພວກເຮົາ	-11.2152
ເຄືອຂ່າຍສັງຄົມ	-11.2153
▁(9)	-11.2153
ນັກທ່ອງທ່ຽວ	-11.2154
້ໍາຫນັກຂອງມະເລັງ	-11.2154
▁nano	-11.2154
nova	-11.2156
▁rolling	-11.2157
▁99%	-11.2157
▁Baoan	-11.2158
jpg	-11.2158
▁ຜູ້ສະຫນອງຈີນ	-11.2158
ເກັບຝຸ່ນ	-11.2159
▁ທີ່ຢູ່ຕິດຕໍ່	-11.217
▁ສ້າງດ້ວຍ	-11.2171
▁RAM	-11.2174
▁ອຸປະກອນຮູບແບບ	-11.2175
▁Salt	-11.2179
ຂາຍຍ່ອຍ	-11.2183
ກ່ຽວ	-11.2186
ແບບພິເສດ	-11.2188
guard	-11.2189
ຈະຕ້ອງ	-11.2193
ພະຍະ	-11.2195
▁ຂອງຕຽງ	-11.2196
▁ltd	-11.2197
ສີເຫຼືອງ	-11.2197
(5)	-11.2198
6,000	-11.2201
cryptocurrency	-11.2203
▁1995	-11.2204
ແຜງ	-11.2207
ໂລກອ່ານ	-11.2209
ກັ່ນ	-11.2212
ຫນ່ວຍງານ	-11.2215
ກຸມພາ	-11.2216
Pop	-11.2217
ICE	-11.2219
▁Marine	-11.2224
9.4	-11.2228
7.2	-11.2234
ການຄິດໄລ່	-11.2237
lett	-11.2266
ຂະຫນ	-11.227
itting	-11.2305
ຢັ້ງຢືນ	-11.2321
ທີ່ມີປະສົບການ	-11.2324
ໂພດ	-11.2324
▁Geo	-11.2333
3,000	-11.2334
ສໍາລັບການຫຼິ້ນ	-11.2349
ຄວາມຫຼາກຫຼາຍ	-11.2371
▁Rupe	-11.2372
polis	-11.2373
ຕອບສະ	-11.2382
▁Girl	-11.2388
ຖົງຂີ້ຝຸ່ນ	-11.2392
▁Mountain	-11.2392
ຢູ່ໃນສະຖານທີ່	-11.2396
298	-11.2398
▁Pure	-11.2406
ໂດຍອີງໃສ່	-11.2416
SPA	-11.2432
ທໍ່ນ້ໍ	-11.2449
▁ແຂ່ງ	-11.2468
ຈຸດຫມາຍປາຍທາງ	-11.2479
ທູບ	-11.2492
▁Catalog	-11.2494
ຄູ່ຜົວເມຍ	-11.2494
ท	-11.2495
ເບື້ອງຕົ້ນ	-11.2495
ຈິນຕະນາການ	-11.2495
scriptionSample	-11.2495
ທາງດ້ານການເມືອງ	-11.2495
ທີ່ຖືກຖາມເລື້ອຍໆ	-11.2495
ນິວຊີແລນ	-11.2495
ປຽກ	-11.2495
ສະຫະພັນ	-11.2495
ຫຼວງພະບາງ	-11.2495
ແລະຂະຫນາດຮູບຖ່າຍ	-11.2495
ໂພລີເມີ	-11.2495
▁Fibroin	-11.2495
▁Frankfurt	-11.2495
▁Nonwoven	-11.2495
▁Rectangular	-11.2495
▁Strength	-11.2495
▁Trolley	-11.2495
▁Tumblr	-11.2495
▁Tutorial	-11.2495
▁experience	-11.2495
▁perfect	-11.2495
▁steroid	-11.2495
▁ດ້ວຍທາດການຊຽມ	-11.2495
▁ລັບເລັບແມວ	-11.2495
ການເຜົາໄຫມ້	-11.2495
ປະໂຫຍກ	-11.2495
ເລີ້ມ	-11.2495
▁Solvent	-11.2495
▁ສາມາດພັບໄດ້	-11.2495
▁CSGOBET	-11.2495
▁goodbye	-11.2495
▁ບໍ່ວ່າຈະເປັນ	-11.2495
▁ສໍາຫຼັບ	-11.2495
ຜູ້ເກັບຂີ້ເຫຍື້ອ	-11.2495
ສໍາມະນາ	-11.2495
ເລີຍ	-11.2495
▁indoor	-11.2495
▁Holland	-11.2495
▁Nexus	-11.2495
ທີ່ເຊື່ອຖືໄດ້	-11.2495
ເຄື່ອງຊັກຜ້າ	-11.2495
▁Input	-11.2495
CMYK	-11.2495
ໃນຕອນເລີ່ມຕົ້ນ	-11.2495
▁Turbo	-11.2495
▁ຍານຍົນ	-11.2495
▁ປື້ມບັນທຶກ	-11.2495
▁First	-11.2495
▁ທິດຕາເວັນຕົກ	-11.2495
ຊາວອົບພະຍົບ	-11.2495
▁56.0.29	-11.2495
▁HPLC	-11.2495
▁Irene	-11.2495
▁Counter	-11.2495
▁ແປພາສາ	-11.2495
ທາງອີເລັກໂທຣນິກ	-11.2496
▁ແຟກ	-11.2496
▁PNG	-11.2496
ເບ້ຍ	-11.2496
▁Trust	-11.2497
▁ໂຮງວຽກ	-11.2497
ເຄາະ	-11.2497
▁Usb	-11.2497
▁Zinc	-11.2497
ລະບາຍອາກາດ	-11.2498
ຜິດປົກກະຕິ	-11.2498
ຍົກຍ້າຍ	-11.2498
▁ສົນທະນາກັບ	-11.2498
▁Chart	-11.2499
▁ອາກາດການບິນ	-11.2499
▁12:00	-11.25
▁week	-11.2501
ຫລາຍກວ່າ	-11.2502
/03/20	-11.2503
electric	-11.2503
▁Elite	-11.2503
▁67.00	-11.2505
▁ສປປລາວ	-11.2506
ລູກຊາຍຂອງ	-11.2506
▁Hits	-11.2508
▁ເບິ່ງເພີ່ມເຕີມ	-11.2508
ແຮ	-11.251
▁Sonic	-11.2512
ໄຂ້	-11.2513
▁Disp	-11.2514
ໂປຼ	-11.2514
▁France	-11.2515
ໂປ້	-11.2515
▁ຜູ້ຕິດຕາມ	-11.252
▁George	-11.2521
▁ວິທີການຊື້	-11.2523
▁Quad	-11.2525
ຂ້າພະເຈົ້າຄິດວ່າ	-11.2529
▁Hans	-11.253
▁JIS	-11.2532
model	-11.2543
2019-03-	-11.2548
JACK	-11.255
paper	-11.2562
▁give	-11.2563
ຂ້າພະເຈົ້າຈະ	-11.2567
ນັກສະແດງ	-11.2575
ກະລຸນາ	-11.2577
ນັບຕັ້ງແຕ່	-11.2582
▁Dept	-11.2582
ເຂ	-11.2583
Print	-11.2583
≤	-11.2584
Online	-11.2584
ວັນຈັນ	-11.2585
ຖົງມື	-11.2592
ສົ່ງຂໍ້ມູນ	-11.2599
ກ້ອງ	-11.2601
7.00	-11.2604
ເມື່ອຍ	-11.2607
ການວັດແທກ	-11.2625
CSC	-11.2643
ຜູ້ບໍລິຫານ	-11.2644
▁were	-11.2649
▁past	-11.2679
ການສົ່ງຈົດ	-11.2692
fabric	-11.2693
4-4	-11.2703
ດ້ານເທິງ	-11.2712
="5.	-11.2712
ອາໄສຢູ່	-11.2717
ເຂັ້ມແຂງ	-11.2736
2.7	-11.2745
▁necktattoo	-11.2752
▁sleevetattoo	-11.2752
rease	-11.2776
ຜູ້ເກັບຂີ້ຝຸ່ນ	-11.2821
868	-11.2822
▁Clean	-11.2826
ໃນຖານະ	-11.2839
▁feed	-11.2849
ຊະອານາຈັກ	-11.2851
ບານເຕະ	-11.2856
logo	-11.2857
ວິທະຍາ	-11.2864
ໄມ້ອັດ	-11.2864
▁ຫງວນ	-11.2865
▁ຄວບ	-11.2865
ເຄື່ອງນຸ່ງ	-11.2865
ບາງສິ່ງບາງຢ່າງ	-11.2865
ໂປຣແກຣມ	-11.2865
ໂລໂກ້	-11.2865
▁ສ້ອຍຄໍ	-11.2865
Innovative	-11.2865
ophosphorous	-11.2865
roadmap	-11.2865
siamphonedotcom	-11.2865
ຄາງກະໄຕ	-11.2865
ຕໍາຫຼວດ	-11.2865
ບໍ່ດົນມານີ້	-11.2865
ລັອດຕິງສັບມືຖື	-11.2865
ອຽງ	-11.2865
ເຊື່ອງໄວ້	-11.2865
ເລື້ອຍໆ	-11.2865
ແລະລະບຽບການໂດຍ	-11.2865
▁Advertising	-11.2865
▁Bottom	-11.2865
▁Capacitive	-11.2865
▁CoinFalls	-11.2865
▁Diffusion	-11.2865
▁Finished	-11.2865
▁Hongdali	-11.2865
▁Netflix	-11.2865
▁SUBSCRIBE	-11.2865
▁asylum	-11.2865
▁beadlock	-11.2865
▁business	-11.2865
▁nonwoven	-11.2865
▁saxophone	-11.2865
▁shareware	-11.2865
▁tumblr	-11.2865
▁ມະຫາສະຫມຸດ	-11.2865
х	-11.2865
ນິວຢອກ	-11.2865
ປະດິດສ້າງ	-11.2865
ຜ້າຂົນຫນູ	-11.2865
ສີລັງກາ	-11.2865
▁Medicine	-11.2865
▁Replica	-11.2865
▁ນາມສະກຸນ	-11.2865
▁ເສື້ອກັນຫນາວ	-11.2865
ການໄກ່ເກ່ຍ	-11.2865
▁cajon	-11.2865
ຕົວທ່ອງເວັບ	-11.2865
▁Thunder	-11.2865
▁jumma	-11.2865
▁ຜ້າກັນນ້ໍາ	-11.2865
Library	-11.2865
ຈະເລີນ	-11.2865
▁Courier	-11.2865
▁Welding	-11.2865
ນຶກ	-11.2865
▁Erotic	-11.2865
▁Pigment	-11.2865
▁Tekna	-11.2865
▁Kyiv	-11.2865
▁ໂຊຟາ	-11.2865
▁hentai	-11.2866
▁Garage	-11.2866
▁Number	-11.2866
▁receive	-11.2866
ເຊື້ອໄວຣັສ	-11.2866
▁Freezer	-11.2866
▁Gift	-11.2866
Support	-11.2866
JUNE	-11.2866
▁EDGE	-11.2866
▁Album	-11.2866
ເຂົ້າກັນໄດ້	-11.2866
▁Earth	-11.2866
▁Latest	-11.2866
▁Berlin	-11.2866
▁zlp	-11.2866
▁password	-11.2866
ແມ່ນການຮັບປະກັນ	-11.2866
▁silica	-11.2866
▁້ໍາຢາງ	-11.2866
ແຟ້ມ	-11.2866
▁endless	-11.2867
▁passport	-11.2867
▁Wordpress	-11.2867
▁Smile	-11.2867
▁BMW	-11.2868
▁Dropbox	-11.2868
▁ແລນ	-11.2868
▁Mason	-11.2868
version	-11.2869
ເຫລົ້າທີ່ເຮັດຈາກ	-11.2869
ສັງເກດເບິ່ງ	-11.287
ສົ່ງອອກໄປ	-11.287
uardian	-11.287
▁remove	-11.287
▁ຖ້າທ່ານໄດ້ຮັບ	-11.2871
▁ແມ່ນຫຍັງຄື	-11.2871
Chloro	-11.2871
ເຂົ້າຊົມ	-11.2872
ອິນຊີ	-11.2873
ທຸກຍາກ	-11.2873
▁Camping	-11.2875
▁Child	-11.2875
▁Explorer	-11.2876
▁Goldman	-11.2876
ຊີໂນ	-11.2876
▁ໄລຍະທາງ	-11.2877
▁good	-11.2877
ຜູ້ແທນ	-11.2877
ຖ່າຍຮູບ	-11.2878
ປາຣີ	-11.288
▁ປະຕູອັດຕະໂນມັດ	-11.288
▁ຫົວພິມ	-11.2881
▁without	-11.2883
▁Airport	-11.2883
▁Carton	-11.2884
ຫິນ	-11.2884
▁rebar	-11.2889
Eco	-11.2891
True	-11.2896
ພາສາຝຣັ່ງ	-11.29
▁butterflytattoo	-11.2901
▁neo	-11.2906
ຂຸດ	-11.2907
store	-11.2915
▁(1,0	-11.2928
▁Mask	-11.2934
ໂຈມຕີ	-11.2936
▁Steve	-11.2937
ອັງ	-11.2944
ແນະ	-11.2948
ເຕັກໂນໂລຊີສູງ	-11.2977
ຄວາມຕ້ານທານ	-11.298
ເພີ້ມ	-11.298
transposh	-11.2982
▁1/1	-11.2982
ຕົວຊີ້ວັດ	-11.2983
ສີເທົາ	-11.2983
Design	-11.2984
Android	-11.2985
ife	-11.2986
ຂໍ້ກໍານົດ	-11.2986
4.2	-11.2995
ມິນ	-11.2996
▁ກະລຸນາຕິດຕໍ່	-11.2997
ເຄື່ອງໂມ້	-11.3017
ຊ່ອງທາງ	-11.3049
▁ຕອບຕໍ່	-11.305
qiao	-11.3051
▁Classic	-11.3074
ຜູ້ຈັດການ	-11.3077
5.5	-11.3147
crypto	-11.3209
▁semicolontattoo	-11.3235
ດັ້ງເດີມ	-11.3236
▁Connect	-11.3241
ຫນ້າສົນໃຈ	-11.3246
ສະບາຍ	-11.3249
▁ແນ່	-11.325
ເວບໄຊ	-11.325
г	-11.325
ຫຼີກເວັ້ນ	-11.325
ທຸກສິ່ງທຸກຢ່າງ	-11.325
ພຶດຕິກໍາ	-11.325
▁Author	-11.325
▁Outlook	-11.325
▁TopSlotSite	-11.325
Amnesty	-11.325
Mário	-11.325
ບາດເຈັບ	-11.325
ມູນລະນິທິ	-11.325
ວັກຊີນສໍາລັບໄກ່	-11.325
ສັນຕິພາບ	-11.325
ສືບສວນ	-11.325
ຫລາກຫລາຍ	-11.325
ອາວຸໂສ	-11.325
ອາເມຣິກາ	-11.325
ເປັນເອກະພາບ	-11.325
▁ARCHITECT	-11.325
▁Centrifugal	-11.325
▁Emirates	-11.325
▁FONNOV	-11.325
▁Mitsubishi	-11.325
▁Mortgage	-11.325
▁Oggy	-11.325
▁Society	-11.325
▁Trenbolone	-11.325
▁Wrapping	-11.325
▁galaxy	-11.325
▁galvalume	-11.325
▁insulated	-11.325
▁messenger	-11.325
▁multifunctional	-11.325
▁system	-11.325
▁ຈຸດເດືອດ	-11.325
▁ຮົມ	-11.325
▁ແຮງຈູງໃຈ	-11.325
ມ່ວນຊື່ນ	-11.325
ສະຫມຸນໄພ	-11.325
ສັບສົນ	-11.325
▁OSGEAR	-11.325
▁Shovel	-11.325
▁Simulator	-11.325
▁catalog	-11.325
▁welded	-11.325
ປະເສີດ	-11.325
ລຶກ	-11.325
ເກັບກູ້	-11.325
▁Coupling	-11.325
▁Kunshan	-11.325
▁Slotjar	-11.325
▁rigid	-11.325
ສະຫງົບ	-11.325
ເຕັມໄປດ້ວຍ	-11.325
ເຟືອງ	-11.325
▁Nickel	-11.325
▁Xiamen	-11.325
▁macaron	-11.325
▁Quotes	-11.325
▁AEPF	-11.325
▁client	-11.325
▁ຫຼຽນທອງແດງ	-11.325
▁Fimta	-11.325
▁beige	-11.325
▁Champions	-11.325
1112131415161718	-11.325
▁Storage	-11.325
crushthe	-11.325
▁Oeko	-11.325
ສາຍພານລໍາລຽງ	-11.325
▁SPMK	-11.325
▁ຄະແນນສຽງ	-11.325
▁guys	-11.325
▁spider	-11.325
▁easy	-11.325
ເຮັດທຸລະກິດໃນ	-11.325
ເຮັດວຽກຮ່ວມກັບ	-11.325
▁melting	-11.325
▁CODE	-11.325
ລະບົບສາຍສົ່ງ	-11.325
▁router	-11.325
▁Tcca	-11.325
▁Hosting	-11.325
▁0.9.9.	-11.3251
▁Hammer	-11.3251
▁Lounge	-11.3251
ເຈົ້າຫນ້າທີ່	-11.3251
ອາຟຣິກາໃຕ້	-11.3251
▁After	-11.3251
▁Ferries	-11.3251
▁Regular	-11.3251
front	-11.3251
▁ບົດລະຄອນ	-11.3251
ນັ້ນພວກເຮົາຈະ	-11.3251
ຫຼັກຖານ	-11.3251
▁ຫມວດຫມູ່	-11.3252
▁Outlet	-11.3252
ເກັບກ່ຽວ	-11.3252
▁Thailand	-11.3252
▁6.0%	-11.3252
▁ນ້ໍາຫນັກສຸດທິ	-11.3252
▁ສໍາຫລັບເດັກ	-11.3252
▁123...	-11.3252
▁ວົງເລັບ	-11.3252
ຄລິກໃສ່	-11.3253
ຫນ້ອຍກ່ວາ	-11.3253
▁plug	-11.3253
LDH	-11.3254
▁ໃຫ້ເກັບຮັກສາ	-11.3255
ເສົາອາກາດ	-11.3255
ກ້າວຫນ້າ	-11.3255
▁Clinic	-11.3255
▁Bottle	-11.3255
▁Periodic	-11.3256
▁Angeles	-11.3256
▁Torch	-11.3257
▁Zhou	-11.3257
▁ທໍ່ເຫຼັກກ້າ	-11.3258
ອຸໂມງ	-11.3258
▁5181	-11.3259
▁Today	-11.3259
faq	-11.3261
▁ຈາກຂ້າງເທິງ	-11.3261
ຂອງປ່ຽງແຮງດັນ	-11.3261
▁poem	-11.3263
▁ສິ່ງພິມ	-11.3263
▁ສະຖານທີ່ຕັ້ງ	-11.3263
▁Prepar	-11.3264
▁Offers	-11.3265
▁ໄລ່	-11.3266
▁ຄວາມສົມບູນ	-11.3266
ພະລັງ	-11.3267
ຂະຫຍາຍຕົວຢ່າງ	-11.3268
▁Paint	-11.3271
▁Angel	-11.3272
▁hair	-11.3277
▁fight	-11.3277
ໄອທີ	-11.328
▁0.02	-11.3292
ບໍ່ຈໍາເປັນຕ້ອງ	-11.3307
ddie	-11.3315
▁Neuro	-11.3323
▁Bern	-11.3328
OME	-11.3335
2018-01-	-11.3339
ບາງຄົນ	-11.3347
▁ຂັ້ນຕອນທີ	-11.3354
ອາໄສ	-11.3366
OWN	-11.337
IKE	-11.3383
ຊຶ່ງ	-11.3389
(6)	-11.3397
ມູນນິທິ	-11.3398
ເດືອນກໍລະກົດ	-11.3398
ທ່ຽວ	-11.3398
ເດືອນມິຖຸນາ	-11.3399
ມະຫາຊົນ	-11.3399
Casting	-11.34
▁Hair	-11.3409
ຂໍ້ດີຂອງ	-11.3438
1,000	-11.3443
eva	-11.3451
ການລິເລີ່ມ	-11.3454
ເທຣດ	-11.3461
ຄວາມເປັນມາ	-11.3465
▁86-15	-11.349
▁roll	-11.3567
▁Archiv	-11.3613
16.9	-11.3629
ປະດັບ	-11.3631
CBM	-11.3632
ນັດ	-11.364
▁3.7	-11.3641
▁ນັກພະນັນ	-11.3643
Period	-11.3644
ອາບນ້ໍ	-11.3649
ຢືມ	-11.3649
ພາລະບົດບາດ	-11.365
▁58.0.3029.	-11.365
.07.2018	-11.365
XNUMX	-11.365
isappearance	-11.365
ย	-11.365
ຂໍ້ເທັດຈິງ	-11.365
ຈຸລະພາກ	-11.365
ພັນທະມິດ	-11.365
ຢ່າງເຂັ້ມງວດ	-11.365
ຫມັ້ນຍືນ	-11.365
ຫ້າມລໍ້	-11.365
ຮຽບຮ້ອຍ	-11.365
ເຄື່ອງພິມຝາ	-11.365
ແປ້ນພິມ	-11.365
ໂຕະມົນ	-11.365
ໃຊ້ລະຫັດໂປໂມຊັ່ນ	-11.365
▁Chiavari	-11.365
▁Excavator	-11.365
▁Fleece	-11.365
▁Guangming	-11.365
▁INTERNATIONAL	-11.365
▁Industries	-11.365
▁Mayflay	-11.365
▁Monitor	-11.365
▁MySQL	-11.365
▁OHCHR	-11.365
▁Paseky	-11.365
▁Porcelain	-11.365
▁RHCSA	-11.365
▁Woodworking	-11.365
▁Xiongxian	-11.365
▁because	-11.365
▁biscuit	-11.365
▁blackjack	-11.365
▁reserved	-11.365
▁stunning	-11.365
▁ທຽນໄຂ	-11.365
▁ບັນຍາຍ	-11.365
▁ສງວນລິຂະສິດ	-11.365
▁ຫະລື	-11.365
ຊົນນະບົດ	-11.365
ປັດຊະຍາ	-11.365
ອະວະກາດ	-11.365
ເອີ້ນກັນວ່າ	-11.365
ແອສປາໂຍນ	-11.365
▁Airpull	-11.365
▁Crazy	-11.365
▁Dashboard	-11.365
▁GNOME	-11.365
▁MOKO	-11.365
▁MacBook	-11.365
▁Mosaic	-11.365
▁Pharmaceutical	-11.365
▁ladder	-11.365
▁ການລ່າສັດ	-11.365
▁ຂຽນເມື່ອໃນ	-11.365
▁ເງິນກູ້ຢືມ	-11.365
ທັກສະ	-11.365
ລາຍະລະອຽດ	-11.365
▁Follow	-11.365
ໂອໂຕເມຕິກ	-11.365
▁Kaplan	-11.365
▁Nootropics	-11.365
ເຄື່ອງແຕ່ງກາຍ	-11.365
▁Climate	-11.365
▁Legend	-11.365
▁Yellow	-11.365
▁booth	-11.365
▁ອະນຸສັນຍາ	-11.365
19202122	-11.365
▁Ladies	-11.365
Articles	-11.365
XBET	-11.365
▁ປະຫຍັດພື້ນທີ່	-11.365
▁DRAW	-11.365
ຜູ້ໂດຍສານ	-11.365
config	-11.365
▁Booth	-11.365
Pfizer	-11.365
▁LDPA	-11.365
▁Lazy	-11.365
▁ZLP	-11.365
▁Soken	-11.365
▁Shield	-11.365
▁Daniel	-11.3651
▁Yarn	-11.3651
ຖືກສ້າງຂຶ້ນ	-11.3651
ທ່ານດຣ	-11.3651
▁ພາບລວມຂອງ	-11.3651
ເຊື້ອເຊີນ	-11.3651
▁DHL	-11.3651
▁ແດງຄວາມຄິດເຫັນ	-11.3651
ສາທາລະນະສຸກ	-11.3652
firm	-11.3652
▁(2019)	-11.3652
▁ມວຍ	-11.3652
METAL	-11.3652
▁Area	-11.3653
ຄິດເຫັນ	-11.3653
▁ຫນ່ວຍປະມວນຜົນ	-11.3653
▁blue	-11.3653
desdes	-11.3653
▁HRW	-11.3653
immer	-11.3653
▁temp	-11.3654
▁Runner	-11.3654
▁Tricks	-11.3654
▁Button	-11.3654
akarn	-11.3654
▁Surge	-11.3655
▁provide	-11.3655
ຫນ້ອຍກວ່າ	-11.3655
▁PMID	-11.3655
▁Albert	-11.3656
▁fans	-11.3656
▁vector	-11.3657
▁Customized	-11.3657
ນັກສິລະປິນ	-11.3657
▁Fluid	-11.3658
▁Xiao	-11.3658
ຫມຸດ	-11.3658
ຍ່າງທາງ	-11.3659
▁Crown	-11.3659
▁reading	-11.3659
ສັກຢາປ້ອງກັນໂຣກ	-11.3659
ການສະແດງອອກ	-11.3659
ເສີມຂະຫຍາຍ	-11.366
▁Xiong	-11.3661
▁plush	-11.3661
▁Nema	-11.3662
▁ເຂດອຸດສາຫະກໍາ	-11.3664
ຕ່ໍາກວ່າ	-11.3665
ສ໌	-11.3666
▁else	-11.3667
▁Grant	-11.3667
▁ຫວັດ	-11.3667
▁02055	-11.3669
ເຄື່ອງດູດນ້	-11.3677
ຍລຸ້ນ	-11.3679
ນ້ໍາຫອມ	-11.3682
drive	-11.3687
ຜູ້ປະກອບການ	-11.3688
ພົນ	-11.3692
▁8.2.35	-11.3693
9,000	-11.3696
(17)	-11.3701
protect	-11.3714
ຫອຍ	-11.3714
ສະບັບພາສາ	-11.3725
ທາງເລືອກໃນການ	-11.3729
ອາລົມ	-11.3743
ravel	-11.3797
8.4	-11.3822
video	-11.3834
ຮຸ່ນ	-11.3836
Super	-11.3836
(2)	-11.3841
ປອດ	-11.3841
Trade	-11.3853
▁Chem	-11.3882
ຢ່າງຫນ້ອຍ	-11.39
ສະຫນອງໃຫ້ແກ່	-11.3925
See	-11.3932
▁Prefab	-11.3945
ຈະກາຍເປັນ	-11.4017
ຢູ່ບ່ອນ	-11.4029
ບົວ	-11.4032
▁curre	-11.4043
▁ຜ່າ	-11.4058
ຮັດໃຫ້ມີແສງສະຕິງ	-11.4061
ອົດ	-11.4066
ຊຶມ	-11.4067
ໂປໂລຍ	-11.4067
ຕວກກີ	-11.4067
ລຽນ	-11.4067
▁Administration	-11.4067
NAZIONALE	-11.4067
Specification	-11.4067
iracetam	-11.4067
Ф	-11.4067
ກຽດສັກສີ	-11.4067
ຊຸກຍູ້	-11.4067
ທີ່ໂດດເດັ່ນ	-11.4067
ຟ້າຜ່າ	-11.4067
ວິກິພີເດຍ	-11.4067
ສັກກະຣາດ	-11.4067
ອົກຊີເຈນ	-11.4067
ເຜັດ	-11.4067
▁54.0.2840.	-11.4067
▁ACCURL	-11.4067
▁Ambassador	-11.4067
▁Analysis	-11.4067
▁Apparatus	-11.4067
▁Database	-11.4067
▁Gulfstream	-11.4067
▁HYBRID	-11.4067
▁Hashflare	-11.4067
▁Hyundai	-11.4067
▁Infrared	-11.4067
▁Justfog	-11.4067
▁Madrid	-11.4067
▁Nanjing	-11.4067
▁Odyssey	-11.4067
▁PRODUCT	-11.4067
▁Panasonic	-11.4067
▁Parliament	-11.4067
▁Reputation	-11.4067
▁Resistance	-11.4067
▁Semifinished	-11.4067
▁SnapChat	-11.4067
▁Soundcloud	-11.4067
▁Sydney	-11.4067
▁Tempered	-11.4067
▁Thermal	-11.4067
▁Woodwind	-11.4067
▁Zirconia	-11.4067
▁suspension	-11.4067
▁trclogiccom	-11.4067
▁wwwphcokercom	-11.4067
▁ຊື້ໃບສະຫມັກ	-11.4067
▁ທີ່ມີກຽດສະຫງ່າ	-11.4067
▁ປະຊາສັງຄົມລາວ	-11.4067
▁ຢ່າງສຸດໃຈ	-11.4067
▁ໂປແລນ	-11.4067
building	-11.4067
elegations	-11.4067
ປັ໊ກ	-11.4067
ສີຊົມພູ	-11.4067
ເປັນພີ່ນ້ອງກັນ	-11.4067
▁Facility	-11.4067
▁Pokemon	-11.4067
▁SSBP	-11.4067
▁Weifang	-11.4067
▁YOUTH	-11.4067
▁coupon	-11.4067
▁Odessa	-11.4067
▁paypal	-11.4067
▁would	-11.4067
2425262728293031	-11.4067
▁Capsule	-11.4067
ห	-11.4067
▁Purple	-11.4067
teknamfg	-11.4067
ໃກ້ຂ້ອຍໂທຫາ	-11.4067
▁Konica	-11.4067
ຄວາມສໍາພັນ	-11.4067
สด	-11.4067
ທີ່ຈະໄດ້ຮັບນີ້	-11.4067
▁credit	-11.4067
Alexander	-11.4067
straightener	-11.4067
▁cluj	-11.4067
▁TYPE	-11.4067
▁Telecom	-11.4067
ພວກເຮົາສາມາດໃຊ້	-11.4067
▁APHR	-11.4067
▁JPF	-11.4067
▁kettle	-11.4067
▁Buckle	-11.4067
health	-11.4067
▁Polymer	-11.4067
▁VirtualBox	-11.4068
ຜູ້ອຸປະຖໍາ	-11.4068
project	-11.4068
▁Shoes	-11.4068
Embed	-11.4068
ເບິ່ງຄືວ່າ	-11.4068
▁Michel	-11.4068
wheel	-11.4068
▁KYD	-11.4068
ຄາດວ່າຈະ	-11.4068
▁ດັ່ງນັ້ນຈຶ່ງ	-11.4068
▁Notepad	-11.4068
▁ນວຍການ	-11.4068
ປັ໊ມລົມ	-11.4069
▁shall	-11.4069
▁ດົນ	-11.4069
▁Plaza	-11.4069
▁ເຫມີ	-11.407
ABLE	-11.407
ດທິທັງຫມົດສະຫງວນ	-11.407
▁Self	-11.407
▁THE	-11.407
ແມ່ເຫລໍກ	-11.407
▁ເນັດ	-11.407
▁Slotmatic	-11.407
source	-11.407
▁Sewing	-11.407
ຕາເວັນອອກກາງ	-11.4071
▁776,	-11.4072
ແມງໄມ້	-11.4072
▁ເປັນຫຍັງເລືອກ	-11.4073
▁ພາທະນາຍຄວາມ	-11.4073
▁Little	-11.4073
ວິດີໂອກິດຈະກໍາ	-11.4073
▁change	-11.4074
ເປັນໄມ້ຢືນຕົ້ນ	-11.4074
▁(%)	-11.4077
▁ເຄື່ອງປ້ອນອາຫານ	-11.4077
ດິນຊາຍ	-11.4078
ທ້າຍອາທິດ	-11.4078
ຫນັງສັ້ນ	-11.4081
ພະຍານ	-11.4083
▁check	-11.4087
▁Lining	-11.4089
ກ່າວເຖິງ	-11.4089
▁User	-11.4099
hopify	-11.4108
1.23	-11.4116
▁stand	-11.4123
ປະເທດເອີຣົບ	-11.4137
▁visit	-11.4149
▁modul	-11.4152
▁Pyr	-11.4196
▁Boston	-11.4203
ຜູ	-11.4253
ຄລາສສິກ	-11.4281
Trans	-11.4283
ຊາວຫນຸ່ມ	-11.4286
ຫນ່ວຍຄວາມຈໍາ	-11.4287
Black	-11.4287
House	-11.4288
ປອກເປືອກ	-11.4288
ບົດລາຍງານ	-11.429
ຕື້	-11.4292
Direct	-11.4295
games	-11.4298
00$	-11.4318
ດູແລ	-11.4381
ກະກຽມ	-11.4383
ຮ່ວມມືລະຫວ່າງ	-11.4397
tick	-11.4406
Help	-11.4416
▁4.7	-11.442
ເອົາອອກໄດ້	-11.4437
▁CHAMPIONSHIP	-11.4486
8,000.00	-11.4487
▁inhibit	-11.4493
Pulveriz	-11.4501
ອອນໄລ	-11.4501
▁59.0.30	-11.4501
▁ເທັກໂນໂລຢີ	-11.4501
StrictlySlots	-11.4501
ງົວ	-11.4501
ກວາງຕຸ້ງ	-11.4501
ຂ້າງຄຽງ	-11.4501
ຄວາມຄືບຫນ້າ	-11.4501
...............	-11.4501
/10/2019)	-11.4501
GENNAIO	-11.4501
UZHOU	-11.4501
europetravel	-11.4501
ການໂຍກຍ້າຍ	-11.4501
ຂັບຂີ່	-11.4501
ຕົວທ່ານເອງ	-11.4501
ປ່ອຍອອກມາເມື່ອ	-11.4501
ມິດຕະພາບ	-11.4501
ສະບຽງອາຫານ	-11.4501
ສະຫນັບສະຫນຸນ	-11.4501
ສະແຕມ	-11.4501
ຫລ່ຽມ	-11.4501
ເກຣັກ	-11.4501
ແບບສະຫມັກໃຈ	-11.4501
▁Aluminium	-11.4501
▁BSCIS	-11.4501
▁Biscuit	-11.4501
▁Chicago	-11.4501
▁Communication	-11.4501
▁Competition	-11.4501
▁Daddy	-11.4501
▁Dehydrat	-11.4501
▁Ethereum	-11.4501
▁Extruder	-11.4501
▁Fisayo	-11.4501
▁Handheld	-11.4501
▁Imperial	-11.4501
▁Jablonec	-11.4501
▁MATERIALS	-11.4501
▁Matthew	-11.4501
▁MetaTrader	-11.4501
▁NETWORK	-11.4501
▁SWEDEN	-11.4501
▁Sitmonchai	-11.4501
▁SoftKelo	-11.4501
▁Sublimation	-11.4501
▁Websetnet	-11.4501
▁bassoon	-11.4501
▁curtain	-11.4501
▁encrypted	-11.4501
▁furnace	-11.4501
▁hardfork	-11.4501
▁imminent	-11.4501
▁inkjet	-11.4501
▁insulator	-11.4501
▁selfie	-11.4501
▁silicone	-11.4501
▁simulator	-11.4501
▁ขาย	-11.4501
▁ຊິມກ໊າດ	-11.4501
▁ບັນໄດ	-11.4501
▁ບຽນ	-11.4501
ອັດຕາເງິນເຟີ້	-11.4501
ເດນມາກ	-11.4501
ເອີໂຣ	-11.4501
ໃກ້ຄຽງ	-11.4501
▁CISSP	-11.4501
▁CLASS	-11.4501
▁Chiffon	-11.4501
▁EPDM	-11.4501
▁Joomla	-11.4501
▁Watermark	-11.4501
▁Wolford	-11.4501
▁sludge	-11.4501
msterdam	-11.4501
ວັນນະຄະດີ	-11.4501
ໂຊກດີ	-11.4501
▁Mercedes	-11.4501
▁Richard	-11.4501
▁receptor	-11.4501
▁require	-11.4501
▁wreck	-11.4501
▁Clutch	-11.4501
Natural	-11.4501
ropshipping	-11.4501
▁Braided	-11.4501
▁EVENT	-11.4501
ຖາດ	-11.4502
▁Vimeo	-11.4502
▁access	-11.4502
▁Saudi	-11.4502
▁MCNV	-11.4502
ສະມາທິ	-11.4502
▁parser	-11.4502
▁stamping	-11.4502
▁London	-11.4502
▁ຟລີສະປິນທີ່	-11.4502
▁MCSE	-11.4502
ອົບອຸ່ນ	-11.4502
▁Walter	-11.4502
▁Thermostat	-11.4502
▁AUTO	-11.4502
▁NEON	-11.4502
▁Worth	-11.4502
▁Patent	-11.4502
▁zipper	-11.4502
▁Sandals	-11.4502
ระ	-11.4502
Mhz	-11.4502
▁CISA	-11.4502
▁Body	-11.4502
Record	-11.4502
▁address	-11.4503
▁monster	-11.4503
▁Potency	-11.4503
▁Address	-11.4503
▁Jackpot	-11.4503
ເພິ່ນ	-11.4503
ງານບຸນ	-11.4503
▁+856-21	-11.4503
ດົນໃຈ	-11.4503
▁roof	-11.4503
▁backpack	-11.4503
ລ່າສຸດ	-11.4504
ການເຂົ້າລະຫັດ	-11.4504
▁TBL	-11.4504
▁Olympic	-11.4505
▁Compound	-11.4505
▁Breaking	-11.4505
ມັກເພງ	-11.4505
▁Diego	-11.4506
therapy	-11.4506
▁2018-09-	-11.4507
▁research	-11.4507
▁3/4	-11.4507
▁HCL	-11.4507
▁team	-11.4508
▁friendtattoos	-11.4509
883.	-11.4511
ບໍລິສັດໃຫ້ເຊົ່າ	-11.4511
▁batch	-11.4515
ເຊື່ອວ່າ	-11.4518
ແບບດັ້ງເດີມ	-11.4518
ສີຄີມ	-11.4535
▁Merc	-11.4536
ຟິມ	-11.4539
ຍິນດີ	-11.4539
▁open	-11.4541
▁Palm	-11.4546
ມີຄວາມຊ່ຽວຊານໃນ	-11.4554
▁pcb	-11.4572
ສຸດທິ	-11.4605
6.8	-11.4694
ບໍລິໂພກພະລັງງານ	-11.4702
ເປັນຄູ່ຮ່ວມ	-11.4722
Preci	-11.475
ເຫມາະ	-11.4764
ເມນູ	-11.4765
±	-11.4765
Mobile	-11.4767
0-500	-11.4768
▁Crea	-11.4772
▁ຟິ	-11.4799
★	-11.4804
▁Ferr	-11.4857
posit	-11.4905
ຟູ	-11.4911
▁cheat	-11.4914
▁ເຫຼົ່າ	-11.4918
ທຸກໆມື້	-11.4924
ການປະຕິວັດ	-11.4937
ແກ໊ດ	-11.4956
ວຽງ	-11.4956
ส	-11.4956
ປະຫລາດໃຈ	-11.4956
rosilicon	-11.4956
ຜ່ອນຄາຍ	-11.4956
ລ້ອມ	-11.4956
ອົດສະຕຣາລີ	-11.4956
ແອັກໂກ້	-11.4956
ຄອບຄຸມ	-11.4956
ຊາທິປະໄຕ	-11.4956
ດຸ່ນດ່ຽງ	-11.4956
ຕິກິຣິຍາ	-11.4956
ປະທ້ວງ	-11.4956
ລົບກວນ	-11.4956
ເຄື່ອງແມ່ຂ່າຍ	-11.4956
ແພັກເກດ	-11.4956
▁42.0.2393.	-11.4956
▁Koshibo	-11.4956
▁ແຫນ່ງ	-11.4956
/06/2016	-11.4956
992-9033	-11.4956
RECOVER	-11.4956
ການເຈລະຈາ	-11.4956
ຂົດລວດ	-11.4956
ທີ່ກໍາຫນົດເອງ	-11.4956
ມະລາຍຫາຍໄປ	-11.4956
ມຽນມາ	-11.4956
ສະທ້ອນໃຫ້ເຫັນ	-11.4956
ຫຼາຍຮ້ອຍຄົນ	-11.4956
▁AUTOMATIC	-11.4956
▁Arbitration	-11.4956
▁Cambridge	-11.4956
▁Costume	-11.4956
▁Dispenser	-11.4956
▁Dynamic	-11.4956
▁Edmunds	-11.4956
▁Education	-11.4956
▁Enanthate	-11.4956
▁Engraving	-11.4956
▁Giveaway	-11.4956
▁Glasgow	-11.4956
▁Harvard	-11.4956
▁Nandrolone	-11.4956
▁Naruto	-11.4956
▁Outdoor	-11.4956
▁Platinum	-11.4956
▁Removable	-11.4956
▁SHANGHAI	-11.4956
▁Transparent	-11.4956
▁Validity	-11.4956
▁bugfix	-11.4956
▁crystal	-11.4956
▁turboprop	-11.4956
▁ກາໂນມ	-11.4956
▁ປຸ່ນ	-11.4956
▁ມະຈອນເຕັ້ນ	-11.4956
▁ມິລິເມັດ	-11.4956
Anundgård	-11.4956
ຊີວະສາດ	-11.4956
ຮວບຮວມ	-11.4956
ເຄື່ອງປັ່ນ	-11.4956
ເພີງ	-11.4956
ແກະສະຫຼັກ	-11.4956
▁Foldable	-11.4956
▁Leisure	-11.4956
▁Ripple	-11.4956
▁Toronto	-11.4956
▁Toyota	-11.4956
▁tagged	-11.4956
▁Jogger	-11.4956
▁Lithium	-11.4956
▁Shangke	-11.4956
▁Songjiang	-11.4956
▁punching	-11.4956
▁ຂໍ້ມູນຕົວເຄື່ອງ	-11.4956
▁Sleeve	-11.4956
▁PPGI	-11.4956
▁Pebble	-11.4956
Hovercraft	-11.4956
▁Secure	-11.4956
▁garage	-11.4956
(248)	-11.4956
▁Spanish	-11.4956
▁Spindle	-11.4956
Acceler	-11.4956
▁Cajon	-11.4956
▁Cluster	-11.4956
▁Cheese	-11.4956
▁BLOG	-11.4956
▁Rewards	-11.4956
▁phosphate	-11.4956
▁graphite	-11.4956
▁EXPO	-11.4956
ທີ່ສູງທີ່ສຸດ	-11.4956
Cartoon	-11.4956
▁Alkali	-11.4956
▁Boeing	-11.4957
ການຍົກຕົວຢ່າງ	-11.4957
ເກົາຫລີໃຕ້	-11.4957
▁MCAT	-11.4957
▁ticket	-11.4957
▁Season	-11.4957
▁SUPER	-11.4957
▁Jeans	-11.4957
ເຍື່ອ	-11.4957
▁Bench	-11.4957
/12/2019	-11.4957
ຮອບວຽນ	-11.4957
▁Falls	-11.4957
▁Password	-11.4957
▁ຢ່າງໃດກໍ່ຕາມ	-11.4957
▁stitch	-11.4957
ສະຫນາມກິລາ	-11.4957
ສິດທິມະນຸດ	-11.4958
Wonder	-11.4958
▁DTG	-11.4958
▁DSF	-11.4958
ພຽງເລັກນ້ອຍ	-11.4958
ຜັກທຽມ	-11.4958
ສະຫລາດ	-11.4958
ໃຕ້ດິນ	-11.4958
▁driver	-11.4959
ທາດປະສົມ	-11.4959
▁preform	-11.496
ບໍ່ໄດ້ຮັບອະນຸຍາດ	-11.4961
▁Complet	-11.4961
▁55.0.2	-11.4962
▁CMC	-11.4962
▁Quiz	-11.4963
ໄຟໄຫມ້	-11.4964
ັກພະນັນທີ່ຫຼິ້ນ	-11.4965
.01.201	-11.4969
▁ມລ	-11.497
ສົນທະ	-11.497
▁ALP	-11.497
▁Plex	-11.4974
ບາງຄັ້ງ	-11.498
index	-11.4984
ຫມົດອາຍຸ	-11.4984
ຕໍ່ກິໂລ	-11.4998
830	-11.5001
▁Simple	-11.5029
ສື່ສານ	-11.505
▁Construct	-11.5065
obby	-11.5073
▁1.7	-11.5095
ປະເທດຍີ່ປຸ່ນ	-11.5111
▁≤0.	-11.5129
ກໍາຈັດຂີ້ຝຸ່ນ	-11.514
ຖືກອອກແບບມາ	-11.5168
5,000.00	-11.526
Serv	-11.5261
Internet	-11.5262
Windows	-11.5267
Micro	-11.5276
ນູນ	-11.5279
study	-11.5309
8.1	-11.5329
8.91	-11.536
ມີຊື່ສຽງ	-11.5385
▁ຢ້ຽມ	-11.5431
ຜິດຖຽງ	-11.5432
ຖະແຫຼງ	-11.5432
ປະລິນຍາໂທ	-11.5432
ຜູ້ປ່ວຍ	-11.5432
ເຫຼົ້າແວງ	-11.5432
maximum	-11.5432
ຄົບຖ້ວນ	-11.5432
ບັດເຄດິດ	-11.5432
ປະເພນີ	-11.5432
ຜູ້ຕາງຫນ້າ	-11.5432
ຜ້າໄຫມ	-11.5432
ພວງມາໄລ	-11.5432
ພີວີຊີ	-11.5432
ຢາຕ້ານເຊື້ອ	-11.5432
ອະທິຖານ	-11.5432
ໂປເຈັກເຕີ	-11.5432
້າງແລະລະບາຍນ້ໍາ	-11.5432
▁Attenuated	-11.5432
▁Baccarat	-11.5432
▁Bulldozer	-11.5432
▁Description	-11.5432
▁Emboss	-11.5432
▁Encrusting	-11.5432
▁Journal	-11.5432
▁Litbright	-11.5432
▁Morehacks	-11.5432
▁OpenStack	-11.5432
▁PowerShell	-11.5432
▁Stuttgart	-11.5432
▁Treadmill	-11.5432
▁Uzbekistan	-11.5432
▁baseball	-11.5432
▁between	-11.5432
▁biodegradable	-11.5432
▁citycoco	-11.5432
▁eclipse	-11.5432
▁gumball	-11.5432
▁machining	-11.5432
▁milkshake	-11.5432
▁separator	-11.5432
▁ກະຕຸກ	-11.5432
▁ຍົກເລີກການຕອບ	-11.5432
▁ລິ່ນຈີ່	-11.5432
▁ວາວຜີເສື້ອ	-11.5432
▁ເສື້ອໂປໂລ	-11.5432
Malaysia	-11.5432
ການເຕືອນໄພ	-11.5432
ກໍາມະຈອນເຕັ້ນ	-11.5432
ຈາລະຈອນ	-11.5432
ວໍຊິງຕັນ	-11.5432
▁crashing	-11.5432
▁tensile	-11.5432
ເຜິ້ງ	-11.5432
▁Cologne	-11.5432
▁Podcast	-11.5432
▁Science	-11.5432
▁burner	-11.5432
▁dewatering	-11.5432
▁pretty	-11.5432
▁violin	-11.5432
03933	-11.5432
ຈືດ	-11.5432
ເທດສະບານ	-11.5432
▁while	-11.5432
science	-11.5432
ສຕິກ	-11.5432
widget	-11.5432
ທີ່ນໍາສະເຫນີໂດຍ	-11.5432
▁ILSTA	-11.5432
▁ປອມຫຍ້າ	-11.5432
ຄວາມຫນ້າເຊື່ອຖື	-11.5432
ຜູ້ຈັດຈໍາຫນ່າຍ	-11.5432
▁Policy	-11.5432
▁students	-11.5432
▁Stories	-11.5432
▁Process	-11.5432
▁Poems	-11.5432
▁62.00	-11.5432
▁ຄູຝຶກສອນ	-11.5432
sitemap	-11.5432
Anavar	-11.5432
square	-11.5432
▁Kazan	-11.5432
▁Towel	-11.5432
audio	-11.5432
▁server	-11.5432
session	-11.5432
▁Theatre	-11.5432
▁harley	-11.5432
▁SKIN	-11.5433
▁Organic	-11.5433
▁MCSA	-11.5433
▁TCCA	-11.5433
▁NXK	-11.5433
▁bulb	-11.5433
▁MSDS	-11.5433
ສີດໍາແລະສີຂາວ	-11.5433
ມົນລະພິດທາງອາກາດ	-11.5433
ແຟຊັ່ນ	-11.5433
▁torque	-11.5433
▁(2017)	-11.5433
▁small	-11.5433
▁Gaming	-11.5434
▁Truss	-11.5434
ປະຕິບັດໄດ້ງ່າຍ	-11.5434
ກ້ອນຫີນ	-11.5434
Portugu	-11.5434
▁Refin	-11.5434
ка	-11.5434
▁ຕາແມັດ	-11.5434
▁(4,8	-11.5434
ອະນຸພາກ	-11.5434
▁Trend	-11.5435
▁Wafer	-11.5435
▁Photoshop	-11.5436
ເດີ່ນ	-11.5436
▁Jinhua	-11.5437
ນອກຈາກນີ້ຍັງມີ	-11.5438
▁loom	-11.5438
▁IOC	-11.5438
ເຕົາເຜົາ	-11.5439
▁ດຣ	-11.544
▁loading	-11.544
ກໍລະນີສຶກສາ	-11.5442
▁lace	-11.5444
ຊ່ອງຫວ່າງ	-11.5453
partner	-11.5459
ພາກຕາເວັນຕົກ	-11.5462
▁ຮຽນຮູ້ເພີ່ມເຕີມ	-11.5478
ສ້າງຄວາມເສຍຫາຍ	-11.5484
▁stack	-11.5486
-07-20	-11.5522
axis	-11.5554
▁rust	-11.5559
ຊີບໃນ	-11.5641
Temp	-11.5722
Exam	-11.5747
▁ແຈກ	-11.5756
ວິຕາມິນ	-11.5788
Max	-11.5788
Hyperbaric	-11.5792
Marketing	-11.5792
1.0.0	-11.5845
ຖ້ວມ	-11.5913
▁ຟື້ນ	-11.593
ເລັກນ້ອຍ	-11.5932
ເນປານ	-11.5932
ຍິນຍອມ	-11.5932
ຍັບຍັ້ງ	-11.5932
ສັນລະເສີນ	-11.5932
ອັກເສບ	-11.5932
▁manufact	-11.5932
activator	-11.5932
ແພລະຕະຟອມ	-11.5932
Gibraltar	-11.5932
Salganik	-11.5932
publicidadonline	-11.5932
ການທໍາງານຂອງ	-11.5932
ສຸຂາພິບານ	-11.5932
ຫ້ອງສະຫມຸດ	-11.5932
ອອສເຕີຍ	-11.5932
ອີຄອມເມີຊ	-11.5932
ເກາະລັນ	-11.5932
ເທົ່າທຽມກັນ	-11.5932
ເຫລົາດິນສໍ	-11.5932
ໂຊດຽມ	-11.5932
ໂປຣແກມ	-11.5932
ໄມ້ໄຜ່	-11.5932
▁031-738-599	-11.5932
▁2011-2020	-11.5932
▁Adventus	-11.5932
▁AllHomes	-11.5932
▁Amazing	-11.5932
▁Avengers	-11.5932
▁Borosilicate	-11.5932
▁Casinophonebill	-11.5932
▁Consulting	-11.5932
▁Cushion	-11.5932
▁Dolphin	-11.5932
▁Donald	-11.5932
▁Essential	-11.5932
▁Humidifier	-11.5932
▁Interface	-11.5932
▁Lorcaserin	-11.5932
▁Lozenge	-11.5932
▁MobileCasinoFun	-11.5932
▁Nitrile	-11.5932
▁Oxandrolone	-11.5932
▁Phosphoric	-11.5932
▁Qualcomm	-11.5932
▁Santiago	-11.5932
▁Virginia	-11.5932
▁Weekly	-11.5932
▁fairytale	-11.5932
▁funicular	-11.5932
▁omniverse	-11.5932
▁skeleton	-11.5932
▁sublimation	-11.5932
▁superadmin	-11.5932
▁tactile	-11.5932
▁ຊາມູເອນ	-11.5932
▁ອັນເທີເນເຕີ	-11.5932
▁ໂຫຍດ	-11.5932
ດີວີດີ	-11.5932
ພະຍາດເບົາຫວານ	-11.5932
▁(2009)	-11.5932
▁(866)	-11.5932
▁Hitachi	-11.5932
▁Launcher	-11.5932
▁Rugby	-11.5932
▁Vulcan	-11.5932
▁quartet	-11.5932
ຄວາມຊຸ່ມ	-11.5932
▁Radiant	-11.5932
▁Second	-11.5932
▁Template	-11.5932
▁flicker	-11.5932
ທະວີບ	-11.5932
ປົດປ່ອຍ	-11.5932
ຫຍາບ	-11.5932
▁karma	-11.5932
▁soccer	-11.5932
▁ຄວາມເບີກ	-11.5932
▁Shimge	-11.5932
ข	-11.5932
▁Alliance	-11.5932
▁NULL	-11.5932
▁Puppy	-11.5932
▁playlist	-11.5932
▁Bridge	-11.5932
▁Doodle	-11.5932
▁Hollow	-11.5932
ຈໍາແນກ	-11.5932
▁Dhabi	-11.5932
▁Booster	-11.5932
▁Field	-11.5932
▁Murata	-11.5932
▁VMware	-11.5932
ໃນເດືອນທັນວາ	-11.5932
▁Macaron	-11.5932
▁Bucket	-11.5932
▁canvas	-11.5932
▁Mbps	-11.5932
▁Metric	-11.5932
▁Wheel	-11.5932
▁Tianxing	-11.5932
ອາບນ້	-11.5932
▁Ticket	-11.5932
▁43.0.2442.	-11.5932
▁Garden	-11.5932
saveatrain	-11.5932
ສາມາດປັບແຕ່ງໄດ້	-11.5932
▁Holding	-11.5932
▁50/60	-11.5932
FIBER	-11.5932
▁plasma	-11.5933
▁ຄໍາສັບຕ່າງໆ	-11.5933
ສະຫະປະຊາຊາດ	-11.5933
▁Yjd	-11.5933
ການກະທໍາ	-11.5933
▁Russia	-11.5933
▁ຮ່ອງທໍ່	-11.5933
▁Rush	-11.5933
ການສິດສອນ	-11.5933
▁44.0.2	-11.5933
ຕິດຕໍ່ຫາພວກເຮົາ	-11.5933
▁cabin	-11.5933
▁----	-11.5934
▁Downlight	-11.5934
▁hydrogen	-11.5934
▁huge	-11.5934
▁DWG	-11.5934
▁SFP	-11.5934
▁ແທກ	-11.5934
ст	-11.5934
Organ	-11.5935
▁mattress	-11.5935
▁MGA	-11.5936
▁feel	-11.5937
▁AFP	-11.5938
▁HZM	-11.5938
hours	-11.5938
▁Swap	-11.5938
ໂຮງລະຄອນ	-11.5938
▁ຊິກ	-11.594
ຕົວແທນຈໍາຫນ່າຍ	-11.5941
▁epic	-11.5942
btc	-11.5945
worth	-11.5958
ແວດ	-11.5998
ໄລຍະຫ່າງ	-11.6079
ທີ່ຄ້າຍຄືກັນ	-11.6108
trend	-11.6281
0/5	-11.633
John	-11.6343
ອະໄຫລ່	-11.6344
ເດືອນພະຈິກ	-11.6345
ຊູແອັດ	-11.6345
ສູງສຸດທີ່ເຄຍ	-11.6346
Español	-11.6347
International	-11.6348
uangpi	-11.6381
ຝາກເງິນ	-11.6388
ການແປພາສາ	-11.6391
ໄຫມ້	-11.6449
ທະບຽນ	-11.6456
ແບບຈໍາລອງ	-11.6457
ສະລັບສັບຊ້ອນ	-11.6458
ຫລໍ່ລື່ນ	-11.6458
ໄຫຫີນ	-11.6458
RescuePRO	-11.6458
ພື້ນຖານໂຄງລ່າງ	-11.6458
ຟຸ່ມເຟືອຍ	-11.6458
ອິດສະຫຼະ	-11.6458
ແຄລິຟໍເນຍ	-11.6458
▁ຈຸດສຸມ	-11.6458
50/900/1800/1900	-11.6459
Commercial	-11.6459
Pantallas	-11.6459
TURKEY	-11.6459
archivbox	-11.6459
dynamic	-11.6459
hotoluminescent	-11.6459
ຄວາມຊຸ່ມຊື່ນ	-11.6459
ທະເລສາບ	-11.6459
ບັດເຄຣດິດ	-11.6459
ບັນເທົາ	-11.6459
ຜົວ	-11.6459
ພະຍາບານ	-11.6459
ຟອສເຟດ	-11.6459
ລະດູໃບໄມ້ປົ່ງ	-11.6459
ສະແຫວງຫາ	-11.6459
ສຶກສາທິການ	-11.6459
ສຸພາບສະຕີ	-11.6459
ອິດສະຣາເອນ	-11.6459
ເສັ້ນເລືອດຕັນໃນ	-11.6459
ໄຟຟ້າສະຖິດ	-11.6459
້ຽງລູກດ້ວຍນົມແມ່	-11.6459
▁(+150$)	-11.6459
▁Analytics	-11.6459
▁BRESCIA	-11.6459
▁Chlorine	-11.6459
▁Communities	-11.6459
▁Corrugated	-11.6459
▁Decorative	-11.6459
▁Estepona	-11.6459
▁Hormone	-11.6459
▁Hyderabad	-11.6459
▁Intelligence	-11.6459
▁LIMITED	-11.6459
▁Laminating	-11.6459
▁Michigan	-11.6459
▁Nuremberg	-11.6459
▁Offshore	-11.6459
▁Paraffin	-11.6459
▁Polyurethane	-11.6459
▁Pursuit	-11.6459
▁Pyjamas	-11.6459
▁Rayhaber	-11.6459
▁Recliner	-11.6459
▁Saxophone	-11.6459
▁Sintered	-11.6459
▁SoundCloud	-11.6459
▁Tenerife	-11.6459
▁Thieves	-11.6459
▁Tianeptine	-11.6459
▁Vibrating	-11.6459
▁Vladimir	-11.6459
▁Zigzag	-11.6459
▁apprenticed	-11.6459
▁camouflage	-11.6459
▁cushion	-11.6459
▁generator	-11.6459
▁polyethylene	-11.6459
▁taffeta	-11.6459
▁ກະລ້າມ	-11.6459
▁ຈົນຮອດ	-11.6459
▁ອະພາດເມນ	-11.6459
ngwugas	-11.6459
ຈໍແດນ	-11.6459
ລີສອດ	-11.6459
ຫ່າງໄກສອກຫຼີກ	-11.6459
ໄຕມາດ	-11.6459
▁GTVC	-11.6459
▁Ministries	-11.6459
▁Olorra	-11.6459
▁Separation	-11.6459
▁carbide	-11.6459
▁notepad	-11.6459
▁pencil	-11.6459
▁Essay	-11.6459
▁Hamburg	-11.6459
▁NCLEX	-11.6459
▁Reducer	-11.6459
▁Stuffed	-11.6459
▁Tengzhou	-11.6459
▁famous	-11.6459
▁fimta	-11.6459
▁malware	-11.6459
▁pendant	-11.6459
▁telecharger	-11.6459
▁Pioneer	-11.6459
▁Reusable	-11.6459
▁ເບີແຟັກແລະ	-11.6459
▁Dacron	-11.6459
▁59.0.3071.	-11.6459
▁socket	-11.6459
ຄໍາຂວັນ	-11.6459
ການແຈ້ງເຕືອນ	-11.6459
▁Ladder	-11.6459
▁Lotto	-11.6459
£££	-11.6459
▁Razor	-11.6459
▁16.04	-11.6459
ສີມັງ	-11.6459
▁Pearl	-11.6459
▁psychic	-11.6459
▁ດັດນີ	-11.6459
▁Pellet	-11.6459
▁summer	-11.6459
▁radial	-11.6459
▁present	-11.6459
resident	-11.6459
▁SSAW	-11.6459
▁Lotte	-11.6459
▁Naked	-11.6459
▁Vision	-11.6459
▁Crimp	-11.6459
▁network	-11.6459
etrahe	-11.6459
▁Small	-11.6459
ພໍ່ຄ້າ	-11.6459
ມະຕິກອງປະຊຸມ	-11.6459
▁Kiln	-11.6459
▁Bird	-11.6459
Tassel	-11.646
▁Xiaomi	-11.646
▁ຖິ່ນ	-11.646
ມັກຂໍເອົາ	-11.646
ລາຕິນ	-11.646
▁JMC	-11.646
▁Fortune	-11.646
▁Dmf	-11.6461
▁VLC	-11.6461
▁sweat	-11.6461
▁those	-11.6461
Espej	-11.6462
ຈັດຂຶ້ນໃນວັນ	-11.6463
Latte	-11.6464
▁Burk	-11.647
ໂປຣໄຟລ໌	-11.647
Xxx	-11.6478
ynol	-11.6479
9.0	-11.651
button	-11.6518
ມາະສໍາຫລັບການພິມ	-11.6549
▁ແຕນເລດເຫຼັກ	-11.6551
PLAY	-11.6607
equest	-11.6618
້ໍາຫນັກເບົາ	-11.6623
Leave	-11.6625
Statement	-11.6632
Auto	-11.6669
struction	-11.6691
ຕໍ່ເນື່ອງ	-11.6817
ປຶກສາ	-11.682
ó	-11.6848
Threads	-11.6898
ແຕກຕ່າງ	-11.6911
【	-11.6933
Cheat	-11.6936
Twitter	-11.6936
ສວຍງາມ	-11.6954
▁Produc	-11.7
▁Instrument	-11.7002
▁cyclon	-11.7003
▁Environment	-11.7003
▁ແມງ	-11.7008
▁ຊຸມ	-11.7012
▁ຢັ້ງ	-11.7013
ด	-11.7014
ບັນຍາກາດ	-11.7014
ໂຕ໊ະ	-11.7014
ຍຸຕິທໍາ	-11.7014
ປູກຝັງ	-11.7014
ພີ່ນ້ອງ	-11.7014
ຢຸດເຊົາ	-11.7014
\\\\	-11.7014
ໃຫ້ຄໍາປຶກສາ	-11.7014
/11/2019	-11.7014
Prabang	-11.7014
Survivor	-11.7014
Yenişehir	-11.7014
hiophosphoric	-11.7014
hloroisocyanuric	-11.7014
ntertainment	-11.7014
webtalkco	-11.7014
ຄວາມກະດ້າງ	-11.7014
ຈັກກະວານ	-11.7014
ລາແຕັງ	-11.7014
ລົດແທກຊີ	-11.7014
ອົກຊີ	-11.7014
ເສລີ່ຍ	-11.7014
ໂຟນເດີ	-11.7014
ໄນຈີເລຍ	-11.7014
▁91-993.702.7574	-11.7014
▁CSGOLIVE	-11.7014
▁Chlormequat	-11.7014
▁Columbia	-11.7014
▁Curtain	-11.7014
▁Freiburg	-11.7014
▁Hearthstone	-11.7014
▁Hollywood	-11.7014
▁Hybrid	-11.7014
▁Ignition	-11.7014
▁Locksmith	-11.7014
▁Marmaray	-11.7014
▁Palazzo	-11.7014
▁Phoenix	-11.7014
▁Radiography	-11.7014
▁Sundsvall	-11.7014
▁Tensile	-11.7014
▁Unconventional	-11.7014
▁buddypress	-11.7014
▁campfire	-11.7014
▁discharge	-11.7014
▁leisure	-11.7014
▁precipitation	-11.7014
▁rugby	-11.7014
▁ນະຄອນຫລວງວຽງຈັນ	-11.7014
▁ຜະລິດແນນສຽງ	-11.7014
ການປ່ອຍອາຍພິດ	-11.7014
ບາບີຄິວ	-11.7014
ຜັນຂະຫຍາຍ	-11.7014
ລົດພ່ວງ	-11.7014
ຫມວກກັນກະທົບ	-11.7014
▁BLDC	-11.7014
▁Bonsai	-11.7014
▁Detroit	-11.7014
▁Zealand	-11.7014
▁nickel	-11.7014
▁punched	-11.7014
▁Bhubaneswar	-11.7014
▁Federal	-11.7014
▁ນອກເຫນືອໄປຈາກ	-11.7014
ຂູດ	-11.7014
ສາມຫຼ່ຽມ	-11.7014
ອາໄຫຼ່	-11.7014
ໃນຕອນເຊົ້າ	-11.7014
▁316142	-11.7014
▁Adsse	-11.7014
▁Angular	-11.7014
▁Yahoo	-11.7014
▁unloader	-11.7014
ນ້ໍາພຸ	-11.7014
▁Oversized	-11.7014
▁Xuzhou	-11.7014
ປ້ອງກັນບໍ່ໃຫ້	-11.7014
▁Overalls	-11.7014
▁Assist	-11.7014
▁Moodle	-11.7014
▁Robux	-11.7014
▁Sharpener	-11.7014
▁ຄລິກທີ່ນີ້	-11.7014
ການຂຸດຂີ້ຝຸ່ນ	-11.7014
ານເຂົ້າຫາທີ່ນີ້	-11.7014
ສພລ	-11.7014
▁Taslan	-11.7014
▁Neuroscience	-11.7014
▁Radial	-11.7014
▁FXCC	-11.7014
ທ່ານຫມໍ	-11.7014
ເປັນດ່າງ	-11.7014
▁Flares	-11.7014
▁ສະຫງວນໄວ້	-11.7014
ລະງັບ	-11.7014
ຈິດວິນຍານ	-11.7014
Pivot	-11.7014
Banner	-11.7014
▁Gabion	-11.7015
ອົດທົນ	-11.7015
▁polymer	-11.7015
▁plaster	-11.7015
▁Linton	-11.7015
gauge	-11.7015
▁package	-11.7015
▁Fastener	-11.7015
▁choir	-11.7015
▁Silica	-11.7015
▁ຊາວຫນ້າ	-11.7015
▁things	-11.7015
▁click	-11.7015
▁essay	-11.7015
▁portable	-11.7015
▁escape	-11.7016
ັ໊ມລົມໄຟຟ້າໄຟຟ້າ	-11.7016
Asset	-11.7017
razole	-11.7017
Blower	-11.7017
ພຣະວິນຍານ	-11.7018
▁Rivet	-11.7024
machinery	-11.7032
Compass	-11.7089
Order	-11.7123
▁Borde	-11.7255
▁ITALIA	-11.7528
Italiano	-11.7556
ທອງເຫລືອງ	-11.7556
Christ	-11.7558
≥	-11.7558
Technology	-11.7562
▁Select	-11.7594
ວິນຍານ	-11.7601
ລິເຄຊັນ	-11.7602
ທີ່ລະອຽດອ່ອນ	-11.7602
ພົນລະເຮືອນ	-11.7602
ແຂໍງ	-11.7602
▁850/900/	-11.7602
Pokémon	-11.7602
nnapresso	-11.7602
trainjourney	-11.7602
ການຊອກຄົ້ນຫາ	-11.7602
ຊ່າງພາບ	-11.7602
ດຖຸປະສົງສາທາລະນະ	-11.7602
ຖານຄວາມຈໍາ	-11.7602
ປະຕິກິລິຍາ	-11.7602
ຜູ້ເຂົ້າຢ້ຽມຊົມ	-11.7602
ມີກໍານົດນໍາສະແດງ	-11.7602
ລາຄາບໍ່ແພງ	-11.7602
ຫາຍສາບສູນ	-11.7602
ອັດສະລິຍະ	-11.7602
ອາເຈນຕິນາ	-11.7602
ເຄື່ຶອງ	-11.7602
ເຈນີວາ	-11.7602
ເສດຖະສາດ	-11.7602
ແຮງບັນດານໃຈ	-11.7602
ໂປຼແກຼມ	-11.7602
▁999-81-5	-11.7602
▁Adventure	-11.7602
▁BEQUAL	-11.7602
▁Bracket	-11.7602
▁CIXI	-11.7602
▁DIRECT	-11.7602
▁FitnessRebates	-11.7602
▁GENERAL	-11.7602
▁Galvalume	-11.7602
▁Inventor	-11.7602
▁Necklace	-11.7602
▁Novosibirsk	-11.7602
▁OnePlus	-11.7602
▁Prostepper	-11.7602
▁Suspension	-11.7602
▁TOEFL	-11.7602
▁VOLTAGE	-11.7602
▁WCDMA	-11.7602
▁against	-11.7602
▁anabolic	-11.7602
▁coinflip	-11.7602
▁hardcore	-11.7602
▁impeller	-11.7602
▁precipitator	-11.7602
▁solution	-11.7602
▁télécharger	-11.7602
▁vibration	-11.7602
▁ກິ່ນຫອມ	-11.7602
▁ຄວາມຄຽດ	-11.7602
▁ຟິນແລນ	-11.7602
▁ຢູເຄລນ	-11.7602
wysluxury	-11.7602
ຕຸລະກີ	-11.7602
ຖ່າຍທອດ	-11.7602
ບໍ່ຫວັງຜົນກໍາໄລ	-11.7602
ຮູ້ບຸນຄຸນ	-11.7602
ເລຂາທິການ	-11.7602
▁Discovery	-11.7602
▁Mozilla	-11.7602
▁Xcache	-11.7602
▁ແຫນງ	-11.7602
73.104	-11.7602
ຄໍານິຍາມ	-11.7602
ຍັກໃຫຍ່	-11.7602
ນອກເຫນືອຈາກ	-11.7602
ປະເຊີນຫນ້າ	-11.7602
ສົງໄສ	-11.7602
ເສອແຂນ	-11.7602
ແມ້ກະທັ້ງ	-11.7602
ໄພພິບັດ	-11.7602
▁000-039335	-11.7602
▁Longkou	-11.7602
▁için	-11.7602
▁ligne	-11.7602
▁lottery	-11.7602
ını	-11.7602
▁Colombia	-11.7602
▁Handbag	-11.7602
▁Rabbit	-11.7602
▁Shazam	-11.7602
ກອຟ	-11.7602
▁Philips	-11.7602
▁Shuttle	-11.7602
▁หน	-11.7602
▁Bookmark	-11.7602
▁JPEG	-11.7602
▁Thrust	-11.7602
▁Mandala	-11.7602
ສ່ວນທີ່ເຫຼືອ	-11.7602
ກະບະ	-11.7602
▁HIGH	-11.7602
▁LFEF	-11.7602
▁Please	-11.7602
▁61.0.31	-11.7602
ເປັນເຈົ້າພາບ	-11.7602
▁ອາບນ້ໍຮ້ອນ	-11.7602
ນ້ໍາປະປາ	-11.7602
ຄວາມຫມັ້ນໃຈ	-11.7602
▁Qatar	-11.7602
▁Sloane	-11.7602
▁sticker	-11.7602
▁0.9.5	-11.7602
▁Checkout	-11.7602
▁Commission	-11.7602
▁Sweet	-11.7602
ໃນເດືອນຕຸລາ	-11.7602
▁SmCo	-11.7602
▁Delhi	-11.7602
▁allows	-11.7602
▁devices	-11.7602
9,99€	-11.7603
ມີບົດບາດ	-11.7603
▁Desert	-11.7603
▁LDPE	-11.7603
▁UHF	-11.7603
▁style	-11.7603
▁Genie	-11.7603
▁TIME	-11.7603
infosec	-11.7603
▁Docking	-11.7603
▁BBQ	-11.7603
▁donated	-11.7603
▁Rfid	-11.7603
▁value	-11.7603
OUCH	-11.7603
▁ເລິກກັນ	-11.7603
ນາຍົກລັດຖະມົນຕີ	-11.7604
▁Women	-11.7604
▁Sync	-11.7604
▁Surf	-11.7605
▁update	-11.7606
Danish	-11.7607
uggle	-11.7607
Upgrad	-11.761
ຈາກສະປິນຟ	-11.7611
▁Birk	-11.7615
Impact	-11.7629
housi	-11.7631
awaii	-11.7661
.0.0.1	-11.7693
▁Manga	-11.7717
ຫນັບສະຫນູນຄົນຂັບ	-11.7929
▁ປະເພດຖົງປະເພດ	-11.8061
ຫາກວ່າທ່ານຕ້ອງ	-11.819
Friend	-11.8204
ສະປິນ	-11.8218
▁architect	-11.8218
ເຄັດລັບ	-11.8225
Unlimited	-11.8226
ສະແຕນ	-11.8227
technology	-11.8227
усский	-11.8227
ຮັງກາຣີ	-11.8227
ເບິ່ງແຍງ	-11.8227
ປະສິດຕິພາບ	-11.8227
▁responsib	-11.8227
Estonian	-11.8227
ກ້ຽວວຽນ	-11.8227
ສະຕູດິໂອ	-11.8227
ສະປິງ	-11.8227
ເຫລົ່ານີ້	-11.8227
xosylganglioside	-11.8227
ต	-11.8227
ไ	-11.8227
ກະຕືລືລົ້ນ	-11.8227
ກະທັດລັດ	-11.8227
ຂີ້ຕົມ	-11.8227
ຕົບມື	-11.8227
ທໍ່ຮູບສີ່ແຈສາກ	-11.8227
ຜູ້ດັດແປງ	-11.8227
ຟາມຈີນໃນຊົນນະບົດ	-11.8227
ຟີລິບປິນ	-11.8227
ສະຫມໍ່າສະເຫມີ	-11.8227
ສາດສະດາຈານ	-11.8227
ອີຣ່ານ	-11.8227
ເຄັ່ງຄັດ	-11.8227
ເຈັບປວດ	-11.8227
ເປືອກຫຸ້ມນອກ	-11.8227
ເຮັດເປັນມູມ	-11.8227
ໂມລິບດີນໍາ	-11.8227
▁(856-21)	-11.8227
▁Affinity	-11.8227
▁Angkor	-11.8227
▁Arabia	-11.8227
▁Assorted	-11.8227
▁Beadlet	-11.8227
▁Beijing	-11.8227
▁Catalyst	-11.8227
▁Centrifuge	-11.8227
▁Concrete	-11.8227
▁Corinthians	-11.8227
▁Cummins	-11.8227
▁Department	-11.8227
▁Desulphurizing	-11.8227
▁Detailed	-11.8227
▁Embroidered	-11.8227
▁Espresso	-11.8227
▁Helicopter	-11.8227
▁Information	-11.8227
▁Insulated	-11.8227
▁Jessica	-11.8227
▁Kibbeh	-11.8227
▁Knowledge	-11.8227
▁Kottke	-11.8227
▁Lincoln	-11.8227
▁Maharishi	-11.8227
▁Marseille	-11.8227
▁Metallurgical	-11.8227
▁Monosialot	-11.8227
▁Nursery	-11.8227
▁PPSSPP	-11.8227
▁PRINCE	-11.8227
▁Qawwali	-11.8227
▁SWISS	-11.8227
▁Salzburg	-11.8227
▁Scotland	-11.8227
▁Shoulder	-11.8227
▁Siemens	-11.8227
▁Sunifiram	-11.8227
▁Swansea	-11.8227
▁Tennis	-11.8227
▁Zbigz	-11.8227
▁afterRender	-11.8227
▁breathable	-11.8227
▁brokers	-11.8227
▁catalyst	-11.8227
▁category	-11.8227
▁eaccelarator	-11.8227
▁engraving	-11.8227
▁expression	-11.8227
▁extruder	-11.8227
▁flatbed	-11.8227
▁including	-11.8227
▁magnetron	-11.8227
▁muaythai	-11.8227
▁originated	-11.8227
▁qualité	-11.8227
▁resolution	-11.8227
▁romantic	-11.8227
▁sandblast	-11.8227
▁shelves	-11.8227
▁skateboard	-11.8227
▁titanium	-11.8227
▁ກໍາໄລຂໍ້ມື	-11.8227
▁ຊອກໂກແລດ	-11.8227
▁ທຄຕລ	-11.8227
▁ນົກໃຈຫ້າຍ	-11.8227
▁ລິນຍາໂທ	-11.8227
▁ໃຊ້ລະຫັດຄູປອງ	-11.8227
ຕະຫຼາດຫຼັກຊັບລາວ	-11.8227
ມະນຸດຕ່າງດາວ	-11.8227
ຮາບພຽງ	-11.8227
ເຫຼັ້ມ	-11.8227
▁Antonio	-11.8227
▁Quartz	-11.8227
▁Suitcase	-11.8227
▁milky	-11.8227
▁vintage	-11.8227
ດີເດັ່ນ	-11.8227
▁Gongye	-11.8227
▁Montreal	-11.8227
▁illusion	-11.8227
▁method	-11.8227
▁refund	-11.8227
▁unloading	-11.8227
ບາຊິນ	-11.8227
▁Deutz	-11.8227
▁Perfect	-11.8227
▁Stellate	-11.8227
▁Triangle	-11.8227
▁Yiwu	-11.8227
▁Country	-11.8227
▁Skived	-11.8227
▁Notching	-11.8227
▁second	-11.8227
▁ສະຫມັກຂໍເອົາ	-11.8227
global	-11.8227
ຂອງລາຍວິຊາ	-11.8227
ອາກາດລ້ອມຮອບ	-11.8227
▁Kubba	-11.8227
▁Ozone	-11.8227
Ctrl	-11.8227
ລະດັບຄວາມກ້ວາງ	-11.8227
ໃນທາງບວກ	-11.8227
▁Brawl	-11.8227
▁Kindle	-11.8227
▁Reverse	-11.8227
▁replytocom	-11.8227
ລັດເວຍ	-11.8227
ແຜນຜັງເວັບໄຊ	-11.8227
▁Picnic	-11.8227
ອາວຸດ	-11.8227
▁Globe	-11.8227
▁Stereo	-11.8227
ການປູກພືດ	-11.8227
▁Status	-11.8227
▁Morini	-11.8227
▁Nanshan	-11.8227
ເປັນພິດ	-11.8227
▁46.0.25	-11.8227
▁Hentai	-11.8227
▁Canada	-11.8227
▁Torque	-11.8227
▁Walker	-11.8227
Muaythai	-11.8228
▁Croatia	-11.8228
isafoto	-11.8228
▁please	-11.8228
▁Lawn	-11.8228
▁Bosnia	-11.8228
rallax	-11.8228
▁Harry	-11.8228
ໂງ່	-11.8228
▁Aceri	-11.8228
▁smile	-11.8228
▁Bundle	-11.8228
▁gym	-11.8228
ເປັນສິ່ງສໍາຄັນ	-11.8228
Footer	-11.8228
▁Trump	-11.8228
▁Movie	-11.8229
Pulse	-11.8229
horse	-11.8229
ການລ້ຽງສັດ	-11.823
ຖິງຢ່າງໃດກໍ່ຕາມ	-11.823
Gerber	-11.823
ຜະລິດແລະການຂາຍ	-11.8235
ມີແສງສະຕິງດ້ວຍ	-11.8237
▁Nexo	-11.8252
Factor	-11.8258
ຄວາມພິການ	-11.8326
ຂະບວນ	-11.838
ອອກແບບມາເພື່ອ	-11.8591
ສໍາຫຼວດ	-11.8601
ຼີ້ນຫຼີ້ນ	-11.864
ຄ້າຍຄືກັນກັບ	-11.8663
ຄິດໄລ່	-11.8702
▁Olymp	-11.8861
ສະຫະປະຊາ	-11.8867
本	-11.8894
ເປືອກ	-11.8894
ເຫມົາມຸງຫລັງຄາ	-11.8894
ຫລອມໂລຫະ	-11.8894
ອະໄວຍະວະ	-11.8894
.02.2019	-11.8894
/09/2019	-11.8894
Carpenter	-11.8894
InfoSec	-11.8894
Psychology	-11.8894
capacitor	-11.8894
ກົນລະຍຸດ	-11.8894
ຂອງປະຊາຄົມອາຊຽນ	-11.8894
ຄອມພີວເຕີ	-11.8894
ຄູ່ແຂ່ງ	-11.8894
ປະທານາທິບໍດີ	-11.8894
ຜະສົມຜະສານ	-11.8894
ພູມິພາກ	-11.8894
ມີອາການໄຂ້	-11.8894
ລົງຄະແນນສຽງ	-11.8894
ູບລ່າສຸດເພີ່ມໂດຍ	-11.8894
ເງິນໂບນັດອອນລາຍ	-11.8894
ເຊນລູໂລສ	-11.8894
≥98%	-11.8894
▁Aksaray	-11.8894
▁Argentina	-11.8894
▁Attenutated	-11.8894
▁Auslogics	-11.8894
▁BIZHUB	-11.8894
▁Bibcock	-11.8894
▁Boldenone	-11.8894
▁Bracelet	-11.8894
▁Braunschweig	-11.8894
▁Bucharest	-11.8894
▁CASTEGGIO	-11.8894
▁COLLEGIALE	-11.8894
▁Carolina	-11.8894
▁Categories	-11.8894
▁Circuit	-11.8894
▁CloudFlare	-11.8894
▁Dioxide	-11.8894
▁ECOASIA	-11.8894
▁ELECTRONIC	-11.8894
▁Eccentric	-11.8894
▁Executive	-11.8894
▁Fantasy	-11.8894
▁Fluorescent	-11.8894
▁Geogrid	-11.8894
▁Kyocera	-11.8894
▁Laboratory	-11.8894
▁Lenovo	-11.8894
▁Manipulator	-11.8894
▁Microeconomics	-11.8894
▁Moncalieri	-11.8894
▁Penguin	-11.8894
▁PowerPoint	-11.8894
▁Prudential	-11.8894
▁SELECT	-11.8894
▁Sandwich	-11.8894
▁Seguidores	-11.8894
▁Singapore	-11.8894
▁Skrill	-11.8894
▁Spinjitzu	-11.8894
▁Sunflower	-11.8894
▁Thompson	-11.8894
▁Venezuela	-11.8894
▁Voronezh	-11.8894
▁WTFast	-11.8894
▁Wiggles	-11.8894
▁Xingguang	-11.8894
▁Yaskawa	-11.8894
▁ZHEJIANG	-11.8894
▁different	-11.8894
▁fantastic	-11.8894
▁glutamate	-11.8894
▁jDownloader	-11.8894
▁material	-11.8894
▁packaging	-11.8894
▁palivath	-11.8894
▁princess	-11.8894
▁sandwich	-11.8894
▁shortcode	-11.8894
▁squeegee	-11.8894
▁wristband	-11.8894
▁ຈັງຫວັດ	-11.8894
▁ຍີ່ປູ່ນ	-11.8894
▁ນໍເວ	-11.8894
▁ປະເທດແບນຊິກ	-11.8894
▁ຜູ້ສັງລວມຂໍ້ມູນ	-11.8894
▁ຟິລິບປິນ	-11.8894
▁ແຂກອາຫລັບ	-11.8894
Mirror	-11.8894
Privacy	-11.8894
ຄອບຄອງ	-11.8894
ບໍລິຈາກເງິນ	-11.8894
ວໍເປເປີ	-11.8894
ຮົງກົງ	-11.8894
ເຖີງ	-11.8894
▁Algeria	-11.8894
▁Chromium	-11.8894
▁Cyprus	-11.8894
▁Error	-11.8894
▁Raymond	-11.8894
▁Scholar	-11.8894
▁ຖ່ານຫິນ	-11.8894
ຈັດແຈງ	-11.8894
ຈໍເຈຍ	-11.8894
ຊີວະເຄມີ	-11.8894
ຖຶກ	-11.8894
ທ່ານຕ້ອງການເປີດ	-11.8894
ບາດແຜ	-11.8894
ລາຄາຜ່ອນຜັນ	-11.8894
ສານພິດ	-11.8894
ຫນ້າເອິກ	-11.8894
ແບບພົກພາ	-11.8894
▁2019-2020	-11.8894
▁Issue	-11.8894
▁Partition	-11.8894
▁Shaoxing	-11.8894
▁Tubular	-11.8894
▁acerig	-11.8894
▁license	-11.8894
▁paddle	-11.8894
ປະວັດສາດ	-11.8894
ຫວັງວ່າຈະໄດ້	-11.8894
ໂລກເອດສ	-11.8894
▁Equity	-11.8894
▁Macverin	-11.8894
▁Mystery	-11.8894
▁Qinyang	-11.8894
▁bronze	-11.8894
▁pillow	-11.8894
▁razor	-11.8894
ມຸມມອງ	-11.8894
▁Coupler	-11.8894
▁problem	-11.8894
/02/2020	-11.8894
ໂຮນລັງ	-11.8894
▁Flanged	-11.8894
▁Scanner	-11.8894
▁ສີຄີມກ້ອນ	-11.8894
iqdesign	-11.8894
shadow	-11.8894
ປະໂຍດ	-11.8894
▁Friction	-11.8894
▁Granite	-11.8894
▁Houston	-11.8894
▁ການວາງເດີມພັນ	-11.8894
▁Entry	-11.8894
▁Rotator	-11.8894
▁hammer	-11.8894
▁GmbH	-11.8894
▁Unisex	-11.8894
▁ຫມູຫມູ	-11.8894
▁ISHA	-11.8894
▁naked	-11.8894
safety	-11.8894
ແລະບໍ່ແນະນໍາ	-11.8894
▁7.33.	-11.8894
▁Puerto	-11.8894
ຣີທີ່ຈະຝຶກອົບຮົມ	-11.8894
▁buckle	-11.8894
▁console	-11.8894
▁Hilton	-11.8894
▁Oxide	-11.8894
▁Vanity	-11.8894
▁leader	-11.8894
▁60.0.3112.	-11.8894
ການອະນຸລັກ	-11.8894
▁Mricc	-11.8894
abytes	-11.8894
▁Fresh	-11.8894
ການປວດ	-11.8894
ຖືກຄິດໄລ່ກ່ຽວກັບ	-11.8894
ເຄື່ອງດູດອາຫານ	-11.8895
ຖືກສ້າງຂື້ນ	-11.8895
▁complete	-11.8895
▁Kitchen	-11.8895
aught	-11.8895
ຖາປັດຕະຍະ	-11.8897
▁control	-11.8899
ribute	-11.8901
▁Fringe	-11.8902
▁Nobili	-11.8905
psych	-11.8905
່າຍຕໍ່ການຕິດຕັ້ງ	-11.8907
ະຊວງການຕ່າງປະເທດ	-11.8908
ຝຶກຫັດ	-11.8911
▁Sparta	-11.8913
▁ການປະກອບສ່ວນອາດ	-11.8917
ໂຄງກະດູກ	-11.8918
ພື່ອເບິ່ງວິດີໂອ	-11.8927
ຂີ້ຝຸ່ນໃນໂຮງງານ	-11.893
OVER	-11.8932
TURE	-11.8933
Japan	-11.8939
Option	-11.8939
service	-11.894
Φ	-11.894
Touch	-11.8941
Standard	-11.8941
English	-11.8942
ophie	-11.8977
ຽນບົດຄວາມກ່ຽວກັບ	-11.9073
ບໍລິໂພກ	-11.9241
ວັດແທກ	-11.9348
ແຕນເລດ	-11.9468
▁ແຕ່ກົງກັນ	-11.9518
ໃນຂະນະ	-11.9538
▁Stream	-11.9587
▁Explore	-11.9588
ການຝຶກ	-11.9595
ດິຈິຕອ	-11.9599
ກະດານລຶບລ້າງ	-11.9606
ບໍາລຸງ	-11.9608
ວັດທະນະ	-11.9608
ອານາຈັກ	-11.9608
▁ເງື	-11.9608
ເຊື້ອແບັກທີເຣັຍ	-11.9608
rikoooo	-11.9608
ຖີ້ມ	-11.9608
ມຸ້ງ	-11.9608
ແຕ່ຫນ້າເສຍດາຍ	-11.9608
ສະເຕີຣອຍ	-11.9608
ຕຸ໊ກກະຕາ	-11.9608
ຕົກເປັນມູນຄ່າ	-11.9608
ບຸກເບີກ	-11.9608
ລະບົບນິເວດ	-11.9608
ຫນໍ່ໄມ້ສ່ວນຫຼາຍ	-11.9608
ອ້ອມຮອບ	-11.9608
ແຄບຊູນ	-11.9608
▁220-240	-11.9608
▁===	-11.9608
▁ລິ້ງຄ໌	-11.9608
/06/2019	-11.9608
58305),	-11.9608
:86-752-36356	-11.9608
ANDROID	-11.9608
Corrosion	-11.9608
HGHThailand	-11.9608
MoneyGram	-11.9608
RAILWAY	-11.9608
centrifuge	-11.9608
details	-11.9608
industry	-11.9608
structure	-11.9608
uqiang	-11.9608
ຊຸມປີ	-11.9608
ປະລໍາມະນູ	-11.9608
ຜູ້ຖືກກ່າວຟ້ອງ	-11.9608
ວັດຖຸບູຮານ	-11.9608
ສະຫວັນນະເຂດ	-11.9608
ອໍານວຍຄວາມສະດວກ	-11.9608
ອໍເດີ	-11.9608
ເຂົ້າລະຫັດໂດຍໃຊ້	-11.9608
ເປຣູ	-11.9608
ເພາະສະນັ້ນຈຶ່ງ	-11.9608
ເວີຈິນໄອແລນ	-11.9608
ແຄນາດາ	-11.9608
ໂປລແກລມ	-11.9608
ໃນໄວໆນີ້	-11.9608
▁2.6.4.17113	-11.9608
▁Arizona	-11.9608
▁Bamboo	-11.9608
▁Carnegie	-11.9608
▁Commodity	-11.9608
▁Conductive	-11.9608
▁Cooperation	-11.9608
▁DESIGN	-11.9608
▁Doraemon	-11.9608
▁Flirtymania	-11.9608
▁Frantikov	-11.9608
▁Gentleman	-11.9608
▁Granulator	-11.9608
▁HYDRAULIC	-11.9608
▁Illuminated	-11.9608
▁Imaging	-11.9608
▁Jailbreak	-11.9608
▁Jiulong	-11.9608
▁KOOWHEEL	-11.9608
▁Kawasaki	-11.9608
▁Malwarebytes	-11.9608
▁Mandarin	-11.9608
▁Mobhax	-11.9608
▁Original	-11.9608
▁Poltava	-11.9608
▁SegWit	-11.9608
▁Shotcrete	-11.9608
▁Traffic	-11.9608
▁Treadclimber	-11.9608
▁UNCCD	-11.9608
▁Velcro	-11.9608
▁Vigrx	-11.9608
▁Viviani	-11.9608
▁Voucher	-11.9608
▁WooCommerce	-11.9608
▁XCMG	-11.9608
▁aasraw	-11.9608
▁adhesive	-11.9608
▁builder	-11.9608
▁bulldozer	-11.9608
▁chalkboard	-11.9608
▁chromium	-11.9608
▁clutch	-11.9608
▁dictator	-11.9608
▁fleece	-11.9608
▁languages	-11.9608
▁macaroon	-11.9608
▁masturbat	-11.9608
▁naruto	-11.9608
▁rafters	-11.9608
▁swimwear	-11.9608
▁ກວດຈັບໂລຫະ	-11.9608
▁ຄ່າຜ່ານປະຕູ	-11.9608
▁ດິນປຸກສ້າງ	-11.9608
▁ຕູ້ເອທີເອັມ	-11.9608
▁ຖົ່ວເຫຼືອງ	-11.9608
▁ທົນຕໍ່ພັຍ	-11.9608
▁ປ້າຍກໍາກັບ	-11.9608
▁ພີໄບເບິນ	-11.9608
▁ຫມາກນາວ	-11.9608
▁ອັນທີ່ຈິງ	-11.9608
▁ແນກຜູ້ຊະນະ	-11.9608
▁ໂພດແບ່ງປັນໂດຍ	-11.9608
▁ໂຫມດ	-11.9608
/2015/0	-11.9608
ຜູ້ຖືຮຸ້ນ	-11.9608
ສີມືແຮງງານ	-11.9608
▁877-9	-11.9608
▁Inquire	-11.9608
▁LIWG	-11.9608
▁MLCC	-11.9608
▁Steroid	-11.9608
▁TPLUS	-11.9608
▁adopts	-11.9608
▁bikini	-11.9608
▁companies	-11.9608
▁deadhead	-11.9608
▁spandex	-11.9608
▁sputtering	-11.9608
▁ກໍາປັ່ນ	-11.9608
ຕໍ່ໄປອີກແລ້ວ	-11.9608
ຜ້າພັນຄໍ	-11.9608
ພາກສ່ວນທີສາມ	-11.9608
ໂບຣກເກີ	-11.9608
▁AOMEI	-11.9608
▁Bronze	-11.9608
▁CompanyHub	-11.9608
▁EPSON	-11.9608
▁Flanges	-11.9608
▁General	-11.9608
▁Impeller	-11.9608
▁Sputtering	-11.9608
▁Tactics	-11.9608
▁ກວດສອບການອອກ	-11.9608
▁ແຫລ່ງໄຫຫີນ	-11.9608
ທິມງານ	-11.9608
▁$£€	-11.9608
▁Elbow	-11.9608
▁Fujian	-11.9608
▁Xinyue	-11.9608
▁polybag	-11.9608
▁tennis	-11.9608
▁ຜົນການຄົ້ນຫາ	-11.9608
wagering	-11.9608
▁Airtight	-11.9608
▁Forecast	-11.9608
▁Hoodie	-11.9608
▁release	-11.9608
▁Indigo	-11.9608
▁tweet	-11.9608
▁ໃນຄໍາສັ່ງທີ່ຈະ	-11.9608
ກະບອງ	-11.9608
▁gadget	-11.9608
▁1258),	-11.9608
▁Commons	-11.9608
▁Yandex	-11.9608
▁Target	-11.9608
shanghai	-11.9608
▁???	-11.9608
▁consider	-11.9608
▁sextet	-11.9608
▁Ricoh	-11.9608
▁Pudong	-11.9608
gecko	-11.9608
ໂດຍບໍ່ຕ້ອງ	-11.9608
▁Franco	-11.9608
▁conceiv	-11.9608
whatsapp	-11.9609
▁simple	-11.9609
▁wolf	-11.9609
DHEA	-11.9609
▁music	-11.9609
▁Skirt	-11.9609
Interior	-11.9609
▁learn	-11.961
ຟື້ນຕົວ	-11.9611
Sugar	-11.9612
▁Samoa	-11.9615
ນທ່ານຈະໄປຢ້ຽມຢາມ	-11.9615
Selection	-11.9619
2020-03-	-11.9632
benzo	-11.9644
ຮູບຊົງກະບອກ	-11.9708
ເທກໂນໂລຍີ	-11.9709
Double	-11.9712
strict	-11.9826
ໍ້ມູນຈາກເອກະສານ	-11.9842
▁instruct	-11.9865
ສ້ອມແປງ	-12.0114
imulat	-12.0251
▁ເນື່ອງ	-12.0306
ມະເລັງ	-12.034
▁Internationa	-12.0343
▁Remove	-12.0358
ເຫລົ້າທີ່ເຮັດ	-12.037
ວ່ອງໄວ	-12.0372
ໂຊລູຊັ່ນ	-12.0377
ທີ່ມີຄຸນຄ່າ	-12.0377
ລ່ວງລະເມີດ	-12.0377
ອ້າຍນ້ອງ	-12.0377
ກີດຂໍ້ຜິດພາດຂະນະ	-12.0377
ເຄເບີນ	-12.0377
ເອື່ອຍອີງໃສ່	-12.0377
▁ເນີຍແຂງ	-12.0377
/05/2016	-12.0377
1900/2100	-12.0377
Champagne	-12.0377
Investment	-12.0377
WINDOWS	-12.0377
adagascar	-12.0377
alClassic	-12.0377
cellulose	-12.0377
spiratory	-12.0377
ики	-12.0377
ກວມເອົາເນື້ອທີ່	-12.0377
ການເຝົ້າລະວັງ	-12.0377
ກູນີ້ລະຊົ່ວ	-12.0377
ກູ້ໄພ	-12.0377
ຊຸມນຸມ	-12.0377
ນັກສມັກເລ່ນ	-12.0377
ປາຊີຟິກ	-12.0377
ຝະລັ່ງ	-12.0377
ັອກອິນເຂົ້າເວັບ	-12.0377
ູບູນຕຸ	-12.0377
ເຄື່ອງຮັບໃຊ້ຫ້ອງ	-12.0377
ເພື່ອນຮ່ວມງານ	-12.0377
ແຫ້ງໄຂເອງໄດ້	-12.0377
ໂອແລມປິກ	-12.0377
ໃນວັນພະຫັດ	-12.0377
▁55.0.2994.	-12.0377
▁Actuator	-12.0377
▁AdSense	-12.0377
▁Bangalore	-12.0377
▁BitTorrent	-12.0377
▁CANCUN	-12.0377
▁Camouflage	-12.0377
▁Cellulose	-12.0377
▁Condenser	-12.0377
▁Ecogreen	-12.0377
▁Elliptical	-12.0377
▁Enclosure	-12.0377
▁Experience	-12.0377
▁FEEDER	-12.0377
▁Filtration	-12.0377
▁Galleries	-12.0377
▁Gushue	-12.0377
▁IMVU	-12.0377
▁Insulating	-12.0377
▁Insulator	-12.0377
▁Kardashian	-12.0377
▁Karlsruhe	-12.0377
▁Massachusetts	-12.0377
▁Memorial	-12.0377
▁Microscope	-12.0377
▁Municipal	-12.0377
▁NATIONAL	-12.0377
▁Orchestra	-12.0377
▁PILOT	-12.0377
▁Pavlov	-12.0377
▁Pradesh	-12.0377
▁Puppies	-12.0377
▁Python	-12.0377
▁RECOFTC	-12.0377
▁Recycling	-12.0377
▁Requirement	-12.0377
▁Revolution	-12.0377
▁Squeegee	-12.0377
▁Sulfate	-12.0377
▁Tadalafil	-12.0377
▁Teacup	-12.0377
▁Vancouver	-12.0377
▁WEYERHAU	-12.0377
▁WikiWon	-12.0377
▁Wikipedia	-12.0377
▁Workbench	-12.0377
▁calcium	-12.0377
▁chiffon	-12.0377
▁children	-12.0377
▁delicious	-12.0377
▁dicyandiamide	-12.0377
▁doraemon	-12.0377
▁empty	-12.0377
▁emulator	-12.0377
▁fibromyalgia	-12.0377
▁filament	-12.0377
▁incredible	-12.0377
▁multiplexer	-12.0377
▁polypropylene	-12.0377
▁realtyWW	-12.0377
▁venturi	-12.0377
▁wiggle	-12.0377
▁ກາວິທັດ	-12.0377
▁ກ້ວຍໄມ້	-12.0377
▁ຊິງແຊ້ມໂລກ	-12.0377
▁ຊູດານ	-12.0377
▁ນອກນັ້ນທ່ານຍັງ	-12.0377
▁ມະການລົບລ້າງ	-12.0377
▁ອິນຟິນິຕີ້	-12.0377
▁ແຂວງເສສວນ	-12.0377
daddy	-12.0377
scaffold	-12.0377
ກະບອກສູບ	-12.0377
ພູມຕ້ານທານ	-12.0377
ຢ້ານກົວ	-12.0377
ຣັດເຊຍ	-12.0377
ລົດເຂັນ	-12.0377
¥	-12.3561
中	-12.4231
电	-12.691
·	-13.2412
У	-13.3076
ค	-13.641
‘	-14.075
文	-15.0772
ป	-15.0773
′	-15.0774
	-15.0775
₱	-15.0776
₪	-15.0777
อ	-15.0778
ิ	-15.0779
资	-15.078
话	-15.0781
象	-15.0782
万	-15.0783
←	-15.0784
ä	-15.0785
ї	-15.0786
ñ	-15.0787
ຝ	-15.0788
ຽ	-15.0789
ໄ	-15.079
ໃ	-15.0791
฿	-15.0792
ົ	-15.0792
