<unk>	0
<s>	0
</s>	0
▁	-2.58465
,	-3.23472
.	-3.96869
:	-4.13294
s	-4.47647
▁/	-5.06418
)	-5.08032
▁-	-5.18587
-	-5.19408
▁(	-5.26704
;	-5.39334
ຂອງ	-5.44364
▁ແລະ	-5.56284
ແລະ	-5.63448
▁_	-5.69991
▁&	-5.74137
▁ການ	-5.78827
y	-5.94577
ການ	-5.95176
er	-5.98927
m	-6.00176
ing	-6.01806
▁1	-6.06628
D	-6.07935
ໃນ	-6.08538
C	-6.09283
gt	-6.10318
d	-6.10377
r	-6.10774
▁C	-6.1115
▁S	-6.1326
ທີ່	-6.15217
▁A	-6.16863
▁2	-6.18272
3	-6.21804
▁T	-6.22215
A	-6.27181
x	-6.28356
/	-6.29292
▁...	-6.29784
2	-6.30038
▁B	-6.30217
▁ໃນ	-6.31857
M	-6.32156
g	-6.32974
▁3	-6.3325
n	-6.33791
S	-6.33844
mm	-6.38138
in	-6.41756
▁$	-6.42012
t	-6.44113
4	-6.44637
▁M	-6.456
ນ	-6.46413
e	-6.46496
an	-6.47071
amp	-6.48727
i	-6.49055
ເປັນ	-6.50895
▁5	-6.51614
▁4	-6.52031
on	-6.52464
B	-6.53262
ed	-6.53996
com	-6.54954
▁ຂອງ	-6.55258
L	-6.55466
T	-6.55694
▁P	-6.55941
▁–	-6.5667
al	-6.57991
▁Co	-6.61031
1	-6.63124
!	-6.63998
▁H	-6.64525
▁ສໍາລັບ	-6.66091
▁2018	-6.67554
▁L	-6.67637
ສໍາລັບ	-6.68421
▁ທີ່	-6.68574
▁D	-6.68988
ກ	-6.69252
ໄດ້	-6.69396
▁ເຄື່ອງ	-6.7098
5	-6.72032
ກັບ	-6.73014
G	-6.73628
▁ຈີນ	-6.75454
▁F	-6.75479
▁10	-6.75911
en	-6.76397
▁R	-6.76567
V	-6.76876
W	-6.77238
"	-6.82335
▁E	-6.82578
▁ໂດຍ	-6.85344
P	-6.85512
▁+	-6.86915
c	-6.87996
F	-6.88721
o	-6.89167
k	-6.91029
▁ຫນ້າທໍາອິດ	-6.91062
ດ	-6.91103
or	-6.91994
▁ຜະລິດຕະພັນ	-6.9261
▁tattoos	-6.93368
▁K	-6.93698
▁ສະ	-6.93914
▁ມີ	-6.94032
▁G	-6.96412
H	-6.96919
▁"	-6.97279
▁2019	-6.9761
a	-6.98818
N	-6.98947
ມີ	-6.98956
▁ໄດ້	-6.99776
b	-7.00483
l	-7.0094
ບ	-7.01042
K	-7.01518
▁6	-7.01706
u	-7.026
?	-7.03365
▁*	-7.03889
ມ	-7.04678
▁Dust	-7.05562
▁W	-7.05701
le	-7.08362
20	-7.08992
p	-7.08999
▁2017	-7.09354
et	-7.10193
▁ແມ່ນ	-7.10764
f	-7.10868
h	-7.1189
6	-7.13136
re	-7.13298
▁N	-7.13979
▁the	-7.14946
@	-7.15457
▁7	-7.15526
▁8	-7.16578
▁Printer	-7.16811
ຈາກ	-7.16971
R	-7.17148
ງ	-7.17801
ຜະລິດຕະພັນ	-7.19026
ແມ່ນ	-7.19553
▁ສໍາ	-7.19598
▁ກັບ	-7.20355
at	-7.20797
▁ຜູ້ຜະລິດ	-7.20814
10	-7.21313
ar	-7.21649
7	-7.21797
el	-7.22244
(	-7.22392
▁and	-7.22638
▁ເປັນ	-7.22661
▁ເຊົ່າລົດ	-7.22992
▁2016	-7.24362
O	-7.25039
...	-7.25473
co	-7.25816
ໂດຍ	-7.2591
Y	-7.26167
▁9	-7.26433
▁20	-7.2767
▁V	-7.2778
▁ເດືອນ	-7.29809
8	-7.30507
ທີ່ມີ	-7.30989
X	-7.31205
▁of	-7.32034
ຍ	-7.33824
ເຄື່ອງ	-7.3457
ch	-7.3498
th	-7.35016
▁Y	-7.35249
es	-7.35427
▁ລັບ	-7.36429
lt	-7.36566
ທັງຫມົດ	-7.3679
I	-7.37087
E	-7.37127
▁Collector	-7.37693
ic	-7.37696
ນີ້	-7.38368
▁to	-7.38509
00	-7.38618
▁12	-7.38675
▁No	-7.39113
w	-7.39292
it	-7.39453
▁ຄວາມ	-7.39703
▁Hack	-7.39756
am	-7.4031
st	-7.40327
'	-7.40569
▁»	-7.41555
ur	-7.41887
▁I	-7.42187
se	-7.4338
ຂອງທ່ານ	-7.43911
▁0	-7.44561
50	-7.44591
▁£	-7.44617
9	-7.46201
▁ຂ່າວ	-7.46275
▁Ltd	-7.46722
▁Bag	-7.47179
]	-7.47346
0	-7.47494
30	-7.47521
▁ຫນ້າ	-7.47522
v	-7.49363
▁ທ່ານ	-7.49829
z	-7.50806
▁Casino	-7.5104
▁[	-7.51389
ນ້ໍາ	-7.52424
▁Android	-7.5267
▁ປະເພດ	-7.53024
%	-7.53456
ຄວາມ	-7.55214
ri	-7.55817
▁19	-7.55819
▁Valve	-7.55961
▁©	-7.56092
▁30	-7.5772
id	-7.58769
້	-7.59173
ວ	-7.59757
▁ຫຼື	-7.60171
▁in	-7.60603
▁15	-7.60723
ສະ	-7.61061
▁ພວກ	-7.61123
▁Re	-7.61192
▁ໂທລະສັບ	-7.61241
▁ຂະຫນາດ	-7.61287
J	-7.62449
U	-7.62662
▁by	-7.62775
▁ກ່ຽວກັບ	-7.63353
ສ	-7.63558
_	-7.63695
ro	-7.63736
▁#	-7.64142
ra	-7.64168
us	-7.64699
la	-7.64952
ຂອງພວກເຮົາ	-7.65159
000	-7.6532
▁ຈາກ	-7.6548
▁ປີ	-7.65534
ໃຫ້	-7.65783
▁ເມືອງ	-7.65786
▁J	-7.66173
▁ເກມ	-7.66277
▁ລະຫັດ	-7.66436
▁X	-7.67732
ລ	-7.68417
▁O	-7.68691
ent	-7.69099
▁ດາວນ໌ໂຫລດ	-7.69196
ເ	-7.69355
▁Europe	-7.69418
▁a	-7.69826
▁ໂຮງງານ	-7.71123
ກ່ຽວກັບ	-7.71639
▁f	-7.71851
▁Filter	-7.73111
▁11	-7.7332
▁Z	-7.73338
▁Equipment	-7.73723
ສູງ	-7.75261
ໄປ	-7.75624
▁c	-7.75961
▁ທີ່ຢູ່	-7.76138
lo	-7.76203
▁18	-7.7629
ຈາກປະເທດຈີນ	-7.76419
▁ຄໍາ	-7.76651
▁ບໍ່	-7.76755
▁ທີ່ຜ່ານມາ	-7.771
▁ປະ	-7.77202
ang	-7.77501
ເພື່ອ	-7.77585
15	-7.79121
11	-7.79728
cm	-7.80198
▁ດາວໂຫລດ	-7.80253
ol	-7.80997
pe	-7.81018
16	-7.81226
▁ຊື່	-7.81927
ຜູ້	-7.82017
ry	-7.82055
ບໍ່	-7.82152
▁ສຸດ	-7.82506
▁p	-7.82971
▁16	-7.83627
ly	-7.83731
▁Steel	-7.83834
▁for	-7.84665
ແບບ	-7.84859
▁tattoo	-7.85049
40	-7.86184
▁Windows	-7.86474
▁The	-7.86598
is	-7.86934
▁ຕໍ່	-7.87506
ທີ່ຈະ	-7.8751
ຢູ່	-7.87539
ad	-7.87844
▁ອີເມລ໌	-7.88112
ສີ	-7.89373
”	-7.8942
Z	-7.89829
ມາ	-7.89912
▁U	-7.89968
▁Protection	-7.9002
▁24	-7.90029
▁ລິຂະສິດ	-7.9032
▁2015	-7.90472
li	-7.90858
ອ	-7.90925
60	-7.91028
▁2020	-7.91066
12	-7.91237
ວ່າ	-7.91408
▁Bonus	-7.9141
▁Botou	-7.91476
ທ່ານ	-7.91612
il	-7.9167
ໃຫມ່	-7.91933
▁Vessoft	-7.91966
to	-7.92026
ers	-7.92818
▁Environmental	-7.9308
80	-7.93182
ທາງ	-7.93774
ໄຟຟ້າ	-7.94565
ter	-7.94628
▁25	-7.94845
▁UV	-7.94954
45	-7.95422
sh	-7.95656
ຈະ	-7.95659
▁50	-7.95784
▁ມັນ	-7.95867
ຊ	-7.95966
▁ໂຮງງານຜະລິດ	-7.96462
▁100	-7.96648
▁ສາຍ	-7.96706
ມັນ	-7.96801
&	-7.9726
▁ຜູ້	-7.97333
▁re	-7.97431
ສາຍ	-7.97635
▁ລາວ	-7.97778
un	-7.97993
ate	-7.98022
ໃຊ້	-7.9832
://	-7.9871
▁ມື	-7.9961
ຢູ່ໃນ	-7.99793
ສາມາດ	-8.00467
ma	-8.00538
▁LTD	-8.00953
ຫຼາຍ	-8.02017
ne	-8.02554
te	-8.02844
ຫຼື	-8.0299
▁ລະ	-8.03131
▁ຕໍ່ໄປ	-8.03139
▁200	-8.03177
35	-8.03358
ine	-8.03363
na	-8.03424
ຫ	-8.03489
▁“	-8.03709
▁ກໍາ	-8.04671
▁St	-8.04954
18	-8.05326
ia	-8.05638
▁14	-8.06255
ກັນ	-8.06536
19	-8.06599
um	-8.06643
▁Top	-8.06651
▁13	-8.06685
ທີ	-8.06705
ac	-8.07748
▁ຈໍາ	-8.07778
17	-8.08244
ຫນ້າ	-8.0842
key	-8.08491
▁ວັນ	-8.08805
▁ສ	-8.09695
XL	-8.09749
ie	-8.09817
ປີ	-8.1019
▁In	-8.10192
ຍີ່ຫໍ້	-8.10297
ion	-8.10402
▁ລາຍລະອຽດ	-8.10434
as	-8.10481
im	-8.10658
25	-8.11052
▁ສີ	-8.11091
▁Koh	-8.11303
▁ນໍາ	-8.11507
21	-8.11581
▁60	-8.11771
j	-8.11822
▁LED	-8.12069
ຖົງ	-8.12183
ຂໍ້ມູນ	-8.1227
▁Rong	-8.12737
ສໍາລັບການ	-8.12836
55	-8.12856
▁ເ	-8.12884
▁ຊຸດ	-8.12933
▁ລາ	-8.12961
01	-8.137
em	-8.13892
▁Free	-8.13963
▁ລະບົບ	-8.14762
▁ໃຫ້	-8.15076
ປະເພດ	-8.15126
▁h	-8.15187
▁de	-8.15692
ດ້ວຍ	-8.15697
ລະ	-8.16671
ir	-8.16887
ta	-8.16971
age	-8.17042
ce	-8.17045
ul	-8.17112
ດີ	-8.17154
70	-8.17209
ປະ	-8.17521
ການຜະລິດ	-8.17782
▁Industrial	-8.17821
and	-8.17841
▁ຕິດຕໍ່ຕອນນີ້	-8.17924
ເງິນ	-8.18088
ທຸລະກິດ	-8.18231
▁ບໍລິສັດ	-8.18299
13	-8.1868
▁ລາຄາ	-8.18894
▁ຮູບພາບ	-8.18906
ຈາກຈີນ	-8.18927
▁East	-8.18936
kg	-8.18958
▁ລາຄາຖືກ	-8.1898
one	-8.19123
່	-8.19541
▁Pulse	-8.19655
ist	-8.19847
24	-8.20323
▁Manufacturer	-8.20363
▁ທໍາ	-8.20381
▁ອຸປະກອນ	-8.20402
ut	-8.20587
ite	-8.20782
ອື່ນໆ	-8.20784
▁°	-8.21048
ອາຫານ	-8.21333
▁Ch	-8.21636
ຜະລິດ	-8.22177
ບໍລິສັດ	-8.22545
▁Tag	-8.23255
ant	-8.23266
ສອງ	-8.23333
▁2014	-8.23865
3}	-8.24034
ຕໍ່	-8.24084
▁City	-8.24327
ອອກ	-8.24413
man	-8.24488
ອຸປະກອນ	-8.2452
▁Pro	-8.24541
▁ພາສາລາວ	-8.24664
ong	-8.24772
▁ສາ	-8.24934
▁ຢູ່	-8.2495
ລະບົບ	-8.24991
▁you	-8.25006
ແລະຜູ້ຜະລິດ	-8.25185
▁{_	-8.25334
▁ເຈົ້າ	-8.25403
▁~	-8.25597
▁17	-8.25615
ເກມ	-8.25784
▁ແລະອື່ນໆ	-8.25996
33	-8.26132
▁ນີ້	-8.26178
▁ວິທີການ	-8.2627
ດ້ານ	-8.26415
14	-8.2649
▁ຫນຶ່ງໃນ	-8.26697
-2	-8.26858
▁ມັງກອນ	-8.26869
▁ທໍ່	-8.27141
▁ຜ້າ	-8.27306
▁Air	-8.27613
▁2013	-8.27703
ພວກເຮົາ	-8.27789
ອຸດສາຫະກໍາ	-8.27851
▁Wholesale	-8.28078
▁40	-8.28123
oujian	-8.28265
▁Ma	-8.28879
▁USD	-8.28893
28	-8.2935
ap	-8.29356
▁ໃຊ້	-8.2947
▁ພວກເຮົາ	-8.29656
ot	-8.2975
▁Webtalk	-8.29877
▁De	-8.29892
ER	-8.3004
86	-8.30085
me	-8.30091
AR	-8.30174
▁ເພື່ອ	-8.30226
▁ເຮົາ	-8.3031
ian	-8.3034
75	-8.30393
▁ຄວາມຫມາຍ	-8.30427
mo	-8.30533
-1	-8.30576
▁ປ	-8.30578
▁21	-8.30606
▁ຍີ່ຫໍ້	-8.3065
▁500	-8.30795
▁ອ່ານ	-8.3095
ຣ	-8.30961
04	-8.31051
23	-8.31066
ເຖິງ	-8.31066
ເຮັດ	-8.31213
ລາຄາຕໍ່າ	-8.31324
▁ພາ	-8.31524
▁ມີຄຸນນະພາບສູງ	-8.31719
ba	-8.31904
est	-8.3195
າ	-8.32097
ັບ	-8.3248
▁ນໍາໄປສູ່	-8.32608
ເຮົາກໍາລັງພິເສດ	-8.3298
▁ISO	-8.33315
ທໍ່	-8.33537
▁•	-8.33793
▁Tags	-8.33816
ເຂົ້າ	-8.33906
ຄົນ	-8.34037
▁WordPress	-8.3409
▁Home	-8.34158
ລົດ	-8.34341
▁ອຸດສາຫະກໍາ	-8.34355
ting	-8.34436
▁ວິທະຍາໄລ	-8.34457
he	-8.34645
05	-8.34909
ell	-8.35313
▁b	-8.35537
▁'	-8.35642
ຄ	-8.35675
ation	-8.35984
ປ	-8.36216
90	-8.3624
ill	-8.3665
07	-8.36722
▁ຖະຫນົນ	-8.36742
▁District	-8.36744
▁Main	-8.36841
▁Tattoos	-8.36901
22	-8.37017
ton	-8.37174
▁Mark	-8.3721
ປະເພດທຸລະກິດ	-8.37279
China	-8.37467
ໃນການ	-8.37485
▁is	-8.37529
ver	-8.37537
da	-8.37667
ge	-8.3771
▁ແຕ່	-8.37787
▁ຟຣີ	-8.38371
32	-8.38386
02	-8.38435
op	-8.3849
os	-8.38493
▁ດີ	-8.38535
▁ຂໍ້	-8.38551
99	-8.38662
="	-8.38662
ni	-8.38698
▁ໂທ	-8.38889
ຕ	-8.38944
di	-8.39091
▁×	-8.39212
▁Series	-8.39277
29	-8.39435
ວັນ	-8.39508
▁ຈະ	-8.39536
tv	-8.39654
▁€	-8.39688
▁Me	-8.39852
▁Line	-8.39901
▁Theme	-8.39913
able	-8.40623
▁Sp	-8.40819
ຂາຍ	-8.40843
ຂ່າວ	-8.40975
*	-8.40997
▁ຖົງ	-8.41175
▁Live	-8.41373
▁ປະເພດຜະລິດຕະພັນ	-8.41655
ຟ	-8.4169
200	-8.41718
▁ນ້ໍາ	-8.41982
lu	-8.4245
▁ສີດໍາ	-8.42498
77	-8.42854
ລີ	-8.42882
▁RN	-8.42908
▁ໄປ	-8.42946
▁ຫ້ອງ	-8.43102
▁ໃຫມ່	-8.43204
▁00	-8.43285
www	-8.43317
▁ນ້ໍາຫນັກ	-8.43344
500	-8.43536
▁Li	-8.43613
▁ບັດ	-8.43749
ity	-8.43901
▁Ningbo	-8.43911
▁ສ່ວນ	-8.43942
▁ພະ	-8.4399
▁Bo	-8.44059
LE	-8.44186
▁Mobile	-8.44454
ຸ	-8.44466
34	-8.44566
▁Machine	-8.44601
▁w	-8.44662
ຕ່າງໆ	-8.44743
▁ກົດ	-8.44884
▁ພະລັງງານ	-8.45216
▁(1	-8.45236
ns	-8.45363
de	-8.45484
▁ຜູ້ສົ່ງອອກ	-8.45587
ະ	-8.46124
▁withoutwax	-8.46208
▁ເຄື່ອງພິມ	-8.46288
▁Cheats	-8.46511
ຈີນ	-8.46688
ພິມ	-8.46703
▁ຮຸ່ນ	-8.46796
51	-8.46963
ປາ	-8.4703
IN	-8.47358
ໍ	-8.47427
©	-8.47447
▁http	-8.47604
▁ລົດ	-8.47627
▁Star	-8.47698
95	-8.47856
ເຮັດວຽກ	-8.48069
bu	-8.48105
ພິເສດ	-8.48119
▁ຫາ	-8.48384
+	-8.48461
’	-8.48558
io	-8.48707
ອັດຕະໂນມັດ	-8.4881
ig	-8.4886
▁=	-8.48864
au	-8.48984
88	-8.49271
ນາ	-8.49619
ຫນຶ່ງ	-8.49629
▁be	-8.50294
ທີ່ດີທີ່ສຸດ	-8.5038
tion	-8.5048
▁ອອນໄລນ໌	-8.50494
▁Laser	-8.50526
▁ຫນາດ	-8.50599
ສ້າງ	-8.50615
▁ການທົບທວນຄືນ	-8.50742
ts	-8.50965
65	-8.51153
ໄດ້ຮັບ	-8.51188
ລາວ	-8.51267
08	-8.51461
44	-8.5156
ass	-8.51759
▁ຫມົດ	-8.52122
ho	-8.52274
▁ການຫຸ້ມຫໍ່	-8.52293
▁ຫຼິ້ນ	-8.52299
▁New	-8.5246
ເວລາ	-8.52585
pa	-8.52602
▁Be	-8.52772
▁Jet	-8.52799
ຫາ	-8.52927
▁22	-8.53096
▁ອາ	-8.53234
ສ່ວນ	-8.53237
ru	-8.53244
39	-8.53253
26	-8.53269
ເຮັດໃຫ້	-8.53508
76	-8.53751
▁ມມ	-8.53977
ອອນໄລນ໌	-8.54084
ment	-8.54559
sa	-8.5459
ide	-8.54622
▁ຫ	-8.5469
ເກັບ	-8.54845
▁ຄາສິໂນ	-8.55035
Q	-8.55046
▁Al	-8.55081
ຕົວ	-8.55087
org	-8.55103
ໂຄງການ	-8.55148
q	-8.55189
end	-8.55264
ົນ	-8.55338
ha	-8.55349
▁ທັງຫມົດ	-8.55426
▁ສີຂາວ	-8.55479
▁ຈໍານວນ	-8.55515
ip	-8.55613
ຟຣີ	-8.55641
31	-8.55887
ສັດ	-8.55904
ທີ່ສຸດ	-8.5593
48	-8.56061
100	-8.56112
▁Lao	-8.56144
ລາຄາ	-8.56356
▁ເວັບໄຊທ໌	-8.56419
▁Blue	-8.56433
36	-8.56519
ຝຸ່ນ	-8.56521
27	-8.56562
▁QR	-8.56739
▁ຂະ	-8.56854
▁Technology	-8.5695
ຂະຫນາດ	-8.57117
▁ຮູບ	-8.57244
▁ຕິດ	-8.57302
hi	-8.57333
all	-8.57498
68	-8.57608
06	-8.57758
ive	-8.5783
▁Type	-8.57842
-8	-8.58417
▁\	-8.58436
ເຊັ່ນ	-8.58518
om	-8.58576
per	-8.58624
ຍັງ	-8.58783
ຕາ	-8.58785
▁Cyclone	-8.58795
▁ເບິ່ງ	-8.58881
ໃສ່	-8.58884
67	-8.59013
ຢ່າງ	-8.59173
AT	-8.59579
\	-8.59637
ກະ	-8.59695
57	-8.59715
ເຊ	-8.59796
▁1000	-8.60003
▁ດາວ	-8.60174
▁	-8.6031
▁ທີ່ໃຊ້ເວລາ	-8.60422
58	-8.60548
▁ທະ	-8.60828
tic	-8.609
no	-8.61023
▁ຫນູນ	-8.61221
ator	-8.61426
▁Online	-8.61473
ແຜ່ນ	-8.61493
▁ຢາງ	-8.6152
56	-8.6153
▁Press	-8.61547
art	-8.61654
ish	-8.6166
ຊື່	-8.61777
▁ໂທລະສັບມືຖື	-8.61801
ve	-8.61802
ay	-8.61831
46	-8.61981
▁ທົດລອງ	-8.62062
ເບິ່ງ	-8.62082
▁CO	-8.62179
▁Worldwide	-8.62205
▁start	-8.62233
ຮູບພາບ	-8.62633
ຮ	-8.62882
37	-8.62958
▁Fiber	-8.62966
47	-8.63086
£	-8.63172
"&	-8.63196
▁Mo	-8.63242
ກົດ	-8.6334
up	-8.63412
▁ເມສາ	-8.63459
ab	-8.63577
▁Ro	-8.63682
ຕ່ໍາ	-8.63692
▁Mar	-8.63694
▁ຫນ	-8.63767
▁v	-8.63818
ໂລຫະ	-8.63895
52	-8.63992
ຜ້າ	-8.64069
▁Q	-8.64083
▁Straightener	-8.64208
▁ຜູ້ຈໍາຫນ່າຍ	-8.64469
ag	-8.6447
▁ລິ	-8.6451
▁To	-8.64533
ex	-8.64647
▁Feeder	-8.64833
▁24)	-8.64854
▁Black	-8.65143
ເປີດ	-8.6534
ພະລັງງານ	-8.65479
▁Plastic	-8.6548
38	-8.65546
▁USB	-8.65568
▁ສິງຫາ	-8.65742
ster	-8.65781
-5	-8.66031
61	-8.66074
AN	-8.66146
ak	-8.66158
▁ນາ	-8.66163
▁100%	-8.66421
tattoos	-8.66421
ເມືອງ	-8.66442
ຕິດຕໍ່ຕອນນີ້	-8.66456
▁LAK	-8.66511
▁Tube	-8.66548
▁ຮັບ	-8.66689
ຮູບແບບ	-8.66799
ear	-8.66815
ຢາງ	-8.66825
ອາ	-8.66836
ລະດັບ	-8.67014
▁CNC	-8.67039
▁FIMT	-8.67289
▁iPhone	-8.6729
ow	-8.67446
▁ພັນ	-8.67471
▁ພຶດສະພາ	-8.67488
ner	-8.67492
▁ແຜ່ນ	-8.67525
▁ຊື້	-8.67535
▁with	-8.6756
63	-8.67609
ard	-8.67904
ຈັດ	-8.68034
69	-8.68116
41	-8.68194
▁PVC	-8.6834
rn	-8.68516
▁ຄວາມຄິດເຫັນທີ່	-8.68729
▁Wall	-8.68891
▁Chat	-8.69143
▁ສັບ	-8.69184
66	-8.69254
▁Servo	-8.69398
▁ອິດ	-8.69502
ອາກາດ	-8.69564
▁dur	-8.69587
▁Roulette	-8.69664
ປະເທດ	-8.6971
▁EUR	-8.69772
ໂທລະສັບ	-8.69881
▁300	-8.69994
our	-8.70015
09	-8.70015
-6	-8.70104
ແລ້ວ	-8.70392
▁ແບບ	-8.70441
78	-8.70787
ູ	-8.70877
▁High	-8.711
ຢາ	-8.71403
▁ສູງ	-8.71708
ກອງ	-8.71752
▁35	-8.71962
IC	-8.71994
▁ຄູ່ມື	-8.72011
▁ເຊິ່ງ	-8.72071
▁Flatbed	-8.72096
ັດ	-8.72229
▁For	-8.72338
42	-8.72354
▁spy	-8.72388
ໂຮງງານຜະລິດ	-8.72509
▁ກະ	-8.72596
▁IP	-8.72837
▁hack	-8.72999
ປະຕູ	-8.73035
ຄໍາ	-8.73351
ON	-8.73452
ty	-8.73712
ໃຈ	-8.73801
ph	-8.74004
ພ	-8.74091
▁ອາທິດ	-8.74144
▁ກ່ອງ	-8.74316
▁150	-8.74317
43	-8.74371
ໂລກ	-8.74391
▁Asia	-8.74491
▁ໂທລະ	-8.74521
▁fabric	-8.74585
▁ວິ	-8.74784
vi	-8.74861
ສົ່ງ	-8.74863
ທ	-8.74922
▁ມີນາ	-8.75
ps	-8.75068
▁Board	-8.75175
ັກ	-8.75191
les	-8.75218
▁ສົ່ງ	-8.75316
▁Cert	-8.75395
53	-8.75466
gu	-8.75661
der	-8.7575
ຖ	-8.7581
▁ສ້າງ	-8.75934
▁Le	-8.75979
▁pm	-8.76213
ໄປສະນີ	-8.76287
▁North	-8.76289
MA	-8.76344
▁ເຮັດ	-8.76369
▁Spy	-8.7648
▁ກັນຍາ	-8.76584
98	-8.76656
▁31	-8.7681
ec	-8.76886
AL	-8.77095
ສາມ	-8.77152
ຊື້	-8.77243
▁An	-8.77332
▁ດອກ	-8.77377
▁ໄຟຟ້າ	-8.77378
ti	-8.77419
ພາຍໃນ	-8.77551
ຮັບ	-8.77574
▁ໍາ	-8.77645
ລະຫວ່າງ	-8.77743
ໄຟ	-8.77757
▁Markets	-8.77889
ມື	-8.77942
ci	-8.77947
ຜ່ານ	-8.78065
▁Pu	-8.78066
82	-8.78109
▁2012	-8.78197
▁2011	-8.78259
ice	-8.78303
CE	-8.78313
▁your	-8.78423
▁sp	-8.78629
;&	-8.78743
▁ຖື	-8.78784
▁Google	-8.78888
▁Charter	-8.78888
▁Tattoo	-8.78916
ບໍ່ມີ	-8.79012
oo	-8.79148
▁ຕຸລາ	-8.79272
ick	-8.79356
ບໍລິການ	-8.79453
85	-8.7946
ຂ	-8.79487
▁27	-8.79729
ຕາມ	-8.79753
▁XL	-8.7986
ກ່ອນຫນ້ານີ້	-8.80066
be	-8.80106
ຈ	-8.80117
▁App	-8.80143
▁tattoostattoos	-8.80178
94	-8.80285
ໄດ້ຖືກ	-8.80311
▁ຫຼາຍ	-8.80344
▁English	-8.80383
ການນໍາໃຊ້	-8.80424
bo	-8.80487
96	-8.80566
▁Car	-8.80668
▁ວັດສະດຸ	-8.80766
▁Suppliers	-8.80776
▁ເຂົ້າ	-8.81098
ໄດ້ຮັບການ	-8.81224
▁ຫນັງສືພິມ	-8.81259
▁West	-8.81369
ou	-8.81745
ium	-8.81994
▁Cage	-8.82031
yl	-8.82043
▁Call	-8.82165
▁ຫນ່ວຍ	-8.8219
ື	-8.82425
89	-8.82439
59	-8.82453
▁Stainless	-8.82465
ຊຸດ	-8.82472
▁Price	-8.82479
▁ຂ້າພະເຈົ້າ	-8.82745
▁26	-8.82831
net	-8.83027
ແ	-8.83038
ຂຶ້ນ	-8.83234
out	-8.8325
ສະຫນັບສະຫນູນ	-8.83344
▁ຊັ້ນ	-8.83421
ອນ	-8.83582
ສິນຄ້າ	-8.83638
ປະມານ	-8.83687
▁Contact	-8.83692
ຕ້ອງ	-8.83819
ກໍາລັງ	-8.83834
▁23	-8.83843
SA	-8.83906
vo	-8.83995
ub	-8.84002
▁Park	-8.84096
ໄມ້	-8.84153
line	-8.84167
97	-8.84242
ກາ	-8.84255
-10	-8.84283
▁ຫນາ	-8.84348
ຖືກ	-8.84368
▁Qu	-8.84414
ິ	-8.84572
act	-8.84593
ເຫັນ	-8.84609
less	-8.84782
▁ຕົວ	-8.84822
ທົ່ວໄປ	-8.85117
▁ທີ	-8.85171
▁Vi	-8.85293
AS	-8.85418
▁Mini	-8.85432
ເຄື່ອງພິມ	-8.85544
▁Bu	-8.8557
ທຸກ	-8.85706
▁28	-8.85746
▁Zhejiang	-8.85861
▁PTFE	-8.85861
▁ກຸມພາ	-8.85899
300	-8.86025
▁ເຖິງ	-8.86062
▁ເງິນ	-8.86113
ain	-8.86121
che	-8.86385
ES	-8.86411
ໃຫຍ່	-8.86413
▁ວິນາທີ	-8.86493
71	-8.86677
ສຽງ	-8.86943
▁ມາ	-8.87092
▁FREE	-8.87125
ight	-8.87218
▁XXL	-8.87236
▁Web	-8.87277
ພາ	-8.87332
lin	-8.87394
ກວ່າ	-8.87435
tor	-8.87475
49	-8.87484
land	-8.87525
▁Up	-8.87528
74	-8.87598
▁Power	-8.87617
▁Aluminum	-8.87763
▁RFC	-8.87919
▁ຄາ	-8.87942
ຫມ	-8.88006
▁Ba	-8.88057
62	-8.8812
▁ນິ້ວ	-8.88122
ສານ	-8.88282
ຍາ	-8.8835
ການເຮັດວຽກ	-8.88359
▁ບ້ານ	-8.88402
▁AC	-8.88463
▁ກ່ຽວ	-8.88605
▁ວິດີໂອ	-8.88615
ຄວບຄຸມ	-8.88661
od	-8.88685
sta	-8.88736
54	-8.88776
▁ວ່າ	-8.88784
ke	-8.88845
▁ຜູ້ສະຫນອງ	-8.88846
ກາງ	-8.88861
▁Light	-8.88865
ຄຸນນະພາບ	-8.8906
▁La	-8.89081
▁ເຄື່ອງຈັກ	-8.89094
ກໍານົດ	-8.89131
▁ໄມ້	-8.89233
▁45	-8.89535
ase	-8.89586
ການຄ້າ	-8.89588
ເດັກນ້ອຍ	-8.89597
ໂທລະສັບມືຖື	-8.89663
ພຽງແຕ່	-8.8972
▁Road	-8.8975
▁Double	-8.90028
87	-8.90239
cc	-8.90296
▁ຊີ	-8.903
▁Conveyor	-8.90356
▁Vaccine	-8.90356
ນໍາໃຊ້	-8.90417
▁Shenzhen	-8.90685
ພາສາ	-8.90796
▁ຜ່ານ	-8.90908
▁ສາມາດ	-8.91011
▁Microsoft	-8.91017
ເຄື່ອງຈັກ	-8.91025
ance	-8.91027
ling	-8.91108
mon	-8.91112
▁ເຄື່ອງມື	-8.91125
▁ພິມ	-8.91148
CA	-8.91243
ໂມ	-8.91397
92	-8.91456
ຜູ້ຜະລິດ	-8.91584
ຈໍານວນ	-8.91599
EL	-8.91604
ຕັດ	-8.91739
ວັດ	-8.9174
▁Custom	-8.91741
72	-8.91765
▁so	-8.91898
ga	-8.91945
▁Di	-8.91966
0,000	-8.9198
▁Forex	-8.92033
SS	-8.92055
91	-8.92114
▁All	-8.92225
go	-8.92259
ລູກຄ້າ	-8.92268
▁me	-8.92317
ຫ້ອງ	-8.9234
▁ma	-8.92362
ລະຫັດ	-8.92519
▁ບັນ	-8.92578
▁Polyester	-8.92684
ຂີ້ຝຸ່ນ	-8.92703
ພັກ	-8.92705
▁ໂຫລດ	-8.92865
ຫຼິ້ນ	-8.92953
ຸນ	-8.93029
▁ແກ້ວ	-8.93104
▁20%	-8.93119
ຕະ	-8.93202
ຫົວ	-8.93254
ສູງສຸດ	-8.93585
port	-8.9364
▁Rotary	-8.93695
▁ມື້	-8.9374
▁ອັດຕະໂນມັດ	-8.9398
ກັດ	-8.94046
▁ບໍ່ມີ	-8.94052
▁Se	-8.9406
ສະຖານທີ່	-8.94117
▁ຫມາຍ	-8.94252
▁ບໍລິການ	-8.94297
▁XXXL	-8.94377
ock	-8.94453
ຕິດຕໍ່	-8.94583
ຕັ້ງ	-8.94628
ka	-8.9464
ແກ້ວ	-8.94657
EN	-8.94813
tattoo	-8.94928
▁Square	-8.95063
▁ພະຈິກ	-8.95063
ca	-8.95401
ary	-8.95466
eng	-8.95764
▁Dress	-8.958
▁90	-8.95907
RE	-8.95947
ພັນ	-8.95971
ox	-8.9601
hu	-8.96055
ສອນ	-8.96059
▁ເລືອກ	-8.9608
▁ໄທ	-8.96101
ັ	-8.96166
▁໌	-8.96299
▁Si	-8.96307
pp	-8.96321
az	-8.96341
av	-8.96401
▁ມິຖຸນາ	-8.96449
▁PDF	-8.96476
▁ຫະ	-8.96483
▁Email	-8.96515
ind	-8.96519
ວິດີໂອ	-8.96555
ee	-8.96565
▁ຫນຶ່ງ	-8.96571
ຮູບ	-8.96645
ສຸຂະພາບ	-8.96799
▁ຕັດ	-8.96844
▁ໂຄງການ	-8.96901
▁pro	-8.96906
ລົງ	-8.96961
▁Ha	-8.97077
ແຫ້ງ	-8.9715
▁Global	-8.9715
▁WhatsApp	-8.9715
pi	-8.97328
▁Sa	-8.97346
ປະຕິບັດ	-8.97469
ດຽວ	-8.97706
hy	-8.97716
▁Pa	-8.97734
▁Mi	-8.97869
▁Sheet	-8.9789
min	-8.97892
ຍາວ	-8.97919
ST	-8.98005
ı	-8.9821
▁ຂໍ້ມູນ	-8.98222
ຂ້າພະເຈົ້າ	-8.9837
ງ່າຍ	-8.98389
pcs	-8.98401
Hebei	-8.98416
ເດືອນ	-8.98447
ET	-8.9851
▁Win	-8.98564
ນັ້ນ	-8.9861
fa	-8.98617
▁Art	-8.98658
▁ຕາຕະລາງ	-8.98669
we	-8.98758
1%	-8.98858
81	-8.98906
ack	-8.98927
sk	-8.98979
ນອກ	-8.99019
ເຫຼັກ	-8.99097
ພັດທະນາ	-8.99105
ງານ	-8.99145
▁Whiteboard	-8.99288
▁app	-8.9937
ສະຫນອງ	-8.99381
▁ອາຫານ	-8.99385
ດິນ	-8.99441
ຂະ	-8.99462
ຕ້ອງການ	-8.99474
ເຊີ	-8.99528
▁Other	-8.99642
ພິ	-8.99724
ole	-8.99752
ທີ່ກ່ຽວຂ້ອງ	-8.99861
ast	-8.99865
03	-8.99905
ຊັ້ນ	-8.99939
ລັດ	-9.00022
ຈໍາກັດ	-9.00058
IS	-9.00359
ຕໍ່ໄປ	-9.0041
▁Ho	-9.00443
ຊິ	-9.00452
ເຮືອນ	-9.0052
▁ທັນວາ	-9.00549
▁con	-9.00657
ຕິດຕາມ	-9.00666
▁ເປີດ	-9.00722
▁OEM	-9.00755
ລາ	-9.00777
▁Pump	-9.00783
▁PC	-9.00793
▁ສະຖານທີ່	-9.00852
▁ປ່ຽນ	-9.00876
▁+86	-9.0094
ated	-9.01087
▁Laotian	-9.01101
ຊີວິດ	-9.0111
her	-9.01188
ນ້	-9.01289
73	-9.01429
▁ປະເທດ	-9.01472
ທາງການ	-9.01513
▁ບໍ	-9.01575
9001,	-9.01583
▁un	-9.01601
84	-9.01646
▁ອາດ	-9.01692
▁ອ	-9.01706
▁Pe	-9.01752
ໆ	-9.0178
ລິ	-9.01871
▁ເຄື່ອງຕັດ	-9.01902
ການສຶກສາ	-9.01919
ເຄືອຂ່າຍ	-9.02017
ess	-9.02142
nd	-9.02258
ິນ	-9.02378
ning	-9.02379
ຊາດ	-9.02394
ບັນຊີ	-9.02405
▁05	-9.02425
ຊີ	-9.02567
▁motor	-9.02568
ຂຽນ	-9.02569
ING	-9.02602
OR	-9.02622
ai	-9.02763
▁ກະລຸນາ	-9.02948
are	-9.03109
ປະກອບ	-9.03138
ash	-9.03233
▁HD	-9.03234
64	-9.03265
▁Smart	-9.03312
ຊອກຫາ	-9.0332
qu	-9.03342
ທໍາອິດ	-9.03351
ລວມ	-9.03408
▁do	-9.03456
pl	-9.03466
ous	-9.03484
▁Sh	-9.0359
ric	-9.03623
▁Group	-9.03686
ນໍາ	-9.03687
ວິທີການ	-9.0374
▁ຜະລິດ	-9.03748
ມາດຕະຖານ	-9.03936
oc	-9.03955
▁News	-9.04089
▁ກອນ	-9.04193
air	-9.04384
cl	-9.04425
▁ທາງ	-9.04676
▁ຜົງ	-9.04759
▁ການອອກແບບ	-9.04793
ລົມ	-9.04814
▁tattoostattoo	-9.04927
▁Download	-9.04949
ຊ່ວຍ	-9.05245
▁ສູນ	-9.05576
▁Caribbean	-9.0558
▁that	-9.05614
▁ອອກ	-9.05644
▁info	-9.05668
ກໍ່	-9.05672
▁DC	-9.05673
pt	-9.05685
ບິນ	-9.05696
▁Phone	-9.0576
▁Su	-9.05798
▁ທີ່ດີທີ່ສຸດ	-9.05847
▁Africa	-9.05963
ບ້ານ	-9.05966
▁America	-9.06029
lan	-9.06234
▁Copier	-9.06348
ັງ	-9.06359
ml	-9.06375
ເສັ້ນ	-9.06407
RI	-9.06432
▁Mill	-9.06462
ຕົນເອງ	-9.06523
▁ໃບຢັ້ງຢືນ	-9.06546
▁ນາທີ	-9.06592
▁ຄວາມໄວ	-9.06604
83	-9.06713
ສະແດງ	-9.06721
va	-9.06738
▁ຮູບແບບ	-9.06795
bit	-9.06798
93	-9.06835
ert	-9.06883
ace	-9.06895
ure	-9.06953
້ນ	-9.0697
ek	-9.07005
▁ອີ	-9.07079
arm	-9.07101
uck	-9.07146
▁75	-9.07156
ok	-9.07231
ເລືອກ	-9.07246
wa	-9.07384
ສາ	-9.07406
▁29	-9.07504
▁Middle	-9.0751
▁ໂລຫະ	-9.07579
tro	-9.07591
▁ວາວ	-9.07679
aw	-9.07686
ame	-9.07698
ວິທະຍາສາດ	-9.07902
▁David	-9.07902
ue	-9.07976
ຄວາມຕ້ອງການ	-9.07997
▁ຍາ	-9.08013
ການປິ່ນປົວ	-9.08027
▁ພາສາ	-9.08091
ft	-9.08129
ile	-9.0815
ສະຫ	-9.08172
ຜົນ	-9.08252
▁Do	-9.08278
▁Samloem	-9.08293
▁ພາບ	-9.08376
ສະເຫນີ	-9.08412
5%	-9.08544
▁ນັກ	-9.08546
ຄວາມຮ້ອນ	-9.0863
▁ຫົວຂໍ້	-9.08666
ດູດ	-9.08685
▁Street	-9.08687
ມະ	-9.08702
▁Super	-9.08707
ອັນ	-9.08771
ore	-9.08819
▁ທ່ານສາມາດ	-9.08822
ຊາຍ	-9.0898
▁APK	-9.09018
▁Post	-9.09029
▁are	-9.09054
▁System	-9.09082
ene	-9.09118
▁Coil	-9.09237
fe	-9.09372
ug	-9.09482
SD	-9.09593
▁ລາຍ	-9.09616
ການພັດທະນາ	-9.09631
ນີ	-9.09704
່ງ	-9.09708
Hz	-9.09733
▁Slot	-9.09756
ຫ້ອງການ	-9.09794
▁UK	-9.09806
ໄວ	-9.09837
▁Chalkboard	-9.09879
▁He	-9.09914
▁ກ່ຽວກັບພວກເຮົາ	-9.09994
▁he	-9.10026
ັນ	-9.10072
ບັດ	-9.10153
▁ເຫັນ	-9.10198
▁Blockchain	-9.10277
▁Company	-9.10277
▁Oceania	-9.10283
ແມ່ເຫຼັກ	-9.10326
▁Flash	-9.10338
▁Cam	-9.10353
if	-9.10453
bi	-9.10487
▁ສະລັອດຕິງ	-9.1058
RA	-9.10643
▁ການນໍາໃຊ້	-9.10866
ake	-9.10984
▁Th	-9.11002
▁ແຂວງ	-9.11034
▁ຮ້ອນ	-9.11077
ຫມຶກ	-9.11082
▁design	-9.11082
▁Video	-9.11083
▁ເອກະຊົນ	-9.11147
mi	-9.11199
79	-9.11216
ອອກແບບ	-9.11221
▁Mac	-9.11434
ຕົ້ນຕໍ	-9.11481
ກ່ອນ	-9.11493
ຸດ	-9.11628
▁Case	-9.1164
ພາບ	-9.117
ik	-9.11731
▁ລ້ານ	-9.11996
ຂະຫນາດໃຫຍ່	-9.12002
MP	-9.12047
ບາງ	-9.12148
ນັກ	-9.12217
ສຸດ	-9.12236
▁Dry	-9.12239
▁reply	-9.12302
▁1500	-9.12343
▁ໄດ້ຮັບ	-9.12394
▁can	-9.1241
low	-9.12535
ຕິດ	-9.12585
▁120	-9.12615
ປ້ອງກັນ	-9.12651
ປະຊາຊົນ	-9.12651
▁Skeleton	-9.12711
xi	-9.12793
ect	-9.12867
ທີ່ຢູ່	-9.13028
້າ	-9.1308
▁Bitcoin	-9.13123
ການບໍລິການ	-9.13214
ບານ	-9.13302
▁ເຮັດໃຫ້	-9.13329
ven	-9.13411
▁Français	-9.13466
▁Digital	-9.13536
▁Solenoid	-9.13536
800	-9.13597
▁Zone	-9.13653
fi	-9.13793
▁ບັນຊີ	-9.13804
ger	-9.1383
ປົກກະຕິ	-9.13921
ສາກົນ	-9.13951
▁ອຸປະກອນການ	-9.13962
▁PM	-9.14125
des	-9.14271
ust	-9.1435
wi	-9.14473
ea	-9.14534
OS	-9.14664
ດາ	-9.14693
ຂາ	-9.14702
nic	-9.1476
600	-9.14766
▁wordpress	-9.14786
▁ຫນັງ	-9.14794
ix	-9.14819
ade	-9.14829
ວັດສະດຸ	-9.15058
hand	-9.1509
-7	-9.15141
▁Fl	-9.15188
▁csgo	-9.15207
ລົງທະບຽນ	-9.1521
ພື້ນຖານ	-9.15215
ຈັບ	-9.15221
▁ຂາຍ	-9.15271
ຂອງຕົນ	-9.1536
ຄື	-9.15376
ah	-9.15423
back	-9.15471
▁ກັນ	-9.15575
▁ຫົວ	-9.15601
CH	-9.15619
▁admin	-9.15632
ແຫ່ງຊາດ	-9.15875
220	-9.15897
▁Ra	-9.15934
ພວກເຂົາ	-9.15945
ຫລາຍ	-9.16036
▁spring	-9.16053
EC	-9.16078
ເທິງ	-9.1616
▁Ga	-9.16192
ob	-9.16304
▁ເອ	-9.16369
rip	-9.16385
▁Samsung	-9.16477
ການອອກແບບ	-9.16503
way	-9.16625
▁Red	-9.16637
lic	-9.16647
ano	-9.16702
ov	-9.16766
con	-9.16786
ies	-9.16802
▁ຕາ	-9.16834
▁NC	-9.16919
▁ວຽກ	-9.16935
▁https	-9.17065
▁ເຫມາະສົມ	-9.17071
▁→	-9.17228
▁32	-9.17253
▁ຖານ	-9.1729
ຄອມພິວເຕີ	-9.17337
du	-9.17338
▁And	-9.17341
▁ຊົ່ວໂມງ	-9.17346
.0.2	-9.1742
▁ນະ	-9.17549
▁ສົມ	-9.17676
ອມ	-9.17748
▁ກໍລະກົດ	-9.17765
▁Honda	-9.17765
ຕອບ	-9.178
ວິທະຍາໄລ	-9.17811
ເມ	-9.17833
▁800	-9.17855
ການພິມ	-9.17928
ອງ	-9.17941
do	-9.18012
ຕະຫຼາດ	-9.18094
ຫຼັກ	-9.18191
▁Software	-9.18203
ren	-9.18234
ສະລັອດຕິງ	-9.18288
ort	-9.18359
▁fl	-9.1854
▁ໄຟ	-9.18597
▁ຄວາມຫນາ	-9.18673
bar	-9.18699
ໂຊ	-9.18719
ໄວ້	-9.18774
▁ເຄືອບ	-9.1887
▁Pet	-9.18965
ທີ່ດີ	-9.19013
US	-9.19108
ກະດານ	-9.19135
ມືອາຊີບ	-9.19143
gen	-9.19158
und	-9.19208
▁ເວລາ	-9.19213
▁ຍິນດີຕ້ອນຮັບ	-9.19227
ປັບ	-9.19305
▁Gr	-9.19324
▁ຝຸ່ນ	-9.19327
tra	-9.19382
shan	-9.19512
▁≤	-9.19537
▁ໃຈ	-9.19598
▁80	-9.19661
ການຝຶກອົບຮົມ	-9.19689
▁Box	-9.19693
ອກ	-9.19819
ເພີ່ມເຕີມ	-9.19827
po	-9.19833
AC	-9.19864
ຂາວ	-9.19877
ສາດ	-9.19921
ສິ່ງ	-9.19922
ມື້ນີ້	-9.19965
ze	-9.20158
▁ສີແດງ	-9.20164
que	-9.20198
-01	-9.2029
▁ການບໍລິການ	-9.20384
▁University	-9.20391
engrui	-9.20398
ໂຕ	-9.20455
IT	-9.20515
lot	-9.20529
ຢ	-9.20547
MS	-9.20637
ຕົວຢ່າງ	-9.20645
ແລະອື່ນໆ	-9.2065
ເຕັກໂນໂລຊີ	-9.20676
▁ຈ	-9.20762
tt	-9.20778
ence	-9.20876
ink	-9.20974
ວິ	-9.21128
ນໍ້າ	-9.21284
ເລ	-9.21358
▁ໂລກ	-9.21463
ບໍ່ໄດ້	-9.21494
ອັດ	-9.21582
▁ບົດ	-9.21619
▁Single	-9.21735
▁iOS	-9.21742
ຮ້ອນ	-9.21757
▁Inc	-9.2176
ko	-9.21763
▁600	-9.21821
▁Ph	-9.21871
▁ຄ	-9.21893
▁Motor	-9.21984
▁ຈຸດ	-9.22014
▁ຊອບແວ	-9.222
ber	-9.22204
ຫຼາຍກວ່າ	-9.22294
▁j	-9.22362
▁ເຟສບຸກ	-9.22366
ວັນທີ	-9.22462
▁ມາດ	-9.22498
ound	-9.22601
uk	-9.22755
▁ຄົນ	-9.22762
ark	-9.22767
2019	-9.22824
11%	-9.22899
og	-9.22964
ng	-9.23074
ຂື້ນ	-9.23081
ຫຍັງ	-9.23091
▁casino	-9.23107
▁Best	-9.23204
ປັບປຸງ	-9.23216
han	-9.23267
}	-9.23318
▁Products	-9.23385
▁ຕາມ	-9.23416
so	-9.23436
ເວັບໄຊທ໌	-9.23519
▁bitcoin	-9.23544
ໃນປັດຈຸບັນ	-9.237
▁kr	-9.2384
ພາກ	-9.23974
over	-9.24153
▁ປະຕູ	-9.24268
ອ່ານ	-9.24277
mb	-9.24399
GVMG	-9.24464
ມັກ	-9.24516
▁Fu	-9.24675
ອາດຈະ	-9.2473
ກາວ	-9.24743
▁ທໍາມະຊາດ	-9.24867
▁Italian	-9.24912
board	-9.24936
▁Plus	-9.24948
best	-9.25114
ເພີ່ມ	-9.25173
▁width	-9.25265
▁Muay	-9.25403
ໂພ	-9.25406
ສຸດທ້າຍ	-9.25448
ທີ່ສໍາຄັນ	-9.25659
▁Archives	-9.25719
▁Dr	-9.25725
▁Cheat	-9.25725
▁di	-9.25791
let	-9.25811
▁Design	-9.2583
▁ກິລາ	-9.25868
ປະກອບດ້ວຍ	-9.25895
ພະ	-9.25971
PA	-9.26012
▁ດໍາ	-9.26021
ອັງກິດ	-9.26045
ten	-9.26066
ການຊໍາລະເງິນ	-9.26331
king	-9.26348
ຫນ້ອຍ	-9.26418
▁Wi	-9.26461
▁ຕຸ	-9.2653
່ນ	-9.26655
▁ກາ	-9.26701
ເປ	-9.26701
ran	-9.26725
▁ບົບ	-9.2679
▁Diaphragm	-9.268
▁ເສັ້ນໃຍສັງເຄາະ	-9.26801
ກາເຟ	-9.26805
▁ຢາ	-9.26817
▁Iron	-9.26868
ອາຍຸ	-9.26872
form	-9.2691
old	-9.26942
▁Flat	-9.26974
▁Tri	-9.26995
ial	-9.27081
▁min	-9.27104
ພ້ອມ	-9.27127
ron	-9.27161
▁ຕື່ມ	-9.27195
▁Gu	-9.27248
cy	-9.2733
ave	-9.27362
▁ທັນ	-9.27394
250	-9.27504
fish	-9.27519
ລາຍລະອຽດ	-9.27593
▁Tape	-9.27646
ເຄື່ອງມື	-9.27656
▁ສານ	-9.27706
tu	-9.27854
ປິດ	-9.27904
▁Pi	-9.28002
ທາງເລືອກ	-9.28076
ath	-9.28229
▁IFMA	-9.2823
ຖ່ານຫີນ	-9.28231
ress	-9.28243
▁04	-9.28432
ane	-9.28466
mp	-9.28487
▁NO	-9.28502
uc	-9.28526
ປະເພດຂອງ	-9.28602
ທັງ	-9.28612
0.00	-9.28693
ເອົາ	-9.2871
о	-9.2871
ທີ່ແຕກຕ່າງກັນ	-9.28795
ແມ່	-9.28993
▁ຂອບ	-9.29018
▁Slots	-9.29123
ຄາສິໂນ	-9.29149
ແສງ	-9.29174
▁Toner	-9.29236
ya	-9.29279
cat	-9.29301
ເດ	-9.29372
pr	-9.29387
▁ຕະ	-9.29571
▁ສະບັບເລກທີ	-9.29621
ep	-9.29631
ກິລາ	-9.29657
ຄືນ	-9.29657
▁Bar	-9.29658
ຍ່ອຍ	-9.29678
▁Uncoiler	-9.29678
ດັ່ງກ່າວ	-9.29681
ກີ	-9.29738
▁ພະນັກງານ	-9.29873
▁www	-9.30113
▁Portable	-9.30183
ware	-9.30184
box	-9.30204
▁ໂອ	-9.30341
NS	-9.30342
ກ່ຽວກັບການ	-9.30468
▁type	-9.30662
▁Print	-9.30672
▁US	-9.30742
ປ່ຽນ	-9.30744
▁ເຊັ່ນ	-9.30761
ສີຂາວ	-9.30768
▁Pre	-9.30844
▁ຮູບເງົາ	-9.30926
zo	-9.30928
▁ຮ	-9.3097
▁ສິ່ງ	-9.31162
ມີຄວາມ	-9.31177
ຂະຫນາດນ້ອຍ	-9.31305
▁ຈ່າຍ	-9.31311
▁ເມ	-9.31318
ໂ	-9.31334
▁sales	-9.31378
▁ຕ້ອງ	-9.31394
▁Anti	-9.31397
ome	-9.31404
▁01	-9.31467
ll	-9.31499
▁pre	-9.31513
ຄວາມປອດໄພ	-9.31553
ຶ	-9.31621
▁400	-9.31637
▁Page	-9.3169
▁Xin	-9.31702
ຄ່າ	-9.31732
ຮ່ວມ	-9.31759
=	-9.3176
▁ເພີ່ມ	-9.31786
▁ການປັບປຸງ	-9.31807
ເມື່ອ	-9.31908
0.0	-9.31956
ture	-9.3199
nc	-9.32123
ໂຄ	-9.32138
▁ເບິ່ງຊອບແວຫຼາຍ	-9.32141
▁Micro	-9.32146
ບໍລິ	-9.3218
zhou	-9.32192
▁Photo	-9.32286
▁2000	-9.32389
▁ອີເມວ	-9.32459
▁vs	-9.32471
ION	-9.32516
ü	-9.32642
▁Foam	-9.32642
▁Crack	-9.32643
▁ວາ	-9.3266
▁ຕິ	-9.32743
▁03	-9.32757
▁we	-9.32792
ໃດ	-9.32837
ກອງປະຊຸມ	-9.32901
read	-9.32939
▁Pox	-9.32957
▁GB	-9.32973
ນີ້ແມ່ນ	-9.33016
▁Guangzhou	-9.33144
▁Qingdao	-9.33144
▁Lo	-9.33211
top	-9.33269
▁ວັນທີ	-9.33275
ວຽກ	-9.33316
▁Wire	-9.33337
▁International	-9.33338
▁ເງື່ອນໄຂ	-9.33349
-2018	-9.33352
▁ດ້ວຍ	-9.33399
ແປ	-9.33429
▁250	-9.33515
▁ຖືກ	-9.33529
pper	-9.33554
ord	-9.33635
▁butterfly	-9.33649
▁Shopify	-9.33677
lock	-9.33709
PS	-9.33729
▁ມູນ	-9.33836
sp	-9.33987
res	-9.3399
▁as	-9.3402
▁Ne	-9.34044
hai	-9.34082
▁ອຸນຫະພູມ	-9.34156
é	-9.34157
▁ສະພາບອາກາດໃນ	-9.34166
ຮັກ	-9.34199
ກວດ	-9.34344
▁Blog	-9.34357
ຂະຫຍາຍ	-9.34375
ff	-9.34412
▁ປາ	-9.34459
ສະແຕນເລດ	-9.34508
ung	-9.34544
ana	-9.34565
ຄອນ	-9.3469
▁Gas	-9.34757
▁Play	-9.34769
▁Ri	-9.3482
▁MH	-9.3504
sun	-9.35054
▁ຂ້າ	-9.35071
-12	-9.35096
iv	-9.35101
▁ຕິດຕໍ່	-9.35135
ສູບ	-9.3518
▁laser	-9.35181
OOD	-9.35187
▁tr	-9.35188
ວນ	-9.35324
ເຕີ	-9.35372
CO	-9.35481
ical	-9.35536
ຂີ້ເຫຍື້ອ	-9.35571
▁ລັງ	-9.35596
int	-9.35599
ໂຮງແຮມ	-9.35639
ກວດສອບ	-9.35645
day	-9.35664
ສັ້ນ	-9.35687
▁ຜົນ	-9.35691
ເຂົ້າໄປໃນ	-9.35699
▁(1)	-9.35704
▁·	-9.35839
ສີ່	-9.35843
ການຂາຍ	-9.35859
▁ສິດ	-9.35882
▁En	-9.35986
▁CE	-9.35993
ized	-9.36071
ມື້	-9.36155
▁Multi	-9.36214
ອ່ອນ	-9.36262
ຫຍໍ້ຂອງ	-9.36338
ຫນາ	-9.36366
ບັນຈຸ	-9.36382
ເຫຼົ່ານີ້	-9.36404
ຕິ	-9.36608
▁ຢ້ຽມຢາມ	-9.36628
ປະກອບມີ	-9.36642
ຜົນກະທົບ	-9.36697
▁ກຸມ	-9.3672
▁White	-9.36725
▁ໄລ	-9.36726
▁70%	-9.36874
UR	-9.36892
▁Trade	-9.36943
▁no	-9.37011
ຮັກສາ	-9.37071
▁Jin	-9.37204
ຕໍາແຫນ່ງ	-9.37258
▁ຫນັກ	-9.37261
ຂະບວນການ	-9.37263
ເລີ່ມຕົ້ນ	-9.37272
eo	-9.3729
້ງ	-9.37363
fu	-9.37375
▁jet	-9.37396
str	-9.37443
ປາກ	-9.37531
▁Jo	-9.37557
▁By	-9.37608
hen	-9.3761
ວີ	-9.37653
▁Test	-9.37653
▁CAS	-9.37713
▁Tra	-9.37762
ina	-9.37788
cross	-9.3779
ເຂົ້າຮ່ວມ	-9.37805
▁ປະຕິບັດຕາມ	-9.37826
light	-9.3784
ໂທ	-9.379
ແຟ	-9.37901
-9	-9.37918
ທະ	-9.37972
CT	-9.3808
ham	-9.38109
PE	-9.38266
of	-9.38305
ຕັ້ງຢູ່ໃນ	-9.38401
▁17,	-9.38582
▁We	-9.38603
▁ຕັ້ງ	-9.3863
ud	-9.38682
▁ໆ	-9.38709
▁Lu	-9.38721
SI	-9.38736
▁ສະບັບ	-9.38745
▁{	-9.38747
ler	-9.38754
ao	-9.38827
▁Twitter	-9.38845
ted	-9.38873
ood	-9.38928
▁ແມ່ນຫຍັງ	-9.38949
▁ການເດີນທາງ	-9.38958
ew	-9.38972
▁Cl	-9.38994
▁Apple	-9.38995
▁PCB	-9.39075
▁ການຄາດຄະເນ	-9.39144
▁ຄໍາຖາມ	-9.39172
▁Long	-9.393
▁ອອກແບບ	-9.39375
▁ເສັ້ນ	-9.39382
▁ບົດຄວາມ	-9.39389
▁ຄວາມຄິດເຫັນ	-9.39413
▁cryptocurrency	-9.39431
▁ແຜນຜັງເວັບໄຊ	-9.39459
▁Flight	-9.39524
ລໍ້	-9.39617
ຍະ	-9.39662
ble	-9.39715
ize	-9.39784
ເຄືອບ	-9.39834
001	-9.39865
ພົບ	-9.39887
ຊີ້ຂາດ	-9.39919
ຄວນ	-9.3995
ວຍ	-9.39974
ອື່ນ	-9.40027
ຈຸດ	-9.40248
har	-9.40274
RO	-9.40277
ose	-9.40315
val	-9.40404
ຮຽນ	-9.40453
▁ສິ່ງທີ່ຄວນຮູ້	-9.40458
ຟັງ	-9.40489
ຫຼາຍກ່ວາ	-9.40505
▁Du	-9.40595
pro	-9.40607
▁ມາດຕະຖານ	-9.40638
PL	-9.40739
eye	-9.40841
999	-9.40885
ມືຖື	-9.40955
ເສື້ອ	-9.40999
▁Instagram	-9.41001
ອິນເຕີເນັດ	-9.41002
▁Dreadbag	-9.41002
▁HGH	-9.41006
ct	-9.41009
ກໍ່ສ້າງ	-9.41017
ib	-9.41087
▁Center	-9.41106
▁Book	-9.41158
ເຄ	-9.412
▁02	-9.4123
▁ສະແດງ	-9.4126
▁PP	-9.414
▁Fittings	-9.41401
▁ຕອບ	-9.41424
AP	-9.41483
▁ທັງ	-9.41533
▁ປະເທດຈີນ	-9.41582
-0	-9.41607
ld	-9.41626
▁One	-9.4163
▁Belt	-9.41711
ID	-9.41755
▁Hat	-9.41757
▁MB	-9.41833
▁ເຄ	-9.41889
ຂໍ້	-9.4191
ນິ	-9.41956
€	-9.4204
ພາດສະຕິກ	-9.42097
ສະມາຊິກ	-9.42097
ລໍາ	-9.42128
IA	-9.42231
ຊາວ	-9.42257
ular	-9.42363
ຜູ້ໃຊ້	-9.42365
bra	-9.42369
ເອກະສານ	-9.42395
ດິຈິຕອນ	-9.42412
ອີກ	-9.42427
▁ແນວຄວາມຄິດ	-9.42484
ແຕ່ລະ	-9.42521
ຄວາມໄວສູງ	-9.42524
ເຢັນ	-9.42525
▁DN	-9.42619
ເສັ້ນທາງ	-9.42632
▁ສະຫນັບສະຫນູນ	-9.42642
е	-9.4265
rus	-9.42655
ລຸ້ນ	-9.42656
▁ຈັດ	-9.42692
ສິ່ງທີ່	-9.42707
ໂຄງສ້າງ	-9.42709
ສີດ	-9.42719
phone	-9.42721
ເສ	-9.42882
▁Hebei	-9.42883
▁ລັດ	-9.4291
▁ເງິນຝາກ	-9.42911
ED	-9.4296
ບັນດາ	-9.43096
ທີ່ແທ້ຈິງ	-9.43108
ຊະນະ	-9.43151
▁ແວ	-9.43215
ນະ	-9.43245
▁ແລ້ວ	-9.43337
▁2010	-9.43414
load	-9.4345
▁ລະດັບ	-9.43471
▁ສໍາລັບການ	-9.43526
EA	-9.43535
hua	-9.43566
ທີ່ທ່ານ	-9.43613
FC	-9.43667
▁ຝຶກ	-9.4376
▁ສປປ	-9.43764
▁ຫມວດ	-9.43765
OL	-9.43782
by	-9.43836
400	-9.4407
ເບ	-9.44164
ການບິນ	-9.44167
Ltd	-9.44341
ຫຼ້າສຸດ	-9.44343
▁NEW	-9.44347
ກິນ	-9.44354
ros	-9.44425
ev	-9.44431
ste	-9.44548
່າ	-9.44557
ສໍາຫລັບ	-9.44597
ray	-9.44652
UN	-9.44657
IG	-9.4466
KW	-9.44676
▁Cap	-9.44694
▁ຖາມ	-9.44709
▁ຄົ້ນຫາ	-9.44755
ບໍ	-9.44766
gi	-9.44834
ພະຍາດ	-9.44891
ທໍາມະຊາດ	-9.44964
$	-9.45017
ach	-9.4504
▁Español	-9.45109
▁ວິທີ	-9.45127
ເອງ	-9.45219
ການກັ່ນຕອງ	-9.45327
▁ໂຕ	-9.45333
ວົງ	-9.45378
▁020	-9.45454
а	-9.45459
▁Shanghai	-9.45459
▁Server	-9.45461
rc	-9.45494
▁ຄູ	-9.45512
▁dev	-9.45605
ທາ	-9.45663
▁br	-9.45691
ການຄວບຄຸມ	-9.45694
▁PR	-9.45788
▁Blythe	-9.45875
▁Da	-9.45958
ັ່ນ	-9.45992
ແຂງ	-9.46024
ໄກ່	-9.4603
ລັອກ	-9.4603
▁Vientiane	-9.4603
lf	-9.46073
ືອ	-9.4611
ris	-9.4625
▁po	-9.46339
ໂປ	-9.46418
▁Mold	-9.46591
и	-9.46605
▁Ceramic	-9.46605
▁Varicella	-9.46605
▁Chrome	-9.46605
▁ໂຮງແຮມ	-9.46668
ຕົວແທນ	-9.46668
▁crate	-9.46681
ອີເມວ	-9.46766
GB	-9.46777
II	-9.46953
▁ໃຫຍ່	-9.47065
▁was	-9.47075
ປະສິດທິພາບ	-9.47077
ນອນ	-9.47097
▁ມະ	-9.4713
▁wooden	-9.47187
▁55	-9.47191
TS	-9.47205
▁ການກັ່ນຕອງ	-9.47212
nt	-9.47213
▁Sha	-9.47341
▁ເດັກນ້ອຍ	-9.47376
ນັບ	-9.47409
tes	-9.47428
ME	-9.47431
ໂຮງງານ	-9.47441
▁free	-9.47498
ໂລ	-9.47626
ການເຊື່ອມຕໍ່	-9.47682
▁AM	-9.47694
▁State	-9.47735
fr	-9.47747
▁Cartridge	-9.47765
▁Rights	-9.47767
ດໍາເນີນການ	-9.47844
COM	-9.47857
▁Golden	-9.47862
ການພະນັນ	-9.47871
star	-9.47884
dge	-9.47975
PT	-9.48262
tal	-9.48332
ແຫ່ງ	-9.48332
ເຊື້ອ	-9.48337
▁Erase	-9.48351
▁Fiberglass	-9.48353
▁ລວມທັງ	-9.48368
▁ສໍາລັບຜູ້ຊາຍ	-9.48448
OT	-9.48487
▁China	-9.48546
▁ນະໂຍບາຍ	-9.48576
ຄາດຄະເນ	-9.48608
ເຈ	-9.48616
▁Set	-9.48747
imp	-9.48751
cent	-9.48762
TH	-9.48839
▁ຮັກ	-9.48893
▁ຂ້ອຍ	-9.48898
alk	-9.489
ຊຸມຊົນ	-9.4894
bird	-9.48952
ທີມງານ	-9.48978
CN	-9.49018
iz	-9.49036
▁ຮ້ານ	-9.49042
ົງ	-9.49074
▁Min	-9.49088
ນ້ໍາມັນ	-9.49097
▁Key	-9.49133
ເຮືອ	-9.49161
▁ເວັບ	-9.49171
ວາ	-9.49249
ປະທານ	-9.49348
ef	-9.49363
ວາວ	-9.49374
▁Nylon	-9.4953
lay	-9.49565
▁36	-9.49596
▁Na	-9.49623
▁ມັນເປັນ	-9.49645
MM	-9.49656
atch	-9.497
▁ປັບ	-9.4992
kw	-9.49931
້ໍາ	-9.49941
ເຕັມ	-9.50006
ປະສົມ	-9.50014
rate	-9.50019
▁($	-9.50075
▁ປະເທດໄທ	-9.50125
▁Capital	-9.50125
ວິເຄາະ	-9.50128
ຮ່າງກາຍ	-9.50139
▁Office	-9.5014
▁Shirt	-9.50149
▁ເຕີ	-9.50201
▁su	-9.50209
ໃນໄລຍະ	-9.50231
▁ລູກຄ້າ	-9.50256
▁ຖ້າ	-9.50301
qui	-9.50321
ຄຸນນະພາບສູງ	-9.50334
▁ເຕັກໂນໂລຊີ	-9.50338
ເສີມ	-9.50459
cho	-9.5047
▁Marketing	-9.50476
ext	-9.50498
ສັງຄົມ	-9.50531
ຫລ	-9.50547
ເຈົ້າ	-9.50572
lion	-9.50678
ຕົກ	-9.50718
ຮັບປະກັນ	-9.50722
ສື່ມວນຊົນ	-9.50723
ໂບນັດ	-9.50723
▁Assembly	-9.50723
▁Dedusting	-9.50723
▁ເຫນີ	-9.50724
ຄົນອັບເດດ	-9.50743
▁ວົງ	-9.50745
▁ເພີ່ມເຕີມ	-9.50751
ຮູ້	-9.50783
ຈັດການ	-9.50922
▁Sand	-9.51122
hr	-9.51223
ກໍລະນີ	-9.51287
▁ທ	-9.51294
ອາຍແກັສ	-9.51326
▁Wireless	-9.51343
ຖ່າຍ	-9.51355
▁Pot	-9.51405
ອດ	-9.51419
log	-9.51434
RT	-9.51499
chi	-9.51646
ສິ	-9.51658
▁ສຽງ	-9.51669
▁Hi	-9.51694
ກິດ	-9.51753
▁ຜ	-9.51788
head	-9.51821
ບາ	-9.52004
ຄະນະ	-9.52004
ຊົນ	-9.52016
ຍົນ	-9.5206
hang	-9.52144
ຂ້ອຍ	-9.52192
▁Hyperbaric	-9.52215
ຍົກ	-9.52219
▁Ideas	-9.52274
▁up	-9.52361
ກ່າວ	-9.52363
▁Direct	-9.52364
mail	-9.5242
▁ແມັດ	-9.52492
▁ສວນ	-9.52527
0%	-9.52532
ກົມ	-9.52542
▁Green	-9.52545
▁Carbon	-9.52554
ຄັ້ງ	-9.52603
cu	-9.5269
ຕີນ	-9.52756
KG	-9.52788
▁ເມື່ອ	-9.52841
ເຄມີ	-9.52909
ທິ	-9.52929
time	-9.52933
▁ຊາ	-9.52945
▁War	-9.53048
▁Deduster	-9.53155
▁Shijiazhuang	-9.53155
,000.00	-9.53183
ຫນຸ່ມ	-9.53188
▁ໂຄມໄຟ	-9.53214
▁will	-9.53243
▁this	-9.53246
ໂດຍກົງ	-9.5325
angel	-9.53258
ຝຶກອົບຮົມ	-9.5329
eck	-9.53338
ັ່ງ	-9.53343
▁Roller	-9.53412
ຈັນ	-9.53446
▁You	-9.53467
ກໍາ	-9.53486
▁House	-9.5363
ຕົກແຕ່ງ	-9.53649
fer	-9.53704
▁Karnar	-9.53772
ail	-9.53802
▁ອຸ	-9.53864
ີ	-9.53934
ລັບ	-9.53994
▁ການປະຕິບັດ	-9.54016
▁Led	-9.5406
▁ເອົາ	-9.54121
eb	-9.54121
▁Ac	-9.54149
don	-9.54175
ປູ	-9.54221
vis	-9.54236
▁ໄຊ	-9.54328
FA	-9.54335
▁ກະທູ້	-9.54339
▁1.5	-9.54366
ISO	-9.54387
ສາທາລະນະ	-9.54393
ເສດຖະກິດ	-9.54393
▁ແດງ	-9.54397
ji	-9.54419
ເຂດ	-9.54438
▁Metal	-9.5444
SH	-9.54495
▁Go	-9.54586
ສັນ	-9.54705
ຍາກ	-9.54765
▁06	-9.54844
ພູ	-9.54907
ແຕ່	-9.54913
ກົງ	-9.54927
▁ອື່ນໆ	-9.54936
ເນ	-9.54948
ລົດໄຟ	-9.54999
▁Suzuki	-9.55019
▁Ukraine	-9.55019
▁Giant	-9.5502
▁ບຸກ	-9.55035
▁ນັບ	-9.55062
In	-9.55104
▁ຄໍາເຫັນ	-9.55106
▁ສໍາລັບເດັກຍິງ	-9.55109
▁ຂຽນ	-9.55116
▁ຢ່າງ	-9.55149
car	-9.55309
ຂົນສົ່ງ	-9.55309
book	-9.55396
▁09	-9.55439
▁ເວ	-9.55475
▁MT	-9.55556
ຍຸ	-9.55643
▁Organosilicon	-9.55647
▁Rikoooo	-9.55648
ປະຫວັດສາດ	-9.5565
ເກີດ	-9.55651
ໂອກາດ	-9.55663
▁Opera	-9.55665
word	-9.55758
▁ສະແຕນເລດ	-9.55812
ບໍ່ສາມາດ	-9.55867
ມ້ວນ	-9.55921
▁Comp	-9.55937
ຮູບເງົາ	-9.55943
ຫນ້າຈໍ	-9.55967
ວິທີ	-9.55985
ອາທິດ	-9.56016
▁Part	-9.56085
bet	-9.56092
▁07	-9.561
ino	-9.56206
▁Bl	-9.56267
▁YouTube	-9.5628
SU	-9.56284
ໂຮງ	-9.56286
ເກັບຂີ້ຝຸ່ນ	-9.56317
ifi	-9.56334
▁ເຮືອນ	-9.56365
use	-9.5637
▁have	-9.56374
▁ເປັນຫຍັງ	-9.56399
▁ຍັງ	-9.56429
ນາງ	-9.56501
▁28,	-9.56596
ລິຂະສິດ	-9.56608
▁Seal	-9.56611
▁Ke	-9.56617
ສໍາຄັນ	-9.56633
ໂຮງຮຽນ	-9.56639
▁ກອບ	-9.56705
▁86-	-9.56708
▁21,	-9.5674
ວາງ	-9.56852
ele	-9.56902
ກະດູກ	-9.56917
▁Galvanized	-9.56917
▁October	-9.56917
▁Message	-9.56917
ຫລັງ	-9.56968
▁125	-9.56983
▁0086-	-9.57018
▁Fe	-9.57048
ຫລື	-9.57095
▁3000	-9.5714
▁gr	-9.57258
ness	-9.57278
▁King	-9.57364
ດັດ	-9.57442
▁So	-9.57463
▁not	-9.57511
men	-9.57527
ເປົ່າ	-9.57558
▁Dubai	-9.57558
▁ນ້ອຍ	-9.57568
ari	-9.57581
ise	-9.57613
▁23,	-9.57626
▁ປິດ	-9.5764
▁ຄະນະກໍາມະ	-9.57673
▁Str	-9.57717
▁bo	-9.57729
▁110	-9.57743
▁Je	-9.57758
van	-9.57769
ທີ່ນີ້	-9.5781
▁Last	-9.57927
ໃຕ້	-9.57957
ເກ	-9.57988
ກຸ່ມ	-9.58073
▁10%	-9.58122
ບັນຫາ	-9.58147
ö	-9.58203
ແຂ້ວ	-9.58204
▁Spring	-9.58206
ອົງປະກອບ	-9.58239
▁Hua	-9.58297
py	-9.58302
par	-9.58331
▁Night	-9.58377
▁ເຟ	-9.58392
PC	-9.58527
▁ລໍ້	-9.58566
ແລ	-9.58655
ທຶນ	-9.58799
203	-9.58818
▁It	-9.58822
ເທົ່າ	-9.5884
▁Virtual	-9.58853
ຕະຫຼອດ	-9.58853
ສິ່ງແວດລ້ອມ	-9.58853
▁SlotJar	-9.58853
▁World	-9.58853
ໄຟລ໌	-9.58858
ຈ່າຍ	-9.58871
ມມ	-9.58906
ຄໍ	-9.58943
▁ເວັບໄຊ	-9.59044
pot	-9.59114
ລາງວັນ	-9.59162
ມາຈາກ	-9.59187
ເວົ້າ	-9.59298
▁PE	-9.59301
ຜ	-9.59319
ການແກ້ໄຂ	-9.59404
ild	-9.59421
▁ຫັດ	-9.59475
ກະຊວງ	-9.59494
▁Deposit	-9.59506
▁Service	-9.59506
▁ສະຫງວນລິຂະສິດ	-9.59507
ຄົງ	-9.59515
▁Skype	-9.59518
ali	-9.59519
▁ແສງ	-9.59524
lip	-9.59552
ller	-9.59571
ລາຍ	-9.59574
▁ວັດ	-9.59665
▁Door	-9.59676
ສົນທະນາ	-9.59693
▁Port	-9.59804
▁Powered	-9.59806
▁ລົງ	-9.5986
▁Hand	-9.59881
▁ປະລິມານ	-9.60087
▁Site	-9.6012
ero	-9.60125
®	-9.60164
ດິນຟ້າອາກາດ	-9.60164
ເອເລັກໂຕຣນິກ	-9.60164
▁Nakhon	-9.60164
▁Panel	-9.60167
-15	-9.6017
ຄູ່	-9.60172
▁30%	-9.60177
▁Chiang	-9.60196
Heart	-9.60197
▁sign	-9.60217
1000	-9.60288
ແພ	-9.60288
▁ທ້າຍ	-9.60337
▁ອາຄານ	-9.60363
▁ຊ່ອງ	-9.60399
ເຊື່ອມຕໍ່	-9.60416
IF	-9.60453
ale	-9.60508
ບຸກຄົນ	-9.60511
ບົດ	-9.60784
ope	-9.60791
▁Butterfly	-9.60827
▁Crusher	-9.60827
▁Thani	-9.60828
Guangdong	-9.60847
▁Disk	-9.60855
▁Xi	-9.609
ແກ້ໄຂ	-9.61018
▁ເມັດ	-9.61056
▁2005	-9.61134
ທີ່ຖືກ	-9.61181
▁70	-9.61287
ແຮງດັນ	-9.61365
ພື້ນທີ່	-9.61411
ແຮງ	-9.61474
ກະສິກໍາ	-9.61493
ວົງຈອນ	-9.61493
▁Tweet	-9.61493
ປຽບທຽບ	-9.61497
▁Work	-9.615
▁John	-9.61549
▁ແຮງດັນ	-9.61581
▁ກອງປະຊຸມ	-9.61697
ອີ	-9.61706
▁tape	-9.61719
ກິດຈະກໍາ	-9.61731
▁ກະດານ	-9.61804
2018	-9.61831
ley	-9.61865
▁Bra	-9.61877
▁ຊົມ	-9.61964
▁Jan	-9.62049
▁ເທດ	-9.62057
▁64	-9.62063
ການສັກຢາ	-9.62099
▁ກະເປົ໋າ	-9.62153
▁Injection	-9.62164
▁McKnight	-9.62164
ເຮືອບິນ	-9.62178
ຈໍານວນຫຼາຍ	-9.622
▁from	-9.62208
ທີ່ມີຄວາມ	-9.62231
uff	-9.62246
ເບີ	-9.6228
foot	-9.62344
ໂລຫະປະສົມ	-9.62406
▁Hot	-9.62515
ທິດ	-9.6253
inder	-9.62533
▁Off	-9.62549
bl	-9.62553
▁ໂດຍທົ່ວໄປ	-9.62581
ຂອງຂ້າພະເຈົ້າ	-9.62588
cha	-9.62687
ເທົ່ານັ້ນ	-9.62711
ດໍາເນີນ	-9.62747
ible	-9.62798
▁friend	-9.6284
▁ຊອບ	-9.62842
ສີຟ້າ	-9.6295
other	-9.62982
ສະຫະລັດ	-9.63016
cr	-9.63049
ຖານ	-9.63076
▁ສາຍແອວ	-9.63115
▁ໂຮງຮຽນ	-9.63145
pm	-9.6321
ມູນຄ່າ	-9.63231
moon	-9.63392
▁ພາກຮຽນ	-9.63395
ການລົງທຶນ	-9.63426
▁ອັດຕາ	-9.63496
ພຽງ	-9.6351
ສະແດງໃຫ້ເຫັນ	-9.6352
ເລື່ອນ	-9.6352
▁RoHS	-9.63535
ເພີ່ມຂຶ້ນ	-9.63646
zh	-9.63686
▁Pay	-9.63707
×	-9.63732
ສ່ວນບຸກຄົນ	-9.63832
▁ແມ່ຍິງ	-9.63922
▁Fr	-9.63995
▁Gra	-9.64011
▁ກົດຫມາຍ	-9.64057
ເອ	-9.64076
▁ຂັ້ນຕອນ	-9.64101
▁ຕ	-9.64116
den	-9.64175
Infinity	-9.64205
▁iPad	-9.64205
▁ຂຽນເມື່ອສຸດ	-9.64205
▁Pressure	-9.64237
oot	-9.6424
▁ເຫຼັກ	-9.64269
▁ຄູ່	-9.64334
▁ອຸປະກອນເສີມ	-9.64339
▁Hu	-9.64354
ຄອງ	-9.64359
EX	-9.64378
ແມ່ຍິງ	-9.64479
▁65	-9.64554
BO	-9.6459
ttle	-9.64593
▁ພາກ	-9.64596
ໃນປີ	-9.64613
▁Or	-9.64643
▁2.0	-9.64707
▁TO	-9.64804
view	-9.6483
ເຈາະ	-9.64895
▁Chicken	-9.64895
tribal	-9.64895
▁Epson	-9.64895
ຊະນິດ	-9.64896
ອາບນ້ໍາ	-9.64924
ຊາ	-9.64942
▁Gold	-9.64943
ຍອດ	-9.64966
ຖອນ	-9.6498
ພະຍາຍາມ	-9.64985
ຖືກນໍາໃຊ້	-9.64985
1.0	-9.65071
▁ພັກ	-9.65102
ຂັບ	-9.65104
▁ex	-9.65116
▁ໂປ	-9.65125
eg	-9.65138
▁Send	-9.65188
ຄະ	-9.6519
za	-9.65258
▁ຂ	-9.65283
▁©20	-9.65341
▁ປ້າຍ	-9.65374
▁El	-9.6544
ເພງ	-9.6546
▁Fa	-9.65468
▁ຊຶ່ງ	-9.65492
ຕໍ່ຕ້ານ	-9.655
▁Province	-9.65589
▁gallery	-9.65589
Supermarket	-9.6559
ຄວາມເປັນສ່ວນຕົວ	-9.6559
▁modified	-9.65591
watercolor	-9.65591
▁GAME	-9.65596
Feather	-9.65599
▁Card	-9.65617
ປັບແຕ່ງ	-9.65644
oz	-9.65671
▁ອິນເດຍ	-9.65718
▁ກັບການຝຶກອົບຮົມ	-9.65725
▁ຕິດຕາມ	-9.65738
▁Dec	-9.65743
▁Ka	-9.65745
▁str	-9.65924
ສຸກ	-9.65998
Pin	-9.66042
ward	-9.66116
ການຊ່ວຍເຫຼືອ	-9.66174
ມຸງ	-9.6627
FE	-9.66275
▁Shandong	-9.66289
dragon	-9.66289
EM	-9.663
PP	-9.66371
▁ທົ່ວ	-9.66379
▁Sc	-9.66525
▁Gl	-9.66572
▁Pipe	-9.66598
ໂດ	-9.6662
▁ບາງ	-9.6669
ຜູ້ຊາຍ	-9.66779
▁ສະຫະລັດ	-9.66803
▁ກໍ	-9.66866
▁Sun	-9.66886
ພືດ	-9.66894
▁ms	-9.66907
▁Lyophilized	-9.66993
ດ່ວນ	-9.66993
ແນ່ນອນ	-9.67002
ຫມຸນ	-9.67023
ຫນັງສື	-9.67025
skull	-9.67031
ຄັ້ງທໍາອິດ	-9.67031
05-2018	-9.67043
▁ກັນນ້ໍາ	-9.67108
▁ເກີບ	-9.67187
ດໍາ	-9.67197
▁ບ່ອນທີ່	-9.67256
▁ລິດ	-9.67295
ທ່ານສາມາດ	-9.67333
pad	-9.67337
▁ເຂດ	-9.6735
rose	-9.67417
ara	-9.67437
ຕາຕະລາງ	-9.67497
ລວດ	-9.67497
je	-9.67554
▁PA	-9.67584
St	-9.67662
ຫນຽວ	-9.67702
▁custom	-9.67702
▁ມິຕິ	-9.67709
yang	-9.67758
ຜົນປະໂຫຍດ	-9.67764
9002	-9.67815
OM	-9.67852
ຫ້າ	-9.67905
app	-9.67965
ຄວາມໄວ	-9.6808
arrow	-9.68085
▁DJ	-9.68093
henna	-9.68109
VAC	-9.68134
ann	-9.68202
ລູກ	-9.68232
ຕົ້ນ	-9.68235
ບາດ	-9.68245
ສູນ	-9.68259
ica	-9.68303
can	-9.6839
ທົວ	-9.68416
ສິລະປະ	-9.68416
Ankle	-9.68417
▁online	-9.68442
ບັນຊີລາຍການ	-9.68446
pack	-9.68463
▁48	-9.6847
▁ຫຼັງຈາກ	-9.68492
ຕິດຕັ້ງ	-9.68504
▁Report	-9.6852
ປະກາດ	-9.68544
emb	-9.68575
່ອງ	-9.68592
ຫນັງ	-9.686
mar	-9.68648
ual	-9.68739
6.0	-9.68825
ຖື	-9.68828
▁ດັ່ງນັ້ນ	-9.68874
zi	-9.68929
▁ຄວາມກົດດັນ	-9.68939
ost	-9.68977
▁ພຣະ	-9.69005
table	-9.69024
▁08	-9.69075
ຫຼັງຈາກ	-9.69105
ເກາະ	-9.69136
▁Bearing	-9.69138
ຄຸນສົມບັດ	-9.69174
acock	-9.69203
▁Doll	-9.69208
▁Hotel	-9.69215
work	-9.69228
ເດັກ	-9.69313
▁Big	-9.69328
▁ການໂຄສະນາ	-9.69479
nu	-9.69556
▁ລວມ	-9.69591
ແຈ	-9.69626
MO	-9.69663
▁Un	-9.69782
AMP	-9.69806
▁ຄຸນ	-9.69807
js	-9.69814
ອາເມລິກາ	-9.69834
▁1200	-9.6984
▁ຄະນະ	-9.69851
ປ່ຽງ	-9.69853
▁crusher	-9.6986
▁ມົມ	-9.6986
ແສງຕາເວັນ	-9.69861
anchor	-9.69862
ສີດໍາ	-9.69862
▁ideas	-9.69868
▁450	-9.69891
▁ST	-9.69915
long	-9.6994
ລັກສະນະ	-9.69972
ຜັກ	-9.70012
ໃຊ້ເວລາ	-9.70015
▁tattootattoos	-9.70046
RS	-9.70054
ຄໍາສັ່ງ	-9.70061
ມິ	-9.70077
lar	-9.70103
ນ້ອຍ	-9.70111
▁ພື້ນທີ່	-9.70123
▁Idea	-9.70183
ໂດຍການ	-9.70191
TO	-9.70265
່າງ	-9.70273
tech	-9.70404
cute	-9.70415
▁Model	-9.70518
ແນະນໍາ	-9.7052
AF	-9.70549
ແຈ້ງ	-9.70564
ອາລູມິນຽມ	-9.7059
zodiac	-9.7059
▁Cixi	-9.70592
ເອີ້ນວ່າ	-9.70643
▁mini	-9.7067
ປຸກ	-9.70757
ເຊົ່າ	-9.70767
ພາຍໃຕ້	-9.70798
▁GBP	-9.70875
ການເດີນທາງ	-9.70878
໌	-9.7088
▁On	-9.709
WS	-9.70938
ອຸ	-9.70948
▁ບັນທຶກ	-9.7108
▁ພວກເຮົາມີ	-9.7116
ທ່ອງທ່ຽວ	-9.71162
▁Ge	-9.71218
▁Ta	-9.71285
ົາ	-9.71288
送	-9.71325
ime	-9.71328
ທົນທານຕໍ່	-9.71342
-2017	-9.71352
ແລກປ່ຽນ	-9.71369
▁Review	-9.71378
ທາງອາກາດ	-9.71447
▁ຕົວຢ່າງ	-9.71483
▁Pla	-9.71485
▁Over	-9.71518
▁Poly	-9.71613
att	-9.71733
▁play	-9.71735
▁per	-9.71829
ວຽກງານ	-9.71855
▁ໃບ	-9.71891
▁game	-9.71906
SE	-9.71917
▁ຕູ້	-9.72056
eater	-9.72061
▁blossom	-9.72066
▁sleeve	-9.72066
▁Remover	-9.72067
▁Frame	-9.72076
▁neck	-9.72082
ລ້າງ	-9.72096
▁฿	-9.72099
ຕີ	-9.72103
ຕູ້ເຢັນ	-9.72119
ລວມທັງ	-9.72121
▁ເວົ້າ	-9.72134
▁Driver	-9.7219
ຄອບຄົວ	-9.72223
ພັບ	-9.72251
▁ນີ້ແມ່ນ	-9.72263
▁Wa	-9.72446
▁PU	-9.72457
cast	-9.72461
▁350	-9.72513
BC	-9.72535
▁Spin	-9.72544
▁LO	-9.72656
ແນວໃດ	-9.7269
ເຊື່ອມ	-9.72717
tri	-9.72732
press	-9.72753
▁ຄືນ	-9.728
ເຫລໍກ	-9.72813
ແຍກ	-9.72813
cherry	-9.72814
▁lotus	-9.72818
ການເກັບຮັກສາ	-9.72819
ແນວ	-9.72831
ິວ	-9.72915
ດາວໂຫລດ	-9.72985
TER	-9.73004
ຄວາມກົດດັນ	-9.73018
ິດ	-9.73028
PO	-9.73114
vid	-9.73151
ple	-9.73153
ວດ	-9.73212
▁ບານ	-9.73266
▁22,	-9.73338
ຈໍາ	-9.73398
▁ເບີ	-9.7341
▁Apps	-9.73451
с	-9.73565
ເກົ່າ	-9.73565
▁Biotechnology	-9.73565
▁double	-9.73565
ກາຕູນ	-9.73565
≥	-9.73565
ຮັບຜິດຊອບ	-9.73568
ການປະຕິບັດ	-9.73576
mil	-9.7358
ສະຫມັກ	-9.73581
▁AUD	-9.73588
▁ຈໍາກັດ	-9.73608
▁ອັບ	-9.73613
▁HP	-9.73625
ບັນທຶກ	-9.7363
▁ຄິດ	-9.73659
HO	-9.73719
ຄູ່ມື	-9.73836
▁GPS	-9.7384
▁37	-9.73868
ສົ່ງອອກ	-9.7387
ອບ	-9.73909
▁ຍາວ	-9.73937
cks	-9.73985
-40	-9.74041
▁Bay	-9.74064
▁ຫມາກ	-9.74109
ກ່ອງ	-9.74126
ພີ	-9.74127
LI	-9.74212
▁ben	-9.74287
▁ທຸກ	-9.7429
▁ນັກສຶກສາ	-9.74301
ສ້າງຕັ້ງ	-9.74321
ຍຸດທະສາດ	-9.74322
reamcatcher	-9.74322
▁Pinterest	-9.74322
信	-9.74322
ເປົ້າຫມາຍ	-9.74324
ໃນຂະນະທີ່	-9.7433
▁Glass	-9.74345
▁MP	-9.74351
RC	-9.7437
ຮ້ອງ	-9.74404
ແທ້	-9.74425
▁ການຝຶກອົບຮົມ	-9.74455
ສໍາເລັດ	-9.74482
ບອກ	-9.74511
fo	-9.74543
▁—	-9.74556
IP	-9.74556
itch	-9.7458
▁ເສັ້ນຜ່າສູນກາງ	-9.74638
▁Size	-9.74678
▁ຄວາມສູງ	-9.74803
ວງ	-9.74806
JS	-9.74895
▁ອອກຈາກ	-9.74954
ili	-9.7496
ເຫ	-9.74962
ການຄຸ້ມຄອງ	-9.74998
ປະສົບການ	-9.75
ction	-9.75073
发	-9.75085
▁Reserved	-9.75085
▁galvanized	-9.75085
息	-9.75085
ehndi	-9.75086
▁semicolon	-9.75086
▁Summer	-9.75086
▁ສິ້ນ	-9.75091
ດາວໂຫຼດ	-9.75125
▁ເພດ	-9.75128
▁Mount	-9.75197
ເຊັນ	-9.75205
ທະເລ	-9.75224
▁ເອກະສານ	-9.75227
ຈອງ	-9.75249
▁ອະລູມິນຽມ	-9.75279
▁ລູກ	-9.7529
1.1	-9.75327
SIN	-9.75335
ນ້ໍາຫນັກ	-9.75398
ree	-9.75402
lit	-9.75472
▁Cnc	-9.75475
ຍິງ	-9.7548
▁Solutions	-9.75506
▁Aug	-9.75529
ໍ່	-9.75542
360	-9.75584
▁ກິດຈະກໍາ	-9.75584
cn	-9.75612
QS	-9.75613
▁Jun	-9.75678
▁ໄວ	-9.75704
ງ່າຍດາຍ	-9.75747
ກ່ວາ	-9.75788
ໄລຍະ	-9.75835
ສາວຕາຕັກ	-9.75855
ສ້ອຍຂໍ້ມືເພັດ	-9.75855
ຫນ້າຕາຕັບ	-9.75855
▁Fabric	-9.75855
▁ການແປພາສາ	-9.75855
ຊ້າງຊ້າງ	-9.75855
ຄູ່ຜົວເມຍຄູ່	-9.75856
▁ເຂັມທິດ	-9.75859
dove	-9.75879
▁Dining	-9.75894
pc	-9.75928
▁Forum	-9.75947
ດ້ານວິຊາການ	-9.75948
ລາຍງານ	-9.75956
▁CHF	-9.75957
uro	-9.75983
ຊ່ວຍເຫຼືອ	-9.75989
ພວກເຂົາເຈົ້າ	-9.76003
▁go	-9.76065
▁98	-9.76259
ບໍລິຫານ	-9.76352
▁ການພັດທະນາ	-9.76422
▁comp	-9.76525
UT	-9.76559
ປ່ອຍ	-9.7661
-18	-9.76612
ຕ່າງປະເທດ	-9.76629
н	-9.7663
▁Blackjack	-9.7663
▁Boiler	-9.76631
▁yarn	-9.76632
ສະຫນາມບິນ	-9.76635
▁Soft	-9.76637
ມື້ອື່ນ	-9.76648
ໄລຍະເວລາ	-9.76654
▁ຕົ້ນ	-9.76663
▁Bill	-9.76692
ຄິດ	-9.7673
້ອງ	-9.76742
ລອງ	-9.76751
▁Cont	-9.76805
▁ເພງ	-9.76843
ທີ່ດິນ	-9.76852
ອົງການ	-9.76879
unt	-9.76902
ເງິນຝາກ	-9.76909
້ມ	-9.7692
▁ເຄືອຂ່າຍ	-9.77007
own	-9.77231
ປັ໊ມ	-9.77411
ປະຕິທິນ	-9.77411
▁jackpot	-9.77411
ລັດຖະບານ	-9.77419
▁ກໍລະນີ	-9.77462
▁ຮ່ວມ	-9.77468
ຖານຂໍ້ມູນ	-9.77486
▁Hai	-9.7751
ທຸກໆ	-9.77517
ຕອບສະຫນອງ	-9.77524
ຂອງບໍລິສັດ	-9.77538
▁ອາກາດ	-9.77583
ກ້ອນ	-9.77612
ຣາ	-9.77726
▁ພາຍໃນ	-9.77789
ram	-9.77792
tar	-9.77794
▁SMS	-9.77811
▁ກູໂກ	-9.77823
gra	-9.77848
RN	-9.77867
▁Tu	-9.77899
info	-9.77959
ສື່	-9.77977
sia	-9.77979
HR	-9.77989
ເຢຍລະມັນ	-9.78
ຊີ້	-9.78018
ເດີ	-9.7803
▁ຂວດ	-9.78055
ສັນຍາ	-9.78056
▁Tool	-9.7806
win	-9.7807
ຫີນ	-9.78087
▁ການສຶກສາ	-9.78197
น	-9.78198
▁Pneumatic	-9.78199
▁ຄາວາຊາກິ	-9.78199
0.6	-9.78202
ອຸນຫະພູມ	-9.78203
▁ຫນອງ	-9.78233
ຕັ້ງແຕ່	-9.78245
▁ງານ	-9.78263
ວິຊາ	-9.78292
SO	-9.78306
▁mold	-9.78321
ຫັນ	-9.78368
▁ba	-9.78374
-16	-9.78382
the	-9.78382
ປື້ມ	-9.78395
▁ທິ	-9.78413
▁Beach	-9.78462
▁RJ	-9.78467
yu	-9.78556
ping	-9.78642
▁Bank	-9.78661
ມິດ	-9.78666
▁Lock	-9.78736
▁ຄ່າ	-9.78852
ບູ	-9.78853
▁ເກົ້າອີ້	-9.78859
▁ນັບຕັ້ງແຕ່	-9.78933
ອຍ	-9.78942
▁VS	-9.78956
ຕາເວັນອອກ	-9.78992
▁joomla	-9.78992
▁cookies	-9.78992
▁ກຸ່ມນະໂຍບາຍ	-9.78994
▁Tour	-9.78997
AMI	-9.79014
▁Chain	-9.79057
ຕໍ່ສູ້	-9.79091
▁(2)	-9.79099
▁ໄລຍະ	-9.79166
700	-9.79172
▁Full	-9.79173
ການຄົ້ນຄວ້າ	-9.79226
▁IN	-9.79263
ທີ່ຜ່ານມາ	-9.79281
▁ຄວາມອາດສາມາດ	-9.79344
ສ່ວນປະກອບ	-9.79434
mu	-9.79613
▁ZR	-9.79627
▁ຜະ	-9.79676
▁SE	-9.79726
ມະຫາວິທະຍາໄລ	-9.79792
▁Casengo	-9.79797
▁Auto	-9.79805
▁printer	-9.79808
▁ki	-9.79815
ທີ່ມີຄຸນນະພາບສູງ	-9.79885
ຊູ	-9.79887
ກາຍເປັນ	-9.7991
▁Ni	-9.79925
ສົມບັດ	-9.79928
▁ເຂົາ	-9.80039
ຄ່າໃຊ້ຈ່າຍ	-9.80104
▁Get	-9.80109
ຊັບ	-9.80192
ການສະແດງ	-9.80216
▁Plate	-9.80261
ຂອງເຂົາເຈົ້າ	-9.80262
rad	-9.80275
▁Whatsapp	-9.80317
ການປັບປຸງ	-9.80332
ຝຣັ່ງ	-9.80375
▁2009	-9.80381
-21	-9.80388
▁ຂໍ້ຄວາມ	-9.80402
▁ຂະຫນາດນ້ອຍ	-9.80419
2.5	-9.80487
wp	-9.80514
AI	-9.80565
ເຈ້ຍ	-9.80583
ທີ່ສົມບູນແບບ	-9.80598
▁ເຈ້ຍ	-9.80614
rom	-9.80631
▁Ca	-9.80632
ຄາ	-9.8065
GSM	-9.80651
ຮູບຮ່າງ	-9.80655
▁Die	-9.80664
ທີ່ມີຊື່ສຽງ	-9.80674
ries	-9.80684
ນະຄອນ	-9.80729
ສວນ	-9.80746
ທີ່ບໍ່ແມ່ນ	-9.80754
VE	-9.8082
ຊົມ	-9.8084
▁ຂໍ	-9.80872
▁Sale	-9.80885
eth	-9.80929
PH	-9.80971
▁FI	-9.8098
tin	-9.81053
ຮຽນຮູ້	-9.81064
ull	-9.81098
▁ແຜນ	-9.81102
-25	-9.81117
ທາດ	-9.81151
▁ພຽງແຕ່	-9.81156
▁pu	-9.81237
▁2008	-9.81298
-03	-9.81339
▁ໃນປີ	-9.8134
uit	-9.81383
ສົມບູນ	-9.8141
▁Chamber	-9.81412
▁Display	-9.81412
▁CSGO	-9.81412
▁Speed	-9.81415
▁ນວນ	-9.8143
ເລື່ອງ	-9.81465
▁ຖົງມື	-9.8148
ຣີ	-9.81555
ໍາ	-9.81696
▁Mu	-9.81814
▁UN	-9.81828
ທີ່ບໍ່	-9.81911
▁Supplier	-9.81913
▁ລາຍຊື່	-9.81919
▁ຜົນກະທົບ	-9.82062
SP	-9.8209
ຫນັກ	-9.82115
ິກ	-9.82166
ປະຈໍາ	-9.82169
ຫວ່າງ	-9.82172
▁ແນະນໍາ	-9.82174
Українська	-9.82231
NE	-9.82239
▁ຫມາ	-9.82255
▁ຊມ	-9.82273
▁Grand	-9.823
ature	-9.82312
▁380	-9.82314
Wholesale	-9.82331
ການສະ	-9.82332
jo	-9.82342
ປ່າ	-9.82353
ຮອງ	-9.82381
ຄົ້ນຫາ	-9.82437
ຂວາ	-9.82473
ຄັດ	-9.82502
▁ມ້ວນ	-9.82699
ja	-9.82703
camp	-9.82733
▁ຕິດຕັ້ງ	-9.82771
▁ຄໍາຮ້ອງສະຫມັກ	-9.82782
ech	-9.82819
ສຸ	-9.82882
▁ພ	-9.82892
ຫຼັງ	-9.83054
ຍືດ	-9.83057
▁scooter	-9.83058
proof	-9.83073
oil	-9.83076
UL	-9.8308
ຜູ້ຊາຍແລະແມ່ຍິງ	-9.8308
▁Clear	-9.8309
ຫົວຫນ້າ	-9.83136
▁Master	-9.8324
▁ແປງ	-9.83265
▁ເຢຍລະມັນ	-9.83266
ຂໍ້ຄວາມ	-9.83317
▁Time	-9.83345
▁ແບ່ງປັນ	-9.83399
▁Net	-9.8343
meter	-9.83468
ການສ້າງ	-9.83592
Rider	-9.83641
▁mi	-9.83713
▁ແນະ	-9.83732
lat	-9.83732
▁PRO	-9.83763
TI	-9.83829
▁dis	-9.83836
▁ເຄື່ອງປ້ອນ	-9.83839
`	-9.83887
BwebsiteWS	-9.83891
▁conveyor	-9.83891
▁Fruity	-9.83891
▁Gasket	-9.83891
▁Pulverized	-9.83893
▁Kids	-9.83902
▁ໂມງ	-9.83905
▁ຄໍາສັ່ງ	-9.83931
▁gsm	-9.83949
▁poly	-9.83979
ອາຊີ	-9.83998
ຂັດ	-9.83999
ເວທີ	-9.84135
▁ນາງ	-9.84138
▁ນັ້ນ	-9.8415
▁gay	-9.84217
ເຫດການ	-9.84229
OP	-9.84285
ຫານ	-9.84294
▁Bonuses	-9.84347
cal	-9.84363
ແຕ່ງ	-9.8439
▁PS	-9.84451
▁ຍີ່ປຸ່ນ	-9.84646
▁back	-9.8467
ວິສາຫະກິດ	-9.84731
Distributor	-9.84731
ຜົມ	-9.84731
天	-9.84731
聊	-9.84731
▁Profile	-9.84732
▁FXCL	-9.84732
▁Holm	-9.84735
▁ຈິກ	-9.84748
▁ເຢັນ	-9.84867
ການຕິດຕັ້ງ	-9.84914
-02	-9.84919
ຣິ	-9.84978
▁Clamp	-9.84983
ແຂນ	-9.85055
umb	-9.85067
ການຂົນສົ່ງ	-9.85092
ສໍາ	-9.85095
STON	-9.85152
ການປ່ຽນແປງ	-9.85197
▁Magic	-9.85207
itter	-9.85212
ໂກ	-9.85214
tian	-9.85256
▁±	-9.8526
ally	-9.85279
▁ແຫນ້ນ	-9.85289
lb	-9.85371
name	-9.85396
ຕຽງ	-9.85579
▁Bluetooth	-9.85579
ປະຈໍາເດືອນ	-9.85592
ຄົ້ນພົບ	-9.85604
ສະເພາະ	-9.85623
▁CAD	-9.85641
kin	-9.85834
ເຊື່ອ	-9.85881
▁ສໍາຫລັບ	-9.85896
່ມ	-9.85897
ette	-9.85923
ຮ້ານ	-9.85947
card	-9.86125
▁Magnetic	-9.86193
▁ຄວາມປອດໄພ	-9.86209
ທີ່ໃຊ້ເວລາ	-9.86218
The	-9.86241
ຄໍາແນະນໍາ	-9.86282
ປະສິດທິພາບສູງ	-9.86316
UF	-9.86331
▁SH	-9.86345
ool	-9.86425
▁Bangkok	-9.86434
▁MUAY	-9.86434
ຫຼຸດລົງ	-9.86439
ເຖິງແມ່ນວ່າ	-9.86443
▁Viber	-9.86462
▁130	-9.86485
ສົດ	-9.86497
ເບຍ	-9.86536
▁Casting	-9.86573
ໂດຍກົງກັບ	-9.866
▁Magnetics	-9.8672
150	-9.86782
ook	-9.86819
▁ອື່ນ	-9.86838
▁ນ້ໍາມັນ	-9.86889
ເຄີຍ	-9.86911
how	-9.86977
▁She	-9.86992
▁Ash	-9.87013
▁ພາກສ່ວນ	-9.87035
ສິດ	-9.87112
▁OS	-9.87156
▁ແ	-9.87158
ship	-9.87179
ການແພດ	-9.87205
ລິນ	-9.87228
▁machine	-9.87267
ນົມ	-9.87275
ພຣະອົງ	-9.87296
▁Amazon	-9.87296
▁corrugated	-9.87296
ກັບຄືນໄປບ່ອນ	-9.87296
ແລະຜູ້ສະຫນອງ	-9.87296
▁Changzhou	-9.87304
▁Club	-9.87322
orn	-9.87327
▁exp	-9.87331
for	-9.87353
ology	-9.87355
GO	-9.87402
HZ	-9.87404
▁ລາງວັນ	-9.87433
ມັດ	-9.87464
ການຕັດ	-9.8749
▁ໂລ	-9.87494
▁ຕະຫຼາດ	-9.875
cker	-9.87533
▁Mat	-9.87541
ເທ	-9.87572
ດັນ	-9.87596
play	-9.87603
ເຮົາ	-9.87755
ough	-9.8779
ພະນັກງານ	-9.87817
ສາຍແອວ	-9.87831
▁Gh	-9.87862
ໂອ	-9.87895
ຊ່ອງ	-9.87898
ເນື້ອ	-9.87917
▁ການຄວບຄຸມ	-9.87985
ແປງ	-9.88031
▁ຄອມພິວເຕີ	-9.88034
ເພ	-9.88088
ຮົ້ວ	-9.88113
ອະທິບາຍ	-9.88121
ş	-9.88165
т	-9.88165
ຕາຫນ່າງ	-9.88165
▁CHEATS	-9.88165
▁Dongguan	-9.88165
▁Standard	-9.88165
ກາງແຈ້ງ	-9.88181
▁Saint	-9.88188
ຮອບ	-9.88237
ນັກຮຽນ	-9.88242
ປະຕິບັດງານ	-9.88332
ມະນຸດ	-9.88338
TE	-9.88441
▁TV	-9.8848
ເຂົາ	-9.88495
pic	-9.88506
▁ski	-9.88531
▁ບັນຈຸ	-9.88533
▁roller	-9.88545
run	-9.88582
ຫູ	-9.88592
ການທົດລອງ	-9.88626
ການຕັ້ງຄ່າ	-9.88692
-19	-9.88712
▁Max	-9.88742
ດົນຕີ	-9.8877
HS	-9.88782
ire	-9.8879
9001	-9.88822
CI	-9.88947
house	-9.88996
▁ຫຼ້າ	-9.89009
ຊັ່ນ	-9.8902
ໂປແກຼມ	-9.89042
▁Minnesota	-9.89042
▁Oxygen	-9.89042
▁Pvc	-9.89044
▁Film	-9.89045
ແບ່ງ	-9.89051
ເຄິ່ງ	-9.89067
ປະຈໍາປີ	-9.89075
▁ຕົວແບບ	-9.89165
▁Food	-9.89244
▁Coal	-9.89266
bon	-9.8927
ສົ່ງເສີມ	-9.89347
ຫມູ	-9.8936
▁Sol	-9.89397
ບ່ອນ	-9.8953
▁Ko	-9.89605
ella	-9.89613
ເຫດ	-9.89664
▁RM	-9.89679
▁Po	-9.89695
“	-9.89706
ການປົກປ້ອງ	-9.89714
▁85	-9.89739
▁ລາຍການ	-9.89804
▁Deutsch	-9.89849
IO	-9.89912
LS	-9.89914
▁top	-9.8992
ເຮັດໃຫ້ມີແສງ	-9.89923
ຈຸດປະສົງ	-9.89927
ໃຜ	-9.89927
▁Separator	-9.89927
▁solenoid	-9.89927
ການດໍາເນີນງານ	-9.89928
▁Bulk	-9.89929
rge	-9.89951
ຼ	-9.9009
ions	-9.90114
;#	-9.90133
▁CR	-9.90147
ສະພາ	-9.90193
▁API	-9.9023
ຄວາມສາມາດ	-9.90239
DI	-9.90341
ການຮ່ວມມື	-9.90354
ຈິງ	-9.90363
ei	-9.90368
ola	-9.9042
▁4.0	-9.90573
ແທ	-9.90741
ໄຫຼ	-9.9082
▁Meyelashstore	-9.9082
▁ຖັດໄປ	-9.9082
ຂໍ້ມູນຂ່າວສານ	-9.9082
ທາດເຫຼັກ	-9.90856
▁Yu	-9.90884
▁ລາຄາປົກກະຕິ	-9.90884
▁Shi	-9.91064
▁ໃນໄລຍະ	-9.91093
oh	-9.91167
▁sc	-9.91177
▁ມໍເຕີ	-9.91189
▁ສູງສຸດ	-9.91262
ປະໂຫຍດ	-9.91306
▁RO	-9.91403
hat	-9.91612
888	-9.91613
erson	-9.91613
▁ເລກ	-9.91644
▁ສີເທົາ	-9.91668
ຊັກ	-9.91711
ມຸມ	-9.91715
ຮຸ້ນ	-9.91721
▁Sodium	-9.91721
▁Crypto	-9.91724
▁ມັງ	-9.91733
▁38	-9.91747
▁dust	-9.91752
-200	-9.91754
EE	-9.91877
oom	-9.91889
▁Mesh	-9.91889
ທັນທີ	-9.91892
▁ການກໍ່ສ້າງ	-9.91972
ສົມ	-9.91995
uch	-9.92014
oul	-9.92038
ປອດໄພ	-9.92124
▁ອົງການ	-9.92136
▁66	-9.92301
▁ອະ	-9.9232
lon	-9.92339
▁Run	-9.92398
pan	-9.92498
GE	-9.92531
ຫນ່ວຍ	-9.92547
▁ຂະຫນາດໃຫຍ່	-9.92582
▁Guangdong	-9.92602
ຂັບລົດ	-9.9262
ສະດວກ	-9.92629
ອົດສະຕາລີ	-9.9263
▁TRUSTED	-9.9263
▁Temperature	-9.9263
▁South	-9.92639
ເລິກ	-9.92642
▁Golf	-9.92643
120	-9.92648
ຜິດ	-9.92664
▁pump	-9.92674
ຕ່າງ	-9.92682
▁ຖ້າທ່ານ	-9.92686
content	-9.92698
shi	-9.92708
ກະດານຂາວ	-9.92748
ຮາກ	-9.92754
ທຽມ	-9.92791
ນາມ	-9.92797
ຮາ	-9.92816
ພາສີ	-9.92918
ເລັບ	-9.93052
Sets	-9.93058
ute	-9.93063
ທາງດ້ານ	-9.93075
▁2.5	-9.93176
▁Fi	-9.93179
▁ຂັ້ນ	-9.93185
ປັດຈຸບັນ	-9.9321
ຂອງຂ້ອຍ	-9.93228
▁ເທິງ	-9.93282
shop	-9.93291
ເຄື່ອງດື່ມ	-9.93305
▁get	-9.93348
ອະນຸຍາດ	-9.93482
▁Nov	-9.93494
▁ສິງ	-9.93536
ສະພາບອາກາດ	-9.93544
ແຫຼ່ງ	-9.93545
ຄ້າ	-9.93546
ວັດທະນະທໍາ	-9.93548
р	-9.93548
ສັງກະສີ	-9.93548
JPY	-9.93555
▁DVD	-9.93555
▁Production	-9.93579
▁Core	-9.93592
ສະຖາບັນ	-9.93621
ກ້າ	-9.93623
hol	-9.93625
ຫົວຂໍ້	-9.93635
▁ຊາຍ	-9.93646
ຖັງ	-9.93662
▁Promo	-9.93691
ຕໍາ	-9.93732
ຂ້າງ	-9.9375
ການເຄື່ອນໄຫວ	-9.93812
111	-9.93812
▁Shot	-9.93818
900	-9.93846
NO	-9.93859
ສະພາແຫ່ງ	-9.93958
▁ຫຼ	-9.93978
▁ບ່ອນ	-9.94008
▁Printing	-9.9401
ado	-9.94014
ທໍ	-9.94033
▁out	-9.94035
ຕັນ	-9.94047
ທົດສອບ	-9.9406
▁ການປ່ຽນແປງ	-9.94352
▁Dong	-9.94387
ແບ	-9.94437
ປະຊຸມ	-9.94457
ທັດສະນະ	-9.94474
ກ້ອງຖ່າຍຮູບ	-9.94474
▁Galaxy	-9.94474
▁ອອກຄໍາເຫັນເປັນ	-9.94474
▁Linux	-9.94474
▁feeder	-9.94474
nbsp	-9.94474
▁Copyshop	-9.94476
1.5	-9.94484
▁ຕີ	-9.94485
▁Package	-9.9449
▁ປ່ອຍ	-9.94498
▁Trans	-9.94511
ເກືອບ	-9.94519
ກາຍ	-9.94572
▁Strip	-9.94602
ພາສາອັງກິດ	-9.94622
▁Stone	-9.94659
ເລດ	-9.94683
ານ	-9.94747
rag	-9.9477
▁ໂມດູນ	-9.94787
ງາມ	-9.94791
▁ສູງສຸດທີ່ເຄຍ	-9.94835
uz	-9.94839
▁0.5	-9.94889
ເສຍ	-9.94913
ຂອງພວກເຂົາ	-9.94914
DP	-9.94979
tw	-9.94995
▁Che	-9.95048
ເອດ	-9.95096
▁ຄລາສສິກ	-9.95131
ລະອຽດ	-9.95323
▁Uncategorized	-9.95326
▁ຕົວຊີ້ວັດ	-9.95353
row	-9.95405
ຄົ້ນຄ້ວາ	-9.95408
ທ້ອງຖິ່ນ	-9.95408
ບໍລິເວນ	-9.95408
ເຂົ້າສູ່ລະບົບ	-9.95408
▁Zipper	-9.95408
ກະເປົາ	-9.95408
▁Screw	-9.95414
▁PROMO	-9.95415
pin	-9.9543
▁micro	-9.95441
▁ຫມັກ	-9.95452
ຊ້ໍາ	-9.95464
ທໍາຄວາມສະອາດ	-9.95491
▁Chang	-9.95509
▁car	-9.95575
▁EN	-9.95577
▁off	-9.95606
ກົດຫມາຍ	-9.95634
▁ສີຂຽວ	-9.95694
▁cat	-9.957
ສະບັບ	-9.95723
af	-9.95782
ຫລັກ	-9.95808
ດາວ	-9.95815
▁ຜູ້ຊາຍ	-9.95818
▁games	-9.95917
▁ຈັນ	-9.96034
ALL	-9.96126
print	-9.96133
▁3.0	-9.96142
▁ບາ	-9.96254
ເພື່ອໃຫ້	-9.96309
ນິຍົມ	-9.96336
ຕາເວັນຕົກ	-9.96351
▁Ducati	-9.96352
▁Quality	-9.96352
ຍອມຮັບ	-9.96352
▁Brush	-9.96352
▁Trading	-9.96353
ຊ້າ	-9.96354
▁ບິດ	-9.96359
▁ຮ້ານຄ້າ	-9.9636
▁RF	-9.96382
ພາກສ່ວນ	-9.96387
0.8	-9.96455
▁Jack	-9.96471
ctor	-9.96489
ທຸກຄົນ	-9.9649
ຂັ້ນຕອນ	-9.96521
ຫມໍ້	-9.96524
ທັງສອງ	-9.96559
zz	-9.96573
ຂັ້ນ	-9.96584
ແສງສະຫວ່າງ	-9.96651
▁Of	-9.96667
▁ຫລື	-9.96676
▁Pri	-9.96679
ໂອນ	-9.96684
▁ຈຸ	-9.96693
▁Posted	-9.96708
ການທົດສອບ	-9.9675
ແດ	-9.96782
ພາກພື້ນ	-9.96816
ຄວາມເຂັ້ມແຂງ	-9.96849
dro	-9.96941
▁ຄວາມຍາວ	-9.96996
5.0	-9.97038
ກາກບອນ	-9.9709
cheng	-9.97122
▁Royal	-9.97153
ເດັກຍິງ	-9.97213
▁crypto	-9.97214
ເສັ້ນໃຍ	-9.97304
ກວມເອົາ	-9.97304
ລົດຖີບ	-9.97304
ສະກຸນເງິນ	-9.97304
▁BreatheLife	-9.97304
ຍ້າຍ	-9.97304
ທົດແທນ	-9.97306
ການຊື້ຂາຍ	-9.97308
▁123456	-9.97323
▁Touch	-9.97325
well	-9.97329
▁ຄອມ	-9.97331
ຜິວ	-9.97345
ດຽວກັນ	-9.97374
ປູກ	-9.97376
ແກ້	-9.97392
▁ປົກ	-9.97426
▁ga	-9.97437
▁Pad	-9.97452
ແພດ	-9.97476
▁ດຽວ	-9.97499
ທົ່ວໂລກ	-9.97593
ປ້າຍ	-9.97594
▁Code	-9.97641
PR	-9.97703
▁58	-9.97704
ຕ້ານ	-9.9786
▁ມິ	-9.9789
▁ເມນູ	-9.97904
▁Color	-9.97948
ather	-9.9798
ອອກຈາກ	-9.9805
▁ເຄື່ອງປະດັບ	-9.98112
-04	-9.98128
▁ສະຖາບັນ	-9.98189
▁ປຸ່ມ	-9.982
ອະ	-9.98231
▁ຕົ້ນສະບັບ	-9.98235
ການໃຫ້ອາຫານ	-9.98242
ເສົາ	-9.98243
ດໍາລົງຊີວິດ	-9.98265
▁Hydraulic	-9.98265
▁Luxury	-9.98265
▁multi	-9.98266
▁NZD	-9.98267
▁Router	-9.98268
ຫມັ້ນ	-9.98276
▁BTC	-9.98279
ຄວາມຫນາແຫນ້ນ	-9.98298
▁Relay	-9.98349
▁Inter	-9.98351
ໂກນ	-9.98361
▁Fast	-9.98367
▁Rai	-9.98468
▁nad	-9.98523
5,000	-9.98532
▁CH	-9.98799
▁GA	-9.98831
rank	-9.98846
▁IC	-9.98891
ການກໍ່ສ້າງ	-9.9899
▁ຊີວິດ	-9.98999
ank	-9.99009
ຸກ	-9.99146
FI	-9.99167
▁Et	-9.99168
ສົນໃຈ	-9.99205
ພັກຜ່ອນ	-9.99236
▁Converter	-9.99236
ແຕກ	-9.99236
ນະຄອນຫຼວງ	-9.99239
ອະນຸມັດ	-9.99241
ໂດລາ	-9.99242
ປັນຍາ	-9.99243
▁ROHS	-9.99243
ແລ່ນ	-9.99257
▁ອາເມລິກາ	-9.99263
▁cr	-9.99265
່າຍ	-9.99266
▁160	-9.99284
INE	-9.99297
▁Ink	-9.99303
BR	-9.99397
ຍ່າງ	-9.99536
▁ຄັ້ງ	-9.99547
matic	-9.99548
ບັນ	-9.99552
0.3	-9.99576
▁Bio	-9.99635
ປອມ	-9.9964
▁ຂະຫຍາຍ	-9.99667
ທະນາຄານ	-9.99775
▁ຖ	-9.99801
▁SP	-9.99805
▁Ja	-9.999
ration	-10.0005
ຄາດ	-10.0012
ພົວພັນ	-10.0021
໊	-10.0022
ໄຮໂດລິກ	-10.0022
▁Comments	-10.0022
▁County	-10.0022
▁Tagged	-10.0022
▁screw	-10.0022
ເລີ່ມ	-10.0022
post	-10.0025
ໄປຢ້ຽມຢາມ	-10.0025
▁TN	-10.0026
ື່ອ	-10.0027
▁ມັນແມ່ນ	-10.0036
▁Lead	-10.0036
ໃຫ້ບໍລິການ	-10.0037
▁ພາຍ	-10.0039
▁ຂ່າວສານ	-10.004
▁Cutter	-10.004
ຂົນ	-10.0041
▁ດົນຕີ	-10.0052
9.00	-10.0056
hao	-10.0062
▁ຂໍຂອບໃຈ	-10.0063
0.1	-10.0064
▁ຈໍ	-10.0068
2.1	-10.0068
ຮູ້ສຶກ	-10.0081
ຫຼ	-10.0081
lim	-10.0082
▁ສາມ	-10.0087
▁26,	-10.0087
ຟລີ	-10.0094
ເກີບ	-10.0097
▁ຊິ້ນ	-10.0107
▁ຕອນ	-10.0108
zip	-10.0109
ສາມາດໄດ້ຮັບການ	-10.011
ຫໍ	-10.0118
ຄ້າຍຄື	-10.0121
▁Limited	-10.0121
▁phantom	-10.0121
▁Premium	-10.0121
▁Cloth	-10.0121
ເກີດຂຶ້ນ	-10.0123
▁Blackboard	-10.0124
▁ປ່ຽງ	-10.0125
ization	-10.0125
ບົດຄວາມ	-10.0126
▁Tablet	-10.0128
ໃນເວລາທີ່	-10.0131
▁cnc	-10.0132
▁Chi	-10.014
rit	-10.014
▁ຄໍາແນະນໍາ	-10.0146
▁ສະຖານີ	-10.0148
▁ກຸ່ມ	-10.0148
ເອີຣົບ	-10.015
ຕ້ານການ	-10.0157
pg	-10.0158
ຮ້ານອາຫານ	-10.0159
ດິດ	-10.0174
▁ຫນ້າຈໍ	-10.0174
▁Ju	-10.018
ລາດ	-10.0189
ເວັບໄຊ	-10.0191
ໃບອະນຸຍາດ	-10.0191
ສີຂຽວ	-10.0192
ໂນ	-10.0194
ກວດກາ	-10.0195
▁Sub	-10.0196
chat	-10.0198
020	-10.0199
▁ໃນເວລາທີ່	-10.02
ທີ່ໃຊ້	-10.0202
ໂດຍສະເພາະ	-10.0215
▁ພຶດ	-10.022
ທອງແດງ	-10.0221
ร	-10.0221
ທຽນ	-10.0221
ວີດີໂອ	-10.0221
▁Jizerou	-10.0221
ກໍາແພງ	-10.0221
▁Island	-10.0221
▁marketing	-10.0221
▁ກ້ອງ	-10.0222
▁ເດດ	-10.0222
ຈິດ	-10.0231
▁8.2	-10.0234
ໂບ	-10.0238
▁Tian	-10.0239
▁ເຄື່ອງນຸ່ງຫົ່ມ	-10.0241
▁Drop	-10.0242
ສຶກສາ	-10.0255
101	-10.0259
136	-10.0267
UM	-10.0268
170	-10.0273
ious	-10.0273
lash	-10.0277
get	-10.0278
pol	-10.0278
▁ຄຸນນະສົມບັດ	-10.0303
ala	-10.0303
▁FX	-10.0306
ປົກ	-10.0308
AND	-10.0308
▁Sea	-10.0309
bb	-10.0312
ຫຼາຍທີ່ສຸດ	-10.0313
▁CF	-10.0315
rch	-10.032
▁ກູ	-10.0322
ແຜງ	-10.0322
▁Eyelash	-10.0322
▁Misslamode	-10.0322
ç	-10.0322
▁Vintage	-10.0322
▁Vinyl	-10.0322
▁Jiangsu	-10.0322
▁Burner	-10.0322
ສາມາດເຂົ້າເຖິງ	-10.0322
▁James	-10.0322
ທີ່ດີເລີດ	-10.0322
▁ຫຼວດ	-10.0322
afe	-10.0324
ແຮ່	-10.0324
▁Roger	-10.0327
▁Paper	-10.0328
ລັງ	-10.0328
ຂອງພວກເຮົາແມ່ນ	-10.0332
ປະຊາ	-10.0333
ku	-10.0335
ທົນ	-10.0336
ໃຫ້ທ່ານ	-10.0341
▁Machinery	-10.0342
▁ໂຣກ	-10.0347
ຫຼີ້ນ	-10.0353
▁ສິ່ງທີ່	-10.0356
ບັນລຸ	-10.0356
▁Pol	-10.036
▁Note	-10.038
ໂຄສະນາ	-10.0383
ຄວາມຮູ້	-10.0391
ities	-10.04
▁qu	-10.0402
▁ມັນມີ	-10.0403
▁ປ້ອງກັນ	-10.0412
ລາຍການ	-10.0412
▁Out	-10.0421
ສິດທິ	-10.0421
ທີ່ຍິ່ງໃຫຍ່	-10.0424
ຮ້າຍ	-10.0424
ເຄື່ອງສໍາອາງ	-10.0424
▁Oxford	-10.0424
ะ	-10.0424
▁Cauda	-10.0424
ບວກ	-10.0424
▁ເສື້ອຜ້າ	-10.0424
ification	-10.0425
▁ການທົດສອບ	-10.0426
ບັນຊີລາຍຊື່	-10.0429
ລຸ່ມ	-10.0429
ati	-10.043
ໄຂ່	-10.0431
▁Silicone	-10.0434
▁matt	-10.0435
▁Plug	-10.0437
▁ຕ້ານ	-10.0443
ນັ່ງ	-10.0446
▁my	-10.0446
▁Arm	-10.0446
▁ບັນຫາ	-10.0456
4.5	-10.0458
-17	-10.0461
▁ເລີ່ມ	-10.0462
▁ລະຫັດຜ່ານ	-10.0472
▁3.5	-10.0473
▁ເຊົ່າ	-10.0481
ທີ່ເຫມາະສົມ	-10.0483
side	-10.0485
▁(35	-10.0487
▁Sim	-10.0492
▁Dusting	-10.0495
▁Sticker	-10.0496
▁USA	-10.0498
cial	-10.05
pet	-10.0517
▁transposh	-10.0521
ຄຸນະພາບ	-10.0526
ແຊ	-10.0526
ປະສົມປະສານ	-10.0527
ເວັບໄຊຕ໌	-10.0527
ມູນນິທິ	-10.0527
ທີ່ໃຫຍ່ທີ່ສຸດ	-10.0527
▁Length	-10.0527
ຫລັກສູດ	-10.0527
gsm	-10.0528
▁tattootattoo	-10.0528
ຢຸດ	-10.0529
ສູ່	-10.0531
berg	-10.0534
▁+856	-10.0535
ຊອງ	-10.0535
ves	-10.0537
▁ຂາຍສົ່ງ	-10.0538
▁bonus	-10.0539
ຮ່ວມກັນ	-10.054
tation	-10.054
▁Mag	-10.0542
▁ແກນ	-10.0545
▁Bike	-10.0546
▁Word	-10.0547
▁Edge	-10.0547
link	-10.0549
▁Rock	-10.0551
▁ຈີນຜູ້ຜະລິດ	-10.0562
ender	-10.0565
▁49	-10.0567
ith	-10.0568
▁Block	-10.0569
ບໍ່ແມ່ນ	-10.0578
▁ຄັ້ງທີ	-10.0582
ປັດ	-10.0597
ຜູ້ທີ່	-10.0598
▁Rod	-10.0603
▁all	-10.0605
▁Bao	-10.0605
▁ເຂົ້າຮ່ວມ	-10.061
ວ່າຈະ	-10.0613
jiang	-10.0624
▁ສຸກ	-10.0626
Pro	-10.0626
ຫນຶ່ງຂອງ	-10.0628
2.0	-10.063
▁Application	-10.0631
▁Poker	-10.0631
▁Facebook	-10.0631
▁Apk	-10.0631
▁Open	-10.0631
▁ABS	-10.0632
ກະເປົ໋າ	-10.0633
▁ພິວ	-10.0633
ຫນຶ່ງໃນ	-10.0634
ຕອນ	-10.0634
ໃນປະຈຸບັນ	-10.0634
▁(0)	-10.0635
ju	-10.0642
▁Watch	-10.0648
aker	-10.065
▁eagle	-10.065
▁180	-10.0655
ເຟ	-10.0656
▁PET	-10.066
▁ໃບອະນຸຍາດ	-10.0662
ACK	-10.0666
oll	-10.067
!!!	-10.0672
ແຜນທີ່	-10.0674
▁ເຫມາະ	-10.0677
▁ID	-10.0678
ິບ	-10.0686
UV	-10.0708
ການຮັບຮອງ	-10.071
▁ຫຼັງຈາກນັ້ນ	-10.0715
ຄັນ	-10.0721
ຊ່ວຍໃຫ້	-10.0722
ອຸປະກອນການ	-10.0723
2.8	-10.0727
hot	-10.0727
rop	-10.0732
▁ຝາ	-10.0735
▁Pattaya	-10.0736
▁Venturi	-10.0736
▁pvc	-10.0736
▁valve	-10.0737
ຫຼັກສູດ	-10.0737
▁Studio	-10.0737
▁ການຢັ້ງຢືນ	-10.0738
ມີດ	-10.0738
ຈະເປັນ	-10.074
ຕ່ໍາສຸດ	-10.0741
ພາຍນອກ	-10.0746
ຍີ່ປຸ່ນ	-10.0747
ເຊິ່ງ	-10.0747
▁This	-10.0748
nation	-10.0748
ector	-10.0754
▁Wood	-10.0755
▁ຖຸ	-10.0769
▁ອົງການຈັດຕັ້ງ	-10.0777
EST	-10.0778
ເຫຼັກກ້າ	-10.0782
ເຈົ້າຂອງ	-10.0782
ester	-10.0783
Fi	-10.0787
eep	-10.0797
▁Cake	-10.0802
ອີງໃສ່	-10.0803
LO	-10.0809
USD	-10.0814
ສັດລ້ຽງ	-10.0815
▁ບໍ່ແມ່ນ	-10.082
-60	-10.0832
ການຫຸ້ມຫໍ່	-10.0842
▁virtual	-10.0843
▁Excel	-10.0843
ປ່າໄມ້	-10.0845
▁Coffee	-10.0849
▁new	-10.0849
▁block	-10.0849
▁Φ	-10.085
ແຂວງ	-10.0855
▁Unlimited	-10.0859
▁ເຊື່ອມ	-10.0859
▁ພວກເຮົາແມ່ນ	-10.0868
ຢູ່ທີ່	-10.0873
ກ່າວວ່າ	-10.0873
eak	-10.0878
anc	-10.0879
ີ່	-10.0881
ເຕົາ	-10.0881
eu	-10.0884
-80	-10.0886
3.5	-10.0889
ONE	-10.0895
aft	-10.0896
ຊານ	-10.091
ໂດຍບໍ່ມີການ	-10.0916
▁mod	-10.0925
ຂອງມະນຸດ	-10.0929
ພູມ	-10.0929
122	-10.093
▁230	-10.0931
▁ສະຫນອງ	-10.0934
▁ລັກ	-10.0936
adi	-10.0945
▁29,	-10.0945
▁ຄ່າໃຊ້ຈ່າຍທັງ	-10.0946
ຜູ້ນໍາ	-10.0946
ປະຈຸບັນ	-10.0947
ຢືນ	-10.0948
ວັນຄຣິດສະມາດ	-10.095
ປົກປັກຮັກສາ	-10.095
▁Compressor	-10.095
▁Hippie	-10.095
▁Express	-10.095
ສາມາດໃຊ້ໄດ້	-10.0952
ສໍາເລັດຮູບ	-10.0956
late	-10.0957
ection	-10.0958
="1	-10.0959
▁ເອີຣົບ	-10.0959
ຮ່ອງ	-10.0962
ສັກຢາ	-10.0962
water	-10.0962
▁ຂຶ້ນ	-10.0963
▁made	-10.0963
▁ປະທານ	-10.0966
ແປດ	-10.0972
ມອບ	-10.0977
bil	-10.0979
▁Laos	-10.0987
▁Neo	-10.099
ສົງ	-10.0993
180	-10.0995
ສະອາດ	-10.1001
ria	-10.1006
▁Back	-10.1012
ຕ້ອງການທີ່ຈະ	-10.1016
▁Tester	-10.1024
ແມ່ນມີ	-10.1027
▁ການຕະຫຼາດ	-10.1031
▁ພື້ນ	-10.1032
fit	-10.1044
▁ເງິນສົດ	-10.1046
ແຄ	-10.1048
▁ຄວາມກວ້າງ	-10.1048
▁ລຸ	-10.1051
ຂອງໂລກ	-10.1051
ທົບທວນ	-10.1059
ເຕົາອົບ	-10.1059
▁Countdown	-10.1059
▁Ubuntu	-10.1059
▁ປອກເປືອກ	-10.1059
«	-10.1059
ສະມາຄົມ	-10.1059
ຄລິກ	-10.1059
▁Tower	-10.106
▁ລາຍຊື່ອີເມວ	-10.106
ທີ່ສາມາດ	-10.1062
▁blog	-10.1065
ລູ	-10.1072
▁River	-10.1078
/2018	-10.1079
▁ເຕັມ	-10.1081
ຈົດຫມາຍ	-10.1086
ENT	-10.1093
ຄໍາຮ້ອງສະຫມັກ	-10.1095
izer	-10.1103
▁Dj	-10.1103
▁bag	-10.1108
ທໍາ	-10.1111
bert	-10.1112
0.9	-10.1115
▁ຄື	-10.1115
bot	-10.1115
▁inter	-10.1121
ເງື່ອນໄຂ	-10.1124
ຄານ	-10.1128
▁ສະເຫນີ	-10.1129
▁FL	-10.114
▁Electrostatic	-10.1142
▁ງາມ	-10.115
ທັນ	-10.1151
ໃກ້	-10.1157
▁ການຕິດຕັ້ງ	-10.116
ການປົກຫຸ້ມຂອງ	-10.1169
▁ມະຫາຊົນ	-10.1169
ไทย	-10.1169
▁Pocket	-10.1169
▁cheats	-10.1169
ສັງເກດ	-10.1169
▁Image	-10.1169
▁ແຫຼ່ງຂໍ້ມູນ	-10.1169
ຫລໍ່	-10.117
▁Ninjago	-10.117
▁ລັກສະນະ	-10.117
▁Program	-10.1171
ແທນ	-10.1171
ຈໍາເປັນຕ້ອງ	-10.1174
ຂອບເຂດ	-10.1177
ຫມາກ	-10.118
▁DX	-10.1182
▁ການຂົນສົ່ງ	-10.1183
່ອນ	-10.1187
vin	-10.1189
ສິບ	-10.1202
ໃຫ້ແກ່	-10.1209
ີນ	-10.1211
ຄໍາຖາມ	-10.1215
▁ການຄ້າ	-10.1218
▁ທະນາຄານ	-10.1219
wo	-10.1222
▁Jul	-10.1226
urr	-10.1226
anda	-10.1229
▁ນິດ	-10.1233
HT	-10.1242
lug	-10.1242
▁ແສງສະຫວ່າງ	-10.1245
▁GP	-10.1267
▁ຜົນໄດ້ຮັບ	-10.127
ove	-10.1275
ອະນຸ	-10.1279
▁Engine	-10.128
ສຸມໃສ່	-10.128
ມ່ວນ	-10.128
ລົບ	-10.128
ເດືອນພະຈິກ	-10.128
▁Precipitator	-10.128
▁ງວນລິຂະສິດ	-10.128
ຈ້າງ	-10.128
ພົມ	-10.128
▁Fridge	-10.128
filter	-10.128
1.3	-10.1281
ເສຍຊີວິດ	-10.1281
mq	-10.1282
ເຊື້ອຊາດ	-10.1282
ຫວັງ	-10.1282
ເລເຊີ	-10.1283
ການເງິນ	-10.1283
▁ອອນ	-10.1283
iver	-10.1286
oke	-10.1288
▁ຫນົນ	-10.1289
tive	-10.1291
ທອງ	-10.1296
▁Chon	-10.1297
ຫົວໃຈ	-10.1305
▁ສະນັ້ນ	-10.1312
▁ສ້າງຕັ້ງຂຶ້ນ	-10.1313
ພື້ນຜິວ	-10.1315
ຄຸ້ມຄອງ	-10.1315
ama	-10.1316
ດີກວ່າ	-10.1324
▁ໃດ	-10.1327
▁Molding	-10.1327
▁Machines	-10.1334
ໃບຢັ້ງຢືນ	-10.1334
-09	-10.1338
▁Day	-10.134
▁web	-10.1341
4.00	-10.1342
▁ທ່ານຈະ	-10.1351
▁ເຕົາ	-10.1352
ການສົນທະນາ	-10.1354
ຕັ້ງຢູ່	-10.1358
ຈັກ	-10.136
▁Gun	-10.1363
EP	-10.1378
▁Gate	-10.1386
ກຽມ	-10.1392
ພິຈາລະນາ	-10.1392
ຂັບເຄື່ອນ	-10.1392
ຜູ້ອໍານວຍການ	-10.1392
Atlanta	-10.1392
▁Gurgaon	-10.1392
▁ທົບ	-10.1392
▁rotary	-10.1392
▁collector	-10.1392
ວາລະສານ	-10.1393
▁FSX	-10.1393
▁FAQ	-10.1393
▁Cross	-10.1393
ພັດລົມ	-10.1393
▁THB	-10.1395
ນາຍ	-10.1397
pu	-10.1402
ເນຍ	-10.1404
160	-10.1409
ສູນກາງ	-10.1409
▁Mai	-10.1411
▁Data	-10.1412
ການສື່ສານ	-10.1412
2017	-10.1421
▁ທໍາມະດາ	-10.1427
▁ປະສິດທິພາບ	-10.1428
ຍັງມີ	-10.1432
▁Stick	-10.1439
ວະ	-10.1439
feng	-10.1445
▁Maxi	-10.1445
ການເຂົ້າເຖິງ	-10.145
▁Roll	-10.1455
ຖືກຕ້ອງ	-10.1456
▁ການບັນຈຸ	-10.1464
ONG	-10.1466
▁ການຄຸ້ມຄອງ	-10.1484
="1.	-10.1485
▁Cu	-10.1487
1.6	-10.1491
▁ເວົ້າວ່າ	-10.1497
hine	-10.1498
▁ຄ້າ	-10.1501
▁240	-10.1502
▁Ski	-10.1503
ທຽບ	-10.1505
MEDIA	-10.1506
▁ໄພ	-10.1506
▁Mountains	-10.1506
▁WMC	-10.1507
▁LCD	-10.1508
ລັດຖະ	-10.1509
2016	-10.1512
▁0.2	-10.1513
▁Acid	-10.1515
rick	-10.1521
▁UP	-10.1525
▁UL	-10.1527
ເວີ	-10.1529
ິ່ນ	-10.1532
IE	-10.1536
▁Clash	-10.1536
▁ໂຍ	-10.1538
ຖ້າ	-10.154
ເຕ	-10.1543
ຫ້ອງຮຽນ	-10.1544
▁ອັບເດດຫຼ້າສຸດ	-10.1544
case	-10.1545
ແຜ່ນກະດານ	-10.1546
ຜູ້ຊ່ຽວຊານ	-10.1546
ສັ່ງ	-10.155
urat	-10.1554
▁ໂກ	-10.1558
▁Log	-10.1561
▁Read	-10.1564
nny	-10.1564
yo	-10.1565
ເກີນ	-10.1565
▁Hard	-10.1567
▁Tel	-10.1568
cul	-10.1573
Manufacturer	-10.158
ເວັບ	-10.158
▁Moto	-10.158
ທີ່ມີຢູ່	-10.1585
▁ຝ້າຍ	-10.1589
▁May	-10.159
IB	-10.1596
lli	-10.1598
ໂຣກ	-10.1599
-300	-10.1602
ຕົວເມືອງ	-10.1614
ຄົວ	-10.1617
ທົນທານ	-10.1619
Lao	-10.162
ຄົມ	-10.162
ເລືອດ	-10.1621
▁Chemical	-10.1621
▁Garbowicz	-10.1621
▁Cloud	-10.1621
▁Electromagnetic	-10.1621
▁NYE	-10.1621
▁ຫງວນລິຂະສິດ	-10.1621
ຈັດອັນດັບ	-10.1622
▁ເດືອນທັນວາ	-10.1624
▁ໃນປັດຈຸບັນ	-10.1624
ການດູແລ	-10.1627
▁Player	-10.1628
▁ຄ່າໃຊ້ຈ່າຍ	-10.1631
ການກວດສອບ	-10.1632
▁ສົນ	-10.1632
▁Blasting	-10.1633
ville	-10.1634
▁ພືດ	-10.1637
ສື	-10.1637
ພອນ	-10.164
home	-10.1642
ອິ	-10.1643
lv	-10.1644
count	-10.1646
ທີ່ບໍ່ມີ	-10.1649
0.5	-10.1649
▁ທີມ	-10.1651
ການແກ້ໄຂໃນ	-10.1662
▁has	-10.1662
tai	-10.1668
▁115	-10.167
ໄປຫາ	-10.167
right	-10.1673
ຂໍ້ສະເຫນີ	-10.1678
ຫ້ອງນ້ໍາ	-10.1681
ແນ	-10.1685
▁TR	-10.1685
▁Col	-10.1689
▁Bit	-10.169
down	-10.1691
ຖະ	-10.1708
ສະຖານີ	-10.1709
ແກ່	-10.171
ເຫມາະສົມ	-10.1712
ເມັດ	-10.1715
Re	-10.1716
▁px	-10.1719
▁ທ່ຽວ	-10.1721
ike	-10.1722
night	-10.1725
ign	-10.1725
▁ເລື່ອງ	-10.1729
▁ສູດ	-10.173
ໂດຍທົ່ວໄປ	-10.1731
▁Magnet	-10.1733
ຈະຖືກ	-10.1734
ຈົດທະບຽນ	-10.1737
▁Metatrader	-10.1737
▁over	-10.1738
▁ມຸມ	-10.1738
▁ໂນ	-10.174
▁Connector	-10.174
▁Plant	-10.174
ເຫຼືອ	-10.174
ບ່ອນນັ່ງ	-10.1741
ທີ່ສວຍງາມ	-10.1748
▁du	-10.1752
▁Piece	-10.1754
ສັນຍານ	-10.176
ອໍາ	-10.1761
FL	-10.1762
▁Cable	-10.1762
▁Sign	-10.1763
▁BK	-10.1764
rew	-10.1766
ການປ້ອງກັນ	-10.1768
▁Rome	-10.1779
ມົນ	-10.1781
ເດີນທາງ	-10.1782
▁String	-10.1783
rac	-10.1785
▁ຍິງ	-10.1787
ever	-10.1788
▁Rent	-10.1791
-08	-10.1794
ຮອງຮັບ	-10.1795
▁ຂຸດຄົ້ນບໍ່ແຮ່	-10.1795
amine	-10.1796
omb	-10.1805
TY	-10.1809
▁650	-10.1826
ລະບຽບ	-10.1836
TP	-10.184
ປະທັບຕາ	-10.1855
▁Electric	-10.1855
▁Relief	-10.1855
▁service	-10.1855
ແບບຟອມ	-10.1855
▁ອະໄຫລ່	-10.1855
▁ສະຫະລັດອາເມລິກາ	-10.1856
burg	-10.1858
▁ຕິດຕໍ່ພວກເຮົາ	-10.1861
▁more	-10.1864
▁ໂມເລກຸນ	-10.1876
▁Adder	-10.1877
▁Oct	-10.1878
002	-10.1879
ຈີ	-10.1881
▁ຖ້າຫາກວ່າທ່ານ	-10.1901
▁ຍົກ	-10.1908
▁ຄວາມຮ້ອນ	-10.191
▁ລົດໄຟ	-10.1919
mic	-10.192
▁win	-10.1922
▁ແຂນ	-10.1928
▁(25	-10.1934
ເລກ	-10.1945
▁ກໍານົດ	-10.1945
ຊອບແວ	-10.1948
illa	-10.1949
▁ໃນມື້ນີ້	-10.195
ວິຊາການ	-10.1952
ລ່າ	-10.196
ລັກ	-10.1962
ຈໍາຫນ່າຍ	-10.1967
ເປັນຜູ້	-10.1971
▁ເທກໂນໂລຍີ	-10.1973
к	-10.1974
▁Phuket	-10.1974
▁万象资本	-10.1974
▁电话	-10.1974
ຫນ່ວຍຄວາມຈໍາ	-10.1974
▁Material	-10.1974
clubs	-10.1974
▁ສູດໂມເລກຸນ	-10.1974
ການາດາ	-10.1974
company	-10.1974
▁PHP	-10.1975
▁Final	-10.1977
▁ບົດຄວາມຕໍ່ໄປ	-10.1977
ຊະ	-10.1977
ເກັບກໍາ	-10.1977
▁ເດືອນພຶດສະພາ	-10.1978
ໂຟມ	-10.1978
ເຫລືອ	-10.1978
▁tri	-10.198
▁ໂຄງ	-10.1982
▁Discharger	-10.1983
▁Qi	-10.1985
ພັດ	-10.1986
▁Range	-10.1989
ຮູ	-10.1991
ຫມູ່	-10.1995
ກໍາຈັດ	-10.2001
▁Unthank	-10.2008
/201	-10.2008
andy	-10.2011
▁ຄຸນນະພາບ	-10.2014
▁IT	-10.2015
Outs	-10.2019
ໄຟຟ້າລາວ	-10.2026
▁ຊື່ຂອງທ່ານ	-10.204
▁sub	-10.2041
ເອກ	-10.2042
ັ້ນ	-10.2042
▁ປະສົບການ	-10.205
0.7	-10.2057
▁ຄອບຄົວ	-10.2069
ໃນປະເທດ	-10.2073
▁mobile	-10.2083
-13	-10.2084
▁ຂ້າງ	-10.2085
Shirt	-10.2089
ສະຫງວນ	-10.209
ແຮ່ທາດ	-10.2092
ຟຟລ	-10.2094
▁ທຶກ	-10.2094
★	-10.2094
ປ່ອງຢ້ຽມ	-10.2094
ສະເຫມີ	-10.2094
▁ດາວໂຫຼດຟຣີ	-10.2094
▁Manager	-10.2095
ຕູ້	-10.2095
▁Zhong	-10.2098
▁ກົນ	-10.2098
ລາຍໄດ້	-10.2101
ຄິດວ່າ	-10.2111
▁1.2	-10.2111
ຈະບໍ່	-10.2122
▁Tech	-10.2132
ຊັງ	-10.2136
ການບໍລິຫານ	-10.2139
▁750	-10.214
ການເລີ່ມຕົ້ນ	-10.2147
len	-10.2148
xml	-10.2156
▁ຄວາມຖີ່	-10.217
▁Unit	-10.2195
ໃນໂລກ	-10.2196
▁ຫມູ່	-10.22
▁work	-10.22
▁900	-10.2201
▁Media	-10.2202
▁Linen	-10.2205
▁ວິທະຍາໄລຂອງ	-10.2208
ຈະໄດ້ຮັບການ	-10.2212
ອຸດສາຫະ	-10.2215
ເຕືອນ	-10.2216
ມົນທົນຊານຕົງ	-10.2216
ເພີ້ມ	-10.2216
▁Extrusion	-10.2216
▁Knitting	-10.2216
▁acrylic	-10.2216
▁Sensor	-10.2216
▁mavic	-10.2216
▁Turkey	-10.2216
▁SKU	-10.2217
ສັນຍາລັກ	-10.2217
▁4000	-10.2218
▁ພູເຂົາ	-10.2218
ໃນປະເທດຈີນ	-10.2219
ກອງທຶນ	-10.2219
ຕົ້ນສະບັບ	-10.2222
ນັກສຶກສາ	-10.2222
▁Water	-10.2223
ອັດຕາ	-10.2226
For	-10.2228
▁Union	-10.2232
▁Wind	-10.2233
▁Dresses	-10.224
ການທ່ອງທ່ຽວ	-10.2244
▁ເດັກ	-10.2255
▁Show	-10.2255
▁700	-10.2257
▁ຟລີ	-10.2262
rum	-10.2264
bol	-10.2265
ສັງ	-10.2272
▁ຈັກ	-10.2274
ການຢັ້ງຢືນ	-10.2275
▁ຮູ້	-10.2275
▁ລະບົບຕ່ອງໂສ້	-10.2281
ການຈັດສົ່ງ	-10.229
003	-10.2295
ແຜນການ	-10.2296
love	-10.2303
▁but	-10.2311
ສະພາບ	-10.2323
ຊຽງໄຮ	-10.234
ສຸກເສີນ	-10.234
▁roulette	-10.234
ຫາດຊາຍ	-10.234
▁ສະບາຍດີ	-10.234
▁Admin	-10.234
▁ການເດີນທາງລົດໄຟ	-10.2341
7.5	-10.2343
▁End	-10.2346
▁Load	-10.235
▁Visa	-10.2351
▁ສີເຫຼືອງ	-10.2352
▁10000	-10.2353
ສະບັບເລກທີ	-10.2354
ປະລິມານ	-10.2354
Site	-10.2356
225	-10.2356
ຂ້າມ	-10.2358
ເພັດ	-10.2361
▁Cement	-10.2363
ພຣະເຈົ້າ	-10.2369
ລ້ຽງ	-10.2372
▁ຖະ	-10.2377
ເວົ້າວ່າ	-10.2378
ວັນສຸກ	-10.2391
ນໍາພາ	-10.2405
▁ລົດຈັກ	-10.2407
ແກ່ນ	-10.241
▁Mc	-10.241
▁ຖ້າຫາກວ່າ	-10.2412
ຊ່ຽວຊານ	-10.2416
▁ນອນ	-10.2423
ement	-10.2428
▁sl	-10.2428
▁ສັງຄົມ	-10.2435
ປະມວນຜົນ	-10.2436
ໃນທົ່ວໂລກ	-10.2439
▁ການສະກົດຈິດ	-10.2441
Exp	-10.2451
▁ການແຂ່ງຂັນ	-10.2458
ແຫວນ	-10.2462
ວຽນ	-10.2465
olmbygden	-10.2465
▁Institute	-10.2465
【	-10.2465
▁cosmos	-10.2465
▁EVA	-10.2465
▁KTM	-10.2465
▁ອົງສາ	-10.2466
▁ເດືອນກຸມພາ	-10.2467
9%	-10.2468
ສິ້ນສຸດ	-10.2473
▁89.00	-10.2475
ຕົວເລກ	-10.2479
ສາວ	-10.2485
Internet	-10.2485
ໂທລະພາບ	-10.2487
ອາດ	-10.2487
ລັດເຊຍ	-10.2489
▁live	-10.249
ພາກຮຽນ	-10.2492
huang	-10.2496
wall	-10.2499
▁Liam	-10.2501
ການຂະຫຍາຍຕົວ	-10.2503
▁ວາງ	-10.2504
▁ຫມໍ້ໄຟ	-10.2507
ທາງລົດໄຟ	-10.2514
ໂທຫາ	-10.2524
RP	-10.2534
ໂດຍຜ່ານ	-10.2535
▁Tai	-10.254
▁Yan	-10.254
▁ເຂັມ	-10.2546
wu	-10.2547
▁ການອ່ານ	-10.2554
each	-10.2555
ຢ່າງກວ້າງຂວາງ	-10.256
ທ່ານຈະ	-10.2572
▁ເພັດ	-10.258
ປ້ອນ	-10.258
▁Sl	-10.2584
ຮັບຮູ້	-10.2586
▁Eva	-10.2587
▁ພວກເຮົາໄດ້	-10.2589
ຈຶ່ງ	-10.2591
ທີ່ທັນສະໄຫມ	-10.2591
ໂປ່ງໃສ	-10.2591
▁ເດືອນມິຖຸນາ	-10.2591
ທະນາຍຄວາມ	-10.2591
ສໍານັກງານ	-10.2591
ອາຊິດ	-10.2591
ຮູ້ຈັກ	-10.2592
▁Point	-10.2593
▁ທວນ	-10.2593
IU	-10.2594
raw	-10.2595
ສັກ	-10.2597
ຕາຍ	-10.2601
▁Ve	-10.2607
clo	-10.2607
ເລັກ	-10.2609
Break	-10.2611
ເງິນອອນໄລນ໌	-10.2615
▁List	-10.2618
ໃຫ້ພວກເຮົາ	-10.2619
125	-10.2621
ດື່ມ	-10.2625
stone	-10.2625
▁DIN	-10.2627
ບໍ່ມີເງິນຝາກ	-10.2627
▁86-5	-10.2634
ລາຄາຖືກ	-10.2634
cation	-10.2635
▁RSS	-10.2643
▁Aria	-10.2643
ຄວາມຄິດເຫັນ	-10.2651
▁2006	-10.2657
▁2007	-10.2658
▁Sep	-10.2664
450	-10.2671
ປະຕິບັດການ	-10.2682
▁Pass	-10.2683
▁ພະແນກ	-10.2691
▁ລັດເຊຍ	-10.2694
ຈະມີ	-10.2704
ຫມາຍ	-10.2707
ຄວາມຖືກຕ້ອງ	-10.271
▁cre	-10.2712
ບີ	-10.2713
▁ຜູ້ທີ່	-10.2714
▁Imp	-10.2714
ອະນາໄມ	-10.2719
ອໍານາດ	-10.2719
ເສັ້ນໄຍ	-10.2719
▁Factory	-10.2719
ຄວາມຕ້ານທານ	-10.2719
▁Odisha	-10.2719
▁Samui	-10.2719
▁iSpyoo	-10.2719
】	-10.2719
ສະນະແມ່ເຫຼັກ	-10.2719
▁Angle	-10.272
▁DMF	-10.272
▁Korat	-10.272
▁ເນີນ	-10.272
▁option	-10.272
▁'',	-10.2721
ອອນລາຍ	-10.2722
▁Guide	-10.2725
ເພດານ	-10.2726
sky	-10.2727
▁Games	-10.2727
▁Optical	-10.2728
▁cake	-10.2736
ແຜນ	-10.2737
dom	-10.2741
even	-10.2745
▁Cooler	-10.2748
▁0.1	-10.2752
ເນື້ອໃນ	-10.2753
ello	-10.2758
utter	-10.2764
ກອບ	-10.2764
ເຂັມ	-10.2765
ບັບ	-10.2766
▁Hyp	-10.2778
amide	-10.2787
▁Fire	-10.2789
ອີງຕາມ	-10.2791
ັມ	-10.2793
▁Real	-10.2796
ຄວາມຮູ້ສຶກ	-10.2823
▁cam	-10.2831
ປາຍ	-10.2832
▁Game	-10.2834
140	-10.2837
ອາຊີບ	-10.2841
PER	-10.2844
ວຽດນາມ	-10.2849
เ	-10.2849
ຊັບພະຍາກອນ	-10.2849
ວຽງຈັນ	-10.2849
ສະເລ່ຍ	-10.2849
ອະນາຄົດ	-10.2849
ເຟີນິເຈີ	-10.2849
▁ກົກ	-10.2849
л	-10.2849
า	-10.2849
▁Acrylic	-10.2849
▁Pathom	-10.2849
▁Sludge	-10.2849
ກະດາດ	-10.2849
▁Krabi	-10.2849
ກິໂລ	-10.2849
▁ASTM	-10.2849
ອຸດົມສົມບູນ	-10.285
ເຫດຜົນ	-10.2851
▁Rayong	-10.2852
ຂ້າງເທິງ	-10.2854
▁ດັບ	-10.2855
▁Virus	-10.2857
ທ້ອງ	-10.2858
ump	-10.2859
▁ສໍາເລັດ	-10.2861
ອັງ	-10.2872
ທີ່ຖືກຕ້ອງ	-10.2882
ລອກ	-10.2883
▁JW	-10.289
ຂອງລູກຄ້າ	-10.2898
▁Disc	-10.2903
ສ່ວນຕົວ	-10.2903
▁Kit	-10.2911
aff	-10.2915
110	-10.2928
ເຂົ້າໃຈ	-10.2937
ita	-10.2945
▁etc	-10.2954
ency	-10.2966
ອ່ານເພີ່ມເຕີມ	-10.297
-27	-10.2979
ປະຫຍັດ	-10.298
ອຸນຫະພູມສູງ	-10.298
ສະຕິກເກີ	-10.2981
▁Enterprise	-10.2981
ນວນເງິນຂອງບັນທຶກ	-10.2981
ແຖບ	-10.2981
▁ເອດພີ	-10.2981
▁(2015)	-10.2981
▁Shopping	-10.2981
ສິດທິບັດ	-10.2982
ເຮືອນຄົວ	-10.2986
ໃດໆ	-10.2986
▁Quick	-10.2987
,000,000	-10.299
▁ຜູ້ຂຽນ	-10.2994
▁DR	-10.2994
chlor	-10.2996
▁Ray	-10.2998
ada	-10.2999
lling	-10.3
▁who	-10.3001
ຮັບຮອງ	-10.3007
319	-10.3012
ູ້	-10.3025
ປອກ	-10.3027
▁make	-10.3029
ປີ້	-10.3035
ແຜ່ນໂລຫະ	-10.3039
ທີ່ໄດ້ຮັບ	-10.3039
train	-10.3046
ສີແດງ	-10.3049
lie	-10.3074
-2019	-10.3092
ຄວາມງາມ	-10.3094
▁ອົງ	-10.3094
Pieces	-10.3095
▁ເດືອນກໍລະກົດ	-10.3096
nate	-10.3101
UB	-10.3106
ເຫນືອ	-10.3111
▁Add	-10.3111
ລະບາຍ	-10.3113
▁ອີເມລ	-10.3114
ເຂັ້ມ	-10.3114
ກົນໄກ	-10.3114
ວັກຊີນ	-10.3114
ສິນລະປະ	-10.3114
ອາຟຣິກາ	-10.3114
ຮູບຊົງກະບອກ	-10.3114
▁Desktop	-10.3114
▁Refinecolor	-10.3114
▁ຢ່າລືມກ່ຽວກັບ	-10.3114
▁Powder	-10.3114
▁KIDS	-10.3114
ເວບໄຊທ໌	-10.3114
▁Girl	-10.3115
▁Lampang	-10.3115
ເຕັ້ນ	-10.3115
▁cont	-10.3115
▁Paris	-10.3121
118	-10.3121
ລອຍ	-10.3122
▁ທີ່ຢູ່ອີເມວ	-10.3124
1.8	-10.3127
▁Non	-10.3128
ລົດໃຫຍ່	-10.3128
ຢາກ	-10.3131
▁Vol	-10.3132
ປ່ຽນແປງ	-10.3133
ata	-10.3135
▁Royale	-10.3136
/2017	-10.3137
soft	-10.3139
▁Yai	-10.3141
ຈຸ	-10.3149
yuan	-10.3152
▁Hui	-10.3153
une	-10.3154
bug	-10.3155
ນໍາສະເຫນີ	-10.3156
-06	-10.3157
ຫຼຸດຜ່ອນ	-10.3163
▁ຊູແອັດ	-10.3167
ການສໍາຫຼວດ	-10.3172
ໃຫມ່ຂອງ	-10.3181
ມໍເຕີ	-10.3194
ເຟສບຸກ	-10.3194
ແບ່ງປັນ	-10.3194
tag	-10.3194
▁pen	-10.3199
ຄວາມຄິດ	-10.3199
▁Flu	-10.3206
▁Views	-10.3215
ຍືດຫຍຸ່ນ	-10.3218
ຫາຍ	-10.3223
ພື້ນ	-10.3224
ອິນເດຍ	-10.3224
ique	-10.3225
ໂຍ	-10.3229
ອົງການຈັດຕັ້ງ	-10.3234
dia	-10.3249
ຍານພາຫະນະ	-10.3249
ວິສະວະກໍາ	-10.3249
ເຊືອກ	-10.3249
▁Calendar	-10.3249
▁LogmeOnce	-10.3249
▁Thammarat	-10.3249
▁ເກມອອນ	-10.3249
ລຶບ	-10.3249
ເຜີຍແຜ່	-10.3249
▁Ultra	-10.3249
ສໍາພາດ	-10.3249
▁Extension	-10.325
▁Cookie	-10.325
▁Snap	-10.325
▁Network	-10.325
▁Loei	-10.3251
▁also	-10.3253
-28	-10.3255
ມີຄວາມສຸກ	-10.3259
iti	-10.3259
▁ໍ	-10.327
▁WPC	-10.327
▁Buri	-10.3273
ask	-10.3279
▁Pos	-10.3284
▁GMP	-10.3286
▁ໃຕ້	-10.3289
ສໍາເລັດຂອງ	-10.3292
▁Cent	-10.3303
NIL	-10.3305
ກ່ອງໄມ້	-10.3305
145	-10.3307
▁6000	-10.3318
HG	-10.3332
▁ການເຄືອບ	-10.3333
ການຈັດການ	-10.3338
235	-10.3341
–	-10.3341
ອັບເດດຫຼ້າສຸດ	-10.3341
ຫມໍ້ໄຟ	-10.3342
ode	-10.3343
ບົບໄຮໂດຼລິກ	-10.3344
▁Feb	-10.335
▁50%	-10.3354
ກ້າວ	-10.3358
ຫມົດ	-10.3359
▁Hall	-10.3359
ແກ້ໄຂບັນຫາ	-10.3366
50,000	-10.3371
ສາຂາ	-10.3371
á	-10.3386
ໄວ້ໃນຕອນຕົ້ນ	-10.3386
໋	-10.3386
¥	-10.3386
в	-10.3386
ລໍາດັບ	-10.3386
ວິຕາມິນ	-10.3386
ອິຕາລີ	-10.3386
▁Adapter	-10.3386
▁Diffuser	-10.3386
▁Nonthaburi	-10.3386
▁Ratchathani	-10.3386
▁Recovery	-10.3386
▁Ultimate	-10.3386
▁sonitattoo	-10.3386
ເອດເອດເອ	-10.3386
▁Soccer	-10.3386
▁Textile	-10.3386
▁plugin	-10.3386
▁Sitemap	-10.3386
▁pulse	-10.3386
▁BCHT	-10.3387
▁ແຟັກ	-10.3387
ເດືອນມີນາ	-10.3387
▁TPU	-10.3387
ເປັນໄປໄດ້	-10.339
▁Class	-10.3392
▁LAO	-10.3392
▁ແລະມັນ	-10.3393
ອະນຸຍາດໃຫ້	-10.3394
ຊົງ	-10.3395
▁ບາຍ	-10.3397
▁Xbox	-10.3401
ທັດ	-10.3403
PCS	-10.3408
ima	-10.3417
ມ້າ	-10.3419
ກອນ	-10.3424
▁Link	-10.3429
▁Chip	-10.3435
ທານ	-10.3436
▁FOR	-10.3436
▁Fair	-10.3439
▁ແອ	-10.3441
craft	-10.3442
▁Bad	-10.3448
▁Rob	-10.3469
bank	-10.3481
ອະລູມິນຽມ	-10.349
ີ້	-10.3492
ກວ້າງ	-10.35
rail	-10.3503
▁Wars	-10.3511
▁ໃນວັນທີ	-10.3513
ຊັນ	-10.3522
ເນື່ອງຈາກ	-10.3523
ພື້ນທີ່ຂອງທ່ານ	-10.3524
ຫຼາກຫຼາຍ	-10.3525
ຕະຫລາດ	-10.3525
ເຕັກໂນໂລຢີ	-10.3525
ğ	-10.3525
ຕູ້ຄອນເທນເນີ	-10.3525
ທີ່ຢູ່ອາໄສ	-10.3525
ລອນດອນ	-10.3525
▁1528113	-10.3525
▁terminal	-10.3525
▁ທີ່ຖືກອອກແບບໂດຍ	-10.3525
ອັກສອນ	-10.3525
▁Guitar	-10.3525
▁Rubber	-10.3525
ຢ່າງເປັນທາງການ	-10.3525
▁Pixel	-10.3525
▁German	-10.3525
▁Cotton	-10.3526
▁Microfiber	-10.3526
▁ເຊັ່ນດຽວກັນກັບ	-10.3526
▁3.2.	-10.3528
ແປ້ງ	-10.3528
▁Trang	-10.3529
ອັບໂຫລດ	-10.3529
article	-10.3529
▁spark	-10.353
▁ປອດ	-10.3532
▁ເລືອກເມືອງ	-10.3533
▁Castle	-10.3533
▁Jacket	-10.3538
bro	-10.3543
apk	-10.3545
856	-10.3546
ກົດລະບຽບ	-10.3547
rine	-10.3548
▁ນຸ	-10.355
abi	-10.3557
▁With	-10.3558
ມີຄວາມຍືດຫຍຸ່ນ	-10.3558
▁ຍາດ	-10.3566
134	-10.3578
▁Heng	-10.3583
ຖ້າຫາກວ່າ	-10.3584
ທຸ	-10.3586
ຫນ້າທໍາອິດ	-10.3591
▁FN	-10.3596
▁1/2	-10.3604
plas	-10.3617
▁Yang	-10.3621
ຄະນະກໍາມະ	-10.3627
ຄູ	-10.3635
▁Feed	-10.3635
hui	-10.3636
ພວກ	-10.3641
sulf	-10.3643
ສອບຖາມ	-10.365
232	-10.366
ການສອບເສັງ	-10.3661
▁Stan	-10.3663
▁Ninja	-10.3665
ລະດູຫນາວ	-10.3666
‘	-10.3666
Pirater	-10.3666
▁Furnace	-10.3666
▁Gratuit	-10.3666
▁discuss	-10.3666
ຄູປອງ	-10.3666
▁Sliding	-10.3666
▁Vegas	-10.3666
mission	-10.3666
ສັງເຄາະ	-10.3666
▁smart	-10.3666
code	-10.3667
ປະເມີນຜົນ	-10.3667
▁ບົດລາຍງານ	-10.3668
▁Pilon	-10.3668
▁Village	-10.3668
▁high	-10.367
▁clamp	-10.367
ກໍ່ຕັ້ງ	-10.3671
color	-10.3671
▁ຖົງການກັ່ນຕອງ	-10.3672
turn	-10.3676
-150	-10.3677
ciation	-10.3679
ເກຍ	-10.3681
▁youjian	-10.3682
ສູ້	-10.3683
ຍັງສາມາດ	-10.3689
ລະບົບປະຕິບັດການ	-10.3696
ເຫລັກ	-10.37
ຜູ້ເຂົ້າຮ່ວມ	-10.37
ami	-10.3711
▁190	-10.3721
wood	-10.3721
una	-10.3724
ື້	-10.3725
▁Feng	-10.3729
▁EAS	-10.373
ຫຍ້າ	-10.373
▁Sales	-10.3733
▁2006-20	-10.3747
ato	-10.3749
SPY	-10.3749
▁XP	-10.3762
hong	-10.3768
▁VI	-10.3779
440	-10.3787
ແກນ	-10.3788
ເພດ	-10.3793
ໂຄມໄຟ	-10.3795
»	-10.3795
▁dr	-10.38
ພຣະ	-10.3801
ທີ່ກໍານົດໄວ້	-10.3808
churchofchrist	-10.3809
ຊັດເຈນ	-10.3809
▁Changchun	-10.3809
▁Sombath	-10.3809
▁jacket	-10.3809
▁Avenue	-10.3809
▁Planner	-10.3809
▁Level	-10.3809
▁CPU	-10.3809
▁travel	-10.381
ຫຼັກຊັບ	-10.3811
▁super	-10.3814
ຄີມ	-10.3815
▁ERW	-10.3816
▁Java	-10.3817
ລະຫວ່າງປະເທດ	-10.3817
ground	-10.3818
8.00	-10.3819
▁Charger	-10.3819
ຖອດ	-10.3819
iff	-10.3823
▁Tanzania	-10.3826
ແກະ	-10.3827
ຂໍ້ມູນເພີ່ມເຕີມ	-10.3829
ກັ່ນຕອງ	-10.3829
▁1100	-10.3829
ຕູ	-10.383
▁Yula	-10.3831
▁Starter	-10.3833
123	-10.3842
ໄປທີ່	-10.3843
ສູງເຖິງ	-10.3843
▁Thread	-10.3845
ຄວາມຈິງ	-10.3847
▁5000	-10.3849
ສາມາດນໍາໃຊ້	-10.3851
ີດ	-10.3854
plex	-10.3873
flow	-10.3891
▁Cash	-10.3909
script	-10.3911
ມັນເປັນ	-10.3926
▁Drive	-10.3937
2.9	-10.3945
phen	-10.3947
ການແລກປ່ຽນ	-10.3947
AU	-10.3949
ຊົ່ວໂມງ	-10.395
ພູເຂົາ	-10.3952
ກະຕຸ້ນ	-10.3954
ການປ່ອຍສິນເຊື່ອ	-10.3954
ກ້ວາງ	-10.3954
▁Business	-10.3954
▁Graphite	-10.3954
▁Management	-10.3954
▁Precision	-10.3954
html	-10.3954
▁download	-10.3954
ຄໍາສັບ	-10.3954
▁Width	-10.3954
ພາກສະຫນາມ	-10.3956
ຂີ້	-10.3957
ຍຶດ	-10.396
▁Track	-10.3962
ສະຫວັນ	-10.3962
▁mg	-10.3963
▁SAP	-10.3965
▁gl	-10.3966
▁Great	-10.3966
ຫລອດ	-10.3967
ount	-10.3969
ທະຫານ	-10.3974
ສ່ວນໃຫຍ່	-10.3993
▁XR	-10.3994
▁trans	-10.3998
gang	-10.4004
▁ວິດ	-10.401
▁Vir	-10.4013
ບໍ່ເສຍຄ່າ	-10.4036
lao	-10.4037
dian	-10.4038
2015	-10.4065
visa	-10.4071
PI	-10.4071
FO	-10.4071
ການຢ້ຽມຢາມ	-10.4074
ໂຫຼດ	-10.409
unch	-10.4094
ຂະແຫນງ	-10.4101
▁7.4.7	-10.4101
▁Alibaba	-10.4101
▁Brazil	-10.4101
▁Graphic	-10.4101
▁Yamaha	-10.4101
▁stretch	-10.4101
▁unlimited	-10.4101
◆	-10.4101
▁Switch	-10.4101
▁Beige	-10.4101
▁Option	-10.4101
▁Rendering	-10.4101
▁black	-10.4101
▁Resort	-10.4101
▁Intel	-10.4102
▁Project	-10.4102
▁Automatic	-10.4102
▁ຕື້	-10.4102
▁Stepper	-10.4102
ຊໍາລະ	-10.4102
ຫລວງ	-10.4102
▁flute	-10.4103
▁1.0%	-10.4103
ສູດ	-10.4109
http	-10.411
▁Grade	-10.4112
ຜະ	-10.4129
blast	-10.413
▁Mont	-10.4139
life	-10.414
ການເຊື່ອມໂລຫະ	-10.4141
ille	-10.4145
ຂອງປະເທດ	-10.4149
tti	-10.4165
▁Wide	-10.4172
avi	-10.4172
▁MO	-10.4197
ava	-10.4199
rance	-10.42
ful	-10.4204
234	-10.4218
▁ລາຄາຂອງ	-10.4226
▁OD	-10.4229
graph	-10.4233
ແຕ້ມ	-10.4234
ເງິນສົດ	-10.4248
▁ເຕັກ	-10.4249
ເດີມພັນ	-10.425
ຂົງເຂດ	-10.425
ສະພາບແວດລ້ອມ	-10.425
edlgen	-10.425
uangyan	-10.425
ຊີເອັນຊີ	-10.425
ທອງເຫລືອງ	-10.425
ວຽກເຮັດງານທໍາ	-10.425
ຫຸ່ນຍົນ	-10.425
ຮໍໂມນ	-10.425
▁Bowflex	-10.425
▁Disposable	-10.425
▁Khaki	-10.425
▁Removal	-10.425
▁Scooter	-10.425
▁Security	-10.425
▁ceramic	-10.425
▁elegant	-10.425
▁ນົດ	-10.425
▁Solomons	-10.425
▁USMLE	-10.425
ກຶງ	-10.425
▁Spiral	-10.425
▁Hydro	-10.425
▁Copyright	-10.4251
▁Flexible	-10.4251
▁ຄຸນປະຫຍັດ	-10.4251
▁Electronic	-10.4251
▁Huafu	-10.4252
▁ສີສົ້ມ	-10.4252
▁dresses	-10.4256
▁Joint	-10.4257
▁plus	-10.4259
rot	-10.426
ນັບຕັ້ງແຕ່ປີ	-10.4263
ເລືອກເອົາ	-10.4267
▁ODM	-10.4269
ball	-10.4274
▁ມັນສາມາດ	-10.4276
▁VIP	-10.4277
▁Head	-10.4283
ຢ່າງກວ້າງຂວາງໃນ	-10.4288
▁Porn	-10.4289
▁Ind	-10.4289
1.00	-10.4292
ຄວາມກວ້າງ	-10.4292
▁SEC	-10.4297
630	-10.4301
▁prev	-10.4323
izing	-10.433
ຜູ້ໃຫຍ່	-10.4332
ໄດ້ຖືກນໍາໃຊ້	-10.4341
▁ITS	-10.4341
ຄົ້ນຄວ້າ	-10.4349
550	-10.435
ຈໍາເປັນ	-10.4353
ການແຂ່ງຂັນ	-10.4375
png	-10.4384
ທີ່ແນະນໍາ	-10.4393
ກາດ	-10.4394
hip	-10.4394
330	-10.4395
▁Nc	-10.4396
ປະເມີນ	-10.4401
ຈັດພີມມາ	-10.4401
ກະຈາຍ	-10.4402
ง	-10.4402
ກາງເກງ	-10.4402
ຄວາມຄິດສ້າງສັນ	-10.4402
ຮາດແວ	-10.4402
ໄຟອັນຕລາຍ	-10.4402
▁February	-10.4402
▁Terminal	-10.4402
ເປັນເອກະລັກ	-10.4402
ຢາງພາລາ	-10.4402
▁PayPal	-10.4402
ສືບຕໍ່	-10.4402
ກະຕ່າ	-10.4402
ງານວາງສະແດງ	-10.4405
ຖົ່ວ	-10.4407
ໄປສູ່	-10.4408
ດູ	-10.4408
▁Flex	-10.4409
ພາກໃຕ້	-10.441
ພອດ	-10.4416
້ອນ	-10.4416
▁ເລັດ	-10.4416
race	-10.4417
▁Cast	-10.4418
▁TOP	-10.4423
ທໍາລາຍ	-10.4424
▁(3)	-10.4424
ພະແນກ	-10.4435
3.1	-10.4437
▁Sealed	-10.4437
ຫຼັງຈາກນັ້ນ	-10.4438
▁PLA	-10.4438
▁Solid	-10.4439
ພໍ	-10.444
▁View	-10.4445
days	-10.4446
▁Job	-10.4447
ova	-10.4455
▁add	-10.4458
spir	-10.4461
▁Rack	-10.4474
elated	-10.4486
ສະຕິ	-10.449
ເປັນຫນຶ່ງໃນ	-10.4494
260	-10.4497
▁ເມວ	-10.4497
138	-10.45
ພະນັນ	-10.4511
ຜິວຫນັງ	-10.4513
▁850	-10.4517
ຄໍາວ່າ	-10.4528
hoo	-10.453
edu	-10.4536
lle	-10.4551
ລໍາໂພງ	-10.4556
ກະເບື້ອງ	-10.4556
ຄ່າທໍານຽມ	-10.4556
ວັດຖຸດິບ	-10.4556
▁Supply	-10.4556
▁Welded	-10.4556
▁distribut	-10.4556
▁Channel	-10.4556
▁spindle	-10.4556
▁Needle	-10.4556
▁microfiber	-10.4556
ສະເປນ	-10.4556
▁Collection	-10.4556
▁Team	-10.4556
ກົນຈັກ	-10.4557
ເສັ້ນປະກອບ	-10.456
via	-10.4565
▁ຄວາມລະອຽດ	-10.4567
▁Paul	-10.4571
▁under	-10.4573
▁Roman	-10.4578
ເຊື່ອມຕໍ່ກັບ	-10.4578
SGD	-10.4581
ເພີ່ມເຕີມກ່ຽວກັບ	-10.4583
ຝ້າຍ	-10.4583
MAN	-10.4586
▁CRM	-10.4588
ດອກໄມ້	-10.459
▁Tank	-10.4591
ພ້ອມກັບ	-10.4594
▁Fitting	-10.4597
ິ່ງ	-10.4601
ແນວຄວາມຄິດ	-10.4603
ຕົວເລືອກ	-10.4605
▁Flow	-10.4608
▁data	-10.4608
cept	-10.4609
ຂອງລາວ	-10.4609
▁their	-10.4635
ການສູນເສຍ	-10.4644
duction	-10.4645
▁MAC	-10.4646
ຟ້າ	-10.4648
band	-10.4649
email	-10.4665
▁ໄຂ	-10.4673
ໂດຍໃຊ້	-10.4675
ການຕິດຕໍ່	-10.4676
ຕານ	-10.4685
-90	-10.4689
ບໍ່ຈໍາກັດ	-10.4695
▁Chen	-10.4697
▁EU	-10.4701
ທ່າ	-10.4708
ໃດກໍ່ຕາມ	-10.4711
▁ດັ່ງ	-10.4712
field	-10.4712
ຖ່ານ	-10.4712
ຂົວ	-10.4712
ຊັບສິນ	-10.4712
▁ຢ່າງໃດກໍຕາມ	-10.4712
ຟື້ນຟູ	-10.4712
▁JACKPOT	-10.4712
▁Mubarak	-10.4712
▁Teflon	-10.4712
▁Wallpaper	-10.4712
ໃນຕອນທ້າຍ	-10.4712
ຊີມັງ	-10.4712
▁Hangzhou	-10.4712
▁WIFI	-10.4712
ກອບເປັນຈໍານວນ	-10.4712
▁program	-10.4713
ຫມາຍຄວາມວ່າ	-10.4713
ໄດ້ຮັບການດາວໂຫຼດ	-10.4715
▁Heroes	-10.4716
DKK	-10.4717
ມາຮອດ	-10.4722
▁Fort	-10.4722
4.0	-10.4722
fol	-10.4744
5.00	-10.4749
▁Kies	-10.4751
▁Band	-10.4752
▁From	-10.4762
ຂອບ	-10.4762
ຄວາມຖີ່	-10.4771
~	-10.4772
▁Match	-10.4772
▁ວັນທີ່	-10.4773
▁720	-10.4785
ຫາກ	-10.4789
ຕໍ່າ	-10.4792
▁Clip	-10.4793
uv	-10.4794
Free	-10.4796
rafts	-10.4809
▁God	-10.4821
▁Phil	-10.4826
duct	-10.4834
gue	-10.4838
ເບກ	-10.4847
▁Silicon	-10.4855
▁ຊອກ	-10.4864
່ຽງ	-10.4866
▁hydro	-10.4869
ດຶງ	-10.4869
refinecolor	-10.487
ສະຖິຕິ	-10.4871
ຕົວຫນ່ຽວນໍາ	-10.4871
ຖະຫນົນຫົນທາງ	-10.4871
▁Affiliate	-10.4871
ກາຊວນ	-10.4871
▁Indicator	-10.4871
▁Container	-10.4871
ໂດເມນ	-10.4871
▁Webcam	-10.4871
world	-10.4871
ຂອງຂວັນ	-10.4871
084.2	-10.4871
▁Pallet	-10.4871
▁SQL	-10.4871
Catalogue	-10.4871
ມົນຕີ	-10.4871
ແຮງງານ	-10.4872
search	-10.4872
▁SGS	-10.4872
▁Update	-10.4873
▁Music	-10.4874
▁Taxi	-10.4874
▁HDPE	-10.4874
ຈະແຈ້ງ	-10.4875
▁urea	-10.4875
ສະຖານ	-10.4877
▁ATV	-10.4877
ສ້າງຕັ້ງຂຶ້ນໃນປີ	-10.4877
▁Spray	-10.4877
▁ລະຫັດການເງິນ	-10.4878
ຫ້ອງທົດລອງ	-10.4881
ແຄມ	-10.4883
ລະດູ	-10.4884
ຮູ້ວ່າ	-10.4886
ຫມາຍເລກ	-10.4889
▁5.5	-10.489
ການປັບປຸງໂດຍ	-10.4892
ສ່ວນໃຫຍ່ແມ່ນ	-10.4892
▁Punching	-10.4892
ograph	-10.4893
ໄດ້ຢ່າງງ່າຍດາຍ	-10.4893
▁Maker	-10.4898
ເຮັດແນວໃດ	-10.4898
ມີປະສົບການ	-10.4911
ໃນຕະຫຼາດ	-10.4913
▁Town	-10.4914
▁Pack	-10.4918
▁Prep	-10.492
ທີ່ກ່ຽວຂ້ອງກັບ	-10.4924
ດັ່ງນັ້ນ	-10.493
coc	-10.4931
▁Lake	-10.4932
ໂຫລດ	-10.4938
°	-10.4944
omi	-10.4949
ogen	-10.4951
▁QC	-10.4952
ສູນເສຍ	-10.4953
ມັນແມ່ນ	-10.4968
▁8.1	-10.4972
ເຄື່ອງໃຊ້	-10.4975
ITE	-10.4978
event	-10.4984
ທາຍ	-10.4987
ທີສອງ	-10.5016
005	-10.5018
ຸ່ມ	-10.502
ຄວາມແມ່ນຍໍາ	-10.5028
▁ບັນທຶກທັງ	-10.5031
м	-10.5032
ຢ່າງວ່ອງໄວ	-10.5032
ເອົາໃຈໃສ່	-10.5032
ເມັກຊິໂກ	-10.5032
▁Battery	-10.5032
▁Koowheel	-10.5032
▁ethereum	-10.5032
▁favorite	-10.5032
▁ຂໍ້ມູນຈໍາເພາະ	-10.5032
ว	-10.5032
▁CRASH	-10.5032
▁Laptop	-10.5032
▁UAE	-10.5032
▁Layer	-10.5033
▁ໄວລຸ້ນ	-10.5034
ຫວານ	-10.5035
6.5	-10.5038
text	-10.5039
ເຊັ່ນດຽວກັນ	-10.5041
ບົດຮຽນ	-10.5049
▁ITALIAN	-10.5049
▁SEK	-10.5051
aster	-10.5061
ດ້ວຍຕົນເອງ	-10.5063
ຖົງຂີ້ເຫຍື້ອ	-10.5071
▁hero	-10.5072
ວາງແຜນ	-10.5073
-2016	-10.5073
▁Cup	-10.5074
▁ຊື່ຍີ່ຫໍ້	-10.5078
ທົ່ວ	-10.5081
ຄວາມສາມາດໃນ	-10.5086
ຄວາມຍາວ	-10.5087
້ອຍ	-10.509
▁Sex	-10.51
▁360	-10.5101
▁Jia	-10.511
ຕົວກອງ	-10.5113
▁ເອົາຮູບ	-10.5113
ໃນລະດັບ	-10.5114
▁Lace	-10.5117
ກູໂກ	-10.5118
ທັບ	-10.514
▁0.15	-10.5142
▁Mail	-10.515
▁140	-10.5164
▁Uni	-10.5176
ism	-10.518
Chang	-10.518
▁Hong	-10.5185
ຄົນອື່ນ	-10.5192
ລະບຸ	-10.5195
ຮຸນແຮງ	-10.5196
ສະຫຼຸບ	-10.5196
ໂຮງຫມໍ	-10.5196
SERIES	-10.5196
Ω	-10.5196
ອະດີດ	-10.5196
▁Canvas	-10.5196
▁Coinbase	-10.5196
▁Istanbul	-10.5196
▁LinkedIn	-10.5196
▁Packaging	-10.5196
▁Taffeta	-10.5196
▁Unloader	-10.5196
▁vibrating	-10.5196
ສໍາເນົາ	-10.5196
▁ຈໍານວນຕົວແບບ	-10.5196
▁Azure	-10.5196
uploads	-10.5196
▁Marvel	-10.5196
▁MYR	-10.5196
ຮ້ອງຂໍ	-10.5196
ຂຸມ	-10.5196
▁price	-10.5197
789	-10.5197
▁optic	-10.5197
▁ສົມພອນ	-10.5197
▁Under	-10.52
▁carton	-10.5201
▁ປ່ອງ	-10.5202
ຍ້ອນ	-10.5203
▁Loop	-10.5204
ຄວນຈະ	-10.5204
ຊັ້ນນໍາ	-10.5207
ທາງການແພດ	-10.5208
ທ່ອງ	-10.5214
158	-10.5221
▁Listing	-10.5228
010	-10.525
ຢູ	-10.5264
wear	-10.5264
0-4	-10.5267
228	-10.528
3.0	-10.5281
ນະໂຍບາຍ	-10.5297
[	-10.5298
ທ້າຍ	-10.5298
1-2	-10.5299
ການຄັດເລືອກ	-10.5301
ແກ	-10.5308
ຕຸລາ	-10.5308
▁Wei	-10.5309
ຈັດຕັ້ງປະຕິບັດ	-10.5317
▁bir	-10.5333
▁Mode	-10.5337
ໄຂມັນ	-10.5357
▁ຊ່ຽວ	-10.536
▁ຄຸ້ມ	-10.5361
ສະຫນາມ	-10.5361
ໂຈມຕີ	-10.5362
ກັບຝາ	-10.5362
ທາງເທີງ	-10.5362
▁Generator	-10.5362
▁Mosquito	-10.5362
▁Platform	-10.5362
▁Pronoun	-10.5362
ຂອງທ່ານໃນທຸກ	-10.5363
▁ຄຸນະພາບສູງ	-10.5363
methyl	-10.5363
▁DIY	-10.5364
▁ຂໍ້ກໍາຫນົດ	-10.5364
▁dji	-10.5367
ລູກປືນ	-10.5367
ສາມາດເຮັດໄດ້	-10.5368
ຂໍ	-10.5377
ງ່າຍທີ່ຈະ	-10.538
▁Ub	-10.5382
ໃນມື້ນີ້	-10.5385
ໃດຫນຶ່ງ	-10.5386
ຄອມພິວເຕີ້	-10.5387
ກິດຈະ	-10.5388
direct	-10.5391
▁Wave	-10.5403
▁Patch	-10.5405
▁ສໍາລັບການຂາຍ	-10.5417
ຫນູ	-10.5424
2-3	-10.5425
ຈະໄດ້ຮັບ	-10.543
ປະເທດອັງກິດ	-10.5438
▁Jar	-10.5442
ube	-10.5447
▁2500	-10.5479
ທໍາມະດາ	-10.5479
—	-10.548
195	-10.5486
ລະຫັດຜ່ານ	-10.5487
ຂະຫຍາຍຕົວ	-10.5502
sheng	-10.5506
▁Archive	-10.5512
▁Def	-10.552
ເປົ້າ	-10.5532
ຄິດໄລ່	-10.5532
ຖິ້ມ	-10.5532
ຫົກ	-10.5532
ເຜົາ	-10.5532
ໄຮ້ສາຍ	-10.5532
▁Bohemian	-10.5532
▁COINFLIP	-10.5532
▁Exchange	-10.5532
▁Universal	-10.5532
▁ລາຄາປະກະຕິ	-10.5532
ເຍຍລະມັນ	-10.5532
ຕາລາງ	-10.5532
โ	-10.5532
▁Version	-10.5532
▁software	-10.5532
▁eyelash	-10.5532
▁Medium	-10.5532
piece	-10.5532
ONDA	-10.5532
▁android	-10.5532
▁Money	-10.5532
▁BCEL	-10.5533
▁Basel	-10.5533
xBet	-10.5533
▁HKD	-10.5533
▁Axis	-10.5534
▁Low	-10.5534
▁like	-10.5534
ທ່ານກໍາລັງຊອກຫາ	-10.5536
▁ເມລິ	-10.5536
white	-10.5537
▁ອາດຈະເປັນ	-10.5538
▁Villa	-10.5542
ຂອງພຣະຄຣິດ	-10.5547
▁RUB	-10.555
ການປະກັນໄພ	-10.5559
▁LTE	-10.556
ຈອກ	-10.5564
ການປະມວນຜົນ	-10.5571
1.9	-10.5582
▁ໂດຍລວມ	-10.5583
410	-10.5585
▁page	-10.5588
ລະລາຍ	-10.5592
HQ	-10.56
ການຮັກສາ	-10.5606
▁Ice	-10.561
ລ້ານ	-10.562
ລືອກເອົາທາງເລືອກ	-10.5625
ສະກັດ	-10.5629
▁Side	-10.563
▁Apr	-10.563
ATE	-10.5631
▁108	-10.5633
ສ້າງຕັ້ງຂຶ້ນ	-10.5634
OF	-10.5638
▁Buy	-10.5645
▁any	-10.5646
ການສະຫນອງ	-10.5649
▁Mono	-10.5652
▁cap	-10.5654
006	-10.5665
GHz	-10.5669
▁sur	-10.5674
▁1800	-10.5674
cel	-10.5677
ໂຈ	-10.5678
▁ເຂື່ອນ	-10.568
2013	-10.5682
anzania	-10.5683
Share	-10.5688
▁Gem	-10.569
fold	-10.5692
8.0	-10.5701
ຈານ	-10.5701
you	-10.5701
ล	-10.5704
ຍົກເວັ້ນ	-10.5704
ກຽດ	-10.5704
+00:00	-10.5704
ທຽນຈິນ	-10.5704
ເກົາຫລີ	-10.5704
▁Circular	-10.5704
▁Crystal	-10.5704
▁Development	-10.5704
▁Machining	-10.5704
▁deposit	-10.5704
▁extrusion	-10.5704
	-10.5704
ຈຸດຫມາຍປາຍທາງ	-10.5704
▁Acetate	-10.5704
▁ຄລິບ	-10.5704
ຄູຝຶກ	-10.5704
ທູບ	-10.5704
ລະເບີດ	-10.5704
▁Detector	-10.5704
▁extension	-10.5704
ຄວາມສ່ຽງ	-10.5705
▁ripple	-10.5705
▁Sponge	-10.5705
▁polyester	-10.5705
▁dress	-10.5705
▁2010-2019	-10.5705
▁Social	-10.5706
▁ເບີໂທ	-10.5706
ຈິດໃຈ	-10.5707
▁CBD	-10.5707
ແມ່ພິມ	-10.5712
▁Shell	-10.5717
▁ໃນຖານະເປັນ	-10.5718
▁FRP	-10.5724
nnel	-10.5725
ຕົ້ນໄມ້	-10.5729
ote	-10.5731
ປະທານປະເທດ	-10.5732
▁Ball	-10.5735
ສາມາດຜະລິດ	-10.5736
1.2	-10.5754
ດອນ	-10.5764
▁Product	-10.5765
oxy	-10.5772
ອ້າງ	-10.5781
ura	-10.5785
▁Cool	-10.5788
ski	-10.5793
MPa	-10.5797
ສາດສະຫນາຈັກ	-10.5821
▁Yes	-10.5851
ເອກະຊົນ	-10.5851
och	-10.5854
ກັບຄືນ	-10.5856
0.000	-10.5856
Casino	-10.586
ອຸປະກອນເສີມ	-10.5861
116	-10.5864
ການໂຄສະນາ	-10.5865
media	-10.5866
ກ່ຽວ	-10.5871
▁ປຸງ	-10.5876
ກໍາໄລ	-10.588
ບັງຄັບ	-10.588
ຯ	-10.588
▁Academy	-10.588
▁Webtkco	-10.588
▁guitar	-10.588
ທີ່ເຂັ້ມແຂງ	-10.588
ຫຍິບ	-10.588
ແຫລ່ງ	-10.588
ວີຊ່າ	-10.588
ສິລະປິນ	-10.588
▁Sweater	-10.588
function	-10.588
▁Screen	-10.588
▁Floral	-10.588
ສາຍພານ	-10.588
▁Adele	-10.588
▁CZK	-10.588
▁ຈັດພີມມາໂດຍ	-10.588
source	-10.588
ຕັດສິນໃຈ	-10.5881
ປົກຄອງ	-10.5881
▁LLC	-10.5882
▁Bulb	-10.5883
▁after	-10.5884
ເນື້ອຫາ	-10.5884
▁drone	-10.5884
▁ອິນ	-10.5884
ພົບເຫັນ	-10.5884
RU	-10.5886
▁Chalk	-10.5886
ສອດຄ່ອງກັບ	-10.5887
▁Travel	-10.5893
▁ILS	-10.5894
▁ສະຊອບແວ	-10.5895
▁ຊອບແວທີ່	-10.5895
▁ຄາສິໂນອອນໄລນ໌	-10.5895
▁ຂະຫນາດບັນຈຸ	-10.5897
▁Semi	-10.59
▁Tie	-10.5903
▁Metro	-10.5905
157	-10.591
▁ຫວ	-10.5911
ຜ່ານມາ	-10.5911
ຂາດ	-10.5922
ANG	-10.5927
ປະເທດຝຣັ່ງ	-10.5929
ບ່າ	-10.5931
ທົ່ວປະເທດ	-10.5932
▁ຜູ້ນ	-10.5932
ological	-10.5934
▁mac	-10.5941
▁Guan	-10.5966
cut	-10.5966
▁Lee	-10.5979
▁Guy	-10.5979
ອ້າງອີງ	-10.598
ໃນເຂດ	-10.598
ເຄື່ອງຫມາຍ	-10.5983
▁stud	-10.5991
ຂາຍຮ້ອນ	-10.5994
ລູກຄ້າຂອງພວກເຮົາ	-10.5996
ative	-10.6006
ພາຍໃຕ້ການ	-10.6014
ລົດເມ	-10.6015
ຫຍໍ້	-10.6015
ປະຕິບັດຕາມ	-10.6016
▁var	-10.6037
▁ຍິນ	-10.6045
PDF	-10.6048
ສິ້ນ	-10.6048
ົ່ວ	-10.6049
ຄວາມສົນໃຈ	-10.6055
ຄຸມ	-10.6058
ຊອຟແວ	-10.6058
ປຶກສາຫາລື	-10.6058
ຜ້າຫົ່ມ	-10.6058
ຢືນຢັນ	-10.6058
ປະຕິເສດ	-10.6058
ຫຸ້ມ	-10.6058
▁Firefox	-10.6058
▁Industry	-10.6058
▁January	-10.6058
▁RayHaber	-10.6058
●	-10.6058
ປະທັບໃຈ	-10.6058
ຫິມະ	-10.6058
▁Inverter	-10.6058
▁Safety	-10.6058
▁Equina	-10.6058
▁Paypal	-10.6058
▁Wuxi	-10.6058
▁Cutting	-10.6058
ແມວ	-10.6058
▁servo	-10.6058
▁CANN	-10.6058
▁Reply	-10.6058
ບໍາລຸງຮັກສາ	-10.6059
▁vinyl	-10.6059
▁NEMA	-10.6059
▁MXN	-10.6059
▁ທຸງ	-10.6059
ຈົບການສຶກສາ	-10.6059
▁Prince	-10.6059
▁BRL	-10.6061
▁PLN	-10.6061
ຊ່ວງ	-10.6061
▁August	-10.6061
▁film	-10.6062
ເປີດເຜີຍ	-10.6063
▁Satin	-10.6063
▁what	-10.6064
ຂາຍສົ່ງ	-10.6064
▁ໂປຣ	-10.6065
▁Human	-10.6066
▁Toy	-10.6066
▁0086-57	-10.6068
ອາຈານ	-10.6068
▁Matt	-10.6071
▁Space	-10.6071
ລົດຍົນ	-10.6071
ທຸລະກິດຂະ	-10.6072
ຖັກ	-10.6076
IDE	-10.6081
ຜູ້ໃຫ້ບໍລິການ	-10.6086
ໃຫ້ເຊົ່າ	-10.6087
steel	-10.6088
ວ່າມັນ	-10.6096
▁Copy	-10.6099
ເຫມາະສົມສໍາລັບ	-10.6105
▁580	-10.6108
▁some	-10.6109
ອາບ	-10.6114
▁Wallet	-10.6116
165	-10.6128
▁Raw	-10.614
▁Four	-10.614
ໄດ້ງ່າຍ	-10.6143
▁Neon	-10.6164
▁Downloader	-10.6178
ສາມາດບັນລຸ	-10.6181
ອາຍ	-10.6185
trade	-10.6207
▁del	-10.6224
-05-	-10.6229
ເກືອ	-10.6233
▁Punch	-10.6234
ford	-10.6235
ໂຮ	-10.6239
ໄຫລ່	-10.624
ໃຫ້ແນ່ໃຈວ່າ	-10.624
ເທຣດ	-10.624
Mississippi	-10.624
μ	-10.624
ກະຈົກ	-10.624
ປະຖົມ	-10.624
ພຣະເຢຊູ	-10.624
ພລາສຕິກ	-10.624
ສົດໃສ	-10.624
ອີເມລ໌ໃຫ້ພວກເຮົາ	-10.624
▁Chocolate	-10.624
▁Collecting	-10.624
▁Genotropin	-10.624
▁Messenger	-10.624
▁Sihanoukville	-10.624
▁Vacuum	-10.624
▁Wedding	-10.624
ซ	-10.624
▁fiberglass	-10.624
▁window	-10.624
ລືມ	-10.624
ສີມ່ວງ	-10.624
facebook	-10.624
▁School	-10.624
▁poker	-10.624
shirt	-10.624
Jilin	-10.624
ສະດວກສະບາຍ	-10.624
▁fitting	-10.6241
ໂຄງຮ່າງການ	-10.6241
▁XML	-10.6241
▁ກອງທັບເຮືອ	-10.6241
Static	-10.6241
▁Passport	-10.6242
ຖະຫນົນ	-10.6242
ການທົບທວນຄືນ	-10.6242
ຕົ້ນກໍາເນີດ	-10.6243
▁Instrumental	-10.6245
IAN	-10.6246
ນັກຄົ້ນຄວ້າ	-10.6249
ໂຄງປະກອບ	-10.6253
▁Sharp	-10.6253
ສານເຄມີ	-10.6257
▁Zhen	-10.6262
▁rack	-10.6267
ໃຫ້ກັບ	-10.627
▁Down	-10.6274
▁ເຄື່ອງຕົກແຕ່ງ	-10.6278
▁680	-10.6281
ແປກ	-10.6285
Blog	-10.6286
ຂອງສາດສະຫນາຈັກ	-10.6302
▁ບົດຄວາມທີ່ຜ່ານ	-10.6307
ໄດ້ຮັບລາງວັນ	-10.6308
uj	-10.6323
pitch	-10.6335
ສິ່ງທີ່ທ່ານ	-10.6336
ສະຫຼ	-10.6339
▁Dist	-10.6366
▁Aqua	-10.6373
ເຂົ້າໃນ	-10.6384
rule	-10.6387
ບັງ	-10.6392
▁Mana	-10.6393
chu	-10.6394
▁Nac	-10.6395
ເນີ	-10.6398
Wax	-10.642
▁ນອກຈາກນີ້	-10.6424
ລອດ	-10.6425
ດັ່ງຕໍ່ໄປນີ້	-10.6425
ທີ່ລັບເລັບແມວ	-10.6425
ເຟີນີເຈີ	-10.6425
▁Browser	-10.6425
▁Chloride	-10.6425
▁clarinet	-10.6425
▁tutorial	-10.6425
▁ຄົບຮອບ	-10.6425
▁BONUS	-10.6425
▁Dewatering	-10.6425
▁Foundation	-10.6425
▁Tianjin	-10.6425
▁Youtube	-10.6425
▁tank	-10.6428
1.20	-10.6433
ທີ່ຕ້ອງການ	-10.644
▁need	-10.644
{	-10.6441
ສ້າງຕັ້ງຂຶ້ນໃນ	-10.6441
ປຸ່ມ	-10.6441
ກະທູ້	-10.6442
ແມັດ	-10.6445
ການສົ່ງ	-10.645
/12/	-10.6459
▁Hook	-10.6462
▁roll	-10.6465
mobile	-10.6466
▁Rolling	-10.6468
▁pay	-10.6475
▁Ride	-10.6478
aj	-10.6485
▁Train	-10.6489
▁Mod	-10.6503
▁128	-10.6505
1390	-10.6517
exam	-10.6519
ເປີດຕົວ	-10.6528
▁Matte	-10.6528
▁anti	-10.6553
iga	-10.6556
ປັນ	-10.6557
lp	-10.6566
="0.	-10.6586
rypt	-10.6602
andro	-10.6607
ວິນຍານ	-10.6614
ກ້ຽງ	-10.6614
ວັດຖຸ	-10.6614
ວິສະວະກອນ	-10.6614
▁Nashville	-10.6614
▁Paradise	-10.6614
ຢາເສບຕິດ	-10.6614
ອຸປະຕິເຫດ	-10.6614
ຮາງວັນ	-10.6614
ເຕັບປິ້ງມໍເຕີ	-10.6614
▁Coinfalls	-10.6614
▁Hospital	-10.6614
▁Shepherd	-10.6614
▁insulation	-10.6614
▁ຍື່ນພາຍໃຕ້	-10.6614
▁ອອກຄວາມເຫັນໄດ້	-10.6614
ກົດຫມາຍວ່າດ້ວຍ	-10.6614
▁Oracle	-10.6614
▁inhibit	-10.6614
▁Orange	-10.6614
▁oxford	-10.6614
▁Trimmer	-10.6614
▁Western	-10.6614
▁Silk	-10.6614
ລາຍະການ	-10.6615
▁token	-10.6615
▁wallet	-10.6615
▁Curl	-10.6624
▁ພວກເຮົາຈະ	-10.6625
▁(1,5	-10.6626
ໃຊ້ງານ	-10.6627
ທີ່ຫນ້າສົນໃຈ	-10.6628
ຍົກລະດັບ	-10.6628
ຫຼຸດ	-10.663
ຫັດ	-10.6632
▁ທີ່ຢູ່ເວັບໄຊທ໌	-10.6632
▁porn	-10.6634
▁Mega	-10.6634
ເປັນເວລາ	-10.664
▁Packing	-10.6643
ຕື່ມ	-10.6646
ຜົງ	-10.6648
ປະສົບ	-10.6656
▁para	-10.6659
ເທດ	-10.666
▁ການນໍາສະເຫນີ	-10.6661
asi	-10.6669
APK	-10.6679
ເຄື່ອງຕັດ	-10.6684
ຜົນຜະລິດ	-10.6685
ລ້າ	-10.6689
ລີດ	-10.6699
ມີການປ່ຽນແປງ	-10.671
ເພື່ອເຮັດໃຫ້	-10.6715
▁Ave	-10.6736
ສາຍໄຟ	-10.6738
ude	-10.6747
off	-10.6748
lab	-10.6755
ວັນພັກ	-10.6775
ສໍາລັບທ່ານ	-10.6782
990	-10.6783
ເລນ	-10.6787
ເອີ້ນ	-10.6792
▁ເພື່ອນ	-10.6796
▁Electro	-10.6805
ເພາະວ່າ	-10.6806
ມົນລະພິດ	-10.6806
testosterone	-10.6806
ການຂະຫຍາຍຂົນຕາ	-10.6806
ກ໊ອກນ້ໍາ	-10.6806
ເຮັດຄວາມເຢັນ	-10.6806
▁Munich	-10.6806
▁NINGBO	-10.6806
▁ຊົມເຊີຍ	-10.6806
ໄນໂຕຣເຈນ	-10.6806
▁Friends	-10.6806
▁Insulation	-10.6806
▁ninja	-10.6806
▁which	-10.6806
▁ນອກຈາກນັ້ນ	-10.6806
ສະຫມອງ	-10.6806
▁Pongee	-10.6806
▁Wuhan	-10.6806
▁winding	-10.6806
▁Rooder	-10.6807
▁Dream	-10.6807
▁slots	-10.6807
▁Course	-10.6807
▁GTA	-10.6808
▁ຂ້ອງ	-10.6808
ຖົງປະເພດຂີ້ຝຸ່ນ	-10.681
▁Keygen	-10.681
scape	-10.681
ຊໍາ	-10.6812
▁ຂໍ້ມູນມືຖື	-10.6812
▁webca	-10.6813
▁Grating	-10.6814
▁PLC	-10.6814
▁Angel	-10.6817
▁lego	-10.6819
ເລີດ	-10.6823
ຫມາ	-10.6827
ພຶດສະພາ	-10.6847
▁ແຕ່ວ່າ	-10.6849
ໃບຫນ້າ	-10.6851
▁ສາຍການຜະລິດ	-10.6852
→	-10.6854
Tags	-10.6856
ດັງ	-10.6857
▁Name	-10.6862
▁Dark	-10.6866
ຈິ	-10.6869
gram	-10.6884
126	-10.6888
aya	-10.6894
ຕັ້ງຄ່າ	-10.691
▁0.4	-10.691
china	-10.6913
="4	-10.6947
ສະຫນອງພະລັງງານ	-10.6948
▁Solo	-10.6949
▁How	-10.695
ສອກ	-10.6951
ubb	-10.6973
NET	-10.6978
ູ່	-10.6982
5.6	-10.6999
▁ສຶກ	-10.7
▁ກອງທັບ	-10.7002
ສົງຄາມ	-10.7002
phosph	-10.7002
ຄວາມເສຍຫາຍ	-10.7002
ຄໍາຄິດຄໍາເຫັນ	-10.7002
ຕົ້ມ	-10.7002
ສິ່ງເສດເຫຼືອ	-10.7002
▁Antivirus	-10.7002
▁Conditioner	-10.7002
▁Corporation	-10.7002
▁Ductile	-10.7002
▁Prototype	-10.7002
▁desktop	-10.7002
▁ສະເຕນເລດ	-10.7002
▁Function	-10.7002
▁Plasma	-10.7003
Component	-10.7003
▁FIFA	-10.7005
▁OFF	-10.7005
▁Canon	-10.7005
▁ຫມາຍເຫດ	-10.7005
ຮ້ອຍ	-10.7006
ຮອດ	-10.7006
▁`%.25	-10.7009
▁tube	-10.7009
▁ເດືອນຕຸລາ	-10.701
ສະແຕນເລດສະແຕນເລດ	-10.7012
ຄີ	-10.7013
ເກີນໄປ	-10.7013
#	-10.7014
ແຂ່ງລົດ	-10.7016
ກ່ອນທີ່ຈະ	-10.7022
ຜ້າຝ້າຍ	-10.7022
ວາຍ	-10.7032
ເກດ	-10.7034
ໃນບັນດາ	-10.7036
▁ເລກທີ່	-10.7052
ຖາມ	-10.706
ຢ່າງຕໍ່ເນື່ອງ	-10.7066
▁CWS	-10.7071
▁Ext	-10.7079
ຢູ່ທີ່ນີ້	-10.71
▁CPA	-10.711
ບ່ອນທີ່	-10.7127
▁Market	-10.7151
▁American	-10.7168
ການຮຽນຮູ້	-10.7176
haw	-10.7181
ຢ່າ	-10.7198
ໂຣ	-10.72
ເກົາຫຼີ	-10.7202
ó	-10.7202
ม	-10.7202
ກໍ່ຕັ້ງຂຶ້ນໃນປີ	-10.7202
ປັກກິ່ງ	-10.7202
ສິງກະໂປ	-10.7202
ແຜ່ນດິນໃຫຍ່	-10.7202
▁Cambodia	-10.7202
▁ENERGY	-10.7202
▁Florence	-10.7202
▁Pacific	-10.7202
▁Surface	-10.7202
▁Technical	-10.7202
▁WORLD	-10.7202
google	-10.7202
í	-10.7202
ເຂົ້າຫນົມ	-10.7202
▁STORM	-10.7202
ລົດບັນທຸກ	-10.7202
▁Volume	-10.7202
▁Church	-10.7202
***	-10.7202
▁Bullet	-10.7203
ຄົນພິການ	-10.7203
▁Alloy	-10.7203
▁Extract	-10.7203
▁VPN	-10.7203
▁mol	-10.7203
▁about	-10.7203
▁Active	-10.7204
ຫຼີ້ນການພະນັນ	-10.7204
▁magic	-10.7204
▁crack	-10.7206
ປະສິດທິຜົນ	-10.721
▁ວິທີການຕິດຕັ້ງ	-10.7212
159	-10.7213
ພໍ່	-10.7213
ສົນທະນາສົດ	-10.7215
▁(4)	-10.7226
▁MAG	-10.723
198	-10.7236
▁Face	-10.7237
ຄວາມຜິດພາດ	-10.7245
AIR	-10.7248
▁June	-10.7258
▁call	-10.7263
ລາຍຊື່	-10.7282
4.4	-10.7286
2.2	-10.7288
▁war	-10.7292
106	-10.7292
▁IR	-10.7294
ປະຕິ	-10.7298
ເນັ້ນ	-10.7299
▁Gear	-10.7307
ທາງສັງຄົມ	-10.7315
▁ທໍ່ເຫຼັກ	-10.7335
▁offer	-10.734
ປຸງແຕ່ງ	-10.7348
ສັ່ງຊື້	-10.7353
ພັດທະນາການຜະລິດ	-10.7367
ຫຼາຍໆ	-10.738
Mpa	-10.7389
ເງົາ	-10.7403
▁Ocean	-10.7404
ี	-10.7406
▁MYHH	-10.7406
ກະແສ	-10.7406
ພົນລະເມືອງ	-10.7406
ແຜ່ນໃບຄ້າຍຄື	-10.7406
▁Credit	-10.7406
▁Drifter	-10.7406
▁Michael	-10.7406
▁Spotify	-10.7406
▁Yueqing	-10.7406
▁diaphragm	-10.7406
▁ສີນ້ໍາຕານ	-10.7406
ດັ້ງເດີມ	-10.7407
▁AASraw	-10.7407
▁Harley	-10.7407
▁Texas	-10.7407
▁Dragon	-10.7407
▁Coupon	-10.7407
▁Holder	-10.7407
▁Tesser	-10.7407
▁know	-10.7407
▁(2016)	-10.7407
▁Pcb	-10.7407
▁place	-10.7407
ພໍ່ແມ່	-10.7407
▁ມື້ຄ່ໍາ	-10.7407
▁Certified	-10.7408
ຮ່າງ	-10.7408
▁ກົດປຸ່ມ	-10.7409
ພື້ນເມືອງ	-10.741
ໂດຍຜ່ານການ	-10.7411
ເຄື່ອງໃຊ້ໄຟຟ້າ	-10.7411
4.8	-10.7412
▁Marble	-10.7414
▁most	-10.7417
▁(7)	-10.7418
ການປິ່ນປົວດ້ວຍ	-10.7422
114	-10.7423
lly	-10.7424
ຢູ່ໃກ້	-10.7427
smos	-10.7428
uki	-10.7432
ຊິ້ນສ່ວນ	-10.7436
▁Good	-10.7451
ການບັນທຶກ	-10.7459
ໃຊ້ວຽກ	-10.7465
ສາງ	-10.7467
▁dec	-10.7474
▁ປ່ຽນກັບ	-10.7478
▁£200	-10.7482
ິ້ງ	-10.7487
▁Solution	-10.75
ນິກ	-10.7503
ຈຸລັງ	-10.7503
ລະບົບຕ່ອງໂສ້	-10.7505
ລົດຈັກ	-10.751
ບໍລິສຸດ	-10.7518
ຜະລິດພັນ	-10.754
▁030	-10.756
Photos	-10.7563
gov	-10.7564
ນິດ	-10.7578
ຄວາມພະຍາຍາມ	-10.7587
▁ຕ້ອນ	-10.7613
ຄະແນນ	-10.7615
ຫຼຽນ	-10.7615
ລຽບ	-10.7615
ສັ່ນສະເທືອນ	-10.7615
ສິນເຊື່ອ	-10.7615
ໄສ້	-10.7615
å	-10.7615
ด	-10.7615
ການເຊື່ອມໂຍງ	-10.7615
ທາງສ່ວນຫນ້າຂອງ	-10.7615
ເປື້ອນ	-10.7615
▁2.6.4.16113	-10.7615
▁Filament	-10.7615
▁Initiative	-10.7615
ແຫຼວ	-10.7615
▁Huawei	-10.7615
▁ໂທຣຫາພວກເຮົາ	-10.7615
Frozen	-10.7615
ຫມູ່ເພື່ອນ	-10.7615
▁Domain	-10.7615
ຂ້າງລຸ່ມນີ້	-10.7615
▁Medical	-10.7615
▁protected	-10.7615
▁Penny	-10.7617
▁TCP	-10.7617
▁Aprilia	-10.7618
ນັກລົງທຶນ	-10.7619
ໃນໄລຍະຍາວ	-10.7619
ຮອຍ	-10.7622
ຫຼວງ	-10.7624
▁gold	-10.7624
ແຕກຕ່າງກັນ	-10.7624
ຄຸນລັກສະນະ	-10.7626
▁ໂກງ	-10.7631
Cheng	-10.7635
ແຜນງານ	-10.7635
▁Slide	-10.7638
ຈັດຂຶ້ນ	-10.7641
ຄູ່ຮ່ວມງານ	-10.7642
ພັດທະນາໂດຍ	-10.7644
▁CEO	-10.7649
ມວນ	-10.7651
▁IOS	-10.7651
ເປັນຈິງ	-10.7655
▁rod	-10.7666
▁Rocker	-10.7671
gmail	-10.7678
ການປຸງແຕ່ງ	-10.7679
ຫ້ອງນອນ	-10.7679
ທີ່ທ່ານຕ້ອງການ	-10.7698
free	-10.7699
ຈໍ	-10.7725
ຄວາມອາດສາມາດ	-10.7733
product	-10.7735
ຂໍຂອບໃຈ	-10.7738
ປິ່ນປົວ	-10.7743
▁Hex	-10.775
ລວມມີ	-10.7765
ສະຖານະ	-10.7796
ປະເພດຂີ້ຝຸ່ນ	-10.7801
▁Optic	-10.7814
ສະຫນອງໃຫ້	-10.7816
▁ຄົ້ນ	-10.7819
ປືນ	-10.7822
ທົດລອງ	-10.7824
ກໍາເນີດ	-10.7825
ຂໍ້ຕົກລົງ	-10.7828
ສະນຸກເກີ	-10.7828
ຫໍສະຫມຸດ	-10.7828
▁Energy	-10.7828
▁Membrane	-10.7828
▁Previous	-10.7828
▁Private	-10.7828
▁Purifier	-10.7828
ສ້ອມແປງ	-10.7828
ຫນັງສືຜ່ານແດນ	-10.7828
ເຫລົ້າ	-10.7828
▁CHINA	-10.7828
ແຖວ	-10.7828
▁Patrick	-10.7828
ຕຶກ	-10.7828
▁ITIL	-10.7828
▁hosting	-10.7828
▁Concept	-10.7828
▁money	-10.7828
▁cardboard	-10.7828
screen	-10.7828
▁Letter	-10.7828
▁Killer	-10.7828
▁Malta	-10.7828
▁ຍິ່ງ	-10.7828
▁german	-10.7829
▁Enfield	-10.7829
ຍອດນິຍົມ	-10.7829
▁charter	-10.7831
▁25%	-10.7833
ເຮັດຄວາມສະອາດ	-10.7834
▁when	-10.7838
ຟີ	-10.784
▁0.18	-10.7842
ພາຍໃນປະເທດ	-10.7853
▁ການວາງສະແດງ	-10.7856
▁char	-10.7859
ສະຖານະການ	-10.7861
▁forex	-10.7861
▁Demo	-10.7862
Check	-10.7864
▁PIE	-10.7867
່ອມ	-10.7871
ບໍ່ພຽງແຕ່	-10.7885
▁ຄວາມສາມາດໃນການ	-10.7885
▁leg	-10.7888
tract	-10.7891
▁Chuan	-10.7892
▁80%	-10.7896
ປະຈໍາວັນ	-10.7915
▁say	-10.7941
▁his	-10.7961
ໃນເອີຣົບ	-10.7962
▁Gray	-10.7963
ຍິນດີຕ້ອນຮັບ	-10.7966
ການຫຼຸດຜ່ອນ	-10.7966
ຟາ	-10.7967
ika	-10.7977
ຫລັບ	-10.7978
ນາທີ	-10.7987
Bank	-10.8
ຄັດເລືອກ	-10.8002
HAN	-10.8008
▁2.2	-10.801
▁File	-10.8019
▁Stud	-10.8031
▁Colle	-10.8033
ຫະພາບເອີຣົບ	-10.8035
▁Sky	-10.8044
ທ່ານຈະໄດ້ຮັບ	-10.8044
ส	-10.8045
ເອກະລາດ	-10.8045
ການຈະລາຈອນ	-10.8045
ກຽວ	-10.8045
ພີກເຊລ	-10.8045
ຢ້ານ	-10.8045
▁Association	-10.8045
▁Composite	-10.8045
▁Frequency	-10.8045
▁HANUMAN	-10.8045
▁WeChat	-10.8045
▁WebTalK	-10.8045
▁altcoin	-10.8045
ການແຜ່ກະຈາຍ	-10.8045
ກ໊າຊ	-10.8045
ຫຸ້ນ	-10.8045
ເຣັກ	-10.8045
▁Decoiler	-10.8045
▁support	-10.8045
ທູດ	-10.8045
▁Gallery	-10.8045
▁People	-10.8045
▁should	-10.8045
ວິໄສທັດ	-10.8045
ອ້າຍ	-10.8045
▁Valley	-10.8045
ສະໂມສອນ	-10.8045
▁ເຍຍ	-10.8045
Ribbon	-10.8045
▁WebTK	-10.8045
▁nylon	-10.8045
▁Brown	-10.8045
ລວດຕາຂ່າຍ	-10.8046
▁piano	-10.8046
ປະຊາກອນ	-10.8046
▁class	-10.8046
ພຽງພໍ	-10.8046
▁Candle	-10.8046
▁tips	-10.8046
ເທື່ອ	-10.8046
▁Longgang	-10.8046
▁tower	-10.8046
ເຕັກນິກ	-10.8047
▁Without	-10.8047
▁Tips	-10.8047
OWER	-10.8048
ທ໌	-10.8048
▁ຕອບຫຼ້າສຸດ	-10.8049
▁cyclone	-10.8051
▁ວັນອາທິດ	-10.8056
ປະທານອາຫານ	-10.8057
▁foil	-10.8059
ແກັດ	-10.806
▁DRK	-10.8061
eph	-10.8065
▁VCI	-10.8065
ອຸປະກອນການກໍາຈັດ	-10.8066
ຂະຫນາດກາງ	-10.8068
▁Study	-10.8071
▁Shun	-10.8072
▁Training	-10.8074
ຕອນນີ້	-10.8077
▁take	-10.808
▁want	-10.8082
▁Ud	-10.8083
ເຫຼັກກາກບອນ	-10.8094
▁chip	-10.8118
▁1.4	-10.8132
obi	-10.8151
php	-10.8152
ຄວາມເຂົ້າໃຈ	-10.819
Unthank	-10.8203
	-10.8205
ອາຄານ	-10.8207
▁neuro	-10.8209
ຕໍ່ປີ	-10.8224
ທິດທາງ	-10.8229
ການວາງແຜນ	-10.8231
▁test	-10.8238
▁ຕໍ	-10.8245
▁!!	-10.8248
ເຊົ້າ	-10.826
ສົ້ມ	-10.8264
ຈົບ	-10.8266
д	-10.8267
ເຕີບໂຕ	-10.8267
ແນວໂນ້ມ	-10.8267
192.168.	-10.8267
à	-10.8267
ສະຖຽນລະພາບ	-10.8267
ອອກກໍາລັງກາຍ	-10.8267
ໂອລິມປິກ	-10.8267
ы	-10.8267
ຂຸດເຈາະ	-10.8267
ລະເຫີຍ	-10.8267
ເດືອນສິງຫາ	-10.8267
ເຕົ່າ	-10.8267
ແລະມີຄົນຫຼິ້ນໃນ	-10.8267
▁BORDER	-10.8267
▁Embroidery	-10.8267
▁Rokytnice	-10.8267
▁Skateboard	-10.8267
▁brushless	-10.8267
▁equine	-10.8267
▁ຈຸດເດັ່ນ	-10.8267
▁ຕົມ	-10.8267
🔥	-10.8267
▁HTML	-10.8267
▁Yuyao	-10.8267
▁shelf	-10.8267
ເດືອນເມສາ	-10.8267
▁Focus	-10.8267
▁Health	-10.8267
▁ຈາກຫຼືໄປ	-10.8267
▁Drawing	-10.8267
ການປະມູນ	-10.8267
▁SHOW	-10.8267
▁});	-10.8267
▁LIVE	-10.8267
▁chloride	-10.8267
▁ECHO	-10.8268
▁Rangers	-10.8268
▁ກວດເບິ່ງ	-10.8268
▁Lady	-10.8268
ຮ່ອງກົງ	-10.8269
▁Pouch	-10.8269
▁Jiang	-10.8269
▁RFID	-10.8269
▁help	-10.827
▁every	-10.8271
▁Brass	-10.8272
່ວງ	-10.8272
ອາຫານເຊົ້າ	-10.8275
▁CHAMPIONSHIPS	-10.8276
ທາງເພດ	-10.8279
ປະຕູຮົ້ວ	-10.8281
▁ແມ່ນຖືກຕ້ອງ	-10.8285
▁ດຽວນີ້	-10.8285
ໂທລະທັດ	-10.8285
▁Alex	-10.8286
berry	-10.829
▁Shop	-10.829
ແຊກ	-10.8294
▁full	-10.8298
ຕາມຄວາມຕ້ອງການ	-10.8298
▁Peach	-10.8298
ເລຍ	-10.8304
▁Miss	-10.8305
▁Deep	-10.8311
stock	-10.8316
▁doll	-10.8316
ຜົນສໍາເລັດ	-10.834
▁Blast	-10.8343
6.2	-10.8353
▁than	-10.8356
ບໍ່ເຄີຍ	-10.8368
▁Resi	-10.8369
jia	-10.8375
ngo	-10.8386
▁trac	-10.8393
uses	-10.8408
▁Your	-10.8409
9.99	-10.8417
▁86-13	-10.8432
ປື້ມບັນ	-10.8437
ເຄື່ອງນຸ່ງຫົ່ມ	-10.8447
ນໍາເຂົ້າ	-10.8453
▁plan	-10.847
ທ້າທາຍ	-10.8494
ອູແກຣນ	-10.8494
ก	-10.8494
б	-10.8494
Asbestos	-10.8494
ຍົກເລີກ	-10.8494
ໃນຕອນກາງຄືນ	-10.8494
▁Cleaning	-10.8494
▁Florida	-10.8494
▁Inductor	-10.8494
▁Selfie	-10.8494
▁Thomas	-10.8494
▁eBook	-10.8494
▁halloween	-10.8494
▁ຜົງດິບ	-10.8494
commerce	-10.8494
▁December	-10.8494
▁Ethernet	-10.8494
▁coffee	-10.8494
▁sensor	-10.8494
▁ເພິ່ມ	-10.8494
▁ອອນໄລນ	-10.8494
▁Rabies	-10.8495
▁HBOT	-10.8495
▁ສື່ສັງຄົມ	-10.8495
▁Alpha	-10.8495
▁Cisco	-10.8495
ວິທະຍາເຂດ	-10.8495
ການກະກຽມ	-10.8495
▁single	-10.8495
nforced	-10.8496
▁series	-10.8496
▁Deals	-10.8497
body	-10.8497
▁Lucks	-10.8498
ຮ່ວມເພດ	-10.8498
▁ເນື່ອງຈາກວ່າ	-10.8499
▁iphone	-10.8499
▁ຕອບທີ່ຢູ່	-10.85
Organ	-10.8501
ປະຕິວັດລາວ	-10.8503
▁India	-10.8505
ຈອດ	-10.8505
▁ຂາຍແລ້ວ	-10.8505
ຕິດຕາມກວດກາ	-10.8507
Element	-10.8507
▁ເຢ	-10.8511
▁Xiao	-10.8511
▁(5)	-10.8515
127	-10.8515
▁Saga	-10.8518
12345	-10.852
-201	-10.8524
▁ລະຫັດສິນຄ້າ	-10.8531
ລົງທຶນ	-10.8535
ທີ່ມີຊີວິດ	-10.8537
▁Geo	-10.8545
ified	-10.855
ension	-10.8555
point	-10.86
ປະກົດ	-10.8602
ສະສົມ	-10.8606
ໄດ້ເລີ່ມຕົ້ນ	-10.8629
ຮູບລັກສະນະ	-10.8675
ຜິດພາດ	-10.8677
ນິ້ວ	-10.8698
Player	-10.8699
ພາສາລາວ	-10.8714
▁part	-10.8716
▁ໄຟລ	-10.8721
ກວ້າງຂວາງ	-10.8724
ກໍາຫນົດ	-10.8725
ຕັດສິນ	-10.8726
ຮຽກຮ້ອງ	-10.8727
ງົບປະມານ	-10.8727
ແທັບເລັດ	-10.8727
Commerce	-10.8727
esulphurization	-10.8727
ກະປ໋ອງ	-10.8727
ກໍາປູເຈຍ	-10.8727
ຈົນກ່ວາ	-10.8727
ພຣະຜູ້ເປັນເຈົ້າ	-10.8727
ອັນຕະລາຍ	-10.8727
ແຈກຢາຍ	-10.8727
▁Capacitor	-10.8727
▁Petersburg	-10.8727
▁Streaming	-10.8727
▁features	-10.8727
▁pixels	-10.8727
▁ນົກ	-10.8727
▁Protector	-10.8727
▁ເຕິມ	-10.8727
▁Adobe	-10.8727
▁Olymp	-10.8727
ability	-10.8727
▁Directory	-10.8727
Methyl	-10.8727
▁Laminate	-10.8727
▁Pharma	-10.8728
▁shaft	-10.8728
▁photo	-10.8728
▁Geocon	-10.8728
▁Zhenhai	-10.8728
▁Search	-10.8728
▁TGG	-10.8729
▁April	-10.8729
▁ຕິດຕໍ່ພົວພັນ	-10.8729
ຫາຍໃຈ	-10.873
ເກີດຂື້ນ	-10.8731
▁URL	-10.8732
▁ຫນົມ	-10.8733
▁Short	-10.8735
ແທນທີ່ຈະ	-10.8736
▁Shock	-10.8736
▁ສະຫະພາບເອີຣົບ	-10.8738
ພ້ອມດ້ວຍ	-10.8741
power	-10.8744
ຊ້າງ	-10.8746
8.5	-10.8753
▁today	-10.8757
ພັກປະຊາຊົນ	-10.8763
iva	-10.8771
ໃຫ້ເຂົາເຈົ້າ	-10.878
▁elect	-10.878
ປົກປ້ອງ	-10.8784
ທີ່ປຶກສາ	-10.8796
▁90%	-10.8802
ແນະນໍາໃຫ້	-10.8809
▁ວັ	-10.881
omics	-10.8811
ມີຄວາມເຂັ້ມແຂງ	-10.884
▁Step	-10.8853
▁Window	-10.8854
ເຄື່ອນໄຫວ	-10.8896
ຂ້າ	-10.895
casino	-10.8955
ອາບນ້ໍ	-10.8963
ຄວາມຮັບຜິດຊອບ	-10.8964
ຜູກ	-10.8965
ກັງວົນ	-10.8965
ບັນເທີງ	-10.8965
ວັດແທກ	-10.8965
ສະເຫຼີມສະຫຼອງ	-10.8965
▁59.0.30	-10.8965
中	-10.8965
Midwest	-10.8965
ເກືອບທຸກຮູບຮ່າງ	-10.8965
ເຂົ້າຫນົມອົມ	-10.8965
▁Controller	-10.8965
▁Dariussssss	-10.8965
▁Guzzi	-10.8965
▁Melbourne	-10.8965
▁Walmart	-10.8965
▁jailbreak	-10.8965
▁ທ້າວ	-10.8965
▁ຟລີໂຄ້ດ	-10.8965
	-10.8965
peptide	-10.8965
▁Therapy	-10.8965
▁ຜິດຖຽງດາວ	-10.8965
▁ກິໂລແມັດ	-10.8965
▁Yinzhou	-10.8965
▁Anchor	-10.8965
▁Silver	-10.8965
▁National	-10.8965
▁Lotus	-10.8965
▁York	-10.8966
church	-10.8966
▁hyper	-10.8966
Davidson	-10.8967
ໂຟ	-10.8967
ສົບຜົນສໍາເລັດ	-10.8967
▁Teen	-10.8968
▁mount	-10.8969
▁Large	-10.8969
▁MOQ	-10.8969
5.2	-10.897
▁ຕົນ	-10.8971
▁ແຜ່ນມຸງ	-10.8972
▁Baby	-10.8972
▁drum	-10.8974
▁ສາຍການໃຫ້ອາຫານ	-10.8975
▁ຊີ້ນ	-10.8977
▁ຄໍາອະທິບາຍ	-10.8977
▁hover	-10.8986
▁alto	-10.8987
▁ກົດເບິ່ງ	-10.8988
▁Dollar	-10.8989
▁Radio	-10.8995
ໂທລະເລກ	-10.8997
▁big	-10.9008
ຮັບຮອງເອົາ	-10.902
fiber	-10.902
▁86-574-8	-10.9024
107	-10.9032
OUT	-10.9038
▁Hero	-10.9039
ເຂດພື້ນທີ່	-10.9052
ແບບບໍ່ມີ	-10.907
ຄວາມຫມາຍ	-10.9088
▁Rui	-10.9155
▁ຫມໍ	-10.9161
hack	-10.9163
6.3	-10.9181
ແທ້ຈິງ	-10.9182
ມັງກອນ	-10.9183
▁ທົດ	-10.9208
ຖາວອນ	-10.9209
ເຄື່ອນຍ້າຍ	-10.9209
ຢ່າງເຕັມສ່ວນ	-10.9209
Ö	-10.9209
ห	-10.9209
ການໂຕ້ຕອບ	-10.9209
ຄອນກີດ	-10.9209
ຄາບອນ	-10.9209
ຈັນຍາບັນ	-10.9209
ຊະອານາຈັກ	-10.9209
ເຫຼົ້າ	-10.9209
ໃນປະເທດໄທ	-10.9209
▁Asphalt	-10.9209
▁BANGKOK	-10.9209
▁Cordura	-10.9209
▁Explore	-10.9209
▁Kharkiv	-10.9209
▁September	-10.9209
▁people	-10.9209
▁ບ່ອນຈອດລົດ	-10.9209
▁ວັນພຸດ	-10.9209
ຜູ້ຊົມໃຊ້	-10.9209
ຫມໍ້ຫຸງຕົ້ມ	-10.9209
▁Bioproducts	-10.9209
▁Broker	-10.9209
▁Inkjet	-10.9209
▁WinRAR	-10.9209
▁Fitness	-10.9209
▁Somphone	-10.9209
▁course	-10.9209
▁Voice	-10.9209
▁resources	-10.9209
youtube	-10.9209
ນຶກ	-10.9209
▁FIDH	-10.9209
▁Jumper	-10.9209
▁Spider	-10.9209
ການເລືອກຕັ້ງ	-10.9209
▁account	-10.921
▁Harem	-10.921
▁Proxy	-10.921
▁ຊ່າງ	-10.921
▁ultra	-10.921
▁static	-10.921
▁Sports	-10.9211
▁ລ້ານໂດລາ	-10.9212
▁Cabin	-10.9214
▁Compact	-10.9215
▁ງໍ	-10.9215
ຄວາມແມ່ນຍໍາສູງ	-10.9216
1-4	-10.9216
▁unlock	-10.9216
▁Brand	-10.9218
▁ເຄື່ອງພິມກາເຟ	-10.9221
▁Cinema	-10.9223
ທຸກປະເພດຂອງ	-10.9225
ບັນຈຸພັນ	-10.9231
▁Tattoostattoos	-10.9232
9.1	-10.9234
▁ສອບຖາມຂໍ້ມູນ	-10.9238
▁Martin	-10.9243
ແຕະ	-10.9244
▁Grill	-10.9245
ບອດ	-10.9246
▁now	-10.9256
▁Room	-10.9265
ແຂ່ງຂັນ	-10.9265
▁sight	-10.9274
ຄັງ	-10.9281
ໄຮໂດຼລິກ	-10.9286
▁HTC	-10.9292
edici	-10.9293
▁2.3	-10.93
▁nitr	-10.9302
ເຄື່ອງພິມດິຈິຕອນ	-10.9321
▁Life	-10.9329
ໃນເວລາທີ່ທ່ານ	-10.9377
▁sale	-10.9386
ວາງສະແດງ	-10.9429
ເກີ	-10.9458
ຕາຂ່າຍ	-10.9458
public	-10.9459
ແຂກ	-10.9459
.05.2018	-10.9459
я	-10.9459
ບັນນາທິການ	-10.9459
ປັດໄຈ	-10.9459
ອາພາດເມັນ	-10.9459
ອ້າງອິງ	-10.9459
ເພີດເພີນ	-10.9459
ແຍກຕ່າງຫາກ	-10.9459
້ຽວ	-10.9459
▁(2014)	-10.9459
▁Beroean	-10.9459
▁Gelatin	-10.9459
▁Gibbs	-10.9459
▁Nickelodeon	-10.9459
▁Pickets	-10.9459
▁Rainbow	-10.9459
▁Thunderstruck	-10.9459
▁Vertical	-10.9459
▁corrosion	-10.9459
▁prototype	-10.9459
▁through	-10.9459
▁ຈອງຕົ໋ວ	-10.9459
ປຶ້ມ	-10.9459
ພິພິທະພັນ	-10.9459
ວິຊາຊີບ	-10.9459
ເທກນິກ	-10.9459
▁Zombie	-10.9459
ຊຸບ	-10.9459
▁profile	-10.9459
▁Meleti	-10.9459
ເຄື່ອງປັບອາກາດ	-10.9459
▁[...]	-10.9459
▁Javascript	-10.946
ສະກູ	-10.946
▁Remote	-10.946
▁ການສົ່ງເສີມການ	-10.9461
ຫລັງຄາ	-10.9461
Region	-10.9462
▁Pants	-10.9462
▁month	-10.9463
ເລັ່ງ	-10.9463
▁Spool	-10.9466
ຟາຍ	-10.9467
▁Decker	-10.9467
.03.20	-10.9467
▁villa	-10.9471
metal	-10.9473
studio	-10.9485
ຕອງ	-10.9488
Bags	-10.9505
ຜົນກະທົບຕໍ່	-10.953
163.	-10.9531
▁Archiv	-10.9566
ຜົນໄດ້ຮັບ	-10.9575
▁ພວກເຮົາມີຄວາມ	-10.9593
space	-10.9596
luck	-10.9597
ເພື່ອໃຫ້ໄດ້ຮັບ	-10.9601
bike	-10.9647
ອ່ານຕໍ່	-10.9671
▁ປ້າຍໂຄສະນາ	-10.9674
fort	-10.9689
drive	-10.9692
Logo	-10.9713
ປະຫວັດ	-10.9714
ອິນໂດເນເຊຍ	-10.9715
ລໍຖ້າ	-10.9715
ຫລິ້ນ	-10.9715
ມາເລເຊຍ	-10.9715
ສະທ້ອນ	-10.9715
Sprinkler	-10.9715
ຫລ້າສຸດ	-10.9715
ເບຢ້ຽມ	-10.9715
ເສັ້ນດ້າຍ	-10.9715
ໄວຣັສ	-10.9715
▁770-872-7978	-10.9715
▁Bajaj	-10.9715
▁CAPTCHA	-10.9715
▁JavaScript	-10.9715
▁MACHINE	-10.9715
▁Minneapolis	-10.9715
▁Multifunctional	-10.9715
▁Vivlon	-10.9715
▁mFortune	-10.9715
▁pizza	-10.9715
▁ນໍາທິດສະນີ	-10.9715
▁ມົນທົນກວາງຕຸ້ງ	-10.9715
▁ເງື່ອນ	-10.9715
▁(2012)	-10.9715
▁scratch	-10.9715
▁Seamless	-10.9715
ເງິນກູ້	-10.9715
▁LASER	-10.9715
▁stairs	-10.9715
▁Visual	-10.9716
▁ComPro	-10.9716
▁Foshan	-10.9716
ommerical	-10.9716
▁ເທົາ	-10.9716
▁TEAM	-10.9716
▁ເສື້ອຍືດ	-10.9716
ا	-10.9716
어	-10.9716
ິດທິພາບສູງ	-10.9716
▁Jerry	-10.9716
▁JPG	-10.9716
▁ສາທາລະນະລັດ	-10.9716
▁Denim	-10.9716
ຜູກມັດ	-10.9716
school	-10.9716
ອົງກອນ	-10.9716
▁Modular	-10.9717
ທາງດ້ານກົດຫມາຍ	-10.9717
Module	-10.9717
▁PFS	-10.9717
ລະບາຍຄວາມຮ້ອນ	-10.9718
▁Dtg	-10.9718
▁Loose	-10.972
▁SALE	-10.972
▁Lathe	-10.9721
▁Battle	-10.9721
▁Style	-10.9722
▁Rule	-10.9724
▁just	-10.9725
GPRS	-10.9725
▁ເລືອກເດືອນ	-10.9725
3]:	-10.9727
▁Flute	-10.9729
ຟອກ	-10.9729
▁review	-10.9731
3-4	-10.9734
ຮູບແຕ້ມ	-10.9741
▁only	-10.9741
ໄຊຊະນະ	-10.9743
▁cool	-10.9747
ຂັ້ນສູງ	-10.9748
ະຫນັບສະຫນູນການໂທ	-10.9749
ການສະກົດຈິດ	-10.9764
ຄຸນນະສົມບັດ	-10.9765
ການຈ່າຍເງິນ	-10.9765
Model	-10.9765
▁coll	-10.9767
ເຄື່ອງປະດັບ	-10.9769
ຂວດ	-10.977
ຮັບເອົາ	-10.9771
ແຜ່ນເຫຼັກ	-10.9774
(12)	-10.9775
ຢ້ຽມຢາມ	-10.9807
ສະແກນ	-10.9818
▁Adv	-10.9836
ຄວາມບໍລິສຸດ	-10.9842
2,000	-10.9857
ຄວາມສະອາດ	-10.9859
1,9	-10.9868
▁2.7	-10.9898
▁0086-13	-10.9927
XCHARX	-10.9979
у	-10.9979
ຊີວະພາບ	-10.9979
ລ່ວງຫນ້າ	-10.9979
ວັນເດືອນປີເກີດ	-10.9979
ເສັ້ນຜ່າກາງ	-10.9979
ແບດເຕີລີ່	-10.9979
ຂີ້ເຜີ້ງ	-10.9979
ດ່ຽວ	-10.9979
ໄລຍະໄກ	-10.9979
▁Antenna	-10.9979
▁Biodegradable	-10.9979
▁Christian	-10.9979
▁Molecular	-10.9979
▁PlayStation	-10.9979
▁Regulator	-10.9979
▁Smelting	-10.9979
▁Synthetic	-10.9979
▁litecoin	-10.9979
▁trolley	-10.9979
▁ຕົວຂຶ້ນໄປຈໍານວນ	-10.9979
▁ສວນສະຫນຸກ	-10.9979
ກ້າວຫນ້າທາງດ້ານ	-10.9979
ປະລິນຍາຕີ	-10.9979
ສໍາຜັດ	-10.9979
▁Disney	-10.9979
▁League	-10.9979
▁STEEL	-10.9979
▁Scratch	-10.9979
▁powder	-10.9979
ຄົນເຈັບ	-10.9979
ພັຍ	-10.9979
▁Agusta	-10.9979
▁Audio	-10.9979
▁Liquid	-10.9979
▁Shadow	-10.9979
▁Friday	-10.9979
▁ມຸງຫລັງຄາ	-10.9979
Arabic	-10.9979
▁Tribal	-10.9979
▁Nozzle	-10.9979
▁Admission	-10.9979
▁Trailer	-10.9979
▁HTTP	-10.9979
ຈໍສະແດງຜົນ	-10.9979
ໄດ້ຍິນ	-10.9979
▁Jesus	-10.9979
▁Stamping	-10.9979
▁Zhongtai	-10.9979
▁GALA	-10.998
▁ແມ່ແບບ	-10.998
▁ຂ່າຍ	-10.9981
▁Transfer	-10.9981
▁Laura	-10.9981
▁ບານວາວ	-10.9982
pdf	-10.9983
ຜູ້ຊ່ຽວຊານດ້ານ	-10.9985
▁+/-	-10.9985
▁CCC	-10.9986
ລິການຫລັງການຂາຍ	-10.9987
▁Shaft	-10.9988
▁ປວດ	-10.9988
▁cutter	-10.999
▁Spark	-10.9993
ກ່ຽວຂ້ອງ	-10.9995
▁ແຮງດັນສູງ	-10.9997
▁promo	-11
ສິດທິໃນການ	-11.0002
ປ້າຍໂຄສະນາໂດຍ	-11.0023
Sept	-11.0027
ກອງປະຊຸມໃຫຍ່	-11.003
ບັນດາປະເທດ	-11.0039
Blythe	-11.0051
width	-11.0052
ດາວນ໌ໂຫລດ	-11.0052
ເງິນທີ່ແທ້ຈິງ	-11.0055
ethane	-11.006
ຈື່	-11.0166
ravel	-11.02
ປະກັນໄພ	-11.0206
ກະດານແມ່ເຫຼັກ	-11.0223
ແຜ່	-11.0233
▁Coffe	-11.0234
ໄອແລນ	-11.0249
ປອກຕຸຍການ	-11.0249
ອາລູມີນຽມ	-11.0249
ຫຼັກຖານສະແດງ	-11.0249
ອາຊຽນ	-11.0249
generateur	-11.0249
บ	-11.0249
ພູມສັນຖານ	-11.0249
ສະວິດເຊີແລນ	-11.0249
ອະສັງຫາລິມະສັບ	-11.0249
ັງວ່າຈະຮ່ວມມືກັບ	-11.0249
ເຄື່ອງໃຊ້ໃນບ້ານ	-11.0249
▁86-755-	-11.0249
▁Community	-11.0249
▁Halloween	-11.0249
▁Tailoress	-11.0249
▁Toshiba	-11.0249
▁available	-11.0249
▁iTunes	-11.0249
▁luxury	-11.0249
▁raillynews	-11.0249
▁ຍ້າຍໄປລະບົບ	-11.0249
п	-11.0249
ໂຮງງານຕັດຫຍິບ	-11.0249
▁EMBA	-11.0249
▁NORTH	-11.0249
▁nozzle	-11.0249
.10.2018	-11.0249
ບ້ວງ	-11.0249
▁Carbide	-11.0249
▁Shipping	-11.0249
▁Temple	-11.0249
▁Ankara	-11.0249
▁Yoga	-11.0249
▁Jumma	-11.0249
ການດູດຊຶມ	-11.0249
▁cloud	-11.0249
position	-11.0249
▁Broad	-11.0249
▁Monster	-11.0249
▁Cyber	-11.0249
▁mixer	-11.0249
▁Horizontal	-11.025
▁ສ້າງແບບຈໍາລອງ	-11.025
▁kids	-11.025
,00€	-11.025
▁Waterproof	-11.025
▁quote	-11.025
▁ເນີດ	-11.025
ທາງດ້ານການເງິນ	-11.025
▁ເງິນຝາກຄໍາວ່າ	-11.025
ເຊື່ອຖື	-11.0251
▁Huizhou	-11.0251
christ	-11.0251
▁FOB	-11.0252
▁Bingo	-11.0252
ແຂງແຮງ	-11.0252
▁hora	-11.0253
▁scene	-11.0254
▁Sony	-11.0255
}}	-11.0255
ພາກເຫນືອ	-11.0256
ສອບເສັງ	-11.0258
(33)	-11.0259
▁ສອບ	-11.0261
▁Steam	-11.0261
▁Jiao	-11.0262
▁Lego	-11.0262
▁Sheng	-11.0262
isabled	-11.0263
▁(6)	-11.0265
ນ້ໍາຖ້ວມ	-11.0266
▁Santa	-11.0266
Plane	-11.0267
▁Chair	-11.0267
CKP	-11.027
ເຂົາເຈົ້າ	-11.0273
uangjian	-11.0289
▁cost	-11.0296
triche	-11.0298
ແຫນ້ນ	-11.0333
Whatsapp	-11.0345
gging	-11.0348
ບໍ່ຖືກຕ້ອງ	-11.0428
▁eagletattoo	-11.0476
ຖ້ວມ	-11.051
ສອດຄ່ອງ	-11.0515
แ	-11.0527
ຂຸດຄົ້ນ	-11.0527
ຕື່ນເຕັ້ນ	-11.0527
ມະເຮັງ	-11.0527
ເຮັດໃຫ້ປະລາດ	-11.0527
▁Straight	-11.0527
.08.2018	-11.0527
й	-11.0527
ກະທັດຮັດ	-11.0527
ຊ່ວຍປະຢັດ	-11.0527
ອີເລັກໂທຣນິກ	-11.0527
ເສື້ອທີເຊີດ	-11.0527
ແກະສະຫລັກ	-11.0527
ແສ່ວ	-11.0527
▁Council	-11.0527
▁Jacquard	-11.0527
▁Preventive	-11.0527
▁Responsive	-11.0527
▁Treatment	-11.0527
▁Valentine	-11.0527
▁affiliate	-11.0527
▁exacthacks	-11.0527
▁handbag	-11.0527
ຄວາມຫມັ້ນຄົງ	-11.0527
ຊາຍແດນ	-11.0527
ຜົນບັງຄັບໃຊ້	-11.0527
▁Kevlar	-11.0527
▁Luquan	-11.0527
▁leggings	-11.0527
ໃຍແກ້ວນໍາແສງ	-11.0527
▁before	-11.0527
▁trailer	-11.0527
ພາລະກິດ	-11.0527
▁Creative	-11.0527
▁Device	-11.0527
ຜູ້ສູງອາຍຸ	-11.0527
▁Hubei	-11.0527
▁Rapid	-11.0527
▁Happy	-11.0527
▁Twill	-11.0527
▁Label	-11.0527
▁ສື່ມວນຊົນສັງຄົມ	-11.0527
▁Queen	-11.0527
ໃກ້ຊິດ	-11.0527
ທົ່ງ	-11.0527
ongxiang	-11.0528
▁Armati	-11.0528
▁ທ່ານກໍາລັງຢູ່	-11.0528
▁Snow	-11.0528
▁Fighter	-11.0528
ເປັນທີ່ຮູ້ຈັກ	-11.0528
▁milling	-11.0529
▁ເທບ	-11.0529
▁Framework	-11.0529
mAh	-11.0529
▁College	-11.053
▁Triple	-11.053
▁SMD	-11.0533
▁Pepper	-11.0534
▁Staff	-11.0534
▁Front	-11.0535
▁ວັນເສົາ	-11.0536
▁SSL	-11.054
ຫຸ້ມຫໍ່	-11.054
ຍັງຄົງ	-11.0548
ຈໍານວນຫລາຍ	-11.0555
ໄຟເບີ	-11.0556
ອຸ່ນ	-11.0557
ແອບ	-11.0571
ຄຸກ	-11.0579
Color	-11.0648
Industrial	-11.0649
▁86-0	-11.0694
ວິທີແກ້ໄຂ	-11.0745
ຄວາມແຕກຕ່າງ	-11.0748
0/1	-11.077
MIL	-11.0782
▁ເບີໂທລະສັບ	-11.0783
ອັບເດດ	-11.0802
ອຸດົມ	-11.0812
ความ	-11.0812
.05.2019	-11.0812
^	-11.0812
ກົງກັນຂ້າມ	-11.0812
ຂ້ອນຂ້າງ	-11.0812
ປະລິນຍາເອກ	-11.0812
ມໍລະດົກ	-11.0812
ສະຫວິດ	-11.0812
ອີກເທື່ອຫນຶ່ງ	-11.0812
▁Cruiser	-11.0812
▁Empire	-11.0812
▁Francisco	-11.0812
▁History	-11.0812
▁Jersey	-11.0812
▁Saracen	-11.0812
▁Torrent	-11.0812
▁quintet	-11.0812
▁ວັນພະຫັດ	-11.0812
ຄວາມໄວ້ວາງໃຈ	-11.0812
ດັດຊະນີ	-11.0812
ພາລາມິເຕີ	-11.0812
ມີສ່ວນຮ່ວມໃນ	-11.0812
ຫມໍ້ຫຸງເຂົ້າ	-11.0812
▁Adhesive	-11.0812
▁Holiday	-11.0812
▁Sweden	-11.0812
▁develop	-11.0812
▁iPod	-11.0812
▁pirates	-11.0812
ຍ້ອມ	-11.0812
▁enjoy	-11.0812
▁Access	-11.0812
▁Bonded	-11.0812
ເອເຊຍ	-11.0812
▁Edition	-11.0812
▁Special	-11.0812
▁Wenzhou	-11.0812
instagram	-11.0812
▁72.00	-11.0812
▁BLACK	-11.0812
▁great	-11.0812
▁Nokia	-11.0813
▁Garment	-11.0813
▁shopping	-11.0813
▁Jumbo	-11.0813
▁Camera	-11.0813
▁ເສີນ	-11.0813
▁Client	-11.0813
▁Delta	-11.0813
ແລະພວກເຮົາຈະ	-11.0813
▁ໂທຫາພວກເຮົາ	-11.0813
ຢ່າງເຕັມທີ່	-11.0813
▁(2013)	-11.0813
▁Bending	-11.0813
▁heels	-11.0813
ມັກຂໍເອົາ	-11.0813
▁Michel	-11.0813
izitin	-11.0813
cycle	-11.0813
▁ພິທີ	-11.0814
ດຶງດູດ	-11.0814
ເຄື່ອງຫມາຍການຄ້າ	-11.0815
▁ກະລຸນາເລືອກເອົາ	-11.0815
▁WiFi	-11.0815
▁ແສງອາທິດ	-11.0816
▁shell	-11.0817
▁Gym	-11.0817
ນິຕິ	-11.0817
ໂຄ້ງ	-11.0817
▁Compare	-11.0819
ກິລາບານເຕະ	-11.082
▁xbox	-11.0821
level	-11.0821
▁Dayton	-11.0822
▁Robert	-11.0826
▁comment	-11.0826
crea	-11.083
▁linen	-11.0833
▁Grey	-11.0861
ປິກ	-11.0883
3.40	-11.0893
ທີ່ເປັນປະໂຫຍດ	-11.0921
flex	-11.093
EMI	-11.0956
ທັນວາ	-11.0956
ຂຸດຄົ້ນບໍ່ແຮ່	-11.0959
▁create	-11.0962
ຄ່າບໍລິການ	-11.0984
engyuan	-11.1093
▁ມູ	-11.1098
ຄ່ໍາ	-11.1105
market	-11.1105
ຊົນເຜົ່າ	-11.1106
ຊຶມ	-11.1106
▁(+856	-11.1106
ຊົ່ວຄາວ	-11.1106
ທີ່ມີຄຸນະພາບສູງ	-11.1106
ລວບລວມ	-11.1106
ລົງທືນ	-11.1106
.09.2018	-11.1106
iopharmaceutical	-11.1106
ຊົນລະປະທານ	-11.1106
ຍືນຍົງ	-11.1106
ພືດຫມູນວຽນ	-11.1106
ສູນຍາກາດ	-11.1106
ສົນທິສັນຍາ	-11.1106
ອັດໂນມັດ	-11.1106
ເນເທີແລນ	-11.1106
ແພກເກດ	-11.1106
ແວ່ນຕາ	-11.1106
▁Deluxe	-11.1106
▁Desiccant	-11.1106
▁zombie	-11.1106
▁ຊິງຕັນດີຊີ	-11.1106
▁ໄວ້ວາງໃຈ	-11.1106
▁November	-11.1106
▁Scroll	-11.1106
include	-11.1107
▁Public	-11.1107
▁Thermo	-11.1107
▁FTTH	-11.1107
▁Mutant	-11.1107
ເຄື່ອງປັ່ນ	-11.1107
▁Chengdu	-11.1107
▁Rigid	-11.1107
▁Socket	-11.1107
▁Bldg	-11.1107
computer	-11.1107
▁Serial	-11.1107
ໃນເວລາດຽວກັນ	-11.1107
▁ລະດັບຄວາມສູງ	-11.1108
▁ANSI	-11.1108
▁ຊທີ່ແທ້ຈິງ	-11.1108
ສະຖານະພາບ	-11.1108
▁Louis	-11.1108
▁Funny	-11.1109
ມັກຫຼີ້ນ	-11.1109
ຜະສົມ	-11.111
▁Cardboard	-11.1111
▁look	-11.1112
ຊີ້ນໍາ	-11.1112
▁match	-11.1117
.12.20	-11.112
ຕົວຈິງ	-11.1135
ຫມາກໄມ້	-11.1142
▁DMC	-11.1145
ເຂື່ອນໄຟຟ້າ	-11.1148
▁ອີງຕາມການ	-11.1186
ILL	-11.123
ເສັ້ນຜ່າສູນກາງ	-11.1283
•	-11.1284
Phone	-11.1291
ຫ່າງຈາກ	-11.1321
TAG	-11.1333
▁86-574-	-11.1335
ຫຼີ	-11.1348
▁0.01	-11.138
▁Discharge	-11.1387
ແຕນເລດ	-11.1395
▁(1,2	-11.1396
ອັນດັບ	-11.1405
ພາຫະນະ	-11.1409
ເຊລາມິກ	-11.1409
ປະສານງານ	-11.141
ວິໄຈ	-11.141
ສັດຕະວະແພດ	-11.141
▁security	-11.141
ь	-11.141
ການບີບອັດ	-11.141
ຊົດເຊີຍ	-11.141
ຊຽງ	-11.141
ປະເທດສະວິດ	-11.141
ລາຍລັກອັກສອນ	-11.141
ລູກຟູກ	-11.141
ສີຂີ້ເຖົ່າ	-11.141
ໃສ່ອີເມວຂອງທ່ານ	-11.141
▁Australia	-11.141
▁California	-11.141
▁Canberra	-11.141
▁Diamond	-11.141
▁Dokitto	-11.141
▁Enertia	-11.141
▁Forklift	-11.141
▁Gabardine	-11.141
▁Nevada	-11.141
▁Philadelphia	-11.141
▁SharePoint	-11.141
▁Survey	-11.141
▁costumes	-11.141
▁eScooter	-11.141
İ	-11.141
▁Victoria	-11.141
▁diavel	-11.141
▁ladies	-11.141
▁Editor	-11.141
▁ຫນ້າແລກ	-11.141
▁interior	-11.141
▁Pillow	-11.141
▁trading	-11.141
▁WLAN	-11.141
ສາກໄຟ	-11.141
▁Fancy	-11.141
ຫົວຫນ້າຄລາສສິກ	-11.141
oftkelo	-11.141
▁Washer	-11.141
▁Title	-11.141
▁Piston	-11.141
▁Facetime	-11.1411
▁Patchwork	-11.1411
▁ຕ່ໍາລົງ	-11.1411
▁ແລກ	-11.1411
ແຕ້ມຮູບ	-11.1412
ພໍໃຈ	-11.1413
hydroxy	-11.1413
▁loop	-11.1415
ສາມາດພິມໄດ້	-11.1426
glass	-11.1435
(18)	-11.1465
ິ້ນໃຫມ່ເທົ່ານັ້ນ	-11.1474
ມູນ	-11.1479
ເບົາ	-11.1513
ສໍາຮອງ	-11.1525
ພັດທະນາເຂດ	-11.1542
8.8	-11.1544
▁gif	-11.1556
RWT	-11.1599
ໂມດູນ	-11.1616
High	-11.1618
▁0.07	-11.1658
▁Cream	-11.1689
ມີປະສິດທິຜົນສູງ	-11.1709
ຂຽວ	-11.1715
▁browser	-11.1722
▁ສານສະກັດຈາກ	-11.1722
ท	-11.1722
้	-11.1722
ຈັດລຽງ	-11.1722
ເຄື່ອງນຸ່ງ	-11.1722
.06.2018	-11.1722
ั	-11.1722
ຄະນິດສາດ	-11.1722
ຕອນແລງ	-11.1722
ທາດໂປຼຕີນ	-11.1722
ຫນັບສະຫນູນອີເມລ໌	-11.1722
ອະແດບເຕີ	-11.1722
ໄຕ້ຫວັນ	-11.1722
▁57.0.2987.1	-11.1722
▁Accessories	-11.1722
▁Antistatic	-11.1722
▁Mechanical	-11.1722
▁Professional	-11.1722
▁Ultrasonic	-11.1722
▁Welcome	-11.1722
▁private	-11.1722
▁sprites	-11.1722
▁ເປັນການຄ້າຫນ້ອຍ	-11.1722
ພັນທະບັດ	-11.1722
▁Handmade	-11.1722
▁VIDEO	-11.1722
▁Voltage	-11.1722
▁Warehouse	-11.1722
angqian	-11.1722
ໂທລະສັບສະຫຼາດ	-11.1722
▁(2010)	-11.1722
▁Beilun	-11.1722
▁Groove	-11.1722
▁Stretch	-11.1722
▁Instant	-11.1722
▁Indoor	-11.1722
▁PocketWin	-11.1722
▁sodium	-11.1722
▁pallet	-11.1722
▁Claret	-11.1722
▁ຈັດພີມມາສຸດ	-11.1722
▁Woven	-11.1722
▁twink	-11.1722
▁Smith	-11.1722
aprox	-11.1723
▁Henry	-11.1723
▁Watts	-11.1723
▁Easy	-11.1723
group	-11.1723
▁hoverboard	-11.1723
▁Canton	-11.1723
▁Story	-11.1724
special	-11.1724
Sphere	-11.1724
▁Taizhou	-11.1724
▁ເຈຍ	-11.1725
▁Chiller	-11.1725
ຝາຜະ	-11.1725
▁Clans	-11.1726
ຂັ້ນຕອນຂອງການ	-11.1726
ຕ້ອນຮັບ	-11.1727
ວົງແຫວນ	-11.1728
▁oversize	-11.1728
▁0.05	-11.173
ວາງຈໍາຫນ່າຍ	-11.1731
title	-11.1734
▁alfa	-11.1734
▁FCC	-11.1736
(40)	-11.1742
Guard	-11.1748
▁ETC	-11.1759
ແອັບ	-11.1763
ປ້ອນຂໍ້ມູນ	-11.178
java	-11.1791
ແອວ	-11.1795
▁William	-11.1796
ADE	-11.1879
▁ພວກເຮົາແມ່ນຜູ້	-11.1882
1.25	-11.1929
▁mono	-11.1989
3-26	-11.2018
▁Charge	-11.2022
ໄດ້ປຽບ	-11.2042
▁Horizon	-11.2044
ຊິລິໂຄນ	-11.2045
ຕົບແຕ່ງ	-11.2045
ຢ່າງຫຼວງຫຼາຍ	-11.2045
ສົມເຫດສົມຜົນ	-11.2045
ໂພຊະນາການ	-11.2045
.04.2019	-11.2045
ngqiao	-11.2045
olyaluminium	-11.2045
ຍົນພິວເຕີໃກ້ຂ້ອຍ	-11.2045
ເຄື່ອງໃຊ້ໃນເຮືອນ	-11.2045
▁Advanced	-11.2045
▁Baiyun	-11.2045
▁Calcium	-11.2045
▁Efficiency	-11.2045
▁Elastic	-11.2045
▁Elizabeth	-11.2045
▁GoQuick	-11.2045
▁SpongeBob	-11.2045
▁Telegram	-11.2045
▁blockchain	-11.2045
▁espresso	-11.2045
▁gambling	-11.2045
▁laminated	-11.2045
▁lantern	-11.2045
▁lithium	-11.2045
▁★★★★★	-11.2045
▁Baseball	-11.2045
▁Britain	-11.2045
▁Liangxi	-11.2045
▁Powerpuff	-11.2045
▁Railway	-11.2045
▁chrome	-11.2045
▁information	-11.2045
DongGuan	-11.2045
fresher	-11.2045
uanjie	-11.2045
ໂປແກມ	-11.2045
จ	-11.2045
▁ຕາລາງແມັດ	-11.2045
▁number	-11.2045
▁Charles	-11.2045
▁UPVC	-11.2045
ມາດຕະການ	-11.2045
▁snow	-11.2045
▁THAI	-11.2045
ຫຼາດ	-11.2045
▁resort	-11.2046
▁latte	-11.2046
▁Basic	-11.2046
▁Jiaozhou	-11.2046
▁Tourism	-11.2046
▁ຍີ່	-11.2046
▁{{	-11.2046
ຄວາມເປັນມາ	-11.2046
▁taxi	-11.2046
ແຊ້ມ	-11.2046
▁laden	-11.2046
▁TKT	-11.2047
▁stuff	-11.2047
ແນວຄິດ	-11.2047
▁Scott	-11.2048
ເປັນທີ່ນິຍົມ	-11.2048
▁Lyon	-11.2049
▁ເສດ	-11.2049
ontinue	-11.2053
▁Benz	-11.2056
▁Month	-11.2064
▁ນຸດ	-11.2078
▁8.9	-11.2171
corp	-11.2268
Custom	-11.2314
ໂມເລກຸນ	-11.2317
▁`%	-11.2369
ເຜີຍ	-11.237
ກ້າມເນື້ອ	-11.2378
ພວງມາໄລ	-11.2378
▁ອອຟໂລດ	-11.2378
Ø	-11.2378
х	-11.2378
ຍຸດຕິທໍາ	-11.2378
ທິດສະດີ	-11.2378
ຜ່າຕັດ	-11.2378
ຢາປົວພະຍາດ	-11.2378
ຢູ່ໃນການສໍາພັດ	-11.2378
ແຫ້ງແລ້ງ	-11.2378
▁Exhaust	-11.2378
▁Moscow	-11.2378
▁Pencil	-11.2378
▁Sketch	-11.2378
▁Testosterone	-11.2378
▁jacquard	-11.2378
▁redecorate	-11.2378
▁stepping	-11.2378
▁ຊຕມ	-11.2378
▁ຍທຂ	-11.2378
▁ຕົ໋ວ	-11.2378
▁ທໍ່ສົ່ງນ້	-11.2378
▁ມິນລິເມດ	-11.2378
Circle	-11.2378
ປັ້ນດິນເຜົາ	-11.2378
▁Lantern	-11.2378
▁Taylor	-11.2378
▁acetate	-11.2378
▁ຫມວກ	-11.2378
ຄວາມຝັນ	-11.2378
ຖ້ວຍ	-11.2378
▁FIGHT	-11.2378
▁Jaishi	-11.2378
ເຕະບານ	-11.2378
▁Automation	-11.2378
ປານກາງ	-11.2378
▁ເເລະ	-11.2378
▁disney	-11.2378
▁bulk	-11.2378
▁Central	-11.2378
▁HDMI	-11.2378
▁Computer	-11.2378
▁Engineering	-11.2378
▁lady	-11.2378
▁ເສື້ອແຂນ	-11.2378
▁Romper	-11.2378
▁Navy	-11.2378
▁Sarah	-11.2378
▁ແນວຕັ້ງ	-11.2378
▁Nomex	-11.2378
▁ວົງຢືມ	-11.2379
ສີດພົ່ນ	-11.2379
LINK	-11.2379
ບັດປະຈໍາຕົວ	-11.2379
▁satin	-11.2379
▁Milk	-11.238
▁Rosin	-11.2381
▁Shutter	-11.2381
▁rotor	-11.2384
▁Vape	-11.2385
▁SMT	-11.2386
ຄູອາຈານ	-11.2387
ເດືອນມັງກອນ	-11.2422
Nitro	-11.2431
▁Borde	-11.2449
(20)	-11.2464
ກຸມພາ	-11.2682
ສີເຫຼືອງ	-11.2687
cryptocurrency	-11.2689
ພົ່ນ	-11.2722
magnetic	-11.2723
ຢ່າງໄວວາ	-11.2723
г	-11.2723
ວິທະຍຸ	-11.2723
ຫນ້າຫວາດສຽວ	-11.2723
ຫັດຖະກໍາ	-11.2723
Buddhatrends	-11.2723
CLICK	-11.2723
ບໍ່ເທົ່າກັນ	-11.2723
ລະເບີດຝັງດິນ	-11.2723
ສຽງໂຫວດທັງຫມົດ	-11.2723
ອຸປະສັກ	-11.2723
ໂຖປັດສະວະ	-11.2723
້ໍາຫນັກຂອງມະເລັງ	-11.2723
▁Category	-11.2723
▁Christmas	-11.2723
▁Dreadlocks	-11.2723
▁Hangheng	-11.2723
▁ITALY	-11.2723
▁Impulse	-11.2723
▁JBoss	-11.2723
▁LadyLuck	-11.2723
▁Phantom	-11.2723
▁Polypropylene	-11.2723
▁ProgressPlay	-11.2723
▁Refrigerat	-11.2723
▁Titanium	-11.2723
▁Zurich	-11.2723
▁cylinder	-11.2723
▁spongebob	-11.2723
▁wedding	-11.2723
ເຮືອຂ້າມຟາກ	-11.2723
▁(2011)	-11.2723
▁Rotating	-11.2723
▁process	-11.2723
AGUE	-11.2723
ຊ່ື	-11.2723
▁Samewe	-11.2723
▁Freebies	-11.2723
▁Skills	-11.2723
▁Caravan	-11.2723
▁Metrobus	-11.2723
▁ເທີງ	-11.2723
▁FULL	-11.2723
▁Kenya	-11.2723
▁Random	-11.2723
▁website	-11.2723
ຮຽກຮ້ອງໃຫ້ມີ	-11.2723
▁ລ້າສຸດ	-11.2723
▁Winnings	-11.2723
ທີ່ເກີດຈາກ	-11.2723
▁Script	-11.2723
▁Bursa	-11.2723
▁fluor	-11.2723
▁Expert	-11.2723
ຫນ້າກາກ	-11.2723
▁Combo	-11.2724
ຄວາມຊື້ນ	-11.2724
▁Tiantai	-11.2724
ການຫັນເປັນ	-11.2724
ສະຫຼອງ	-11.2725
▁SWG	-11.2725
▁ໂບດ	-11.2725
ການບໍລິຈາກ	-11.2726
▁BOX	-11.2726
ບາງສ່ວນຂອງ	-11.2727
ໄຂ້	-11.2759
▁RAM	-11.2769
່ງທີ່ເຫັນແລະເຮັດ	-11.2773
uardian	-11.2816
ຢັ້ງຢືນ	-11.2904
▁Rupe	-11.3002
ທໍ່ນ້ໍ	-11.3018
≤	-11.3056
▁ແຂ່ງ	-11.3056
Print	-11.3061
ກະລຸນາ	-11.3067
Online	-11.3074
ເຄາະ	-11.3077
▁Catalog	-11.3078
ຄູ່ຜົວເມຍ	-11.3079
ย	-11.308
ທາງດ້ານການເມືອງ	-11.308
▁goodbye	-11.308
scriptionSample	-11.308
ຈິນຕະນາການ	-11.308
ທີ່ຖືກຖາມເລື້ອຍໆ	-11.308
ນິວຊີແລນ	-11.308
ປະໂຫຍກ	-11.308
ສະຫະພັນ	-11.308
ຫຼວງພະບາງ	-11.308
ເບື້ອງຕົ້ນ	-11.308
ແລະຂະຫນາດຮູບຖ່າຍ	-11.308
ໂພລີເມີ	-11.308
▁Fibroin	-11.308
▁Frankfurt	-11.308
▁Nonwoven	-11.308
▁Rectangular	-11.308
▁Trolley	-11.308
▁Tutorial	-11.308
▁ດ້ວຍທາດການຊຽມ	-11.308
▁ລັບເລັບແມວ	-11.308
ການເຜົາໄຫມ້	-11.308
▁Tumblr	-11.308
▁experience	-11.308
▁perfect	-11.308
▁steroid	-11.308
▁ຍານຍົນ	-11.308
▁ບໍ່ວ່າຈະເປັນ	-11.308
▁ສາມາດພັບໄດ້	-11.308
ต	-11.308
ເລີ້ມ	-11.308
▁CSGOBET	-11.308
▁Solvent	-11.308
▁Strength	-11.308
▁ສໍາຫຼັບ	-11.308
ຜູ້ເກັບຂີ້ເຫຍື້ອ	-11.308
ສໍາມະນາ	-11.308
ເຄື່ອງຊັກຜ້າ	-11.308
▁indoor	-11.308
ທີ່ເຊື່ອຖືໄດ້	-11.308
CMYK	-11.308
▁Holland	-11.308
▁Input	-11.308
▁Nexus	-11.308
ໃນຕອນເລີ່ມຕົ້ນ	-11.308
ເລີຍ	-11.308
▁Turbo	-11.308
▁ທິດຕາເວັນຕົກ	-11.308
▁ປື້ມບັນທຶກ	-11.308
▁First	-11.308
ຊາວອົບພະຍົບ	-11.308
▁56.0.29	-11.308
▁HPLC	-11.308
▁Irene	-11.308
▁Counter	-11.308
▁Zinc	-11.3081
▁ແປພາສາ	-11.3081
▁PNG	-11.3081
▁Trust	-11.3083
/03/20	-11.3088
ລູກຊາຍຂອງ	-11.3089
electric	-11.309
▁Sonic	-11.3099
▁George	-11.3109
2019-03-	-11.3125
model	-11.3151
fabric	-11.323
ການສົ່ງຈົດ	-11.3357
ໃນຖານະ	-11.3421
ຂໍ້ດີຂອງ	-11.3433
ບານເຕະ	-11.3441
▁ແນ່	-11.3446
ວິທະຍາ	-11.3449
▁ຄວບ	-11.3449
▁ຫງວນ	-11.345
ບາງສິ່ງບາງຢ່າງ	-11.345
ປະດິດສ້າງ	-11.345
ລັອດຕິງສັບມືຖື	-11.345
Innovative	-11.345
ophosphorous	-11.345
roadmap	-11.345
siamphonedotcom	-11.345
ຄາງກະໄຕ	-11.345
ຕໍາຫຼວດ	-11.345
ນິວຢອກ	-11.345
ບໍ່ດົນມານີ້	-11.345
ຜ້າຂົນຫນູ	-11.345
ເລື້ອຍໆ	-11.345
ແລະລະບຽບການໂດຍ	-11.345
ໂປຣແກຣມ	-11.345
▁Advertising	-11.345
▁Bottom	-11.345
▁Capacitive	-11.345
▁CoinFalls	-11.345
▁Diffusion	-11.345
▁Finished	-11.345
▁Hongdali	-11.345
▁Netflix	-11.345
▁SUBSCRIBE	-11.345
▁nonwoven	-11.345
▁saxophone	-11.345
▁shareware	-11.345
▁tumblr	-11.345
▁ມະຫາສະຫມຸດ	-11.345
▁ສ້ອຍຄໍ	-11.345
ສີລັງກາ	-11.345
ເຊື່ອງໄວ້	-11.345
ເຫລົ້າທີ່ເຮັດຈາກ	-11.345
ໂລໂກ້	-11.345
▁beadlock	-11.345
▁business	-11.345
▁ນາມສະກຸນ	-11.345
▁ເສື້ອກັນຫນາວ	-11.345
ຈະເລີນ	-11.345
ຕົວທ່ອງເວັບ	-11.345
▁Courier	-11.345
▁Medicine	-11.345
▁Replica	-11.345
▁Welding	-11.345
▁asylum	-11.345
▁jumma	-11.345
▁Thunder	-11.345
▁cajon	-11.345
▁ຜ້າກັນນ້ໍາ	-11.345
Library	-11.345
▁Tekna	-11.345
▁Pigment	-11.345
▁Erotic	-11.345
▁silica	-11.345
▁ໂຊຟາ	-11.345
▁Kyiv	-11.345
▁receive	-11.345
▁hentai	-11.3451
▁Number	-11.3451
▁Garage	-11.3451
▁EDGE	-11.3451
▁Freezer	-11.3451
JUNE	-11.3451
ເຂົ້າກັນໄດ້	-11.3451
▁Latest	-11.3451
Support	-11.3451
▁Earth	-11.3451
▁Album	-11.3451
▁Berlin	-11.3451
▁Gift	-11.3451
▁້ໍາຢາງ	-11.3451
ແມ່ນການຮັບປະກັນ	-11.3451
▁zlp	-11.3451
ຖືກອອກແບບມາ	-11.3452
▁Smile	-11.3452
version	-11.3456
ອິນຊີ	-11.3459
▁remove	-11.3459
Chloro	-11.3462
transposh	-11.3472
ຕົວຊີ້ວັດ	-11.3472
ສີເທົາ	-11.3473
Design	-11.3474
Android	-11.3475
True	-11.3492
crypto	-11.3709
ຂະຫນ	-11.3713
▁Connect	-11.3825
ສະບາຍ	-11.3834
ເວບໄຊ	-11.3835
1112131415161718	-11.3835
crushthe	-11.3835
ພຶດຕິກໍາ	-11.3835
ສະຫງົບ	-11.3835
ເກັບກູ້	-11.3835
ຫລາກຫລາຍ	-11.3835
ອາວຸໂສ	-11.3835
ທຸກສິ່ງທຸກຢ່າງ	-11.3835
ບາດເຈັບ	-11.3835
ສືບສວນ	-11.3835
ຫຼີກເວັ້ນ	-11.3835
ອາເມຣິກາ	-11.3835
Amnesty	-11.3835
Mário	-11.3835
ມູນລະນິທິ	-11.3835
ວັກຊີນສໍາລັບໄກ່	-11.3835
ສະຫມຸນໄພ	-11.3835
ສັນຕິພາບ	-11.3835
ສັບສົນ	-11.3835
ສາຍພານລໍາລຽງ	-11.3835
ແກ໊ດ	-11.3835
▁0.9.9.	-11.3835
▁ARCHITECT	-11.3835
▁Author	-11.3835
▁Centrifugal	-11.3835
▁Emirates	-11.3835
▁FONNOV	-11.3835
▁Mitsubishi	-11.3835
▁Mortgage	-11.3835
▁Oggy	-11.3835
▁Simulator	-11.3835
▁Society	-11.3835
▁TopSlotSite	-11.3835
▁Trenbolone	-11.3835
▁Wrapping	-11.3835
▁galaxy	-11.3835
▁galvalume	-11.3835
▁insulated	-11.3835
▁messenger	-11.3835
▁multifunctional	-11.3835
▁system	-11.3835
▁ຈຸດເດືອດ	-11.3835
▁ແຮງຈູງໃຈ	-11.3835
ມ່ວນຊື່ນ	-11.3835
ສັກຢາປ້ອງກັນໂຣກ	-11.3835
ເປັນເອກະພາບ	-11.3835
▁catalog	-11.3835
▁welded	-11.3835
▁OSGEAR	-11.3835
▁Outlook	-11.3835
▁Shovel	-11.3835
ເຕັມໄປດ້ວຍ	-11.3835
▁Coupling	-11.3835
▁Slotjar	-11.3835
▁Thailand	-11.3835
ຂອງປ່ຽງແຮງດັນ	-11.3835
ລຶກ	-11.3835
ເຟືອງ	-11.3835
▁Kunshan	-11.3835
▁macaron	-11.3835
ປະເສີດ	-11.3835
▁Xiamen	-11.3835
▁rigid	-11.3835
▁ຫຼຽນທອງແດງ	-11.3835
ລະບົບສາຍສົ່ງ	-11.3835
▁AEPF	-11.3835
▁Quotes	-11.3835
▁SPMK	-11.3835
▁Nickel	-11.3835
▁client	-11.3835
▁Oeko	-11.3835
▁60.0.31	-11.3835
▁Champions	-11.3835
▁Fimta	-11.3835
▁beige	-11.3835
▁Storage	-11.3835
ເຮັດທຸລະກິດໃນ	-11.3835
▁ຄະແນນສຽງ	-11.3835
ເຮັດວຽກຮ່ວມກັບ	-11.3835
▁CODE	-11.3835
▁melting	-11.3835
▁spider	-11.3835
▁easy	-11.3835
▁guys	-11.3835
▁Tcca	-11.3835
▁router	-11.3835
ເຈົ້າຫນ້າທີ່	-11.3835
▁Hosting	-11.3836
▁Hammer	-11.3836
▁Lounge	-11.3836
▁----	-11.3836
▁After	-11.3836
front	-11.3837
ນັ້ນພວກເຮົາຈະ	-11.3837
▁123...	-11.3838
▁Clinic	-11.3841
▁Periodic	-11.3841
▁Torch	-11.3844
IKE	-11.3848
ເດືອນກໍລະກົດ	-11.3888
ທ່ຽວ	-11.3888
ຊຶ່ງ	-11.389
2018-01-	-11.3907
OWN	-11.4041
ການລິເລີ່ມ	-11.4064
▁ເຫຼົ່າ	-11.4083
lett	-11.4175
ປະດັບ	-11.4216
Period	-11.4229
ຢືມ	-11.4234
ແອສປາໂຍນ	-11.4235
19202122	-11.4235
ອະວະກາດ	-11.4235
▁MOKO	-11.4235
.07.2018	-11.4235
XNUMX	-11.4235
isappearance	-11.4235
ຂໍ້ເທັດຈິງ	-11.4235
ຊົນນະບົດ	-11.4235
ປັດຊະຍາ	-11.4235
ພັນທະມິດ	-11.4235
ຢ່າງເຂັ້ມງວດ	-11.4235
ຫມັ້ນຍືນ	-11.4235
ເອີ້ນກັນວ່າ	-11.4235
ໂອໂຕເມຕິກ	-11.4235
ໃຊ້ລະຫັດໂປໂມຊັ່ນ	-11.4235
▁Chiavari	-11.4235
▁Excavator	-11.4235
▁Fleece	-11.4235
▁GNOME	-11.4235
▁Guangming	-11.4235
▁INTERNATIONAL	-11.4235
▁Industries	-11.4235
▁Mayflay	-11.4235
▁MySQL	-11.4235
▁Nootropics	-11.4235
▁OHCHR	-11.4235
▁Paseky	-11.4235
▁Porcelain	-11.4235
▁RHCSA	-11.4235
▁Xiongxian	-11.4235
▁because	-11.4235
▁biscuit	-11.4235
▁blackjack	-11.4235
▁reserved	-11.4235
▁stunning	-11.4235
▁ທຽນໄຂ	-11.4235
▁ສງວນລິຂະສິດ	-11.4235
ທັກສະ	-11.4235
ພາລະບົດບາດ	-11.4235
ຫ້າມລໍ້	-11.4235
ຮຽບຮ້ອຍ	-11.4235
ແປ້ນພິມ	-11.4235
ໂຕະມົນ	-11.4235
▁Airpull	-11.4235
▁Crazy	-11.4235
▁MacBook	-11.4235
▁Pharmaceutical	-11.4235
▁Woodworking	-11.4235
▁ບັນຍາຍ	-11.4235
▁ຫະລື	-11.4235
ຈຸລະພາກ	-11.4235
▁58.0.3029.	-11.4235
▁Dashboard	-11.4235
▁Monitor	-11.4235
▁ການລ່າສັດ	-11.4235
▁ຂຽນເມື່ອໃນ	-11.4235
▁ເງິນກູ້ຢືມ	-11.4235
ລາຍະລະອຽດ	-11.4235
ເຄື່ອງແຕ່ງກາຍ	-11.4235
▁Mosaic	-11.4235
▁ladder	-11.4235
▁Climate	-11.4235
ນ້ໍາຫອມ	-11.4235
▁Kaplan	-11.4235
▁Follow	-11.4235
▁Shield	-11.4235
▁Yellow	-11.4235
▁Legend	-11.4235
▁booth	-11.4235
▁Ladies	-11.4235
▁ປະຫຍັດພື້ນທີ່	-11.4235
Articles	-11.4235
▁ອະນຸສັນຍາ	-11.4235
▁DRAW	-11.4235
ຜູ້ໂດຍສານ	-11.4235
▁Daniel	-11.4235
Pfizer	-11.4235
▁LDPA	-11.4235
▁Booth	-11.4235
▁Soken	-11.4235
▁Lazy	-11.4235
▁ZLP	-11.4236
▁ພາບລວມຂອງ	-11.4236
ຖືກສ້າງຂຶ້ນ	-11.4236
ທ່ານດຣ	-11.4237
METAL	-11.4238
firm	-11.4239
▁blue	-11.4239
ຜູ້ປະກອບການ	-11.4239
akarn	-11.424
▁Crown	-11.4245
▁provide	-11.4245
ເຄື່ອງດູດນ້	-11.4261
protect	-11.4324
ຮຸ່ນ	-11.4326
Trade	-11.4357
▁Prefab	-11.4486
hopify	-11.4629
ຮັດໃຫ້ມີແສງສະຕິງ	-11.4646
ຕວກກີ	-11.4651
ໂປໂລຍ	-11.4651
ຊຸກຍູ້	-11.4652
2425262728293031	-11.4652
ທີ່ໂດດເດັ່ນ	-11.4652
ອົກຊີເຈນ	-11.4652
▁Parliament	-11.4652
NAZIONALE	-11.4652
elegations	-11.4652
ປັ໊ກ	-11.4652
ຟ້າຜ່າ	-11.4652
ເຜັດ	-11.4652
ແມງໄມ້	-11.4652
iracetam	-11.4652
straightener	-11.4652
Ф	-11.4652
ກຽດສັກສີ	-11.4652
ວິກິພີເດຍ	-11.4652
ສັກກະຣາດ	-11.4652
▁54.0.2840.	-11.4652
▁ACCURL	-11.4652
▁Administration	-11.4652
▁Ambassador	-11.4652
▁Analysis	-11.4652
▁Apparatus	-11.4652
▁Capsule	-11.4652
▁Facility	-11.4652
▁Gulfstream	-11.4652
▁HYBRID	-11.4652
▁Hashflare	-11.4652
▁Hyundai	-11.4652
▁Infrared	-11.4652
▁Justfog	-11.4652
▁Madrid	-11.4652
▁Nanjing	-11.4652
▁Odyssey	-11.4652
▁PRODUCT	-11.4652
▁Panasonic	-11.4652
▁Reputation	-11.4652
▁Resistance	-11.4652
▁Semifinished	-11.4652
▁SnapChat	-11.4652
▁Soundcloud	-11.4652
▁Sydney	-11.4652
▁Tempered	-11.4652
▁Thermal	-11.4652
▁Zirconia	-11.4652
▁suspension	-11.4652
▁trclogiccom	-11.4652
▁wwwphcokercom	-11.4652
▁ຊື້ໃບສະຫມັກ	-11.4652
▁ທີ່ມີກຽດສະຫງ່າ	-11.4652
▁ປະຊາສັງຄົມລາວ	-11.4652
▁ຢ່າງສຸດໃຈ	-11.4652
Specification	-11.4652
ສີຊົມພູ	-11.4652
ເປັນພີ່ນ້ອງກັນ	-11.4652
▁Database	-11.4652
▁Pokemon	-11.4652
▁Weifang	-11.4652
▁Woodwind	-11.4652
▁YOUTH	-11.4652
▁coupon	-11.4652
▁SSBP	-11.4652
▁ໂປແລນ	-11.4652
teknamfg	-11.4652
▁Odessa	-11.4652
▁paypal	-11.4652
▁would	-11.4652
building	-11.4652
ໃກ້ຂ້ອຍໂທຫາ	-11.4652
ທີ່ຈະໄດ້ຮັບນີ້	-11.4652
▁Purple	-11.4652
ຄວາມສໍາພັນ	-11.4652
ພະຍານ	-11.4652
▁Konica	-11.4652
▁credit	-11.4652
Alexander	-11.4652
▁cluj	-11.4652
▁Telecom	-11.4652
▁TYPE	-11.4652
▁Shoes	-11.4652
▁JPF	-11.4652
▁APHR	-11.4652
▁kettle	-11.4652
health	-11.4652
▁Buckle	-11.4652
▁Polymer	-11.4652
ພວກເຮົາສາມາດໃຊ້	-11.4653
▁ນວຍການ	-11.4653
project	-11.4653
Embed	-11.4653
ເບິ່ງຄືວ່າ	-11.4653
wheel	-11.4653
ເປັນໄມ້ຢືນຕົ້ນ	-11.4658
▁change	-11.4664
ດທິທັງຫມົດສະຫງວນ	-11.4666
ຄລາສສິກ	-11.4778
House	-11.478
Black	-11.478
Direct	-11.4786
▁Boston	-11.479
ເອົາອອກໄດ້	-11.5024
ເປັນຄູ່ຮ່ວມ	-11.503
Help	-11.5039
▁CHAMPIONSHIP	-11.5069
ອອນໄລ	-11.5085
Pulveriz	-11.5085
▁ເທັກໂນໂລຢີ	-11.5086
Natural	-11.5086
StrictlySlots	-11.5086
▁ຟລີສະປິນທີ່	-11.5086
ກວາງຕຸ້ງ	-11.5086
ຄວາມຄືບຫນ້າ	-11.5086
ວັນນະຄະດີ	-11.5086
ສະຫນັບສະຫນຸນ	-11.5086
ອັດຕາເງິນເຟີ້	-11.5086
ອົບອຸ່ນ	-11.5086
ໃກ້ຄຽງ	-11.5086
▁Biscuit	-11.5086
/10/2019)	-11.5086
GENNAIO	-11.5086
UZHOU	-11.5086
europetravel	-11.5086
ການໂຍກຍ້າຍ	-11.5086
ຂັບຂີ່	-11.5086
ຂ້າງຄຽງ	-11.5086
ຕົວທ່ານເອງ	-11.5086
ປ່ອຍອອກມາເມື່ອ	-11.5086
ມິດຕະພາບ	-11.5086
ສະບຽງອາຫານ	-11.5086
ສະແຕມ	-11.5086
ເກຣັກ	-11.5086
ເດນມາກ	-11.5086
ແບບສະຫມັກໃຈ	-11.5086
▁Aluminium	-11.5086
▁BSCIS	-11.5086
▁Chicago	-11.5086
▁Communication	-11.5086
▁Competition	-11.5086
▁Daddy	-11.5086
▁Dehydrat	-11.5086
▁Extruder	-11.5086
▁Fisayo	-11.5086
▁Handheld	-11.5086
▁Jablonec	-11.5086
▁MATERIALS	-11.5086
▁Mercedes	-11.5086
▁MetaTrader	-11.5086
▁NETWORK	-11.5086
▁SWEDEN	-11.5086
▁Sitmonchai	-11.5086
▁SoftKelo	-11.5086
▁Sublimation	-11.5086
▁Websetnet	-11.5086
▁bassoon	-11.5086
▁curtain	-11.5086
▁encrypted	-11.5086
▁furnace	-11.5086
▁hardfork	-11.5086
▁imminent	-11.5086
▁inkjet	-11.5086
▁insulator	-11.5086
▁selfie	-11.5086
▁silicone	-11.5086
▁simulator	-11.5086
▁ขาย	-11.5086
▁ຊິມກ໊າດ	-11.5086
ຫລ່ຽມ	-11.5086
ເອີໂຣ	-11.5086
▁Ethereum	-11.5086
▁Imperial	-11.5086
▁Matthew	-11.5086
▁Richard	-11.5086
▁Watermark	-11.5086
▁Wolford	-11.5086
▁receptor	-11.5086
▁require	-11.5086
ດົນໃຈ	-11.5086
ຟິມ	-11.5086
▁CISSP	-11.5086
▁CLASS	-11.5086
▁Chiffon	-11.5086
▁EPDM	-11.5086
▁Joomla	-11.5086
▁access	-11.5086
▁sludge	-11.5086
...............	-11.5086
ໂຊກດີ	-11.5086
▁Clutch	-11.5086
msterdam	-11.5086
▁wreck	-11.5086
ropshipping	-11.5086
▁EVENT	-11.5086
▁Braided	-11.5086
ຖາດ	-11.5086
▁Vimeo	-11.5086
▁MCNV	-11.5086
▁Saudi	-11.5086
▁stamping	-11.5087
▁London	-11.5087
ສະມາທິ	-11.5087
▁MCSE	-11.5087
▁parser	-11.5087
▁Thermostat	-11.5087
▁AUTO	-11.5087
▁NEON	-11.5087
Record	-11.5088
ງານບຸນ	-11.5091
therapy	-11.5094
ມີຄວາມຊ່ຽວຊານໃນ	-11.5097
ຍິນດີ	-11.5124
ເຫມາະ	-11.5254
ເມນູ	-11.5254
±	-11.5255
Mobile	-11.5256
Preci	-11.5384
ການປະຕິວັດ	-11.5524
ປະຫລາດໃຈ	-11.5541
ຜ່ອນຄາຍ	-11.5541
ລ້ອມ	-11.5541
ສະທ້ອນໃຫ້ເຫັນ	-11.5541
rosilicon	-11.5541
ຊີວະສາດ	-11.5541
ປະທ້ວງ	-11.5541
ພຽງເລັກນ້ອຍ	-11.5541
ລົບກວນ	-11.5541
ອົດສະຕຣາລີ	-11.5541
▁Koshibo	-11.5541
/06/2016	-11.5541
992-9033	-11.5541
Anundgård	-11.5541
ຂົດລວດ	-11.5541
ຄອບຄຸມ	-11.5541
ຊາທິປະໄຕ	-11.5541
ດຸ່ນດ່ຽງ	-11.5541
ມະລາຍຫາຍໄປ	-11.5541
ມຽນມາ	-11.5541
ັກພະນັນທີ່ຫຼິ້ນ	-11.5541
ເຄື່ອງແມ່ຂ່າຍ	-11.5541
ແກະສະຫຼັກ	-11.5541
ແພັກເກດ	-11.5541
ແອັກໂກ້	-11.5541
ໄຟໄຫມ້	-11.5541
▁42.0.2393.	-11.5541
▁AUTOMATIC	-11.5541
▁Arbitration	-11.5541
▁Cambridge	-11.5541
▁Costume	-11.5541
▁Dispenser	-11.5541
▁Dynamic	-11.5541
▁Edmunds	-11.5541
▁Education	-11.5541
▁Enanthate	-11.5541
▁Engraving	-11.5541
▁Giveaway	-11.5541
▁Glasgow	-11.5541
▁Harvard	-11.5541
▁Nandrolone	-11.5541
▁Naruto	-11.5541
▁Platinum	-11.5541
▁Removable	-11.5541
▁SHANGHAI	-11.5541
▁Transparent	-11.5541
▁Validity	-11.5541
▁architect	-11.5541
▁bugfix	-11.5541
▁crystal	-11.5541
▁turboprop	-11.5541
▁ກາໂນມ	-11.5541
▁ມິລິເມັດ	-11.5541
▁ຢ້ຽມ	-11.5541
ການເຈລະຈາ	-11.5541
ຕິກິຣິຍາ	-11.5541
ທີ່ກໍາຫນົດເອງ	-11.5541
ຮວບຮວມ	-11.5541
▁Leisure	-11.5541
▁Outdoor	-11.5541
▁Sleeve	-11.5541
▁Toronto	-11.5541
▁tagged	-11.5541
▁ປຸ່ນ	-11.5541
▁ມະຈອນເຕັ້ນ	-11.5541
▁ແຫນ່ງ	-11.5541
RECOVER	-11.5541
ຫຼາຍຮ້ອຍຄົນ	-11.5541
▁Jogger	-11.5541
▁Toyota	-11.5541
▁ຂໍ້ມູນຕົວເຄື່ອງ	-11.5541
▁Foldable	-11.5541
▁Lithium	-11.5541
▁Songjiang	-11.5541
▁Ripple	-11.5541
▁Shangke	-11.5541
▁punching	-11.5541
Hovercraft	-11.5541
ເພີງ	-11.5541
(248)	-11.5541
ເຍື່ອ	-11.5541
Acceler	-11.5541
▁PPGI	-11.5541
▁Secure	-11.5541
▁Spanish	-11.5541
▁garage	-11.5541
▁Pebble	-11.5541
▁BLOG	-11.5541
▁Cajon	-11.5541
▁Spindle	-11.5541
▁Cluster	-11.5541
▁Cheese	-11.5541
▁EXPO	-11.5541
▁Alkali	-11.5541
Cartoon	-11.5542
ການຍົກຕົວຢ່າງ	-11.5542
ບໍ່ໄດ້ຮັບອະນຸຍາດ	-11.5545
ສົນທະ	-11.5554
.01.201	-11.5557
▁Construct	-11.5648
Windows	-11.5757
ມີຊື່ສຽງ	-11.5974
ຜິດຖຽງ	-11.6017
ຖະແຫຼງ	-11.6017
ປະລິນຍາໂທ	-11.6017
ເຫຼົ້າແວງ	-11.6017
maximum	-11.6017
sitemap	-11.6017
ການເຕືອນໄພ	-11.6017
ກໍາມະຈອນເຕັ້ນ	-11.6017
ຄົບຖ້ວນ	-11.6017
ຈາລະຈອນ	-11.6017
ບັດເຄດິດ	-11.6017
ຜູ້ຕາງຫນ້າ	-11.6017
ພີວີຊີ	-11.6017
ວໍຊິງຕັນ	-11.6017
ໂປເຈັກເຕີ	-11.6017
້າງແລະລະບາຍນ້ໍາ	-11.6017
▁Attenuated	-11.6017
▁Baccarat	-11.6017
▁Bulldozer	-11.6017
▁Description	-11.6017
▁Emboss	-11.6017
▁Encrusting	-11.6017
▁Journal	-11.6017
▁Litbright	-11.6017
▁Morehacks	-11.6017
▁OpenStack	-11.6017
▁PowerShell	-11.6017
▁Stuttgart	-11.6017
▁Treadmill	-11.6017
▁Uzbekistan	-11.6017
▁baseball	-11.6017
▁between	-11.6017
▁biodegradable	-11.6017
▁citycoco	-11.6017
▁eclipse	-11.6017
▁gumball	-11.6017
▁machining	-11.6017
▁milkshake	-11.6017
▁separator	-11.6017
▁ຍົກເລີກການຕອບ	-11.6017
▁ລິ່ນຈີ່	-11.6017
▁ວາວຜີເສື້ອ	-11.6017
ປະເພນີ	-11.6017
ຢາຕ້ານເຊື້ອ	-11.6017
ເຜິ້ງ	-11.6017
▁Podcast	-11.6017
▁tensile	-11.6017
▁ເສື້ອໂປໂລ	-11.6017
Malaysia	-11.6017
ຜູ້ປ່ວຍ	-11.6017
▁crashing	-11.6017
▁violin	-11.6017
ເທດສະບານ	-11.6017
ອະທິຖານ	-11.6017
▁Cologne	-11.6017
▁dewatering	-11.6017
▁Process	-11.6017
▁Science	-11.6017
ຄວາມຫນ້າເຊື່ອຖື	-11.6017
ທີ່ນໍາສະເຫນີໂດຍ	-11.6017
▁pretty	-11.6017
ຈືດ	-11.6017
▁burner	-11.6017
03933	-11.6017
ຜູ້ຈັດຈໍາຫນ່າຍ	-11.6017
▁ILSTA	-11.6017
▁while	-11.6017
▁Policy	-11.6017
Anavar	-11.6017
ສຕິກ	-11.6017
▁Stories	-11.6017
widget	-11.6017
▁62.00	-11.6017
ສີດໍາແລະສີຂາວ	-11.6018
Portugu	-11.6019
ນອກຈາກນີ້ຍັງມີ	-11.6022
partner	-11.6054
-07-20	-11.6128
study	-11.6155
Hyperbaric	-11.6282
Marketing	-11.6282
▁ຟື້ນ	-11.6515
ເນປານ	-11.6517
ການທໍາງານຂອງ	-11.6517
ຍິນຍອມ	-11.6517
ຍັບຍັ້ງ	-11.6517
ອອສເຕີຍ	-11.6517
ອັກເສບ	-11.6517
ເກາະລັນ	-11.6517
▁manufact	-11.6517
ພະຍາດເບົາຫວານ	-11.6517
ສັນລະເສີນ	-11.6517
ຫ້ອງສະຫມຸດ	-11.6517
ແພລະຕະຟອມ	-11.6517
▁ອັນເທີເນເຕີ	-11.6517
Gibraltar	-11.6517
Salganik	-11.6517
publicidadonline	-11.6517
ປົດປ່ອຍ	-11.6517
ສຸຂາພິບານ	-11.6517
ອີຄອມເມີຊ	-11.6517
ເຫລົາດິນສໍ	-11.6517
ໂປຣແກມ	-11.6517
ໄມ້ໄຜ່	-11.6517
▁031-738-599	-11.6517
▁2011-2020	-11.6517
▁Adventus	-11.6517
▁AllHomes	-11.6517
▁Amazing	-11.6517
▁Avengers	-11.6517
▁Borosilicate	-11.6517
▁Casinophonebill	-11.6517
▁Consulting	-11.6517
▁Dolphin	-11.6517
▁Essential	-11.6517
▁Hitachi	-11.6517
ข	-11.6517
ไ	-11.7043
Φ	-11.943
本	-11.9479
电	-12.7494
ค	-12.7494
·	-13.2902
У	-13.3661
文	-15.1269
ป	-15.127
′	-15.1271
	-15.1272
₱	-15.1273
₪	-15.1274
อ	-15.1275
ิ	-15.1276
资	-15.1277
话	-15.1278
象	-15.1279
万	-15.128
←	-15.1281
ä	-15.1282
ї	-15.1283
ñ	-15.1284
ຝ	-15.1285
ຽ	-15.1286
ໄ	-15.1287
ໃ	-15.1288
฿	-15.1289
ົ	-15.1289
