<unk>	0
<s>	0
</s>	0
▁	-2.37705
,	-3.32339
.	-4.03115
:	-4.22664
s	-4.41939
)	-5.1396
▁/	-5.16677
-	-5.17426
ຂອງ	-5.18705
▁-	-5.30783
▁(	-5.32836
;	-5.48815
▁ແລະ	-5.66849
y	-5.67571
ແລະ	-5.69847
▁ການ	-5.7716
ການ	-5.79629
▁_	-5.79756
▁&	-5.83828
m	-5.8562
er	-5.88714
▁C	-5.93345
ing	-5.93673
r	-5.96119
C	-5.98611
d	-5.98844
in	-5.99857
ໃນ	-6.01039
▁S	-6.02081
g	-6.03108
ທີ່	-6.03225
▁T	-6.03816
D	-6.05689
▁1	-6.09004
ນ	-6.10665
M	-6.11268
▁A	-6.12358
n	-6.14468
t	-6.17253
▁B	-6.18079
e	-6.1946
gt	-6.20019
▁2	-6.22526
i	-6.24698
S	-6.24856
A	-6.24962
x	-6.26437
3	-6.27234
ກ	-6.27812
2	-6.27909
▁P	-6.2797
▁M	-6.2958
/	-6.29926
ດ	-6.30259
an	-6.31409
on	-6.34195
al	-6.3651
▁F	-6.36862
▁ໃນ	-6.37681
▁...	-6.40111
4	-6.40528
L	-6.41528
ເປັນ	-6.42389
▁3	-6.43576
B	-6.43725
ed	-6.44186
mm	-6.45986
T	-6.47841
▁Co	-6.49514
o	-6.50441
▁H	-6.51336
▁$	-6.51588
P	-6.51655
u	-6.51926
b	-6.53035
1	-6.54843
amp	-6.54876
▁D	-6.57767
c	-6.5803
▁5	-6.58447
▁R	-6.60002
▁4	-6.60667
▁L	-6.61285
ກັບ	-6.61665
com	-6.62093
ໄດ້	-6.6211
G	-6.62959
en	-6.63046
5	-6.65025
F	-6.65908
p	-6.66096
▁–	-6.66195
or	-6.67494
▁E	-6.67648
ບ	-6.69416
W	-6.70337
!	-6.70482
▁G	-6.71332
a	-6.72641
V	-6.72725
ສໍາລັບ	-6.72728
l	-6.7384
▁ສໍາລັບ	-6.75452
▁ເຄື່ອງ	-6.75688
le	-6.76275
▁2018	-6.77162
ມ	-6.78143
ງ	-6.79345
f	-6.83254
el	-6.84071
▁ທີ່	-6.84324
▁K	-6.84426
▁10	-6.85012
▁ຈີນ	-6.85336
k	-6.85449
K	-6.85815
ຍ	-6.86833
R	-6.88371
20	-6.88608
H	-6.89461
"	-6.89861
et	-6.90292
h	-6.90452
N	-6.91094
ມີ	-6.9168
00	-6.92449
▁ໂດຍ	-6.93876
▁+	-6.95195
ar	-6.95233
ch	-6.96426
re	-6.97392
▁ສະ	-6.98004
▁ຫນ້າທໍາອິດ	-7.00603
▁W	-7.02619
▁6	-7.02677
▁ມີ	-7.0299
it	-7.03391
▁tattoos	-7.03478
▁ຜະລິດຕະພັນ	-7.0364
at	-7.04975
▁2019	-7.07211
▁V	-7.07341
▁N	-7.07453
6	-7.08243
▁"	-7.09082
▁Dust	-7.10146
ur	-7.11157
O	-7.11639
?	-7.12844
▁ໄດ້	-7.13065
st	-7.13707
▁*	-7.13891
w	-7.14216
7	-7.1568
co	-7.16879
ic	-7.17211
I	-7.17719
ແມ່ນ	-7.178
th	-7.17847
10	-7.1798
Y	-7.18346
▁2017	-7.18501
ຈາກ	-7.18798
▁8	-7.19283
ໂດຍ	-7.19493
50	-7.19599
ທັງຫມົດ	-7.19664
້	-7.20476
▁ແມ່ນ	-7.20694
▁the	-7.21186
(	-7.21328
▁7	-7.21625
X	-7.22084
ວ	-7.22685
ro	-7.24129
ເຄື່ອງ	-7.24257
▁Y	-7.2478
am	-7.24808
@	-7.24936
ol	-7.2528
es	-7.25817
E	-7.26029
8	-7.26068
▁Printer	-7.26294
▁ຄວາມ	-7.26483
ຜະລິດຕະພັນ	-7.26524
ລ	-7.26595
▁ສໍາ	-7.26675
un	-7.26794
v	-7.29668
ຄວາມ	-7.30097
▁ຜູ້ຜະລິດ	-7.30915
ທີ່ມີ	-7.31066
...	-7.31091
U	-7.31112
▁ເດືອນ	-7.31303
ສະ	-7.31783
▁ເຊົ່າລົດ	-7.32468
າ	-7.33253
ນີ້	-7.3368
▁ເປັນ	-7.34156
ເ	-7.34199
▁2016	-7.34465
▁and	-7.34593
▁c	-7.35033
▁9	-7.351
▁ກັບ	-7.35404
▁p	-7.35728
id	-7.36134
ໃຫ້	-7.36229
ri	-7.36741
ມາ	-7.36858
30	-7.36984
▁I	-7.37604
▁20	-7.38302
ent	-7.39293
▁Re	-7.39829
່	-7.40344
▁J	-7.40833
▁of	-7.41428
▁0	-7.41816
se	-7.42701
z	-7.42776
▁No	-7.43084
ra	-7.43374
ສ	-7.45199
ad	-7.45891
▁ລັບ	-7.46175
▁12	-7.46562
la	-7.46944
lt	-7.46985
▁Collector	-7.47172
▁to	-7.47325
0	-7.47381
ວ່າ	-7.47527
'	-7.48102
000	-7.49216
▁Hack	-7.493
80	-7.49466
▁£	-7.50645
ang	-7.50701
▁»	-7.51136
ia	-7.51616
j	-7.5163
ຜູ້	-7.53208
ຂອງທ່ານ	-7.5333
ນ້ໍາ	-7.53733
]	-7.53809
ອ	-7.53834
%	-7.53888
9	-7.54261
il	-7.55039
▁ຫນ້າ	-7.55591
us	-7.5602
▁Ltd	-7.56477
▁ຂ່າວ	-7.56523
▁Bag	-7.56548
ry	-7.56948
ທາງ	-7.57292
ຊ	-7.57527
▁O	-7.5817
▁ລະຫັດ	-7.58765
▁Casino	-7.59142
as	-7.59252
▁ທ່ານ	-7.59957
ul	-7.60073
▁[	-7.60965
is	-7.61692
▁19	-7.62094
▁Android	-7.62192
ate	-7.62761
▁ປະເພດ	-7.63148
ແ	-7.63656
▁ຂະຫນາດ	-7.64631
▁Z	-7.65423
▁Valve	-7.6544
lo	-7.65727
ne	-7.65903
ສູງ	-7.66141
▁©	-7.66533
▁X	-7.66559
ຂອງພວກເຮົາ	-7.67205
ta	-7.68615
J	-7.6889
ໃຊ້	-7.69627
ໄປ	-7.69656
40	-7.6973
to	-7.7022
ບໍ່	-7.70648
▁ພວກ	-7.70718
▁ຫຼື	-7.70958
▁15	-7.71049
_	-7.71208
ກັນ	-7.7124
15	-7.71426
11	-7.71485
▁ໂທລະສັບ	-7.71725
▁30	-7.71986
ຕ	-7.72706
ຈະ	-7.73004
ກ່ຽວກັບ	-7.7318
▁by	-7.73339
▁Ch	-7.73634
pe	-7.73694
▁#	-7.73712
ເພື່ອ	-7.7382
▁f	-7.73866
ມັນ	-7.74339
ທີ່ຈະ	-7.74816
▁ກ່ຽວກັບ	-7.75065
ant	-7.75348
ter	-7.7546
ແບບ	-7.75656
16	-7.75884
▁11	-7.76324
ທ່ານ	-7.76718
▁ເມືອງ	-7.7672
ma	-7.7694
▁ປີ	-7.77069
and	-7.77162
60	-7.77211
li	-7.77497
▁ເກມ	-7.77817
sh	-7.78258
te	-7.78351
▁In	-7.78532
▁ດາວນ໌ໂຫລດ	-7.78747
ດ້ວຍ	-7.78883
▁Europe	-7.78897
ຫ	-7.78901
▁ຈາກ	-7.79226
um	-7.79298
▁St	-7.80358
ຢູ່	-7.80414
▁ບໍ່	-7.80693
12	-7.80837
▁ຄໍາ	-7.809
▁ທີ່ຢູ່	-7.80923
▁ໂຮງງານ	-7.80947
13	-7.81851
▁18	-7.8202
ce	-7.82321
▁Filter	-7.8259
ut	-7.82817
01	-7.82945
ers	-7.8302
▁Equipment	-7.83202
ຂ	-7.83957
ໍ	-7.83963
ສີ	-7.84018
ັບ	-7.84138
ine	-7.8421
ຟ	-7.84228
▁ຜູ້	-7.84345
▁ປະ	-7.84522
ion	-7.85219
ສາມາດ	-7.85592
ຈາກປະເທດຈີນ	-7.85898
▁a	-7.86137
▁ເ	-7.86144
all	-7.86403
▁ທີ່ຜ່ານມາ	-7.8674
ly	-7.86743
▁ຊື່	-7.86766
45	-7.87252
ir	-7.87356
35	-7.87439
na	-7.87676
▁for	-7.89628
▁ດາວໂຫລດ	-7.90018
ໃຫມ່	-7.90471
cm	-7.90471
17	-7.90707
ະ	-7.90757
▁The	-7.91191
ທີ	-7.92121
ຣ	-7.92186
ist	-7.92577
Z	-7.93138
55	-7.9316
▁U	-7.93217
ation	-7.93248
▁Steel	-7.93313
mo	-7.9338
ສໍາລັບການ	-7.93478
ac	-7.93486
▁16	-7.93528
ູ	-7.93542
▁ສາຍ	-7.93756
ປະ	-7.93842
▁ສີ	-7.94026
ໄຟຟ້າ	-7.94071
▁re	-7.94133
▁ສຸດ	-7.9459
▁Sh	-7.94637
ຫນ້າ	-7.94698
ie	-7.95059
25	-7.95298
▁tattoo	-7.95459
70	-7.95565
ຄ	-7.95577
▁ຕໍ່	-7.9561
▁Windows	-7.95718
▁De	-7.95825
ap	-7.96178
ຕໍ່	-7.96522
18	-7.97115
ສາຍ	-7.97131
ລະ	-7.97193
▁ອີເມລ໌	-7.97592
ຫຼາຍ	-7.97979
▁ວັນ	-7.98302
ex	-7.98391
ປ	-7.9876
19	-7.98863
”	-7.98899
▁24	-7.9891
07	-7.99084
▁Protection	-7.99499
ot	-7.99868
▁ລິຂະສິດ	-8.00175
▁2015	-8.00269
de	-8.00408
▁2020	-8.006
06	-8.00795
▁Bonus	-8.00881
▁Botou	-8.00955
▁Vessoft	-8.01444
▁25	-8.02176
age	-8.02278
▁ປ	-8.02388
ge	-8.02549
▁Environmental	-8.02555
im	-8.02724
▁ມັນ	-8.02777
▁200	-8.02824
ive	-8.02904
▁UV	-8.03585
ong	-8.03628
ດີ	-8.03664
em	-8.0393
one	-8.04072
ພວກເຮົາ	-8.042
ig	-8.04732
&	-8.04822
ian	-8.04912
ປີ	-8.05186
ປະເທດ	-8.05296
om	-8.0541
▁100	-8.05508
ຖົງ	-8.05523
ພ	-8.05744
up	-8.06176
ຢູ່ໃນ	-8.06505
ຈ	-8.06562
▁ໂຮງງານຜະລິດ	-8.06881
ອື່ນໆ	-8.0697
ell	-8.07286
▁50	-8.0732
ຂໍ້ມູນ	-8.07786
90	-8.07894
ite	-8.07998
ໄດ້ຮັບ	-8.08041
://	-8.08189
ack	-8.08318
ຍີ່ຫໍ້	-8.08464
IN	-8.0886
ອຸປະກອນ	-8.09038
ment	-8.09088
ill	-8.09225
▁ລາວ	-8.09562
ຖ	-8.09574
ປະເພດ	-8.09589
man	-8.10311
▁LTD	-8.10432
ຫຼື	-8.10492
▁ມື	-8.1053
lu	-8.10594
-2	-8.11316
ຜະລິດ	-8.12132
ການຜະລິດ	-8.12255
ຕົວ	-8.12554
ຫຼ	-8.12596
▁Pro	-8.12634
▁Sp	-8.12801
ru	-8.12828
ting	-8.12845
▁de	-8.12938
28	-8.12977
▁ກໍາ	-8.12986
op	-8.12989
ide	-8.13023
▁w	-8.13319
ຸ	-8.13349
ba	-8.13354
▁ຕໍ່ໄປ	-8.13436
▁“	-8.13498
▁ສ	-8.14287
▁14	-8.14428
▁Free	-8.14613
▁ລະ	-8.14891
tic	-8.14942
08	-8.15189
ຮ	-8.15478
ທຸລະກິດ	-8.15535
23	-8.15674
ອາຫານ	-8.15676
▁Top	-8.16297
ເງິນ	-8.16394
09	-8.16544
ໃນການ	-8.16549
XL	-8.17377
▁h	-8.17699
di	-8.17991
key	-8.18096
21	-8.18101
▁ຈໍາ	-8.18184
▁ລາຄາ	-8.18798
able	-8.18912
ອາ	-8.19613
ow	-8.19905
▁13	-8.2036
os	-8.20494
▁ລາຍລະອຽດ	-8.20531
ເຂົ້າ	-8.20644
▁Koh	-8.20776
▁ນໍາ	-8.20868
▁ພວກເຮົາ	-8.20996
33	-8.21163
AN	-8.21395
▁(1	-8.21458
ອນ	-8.21465
▁LED	-8.21574
ລົດ	-8.22176
▁Rong	-8.22294
▁ເພື່ອ	-8.22428
▁ລະບົບ	-8.22447
-1	-8.22505
ສອງ	-8.22897
he	-8.22933
ton	-8.23059
od	-8.23088
▁ຊຸດ	-8.23407
24	-8.23458
▁60	-8.23567
ລີ	-8.23731
▁ທໍ່	-8.2374
ນາ	-8.23771
▁ລາ	-8.23818
14	-8.23899
ວັນ	-8.23988
ສົ່ງ	-8.24296
ass	-8.24646
▁Mo	-8.24918
▁Me	-8.25797
ຍາວ	-8.25854
▁Li	-8.25972
ເຖິງ	-8.26073
bu	-8.26191
ອອກ	-8.26662
ab	-8.2696
99	-8.27082
▁ຜ້າ	-8.27217
້າ	-8.27259
▁Industrial	-8.2741
ວັດ	-8.27507
05	-8.27595
sk	-8.2762
ປາ	-8.27896
ລະບົບ	-8.2818
▁Ma	-8.28194
ag	-8.28252
▁East	-8.28262
ຈາກຈີນ	-8.28399
ຄົນ	-8.284
65	-8.28488
▁ຕິດຕໍ່ຕອນນີ້	-8.28631
▁ລາຄາຖືກ	-8.2871
▁ໃຫ້	-8.2871
▁ສາ	-8.28796
kg	-8.28821
ພິມ	-8.28869
▁Pulse	-8.29134
ip	-8.29182
me	-8.29351
go	-8.29384
ດ້ານ	-8.29536
eng	-8.2961
▁ຮູບພາບ	-8.29678
▁ບໍລິສັດ	-8.29695
▁Manufacturer	-8.30124
ບໍລິສັດ	-8.30171
ard	-8.30258
▁ວິທະຍາໄລ	-8.30357
▁ວິທີການ	-8.30596
ay	-8.30709
▁°	-8.30729
est	-8.30946
ho	-8.31102
▁ທໍາ	-8.31126
ER	-8.31378
86	-8.31565
36	-8.31759
der	-8.32134
ເຮັດ	-8.32681
▁Air	-8.3281
▁Tag	-8.32822
da	-8.32924
ລາວ	-8.32986
▁2014	-8.33348
ເກມ	-8.33361
ໃຈ	-8.3348
3}	-8.33532
▁ພາສາລາວ	-8.33616
▁you	-8.33739
▁La	-8.33852
▁City	-8.33881
="	-8.33911
48	-8.33967
▁ອຸປະກອນ	-8.3418
ຂາຍ	-8.34459
▁Line	-8.34619
ver	-8.34669
ແລະຜູ້ຜະລິດ	-8.3468
ace	-8.3477
▁{_	-8.34814
▁Ro	-8.35037
q	-8.35089
02	-8.35201
▁~	-8.35291
ື	-8.35296
32	-8.35303
ອຸດສາຫະກໍາ	-8.35371
AR	-8.35522
ຫາ	-8.35747
sa	-8.3593
▁ເຈົ້າ	-8.35964
ator	-8.36119
ຜ່ານ	-8.36136
▁ແລະອື່ນໆ	-8.3633
▁2013	-8.36478
ster	-8.36792
▁Machine	-8.36997
▁ມັງກອນ	-8.37012
ight	-8.37177
▁22	-8.37286
▁Mark	-8.37659
▁ຫນຶ່ງໃນ	-8.37693
oujian	-8.37736
ທໍ່	-8.37806
04	-8.37875
75	-8.37875
▁Wholesale	-8.37982
ົນ	-8.38121
Q	-8.38241
ງານ	-8.38455
58	-8.38459
▁ແຕ່	-8.38498
22	-8.38672
▁USD	-8.38701
▁Tattoos	-8.38846
ຫນຶ່ງ	-8.38916
▁ກົດ	-8.39155
▁Webtalk	-8.39356
▁ຄວາມຫມາຍ	-8.39387
▁17	-8.39517
art	-8.39655
200	-8.40088
34	-8.40102
ity	-8.40131
▁ເຮົາ	-8.40201
ເຄ	-8.40238
▁ຢູ່	-8.40271
ລວມ	-8.40614
ລາຄາຕໍ່າ	-8.40801
ັງ	-8.40873
ທ	-8.40924
▁500	-8.40929
pa	-8.41162
▁ອ່ານ	-8.41165
▁ມີຄຸນນະພາບສູງ	-8.41196
▁ພາ	-8.41531
▁21	-8.41555
ຕິ	-8.41655
ak	-8.41789
ີ	-8.41858
LE	-8.42
▁ນໍາໄປສູ່	-8.42086
▁40	-8.42415
ເຮົາກໍາລັງພິເສດ	-8.4246
ph	-8.42666
▁ເຄື່ອງພິມ	-8.42675
▁Tags	-8.42677
▁ນີ້	-8.43109
ve	-8.43211
ຊື່	-8.43284
▁ISO	-8.43387
▁•	-8.43394
▁WordPress	-8.43569
▁Star	-8.43632
▁ໃຊ້	-8.43643
▁Home	-8.43673
▁ຍີ່ຫໍ້	-8.43715
ສູງສຸດ	-8.44029
ns	-8.44049
▁Al	-8.4417
37	-8.44232
26	-8.44542
ga	-8.44581
ສະຫນອງ	-8.44816
▁ຂໍ້	-8.44826
▁Bo	-8.44866
China	-8.44999
500	-8.45006
bo	-8.45545
ຍາ	-8.456
ສ້າງ	-8.45863
▁be	-8.45947
▁ອຸດສາຫະກໍາ	-8.45967
29	-8.46146
▁District	-8.46223
ຕາ	-8.46278
ພາຍໃນ	-8.46406
ກະ	-8.46417
▁ຖະຫນົນ	-8.46429
▁Main	-8.46476
ປະເພດທຸລະກິດ	-8.46599
our	-8.46618
ລະດັບ	-8.46714
ອາກາດ	-8.46746
ຕະຫຼາດ	-8.46801
ເຮັດໃຫ້	-8.46892
98	-8.4692
27	-8.46945
▁Lao	-8.46997
tion	-8.47288
ເວລາ	-8.47289
per	-8.47305
▁To	-8.47311
AL	-8.47489
ເກັບ	-8.47681
hi	-8.47962
ເບິ່ງ	-8.48314
31	-8.48318
*	-8.48441
ອອນໄລນ໌	-8.48479
ຂ່າວ	-8.48489
ັກ	-8.48552
ni	-8.48562
▁Series	-8.4876
ha	-8.48771
77	-8.48838
out	-8.48878
tv	-8.4918
▁ຫ້ອງ	-8.49188
ໂ	-8.49191
ອດ	-8.49232
▁×	-8.49264
▁Theme	-8.49395
▁ໂທ	-8.49533
▁Mobile	-8.49543
▁ຟຣີ	-8.49591
51	-8.4963
▁Be	-8.49899
▁ຈະ	-8.49973
▁ສີດໍາ	-8.5029
▁'	-8.5034
end	-8.50341
▁Ba	-8.50778
www	-8.5083
ນັ້ນ	-8.50867
▁Live	-8.50928
66	-8.50946
▁€	-8.51001
▁ປະເພດຜະລິດຕະພັນ	-8.51121
\	-8.51147
▁ຖົງ	-8.51208
▁Mar	-8.5124
MP	-8.51245
95	-8.51312
ect	-8.51556
ບັນຈຸ	-8.51574
ຈີນ	-8.5174
▁Le	-8.51786
ທຸກ	-8.51823
▁ນ້ໍາ	-8.51927
ຕ່າງໆ	-8.51959
▁ດີ	-8.52068
ick	-8.52362
rn	-8.52498
38	-8.526
ເຮັດວຽກ	-8.52839
▁ລົດ	-8.52951
▁ຄາສິໂນ	-8.53019
▁RN	-8.53029
▁ຫາ	-8.53051
▁ພະ	-8.53174
▁ບັດ	-8.53206
▁Ningbo	-8.5339
ໄຟ	-8.53517
yl	-8.53632
ສ່ວນ	-8.53756
▁ນ້ໍາຫນັກ	-8.53823
▁ຫນ	-8.53992
ຜ	-8.54502
ເມືອງ	-8.54657
▁ຕົວ	-8.54677
100	-8.54709
©	-8.54966
ລິ	-8.5498
ເຂດ	-8.55024
ພຽງແຕ່	-8.55058
▁ຜູ້ສົ່ງອອກ	-8.55068
▁ໄປ	-8.55171
+	-8.55186
ເລ	-8.55345
ພັນ	-8.55389
au	-8.55571
▁withoutwax	-8.55687
ຈໍາກັດ	-8.55784
▁is	-8.55891
▁ຮຸ່ນ	-8.55898
85	-8.55961
▁ສ່ວນ	-8.56017
▁Cheats	-8.56022
ຊີ	-8.56093
ອັດຕະໂນມັດ	-8.56177
ິ	-8.56311
57	-8.56332
ish	-8.56366
ຍັງ	-8.56403
va	-8.56421
ຢ່າງ	-8.56729
ຜ້າ	-8.56772
▁ໃຫມ່	-8.56779
44	-8.57017
ຕະ	-8.5714
ເທ	-8.57196
▁http	-8.57298
gu	-8.5737
SS	-8.57398
▁ພະລັງງານ	-8.57456
ສາມ	-8.57541
ພິເສດ	-8.57597
ps	-8.57606
39	-8.57705
▁Q	-8.57737
sta	-8.57784
ທີ່ດີທີ່ສຸດ	-8.57839
’	-8.58037
ັດ	-8.58078
tattoos	-8.58206
▁ຮູບ	-8.58598
-8	-8.58607
£	-8.58723
ໂລກ	-8.58791
ຂະຫນາດ	-8.58947
io	-8.58988
ຢ	-8.59033
88	-8.59045
▁=	-8.59261
IC	-8.59308
▁v	-8.5932
ເຊ	-8.59399
hen	-8.59431
▁New	-8.59447
no	-8.59561
act	-8.5957
ກົດ	-8.59703
ພະລັງງານ	-8.59715
ສັດ	-8.59734
EN	-8.59931
▁Se	-8.59941
ປ້ອງກັນ	-8.60002
▁Laser	-8.60008
▁ຫນາດ	-8.6014
ກາ	-8.60263
AT	-8.60438
▁ການທົບທວນຄືນ	-8.60459
bi	-8.60552
ຫມ	-8.60605
over	-8.60632
ໄວ	-8.60862
ລາຄາ	-8.60908
ຢາ	-8.6092
▁ma	-8.6101
61	-8.61318
ເລືອກ	-8.61632
ance	-8.61773
org	-8.61885
ຂຶ້ນ	-8.61919
74	-8.61947
▁ຫມົດ	-8.62009
ລູກຄ້າ	-8.62028
qu	-8.62117
▁ການຫຸ້ມຫໍ່	-8.62205
ub	-8.62353
ຟຣີ	-8.62416
▁Jet	-8.62441
ou	-8.62597
vi	-8.62603
ສຸດ	-8.62698
ໂຄງການ	-8.62711
ການຄ້າ	-8.62814
76	-8.62827
ຊື້	-8.62916
▁ອອນໄລນ໌	-8.63177
ເປີດ	-8.63181
▁ຫຼິ້ນ	-8.63195
▁1000	-8.63408
ຮ່ວມ	-8.6358
ໃຫຍ່	-8.63731
ແລ້ວ	-8.63737
les	-8.63783
▁ຈໍານວນ	-8.63796
ພາກ	-8.63827
ອມ	-8.63831
ຕາມ	-8.63865
ແຜ່ນ	-8.63903
ຝຸ່ນ	-8.63946
▁ມມ	-8.64221
▁ອາ	-8.64518
ດຽວ	-8.64699
▁Wall	-8.64758
ner	-8.64798
ec	-8.64897
▁ແຜ່ນ	-8.65028
ຕ່ໍາ	-8.65189
ear	-8.65383
ash	-8.65487
ທີ່ສຸດ	-8.65581
car	-8.6562
ock	-8.6563
ໃສ່	-8.65768
ກອງ	-8.65791
▁Blue	-8.65915
▁26	-8.65989
ເຊັ່ນ	-8.66017
▁Technology	-8.66141
low	-8.66159
ber	-8.66239
▁QR	-8.66264
▁ຂະ	-8.66305
▁ສີຂາວ	-8.66391
AS	-8.66444
41	-8.66499
aw	-8.66672
cy	-8.66773
ເກ	-8.66916
້ນ	-8.66969
mon	-8.67067
▁pro	-8.67098
ຢາງ	-8.67105
▁Type	-8.67322
ile	-8.67521
ຊີວິດ	-8.67553
ໂທລະສັບ	-8.67731
▁ຕິດ	-8.67905
46	-8.67937
່ນ	-8.67944
▁CO	-8.68058
▁ເວັບໄຊທ໌	-8.6817
▁Cyclone	-8.68273
68	-8.68375
tor	-8.68462
▁ເມ	-8.68489
cc	-8.68561
ບາງ	-8.68594
ອກ	-8.68618
▁ວິ	-8.68668
ST	-8.68747
ke	-8.68791
▁sp	-8.68809
ເຫັນ	-8.68842
ca	-8.68899
ti	-8.6897
ຂີ້ຝຸ່ນ	-8.68977
ພັກ	-8.6908
PA	-8.69112
67	-8.69152
49	-8.69172
ັ	-8.69191
ສານ	-8.696
ast	-8.69634
52	-8.69697
▁For	-8.69703
-6	-8.69742
OS	-8.69779
ກັດ	-8.69834
ລັດ	-8.69885
▁	-8.70005
ຈັດ	-8.70027
oo	-8.701
ຮູບພາບ	-8.70154
ium	-8.70182
▁\	-8.70205
ກໍານົດ	-8.7021
ຄືນ	-8.70442
▁Online	-8.70458
▁ທີ່ໃຊ້ເວລາ	-8.70462
▁ເບິ່ງ	-8.7051
ark	-8.70519
▁ດາວ	-8.70543
we	-8.70652
ຄອມພິວເຕີ	-8.70698
▁ຫນູນ	-8.70701
land	-8.7086
ated	-8.70904
ຄໍາ	-8.7092
56	-8.70982
▁Press	-8.7106
ລາ	-8.71244
ປະຕູ	-8.71269
ໂລຫະ	-8.71296
▁Bu	-8.71305
▁ທະ	-8.71426
▁Vi	-8.71499
-5	-8.71527
▁Gu	-8.71585
ໄມ້	-8.71616
ປະຕິບັດ	-8.71665
▁ທົດລອງ	-8.71665
▁Worldwide	-8.71684
47	-8.71717
▁start	-8.71727
line	-8.71813
ນີ	-8.71871
ID	-8.71948
ug	-8.71986
SA	-8.72269
▁Qu	-8.72284
ເຫຼັກ	-8.7234
ON	-8.72383
▁Fiber	-8.72432
▁Car	-8.72472
ການສຶກສາ	-8.7249
"&	-8.72654
ເຄືອຂ່າຍ	-8.7268
ET	-8.72694
str	-8.72745
▁ໂທລະສັບມືຖື	-8.72823
tra	-8.72899
▁ເມສາ	-8.72947
che	-8.72961
▁ຫ	-8.73027
ການພັດທະນາ	-8.73148
ka	-8.73205
▁ຂາຍ	-8.73312
78	-8.73349
MA	-8.73406
IT	-8.73465
ງ່າຍ	-8.73475
ies	-8.73535
▁ຢາງ	-8.73602
▁Straightener	-8.73687
▁An	-8.73858
ັນ	-8.73884
▁ຜູ້ຈໍາຫນ່າຍ	-8.73955
ຕິດຕໍ່ຕອນນີ້	-8.73969
ue	-8.74102
ຸນ	-8.74104
ນິ	-8.74133
▁Feeder	-8.74195
▁Black	-8.74197
▁24)	-8.74277
ຮູບແບບ	-8.74325
ສຽງ	-8.74342
▁Pe	-8.744
ຜົນ	-8.74408
ຮັບ	-8.74429
ci	-8.74444
cl	-8.74585
▁ຊື້	-8.74696
ຕົວຢ່າງ	-8.74697
ພັດທະນາ	-8.74738
ຄຸນນະພາບ	-8.74802
ບໍ່ມີ	-8.74916
▁Plastic	-8.74959
▁USB	-8.75049
ມື	-8.75147
ຊາຍ	-8.75154
▁ສິງຫາ	-8.75222
ric	-8.75237
be	-8.75249
cr	-8.7532
89	-8.75371
▁ຮັບ	-8.754
300	-8.75697
▁ລິ	-8.75719
ຕິດຕໍ່	-8.75764
43	-8.75798
່າ	-8.75799
▁100%	-8.75926
▁Tube	-8.7599
▁LAK	-8.7599
av	-8.76046
▁He	-8.76053
ess	-8.76077
63	-8.76092
▁ຈ	-8.76134
ທິ	-8.76379
2019	-8.76463
ກາງ	-8.76471
ty	-8.76505
▁CNC	-8.76524
iv	-8.76552
ພາສາ	-8.76574
42	-8.76625
03	-8.76685
▁iPhone	-8.76768
▁FIMT	-8.76768
ຕ້ອງການ	-8.76769
▁with	-8.77048
ບໍລິການ	-8.77121
▁ພຶດສະພາ	-8.77233
ng	-8.77297
▁ອິດ	-8.77299
ort	-8.77441
▁Power	-8.77657
air	-8.77666
▁PVC	-8.7782
pl	-8.77823
69	-8.77982
ພາບ	-8.78095
net	-8.78116
ໂລ	-8.78174
▁Lo	-8.78195
ure	-8.78218
ິນ	-8.78455
▁ຄວາມຄິດເຫັນທີ່	-8.78464
ov	-8.78524
ຄວາມຮ້ອນ	-8.7857
▁ສັບ	-8.78699
▁Chat	-8.7886
▁Servo	-8.78877
ust	-8.78992
▁dur	-8.79047
▁Pu	-8.79103
▁Roulette	-8.79143
ມິ	-8.79167
tro	-8.79219
▁EUR	-8.79228
▁ສ້າງ	-8.79338
ເດືອນ	-8.79391
az	-8.79569
pr	-8.79629
min	-8.79849
▁High	-8.79952
ໂຮງງານຜະລິດ	-8.80013
ຂະຫຍາຍ	-8.80067
▁ພັນ	-8.80091
ມື້ນີ້	-8.80157
ສິນຄ້າ	-8.80487
ink	-8.80547
ee	-8.80658
mi	-8.80691
▁Sa	-8.80795
pt	-8.80934
ແນະນໍາ	-8.80936
lin	-8.81113
if	-8.81483
▁ແບບ	-8.81525
▁Flatbed	-8.81575
ປະທານ	-8.81575
▁150	-8.8168
▁hack	-8.81712
ລະຫັດ	-8.81735
ຮູບ	-8.81753
▁he	-8.8183
▁ກະ	-8.81941
▁spy	-8.82044
▁ເຊິ່ງ	-8.82064
▁2011	-8.8207
OR	-8.8209
▁ຄູ່ມື	-8.82204
ໄດ້ຖືກ	-8.82205
▁ນາ	-8.82275
ອື່ນ	-8.82373
▁Un	-8.82409
fi	-8.82437
▁ໂທລະ	-8.8257
du	-8.82623
▁300	-8.82633
ame	-8.8276
fa	-8.82769
ນໍາ	-8.82997
ຂະ	-8.83131
mb	-8.83218
ຸດ	-8.83235
▁fabric	-8.83509
ຕ້ອງ	-8.83515
ການຝຶກອົບຮົມ	-8.83558
ລົງ	-8.83561
ອບ	-8.836
▁IP	-8.83626
▁Fl	-8.83866
CE	-8.83919
ຕັດ	-8.83922
▁Asia	-8.83927
▁ສູງ	-8.84093
53	-8.84246
ໆ	-8.84265
ມະ	-8.84286
▁31	-8.84367
ning	-8.84432
ank	-8.84502
back	-8.84502
▁ມີນາ	-8.84532
ຂະຫນາດໃຫຍ່	-8.84599
old	-8.84667
▁Board	-8.84668
ind	-8.84678
▁En	-8.84705
tt	-8.8483
▁Cert	-8.8489
ຜົນກະທົບ	-8.84913
ຄິດ	-8.84943
▁Mi	-8.84996
82	-8.85052
ໄດ້ຮັບການ	-8.85116
ok	-8.85131
59	-8.85151
▁ກ່ອງ	-8.85292
ນ້	-8.8537
96	-8.85385
ພື້ນທີ່	-8.85394
nd	-8.85492
ຄື	-8.85619
ven	-8.857
ໄປສະນີ	-8.85766
▁North	-8.85769
port	-8.85776
▁ກັນຍາ	-8.86058
71	-8.86098
oc	-8.86121
lan	-8.86206
hu	-8.86221
▁Spy	-8.86381
ep	-8.86703
94	-8.86794
ຄູ່	-8.86818
CH	-8.8685
▁ອາທິດ	-8.86857
▁ດອກ	-8.86876
▁29	-8.86932
uck	-8.86942
ake	-8.87033
ແຜນ	-8.8704
ll	-8.87137
ສາ	-8.87159
ລະຫວ່າງ	-8.87202
▁Markets	-8.87205
ບັນທຶກ	-8.87223
ສະເຫນີ	-8.87243
▁pm	-8.87432
ເທິງ	-8.87484
ເລີ່ມຕົ້ນ	-8.87499
ຫ້ອງ	-8.87585
ບານ	-8.87681
▁2012	-8.87703
ການນໍາໃຊ້	-8.87724
▁ເຮັດ	-8.87893
ຜູ້ຜະລິດ	-8.87898
▁your	-8.87985
▁Mini	-8.88103
;&	-8.88147
ຈໍານວນ	-8.88177
້ງ	-8.88248
atch	-8.88309
▁Tattoo	-8.88323
do	-8.88355
▁Google	-8.88367
▁Charter	-8.88367
ທີ່ກ່ຽວຂ້ອງ	-8.88434
ຖືກ	-8.88587
RA	-8.8859
ling	-8.886
ml	-8.88743
▁Pa	-8.88772
▁Th	-8.88929
cat	-8.8928
ase	-8.89285
ox	-8.89308
▁ມື້	-8.89332
▁App	-8.89342
▁ທ	-8.89385
ກ່ອນຫນ້ານີ້	-8.89545
▁English	-8.89545
ea	-8.89599
▁tattoostattoos	-8.89723
▁ຫຼາຍ	-8.89775
▁Web	-8.89828
SP	-8.89995
ຊຸດ	-8.90015
▁We	-8.90049
▁All	-8.90081
fe	-8.90098
zhou	-8.90172
▁ຂໍ້ມູນ	-8.90178
▁ໍາ	-8.90245
▁Suppliers	-8.90281
▁35	-8.90283
ອ່ານ	-8.90295
▁ຫມາຍ	-8.90333
ເຄື່ອງພິມ	-8.90421
▁ຕຸລາ	-8.90652
ສະຫນັບສະຫນູນ	-8.9067
▁ເຂົ້າ	-8.90733
▁ຫນັງສືພິມ	-8.90738
▁ສາມາດ	-8.90773
ES	-8.90787
ເມ	-8.90837
▁West	-8.90842
▁so	-8.90874
62	-8.90999
ສັງຄົມ	-8.91039
▁ໄຟຟ້າ	-8.91265
ron	-8.91357
▁Di	-8.91546
▁ຖື	-8.91605
-10	-8.91644
▁ວັດສະດຸ	-8.91664
▁Cage	-8.91749
ial	-8.9176
ຕັ້ງ	-8.91836
▁Stainless	-8.91944
▁Price	-8.91962
des	-8.91995
ld	-8.92019
▁ຍາ	-8.92051
▁Call	-8.92176
ນີ້ແມ່ນ	-8.92193
▁ຫນ່ວຍ	-8.92305
72	-8.92445
ore	-8.9245
ໃນໄລຍະ	-8.92509
ກວ່າ	-8.92643
່ງ	-8.92803
ພິ	-8.92866
▁ບັນ	-8.92957
ຂະຫນາດນ້ອຍ	-8.92982
int	-8.92987
her	-8.92988
93	-8.93099
97	-8.93131
ສໍາເລັດ	-8.93151
ປະມານ	-8.93167
▁Contact	-8.93173
hang	-8.93186
IS	-8.93235
ກໍາລັງ	-8.93236
ene	-8.93419
po	-8.93442
ice	-8.93445
▁XL	-8.93447
▁23	-8.93474
ພາ	-8.93559
▁ຂ້າພະເຈົ້າ	-8.93628
ຊີ້	-8.93727
▁Park	-8.93733
RE	-8.93751
ຍົກ	-8.93782
ລາງວັນ	-8.93785
ສໍາຫລັບ	-8.93852
ff	-8.93974
ເສ	-8.93997
board	-8.94121
ek	-8.94149
▁ຊີ	-8.942
▁ສົ່ງ	-8.94269
▁27	-8.94337
ຕົນເອງ	-8.94585
ທົ່ວໄປ	-8.94592
▁ຊັ້ນ	-8.94597
54	-8.94764
ວາ	-8.94785
ເອົາ	-8.95027
▁Up	-8.95046
ສະຫ	-8.95113
ໂຊ	-8.9516
hy	-8.95244
less	-8.95259
ຄວາມປອດໄພ	-8.95262
ບໍລິ	-8.95271
▁ປ່ຽນ	-8.95275
ສິ່ງທີ່	-8.95282
ພ້ອມ	-8.95339
▁Download	-8.95339
▁Zhejiang	-8.95339
▁PTFE	-8.9534
▁ເລືອກ	-8.95422
ເຂົາ	-8.95474
ຸ່ມ	-8.95529
▁ກຸມພາ	-8.95557
ວຍ	-8.95735
▁Win	-8.95739
CA	-8.95839
▁ຫນາ	-8.95847
ຕິດຕັ້ງ	-8.95878
87	-8.95942
▁ວິນາທີ	-8.95969
are	-8.96414
tattoo	-8.96432
▁ເງິນ	-8.96432
lic	-8.9648
▁FREE	-8.96604
work	-8.96613
ການເຮັດວຽກ	-8.96636
▁XXL	-8.96723
ເດັກນ້ອຍ	-8.96786
ດູດ	-8.96923
ໂທລະສັບມືຖື	-8.97105
81	-8.97134
ຂາ	-8.97188
ເອກະສານ	-8.97205
▁Aluminum	-8.97241
ob	-8.97255
ໄລຍະ	-8.97262
ຮູ້	-8.97272
ຄວບຄຸມ	-8.97386
▁RFC	-8.97465
ນໍາໃຊ້	-8.97589
▁ຫະ	-8.97621
Hz	-8.97659
xi	-8.97753
▁ນິ້ວ	-8.97873
▁America	-8.97883
ai	-8.98176
ທາ	-8.98221
91	-8.98225
▁ຜູ້ສະຫນອງ	-8.98282
ຈໍາ	-8.98345
ud	-8.98434
ເພ	-8.9845
▁Light	-8.98485
▁ກ່ຽວ	-8.98486
ນອກ	-8.98486
ຶ	-8.98491
ວິດີໂອ	-8.98518
ເຄື່ອງຈັກ	-8.98563
ວັນທີ	-8.98658
ທີ່ຢູ່	-8.98853
ຊົມ	-8.98854
▁fl	-8.9888
ສອນ	-8.98986
AP	-8.98987
▁Ph	-8.99035
og	-8.99242
ຕິດຕາມ	-8.99277
▁Road	-8.99287
UN	-8.99291
ແປ	-8.99327
▁Double	-8.99507
ແມ່	-8.99666
▁Pre	-8.99677
ໃນປັດຈຸບັນ	-8.99706
ik	-8.99762
hai	-8.99773
ການປິ່ນປົວ	-8.9979
▁ບ້ານ	-8.9982
▁Conveyor	-8.99835
▁Vaccine	-8.99835
ໂຮງຮຽນ	-8.99839
92	-9.00036
pp	-9.00049
▁ຄາ	-9.00119
▁Shenzhen	-9.00164
ix	-9.00267
ຫຼິ້ນ	-9.00304
▁ກະລຸນາ	-9.00349
▁Custom	-9.00494
▁Microsoft	-9.00496
ຄະນະ	-9.00498
▁ວິດີໂອ	-9.00505
▁Ha	-9.00521
top	-9.00543
ໂກ	-9.00551
▁ເຄື່ອງຈັກ	-9.00585
day	-9.00588
log	-9.00648
ນອນ	-9.00726
ສະແຕນເລດ	-9.00741
▁ເຖິງ	-9.00879
ຫົວ	-9.00883
ໂມ	-9.01003
ຂຽນ	-9.01016
▁ໄມ້	-9.01034
lim	-9.01103
gen	-9.01209
ade	-9.01301
ເຈ	-9.01407
ert	-9.01419
ເຢັນ	-9.01481
ຄວາມຕ້ອງການ	-9.01506
▁Forex	-9.01538
ລູກ	-9.01722
ເຮືອນ	-9.01789
RI	-9.01884
ສະຖານທີ່	-9.01934
▁ເຄື່ອງມື	-9.01975
ແຫ້ງ	-9.0216
▁Polyester	-9.0216
ແກ້ວ	-9.0218
ບັດ	-9.02197
ກ່ອນ	-9.02217
wi	-9.02523
ແລ	-9.02556
▁20%	-9.02682
▁ທີ	-9.02757
▁ໂຫລດ	-9.0276
▁Fe	-9.02786
▁HD	-9.02789
0,000	-9.028
ສຸຂະພາບ	-9.02835
▁Ho	-9.02995
ບາ	-9.0306
▁Rotary	-9.03174
▁45	-9.0322
▁AC	-9.03319
ກໍລະນີ	-9.03514
ave	-9.03526
▁Gr	-9.03554
ມີຄວາມ	-9.03602
}	-9.0366
ອງ	-9.03797
ປະກອບ	-9.03812
▁XXXL	-9.03855
nic	-9.03874
oll	-9.04139
ວດ	-9.04144
ທະ	-9.04176
ແມ່ຍິງ	-9.0419
ກົດຫມາຍ	-9.04315
▁ຄ	-9.04401
▁28	-9.0444
vo	-9.04482
nc	-9.04508
ພຣະ	-9.04522
▁ພະຈິກ	-9.04541
▁ລ້ານ	-9.04541
▁Square	-9.04541
▁ແກ້ວ	-9.04555
0.0	-9.04648
▁app	-9.04672
ste	-9.04806
ເຊົ່າ	-9.04884
pi	-9.0493
ວນ	-9.0501
ຮ້ອນ	-9.05161
ເຊີ	-9.05219
▁Tri	-9.05276
▁Dress	-9.05294
ຕອນ	-9.05322
ຜະ	-9.05396
ການຄວບຄຸມ	-9.05422
ເວົ້າ	-9.05523
▁ປະເທດ	-9.05542
▁ໄທ	-9.05579
ib	-9.05673
EL	-9.05755
AC	-9.05787
▁Cl	-9.05823
ev	-9.05864
con	-9.05892
▁ມິຖຸນາ	-9.05928
ປະຊາຊົນ	-9.05932
Hebei	-9.05934
ແມ່ເຫຼັກ	-9.05945
ອັນ	-9.0604
▁Email	-9.06057
▁me	-9.06248
ອອກແບບ	-9.0626
ເຂົ້າຮ່ວມ	-9.06275
ເຕັມ	-9.06278
ບັນດາ	-9.06333
▁PDF	-9.06343
ນ້ໍາມັນ	-9.06494
ພະ	-9.06505
▁Cam	-9.0653
ft	-9.06566
▁pre	-9.0657
▁ຜ່ານ	-9.06603
800	-9.06614
▁Global	-9.06628
▁WhatsApp	-9.06628
5%	-9.06734
▁ອັດຕະໂນມັດ	-9.0687
ain	-9.06887
ome	-9.06917
ຂີ້ເຫຍື້ອ	-9.06981
ah	-9.07131
ເບ	-9.07176
ສະແດງ	-9.0723
▁Ra	-9.07243
▁ບໍ່ມີ	-9.07315
▁Sheet	-9.07335
▁ບໍລິການ	-9.07388
ທາງການ	-9.074
ຊັ້ນ	-9.07456
▁do	-9.07537
ı	-9.07689
▁ພິມ	-9.07716
way	-9.07754
fu	-9.078
ຕໍ່ໄປ	-9.07813
ເວັບໄຊທ໌	-9.07841
pcs	-9.07899
▁ໂຄງການ	-9.07924
ຂ້າພະເຈົ້າ	-9.08022
▁ຜະລິດ	-9.08028
▁Art	-9.08179
ລາຍ	-9.08214
ສາດ	-9.08214
▁ເປີດ	-9.08328
ກິດຈະກໍາ	-9.08401
ມ້ວນ	-9.08401
ຊິ	-9.08464
bit	-9.08522
ເຈົ້າ	-9.0856
ເພີ່ມເຕີມ	-9.08658
PS	-9.08715
▁Whiteboard	-9.08769
▁ກອນ	-9.08801
64	-9.08836
▁90	-9.08949
ເຫ	-9.08976
ການປ່ຽນແປງ	-9.08976
▁ໄຟ	-9.09057
▁Other	-9.09122
▁ທັນວາ	-9.0913
ຫຼັງຈາກ	-9.09132
▁ຕາຕະລາງ	-9.09151
ດິນ	-9.09158
by	-9.09221
▁Slot	-9.09227
ary	-9.09276
▁໌	-9.09286
ail	-9.0938
▁Comp	-9.09418
ປະສົບການ	-9.09466
▁ອາດ	-9.09514
▁ຫນຶ່ງ	-9.09557
▁Bra	-9.09627
uk	-9.09675
▁Wi	-9.09758
ບັນຊີ	-9.09837
0%	-9.09838
wa	-9.09847
▁Si	-9.09871
ous	-9.09985
▁ຕັດ	-9.0999
▁ເຄື່ອງຕັດ	-9.10003
73	-9.1003
mail	-9.10095
ນາງ	-9.10151
ບ້ານ	-9.10223
▁OEM	-9.10245
ຄັດ	-9.10251
▁Pump	-9.10293
uc	-9.10315
່າງ	-9.1037
ence	-9.10409
ວງ	-9.10409
▁+86	-9.10424
ວາງ	-9.10562
ເສື້ອ	-9.1057
▁Laotian	-9.1058
own	-9.10609
ປ່ຽງ	-9.10625
iz	-9.10807
1%	-9.10818
ອັງກິດ	-9.10883
ຄວາມກົດດັນ	-9.10938
84	-9.10992
9001,	-9.10996
ເພງ	-9.11065
ວິທີການ	-9.1113
EC	-9.11157
83	-9.11274
ລັກສະນະ	-9.11277
ບິນ	-9.11367
par	-9.11367
ດາ	-9.11437
ຫລາຍ	-9.11448
ມາດຕະຖານ	-9.11452
arm	-9.11455
▁ຊອບແວ	-9.11482
box	-9.11508
ເນ	-9.11572
ເຄືອບ	-9.11861
▁ອາຫານ	-9.1192
▁ບໍ	-9.11925
ຊາດ	-9.11993
▁motor	-9.1205
ING	-9.12074
ຕົ້ນ	-9.12385
-0	-9.12462
▁di	-9.12471
▁ສະຖານທີ່	-9.1249
ຈັນ	-9.126
TE	-9.12772
ຊອກຫາ	-9.12773
▁ຜົງ	-9.1279
▁Smart	-9.12791
ທໍາອິດ	-9.1282
ກະດານ	-9.12994
▁Mac	-9.13038
▁Ge	-9.13053
▁Group	-9.13165
tri	-9.13204
ple	-9.13262
▁PC	-9.13268
pper	-9.13305
▁ຕອບ	-9.13352
lip	-9.13499
ປ່ອຍ	-9.1354
▁Do	-9.1355
lock	-9.13649
▁News	-9.13732
▁tr	-9.13741
ອຍ	-9.13782
res	-9.13928
ວິ	-9.14206
und	-9.14247
ລົມ	-9.14293
ose	-9.14309
▁tattoostattoo	-9.14334
▁Phone	-9.14335
phone	-9.14385
ມັກ	-9.14424
ຄັ້ງ	-9.14497
▁ພາບ	-9.14515
ເສັ້ນ	-9.14611
ren	-9.14623
ໃນປີ	-9.1464
ຫລື	-9.14676
ຂື້ນ	-9.14677
chi	-9.14732
▁ນາທີ	-9.14736
▁Jo	-9.14776
▁ອີ	-9.14787
ປະສິດທິພາບ	-9.14965
▁Caribbean	-9.15058
▁that	-9.15126
ກໍ່	-9.15157
ອະ	-9.15347
ບ່ອນ	-9.15398
▁Africa	-9.15442
Guangdong	-9.15442
ການຂາຍ	-9.1547
-01	-9.1548
ຈັບ	-9.15619
▁con	-9.15644
▁Sol	-9.15689
▁75	-9.15713
້ມ	-9.15768
▁Copier	-9.15827
ຊ່ວຍ	-9.15844
▁info	-9.15847
ane	-9.15924
▁ການອອກແບບ	-9.15985
ຕອບ	-9.16027
▁ກາ	-9.1608
ao	-9.16192
ຫນ້າຈໍ	-9.16212
ord	-9.16312
▁Mill	-9.1634
▁DC	-9.16468
ກີ	-9.16575
▁ໃບຢັ້ງຢືນ	-9.1671
ran	-9.1672
ຄໍາສັ່ງ	-9.16727
ື່ອ	-9.16754
▁ສູນ	-9.16805
dge	-9.16813
unt	-9.16964
▁Middle	-9.16989
▁APK	-9.17004
ິດ	-9.17015
ນັກ	-9.17039
ext	-9.17052
ໄວ້	-9.17122
ວຽກ	-9.1721
ED	-9.17294
▁ຄວາມໄວ	-9.17316
▁David	-9.17382
ວິທະຍາສາດ	-9.17383
ທີ່ແທ້ຈິງ	-9.17398
ກຸ່ມ	-9.17614
pro	-9.17724
▁Samloem	-9.17772
▁ນັກ	-9.17866
▁Su	-9.17875
ole	-9.18014
▁Street	-9.18166
ຂັ້ນ	-9.18168
▁Post	-9.18179
▁Super	-9.18191
que	-9.18232
▁ທ່ານສາມາດ	-9.18261
TH	-9.18402
.0.2	-9.18406
MO	-9.18503
▁System	-9.18561
ກາເຟ	-9.18584
SD	-9.18803
let	-9.18815
▁05	-9.18819
ບັນຫາ	-9.18852
▁ທີ່ດີທີ່ສຸດ	-9.1894
▁ຫົວຂໍ້	-9.18999
ທິດ	-9.19047
ມັດ	-9.19051
▁Coil	-9.19108
▁NC	-9.19216
▁ຮູບແບບ	-9.19291
▁Chalkboard	-9.19356
▁0086-	-9.19359
▁UK	-9.19393
shan	-9.1948
ອາທິດ	-9.1948
ຫຼັກ	-9.195
▁ກ່ຽວກັບພວກເຮົາ	-9.19505
ປະເພດຂອງ	-9.19564
ວີ	-9.19631
ອັດ	-9.19686
▁Ne	-9.19717
▁Blockchain	-9.19756
ເນື້ອ	-9.19756
ແຂນ	-9.19756
▁Company	-9.19757
▁Oceania	-9.19766
ໂຄ	-9.19784
ຮັກສາ	-9.19786
▁Flash	-9.19858
ina	-9.19921
tal	-9.20016
ເປ	-9.2006
ການພິມ	-9.20085
ຫ້ອງການ	-9.2016
ຍະ	-9.20349
ແຫ່ງຊາດ	-9.20391
ຍົນ	-9.20394
▁ວາວ	-9.20398
▁ໂລຫະ	-9.204
▁120	-9.20404
ຜູ້ຊາຍ	-9.20432
ສິ່ງ	-9.20465
ຕິດ	-9.20527
▁ອຸປະກອນການ	-9.20529
rip	-9.20541
▁ລາຍ	-9.20553
ຫມຶກ	-9.20561
ເຈ້ຍ	-9.20561
ເຢຍລະມັນ	-9.20561
▁design	-9.20562
▁Video	-9.20562
ການບໍລິການ	-9.20612
▁ເອ	-9.2064
▁ອອກ	-9.2067
▁Ri	-9.20744
ana	-9.20907
ຕົ້ນຕໍ	-9.20964
ເຕີ	-9.21016
▁ເອກະຊົນ	-9.21077
▁Case	-9.21143
▁ແຂວງ	-9.21243
ເລກ	-9.21345
ລົດໄຟ	-9.21515
ືອ	-9.21523
ິກ	-9.21564
read	-9.21577
€	-9.21663
ຖືກຕ້ອງ	-9.21698
▁reply	-9.21781
▁ສະລັອດຕິງ	-9.21913
har	-9.21968
▁Dry	-9.22141
▁Skeleton	-9.2219
▁1500	-9.22238
don	-9.2229
▁can	-9.2237
ble	-9.22383
ya	-9.22389
IA	-9.22405
US	-9.22482
ວັດສະດຸ	-9.22571
ພົບ	-9.2259
▁Bitcoin	-9.22602
▁Français	-9.22602
ເກີບ	-9.22602
ຂໍ້ຄວາມ	-9.22651
ຈຸ	-9.22799
ທີ່ທ່ານ	-9.22859
▁ພາສາ	-9.2289
▁are	-9.22957
79	-9.22972
ຕີ	-9.23004
▁Digital	-9.23015
▁Solenoid	-9.23015
ko	-9.23057
ກອງປະຊຸມ	-9.23058
ຈັດການ	-9.23079
▁ການນໍາໃຊ້	-9.23112
▁Zone	-9.23184
ປົກກະຕິ	-9.234
ອາເມລິກາ	-9.23423
ສາກົນ	-9.2343
py	-9.23553
PC	-9.23751
ເອີຣົບ	-9.23846
hand	-9.23852
ano	-9.24007
ໂຕ	-9.24253
▁wordpress	-9.24265
▁Na	-9.24396
▁ຮ້ອນ	-9.24415
ສຸກ	-9.24421
ook	-9.24489
ສິ	-9.24534
ລົງທະບຽນ	-9.24685
▁csgo	-9.24688
ພື້ນຖານ	-9.24694
ware	-9.2471
ໃນເວລາທີ່	-9.24718
▁ໂປ	-9.2476
▁Mat	-9.2478
▁ຈຸດ	-9.24789
ele	-9.24835
ຂອງຕົນ	-9.24859
han	-9.24965
ຖື	-9.24997
▁admin	-9.25116
ເບີ	-9.25176
cu	-9.25192
▁br	-9.25194
ວິທະຍາໄລ	-9.25316
▁ເຫັນ	-9.25376
ໃຕ້	-9.25496
▁ຫນັງ	-9.25511
▁spring	-9.25532
ການອອກແບບ	-9.25545
▁ບັນຊີ	-9.25549
ມືຖື	-9.25553
zo	-9.25595
ແປງ	-9.25633
ສີດ	-9.25774
ສະລັອດຕິງ	-9.25803
ood	-9.25881
ສື	-9.25925
PE	-9.2593
ຖານ	-9.25951
▁Samsung	-9.25956
ອົງການ	-9.26026
ຮາ	-9.26027
ພວກເຂົາ	-9.26045
ifi	-9.2606
ze	-9.26143
ເອງ	-9.26292
▁War	-9.26306
ອອກຈາກ	-9.26368
▁86-	-9.26401
CO	-9.2644
ການພະນັນ	-9.26503
UL	-9.26563
ກິດ	-9.26594
ເຄມີ	-9.26614
UR	-9.26674
▁https	-9.26688
lot	-9.26691
ຫນາ	-9.26756
▁PM	-9.26761
ເມື່ອ	-9.26782
ໂປ	-9.26809
ຊະນະ	-9.26817
ກ່ຽວກັບການ	-9.26821
▁ຕາ	-9.26857
ree	-9.26885
ປັບ	-9.26897
▁Long	-9.26943
▁And	-9.26979
▁Fu	-9.27059
ຈິງ	-9.27083
▁ເຫມາະສົມ	-9.27092
▁→	-9.27146
▁Str	-9.27159
ool	-9.27201
▁ກໍລະກົດ	-9.27244
▁Honda	-9.27244
▁ກິລາ	-9.27357
2.5	-9.27373
▁ຊົ່ວໂມງ	-9.27407
▁ຫົວ	-9.27509
-7	-9.27555
ຕ້ານ	-9.27567
600	-9.27604
ເກີດ	-9.27659
▁Red	-9.2767
▁Software	-9.27683
▁ເຮັດໃຫ້	-9.27701
ສີຂາວ	-9.27722
bar	-9.27802
ເຊື່ອ	-9.27815
ແລະອື່ນໆ	-9.27848
ເດ	-9.2792
ປັບປຸງ	-9.27957
ath	-9.27979
SI	-9.27999
▁Ga	-9.28022
220	-9.28071
▁Gra	-9.2809
é	-9.28111
▁ຄວາມຫນາ	-9.28142
ເຕັກໂນໂລຊີ	-9.28186
▁ນະ	-9.28335
ros	-9.28366
ພີ	-9.2847
ຫມາຍ	-9.28516
ພືດ	-9.28548
ມືອາຊີບ	-9.28608
ໂພ	-9.28618
alk	-9.28709
ທີ່ດີ	-9.28737
▁CE	-9.28777
▁Muay	-9.28988
ເຊື່ອມ	-9.29057
▁ຍິນດີຕ້ອນຮັບ	-9.29106
▁≤	-9.29235
▁Box	-9.2933
ຂາວ	-9.294
ili	-9.29473
▁800	-9.29491
▁ຕິດຕໍ່	-9.29494
▁ຢາ	-9.29592
ali	-9.29784
fr	-9.29811
▁University	-9.2987
engrui	-9.2987
▁ຮ	-9.2997
ກາວ	-9.30057
2018	-9.3008
ten	-9.30192
ວາວ	-9.30214
lat	-9.30275
ເລີ່ມ	-9.30303
▁ສີແດງ	-9.30305
▁ວຽກ	-9.30327
ນໍ້າ	-9.3077
ຫຼ້າສຸດ	-9.30783
▁32	-9.30784
cks	-9.30828
EA	-9.30905
▁Sc	-9.31018
▁Dr	-9.3105
ກິລາ	-9.31091
▁ຖານ	-9.31142
▁ມາດ	-9.31178
▁Single	-9.31218
▁iOS	-9.31242
▁600	-9.31259
▁Seal	-9.31284
ica	-9.31328
tu	-9.31359
▁ໄດ້ຮັບ	-9.31369
-9	-9.31447
▁Motor	-9.31501
ພາກສ່ວນ	-9.31542
ຄ່າ	-9.31558
▁Key	-9.31574
ular	-9.31644
▁Italian	-9.3166
ດິຈິຕອນ	-9.31673
ລໍາ	-9.31726
ຫຼາຍກວ່າ	-9.31769
ການຄຸ້ມຄອງ	-9.31815
11%	-9.31818
ບໍ່ໄດ້	-9.31853
0.1	-9.31858
▁Lu	-9.31867
rge	-9.32021
▁ການບໍລິການ	-9.32029
▁Pet	-9.32074
ຄວາມສາມາດ	-9.32167
▁ສົມ	-9.32232
▁kr	-9.32295
IG	-9.32303
▁po	-9.32349
▁SE	-9.3235
fer	-9.3243
ເດັກ	-9.32484
ເສີມ	-9.32487
▁ເຟສບຸກ	-9.32512
▁Products	-9.32567
ເພີ່ມ	-9.32577
▁Micro	-9.32579
ຫຍັງ	-9.32589
▁ຕຸ	-9.32648
ຊາວ	-9.32683
▁Chi	-9.32695
▁ຝຸ່ນ	-9.32772
▁Best	-9.32864
▁ປະຕູ	-9.32877
▁casino	-9.32964
ຫລ	-9.32973
▁bitcoin	-9.33023
ັ່ງ	-9.33044
▁ເຄືອບ	-9.33251
ອາດຈະ	-9.33273
ted	-9.33289
ນະ	-9.33301
▁bo	-9.33335
0.5	-9.33358
▁ຕາມ	-9.33368
ull	-9.33425
▁ບົດ	-9.33427
ຄອບຄົວ	-9.33482
▁width	-9.33482
ຕູ້	-9.33493
gsm	-9.33508
cent	-9.33572
ound	-9.33587
▁Inc	-9.33595
MS	-9.33612
ລໍ້	-9.33612
ງາມ	-9.33661
ew	-9.33688
eck	-9.33771
AI	-9.33851
ຄໍາແນະນໍາ	-9.33886
GVMG	-9.33943
ຕົກແຕ່ງ	-9.33947
ໂທ	-9.34034
່ອງ	-9.34045
ture	-9.34079
king	-9.3414
ສໍາ	-9.34201
win	-9.34216
ຍິງ	-9.34387
ດົນຕີ	-9.34406
▁Design	-9.34406
▁Plus	-9.34449
ພື້ນ	-9.34461
ໂນ	-9.34577
▁ຄົນ	-9.34645
best	-9.34712
ການຕິດຕັ້ງ	-9.34801
▁ເງິນຝາກ	-9.34829
ທີ່ສໍາຄັນ	-9.34837
ການກໍ່ສ້າງ	-9.34842
use	-9.34849
▁{	-9.34863
ພຽງ	-9.34864
of	-9.34897
▁Archives	-9.34904
ສຸດທ້າຍ	-9.34915
ສົມ	-9.34985
ລາຍລະອຽດ	-9.35112
໌	-9.3512
▁ເວລາ	-9.35131
▁Cheat	-9.35159
ເຄື່ອງມື	-9.35203
▁Tra	-9.3533
NS	-9.35334
ຍີ່ປຸ່ນ	-9.35338
ຂ້າງ	-9.35346
ນັກສຶກສາ	-9.35384
rom	-9.3539
ປະກອບດ້ວຍ	-9.35395
ຖະ	-9.35427
ທາງດ້ານ	-9.35481
ແຟ	-9.35556
ray	-9.35595
FA	-9.35638
ປິດ	-9.35707
ປາກ	-9.35739
form	-9.35763
ຄໍາຮ້ອງສະຫມັກ	-9.35808
ສະຖາບັນ	-9.35808
ການຊໍາລະເງິນ	-9.3581
ized	-9.35824
qui	-9.3587
ຫນ້ອຍ	-9.35882
UT	-9.35886
▁dr	-9.35901
▁ທໍາມະຊາດ	-9.35983
▁ສານ	-9.36031
ress	-9.36089
ທັງ	-9.36169
lay	-9.36192
▁ຂອບ	-9.36213
▁ບົບ	-9.36272
ü	-9.36279
▁Diaphragm	-9.36279
▁ເສັ້ນໃຍສັງເຄາະ	-9.36279
ແຂງ	-9.36279
ໂຣກ	-9.36279
▁we	-9.36306
ອາຍຸ	-9.3635
att	-9.36374
eb	-9.36383
▁Iron	-9.36394
ການຂົນສົ່ງ	-9.36446
uff	-9.36464
▁Play	-9.3649
ຄ່າໃຊ້ຈ່າຍ	-9.36521
▁Flat	-9.36633
ຄາສິໂນ	-9.36659
ຂໍ້	-9.36674
ແສງ	-9.36674
ວົງ	-9.36679
ຫຼີ້ນ	-9.36753
▁ດໍາ	-9.36812
▁ໂລກ	-9.36813
ໍາ	-9.36897
mp	-9.37095
fish	-9.37109
▁ຕື່ມ	-9.37169
▁Tape	-9.37238
ທາງເລືອກ	-9.37327
umb	-9.37335
ຄ້າ	-9.37699
ເລື່ອງ	-9.37708
ແບ່ງປັນ	-9.37708
▁IFMA	-9.37709
ຖ່ານຫີນ	-9.37709
ທ່ານຈະ	-9.37769
ການທົດສອບ	-9.37825
▁ສິ່ງ	-9.37963
ລວດ	-9.37995
▁Xi	-9.38033
▁PP	-9.38086
ລາຍການ	-9.38123
▁ໂອ	-9.38131
0.00	-9.38166
о	-9.38189
ປ່ຽນ	-9.38238
ທີ່ແຕກຕ່າງກັນ	-9.38272
▁Photo	-9.38305
▁03	-9.38405
ram	-9.38407
ME	-9.38504
▁Hand	-9.38532
ສີຂຽວ	-9.38672
CT	-9.38695
▁Toner	-9.38737
ttle	-9.38743
▁Slots	-9.38845
▁Bl	-9.38874
▁Print	-9.3909
250	-9.39106
ຍ່ອຍ	-9.39157
▁Uncoiler	-9.39157
ດັ່ງກ່າວ	-9.39159
=	-9.39197
▁ຜົນ	-9.39201
ແລກປ່ຽນ	-9.39645
ize	-9.3966
▁Portable	-9.39667
ຂໍ	-9.39744
ກົງ	-9.39795
▁ສະບັບເລກທີ	-9.39881
PL	-9.39915
ເຊື່ອມຕໍ່	-9.40085
ປົກ	-9.40129
▁type	-9.40143
for	-9.40231
້ອງ	-9.40254
▁400	-9.40266
700	-9.40267
▁ທັນ	-9.40305
້ໍາ	-9.40318
▁ຖືກ	-9.40377
ຖືກນໍາໃຊ້	-9.40398
▁www	-9.40413
▁ພະນັກງານ	-9.40471
▁ປາ	-9.40574
ເທົ່າ	-9.40607
ສື່ມວນຊົນ	-9.40628
ອະລູມິນຽມ	-9.40628
ຝ້າຍ	-9.40628
▁sales	-9.40635
-12	-9.40705
▁NO	-9.40736
ພູ	-9.40762
ct	-9.40777
RO	-9.40861
ical	-9.40871
▁Hu	-9.40881
ຈັກ	-9.40924
999	-9.40942
ແຮງ	-9.41095
ສ້າງຕັ້ງຂຶ້ນ	-9.41124
▁Bar	-9.4117
ດັ່ງນັ້ນ	-9.41173
CN	-9.41213
▁Anti	-9.41217
-2018	-9.41222
▁ວິທີ	-9.41335
ef	-9.4137
ost	-9.41406
▁Page	-9.4151
ຮັກ	-9.41556
ໄກ່	-9.4162
▁ເບິ່ງຊອບແວຫຼາຍ	-9.4162
▁ຮູບເງົາ	-9.41963
▁Blog	-9.41974
WS	-9.4198
▁ມູນ	-9.42077
val	-9.42114
ສາທາລະນະ	-9.4212
▁International	-9.4212
▁Foam	-9.42123
▁Crack	-9.42125
▁ໃຈ	-9.42148
In	-9.42159
▁ຈ່າຍ	-9.42259
▁Xin	-9.42261
ION	-9.42262
▁no	-9.42297
▁One	-9.42386
tai	-9.42436
▁Pox	-9.42472
app	-9.42483
▁Cap	-9.42494
▁ຂ້າ	-9.42517
▁2000	-9.42554
▁Guangzhou	-9.42623
▁Qingdao	-9.42623
ປື້ມ	-9.42623
▁Wire	-9.42779
ries	-9.42783
IP	-9.42829
tes	-9.4299
▁vs	-9.42994
▁butterfly	-9.43128
ໂຮງແຮມ	-9.43151
▁Shopify	-9.43159
▁Pi	-9.43264
▁TO	-9.43274
3.5	-9.43296
ມື້	-9.43379
▁250	-9.43408
ung	-9.43485
▁ເພີ່ມ	-9.43528
time	-9.43558
ລະອຽດ	-9.43614
ມຸມ	-9.43638
ການເງິນ	-9.43646
▁ສະພາບອາກາດໃນ	-9.43648
▁ອີເມວ	-9.43676
ຫລັງ	-9.43731
ຟລີ	-9.43768
bra	-9.43845
▁ໂຕ	-9.43865
▁ເງື່ອນໄຂ	-9.43881
den	-9.43993
illa	-9.44033
ກວດ	-9.44078
ການປັບປຸງ	-9.4411
ເຫຼົ່ານີ້	-9.44145
ແສງສະຫວ່າງ	-9.44146
OL	-9.44158
ເຫຼືອ	-9.44159
ໃບອະນຸຍາດ	-9.4417
▁04	-9.44214
▁ວົງ	-9.44225
ພໍ	-9.44258
ຄອນ	-9.4432
men	-9.44346
▁ເຊັ່ນ	-9.44469
▁US	-9.44642
ສູບ	-9.44659
▁laser	-9.44661
OOD	-9.44668
ແນວ	-9.44727
ji	-9.44795
▁Gas	-9.44808
ທຶນ	-9.44922
▁GB	-9.44973
▁Da	-9.45041
load	-9.45063
▁ວາ	-9.45096
ສັ້ນ	-9.45135
ຮັບປະກັນ	-9.45175
ເຂົ້າໄປໃນ	-9.45176
▁ປະຕິບັດຕາມ	-9.45177
rus	-9.45225
▁ຕ້ອງ	-9.45261
▁ອຸນຫະພູມ	-9.45349
▁·	-9.45357
▁ການປັບປຸງ	-9.45393
ກວດສອບ	-9.45471
ຂ້ອຍ	-9.45585
CI	-9.45644
FC	-9.45667
▁(1)	-9.45669
ທະນາຄານ	-9.45692
ພະຍາຍາມ	-9.45692
▁Multi	-9.45692
ພາຍໃຕ້	-9.45713
ອ່ອນ	-9.45717
ຫຍໍ້ຂອງ	-9.45854
OT	-9.45904
▁Trade	-9.45907
ero	-9.45927
ປະກອບມີ	-9.45981
▁Sale	-9.46006
▁ໄລ	-9.46157
ສີ່	-9.46173
▁ກຸມ	-9.462
▁White	-9.462
ເຊື້ອ	-9.46202
▁min	-9.46229
cha	-9.46349
▁70%	-9.46352
▁MH	-9.46378
ສະຖານ	-9.46436
ຍອດ	-9.46489
ler	-9.46492
ຕໍາແຫນ່ງ	-9.46736
—	-9.46737
ຂະບວນການ	-9.4674
ຄາ	-9.46785
ການບິນ	-9.46809
▁jet	-9.46813
ໂຄສະນາ	-9.46919
▁ວັນທີ	-9.46946
ຕັ້ງຢູ່ໃນ	-9.4706
▁17,	-9.47087
cross	-9.47274
itch	-9.47292
▁Test	-9.47325
ຊົນ	-9.47409
▁CAS	-9.4754
ຫ້າ	-9.47573
ach	-9.47732
ຄົງ	-9.47792
▁Du	-9.47794
▁HGH	-9.47798
ກູໂກ	-9.47944
ຈຸດ	-9.47986
▁ຫນັກ	-9.48034
а	-9.48324
▁Twitter	-9.48324
▁ແຜນຜັງເວັບໄຊ	-9.48324
ອຸ	-9.48411
▁ແມ່ນຫຍັງ	-9.4842
oz	-9.48502
▁Apple	-9.48533
▁PCB	-9.48585
▁ການຄາດຄະເນ	-9.48635
ບໍ່ແມ່ນ	-9.48796
▁Jin	-9.48808
ໃກ້	-9.48858
ສະຖານີ	-9.48881
ບັນ	-9.48938
ລັງ	-9.48982
▁Ta	-9.49029
ration	-9.49086
▁Flight	-9.49086
NE	-9.49202
▁cryptocurrency	-9.49216
ສັນ	-9.49227
▁ຄວາມຄິດເຫັນ	-9.49305
▁ສະບັບ	-9.49334
ແກ້ໄຂ	-9.49335
▁Aug	-9.49374
ຊີ້ຂາດ	-9.49396
е	-9.49396
ມໍເຕີ	-9.49397
ຕົ້ນສະບັບ	-9.49403
▁You	-9.49414
▁ຄູ	-9.49492
▁ສິດ	-9.49499
360	-9.4955
ບໍ	-9.49604
▁ຄໍາຖາມ	-9.49613
▁ຢ້ຽມຢາມ	-9.49674
▁ລັງ	-9.49811
▁ຕະ	-9.49897
▁ການເດີນທາງ	-9.49906
▁ສິ່ງທີ່ຄວນຮູ້	-9.49937
ມຸງ	-9.49938
ຫຼາຍກ່ວາ	-9.49977
▁ຢ່າງ	-9.50008
ຣິ	-9.50049
ຟັງ	-9.50055
light	-9.50071
ລອງ	-9.50072
ຮຽນ	-9.50115
ການເຊື່ອມຕໍ່	-9.50153
ham	-9.50293
ປັດ	-9.50402
ຄວນ	-9.50434
view	-9.50441
ອິນເຕີເນັດ	-9.5048
▁Dreadbag	-9.5048
▁Instagram	-9.5048
▁ໄຊ	-9.5048
ນິຍົມ	-9.5048
▁ແສງ	-9.50571
001	-9.50585
eye	-9.50606
▁Center	-9.50667
▁State	-9.50753
▁Book	-9.50813
fo	-9.50893
▁Fittings	-9.50905
bet	-9.50925
▁ອຸ	-9.50975
ເຕົາ	-9.51027
ຖ່າຍ	-9.51051
▁ປະເທດຈີນ	-9.51067
ກໍ່ສ້າງ	-9.51091
2016	-9.51152
ທີ່ນີ້	-9.5118
ເສັ້ນທາງ	-9.51189
▁Belt	-9.51196
ວິທີ	-9.51209
ຜູ້ໃຊ້	-9.51241
▁ແຮງດັນ	-9.51278
ແຕ່ລະ	-9.51372
ຍຸ	-9.5152
ຫໍ	-9.51526
ສະມາຊິກ	-9.51576
ພາດສະຕິກ	-9.51576
▁FI	-9.51593
ຄວາມໄວສູງ	-9.51607
hua	-9.51651
▁ເສັ້ນ	-9.51675
inder	-9.51709
bl	-9.51748
ອີ	-9.51847
Ltd	-9.5186
▁Ac	-9.51872
ແຮງດັນ	-9.5188
sun	-9.51894
▁Hat	-9.51938
▁ປ້າຍ	-9.51956
ແນ	-9.51964
duct	-9.51977
ບົດ	-9.51995
▁Jun	-9.52023
ອີກ	-9.5208
▁ຝຶກ	-9.52129
ຝຣັ່ງ	-9.52129
ໂຄງສ້າງ	-9.52175
the	-9.52248
ລຸ້ນ	-9.52253
imp	-9.52407
▁Doll	-9.52429
ທໍາມະຊາດ	-9.52477
$	-9.52525
ction	-9.52557
▁ແວ	-9.52611
ເອ	-9.52635
rch	-9.52669
▁ແນວຄວາມຄິດ	-9.52672
ສະຫມັກ	-9.52699
▁MB	-9.52737
ris	-9.52764
ການກັ່ນຕອງ	-9.52821
▁2010	-9.52888
▁ມາດຕະຖານ	-9.53021
▁DN	-9.53089
▁CR	-9.53092
▁su	-9.53143
▁ອອກແບບ	-9.53233
▁ສປປ	-9.53243
▁ຫມວດ	-9.53246
▁gr	-9.53249
▁ທັງ	-9.53339
eo	-9.53394
ສິດ	-9.53416
▁ມັນເປັນ	-9.53493
▁Poly	-9.53551
shi	-9.53551
ປູ	-9.53563
ລັກ	-9.53689
KW	-9.5376
▁Español	-9.53805
ຫມູ່	-9.53846
▁NEW	-9.5385
ສົນທະນາ	-9.54
ກິນ	-9.54068
ping	-9.54074
ແຄ	-9.54231
van	-9.54273
ອີເມວ	-9.54278
▁Card	-9.54286
EX	-9.54311
ພະຍາດ	-9.5437
ການຢັ້ງຢືນ	-9.54394
LI	-9.54448
▁ຂຽນ	-9.54534
▁ຕັ້ງ	-9.54577
HT	-9.54598
▁ເບີ	-9.54623
400	-9.54729
▁ສະແດງ	-9.54741
▁ຖາມ	-9.54754
ໂຮງງານ	-9.54927
▁Shanghai	-9.54938
▁Server	-9.5494
cho	-9.54954
▁ໆ	-9.55028
▁free	-9.55039
ການສັກຢາ	-9.55074
GB	-9.55147
▁dev	-9.55177
▁Go	-9.55317
can	-9.55439
ັ່ນ	-9.5548
▁Hebei	-9.555
ລັອກ	-9.55509
ຮັບຜິດຊອບ	-9.55509
▁Vientiane	-9.55509
▁ມະ	-9.55659
▁Blythe	-9.55779
ີ່	-9.55827
EM	-9.55893
COM	-9.55903
II	-9.55983
aker	-9.56043
ມິດ	-9.56074
rop	-9.56083
▁Ceramic	-9.56084
и	-9.56084
▁Varicella	-9.56084
▁Chrome	-9.56085
▁ສະຫນັບສະຫນູນ	-9.56121
▁crate	-9.56173
ຕົວແທນ	-9.56191
▁Mold	-9.56302
ຮຽນຮູ້	-9.56391
ຫນຶ່ງໃນ	-9.56426
▁ບົດຄວາມ	-9.56453
▁dis	-9.56586
▁ຄົ້ນຫາ	-9.56653
ຄວາມອາດສາມາດ	-9.56662
▁wooden	-9.56668
nny	-9.56908
ແຊ	-9.56919
aft	-9.56958
▁Jia	-9.57038
ບໍ່ສາມາດ	-9.57047
ດໍາເນີນການ	-9.57138
SU	-9.57177
▁Cartridge	-9.57243
▁Rights	-9.57249
▁ບານ	-9.57251
ller	-9.57265
▁not	-9.57273
▁ເທດ	-9.5729
▁Golden	-9.57356
▁was	-9.57764
ແຫ່ງ	-9.57813
▁Fiberglass	-9.57828
▁Erase	-9.57831
▁Frame	-9.57833
ເຮືອ	-9.5785
ຍາກ	-9.57905
ແຕ່	-9.57962
▁ສໍາລັບຜູ້ຊາຍ	-9.57986
ວະ	-9.58057
ຄາດຄະເນ	-9.58073
ແພ	-9.58157
▁web	-9.58174
BO	-9.5827
cker	-9.58285
▁ໂຮງແຮມ	-9.58389
ຊຸມຊົນ	-9.58416
ເຄີຍ	-9.58416
ລັດເຊຍ	-9.58416
bird	-9.5842
ທີມງານ	-9.58478
ari	-9.58484
▁Or	-9.58519
▁ນັບ	-9.58529
ການແພດ	-9.58576
GE	-9.58659
▁Ko	-9.58665
▁ລວມທັງ	-9.58693
SE	-9.58714
▁ການກັ່ນຕອງ	-9.58739
▁ນະໂຍບາຍ	-9.58758
▁So	-9.5876
▁020	-9.58886
▁ຈັດ	-9.58946
▁CSGO	-9.59009
▁Nylon	-9.59009
▁Marketing	-9.59009
Heart	-9.59041
ແທ້	-9.5909
ເວົ້າວ່າ	-9.59105
ອົງການຈັດຕັ້ງ	-9.59109
ຄຸນນະພາບສູງ	-9.59205
uit	-9.59277
kw	-9.59338
ປະຈໍາ	-9.59353
▁PR	-9.5937
▁ເຟ	-9.59402
ນ້ອຍ	-9.59439
▁($	-9.59534
ປະສົມ	-9.59591
ວິເຄາະ	-9.59603
▁ປະເທດໄທ	-9.59603
ຮ່າງກາຍ	-9.59603
ກະຊວງ	-9.59604
▁Capital	-9.59604
▁ແມັດ	-9.5961
▁Office	-9.59619
▁Trans	-9.5964
ຫມຸນ	-9.59652
▁ເວັບ	-9.5969
ise	-9.59735
rate	-9.59755
▁ຕິ	-9.59894
ຊາ	-9.59921
▁ຮ້ານ	-9.59933
▁Set	-9.59966
▁Off	-9.60005
-03	-9.60095
▁Sand	-9.60128
ຂັບ	-9.60152
ຕົກ	-9.60196
ໂບນັດ	-9.60202
▁Assembly	-9.60202
▁Dedusting	-9.60202
▁ເຫນີ	-9.60205
ຄົນອັບເດດ	-9.60218
3.0	-9.60379
▁ເພີ່ມເຕີມ	-9.60396
star	-9.6041
▁ແລ້ວ	-9.60429
▁02	-9.60432
ild	-9.60436
▁Shirt	-9.60613
▁Spin	-9.60645
▁Pot	-9.60662
▁110	-9.60664
ino	-9.60681
▁ບຸກ	-9.60731
ອາຍແກັສ	-9.60805
ລ້າງ	-9.60805
▁Direct	-9.6081
▁ຖ້າ	-9.60814
▁Wireless	-9.6082
ຕັ້ງຄ່າ	-9.60838
ສົດ	-9.60845
▁ຮັກ	-9.60953
ບາດ	-9.60966
ກໍາ	-9.60977
▁ພວກເຮົາມີ	-9.61066
▁ເດັກນ້ອຍ	-9.61071
▁ການປະຕິບັດ	-9.61094
gra	-9.61203
ເສັ້ນຜ່າສູນກາງ	-9.61411
other	-9.61454
▁ຂ້ອຍ	-9.61498
press	-9.61655
head	-9.61656
ເຫດ	-9.61706
▁ລັດ	-9.6181
▁Ideas	-9.61812
ຕີນ	-9.61864
TS	-9.61906
▁Hyperbaric	-9.61936
ກ່າວ	-9.61961
ທີ່ບໍ່	-9.61964
▁ກອງປະຊຸມ	-9.61968
ISO	-9.62
PP	-9.62004
▁Port	-9.62007
ກົມ	-9.6202
ຄລາສສິກ	-9.6202
ö	-9.6202
▁Carbon	-9.62023
▁Green	-9.62027
▁House	-9.62042
ປັບແຕ່ງ	-9.6206
ລັບ	-9.62137
▁ກະດານ	-9.62138
▁ປັບ	-9.62256
ໂດຍກົງ	-9.62311
ທີ່ຖືກ	-9.62319
ຝຶກອົບຮົມ	-9.62357
PO	-9.62518
▁ເຕັກໂນໂລຊີ	-9.62529
▁Deduster	-9.62634
▁Shijiazhuang	-9.62634
angel	-9.62662
▁ກອບ	-9.62672
,000.00	-9.6269
ຫນຸ່ມ	-9.62773
▁this	-9.62786
▁will	-9.62818
ພັບ	-9.62822
▁Roller	-9.63068
▁Dec	-9.63091
KG	-9.63091
▁mi	-9.63092
rc	-9.6311
▁ເອົາ	-9.63157
lion	-9.63161
SH	-9.6324
▁Karnar	-9.63251
ຫຼັງຈາກນັ້ນ	-9.63286
ສູນ	-9.63434
ຮູບເງົາ	-9.63456
▁ໂຄມໄຟ	-9.63549
mil	-9.63557
ໂຍ	-9.63575
ຄໍ	-9.6364
tw	-9.6368
▁125	-9.63705
ible	-9.63787
ເສດຖະກິດ	-9.63872
Whatsapp	-9.63872
ອັບເດດຫຼ້າສຸດ	-9.63874
▁ແດງ	-9.63881
▁Metal	-9.63969
▁ຂັ້ນຕອນ	-9.63984
PT	-9.64045
ລິຂະສິດ	-9.64122
▁ເວ	-9.64134
▁ລະດັບ	-9.64151
ທີ່ມີຄວາມ	-9.64222
▁China	-9.64252
ເງິນສົດ	-9.64455
▁ກະທູ້	-9.64482
ຮົ້ວ	-9.64497
▁Suzuki	-9.64497
▁Ukraine	-9.64497
ຍືດ	-9.64498
▁Giant	-9.645
▁ຊາ	-9.64506
▁Sun	-9.6452
▁Je	-9.64529
▁ສໍາລັບເດັກຍິງ	-9.64582
ປະຊາ	-9.64592
ຸກ	-9.64595
▁ຄໍາເຫັນ	-9.64606
-15	-9.64619
ເພັດ	-9.64686
cast	-9.64689
▁ເຕີ	-9.64777
uro	-9.64789
▁21,	-9.64797
vis	-9.64822
▁Led	-9.64829
ສົນໃຈ	-9.65115
ນົມ	-9.65126
ໂອກາດ	-9.65126
▁Organosilicon	-9.65126
▁Rikoooo	-9.65126
ເກາະ	-9.65127
ປະຫວັດສາດ	-9.65129
book	-9.65135
RT	-9.65141
▁Opera	-9.65162
-21	-9.65198
▁ສວນ	-9.65221
▁28,	-9.65268
word	-9.65308
ມມ	-9.65318
▁1.5	-9.65349
cial	-9.65381
ship	-9.65383
ຄວາມກວ້າງ	-9.65396
="1	-9.65595
4.0	-9.65616
▁ໃຫຍ່	-9.65697
ໂຮງ	-9.65729
▁YouTube	-9.65759
proof	-9.65779
ເກັບຂີ້ຝຸ່ນ	-9.65814
hr	-9.65848
▁ເປັນຫຍັງ	-9.65872
▁have	-9.65902
▁Part	-9.65909
▁MT	-9.6596
ຂົນສົ່ງ	-9.66187
ທໍາ	-9.66189
ໃຫ້ບໍລິການ	-9.66193
▁Site	-9.66217
ແຈ້ງ	-9.6622
▁ໃບ	-9.66365
ເຂັມ	-9.66395
ກະດູກ	-9.66396
ອະທິບາຍ	-9.66396
▁Galvanized	-9.66396
▁October	-9.66396
▁Message	-9.66396
ຄະ	-9.66442
ບູ	-9.66455
▁ຫັດ	-9.66456
ຈ່າຍ	-9.6649
▁ເມື່ອ	-9.66492
ສໍາຄັນ	-9.66506
ara	-9.66642
ຊູ	-9.66685
▁23,	-9.66786
▁ຕິດຕາມ	-9.66922
▁Tour	-9.66924
ເປົ່າ	-9.67037
▁Dubai	-9.67037
ດັດ	-9.67096
OP	-9.6715
ຫັນ	-9.67178
▁ເຫຼັກ	-9.67214
ness	-9.67397
ຮອງ	-9.67417
ແຫນ້ນ	-9.67613
ເດີ	-9.67618
ສະຫະລັດ	-9.67637
▁ລູກຄ້າ	-9.67638
▁3000	-9.67678
ແຂ້ວ	-9.67682
▁Spring	-9.67687
▁ອາຄານ	-9.677
ອົງປະກອບ	-9.67714
▁Auto	-9.67741
ສວນ	-9.67752
203	-9.67757
▁Last	-9.67762
▁10%	-9.67788
▁Game	-9.67824
aff	-9.67858
▁ສະແຕນເລດ	-9.67882
▁Night	-9.68032
▁King	-9.6817
ບັນລຸ	-9.68216
ມາຈາກ	-9.68234
ຫົວຫນ້າ	-9.68252
zh	-9.68294
ສູດ	-9.68319
ຕະຫຼອດ	-9.68332
ສິ່ງແວດລ້ອມ	-9.68332
ໄຟລ໌	-9.68332
▁Virtual	-9.68332
▁SlotJar	-9.68332
▁World	-9.68332
ສົ່ງເສີມ	-9.68408
ley	-9.685
1.0	-9.68508
HO	-9.68627
ຂອງຂ້າພະເຈົ້າ	-9.68697
▁ຍັງ	-9.68709
▁86-5	-9.68736
▁ຄະນະກໍາມະ	-9.68777
▁Sha	-9.68787
▁ກໍ	-9.68801
TO	-9.68886
▁play	-9.68901
▁Deposit	-9.68985
▁Service	-9.68985
▁Skype	-9.68985
▁ສະຫງວນລິຂະສິດ	-9.68985
ຫມໍ້ໄຟ	-9.68999
ການແກ້ໄຂ	-9.6905
▁ບ່ອນທີ່	-9.69126
▁ພັກ	-9.69157
oil	-9.69203
▁Door	-9.69213
▁ລົງ	-9.6922
▁ສຽງ	-9.69257
VE	-9.69285
▁sc	-9.69309
▁Wa	-9.69354
▁Powered	-9.69386
ສັນຍາ	-9.69437
ບຸກຄົນ	-9.69444
▁off	-9.69635
®	-9.69643
ເອເລັກໂຕຣນິກ	-9.69643
ດິນຟ້າອາກາດ	-9.69643
▁Nakhon	-9.69643
▁Soft	-9.6965
▁Panel	-9.6965
ຖ້າຫາກວ່າ	-9.69672
▁Chiang	-9.69723
▁sign	-9.69746
▁30%	-9.6975
▁It	-9.69777
▁ຜ	-9.69888
▁ປິດ	-9.69927
table	-9.6998
▁Hua	-9.70231
ກາກບອນ	-9.70305
▁Butterfly	-9.70305
▁Crusher	-9.70305
ີນ	-9.70306
▁Thani	-9.70307
ພູເຂົາ	-9.70323
▁Disk	-9.70367
▁ນ້ອຍ	-9.70452
▁Pla	-9.70539
ສີດໍາ	-9.70561
▁ຄ່າ	-9.70588
ການລົງທຶນ	-9.70608
▁ປະລິມານ	-9.70626
pad	-9.70651
▁2005	-9.70683
▁ທ້າຍ	-9.70697
ກ່ອງ	-9.70767
▁ເວັບໄຊ	-9.70823
clo	-9.70844
pot	-9.70944
`	-9.70972
ກະສິກໍາ	-9.70972
ປຽບທຽບ	-9.70972
ວົງຈອນ	-9.70972
▁Tweet	-9.70973
▁Work	-9.70983
▁ເຮືອນ	-9.70985
ທັນ	-9.70995
▁ອຸປະກອນເສີມ	-9.71012
▁John	-9.71051
ຊັກ	-9.71058
IF	-9.71059
ໂດ	-9.71127
ທະເລ	-9.71193
×	-9.71245
▁Ni	-9.71246
▁Hi	-9.71297
▁ຊ່ອງ	-9.7143
▁tape	-9.71443
ຈໍານວນຫຼາຍ	-9.71485
ແຈ	-9.71551
▁Injection	-9.71643
▁McKnight	-9.71643
ຂໍຂອບໃຈ	-9.71643
ເຮືອບິນ	-9.71656
▁RF	-9.71716
▁from	-9.7173
LO	-9.71793
ໂລຫະປະສົມ	-9.71848
foot	-9.7185
ຊ້າ	-9.71861
pm	-9.71867
ນໍາສະເຫນີ	-9.71869
ati	-9.71887
HR	-9.71914
ja	-9.71947
ຊອບແວ	-9.71995
▁ລໍ້	-9.72127
ເທົ່ານັ້ນ	-9.72129
▁Hot	-9.72141
za	-9.72191
ຄວາມເຂັ້ມແຂງ	-9.72319
ທໍາມະດາ	-9.72319
▁friend	-9.72319
▁custom	-9.72319
ສີຟ້າ	-9.72319
▁ຊອບ	-9.7233
ology	-9.72342
ມູນຄ່າ	-9.72417
ດໍາເນີນ	-9.72441
ດິດ	-9.72451
▁ກະເປົ໋າ	-9.72919
▁Gl	-9.72923
ສະແດງໃຫ້ເຫັນ	-9.72999
ເລື່ອນ	-9.72999
▁RoHS	-9.73017
▁ki	-9.73032
eth	-9.73038
ໂດຍການ	-9.73042
▁Tian	-9.73077
ເພີ່ມຂຶ້ນ	-9.73128
▁ໂດຍທົ່ວໄປ	-9.73201
▁ເມັດ	-9.73237
ສ່ວນບຸກຄົນ	-9.73301
moon	-9.73413
▁Pay	-9.73448
▁©20	-9.73498
ປະໂຫຍດ	-9.73615
໊	-9.73684
▁ຊຶ່ງ	-9.73684
Infinity	-9.73684
▁ຂຽນເມື່ອສຸດ	-9.73684
ຄວາມຖີ່	-9.73684
▁iPad	-9.73684
ທ່ານສາມາດ	-9.73689
ຢ່າງກວ້າງຂວາງ	-9.73691
ການໃຫ້ອາຫານ	-9.73694
▁ສະຫະລັດ	-9.73721
▁Pressure	-9.73728
▁Out	-9.73798
ຣີ	-9.73799
ຄອງ	-9.73903
utter	-9.73934
▁ພາກຮຽນ	-9.73947
ການແຂ່ງຂັນ	-9.74033
▁ອັດຕາ	-9.74085
▁ສາຍແອວ	-9.74152
ຊະນິດ	-9.74374
ພົວພັນ	-9.74374
ເຈາະ	-9.74374
▁Chicken	-9.74374
tribal	-9.74374
▁Epson	-9.74374
ອາບນ້ໍາ	-9.74394
ual	-9.74431
▁Jan	-9.74449
ຖອນ	-9.74513
ຮອບ	-9.74516
ove	-9.74565
▁Gold	-9.74593
shop	-9.7464
oot	-9.7465
NO	-9.74698
▁ຫມາກ	-9.74728
ward	-9.74738
123	-9.74768
ກວດກາ	-9.74849
lar	-9.74897
ແຕ່ງ	-9.74924
▁Send	-9.74955
ຕໍ່ຕ້ານ	-9.74968
lf	-9.74969
ດໍາ	-9.74974
ຕາຕະລາງ	-9.75008
▁El	-9.7501
▁Electro	-9.75054
Supermarket	-9.75068
ເຄື່ອງນຸ່ງຫົ່ມ	-9.75068
▁Province	-9.75068
▁gallery	-9.75068
▁modified	-9.75068
ຄວາມເປັນສ່ວນຕົວ	-9.75068
ພະແນກ	-9.75068
▁GAME	-9.75069
ແຍກ	-9.7507
watercolor	-9.7507
Feather	-9.75081
ໂດລາ	-9.75085
ຕ່າງປະເທດ	-9.75096
▁450	-9.75182
kin	-9.75232
▁Wood	-9.7524
hat	-9.75241
່າຍ	-9.75245
▁ກັບການຝຶກອົບຮົມ	-9.7526
▁HP	-9.75441
▁Lock	-9.75445
jo	-9.75478
▁cre	-9.75614
▁per	-9.75764
▁Shandong	-9.75768
dragon	-9.75768
ຄົ້ນຫາ	-9.75787
ການຊ່ວຍເຫຼືອ	-9.75815
-2017	-9.76038
ute	-9.76149
▁2.0	-9.76156
▁Pipe	-9.76165
ຫນັງ	-9.76178
ໂບ	-9.76206
▁ການໂຄສະນາ	-9.76226
1000	-9.76339
▁Ja	-9.76386
▁ອິນເດຍ	-9.76388
ຄວາມໄວ	-9.7639
rad	-9.76424
ແນ່ນອນ	-9.76472
▁Lyophilized	-9.76472
ດ່ວນ	-9.76472
ຄັ້ງທໍາອິດ	-9.76492
▁ກັນນ້ໍາ	-9.7651
▁Water	-9.76528
05-2018	-9.76529
ຫນັງສື	-9.76537
skull	-9.76558
ນະຄອນ	-9.76567
▁ທົ່ວ	-9.76739
9002	-9.76775
oom	-9.76891
▁ລິດ	-9.77055
±	-9.77181
ຫນຽວ	-9.77181
▁ມິຕິ	-9.77186
ຜົນປະໂຫຍດ	-9.77252
▁PE	-9.7726
ການປະຕິບັດ	-9.77291
ime	-9.77303
henna	-9.77321
arrow	-9.77462
FE	-9.77466
rose	-9.7747
▁64	-9.77492
1.1	-9.77579
VAC	-9.7772
ການສະ	-9.77742
▁DJ	-9.77783
ທົວ	-9.77895
ສິລະປະ	-9.77895
ເສົາ	-9.77895
ໂມດູນ	-9.77895
ປະກາດ	-9.77896
Ankle	-9.77898
ves	-9.779
ລິນ	-9.77907
▁View	-9.77922
ສຸ	-9.77936
▁online	-9.77943
ບັນຊີລາຍການ	-9.77946
▁Report	-9.78051
▁Rock	-9.78086
IE	-9.78178
ການເດີນທາງ	-9.78188
▁Big	-9.78491
▁mini	-9.78527
▁ben	-9.78537
▁ຄຸນ	-9.7857
ປະມວນຜົນ	-9.78615
ແຕ້ມ	-9.78615
▁Bearing	-9.78617
ຄຸນສົມບັດ	-9.78642
acock	-9.78728
▁Hotel	-9.78729
camp	-9.78736
AMP	-9.78931
long	-9.78939
ໂທຫາ	-9.79056
ເກີນ	-9.79079
lit	-9.79235
ຄຸນນະສົມບັດ	-9.79339
▁crusher	-9.79339
▁ມົມ	-9.79339
ແສງຕາເວັນ	-9.79339
anchor	-9.79344
▁ideas	-9.79367
▁Roll	-9.79371
ໃຊ້ເວລາ	-9.7947
ຮ່ອງ	-9.79474
ເຊັນ	-9.79503
ຜັກ	-9.79544
oul	-9.7955
▁tattootattoos	-9.79585
▁Idea	-9.79593
AF	-9.79646
ລວມທັງ	-9.7975
cute	-9.79786
zi	-9.79791
yang	-9.79806
TER	-9.79807
pack	-9.79847
ith	-9.79898
ຈໍາຫນ່າຍ	-9.80024
-40	-9.80026
zodiac	-9.80069
ອາລູມິນຽມ	-9.80069
▁Cixi	-9.80072
mobile	-9.80072
▁1200	-9.80093
ເອີ້ນວ່າ	-9.80101
UM	-9.80114
ສັ່ງ	-9.80181
cal	-9.80192
vid	-9.80331
ປຸກ	-9.80337
ດາວໂຫລດ	-9.80516
RS	-9.80521
▁GBP	-9.80534
RC	-9.80575
ech	-9.80708
▁Shi	-9.80751
н	-9.80804
送	-9.80804
ທົນທານຕໍ່	-9.80826
▁ເພດ	-9.80842
ຕໍາ	-9.80873
lling	-9.80884
ສິດທິ	-9.80885
▁Review	-9.80888
020	-9.80967
ທາງອາກາດ	-9.81001
ແບ	-9.81019
▁Over	-9.81067
▁Sea	-9.81243
OM	-9.8132
▁game	-9.81329
ຄູ່ມື	-9.8137
ຊັບ	-9.81411
▁On	-9.81449
▁ສິ້ນ	-9.81482
ວຽກງານ	-9.81531
▁ອອນ	-9.81542
▁blossom	-9.81545
▁sleeve	-9.81545
▁Remover	-9.81546
ຕູ້ເຢັນ	-9.81565
▁neck	-9.81579
▁฿	-9.81587
ແດ	-9.81672
▁Driver	-9.81679
SO	-9.8171
▁Ke	-9.82165
0.6	-9.82172
eater	-9.82175
ແນວໃດ	-9.82191
ເຫລໍກ	-9.82291
ຕາເວັນຕົກ	-9.82291
ການເກັບຮັກສາ	-9.82293
cherry	-9.82295
ສົ່ງອອກ	-9.82298
▁lotus	-9.823
ແທນ	-9.82372
▁Inter	-9.8251
▁Arm	-9.82515
ຫາຍ	-9.82625
ຄານ	-9.8268
▁350	-9.82718
ju	-9.82868
ope	-9.83018
ever	-9.83029
▁PU	-9.83032
ຄົມ	-9.83039
≥	-9.83043
ກາຕູນ	-9.83043
▁Biotechnology	-9.83043
р	-9.83043
с	-9.83043
ເກົ່າ	-9.83043
▁double	-9.83043
▁AUD	-9.83055
▁ອັບ	-9.83065
▁Apps	-9.83121
▁poly	-9.83127
ນ້ໍາຫນັກ	-9.83206
▁GPS	-9.83333
count	-9.83366
tech	-9.83571
6.0	-9.83638
-18	-9.83651
ສ້າງຕັ້ງ	-9.83704
ຍຸດທະສາດ	-9.83801
reamcatcher	-9.83801
▁Pinterest	-9.83801
信	-9.83801
▁eagle	-9.83801
ເປົ້າຫມາຍ	-9.83805
ໃນຂະນະທີ່	-9.83807
ຫມັ້ນ	-9.83813
▁Glass	-9.83833
ຮ້ອງ	-9.83922
▁Bay	-9.8394
je	-9.84072
ສ່ວນໃຫຍ່	-9.841
EP	-9.84132
-16	-9.84155
lp	-9.84187
▁Size	-9.84237
ບອກ	-9.84238
ໂອ	-9.84255
ເງິນຝາກ	-9.84464
▁ຄວາມສູງ	-9.84477
▁Reserved	-9.84564
▁galvanized	-9.84564
▁semicolon	-9.84564
发	-9.84564
息	-9.84564
ehndi	-9.84564
▁Summer	-9.84565
ສະອາດ	-9.84565
ດາວໂຫຼດ	-9.84589
burg	-9.84613
ທ່ອງທ່ຽວ	-9.84624
▁Mount	-9.84629
ຜິດ	-9.84644
▁comp	-9.84732
▁Imp	-9.84793
script	-9.84829
ຈອງ	-9.84862
ACK	-9.84907
tar	-9.84965
▁Solutions	-9.85011
emb	-9.85147
ແທ	-9.8519
▁Cnc	-9.85249
ຊ່ວຍເຫຼືອ	-9.85296
ງ່າຍດາຍ	-9.85333
ຊ້າງຊ້າງ	-9.85333
ທຽມ	-9.85333
ສາວຕາຕັກ	-9.85333
ສ້ອຍຂໍ້ມືເພັດ	-9.85333
ຫນ້າຕາຕັບ	-9.85333
▁multi	-9.85333
ລະບົບຕ່ອງໂສ້	-9.85334
▁ການແປພາສາ	-9.85334
▁Fabric	-9.85334
▁ເຂັມທິດ	-9.85335
ຄູ່ຜົວເມຍຄູ່	-9.85336
▁ຂວດ	-9.85342
▁CHF	-9.85371
ພວກເຂົາເຈົ້າ	-9.8538
dove	-9.85388
▁Dining	-9.85393
JS	-9.85444
▁Forum	-9.85468
ດ້ານວິຊາການ	-9.85504
ລາຍງານ	-9.8552
ally	-9.85543
QS	-9.85596
ອະນຸຍາດ	-9.85607
DI	-9.8561
ປ່າ	-9.85625
AMI	-9.85702
ທີ່ດິນ	-9.85921
▁Bank	-9.8596
ອຸນຫະພູມ	-9.86037
ເຫນືອ	-9.86109
▁Blackjack	-9.86109
Unthank	-9.86109
▁Boiler	-9.86111
ສະຫນາມບິນ	-9.86114
▁yarn	-9.86114
ມື້ອື່ນ	-9.86141
ໄລຍະເວລາ	-9.86255
▁Cont	-9.86271
ກາຍເປັນ	-9.86272
ມະນຸດ	-9.86328
ກາຍ	-9.8635
ລົດຈັກ	-9.86376
ິວ	-9.86391
▁Sim	-9.864
SIN	-9.86536
ຂອງບໍລິສັດ	-9.86583
ເຫມາະສົມ	-9.86636
▁Bill	-9.86755
ປັ໊ມ	-9.8689
anzania	-9.8689
ປະຕິທິນ	-9.8689
▁jackpot	-9.8689
ກ້ອນ	-9.86892
ລັດຖະບານ	-9.86899
ທຸກໆ	-9.86946
ຕອບສະຫນອງ	-9.86999
ຖານຂໍ້ມູນ	-9.87022
ໂດຍຜ່ານ	-9.87125
-25	-9.87135
ຣາ	-9.87343
▁SMS	-9.87365
TI	-9.87433
▁Pol	-9.87443
น	-9.87677
▁Pneumatic	-9.87677
▁ຄາວາຊາກິ	-9.87677
▁ເກົ້າອີ້	-9.87677
ສູນເສຍ	-9.87704
ຕັ້ງແຕ່	-9.87716
▁ຫນອງ	-9.87723
▁mold	-9.87762
ອາຊີ	-9.87871
ຫີນ	-9.87883
ວິຊາ	-9.87932
▁Tool	-9.87939
▁Beach	-9.88027
card	-9.88131
▁RJ	-9.882
▁SH	-9.8821
meter	-9.8823
140	-9.88249
RN	-9.88335
ບໍລິຫານ	-9.88359
ກ່ວາ	-9.88416
▁ນັບຕັ້ງແຕ່	-9.88421
ວ່າຈະ	-9.88435
ຕາເວັນອອກ	-9.88471
▁cookies	-9.88471
▁joomla	-9.88471
ທອງແດງ	-9.88471
▁ກຸ່ມນະໂຍບາຍ	-9.88471
▁ລາຍຊື່	-9.88512
ຕ່າງ	-9.88522
ຕໍ່ສູ້	-9.88552
▁ເຄື່ອງປ້ອນ	-9.88574
▁(2)	-9.88578
▁Chain	-9.88585
▁LO	-9.88596
▁ຫມາ	-9.8865
ຜູ້ຊ່ຽວຊານ	-9.88664
ດາວ	-9.88699
ການຄົ້ນຄວ້າ	-9.88721
ສ່ວນປະກອບ	-9.88822
▁Full	-9.88863
UF	-9.88935
▁Day	-9.88939
▁ພວກເຮົາແມ່ນ	-9.89079
ທຽນ	-9.89271
ມະຫາວິທະຍາໄລ	-9.89271
ລົບ	-9.89271
▁Casengo	-9.89271
ຂອງເຂົາເຈົ້າ	-9.89271
▁printer	-9.89293
ign	-9.89329
▁exp	-9.89337
ທີ່ມີຄຸນນະພາບສູງ	-9.89365
ສົມບັດ	-9.89399
900	-9.89439
▁ZR	-9.89494
▁inter	-9.89565
ຫນັກ	-9.89661
▁Plate	-9.8968
ການສະແດງ	-9.89758
each	-9.89843
Wholesale	-9.89843
ຫມາກ	-9.89876
▁2009	-9.90045
▁Wind	-9.90054
Player	-9.90055
ອະນຸ	-9.90067
transposh	-9.90077
ສະດວກ	-9.90077
ທີ່ມີຊື່ສຽງ	-9.90077
ຮູບຮ່າງ	-9.90077
ທີ່ສົມບູນແບບ	-9.90078
GSM	-9.90158
wp	-9.90338
ທີ່ບໍ່ແມ່ນ	-9.90434
ava	-9.90458
ctor	-9.90512
▁Hai	-9.90589
Exp	-9.9062
ທາດ	-9.90704
PH	-9.90708
▁Sub	-9.90748
ຂັ້ນຕອນ	-9.90768
▁Die	-9.90885
ສົມບູນ	-9.90889
▁Chamber	-9.90891
▁Display	-9.90891
▁Pocket	-9.90891
▁Speed	-9.90896
▁ນວນ	-9.9094
▁ຖົງມື	-9.90964
▁2008	-9.90992
▁Get	-9.91163
run	-9.9121
oke	-9.9124
▁380	-9.91256
▁Supplier	-9.91321
▁Shot	-9.91337
ຫວ່າງ	-9.91699
ເຕືອນ	-9.9171
Українська	-9.9171
▁Crypto	-9.9171
▁ຊມ	-9.91819
▁Grand	-9.91854
ເຂົ້າໃຈ	-9.9199
ຢູ່ທີ່	-9.92059
ature	-9.92274
▁VS	-9.92351
info	-9.92437
ຫຼຸດຜ່ອນ	-9.92537
▁scooter	-9.92537
▁Zhong	-9.92537
ຜູ້ຊາຍແລະແມ່ຍິງ	-9.92578
▁Clear	-9.92587
ຫຼັງ	-9.92597
▁Master	-9.92684
Rider	-9.92878
▁Time	-9.929
▁ແນະ	-9.92938
0.3	-9.93069
▁Net	-9.93242
▁PRO	-9.93349
BwebsiteWS	-9.9337
ຂຸດຄົ້ນບໍ່ແຮ່	-9.9337
▁conveyor	-9.9337
Uncategorized	-9.9337
▁Fruity	-9.9337
▁Gasket	-9.9337
▁Engine	-9.9337
▁Pulverized	-9.93373
▁Holm	-9.93379
▁Kids	-9.93388
▁ໂມງ	-9.93396
ຮ້ານ	-9.93457
ຂັດ	-9.93523
ENT	-9.93559
ເວທີ	-9.93602
▁gay	-9.93623
ບົດຄວາມ	-9.93707
ິ່ງ	-9.93751
ທີ່ໃຊ້ເວລາ	-9.93758
▁Bonuses	-9.93876
▁UP	-9.94109
ette	-9.94191
ການສະກົດຈິດ	-9.9421
ວິສາຫະກິດ	-9.9421
ຜົມ	-9.9421
▁FXCL	-9.9421
天	-9.9421
聊	-9.9421
Distributor	-9.94211
▁Profile	-9.94211
ເຫດການ	-9.94216
▁ຈິກ	-9.9425
▁Fa	-9.94269
ຫມູ	-9.94286
The	-9.94332
-02	-9.94381
ເວັບໄຊ	-9.94399
pc	-9.94399
ຊະ	-9.9445
STON	-9.94508
▁Clamp	-9.94571
▁Magic	-9.94599
ການທົດລອງ	-9.94616
berg	-9.94771
ທີ່ຜ່ານມາ	-9.94914
ຼ	-9.94922
ການຕັດ	-9.94956
jiang	-9.95044
ຕຽງ	-9.95058
▁Bluetooth	-9.95058
ປະຈໍາເດືອນ	-9.95079
ຫານ	-9.9508
ຄົ້ນພົບ	-9.95082
▁CAD	-9.95143
▁ແອ	-9.95148
ການສ້າງ	-9.95152
ເຮົາ	-9.95271
▁Che	-9.95274
ສະເພາະ	-9.95308
ພະນັກງານ	-9.95328
ສາຍແອວ	-9.9533
ຕຸລາ	-9.95331
▁With	-9.95363
play	-9.95364
ຊ່ອງ	-9.95422
▁Cent	-9.95452
ities	-9.9554
່ມ	-9.95574
▁Magnetic	-9.95613
ado	-9.95722
ໂອນ	-9.95766
ຫຼຸດລົງ	-9.95912
▁Bangkok	-9.95912
▁MUAY	-9.95912
▁machine	-9.95913
▁Casting	-9.95916
▁Open	-9.95918
ເຖິງແມ່ນວ່າ	-9.95919
▁Viber	-9.95977
ສຶກສາ	-9.96053
name	-9.96076
ໂດຍກົງກັບ	-9.96101
ປະສິດທິພາບສູງ	-9.96122
ເບຍ	-9.96172
▁130	-9.96264
▁Magnetics	-9.9627
izer	-9.96374
888	-9.96408
row	-9.96614
ກັບຄືນໄປບ່ອນ	-9.96774
ພຣະອົງ	-9.96774
ເນື່ອງຈາກ	-9.96774
▁Amazon	-9.96774
▁corrugated	-9.96774
ມ່ວນ	-9.96775
▁Changzhou	-9.96775
ແລະຜູ້ສະຫນອງ	-9.96776
HZ	-9.9682
▁Club	-9.96824
-19	-9.96978
itter	-9.97015
ຂວາ	-9.97081
▁Drop	-9.97115
ູ້	-9.97179
“	-9.97219
▁Ash	-9.97224
ough	-9.97285
eep	-9.97372
ນັກຮຽນ	-9.97431
ໂມເລກຸນ	-9.97643
ຕາຫນ່າງ	-9.97644
ş	-9.97644
т	-9.97644
▁CHEATS	-9.97644
▁Dongguan	-9.97644
▁Standard	-9.97644
▁roller	-9.97655
ຫູ	-9.97656
ກາງແຈ້ງ	-9.97666
ຮູ້ຈັກ	-9.97666
▁Saint	-9.97692
ຢຸດ	-9.97702
uz	-9.97737
ດັນ	-9.97738
▁Pri	-9.97776
9001	-9.97969
ເສຍ	-9.98195
ການສົນທະນາ	-9.98216
ທີ່ສາມາດ	-9.98389
house	-9.98481
▁ຫຼ້າ	-9.98489
ຊັ່ນ	-9.98496
ການປົກປ້ອງ	-9.98503
ໂປແກຼມ	-9.98521
▁Minnesota	-9.98521
▁Oxygen	-9.98521
ລະບາຍ	-9.98521
▁Deutsch	-9.98521
▁Pvc	-9.98525
▁Film	-9.98527
ແບ່ງ	-9.98537
ເຄິ່ງ	-9.98544
ປະຈໍາປີ	-9.98569
lb	-9.98569
-200	-9.9864
water	-9.98656
▁Max	-9.9872
▁ຕົວແບບ	-9.98727
ຢ້ຽມຢາມ	-9.98871
FI	-9.9891
▁Food	-9.98916
▁Ski	-9.99006
▁Gh	-9.99012
ປະຕິບັດງານ	-9.99056
1.5	-9.99165
ຈຸດປະສົງ	-9.99406
▁Separator	-9.99406
▁solenoid	-9.99406
ເຮັດໃຫ້ມີແສງ	-9.99406
ການດໍາເນີນງານ	-9.99407
▁Bulk	-9.9941
ສະພາ	-9.99424
▁Data	-9.99572
;#	-9.99595
ເຟ	-9.99669
ທົນ	-9.99726
▁May	-9.9973
▁API	-9.99747
ທີ່ເຫມາະສົມ	-10.0001
ຫນ່ວຍ	-10.0013
feng	-10.0021
GO	-10.0027
▁Meyelashstore	-10.003
▁ຖັດໄປ	-10.003
ຂໍ້ມູນຂ່າວສານ	-10.003
ສອບຖາມ	-10.003
ສາດສະຫນາຈັກ	-10.003
ແຫວນ	-10.003
ແພດ	-10.0033
ເມັດ	-10.0035
▁ລາຄາປົກກະຕິ	-10.0036
ທາດເຫຼັກ	-10.0054
▁dust	-10.0074
ອີງຕາມ	-10.0101
ຫົວຂໍ້	-10.0115
ຮຸ້ນ	-10.012
▁Sodium	-10.012
field	-10.012
how	-10.0123
bb	-10.0123
▁ມັງ	-10.0125
erson	-10.0127
▁Hui	-10.0131
ທັນທີ	-10.0135
ປອດໄພ	-10.0142
▁Mesh	-10.0146
▁Neo	-10.0148
ຂັບລົດ	-10.0162
ການຮ່ວມມື	-10.0165
ella	-10.0171
▁Tai	-10.0173
ມົນ	-10.0177
ike	-10.0192
ສະພາບອາກາດ	-10.021
ç	-10.0211
ຫລໍ່	-10.0211
ອົດສະຕາລີ	-10.0211
▁TRUSTED	-10.0211
▁Temperature	-10.0211
▁South	-10.0212
▁Golf	-10.0212
ເລິກ	-10.0215
ຂອງຂ້ອຍ	-10.0217
▁pump	-10.0217
▁ຖ້າທ່ານ	-10.0217
content	-10.0219
IO	-10.0219
▁Java	-10.0222
ກະດານຂາວ	-10.0222
ການຮັບຮອງ	-10.0224
ender	-10.0227
Sets	-10.0236
ພາສີ	-10.0238
ປັດຈຸບັນ	-10.0247
▁Run	-10.0254
▁Yu	-10.0255
ເຄື່ອງດື່ມ	-10.0263
ເລັບ	-10.0272
bert	-10.0291
▁Nov	-10.0298
ແຫຼ່ງ	-10.0302
▁ສິງ	-10.0303
ວັດທະນະທໍາ	-10.0303
Φ	-10.0303
ສັງກະສີ	-10.0303
ification	-10.0303
mission	-10.0303
▁DVD	-10.0304
JPY	-10.0304
▁Production	-10.0304
yuan	-10.0311
ສະບັບ	-10.0312
ການເຄື່ອນໄຫວ	-10.0315
ຖັງ	-10.0318
HS	-10.0324
ຂອງພວກເຂົາ	-10.0328
▁Promo	-10.0328
ທໍ	-10.0334
ສະພາແຫ່ງ	-10.0344
▁Printing	-10.0353
ຕັນ	-10.0357
rag	-10.0368
-04	-10.0391
ປະຊຸມ	-10.0393
ທັດສະນະ	-10.0395
ສອບເສັງ	-10.0395
ກ້ອງຖ່າຍຮູບ	-10.0395
ເຊົ້າ	-10.0395
▁Copyshop	-10.0395
▁Galaxy	-10.0395
▁Linux	-10.0395
▁ອອກຄໍາເຫັນເປັນ	-10.0395
ເກືອບ	-10.0395
▁feeder	-10.0395
nbsp	-10.0395
▁Package	-10.0395
111	-10.0398
ນາມ	-10.0404
ພາສາອັງກິດ	-10.041
▁Strip	-10.0416
▁RO	-10.0424
▁Stone	-10.0427
0.8	-10.0428
▁Dong	-10.0434
ລ່າ	-10.0448
ອີງໃສ່	-10.0451
ALL	-10.0451
▁160	-10.0458
▁ມັນແມ່ນ	-10.046
ather	-10.0463
tian	-10.0473
ເລດ	-10.0477
ຄົ້ນຄ້ວາ	-10.0489
ກະເປົາ	-10.0489
ທ້ອງຖິ່ນ	-10.0489
ບໍລິເວນ	-10.0489
ເຂົ້າສູ່ລະບົບ	-10.0489
ທໍາຄວາມສະອາດ	-10.0489
▁Screw	-10.0489
▁Zipper	-10.0489
ຫວັງ	-10.0489
▁micro	-10.0489
▁PROMO	-10.049
ວາງແຜນ	-10.0492
▁ຫມັກ	-10.0494
▁ເຄື່ອງປະດັບ	-10.0496
ຊ້ໍາ	-10.0499
ອໍາ	-10.0499
ອິ	-10.0505
EE	-10.0507
101	-10.0517
ປ້າຍ	-10.0518
▁Adv	-10.0518
2.1	-10.052
ເອດ	-10.0538
136	-10.0547
▁games	-10.0549
ຈະເປັນ	-10.0558
▁Core	-10.0564
ໃຫ້ທ່ານ	-10.0569
ຫລັກ	-10.0578
ຫມໍ້	-10.0581
ຍອມຮັບ	-10.0583
▁Ducati	-10.0583
▁Quality	-10.0583
▁Brush	-10.0583
▁Trading	-10.0583
▁ຮ້ານຄ້າ	-10.0584
▁ບິດ	-10.0586
ທຸກຄົນ	-10.0595
▁gl	-10.0596
ທັງສອງ	-10.0601
ກ້າ	-10.0601
ທີ່ໃຊ້	-10.0613
IB	-10.0617
2.8	-10.0618
▁Posted	-10.0622
ພາກພື້ນ	-10.0625
print	-10.0626
▁Rai	-10.0626
ector	-10.0629
▁Jack	-10.0633
nation	-10.0637
AND	-10.0657
▁Royal	-10.0658
ແກ້	-10.0665
ປ້ອນ	-10.0666
ເດັກຍິງ	-10.0667
ເສັ້ນໃຍ	-10.0678
ກວມເອົາ	-10.0678
ລົດຖີບ	-10.0678
▁BreatheLife	-10.0678
ສະກຸນເງິນ	-10.0678
▁123456	-10.0678
ທົດແທນ	-10.0678
ຍ້າຍ	-10.0678
▁Touch	-10.0678
▁Admin	-10.0679
ການຊື້ຂາຍ	-10.0679
ຜິວ	-10.0684
▁ຄອມ	-10.0685
ເລືອກເອົາ	-10.0687
ດຽວກັນ	-10.0692
ຈີ	-10.0694
5.0	-10.0696
ປູກ	-10.0697
▁Of	-10.0697
cheng	-10.0703
ທົ່ວໂລກ	-10.0705
ິ່ນ	-10.0714
BR	-10.0719
ໂກນ	-10.0725
▁Hydraulic	-10.0774
▁Luxury	-10.0774
ດໍາລົງຊີວິດ	-10.0774
▁NZD	-10.0775
▁Router	-10.0775
▁BTC	-10.0776
lash	-10.0777
ຄວາມຫນາແຫນ້ນ	-10.0785
▁Relay	-10.0788
▁Fast	-10.0795
rank	-10.0804
▁nad	-10.0829
5,000	-10.0831
aj	-10.0848
ທົດສອບ	-10.0848
ຊ່ຽວຊານ	-10.0849
zz	-10.0855
▁sub	-10.0859
ຄວາມແມ່ນຍໍາ	-10.0872
ນະຄອນຫຼວງ	-10.0872
ປັນຍາ	-10.0872
ພັກຜ່ອນ	-10.0872
▁Converter	-10.0872
ແຕກ	-10.0872
▁ROHS	-10.0872
ອະນຸມັດ	-10.0873
ແລ່ນ	-10.0879
ization	-10.0881
ສັກ	-10.0892
well	-10.0892
▁ພາຍ	-10.0901
▁Dj	-10.0902
▁Pad	-10.0911
matic	-10.0924
▁Ink	-10.0927
ຄໍາວ່າ	-10.0935
ola	-10.0937
ປອມ	-10.0956
ຮັບຮອງ	-10.0963
ໄຮໂດລິກ	-10.097
▁Comments	-10.097
▁screw	-10.097
▁Cloud	-10.097
▁County	-10.097
▁Tagged	-10.097
▁Bio	-10.0977
ໄປຢ້ຽມຢາມ	-10.0978
ຂົນ	-10.0989
▁ຂ່າວສານ	-10.0991
afe	-10.0997
▁Lead	-10.1
ຕ້ານການ	-10.1009
ເວີ	-10.1011
▁Cutter	-10.1011
ສາມາດໄດ້ຮັບການ	-10.1015
ຮູ້ສຶກ	-10.103
ຍ່າງ	-10.1044
9.00	-10.105
▁Code	-10.1052
ຄາດ	-10.1056
▁ຊິ້ນ	-10.1058
amide	-10.1061
ີ້	-10.1068
ປະຫຍັດ	-10.1068
ຄ້າຍຄື	-10.1069
ວັກຊີນ	-10.1069
ເດືອນກໍລະກົດ	-10.1069
▁Limited	-10.1069
▁phantom	-10.1069
▁Premium	-10.1069
▁Cloth	-10.1069
ເກີດຂຶ້ນ	-10.1073
▁Blackboard	-10.1074
▁Tablet	-10.1082
▁cnc	-10.1093
ເລັກ	-10.1101
ຮ້ານອາຫານ	-10.1101
post	-10.1104
ໂດຍສະເພາະ	-10.1139
▁ພຶດ	-10.1168
ร	-10.1169
ວີດີໂອ	-10.1169
▁marketing	-10.1169
▁Jizerou	-10.1169
ກໍາແພງ	-10.1169
zip	-10.1169
▁Island	-10.1169
▁ກ້ອງ	-10.1172
▁ເດດ	-10.1173
ຂອງພວກເຮົາແມ່ນ	-10.1185
ຈິດ	-10.1188
▁8.2	-10.1193
ious	-10.1206
adi	-10.1213
▁ຄັ້ງທີ	-10.1213
▁Train	-10.1237
ລາດ	-10.1243
ຫຼາຍທີ່ສຸດ	-10.1256
ແຜງ	-10.127
ທີ່ດີເລີດ	-10.127
▁Eyelash	-10.127
▁Jiangsu	-10.127
▁Misslamode	-10.127
▁Vintage	-10.127
ສາມາດເຂົ້າເຖິງ	-10.127
▁Vinyl	-10.127
▁Burner	-10.127
▁James	-10.127
▁ຫຼວດ	-10.127
▁Roger	-10.1272
▁Paper	-10.1277
ແຮ່	-10.1295
4.5	-10.1298
▁Machinery	-10.13
ສິບ	-10.1314
▁mod	-10.1326
chat	-10.1329
▁Note	-10.134
ແມ່ນມີ	-10.1356
▁ມັນມີ	-10.1359
ຊ່ວຍໃຫ້	-10.1365
▁Archiv	-10.1367
ພູມ	-10.137
ຈັດພີມມາ	-10.1371
ທີ່ຍິ່ງໃຫຍ່	-10.1372
ຮ້ອຍ	-10.1372
ໄຂ່	-10.1372
▁Oxford	-10.1372
ບັນຊີລາຍຊື່	-10.1372
ຮ້າຍ	-10.1372
ເຄື່ອງສໍາອາງ	-10.1372
ເທກໂນໂລຍີ	-10.1372
ะ	-10.1372
▁Cauda	-10.1372
ດຶງ	-10.1372
ບວກ	-10.1372
▁Plug	-10.1372
▁ເສື້ອຜ້າ	-10.1372
▁Snap	-10.1373
ກະເປົ໋າ	-10.1384
▁Silicone	-10.1385
▁matt	-10.1396
ລຸ່ມ	-10.1397
ເຕ	-10.1408
ນັ່ງ	-10.1421
ສະຫຼ	-10.1423
ຂອງໂລກ	-10.1424
cept	-10.1425
▁ກູ	-10.1427
▁Mai	-10.1437
▁Sticker	-10.1448
▁USA	-10.1455
122	-10.1459
▁Jul	-10.1465
ສູ່	-10.1469
▁tattootattoo	-10.1469
ຄຸນະພາບ	-10.1474
ປະສົມປະສານ	-10.1475
ມູນນິທິ	-10.1475
ເວັບໄຊຕ໌	-10.1475
ທີ່ໃຫຍ່ທີ່ສຸດ	-10.1475
▁Length	-10.1475
▁bonus	-10.1475
ຫລັກສູດ	-10.1475
ປຸງແຕ່ງ	-10.1476
ເຫຼັກກ້າ	-10.1477
ຄວາມຮູ້	-10.1483
▁+856	-10.1484
▁1.2	-10.1487
1.6	-10.149
ຊອງ	-10.1491
ຮ່ວມກັນ	-10.1495
ເຊິ່ງ	-10.1499
▁Bike	-10.1503
▁Word	-10.1503
▁Edge	-10.1511
stone	-10.1511
▁ຈີນຜູ້ຜະລິດ	-10.1513
INE	-10.1518
ການຫຸ້ມຫໍ່	-10.1523
▁Block	-10.154
ຜູ້ນໍາ	-10.1541
▁Mont	-10.1545
ໃນປະຈຸບັນ	-10.1563
anda	-10.1563
▁Sep	-10.157
2.0	-10.1573
USD	-10.1576
ປະກັນໄພ	-10.1579
▁Application	-10.1579
ວຽນ	-10.1579
▁Facebook	-10.1579
▁Poker	-10.1579
▁Apk	-10.158
!!!	-10.158
▁ABS	-10.1581
▁ພິວ	-10.1582
▁(0)	-10.1583
ຄັນ	-10.1586
ແຂວງ	-10.1612
▁Watch	-10.1616
train	-10.1633
ຄູ	-10.1633
ິບ	-10.1635
▁PET	-10.1646
ຂອງມະນຸດ	-10.1654
▁Rod	-10.1655
▁Mag	-10.1657
ump	-10.1664
hot	-10.1668
ວຽງຈັນ	-10.1684
▁Pattaya	-10.1684
▁Venturi	-10.1684
▁pvc	-10.1684
▁valve	-10.1685
ຫຼັກສູດ	-10.1686
▁Studio	-10.1686
craft	-10.1686
ພາຍນອກ	-10.1692
ຕ່ໍາສຸດ	-10.1692
▁ຖຸ	-10.1698
▁This	-10.1704
/201	-10.171
hao	-10.1713
ໂດຍບໍ່ມີການ	-10.1719
ravel	-10.1722
▁Tech	-10.1727
ແຜນທີ່	-10.1739
link	-10.1751
ສັດລ້ຽງ	-10.1751
ສັງ	-10.1756
ຊູແອັດ	-10.179
▁virtual	-10.1791
▁Coffee	-10.1791
▁Excel	-10.1791
ປ່າໄມ້	-10.1793
▁Cake	-10.1793
▁block	-10.1795
▁Ray	-10.1795
ກ່າວວ່າ	-10.18
ໃຫ້ແກ່	-10.1801
▁new	-10.1804
▁ສົນ	-10.181
ຈະໄດ້ຮັບການ	-10.1841
ເງື່ອນໄຂ	-10.1846
ຕ້ອງການທີ່ຈະ	-10.1862
ເຈົ້າຂອງ	-10.1863
EST	-10.1875
▁ຄ່າໃຊ້ຈ່າຍທັງ	-10.188
iff	-10.1885
856	-10.1895
ຢືນ	-10.1898
ສົງ	-10.1898
ຜິດພາດ	-10.1898
ສອດຄ່ອງ	-10.1898
ວັນຄຣິດສະມາດ	-10.1898
▁Compressor	-10.1898
▁Hippie	-10.1898
ປົກປັກຮັກສາ	-10.1898
▁Express	-10.1898
▁black	-10.1899
ສາມາດໃຊ້ໄດ້	-10.19
ສໍາເລັດຮູບ	-10.1903
1.3	-10.1905
▁ຜົນໄດ້ຮັບ	-10.1906
ຊານ	-10.1907
ection	-10.191
ONE	-10.1912
ປະຈຸບັນ	-10.1914
▁made	-10.1927
▁ນຸ	-10.1953
▁Tester	-10.1956
ແປດ	-10.1959
ຄໍາຖາມ	-10.1966
0.9	-10.1977
ັມ	-10.1978
ສັກຢາ	-10.1983
ມອບ	-10.1995
ທົບທວນ	-10.1999
«	-10.2007
ເຕົາອົບ	-10.2007
▁Countdown	-10.2007
▁Ubuntu	-10.2007
▁ປອກເປືອກ	-10.2007
ລຶບ	-10.2007
ສະມາຄົມ	-10.2007
ຄລິກ	-10.2007
▁ລາຍຊື່ອີເມວ	-10.2008
▁Tower	-10.2009
▁blog	-10.2011
▁River	-10.2015
▁Stud	-10.2019
▁bag	-10.2034
ແກະ	-10.2034
/2018	-10.2045
▁Log	-10.2049
ັ້ນ	-10.2063
ໃບຢັ້ງຢືນ	-10.2086
ຈົດຫມາຍ	-10.2088
ຕັ້ງຢູ່	-10.2091
ไทย	-10.2117
ການປົກຫຸ້ມຂອງ	-10.2117
ສັງເກດ	-10.2117
▁ມະຫາຊົນ	-10.2117
ຢືມ	-10.2117
ຈໍາເປັນຕ້ອງ	-10.2117
▁cheats	-10.2117
▁ແຫຼ່ງຂໍ້ມູນ	-10.2117
▁Image	-10.2117
▁Program	-10.2117
▁Ninjago	-10.2119
▁ລຸ	-10.212
ຍັງມີ	-10.2131
ຂອບເຂດ	-10.2133
ດີກວ່າ	-10.219
ສຸມໃສ່	-10.2228
ກໍາໄລ	-10.2228
ພົມ	-10.2228
ເດືອນພະຈິກ	-10.2228
▁Precipitator	-10.2228
▁ງວນລິຂະສິດ	-10.2228
▁Fridge	-10.2228
ຕາລາງ	-10.2228
ຈ້າງ	-10.2228
filter	-10.2228
ເສຍຊີວິດ	-10.223
ເຊື້ອຊາດ	-10.223
▁super	-10.2233
ເລເຊີ	-10.2234
▁ຫນົນ	-10.224
huang	-10.2241
ແຜ່ນກະດານ	-10.2244
ທອງ	-10.2258
ຫົວໃຈ	-10.226
▁Molding	-10.228
▁ສະນັ້ນ	-10.2284
▁Bao	-10.2286
ພື້ນຜິວ	-10.2288
3.1	-10.2293
{	-10.2331
Manufacturer	-10.2331
ເວັບ	-10.2331
ການສື່ສານ	-10.2339
ກຽມ	-10.234
ຂັບເຄື່ອນ	-10.234
▁ທົບ	-10.234
Atlanta	-10.234
ພິຈາລະນາ	-10.234
ຫະພາບເອີຣົບ	-10.234
▁Gurgaon	-10.234
▁collector	-10.234
ວາລະສານ	-10.234
▁rotary	-10.234
л	-10.234
ຜູ້ອໍານວຍການ	-10.2341
▁FAQ	-10.2341
▁FSX	-10.2341
ພັດລົມ	-10.2341
▁Cross	-10.2342
ການເຂົ້າເຖິງ	-10.2342
▁THB	-10.2345
ຊັນ	-10.2346
▁Maxi	-10.2348
ຖ້າ	-10.2352
ສູນກາງ	-10.2356
4.00	-10.2361
ລູ	-10.2362
ເນຍ	-10.2372
Lao	-10.2385
ທັດ	-10.2388
ທີ່ບໍ່ມີ	-10.239
wood	-10.239
▁Stick	-10.2393
່ອນ	-10.2407
ONG	-10.2425
ນາຍ	-10.2436
ເຂັ້ມ	-10.2454
ທຽບ	-10.2454
▁Mountains	-10.2454
MEDIA	-10.2454
▁WMC	-10.2455
▁LCD	-10.2456
ville	-10.246
ລັດຖະ	-10.2462
▁Acid	-10.2468
ຫ້ອງຮຽນ	-10.2483
ໂດຍທົ່ວໄປ	-10.2483
ຕົວເມືອງ	-10.2487
▁Clash	-10.2495
ການກວດສອບ	-10.2503
ຄຸ້ມຄອງ	-10.253
bot	-10.2538
▁Moto	-10.2541
▁0.2	-10.2556
ການທ່ອງທ່ຽວ	-10.256
case	-10.2563
ທົນທານ	-10.2565
ຄົວ	-10.2565
ຈັດອັນດັບ	-10.2569
▁Garbowicz	-10.2569
▁ຫງວນລິຂະສິດ	-10.2569
▁ເດືອນທັນວາ	-10.2569
ເລືອດ	-10.2569
▁Chemical	-10.2569
▁Blasting	-10.2569
▁NYE	-10.2569
▁Electromagnetic	-10.2569
ການດູແລ	-10.2569
ວາງສະແດງ	-10.257
▁Intel	-10.2573
▁ກົນ	-10.2579
ພອນ	-10.2592
▁Rob	-10.2598
ຫ້ອງນ້ໍາ	-10.2601
▁ທີມ	-10.2607
ການແກ້ໄຂໃນ	-10.2613
ໄປຫາ	-10.2625
ຂໍ້ສະເຫນີ	-10.2629
0.7	-10.2644
home	-10.2649
▁has	-10.2674
▁Magnet	-10.2679
ທີ່ສວຍງາມ	-10.2685
ຈົດທະບຽນ	-10.2685
ຕາຂ່າຍ	-10.2685
▁Connector	-10.2685
▁Metatrader	-10.2685
ບ່ອນນັ່ງ	-10.2686
ຫຼັກຊັບ	-10.2687
▁Plant	-10.2688
ຫລວງ	-10.2688
ອາຈານ	-10.2692
ຈະບໍ່	-10.27
ການບໍລິຫານ	-10.2703
down	-10.2719
ສັນຍານ	-10.2725
▁Sign	-10.2727
ຈະຖືກ	-10.2742
▁Piece	-10.2748
ຮອງຮັບ	-10.2752
▁Rome	-10.2753
▁String	-10.2756
ເດີນທາງ	-10.2759
ລະບຽບ	-10.2786
▁ຖ້າຫາກວ່າທ່ານ	-10.2797
▁service	-10.2803
เ	-10.2803
ປະທັບຕາ	-10.2803
▁Electric	-10.2803
▁Relief	-10.2803
▁ອະໄຫລ່	-10.2803
ແບບຟອມ	-10.2803
▁ສະຫະລັດອາເມລິກາ	-10.2804
ຂີ້	-10.2806
▁ຕິດຕໍ່ພວກເຮົາ	-10.2813
▁more	-10.2823
▁Adder	-10.2828
amine	-10.2833
▁Oct	-10.2838
ຄະນະກໍາມະ	-10.284
Shirt	-10.284
ວິຊາການ	-10.2863
PER	-10.2864
ການຂະຫຍາຍຕົວ	-10.2869
ພັດ	-10.2909
▁Phuket	-10.2922
▁万象资本	-10.2922
▁电话	-10.2922
▁ເກມອອນ	-10.2922
к	-10.2922
▁Material	-10.2922
ຫນ່ວຍຄວາມຈໍາ	-10.2922
ໂຟມ	-10.2922
▁ສູດໂມເລກຸນ	-10.2922
clubs	-10.2922
company	-10.2922
ການາດາ	-10.2922
▁ບົດຄວາມຕໍ່ໄປ	-10.2924
▁PHP	-10.2925
ເກັບກໍາ	-10.2926
▁ເດືອນພຶດສະພາ	-10.2926
▁Final	-10.2927
ເຫລືອ	-10.2928
▁Discharger	-10.2932
▁Range	-10.2943
ກໍາຈັດ	-10.2945
ລາຍໄດ້	-10.2952
ແກ່	-10.2969
Outs	-10.2976
ໄຟຟ້າລາວ	-10.2977
ອັດຕາ	-10.2978
▁ຊື່ຂອງທ່ານ	-10.2986
ຮູ	-10.2993
2015	-10.2993
▁ອົງ	-10.2994
ແຮ່ທາດ	-10.3012
visa	-10.3016
ຄິດວ່າ	-10.3027
ສະຫງວນ	-10.3038
▁Manager	-10.3042
★	-10.3042
ຄ່ໍາ	-10.3042
ປ່ອງຢ້ຽມ	-10.3042
▁ທຶກ	-10.3042
function	-10.3042
ຟຟລ	-10.3042
ສະເຫມີ	-10.3042
ສາຍພານ	-10.3042
▁ດາວໂຫຼດຟຣີ	-10.3042
▁Media	-10.3063
ເຫລັກ	-10.3073
▁Unit	-10.3076
7.5	-10.3105
ປະລິມານ	-10.3105
ສະບັບເລກທີ	-10.3105
IU	-10.3118
ເອກ	-10.3124
graph	-10.3124
ລອກ	-10.3151
ຊັງ	-10.3162
ອຸດສາຫະ	-10.3163
ມົນທົນຊານຕົງ	-10.3164
▁Extrusion	-10.3164
▁Knitting	-10.3164
▁acrylic	-10.3164
ເພີ້ມ	-10.3164
▁Sensor	-10.3164
▁mavic	-10.3164
▁Turkey	-10.3164
▁SKU	-10.3165
ສັນຍາລັກ	-10.3165
ໃນປະເທດຈີນ	-10.3166
ກອງທຶນ	-10.3168
▁Union	-10.3182
▁Visa	-10.3182
▁Dresses	-10.319
▁Show	-10.323
ການຈັດສົ່ງ	-10.3233
▁but	-10.3239
ພາກຮຽນ	-10.3244
Cheng	-10.3248
່ຽງ	-10.3269
ຊຽງໄຮ	-10.3288
ສຸກເສີນ	-10.3288
▁roulette	-10.3288
▁ສະບາຍດີ	-10.3288
ຜູກ	-10.3288
ຫາດຊາຍ	-10.3288
▁Cement	-10.3288
▁ການເດີນທາງລົດໄຟ	-10.329
ພຣະເຈົ້າ	-10.3295
225	-10.3299
ຂ້າມ	-10.3311
▁Load	-10.3316
ລ້ຽງ	-10.3333
ອ່ານເພີ່ມເຕີມ	-10.3348
ແກ່ນ	-10.3353
avi	-10.3356
ວັນສຸກ	-10.3367
ຄວາມຄິດເຫັນ	-10.3379
ລາຄາຖືກ	-10.3385
ency	-10.3386
ໃນທົ່ວໂລກ	-10.3389
Casino	-10.3399
olmbygden	-10.3413
▁Institute	-10.3413
▁cosmos	-10.3413
【	-10.3413
▁EVA	-10.3413
▁KTM	-10.3414
▁ອົງສາ	-10.3414
▁ເດືອນກຸມພາ	-10.3415
▁89.00	-10.3423
ສິ້ນສຸດ	-10.3424
Internet	-10.3434
ໂທລະພາບ	-10.3438
ສະພາບ	-10.3443
▁Qi	-10.3447
138	-10.3454
ຕົວເລກ	-10.3461
▁Liam	-10.3471
▁900	-10.3525
ຮັບຮູ້	-10.3533
▁ຊອກ	-10.3535
ສາວ	-10.3537
ທີ່ທັນສະໄຫມ	-10.3539
ທະນາຍຄວາມ	-10.3539
ປຶກສາ	-10.3539
ຈຶ່ງ	-10.3539
ໂປ່ງໃສ	-10.3539
ສໍານັກງານ	-10.3539
ອາຊິດ	-10.3539
▁Point	-10.3539
▁ທວນ	-10.3545
▁ໂຄງ	-10.3563
ເງິນອອນໄລນ໌	-10.3567
ບໍ່ມີເງິນຝາກ	-10.3567
Break	-10.3571
▁Aria	-10.3572
ດື່ມ	-10.3594
ຂໍ້ມູນເພີ່ມເຕີມ	-10.3601
ນໍາພາ	-10.3608
ຕາຍ	-10.3611
▁Factory	-10.3667
】	-10.3667
в	-10.3667
ຄວາມຕ້ານທານ	-10.3667
ອະນາໄມ	-10.3667
ເສັ້ນໄຍ	-10.3667
▁Odisha	-10.3667
▁Samui	-10.3667
▁iSpyoo	-10.3667
ອໍານາດ	-10.3667
ສະນະແມ່ເຫຼັກ	-10.3667
ຄຸມ	-10.3667
ເພດານ	-10.3667
▁ເນີນ	-10.3668
▁Angle	-10.3668
▁Korat	-10.3669
▁DMF	-10.3669
▁'',	-10.3669
▁option	-10.3669
▁Cooler	-10.3669
ອອນລາຍ	-10.3672
ຍັງສາມາດ	-10.3677
▁Optical	-10.3678
▁ILS	-10.3679
▁Guide	-10.3683
ທາງລົດໄຟ	-10.3689
▁cake	-10.3704
▁Fire	-10.3711
▁Hyp	-10.3756
ອຸນຫະພູມສູງ	-10.3765
love	-10.3778
ຄວາມຮູ້ສຶກ	-10.3784
ເອີ້ນ	-10.3792
ກະຈາຍ	-10.3797
ວຽດນາມ	-10.3797
า	-10.3797
โ	-10.3797
ຊັບພະຍາກອນ	-10.3797
ສະເລ່ຍ	-10.3797
ອະນາຄົດ	-10.3797
▁Acrylic	-10.3797
ເຟີນິເຈີ	-10.3797
▁ກົກ	-10.3797
▁Pathom	-10.3797
▁Sludge	-10.3797
ກະດາດ	-10.3797
▁Krabi	-10.3797
ອຸດົມສົມບູນ	-10.3797
ກິໂລ	-10.3798
▁ASTM	-10.3798
ສີແດງ	-10.38
ອາຊີບ	-10.38
ເຫດຜົນ	-10.3801
ຂ້າງເທິງ	-10.3801
▁Rayong	-10.3801
▁Virus	-10.3802
1.8	-10.3803
ທ້ອງ	-10.3817
▁ດັບ	-10.3819
ອັງ	-10.3835
ຄວາມຖືກຕ້ອງ	-10.3847
ສ່ວນຕົວ	-10.3868
/2017	-10.3873
ique	-10.3876
ຫມົດ	-10.389
▁cont	-10.3909
ສະຕິກເກີ	-10.3929
ໃດໆ	-10.3929
▁Enterprise	-10.3929
▁Shopping	-10.3929
ນວນເງິນຂອງບັນທຶກ	-10.3929
ແຖບ	-10.3929
▁ເອດພີ	-10.3929
▁(2015)	-10.3929
ສິດທິບັດ	-10.3931
ເຮືອນຄົວ	-10.3933
▁Thread	-10.3933
▁Quick	-10.394
,000,000	-10.3942
ອິນເດຍ	-10.3945
ເຟສບຸກ	-10.3945
chlor	-10.3946
▁ຜູ້ຂຽນ	-10.3947
▁etc	-10.3953
▁who	-10.3964
ແຜ່ນໂລຫະ	-10.3977
Pieces	-10.3991
ປ່ຽນແປງ	-10.3996
ປອກ	-10.4021
-150	-10.405
▁ອີເມລ	-10.4061
ອາຟຣິກາ	-10.4062
ການສໍາຫຼວດ	-10.4062
ກົນໄກ	-10.4062
ສິນລະປະ	-10.4062
ຮູບຊົງກະບອກ	-10.4062
ເວບໄຊທ໌	-10.4062
▁Desktop	-10.4062
▁Refinecolor	-10.4062
▁ຢ່າລືມກ່ຽວກັບ	-10.4062
▁Powder	-10.4062
▁KIDS	-10.4062
▁Lampang	-10.4063
▁Girl	-10.4063
ເຕັ້ນ	-10.4063
▁Add	-10.4065
▁Paris	-10.4071
▁ທີ່ຢູ່ອີເມວ	-10.4072
50,000	-10.4076
soft	-10.4086
ລອຍ	-10.4087
▁Royale	-10.4091
ລົດໃຫຍ່	-10.4092
ມັງກອນ	-10.4092
–	-10.4092
▁Yai	-10.4096
plas	-10.4106
ກ່ອງໄມ້	-10.4113
ອະນຸຍາດໃຫ້	-10.4143
ຄວາມງາມ	-10.4149
ຍືດຫຍຸ່ນ	-10.4182
ຈານ	-10.4189
ວິສະວະກໍາ	-10.4197
▁Calendar	-10.4197
ຄະແນນ	-10.4197
▁Extension	-10.4197
▁LogmeOnce	-10.4197
▁Thammarat	-10.4197
ຍານພາຫະນະ	-10.4197
ເຊືອກ	-10.4197
ເຜີຍແຜ່	-10.4197
▁Ultra	-10.4197
ສໍາພາດ	-10.4197
▁Loei	-10.4197
▁Mono	-10.4198
▁Cookie	-10.4198
▁also	-10.4198
▁Network	-10.4199
ພື້ນທີ່ຂອງທ່ານ	-10.4223
ມີຄວາມສຸກ	-10.4223
ປີ້	-10.4223
▁WPC	-10.423
▁Buri	-10.4236
ogen	-10.424
▁Ext	-10.4259
ບົບໄຮໂດຼລິກ	-10.4284
ແກ້ໄຂບັນຫາ	-10.4291
▁make	-10.4306
NIL	-10.4314
ສາຂາ	-10.432
ກ້າວ	-10.433
á	-10.4334
ຊົງ	-10.4334
ຖ້ວມ	-10.4334
ໄວ້ໃນຕອນຕົ້ນ	-10.4334
¥	-10.4334
ອິຕາລີ	-10.4334
ເອດເອດເອ	-10.4334
▁Adapter	-10.4334
▁Diffuser	-10.4334
▁Nonthaburi	-10.4334
▁Ratchathani	-10.4334
▁Recovery	-10.4334
▁Ultimate	-10.4334
▁plugin	-10.4334
▁sonitattoo	-10.4334
ວິຕາມິນ	-10.4334
໋	-10.4334
▁Soccer	-10.4334
ລໍາດັບ	-10.4334
▁Textile	-10.4334
▁Sitemap	-10.4334
▁pulse	-10.4334
▁BCHT	-10.4335
ເດືອນມີນາ	-10.4335
▁ແຟັກ	-10.4335
▁TPU	-10.4335
ເປັນໄປໄດ້	-10.4338
▁ບາຍ	-10.4338
▁after	-10.434
▁LAO	-10.4344
▁Class	-10.4346
ຫນ້າທໍາອິດ	-10.4354
▁Xbox	-10.4355
ພວກ	-10.4392
ກວ້າງ	-10.4413
▁Disc	-10.4456
ຫລັບ	-10.4469
ຕະຫລາດ	-10.4473
ຕູ້ຄອນເທນເນີ	-10.4473
ທີ່ຢູ່ອາໄສ	-10.4473
ລອນດອນ	-10.4473
ຫຼາກຫຼາຍ	-10.4473
▁1528113	-10.4473
▁Microfiber	-10.4473
▁terminal	-10.4473
▁ທີ່ຖືກອອກແບບໂດຍ	-10.4473
ğ	-10.4473
ອັກສອນ	-10.4473
ເຕັກໂນໂລຢີ	-10.4473
ຮຽກຮ້ອງ	-10.4473
▁Rubber	-10.4473
▁Guitar	-10.4473
▁Pixel	-10.4473
▁Castle	-10.4473
▁German	-10.4474
methyl	-10.4474
▁Cotton	-10.4474
▁ເຊັ່ນດຽວກັນກັບ	-10.4474
▁3.2.	-10.4475
ຢ່າງເປັນທາງການ	-10.4475
ອັບໂຫລດ	-10.4476
article	-10.4477
ແປ້ງ	-10.4479
▁Trang	-10.4479
▁spark	-10.4483
▁ເລືອກເມືອງ	-10.4483
▁Jacket	-10.4488
ມີຄວາມຍືດຫຍຸ່ນ	-10.4489
ກົດລະບຽບ	-10.4492
▁ປອດ	-10.4499
ຄວາມຄິດ	-10.4505
2.9	-10.452
ໂຄມໄຟ	-10.4546
»	-10.4547
0/1	-10.4555
▁1/2	-10.4567
sulf	-10.4608
▁Ninja	-10.4611
ວິທະຍາ	-10.4613
ສັງເຄາະ	-10.4614
Pirater	-10.4614
ຄູປອງ	-10.4614
ລະດູຫນາວ	-10.4614
‘	-10.4614
▁Furnace	-10.4614
▁Sliding	-10.4614
▁Vegas	-10.4614
▁discuss	-10.4614
▁Gratuit	-10.4614
▁Village	-10.4614
▁smart	-10.4614
▁ເຕັກ	-10.4614
ລະບົບປະຕິບັດການ	-10.4614
▁2006-20	-10.4615
▁Pilon	-10.4615
ປະເມີນຜົນ	-10.4615
▁ບົດລາຍງານ	-10.4616
ກໍ່ຕັ້ງ	-10.4619
▁ຖົງການກັ່ນຕອງ	-10.462
▁clamp	-10.4622
color	-10.4624
ciation	-10.4639
▁youjian	-10.4639
▁high	-10.4643
ສູ້	-10.4644
turn	-10.4645
nnel	-10.4645
ຜູ້ເຂົ້າຮ່ວມ	-10.4668
ຊົ່ວໂມງ	-10.4703
9%	-10.4718
ທຸ	-10.4731
▁stud	-10.4747
ທີ່ກໍານົດໄວ້	-10.4756
churchofchrist	-10.4757
ຊັດເຈນ	-10.4757
▁Changchun	-10.4757
▁Charger	-10.4757
▁Sombath	-10.4757
▁jacket	-10.4757
▁Avenue	-10.4757
▁Planner	-10.4757
ຄີມ	-10.4757
ຫຍ້າ	-10.4757
▁Level	-10.4757
▁CPU	-10.4758
▁travel	-10.476
ground	-10.4764
▁ERW	-10.4767
ລະຫວ່າງປະເທດ	-10.4773
ຖອດ	-10.4779
ກັ່ນຕອງ	-10.4781
▁Yula	-10.4782
ສາມາດນໍາໃຊ້	-10.4804
http	-10.4862
▁Drive	-10.4888
ກະຕຸ້ນ	-10.4902
▁Business	-10.4902
▁Graphite	-10.4902
▁Management	-10.4902
▁Precision	-10.4902
ການປ່ອຍສິນເຊື່ອ	-10.4902
ກ້ວາງ	-10.4902
▁download	-10.4902
html	-10.4902
ຄໍາສັບ	-10.4902
▁Width	-10.4902
ພາກສະຫນາມ	-10.4903
ຫລອດ	-10.4908
ສະຫວັນ	-10.4914
ທະຫານ	-10.4917
ຍຶດ	-10.4919
8.00	-10.4919
▁Great	-10.4944
ຄວາມຈິງ	-10.4949
ບໍ່ເສຍຄ່າ	-10.4998
▁trans	-10.5001
▁Track	-10.5024
ໂຫຼດ	-10.5041
ຊໍາລະ	-10.5048
ຂະແຫນງ	-10.5049
▁7.4.7	-10.5049
▁Alibaba	-10.5049
▁CHAMPIONSHIP	-10.5049
▁Horizon	-10.5049
▁Yamaha	-10.5049
▁unlimited	-10.5049
▁ຕື້	-10.5049
◆	-10.5049
ຫຸ້ມ	-10.5049
▁Graphic	-10.5049
▁stretch	-10.5049
▁Brazil	-10.5049
▁Option	-10.5049
▁Rendering	-10.5049
▁Switch	-10.5049
▁Stepper	-10.5049
▁Beige	-10.5049
▁Resort	-10.5049
▁Automatic	-10.505
▁Project	-10.505
▁1.0%	-10.5052
▁flute	-10.5052
blast	-10.5059
▁Grade	-10.5072
ການເຊື່ອມໂລຫະ	-10.5094
life	-10.5105
0-4	-10.5198
ວັດຖຸ	-10.5198
ເດີມພັນ	-10.5198
uangyan	-10.5198
ຂົງເຂດ	-10.5198
ຊີເອັນຊີ	-10.5198
ທອງເຫລືອງ	-10.5198
ວຽກເຮັດງານທໍາ	-10.5198
ສະພາບແວດລ້ອມ	-10.5198
ຫຸ່ນຍົນ	-10.5198
ຮໍໂມນ	-10.5198
▁Bowflex	-10.5198
▁Copyright	-10.5198
▁Disposable	-10.5198
▁Khaki	-10.5198
▁Security	-10.5198
▁Solomons	-10.5198
▁ceramic	-10.5198
▁elegant	-10.5198
▁ນົດ	-10.5198
▁ສີສົ້ມ	-10.5198
▁Hydro	-10.5198
▁Removal	-10.5198
▁Scooter	-10.5198
▁USMLE	-10.5198
▁Spiral	-10.5198
ກຶງ	-10.5198
edlgen	-10.5198
▁Flexible	-10.5199
▁ຄຸນປະຫຍັດ	-10.5199
▁Huafu	-10.5201
▁Electronic	-10.5201
▁ຍິນ	-10.5203
▁ອິນ	-10.5204
▁dresses	-10.5204
ນັບຕັ້ງແຕ່ປີ	-10.5209
▁Joint	-10.5212
duction	-10.5212
▁plus	-10.5217
ຈັດຂຶ້ນ	-10.5218
1.00	-10.5234
▁ITS	-10.5257
ຄົ້ນຄວ້າ	-10.5296
ປະເມີນ	-10.5348
ຄວາມຄິດສ້າງສັນ	-10.535
ຮາດແວ	-10.535
ເປັນເອກະລັກ	-10.535
ໄຟອັນຕລາຍ	-10.535
▁February	-10.535
▁Terminal	-10.535
ง	-10.535
ล	-10.535
ກາງເກງ	-10.535
ຢາງພາລາ	-10.535
ຖົ່ວ	-10.535
▁PayPal	-10.535
ສືບຕໍ່	-10.535
ກະຕ່າ	-10.5351
ງານວາງສະແດງ	-10.5353
ແນວຄວາມຄິດ	-10.5354
ໄປສູ່	-10.5355
ພາກໃຕ້	-10.5356
▁(3)	-10.537
▁Flex	-10.5371
ທໍາລາຍ	-10.5394
ograph	-10.5406
▁PLA	-10.5406
1.9	-10.5406
spir	-10.541
ຜິວຫນັງ	-10.5423
ເສັ້ນປະກອບ	-10.549
ກໍາຫນົດ	-10.5501
ກະເບື້ອງ	-10.5503
ຄ່າທໍານຽມ	-10.5503
ຍົກເລີກ	-10.5503
ລໍາໂພງ	-10.5503
ວັດຖຸດິບ	-10.5503
▁Supply	-10.5503
▁distribut	-10.5503
▁microfiber	-10.5503
▁Channel	-10.5503
▁Collection	-10.5503
▁Welded	-10.5503
▁spindle	-10.5503
▁Needle	-10.5504
ແຂກ	-10.5504
ສະເປນ	-10.5504
ກົນຈັກ	-10.5505
▁Team	-10.5505
ແຮງງານ	-10.5511
~	-10.5523
▁under	-10.5523
SGD	-10.5533
ດອກໄມ້	-10.5534
▁ບົດຄວາມທີ່ຜ່ານ	-10.5535
▁Fitting	-10.5538
▁data	-10.5565
ພະນັນ	-10.5616
ລະດູ	-10.5634
▁ດັ່ງ	-10.5649
ໃດກໍ່ຕາມ	-10.5659
ຂົວ	-10.566
ຟື້ນຟູ	-10.566
▁JACKPOT	-10.566
▁Mubarak	-10.566
▁Teflon	-10.566
▁Wallpaper	-10.566
▁ຢ່າງໃດກໍຕາມ	-10.566
ຊັບສິນ	-10.566
ມາຮອດ	-10.566
ໃນຕອນທ້າຍ	-10.566
▁WIFI	-10.566
ກອບເປັນຈໍານວນ	-10.566
▁Hangzhou	-10.566
ຊີມັງ	-10.566
ເງິນກູ້	-10.566
▁Heroes	-10.566
ຫມາຍຄວາມວ່າ	-10.566
▁program	-10.566
▁Money	-10.5661
ຖ່ານ	-10.5661
ໄດ້ຮັບການດາວໂຫຼດ	-10.5663
DKK	-10.5666
▁what	-10.5668
ທ່າ	-10.5676
ໂຫລດ	-10.569
°	-10.5695
▁Silicon	-10.5798
▁hydro	-10.5817
Catalogue	-10.5818
refinecolor	-10.5818
ຖະຫນົນຫົນທາງ	-10.5818
ສະຖິຕິ	-10.5818
▁Affiliate	-10.5818
▁Indicator	-10.5818
ກາຊວນ	-10.5818
ຕົວຫນ່ຽວນໍາ	-10.5818
ໄດ້ຢ່າງງ່າຍດາຍ	-10.5818
084.2	-10.5818
▁Container	-10.5818
ໂດເມນ	-10.5818
▁Webcam	-10.5818
ຂອງຂວັນ	-10.5819
world	-10.5819
▁SQL	-10.5819
▁Pallet	-10.5819
ມົນຕີ	-10.582
▁Music	-10.5821
rafts	-10.5821
▁SGS	-10.5821
search	-10.5822
ສ້າງຕັ້ງຂຶ້ນໃນປີ	-10.5822
▁Update	-10.5822
▁HDPE	-10.5823
▁Taxi	-10.5823
ຫ້ອງທົດລອງ	-10.5826
▁ATV	-10.5828
▁Spray	-10.5829
ເຮັດແນວໃດ	-10.5839
ທົ່ວ	-10.5861
ຄວນຈະ	-10.5863
ຫມາຍເລກ	-10.5865
5.00	-10.5892
▁Radio	-10.5893
▁8.1	-10.5949
▁ບັນທຶກທັງ	-10.5968
ว	-10.598
ເຫຼົ້າ	-10.598
м	-10.598
ຢ່າງວ່ອງໄວ	-10.598
ເມັກຊິໂກ	-10.598
▁Battery	-10.598
▁ITALIAN	-10.598
▁Koowheel	-10.598
▁ethereum	-10.598
▁favorite	-10.598
▁ຂໍ້ມູນຈໍາເພາະ	-10.598
ເອົາໃຈໃສ່	-10.598
▁CRASH	-10.598
▁Laptop	-10.598
ຫວານ	-10.598
▁UAE	-10.598
▁ໄວລຸ້ນ	-10.598
▁Layer	-10.5982
▁ເອົາຮູບ	-10.5984
ເຊັ່ນດຽວກັນ	-10.5986
▁0.15	-10.5991
ບົດຮຽນ	-10.5993
2-3	-10.6002
ຈະແຈ້ງ	-10.6024
ທ້າຍ	-10.6031
ນະໂຍບາຍ	-10.6049
[	-10.6049
▁urea	-10.6117
ລະບຸ	-10.6117
ປະດັບ	-10.6131
ຮຸນແຮງ	-10.6144
ສະຫຼຸບ	-10.6144
ໂຮງຫມໍ	-10.6144
SERIES	-10.6144
Ω	-10.6144
ສະທ້ອນ	-10.6144
ສໍາເນົາ	-10.6144
▁Canvas	-10.6144
▁Coinbase	-10.6144
▁Istanbul	-10.6144
▁LinkedIn	-10.6144
▁Packaging	-10.6144
▁Taffeta	-10.6144
▁Unloader	-10.6144
▁vibrating	-10.6144
ອະດີດ	-10.6144
▁ຈໍານວນຕົວແບບ	-10.6144
▁Azure	-10.6144
uploads	-10.6144
▁Marvel	-10.6144
▁MYR	-10.6144
▁ສົມພອນ	-10.6145
ຂຸມ	-10.6145
ຮ້ອງຂໍ	-10.6145
▁price	-10.6146
▁optic	-10.6147
ຊັ້ນນໍາ	-10.6156
ທ່ອງ	-10.6185
6.5	-10.6187
ຈັດຕັ້ງປະຕິບັດ	-10.6282
ໄຂມັນ	-10.6302
▁ຊ່ຽວ	-10.6309
▁ຄຸ້ມ	-10.6309
ສະຫນາມ	-10.631
ທາງເທີງ	-10.631
ໂຈມຕີ	-10.631
▁Generator	-10.631
▁Mosquito	-10.631
ໃດຫນຶ່ງ	-10.631
▁Platform	-10.631
▁Pronoun	-10.631
ຂອງທ່ານໃນທຸກ	-10.631
▁ຄຸນະພາບສູງ	-10.6311
ລູກປືນ	-10.6311
▁DIY	-10.6312
▁ຂໍ້ກໍາຫນົດ	-10.6313
ສາມາດເຮັດໄດ້	-10.6317
▁dji	-10.6318
8.0	-10.632
direct	-10.6362
ຫນູ	-10.6433
ເປົ້າ	-10.6479
ໄຮ້ສາຍ	-10.648
ພົ່ນ	-10.648
▁Bohemian	-10.648
▁COINFLIP	-10.648
▁Exchange	-10.648
▁Universal	-10.648
▁ລາຄາປະກະຕິ	-10.648
ม	-10.648
ຖິ້ມ	-10.648
ເຍຍລະມັນ	-10.648
ເຜົາ	-10.648
▁Version	-10.648
▁eyelash	-10.648
▁software	-10.648
▁android	-10.648
▁Medium	-10.648
ONDA	-10.648
▁BCEL	-10.648
piece	-10.648
xBet	-10.6481
▁HKD	-10.6481
▁Basel	-10.6482
▁Axis	-10.6482
▁like	-10.6485
white	-10.6487
▁ອາດຈະເປັນ	-10.6487
ທ່ານກໍາລັງຊອກຫາ	-10.6497
ກ່ຽວ	-10.6591
ເອກະຊົນ	-10.6605
▁ເຂື່ອນ	-10.6633
omics	-10.6644
ຍົກເວັ້ນ	-10.6652
+00:00	-10.6652
ຄູຝຶກ	-10.6652
ຈຸດຫມາຍປາຍທາງ	-10.6652
ທຽນຈິນ	-10.6652
ເກົາຫລີ	-10.6652
▁Circular	-10.6652
▁Crystal	-10.6652
▁Development	-10.6652
▁Machining	-10.6652
▁deposit	-10.6652
▁extension	-10.6652
▁extrusion	-10.6652
	-10.6652
▁ໃນຖານະເປັນ	-10.6652
▁Acetate	-10.6652
▁ຄລິບ	-10.6652
▁2010-2019	-10.6652
▁Detector	-10.6652
▁polyester	-10.6652
ລະເບີດ	-10.6652
ທູບ	-10.6652
ຄວາມສ່ຽງ	-10.6652
▁Sponge	-10.6653
▁ripple	-10.6653
▁Social	-10.6654
▁ເບີໂທ	-10.6655
ລືອກເອົາທາງເລືອກ	-10.6656
ຈິດໃຈ	-10.6656
▁CBD	-10.6657
▁dress	-10.6659
ຕົ້ນໄມ້	-10.666
media	-10.6703
Check	-10.6718
ອ້າງ	-10.672
Share	-10.673
PDF	-10.6799
▁ປຸງ	-10.6826
ສິລະປິນ	-10.6828
ແຫລ່ງ	-10.6828
у	-10.6828
ບັງຄັບ	-10.6828
ຯ	-10.6828
▁Academy	-10.6828
▁Webtkco	-10.6828
ທີ່ເຂັ້ມແຂງ	-10.6828
ຫຍິບ	-10.6828
▁guitar	-10.6828
ວີຊ່າ	-10.6828
▁Sweater	-10.6828
▁Screen	-10.6828
▁Floral	-10.6828
▁CZK	-10.6828
▁Adele	-10.6828
▁ຈັດພີມມາໂດຍ	-10.6829
ຕັດສິນໃຈ	-10.6829
ປົກຄອງ	-10.683
▁LLC	-10.683
▁Bulb	-10.6832
ological	-10.6835
ທົ່ວປະເທດ	-10.6845
ອ້າງອີງ	-10.6937
ຫຍໍ້	-10.695
ຖະຫນົນ	-10.6993
б	-10.7006
ຈົບການສຶກສາ	-10.7006
ປຶກສາຫາລື	-10.7006
ຢືນຢັນ	-10.7006
ຊອຟແວ	-10.7006
ບໍາລຸງຮັກສາ	-10.7006
ປະຕິເສດ	-10.7006
ປະທັບໃຈ	-10.7006
ຜ້າຫົ່ມ	-10.7006
▁Firefox	-10.7006
▁Industry	-10.7006
▁January	-10.7006
▁RayHaber	-10.7006
●	-10.7006
ຊ່ວງ	-10.7006
▁Safety	-10.7006
ຫິມະ	-10.7006
▁Inverter	-10.7006
▁Equina	-10.7006
▁vinyl	-10.7006
▁Paypal	-10.7006
▁Wuxi	-10.7006
▁Cutting	-10.7006
ແມວ	-10.7006
▁servo	-10.7006
▁Reply	-10.7007
▁CANN	-10.7007
▁NEMA	-10.7007
▁MXN	-10.7007
▁ທຸງ	-10.7008
ການທົບທວນຄືນ	-10.7008
▁Prince	-10.7008
▁Satin	-10.7009
ເປີດເຜີຍ	-10.701
▁BRL	-10.7011
▁PLN	-10.7011
▁film	-10.7012
ໄຫລ່	-10.7188
ໃຫ້ແນ່ໃຈວ່າ	-10.7188
Mississippi	-10.7188
μ	-10.7188
ພຣະເຢຊູ	-10.7188
ພລາສຕິກ	-10.7188
ສະດວກສະບາຍ	-10.7188
ສີມ່ວງ	-10.7188
ສົດໃສ	-10.7188
ອີເມລ໌ໃຫ້ພວກເຮົາ	-10.7188
ໂຄງຮ່າງການ	-10.7188
▁Chocolate	-10.7188
▁Collecting	-10.7188
▁Genotropin	-10.7188
▁Messenger	-10.7188
▁Sihanoukville	-10.7188
▁Vacuum	-10.7188
▁fiberglass	-10.7188
ກະຈົກ	-10.7188
▁Wedding	-10.7188
ປະຖົມ	-10.7188
▁window	-10.7188
ซ	-10.7188
ເທຣດ	-10.7188
▁Passport	-10.7188
facebook	-10.7188
ລືມ	-10.7188
▁fitting	-10.7188
▁School	-10.7188
shirt	-10.7188
▁poker	-10.7188
Jilin	-10.7189
▁ກອງທັບເຮືອ	-10.7189
▁XML	-10.7189
ຕົ້ນກໍາເນີດ	-10.7189
Static	-10.719
ກະທູ້	-10.7192
ນັກຄົ້ນຄວ້າ	-10.7195
ໂຄງປະກອບ	-10.7198
▁Sharp	-10.7208
Wax	-10.7359
▁ນອກຈາກນີ້	-10.7372
ທີ່ລັບເລັບແມວ	-10.7373
ເຟີນີເຈີ	-10.7373
▁Browser	-10.7373
▁Chloride	-10.7373
▁clarinet	-10.7373
▁tutorial	-10.7373
▁ຄົບຮອບ	-10.7373
ດັ່ງຕໍ່ໄປນີ້	-10.7373
▁BONUS	-10.7373
▁Dewatering	-10.7373
▁Foundation	-10.7373
▁Tianjin	-10.7373
▁Youtube	-10.7373
ຕື່ມ	-10.7397
▁Aqua	-10.7544
ກ້ຽງ	-10.7562
ຢາເສບຕິດ	-10.7562
ວິສະວະກອນ	-10.7562
ອຸປະຕິເຫດ	-10.7562
ເຕັບປິ້ງມໍເຕີ	-10.7562
▁ຍື່ນພາຍໃຕ້	-10.7562
ກົດຫມາຍວ່າດ້ວຍ	-10.7562
ວິນຍານ	-10.7562
ຮາງວັນ	-10.7562
▁Coinfalls	-10.7562
▁Hospital	-10.7562
▁Nashville	-10.7562
▁Paradise	-10.7562
▁Shepherd	-10.7562
▁inhibit	-10.7562
▁insulation	-10.7562
▁oxford	-10.7562
▁ອອກຄວາມເຫັນໄດ້	-10.7562
▁Oracle	-10.7562
▁Orange	-10.7562
▁wallet	-10.7562
▁Trimmer	-10.7562
▁Western	-10.7562
▁Silk	-10.7563
▁token	-10.7563
ທີ່ຫນ້າສົນໃຈ	-10.7569
▁Curl	-10.7575
ລາຍະການ	-10.7583
ພຶດສະພາ	-10.7598
→	-10.7605
/12/	-10.768
ມົນລະພິດ	-10.7754
ເພາະວ່າ	-10.7754
testosterone	-10.7754
ການຂະຫຍາຍຂົນຕາ	-10.7754
ອາຊຽນ	-10.7754
ໄນໂຕຣເຈນ	-10.7754
▁Insulation	-10.7754
▁Munich	-10.7754
▁NINGBO	-10.7754
ກ໊ອກນ້ໍາ	-10.7754
ເຮັດຄວາມເຢັນ	-10.7754
▁ຊົມເຊີຍ	-10.7754
▁ນອກຈາກນັ້ນ	-10.7754
ພັຍ	-10.7754
▁ninja	-10.7754
ສະຫມອງ	-10.7754
▁which	-10.7754
▁Pongee	-10.7754
▁Wuhan	-10.7754
▁winding	-10.7754
▁Friends	-10.7754
▁Rooder	-10.7755
▁Dream	-10.7755
▁slots	-10.7755
▁Course	-10.7755
▁ຂ້ອງ	-10.7756
▁GTA	-10.7756
scape	-10.7759
ປະສົບ	-10.7762
▁Angel	-10.7763
▁PLC	-10.7767
#	-10.7773
ຖາມ	-10.7811
▁para	-10.7877
-05-	-10.792
▁ສຶກ	-10.7948
▁ກອງທັບ	-10.795
ໄອແລນ	-10.795
ຄວາມເສຍຫາຍ	-10.795
ສິ່ງເສດເຫຼືອ	-10.795
ສົງຄາມ	-10.795
ຄໍາຄິດຄໍາເຫັນ	-10.795
ຕົ້ມ	-10.795
▁Antivirus	-10.795
▁Conditioner	-10.795
▁Corporation	-10.795
▁Ductile	-10.795
▁Prototype	-10.795
▁ສະເຕນເລດ	-10.795
phosph	-10.795
▁`%.25	-10.795
▁desktop	-10.795
▁Function	-10.795
Period	-10.795
▁Plasma	-10.795
Component	-10.7951
▁OFF	-10.7951
▁tube	-10.7953
ແຂ່ງລົດ	-10.7962
google	-10.815
í	-10.815
ກະປ໋ອງ	-10.815
ກໍ່ຕັ້ງຂຶ້ນໃນປີ	-10.815
ປັກກິ່ງ	-10.815
ສິງກະໂປ	-10.815
ແຜ່ນດິນໃຫຍ່	-10.815
▁Cambodia	-10.815
▁ENERGY	-10.815
▁Pacific	-10.815
▁STORM	-10.815
▁Surface	-10.815
▁Technical	-10.815
▁Volume	-10.815
▁WORLD	-10.815
ó	-10.815
ເຂົ້າຫນົມ	-10.815
▁Florence	-10.815
ເກົາຫຼີ	-10.815
ລົດບັນທຸກ	-10.815
▁Active	-10.815
***	-10.815
▁Bullet	-10.815
▁Church	-10.815
ຄົນພິການ	-10.8151
▁Extract	-10.8151
▁Alloy	-10.8151
▁VPN	-10.8151
▁about	-10.8153
▁magic	-10.8153
▁MAG	-10.8183
ປະສິດທິຜົນ	-10.8205
="0.	-10.8302
Photos	-10.8319
▁Ocean	-10.8349
ເງົາ	-10.8351
ດັ້ງເດີມ	-10.8354
ี	-10.8354
ພົນລະເມືອງ	-10.8354
ແຜ່ນໃບຄ້າຍຄື	-10.8354
▁AASraw	-10.8354
▁Drifter	-10.8354
▁Spotify	-10.8354
▁Yueqing	-10.8354
▁diaphragm	-10.8354
▁ສີນ້ໍາຕານ	-10.8354
ພໍ່ແມ່	-10.8354
▁Certified	-10.8354
▁Credit	-10.8354
▁MYHH	-10.8354
▁Michael	-10.8354
▁Harley	-10.8354
▁Dragon	-10.8354
ກະແສ	-10.8354
▁Texas	-10.8355
▁Coupon	-10.8355
▁Holder	-10.8355
▁Tesser	-10.8355
▁(2016)	-10.8355
▁know	-10.8356
▁Pcb	-10.8356
▁place	-10.8357
ຊິ້ນສ່ວນ	-10.8378
▁Solution	-10.8441
▁ຕ້ອນ	-10.856
ด	-10.8563
ສັ່ນສະເທືອນ	-10.8563
ສິນເຊື່ອ	-10.8563
▁ໂທຣຫາພວກເຮົາ	-10.8563
å	-10.8563
ຄູ່ຮ່ວມງານ	-10.8563
ທາງສ່ວນຫນ້າຂອງ	-10.8563
ນັກລົງທຶນ	-10.8563
ເປື້ອນ	-10.8563
▁2.6.4.16113	-10.8563
▁Filament	-10.8563
▁Initiative	-10.8563
▁protected	-10.8563
Frozen	-10.8563
ການເຊື່ອມໂຍງ	-10.8563
▁Huawei	-10.8563
ຂ້າງລຸ່ມນີ້	-10.8563
ຫມູ່ເພື່ອນ	-10.8563
ແຫຼວ	-10.8563
▁Domain	-10.8563
▁Medical	-10.8563
ແຕກຕ່າງກັນ	-10.8575
ຄຸນລັກສະນະ	-10.8579
▁Slide	-10.8587
ຍິນດີຕ້ອນຮັບ	-10.8717
▁Optic	-10.8758
▁ຄົ້ນ	-10.8767
ກໍາເນີດ	-10.8774
ປືນ	-10.8775
ສະນຸກເກີ	-10.8775
▁Energy	-10.8775
▁Membrane	-10.8775
▁Patrick	-10.8775
▁Previous	-10.8775
▁Purifier	-10.8775
ຈົນກ່ວາ	-10.8775
ສ້ອມແປງ	-10.8775
ຫນັງສືຜ່ານແດນ	-10.8775
ຫໍສະຫມຸດ	-10.8775
ເຫລົ້າ	-10.8775
▁CHINA	-10.8775
▁Private	-10.8775
ເຮັດຄວາມສະອາດ	-10.8775
ເອເຊຍ	-10.8776
▁ITIL	-10.8776
ຂໍ້ຕົກລົງ	-10.8776
ຕຶກ	-10.8776
ແຖວ	-10.8776
▁german	-10.8776
▁hosting	-10.8776
▁Concept	-10.8776
▁money	-10.8776
▁cardboard	-10.8776
screen	-10.8776
▁Letter	-10.8776
▁Killer	-10.8776
▁Malta	-10.8777
ປິ່ນປົວ	-10.8804
▁Chuan	-10.8846
	-10.8956
ส	-10.8993
ກ໊າຊ	-10.8993
ພີກເຊລ	-10.8993
▁Association	-10.8993
▁HANUMAN	-10.8993
▁WebTalK	-10.8993
▁altcoin	-10.8993
ການຈະລາຈອນ	-10.8993
ເອກະລາດ	-10.8993
▁Composite	-10.8993
▁Frequency	-10.8993
▁Gallery	-10.8993
ການແຜ່ກະຈາຍ	-10.8993
ຫຸ້ນ	-10.8993
ເຣັກ	-10.8993
▁Decoiler	-10.8993
▁WeChat	-10.8993
ສະໂມສອນ	-10.8993
ວິໄສທັດ	-10.8993
▁should	-10.8993
Ribbon	-10.8993
ເຕັກນິກ	-10.8993
▁People	-10.8993
▁support	-10.8993
ຢ້ານ	-10.8993
▁Valley	-10.8993
ອ້າຍ	-10.8993
ທູດ	-10.8993
▁WebTK	-10.8993
▁ເຍຍ	-10.8993
▁nylon	-10.8993
▁Brown	-10.8993
▁piano	-10.8994
▁tips	-10.8995
▁tower	-10.8995
▁Candle	-10.8995
OWER	-10.8996
ອຸປະກອນການກໍາຈັດ	-10.9008
ຂຸດເຈາະ	-10.9215
192.168.	-10.9215
à	-10.9215
д	-10.9215
ы	-10.9215
ການປະມູນ	-10.9215
ລະເຫີຍ	-10.9215
ສະຖຽນລະພາບ	-10.9215
ອອກກໍາລັງກາຍ	-10.9215
ເດືອນສິງຫາ	-10.9215
ເຕົ່າ	-10.9215
ແລະມີຄົນຫຼິ້ນໃນ	-10.9215
ໂອລິມປິກ	-10.9215
▁BORDER	-10.9215
▁Embroidery	-10.9215
▁Rokytnice	-10.9215
▁Skateboard	-10.9215
▁brushless	-10.9215
▁ຈຸດເດັ່ນ	-10.9215
🔥	-10.9215
ເຕີບໂຕ	-10.9215
ແນວໂນ້ມ	-10.9215
▁Yuyao	-10.9215
▁equine	-10.9215
▁HTML	-10.9215
▁Drawing	-10.9215
▁shelf	-10.9215
▁ຈາກຫຼືໄປ	-10.9215
ເດືອນເມສາ	-10.9215
▁Focus	-10.9215
▁Health	-10.9215
▁SHOW	-10.9215
▁});	-10.9215
▁LIVE	-10.9215
▁Pouch	-10.9215
▁chloride	-10.9216
▁ECHO	-10.9216
▁Rangers	-10.9216
▁ກວດເບິ່ງ	-10.9216
ໂທລະທັດ	-10.9231
ອູແກຣນ	-10.9442
แ	-10.9442
Asbestos	-10.9442
commerce	-10.9442
ก	-10.9442
ປະຕິວັດລາວ	-10.9442
▁Florida	-10.9442
▁Selfie	-10.9442
▁coffee	-10.9442
▁halloween	-10.9442
▁ຜົງດິບ	-10.9442
▁ສື່ສັງຄົມ	-10.9442
▁ເພິ່ມ	-10.9442
ທ້າທາຍ	-10.9442
ໃນຕອນກາງຄືນ	-10.9442
▁December	-10.9442
▁Ethernet	-10.9442
▁Thomas	-10.9442
▁Inductor	-10.9442
▁eBook	-10.9442
▁sensor	-10.9442
▁Rabies	-10.9442
▁HBOT	-10.9443
ການກະກຽມ	-10.9443
▁Cisco	-10.9443
nforced	-10.9443
▁Alpha	-10.9443
Element	-10.9445
ນິ້ວ	-10.945
Organ	-10.9451
ທົດລອງ	-10.9569
ກວ້າງຂວາງ	-10.9673
ຕັດສິນ	-10.9673
ພຣະຜູ້ເປັນເຈົ້າ	-10.9675
ແທັບເລັດ	-10.9675
esulphurization	-10.9675
ກໍາປູເຈຍ	-10.9675
ງົບປະມານ	-10.9675
ອັນຕະລາຍ	-10.9675
ແຈກຢາຍ	-10.9675
▁Capacitor	-10.9675
▁Petersburg	-10.9675
▁Streaming	-10.9675
▁features	-10.9675
▁pixels	-10.9675
Commerce	-10.9675
▁Olymp	-10.9675
ability	-10.9675
▁Protector	-10.9675
▁Adobe	-10.9675
▁Geocon	-10.9675
▁ເຕິມ	-10.9675
Methyl	-10.9675
▁Directory	-10.9675
ສົບຜົນສໍາເລັດ	-10.9675
▁Pharma	-10.9676
▁Laminate	-10.9676
▁photo	-10.9677
power	-10.97
casino	-10.9706
ເຄື່ອນໄຫວ	-10.988
ອາບນ້ໍ	-10.9907
ກັງວົນ	-10.9913
Midwest	-10.9913
ບັນເທີງ	-10.9913
ເກືອບທຸກຮູບຮ່າງ	-10.9913
▁59.0.30	-10.9913
▁Controller	-10.9913
▁Dariussssss	-10.9913
▁Melbourne	-10.9913
▁Walmart	-10.9913
▁jailbreak	-10.9913
▁ກິໂລແມັດ	-10.9913
▁ຜິດຖຽງດາວ	-10.9913
▁ຟລີໂຄ້ດ	-10.9913
	-10.9913
ສະເຫຼີມສະຫຼອງ	-10.9913
ເຂົ້າຫນົມອົມ	-10.9913
▁Therapy	-10.9913
中	-10.9913
peptide	-10.9913
ວັດແທກ	-10.9913
▁(+856	-10.9913
▁Guzzi	-10.9913
▁ທ້າວ	-10.9913
ເຕະບານ	-10.9913
▁Anchor	-10.9913
▁Yinzhou	-10.9913
▁Silver	-10.9913
▁Lotus	-10.9913
▁National	-10.9913
Davidson	-10.9915
ປົກປ້ອງ	-10.9918
ໂທລະເລກ	-10.9982
ແຂ່ງຂັນ	-11.0032
ห	-11.0157
ຖາວອນ	-11.0157
ເຄື່ອນຍ້າຍ	-11.0157
youtube	-11.0157
ຊະອານາຈັກ	-11.0157
ການໂຕ້ຕອບ	-11.0157
ຈັນຍາບັນ	-11.0157
ຫມໍ້ຫຸງຕົ້ມ	-11.0157
ໃນປະເທດໄທ	-11.0157
▁Asphalt	-11.0157
▁BANGKOK	-11.0157
▁Bioproducts	-11.0157
▁Cordura	-11.0157
▁Explore	-11.0157
▁Kharkiv	-11.0157
▁September	-11.0157
▁resources	-11.0157
▁ບ່ອນຈອດລົດ	-11.0157
Ö	-11.0157
ຄອນກີດ	-11.0157
ວິທະຍຸ	-11.0157
▁Inkjet	-11.0157
▁ວັນພຸດ	-11.0157
ຄາບອນ	-11.0157
▁people	-11.0157
▁Broker	-11.0157
▁WinRAR	-11.0157
▁Fitness	-11.0157
ຜູ້ຊົມໃຊ້	-11.0157
▁Somphone	-11.0157
▁course	-11.0157
▁Voice	-11.0157
ຢ່າງເຕັມສ່ວນ	-11.0157
▁FIDH	-11.0157
ນຶກ	-11.0157
▁Jumper	-11.0157
ການເລືອກຕັ້ງ	-11.0158
▁Harem	-11.0158
▁Cinema	-11.0181
▁nitr	-11.022
ໄຮໂດຼລິກ	-11.0247
ແຍກຕ່າງຫາກ	-11.0407
ວິຊາຊີບ	-11.0407
ອົບພະຍົບ	-11.0407
.05.2018	-11.0407
้	-11.0407
ບັນນາທິການ	-11.0407
ພິພິທະພັນ	-11.0407
ອ້າງອິງ	-11.0407
ເທກນິກ	-11.0407
ເພີດເພີນ	-11.0407
▁Beroean	-11.0407
▁Gibbs	-11.0407
▁Nickelodeon	-11.0407
▁Pickets	-11.0407
▁Rainbow	-11.0407
▁Thunderstruck	-11.0407
▁William	-11.0407
▁Zombie	-11.0407
▁corrosion	-11.0407
▁prototype	-11.0407
▁ຈອງຕົ໋ວ	-11.0407
ອາພາດເມັນ	-11.0407
▁(2014)	-11.0407
▁Vertical	-11.0407
▁through	-11.0407
ປຶ້ມ	-11.0407
▁Gelatin	-11.0407
я	-11.0407
public	-11.0407
▁profile	-11.0407
▁Meleti	-11.0407
ຊຸບ	-11.0407
ເຄື່ອງປັບອາກາດ	-11.0407
▁[...]	-11.0407
ສະກູ	-11.0409
Region	-11.0409
▁Remote	-11.0409
ເພື່ອໃຫ້ໄດ້ຮັບ	-11.0411
.03.20	-11.0423
studio	-11.0431
ປະຫວັດ	-11.0662
ا	-11.0663
ມາເລເຊຍ	-11.0663
Sprinkler	-11.0663
ອິນໂດເນເຊຍ	-11.0663
ອົງກອນ	-11.0663
ເບຢ້ຽມ	-11.0663
ເສັ້ນດ້າຍ	-11.0663
▁770-872-7978	-11.0663
▁CAPTCHA	-11.0663
▁ComPro	-11.0663
▁JavaScript	-11.0663
▁MACHINE	-11.0663
▁Minneapolis	-11.0663
▁Multifunctional	-11.0663
▁Vivlon	-11.0663
▁mFortune	-11.0663
▁pizza	-11.0663
▁ນໍາທິດສະນີ	-11.0663
▁ເງື່ອນ	-11.0663
ລໍຖ້າ	-11.0663
ຫລ້າສຸດ	-11.0663
▁(2012)	-11.0663
▁Bajaj	-11.0663
▁ມົນທົນກວາງຕຸ້ງ	-11.0663
어	-11.0663
ຫລິ້ນ	-11.0663
▁Seamless	-11.0663
▁scratch	-11.0663
▁LASER	-11.0663
▁Modular	-11.0663
▁Visual	-11.0663
ommerical	-11.0663
▁stairs	-11.0663
▁Foshan	-11.0664
GPRS	-11.0664
ິດທິພາບສູງ	-11.0664
Module	-11.0664
ະຫນັບສະຫນູນການໂທ	-11.0705
ການຈ່າຍເງິນ	-11.0731
Blythe	-11.0802
ດາວນ໌ໂຫລດ	-11.0803
Logo	-11.082
XCHARX	-11.0926
ກ້າວຫນ້າທາງດ້ານ	-11.0926
ຂີ້ເຜີ້ງ	-11.0926
ຊີວະພາບ	-11.0926
ດ່ຽວ	-11.0926
ປະລິນຍາຕີ	-11.0926
ວັນເດືອນປີເກີດ	-11.0926
ແບດເຕີລີ່	-11.0926
▁Antenna	-11.0926
▁Biodegradable	-11.0926
▁Christian	-11.0926
▁Disney	-11.0926
▁Molecular	-11.0926
▁PlayStation	-11.0926
▁Regulator	-11.0926
▁Smelting	-11.0926
▁Synthetic	-11.0926
▁litecoin	-11.0926
▁trolley	-11.0926
▁ຕົວຂຶ້ນໄປຈໍານວນ	-11.0926
▁ມຸງຫລັງຄາ	-11.0926
ь	-11.0926
ປ້າຍໂຄສະນາໂດຍ	-11.0926
ລ່ວງຫນ້າ	-11.0926
ເສັ້ນຜ່າກາງ	-11.0926
▁League	-11.0926
▁ສວນສະຫນຸກ	-11.0926
ຄົນເຈັບ	-11.0926
ສໍາຜັດ	-11.0926
▁STEEL	-11.0926
▁Audio	-11.0927
▁HTTP	-11.0927
▁powder	-11.0927
▁Agusta	-11.0927
▁Liquid	-11.0927
▁Scratch	-11.0927
▁Nozzle	-11.0927
▁Shadow	-11.0927
▁Friday	-11.0927
▁Trailer	-11.0927
Arabic	-11.0927
ໄດ້ຍິນ	-11.0927
ຈໍສະແດງຜົນ	-11.0927
▁Jesus	-11.0927
ລິການຫລັງການຂາຍ	-11.094
ຈື່	-11.1101
ແຜ່	-11.1174
ການດູດຊຶມ	-11.1197
ต	-11.1197
ພູມສັນຖານ	-11.1197
generateur	-11.1197
บ	-11.1197
ສະວິດເຊີແລນ	-11.1197
ອະສັງຫາລິມະສັບ	-11.1197
ັງວ່າຈະຮ່ວມມືກັບ	-11.1197
ເຄື່ອງໃຊ້ໃນບ້ານ	-11.1197
▁86-755-	-11.1197
▁Community	-11.1197
▁Halloween	-11.1197
▁Tailoress	-11.1197
▁Toshiba	-11.1197
▁available	-11.1197
▁iTunes	-11.1197
▁luxury	-11.1197
▁raillynews	-11.1197
▁ຍ້າຍໄປລະບົບ	-11.1197
ຫຼັກຖານສະແດງ	-11.1197
ອາລູມີນຽມ	-11.1197
ໂຮງງານຕັດຫຍິບ	-11.1197
▁nozzle	-11.1197
.10.2018	-11.1197
п	-11.1197
ປອກຕຸຍການ	-11.1197
▁EMBA	-11.1197
▁NORTH	-11.1197
▁Shipping	-11.1197
▁Ankara	-11.1197
▁Carbide	-11.1197
▁Temple	-11.1197
ບ້ວງ	-11.1197
▁Jumma	-11.1197
position	-11.1197
uangjian	-11.1233
Industrial	-11.14
ກ່ຽວຂ້ອງ	-11.141
ກະທັດຮັດ	-11.1474
й	-11.1475
ຊາຍແດນ	-11.1475
ໃຍແກ້ວນໍາແສງ	-11.1475
.08.2018	-11.1475
ຂຸດຄົ້ນ	-11.1475
ຊ່ວຍປະຢັດ	-11.1475
ຜົນບັງຄັບໃຊ້	-11.1475
ມະເຮັງ	-11.1475
ອີເລັກໂທຣນິກ	-11.1475
ເສື້ອທີເຊີດ	-11.1475
ແສ່ວ	-11.1475
ໃກ້ຊິດ	-11.1475
▁Council	-11.1475
▁Creative	-11.1475
▁Jacquard	-11.1475
▁Preventive	-11.1475
▁Responsive	-11.1475
▁Treatment	-11.1475
▁Valentine	-11.1475
▁affiliate	-11.1475
▁exacthacks	-11.1475
▁handbag	-11.1475
▁leggings	-11.1475
ຕື່ນເຕັ້ນ	-11.1475
ເຮັດໃຫ້ປະລາດ	-11.1475
ແກະສະຫລັກ	-11.1475
▁Kevlar	-11.1475
▁Hubei	-11.1475
▁Luquan	-11.1475
ຄວາມຫມັ້ນຄົງ	-11.1475
ຜູ້ສູງອາຍຸ	-11.1475
ພາລະກິດ	-11.1475
▁trailer	-11.1475
▁Device	-11.1475
▁before	-11.1475
▁Straight	-11.1475
ongxiang	-11.1475
▁ທ່ານກໍາລັງຢູ່	-11.1476
ຫຸ້ມຫໍ່	-11.1661
ຄວາມແຕກຕ່າງ	-11.1693
ອັບເດດ	-11.1752
ອຸດົມ	-11.176
ความ	-11.176
ຂ້ອນຂ້າງ	-11.176
ຄວາມໄວ້ວາງໃຈ	-11.176
ດັດຊະນີ	-11.176
ກົງກັນຂ້າມ	-11.176
ປະລິນຍາເອກ	-11.176
ມໍລະດົກ	-11.176
ຫມໍ້ຫຸງເຂົ້າ	-11.176
ອີກເທື່ອຫນຶ່ງ	-11.176
^	-11.176
•	-11.2035
İ	-11.2357
ท	-11.267
ั	-11.267
จ	-11.2992
х	-11.3326
Ø	-11.3326
Ф	-11.3671
г	-11.3671
≤	-11.3825
ย	-11.4028
ข	-11.7465
ไ	-11.7991
本	-12.0427
ค	-12.8442
电	-12.8442
·	-13.3653
У	-13.4609
文	-15.2034
ป	-15.2035
′	-15.2036
	-15.2037
₱	-15.2038
₪	-15.2039
อ	-15.204
ิ	-15.2041
资	-15.2042
话	-15.2043
象	-15.2044
万	-15.2045
←	-15.2046
ä	-15.2047
ї	-15.2048
ñ	-15.2049
ຝ	-15.205
ຽ	-15.2051
ໄ	-15.2052
ໃ	-15.2053
฿	-15.2054
ົ	-15.2054
