<unk>	0
<s>	0
</s>	0
▁	-2.03621
,	-3.80322
s	-4.27595
.	-4.36153
e	-4.49834
o	-4.67097
:	-4.71891
ດ	-4.73267
ກ	-4.80335
t	-4.89704
ນ	-4.94546
i	-4.95601
p	-5.04291
a	-5.05091
c	-5.10568
ງ	-5.13335
ວ	-5.14929
-	-5.17227
ການ	-5.17971
er	-5.21962
ມ	-5.22132
d	-5.28139
y	-5.28604
n	-5.32367
u	-5.33151
ຍ	-5.35075
g	-5.36125
▁P	-5.37825
b	-5.39005
l	-5.40045
in	-5.40727
k	-5.41798
▁S	-5.4616
S	-5.46578
▁C	-5.47699
ສ	-5.51852
m	-5.53878
4	-5.54018
ຂອງ	-5.55303
)	-5.55439
r	-5.56654
ແ	-5.58354
A	-5.60062
ທີ່	-5.63615
C	-5.64259
3	-5.64333
ບ	-5.64858
h	-5.65623
2	-5.65957
ເ	-5.66651
ຄ	-5.6706
f	-5.67243
or	-5.67591
▁/	-5.68289
▁(	-5.70224
ຫ	-5.72457
▁T	-5.73619
ar	-5.74353
6	-5.74405
▁B	-5.74954
ທ	-5.75207
I	-5.76682
8	-5.77163
▁A	-5.77346
ລ	-5.79037
▁M	-5.79339
E	-5.80154
7	-5.81649
້	-5.82109
al	-5.82725
ປ	-5.83314
an	-5.85661
T	-5.86291
on	-5.8642
ຈ	-5.86432
P	-5.87547
▁ການ	-5.88551
ໍາ	-5.8866
5	-5.8921
ຕ	-5.91591
M	-5.92138
w	-5.92277
at	-5.92327
▁-	-5.93171
;	-5.93467
ໂ	-5.9381
ing	-5.94451
9	-5.94788
ອ	-5.95909
D	-5.98766
ic	-5.98805
ຊ	-5.98841
▁L	-6.01224
▁D	-6.01279
O	-6.01458
ີ	-6.04032
1	-6.05686
ັດ	-6.06528
ຸ	-6.06656
ແລະ	-6.07654
່	-6.08966
ື	-6.09
R	-6.09387
re	-6.10034
L	-6.1005
et	-6.10127
າ	-6.11102
▁G	-6.11255
v	-6.11337
▁H	-6.11396
x	-6.12294
ຂ	-6.12528
ິ	-6.12986
00	-6.13437
▁F	-6.1383
▁ແລະ	-6.14577
ໃນ	-6.14836
ູ	-6.15755
en	-6.16386
້າ	-6.17649
le	-6.21853
U	-6.24006
▁1	-6.24303
20	-6.24862
ch	-6.26979
ed	-6.28595
▁W	-6.28659
ປະ	-6.29283
▁R	-6.29393
0	-6.29492
▁_	-6.29864
ro	-6.30534
ພ	-6.33599
▁&	-6.35332
ເປັນ	-6.35435
ັບ	-6.35497
ັກ	-6.37123
▁E	-6.37186
B	-6.38241
ລະ	-6.39492
it	-6.39638
ສາ	-6.40737
່າ	-6.4143
ຮ	-6.41492
F	-6.41504
ra	-6.42944
ຄວາມ	-6.44067
z	-6.44114
ສະ	-6.44633
ອນ	-6.44976
es	-6.46677
G	-6.47275
ri	-6.48044
N	-6.49309
H	-6.50735
el	-6.51331
ກັບ	-6.51437
ຫຼ	-6.52355
▁2	-6.53333
ur	-6.53489
am	-6.53726
ໍ	-6.54422
ັງ	-6.56584
ະ	-6.57815
st	-6.5901
un	-6.59091
th	-6.59907
/	-6.59961
as	-6.60079
il	-6.6062
ter	-6.62514
▁3	-6.62869
ຟ	-6.62918
▁Co	-6.62989
ພາ	-6.64864
ຖ	-6.65383
ົນ	-6.66465
K	-6.6685
▁ເ	-6.67609
ັນ	-6.69634
▁N	-6.71643
gt	-6.71652
▁20	-6.72285
ad	-6.72645
ol	-6.73603
ຈາກ	-6.74723
ot	-6.77145
▁Ch	-6.78146
is	-6.79359
and	-6.79389
lo	-6.79618
▁J	-6.79822
ໄດ້	-6.79968
ມີ	-6.80544
V	-6.80743
▁ເຄື່ອງ	-6.8455
mm	-6.84834
ສີ	-6.85634
W	-6.85822
▁ໃນ	-6.86175
▁ຄວາມ	-6.88102
ul	-6.88612
ອາ	-6.89368
la	-6.89382
15	-6.90411
ut	-6.91619
ອງ	-6.91866
▁...	-6.91919
amp	-6.92198
j	-6.93394
ir	-6.93997
ມື	-6.94411
ເກ	-6.95399
▁K	-6.95478
▁O	-6.95687
ce	-6.95762
co	-6.95907
ang	-6.97045
de	-6.9713
ຫລ	-6.97759
50	-6.99415
້ນ	-6.99482
▁5	-7.00307
com	-7.00603
12	-7.00872
ໄປ	-7.00971
ໃຊ້	-7.01658
ກະ	-7.01877
▁$	-7.02028
sh	-7.02358
ທີ	-7.02403
us	-7.03566
ຍາ	-7.03601
ມາ	-7.03913
ທ່ານ	-7.04616
um	-7.04624
10	-7.05928
ນາ	-7.06219
ນີ້	-7.0636
ຫາ	-7.07403
▁10	-7.07403
ັ	-7.0766
ວ່າ	-7.07729
op	-7.07812
ແມ່ນ	-7.08368
ay	-7.08582
ກາ	-7.08761
▁ສະ	-7.09792
ຕໍ່	-7.0998
!	-7.10816
id	-7.10848
ິນ	-7.10948
ຜ	-7.11446
ຊີ	-7.11496
ສຸດ	-7.11801
ac	-7.12005
ຸດ	-7.1219
ນ້ໍາ	-7.12212
ow	-7.13065
ວັນ	-7.13429
ປະເພດ	-7.13701
ວາ	-7.1416
om	-7.14682
ma	-7.14837
▁St	-7.14866
ຫມ	-7.15394
ລາ	-7.15487
ບໍ່	-7.15539
▁–	-7.15748
ໃຫ້	-7.16001
11	-7.17142
ສູງ	-7.17742
▁V	-7.1783
30	-7.17842
18	-7.18818
"	-7.18851
▁0	-7.19601
ຫນ້າ	-7.20475
່ງ	-7.22977
▁ສໍາລັບ	-7.23029
ap	-7.2362
ອກ	-7.23937
ເລ	-7.24025
່ນ	-7.24492
ສາມາດ	-7.25066
ate	-7.25636
ສໍາລັບ	-7.25714
ທາງ	-7.25736
ໂດຍ	-7.25778
ຊາ	-7.25999
▁2018	-7.26026
13	-7.26255
X	-7.26333
▁tattoos	-7.26351
ວນ	-7.27489
ack	-7.28311
ry	-7.28372
ent	-7.28425
19	-7.28627
ດາ	-7.28851
ia	-7.29469
em	-7.29551
ອບ	-7.29854
tattoo	-7.30051
Y	-7.30244
▁In	-7.30703
ig	-7.30818
ບັນ	-7.30861
ວິ	-7.30955
ກ່ຽວກັບ	-7.31031
▁+	-7.31052
ຈະ	-7.31449
▁Re	-7.32007
Q	-7.32111
ມັນ	-7.32253
ong	-7.32607
▁Ma	-7.32999
16	-7.33086
ne	-7.33625
ເຄື່ອງ	-7.33764
ine	-7.33989
ນໍາ	-7.34085
▁ໂດຍ	-7.34923
ຶ	-7.35304
ຕົວ	-7.35654
▁Sh	-7.35857
ຜູ້	-7.36747
me	-7.37164
▁ຈີນ	-7.37173
all	-7.38872
ub	-7.39192
ຕິ	-7.39517
ປີ	-7.39763
ເມ	-7.40246
ແບບ	-7.40836
ຕາ	-7.4125
▁Y	-7.41785
25	-7.4216
ຣ	-7.42266
ນະ	-7.42815
ian	-7.43374
per	-7.43617
ha	-7.43962
ຜະລິດຕະພັນ	-7.44144
li	-7.45039
ຂະຫນາດ	-7.45125
ກັນ	-7.4514
ly	-7.45535
ver	-7.45538
ລາຍ	-7.45781
ru	-7.4607
ດີ	-7.46701
%	-7.46852
14	-7.47016
art	-7.47689
ເຊ	-7.48183
▁ມີ	-7.48387
ion	-7.48503
ພະ	-7.48903
ta	-7.49336
est	-7.49667
▁ຫນ້າທໍາອິດ	-7.49752
ທີ່ມີ	-7.50837
ve	-7.50892
ation	-7.51097
60	-7.51202
ພວກເຮົາ	-7.51709
ບາ	-7.51936
ື່ອ	-7.52172
ag	-7.52806
▁X	-7.53199
ຊື່	-7.53247
mo	-7.53317
ຜະລິດ	-7.53566
ກົດ	-7.53572
ຫຼາຍ	-7.53668
ນັກ	-7.53858
ເຂົ້າ	-7.53898
one	-7.53965
ງານ	-7.5416
he	-7.54372
ສິ	-7.54712
▁2019	-7.55165
ລົດ	-7.55493
ect	-7.55904
ສາຍ	-7.55945
ຢູ່	-7.56291
40	-7.56443
▁ເດືອນ	-7.57252
ລິ	-7.57492
age	-7.57828
ຕັ້ງ	-7.58031
ສ້າງ	-7.58284
di	-7.5837
ip	-7.5871
'	-7.58859
ຮູບ	-7.59267
ex	-7.59299
17	-7.59407
▁Dust	-7.59764
ພິມ	-7.59797
▁ຜະລິດຕະພັນ	-7.60259
ຂ່າວ	-7.61089
▁Ro	-7.61154
ive	-7.61247
ສ່ວນ	-7.61638
?	-7.62292
ເງິນ	-7.6245
im	-7.6338
ຢາ	-7.63507
ທະ	-7.63963
ill	-7.63987
▁*	-7.64229
000	-7.64519
ທິ	-7.64734
ite	-7.64761
vi	-7.65101
ແຕ່	-7.66154
ທັງຫມົດ	-7.66163
...	-7.66357
(	-7.66403
J	-7.66534
▁"	-7.66865
▁De	-7.67471
ight	-7.67501
ຫມາຍ	-7.67545
ຖືກ	-7.67653
ph	-7.6807
▁2017	-7.68077
້ງ	-7.68666
▁Sp	-7.68782
ປະເທດ	-7.68885
ast	-7.6917
ເຫັນ	-7.69212
▁ສໍາ	-7.69851
ເພື່ອ	-7.70391
£	-7.70849
▁the	-7.70876
▁No	-7.71447
ເອ	-7.72255
ອຸປະກອນ	-7.72349
▁Z	-7.72595
▁ແມ່ນ	-7.72693
▁ໄດ້	-7.72725
©	-7.72798
▁Pro	-7.73121
86	-7.7337
ຢ	-7.73763
▁ຜູ້	-7.74148
ໄດ້ຮັບ	-7.74313
@	-7.74385
ຕ້ອງ	-7.75032
ສົ່ງ	-7.75188
qu	-7.75402
ເມືອງ	-7.75536
▁Printer	-7.75707
ຫນາ	-7.7576
່ອງ	-7.75919
ress	-7.76076
ity	-7.76223
ting	-7.77112
90	-7.77155
80	-7.77649
ard	-7.78229
ຢ່າງ	-7.78348
▁ຜູ້ຜະລິດ	-7.78532
&	-7.78715
ຫນຶ່ງ	-7.78943
ລະບົບ	-7.81425
▁ເຊົ່າລົດ	-7.81916
▁to	-7.81943
23	-7.82235
XL	-7.82285
ff	-7.82293
ພາບ	-7.82993
▁2016	-7.83087
01	-7.83191
▁of	-7.8356
ອອກ	-7.83638
ຂໍ້ມູນ	-7.84285
ອື່ນໆ	-7.8486
ຂໍ້	-7.8492
ຂອງທ່ານ	-7.84955
ອມ	-7.85196
21	-7.85243
ຈັດ	-7.85269
eng	-7.85329
ຈີນ	-7.8551
lu	-7.85755
ຄາ	-7.85851
ອດ	-7.85984
ess	-7.85998
ber	-7.86128
ໂທ	-7.86157
ໂທລະສັບ	-7.86646
ຸນ	-7.86749
ຄົນ	-7.86894
ant	-7.87034
ock	-7.87263
ນິ	-7.87337
IN	-7.8861
ຄິດ	-7.88818
ust	-7.89195
ັ່ງ	-7.89763
▁The	-7.89995
ເຄ	-7.90118
ເທ	-7.90125
45	-7.9073
ide	-7.90905
ລາວ	-7.90984
ຖົງ	-7.91137
ab	-7.91305
ຮັບ	-7.92011
tion	-7.92087
▁ລັບ	-7.92828
28	-7.92956
▁ຫນ	-7.93241
0%	-7.94491
»	-7.95415
oll	-7.95789
35	-7.95834
ໃຫມ່	-7.9598
ຂາຍ	-7.96074
▁Collector	-7.9662
ໃຫຍ່	-7.9662
ລາຄາ	-7.97277
▁Vi	-7.97314
ອີ	-7.97535
ເວລາ	-7.98439
ສົມ	-7.98638
05	-7.98646
▁Hack	-7.99131
▁200	-7.99321
ໄຟຟ້າ	-7.99443
ບໍລິສັດ	-8.00032
ຫ້ອງ	-8.0018
]	-8.00253
ດ້ວຍ	-8.00327
ຖານ	-8.00613
ຜົນ	-8.00713
ລິຂະສິດ	-8.0107
ມະ	-8.01114
▁Fl	-8.01205
ບໍລິການ	-8.01484
ER	-8.01662
້ມ	-8.01938
ເຈົ້າ	-8.0197
ສະຫ	-8.02142
[	-8.02422
▁24	-8.02719
ບັດ	-8.03319
able	-8.03403
ເລືອກ	-8.03487
ist	-8.04324
Z	-8.04378
ຍີ່ຫໍ້	-8.0464
▁Ltd	-8.04671
ຕົ້ນ	-8.05338
ຜ້າ	-8.06264
▁Bag	-8.06328
500	-8.06609
ເຮັດ	-8.06837
ສໍາລັບການ	-8.07181
ເຖິງ	-8.07303
▁Casino	-8.0802
ລົງ	-8.081
ອາຫານ	-8.0836
ຂອງພວກເຮົາ	-8.08624
#	-8.08904
ON	-8.08914
ທໍ່	-8.09316
ຊື້	-8.09478
▁Tag	-8.09591
ຊິ	-8.09638
ell	-8.09923
ທີ່ຈະ	-8.09932
ທຸລະກິດ	-8.09958
▁sp	-8.09967
tra	-8.10194
end	-8.10819
້ອງ	-8.11413
▁Android	-8.11437
ຜ່ານ	-8.11523
ນັ້ນ	-8.1227
ment	-8.13017
ແມ່	-8.13023
99	-8.13543
ຄູ່	-8.13619
ຂະ	-8.13973
75	-8.14111
ຕັດ	-8.14813
▁Valve	-8.14889
ເພ	-8.14923
ຕາມ	-8.15088
ເບິ່ງ	-8.15145
ຈໍານວນ	-8.15403
ເຈ	-8.15569
ash	-8.15586
old	-8.15591
ໃນການ	-8.15812
ຕະ	-8.15818
ຮຽນ	-8.16008
ອາກາດ	-8.16184
_	-8.16302
ປະຕິບັດ	-8.16529
▁ທີ່ຢູ່	-8.16845
ໂຮງງານຜະລິດ	-8.17203
ຫົວ	-8.17316
ແຜ່ນ	-8.17933
ເຫຼັກ	-8.18113
ພັນ	-8.1886
70	-8.18869
ຮ່ວມ	-8.18908
AN	-8.19071
▁ພວກ	-8.19592
ຂຶ້ນ	-8.19714
26	-8.20091
ອຸດສາຫະກໍາ	-8.20617
ປາ	-8.20854
ປະກອບ	-8.20893
ພື້ນ	-8.21438
▁by	-8.21449
ປ່ຽນ	-8.22171
▁Mark	-8.22377
ສະຫນອງ	-8.22541
ໄມ້	-8.2291
ສິ່ງ	-8.24465
ອະ	-8.24859
▁ໂຮງງານ	-8.25928
board	-8.25932
02	-8.26084
ook	-8.26547
ອອກແບບ	-8.27174
ຟຣີ	-8.27468
ຸ່ມ	-8.27576
ອອນໄລນ໌	-8.27662
▁ດາວນ໌ໂຫລດ	-8.27857
ຮູບພາບ	-8.28035
▁Europe	-8.28345
ຕິດຕໍ່ຕອນນີ້	-8.28837
ບົດ	-8.28935
ຢູ່ໃນ	-8.28991
ຂາວ	-8.3064
ດ້ານ	-8.3078
▁Filter	-8.3204
CH	-8.32568
▁Equipment	-8.3265
ໂລກ	-8.32899
ຮູ້	-8.33168
▁for	-8.33191
ວິທະຍາໄລ	-8.33266
ເສັ້ນ	-8.33266
▁Un	-8.33814
ອ່ານ	-8.34105
ເຮືອ	-8.34511
ສະແດງ	-8.34614
▁ທີ່ຜ່ານມາ	-8.35032
ຈາກປະເທດຈີນ	-8.35346
▁you	-8.35389
ໂລຫະ	-8.35979
ບໍ່ມີ	-8.36143
ເຮັດໃຫ້	-8.36614
໌	-8.36616
▁Bonus	-8.36726
ທຸກ	-8.37604
}	-8.37685
ພະລັງງານ	-8.38659
ແສງ	-8.39024
ເອົາ	-8.39971
\	-8.40302
ຮ້ອນ	-8.40415
▁Tattoo	-8.40633
ເຕີ	-8.40649
ຍິງ	-8.41755
ລວມ	-8.41933
ນ້ອຍ	-8.41973
▁Steel	-8.42767
ood	-8.43798
▁Windows	-8.45167
ກໍ່	-8.45411
▁ອີເມລ໌	-8.47039
ຫຼິ້ນ	-8.47514
“	-8.48108
”	-8.48347
▁Protection	-8.48947
▁Botou	-8.50403
▁Vessoft	-8.50893
▁Environmental	-8.52004
ເຮັດວຽກ	-8.52377
▁Lao	-8.52965
▁UV	-8.53018
="	-8.5319
ໆ	-8.53871
ສຶກສາ	-8.53887
ພັດທະນາ	-8.5401
ເປີດ	-8.5454
▁App	-8.55362
ໄລຍະ	-8.56576
://	-8.57629
key	-8.57781
ຂ້າພະເຈົ້າ	-8.58016
ເຊັ່ນ	-8.5828
zhou	-8.5828
ອັດຕະໂນມັດ	-8.58412
▁LTD	-8.5989
€	-8.60283
ໂຄງການ	-8.61368
ຢືນ	-8.6233
www	-8.62612
▁Comp	-8.62635
▁New	-8.62901
ທີ່ດີທີ່ສຸດ	-8.63852
▁Free	-8.64048
ໂທລະສັບມືຖື	-8.64272
ລະດັບ	-8.64287
▁http	-8.65259
Manufacturer	-8.65971
ເວັບໄຊທ໌	-8.66113
ຕິດຕໍ່	-8.66116
ເດືອນ	-8.66132
ifi	-8.6634
ຄາສິໂນ	-8.664
ໂຮງ	-8.67027
▁ລາຍລະອຽດ	-8.67119
Wholesale	-8.67554
▁ວິທີການ	-8.67844
China	-8.67904
ຄຸນນະພາບ	-8.68281
ແນວ	-8.68697
*	-8.69474
°	-8.70199
▁Koh	-8.70221
▁Machine	-8.70498
ສູນ	-8.70683
ຊ່ວຍ	-8.70946
▁LED	-8.70959
ຝຶກອົບຮົມ	-8.71096
ຊັ້ນ	-8.71248
duct	-8.71269
=	-8.71472
q	-8.71893
ບ່ອນ	-8.72466
×	-8.72763
~	-8.74148
+	-8.74525
oujian	-8.7541
ເຂດ	-8.75938
ແກ້ວ	-8.76025
▁Industrial	-8.7634
ກະດານ	-8.76502
ບໍລິ	-8.7672
▁ລາຄາຖືກ	-8.76989
ປະຕູ	-8.77462
ຫນັງ	-8.77463
▁Black	-8.77622
ຊອບແວ	-8.78098
ປັບປຸງ	-8.78259
▁Pulse	-8.78584
ບ້ານ	-8.78778
ຊີວິດ	-8.79072
ວິດີໂອ	-8.79559
ເຄື່ອງຈັກ	-8.79575
ເພີ່ມເຕີມ	-8.8071
ແລ້ວ	-8.80876
ຄວບຄຸມ	-8.81374
ລູກຄ້າ	-8.81541
ສະຫນັບສະຫນູນ	-8.81708
ອາທິດ	-8.81878
ເຂົາ	-8.82476
▁ພາສາລາວ	-8.83053
ງ່າຍ	-8.83256
ແລະຜູ້ຜະລິດ	-8.83904
ພຣະ	-8.83905
ແນະນໍາ	-8.83905
▁{_	-8.84248
ສະເຫນີ	-8.84761
ເພີ່ມ	-8.85106
▁ມັງກອນ	-8.85279
ວັດສະດຸ	-8.85974
ອີເມວ	-8.85975
ຂີ້ຝຸ່ນ	-8.86149
ສະຖານທີ່	-8.86154
▁Fiber	-8.86329
▁USD	-8.86501
•	-8.86674
ເລີ່ມ	-8.86674
ເບີ	-8.88673
▁Webtalk	-8.88804
▁ຖະຫນົນ	-8.88804
ທົ່ວໄປ	-8.89163
ຕ້ານ	-8.89373
▁ISO	-8.90071
ລາຄາຕໍ່າ	-8.9025
▁ມີຄຸນນະພາບສູງ	-8.90614
ແຜນ	-8.90629
▁Blue	-8.91065
▁ນໍາໄປສູ່	-8.91532
ເຮົາກໍາລັງພິເສດ	-8.91903
ຜູ້ຊາຍ	-8.91904
ຂັ້ນ	-8.92459
▁WordPress	-8.93017
▁Home	-8.93064
ຕິດຕັ້ງ	-8.93394
ຕ່ໍາ	-8.94728
ຫນ່ວຍ	-8.94906
ເສີມ	-8.95117
ພາຍໃນ	-8.9549
▁District	-8.95671
ເຫຼືອ	-8.95864
ພຶດສະພາ	-8.96056
ສະລັອດຕິງ	-8.96056
ຕະຫຼາດ	-8.96249
▁ສີດໍາ	-8.97028
ຂະຫຍາຍ	-8.98201
▁Series	-8.98201
ຄັ້ງ	-8.98794
▁Mobile	-8.98992
ຂ້ອຍ	-8.9999
ແກ້ໄຂ	-8.9999
0,000	-9.00746
ບັນຈຸ	-9.01002
ອື່ນ	-9.01388
ຕ່າງໆ	-9.01404
ເຄືອບ	-9.02017
ເຢັນ	-9.02429
▁Ningbo	-9.02839
ບັນທຶກ	-9.03045
ກໍານົດ	-9.03876
ເດັກນ້ອຍ	-9.03876
ພຽງແຕ່	-9.04503
໊	-9.04503
▁ຜູ້ສົ່ງອອກ	-9.04504
ທໍາອິດ	-9.04704
▁withoutwax	-9.05135
ຈໍາກັດ	-9.05135
ພວກເຂົາ	-9.05223
ເຫມາະສົມ	-9.05346
▁ຮຸ່ນ	-9.05347
ກໍາລັງ	-9.06836
ພິເສດ	-9.07051
’	-9.07486
ຕິດຕາມ	-9.07487
Hebei	-9.07702
ສໍາເລັດ	-9.07703
▁Supplier	-9.08572
ເວົ້າ	-9.08791
ສະແຕນເລດ	-9.08791
▁ການທົບທວນຄືນ	-9.08791
	-9.08791
ເສື້ອ	-9.09011
ປ້ອງກັນ	-9.09451
▁ການຫຸ້ມຫໍ່	-9.09671
ມາດຕະຖານ	-9.10114
ດໍາເນີນ	-9.14192
▁Technology	-9.15589
ເງິນຝາກ	-9.16059
ການກັ່ນຕອງ	-9.16295
ຕາຕະລາງ	-9.16768
▁ທີ່ໃຊ້ເວລາ	-9.17244
▁Cyclone	-9.17722
ລະຫວ່າງ	-9.18202
ຼ	-9.18291
ການເດີນທາງ	-9.19657
▁Online	-9.19901
ຄອມພິວເຕີ	-9.20146
▁ທົດລອງ	-9.20146
ກອງປະຊຸມ	-9.20638
▁Worldwide	-9.21133
$	-9.2129
ຢ້ຽມຢາມ	-9.21879
ສັງຄົມ	-9.21879
{	-9.49608
ı	-9.55376
→	-9.56077
é	-9.63745
≤	-9.66828
★	-9.74133
ü	-9.80657
о	-9.87637
`	-9.91069
·	-9.92576
໋	-9.9514
—	-9.96185
и	-9.9671
а	-9.97772
е	-9.98845
ö	-10.0158
с	-10.1086
®	-10.1909
ย	-10.2592
±	-10.2663
ş	-10.2879
น	-10.3025
฿	-10.3025
送	-10.3025
н	-10.3025
า	-10.3099
р	-10.3249
≥	-10.3249
信	-10.3325
发	-10.3401
息	-10.3401
ท	-10.4034
天	-10.4366
聊	-10.4366
т	-10.4709
ç	-10.5156
ไ	-10.5156
Φ	-10.5247
ะ	-10.5433
к	-10.6113
ร	-10.6113
本	-10.6214
á	-10.6214
ว	-10.642
ม	-10.6735
«	-10.6952
电	-10.7061
л	-10.7285
เ	-10.7747
【	-10.8357
–	-10.8601
в	-10.8612
】	-10.8612
ğ	-10.8742
โ	-10.8742
ล	-10.9007
у	-10.9279
¥	-10.9279
ซ	-10.9279
‘	-10.9559
å	-10.9702
◆	-10.9994
ง	-11.0294
м	-11.0925
Ω	-11.1088
	-11.1597
ຯ	-11.1772
ด	-11.1772
●	-11.1951
б	-11.1951
μ	-11.2133
й	-11.2699
í	-11.3095
ó	-11.3095
ี	-11.3299
ส	-11.3938
à	-11.416
ы	-11.416
🔥	-11.416
д	-11.416
แ	-11.4387
ก	-11.4387
ข	-11.462
中	-11.4858
ค	-11.4858
	-11.4858
Ö	-11.5102
ห	-11.5102
я	-11.5352
้	-11.5352
ا	-11.5608
어	-11.5608
ь	-11.5871
ต	-11.6142
п	-11.6142
บ	-11.6142
^	-11.6705
İ	-11.7302
ั	-11.7615
จ	-11.7937
Ø	-11.8271
х	-11.8271
г	-11.8615
Ф	-11.8615
文	-13.9534
ป	-13.9535
′	-13.9536
	-13.9537
₱	-13.9538
₪	-13.9539
อ	-13.954
ิ	-13.9541
资	-13.9542
话	-13.9543
象	-13.9544
万	-13.9545
←	-13.9546
ä	-13.9547
ї	-13.9548
ñ	-13.9549
ຝ	-13.955
ຽ	-13.9551
ໄ	-13.9552
ໃ	-13.9553
У	-13.9554
ົ	-13.9554
