<unk>	0
<s>	0
</s>	0
▁	-2.17382
,	-3.48871
.	-4.13986
s	-4.35209
:	-4.40004
-	-5.15208
)	-5.26108
ຂອງ	-5.28622
▁/	-5.35586
y	-5.43852
▁(	-5.45096
▁-	-5.53108
ດ	-5.53432
ກ	-5.55133
ການ	-5.5644
er	-5.58077
▁S	-5.59458
;	-5.64845
in	-5.64928
ນ	-5.65669
▁P	-5.68718
m	-5.71287
C	-5.7134
r	-5.73035
d	-5.73966
▁C	-5.76833
ing	-5.79375
i	-5.79767
c	-5.80336
ແລະ	-5.80528
e	-5.80805
o	-5.81922
▁ການ	-5.83638
S	-5.84284
▁ແລະ	-5.87158
t	-5.87489
g	-5.87837
▁B	-5.88377
a	-5.89222
M	-5.89327
n	-5.8948
▁T	-5.90653
ທີ່	-5.92349
f	-5.96651
D	-5.96868
▁_	-5.97665
▁A	-5.98959
ມ	-6.00886
▁&	-6.01648
al	-6.02894
ໃນ	-6.05038
on	-6.05799
u	-6.06256
▁F	-6.06445
P	-6.07523
ຍ	-6.07625
A	-6.09299
▁1	-6.09739
ບ	-6.10327
▁M	-6.12737
p	-6.13317
an	-6.15148
T	-6.15719
b	-6.16132
▁D	-6.16887
2	-6.19838
▁H	-6.21037
l	-6.21438
ງ	-6.22857
B	-6.27624
ed	-6.27626
O	-6.28945
L	-6.29695
/	-6.30147
3	-6.30568
le	-6.32164
▁G	-6.33248
▁2	-6.3342
w	-6.34206
x	-6.34234
gt	-6.37718
ວ	-6.37978
et	-6.38518
re	-6.38622
ເປັນ	-6.39356
▁Co	-6.3951
ch	-6.39794
I	-6.39915
en	-6.40823
G	-6.4084
▁R	-6.4201
1	-6.43109
k	-6.4409
E	-6.46246
F	-6.47403
or	-6.47609
▁3	-6.48214
ar	-6.49706
້	-6.49835
4	-6.51859
▁L	-6.53649
20	-6.53909
▁ໃນ	-6.55833
h	-6.57582
mm	-6.58178
▁...	-6.59048
ຊ	-6.60024
R	-6.60036
amp	-6.60552
it	-6.61358
▁E	-6.61422
00	-6.61993
▁W	-6.6227
el	-6.63133
5	-6.63605
ໄດ້	-6.63744
ro	-6.63949
ເ	-6.64937
ແ	-6.65271
W	-6.65395
່	-6.65395
V	-6.67389
K	-6.67817
▁N	-6.69096
ລ	-6.69417
at	-6.69473
▁$	-6.69915
com	-6.70833
▁K	-6.71176
H	-6.71259
▁4	-6.72217
ກັບ	-6.73054
N	-6.74749
il	-6.76639
▁5	-6.77881
50	-6.78046
!	-6.7893
ອ	-6.79272
▁J	-6.79911
ic	-6.81817
▁ເຄື່ອງ	-6.81887
st	-6.82026
v	-6.82421
ມີ	-6.82921
▁–	-6.83813
ຄ	-6.83924
ຄວາມ	-6.84899
ur	-6.86057
un	-6.86416
້າ	-6.86972
U	-6.87258
co	-6.87989
ສໍາລັບ	-6.89499
es	-6.89748
ຂ	-6.89901
ri	-6.90417
▁ສໍາລັບ	-6.91017
າ	-6.91663
ັບ	-6.92635
am	-6.93252
ສະ	-6.9393
ສ	-6.96765
ໃຫ້	-6.97268
▁2018	-6.97529
ຕ	-6.98694
ຫ	-6.9871
▁O	-6.99317
th	-6.99397
z	-6.9966
▁V	-6.99738
is	-6.99989
▁ຈີນ	-7.00152
ທ	-7.00586
▁ທີ່	-7.01905
ຈາກ	-7.02172
ຸ	-7.02449
▁ໂດຍ	-7.02646
▁10	-7.03095
ສາມາດ	-7.03145
j	-7.03163
ol	-7.04305
ນີ້	-7.04935
"	-7.05131
▁ສະ	-7.06284
ໂດຍ	-7.07495
ad	-7.07806
la	-7.09219
ang	-7.09573
Y	-7.10583
ູ	-7.11422
ter	-7.11956
▁ຄວາມ	-7.12327
ແມ່ນ	-7.13076
▁+	-7.13368
7	-7.13456
ra	-7.13474
10	-7.14649
ຖ	-7.14876
X	-7.14896
▁Re	-7.16322
ວ່າ	-7.16482
▁p	-7.17836
▁ຫນ້າທໍາອິດ	-7.17874
6	-7.18412
id	-7.19086
ne	-7.19123
▁Ch	-7.21336
8	-7.21728
▁tattoos	-7.21897
ul	-7.22489
ມາ	-7.22862
▁ຜະລິດຕະພັນ	-7.23076
as	-7.2349
▁6	-7.23926
ot	-7.24612
ໂ	-7.2473
▁8	-7.24953
ໄປ	-7.25308
ia	-7.2535
ຟ	-7.25504
ສູງ	-7.25783
te	-7.25987
▁2019	-7.26438
▁Y	-7.26702
ອນ	-7.26983
▁ມີ	-7.27132
▁Dust	-7.27742
▁ເ	-7.27919
ຈ	-7.27984
ນ້ໍາ	-7.28498
▁"	-7.29505
ໍ	-7.30059
ກະ	-7.3015
?	-7.30406
ເຄື່ອງ	-7.30809
ທີ່ມີ	-7.31396
ໍາ	-7.31441
sh	-7.31608
▁*	-7.31634
ໃຊ້	-7.31744
▁In	-7.32749
▁I	-7.32964
ຮ	-7.34073
ທັງຫມົດ	-7.34277
se	-7.35943
▁2017	-7.3607
0	-7.36195
▁ເດືອນ	-7.3622
ຜູ້	-7.36422
(	-7.36545
ate	-7.36594
...	-7.36826
▁ໄດ້	-7.37093
▁7	-7.38292
9	-7.38998
ent	-7.39742
▁St	-7.40908
ປະ	-7.40995
▁ແມ່ນ	-7.41032
000	-7.41331
▁the	-7.41615
ຜະລິດຕະພັນ	-7.41787
ັງ	-7.42061
▁0	-7.42143
um	-7.42497
@	-7.42499
▁ສໍາ	-7.43007
ປ	-7.43017
▁Printer	-7.43894
us	-7.44222
▁No	-7.45313
ທີ	-7.4541
li	-7.45916
30	-7.46551
ແບບ	-7.46572
ທາງ	-7.47132
▁X	-7.47357
ay	-7.47402
ation	-7.47409
and	-7.47941
ir	-7.48493
J	-7.48505
▁of	-7.48836
▁ເປັນ	-7.48986
ລະ	-7.49193
ພ	-7.49204
▁ຜູ້ຜະລິດ	-7.4972
▁ເຊົ່າລົດ	-7.50031
ion	-7.50241
▁ກັບ	-7.50271
ີ	-7.5028
ຈະ	-7.50762
ut	-7.52311
▁12	-7.52404
▁2016	-7.52835
ta	-7.52882
ົນ	-7.53664
▁and	-7.53932
ຂອງທ່ານ	-7.54003
ma	-7.54167
▁20	-7.54668
ສີ	-7.54686
ig	-7.55816
ບໍ່	-7.55979
15	-7.5602
lo	-7.56312
ຫຼ	-7.5667
ac	-7.56791
'	-7.57379
%	-7.57501
ັດ	-7.5758
ັນ	-7.57582
ce	-7.57744
ຜ	-7.57754
ປະເທດ	-7.5804
▁9	-7.58629
80	-7.58755
12	-7.58959
▁Sh	-7.59083
▁Ma	-7.59158
ry	-7.59393
ຫຼາຍ	-7.59704
na	-7.6011
▁ທ່ານ	-7.60459
ິ	-7.60542
▁ລັບ	-7.60775
ຣ	-7.60823
40	-7.61044
mo	-7.61625
om	-7.62031
ທ່ານ	-7.62154
di	-7.62157
ມື	-7.62801
ເງິນ	-7.63663
ຫາ	-7.64042
▁to	-7.6408
ຂໍ້ມູນ	-7.64114
▁Collector	-7.64734
ຫນ້າ	-7.65183
ເຂົ້າ	-7.65428
all	-7.66096
op	-7.66237
ly	-7.66282
pe	-7.66343
ian	-7.66424
de	-7.66506
່າ	-7.66555
ers	-7.66714
▁Hack	-7.66962
ອອກ	-7.67143
60	-7.6725
▁ຂ່າວ	-7.67283
lt	-7.67287
ໄຟຟ້າ	-7.67557
ack	-7.68053
ow	-7.68222
ໃຈ	-7.68293
]	-7.68367
ຍາ	-7.68408
me	-7.68701
▁»	-7.68823
ຕາ	-7.68897
ie	-7.68996
▁£	-7.69006
▁Z	-7.69079
ting	-7.69503
ho	-7.69894
ide	-7.69895
ກັນ	-7.69983
▁De	-7.70476
ill	-7.70559
ong	-7.70756
ກາ	-7.70944
to	-7.70949
11	-7.71573
35	-7.72809
ຢ	-7.72869
▁©	-7.73034
25	-7.73122
▁Bag	-7.74306
ຕິ	-7.74364
▁Ltd	-7.74374
ດີ	-7.74553
Z	-7.74766
▁Mo	-7.75123
▁[	-7.75417
ຢູ່	-7.7558
▁Casino	-7.76134
ub	-7.76156
05	-7.76322
ຕໍ່	-7.76396
ຂອງພວກເຮົາ	-7.76464
16	-7.7647
45	-7.76751
ື	-7.76831
▁ລະຫັດ	-7.77264
ະ	-7.77906
ລາຍ	-7.77915
ພາ	-7.78089
▁ຫນ້າ	-7.78429
ັກ	-7.78659
os	-7.78745
ເຮັດ	-7.79023
age	-7.79053
ສົ່ງ	-7.79125
▁Android	-7.79551
hi	-7.79671
▁Pro	-7.80274
ທີ່ຈະ	-7.80334
▁ຄໍາ	-7.80354
▁19	-7.80569
ມັນ	-7.81059
ເພື່ອ	-7.81417
ຮັບ	-7.8157
ant	-7.81758
90	-7.81971
ive	-7.82057
tic	-7.82122
ine	-7.82502
▁ປະເພດ	-7.82618
▁Sp	-7.82804
ip	-7.82941
▁Valve	-7.83002
ER	-7.83111
ັ	-7.83352
▁ຂະຫນາດ	-7.83376
▁30	-7.83515
ຜ່ານ	-7.83604
01	-7.83735
one	-7.83899
ຕົວ	-7.84262
ຕັ້ງ	-7.84282
lu	-7.84566
▁ມັນ	-7.84722
ສ້າງ	-7.84807
ຫົວ	-7.8543
im	-7.85447
ເວລາ	-7.85483
ດ້ວຍ	-7.85675
em	-7.86388
_	-7.8646
ເລ	-7.86461
▁ຜູ້	-7.86464
ຜົນ	-7.86471
der	-7.87221
ລິ	-7.87385
▁ພວກ	-7.87708
ໄດ້ຮັບ	-7.88009
13	-7.88087
▁ໂທລະສັບ	-7.884
ite	-7.8848
▁by	-7.88726
▁ເກມ	-7.88879
ອາຫານ	-7.8891
up	-7.89305
ຄົນ	-7.89421
ex	-7.89479
min	-7.89661
ab	-7.89926
ຫນຶ່ງ	-7.90072
ag	-7.90221
eng	-7.90478
▁U	-7.90597
▁ຫຼື	-7.90618
ນາ	-7.90837
ອດ	-7.90948
ge	-7.90989
ard	-7.91008
ໄມ້	-7.91024
ກ່ຽວກັບ	-7.9113
▁tattoo	-7.9169
17	-7.9186
▁ທີ່ຢູ່	-7.91947
ປາ	-7.92411
ິນ	-7.92522
ver	-7.92648
▁#	-7.92718
▁15	-7.93343
▁ປະ	-7.934
ສ່ວນ	-7.93654
▁11	-7.93841
ເຖິງ	-7.9423
sk	-7.9425
▁200	-7.9469
he	-7.95118
▁ກ່ຽວກັບ	-7.95578
▁ທ	-7.95629
ap	-7.95735
IN	-7.95755
▁ດາວນ໌ໂຫລດ	-7.95971
vi	-7.9613
ງານ	-7.96216
ປີ	-7.96229
▁ປ	-7.96361
▁ໂຮງງານ	-7.96364
▁ບໍ່	-7.96406
▁Europe	-7.96459
▁ປີ	-7.96665
▁ສີ	-7.96675
▁ສ	-7.97076
▁ຊື່	-7.97101
ຢ່າງ	-7.9725
ell	-7.97442
XL	-7.97453
ຜະລິດ	-7.97456
ລົດ	-7.97612
▁ເມືອງ	-7.97828
ອກ	-7.98252
able	-7.98411
nd	-7.98412
02	-7.98463
ph	-7.98747
▁ມື	-7.98766
18	-7.9907
ight	-7.99354
AN	-7.99377
້ນ	-7.9953
tion	-7.99533
ສາຍ	-7.99634
ພັນ	-8.00034
ເຊ	-8.00098
▁Filter	-8.00153
▁Ro	-8.00352
ເລືອກ	-8.004
ນັກ	-8.00443
ອື່ນໆ	-8.00458
▁Equipment	-8.00764
ວັນ	-8.00994
ment	-8.01266
ສໍາລັບການ	-8.01393
ໃຫມ່	-8.0188
ຶ	-8.01884
ast	-8.01902
ber	-8.01924
ຄາ	-8.01994
-1	-8.02021
19	-8.02027
ພວກເຮົາ	-8.02175
▁18	-8.02444
Q	-8.02636
no	-8.02661
ຊີ	-8.02731
ອງ	-8.0285
▁ວັນ	-8.02883
້ງ	-8.02941
▁ທີ່ຜ່ານມາ	-8.03146
ຈາກປະເທດຈີນ	-8.0346
ha	-8.03519
ຈັດ	-8.04121
▁ຈາກ	-8.04297
per	-8.04385
▁Bonus	-8.04838
▁ຫ	-8.05141
ອາ	-8.05218
ff	-8.05414
ບໍ່ມີ	-8.05472
04	-8.0551
ທຸກ	-8.05694
75	-8.06027
2018	-8.06236
▁The	-8.0625
▁ພວກເຮົາ	-8.06532
ຕະ	-8.06578
ຄູ່	-8.0671
55	-8.06958
▁(1	-8.06958
ຕັດ	-8.07132
ໄວ	-8.07484
ist	-8.0781
▁ດາວໂຫລດ	-8.07929
ຖືກ	-8.08198
ອີ	-8.08228
art	-8.08345
cm	-8.08983
70	-8.09013
ພິມ	-8.09025
▁Cl	-8.09186
21	-8.09375
ພາກ	-8.0959
▁Me	-8.09608
ເຫັນ	-8.0977
▁for	-8.10217
ai	-8.10224
ick	-8.10318
ຢາ	-8.10341
ຫມ	-8.10606
od	-8.10655
▁Steel	-8.10877
AC	-8.10991
▁ສາຍ	-8.11106
ນະ	-8.11145
io	-8.11686
29	-8.11729
ca	-8.11816
est	-8.12317
ລາ	-8.12634
່ງ	-8.12913
03	-8.12921
ບໍລິການ	-8.13066
07	-8.13192
ຫລ	-8.13196
▁Windows	-8.13281
va	-8.13322
cr	-8.13417
31	-8.13563
08	-8.14002
▁16	-8.14057
27	-8.14059
06	-8.14322
man	-8.14523
ໃຫຍ່	-8.14538
ies	-8.14657
ສົມ	-8.14682
▁ອີເມລ໌	-8.15155
oll	-8.15343
ON	-8.15573
▁ສຸດ	-8.15832
bo	-8.15912
ອມ	-8.15984
ພາບ	-8.16183
”	-8.16461
ວັດ	-8.1658
ator	-8.16768
▁2015	-8.16951
int	-8.16967
▁Protection	-8.17061
▁24	-8.17312
▁ຫນ	-8.17768
▁2020	-8.18268
▁Botou	-8.18517
▁ລິຂະສິດ	-8.18578
tt	-8.18669
ອບ	-8.18975
ak	-8.18994
▁Vessoft	-8.19007
ຖົງ	-8.19009
▁ຕໍ່	-8.19048
ໃນການ	-8.19179
cl	-8.19284
ສະແດງ	-8.19376
ຢູ່ໃນ	-8.19462
ຫຼື	-8.19499
ຍັງ	-8.19539
▁Environmental	-8.20118
ass	-8.20126
&	-8.2014
ນໍາ	-8.20264
▁La	-8.20574
-2	-8.20834
ຂຶ້ນ	-8.21116
▁UV	-8.21221
▁ກໍາ	-8.21222
ໂລຫະ	-8.21241
="	-8.2127
ວາງ	-8.2143
09	-8.21589
່ນ	-8.21769
▁Vi	-8.21805
▁25	-8.21867
ອຸປະກອນ	-8.22023
ock	-8.22269
ລີ	-8.22345
32	-8.22353
ເປີດ	-8.22634
23	-8.2274
ສານ	-8.22773
▁ລາຄາ	-8.22816
ເສັ້ນ	-8.23109
▁Lo	-8.23277
end	-8.23303
ໂລກ	-8.23395
ba	-8.23614
ລາວ	-8.23639
ຍີ່ຫໍ້	-8.23725
14	-8.23761
▁Sa	-8.23831
ຸດ	-8.23925
▁Li	-8.24361
do	-8.24422
ST	-8.24573
ເຮັດໃຫ້	-8.24578
ບໍລິສັດ	-8.24596
▁100	-8.2461
key	-8.24679
ug	-8.24792
ປະເພດ	-8.24889
ເຫຼັກ	-8.25377
ud	-8.25576
▁ໂຮງງານຜະລິດ	-8.25584
ໄຟ	-8.25653
ສອງ	-8.25688
://	-8.25751
ວາ	-8.25928
ຂ້າພະເຈົ້າ	-8.2613
ace	-8.26251
ອັດຕະໂນມັດ	-8.26526
ຄິດ	-8.26659
yl	-8.26895
our	-8.27041
are	-8.27129
ster	-8.27255
28	-8.2735
we	-8.27508
AS	-8.27889
▁LTD	-8.27996
ເອົາ	-8.28127
▁Le	-8.28251
ເສ	-8.28774
AL	-8.28857
200	-8.2899
ru	-8.29077
ໆ	-8.29179
ກາງ	-8.29294
ການຜະລິດ	-8.29403
ພາສາ	-8.2945
go	-8.29743
36	-8.30094
AR	-8.30106
ທາ	-8.30142
▁de	-8.30353
▁Top	-8.30575
ໂຄງການ	-8.30663
log	-8.30703
www	-8.30718
ຕາມ	-8.30739
ເມືອງ	-8.30871
300	-8.30925
ພິ	-8.31043
▁New	-8.31186
ect	-8.31289
▁17	-8.31396
▁“	-8.31434
ຖານ	-8.31492
sa	-8.3151
▁ລາວ	-8.31555
ຂໍ້	-8.3175
ທີ່ດີທີ່ສຸດ	-8.31973
ມະ	-8.3204
▁Free	-8.32131
unt	-8.32215
ລະບົບ	-8.32295
▁ອຸປະກອນ	-8.32296
▁14	-8.32371
ລະດັບ	-8.32388
ain	-8.3291
ity	-8.32943
ນິ	-8.33029
ໂປ	-8.33264
ທຸລະກິດ	-8.33276
▁http	-8.33374
av	-8.33442
ash	-8.3359
qu	-8.33731
pt	-8.33939
ລັດ	-8.3398
ok	-8.34252
▁ຕໍ່ໄປ	-8.3432
▁Be	-8.34323
ຕິດຕໍ່	-8.34344
▁Tag	-8.34492
ep	-8.34645
99	-8.34692
gra	-8.34731
ve	-8.34741
▁Pa	-8.34842
ຫນາ	-8.34955
ຕອບ	-8.35054
ບັນ	-8.35084
ອາກາດ	-8.35089
▁Ba	-8.35101
▁ນໍາ	-8.35125
EN	-8.35155
ox	-8.35613
້ມ	-8.35806
ວງ	-8.35862
China	-8.3597
ທະ	-8.36257
▁ma	-8.36274
ure	-8.36354
ເຊັ່ນ	-8.36416
▁ລະ	-8.36495
▁21	-8.36652
▁App	-8.36761
▁Gra	-8.36863
▁ຈໍາ	-8.36864
33	-8.36885
▁ລະບົບ	-8.3693
US	-8.36975
ດາ	-8.37049
▁Se	-8.37426
ຮຽນ	-8.3769
24	-8.38247
▁Koh	-8.38315
▁Machine	-8.38611
22	-8.38719
▁13	-8.38794
▁ລາຍລະອຽດ	-8.38839
tra	-8.38928
້ອງ	-8.38928
ort	-8.39053
▁LED	-8.39165
▁ຖົງ	-8.39208
ຊັ້ນ	-8.39361
▁be	-8.39574
*	-8.39645
ust	-8.39824
MP	-8.39844
▁Rong	-8.40058
ame	-8.40072
q	-8.40074
nc	-8.40386
ou	-8.40455
ເທ	-8.40467
po	-8.40549
ood	-8.40642
ສິ	-8.40676
ສະຫນອງ	-8.40677
ເຈົ້າ	-8.40697
ຝຸ່ນ	-8.40724
ner	-8.40989
ນັ້ນ	-8.41014
ບັນຊີ	-8.41371
86	-8.41471
old	-8.41489
ສະຫ	-8.4166
ທັງ	-8.41857
ton	-8.41947
▁ຕົວ	-8.42141
▁ຊຸດ	-8.42377
OR	-8.42539
ຮູບແບບ	-8.42628
▁ສາ	-8.42643
ສຸດ	-8.42754
▁ລາ	-8.42898
▁ພາ	-8.43042
ລົງ	-8.4311
▁To	-8.43258
hu	-8.43426
88	-8.43525
oujian	-8.43555
hen	-8.43567
▁ທໍ່	-8.43606
ຍາວ	-8.43685
▁ເພື່ອ	-8.43781
▁ວິທີການ	-8.43832
ເດືອນ	-8.43889
65	-8.43921
ໄດ້ຮັບການ	-8.44089
ແກ້ວ	-8.44138
LE	-8.44164
58	-8.44167
ມິ	-8.44327
▁Industrial	-8.44454
ess	-8.44478
▁pro	-8.44525
▁Fl	-8.44533
ກະດານ	-8.44613
▁60	-8.44775
+	-8.44841
ວນ	-8.4495
ແຜ່ນ	-8.45116
tattoos	-8.45127
▁ລາຄາຖືກ	-8.45132
▁ຜ້າ	-8.45179
ຈີນ	-8.45251
▁Di	-8.45335
ga	-8.45346
mb	-8.45423
da	-8.45425
ສາ	-8.45476
ear	-8.45505
CH	-8.45559
ປະຕູ	-8.4557
pr	-8.45832
ile	-8.45909
sta	-8.45956
ຈາກຈີນ	-8.45978
▁East	-8.45987
be	-8.46084
ຮູ້	-8.4634
2019	-8.46364
ມີຄວາມ	-8.46367
▁Ra	-8.46379
ປະຕິບັດ	-8.46404
pl	-8.465
▁An	-8.46538
ຮ່ວມ	-8.4654
▁Pulse	-8.46698
ake	-8.46757
▁ຂໍ້	-8.46829
ບ້ານ	-8.46862
ວຽກ	-8.46979
ດ້ານ	-8.47075
tor	-8.47296
kg	-8.47432
ເຄ	-8.47558
ວິດີໂອ	-8.47673
▁ຕິດຕໍ່ຕອນນີ້	-8.4769
▁you	-8.47801
▁sp	-8.47872
ແຕ່	-8.47978
▁Manufacturer	-8.48027
ອອນໄລນ໌	-8.48027
ເຄື່ອງຈັກ	-8.48188
່ອງ	-8.48304
oc	-8.48521
▁°	-8.48536
ເກມ	-8.486
ເມ	-8.48738
▁Al	-8.48766
ium	-8.48816
ຂາຍ	-8.48817
▁ຮູບພາບ	-8.48822
ເພີ່ມເຕີມ	-8.48824
▁ວິທະຍາໄລ	-8.48829
▁ທໍາ	-8.48834
▁Un	-8.48855
ແລ້ວ	-8.4899
ical	-8.48997
48	-8.49007
IC	-8.49147
IT	-8.4919
▁ເອ	-8.49305
port	-8.49337
bu	-8.49466
ປ່ຽນ	-8.49654
ລູກຄ້າ	-8.49654
xi	-8.49716
▁ຫ້ອງ	-8.49919
ການນໍາໃຊ້	-8.5
ຮູບ	-8.50025
ທໍ່	-8.50052
ອາທິດ	-8.50056
ue	-8.50155
out	-8.50189
34	-8.50267
▁ລົດ	-8.50274
▁ແລະອື່ນໆ	-8.50345
ຜ້າ	-8.50499
ອຸດສາຫະກໍາ	-8.5063
▁Air	-8.50788
ເຕີ	-8.50806
ເກັບ	-8.50825
ull	-8.50881
▁2014	-8.50923
ຕີ	-8.51098
3}	-8.51105
▁ພາສາລາວ	-8.51171
ບານ	-8.51274
▁ອ່ານ	-8.5148
▁City	-8.51605
ລວມ	-8.51831
▁ກົດ	-8.52112
▁Tra	-8.52133
ib	-8.52212
▁ຫນຶ່ງໃນ	-8.5224
ord	-8.52256
ແລະຜູ້ຜະລິດ	-8.52278
▁ບໍລິສັດ	-8.52323
ບັດ	-8.52342
▁{_	-8.52362
▁ໂທ	-8.52379
ຫນັງ	-8.52405
▁Line	-8.52478
ank	-8.52788
pa	-8.52846
ສະເຫນີ	-8.52875
if	-8.52935
du	-8.53075
ສັດ	-8.53078
▁~	-8.53114
iv	-8.53156
ເພີ່ມ	-8.5322
ea	-8.53294
▁ມັງກອນ	-8.53393
her	-8.53691
ຊົນ	-8.53756
▁Th	-8.5381
ix	-8.53872
0%	-8.53884
ວດ	-8.53892
ສຽງ	-8.53914
▁2013	-8.54053
ວັດສະດຸ	-8.54088
ອີເມວ	-8.54088
ບົດ	-8.54157
ເບິ່ງ	-8.54314
str	-8.54336
▁ສ່ວນ	-8.54386
ແລ	-8.54486
ອັດ	-8.54543
▁USD	-8.54648
ັ່ງ	-8.54674
ບາ	-8.54742
ສະຖານທີ່	-8.5482
▁22	-8.54914
▁For	-8.54931
the	-8.55077
98	-8.55126
ຖື	-8.55168
▁Bo	-8.55348
▁Mark	-8.5535
ພັກ	-8.55495
▁ແຕ່	-8.55515
ated	-8.55535
ຸນ	-8.55641
app	-8.55681
ng	-8.558
▁ອາ	-8.55866
ec	-8.55875
▁Wholesale	-8.5606
▁Tattoos	-8.56147
MA	-8.56156
les	-8.56215
38	-8.56347
ເບີ	-8.56789
57	-8.568
▁Webtalk	-8.56918
▁ຄວາມຫມາຍ	-8.56968
line	-8.5727
ທົ່ວໄປ	-8.57277
ເຮືອນ	-8.57342
56	-8.57347
ຕ້ອງ	-8.57545
ຂຽນ	-8.57638
fe	-8.57914
ສິ່ງ	-8.57989
▁Press	-8.58139
▁ISO	-8.58202
▁ເຮົາ	-8.58262
ລາຄາ	-8.58325
AT	-8.58342
ລາຄາຕໍ່າ	-8.58363
ນີ	-8.58504
ຊື່	-8.58574
▁Web	-8.58643
ແຜນ	-8.58729
▁ເຈົ້າ	-8.5876
▁ມີຄຸນນະພາບສູງ	-8.58772
ຟຣີ	-8.58938
▁500	-8.59034
37	-8.59198
ຢືນ	-8.59277
▁ຫາ	-8.59382
EC	-8.5941
ເຂດ	-8.59446
mi	-8.59643
▁ນໍາໄປສູ່	-8.59645
ET	-8.59802
ສູນ	-8.59834
▁Mar	-8.59994
500	-8.60026
ເຮົາກໍາລັງພິເສດ	-8.60027
▁ຢູ່	-8.60034
26	-8.60308
ທິ	-8.60423
ປະກອບ	-8.60425
ຄໍາ	-8.60508
▁Tags	-8.60569
ID	-8.60679
cy	-8.60711
▁Gu	-8.60736
▁'	-8.60939
▁•	-8.61103
▁WordPress	-8.61131
ish	-8.61252
ວິ	-8.61278
▁Home	-8.61361
ke	-8.61504
▁Power	-8.6151
gen	-8.6155
85	-8.61596
ຈັກ	-8.61652
▁ເຄື່ອງພິມ	-8.61752
▁Pe	-8.61786
hy	-8.61792
ແທ	-8.61951
dge	-8.62026
har	-8.62044
ດິນ	-8.62075
atch	-8.62202
ຮ້ອນ	-8.62296
ee	-8.62357
ສະຫນັບສະຫນູນ	-8.62435
▁Star	-8.6246
▁Sol	-8.62605
ທີ່ສຸດ	-8.62625
໌	-8.62637
ct	-8.62687
ti	-8.62778
ຕ່ໍາ	-8.62829
▁ຖະຫນົນ	-8.6302
ຈໍານວນ	-8.63351
ໃສ່	-8.63593
ພາຍໃນ	-8.63604
ຊິ	-8.63618
ຂ່າວ	-8.63733
▁District	-8.63785
▁Lao	-8.63836
ປະເພດທຸລະກິດ	-8.63918
77	-8.63955
ູ້	-8.63982
▁ຈະ	-8.64095
ຕະຫຼາດ	-8.64363
iz	-8.64386
top	-8.64537
ld	-8.64627
▁ຍີ່ຫໍ້	-8.64645
ເອ	-8.64743
lock	-8.64804
board	-8.64807
▁Main	-8.65003
ເດ	-8.65106
▁ສີດໍາ	-8.6514
ສູງສຸດ	-8.65235
66	-8.6533
51	-8.65332
▁ວິ	-8.65409
IS	-8.65612
ຊີວິດ	-8.65725
ark	-8.65728
▁ອຸດສາຫະກໍາ	-8.66153
\	-8.66192
▁Ne	-8.66218
ຈຸດ	-8.66218
ເຊີ	-8.66252
▁Series	-8.66317
▁Bu	-8.66374
ກອງ	-8.66445
800	-8.66455
ຊາຍ	-8.66555
oo	-8.6662
ຫ້ອງ	-8.667
ase	-8.66725
cc	-8.6678
95	-8.66812
▁ແຜ່ນ	-8.66874
ເຄື່ອງມື	-8.66892
ຄັ້ງ	-8.66907
▁ຈໍານວນ	-8.66959
▁Theme	-8.66997
▁Mobile	-8.67106
ການຝຶກອົບຮົມ	-8.67122
ໂມ	-8.67127
▁Q	-8.67237
▁ໃຊ້	-8.67246
ຄືນ	-8.6726
▁40	-8.67294
rn	-8.67296
ob	-8.67435
ເກ	-8.67484
▁×	-8.67522
ຂະຫນາດ	-8.67681
ກົດ	-8.67726
ເພ	-8.67781
ook	-8.67908
act	-8.67914
ວັນທີ	-8.68151
tv	-8.68179
lan	-8.68314
ບາງ	-8.6833
▁Car	-8.68537
ci	-8.686
▁ປະເພດຜະລິດຕະພັນ	-8.68658
▁Live	-8.68692
▁Wall	-8.68727
▁RN	-8.68739
▁ລິ	-8.68815
ພະ	-8.68837
▁Black	-8.68911
ການອອກແບບ	-8.68939
ສະລັອດຕິງ	-8.69112
ຮ້ານ	-8.69113
ບັນຈຸ	-8.69124
ວາວ	-8.6917
ເບ	-8.69175
ໂຕ	-8.69266
ອື່ນ	-8.69493
ຕ່າງໆ	-8.69538
ອຍ	-8.69544
car	-8.69549
own	-8.69724
▁€	-8.69727
net	-8.70055
ເຮັດວຽກ	-8.70128
ເຄືອບ	-8.7013
©	-8.70206
ຢາງ	-8.70354
tu	-8.70376
ven	-8.70482
ຸ່ມ	-8.70697
ແນວ	-8.70751
ສື	-8.70793
land	-8.70918
▁Ningbo	-8.70953
RO	-8.71055
ric	-8.71179
ຕ້ອງການ	-8.71199
▁Slot	-8.71258
▁ຟຣີ	-8.71336
▁ນ້ໍາຫນັກ	-8.71538
▁ຄາສິໂນ	-8.71601
39	-8.71866
ກໍານົດ	-8.7199
ເດັກນ້ອຍ	-8.71997
ink	-8.72007
ເນ	-8.72123
▁Win	-8.72211
ການຄ້າ	-8.72234
PS	-8.72266
▁ບັດ	-8.72315
▁Qu	-8.72483
▁CO	-8.72494
▁ຜູ້ສົ່ງອອກ	-8.72618
ຕ້ານ	-8.72619
ພຽງແຕ່	-8.72626
ທໍາອິດ	-8.72779
44	-8.7287
▁En	-8.72899
-8	-8.73049
▁withoutwax	-8.73249
ຈໍາກັດ	-8.73322
ພວກເຂົາ	-8.73324
gu	-8.73376
ເຫມາະສົມ	-8.7346
▁ຮຸ່ນ	-8.7346
▁Cheats	-8.73621
ress	-8.73657
▁Dr	-8.73688
▁ພະ	-8.73724
ຫຼັກ	-8.73728
ໂຄ	-8.738
£	-8.73969
che	-8.74026
ແປ	-8.74159
▁tr	-8.743
▁He	-8.74349
ຂ້ອຍ	-8.74524
ສາມ	-8.74634
ນອກ	-8.74714
RA	-8.74756
ື່ອ	-8.74846
ອອກແບບ	-8.74876
ກໍາລັງ	-8.74939
ພະລັງງານ	-8.74968
ພີ	-8.75062
ພິເສດ	-8.75153
ການບໍລິການ	-8.75384
’	-8.75599
ຕິດຕາມ	-8.75684
Hebei	-8.75816
ສໍາເລັດ	-8.75816
100	-8.75905
AP	-8.76014
ເຊິ່ງ	-8.76033
▁23	-8.76049
ທັນ	-8.76097
ຜູ້ຜະລິດ	-8.76151
ບິນ	-8.763
ft	-8.76386
61	-8.76764
600	-8.76821
ສະແຕນເລດ	-8.76905
ເວົ້າ	-8.76905
▁ການທົບທວນຄືນ	-8.76905
64	-8.76956
ni	-8.77051
ການສຶກສາ	-8.77097
mon	-8.77122
ຂະຫຍາຍ	-8.77125
ເສື້ອ	-8.77125
ance	-8.77154
▁ດີ	-8.77262
▁ພະລັງງານ	-8.77329
ກິລາ	-8.77345
ປ້ອງກັນ	-8.77565
▁Laser	-8.77577
▁ຫນາດ	-8.77632
68	-8.77683
▁ການຫຸ້ມຫໍ່	-8.77785
SS	-8.77836
▁=	-8.77891
ຮອງ	-8.77922
▁ຫມົດ	-8.78007
່າງ	-8.78069
ຊື້	-8.78173
▁ຫຼິ້ນ	-8.78185
ເປ	-8.78219
ມາດຕະຖານ	-8.78228
ຕຸລາ	-8.78305
▁1000	-8.78326
▁28	-8.78497
wi	-8.78508
▁ຮູບ	-8.78674
ext	-8.78729
▁ມມ	-8.78894
EL	-8.78908
ຕໍ່ໄປ	-8.79045
0,000	-8.79244
ao	-8.79283
76	-8.79359
ໂລ	-8.798
▁ໃຫມ່	-8.79829
ຊາ	-8.79835
OS	-8.79848
41	-8.79949
▁ຕິດ	-8.79951
ໂທລະສັບ	-8.80138
au	-8.8025
zhou	-8.80258
ບົດຄວາມ	-8.80384
ຫນ່ວຍ	-8.80473
▁fl	-8.80713
ert	-8.80765
org	-8.80785
▁Jet	-8.80871
ome	-8.80994
ev	-8.81377
PE	-8.81444
▁ທະ	-8.81499
ໄລຍະ	-8.81638
ກັດ	-8.81811
ໂທ	-8.81922
aw	-8.81946
wa	-8.82232
ດຽວ	-8.8226
ຕົ້ນ	-8.82288
tattoo	-8.82415
ປັບ	-8.82638
74	-8.82698
ແສງ	-8.82771
ES	-8.82833
ປະຈໍາ	-8.82911
ສູດ	-8.83007
ມັດ	-8.83104
52	-8.83155
▁86-	-8.83247
TE	-8.8333
▁Blue	-8.83474
ພື້ນທີ່	-8.83488
ຕອນ	-8.83669
▁Technology	-8.83703
ເລກ	-8.83771
▁QR	-8.83902
▁We	-8.84016
42	-8.84079
▁ນາ	-8.84148
ເງິນຝາກ	-8.84173
SA	-8.84273
▁Ge	-8.84766
ຕາຕະລາງ	-8.84882
ເທິງ	-8.84883
ໂກ	-8.84886
▁Type	-8.84886
eck	-8.84951
air	-8.84965
ກວ່າ	-8.85039
46	-8.85107
ik	-8.85131
ການກັ່ນຕອງ	-8.85146
rus	-8.85215
ous	-8.85229
▁ສີຂາວ	-8.85241
▁ທີ່ໃຊ້ເວລາ	-8.85358
ຊອບແວ	-8.85358
▁ດາວ	-8.85403
ຮູບພາບ	-8.85432
ຜູ້ຊາຍ	-8.85551
pi	-8.85592
ran	-8.8567
▁ອອນໄລນ໌	-8.85796
ຊົມ	-8.85836
▁Cyclone	-8.85836
▁Ho	-8.85873
▁ຂະ	-8.86005
lin	-8.8604
ice	-8.86045
67	-8.86056
ອຸ	-8.86063
ປົກ	-8.86075
ັ່ນ	-8.86119
CA	-8.86251
▁26	-8.86307
ລະຫວ່າງ	-8.86342
47	-8.86415
ຂີ້ຝຸ່ນ	-8.86536
▁ໂທລະ	-8.86555
ພຣະ	-8.86557
ປະທານ	-8.86562
ji	-8.86765
▁so	-8.86981
ເມື່ອ	-8.87122
ລູກ	-8.87291
▁ເວັບໄຊທ໌	-8.87321
-5	-8.87512
ຈ່າຍ	-8.87553
ການເດີນທາງ	-8.8777
▁	-8.87829
ov	-8.87853
ອະ	-8.8793
ພື້ນ	-8.8797
▁Online	-8.88015
ວີ	-8.88108
ml	-8.8815
rop	-8.88223
ບັນທຶກ	-8.8826
ຄອມພິວເຕີ	-8.8826
▁ທົດລອງ	-8.8826
▁ຫນູນ	-8.88261
▁ກ່ອງ	-8.88325
ວົງ	-8.88506
low	-8.88706
ກອງປະຊຸມ	-8.88757
-6	-8.88935
ລົດໄຟ	-8.89144
59	-8.89203
ຕິດຕໍ່ຕອນນີ້	-8.8922
▁Worldwide	-8.89246
▁start	-8.89278
49	-8.8932
ລະຫັດ	-8.89485
aft	-8.89508
ຂາ	-8.89561
▁Cert	-8.89668
und	-8.89967
ool	-8.89985
ຢ້ຽມຢາມ	-8.89993
ສັງຄົມ	-8.89993
▁Fiber	-8.89996
ize	-8.90041
ບໍ	-8.90082
"&	-8.90184
less	-8.90197
ອຸນຫະພູມ	-8.90243
ເຄືອຂ່າຍ	-8.90243
ka	-8.90486
▁ເມສາ	-8.90518
900	-8.9071
ຖະ	-8.90735
ຕົວຢ່າງ	-8.90785
▁\	-8.90902
ຄື	-8.90986
ງ່າຍ	-8.90998
ການພັດທະນາ	-8.91038
78	-8.91129
▁ຢາງ	-8.9117
ແມ່	-8.91172
▁Straightener	-8.91249
ສໍາ	-8.9142
$	-8.91454
▁ຜູ້ຈໍາຫນ່າຍ	-8.91518
▁ອິດ	-8.91539
TH	-8.91588
ໄວ້	-8.91596
▁24)	-8.91699
ຊ່ວຍ	-8.91748
ສຸກ	-8.9175
▁Feeder	-8.91756
ພັດທະນາ	-8.91968
ທໍາມະຊາດ	-8.9201
ເຕັກໂນໂລຊີ	-8.9201
▁ໂທລະສັບມືຖື	-8.92232
43	-8.92239
ຫຼິ້ນ	-8.92316
ifi	-8.92332
ຕ່າງ	-8.92348
▁ເບິ່ງ	-8.92446
▁Plastic	-8.92521
ຄຸນນະພາບ	-8.9255
▁USB	-8.92559
use	-8.92567
ເຫດ	-8.9263
▁ສິງຫາ	-8.92778
-0	-8.9278
over	-8.92827
work	-8.93039
ເຊື່ອມຕໍ່	-8.93112
63	-8.93482
ular	-8.93504
▁ຫມາຍ	-8.93509
▁100%	-8.93548
▁LAK	-8.93554
▁Tube	-8.93555
ການປັບປຸງ	-8.93792
ສະຫະລັດ	-8.9381
ling	-8.93947
for	-8.94048
▁CNC	-8.94105
▁ຂາຍ	-8.94158
RI	-8.94205
load	-8.94207
NE	-8.94265
▁FIMT	-8.9433
▁iPhone	-8.9433
RE	-8.94342
ກວດ	-8.94404
ເກີດ	-8.94592
▁with	-8.94605
54	-8.94801
ນ້	-8.94855
▁West	-8.94883
▁ຊື້	-8.94921
ຂະ	-8.94992
ອັງກິດ	-8.95115
ໂຮງງານຜະລິດ	-8.95264
▁PVC	-8.9539
▁ຄວາມຄິດເຫັນທີ່	-8.95399
▁Up	-8.95439
89	-8.9552
▁Pre	-8.9558
ປະສິດທິພາບ	-8.95642
▁ສັບ	-8.95729
des	-8.95991
lic	-8.96104
ຫຍັງ	-8.96124
▁All	-8.96178
uck	-8.96201
ຄອນ	-8.96222
94	-8.96355
ຄວາມຮ້ອນ	-8.96387
▁Servo	-8.9644
▁Str	-8.96515
▁ເມ	-8.96623
▁Roulette	-8.96705
ອ່ານ	-8.96748
▁dur	-8.96818
▁EUR	-8.96828
ຂ້າງ	-8.97002
PA	-8.9716
ction	-8.97163
ມື້ນີ້	-8.97245
▁Chat	-8.97316
▁High	-8.97525
▁IP	-8.97546
ຄ່າ	-8.97642
ute	-8.97668
ໂຄສະນາ	-8.97779
▁ພຶດສະພາ	-8.97936
ນໍາໃຊ້	-8.97968
ເສີມ	-8.9801
nic	-8.98022
ສິນຄ້າ	-8.98049
▁Dress	-8.98104
rip	-8.98147
▁Bra	-8.98266
ປະມານ	-8.98322
ແນະນໍາ	-8.98392
ple	-8.98572
ໂຮງແຮມ	-8.98592
qui	-8.98618
▁ດອກ	-8.98716
ປິດ	-8.98874
bar	-8.98901
ຮັກ	-8.99036
▁Flatbed	-8.99138
ລໍ້	-8.9914
69	-8.99295
pp	-8.99299
▁hack	-8.99311
ຊາດ	-8.99429
ແມ່ເຫຼັກ	-8.9944
▁2011	-8.99672
ແຮງດັນ	-8.99686
ລັກ	-8.99836
▁spy	-8.99881
.0.2	-8.99939
ສິດ	-9.00101
▁150	-9.00179
ເຕັມ	-9.00238
ຮູບເງົາ	-9.00238
ound	-9.0025
day	-9.00463
ໄດ້ຖືກ	-9.0049
ove	-9.00554
▁Post	-9.00823
han	-9.00862
ail	-9.00949
▁fabric	-9.01071
az	-9.01248
ຄາດຄະເນ	-9.0135
phone	-9.01381
ath	-9.01458
ລໍາ	-9.01468
SP	-9.01587
▁Asia	-9.01589
ສິ່ງທີ່	-9.01702
ເຂົ້າຮ່ວມ	-9.01713
ແພ	-9.01796
96	-9.01948
▁ມີນາ	-9.02165
▁HD	-9.02171
ແປງ	-9.02174
ຂະຫນາດໃຫຍ່	-9.02256
▁Board	-9.02256
ຊຸດ	-9.02289
▁pm	-9.02466
▁he	-9.02471
ຜົນກະທົບ	-9.02476
ແຮງ	-9.02477
ສັນຍາ	-9.02508
back	-9.0265
ປົກກະຕິ	-9.02759
ມັກ	-9.02834
ເຢັນ	-9.03044
ໂພ	-9.0309
ence	-9.03282
ວິທີ	-9.03301
91	-9.03322
ໄປສະນີ	-9.03328
▁North	-9.03336
ດູດ	-9.0334
▁Comp	-9.0347
ສອນ	-9.03502
ືອ	-9.03527
ສວນ	-9.03563
▁ກັນຍາ	-9.03634
ຫໍ	-9.03879
read	-9.04089
uit	-9.04138
lot	-9.04348
▁Spy	-9.04524
PL	-9.04684
ເຫ	-9.04703
ທາງການ	-9.04718
82	-9.04718
▁Markets	-9.04768
53	-9.04893
ເຈ	-9.04916
ເລີ່ມຕົ້ນ	-9.05064
ກົດຫມາຍ	-9.05152
ອັນ	-9.05159
eb	-9.05209
▁2012	-9.05366
ture	-9.05403
box	-9.05455
▁Mini	-9.05506
ເຊື່ອມ	-9.05566
;&	-9.05587
ເຄື່ອງພິມ	-9.05721
▁your	-9.05753
bra	-9.05837
▁GB	-9.0591
ທີ່ກ່ຽວຂ້ອງ	-9.05929
▁Google	-9.05929
ແຂວງ	-9.0593
▁Charter	-9.05931
71	-9.05937
ek	-9.05973
fu	-9.06033
ຍົກ	-9.06223
bit	-9.06225
▁Tattoo	-9.06315
ແຫ້ງ	-9.06517
▁Tri	-9.06558
}	-9.06919
▁English	-9.07107
ກ່ອນຫນ້ານີ້	-9.07108
ນີ້ແມ່ນ	-9.07114
ຂາວ	-9.0727
▁tattoostattoos	-9.07368
▁Ph	-9.07421
cat	-9.07472
ພູ	-9.07493
ຫລື	-9.0775
87	-9.07766
▁Cam	-9.07838
▁Suppliers	-9.07873
ການປະຕິບັດ	-9.07937
ໃນໄລຍະ	-9.08269
▁ຫນັງສືພິມ	-9.083
ແຈ້ງ	-9.08321
92	-9.08454
97	-9.08547
ກໍ່	-9.08563
72	-9.08609
pper	-9.09111
ຊີ້	-9.09159
໊	-9.09203
-10	-9.09224
ກີ	-9.09258
ector	-9.09414
ING	-9.09458
▁Stainless	-9.09506
▁Price	-9.09516
▁Cage	-9.09882
ໃນປີ	-9.09966
ary	-9.1009
▁Call	-9.10411
ຊອກຫາ	-9.10421
ຂະຫນາດນ້ອຍ	-9.10584
vo	-9.10603
84	-9.10688
ອາເມລິກາ	-9.10728
ເອກະສານ	-9.10728
ຈິງ	-9.10728
ປ້າຍ	-9.10733
▁Contact	-9.10742
ອິ	-9.10816
ບັນຫາ	-9.10829
que	-9.10931
ເດັກ	-9.11097
ຕິດຕັ້ງ	-9.11104
ຖືກຕ້ອງ	-9.11131
tro	-9.11137
ທຶນ	-9.11177
▁Jo	-9.11273
ສໍາຫລັບ	-9.11345
ລາງວັນ	-9.11349
▁Park	-9.11623
ware	-9.11825
par	-9.11872
ຕົນເອງ	-9.12133
62	-9.12191
lat	-9.12264
ຍິງ	-9.12269
ພະນັກງານ	-9.12276
▁ກຸມພາ	-9.123
ໂທລະສັບມືຖື	-9.12356
UN	-9.12508
LI	-9.12586
ດໍາເນີນ	-9.12588
ລັກສະນະ	-9.12588
view	-9.12591
ນ້ອຍ	-9.12716
SH	-9.1272
້ໍາ	-9.12885
ຄວາມປອດໄພ	-9.129
▁PTFE	-9.12902
▁Zhejiang	-9.12902
▁Download	-9.12902
ພ້ອມ	-9.12902
ເຂົາ	-9.13093
Hz	-9.13465
ໂຊ	-9.13479
▁pre	-9.13503
▁ວິນາທີ	-9.13532
ຄົ້ນຫາ	-9.13848
ຈໍາ	-9.13909
▁Print	-9.1409
ທີ່ຢູ່	-9.14141
▁ນິ້ວ	-9.14166
▁FREE	-9.14166
▁XXL	-9.14378
duct	-9.14396
ບໍລິ	-9.14504
ການເຮັດວຽກ	-9.14569
93	-9.14604
ວຍ	-9.1464
▁Aluminum	-9.14804
▁RFC	-9.14813
ບໍ່ແມ່ນ	-9.14977
ose	-9.15008
ren	-9.15027
▁ຜົງ	-9.15124
▁ຫະ	-9.15288
▁America	-9.15446
ໂນ	-9.15489
▁Test	-9.15719
▁ຜູ້ສະຫນອງ	-9.15867
ຄວບຄຸມ	-9.15902
81	-9.16073
form	-9.16206
ຈັນ	-9.16264
▁Light	-9.16301
ສາດ	-9.16472
ah	-9.16672
ຫລັກ	-9.16694
ປ່ອຍ	-9.16743
▁Road	-9.17016
▁Double	-9.17069
▁ກະລຸນາ	-9.17069
ໃນປັດຈຸບັນ	-9.17163
▁Conveyor	-9.17397
▁Vaccine	-9.17397
ໂຮງຮຽນ	-9.17414
ລວມທັງ	-9.1744
▁Hua	-9.17462
ການປິ່ນປົວ	-9.17628
{	-9.17722
▁Shenzhen	-9.17726
ຫມາຍ	-9.17909
ຄ່າໃຊ້ຈ່າຍ	-9.18021
▁Microsoft	-9.18056
▁Custom	-9.18056
ບ່ອນ	-9.18072
ຄະນະ	-9.18077
0.1	-9.1836
ໃຕ້	-9.18387
ຊົ່ວໂມງ	-9.18387
ສີແດງ	-9.18387
▁ໂຫລດ	-9.18387
▁Idea	-9.18402
73	-9.18426
0.0	-9.1862
▁Forex	-9.19127
ຂໍ	-9.19231
ບຸກຄົນ	-9.19416
▁Polyester	-9.19723
ກ່ອນ	-9.19726
ເວັບ	-9.20067
ວະ	-9.20083
▁Art	-9.20094
hat	-9.201
ສຸຂະພາບ	-9.20397
ເຟສບຸກ	-9.20397
ເຊື້ອ	-9.20398
ຫລາຍ	-9.20418
▁20%	-9.2047
ller	-9.20481
ຂັບ	-9.20697
ສະບັບ	-9.20734
▁Rotary	-9.20737
ຄຸນນະພາບສູງ	-9.20955
ນອນ	-9.21061
ກໍລະນີ	-9.21076
ການຂາຍ	-9.21266
zz	-9.21344
5%	-9.21392
▁XXXL	-9.21418
ED	-9.21569
ສົນທະນາ	-9.2176
ແມ່ຍິງ	-9.21775
ງາມ	-9.21778
ການຄວບຄຸມ	-9.21961
▁ພະຈິກ	-9.22104
▁Square	-9.22104
▁ລ້ານ	-9.22104
▁PDF	-9.22118
ave	-9.22159
ມົນ	-9.22392
ເຊົ່າ	-9.22445
ເງື່ອນໄຂ	-9.22449
ທິດ	-9.22562
IF	-9.2263
ຍະ	-9.22995
ຜະ	-9.23012
ຄວາມຕ້ອງການ	-9.23013
lim	-9.23027
ເວັບໄຊທ໌	-9.23088
ປະຊາຊົນ	-9.23155
ຫລັງ	-9.23326
HO	-9.23384
umb	-9.23415
ຮາ	-9.23459
ı	-9.2349
ປະໂຫຍດ	-9.2349
▁ມິຖຸນາ	-9.2349
ສະບັບເລກທີ	-9.2349
uk	-9.2362
▁Email	-9.2364
ນ້ໍາມັນ	-9.2378
▁br	-9.23804
ບັນດາ	-9.23897
▁Anti	-9.24155
→	-9.24191
▁Global	-9.24191
▁WhatsApp	-9.24191
ແຟ	-9.24426
ຂີ້ເຫຍື້ອ	-9.24543
ຂັ້ນຕອນ	-9.24556
UR	-9.24668
hai	-9.24893
▁Sheet	-9.24902
pcs	-9.25046
▁ອຸປະກອນການ	-9.25052
ລົມ	-9.25251
ລອງ	-9.25365
ກວດສອບ	-9.25607
ການປ່ຽນແປງ	-9.25607
ແຂງ	-9.25609
ຫມາກ	-9.2562
ອາດຈະ	-9.25761
HT	-9.25851
ປູ	-9.25857
ໂດຍກົງ	-9.25879
ກິດຈະກໍາ	-9.25964
ເນື້ອ	-9.25964
ມ້ວນ	-9.25965
▁Whiteboard	-9.26334
ທີ່ທ່ານ	-9.26359
ເຊື່ອ	-9.26383
▁ກອນ	-9.26644
ຫຼັງຈາກ	-9.2666
ດາວໂຫຼດ	-9.26682
ປະສົບການ	-9.26682
ຄໍາຖາມ	-9.26682
▁ທັນວາ	-9.26687
▁Other	-9.26691
1.5	-9.26732
ວິທີການ	-9.26949
9001,	-9.27055
ທ້າຍ	-9.27211
way	-9.27504
ຍິນດີຕ້ອນຮັບ	-9.27769
▁Pump	-9.27774
▁OEM	-9.27774
ສິດທິ	-9.27793
▁ເຄື່ອງຕັດ	-9.27798
▁+86	-9.27967
OT	-9.27999
ກວ້າງ	-9.28134
ປ່ຽງ	-9.28134
▁Laotian	-9.28134
ກິດ	-9.28159
ຈັບ	-9.2827
play	-9.28371
ຄວາມກົດດັນ	-9.285
ຊ່ວຍເຫຼືອ	-9.28512
ນາງ	-9.28752
▁ອາດ	-9.28822
shan	-9.28831
ເພງ	-9.28859
ກ່າວ	-9.28871
mail	-9.28902
▁Mac	-9.29241
zo	-9.29386
hand	-9.29553
ນົມ	-9.29607
▁motor	-9.29621
ເວັບໄຊ	-9.29979
ກ່ຽວກັບການ	-9.30169
▁Smart	-9.30357
▁Group	-9.30728
▁can	-9.30814
ຄັດ	-9.30955
ຊ່ອງ	-9.31035
ike	-9.31138
1%	-9.31313
▁Cap	-9.31378
ສ້າງຕັ້ງຂຶ້ນ	-9.3148
ade	-9.31533
ຮ້ອງ	-9.31645
ຄວາມຄິດເຫັນ	-9.31829
▁tattoostattoo	-9.31832
ຕື່ມ	-9.31859
é	-9.31859
ຫນ້າຈໍ	-9.3186
▁Phone	-9.31918
rate	-9.31943
hang	-9.32119
ຣິ	-9.32201
ສາຍແອວ	-9.32239
ຂື້ນ	-9.32239
ພືດ	-9.3224
▁ນາທີ	-9.32363
▁Mold	-9.32583
▁Caribbean	-9.32621
▁that	-9.32801
ຟລີ	-9.32839
ທີ່ດີ	-9.32874
AI	-9.32983
Guangdong	-9.33004
▁Africa	-9.33004
▁David	-9.33004
ຜິວ	-9.33389
▁Copier	-9.33389
2016	-9.3362
ການແກ້ໄຂ	-9.3395
▁Mill	-9.33954
ຄໍາສັ່ງ	-9.34162
best	-9.34258
ແກ່	-9.34329
▁Middle	-9.34551
▁APK	-9.34585
ພື້ນຖານ	-9.3459
ທີ່ແທ້ຈິງ	-9.34942
ວິທະຍາສາດ	-9.34942
≤	-9.34942
ເມັດ	-9.35139
ເຮືອ	-9.35178
▁Samloem	-9.35334
▁Cont	-9.35421
ປະເພດຂອງ	-9.35537
ກຸ່ມ	-9.3568
ຂັ້ນ	-9.35713
ກະເປົ໋າ	-9.35728
▁Street	-9.3573
▁Super	-9.3574
83	-9.35917
CN	-9.36053
▁System	-9.36123
ກາເຟ	-9.36123
▁Play	-9.3636
ຫ້ອງການ	-9.36634
ທໍາ	-9.36675
cial	-9.36805
ທາງດ້ານ	-9.36806
-01	-9.36842
€	-9.36907
▁Chalkboard	-9.36918
▁0086-	-9.3692
Shirt	-9.36924
ວິຊາ	-9.37001
▁ກ່ຽວກັບພວກເຮົາ	-9.37071
▁UK	-9.37253
▁Blockchain	-9.37318
▁Oceania	-9.37318
▁Company	-9.37319
ແຂນ	-9.37323
ຮັກສາ	-9.37384
▁Flash	-9.37384
utter	-9.37488
ການພິມ	-9.37716
ອົງການ	-9.3772
ການພະນັນ	-9.37721
UL	-9.37922
Exp	-9.38105
ເຢຍລະມັນ	-9.38123
ຕົ້ນຕໍ	-9.38123
▁design	-9.38123
ຫມຶກ	-9.38123
ເຈ້ຍ	-9.38123
ອາຍຸ	-9.38125
▁Video	-9.38127
ຄົ້ນຄວ້າ	-9.38528
ເຫຼືອ	-9.38562
ຈັດການ	-9.38735
ຄວນ	-9.38808
▁Case	-9.38884
ຍົນ	-9.39174
▁reply	-9.39343
▁Photo	-9.39345
ຫນ້ອຍ	-9.39556
ແຫ່ງຊາດ	-9.39632
ຈຸ	-9.3966
▁Skeleton	-9.39752
ພໍ	-9.39802
ລຸ້ນ	-9.40096
ພົບ	-9.40164
▁Bitcoin	-9.40164
▁Français	-9.40164
ເກີບ	-9.40166
▁1500	-9.40177
79	-9.40198
ຂໍ້ຄວາມ	-9.40538
ວິທະຍາໄລ	-9.40564
▁ບົບ	-9.40577
▁Digital	-9.40577
▁Solenoid	-9.40577
▁Hyp	-9.40685
▁game	-9.40812
▁Zone	-9.40838
ສັນ	-9.40882
▁Dry	-9.4089
ສາກົນ	-9.41
lip	-9.4102
eye	-9.41171
ແກ້ໄຂ	-9.4122
cks	-9.41325
ສັກ	-9.41345
ເອີຣົບ	-9.41409
ກົງ	-9.41508
▁wordpress	-9.41827
ຄະນະກໍາມະ	-9.42247
ລົງທະບຽນ	-9.42247
▁csgo	-9.42249
ມຸງ	-9.42257
▁Poly	-9.42271
0.3	-9.42313
ໃນເວລາທີ່	-9.42424
▁Long	-9.42435
ຂອງຕົນ	-9.42445
ທ່ານຈະ	-9.42471
▁2010	-9.4252
ຖ້າຫາກວ່າ	-9.42669
▁admin	-9.42714
▁You	-9.42937
ສີຂາວ	-9.43003
imp	-9.43003
▁spring	-9.43097
ມືຖື	-9.43312
cent	-9.43321
▁Samsung	-9.43518
cha	-9.43694
cker	-9.43778
▁Magnetic	-9.43946
ປັບປຸງ	-9.43976
ເຄມີ	-9.44234
2.5	-9.44326
ible	-9.44331
ປະລິມານ	-9.44375
ໂຄມໄຟ	-9.44375
ຊະນະ	-9.44375
▁ກໍລະກົດ	-9.44806
▁Honda	-9.44808
▁Multi	-9.44816
ນະໂຍບາຍ	-9.45238
ປ້ອນ	-9.4524
▁Software	-9.45247
2.0	-9.45357
▁ມາດ	-9.45538
ບໍ່ໄດ້	-9.45548
ເອງ	-9.45806
press	-9.45828
▁ຄວາມຫນາ	-9.45919
ຊ່ຽວຊານ	-9.4611
ມືອາຊີບ	-9.46111
▁And	-9.46191
ION	-9.46325
ທ່ອງທ່ຽວ	-9.46549
▁Muay	-9.46553
▁ຄຸນ	-9.4658
▁ຕຸ	-9.46607
ກາວ	-9.4688
ອະນຸ	-9.4699
ພະຍາດ	-9.46991
ness	-9.47288
▁University	-9.47432
engrui	-9.47432
ຫມູ່	-9.47433
▁Box	-9.47453
ປັດ	-9.47795
ເລີ່ມ	-9.47862
ຄົງ	-9.47876
ຫຼ້າສຸດ	-9.48323
ມະນຸດ	-9.48323
ນໍ້າ	-9.48396
▁Seal	-9.48644
ໃກ້	-9.48771
▁casino	-9.48771
ü	-9.48771
ທົນທານ	-9.48771
▁Key	-9.48797
▁Single	-9.48801
11%	-9.4884
▁iOS	-9.48842
▁Auto	-9.4886
▁Motor	-9.48898
ພາກສ່ວນ	-9.48918
ດິຈິຕອນ	-9.49222
▁Italian	-9.49222
ຫຼາຍກວ່າ	-9.4932
▁Products	-9.5013
▁Micro	-9.50135
ລາຍລະອຽດ	-9.50384
ຊາວ	-9.50414
▁kr	-9.50523
ໂຮງ	-9.50528
ສົດ	-9.50537
▁bitcoin	-9.50585
0.5	-9.50762
gsm	-9.5098
ຄອບຄົວ	-9.51044
ສະເພາະ	-9.51044
ອິນເດຍ	-9.51044
▁width	-9.51044
▁ລາຍຊື່	-9.51056
ຄໍາແນະນໍາ	-9.51382
ສາທາລະນະ	-9.51505
GVMG	-9.51505
ຕົກແຕ່ງ	-9.51505
ຄາສິໂນ	-9.51907
cryptocurrency	-9.51968
▁Design	-9.51968
ດົນຕີ	-9.51969
ການຄຸ້ມຄອງ	-9.52054
▁Plus	-9.521
ທີ່ສໍາຄັນ	-9.52305
ການຂົນສົ່ງ	-9.52305
▁ມູນ	-9.52384
ພຽງ	-9.52414
ກະທູ້	-9.52433
▁Archives	-9.52481
▁Cheat	-9.52625
ສຸດທ້າຍ	-9.52693
999	-9.52756
ຍີ່ປຸ່ນ	-9.529
ຕົກ	-9.529
ການກໍ່ສ້າງ	-9.52903
ນັກສຶກສາ	-9.52919
ປະກອບດ້ວຍ	-9.52998
ການຊໍາລະເງິນ	-9.5337
ຄໍາຮ້ອງສະຫມັກ	-9.5337
ສະຖາບັນ	-9.5337
book	-9.5345
ized	-9.53549
▁ຂອບ	-9.5383
▁Diaphragm	-9.53841
▁ເສັ້ນໃຍສັງເຄາະ	-9.53841
ບໍລິຫານ	-9.53842
ສົນໃຈ	-9.53842
ໂຣກ	-9.53843
▁Iron	-9.53855
ຄະ	-9.53956
ຫຼີ້ນ	-9.54315
▁Electro	-9.54315
ຖ່າຍ	-9.54317
▁poly	-9.54341
=	-9.54458
▁Tape	-9.54478
▁Flat	-9.54625
1.0	-9.54771
▁dev	-9.54901
fish	-9.54981
ທີ່ແຕກຕ່າງກັນ	-9.5527
ຖ່ານຫີນ	-9.5527
ແບ່ງປັນ	-9.5527
ເລື່ອງ	-9.5527
▁IFMA	-9.55274
rge	-9.55275
▁Direct	-9.55316
ttle	-9.5539
о	-9.55751
ຄວາມໄວສູງ	-9.55801
ການຕິດຕັ້ງ	-9.55973
ທາງເລືອກ	-9.5602
ການທົດສອບ	-9.56212
ສີຂຽວ	-9.56234
ຫຸ້ມ	-9.56234
▁Toner	-9.5635
▁Uncoiler	-9.56719
ດັ່ງກ່າວ	-9.5672
ຍ່ອຍ	-9.5672
ຍ້າຍ	-9.56727
uff	-9.5674
ແຈ	-9.5686
ແລກປ່ຽນ	-9.57207
▁Portable	-9.57208
ສີ່	-9.57526
ອະນຸຍາດ	-9.57697
▁type	-9.57698
ລວດ	-9.57868
ຖືກນໍາໃຊ້	-9.57888
0.00	-9.57922
ອາຊີ	-9.5813
ເທົ່າ	-9.58168
ຝ້າຍ	-9.5819
ອະລູມິນຽມ	-9.5819
ສື່ມວນຊົນ	-9.5819
▁sales	-9.58206
ດັ່ງນັ້ນ	-9.58685
ຄອງ	-9.58694
eater	-9.59019
▁ເບິ່ງຊອບແວຫຼາຍ	-9.59183
`	-9.59183
ໄກ່	-9.59183
ສະຫມັກ	-9.59223
ດຽວກັນ	-9.59282
▁ລັງ	-9.59305
ລາຍງານ	-9.59396
▁International	-9.59683
ແຫຼ່ງ	-9.59683
▁Crack	-9.59693
▁Foam	-9.59693
ປະຊາ	-9.60017
time	-9.60168
ໂມເລກຸນ	-9.60185
▁Guangzhou	-9.60185
▁Qingdao	-9.60185
ປື້ມ	-9.60185
▁Wire	-9.602
▁ຂ້າ	-9.60225
·	-9.6069
▁Shopify	-9.6069
▁butterfly	-9.6069
▁ແວ	-9.60719
3.5	-9.60897
ລະອຽດ	-9.61156
ແນວໃດ	-9.61197
ມຸມ	-9.61206
▁ສະພາບອາກາດໃນ	-9.61213
ໃບອະນຸຍາດ	-9.61708
ເຫຼົ່ານີ້	-9.61708
ແສງສະຫວ່າງ	-9.61708
▁ຄູ	-9.6215
ສູບ	-9.62225
▁laser	-9.62229
OOD	-9.62237
ສັ້ນ	-9.62316
ລ້ຽງ	-9.62736
ຮັບປະກັນ	-9.62738
ເຂົ້າໄປໃນ	-9.62741
▁ປະຕິບັດຕາມ	-9.62745
▁Disc	-9.63035
ພະຍາຍາມ	-9.63254
໋	-9.63254
ທະນາຄານ	-9.63254
ຫມັ້ນ	-9.63254
ງ່າຍດາຍ	-9.63255
ພາຍໃຕ້	-9.63255
ອ່ອນ	-9.63256
ຕັ້ງຢູ່ໃນ	-9.6342
ລິຂະສິດ	-9.63512
ປະກອບມີ	-9.63555
▁ກຸມ	-9.63736
▁White	-9.6376
▁70%	-9.64017
ໂຮງງານ	-9.64104
ຕໍາແຫນ່ງ	-9.64299
—	-9.64299
ຄຸນະພາບ	-9.64299
ຂະບວນການ	-9.64301
▁jet	-9.64557
и	-9.64824
ເຈາະ	-9.64825
cross	-9.64833
ປະຈຸບັນ	-9.65354
ກູໂກ	-9.65355
▁HGH	-9.65368
ເສັ້ນທາງ	-9.65394
▁Trade	-9.65466
ຼ	-9.65524
а	-9.65886
ດື່ມ	-9.65886
▁Twitter	-9.65886
ລັອກ	-9.65886
▁ແຜນຜັງເວັບໄຊ	-9.65887
▁PCB	-9.65921
ສະຖານ	-9.66021
▁ແມ່ນຫຍັງ	-9.66027
ລ້າງ	-9.66425
ສະຖານີ	-9.66476
▁Flight	-9.66539
е	-9.66959
ຊີ້ຂາດ	-9.66959
ມໍເຕີ	-9.6696
ຕົ້ນສະບັບ	-9.66982
ravel	-9.67106
Ltd	-9.67117
ທົ່ວໂລກ	-9.67499
▁ສິ່ງທີ່ຄວນຮູ້	-9.67499
ແຕກ	-9.67506
ຫຼາຍກ່ວາ	-9.67546
ລະບຽບ	-9.68042
ນິຍົມ	-9.68042
ອິນເຕີເນັດ	-9.68042
▁Dreadbag	-9.68042
▁Instagram	-9.68042
ແຍກ	-9.68061
▁Center	-9.68064
ກໍ່ສ້າງ	-9.6811
ເຕົາ	-9.68589
▁ປະເທດຈີນ	-9.68608
▁Belt	-9.68799
4.0	-9.69135
ສະມາຊິກ	-9.69138
ການຢັ້ງຢືນ	-9.69138
ພາດສະຕິກ	-9.69138
ແຮ່	-9.6914
ແຕ່ລະ	-9.69196
ການແພດ	-9.69215
ການສັກຢາ	-9.69276
9.00	-9.69503
ຝຣັ່ງ	-9.69691
▁ຝຶກ	-9.69691
ö	-9.69691
ໂຄງສ້າງ	-9.69691
ເທົ່ານັ້ນ	-9.69716
#	-9.70191
▁Royal	-9.70254
▁ສປປ	-9.70805
▁ຫມວດ	-9.70817
ຮູ້ສຶກ	-9.71029
ຈີ	-9.71232
▁Español	-9.71367
ສະອາດ	-9.71369
▁NEW	-9.71404
▁not	-9.71976
▁Metal	-9.72103
▁Shanghai	-9.725
▁Server	-9.7251
▁free	-9.72525
ຮັບຜິດຊອບ	-9.73071
▁Vientiane	-9.73071
▁Ceramic	-9.73646
▁Varicella	-9.73646
ຕົວແທນ	-9.73648
▁Chrome	-9.73648
burg	-9.73698
ຮຽນຮູ້	-9.73729
▁crate	-9.73736
ກ່ວາ	-9.74188
ຄວາມອາດສາມາດ	-9.74224
▁wooden	-9.74224
▁Cartridge	-9.74806
▁Golden	-9.74807
▁micro	-9.74808
▁Rights	-9.74819
▁ເທດ	-9.74983
ແຫ່ງ	-9.75378
▁Fiberglass	-9.7539
▁Frame	-9.75395
▁Erase	-9.75397
▁web	-9.75538
▁was	-9.75777
ເຂັ້ມ	-9.75978
ຊຸມຊົນ	-9.75979
ລັດເຊຍ	-9.75979
ເຄີຍ	-9.75979
ທີມງານ	-9.75979
bird	-9.75986
ອົງການຈັດຕັ້ງ	-9.7657
▁CSGO	-9.76571
▁Nylon	-9.76572
▁Marketing	-9.76573
Heart	-9.76813
ປະຫຍັດ	-9.77166
ວິເຄາະ	-9.77166
ຮ່າງກາຍ	-9.77166
▁ປະເທດໄທ	-9.77166
▁Office	-9.77166
ກະຊວງ	-9.77166
▁Capital	-9.77166
▁Trans	-9.77188
ດິດ	-9.77199
▁ແມັດ	-9.77203
ຫມຸນ	-9.77296
ຄົນອັບເດດ	-9.77764
ໂບນັດ	-9.77764
▁Assembly	-9.77764
▁Dedusting	-9.77764
▁ເຫນີ	-9.77769
nny	-9.78072
▁ບຸກ	-9.78316
ອາຍແກັສ	-9.78367
ຮູບຮ່າງ	-9.78367
▁Wireless	-9.78384
ຕັ້ງຄ່າ	-9.78456
с	-9.78971
ເສັ້ນຜ່າສູນກາງ	-9.78973
▁Soft	-9.79575
ຄລາສສິກ	-9.79583
ປັບແຕ່ງ	-9.79583
▁Carbon	-9.79587
▁Green	-9.79596
▁House	-9.79625
▁Deduster	-9.80196
▁Shijiazhuang	-9.80196
ສູ່	-9.80199
▁Roller	-9.80262
,000.00	-9.8029
▁will	-9.8036
ຫນຸ່ມ	-9.80449
▁this	-9.80488
3.0	-9.80685
ຝຶກອົບຮົມ	-9.80762
▁Karnar	-9.80813
▁Ninja	-9.80813
ຫຼັງຈາກນັ້ນ	-9.80852
ເງິນສົດ	-9.80879
Whatsapp	-9.81435
ອັບເດດຫຼ້າສຸດ	-9.81435
ເສດຖະກິດ	-9.81435
▁Silicon	-9.81436
▁ແດງ	-9.81437
ຮົ້ວ	-9.8206
▁Suzuki	-9.8206
▁Ukraine	-9.8206
▁ສໍາລັບເດັກຍິງ	-9.8206
ຍືດ	-9.82067
▁Giant	-9.82069
ເພັດ	-9.82218
ໂອກາດ	-9.82688
ປະຫວັດສາດ	-9.82689
▁Organosilicon	-9.82689
▁Rikoooo	-9.82689
ເກາະ	-9.8269
script	-9.82729
▁Opera	-9.82784
▁Add	-9.83017
▁YouTube	-9.83321
proof	-9.83322
ຈິດ	-9.83324
ເກັບຂີ້ຝຸ່ນ	-9.83376
▁have	-9.83497
ເຂັມ	-9.83957
ອະທິບາຍ	-9.83958
ກະດູກ	-9.83958
▁Galvanized	-9.83958
▁October	-9.83958
▁Message	-9.83959
ສໍາຄັນ	-9.84135
ເປົ່າ	-9.84599
▁Dubai	-9.846
ough	-9.85058
ແຫນ້ນ	-9.85197
ແຂ້ວ	-9.85244
ຈັດພີມມາ	-9.85245
ອົງປະກອບ	-9.85245
▁ອາຄານ	-9.85245
▁Spring	-9.85258
ເຕັ້ນ	-9.85894
ຕະຫຼອດ	-9.85894
ສິ່ງແວດລ້ອມ	-9.85894
ໄຟລ໌	-9.85894
▁Virtual	-9.85894
▁SlotJar	-9.85894
▁World	-9.85894
ສົ່ງເສີມ	-9.85994
ບັນລຸ	-9.86003
ຂົນສົ່ງ	-9.86073
×	-9.86489
▁Deposit	-9.86547
▁Service	-9.86547
▁Skype	-9.86547
▁ສະຫງວນລິຂະສິດ	-9.86548
ຫມໍ້ໄຟ	-9.86572
▁ບ່ອນທີ່	-9.87178
®	-9.87205
ດິນຟ້າອາກາດ	-9.87205
ເອເລັກໂຕຣນິກ	-9.87205
▁Nakhon	-9.87205
▁Panel	-9.87228
ເຄື່ອນໄຫວ	-9.87868
ກາກບອນ	-9.87868
▁Butterfly	-9.87868
▁Crusher	-9.87868
▁Thani	-9.87873
ພູເຂົາ	-9.87892
ology	-9.88105
ການລົງທຶນ	-9.88231
▁exp	-9.88501
ປຽບທຽບ	-9.88534
ກະສິກໍາ	-9.88534
ວົງຈອນ	-9.88534
ເກືອບ	-9.88534
ຄ້າຍຄື	-9.88534
▁Tweet	-9.88537
▁Work	-9.88544
▁John	-9.88607
1.1	-9.88794
ຂໍຂອບໃຈ	-9.89205
ໂລຫະປະສົມ	-9.89205
▁Injection	-9.89205
▁McKnight	-9.89205
▁from	-9.89209
foot	-9.89224
ເຮືອບິນ	-9.89233
▁tape	-9.89444
ພຶດສະພາ	-9.89488
ມູນຄ່າ	-9.89769
ທໍາມະດາ	-9.89881
▁custom	-9.89881
▁friend	-9.89881
ຄວາມເຂັ້ມແຂງ	-9.89882
ສີຟ້າ	-9.89884
▁ຊອບ	-9.89966
ສະແດງໃຫ້ເຫັນ	-9.90561
ເຫນືອ	-9.90562
ເລື່ອນ	-9.90562
▁RoHS	-9.90564
ປັ໊ມ	-9.91246
ຢ່າງກວ້າງຂວາງ	-9.91246
▁ຊຶ່ງ	-9.91246
Infinity	-9.91246
ຄວາມຖີ່	-9.91246
ຍືດຫຍຸ່ນ	-9.91246
▁ຂຽນເມື່ອສຸດ	-9.91246
▁iPad	-9.91248
ການໃຫ້ອາຫານ	-9.91268
ຊະນິດ	-9.91936
ພົວພັນ	-9.91936
▁Epson	-9.91936
tribal	-9.91936
▁Chicken	-9.91937
ອາບນ້ໍາ	-9.9194
ຂ້າມ	-9.92052
0.9	-9.92108
Feather	-9.9263
Supermarket	-9.9263
watercolor	-9.9263
ຄວາມເປັນສ່ວນຕົວ	-9.9263
ເຄື່ອງນຸ່ງຫົ່ມ	-9.9263
▁Province	-9.9263
▁gallery	-9.9263
▁modified	-9.9263
ພະແນກ	-9.9263
▁GAME	-9.9263
ໂດລາ	-9.92632
▁Pipe	-9.93134
dragon	-9.9333
ທົບທວນ	-9.9333
▁Shandong	-9.9333
-2017	-9.93336
ແນ່ນອນ	-9.94034
▁Lyophilized	-9.94034
ດ່ວນ	-9.94036
▁Water	-9.94066
▁ກັນນ້ໍາ	-9.94107
ນ້ໍາຫນັກ	-9.94154
ຫມໍ້	-9.94718
±	-9.94743
ຫນຽວ	-9.94743
▁ມິຕິ	-9.94765
arrow	-9.94772
ville	-9.94809
ສິລະປະ	-9.95457
ເສົາ	-9.95457
ໂມດູນ	-9.95457
Ankle	-9.95459
▁View	-9.95462
ປະກາດ	-9.95465
ດາວໂຫລດ	-9.95757
ສະຫນາມບິນ	-9.96177
ຄຸນສົມບັດ	-9.96177
ປະມວນຜົນ	-9.96177
ແຕ້ມ	-9.96177
▁Hotel	-9.96183
▁Bearing	-9.96183
ເກີນ	-9.96677
ຄຸນນະສົມບັດ	-9.96901
ş	-9.96902
▁crusher	-9.96902
ແສງຕາເວັນ	-9.96902
anchor	-9.96913
ປຸກ	-9.96931
chlor	-9.97129
ຈໍາຫນ່າຍ	-9.97585
zodiac	-9.97631
ປະເມີນ	-9.97631
ອາລູມິນຽມ	-9.97631
mobile	-9.97636
▁Cixi	-9.97641
н	-9.98367
น	-9.98367
฿	-9.98367
送	-9.98367
0.6	-9.98916
▁ສິ້ນ	-9.99061
ຕູ້ເຢັນ	-9.99107
▁blossom	-9.99107
▁sleeve	-9.99108
า	-9.99108
ລະບາຍ	-9.99109
▁Remover	-9.99109
▁Driver	-9.99111
ຕາເວັນຕົກ	-9.99854
ເຫລໍກ	-9.99854
ການເກັບຮັກສາ	-9.99855
cherry	-9.99862
▁lotus	-9.99873
6.0	-9.99909
▁Adv	-10.0008
р	-10.0061
ເກົ່າ	-10.0061
ກາຕູນ	-10.0061
≥	-10.0061
▁Biotechnology	-10.0061
▁double	-10.0061
ification	-10.0061
▁AUD	-10.0062
ເປົ້າຫມາຍ	-10.0136
reamcatcher	-10.0136
ຍຸດທະສາດ	-10.0136
ໃນຂະນະທີ່	-10.0136
▁Pinterest	-10.0136
信	-10.0136
▁eagle	-10.0136
▁Glass	-10.0137
▁Reserved	-10.0213
▁galvanized	-10.0213
息	-10.0213
▁semicolon	-10.0213
▁Summer	-10.0213
发	-10.0213
ehndi	-10.0213
ຜິດ	-10.0213
AMI	-10.0223
ຄູ່ຜົວເມຍຄູ່	-10.029
ຊ້າງຊ້າງ	-10.029
ລະບົບຕ່ອງໂສ້	-10.029
ສາວຕາຕັກ	-10.029
ສ້ອຍຂໍ້ມືເພັດ	-10.029
ຫນ້າຕາຕັບ	-10.029
▁ການແປພາສາ	-10.029
▁Fabric	-10.029
▁ເຂັມທິດ	-10.029
ດ້ານວິຊາການ	-10.029
▁multi	-10.029
▁CHF	-10.0299
▁Blackjack	-10.0367
Unthank	-10.0367
▁Boiler	-10.0367
▁yarn	-10.0368
ລັດຖະບານ	-10.0445
anzania	-10.0445
ປະຕິທິນ	-10.0445
▁jackpot	-10.0445
ກ້ອນ	-10.0446
ຫີນ	-10.0447
Wholesale	-10.0509
▁Pneumatic	-10.0524
▁ຄາວາຊາກິ	-10.0524
▁ເກົ້າອີ້	-10.0524
ສູນເສຍ	-10.0524
▁ຊິ້ນ	-10.0526
ຕາເວັນອອກ	-10.0603
▁joomla	-10.0603
ທອງແດງ	-10.0603
▁cookies	-10.0603
ຕໍ່ສູ້	-10.0603
▁ກຸ່ມນະໂຍບາຍ	-10.0604
ກໍາຫນົດ	-10.0683
ມະຫາວິທະຍາໄລ	-10.0683
ຂອງເຂົາເຈົ້າ	-10.0683
▁Casengo	-10.0683
▁printer	-10.0683
▁Plate	-10.0697
transposh	-10.0764
ທີ່ມີຊື່ສຽງ	-10.0764
ທີ່ສົມບູນແບບ	-10.0764
ສະດວກ	-10.0764
ສົມບູນ	-10.0845
ການທົດລອງ	-10.0845
▁Chamber	-10.0845
▁Display	-10.0845
▁Pocket	-10.0846
▁Speed	-10.0847
▁Supplier	-10.088
Player	-10.0883
Українська	-10.0927
ເຕືອນ	-10.0927
▁Crypto	-10.0927
function	-10.0927
ຫວ່າງ	-10.0947
ຫຼຸດຜ່ອນ	-10.101
▁scooter	-10.101
ຜູ້ຊາຍແລະແມ່ຍິງ	-10.101
▁Zhong	-10.101
Rider	-10.1038
ເຮົາ	-10.1052
ສຶກສາ	-10.1077
BwebsiteWS	-10.1093
Uncategorized	-10.1093
ຂຸດຄົ້ນບໍ່ແຮ່	-10.1093
▁Gasket	-10.1093
▁Pulverized	-10.1093
▁conveyor	-10.1093
▁Fruity	-10.1093
▁Engine	-10.1093
ເວທີ	-10.1094
Distributor	-10.1177
▁FXCL	-10.1177
天	-10.1177
聊	-10.1177
ການສະກົດຈິດ	-10.1177
ວິສາຫະກິດ	-10.1177
▁ຈິກ	-10.1177
▁Profile	-10.1177
ກິໂລ	-10.1179
▁Magic	-10.1182
“	-10.1246
ຄົ້ນພົບ	-10.1262
▁Bluetooth	-10.1262
ຫຼຸດລົງ	-10.1347
▁Bangkok	-10.1347
▁MUAY	-10.1347
ເຖິງແມ່ນວ່າ	-10.1348
▁machine	-10.1348
▁Open	-10.1349
ພຣະອົງ	-10.1434
ເນື່ອງຈາກ	-10.1434
▁Amazon	-10.1434
▁corrugated	-10.1434
▁Changzhou	-10.1434
ກັບຄືນໄປບ່ອນ	-10.1434
ມ່ວນ	-10.1434
ແລະຜູ້ສະຫນອງ	-10.1434
0.8	-10.1441
т	-10.1521
ຕາຫນ່າງ	-10.1521
▁CHEATS	-10.1521
▁Dongguan	-10.1521
▁Standard	-10.1521
▁Range	-10.1593
ໂປແກຼມ	-10.1608
ເຄິ່ງ	-10.1608
ໄຮໂດຼລິກ	-10.1608
▁Deutsch	-10.1608
▁Minnesota	-10.1608
▁Oxygen	-10.1608
▁ຖ້າທ່ານ	-10.1608
ແບ່ງ	-10.1609
ຈຸດປະສົງ	-10.1697
ເຮັດໃຫ້ມີແສງ	-10.1697
▁Separator	-10.1697
▁solenoid	-10.1697
ການດໍາເນີນງານ	-10.1697
ສະພາແຫ່ງ	-10.1725
ສອບຖາມ	-10.1786
ຂໍ້ມູນຂ່າວສານ	-10.1786
ສາດສະຫນາຈັກ	-10.1786
▁Meyelashstore	-10.1786
▁ຖັດໄປ	-10.1786
ອີງຕາມ	-10.1786
ແຫວນ	-10.1786
ຮຸ້ນ	-10.1876
▁Sodium	-10.1876
ປອດໄພ	-10.1877
field	-10.1882
ສະພາບອາກາດ	-10.1965
content	-10.1967
ç	-10.1967
ອົດສະຕາລີ	-10.1967
▁TRUSTED	-10.1967
▁Temperature	-10.1967
ຫລໍ່	-10.1967
▁South	-10.197
ການຮ່ວມມື	-10.2029
ປັດຈຸບັນ	-10.2032
Φ	-10.2059
ວັດທະນະທໍາ	-10.2059
ສັງກະສີ	-10.2059
ອີງໃສ່	-10.2059
▁Production	-10.2059
mission	-10.2059
JPY	-10.2063
ປະຊຸມ	-10.215
nbsp	-10.2151
ກ້ອງຖ່າຍຮູບ	-10.2151
ທັດສະນະ	-10.2151
ສອບເສັງ	-10.2151
▁Copyshop	-10.2151
▁Galaxy	-10.2151
▁Linux	-10.2151
▁ອອກຄໍາເຫັນເປັນ	-10.2151
▁feeder	-10.2152
▁Package	-10.2152
ສະຫງວນ	-10.2245
ກະເປົາ	-10.2245
ะ	-10.2245
ບໍລິເວນ	-10.2245
ເຂົ້າສູ່ລະບົບ	-10.2245
▁PROMO	-10.2245
ຄົ້ນຄ້ວາ	-10.2245
ທ້ອງຖິ່ນ	-10.2245
▁Screw	-10.2245
ທໍາຄວາມສະອາດ	-10.2245
▁ພຶດ	-10.2245
▁Zipper	-10.2245
ຫວັງ	-10.2246
▁Ducati	-10.2339
ຜິດພາດ	-10.2339
▁ກອງທັບ	-10.2339
▁Quality	-10.2339
ຍອມຮັບ	-10.2339
ເລືອດ	-10.2339
▁Ultra	-10.2339
▁ບິດ	-10.2339
▁Brush	-10.234
ທົດແທນ	-10.2434
ກວມເອົາ	-10.2435
ລົດຖີບ	-10.2435
ສະກຸນເງິນ	-10.2435
▁BreatheLife	-10.2435
ອັກສອນ	-10.2435
▁123456	-10.2435
ການຊື້ຂາຍ	-10.2435
ທົດສອບ	-10.2439
ດໍາລົງຊີວິດ	-10.2531
▁Hydraulic	-10.2531
▁Luxury	-10.2531
ຄວາມຫນາແຫນ້ນ	-10.2538
ພັກຜ່ອນ	-10.2628
ຄວາມແມ່ນຍໍາ	-10.2628
ນະຄອນຫຼວງ	-10.2628
▁Converter	-10.2628
▁ROHS	-10.2628
ປັນຍາ	-10.2628
ກໍາເນີດ	-10.2726
ໄຮໂດລິກ	-10.2726
▁screw	-10.2726
▁Comments	-10.2726
▁Cloud	-10.2726
ເດືອນກໍລະກົດ	-10.2825
▁Limited	-10.2825
▁phantom	-10.2825
ວັກຊີນ	-10.2825
▁Premium	-10.2825
к	-10.2925
ร	-10.2925
ວີດີໂອ	-10.2925
▁Jizerou	-10.2925
▁marketing	-10.2925
ກໍາແພງ	-10.2925
本	-10.3026
á	-10.3026
ທີ່ດີເລີດ	-10.3026
▁Eyelash	-10.3026
▁Jiangsu	-10.3026
▁Misslamode	-10.3026
ສາມາດເຂົ້າເຖິງ	-10.3026
▁Vintage	-10.3026
ສະເຫມີ	-10.3026
▁Archiv	-10.3117
ທີ່ຍິ່ງໃຫຍ່	-10.3128
ເຄື່ອງສໍາອາງ	-10.3128
▁Oxford	-10.3128
ບັນຊີລາຍຊື່	-10.3128
ເທກໂນໂລຍີ	-10.3128
▁Cauda	-10.3128
ເວັບໄຊຕ໌	-10.3231
ປະສົມປະສານ	-10.3231
ປຸງແຕ່ງ	-10.3231
ມູນນິທິ	-10.3231
ว	-10.3231
ທີ່ໃຫຍ່ທີ່ສຸດ	-10.3231
▁+856	-10.3231
▁bonus	-10.3231
ປະກັນໄພ	-10.3335
▁Application	-10.3335
▁Facebook	-10.3335
phosph	-10.3335
ວຽງຈັນ	-10.344
▁Pattaya	-10.344
ม	-10.3547
«	-10.3763
电	-10.3873
л	-10.4096
เ	-10.4559
★	-10.4798
【	-10.5169
в	-10.5424
】	-10.5424
ğ	-10.5553
โ	-10.5553
–	-10.5616
ล	-10.5818
»	-10.6071
у	-10.609
¥	-10.609
ซ	-10.609
‘	-10.637
å	-10.6513
◆	-10.6805
~	-10.7047
ง	-10.7106
°	-10.7219
[	-10.7574
м	-10.7736
Ω	-10.79
	-10.8408
ຯ	-10.8584
ด	-10.8584
б	-10.8762
●	-10.8762
μ	-10.8944
й	-10.951
ย	-10.9707
í	-10.9907
ó	-10.9907
ี	-11.0111
	-11.048
ส	-11.0749
д	-11.0971
à	-11.0971
ы	-11.0971
🔥	-11.0971
ก	-11.1199
แ	-11.1199
ข	-11.1431
ค	-11.1669
	-11.1669
中	-11.1669
Ö	-11.1913
ห	-11.1913
้	-11.2163
я	-11.2163
ا	-11.2419
어	-11.2419
ь	-11.2683
บ	-11.2953
п	-11.2953
ต	-11.2953
^	-11.3516
•	-11.3559
İ	-11.4114
ท	-11.4426
ั	-11.4426
จ	-11.4749
х	-11.5082
Ø	-11.5082
г	-11.5427
Ф	-11.5427
ไ	-11.9747
文	-13.6345
ป	-13.6346
′	-13.6347
	-13.6348
₱	-13.6349
₪	-13.635
อ	-13.6351
ิ	-13.6352
资	-13.6353
话	-13.6354
象	-13.6355
万	-13.6356
←	-13.6357
ä	-13.6358
ї	-13.6359
ñ	-13.636
ຝ	-13.6361
ຽ	-13.6362
ໄ	-13.6363
ໃ	-13.6364
У	-13.6365
ົ	-13.6365
