<unk>	0
<s>	0
</s>	0
ه	-3.321
▁و	-3.65006
.	-4.14969
▁به	-4.19525
ی	-4.38372
▁ئه	-4.41012
▁ده	-4.43271
,	-4.46394
،	-4.48451
▁له	-4.50834
▁	-4.53278
▁که	-4.61453
▁وه	-4.63851
▁ی	-4.69824
▁(	-4.8408
▁هه	-4.84119
▁ر	-4.86811
▁ji	-5.05755
ê	-5.12488
a	-5.17881
▁û	-5.19983
▁bi	-5.24978
▁بۆ	-5.28928
)	-5.31501
▁ku	-5.3277
▁سه	-5.37157
:	-5.37341
▁li	-5.467
▁ن	-5.48977
و	-5.53106
ên	-5.57033
s	-5.61343
▁یه	-5.62523
▁نه	-5.63527
▁de	-5.64438
▁،	-5.65567
▁di	-5.66519
ن	-5.67084
▁bo	-5.6773
▁گه	-5.73183
یان	-5.73328
n	-5.74444
▁خوا	-5.75078
▁پ	-5.7542
م	-5.78903
▁م	-5.85418
ە	-5.87335
î	-5.88142
-	-5.88149
▁وانه	-6.02336
دا	-6.03782
▁لە	-6.09448
مان	-6.15641
▁ته	-6.16576
an	-6.18004
▁ya	-6.19591
▁ڕاستی	-6.20159
▁ser	-6.25934
▁روه	-6.28668
e	-6.30493
▁ش	-6.31991
ت	-6.32534
▁e	-6.33229
ان	-6.33753
▁بێت	-6.3595
به	-6.37699
▁یان	-6.38532
▁ت	-6.39822
▁.	-6.4047
▁مه	-6.41498
▁xwe	-6.41552
تان	-6.43863
▁بە	-6.44497
▁کە	-6.50398
▁زۆر	-6.52089
y	-6.52908
▁a	-6.55048
▁ئێمه	-6.55866
▁خه	-6.56553
که	-6.57922
▁دا	-6.59089
▁کرد	-6.60253
in	-6.60776
▁ne	-6.60936
;	-6.64401
▁re	-6.66148
▁بێ	-6.67236
▁باوه	-6.67479
m	-6.70005
▁ق	-6.70862
iya	-6.71755
▁ڵ	-6.73138
▁کان	-6.73228
▁ئێوه	-6.7333
▁بکه	-6.73454
▁بوو	-6.74141
▁ک	-6.74542
▁تی	-6.74577
ێکی	-6.74981
ek	-6.75288
▁موو	-6.75817
▁فه	-6.78862
▁)	-6.79596
ین	-6.80567
d	-6.81462
▁S	-6.81961
▁تۆ	-6.82477
t	-6.84677
▁لێ	-6.84988
▁من	-6.85721
▁ره	-6.85765
ya	-6.86709
▁جا	-6.88853
ەوە	-6.88977
▁ست	-6.90086
▁jî	-6.90507
▁ڕه	-6.92766
▁-	-6.9292
▁تا	-6.9317
▁پێ	-6.93323
▁me	-6.934
▁A	-6.93748
▁yên	-6.93853
▁an	-6.94179
▁بوون	-6.95343
ش	-6.95561
kirina	-6.96089
"	-6.96172
ئه	-6.96821
▁كه	-6.97575
▁C	-6.97947
S	-6.98054
له	-6.98853
▁ها	-6.99185
▁ye	-7.00439
ێک	-7.00598
▁پێغ	-7.01173
▁زه	-7.01873
▁"	-7.02138
k	-7.02207
h	-7.03091
▁هیچ	-7.03777
▁خۆی	-7.03786
ده	-7.05142
▁ب	-7.05289
▁/	-7.05601
re	-7.05753
انه	-7.06077
▁ve	-7.0639
▁کی	-7.06494
یش	-7.08182
).	-7.08602
▁ح	-7.08769
▁کانی	-7.0884
▁Ji	-7.08854
▁Di	-7.0903
▁بێگومان	-7.09637
le	-7.10433
▁سته	-7.10576
▁بن	-7.10878
▁س	-7.11049
z	-7.11167
w	-7.11685
▁مب	-7.13209
▁ناو	-7.13474
c	-7.15196
r	-7.15284
C	-7.15555
یه	-7.15894
yê	-7.15998
er	-7.16583
▁ك	-7.16834
▁ew	-7.17881
f	-7.19627
▁شه	-7.19677
l	-7.19748
▁ری	-7.20168
▁ber	-7.21161
g	-7.21776
▁te	-7.21943
▁Bi	-7.22187
kirin	-7.23577
▁کات	-7.23974
▁چی	-7.24062
▁&	-7.24135
▁دە	-7.24148
▁P	-7.25391
ێ	-7.25907
▁ڕ	-7.25951
P	-7.26027
▁وره	-7.26962
al	-7.27433
نه	-7.27632
▁1	-7.27712
▁ئا	-7.28319
▁نا	-7.29043
iyê	-7.29342
û	-7.29458
▁رده	-7.29729
x	-7.30173
D	-7.31297
ەکان	-7.32301
A	-7.32344
ا	-7.32883
u	-7.32992
؟	-7.33132
▁تر	-7.33598
▁vê	-7.34516
▁hûn	-7.35326
ب	-7.35505
▁ئەو	-7.35784
...	-7.36659
یت	-7.36749
)،	-7.37287
ێت	-7.37913
▁وێت	-7.38179
▁Li	-7.38343
ş	-7.38353
▁T	-7.3947
▁لای	-7.39751
o	-7.39857
ma	-7.39912
ra	-7.40386
▁خۆیان	-7.41217
▁da	-7.41314
▁ئایا	-7.41578
▁tê	-7.4191
p	-7.42485
▁wê	-7.42671
M	-7.43085
▁نده	-7.43303
?	-7.43328
▁پێش	-7.43759
▁Ev	-7.44271
ەی	-7.45363
de	-7.45769
▁in	-7.46254
▁نی	-7.46476
▁we	-7.46564
س	-7.46962
▁B	-7.47194
▁دروست	-7.47226
▁E	-7.4764
▁خۆ	-7.48871
▁کاتێک	-7.49204
E	-7.50041
ى	-7.50185
▁کردووه	-7.50628
v	-7.5144
!	-7.51508
▁الل	-7.51539
▁tu	-7.52666
ل	-7.52865
ing	-7.53206
▁چ	-7.53702
▁her	-7.54344
▁خوای	-7.5476
ایه	-7.54907
▁وان	-7.55346
T	-7.55993
▁وسلم	-7.56526
▁بکات	-7.57097
▁چه	-7.57277
▁بده	-7.57719
ne	-7.57773
i	-7.57901
b	-7.58163
انی	-7.58434
▁bike	-7.58758
j	-7.58998
2	-7.59047
▁نیه	-7.59887
▁dike	-7.60415
▁F	-7.61167
▁بڵێ	-7.62032
▁nav	-7.62226
ک	-7.62441
te	-7.6278
▁کار	-7.62816
وه	-7.62882
▁din	-7.62903
▁وت	-7.63588
în	-7.64328
ar	-7.64859
▁ین	-7.65285
B	-7.66242
▁kar	-7.66337
نی	-7.66827
▁چونکه	-7.66996
na	-7.67249
ر	-7.67366
▁D	-7.6743
▁ڵام	-7.67496
gt	-7.67525
ك	-7.67719
▁be	-7.67977
▁نها	-7.68374
▁bikin	-7.68544
▁ڵێن	-7.68916
or	-7.69143
ەکە	-7.69412
il	-7.6946
ur	-7.69963
▁M	-7.70114
▁s	-7.70476
▁نجام	-7.70919
I	-7.71184
▁nû	-7.71333
st	-7.72149
▁K	-7.72377
ke	-7.72495
▁_	-7.72555
▁G	-7.72836
▁ع	-7.73388
ز	-7.73658
▁bû	-7.74137
la	-7.74485
▁ئە	-7.74863
▁علیه	-7.75279
▁yek	-7.76213
دە	-7.76296
▁مان	-7.7647
ێك	-7.76779
▁dê	-7.76836
▁2	-7.77164
H	-7.77175
'	-7.77333
amp	-7.77553
▁wan	-7.78011
▁kir	-7.78119
▁وتی	-7.78478
▁خ	-7.78569
▁em	-7.79516
▁هێناوه	-7.79528
ڵ	-7.79585
▁3	-7.79735
▁kirin	-7.80123
▁هۆی	-7.80166
yên	-7.80321
▁خوایه	-7.80354
▁وا	-7.80499
/	-7.80616
▁O	-7.80622
د	-7.80833
▁ev	-7.80857
؟!	-7.80891
ro	-7.81433
▁تان	-7.81444
K	-7.81686
وو	-7.81798
%	-7.8191
▁ڵگه	-7.82103
▁زاته	-7.82197
▁ڵکی	-7.82231
ve	-7.82245
▁سوێند	-7.82369
▁چۆن	-7.82472
په	-7.82778
1	-7.82823
▁پێی	-7.83237
▁با	-7.83443
▁H	-7.83502
di	-7.84411
▁دوای	-7.84439
▁رمان	-7.84644
▁قیام	-7.84999
▁ئەم	-7.85597
▁خۆش	-7.86304
▁...	-7.86512
el	-7.86821
تر	-7.87376
ed	-7.87918
li	-7.87924
▁ئاسمان	-7.88191
▁پێیان	-7.88824
ڕ	-7.88824
bi	-7.89244
im	-7.89274
▁Ma	-7.89338
▁دۆز	-7.898
ri	-7.89883
ta	-7.89915
چ	-7.90118
▁lê	-7.90236
O	-7.90707
بوو	-7.90716
ter	-7.91513
▁dest	-7.91523
▁c	-7.91658
3	-7.92161
▁dikarin	-7.92426
eke	-7.92552
ir	-7.92563
iyên	-7.92914
▁bê	-7.9302
dar	-7.9327
▁wek	-7.93552
ژ	-7.93596
▁میش	-7.94001
N	-7.9428
▁جگ	-7.94319
▁دوو	-7.94539
ەر	-7.94544
ری	-7.94557
▁mezin	-7.95145
یە	-7.95409
L	-7.95667
بێت	-7.95687
▁سزای	-7.96042
مه	-7.96885
▁هاو	-7.9702
او	-7.97067
ار	-7.97441
▁ئەوە	-7.97874
tî	-7.98189
▁tenê	-7.9832
▁نیشان	-7.98455
ێن	-7.9856
on	-7.99022
▁ڕاست	-7.99107
▁خاو	-7.99627
صل	-7.9989
▁بەڵام	-8.00014
ç	-8.00084
es	-8.00206
▁min	-8.00954
▁ên	-8.01
▁ند	-8.01178
▁خۆتان	-8.01492
▁baş	-8.01536
▁لایه	-8.01649
▁herî	-8.01651
ce	-8.0189
تا	-8.02409
▁ئیتر	-8.02749
▁سەر	-8.03084
▁ماڵ	-8.03246
▁pir	-8.0327
▁چاکه	-8.03318
5	-8.03719
▁شت	-8.03915
▁ردگاری	-8.04068
en	-8.04238
▁ڕوو	-8.04347
G	-8.04369
کرد	-8.04373
F	-8.04694
ۆ	-8.05119
ber	-8.05491
et	-8.0555
eya	-8.05837
▁جێ	-8.05909
▁dema	-8.06097
ch	-8.06279
▁19	-8.06507
▁د	-8.06845
V	-8.07306
▁Em	-8.07445
▁ez	-8.07485
R	-8.07777
▁p	-8.07869
▁to	-8.08163
▁وسا	-8.08193
▁ئیمانداران	-8.08396
man	-8.08396
▁N	-8.0952
بۆ	-8.09692
▁کانیان	-8.09701
خ	-8.09832
yan	-8.09993
▁The	-8.10005
▁W	-8.10011
▁شێوه	-8.10088
ەکانی	-8.10207
شت	-8.10523
▁بیر	-8.10563
q	-8.12065
پ	-8.12195
انە	-8.12283
▁I	-8.12389
▁کاتێکدا	-8.12535
▁gelek	-8.12708
▁وام	-8.12719
▁کو	-8.12782
it	-8.13124
am	-8.13394
▁ma	-8.1349
▁شتێک	-8.13547
نا	-8.13628
▁dikare	-8.13802
rê	-8.13843
ق	-8.13892
▁میهر	-8.14184
ew	-8.14722
▁کردن	-8.15157
▁ئەوەی	-8.15239
▁سان	-8.15268
▁dibe	-8.15613
ێنێت	-8.15651
="	-8.15982
▁Ew	-8.16457
Name	-8.16653
at	-8.16696
▁ڕی	-8.16868
▁دێت	-8.16941
▁ران	-8.16963
▁کۆ	-8.17034
▁جۆره	-8.17179
▁تێ	-8.17211
da	-8.17282
رێت	-8.17433
▁of	-8.17442
▁هەموو	-8.17487
▁دی	-8.17698
sa	-8.17729
▁X	-8.18465
▁دڵ	-8.19066
▁4	-8.19216
▁ڕێگ	-8.19513
▁وتیان	-8.19698
ger	-8.19883
▁رچی	-8.20012
▁کارو	-8.20304
▁ڕیان	-8.20378
ol	-8.20939
rî	-8.21112
lt	-8.2128
▁R	-8.21398
▁هات	-8.22395
th	-8.22684
▁ئاماده	-8.22789
▁5	-8.22941
▁گوناه	-8.23426
▁ra	-8.23436
▁pêş	-8.238
▁ئەمە	-8.24088
▁یت	-8.24349
▁heye	-8.2446
ێنن	-8.24634
”	-8.24636
▁رام	-8.24738
▁hene	-8.24821
▁خێر	-8.24982
اوه	-8.24989
&	-8.25021
▁ون	-8.25148
▁ئینجا	-8.25491
▁ڵکو	-8.25606
کە	-8.25669
▁“	-8.26164
▁کاته	-8.26371
ف	-8.26731
▁ناک	-8.26894
▁ویدا	-8.27067
▁TV	-8.271
be	-8.27189
▁çi	-8.27403
▁Re	-8.27407
lê	-8.2742
▁bilind	-8.27561
▁نگ	-8.27603
▁ڕوون	-8.27642
▁محمد	-8.27804
lî	-8.27997
▁hemû	-8.28305
▁چاو	-8.28578
▁بی	-8.28615
▁ئایه	-8.28774
▁ba	-8.28988
▁رنام	-8.28998
▁ê	-8.29005
ok	-8.29096
▁کاتی	-8.29328
▁Me	-8.29361
▁du	-8.29756
▁زیاتر	-8.29937
▁شتی	-8.30172
ha	-8.30779
ست	-8.30922
▁L	-8.3111
ي	-8.31522
se	-8.31622
▁وتن	-8.31772
yî	-8.31884
W	-8.31901
▁10	-8.31953
▁ڕۆژی	-8.32049
▁موسا	-8.32451
▁رو	-8.32691
▁پاشان	-8.32699
ot	-8.3283
▁ژیانی	-8.32877
eyên	-8.32967
ام	-8.33073
▁wekî	-8.33232
bûna	-8.33298
▁کاتێك	-8.3334
گه	-8.33394
کان	-8.33611
ran	-8.33815
▁شوێن	-8.34033
▁قورئان	-8.34211
kirî	-8.34356
▁ئیمان	-8.34362
▁f	-8.34389
▁ز	-8.34489
▁rê	-8.34557
gir	-8.34714
▁شوێنی	-8.34823
▁Ez	-8.35049
▁لا	-8.35141
▁هەیە	-8.35183
را	-8.354
▁k	-8.354
▁ئێستا	-8.35592
▁dikin	-8.35848
▁دەست	-8.36583
tir	-8.36712
▁نە	-8.36792
▁nîşan	-8.36823
▁کێش	-8.36826
ng	-8.36932
ye	-8.36943
▁قس	-8.37085
▁Ba	-8.37184
▁).	-8.37342
lo	-8.37539
ba	-8.37552
ەم	-8.37768
دان	-8.38043
sî	-8.38101
کردن	-8.38138
▁ئێمە	-8.38142
U	-8.38246
um	-8.38315
ج	-8.38499
em	-8.38594
ره	-8.38834
▁ڕێبازی	-8.38848
▁yê	-8.39056
▁divê	-8.39113
îne	-8.39258
nê	-8.39659
یا	-8.3977
ای	-8.39984
▁رمانی	-8.40073
سه	-8.40336
▁der	-8.40356
▁دات	-8.40368
!!	-8.40421
كه	-8.40714
▁U	-8.40803
he	-8.4083
ته	-8.40951
▁وەک	-8.41057
▁رگیز	-8.4116
op	-8.41265
▁V	-8.4139
me	-8.41702
▁ل	-8.41818
▁لەسەر	-8.42242
to	-8.42311
un	-8.42582
▁ئاشکرا	-8.42793
dî	-8.42816
▁hêla	-8.4282
ekî	-8.42989
بوون	-8.43134
▁wî	-8.43196
▁لەگەڵ	-8.4328
ات	-8.43424
▁دوور	-8.43512
▁ڵه	-8.43772
▁چاک	-8.43799
▁hatiye	-8.43987
▁بڕیار	-8.44027
▁–	-8.44046
kar	-8.44298
▁كان	-8.44399
kirinê	-8.44554
4	-8.44659
▁zêde	-8.4466
▁7	-8.44968
▁Ş	-8.45157
▁خواو	-8.45202
▁Co	-8.45289
▁ڵک	-8.45513
▁aliyê	-8.45528
ەن	-8.46003
▁یاخود	-8.46028
▁نجامی	-8.46068
▁:	-8.46216
▁فریشت	-8.46226
▁کێ	-8.46302
▁Q	-8.46307
▁ئەگەر	-8.46452
ver	-8.46511
▁8	-8.46858
per	-8.47018
▁ڕۆژه	-8.47175
ation	-8.47243
▁ندی	-8.47432
▁غ	-8.47534
▁ئاد	-8.47551
▁st	-8.47567
▁هەر	-8.47664
is	-8.47699
▁ژیان	-8.47936
▁hev	-8.4809
▁پڕ	-8.48104
kî	-8.48125
دار	-8.48143
راو	-8.48502
com	-8.4881
▁pê	-8.48969
اری	-8.49584
▁تۆڵ	-8.49624
▁جار	-8.49714
ad	-8.49916
▁6	-8.50041
▁هێز	-8.50123
▁Ç	-8.50153
لی	-8.50206
ون	-8.50236
▁وات	-8.50608
▁سنوور	-8.50702
0	-8.50815
▁ف	-8.50914
ەکەی	-8.51331
ور	-8.51711
▁Ser	-8.51976
▁پاداشتی	-8.52176
sh	-8.5255
▁g	-8.52647
▁هیدا	-8.52815
رو	-8.52842
X	-8.52986
▁St	-8.53051
وە	-8.53561
▁niha	-8.53627
▁He	-8.53752
عم	-8.53794
یدا	-8.53803
▁ستی	-8.53812
▁Z	-8.53832
▁پشت	-8.53849
▁شتانه	-8.53929
andin	-8.54087
▁the	-8.54135
وت	-8.54254
za	-8.54291
مە	-8.543
ڤ	-8.54341
▁Ro	-8.54452
pe	-8.54511
ll	-8.54562
▁'	-8.54749
▁صل	-8.54811
ser	-8.549
یەکی	-8.55237
zî	-8.55408
▁سزا	-8.55447
ووه	-8.55463
▁شی	-8.5567
and	-8.56021
▁ج	-8.5612
▁بدات	-8.56763
iv	-8.56973
ic	-8.57149
▁he	-8.57185
▁چاك	-8.57241
▁kêm	-8.5729
▁Tu	-8.57529
▁x	-8.57531
شی	-8.57889
▁20	-8.57913
ترین	-8.57957
_	-8.57984
▁بۆیان	-8.58424
کردنی	-8.58441
▁شتێکی	-8.58443
ایی	-8.58682
kan	-8.58684
ul	-8.58773
6	-8.58906
îna	-8.59185
▁ئاگادار	-8.59203
8	-8.59247
▁نێوان	-8.59324
▁قورئانه	-8.59429
▁ترس	-8.59564
ûr	-8.59817
بن	-8.59848
▁bikar	-8.5987
▁دەبێت	-8.59891
ێر	-8.60015
ry	-8.6037
▁ئیماندار	-8.60408
▁نزیک	-8.60493
ze	-8.61103
▁hat	-8.61241
ker	-8.61366
ent	-8.6139
7	-8.61479
▁ڵات	-8.61744
id	-8.62092
▁درۆ	-8.62263
▁تاوان	-8.62473
گ	-8.62491
▁rast	-8.62759
اڵ	-8.62805
▁زانی	-8.63128
▁ڕا	-8.63273
▁لێی	-8.63445
dan	-8.63528
▁12	-8.63648
▁An	-8.63689
▁ç	-8.63829
end	-8.64147
▁وە	-8.64528
▁Ve	-8.64589
▁Y	-8.64741
▁Her	-8.65032
▁داوه	-8.6519
tal	-8.65318
▁دان	-8.65508
va	-8.65655
▁ناوی	-8.65759
ekê	-8.65766
▁ta	-8.66166
▁کەس	-8.66248
▁dem	-8.66289
▁ردگار	-8.66359
▁$	-8.66385
îl	-8.6645
▁ودوا	-8.66457
▁زیندوو	-8.66522
▁ساڵ	-8.6675
دی	-8.66877
ع	-8.66886
nî	-8.6712
▁dawî	-8.67444
▁كرد	-8.67533
iyan	-8.67539
ge	-8.67626
▁کاری	-8.67789
▁ş	-8.68164
▁حم	-8.68171
▁ڕو	-8.6833
▁De	-8.68401
îk	-8.68471
یاندا	-8.68617
▁Te	-8.68872
▁یمان	-8.69042
der	-8.69108
ly	-8.6914
▁ردگارت	-8.69406
▁ڕێ	-8.6941
ڕه	-8.69516
▁ناس	-8.69715
وون	-8.69869
▁کرێت	-8.70103
▁na	-8.70132
▁bibe	-8.70269
▁ناسان	-8.70336
ina	-8.70424
van	-8.70487
ti	-8.70652
▁بڕوا	-8.70674
▁%	-8.70705
زانی	-8.70808
▁خت	-8.70834
▁11	-8.70961
▁کراوه	-8.7107
▁خۆت	-8.71158
▁دایک	-8.71203
▁تایبه	-8.7127
▁Ne	-8.7144
لە	-8.71448
▁zêdetir	-8.71692
▁ئازار	-8.71864
▁کردو	-8.71887
ca	-8.71904
▁ببه	-8.71935
▁ربار	-8.71993
’	-8.7203
▁کتێب	-8.72063
mar	-8.72204
ate	-8.72429
▁Kar	-8.72547
iye	-8.72578
kê	-8.7277
▁تدا	-8.72932
nd	-8.72943
mm	-8.73045
▁تێک	-8.73065
▁ka	-8.7329
بە	-8.73318
▁جه	-8.73404
▁heman	-8.73446
Y	-8.73478
▁xuya	-8.73563
ine	-8.73797
ho	-8.73878
us	-8.74001
ۆن	-8.74066
▁taybet	-8.74128
لا	-8.74304
lu	-8.74387
îr	-8.74492
age	-8.74548
▁se	-8.74774
یەک	-8.74859
▁cuda	-8.74902
gi	-8.75098
ka	-8.75136
▁Name	-8.75219
îya	-8.75322
▁ڕێنموویی	-8.75393
▁ئافر	-8.75493
Î	-8.75833
vi	-8.76024
▁piştî	-8.76024
▁رستن	-8.76429
▁ڕان	-8.76808
▁m	-8.76872
▁هاوس	-8.7694
▁دنیا	-8.76943
▁bikaranîn	-8.76983
rs	-8.77155
000	-8.77485
▁وڵ	-8.77611
▁demê	-8.77617
▁رگ	-8.78458
mê	-8.78494
▁vir	-8.78497
we	-8.78649
▁خۆم	-8.78965
▁داوای	-8.79018
ga	-8.791
▁[	-8.79109
▁یاد	-8.79186
▁ڕێز	-8.79512
▁سامان	-8.79588
ڵه	-8.79609
▁بۆتان	-8.79725
وا	-8.79899
▁ti	-8.79925
▁نازو	-8.80064
ەش	-8.80098
▁شای	-8.80406
▁pêk	-8.8042
▁bin	-8.80489
▁خوان	-8.80504
as	-8.80559
▁بووه	-8.80602
▁HD	-8.80631
ما	-8.80687
▁ڕۆژ	-8.80721
▁kes	-8.80754
نە	-8.80773
▁2018	-8.80922
▁got	-8.81038
▁گوێ	-8.81063
▁Be	-8.81282
▁یتان	-8.81349
▁بكه	-8.81429
خۆ	-8.8162
پێ	-8.8178
▁نین	-8.81882
▁yekê	-8.81987
▁جوان	-8.82038
▁Lê	-8.82057
▁بەر	-8.82161
▁می	-8.82227
▁ڕزگار	-8.82566
▁In	-8.82571
▁زانیاری	-8.82613
▁سێ	-8.82726
رد	-8.82727
▁دوا	-8.82898
▁ردگاریان	-8.82903
du	-8.83005
خه	-8.83067
کات	-8.83077
▁hin	-8.83089
▁کردوون	-8.83209
▁pro	-8.83213
ێنه	-8.83331
),	-8.83363
▁ویش	-8.83366
▁منداڵ	-8.83437
▁دەکات	-8.83546
کانی	-8.83643
20	-8.84174
fe	-8.84243
▁dur	-8.84256
ss	-8.84278
▁میزاد	-8.84373
ay	-8.84392
mo	-8.84633
hat	-8.8465
hi	-8.847
▁b	-8.84881
şa	-8.84957
ci	-8.85079
▁پرسیار	-8.85429
▁بیه	-8.8549
▁بگه	-8.85509
ı	-8.85525
▁خۆمان	-8.85554
▁خوایش	-8.85561
کی	-8.8568
▁دەر	-8.85923
▁Al	-8.85936
▁ژێر	-8.85993
▁ڕۆ	-8.86086
▁دابه	-8.86089
▁سو	-8.86103
▁ویستی	-8.86123
▁navê	-8.86163
▁Se	-8.86177
▁وایه	-8.86255
▁sal	-8.86259
▁بم	-8.86313
▁ما	-8.86439
▁ریان	-8.86461
کار	-8.8649
▁derman	-8.86566
▁dide	-8.8664
çe	-8.86779
▁کردنی	-8.86801
▁ڵاتی	-8.86912
انەی	-8.86953
ner	-8.8703
ment	-8.87102
▁bibînin	-8.8712
ak	-8.87292
ح	-8.87523
▁باش	-8.87595
▁bide	-8.87645
▁hate	-8.87951
go	-8.88031
▁vî	-8.88031
▁heta	-8.88204
tên	-8.88338
▁نوێژ	-8.88376
ting	-8.88513
▁خراپ	-8.88553
▁مانگ	-8.88588
▁î	-8.8861
▁بهێنن	-8.88652
▁هەڵ	-8.88695
▁یاخی	-8.8874
▁ردگارا	-8.88823
▁گر	-8.88937
▁Le	-8.8898
▁باخ	-8.89328
▁نابێت	-8.8935
▁start	-8.89408
▁si	-8.89421
▁زانن	-8.89455
os	-8.89471
▁سێک	-8.89631
▁çawa	-8.89674
▁pêşkêş	-8.89686
▁پێویست	-8.89735
▁car	-8.89756
▁Mo	-8.89876
▁ئاو	-8.8997
▁J	-8.90006
▁ببێت	-8.9005
iyek	-8.90113
▁هە	-8.90141
bar	-8.90172
10	-8.90414
▁خشی	-8.90523
bo	-8.90525
▁Ra	-8.90569
▁ڕۆزی	-8.9068
▁خۆشی	-8.90688
▁r	-8.90712
▁واو	-8.90784
▁هێنا	-8.90823
eyê	-8.91099
tîk	-8.91112
▁یادی	-8.91158
tor	-8.91276
▁ڕووی	-8.91373
▁bûn	-8.91561
tê	-8.91598
mî	-8.91669
▁بو	-8.91733
pa	-8.91861
▁têne	-8.92141
▁To	-8.92245
اندا	-8.9231
▁0	-8.92341
▁+	-8.92545
ەت	-8.92551
▁t	-8.92624
ki	-8.92665
ni	-8.92853
▁ni	-8.92876
▁Da	-8.92881
▁•	-8.92937
▁چەند	-8.93004
▁گ	-8.93043
▁سی	-8.93054
▁dirêj	-8.93098
hê	-8.93158
▁بار	-8.93284
اند	-8.93318
▁ڕتان	-8.93512
▁9	-8.93602
▁زانایه	-8.9365
▁Zanîngeha	-8.93708
▁بانگ	-8.93754
▁Bo	-8.93818
▁ردا	-8.94057
زی	-8.94076
andina	-8.94148
▁roj	-8.94179
ut	-8.9425
şe	-8.94332
▁لەو	-8.94359
دوو	-8.94508
▁bêtir	-8.94635
▁Ber	-8.94678
از	-8.94725
▁؟	-8.94775
▁ڵی	-8.95232
înin	-8.95322
می	-8.9535
▁Î	-8.95525
کاری	-8.95693
▁Pêş	-8.95717
▁Mi	-8.95931
▁d	-8.96463
بێ	-8.96474
▁بینی	-8.96497
▁یی	-8.9656
▁جێگ	-8.96626
▁Ko	-8.96672
port	-8.96806
▁taybetî	-8.96902
▁Sa	-8.96916
▁کانتان	-8.96957
▁ئیبراهیم	-8.96965
ko	-8.97
▁ڕزق	-8.97024
ft	-8.97059
ck	-8.97068
▁30	-8.97124
▁زیاد	-8.97161
▁خراپه	-8.97228
sk	-8.97282
▁kom	-8.97339
▁xe	-8.97485
▁15	-8.97546
دانی	-8.97661
▁چوو	-8.97729
تی	-8.97838
▁ko	-8.97917
no	-8.97933
han	-8.97947
co	-8.97966
▁mo	-8.98
▁berhemên	-8.98139
▁باشه	-8.98308
▁cîhanê	-8.98336
00	-8.98507
kir	-8.98544
ket	-8.98565
▁هەست	-8.98572
سی	-8.98652
dana	-8.9868
fi	-8.98823
lan	-8.98827
▁im	-8.98878
▁خواوه	-8.98913
▁یەک	-8.99092
▁bibin	-8.99111
▁سوپاس	-8.99116
▁van	-8.9914
ide	-8.99204
înê	-8.99211
ik	-8.99227
▁bikaranîna	-8.99256
▁جیهان	-8.99261
▁تیایدا	-8.99368
▁خته	-8.9939
▁بخ	-8.99497
▁باس	-8.99513
▁Dema	-8.99588
ڕی	-8.99735
mend	-8.99905
وس	-8.99951
wer	-9.00307
ru	-9.0037
ێنین	-9.00451
▁پیاو	-9.0052
▁رز	-9.00945
رێن	-9.01016
▁ژ	-9.01076
50	-9.01105
je	-9.01168
one	-9.01378
▁جۆر	-9.01545
▁sala	-9.01577
able	-9.01769
▁بزانن	-9.0181
▁گو	-9.01848
▁ندێک	-9.01883
ۆر	-9.01992
met	-9.02005
▁ڵد	-9.02034
▁بین	-9.02063
▁هاوڕێ	-9.02151
▁كات	-9.02192
ەک	-9.02411
▁گەورە	-9.02443
@	-9.02506
پێکەنین	-9.02559
▁ئەوان	-9.0257
▁فیرع	-9.02642
گو	-9.02819
▁2019	-9.0282
ayî	-9.0288
▁بووم	-9.03269
ap	-9.03304
om	-9.03507
▁sê	-9.03559
▁*	-9.03593
▁نرخ	-9.0369
ئا	-9.03714
▁تێدا	-9.03744
▁çend	-9.03842
▁زانێت	-9.03976
▁girîng	-9.03986
▁نهێنی	-9.04082
▁Ku	-9.04129
(	-9.04158
▁do	-9.04196
▁یام	-9.04201
▁بت	-9.04222
▁h	-9.04226
erê	-9.04276
▁bandor	-9.04324
▁2017	-9.04388
▁Pro	-9.04406
▁برد	-9.04481
▁ڕۆژێک	-9.04615
▁ڕێن	-9.0472
▁گۆڕ	-9.04723
▁کتر	-9.04813
▁خشه	-9.04841
▁شایست	-9.0494
▁گرێت	-9.05035
▁diyar	-9.05043
▁رتان	-9.05046
ەوێت	-9.05123
▁مردن	-9.0514
▁dîtin	-9.05147
▁gel	-9.05184
ۆش	-9.05236
▁rastî	-9.05328
ers	-9.05338
▁گرت	-9.05376
کو	-9.05394
▁بکەین	-9.05409
▁ناخۆشی	-9.05518
▁پاک	-9.05566
گر	-9.05811
▁kontrol	-9.05973
▁خەڵک	-9.05984
▁؟!	-9.06031
▁خواردن	-9.06093
mi	-9.06205
رن	-9.06445
▁کانیش	-9.06461
▁Û	-9.06477
▁ho	-9.06513
بڕ	-9.0652
ەیە	-9.06797
si	-9.06973
▁دنیادا	-9.0701
zan	-9.07093
▁گۆ	-9.07105
▁kerema	-9.07228
▁بیان	-9.07264
▁pa	-9.07294
ڕا	-9.0747
▁ردگارتان	-9.07481
▁نام	-9.07502
▁مۆڵ	-9.07503
▁لێیان	-9.07519
پا	-9.07568
yon	-9.0757
▁کاندا	-9.07624
xe	-9.07747
eng	-9.07831
▁دیاری	-9.07847
؛	-9.07952
az	-9.08121
▁بیت	-9.08213
▁بۆی	-9.08289
▁yekem	-9.08315
ev	-9.08369
iz	-9.08441
▁داد	-9.08462
▁z	-9.0851
▁بڕوایان	-9.08637
▁هاوار	-9.08639
est	-9.08654
ji	-9.08729
▁hê	-9.08763
ow	-9.08791
▁We	-9.09055
▁Ch	-9.09067
چونکه	-9.09091
ER	-9.09094
▁رست	-9.09103
▁شار	-9.09103
▁Hûn	-9.09147
▁خشێت	-9.09254
ster	-9.09333
▁Do	-9.09346
▁ماوه	-9.09358
ران	-9.09634
▁qe	-9.09677
▁جیا	-9.09774
AN	-9.09787
▁bar	-9.09958
9	-9.09973
sp	-9.09997
▁پیلان	-9.10086
تە	-9.10254
▁ava	-9.10363
îst	-9.10574
ub	-9.10581
▁ڕانه	-9.10629
▁باران	-9.10646
▁Lo	-9.10647
▁گاڵت	-9.10695
ۆک	-9.10716
▁رانی	-9.10724
ia	-9.10916
rû	-9.11015
▁lêkolîn	-9.11034
▁واز	-9.11099
▁هێنن	-9.11152
po	-9.11216
▁دەکەن	-9.11249
dest	-9.11283
jar	-9.11395
▁nexweş	-9.1141
▁درێژ	-9.11444
jî	-9.11493
▁Fi	-9.11526
▁13	-9.11537
log	-9.11538
ey	-9.11547
▁خوادا	-9.11612
êr	-9.11653
▁ببن	-9.1166
▁بان	-9.117
day	-9.11729
▁گومان	-9.1174
▁hatine	-9.11869
bûn	-9.11905
▁خزم	-9.12
▁were	-9.12168
▁خشین	-9.12204
ov	-9.12339
▁مژد	-9.12496
▁دڵنیا	-9.12503
ەند	-9.12595
▁Der	-9.12645
fa	-9.12746
▁كار	-9.12784
▁ئامۆژگاری	-9.12958
▁sereke	-9.1299
▁welat	-9.1303
▁وم	-9.13054
▁دار	-9.13089
ex	-9.13103
ال	-9.13165
▁ئەوەیە	-9.1317
▁ریه	-9.13228
▁شتێك	-9.13332
▁لەم	-9.13457
işt	-9.13488
▁هۆز	-9.13513
▁میان	-9.1356
▁germ	-9.13715
▁ناکات	-9.13936
▁وانیش	-9.13957
):	-9.13992
▁ڕاسته	-9.14116
ste	-9.14158
اده	-9.14158
▁1.	-9.14196
سا	-9.1434
رۆ	-9.14352
▁پێشتر	-9.14489
▁24	-9.1452
IN	-9.14562
کراو	-9.14654
▁ئار	-9.14733
pê	-9.14788
ليه	-9.14854
▁so	-9.14926
▁girêdayî	-9.1499
▁گرنگ	-9.15005
▁کراو	-9.15009
▁per	-9.15028
ton	-9.15042
▁pêşniyar	-9.15061
▁berê	-9.15165
▁نییە	-9.15279
گە	-9.15338
tion	-9.15358
▁تووشی	-9.15424
▁ڕێک	-9.15436
▁18	-9.15436
▁Vi	-9.15749
▁rû	-9.15822
od	-9.1593
tan	-9.16084
xwe	-9.16328
▁دره	-9.16418
▁ha	-9.16459
av	-9.16498
اس	-9.16576
▁ملک	-9.16579
]	-9.16591
▁eger	-9.16605
▁ئی	-9.16787
▁جیاتی	-9.16792
wan	-9.1689
وات	-9.16893
▁کچ	-9.16961
▁Pa	-9.17076
▁ئاگر	-9.17104
▁Comment	-9.17147
tin	-9.17227
▁پێد	-9.17328
yek	-9.17334
J	-9.17348
hev	-9.1735
▁تاقی	-9.17404
▁al	-9.17443
▁چاکتر	-9.17465
▁کۆم	-9.175
yar	-9.17666
▁La	-9.17698
وێ	-9.17748
▁در	-9.17847
▁گیان	-9.17886
▁ئێش	-9.17906
شه	-9.18141
١	-9.1822
▁w	-9.18338
▁Par	-9.18459
▁pere	-9.18606
▁çalak	-9.18645
▁Ta	-9.18726
▁destê	-9.18735
▁par	-9.1877
▁dijî	-9.18887
▁tête	-9.19032
▁mi	-9.19035
ئە	-9.19183
fir	-9.1924
▁Fa	-9.19275
kin	-9.19303
زه	-9.19508
▁kesên	-9.19584
گرتن	-9.19799
▁خشن	-9.19804
▁pey	-9.1989
ناس	-9.20004
ts	-9.20028
بین	-9.20196
▁amade	-9.20297
▁گرن	-9.2033
▁شاره	-9.20353
▁دیار	-9.20409
▁malpera	-9.20446
▁ورد	-9.20606
anî	-9.2064
▁جێی	-9.20682
mer	-9.20751
▁هر	-9.20796
geha	-9.2087
▁مکاران	-9.2088
بەر	-9.20979
12	-9.21206
▁bawer	-9.21305
گی	-9.21402
▁مانه	-9.2141
▁شته	-9.21411
▁paqij	-9.21423
ەیەکی	-9.21518
▁xizmeta	-9.21591
▁New	-9.21664
▁dikarî	-9.21883
▁No	-9.21906
vî	-9.22212
AR	-9.22235
▁نوێ	-9.22247
▁وتوو	-9.22316
▁باسی	-9.22316
▁pêwîst	-9.22333
▁ro	-9.2237
▁خوێن	-9.22433
▁dixwazin	-9.22562
▁هاتن	-9.22619
ava	-9.22624
▁جیاواز	-9.22673
ana	-9.22733
▁Ka	-9.22764
▁نیشت	-9.22814
ەدا	-9.22851
▁hewce	-9.22909
kên	-9.23121
▁حاڵ	-9.23171
▁گومڕا	-9.23211
▁بکەن	-9.23227
▁تەنها	-9.23329
▁بۆچی	-9.23458
▁bidin	-9.23488
▁16	-9.23667
▁ردگارم	-9.23705
▁چن	-9.23769
▁Mar	-9.23799
▁kanala	-9.23868
do	-9.23988
▁وڵات	-9.24145
تاندا	-9.24147
▁لێد	-9.24173
▁hîn	-9.24251
Ê	-9.24364
▁وابوو	-9.24369
ێکیان	-9.24395
▁سانێک	-9.24414
▁باوک	-9.24509
▁کوڕ	-9.24537
▁salan	-9.24545
▁@	-9.24553
▁خێزان	-9.24569
▁ژن	-9.24723
▁jê	-9.24962
▁En	-9.24993
با	-9.25
nk	-9.25049
▁rûpel	-9.25117
▁giştî	-9.25273
▁xwedî	-9.25407
▁رپا	-9.2555
▁plan	-9.25587
rd	-9.25616
ies	-9.25752
xwaz	-9.2581
▁vekirî	-9.25958
▁navbera	-9.25981
▁بووین	-9.26037
▁برا	-9.26048
جا	-9.26078
▁زوو	-9.2612
▁کرێن	-9.2619
▁کام	-9.26215
▁test	-9.2628
▁رنج	-9.26305
داو	-9.26311
▁بچ	-9.26396
▁سا	-9.26407
▁ڕیزی	-9.26419
▁زانا	-9.26489
▁فێر	-9.26492
▁avê	-9.26554
▁مرۆڤ	-9.26614
▁بۆیە	-9.26745
▁Ha	-9.26825
▁توانای	-9.26867
▁بەکار	-9.26877
▁Si	-9.26942
▁Ar	-9.26947
▁سوود	-9.26978
اک	-9.26999
▁nava	-9.27186
ku	-9.27207
▁gor	-9.27228
▁شیان	-9.27238
▁موعجیز	-9.27252
▁Na	-9.27267
xa	-9.27307
ity	-9.27353
land	-9.27359
▁چاکی	-9.27474
Comment	-9.27481
▁Ewropayê	-9.27526
▁بانه	-9.27533
▁for	-9.27651
▁مێشک	-9.27735
fer	-9.27901
▁نابن	-9.27925
▁°	-9.27993
▁تریش	-9.28075
▁رمانب	-9.28216
گا	-9.28254
ییەکان	-9.2828
▁ژیر	-9.28345
▁خۆر	-9.28377
▁ستن	-9.28442
://	-9.28459
▁Sp	-9.28474
▁ڕازی	-9.285
rîn	-9.2858
eta	-9.28607
اندن	-9.28693
▁مووی	-9.28936
▁Heke	-9.28954
ant	-9.29003
yayê	-9.29017
hî	-9.29043
▁o	-9.29055
▁چونکە	-9.2911
٠	-9.29216
▁saz	-9.29236
ler	-9.29448
şê	-9.29474
ît	-9.29501
دایه	-9.29577
▁پیرۆز	-9.296
bîn	-9.2962
tina	-9.29623
rm	-9.29629
▁nas	-9.29643
▁ئاگری	-9.29684
▁ئاین	-9.29861
dê	-9.30105
01	-9.30154
dem	-9.30168
کا	-9.30184
▁ئاسان	-9.30192
▁ورات	-9.30196
▁hatin	-9.30304
▁Nav	-9.30352
پی	-9.30407
▁derbas	-9.30487
▁سپ	-9.30555
ep	-9.30585
ack	-9.30658
▁دامه	-9.30659
▁بڵاو	-9.30755
▁ربه	-9.30773
şî	-9.30788
▁Piştî	-9.30839
▁هێنێت	-9.30891
ast	-9.31042
▁Pe	-9.31082
▁واوی	-9.31093
▁Su	-9.31226
▁کاتێکیش	-9.31271
▁یارم	-9.31288
ستان	-9.31306
ند	-9.31415
▁DVB	-9.31419
▁qa	-9.31427
ێکدا	-9.31517
▁co	-9.3152
qe	-9.31631
▁چوون	-9.31632
یشیان	-9.31681
▁çar	-9.31841
▁باره	-9.32025
▁زیان	-9.32195
îrok	-9.32204
ext	-9.32244
▁Ger	-9.32421
ەنگ	-9.3246
men	-9.32489
up	-9.32518
لۆ	-9.32594
▁dûr	-9.32636
رە	-9.32709
▁fi	-9.32712
▁تیان	-9.32734
▁rêya	-9.3278
▁کاره	-9.32794
▁gorî	-9.3299
▁خو	-9.33052
▁hatî	-9.33155
▁ویست	-9.33207
ەکەم	-9.33304
▁یوسف	-9.33358
▁ke	-9.3342
▁ڕێی	-9.33424
▁and	-9.33464
▁فر	-9.33503
▁bînin	-9.3355
▁نج	-9.33597
▁satelîtê	-9.33838
▁tune	-9.33842
ێكی	-9.33849
TV	-9.33874
▁خست	-9.33939
Z	-9.34016
▁لەبەر	-9.34045
وم	-9.34283
▁رچاو	-9.34319
▁شم	-9.34404
san	-9.34526
▁la	-9.34582
▁زام	-9.34617
▁Yek	-9.34643
gu	-9.34648
اوی	-9.3471
بر	-9.34758
▁qu	-9.34786
▁Ke	-9.34909
guh	-9.34924
▁2016	-9.34961
ü	-9.34986
11	-9.35038
80	-9.35048
rên	-9.35071
ff	-9.35078
▁mirov	-9.35131
▁hil	-9.35164
pt	-9.35216
▁تاوانبار	-9.35274
▁ئاگا	-9.35286
▁هێن	-9.35351
▁سێك	-9.35451
▁لێخۆشبوو	-9.35467
▁giran	-9.35733
▁موویان	-9.35749
sê	-9.35811
▁رن	-9.35861
▁--	-9.35903
دو	-9.36016
▁ژمار	-9.3603
نەوە	-9.36049
▁caran	-9.36056
یشی	-9.36073
istan	-9.36102
wa	-9.36132
▁تانه	-9.36278
30	-9.36382
ویست	-9.36635
▁خشش	-9.36664
▁یەکەم	-9.36736
şt	-9.36738
خات	-9.36757
▁باڵاد	-9.36776
▁Hemû	-9.36819
▁نگی	-9.36832
▁منیش	-9.36835
▁ڕاستیدا	-9.36904
جی	-9.36904
▁دو	-9.36984
▁So	-9.37032
▁ئیسلام	-9.37083
تره	-9.37094
اوە	-9.37125
ez	-9.37253
▁چوار	-9.37262
ahiya	-9.37348
▁Ho	-9.37355
▁وێ	-9.37432
▁کەواتە	-9.37441
▁پاداشت	-9.37568
▁دین	-9.37585
pl	-9.3768
▁مێ	-9.37695
▁ژار	-9.37699
ۆڵ	-9.37711
ks	-9.37873
▁کۆتایی	-9.37882
▁cîh	-9.37884
aya	-9.38032
▁بوونی	-9.38109
şîn	-9.38121
▁مکار	-9.38138
▁گە	-9.38154
▁تاڵ	-9.382
▁Hev	-9.38233
▁pergala	-9.38238
ip	-9.38245
▁کیان	-9.38346
ێته	-9.38362
har	-9.3841
▁بڕیاری	-9.38453
▁رچ	-9.3863
▁ساڵی	-9.38655
let	-9.38721
▁خواناس	-9.38833
bû	-9.38979
▁girtin	-9.38983
ناو	-9.39041
▁free	-9.39048
▁زار	-9.39052
▁ریک	-9.39099
▁ئاوا	-9.39115
▁بێدار	-9.39275
▁Gu	-9.3928
▁مار	-9.39294
▁gelemperî	-9.39316
▁کاروکرد	-9.39333
▁hez	-9.39348
▁کەم	-9.39372
▁لێپرسین	-9.39406
▁ناح	-9.39424
tra	-9.39583
▁standard	-9.39587
▁دوایی	-9.39618
▁ئایند	-9.39629
ron	-9.39672
▁cih	-9.39713
▁çêkirin	-9.3973
More	-9.3988
ah	-9.39964
▁rêz	-9.39976
▁kanalên	-9.39988
گێڕ	-9.40091
زان	-9.40162
▁گوفتار	-9.40216
▁رد	-9.40217
▁پارچ	-9.40348
▁hilbijêre	-9.40405
▁ماشا	-9.4042
▁cihê	-9.4045
stan	-9.40471
زە	-9.40515
▁Go	-9.40567
لێ	-9.40597
▁دڵی	-9.40606
شتی	-9.40612
rin	-9.4063
▁weşana	-9.40735
19	-9.40899
îz	-9.40919
▁!!	-9.4092
▁2.	-9.40941
rt	-9.40973
▁25	-9.4105
▁po	-9.41052
▁بکرێت	-9.41061
▁كو	-9.41088
ەیەک	-9.411
▁pi	-9.41186
ۆت	-9.41198
▁پیاوان	-9.41263
tt	-9.41417
▁Çi	-9.41483
▁كانی	-9.41484
ەڕ	-9.41581
kêş	-9.41588
▁ختی	-9.41625
ph	-9.41682
▁نێت	-9.41866
▁ستیان	-9.41873
▁no	-9.41955
▁دێن	-9.41976
▁yan	-9.4198
▁پارێزکار	-9.42045
▁ئاینی	-9.42122
▁ریا	-9.42124
dû	-9.42385
tiya	-9.4244
ayê	-9.42555
ۆی	-9.42598
رێ	-9.4264
▁ئێ	-9.42648
▁دروستی	-9.4265
▁le	-9.42741
بو	-9.42799
▁باو	-9.42838
▁berdewam	-9.43182
ans	-9.43293
▁hêza	-9.43343
بار	-9.4349
ڕو	-9.43502
▁هەندێک	-9.43514
▁ger	-9.43537
▁كاتێك	-9.43697
کردنه	-9.43751
▁فریا	-9.43904
شە	-9.43953
ڵی	-9.44029
ێش	-9.44036
▁وانی	-9.44121
▁روون	-9.44248
ژی	-9.44274
▁بکەم	-9.44392
▁hemî	-9.4443
vê	-9.44436
ction	-9.44544
son	-9.44617
▁hêsan	-9.4462
▁پار	-9.44626
ایە	-9.4464
▁رداری	-9.44651
bî	-9.44679
▁زی	-9.44744
▁Pol	-9.44751
ef	-9.44898
▁پێویستە	-9.44959
▁200	-9.45018
▁50	-9.45026
اکان	-9.45057
▁زانستی	-9.45069
▁لی	-9.45078
▁Nû	-9.45093
توانی	-9.45103
mp	-9.45111
▁Du	-9.4513
▁پێبه	-9.45157
▁ناڕ	-9.45196
▁هیچی	-9.45202
داری	-9.45208
▁بترسن	-9.45268
ian	-9.4527
bir	-9.45351
کۆ	-9.45653
▁کردنه	-9.45708
▁تە	-9.45741
▁رموێت	-9.45749
▁sa	-9.45953
13	-9.4603
gen	-9.46076
îka	-9.46166
▁کرا	-9.46259
▁çav	-9.46285
-2	-9.46348
ib	-9.46621
pp	-9.46711
br	-9.46727
▁color	-9.46823
ard	-9.46902
▁hi	-9.46961
▁ڕاو	-9.46975
تۆ	-9.4711
ite	-9.47132
qa	-9.47136
▁gir	-9.47145
▁دەکرد	-9.47169
کێش	-9.47206
▁پێم	-9.47465
if	-9.47484
sta	-9.47525
▁hinek	-9.47545
▁»	-9.47612
▁ناب	-9.47625
▁sîstema	-9.47693
▁belav	-9.47739
ab	-9.4774
▁بزان	-9.47793
▁گیر	-9.47891
چی	-9.48055
▁paş	-9.48104
▁رمووی	-9.48158
▁ئۆ	-9.4825
▁هۆکار	-9.48256
art	-9.48283
ییە	-9.48384
▁Wa	-9.48488
▁دەی	-9.48539
لای	-9.48613
▁100	-9.48621
▁یاری	-9.4874
▁Ge	-9.48798
▁hilberîna	-9.48837
▁دیهێن	-9.48852
ud	-9.48944
ren	-9.48967
ang	-9.48989
▁bal	-9.49011
▁17	-9.49062
یک	-9.491
▁jêr	-9.49125
▁şa	-9.49237
ie	-9.49404
غ	-9.49424
▁ردان	-9.4944
îs	-9.49447
▁دووڕوو	-9.49477
▁lo	-9.49543
tic	-9.49657
▁رمه	-9.49702
▁xwarinê	-9.49753
baz	-9.49816
▁وری	-9.49834
nav	-9.49838
▁بچن	-9.5008
lor	-9.50084
▁تەواو	-9.5018
▁پشتیوانی	-9.50234
گار	-9.50292
las	-9.50361
▁دانا	-9.50367
ps	-9.50383
▁ومی	-9.50421
▁ھ	-9.50476
▁خوار	-9.50568
▁pe	-9.50648
all	-9.50668
ig	-9.50677
▁derbarê	-9.50784
▁parastina	-9.50786
▁سۆز	-9.50788
bit	-9.50856
▁بڵند	-9.50885
▁هاتووه	-9.50979
▁As	-9.51152
ێز	-9.51175
ona	-9.51218
ld	-9.51328
▁نارد	-9.51383
▁زای	-9.51459
كار	-9.5147
شێ	-9.51481
▁berî	-9.51521
▁14	-9.51521
ستی	-9.51532
▁Pel	-9.51608
tirîn	-9.51614
▁Bu	-9.51646
15	-9.51657
▁درێت	-9.51707
▁şîrketa	-9.51709
▁نموونه	-9.51802
bûnê	-9.51875
▁şer	-9.51882
یشمان	-9.51892
▁kontrola	-9.51937
ەخ	-9.52055
▁platform	-9.52109
pi	-9.52121
2.	-9.52326
▁بانی	-9.52525
ator	-9.52651
▁ئای	-9.52853
war	-9.52965
mal	-9.52966
▁دانایه	-9.52978
▁Xwe	-9.53038
▁hêz	-9.53039
▁بڕ	-9.5305
▁bu	-9.53091
▁ھە	-9.53191
▁نازانن	-9.53284
▁fa	-9.53303
▁پەیوەندی	-9.53348
ووە	-9.53431
▁پشتیوان	-9.535
nameya	-9.5355
ەکی	-9.53598
▁نایه	-9.5361
name	-9.53624
▁کێک	-9.53703
▁خوارد	-9.53716
▁Mezin	-9.53768
cî	-9.53793
▁پێمان	-9.53923
."	-9.5401
▁afirandin	-9.5408
ێڵ	-9.54152
▁zanîn	-9.54194
danê	-9.5426
▁piştgiriya	-9.54288
▁نای	-9.54341
▁pispor	-9.5443
▁v	-9.54456
les	-9.54563
کر	-9.54567
▁پێدا	-9.54592
▁ڵێت	-9.54634
▁كی	-9.54635
▁زیند	-9.54647
▁alîkariya	-9.54713
▁نزا	-9.54738
www	-9.54816
▁ردوو	-9.54821
▁وای	-9.54846
▁زراو	-9.5485
ahî	-9.54875
▁رانه	-9.54922
ion	-9.54924
▁مردوو	-9.54941
▁ڕاد	-9.54962
▁خش	-9.55027
▁nivîs	-9.55071
ive	-9.55114
▁دڵخۆش	-9.55145
▁paşê	-9.55152
▁دواتر	-9.55265
▁çareser	-9.55281
▁is	-9.55653
پارێز	-9.55662
▁Tê	-9.55726
▁gu	-9.55741
▁!	-9.55746
▁Android	-9.55767
▁dar	-9.55779
▁teknîkî	-9.55873
▁داهاتوو	-9.55979
▁خۆن	-9.56052
06	-9.56068
▁بر	-9.56117
سان	-9.56173
▁·	-9.56213
▁تیادا	-9.56282
ەست	-9.56292
▁تۆمار	-9.56314
▁واڵ	-9.5634
▁جیهانی	-9.56377
▁wir	-9.56433
▁بات	-9.56449
نەوەی	-9.56478
▁خۆگر	-9.56489
▁Gi	-9.56611
▁bank	-9.56694
وڵ	-9.56756
bê	-9.56758
ika	-9.56818
▁دیاریکراو	-9.56855
ust	-9.56859
▁çê	-9.56901
rk	-9.5691
گۆ	-9.56949
▁لەوانەیە	-9.57053
▁چاوی	-9.57129
▁رهات	-9.5717
▁هانا	-9.57241
بینی	-9.5727
▁Wi	-9.57277
Q	-9.57291
▁hejmara	-9.57353
ژین	-9.57403
net	-9.57404
▁guhertin	-9.57485
▁dî	-9.57518
▁رج	-9.57543
▁ناتوانن	-9.57594
▁ناخۆش	-9.57674
▁بگرن	-9.57678
AS	-9.57687
▁دوژمن	-9.57916
can	-9.57966
tu	-9.58008
▁ڕای	-9.58093
▁Yekbûyî	-9.5814
▁توانی	-9.58143
داوه	-9.58333
گرن	-9.5848
▁Mu	-9.58529
tro	-9.5875
▁Bersiv	-9.58793
ماندا	-9.58875
▁باشە	-9.58953
▁Çînê	-9.59116
▁چاوپۆشی	-9.59122
▁نوح	-9.59189
دوای	-9.59253
99	-9.59586
▁i	-9.59719
اف	-9.59778
▁بیرو	-9.59778
▁Xane	-9.59812
wir	-9.59819
▁پاڵ	-9.59828
▁temamî	-9.59877
▁ڵێ	-9.59892
lên	-9.59927
▁rewş	-9.59976
▁درووست	-9.60007
▁hest	-9.60049
▁دانه	-9.60058
dro	-9.60133
▁خۆشه	-9.60147
▁on	-9.6018
▁hema	-9.60221
اب	-9.60225
▁هەروەها	-9.60229
ڵە	-9.60229
yo	-9.6028
▁destpêkirin	-9.60336
▁Gelek	-9.60342
▁malperê	-9.60466
▁پێناوی	-9.60566
▁#	-9.60567
▁باشتر	-9.6061
▁con	-9.6083
کەر	-9.60937
▁xebatê	-9.61015
▁کەسێک	-9.61181
▁Ca	-9.61272
ding	-9.6129
▁Dest	-9.61341
darî	-9.61355
lav	-9.61446
min	-9.61592
bol	-9.61607
▁nî	-9.61608
▁هەبوو	-9.61633
▁یەکێک	-9.61663
▁dil	-9.61671
lar	-9.61744
بکه	-9.61804
erî	-9.61804
▁Ad	-9.61893
ec	-9.61942
din	-9.62068
▁ناخ	-9.62096
▁کۆڵ	-9.62193
bin	-9.62262
▁Pê	-9.62272
▁guh	-9.62295
▁tr	-9.62365
▁peyda	-9.62444
▁bet	-9.62482
stî	-9.62486
▁بگرێت	-9.6255
دن	-9.62631
▁Car	-9.62636
▁کێو	-9.62704
ID	-9.62707
▁ar	-9.62841
ong	-9.62908
sion	-9.62917
▁کردوو	-9.62994
▁تۆش	-9.63023
▁ستان	-9.6303
▁کوێ	-9.63045
▁qeyd	-9.63053
▁îro	-9.63131
▁دڵنیابن	-9.63158
▁design	-9.63165
mb	-9.63202
▁پێو	-9.6321
alî	-9.63226
▁tiştên	-9.6327
60	-9.63305
▁Best	-9.63316
▁bihayê	-9.63455
▁یشتن	-9.63468
جار	-9.63518
xistina	-9.63546
▁Per	-9.63565
lek	-9.63578
▁biçûk	-9.63625
▁رستی	-9.63644
-4	-9.63759
▁Min	-9.6377
ct	-9.6384
-1	-9.63848
karî	-9.63901
▁xweş	-9.63911
▁hem	-9.63943
▁هیوا	-9.64049
form	-9.6409
cr	-9.64241
▁خێرا	-9.64307
▁زمان	-9.64311
▁ad	-9.64357
eb	-9.64394
tch	-9.6444
▁hilberîn	-9.64474
▁زانست	-9.64475
▁mişterî	-9.64603
بی	-9.64612
era	-9.64672
nas	-9.64691
▁mu	-9.64761
▁dayîn	-9.64812
دەم	-9.64902
▁ندێك	-9.64924
▁jiyana	-9.64926
▁شوێنه	-9.65007
▁کافران	-9.6501
tinê	-9.65215
▁model	-9.65255
yeke	-9.65326
▁مڕۆ	-9.65387
▁بیس	-9.654
▁Niha	-9.65483
▁دەربارەی	-9.65484
▁هتد	-9.65602
zer	-9.65666
▁bigirin	-9.65722
▁وترێت	-9.65729
سو	-9.65778
mir	-9.65965
▁bingehîn	-9.65972
=	-9.65985
cu	-9.65995
▁...]	-9.66019
▁زۆری	-9.66053
▁ئەنجام	-9.66073
▁pol	-9.66123
خان	-9.66136
▁پۆل	-9.6621
▁کانمان	-9.66225
▁sp	-9.66271
ەرە	-9.66275
▁hewl	-9.66309
▁ئاس	-9.66312
▁پاکی	-9.66316
tar	-9.66328
so	-9.66471
▁هێشتا	-9.66476
▁dibêje	-9.66546
▁22	-9.66595
▁kiriye	-9.66653
▁ئازاد	-9.66665
▁لاواز	-9.66695
▁زان	-9.66702
▁ch	-9.66735
▁جیاوازی	-9.6674
▁bêyî	-9.66808
▁کوشت	-9.66856
▁rapor	-9.66859
▁سک	-9.66909
▁رباز	-9.67008
▁یانوت	-9.67107
ترس	-9.67123
خوێن	-9.67133
hu	-9.67147
xi	-9.67157
▁بکەیت	-9.67215
pirs	-9.67341
den	-9.67373
ێنیت	-9.67389
▁play	-9.67511
-20	-9.67537
ect	-9.67611
▁ڵێنی	-9.67772
▁dikim	-9.67861
▁2013	-9.67882
▁سوور	-9.67922
rb	-9.67929
▁باوکی	-9.67938
▁rengê	-9.68038
▁Roj	-9.68149
▁firotanê	-9.68345
nivîs	-9.68378
نێ	-9.68388
▁فڕێ	-9.68413
ds	-9.68587
▁لێرە	-9.68617
▁mêr	-9.68666
ەل	-9.68752
▁bazirganî	-9.68813
▁سانی	-9.68886
▁Navenda	-9.689
▁رم	-9.68935
qu	-9.68994
ill	-9.69016
▁Navê	-9.69086
▁قسە	-9.69104
geh	-9.69187
▁چارەسەر	-9.69188
▁azad	-9.69193
▁بانگه	-9.69223
emîn	-9.69293
EN	-9.6931
▁دەم	-9.69335
▁ڵکینه	-9.6936
oo	-9.69362
ist	-9.69387
▁فراوان	-9.69434
rop	-9.69448
▁وێنە	-9.69462
▁Eger	-9.69568
▁derê	-9.69592
09	-9.69627
ight	-9.69708
واز	-9.69716
▁داو	-9.69773
par	-9.69805
ten	-9.69811
▁awayekî	-9.69989
xistin	-9.70011
ەس	-9.70041
che	-9.70113
out	-9.70124
▁بەم	-9.70138
▁MPEG	-9.70167
▁kêmtir	-9.70224
rus	-9.7023
yn	-9.70268
▁رزه	-9.70492
▁لام	-9.70516
▁tim	-9.70536
کاتێک	-9.70631
▁ca	-9.70645
▁داوا	-9.70683
rist	-9.70712
▁ریاندا	-9.70754
▁دژی	-9.70787
▁alîkarî	-9.70807
▁ندێکی	-9.70931
▁چین	-9.70939
▁kurt	-9.70971
▁ماڵات	-9.71031
▁dîsa	-9.71137
▁teknolojiya	-9.71155
Û	-9.71219
▁zû	-9.71234
▁lez	-9.71246
▁ڵاڵ	-9.71248
vo	-9.7126
▁کدا	-9.71339
▁پاش	-9.7135
▁Bike	-9.71378
▁bajarê	-9.71408
▁گران	-9.71408
▁ڕیسوا	-9.71414
گەر	-9.71423
▁xwarin	-9.7144
▁by	-9.71469
▁نێ	-9.71527
▁چیرۆک	-9.7153
اد	-9.71542
▁3.	-9.71655
tter	-9.71705
زا	-9.71741
▁ewle	-9.71793
ەتی	-9.71816
andî	-9.71824
شار	-9.71835
ھ	-9.71974
▁gotin	-9.71991
jêr	-9.72017
pî	-9.72022
▁بێگ	-9.72054
▁ئاوات	-9.72099
16	-9.72202
▁pêvajoya	-9.72279
▁بەرز	-9.72283
çûn	-9.72338
خوا	-9.72342
west	-9.72413
▁بردن	-9.72452
▁زڵ	-9.72645
▁Ya	-9.72724
▁fe	-9.72743
٥	-9.72746
▁pel	-9.72773
ö	-9.72782
▁بەردەوام	-9.72782
▁کردۆت	-9.72855
▁as	-9.7292
▁destpêkê	-9.72927
▁نیگا	-9.72952
05	-9.72962
oka	-9.73003
ram	-9.73186
▁رنجی	-9.73192
▁بخۆن	-9.73197
▁Xwedê	-9.73301
▁ماڵی	-9.73331
▁باپیران	-9.73388
zê	-9.73456
▁bajar	-9.7346
▁ڕاگ	-9.73487
▁Dr	-9.73568
07	-9.73638
▁تاو	-9.73664
▁qebûl	-9.7367
▁کوڕی	-9.73681
▁کا	-9.73687
dy	-9.73748
ikê	-9.73763
▁Sal	-9.73834
nameyê	-9.73849
دروست	-9.73851
▁agahdar	-9.73875
▁تێد	-9.73879
سەر	-9.73949
▁en	-9.74031
▁berbiçav	-9.74052
ther	-9.74057
▁ببین	-9.74064
▁خۆیدا	-9.74131
car	-9.74132
▁فێری	-9.74152
▁hwd	-9.7418
▁بەسەر	-9.74217
▁veguherîn	-9.74262
▁belê	-9.74262
▁مای	-9.743
▁operator	-9.74308
▁girêdan	-9.74317
▁cara	-9.74326
▁شیر	-9.74406
▁Ac	-9.74426
▁gi	-9.74573
مەوە	-9.74621
▁ردی	-9.74626
▁ئیسرائیل	-9.74693
▁bonus	-9.74697
▁خۆراک	-9.74721
ڵێن	-9.74761
▁زا	-9.74769
▁رفراز	-9.74874
▁roja	-9.74901
▁Bar	-9.74938
▁بۆت	-9.74939
▁jor	-9.75054
bu	-9.75073
▁کۆشش	-9.75083
▁ئ	-9.75121
▁Jo	-9.75143
▁شاراو	-9.75155
▁یارمەتی	-9.75222
▁جو	-9.75265
▁Ex	-9.75274
▁ناهێنن	-9.75349
▁بینن	-9.75429
ice	-9.75521
▁رامۆش	-9.75522
▁شاد	-9.75619
▁تری	-9.75667
▁هەمان	-9.75706
▁کردبێت	-9.75769
کەوت	-9.75888
▁ڵب	-9.75898
ence	-9.75899
kevin	-9.75917
▁زووی	-9.75929
ketin	-9.75931
her	-9.75987
▁قیق	-9.75995
▁چێت	-9.76012
▁ماوەی	-9.76103
▁alavên	-9.76126
▁çû	-9.7624
کرا	-9.76242
▁berfireh	-9.76249
▁Er	-9.76301
▁کۆچ	-9.76371
▁نەبوو	-9.76511
03	-9.76514
دۆز	-9.76517
▁بینین	-9.76523
خە	-9.76626
▁karûbarê	-9.76641
▁ڵك	-9.7666
▁یدا	-9.76738
▁ترسن	-9.76815
▁تم	-9.76835
gr	-9.76926
▁تاک	-9.76964
▁رزی	-9.76973
▁دادپ	-9.76993
▁ژنان	-9.77014
▁Ni	-9.77031
▁tiştek	-9.77045
▁nayê	-9.77091
▁سوودی	-9.7712
▁deng	-9.77122
▁دڵیان	-9.77238
فه	-9.77251
▁سوژ	-9.77276
▁ژوور	-9.773
▁awayî	-9.77432
▁Divê	-9.77438
▁نادروست	-9.77631
nirx	-9.77646
ساز	-9.77726
înî	-9.7773
▁دارو	-9.77753
▁دەکەین	-9.77766
▁post	-9.77871
▁2020	-9.77877
tes	-9.77897
▁پشتی	-9.77927
▁video	-9.77962
▁hatibû	-9.77973
▁vi	-9.78002
▁گوێر	-9.78058
فر	-9.78059
bêj	-9.78068
▁nêzîkî	-9.78177
▁l	-9.78221
▁گشتی	-9.78264
ەکانیان	-9.78329
▁bîne	-9.7833
كردن	-9.78348
▁bersiv	-9.78365
▁نابین	-9.78435
▁operasyon	-9.78495
pey	-9.78496
ert	-9.78516
▁فا	-9.78543
▁Nî	-9.786
ەری	-9.786
▁Ti	-9.78612
▁گفتوگۆ	-9.78628
▁حی	-9.78798
من	-9.78854
شا	-9.78904
45	-9.78905
▁رچوو	-9.78918
▁Mal	-9.79084
▁Play	-9.79167
▁فتار	-9.79175
▁4.	-9.79192
▁چار	-9.79265
▁riya	-9.7929
heng	-9.79292
ble	-9.79299
Ş	-9.79323
▁نێوانیاندا	-9.79369
سە	-9.79432
ja	-9.79472
▁بڕاو	-9.79513
▁Kom	-9.7956
▁ragihandin	-9.79598
▁مە	-9.79599
ret	-9.79642
guherîn	-9.79672
▁up	-9.79677
nder	-9.79686
▁Giştî	-9.79709
▁zanîngehê	-9.798
ick	-9.79877
یەکە	-9.79935
▁لێخۆشبوون	-9.79951
▁لار	-9.80069
▁encam	-9.80104
▁ڵكی	-9.80129
▁asta	-9.80164
▁tev	-9.80179
▁نیو	-9.80183
sy	-9.80234
▁بینیت	-9.80237
▁derve	-9.80318
way	-9.80393
▁pîvan	-9.80393
▁فێڵ	-9.80409
فت	-9.80468
٤	-9.80519
70	-9.80544
▁Dî	-9.80604
▁دڵسۆز	-9.80655
ish	-9.8072
girtina	-9.80835
▁توانا	-9.80837
▁خات	-9.80968
ance	-9.81035
▁پووچ	-9.81067
▁27500	-9.81069
چوون	-9.8107
▁çewt	-9.81071
▁Bikaranîna	-9.81087
sc	-9.81088
▁واڵی	-9.81096
گرێت	-9.81126
▁ئایین	-9.81129
▁شتێکدا	-9.81149
▁karê	-9.81161
▁ناوچ	-9.81194
زو	-9.81203
etê	-9.81205
▁hêsanî	-9.81225
▁کوێر	-9.81279
▁rojan	-9.8128
ore	-9.81284
lat	-9.81331
и	-9.8134
dor	-9.81382
▁Wekî	-9.81411
▁sî	-9.81421
ين	-9.81463
▁چاودێری	-9.81578
▁درا	-9.81579
نگ	-9.81591
jo	-9.81611
▁bernameyên	-9.81616
35	-9.81645
▁tû	-9.81647
▁Hin	-9.8173
▁j	-9.81861
▁sepan	-9.8188
▁خشیوون	-9.81883
90	-9.81934
▁یب	-9.81997
▁malê	-9.82035
birin	-9.82056
▁ئاوه	-9.82088
▁قورس	-9.82172
▁ستایش	-9.82173
▁هەوڵ	-9.82187
eyek	-9.82426
بەخش	-9.82436
▁گومڕایی	-9.82555
▁تکا	-9.8261
04	-9.82724
25	-9.82746
▁Roja	-9.82756
▁بهێنێت	-9.82792
▁berhem	-9.82817
riya	-9.82833
▁bingeha	-9.82839
▁derfet	-9.82867
ڕۆ	-9.82872
02	-9.82917
▁ترسی	-9.82925
▁meha	-9.82931
▁anîn	-9.82975
نج	-9.83008
▁ئاوی	-9.83062
▁زر	-9.83071
îş	-9.83104
▁پای	-9.83109
ral	-9.83135
▁nimûne	-9.83143
14	-9.83165
lin	-9.83179
یشدا	-9.83257
▁Kurd	-9.8327
ox	-9.833
qî	-9.83314
▁ڕاستگۆ	-9.83329
▁ڕێزی	-9.83333
▁Dan	-9.83334
▁ڕووبار	-9.83344
▁piçûk	-9.83424
▁دژ	-9.83501
▁لو	-9.83524
▁Train	-9.83539
وز	-9.83617
ێین	-9.83642
▁tra	-9.83732
گەی	-9.83786
▁lêgerîn	-9.8399
ture	-9.84019
▁یاند	-9.84056
▁Ju	-9.84082
gar	-9.84117
▁Çawa	-9.8414
▁beşa	-9.84145
▁پیا	-9.84225
▁biryar	-9.8427
▁پاك	-9.84275
▁خوێندن	-9.84343
ell	-9.84346
▁ئیش	-9.84368
raz	-9.8438
▁رێک	-9.84423
AT	-9.84431
▁شان	-9.84445
▁çêkirina	-9.84449
چون	-9.8454
▁عیسا	-9.84559
▁ڕوات	-9.84623
▁info	-9.84635
▁پاشا	-9.84673
ەکانمان	-9.84691
▁rêber	-9.84702
▁میو	-9.84726
",	-9.8474
ڕاست	-9.84854
▁ڵاتدار	-9.84855
▁نگان	-9.84909
▁weke	-9.84911
ane	-9.84933
▁kesan	-9.84962
▁شێوە	-9.84965
▁bikarhênerên	-9.85047
▁ئەمەش	-9.85113
▁هی	-9.85116
ژن	-9.85154
▁ڕن	-9.85286
مدا	-9.85288
▁توانن	-9.85292
▁pişt	-9.85351
▁جوانی	-9.85368
▁ساره	-9.85468
▁نجامداوه	-9.85474
▁pêşî	-9.855
▁دەکەم	-9.85536
▁şirket	-9.85552
▁سات	-9.85553
▁ندن	-9.85658
▁meh	-9.85668
▁تیشدا	-9.85677
▁herêmê	-9.857
▁dora	-9.85701
▁erdê	-9.85714
zîk	-9.85716
▁ئێوە	-9.85749
▁Lêkolîn	-9.85839
▁Bitcoin	-9.85983
▁part	-9.86034
▁بوای	-9.86169
▁bazara	-9.86272
▁زاندوو	-9.86295
درێت	-9.86343
▁bilî	-9.8639
▁کانیدا	-9.8652
40	-9.86582
▁hevkar	-9.86659
ینەوە	-9.86683
▁2014	-9.86725
▁زاناو	-9.86745
▁xizmetên	-9.86786
٦	-9.8685
▁ئاستی	-9.86852
▁dîtina	-9.86868
▁derveyî	-9.86877
▁destûr	-9.86924
▁Gr	-9.86972
ls	-9.86994
▁ناکرێت	-9.8714
▁کانم	-9.8721
▁bistînin	-9.87433
▁رزو	-9.87588
yl	-9.87631
▁şev	-9.8765
▁şandin	-9.87658
▁dît	-9.87666
oma	-9.87714
کەن	-9.87851
parêz	-9.87863
▁(1	-9.87899
▁karanîna	-9.87906
▁Or	-9.87932
ug	-9.8794
▁Tev	-9.87991
»	-9.87993
▁روو	-9.88001
▁دانیشت	-9.88022
▁هەبێت	-9.88111
▁شوێنێک	-9.88149
▁Berhemên	-9.88166
▁3/4	-9.88313
▁ڵای	-9.88313
▁تێبگ	-9.88317
▁ئاگایه	-9.88376
а	-9.88461
▁dan	-9.88483
▁تانی	-9.88544
▁wa	-9.88577
▁دەنگ	-9.88634
con	-9.88699
▁materyalên	-9.88707
ڵا	-9.88715
▁نوور	-9.88718
▁hî	-9.88828
▁El	-9.88846
▁vala	-9.88852
دیار	-9.88918
رت	-9.88921
▁xwendin	-9.88929
▁شدا	-9.88976
▁navdar	-9.88996
ET	-9.89022
▁trênê	-9.89063
cy	-9.89109
▁balafir	-9.89116
راوە	-9.89129
gan	-9.89143
▁Bê	-9.89156
▁tên	-9.89186
18	-9.89188
▁or	-9.89335
▁digerin	-9.89353
avê	-9.89356
▁جوو	-9.89438
▁خوایان	-9.89464
sal	-9.89479
ۆس	-9.89537
▁وایە	-9.89737
بیر	-9.89744
▁دەبین	-9.89762
îkî	-9.89783
▁گوفتاری	-9.89808
▁rengî	-9.89822
▁لێک	-9.89865
▁خدا	-9.89892
▁خوایی	-9.89898
▁ئاشکرایه	-9.90029
nde	-9.90096
▁هۆش	-9.90123
▁tînin	-9.90131
▁bîr	-9.90209
▁پێتان	-9.90405
▁2015	-9.90426
▁لێتان	-9.90482
▁بپ	-9.90528
.00	-9.90541
NA	-9.90594
▁سیش	-9.90697
دەر	-9.90728
▁wi	-9.90729
-19	-9.90804
یەوە	-9.90839
▁خۆیاندا	-9.90892
▁تیا	-9.90909
کەم	-9.90916
▁name	-9.90935
▁ڕێت	-9.90937
▁çap	-9.91076
▁هێڵ	-9.91095
şem	-9.91097
▁وێنه	-9.91104
ling	-9.91113
▁زەوی	-9.91156
▁Dem	-9.91164
io	-9.91285
▁dixwazî	-9.91307
رم	-9.91317
▁temam	-9.91333
ray	-9.91373
cl	-9.91385
▁Dewletên	-9.91423
▁tişt	-9.9143
▁Mirov	-9.91461
▁form	-9.91471
▁چاکترین	-9.91492
▁قینه	-9.91579
▁ئەوەش	-9.91689
▁avakirina	-9.91724
ind	-9.91728
▁gav	-9.91768
tek	-9.9179
▁ئاسمانی	-9.91833
▁ناتوانێت	-9.91915
▁23	-9.9193
line	-9.91943
▁منداڵان	-9.91978
▁پێشک	-9.92001
▁تیش	-9.92003
▁fir	-9.92021
▁navenda	-9.92071
▁beşek	-9.92107
▁تووش	-9.92216
▁hilberê	-9.92249
▁بیست	-9.92256
blo	-9.9229
▁سوپاسگوزاری	-9.92326
33	-9.9236
▁5.	-9.92437
▁Con	-9.92454
▁ستێر	-9.92455
manî	-9.92483
ێکمان	-9.92517
▁Google	-9.92528
▁zelal	-9.92528
▁herêmî	-9.92529
ort	-9.92538
▁ناگ	-9.92611
▁کارێکی	-9.92641
▁hewa	-9.92672
▁بوختان	-9.92682
▁کتێبی	-9.92729
▁salê	-9.92753
xane	-9.92795
17	-9.92852
▁Kon	-9.92873
کەین	-9.92902
▁fermî	-9.9299
▁Rû	-9.93046
▁ئارام	-9.93087
ase	-9.93103
ock	-9.93132
▁nu	-9.9318
▁bikarhêner	-9.93226
▁28	-9.9324
gram	-9.93248
▁jinan	-9.93252
▁یاسا	-9.93282
▁روونی	-9.93302
tri	-9.93357
hêl	-9.9338
asyona	-9.93537
▁وتوون	-9.93592
▁60	-9.93596
bus	-9.93617
ییەوە	-9.93694
zar	-9.93697
▁rasterast	-9.93765
▁نەخۆشی	-9.93767
▁Ziman	-9.93768
▁هید	-9.93774
▁wêne	-9.93848
▁ئینسان	-9.93921
▁نگه	-9.93925
▁تای	-9.93931
▁سەیری	-9.93936
▁40	-9.93939
lîk	-9.93941
▁ڵاو	-9.93946
ێکم	-9.94025
keft	-9.94097
lic	-9.94103
mail	-9.94138
MA	-9.94181
▁pêdivî	-9.94233
هێنا	-9.94238
bet	-9.94262
▁بهێنه	-9.943
ینە	-9.94346
▁hezar	-9.94373
▁milyon	-9.944
IS	-9.94411
کردووه	-9.9449
▁şexsî	-9.94546
▁تەنانەت	-9.94546
کەی	-9.94612
اق	-9.94645
▁Air	-9.94667
▁sînor	-9.94704
▁کۆشک	-9.94721
▁karta	-9.94767
▁مووان	-9.94772
▁خەڵکی	-9.94878
▁Xizmet	-9.95018
▁gava	-9.95038
گای	-9.95086
پرس	-9.95164
▁سین	-9.95204
▁رێکی	-9.95284
▁Cih	-9.95307
▁go	-9.9535
▁دەتوانین	-9.95493
▁تریان	-9.95504
▁Design	-9.9565
▁دەکرێت	-9.95706
▁plastîk	-9.95809
gehê	-9.95942
▁motor	-9.96007
▁peyman	-9.96042
▁în	-9.9609
▁منداڵی	-9.96097
▁eşkere	-9.96102
▁fî	-9.96107
▁کردبوو	-9.96114
▁دڵه	-9.96196
▁سوو	-9.96201
ens	-9.96202
▁براک	-9.96252
▁ڕزگاری	-9.96258
▁تێك	-9.96379
US	-9.96412
▁فامان	-9.96413
▁casino	-9.96447
▁سبیحات	-9.96447
▁دژای	-9.96455
▁چونك	-9.96456
34	-9.96461
▁Nîşan	-9.96494
▁Qu	-9.9651
▁cur	-9.96561
ress	-9.96597
▁belaş	-9.96607
ژێر	-9.96616
▁سوپاسگوزار	-9.96656
▁rojane	-9.96658
▁wateya	-9.96767
▁زاڵ	-9.96815
هێنان	-9.96855
پۆ	-9.96869
ou	-9.96897
▁بڵێن	-9.96986
▁تاوانباران	-9.97068
▁belge	-9.97072
▁Tattoo	-9.97088
▁بچووک	-9.97092
ibe	-9.97094
▁mirin	-9.97137
75	-9.97208
▁دروستکراو	-9.97222
▁Çûna	-9.97249
▁lîsteya	-9.97269
rav	-9.97301
▁Dîrok	-9.97342
▁زات	-9.97367
▁herweha	-9.9741
▁Almanya	-9.97415
▁ئازاری	-9.97415
▁Bel	-9.97431
▁Hil	-9.97467
▁رموو	-9.97554
▁ئومێد	-9.97573
▁Tebax	-9.97573
▁ڕۆڵ	-9.97657
▁ساد	-9.97709
▁dizanin	-9.97735
▁nehat	-9.97743
▁encamên	-9.97866
▁ندو	-9.97872
)...	-9.97879
▁بیرۆکە	-9.97967
▁خن	-9.98013
▁app	-9.98036
چو	-9.98056
▁têkildar	-9.98058
▁دەدات	-9.98081
keve	-9.98123
است	-9.98199
▁kon	-9.9822
▁mas	-9.98245
▁rastîn	-9.98246
▁هێشت	-9.98249
▁ڕۆژێك	-9.98262
....	-9.98298
▁Îsa	-9.98333
▁پێشوو	-9.98393
▁get	-9.984
ێتی	-9.98404
▁nîv	-9.98412
▁وازی	-9.98446
500	-9.98452
▁پێچ	-9.98537
▁mîna	-9.98623
▁بۆمان	-9.98675
▁زانین	-9.98678
ksiyon	-9.98702
بون	-9.98706
▁باوو	-9.98772
▁جادووگ	-9.98795
▁Paqij	-9.98874
▁بای	-9.98983
nda	-9.98989
▁دیندار	-9.99019
mîn	-9.9903
▁کۆن	-9.99039
▁zimanê	-9.99074
▁sazkirin	-9.99114
▁ceribandin	-9.99202
kerê	-9.99222
▁گەشە	-9.99225
بات	-9.99248
▁پیس	-9.99268
21	-9.99319
ric	-9.99319
▁21	-9.99327
▁civakî	-9.99366
gor	-9.99392
کێ	-9.99438
خواز	-9.99448
CoV	-9.99466
▁کافر	-9.99483
ێکتان	-9.99519
▁Rizgari	-9.99531
▁شێواز	-9.99617
▁rêxistin	-9.99674
▁rêjeya	-9.99697
▁JI	-9.99718
▁کاران	-9.99822
▁game	-9.9984
▁جادوو	-9.99892
▁games	-9.99897
▁وەکو	-9.99911
▁زن	-9.99914
▁xwendekarên	-9.99948
وح	-9.99989
е	-10.0003
▁agahî	-10.0003
کەوتن	-10.0011
▁FEC	-10.0019
ial	-10.0021
siyon	-10.0023
▁Wêne	-10.0031
▁سەد	-10.0039
ty	-10.0041
▁خاک	-10.0045
lû	-10.0047
▁بەو	-10.0053
08	-10.0061
▁یاندنی	-10.0069
▁بنچین	-10.007
▁پێویستی	-10.0072
▁serdana	-10.0073
▁çêtir	-10.0073
▁یشت	-10.0083
roj	-10.0084
▁quality	-10.0086
دراو	-10.0094
eka	-10.0096
▁Ja	-10.0116
▁ڕوان	-10.0116
gel	-10.0117
▁download	-10.0119
IR	-10.0121
ەتەوە	-10.0123
▁وێڵ	-10.0125
▁بێزار	-10.0133
▁Ki	-10.0136
▁ئاسووده	-10.0136
▁درۆزن	-10.0136
▁شێت	-10.014
▁spî	-10.0142
چێت	-10.0145
▁you	-10.0148
é	-10.0153
PSK	-10.0153
▁Ru	-10.0154
▁perwerde	-10.0158
▁بەرەو	-10.0161
ێنەر	-10.0162
زار	-10.0162
▁دەبن	-10.0163
▁بپارێزن	-10.017
▁balkêş	-10.0171
▁Vê	-10.0174
▁زاتێک	-10.0174
org	-10.0176
var	-10.0179
▁دراوه	-10.0183
▁یش	-10.0185
▁bûye	-10.0192
▁فرین	-10.0198
كی	-10.0198
▁Tele	-10.0207
▁لایان	-10.0209
▁شیمان	-10.0209
▁doz	-10.021
▁کردار	-10.0214
▁پارێز	-10.0214
▁زمانی	-10.0215
▁mala	-10.0215
▁پله	-10.0216
▁tevahî	-10.0221
▁rewşa	-10.0227
YA	-10.0228
▁wêneyê	-10.0229
ێتەوە	-10.0231
▁pirsgirêk	-10.0233
ound	-10.0234
işk	-10.0237
▁رپێچی	-10.0237
▁حساب	-10.0238
▁بریتی	-10.0241
▁bernameya	-10.025
ley	-10.0251
▁tattoo	-10.0254
▁تایبەت	-10.0254
▁باری	-10.0259
▁Stenbolê	-10.027
▁Part	-10.0279
▁کتان	-10.0283
IC	-10.0286
▁رۆژ	-10.0287
▁تەنیا	-10.0289
كرد	-10.029
▁Tirk	-10.0291
▁weşandin	-10.0292
▁جاڵ	-10.0293
▁baştir	-10.0301
▁zarok	-10.0306
▁xelat	-10.0307
▁کردووە	-10.0318
▁kevir	-10.0323
▁alîkar	-10.0324
use	-10.0332
▁bên	-10.0337
▁شێوەیە	-10.0338
▁موسڵمان	-10.034
dariya	-10.0349
îd	-10.0349
mg	-10.0353
▁parve	-10.0366
rg	-10.0382
23	-10.039
bat	-10.0396
ning	-10.0397
anîn	-10.0398
▁ندێ	-10.0402
▁بیم	-10.0403
راون	-10.0403
گرت	-10.0403
vel	-10.0407
اندنی	-10.0408
▁şûna	-10.0409
▁winda	-10.0409
▁پشتیان	-10.042
▁ex	-10.0421
▁نیاز	-10.0429
جێ	-10.0429
زانن	-10.0439
فی	-10.0448
▁گێڕا	-10.0449
48	-10.045
hen	-10.045
lf	-10.0454
▁كۆ	-10.0458
24	-10.0458
خستن	-10.0465
ring	-10.0468
▁«	-10.0472
▁Amûr	-10.0478
▁Che	-10.0478
▁بینایه	-10.0482
▁guman	-10.0483
▁more	-10.0487
▁ربگرن	-10.049
▁nêzîk	-10.0491
▁zehmet	-10.0495
ێنم	-10.0497
▁رگرت	-10.0504
▁kesek	-10.0506
▁Po	-10.0509
▁Plan	-10.0509
▁xurt	-10.0513
▁ڕووناکی	-10.0513
kol	-10.0524
ven	-10.0527
AL	-10.0527
▁مین	-10.0532
▁welatên	-10.0539
٧	-10.0548
▁Alîkar	-10.0549
▁Je	-10.0555
▁mû	-10.0556
▁Amerîka	-10.0557
ated	-10.0571
▁کرێ	-10.0575
ەکەت	-10.0577
▁خاڵ	-10.0582
▁Tra	-10.0586
▁خانە	-10.0589
▁Kir	-10.06
zi	-10.0602
▁Reng	-10.0603
▁26	-10.0609
▁profesyonel	-10.0618
▁veguhestin	-10.0624
▁دەڵێ	-10.0625
▁وکات	-10.0638
▁rojê	-10.0644
▁mil	-10.0651
▁Ri	-10.0656
▁tiştekî	-10.0658
▁Navneteweyî	-10.0671
▁çarçoveya	-10.0671
▁ئیل	-10.0674
ikên	-10.0682
الله	-10.0683
▁Russian	-10.0688
▁sedema	-10.0693
▁here	-10.0707
less	-10.0711
▁ئەی	-10.0714
رک	-10.0722
ەتە	-10.0723
▁قازانج	-10.0724
▁Pir	-10.0736
ata	-10.0736
37	-10.0738
▁نائومێد	-10.0742
▁باڵ	-10.0747
▁Web	-10.0749
▁Ze	-10.075
▁خەو	-10.0759
ۆڕ	-10.0762
▁بوێت	-10.0763
47	-10.0765
▁Çalak	-10.0765
▁دەب	-10.0769
بوونی	-10.0773
▁فام	-10.0777
▁ڕازاوه	-10.0778
▁ئامێر	-10.0778
und	-10.0782
▁herêma	-10.0783
▁مێرد	-10.0786
▁LibreELEC	-10.0796
▁Windows	-10.0796
▁بێجگ	-10.0796
code	-10.0796
▁psîkolojîk	-10.08
ure	-10.0806
▁Pre	-10.0811
tur	-10.0818
▁پیر	-10.0822
ics	-10.0826
▁داخ	-10.083
▁com	-10.083
light	-10.0832
▁توندو	-10.0839
▁girtî	-10.0839
▁زۆربەی	-10.0842
▁بزانێت	-10.0843
کردنەوەی	-10.0844
trol	-10.0849
▁ندێکیان	-10.0851
▁wiha	-10.0852
▁metal	-10.0854
▁بک	-10.0863
▁=	-10.0866
▁لاد	-10.0867
▁بچوک	-10.0869
▁OpenELEC	-10.0886
▁çiqas	-10.0886
-3	-10.0892
▁nerm	-10.0902
ium	-10.0904
▁یانکرد	-10.0904
▁£	-10.0909
65	-10.0916
▁têkilî	-10.0922
▁خوێند	-10.0924
▁şert	-10.0924
٢	-10.0926
rik	-10.0927
▁ڵبژارد	-10.0933
▁لەناو	-10.0934
▁ڕق	-10.0935
▁xwezayî	-10.094
▁Hêza	-10.0943
▁pre	-10.0949
ON	-10.0955
▁ronahî	-10.0958
kişî	-10.0958
ترو	-10.0961
▁top	-10.0963
set	-10.0964
پێش	-10.0967
▁گا	-10.0967
گرتوو	-10.0977
▁Rê	-10.0977
▁باڵند	-10.0978
▁هاوب	-10.0981
sed	-10.0985
▁set	-10.0987
▁دایه	-10.0993
pro	-10.0994
▁rojnameger	-10.0995
NE	-10.0995
ical	-10.0997
mez	-10.1004
tr	-10.1013
▁خواناسی	-10.1026
▁کاریگەری	-10.1032
▁Hi	-10.1038
▁لوط	-10.1039
▁بڕی	-10.1042
saz	-10.1044
lam	-10.1044
▁Fe	-10.1045
▁înternetê	-10.105
▁China	-10.1055
▁xêr	-10.1056
▁action	-10.106
▁Th	-10.1062
▁ڕێگا	-10.1066
▁Amerîkî	-10.1068
▁civîn	-10.1069
38	-10.107
▁جۆراو	-10.1078
▁موسوڵمان	-10.1087
▁سامناک	-10.1087
AD	-10.1087
▁LED	-10.1087
▁rêwîtiyê	-10.1087
▁karsaz	-10.1101
▁License	-10.1105
22	-10.1109
time	-10.1116
بەست	-10.1119
49	-10.112
▁asteng	-10.1124
▁Serokê	-10.1124
▁Ewropa	-10.1135
▁kî	-10.1136
32	-10.1141
о	-10.1142
▁laser	-10.1147
▁بووە	-10.1169
▁qut	-10.1176
▁Pirs	-10.1193
▁گوێی	-10.1194
▁کیش	-10.1194
▁huner	-10.1198
▁بەڕاستی	-10.1199
▁ڕدار	-10.1205
▁نیە	-10.1208
▁خاوێن	-10.1215
▁سەیر	-10.1216
▁Pêşniyar	-10.1217
▁dawiya	-10.1217
▁kêfxweş	-10.1217
▁sporê	-10.1217
iyeke	-10.1223
Di	-10.1227
▁Free	-10.1236
▁بڕۆ	-10.1237
▁pîşesaziya	-10.124
▁رین	-10.124
▁fo	-10.1241
▁binivîse	-10.1254
▁destnîşan	-10.1256
▁[1]	-10.1262
▁ئاگاداربن	-10.1263
▁çand	-10.1267
▁رمی	-10.1268
ص	-10.1268
▁sedem	-10.1272
▁ئامادە	-10.1273
▁نادات	-10.1274
ۆم	-10.1274
▁نووس	-10.1278
▁telefonê	-10.1288
▁mobîl	-10.1292
▁alî	-10.1305
▁گرتن	-10.1306
▁ریك	-10.1308
▁Taybet	-10.1311
▁پێدراوه	-10.1311
▁ناچاری	-10.1313
▁Nivîs	-10.1317
95	-10.1323
▁keç	-10.1326
▁parastin	-10.1329
▁title	-10.133
▁36	-10.1332
▁هاواری	-10.1336
▁IP	-10.1345
+	-10.1357
▁balafirên	-10.136
İ	-10.1368
▁tevahiya	-10.1369
▁كردن	-10.137
رایه	-10.1371
▁100%	-10.1375
girtî	-10.1377
2016	-10.138
▁ziman	-10.1383
▁weha	-10.1385
▁tîne	-10.1386
▁Hê	-10.1386
▁رسام	-10.1388
▁bazarê	-10.1389
29	-10.141
▁hûr	-10.1412
▁ڕێگە	-10.1421
66	-10.1426
▁fêr	-10.1453
▁ردگارمان	-10.1459
gehên	-10.1463
▁qedexe	-10.1463
▁دەتوانن	-10.1463
پەڕ	-10.1469
▁جۆرە	-10.1476
▁روا	-10.1483
▁گوێڕای	-10.1483
▁حەز	-10.1484
▁ئاسایی	-10.1486
▁armanc	-10.1488
▁Pi	-10.1489
▁mezintir	-10.1508
of	-10.1508
▁heyî	-10.1514
▁ڵدا	-10.1514
ئێ	-10.1518
رین	-10.1523
▁tomar	-10.1526
▁hewceyê	-10.1527
▁hêvî	-10.153
▁بکە	-10.1536
▁firotin	-10.1541
▁kuştin	-10.1544
gah	-10.1547
ix	-10.1548
▁ڕێنمووی	-10.155
▁بارودۆخ	-10.1559
▁kevn	-10.156
▁trans	-10.1561
فرۆش	-10.1563
زانم	-10.1567
▁For	-10.1568
dom	-10.1572
▁Eutelsat	-10.1579
▁hişyar	-10.1579
▁ciwan	-10.1579
▁ناسی	-10.158
▁ڕێگەی	-10.1581
▁http	-10.1587
▁ئاشکراو	-10.159
55	-10.1592
ome	-10.1592
▁بەرهەم	-10.1599
▁navnîş	-10.16
▁قینی	-10.16
▁قڵ	-10.1601
▁pakêta	-10.1602
▁سر	-10.1607
mon	-10.1618
0,000	-10.1622
▁hilberên	-10.1629
▁باسکرا	-10.1636
▁pelê	-10.1662
fon	-10.1664
▁pirtûka	-10.1673
▁ڕام	-10.1691
▁29	-10.1693
▁گرنگی	-10.1696
▁Wî	-10.1698
▁چەندین	-10.1699
▁بیستن	-10.1705
▁pênc	-10.1717
▁500	-10.1717
▁warê	-10.1717
▁Têkilî	-10.1718
▁rol	-10.1719
▁بخات	-10.1722
gre	-10.1724
ę	-10.1735
‘	-10.1735
▁ئاماژ	-10.1735
▁سروشت	-10.1735
ûs	-10.1737
بژارد	-10.1743
hr	-10.1749
▁ڕووخسار	-10.1755
▁راب	-10.1756
▁باوەڕ	-10.1757
Li	-10.1764
▁pêl	-10.1765
▁Lu	-10.1779
▁PC	-10.1783
TS	-10.1787
تێ	-10.1788
şik	-10.1789
▁ستایشی	-10.1794
▁BİXWÎNE	-10.1794
▁elektrîkê	-10.1795
در	-10.1796
▁وەڵام	-10.1797
▁لەوە	-10.18
▁سوڕ	-10.1801
▁xwediyê	-10.1809
▁Îngilîzî	-10.1815
▁دڵنیایی	-10.1816
▁hesab	-10.1819
▁Çîn	-10.1823
http	-10.1828
xwar	-10.1834
▁بش	-10.1835
▁نیانه	-10.1836
lk	-10.1839
▁Hot	-10.1842
▁BI	-10.1842
kû	-10.1858
▁بس	-10.1858
▁naveroka	-10.1864
▁زاند	-10.1874
}	-10.1874
▁تیاچوون	-10.1875
▁لایەن	-10.1876
ES	-10.188
asyonê	-10.188
▁ڕاب	-10.1883
▁ئارامی	-10.1884
▁هەوا	-10.1884
▁Bilind	-10.1894
▁قوڕ	-10.1896
▁سەرەتا	-10.1897
▁ze	-10.191
خراو	-10.1912
▁seranserê	-10.1914
ştî	-10.1916
88	-10.1916
▁dengê	-10.1917
لک	-10.1919
▁نەک	-10.1926
▁بڕوای	-10.1933
▁damezrandin	-10.1934
▁خێرایی	-10.1937
ایەتی	-10.1947
RO	-10.1953
▁سڵاو	-10.1955
▁panel	-10.1955
▁çêtirîn	-10.1955
خۆی	-10.1966
ney	-10.1972
▁elektronîk	-10.1974
hy	-10.1975
▁شتە	-10.1984
yet	-10.1988
ult	-10.199
▁ڕێباز	-10.1993
▁ڕۆیشت	-10.1995
▁rêve	-10.2
▁بوار	-10.201
list	-10.202
▁©	-10.2021
▁Tîrmeh	-10.2035
▁١٠	-10.2037
▁navîn	-10.2041
▁تێکی	-10.2042
دەن	-10.2044
ێکیش	-10.2045
▁گومانی	-10.2051
▁taybetmendiyên	-10.2056
▁بازرگانی	-10.2056
▁nikare	-10.2056
▁bazirgan	-10.2057
▁piranî	-10.206
▁BO	-10.2065
▁ناپ	-10.2068
▁web	-10.207
▁گومڕای	-10.2071
▁Home	-10.2073
▁گوێیان	-10.2073
▁tek	-10.2076
▁çerm	-10.2077
▁bikim	-10.2077
▁یارو	-10.208
karên	-10.2082
▁pêşîn	-10.2084
زۆر	-10.2086
▁pîşesaziyê	-10.2095
▁Ava	-10.2096
xBet	-10.2096
old	-10.2104
avên	-10.2108
▁qezenc	-10.2117
▁سێکی	-10.2128
كراو	-10.2131
▁Wal	-10.2136
▁Download	-10.2137
▁ستدرێژی	-10.2137
▁گۆڕانکاری	-10.2139
▁weşan	-10.2148
▁شوێنێکی	-10.2148
▁penaber	-10.2158
▁چالاک	-10.2158
▁App	-10.2159
▁دەگە	-10.2161
oc	-10.2165
▁رچوون	-10.2169
▁27	-10.2171
▁hesabê	-10.2174
press	-10.2175
▁endam	-10.2183
▁گەشت	-10.2185
▁dibin	-10.2185
ûl	-10.2192
RE	-10.2195
ware	-10.2199
▁dewletê	-10.22
▁Rêveberiya	-10.2211
▁mirovan	-10.2218
▁dibêjin	-10.222
▁beşdar	-10.2224
cih	-10.223
▁pola	-10.2232
▁va	-10.2235
▁Başûr	-10.224
▁agahiyên	-10.224
▁2012	-10.2246
▁دڵنیاش	-10.2248
ێنرێت	-10.2249
▁Kes	-10.2253
▁Navîn	-10.2255
▁malperên	-10.2259
▁werger	-10.2261
▁mêvan	-10.2263
77	-10.2265
▁salên	-10.227
▁پرسی	-10.2271
▁ئاسانی	-10.2271
▁ناردوو	-10.2272
بوونەوە	-10.2273
▁سانێك	-10.2274
٨	-10.2282
▁مامۆستا	-10.2282
▁گرتۆت	-10.2285
▁Rûsyayê	-10.2286
▁وایان	-10.2286
▁بد	-10.2289
▁veguhestina	-10.2296
▁خیان	-10.23
٩	-10.2303
▁مزگ	-10.2305
▁توانێت	-10.2307
Bi	-10.2311
▁makîne	-10.2316
▁رگری	-10.2322
sco	-10.2327
▁email	-10.2328
▁دەکەیت	-10.2329
▁Cure	-10.2331
▁daneyên	-10.2331
▁Ab	-10.2332
▁Daxistin	-10.2335
anîna	-10.2336
▁Parastina	-10.2337
▁شیمانی	-10.2342
▁avakirin	-10.2343
▁Hejmara	-10.2345
▁machine	-10.2345
▁موجا	-10.2345
▁Bajarê	-10.2346
▁دنیاو	-10.2346
▁bûyer	-10.2349
زاته	-10.235
▁pişk	-10.235
▁لێدان	-10.2352
▁raman	-10.2354
هاتوو	-10.2356
▁bandorên	-10.2365
▁navxweyî	-10.2365
▁نموونە	-10.2366
▁Har	-10.237
▁Rêz	-10.2378
▁perwerdeya	-10.2379
▁شا	-10.2386
▁Iraqê	-10.2387
ob	-10.2387
ویستای	-10.2398
67	-10.2399
▁رفرازی	-10.2399
▁پێنج	-10.2402
▁دەرەوە	-10.2406
▁leşker	-10.2408
▁parçeyên	-10.241
44	-10.2412
▁بوویت	-10.2412
▁کاتێ	-10.2417
دڵ	-10.2424
▁پارە	-10.2427
fu	-10.243
box	-10.2431
▁KDE	-10.2432
▁çalakiyên	-10.2439
▁ڕەنگ	-10.2447
▁qet	-10.2448
▁Niştimanî	-10.245
▁avêtin	-10.245
MP	-10.2454
ute	-10.2455
▁derxistin	-10.2455
▁didin	-10.2459
▁دەرکەوت	-10.2463
▁خشیوو	-10.2465
▁Mer	-10.2473
lon	-10.2475
TO	-10.2482
سک	-10.2485
▁xwendina	-10.2489
axê	-10.249
▁IPtv	-10.2492
▁Gav	-10.2504
▁su	-10.2505
by	-10.2506
▁هێنین	-10.2511
ەکاندا	-10.2511
▁https	-10.2511
▁داخوازی	-10.2516
▁جێبه	-10.2517
کس	-10.2519
▁ragihand	-10.253
▁بەوە	-10.2539
▁Deng	-10.254
▁چاودێر	-10.2541
▁کمان	-10.2541
tiyê	-10.2544
▁mafê	-10.2546
ئی	-10.2551
▁دابین	-10.2552
▁Wek	-10.2554
▁تەمەن	-10.2556
▁eşkereyî	-10.256
هێنانی	-10.256
▁راه	-10.2562
gg	-10.2563
روو	-10.2567
▁vedi	-10.2569
▁ناوێت	-10.257
▁reş	-10.257
▁hel	-10.2575
▁Hol	-10.2577
▁ferman	-10.2578
200	-10.2578
Ç	-10.2579
▁کوفر	-10.2583
▁بكات	-10.2584
▁بەهۆی	-10.26
▁Hun	-10.261
sen	-10.261
800	-10.2628
▁بدرێت	-10.2636
▁gr	-10.2638
جۆر	-10.264
▁Navnîşan	-10.2643
▁ئارامگر	-10.2647
MC	-10.2647
▁cî	-10.2658
خۆش	-10.2663
▁În	-10.2672
MB	-10.2676
tel	-10.2683
28	-10.2683
bel	-10.2685
▁biryara	-10.2686
▁90	-10.2687
▁hevdîtin	-10.2687
YE	-10.269
▁شتانە	-10.2693
▁هەتا	-10.2706
▁قوربانی	-10.2707
▁سول	-10.2708
▁Dar	-10.2709
▁hejmar	-10.2715
▁Man	-10.2728
▁normal	-10.2729
▁telefon	-10.2734
hem	-10.2747
▁pîroz	-10.2751
▁31	-10.2757
hilat	-10.2765
▁pay	-10.2767
▁Satellite	-10.2772
▁meriv	-10.2773
▁destpêka	-10.2778
▁amûr	-10.2778
▁projeyên	-10.2788
39	-10.279
98	-10.2791
▁pace	-10.2791
▁Kontrol	-10.2795
▁bang	-10.2796
xaneya	-10.2798
▁فس	-10.2799
▁Win	-10.28
▁Beş	-10.281
▁cam	-10.2816
▁digire	-10.2817
▁navnîşan	-10.2818
▁Çar	-10.2819
▁yekemîn	-10.282
que	-10.2823
▁Mêr	-10.2826
▁diçe	-10.283
درێ	-10.2838
ڕێژ	-10.2846
▁نداز	-10.2847
▁tool	-10.2865
cor	-10.2866
▁ستهێنانی	-10.2871
▁ـ	-10.288
▁axa	-10.2884
86	-10.2896
▁نێو	-10.2897
▁derbasdar	-10.2909
▁Str	-10.2916
▁دنیایه	-10.2916
cer	-10.2917
▁ستێت	-10.2922
▁CNC	-10.2927
▁ئامانج	-10.2927
▁blog	-10.2932
▁heft	-10.2933
▁بری	-10.294
chi	-10.294
▁Enigma	-10.2949
▁خۆڕاگر	-10.2949
-15	-10.2953
یەتی	-10.2954
▁firotina	-10.2958
▁Hat	-10.296
▁sazkirina	-10.2962
▁لاو	-10.2968
27	-10.297
▁pergalê	-10.2971
▁لووت	-10.2977
▁مرد	-10.2979
bor	-10.2987
▁لێکراو	-10.2988
▁بکوژ	-10.2994
رس	-10.2996
▁توش	-10.2996
▁kalîteya	-10.3002
▁agahdariya	-10.3002
▁Rêveber	-10.3003
▁دروستکردنی	-10.3006
kt	-10.301
گیری	-10.302
ماڵ	-10.3022
▁cure	-10.3024
▁کوڵ	-10.3025
400	-10.3025
خوای	-10.303
▁پشتگیری	-10.3031
▁مافی	-10.3036
dge	-10.3041
▁aborî	-10.3043
▁لەوەی	-10.3045
îteya	-10.305
▁بج	-10.305
ord	-10.3058
▁Nûçe	-10.306
▁فرستاد	-10.3061
act	-10.3067
ئینجا	-10.3068
▁داوێن	-10.3068
xwîn	-10.3074
▁دڵنیاب	-10.3075
▁چاویان	-10.3079
▁بەشێک	-10.3084
▁doza	-10.3085
▁avahiyê	-10.3085
▁hişk	-10.3089
▁عاد	-10.3094
▁karsaziyê	-10.3095
ەوا	-10.3105
▁kapasîteya	-10.3106
▁ferheng	-10.3106
▁danîn	-10.3107
▁qada	-10.3109
▁دەچ	-10.3125
▁dîjîtal	-10.3128
▁option	-10.3128
▁چاکان	-10.3134
▁ڕێك	-10.3139
▁دوژمنان	-10.3143
▁باشترین	-10.3144
DA	-10.3151
▁veşartî	-10.3151
▁ملیۆن	-10.3151
▁Pêşkêş	-10.3154
▁cûr	-10.3155
▁دیارد	-10.3155
▁نزیکەی	-10.3164
low	-10.3164
▁hêsantir	-10.3169
▁بیروباو	-10.3189
vanên	-10.3191
▁demjimêr	-10.3197
▁Mesîh	-10.3197
gihîşt	-10.3197
▁ربگر	-10.3198
▁heya	-10.3201
▁pirsgirêkên	-10.3202
▁نییه	-10.3203
▁cryptocurrency	-10.321
▁duyemîn	-10.3222
▁لادان	-10.3236
▁amûrên	-10.3237
▁Tirkiyeyê	-10.3242
▁materyal	-10.325
▁tiştê	-10.3254
بیت	-10.3264
▁dixebite	-10.3265
▁Av	-10.3269
dewlet	-10.3272
▁Pêvek	-10.3285
▁type	-10.3288
hil	-10.3291
▁پێت	-10.3291
▁teng	-10.3294
▁babet	-10.3294
▁سەرنج	-10.3294
▁Hu	-10.3297
▁ڕۆژان	-10.3308
▁saetan	-10.3308
▁شوو	-10.331
▁بەهێز	-10.3313
▁dane	-10.3317
▁Fer	-10.332
ous	-10.3321
ووت	-10.3322
96	-10.3323
▁hilbijartin	-10.3332
wendiy	-10.3334
▁Euro	-10.3336
▁zarokên	-10.334
▁Bal	-10.3345
UR	-10.3346
گرین	-10.3351
64	-10.3355
▁زنجیر	-10.3358
▁بەڵکو	-10.3358
▁ئوم	-10.3359
▁٣	-10.3364
▁armanca	-10.3373
tre	-10.3374
▁CO	-10.3375
چاو	-10.3376
▁sar	-10.338
▁derket	-10.338
▁موشریک	-10.3381
▁Kurdistanê	-10.3381
▁Open	-10.3381
▁hêja	-10.3392
▁نگن	-10.3396
▁دادو	-10.3397
▁زل	-10.3397
▁danûstandin	-10.3404
▁hundir	-10.3404
▁bigire	-10.3405
▁şi	-10.3406
▁daxwazên	-10.3416
▁bûyerên	-10.3425
▁تاریکی	-10.3427
▁Dibe	-10.3434
axiv	-10.3436
▁nivîsandin	-10.3436
▁تاوانکار	-10.344
▁Weşan	-10.3447
▁کانیاندا	-10.3449
board	-10.345
▁çêbikin	-10.3451
▁(1)	-10.3453
▁makîneya	-10.3455
▁نێن	-10.3462
▁شارد	-10.3468
85	-10.3469
OR	-10.347
▁Channel	-10.3474
43	-10.3477
▁bacê	-10.3479
sat	-10.3482
▁Mon	-10.3482
*	-10.3486
▁mehan	-10.3488
lik	-10.349
▁ewlehiyê	-10.3498
68	-10.3498
▁دووبارە	-10.3499
IT	-10.3511
▁Bila	-10.3513
vis	-10.3516
▁şaş	-10.3518
گەیشت	-10.3523
26	-10.3524
▁درێن	-10.3524
▁kod	-10.3526
▁ئەمڕۆ	-10.3528
ode	-10.3528
waz	-10.3543
▁شارو	-10.3544
▁Ltd	-10.3545
▁pla	-10.3546
kg	-10.3554
▁demeke	-10.3565
▁Facebook	-10.3568
▁pejirandin	-10.3568
RA	-10.3569
▁Pîvan	-10.357
بینیت	-10.3571
▁mijarê	-10.3571
▁Sor	-10.3572
▁گاور	-10.3572
▁drav	-10.3573
▁Lî	-10.3576
▁hevalên	-10.3576
▁ندان	-10.3578
▁جێگیر	-10.3584
▁pirtûk	-10.3588
▁Wezareta	-10.3592
▁Girêdan	-10.3592
lock	-10.3603
rate	-10.3603
▁heke	-10.3608
ûk	-10.3609
▁Perwerde	-10.3616
▁populer	-10.3616
▁pêvajoyê	-10.3616
▁زیو	-10.3624
ەکەمان	-10.3631
▁kirine	-10.3635
şek	-10.3636
▁dixwazim	-10.364
▁komputer	-10.364
▁كتێب	-10.364
▁karker	-10.364
▁lîstik	-10.3641
▁سامانیان	-10.3641
▁key	-10.3643
▁شێوازی	-10.3651
56	-10.3651
▁daxwaza	-10.3666
ME	-10.3666
▁فیز	-10.3666
kV	-10.3677
ich	-10.3682
چەپڵە	-10.3687
▁piştgirî	-10.3687
▁بەدەست	-10.3687
▁mînak	-10.3689
▁جیهاندا	-10.369
▁گوت	-10.3691
▁هێناو	-10.37
▁xizmetê	-10.3701
▁هێنانی	-10.3701
▁هێنان	-10.3704
▁YouTube	-10.3711
▁بچێژن	-10.3711
▁biyanî	-10.3713
▁encama	-10.3717
▁Tenê	-10.3725
97	-10.3727
▁ئاشكرا	-10.3736
▁ڕووداو	-10.3747
zin	-10.3752
▁endamên	-10.3756
▁دانایی	-10.3775
▁blockchain	-10.3784
▁هۆ	-10.3787
girtin	-10.3789
▁کراون	-10.3791
bil	-10.3801
▁werin	-10.3804
ular	-10.3805
▁Pergala	-10.3808
▁otomatîk	-10.3808
▁multi	-10.3808
▁barkirin	-10.381
bûyî	-10.3814
rast	-10.3814
▁can	-10.3821
▁Port	-10.3829
▁جۆرێک	-10.3838
▁Hemî	-10.3841
▁برێن	-10.3844
▁گۆڕان	-10.3848
▁nêz	-10.3858
▁gund	-10.3874
▁software	-10.3881
hatin	-10.3881
▁٢	-10.3884
▁tevlî	-10.3885
▁sedî	-10.3893
▁baştirîn	-10.3896
ktor	-10.3904
▁cûda	-10.3905
▁wergirt	-10.3914
▁rojên	-10.3917
▁daxistin	-10.3917
▁OF	-10.3924
▁fêm	-10.3931
▁kirîna	-10.3931
▁Nor	-10.3934
▁€	-10.3946
٣	-10.3947
▁Post	-10.3953
▁قوتابخانە	-10.3954
▁tevger	-10.396
▁[...]	-10.3979
▁پۆشاک	-10.3979
▁cinsî	-10.3979
▁بتان	-10.3983
▁pakêtê	-10.3989
▁jêrîn	-10.3994
ط	-10.4001
▁پاداشتیان	-10.4009
▁ڕۆح	-10.401
▁deyn	-10.4012
▁saet	-10.4025
▁''	-10.4031
best	-10.4034
▁bîra	-10.4036
▁هێناون	-10.4039
بیستن	-10.4048
▁Lîsteya	-10.4053
▁Video	-10.4054
▁باڵا	-10.406
▁رستراو	-10.4061
▁مانای	-10.4067
▁بەشێوەیەک	-10.4078
▁ڕوناکی	-10.4078
▁Read	-10.4083
ibû	-10.4084
▁hebûn	-10.4096
76	-10.4096
▁فڕ	-10.4097
°	-10.4097
▁rabû	-10.4099
▁رشۆڕ	-10.4103
▁jiyanê	-10.4116
▁benda	-10.4117
▁لەوێ	-10.4125
▁full	-10.4128
▁dawiyê	-10.4128
[2]	-10.4128
▁gazê	-10.4129
▁daxwaz	-10.4131
59	-10.4148
▁'%	-10.4155
çik	-10.4155
▁ترسێن	-10.4161
▁xwendekar	-10.4165
▁بپرس	-10.4166
▁lingê	-10.4175
▁navnetewî	-10.4178
agon	-10.4178
▁گوناهبار	-10.4185
▁salî	-10.4195
▁navneteweyî	-10.4203
▁جیهاد	-10.4203
63	-10.4204
▁çêkir	-10.4209
▁Çiyayê	-10.4214
▁destûra	-10.4216
top	-10.4219
▁پاب	-10.4221
▁ڵاق	-10.4223
rêj	-10.4226
▁Enstîtuya	-10.4229
▁Xwendekar	-10.4229
▁dibistanê	-10.4229
olojiya	-10.4229
▁دووباره	-10.423
▁ڕزگارمان	-10.4232
▁ئافرەت	-10.4245
▁ماندوو	-10.4248
▁عقوب	-10.4254
▁piraniya	-10.4254
▁series	-10.4262
▁باب	-10.4266
٠٠	-10.4268
RT	-10.4271
▁hefteyê	-10.4272
▁ئەمانە	-10.4273
▁medyayê	-10.4276
▁تۆوی	-10.4276
▁xilas	-10.4279
▁mîheng	-10.4279
▁binêrin	-10.4279
▁lêpirsîn	-10.4279
▁گەنج	-10.4281
▁بون	-10.4282
cc	-10.4283
dal	-10.4284
▁داون	-10.429
▁توندی	-10.4295
54	-10.4298
tik	-10.4298
asyon	-10.4306
▁گێڕن	-10.4306
▁00	-10.4308
ketina	-10.4308
▁سیف	-10.4313
▁کورت	-10.4315
▁Navnetewî	-10.433
▁mirovên	-10.4341
▁هەمو	-10.4341
ÊN	-10.4346
▁beşdarî	-10.4351
ۆك	-10.4353
▁xemgîn	-10.4356
▁مەبەست	-10.4357
▁دڵت	-10.436
وع	-10.4361
▁lîst	-10.4364
▁High	-10.4365
▁تازه	-10.4372
▁nexş	-10.4388
▁SR	-10.4389
▁pîşesazî	-10.439
RI	-10.4399
▁گیرا	-10.4399
▁xeta	-10.44
zay	-10.4404
▁off	-10.4404
rat	-10.4407
▁ناپوخت	-10.4407
▁هەزار	-10.4409
دۆ	-10.4428
▁ژاران	-10.4431
▁نەخۆش	-10.4433
▁پارێزکاران	-10.4445
36	-10.4447
▁پێشهات	-10.4455
▁dewlemend	-10.4459
▁Black	-10.4459
▁label	-10.446
▁sex	-10.4466
▁cihên	-10.4478
ة	-10.4485
▁Parîsê	-10.4485
باوه	-10.4488
▁تیژ	-10.4492
▁تازە	-10.45
▁گات	-10.4505
▁Jê	-10.4507
word	-10.4508
▁Language	-10.4511
▁Versiyon	-10.4511
▁نزیك	-10.4511
▁rêwî	-10.4512
▁سیستەم	-10.4513
qanûn	-10.4531
king	-10.4531
▁serbest	-10.4531
▁تاقیکردن	-10.4533
▁ناك	-10.4538
▁stran	-10.4556
▁English	-10.4563
▁piştrast	-10.4563
▁خوشک	-10.4563
▁best	-10.4564
▁کەمتر	-10.4572
▁dinyayê	-10.4579
▁Paş	-10.4582
▁Xelat	-10.4589
▁Sky	-10.459
▁Pirtûka	-10.4609
▁zor	-10.461
▁Red	-10.461
53	-10.4615
▁çavdêr	-10.4616
▁pêşketina	-10.4618
87	-10.4622
▁سارد	-10.4628
▁بگۆڕ	-10.4628
▁Server	-10.463
▁Gel	-10.4641
Generic	-10.4642
▁bimînin	-10.4642
▁پێست	-10.4644
▁وشتر	-10.4644
▁kişand	-10.4645
▁وازیان	-10.4669
EL	-10.4688
▁جێنشین	-10.4694
▁گونجاو	-10.4694
▁خۆزگ	-10.4695
lît	-10.4696
▁with	-10.4699
▁wisa	-10.4702
ij	-10.4711
▁کراوی	-10.4716
fre	-10.4719
TE	-10.472
▁zanist	-10.472
▁شکست	-10.4722
DE	-10.4728
▁5/6	-10.4748
▁Lêbelê	-10.4748
▁item	-10.4748
▁جەستە	-10.475
▁hilber	-10.4753
▁malbata	-10.4758
▁Fran	-10.4759
▁torê	-10.4761
▁هەرگیز	-10.4774
▁ناترسن	-10.4774
▁xebata	-10.4774
▁مەترسی	-10.4775
74	-10.4776
▁کاتژمێر	-10.478
▁rûniştin	-10.4783
back	-10.4787
▁not	-10.4789
▁nebe	-10.4795
▁Pêdivî	-10.4801
▁تاقم	-10.4802
xweş	-10.4819
▁file	-10.4827
▁celeb	-10.4828
▁دانیشتوانی	-10.4828
▁bêhtir	-10.4828
▁سلیم	-10.4831
▁Rast	-10.4843
▁قوڵ	-10.4845
▁جیهانیان	-10.485
▁xweşik	-10.485
▁veşartin	-10.4855
▁مێژوو	-10.4855
▁Hêzên	-10.4855
▁پاڕاست	-10.4855
birêvebir	-10.4855
ـ	-10.4857
58	-10.4869
▁wire	-10.4875
▁ئینجیل	-10.4882
▁bitikîne	-10.4882
▁hilbijartina	-10.4884
▁تاریک	-10.4885
▁bajêr	-10.4887
dirêj	-10.4889
▁Erê	-10.4895
42	-10.4907
▁belavkirina	-10.4908
▁zanistî	-10.491
▁digel	-10.4911
▁خۆیشی	-10.4912
▁Berî	-10.4921
46	-10.4932
▁peyka	-10.4933
▁tevlihev	-10.4936
▁کۆسپ	-10.4936
ness	-10.4936
▁nirxandin	-10.4937
▁خانوو	-10.4937
▁ساڵێک	-10.4939
▁Light	-10.4941
▁دابێت	-10.4949
▁kûr	-10.4954
▁مۆر	-10.4958
▁نزم	-10.4969
awa	-10.4982
▁منداڵەکان	-10.4987
▁veguhastin	-10.499
▁Kanada	-10.499
▁پێکهات	-10.4995
▁destpê	-10.4996
ڵێم	-10.5006
▁dîroka	-10.5008
كات	-10.5014
▁add	-10.5016
▁reklam	-10.5018
▁Malpera	-10.5018
▁dîwar	-10.502
▁ڕێژەی	-10.5024
The	-10.5027
▁çalakiya	-10.503
▁بچێت	-10.503
▁پلان	-10.5035
▁میراتی	-10.5045
▁دەمەوێت	-10.5048
▁pisporên	-10.5063
▁ستووه	-10.5066
▁خزمان	-10.507
▁dikarim	-10.5072
▁دراو	-10.5075
▁komp	-10.5079
▁ماسی	-10.5087
▁كاتێكدا	-10.5087
▁zarokan	-10.5092
bend	-10.5097
▁ronahiya	-10.51
▁دەرمان	-10.5108
▁كردووه	-10.5113
▁metre	-10.5113
▁term	-10.5119
▁helwesta	-10.5128
▁شارۆچک	-10.5128
▁bicîh	-10.5128
▁تیشک	-10.5128
▁سووک	-10.5132
▁Form	-10.5133
57	-10.5137
▁لاش	-10.5142
94	-10.5144
wis	-10.515
▁بابەت	-10.5151
▁Cîhanê	-10.5153
ification	-10.5155
▁berpirsiyar	-10.5155
▁ئاڵۆز	-10.5155
▁Dadgeha	-10.5155
▁hakeman	-10.5155
▁temaşe	-10.5155
▁120	-10.5159
▁deverên	-10.5184
▁bûne	-10.5187
▁tîma	-10.5188
▁دووەم	-10.5188
▁نال	-10.5191
▁پاس	-10.5193
▁projeya	-10.5211
▁this	-10.5211
▁organ	-10.5214
▁بیخ	-10.5224
▁nîqaş	-10.5239
▁êrîş	-10.5239
▁fîlm	-10.5239
▁chat	-10.524
▁خول	-10.5241
▁ڕۆژدا	-10.5249
▁Xweseriya	-10.525
▁لێبک	-10.5255
▁ders	-10.5258
73	-10.5262
▁2000	-10.5264
▁رلێشێواو	-10.5267
▁پزیشک	-10.5267
▁Microsoft	-10.5295
▁SARS	-10.5295
▁Hevbendiy	-10.5295
▁Nirx	-10.5295
▁fun	-10.53
▁لێك	-10.5312
100	-10.5313
▁Bank	-10.5321
▁rastiyê	-10.5322
▁Pêşveçûn	-10.5323
▁tenduristiy	-10.5323
▁nikarin	-10.5323
tation	-10.5325
89	-10.5325
▁گەرم	-10.533
▁Val	-10.5331
▁hefte	-10.5333
▁LLC	-10.5351
▁Slot	-10.5353
▁doktor	-10.5353
▁کافرو	-10.5363
▁لێره	-10.5364
▁hebe	-10.5372
▁mîlyon	-10.538
▁kîjan	-10.538
▁rêveberiya	-10.538
▁داگیر	-10.538
▁Guherî	-10.5381
زێت	-10.5385
▁high	-10.5386
دەکات	-10.5387
▁کەمێک	-10.5388
▁لەلایەن	-10.5408
▁Şiir	-10.5408
▁format	-10.5408
▁Hesab	-10.5408
▁Model	-10.5409
▁ببینن	-10.5416
▁جووت	-10.5435
▁hebû	-10.5438
▁بکرێن	-10.5439
▁Îlon	-10.5439
▁Rêber	-10.5442
▁قوا	-10.5444
ڕەو	-10.5446
▁girt	-10.5464
▁xebitandin	-10.5465
▁month	-10.5465
▁Tags	-10.5465
▁تێناگ	-10.5465
▁ژینگە	-10.5466
IL	-10.5472
▁جول	-10.5473
mark	-10.5484
▁pêşve	-10.5485
▁lîstikvanên	-10.5491
ث	-10.5494
مۆسیقا	-10.5494
▁petrolê	-10.5494
LE	-10.5496
▁pirsa	-10.5499
▁Spas	-10.5501
▁Comp	-10.5512
▁توان	-10.5525
▁توند	-10.5529
▁heval	-10.5531
çek	-10.5532
▁٢٠	-10.5537
▁malbat	-10.554
jen	-10.5543
▁pelên	-10.5544
▁Kurdî	-10.5545
▁Day	-10.5559
▁بەڵێ	-10.5561
band	-10.5568
باش	-10.5569
▁vîdyoyê	-10.558
▁çavkaniyên	-10.558
▁music	-10.558
▁2011	-10.5587
▁فوو	-10.5589
dêr	-10.5596
▁خشت	-10.5605
▁Publishe	-10.5609
▁Peldank	-10.5609
▁teknolojî	-10.5609
▁Power	-10.5611
▁pirsên	-10.5612
ئەوە	-10.5614
rêz	-10.5618
▁Çima	-10.5629
zik	-10.563
▁نجامدانی	-10.5632
▁şîfre	-10.5638
▁شێوەیەکی	-10.5645
▁London	-10.5667
▁Peymana	-10.5667
▁dijwar	-10.5667
▁karmendên	-10.5668
▁serkeftin	-10.5668
▁qonaxa	-10.5669
▁Sûriyê	-10.5697
▁beşên	-10.5697
▁tora	-10.5705
▁kêmkirina	-10.5708
▁دەزانن	-10.5709
ative	-10.5711
▁tiştî	-10.5723
▁site	-10.5723
▁Ukrainian	-10.5726
▁bişînin	-10.5726
کەیت	-10.5728
▁هۆشم	-10.5729
▁ناشرین	-10.5755
▁ناتوانیت	-10.5756
▁غڵ	-10.5756
▁mîkro	-10.5756
▁Fransa	-10.5768
هێشت	-10.578
▁sûc	-10.5785
▁pêkanîna	-10.5787
يان	-10.579
▁زگای	-10.579
▁Derman	-10.579
▁دەچێت	-10.5795
▁کران	-10.5801
▁naskirin	-10.5802
▁ئەمریکا	-10.5815
▁şîrketên	-10.5819
▁comp	-10.582
▁Guh	-10.5826
▁Dîmen	-10.5828
▁size	-10.583
51	-10.5834
Express	-10.5835
خستووه	-10.5836
▁بگێڕ	-10.5842
▁دۆخ	-10.5844
▁کۆد	-10.5847
▁tam	-10.5847
ەڵا	-10.5848
ڕۆژ	-10.586
▁گوڵ	-10.5865
▁têkiliyên	-10.5869
EST	-10.5882
▁دیهێناوه	-10.5882
▁bavê	-10.5893
2018	-10.5893
▁Kanal	-10.5905
ئ	-10.591
▁دابنێ	-10.5916
▁سور	-10.5925
▁tarî	-10.5929
▁تاقیکردنەوە	-10.5933
▁کۆمپانیا	-10.5934
▁Dost	-10.5936
▁لێخۆش	-10.5937
▁cot	-10.5944
▁Test	-10.5946
ێڵێت	-10.5947
▁مناڵ	-10.5949
▁radi	-10.5951
ÎN	-10.5953
▁Sîstema	-10.5964
٥٠	-10.5973
▁Heta	-10.5979
بێگومان	-10.5979
▁peyam	-10.5987
▁bêne	-10.5992
▁gengaz	-10.5994
▁çavkaniya	-10.5994
▁نەخشە	-10.5994
▁tevî	-10.5996
▁bilez	-10.5997
▁mafên	-10.6009
▁tîrêj	-10.6024
▁xerc	-10.6025
▁guru	-10.6029
▁بڕیارداو	-10.6035
lect	-10.6038
گێر	-10.604
\	-10.6054
▁çapemeniyê	-10.6054
▁قۆناغ	-10.6054
▁rêbazên	-10.6054
▁شۆڕ	-10.6058
▁متمان	-10.6059
▁فرمان	-10.6074
▁تێدایه	-10.6076
▁شێرپەنجە	-10.6085
▁هاروون	-10.6085
▁2010	-10.6095
▁Tîm	-10.61
69	-10.6106
lash	-10.6108
يا	-10.6112
▁piştevan	-10.6115
▁پێگ	-10.6123
▁dayin	-10.6125
▁زیل	-10.6135
بکات	-10.6135
▁kalîteyê	-10.614
▁Nexşey	-10.6146
▁Destpêk	-10.6146
▁هەژار	-10.6146
▁Mijar	-10.6152
Ji	-10.6162
stat	-10.6175
ulator	-10.6184
▁Tor	-10.6185
▁ڕواڵ	-10.6189
▁Parametreyên	-10.6207
▁دۆلار	-10.6207
▁قاچ	-10.6208
rîk	-10.6208
kûm	-10.6215
îner	-10.6217
krî	-10.6218
▁şop	-10.6223
▁Îro	-10.6229
ئێمه	-10.6233
▁یاڵی	-10.6237
▁دلۆڤان	-10.6238
▁inmenu	-10.6238
▁Idea	-10.624
▁دیوار	-10.6241
▁ڵامیاندا	-10.6241
▁medya	-10.6245
▁Casino	-10.6269
▁University	-10.6269
▁berhev	-10.627
îzmê	-10.6272
9"	-10.6273
▁zêrîn	-10.6275
▁Vol	-10.6278
72	-10.6287
▁xeter	-10.6289
pel	-10.6289
ئیتر	-10.6294
گریت	-10.6295
600	-10.63
▁لێکدان	-10.63
▁online	-10.6302
▁berdan	-10.6305
▁Laser	-10.6309
▁kevneşopî	-10.6328
▁Înternetê	-10.6331
92	-10.6338
▁Top	-10.6342
▁cureyên	-10.6342
▁ئێست	-10.6346
▁xizmet	-10.6352
▁هەمیشە	-10.6363
▁خۆشەویستی	-10.6363
▁Zarok	-10.6363
▁Nexweş	-10.6365
▁teqîn	-10.6365
▁şeş	-10.6367
▁کەوا	-10.639
▁COVID	-10.6394
▁pêşketî	-10.6394
▁دەتوانێت	-10.6394
▁navendî	-10.6394
▁fireh	-10.6394
▁ڕۆشن	-10.6395
▁تێپ	-10.6406
dîtin	-10.6424
▁enerjiyê	-10.6425
▁wesayît	-10.6425
▁ڕابردوو	-10.6425
▁نگاو	-10.6435
▁سای	-10.6439
▁1000	-10.6444
▁Holm	-10.645
▁Xweser	-10.6451
▁Tri	-10.6456
▁lîsans	-10.6457
▁نوقم	-10.6457
▁پاڕان	-10.6457
▁ردووکیان	-10.6457
▁nîşandan	-10.6462
▁ڕاکێش	-10.6463
▁خۆشبوو	-10.6477
▁avahiya	-10.6489
▁herdu	-10.649
▁خشرا	-10.6492
put	-10.6493
▁Net	-10.6505
چۆن	-10.6506
nameyek	-10.651
▁televizyon	-10.652
▁dibistana	-10.652
burg	-10.6524
41	-10.6532
52	-10.6533
▁Auto	-10.6542
▁Christmas	-10.6552
▁دەتوانیت	-10.6552
count	-10.6559
▁سیست	-10.6566
▁tecrûbeya	-10.657
▁You	-10.6574
هاتن	-10.6582
▁dorpêç	-10.6584
▁pêşveçûna	-10.6584
▁guherandin	-10.6584
▁کاول	-10.6585
▁Zêde	-10.6593
▁Pay	-10.6595
▁دوژمنای	-10.6596
rke	-10.6612
▁پاشگ	-10.6615
▁hevbeş	-10.6616
▁modern	-10.6616
▁Arşîv	-10.6616
▁serokê	-10.6616
▁belgeyên	-10.6624
▁چپ	-10.6634
▁kolan	-10.6642
▁offers	-10.665
▁دانان	-10.665
▁بینا	-10.6654
▁Nûçeyên	-10.6654
بازی	-10.6661
▁Xanî	-10.6662
ەکەوە	-10.6677
▁World	-10.6681
▁pêşniyaz	-10.6681
▁زێنرا	-10.6681
▁bibîne	-10.6681
▁پێکەوە	-10.6682
▁درۆزانی	-10.6693
▁Hack	-10.6702
▁hejmarek	-10.6709
▁ronahiyê	-10.6713
▁لێکۆڵینەوە	-10.6713
▁behsa	-10.6713
▁boriyeke	-10.6713
▁dixwaze	-10.6713
▁dr	-10.6717
خست	-10.6736
▁نمونە	-10.674
▁Brîtanya	-10.6745
▁Daxuyaniya	-10.6745
▁ئیسحاق	-10.6745
▁حوکم	-10.6745
▁serkeftî	-10.6746
▁zext	-10.675
91	-10.6763
▁Trans	-10.6764
▁Derve	-10.6764
▁parçe	-10.6766
▁rûyê	-10.6768
OL	-10.6769
▁geş	-10.6771
uck	-10.6774
▁fîzîkî	-10.6778
▁TRANS	-10.6778
▁nivîskar	-10.6779
▁بگره	-10.678
ham	-10.678
▁ساڵان	-10.6792
▁داهات	-10.6805
▁baca	-10.6807
LATOR	-10.6811
▁wateyê	-10.6811
▁user	-10.6816
2004	-10.6816
xbet	-10.6818
▁laşê	-10.6819
▁Fakulteya	-10.6843
▁Machine	-10.6843
▁button	-10.6843
▁photo	-10.6843
▁bedena	-10.6844
▁hefteya	-10.6845
▁جوب	-10.6848
ەها	-10.6852
▁دایك	-10.6853
ized	-10.6864
▁داواکار	-10.6872
▁mesrefa	-10.6876
▁بتوانێ	-10.6876
دەتوان	-10.6877
▁Sepan	-10.6877
▁zûtirîn	-10.6878
▁vekin	-10.6883
▁tije	-10.6885
▁hilberîner	-10.6891
▁Inc	-10.6901
▁شکر	-10.6906
▁الم	-10.6911
▁Ferman	-10.6914
olojî	-10.6915
▁وترا	-10.6917
▁wekhev	-10.6926
▁کۆمەڵایەتی	-10.6942
▁کۆمەڵگە	-10.6942
▁Company	-10.6943
▁Îtalya	-10.6943
▁کرابوو	-10.6947
نیشان	-10.6948
▁دارایی	-10.6954
62	-10.696
▁transponder	-10.6976
▁دوعا	-10.6976
but	-10.6998
▁zêdebûna	-10.6999
▁şîrket	-10.7001
شایست	-10.7004
▁Hindistan	-10.7009
▁کشتوکاڵ	-10.7009
▁١٩	-10.7009
▁Bonus	-10.7009
▁dabeş	-10.7009
▁بنیات	-10.701
gotin	-10.7014
▁ecêb	-10.7042
▁Hilberîn	-10.7043
▁نێرین	-10.7045
rêveber	-10.7048
▁نادیار	-10.7057
▁داود	-10.7064
▁perçe	-10.7075
▁Pîroz	-10.7076
▁بەکتریا	-10.7076
▁heqê	-10.7076
▁Sibat	-10.7079
▁Belge	-10.7083
▁سیح	-10.7085
▁jet	-10.7087
▁mêj	-10.7091
▁ئاشتی	-10.7103
▁Bazirganiy	-10.711
▁hesin	-10.711
▁Product	-10.7111
▁روونیاندا	-10.712
▁دەدەن	-10.7124
▁kalîte	-10.7138
şandin	-10.714
▁ISO	-10.7144
▁هەفتە	-10.7146
▁diçin	-10.7146
▁جوانترین	-10.7156
▁شکێن	-10.7175
▁birrîn	-10.7178
▁ڕێنمو	-10.7178
▁هەندێ	-10.7196
▁çareseriya	-10.7197
▁Cotmeh	-10.7211
▁ewlehiya	-10.7211
▁Japon	-10.7211
for	-10.7216
ژمێر	-10.722
▁por	-10.7222
çav	-10.7227
▁سەرەکی	-10.7237
▁Neteweyî	-10.7246
▁alternatîf	-10.7246
▁liserxetê	-10.7246
▁مەزن	-10.7246
▁2008	-10.7256
▁بانیش	-10.7261
▁gem	-10.7271
space	-10.7276
▁دەڵێت	-10.7278
▁Pêwîst	-10.728
graph	-10.7281
▁kêf	-10.7288
▁xanî	-10.729
▁nake	-10.7293
▁German	-10.7295
▁Star	-10.731
▁Ukraine	-10.7314
▁rawestandin	-10.7314
▁داپۆش	-10.7314
▁توێژینەوە	-10.7315
▁مادد	-10.7318
▁ببیت	-10.7327
▁destikê	-10.7337
▁Chinese	-10.7349
▁performansa	-10.7349
▁xebatkar	-10.7349
▁birîndar	-10.7349
▁پارێزگار	-10.735
وباره	-10.7351
spam	-10.7358
▁Time	-10.736
گۆڕێ	-10.7361
▁سێب	-10.7373
▁aboneyên	-10.7383
▁Mijdar	-10.7383
▁Rojhilata	-10.7383
▁هونەر	-10.7383
▁hingê	-10.7384
▁بەکارهێنانی	-10.7385
ئایا	-10.7395
▁بیک	-10.7406
▁xist	-10.7413
▁System	-10.7418
▁تەماشا	-10.7418
▁mobile	-10.7418
▁perwerdehiy	-10.7421
▁firot	-10.7425
▁فێربوون	-10.7427
▁dîmen	-10.7435
▁Uni	-10.7439
▁وێران	-10.744
٠٠٠	-10.7446
▁بدەن	-10.745
93	-10.7452
▁hucrey	-10.7453
▁بیابان	-10.7453
▁Jinan	-10.7456
▁heb	-10.746
▁30000	-10.7463
ەوانە	-10.7468
78	-10.7476
▁radyo	-10.7487
▁Standard	-10.7488
▁kûçik	-10.7488
▁خورما	-10.749
ێنرێن	-10.7495
▁چاکسازی	-10.7496
▁دەمار	-10.7498
▁hack	-10.75
▁Mafê	-10.7502
84	-10.7508
▁خوێندکار	-10.7509
olojîk	-10.7518
▁virtual	-10.7523
▁Perwerdehiya	-10.7523
▁رناگرن	-10.7523
▁كافر	-10.7523
▁ئێسک	-10.7525
▁دۆست	-10.7526
▁جوول	-10.7533
هیچ	-10.7542
▁down	-10.7558
▁Plus	-10.7558
▁fiber	-10.7572
▁هاوکاری	-10.7582
qonax	-10.7591
▁hemberî	-10.7593
▁bêdeng	-10.7593
▁خوازن	-10.7596
▁nûjen	-10.7599
▁ناچێت	-10.7607
▁Last	-10.7626
▁یارید	-10.7629
▁رناچن	-10.7629
▁Projeya	-10.7629
▁بەشدار	-10.7632
▁هێنابوو	-10.764
▁HGH	-10.7664
mîk	-10.767
▁kiribû	-10.7671
▁یەکتر	-10.7691
▁bingeh	-10.7697
▁kîmyewî	-10.77
▁pratîk	-10.77
▁bizanin	-10.7701
▁Travel	-10.7701
▁jinên	-10.7704
▁super	-10.7704
▁derketin	-10.7706
girş	-10.7727
▁şewitandin	-10.7736
▁Wood	-10.7737
$	-10.7738
▁Gulan	-10.7742
▁Amerîkayê	-10.7752
▁پیشان	-10.7754
▁Aluminium	-10.7772
▁Xudan	-10.7772
▁veberhênanê	-10.7773
▁دادگای	-10.7775
▁makîneyên	-10.7779
media	-10.7801
▁damezirandin	-10.7808
▁lênêrîna	-10.7808
▁pêbawer	-10.7808
▁Agahiyên	-10.7808
▁dibînin	-10.7808
▁ڕازاند	-10.7808
work	-10.7826
▁vegera	-10.7836
▁oto	-10.7839
▁mercên	-10.7844
▁krediyê	-10.7844
▁John	-10.7844
firoş	-10.7849
▁hişê	-10.7849
ناتوان	-10.785
توپڕ	-10.7881
▁binçavkirin	-10.7881
▁Zanist	-10.7881
▁Agahdariy	-10.7881
▁Award	-10.7881
NAME	-10.7882
▁biçin	-10.7883
▁Mezinahiya	-10.7884
ناگرێت	-10.7899
▁ئەتوان	-10.7909
▁qereqola	-10.7917
▁zindî	-10.7917
2017	-10.792
▁گوناهکار	-10.7924
▁spas	-10.7925
▁زیرەک	-10.7954
gêr	-10.7958
▁qasî	-10.7964
▁hêdî	-10.7966
▁Save	-10.7968
▁Bingeh	-10.797
saveatrain	-10.799
▁business	-10.7991
▁ناشیرین	-10.7991
▁WeTek	-10.7991
▁neheq	-10.7991
ییەکەی	-10.7993
▁hewayî	-10.7997
▁2009	-10.8001
▁گرتووه	-10.801
▁بۆچوونی	-10.8011
▁mamoste	-10.8027
▁Review	-10.8027
▁sembol	-10.8027
▁بکردایه	-10.8028
▁Blue	-10.8028
▁ناوبرد	-10.8028
▁Azad	-10.803
▁xwestin	-10.8037
▁پێناک	-10.8039
irandin	-10.8041
▁غافڵ	-10.8064
▁review	-10.8065
▁brand	-10.8065
▁روبووم	-10.8066
ئیماندار	-10.807
▁تێگ	-10.8086
79	-10.8097
▁سازگار	-10.8102
▁difikirin	-10.8102
▁York	-10.8102
▁پێشبینی	-10.8128
▁xerab	-10.8133
Shortcut	-10.8139
▁dixebitin	-10.8139
▁ezmûn	-10.8139
▁price	-10.8139
▁bihêz	-10.814
▁xwînê	-10.8142
قورئان	-10.8145
▁چۆڵ	-10.8161
▁پێوان	-10.8173
▁OSCam	-10.8176
▁WeTeK	-10.8176
▁nûçeya	-10.8178
▁Tenduristiy	-10.8185
▁ڕوبار	-10.8187
خوارد	-10.8188
▁Heyva	-10.8214
▁film	-10.8216
▁watch	-10.8216
▁dolar	-10.8219
ize	-10.8222
▁Rûsya	-10.8244
▁GHz	-10.8252
▁ڕژاند	-10.8252
▁حیکم	-10.8252
▁dîsk	-10.8257
▁تاوانێک	-10.8271
▁lîsteyê	-10.8289
▁Global	-10.829
▁parastî	-10.829
▁Endam	-10.829
▁çêbû	-10.8291
▁ڕۆچوون	-10.8294
▁Metro	-10.8298
▁Gelo	-10.8307
▁xalên	-10.8328
▁bihîst	-10.8329
Herêm	-10.8347
▁Bişkojk	-10.8366
▁global	-10.8366
▁maddî	-10.8366
▁menu	-10.8369
▁بردووه	-10.8378
nîşan	-10.8397
▁nivîsîn	-10.84
▁Copyright	-10.8404
▁tendurust	-10.8404
▁ڤیدیۆ	-10.8404
▁Afrîka	-10.8404
▁dilsoz	-10.8404
▁Xebat	-10.8404
▁نێردراو	-10.8404
▁Sermase	-10.8404
▁rîsk	-10.8405
XL	-10.8408
bîr	-10.8424
▁Technology	-10.8443
▁dîzaynkirin	-10.8443
▁sêyemîn	-10.8443
▁version	-10.8443
▁unit	-10.8443
▁dadgehê	-10.8443
▁pargîdan	-10.8452
▁Previous	-10.8481
▁2/3	-10.8481
▁zanyar	-10.8481
▁derziyê	-10.8482
▁Control	-10.8482
▁mişteriyên	-10.8483
محمد	-10.8492
دڵنیا	-10.8492
▁بیربک	-10.8493
▁danûstend	-10.852
▁Bakur	-10.852
hilberandin	-10.8521
▁bimîne	-10.8521
▁ببم	-10.8524
▁نازانم	-10.8534
▁بیرکردنەوە	-10.8535
▁گل	-10.8544
▁frequency	-10.8559
▁hilbijêrin	-10.8559
▁ئەندام	-10.8559
▁têkiliyê	-10.8566
▁نمون	-10.8567
▁BERSÎV	-10.8598
▁cîhazên	-10.8598
▁serbixwe	-10.8598
▁لەبەرئەوەی	-10.8598
▁نایزانن	-10.86
▁pêşangeh	-10.8601
▁جەنگ	-10.8607
speed	-10.8619
▁misoger	-10.8637
▁kampany	-10.8637
▁نێرێت	-10.8647
▁2007	-10.865
▁tomarkirin	-10.8654
▁دەریا	-10.8667
▁Medical	-10.8677
▁میسر	-10.8677
▁کوژرا	-10.8678
▁auto	-10.8683
▁Bikarhêner	-10.8716
▁Bitikîn	-10.8717
load	-10.8724
83	-10.8727
▁ئاخر	-10.8756
▁navendên	-10.8756
▁نێوانتاندا	-10.8766
€	-10.877
▁yekane	-10.877
▁civaka	-10.8796
▁تێفکرن	-10.8796
▁texmîn	-10.8796
▁XWE	-10.8803
نووس	-10.8807
▁bîranîn	-10.8822
▁pargîdaniy	-10.8826
▁gotarê	-10.8828
▁Dibistana	-10.8836
▁Yekîtiya	-10.8836
▁یشتووه	-10.8841
▁Park	-10.885
دەکەن	-10.8861
▁etc	-10.8873
▁pêşerojê	-10.8876
▁بگەڕێ	-10.8876
▁هۆشیار	-10.8878
iyet	-10.888
▁kel	-10.8888
Parastina	-10.8891
▁وەرگرت	-10.8904
▁zehf	-10.8916
▁bedew	-10.8916
▁Media	-10.8916
▁rojhilat	-10.8918
▁tecrûbe	-10.8934
▁muzîkê	-10.8957
▁هێرش	-10.8957
▁cilên	-10.8957
▁Rûpelê	-10.8957
▁Multi	-10.8958
▁Next	-10.897
▁شەو	-10.8981
0.0	-10.899
▁berjewend	-10.9005
▁ڕێبازێک	-10.9008
▁Motor	-10.9008
▁favorite	-10.9038
▁berxwedana	-10.9038
▁civakê	-10.9038
▁Komara	-10.9038
▁Kişandin	-10.9039
▁rehet	-10.9042
▁satelît	-10.9052
▁ڕاهێنان	-10.9073
kurdish	-10.9079
▁TimeTec	-10.9079
▁ئێواران	-10.9079
▁گەردوون	-10.9079
▁Tîpa	-10.9079
▁navçeya	-10.9079
▁bistîne	-10.9079
▁USD	-10.908
▁havîn	-10.908
▁bedenê	-10.9082
▁Welat	-10.9083
▁nehatiye	-10.9083
▁îmze	-10.912
▁Dewletê	-10.9129
▁href	-10.9161
▁Rêjeya	-10.9161
▁ئاژەڵ	-10.9161
▁account	-10.9161
▁pêşveçûnê	-10.9162
▁دوودڵی	-10.9162
▁parêzer	-10.9163
▁show	-10.9164
▁ڕابگ	-10.9165
▁Internet	-10.9203
▁Demjimêr	-10.9203
▁televîzyonê	-10.9203
▁فرۆشتن	-10.9203
▁Group	-10.9203
▁Bersîv	-10.9203
▁FSX	-10.9203
▁wextê	-10.9203
▁گواستن	-10.9209
poison	-10.9244
▁SPAM	-10.9245
▁xNUMX	-10.9245
▁دێرین	-10.9245
▁erzan	-10.9245
▁şûş	-10.9245
▁bijare	-10.9248
▁nakin	-10.9254
▁Hilbijêre	-10.9286
▁Kürt	-10.9286
▁spartinê	-10.9286
▁کڕنووش	-10.9286
▁دیزاین	-10.9286
▁baxçe	-10.9287
▁ڵوێست	-10.9287
process	-10.9287
▁پرسێت	-10.9287
▁بەڕێوە	-10.9289
▁çandiniy	-10.9294
▁فیل	-10.9296
▁سەرچاوە	-10.9296
▁têkiliya	-10.9328
▁Koreya	-10.9329
شوێن	-10.9351
▁minutes	-10.9371
▁ھەموو	-10.9371
▁PDF	-10.9371
▁lîstikvan	-10.9378
▁Powder	-10.9413
▁Pergalê	-10.9413
▁lidarxistin	-10.9414
▁رشتیار	-10.9417
▁شاخ	-10.9418
▁zêr	-10.9426
bilind	-10.9437
▁Zêdetir	-10.9444
▁sedsala	-10.9456
▁لەبارەی	-10.9456
▁welêt	-10.9456
▁نازانێت	-10.9498
▁bifikirin	-10.9499
▁news	-10.9501
part	-10.951
یاخود	-10.9522
▁bisekinin	-10.9541
▁xerîb	-10.9541
▁sûd	-10.9542
▁کاروباری	-10.9543
▁Bernameya	-10.9547
▁وشك	-10.9548
0.1	-10.9577
▁Piştgiriy	-10.9584
▁cezayê	-10.9584
▁گروپ	-10.9585
▁ئەوەندە	-10.9586
▁hundur	-10.9628
▁ثمود	-10.9628
▁Amedê	-10.9628
▁French	-10.9628
▁profîl	-10.9628
▁dibêjim	-10.9628
▁şekir	-10.9628
▁بدەین	-10.9629
▁ناکۆکی	-10.9632
▁zanîngeha	-10.9633
▁Peyam	-10.9636
▁qedand	-10.9639
▁شکاند	-10.964
▁tîp	-10.9641
.07.2016	-10.9671
NIGMA	-10.9671
▁access	-10.9671
▁hiqûq	-10.9671
▁ڕابواردن	-10.9671
▁status	-10.9671
▁رپابوونی	-10.9674
▁milyar	-10.9674
▁ewlehî	-10.9675
▁Dewleta	-10.9715
▁comments	-10.9715
▁fonksiyonê	-10.9715
▁Hingê	-10.9716
▁ڕاستەقینە	-10.9759
▁ئابوری	-10.9759
▁هەڵبژاردن	-10.9759
▁erênî	-10.9759
▁دۆسی	-10.976
▁کورسی	-10.9761
▁زانکۆ	-10.9762
▁awayê	-10.9762
▁Lebê	-10.9765
▁هود	-10.9765
▁Pirtûk	-10.977
لوط	-10.9789
▁Têketin	-10.9792
graf	-10.9794
▁Java	-10.9799
\\\\	-10.9803
▁Girtîgeha	-10.9803
▁yekîneyên	-10.9803
▁هەنگاو	-10.9803
▁بەرچاو	-10.9806
▁peyva	-10.9816
[1]	-10.983
▁Bazirganî	-10.9847
▁ئەزموون	-10.9847
▁پارێزراو	-10.9852
ihêr	-10.9884
▁Business	-10.9891
▁check	-10.9891
▁qanûnî	-10.9892
▁ڕێکخستن	-10.9894
▁توێی	-10.9895
▁Dawî	-10.9896
▁xala	-10.9907
▁Teknîkî	-10.9936
▁hilweşîn	-10.9936
▁zirar	-10.9936
▁DVD	-10.9936
▁خاش	-10.9937
▁میلل	-10.9938
▁بۆشایی	-10.9938
▁ناپاک	-10.9941
[	-10.9965
▁Australia	-10.9981
▁screen	-10.9981
▁hevpeyman	-10.9981
▁ڕۆژئاوا	-10.9981
▁First	-10.9981
▁هەسارە	-10.9981
▁hevalbend	-10.9981
▁چێژ	-10.9984
wood	-10.9992
700	-11
▁Nivîskar	-11.0012
▁dîrokî	-11.0026
▁dihêle	-11.0027
zhou	-11.0027
▁Bihayê	-11.0027
▁پێشینان	-11.0032
▁crypto	-11.0071
▁دارخورما	-11.0071
▁Zêrîn	-11.0071
▁bixweber	-11.0071
▁بگات	-11.0072
▁temenê	-11.0073
▁kinc	-11.0075
▁توڕ	-11.0084
▁pirtûkxane	-11.0087
▁nirxa	-11.0092
▁خولەک	-11.0113
Veguheztina	-11.0117
▁lezgîn	-11.0117
▁wusa	-11.0117
▁سنور	-11.0117
▁خەریک	-11.0117
▁projeyê	-11.013
class	-11.0135
▁Dîtin	-11.0142
▁شوێنک	-11.0158
▁veqetandin	-11.0162
▁ناوەڕاست	-11.0162
▁بتوانین	-11.0162
▁سەبار	-11.0162
▁Panel	-11.0164
▁dixw	-11.0193
1.1	-11.0195
▁duyem	-11.0203
▁Amazon	-11.0208
▁Komeleya	-11.0208
▁pêdiviyên	-11.0208
▁پاڵپشت	-11.0208
▁mijara	-11.0209
tûn	-11.0214
▁College	-11.0254
▁bişkojk	-11.0254
▁بازاڕ	-11.0254
▁Xwendin	-11.0254
▁bendê	-11.0255
▁Pirsgirêkên	-11.0255
▁بەیەکەوە	-11.0255
پاشان	-11.0288
▁Vîdyo	-11.0301
▁Dubai	-11.0301
▁Profîl	-11.0301
▁تێکەڵ	-11.0303
▁هێمنی	-11.0347
Description	-11.0347
▁Netewî	-11.0347
▁polîtîk	-11.0347
▁peldanka	-11.0347
[3]	-11.0347
▁analîz	-11.0347
▁garantî	-11.0394
▁Helbest	-11.0394
▁Rêbendan	-11.0394
▁Steel	-11.0394
▁کارەبا	-11.0394
▁serlêdan	-11.0399
▁پڕۆژە	-11.0424
▁بتوانن	-11.0441
▁OEM	-11.0441
▁Guhertin	-11.0441
▁engine	-11.0441
▁توێژ	-11.0441
▁dimîne	-11.0442
▁odeya	-11.0442
پشک	-11.0455
▁وەستا	-11.046
▁neteweyî	-11.0488
▁کۆمەڵگا	-11.0488
vayrûs	-11.0488
▁پوخت	-11.0488
▁دووچاری	-11.0488
▁دەکەوێت	-11.0488
▁پێشنیار	-11.0489
▁hûrgelan	-11.0535
▁ئینگلیزی	-11.0535
▁jîngehê	-11.0536
▁Mînak	-11.0536
▁ترازا	-11.0554
▁guhertoya	-11.0583
▁hevpeyvîn	-11.0583
▁هاتووچۆ	-11.0583
▁Network	-11.0583
▁Ajansa	-11.0631
▁cûrbecûr	-11.0631
▁klasîk	-11.0631
▁picture	-11.0631
▁دەتوانم	-11.0631
▁پێچەوانە	-11.0632
▁faktor	-11.0632
▁دۆزینەوەی	-11.0633
مرێنێت	-11.0641
▁rêveberê	-11.0671
▁located	-11.0679
▁پەروەردە	-11.0679
▁Şîfre	-11.0679
▁tedbîr	-11.0679
▁ڕاپێچ	-11.0679
stream	-11.0681
▁kêl	-11.071
▁September	-11.0727
▁rizgar	-11.0727
▁Aborî	-11.0727
▁cnc	-11.0728
▁Armanca	-11.0776
▁teknolojiyê	-11.0776
▁Dabeş	-11.0776
▁siyasî	-11.0776
▁sivîl	-11.0776
▁پێشبڕکێ	-11.0776
▁بازن	-11.0779
▁dayik	-11.0781
ngilîzî	-11.0823
▁iPhone	-11.0824
▁دێهات	-11.0824
▁مامەڵە	-11.0824
▁ڕێکوپێک	-11.0824
▁kredî	-11.0825
▁arşîv	-11.0825
▁bixwînin	-11.0825
▁شارەزا	-11.0825
▁alloy	-11.0825
▁هاوتای	-11.0828
▁دەروونی	-11.0834
▁Veguhestin	-11.0873
▁plugin	-11.0873
▁hiştin	-11.0874
▁بەرنامە	-11.0874
▁Lêgerîn	-11.0874
yaredariy	-11.0879
▁Municipalit	-11.0923
▁şîrove	-11.0923
▁window	-11.0923
▁zivistan	-11.0923
▁sektora	-11.0923
▁nêrîn	-11.0923
▁شومار	-11.0923
▁ئەوکاتە	-11.0925
▁بیرناک	-11.0938
ێگەشت	-11.0942
Têkilî	-11.0966
▁ڤایرۆس	-11.0972
▁kaxez	-11.0972
▁biparêze	-11.0973
▁movie	-11.0974
▁kevneşop	-11.0977
▁٢٠٠	-11.0979
bigere	-11.0982
▁xaniyê	-11.0983
▁Rêxistin	-11.0986
▁Direct	-11.1011
▁رێگ	-11.1021
▁şêwirmend	-11.1022
▁رازوو	-11.1023
Query	-11.1023
▁گینا	-11.1023
▁خێو	-11.1023
▁بەڕێ	-11.1061
–	-11.1067
▁Şoreş	-11.1072
▁awayek	-11.1102
پرسیار	-11.112
▁Exchange	-11.1122
▁derheqê	-11.1122
▁saxlem	-11.1122
▁tikandinê	-11.1122
▁Avrêl	-11.1122
▁Lîstik	-11.1122
▁kursên	-11.1124
▁تووڕ	-11.1124
▁پێبگ	-11.1163
▁Bluetooth	-11.1173
▁klînîk	-11.1173
▁ئینتەرنێت	-11.1173
▁Swêd	-11.1173
▁دەزانین	-11.1173
▁domdar	-11.1175
▁ئاسود	-11.1182
ڕێگ	-11.1217
▁pîşeyî	-11.1224
▁fabrîk	-11.1224
▁Mobile	-11.1224
▁بێئاگا	-11.1224
▁Operasyon	-11.1224
▁لێکردو	-11.1252
▁Pûşper	-11.1275
▁سەرنجڕاکێش	-11.1275
▁لێناکرێت	-11.1275
▁Psychic	-11.1275
▁seranserî	-11.1275
▁Çiyayî	-11.1275
▁Firotin	-11.1275
▁Space	-11.1275
▁drive	-11.1283
▁hormone	-11.1326
▁surface	-11.1326
▁دۆعا	-11.1326
▁bijîşk	-11.1326
▁derdora	-11.1326
▁gotara	-11.133
▁پێبک	-11.1351
nstru	-11.1369
Pirsgirêk	-11.1377
▁vexwarinê	-11.1377
▁Îranê	-11.1378
▁qenc	-11.1378
▁fînans	-11.1379
▁bêhn	-11.1383
▁biafirîne	-11.1429
▁pevçûn	-11.1429
▁ڕابوردوو	-11.1429
▁fikrên	-11.1429
▁charter	-11.1429
▁رشانی	-11.1433
▁pêvek	-11.1434
▁Enqereyê	-11.1481
▁nizanin	-11.1481
▁رناگیرێت	-11.1481
▁mifte	-11.1483
▁Berfanbar	-11.1534
▁Ewrûpa	-11.1534
▁بەرامبەر	-11.1534
▁temaşevanan	-11.1534
▁sererast	-11.1534
▁qanûna	-11.1546
▁rexne	-11.1587
▁têkçû	-11.1587
▁Game	-11.1594
▁tedawiya	-11.1639
▁Service	-11.1639
▁search	-11.1639
olojiyê	-11.164
▁têkoşîn	-11.1692
▁کلتور	-11.1692
▁hewldanên	-11.1692
▁Rêwît	-11.1692
▁buhayê	-11.1693
▁ناچار	-11.174
▁serîlêdanê	-11.1746
▁سەرسوڕهێنەر	-11.1746
▁Qada	-11.1751
▁xirab	-11.1764
cryptocurrencies	-11.18
▁Guherandinên	-11.18
▁October	-11.18
▁طور	-11.18
▁Bandor	-11.18
▁dubare	-11.18
▁کۆرپ	-11.1801
▁گۆرانی	-11.1803
mount	-11.1844
▁şikand	-11.1845
▁Hilbijartina	-11.1854
KIRIN	-11.1854
▁خەیاڵ	-11.1854
▁URL	-11.1854
Book	-11.1898
▁Rapor	-11.1899
▁GNOME	-11.1908
▁Swîsre	-11.1908
▁muwekîlê	-11.1908
▁nikaribû	-11.1908
▁parlamenter	-11.1908
▁qalîteya	-11.1908
▁Parçeyên	-11.1908
▁hişmend	-11.1908
▁دڕند	-11.1908
▁Derbarê	-11.1908
▁device	-11.1908
▁سیاسی	-11.1918
▁ereb	-11.1939
▁Pêvajoya	-11.1963
▁بكوژ	-11.1963
▁تێکۆشان	-11.1963
▁Destpêkirin	-11.1963
▁Girl	-11.1964
▁zîv	-11.1969
▁ajok	-11.1981
▁otomobîl	-11.2018
▁ڕوخسار	-11.2018
▁vebijêrk	-11.2018
▁Şirket	-11.2018
▁sifrê	-11.2018
▁PKK	-11.2018
ografî	-11.2064
▁Ewlekariya	-11.2073
▁kêrhatî	-11.2073
▁تەکنەلۆجیا	-11.2073
▁pakêt	-11.2095
▁marketing	-11.2128
▁کخواناسی	-11.2128
▁slots	-11.2128
▁حکومەت	-11.2128
▁کۆمەڵێک	-11.2128
▁biguherîne	-11.2129
▁کریس	-11.2136
▁bafûn	-11.2184
▁هاتوچۆ	-11.2184
▁دکتۆر	-11.2184
▁şahid	-11.2184
▁Pîşesaziy	-11.224
▁ناقۆڵا	-11.224
▁hêmanên	-11.2241
tattoş	-11.2241
▁لێشێواو	-11.2297
▁موشریك	-11.2297
▁pêşvebirina	-11.2297
▁Kategorî	-11.2354
▁manufacturer	-11.2354
▁zilam	-11.2354
▁بەراورد	-11.2354
▁gihîştina	-11.2354
▁سەرکەوتوو	-11.2354
▁update	-11.2354
▁USB	-11.2354
▁odeyên	-11.2354
▁December	-11.2411
▁Hişyar	-11.2411
▁Taybetmendiyên	-11.2411
▁hesibandin	-11.2411
▁potansiyel	-11.2411
▁qirêj	-11.2411
▁rêkûpêk	-11.2411
▁Hezîran	-11.2411
▁شەقام	-11.2411
▁Radyo	-11.2465
▁bikişînin	-11.2468
▁xerîdar	-11.2468
▁Boeing	-11.2468
▁بوترێت	-11.2468
▁لەسەدا	-11.2469
▁Nasname	-11.2476
▁پشتگیر	-11.2492
▁ewlekariyê	-11.2526
▁mesrefên	-11.2526
▁Meriva	-11.2526
▁کۆمەڵە	-11.2526
▁êriş	-11.2527
▁Roulette	-11.2584
▁Universe	-11.2584
▁pêşnîyar	-11.2584
▁لەمەوبەر	-11.2584
▁Electronic	-11.2584
zincîra	-11.2584
▁feature	-11.2584
script	-11.2584
▁vegerin	-11.2585
ęjey	-11.2585
embed	-11.2586
▁Pispor	-11.2643
▁لێبوورد	-11.2643
▁Piştre	-11.2643
▁guneh	-11.2643
▁Agahiya	-11.2643
▁سەخت	-11.2649
▁Manufacturer	-11.2702
▁paytexta	-11.2702
▁related	-11.2702
سوڕما	-11.2732
▁Erdogan	-11.2761
▁ئەزمون	-11.2761
▁دەسەڵات	-11.2761
▁koçber	-11.2761
▁تێگەیشتن	-11.2761
▁Naverok	-11.2761
▁Kevir	-11.2762
▁Cîhan	-11.2766
▁naverok	-11.2791
بدات	-11.2803
▁sêwiran	-11.2812
▁Werger	-11.282
▁zirav	-11.282
▁Click	-11.282
▁ربڕینی	-11.2821
▁تاریك	-11.2821
▁ئاسایش	-11.2821
▁قووڵ	-11.2822
▁چرکە	-11.2824
▁دەکرێ	-11.2866
▁Civakî	-11.288
▁Twitter	-11.288
▁Weqfa	-11.288
▁bêkêmasî	-11.288
▁qereqolê	-11.288
▁cookie	-11.288
▁tercîh	-11.294
▁vexwendin	-11.294
▁مۆبایل	-11.294
▁Reşemî	-11.294
▁خاك	-11.2941
▁ملیار	-11.2941
Konseya	-11.2945
Scroll	-11.3001
hyperlînkê	-11.3001
▁Kanûna	-11.3001
▁Karûbarên	-11.3001
▁akademîk	-11.3001
▁Şîrket	-11.3001
▁لێبورد	-11.3001
▁هێلک	-11.3001
▁Film	-11.3004
▁takekesî	-11.3062
▁amazing	-11.3062
▁SQL	-11.3062
▁Science	-11.3062
▁Şaredar	-11.3062
▁pump	-11.3062
▁دەرفەت	-11.3062
▁neçalak	-11.3063
▁ewqas	-11.3063
▁دەدەین	-11.3063
Indian	-11.3071
▁mişter	-11.3092
▁credit	-11.3123
▁Bêguman	-11.3123
▁ئیبلیس	-11.3123
▁Online	-11.3123
acetam	-11.3124
▁çarçoveyê	-11.3185
▁هەرچەندە	-11.3185
▁بوغز	-11.3185
▁وەردەگ	-11.3235
▁roulette	-11.3247
▁sînyala	-11.3247
▁ئەفریقا	-11.3247
▁صالح	-11.3247
▁Price	-11.3248
▁بەڵگە	-11.3248
▁xelkê	-11.3248
▁نازدار	-11.3248
▁Bikaranîn	-11.33
▁Komîsyon	-11.331
·	-11.6874
#	-11.8229
“	-11.9918
«	-12.2572
•	-12.5969
©	-13.008
£	-13.0425
