<unk>	0
<s>	0
</s>	0
ه	-3.4689
▁و	-3.72558
ی	-4.07296
▁	-4.19494
.	-4.21787
▁به	-4.30186
▁ئه	-4.52112
▁ده	-4.54467
,	-4.57222
،	-4.59397
▁له	-4.62023
▁که	-4.72703
▁وه	-4.73907
▁ی	-4.78166
▁ر	-4.80633
▁(	-4.94118
▁هه	-4.95231
ê	-5.07002
a	-5.09631
▁ji	-5.16047
و	-5.21088
▁bi	-5.2497
s	-5.30578
▁û	-5.31237
ن	-5.33198
▁بۆ	-5.35073
ên	-5.39147
)	-5.3938
▁ku	-5.43575
:	-5.45692
م	-5.46839
▁سه	-5.48356
î	-5.4891
▁ن	-5.50988
n	-5.51929
یان	-5.55547
▁li	-5.56462
ە	-5.64229
▁di	-5.64939
▁de	-5.72505
▁یه	-5.72826
▁نه	-5.74511
دا	-5.75132
▁bo	-5.77753
▁پ	-5.77765
▁،	-5.78055
▁م	-5.78526
an	-5.82126
▁خوا	-5.82209
▁گه	-5.84484
-	-5.90413
مان	-5.95868
e	-5.99917
y	-6.06575
t	-6.0743
▁ش	-6.09391
ان	-6.10555
ت	-6.12514
▁وانه	-6.13605
▁لە	-6.14606
▁ser	-6.23634
▁ت	-6.2404
▁ڕاستی	-6.26881
به	-6.27626
k	-6.27902
▁ته	-6.28203
▁ya	-6.2909
m	-6.29318
ش	-6.29926
c	-6.31844
in	-6.31874
▁ڵ	-6.32663
▁e	-6.35256
▁بە	-6.38341
re	-6.3869
▁روه	-6.39829
تان	-6.39922
ێ	-6.39962
ین	-6.40193
iya	-6.40563
▁ب	-6.43673
▁a	-6.44814
▁xwe	-6.45015
l	-6.45224
▁دا	-6.45767
d	-6.46799
▁بێت	-6.47408
▁یان	-6.47724
r	-6.50567
▁A	-6.50722
ra	-6.51791
z	-6.52606
▁مه	-6.5322
▁پێ	-6.53532
▁ک	-6.53686
ەوە	-6.54546
g	-6.55008
h	-6.55725
▁.	-6.56371
که	-6.56869
▁زۆر	-6.58912
▁ne	-6.5961
ya	-6.59823
▁کرد	-6.60176
▁کە	-6.60927
le	-6.60947
f	-6.63877
ا	-6.65893
▁ق	-6.66429
▁ئێمه	-6.66936
▁S	-6.67134
▁خه	-6.68565
▁موو	-6.69202
u	-6.70646
ێکی	-6.70712
ş	-6.70809
▁re	-6.70814
er	-6.71965
▁P	-6.72408
▁بێ	-6.72805
▁کان	-6.73828
▁لێ	-6.74482
ek	-6.74568
o	-6.74678
x	-6.75429
;	-6.75484
▁نا	-6.77604
ده	-6.7785
▁باوه	-6.787
▁بوو	-6.7897
w	-6.79765
ێت	-6.79925
▁C	-6.80131
ێک	-6.8043
▁تی	-6.80547
ب	-6.81078
▁ست	-6.81432
ک	-6.83292
al	-6.83485
▁ئێوه	-6.84418
▁تا	-6.84426
▁بکه	-6.84576
▁تۆ	-6.85333
انه	-6.85774
یه	-6.86433
یش	-6.868
S	-6.86961
▁me	-6.87552
له	-6.88116
ar	-6.89531
i	-6.89843
▁فه	-6.90224
س	-6.90359
▁دە	-6.91061
▁جا	-6.91996
"	-6.9208
û	-6.92155
p	-6.92922
kirina	-6.93575
2	-6.94233
în	-6.94284
▁)	-6.94652
چ	-6.94714
▁س	-6.94966
د	-6.95025
▁من	-6.95145
ز	-6.9553
b	-6.95567
yê	-6.96025
▁ره	-6.97641
▁ڕ	-6.98285
▁بوون	-6.9851
▁ك	-6.99891
▁ve	-6.99964
▁jî	-7.00107
▁an	-7.00918
or	-7.01884
de	-7.01994
ma	-7.03295
▁te	-7.03496
▁B	-7.04274
▁ڕه	-7.04689
▁yên	-7.05357
▁-	-7.05404
iyê	-7.0548
ر	-7.0598
▁خۆی	-7.06131
▁هیچ	-7.06265
ل	-7.06367
▁da	-7.06427
A	-7.06734
te	-7.07791
▁ها	-7.07863
ئه	-7.08009
▁T	-7.08124
نه	-7.08382
E	-7.08887
ك	-7.08993
▁ح	-7.09112
▁ناو	-7.09178
▁كه	-7.09269
وو	-7.09336
3	-7.09398
▁ber	-7.09533
ne	-7.09681
ایه	-7.10459
j	-7.11003
▁ye	-7.11241
C	-7.11298
یت	-7.11556
▁پێغ	-7.12268
▁Bi	-7.12307
▁ئا	-7.12824
▁"	-7.13902
la	-7.14106
▁زه	-7.14296
▁کی	-7.14592
T	-7.14641
▁کانی	-7.14971
▁Di	-7.15672
ار	-7.15997
D	-7.16076
▁خ	-7.16852
▁/	-7.16925
kirin	-7.17687
).	-7.18007
▁Ji	-7.18467
st	-7.19227
ەکان	-7.19331
▁بن	-7.19485
4	-7.19557
▁بێگومان	-7.20733
ve	-7.20856
P	-7.21413
M	-7.21662
▁سته	-7.21886
▁s	-7.22477
ta	-7.23739
▁2	-7.25202
نی	-7.26015
ەی	-7.26975
il	-7.27104
▁کات	-7.27152
ing	-7.27299
ێن	-7.27506
▁ew	-7.27685
8	-7.28113
▁ری	-7.28413
ri	-7.29118
▁تر	-7.29153
ڵ	-7.29233
▁چی	-7.29603
sa	-7.29665
on	-7.3036
▁c	-7.3057
ke	-7.30627
ir	-7.3077
انی	-7.31406
▁F	-7.31572
dar	-7.31742
▁پێش	-7.32056
▁شه	-7.32624
▁we	-7.32778
▁p	-7.33172
▁نی	-7.33318
▁دروست	-7.3342
▁مب	-7.33763
...	-7.33852
ur	-7.34531
دە	-7.34967
▁چ	-7.35312
▁&	-7.35378
na	-7.35427
ژ	-7.355
▁H	-7.35839
ro	-7.36021
▁kar	-7.36675
▁nav	-7.36693
7	-7.37186
▁وره	-7.3839
▁E	-7.38416
I	-7.38666
▁کار	-7.38702
5	-7.39736
ۆ	-7.40089
di	-7.40113
ەر	-7.40191
1	-7.4055
6	-7.40607
▁tê	-7.40812
▁رده	-7.4097
▁be	-7.41664
v	-7.4191
او	-7.42808
▁لای	-7.431
)،	-7.43213
ێك	-7.43283
ری	-7.43321
▁ئەو	-7.43354
ڕ	-7.43663
؟	-7.43831
et	-7.44127
O	-7.44714
▁D	-7.44724
ce	-7.44918
▁1	-7.45056
▁خۆیان	-7.45679
▁vê	-7.45735
▁خۆ	-7.46292
▁hûn	-7.46409
اڵ	-7.46417
en	-7.46621
el	-7.467
▁wê	-7.4699
▁Li	-7.47143
په	-7.48048
▁M	-7.4809
rî	-7.48278
مه	-7.49567
▁ز	-7.49796
!	-7.50323
▁3	-7.50879
L	-7.50912
li	-7.51151
▁G	-7.51181
▁وێت	-7.51652
ter	-7.52103
ەکە	-7.52443
man	-7.52532
تر	-7.52547
▁ئایا	-7.52628
be	-7.52699
rê	-7.5273
وه	-7.5416
?	-7.54411
ات	-7.54737
▁in	-7.54948
▁W	-7.55256
▁Ev	-7.55327
▁نده	-7.55494
ست	-7.56228
▁her	-7.56416
خ	-7.56873
ç	-7.56994
ng	-7.57419
▁ئە	-7.57492
▁با	-7.58306
▁خوای	-7.58721
B	-7.58997
tî	-7.60175
▁کاتێک	-7.60218
▁الل	-7.60473
ى	-7.61269
▁O	-7.61398
▁کردووه	-7.6185
▁مان	-7.62812
eya	-7.62832
کە	-7.63292
q	-7.63461
yên	-7.63477
▁وان	-7.63488
▁tu	-7.63621
▁ند	-7.63824
▁بڵێ	-7.639
lo	-7.6416
رد	-7.64652
بوو	-7.64939
ای	-7.65347
R	-7.65664
bi	-7.6643
ف	-7.66793
▁ڵێن	-7.67311
▁وسلم	-7.67609
iyên	-7.68131
he	-7.68132
▁بکات	-7.68186
▁Ma	-7.68255
ber	-7.68338
▁bike	-7.68638
▁K	-7.68756
▁بده	-7.68796
ch	-7.68913
▁چه	-7.69019
شت	-7.69311
ج	-7.6933
9	-7.6975
▁din	-7.6984
▁he	-7.6999
▁وا	-7.70166
se	-7.70595
▁dike	-7.70621
▁خۆش	-7.71247
nd	-7.71487
▁تان	-7.71507
▁نیه	-7.7185
am	-7.72225
رێت	-7.72574
بێت	-7.72606
▁bû	-7.72671
▁دڵ	-7.72712
▁ba	-7.72938
▁نگ	-7.73192
me	-7.73279
▁ڵام	-7.73537
▁nû	-7.73574
▁f	-7.73668
▁وت	-7.73886
▁لا	-7.73909
راو	-7.7413
ed	-7.74785
▁شت	-7.75308
lî	-7.75399
▁dest	-7.76063
▁نجام	-7.76174
▁دوای	-7.76197
ha	-7.76298
%	-7.76426
ol	-7.76758
▁bê	-7.7703
▁د	-7.77151
▁kir	-7.77327
▁ع	-7.77499
im	-7.77659
nê	-7.77778
H	-7.78078
▁yek	-7.78184
▁چونکه	-7.78184
نا	-7.78566
gt	-7.79254
▁ئەم	-7.79305
yî	-7.79618
▁bikin	-7.79684
▁هە	-7.79704
▁نها	-7.80041
▁pêş	-7.80136
K	-7.80143
at	-7.80197
ran	-7.80617
ger	-7.80799
'	-7.80935
da	-7.81004
▁ma	-7.81387
▁N	-7.81678
es	-7.81891
yan	-7.82456
▁der	-7.82505
▁کۆ	-7.82873
▁دوو	-7.83151
▁_	-7.83824
ووه	-7.83915
▁pir	-7.84224
کرد	-7.84436
▁I	-7.84471
dî	-7.84613
▁ین	-7.85284
▁em	-7.85355
یا	-7.85355
kar	-7.857
▁kirin	-7.85982
N	-7.86089
amp	-7.86152
▁علیه	-7.86362
/	-7.86542
▁dê	-7.86635
▁to	-7.86874
▁ئاسمان	-7.87023
▁سەر	-7.87025
▁تێ	-7.87063
▁J	-7.87476
گه	-7.88311
اری	-7.88372
▁بیر	-7.88831
▁wan	-7.89327
va	-7.89328
▁هاو	-7.89536
lê	-7.89958
▁wek	-7.89964
▁هێناوه	-7.90361
▁4	-7.90405
ق	-7.90511
▁وتی	-7.91036
▁هۆی	-7.91095
▁خوایه	-7.914
؟!	-7.9145
eke	-7.91889
▁baş	-7.92316
▁ev	-7.92351
is	-7.92417
ێر	-7.92597
▁ڵکی	-7.92623
▁زاته	-7.92762
▁ئەوە	-7.93047
00	-7.93275
▁ڵگه	-7.93302
▁سوێند	-7.93453
ka	-7.93481
pe	-7.93498
▁چۆن	-7.93506
îne	-7.93988
اوه	-7.94167
▁چاو	-7.94232
ته	-7.94587
▁رمان	-7.94933
vi	-7.94968
kê	-7.95141
▁g	-7.95343
▁ل	-7.95538
▁ڕێگ	-7.95605
▁mezin	-7.95696
▁قیام	-7.96086
ایی	-7.961
ge	-7.9671
▁دۆز	-7.96805
nî	-7.97261
▁X	-7.97274
▁se	-7.9749
▁ra	-7.97504
▁roj	-7.9773
▁z	-7.97954
▁ماڵ	-7.97976
▁Re	-7.98031
▁پێی	-7.98188
▁...	-7.9824
▁k	-7.9877
پ	-7.98793
sî	-7.99081
ic	-7.99129
از	-7.99167
انە	-7.99267
وە	-7.99285
دان	-7.99581
to	-7.99851
▁کو	-8.00592
V	-8.00609
▁V	-8.00612
▁5	-8.00678
▁پێیان	-8.00827
▁خاو	-8.00969
وا	-8.01001
F	-8.01083
îna	-8.0147
ew	-8.01587
us	-8.01996
▁lê	-8.02114
andin	-8.02405
▁سان	-8.02464
▁ڕوو	-8.02467
▁L	-8.02518
it	-8.02846
tir	-8.03381
▁dikarin	-8.03509
ik	-8.03713
ok	-8.03734
ser	-8.0374
▁ڕا	-8.03997
▁min	-8.04185
را	-8.04418
▁x	-8.04454
تا	-8.04682
un	-8.04893
▁بی	-8.05305
ck	-8.05424
ba	-8.05669
▁میش	-8.0568
▁جێ	-8.05798
▁جگ	-8.05958
ێنێت	-8.06091
eyên	-8.06106
▁ف	-8.06316
▁R	-8.06556
▁کردن	-8.06884
ي	-8.06952
kî	-8.07369
ye	-8.07499
▁سزای	-8.07526
▁شتێک	-8.07629
▁of	-8.07998
▁Me	-8.0808
ام	-8.08139
G	-8.08206
▁Ç	-8.08566
▁ڕاست	-8.08879
th	-8.09293
ون	-8.09401
▁tenê	-8.09479
▁نیشان	-8.0951
em	-8.09704
îk	-8.10164
▁پشت	-8.10325
صل	-8.10629
ver	-8.10799
▁Ba	-8.10799
▁بەڵام	-8.11061
یاندا	-8.11098
▁rê	-8.11347
بوون	-8.11462
ەت	-8.11613
▁شوێن	-8.11873
ره	-8.1194
um	-8.12191
ss	-8.122
▁لایه	-8.12468
▁خۆتان	-8.12657
▁ترس	-8.12725
dan	-8.12786
▁st	-8.13017
▁herî	-8.13078
▁Em	-8.1308
دار	-8.13113
ەکانی	-8.1315
▁ئیتر	-8.1378
▁بڕیار	-8.14277
za	-8.14373
▁دی	-8.14497
▁کانیان	-8.14631
▁چاکه	-8.14685
رو	-8.15048
یە	-8.15057
▁Da	-8.15159
▁ردگاری	-8.15178
لی	-8.15388
ح	-8.15428
▁Ew	-8.15527
ێنه	-8.15897
می	-8.16092
▁hev	-8.16105
ەن	-8.16267
▁وسا	-8.16642
▁گوناه	-8.1709
ەم	-8.17487
▁ناک	-8.17487
▁dema	-8.17634
▁Z	-8.17863
ca	-8.18209
▁ران	-8.18222
▁pê	-8.18287
مە	-8.18447
▁ئەمە	-8.18651
▁ez	-8.18745
end	-8.18952
zî	-8.18962
êr	-8.19512
▁ئیمانداران	-8.19573
▁ئاشکرا	-8.19744
gir	-8.19795
ll	-8.2016
▁ساڵ	-8.20457
▁Î	-8.20583
▁The	-8.20898
▁Y	-8.20905
بۆ	-8.20967
ul	-8.21021
▁He	-8.21171
▁شێوه	-8.21171
▁19	-8.21582
ot	-8.21711
lt	-8.21855
▁U	-8.22153
شی	-8.22307
ze	-8.2233
ور	-8.231
▁De	-8.23212
▁ên	-8.2346
▁gelek	-8.23712
▁کاتێکدا	-8.2377
mî	-8.23779
▁Ş	-8.23913
op	-8.2395
گە	-8.2406
ni	-8.24342
Name	-8.24373
▁دەر	-8.24427
بن	-8.24457
▁Ser	-8.2467
گر	-8.24748
▁قس	-8.24797
▁خێر	-8.24849
▁dikare	-8.24886
and	-8.25134
▁وام	-8.25198
▁میهر	-8.25292
▁کارو	-8.25467
sh	-8.25521
▁ڕۆژ	-8.2671
▁كان	-8.2682
anî	-8.26929
وت	-8.27067
="	-8.2708
▁dibe	-8.27129
▁ئەوەی	-8.27251
▁mo	-8.27524
تی	-8.27629
▁Te	-8.27818
çe	-8.28147
as	-8.28148
▁دێت	-8.282
▁هەموو	-8.28528
▁چاک	-8.29078
▁کێ	-8.29179
▁رچی	-8.29316
▁هات	-8.2932
▁جۆره	-8.29334
▁رو	-8.29337
ation	-8.29406
▁20	-8.29435
bo	-8.29451
▁رز	-8.29974
bûna	-8.30176
▁سی	-8.30217
gi	-8.30222
▁du	-8.30255
یدا	-8.30647
▁وتیان	-8.31011
ad	-8.31015
▁ڕو	-8.31364
ker	-8.3139
▁بین	-8.31431
▁ڕی	-8.31916
▁ڕیان	-8.32158
ut	-8.32181
ڵه	-8.32582
U	-8.32794
▁دان	-8.32865
▁منداڵ	-8.32897
ێنن	-8.33093
▁Mi	-8.33316
▁گ	-8.33483
▁do	-8.33747
▁ئاماده	-8.33872
گ	-8.34165
▁وەک	-8.34436
W	-8.34596
hê	-8.34662
▁St	-8.34826
لا	-8.35435
▁Co	-8.35519
▁heye	-8.35584
&	-8.35668
”	-8.35719
tal	-8.35738
az	-8.35769
کات	-8.35849
we	-8.35979
ti	-8.36013
▁hene	-8.36033
▁رام	-8.36238
▁ما	-8.36257
▁10	-8.36279
▁h	-8.36416
كه	-8.36489
▁ئینجا	-8.36631
▁کاته	-8.36766
van	-8.36767
▁ڵکو	-8.36818
hi	-8.3708
▁“	-8.37258
گا	-8.37346
war	-8.37627
▁بار	-8.37696
▁بو	-8.37731
ina	-8.37776
▁par	-8.37845
کی	-8.37855
▁sal	-8.37863
▁kes	-8.37923
کردن	-8.38057
kirî	-8.38364
com	-8.38365
ho	-8.38381
▁TV	-8.38387
ûr	-8.38481
▁ş	-8.3851
▁bilind	-8.38571
▁nîşan	-8.38631
▁محمد	-8.38807
خۆ	-8.38869
▁جیهان	-8.38899
▁ویدا	-8.3893
▁ko	-8.38988
▁ئایه	-8.39002
▁7	-8.39035
▁çi	-8.39049
▁غ	-8.39178
fi	-8.39262
بە	-8.39308
▁ڕوون	-8.39397
▁hemû	-8.39406
▁'	-8.39653
دوو	-8.40066
▁رنام	-8.40097
▁t	-8.40115
▁ڕۆ	-8.40219
▁کاتی	-8.40388
ۆر	-8.40557
▁ئاو	-8.40667
hî	-8.40678
ekî	-8.40738
mê	-8.40971
ga	-8.40986
▁زیاتر	-8.4102
بار	-8.41054
▁یت	-8.41092
▁Ne	-8.41135
av	-8.41208
ڕۆ	-8.41274
▁xe	-8.41313
▁نە	-8.41367
X	-8.41633
kan	-8.41721
تە	-8.4208
▁In	-8.42118
▁Nav	-8.42273
▁mi	-8.42481
per	-8.42622
xwe	-8.42841
lu	-8.42947
▁ڕۆژی	-8.43103
▁خت	-8.43292
ru	-8.43426
▁6	-8.43466
▁موسا	-8.43536
▁وتن	-8.43547
▁پاشان	-8.43721
tin	-8.43808
▁هێنا	-8.43832
دی	-8.4404
bû	-8.44123
▁8	-8.44208
▁ژیانی	-8.44239
▁Mo	-8.44309
lan	-8.44402
▁کاتێك	-8.4447
▁Q	-8.44591
▁شتی	-8.44651
▁wekî	-8.44664
▁سا	-8.44684
ع	-8.44771
▁سو	-8.45197
سه	-8.45322
dana	-8.45392
▁ti	-8.45565
▁می	-8.45595
▁ئیمان	-8.45631
▁zêde	-8.45727
▁قورئان	-8.45796
▁هەیە	-8.46241
0	-8.46293
▁جۆر	-8.46325
▁Ez	-8.46391
▁ئێستا	-8.46618
eyê	-8.46659
▁dikin	-8.47068
وێ	-8.4729
ەکەی	-8.47354
▁ئی	-8.47643
▁دەست	-8.47653
şe	-8.47675
▁تاوان	-8.47763
▁شوێنی	-8.48066
▁کێش	-8.48067
pa	-8.48174
kirinê	-8.48208
وون	-8.48562
▁).	-8.49065
▁ئێمە	-8.49174
▁pey	-8.49244
▁We	-8.50135
go	-8.50189
▁ڕێبازی	-8.50208
▁divê	-8.503
ترین	-8.50369
▁گوێ	-8.50447
پێ	-8.5055
کار	-8.50584
tê	-8.50628
▁ئاگادار	-8.50718
mo	-8.50756
▁دنیا	-8.50876
نە	-8.51001
▁دات	-8.51061
▁ج	-8.51126
اب	-8.5117
der	-8.51201
20	-8.5129
Y	-8.51426
▁رمانی	-8.51502
▁ڕزگار	-8.51534
▁كرد	-8.51837
!!	-8.51901
iv	-8.52
▁d	-8.5208
▁ê	-8.52116
▁رگیز	-8.52244
▁هیدا	-8.52362
▁جوان	-8.52783
ci	-8.52836
▁Ber	-8.52884
کردنی	-8.53206
co	-8.53252
▁لەسەر	-8.53263
je	-8.53378
ko	-8.53462
▁هەر	-8.53466
ate	-8.53487
▁yê	-8.53523
▁rast	-8.53885
▁hêla	-8.53946
îl	-8.54
▁لەگەڵ	-8.54363
ine	-8.54466
▁wî	-8.54541
mar	-8.54671
▁ون	-8.54782
▁دڵنیا	-8.54846
▁نزیک	-8.54958
▁پاداشتی	-8.5505
▁hatiye	-8.55072
▁ta	-8.55122
▁–	-8.5516
▁دوور	-8.55185
▁kêm	-8.5563
▁na	-8.55686
▁زانی	-8.55776
توانی	-8.55823
▁wi	-8.55901
کر	-8.56198
▁ندێک	-8.56447
▁ç	-8.56552
▁تێک	-8.56594
xwaz	-8.56742
▁aliyê	-8.56752
▁کتێب	-8.56953
▁ڕێ	-8.5696
▁یاخود	-8.57024
▁Ro	-8.57075
▁b	-8.57129
▁ava	-8.57181
▁فریشت	-8.57311
▁si	-8.57362
iye	-8.57402
▁gu	-8.57431
▁ئەگەر	-8.57545
▁نجامی	-8.57641
▁ئازار	-8.57846
hat	-8.57871
înin	-8.57951
▁رست	-8.58125
▁پڕ	-8.58226
ال	-8.5827
ۆن	-8.5836
▁ژیان	-8.58841
mend	-8.58986
▁12	-8.59276
▁خواو	-8.59476
▁جار	-8.59793
▁ڕۆژه	-8.60035
▁ڕێز	-8.60424
▁نێوان	-8.60569
▁بینی	-8.60591
▁Ra	-8.6068
ڕه	-8.607
ry	-8.60893
ay	-8.61098
▁ناس	-8.61111
▁درۆ	-8.61205
▁هێز	-8.61222
▁بڕوا	-8.61298
سی	-8.6156
▁ڵه	-8.6175
▁سنوور	-8.61785
زی	-8.62128
اند	-8.62255
▁ستی	-8.62343
ner	-8.62451
▁ندی	-8.62844
▁Ho	-8.62869
▁dem	-8.62943
زانی	-8.62995
نج	-8.63165
▁Par	-8.6321
ایە	-8.63267
pp	-8.63284
▁تۆڵ	-8.63298
ent	-8.63312
▁dî	-8.63385
▁pa	-8.63408
tên	-8.63424
▁qe	-8.63691
▁ردگار	-8.63702
bar	-8.63809
met	-8.6402
000	-8.64427
کان	-8.64567
▁niha	-8.64734
▁برد	-8.64891
ow	-8.64987
▁the	-8.65122
▁شتانه	-8.65153
▁شار	-8.65223
▁ka	-8.6523
ڤ	-8.65424
▁car	-8.6544
du	-8.65445
▁Her	-8.65459
dem	-8.65582
ment	-8.65619
لە	-8.65713
▁co	-8.6578
▁سزا	-8.65826
Î	-8.66073
▁بەر	-8.66147
▁ئاد	-8.66198
rên	-8.66408
عم	-8.66488
▁بانگ	-8.66495
▁صل	-8.66657
zan	-8.66732
▁Kar	-8.66871
ئ	-8.66918
▁گو	-8.67288
▁وات	-8.67459
up	-8.6752
کراو	-8.67584
▁hê	-8.67734
▁بدات	-8.6778
▁:	-8.67858
id	-8.67908
▁چاك	-8.68324
kin	-8.68326
با	-8.68402
tîk	-8.68409
▁la	-8.68457
jar	-8.68502
_	-8.68631
▁Pa	-8.69044
▁ئافر	-8.69327
od	-8.69459
▁pro	-8.69582
andina	-8.69788
▁قورئانه	-8.69915
▁شتێکی	-8.69986
▁ڵک	-8.70109
iyan	-8.70245
rîn	-8.70425
wa	-8.7047
▁Be	-8.70475
yayê	-8.70522
▁ke	-8.70587
îr	-8.70653
ît	-8.70685
şê	-8.70739
▁دەبێت	-8.71005
îst	-8.71091
om	-8.71153
▁Ve	-8.71231
▁گرت	-8.7129
mi	-8.71346
▁ئیماندار	-8.7135
▁got	-8.71367
▁bikar	-8.71528
▁بۆیان	-8.71605
ران	-8.71665
▁شی	-8.7182
vî	-8.71873
▁سامان	-8.71937
▁لەو	-8.72114
▁hat	-8.72129
▁پێویست	-8.72191
men	-8.72275
han	-8.72309
wer	-8.72426
▁پاک	-8.72513
▁Gu	-8.72627
ەک	-8.72677
▁pêk	-8.72729
▁fi	-8.72741
▁ودوا	-8.72762
pê	-8.73059
ast	-8.7345
yar	-8.73497
▁ڵات	-8.73504
ئا	-8.73682
▁ni	-8.74067
fa	-8.74256
▁واز	-8.74358
tina	-8.74534
▁Rê	-8.75106
▁11	-8.75259
kên	-8.75281
▁کەس	-8.75414
▁Ch	-8.75482
po	-8.75502
▁گە	-8.75529
▁tev	-8.75578
10	-8.75624
▁داوه	-8.75736
ft	-8.76051
▁vir	-8.76068
▁فێر	-8.76123
اس	-8.76131
▁Tu	-8.76144
iyek	-8.76293
▁Pro	-8.76396
کەوت	-8.76524
ist	-8.77144
rs	-8.77268
ly	-8.77376
کاری	-8.77429
▁$	-8.77521
▁زیندوو	-8.77618
دانی	-8.77662
şa	-8.77682
ava	-8.77812
iz	-8.77923
▁Sa	-8.77958
tor	-8.77991
ما	-8.78249
işt	-8.78311
▁dawî	-8.7854
▁Der	-8.78546
▁چەند	-8.78668
▁Se	-8.78673
ket	-8.78694
rm	-8.78748
▁r	-8.78759
▁خشی	-8.78971
▁داد	-8.7903
▁دار	-8.7906
▁لێی	-8.79145
xa	-8.79151
خوا	-8.79216
ts	-8.79317
رێن	-8.79519
),	-8.79522
no	-8.79623
▁bin	-8.79777
یەکی	-8.79914
▁[	-8.79938
ەنگ	-8.80034
os	-8.80098
خه	-8.80255
▁An	-8.80278
▁ردگارت	-8.80386
▁dîtin	-8.80415
اندن	-8.80459
▁ناوی	-8.80772
ap	-8.80853
rû	-8.80872
▁hêsan	-8.80897
mm	-8.80902
▁w	-8.81098
▁وە	-8.81106
▁کرێت	-8.81221
▁کراو	-8.81321
kir	-8.81414
ev	-8.81482
ahiya	-8.81545
▁ناسان	-8.81658
▁çalak	-8.81712
îya	-8.81713
▁qa	-8.81795
▁سێ	-8.8217
▁سێک	-8.82244
▁تایبه	-8.82312
▁دایک	-8.82317
▁hin	-8.82372
▁bibe	-8.82479
▁خەڵک	-8.82608
▁خۆت	-8.82619
پا	-8.82753
انەی	-8.82762
▁zêdetir	-8.82791
▁کردو	-8.82827
wir	-8.83012
بو	-8.83073
▁هەڵ	-8.83091
’	-8.83113
▁کراوه	-8.83151
▁Pêş	-8.8317
▁یمان	-8.83221
▁9	-8.83341
خات	-8.8335
ext	-8.834
ۆش	-8.83467
▁%	-8.83509
▁0	-8.83796
▁گر	-8.8383
گی	-8.83916
▁ربار	-8.83965
▁Lê	-8.84021
▁جیاواز	-8.84039
do	-8.84069
▁حم	-8.84082
▁کاری	-8.8413
▁Bo	-8.84204
▁ببه	-8.8424
وس	-8.84458
▁xuya	-8.84647
▁جه	-8.84782
▁heman	-8.84785
اک	-8.84897
▁taybet	-8.84997
ەوێت	-8.85004
▁hi	-8.85026
▁î	-8.85227
پرس	-8.8529
ki	-8.85413
ekê	-8.85436
name	-8.8554
▁sp	-8.85657
▁200	-8.85661
▁فر	-8.85716
▁vî	-8.85756
▁To	-8.8588
▁تدا	-8.85883
▁cuda	-8.86002
▁باوک	-8.86119
▁هاوس	-8.86126
ib	-8.86477
▁ڕێنموویی	-8.86487
▁تاقی	-8.86564
dê	-8.86598
xistin	-8.86721
▁در	-8.86767
▁mu	-8.86888
ەش	-8.87134
▁Name	-8.87191
▁piştî	-8.87216
اندا	-8.87466
▁nivîs	-8.8751
▁bikaranîn	-8.88012
▁Le	-8.88055
▁رستن	-8.88148
age	-8.88156
▁Ko	-8.88456
▁کوڕ	-8.88555
lek	-8.88671
sk	-8.88878
▁bandor	-8.88899
si	-8.8897
mp	-8.89103
زه	-8.89115
one	-8.89159
▁En	-8.89184
پارێز	-8.89344
▁رگ	-8.8942
▁رنج	-8.89458
12	-8.89522
▁Fi	-8.89611
▁demê	-8.89663
▁یاد	-8.89768
▁mirov	-8.89784
ana	-8.89805
▁بووه	-8.89852
ard	-8.90007
rin	-8.90045
یەک	-8.9014
▁خۆم	-8.90278
چێت	-8.90282
jî	-8.90389
▁زوو	-8.90408
▁welat	-8.90678
▁داوای	-8.90838
▁rastî	-8.90845
hev	-8.90984
▁سوود	-8.91016
▁هاوار	-8.9105
▁ڕان	-8.91066
▁نازو	-8.9113
▁ویش	-8.91218
▁بۆتان	-8.91266
▁روون	-8.9168
▁گۆڕ	-8.91752
▁2018	-8.91835
▁HD	-8.91896
ەند	-8.91983
▁بر	-8.91993
▁sê	-8.92544
form	-8.92675
▁بكه	-8.92688
اف	-8.93032
ies	-8.93122
▁La	-8.93321
بڕ	-8.93322
▁ئێ	-8.93373
eng	-8.9344
▁yekê	-8.9348
▁hewce	-8.93596
▁پشتیوان	-8.93596
▁زی	-8.93627
ەیە	-8.93696
▁زانیاری	-8.93747
▁hil	-8.93753
▁گومان	-8.93794
▁kom	-8.93817
گو	-8.93845
بین	-8.9386
▁یتان	-8.93885
asyon	-8.94185
ڵی	-8.94186
▁هێن	-8.94186
▁یەک	-8.94214
▁بت	-8.94255
▁باو	-8.94386
▁دوا	-8.94387
▁ro	-8.94432
▁دەکات	-8.94547
ji	-8.94578
▁کردوون	-8.94605
▁کۆم	-8.94605
▁30	-8.94625
▁ردگاریان	-8.94712
▁bûn	-8.94722
ەڕ	-8.94797
▁dur	-8.94923
▁چاکتر	-8.95047
ۆڵ	-8.95263
yo	-8.95302
▁میزاد	-8.95455
vê	-8.95503
▁گرنگ	-8.9565
▁خزم	-8.95708
yon	-8.95892
lên	-8.96096
وڵ	-8.96106
îrok	-8.96125
erê	-8.96255
▁نین	-8.96279
▁پرسیار	-8.96345
ێڵ	-8.96372
▁باش	-8.96387
▁pel	-8.96415
▁خۆمان	-8.96604
ı	-8.96608
tiya	-8.96664
tirîn	-8.96703
ھ	-8.96756
▁بگه	-8.96928
▁لێخۆشبوو	-8.96978
▁ویستی	-8.97156
geha	-8.97169
▁ژێر	-8.97358
▁خوایش	-8.97471
▁Do	-8.97531
▁تێدا	-8.97709
هێنان	-8.97731
▁derman	-8.97744
بێ	-8.97805
شتی	-8.97886
tan	-8.97912
▁دابه	-8.97916
٠	-8.97978
▁ڕێن	-8.97987
ster	-8.97987
▁bibînin	-8.98204
▁کەم	-8.98225
▁وتوو	-8.9823
بەر	-8.98307
▁ڵاتی	-8.98314
log	-8.98315
▁o	-8.98323
کو	-8.98445
ting	-8.98448
▁yekem	-8.98539
▁زانا	-8.98646
▁Xwe	-8.98737
▁navê	-8.98796
▁dide	-8.98798
▁ریان	-8.98929
▁bide	-8.99063
nameya	-8.99164
▁hate	-8.99203
▁بیه	-8.9937
▁نوێژ	-8.99435
▁heta	-8.99493
گێڕ	-8.9958
▁بهێنن	-8.996
▁فا	-8.99741
▁مانگ	-8.9975
▁ئاگا	-8.99775
▁Roj	-8.998
▁یاخی	-8.99823
ڕی	-8.9996
▁rû	-8.99963
▁ردگارا	-9.00006
kêş	-9.00098
▁ڕێک	-9.00125
▁خراپ	-9.00135
19	-9.00152
▁per	-9.00212
▁ha	-9.00213
▁نێ	-9.00372
▁start	-9.0048
▁وڵ	-9.0056
▁نابێت	-9.00617
bûn	-9.00622
▁پاش	-9.00702
▁çawa	-9.00753
▁pêşkêş	-9.00795
▁Ke	-9.00826
fir	-9.00914
گرتن	-9.00965
▁باخ	-9.01067
ight	-9.01134
▁کردنی	-9.01321
▁ردا	-9.01383
sp	-9.01419
▁زانن	-9.01448
▁ببێت	-9.01503
▁خو	-9.01503
port	-9.01667
١	-9.01675
▁ڕۆزی	-9.0179
▁وایه	-9.01841
▁Rû	-9.02012
able	-9.02342
▁Ge	-9.0238
▁یادی	-9.02492
▁bar	-9.02591
xe	-9.02662
▁دیار	-9.02697
▁al	-9.0277
▁Al	-9.02774
▁çê	-9.02937
fe	-9.02959
rd	-9.03018
▁تاوانبار	-9.03241
ناو	-9.03284
▁têne	-9.03358
▁encam	-9.03483
▁بم	-9.03617
▁گوفتار	-9.03709
▁+	-9.03758
guh	-9.03848
▁•	-9.04031
▁گومڕا	-9.04065
▁dirêj	-9.04136
▁şa	-9.04168
▁ho	-9.04344
▁avê	-9.04444
day	-9.04573
▁ڕووی	-9.04764
▁Zanîngeha	-9.04791
alî	-9.04804
▁زانایه	-9.04863
înê	-9.04886
▁ڕتان	-9.05104
bet	-9.05212
▁15	-9.05305
las	-9.05439
▁qu	-9.05571
▁Ka	-9.05719
▁bêtir	-9.05773
tic	-9.05847
▁خۆشی	-9.05948
رۆ	-9.06035
ia	-9.06173
ێته	-9.06191
▁تیش	-9.06192
]	-9.06311
غ	-9.06464
▁hez	-9.06586
ێنین	-9.06657
J	-9.06777
▁ئاس	-9.06869
▁çêkirin	-9.07077
▁جێگ	-9.07149
ust	-9.07181
şî	-9.07191
دو	-9.07217
▁دژ	-9.07228
▁fa	-9.07304
سا	-9.07354
▁Sp	-9.07543
▁Ha	-9.07716
fer	-9.0772
▁بڕ	-9.0774
▁خراپه	-9.0777
▁for	-9.07836
رە	-9.07889
▁Çi	-9.08028
▁ئیبراهیم	-9.08048
bîn	-9.08097
▁ڕزق	-9.08107
▁؟	-9.08114
▁زیاد	-9.08172
so	-9.08185
▁کانتان	-9.0819
50	-9.08254
▁taybetî	-9.08255
زان	-9.08385
ەیەکی	-9.08736
Ê	-9.08879
▁باشه	-9.08933
ند	-9.0898
bol	-9.09098
▁دوژمن	-9.09118
▁خواوه	-9.09195
geh	-9.09223
▁berhemên	-9.09254
ێز	-9.09266
▁چوو	-9.09312
ڕا	-9.09414
▁cîhanê	-9.09421
▁ئاسان	-9.09689
▁هەست	-9.09819
▁derbas	-9.09838
▁خواناس	-9.10078
▁سوپاس	-9.10199
▁گۆ	-9.10219
▁Dema	-9.10358
▁bibin	-9.10391
▁bikaranîna	-9.10396
▁تیایدا	-9.10443
چوون	-9.10516
ld	-9.10529
▁پار	-9.10575
15	-9.10639
اوی	-9.10683
▁واو	-9.10747
▁بخ	-9.10805
ction	-9.10848
▁Lo	-9.10908
▁پیاو	-9.11092
▁باس	-9.1115
ێش	-9.11193
işk	-9.11434
ER	-9.11483
▁ewle	-9.11485
شه	-9.11535
▁ژ	-9.11567
yeke	-9.1157
▁Û	-9.1166
▁خته	-9.11737
▁van	-9.11746
ویست	-9.12055
▁im	-9.12124
ژین	-9.12298
تاندا	-9.12362
▁کرا	-9.12373
▁sala	-9.12518
şt	-9.12604
ect	-9.12658
کانی	-9.12698
اوە	-9.1274
ers	-9.1274
▁زان	-9.12746
▁Ta	-9.1278
IN	-9.12832
▁ئارام	-9.12926
▁ئەوان	-9.12944
@	-9.1315
ct	-9.1321
ex	-9.13214
▁بزانن	-9.1323
▁هاوڕێ	-9.13236
ۆک	-9.13279
▁جو	-9.13345
▁كات	-9.13357
▁No	-9.13462
bî	-9.13539
▁گەورە	-9.13547
▁خوان	-9.13569
est	-9.13612
▁فیرع	-9.1364
پێکەنین	-9.1364
ack	-9.13861
▁2019	-9.1392
ab	-9.14021
کێش	-9.14082
bu	-9.14111
▁bajar	-9.14212
tion	-9.14218
▁100	-9.14252
ku	-9.14297
11	-9.14522
▁نرخ	-9.14776
▁*	-9.14794
(	-9.14804
ۆت	-9.14891
▁çend	-9.14952
▁شای	-9.15021
▁نهێنی	-9.15025
▁girîng	-9.1503
ric	-9.1506
▁زانێت	-9.15142
کردنه	-9.15153
▁2017	-9.15297
▁pîşesaz	-9.15343
▁کانیش	-9.15489
AN	-9.15683
▁خوێند	-9.15702
▁کتر	-9.15723
▁Si	-9.15749
▁شایست	-9.15847
▁مردن	-9.15935
▁بزان	-9.16085
▁nas	-9.16142
▁بکەین	-9.16174
▁یام	-9.16196
▁diyar	-9.16391
ناس	-9.16399
▁wa	-9.16444
▁13	-9.16676
tinê	-9.16697
60	-9.167
▁خشه	-9.16901
▁ناخۆشی	-9.16911
rav	-9.16961
پی	-9.1699
▁kontrol	-9.16996
tu	-9.17041
▁ڕۆژێک	-9.17132
▁خواردن	-9.17143
▁بووم	-9.17145
▁بەکار	-9.17158
▁گرێت	-9.17182
ive	-9.17257
▁Ger	-9.17274
▁خش	-9.17303
▁gel	-9.17544
gehê	-9.17832
▁دنیادا	-9.18149
▁Vi	-9.18286
▁kerema	-9.18312
▁1.	-9.18318
▁şer	-9.18371
▁گیر	-9.18448
▁Kom	-9.18498
▁؟!	-9.18631
sion	-9.18664
▁مۆڵ	-9.18791
îka	-9.18896
ite	-9.18998
؛	-9.19035
▁ردگارتان	-9.19143
نەوەی	-9.19207
▁ژار	-9.19232
▁بان	-9.19386
ییە	-9.19414
qe	-9.19421
رن	-9.19426
yek	-9.19448
AR	-9.19459
pi	-9.19535
oka	-9.19664
چونکه	-9.1974
bê	-9.19805
▁بڕوایان	-9.19862
▁heft	-9.19884
ڵا	-9.19888
jêr	-9.19898
▁ردگارم	-9.19921
▁کاندا	-9.19922
▁دیاری	-9.19992
▁so	-9.19996
bin	-9.20032
زە	-9.20128
▁لێیان	-9.20208
▁Pe	-9.20214
▁Hûn	-9.20233
▁ئار	-9.20292
▁بیت	-9.20397
▁خشێت	-9.20417
▁رپا	-9.20437
▁pol	-9.20543
▁rewş	-9.20654
گار	-9.20706
ov	-9.20744
http	-9.20833
▁ھە	-9.20846
▁Ar	-9.20868
▁جیا	-9.2096
▁رتان	-9.21008
▁ماوه	-9.21018
ستان	-9.21066
ەیەک	-9.21091
▁پیلان	-9.2117
dest	-9.21316
gu	-9.21332
▁ڕانه	-9.21498
▁18	-9.21633
▁گاڵت	-9.2178
▁lo	-9.21799
▁tişt	-9.21982
ip	-9.22037
▁lêkolîn	-9.22117
▁دەکەن	-9.22121
داوه	-9.22226
har	-9.22275
▁پارێزکار	-9.22324
▁nexweş	-9.2246
ییەکان	-9.22515
▁درێژ	-9.22527
▁هێنن	-9.22737
▁gir	-9.22835
▁hatine	-9.22973
▁ببن	-9.23055
▁لەم	-9.23111
▁Ku	-9.23141
▁بیان	-9.23149
▁نارد	-9.23159
qu	-9.23268
▁دەم	-9.23454
▁مژد	-9.23632
▁germ	-9.23633
ub	-9.23708
▁ڕاسته	-9.23727
ph	-9.2391
▁were	-9.23946
▁ئامۆژگاری	-9.24041
▁xizmet	-9.24045
▁خوادا	-9.24141
▁sereke	-9.24172
▁وانیش	-9.2418
▁test	-9.24187
▁زمان	-9.24204
istan	-9.24213
şîn	-9.24232
▁شتێك	-9.24305
▁خشین	-9.24347
▁هۆز	-9.2439
▁ئەوەیە	-9.24449
best	-9.24483
mer	-9.24675
دایه	-9.2468
▁24	-9.24926
▁باران	-9.25018
▁كاتێك	-9.25294
▁ناکات	-9.25312
▁كار	-9.25491
▁رانی	-9.25519
▁پێشتر	-9.25677
▁ریه	-9.25721
keft	-9.25754
ليه	-9.2594
ton	-9.26059
▁girêdayî	-9.26073
xistina	-9.26078
▁pêşniyar	-9.26144
br	-9.26191
baz	-9.2634
ئە	-9.2639
▁نییە	-9.26503
xane	-9.26511
▁تووشی	-9.26655
▁no	-9.26732
=	-9.26756
گرێت	-9.26895
▁بچ	-9.27195
ü	-9.27284
Q	-9.27304
▁کردوو	-9.27442
▁ملک	-9.27631
ator	-9.2766
40	-9.27744
▁So	-9.27763
ەکەم	-9.27804
▁belav	-9.27831
کۆ	-9.2789
▁جیاتی	-9.27891
▁Tê	-9.27907
▁berê	-9.27936
▁eger	-9.28
فر	-9.28019
ity	-9.28029
▁cîh	-9.28039
▁کچ	-9.28078
▁Yek	-9.28145
▁ئاگر	-9.28145
ڕو	-9.28164
▁zarok	-9.28293
گرن	-9.28344
▁خۆر	-9.28467
▁Na	-9.28469
▁malperê	-9.2851
-2	-9.28573
ەخ	-9.28592
▁Comment	-9.28625
▁دره	-9.28725
▁نام	-9.2881
ayî	-9.28954
بینی	-9.29078
▁ئێش	-9.29139
▁Kon	-9.2965
▁میان	-9.2986
▁perwerde	-9.29971
▁Dî	-9.30056
▁گیان	-9.30141
ساز	-9.30182
▁dijî	-9.30232
▁çar	-9.30338
▁tête	-9.30383
▁دیهێن	-9.30399
ian	-9.30525
▁jê	-9.30604
بر	-9.30636
ێکیان	-9.30689
▁bikarhêner	-9.30784
nîşan	-9.30961
▁destê	-9.31113
▁لێد	-9.31159
▁pere	-9.31205
▁خشن	-9.31242
▁kesên	-9.31282
ide	-9.31296
▁amade	-9.31381
▁malpera	-9.31529
▁نوێ	-9.3171
▁jêr	-9.3185
ketin	-9.3185
▁مکاران	-9.32109
▁16	-9.32112
▁گرن	-9.32193
▁nêzîk	-9.32355
اکان	-9.3239
▁bawer	-9.32437
▁Ki	-9.3249
▁paqij	-9.32506
سو	-9.32586
▁dikarî	-9.3274
wan	-9.329
▁bîr	-9.32925
ڵە	-9.32928
▁New	-9.33082
▁pispor	-9.33112
▁cih	-9.33151
▁pêwîst	-9.33416
▁باسی	-9.33459
▁خوێن	-9.33471
یشیان	-9.33561
▁شاره	-9.3359
▁dixwazin	-9.33646
▁بکەن	-9.3365
▁xizmeta	-9.33793
▁پاداشت	-9.33964
▁saz	-9.3411
▁بۆچی	-9.34199
ێکدا	-9.34388
▁نیشت	-9.34396
▁Su	-9.34411
▁تەنها	-9.34411
گۆ	-9.34632
▁جێی	-9.34637
▁حاڵ	-9.34655
▁توند	-9.3466
▁هاتن	-9.34689
▁هر	-9.34737
▁سانێک	-9.3474
▁bidin	-9.34753
all	-9.34764
din	-9.34937
▁kanala	-9.34952
▁tiştek	-9.35056
lat	-9.35191
▁hîn	-9.35265
▁وڵات	-9.35353
qa	-9.35379
بژارد	-9.35495
emîn	-9.3561
▁وابوو	-9.35637
▁خێزان	-9.35657
▁ژن	-9.35778
▁خست	-9.3582
▁plan	-9.35996
▁@	-9.36187
▁سوپاسگوزار	-9.36197
▁rûpel	-9.36199
▁cihê	-9.36275
▁giştî	-9.36354
▁salan	-9.36555
▁باشتر	-9.3656
▁کام	-9.36764
pt	-9.36845
▁xwedî	-9.36857
▁کرێن	-9.36874
ture	-9.37011
danê	-9.37034
▁navbera	-9.37066
▁vekirî	-9.37074
rêj	-9.37128
تۆ	-9.37268
▁یاری	-9.37269
▁بۆیە	-9.37303
rop	-9.37319
▁ڕیزی	-9.37521
lar	-9.37535
▁Fa	-9.37646
▁تریش	-9.37681
▁مرۆڤ	-9.37697
▁هۆش	-9.37701
land	-9.37716
▁جوو	-9.37753
▁Mar	-9.37851
دراو	-9.37902
اق	-9.37939
▁بووین	-9.37964
▁توانای	-9.38041
Comment	-9.38127
▁سپ	-9.38146
▁رفراز	-9.38175
▁ردوو	-9.38177
if	-9.38179
▁موعجیز	-9.38335
▁po	-9.38465
trol	-9.38501
▁چن	-9.38553
▁Ewropayê	-9.38617
ort	-9.38634
▁gor	-9.38659
▁نابن	-9.3879
▁مێشک	-9.3882
▁Hi	-9.38833
▁deng	-9.38884
▁Du	-9.39093
▁gav	-9.39167
ەست	-9.39208
▁°	-9.39217
▁çareser	-9.39219
▁ژیر	-9.39436
://	-9.39544
▁Mezin	-9.39627
▁ڕازی	-9.39679
▁بانه	-9.39739
▁agahdar	-9.39786
80	-9.39812
خان	-9.399
▁Wi	-9.40037
▁nava	-9.40043
▁چونکە	-9.40193
▁ستایش	-9.40202
nav	-9.40286
▁Heke	-9.40294
tro	-9.40357
ore	-9.40415
▁چاکی	-9.40478
▁پێد	-9.4066
▁bu	-9.40669
▁پیرۆز	-9.40683
▁چوار	-9.40689
▁ئاین	-9.40805
bir	-9.40808
درێ	-9.40831
kû	-9.40853
ud	-9.40883
▁ئاگری	-9.40886
şik	-9.41024
siyon	-9.4112
▁ورات	-9.41309
01	-9.41367
▁hem	-9.41386
گەر	-9.41396
▁ستن	-9.41487
▁hatin	-9.41532
▁game	-9.41605
▁بڵاو	-9.41841
▁ئۆ	-9.41863
▁Piştî	-9.41921
ەکی	-9.41989
▁کاتێکیش	-9.42008
▁fe	-9.42162
▁ڵد	-9.42212
jo	-9.42224
▁لێک	-9.4223
▁هێنێت	-9.42251
▁balafir	-9.42336
▁دامه	-9.42396
▁DVB	-9.42502
▁یارم	-9.4251
99	-9.42519
30	-9.4254
لۆ	-9.42645
▁fir	-9.42819
line	-9.42823
bat	-9.42827
▁چاودێر	-9.42837
son	-9.43109
▁واوی	-9.43475
TV	-9.43528
زانن	-9.43533
13	-9.43555
▁makîne	-9.43678
لێ	-9.43701
▁dûr	-9.43766
▁zanîn	-9.43793
ktor	-9.43807
وات	-9.43886
▁hilberîn	-9.4398
▁ad	-9.44024
جا	-9.44123
▁rêya	-9.44165
▁gorî	-9.44207
▁سەیر	-9.44376
▁یوسف	-9.44441
▁نج	-9.44538
Z	-9.44657
▁bînin	-9.44664
▁چوون	-9.44764
▁رچاو	-9.44834
▁satelîtê	-9.44928
▁tune	-9.44946
▁hilberê	-9.44992
▁زام	-9.45023
▁biryar	-9.45043
▁ببین	-9.4509
▁hatî	-9.4517
▁لەبەر	-9.45216
▁نەخۆش	-9.45381
90	-9.45619
▁دو	-9.45624
▁ویست	-9.4571
بکه	-9.45881
▁زیان	-9.45963
▁رمانب	-9.4626
▁سێك	-9.46288
ler	-9.46294
▁pirtûk	-9.46329
gel	-9.46511
▁باڵاد	-9.46766
▁2016	-9.46837
▁داوا	-9.4691
▁--	-9.46915
▁xwendin	-9.47042
▁ژمار	-9.47114
eyek	-9.47217
▁بانی	-9.47226
▁caran	-9.47254
▁یەکەم	-9.47359
▁giran	-9.47517
▁and	-9.47749
▁ڕێی	-9.47772
hilat	-9.47793
▁Hemû	-9.47903
▁ziman	-9.47903
▁برا	-9.48115
▁منیش	-9.4816
▁ئیسلام	-9.48166
bûnê	-9.48273
▁خشش	-9.48375
hu	-9.48412
gah	-9.48514
▁کەواتە	-9.48521
▁Go	-9.48592
٥	-9.48786
gen	-9.48831
▁کۆتایی	-9.48965
18	-9.49104
▁دانا	-9.4911
çûn	-9.49216
▁pergala	-9.49321
▁مکار	-9.49453
▁درا	-9.49533
▁Hev	-9.49819
▁ریک	-9.49856
▁materyal	-9.49948
parêz	-9.49952
▁free	-9.50133
▁Pol	-9.50217
▁25	-9.50287
▁gelemperî	-9.50399
▁کاروکرد	-9.5045
▁لێپرسین	-9.5049
ۆس	-9.5052
▁بێدار	-9.50527
▁ئایند	-9.50595
way	-9.5063
▁zû	-9.50652
▁standard	-9.5067
▁زار	-9.50801
▁ناح	-9.50839
par	-9.50878
▁پاڵ	-9.51008
▁kanalên	-9.51033
گرت	-9.51202
▁girtin	-9.51247
tch	-9.51279
▁!!	-9.51398
▁eşkere	-9.51488
▁hilbijêre	-9.51488
▁ماشا	-9.51513
▁پارچ	-9.51545
17	-9.51591
▁rêz	-9.5162
▁weşana	-9.5185
▁دین	-9.51859
pirs	-9.51958
▁Per	-9.51988
▁تاڵ	-9.52003
▁بکرێت	-9.52131
16	-9.52351
▁ئاوا	-9.52404
▁پیاوان	-9.52464
▁destûr	-9.52606
ڕاست	-9.52692
▁Mu	-9.53354
▁ئاینی	-9.5362
▁kalîte	-9.53797
07	-9.53806
AS	-9.53957
gor	-9.53962
21	-9.54057
▁شیمان	-9.54102
▁دێن	-9.54109
▁berdewam	-9.54265
▁14	-9.54347
▁50	-9.54456
▁hêza	-9.54542
▁هەندێک	-9.54548
▁Ni	-9.54636
▁شوێنێک	-9.54694
▁Kurd	-9.5474
More	-9.5486
دەتوان	-9.5487
▁بکەم	-9.5493
girtî	-9.55094
▁فریا	-9.55105
▁رداری	-9.5515
dro	-9.55309
birin	-9.55373
▁مار	-9.55387
▁ڕاب	-9.55712
ron	-9.55814
▁hemî	-9.55893
▁veguhestin	-9.55969
vo	-9.56062
NA	-9.56216
▁زانستی	-9.5622
▁Nû	-9.56305
-20	-9.56338
▁بترسن	-9.56352
▁çav	-9.56406
▁پێویستە	-9.56433
▁Jo	-9.56511
است	-9.56661
che	-9.56734
▁Er	-9.56752
▁رموێت	-9.56832
▁17	-9.56865
▁mîna	-9.57213
▁hewl	-9.57318
dû	-9.57411
▁lez	-9.57413
500	-9.57481
zîk	-9.57693
▁hinek	-9.57796
▁pirsgirêk	-9.57799
▁pişt	-9.57824
▁color	-9.57897
▁پێبه	-9.5805
▁شێواز	-9.58091
▁meha	-9.58229
▁دەکرد	-9.58622
mal	-9.58713
29	-9.58747
▁con	-9.58756
▁sîstema	-9.58776
▁»	-9.58988
▁هۆکار	-9.59172
پۆ	-9.59509
▁رمووی	-9.5958
▁paş	-9.59788
▁çêtir	-9.60227
▁hilberîna	-9.60304
▁xwendekar	-9.6036
ated	-9.60447
▁xwarinê	-9.6053
ding	-9.60562
▁دووڕوو	-9.60563
▁سوو	-9.60914
▁تەواو	-9.61262
▁ناڕ	-9.61435
▁زای	-9.61538
▁telefon	-9.61564
▁hesab	-9.6167
▁sazkirin	-9.61764
▁derbarê	-9.61868
▁سۆز	-9.6187
▁parastina	-9.61894
▁بڵند	-9.61969
▁هاتووه	-9.62167
▁بچن	-9.62225
▁Gi	-9.62443
▁درێت	-9.62513
2016	-9.62532
US	-9.6269
xwîn	-9.6273
▁نموونه	-9.62885
bêj	-9.62903
bit	-9.62987
▁kontrola	-9.63112
▁For	-9.63114
دیار	-9.63161
▁platform	-9.63192
nirx	-9.63251
lav	-9.63278
ult	-9.63672
▁doz	-9.6373
▁Dest	-9.63845
▁firotin	-9.63918
▁Ti	-9.63942
▁hêz	-9.64051
خوێن	-9.64075
▁کافر	-9.64181
▁شێوەیە	-9.6423
▁دانایه	-9.64318
كردن	-9.64326
▁پەیوەندی	-9.64431
▁نازانن	-9.64469
▁şîrketa	-9.64483
ence	-9.65003
nder	-9.65043
▁دەڵێ	-9.65059
▁ڕاو	-9.65059
▁afirandin	-9.65164
rist	-9.652
▁piştgiriya	-9.65371
٢	-9.6538
▁تیادا	-9.65458
▁Con	-9.65485
blo	-9.65491
▁armanc	-9.65581
▁مردوو	-9.65606
گیری	-9.6564
▁نزا	-9.65653
▁El	-9.65721
▁alîkariya	-9.65815
▁زیند	-9.65846
▁زراو	-9.65861
out	-9.65871
www	-9.65906
▁#	-9.65985
▁Bel	-9.66066
▁خوارد	-9.66213
▁دڵخۆش	-9.66215
▁کێک	-9.66276
▁خێرا	-9.66298
▁paşê	-9.66302
▁دواتر	-9.66366
كار	-9.66848
▁Android	-9.6685
▁teknîkî	-9.66956
▁فراوان	-9.6707
▁داهاتوو	-9.6709
▁Pel	-9.67242
▁·	-9.67348
▁تۆمار	-9.67411
▁belge	-9.67493
▁bûyer	-9.67514
▁Rêveber	-9.67705
▁خۆگر	-9.67772
▁bank	-9.67861
▁دیاریکراو	-9.67948
زانم	-9.67998
▁لەوانەیە	-9.68136
▁ناخۆش	-9.68208
▁guhertin	-9.68568
▁ناتوانن	-9.68676
▁رهات	-9.68866
▁hejmara	-9.68905
▁بگرن	-9.68924
guherîn	-9.68929
▁Yekbûyî	-9.69219
▁hewa	-9.69239
05	-9.69295
▁Çînê	-9.69722
▁destpêkirin	-9.69771
▁Bersiv	-9.69876
▁نوح	-9.69996
▁بات	-9.70009
ID	-9.70075
دوای	-9.7009
▁باشە	-9.70164
▁هانا	-9.70166
▁چاوپۆشی	-9.70205
▁کەسێک	-9.70592
03	-9.70744
▁navnîş	-9.70839
▁hest	-9.70859
▁Xane	-9.70877
▁temamî	-9.71059
▁Dewletê	-9.7109
▁درووست	-9.7109
▁endam	-9.71095
▁هەروەها	-9.71312
▁Gelek	-9.71342
▁خوار	-9.71639
▁پێناوی	-9.71654
09	-9.71665
06	-9.71705
▁بیست	-9.7171
▁amûr	-9.71763
▁hema	-9.7201
▁xebatê	-9.72108
▁یەکێک	-9.72601
کەر	-9.72802
▁هەبوو	-9.72877
zer	-9.73227
04	-9.73349
▁یشتن	-9.73482
▁peyda	-9.73653
▁رچوو	-9.73781
▁بگرێت	-9.73821
▁beşdar	-9.7402
▁nehat	-9.74064
▁دڵنیابن	-9.74108
EN	-9.74113
▁qeyd	-9.74143
▁design	-9.74249
▁îro	-9.74293
▁کۆڵ	-9.74491
▁Best	-9.74495
▁bihayê	-9.74588
▁tiştên	-9.7468
▁biçûk	-9.74708
rêveber	-9.74719
▁ڕاد	-9.74982
▁ناخ	-9.75048
▁هیوا	-9.75071
ترس	-9.75391
▁زانست	-9.75545
IR	-9.75586
▁mişterî	-9.75633
▁فڕێ	-9.75785
▁ندێك	-9.75899
▁dayîn	-9.75963
▁jiyana	-9.76023
جار	-9.76072
▁کوێ	-9.76148
▁رباز	-9.7625
▁model	-9.76358
▁tra	-9.76416
45	-9.76547
▁دەربارەی	-9.76568
▁Niha	-9.7659
▁کافران	-9.76627
▁هتد	-9.76686
▁bigirin	-9.76807
▁Amerîka	-9.7692
▁وترێت	-9.7697
▁bingehîn	-9.77038
▁...]	-9.77109
▁ئەنجام	-9.77156
▁پۆل	-9.77318
▁هێشتا	-9.7751
ص	-9.77576
▁dibêje	-9.7763
▁ئازاد	-9.77747
▁لاواز	-9.7775
▁kiriye	-9.7777
▁saet	-9.78003
▁bêyî	-9.78064
▁بیس	-9.781
▁rapor	-9.78124
▁کوشت	-9.78153
کردنەوەی	-9.78198
٣	-9.78223
▁بکەیت	-9.78225
▁یانوت	-9.78408
▁play	-9.78465
▁dikim	-9.78948
▁2013	-9.78978
nivîs	-9.79028
خستن	-9.79339
▁rengê	-9.79365
▁firotanê	-9.79423
▁سوور	-9.79647
ئێ	-9.79712
▁hûr	-9.79786
kişî	-9.79802
▁mêr	-9.79891
ـ	-9.79907
▁Navenda	-9.79928
▁bazirganî	-9.7993
▁لێرە	-9.79983
▁چارەسەر	-9.80272
▁azad	-9.80284
west	-9.80319
35	-9.80525
▁ڵکینه	-9.80568
▁Eger	-9.80862
▁awayekî	-9.81005
▁alîkarî	-9.8123
ther	-9.81241
▁MPEG	-9.8125
▁kêmtir	-9.8136
▁سک	-9.81572
▁bal	-9.81656
Û	-9.81865
▁kurt	-9.81881
▁نابین	-9.81938
کاتێک	-9.82006
02	-9.82037
NE	-9.82158
▁teknolojiya	-9.82238
▁cure	-9.82248
▁ماڵات	-9.82338
▁dîsa	-9.82381
▁hilbijartin	-9.82487
▁by	-9.82488
▁ڕیسوا	-9.82502
▁tr	-9.82555
▁چیرۆک	-9.82614
گرتوو	-9.82703
gram	-9.82773
▁xwarin	-9.82899
ڕێژ	-9.82979
qanûn	-9.8299
▁تاریک	-9.83014
▁gotin	-9.83128
nameyê	-9.83254
▁pêvajoya	-9.83362
▁mafê	-9.8346
▁ئاوات	-9.83724
▁بەرز	-9.83738
▁بەردەوام	-9.83865
ö	-9.83866
▁نیگا	-9.8392
▁destpêkê	-9.83992
▁گران	-9.84018
▁کردۆت	-9.84034
▁Ri	-9.84207
▁باپیران	-9.84245
دروست	-9.8429
▁بخۆن	-9.84291
هاتوو	-9.84341
▁Xwedê	-9.84407
▁qebûl	-9.84753
ę	-9.85135
▁berbiçav	-9.85135
▁بەسەر	-9.85137
olojî	-9.85154
▁زڵ	-9.85242
▁hwd	-9.85264
▁veguherîn	-9.85372
▁operator	-9.85391
▁girêdan	-9.85411
٩	-9.85519
▁شیر	-9.85536
70	-9.85548
▁belê	-9.85576
▁ئیسرائیل	-9.85776
▁bonus	-9.85785
▁خۆراک	-9.85816
▁وێنە	-9.86012
▁شاد	-9.86068
▁نەبوو	-9.86136
▁jor	-9.8617
▁کۆشش	-9.86174
▁hejmar	-9.86278
▁یارمەتی	-9.86298
ژێر	-9.86436
▁ناهێنن	-9.86438
▁tomar	-9.86446
لوط	-9.86564
▁رامۆش	-9.8662
şem	-9.86712
دۆز	-9.87044
▁قیق	-9.87086
65	-9.87136
kevin	-9.8715
٠٠	-9.872
▁alavên	-9.87202
▁mil	-9.87326
▁berfireh	-9.87332
▁karûbarê	-9.87725
▁ژنان	-9.88124
▁ماوەی	-9.88233
[1]	-9.88251
▁Qu	-9.88346
▁ژوور	-9.88385
rik	-9.88488
▁awayî	-9.88516
▁سوژ	-9.88555
▁Divê	-9.88605
▁Nûçe	-9.88704
▁nayê	-9.88715
▁نادروست	-9.88766
▁دەکەین	-9.88783
▁post	-9.8881
▁شاراو	-9.88864
▁2020	-9.89013
▁video	-9.89045
▁hatibû	-9.89048
▁Nivîs	-9.89178
▁çû	-9.89224
girtina	-9.89265
▁گومڕایی	-9.89274
▁گشتی	-9.89406
▁bersiv	-9.89454
▁bîne	-9.89482
▁ڕێباز	-9.89544
▁operasyon	-9.89578
▁توانا	-9.8968
▁گفتوگۆ	-9.89711
▁zanist	-9.89847
Ş	-9.89969
▁Play	-9.90257
▁فتار	-9.90261
▁asta	-9.90292
heng	-9.90395
▁zanîngehê	-9.90405
▁نێوانیاندا	-9.90509
فرۆش	-9.90694
▁ragihandin	-9.90751
▁Giştî	-9.90788
▁دادپ	-9.90986
▁tû	-9.91072
▁گوێر	-9.91159
▁pîvan	-9.91476
▁فێڵ	-9.91551
٤	-9.91602
▁ڕاگ	-9.91734
▁دڵسۆز	-9.91739
▁Bikaranîna	-9.92012
▁ئایین	-9.92069
▁27500	-9.92149
▁پووچ	-9.92154
▁çewt	-9.92156
▁بڕاو	-9.9234
▁Wekî	-9.92394
и	-9.92423
Parastina	-9.92562
▁bernameyên	-9.92699
▁خشیوون	-9.92764
▁کوێر	-9.92863
بیستن	-9.92927
▁malbat	-9.93113
▁قورس	-9.93254
▁هەوڵ	-9.93371
بەخش	-9.93622
▁sepan	-9.93664
▁bingeha	-9.93715
▁berhem	-9.93807
▁derfet	-9.93952
▁medya	-9.94123
▁تکا	-9.94179
▁nimûne	-9.94226
▁ڕاستگۆ	-9.94424
▁piçûk	-9.94507
▁ڕووبار	-9.94524
Têkilî	-9.94789
▁lêgerîn	-9.95076
▁بێگ	-9.95131
▁Çawa	-9.95213
▁ڵاتدار	-9.95362
▁پاك	-9.95366
▁beşa	-9.95384
▁دەبین	-9.95393
▁Perwerde	-9.95494
▁Taybet	-9.95636
▁عیسا	-9.95638
▁malê	-9.95762
▁info	-9.95896
▁ڕوات	-9.95937
▁rêber	-9.95958
▁توانن	-9.96206
▁hevkar	-9.9645
چون	-9.9645
▁نجامداوه	-9.96583
▁دەکەم	-9.96587
▁şirket	-9.96635
▁ساره	-9.96685
▁herêmê	-9.96786
▁erdê	-9.96811
▁زاندوو	-9.96839
▁Lêkolîn	-9.96922
▁ئێوە	-9.96925
▁Bitcoin	-9.97066
▁bazara	-9.97355
بیر	-9.9756
▁2014	-9.97788
٦	-9.97933
▁derveyî	-9.97933
▁ئاستی	-9.97964
▁bistînin	-9.98518
»	-9.98639
▁هێڵ	-9.98798
▁şev	-9.98859
▁karanîna	-9.98957
▁vala	-9.99045
▁دانیشت	-9.99111
▁Berhemên	-9.99249
▁trans	-9.99259
▁تێبگ	-9.99264
▁3/4	-9.99397
а	-9.99543
▁سەد	-9.99596
▁projeyê	-9.99713
▁دەنگ	-9.99787
▁نوور	-9.99985
▁şandin	-10.0005
▁trênê	-10.0015
▁derket	-10.002
▁digerin	-10.0044
ژمێر	-10.0095
▁rengî	-10.0098
▁tînin	-10.0129
▁2015	-10.0155
▁براک	-10.018
▁çap	-10.022
▁زەوی	-10.0224
▁temam	-10.0228
€	-10.0239
▁dixwazî	-10.024
▁lîstik	-10.0242
▁Mirov	-10.0255
▁قینه	-10.0274
▁ناتوانێت	-10.03
▁تووش	-10.0301
▁şîrket	-10.0307
چەپڵە	-10.0315
▁navenda	-10.0316
▁beşek	-10.0317
▁lîst	-10.034
▁Google	-10.0361
▁zelal	-10.0361
▁herêmî	-10.0361
▁بوختان	-10.0376
▁fermî	-10.0407
▁Tev	-10.042
ound	-10.0441
▁jinan	-10.0442
▁یاسا	-10.0462
▁rasterast	-10.0485
▁Ziman	-10.0485
▁ئینسان	-10.05
«	-10.0532
▁pêdivî	-10.0532
▁milyon	-10.0549
▁şexsî	-10.0563
▁تەنانەت	-10.0563
▁sînor	-10.0579
▁کۆشک	-10.0584
▁لار	-10.0593
▁Xizmet	-10.061
▁Cih	-10.0632
▁دەتوانین	-10.0658
▁رموو	-10.0669
▁Design	-10.0673
▁دەکرێت	-10.0674
▁plastîk	-10.0689
▁motor	-10.0716
▁wêneyê	-10.0722
▁casino	-10.0753
▁سبیحات	-10.0753
qonax	-10.0753
▁Nîşan	-10.0753
▁چونك	-10.0755
▁belaş	-10.0769
▁بوای	-10.0784
▁wateya	-10.0785
▁زاتێک	-10.0788
▁nu	-10.0801
▁Tattoo	-10.0817
▁بچووک	-10.082
▁mirin	-10.0829
▁Çûna	-10.0833
▁lîsteya	-10.0838
▁herweha	-10.0849
▁nîv	-10.085
▁Almanya	-10.085
▁جادووگ	-10.085
▁Tebax	-10.0866
▁ئومێد	-10.0866
▁dizanin	-10.0882
▁بیرۆکە	-10.0893
▁têkildar	-10.0914
▁دەدات	-10.0916
gihîşt	-10.093
٨	-10.093
▁دیندار	-10.0954
▁Paqij	-10.0996
▁Pirtûk	-10.1028
▁ceribandin	-10.1028
▁گەشە	-10.1031
▁پیس	-10.1044
▁civakî	-10.1045
CoV	-10.1048
▁Rizgari	-10.1061
▁rêjeya	-10.1078
▁یاندنی	-10.1085
dom	-10.1104
е	-10.1111
▁agahî	-10.1112
▁FEC	-10.1128
▁بنچین	-10.1178
▁quality	-10.1194
▁Wêne	-10.1211
▁دژای	-10.1211
▁rêxistin	-10.1212
▁download	-10.1228
▁ئاسووده	-10.1244
▁درۆزن	-10.1245
é	-10.1261
PSK	-10.1261
▁بپارێزن	-10.1278
▁balkêş	-10.128
▁بەرەو	-10.1284
گەیشت	-10.1285
▁you	-10.129
▁têkiliyê	-10.1295
ط	-10.1327
▁tevahî	-10.1329
هێنا	-10.1337
▁Stenbolê	-10.1346
▁رپێچی	-10.1346
▁حساب	-10.1346
▁بریتی	-10.1349
▁tattoo	-10.1363
▁تایبەت	-10.1363
▁رۆژ	-10.1395
▁تەنیا	-10.1397
▁weşandin	-10.1398
▁Tirk	-10.14
▁xelat	-10.1421
▁kevir	-10.1432
▁موسڵمان	-10.1448
£	-10.15
▁alîkar	-10.1516
▁şûna	-10.1517
▁winda	-10.1517
▁ربگرن	-10.1569
▁Amûr	-10.1586
▁zehmet	-10.1603
▁xurt	-10.1622
▁ڕووناکی	-10.1622
▁گێڕا	-10.1646
٧	-10.1656
▁Alîkar	-10.1656
▁profesyonel	-10.1726
▁Trans	-10.1745
▁Navneteweyî	-10.1779
▁çarçoveya	-10.1779
▁Russian	-10.1797
▁قازانج	-10.1832
▁tecrûbe	-10.185
▁نائومێد	-10.185
▁Çalak	-10.1875
▁ڕازاوه	-10.1886
▁ئامێر	-10.1886
▁herêma	-10.1895
▁مێرد	-10.1898
▁LibreELEC	-10.1904
▁Windows	-10.1904
▁psîkolojîk	-10.1904
▁بێجگ	-10.1906
▁خەو	-10.1906
▁٢٠	-10.1938
count	-10.1951
▁زۆربەی	-10.1954
▁بچوک	-10.1978
▁OpenELEC	-10.1994
▁çiqas	-10.1994
▁temaşe	-10.2012
▁têkilî	-10.203
▁پیر	-10.2037
▁xwezayî	-10.2048
▁Hêza	-10.2049
پەڕ	-10.2058
▁ronahî	-10.2067
▁باڵند	-10.2085
▁Zêde	-10.2085
▁rojnameger	-10.2103
▁پێشک	-10.2104
▁کاریگەری	-10.214
▁înternetê	-10.2158
▁Amerîkî	-10.2177
▁civîn	-10.2178
▁rêwîtiyê	-10.2195
▁سامناک	-10.2195
▁موسوڵمان	-10.2195
▁LED	-10.2195
▁License	-10.2214
▁asteng	-10.2232
▁Serokê	-10.2233
▁Ewropa	-10.2241
о	-10.2251
▁huner	-10.2307
▁بەڕاستی	-10.2307
▁kêfxweş	-10.2325
▁Pêşniyar	-10.2325
▁dawiya	-10.2326
▁sporê	-10.2327
ەوانە	-10.2336
▁Free	-10.2346
▁binivîse	-10.2363
▁ئامادە	-10.2381
▁نادات	-10.2385
▁mobîl	-10.24
▁پێدراوه	-10.2421
+	-10.2422
▁parastin	-10.2433
▁title	-10.2438
İ	-10.2476
▁bazarê	-10.2496
▁رسام	-10.2498
©	-10.2533
▁kevneşop	-10.2552
▁qedexe	-10.2571
▁pakêta	-10.2571
▁دەتوانن	-10.2573
▁گوێڕای	-10.2592
▁حەز	-10.2593
▁ڕێنمووی	-10.2629
▁kuştin	-10.2658
▁بارودۆخ	-10.2668
▁kevn	-10.2669
▁Eutelsat	-10.2687
▁hişyar	-10.2687
▁ciwan	-10.2687
▁بەرهەم	-10.2707
0,000	-10.2721
▁باسکرا	-10.2747
▁pargîdan	-10.2804
▁pênc	-10.2827
‘	-10.2844
▁ئاماژ	-10.2844
▁سروشت	-10.2844
▁ڕووخسار	-10.2863
▁BİXWÎNE	-10.2903
▁وەڵام	-10.2903
▁Îngilîzî	-10.2923
▁xwediyê	-10.2927
}	-10.2982
▁تیاچوون	-10.2982
▁Bilind	-10.3002
▁قوڕ	-10.3007
▁سەرەتا	-10.3011
▁seranserê	-10.3022
▁damezrandin	-10.3043
▁سڵاو	-10.3064
▁panel	-10.3065
▁elektronîk	-10.3083
cryptocurrency	-10.3103
▁ڕۆیشت	-10.3104
▁Tîrmeh	-10.3144
▁bazirgan	-10.316
▁taybetmendiyên	-10.3164
▁بازرگانی	-10.3164
▁nikare	-10.3164
▁١٠	-10.317
▁bikim	-10.3186
▁çerm	-10.3186
xBet	-10.3205
▁qezenc	-10.3225
▁Download	-10.3246
▁ستدرێژی	-10.3246
▁گۆڕانکاری	-10.3246
▁weşan	-10.3251
▁penaber	-10.3266
▁چالاک	-10.3266
▁dewletê	-10.3315
▁dibêjin	-10.3328
▁Başûr	-10.3349
▁agahiyên	-10.3349
▁mêvan	-10.337
▁werger	-10.337
▁مامۆستا	-10.339
▁توانێت	-10.3411
▁مزگ	-10.3424
▁دەکەیت	-10.3432
▁daneyên	-10.3433
▁Cure	-10.3448
▁Hejmara	-10.3453
▁machine	-10.3453
▁موجا	-10.3453
▁Bajarê	-10.3455
▁navxweyî	-10.3474
▁نموونە	-10.3474
▁Iraqê	-10.3495
▁leşker	-10.3516
▁parçeyên	-10.3516
▁KDE	-10.3537
▁Niştimanî	-10.3558
▁IPtv	-10.3601
▁داخوازی	-10.3622
▁ragihand	-10.3628
Ç	-10.3644
▁تەمەن	-10.3665
▁بكات	-10.3686
▁ferman	-10.3686
▁بەهۆی	-10.3708
▁hevdîtin	-10.3794
▁قوربانی	-10.3815
▁normal	-10.3837
▁pîroz	-10.3859
▁Satellite	-10.3881
▁destpêka	-10.3881
▁meriv	-10.3882
▁digire	-10.3926
▁ستهێنانی	-10.3969
▁pakêtê	-10.3991
▁CNC	-10.4035
▁ئامانج	-10.4035
▁Enigma	-10.4057
▁خۆڕاگر	-10.4057
▁Pêvek	-10.4075
▁pergalê	-10.408
▁بکوژ	-10.4102
ئینجا	-10.4132
▁aborî	-10.4147
▁فرستاد	-10.4169
▁avahiyê	-10.4198
▁بەشێک	-10.4207
▁kapasîteya	-10.4214
▁ferheng	-10.4214
▁dîjîtal	-10.4237
▁option	-10.4237
▁veşartî	-10.4259
▁ملیۆن	-10.4259
▁بیروباو	-10.4282
▁demjimêr	-10.4305
▁Mesîh	-10.4305
▁duyemîn	-10.4328
▁Tirkiyeyê	-10.4351
dewlet	-10.437
▁dixebite	-10.4374
▁type	-10.4397
▁Weşan	-10.4427
▁Euro	-10.4445
▁ئوم	-10.4466
▁زنجیر	-10.4466
▁بەڵکو	-10.4466
▁Destpêk	-10.4486
▁موشریک	-10.4489
▁Kurdistanê	-10.4489
▁Open	-10.449
▁hêja	-10.4504
wendiy	-10.451
▁danûstandin	-10.4512
▁hundir	-10.4512
axiv	-10.4523
*	-10.4551
▁çêbikin	-10.4559
▁Channel	-10.4582
▁ewlehiyê	-10.4606
▁دووبارە	-10.4609
▁Ltd	-10.4653
▁Facebook	-10.4677
▁pejirandin	-10.4677
▁Pîvan	-10.4678
▁گاور	-10.4678
▁mijarê	-10.4685
▁Wezareta	-10.47
▁Girêdan	-10.47
▁جێگیر	-10.4715
▁populer	-10.4724
▁pêvajoyê	-10.4724
▁komputer	-10.4748
▁كتێب	-10.4748
▁dixwazim	-10.4748
▁Post	-10.4766
▁piştgirî	-10.4796
▁بەدەست	-10.4796
▁YouTube	-10.482
▁بچێژن	-10.482
▁ئاشكرا	-10.4844
▁blockchain	-10.4892
▁otomatîk	-10.4916
▁Pergala	-10.4916
▁multi	-10.4917
Pirsgirêk	-10.4965
▁software	-10.4989
▁cûda	-10.5014
▁wergirt	-10.5057
▁قوتابخانە	-10.5063
▁[...]	-10.5087
▁پۆشاک	-10.5087
▁cinsî	-10.5087
▁Lîsteya	-10.5162
▁Video	-10.5162
°	-10.5162
▁بەشێوەیەک	-10.5186
▁ڕوناکی	-10.5186
▁رشۆڕ	-10.5211
▁full	-10.5236
[2]	-10.5237
▁dawiyê	-10.5237
▁gazê	-10.5242
▁navnetewî	-10.5287
▁navneteweyî	-10.5312
▁جیهاد	-10.5312
▁Enstîtuya	-10.5337
▁Xwendekar	-10.5337
olojiya	-10.5337
▁dibistanê	-10.5337
▁عقوب	-10.5362
ة	-10.5593
ث	-10.6602
[	-10.6983
\	-10.7163
#	-10.729
$	-10.8803
–	-11.2131
·	-11.7939
“	-12.0983
•	-12.7034
