<unk>	0
<s>	0
</s>	0
▁	-3.417
ه	-3.66815
ی	-3.77381
▁و	-3.8864
.	-4.41324
▁به	-4.5272
▁ر	-4.70145
a	-4.72319
ê	-4.73376
▁ئه	-4.74468
و	-4.75031
▁ده	-4.773
,	-4.77651
،	-4.80397
▁له	-4.84445
▁ی	-4.93651
ن	-4.95066
▁وه	-4.95339
▁که	-4.95741
î	-5.04685
o	-5.15465
▁(	-5.16361
▁هه	-5.17617
م	-5.18076
ە	-5.18266
n	-5.19639
t	-5.1965
s	-5.24054
▁bi	-5.24318
e	-5.28541
▁ب	-5.29736
ên	-5.31554
k	-5.3333
▁ji	-5.36505
i	-5.36698
یان	-5.42163
an	-5.42761
ا	-5.4786
▁بۆ	-5.48132
دا	-5.48412
▁ن	-5.48448
▁di	-5.51634
y	-5.53585
▁û	-5.54686
)	-5.57072
▁م	-5.58606
d	-5.5963
ێ	-5.61646
ان	-5.61917
:	-5.62138
▁ku	-5.63744
r	-5.64121
▁پ	-5.70194
l	-5.70968
▁سه	-5.7165
▁خوا	-5.75555
ۆ	-5.76862
مان	-5.78267
▁li	-5.78511
in	-5.79913
m	-5.79944
▁de	-5.80209
u	-5.80345
د	-5.82237
ین	-5.82685
er	-5.83215
w	-5.85237
ت	-5.8531
ş	-5.88024
ش	-5.8842
ر	-5.89884
س	-5.90712
▁نه	-5.94623
▁یه	-5.95637
ب	-5.95963
p	-5.96656
c	-5.96815
▁bo	-5.98962
ڵ	-5.99567
▁ت	-6.01285
-	-6.02014
▁س	-6.03638
▁،	-6.06337
f	-6.07282
▁گه	-6.08053
▁ش	-6.08844
ک	-6.09506
b	-6.0999
▁ک	-6.11498
ڕ	-6.12265
z	-6.13069
▁P	-6.13156
g	-6.15217
▁ئا	-6.16253
تان	-6.16811
▁لە	-6.18274
▁دا	-6.18596
به	-6.19335
j	-6.20605
▁نا	-6.21372
h	-6.21618
la	-6.22347
ل	-6.24755
ar	-6.26661
▁ڵ	-6.2667
▁S	-6.26993
iya	-6.28401
ست	-6.28426
û	-6.29083
وو	-6.29482
ز	-6.29941
ێک	-6.32363
ار	-6.32494
▁a	-6.32743
st	-6.32974
re	-6.33121
0	-6.34181
în	-6.34546
ژ	-6.34699
ات	-6.35698
▁A	-6.3608
1	-6.36083
▁وانه	-6.3631
x	-6.36692
چ	-6.39569
▁ser	-6.40019
ra	-6.40427
de	-6.4054
le	-6.41531
▁پێ	-6.41968
که	-6.42336
ێت	-6.42352
▁دە	-6.42748
▁بە	-6.4309
ya	-6.44168
یش	-6.44218
▁ڕ	-6.44568
al	-6.44716
ده	-6.44798
or	-6.46515
خ	-6.47684
▁ڕاستی	-6.49356
▁xwe	-6.50275
na	-6.51496
▁p	-6.5233
▁ته	-6.52658
yê	-6.5372
on	-6.53989
▁کرد	-6.54421
▁ya	-6.54663
ek	-6.56692
▁T	-6.56878
▁لێ	-6.56918
▁1	-6.57422
او	-6.5803
▁کە	-6.58158
انه	-6.58622
ام	-6.6037
ro	-6.6083
ma	-6.6184
▁روه	-6.61898
te	-6.63107
ke	-6.63334
ir	-6.63813
▁e	-6.64545
ta	-6.67182
▁H	-6.67622
یه	-6.67699
2	-6.6788
▁ق	-6.68976
نه	-6.69149
▁s	-6.69884
▁K	-6.70005
ne	-6.70181
رد	-6.70682
▁یان	-6.71248
ێن	-6.71349
▁بێت	-6.71767
ێکی	-6.72083
ha	-6.7234
▁ne	-6.73427
ەوە	-6.73579
el	-6.73705
ایه	-6.73713
v	-6.75503
▁B	-6.75652
▁ك	-6.75717
▁کان	-6.75839
il	-6.76017
▁ز	-6.77378
▁بوو	-6.77675
▁ست	-6.77753
تر	-6.78254
▁زۆر	-6.78438
▁c	-6.78462
▁مه	-6.79371
▁re	-6.79434
شت	-6.79469
en	-6.82437
انی	-6.82677
▁کات	-6.82812
S	-6.82863
▁بێ	-6.83551
کە	-6.84288
▁G	-6.8458
▁E	-6.8507
▁تی	-6.85565
A	-6.86139
▁چ	-6.86861
ای	-6.87223
▁C	-6.87546
ka	-6.8774
E	-6.87948
▁تۆ	-6.88125
be	-6.8813
3	-6.88537
▁te	-6.88567
▁خۆ	-6.88652
▁ئێمه	-6.89166
▁ç	-6.89974
▁ber	-6.90531
▁h	-6.90629
▁خه	-6.91213
▁موو	-6.91966
6	-6.92365
ur	-6.93367
یت	-6.93915
ve	-6.94668
q	-6.94933
4	-6.95618
ەی	-6.95762
9	-6.96107
rê	-6.96341
ەکان	-6.96413
▁خ	-6.96452
7	-6.97024
▁me	-6.97067
nî	-6.9726
پ	-6.97669
;	-6.97698
8	-6.97981
ێك	-6.99035
▁ح	-6.99178
ri	-6.99368
▁.	-6.99556
5	-6.99747
et	-6.99936
▁جا	-7.00065
▁ve	-7.0042
▁D	-7.00785
مه	-7.00804
▁f	-7.00876
▁باوه	-7.00956
▁he	-7.0097
kirin	-7.00983
▁nav	-7.01728
kê	-7.01977
ol	-7.02169
ری	-7.02285
at	-7.02514
▁هە	-7.02958
iyê	-7.02989
▁L	-7.03144
ç	-7.03546
▁تا	-7.03742
▁د	-7.03953
گ	-7.04189
D	-7.04353
ك	-7.04561
▁g	-7.04649
▁F	-7.05151
ng	-7.05235
▁ردگار	-7.05988
▁ئێوه	-7.06647
▁M	-7.07389
▁بکه	-7.07469
▁N	-7.09057
▁da	-7.09167
sa	-7.09467
he	-7.09528
له	-7.11183
ەر	-7.11772
ەک	-7.11904
▁من	-7.12016
kirina	-7.12393
"	-7.12491
bi	-7.12858
▁وت	-7.13447
▁فه	-7.13507
▁2	-7.13523
andin	-7.13526
ەکە	-7.13594
T	-7.13857
C	-7.13932
man	-7.14152
نی	-7.14267
dî	-7.14639
▁R	-7.1524
rî	-7.15371
گه	-7.15965
از	-7.15967
اڵ	-7.16272
me	-7.16445
lo	-7.16582
وا	-7.16678
gir	-7.17364
▁be	-7.17585
▁ناو	-7.17697
eya	-7.1773
▁Bi	-7.18308
▁we	-7.18615
▁ند	-7.18647
00	-7.18778
▁ره	-7.18793
ێر	-7.18833
es	-7.19627
im	-7.19742
▁ba	-7.20054
).	-7.20105
▁tê	-7.20113
P	-7.20202
▁زان	-7.20411
▁t	-7.21386
nê	-7.2164
▁jî	-7.22222
va	-7.22718
▁بوون	-7.22729
اری	-7.23707
kar	-7.23997
په	-7.24156
ber	-7.24403
▁-	-7.25118
وه	-7.2517
▁ج	-7.25572
▁)	-7.25691
ing	-7.25976
▁شت	-7.26025
em	-7.26329
I	-7.26348
بێت	-7.2683
▁لای	-7.27132
av	-7.27189
▁ها	-7.27341
tir	-7.27393
N	-7.2749
ره	-7.27779
tin	-7.28181
yî	-7.28345
▁yên	-7.28429
▁هیچ	-7.28483
▁der	-7.28726
R	-7.28755
اوه	-7.28779
M	-7.29003
tî	-7.29197
▁ڕه	-7.29342
▁نی	-7.29769
گر	-7.29935
ئه	-7.30099
زان	-7.30226
ته	-7.30534
▁خۆی	-7.30575
▁کانی	-7.30811
▁ye	-7.30985
▁Di	-7.31181
رێت	-7.31221
دە	-7.3186
işt	-7.32103
am	-7.32405
▁کۆ	-7.32563
ف	-7.32797
▁كه	-7.33827
▁ew	-7.33881
کار	-7.34174
▁b	-7.34374
▁پێغ	-7.34537
ger	-7.34578
زی	-7.35122
ەن	-7.35987
▁پێش	-7.36486
dar	-7.36624
di	-7.37185
dan	-7.37535
▁با	-7.3775
▁ف	-7.3789
▁an	-7.38136
▁"	-7.38408
nd	-7.38811
ئ	-7.38919
▁زه	-7.38953
▁خش	-7.39345
▁گ	-7.39807
▁ڕۆژ	-7.39969
▁کار	-7.40425
یە	-7.4063
را	-7.40671
دار	-7.40828
▁Ji	-7.40986
▁/	-7.41102
▁چاک	-7.41157
ce	-7.41292
▁هاو	-7.41481
li	-7.41709
ج	-7.41792
ter	-7.422
lî	-7.42341
ون	-7.4255
▁بێگومان	-7.42902
za	-7.43478
▁سته	-7.44097
▁dest	-7.44136
▁ڕا	-7.44584
▁کی	-7.45039
▁بن	-7.45308
▁دی	-7.4582
da	-7.45821
▁ڕێ	-7.4602
▁تر	-7.46549
▁3	-7.46617
▁W	-7.46889
اک	-7.47037
it	-7.47187
▁kar	-7.47384
ba	-7.47424
ch	-7.47635
؟	-7.48257
▁ئی	-7.48806
▁چی	-7.48856
▁ری	-7.48866
end	-7.49451
▁ئەو	-7.49521
...	-7.49867
رو	-7.50089
as	-7.50387
▁I	-7.50816
kî	-7.51304
وون	-7.51327
بوو	-7.51769
ik	-7.52251
▁دوو	-7.52475
lê	-7.52502
ga	-7.5254
▁ma	-7.53558
▁her	-7.5377
▁V	-7.54038
▁نجام	-7.54351
us	-7.54589
▁yek	-7.54688
ic	-7.54778
ق	-7.55056
▁وا	-7.55326
▁شه	-7.55374
▁تێ	-7.55383
▁دروست	-7.55515
)،	-7.5605
O	-7.56065
mî	-7.5615
راو	-7.56392
▁کو	-7.56697
▁rê	-7.56845
ew	-7.56996
▁20	-7.57429
ge	-7.57794
شی	-7.58067
وە	-7.58131
بار	-7.58158
/	-7.5824
▁&	-7.58264
eyên	-7.58336
▁pêş	-7.58676
B	-7.58855
'	-7.58939
انە	-7.59262
iyên	-7.59648
▁رمان	-7.61475
▁pê	-7.61943
▁wê	-7.62138
ووه	-7.62252
▁Ç	-7.62437
▁وره	-7.62594
گە	-7.63128
vê	-7.63242
L	-7.63414
to	-7.63784
V	-7.63983
▁bê	-7.6478
per	-7.6491
▁رده	-7.64971
نا	-7.65003
نج	-7.65424
کرد	-7.65633
▁ئە	-7.65722
mê	-7.65747
▁hat	-7.66237
▁He	-7.66828
tina	-7.6696
ûr	-7.67037
▁Li	-7.67212
▁کاتێک	-7.6756
ەت	-7.67571
ran	-7.67657
▁شوێن	-7.68009
sî	-7.68039
▁خۆش	-7.68436
▁hûn	-7.68626
▁خۆیان	-7.68864
▁بی	-7.68905
%	-7.69165
ti	-7.69466
ۆش	-7.69897
▁De	-7.70043
îna	-7.70238
eke	-7.70365
▁ş	-7.70443
بین	-7.70813
وت	-7.70998
▁vê	-7.71134
▁جێ	-7.71215
▁tu	-7.71481
▁wek	-7.71898
▁دڵ	-7.72408
!	-7.72715
ەم	-7.7285
▁وان	-7.73585
fir	-7.74283
▁z	-7.74348
şa	-7.74479
un	-7.74755
▁ئایا	-7.75099
bûn	-7.75498
کردن	-7.75557
یا	-7.75652
îne	-7.76024
▁وێت	-7.76319
?	-7.76626
▁O	-7.76849
Î	-7.76944
ul	-7.77015
▁hê	-7.77386
▁ڕوو	-7.77534
▁Ev	-7.77837
▁لا	-7.77884
▁bû	-7.78053
ed	-7.78122
hi	-7.7842
is	-7.78478
pe	-7.79057
▁نده	-7.80314
کراو	-7.80582
van	-7.81177
▁در	-7.81345
▁Ma	-7.81353
iv	-7.81586
▁مان	-7.81756
az	-7.82098
ok	-7.82413
geh	-7.82662
▁الل	-7.82671
ح	-7.82733
بن	-7.82851
▁هێن	-7.8294
کات	-7.83392
ى	-7.83483
▁کردووه	-7.83534
▁چاو	-7.8412
▁خوای	-7.84179
ck	-7.8544
iye	-7.85507
▁ع	-7.85595
اس	-7.85868
▁بڵێ	-7.86251
▁X	-7.86435
vi	-7.86734
▁in	-7.87009
K	-7.87073
صل	-7.87537
vî	-7.87598
▁kir	-7.87952
pa	-7.88574
se	-7.88712
▁ڕاست	-7.88868
op	-7.88898
؟!	-7.89097
yan	-7.89291
ine	-7.89302
▁ڵێن	-7.89716
▁bike	-7.89816
▁وسلم	-7.89824
▁شتێک	-7.89951
ور	-7.90107
▁جۆر	-7.90379
▁بکات	-7.9087
um	-7.90998
ایی	-7.91147
دان	-7.91967
▁ل	-7.92419
▁مب	-7.92542
▁J	-7.92706
▁dike	-7.9282
▁بده	-7.92928
ut	-7.93144
▁din	-7.9395
▁چه	-7.94529
yên	-7.94552
bo	-7.95189
▁نیه	-7.95268
ss	-7.95499
بە	-7.95829
▁nû	-7.95874
▁بیر	-7.95937
▁نگ	-7.96133
▁ڵام	-7.96404
H	-7.96516
▁5	-7.96613
دوو	-7.96851
tor	-7.9701
▁ڵکی	-7.97249
▁هات	-7.9725
▁سەر	-7.98303
▁ئەم	-7.98693
▁دوای	-7.98933
înin	-7.98987
▁sal	-7.99332
ێنن	-7.99626
▁وتی	-8.00035
▁چونکه	-8.00039
كه	-8.00199
ع	-8.00321
▁mi	-8.00613
zî	-8.00787
amp	-8.01565
po	-8.01637
▁bikin	-8.01703
▁xe	-8.01832
hî	-8.02066
گا	-8.02401
ي	-8.02595
▁کردن	-8.02817
name	-8.0287
▁lê	-8.03469
gt	-8.03671
G	-8.03761
ze	-8.03781
▁x	-8.03889
Name	-8.03911
▁ژیان	-8.04031
▁دان	-8.04037
and	-8.04382
یاندا	-8.04505
▁4	-8.04677
jar	-8.04949
▁du	-8.05006
▁نها	-8.05054
xwe	-8.05102
şe	-8.05298
▁Me	-8.05478
▁ماڵ	-8.06078
▁to	-8.06288
▁_	-8.06823
▁pa	-8.07112
▁mo	-8.07159
▁Y	-8.07212
کی	-8.07504
ekî	-8.07821
▁ڕی	-8.07905
خۆ	-8.08115
▁ما	-8.08134
▁...	-8.08144
▁dê	-8.08257
▁باش	-8.08264
▁do	-8.08492
▁علیه	-8.08576
wer	-8.08577
▁ئاسمان	-8.09395
▁ra	-8.09453
est	-8.0965
▁roj	-8.09732
▁قورئان	-8.09951
▁hev	-8.10245
تا	-8.10284
yar	-8.10695
▁ئەوە	-8.10834
▁qe	-8.10837
▁wan	-8.11053
▁rast	-8.11416
▁Ba	-8.11613
zan	-8.11655
▁U	-8.12458
▁هێناوه	-8.12619
▁pir	-8.13053
▁تان	-8.13181
▁هۆی	-8.13344
▁خوایه	-8.13407
غ	-8.13751
20	-8.13758
▁em	-8.13905
▁ev	-8.13928
▁kirin	-8.14696
th	-8.14932
▁زاته	-8.14994
▁baş	-8.15125
Q	-8.15217
▁Z	-8.15344
▁zêde	-8.15444
▁سوێند	-8.15667
▁چۆن	-8.15699
▁ڵگه	-8.15881
▁se	-8.16857
xwaz	-8.1768
▁mezin	-8.17912
ser	-8.18135
bû	-8.18212
▁قیام	-8.18319
▁بەر	-8.18641
▁دۆز	-8.18804
یەکی	-8.18865
▁سان	-8.19712
bar	-8.19759
▁Nav	-8.20542
▁ئەوەی	-8.20791
F	-8.21489
ێنێت	-8.22174
rû	-8.2254
▁شار	-8.22618
▁ڵات	-8.23522
▁کارو	-8.23528
▁ڕێگ	-8.23879
▁پێیان	-8.23905
▁Co	-8.24351
▁Te	-8.24464
▁تاوان	-8.24621
ast	-8.25123
▁Re	-8.25376
kirî	-8.25464
▁خێر	-8.25544
▁dikarin	-8.25726
▁kes	-8.25957
▁Ew	-8.26763
▁min	-8.2678
▁par	-8.26853
▁خت	-8.2697
▁گو	-8.27187
▁Da	-8.27273
ویست	-8.27964
بوون	-8.28359
ho	-8.28605
▁بار	-8.2871
▁میش	-8.28901
war	-8.29233
▁خاو	-8.29393
▁سزای	-8.30121
▁of	-8.30319
▁فر	-8.30324
▁Ber	-8.3092
▁نیشان	-8.31802
▁دنیا	-8.31879
▁tenê	-8.31908
▁دەر	-8.31976
▁Ne	-8.32322
▁Ro	-8.32374
▁پشت	-8.324
guh	-8.32889
▁ڕو	-8.33185
▁بەڵام	-8.33278
٠	-8.33477
رێن	-8.33816
▁ترس	-8.33939
▁Ser	-8.34483
▁We	-8.34629
ver	-8.34855
▁خۆتان	-8.34896
▁ez	-8.35212
▁ئیتر	-8.36229
▁herî	-8.36256
met	-8.36291
▁Em	-8.36399
▁بڕیار	-8.36488
▁جگ	-8.36613
▁taybet	-8.36718
▁ئەمە	-8.3689
▁کانیان	-8.37595
▁pro	-8.37765
U	-8.37803
▁Ş	-8.37854
sh	-8.38158
▁19	-8.38369
▁وسا	-8.38526
▁گوێ	-8.3897
15	-8.3899
▁بڕوا	-8.39097
▁گوناه	-8.39305
tion	-8.39812
گرن	-8.40044
▁dema	-8.40192
[	-8.40718
]	-8.40887
▁ئیمانداران	-8.41154
▁wi	-8.41236
ci	-8.41532
پارێز	-8.41543
xistin	-8.41623
▁ئاشکرا	-8.41971
!!	-8.42335
▁ساڵ	-8.42934
▁شێوه	-8.43389
▁ئێ	-8.43425
▁The	-8.43519
▁Mi	-8.43619
▁ئاس	-8.44279
کر	-8.45022
▁قس	-8.45664
▁gelek	-8.45696
▁کاتێکدا	-8.46279
tîk	-8.46324
com	-8.46611
▁pey	-8.46961
خوێن	-8.47055
▁dikare	-8.47109
▁ڕوون	-8.47223
▁میهر	-8.47563
▁یاد	-8.4819
▁ناک	-8.4866
ation	-8.48795
="	-8.49288
▁دڵنیا	-8.50555
▁هەموو	-8.50747
▁car	-8.50898
▁دێت	-8.50905
form	-8.51211
▁bikaranîn	-8.51465
گرێت	-8.51669
▁رچی	-8.51801
mend	-8.52097
▁kêm	-8.52953
▁كان	-8.53213
▁Ch	-8.53562
▁tişt	-8.54119
▁hem	-8.54146
پێ	-8.54602
X	-8.5489
W	-8.55009
▁منداڵ	-8.55112
&	-8.56075
▁ئاماده	-8.56087
▁خراپ	-8.56769
“	-8.57077
▁heye	-8.57745
”	-8.57934
گۆ	-8.58623
▁نێوان	-8.58654
▁ئینجا	-8.58657
▁ویدا	-8.58687
▁hene	-8.58724
▁پێویست	-8.58733
nivîs	-8.59205
▁باس	-8.5994
▁TV	-8.60336
jêr	-8.60512
▁bilind	-8.60786
ھ	-8.60962
▁محمد	-8.61021
توانی	-8.61092
ڤ	-8.6111
▁جیهان	-8.61129
چوون	-8.61676
▁hemû	-8.61788
▁رنام	-8.62427
▁زیاتر	-8.63235
▁درۆ	-8.64101
پرس	-8.65514
istan	-8.657
▁موسا	-8.65748
▁پاشان	-8.65808
▁got	-8.66267
▁هەیە	-8.68763
▁ئێستا	-8.68835
▁dikin	-8.69028
–	-8.70607
▁دوا	-8.70695
▁Pêş	-8.71011
▁ئێمە	-8.71377
▁Xwe	-8.71629
▁ڕێبازی	-8.7172
Y	-8.71833
ahiya	-8.7188
▁tev	-8.72055
▁ئاگادار	-8.72913
▁ڕزگار	-8.73749
▁جوان	-8.74202
▁هیدا	-8.74333
▁رگیز	-8.74457
▁لەسەر	-8.7548
▁لەگەڵ	-8.76579
▁wî	-8.76736
@	-8.76889
▁نزیک	-8.77202
▁hatiye	-8.77388
▁aliyê	-8.7871
▁کتێب	-8.79168
▁یاخود	-8.79239
▁فریشت	-8.79536
▁ئەگەر	-8.79738
ەنگ	-8.79816
▁qa	-8.79832
▁ئازار	-8.80081
▁xizmet	-8.81682
▁پیاو	-8.82596
▁هێز	-8.83421
asyon	-8.83487
▁سنوور	-8.84
Comment	-8.86144
▁cih	-8.87602
▁سزا	-8.88008
$	-8.88219
▁بانگ	-8.88543
▁گرت	-8.8883
_	-8.89038
▁بدات	-8.90111
▁kontrol	-8.90299
▁چاك	-8.90548
▁گومڕا	-8.90736
▁ئافر	-8.91521
▁گۆڕ	-8.91669
▁ناخۆش	-8.92187
bêj	-8.92693
Û	-8.93603
▁mu	-8.94161
هێنان	-8.94336
گێڕ	-8.94742
▁ودوا	-8.94962
نەوەی	-8.97323
▁alîkar	-8.9766
▁vir	-8.98373
ext	-8.99363
+	-8.99729
▁زیندوو	-8.9973
١	-8.99772
▁lîst	-9.00398
▁dawî	-9.00811
▁ناسان	-9.02045
îrok	-9.0228
▁hêsan	-9.03121
▁çalak	-9.04037
دەتوان	-9.04381
▁تایبه	-9.04544
▁hilberîn	-9.04685
pirs	-9.04701
▁خەڵک	-9.04823
’	-9.05328
▁جیاواز	-9.06254
▁ڕێنموویی	-9.06767
çûn	-9.06854
▁xuya	-9.06865
*	-9.13035
ı	-9.18823
•	-9.23685
J	-9.27196
»	-9.29731
Ê	-9.31093
°	-9.33263
(	-9.35212
؛	-9.41249
٢	-9.41646
=	-9.48989
ü	-9.49498
ط	-9.51892
#	-9.58647
\	-9.61515
Z	-9.65067
٥	-9.71001
·	-9.78183
٣	-10.0044
ص	-10.0084
ـ	-10.0212
ö	-10.0608
ę	-10.0735
٩	-10.0773
Ş	-10.1038
٤	-10.1382
и	-10.1464
٦	-10.2015
а	-10.2176
©	-10.2295
€	-10.246
«	-10.2753
٨	-10.3152
е	-10.3332
é	-10.3483
£	-10.3721
ث	-10.3738
٧	-10.3877
ة	-10.4453
о	-10.4472
İ	-10.4697
‘	-10.5065
}	-10.5204
Ç	-10.5685
