<unk>	0
<s>	0
</s>	0
ه	-3.20899
▁و	-3.5726
.	-4.0872
▁به	-4.1097
▁ئه	-4.3219
▁ده	-4.34423
,	-4.39177
،	-4.39668
▁له	-4.41998
▁که	-4.52578
▁وه	-4.56034
▁ی	-4.63683
ی	-4.66178
▁هه	-4.75317
▁	-4.75509
▁(	-4.76252
▁ر	-4.86458
▁ji	-4.98137
▁û	-5.11102
▁بۆ	-5.21858
)	-5.23278
▁ku	-5.25133
▁bi	-5.27469
▁سه	-5.28221
:	-5.32748
ê	-5.36792
a	-5.3807
▁li	-5.39965
▁ن	-5.50218
▁یه	-5.54336
▁نه	-5.5512
▁،	-5.5613
▁bo	-5.60483
▁de	-5.60617
▁گه	-5.64265
▁di	-5.65868
▁خوا	-5.68548
و	-5.72206
▁پ	-5.78438
ên	-5.83518
-	-5.88063
s	-5.88848
▁وانه	-5.93403
▁م	-5.94361
یان	-5.98101
ن	-6.01019
▁لە	-6.03281
ە	-6.0364
n	-6.07361
▁ته	-6.07653
▁ya	-6.10588
▁ڕاستی	-6.12758
م	-6.1405
▁روه	-6.19876
▁بێت	-6.27014
î	-6.27515
▁ser	-6.27526
دا	-6.28044
▁e	-6.29305
▁.	-6.29656
▁یان	-6.30256
▁مه	-6.32211
مان	-6.36555
به	-6.39343
▁xwe	-6.39437
▁ش	-6.3986
▁ت	-6.43695
▁کە	-6.44096
▁ئێمه	-6.4706
▁خه	-6.4745
an	-6.49895
▁بە	-6.50059
▁زۆر	-6.51499
تان	-6.53358
;	-6.58461
▁باوه	-6.58588
e	-6.59398
▁کرد	-6.60462
▁بێ	-6.62604
▁a	-6.64395
▁بکه	-6.64533
▁ئێوه	-6.64537
▁دا	-6.66146
▁بوو	-6.67474
▁ne	-6.67803
▁کان	-6.68235
▁re	-6.68246
▁)	-6.683
ت	-6.6951
▁فه	-6.69734
▁موو	-6.70389
که	-6.70747
▁تی	-6.71423
ان	-6.71749
▁ره	-6.77707
▁ق	-6.77868
▁من	-6.79092
▁ک	-6.8145
▁jî	-6.81644
▁جا	-6.83356
▁-	-6.83563
▁ڕه	-6.83743
▁yên	-6.84821
ek	-6.8661
▁لێ	-6.87956
ئه	-6.88182
▁كه	-6.88408
▁بوون	-6.88851
▁تۆ	-6.90298
▁an	-6.90371
▁ye	-6.91683
ێکی	-6.92172
▁پێغ	-6.92378
▁زه	-6.92739
▁تا	-6.93639
▁ست	-6.94323
▁خۆی	-6.94782
▁ها	-6.94814
▁"	-6.9537
▁me	-6.95982
له	-6.97096
▁هیچ	-6.9736
▁ڵ	-6.97694
▁/	-6.99235
▁کی	-7.00013
▁کانی	-7.00281
▁بێگومان	-7.00829
iya	-7.01524
▁سته	-7.01654
▁مب	-7.01722
).	-7.02594
▁پێ	-7.05193
▁ح	-7.05594
▁Di	-7.05619
▁Ji	-7.05694
▁بن	-7.06454
▁ew	-7.0935
▁شه	-7.10274
ده	-7.12612
in	-7.13653
▁&	-7.15221
ەوە	-7.15738
▁ری	-7.16235
"	-7.16274
▁وره	-7.18048
▁رده	-7.20743
▁ناو	-7.21546
ya	-7.21876
▁کات	-7.22293
▁ve	-7.24685
t	-7.24739
▁vê	-7.25638
▁hûn	-7.26524
▁ك	-7.27931
...	-7.28059
▁وێت	-7.28086
؟	-7.29007
انه	-7.29039
kirina	-7.29155
▁ber	-7.29723
▁A	-7.3047
▁لای	-7.30663
)،	-7.31766
▁چی	-7.31945
▁خۆیان	-7.32299
▁ئایا	-7.32796
▁س	-7.33124
ین	-7.33552
d	-7.33719
▁wê	-7.33928
▁نده	-7.34441
▁ڕ	-7.35739
▁te	-7.35841
▁Bi	-7.3603
▁Ev	-7.36309
ێک	-7.36727
y	-7.37038
▁ئەو	-7.37843
?	-7.38385
یه	-7.38729
k	-7.38872
▁پێش	-7.38888
S	-7.39636
▁1	-7.40861
▁Li	-7.40939
▁تر	-7.41335
▁کردووه	-7.41525
▁الل	-7.42032
▁we	-7.42597
▁نی	-7.43604
▁tê	-7.43779
▁in	-7.43956
▁خوای	-7.44143
یش	-7.4415
!	-7.4422
er	-7.4441
ش	-7.44826
▁کاتێک	-7.45194
m	-7.45471
▁C	-7.46428
▁خۆ	-7.46497
h	-7.46533
▁دروست	-7.47029
▁چه	-7.4757
▁وسلم	-7.47779
▁بکات	-7.4826
▁وان	-7.48526
ى	-7.48566
▁بده	-7.48685
yê	-7.48852
▁ئا	-7.49244
▁tu	-7.49452
▁S	-7.50402
▁نیه	-7.51
▁bike	-7.51021
▁ین	-7.51564
▁dike	-7.52708
ەکان	-7.52721
▁din	-7.53229
▁her	-7.54383
نه	-7.55157
▁nav	-7.55873
kirin	-7.57323
▁چونکه	-7.58151
gt	-7.58763
▁bikin	-7.597
▁نها	-7.59958
▁ڵێن	-7.60197
D	-7.63131
▁_	-7.63668
▁E	-7.64137
▁ڵام	-7.64935
▁bû	-7.65479
▁علیه	-7.66477
▁da	-7.67419
▁dê	-7.67863
2	-7.68738
▁وت	-7.68787
▁وتی	-7.68902
iyê	-7.68973
▁wan	-7.68986
▁مان	-7.70174
یت	-7.70276
r	-7.70713
▁هێناوه	-7.7078
▁em	-7.71088
▁be	-7.71266
▁هۆی	-7.71292
▁kirin	-7.71358
▁خوایه	-7.7196
▁ev	-7.72498
amp	-7.72674
▁ڵگه	-7.73266
▁پێی	-7.73324
▁زاته	-7.7343
▁نجام	-7.7358
▁سوێند	-7.73583
▁چۆن	-7.73637
re	-7.74165
▁nû	-7.74488
▁ب	-7.74636
▁دە	-7.75132
▁بڵێ	-7.75288
▁T	-7.75519
▁دوای	-7.75542
al	-7.75944
x	-7.76169
▁قیام	-7.7622
▁yek	-7.76329
▁ئەم	-7.76387
A	-7.76701
ا	-7.76767
ing	-7.77097
▁...	-7.77336
؟!	-7.77663
▁ع	-7.7938
▁پێیان	-7.7965
▁تان	-7.80312
وه	-7.80447
▁ڵکی	-7.81592
▁رمان	-7.81718
▁kar	-7.82424
l	-7.82618
▁lê	-7.83256
▁P	-7.83559
ایه	-7.83602
▁dikarin	-7.83624
▁نا	-7.83706
▁2	-7.84092
▁با	-7.8482
▁میش	-7.84821
▁wek	-7.84879
f	-7.85161
▁جگ	-7.85218
ێ	-7.8551
▁kir	-7.85615
M	-7.85855
/	-7.86
▁چ	-7.86037
z	-7.86257
▁ئاسمان	-7.86312
ەکە	-7.86361
▁ên	-7.87201
▁دۆز	-7.87282
b	-7.87546
▁وا	-7.87834
▁سزای	-7.88867
'	-7.8891
i	-7.8895
▁ئەوە	-7.8923
▁tenê	-7.89486
g	-7.89653
په	-7.90024
▁دوو	-7.90062
▁B	-7.90072
C	-7.90645
▁بەڵام	-7.91206
صل	-7.91217
▁min	-7.91843
▁3	-7.92402
▁خۆتان	-7.92479
▁herî	-7.92681
B	-7.93382
o	-7.9339
▁لایه	-7.93551
p	-7.93782
le	-7.93802
▁ئیتر	-7.93923
ەی	-7.94244
▁چاکه	-7.94792
▁هاو	-7.94953
c	-7.95043
▁خۆش	-7.95093
▁ردگاری	-7.95303
▁baş	-7.95444
w	-7.95631
▁خاو	-7.95915
ێت	-7.96189
T	-7.96421
v	-7.96432
▁dest	-7.96493
▁dema	-7.96688
eke	-7.97192
▁نیشان	-7.9753
▁mezin	-7.97833
▁ez	-7.98357
▁ڕاست	-7.98459
▁کار	-7.98773
ş	-7.99327
▁ماڵ	-7.99481
de	-7.9957
û	-7.99617
▁کانیان	-8.00444
P	-8.0047
▁وسا	-8.00821
▁F	-8.00829
▁The	-8.01079
▁Em	-8.01204
▁ند	-8.01246
▁شێوه	-8.01335
▁K	-8.01509
▁bê	-8.01768
▁کاتێکدا	-8.03621
ب	-8.03817
K	-8.04045
▁dikare	-8.05
▁سان	-8.0509
▁میهر	-8.05373
▁ئەوەی	-8.06168
▁جێ	-8.06317
▁dibe	-8.06723
▁ون	-8.07205
س	-8.07539
L	-8.07781
ک	-8.07935
▁جۆره	-8.08052
▁دێت	-8.08128
ed	-8.08471
im	-8.08492
%	-8.08631
▁of	-8.08642
▁شتێک	-8.08803
بۆ	-8.08844
▁G	-8.08982
E	-8.09294
▁کردن	-8.09683
▁وام	-8.09768
▁M	-8.10159
H	-8.10195
ێك	-8.10476
▁وتیان	-8.10578
▁pir	-8.10625
▁D	-8.10723
▁خ	-8.10758
▁رچی	-8.1093
st	-8.11141
▁ڕیان	-8.11211
انی	-8.11758
▁یت	-8.12009
în	-8.12096
▁to	-8.12197
3	-8.12331
▁Ew	-8.1244
▁gelek	-8.12488
▁4	-8.12883
j	-8.13177
yên	-8.13456
▁5	-8.13724
▁هەموو	-8.13861
تا	-8.13864
▁ئاماده	-8.13988
یە	-8.14349
ma	-8.1435
lt	-8.14586
ta	-8.14967
▁کارو	-8.15375
▁ئەمە	-8.15378
▁رام	-8.15606
N	-8.15943
▁hene	-8.1599
ne	-8.16246
▁خێر	-8.16322
▁ئینجا	-8.16665
▁ڵکو	-8.16694
ەکانی	-8.16823
▁گوناه	-8.17015
▁Ma	-8.17021
▁ئیمانداران	-8.17147
▁“	-8.17358
▁ڕێگ	-8.17448
▁H	-8.17737
▁کاته	-8.17929
▁ڕی	-8.17948
▁دڵ	-8.18031
Name	-8.18281
▁ران	-8.18312
▁bilind	-8.18717
na	-8.18835
▁s	-8.18928
▁محمد	-8.18988
il	-8.19318
ar	-8.19322
▁hemû	-8.19494
▁چاو	-8.19511
▁ئایه	-8.19912
▁کاتی	-8.19918
F	-8.20158
▁رنام	-8.20183
▁رو	-8.20802
▁ناک	-8.21076
ra	-8.21444
u	-8.2161
▁heye	-8.21632
▁شتی	-8.22534
نی	-8.22771
▁19	-8.2291
مه	-8.23538
▁ویدا	-8.2376
▁پاشان	-8.23818
▁سەر	-8.241
▁wekî	-8.24269
▁کاتێك	-8.24563
ri	-8.24743
▁TV	-8.24778
▁ڕۆژی	-8.25171
▁کو	-8.25237
V	-8.25399
ز	-8.25512
▁Ez	-8.26194
di	-8.26256
▁هەیە	-8.26333
▁زیاتر	-8.26427
▁ژیانی	-8.26452
▁dikin	-8.26986
▁قس	-8.27052
▁ê	-8.27184
▁شت	-8.2751
▁).	-8.28312
="	-8.28405
انە	-8.28436
▁yê	-8.28678
li	-8.28829
ve	-8.28956
▁ڕوو	-8.28957
▁ئێمە	-8.29297
la	-8.29398
▁du	-8.29414
▁شوێنی	-8.29557
بوو	-8.29636
کە	-8.29722
▁ڕێبازی	-8.2992
&	-8.30077
▁divê	-8.30276
▁R	-8.30501
تر	-8.30716
▁ڵه	-8.3087
▁موسا	-8.31276
▁وەک	-8.3193
▁X	-8.31974
▁رگیز	-8.3236
iyên	-8.32601
▁:	-8.3263
▁هات	-8.32999
ر	-8.33004
▁ئیمان	-8.3337
▁لەسەر	-8.33418
▁ئێستا	-8.33684
بێت	-8.33716
▁hêla	-8.34
!!	-8.34142
▁wî	-8.34433
1	-8.34463
▁لەگەڵ	-8.34478
es	-8.34478
▁ئە	-8.34713
▁خواو	-8.34922
▁دات	-8.34967
▁چاک	-8.35113
▁hatiye	-8.35185
▁–	-8.35231
ir	-8.35321
te	-8.35513
▁çi	-8.35782
▁ئاد	-8.35841
eya	-8.35994
yan	-8.36108
▁aliyê	-8.36575
R	-8.36696
bi	-8.36712
ڕ	-8.36861
▁رمانی	-8.36887
▁ڕوون	-8.3689
▁د	-8.37067
▁یاخود	-8.3721
▁10	-8.37269
▁ئەگەر	-8.37665
▁ڕۆژه	-8.37861
ێن	-8.3799
▁نگ	-8.38204
▁غ	-8.38808
▁تۆڵ	-8.39021
el	-8.39035
دان	-8.39695
▁N	-8.40444
د	-8.40561
▁بیر	-8.4109
▁دی	-8.41143
”	-8.41665
▁ڵک	-8.41734
ك	-8.42103
▁ستی	-8.42163
▁نجامی	-8.42386
ڵ	-8.4239
G	-8.42966
com	-8.43237
▁پاداشتی	-8.4326
ter	-8.43438
▁O	-8.43763
▁پڕ	-8.43954
ل	-8.44269
▁هیدا	-8.44354
on	-8.44472
▁ba	-8.44595
عم	-8.44609
یەکی	-8.44692
▁c	-8.44771
▁niha	-8.44814
▁کێ	-8.44868
▁'	-8.45317
▁شتانه	-8.45407
ur	-8.45413
▁the	-8.45438
▁فریشت	-8.45505
▁صل	-8.45663
it	-8.46421
▁zêde	-8.46853
▁وتن	-8.47272
ke	-8.47324
▁بۆیان	-8.47616
or	-8.47933
▁بدات	-8.47946
en	-8.48414
▁قورئان	-8.48779
ç	-8.48781
I	-8.49148
ber	-8.49354
_	-8.49383
▁hev	-8.49535
▁W	-8.49638
▁I	-8.4981
▁سزا	-8.50033
▁قورئانه	-8.50144
ژ	-8.5015
▁شوێن	-8.50538
man	-8.50652
کان	-8.50871
▁شتێکی	-8.51272
سه	-8.51448
▁ندی	-8.51513
be	-8.51816
W	-8.51866
▁nîşan	-8.51935
▁hat	-8.52071
dar	-8.52205
▁لێی	-8.52245
kirî	-8.52337
كه	-8.52503
▁7	-8.52804
▁8	-8.52814
کرد	-8.52894
▁kêm	-8.53111
▁پشت	-8.53184
دە	-8.53481
▁ڵات	-8.53609
▁تێ	-8.53682
▁بڕیار	-8.54148
▁هەر	-8.5432
da	-8.55098
وە	-8.55425
وو	-8.55484
▁شی	-8.55586
▁چاك	-8.55654
ق	-8.55829
▁داوه	-8.5614
ot	-8.5626
▁ناوی	-8.56413
▁وە	-8.56859
رێت	-8.57172
lo	-8.57468
q	-8.57531
▁حم	-8.57687
▁زیندوو	-8.57717
▁rê	-8.57774
او	-8.57813
et	-8.57947
tir	-8.58074
▁دەست	-8.58146
▁ردگار	-8.58324
▁ودوا	-8.58931
▁وڵ	-8.59157
ger	-8.59265
ەکەی	-8.59406
▁کۆ	-8.59551
▁6	-8.59722
▁خوان	-8.60112
کردنی	-8.60201
▁L	-8.60425
یا	-8.60529
at	-8.6064
▁ردگارت	-8.60755
▁%	-8.60817
▁هێز	-8.60848
▁ناسان	-8.60991
▁bikar	-8.61064
▁کرێت	-8.6116
▁bibe	-8.61373
▁خت	-8.61513
▁کراوه	-8.61798
▁نێوان	-8.6238
▁جه	-8.62424
▁تایبه	-8.62452
▁خۆت	-8.62632
▁ببه	-8.62668
sa	-8.62668
▁ل	-8.62846
▁zêdetir	-8.62885
ekî	-8.62941
▁ربار	-8.63118
4	-8.6317
ro	-8.63193
▁دوور	-8.63592
th	-8.63778
▁تدا	-8.64021
▁heman	-8.64545
▁Re	-8.64809
▁xuya	-8.6481
▁کاری	-8.64849
▁رک	-8.64921
▁ڕو	-8.65045
ڕه	-8.65116
▁ئیماندار	-8.65286
ol	-8.6535
5	-8.65426
▁20	-8.65469
▁كرد	-8.65638
▁Name	-8.65907
چ	-8.65985
▁ئافر	-8.66658
▁ڕێنموویی	-8.66675
▁كان	-8.66889
O	-8.67035
▁piştî	-8.67163
▁رستن	-8.67416
▁$	-8.67492
را	-8.67831
▁ئازار	-8.67844
▁ز	-8.67968
▁bin	-8.67976
▁bikaranîn	-8.68289
▁Q	-8.68399
▁Tu	-8.68481
yî	-8.6854
▁dawî	-8.6884
X	-8.68976
کردن	-8.69412
▁vir	-8.69535
نا	-8.69573
ce	-8.69575
▁بی	-8.69752
گه	-8.6979
▁شای	-8.69869
tî	-8.69932
▁خۆم	-8.69989
▁داوای	-8.70277
▁بۆتان	-8.70315
▁ویش	-8.70533
se	-8.70542
▁pê	-8.70612
kirinê	-8.70677
▁ئاشکرا	-8.70679
▁یتان	-8.7079
bûna	-8.70833
▁ساڵ	-8.70973
▁نین	-8.71242
▁نازو	-8.71289
▁pêş	-8.713
eyên	-8.71357
یەک	-8.71806
▁ریان	-8.71946
▁2018	-8.72057
ch	-8.72093
ەر	-8.72107
ره	-8.72437
بوون	-8.72537
ار	-8.72575
▁درۆ	-8.7262
ته	-8.72712
▁yekê	-8.72745
▁Z	-8.72892
ly	-8.72967
▁p	-8.73009
ew	-8.73044
▁بكه	-8.7313
ری	-8.73258
خ	-8.73292
▁ردگاریان	-8.73505
▁جوان	-8.73556
▁cuda	-8.73633
▁دەبێت	-8.73723
▁کێش	-8.7373
▁ڕزگار	-8.73745
▁زانیاری	-8.73772
Î	-8.73899
ic	-8.73907
▁[	-8.74
▁کردوون	-8.7417
▁ڕان	-8.74252
to	-8.74268
▁بووه	-8.74276
Y	-8.74395
▁dur	-8.74606
▁Lê	-8.74831
شت	-8.74834
▁demê	-8.74889
ي	-8.75167
▁وایه	-8.75297
▁میزاد	-8.75572
▁واو	-8.75649
iye	-8.75842
▁یی	-8.75871
▁ئاگادار	-8.7593
▁خۆمان	-8.76324
▁خوایش	-8.76364
us	-8.76378
▁بگه	-8.76612
▁هاوس	-8.76696
▁f	-8.76727
U	-8.76741
▁navê	-8.76931
um	-8.76937
▁ژێر	-8.76972
▁dide	-8.77209
7	-8.77296
▁دابه	-8.77748
▁ڵاتی	-8.77938
ەم	-8.78097
▁bibînin	-8.78375
▁بهێنن	-8.78412
▁ژیان	-8.79123
▁hate	-8.79142
▁pêk	-8.79233
▁heta	-8.79361
پ	-8.79372
▁کردنی	-8.79385
▁hin	-8.79411
▁نوێژ	-8.796
▁bide	-8.79769
ation	-8.7983
▁Her	-8.7992
▁ردگارا	-8.79991
▁یاخی	-8.80003
▁یمان	-8.80161
▁rast	-8.80254
▁نابێت	-8.80427
▁زانن	-8.80484
▁سێک	-8.80584
▁start	-8.80599
▁çawa	-8.8087
▁دان	-8.80947
iyan	-8.80961
dî	-8.81022
▁بۆی	-8.81048
▁ببێت	-8.81103
▁Ne	-8.81261
بن	-8.81563
▁نە	-8.81875
▁got	-8.81876
▁bûn	-8.82038
▁ویستی	-8.82154
îne	-8.8266
▁خۆشی	-8.82689
▁سی	-8.82798
▁V	-8.82989
ye	-8.83083
▁têne	-8.83207
ۆ	-8.83542
▁سێ	-8.83641
▁+	-8.83683
▁کردو	-8.83917
lî	-8.83922
),	-8.83966
▁•	-8.8413
▁می	-8.84208
▁چەند	-8.84216
am	-8.84292
▁یادی	-8.84428
▁ڕتان	-8.84439
▁دەکات	-8.84507
▁Me	-8.8452
▁ڕووی	-8.84694
▁Zanîngeha	-8.84923
me	-8.84927
▁؟	-8.85281
▁HD	-8.85395
▁زانایه	-8.85415
▁رگ	-8.85458
▁کتێب	-8.85462
ترین	-8.85487
▁se	-8.85619
▁تاوان	-8.85718
▁bêtir	-8.85812
ێنێت	-8.86553
ok	-8.86766
id	-8.86849
▁سنوور	-8.87307
rê	-8.87614
▁12	-8.8768
▁ڵد	-8.87755
▁taybetî	-8.87967
▁خراپه	-8.88001
▁جێگ	-8.88035
’	-8.88074
ker	-8.88154
▁ڕێ	-8.88167
▁ئیبراهیم	-8.88185
▁ڕزق	-8.88222
▁زیاد	-8.88317
mm	-8.88432
ام	-8.8851
▁باشه	-8.88671
▁گوێ	-8.88843
▁De	-8.89037
▁منداڵ	-8.89176
▁berhemên	-8.89292
he	-8.89356
▁cîhanê	-8.89535
▁van	-8.89552
▁ئاو	-8.89799
▁taybet	-8.89827
▁An	-8.89846
▁باس	-8.89886
ran	-8.90076
lê	-8.90197
▁bibin	-8.90255
▁bikaranîna	-8.90317
▁بیه	-8.90339
▁تیایدا	-8.9056
▁Dema	-8.90591
▁خواوه	-8.90639
îna	-8.90873
der	-8.909
▁ka	-8.91007
▁خته	-8.9112
▁جیهان	-8.91355
▁dirêj	-8.91545
▁Te	-8.91603
خه	-8.91635
▁زانی	-8.91766
شی	-8.92424
دی	-8.92748
▁بزانن	-8.92839
▁وم	-8.93014
rî	-8.93266
▁هاوڕێ	-8.93367
▁بووم	-8.93467
ha	-8.93559
▁ڕۆزی	-8.93618
▁فیرع	-8.93824
▁2019	-8.94114
▁Se	-8.94311
▁جار	-8.94572
▁رز	-8.94667
▁لا	-8.9474
▁یام	-8.94983
▁çend	-8.9502
▁نهێنی	-8.95103
▁girîng	-8.95142
ekê	-8.95197
▁زانێت	-8.95286
▁ردا	-8.9537
▁دنیا	-8.95422
▁2017	-8.95531
(	-8.95558
▁داد	-8.95573
ێنن	-8.95665
▁بینی	-8.95709
▁گرێت	-8.95843
▁15	-8.95875
▁شایست	-8.96088
▁خشه	-8.96123
we	-8.96137
▁ناخۆشی	-8.96231
▁dîtin	-8.96319
▁rastî	-8.96428
▁9	-8.96465
▁لەو	-8.96506
▁دایک	-8.96513
▁کانتان	-8.96516
▁ڵی	-8.96521
ll	-8.96523
لە	-8.96526
ka	-8.96825
بە	-8.96836
راو	-8.96969
▁sala	-8.97093
▁sal	-8.97108
▁؟!	-8.97214
ûr	-8.97247
▁*	-8.97251
▁vî	-8.97385
▁خەڵک	-8.97448
▁Û	-8.97539
▁St	-8.97666
▁لێیان	-8.9773
اوه	-8.97904
▁دنیادا	-8.98054
ine	-8.9806
▁بڕوا	-8.98074
▁na	-8.98119
▁ردگارتان	-8.98274
ul	-8.98399
▁kerema	-8.98427
▁کاندا	-8.98443
▁ڕێن	-8.98448
▁بیت	-8.98512
dan	-8.98535
▁مۆڵ	-8.986
▁هێنا	-8.98686
▁خشی	-8.98744
▁k	-8.99284
kan	-8.99306
▁yekem	-8.99483
▁بڕوایان	-8.99597
اده	-8.99953
▁ra	-9.0012
ج	-9.00275
▁Hûn	-9.00348
▁خشێت	-9.00433
چونکه	-9.00453
▁باخ	-9.00487
ge	-9.00493
▁Bo	-9.00574
▁g	-9.00655
bar	-9.00726
▁واز	-9.01049
▁تێدا	-9.01245
sh	-9.01272
▁میان	-9.0128
as	-9.01281
▁ماوه	-9.01307
▁x	-9.01416
▁خوادا	-9.01429
ف	-9.01444
8	-9.01547
op	-9.0168
▁خراپ	-9.01686
▁ڕانه	-9.01755
ون	-9.01802
▁بان	-9.01849
▁گاڵت	-9.01974
▁هێنن	-9.02049
▁ma	-9.02189
ry	-9.02276
▁رتان	-9.02357
▁گومان	-9.02613
end	-9.02627
ەت	-9.02746
sî	-9.02768
▁ببن	-9.02888
nd	-9.02936
▁hatine	-9.03077
▁He	-9.03096
▁were	-9.03137
▁سامان	-9.03155
▁ریه	-9.0337
▁برد	-9.03613
▁مژد	-9.03681
▁ترس	-9.03688
000	-9.03834
کانی	-9.0398
▁sereke	-9.04088
▁13	-9.04094
▁ئار	-9.041
▁im	-9.0413
▁ئامۆژگاری	-9.04156
▁ئەوەیە	-9.04194
▁Co	-9.04215
ات	-9.04423
▁شتێك	-9.0447
▁Ser	-9.04538
ver	-9.04551
گ	-9.04567
îya	-9.0463
▁بو	-9.04668
▁ta	-9.0478
ent	-9.04824
▁دوا	-9.0484
per	-9.04877
یاندا	-9.04971
▁berê	-9.05033
▁ناکات	-9.05084
▁وانیش	-9.05093
▁دیاری	-9.05313
▁30	-9.05314
iv	-9.05357
▁ڕاسته	-9.05574
▁پرسیار	-9.05577
▁رانی	-9.05627
▁پێشتر	-9.05648
▁دره	-9.0573
▁وات	-9.05875
za	-9.05918
▁der	-9.05982
ليه	-9.0605
▁18	-9.06114
nê	-9.06146
@	-9.0618
▁girêdayî	-9.06236
▁نییە	-9.0633
▁سوپاس	-9.06331
▁24	-9.06531
▁تووشی	-9.06608
یدا	-9.06734
gir	-9.06867
nî	-9.06935
▁ڕۆژ	-9.0694
▁Ro	-9.0704
ci	-9.07373
ێنه	-9.07382
لا	-9.07513
▁eger	-9.07631
▁sê	-9.07775
▁جیاتی	-9.07983
▁Comment	-9.08172
andin	-9.0824
▁diyar	-9.08255
▁ئاگر	-9.08311
▁ملک	-9.084
):	-9.08449
▁Ra	-9.08535
▁چاکتر	-9.08548
ای	-9.08564
▁ندێک	-9.0861
▁Ş	-9.08919
اته	-9.08999
▁ئێش	-9.09038
▁destê	-9.09065
▁ڕێز	-9.09212
kî	-9.09383
ba	-9.09611
van	-9.09737
بێ	-9.09848
ست	-9.10003
▁tête	-9.10074
ak	-9.10118
▁شاره	-9.10228
▁شته	-9.10428
▁kesên	-9.10529
ate	-9.1059
▁Ber	-9.10706
وت	-9.10779
▁هر	-9.10792
▁لەم	-9.10841
▁خشن	-9.10886
▁کتر	-9.11023
▁گرن	-9.1127
bûn	-9.11318
▁In	-9.11352
▁کانیش	-9.11386
لی	-9.11445
kar	-9.11633
▁مکاران	-9.11768
▁بکەین	-9.11858
▁malpera	-9.11918
▁باش	-9.1194
▁دیار	-9.11961
▁خزم	-9.12127
un	-9.12164
▁ف	-9.12461
▁مانه	-9.12609
▁یەک	-9.1265
▁چن	-9.12706
▁xizmeta	-9.12764
▁dikarî	-9.12994
▁U	-9.13151
▁Ba	-9.13363
6	-9.13402
▁باسی	-9.13436
▁ti	-9.13477
▁كات	-9.13478
▁دەکەن	-9.13551
▁st	-9.13639
▁dixwazin	-9.1376
▁جیاواز	-9.13969
▁hewce	-9.14134
ze	-9.14216
▁To	-9.1422
▁pêşkêş	-9.14256
vi	-9.14456
ad	-9.14559
▁bidin	-9.14567
▁تەنها	-9.14581
▁بانگ	-9.14614
zî	-9.14622
▁بۆچی	-9.14622
▁گومڕا	-9.14641
▁مردن	-9.14771
▁ردگارم	-9.14806
▁11	-9.14916
▁kanala	-9.15067
▁پاک	-9.15308
▁لێد	-9.15385
▁خواردن	-9.15405
▁پێد	-9.15416
▁ژن	-9.15426
▁هۆز	-9.1545
▁وابوو	-9.15484
▁@	-9.15536
]	-9.15644
▁گرت	-9.15695
▁جێی	-9.15764
▁رمانب	-9.15922
▁شیان	-9.16014
pa	-9.16327
▁مووی	-9.16354
▁xwedî	-9.16483
▁16	-9.16502
▁giştî	-9.16588
iyek	-9.16616
▁بووین	-9.16769
▁r	-9.16807
▁کرێن	-9.17048
▁navbera	-9.17179
▁vekirî	-9.17199
20	-9.17303
نە	-9.17357
▁رپا	-9.17378
▁هاوار	-9.17426
▁رنج	-9.1744
va	-9.17447
ji	-9.17476
▁بۆیە	-9.17515
▁زوو	-9.17528
ik	-9.17653
▁avê	-9.17689
go	-9.17692
em	-9.17695
▁nava	-9.1773
▁فێر	-9.17733
10	-9.17756
is	-9.17777
eyê	-9.17801
50	-9.17802
▁ڕیزی	-9.17843
▁دەر	-9.17876
▁gor	-9.17906
▁نیشت	-9.17954
▁سوود	-9.1796
▁Al	-9.18005
▁Ç	-9.18067
ser	-9.18184
▁رن	-9.18275
▁بەر	-9.1839
▁چاکی	-9.18451
▁موعجیز	-9.18482
▁بانه	-9.18662
▁Ewropayê	-9.18715
Comment	-9.18881
▁نابن	-9.19032
▁°	-9.19126
▁ava	-9.19148
▁کاره	-9.19205
▁ئەوان	-9.19244
▁خۆر	-9.19253
ع	-9.19466
سی	-9.19541
▁1.	-9.19542
://	-9.19659
▁ڕازی	-9.19671
▁ستن	-9.19709
▁dem	-9.19736
J	-9.19789
▁Y	-9.20004
▁Heke	-9.20024
▁ڕا	-9.20037
▁تاقی	-9.20241
▁چونکە	-9.20314
پێکەنین	-9.20349
▁تیان	-9.20434
▁roj	-9.20618
▁بخ	-9.2063
▁ئاگری	-9.20653
مە	-9.20661
▁ئاین	-9.20676
▁ربه	-9.20752
▁باره	-9.21093
▁Le	-9.21293
▁واوی	-9.21334
▁دامه	-9.21618
00	-9.21797
ia	-9.21869
انەی	-9.21878
▁هێنێت	-9.21933
▁بڵاو	-9.21967
pe	-9.21983
▁Piştî	-9.22036
mo	-9.22271
ers	-9.22281
▁کاتێکیش	-9.22359
▁DVB	-9.22618
▁Kar	-9.22632
▁یارم	-9.22659
▁جیا	-9.2269
▁and	-9.23096
du	-9.23106
▁No	-9.23167
and	-9.23434
▁نام	-9.23489
▁hatin	-9.23559
▁کام	-9.23699
ft	-9.23765
▁rêya	-9.2381
▁Be	-9.2386
▁bandor	-9.23992
▁dûr	-9.24051
▁کۆم	-9.24075
▁gorî	-9.24086
ga	-9.24298
ng	-9.24319
ap	-9.24474
▁یوسف	-9.24611
înê	-9.24683
دار	-9.24712
▁bînin	-9.24886
▁tune	-9.24902
▁satelîtê	-9.24952
▁پیاو	-9.24976
▁ناب	-9.2509
▁رچاو	-9.25253
▁Î	-9.25387
▁زام	-9.25562
▁موویان	-9.25712
9	-9.25715
ۆن	-9.25729
▁Na	-9.25816
▁2016	-9.25827
▁hîn	-9.25901
ki	-9.25901
زانی	-9.26119
ina	-9.26308
▁b	-9.26401
▁La	-9.26414
▁سێك	-9.26415
؛	-9.26455
▁هەست	-9.26698
▁Der	-9.26724
▁بین	-9.26726
▁بم	-9.26744
▁ناس	-9.26751
▁تاوانبار	-9.26771
▁وانی	-9.26915
▁لێخۆشبوو	-9.26921
îl	-9.26943
▁تانه	-9.26951
▁caran	-9.2699
▁ڕاستیدا	-9.27007
داو	-9.27128
▁کیان	-9.2732
▁per	-9.27438
▁بوونی	-9.27653
▁شم	-9.27739
▁خشش	-9.27775
▁خشین	-9.27789
▁یەکەم	-9.27796
xe	-9.27798
▁باڵاد	-9.27821
▁منیش	-9.27903
▁--	-9.27952
kê	-9.28071
▁کەم	-9.28077
▁Hemû	-9.28098
▁ئیسلام	-9.28282
خۆ	-9.28315
ەن	-9.28344
▁مار	-9.28358
▁m	-9.28376
▁دوایی	-9.28379
کار	-9.28459
▁جۆر	-9.28469
ێكی	-9.28512
no	-9.28544
▁بکەن	-9.2857
▁کەواتە	-9.28638
▁ساڵی	-9.28676
▁مرۆڤ	-9.28812
▁خوێن	-9.28817
▁ژار	-9.28853
▁pêşniyar	-9.29055
▁yan	-9.29197
fe	-9.29198
▁ئاوا	-9.29271
▁pergala	-9.29437
çe	-9.29521
sk	-9.29552
co	-9.29786
▁ژ	-9.30042
lu	-9.30042
ca	-9.3011
andina	-9.30274
▁derbas	-9.30315
▁تریش	-9.30336
بەر	-9.3043
îk	-9.30472
▁کاروکرد	-9.30487
▁gelemperî	-9.30514
AN	-9.30521
با	-9.30529
▁لێپرسین	-9.30605
▁دار	-9.30699
Z	-9.30734
▁ئایند	-9.30787
▁Ve	-9.30864
je	-9.30866
▁ناح	-9.30933
▁çêkirin	-9.30933
▁jê	-9.31008
▁!!	-9.31169
▁kanalên	-9.31176
▁کوڕ	-9.31181
▁kontrol	-9.31182
▁دروستی	-9.31324
▁کۆتایی	-9.31364
ووه	-9.31382
▁نێت	-9.3144
mî	-9.31498
▁ستیان	-9.31535
▁hilbijêre	-9.31604
▁weşana	-9.31649
ti	-9.31671
▁دڵی	-9.31714
▁bar	-9.3174
▁بت	-9.31784
lan	-9.31888
▁kom	-9.31954
▁كار	-9.31974
پێ	-9.3206
▁Pro	-9.32222
▁رست	-9.32238
iz	-9.32253
▁بکرێت	-9.32318
ner	-9.32334
رێن	-9.32382
▁ویست	-9.32471
▁دێن	-9.32484
▁ختی	-9.32558
▁salan	-9.32605
▁Si	-9.32671
▁Pêş	-9.32804
▁ئاینی	-9.32943
tor	-9.33079
وون	-9.33102
▁Ka	-9.33164
زی	-9.33471
▁ڕێک	-9.33623
▁do	-9.33669
▁بەکار	-9.33717
han	-9.33906
▁پێویست	-9.34017
▁هیچی	-9.34042
▁pêwîst	-9.34059
▁لەبەر	-9.34064
▁hêza	-9.34082
ho	-9.34155
od	-9.34307
▁berdewam	-9.3438
▁Do	-9.34403
ton	-9.34417
▁J	-9.34424
▁free	-9.34476
▁هەندێک	-9.34719
▁çar	-9.34827
▁سو	-9.34922
▁hatî	-9.34925
ay	-9.34965
▁كاتێك	-9.34999
▁kes	-9.35011
▁dijî	-9.35015
▁ما	-9.35017
▁0	-9.35256
▁نوێ	-9.35365
ni	-9.35441
▁hemî	-9.3548
▁بکەم	-9.35613
▁z	-9.35788
▁پێویستە	-9.35833
▁زانستی	-9.35847
▁hêsan	-9.35852
▁پێبه	-9.35966
وات	-9.36116
11	-9.36168
▁for	-9.36323
ts	-9.36397
▁بترسن	-9.36501
▁کردنه	-9.36887
▁Mi	-9.36895
▁رموێت	-9.36947
دانی	-9.37011
اڵ	-9.37018
▁باران	-9.37247
جا	-9.37269
tin	-9.37367
▁تێک	-9.37484
می	-9.37491
▁دەکرد	-9.37707
▁Nav	-9.37988
▁çalak	-9.38052
▁color	-9.38111
▁d	-9.38251
▁چوار	-9.38295
▁یاری	-9.3836
▁توانای	-9.38396
▁بڕیاری	-9.3844
▁25	-9.38502
تی	-9.38517
▁خست	-9.38649
▁»	-9.38652
▁کەس	-9.38744
▁ڕۆژێک	-9.38752
▁ورات	-9.38759
▁چوون	-9.38774
▁رمووی	-9.38779
▁sîstema	-9.38955
▁ومی	-9.39147
▁سانێک	-9.39156
ەک	-9.39194
▁jêr	-9.39307
▁girtin	-9.39342
▁رداری	-9.39355
înin	-9.39544
▁cihê	-9.39562
os	-9.39647
▁hilberîna	-9.3965
▁رمه	-9.39678
bo	-9.39715
▁بچن	-9.39824
-2	-9.39904
▁100	-9.40146
▁ئاگا	-9.40264
▁كی	-9.40537
▁gel	-9.40602
ov	-9.40665
▁دەی	-9.4084
اری	-9.40847
▁he	-9.40873
yek	-9.41131
کو	-9.41262
یشی	-9.41264
▁كانی	-9.41325
▁ج	-9.41358
▁ko	-9.41556
▁پیلان	-9.41601
▁saz	-9.4162
▁ڕاد	-9.41621
▁هانا	-9.41758
▁parastina	-9.41824
▁ناڕ	-9.41845
▁derbarê	-9.41983
▁سۆز	-9.42118
▁هاتووه	-9.42126
▁درێت	-9.42307
."	-9.42449
yar	-9.42462
▁دڵنیا	-9.42521
ko	-9.42571
▁17	-9.42617
▁kontrola	-9.42713
bû	-9.42735
▁بانی	-9.4275
▁şîrketa	-9.42846
▁نارد	-9.42955
▁نموونه	-9.43
up	-9.43039
ال	-9.43048
ow	-9.43062
▁نایه	-9.43357
▁رانه	-9.4345
▁بار	-9.43468
▁rûpel	-9.43475
▁هاتن	-9.43584
ss	-9.43668
▁وڵات	-9.43811
▁pey	-9.43818
▁یاد	-9.43821
▁ni	-9.43857
ئا	-9.44017
ەکەم	-9.44074
▁دانایه	-9.44091
▁paqij	-9.44364
▁Mar	-9.4446
▁نازانن	-9.44463
اند	-9.44484
▁گوفتار	-9.44495
kêş	-9.44508
tan	-9.44529
▁پەیوەندی	-9.44547
▁is	-9.44573
ut	-9.44579
age	-9.44776
ev	-9.448
▁2.	-9.44804
ێر	-9.44877
▁ş	-9.44948
▁Mo	-9.44964
▁rû	-9.44969
ەند	-9.4507
gi	-9.45089
ما	-9.45139
▁berî	-9.45194
▁مێشک	-9.45258
men	-9.45358
▁ڵێت	-9.45366
▁piştgiriya	-9.45486
▁خواناس	-9.45526
▁خۆن	-9.45687
▁خێزان	-9.45697
▁نزیک	-9.45699
▁zanîn	-9.45732
▁زراو	-9.45805
▁alîkariya	-9.45859
▁پاداشت	-9.45859
▁درێژ	-9.45895
▁Ku	-9.45905
ît	-9.4592
▁زیان	-9.45949
▁paşê	-9.46088
land	-9.46114
▁We	-9.4615
▁mirov	-9.46198
اس	-9.46239
▁hez	-9.46317
▁ئای	-9.46338
▁14	-9.46409
▁دواتر	-9.46423
do	-9.46498
▁جیهانی	-9.46509
▁نج	-9.46535
▁wir	-9.46644
چی	-9.46717
ڕا	-9.46718
▁نگی	-9.46731
▁hê	-9.46744
îst	-9.46782
mê	-9.46803
rû	-9.46825
▁بات	-9.46866
▁Android	-9.46966
▁teknîkî	-9.47072
کاری	-9.47092
ex	-9.47143
▁وتوو	-9.47245
کا	-9.47285
şe	-9.47328
▁·	-9.47387
گە	-9.47417
▁چاوی	-9.47525
▁تۆمار	-9.47554
▁روون	-9.47711
ەیەکی	-9.47945
▁Da	-9.48005
▁ڕای	-9.48091
tê	-9.48131
▁on	-9.48137
▁لەوانەیە	-9.48261
▁New	-9.48265
▁hejmara	-9.48309
▁rêz	-9.4831
رو	-9.48423
▁تاڵ	-9.4863
▁پشتیوانی	-9.48717
▁ناتوانن	-9.48792
jî	-9.48799
ۆک	-9.48805
▁بگرن	-9.48908
▁ستان	-9.48934
▁وای	-9.4903
داوه	-9.49114
▁دانه	-9.49219
گی	-9.49283
▁Yekbûyî	-9.49338
▁50	-9.49607
▁hi	-9.4969
▁هەڵ	-9.49697
▁خش	-9.49698
▁باشە	-9.49778
ı	-9.49819
▁خۆشه	-9.49858
wer	-9.49967
▁Bersiv	-9.49991
po	-9.50024
ant	-9.50151
▁amade	-9.50158
▁pere	-9.50177
▁Çînê	-9.50226
▁نوح	-9.50323
▁دووڕوو	-9.50334
▁پێمان	-9.50341
▁چاوپۆشی	-9.50391
زه	-9.50434
▁h	-9.50519
ەکی	-9.50724
▁Ger	-9.50766
san	-9.50928
▁standard	-9.50973
▁Xane	-9.50999
▁temamî	-9.51011
▁Ha	-9.51074
ayê	-9.51138
▁Nû	-9.51141
▁hema	-9.51197
ting	-9.51248
▁xwarinê	-9.51329
dana	-9.5137
▁هەروەها	-9.51428
▁Gelek	-9.51541
30	-9.51614
▁هەبوو	-9.51642
ster	-9.51697
▁#	-9.51743
▁malperê	-9.51843
دایه	-9.51871
▁باشتر	-9.51893
یشمان	-9.51983
▁پێناوی	-9.51989
▁Min	-9.52125
met	-9.52135
کات	-9.52171
▁cih	-9.52307
▁ڵب	-9.52315
▁Du	-9.52383
▁pi	-9.52408
dem	-9.5245
▁w	-9.52474
▁کراو	-9.52513
yeke	-9.52562
işt	-9.52568
▁وێ	-9.52678
fa	-9.5271
tîk	-9.52733
▁o	-9.52777
▁یەکێک	-9.52785
om	-9.52819
est	-9.52851
zan	-9.5296
▁کۆڵ	-9.52976
ەیەک	-9.53001
ana	-9.53017
TV	-9.53051
Q	-9.53159
▁نرخ	-9.53193
▁گ	-9.53198
▁تۆش	-9.5325
▁bawer	-9.53253
ەیە	-9.5331
ایی	-9.53383
day	-9.53522
▁زۆری	-9.53566
▁xweş	-9.5361
▁peyda	-9.53613
▁شار	-9.53883
▁بگرێت	-9.53899
جار	-9.54168
▁îro	-9.54184
ران	-9.54222
▁رچ	-9.54261
▁دڵنیابن	-9.54294
▁tiştên	-9.54301
▁Best	-9.5435
لێ	-9.54423
▁design	-9.54446
گا	-9.54508
▁v	-9.5452
▁شوێنه	-9.54574
▁biçûk	-9.54823
▁رد	-9.54965
رێ	-9.55102
▁زمان	-9.55158
▁si	-9.55178
ۆر	-9.55263
▁بیس	-9.5537
şa	-9.55429
▁پیاوان	-9.55612
▁پێم	-9.55679
ەدا	-9.55761
▁کوێ	-9.55788
▁کافران	-9.55976
Ê	-9.56069
▁jiyana	-9.56113
-4	-9.56146
▁ندێك	-9.56151
▁زانست	-9.56173
▁ڕێی	-9.56189
▁no	-9.56209
ڕی	-9.56383
▁Sp	-9.5645
ona	-9.56488
▁مڕۆ	-9.56498
▁بەم	-9.56546
▁کانمان	-9.56577
▁Niha	-9.56622
More	-9.56682
▁دەربارەی	-9.56683
▁پاکی	-9.56758
▁هتد	-9.568
▁وترێت	-9.5682
▁Yek	-9.5689
▁ڵێنی	-9.56899
▁bigirin	-9.56919
بار	-9.56926
دوای	-9.56981
rîn	-9.57055
اندا	-9.57076
▁bingehîn	-9.57164
▁Xwe	-9.57191
▁...]	-9.57218
ment	-9.57229
şê	-9.57423
▁Ko	-9.57486
▁پۆل	-9.57538
▁هێشتا	-9.57657
ie	-9.57699
▁dibêje	-9.57745
ph	-9.57785
▁جیاوازی	-9.57796
▁kiriye	-9.57832
▁خوار	-9.57915
anî	-9.57925
▁bêyî	-9.57946
پی	-9.57949
ket	-9.57985
▁یانوت	-9.58054
ێنین	-9.58126
▁Mezin	-9.58215
▁سانی	-9.58251
شه	-9.5834
▁derê	-9.58415
یشیان	-9.58573
▁چین	-9.58622
▁بکەیت	-9.58629
▁سوور	-9.5874
▁بیان	-9.58903
▁تێد	-9.58945
ور	-9.58998
▁dikim	-9.59058
▁بێگ	-9.5906
▁pro	-9.59065
▁nas	-9.59142
▁2013	-9.59173
▁مانگ	-9.59286
▁بانگه	-9.5929
بین	-9.59291
kir	-9.59422
▁بێدار	-9.59455
▁یدا	-9.59509
▁al	-9.59515
▁پای	-9.59526
▁firotanê	-9.59542
زا	-9.59574
▁plan	-9.59621
12	-9.59634
şt	-9.59716
▁bazirganî	-9.59739
ity	-9.59778
▁کدا	-9.59784
▁Navê	-9.59793
mi	-9.59848
▁زار	-9.5989
▁کچ	-9.59921
▁car	-9.6005
▁پارچ	-9.60095
▁Navenda	-9.60105
▁گەورە	-9.60293
pê	-9.60303
▁azad	-9.60389
▁ڵکینه	-9.60405
dê	-9.60423
îr	-9.6045
▁زا	-9.6046
▁ç	-9.60496
وس	-9.60508
hê	-9.60513
▁Eger	-9.60642
▁ندێکی	-9.60737
son	-9.60782
▁دژی	-9.60854
▁داوا	-9.6101
کاتێک	-9.61038
▁ریاندا	-9.61042
▁نای	-9.61147
ez	-9.61164
▁awayekî	-9.61166
▁بۆت	-9.6118
▁دین	-9.61324
ip	-9.6135
▁giran	-9.61413
one	-9.61414
▁MPEG	-9.61418
kin	-9.61476
sê	-9.61496
▁رزه	-9.61667
▁kêmtir	-9.61682
▁گرنگ	-9.61727
▁kurt	-9.61746
▁ردان	-9.61759
▁le	-9.6177
▁ماڵی	-9.61786
tal	-9.61788
رد	-9.61806
ler	-9.62039
ڵی	-9.62136
▁Bike	-9.62199
▁ڵاڵ	-9.62259
▁Ya	-9.62279
▁dîsa	-9.62284
▁by	-9.62289
▁پاڵ	-9.62351
▁teknolojiya	-9.62354
▁Ta	-9.62359
▁زان	-9.62461
▁ماڵات	-9.62712
▁ئاسان	-9.62714
کی	-9.62838
▁چوو	-9.629
▁دیاریکراو	-9.62991
geha	-9.62993
ووە	-9.63027
ەش	-9.6304
▁تری	-9.63081
پا	-9.63097
▁بەرز	-9.63146
تۆ	-9.63332
60	-9.63361
ron	-9.63384
▁pêvajoya	-9.63488
▁ڵێ	-9.6353
▁زڵ	-9.63561
▁کێک	-9.63596
▁test	-9.6362
bîn	-9.6362
vê	-9.63722
▁لام	-9.63789
١	-9.63812
▁بەردەوام	-9.63981
▁کردۆت	-9.64092
▁کوڕی	-9.64129
▁mo	-9.64156
▁نیگا	-9.64158
▁ناخۆش	-9.64234
▁destpêkê	-9.64299
rd	-9.64342
IN	-9.64352
▁رنجی	-9.64423
hi	-9.64452
▁بخۆن	-9.64466
▁Xwedê	-9.64495
▁paş	-9.64506
ح	-9.64562
▁پێو	-9.64627
▁Sa	-9.64643
▁cara	-9.64693
▁تم	-9.64714
▁خۆیدا	-9.64841
▁گیر	-9.64853
▁mu	-9.64886
ep	-9.64903
ێکیان	-9.65074
تە	-9.65117
یەوە	-9.65193
▁فێری	-9.6525
▁berbiçav	-9.65251
▁شاراو	-9.65289
▁بەسەر	-9.65345
▁belê	-9.65349
▁hwd	-9.65379
▁مێ	-9.65478
si	-9.6553
ER	-9.65542
ist	-9.65565
ییەکان	-9.65765
▁بینن	-9.65874
▁ئیسرائیل	-9.65892
sp	-9.65893
▁bonus	-9.65894
گر	-9.66069
▁باوکی	-9.66125
▁چێت	-9.66285
▁رفراز	-9.66303
▁ریک	-9.66332
رە	-9.66446
ey	-9.66449
▁ڕاو	-9.6646
▁ناهێنن	-9.6654
▁j	-9.66589
▁کردبێت	-9.66662
▁germ	-9.6667
▁رامۆش	-9.66694
▁زووی	-9.66717
▁هەمان	-9.66732
▁درووست	-9.66777
bin	-9.66835
if	-9.66945
▁ورد	-9.67039
▁مکار	-9.67045
▁بڕ	-9.67111
=	-9.6716
▁قیق	-9.67269
▁alavên	-9.67319
رۆ	-9.67342
▁رزی	-9.67367
▁berfireh	-9.67455
qu	-9.67541
▁nayê	-9.67622
▁پشتی	-9.67641
وا	-9.67792
▁رم	-9.68113
able	-9.68194
mer	-9.68224
▁Car	-9.68267
▁tiştek	-9.68281
ێکدا	-9.68293
▁la	-9.68295
▁سوودی	-9.68324
▁گوێر	-9.68329
▁lêkolîn	-9.68387
▁tim	-9.68448
▁رستی	-9.6845
▁ژوور	-9.68509
▁Dr	-9.68556
▁Divê	-9.68599
▁post	-9.68624
▁awayî	-9.6863
▁ژیر	-9.6881
▁دارو	-9.68819
▁سوژ	-9.68843
ڤ	-9.68846
hev	-9.68886
▁دەکەین	-9.6903
▁ترسی	-9.69065
▁2020	-9.69173
▁دادپ	-9.69206
▁hewl	-9.69221
▁video	-9.69225
▁nêzîkî	-9.69309
▁بپ	-9.69366
erê	-9.6942
▁bîne	-9.69499
rs	-9.69506
یک	-9.69558
▁hinek	-9.6961
▁hil	-9.6971
▁riya	-9.69789
ku	-9.69823
bûnê	-9.69829
▁رچوو	-9.69956
▁ڵكی	-9.69958
ks	-9.69995
▁داو	-9.70006
Û	-9.70044
▁بڕاو	-9.70128
▁بهێنێت	-9.70135
▁Lo	-9.70202
▁واڵی	-9.70207
ێته	-9.70314
▁گشتی	-9.70325
▁خێرا	-9.70382
▁چار	-9.70439
▁تیادا	-9.70469
▁ئۆ	-9.70529
ck	-9.70574
yon	-9.70634
▁لێخۆشبوون	-9.70755
▁Play	-9.70764
ەوێت	-9.70787
▁Giştî	-9.70904
▁asta	-9.7091
▁هی	-9.70926
▁نێوانیاندا	-9.7096
0	-9.70998
▁şer	-9.71025
ö	-9.71174
▁!	-9.71209
کۆ	-9.71242
▁بینیت	-9.71257
▁derve	-9.71375
▁qe	-9.71389
ü	-9.71418
▁بیرو	-9.71578
▁فێڵ	-9.71594
▁t	-9.71607
وێ	-9.71624
▁خۆگر	-9.71645
▁mi	-9.71676
qa	-9.71819
ah	-9.71825
ەری	-9.71894
ۆش	-9.71966
▁نگان	-9.72014
یەکان	-9.72029
▁شتێکدا	-9.72048
▁rojan	-9.72079
-1	-9.72124
جی	-9.72205
▁Bikaranîna	-9.72262
▁پووچ	-9.72265
▁27500	-9.72267
êr	-9.72343
▁hêsanî	-9.72363
mp	-9.72376
▁Wekî	-9.7247
▁ڕێزی	-9.72534
▁زانا	-9.72653
▁anîn	-9.72657
▁چاودێری	-9.727
sên	-9.72817
▁ئاوی	-9.72824
▁bernameyên	-9.7289
▁hest	-9.72939
ru	-9.72973
▁خشیوون	-9.72992
gu	-9.73024
ide	-9.73035
▁ئاوه	-9.73036
▁قورس	-9.73368
▁Ke	-9.73381
danê	-9.73382
▁گومڕایی	-9.73567
▁ستایش	-9.73621
vî	-9.73698
16	-9.73759
▁ئیش	-9.7377
ییە	-9.738
▁3.	-9.73821
▁bingeha	-9.73984
▁karê	-9.74223
▁پشتیوان	-9.74291
▁nimûne	-9.74342
▁22	-9.74379
▁حی	-9.74383
▁ڕووبار	-9.7452
اوی	-9.74605
▁piçûk	-9.74622
▁ندن	-9.74649
▁دیهێن	-9.7471
▁hem	-9.74713
▁Train	-9.74732
▁dan	-9.74745
alî	-9.74822
ff	-9.74834
▁ماشا	-9.74866
▁Ar	-9.74977
▁afirandin	-9.75005
▁ڵای	-9.75041
80	-9.75242
pi	-9.75264
زان	-9.75295
▁Çawa	-9.75333
▁تانی	-9.75344
▁So	-9.75385
کەی	-9.75402
▁çêkirina	-9.75406
▁جوانی	-9.75444
▁خوایان	-9.7549
▁پاك	-9.755
▁بوای	-9.75516
▁weke	-9.75569
▁biryar	-9.75583
let	-9.75697
▁ڕوات	-9.75743
eta	-9.75766
زە	-9.75781
▁dayîn	-9.75799
▁کرا	-9.75851
▁beşa	-9.76101
▁bikarhênerên	-9.76106
▁ئەمەش	-9.76203
▁Vi	-9.76234
کراو	-9.76244
▁tên	-9.76285
▁توانن	-9.76426
hat	-9.7644
▁Sal	-9.76444
▁bilî	-9.76464
▁خوایی	-9.76539
01	-9.76541
▁ردی	-9.76558
▁نجامداوه	-9.76668
▁کانم	-9.76674
yl	-9.76758
ab	-9.76764
▁تیشدا	-9.76835
▁دەکەم	-9.76839
▁info	-9.76894
▁erdê	-9.76905
▁ئێوە	-9.76916
دو	-9.76917
▁ڕن	-9.76951
ika	-9.7702
▁کانیدا	-9.77035
▁Lêkolîn	-9.77037
▁dora	-9.77062
▁Bitcoin	-9.77181
▁destpêkirin	-9.77246
▁یشتن	-9.77317
▁ha	-9.77335
wan	-9.7737
▁نزا	-9.7741
▁رێک	-9.77425
▁زاناو	-9.77467
▁bazara	-9.7747
▁i	-9.77503
▁زاندوو	-9.77512
mar	-9.77668
▁pispor	-9.77726
▁ewle	-9.77769
▁ساره	-9.77771
▁dîtina	-9.77802
▁dît	-9.77872
▁xizmetên	-9.77889
tu	-9.77909
▁2014	-9.7792
ive	-9.77935
den	-9.77988
hî	-9.78038
▁derveyî	-9.78067
▁mişterî	-9.78068
tên	-9.78149
ماندا	-9.7817
",	-9.78173
▁یش	-9.78194
▁رزو	-9.78226
▁قسە	-9.78254
▁ناکرێت	-9.78286
pt	-9.78519
▁گیان	-9.78609
▁bistînin	-9.78632
şî	-9.78788
▁up	-9.78799
fir	-9.78808
rên	-9.78819
▁roja	-9.7893
▁ئاسمانی	-9.7894
▁belav	-9.79013
یس	-9.79088
▁karanîna	-9.79097
▁co	-9.79097
▁بڵند	-9.79138
▁derman	-9.79222
▁هەبێت	-9.79236
ایە	-9.7925
dy	-9.79264
▁Berhemên	-9.79439
▁خدا	-9.79463
▁دو	-9.79499
▁ئاگایه	-9.79512
▁3/4	-9.79512
توانی	-9.79516
▁name	-9.79539
▁bihayê	-9.7959
▁qebûl	-9.79626
а	-9.79659
▁وایە	-9.79665
▁گوفتاری	-9.79785
▁qeyd	-9.7979
▁materyalên	-9.79826
▁پێتان	-9.79839
▁نوور	-9.79851
ەکانیان	-9.79917
▁Mu	-9.79963
▁وێنه	-9.80001
era	-9.80044
▁meha	-9.80049
سا	-9.8018
گێڕ	-9.80224
▁trênê	-9.80257
▁navdar	-9.80257
فر	-9.80376
ێش	-9.804
▁هەوڵ	-9.80403
▁وری	-9.80412
▁Tê	-9.80439
▁digerin	-9.8055
din	-9.80571
▁Go	-9.80656
▁شدا	-9.80747
مەوە	-9.8075
▁سیش	-9.80839
ahiya	-9.80852
▁باو	-9.80985
▁لێتان	-9.81023
نەوە	-9.81046
▁tînin	-9.81306
▁خۆیاندا	-9.81337
▁bîr	-9.81391
▁فر	-9.81441
port	-9.81464
▁بر	-9.81499
وم	-9.8151
▁rapor	-9.81577
▁هۆش	-9.81585
▁یارمەتی	-9.81604
بو	-9.81644
▁tr	-9.81746
-19	-9.81768
.00	-9.81788
▁منداڵان	-9.81812
▁داهاتوو	-9.81814
▁2015	-9.81828
کێش	-9.81914
▁رێکی	-9.82035
▁sp	-9.82116
▁کتێبی	-9.82228
ast	-9.82242
اوە	-9.82346
▁زەوی	-9.82353
wa	-9.82381
▁تیش	-9.82402
▁gotin	-9.82448
▁پارێزکار	-9.82482
ين	-9.8252
▁dixwazî	-9.82588
▁temam	-9.82635
▁Dewletên	-9.8266
▁نەخۆشی	-9.82661
▁avakirina	-9.82757
▁قینه	-9.82773
▁سین	-9.82782
▁رباز	-9.82795
ec	-9.82798
▁چاکترین	-9.82798
▁bajarê	-9.82847
▁نگه	-9.82893
▁ترسن	-9.82929
▁فا	-9.82975
▁نەبوو	-9.83074
▁ناتوانێت	-9.83113
▁so	-9.8312
▁مووان	-9.83138
40	-9.83164
▁هید	-9.83208
▁navenda	-9.83268
▁beşek	-9.83287
▁ریا	-9.83349
ian	-9.83376
▁salê	-9.83387
▁ستێر	-9.83411
▁hilberê	-9.83419
kên	-9.83447
▁60	-9.83511
▁ئاشکرایه	-9.83594
ayî	-9.83607
▁Google	-9.83726
▁herêmî	-9.83727
▁zelal	-9.83727
▁تووش	-9.83755
18	-9.8382
▁سوپاسگوزاری	-9.83839
▁ad	-9.83865
▁î	-9.83871
▁بوختان	-9.8388
emîn	-9.839
شە	-9.83926
▁فڕێ	-9.83947
»	-9.83949
fi	-9.83971
بڕ	-9.84177
▁بهێنه	-9.8418
▁fermî	-9.84192
▁خات	-9.84351
tirîn	-9.84386
bê	-9.8445
اد	-9.84457
▁jinan	-9.84499
▁Çi	-9.84545
▁pêşî	-9.8456
14	-9.84582
▁زیند	-9.84623
art	-9.84659
▁تریان	-9.84744
▁ڵاو	-9.84754
tiya	-9.84768
کەر	-9.84824
▁pe	-9.84825
▁çê	-9.84829
▁23	-9.84852
▁کارێکی	-9.84938
▁rasterast	-9.84964
▁خن	-9.84971
▁28	-9.84987
▁40	-9.85042
▁دەم	-9.85068
▁منداڵی	-9.85113
▁ئینسان	-9.8512
▁سەیری	-9.85134
ەنگ	-9.852
▁Wi	-9.85385
ویست	-9.85399
ەکانمان	-9.85408
▁pêdivî	-9.85432
▁بۆمان	-9.85474
▁gava	-9.85508
▁خەڵکی	-9.85512
15	-9.85576
تره	-9.85587
▁milyon	-9.85591
▁بردن	-9.85615
یەکە	-9.85723
▁şexsî	-9.85745
▁تەنانەت	-9.85745
▁وتوون	-9.85755
▁karta	-9.85789
xwe	-9.85799
▁fe	-9.85849
îd	-9.85898
▁sînor	-9.85902
▁کۆشک	-9.85907
▁nivîs	-9.85995
▁کەسێک	-9.86044
2.	-9.86186
▁Fi	-9.862
ینی	-9.86211
▁çû	-9.86392
▁بڵێن	-9.86447
ێتی	-9.86512
▁کاران	-9.86583
ئە	-9.86622
vo	-9.86653
cu	-9.86654
andî	-9.86685
تاندا	-9.86746
▁دژای	-9.86763
▁دەتوانین	-9.86776
▁Design	-9.86849
▁فامان	-9.86926
▁ندو	-9.86957
▁باوک	-9.86969
▁دەکرێت	-9.86997
▁plastîk	-9.87008
▁ڕۆ	-9.87023
istan	-9.87102
▁motor	-9.87179
▁Er	-9.87219
ja	-9.87247
şem	-9.87263
▁پێدا	-9.87266
▁eşkere	-9.87309
25	-9.87319
fer	-9.87357
▁تێك	-9.87554
▁ببین	-9.87567
مدا	-9.87609
les	-9.87631
▁ئارام	-9.8764
▁سبیحات	-9.87645
▁casino	-9.87645
▁ردوو	-9.87662
▁ger	-9.87686
▁تاوانباران	-9.87704
▁بیست	-9.87711
▁platform	-9.87722
▁ڕزگاری	-9.87724
▁ڕۆڵ	-9.87751
▁Nîşan	-9.87762
ight	-9.87764
ێڵ	-9.87793
▁belaş	-9.87805
▁lez	-9.87817
▁rojane	-9.87848
▁دڵه	-9.8785
▁ئازاری	-9.87872
av	-9.87896
nder	-9.87908
▁ژمار	-9.8791
eb	-9.87916
▁زاڵ	-9.87921
▁wateya	-9.87965
▁mêr	-9.8801
ۆڵ	-9.88015
▁karûbarê	-9.88028
▁bet	-9.88029
tic	-9.88089
▁چونك	-9.88094
▁پێشوو	-9.88275
▁ناگ	-9.883
اندن	-9.88353
▁بچووک	-9.88365
▁زات	-9.88369
▁پێویستی	-9.88393
▁Çûna	-9.88451
▁lîsteya	-9.88464
eka	-9.88539
▁herweha	-9.88609
▁guhertin	-9.88663
her	-9.8875
▁lo	-9.8881
▁(1	-9.88849
▁ke	-9.8886
▁وازی	-9.88892
▁مە	-9.88909
▁encamên	-9.88931
▁dizanin	-9.88933
ub	-9.88971
▁زن	-9.88997
▁po	-9.89008
یشدا	-9.89047
▁Îsa	-9.89104
▁جادووگ	-9.89153
▁Roja	-9.89169
▁rastîn	-9.89184
▁هێشت	-9.89207
ice	-9.89316
▁ch	-9.89333
cî	-9.8934
19	-9.8936
▁ڕۆژێك	-9.89393
mend	-9.89412
▁باوو	-9.89443
▁get	-9.89484
▁دەدات	-9.89495
dest	-9.89541
eng	-9.89641
کردنه	-9.89662
▁ئەی	-9.89674
net	-9.89678
▁4.	-9.89706
▁فریا	-9.89767
▁ro	-9.8989
AR	-9.90044
▁mîna	-9.90056
▁21	-9.90067
▁Paqij	-9.90072
▁کۆن	-9.90096
▁بەو	-9.90237
îz	-9.90241
▁vala	-9.90263
▁كو	-9.90308
▁تێبگ	-9.90382
tek	-9.90393
▁ceribandin	-9.90401
▁Gr	-9.90525
▁وەکو	-9.90549
▁شێت	-9.90557
▁l	-9.90568
▁civakî	-9.90599
دۆز	-9.9067
▁Dem	-9.90714
▁Rizgari	-9.90732
▁باری	-9.90831
▁در	-9.90866
▁rêjeya	-9.90895
▁JI	-9.90959
▁پیس	-9.90975
▁xwendekarên	-9.90999
▁games	-9.91007
▁ڕێت	-9.91019
lên	-9.91045
▁کافر	-9.91077
▁Rû	-9.91142
▁game	-9.91187
www	-9.91197
е	-9.91226
▁agahî	-9.91227
▁deng	-9.9126
ێکمان	-9.9132
▁Vê	-9.91329
▁FEC	-9.91411
▁پێچ	-9.91429
qe	-9.91527
▁خاک	-9.91581
az	-9.91673
▁serdana	-9.91679
)...	-9.91706
▁jor	-9.91744
ick	-9.91794
▁Po	-9.91795
▁çêtir	-9.91944
▁یا	-9.91947
▁quality	-9.92058
ten	-9.92175
▁spî	-9.92209
▁یاندنی	-9.92243
ish	-9.92247
فه	-9.92371
▁Per	-9.92372
▁download	-9.92393
▁5.	-9.92395
ۆت	-9.92429
▁ئاسووده	-9.9256
▁ئازاد	-9.92606
▁پله	-9.92642
▁بەرەو	-9.92665
▁بای	-9.92728
▁لاد	-9.92788
▁balkêş	-9.92903
▁go	-9.92911
▁doz	-9.92943
sion	-9.92944
▁بپارێزن	-9.92947
▁دراوه	-9.92957
▁رین	-9.92975
▁malê	-9.92985
▁bên	-9.93009
▁شیر	-9.93065
▁یب	-9.93221
▁شک	-9.93222
▁زمانی	-9.93272
▁وێڵ	-9.93347
▁Pê	-9.93354
▁وکات	-9.93369
▁tevahî	-9.93406
▁زاتێک	-9.9341
▁واڵ	-9.93438
▁کردووە	-9.93471
▁ماوەی	-9.93473
▁توانی	-9.93485
....	-9.9353
▁Fe	-9.93562
▁کێو	-9.93588
▁رپێچی	-9.93621
▁روونی	-9.93684
▁ئی	-9.93723
▁xebatê	-9.93756
▁bernameya	-9.93757
▁Stenbolê	-9.93874
▁Gu	-9.93887
▁کۆچ	-9.9389
▁کتان	-9.93957
ther	-9.94097
▁weşandin	-9.94106
▁operator	-9.94131
▁Bar	-9.94131
▁فراوان	-9.94166
▁تەنیا	-9.94178
▁baştir	-9.9419
way	-9.94195
خوا	-9.94252
▁مین	-9.94271
▁بچ	-9.94287
ste	-9.94289
بی	-9.94313
yayê	-9.94379
▁zarok	-9.94393
بیر	-9.94462
▁شیمان	-9.94467
▁mala	-9.94478
▁bûye	-9.94515
etê	-9.94544
che	-9.94547
▁پشتیان	-9.94561
▁sa	-9.94589
▁Bê	-9.94653
tt	-9.94653
jar	-9.94703
كرد	-9.94776
lat	-9.94829
ren	-9.9489
▁خوارد	-9.95022
▁ندێ	-9.95048
tina	-9.95366
▁şûna	-9.95404
▁رهات	-9.95414
▁cîh	-9.95451
ence	-9.95458
▁دڵیان	-9.95495
▁نیاز	-9.95523
65	-9.9556
▁bu	-9.95567
▁نێ	-9.95655
▁alîkarî	-9.95691
▁zû	-9.95711
lav	-9.95732
ڕاست	-9.95754
nav	-9.95773
AT	-9.95785
▁«	-9.95896
▁more	-9.95925
▁بینایه	-9.95944
▁guman	-9.95987
▁ئەنجام	-9.9601
▁ربگرن	-9.96017
▁Su	-9.96033
▁welatên	-9.96044
شتی	-9.96056
گرتن	-9.96076
▁zehmet	-9.9615
▁کردبوو	-9.96218
گۆ	-9.96221
▁دانا	-9.9627
▁xurt	-9.96327
▁nêzîk	-9.96339
▁kî	-9.9641
▁کۆشش	-9.96454
▁Ru	-9.96567
▁چارەسەر	-9.96637
▁rengê	-9.96669
▁Amerîka	-9.96793
▁here	-9.96817
▁جاڵ	-9.96842
stî	-9.96864
▁rojê	-9.96916
ray	-9.96964
xa	-9.97001
sta	-9.97056
▁گران	-9.973
21	-9.97372
▁profesyonel	-9.97376
ەتەوە	-9.9746
▁26	-9.97515
▁pa	-9.97547
▁veguhestin	-9.97556
نێ	-9.97587
▁sedema	-9.97601
sc	-9.97601
▁ڕاگ	-9.97622
▁tiştekî	-9.97646
tion	-9.97733
▁com	-9.97849
▁Navneteweyî	-9.97906
▁çarçoveya	-9.97906
ore	-9.97936
qî	-9.97944
ig	-9.97977
gan	-9.98038
▁Russian	-9.98084
▁کوێر	-9.98126
▁باڵ	-9.98148
24	-9.98185
ust	-9.98286
▁Ni	-9.98289
▁ژنان	-9.98297
▁hatibû	-9.9842
13	-9.98424
▁as	-9.9843
▁گەشە	-9.98446
hu	-9.98458
کرا	-9.98587
▁نائومێد	-9.98617
yn	-9.98639
▁بوێت	-9.98704
war	-9.98909
▁ڕووناکی	-9.98962
▁ڕازاوه	-9.98975
▁nehat	-9.98999
▁مێرد	-9.99003
▁herêma	-9.99009
بکه	-9.99112
17	-9.99121
▁ندێکیان	-9.99123
گای	-9.99151
▁LibreELEC	-9.99154
▁Windows	-9.99154
▁psîkolojîk	-9.99191
▁بێجگ	-9.99195
▁خواناسی	-9.99196
▁پێک	-9.99263
▁play	-9.99298
▁دووره	-9.99358
bêj	-9.99399
".	-9.99408
ture	-9.99497
▁بزانێت	-9.99558
▁metal	-9.9956
ێکم	-9.99591
▁زۆربەی	-9.99595
▁سات	-9.99688
▁wiha	-9.99699
▁telefonê	-9.99712
▁top	-9.9972
ans	-9.99758
▁یانکرد	-9.99783
▁ناوچ	-9.99785
▁=	-9.998
karî	-9.99808
▁بچوک	-9.9988
mal	-9.99934
كردن	-9.99939
▁دڵخۆش	-9.99957
دیار	-9.9996
▁OpenELEC	-10.0005
▁çiqas	-10.0006
شا	-10.0013
▁پیرۆز	-10.002
▁توانا	-10.0021
br	-10.0027
▁£	-10.0028
▁لەناو	-10.0029
رت	-10.003
22	-10.0035
▁ڕق	-10.0039
▁têkilî	-10.0042
47	-10.0053
▁لی	-10.0063
▁xwezayî	-10.0064
لۆ	-10.0065
girtina	-10.0068
▁ronahî	-10.0078
▁Hêza	-10.0082
NA	-10.0087
▁bank	-10.009
▁بووە	-10.0092
▁باڵند	-10.0097
چوون	-10.0117
▁تەواو	-10.0118
▁ئاستی	-10.0128
so	-10.013
▁دایه	-10.0137
tur	-10.0138
ell	-10.014
▁نیە	-10.0142
min	-10.0146
ET	-10.0148
▁لوط	-10.015
▁گوێی	-10.0152
▁ناسی	-10.0157
▁Fa	-10.0157
ava	-10.0157
name	-10.0162
▁action	-10.0164
tar	-10.0166
پێش	-10.0171
▁China	-10.0171
▁xêr	-10.0172
▁înternetê	-10.0175
▁رمی	-10.0185
▁Amerîkî	-10.0188
ies	-10.0196
bet	-10.0197
دەر	-10.0205
▁سامناک	-10.0207
▁rêwîtiyê	-10.0207
rt	-10.0207
▁LED	-10.0208
▁جوو	-10.0208
بوونی	-10.022
▁License	-10.0225
ion	-10.0232
▁دژ	-10.0234
ala	-10.0238
▁asteng	-10.0244
99	-10.025
▁Ad	-10.0252
23	-10.0256
kt	-10.0256
▁Ewropa	-10.0257
▁خاوێن	-10.0262
о	-10.0262
▁Qu	-10.0263
▁laser	-10.0264
nk	-10.0268
▁ڵدا	-10.028
▁داخ	-10.0283
kerê	-10.0286
▁ناخ	-10.0288
▁لێرە	-10.029
EN	-10.0299
▁فتار	-10.0312
▁ڕێگە	-10.0315
▁بەڕاستی	-10.0318
nivîs	-10.0325
▁ئێ	-10.0329
▁Serokê	-10.0329
▁سەیر	-10.0336
▁Pêşniyar	-10.0337
▁dawiya	-10.0337
▁kêfxweş	-10.0337
▁sporê	-10.0338
▁[1]	-10.0347
înî	-10.0358
mon	-10.0359
▁pîşesaziya	-10.0359
▁دوژمن	-10.036
ator	-10.036
▁ریك	-10.0361
ric	-10.037
asyona	-10.0374
▁binivîse	-10.0374
▁Pa	-10.0377
▁berhem	-10.0377
▁Free	-10.0379
▁ئاگاداربن	-10.038
▁درا	-10.0381
▁پاش	-10.0382
وین	-10.0392
▁ئامادە	-10.0393
▁گر	-10.0394
▁بینین	-10.0397
▁نادات	-10.0408
▁تێکی	-10.041
oo	-10.0411
ind	-10.0412
▁mobîl	-10.0412
ang	-10.0414
▁winda	-10.0416
▁برا	-10.0417
bir	-10.0418
از	-10.0422
▁ca	-10.0423
▁Ti	-10.043
▁پێدراوه	-10.0431
▁Taybet	-10.0438
گو	-10.0451
نگ	-10.0452
▁balafirên	-10.0453
▁جۆرە	-10.0456
▁title	-10.0463
▁رج	-10.0466
▁welat	-10.0474
▁En	-10.0475
mail	-10.048
▁weha	-10.0487
کردنەوەی	-10.0487
guh	-10.0488
▁tevahiya	-10.0488
▁گرنگی	-10.049
▁لاواز	-10.049
▁100%	-10.0493
▁tîne	-10.0495
لای	-10.0497
+	-10.0497
tter	-10.0498
anê	-10.0501
▁ڕام	-10.0515
▁یشت	-10.052
ڵه	-10.0522
gar	-10.0523
▁گۆڕ	-10.0524
▁ردگارمان	-10.0524
49	-10.0528
ning	-10.0531
org	-10.0533
▁هە	-10.0534
▁ئاشکراو	-10.0545
ag	-10.0546
▁fa	-10.0547
▁El	-10.0561
aya	-10.0563
▁Con	-10.0567
▁دەتوانن	-10.0583
▁خۆراک	-10.0585
▁ڕێگەی	-10.0585
ls	-10.0591
شیان	-10.0592
▁هۆکار	-10.0593
29	-10.0595
ەس	-10.0598
▁گوێڕای	-10.0602
▁ئاسایی	-10.0603
▁حەز	-10.0604
ڕۆ	-10.0609
ps	-10.0613
ەرە	-10.0616
mîn	-10.0618
▁heyî	-10.0625
ند	-10.0626
▁شوێنێک	-10.0631
▁ڕێنمووی	-10.0634
▁hewceyê	-10.0638
بر	-10.0641
▁hêvî	-10.0647
▁pirtûka	-10.0649
▁http	-10.066
من	-10.0662
▁kuştin	-10.0662
▁tomar	-10.0665
▁Wî	-10.0666
▁ئەوەش	-10.0672
▁قڵ	-10.0684
▁pakêta	-10.0686
▁Eutelsat	-10.0699
▁hişyar	-10.0699
▁IP	-10.0699
گار	-10.0708
▁dar	-10.0709
ax	-10.0714
▁قینی	-10.0716
▁بەرهەم	-10.0719
رن	-10.0721
▁hilberên	-10.0727
▁Ge	-10.0733
▁قی	-10.0734
mb	-10.0734
▁Gav	-10.0735
▁pelê	-10.0735
▁لەوە	-10.0736
su	-10.0737
▁بیستن	-10.0738
▁کاریگەری	-10.0742
▁şandin	-10.0743
rin	-10.0744
▁بڕوای	-10.075
الله	-10.0751
▁تای	-10.0757
ix	-10.0761
0,000	-10.0768
▁app	-10.0771
ven	-10.0774
é	-10.0777
lor	-10.0779
▁Çîn	-10.0784
ard	-10.0785
▁vi	-10.0785
▁zanîngehê	-10.0793
▁كردن	-10.0794
▁cur	-10.0794
▁warê	-10.0796
اف	-10.0798
▁rewşa	-10.0805
▁چەندین	-10.0805
▁راب	-10.0808
▁bikarhêner	-10.081
▁سوپاسگوزار	-10.0813
▁Gi	-10.0814
▁بنچین	-10.0815
▁29	-10.0817
▁ناپ	-10.0818
▁جو	-10.0821
▁دڵنیایی	-10.0822
ناو	-10.0824
▁Têkilî	-10.083
بون	-10.0831
500	-10.0835
▁pênc	-10.0836
▁ى	-10.0841
▁خو	-10.0843
▁بخات	-10.0846
ەکەت	-10.0854
ę	-10.0855
baz	-10.0866
▁Ri	-10.0866
▁باوەڕ	-10.0875
▁zimanê	-10.0876
▁ستایشی	-10.0883
▁کا	-10.0885
▁Bel	-10.0887
▁نیانه	-10.0889
90	-10.0894
▁تاک	-10.0899
ane	-10.0902
▁1,	-10.0904
▁elektrîkê	-10.0913
▁BİXWÎNE	-10.0914
▁hesab	-10.092
▁500	-10.092
▁لایان	-10.0922
▁xwediyê	-10.0923
فی	-10.093
▁لایەن	-10.0934
▁Îngilîzî	-10.0934
ite	-10.0939
▁شتە	-10.094
cl	-10.0941
ێنیت	-10.0946
ial	-10.0951
▁xe	-10.0952
خە	-10.0952
▁ردار	-10.0965
▁hilberîn	-10.0969
▁200	-10.0973
▁naveroka	-10.098
▁ئارامی	-10.0981
▁ئ	-10.0986
نەوەی	-10.0989
وح	-10.099
▁بکە	-10.0991
ct	-10.0996
66	-10.0997
▁rengî	-10.1002
04	-10.1002
hen	-10.1003
wî	-10.1012
▁Bilind	-10.1014
▁سەرەتا	-10.1015
▁dî	-10.1022
▁تیاچوون	-10.1023
▁seranserê	-10.1034
ele	-10.1035
▁خێرایی	-10.104
▁qa	-10.1046
AS	-10.1069
ikên	-10.1071
▁çêtirîn	-10.1071
▁سڵاو	-10.1074
▁panel	-10.1075
par	-10.1086
اب	-10.1087
▁ئایین	-10.1091
▁سێکی	-10.1091
zi	-10.1093
line	-10.1094
▁elektronîk	-10.1094
Bi	-10.11
▁گوێیان	-10.1102
نج	-10.1109
▁ناوه	-10.1124
▁PC	-10.1124
▁خوێند	-10.1127
▁BO	-10.1131
▁دەبن	-10.1132
ud	-10.1133
ێنم	-10.1136
▁©	-10.114
▁or	-10.1145
▁navîn	-10.1149
▁pêşîn	-10.1152
tra	-10.1156
▁گومڕای	-10.1157
ium	-10.1162
▁pola	-10.1164
▁شوێنێکی	-10.1167
▁Home	-10.1171
eyek	-10.1175
▁nikare	-10.1175
▁ڵك	-10.1176
▁گومانی	-10.1176
یانە	-10.1177
▁taybetmendiyên	-10.1179
lin	-10.1179
▁بته	-10.1185
ect	-10.1188
▁tişt	-10.1192
▁bikim	-10.1196
form	-10.1196
io	-10.1197
▁یارو	-10.1198
▁meh	-10.1207
.”	-10.121
▁pîşesaziyê	-10.121
xBet	-10.1216
ction	-10.1217
ahî	-10.122
▁ئاسانی	-10.1224
▁گە	-10.1231
▁وایان	-10.1231
Ş	-10.1232
îkî	-10.1235
▁qezenc	-10.1237
▁ڕیسوا	-10.1249
▁گو	-10.125
▁رچوون	-10.1256
▁Download	-10.1257
▁Ziman	-10.126
▁گۆڕانکاری	-10.1264
pl	-10.1266
سەر	-10.1268
▁encam	-10.1274
▁firotin	-10.1275
îs	-10.128
▁بریتی	-10.1281
▁شیمانی	-10.1281
▁Dî	-10.1283
▁dibin	-10.1294
pro	-10.1299
ڵە	-10.1301
▁گەشت	-10.1306
▁dewletê	-10.1306
las	-10.1308
▁hesabê	-10.1313
ۆی	-10.1315
▁Dest	-10.1315
▁mirovan	-10.1316
bu	-10.1317
▁خیان	-10.1319
ong	-10.132
▁salên	-10.1321
CoV	-10.1323
▁Rêveberiya	-10.1323
▁سول	-10.1324
ance	-10.1325
Di	-10.1328
▁بازرگانی	-10.1329
▁لێدان	-10.1331
set	-10.1335
▁ئارامگر	-10.1337
▁dibêjin	-10.134
▁ناردوو	-10.134
lf	-10.1348
roj	-10.1349
all	-10.135
▁Pe	-10.1351
▁beşdar	-10.1352
▁دڵنیاش	-10.1353
▁Kir	-10.1358
▁agahiyên	-10.136
▁Başûr	-10.1361
nt	-10.1362
▁Navîn	-10.1367
▁27	-10.137
▁وتنی	-10.137
▁malperên	-10.1372
سە	-10.1377
▁Mal	-10.1378
▁set	-10.1379
▁2012	-10.1384
ny	-10.1387
▁دنیاو	-10.1388
con	-10.1388
دڵ	-10.139
▁سانێك	-10.139
▁شێوەیە	-10.139
▁مامۆستا	-10.1402
▁veguhestina	-10.1403
▁گرتۆت	-10.1403
▁Rûsyayê	-10.1405
oka	-10.1409
ێز	-10.1412
wir	-10.1413
▁شاد	-10.1414
▁Par	-10.1416
▁مزگ	-10.1423
▁توانێت	-10.1425
▁bandorên	-10.1432
▁هێزی	-10.1432
▁Pol	-10.144
▁کمان	-10.1443
▁email	-10.1443
▁Parastina	-10.1446
▁dil	-10.1446
▁دەکەیت	-10.1446
▁daneyên	-10.1449
▁avakirin	-10.1451
زانن	-10.1451
▁کردار	-10.1457
▁Wek	-10.1463
▁machine	-10.1464
▁موجا	-10.1465
▁pişk	-10.1467
by	-10.1475
▁بیری	-10.1479
▁کاتێ	-10.148
▁رفرازی	-10.1481
▁Hejmara	-10.1481
▁en	-10.1483
▁پێویسته	-10.1484
▁navxweyî	-10.1485
▁serê	-10.1488
▁بوویت	-10.149
▁Nî	-10.1491
▁perwerdeya	-10.1491
زاته	-10.1496
▁خوێندن	-10.15
▁derxistin	-10.1504
▁Iraqê	-10.1506
AL	-10.1514
▁پێنج	-10.1516
▁تە	-10.1522
▁ھ	-10.1524
▁parçeyên	-10.1529
ەست	-10.153
▁تاو	-10.1536
▁avêtin	-10.1538
▁ho	-10.1545
▁دەرەوە	-10.1545
کەوت	-10.1549
▁KDE	-10.155
▁هاواری	-10.1554
▁didin	-10.1558
▁xwarin	-10.156
▁çalakiyên	-10.1563
▁xwendina	-10.1564
▁پێشک	-10.1565
▁reş	-10.1566
▁دەرکەوت	-10.1568
▁Niştimanî	-10.157
▁خشیوو	-10.1574
ۆس	-10.1576
▁qet	-10.1578
bit	-10.1583
وڵ	-10.1599
▁هێنین	-10.1601
▁Hat	-10.1602
88	-10.1603
▁pay	-10.1603
▁IPtv	-10.1612
▁ناوێت	-10.1613
کەم	-10.1615
▁موسڵمان	-10.1616
▁شان	-10.1619
▁girêdan	-10.1621
▁جێبه	-10.1622
غ	-10.1623
▁لاو	-10.1624
▁راه	-10.1624
▁داخوازی	-10.1635
▁ragihand	-10.1643
▁Deng	-10.1643
▁کیش	-10.1644
▁دابین	-10.165
▁https	-10.1661
حه	-10.1663
▁دڵنیاب	-10.1671
▁چاودێر	-10.1673
▁eşkereyî	-10.1678
▁Hin	-10.168
خۆش	-10.1682
ترس	-10.1688
▁کوفر	-10.1701
lik	-10.1702
▁بكات	-10.1702
▁mafê	-10.1704
▁şi	-10.1715
▁وایی	-10.1718
▁بەهۆی	-10.172
▁36	-10.1724
44	-10.1725
ینەوە	-10.173
▁ستدرێژی	-10.173
hr	-10.1733
گەی	-10.1734
خان	-10.1737
77	-10.1741
▁بدرێت	-10.1745
▁ڵبژارد	-10.1746
▁man	-10.1747
▁Ze	-10.175
▁سە	-10.1756
▁at	-10.1759
▁kesan	-10.176
işk	-10.1764
▁derfet	-10.1776
▁پێکه	-10.1779
▁bersiv	-10.1779
05	-10.1782
▁cam	-10.1788
▁biryara	-10.1789
rm	-10.1794
▁Bajarê	-10.1795
▁هەتا	-10.1801
▁شێواز	-10.1803
gr	-10.1804
▁hevdîtin	-10.1806
tinê	-10.1809
09	-10.1812
▁Pel	-10.1815
▁Hi	-10.182
nameya	-10.1828
85	-10.1829
▁زای	-10.1834
دن	-10.1846
▁nerm	-10.1848
▁normal	-10.1849
▁مای	-10.1859
-15	-10.1864
▁bal	-10.1867
lar	-10.1868
▁pîroz	-10.1871
ژی	-10.1874
ینە	-10.1874
▁نەک	-10.1885
▁دەنگ	-10.1889
▁diçe	-10.1892
▁Satellite	-10.1892
▁meriv	-10.1893
▁توندو	-10.1896
▁par	-10.1899
▁projeyên	-10.1904
ماڵ	-10.1905
▁روا	-10.1906
▁پێت	-10.1908
خواز	-10.191
▁destpêka	-10.1918
▁نن	-10.192
▁Wê	-10.1928
eh	-10.1932
▁yekemîn	-10.1932
bol	-10.1939
▁نداز	-10.1944
tiyê	-10.1944
▁ستێت	-10.1949
28	-10.1951
dariya	-10.1956
var	-10.1958
▁قوربانی	-10.196
▁digire	-10.196
▁وێنە	-10.1961
▁سنووری	-10.1977
ib	-10.1984
▁ـ	-10.1984
ret	-10.1986
▁ستهێنانی	-10.1989
یەتی	-10.2004
▁پیرۆزه	-10.201
▁Ca	-10.2014
bî	-10.2015
▁هێڵ	-10.2024
▁derbasdar	-10.2025
▁axa	-10.203
▁sazkirina	-10.2032
35	-10.2037
▁بێن	-10.2037
▁Sor	-10.2041
ڕو	-10.2041
▁CNC	-10.2046
▁ئامانج	-10.2047
tch	-10.2049
▁karsaziyê	-10.2055
خوای	-10.2056
▁firotina	-10.2061
▁Enigma	-10.2069
▁خۆڕاگر	-10.2069
▁چاکان	-10.2071
داری	-10.2072
TS	-10.2073
ase	-10.2074
▁چاویان	-10.2074
ibe	-10.2076
▁حاڵه	-10.2081
▁As	-10.2083
▁blog	-10.2083
▁دروستکراو	-10.2085
▁agahdariya	-10.2092
▁لووت	-10.2093
▁Pi	-10.2098
ول	-10.2101
▁31	-10.2103
▁ندان	-10.2119
▁kalîteya	-10.212
▁لەوەی	-10.2121
▁دروستکردنی	-10.2122
▁ئاوات	-10.2125
oc	-10.2128
ty	-10.2129
ikê	-10.2144
▁Roj	-10.2145
NE	-10.2147
zar	-10.2151
anîna	-10.2155
ens	-10.2156
▁فریای	-10.2162
res	-10.2164
چه	-10.2166
▁aborî	-10.2169
67	-10.218
▁doza	-10.218
▁فرستاد	-10.2181
▁داوێن	-10.2185
ral	-10.2191
ill	-10.2193
▁hişk	-10.2194
▁دیارد	-10.2195
▁لێک	-10.2196
ley	-10.2196
▁لێکراو	-10.2198
▁عاد	-10.2198
٥	-10.2201
▁danîn	-10.2202
ئینجا	-10.2208
ۆم	-10.2212
IR	-10.2214
stan	-10.2216
ترو	-10.2216
▁رگری	-10.2216
▁Wêne	-10.2219
geh	-10.2221
▁ڕێك	-10.2222
▁nî	-10.2222
▁kapasîteya	-10.2226
▁ferheng	-10.2226
▁Hê	-10.2227
▁پشتگیری	-10.2228
خات	-10.2231
-3	-10.2232
33	-10.2232
îyê	-10.2236
sen	-10.2244
▁dîjîtal	-10.2248
▁بانگی	-10.2249
▁عیسا	-10.2249
▁نزیکەی	-10.2251
▁باشترین	-10.2253
▁نال	-10.2258
▁نییه	-10.2261
▁Rê	-10.2262
▁qada	-10.2262
SA	-10.2266
▁veşartî	-10.2271
▁heya	-10.2272
27	-10.2272
▁têkildar	-10.2275
▁va	-10.228
IS	-10.2282
▁ملیۆن	-10.2284
darî	-10.2287
▁مووتان	-10.2288
▁kevir	-10.2288
▁hêsantir	-10.2289
▁نانی	-10.229
nameyê	-10.2295
ME	-10.2297
girtî	-10.2298
▁pirsgirêkên	-10.2299
07	-10.23
lek	-10.2305
▁بیروباو	-10.2305
mg	-10.2316
▁demjimêr	-10.2316
▁Mesîh	-10.2316
▁لادان	-10.2317
şik	-10.2321
کس	-10.2325
▁cryptocurrency	-10.2327
ous	-10.2335
▁دنیایه	-10.2336
▁amûrên	-10.2339
▁duyemîn	-10.2341
parêz	-10.2341
پارێز	-10.2341
cih	-10.2345
▁tiştê	-10.2345
▁تاریکی	-10.2353
▁hezar	-10.2355
▁کوشت	-10.2358
▁یادا	-10.236
▁وار	-10.2361
▁hêz	-10.2363
ەکاندا	-10.2365
▁Tirkiyeyê	-10.2366
îka	-10.2369
دەن	-10.237
▁دادو	-10.2382
▁gi	-10.2384
ibû	-10.2385
▁نێن	-10.2386
▁کوڵ	-10.2388
▁dixebite	-10.2391
اک	-10.2393
manî	-10.2403
▁نگن	-10.2404
▁Hev	-10.2405
of	-10.2407
▁سەرنج	-10.2411
▁مانگی	-10.2415
SS	-10.2421
▁saetan	-10.2422
▁زل	-10.2423
ach	-10.2424
▁Lu	-10.2431
▁بەهێز	-10.2432
▁مردوو	-10.2433
▁type	-10.2435
▁armanca	-10.2437
▁هێنان	-10.2442
كی	-10.2443
▁zarokên	-10.2448
▁کانت	-10.2452
▁ڕووخسار	-10.2454
MC	-10.2456
▁con	-10.2457
▁hilbijartin	-10.2457
▁بارودۆخ	-10.2467
▁زنجیر	-10.2477
▁بەڵکو	-10.2477
▁ئوم	-10.2478
saz	-10.2482
▁کانیاندا	-10.2483
▁can	-10.2483
PSK	-10.2499
▁موشریک	-10.2501
ara	-10.2501
sin	-10.2504
ەوەی	-10.251
▁Kurdistanê	-10.2515
riya	-10.2519
▁nivîsandin	-10.2522
iyeke	-10.2524
▁hundir	-10.2524
▁ریش	-10.2524
▁daxwazên	-10.2528
▁Dibe	-10.2532
▁bûyerên	-10.2532
îş	-10.2536
▁(1)	-10.2541
ure	-10.2543
▁pol	-10.2545
▁keç	-10.2547
pirs	-10.2547
70	-10.2548
▁بزان	-10.2548
اندنی	-10.2551
86	-10.2554
▁ساد	-10.2556
▁şaş	-10.2556
▁makîneya	-10.2559
▁Bal	-10.2561
▁bigire	-10.2562
len	-10.2567
واز	-10.2568
▁çêbikin	-10.257
lam	-10.2577
▁Bila	-10.2577
nas	-10.2583
▁ڕێزه	-10.2589
▁شارو	-10.2593
▁bacê	-10.2598
تێ	-10.2599
▁Web	-10.2602
▁Channel	-10.2609
▁درێن	-10.2611
▁ئاگاداری	-10.2611
MA	-10.2615
▁ewlehiyê	-10.2617
▁دووبارە	-10.2618
▁Ju	-10.2618
▁هیوا	-10.2621
▁jin	-10.2623
ھ	-10.264
yo	-10.2643
▁پاشا	-10.2645
pî	-10.2645
▁ئەمڕۆ	-10.2646
▁derket	-10.2653
▁pirsgirêk	-10.2656
▁q	-10.2657
jo	-10.2659
▁Ltd	-10.2665
▁پار	-10.2669
ەتە	-10.2676
▁سامانیان	-10.2678
▁drav	-10.2678
▁xelat	-10.2684
▁demeke	-10.2685
▁hevalên	-10.2686
▁kirine	-10.2688
▁نووس	-10.2688
▁Facebook	-10.2688
بەخش	-10.2688
▁بیم	-10.2689
▁pejirandin	-10.2696
▁کردوه	-10.2696
▁جێگیر	-10.2698
▁شێوازی	-10.2703
▁heke	-10.2703
▁pre	-10.2709
▁گاور	-10.271
▁Wezareta	-10.2717
▁گوت	-10.2729
▁ئاشکرای	-10.273
▁نادروست	-10.2731
▁tattoo	-10.2731
▁نزیکی	-10.2732
▁populer	-10.2736
ris	-10.2738
43	-10.2747
▁encama	-10.2748
▁هێنانی	-10.2759
▁dixwazim	-10.2759
▁كتێب	-10.276
▁هێناو	-10.2766
▁dane	-10.2771
▁daxwaza	-10.2775
▁نایان	-10.2775
▁درۆزن	-10.2783
ەخ	-10.2789
▁mînak	-10.279
▁جیهاندا	-10.279
▁key	-10.2792
▁Hu	-10.2796
▁ڕاستیان	-10.2796
ling	-10.2799
▁مایه	-10.28
02	-10.2804
▁piştgirî	-10.2807
▁90	-10.2809
هێنا	-10.2812
▁بەدەست	-10.2814
▁کراون	-10.2818
▁xizmetê	-10.282
▁بێزار	-10.2823
car	-10.283
▁زانین	-10.283
▁بچێژن	-10.2831
▁YouTube	-10.2831
▁ڕووداو	-10.2832
▁biyanî	-10.2832
ستی	-10.2833
▁daxistin	-10.2834
▁Tenê	-10.2836
▁زی	-10.2837
75	-10.2837
bûyî	-10.2841
▁جۆرێک	-10.2843
▁mas	-10.2844
▁guh	-10.2844
▁mezintir	-10.2846
▁داناوه	-10.2847
34	-10.285
ug	-10.2857
girtin	-10.2857
▁سنووره	-10.2861
▁ئاشكرا	-10.2861
▁endamên	-10.2861
▁دانایی	-10.2862
▁Kom	-10.2864
▁kon	-10.2867
gg	-10.2871
▁pel	-10.2876
▁am	-10.2879
95	-10.288
▁گیرا	-10.2883
▁دایکی	-10.2888
▁dengê	-10.29
▁برێن	-10.2901
▁blockchain	-10.2903
▁ماو	-10.2906
ular	-10.2908
است	-10.2911
▁werin	-10.2913
asyonê	-10.2922
▁ئاسانه	-10.2923
hy	-10.2926
▁Pergala	-10.2928
▁otomatîk	-10.2928
ویت	-10.2928
▁ھە	-10.2934
▁ترسێن	-10.2942
▁سامانی	-10.2945
▁rojên	-10.295
▁gund	-10.2957
▁Or	-10.2958
▁Ch	-10.296
▁fo	-10.2965
▁Hemî	-10.2969
ktor	-10.2969
کردووه	-10.297
▁Ex	-10.2979
▁ئومێد	-10.2982
xi	-10.2984
ەڕ	-10.2991
▁software	-10.3001
Li	-10.3003
ûl	-10.3005
▁sedî	-10.3007
▁baştirîn	-10.301
چە	-10.3015
▁ورو	-10.3015
▁OF	-10.3018
▁cûda	-10.303
▁€	-10.3031
RT	-10.3035
karên	-10.3036
Ma	-10.304
▁fêm	-10.305
▁پاداشتیان	-10.305
▁Post	-10.3052
▁تێکه	-10.3059
▁kirîna	-10.306
▁مافی	-10.3062
old	-10.3068
▁deyn	-10.307
ox	-10.3072
▁قوتابخانە	-10.3074
▁herêmê	-10.3076
▁مر	-10.3086
▁بڵێم	-10.309
ics	-10.3095
▁For	-10.3098
▁[...]	-10.3099
▁cinsî	-10.3099
ary	-10.31
▁tev	-10.3102
▁00	-10.3105
اق	-10.3105
▁jêrîn	-10.311
▁باڵا	-10.3116
▁BI	-10.3117
▁saet	-10.3118
▁Lî	-10.3124
îf	-10.3124
ated	-10.3126
▁bikî	-10.3127
▁ڕۆح	-10.3128
▁ex	-10.3132
▁نێو	-10.3134
▁rabû	-10.3137
oma	-10.3137
▁هێناون	-10.3139
ted	-10.3143
▁bîra	-10.3147
board	-10.3149
45	-10.3153
56	-10.3167
▁لەوێ	-10.3169
▁گفتوگۆ	-10.3174
▁رستراو	-10.3177
▁în	-10.3178
▁kesek	-10.3178
▁جۆراو	-10.3178
▁Lîsteya	-10.3181
▁روو	-10.3184
Ç	-10.3187
▁خاڵ	-10.3192
ban	-10.3194
٩	-10.3195
▁بەشێوەیەک	-10.3198
تدا	-10.3199
time	-10.3201
▁Read	-10.3204
03	-10.3206
پرس	-10.3208
▁benda	-10.3209
▁مو	-10.3217
bel	-10.3219
▁jiyanê	-10.3227
▁salî	-10.3233
▁''	-10.3237
°	-10.3237
ding	-10.3238
هێنانی	-10.3239
▁دڵسۆز	-10.3241
dal	-10.3245
ef	-10.3246
▁dawiyê	-10.3248
▁full	-10.3248
▁Wa	-10.3248
▁ردانی	-10.3252
زو	-10.3254
sal	-10.3259
▁destûra	-10.326
▁Xizmet	-10.3261
▁ar	-10.3263
▁'%	-10.3268
xwar	-10.3273
▁سک	-10.3274
▁بپرس	-10.3277
▁daxwaz	-10.3277
▁یاندا	-10.3282
zê	-10.3283
تن	-10.3287
▁رێك	-10.3289
sy	-10.3289
ac	-10.3293
رین	-10.3295
▁navnetewî	-10.3298
cê	-10.3301
▁گوناهبار	-10.3304
log	-10.3311
▁Jê	-10.3315
OR	-10.3316
رم	-10.3318
▁داون	-10.3318
ound	-10.3323
▁navneteweyî	-10.3323
▁جیهاد	-10.3323
▁gr	-10.3323
▁دڵت	-10.3326
▁Çiyayê	-10.3327
▁ڕزگارمان	-10.3332
▁ڵاق	-10.3335
▁ئاس	-10.3337
▁trans	-10.3337
▁سپی	-10.3345
xistin	-10.3348
aw	-10.3349
▁series	-10.335
mir	-10.3353
▁ماندوو	-10.3353
▁Enstîtuya	-10.3354
tes	-10.3356
▁دووباره	-10.3365
ob	-10.3366
▁سر	-10.3367
▁ڕدار	-10.3367
▁عقوب	-10.3374
▁piraniya	-10.3374
▁medyayê	-10.3375
▁ئەمانە	-10.3377
64	-10.3382
▁Mêr	-10.3385
xwaz	-10.3385
دوو	-10.3387
▁توندی	-10.3391
وانی	-10.3392
▁bir	-10.3396
▁xilas	-10.3399
▁mîheng	-10.3399
▁binêrin	-10.3399
▁لو	-10.3399
▁lêpirsîn	-10.3399
▁گەنج	-10.34
قه	-10.3401
76	-10.3408
ical	-10.3415
▁mirovên	-10.3419
▁تمان	-10.3422
▁it	-10.3425
▁گێڕن	-10.3425
▁کورت	-10.343
dom	-10.343
nde	-10.3432
ins	-10.3432
▁Pir	-10.3434
▁qu	-10.3435
ەکەمان	-10.3442
▁Almanya	-10.3445
chi	-10.3445
▁گا	-10.3445
در	-10.3446
dge	-10.3447
▁بتان	-10.3447
▁Navnetewî	-10.345
ON	-10.3453
agon	-10.3454
▁beşdarî	-10.3461
▁پارێزکاران	-10.3462
▁SR	-10.3471
▁xemgîn	-10.3476
▁تازه	-10.3477
ێین	-10.3479
▁نێر	-10.348
▁High	-10.348
▁germê	-10.3482
▁هەمو	-10.3485
▁off	-10.3485
▁werger	-10.3486
ds	-10.3487
▁xeta	-10.3491
▁باب	-10.3503
▁ژاران	-10.3505
▁you	-10.3506
▁بڕی	-10.3506
▁Tebax	-10.3506
▁تازە	-10.3509
▁ragihandin	-10.3516
▁کاتێکی	-10.3519
▁sar	-10.352
▁cihên	-10.3526
▁ناپوخت	-10.3527
▁هەزار	-10.3527
▁Paş	-10.353
▁part	-10.3533
▁Ki	-10.3543
▁پێست	-10.3543
▁نموونە	-10.3548
▁Red	-10.3552
▁ئامێر	-10.3553
▁سکی	-10.3554
▁پیا	-10.3557
▁Gel	-10.3557
ome	-10.3558
▁کارە	-10.3559
awa	-10.3561
▁rojnameger	-10.3563
▁تیم	-10.3567
west	-10.3569
باوه	-10.3572
▁تاقیکردن	-10.3573
▁براک	-10.3574
▁dewlemend	-10.3579
▁label	-10.3579
59	-10.358
rus	-10.3585
▁ڕاب	-10.3588
▁نیم	-10.3589
ێکیش	-10.36
▁پیش	-10.36
ock	-10.3601
▁Parîsê	-10.3605
ring	-10.3605
▁fir	-10.3606
▁bandora	-10.3607
▁مانای	-10.3608
▁گات	-10.361
سو	-10.3619
یل	-10.3619
▁سای	-10.362
▁ڕوناکی	-10.3622
▁تام	-10.3626
▁Language	-10.3631
▁نزیك	-10.3631
▁Versiyon	-10.3631
٠٠	-10.3631
▁dû	-10.3636
▁ماشای	-10.3639
▁av	-10.3642
▁serbest	-10.3642
▁تۆوی	-10.3642
▁پاب	-10.3643
▁sex	-10.3645
▁Çalak	-10.3645
▁bajar	-10.3647
▁not	-10.365
gen	-10.3659
▁şert	-10.3666
▁wa	-10.3666
بیت	-10.3667
▁best	-10.3673
▁Pirtûka	-10.3673
и	-10.3675
▁stran	-10.3676
axê	-10.3677
▁قوڕ	-10.3677
▁نرخی	-10.3681
▁English	-10.3683
▁خوشک	-10.3683
▁piştrast	-10.3683
fr	-10.3685
ەکەدا	-10.3689
▁dinyayê	-10.3691
lon	-10.3692
شار	-10.3696
▁barê	-10.3698
▁رگرت	-10.3705
mên	-10.3706
▁Jo	-10.3711
▁بک	-10.3717
اکان	-10.3721
▁یاند	-10.3721
▁سا	-10.3727
▁وتووه	-10.3733
٠	-10.3733
▁pirs	-10.3737
▁Server	-10.374
▁live	-10.3743
▁وشتر	-10.3746
▁gazê	-10.3748
▁وازیان	-10.375
▁کەمتر	-10.3753
▁Man	-10.3755
▁رێت	-10.3758
▁bimînin	-10.3762
▁گۆڕی	-10.3762
▁heft	-10.3769
IC	-10.3769
eyan	-10.3771
▁pêşketina	-10.378
.1	-10.3783
٦	-10.3785
▁هاتنی	-10.3785
çê	-10.379
زۆر	-10.379
▁ڕۆژێکی	-10.3796
▁ڕمان	-10.3796
▁vedi	-10.3798
:%	-10.3799
▁مێنێت	-10.3803
▁pêl	-10.3806
73	-10.3808
ەتی	-10.3813
▁nîv	-10.3814
▁جێنشین	-10.3814
▁خۆزگ	-10.3815
▁with	-10.3815
درێت	-10.3816
▁wisa	-10.3816
▁میو	-10.3817
ress	-10.3821
▁file	-10.3827
▁مندا	-10.3828
ێتەوە	-10.3837
avê	-10.3838
cer	-10.3839
▁ناك	-10.3842
▁مێنن	-10.3847
▁بس	-10.385
▁malbata	-10.3853
▁Rast	-10.3854
▁گونجاو	-10.3854
▁گەر	-10.3854
▁نزیکه	-10.3856
▁شکست	-10.3856
▁Va	-10.3857
ستان	-10.3859
▁فرین	-10.386
▁5/6	-10.3867
▁Lêbelê	-10.3867
▁serî	-10.3868
▁جیهانیان	-10.3868
▁جەستە	-10.3868
▁هۆکاری	-10.3869
▁item	-10.3869
یەکانی	-10.3872
ys	-10.3872
▁gelê	-10.3874
rêj	-10.3875
▁pişt	-10.3876
uk	-10.3884
pp	-10.3884
oz	-10.3885
ld	-10.3889
▁یاو	-10.3889
und	-10.3891
▁كانیان	-10.3893
▁هەرگیز	-10.3894
▁ناترسن	-10.3894
▁nebe	-10.3895
▁كە	-10.3895
▁کاتژمێر	-10.39
▁Pirs	-10.39
▁دەبین	-10.3901
▁ڵامدا	-10.3904
▁کردوو	-10.3908
42	-10.3911
▁ور	-10.3913
ێنەر	-10.3914
دراو	-10.3917
▁Pêdivî	-10.3921
▁تاقم	-10.3922
▁hûr	-10.3924
▁Erê	-10.3927
▁پێکەنین	-10.3934
26	-10.3935
▁xwendin	-10.3935
▁بون	-10.3942
وز	-10.3944
▁نەخۆش	-10.3947
▁celeb	-10.3948
▁bêhtir	-10.3948
▁سلیم	-10.3949
▁Berî	-10.3952
▁ساڵێک	-10.3952
▁ریی	-10.3954
-5	-10.3959
gel	-10.3961
48	-10.3964
بوونه	-10.3965
▁veşartin	-10.3975
▁xweşik	-10.3981
▁Hêzên	-10.3983
▁xebata	-10.3983
بینی	-10.3984
▁Mirov	-10.3987
▁pî	-10.399
kû	-10.3991
ێکتان	-10.3994
ـ	-10.3997
زم	-10.3997
کەن	-10.3999
▁دابێت	-10.3999
▁hilbijartina	-10.3999
▁ئینجیل	-10.4001
▁bitikîne	-10.4002
▁bajêr	-10.4003
بات	-10.4003
▁شێوە	-10.4003
▁رێز	-10.4006
▁دانیشتوانی	-10.4007
گرێت	-10.401
▁digel	-10.401
▁مۆر	-10.401
کانیان	-10.4012
▁zanistî	-10.4014
kes	-10.4014
▁mirin	-10.4017
63	-10.4022
▁belavkirina	-10.4035
dêr	-10.4036
▁ciwan	-10.404
68	-10.4042
▁piranî	-10.4043
bor	-10.4044
▁peyka	-10.4046
▁پیر	-10.4047
▁În	-10.4047
٨	-10.4049
▁گرتن	-10.4053
▁çareser	-10.4054
▁tevlihev	-10.4056
▁کۆسپ	-10.4056
▁nirxandin	-10.4056
▁Light	-10.4059
▁قازانج	-10.406
▁kûr	-10.4062
ەکانم	-10.407
▁مێك	-10.4073
گرن	-10.4074
▁لاش	-10.4077
ou	-10.4078
▁چیان	-10.408
MS	-10.4085
200	-10.4086
▁پاشای	-10.4088
▁خزمان	-10.4096
ویستای	-10.4096
▁Che	-10.4102
▁یری	-10.4102
can	-10.4102
▁ڵاتدار	-10.4104
87	-10.4105
▁بچێت	-10.4105
ص	-10.4109
▁Kanada	-10.411
▁Ga	-10.4114
▁çalakiya	-10.4114
▁نزم	-10.4126
▁tool	-10.4128
▁برای	-10.4131
The	-10.4133
▁reklam	-10.4137
▁Malpera	-10.4137
▁dîwar	-10.4138
▁dev	-10.4139
▁ستووه	-10.4142
▁پلان	-10.4143
▁sazkirin	-10.4147
▁dîroka	-10.4153
▁ماسی	-10.4155
▁pisporên	-10.4155
٤	-10.4162
dir	-10.4164
--	-10.4168
▁دەمەوێت	-10.4169
har	-10.4172
▁دەرمان	-10.4174
▁Video	-10.4177
▁Mer	-10.4178
yr	-10.4181
▁دەستی	-10.4183
▁Air	-10.419
▁كاتێكدا	-10.4192
▁dikarim	-10.4192
andinê	-10.4193
▁term	-10.4197
ata	-10.4199
▁پێگ	-10.4203
▁zarokan	-10.4205
▁میراتی	-10.4207
▁پێکهات	-10.4209
▁welatê	-10.4209
▁تکا	-10.4214
ert	-10.4214
ken	-10.4215
▁منداڵەکان	-10.4216
▁ac	-10.4218
▁دینی	-10.422
▁ronahiya	-10.422
erî	-10.4221
▁destnîşan	-10.4223
▁یاسا	-10.4224
▁كردووه	-10.4226
que	-10.423
89	-10.4233
▁بج	-10.4239
▁؛	-10.4244
▁شارۆچک	-10.4247
▁bicîh	-10.4247
▁کۆتای	-10.4248
41	-10.4248
▁bûne	-10.4249
▁perwerde	-10.4251
▁fêr	-10.4252
▁Kurd	-10.4254
▁metre	-10.4255
▁helwesta	-10.4257
▁ڕوان	-10.4258
▁th	-10.4263
▁بڕۆ	-10.4266
▁بابەت	-10.4267
54	-10.4269
▁Cîhanê	-10.4271
▁qedexe	-10.4272
▁بیخ	-10.4272
▁hakeman	-10.4275
▁ئاڵۆز	-10.4275
▁Dadgeha	-10.4275
▁خانە	-10.4277
rast	-10.4281
▁کۆد	-10.4283
36	-10.4298
دەم	-10.43
eyî	-10.4302
▁deverên	-10.4304
▁tîma	-10.4304
▁80	-10.4305
▁ڕۆژدا	-10.4306
▁kesê	-10.4307
▁دووەم	-10.4312
▁rastiyê	-10.4314
▁girt	-10.4314
▁qut	-10.4317
darê	-10.4318
ings	-10.4319
ketina	-10.4325
▁45	-10.4327
box	-10.4332
▁this	-10.4332
red	-10.4337
ۆك	-10.4343
▁حساب	-10.4345
▁projeya	-10.4347
▁chat	-10.4354
▁êrîş	-10.4359
▁fîlm	-10.436
▁şa	-10.436
▁vekirin	-10.4362
▁پا	-10.4365
▁Xweseriya	-10.4367
▁بۆم	-10.437
▁لێك	-10.4383
▁ناخی	-10.4386
▁2000	-10.439
▁جول	-10.4394
▁girtî	-10.4396
▁Hol	-10.4398
▁قورئانی	-10.4399
rist	-10.4401
▁شاری	-10.4402
▁سارد	-10.4406
gehên	-10.441
کراوه	-10.4414
▁Microsoft	-10.4415
▁SARS	-10.4415
▁Hevbendiy	-10.4415
وازه	-10.4418
▁text	-10.4422
▁Bank	-10.4424
EC	-10.4424
▁destûr	-10.4425
▁Ho	-10.4436
▁CD	-10.4443
▁nikarin	-10.4443
▁mal	-10.4443
mu	-10.4447
▁قوا	-10.4449
ەکەیان	-10.4452
▁شتدا	-10.4452
▁زۆریان	-10.4457
▁hebe	-10.446
▁کردیت	-10.4462
ێی	-10.4468
▁کافرو	-10.4471
▁LLC	-10.4472
▁doktor	-10.4472
▁دەب	-10.4474
▁لێره	-10.4477
▁دای	-10.448
راوە	-10.4483
▁مێک	-10.4483
▁٢٠	-10.4487
▁hilberînê	-10.4489
▁دنیای	-10.4491
▁هەوا	-10.4492
▁ببینن	-10.4496
▁mîlyon	-10.45
▁rêveberiya	-10.45
▁kîjan	-10.45
▁Guherî	-10.45
▁داگیر	-10.4501
▁alî	-10.4503
▁ئیماندارانی	-10.451
▁120	-10.4513
▁ئەوانەی	-10.4514
بینیت	-10.4517
69	-10.4517
ناس	-10.4522
▁جووت	-10.4525
▁لەلایەن	-10.4528
▁Hesab	-10.4528
▁Tor	-10.4529
▁Model	-10.4529
▁high	-10.4529
▁Day	-10.4533
▁ڕێباز	-10.4536
▁بەڵێ	-10.4542
fo	-10.4544
▁بیرم	-10.4547
ییەوە	-10.4549
دەکات	-10.4557
▁بکرێن	-10.4557
▁Îlon	-10.4558
هاتوو	-10.456
باش	-10.4562
▁ragihandinê	-10.4565
▁کەمێک	-10.4567
▁Can	-10.4578
▁form	-10.4583
▁xebitandin	-10.4585
▁Tags	-10.4585
▁month	-10.4585
▁تێناگ	-10.4585
▁خشت	-10.4588
▁lîstikvanên	-10.4596
▁pelên	-10.4598
▁ژینگە	-10.4599
▁بهێنین	-10.4613
ث	-10.4614
▁petrolê	-10.4614
▁گەرم	-10.4617
▁Spas	-10.4617
▁naskirin	-10.4618
▁غڵ	-10.4626
شتان	-10.4628
▁2,	-10.4628
rk	-10.4632
وع	-10.4633
▁Bu	-10.4636
bra	-10.464
sed	-10.4644
▁خان	-10.465
74	-10.4658
key	-10.4659
ەل	-10.4663
rate	-10.4669
ort	-10.4669
▁format	-10.4673
▁Kurdî	-10.4678
▁فوو	-10.4678
▁سور	-10.4679
▁malbat	-10.4687
pey	-10.469
ketin	-10.469
▁hefte	-10.4691
▁music	-10.47
▁vîdyoyê	-10.47
ations	-10.4702
▁2011	-10.4706
▁چیتان	-10.4706
46	-10.4707
▁çavkaniyên	-10.4707
▁توند	-10.4708
BC	-10.4711
▁تاوانی	-10.4719
ۆل	-10.472
ژن	-10.4723
▁نیشانی	-10.4726
ط	-10.4727
▁گفتوگۆی	-10.4729
▁Publishe	-10.4729
▁teknolojî	-10.4729
*	-10.4731
▁www	-10.4734
▁Çima	-10.4735
▁и	-10.4737
يان	-10.4739
▁نجامدانی	-10.4743
94	-10.4747
▁ڵیان	-10.4748
شێ	-10.4754
▁واری	-10.4755
▁نەم	-10.476
▁civîn	-10.4761
▁tora	-10.4768
▁pirsên	-10.4769
▁داب	-10.477
58	-10.4773
▁site	-10.4774
▁ناڵ	-10.4777
▁Plan	-10.4778
▁News	-10.4778
▁سانێکی	-10.4782
ة	-10.4787
▁Peymana	-10.4787
▁dijwar	-10.4787
51	-10.4788
▁qonaxa	-10.4788
▁u	-10.4789
▁تایبەت	-10.4798
ێم	-10.4798
53	-10.4799
گێر	-10.4802
▁borî	-10.4803
▁karmendên	-10.4805
▁وەڵام	-10.4806
▁kêmkirina	-10.4806
▁شێوەیەکی	-10.4806
▁تەندروستی	-10.4807
▁هۆشم	-10.4808
▁رێ	-10.4808
٢	-10.4811
▁rewşê	-10.4812
▁کران	-10.4813
خو	-10.4813
▁tiştî	-10.4815
▁beşên	-10.4817
▁کرێ	-10.4819
▁Sûriyê	-10.4819
ile	-10.4822
xistina	-10.4822
▁دەزانن	-10.4823
▁ڕێژەی	-10.4827
ult	-10.483
şi	-10.4835
▁نۆ	-10.4836
خۆی	-10.4839
pel	-10.4841
▁ze	-10.4842
▁Ukrainian	-10.4846
sco	-10.4846
▁Ac	-10.4847
▁SD	-10.4852
▁su	-10.4853
au	-10.4858
▁hebû	-10.4858
▁یاندن	-10.486
▁bila	-10.486
fê	-10.4863
dro	-10.4867
▁bişînin	-10.4869
▁گوڵ	-10.4871
▁ناتوانیت	-10.4875
▁ناشرین	-10.4876
▁mîkro	-10.4876
55	-10.4878
▁ساز	-10.4881
ووت	-10.4882
▁کردم	-10.4883
▁كارو	-10.4892
100	-10.4893
▁دەچێت	-10.4895
▁دراو	-10.4895
ڵێن	-10.4898
▁Derman	-10.49
str	-10.4903
▁ناسه	-10.4904
▁زگای	-10.4908
▁چپ	-10.4909
▁فام	-10.4921
▁سپ	-10.4927
▁pêkanîna	-10.4927
▁xwedan	-10.4929
▁şîrketên	-10.493
▁ئەمریکا	-10.4934
▁شوێنیان	-10.4935
▁size	-10.494
cr	-10.4943
rik	-10.4947
▁ڵیدا	-10.4948
يا	-10.4949
▁kevn	-10.4952
▁Hil	-10.4955
▁parve	-10.4959
▁دۆخ	-10.4964
raz	-10.4968
▁mm	-10.497
▁makîne	-10.497
TA	-10.4971
▁Tattoo	-10.4972
▁wêneyê	-10.4976
YA	-10.4978
▁têkiliyên	-10.4982
▁پی	-10.4983
hil	-10.4983
گری	-10.4987
ساز	-10.4988
▁35	-10.4989
راون	-10.4989
▁دیهێناوه	-10.4998
▁مام	-10.5007
▁karên	-10.5008
▁Ja	-10.5009
بژارد	-10.5014
▁Ce	-10.5015
ST	-10.5019
کەوتن	-10.5021
چاو	-10.5023
▁زیل	-10.5026
EL	-10.5028
▁ڕاستگۆ	-10.5029
▁داری	-10.5029
▁نادروستی	-10.5031
▁tarî	-10.5036
şan	-10.5037
▁بەست	-10.5039
▁مناڵ	-10.5042
▁Kanal	-10.5044
فرۆش	-10.5053
▁کۆمپانیا	-10.5054
▁gelekî	-10.5054
▁لێخۆش	-10.5056
یکی	-10.5056
out	-10.5057
▁bêne	-10.5057
low	-10.5059
▁cure	-10.506
ێکت	-10.5061
بووم	-10.5064
▁tevî	-10.5065
my	-10.5065
dd	-10.5067
▁alîkar	-10.5071
▁Heta	-10.5072
▁بووبێت	-10.5074
▁bavê	-10.5081
ووم	-10.5084
▁خشینی	-10.5088
tik	-10.5091
rek	-10.5092
▁دەگە	-10.5093
▁هیوای	-10.5098
▁Sîstema	-10.5099
▁ڕوویان	-10.5099
▁pirsa	-10.5099
2"	-10.5103
▁modela	-10.5103
▁جادوو	-10.5108
▁تاقیکردنەوە	-10.5109
▁Kon	-10.5111
AD	-10.5111
îyên	-10.5113
▁gengaz	-10.5114
▁çavkaniya	-10.5114
▁نەخشە	-10.5114
▁bilez	-10.5114
▁١٠	-10.5116
▁peyam	-10.5116
چون	-10.5118
بێگومان	-10.5119
▁بڕیارداو	-10.5119
▁٢	-10.5119
٣	-10.512
▁ترسم	-10.5121
▁خێزانی	-10.5126
▁بکوژ	-10.5138
▁کەوت	-10.514
▁mafên	-10.5142
▁xerc	-10.5145
▁guru	-10.5145
▁تیا	-10.5154
▁Dar	-10.5155
▁mehan	-10.5155
▁Kes	-10.5155
RE	-10.5159
▁ناچاری	-10.5159
▁شۆڕ	-10.5161
▁erê	-10.5162
▁destûrê	-10.5166
▁تێدایه	-10.5173
\	-10.5174
▁çapemeniyê	-10.5174
▁rêbazên	-10.5174
▁قۆناغ	-10.5174
خستن	-10.5176
▁Port	-10.5184
▁ڕوونی	-10.5185
لک	-10.5188
▁دینداری	-10.5193
ram	-10.5194
▁rol	-10.5196
▁Adar	-10.5202
▁شێرپەنجە	-10.5205
▁هاروون	-10.5205
▁2010	-10.5211
37	-10.5212
▁Tîrmeh	-10.5215
zîk	-10.5215
سک	-10.5218
فت	-10.522
دایە	-10.5221
light	-10.5226
▁bala	-10.5231
▁لاری	-10.5232
▁جارێکی	-10.5233
gre	-10.5234
▁Rêz	-10.5239
▁لات	-10.5248
▁پارە	-10.5252
çî	-10.5255
▁kalîteyê	-10.5257
gor	-10.5259
▁رهاتی	-10.5259
jê	-10.5263
ms	-10.5263
▁Nexşey	-10.5266
▁هەژار	-10.5266
▁Mijar	-10.5267
▁Part	-10.527
▁وتم	-10.527
▁Destpêk	-10.5273
Ji	-10.5284
ڕێژ	-10.5285
▁dayin	-10.5286
▁هێنای	-10.5288
▁نیو	-10.5293
▁رگرتن	-10.5293
▁Hel	-10.5294
▁berdan	-10.5294
▁تۆو	-10.5299
▁ڕواڵ	-10.5302
سان	-10.5312
▁دانان	-10.5314
▁خواز	-10.5315
▁hewa	-10.5316
▁Parametreyên	-10.5327
▁دۆلار	-10.5327
▁قاچ	-10.5328
▁Top	-10.533
دۆ	-10.5331
ئی	-10.5331
▁هاوب	-10.5335
▁Îro	-10.5337
مێکی	-10.5343
US	-10.5345
32	-10.5349
▁ڵامیاندا	-10.5349
انەوە	-10.5349
▁کن	-10.535
▁ce	-10.5357
▁inmenu	-10.5358
▁Idea	-10.5359
▁دیوار	-10.5359
▁شارد	-10.5361
oya	-10.5364
şîne	-10.5367
ئێمه	-10.5368
▁باپیران	-10.5375
▁bajarên	-10.5378
▁جۆری	-10.5378
▁nîşandan	-10.5381
▁نجامیان	-10.5384
▁ترتان	-10.5385
▁Casino	-10.5389
▁University	-10.5389
▁xeter	-10.5393
▁بڵێت	-10.5396
▁نگاو	-10.5399
▁zêrîn	-10.54
▁لێکدان	-10.54
؟"	-10.5403
erên	-10.5408
گرت	-10.5408
▁رتاندا	-10.5416
▁ستم	-10.5417
▁لم	-10.5417
▁داناو	-10.5418
▁online	-10.5421
▁agahdar	-10.5423
▁Laser	-10.5424
ۆڕ	-10.5425
çik	-10.5426
▁ئیماندارانه	-10.5426
▁کەوا	-10.5429
چێت	-10.5429
ئیتر	-10.543
rat	-10.5435
tri	-10.5442
زانم	-10.5444
▁زر	-10.5445
▁kevneşopî	-10.5449
gram	-10.5451
▁Je	-10.5452
our	-10.5455
▁چووه	-10.5456
▁تۆم	-10.5457
▁دوژمنای	-10.5459
MP	-10.546
▁Înternetê	-10.546
▁Dîroka	-10.5463
rop	-10.5463
یتەوە	-10.5464
bus	-10.5465
▁cureyên	-10.5467
▁کەسێکی	-10.5468
▁پاکان	-10.5472
▁بەشی	-10.5474
▁kesî	-10.5478
▁هەمیشە	-10.5482
▁teqîn	-10.5484
▁şeş	-10.5487
▁ئێست	-10.5488
ue	-10.549
▁hilber	-10.549
▁hu	-10.5494
▁کراوی	-10.5496
▁Reng	-10.5504
▁xizmet	-10.5505
ness	-10.5507
▁گرۆی	-10.551
▁pakêtê	-10.551
▁پاس	-10.551
▁COVID	-10.5514
▁دەتوانێت	-10.5514
▁navendî	-10.5514
gire	-10.5515
▁pêşketî	-10.5515
ڵێم	-10.5523
▁وەر	-10.5524
EST	-10.5525
▁Pla	-10.5528
ble	-10.5535
ost	-10.5537
▁fireh	-10.5538
cc	-10.5538
▁خی	-10.5539
▁بیک	-10.5541
▁مل	-10.5544
▁enerjiyê	-10.5545
▁ڕابردوو	-10.5545
▁sî	-10.5551
▁berhev	-10.5559
▁Th	-10.5561
▁damezrandin	-10.5562
▁Xweser	-10.5571
▁کاتدا	-10.5572
پۆ	-10.5574
▁زیو	-10.5575
blo	-10.5576
▁lîsans	-10.5577
▁پاڕان	-10.5577
bat	-10.5578
▁ڕاکێش	-10.5579
▁şev	-10.5587
38	-10.5589
▁hejmar	-10.559
▁herdu	-10.5597
eş	-10.5602
57	-10.5603
sel	-10.5604
}	-10.5606
ÊN	-10.5607
▁ردووکیان	-10.5607
▁سیان	-10.5607
RA	-10.5608
▁avahiya	-10.5609
▁ders	-10.5615
▁Har	-10.5618
▁1000	-10.5618
گرتوو	-10.5623
jen	-10.5627
tr	-10.5628
▁پاشگ	-10.5629
ێکە	-10.5631
▁dibistana	-10.564
▁kel	-10.5645
▁Tra	-10.5646
îzmê	-10.5647
▁Sê	-10.5648
▁سیست	-10.565
٧	-10.565
tation	-10.565
zanî	-10.565
▁تۆمان	-10.5653
▁300	-10.5654
ەك	-10.5659
▁hejmarek	-10.5665
▁Christmas	-10.5672
lk	-10.5674
▁tecrûbeya	-10.5678
▁دەتوانیت	-10.5681
▁sor	-10.5683
▁دەچ	-10.5684
ڤا	-10.5685
▁نمونە	-10.5686
cm	-10.5691
vis	-10.5693
▁tra	-10.5693
DA	-10.5694
use	-10.5694
bil	-10.5696
xan	-10.5701
▁ڕۆن	-10.5702
▁dorpêç	-10.5704
▁کاول	-10.5705
rc	-10.5706
▁DI	-10.5707
▁Zêde	-10.571
IP	-10.571
▁guherandin	-10.5712
trol	-10.5716
▁یر	-10.5721
كان	-10.5725
▁ڕۆژان	-10.5726
▁ئاشکرادا	-10.5727
▁ket	-10.5727
xy	-10.5727
▁hinekî	-10.5728
▁ریکی	-10.5728
92	-10.5731
ût	-10.5735
TE	-10.5736
▁hevbeş	-10.5736
▁Arşîv	-10.5736
▁رستان	-10.5736
▁modern	-10.5736
▁Cih	-10.5738
▁serokê	-10.5739
asyon	-10.5742
▁ناومان	-10.5743
▁belgeyên	-10.5746
kg	-10.5746
▁تاوانکار	-10.5749
▁pêşveçûna	-10.5751
anîn	-10.5756
▁فڕ	-10.5757
▁واندا	-10.5761
▁lêkolînê	-10.5761
▁ترسان	-10.5764
▁parastin	-10.5765
▁offers	-10.5769
▁Nûçeyên	-10.5771
▁وترا	-10.5772
▁kod	-10.5774
▁Xanî	-10.5775
▁دەڵێن	-10.5781
▁باشی	-10.5784
کێ	-10.5787
▁زانیت	-10.579
▁لێبک	-10.5791
▁جوب	-10.5793
▁خشرا	-10.58
▁World	-10.58
▁pêşniyaz	-10.58
▁bibîne	-10.5801
▁ئاسماندا	-10.5801
▁بینا	-10.5802
▁girêdana	-10.5806
▁درۆزانی	-10.5807
▁بش	-10.5809
▁خۆشەویستی	-10.5811
▁ئەن	-10.5814
▁پاره	-10.5815
ich	-10.5815
▁پێکەوە	-10.5815
okê	-10.5817
▁بیرۆکەی	-10.582
▁Hack	-10.5821
▁demek	-10.5824
▁rûyê	-10.5827
▁هەڵە	-10.5828
▁behsa	-10.5833
▁boriyeke	-10.5833
▁dixwaze	-10.5833
▁ronahiyê	-10.5833
▁Hot	-10.5841
▁لێکۆڵینەوە	-10.5845
72	-10.5846
bend	-10.5856
06	-10.5861
top	-10.5863
▁ئاماژ	-10.5864
▁Daxuyaniya	-10.5865
▁ئیسحاق	-10.5865
▁حوکم	-10.5865
▁serkeftî	-10.5865
▁زێنرا	-10.5866
▁zext	-10.5866
ەکەوە	-10.5868
vir	-10.587
▁کەسە	-10.5871
ەوا	-10.5871
▁Derve	-10.5875
کەیت	-10.5878
▁شا	-10.5885
''	-10.5887
▁baca	-10.5887
çek	-10.5888
▁Inc	-10.5888
ın	-10.5889
▁بیرۆکە	-10.5894
cor	-10.5895
▁TRANS	-10.5898
▁fîzîkî	-10.5898
▁بگره	-10.5898
62	-10.5903
▁nivîskar	-10.5919
▁Nivîs	-10.5921
1"	-10.5922
xbet	-10.5922
جه	-10.5926
▁زاری	-10.5927
▁دەیان	-10.5928
ûk	-10.5928
▁گرنگە	-10.593
LATOR	-10.5931
▁wateyê	-10.5931
▁date	-10.5932
lic	-10.5934
▁user	-10.5935
kol	-10.5935
▁Wal	-10.5938
93	-10.5939
▁hilberîner	-10.5944
▁veke	-10.5945
▁بڵندی	-10.595
ژێر	-10.5958
▁sedem	-10.5962
▁Fakulteya	-10.5963
▁Machine	-10.5963
▁button	-10.5963
▁bedena	-10.5963
▁link	-10.5965
▁ژیری	-10.5973
▁سێب	-10.5978
▁دایك	-10.5979
▁نابینن	-10.5979
▁ڵن	-10.5982
▁vekin	-10.5983
▁demên	-10.5984
▁guhertina	-10.5985
▁Sepan	-10.5987
800	-10.5991
▁یمانی	-10.5996
▁mesrefa	-10.5996
▁بتوانێ	-10.5996
▁Power	-10.5998
dû	-10.6
▁tije	-10.6
▁چالاکی	-10.6003
▁zûtirîn	-10.6004
91	-10.6007
▁lêgerîn	-10.6009
▁rûpelê	-10.6009
▁agir	-10.6012
▁hefteya	-10.6016
”,	-10.6018
siyon	-10.6034
▁زاند	-10.6035
▁bazarê	-10.6039
▁هانی	-10.6044
▁dijîn	-10.6045
olojî	-10.6046
ple	-10.6047
▁wekhev	-10.6047
▁xebatên	-10.6051
▁bikirin	-10.6053
îp	-10.6056
▁کرابوو	-10.6059
96	-10.606
▁بری	-10.6061
▁barkirin	-10.6062
▁Perwerde	-10.6062
▁Company	-10.6062
▁کۆمەڵایەتی	-10.6062
▁توان	-10.6066
▁دارایی	-10.6066
arê	-10.6066
▁کۆمەڵگە	-10.6068
TO	-10.6074
▁tek	-10.6081
ناکه	-10.6085
▁شێوەی	-10.609
mil	-10.6091
ire	-10.6093
▁transponder	-10.6096
▁دوعا	-10.6096
▁1:	-10.6097
▁şevê	-10.6097
▁وردی	-10.6098
▁دابنێ	-10.61
▁گۆشتی	-10.6105
▁کردین	-10.6106
win	-10.6107
رایه	-10.6108
▁zêdebûna	-10.611
▁rêve	-10.6118
▁Dîrok	-10.6118
▁win	-10.612
▁Star	-10.6122
▁تردا	-10.6123
▁بەوە	-10.6129
▁کشتوکاڵ	-10.6129
▁Bonus	-10.6129
▁dabeş	-10.6129
▁١٩	-10.613
▁زایه	-10.6139
شایست	-10.6144
▁01	-10.6147
▁ڵا	-10.6147
▁Karên	-10.6147
ûm	-10.6148
▁fî	-10.6151
▁şîrket	-10.6158
▁gu	-10.616
▁وێنەی	-10.6161
▁ecêb	-10.6162
ێنە	-10.6164
ose	-10.6166
▁داود	-10.6167
▁kirina	-10.6168
SP	-10.6169
▁نادیار	-10.617
cy	-10.6176
▁Ab	-10.6176
▁شوو	-10.6178
9"	-10.6178
girş	-10.6186
act	-10.6186
NT	-10.6186
▁ئاشتی	-10.6189
▁ئیماندارن	-10.6192
ەمە	-10.6196
▁بەکتریا	-10.6196
▁heqê	-10.6196
▁Sibat	-10.6197
cal	-10.62
▁mêj	-10.6201
▁jet	-10.6202
▁Beş	-10.6207
▁گۆ	-10.6213
▁?	-10.6213
▁model	-10.6214
▁بەخش	-10.6217
▁باسکرا	-10.6218
▁bang	-10.6219
▁نێرین	-10.622
▁خۆیشی	-10.6224
▁Bazirganiy	-10.623
▁تێپ	-10.6231
▁Open	-10.6232
vanên	-10.6234
▁دەدەن	-10.6236
كار	-10.6245
ێنرێت	-10.625
▁ڵکرد	-10.6254
▁cot	-10.6255
▁xweya	-10.6261
▁بۆلای	-10.6262
▁kalîte	-10.6263
▁ISO	-10.6265
▁diçin	-10.6265
▁كۆ	-10.6269
کر	-10.6272
ext	-10.6272
▁جوانترین	-10.6273
▁سوو	-10.6277
ڕەو	-10.6278
▁روونیاندا	-10.628
▁çareseriya	-10.6282
zer	-10.6284
waz	-10.629
▁At	-10.6291
ریت	-10.6291
▁قوڵ	-10.6296
▁رووی	-10.6298
▁pen	-10.6299
ize	-10.6303
▁raya	-10.6304
▁are	-10.6304
▁gem	-10.6308
▁پارێز	-10.6308
dor	-10.6309
▁6.	-10.6318
▁هەندێ	-10.6319
▁لێم	-10.6321
▁ترمان	-10.6321
▁forma	-10.6323
▁Ak	-10.6323
berg	-10.6324
lît	-10.6326
▁رش	-10.6328
ژمێر	-10.633
▁Cotmeh	-10.6331
▁ewlehiya	-10.6331
LE	-10.6332
▁un	-10.6333
▁سروشتی	-10.6336
▁بانیش	-10.634
▁سەرەکی	-10.6341
▁شادی	-10.6345
▁Kurs	-10.6346
▁Es	-10.636
▁wêneyên	-10.6361
▁nake	-10.6362
گیری	-10.6363
▁alternatîf	-10.6365
▁Neteweyî	-10.6365
▁liserxetê	-10.6365
▁مەزن	-10.6365
hatî	-10.6369
▁2008	-10.6369
▁دەڵێت	-10.6372
-20	-10.6377
▁//	-10.6377
▁قورئاندا	-10.6389
▁Cor	-10.6391
▁رسام	-10.6393
cle	-10.6397
▁بوار	-10.6399
▁پر	-10.6399
▁Pêwîst	-10.64
▁Black	-10.64
▁Tri	-10.6402
▁kêf	-10.6404
▁xanî	-10.6405
ڕوو	-10.6411
▁کێشان	-10.6412
▁Rewşa	-10.6412
ord	-10.6419
▁German	-10.6421
▁شکر	-10.6424
-8	-10.6431
▁Ukraine	-10.6434
▁rawestandin	-10.6434
ute	-10.6434
▁توێژینەوە	-10.6434
▁bûyer	-10.6438
▁ببیت	-10.644
▁Koma	-10.6441
▁çima	-10.6444
▁لێرەدا	-10.6445
▁Time	-10.6445
خست	-10.645
▁wire	-10.6451
▁destikê	-10.6454
▁هاواریان	-10.6454
▁Çar	-10.646
▁نیت	-10.6461
▁دەبێتە	-10.6462
▁herêmên	-10.6467
▁Chinese	-10.6468
▁performansa	-10.6468
▁birîndar	-10.6469
▁Sam	-10.647
▁babet	-10.647
▁Sc	-10.6477
▁Val	-10.6483
▁têk	-10.6486
url	-10.6488
ەها	-10.6489
▁More	-10.6489
▁پرس	-10.6493
▁ناش	-10.6498
▁xebatkar	-10.6499
▁Win	-10.6502
▁Mijdar	-10.6503
▁ژین	-10.6503
▁aboneyên	-10.6504
ung	-10.6505
▁hingê	-10.6505
▁بەکارهێنانی	-10.6506
▁ئاست	-10.6508
spam	-10.6508
KE	-10.6509
▁ئەوانە	-10.6512
▁maf	-10.6514
tro	-10.6517
▁جوول	-10.6518
▁ferman	-10.6519
▁Rojhilata	-10.652
▁bişîne	-10.6525
ئایا	-10.6528
▁temaşe	-10.6538
▁System	-10.6538
▁mobile	-10.6538
ES	-10.6538
▁مێشکی	-10.6545
▁وێران	-10.6546
fil	-10.6546
▁خواردنی	-10.6546
▁pêşniyarên	-10.6548
▁خۆشیان	-10.6548
▁Belge	-10.6548
▁wêne	-10.6549
▁pêvajoyê	-10.655
▁بدەن	-10.6551
▁یارید	-10.6552
▁ماف	-10.6553
▁كاتی	-10.6555
▁ڕۆیشت	-10.6556
▁رانیان	-10.6558
5"	-10.6559
شم	-10.6563
زانیت	-10.6569
▁فێربوون	-10.657
▁hucrey	-10.6573
▁بیابان	-10.6573
▁Jinan	-10.6574
▁Mafê	-10.6574
▁bersiva	-10.658
▁web	-10.6587
▁ئیل	-10.6587
▁Mirovan	-10.6592
▁Mon	-10.6595
▁سوڕ	-10.66
هیچ	-10.6601
▁bî	-10.6607
▁Standard	-10.6608
▁kûçik	-10.6608
▁خورما	-10.6608
▁چاکسازی	-10.6608
med	-10.661
▁لار	-10.6611
▁پرسی	-10.6613
▁hack	-10.6615
▁Mîhengên	-10.6618
▁nu	-10.6621
ney	-10.6623
▁دواو	-10.6626
▁"%	-10.6629
یشن	-10.663
▁fi	-10.6632
▁Tattoos	-10.6633
http	-10.6635
îye	-10.6636
lay	-10.6637
vel	-10.6642
▁virtual	-10.6643
▁Perwerdehiya	-10.6643
▁رناگرن	-10.6643
▁كافر	-10.6643
▁ئێسک	-10.6643
▁دۆست	-10.6644
وری	-10.6648
▁نگیان	-10.665
▁یاسای	-10.6651
▁پاڕاست	-10.6655
2,	-10.6658
▁laşê	-10.6659
هاتن	-10.6661
ized	-10.6663
▁pelan	-10.6667
şîn	-10.6677
RI	-10.668
31	-10.6681
79	-10.6682
îtî	-10.6686
▁نیوه	-10.6691
jan	-10.6692
▁code	-10.6693
▁تێگ	-10.6694
▁دیندار	-10.6695
▁30000	-10.6704
▁down	-10.6707
ping	-10.6707
▁Plus	-10.671
▁fiber	-10.671
▁bêdeng	-10.6716
▁Last	-10.6716
▁ناچێت	-10.6718
4"	-10.6718
▁nûjen	-10.6718
▁nîqaş	-10.672
▁hemberî	-10.6724
▁هێنابوو	-10.6734
▁Tele	-10.6735
CE	-10.6738
ەرەکان	-10.6739
▁خوازن	-10.6742
ory	-10.6744
▁salane	-10.6745
بان	-10.6746
▁out	-10.6748
▁Projeya	-10.6749
▁رناچن	-10.6749
▁نات	-10.675
▁دەن	-10.6752
▁٣	-10.6759
▁کێوی	-10.6759
ناگرێت	-10.676
82	-10.6762
Ez	-10.6766
▁Tên	-10.677
▁ربگرێت	-10.6772
▁پێشهات	-10.678
▁باوکم	-10.678
▁betal	-10.6781
ناسی	-10.6782
▁rêber	-10.6783
7"	-10.6783
▁HGH	-10.6784
خستووه	-10.6785
▁درێژی	-10.6786
▁ریدا	-10.6788
▁kiribû	-10.6791
▁Kur	-10.6792
stat	-10.6795
▁Mû	-10.6803
گرین	-10.6805
▁یەکتر	-10.6806
▁زین	-10.6812
▁kîmyewî	-10.682
▁pratîk	-10.682
▁bizanin	-10.682
▁Travel	-10.682
▁bingeh	-10.6821
▁super	-10.6821
▁App	-10.6827
nes	-10.6828
ûs	-10.6828
▁شتانە	-10.683
▁deh	-10.6831
کت	-10.6832
▁خول	-10.6834
IT	-10.6839
▁Holm	-10.6843
darên	-10.6846
چن	-10.6849
▁jinên	-10.6851
▁şewitandin	-10.6856
▁çîroka	-10.6859
▁çêkir	-10.6863
▁AC	-10.6863
کانمان	-10.6863
▁Amerîkayê	-10.6867
▁çewtî	-10.6875
$	-10.6878
▁نێوانیان	-10.6883
▁تەواوی	-10.6885
▁فیز	-10.6889
▁دری	-10.689
▁Aluminium	-10.6892
▁veberhênanê	-10.6892
▁دادگای	-10.6895
▁Xudan	-10.6897
work	-10.69
يە	-10.6901
mas	-10.6906
CC	-10.6906
▁makîneyên	-10.6907
▁Gulan	-10.6909
▁War	-10.6909
▁سووک	-10.691
▁لێمان	-10.6911
sat	-10.6911
▁radi	-10.6913
▁هاوکاری	-10.6913
tre	-10.6913
MB	-10.6916
▁دانیشت	-10.6917
▁جاران	-10.692
fî	-10.6921
▁dor	-10.6922
▁ئەتوان	-10.6922
▁nexweşî	-10.6926
îteya	-10.6927
fu	-10.6928
▁Agahiyên	-10.6928
▁damezirandin	-10.6928
▁lênêrîna	-10.6928
▁pêbawer	-10.6929
tel	-10.6931
▁02	-10.6934
▁19,	-10.6937
▁ئافرەت	-10.6937
▁کراوە	-10.6941
ڤێ	-10.6942
▁حاڵی	-10.6943
▁جارێک	-10.6943
▁پێك	-10.6944
▁dilê	-10.6946
▁vekirina	-10.695
▁reng	-10.6951
▁dibînin	-10.6954
xin	-10.6956
08	-10.6958
▁موسوڵمان	-10.696
▁kevin	-10.6963
-10	-10.6963
▁krediyê	-10.6964
▁mercên	-10.6964
▁hişê	-10.6967
▁تۆیه	-10.6972
firoş	-10.6976
birin	-10.6977
lash	-10.6978
▁نگین	-10.6983
▁CO	-10.6986
▁pîşesazî	-10.6987
▁شتەکان	-10.6989
▁ڕێیانه	-10.6994
چو	-10.6995
▁پیشان	-10.6997
▁binçavkirin	-10.7001
▁Agahdariy	-10.7001
NAME	-10.7001
▁biçin	-10.7002
▁mir	-10.7002
▁Mezinahiya	-10.7002
ash	-10.7012
▁گێڕا	-10.7012
▁ago	-10.7015
CA	-10.702
84	-10.7021
▁Adarê	-10.7029
gê	-10.7034
▁qereqola	-10.7037
▁zindî	-10.7037
hem	-10.7039
▁spas	-10.7042
▁gen	-10.7042
٠٠٠	-10.7043
▁kor	-10.7045
▁داهاتوودا	-10.7046
ناسن	-10.7047
▁مرد	-10.7048
▁dibistanê	-10.705
▁Av	-10.7051
▁کێن	-10.7052
▁داواکار	-10.7052
▁xist	-10.7054
▁ڵکیدا	-10.7057
▁Save	-10.7061
یشم	-10.7063
▁Daxistin	-10.7065
▁Herî	-10.7066
▁Euro	-10.7072
▁Nûçe	-10.7074
▁xerab	-10.7075
انم	-10.7078
▁hêdî	-10.7079
▁Bingeh	-10.708
▁qasî	-10.7086
SE	-10.7088
zin	-10.7091
بینین	-10.7093
▁مردووه	-10.7096
▁Str	-10.7097
نێت	-10.71
▁دابوو	-10.7102
▁pêşxistina	-10.7105
▁ziman	-10.7106
▁ییه	-10.7107
▁torê	-10.7108
▁Fo	-10.7109
▁گل	-10.7109
saveatrain	-10.711
▁business	-10.711
▁ناشیرین	-10.711
▁WeTek	-10.711
▁neheq	-10.7111
-6	-10.7112
▁hewayî	-10.7113
ûd	-10.7115
▁2009	-10.7115
ston	-10.7119
▁گرتووه	-10.7119
▁Test	-10.7119
zik	-10.7125
▁بۆچوونی	-10.7125
▁پارچە	-10.7125
▁mû	-10.7126
▁mil	-10.7135
▁ڕیش	-10.7135
▁hew	-10.7138
▁sta	-10.7146
▁tevlî	-10.7147
▁Review	-10.7147
▁mamoste	-10.7147
▁بکردایه	-10.7147
▁sembol	-10.7147
▁Blue	-10.7147
▁Azad	-10.7148
▁پێوان	-10.7149
▁[2]	-10.7151
▁Am	-10.7159
▁زیرەک	-10.7168
rom	-10.7175
ارد	-10.7178
▁xwest	-10.7182
gî	-10.7183
▁غافڵ	-10.7184
▁brand	-10.7184
▁روبووم	-10.7189
▁hel	-10.7191
▁hevkariya	-10.7195
wis	-10.7195
kal	-10.7199
78	-10.7201
ەكە	-10.7204
لاش	-10.7205
▁پرسیارت	-10.7205
▁باوکیان	-10.7206
AP	-10.7207
4)	-10.7211
52	-10.7211
put	-10.7213
▁Mac	-10.7216
tom	-10.7218
شان	-10.7218
▁difikirin	-10.7222
▁York	-10.7222
▁سازگار	-10.7222
پای	-10.7226
ketî	-10.7227
▁رمانمان	-10.7227
▁پیاوێکی	-10.7227
ED	-10.7227
▁ناز	-10.7232
▁پێشبینی	-10.7233
ştî	-10.7237
▁xwestin	-10.7237
▁gav	-10.724
burg	-10.724
İ	-10.7248
▁ڵکێش	-10.725
▁جادووی	-10.7251
▁پان	-10.7255
Shortcut	-10.7259
▁dixebitin	-10.7259
▁price	-10.7259
▁ezmûn	-10.7259
▁xwînê	-10.726
▁چۆڵ	-10.7268
▁زانای	-10.727
cam	-10.7271
▁واڵم	-10.7273
▁gir	-10.7274
▁33	-10.728
شدا	-10.7281
gehê	-10.7282
PP	-10.7283
2018	-10.7284
قورئان	-10.7286
▁dad	-10.7287
کاران	-10.7288
▁lîsteyê	-10.7289
▁mehê	-10.7289
▁pêşkêşkirina	-10.7292
ware	-10.7293
▁تیژ	-10.7294
▁OSCam	-10.7296
▁WeTeK	-10.7296
▁port	-10.7296
▁Max	-10.7298
▁32	-10.7298
▁ڕوبار	-10.7304
IL	-10.7308
▁150	-10.7308
▁kontrolkirina	-10.7317
▁demekê	-10.7319
▁armancên	-10.7324
▁دوژمنی	-10.7325
خوارد	-10.7326
▁ki	-10.7328
▁مردنی	-10.733
rn	-10.7333
▁watch	-10.7334
▁Heyva	-10.7334
▁line	-10.7335
▁dolar	-10.7336
▁film	-10.7336
▁ڕێوه	-10.7336
▁çap	-10.7337
▁موسوڵمانان	-10.7339
▁vegera	-10.734
▁شمان	-10.7342
▁بیربک	-10.7349
▁tam	-10.7353
▁کارێک	-10.736
irin	-10.7363
سێ	-10.7365
▁Rûsya	-10.7366
▁بزانین	-10.7366
▁کردەوە	-10.737
▁GHz	-10.7372
▁حیکم	-10.7372
▁Bîr	-10.7375
▁çêbû	-10.738
▁وامیش	-10.738
▁رجێک	-10.7385
▁‘	-10.7386
;/	-10.7391
▁توشی	-10.7391
▁Park	-10.7391
yd	-10.7396
ەکانیش	-10.7396
▁گۆڕه	-10.7397
▁شوێنە	-10.7401
arî	-10.7403
▁رگر	-10.7405
▁سەد	-10.7406
ید	-10.7407
▁peymana	-10.7409
▁Global	-10.7409
▁parastî	-10.741
▁Endam	-10.7411
▁گرانی	-10.7412
▁چییە	-10.7412
98	-10.7415
▁سێنێت	-10.7419
▁Gelo	-10.742
code	-10.7421
nda	-10.7421
▁ڕۆچوون	-10.7422
▁بارو	-10.7426
▁Metro	-10.7429
▁وریا	-10.7429
▁ڵكو	-10.7433
▁ئاخۆ	-10.7434
xane	-10.7439
▁شێک	-10.7444
▁karker	-10.7444
▁xalên	-10.7448
AC	-10.7449
▁Alîkar	-10.7449
61	-10.7452
▁nivîsîn	-10.7455
▁ڕازاند	-10.7457
▁بگۆڕ	-10.7458
▁Partiya	-10.7463
▁endamê	-10.7464
fin	-10.7466
▁عیسای	-10.7467
▁ڕێگای	-10.7469
ڕێت	-10.7475
▁Dan	-10.748
▁Hinek	-10.7483
▁وتنه	-10.7484
kV	-10.7485
▁global	-10.7486
▁maddî	-10.7486
avên	-10.7486
▁menu	-10.7488
▁داهێنان	-10.749
▁بردووه	-10.7491
zîn	-10.7498
▁pergalê	-10.7501
nû	-10.7505
load	-10.751
▁kesane	-10.7512
▁مۆسیقا	-10.7514
▁پێناک	-10.7517
▁مەترسی	-10.7522
▁nexweş	-10.7522
▁Copyright	-10.7524
▁dilsoz	-10.7524
▁Xebat	-10.7524
▁ڤیدیۆ	-10.7524
▁Afrîka	-10.7524
▁rîsk	-10.7524
▁نێردراو	-10.7526
▁کت	-10.7528
▁art	-10.753
ئێ	-10.7531
ack	-10.7531
▁hun	-10.7536
sîn	-10.7537
▁ڵکیش	-10.754
▁Amûrên	-10.7541
تەوە	-10.7544
▁Im	-10.7545
▁2:	-10.7546
▁pisporê	-10.7547
▁Parzûna	-10.755
▁Pu	-10.7551
rb	-10.7551
▁sazkirinê	-10.7552
▁operasyona	-10.756
▁Technology	-10.7562
▁version	-10.7563
▁sêyemîn	-10.7564
▁unit	-10.7569
▁کارکردن	-10.7569
▁dîzaynkirin	-10.7572
ij	-10.7574
▁belgeya	-10.7574
qet	-10.7574
▁rastê	-10.7575
▁nirxên	-10.7576
rîk	-10.7582
▁êş	-10.7584
▁زانیوو	-10.7587
ایەتی	-10.759
▁pargîdan	-10.759
▁Previous	-10.7601
▁2/3	-10.7601
▁derziyê	-10.7601
▁Control	-10.7602
▁mişteriyên	-10.7603
6"	-10.7604
▁rengên	-10.7607
▁ستمان	-10.7609
▁ئاهو	-10.7609
▁بمانه	-10.7609
AM	-10.7612
39	-10.7612
▁İ	-10.7612
▁دەریا	-10.7615
▁telefona	-10.7615
▁نرێت	-10.7618
▁Sha	-10.7621
▁Code	-10.7626
چۆن	-10.7628
lip	-10.7629
uck	-10.7631
محمد	-10.7632
▁بوه	-10.7633
▁pîvana	-10.7637
cent	-10.7637
97	-10.7637
▁bimîne	-10.764
▁Bakur	-10.7641
▁ببم	-10.7644
▁نازانم	-10.7645
▁بیرکردنەوە	-10.765
▁Qanûna	-10.765
▁Gar	-10.7653
ÎN	-10.7654
Re	-10.7664
keve	-10.7669
▁Un	-10.767
▁huner	-10.7673
▁نزای	-10.7677
▁frequency	-10.7679
▁hilbijêrin	-10.7679
▁ئەندام	-10.768
UR	-10.768
▁گوناهکار	-10.7681
▁dikir	-10.7683
▁piştre	-10.7685
▁هۆ	-10.7691
▁têkiliyê	-10.7695
▁Xwendekarên	-10.7695
▁چیرۆک	-10.77
',	-10.7701
▁پێناس	-10.7702
▁بارانی	-10.7703
▁Sî	-10.7705
▁ئەبێت	-10.7706
▁نەدە	-10.7706
▁mezinbûna	-10.7706
▁کتێبێکی	-10.7708
▁ئەویش	-10.7708
rim	-10.7709
بوونەوە	-10.7714
▁tomarkirin	-10.7717
▁serbixwe	-10.7718
▁خۆراکی	-10.7718
▁نایزانن	-10.7719
▁جەنگ	-10.772
▁چون	-10.7723
▁cîhazên	-10.7724
▁Art	-10.7725
8"	-10.7726
▁geş	-10.7728
▁alîkarîya	-10.7736
wr	-10.7742
▁fer	-10.7742
▁شوێنک	-10.7743
▁Char	-10.775
hilat	-10.7754
BA	-10.7756
▁لێکردن	-10.7758
▁2007	-10.7763
keft	-10.7764
stra	-10.7765
▁Ê	-10.7768
▁Wan	-10.7768
▁نێرێت	-10.777
onê	-10.777
▁رموو	-10.777
rêz	-10.7773
kûm	-10.7774
رابوو	-10.7782
▁کێشەی	-10.7782
▁nîşana	-10.7792
▁لەبەرئەوەی	-10.7795
ID	-10.7796
▁Medical	-10.7796
▁میسر	-10.7796
▁کوژرا	-10.7797
کاتێك	-10.78
بکات	-10.7803
▁هێن	-10.7806
▁sîstemên	-10.7809
▁derfetên	-10.781
ena	-10.7812
▁Tur	-10.7815
▁ڕێبازێک	-10.7817
▁06	-10.7818
cur	-10.7823
▁8:	-10.7828
kek	-10.7828
تین	-10.7829
▁شکێن	-10.7833
▁Bikarhêner	-10.7836
▁Bitikîn	-10.7837
▁تایی	-10.7843
▁دیم	-10.7845
XL	-10.7848
گەر	-10.7852
▁پێگرتن	-10.7856
▁zer	-10.7862
▁دڵیاندا	-10.7864
▁110	-10.7867
▁navendên	-10.7876
▁armanc	-10.7876
▁ئاخر	-10.7877
▁نێوانتاندا	-10.788
ode	-10.7882
▁دڵخۆشی	-10.7884
▁yekane	-10.7885
▁Xelat	-10.7886
▁UK	-10.7893
▁veguherîne	-10.7897
▁نمون	-10.7899
▁pirtûk	-10.79
نووس	-10.7901
▁hêja	-10.7909
ries	-10.7912
▁سیف	-10.7915
▁texmîn	-10.7915
▁XWE	-10.7916
▁هیچیان	-10.792
▁تێفکرن	-10.7923
اتی	-10.7923
▁pargîdaniy	-10.7927
oy	-10.7934
▁leşker	-10.7936
▁بەشە	-10.794
ڤی	-10.7941
ێڵن	-10.7945
▁زیانێک	-10.7949
71	-10.795
▁کێکیان	-10.7953
▁70	-10.7953
▁bîranîn	-10.7954
▁Yekîtiya	-10.7955
پە	-10.7957
▁بك	-10.7961
درێ	-10.7964
▁چارەسەری	-10.7964
orê	-10.7969
▁میوان	-10.7971
uc	-10.7975
بەست	-10.7975
yer	-10.7978
▁کین	-10.7979
▁Jî	-10.7979
▁civaka	-10.798
fre	-10.798
▁antî	-10.7983
▁بینینی	-10.7987
▁pêşkêşî	-10.7987
▁Rengê	-10.7989
▁etc	-10.799
▁نجامیش	-10.7994
▁Dibistana	-10.7995
▁pêşerojê	-10.7996
▁فس	-10.7996
▁هۆشیار	-10.7996
▁ترسا	-10.8
▁بگەڕێ	-10.8006
zên	-10.8018
▁dermanên	-10.8018
▁ڕەنگ	-10.8018
▁گیانی	-10.802
دەکەن	-10.8028
▁شەو	-10.8028
▁تیدا	-10.803
berê	-10.803
Parastina	-10.8031
▁خەو	-10.8032
▁zehf	-10.8036
▁Media	-10.8036
▁bedew	-10.8036
▁rojhilat	-10.8037
▁Is	-10.8044
▁Teknolojiy	-10.8048
▁YE	-10.8052
▁çerm	-10.8056
DM	-10.8058
▁dermankirina	-10.8058
▁ga	-10.806
ica	-10.8062
▁شن	-10.8062
▁جل	-10.8062
▁ئازادی	-10.8065
▁وەرگرت	-10.8067
kirinên	-10.807
▁دێ	-10.8075
fl	-10.8075
▁Sky	-10.8076
▁گرۆ	-10.8076
mez	-10.8076
▁muzîkê	-10.8076
▁هێرش	-10.8076
▁Next	-10.8079
83	-10.808
▁دڵنیام	-10.8081
▁mijarên	-10.8093
▁Bed	-10.8096
▁cilên	-10.8097
▁kartên	-10.8099
▁یشتووه	-10.8105
▁پێویستمان	-10.8111
▁Motor	-10.8121
▁mirinê	-10.8123
▁afirandina	-10.8128
▁Net	-10.8129
▁تۆی	-10.8129
▁Oz	-10.8134
▁Mega	-10.8134
▁My	-10.8145
▁encamê	-10.8145
▁rêberê	-10.8147
▁ستا	-10.8153
king	-10.8155
3"	-10.8156
▁زۆرێک	-10.8157
▁favorite	-10.8158
▁berxwedana	-10.8158
▁Bide	-10.8162
▁Komara	-10.8162
▁agahdariyê	-10.8163
▁navnîşan	-10.8163
▁Metal	-10.8163
▁ڕاهێنان	-10.8163
▁هەن	-10.8164
▁lîstik	-10.8165
ating	-10.8165
ڵا	-10.8165
▁rehet	-10.8166
▁çav	-10.8168
cket	-10.8172
▁دانی	-10.8173
ham	-10.8178
lp	-10.8179
▁derî	-10.8179
ێوه	-10.8179
rg	-10.818
▁سوپاسی	-10.818
▁Girêdan	-10.8182
▁Hun	-10.8186
▁Tirk	-10.8187
▁Kor	-10.8188
▁dengên	-10.8188
▁pêşve	-10.8196
▁Navnîşana	-10.8197
kurdish	-10.8199
▁TimeTec	-10.8199
▁گەردوون	-10.8199
▁bistîne	-10.8199
▁Tîpa	-10.8199
▁navçeya	-10.8199
▁سواری	-10.8199
▁havîn	-10.8199
▁bedenê	-10.8201
▁Welat	-10.8201
▁nehatiye	-10.8202
▁زۆریش	-10.8203
ative	-10.8205
▁USD	-10.8213
table	-10.8215
▁pêwîstî	-10.8216
▁Fran	-10.8217
▁çermê	-10.822
test	-10.8224
lîk	-10.8227
yet	-10.8229
کەین	-10.823
▁Pêvek	-10.8234
lim	-10.8239
▁ژیانیان	-10.8243
▁îmze	-10.8245
▁تاوانیان	-10.8247
▁komp	-10.825
▁holê	-10.825
kur	-10.8251
bas	-10.8252
▁nabe	-10.8253
▁OS	-10.8253
▁Fer	-10.8253
▁ساڵان	-10.8254
îName	-10.8265
▁Dewletê	-10.8268
هێنان	-10.8271
▁خاوەن	-10.8273
mû	-10.8274
چەپڵە	-10.8278
▁پیلانی	-10.828
▁Rêjeya	-10.8281
▁ئاژەڵ	-10.8281
▁account	-10.8282
▁دوودڵی	-10.8282
▁href	-10.8282
▁parêzer	-10.8282
▁çavên	-10.8284
heng	-10.8293
▁materyalê	-10.8296
▁paşîn	-10.8296
▁mezintirîn	-10.8298
▁03	-10.8298
▁nîvê	-10.83
▁Çile	-10.8301
nameyek	-10.8302
mit	-10.8302
lect	-10.8303
▁پیاوانی	-10.8308
▁You	-10.8308
hatin	-10.831
▁تاکو	-10.8318
▁Demjimêr	-10.8323
▁Group	-10.8323
▁Bersîv	-10.8323
▁FSX	-10.8324
▁Up	-10.8328
▁çîn	-10.8329
pen	-10.833
▁جاڕ	-10.833
part	-10.8333
ition	-10.8333
▁پێکرد	-10.8334
IG	-10.8337
▁karsaziya	-10.8337
▁رستم	-10.8338
raw	-10.8342
▁bijare	-10.8344
▁Turk	-10.8345
▁Sun	-10.8345
▁ریای	-10.8345
▁karûbar	-10.8348
▁سود	-10.8348
▁شێکی	-10.835
▁فرۆشتن	-10.8352
▁Jiyan	-10.8358
81	-10.8359
poison	-10.8364
▁Pîroz	-10.8364
▁xNUMX	-10.8364
▁SPAM	-10.8365
▁تاك	-10.8365
2017	-10.8366
▁yekî	-10.8366
▁erzan	-10.8367
▁nakin	-10.8369
▁MA	-10.837
bb	-10.8376
▁تەمەن	-10.8377
▁AM	-10.8379
sor	-10.838
▁بڵێس	-10.8382
ئەو	-10.8384
▁Rêveberê	-10.8385
▁ژمارەی	-10.8387
بونەوە	-10.8388
şek	-10.8389
▁dermanê	-10.839
▁fun	-10.8391
▁çewt	-10.8392
▁دن	-10.8396
▁hebûn	-10.8401
▁خۆشبوو	-10.8404
▁Kürt	-10.8406
▁spartinê	-10.8406
▁کڕنووش	-10.8406
ification	-10.8406
▁دیزاین	-10.8406
▁baxçe	-10.8406
▁ڵوێست	-10.8406
▁ئیمانی	-10.8407
▁بەڕێوە	-10.8408
▁سەرچاوە	-10.8412
▁نادرێت	-10.8413
زار	-10.8413
▁فیل	-10.8413
ھێ	-10.8414
▁Hilbijêre	-10.8414
▁paqijkirina	-10.8415
▁standin	-10.8422
▁پرسێت	-10.8425
ih	-10.8426
▁نهان	-10.8428
band	-10.8437
lum	-10.8442
▁wextê	-10.8443
▁têkiliya	-10.8448
توو	-10.845
▁Koreya	-10.8451
Co	-10.8454
▁کچان	-10.8456
▁لەمە	-10.8461
▁یادخ	-10.8471
ارم	-10.8472
for	-10.8477
▁zêdekirina	-10.848
▁ڵس	-10.8485
ڵێت	-10.8486
▁هەستی	-10.849
شوێن	-10.849
▁minutes	-10.8491
▁ھەموو	-10.8491
▁PDF	-10.8491
gy	-10.8491
▁نوێی	-10.8493
▁باپیرانی	-10.8494
▁متان	-10.8498
▁jixwe	-10.8506
▁dadgehê	-10.8511
▁Pîvan	-10.8511
▁cî	-10.8513
çûna	-10.8513
ora	-10.8514
▁چێنن	-10.8516
▁televîzyonê	-10.8517
YE	-10.8517
▁zêr	-10.8524
▁جاری	-10.8531
▁Powder	-10.8533
▁Pergalê	-10.8533
▁lidarxistin	-10.8533
▁رشتیار	-10.8535
▁ڕیز	-10.8538
▁balafirê	-10.8539
▁ڕێگا	-10.854
▁گۆڕان	-10.8543
▁کۆتا	-10.8545
ref	-10.8547
▁موساو	-10.8549
حف	-10.855
▁چو	-10.8555
رس	-10.8557
ئەوە	-10.8557
▁عب	-10.8562
▁ketin	-10.8563
▁televizyonê	-10.8564
▁sin	-10.8566
▁Zêdetir	-10.8568
▁بوونیان	-10.857
ژە	-10.8573
lli	-10.8575
▁sedsala	-10.8575
▁welêt	-10.8575
▁لەبارەی	-10.8575
کردنەوە	-10.8576
▁anî	-10.8576
نین	-10.8577
زانێت	-10.8578
kera	-10.8579
▁بەشێک	-10.8581
▁Ferman	-10.8583
▁Get	-10.8585
▁توانایی	-10.8588
▁شاخ	-10.8593
cho	-10.8595
▁نجی	-10.8596
ەڵا	-10.8597
ons	-10.8599
▁ڤی	-10.8603
▁inter	-10.8608
bîr	-10.8608
▁stand	-10.861
كردنی	-10.8616
▁ئایینی	-10.8617
Generic	-10.8618
▁bifikirin	-10.8618
▁نازانێت	-10.8622
▁Ava	-10.8623
▁Para	-10.8626
▁cable	-10.8626
▁رسامی	-10.8627
▁Bikin	-10.8627
▁Bet	-10.8629
▁By	-10.863
maz	-10.8636
head	-10.8637
▁ندیی	-10.8639
▁فراوانی	-10.864
▁news	-10.8641
▁guherîn	-10.8641
▁رۆژ	-10.8642
▁بگە	-10.8647
▁خەون	-10.8651
CH	-10.8652
ەکەش	-10.8654
▁sûd	-10.8661
▁bisekinin	-10.8661
▁xerîb	-10.8661
یاخود	-10.8662
▁کاروباری	-10.8663
دەتوان	-10.8663
▁وشك	-10.8663
▁Bernameya	-10.8663
▁birin	-10.8665
▁دۆڵ	-10.8668
▁Af	-10.8675
▁City	-10.8682
▁lingê	-10.8683
▁کر	-10.8683
▁peyman	-10.8685
▁ڵان	-10.8691
▁3,	-10.8696
▁ئەوا	-10.8697
▁add	-10.8697
▁Piştgiriy	-10.8704
▁گروپ	-10.8705
▁ئەوەندە	-10.8705
زێت	-10.8708
▁دڵسۆزی	-10.8712
▁zanîngehên	-10.8713
▁باخات	-10.8714
▁sepan	-10.8715
▁koma	-10.8716
▁Ste	-10.8716
دارو	-10.8717
▁ru	-10.8719
axa	-10.872
▁mêvan	-10.8721
▁تۆیش	-10.8722
▁دوژمنان	-10.8722
irandin	-10.8733
▁hêzên	-10.8735
yekî	-10.8736
▁حسابی	-10.8742
▁xwarina	-10.8742
▁75	-10.8743
ions	-10.8744
▁French	-10.8748
▁ثمود	-10.8748
▁dibêjim	-10.8748
▁Amedê	-10.8748
▁şekir	-10.8748
▁بدەین	-10.8748
▁profîl	-10.8748
▁zanîngeha	-10.8751
▁Peyam	-10.8752
▁ناکۆکی	-10.8753
▁tîp	-10.8753
▁non	-10.8754
▁نامێنێت	-10.8755
▁ڕاستگۆیان	-10.8757
کێن	-10.8758
▁qedand	-10.8762
lock	-10.8763
▁rakirin	-10.8772
atê	-10.8772
▁نەبێت	-10.8774
▁گەیشت	-10.8777
▁Kontrol	-10.878
▁MB	-10.8786
▁دروستمان	-10.8788
ml	-10.8788
▁access	-10.8791
.07.2016	-10.8791
▁hiqûq	-10.8791
▁ڕابواردن	-10.8791
▁status	-10.8791
▁milyar	-10.8792
ڕۆژ	-10.8793
▁ewlehî	-10.8793
ulator	-10.8793
▁رپابوونی	-10.8794
ors	-10.8803
▁cezayê	-10.8805
▁شەش	-10.8808
ksiyon	-10.8811
stro	-10.8811
▁Form	-10.8815
DE	-10.8821
▁باپیرانمان	-10.8822
▁Tebaxê	-10.8827
▁ناسن	-10.8828
▁Live	-10.8829
▁peyva	-10.883
▁zûtir	-10.8831
▁ڕێژ	-10.8831
▁comments	-10.8835
▁Hingê	-10.8835
ess	-10.8837
▁لاوازی	-10.8837
سن	-10.8837
هێشت	-10.8844
the	-10.8846
▁çareserkirina	-10.8846
كاری	-10.8852
▁Auto	-10.8859
▁باوك	-10.8864
less	-10.8865
▁تەمەنی	-10.8866
خاو	-10.8868
ەكان	-10.8872
ros	-10.8874
▁Dewleta	-10.8874
▁kirê	-10.8878
▁ڕاستەقینە	-10.8879
▁ئابوری	-10.8879
▁400	-10.8879
▁دۆسی	-10.8879
▁کورسی	-10.8879
▁الم	-10.888
▁زانکۆ	-10.8881
▁erênî	-10.8881
▁Lebê	-10.8881
▁هود	-10.8882
▁کێشا	-10.8882
▁Zi	-10.8884
▁جین	-10.8886
LA	-10.8887
▁pirsî	-10.8887
▁دوژمنانی	-10.8888
▁Almanyayê	-10.8888
gah	-10.8888
▁stêr	-10.8892
▁درۆیان	-10.8892
▁سادە	-10.8894
side	-10.8894
pêş	-10.8897
▁San	-10.8899
▁Têketin	-10.8899
rap	-10.8904
▁دەمار	-10.8908
▁تت	-10.8914
In	-10.8914
▁All	-10.8915
▁por	-10.8917
\\\\	-10.8923
▁yekîneyên	-10.8923
▁Girtîgeha	-10.8923
▁بەرچاو	-10.8924
▁سەرکەوتن	-10.8927
▁كراوه	-10.8928
لوط	-10.8929
▁ڕێکی	-10.8929
▁لانی	-10.8932
▁بێدارک	-10.8933
▁Kontrola	-10.8934
ihêr	-10.8934
olojîk	-10.8937
▁زینا	-10.8939
▁هەنگاو	-10.894
▁پارێزراو	-10.8943
▁alîkariyê	-10.8943
▁هەڵبژاردن	-10.8944
IV	-10.8948
یەی	-10.8948
▁tûr	-10.8962
▁Set	-10.8965
rew	-10.8965
▁قام	-10.8966
▁Bazirganî	-10.8967
▁ئەزموون	-10.8967
pat	-10.8971
0.0	-10.8971
▁زانینی	-10.8973
▁تێر	-10.8981
▁cûr	-10.8983
▁ناپاک	-10.8987
▁پۆشاک	-10.8988
▁ھەر	-10.8989
لیۆن	-10.899
gin	-10.8992
▁hefteyê	-10.8998
▁ڕەنگە	-10.9005
▁xwendinê	-10.9006
▁Business	-10.9011
▁check	-10.9011
▁lêkolînên	-10.9012
tech	-10.9012
▁توێی	-10.9013
▁بڕوات	-10.9015
▁xala	-10.902
ئاو	-10.9021
▁qanûnî	-10.9024
ift	-10.9025
▁ڕۆم	-10.9029
▁كێش	-10.9031
▁leşkerî	-10.9032
▁DC	-10.9036
CI	-10.9037
karê	-10.9039
تەر	-10.9042
بڵ	-10.9048
▁Gund	-10.9049
▁پاراو	-10.9049
best	-10.9049
▁rengek	-10.9049
▁modelên	-10.905
▁sedemên	-10.9051
-12	-10.9051
CO	-10.9052
▁dîrokê	-10.9053
▁ڕێکخستن	-10.9056
▁DVD	-10.9056
▁hilweşîn	-10.9056
▁şirketa	-10.9056
▁خاش	-10.9056
▁بۆشایی	-10.9057
▁بەبێ	-10.9059
نایه	-10.9059
▁Teknîkî	-10.9061
▁زایی	-10.9064
▁She	-10.9064
;&	-10.9064
کراوە	-10.9065
▁Vebijêrk	-10.9067
▁ریادا	-10.9068
▁qat	-10.9073
▁جێیان	-10.9078
▁وەستا	-10.9082
▁Nivîsar	-10.9082
بازی	-10.9085
▁bazarên	-10.9087
▁رۆژی	-10.9088
وباره	-10.9089
dayî	-10.9094
ژێن	-10.9096
▁ویداو	-10.9097
▁Australia	-10.9101
▁hevpeyman	-10.9101
▁screen	-10.9101
▁هونەر	-10.9101
▁کێشە	-10.9101
▁ڕۆژئاوا	-10.9101
▁hevalbend	-10.9101
▁First	-10.9103
▁بکەینەوە	-10.9103
▁هەسارە	-10.9104
▁هێندە	-10.9105
gle	-10.9106
▁باخچ	-10.9109
▁Term	-10.9109
▁Kodi	-10.9111
▁sw	-10.9112
kerên	-10.9114
بڕن	-10.9117
▁para	-10.912
▁nirxa	-10.9122
▁lîst	-10.9123
▁avahiyên	-10.9124
▁Bra	-10.9127
▁Dîtin	-10.9127
▁mar	-10.9127
▁Line	-10.9129
▁پارێزکاری	-10.9129
▁Nivîskar	-10.9132
▁وتمان	-10.9134
▁نزیکدا	-10.9136
row	-10.9136
kuj	-10.9136
▁hilberandin	-10.9137
ێڵێت	-10.9138
▁کەسی	-10.9139
▁zanist	-10.9141
▁box	-10.9143
ee	-10.9144
▁dihêle	-10.9146
▁فسی	-10.9146
▁پێشینان	-10.9148
▁ئەرک	-10.9148
▁vol	-10.9151
لم	-10.9152
-9	-10.9156
▁dîrokî	-10.9157
▁saziyên	-10.9157
▁Dirb	-10.9159
▁endam	-10.9163
▁pak	-10.9163
▁teng	-10.9165
▁avahiyê	-10.9168
▁دەتوانی	-10.9168
▁options	-10.9174
▁tenduristiyê	-10.9174
▁hand	-10.9174
▁(2)	-10.9174
ێل	-10.9176
ving	-10.9181
▁گور	-10.9183
▁civakê	-10.9183
▁(%	-10.9188
îrok	-10.9189
▁دارخورما	-10.9191
▁Zêrîn	-10.9191
▁بگات	-10.9191
▁temenê	-10.9192
▁nekin	-10.9193
▁kinc	-10.9193
▁bixweber	-10.9194
▁نانه	-10.9197
▁Van	-10.9198
▁girtina	-10.9198
▁توڕ	-10.9199
▁Bir	-10.9201
▁Bas	-10.9201
▁خوێنرێت	-10.9201
▁11:	-10.9203
▁tund	-10.9205
▁option	-10.9209
▁herdem	-10.9213
▁لان	-10.9213
▁Tevî	-10.9214
▁Hilber	-10.9219
▁9:	-10.9221
▁خانوو	-10.9222
but	-10.9227
700	-10.9228
▁Cihê	-10.9231
▁Bihayê	-10.9236
▁tevger	-10.9236
▁lezgîn	-10.9237
▁wusa	-10.9237
▁سنور	-10.9237
▁خەریک	-10.9238
کاتی	-10.9238
▁Navnîşan	-10.9239
class	-10.9239
▁میلل	-10.9241
▁love	-10.9241
▁nêzî	-10.9242
▁herin	-10.9244
▁دروستکردووه	-10.9247
cast	-10.9252
dîtin	-10.9258
▁projeyê	-10.9262
▁خولەک	-10.9263
▁شتان	-10.9263
▁فامی	-10.9265
▁گرم	-10.9266
▁Pelê	-10.9269
▁TVyê	-10.9273
▁ڵاتداری	-10.9277
wek	-10.9277
▁بتوانین	-10.9282
▁ناوەڕاست	-10.9282
▁veqetandin	-10.9282
▁سەبار	-10.9284
▁Panel	-10.9285
▁radest	-10.9286
▁Nirx	-10.9287
▁nekir	-10.9291
ەکانت	-10.9292
▁sub	-10.9292
دەزانی	-10.9295
▁dawîn	-10.9298
▁250	-10.9298
▁پیاد	-10.9299
▁کوشتنی	-10.9303
SI	-10.9303
çi	-10.931
▁Tev	-10.9312
▁soz	-10.9318
گوت	-10.9321
▁buy	-10.9323
▁duyem	-10.9325
▁crypto	-10.9327
▁ڕۆشن	-10.9328
▁Amazon	-10.9328
▁Komeleya	-10.9328
▁pêdiviyên	-10.9328
▁پاڵپشت	-10.9328
▁ڕۆژێکدا	-10.9328
▁mijara	-10.9328
▁Internet	-10.9328
▁چیمان	-10.9329
خراو	-10.933
▁carekê	-10.9333
▁ver	-10.9336
▁یاڵی	-10.9336
xweş	-10.9338
کەرەوە	-10.9339
▁دلۆڤانه	-10.9341
▁Germ	-10.9342
▁destpêkirina	-10.9344
kr	-10.9345
بردن	-10.9345
kevin	-10.9349
▁دەنگی	-10.9352
▁گۆشت	-10.936
▁bendê	-10.9361
▁10:	-10.9362
▁فریشتان	-10.9364
▁$1	-10.9365
▁pêşveçûnê	-10.9366
▁فرینی	-10.9366
▁Jet	-10.9369
https	-10.9371
▁تێبینی	-10.9372
▁kesekî	-10.9372
▁Dost	-10.9373
iş	-10.9373
▁rastiya	-10.9373
▁رموود	-10.9374
▁nûçe	-10.9374
پەر	-10.9374
▁College	-10.9374
▁Xwendin	-10.9374
▁بازاڕ	-10.9374
▁Pirsgirêkên	-10.9374
▁بەیەکەوە	-10.9374
▁بزانم	-10.9377
▁paris	-10.9381
UT	-10.9388
▁bidestxistina	-10.9388
îzma	-10.9393
▁zor	-10.9395
xwîn	-10.9396
▁ئاژ	-10.9396
sis	-10.9398
▁Nu	-10.9398
ڤە	-10.9403
چا	-10.9404
▁parastinê	-10.9405
▁rola	-10.9406
oş	-10.9407
▁agahdarî	-10.9409
▁تۆدا	-10.9412
▁دەستم	-10.9413
▁پیرۆزی	-10.9413
▁Dubai	-10.942
▁Vîdyo	-10.942
▁Profîl	-10.9421
▁تێکەڵ	-10.9422
▁rûmet	-10.9424
400	-10.9425
kişandin	-10.9425
▁2006	-10.9425
▁nîşanên	-10.9426
▁كتر	-10.9426
▁ناویان	-10.9427
zo	-10.9428
mîk	-10.9428
لله	-10.9428
▁pîr	-10.9429
پاشان	-10.9429
▁kesk	-10.9435
▁حاڵ	-10.9437
کرن	-10.9438
▁توو	-10.944
▁بواری	-10.944
300	-10.9441
▁سیح	-10.9444
TR	-10.9446
OL	-10.9446
lû	-10.9448
▁دەبوو	-10.9448
▁ڵستی	-10.945
▁نوسین	-10.9454
▁ئاواتی	-10.9459
▁navnîşana	-10.9461
▁زۆرمان	-10.9464
▁mayî	-10.9466
▁Netewî	-10.9467
▁peldanka	-10.9467
▁polîtîk	-10.9467
▁analîz	-10.9467
▁xwendekar	-10.9469
▁bazirganiya	-10.9472
!&	-10.9472
▁هێمنی	-10.9473
▁hebûna	-10.9477
▁nenas	-10.9477
▁Yo	-10.948
▁کچی	-10.948
▁Baş	-10.9481
▁dereng	-10.9484
▁pan	-10.9493
▁beriya	-10.9495
▁ناف	-10.9497
▁laş	-10.9497
▁wi	-10.9503
▁navnîşa	-10.9504
▁مرن	-10.9505
▁نجامتان	-10.9506
▁سروشت	-10.9507
▁bernameyê	-10.9509
▁شیرین	-10.951
▁dirav	-10.9512
▁Rêbendan	-10.9514
▁garantî	-10.9514
▁Helbest	-10.9514
ەکانەوە	-10.9515
▁بنیات	-10.9515
RS	-10.9515
rke	-10.9515
ino	-10.9518
▁tedawî	-10.9519
▁that	-10.9519
▁Steel	-10.9521
Fi	-10.9523
▁ساڵە	-10.9525
cks	-10.9526
▁Daxistina	-10.9527
ترن	-10.9529
RO	-10.9534
▁لەدەست	-10.9536
▁êdî	-10.954
HD	-10.9541
▁دایکم	-10.9543
▁rêyên	-10.9546
▁برایان	-10.9551
پشک	-10.9557
▁کتری	-10.9559
▁توێژ	-10.956
▁بتوانن	-10.9561
▁dimîne	-10.9561
▁odeya	-10.9562
▁OEM	-10.9563
▁deryayê	-10.9564
▁پڕۆژە	-10.9568
ene	-10.9569
▁Ben	-10.9583
▁amadekirin	-10.9591
ببن	-10.9598
▁Hem	-10.9604
▁zimanên	-10.9606
▁Bird	-10.9607
▁پوخت	-10.9608
▁دووچاری	-10.9608
▁پێشنیار	-10.9608
▁neteweyî	-10.9609
▁sepanên	-10.9611
▁کۆمەڵگا	-10.9612
▁belge	-10.9614
▁هەفتە	-10.9626
ساڵ	-10.9627
vanê	-10.9628
▁Express	-10.9628
▁دەکەوێت	-10.9628
▁کراوان	-10.9628
▁amûr	-10.9629
▁بڕیارمان	-10.963
count	-10.9632
▁گۆڕینی	-10.9632
▁kêr	-10.9636
▁lêgerînê	-10.964
▁hûrgelan	-10.9655
▁ئینگلیزی	-10.9655
▁jîngehê	-10.9655
▁Mînak	-10.9656
▁ترازا	-10.966
▁çepê	-10.9662
▁card	-10.9663
▁park	-10.9665
▁LI	-10.9666
▁girê	-10.9668
▁heb	-10.9671
▁ژور	-10.9675
▁destpê	-10.9683
▁banka	-10.9694
▁گەڕان	-10.9696
▁توانیت	-10.9697
▁بەشێکی	-10.97
yayî	-10.9702
▁guhertoya	-10.9703
▁hevpeyvîn	-10.9703
▁هاتووچۆ	-10.9703
▁Network	-10.9703
cord	-10.9709
▁time	-10.9711
▁hewayê	-10.9712
BAR	-10.9713
▁پرسیاری	-10.9715
▁sûc	-10.9718
▁تیشک	-10.9719
▁Ye	-10.9721
ise	-10.9722
▁How	-10.9723
▁Weşanên	-10.9726
▁دەبێتەوە	-10.9731
KAR	-10.9733
▁kêl	-10.9734
▁ژنانی	-10.9738
▁girl	-10.9742
▁Ajansa	-10.9751
▁cûrbecûr	-10.9751
▁klasîk	-10.9751
▁picture	-10.9751
▁دەتوانم	-10.9751
▁پێچەوانە	-10.9751
▁faktor	-10.9751
بوونەوەی	-10.9752
▁شتیان	-10.9753
▁dr	-10.9754
▁نابیستن	-10.9754
▁rêveberê	-10.9754
▁کردووم	-10.9761
▁دۆزینەوەی	-10.9762
gal	-10.977
پەڕ	-10.9771
▁ڕەش	-10.9777
="5	-10.9779
خانە	-10.9779
gur	-10.9781
▁گۆڕانی	-10.9786
▁ئومێدی	-10.9787
▁bes	-10.9788
▁red	-10.979
▁ئێستاش	-10.9791
▁neke	-10.9791
▁کەسانەی	-10.9793
▁located	-10.9799
▁Şîfre	-10.9799
▁پەروەردە	-10.9799
▁ڕاپێچ	-10.9799
▁تانکرد	-10.98
ندی	-10.9803
▁kurê	-10.9809
▁heywanên	-10.981
▁Rêveber	-10.9813
▁فتاری	-10.9813
oper	-10.9814
▁HE	-10.9814
▁Şa	-10.9816
▁ڕۆیشتن	-10.9822
▁Roman	-10.9822
▁tirs	-10.9823
▁AD	-10.9824
nirx	-10.9829
bînin	-10.9831
lm	-10.9831
▁باسکران	-10.9835
▁وشک	-10.9835
▁Ken	-10.984
▁ژیانمان	-10.984
rav	-10.9843
بگرێت	-10.9844
▁زاناکان	-10.9845
▁September	-10.9847
▁rizgar	-10.9847
▁Aborî	-10.9847
▁cnc	-10.9847
▁لاتان	-10.9848
روو	-10.9849
▁Life	-10.985
▁مێکیان	-10.9851
▁Tomar	-10.9851
▁auto	-10.9854
▁cihekî	-10.9855
بم	-10.9855
ier	-10.9857
▁hî	-10.9862
▁ڵم	-10.9863
▁karsaz	-10.9864
▁desteserkirin	-10.9865
▁berdest	-10.9868
ür	-10.987
nîk	-10.9874
VI	-10.9875
▁çavdêr	-10.988
▁dahat	-10.9882
▁ton	-10.9891
▁رمانیدا	-10.9893
▁کاربه	-10.9895
▁siyasî	-10.9896
▁sivîl	-10.9896
▁پێشبڕکێ	-10.9896
▁Armanca	-10.9896
▁هاوبەش	-10.9897
▁باراندوو	-10.9897
▁نوقمی	-10.9898
▁Master	-10.9909
ەوانە	-10.9914
Be	-10.9915
▁لارو	-10.9922
▁براکانی	-10.9932
▁dayik	-10.9932
▁MO	-10.9937
▁Sch	-10.9937
▁iPhone	-10.9944
▁مامەڵە	-10.9944
▁bixwînin	-10.9944
▁arşîv	-10.9944
▁شارەزا	-10.9944
▁alloy	-10.9944
▁kredî	-10.9944
▁دێهات	-10.9945
▁دەروونی	-10.9945
▁ڕوودەدات	-10.9946
▁Super	-10.9948
▁têr	-10.9948
▁ببات	-10.9952
jd	-10.9954
▁Of	-10.9956
wl	-10.9958
▁ڕێزدار	-10.9961
Em	-10.9963
rêveber	-10.9967
eo	-10.9967
▁کانیشیان	-10.9972
▁Plana	-10.9978
▁نار	-10.9979
▁بڕین	-10.998
▁Nor	-10.9981
qi	-10.9982
▁واتای	-10.9982
▁Uni	-10.9982
yekê	-10.9985
▁gavê	-10.9986
▁Rêxistin	-10.9987
▁Raw	-10.9991
kom	-10.9991
HE	-10.9993
▁plugin	-10.9993
▁بەرنامە	-10.9993
▁Lêgerîn	-10.9994
▁Veguhestin	-10.9994
▁player	-10.9995
yaredariy	-10.9995
▁nûçeyên	-10.9997
▁make	-10.9997
▁كانمان	-11.0008
▁مەبەست	-11.001
▁تاڵاو	-11.0011
▁Ver	-11.0012
ێنرێن	-11.0019
خستنی	-11.002
▁پێدان	-11.0021
hêl	-11.0022
▁toz	-11.0023
mark	-11.0025
▁يه	-11.0026
▁hefteyên	-11.0027
▁بازن	-11.0028
▁Şert	-11.0028
▁hiştin	-11.0035
▁King	-11.0036
▁mer	-11.004
▁خۆگری	-11.0042
▁کاریان	-11.0042
▁window	-11.0043
▁Municipalit	-11.0043
▁sektora	-11.0043
▁şîrove	-11.0043
▁nêrîn	-11.0043
▁شومار	-11.0043
▁ئەوکاتە	-11.0043
▁mêran	-11.0046
py	-11.0048
▁heyecan	-11.0048
bigere	-11.005
▁rojava	-11.005
NG	-11.005
▁هاوتای	-11.0053
▁USA	-11.0054
▁xweser	-11.0062
2016	-11.0062
▁perçe	-11.0067
don	-11.007
▁hezaran	-11.0076
▁şîn	-11.0082
▁Sar	-11.0085
▁ڤایرۆس	-11.0092
▁biparêze	-11.0092
▁Tar	-11.0095
▁چووزانی	-11.0096
▁kevneşop	-11.0096
▁Apple	-11.0097
▁Module	-11.0098
▁رمای	-11.0098
▁xaniyê	-11.0101
▁Ay	-11.0102
▁کۆششی	-11.0105
Têkilî	-11.0106
▁firot	-11.0107
▁Direct	-11.0107
▁رکرد	-11.0109
▁بیرناک	-11.011
▁FS	-11.0116
كراو	-11.0118
▁qad	-11.0118
▁standardên	-11.0124
▁karmend	-11.0125
▁کڕین	-11.013
▁Cure	-11.0132
دێت	-11.0132
▁Nikar	-11.0133
▁زریان	-11.0135
▁Pey	-11.0136
▁گینا	-11.0142
Query	-11.0142
▁خێو	-11.0142
şandin	-11.0144
▁رازوو	-11.0145
▁رگرتووه	-11.0149
▁کون	-11.0152
▁Love	-11.0155
▁ماڵەوە	-11.0155
▁رشۆڕ	-11.0159
GB	-11.016
ras	-11.0161
▁plana	-11.0164
▁nîne	-11.0165
▁şopandin	-11.0167
▁Pen	-11.017
St	-11.0172
▁شکاند	-11.0173
▁Shi	-11.0174
▁رشۆڕی	-11.0175
▁ڵسو	-11.0176
▁گەورەی	-11.0177
▁نابین	-11.0181
ێست	-11.0182
▁تیادایه	-11.0182
iq	-11.0183
▁ئیلی	-11.0187
EM	-11.0187
mat	-11.0188
bul	-11.019
نیشان	-11.0191
▁Şoreş	-11.0192
▁وشکانی	-11.0199
▁xistin	-11.0199
ole	-11.02
IA	-11.0201
▁tû	-11.0202
▁erk	-11.0202
▁ڕۆزیی	-11.0205
–	-11.0207
▁ئاماژە	-11.0214
ێنرا	-11.0216
kariya	-11.0217
▁kirî	-11.022
▁شتێکیان	-11.0222
▁Com	-11.0224
▁Ph	-11.0229
▁Dê	-11.023
▁awayek	-11.0231
Play	-11.0234
▁civîna	-11.0237
▁Pelên	-11.0237
▁Exchange	-11.0242
▁derheqê	-11.0242
▁saxlem	-11.0242
▁Avrêl	-11.0242
▁tikandinê	-11.0242
▁Lîstik	-11.0242
NN	-11.0243
▁kursên	-11.0243
▁îm	-11.0243
▁دەردەکەوێت	-11.0245
▁جوڵە	-11.0253
▁komên	-11.0254
krî	-11.0254
▁12:	-11.0259
▁serkeftin	-11.0261
▁دەژین	-11.0267
▁کارەکە	-11.0275
nam	-11.0276
▁berpirsiyar	-11.0276
انەیە	-11.0278
▁ڕیسوایی	-11.028
▁٥	-11.0281
▁تووڕ	-11.0289
qonax	-11.0291
▁Bluetooth	-11.0293
▁klînîk	-11.0293
▁ئینتەرنێت	-11.0293
▁دەزانین	-11.0293
▁domdar	-11.0294
▁ڕێکخراو	-11.0294
▁ئاسود	-11.0295
▁day	-11.0296
gotin	-11.0297
▁كێك	-11.0301
ranê	-11.0302
▁بدەم	-11.0302
▁Barkirina	-11.0313
کردووە	-11.0316
▁xwarinên	-11.0317
▁پێکردن	-11.0321
list	-11.0331
▁چوونی	-11.0334
▁Tre	-11.0334
لین	-11.0339
▁Mobile	-11.0343
▁fabrîk	-11.0343
▁pîşeyî	-11.0343
▁بێئاگا	-11.0343
▁Operasyon	-11.0343
▁Encam	-11.0344
▁çalakiyê	-11.0344
دروست	-11.0345
▁ندام	-11.0347
▁qeydkirî	-11.035
هێناوه	-11.0352
-200	-11.0356
▁یخات	-11.036
ەنە	-11.0361
خۆر	-11.0365
▁جە	-11.0365
▁Çand	-11.0367
▁Pêveka	-11.0372
ism	-11.0372
graf	-11.0372
▁شداری	-11.0374
He	-11.0377
ûna	-11.0377
شێوە	-11.0379
▁دەستپێ	-11.0386
SR	-11.0387
▁سووت	-11.0389
bike	-11.039
▁سەرنجڕاکێش	-11.0394
▁Pûşper	-11.0394
▁seranserî	-11.0394
▁لێناکرێت	-11.0394
▁Firotin	-11.0394
▁Space	-11.0394
▁دێرین	-11.0395
▁Çiyayî	-11.0395
دوور	-11.0396
îstan	-11.0399
▁تێرو	-11.04
▁rûniştin	-11.0401
▁48	-11.0401
▁بەرگری	-11.0404
iy	-11.0405
hop	-11.0408
▁سار	-11.0408
îkê	-11.0409
▁٤	-11.0413
▁چاڵ	-11.0415
▁سیستەمی	-11.0417
▁ناچاریی	-11.0421
dewlet	-11.0424
▁Rêber	-11.0425
درا	-11.0425
▁لەوانە	-11.0426
رک	-11.0426
▁dermankirinê	-11.0426
yu	-11.0428
▁Far	-11.0433
▁بڕوادار	-11.0433
كات	-11.0433
▁لیلی	-11.0434
جۆر	-11.0435
گەیشت	-11.0441
▁bûyerê	-11.0445
▁bijîşk	-11.0446
▁hormone	-11.0446
▁surface	-11.0446
▁دۆعا	-11.0446
▁derdora	-11.0446
▁هەم	-11.0446
▁حاڵێکدا	-11.0446
ترە	-11.0448
▁پێشکەش	-11.0449
؟!).	-11.0449
We	-11.0451
▁gotara	-11.0451
▁باز	-11.0452
▁واتا	-11.0453
▁بگێڕ	-11.0454
▁وسان	-11.0454
▁bihêz	-11.0455
▁bag	-11.0455
TP	-11.0458
دەست	-11.0463
▁Ali	-11.0464
▁بهێنیت	-11.0465
▁Slot	-11.0469
▁parçe	-11.0471
▁neh	-11.0472
▁materyal	-11.0473
▁veguherîn	-11.0483
▁operatorên	-11.0483
DP	-11.0483
▁بد	-11.0484
gent	-11.0486
star	-11.0486
▁bête	-11.0487
siyonê	-11.0489
▁cem	-11.049
▁nexş	-11.0492
▁lêgerîna	-11.0493
1.1	-11.0496
▁fînans	-11.0497
▁qenc	-11.0498
▁piştevanîya	-11.0498
▁Girav	-11.0498
▁Îranê	-11.0498
▁‘’	-11.0499
▁پارێزکاربن	-11.0502
▁گوند	-11.0503
▁ڕووناک	-11.0505
▁34	-11.0506
▁ژیانێکی	-11.0507
deng	-11.0516
▁On	-11.0519
▁کردنیان	-11.052
ئێوه	-11.0523
▁پیری	-11.0525
▁Dev	-11.0527
▁ناسراو	-11.0528
▁Fire	-11.0529
▁qutkirin	-11.053
rator	-11.0531
▁37	-11.0532
▁Fir	-11.0533
ەکەیە	-11.0534
▁وراتمان	-11.0537
▁قازانجی	-11.0541
ووش	-11.0546
▁biafirîne	-11.0549
▁charter	-11.0549
▁ڕابوردوو	-11.0549
▁pevçûn	-11.0549
▁Got	-11.055
▁درو	-11.055
▁xetên	-11.0551
▁Mil	-11.0551
▁Tan	-11.0553
▁55	-11.0559
کران	-11.0561
▁fikrên	-11.0562
▁Fu	-11.0564
▁خشیت	-11.0564
▁platformê	-11.0565
▁٢٠٠	-11.0566
▁09	-11.0567
▁tîrêjê	-11.0573
انەدا	-11.0573
▁SER	-11.0575
▁رشانی	-11.0577
ûmê	-11.0579
▁bihayên	-11.0582
▁7:	-11.0583
îner	-11.0586
▁شتانەی	-11.0586
▁Zarok	-11.0586
ۆکی	-11.0586
▁Bawer	-11.0586
▁ڕۆژوو	-11.0587
▁Awa	-11.0589
▁جیاکردن	-11.0593
hate	-11.0594
▁nizanin	-11.0601
▁رناگیرێت	-11.0601
▁mifte	-11.0602
▁تەماشای	-11.0603
▁خواست	-11.0603
▁Enqereyê	-11.0603
▁tecrubeya	-11.0604
▁veguhastin	-11.0607
▁خستن	-11.0608
▁پارەی	-11.0609
▁dirb	-11.061
▁nivîsê	-11.061
▁زیندان	-11.0612
▁روونیان	-11.0613
▁هەشت	-11.0614
hatina	-11.0616
▁gavên	-11.0617
لیس	-11.0618
▁berbi	-11.0619
[	-11.062
olog	-11.0622
▁وزەی	-11.0624
▁رستین	-11.0632
sch	-11.0636
▁39	-11.0637
▁Kan	-11.0638
▁کای	-11.064
▁destan	-11.0642
▁heval	-11.0644
GI	-11.0649
▁بەناو	-11.0649
▁درۆو	-11.0649
▁ناچار	-11.0652
▁Berfanbar	-11.0653
▁temaşevanan	-11.0653
▁Ewrûpa	-11.0653
▁بەرامبەر	-11.0653
▁sererast	-11.0654
▁Cha	-11.0654
▁دڵنیان	-11.0656
▁دارستان	-11.0656
▁مکارتر	-11.066
▁hatibûn	-11.0664
▁دانیشتن	-11.0671
del	-11.0672
▁كوشت	-11.0673
trop	-11.0674
play	-11.0676
▁چڵ	-11.068
▁خراپترین	-11.0683
▁çandî	-11.0686
▁وردو	-11.0687
▁leza	-11.069
▁رگی	-11.0693
▁ویستیان	-11.0695
▁خوارەوە	-11.0701
▁ڵکان	-11.0706
▁rexne	-11.0706
ەرەوە	-11.0709
▁hevpar	-11.0712
Book	-11.0714
enc	-11.0715
▁گرتنی	-11.0716
▁şîfre	-11.0716
گوێ	-11.0717
▁ئەکات	-11.0717
▁pêvek	-11.0718
▁Pat	-11.0722
▁یڵێن	-11.0723
▁رچن	-11.0724
▁125	-11.0728
▁مێژووی	-11.0732
▁neyê	-11.0733
▁Destûra	-11.0734
▁زو	-11.0736
lem	-11.0739
▁IT	-11.0741
2019	-11.0743
▁کانتاندا	-11.0747
ییەکەی	-11.0751
▁Dane	-11.0755
▁Game	-11.0759
▁Service	-11.0759
▁tedawiya	-11.0759
▁block	-11.076
▁تاکە	-11.0761
▁Check	-11.0763
ym	-11.0764
▁ندێکتان	-11.0767
tv	-11.0768
▁pêşiya	-11.077
▁Out	-11.0771
▁دیکە	-11.0772
▁ئەل	-11.0773
▁Trans	-11.0774
Nav	-11.0775
▁پیت	-11.0776
▁Hilberîn	-11.078
▁سیستەم	-11.0786
▁search	-11.0786
▁Pay	-11.0792
▁Rapor	-11.0793
▁ڕاگر	-11.0794
ün	-11.0797
▁زێن	-11.0799
▁welatan	-11.0802
▁هەموومان	-11.0803
▁گۆش	-11.0806
▁مبار	-11.0809
nis	-11.081
▁فە	-11.0811
▁کلتور	-11.0812
▁hewldanên	-11.0812
▁buhayê	-11.0812
ology	-11.0813
▁Dîmen	-11.0813
▁Daxwaz	-11.0814
bal	-11.0815
▁radyo	-11.0818
▁پشتیوانیان	-11.0818
▁Pêşveçûn	-11.0819
▁masî	-11.0823
▁لێکی	-11.0829
▁weşanê	-11.083
▁Table	-11.0831
▁dating	-11.0836
▁pergalên	-11.0845
▁سەدەی	-11.0847
▁مەبەستم	-11.0848
OS	-11.0856
Box	-11.0857
▁تواناو	-11.0859
▁serîlêdanê	-11.0866
▁سەرسوڕهێنەر	-11.0866
▁xirab	-11.0866
▁پشتگوێ	-11.0868
▁Qada	-11.0869
▁tevgera	-11.087
▁وانمان	-11.0873
▁operasyonê	-11.0874
▁پرسین	-11.0876
▁Exp	-11.0877
tem	-11.0878
blog	-11.0879
▁بەوەی	-11.0881
▁ندایه	-11.0883
▁Şer	-11.0883
▁گوای	-11.0884
hd	-11.0885
▁بڕۆن	-11.0891
▁چووین	-11.0893
▁رع	-11.0893
▁Pîvana	-11.0895
rad	-11.0897
▁depo	-11.0901
PC	-11.0902
zmî	-11.0902
▁Tîma	-11.0904
خوان	-11.0904
▁Pre	-11.0906
▁your	-11.0911
▁ردووک	-11.0918
cryptocurrencies	-11.0919
▁October	-11.0919
▁طور	-11.0919
▁Bandor	-11.092
▁هاتبوو	-11.092
▁dubare	-11.092
▁guhartin	-11.092
▁Veava	-11.0922
▁گۆرانی	-11.0923
▁لۆم	-11.0927
▁Guherandinên	-11.0927
▁şand	-11.0931
▁کڕی	-11.0931
چاک	-11.0933
mount	-11.0934
▁Piran	-11.0937
▁بژین	-11.0941
▁tank	-11.0945
▁şikand	-11.0948
▁راندا	-11.0949
▁new	-11.0949
▁٧	-11.0957
▁تەن	-11.0958
▁جی	-11.0958
▁qanûna	-11.0958
▁Spî	-11.0965
▁Hilbijartina	-11.0974
KIRIN	-11.0974
▁خەیاڵ	-11.0974
▁URL	-11.0974
fîl	-11.0975
@}	-11.0978
Pro	-11.0978
▁دیهێنراو	-11.0978
▁Peldanka	-11.098
hefta	-11.098
▁پزیشکی	-11.0985
▁module	-11.0986
▁Fransa	-11.0986
▁ڕایان	-11.0988
▁alîyê	-11.099
kaya	-11.0991
gêr	-11.0993
ەوەیە	-11.0996
بڕێت	-11.1003
jêr	-11.1003
AK	-11.1006
▁پەڕ	-11.1008
▁دوورو	-11.1012
▁هاتبێت	-11.1012
▁ئەس	-11.1012
▁زانیو	-11.1014
▁çareseriyê	-11.1014
▁medya	-11.1015
▁SP	-11.1016
فڕ	-11.1018
nîşan	-11.1023
▁GNOME	-11.1028
▁Parçeyên	-11.1028
▁hişmend	-11.1028
▁muwekîlê	-11.1028
▁nikaribû	-11.1028
▁parlamenter	-11.1028
▁qalîteya	-11.1028
▁Swîsre	-11.1028
▁دڕند	-11.1028
▁Derbarê	-11.1028
▁device	-11.1029
▁سیاسی	-11.1029
▁توش	-11.103
▁berhemê	-11.1031
▁نایاب	-11.1031
deh	-11.1033
▁daye	-11.1035
▁ڵت	-11.1036
▁کوشتن	-11.104
▁ereb	-11.104
▁pereyan	-11.1042
▁کەسانی	-11.1045
▁تاریک	-11.1049
▁كێ	-11.1053
▁şandina	-11.1054
bawer	-11.1056
▁چیت	-11.1056
▁رێگ	-11.1061
▁دەڵێم	-11.1062
pir	-11.1063
▁چالاک	-11.1072
▁نۆر	-11.1075
▁Pîl	-11.1076
▁05	-11.1077
NIGMA	-11.1083
▁Destpêkirin	-11.1083
▁bikeve	-11.1083
▁Girl	-11.1083
▁Pêvajoya	-11.1085
▁چێژ	-11.1086
▁zîv	-11.1086
▁ئەکەن	-11.1088
▁Bre	-11.1088
▁دیداری	-11.1091
▁ajok	-11.1094
▁Key	-11.1095
▁خانەکان	-11.1098
▁danûstandinên	-11.1099
▁xwendekaran	-11.11
▁38	-11.1105
▁مانیش	-11.1105
hai	-11.1106
▁تێکۆشان	-11.1107
▁بچیت	-11.111
▁مێژوو	-11.111
▁کوڕان	-11.1112
▁بكوژ	-11.1115
girt	-11.112
شێوه	-11.1125
▁زۆرتر	-11.1126
▁baweriya	-11.1126
iyet	-11.1129
▁ID	-11.1131
بووین	-11.1134
▁vebijêrk	-11.1137
▁Şirket	-11.1137
▁otomobîl	-11.1137
▁ڕوخسار	-11.1137
▁sifrê	-11.1137
▁PKK	-11.1137
▁dîmen	-11.1139
▁کۆت	-11.114
▁Tirkiye	-11.1141
▁کوژن	-11.1143
▁over	-11.1144
▁hot	-11.1145
▁دەوێت	-11.1147
▁heger	-11.1148
SO	-11.1149
ship	-11.1149
▁Gold	-11.115
▁شوێنێکدا	-11.1151
▁یشتنی	-11.1152
▁bername	-11.1154
▁دەکاتەوە	-11.1158
▁دیل	-11.1162
sten	-11.1165
▁Stran	-11.1165
▁(19	-11.1167
▁DE	-11.117
▁nîşanî	-11.1172
2.5	-11.1176
▁Saz	-11.1176
▁گیاندار	-11.1176
-7	-11.1179
▁نزیکتر	-11.1185
▁Hindistanê	-11.1188
▁Fast	-11.1188
gil	-11.1188
▁مكار	-11.119
▁رلێشێواو	-11.1192
▁Ewlekariya	-11.1193
▁kêrhatî	-11.1193
▁Program	-11.1194
▁ڕژاند	-11.1198
▁هەستم	-11.1198
▁خواردووه	-11.1201
Ev	-11.1207
▁ڕۆژانە	-11.1208
▁ربازانی	-11.1212
▁damezrandina	-11.1219
▁Wezîrê	-11.122
▁متمان	-11.122
این	-11.122
▁ramanên	-11.1221
▁پۆشاکی	-11.1222
▁carî	-11.1232
▁ئیم	-11.1237
▁تەکنەلۆجیا	-11.1247
GO	-11.1247
▁حکومەت	-11.1248
▁کخواناسی	-11.1248
▁marketing	-11.1248
▁slots	-11.1248
▁biguherîne	-11.1248
▁mor	-11.1251
▁کریس	-11.1253
▁cover	-11.1253
▁View	-11.1255
="4.	-11.1256
▁کرابێت	-11.1258
▁نەکرد	-11.1263
▁یره	-11.1264
▁File	-11.1268
guherîn	-11.1268
▁ژیانم	-11.1268
▁Kurte	-11.1274
dawî	-11.1275
▁IM	-11.1279
▁Lab	-11.128
▁بێزاری	-11.1285
▁hesin	-11.1287
▁photos	-11.1288
▁ref	-11.1292
▁کاریگەر	-11.1293
▁بیانوو	-11.1294
raq	-11.1297
▁ڵێین	-11.1298
▁bafûn	-11.1304
▁هاتوچۆ	-11.1304
▁دکتۆر	-11.1304
▁şahid	-11.1304
▁from	-11.1307
▁dîyar	-11.1307
▁qur	-11.1308
▁تاریکای	-11.1309
▁متر	-11.1309
▁gerdûnî	-11.131
▁کۆمەڵێک	-11.1312
▁Pêşkêş	-11.1312
mayî	-11.1313
▁şertên	-11.1314
▁Just	-11.1316
▁careke	-11.132
▁Make	-11.1321
MU	-11.1324
دووڕوو	-11.1331
دڵنیا	-11.1331
▁xem	-11.1334
▁rûniştinê	-11.1335
▁fermana	-11.1338
▁نوت	-11.1341
▁lu	-11.1343
▁ژو	-11.1347
▁Londonê	-11.1347
▁diyarkirin	-11.1348
hal	-11.1352
▁US	-11.1352
LO	-11.1356
▁çîrok	-11.1357
▁Pîşesaziy	-11.136
▁ناقۆڵا	-11.136
tattoş	-11.136
▁ئیسماعیل	-11.136
▁diranên	-11.1361
evan	-11.1366
lling	-11.1366
matîk	-11.1369
▁kevnar	-11.1371
▁rapora	-11.1371
illa	-11.1374
▁hêmanên	-11.1379
▁کۆچب	-11.138
▁Anti	-11.1381
▁فڕێی	-11.1382
▁Girêdana	-11.1384
▁şirketên	-11.1386
▁telefon	-11.1391
▁مانگانه	-11.1395
▁PA	-11.1401
▁lîstikên	-11.1401
hang	-11.1407
yi	-11.1408
▁بکەنەوە	-11.1412
▁پشتگیر	-11.1414
▁pêşvebirina	-11.1417
▁لێشێواو	-11.1417
▁موشریك	-11.1417
▁Çîrok	-11.1418
▁درۆزنن	-11.1418
▁چاند	-11.142
▁hêjayî	-11.142
media	-11.1423
بیستن	-11.1424
چونك	-11.1426
▁2005	-11.1426
▁Han	-11.1427
▁تێکدا	-11.1428
▁ناوبرد	-11.143
▁خواردو	-11.1431
ئ	-11.1432
ugh	-11.1433
▁Alîkarî	-11.1433
▁ژیریتان	-11.1443
▁çand	-11.1445
▁balafir	-11.145
▁mijarê	-11.145
▁sl	-11.145
▁stu	-11.1451
▁hevkar	-11.1452
▁ڕاستە	-11.1453
PG	-11.1455
▁وڵاتی	-11.1456
▁ڵتاندا	-11.1458
▁cil	-11.1458
▁giraniya	-11.1458
▁comp	-11.146
▁milê	-11.1463
▁kolan	-11.1466
tis	-11.1466
▁ستکاری	-11.1469
▁کوێرو	-11.147
read	-11.1473
▁Kategorî	-11.1474
▁zilam	-11.1474
▁بەراورد	-11.1474
▁سەرکەوتوو	-11.1474
▁update	-11.1474
mes	-11.1474
▁رلێشێواوی	-11.1475
ریش	-11.1477
▁USB	-11.1477
▁چەپڵە	-11.1478
▁112	-11.1482
▁odeyên	-11.1483
▁ھەیە	-11.1483
▁نرخێکی	-11.1483
▁Beşa	-11.1485
▁manufacturer	-11.1486
▁rêxistinê	-11.1486
سۆن	-11.1488
dj	-11.1488
▁دزی	-11.149
▁Karûbar	-11.1501
▁numreya	-11.1502
▁gihîştina	-11.1502
giştî	-11.1504
▁lingên	-11.1506
sky	-11.1509
▁ندین	-11.1511
▁دایب	-11.1512
-30	-11.1513
▁betalkirin	-11.1515
▁nexweşên	-11.1517
tûn	-11.152
▁Gul	-11.152
▁têkildarî	-11.1521
▁چاكتر	-11.1523
▁veguhastina	-11.1524
▁kontrolkirin	-11.1525
▁Çalakî	-11.1525
ناڵ	-11.1528
▁NO	-11.153
▁sand	-11.153
خۆیان	-11.153
▁gal	-11.1531
▁December	-11.1531
▁Hişyar	-11.1531
▁Taybetmendiyên	-11.1531
▁hesibandin	-11.1531
▁potansiyel	-11.1531
▁rêkûpêk	-11.1531
▁شەقام	-11.1531
▁Hezîran	-11.1531
▁qirêj	-11.1531
olojiya	-11.1532
گریت	-11.1533
▁lêkolîna	-11.1533
▁gelo	-11.1534
▁Bur	-11.1535
▁EMU	-11.1536
▁Series	-11.1536
ەف	-11.1537
lîm	-11.1539
▁دەگرێت	-11.154
▁ڕابگ	-11.1544
▁تکاکار	-11.1549
▁rêwî	-11.1549
▁ڕێگری	-11.1549
▁çavdêriya	-11.1549
kara	-11.1551
▁jorîn	-11.1551
lı	-11.156
▁Kong	-11.1561
oyê	-11.1563
▁hêzê	-11.1569
zir	-11.1572
▁چیرۆکی	-11.1575
▁operasyonên	-11.1577
▁organ	-11.1582
▁bikişînin	-11.1588
▁xerîdar	-11.1588
▁بوترێت	-11.1588
▁Boeing	-11.1588
▁لەسەدا	-11.1588
▁travel	-11.1589
▁Hal	-11.1591
▁Hîn	-11.1591
▁تێپەڕ	-11.1591
▁tips	-11.1592
▁Nasname	-11.1592
▁Dîsk	-11.1593
▁Radyo	-11.1598
▁پارێزكار	-11.1598
▁ڕاندا	-11.16
▁mg	-11.16
▁pêşxistin	-11.1603
▁زیوو	-11.1606
▁واتە	-11.1607
▁ڕۆشت	-11.1608
▁şîret	-11.1612
sîk	-11.1612
▁پێوە	-11.162
▁saya	-11.1624
▁barkirina	-11.1625
▁بڵێین	-11.1627
▁08	-11.1644
▁Meriva	-11.1646
▁ewlekariyê	-11.1647
▁êriş	-11.1647
▁deriyê	-11.1648
▁malper	-11.1651
▁mesrefên	-11.1652
▁şîr	-11.1653
▁Guh	-11.1653
OP	-11.1654
ستە	-11.1654
خوێن	-11.1656
▁2003	-11.1659
▁Leza	-11.1662
▁فرمانی	-11.1664
▁vexwarinê	-11.1669
Mo	-11.1675
▁wergirtina	-11.1678
UL	-11.1682
zêde	-11.1686
▁پزیشک	-11.1692
▁raman	-11.1692
▁bankê	-11.1696
يەك	-11.1703
▁Roulette	-11.1704
▁Universe	-11.1704
▁pêşnîyar	-11.1704
▁لەمەوبەر	-11.1704
▁feature	-11.1704
▁vegerin	-11.1704
ęjey	-11.1705
▁arm	-11.1708
embed	-11.1708
▁ڕۆژگار	-11.1708
▁دەژی	-11.171
▁بخوات	-11.1711
▁mişterîyên	-11.1716
zincîra	-11.1717
▁بیرکاری	-11.1718
▁VC	-11.1719
kov	-11.1721
▁بردنی	-11.1725
zay	-11.1726
▁biha	-11.1727
▁سۆ	-11.173
▁testa	-11.173
▁Peyv	-11.1737
WA	-11.1739
rogen	-11.1741
▁دەور	-11.1742
▁Kol	-11.1744
▁خوێندکار	-11.1745
ژین	-11.1747
▁Brîtanya	-11.1757
▁ئامێری	-11.1762
▁Piştre	-11.1763
▁guneh	-11.1763
▁لێبوورد	-11.1763
▁Agahiya	-11.1763
▁Pispor	-11.1763
▁jêbirin	-11.1764
oid	-11.1764
▁سەخت	-11.1765
▁فریو	-11.1767
▁Giran	-11.1768
▁تاوانێکی	-11.1769
▁كۆم	-11.177
▁veguherînin	-11.1772
▁پاداشتێک	-11.1772
▁ST	-11.1777
يش	-11.1788
▁nûnerê	-11.1788
bl	-11.1788
UN	-11.1791
▁Cam	-11.1791
▁وشەی	-11.1797
دواش	-11.1798
▁زیاتریش	-11.1798
▁(13	-11.1801
▁ڵیاندا	-11.1807
▁devera	-11.1808
▁شەڕ	-11.1814
▁destnîşankirin	-11.1818
▁سەرۆک	-11.1819
▁Manufacturer	-11.1821
▁paytexta	-11.1821
▁related	-11.1822
▁tûşî	-11.1822
▁Jinên	-11.1826
▁belavbûna	-11.1828
▁٦	-11.1834
▁penaberan	-11.1837
▁kg	-11.1837
▁بەرد	-11.184
▁CE	-11.1844
▁Mor	-11.1846
HT	-11.1848
ments	-11.1851
▁Product	-11.1855
LC	-11.1866
▁Bro	-11.1871
▁paceyê	-11.1871
▁Biha	-11.1877
link	-11.188
▁بچین	-11.188
▁ئەزمون	-11.1881
▁Erdogan	-11.1881
▁koçber	-11.1881
▁دەسەڵات	-11.1881
▁تێگەیشتن	-11.1881
▁Naverok	-11.1881
▁تەواوەتی	-11.1882
▁Kevir	-11.1882
▁Tevger	-11.1883
▁ساسی	-11.1884
▁firîna	-11.1884
▁kr	-11.1885
▁هەردوو	-11.1885
▁ھەڵ	-11.1887
▁Rojava	-11.1887
▁ڕاون	-11.1888
▁Cîhan	-11.189
▁گەڕا	-11.1892
▁پارێزگاری	-11.1895
ities	-11.1895
axiv	-11.1895
▁penaber	-11.1896
▁testê	-11.1899
▁Çê	-11.1901
▁کۆیل	-11.1909
▁back	-11.191
بدات	-11.1911
▁خاڵی	-11.1913
▁gaz	-11.1913
▁gerok	-11.1913
▁هەل	-11.1913
▁sêwiran	-11.1917
▁گێڕان	-11.1918
▁(0	-11.192
▁naverok	-11.1922
▁çapkirinê	-11.1925
▁ئەنجامی	-11.1926
function	-11.1928
▁Kart	-11.1931
گێڕێت	-11.1934
▁لاڵ	-11.1935
▁Roll	-11.1937
▁Werger	-11.194
▁Click	-11.194
▁ربڕینی	-11.194
▁تاریك	-11.194
▁zirav	-11.194
▁ئاسایش	-11.1941
▁قووڵ	-11.1941
▁next	-11.1941
▁چرکە	-11.1941
▁ئاوێکی	-11.1942
▁دروستکراوانی	-11.1948
▁pace	-11.195
▁Pan	-11.195
▁tattooê	-11.195
▁Dad	-11.1952
▁Yu	-11.1953
▁براو	-11.1953
600	-11.1955
▁rengîn	-11.1955
▁fan	-11.1956
▁هاند	-11.1961
▁کەسانە	-11.1961
خێر	-11.1965
▁کاتەی	-11.1966
0.5	-11.1968
ili	-11.1968
▁DA	-11.197
▁track	-11.1971
▁كانتان	-11.1973
▁دەکرێ	-11.1975
▁sepanê	-11.1981
▁نەب	-11.1982
ttle	-11.1984
▁Meh	-11.1984
▁speed	-11.1985
spor	-11.1988
▁Pêşveçûna	-11.1992
▁Îtalya	-11.1994
karan	-11.1996
▁شارن	-11.1997
format	-11.2
▁Civakî	-11.2
▁Twitter	-11.2
▁Weqfa	-11.2
▁bêkêmasî	-11.2
▁cookie	-11.2
IY	-11.2002
▁giring	-11.2008
▁ئاخ	-11.2009
▁Gal	-11.2011
▁تاوانێک	-11.2013
▁بەجێ	-11.2014
book	-11.2014
▁گەورەترین	-11.2016
بكه	-11.2016
▁belavkirin	-11.2018
▁reviews	-11.202
▁TC	-11.2022
stanê	-11.2022
▁پێناو	-11.2027
2015	-11.2028
▁ئاشکرام	-11.2031
▁حاڵەت	-11.2033
▁darik	-11.2033
▁rêxistina	-11.2033
▁تێکۆش	-11.2037
▁زۆردار	-11.2042
▁ببینین	-11.2042
înek	-11.2044
▁Doz	-11.2048
▁Amûra	-11.2049
▁giranî	-11.205
▁ئاسن	-11.2053
▁Dos	-11.2053
▁تیاچوو	-11.2056
▁tercîh	-11.206
▁vexwendin	-11.206
▁مۆبایل	-11.206
▁Reşemî	-11.206
▁خاك	-11.206
▁ملیار	-11.206
Konseya	-11.2062
▁دەدەم	-11.207
▁dewleta	-11.2072
▁Tool	-11.2075
ەپ	-11.2078
انا	-11.2085
▁Bang	-11.2092
▁km	-11.2093
▁Sand	-11.2093
▁yekser	-11.2093
▁Cur	-11.2095
▁hezkirina	-11.2099
▁weşan	-11.21
▁aram	-11.21
▁Vebijêrkên	-11.21
▁نواند	-11.2103
▁ژمارە	-11.2104
▁چڕ	-11.2106
سوڕما	-11.2106
▁xu	-11.2107
hyperlînkê	-11.2121
▁akademîk	-11.2121
▁Şîrket	-11.2121
▁لێبورد	-11.2121
Scroll	-11.2121
▁derece	-11.2122
▁Film	-11.2122
▁zorê	-11.2123
▁pirsgirêka	-11.2129
▁ژیانتان	-11.213
▁هێنرێت	-11.213
▁Weşan	-11.2131
▁خراپتر	-11.2135
▁London	-11.2135
▁داهات	-11.2136
▁veguherîna	-11.2138
▁Kanûna	-11.2138
▁Inter	-11.2139
▁پلەی	-11.2144
▁کتێبێک	-11.2145
reng	-11.2146
▁سپڵ	-11.2146
▁کرداری	-11.2146
îstîk	-11.2146
▁Karûbarên	-11.2152
دۆزینەوە	-11.2153
▁2004	-11.2155
▁برێت	-11.2161
▁Tîrmehê	-11.2162
▁Bul	-11.2174
ûnê	-11.2176
▁وتبوون	-11.2181
▁Science	-11.2182
▁takekesî	-11.2182
▁SQL	-11.2182
▁amazing	-11.2182
▁neçalak	-11.2182
▁دەرفەت	-11.2182
▁دەدەین	-11.2182
▁ewqas	-11.2182
▁pump	-11.2182
▁ھاو	-11.2184
▁فرو	-11.2185
▁Ronahiya	-11.2185
▁QPSK	-11.2186
▁ماوەیەکی	-11.2187
uf	-11.2189
ux	-11.2189
▁State	-11.2194
▁rewşên	-11.2194
▁بور	-11.2195
mam	-11.2197
▁لیل	-11.2216
▁بیکات	-11.2218
▁mişter	-11.222
▁لامان	-11.222
raf	-11.2221
▁ڵگا	-11.2221
▁Fre	-11.2228
▁tiştan	-11.223
تۆن	-11.2235
zz	-11.2235
▁0.1	-11.2236
▁گرنگتر	-11.2242
▁Bêguman	-11.2243
▁credit	-11.2243
▁ئیبلیس	-11.2243
▁Online	-11.2244
▁xelet	-11.2246
▁چیتر	-11.2251
▁Men	-11.2254
▁bazirganiyê	-11.2255
▁07	-11.2255
▁xelata	-11.2256
▁komputerê	-11.2257
▁derew	-11.2261
▁بروا	-11.2262
ward	-11.2262
▁berpirsiyariya	-11.2263
▁یاندوون	-11.2268
▁بەشداری	-11.2269
▁وەڵامی	-11.2271
▁Yekem	-11.2277
▁هەڵدە	-11.2277
▁خۆشتان	-11.2278
▁داوە	-11.2281
برد	-11.2285
uz	-11.2291
vîn	-11.2294
▁navnîş	-11.2295
▁ms	-11.2295
▁بڕواکان	-11.2303
▁John	-11.2304
▁çarçoveyê	-11.2305
▁هەرچەندە	-11.2305
▁بوغز	-11.2305
صور	-11.2307
▁Vo	-11.2308
▁بیمیان	-11.231
▁Şem	-11.2315
▁polîsan	-11.2315
▁١٠٠	-11.2325
▁Zanistên	-11.2326
▁ڕۆژیش	-11.2326
.[1]	-11.2326
▁rewşan	-11.233
▁vayrûs	-11.2332
▁çareseriyên	-11.2337
دەدات	-11.2338
▁خۆڵ	-11.2357
▁Log	-11.2362
▁birayê	-11.2362
▁PM	-11.2363
▁شتن	-11.2364
▁تایبەتی	-11.2367
▁roulette	-11.2367
▁sînyala	-11.2367
▁ئەفریقا	-11.2367
▁صالح	-11.2367
▁engine	-11.2367
▁bixwazin	-11.2367
▁xelkê	-11.2367
▁لایاندا	-11.2367
▁بەڵگە	-11.2367
cycle	-11.2368
word	-11.2369
▁fêrbûna	-11.2371
▁cîhana	-11.2371
▁راز	-11.2374
▁Tirkiyê	-11.2374
▁qedexekirin	-11.2375
▁Pirsên	-11.2375
MO	-11.2379
▁Add	-11.2379
▁NTV	-11.2381
▁çal	-11.2381
؟!!	-11.2383
▁نازدار	-11.239
kw	-11.2392
▁Wêneyê	-11.2395
▁ترسێت	-11.2398
▁Cap	-11.2398
▁یادیان	-11.2399
meter	-11.24
▁II	-11.2404
▁سزایان	-11.2407
▁çûn	-11.241
▁banga	-11.2411
▁rêze	-11.2414
▁800	-11.2415
▁tax	-11.2416
▁پیلانیان	-11.2417
▁Vol	-11.2418
▁Peldank	-11.2422
▁hember	-11.2425
▁Ok	-11.2426
▁Komîsyon	-11.243
▁Moskowê	-11.243
▁Private	-11.243
▁testosterone	-11.243
▁Ultra	-11.243
▁ناتوانم	-11.243
▁range	-11.243
source	-11.243
▁Bikaranîn	-11.2431
▁Not	-11.2432
bîl	-11.2432
▁bixwe	-11.2438
▁Hand	-11.2447
▁Cast	-11.2454
▁وەردەگ	-11.2454
kariyê	-11.2457
xml	-11.2458
pol	-11.246
▁bug	-11.2463
▁Slots	-11.2463
▁birêvebirina	-11.2464
IYA	-11.2464
▁دەڕ	-11.2464
▁rojnamegeran	-11.2467
▁moda	-11.247
بکەین	-11.2473
▁هێلک	-11.2475
çûn	-11.2476
ریدا	-11.2479
▁قاوە	-11.248
▁Cureyê	-11.248
▁مکارن	-11.2485
dra	-11.2487
ئیمانداران	-11.2489
▁Wood	-11.249
▁Psychic	-11.2492
▁futbolê	-11.2492
▁transposh	-11.2492
▁National	-11.2492
▁bakurê	-11.2492
▁ڕاستەوخۆ	-11.2493
▁ناتوانین	-11.2493
▁element	-11.2493
▁دژوار	-11.2493
▁hunermend	-11.2493
▁Karkerên	-11.2494
▁گوێت	-11.2494
▁مانا	-11.2498
girî	-11.25
▁rojek	-11.25
▁June	-11.25
▁Blog	-11.2502
▁كام	-11.2504
▁نابینیت	-11.2507
جگ	-11.2512
ێنراون	-11.2513
▁End	-11.2513
▁زیر	-11.2514
press	-11.2529
▁پەرە	-11.253
پێویست	-11.2537
▁pirtûkên	-11.2538
syonê	-11.2543
card	-11.2545
▁مادد	-11.2545
کەس	-11.2545
▁misoger	-11.2549
▁بیرتان	-11.2553
▁فرمان	-11.2554
▁tezmînat	-11.2556
▁هێواش	-11.2556
▁ڕەفتار	-11.2556
▁بناغ	-11.2556
▁BELA	-11.2556
▁smartphone	-11.2556
▁Micro	-11.2556
▁Multi	-11.2556
▁حۆری	-11.2558
▁ردو	-11.2559
▁sifir	-11.2559
▁hilbijartî	-11.2562
kVA	-11.2563
▁کۆکردن	-11.2563
xis	-11.2565
▁space	-11.2569
▁سوار	-11.2572
▁باوکتان	-11.2573
▁Cil	-11.2575
▁نوسی	-11.2582
2004	-11.2584
▁Sazkirin	-11.2584
▁RE	-11.2585
▁Dûr	-11.2586
▁یمانمان	-11.2587
پێغ	-11.26
▁North	-11.2602
▁بیگ	-11.2606
▁poly	-11.2616
▁çep	-11.2619
▁Electric	-11.2619
▁Gurgaon	-11.2619
▁muzîka	-11.262
▁خۆرئاوا	-11.262
▁ناوبانگ	-11.262
▁multi	-11.262
▁چاوەڕێ	-11.262
▁bihurî	-11.262
▁dibîne	-11.262
▁rêwîtiya	-11.262
▁دابەش	-11.2621
▁مێین	-11.2623
▁rakirina	-11.2626
▁dakêşin	-11.2626
▁tele	-11.2633
▁platformeke	-11.2633
ING	-11.2635
▁کوا	-11.2636
xwazî	-11.2638
▁şirket	-11.2644
nding	-11.2646
ۆشك	-11.2646
▁بینێت	-11.2648
▁دروستکار	-11.2651
▁600	-11.2655
▁dikeve	-11.2655
▁دەبینین	-11.2657
▁mirovî	-11.2661
خوێند	-11.2662
▁Fiber	-11.2663
▁کێشن	-11.267
▁karkerên	-11.2675
lîz	-11.2678
▁Axaftin	-11.2684
▁پشکنین	-11.2684
▁Ningbo	-11.2684
▁خەرج	-11.2684
▁multiple	-11.2684
▁دروشم	-11.2684
▁پەنجە	-11.2686
▁درێژایی	-11.2688
▁گەورەتر	-11.2689
pre	-11.2691
▁دەزانم	-11.2692
xaneya	-11.2693
▁Cook	-11.2697
▁ceza	-11.2697
▁Avê	-11.2698
▁Hey	-11.2698
▁rûnê	-11.27
يك	-11.2709
mbo	-11.271
▁کسان	-11.2713
▁توانین	-11.2714
▁bombe	-11.2714
▁Rêberê	-11.2716
▁دور	-11.2719
fon	-11.2721
▁شك	-11.2722
▁ڕووت	-11.2723
▁birrîna	-11.2725
بەڵام	-11.2727
rov	-11.2733
لاو	-11.2734
▁Here	-11.2737
▁بنێر	-11.2742
▁بڵ	-11.2742
▁Zimanî	-11.2744
▁بخۆ	-11.2747
▁Custom	-11.2748
▁axaftina	-11.2748
▁fakult	-11.2748
▁کۆنتڕۆڵ	-11.2748
چەپڵەلێدان	-11.2748
▁welding	-11.2748
▁مرواری	-11.2748
▁kesayet	-11.2748
▁display	-11.2748
▁fîlim	-11.2749
▁nivîn	-11.2749
▁Music	-11.2749
▁xewn	-11.2749
▁دەکەنەوە	-11.275
▁biharê	-11.275
▁aloz	-11.2751
▁Fransayê	-11.2755
▁گرێ	-11.2757
▁ناگرن	-11.276
Ser	-11.2761
şînin	-11.2762
▁Kişandina	-11.2775
▁تیژی	-11.2781
▁چووم	-11.2782
▁hevalê	-11.2783
▁bajaran	-11.2786
▁zanistên	-11.279
▁رموون	-11.2794
▁Bay	-11.2797
▁Japon	-11.2799
▁şîfreya	-11.2801
kişî	-11.2808
dhd	-11.2809
yetê	-11.2809
البقرة	-11.2813
▁Blockchain	-11.2813
▁darizandin	-11.2813
▁ئاڵتون	-11.2813
▁دەوترێت	-11.2813
▁مسۆگ	-11.2813
google	-11.2813
▁Ahmet	-11.2813
▁Xwarin	-11.2813
▁Rûpela	-11.2813
▁نەخێر	-11.2815
▁dayîna	-11.2815
▁Full	-11.2816
▁نامۆ	-11.2817
شتێکی	-11.2817
▁٥٠	-11.282
▁کردوویان	-11.2821
▁Paceyê	-11.2824
▁zanyar	-11.2824
▁fonksiyonên	-11.2824
▁ڵگرت	-11.2827
▁çem	-11.2829
▁pîşesaz	-11.283
▁ریاکان	-11.2832
▁داپۆش	-11.2833
engî	-11.2837
▁تریشیان	-11.2838
کاندن	-11.2841
▁cudah	-11.2848
▁بەها	-11.2849
▁تیشکی	-11.2853
▁gazî	-11.2855
▁hêj	-11.2855
▁گرتبوو	-11.2857
▁Award	-11.2859
ally	-11.286
▁ڕۆشتن	-11.2865
▁ئین	-11.287
▁ترێ	-11.2872
▁Materyal	-11.2878
▁Transformer	-11.2878
▁Xanûberey	-11.2878
▁تەکنەلۆژیا	-11.2878
▁şêwey	-11.2878
▁خەمۆکی	-11.2879
▁گێل	-11.2879
▁Daneyên	-11.2885
▁درابوو	-11.2885
wood	-11.2895
▁pla	-11.2896
▁Huner	-11.2896
▁Ragihandin	-11.2897
▁Join	-11.2898
▁ڕێکوپێکی	-11.2899
▁TCDD	-11.2902
▁لوپ	-11.2905
▁بهێنای	-11.2911
شتێک	-11.2914
▁ڕووگ	-11.2915
▁Tendurist	-11.2918
nasî	-11.2918
▁wordpress	-11.292
▁خەم	-11.292
▁مانگای	-11.2922
▁nûçeya	-11.2927
▁Heat	-11.2928
▁لابد	-11.2931
▁Rêzik	-11.2932
▁Veguheztina	-11.2932
▁ناوچەی	-11.2934
▁Italian	-11.2944
▁bêhempa	-11.2944
▁qozeyên	-11.2944
▁ڕەگەز	-11.2944
▁bigihîne	-11.2944
▁about	-11.2944
▁ئابووری	-11.2944
▁dabînkerê	-11.2944
▁Pakêt	-11.2944
▁teqez	-11.2944
▁peywendîdar	-11.2947
XX	-11.2949
▁Angel	-11.2949
shop	-11.2953
▁بیهێن	-11.2954
▁şêwirmend	-11.2955
▁قوت	-11.2959
▁roman	-11.2963
▁çapkirin	-11.2963
▁çavan	-11.2969
mor	-11.2971
▁121	-11.2975
back	-11.2977
▁٣٠	-11.2979
▁Java	-11.2982
▁amûrê	-11.2986
▁پێبب	-11.2988
osph	-11.299
▁server	-11.2995
pad	-11.2998
▁کردبوون	-11.3001
▁قۆ	-11.3004
▁bawerî	-11.3005
▁گواستن	-11.3006
▁endezyar	-11.301
▁January	-11.301
▁گژوگیا	-11.301
▁لەڕاستیدا	-11.301
▁Nîsana	-11.301
▁چێشت	-11.301
▁Tiştek	-11.3011
▁Bend	-11.3011
▁kişandina	-11.3012
▁xelas	-11.3012
▁Dîmender	-11.3012
▁شاردراو	-11.3014
▁کتوپڕ	-11.3019
▁RO	-11.302
mate	-11.302
▁1'	-11.3021
▁کۆمپیوتەر	-11.3021
▁dezgehên	-11.3022
Sat	-11.3023
▁Saziya	-11.3026
بڕوا	-11.304
▁Card	-11.3045
▁نزیکان	-11.3048
▁تاقیگە	-11.3048
▁perwerdehiyê	-11.3058
PR	-11.306
▁Sex	-11.306
ico	-11.3065
▁kirîn	-11.3068
▁Karna	-11.3072
روود	-11.3072
▁cut	-11.3074
▁firmware	-11.3077
▁muamele	-11.3077
▁zivirî	-11.3077
▁چاوساغ	-11.3077
▁default	-11.3077
▁biguherînin	-11.3077
▁Embed	-11.3077
▁ofîsa	-11.3077
▁hindik	-11.3077
▁program	-11.3079
▁dadgeh	-11.3079
▁direct	-11.3082
مود	-11.3085
▁derketina	-11.3086
▁Comp	-11.3087
▁UP	-11.3087
▁sedan	-11.3092
▁Pas	-11.3093
▁RC	-11.3094
زوو	-11.3095
▁کۆمەڵە	-11.31
▁tew	-11.3101
▁خودی	-11.3103
▁گشت	-11.3108
▁هاوکار	-11.311
▁متمانە	-11.3116
ografî	-11.3118
▁Nexweş	-11.3119
▁Jan	-11.3119
▁nirxê	-11.3121
▁براکان	-11.3123
▁پیاوێک	-11.3127
▁خوێندنگە	-11.3129
amide	-11.313
▁Amûr	-11.313
▁تاوێک	-11.3132
▁mirî	-11.3133
▁بژێر	-11.3141
▁custom	-11.3144
▁modified	-11.3144
▁السلام	-11.3144
▁درێغی	-11.3144
▁Linux	-11.3144
▁şirove	-11.3144
▁Tiştên	-11.3144
▁قەبارە	-11.3144
▁حەوت	-11.3144
▁style	-11.3144
▁Green	-11.3144
▁webcam	-11.3145
▁nasnameya	-11.3146
▁sale	-11.3148
▁تیوان	-11.3148
▁heşt	-11.3149
▁بارێنێت	-11.3154
▁شتوم	-11.3161
▁ئینکار	-11.3163
▁گۆی	-11.3167
▁made	-11.3168
▁şûn	-11.3169
▁یاندوو	-11.3169
▁pêkanîn	-11.3169
▁ردنی	-11.3169
▁Darikê	-11.3171
▁Sport	-11.3175
▁penaberên	-11.3177
▁qas	-11.3178
▁ساوا	-11.318
▁Serok	-11.3181
▁Wind	-11.3183
▁dîn	-11.3186
pg	-11.3187
▁has	-11.3187
▁هەواڵ	-11.3188
سار	-11.319
▁fit	-11.3196
▁ڕاستگۆن	-11.3199
▁mode	-11.3201
▁ربگر	-11.3202
Indian	-11.3203
▁Guhertoya	-11.3212
▁Têkiliya	-11.3212
▁original	-11.3212
▁Çewtiya	-11.3212
▁چاوەڕوان	-11.3212
▁derûnî	-11.3212
▁وابزانم	-11.3212
▁stendin	-11.3212
▁grafîk	-11.3213
▁kurdî	-11.3213
▁asayî	-11.3214
▁پێداون	-11.3218
▁Flight	-11.3219
▁نشین	-11.3219
▁Royal	-11.3222
▁qir	-11.3223
▁komputera	-11.3223
▁چیاکان	-11.323
▁کاروان	-11.3242
▁ئاگان	-11.3246
-0	-11.3248
3.0	-11.3249
▁رخێن	-11.3252
سپێر	-11.3253
▁Xizmeta	-11.3263
▁مكاران	-11.3268
vekirî	-11.3269
▁kil	-11.327
▁Sûrî	-11.327
▁تکای	-11.3274
▁خانووب	-11.3276
▁oto	-11.3279
▁Cîhaz	-11.328
▁cockpit	-11.328
▁factory	-11.328
▁protokol	-11.328
▁صاڵح	-11.328
▁ئەستێرە	-11.328
▁هۆزێک	-11.328
▁iOS	-11.3281
گەیاند	-11.3282
▁rates	-11.3284
▁Chi	-11.3286
▁Pet	-11.3286
▁بەند	-11.3287
▁delîl	-11.3288
▁دامانب	-11.3288
▁بەیانی	-11.3289
▁ردوولا	-11.329
▁Hong	-11.3292
▁ئێواراندا	-11.3292
▁esas	-11.3295
▁ئێن	-11.3303
▁زێت	-11.3304
baş	-11.3304
▁mehane	-11.3314
▁ciwanan	-11.3318
▁razî	-11.332
▁تێیدا	-11.332
bay	-11.3323
▁شێنن	-11.3324
▁بینایی	-11.3327
▁fikir	-11.3332
▁بترس	-11.3335
▁Information	-11.3348
▁daxuyaniyek	-11.3348
▁pêwendî	-11.3348
▁tenduristî	-11.3348
▁©2005-201	-11.3348
▁قبوڵ	-11.3348
▁patent	-11.3348
▁Generic	-11.3349
▁ئارەزو	-11.3349
▁mekanîk	-11.3349
▁serdema	-11.335
▁orbit	-11.335
▁tecrûbeyên	-11.335
▁added	-11.3353
▁سرت	-11.3357
▁Guhertina	-11.3358
▁چەپ	-11.3361
▁زاندو	-11.3362
▁پێشوازی	-11.3363
▁sade	-11.3363
FI	-11.3367
▁کرێین	-11.3367
uv	-11.3368
she	-11.3384
▁malên	-11.3385
▁بەڕێ	-11.3389
▁Gen	-11.3394
▁bêje	-11.3395
€	-11.3401
dog	-11.3403
cat	-11.3408
▁Sermaseya	-11.3411
گڵ	-11.3414
▁دنیاش	-11.3416
▁Engineering	-11.3417
▁KOVÎD	-11.3417
▁daxuyaniya	-11.3417
▁hakemê	-11.3417
Possessi	-11.3417
▁ڕێبوار	-11.3417
▁album	-11.3417
▁vîrûs	-11.3417
▁کاربۆن	-11.3418
▁tablet	-11.3419
▁فشار	-11.342
▁peredana	-11.3422
▁babete	-11.3423
▁bikevin	-11.3425
▁danûstandina	-11.3431
▁جڵ	-11.3435
▁ڕوانی	-11.3436
▁kevirên	-11.3437
▁خوێندنەوە	-11.3439
▁rûnişt	-11.344
ئەمە	-11.3442
olone	-11.3443
▁kole	-11.3446
▁بڵێیت	-11.3446
▁qanûn	-11.3452
▁serkeftina	-11.346
▁mix	-11.3463
▁pîvanên	-11.3464
▁parvekirina	-11.3465
▁testên	-11.3468
▁گاز	-11.3468
فۆ	-11.347
RP	-11.347
9001	-11.3472
▁Reş	-11.3472
▁منداڵێکی	-11.3478
GE	-11.348
▁gotinên	-11.3483
▁February	-11.3487
▁Instagram	-11.3487
▁pêşwazî	-11.3487
▁لابردنی	-11.3487
electric	-11.3487
▁biparêzin	-11.3487
general	-11.3487
▁Amos	-11.3488
▁بێباو	-11.349
ization	-11.3499
▁bihîstin	-11.3505
▁nîn	-11.3508
▁gihîşt	-11.3508
▁خرێن	-11.351
▁serlêdana	-11.3515
▁Tîm	-11.3515
▁ڕداران	-11.3516
ئەم	-11.3516
▁گێڕی	-11.3518
▁metro	-11.3521
▁dagir	-11.3521
gû	-11.3523
▁رانیش	-11.3523
▁Heval	-11.3526
▁[3]	-11.3529
ır	-11.3533
▁وێدا	-11.3537
▁ساتێک	-11.354
بکەن	-11.3541
▁show	-11.3547
▁torên	-11.3547
▁1.5	-11.3547
▁10%	-11.3548
▁Sports	-11.3552
ible	-11.3554
▁Parêzer	-11.3557
▁School	-11.3557
▁hikûmeta	-11.3557
▁برسێتی	-11.3557
▁پڕۆگرام	-11.3557
bmc	-11.3557
▁dilîze	-11.3557
▁جارێ	-11.3557
▁ewlekariya	-11.3557
▁kirînê	-11.356
▁خۆشبوون	-11.3561
▁hîs	-11.3561
▁Şan	-11.3564
▁سامانتان	-11.3565
▁بمێنێت	-11.3568
▁رزار	-11.3569
4.9	-11.3575
▁Mc	-11.3579
▁Take	-11.3581
based	-11.3581
çav	-11.3585
▁وڵاتان	-11.3594
▁şaredariyê	-11.3599
zen	-11.3602
▁Mill	-11.3604
▁derketin	-11.3607
جێ	-11.3611
▁Asya	-11.3613
▁كوێ	-11.3615
uel	-11.3617
▁makîneyê	-11.3617
▁Pal	-11.3617
face	-11.3618
▁مانگیش	-11.3619
▁Bişkojka	-11.362
▁Bûyer	-11.3627
▁Vancouver	-11.3627
▁wheel	-11.3627
▁Larson	-11.3627
▁şoreş	-11.3627
▁Deryaya	-11.3627
▁Smart	-11.3627
▁bipirsin	-11.3627
▁digirin	-11.3627
▁Christ	-11.3628
▁til	-11.363
▁welatî	-11.363
▁Water	-11.3634
▁داهاتو	-11.3636
wendiy	-11.3642
’’	-11.3644
▁گەورەیە	-11.365
▁سیفات	-11.3652
▁DJ	-11.3654
yor	-11.3655
▁bijartî	-11.3657
▁dîskê	-11.3658
▁çêkirî	-11.3659
▁شێوازێکی	-11.366
OC	-11.367
▁Rewş	-11.3672
▁ناویاندا	-11.3673
▁mûzîk	-11.3674
▁باپیر	-11.3675
dil	-11.3677
▁نگاری	-11.3684
▁çavê	-11.3687
▁دەس	-11.3688
▁West	-11.3689
▁باوان	-11.3689
يت	-11.3691
▁Birêvebir	-11.3698
▁dosyeya	-11.3698
▁îfade	-11.3698
▁ئامراز	-11.3698
▁şahî	-11.3702
▁şeh	-11.3703
▁جۆرێك	-11.3704
phone	-11.3705
▁جۆن	-11.3705
GP	-11.3706
▁فیزیا	-11.3706
▁شوێنێك	-11.3708
▁خواناسان	-11.3708
▁كردوون	-11.3712
▁Rûpelên	-11.3715
▁119	-11.3719
▁بچم	-11.372
380	-11.3721
▁Low	-11.3727
▁دڵخۆشن	-11.3731
▁Bajar	-11.3736
▁داتێ	-11.3747
٦٠	-11.3762
▁ڕێتان	-11.3763
▁شیاو	-11.3768
▁difikirim	-11.3769
▁hilbijêrî	-11.3769
▁ئەندازیار	-11.3769
▁valve	-11.3769
▁steel	-11.3769
▁NAV	-11.377
▁ڵواس	-11.377
▁جۆراوجۆر	-11.377
▁Muzîk	-11.3771
▁بەردەست	-11.3771
▁nexweşiya	-11.3776
▁rewş	-11.3776
▁heywanan	-11.3778
▁Real	-11.3778
▁şirketek	-11.378
▁ئەکەم	-11.3781
▁نرختر	-11.3783
▁Japonya	-11.3785
▁salek	-11.3793
▁تەندروست	-11.3794
▁birrîn	-11.3797
▁girtîgehê	-11.38
دەکەم	-11.38
▁derke	-11.38
▁30%	-11.3801
▁çandiniyê	-11.3804
▁Hor	-11.3809
▁Xwendekar	-11.3812
▁Wall	-11.3812
▁Avakirina	-11.3819
▁گیانیان	-11.3823
▁بارەی	-11.3826
VC	-11.3837
▁pop	-11.3837
▁بید	-11.384
Database	-11.3841
▁Cloud	-11.3841
▁Demokratîk	-11.3841
▁Management	-11.3841
▁Navxweyî	-11.3841
▁kîlometre	-11.3841
▁voltaja	-11.3841
▁ململانێ	-11.3841
▁دامەزراوە	-11.3841
▁دەوروبەر	-11.3841
▁teslîm	-11.3841
▁پاراستنی	-11.3841
▁dizanim	-11.3841
▁pêwist	-11.3841
▁Amade	-11.3841
▁HDPê	-11.3842
▁rêbaza	-11.3842
▁dikanên	-11.3842
رنین	-11.3843
▁nuha	-11.3844
▁kopî	-11.3844
▁îkon	-11.3844
▁rojnameya	-11.3845
▁Asta	-11.3845
▁tevlîhev	-11.3846
xaneyê	-11.3846
▁ئەوەشدا	-11.3847
right	-11.3851
▁دەبینن	-11.3859
▁rêberiya	-11.3859
▁medyaya	-11.386
wal	-11.3864
▁qanûnên	-11.3872
▁tîrêj	-11.3881
▁fta	-11.3885
sun	-11.3886
▁Description	-11.3889
▁سێن	-11.3889
▁کراوین	-11.3895
▁کاس	-11.3898
▁بیب	-11.3901
▁koda	-11.3909
▁الق	-11.3912
▁شانۆ	-11.3912
▁azmûn	-11.3914
▁shipping	-11.3914
▁Rêvebir	-11.3914
▁nivîsbariyê	-11.3914
▁zewac	-11.3914
▁biaxivin	-11.3914
▁Çavkanî	-11.3914
text	-11.3914
▁Çavkaniyê	-11.3914
▁plakaya	-11.3914
▁ITIL	-11.3914
▁îdia	-11.3914
▁بەلای	-11.3915
▁ستاون	-11.3917
▁Ereb	-11.3919
▁çanda	-11.392
▁سەما	-11.3924
▁درک	-11.3928
▁113	-11.3928
▁Stenbol	-11.393
▁ناڕاست	-11.3933
▁بیهێنن	-11.3935
▁perwerdehiy	-11.3938
▁گێڕاو	-11.3946
پەرست	-11.3947
▁pereyên	-11.3947
▁چیرۆکەکە	-11.395
▁داپۆشی	-11.3964
▁rêxistinên	-11.3972
▁run	-11.3973
▁dermankirin	-11.3977
▁Nirxandin	-11.398
▁Peter	-11.3984
▁Delivery	-11.3987
▁enjoy	-11.3987
▁ماسولکە	-11.3987
▁گیروگرفت	-11.3987
▁netewî	-11.3987
▁لافاو	-11.3987
▁click	-11.3987
▁carinan	-11.3987
▁xwendevan	-11.3987
▁trênan	-11.3987
stream	-11.3987
▁îdîa	-11.3987
▁Christian	-11.3987
▁قایم	-11.3988
type	-11.3989
▁بپارێزێت	-11.399
▁بمرن	-11.399
▁Brîtanyayê	-11.3994
▁logo	-11.3994
140	-11.3994
▁duh	-11.3994
▁pm	-11.3996
گەیەنێت	-11.3996
point	-11.3998
▁Pêşkêşiya	-11.3998
▁پێبگ	-11.3999
▁tedbîrên	-11.4002
▁cûreyên	-11.4003
▁sernavê	-11.4005
avêj	-11.4005
▁gotarên	-11.4006
ball	-11.4009
▁دەبێ	-11.4009
▁Kurdistan	-11.4015
▁دووان	-11.4016
▁xwerû	-11.4028
▁Neon	-11.4029
▁kargeh	-11.4039
▁نەبوون	-11.4042
▁117	-11.4044
▁ئاواتیان	-11.4045
space	-11.4048
موسا	-11.4049
▁ڕێنمو	-11.4051
▁دژە	-11.4053
▁Pirtûk	-11.4053
▁cureyê	-11.4055
▁پڵه	-11.4055
▁hejmarên	-11.4055
▁Amsterdam	-11.406
▁Brîtanî	-11.406
▁Edîtor	-11.406
▁Nekêşbar	-11.406
▁mijûl	-11.406
▁tecawiz	-11.406
▁ئەمریکی	-11.406
▁خۆشگوز	-11.406
▁hedef	-11.406
▁eynî	-11.4061
▁çalakî	-11.4068
ifş	-11.4074
▁xew	-11.4074
▁gule	-11.4075
▁هاتوون	-11.4081
▁nexweşiyên	-11.4088
▁tevna	-11.4091
udi	-11.4092
▁germî	-11.4095
▁rêxistin	-11.4102
▁Format	-11.4106
▁Coin	-11.4111
0.2	-11.4114
▁شکاو	-11.4116
▁bikarhêneran	-11.4118
▁Mizgîniyê	-11.4134
▁November	-11.4134
▁SharePoint	-11.4134
▁column	-11.4134
▁enerjî	-11.4134
▁pesnê	-11.4134
▁audio	-11.4134
▁سەرسام	-11.4134
▁کووڕی	-11.4134
▁linux	-11.4134
▁Telefon	-11.4135
▁Skype	-11.4136
▁gulan	-11.4137
▁HP	-11.414
▁Medya	-11.414
▁ناسۆر	-11.4141
pack	-11.4141
▁Îtalyayê	-11.4141
▁گۆڕاو	-11.4143
▁Çek	-11.4148
▁wesayîtên	-11.4149
▁ستۆ	-11.4151
▁بزانیت	-11.4158
house	-11.4163
▁taybetiyên	-11.4165
▁navnîşên	-11.417
▁فار	-11.4185
▁بینیوو	-11.4192
▁proje	-11.4193
▁hînkirina	-11.4194
▁Tenduristiyê	-11.4196
itch	-11.4197
▁Kesk	-11.4198
قیام	-11.4199
▁Off	-11.42
▁هێنم	-11.4202
▁piştevan	-11.4208
▁Psychîk	-11.4209
▁dostane	-11.4209
▁mecbûr	-11.4209
▁ناشوکر	-11.4209
▁manual	-11.4209
▁qumarê	-11.4209
▁ڵقیس	-11.4209
▁Serkeftin	-11.4209
▁واگومان	-11.4209
▁dizane	-11.4209
▁kamera	-11.421
▁داهێنەر	-11.4211
▁rewşeke	-11.4213
▁میل	-11.4214
▁نەخۆشخانە	-11.4214
det	-11.4219
▁Biçe	-11.4221
▁١٨	-11.4221
▁teknolojiyên	-11.4221
▁زێر	-11.4223
▁ناساز	-11.4223
▁Tîr	-11.4223
▁hol	-11.4224
▁page	-11.4226
▁بکێش	-11.4232
▁hundurê	-11.4232
▁tenduristiy	-11.4237
▁ئەکرد	-11.425
▁firok	-11.4251
▁جووڵ	-11.4255
▁Radio	-11.4255
▁tendurustî	-11.4257
▁pêvajoyên	-11.426
▁kanalê	-11.4261
hel	-11.4262
2.0	-11.4268
▁خیش	-11.4269
▁nexweşiyê	-11.427
نوێژ	-11.4274
▁lîstikvan	-11.4275
▁Salname	-11.4279
room	-11.4284
▁Rikoooo	-11.4284
▁channel	-11.4284
▁maqûl	-11.4284
▁Bişkok	-11.4284
▁pênase	-11.4284
▁بیروهۆش	-11.4284
▁پێداویستی	-11.4284
▁danûstendinê	-11.4285
▁Fîlm	-11.4285
▁binpêkirin	-11.4285
▁کێڵگ	-11.4285
▁Watch	-11.4285
▁nehêle	-11.4286
▁tesîr	-11.4286
▁Malperê	-11.4287
ville	-11.4288
▁hevkariyê	-11.4289
▁ئەکەین	-11.4289
▁هاوتا	-11.429
▁مردوون	-11.4291
▁zivistanê	-11.4292
▁pakêtên	-11.4294
▁Long	-11.4295
▁ماددە	-11.4299
▁Swêdê	-11.4307
Com	-11.4309
▁115	-11.431
▁dakêş	-11.4312
▁Pargîdaniy	-11.4326
▁pakêt	-11.4334
▁peymanên	-11.4336
▁Alîkariya	-11.4336
▁شێوەیەک	-11.4338
▁pêşveçûn	-11.4338
سلم	-11.4342
▁کراس	-11.4346
▁pet	-11.4347
▁دەردە	-11.4349
▁Pêşîn	-11.4351
▁قسەکردن	-11.4352
▁واش	-11.4355
▁zirarê	-11.436
▁Brukselê	-11.436
▁bigihînin	-11.436
▁minasib	-11.436
▁awarte	-11.436
▁کابرای	-11.436
▁راورد	-11.436
▁micro	-11.436
▁bêjin	-11.4361
▁کۆمەڵ	-11.4361
▁bijartin	-11.4361
▁بژی	-11.4362
▁wide	-11.437
▁دۆزییەوە	-11.437
▁Alav	-11.4372
▁ڕێبازو	-11.4372
▁pîvanê	-11.4381
▁KO	-11.4381
▁نزیکترین	-11.4381
▁دەچن	-11.4381
▁50%	-11.4382
▁ئاستیدا	-11.4385
▁یبدار	-11.4386
▁hilweşandin	-11.4387
▁fikra	-11.4389
ھات	-11.4397
▁Kêm	-11.4401
▁سەدا	-11.4409
پێچ	-11.441
▁pirr	-11.4411
▁108	-11.4412
▁fat	-11.4412
ۆڤ	-11.4429
▁weşanên	-11.443
print	-11.4433
▁Pêk	-11.4434
▁kampany	-11.4436
▁Penaberan	-11.4436
▁Project	-11.4436
▁serbestberdana	-11.4436
▁بەناوبانگ	-11.4436
▁سەلامەت	-11.4436
▁قوتابی	-11.4436
▁عیبر	-11.4436
▁کۆرپ	-11.4436
▁binivîsin	-11.4437
▁قف	-11.4437
▁vîdyoya	-11.4437
▁مرۆڤایەتی	-11.4438
▁admin	-11.4439
▁ستوور	-11.444
▁şûş	-11.4444
▁وابێت	-11.4448
▁بمێنن	-11.4448
rît	-11.4451
▁kolanan	-11.4457
▁hewcedariy	-11.4457
▁Dabeş	-11.4464
▁Destûr	-11.4478
▁pêşangeha	-11.448
▁tube	-11.4485
▁كوڕ	-11.4486
▁3000	-11.4488
amine	-11.4488
▁Pack	-11.4489
▁چڕو	-11.4491
▁Xelatên	-11.4493
▁ئاگادارین	-11.4496
▁خود	-11.4499
▁pal	-11.4505
▁Pelan	-11.4505
▁host	-11.4506
▁Cambridge	-11.4513
▁Federal	-11.4513
▁Street	-11.4513
▁sivik	-11.4513
zhou	-11.4514
▁04:	-11.4515
▁دوانز	-11.4515
بژێرن	-11.4516
▁daristan	-11.4516
▁Harry	-11.4516
▁Îcar	-11.4516
▁ئێرە	-11.4518
▁دەبەست	-11.4522
▁درووستکردنی	-11.4524
▁naskirî	-11.4526
▁Job	-11.4548
▁tag	-11.4549
zeya	-11.455
▁چیرۆکێک	-11.4552
▁خۆیشیان	-11.4554
▁vexwarin	-11.4559
▁رۆژێک	-11.456
▁sûcdar	-11.4567
[2]	-11.4583
فیرع	-11.4583
mêr	-11.4588
▁HTML	-11.4591
▁birçîbûnê	-11.4591
▁trafîkê	-11.4591
▁serfiraz	-11.4591
▁نازانین	-11.4591
▁ultra	-11.4591
▁mercan	-11.4591
▁zeviyê	-11.4592
▁pêwendiyê	-11.4592
▁dermanan	-11.4593
▁televîzyona	-11.4594
▁Hotel	-11.4597
zayî	-11.4597
▁Asyayê	-11.4599
▁grev	-11.4599
٥٠	-11.46
▁plankirina	-11.46
▁gay	-11.4601
▁fîşa	-11.4602
▁دیاریکراودا	-11.4605
▁master	-11.4607
yal	-11.4608
▁116	-11.4614
▁pu	-11.4619
▁ناکاو	-11.4622
▁serhêl	-11.4622
▁Kurdi	-11.4624
▁nexweşan	-11.4624
▁nade	-11.463
▁Tenduristiy	-11.4635
▁ناوکی	-11.464
▁ئەز	-11.464
dı	-11.4641
kop	-11.4645
▁ببە	-11.4653
▁پشتیوانێک	-11.4666
ngilîzî	-11.4667
▁Broadcast	-11.4669
▁Agahdarî	-11.4669
▁Civaka	-11.4669
▁Intelsat	-11.4669
▁Virtual	-11.4669
▁îdeal	-11.4669
▁neyînî	-11.4669
▁ڕۆبۆت	-11.4669
▁single	-11.4669
▁Berfireh	-11.467
▁berjewendiyên	-11.4671
▁devkî	-11.4672
BER	-11.4672
▁بگریت	-11.4675
▁operasyon	-11.4677
gmail	-11.4685
▁Dj	-11.4686
▁پۆشی	-11.4687
ncy	-11.4688
▁dîrok	-11.469
▁Zarokan	-11.4692
چێژین	-11.4695
▁tendurust	-11.4697
▁dixw	-11.47
▁لوت	-11.4702
▁Products	-11.4706
▁ڕێین	-11.4709
▁ride	-11.471
▁پارێزن	-11.4726
▁zinc	-11.4732
okra	-11.4736
▁Niştecîh	-11.4748
▁accessories	-11.4748
▁bizanibin	-11.4748
▁danasîna	-11.4748
▁derhêner	-11.4748
▁enerjiya	-11.4748
▁powder	-11.4748
▁Cîgirê	-11.4748
▁peyvên	-11.4748
▁بروسک	-11.4748
▁gear	-11.4748
▁servîs	-11.475
▁هێنرێن	-11.4755
▁Çap	-11.4765
▁partiya	-11.4772
0.3	-11.4774
▁گرنگترین	-11.4777
▁nedît	-11.4779
▁گیانل	-11.4779
▁123	-11.4783
دەبێت	-11.4793
▁take	-11.4801
▁satelîta	-11.4811
5,000	-11.4812
Express	-11.4821
▁mêvandar	-11.4822
▁بڕیاردان	-11.4822
١٠	-11.4825
▁California	-11.4827
▁Geştname	-11.4827
▁Platforma	-11.4827
▁Siyaseta	-11.4827
▁dînamîk	-11.4827
▁لێپرسراو	-11.4827
▁ئاشووب	-11.4827
▁Servîs	-11.4827
▁fonên	-11.4828
▁dijber	-11.4828
▁Civîn	-11.4828
fet	-11.4833
▁dirêjahiya	-11.4834
▁xêz	-11.4837
▁HCoV	-11.4838
▁Cash	-11.4845
کردۆت	-11.4845
▁كانیش	-11.4846
▁bişkojka	-11.4847
▁گوفتارێک	-11.485
▁ramana	-11.4852
▁photo	-11.4853
▁هەی	-11.4855
▁pêşangeh	-11.4863
▁bêhn	-11.4864
نابن	-11.488
▁کاتەدا	-11.488
▁nexweşxaneyê	-11.4884
▁dîsk	-11.4884
▁کارەبا	-11.4884
▁Pêşkêşker	-11.4889
▁American	-11.4907
▁BERSÎVEK	-11.4907
▁Herweha	-11.4907
▁federal	-11.4907
▁message	-11.4907
▁şêwaz	-11.4907
▁Makîne	-11.4907
▁filter	-11.4907
▁زەریا	-11.4908
▁پرۆژە	-11.4908
▁هێما	-11.4908
▁bijîn	-11.4909
▁کەشتی	-11.491
▁بیخوێن	-11.4913
▁Sign	-11.4913
نەکراو	-11.4915
▁هەنگ	-11.4917
Print	-11.4919
پێكه	-11.4924
▁sport	-11.4926
▁360	-11.4927
▁220	-11.4927
▁qer	-11.4931
▁Page	-11.4936
▁ئەڤ	-11.4936
kor	-11.4944
gehek	-11.4961
▁mêvanên	-11.4962
▁şop	-11.497
▁desthilatdariy	-11.4975
توپڕ	-11.4977
▁تینو	-11.4978
race	-11.4978
▁sêyem	-11.4985
▁vebijark	-11.4988
▁heybet	-11.4988
▁kapîtal	-11.4988
▁rsquo	-11.4988
▁hêlînê	-11.4988
▁Leave	-11.4988
UMX	-11.4988
▁kampanyaya	-11.4988
▁عار	-11.4989
▁ئاشنا	-11.4989
acetam	-11.499
▁anti	-11.4997
▁ناخۆشترین	-11.4997
▁çira	-11.4998
ۆف	-11.4999
▁qew	-11.5001
▁SES	-11.5001
▁ڕاستییەکەی	-11.5004
▁movies	-11.5005
▁Mehme	-11.5008
▁بیپ	-11.5008
▁126	-11.501
▁images	-11.5014
▁Back	-11.5015
OT	-11.5034
▁Chat	-11.5043
▁wergirt	-11.5048
▁بپارێز	-11.5056
▁Çav	-11.5057
▁سوڕێن	-11.5058
▁vekir	-11.506
▁Step	-11.5061
▁One	-11.5065
▁Endezyar	-11.5069
▁PhenQ	-11.5069
▁pêkhateyên	-11.5069
▁îmtîhan	-11.5069
▁چاوپێکەوتن	-11.5069
▁کۆنترۆڵ	-11.5069
▁Pêkenî	-11.5069
▁volume	-11.5069
▁taybetmendiya	-11.5069
▁ڕۆژنامە	-11.5069
▁South	-11.507
▁bersîv	-11.507
▁darayî	-11.5071
Pêş	-11.5073
▁هێڵن	-11.5074
لێره	-11.5078
▁هاتۆت	-11.5081
▁pîvan	-11.5085
▁لێهات	-11.5088
▁piranîya	-11.5091
▁fix	-11.5093
▁دیمەن	-11.5095
hevkirin	-11.5096
▁خێراتر	-11.5099
▁ندتر	-11.5101
▁ستدرێژ	-11.5108
▁Xuya	-11.5115
▁hêzdar	-11.5115
▁David	-11.512
▁dibistanên	-11.5121
ماوه	-11.5131
ۆژ	-11.5137
▁باشور	-11.5137
▁AASraw	-11.5151
▁Digital	-11.5151
▁Konferansa	-11.5151
▁Shenzhen	-11.5151
▁دەگۆڕێت	-11.5151
▁شەپۆل	-11.5151
▁rayedar	-11.5151
▁rêbazek	-11.5151
▁موڵک	-11.5152
▁Bursa	-11.5154
▁ترسناک	-11.5155
▁یەکسان	-11.5155
▁hotel	-11.5155
▁تیایاندا	-11.5156
▁drop	-11.5156
▁under	-11.5156
▁Saet	-11.5158
▁EUR	-11.5162
▁Heft	-11.5164
▁قود	-11.5173
▁Map	-11.5173
▁veguherandin	-11.5176
▁Awards	-11.5186
ەکێ	-11.5191
LM	-11.5194
▁paqijkirin	-11.5196
▁têkoşîna	-11.5198
▁پارێزگار	-11.5215
▁ڕاکردن	-11.5215
وادیار	-11.5215
▁2002	-11.5218
▁CAPTCHA	-11.5233
▁Enterprise	-11.5233
▁converter	-11.5233
▁karbonê	-11.5233
▁veberhênerên	-11.5233
▁vekişînê	-11.5233
▁Czech	-11.5234
▁شاعیر	-11.5234
▁ڵقوڵا	-11.5234
▁taybetmendî	-11.5234
▁Reg	-11.5234
▁بشارن	-11.5234
▁Show	-11.5234
▁Vegere	-11.5234
پڕ	-11.5236
▁4.0	-11.5236
▁LongName	-11.5237
▁Pirsgirêka	-11.5237
▁madeyên	-11.5237
dirêj	-11.5238
▁Xu	-11.524
▁çewtiyê	-11.5241
▁paceya	-11.5242
▁هۆڵ	-11.5244
▁Visa	-11.5245
train	-11.5246
▁Press	-11.5248
▁Dawiyê	-11.5249
▁خزمەت	-11.525
▁plankirin	-11.5253
▁Şah	-11.5265
ign	-11.5272
▁دۆزیو	-11.5272
اخی	-11.5273
▁keçik	-11.5285
▁dadkirin	-11.5295
bilind	-11.5297
dam	-11.5307
▁Şiir	-11.5316
▁birêve	-11.5316
▁Blythe	-11.5317
▁Mamoste	-11.5317
▁Mifteya	-11.5317
▁Software	-11.5317
▁bişkoka	-11.5317
▁error	-11.5317
▁generator	-11.5317
▁ڕابوێرن	-11.5317
▁hîdrolîk	-11.5317
▁bihêle	-11.5317
▁Cezayê	-11.5317
▁بزن	-11.5317
▁pisîk	-11.5318
▁sepandin	-11.5318
ıl	-11.5319
▁Wooden	-11.532
▁نوێنێت	-11.5321
pcs	-11.5321
▁هەڵب	-11.5322
▁Nûçeyan	-11.5322
▁derkeve	-11.5322
▁nivîskî	-11.5323
▁وتویانه	-11.5323
▁Color	-11.5323
▁مردار	-11.5324
▁Bişkojk	-11.5325
▁kursiyê	-11.533
NI	-11.5331
▁pîşesazîya	-11.5335
▁poz	-11.5337
▁awayên	-11.5338
▁çêker	-11.5341
▁(3)	-11.5348
▁مانگێک	-11.5353
eller	-11.5355
▁بەشدار	-11.5365
5.0	-11.5369
▁گرفت	-11.5369
▁وابک	-11.5375
▁ناکەن	-11.5376
▁bihîst	-11.5379
بچڵ	-11.5381
last	-11.5384
▁kaxezê	-11.5386
▁Sûr	-11.5397
▁Lijneya	-11.5401
▁هەڵسوکەوت	-11.5401
▁قاروون	-11.5401
▁laborat	-11.5401
▁نادرێن	-11.5401
▁Perwerdehiyê	-11.5401
▁بریندار	-11.5401
▁بدەیت	-11.5401
▁ئازیز	-11.5401
▁Airbus	-11.5402
▁bijarte	-11.5402
▁پاڕێ	-11.5402
▁madenê	-11.5402
▁کاردانەوە	-11.5403
▁transfer	-11.5403
▁دەهێنن	-11.5403
NTV	-11.5403
▁بمانویست	-11.5404
▁Mezinahî	-11.5404
▁یبینن	-11.5404
▁Polîtîkay	-11.5406
▁perwerdeyî	-11.5406
▁بڕیاریداو	-11.5407
▁بگێڕن	-11.5408
▁Hindistan	-11.5409
▁axivî	-11.5409
▁سوکاری	-11.541
▁Serdana	-11.541
▁یخۆن	-11.541
▁Veke	-11.5411
▁organîk	-11.5413
▁تاوێك	-11.5414
▁فڵ	-11.5415
▁هەور	-11.5416
ئاسمان	-11.5417
▁Photos	-11.5417
▁hatîye	-11.5419
▁Dawîn	-11.5422
▁یاڵیان	-11.5426
perwer	-11.5436
▁have	-11.544
▁nebat	-11.544
▁بێستان	-11.5445
istic	-11.5451
▁kev	-11.5453
▁amadekariyê	-11.5455
▁20%	-11.5457
▁سێنین	-11.546
▁خرێت	-11.546
▁hunerî	-11.5469
▁rave	-11.5472
▁Site	-11.5478
▁ئافرەتان	-11.5482
▁berjewend	-11.5484
▁ڵاتداران	-11.5484
▁Admission	-11.5486
▁August	-11.5486
▁Federasyona	-11.5486
▁niştecîh	-11.5486
▁referans	-11.5486
▁ئوحود	-11.5486
▁Artêşa	-11.5486
▁bikaribin	-11.5486
▁Navendî	-11.5486
▁bikişîne	-11.5486
▁فراوانگیر	-11.5486
▁پەیام	-11.5486
▁هەروەک	-11.5486
▁diranan	-11.5486
▁dewam	-11.5486
▁pirtûkxane	-11.5488
▁ئامار	-11.549
libusb	-11.5491
▁ئاژاو	-11.5492
▁1999	-11.5498
▁Electronics	-11.5499
▁milk	-11.55
▁تزانیو	-11.5504
endam	-11.5506
نیاز	-11.5507
▁Mary	-11.5507
▁cap	-11.5508
▁گیرێت	-11.5508
▁hesinî	-11.5515
▁١٥	-11.5521
▁cîhanî	-11.5522
▁birêvebirin	-11.5525
دێر	-11.5529
▁هۆکارێک	-11.553
▁satelît	-11.5532
▁ڕیسواک	-11.554
▁ناوتاندا	-11.5547
▁Lez	-11.5548
off	-11.5549
▁تاوانکاران	-11.5549
▁image	-11.5553
▁داید	-11.5554
▁مێیه	-11.5555
▁stenbolê	-11.5571
▁zayendî	-11.5571
▁zewicî	-11.5571
▁Ciwan	-11.5571
▁rêkeftin	-11.5571
▁تڕوانیو	-11.5571
▁تابلۆ	-11.5571
▁بزر	-11.5571
▁Type	-11.5571
▁سازاندوو	-11.5571
▁وەرزش	-11.5571
▁شانازی	-11.5571
▁başûrê	-11.5571
▁bêhêz	-11.5572
▁hîdro	-11.5572
▁Count	-11.5572
▁پاشماو	-11.5575
▁Dostu	-11.5577
▁Year	-11.558
▁hişt	-11.5581
▁Hejmar	-11.5587
▁بکوژێت	-11.559
▁Bah	-11.5592
▁2001	-11.5592
▁ساڵانە	-11.56
▁wesayîta	-11.56
ئاس	-11.5604
▁سوپاسگوزاران	-11.5605
color	-11.5613
▁ڕاس	-11.5617
▁فرس	-11.5625
▁هێنرا	-11.5627
▁Şiirler	-11.5654
▁Vîdeo	-11.5657
▁Michael	-11.5657
▁Quality	-11.5657
▁Wîkîpediya	-11.5657
▁aluminium	-11.5657
▁ئاوریشمی	-11.5657
▁Plastic	-11.5657
▁lihevhatî	-11.5657
Password	-11.5657
▁short	-11.5657
▁Class	-11.5657
[4]	-11.5658
Search	-11.5658
▁باکور	-11.5658
▁qediya	-11.5658
.08.201	-11.5658
▁سێیەم	-11.5659
▁Style	-11.5659
▁پشیلە	-11.5659
▁House	-11.5659
▁کەسایەتی	-11.5659
▁xebitî	-11.566
وژێت	-11.5661
▁Şiirleri	-11.5661
▁بترسێت	-11.5662
▁مۆز	-11.5664
▁Sernav	-11.5665
▁kursa	-11.5665
▁Sermase	-11.5665
▁ژمارەیەکی	-11.5666
▁welatiyên	-11.5668
▁destpêk	-11.5674
▁Text	-11.5679
▁kirrîn	-11.5688
▁ڕێنمویی	-11.5688
▁kêmbûna	-11.5692
▁dilxwaz	-11.5694
▁Use	-11.5696
gro	-11.57
بیستووه	-11.5704
jimar	-11.5705
▁pêşeng	-11.5711
ford	-11.5726
▁blok	-11.5728
▁Bêtir	-11.5732
▁rake	-11.5736
chel	-11.5742
▁narkotîk	-11.5744
▁Duyemîn	-11.5744
▁Ewlekariyê	-11.5744
▁Pirrjimar	-11.5744
▁Zhejiang	-11.5744
▁پلاستیک	-11.5744
▁sekinandin	-11.5744
▁têgihîştin	-11.5744
▁têkiliyek	-11.5744
▁profile	-11.5744
▁بەتایبەتی	-11.5744
▁reaksiyon	-11.5744
▁دەڕوات	-11.5745
▁baldarî	-11.5746
▁ئاسۆ	-11.5747
▁acid	-11.5749
▁Role	-11.5754
▁kartê	-11.5755
▁Avakirin	-11.5755
▁hebin	-11.5765
▁veava	-11.5772
▁ڕوناک	-11.5775
ێگەشت	-11.578
ناتوان	-11.5785
▁nûçeyan	-11.5786
▁wergirtin	-11.579
▁گەورەکان	-11.579
▁nêz	-11.5795
HO	-11.5799
▁sîgorteyê	-11.5811
▁gotarê	-11.5813
گوزار	-11.5827
▁wêneya	-11.5828
▁kabîneya	-11.5832
▁White	-11.5832
▁سیاسەت	-11.5832
▁شێواو	-11.5832
▁جیھان	-11.5832
▁destdirêjî	-11.5832
▁lewma	-11.5832
▁Saint	-11.5832
▁belkî	-11.5832
▁George	-11.5832
▁Elmanya	-11.5832
▁forumê	-11.5833
▁Baştir	-11.5833
▁Johnson	-11.5833
▁UHD	-11.5834
▁نمایش	-11.5834
▁ببور	-11.5834
▁ewlekarî	-11.5835
▁کوشن	-11.5836
▁PVC	-11.5837
▁مەترسیدار	-11.5838
▁شەکر	-11.5839
▁jinekê	-11.584
zimanî	-11.5841
▁Martin	-11.5851
▁نابینا	-11.5852
▁serbilind	-11.5852
▁mezinbûnê	-11.5855
1000	-11.5855
▁Over	-11.586
▁دونیا	-11.5861
▁zimanan	-11.5868
▁perwerdeyê	-11.5876
metre	-11.5886
▁Zanist	-11.5891
▁parçeyek	-11.5908
زۆرب	-11.5908
▁Ur	-11.5909
gnueabihf	-11.592
▁Balafirgeh	-11.592
▁Binesaz	-11.592
▁Genotropin	-11.592
▁Psychiatîk	-11.592
▁dihewîne	-11.592
▁girseyî	-11.592
▁جوتیار	-11.592
▁plus	-11.5921
▁balafirgeha	-11.5921
▁Hevrik	-11.5922
▁sibê	-11.5925
▁tibî	-11.5925
▁پیایدا	-11.5925
▁Track	-11.5929
▁avahî	-11.5931
▁Road	-11.5934
▁خوێندکارەکان	-11.5936
▁خوری	-11.5936
▁بنەما	-11.5944
▁سستی	-11.5946
▁گرتبێت	-11.5948
▁موسڵمانان	-11.5951
▁دەبنەوە	-11.5957
▁pêşketin	-11.5957
▁لێکردو	-11.596
▁opt	-11.5967
▁تێدایە	-11.5973
▁لێکۆڵین	-11.5976
▁desteser	-11.5977
6.0	-11.598
▁Sub	-11.5982
▁مردووان	-11.5982
جوان	-11.5985
▁Pace	-11.5987
▁سال	-11.5991
Drive	-11.6003
▁teşe	-11.6005
▁ڕووکار	-11.6009
▁Meclîsa	-11.601
▁qaîdeyên	-11.601
▁Pevçûn	-11.601
▁battery	-11.601
▁بتوانم	-11.601
▁Herêmî	-11.601
tricolor	-11.601
▁لەدایک	-11.601
▁hûrgelê	-11.6011
script	-11.6011
▁سەوز	-11.6012
▁ruhê	-11.6013
·	-11.6014
▁bazirgan	-11.6015
▁hêrs	-11.6016
٨٠	-11.6017
0.000	-11.6017
▁Tug	-11.6021
▁qereqolên	-11.6021
▁تۆپ	-11.6023
▁1990	-11.6023
▁desthilatdar	-11.6024
▁گژ	-11.6025
▁کۆبک	-11.6028
▁سەدان	-11.6033
lîtîk	-11.6038
▁wêneyan	-11.604
▁١٢	-11.604
▁jiyanek	-11.6042
PO	-11.6055
routes	-11.6062
▁گۆر	-11.6063
▁hêman	-11.6089
▁نوقم	-11.6096
ceribîne	-11.61
▁ShortName	-11.61
▁WordPress	-11.61
▁XNUMX	-11.61
▁bêguman	-11.61
▁vekişîna	-11.61
▁لەجیاتی	-11.61
▁گەردیلە	-11.61
sitemap	-11.61
▁diameter	-11.61
▁Rojnameya	-11.6101
▁بکەوێت	-11.6102
▁Serlêdan	-11.6106
▁mîr	-11.6107
▁îlan	-11.6111
▁سووك	-11.6128
▁سنووردار	-11.6141
▁بەکارهێنا	-11.616
pergal	-11.6163
ئیماندار	-11.6168
▁Dêrê	-11.6175
zel	-11.618
ector	-11.6188
▁mekanîzma	-11.6191
▁Nevada	-11.6191
▁febrîqa	-11.6191
▁performance	-11.6191
▁sertîfîka	-11.6191
▁processing	-11.6191
▁دیهێناون	-11.6191
▁فەرمان	-11.6191
▁Vebijarkên	-11.6191
▁Nexweşxaneya	-11.6191
▁داستانی	-11.6191
▁dixwest	-11.6192
▁ڕواندوو	-11.6192
▁دانیشتوون	-11.6193
▁map	-11.6193
▁1998	-11.6197
place	-11.6198
▁PRO	-11.62
▁1995	-11.6201
symbols	-11.6205
balafiran	-11.6218
▁civak	-11.6223
▁نووسین	-11.6226
6.5	-11.6241
▁kit	-11.6244
▁komputer	-11.6247
▁مادە	-11.6251
سێنن	-11.6258
▁awayê	-11.626
▁baweriyê	-11.6264
▁polîs	-11.627
NF	-11.6272
3.5	-11.6278
▁Support	-11.6282
▁Kalîteya	-11.6282
▁Têkelî	-11.6282
▁WhatsApp	-11.6282
▁fizîkî	-11.6282
▁hardware	-11.6282
▁neçareserkirî	-11.6282
▁provides	-11.6282
▁serokwezîr	-11.6282
▁خامۆش	-11.6282
▁خۆشحاڵ	-11.6282
▁Remote	-11.6283
تەنھا	-11.6283
▁دەتەوێت	-11.6283
▁Sertîf	-11.6283
oglû	-11.6283
▁Element	-11.6283
▁neçar	-11.6283
▁mesaj	-11.6283
▁çekên	-11.6284
▁موحا	-11.6285
▁Spring	-11.6285
▁یارمەتیدەر	-11.6285
▁بیشار	-11.6288
▁جێهێشت	-11.6289
▁Sêwiran	-11.6291
▁berîka	-11.6291
▁تێکڕا	-11.6292
پرسیار	-11.6293
▁میراتگر	-11.6293
▁Herêma	-11.6295
▁Paceya	-11.6299
▁هێڵێت	-11.6313
▁1500	-11.6314
اڤ	-11.6317
▁فته	-11.6319
▁کەنار	-11.6328
▁kem	-11.6338
TIN	-11.6349
▁hevkarî	-11.6362
0.1	-11.6365
▁drive	-11.6372
▁konferans	-11.6375
▁International	-11.6375
▁Paradise	-11.6375
▁Versyonekî	-11.6375
▁naxwazin	-11.6375
▁بەتەواوی	-11.6375
▁دەوڵەمەند	-11.6375
▁magnet	-11.6375
▁Modern	-11.6375
▁Biguherîne	-11.6375
▁ساخت	-11.6375
ability	-11.6375
▁واقع	-11.6375
▁كێوی	-11.6376
▁Pênc	-11.6376
▁Rêbaz	-11.6377
▁dîmender	-11.6378
▁Forex	-11.6378
▁sîstem	-11.6379
▁bikêr	-11.6379
▁بژێرێت	-11.638
▁vîrus	-11.638
="6	-11.638
▁بینراو	-11.6382
▁elektrîk	-11.6382
▁1996	-11.6383
▁berçav	-11.6384
▁Ankara	-11.6386
▁بردوون	-11.6387
▁têkçû	-11.6389
▁pirtûkxaneya	-11.6393
▁qebûlkirin	-11.6396
▁خران	-11.6401
▁Find	-11.6401
▁لاب	-11.641
▁sign	-11.6415
▁Rojhilat	-11.6423
▁Buy	-11.6424
▁تێکچوو	-11.6448
بگرن	-11.6457
.03.2016	-11.6469
▁Enerjiya	-11.6469
▁Privacy	-11.6469
▁پێموابێت	-11.6469
▁Biryara	-11.6469
▁هیوادارم	-11.6469
▁airline	-11.6469
▁edîtor	-11.6469
▁دوبارە	-11.6469
▁bilêtên	-11.6469
▁Earth	-11.6469
▁GPS	-11.6469
▁demsala	-11.6469
▁بارمت	-11.647
▁kifş	-11.6471
▁Food	-11.6471
▁Şaredariya	-11.6473
▁mîmar	-11.6474
▁promo	-11.6476
Roj	-11.6477
qanûn	-11.6477
▁Face	-11.6477
▁Şano	-11.6482
bandor	-11.6501
▁CAS	-11.6501
▁terorî	-11.6503
▁guy	-11.6518
ۆگ	-11.6532
▁Mîheng	-11.6534
▁دلۆڤان	-11.6535
▁Rûpelê	-11.654
▁balafirgehê	-11.6543
▁Dawî	-11.6543
▁gihîştin	-11.6546
1.3	-11.6553
لەر	-11.6553
▁Mont	-11.656
propagand	-11.6563
▁Akademiya	-11.6563
▁Pawlos	-11.6563
▁Railway	-11.6563
▁Suenee	-11.6563
▁manufacturing	-11.6563
▁جێبەجێ	-11.6563
▁Terîf	-11.6563
▁بخوازن	-11.6563
▁deqeyan	-11.6563
▁nifşê	-11.6563
▁cejn	-11.6563
▁xwîna	-11.6564
▁فرۆشن	-11.6564
▁ئاهەنگ	-11.6564
▁Solar	-11.6566
▁سپێنێت	-11.6567
▁Store	-11.657
▁Bijare	-11.657
▁Bor	-11.6571
▁nexşeya	-11.6572
▁Hilberîner	-11.6574
▁astê	-11.6576
▁دەهات	-11.6583
▁بمرێت	-11.6584
دراوە	-11.6586
▁qeza	-11.6595
گۆڕێ	-11.6598
▁Bru	-11.6607
▁کردووین	-11.6609
▁کارد	-11.6618
▁گوز	-11.6619
▁کانیاو	-11.662
optic	-11.6622
▁mûz	-11.6627
▁چیرۆکەکان	-11.6631
▁داخراو	-11.6634
▁çavkaniyê	-11.6635
ogen	-11.6637
▁zanyarî	-11.6642
▁دانیشتوان	-11.6643
▁tûj	-11.6645
pression	-11.6646
▁kişand	-11.6656
▁Computer	-11.6658
▁Foundation	-11.6658
▁management	-11.6658
▁mîqdara	-11.6658
▁ئۆتۆمبێل	-11.6658
▁qumara	-11.6658
▁ڕازێنراو	-11.6658
▁چواردەور	-11.6658
▁بەرەنگار	-11.6658
▁TENÊ	-11.6658
▁سکاڵا	-11.6658
▁tîmên	-11.6658
▁pêşkeftî	-11.6658
▁ربخات	-11.6658
▁ڕۆبچ	-11.6659
▁Excel	-11.6659
▁Malbat	-11.666
▁vegeriya	-11.666
▁alkol	-11.666
▁Fermî	-11.666
▁nerazî	-11.6661
▁partner	-11.6662
▁match	-11.6663
▁سەرباز	-11.6664
▁گوێگرتن	-11.6666
▁کردمانن	-11.6666
▁بگۆڕێت	-11.6667
Plus	-11.6668
هەموو	-11.667
▁cool	-11.667
▁ڕووەک	-11.667
▁زراندو	-11.6671
▁هاندانی	-11.6671
▁تیاد	-11.6678
▁PIR	-11.6678
het	-11.6702
hour	-11.671
watt	-11.6715
شکێنێت	-11.6715
▁Moda	-11.6718
دەکەین	-11.6726
Font	-11.6727
▁pêlav	-11.6732
▁ڕێگایەک	-11.6735
▁belgeyê	-11.6743
▁Premium	-11.6754
▁Transponder	-11.6754
▁Têkiliyên	-11.6754
▁avantaj	-11.6754
▁satelaytan	-11.6754
▁werziş	-11.6754
▁رسوڕهێن	-11.6754
▁سامناك	-11.6754
▁پیشەسازی	-11.6754
▁ڕناهێنن	-11.6754
▁hêviya	-11.6754
▁seretayî	-11.6754
▁تاوەکو	-11.6754
▁proteîn	-11.6754
▁لێواری	-11.6755
▁helbest	-11.6755
گاور	-11.6755
▁Office	-11.6755
▁Curenivîs	-11.6755
▁جۆگ	-11.6755
▁sermaye	-11.6756
▁دواڕۆژ	-11.6757
▁Guide	-11.6758
▁تانمرێنێت	-11.6758
▁ئەنجامدانی	-11.6759
نێرین	-11.6761
▁هێنراوه	-11.6761
▁veavakirina	-11.6762
▁پێشهاتنی	-11.6762
CHP	-11.6767
▁لیست	-11.6768
▁mono	-11.677
▁شاش	-11.6779
▁زێنین	-11.6781
▁زۆرینەی	-11.6797
oglu	-11.681
▁review	-11.6819
▁lîstikvanek	-11.6846
▁bîhnfireh	-11.6851
▁Active	-11.6851
▁Belçîka	-11.6851
▁Generator	-11.6851
▁Kompaniy	-11.6851
▁Konqueror	-11.6851
▁Qedexe	-11.6851
▁Wireless	-11.6851
▁bęşidandin	-11.6851
▁بەدرێژای	-11.6851
▁هیندستان	-11.6851
▁FREE	-11.6851
▁amerîkî	-11.6851
▁îmkanên	-11.6851
▁کۆلێژ	-11.6851
▁HDPyê	-11.6851
▁LTD	-11.6851
aktîv	-11.6851
▁POD	-11.6851
▁vegere	-11.6852
▁smart	-11.6852
▁Account	-11.6852
▁ردنیان	-11.6853
2020	-11.6853
▁Karmend	-11.6857
ڕێگ	-11.6858
▁رگوز	-11.6859
▁فڕۆکە	-11.6861
فریشت	-11.6864
▁ماع	-11.6864
▁vegotin	-11.6865
▁بریتییە	-11.6866
▁Dead	-11.6869
▁خشیون	-11.6871
Herêm	-11.6871
▁total	-11.6876
گۆڕین	-11.6881
▁riyên	-11.6884
1139	-11.6889
▁نیوەی	-11.6889
جوو	-11.6891
▁ڕاپ	-11.69
▁danûstandin	-11.6901
▁lîstin	-11.6902
▁خۆشەویست	-11.6917
▁Komîtey	-11.6939
2013	-11.6941
▁بەدوا	-11.6942
ouch	-11.6944
▁Elektrîk	-11.6949
▁Serokwezîr	-11.6949
▁daxuyaniyê	-11.6949
▁rojnamevan	-11.6949
▁steroîd	-11.6949
▁ئێواره	-11.6949
▁بەخێو	-11.6949
▁خۆشنوود	-11.6949
▁نوقاو	-11.6949
▁Policy	-11.6949
▁ئەوروپا	-11.6949
▁parêzgeha	-11.6949
▁یناکات	-11.695
▁Danasîn	-11.695
▁Agahî	-11.695
▁yekîneya	-11.695
▁Karsaziy	-11.695
▁Hunermend	-11.695
▁About	-11.695
▁وگاردا	-11.6952
▁Kemal	-11.6953
▁بیگرن	-11.6956
▁bikaribe	-11.6958
▁Wiha	-11.6958
▁ناسک	-11.6962
▁aliyan	-11.6963
▁پێشێل	-11.6963
▁ناونیشان	-11.6964
▁رجێك	-11.6966
▁song	-11.6971
▁Cihû	-11.6973
TER	-11.6976
▁xav	-11.6978
بخەین	-11.6982
▁پێبک	-11.6985
▁سوڕێت	-11.6999
▁تێکد	-11.7019
▁٤٠	-11.7023
مرێنێت	-11.7025
▁tecrûbe	-11.7025
▁دەبیت	-11.704
وژد	-11.7042
high	-11.7047
▁fransî	-11.7048
▁viewing	-11.7048
▁sosyal	-11.7048
▁Hormone	-11.7048
▁views	-11.7048
▁pîlot	-11.7049
otropîk	-11.7049
▁بخوێنن	-11.7049
▁qewimî	-11.7049
▁ڕۆشنبیر	-11.7049
▁eslê	-11.705
▁cîhaza	-11.705
▁Island	-11.705
▁Nevis	-11.7053
▁şerab	-11.7054
▁لەبەرئەوە	-11.7054
▁1997	-11.7055
▁شەرم	-11.7057
▁welatekî	-11.7058
▁دڵسۆزان	-11.706
▁واڵێک	-11.7064
▁ندروستی	-11.7075
▁پاڵەوان	-11.7081
لاس	-11.7085
▁ڵیاند	-11.7091
▁ھەست	-11.7095
▁wêneyek	-11.7097
▁زراند	-11.7101
جوول	-11.7104
▁Hêz	-11.7126
▁YH	-11.7126
▁گوناهان	-11.7127
▁0.9	-11.7129
▁Rêwît	-11.7143
▁Miss	-11.7146
▁Akademî	-11.7148
▁Firotanê	-11.7148
▁Furniture	-11.7148
▁Shipping	-11.7148
▁berevajî	-11.7148
▁daxuyanî	-11.7148
▁سەرەڕای	-11.7148
▁کیمیایی	-11.7148
▁کارمەند	-11.7149
▁سەردەمی	-11.7149
▁multimedia	-11.7149
methyl	-11.7149
▁dilxweş	-11.7149
▁شایەنی	-11.7149
▁نوسراو	-11.715
▁کلیل	-11.715
▁Pêşdîtin	-11.715
▁Tips	-11.7151
▁پڕۆسەی	-11.7151
▁دەهێنێت	-11.7151
▁xeyal	-11.7152
Steam	-11.7152
▁konser	-11.7154
▁بنێرێت	-11.716
▁COD	-11.7162
▁Old	-11.7163
▁بوونەوەر	-11.7163
▁will	-11.7165
▁CEO	-11.7166
هێمن	-11.7167
▁عوز	-11.7167
▁derbasbûna	-11.7167
▁wext	-11.717
▁Brand	-11.7175
1.0	-11.7199
▁plat	-11.72
▁çandiniy	-11.7206
▁هەستیار	-11.7217
▁parvekirin	-11.7217
شزانن	-11.7225
llah	-11.7226
▁psîkolojî	-11.7229
داوای	-11.7245
▁endazyar	-11.7249
▁temsîl	-11.7249
▁توندوتیژی	-11.7249
▁Oracle	-11.7249
▁Origin	-11.7249
▁Brazil	-11.7249
▁nizm	-11.725
▁Movie	-11.725
▁قەرز	-11.725
▁kitêb	-11.725
▁تەخت	-11.725
▁kids	-11.725
▁solar	-11.7252
▁گرینگ	-11.7253
▁stock	-11.7254
▁Baştirîn	-11.7254
▁mişk	-11.7255
▁Basel	-11.7259
▁PID	-11.726
▁DYA	-11.726
▁بگرین	-11.7262
▁shower	-11.7263
▁amadekar	-11.7269
▁drama	-11.727
▁wenda	-11.7271
▁ناكات	-11.7278
guhert	-11.7285
سپارد	-11.7287
▁زاناک	-11.7298
firotinê	-11.7317
▁ڕهێنان	-11.7322
درایه	-11.733
▁radyoyê	-11.734
▁جیابوون	-11.7345
▁دەرگا	-11.7346
▁BERSÎV	-11.735
▁elektro	-11.7351
▁William	-11.7351
▁controller	-11.7351
▁cîhêreng	-11.7351
▁gotûbêj	-11.7351
▁kategoriyê	-11.7351
▁Îsraîl	-11.7351
▁bazariya	-11.7351
▁تێڕوانین	-11.7351
▁bookmaker	-11.7351
▁درەخت	-11.7351
▁Western	-11.7351
▁Odeya	-11.7352
▁دەرچوو	-11.7352
▁CPA	-11.7353
▁تۆزێک	-11.7355
▁دەمویست	-11.7355
▁پەیدا	-11.7355
▁ناوخۆیی	-11.7357
▁API	-11.7358
▁extra	-11.7359
▁70%	-11.736
▁Çend	-11.7367
#	-11.7369
▁منداڵەکە	-11.7371
▁Pipe	-11.7382
▁خیر	-11.7387
▁وردبین	-11.7397
▁Dîsa	-11.741
▁rêvebirin	-11.742
▁hundur	-11.7422
▁ئێواران	-11.7436
ique	-11.7445
▁ڕابگر	-11.7453
▁Rojnameger	-11.7455
▁Serîlêdana	-11.7455
▁Thailand	-11.7455
▁hawirdor	-11.7455
▁Ûkraynayê	-11.7455
▁ئێسك	-11.7455
▁Nasnav	-11.7455
▁tengahiyê	-11.7455
position	-11.7455
▁Sînor	-11.7455
▁veqetîn	-11.7456
فێر	-11.7457
▁دیاریكراو	-11.7457
carbon	-11.7458
▁بیکەین	-11.7459
▁domandin	-11.7461
▁gilî	-11.7462
▁hestyar	-11.7463
▁xebat	-11.7463
▁misogerkirina	-11.7466
▁root	-11.7467
▁وتوی	-11.7471
down	-11.7474
▁هێل	-11.7494
▁home	-11.7501
▁ئازاردانی	-11.7504
▁Mîr	-11.7519
▁Qanûn	-11.753
trans	-11.7542
دەخات	-11.7548
▁تەماشا	-11.7555
▁Beautiful	-11.7559
▁Hevserokê	-11.7559
▁Kocaeli	-11.7559
▁gauges	-11.7559
▁textures	-11.7559
▁teşwîq	-11.7559
▁بەخێرایی	-11.7559
▁ciddî	-11.7559
▁خزمەتگوزاری	-11.7559
▁سامیری	-11.7559
▁ئەکرێت	-11.7559
▁دەربڕین	-11.7559
▁CPU	-11.7559
▁Speed	-11.7559
▁pîvaz	-11.7559
▁تەلار	-11.7559
▁jihevde	-11.7559
▁بێدەنگ	-11.7559
▁زێڕ	-11.7559
▁Dêra	-11.7559
▁demdirêj	-11.756
▁euro	-11.756
paint	-11.7562
▁nasnameyê	-11.7562
▁یونس	-11.7562
▁کول	-11.7565
▁sermase	-11.757
▁PTO	-11.7571
زیندوو	-11.7578
Hemû	-11.7578
spot	-11.758
▁هەڵگرت	-11.7586
▁هێنیت	-11.759
▁تێبک	-11.7609
▁هەڵبژارد	-11.7616
▁Modul	-11.7656
▁netewe	-11.7662
case	-11.7664
▁Blackjack	-11.7664
▁Bohemian	-11.7664
▁Irdeto	-11.7664
▁stratejiya	-11.7664
▁iPad	-11.7664
▁qehwe	-11.7664
▁rêwiyan	-11.7664
▁group	-11.7664
▁Pêşkeftin	-11.7664
▁şewat	-11.7664
▁krîza	-11.7664
▁abonetiyê	-11.7664
▁SID	-11.7679
٢٠	-11.768
▁Betal	-11.7683
ماش	-11.7684
▁کچەکە	-11.7687
▁Jack	-11.7687
كاتێك	-11.7691
▁fam	-11.7696
▁ناڵێن	-11.7705
▁March	-11.7709
▁یاداشت	-11.771
birêvebir	-11.7736
▁ووڵات	-11.7746
▁بارگ	-11.7758
▁Gerînendeyê	-11.777
▁Singapore	-11.777
▁Yildirim	-11.777
▁Deposit	-11.777
▁Forklift	-11.777
▁Teknolojî	-11.777
▁VigRX	-11.777
▁atmosfer	-11.777
▁klavyeyê	-11.777
▁îhtîmal	-11.777
▁پۆشاك	-11.777
▁frame	-11.7771
▁nermalav	-11.7771
▁گیرۆد	-11.7771
Application	-11.7771
▁binêre	-11.7771
▁Pump	-11.7772
▁rêveberiyê	-11.7774
▁amûrek	-11.7774
▁ICO	-11.7776
▁hevrêz	-11.7776
▁یەکسەر	-11.7776
▁perçeyên	-11.7777
▁paper	-11.7778
▁Paul	-11.778
▁دەڵێین	-11.7784
▁خوڕ	-11.7792
چوار	-11.7799
▁pêvajoyek	-11.7809
peyam	-11.7825
This	-11.7853
Point	-11.7853
▁دوژمنێک	-11.7854
▁گاڵ	-11.7854
▁neuro	-11.7856
market	-11.7865
1,5	-11.7869
▁muayene	-11.7878
▁Hevpeymaniya	-11.7878
▁Mayoraredar	-11.7878
▁RAID	-11.7878
▁bişkokên	-11.7878
▁giyaxaneyan	-11.7878
▁دەرئەنجام	-11.7878
▁پرۆگرام	-11.7878
▁lêçûnên	-11.7878
▁serokatiya	-11.7878
▁broker	-11.7878
▁BSF	-11.7878
▁Jizera	-11.7878
▁ببوای	-11.7878
▁Queen	-11.7878
▁cîgirê	-11.7878
▁شارستانی	-11.7878
▁Girtin	-11.7879
▁civiya	-11.7879
▁çolê	-11.7879
▁internet	-11.7879
▁Pêşangeh	-11.788
▁Bajêr	-11.788
▁شووشه	-11.7882
▁hewldana	-11.7885
▁22000	-11.7889
▁گونجا	-11.7891
▁rating	-11.7895
سوێند	-11.7901
منداڵ	-11.7901
chess	-11.791
▁optîk	-11.7932
▁Jor	-11.7933
▁گۆڵ	-11.7939
Imp	-11.7957
graph	-11.7958
▁dêûbav	-11.7987
▁Acetate	-11.7987
▁Jackpot	-11.7987
▁Qereqola	-11.7987
▁Shanghai	-11.7987
▁facebook	-11.7987
▁Polîsan	-11.7987
▁لەڕێگەی	-11.7987
▁دوێنێ	-11.7987
▁راستیدا	-11.7987
Deutsch	-11.7987
▁ڕاگرتنی	-11.7987
▁خۆراك	-11.7987
▁ئیلهام	-11.7987
▁pêşbaziyê	-11.7987
▁rêgez	-11.7987
▁مێشك	-11.7987
sdcard	-11.7987
▁Antalya	-11.7987
content	-11.7987
▁Prepar	-11.7987
▁zirar	-11.7987
▁بیرۆکه	-11.7988
▁بایەخ	-11.7989
▁تونا	-11.7992
gîr	-11.7998
بڕیاری	-11.8011
▁rêvebir	-11.8026
▁hilda	-11.805
▁گورج	-11.8052
▁wergerandin	-11.8053
▁şûşey	-11.8056
▁çewtiyek	-11.8065
بەپێی	-11.8068
▁bişkojk	-11.8069
▁fikar	-11.8082
Ethiopia	-11.8096
▁hûragahiyan	-11.8096
▁provider	-11.8096
▁Şîrove	-11.8096
▁herikîna	-11.8096
▁بخوێنرێت	-11.8096
▁cross	-11.8097
▁یادەوەری	-11.8097
▁Mercên	-11.8097
▁Çavdêriy	-11.8097
▁pêngav	-11.8097
Dialog	-11.8097
▁Honda	-11.8097
▁klîk	-11.81
▁lîber	-11.81
▁France	-11.8101
▁germahiya	-11.8101
▁Hall	-11.8101
▁pêrist	-11.8103
▁vedike	-11.8105
▁رەنگە	-11.8112
hilberandin	-11.8122
▁پێڕاگ	-11.8127
▁Opti	-11.8128
▁یشتوو	-11.8144
▁دووڕوویی	-11.8153
▁Kişandin	-11.8162
▁Asia	-11.8168
▁ڕۆچوو	-11.8175
abbreviat	-11.8208
▁Bexdayê	-11.8208
▁Factory	-11.8208
▁Hotbird	-11.8208
▁Washington	-11.8208
▁contact	-11.8208
▁الحمد	-11.8208
▁هاوسەرگیری	-11.8208
▁چوارچێو	-11.8208
▁sabît	-11.8208
▁Kîjan	-11.8208
▁بپاڕێ	-11.8208
▁ربچێت	-11.8208
▁Sermasê	-11.8208
▁پیلانگێڕان	-11.8208
▁êvarê	-11.8208
▁پێناگ	-11.8209
▁cihêreng	-11.8209
▁lazer	-11.821
▁ردیگار	-11.8211
▁بنچینەیی	-11.8211
▁Europe	-11.8214
▁بسێنێت	-11.8214
▁ODM	-11.8214
▁تبینیو	-11.8214
▁dosya	-11.8215
▁گواستنەوەی	-11.8215
▁بڕیاردراو	-11.8217
▁gef	-11.8223
▁نەرم	-11.8223
Read	-11.8242
نادات	-11.8242
چەشن	-11.8242
▁ناوبردنی	-11.8245
▁nexşeyê	-11.8245
دژی	-11.8247
▁Pirtûkxane	-11.8261
▁derxist	-11.8271
نێوان	-11.8273
▁Berpirsiyar	-11.832
▁Multiplex	-11.832
▁Temaşe	-11.832
▁biguhere	-11.832
▁currency	-11.832
▁navîgasyon	-11.832
▁nêçîr	-11.832
▁بیانپارێزێت	-11.832
▁پەیوەست	-11.832
▁Health	-11.832
▁تەرخان	-11.832
▁نافامن	-11.832
▁MERS	-11.832
▁Dream	-11.832
▁لێکردبن	-11.832
system	-11.832
▁بتوانیت	-11.832
▁خەڵات	-11.832
▁شوکران	-11.832
▁pirrjimar	-11.832
▁یخوێنین	-11.832
▁بترازێ	-11.832
▁serîlêdana	-11.832
▁nefret	-11.832
▁Ferheng	-11.8321
▁بەرپرسیار	-11.8321
ييه	-11.8321
▁Money	-11.8325
▁پۆپ	-11.8326
sterone	-11.8329
▁dagirker	-11.833
▁partiyên	-11.8331
▁وێنەکان	-11.8332
ئۆ	-11.8334
عیلم	-11.8336
▁نموونەیەک	-11.834
▁nexweşxane	-11.8341
▁vegerî	-11.8375
▁لێبهێن	-11.8387
▁بیانخ	-11.8394
▁Xizmetkar	-11.8401
▁خاتر	-11.8402
▁کارەبایی	-11.8403
▁خولگ	-11.8404
Desteya	-11.8406
بکەم	-11.843
speed	-11.8431
▁Ukrayna	-11.8434
▁Church	-11.8434
▁Serbixwe	-11.8434
▁kategoriya	-11.8434
▁shopping	-11.8434
▁similar	-11.8434
▁tooltip	-11.8434
▁هوشیار	-11.8434
▁Daxuyanî	-11.8434
Kurmancî	-11.8434
630	-11.8434
XBET	-11.8434
▁دەمانەوێت	-11.8434
▁pêwendiya	-11.8434
▁تێگەشتن	-11.8434
▁بخوێنه	-11.8434
▁ڕەق	-11.8434
.06.2016	-11.8434
▁Polsat	-11.8435
▁balance	-11.8436
▁مگین	-11.8436
▁WHO	-11.8436
▁Çiriya	-11.8436
▁بیانگرن	-11.8437
▁Titan	-11.8439
▁driver	-11.8439
▁Rêwîtiyê	-11.844
▁گووت	-11.8444
پاراست	-11.8458
fireh	-11.8458
مۆسیقا	-11.8462
▁Nîşe	-11.8464
▁تانخ	-11.849
▁پاڕاستوو	-11.8509
water	-11.8531
lêdana	-11.8537
Category	-11.8549
▁bisekine	-11.8549
▁tawanbar	-11.8549
▁Festîvala	-11.8549
▁Industry	-11.8549
▁application	-11.8549
▁automatically	-11.8549
▁powered	-11.8549
▁نگوباس	-11.8549
▁Azure	-11.8549
▁کارەسات	-11.8549
▁mirîşk	-11.8549
▁kûp	-11.855
▁luks	-11.855
▁Phone	-11.855
▁berdêl	-11.8551
olojiyê	-11.8551
▁Conax	-11.8551
▁نوێنن	-11.8552
▁kursî	-11.8552
▁hesp	-11.8558
▁لاوازکراو	-11.856
▁karsaziyek	-11.8564
▁ronî	-11.8565
▁hilanîn	-11.859
▁گرفتار	-11.8593
road	-11.8608
▁Kirîn	-11.8663
▁Karbidest	-11.8665
▁Professional	-11.8665
▁teserûf	-11.8665
▁بنەڕەتی	-11.8665
▁April	-11.8665
▁AutoCAD	-11.8665
▁Central	-11.8665
▁ئۆتیزم	-11.8665
▁دیموکراسی	-11.8665
▁مێشوولە	-11.8665
▁Brasero	-11.8665
-05-201	-11.8665
▁Gotarên	-11.8665
▁Japan	-11.8665
▁betlaneyê	-11.8665
Armanc	-11.8665
▁فیدی	-11.8665
▁پرۆسەی	-11.8665
▁ناهێڵێت	-11.8665
▁BERSÎVAN	-11.8666
▁bigerin	-11.8666
▁gotarek	-11.8666
▁romantîk	-11.8666
▁digere	-11.8666
▁بنیاتنان	-11.8667
▁metod	-11.8668
▁III	-11.8669
▁ڵبژاردووه	-11.867
▁پوور	-11.8671
▁بریار	-11.8674
▁سووکای	-11.8674
▁hydr	-11.8675
▁Aero	-11.8675
▁ڕاگیر	-11.8691
▁تواو	-11.8699
▁فرۆشت	-11.8714
windabûna	-11.878
▁Cumhuriyetê	-11.8782
▁Method	-11.8782
▁Nepomuk	-11.8782
▁SnapTube	-11.8782
▁afirîner	-11.8782
▁diqewime	-11.8782
▁graphics	-11.8782
▁hormonê	-11.8782
▁konteynir	-11.8782
▁nikarim	-11.8782
▁ئەفریقی	-11.8782
▁تایبەتمەندی	-11.8782
▁نائاسایی	-11.8782
▁Belavkirina	-11.8782
▁package	-11.8782
▁aliyekî	-11.8782
▁نوستن	-11.8782
▁میوزیک	-11.8783
▁aboriya	-11.8783
▁نزڵگ	-11.8783
▁şiyana	-11.8783
▁çavkanî	-11.8783
▁mebesta	-11.8783
▁Solid	-11.8783
▁qonaxên	-11.8783
▁زیندەوەر	-11.8783
▁Magic	-11.8784
▁guhdarî	-11.8784
▁derdorê	-11.8785
▁tamîr	-11.8786
▁îsal	-11.8786
▁peywir	-11.8787
▁xort	-11.8788
trac	-11.8791
▁بدوێ	-11.8792
▁şano	-11.8794
▁cîran	-11.8821
▁Baweriy	-11.8828
▁بارودۆخێک	-11.8838
▁هەفتەیەک	-11.8858
▁ڕۆد	-11.8864
7.5	-11.8866
▁Cuda	-11.8874
▁ڕژاندوو	-11.889
guhestin	-11.8895
berhênan	-11.89
Russia	-11.8901
Wikipedia	-11.8902
▁Aluminum	-11.8902
▁Coinbase	-11.8902
▁Serîlêdanê	-11.8902
▁Television	-11.8902
▁exclusive	-11.8902
▁longitud	-11.8902
▁profesor	-11.8902
▁ھەروەھا	-11.8902
▁brown	-11.8902
▁Kovara	-11.8902
▁sheet	-11.8902
▁سرووشت	-11.8902
▁robot	-11.8902
▁ئەستەم	-11.8902
▁کامێرا	-11.8902
▁Walking	-11.8902
▁Work	-11.8902
▁تاڤگ	-11.8902
▁باشوور	-11.8902
▁Trading	-11.8903
▁Package	-11.8903
▁hestiyar	-11.8903
▁چاپ	-11.8904
▁îdarî	-11.8905
helîkopterên	-11.8921
▁ووزە	-11.8926
design	-11.8936
▁route	-11.8963
▁٢٥	-11.8982
بکرێت	-11.9004
7.0	-11.9013
8.0	-11.9015
▁Actress	-11.9022
▁Hiqûq	-11.9022
▁Shandong	-11.9022
▁Turntable	-11.9022
▁airplane	-11.9022
▁kirrûbir	-11.9022
▁mimkun	-11.9022
▁nizanim	-11.9022
▁دەگمەن	-11.9022
▁Biçûk	-11.9022
▁Cutting	-11.9022
▁Danişîn	-11.9022
▁vertical	-11.9022
▁لۆژیا	-11.9022
▁reqabet	-11.9022
▁ئابڕوو	-11.9022
▁Single	-11.9022
background	-11.9023
▁xulek	-11.9023
▁mîlî	-11.9023
▁Price	-11.9023
▁guncan	-11.9024
▁bidim	-11.9029
▁giha	-11.903
بين	-11.9036
جێگ	-11.9037
▁kaxez	-11.9044
article	-11.9047
▁قوڕێک	-11.9057
“	-11.9058
▁çêdike	-11.9069
9.99	-11.9073
▁fikr	-11.9093
▁سیحر	-11.9097
▁Elektronîk	-11.9144
▁Misslamode	-11.9144
▁hîdroulîk	-11.9144
▁perfect	-11.9144
▁stratejîk	-11.9144
▁şagirtên	-11.9144
▁زەبەلاح	-11.9144
▁نەشتەرگەری	-11.9144
▁کاغەز	-11.9144
▁General	-11.9144
▁Projeyên	-11.9144
▁Reklam	-11.9144
▁dosage	-11.9144
▁navgîniy	-11.9144
▁سەرانسەر	-11.9144
▁Sembol	-11.9144
▁otobusê	-11.9144
▁entry	-11.9144
▁قایل	-11.9144
▁wezîrê	-11.9144
▁komeleyê	-11.9145
▁Kulîlk	-11.9145
▁rawesta	-11.9146
▁دەیانەوێت	-11.9146
▁têkçûna	-11.9149
▁şansê	-11.9152
▁بدای	-11.9156
ئەگەر	-11.9183
uhartin	-11.9184
title	-11.9185
ەبوایە	-11.9186
▁Sîstem	-11.9204
▁جوڵان	-11.9214
▁taybetmendiyê	-11.9244
بگرم	-11.9266
1.4	-11.9266
چەپڵەڕێزان	-11.9267
▁دەگەڕێتەوە	-11.9267
▁پەنابەر	-11.9267
▁Studio	-11.9267
▁Çimkî	-11.9267
▁Ewropî	-11.9267
▁antenna	-11.9267
▁گۆچان	-11.9267
▁Pêşvebir	-11.9268
▁bixwaze	-11.9268
▁seramîk	-11.9268
▁quote	-11.9268
▁Plug	-11.9268
▁tengahî	-11.9269
▁bagerê	-11.9269
▁Airport	-11.927
▁سپاندن	-11.927
▁derkevin	-11.9271
ۆلۆج	-11.9271
▁Kurdish	-11.9272
▁Çandiniy	-11.9273
▁wergir	-11.9301
تەنها	-11.9308
▁bihêt	-11.9352
دابنێین	-11.9354
▁دەخاتە	-11.9385
▁Ronahi	-11.9385
▁Enqere	-11.9387
▁AND	-11.9389
▁namzet	-11.9392
▁Senegal	-11.9392
▁Viaccess	-11.9392
▁akademîsyen	-11.9392
▁bixebitin	-11.9392
▁endustriya	-11.9392
▁laptop	-11.9392
▁qenalên	-11.9392
▁wholesale	-11.9392
▁Çavkaniya	-11.9392
▁çîmentoyê	-11.9392
▁بێسنوور	-11.9392
▁میکرۆب	-11.9392
▁Amarok	-11.9392
▁black	-11.9392
▁karbidest	-11.9392
▁خۆبایی	-11.9392
▁مێروول	-11.9392
▁خایاند	-11.9392
▁ermanî	-11.9393
▁xwezayê	-11.9393
▁قیبل	-11.9393
▁context	-11.9393
▁James	-11.9393
▁Transport	-11.9394
▁بدرێن	-11.9395
▁firotana	-11.9395
▁Investment	-11.9396
▁Yekgirtî	-11.9396
▁لەکوێ	-11.9398
▁کەسانێک	-11.94
▁nêzik	-11.9411
▁televizyon	-11.9427
▁وەرگر	-11.9458
▁heywan	-11.9474
▁زەرد	-11.9488
▁cûreyê	-11.9499
▁دەمەوێ	-11.9507
▁Access	-11.9519
koronavîrus	-11.9519
▁Enjoy	-11.9519
▁Industrial	-11.9519
▁Japanese	-11.9519
▁Nêzîkî	-11.9519
▁OpenPLi	-11.9519
▁Profesor	-11.9519
▁Ravenox	-11.9519
▁Stainless	-11.9519
▁aqilmend	-11.9519
▁mizgeft	-11.9519
▁nederbasdar	-11.9519
▁rubleyê	-11.9519
▁بەدڵنیاییەوە	-11.9519
▁قوتابخانه	-11.9519
▁parlementer	-11.9519
▁Çewtî	-11.9519
▁plazma	-11.9519
▁Capacit	-11.9519
▁bihêrin	-11.9519
▁توخم	-11.9519
▁Çiqas	-11.9519
▁لاساری	-11.9519
▁încîl	-11.9519
▁چەوری	-11.9519
▁razor	-11.9519
▁Glass	-11.9519
▁wireless	-11.952
▁دانراوه	-11.952
▁مەودا	-11.952
▁خەوتن	-11.952
▁vegerandin	-11.952
▁copy	-11.952
▁لێکردوون	-11.9521
▁deryaya	-11.9521
▁level	-11.9522
▁bilêta	-11.9522
▁rejîm	-11.9524
▁بگۆر	-11.9527
▁شێوان	-11.9551
hejmar	-11.9561
girêdayî	-11.9561
نهێنی	-11.9564
dvd	-11.9574
▁movie	-11.9619
▁سەرکردە	-11.9626
europe	-11.9631
▁Performans	-11.9647
▁Nûbihar	-11.9647
▁Performance	-11.9647
▁Zamenhof	-11.9647
▁سندوق	-11.9647
▁واقیع	-11.9647
▁ویلایەتە	-11.9647
▁plasma	-11.9647
▁بژاردوون	-11.9647
▁dijmin	-11.9647
▁Pricelist	-11.9647
▁دڵگران	-11.9647
▁qeyikê	-11.9647
▁ڕووناك	-11.9648
scape	-11.9648
▁Îkon	-11.9648
▁qurban	-11.9648
▁pîvandin	-11.9648
▁Learn	-11.9649
▁بزوێن	-11.965
▁قوڵایی	-11.965
▁دەڵێ	-11.9652
0.8	-11.9654
٩٠	-11.9658
▁Watey	-11.9659
▁کرێکار	-11.967
▁Dadgehê	-11.9683
▁Parzûn	-11.9689
Kurd	-11.9696
▁pêça	-11.9721
▁personel	-11.9777
▁Brezîlya	-11.9777
▁Berxwedana	-11.9777
▁fashion	-11.9777
▁kampusê	-11.9777
▁Şirnexê	-11.9777
▁درێژخایەن	-11.9777
▁پەرەسەندن	-11.9777
▁Awarte	-11.9777
▁Têbînî	-11.9777
▁Website	-11.9777
▁agahiyan	-11.9777
▁rasteqîn	-11.9777
▁خۆشناوێت	-11.9777
▁Edition	-11.9777
▁Vimax	-11.9777
▁dilovan	-11.9777
▁ماشێن	-11.9777
▁دیتنی	-11.9777
▁Easter	-11.9777
▁بنوێنن	-11.9778
▁گەلەک	-11.9778
▁rûerd	-11.9778
▁danûstendina	-11.9778
▁wild	-11.9778
▁îngilîzî	-11.9778
▁ناهێنین	-11.9779
▁têketinê	-11.9779
▁سوتێن	-11.9779
▁Golight	-11.9779
انترسێنێت	-11.978
Meeting	-11.9781
▁Jimare	-11.9783
Description	-11.9822
دوژمن	-11.9823
ئازار	-11.9825
▁helwest	-11.9863
▁nûçegihan	-11.9887
▁Polîtîka	-11.99
▁Knife	-11.9909
▁Mişterî	-11.9909
▁aluminum	-11.9909
▁bigihîjin	-11.9909
▁bêsînor	-11.9909
▁nifûsa	-11.9909
▁Çapemeniy	-11.9909
▁مەحاڵ	-11.9909
▁Xanûna	-11.9909
▁Kongreya	-11.9909
▁نێچیر	-11.9909
▁JavaScript	-11.9909
▁xwenîşandan	-11.9909
▁Swiss	-11.9909
▁pileya	-11.9909
▁Brown	-11.9909
▁ھیچ	-11.9909
▁Aircraft	-11.9909
▁شیعر	-11.9909
▁berxwedanê	-11.991
▁Frame	-11.991
▁بلو	-11.9913
▁Wild	-11.9914
▁بیانوی	-11.9922
Channel	-11.9956
یوسف	-11.9956
دووباره	-11.9958
گونجێت	-11.9967
▁Pargîdan	-11.9968
▁Dabeşkirin	-11.9994
▁nîqaşkirin	-12.0015
▁fonksiyonê	-12.0019
▁Virgin	-12.0042
-06-201	-12.0042
▁Midûriyeta	-12.0042
▁Wîkîcureyê	-12.0042
▁festîvalê	-12.0042
▁qumaşê	-12.0042
▁çapemeniya	-12.0042
▁اكبر	-12.0042
▁کۆمپیتەر	-12.0042
▁navbeyn	-12.0042
▁بشێوێن	-12.0042
▁haletên	-12.0042
▁leather	-12.0042
▁wezîfe	-12.0042
▁JeRa	-12.0042
▁Louis	-12.0042
▁Emerîka	-12.0042
▁peldankê	-12.0042
▁ناپارێزن	-12.0042
▁پێمانداون	-12.0042
▁ناپاك	-12.0042
▁هۆنراوە	-12.0042
▁Sipas	-12.0042
▁المقدس	-12.0042
▁zimên	-12.0042
▁ڕەخنە	-12.0042
▁عەرەب	-12.0042
▁kanalek	-12.0042
▁bixwîne	-12.0042
▁mîsyon	-12.0042
▁Buhayê	-12.0042
▁ڕێنمایی	-12.0042
تاغوت	-12.0042
▁Hydro	-12.0043
▁دزن	-12.0044
▁تاشن	-12.0044
▁بۆماوەی	-12.0045
ronahi	-12.0046
انناسێت	-12.0046
▁شیفا	-12.0046
وڵاتی	-12.0047
MHz	-12.005
▁کاڵا	-12.005
▁بەلام	-12.0055
gihîşt	-12.0091
چاوپۆشی	-12.0091
گوفتار	-12.0091
0.6	-12.0114
▁ڕاخستوو	-12.0117
▁تێفکر	-12.0153
▁xwendingeh	-12.016
▁Protokol	-12.0177
▁ڕاکشان	-12.0177
▁DAIŞ	-12.0177
▁Derhênerê	-12.0177
▁Fashion	-12.0177
▁PayPal	-12.0177
▁Sedsala	-12.0177
▁Yûhenna	-12.0177
▁quncik	-12.0177
▁rêjîmê	-12.0177
▁ticareta	-12.0177
▁şaristan	-12.0177
▁şermezar	-12.0177
▁ئەفسانە	-12.0177
▁الحرام	-12.0177
▁بەتەواوەت	-12.0177
▁كڕنووش	-12.0177
▁ڕووپامایی	-12.0177
▁Bangkok	-12.0177
▁Tokyo	-12.0177
▁بچووك	-12.0177
▁çavkaniyek	-12.0177
▁Recep	-12.0177
▁ZLP	-12.0177
▁navdewletî	-12.0177
▁١٣	-12.0177
▁Hyper	-12.0177
▁دەگەڕێن	-12.0177
▁رناچێت	-12.0177
▁لەگەل	-12.0177
html	-12.0177
▁Mîkro	-12.0177
▁bimirin	-12.0177
▁ترازێن	-12.0178
▁سپاندو	-12.0178
▁مەرج	-12.0178
▁touch	-12.0178
▁ڕابووردوو	-12.0178
▁ئاڵو	-12.0178
▁playlist	-12.0178
▁شاژن	-12.0178
▁Cream	-12.0179
Items	-12.0179
▁ساغ	-12.0179
دەخەن	-12.018
▁Kamera	-12.018
▁çopê	-12.018
piece	-12.0181
▁ڕووخسارانێک	-12.0181
craft	-12.0185
▁کارکردی	-12.0225
wordpress	-12.0228
▁şaredar	-12.0231
razîbûna	-12.0236
▁نەتوان	-12.0267
▁Lîstey	-12.027
ography	-12.0271
xuya	-12.0275
▁bihêztir	-12.0291
Pirsgirêk	-12.0308
▁Education	-12.0314
▁padîşah	-12.0314
▁Analytics	-12.0314
▁Colemêrgê	-12.0314
▁Hikûmeta	-12.0314
▁Latînî	-12.0314
▁Operator	-12.0314
▁Sosyal	-12.0314
▁Tightropekuva	-12.0314
▁Viersen	-12.0314
▁ajotinê	-12.0314
▁berevpêşbirina	-12.0314
▁fantastîk	-12.0314
▁kategorî	-12.0314
▁stainless	-12.0314
▁tevlêbûna	-12.0314
▁çargoşe	-12.0314
▁ئۆکسجین	-12.0314
▁دامەزراند	-12.0314
▁كوژراو	-12.0314
▁Tayland	-12.0314
▁Thanks	-12.0314
▁Wuhan	-12.0314
▁digital	-12.0314
▁DTH	-12.0314
▁HCL	-12.0314
▁Volume	-12.0314
▁valahiya	-12.0314
▁Pêşdebir	-12.0314
▁Italy	-12.0314
▁kiryarên	-12.0314
▁دەدەیت	-12.0314
▁bianetê	-12.0315
▁temaşevanên	-12.0315
تانپارێزێت	-12.0315
▁Berpirsê	-12.0315
▁ئیحرامدا	-12.0317
Sererast	-12.0317
▁bajarokê	-12.0318
▁پۆست	-12.0318
▁Osman	-12.0319
▁نمرە	-12.032
▁لێنێک	-12.0401
xebite	-12.0418
▁modul	-12.0425
▁teknolojiyê	-12.043
bexş	-12.0433
▁DIKARIN	-12.0453
▁Damezrandin	-12.0453
▁Daxuyaniyê	-12.0453
▁Holmbygden	-12.0453
▁Kompanya	-12.0453
▁Lênêrîn	-12.0453
▁Piştgirî	-12.0453
▁UNESCO	-12.0453
▁Xiangfu	-12.0453
▁ئالوود	-12.0453
▁selection	-12.0453
▁Engine	-12.0453
▁١٤	-12.0453
▁١٧	-12.0453
▁rihet	-12.0453
▁Perestgeh	-12.0453
▁veguhertin	-12.0453
▁Trust	-12.0453
▁هەناسە	-12.0453
▁Robert	-12.0453
▁BERSÎVÊN	-12.0453
niversal	-12.0453
ئۆردوو	-12.0453
▁ڵغان	-12.0454
▁BTC	-12.0455
▁alarm	-12.0456
▁پەستان	-12.0458
▁ئەرێنی	-12.0464
▁یانبینیو	-12.0465
ewaze	-12.049
[3]	-12.0508
▁tedbîr	-12.0564
▁دایانب	-12.0568
▁cîhazê	-12.0571
▁Sovyetê	-12.0594
▁bêkêmahî	-12.0594
▁circuit	-12.0594
▁fonksiyona	-12.0594
▁hawîrdor	-12.0594
▁mazûvan	-12.0594
▁pêşkeftina	-12.0594
▁settings	-12.0594
▁ziyaret	-12.0594
▁ڕاهاتوون	-12.0594
▁ducaniyê	-12.0594
▁streaming	-12.0594
▁kompaniya	-12.0594
▁Asteng	-12.0594
▁NEW	-12.0594
▁بڕوانام	-12.0594
▁شکۆدار	-12.0594
▁ekranê	-12.0595
plomayên	-12.0596
▁ڕووبەڕووی	-12.0597
▁Connect	-12.0599
▁RSC	-12.0607
▁India	-12.0619
▁دەردەکەو	-12.0639
control	-12.067
رنشین	-12.0686
▁serlêdan	-12.0704
▁odeyê	-12.0714
▁zivistan	-12.0721
▁xweseriy	-12.0728
▁Girtî	-12.0736
▁Supplier	-12.0737
Sceneries	-12.0737
▁Eurosport	-12.0737
▁Fîlimê	-12.0737
▁Hollywood	-12.0737
▁OCTC	-12.0737
▁tesîsên	-12.0737
▁tîrmeh	-12.0737
▁سەنتەر	-12.0737
▁پسپۆڕ	-12.0737
ndrolone	-12.0737
▁binirxînin	-12.0737
▁coupon	-12.0737
▁توێکڵ	-12.0737
world	-12.0737
▁Xerîdar	-12.0737
▁دەکەون	-12.0737
▁Odeyên	-12.0737
▁تێبگەین	-12.0737
▁HEVC	-12.0737
▁پەیکەر	-12.0737
▁peywendiyê	-12.0738
▁sîteyê	-12.0739
▁gewr	-12.0739
▁نوسەر	-12.074
▁Yekîney	-12.0741
▁گریمانە	-12.0745
▁بجوڵێ	-12.0748
▁kulîlk	-12.0799
Orion	-12.0809
یارانی	-12.0837
▁داماو	-12.0854
▁Evinrude	-12.0882
▁Financial	-12.0882
▁Hardware	-12.0882
▁misilman	-12.0882
▁mîlyar	-12.0882
▁sibehê	-12.0882
▁ئۆتۆمبیل	-12.0882
▁مۆدێل	-12.0882
▁Thomas	-12.0882
▁android	-12.0882
▁Îşaya	-12.0882
▁Pêşeroj	-12.0882
▁دۆڕاو	-12.0882
▁Kiliç	-12.0882
▁ڕاوێژ	-12.0882
▁qayîl	-12.0882
▁sipas	-12.0882
▁Plasma	-12.0882
▁چیرۆك	-12.0882
▁Alpha	-12.0882
▁aştiyê	-12.0882
▁mezûn	-12.0882
▁bihêlin	-12.0882
process	-12.0882
▁Club	-12.0882
▁ویژدان	-12.0882
▁biguherînî	-12.0882
field	-12.0882
▁Misrê	-12.0882
▁LEE	-12.0882
▁bikire	-12.0883
▁binavkirin	-12.0887
▁تێکشکان	-12.0888
▁پەردە	-12.089
▁Kêl	-12.092
▁بیگۆڕ	-12.0926
nnie	-12.0947
nstru	-12.0962
▁Fermandariy	-12.101
▁گفتو	-12.1028
▁Hevşaredar	-12.1029
▁Corporation	-12.1029
▁Prince	-12.1029
▁character	-12.1029
▁diguhere	-12.1029
▁scooter	-12.1029
▁ئیفلیج	-12.1029
▁ڕەسەن	-12.1029
▁Munich	-12.1029
▁shape	-12.1029
▁bidomînin	-12.1029
▁tikandina	-12.1029
▁pêşbînî	-12.1029
▁editor	-12.1029
▁Rental	-12.1029
▁Perfect	-12.1029
▁Metta	-12.1029
▁nijad	-12.1029
▁AKP	-12.1029
▁analog	-12.1029
▁ئاکام	-12.1029
▁Xwedayê	-12.1029
▁واجب	-12.1032
crypt	-12.1032
▁Çemê	-12.1033
▁hêviyê	-12.1033
▁îdare	-12.1033
▁چرپ	-12.1033
ێناکات	-12.1038
▁Alloy	-12.1048
▁gihişt	-12.1091
Veguheztina	-12.1092
▁بازرگان	-12.1102
▁bidestxistin	-12.1132
▁Guhertin	-12.1157
▁formula	-12.1158
▁ڕووبەڕو	-12.1175
▁abone	-12.1176
▁şêl	-12.1176
▁Bambeocnc	-12.1178
▁Ceribandin	-12.1178
▁Dropshipping	-12.1178
▁Qingdao	-12.1178
▁available	-12.1178
▁aşkere	-12.1178
▁discuss	-12.1178
▁hemwelatiy	-12.1178
▁length	-12.1178
▁wagering	-12.1178
▁çêdibe	-12.1178
▁فرمێسک	-12.1178
▁AIDS	-12.1178
▁number	-12.1178
▁NEON	-12.1178
▁binirxîne	-12.1178
▁guhastin	-12.1178
▁karibin	-12.1178
▁خاچ	-12.1178
▁هێچ	-12.1178
▁یەکگرتووەکان	-12.1178
▁pêşbirkê	-12.1178
▁nemaze	-12.1178
▁çandinî	-12.1178
▁Tayy	-12.1179
▁داپیر	-12.1179
▁فیتن	-12.1179
▁حزب	-12.118
şablon	-12.118
zyona	-12.1186
▁هزر	-12.1192
4,000	-12.1233
▁têkoşîn	-12.1243
سوپاس	-12.1243
▁wesayît	-12.1248
بزانین	-12.1255
0.7	-12.1296
▁Fonksiyon	-12.1329
▁Jizerou	-12.1329
▁Kapasîteya	-12.1329
▁Sourcing	-12.1329
▁cerdevan	-12.1329
▁herwiha	-12.1329
▁piştgiriyê	-12.1329
▁pêdiviya	-12.1329
▁teftîş	-12.1329
▁بەداخەوە	-12.1329
▁تەکنیک	-12.1329
▁شپرز	-12.1329
▁Viasat	-12.1329
▁whatsapp	-12.1329
▁şevşevok	-12.1329
▁دەمێنێتەوە	-12.1329
▁kamyon	-12.1329
▁organîze	-12.1329
▁tibbî	-12.1329
▁هونەرمەند	-12.1329
▁باکوور	-12.1329
▁Crack	-12.1329
▁NASA	-12.1329
▁solid	-12.1329
▁spehî	-12.1329
▁Batman	-12.1329
▁Binêre	-12.1329
▁maçên	-12.133
▁بەجۆرێک	-12.133
▁zexm	-12.133
▁نیگەران	-12.133
▁serneket	-12.133
▁etîket	-12.133
▁چرکه	-12.133
▁پەنجا	-12.133
▁پێڵاو	-12.1332
▁Nûnerê	-12.1337
bigih	-12.1354
توانای	-12.1367
▁میرات	-12.1384
▁Wezîr	-12.1409
▁Swêd	-12.1436
▁şêwir	-12.1451
▁Crypto	-12.1456
▁قوربان	-12.1473
.05.2016	-12.1483
niversite	-12.1483
▁Enqerê	-12.1483
▁Family	-12.1483
▁Herwiha	-12.1483
▁Hydraulic	-12.1483
▁bixebitîne	-12.1483
▁crusher	-12.1483
▁prensîbê	-12.1483
▁products	-12.1483
▁salvegera	-12.1483
▁têgihiştin	-12.1483
▁Çareseriya	-12.1483
▁Çareserkirina	-12.1483
▁جەمسەر	-12.1483
▁کەلوپەل	-12.1483
eyelashstore	-12.1483
▁Lezgîn	-12.1483
▁Şablon	-12.1483
tansiyona	-12.1483
▁computer	-12.1483
▁desktop	-12.1483
▁îspat	-12.1483
▁Client	-12.1483
▁Orange	-12.1483
▁پێموایە	-12.1483
▁گۆڤار	-12.1483
▁repaints	-12.1483
Hilpekîn	-12.1483
▁ببرێت	-12.1483
▁Deniz	-12.1483
IFF	-12.1483
▁Stendin	-12.1483
▁7/8	-12.1483
▁xaniyek	-12.1483
▁Teeth	-12.1483
▁Audio	-12.1483
▁APK	-12.1484
▁زگاکان	-12.1484
▁چەق	-12.1484
▁هاوسەنگی	-12.1484
▁avahiyek	-12.1485
▁pûç	-12.1487
standard	-12.1554
Opera	-12.1579
▁Austria	-12.164
▁Swedish	-12.164
▁Testosterone	-12.164
▁Zanyarî	-12.164
▁daxuyand	-12.164
▁delivery	-12.164
▁lojîstîk	-12.164
▁makînên	-12.164
▁markayên	-12.164
▁mezaxtina	-12.164
▁provided	-12.164
▁زەردەخەنە	-12.164
▁ئێوارە	-12.164
▁UFO	-12.164
▁naxwaze	-12.164
▁wallet	-12.164
▁حیساب	-12.164
▁hinceta	-12.164
▁sensor	-12.164
▁بیبینن	-12.164
▁sêwirîn	-12.164
▁keştiyê	-12.164
wikipedia	-12.164
▁بێباک	-12.1642
9.0	-12.1689
«	-12.1712
گاڵت	-12.1713
▁lûks	-12.1743
▁Înternet	-12.1752
▁tecrube	-12.1791
▁Baikonur	-12.1798
▁Follow	-12.1798
▁Hevpeyvîn	-12.1798
▁Mustafa	-12.1798
▁Winstrol	-12.1798
▁garantiya	-12.1798
▁malzemeyên	-12.1798
▁sîgorta	-12.1798
▁ئوتومبێل	-12.1798
▁لاپتۆپ	-12.1798
▁piçikên	-12.1798
▁پێدەچێت	-12.1798
▁karakter	-12.1798
▁تێڕامان	-12.1798
▁دووپات	-12.1798
▁Navbera	-12.1798
▁بیرەوەری	-12.1798
▁komîsyon	-12.1798
▁Misir	-12.1799
▁Dibistan	-12.18
▁کۆریا	-12.1804
[1]	-12.1817
▁نیسب	-12.183
▁دەتوانرێ	-12.1835
▁تێچوو	-12.1849
▁بێشک	-12.1849
hangeset	-12.1855
0.4	-12.1883
▁COWIN	-12.196
▁League	-12.196
▁Parlamenterê	-12.196
▁Slovakya	-12.196
▁teknîkên	-12.196
▁xwişk	-12.196
▁îşaret	-12.196
▁كۆتایی	-12.196
Details	-12.196
▁Material	-12.196
▁Modding	-12.196
▁Sitemap	-12.196
▁ڕاپۆرت	-12.196
▁Ladies	-12.196
وخاش	-12.196
▁nizane	-12.196
▁Delhi	-12.196
▁Zebûr	-12.196
▁هەرزەکار	-12.196
▁trailer	-12.196
▁بخوێنیت	-12.196
▁بیانزانیای	-12.196
▁emaneta	-12.196
▁electro	-12.196
▁retail	-12.196
▁veberhênana	-12.196
▁çileya	-12.196
▁تەنیشت	-12.196
▁تگوزاری	-12.196
▁fotograf	-12.196
▁albûm	-12.196
▁ARM	-12.196
[5]	-12.196
▁Mêrdîn	-12.196
▁Zelal	-12.1961
▁بکردنای	-12.1961
areseriyê	-12.1961
▁Kanûn	-12.1974
▁berpirsê	-12.1975
ڕزگار	-12.2037
پارچ	-12.2038
▁Change	-12.2066
hiştin	-12.2094
▁symbol	-12.2098
▁Berdewam	-12.2123
▁Certification	-12.2123
▁arbitrator	-12.2123
▁specification	-12.2123
▁vîtamîn	-12.2123
▁zuha	-12.2123
▁çarçoveyek	-12.2123
▁بەنرخ	-12.2123
▁نیشتەجێ	-12.2123
▁Ewlekarî	-12.2123
▁girtîgehan	-12.2123
▁mumkin	-12.2123
▁pattern	-12.2123
▁لێبڕاو	-12.2123
-07-201	-12.2123
▁Building	-12.2123
Firmware	-12.2124
▁sihik	-12.2124
▁مایکرۆ	-12.2124
▁فیڕۆ	-12.2124
Phonon	-12.2124
▁نادادی	-12.2124
▁moşeka	-12.2124
▁ڕاوکێی	-12.2124
▁Şerîet	-12.2124
▁Civat	-12.2124
shirt	-12.2124
▁Bilez	-12.2124
ified	-12.2126
▁Kitchen	-12.2138
▁meşk	-12.214
▁بکرای	-12.2162
▁نارگیر	-12.2168
▁Nexweşiy	-12.2191
search	-12.2204
عیسا	-12.2204
Nîşan	-12.2204
سزای	-12.2205
gihandina	-12.2226
▁Teknîk	-12.2271
▁xizm	-12.2287
سماعیل	-12.229
▁Abdullah	-12.229
▁Idlib	-12.229
▁Install	-12.229
▁Sueneé	-12.229
▁birêkûpêk	-12.229
▁enfeksiyonê	-12.229
▁entegre	-12.229
▁pêxember	-12.229
▁upgrade	-12.229
▁ئجوج	-12.229
▁بەتەمەن	-12.229
▁تێنافکرن	-12.229
▁حوشتر	-12.229
▁خساندوو	-12.229
▁خەڵك	-12.229
▁شەمەندەفەر	-12.229
▁هەمەجۆر	-12.229
▁یگۆڕن	-12.229
معجز	-12.229
▁Horizon	-12.229
▁description	-12.229
▁پاشەکەوت	-12.229
▁Comedy	-12.229
▁avrêl	-12.229
▁fastener	-12.229
▁lîstîkan	-12.229
▁processor	-12.229
▁كابرای	-12.229
▁لوقمان	-12.229
قبطی	-12.229
▁گوشاد	-12.229
▁CZK	-12.229
▁Încîl	-12.229
▁دەمارەخانە	-12.229
▁Berhevok	-12.229
▁şênber	-12.229
▁Disney	-12.229
شێوێت	-12.229
▁seetan	-12.229
▁فوار	-12.229
▁diyalog	-12.229
▁Easy	-12.229
▁blue	-12.229
▁vekolîn	-12.2291
▁قرچ	-12.2291
▁گومرا	-12.2291
Settings	-12.2291
باواڕ	-12.2293
wiki	-12.2293
▁نەرێنی	-12.2295
▁پلار	-12.2296
ساقی	-12.2323
بیستبێت	-12.237
موسڵمان	-12.2374
ئێستا	-12.2374
جادووگ	-12.2374
Berhemên	-12.2374
خەڵک	-12.2374
دژای	-12.2375
▁وڵاخ	-12.2396
▁gerdûn	-12.2441
ئیحرام	-12.2456
▁Yewnan	-12.246
ناخرێن	-12.246
▁BIKIN	-12.246
▁Gûndemê	-12.246
▁Mixabin	-12.246
▁Odessa	-12.246
▁biserneket	-12.246
▁dipeyivin	-12.246
▁pêşîlêgirtina	-12.246
▁Marmaray	-12.246
▁Ozakça	-12.246
▁Subscribe	-12.246
▁fûtbolê	-12.246
▁مەیمون	-12.246
▁جەڵتە	-12.246
▁kompleks	-12.246
▁بمکوژ	-12.246
▁efsane	-12.246
▁şerefa	-12.246
▁ترازێت	-12.246
فكرن	-12.246
▁biyolojîk	-12.246
▁پۆشێت	-12.246
▁یڵێین	-12.246
▁nepenî	-12.246
▁كۆڵیان	-12.246
▁یبینێت	-12.2461
▁گوێبیست	-12.2512
▁کارلێک	-12.2531
جوب	-12.2555
▁dezgeh	-12.2618
▁Xwîn	-12.2622
Gihîştin	-12.2632
▁ACCURL	-12.2632
▁Journal	-12.2632
▁Medicine	-12.2632
▁WFOE	-12.2632
▁browser	-12.2632
▁dabimezrîne	-12.2632
▁eleqedar	-12.2632
▁inlistbox	-12.2632
▁sirûştî	-12.2632
▁zêdeperedanê	-12.2632
▁بەختەوەر	-12.2632
▁مشتومڕ	-12.2632
‘	-12.4248
•	-12.5109
©	-12.922
£	-12.9564
