<unk>	0
<s>	0
</s>	0
ه	-3.25257
▁و	-3.60664
.	-4.10767
▁به	-4.14261
▁ئه	-4.35551
▁ده	-4.37789
,	-4.41558
،	-4.43016
▁له	-4.45361
ی	-4.5492
▁که	-4.55952
▁وه	-4.58929
▁ی	-4.65963
▁	-4.66948
▁هه	-4.78675
▁(	-4.78795
▁ر	-4.87499
▁ji	-5.01133
▁û	-5.14474
a	-5.24135
▁بۆ	-5.24991
ê	-5.26247
▁bi	-5.26302
)	-5.26547
▁ku	-5.27923
▁سه	-5.31643
:	-5.328
▁li	-5.42886
▁ن	-5.51415
▁یه	-5.57426
▁نه	-5.57994
▁،	-5.59729
▁de	-5.62033
▁bo	-5.634
و	-5.63668
▁di	-5.66704
▁گه	-5.67665
▁خوا	-5.70265
ên	-5.71009
▁پ	-5.7601
s	-5.78928
ن	-5.8378
یان	-5.89204
-	-5.89286
▁م	-5.93651
n	-5.95005
▁وانه	-5.96824
ە	-5.975
▁لە	-6.06056
م	-6.07788
▁ته	-6.11028
î	-6.12598
▁ya	-6.14004
▁ڕاستی	-6.14674
دا	-6.21202
▁روه	-6.23217
مان	-6.24805
▁ser	-6.28185
▁بێت	-6.30415
▁e	-6.31894
an	-6.32046
▁ش	-6.32136
▁یان	-6.33536
▁.	-6.33799
▁مه	-6.35588
به	-6.38154
▁xwe	-6.4091
▁ت	-6.42813
e	-6.44125
تان	-6.46108
▁کە	-6.46452
▁زۆر	-6.49892
▁بە	-6.50052
▁ئێمه	-6.50415
ان	-6.50423
▁خه	-6.50937
ت	-6.55546
;	-6.61814
▁باوه	-6.61975
▁کرد	-6.62246
▁a	-6.63612
▁دا	-6.63858
▁بێ	-6.64535
▁ne	-6.64788
▁re	-6.66768
▁ئێوه	-6.67892
▁بکه	-6.6795
که	-6.70287
▁بوو	-6.70898
▁کان	-6.70899
▁تی	-6.72159
▁)	-6.72614
▁فه	-6.73244
▁موو	-6.73539
▁ق	-6.74871
▁ک	-6.78282
▁ره	-6.80735
ek	-6.81745
ێکی	-6.825
▁من	-6.826
▁jî	-6.85009
▁جا	-6.85489
▁تۆ	-6.86736
▁لێ	-6.8708
▁-	-6.87097
▁ڕه	-6.87139
▁yên	-6.88228
▁بوون	-6.90508
▁ڵ	-6.90794
▁an	-6.91046
iya	-6.91385
ئه	-6.91492
▁كه	-6.91947
▁ست	-6.93371
▁me	-6.93414
in	-6.93674
▁ye	-6.94968
▁تا	-6.9539
▁پێغ	-6.95733
▁زه	-6.96324
له	-6.96513
▁خۆی	-6.9788
▁ها	-6.98399
▁هیچ	-6.98517
▁"	-6.98778
y	-7.00499
▁/	-7.02632
▁کانی	-7.02775
▁کی	-7.03199
).	-7.03823
ەوە	-7.03919
▁بێگومان	-7.04184
ya	-7.04634
▁سته	-7.05013
▁پێ	-7.06124
▁مب	-7.06257
▁Di	-7.07378
▁ح	-7.08215
▁Ji	-7.08344
▁بن	-7.09314
ین	-7.09586
ده	-7.09765
t	-7.10454
d	-7.11598
▁ew	-7.12263
▁A	-7.12493
▁شه	-7.14175
kirina	-7.16007
▁ناو	-7.16274
▁ve	-7.16848
انه	-7.18467
▁&	-7.18598
ش	-7.20143
▁س	-7.20353
▁ری	-7.20741
h	-7.2094
"	-7.21063
S	-7.21067
m	-7.21169
▁C	-7.21466
▁وره	-7.21549
▁ك	-7.21933
▁کات	-7.22264
ێک	-7.23316
▁رده	-7.24169
▁ber	-7.24463
k	-7.25865
▁چی	-7.26347
▁S	-7.26594
▁te	-7.28026
▁Bi	-7.28086
▁vê	-7.29017
▁hûn	-7.29877
...	-7.31502
؟	-7.31565
▁وێت	-7.32161
er	-7.32323
▁1	-7.32483
یه	-7.32679
یش	-7.32963
)،	-7.33786
▁ڕ	-7.33831
▁لای	-7.33855
yê	-7.34721
▁خۆیان	-7.35702
▁ئایا	-7.36112
▁wê	-7.3725
▁نده	-7.37868
?	-7.3788
kirin	-7.38437
▁Ev	-7.39648
▁ب	-7.40048
▁پێش	-7.40092
▁ئەو	-7.40744
▁Li	-7.41467
▁تر	-7.41592
▁tê	-7.41723
▁we	-7.43085
re	-7.44008
نه	-7.44115
▁P	-7.44671
▁ئا	-7.44834
▁in	-7.44987
▁کردووه	-7.45029
▁الل	-7.45645
▁نی	-7.46093
!	-7.46114
▁خۆ	-7.46642
▁دروست	-7.46961
x	-7.4736
▁خوای	-7.48244
ەکان	-7.48346
▁کاتێک	-7.48442
D	-7.48502
▁وان	-7.49719
l	-7.50791
▁tu	-7.50876
al	-7.51126
▁وسلم	-7.51136
▁چه	-7.51212
▁بکات	-7.51627
ى	-7.51841
▁بده	-7.52177
w	-7.52626
▁bike	-7.53339
iyê	-7.53464
r	-7.53662
▁her	-7.5416
▁E	-7.54283
▁نیه	-7.54299
z	-7.54739
▁dike	-7.54999
▁ین	-7.56651
▁din	-7.56939
le	-7.57006
ێت	-7.57018
▁nav	-7.5798
f	-7.58133
P	-7.5855
M	-7.59949
▁دە	-7.61294
g	-7.61471
▁چونکه	-7.61522
یت	-7.61817
gt	-7.61947
ێ	-7.62191
ا	-7.62268
▁نها	-7.62704
▁bikin	-7.63062
▁نا	-7.63274
▁ڵێن	-7.63534
c	-7.63914
▁da	-7.64565
▁وت	-7.64612
▁T	-7.66906
A	-7.66956
▁_	-7.67054
2	-7.68162
▁ڵام	-7.68287
▁bû	-7.68809
▁مان	-7.69454
▁be	-7.69825
▁علیه	-7.6983
ş	-7.70469
ایه	-7.70587
C	-7.7064
▁dê	-7.71255
o	-7.71389
de	-7.71796
ەی	-7.71958
▁وتی	-7.72278
p	-7.7236
i	-7.72387
▁wan	-7.7241
▁بڵێ	-7.72532
▁نجام	-7.72778
وه	-7.73088
▁yek	-7.73134
▁kirin	-7.737
amp	-7.73708
▁kir	-7.73758
ب	-7.73771
▁em	-7.73773
▁هێناوه	-7.74122
v	-7.74446
▁nû	-7.74668
▁هۆی	-7.74678
b	-7.74923
▁B	-7.74971
▁خوایه	-7.75135
▁ev	-7.75176
؟!	-7.7554
▁چ	-7.76337
▁ڵگه	-7.76626
ing	-7.76654
▁زاته	-7.76767
▁سوێند	-7.76937
▁پێی	-7.76947
▁چۆن	-7.77005
▁ع	-7.77277
u	-7.77964
▁kar	-7.78331
û	-7.78486
▁دوای	-7.78727
▁تان	-7.79151
E	-7.79156
▁F	-7.79252
س	-7.79552
▁قیام	-7.79575
T	-7.79707
▁ئەم	-7.79829
▁2	-7.80531
▁...	-7.80827
în	-7.81141
▁D	-7.81296
B	-7.81575
ەکە	-7.82711
▁3	-7.82942
▁پێیان	-7.83111
'	-7.83698
j	-7.8428
ra	-7.84519
▁رمان	-7.84636
▁وا	-7.84666
▁ڵکی	-7.8484
▁با	-7.852
▁دۆز	-7.85354
/	-7.86273
▁lê	-7.8628
▁dikarin	-7.86977
▁wek	-7.88145
▁میش	-7.88281
▁جگ	-7.88658
▁دوو	-7.88947
په	-7.88979
▁کار	-7.89191
▁ئاسمان	-7.89478
%	-7.9013
ne	-7.90229
▁سزای	-7.9043
▁هاو	-7.90504
▁K	-7.91588
▁ên	-7.92353
▁ئەوە	-7.92426
▁tenê	-7.92853
▁خۆش	-7.92908
ل	-7.93052
st	-7.93251
ma	-7.93719
▁ڕاست	-7.93822
K	-7.94096
صل	-7.94494
ێك	-7.94511
▁بەڵام	-7.94561
▁خ	-7.9466
انی	-7.94722
▁min	-7.95284
▁dest	-7.95377
▁خۆتان	-7.9594
▁herî	-7.96077
ta	-7.9628
▁لایه	-7.96623
▁M	-7.96641
H	-7.96923
د	-7.97138
ک	-7.97255
▁ئیتر	-7.97285
▁ماڵ	-7.98015
▁چاکه	-7.98031
تر	-7.98281
ar	-7.9846
▁mezin	-7.98495
▁ند	-7.98511
▁ردگاری	-7.98548
▁baş	-7.98771
eke	-7.98818
▁H	-7.98909
▁خاو	-7.99444
il	-7.99565
▁dema	-8.00197
L	-8.00445
▁bê	-8.00461
▁s	-8.00602
▁نیشان	-8.00804
یە	-8.00858
▁19	-8.01014
im	-8.017
▁ez	-8.01834
▁وسا	-8.02415
▁جێ	-8.03012
▁Em	-8.03222
▁کانیان	-8.04012
▁The	-8.04464
▁شێوه	-8.04692
ز	-8.04863
el	-8.05128
▁G	-8.05508
O	-8.06078
li	-8.06151
or	-8.06446
▁کاتێکدا	-8.07
na	-8.07085
▁O	-8.07131
نی	-8.07354
▁to	-8.07482
▁شتێک	-8.08206
yên	-8.0833
▁dikare	-8.08353
ڵ	-8.08437
▁میهر	-8.08731
3	-8.0887
ri	-8.09164
te	-8.09531
▁کردن	-8.0955
ke	-8.09574
▁ئەوەی	-8.09585
di	-8.0969
▁سان	-8.0981
▁dibe	-8.10104
▁pir	-8.10512
F	-8.10807
ed	-8.10822
بۆ	-8.10927
Name	-8.11329
▁دێت	-8.11461
▁جۆره	-8.11497
▁ئیمانداران	-8.11524
تا	-8.11818
iyên	-8.11822
▁of	-8.11988
▁هەموو	-8.12037
ve	-8.12237
ر	-8.12574
N	-8.12759
▁Ma	-8.12827
▁Ew	-8.13102
ژ	-8.13158
▁وام	-8.13302
بوو	-8.13551
1	-8.1367
▁وتیان	-8.14066
▁رچی	-8.14304
bi	-8.14319
▁ڕیان	-8.1468
▁کارو	-8.14781
▁ئە	-8.14894
▁ون	-8.15013
▁4	-8.15207
▁gelek	-8.15813
V	-8.15917
="	-8.16055
▁یت	-8.16569
▁5	-8.16961
lt	-8.1712
▁ران	-8.17214
▁ئاماده	-8.17341
▁گوناه	-8.17549
ir	-8.17583
▁دڵ	-8.17603
▁کو	-8.17793
ەکانی	-8.18347
la	-8.18396
▁ئەمە	-8.18708
▁رام	-8.19018
▁hene	-8.19347
▁ناک	-8.19361
ro	-8.19438
▁خێر	-8.1971
▁ئینجا	-8.20027
▁ڕوو	-8.20071
▁ڵکو	-8.20079
مه	-8.20093
▁شت	-8.20123
▁ڕی	-8.20495
▁“	-8.20713
▁ڕێگ	-8.20723
▁ویدا	-8.20889
▁R	-8.20987
▁کاته	-8.2117
R	-8.21576
▁سەر	-8.21878
▁هات	-8.21922
▁bilind	-8.22104
ق	-8.22118
ڕ	-8.22257
وو	-8.22324
▁محمد	-8.22346
▁hemû	-8.22849
دە	-8.22902
▁چاو	-8.23004
▁ئایه	-8.23312
▁رنام	-8.23539
ur	-8.23576
▁شتی	-8.23616
▁کاتی	-8.23628
en	-8.23634
▁X	-8.23868
on	-8.24236
کە	-8.24428
▁زیاتر	-8.24488
eya	-8.24766
ك	-8.24817
▁heye	-8.24981
بێت	-8.25136
▁I	-8.25522
▁رو	-8.25742
▁10	-8.26179
▁du	-8.26397
انە	-8.26916
▁موسا	-8.27041
▁پاشان	-8.2719
▁wekî	-8.27667
ێن	-8.27876
▁کاتێك	-8.27939
▁TV	-8.28225
ce	-8.2836
▁ڕۆژی	-8.28747
es	-8.28833
▁ئیمان	-8.28892
▁çi	-8.29136
او	-8.29383
▁Ez	-8.29596
▁N	-8.29611
▁هەیە	-8.29682
▁ژیانی	-8.30189
▁د	-8.30217
▁dikin	-8.30345
ter	-8.30352
yan	-8.30771
ber	-8.30809
▁قس	-8.31044
▁nîşan	-8.31387
کرد	-8.31681
▁).	-8.31787
ç	-8.32338
▁yê	-8.3257
▁ئێمە	-8.32672
▁بیر	-8.32807
▁شوێنی	-8.32964
ار	-8.33258
▁ڕێبازی	-8.33373
&	-8.33447
G	-8.33454
▁divê	-8.33645
W	-8.33868
▁رمانی	-8.34203
”	-8.34221
▁ê	-8.34451
I	-8.34962
▁دات	-8.35063
!!	-8.35281
▁ڵه	-8.35311
▁وەک	-8.35463
▁رگیز	-8.35711
et	-8.36026
man	-8.36273
▁p	-8.36565
▁لەسەر	-8.36781
▁ئێستا	-8.37013
▁نگ	-8.37065
▁hêla	-8.37362
دان	-8.37473
kirî	-8.37739
▁لەگەڵ	-8.37831
▁wî	-8.37885
▁Re	-8.37984
▁:	-8.38084
▁چاک	-8.38434
▁hatiye	-8.38538
▁–	-8.38589
sa	-8.38714
▁ز	-8.38748
▁خواو	-8.38893
ۆ	-8.38964
چ	-8.39096
▁c	-8.39325
it	-8.3934
▁ڕوون	-8.39369
dar	-8.39495
▁ئاد	-8.40007
▁aliyê	-8.4001
da	-8.40396
▁یاخود	-8.40569
كه	-8.40613
رێت	-8.40651
▁ئەگەر	-8.40995
▁ڕۆژه	-8.41153
▁وتن	-8.41163
▁دی	-8.4126
▁ندی	-8.41353
▁7	-8.41881
▁غ	-8.42107
نا	-8.42183
▁W	-8.42586
▁تۆڵ	-8.43087
com	-8.43326
be	-8.4362
سه	-8.44041
▁بی	-8.44102
at	-8.44161
▁8	-8.44172
ol	-8.45293
lo	-8.45464
ch	-8.4578
▁پڕ	-8.45828
▁نجامی	-8.4601
lî	-8.4622
ew	-8.46237
▁ستی	-8.46345
یەکی	-8.46517
▁پاداشتی	-8.46617
▁ba	-8.46655
▁شوێن	-8.47341
پ	-8.47582
▁ڵک	-8.47661
▁pêş	-8.47725
ger	-8.47798
عم	-8.4781
ot	-8.47852
ره	-8.47886
▁کێ	-8.47915
▁L	-8.47993
▁ژیان	-8.48037
tir	-8.48037
▁هیدا	-8.48065
▁niha	-8.48172
eyên	-8.48291
▁شتانه	-8.48444
▁فریشت	-8.4859
ي	-8.48605
▁بڕیار	-8.48726
▁6	-8.4875
▁'	-8.48794
▁the	-8.48873
▁صل	-8.49149
se	-8.49152
▁hev	-8.49184
5	-8.49329
شت	-8.4966
▁كان	-8.50108
▁zêde	-8.50203
to	-8.5024
▁تێ	-8.50257
▁سزا	-8.50274
ەکەی	-8.50576
▁دەست	-8.50636
rê	-8.50916
▁بدات	-8.51302
کان	-8.51625
▁بۆیان	-8.51663
4	-8.51816
▁kêm	-8.51871
ێنن	-8.51945
▁قورئان	-8.52178
ێنێت	-8.522
ری	-8.52469
_	-8.52658
▁شتێکی	-8.52714
▁هەر	-8.52842
▁قورئانه	-8.53325
▁f	-8.53645
ەر	-8.538
am	-8.54016
▁وات	-8.54179
▁hat	-8.54203
th	-8.5445
tî	-8.54596
q	-8.55053
را	-8.55057
کردنی	-8.55111
▁کۆ	-8.55158
▁شی	-8.55161
me	-8.55528
ha	-8.5555
▁k	-8.56056
یا	-8.56211
▁پشت	-8.5641
▁لێی	-8.56464
وە	-8.56596
کردن	-8.56685
▁ڵات	-8.56718
▁درۆ	-8.56761
اوه	-8.5694
ته	-8.5768
بوون	-8.58269
ekî	-8.58308
▁ناوی	-8.58628
▁دوور	-8.58983
▁چاك	-8.59002
▁bikar	-8.59234
▁کێش	-8.59262
▁ma	-8.59379
bûna	-8.5955
▁داوه	-8.59669
▁pê	-8.60064
▁20	-8.60182
▁وە	-8.60466
▁rê	-8.60735
▁زیندوو	-8.61087
▁حم	-8.61299
▁ردگار	-8.61523
▁Z	-8.61603
▁ودوا	-8.61744
گه	-8.62003
▁dawî	-8.62079
yî	-8.62256
▁ل	-8.62268
▁كرد	-8.62298
ەم	-8.62442
دی	-8.6278
ج	-8.62884
kar	-8.6294
▁der	-8.63328
rî	-8.634
ker	-8.63574
lê	-8.6362
▁Me	-8.63749
ف	-8.64013
▁ردگارت	-8.6405
▁هێز	-8.64097
▁نە	-8.64256
ad	-8.64281
sh	-8.6437
▁ناسان	-8.6442
خ	-8.64567
▁کرێت	-8.646
▁bibe	-8.64671
ڕه	-8.64679
▁%	-8.64682
▁12	-8.6492
▁کراوه	-8.65204
▁خت	-8.6527
kirinê	-8.65382
ون	-8.65534
▁ڕو	-8.65578
▁ئاشکرا	-8.65651
nê	-8.65672
▁وڵ	-8.657
▁نێوان	-8.65714
▁تایبه	-8.65805
▁خۆت	-8.65934
▁Q	-8.66016
▁ببه	-8.66199
▁zêdetir	-8.66232
▁جه	-8.66462
▁ربار	-8.66474
▁ئازار	-8.66564
▁ra	-8.66689
îne	-8.66761
7	-8.66815
▁کاری	-8.66926
▁لا	-8.67169
▁Tu	-8.67475
▁تدا	-8.6763
▁heman	-8.67924
▁خوان	-8.68088
▁xuya	-8.68145
▁ئیماندار	-8.68522
یەک	-8.68774
وت	-8.68785
ye	-8.69042
▁cuda	-8.69447
▁Name	-8.69544
um	-8.69602
▁ڕێنموویی	-8.69919
▁ڕان	-8.70054
▁ئافر	-8.70057
ly	-8.70059
X	-8.70141
▁ڕا	-8.70211
▁x	-8.70475
▁piştî	-8.70521
▁Ne	-8.7055
ran	-8.70753
▁رستن	-8.70813
▁bin	-8.70951
▁$	-8.71013
▁bikaranîn	-8.71575
id	-8.71871
▁ساڵ	-8.71962
▁دان	-8.72433
Î	-8.72735
ic	-8.72738
▁Ş	-8.72949
▁vir	-8.73024
▁Co	-8.732
▁خۆم	-8.73294
▁داوای	-8.73512
ul	-8.73597
▁Ba	-8.73633
▁ta	-8.73779
ام	-8.73928
end	-8.73977
▁بۆتان	-8.74074
ation	-8.74226
▁می	-8.74363
▁نازو	-8.74653
▁هاوس	-8.74692
▁ویش	-8.74963
▁De	-8.74985
▁Her	-8.75011
op	-8.75043
ترین	-8.75127
▁نین	-8.75176
▁یتان	-8.75185
▁گوێ	-8.75364
▁رک	-8.75393
▁2018	-8.75451
▁ئاگادار	-8.75474
van	-8.75698
▁[	-8.75889
’	-8.75943
▁yekê	-8.7625
per	-8.76324
▁شای	-8.7636
▁بووه	-8.76367
▁بكه	-8.76419
▁یمان	-8.76441
ver	-8.76445
▁رگ	-8.7675
▁جوان	-8.76762
▁U	-8.76906
▁دەبێت	-8.77011
der	-8.77084
▁زانیاری	-8.7713
▁ردگاریان	-8.77151
▁ریان	-8.7717
▁ف	-8.77202
▁ڕزگار	-8.77236
▁کردوون	-8.77644
Y	-8.77736
iye	-8.77987
▁دەکات	-8.78033
▁منداڵ	-8.78186
بن	-8.78213
▁He	-8.78301
ll	-8.78306
dî	-8.7832
▁dur	-8.78351
▁demê	-8.78365
iyan	-8.78403
▁Lê	-8.78427
ze	-8.78443
راو	-8.7846
▁se	-8.78765
▁بیه	-8.78804
▁میزاد	-8.78925
▁hin	-8.79325
U	-8.79413
▁وایه	-8.7947
▁خۆمان	-8.79903
▁خوایش	-8.79908
▁بگه	-8.79991
▁11	-8.8013
ست	-8.80295
▁ژێر	-8.80375
▁navê	-8.80506
he	-8.80599
▁کردنی	-8.80636
▁ویستی	-8.80682
وون	-8.80758
▁dide	-8.808
▁ڵاتی	-8.81228
▁دابه	-8.8125
▁Te	-8.81349
ûr	-8.81523
▁ڕێ	-8.81535
▁جار	-8.81709
▁bibînin	-8.81729
ent	-8.81776
بە	-8.81827
iv	-8.8192
ات	-8.81993
▁واو	-8.82015
▁Ç	-8.82183
us	-8.82195
▁vî	-8.82225
is	-8.82309
ser	-8.82358
ێنه	-8.82447
▁hate	-8.82452
▁بهێنن	-8.82535
▁pêk	-8.8266
sî	-8.82673
▁heta	-8.82722
▁bide	-8.82816
ekê	-8.8293
▁نوێژ	-8.82973
▁ئاو	-8.82987
یاندا	-8.83076
▁ردگارا	-8.83352
▁یاخی	-8.83371
▁g	-8.83391
▁سێ	-8.83523
▁r	-8.83589
▁rast	-8.83592
▁An	-8.8363
000	-8.8366
▁یادی	-8.83738
▁نابێت	-8.83813
گ	-8.83906
▁زانن	-8.83933
▁ka	-8.8394
▁start	-8.83953
▁سنوور	-8.8415
▁çawa	-8.84223
▁سێک	-8.84243
▁sal	-8.84253
▁زانی	-8.84272
▁Ro	-8.84283
ge	-8.84296
▁ببێت	-8.84494
),	-8.84662
îna	-8.84789
▁تاوان	-8.84994
▁V	-8.85119
▁ڕۆزی	-8.8522
▁got	-8.85238
▁taybet	-8.85353
ka	-8.8548
▁bûn	-8.85647
▁خشی	-8.85753
▁têne	-8.8661
▁خۆشی	-8.86629
ci	-8.86755
▁9	-8.86888
▁Kar	-8.87
▁یی	-8.87031
▁+	-8.87059
ok	-8.87069
ki	-8.87097
bar	-8.87098
▁St	-8.87113
ine	-8.87255
▁سی	-8.87274
▁کردو	-8.87302
▁•	-8.87485
▁چەند	-8.8756
▁dirêj	-8.87565
▁ڕتان	-8.8791
mm	-8.88173
▁زانایه	-8.88173
خه	-8.8821
▁Zanîngeha	-8.88259
▁HD	-8.88387
ووه	-8.88559
▁ڕووی	-8.8857
ate	-8.88685
یدا	-8.88795
ry	-8.8883
▁کتێب	-8.88868
▁؟	-8.88915
age	-8.89013
we	-8.89084
▁bêtir	-8.89172
▁دنیا	-8.89538
ba	-8.89796
▁na	-8.89802
em	-8.89823
un	-8.89828
▁Y	-8.90004
▁Se	-8.90592
▁بۆی	-8.91031
▁کانتان	-8.91164
▁بینی	-8.91179
▁خراپه	-8.91235
▁جێگ	-8.9128
▁taybetî	-8.9137
▁ti	-8.9141
îya	-8.91461
▁ئیبراهیم	-8.9154
▁ڕزق	-8.91575
▁زیاد	-8.91673
6	-8.92
andin	-8.92088
▁ڵد	-8.92097
▁باشه	-8.92158
▁بو	-8.92188
▁In	-8.92302
▁im	-8.92502
▁berhemên	-8.92668
ای	-8.92808
▁cîhanê	-8.92889
▁st	-8.92967
▁Ser	-8.92969
0	-8.93124
▁تێک	-8.93315
za	-8.93334
▁van	-8.9335
▁باس	-8.93413
▁bibin	-8.93629
▁سوپاس	-8.93703
as	-8.93712
▁bikaranîna	-8.93755
▁خواوه	-8.93775
pe	-8.93814
kî	-8.93859
▁تیایدا	-8.93916
▁Dema	-8.94023
لا	-8.94158
▁خته	-8.94242
▁جیهان	-8.94272
dan	-8.94356
20	-8.94415
nî	-8.94422
8	-8.94475
kan	-8.94501
▁Ber	-8.94576
iyek	-8.94578
لە	-8.94736
▁Bo	-8.94991
▁رز	-8.95047
▁پرسیار	-8.952
ع	-8.95642
▁ترس	-8.9565
ەن	-8.96021
▁بزانن	-8.96227
nd	-8.96303
▁دوا	-8.96595
▁هاوڕێ	-8.96723
▁سامان	-8.96816
▁بڕوا	-8.96856
▁بووم	-8.9687
▁ندێک	-8.97164
▁فیرع	-8.97183
▁2019	-8.9748
▁15	-8.97481
▁Ve	-8.97544
▁یەک	-8.9758
pa	-8.97665
▁Al	-8.97729
▁ڕێن	-8.97904
▁30	-8.98053
▁*	-8.98112
▁çend	-8.98376
▁یام	-8.98472
▁girîng	-8.98495
ng	-8.98555
▁تێدا	-8.98605
▁بم	-8.98608
▁نهێنی	-8.98632
▁زانێت	-8.98658
ێر	-8.98729
نە	-8.98813
(	-8.98833
▁2017	-8.98909
▁دایک	-8.99062
▁برد	-8.99067
lu	-8.99119
eyê	-8.99177
▁گرت	-8.99195
▁گرێت	-8.99236
▁کتر	-8.99271
ەت	-8.99296
دار	-8.99328
sk	-8.99405
▁شایست	-8.99455
▁داد	-8.9946
▁diyar	-8.99527
▁خشه	-8.99541
▁مردن	-8.99607
ina	-8.99615
▁dîtin	-8.99683
▁ردا	-8.99723
▁rastî	-8.99783
▁ناخۆشی	-8.99864
▁kom	-9.00019
▁؟!	-9.00154
and	-9.00316
▁لەو	-9.00394
لی	-9.00568
▁sala	-9.00634
gir	-9.00687
▁خەڵک	-9.00699
▁ج	-9.00782
▁وم	-9.00783
▁Û	-9.00964
شی	-9.01073
▁ڵی	-9.0125
ner	-9.01326
▁لێیان	-9.01446
▁دنیادا	-9.01452
▁هێنا	-9.015
▁بەر	-9.01627
▁m	-9.01766
▁kerema	-9.0178
▁ردگارتان	-9.01796
▁مۆڵ	-9.01988
▁کاندا	-9.02028
▁دەر	-9.02098
▁دیاری	-9.02104
▁بیت	-9.02295
ik	-9.02353
ho	-9.02523
▁yekem	-9.0284
اده	-9.02901
▁بڕوایان	-9.03
رێن	-9.03152
▁Î	-9.03191
▁کانیش	-9.0322
ti	-9.03465
کانی	-9.03517
▁Hûn	-9.03698
چونکه	-9.03728
▁خشێت	-9.03798
▁باخ	-9.0405
ga	-9.04238
▁ماوه	-9.0469
▁sê	-9.04694
tor	-9.05118
▁خراپ	-9.05217
بێ	-9.05229
▁گاڵت	-9.05246
▁خوادا	-9.05275
va	-9.05365
▁واز	-9.05417
▁ڕانه	-9.05427
▁هێنن	-9.05474
co	-9.05566
îk	-9.057
▁بان	-9.05752
مە	-9.05755
▁دەکەن	-9.05759
mî	-9.05851
▁میان	-9.05861
ak	-9.05925
▁ریه	-9.06149
▁باش	-9.06155
▁رانی	-9.06163
▁گومان	-9.06165
▁ببن	-9.06279
▁hatine	-9.06424
▁were	-9.06572
andina	-9.06583
▁رتان	-9.06712
▁خزم	-9.06755
▁مژد	-9.07039
înê	-9.07394
▁sereke	-9.07451
▁ئامۆژگاری	-9.07509
▁ئەوەیە	-9.07613
mo	-9.07689
▁شتێك	-9.07843
▁13	-9.07956
▁گەورە	-9.07988
اڵ	-9.07988
▁ئار	-9.0824
bûn	-9.08287
▁ناکات	-9.0842
▁وانیش	-9.08454
▁بین	-9.08514
od	-9.08607
▁berê	-9.0884
zî	-9.08878
vi	-9.08967
▁پێشتر	-9.09015
ap	-9.09053
▁دره	-9.09185
▁18	-9.09197
▁24	-9.09295
▁ڕاسته	-9.09311
ليه	-9.09404
اری	-9.09409
@	-9.09455
▁girêdayî	-9.09593
▁Le	-9.09674
▁نییە	-9.09733
▁dem	-9.09748
▁تووشی	-9.09908
خۆ	-9.09937
înin	-9.10073
▁ڕۆژ	-9.1018
دانی	-9.10384
ji	-9.10542
▁پیلان	-9.10896
tê	-9.10965
):	-9.11011
▁eger	-9.11025
▁0	-9.11038
ft	-9.11047
ئا	-9.11256
▁جیاتی	-9.11339
gi	-9.11426
▁roj	-9.11487
▁Comment	-9.11587
▁hê	-9.11654
▁ava	-9.11684
▁ئاگر	-9.11747
no	-9.11752
▁1.	-9.11803
ide	-9.11867
▁چاکتر	-9.11881
▁ملک	-9.11922
J	-9.12058
▁ژ	-9.12141
▁z	-9.12304
ia	-9.12421
کار	-9.12428
▁ئێش	-9.12496
os	-9.12665
▁destê	-9.12777
▁J	-9.12805
▁Pa	-9.12942
▁ڕێز	-9.13015
پێ	-9.1308
go	-9.13317
▁tête	-9.13474
▁پیاو	-9.13499
▁Ra	-9.13531
▁ş	-9.1355
AN	-9.1385
▁شاره	-9.13913
▁kesên	-9.13921
ev	-9.13924
met	-9.13953
▁pey	-9.14018
rs	-9.1411
10	-9.1418
je	-9.14243
ay	-9.14295
▁خشن	-9.14304
▁جێی	-9.14353
▁شته	-9.14464
▁پێد	-9.1449
▁ما	-9.14512
▁لەم	-9.14526
ڤ	-9.14537
▁بخ	-9.14614
▁هر	-9.14697
▁No	-9.14881
kê	-9.14886
▁گرن	-9.14953
انەی	-9.14984
mê	-9.15201
▁هەست	-9.15216
▁دیار	-9.15231
▁بکەین	-9.15232
▁مکاران	-9.15274
▁malpera	-9.15291
▁To	-9.15458
▁کۆم	-9.15574
]	-9.15705
fe	-9.15765
îr	-9.16019
▁لێد	-9.16049
▁xizmeta	-9.16144
▁مانه	-9.16258
▁گ	-9.16303
سی	-9.16322
▁كات	-9.16342
▁dikarî	-9.1641
▁do	-9.16507
▁نیشت	-9.16611
▁Do	-9.1666
▁چن	-9.16733
est	-9.16764
▁باسی	-9.16768
▁Ta	-9.16832
▁Mar	-9.16838
▁ni	-9.16966
▁dixwazin	-9.17113
lan	-9.17311
▁جیاواز	-9.17376
▁Pêş	-9.17403
زانی	-9.17429
▁Ka	-9.17461
dana	-9.17479
xwe	-9.17487
▁جیا	-9.17527
▁pêşkêş	-9.17574
▁hewce	-9.17675
تی	-9.17733
ers	-9.17734
▁تەنها	-9.1794
▁bidin	-9.17961
▁گومڕا	-9.17975
▁بۆچی	-9.17994
▁ردگارم	-9.18136
tal	-9.18212
tan	-9.18222
▁بانگ	-9.18242
ment	-9.18276
ni	-9.18318
▁kanala	-9.1842
▁hîn	-9.18433
po	-9.18479
▁پاک	-9.18507
▁هەڵ	-9.18586
بەر	-9.18616
▁وڵات	-9.1866
▁per	-9.1873
▁ژن	-9.18802
▁وابوو	-9.18864
▁هۆز	-9.18921
▁ناس	-9.1896
▁@	-9.18974
ەک	-9.18994
▁باران	-9.19045
▁Be	-9.192
▁جۆر	-9.19318
گا	-9.19351
ۆن	-9.19354
گی	-9.19381
اندا	-9.19457
▁plan	-9.19723
ور	-9.19773
tîk	-9.19777
ss	-9.19842
▁xwedî	-9.19849
▁giştî	-9.19951
▁16	-9.20121
▁بووین	-9.20198
کاری	-9.20219
▁test	-9.20273
▁رمانب	-9.2044
▁vekirî	-9.20471
▁navbera	-9.20532
▁خواردن	-9.20579
▁هاوار	-9.20612
▁کرێن	-9.2062
▁رپا	-9.2063
▁شیان	-9.20638
ca	-9.20646
ko	-9.20716
▁بیان	-9.2072
00	-9.2073
▁زوو	-9.20731
fa	-9.20811
▁Mi	-9.20848
▁رنج	-9.20934
▁مووی	-9.21035
▁بەکار	-9.21039
▁فێر	-9.21053
▁بۆیە	-9.2108
çe	-9.21199
▁ڕیزی	-9.21211
▁avê	-9.21339
▁توانای	-9.21375
▁gor	-9.21393
▁nava	-9.2147
ov	-9.2151
▁سوود	-9.21522
▁چاکی	-9.21745
▁موعجیز	-9.21837
ایی	-9.21896
▁rû	-9.21911
▁بانه	-9.22009
ێنین	-9.22035
▁Ewropayê	-9.22072
Comment	-9.22157
▁نابن	-9.22364
▁تریش	-9.22469
▁We	-9.22478
▁°	-9.22504
ru	-9.22656
داو	-9.22657
50	-9.22703
▁ko	-9.22704
ما	-9.22811
▁ئەوان	-9.22827
▁Pro	-9.22908
▁si	-9.22908
://	-9.23011
▁ڕازی	-9.23035
ڵه	-9.23082
day	-9.23178
ton	-9.23213
▁Da	-9.23291
bo	-9.23296
▁خۆر	-9.23352
▁بار	-9.23376
▁Heke	-9.2342
▁تاقی	-9.23594
پێکەنین	-9.23625
▁چونکە	-9.23667
▁کاره	-9.23673
▁ستن	-9.2371
▁کەس	-9.23743
iz	-9.23816
rû	-9.23965
▁ئاگری	-9.24048
▁ئاین	-9.24079
xe	-9.24271
ەند	-9.24316
▁ha	-9.24335
du	-9.24347
▁Sp	-9.24444
▁hatin	-9.24513
▁ربه	-9.24526
▁واوی	-9.24726
▁ورات	-9.2475
ۆک	-9.24894
▁چوون	-9.24912
▁دامه	-9.25014
ەدا	-9.25047
▁derbas	-9.25051
▁he	-9.25085
▁باره	-9.25101
کو	-9.25181
▁تیان	-9.25222
کی	-9.25303
▁بڵاو	-9.25306
▁هێنێت	-9.25329
▁ڕێک	-9.2533
▁Piştî	-9.25389
îl	-9.25438
▁رن	-9.25547
yek	-9.25638
▁mo	-9.25709
▁کاتێکیش	-9.25774
▁DVB	-9.25971
▁یارم	-9.26014
▁Si	-9.26188
şe	-9.26317
▁Mo	-9.26415
▁شم	-9.26521
▁La	-9.26524
▁سو	-9.26658
▁and	-9.27022
▁î	-9.27026
▁ویست	-9.27077
اند	-9.27126
▁bandor	-9.27156
▁rêya	-9.27184
دایه	-9.2724
▁کام	-9.27268
▁dûr	-9.27446
▁gorî	-9.27472
ant	-9.27516
▁نزیک	-9.27574
▁Na	-9.27605
ڕا	-9.27808
▁دڵنیا	-9.27886
▁یوسف	-9.27909
▁نام	-9.28163
رو	-9.28186
ێكی	-9.28251
▁bînin	-9.28255
▁tune	-9.28371
▁satelîtê	-9.28375
ER	-9.28576
11	-9.28578
▁لەبەر	-9.28593
Z	-9.28687
▁رچاو	-9.28691
han	-9.28736
▁b	-9.28901
زی	-9.28927
▁çalak	-9.28931
▁زام	-9.28978
ران	-9.29086
▁Lo	-9.29117
▁2016	-9.29396
▁موویان	-9.29496
؛	-9.29731
▁mirov	-9.29765
ı	-9.29774
hi	-9.29828
▁ئاگا	-9.29863
tin	-9.29875
▁سێك	-9.29879
▁تاوانبار	-9.29969
yon	-9.29971
کات	-9.30168
▁d	-9.3018
▁لێخۆشبوو	-9.30196
▁بوونی	-9.30286
▁caran	-9.30421
▁خست	-9.30507
▁hatî	-9.30514
▁Der	-9.30549
ts	-9.30569
30	-9.30581
▁bar	-9.30602
▁تانه	-9.30698
▁ڕاستیدا	-9.30713
▁bawer	-9.30739
TV	-9.30749
▁qe	-9.30825
بین	-9.3083
▁pa	-9.30921
▁خشش	-9.31096
mar	-9.31154
▁بڕیاری	-9.3116
▁یەکەم	-9.31239
▁باڵاد	-9.31252
▁خشین	-9.31261
▁--	-9.31281
▁رست	-9.31282
١	-9.31289
ex	-9.31346
▁خو	-9.3137
▁منیش	-9.31375
▁Hemû	-9.31453
wer	-9.31456
▁کیان	-9.31498
▁w	-9.31503
وات	-9.31574
▁ئیسلام	-9.31635
▁al	-9.31897
anî	-9.31909
▁بکەن	-9.31948
▁کەم	-9.31976
▁کەواتە	-9.31991
با	-9.3205
ەکەم	-9.32066
ال	-9.32093
▁مرۆڤ	-9.32164
▁ژار	-9.32216
9	-9.32278
ît	-9.32279
▁ساڵی	-9.32314
▁pêşniyar	-9.32368
▁کچ	-9.32394
▁girtin	-9.32541
yar	-9.32543
si	-9.32548
▁مار	-9.32641
▁ناب	-9.32672
▁pergala	-9.32789
▁ئاوا	-9.32989
یشی	-9.3299
ting	-9.33151
▁وانی	-9.33178
işt	-9.33387
▁یاد	-9.33406
▁hez	-9.33454
▁كار	-9.33483
▁خوێن	-9.33593
▁free	-9.33598
▁yan	-9.33759
▁گیان	-9.33764
▁بت	-9.33792
ۆت	-9.33811
▁دوایی	-9.33845
bû	-9.33848
▁کاروکرد	-9.33858
▁gelemperî	-9.33867
▁لێپرسین	-9.33957
▁jê	-9.33996
▁rêz	-9.34018
▁خواناس	-9.34079
kir	-9.34118
▁standard	-9.34139
ster	-9.34181
رۆ	-9.34202
▁çêkirin	-9.34268
▁Sa	-9.34311
▁ئایند	-9.34345
▁ناح	-9.34455
▁kontrol	-9.34497
▁kanalên	-9.34533
▁کوڕ	-9.34577
جا	-9.34613
land	-9.34722
▁!!	-9.34785
ەیەکی	-9.34816
▁cihê	-9.3485
▁hilbijêre	-9.34956
ەیە	-9.35011
کا	-9.35031
از	-9.35064
گە	-9.35092
▁کۆتایی	-9.35188
▁پیاوان	-9.35207
▁Nav	-9.35258
▁weşana	-9.35273
ana	-9.35341
▁ستیان	-9.35414
▁نێت	-9.3543
▁دروستی	-9.35459
kêş	-9.35517
می	-9.35569
▁دڵی	-9.35577
▁بکرێت	-9.35677
▁دار	-9.35705
▁ختی	-9.35815
▁paqij	-9.35887
▁salan	-9.3607
اس	-9.36211
▁دێن	-9.36215
mp	-9.36281
▁ئاینی	-9.36346
▁welat	-9.36455
jar	-9.36509
▁Ha	-9.36523
پی	-9.36669
hê	-9.36824
▁زانا	-9.37036
▁نوێ	-9.37093
▁nas	-9.37121
sp	-9.37267
▁pêwîst	-9.37365
رە	-9.37507
ck	-9.37525
▁گو	-9.3754
▁پێویست	-9.37559
▁هیچی	-9.3763
▁hêza	-9.37693
▁berdewam	-9.37733
▁هەندێک	-9.38058
▁çar	-9.38194
▁كاتێك	-9.38265
ۆر	-9.38366
▁dijî	-9.38383
fi	-9.3848
▁hi	-9.38515
▁روون	-9.3855
jî	-9.38586
▁germ	-9.38597
ey	-9.38625
▁kes	-9.38653
ۆش	-9.38816
▁hemî	-9.38858
▁ورد	-9.38904
▁بکەم	-9.38913
▁مانگ	-9.39009
rîn	-9.39149
▁پێویستە	-9.39186
▁hêsan	-9.39208
ut	-9.39265
▁زانستی	-9.3931
om	-9.39341
▁پێبه	-9.3938
▁شار	-9.39381
▁50	-9.39397
▁for	-9.39686
▁بترسن	-9.3982
زه	-9.39927
داوه	-9.40083
ava	-9.40089
▁ڕاو	-9.40218
وس	-9.40231
▁رموێت	-9.403
▁کردنه	-9.40409
one	-9.40453
▁دەی	-9.40743
IN	-9.4092
do	-9.40929
mer	-9.41029
ket	-9.4105
▁pro	-9.41172
▁دەکرد	-9.41197
دو	-9.41336
▁color	-9.4137
ow	-9.4154
▁چوار	-9.41561
▁نرخ	-9.41564
▁car	-9.41578
رێ	-9.41671
▁كانی	-9.41676
-2	-9.41818
▁یاری	-9.4198
▁»	-9.42054
رد	-9.42076
▁ڕۆژێک	-9.42113
ona	-9.4212
▁25	-9.42163
▁Vi	-9.42199
▁sîstema	-9.42315
▁رمووی	-9.42319
▁pere	-9.4235
eng	-9.42355
pt	-9.42365
▁سانێک	-9.42461
▁xwarinê	-9.42463
▁رداری	-9.42776
▁ومی	-9.42908
▁jêr	-9.42941
▁hilberîna	-9.43053
▁رمه	-9.43072
▁amade	-9.43167
şê	-9.43174
▁هانا	-9.43244
▁وێ	-9.43345
یشیان	-9.43492
▁100	-9.43534
▁بچن	-9.43646
▁17	-9.43663
▁gel	-9.43943
port	-9.43977
▁پشتیوانی	-9.44018
▁ke	-9.44095
▁Yek	-9.4415
▁دووڕوو	-9.44206
▁Ko	-9.44217
▁ناڕ	-9.44296
▁h	-9.44348
چی	-9.44465
▁berî	-9.44496
جی	-9.44516
لێ	-9.44637
▁hil	-9.44664
▁ئای	-9.4469
▁pi	-9.44703
٠	-9.44816
ەوێت	-9.44892
hat	-9.45066
▁saz	-9.4509
."	-9.45179
▁parastina	-9.45198
وا	-9.45274
erê	-9.45307
▁derbarê	-9.45335
▁سۆز	-9.45337
▁هاتووه	-9.45505
13	-9.45559
▁Ger	-9.45565
▁زای	-9.45633
▁درێت	-9.45788
▁كی	-9.4584
▁مێ	-9.45978
سا	-9.46072
▁نارد	-9.46076
▁kontrola	-9.46147
▁New	-9.46269
▁şîrketa	-9.46314
▁بانی	-9.46321
▁نموونه	-9.46353
ah	-9.46377
▁giran	-9.46566
şt	-9.46673
▁rûpel	-9.46772
▁نایه	-9.46819
▁Bu	-9.46918
▁نج	-9.46948
şa	-9.46954
▁Fa	-9.46971
▁14	-9.47155
▁ho	-9.47184
▁پێمان	-9.47433
▁دانایه	-9.4744
▁Nû	-9.4748
▁Xwe	-9.47556
▁ڕاد	-9.47561
men	-9.47661
▁فر	-9.4767
▁هاتن	-9.47688
▁is	-9.47705
▁2.	-9.47729
let	-9.47765
▁le	-9.47768
up	-9.47824
▁نازانن	-9.47825
▁پەیوەندی	-9.479
▁گوفتار	-9.47995
▁رانه	-9.48082
▁چوو	-9.48155
▁ڕێی	-9.48192
▁Mezin	-9.48316
ayê	-9.48342
ەکی	-9.48366
▁مێشک	-9.48426
▁رد	-9.48448
mi	-9.48533
san	-9.48604
îst	-9.48642
بڕ	-9.48721
▁رچ	-9.48738
zan	-9.48744
ff	-9.48752
▁piştgiriya	-9.48839
▁پشتیوان	-9.48852
ie	-9.48857
▁خش	-9.4888
▁خێزان	-9.48915
▁ڵێت	-9.49003
▁پاداشت	-9.49064
▁zanîn	-9.4912
▁درێژ	-9.49174
▁alîkariya	-9.49213
▁زراو	-9.49237
▁nivîs	-9.49261
ڕی	-9.49411
▁مردوو	-9.49433
▁ro	-9.4946
▁paşê	-9.49509
dê	-9.49562
شه	-9.49592
▁زیان	-9.49621
fir	-9.4963
▁ڕای	-9.49681
▁خۆن	-9.49702
▁derman	-9.49749
▁دواتر	-9.49791
▁کراو	-9.49843
تۆ	-9.49897
êr	-9.50011
▁So	-9.50044
▁Ku	-9.50071
▁بات	-9.50262
ahiya	-9.50292
▁Android	-9.50318
اوە	-9.50387
▁teknîkî	-9.50425
▁جیهانی	-9.50431
▁so	-9.50522
ەیەک	-9.50651
▁wir	-9.50654
▁چاوی	-9.50724
▁lêkolîn	-9.5074
▁·	-9.50749
▁نگی	-9.5083
▁تۆمار	-9.50921
▁mi	-9.50973
کۆ	-9.51064
▁خۆگر	-9.51082
pê	-9.51205
▁bank	-9.51218
Ê	-9.51345
▁مکار	-9.51381
▁دیاریکراو	-9.51419
▁co	-9.5145
ڵی	-9.51473
12	-9.51492
▁As	-9.5152
▁لەوانەیە	-9.51611
geha	-9.51693
▁پێم	-9.51774
pi	-9.51787
▁la	-9.51817
ron	-9.51852
▁hejmara	-9.51901
▁وتوو	-9.52086
bûnê	-9.52087
▁ناتوانن	-9.52145
▁بگرن	-9.52194
▁on	-9.52413
▁تاڵ	-9.52456
▁ناخۆش	-9.52557
▁گیر	-9.52587
▁Yekbûyî	-9.52691
▁fa	-9.52712
ێکیان	-9.52824
یشمان	-9.52944
▁باشە	-9.5319
60	-9.53211
ez	-9.53291
▁Bersiv	-9.53344
vê	-9.53403
▁دانه	-9.53527
▁خۆشه	-9.53529
dem	-9.53548
▁Çînê	-9.5362
خات	-9.53644
ity	-9.53672
▁نوح	-9.53677
hî	-9.53687
▁چاوپۆشی	-9.5375
دوای	-9.53844
ction	-9.53846
vî	-9.53855
ح	-9.53864
▁وای	-9.53944
ێته	-9.53953
ub	-9.54049
ler	-9.54074
ph	-9.54345
▁Xane	-9.54358
▁temamî	-9.54385
▁ستان	-9.54392
▁şer	-9.54397
▁پێو	-9.54453
▁درووست	-9.54558
▁hema	-9.5458
eta	-9.54607
ks	-9.54618
▁destpêkirin	-9.54641
ییەکان	-9.54726
▁Ca	-9.54735
▁هەروەها	-9.5478
▁رستی	-9.5486
19	-9.54887
▁Gelek	-9.54893
yeke	-9.54981
▁ç	-9.55059
▁#	-9.55104
▁باشتر	-9.55125
▁malperê	-9.55176
▁o	-9.55198
gu	-9.55259
▁cih	-9.553
▁پێناوی	-9.55361
▁هەبوو	-9.55378
rd	-9.5538
cî	-9.55427
▁Car	-9.55431
bîn	-9.55688
▁Min	-9.55838
▁یەکێک	-9.56389
tên	-9.56418
Q	-9.56437
▁کۆڵ	-9.56438
▁بێدار	-9.56442
▁sa	-9.56456
▁پارێزکار	-9.56654
hev	-9.56664
زا	-9.56807
darî	-9.56859
▁تۆش	-9.56957
▁peyda	-9.5699
▁Ke	-9.57054
ip	-9.57198
tu	-9.5722
▁بگرێت	-9.57272
kin	-9.57287
▁xweş	-9.57403
▁Du	-9.57471
وێ	-9.57515
wa	-9.57522
جار	-9.57529
▁îro	-9.57571
▁دڵنیابن	-9.57679
son	-9.57684
▁Best	-9.57727
▁tiştên	-9.57752
▁یشتن	-9.57782
▁design	-9.57806
ەنگ	-9.57907
▁bihayê	-9.57987
ep	-9.58031
پا	-9.58073
▁biçûk	-9.58176
▁بڕ	-9.58177
▁شوێنه	-9.58188
bê	-9.58241
بار	-9.58313
▁خێرا	-9.58321
تاندا	-9.58394
ێکدا	-9.58412
qa	-9.58523
تە	-9.58644
▁زۆری	-9.58684
▁mu	-9.58734
ێنیت	-9.58766
▁کوێ	-9.5879
▁زمان	-9.58839
stan	-9.58958
▁ch	-9.58998
▁گرنگ	-9.59135
-4	-9.59135
▁بیس	-9.59211
▁Ch	-9.59221
▁ژمار	-9.59326
▁dayîn	-9.59353
tra	-9.59379
fer	-9.59386
▁زانست	-9.59392
▁کافران	-9.59438
▁jiyana	-9.59469
▁ندێك	-9.59522
▁مڕۆ	-9.59912
▁no	-9.59958
More	-9.59966
▁Niha	-9.59997
ding	-9.60002
▁پاکی	-9.60033
▁دەربارەی	-9.60036
▁t	-9.6014
▁هتد	-9.60153
ەش	-9.60182
▁وترێت	-9.60214
▁bigirin	-9.60272
ئە	-9.60516
▁bingehîn	-9.6052
▁کانمان	-9.60538
▁کرا	-9.60551
▁...]	-9.60571
وم	-9.60589
▁ئەنجام	-9.60624
=	-9.6068
danê	-9.60786
▁nexweş	-9.60897
▁پۆل	-9.60903
▁بەم	-9.60919
▁hewl	-9.60926
ku	-9.60943
▁ڵێنی	-9.60988
▁v	-9.60992
▁هێشتا	-9.61014
▁جیاوازی	-9.61065
ab	-9.61096
▁dibêje	-9.61097
▁ڵب	-9.61117
▁kiriye	-9.61198
yayê	-9.61222
▁لاواز	-9.6125
▁rapor	-9.61272
▁bêyî	-9.61308
▁Ar	-9.61407
ترس	-9.61496
▁یانوت	-9.61572
lor	-9.61971
av	-9.61979
▁بکەیت	-9.61991
ren	-9.62113
ud	-9.62144
▁سانی	-9.6221
▁سوور	-9.62217
ahî	-9.62276
wan	-9.62342
▁dikim	-9.62411
▁بانگه	-9.6242
▁2013	-9.62432
▁22	-9.62538
▁تێد	-9.62556
▁لام	-9.62742
▁derê	-9.62765
▁fi	-9.62823
▁firotanê	-9.62897
▁باو	-9.62902
mend	-9.62903
▁فڕێ	-9.62916
▁چین	-9.63045
▁پارچ	-9.6308
qu	-9.63081
▁bazirganî	-9.63094
▁كو	-9.63167
▁Navê	-9.63375
▁قسە	-9.63402
▁Navenda	-9.63459
lav	-9.63575
▁کدا	-9.63614
▁بێگ	-9.63632
▁paş	-9.63678
▁زار	-9.6369
▁ندێکی	-9.63719
▁azad	-9.63742
▁Wi	-9.63767
▁ڵکینه	-9.63802
▁Pê	-9.63857
▁hest	-9.63886
▁فراوان	-9.63984
گر	-9.64007
▁Eger	-9.64034
▁بچ	-9.64134
▁platform	-9.64193
bin	-9.64225
▁بۆت	-9.64264
▁awayekî	-9.64526
کاتێک	-9.6457
▁هە	-9.64579
نەوە	-9.64615
stî	-9.64631
▁ئۆ	-9.64665
▁kêmtir	-9.6469
▁MPEG	-9.64718
زە	-9.64766
▁ریاندا	-9.64844
tic	-9.64848
▁داوا	-9.64887
sê	-9.6492
▁tim	-9.64927
▁گۆڕ	-9.64931
▁رزه	-9.65156
▁kurt	-9.6516
▁دین	-9.65173
▁باوک	-9.65226
▁دژی	-9.65231
▁lez	-9.65315
▁یدا	-9.65349
▁داو	-9.65368
karî	-9.65444
▁ئێ	-9.65539
ۆڵ	-9.6554
▁ماڵات	-9.65542
▁ردان	-9.65557
99	-9.65641
▁dîsa	-9.65659
▁ڵاڵ	-9.65683
▁teknolojiya	-9.65707
رن	-9.65728
▁by	-9.65733
▁Bike	-9.65803
Û	-9.65894
▁پاڵ	-9.65897
alî	-9.65925
لۆ	-9.65983
rên	-9.65997
▁دەم	-9.6601
▁ewle	-9.66014
▁چیرۆک	-9.66081
▁gotin	-9.66101
▁زا	-9.66145
▁ماڵی	-9.6615
ld	-9.66224
گار	-9.66268
nav	-9.66271
▁خوار	-9.66489
▁زان	-9.66494
▁ئاوات	-9.66523
▁Ti	-9.66543
▁ئاسان	-9.66569
▁بەرز	-9.66603
▁po	-9.66659
16	-9.66664
net	-9.66672
▁فا	-9.66798
▁بردن	-9.66807
▁pêvajoya	-9.6683
کێش	-9.66906
▁زڵ	-9.67085
ییە	-9.67165
▁نای	-9.67263
ووە	-9.67272
▁ڵێ	-9.67325
if	-9.67334
▁بەردەوام	-9.67334
tt	-9.6734
▁کردۆت	-9.67389
ist	-9.67435
سان	-9.67449
▁destpêkê	-9.67473
▁کوڕی	-9.67506
▁رنجی	-9.67543
▁تری	-9.67591
▁کێک	-9.6763
▁نیگا	-9.67659
▁بخۆن	-9.67731
▁Xwedê	-9.67849
▁çê	-9.67956
▁sp	-9.68062
▁qebûl	-9.68221
▁cara	-9.68257
▁ردی	-9.68378
▁خۆیدا	-9.6849
▁فێری	-9.68595
▁berbiçav	-9.68604
اوی	-9.6861
▁بیرو	-9.68625
▁بەسەر	-9.68725
▁hwd	-9.68731
▁belê	-9.68737
▁operator	-9.68859
▁Ya	-9.68943
▁شاراو	-9.68961
کراو	-9.69015
▁خوارد	-9.69172
▁ئیسرائیل	-9.69245
▁bonus	-9.69247
▁خۆراک	-9.6926
یک	-9.69274
ans	-9.69443
▁بینن	-9.69566
▁پیرۆز	-9.69596
ian	-9.69598
▁کۆشش	-9.69634
▁رفراز	-9.69662
▁ریک	-9.69685
▁تم	-9.69761
▁یارمەتی	-9.6977
▁Gu	-9.69847
▁ناهێنن	-9.69896
ند	-9.69903
▁رامۆش	-9.70058
▁کردبێت	-9.7007
01	-9.70111
▁چێت	-9.70138
ü	-9.70139
▁زووی	-9.70178
▁هەمان	-9.70213
تره	-9.70413
▁پای	-9.70538
▁قیق	-9.70562
▁alavên	-9.70674
▁cîh	-9.70683
▁نەبوو	-9.70797
▁berfireh	-9.708
▁رزی	-9.70984
▁ca	-9.71029
▁i	-9.71063
▁çû	-9.71064
▁nayê	-9.71082
ight	-9.71152
ایە	-9.71153
▁ژنان	-9.71179
2.	-9.7123
şî	-9.7128
ماندا	-9.71293
▁رم	-9.71296
▁Go	-9.71329
▁پشتی	-9.71392
▁سوودی	-9.71457
▁Nî	-9.71519
ەڕ	-9.71544
▁tiştek	-9.71656
lar	-9.71665
▁باوکی	-9.71738
▁l	-9.71752
گرن	-9.71788
sta	-9.71842
▁ژوور	-9.71851
▁وری	-9.71896
wir	-9.71931
▁ئی	-9.71931
▁Divê	-9.71969
▁awayî	-9.71983
ite	-9.7201
▁post	-9.72099
ayî	-9.72145
بی	-9.72183
▁سوژ	-9.72193
نەوەی	-9.72198
ö	-9.72247
▁گوێر	-9.72267
▁دەکەین	-9.72286
ast	-9.72289
▁حی	-9.72289
▁دارو	-9.72306
▁ژیر	-9.72322
▁2020	-9.72421
▁xe	-9.725
▁video	-9.72513
▁دادپ	-9.72517
dy	-9.72522
▁nêzîkî	-9.72684
ketin	-9.727
09	-9.72705
كردن	-9.72717
یەوە	-9.72721
ive	-9.72737
etê	-9.72754
din	-9.72857
▁bîne	-9.72865
able	-9.72915
▁hinek	-9.72949
15	-9.73023
istan	-9.73043
▁ترسی	-9.73276
▁ڵكی	-9.73304
زان	-9.73333
ژی	-9.73365
▁رچوو	-9.73448
▁riya	-9.73471
ەری	-9.73585
sion	-9.73665
kên	-9.73705
▁بڕاو	-9.73713
▁فتار	-9.7372
▁گشتی	-9.7375
ard	-9.73802
ویست	-9.73816
▁چار	-9.73872
▁تیادا	-9.7388
▁واڵی	-9.73949
xa	-9.74012
▁4.	-9.74103
era	-9.74161
▁Pel	-9.74164
-1	-9.74179
▁Play	-9.74192
▁لێخۆشبوون	-9.74229
▁Giştî	-9.74257
▁Tê	-9.743
مەوە	-9.74368
▁نێوانیاندا	-9.74393
▁بر	-9.74432
lên	-9.74449
▁asta	-9.74547
▁بینیت	-9.74679
AR	-9.74738
▁توانا	-9.74744
▁derve	-9.74788
ين	-9.74814
▁Gr	-9.74815
her	-9.74825
گرتن	-9.74884
▁خات	-9.74944
▁فێڵ	-9.74953
▁کوێر	-9.74956
so	-9.74969
▁بهێنێت	-9.74987
بو	-9.75059
▁Çi	-9.75065
٤	-9.7507
▁hêz	-9.75074
▁توانی	-9.75099
xi	-9.75244
▁شتێکدا	-9.75517
اد	-9.75533
▁rojan	-9.75544
▁هی	-9.75549
ice	-9.75615
▁پووچ	-9.75619
▁27500	-9.7562
▁Bikaranîna	-9.75631
▁hêsanî	-9.75725
ec	-9.75737
▁!	-9.75794
▁بپ	-9.75835
▁Wekî	-9.75836
▁ڕێزی	-9.75845
tirîn	-9.75983
▁چاودێری	-9.76033
ste	-9.76218
▁Dr	-9.76227
▁bernameyên	-9.76252
▁Hev	-9.76309
▁anîn	-9.76389
▁خشیوون	-9.76392
▁نگان	-9.76464
▁Mu	-9.76473
az	-9.7652
les	-9.76594
شتی	-9.76611
▁ger	-9.76704
▁قورس	-9.76721
▁هەوڵ	-9.76725
▁ئاوی	-9.76775
▁ڕۆ	-9.76851
▁گومڕایی	-9.76886
▁ستایش	-9.7694
ێش	-9.76955
▁ئاوه	-9.76962
▁fe	-9.7702
geh	-9.77252
AS	-9.77303
ڕۆ	-9.77305
▁bingeha	-9.77366
▁berhem	-9.77395
▁Jo	-9.77401
▁j	-9.77473
▁ئیش	-9.77506
all	-9.77687
▁nimûne	-9.77695
▁3.	-9.77774
یشدا	-9.77813
▁ڕووبار	-9.7788
▁hem	-9.7789
ps	-9.77906
▁karê	-9.77943
خە	-9.77945
▁meha	-9.77955
▁piçûk	-9.77975
▁دیهێن	-9.78007
▁part	-9.78157
پارێز	-9.78176
▁ماشا	-9.78187
▁Train	-9.78188
ID	-9.78276
▁afirandin	-9.78291
▁pe	-9.78333
▁ناوچ	-9.78383
▁دژ	-9.78396
ika	-9.7867
ong	-9.78673
▁Çawa	-9.78689
ore	-9.78747
گێڕ	-9.78775
▁biryar	-9.78847
▁ندن	-9.78849
▁پاك	-9.78857
▁çêkirina	-9.78891
lin	-9.78912
▁dî	-9.78973
tiya	-9.78989
٥	-9.79058
▁ڕوات	-9.79115
▁bal	-9.79119
▁ad	-9.79142
▁rêber	-9.79189
▁weke	-9.79193
80	-9.79219
▁جوانی	-9.79244
▁info	-9.7936
یس	-9.79388
ڕاست	-9.79427
▁Fi	-9.79458
▁beşa	-9.79479
▁ڵاتدار	-9.79532
▁ئەمەش	-9.79544
▁bikarhênerên	-9.79551
کەر	-9.79575
nk	-9.79592
rus	-9.79713
▁بوای	-9.79725
▁توانن	-9.79807
▁ساره	-9.79992
▁دڵخۆش	-9.79993
▁نجامداوه	-9.80028
▁دەکەم	-9.80042
▁کانم	-9.80059
che	-9.80156
▁تیشدا	-9.80179
den	-9.80182
▁تانی	-9.80197
▁gi	-9.8024
▁erdê	-9.8026
▁ئێوە	-9.80282
▁dan	-9.80354
▁Lêkolîn	-9.8039
nivîs	-9.80457
▁dora	-9.80472
▁bilî	-9.8051
▁Bitcoin	-9.80534
▁nî	-9.80579
ەکانیان	-9.80585
tar	-9.80618
▁کانیدا	-9.80622
west	-9.80646
xwaz	-9.80691
▁زاندوو	-9.80731
▁ئاس	-9.80774
sên	-9.80776
ەرە	-9.80779
ja	-9.80815
▁bazara	-9.80823
emîn	-9.80863
▁tên	-9.80865
andî	-9.80869
▁نزا	-9.80888
▁خوایان	-9.80913
",	-9.80937
▁pispor	-9.80988
▁Bê	-9.81037
▁ڕن	-9.81064
▁زاناو	-9.81068
▁ڵای	-9.81135
شە	-9.8118
lek	-9.81186
▁2014	-9.81274
▁xizmetên	-9.81278
یەکان	-9.81292
▁dîtina	-9.81312
ect	-9.81366
ستی	-9.81404
▁derveyî	-9.81421
▁mişterî	-9.81426
▁رێک	-9.8144
توانی	-9.81503
▁خوایی	-9.81514
▁dît	-9.81552
▁نیو	-9.81644
▁ناکرێت	-9.81661
▁şandin	-9.81678
07	-9.81699
▁Su	-9.81796
▁رزو	-9.81913
▁شدا	-9.81915
▁bistînin	-9.81985
ێڵ	-9.8204
▁Sal	-9.82165
داری	-9.82224
▁up	-9.82249
بیر	-9.82283
rm	-9.82288
ینی	-9.82318
▁بڵند	-9.82392
ig	-9.82417
▁belav	-9.8242
▁karanîna	-9.82453
▁roja	-9.82495
▁مە	-9.82537
▁کا	-9.82584
▁هەبێت	-9.82601
nder	-9.82668
کەی	-9.82735
▁Berhemên	-9.82798
▁3/4	-9.82865
▁تێبگ	-9.82865
▁ئاگایه	-9.829
▁واڵ	-9.82978
а	-9.83012
tion	-9.83069
▁گوفتاری	-9.83085
▁Pol	-9.83101
▁qeyd	-9.83138
غ	-9.83165
▁وایە	-9.83176
▁materyalên	-9.832
▁نوور	-9.83228
▁vala	-9.83318
اندن	-9.83319
▁ئاسمانی	-9.83331
▁ئاستی	-9.83437
şem	-9.83443
ion	-9.83453
▁دەنگ	-9.83462
▁خدا	-9.83602
▁name	-9.83603
▁trênê	-9.83611
ls	-9.83634
▁navdar	-9.83637
▁200	-9.83652
▁پێتان	-9.83843
▁digerin	-9.83903
فر	-9.83905
ۆی	-9.8397
anê	-9.83974
▁malê	-9.8406
▁لی	-9.84062
گۆ	-9.84194
▁بای	-9.84305
▁دو	-9.84372
tina	-9.8449
îz	-9.84624
.00	-9.84638
▁tînin	-9.84665
▁لێتان	-9.84717
min	-9.84726
کردنه	-9.84737
▁bîr	-9.84781
ther	-9.84799
▁ڕێت	-9.84812
▁tr	-9.84845
▁سیش	-9.84861
▁خۆیاندا	-9.84934
eb	-9.84952
▁وێنه	-9.85064
dest	-9.85074
▁داهاتوو	-9.85075
دوو	-9.85096
▁هۆش	-9.851
baz	-9.85157
یەکە	-9.85173
مدا	-9.85225
-19	-9.85226
▁2015	-9.85239
br	-9.85476
▁Ho	-9.8558
▁کتێبی	-9.85633
yn	-9.85633
▁زەوی	-9.85706
girtina	-9.85707
ەکانمان	-9.85724
bî	-9.85807
▁dixwazî	-9.85857
▁ئەوەش	-9.85883
▁منداڵان	-9.85891
las	-9.85916
▁temam	-9.85943
▁Dewletên	-9.85953
شا	-9.86013
▁rengî	-9.86066
▁یش	-9.86081
▁qu	-9.86099
▁قینه	-9.86149
▁tişt	-9.86152
زو	-9.86153
▁چاکترین	-9.86185
▁avakirina	-9.86203
▁تیش	-9.86212
▁60	-9.86249
▁رباز	-9.86268
▁نەخۆشی	-9.8627
▁نگه	-9.86292
▁en	-9.86307
▁تیا	-9.86347
tek	-9.86351
▁bajarê	-9.86381
▁qa	-9.86463
▁ناتوانێت	-9.86466
ten	-9.86474
▁رج	-9.86485
لای	-9.86518
▁ترسن	-9.86521
▁navenda	-9.86622
18	-9.86633
▁beşek	-9.86652
▁هێڵ	-9.8672
▁hilberê	-9.86762
art	-9.86806
ill	-9.86835
▁ئاشکرایه	-9.86839
eh	-9.8684
▁ستێر	-9.86855
ence	-9.86856
guh	-9.86909
mail	-9.86954
▁تووش	-9.86968
▁هید	-9.86987
bir	-9.87012
▁کردوو	-9.87063
▁salê	-9.87069
▁Google	-9.87079
▁zelal	-9.87079
▁herêmî	-9.87079
▁Rû	-9.87097
▁Ni	-9.87116
▁رێکی	-9.87116
log	-9.87127
وز	-9.87159
»	-9.87224
▁بوختان	-9.87233
14	-9.87313
▁روونی	-9.87353
qî	-9.87362
دۆز	-9.87364
بر	-9.87383
▁سین	-9.87418
îka	-9.87434
▁ریا	-9.87437
▁دەبین	-9.8749
▁وتوون	-9.87523
▁fermî	-9.87546
mal	-9.87582
ind	-9.87624
▁مووان	-9.87792
ell	-9.87802
▁bikarhêner	-9.87829
▁wa	-9.87843
▁jinan	-9.87901
▁سوپاسگوزاری	-9.87902
05	-9.87921
▁28	-9.87992
▁زیند	-9.88112
▁dil	-9.88222
▁pêşî	-9.88252
ase	-9.8826
40	-9.88291
▁ڵاو	-9.88294
▁rasterast	-9.88316
îd	-9.8836
▁Ja	-9.88384
▁23	-9.88385
vo	-9.88418
▁کارێکی	-9.88443
▁سەیری	-9.88467
▁ئینسان	-9.88472
▁Ziman	-9.88492
چوون	-9.88554
▁بهێنه	-9.88567
yo	-9.88626
▁هۆکار	-9.88642
▁تریان	-9.88784
▁pêdivî	-9.88784
ick	-9.88792
mb	-9.88859
xistin	-9.88871
▁milyon	-9.88949
▁gava	-9.88955
▁سا	-9.88962
ish	-9.88979
▁خەڵکی	-9.89032
▁şexsî	-9.89097
▁تەنانەت	-9.89097
ies	-9.89104
▁40	-9.89139
AT	-9.89217
▁karta	-9.89229
▁برا	-9.89231
▁sînor	-9.89255
▁کۆشک	-9.89263
yl	-9.89328
دەر	-9.89335
aya	-9.89389
ەس	-9.89409
▁کەسێک	-9.89431
▁Xizmet	-9.89569
asyona	-9.8963
▁guh	-9.89631
▁rewşa	-9.89695
ڵێن	-9.89836
▁ڕاگ	-9.89839
▁خن	-9.89844
▁(1	-9.89872
▁Cih	-9.89884
▁دوژمن	-9.90113
اکان	-9.90137
▁دەتوانین	-9.90145
▁سوپاسگوزار	-9.90153
▁Dem	-9.90192
▁Design	-9.90202
▁play	-9.90203
▁دەکرێت	-9.90245
keve	-9.90251
▁کردبوو	-9.9029
▁منداڵی	-9.90297
▁plastîk	-9.9036
▁بڵێن	-9.90405
▁con	-9.90427
▁ڕزگاری	-9.90497
eka	-9.905
▁motor	-9.90543
▁دژای	-9.90603
▁Er	-9.90632
17	-9.90659
▁eşkere	-9.9066
▁ئ	-9.90753
▁فامان	-9.90776
▁تێك	-9.90831
qe	-9.90867
▁ئارام	-9.90917
▁پێدا	-9.90921
▁بیست	-9.90923
▁بۆمان	-9.90946
bat	-9.90961
▁Ge	-9.90968
con	-9.90987
▁سبیحات	-9.90998
▁casino	-9.90998
▁کاران	-9.91024
▁Nîşan	-9.91054
▁در	-9.91064
pey	-9.91091
90	-9.91092
▁دڵه	-9.91135
▁belaş	-9.91158
▁mêr	-9.91183
oo	-9.91188
▁rojane	-9.91221
▁ڕۆڵ	-9.91271
▁زاڵ	-9.91316
▁wateya	-9.91318
▁ردوو	-9.9133
▁تاوانباران	-9.91342
▁karûbarê	-9.91352
işk	-9.9142
▁ئازاری	-9.91422
▁ندو	-9.91455
▁لێک	-9.91503
▁چونك	-9.91507
▁kon	-9.91511
ance	-9.91532
▁ناگ	-9.91582
▁زات	-9.91593
▁پێویستی	-9.91627
cu	-9.91655
سەر	-9.91661
▁بچووک	-9.91729
▁ببین	-9.91746
پرس	-9.91776
▁Çûna	-9.91805
ane	-9.91826
▁lîsteya	-9.91829
gar	-9.91846
▁En	-9.91915
▁guhertin	-9.91924
▁کۆن	-9.91954
▁herweha	-9.91962
ang	-9.91978
▁ئومێد	-9.92124
نێ	-9.9221
▁dizanin	-9.92286
▁پێشوو	-9.92289
ەل	-9.92293
▁encamên	-9.92326
ture	-9.92379
25	-9.92426
▁وازی	-9.92434
▁nehat	-9.92452
▁rastîn	-9.92527
ix	-9.92544
▁Roja	-9.92584
▁جادووگ	-9.92608
▁têkildar	-9.9261
tter	-9.92645
Ş	-9.92652
▁هێشت	-9.92749
▁ڕۆژێك	-9.92752
بکه	-9.92776
▁Îsa	-9.9281
▁get	-9.92869
▁دەدات	-9.9287
▁bajar	-9.92943
▁باوو	-9.92979
ef	-9.93204
▁bet	-9.93257
▁بەو	-9.93273
▁rêxistin	-9.93313
▁پێچ	-9.93363
▁زن	-9.93378
▁lo	-9.93399
▁Paqij	-9.93425
75	-9.93439
ib	-9.93544
ust	-9.9355
▁mîna	-9.93573
CoV	-9.93612
▁کردار	-9.93738
▁ceribandin	-9.93753
▁wêne	-9.93759
21	-9.93804
▁21	-9.93823
)...	-9.93894
▁5.	-9.93951
ڵە	-9.93952
▁civakî	-9.93957
▁پیس	-9.94076
▁یشت	-9.94078
▁Rizgari	-9.94082
▁وەکو	-9.94135
mg	-9.94245
▁کافر	-9.94246
▁rêjeya	-9.94248
▁ڕیسوا	-9.9426
wî	-9.94272
▁شێواز	-9.94314
▁xwendekarên	-9.94365
▁games	-9.94389
www	-9.94473
ێتی	-9.94476
رت	-9.94509
▁game	-9.94557
▁لایان	-9.94573
е	-9.94579
▁agahî	-9.94581
ەست	-9.94591
▁deng	-9.94743
فه	-9.94744
ێکمان	-9.94756
▁FEC	-9.94768
▁فریا	-9.94854
▁Mal	-9.94871
▁JI	-9.94901
▁ھ	-9.94901
▁Vê	-9.94915
▁خاک	-9.94942
▁شێت	-9.95034
▁رهات	-9.95067
▁jor	-9.95072
▁Bar	-9.95089
war	-9.95112
▁serdana	-9.95155
▁ئەی	-9.95174
îs	-9.95218
▁باری	-9.95221
....	-9.95244
▁çêtir	-9.95301
NA	-9.95405
▁Ad	-9.95407
▁quality	-9.9541
▁دەبن	-9.95505
hu	-9.95529
ag	-9.95558
فی	-9.95651
▁ڕوان	-9.95666
ray	-9.95678
▁spî	-9.95712
lat	-9.95738
▁download	-9.95746
▁یاندنی	-9.95791
▁بێزار	-9.95844
▁ئازاد	-9.95875
500	-9.95897
▁پاش	-9.95902
▁ئاسووده	-9.95913
▁درۆزن	-9.95914
▁Con	-9.96072
▁gu	-9.96077
▁بەرەو	-9.96084
▁perwerde	-9.9615
ڕو	-9.96162
▁doz	-9.96239
ەتەوە	-9.96241
▁بپارێزن	-9.96249
▁balkêş	-9.96259
eyek	-9.9631
▁پله	-9.96415
bu	-9.96426
▁ماوەی	-9.96428
▁زمانی	-9.96495
▁go	-9.96654
▁زاتێک	-9.96696
▁دراوه	-9.96709
▁تاو	-9.96728
▁bên	-9.9673
▁فرین	-9.9673
▁tevahî	-9.96762
▁ex	-9.96774
bet	-9.9684
▁شیر	-9.96904
▁رپێچی	-9.96926
▁حساب	-9.96926
▁pirsgirêk	-9.96933
▁بریتی	-9.96949
▁xebatê	-9.97003
▁وێڵ	-9.97065
▁tattoo	-9.97095
▁bûye	-9.97106
▁bernameya	-9.97111
▁کۆچ	-9.97125
كرد	-9.97143
kerê	-9.97149
▁Stenbolê	-9.9724
▁کێو	-9.97324
▁bu	-9.97451
▁weşandin	-9.97474
▁baştir	-9.97548
▁تەنیا	-9.97551
▁کتان	-9.97558
ێنم	-9.97567
▁xelat	-9.97614
▁zarok	-9.97679
▁وکات	-9.97709
par	-9.97779
▁kevir	-9.97782
▁بیم	-9.97837
▁کردووە	-9.97846
▁شیمان	-9.97888
ێکم	-9.98042
▁موسڵمان	-9.98043
▁parve	-9.98148
08	-9.98149
65	-9.98214
▁پشتیان	-9.98286
-20	-9.98329
▁یا	-9.98336
▁ندێ	-9.98453
34	-9.98459
▁Per	-9.98478
▁mala	-9.98514
ram	-9.98596
IR	-9.98631
▁Pe	-9.98655
خوا	-9.98662
rt	-9.98699
bol	-9.98739
▁نیاز	-9.98761
▁گێڕا	-9.98772
▁şûna	-9.98776
زانن	-9.98808
▁تاک	-9.98881
▁alîkarî	-9.99045
▁دڵیان	-9.99049
▁zû	-9.99112
EN	-9.99138
ial	-9.99164
▁ربگرن	-9.9924
▁«	-9.99258
گو	-9.99277
▁لاد	-9.99288
▁بینایه	-9.99323
▁more	-9.99351
▁guman	-9.99354
▁مین	-9.99369
tch	-9.99423
▁Tra	-9.99443
▁zehmet	-9.99503
mîn	-9.99563
nas	-9.99607
▁nêzîk	-9.99652
ct	-9.99657
▁xurt	-9.99681
ەخ	-9.99696
بوونی	-9.99719
گای	-9.99743
▁welatên	-9.99767
▁mil	-9.99801
اب	-9.99813
▁دانا	-9.99863
▁چارەسەر	-9.99921
▁Kir	-9.99941
▁رین	-9.99949
▁نێ	-9.99987
٧	-10.0003
▁rengê	-10.0003
▁Amerîka	-10.0014
pirs	-10.0017
▁شک	-10.0025
▁خاڵ	-10.0029
▁Dî	-10.0036
▁گر	-10.0039
NE	-10.0043
▁کرێ	-10.0046
▁rojê	-10.005
کەوت	-10.0055
riya	-10.0057
▁گران	-10.0058
line	-10.006
23	-10.006
▁here	-10.0064
چێت	-10.0066
▁شێوەیە	-10.0071
▁profesyonel	-10.0073
way	-10.008
zar	-10.0083
▁veguhestin	-10.0084
کێ	-10.0085
tur	-10.0089
▁بک	-10.0091
ۆس	-10.0091
▁Ru	-10.0094
▁sedema	-10.0101
▁tiştekî	-10.0104
mon	-10.0106
".	-10.0114
▁26	-10.0121
▁Navneteweyî	-10.0126
▁çarçoveya	-10.0126
bêj	-10.0129
رم	-10.0134
ala	-10.0139
▁Russian	-10.0144
zê	-10.0163
▁vi	-10.0169
ds	-10.017
ستان	-10.0171
▁hatibû	-10.0172
▁باڵ	-10.0175
▁سات	-10.0179
▁قازانج	-10.0179
▁گەشە	-10.018
▁لو	-10.018
ibe	-10.0189
▁kî	-10.0191
▁com	-10.0191
▁نائومێد	-10.0197
siyon	-10.0197
▁داخ	-10.0199
سە	-10.021
▁پیر	-10.0212
▁بوێت	-10.0213
▁باپیران	-10.0213
▁Çalak	-10.0223
ET	-10.0226
▁تە	-10.0227
▁فام	-10.0228
▁Fe	-10.0229
▁ڕووناکی	-10.0231
▁ڕازاوه	-10.0233
▁ئامێر	-10.0233
▁herêma	-10.0237
▁مێرد	-10.0237
▁خوێندن	-10.0238
▁Ri	-10.024
▁LibreELEC	-10.0251
▁Windows	-10.0251
▁psîkolojîk	-10.0255
▁بێجگ	-10.0255
▁خوێند	-10.0262
24	-10.028
▁şert	-10.028
▁ندێکیان	-10.0282
ێین	-10.0289
کرا	-10.029
▁metal	-10.0292
▁بزانێت	-10.0294
▁زۆربەی	-10.0296
▁xwarin	-10.0299
▁=	-10.0303
▁wiha	-10.0306
▁telefonê	-10.0309
▁دایه	-10.0312
▁Ze	-10.0316
47	-10.0322
▁بچوک	-10.0324
▁یانکرد	-10.0324
ikên	-10.0326
▁یب	-10.033
ning	-10.0334
▁جاڵ	-10.0335
▁OpenELEC	-10.0341
▁çiqas	-10.0341
▁top	-10.0341
04	-10.0346
دیار	-10.0357
ox	-10.0361
▁دووره	-10.0361
▁لەناو	-10.0364
▁£	-10.0364
▁têkilî	-10.0377
time	-10.0378
▁ڕق	-10.0381
ley	-10.0385
rb	-10.0386
▁ڵبژارد	-10.0386
▁پێک	-10.0388
چو	-10.0392
▁set	-10.0394
▁xwezayî	-10.0395
▁Hêza	-10.0397
▁ronahî	-10.0413
48	-10.0416
دراو	-10.0417
şîn	-10.0421
ring	-10.0422
▁خواناسی	-10.0429
nameyê	-10.0429
▁سپ	-10.0431
name	-10.0432
▁باڵند	-10.0433
شیان	-10.0436
▁or	-10.044
▁تەواو	-10.0445
▁rojnameger	-10.045
▁Or	-10.045
اف	-10.0487
▁pol	-10.0487
▁لوط	-10.0489
▁Plan	-10.0491
▁جوو	-10.0495
▁Rê	-10.05
ator	-10.0501
▁înternetê	-10.0505
▁China	-10.0507
▁xêr	-10.0509
▁action	-10.0509
înî	-10.0513
پێش	-10.0517
▁جو	-10.0522
▁Amerîkî	-10.0523
▁civîn	-10.0524
▁بووە	-10.0531
io	-10.0531
sc	-10.0532
▁سامناک	-10.0542
▁rêwîtiyê	-10.0542
▁LED	-10.0543
▁گرتن	-10.0543
▁رمی	-10.0546
▁نیە	-10.0551
tr	-10.0554
▁License	-10.056
zi	-10.0563
22	-10.0565
▁asteng	-10.0579
▁گوێی	-10.0583
▁Ewropa	-10.0591
ack	-10.0595
▁ناسی	-10.0596
о	-10.0597
▁laser	-10.06
▁Qu	-10.0605
ral	-10.0607
▁ڕدار	-10.0613
ەکەت	-10.0621
95	-10.0624
tro	-10.0624
ھ	-10.0632
▁as	-10.0639
▁خاوێن	-10.0641
▁Hê	-10.0642
▁لێرە	-10.0642
▁بەڕاستی	-10.0654
▁Pirs	-10.0658
وین	-10.0659
manî	-10.0661
▁cur	-10.0664
▁çav	-10.0671
کردنەوەی	-10.0671
▁Gi	-10.0672
é	-10.0672
▁Pêşniyar	-10.0672
▁dawiya	-10.0672
▁kêfxweş	-10.0672
▁سەیر	-10.0673
▁sporê	-10.0674
کەم	-10.0676
form	-10.0677
▁Po	-10.0684
▁Serokê	-10.0689
▁Free	-10.0691
gan	-10.0692
ata	-10.0693
▁pîşesaziya	-10.0694
tinê	-10.0696
▁El	-10.0702
▁كردن	-10.0704
▁ریك	-10.0705
res	-10.0706
▁binivîse	-10.071
▁[1]	-10.0711
▁ئاگاداربن	-10.0715
▁نووس	-10.0721
الله	-10.0723
▁ئامادە	-10.0728
▁نادات	-10.0729
▁ڵدا	-10.0737
▁keç	-10.0742
▁mobîl	-10.0747
▁winda	-10.0749
har	-10.0752
gr	-10.076
49	-10.076
▁درا	-10.0762
▁ناچاری	-10.0762
org	-10.0764
▁Taybet	-10.0766
▁پێدراوه	-10.0766
▁ڕێگە	-10.0769
نج	-10.078
▁بینین	-10.0782
▁title	-10.0785
٦	-10.0791
▁balafirên	-10.0792
▁Pi	-10.0795
شار	-10.0808
▁tev	-10.0812
▁کیش	-10.0815
pp	-10.0819
kol	-10.0819
▁tevahiya	-10.0824
+	-10.0825
چه	-10.0827
▁100%	-10.083
▁weha	-10.0832
▁tîne	-10.0833
▁سر	-10.0839
کەین	-10.0841
نگ	-10.0841
▁جۆرە	-10.0842
bit	-10.0842
▁گرنگی	-10.0852
ییەوە	-10.0858
sin	-10.086
من	-10.0862
▁گۆ	-10.0882
▁ردگارمان	-10.0884
▁بس	-10.0887
kt	-10.089
▁ڕێگەی	-10.0893
ژن	-10.0893
su	-10.09
ikê	-10.0903
▁زر	-10.091
ساز	-10.091
▁ناخ	-10.0913
▁دەتوانن	-10.0918
▁ئاشکراو	-10.0922
حه	-10.093
▁hewceyê	-10.0934
▁گوێڕای	-10.0938
▁ئاسایی	-10.0939
▁حەز	-10.094
▁IP	-10.0946
girtî	-10.0949
▁Air	-10.0953
▁شوێنێک	-10.0955
29	-10.0956
▁heyî	-10.0962
roj	-10.0965
ress	-10.0965
▁par	-10.0983
▁hêvî	-10.0984
▁http	-10.0996
ترو	-10.0997
▁kuştin	-10.0998
ele	-10.1005
▁tomar	-10.1005
ûl	-10.1006
یانە	-10.1007
rin	-10.1009
ium	-10.1009
▁بارودۆخ	-10.1015
▁ڕێنمووی	-10.1015
ling	-10.1025
▁Wî	-10.1031
îkî	-10.1032
▁Eutelsat	-10.1034
▁hişyar	-10.1034
▁ciwan	-10.1034
oka	-10.1037
▁ڕام	-10.1041
▁pêl	-10.105
▁پارە	-10.1055
▁بەرهەم	-10.1055
▁لەوە	-10.1055
▁تکا	-10.1056
▁قڵ	-10.1058
خواز	-10.1059
▁قینی	-10.106
▁pakêta	-10.1062
▁تێکی	-10.1064
▁کاریگەری	-10.1067
▁hilberên	-10.1068
ble	-10.1073
▁For	-10.1075
▁pelê	-10.1076
55	-10.1085
▁بیستن	-10.1088
اندنی	-10.1096
▁وێنە	-10.1106
set	-10.1108
jo	-10.1108
▁app	-10.1111
بون	-10.1114
37	-10.1116
▁zanîngehê	-10.1125
▁pirtûka	-10.1127
0,000	-10.1128
ome	-10.1129
▁ھە	-10.1129
▁پیا	-10.1133
▁بڕوای	-10.1135
▁ڵیان	-10.1145
▁چەندین	-10.1147
▁بنچین	-10.1151
▁warê	-10.1151
îf	-10.1153
كراو	-10.1155
▁راب	-10.1159
▁بخات	-10.1166
▁Çîn	-10.1168
▁Têkilî	-10.1168
▁pênc	-10.1172
▁لایەن	-10.1187
ę	-10.119
ys	-10.1192
zer	-10.1196
▁مای	-10.1197
بژارد	-10.12
ric	-10.1204
ven	-10.1205
ock	-10.1206
▁ڕووخسار	-10.121
▁باوەڕ	-10.1211
▁دڵنیایی	-10.1213
▁ستایشی	-10.1223
xwar	-10.1223
▁zimanê	-10.1224
▁ar	-10.1234
ێز	-10.1243
▁نیانه	-10.1247
▁elektrîkê	-10.1249
▁BİXWÎNE	-10.125
▁hesab	-10.125
▁وەڵام	-10.1251
▁xwediyê	-10.126
خان	-10.1261
وڵ	-10.1263
▁بزان	-10.1264
▁500	-10.1265
▁دڵسۆز	-10.1269
ny	-10.1269
▁تایبەت	-10.1269
▁Îngilîzî	-10.127
▁29	-10.1278
▁hilberîn	-10.1278
▁ى	-10.1282
▁شا	-10.1297
▁سوڕ	-10.1309
▁ئارامی	-10.131
66	-10.1311
▁naveroka	-10.1318
▁mas	-10.132
▁بکە	-10.1325
▁تیاچوون	-10.133
▁lêgerîn	-10.134
nde	-10.1343
iyeke	-10.1343
▁Bilind	-10.1349
▁سەرەتا	-10.1351
▁قوڕ	-10.1351
▁1,	-10.1352
▁بوار	-10.1355
دن	-10.1358
▁tek	-10.1359
▁زاند	-10.1364
ug	-10.1368
▁seranserê	-10.1369
▁Bel	-10.1371
▁دەب	-10.1375
▁gir	-10.1375
▁va	-10.1382
▁خێرایی	-10.1383
▁Par	-10.1385
şik	-10.1388
IS	-10.1388
▁damezrandin	-10.1389
hen	-10.1393
ینە	-10.1394
▁تای	-10.1397
MA	-10.1406
▁çêtirîn	-10.1407
▁ڕێباز	-10.1407
▁سڵاو	-10.141
▁panel	-10.141
▁ئایین	-10.1412
▁ناپ	-10.1421
وح	-10.1424
▁elektronîk	-10.143
▁شتە	-10.143
▁یادا	-10.1435
▁jin	-10.1444
ext	-10.1451
pro	-10.1454
ON	-10.1458
list	-10.1462
▁wi	-10.1463
▁meh	-10.1467
▁ردار	-10.1469
▁©	-10.1476
▁navîn	-10.1478
▁سێکی	-10.1484
▁BO	-10.1485
▁PC	-10.1489
▁Tîrmeh	-10.149
▁Kon	-10.1494
▁گومانی	-10.1497
cl	-10.1499
▁pêşîn	-10.15
▁گومڕای	-10.1502
▁گوێیان	-10.1504
Bi	-10.1507
▁nikare	-10.1511
▁piranî	-10.1513
▁بته	-10.1513
▁rêve	-10.1513
cr	-10.1514
▁taybetmendiyên	-10.1515
اک	-10.1516
▁Home	-10.1517
▁شوێنێکی	-10.1523
▁Ava	-10.153
▁bikim	-10.1531
▁یارو	-10.1534
▁Gav	-10.154
تێ	-10.154
زۆر	-10.1547
▁pîşesaziyê	-10.1551
xBet	-10.1551
kevin	-10.1552
▁pola	-10.1554
▁Man	-10.1558
▁qezenc	-10.1572
SA	-10.1578
▁ئاسانی	-10.158
ناو	-10.1587
▁encam	-10.1588
▁firotin	-10.1592
▁Download	-10.1592
▁گۆڕانکاری	-10.1594
▁رچوون	-10.1597
cor	-10.1598
îş	-10.1604
چە	-10.1609
▁weşan	-10.161
AL	-10.161
îyê	-10.1612
هێنا	-10.1614
press	-10.1617
.”	-10.162
▁گەشت	-10.1623
gen	-10.1623
▁شیمانی	-10.1625
▁at	-10.1627
▁قی	-10.163
▁ڵك	-10.163
ret	-10.1632
▁dibin	-10.1633
38	-10.1634
TS	-10.1635
▁وایان	-10.1637
▁dewletê	-10.1646
erî	-10.1649
nda	-10.1651
▁hesabê	-10.1654
▁Rêveberiya	-10.1659
▁بازرگانی	-10.1662
▁mirovan	-10.1666
▁ڕاستگۆ	-10.1669
▁27	-10.167
▁Dest	-10.1673
▁dibêjin	-10.1675
▁ئیل	-10.1682
▁dar	-10.1683
▁beşdar	-10.1685
▁ئارامگر	-10.1689
▁salên	-10.1692
▁دڵنیاش	-10.1693
dariya	-10.1693
▁agahiyên	-10.1695
▁Başûr	-10.1696
▁Web	-10.1697
▁Navîn	-10.1702
ics	-10.1703
nameya	-10.1706
▁ناردوو	-10.1709
▁ئاگاداری	-10.1714
▁malperên	-10.1714
▁werger	-10.1716
▁mêvan	-10.1717
▁2012	-10.172
▁bûyer	-10.1726
▁سانێك	-10.1727
▁مانگی	-10.1734
٨	-10.1737
▁مامۆستا	-10.1737
▁گرتۆت	-10.174
▁Rûsyayê	-10.1741
▁ڕاب	-10.1742
hy	-10.1745
▁veguhestina	-10.1746
▁دنیاو	-10.1748
كار	-10.1748
▁شاد	-10.1753
٩	-10.1758
▁لێدان	-10.1758
▁مزگ	-10.1759
▁سول	-10.1761
▁توانێت	-10.1761
تن	-10.1763
Di	-10.1764
▁خیان	-10.1771
ینەوە	-10.1772
▁36	-10.1773
▁makîne	-10.1775
39	-10.1776
▁av	-10.1776
▁bandorên	-10.1777
▁pîvan	-10.1778
▁دەکەیت	-10.1782
▁email	-10.1783
▁daneyên	-10.1785
▁Parastina	-10.1785
▁avakirin	-10.1786
▁پێویسته	-10.1791
▁raman	-10.1792
▁machine	-10.18
▁موجا	-10.18
▁Bajarê	-10.18
ated	-10.1801
گەی	-10.1802
▁pişk	-10.1804
دڵ	-10.1806
▁رفرازی	-10.1816
▁هێزی	-10.1816
زاته	-10.1816
▁بەوە	-10.1818
▁Hejmara	-10.1819
▁navxweyî	-10.1821
▁نموونە	-10.1821
anîna	-10.1824
▁وتنی	-10.1826
sal	-10.1831
▁perwerdeya	-10.1831
▁کاتێ	-10.1837
▁بوویت	-10.1841
▁Iraqê	-10.1842
▁Wek	-10.1846
▁دەرەوە	-10.185
tiyê	-10.185
▁پێنج	-10.1852
▁derxistin	-10.1852
▁ناوه	-10.1856
ens	-10.1859
88	-10.186
box	-10.186
▁parçeyên	-10.1864
▁کمان	-10.1869
▁avêtin	-10.1873
▁یاند	-10.1881
▁KDE	-10.1887
mên	-10.189
tes	-10.1894
▁didin	-10.19
▁çalakiyên	-10.1902
▁دەرکەوت	-10.1904
MP	-10.1904
▁Niştimanî	-10.1905
▁şa	-10.1912
▁xwendina	-10.1913
▁هاواری	-10.1915
▁qet	-10.1932
44	-10.1933
77	-10.1942
ویت	-10.1943
▁هێنین	-10.1944
▁IPtv	-10.1947
ۆڕ	-10.195
▁girêdan	-10.1952
▁reş	-10.1959
▁خشیوو	-10.196
ob	-10.1965
gg	-10.1966
▁جێبه	-10.1968
mir	-10.1969
▁داخوازی	-10.197
▁ragihand	-10.1971
▁Hi	-10.1979
lf	-10.1982
▁Deng	-10.1983
▁راه	-10.1985
▁ناوێت	-10.1989
▁Beş	-10.1989
▁بیری	-10.1991
▁vedi	-10.1992
▁دابین	-10.1999
یەتی	-10.1999
▁https	-10.2003
▁چاودێر	-10.2011
▁eşkereyî	-10.2014
▁دڵنیاب	-10.2017
ty	-10.2021
que	-10.2023
ول	-10.2023
خۆش	-10.2029
▁ستدرێژی	-10.2031
▁ferman	-10.2034
▁کوفر	-10.2037
▁بكات	-10.2038
▁mafê	-10.2039
by	-10.2055
▁بەهۆی	-10.2055
▁pay	-10.2059
sen	-10.2062
ort	-10.2066
200	-10.2069
▁Hin	-10.2072
ich	-10.2078
▁بدرێت	-10.2083
ical	-10.209
▁شتانە	-10.209
▁bersiv	-10.2095
▁مر	-10.2098
lik	-10.2099
▁kesan	-10.2102
▁derfet	-10.2108
ڕێژ	-10.2108
▁پێکه	-10.2109
▁Hat	-10.2117
800	-10.2119
of	-10.2124
ted	-10.2135
-15	-10.2136
▁biryara	-10.2138
▁لاو	-10.214
raz	-10.214
▁hevdîtin	-10.2142
▁هەتا	-10.2142
ney	-10.2151
-3	-10.2151
▁hejmar	-10.2153
▁man	-10.2155
▁serê	-10.2156
▁قوربانی	-10.2162
بینی	-10.2168
rist	-10.217
▁normal	-10.2184
▁cam	-10.2192
▁پێشک	-10.2192
▁nerm	-10.2192
lam	-10.2192
اق	-10.2193
▁زیو	-10.2194
▁pîroz	-10.2206
است	-10.2217
var	-10.2217
▁BI	-10.2217
▁Satellite	-10.2228
▁meriv	-10.2228
▁destpêka	-10.2232
▁روا	-10.2233
▁توندو	-10.2236
▁diçe	-10.2237
blo	-10.2238
▁bang	-10.224
▁amûr	-10.224
▁projeyên	-10.2241
بوونه	-10.2242
▁Kom	-10.2244
ێکتان	-10.2252
dom	-10.2258
red	-10.2258
low	-10.2261
▁Mêr	-10.2267
▁فریای	-10.2268
US	-10.2271
▁yekemîn	-10.2271
بوونەوە	-10.2273
▁وایی	-10.2274
oc	-10.2278
▁نداز	-10.2285
▁نەک	-10.2286
sat	-10.2295
▁digire	-10.2295
RO	-10.2322
▁ستهێنانی	-10.2325
▁ـ	-10.2326
▁Wê	-10.2327
▁ستێت	-10.2329
ris	-10.2333
YA	-10.234
zay	-10.2345
فت	-10.2345
▁pre	-10.2352
كی	-10.2354
▁çewt	-10.2357
▁derbasdar	-10.2362
85	-10.2367
▁سنووری	-10.237
2016	-10.237
▁sazkirina	-10.2375
▁axa	-10.2377
▁CNC	-10.2382
hr	-10.2382
▁ئامانج	-10.2382
خوای	-10.2387
sy	-10.239
MC	-10.2399
▁Enigma	-10.2404
▁خۆڕاگر	-10.2404
▁firotina	-10.2405
ME	-10.2405
lic	-10.2405
▁pel	-10.2408
▁حاڵه	-10.2412
▁xwendin	-10.2414
lîk	-10.2417
▁دروستکراو	-10.2419
▁blog	-10.2422
دەن	-10.2424
▁q	-10.2425
▁agahdariya	-10.2426
▁لووت	-10.243
ێکیش	-10.2439
▁karsaziyê	-10.2442
ێم	-10.2447
▁بکوژ	-10.2449
▁شان	-10.2451
chi	-10.2453
▁kalîteya	-10.2456
▁Roj	-10.2456
▁پێت	-10.2458
▁دروستکردنی	-10.2459
▁لەوەی	-10.2461
سو	-10.2463
ماڵ	-10.2464
ms	-10.2467
▁گە	-10.2468
ûm	-10.247
28	-10.2476
86	-10.2487
▁چاکان	-10.2488
▁پشتگیری	-10.2494
▁چاویان	-10.2494
▁پیرۆزه	-10.2499
▁aborî	-10.2501
gehên	-10.2504
▁cure	-10.2508
▁31	-10.2511
02	-10.2511
▁tra	-10.2512
▁Nûçe	-10.2515
▁فرستاد	-10.2516
▁داوێن	-10.2521
وری	-10.2526
▁Ex	-10.2531
▁بەشێک	-10.2532
▁doza	-10.2533
▁hişk	-10.2534
kg	-10.2535
ئینجا	-10.2535
▁danîn	-10.2536
ەکاندا	-10.2539
▁عاد	-10.254
▁لێکراو	-10.2543
▁رگری	-10.2547
▁بانگی	-10.2547
▁گا	-10.2553
▁kapasîteya	-10.2561
▁عیسا	-10.2561
▁ferheng	-10.2561
trol	-10.2562
▁دیارد	-10.2564
▁ڕێك	-10.2567
درێت	-10.2567
out	-10.2573
رس	-10.2576
▁dîjîtal	-10.2584
گرت	-10.2591
▁نزیکەی	-10.2592
▁باشترین	-10.2592
▁Wêne	-10.2593
▁cûr	-10.2595
▁în	-10.2601
▁qada	-10.2604
▁veşartî	-10.2606
ۆم	-10.2612
▁نییه	-10.2614
▁heya	-10.2615
▁Sor	-10.2615
▁ملیۆن	-10.262
pl	-10.262
▁hêsantir	-10.2623
karên	-10.2627
ous	-10.2639
▁Fer	-10.264
▁بیروباو	-10.2641
▁بۆم	-10.2643
▁şi	-10.2645
▁زی	-10.2648
lon	-10.2649
▁pirsgirêkên	-10.2651
ary	-10.2651
▁demjimêr	-10.2652
▁Mesîh	-10.2652
pî	-10.2653
67	-10.2655
06	-10.2656
▁Kes	-10.2662
▁دنیایه	-10.2663
▁cryptocurrency	-10.2664
▁بێن	-10.2664
▁مووتان	-10.2664
▁لادان	-10.2669
SS	-10.2671
▁کوڵ	-10.2673
▁duyemîn	-10.2677
▁بش	-10.2677
cy	-10.2682
▁amûrên	-10.2686
▁sar	-10.2688
▁hezar	-10.2689
AD	-10.2694
٢	-10.2696
parêz	-10.2697
▁کوشت	-10.2698
ES	-10.2698
▁Tirkiyeyê	-10.2701
▁tiştê	-10.2703
▁kod	-10.2704
▁تاریکی	-10.2704
بیت	-10.2707
▁Wal	-10.2711
ەتی	-10.2713
cih	-10.2716
▁hewa	-10.272
board	-10.272
▁ندان	-10.2721
▁dixebite	-10.2726
▁نانی	-10.2726
OR	-10.273
▁Mon	-10.2731
cê	-10.2732
▁دەچ	-10.2739
▁سەرنج	-10.2747
▁babet	-10.2747
▁saetan	-10.276
▁mehan	-10.2762
▁بەهێز	-10.2767
▁نێن	-10.2768
▁type	-10.2773
▁دادو	-10.2773
gor	-10.2774
▁نگن	-10.2777
▁armanca	-10.2777
▁hilbijartin	-10.2782
خۆی	-10.2787
▁zarokên	-10.2788
▁گۆڕان	-10.279
▁وەر	-10.2792
hêl	-10.2802
▁٣	-10.2808
▁زل	-10.2811
▁بەڵکو	-10.2813
▁زنجیر	-10.2813
▁ئوم	-10.2814
can	-10.2815
▁کانت	-10.2818
▁rewşê	-10.2818
awa	-10.2818
هێنانی	-10.2819
▁Je	-10.2821
ڵا	-10.2825
ibû	-10.2828
PSK	-10.2834
27	-10.2835
anîn	-10.2836
▁موشریک	-10.2836
70	-10.2843
ێتەوە	-10.2849
▁نن	-10.2851
▁کانیاندا	-10.2851
▁Kurdistanê	-10.2852
ەتە	-10.2858
Ç	-10.2859
▁danûstandin	-10.2859
▁hundir	-10.2859
▁Lu	-10.2861
43	-10.2864
▁ڕێزه	-10.2866
▁daxwazên	-10.2867
▁خی	-10.287
▁bûyerên	-10.2873
▁Dibe	-10.2875
▁derket	-10.2877
ST	-10.2879
▁(1)	-10.2884
ban	-10.2884
saz	-10.2888
dû	-10.2893
▁barkirin	-10.2894
▁bigire	-10.2898
▁şaş	-10.2898
▁am	-10.2905
▁çêbikin	-10.2906
▁makîneya	-10.2907
ins	-10.2914
ach	-10.2916
▁nivîsandin	-10.2924
35	-10.2927
▁Bila	-10.2929
▁bacê	-10.2934
زار	-10.2936
▁هێنان	-10.2943
▁Channel	-10.2946
▁شارو	-10.2948
Li	-10.2952
▁ewlehiyê	-10.2953
▁دووبارە	-10.2953
▁درێن	-10.2953
*	-10.2953
ord	-10.2957
▁mû	-10.2959
▁ze	-10.296
▁هیوا	-10.2963
▁can	-10.2974
cer	-10.2975
رین	-10.2977
▁ئەمڕۆ	-10.2983
بەخش	-10.2984
darê	-10.2988
ure	-10.2991
CE	-10.2998
ara	-10.2999
▁Ltd	-10.3
▁پاشا	-10.3002
ert	-10.3007
هاتوو	-10.3007
axê	-10.3008
▁drav	-10.3014
tri	-10.3016
vanên	-10.3016
SP	-10.302
car	-10.3021
▁Facebook	-10.3023
▁demeke	-10.3023
▁ساد	-10.3024
▁Pîvan	-10.3024
▁گاور	-10.3025
96	-10.3026
▁hevalên	-10.3027
▁pejirandin	-10.3032
▁کردوه	-10.3034
▁پار	-10.3034
▁جێگیر	-10.3034
▁sî	-10.3038
ناس	-10.304
▁heke	-10.3041
▁تاوانکار	-10.3043
▁pirtûk	-10.3046
▁Wezareta	-10.3047
▁Girêdan	-10.3047
andinê	-10.3055
▁kirine	-10.3059
cc	-10.3062
▁سامانیان	-10.307
▁populer	-10.3071
▁pêvajoyê	-10.3071
▁Hot	-10.3078
▁ریش	-10.3083
▁شێوازی	-10.3085
▁dane	-10.3087
▁karker	-10.3088
▁پارێز	-10.3093
IC	-10.3094
▁dixwazim	-10.3095
▁komputer	-10.3095
▁كتێب	-10.3095
▁Ju	-10.3096
▁encama	-10.3096
▁نادروست	-10.3098
▁lîstik	-10.3099
▁هێنانی	-10.3102
▁mînak	-10.3104
تدا	-10.3105
▁90	-10.3109
hatin	-10.3111
avê	-10.3118
▁daxwaza	-10.312
▁جیهاندا	-10.3132
▁هێناو	-10.3134
▁piştgirî	-10.3142
▁گوت	-10.3147
▁بەدەست	-10.3149
چەپڵە	-10.3153
▁xizmetê	-10.3156
ەکانم	-10.3157
▁بتان	-10.3161
▁daxistin	-10.3166
asyonê	-10.3166
▁بچێژن	-10.3166
▁YouTube	-10.3166
▁biyanî	-10.3168
▁داناوه	-10.3171
▁سوو	-10.3171
▁کراون	-10.3174
▁Tenê	-10.3175
▁girtî	-10.3177
▁mezintir	-10.3183
▁ڕووداو	-10.3186
▁ئاشكرا	-10.3191
bûyî	-10.3191
▁key	-10.3192
▁زانین	-10.3194
کس	-10.3196
▁دانایی	-10.32
▁endamên	-10.3201
IT	-10.3203
▁form	-10.3204
vis	-10.3208
33	-10.3209
▁مایه	-10.321
▁Ga	-10.3213
فرۆش	-10.3214
▁hevkar	-10.3215
▁În	-10.3221
girtin	-10.3223
▁ئاشکرای	-10.3225
▁جۆرێک	-10.3231
▁ئاسانه	-10.3232
▁نایان	-10.3234
▁سنووره	-10.3234
▁blockchain	-10.3239
▁dengê	-10.3241
ou	-10.3242
▁نۆ	-10.3244
▁werin	-10.3249
▁هێن	-10.3249
▁دراو	-10.3257
rêj	-10.326
گەر	-10.326
▁Pergala	-10.3263
▁otomatîk	-10.3263
▁برێن	-10.3265
▁hûr	-10.3267
▁٢	-10.3274
rk	-10.3274
▁Port	-10.3277
▁نال	-10.3287
▁Hemî	-10.3293
▁Hol	-10.3307
▁gund	-10.3311
▁rojên	-10.3313
▁ga	-10.3314
▁u	-10.3318
▁نزیکی	-10.3326
Ma	-10.3329
▁software	-10.3336
03	-10.3338
26	-10.3343
▁sedî	-10.3344
▁Hu	-10.3345
ووت	-10.3346
▁baştirîn	-10.3348
▁Ab	-10.3354
▁مافی	-10.336
▁cûda	-10.336
▁ترسێن	-10.3364
▁OF	-10.3365
ktor	-10.3365
▁سامانی	-10.3368
64	-10.3369
▁Post	-10.3373
TO	-10.3374
RE	-10.338
▁kirîna	-10.3381
شتان	-10.3385
▁fêm	-10.3385
lû	-10.339
شێ	-10.3393
▁€	-10.3393
▁وار	-10.3403
▁مێک	-10.3404
▁herêmê	-10.3408
ێی	-10.3409
▁قوتابخانە	-10.3409
▁دایکی	-10.3411
▁tevger	-10.3412
dro	-10.3413
▁پاداشتیان	-10.3414
٣	-10.3415
light	-10.3424
▁deyn	-10.3425
▁[...]	-10.3434
▁پۆشاک	-10.3434
▁cinsî	-10.3434
▁سەد	-10.3437
zin	-10.344
98	-10.3443
▁jêrîn	-10.3447
hil	-10.345
▁مرد	-10.3453
▁مانای	-10.3455
çik	-10.3456
▁ڕۆح	-10.3464
ەکەمان	-10.3465
▁بڵێم	-10.3466
کردووه	-10.3468
▁نێو	-10.3471
▁saet	-10.3473
▁باڵا	-10.3473
▁باب	-10.3475
کەن	-10.3476
▁هێناون	-10.3482
tre	-10.3484
▁تام	-10.3484
▁pakêtê	-10.3489
▁kesek	-10.3495
56	-10.3497
▁bîra	-10.3498
RT	-10.3499
▁bikî	-10.35
▁کراوی	-10.35
▁mal	-10.3502
▁Video	-10.3509
▁ورو	-10.3509
▁rabû	-10.3511
▁رستراو	-10.3513
ound	-10.3516
▁جۆراو	-10.3516
▁گفتوگۆ	-10.3518
▁Lîsteya	-10.3518
▁Ki	-10.3525
▁Bal	-10.3529
▁Read	-10.3532
▁بەشێوەیەک	-10.3533
▁لەوێ	-10.3534
45	-10.3535
DA	-10.3545
oma	-10.3545
▁mir	-10.3552
sco	-10.3553
▁Wa	-10.3553
▁Che	-10.3557
▁00	-10.3557
▁رشۆڕ	-10.3558
▁شێوە	-10.3558
ێنەر	-10.3564
▁jiyanê	-10.3564
°	-10.3565
ular	-10.3566
▁benda	-10.3567
گرین	-10.3574
لک	-10.3576
▁گیرا	-10.3576
gî	-10.3576
هێنان	-10.3577
▁''	-10.3578
▁daxwaz	-10.3582
len	-10.3582
▁dawiyê	-10.3583
▁full	-10.3583
▁Mer	-10.3588
راوە	-10.3589
▁sepan	-10.36
▁destûra	-10.3603
▁'%	-10.3608
▁salî	-10.361
▁بپرس	-10.3618
▁Can	-10.3619
63	-10.3621
▁fo	-10.3629
▁navnetewî	-10.3633
▁گوناهبار	-10.364
76	-10.3642
▁trans	-10.365
▁navneteweyî	-10.3659
▁جیهاد	-10.3659
▁Alîkar	-10.3659
▁Fo	-10.366
دەم	-10.3662
rop	-10.3663
▁Lî	-10.3664
▁Çiyayê	-10.3664
▁çêkir	-10.3665
sor	-10.3668
واز	-10.367
▁ڵاق	-10.3672
▁ڕزگارمان	-10.3678
▁رموو	-10.3679
وانی	-10.3679
▁ردانی	-10.3682
▁Enstîtuya	-10.3684
▁dibistanê	-10.3684
▁دووباره	-10.3685
▁ناك	-10.3688
▁series	-10.3689
▁ئافرەت	-10.369
▁ماندوو	-10.3692
lk	-10.3694
97	-10.3695
eyan	-10.3696
▁داون	-10.3698
▁ماو	-10.3702
▁دڵت	-10.3709
▁th	-10.3709
▁عقوب	-10.3709
▁piraniya	-10.3709
▁ئەمانە	-10.3712
▁gr	-10.3722
▁تیژ	-10.3723
▁medyayê	-10.3728
▁توندی	-10.3733
▁mîheng	-10.3734
▁xilas	-10.3734
▁binêrin	-10.3735
▁lêpirsîn	-10.3735
▁گەنج	-10.3735
old	-10.3735
▁Kurd	-10.374
nes	-10.3742
▁رێك	-10.3745
بات	-10.375
▁Pre	-10.3752
agon	-10.3754
▁گێڕن	-10.3761
ketina	-10.3767
▁کورت	-10.3767
▁Av	-10.377
▁ziman	-10.3778
▁Almanya	-10.3779
▁mirovên	-10.3781
▁Navnetewî	-10.3785
▁beşdarî	-10.3799
▁Pir	-10.3803
▁Jê	-10.3803
▁روو	-10.3804
▁heft	-10.3805
▁xemgîn	-10.3811
▁سکی	-10.3812
پۆ	-10.3815
▁تازه	-10.3817
bel	-10.3819
▁Vebijêrk	-10.3819
▁off	-10.3819
oz	-10.3819
▁براک	-10.382
▁High	-10.382
▁هەمو	-10.3823
▁SR	-10.3834
▁xeta	-10.3835
▁Tebax	-10.3836
▁you	-10.3837
▁سپی	-10.384
ەکەدا	-10.3841
▁پارێزکاران	-10.3842
dge	-10.3842
▁dad	-10.3842
▁nexş	-10.3843
rate	-10.3846
▁ragihandin	-10.3847
îyên	-10.3847
▁çareser	-10.3849
چن	-10.385
▁su	-10.3856
ÊN	-10.3857
▁ژاران	-10.3858
▁Gel	-10.3862
▁ناپوخت	-10.3862
▁هەزار	-10.3863
▁بری	-10.3867
▁تازە	-10.3868
▁دانیشت	-10.3869
nîk	-10.3869
▁بڕی	-10.3872
خو	-10.3876
▁pîşesazî	-10.3881
▁it	-10.3883
▁cihên	-10.3884
ue	-10.3887
▁نێر	-10.3891
ult	-10.3896
tik	-10.3905
▁تمان	-10.3911
dal	-10.3912
زم	-10.3912
▁dewlemend	-10.3914
▁label	-10.3915
▁ce	-10.3929
çê	-10.3929
▁پێشهات	-10.3934
باوه	-10.3934
DE	-10.3934
▁best	-10.3935
▁lîst	-10.3936
▁گات	-10.3938
▁Parîsê	-10.394
▁ڕوناکی	-10.3945
▁یاندا	-10.3945
59	-10.3949
▁تێکه	-10.3953
▁تاقیکردن	-10.3955
word	-10.3955
:%	-10.3955
▁تیم	-10.3956
fu	-10.3963
▁bandora	-10.3965
▁نیم	-10.3965
▁Language	-10.3966
▁نزیك	-10.3966
▁Versiyon	-10.3966
sel	-10.3971
şek	-10.3974
▁پێست	-10.3975
▁تۆوی	-10.3976
▁سیستەم	-10.398
▁ماشای	-10.3981
▁serbest	-10.3981
qanûn	-10.3987
▁Red	-10.3989
dd	-10.3989
▁دەیان	-10.3989
▁bir	-10.3994
▁dû	-10.3998
▁stran	-10.4003
и	-10.4003
▁پیش	-10.4008
▁not	-10.4014
▁English	-10.4018
▁piştrast	-10.4018
▁خوشک	-10.4018
▁سک	-10.402
▁sex	-10.4022
kû	-10.4024
▁Paş	-10.4026
▁رگرت	-10.4027
▁germê	-10.4028
▁پاب	-10.4028
▁dinyayê	-10.403
MS	-10.4031
▁Va	-10.4035
yr	-10.4039
▁کەمتر	-10.4043
şan	-10.4044
▁Xelat	-10.4044
▁وتووه	-10.4049
▁کارە	-10.4053
sed	-10.4054
▁zor	-10.4058
kr	-10.406
▁Pirtûka	-10.4064
▁barê	-10.4066
eyî	-10.4072
▁pêşketina	-10.4073
▁سارد	-10.4074
▁torê	-10.4075
▁Server	-10.4077
▁کاتێکی	-10.4078
▁نرخی	-10.4082
▁pirs	-10.4083
▁وشتر	-10.4087
UR	-10.4088
رایه	-10.4095
Generic	-10.4097
▁bimînin	-10.4097
▁وازیان	-10.41
▁kişand	-10.4101
ations	-10.4108
dor	-10.4115
▁یر	-10.4115
بەست	-10.4116
rast	-10.412
▁داب	-10.4127
خستن	-10.4129
▁ڕۆژێکی	-10.4133
▁جێنشین	-10.415
▁خۆزگ	-10.415
▁with	-10.4152
▁wisa	-10.4154
در	-10.4157
▁هاتنی	-10.4157
▁بد	-10.4164
▁nîv	-10.4172
▁zanist	-10.4179
und	-10.4181
▁live	-10.4188
▁گونجاو	-10.4189
▁مێنێت	-10.4193
▁گەر	-10.4193
▁شکست	-10.4197
▁ڕمان	-10.4197
پەڕ	-10.4199
▁5/6	-10.4203
▁Lêbelê	-10.4203
▁جەستە	-10.4203
▁item	-10.4205
▁Rast	-10.4208
▁pişt	-10.4211
▁پا	-10.4212
▁nebe	-10.4217
کر	-10.4221
▁file	-10.4224
▁مندا	-10.4225
▁gelê	-10.4225
▁malbata	-10.4227
▁هەرگیز	-10.4229
▁ناترسن	-10.4229
▁xebata	-10.4229
▁مەترسی	-10.423
▁rûniştin	-10.4231
▁کاتژمێر	-10.4235
▁نەخۆش	-10.4238
▁جیهانیان	-10.4241
fr	-10.4242
گرێت	-10.4245
▁ڵامدا	-10.4249
▁huner	-10.425
▁مێنن	-10.4252
avên	-10.4254
▁Pêdivî	-10.4256
▁هۆکاری	-10.4257
▁تاقم	-10.4257
wis	-10.426
ژێر	-10.4264
okê	-10.4266
ûs	-10.4272
top	-10.4273
birin	-10.4278
73	-10.428
au	-10.428
ووم	-10.428
▁celeb	-10.4283
▁bêhtir	-10.4283
▁سلیم	-10.4285
▁قوڵ	-10.4286
▁Sc	-10.4287
▁Erê	-10.4288
یەکانی	-10.4291
ings	-10.4292
▁پێکەنین	-10.4295
rek	-10.4299
mu	-10.4304
▁gazê	-10.4308
▁گۆڕی	-10.4309
▁veşartin	-10.431
▁مێژوو	-10.431
▁Hêzên	-10.431
▁پاڕاست	-10.431
▁ساڵێک	-10.4314
▁xweşik	-10.4315
TA	-10.4318
▁Mirov	-10.4319
bend	-10.432
-5	-10.4321
▁Berî	-10.4324
ـ	-10.4324
▁CO	-10.4332
68	-10.4334
▁wire	-10.4336
▁bitikîne	-10.4337
▁ئینجیل	-10.4337
▁کەسانە	-10.4338
▁bajêr	-10.4339
▁دانیشتوانی	-10.4342
▁digel	-10.4344
42	-10.4345
▁hilbijartina	-10.4346
▁واتا	-10.4346
▁نزیکه	-10.4349
▁میو	-10.435
▁دابێت	-10.4352
▁كانیان	-10.4355
54	-10.436
▁رێز	-10.436
▁zanistî	-10.4361
▁مۆر	-10.4362
gehê	-10.4366
▁كە	-10.4369
jêr	-10.4372
▁çand	-10.4372
▁بگۆڕ	-10.4374
▁belavkirina	-10.4375
یکی	-10.4386
▁peyka	-10.4388
▁tevlihev	-10.4391
▁کۆسپ	-10.4391
▁nirxandin	-10.4392
tel	-10.4395
▁Light	-10.4395
کراوه	-10.4396
▁veguherîn	-10.4399
٠٠	-10.4401
▁kûr	-10.4402
▁Pla	-10.4404
▁mirin	-10.4405
89	-10.4412
▁serî	-10.4417
erên	-10.442
كات	-10.4421
▁بج	-10.4421
▁کۆد	-10.4428
▁مل	-10.4435
rc	-10.4438
ص	-10.4442
▁veguhastin	-10.4445
▁Kanada	-10.4445
ەوا	-10.4447
▁خزمان	-10.4447
▁komp	-10.445
ess	-10.4452
سک	-10.4454
▁بچێت	-10.4458
▁peyman	-10.4459
▁مێك	-10.446
bra	-10.4461
▁çalakiya	-10.4462
▁نزم	-10.4465
ۆك	-10.4468
▁tool	-10.4468
▁ڕێژەی	-10.447
The	-10.447
▁sazkirin	-10.4471
▁reklam	-10.4473
▁Malpera	-10.4473
▁dîwar	-10.4474
▁un	-10.4476
▁پاشای	-10.4479
▁بون	-10.4481
▁پلان	-10.4482
▁لاش	-10.4484
▁رۆژ	-10.4487
▁dîroka	-10.4491
ویستای	-10.4493
▁خول	-10.4493
▁ماسی	-10.4494
▁ستووه	-10.4496
▁pisporên	-10.4499
▁میراتی	-10.45
▁کۆتای	-10.45
▁دەمەوێت	-10.4505
87	-10.4507
Re	-10.4507
▁شوو	-10.4516
--	-10.4517
▁خانە	-10.4523
yet	-10.4524
▁پێکهات	-10.4526
▁belge	-10.4526
▁dikarim	-10.4528
▁كاتێكدا	-10.4531
▁دەرمان	-10.4532
▁term	-10.4542
زێت	-10.4545
▁zarokan	-10.4545
▁سووک	-10.4553
▁منداڵەکان	-10.4553
یتەوە	-10.4554
▁یاسا	-10.4554
▁ronahiya	-10.4555
▁destnîşan	-10.4556
▁Euro	-10.4556
gel	-10.4559
▁تیشک	-10.4559
▁Ac	-10.4561
▁كردووه	-10.4564
▁metre	-10.4567
▁45	-10.4571
dêr	-10.458
▁helwesta	-10.4583
▁شارۆچک	-10.4583
▁bicîh	-10.4583
چاو	-10.4584
▁fêr	-10.4589
▁دینی	-10.4589
▁ders	-10.4596
▁ناڵ	-10.4597
▁بابەت	-10.46
▁؛	-10.4604
▁qedexe	-10.4606
▁bûne	-10.4609
▁Cîhanê	-10.4609
▁hakeman	-10.461
▁ئاڵۆز	-10.461
▁temaşe	-10.461
▁Dadgeha	-10.4611
rêz	-10.4615
▁tû	-10.4617
▁برای	-10.4618
▁pî	-10.4625
jen	-10.4627
▁welatê	-10.4628
▁سای	-10.4628
▁یری	-10.4629
▁چیان	-10.463
▁بڕۆ	-10.4637
▁deverên	-10.4639
▁80	-10.4639
▁tîma	-10.464
یشم	-10.4641
46	-10.4644
▁ڕۆژدا	-10.4646
ەمە	-10.4647
74	-10.4648
▁دووەم	-10.4653
▁kesê	-10.4656
▁hî	-10.4657
▁پاس	-10.4658
▁ریی	-10.4661
▁CD	-10.4661
str	-10.4666
▁this	-10.4668
▁هۆ	-10.4671
▁fir	-10.4672
▁دەستی	-10.4677
▁chat	-10.468
▁rastiyê	-10.4681
▁projeya	-10.4682
kes	-10.4683
▁لات	-10.4694
▁nîqaş	-10.4694
▁êrîş	-10.4694
▁fîlm	-10.4696
▁كۆ	-10.4697
▁Xweseriya	-10.4703
▁2,	-10.4704
▁2000	-10.4715
▁پێگ	-10.4716
vel	-10.4718
▁رلێشێواو	-10.4722
▁پزیشک	-10.4722
▁لێك	-10.4727
▁girt	-10.473
وازه	-10.473
▁vekirin	-10.4735
yekî	-10.4735
ken	-10.4736
▁ناخی	-10.4737
ica	-10.4739
کانیان	-10.4739
▁fun	-10.4743
xy	-10.4744
▁destûr	-10.4749
▁Microsoft	-10.475
▁SARS	-10.475
▁Hevbendiy	-10.475
▁dev	-10.4754
our	-10.4755
mez	-10.4759
▁رێت	-10.4761
ڕەو	-10.4762
▁Bank	-10.4764
HD	-10.4765
▁جول	-10.4775
▁nikarin	-10.4778
▁Pêşveçûn	-10.4778
ware	-10.4779
▁text	-10.4782
▁destpê	-10.4794
ness	-10.4796
▁لیل	-10.4798
ەکەیان	-10.4799
▁لێره	-10.4802
med	-10.4802
▁Slot	-10.4807
▁LLC	-10.4807
▁doktor	-10.4808
▁خۆیشی	-10.4811
▁کافرو	-10.4811
dir	-10.4815
gah	-10.4815
▁قورئانی	-10.4818
▁قوا	-10.4819
▁hebe	-10.4821
▁کردیت	-10.4823
rik	-10.4825
▁هەوا	-10.4825
ێنە	-10.4826
▁شتدا	-10.4827
xistina	-10.4828
▁hilberînê	-10.4835
▁mîlyon	-10.4835
▁rêveberiya	-10.4835
▁kîjan	-10.4835
▁Guherî	-10.4835
▁داگیر	-10.4837
▁ببینن	-10.484
▁ئەوانەی	-10.485
bor	-10.4851
▁شاری	-10.4852
▁120	-10.4854
دەکات	-10.4858
▁لەلایەن	-10.4863
▁Hesab	-10.4863
▁Model	-10.4864
▁high	-10.4867
▁جووت	-10.4867
king	-10.4873
▁Win	-10.4883
راون	-10.4883
ref	-10.4891
▁Îlon	-10.4893
▁بکرێن	-10.4894
▁Rêber	-10.4896
▁کەمێک	-10.4898
36	-10.4902
▁ور	-10.4903
▁ragihandinê	-10.4906
باش	-10.4908
▁Th	-10.4908
▁دنیای	-10.4918
▁xebitandin	-10.492
▁month	-10.492
▁Tags	-10.492
▁تێناگ	-10.492
▁Day	-10.4931
şîne	-10.4932
▁گەرم	-10.4933
▁ژینگە	-10.4934
ute	-10.4936
▁70	-10.4938
▁lîstikvanên	-10.4943
▁pelên	-10.4946
ث	-10.4949
▁petrolê	-10.4949
ile	-10.4949
▁Spas	-10.4954
▁٢٠	-10.4961
▁Sê	-10.4961
fo	-10.4962
▁Tor	-10.4965
▁بیرم	-10.4967
وع	-10.4978
▁خشت	-10.4978
▁alî	-10.498
mû	-10.498
▁malbat	-10.498
▁tam	-10.4982
▁بەڵێ	-10.4991
زانیت	-10.4994
▁زۆریان	-10.5
▁Kurdî	-10.5006
▁hel	-10.5007
▁heval	-10.5015
▁ئیماندارانی	-10.5022
▁format	-10.5024
▁توند	-10.5031
band	-10.5034
▁vîdyoyê	-10.5035
▁music	-10.5035
ێکت	-10.5041
▁2011	-10.5042
بینیت	-10.5043
▁çavkaniyên	-10.5043
▁براکان	-10.5047
▁فوو	-10.5049
▁qut	-10.5052
▁گفتوگۆی	-10.5053
nû	-10.5054
EC	-10.5061
ط	-10.5062
nirx	-10.5063
▁Publishe	-10.5064
▁teknolojî	-10.5065
دایە	-10.5065
▁چیتان	-10.5066
▁Power	-10.5066
58	-10.5067
▁غڵ	-10.507
▁Çima	-10.5072
ێکە	-10.5075
▁и	-10.5081
▁www	-10.5083
▁نجامدانی	-10.5083
îye	-10.5087
xane	-10.5094
94	-10.5095
▁naskirin	-10.5098
▁شێوەیەکی	-10.5098
▁Val	-10.5101
LE	-10.5102
NT	-10.5106
▁pirsên	-10.5109
گری	-10.5111
ۆل	-10.5114
▁سور	-10.5117
▁تاوانی	-10.5119
▁Ste	-10.5119
▁teng	-10.5121
▁بهێنین	-10.5122
ة	-10.5123
▁London	-10.5123
▁Peymana	-10.5123
▁dijwar	-10.5123
▁serkeftin	-10.5123
heng	-10.5124
▁qonaxa	-10.5124
▁News	-10.5126
▁سانێکی	-10.5131
▁site	-10.5131
▁tora	-10.5132
ûk	-10.5134
BC	-10.5134
DM	-10.5136
▁هۆشم	-10.5138
100	-10.5141
▁karmendên	-10.5142
41	-10.5143
▁تەندروستی	-10.5146
▁kêmkirina	-10.5151
▁Sûriyê	-10.5152
▁beşên	-10.5152
يان	-10.5153
69	-10.5154
▁دەزانن	-10.516
▁tiştî	-10.5165
lay	-10.517
انەوە	-10.517
ij	-10.5178
▁Ukrainian	-10.5181
▁hebû	-10.5186
1"	-10.5187
▁نیشانی	-10.519
▁رێ	-10.5201
▁borî	-10.521
▁کران	-10.521
▁ناتوانیت	-10.5211
▁ناشرین	-10.5211
▁mîkro	-10.5211
▁bişînin	-10.5212
▁یاندن	-10.5216
51	-10.5222
هێشت	-10.5227
▁kevn	-10.5234
▁Derman	-10.5237
▁بیخ	-10.5238
▁SD	-10.5239
▁كارو	-10.524
▁دەچێت	-10.5243
▁زگای	-10.5244
▁کردم	-10.5248
xwîn	-10.5249
▁گوڵ	-10.5252
▁cot	-10.5255
53	-10.5257
şi	-10.5263
ئەوە	-10.5264
▁pêkanîna	-10.5265
▁şîrketên	-10.5269
▁ئەمریکا	-10.527
▁بەست	-10.527
▁xwedan	-10.5272
rat	-10.5277
▁size	-10.5279
▁نات	-10.5282
▁bila	-10.5283
ڕۆژ	-10.5297
▁دۆخ	-10.53
▁ڵیدا	-10.5301
▁ساز	-10.5302
▁Tattoo	-10.5305
▁دەن	-10.5308
▁Hil	-10.5311
▁خان	-10.5311
TE	-10.5312
IL	-10.5313
▁wêneyê	-10.5315
oya	-10.5317
▁têkiliyên	-10.5319
win	-10.5321
darên	-10.5322
pel	-10.5322
zîk	-10.5322
▁نادروستی	-10.5328
▁نەم	-10.5329
▁35	-10.5331
▁دیهێناوه	-10.5334
ێڵێت	-10.5343
▁hefte	-10.5343
my	-10.5349
بووم	-10.536
▁Kanal	-10.5361
گێر	-10.5362
▁ناسه	-10.537
▁Fran	-10.5372
▁واری	-10.5373
▁زیل	-10.5374
▁مناڵ	-10.5376
▁mm	-10.5377
▁tarî	-10.5378
▁radi	-10.5383
▁Dost	-10.5384
▁alîkar	-10.5385
ئی	-10.5386
▁کۆمپانیا	-10.5389
▁hu	-10.5389
▁تاقیکردنەوە	-10.5391
▁لێخۆش	-10.5391
▁ئاژ	-10.5394
uk	-10.5395
EL	-10.5397
rîk	-10.5398
▁وتم	-10.5399
▁web	-10.5402
2018	-10.5402
▁bavê	-10.5405
▁tevî	-10.5409
2"	-10.5409
▁هەستی	-10.5414
▁bêne	-10.5415
▁sta	-10.5415
▁Heta	-10.5419
▁Ce	-10.5419
▁جادوو	-10.542
▁بووبێت	-10.542
▁gelekî	-10.5421
asyon	-10.5424
▁هیوای	-10.5425
57	-10.5431
▁peyam	-10.5435
▁Sîstema	-10.5436
rg	-10.5443
▁modela	-10.5445
بێگومان	-10.5446
▁gengaz	-10.5449
▁çavkaniya	-10.5449
▁نەخشە	-10.5449
▁bilez	-10.545
▁دەگە	-10.5454
▁داری	-10.5454
▁بگێڕ	-10.5463
32	-10.5463
▁karên	-10.5466
▁خشینی	-10.5467
▁pirsa	-10.5468
▁مام	-10.5469
▁شوێنیان	-10.5473
▁ترسم	-10.5474
▁چپ	-10.5478
▁ستم	-10.5479
▁xerc	-10.548
▁guru	-10.5482
▁بڕیارداو	-10.5483
▁mafên	-10.5485
▁خێزانی	-10.5488
72	-10.5488
▁کەوت	-10.5503
▁شۆڕ	-10.5505
ارد	-10.5505
xan	-10.5507
▁destûrê	-10.5507
Co	-10.5509
\	-10.5509
▁çapemeniyê	-10.551
▁قۆناغ	-10.551
▁rêbazên	-10.551
▁فرمان	-10.551
-10	-10.5513
▁متمان	-10.5513
çî	-10.5518
▁تێدایه	-10.5519
key	-10.5521
دۆ	-10.5522
▁Rêz	-10.5525
▁Tîm	-10.5527
lash	-10.5528
92	-10.5535
▁لاری	-10.5535
▁شێرپەنجە	-10.554
▁هاروون	-10.554
▁دینداری	-10.5541
خوێن	-10.5544
کەوتن	-10.5546
▁2010	-10.5548
▁Adar	-10.5553
▁ڕوویان	-10.5562
▁خەو	-10.5566
▁جارێکی	-10.5566
▁یاڵی	-10.5568
▁dayin	-10.5575
▁ئەن	-10.5577
▁مكار	-10.5578
AP	-10.5586
lect	-10.5587
RA	-10.5589
▁kalîteyê	-10.5591
▁رهاتی	-10.5596
گرتوو	-10.56
▁Destpêk	-10.5601
▁Nexşey	-10.5601
▁هەژار	-10.5601
▁inter	-10.5601
▁ket	-10.5603
▁Mijar	-10.5604
▁ڕۆشت	-10.5606
rke	-10.5613
EST	-10.5617
▁erê	-10.5629
▁Part	-10.5634
يا	-10.5635
Ji	-10.5635
▁ڕوونی	-10.5636
زانم	-10.5639
▁ڕواڵ	-10.564
▁çareseriyê	-10.565
▁دانان	-10.5658
▁Parametreyên	-10.5662
▁دۆلار	-10.5662
▁قاچ	-10.5663
كان	-10.5664
mil	-10.5669
bil	-10.567
▁şop	-10.5672
▁Top	-10.5674
▁Îro	-10.5675
▁رگرتن	-10.5676
▁١٠	-10.5681
چون	-10.5681
▁ڵامیاندا	-10.569
▁دلۆڤان	-10.5693
▁inmenu	-10.5693
gihîşt	-10.5693
بکات	-10.5694
▁دیوار	-10.5694
▁Idea	-10.5694
▁berdan	-10.5696
ئێمه	-10.5696
▁bala	-10.5697
▁لێبک	-10.5699
▁medya	-10.5704
▁Pu	-10.5706
act	-10.5713
▁لم	-10.5715
؟"	-10.5722
▁University	-10.5724
▁Casino	-10.5724
ulator	-10.5728
▁zêrîn	-10.5729
▁xeter	-10.5731
▁agahdar	-10.5732
جۆر	-10.574
▁Tri	-10.5745
600	-10.5746
گیری	-10.5746
▁gaz	-10.5747
▁bajarên	-10.5747
pen	-10.575
▁لێکدان	-10.5752
▁بڵێت	-10.5756
▁online	-10.5757
ئیتر	-10.5759
▁Laser	-10.5761
gre	-10.5771
▁نگاو	-10.5775
▁کەوا	-10.5777
▁شارد	-10.5784
▁kevneşopî	-10.5786
▁cureyên	-10.5794
▁جۆری	-10.5795
IP	-10.5795
▁Înternetê	-10.5797
▁Cure	-10.5802
▁kesî	-10.5804
▁Dîroka	-10.5805
▁ئێست	-10.5805
▁Reng	-10.5805
▁بەشی	-10.5805
▁رتاندا	-10.5806
▁کن	-10.581
▁Net	-10.5814
▁توان	-10.5814
▁نجامیان	-10.5816
dîtin	-10.5817
▁Zarok	-10.5818
▁هەمیشە	-10.5818
▁hilber	-10.5819
▁xizmet	-10.5819
▁teqîn	-10.5819
▁ترتان	-10.582
▁şeş	-10.5822
▁çapkirin	-10.5826
▁300	-10.5828
▁کەسێکی	-10.5828
zik	-10.5831
tation	-10.5834
▁Dar	-10.5836
ڵێم	-10.5838
bus	-10.5839
▁TC	-10.5843
▁COVID	-10.5849
▁دەتوانێت	-10.5849
▁navendî	-10.5849
▁ڕۆشن	-10.5849
▁fireh	-10.585
▁pêşketî	-10.5851
گریت	-10.5852
▁هێنای	-10.5852
▁گرۆی	-10.5853
put	-10.5853
▁دوژمنای	-10.5857
کت	-10.5861
▁nîşandan	-10.5872
▁داناو	-10.5877
▁enerjiyê	-10.5881
▁wesayît	-10.5881
▁ڕابردوو	-10.5881
▁berhev	-10.5886
▁cî	-10.5887
ەرەکان	-10.589
▁penaber	-10.5894
▁نابین	-10.5904
▁Xweser	-10.5907
ێنرێت	-10.5907
▁ساڵان	-10.5907
gram	-10.5908
▁lîsans	-10.5912
▁نوقم	-10.5912
▁پاڕان	-10.5912
▁şev	-10.5912
▁rol	-10.5913
▁چووه	-10.5916
▁ڕاکێش	-10.5916
▁1000	-10.5921
▁پاکان	-10.5926
▁herdu	-10.5933
▁Tev	-10.5933
▁ناش	-10.5934
}	-10.5941
ئێ	-10.5943
چۆن	-10.5944
▁avahiya	-10.5945
▁ردووکیان	-10.5947
xweş	-10.5953
▁Pêşkêş	-10.5954
سێ	-10.5958
▁شێوەی	-10.5969
▁کاتدا	-10.5969
ode	-10.5973
▁dibistana	-10.5975
▁پاشگ	-10.5983
▁Bra	-10.5987
îzmê	-10.5998
▁سیست	-10.6
gire	-10.6004
62	-10.6007
▁Christmas	-10.6007
▁tecrûbeya	-10.6014
▁تۆم	-10.6017
▁دەتوانیت	-10.6017
ناکه	-10.6018
sten	-10.6022
ڤا	-10.6033
▁تۆو	-10.6036
▁dorpêç	-10.6039
▁guherandin	-10.6039
▁کاول	-10.604
▁Zêde	-10.6049
مێکی	-10.6051
çek	-10.6051
şandin	-10.6059
بان	-10.606
▁بیرۆکەی	-10.6066
▁نمونە	-10.6067
▁hevbeş	-10.6071
▁modern	-10.6071
▁Arşîv	-10.6071
▁hinekî	-10.6071
▁belgeyên	-10.6075
▁ڕۆن	-10.6078
▁serokê	-10.6079
▁ریکی	-10.6087
پە	-10.6088
▁parastin	-10.6088
code	-10.609
▁pêşveçûna	-10.609
▁offers	-10.6105
▁Nûçeyên	-10.6108
▁ئاشکرادا	-10.6111
▁Xanî	-10.6114
توو	-10.6124
▁تۆمان	-10.6125
▁جوب	-10.6127
zanî	-10.613
▁پاره	-10.6133
▁دەڵێن	-10.6134
▁World	-10.6136
▁pêşniyaz	-10.6136
▁bibîne	-10.6136
▁ڕۆژان	-10.6136
▁lêkolînê	-10.6137
▁زێنرا	-10.6138
ın	-10.6141
ەك	-10.6143
▁درۆزانی	-10.6144
▁Dan	-10.6144
کەیت	-10.6147
▁سیان	-10.615
91	-10.615
▁پێکەوە	-10.6152
▁رستان	-10.6153
▁ئاماژ	-10.6153
▁girêdana	-10.6153
▁Hel	-10.6158
▁خشرا	-10.616
▁ترسان	-10.6162
▁Har	-10.6163
▁demek	-10.6163
▁Hack	-10.6163
▁زانیت	-10.6165
2004	-10.6165
▁خۆشبوو	-10.6167
▁ronahiyê	-10.6168
▁behsa	-10.6168
▁boriyeke	-10.6168
▁dixwaze	-10.6168
▁لێکۆڵینەوە	-10.6171
''	-10.6174
waz	-10.6178
▁ئاسماندا	-10.6178
▁خۆشەویستی	-10.6182
vir	-10.6185
▁rûyê	-10.6192
CO	-10.6198
ەکەوە	-10.6199
▁Brîtanya	-10.6201
▁Daxuyaniya	-10.6201
▁ئیسحاق	-10.6201
▁حوکم	-10.6201
▁serkeftî	-10.6201
9"	-10.6203
ڕوو	-10.6203
▁zext	-10.6203
OL	-10.6203
▁sor	-10.6205
KE	-10.621
▁باشی	-10.6212
▁Derve	-10.6212
▁hejmarek	-10.6214
▁geş	-10.6218
▁Trans	-10.6221
▁baca	-10.6227
▁kolan	-10.6227
▁ناومان	-10.6227
▁Guh	-10.6229
▁TRANS	-10.6233
▁fîzîkî	-10.6233
▁بگره	-10.6234
▁nivîskar	-10.6242
▁داهات	-10.6249
▁زاری	-10.6255
▁وترا	-10.6256
▁rakirin	-10.6266
LATOR	-10.6266
xbet	-10.6266
▁wateyê	-10.6266
▁Nivîs	-10.627
▁ژیری	-10.627
▁user	-10.6271
▁گرنگە	-10.628
back	-10.628
▁link	-10.6281
▁فڕ	-10.6282
▁sedem	-10.6284
5"	-10.6286
▁date	-10.6286
▁hilberîner	-10.6289
▁ڕێگا	-10.6293
نیشان	-10.6293
▁Fakulteya	-10.6299
▁button	-10.6299
▁Machine	-10.6299
▁bedena	-10.6299
رک	-10.6299
▁دایك	-10.6304
▁بڵندی	-10.6306
▁têk	-10.6308
less	-10.6308
ized	-10.631
▁hefteya	-10.6313
▁veke	-10.6317
▁هاوب	-10.6319
▁vekin	-10.6321
▁بیرۆکە	-10.6324
▁نابینن	-10.6329
▁mesrefa	-10.6331
▁بتوانێ	-10.6332
▁agir	-10.6336
▁tije	-10.6337
▁guhertina	-10.6339
▁zûtirîn	-10.634
rn	-10.6341
▁Sepan	-10.6343
٥٠	-10.6356
xaneya	-10.6357
▁Inc	-10.6357
▁چالاکی	-10.6359
▁rûpelê	-10.6363
use	-10.6363
▁الم	-10.6365
mark	-10.6367
▁ڵا	-10.6371
▁bazarê	-10.6371
▁کەسە	-10.6377
zo	-10.6377
CH	-10.6378
▁دابنێ	-10.6379
olojî	-10.638
▁xebatên	-10.6382
▁wekhev	-10.6383
▁demên	-10.6384
▁dijîn	-10.6391
93	-10.6397
▁Perwerde	-10.6398
▁کۆمەڵایەتی	-10.6398
▁کۆمەڵگە	-10.6398
▁Company	-10.6398
▁Îtalya	-10.6398
best	-10.64
▁دارایی	-10.6403
خراو	-10.6406
▁heb	-10.6411
▁لێم	-10.6413
▁Koma	-10.6414
gotin	-10.6415
▁transponder	-10.6431
▁دوعا	-10.6431
url	-10.6437
▁هانی	-10.6438
ût	-10.6438
▁şevê	-10.6439
▁şirket	-10.6445
cal	-10.6446
▁zêdebûna	-10.6447
▁Dîrok	-10.6448
▁şîrket	-10.645
CC	-10.6451
▁ڵن	-10.6453
▁گۆشتی	-10.6458
py	-10.6459
▁یمانی	-10.6461
▁کرابوو	-10.6461
mit	-10.6464
▁Hindistan	-10.6464
▁کشتوکاڵ	-10.6464
▁١٩	-10.6464
▁Bonus	-10.6464
▁dabeş	-10.6464
cm	-10.6465
شایست	-10.6471
▁ئیماندارن	-10.6474
▁Star	-10.6481
stat	-10.6482
▁واندا	-10.6483
▁You	-10.6497
▁ecêb	-10.6498
▁model	-10.6503
▁نادیار	-10.6507
▁تردا	-10.6507
▁کردین	-10.6522
▁perçe	-10.6525
▁navnîş	-10.6528
▁نێرین	-10.6529
▁سێب	-10.6529
▁بەکتریا	-10.6531
▁heqê	-10.6531
▁ئاشتی	-10.6532
▁باسکرا	-10.6533
▁Sibat	-10.6533
ksiyon	-10.6535
▁Belge	-10.6536
▁سیح	-10.6536
▁داود	-10.6538
▁jet	-10.6539
▁mêj	-10.6539
بینین	-10.6544
▁وردی	-10.6545
▁ڕێگای	-10.6547
▁01	-10.6557
-8	-10.6558
▁Karên	-10.6562
▁بیک	-10.6563
ئ	-10.6564
▁بەخش	-10.6564
▁Bazirganiy	-10.6565
▁Product	-10.6566
▁hesin	-10.6567
▁Open	-10.6569
▁دەدەن	-10.6573
▁روونیاندا	-10.6573
▁رووی	-10.6579
CA	-10.6586
▁ڵکرد	-10.6588
row	-10.659
▁وێنەی	-10.6591
وباره	-10.6597
▁karsaz	-10.6598
▁ISO	-10.6599
▁kalîte	-10.6599
▁هەفتە	-10.66
▁diçin	-10.6601
دەتوان	-10.6602
ition	-10.6604
▁جوانترین	-10.6609
▁بۆلای	-10.6619
7"	-10.6619
▁çareseriya	-10.662
fil	-10.6622
کاران	-10.6625
▁DI	-10.6629
▁birrîn	-10.6634
▁پرسی	-10.6634
▁Hilberîn	-10.6636
▁forma	-10.6646
ham	-10.6649
berg	-10.665
▁هەندێ	-10.6654
▁win	-10.6659
çav	-10.6659
▁gem	-10.6662
▁تێپ	-10.6666
▁Cotmeh	-10.6667
▁ewlehiya	-10.6667
▁Japon	-10.6667
▁raya	-10.6668
ژمێر	-10.6669
▁HE	-10.6671
▁سەرەکی	-10.6678
cho	-10.6686
ژین	-10.6687
▁بانیش	-10.6688
خست	-10.6691
▁هەڵە	-10.6691
▁Neteweyî	-10.6701
▁alternatîf	-10.6701
▁liserxetê	-10.6701
▁سروشتی	-10.6701
▁مەزن	-10.6701
girş	-10.6701
▁xweya	-10.6701
▁رسام	-10.6703
▁wêneyên	-10.6703
ory	-10.6704
▁2008	-10.6707
▁شادی	-10.6712
▁Kurs	-10.6712
▁//	-10.6712
▁دەڵێت	-10.6713
lim	-10.6713
روو	-10.6713
uc	-10.6715
▁bî	-10.6715
▁pace	-10.6723
▁ترمان	-10.6724
MB	-10.6727
for	-10.6727
▁nake	-10.6732
▁rewş	-10.6733
▁Pêwîst	-10.6735
▁Black	-10.6735
▁قورئاندا	-10.6736
cket	-10.6739
▁kêf	-10.674
space	-10.6742
▁xanî	-10.6744
▁ئاست	-10.6747
▁Rewşa	-10.6752
▁بینا	-10.6754
▁are	-10.676
▁Sport	-10.6761
▁German	-10.6761
wr	-10.6764
▁Ukraine	-10.6769
▁rawestandin	-10.6769
▁داپۆش	-10.6769
▁توێژینەوە	-10.677
▁مادد	-10.6772
▁لێرەدا	-10.6775
▁ببیت	-10.6778
▁fî	-10.678
▁Time	-10.6783
▁شکر	-10.6786
mîk	-10.679
▁هەن	-10.679
▁destikê	-10.679
▁çima	-10.6791
▁Chinese	-10.6804
▁performansa	-10.6804
▁xebatkar	-10.6804
▁birîndar	-10.6804
▁پارێزگار	-10.6805
▁herêmên	-10.6806
▁Çar	-10.6806
▁هاواریان	-10.6809
▁دەبێتە	-10.6809
▁Ak	-10.6812
▁pen	-10.6814
▁xist	-10.6815
▁ئەوانە	-10.6818
هاتن	-10.6819
▁Bet	-10.6822
▁kel	-10.6826
uck	-10.683
hatî	-10.6836
▁aboneyên	-10.6838
▁Mijdar	-10.6838
▁هونەر	-10.6838
▁hingê	-10.6839
▁dîmen	-10.6839
▁بەکارهێنانی	-10.684
▁firot	-10.6842
52	-10.6848
▁جوول	-10.6849
▁پێکرد	-10.6854
▁Rojhilata	-10.6858
ئایا	-10.6859
▁maf	-10.6859
▁bişîne	-10.6868
▁More	-10.6869
▁reng	-10.687
▁System	-10.6873
▁تەماشا	-10.6873
▁mobile	-10.6873
ÎN	-10.6873
▁perwerdehiy	-10.6875
▁ڕۆیشت	-10.6882
▁وێران	-10.6886
▁بدەن	-10.6893
▁فێربوون	-10.6898
▁pêşniyarên	-10.6898
▁خواردنی	-10.69
▁ژین	-10.6901
spam	-10.6907
▁hucrey	-10.6908
▁بیابان	-10.6908
▁Jinan	-10.691
▁دەمار	-10.691
▁كاتی	-10.6914
جێ	-10.6916
▁Mafê	-10.692
▁Mirovan	-10.6931
lît	-10.6941
▁مێشکی	-10.6942
▁radyo	-10.6943
▁Standard	-10.6943
▁kûçik	-10.6943
▁چاکسازی	-10.6944
▁خورما	-10.6944
▁ژمارەی	-10.6945
▁bersiva	-10.6948
ping	-10.6949
ەها	-10.6952
▁نیت	-10.6955
▁Mîhengên	-10.6955
▁ماف	-10.6955
▁hack	-10.6956
هیچ	-10.6956
http	-10.6959
olojîk	-10.6961
بڵ	-10.6962
▁رانیان	-10.6963
▁خۆشیان	-10.6964
▁کێشان	-10.6964
▁یارید	-10.6971
▁Tattoos	-10.6972
83	-10.6974
▁virtual	-10.6978
▁Perwerdehiya	-10.6978
▁رناگرن	-10.6978
▁nu	-10.6978
▁كافر	-10.6978
▁ئێسک	-10.6979
▁دۆست	-10.698
▁Str	-10.6985
ڤی	-10.6985
▁خوێندکار	-10.6986
▁"%	-10.699
▁laşê	-10.6997
▁یاسای	-10.7
▁30000	-10.7009
▁pelan	-10.701
▁تۆیه	-10.7012
▁down	-10.7013
fl	-10.7013
▁دیندار	-10.7019
▁هاوکاری	-10.7031
▁نگیان	-10.7031
82	-10.7035
84	-10.7036
îtî	-10.7039
4"	-10.704
79	-10.7041
qonax	-10.7047
ڕێت	-10.7048
▁Plus	-10.7048
▁خوازن	-10.705
▁bêdeng	-10.7051
▁لار	-10.7053
▁nûjen	-10.7054
▁ناچێت	-10.7058
▁hemberî	-10.7061
gêr	-10.7061
▁Last	-10.7062
▁code	-10.7063
▁هێنابوو	-10.707
▁Ben	-10.7071
▁derketin	-10.7073
دارو	-10.7077
▁Tele	-10.7083
▁Projeya	-10.7084
▁رناچن	-10.7084
٠٠٠	-10.7085
▁بەشدار	-10.7086
AC	-10.7087
▁fiber	-10.7089
▁Kur	-10.7089
ung	-10.7089
▁salane	-10.7094
▁At	-10.7105
▁ربگرێت	-10.7107
کانمان	-10.7109
▁تێگ	-10.7111
ston	-10.7115
ریت	-10.7117
▁دواو	-10.7118
▁HGH	-10.712
ناگرێت	-10.7121
▁out	-10.7124
matîk	-10.7126
▁bingeh	-10.7127
▁kiribû	-10.7127
▁betal	-10.713
Ez	-10.713
▁دابوو	-10.7137
▁کێوی	-10.7139
rav	-10.7141
▁یەکتر	-10.7143
▁درێژی	-10.7145
یشن	-10.7146
bb	-10.7147
▁kîmyewî	-10.7155
▁pratîk	-10.7155
▁bizanin	-10.7155
▁Travel	-10.7156
▁super	-10.7157
▁App	-10.7168
▁Holm	-10.7179
▁باوکم	-10.718
lip	-10.7185
▁زین	-10.7185
RI	-10.7186
▁şewitandin	-10.7191
▁Wood	-10.7192
▁03	-10.7195
▁Mû	-10.7196
ize	-10.7198
▁ریدا	-10.7199
▁jinên	-10.7204
▁Amerîkayê	-10.7204
▁çîroka	-10.7205
$	-10.7206
▁حاڵی	-10.7209
خستووه	-10.7213
▁نێوانیان	-10.722
▁Aluminium	-10.7227
▁Xudan	-10.7227
▁veberhênanê	-10.7228
▁دادگای	-10.723
▁çewtî	-10.7232
▁makîneyên	-10.7233
▁تەواوی	-10.7236
درێ	-10.7236
work	-10.7249
▁Gulan	-10.725
▁فیز	-10.7251
jan	-10.7251
▁پر	-10.7252
▁Agahiyên	-10.7263
▁damezirandin	-10.7263
▁lênêrîna	-10.7263
▁ڕازاند	-10.7263
▁birêvebirin	-10.7264
lum	-10.7264
▁pêbawer	-10.7264
▁Cor	-10.7267
▁ئەتوان	-10.727
▁دری	-10.727
▁پێك	-10.7274
▁موسوڵمان	-10.7282
▁kor	-10.7284
îteya	-10.7284
▁dibînin	-10.7289
▁War	-10.7296
▁krediyê	-10.7299
▁mercên	-10.7299
firoş	-10.7301
▁شتەکان	-10.7302
▁hişê	-10.7303
▁Tên	-10.7305
▁جارێک	-10.7315
31	-10.7319
▁02	-10.7319
▁جاران	-10.7319
▁داواکار	-10.732
mat	-10.7321
yer	-10.7323
▁gen	-10.7333
▁ڕێیانه	-10.7336
▁Zanist	-10.7336
▁binçavkirin	-10.7336
▁Agahdariy	-10.7336
NAME	-10.7337
▁biçin	-10.7337
▁Mezinahiya	-10.7338
▁تاوانێک	-10.734
▁پیشان	-10.7341
▁Award	-10.7341
▁She	-10.7343
▁vekirina	-10.7354
xin	-10.7354
78	-10.7357
▁ago	-10.7365
▁نگین	-10.7367
-6	-10.737
▁qereqola	-10.7372
▁zindî	-10.7372
▁Adarê	-10.7374
▁spas	-10.7379
▁داهاتوودا	-10.7385
fîl	-10.7391
ناسن	-10.7393
▁kevin	-10.7393
▁Daxistin	-10.7395
▁dilê	-10.7397
▁Save	-10.7405
▁کراوە	-10.7405
▁hot	-10.7409
ries	-10.7409
▁Of	-10.7412
▁qasî	-10.7413
▁hêdî	-10.7417
▁Bingeh	-10.7418
4)	-10.7418
▁ڵکیدا	-10.7419
▁comp	-10.742
▁150	-10.7424
ناسی	-10.7427
cam	-10.7429
▁Sam	-10.7433
ketî	-10.7438
jd	-10.7439
▁dor	-10.744
يە	-10.7442
▁Herî	-10.7442
▁xerab	-10.7443
3"	-10.7443
▁pêşxistina	-10.7445
saveatrain	-10.7446
▁business	-10.7446
▁ناشیرین	-10.7446
▁WeTek	-10.7446
▁neheq	-10.7446
fre	-10.7449
▁hewayî	-10.7449
▁2009	-10.7453
hem	-10.7454
▁گرتووه	-10.7459
▁بۆچوونی	-10.7462
▁کێن	-10.7463
6"	-10.7464
▁hew	-10.7466
▁چڕ	-10.7481
▁Review	-10.7483
▁mamoste	-10.7483
▁بکردایه	-10.7483
▁sembol	-10.7483
▁Blue	-10.7483
▁Test	-10.7483
▁Azad	-10.7484
▁tevlî	-10.7485
▁[2]	-10.749
▁Bas	-10.7492
bîr	-10.7502
▁پیاوێکی	-10.7508
▁زیرەک	-10.7509
▁Im	-10.7515
▁AC	-10.7516
▁ڕیش	-10.7518
▁غافڵ	-10.752
▁review	-10.752
▁brand	-10.752
▁روبووم	-10.7524
▁bag	-10.7527
dewlet	-10.7529
▁Tenduristiy	-10.7535
▁hevkariya	-10.7543
▁Kor	-10.7552
▁پارچە	-10.7556
iyet	-10.7556
▁difikirin	-10.7557
▁York	-10.7557
▁سازگار	-10.7558
pat	-10.756
▁پرسیارت	-10.7566
▁پێشبینی	-10.7571
▁xwestin	-10.7575
İ	-10.7575
▁gav	-10.7577
ions	-10.7578
▁xwest	-10.7581
burg	-10.7581
لاش	-10.7582
ەكە	-10.7584
▁هاند	-10.7585
ییەکەی	-10.7585
▁ڵکێش	-10.7592
Shortcut	-10.7594
▁dixebitin	-10.7594
▁price	-10.7594
▁ezmûn	-10.7594
▁bihêz	-10.7595
ەکانیش	-10.7596
▁xwînê	-10.7596
▁پێوان	-10.7598
▁ییه	-10.7601
بازی	-10.7604
▁جادووی	-10.7605
▁چۆڵ	-10.7607
▁باوکیان	-10.7608
قورئان	-10.7613
▁کێشەی	-10.7616
▁واڵم	-10.762
▁رمانمان	-10.7628
▁Sha	-10.7628
ştî	-10.7629
▁گیانی	-10.7631
▁OSCam	-10.7632
▁WeTeK	-10.7632
▁pêşkêşkirina	-10.7632
▁ڕوبار	-10.764
خوارد	-10.7653
ڤێ	-10.7657
▁kontrolkirina	-10.7661
▁demekê	-10.7663
▁armancên	-10.7663
▁çap	-10.7666
▁32	-10.7669
▁Heyva	-10.7669
▁watch	-10.767
▁film	-10.7672
lp	-10.7672
▁dolar	-10.7673
▁گل	-10.7673
▁mehê	-10.7674
cle	-10.7676
▁ڕێوه	-10.7678
61	-10.7681
▁vegera	-10.7681
rom	-10.7684
▁بزانین	-10.7686
▁33	-10.7686
▁موسوڵمانان	-10.7687
▁Rûsya	-10.77
ED	-10.7705
▁GHz	-10.7707
▁ڕژاند	-10.7707
▁حیکم	-10.7707
ating	-10.7709
▁dîsk	-10.7709
▁دوژمنی	-10.7722
▁‘	-10.7723
▁Bîr	-10.7725
▁رجێک	-10.7725
▁وامیش	-10.7725
;/	-10.7725
▁کردەوە	-10.773
▁Park	-10.773
▁Max	-10.773
▁توشی	-10.7731
ose	-10.7736
▁çêbû	-10.7744
▁Global	-10.7745
▁parastî	-10.7745
▁Endam	-10.7747
▁lîsteyê	-10.7747
▁Gelo	-10.7757
▁ڕۆچوون	-10.7759
▁Mac	-10.7764
▁چییە	-10.7767
▁Metro	-10.7772
irin	-10.7773
▁ڵكو	-10.7774
ple	-10.7774
▁ئاخۆ	-10.7776
▁سێنێت	-10.7778
▁گرانی	-10.7782
▁xalên	-10.7783
▁bihîst	-10.7784
In	-10.7791
▁Partiya	-10.7799
▁بارو	-10.78
▁endamê	-10.78
▁sin	-10.7806
▁peymana	-10.7815
▁Hinek	-10.7818
▁ناز	-10.7818
▁Bişkojk	-10.7821
▁global	-10.7821
▁maddî	-10.7821
▁hun	-10.7822
▁عیسای	-10.7823
▁menu	-10.7823
▁وریا	-10.7826
▁بردووه	-10.783
▁داهێنان	-10.7831
▁port	-10.7831
▁pergalê	-10.7833
kV	-10.7834
▁nivîsîn	-10.784
▁کارێک	-10.784
▁Pelê	-10.784
▁nexweşî	-10.7848
▁ناوبرد	-10.7848
▁kesane	-10.7852
▁مۆسیقا	-10.7852
▁بژێر	-10.7853
▁Copyright	-10.7859
▁tendurust	-10.7859
▁Afrîka	-10.7859
▁dilsoz	-10.7859
▁ڤیدیۆ	-10.7859
▁Xebat	-10.7859
▁rîsk	-10.7859
▁نێردراو	-10.786
▁پێناک	-10.7864
2017	-10.7865
▁ڵکیش	-10.7873
8"	-10.7875
▁Amûrên	-10.7878
▁Parzûna	-10.7888
▁pisporê	-10.7894
▁sazkirinê	-10.7894
▁Technology	-10.7898
▁dîzaynkirin	-10.7898
▁version	-10.7898
▁sêyemîn	-10.79
▁unit	-10.7905
▁operasyona	-10.7905
▁nirxên	-10.7913
mas	-10.7924
▁چون	-10.793
▁êş	-10.7936
qet	-10.7936
▁Previous	-10.7936
▁2/3	-10.7936
▁zanyar	-10.7936
▁derziyê	-10.7937
▁Control	-10.7937
▁mişteriyên	-10.7938
▁کارکردن	-10.7938
▁rastê	-10.7948
▁گوناهکار	-10.795
▁rengên	-10.7954
▁İ	-10.7956
▁telefona	-10.7957
محمد	-10.7959
▁nûçeya	-10.7965
▁زانیوو	-10.7967
پای	-10.7968
▁بمانه	-10.7969
▁bimîne	-10.7976
▁ببم	-10.7977
▁Bakur	-10.7977
▁Un	-10.7978
▁نازانم	-10.7981
▁Code	-10.7981
▁belgeya	-10.7981
▁شوێنە	-10.7983
▁بیرکردنەوە	-10.7985
▁ئاهو	-10.7989
▁نزای	-10.7991
▁Qanûna	-10.7998
▁دەریا	-10.8005
▁frequency	-10.8014
▁hilbijêrin	-10.8014
▁ئەندام	-10.8015
load	-10.8015
▁piştre	-10.8022
▁pargîdan	-10.8026
çûna	-10.8027
▁têkiliyê	-10.8027
▁Xwendekarên	-10.8032
▁نرێت	-10.8033
▁پێناس	-10.8038
▁کتێبێکی	-10.8043
▁mezinbûna	-10.8045
▁Char	-10.8046
▁tomarkirin	-10.8049
▁ئەبێت	-10.8051
▁BERSÎV	-10.8053
▁cîhazên	-10.8053
▁serbixwe	-10.8053
▁لەبەرئەوەی	-10.8053
▁نایزانن	-10.8055
▁pêşangeh	-10.8055
▁dikir	-10.8056
▁جەنگ	-10.8057
▁بنێر	-10.8064
▁ئەویش	-10.8065
▁نەدە	-10.8069
speed	-10.807
▁Pack	-10.8071
▁alîkarîya	-10.8075
▁Huner	-10.8078
hilat	-10.8081
dirêj	-10.8083
▁misoger	-10.8092
▁Şan	-10.8102
▁2007	-10.8102
cent	-10.8108
▁نێرێت	-10.8109
keft	-10.8117
خانە	-10.8122
▁Medical	-10.8132
▁میسر	-10.8132
▁کوژرا	-10.8133
کاتێك	-10.8133
رابوو	-10.8136
▁لێکردن	-10.8137
stra	-10.8141
▁art	-10.8144
zîn	-10.8146
▁sîstemên	-10.8146
▁hêja	-10.8146
▁Pen	-10.8151
▁All	-10.8152
▁derfetên	-10.8153
نووس	-10.8153
▁Ê	-10.8156
gin	-10.8157
▁pargîdaniy	-10.8159
▁girê	-10.8166
▁fer	-10.8168
▁Bikarhêner	-10.8171
ەڵا	-10.8172
▁Bitikîn	-10.8172
▁110	-10.8175
maz	-10.8175
▁pîvana	-10.8177
▁نمون	-10.8178
▁Gar	-10.8179
▁نزیکتر	-10.8181
▁06	-10.8184
ێڵن	-10.8185
▁پێگرتن	-10.8196
▁armanc	-10.8199
▁ئاخر	-10.8211
▁navendên	-10.8211
IG	-10.8214
▁نێوانتاندا	-10.8217
▁دڵیاندا	-10.8223
▁yekane	-10.8223
nameyek	-10.8229
▁تایی	-10.823
tom	-10.8232
the	-10.8234
▁شکێن	-10.8235
€	-10.8237
▁UK	-10.8239
▁Tur	-10.8245
BA	-10.8248
▁texmîn	-10.8251
▁XWE	-10.8252
XL	-10.8252
▁pla	-10.8254
kûm	-10.8258
ایەتی	-10.8259
▁تێفکرن	-10.8259
ەکەش	-10.8263
TR	-10.8269
▁leşker	-10.8269
▁سیف	-10.827
▁gotarê	-10.8274
kal	-10.8283
▁bîranîn	-10.8284
▁دیم	-10.8286
▁Dibistana	-10.8291
▁Yekîtiya	-10.8291
▁زیانێک	-10.8292
▁Wan	-10.8292
▁یشتووه	-10.8295
▁Nor	-10.8298
▁کێکیان	-10.8303
▁Master	-10.8305
▁Art	-10.8307
guherîn	-10.8311
▁بینینی	-10.8313
▁چارەسەری	-10.8315
▁رگر	-10.8315
▁میوان	-10.8319
▁civaka	-10.832
دەکەن	-10.8325
▁etc	-10.8326
▁pêşerojê	-10.8331
▁هۆشیار	-10.8332
▁Rengê	-10.8334
▁pêşkêşî	-10.8338
iq	-10.834
▁Pêvek	-10.8345
tech	-10.8354
▁تەن	-10.8357
Parastina	-10.8359
cks	-10.8359
▁dermankirina	-10.8361
▁zer	-10.8363
▁بگەڕێ	-10.8364
▁نجامیش	-10.8368
▁zehf	-10.8371
▁Media	-10.8371
▁bedew	-10.8371
▁شەو	-10.8372
▁rojhilat	-10.8372
raw	-10.8375
▁بك	-10.8376
▁ڕەنگ	-10.8379
▁Teknolojiy	-10.8384
▁çerm	-10.8386
▁بیربک	-10.839
fin	-10.8392
▁گرۆ	-10.8395
▁بەشە	-10.8399
ێوه	-10.8399
▁dermanên	-10.8402
▁فس	-10.8403
▁شوێنک	-10.8404
▁antî	-10.8407
▁دڵخۆشی	-10.8408
▁Sky	-10.8411
▁وەرگرت	-10.8411
▁muzîkê	-10.8412
▁هێرش	-10.8412
▁Rûpelê	-10.8412
▁Next	-10.8417
▁ردنی	-10.8418
▁ئازادی	-10.8421
71	-10.8425
▁kartên	-10.8427
▁mijarên	-10.843
îner	-10.8432
▁xu	-10.8435
▁cilên	-10.8436
▁II	-10.8438
▁دڵنیام	-10.8439
▁درو	-10.8441
▁YE	-10.8449
▁Oz	-10.8455
▁پێویستمان	-10.8456
▁Motor	-10.8458
but	-10.8473
▁mirinê	-10.8476
▁holê	-10.8479
▁afirandina	-10.8483
▁دێ	-10.8484
▁encamê	-10.8488
▁Dad	-10.8493
▁berxwedana	-10.8493
▁favorite	-10.8493
▁Kişandin	-10.8494
▁rehet	-10.8496
▁Komara	-10.8499
▁سواری	-10.8502
▁Metal	-10.8503
▁Mega	-10.8504
81	-10.851
▁satelît	-10.8515
▁navnîşan	-10.8517
▁Hun	-10.852
▁Bide	-10.8521
▁Tirk	-10.8525
▁ڕاهێنان	-10.8525
ative	-10.8527
▁agahdariyê	-10.853
▁pêşve	-10.8533
kurdish	-10.8534
▁TimeTec	-10.8534
▁ئێواران	-10.8534
▁گەردوون	-10.8534
▁Tîpa	-10.8534
▁navçeya	-10.8534
▁bistîne	-10.8534
▁USD	-10.8535
▁havîn	-10.8535
▁bedenê	-10.8536
▁Welat	-10.8537
▁nehatiye	-10.8538
▁dengên	-10.8539
cur	-10.8539
▁Navnîşana	-10.8543
پەر	-10.8551
▁para	-10.8555
▁çermê	-10.8561
▁جل	-10.8565
▁ترسا	-10.8568
▁pêwîstî	-10.8572
▁îmze	-10.8577
▁ڕێبازێک	-10.8578
bas	-10.8582
▁Dewletê	-10.859
▁nabe	-10.8591
▁veguherîne	-10.8597
▁Comp	-10.8598
▁خاوەن	-10.8607
▁Rêjeya	-10.8617
▁account	-10.8617
▁ئاژەڵ	-10.8617
▁دوودڵی	-10.8617
▁parêzer	-10.8618
▁show	-10.8618
▁href	-10.8618
▁فە	-10.8624
▁paşîn	-10.8629
▁گرنگتر	-10.8629
▁OS	-10.8632
▁materyalê	-10.8632
▁Turk	-10.8633
▁mezintirîn	-10.8636
▁Çile	-10.8643
▁nîvê	-10.8644
table	-10.8645
▁çavên	-10.865
krî	-10.8653
▁تاوانیان	-10.8654
▁Up	-10.8655
▁کۆتا	-10.8657
▁Demjimêr	-10.8658
▁Group	-10.8658
▁televîzyonê	-10.8658
▁Bersîv	-10.8658
▁فرۆشتن	-10.8658
▁FSX	-10.8658
▁wextê	-10.8658
▁گواستن	-10.8662
▁Jî	-10.8665
▁çîn	-10.8671
îp	-10.8679
▁karsaziya	-10.8679
▁My	-10.8679
▁رستم	-10.8685
▁karûbar	-10.8691
▁Pay	-10.8693
▁organ	-10.8696
▁تاکو	-10.8697
▁bijare	-10.8698
poison	-10.87
▁Pîroz	-10.87
▁SPAM	-10.87
▁xNUMX	-10.87
▁şûş	-10.87
▁دێرین	-10.87
▁erzan	-10.8703
▁nakin	-10.8705
▁Jiyan	-10.8707
بونەوە	-10.8711
▁تەمەن	-10.8725
▁Rêveberê	-10.8726
çûn	-10.873
▁جاڕ	-10.8731
▁paqijkirina	-10.8735
▁dagir	-10.8741
▁Hilbijêre	-10.8742
▁Kürt	-10.8742
▁spartinê	-10.8742
▁کڕنووش	-10.8742
ification	-10.8742
▁دیزاین	-10.8742
▁baxçe	-10.8742
▁ڵوێست	-10.8742
▁پرسێت	-10.8742
▁سەرچاوە	-10.8743
▁hebûn	-10.8744
▁بەڕێوە	-10.8744
▁çandiniy	-10.8744
▁فیل	-10.8748
▁derî	-10.8749
▁نادرێت	-10.8751
gy	-10.8754
▁تاك	-10.8756
ھێ	-10.8763
kur	-10.8768
▁سود	-10.8782
▁têkiliya	-10.8784
▁ژیانیان	-10.8785
▁Koreya	-10.8787
pêş	-10.8788
▁Sun	-10.879
▁dermanê	-10.8795
▁roman	-10.8798
îstan	-10.8799
▁standin	-10.8801
axa	-10.8801
▁Vol	-10.8806
test	-10.8808
▁یادخ	-10.8817
شوێن	-10.8818
part	-10.8823
▁minutes	-10.8826
▁ھەموو	-10.8826
▁PDF	-10.8826
▁zêdekirina	-10.8826
▁lîstikvan	-10.8838
YE	-10.884
▁نوێی	-10.8844
تەر	-10.885
ارم	-10.8855
▁dadgehê	-10.8856
▁هەم	-10.8861
don	-10.8867
▁Powder	-10.8868
▁Pergalê	-10.8868
▁lidarxistin	-10.8869
▁رشتیار	-10.887
▁چێنن	-10.8871
▁ریای	-10.8872
▁zêr	-10.8873
▁لەمە	-10.8874
▁balafirê	-10.8875
▁Şer	-10.8881
▁MA	-10.8892
▁Zêdetir	-10.8898
▁televizyonê	-10.8901
ih	-10.8902
bilind	-10.8904
زانێت	-10.8908
▁sedsala	-10.8911
▁لەبارەی	-10.8911
▁welêt	-10.8911
ئەو	-10.8912
کردنەوە	-10.8913
▁ستا	-10.8919
▁Ferman	-10.8928
fon	-10.8931
▁Sch	-10.8934
▁ڕیز	-10.8944
▁بڵێس	-10.8947
▁Get	-10.8947
▁bifikirin	-10.8954
▁news	-10.8955
▁نازانێت	-10.8958
▁کچان	-10.896
▁cable	-10.8962
ێست	-10.8964
▁Bikin	-10.8968
▁stand	-10.8972
▁شاخ	-10.8973
▁ڤی	-10.8974
▁باخات	-10.8978
خاو	-10.8981
▁ڵس	-10.8981
▁Hal	-10.8985
یاخود	-10.8989
▁ئایینی	-10.8993
▁sûd	-10.8994
▁رسامی	-10.8994
▁بیگ	-10.8995
numreya	-10.8996
▁bisekinin	-10.8996
▁xerîb	-10.8996
▁کاروباری	-10.8998
▁Bernameya	-10.8999
▁وشك	-10.9
▁دۆڵ	-10.9006
▁guherîn	-10.9011
▁Uni	-10.9016
▁lingê	-10.9016
▁By	-10.9017
irandin	-10.9018
▁بگە	-10.9022
dayî	-10.9025
▁City	-10.9026
▁خەون	-10.9035
حف	-10.9037
▁Piştgiriy	-10.9039
▁گروپ	-10.904
▁ئەوەندە	-10.904
▁Şiirler	-10.9041
▁ئەوا	-10.9049
ino	-10.9052
▁zanîngehên	-10.9056
▁birin	-10.9066
▁French	-10.9083
▁ثمود	-10.9083
▁dibêjim	-10.9083
▁hundur	-10.9083
▁Amedê	-10.9083
▁şekir	-10.9083
▁بدەین	-10.9083
▁profîl	-10.9084
▁دوژمنان	-10.9084
▁zanîngeha	-10.9087
▁ناکۆکی	-10.9087
▁Peyam	-10.9089
▁tîp	-10.9091
▁نامێنێت	-10.9093
▁nexweşiyê	-10.91
▁hêzên	-10.9101
▁qedand	-10.9104
▁pirsî	-10.9105
▁Kontrol	-10.9108
▁non	-10.9109
▁add	-10.9109
▁نەبێت	-10.9109
▁ڕابگ	-10.9114
▁گەیشت	-10.9119
.07.2016	-10.9126
NIGMA	-10.9126
▁access	-10.9126
▁hiqûq	-10.9126
▁ڕابواردن	-10.9126
▁status	-10.9126
▁کین	-10.9128
okra	-10.9129
▁milyar	-10.9129
▁رپابوونی	-10.9129
▁ewlehî	-10.9129
▁xwarina	-10.913
▁cezayê	-10.9135
▁جین	-10.9144
▁ڕاستگۆیان	-10.9149
nam	-10.915
ەكان	-10.9153
▁شەش	-10.9154
▁MB	-10.9164
▁zûtir	-10.9166
▁Dewleta	-10.917
▁fonksiyonê	-10.917
▁comments	-10.917
▁Hingê	-10.917
▁Tebaxê	-10.9171
▁دڵسۆزی	-10.9172
▁400	-10.9173
lock	-10.9173
▁çareserkirina	-10.9184
▁تەمەنی	-10.9187
▁Para	-10.919
ووش	-10.9194
▁Tre	-10.9196
▁por	-10.9197
▁Auto	-10.9197
▁Live	-10.9199
▁نجی	-10.9203
▁باوك	-10.9205
▁awayê	-10.9208
▁ڕاستەقینە	-10.9214
▁ئابوری	-10.9214
▁هەڵبژاردن	-10.9214
▁دۆسی	-10.9214
▁کورسی	-10.9215
▁erênî	-10.9216
▁زانکۆ	-10.9217
▁Lebê	-10.9218
▁باپیرانمان	-10.9219
▁هود	-10.9219
▁Baş	-10.9221
▁rêwî	-10.9221
▁Pirtûk	-10.9224
▁Almanyayê	-10.9225
▁Têketin	-10.9238
▁دوژمنانی	-10.924
▁بڕوات	-10.9246
▁stêr	-10.9246
▁Bro	-10.9247
▁Java	-10.9255
لوط	-10.9256
\\\\	-10.9258
▁Girtîgeha	-10.9258
▁yekîneyên	-10.9258
▁هەنگاو	-10.9258
▁بەرچاو	-10.926
▁سەرکەوتن	-10.9262
▁سادە	-10.9274
0.1	-10.9275
ihêr	-10.9276
▁Kontrola	-10.9277
ڵێت	-10.9281
tis	-10.9283
▁پارێزراو	-10.9285
[1]	-10.9297
▁alîkariyê	-10.9299
▁لانی	-10.93
▁ناسن	-10.9301
▁Bazirganî	-10.9302
▁ئەزموون	-10.9302
▁Form	-10.9302
▁زینا	-10.9307
▁peyva	-10.9311
▁ڕەنگە	-10.9319
▁قام	-10.9319
▁ئیم	-10.932
▁كێش	-10.9327
▁زانینی	-10.9328
▁hefteyê	-10.9332
لیۆن	-10.9334
-12	-10.9337
▁هێنرا	-10.9341
▁ناپاک	-10.9343
▁dixw	-10.9344
▁Business	-10.9347
▁check	-10.9347
▁qanûnî	-10.9347
▁توێی	-10.9349
▁Dawî	-10.9352
▁ھەر	-10.9354
▁xala	-10.9361
▁Set	-10.9367
▁Nu	-10.937
▁leşkerî	-10.9371
▁rengek	-10.938
LA	-10.938
▁بێدارک	-10.9384
head	-10.9385
▁tûr	-10.9385
▁پاراو	-10.9387
▁lêkolînên	-10.9391
▁modelên	-10.9391
▁dîrokê	-10.9391
▁Teknîkî	-10.9391
▁DVD	-10.9391
▁zirar	-10.9391
▁hilweşîn	-10.9391
▁sedemên	-10.9392
▁خاش	-10.9392
▁میلل	-10.9392
▁بۆشایی	-10.9392
;&	-10.9393
▁ڕێکخستن	-10.9394
▁Gund	-10.9396
▁xwendinê	-10.94
▁بەبێ	-10.9402
▁ریادا	-10.9407
▁Nivîsar	-10.9411
SI	-10.9414
▁DC	-10.9422
▁bazarên	-10.9427
▁لان	-10.9429
IV	-10.9429
▁Australia	-10.9436
▁hevpeyman	-10.9436
▁screen	-10.9436
▁هەسارە	-10.9436
▁ڕۆژئاوا	-10.9436
▁hevalbend	-10.9436
▁تێر	-10.9437
▁چێژ	-10.9437
▁First	-10.9439
▁هێندە	-10.9441
▁بکەینەوە	-10.9445
بردن	-10.9446
▁endam	-10.9446
▁Term	-10.9447
خستنی	-10.9449
▁Kodi	-10.9452
▁Nivîskar	-10.9456
▁باخچ	-10.9458
▁avahiyên	-10.9462
ml	-10.9476
▁فسی	-10.9479
ێنرا	-10.948
▁dihêle	-10.9481
▁Dîtin	-10.9482
▁Bihayê	-10.9482
▁hilberandin	-10.9483
▁پێشینان	-10.9485
▁ئەرک	-10.9486
▁nirxa	-10.9487
▁vol	-10.9488
ەوانە	-10.9488
▁dîrokî	-10.9494
▁saziyên	-10.9495
▁نزیکدا	-10.9497
▁Bed	-10.9497
▁رۆژی	-10.9498
▁دەتوانی	-10.95
▁avahiyê	-10.95
▁ئەل	-10.9501
kuj	-10.9502
▁Dirb	-10.9505
▁(2)	-10.951
▁options	-10.9512
▁tenduristiyê	-10.9512
▁qat	-10.9512
0.0	-10.9514
▁Zi	-10.9522
▁civakê	-10.9522
▁Line	-10.9526
▁دارخورما	-10.9526
▁Zêrîn	-10.9526
▁bixweber	-10.9526
▁بگات	-10.9527
▁temenê	-10.9528
-9	-10.9528
▁kinc	-10.9529
700	-10.953
▁وەستا	-10.9531
▁خانوو	-10.9531
▁Shi	-10.9533
▁nekin	-10.9533
▁توڕ	-10.9536
▁pirtûkxane	-10.9537
▁250	-10.9539
▁خوێنرێت	-10.9539
▁option	-10.9541
ving	-10.9542
▁tund	-10.9545
▁herdem	-10.9549
▁$1	-10.9549
▁şirketa	-10.9553
UT	-10.956
▁Navnîşan	-10.9563
▁Tevî	-10.9564
▁ڕۆم	-10.9566
ێنرێن	-10.9568
îrok	-10.9569
▁Van	-10.957
▁Hilber	-10.9571
▁lezgîn	-10.9572
▁wusa	-10.9572
▁سنور	-10.9573
▁خەریک	-10.9573
class	-10.9579
▁دروستکردووه	-10.9582
▁heywan	-10.9584
▁nêzî	-10.9591
کەرەوە	-10.9593
▁projeyê	-10.9595
stro	-10.9598
▁hand	-10.96
▁love	-10.9601
▁nûçe	-10.9602
▁Nirx	-10.9614
▁گرم	-10.9614
▁crypto	-10.9617
▁بتوانین	-10.9617
▁veqetandin	-10.9618
▁ناوەڕاست	-10.9618
▁سەبار	-10.9618
▁sw	-10.9618
▁Panel	-10.9618
▁TVyê	-10.9621
▁radest	-10.9623
▁کوشتنی	-10.9629
▁sub	-10.9639
▁خولەک	-10.9646
kariya	-10.9656
▁buy	-10.9656
▁گۆشت	-10.9659
▁duyem	-10.9659
گوت	-10.9663
▁Amazon	-10.9663
▁Komeleya	-10.9663
▁pêdiviyên	-10.9663
▁پاڵپشت	-10.9663
▁mijara	-10.9664
▁Internet	-10.9664
text	-10.9668
کراوە	-10.9669
▁ڕۆژێکدا	-10.967
▁carekê	-10.967
▁Fast	-10.9674
کرن	-10.9683
!&	-10.9683
▁nekir	-10.9685
yayî	-10.9687
▁soz	-10.9696
▁عب	-10.9697
▁rastiya	-10.9699
https	-10.9702
▁bendê	-10.9705
400	-10.9705
▁pêşveçûnê	-10.9705
▁تێبینی	-10.9705
▁College	-10.9709
▁bişkojk	-10.9709
▁bidestxistina	-10.9709
▁بازاڕ	-10.9709
▁Xwendin	-10.9709
▁Pirsgirêkên	-10.9709
▁بەیەکەوە	-10.971
▁kesekî	-10.9713
▁paris	-10.9716
▁dereng	-10.9719
▁بزانم	-10.9726
▁Jet	-10.9729
▁Germ	-10.9734
▁nenas	-10.9747
▁parastinê	-10.9748
▁agahdarî	-10.9749
پاشان	-10.9755
▁Dubai	-10.9756
▁Vîdyo	-10.9756
▁Profîl	-10.9757
▁تێکەڵ	-10.9758
▁2006	-10.9764
▁گۆش	-10.9766
▁kesk	-10.9768
▁Add	-10.9769
îzma	-10.9772
▁xwendekar	-10.9798
▁ڵستی	-10.9802
▁سروشت	-10.9802
Description	-10.9802
▁Netewî	-10.9802
▁هێمنی	-10.9802
▁polîtîk	-10.9802
▁peldanka	-10.9802
▁rola	-10.9802
[3]	-10.9802
▁analîz	-10.9803
▁bazirganiya	-10.9807
cast	-10.981
▁navnîşana	-10.9811
▁pîr	-10.9813
▁mayî	-10.9819
gle	-10.982
▁dahat	-10.9821
▁hebûna	-10.9824
▁كتر	-10.9825
▁Ver	-10.9829
▁کێشا	-10.9837
gur	-10.9837
▁پیاد	-10.9843
KAR	-10.9843
300	-10.9846
▁bernameyê	-10.9847
دەزانی	-10.9847
▁بنیات	-10.9848
▁Rêbendan	-10.9849
▁garantî	-10.9849
▁Helbest	-10.9849
▁شیرین	-10.985
▁رموود	-10.9851
▁serlêdan	-10.9852
▁tedawî	-10.9855
▁that	-10.9857
▁Steel	-10.9859
▁xem	-10.9859
▁دەبوو	-10.986
▁wergirt	-10.9861
▁کارەبا	-10.9862
▁dirav	-10.9866
wendiy	-10.9867
ەرەوە	-10.9867
▁navnîşa	-10.9869
▁لەدەست	-10.987
▁Daxistina	-10.9871
▁laş	-10.9874
▁êdî	-10.9876
CI	-10.9879
▁rêyên	-10.9884
▁دایکم	-10.9884
▁حاڵ	-10.9886
▁نوسین	-10.9888
▁مرن	-10.989
▁توێژ	-10.9896
▁بتوانن	-10.9896
▁OEM	-10.9896
▁Guhertin	-10.9896
▁engine	-10.9896
▁dimîne	-10.9896
▁odeya	-10.9897
▁deryayê	-10.9903
▁Express	-10.9905
پشک	-10.9907
▁برایان	-10.9917
▁ژور	-10.9925
▁Bird	-10.9926
▁پڕۆژە	-10.9926
▁ناف	-10.9932
ببن	-10.9939
▁کۆمەڵگا	-10.9943
vayrûs	-10.9943
▁دووچاری	-10.9943
▁دەکەوێت	-10.9943
▁پوخت	-10.9943
▁پێشنیار	-10.9944
▁neteweyî	-10.9944
rogen	-10.995
▁sepanên	-10.9958
▁گۆڕینی	-10.9972
▁zimanên	-10.9973
count	-10.9982
▁hûrgelan	-10.999
▁ئینگلیزی	-10.999
▁jîngehê	-10.9991
▁Mînak	-10.9991
▁kêr	-10.9993
▁ترازا	-11
▁çepê	-11.0001
▁ساڵە	-11.0008
▁park	-11.0026
▁فریشتان	-11.0028
▁Weşan	-11.0034
▁guhertoya	-11.0038
▁hevpeyvîn	-11.0038
▁هاتووچۆ	-11.0038
▁Network	-11.0038
▁Nexweş	-11.004
▁pak	-11.0042
tûn	-11.0047
▁توانیت	-11.0048
▁sûc	-11.0053
HE	-11.0059
▁hewayê	-11.0062
▁Weşanên	-11.0072
▁دەبێتەوە	-11.0076
▁Ajansa	-11.0086
▁cûrbecûr	-11.0086
▁klasîk	-11.0086
▁picture	-11.0086
▁دەتوانم	-11.0086
▁پێچەوانە	-11.0086
▁faktor	-11.0087
▁بڕیارمان	-11.009
▁نابیستن	-11.009
BAR	-11.0094
▁rêveberê	-11.0096
▁کراوان	-11.0097
▁دۆزینەوەی	-11.0097
bal	-11.0101
▁lêgerînê	-11.0109
▁How	-11.0112
▁kêl	-11.0116
▁ڕەش	-11.0116
▁amadekirin	-11.0117
olog	-11.0117
ساڵ	-11.0129
▁located	-11.0134
▁Şîfre	-11.0134
▁پەروەردە	-11.0134
▁tedbîr	-11.0134
▁ڕاپێچ	-11.0134
stream	-11.0135
Fi	-11.0141
▁Rêveber	-11.0141
▁card	-11.0143
deng	-11.0148
▁ئێستاش	-11.0148
▁تانکرد	-11.015
▁هەڵدە	-11.0152
▁tirs	-11.0167
▁heywanên	-11.0169
▁ڕۆیشتن	-11.017
▁LI	-11.0171
▁Life	-11.0174
▁باسکران	-11.0177
▁Yu	-11.018
▁زاناکان	-11.0181
▁September	-11.0182
▁rizgar	-11.0182
▁Aborî	-11.0182
▁cnc	-11.0182
▁Tomar	-11.0189
▁وشک	-11.0189
▁auto	-11.019
▁cihekî	-11.0191
▁desteserkirin	-11.02
bînin	-11.0203
hang	-11.0204
▁berdest	-11.0206
rêveber	-11.0213
▁çavdêr	-11.0215
▁مێکیان	-11.0216
مرێنێت	-11.0218
▁Roman	-11.0222
mbo	-11.0224
ür	-11.0229
▁teknolojiyê	-11.0231
▁siyasî	-11.0231
▁Dabeş	-11.0231
▁sivîl	-11.0231
▁پێشبڕکێ	-11.0231
▁Armanca	-11.0231
▁گرفت	-11.0232
▁هاوبەش	-11.0232
▁بازن	-11.0232
▁dayik	-11.0234
▁باراندوو	-11.0234
[	-11.0235
▁گەڕان	-11.0236
▁dr	-11.0252
rap	-11.0266
qi	-11.0271
▁opt	-11.0271
خۆر	-11.0274
ngilîzî	-11.0278
▁iPhone	-11.028
▁مامەڵە	-11.028
▁ڕێکوپێک	-11.028
▁arşîv	-11.028
▁دێهات	-11.028
▁bixwînin	-11.028
▁شارەزا	-11.028
▁kredî	-11.028
▁alloy	-11.028
▁ڕوودەدات	-11.0282
▁هاوتای	-11.0282
▁دەروونی	-11.0284
▁Super	-11.0285
▁ببات	-11.0291
▁لارو	-11.0299
="5	-11.0307
1.1	-11.0311
▁Yo	-11.0316
▁ڕێزدار	-11.032
▁gavê	-11.0326
▁plugin	-11.0329
▁hiştin	-11.0329
▁بەرنامە	-11.0329
▁Lêgerîn	-11.0329
▁Veguhestin	-11.0329
▁Rêxistin	-11.033
yaredariy	-11.0332
▁nûçeyên	-11.0332
▁تاڵاو	-11.0337
▁player	-11.0341
▁Serok	-11.0348
▁مەبەست	-11.0356
GI	-11.0361
▁hefteyên	-11.0367
بگرێت	-11.0373
▁يه	-11.0375
▁Municipalit	-11.0378
▁window	-11.0378
▁zivistan	-11.0378
▁sektora	-11.0378
▁şîrove	-11.0378
▁شومار	-11.0378
▁nêrîn	-11.0378
▁ئەوکاتە	-11.0379
▁USA	-11.0382
bul	-11.0383
▁heyecan	-11.0384
▁Heat	-11.0389
▁rojava	-11.039
▁King	-11.039
▁mêran	-11.0391
▁Şert	-11.0393
▁بڕین	-11.0397
bigere	-11.0402
▁بەڕێ	-11.0409
oper	-11.041
▁hezaran	-11.0417
▁make	-11.0421
lı	-11.0426
▁شکاند	-11.0427
▁ڤایرۆس	-11.0427
▁kaxez	-11.0427
▁biparêze	-11.0428
▁movie	-11.0428
▁kevneşop	-11.0429
trop	-11.0431
Têkilî	-11.0433
▁Module	-11.0434
▁Apple	-11.0435
▁xaniyê	-11.0441
▁Ken	-11.0446
▁چووزانی	-11.0448
▁Direct	-11.0453
درا	-11.0458
▁بیرناک	-11.046
▁karmend	-11.0462
IA	-11.0463
▁şêwirmend	-11.0477
▁رازوو	-11.0477
▁گینا	-11.0477
Query	-11.0477
▁خێو	-11.0478
▁رگرتووه	-11.0485
ئاو	-11.0487
▁Raw	-11.0487
▁qad	-11.0489
▁رمای	-11.0492
▁کڕین	-11.0495
▁nîne	-11.0496
▁Nikar	-11.05
ift	-11.0501
▁زریان	-11.0505
▁toz	-11.0506
GB	-11.052
▁تیادایه	-11.052
▁ڵسو	-11.0524
▁کردووم	-11.0526
UN	-11.0527
▁Şoreş	-11.0527
–	-11.0534
▁وشکانی	-11.0536
▁٢٠٠	-11.0537
▁Love	-11.0554
şînin	-11.0559
▁Pey	-11.056
▁erk	-11.056
▁awayek	-11.0563
lîz	-11.0563
▁Exchange	-11.0577
▁derheqê	-11.0577
▁saxlem	-11.0577
▁Avrêl	-11.0577
▁tikandinê	-11.0577
▁Lîstik	-11.0577
Play	-11.0578
▁kursên	-11.0579
▁تووڕ	-11.0579
▁دەردەکەوێت	-11.0581
▁dermankirinê	-11.0587
پرسیار	-11.0587
▁Baştir	-11.0591
▁جوڵە	-11.0593
▁ئاماژە	-11.0601
▁دەژین	-11.061
▁berpirsiyar	-11.0611
▁ڕیسوایی	-11.0624
▁klînîk	-11.0628
▁ئینتەرنێت	-11.0628
▁Bluetooth	-11.0628
▁Swêd	-11.0628
▁دەزانین	-11.0628
▁domdar	-11.0629
▁ڕێکخراو	-11.0629
▁ئاسود	-11.0633
▁pêvek	-11.0635
▁بدەم	-11.0644
▁Barkirina	-11.0652
کردووە	-11.0657
ریش	-11.0661
NG	-11.0665
graf	-11.0668
▁پێدان	-11.0669
دروست	-11.0673
▁pîşeyî	-11.0679
▁Mobile	-11.0679
▁fabrîk	-11.0679
▁بێئاگا	-11.0679
▁Operasyon	-11.0679
▁Encam	-11.0679
▁çalakiyê	-11.0684
▁qeydkirî	-11.0687
▁ندام	-11.0698
هێناوه	-11.0701
شێوە	-11.0714
▁دەستپێ	-11.0715
▁Pêveka	-11.0717
▁Pûşper	-11.073
▁seranserî	-11.073
▁سەرنجڕاکێش	-11.073
▁لێناکرێت	-11.073
▁Firotin	-11.073
▁Space	-11.073
▁Çiyayî	-11.073
▁تێرو	-11.0733
▁drive	-11.0734
▁بەرگری	-11.0746
▁لەوانە	-11.075
rator	-11.0753
▁چاڵ	-11.0761
SR	-11.0763
گەیشت	-11.0769
▁بڕوادار	-11.0775
▁hormone	-11.0781
▁surface	-11.0781
▁دۆعا	-11.0781
▁Polîtîka	-11.0781
▁bijîşk	-11.0781
▁derdora	-11.0781
▁حاڵێکدا	-11.0782
HT	-11.0784
▁پێشکەش	-11.0784
PG	-11.0784
▁gotara	-11.0787
▁şeh	-11.0788
▁Awa	-11.0789
▁materyal	-11.0799
▁کارەکە	-11.08
▁parçe	-11.0809
▁سووت	-11.0819
▁qutkirin	-11.0819
▁vexwarinê	-11.0833
▁Îranê	-11.0833
▁qenc	-11.0833
▁piştevanîya	-11.0833
▁fînans	-11.0834
▁Girav	-11.0834
▁‘’	-11.0835
▁گوند	-11.0839
▁پارێزکاربن	-11.084
▁ڕووناک	-11.0841
▁bête	-11.0845
دوور	-11.0846
ئێوه	-11.0852
▁oto	-11.0853
▁لێکردو	-11.0855
▁Bawer	-11.0881
▁biafirîne	-11.0884
▁fikrên	-11.0884
▁pevçûn	-11.0884
▁ڕابوردوو	-11.0884
▁charter	-11.0884
ûna	-11.0885
▁nêz	-11.0885
▁رشانی	-11.0887
▁xetên	-11.0887
▁ناسراو	-11.0895
▁Sar	-11.0903
VI	-11.0909
▁Fire	-11.0909
▁tîrêjê	-11.0912
چاک	-11.0914
gent	-11.0915
MU	-11.0919
▁SER	-11.0929
▁زیندان	-11.0932
nstru	-11.0933
▁cem	-11.0936
▁nizanin	-11.0936
▁رناگیرێت	-11.0936
▁mifte	-11.0938
▁Enqereyê	-11.0939
▁tecrubeya	-11.0939
بیستن	-11.0943
▁ڕۆژوو	-11.0943
olone	-11.0944
▁هەشت	-11.0959
▁gavên	-11.0962
▁دایب	-11.0974
NN	-11.0974
▁خوارەوە	-11.0974
2015	-11.0978
دەست	-11.0984
▁بەناو	-11.0985
▁Berfanbar	-11.0989
▁بەرامبەر	-11.0989
▁Ewrûpa	-11.0989
▁temaşevanan	-11.0989
▁sererast	-11.0989
▁دارستان	-11.0992
▁qanûna	-11.1
▁hatibûn	-11.1013
کران	-11.1018
▁كوشت	-11.1018
▁خراپترین	-11.1021
▁مکارتر	-11.1025
▁وزەی	-11.1035
▁rexne	-11.1042
Veguheztina	-11.1046
▁125	-11.1047
▁hevpar	-11.1048
▁Game	-11.1051
▁şîfre	-11.1052
▁Dev	-11.1057
▁çandî	-11.1058
▁ئەکات	-11.1059
▁Got	-11.1073
▁Destûra	-11.1076
play	-11.1081
▁دانیشتن	-11.1081
▁Çand	-11.1082
Book	-11.1088
▁Service	-11.1094
▁tedawiya	-11.1094
▁search	-11.1094
▁module	-11.1094
itch	-11.1095
▁block	-11.1096
▁دیکە	-11.1097
▁Check	-11.11
ism	-11.1102
▁Out	-11.1115
لیس	-11.1126
Nav	-11.1128
2019	-11.113
hai	-11.1132
▁جیاکردن	-11.1133
▁îm	-11.1147
▁têkoşîn	-11.1147
▁کلتور	-11.1147
▁hewldanên	-11.1148
▁buhayê	-11.1148
▁Rêwît	-11.1148
▁Dîmen	-11.1149
▁Daxwaz	-11.1151
▁Ereb	-11.1152
ology	-11.1157
OP	-11.1166
zmî	-11.1167
▁Table	-11.117
▁مەبەستم	-11.1173
Com	-11.1177
▁dating	-11.1177
▁ڵکان	-11.1181
▁masî	-11.1183
▁pergalên	-11.1184
▁Rapor	-11.1197
▁serîlêdanê	-11.1201
▁سەرسوڕهێنەر	-11.1201
▁xirab	-11.1201
▁پشتگوێ	-11.1203
▁Qada	-11.1205
▁چڵ	-11.1206
▁operasyonê	-11.121
▁ناچار	-11.1213
▁Dane	-11.1215
UL	-11.1217
blog	-11.1231
▁بڕۆن	-11.1238
▁پرسین	-11.1239
▁ردووک	-11.1239
▁کڕی	-11.1244
▁چووین	-11.1248
▁şand	-11.1252
cryptocurrencies	-11.1255
▁Guherandinên	-11.1255
▁October	-11.1255
▁Bandor	-11.1255
▁طور	-11.1255
▁کۆرپ	-11.1255
▁guhartin	-11.1256
▁dubare	-11.1256
▁your	-11.1256
▁گۆرانی	-11.126
گوێ	-11.1261
▁لۆم	-11.1264
▁بژین	-11.1264
▁tank	-11.1271
mount	-11.1283
▁Piran	-11.1284
▁سەدەی	-11.1294
▁şikand	-11.1297
▁Hilbijartina	-11.1309
KIRIN	-11.1309
▁خەیاڵ	-11.1309
▁URL	-11.1309
@}	-11.1313
▁رێگ	-11.1314
▁دیهێنراو	-11.1315
kişî	-11.1324
▁نەکرد	-11.1326
▁Vo	-11.1327
▁alîyê	-11.1329
▁Peldanka	-11.1331
▁تاریک	-11.1334
▁Fransa	-11.1336
▁Lab	-11.1351
▁مبار	-11.1356
▁هاتبێت	-11.1357
▁Mil	-11.136
▁Parçeyên	-11.1363
▁Swîsre	-11.1363
▁hişmend	-11.1363
▁muwekîlê	-11.1363
▁nikaribû	-11.1363
▁qalîteya	-11.1363
▁GNOME	-11.1363
▁parlamenter	-11.1363
▁دڕند	-11.1363
▁Derbarê	-11.1363
▁خانەکان	-11.1364
▁توش	-11.1364
▁device	-11.1364
▁سیاسی	-11.1365
▁daye	-11.1366
▁نایاب	-11.1367
▁چالاک	-11.1372
nîşan	-11.1373
▁pereyan	-11.138
▁ereb	-11.138
گوزار	-11.138
bawer	-11.1386
▁کەسانی	-11.1389
▁NO	-11.1399
▁کوشتن	-11.1408
▁Exp	-11.1408
فڕ	-11.141
خوان	-11.1415
▁Pêvajoya	-11.1418
▁Wezîrê	-11.1418
▁تێکۆشان	-11.1418
▁بكوژ	-11.1418
▁Destpêkirin	-11.1418
▁Girl	-11.1419
hefta	-11.142
▁zîv	-11.1421
▁ajok	-11.1422
▁ئەکەن	-11.1425
▁دیداری	-11.143
▁دەڵێم	-11.143
▁pakêt	-11.1439
▁xwendekaran	-11.1439
▁Pîl	-11.1445
▁Key	-11.1447
شێوه	-11.1458
▁بچیت	-11.1459
▁otomobîl	-11.1473
▁Şirket	-11.1473
▁ڕوخسار	-11.1473
▁vebijêrk	-11.1473
▁sifrê	-11.1473
▁PKK	-11.1473
▁Tirkiye	-11.1474
برد	-11.1477
▁têkçû	-11.1477
▁Stran	-11.1478
▁baweriya	-11.148
▁کوژن	-11.1481
▁over	-11.1483
▁دەوێت	-11.1487
▁heger	-11.1487
▁Gold	-11.1487
ship	-11.1491
▁ڕۆژانە	-11.1507
▁شوێنێکدا	-11.1509
mayî	-11.1523
▁Ewlekariya	-11.1528
▁تەکنەلۆجیا	-11.1528
▁kêrhatî	-11.1528
olojiya	-11.153
▁Program	-11.153
▁دیل	-11.1534
▁خواردووه	-11.1535
▁کوڕان	-11.154
▁ربازانی	-11.155
بڕێت	-11.1565
گڵ	-11.1572
kom	-11.1573
▁Saz	-11.1574
▁marketing	-11.1584
▁کخواناسی	-11.1584
▁حکومەت	-11.1584
▁کۆمەڵێک	-11.1584
▁slots	-11.1584
▁biguherîne	-11.1584
▁کریس	-11.1586
ün	-11.159
▁cover	-11.1592
▁View	-11.1596
▁کرابێت	-11.1596
dawî	-11.1605
2.5	-11.1609
▁Gal	-11.1613
▁Kurte	-11.1622
▁File	-11.1628
سۆن	-11.1636
▁bafûn	-11.1639
▁gerdûnî	-11.1639
▁دکتۆر	-11.1639
▁هاتوچۆ	-11.1639
▁şahid	-11.1639
▁from	-11.1643
▁ڕێنمو	-11.1643
▁dîyar	-11.1644
▁bername	-11.1646
▁ڵێین	-11.1653
▁گوای	-11.1654
▁Just	-11.1654
▁تاریکای	-11.1657
دڵنیا	-11.1658
▁careke	-11.1659
دووڕوو	-11.1659
▁photos	-11.166
▁کاریگەر	-11.166
▁Kurdi	-11.1661
▁ئەس	-11.167
▁çîrok	-11.1674
▁Make	-11.1681
▁بیانوو	-11.1691
▁Pîşesaziy	-11.1696
tattoş	-11.1696
▁ناقۆڵا	-11.1696
▁hêmanên	-11.1696
▁ئیسماعیل	-11.1696
▁diranên	-11.1697
▁kevnar	-11.1707
▁telefon	-11.1709
▁balafir	-11.1721
▁Anti	-11.1732
GO	-11.1732
▁مانگانه	-11.1744
▁şirketên	-11.1751
girt	-11.1751
▁pêşvebirina	-11.1752
▁لێشێواو	-11.1752
▁موشریك	-11.1752
▁بکەنەوە	-11.1753
▁Çîrok	-11.1754
▁hêjayî	-11.1755
media	-11.1756
▁2005	-11.1767
▁کۆچب	-11.1767
چونك	-11.1768
raq	-11.1777
ugh	-11.1778
▁ژیریتان	-11.178
▁mijarê	-11.1783
lling	-11.1795
▁giraniya	-11.1807
▁Kategorî	-11.1809
▁manufacturer	-11.1809
▁gihîştina	-11.1809
▁بەراورد	-11.1809
▁zilam	-11.1809
▁سەرکەوتوو	-11.1809
▁update	-11.1809
▁USB	-11.1809
▁odeyên	-11.1809
▁cil	-11.181
▁ڵتاندا	-11.1811
▁ھەیە	-11.1823
▁ستکاری	-11.1823
▁kontrolkirin	-11.1826
▁دزی	-11.1828
▁چاند	-11.1829
giştî	-11.1832
▁نرخێکی	-11.1838
▁lingên	-11.1846
▁betalkirin	-11.1846
▁چاكتر	-11.1864
▁December	-11.1866
▁Hezîran	-11.1866
▁Hişyar	-11.1866
▁Taybetmendiyên	-11.1866
▁hesibandin	-11.1866
▁potansiyel	-11.1866
▁rêkûpêk	-11.1866
▁شەقام	-11.1866
▁qirêj	-11.1866
▁Alîkarî	-11.1868
▁gelo	-11.1869
▁EMU	-11.1872
▁Series	-11.1873
▁دەگرێت	-11.1877
▁sand	-11.1879
▁çavdêriya	-11.1885
▁jorîn	-11.1886
▁ڕێگری	-11.1892
▁operasyonên	-11.1918
▁تکاکار	-11.1923
▁bikişînin	-11.1924
▁xerîdar	-11.1924
▁Boeing	-11.1924
▁بوترێت	-11.1924
▁لەسەدا	-11.1924
▁Radyo	-11.1924
▁travel	-11.1924
▁پارێزكار	-11.1924
▁پشتگیر	-11.1925
IY	-11.1926
▁Nasname	-11.1928
▁تێپەڕ	-11.1929
▁tips	-11.193
▁Dîsk	-11.193
▁pêşxistin	-11.1936
▁112	-11.1937
spor	-11.1938
▁mor	-11.1941
▁ڕاگر	-11.1942
▁VC	-11.1944
▁Leza	-11.1944
▁کای	-11.1948
▁şîret	-11.1951
▁malper	-11.1963
▁گەڕا	-11.1979
▁kil	-11.1979
▁ewlekariyê	-11.1981
▁mesrefên	-11.1981
▁Meriva	-11.1981
▁کۆمەڵە	-11.1981
▁êriş	-11.1982
▁saya	-11.1983
▁wergirtina	-11.1983
▁دەڵێ	-11.1989
ities	-11.1997
▁2003	-11.1998
▁şîr	-11.2003
axiv	-11.2007
zêde	-11.2021
▁Fir	-11.2024
▁Gul	-11.2027
سوڕما	-11.2031
▁Roulette	-11.2039
▁Universe	-11.2039
▁pêşnîyar	-11.2039
zincîra	-11.2039
▁Electronic	-11.2039
▁feature	-11.2039
▁لەمەوبەر	-11.2039
▁vegerin	-11.204
script	-11.204
ęjey	-11.204
embed	-11.2043
▁ڕۆژگار	-11.2045
▁بخوات	-11.2047
▁mişterîyên	-11.2052
يەك	-11.2058
▁سەرۆک	-11.2059
format	-11.206
▁بیرکاری	-11.206
▁دەژی	-11.2063
▁Peyv	-11.2076
▁Piştre	-11.2098
▁لێبوورد	-11.2098
▁guneh	-11.2098
▁Agahiya	-11.2098
▁Pispor	-11.2098
▁jêbirin	-11.21
▁سەخت	-11.2101
▁Giran	-11.2105
▁فریو	-11.2107
▁پاداشتێک	-11.2113
▁veguherînin	-11.2118
shop	-11.2126
▁١٠٠	-11.2142
▁Manufacturer	-11.2157
▁paytexta	-11.2157
▁related	-11.2157
zhou	-11.2158
▁tûşî	-11.2158
▁destnîşankirin	-11.2159
▁devera	-11.2162
▁كۆم	-11.2163
▁Jinên	-11.2163
▁belavbûna	-11.2164
▁arm	-11.2176
▁penaberan	-11.2191
îstîk	-11.2205
▁Erdogan	-11.2216
▁koçber	-11.2216
▁ئەزمون	-11.2216
▁دەسەڵات	-11.2216
▁تێگەیشتن	-11.2216
▁Naverok	-11.2216
▁تەواوەتی	-11.2217
▁Kevir	-11.2218
▁firîna	-11.2219
▁Cîhan	-11.2219
▁Tevger	-11.222
▁ساسی	-11.2221
▁هەردوو	-11.2224
▁Rojava	-11.2224
بدات	-11.223
▁کۆیل	-11.2246
▁ھەڵ	-11.2249
▁naverok	-11.225
▁gerok	-11.2259
▁دەور	-11.2268
▁Click	-11.2275
▁Werger	-11.2275
▁zirav	-11.2275
▁ربڕینی	-11.2276
▁تاریك	-11.2276
▁ئاسایش	-11.2276
▁قووڵ	-11.2276
▁چرکە	-11.2277
▁next	-11.2277
▁دروستکراوانی	-11.2285
▁لاڵ	-11.2292
▁sêwiran	-11.2296
xaneyê	-11.2297
▁وشەی	-11.2297
▁Mor	-11.2303
خێر	-11.2311
▁ڕۆژیش	-11.2315
▁Roll	-11.232
▁track	-11.2321
▁دەکرێ	-11.2322
book	-11.2325
▁belavkirin	-11.2327
▁بچین	-11.2329
▁Kong	-11.2334
▁Civakî	-11.2335
▁Twitter	-11.2335
▁Weqfa	-11.2335
▁bêkêmasî	-11.2335
▁qereqolê	-11.2335
▁cookie	-11.2335
ttle	-11.234
▁darik	-11.2345
▁هەل	-11.2348
▁گەورەترین	-11.2349
▁giring	-11.2351
▁پێناو	-11.2352
کاندن	-11.2353
▁ھاو	-11.2361
▁بەجێ	-11.2362
▁حاڵەت	-11.2366
▁ببینین	-11.2387
▁tercîh	-11.2396
▁vexwendin	-11.2396
▁مۆبایل	-11.2396
▁Reşemî	-11.2396
▁خاك	-11.2396
▁ملیار	-11.2396
Konseya	-11.2399
▁کتێبێک	-11.2404
▁دەدەم	-11.2408
▁Tool	-11.2413
▁dewleta	-11.2414
dhd	-11.2418
▁خراپتر	-11.243
▁نواند	-11.2439
▁paceyê	-11.2439
▁Bang	-11.2441
▁Amûra	-11.2444
hyperlînkê	-11.2456
▁Karûbarên	-11.2456
▁akademîk	-11.2456
▁Şîrket	-11.2456
▁لێبورد	-11.2456
▁هێلک	-11.2456
▁Kanûna	-11.2456
Scroll	-11.2456
▁Film	-11.2458
▁derece	-11.2458
گێڕێت	-11.2466
▁هێنرێت	-11.2469
▁Inter	-11.2481
دۆزینەوە	-11.2489
▁پلەی	-11.2499
ward	-11.2508
▁Doz	-11.251
▁Science	-11.2517
▁takekesî	-11.2517
▁SQL	-11.2517
▁amazing	-11.2517
▁Şaredar	-11.2517
▁pump	-11.2517
▁دەرفەت	-11.2517
▁neçalak	-11.2517
▁دەدەین	-11.2517
▁ewqas	-11.2518
▁Yekem	-11.2521
▁Ronahiya	-11.2521
▁QPSK	-11.2522
▁ماوەیەکی	-11.2522
Indian	-11.2524
▁بیکات	-11.2535
▁State	-11.2535
▁سپڵ	-11.2544
▁mişter	-11.2552
▁Bêguman	-11.2579
▁credit	-11.2579
▁ئیبلیس	-11.2579
▁Online	-11.2579
acetam	-11.2579
▁xelet	-11.2583
▁یاندوون	-11.2583
▁bazirganiyê	-11.2591
▁berpirsiyariya	-11.2599
▁بروا	-11.26
▁Çap	-11.2609
▁Hand	-11.2609
دەدات	-11.2613
▁بڕواکان	-11.2635
▁John	-11.264
▁çarçoveyê	-11.264
▁هەرچەندە	-11.264
▁polîsan	-11.264
▁بوغز	-11.264
صور	-11.2643
▁Wêneyê	-11.2643
ING	-11.2668
▁بور	-11.2674
LC	-11.2687
▁roulette	-11.2702
▁sînyala	-11.2702
▁ئەفریقا	-11.2702
▁صالح	-11.2702
▁bixwazin	-11.2703
▁xelkê	-11.2703
▁بەڵگە	-11.2703
▁Price	-11.2703
cycle	-11.2703
▁fêrbûna	-11.2707
▁cîhana	-11.2709
▁Tirkiyê	-11.271
▁pîşesaz	-11.2711
▁qedexekirin	-11.2713
▁çal	-11.2716
▁نازدار	-11.273
▁birayê	-11.2731
▁Peldank	-11.2739
٦٠	-11.2743
▁hember	-11.2754
▁Bikaranîn	-11.2758
▁Komîsyon	-11.2765
▁Moskowê	-11.2765
▁Private	-11.2765
▁testosterone	-11.2765
▁Ultra	-11.2765
▁ناتوانم	-11.2765
▁range	-11.2765
source	-11.2765
▁زۆردار	-11.2767
▁bêhn	-11.2771
▁بێباو	-11.2785
▁نوسی	-11.2786
4.9	-11.2791
▁bug	-11.2798
xml	-11.2801
▁وەردەگ	-11.2814
▁moda	-11.2816
ئیمانداران	-11.2821
paint	-11.2824
▁transposh	-11.2828
▁Psychic	-11.2828
▁futbolê	-11.2828
▁ڕاستەوخۆ	-11.2828
▁National	-11.2828
▁bakurê	-11.2828
▁Karkerên	-11.2828
▁element	-11.2828
▁ناتوانین	-11.2828
▁دژوار	-11.2828
▁hunermend	-11.2829
▁Cureyê	-11.283
بکەین	-11.2833
▁June	-11.2838
▁Blog	-11.2846
▁نابینیت	-11.2849
پێویست	-11.2866
▁hilbijartî	-11.2891
▁tezmînat	-11.2891
▁هێواش	-11.2891
▁ڕەفتار	-11.2891
▁بناغ	-11.2891
▁BELA	-11.2891
▁smartphone	-11.2891
▁Micro	-11.2891
▁Multi	-11.2892
▁حۆری	-11.2893
▁sifir	-11.2897
kVA	-11.2899
card	-11.292
▁Sazkirin	-11.292
▁Fiber	-11.2922
▁زیر	-11.2927
پێغ	-11.293
IYA	-11.293
▁çep	-11.2952
▁Electric	-11.2955
▁Gurgaon	-11.2955
▁dakêşin	-11.2955
▁muzîka	-11.2955
▁خۆرئاوا	-11.2955
▁ناوبانگ	-11.2955
▁multi	-11.2955
▁چاوەڕێ	-11.2955
▁bihurî	-11.2955
▁dibîne	-11.2955
▁rêwîtiya	-11.2956
▁دابەش	-11.2957
▁سوار	-11.2969
▁End	-11.2969
▁platformeke	-11.2973
▁North	-11.2974
ۆشك	-11.2999
▁poly	-11.3007
▁ceza	-11.3013
▁Axaftin	-11.3019
▁پشکنین	-11.3019
▁Ningbo	-11.3019
▁دروشم	-11.3019
▁خەرج	-11.3019
▁multiple	-11.3019
▁پەنجە	-11.3021
▁درێژایی	-11.3025
▁دەزانم	-11.3029
▁Cook	-11.3038
▁rûnê	-11.3045
بەڵام	-11.3055
▁bombe	-11.3059
▁ڵگرت	-11.306
▁fakult	-11.3083
چەپڵەلێدان	-11.3083
▁Custom	-11.3083
▁axaftina	-11.3083
▁کۆنتڕۆڵ	-11.3083
▁kesayet	-11.3083
▁welding	-11.3083
▁مرواری	-11.3083
▁nivîn	-11.3083
▁display	-11.3083
▁Paceyê	-11.3084
▁fîlim	-11.3084
▁biharê	-11.3084
▁Music	-11.3085
.08.201	-11.3086
▁aloz	-11.3087
▁Fransayê	-11.3091
▁لابد	-11.3099
▁دور	-11.3106
▁ناگرن	-11.311
▁گرێ	-11.311
▁şîfreya	-11.3135
دواش	-11.3135
البقرة	-11.3148
▁Blockchain	-11.3148
▁مسۆگ	-11.3148
▁darizandin	-11.3148
▁دەوترێت	-11.3148
google	-11.3148
▁Ahmet	-11.3148
▁Xwarin	-11.3148
▁Rûpela	-11.3148
▁Full	-11.315
▁نەخێر	-11.315
گۆڕێ	-11.3157
▁نامۆ	-11.3167
▁çem	-11.3171
▁دروستکار	-11.3171
▁ریاکان	-11.3173
▁کۆکردن	-11.3196
خوێند	-11.3204
ێنراون	-11.3207
▁درابوو	-11.3213
▁Materyal	-11.3214
▁Ragihandin	-11.3214
▁Transformer	-11.3214
▁Xanûberey	-11.3214
▁تەکنەلۆژیا	-11.3214
▁خەمۆکی	-11.3214
▁şêwey	-11.3214
▁گێل	-11.3214
▁Daneyên	-11.3222
مود	-11.3223
wood	-11.3231
▁بهێنای	-11.3254
▁Rêzik	-11.3254
اخی	-11.3274
▁Italian	-11.3279
▁bigihîne	-11.3279
▁bêhempa	-11.3279
▁dabînkerê	-11.3279
▁peywendîdar	-11.3279
▁qozeyên	-11.3279
▁ڕەگەز	-11.3279
▁about	-11.3279
▁ئابووری	-11.3279
▁teqez	-11.328
▁Pakêt	-11.328
▁بەها	-11.328
▁Angel	-11.3285
XX	-11.3286
▁پێبگ	-11.3301
▁شاردراو	-11.3338
▁January	-11.3346
▁endezyar	-11.3346
▁کۆمپیوتەر	-11.3346
▁گژوگیا	-11.3346
▁لەڕاستیدا	-11.3346
▁dezgehên	-11.3346
▁چێشت	-11.3346
▁Tiştek	-11.3347
▁Dîmender	-11.3348
▁xelas	-11.3348
osph	-11.3354
▁کتوپڕ	-11.3355
▁Saziya	-11.3362
▁لوپ	-11.3371
بڕوا	-11.3386
▁تاقیگە	-11.3389
▁Amûr	-11.3393
▁firmware	-11.3412
▁muamele	-11.3412
▁zivirî	-11.3412
▁چاوساغ	-11.3412
▁default	-11.3412
▁biguherînin	-11.3412
▁Embed	-11.3412
▁تەلار	-11.3412
▁ofîsa	-11.3413
▁الق	-11.3413
▁hindik	-11.3413
craft	-11.3413
▁پێبب	-11.3413
▁ئینکار	-11.3414
▁program	-11.3414
▁گشت	-11.3418
▁مانگای	-11.3423
amide	-11.3429
▁sedan	-11.3431
bîl	-11.3433
▁dadgeh	-11.3434
ئەمە	-11.3444
▁nirxê	-11.3454
ografî	-11.3459
▁cut	-11.3459
سلم	-11.3463
جگ	-11.3464
▁خوێندنگە	-11.3471
▁السلام	-11.3479
▁Linux	-11.3479
▁custom	-11.3479
▁modified	-11.3479
▁şirove	-11.3479
▁درێغی	-11.3479
▁Tiştên	-11.348
▁قەبارە	-11.348
▁Green	-11.348
▁حەوت	-11.348
▁style	-11.348
▁webcam	-11.348
▁nasnameya	-11.3482
▁تیوان	-11.3485
▁heşt	-11.3486
▁بارێنێت	-11.3496
▁şûn	-11.3496
▁pêkanîn	-11.3499
▁ڕووگ	-11.35
▁شتوم	-11.3503
▁Darikê	-11.3505
گەیاند	-11.3526
▁هەواڵ	-11.3541
syonê	-11.3543
▁ربگر	-11.3544
▁ساوا	-11.3544
▁direct	-11.3545
▁Guhertoya	-11.3547
▁Têkiliya	-11.3547
▁original	-11.3547
▁Çewtiya	-11.3547
▁چاوەڕوان	-11.3547
▁وابزانم	-11.3547
▁derûnî	-11.3547
▁Sûrî	-11.3548
▁grafîk	-11.3548
▁stendin	-11.3548
▁kurdî	-11.3549
▁asayî	-11.355
▁پێداون	-11.3555
▁نشین	-11.3556
▁qir	-11.3558
▁Flight	-11.3558
▁Royal	-11.3565
▁هۆزێک	-11.3577
▁Wind	-11.3583
▁رخێن	-11.3603
▁Cîhaz	-11.3615
▁cockpit	-11.3615
▁factory	-11.3615
▁iOS	-11.3615
▁protokol	-11.3615
▁صاڵح	-11.3615
▁ئەستێرە	-11.3615
▁rates	-11.3622
ır	-11.3623
▁ردوولا	-11.3627
▁دامانب	-11.3627
▁delîl	-11.3628
▁esas	-11.3634
▁Hong	-11.3637
▁خانووب	-11.3645
▁تاوێک	-11.3652
▁تێیدا	-11.3662
▁چەپ	-11.3665
▁بینایی	-11.3669
berhênan	-11.3682
▁Information	-11.3684
▁daxuyaniyek	-11.3684
▁pêwendî	-11.3684
▁tenduristî	-11.3684
▁©2005-201	-11.3684
▁ئارەزو	-11.3684
▁قبوڵ	-11.3684
▁patent	-11.3684
▁mekanîk	-11.3684
▁serdema	-11.3685
▁tecrûbeyên	-11.3686
▁orbit	-11.3686
▁added	-11.3688
▁بەیانی	-11.3689
▁پێشوازی	-11.3696
سپێر	-11.3714
▁Tendurist	-11.3724
▁Sermaseya	-11.3744
380	-11.3745
3.0	-11.3752
▁Engineering	-11.3752
▁daxuyaniya	-11.3752
▁hakemê	-11.3752
▁ڕێبوار	-11.3752
▁KOVÎD	-11.3752
Possessi	-11.3753
▁album	-11.3753
▁vîrûs	-11.3753
▁کاربۆن	-11.3754
▁tablet	-11.3755
▁فشار	-11.3759
▁peredana	-11.376
9001	-11.3808
▁Mill	-11.3813
▁rûnişt	-11.3817
▁February	-11.3822
▁Instagram	-11.3822
▁pêşwazî	-11.3822
▁لابردنی	-11.3822
electric	-11.3822
▁biparêzin	-11.3822
▁Amos	-11.3822
general	-11.3823
▁گاز	-11.3834
ization	-11.3837
▁گێڕی	-11.3859
▁باپیر	-11.3891
▁hikûmeta	-11.3892
▁برسێتی	-11.3892
▁پڕۆگرام	-11.3892
▁School	-11.3892
▁Parêzer	-11.3892
bmc	-11.3892
▁dilîze	-11.3892
▁ewlekariya	-11.3893
based	-11.3919
▁fikir	-11.3922
▁ساتێک	-11.3937
▁razî	-11.3941
▁şaredariyê	-11.3945
▁Vancouver	-11.3962
▁wheel	-11.3962
▁Bûyer	-11.3962
▁Larson	-11.3962
▁şoreş	-11.3962
▁Deryaya	-11.3962
▁bipirsin	-11.3962
▁Smart	-11.3963
▁digirin	-11.3963
▁mûzîk	-11.3963
▁Christ	-11.3965
▁سیفات	-11.3965
▁Water	-11.397
فۆ	-11.3976
▁Mehme	-11.398
▁فیزیا	-11.3992
▁Rewş	-11.3999
▁Birêvebir	-11.4033
▁dosyeya	-11.4033
▁ئامراز	-11.4033
▁îfade	-11.4033
▁şahî	-11.4043
phone	-11.4044
▁جۆن	-11.4045
بکەن	-11.4082
▁ئەندازیار	-11.4105
▁difikirim	-11.4105
▁hilbijêrî	-11.4105
▁valve	-11.4105
▁steel	-11.4105
▁NAV	-11.4105
▁ڵواس	-11.4105
▁جۆراوجۆر	-11.4105
▁Muzîk	-11.4106
▁بەردەست	-11.4106
dog	-11.4111
▁تەندروست	-11.4119
▁ئەکەم	-11.4121
▁girtîgehê	-11.4142
▁Xwendekar	-11.4143
Database	-11.4177
▁Demokratîk	-11.4177
▁Management	-11.4177
▁Navxweyî	-11.4177
▁kîlometre	-11.4177
▁voltaja	-11.4177
▁دامەزراوە	-11.4177
▁Cloud	-11.4177
▁teslîm	-11.4177
▁دەوروبەر	-11.4177
▁ململانێ	-11.4177
▁پاراستنی	-11.4177
▁dizanim	-11.4177
▁Amade	-11.4177
▁pêwist	-11.4177
▁HDPê	-11.4177
▁dikanên	-11.4178
▁rêbaza	-11.4178
▁îkon	-11.4179
▁kopî	-11.418
▁rojnameya	-11.418
▁tevlîhev	-11.4181
▁nuha	-11.4181
▁Peter	-11.4189
▁tîrêj	-11.421
0.2	-11.4232
▁azmûn	-11.4249
▁plakaya	-11.4249
▁shipping	-11.4249
▁Çavkaniyê	-11.4249
▁Çavkanî	-11.4249
▁ITIL	-11.4249
▁zewac	-11.4249
▁Rêvebir	-11.4249
▁nivîsbariyê	-11.4249
▁biaxivin	-11.4249
▁ڕووبەڕو	-11.4249
▁îdia	-11.425
▁سەما	-11.4253
▁ستاون	-11.4253
▁درک	-11.4258
▁Stenbol	-11.426
▁شانۆ	-11.4262
پەرست	-11.4292
type	-11.4316
▁ماسولکە	-11.4322
▁Delivery	-11.4322
▁enjoy	-11.4322
▁گیروگرفت	-11.4322
▁netewî	-11.4322
▁بپارێزێت	-11.4322
▁لافاو	-11.4322
▁click	-11.4322
▁carinan	-11.4322
▁xwendevan	-11.4322
▁trênan	-11.4322
▁îdîa	-11.4323
▁Christian	-11.4323
گەیەنێت	-11.4323
▁قایم	-11.4323
▁Nirxandin	-11.4328
▁بمرن	-11.4329
▁logo	-11.4331
▁Kurdistan	-11.4346
▁sernavê	-11.4347
point	-11.4364
موسا	-11.4377
▁Amsterdam	-11.4396
▁Brîtanî	-11.4396
▁Nekêşbar	-11.4396
▁mijûl	-11.4396
▁tecawiz	-11.4396
▁Edîtor	-11.4396
▁ئەمریکی	-11.4396
▁خۆشگوز	-11.4396
▁hedef	-11.4396
▁eynî	-11.4396
▁tevna	-11.4436
▁Wall	-11.4445
▁Format	-11.4455
▁Mizgîniyê	-11.447
▁November	-11.447
▁SharePoint	-11.447
▁audio	-11.447
▁column	-11.447
▁linux	-11.447
▁enerjî	-11.447
▁pesnê	-11.447
▁سەرسام	-11.447
▁کووڕی	-11.447
▁Telefon	-11.447
▁شکاو	-11.4472
▁Skype	-11.4472
▁gulan	-11.4475
▁ناسۆر	-11.4478
▁Medya	-11.4479
▁بیپ	-11.45
بژێرن	-11.4502
▁proje	-11.4507
house	-11.4517
140	-11.4522
قیام	-11.4527
▁Salname	-11.4527
▁piştevan	-11.4543
▁Psychîk	-11.4544
▁mecbûr	-11.4544
▁ناشوکر	-11.4544
▁manual	-11.4544
▁ڵقیس	-11.4544
▁qumarê	-11.4544
▁Serkeftin	-11.4544
▁١٨	-11.4544
▁David	-11.4544
▁واگومان	-11.4544
▁dizane	-11.4545
▁داهێنەر	-11.4546
▁kamera	-11.4546
▁نەخۆشخانە	-11.4549
▁rewşeke	-11.4551
▁Radio	-11.4554
▁tenduristiy	-11.4567
▁firok	-11.4582
avêj	-11.4583
▁kargeh	-11.4586
▁kanalê	-11.4593
نوێژ	-11.4602
▁maqûl	-11.4619
▁Rikoooo	-11.4619
▁Bişkok	-11.462
▁بیروهۆش	-11.462
▁پێداویستی	-11.462
▁Fîlm	-11.462
▁binpêkirin	-11.462
▁کێڵگ	-11.4621
▁Watch	-11.4621
▁danûstendinê	-11.4621
▁nehêle	-11.4622
▁tesîr	-11.4623
▁Malperê	-11.4624
ville	-11.4634
▁pêşveçûn	-11.4658
▁Pargîdaniy	-11.4668
ball	-11.4689
▁Brukselê	-11.4695
▁bigihînin	-11.4695
▁hilweşandin	-11.4695
▁minasib	-11.4695
ئیحرام	-11.4695
▁awarte	-11.4695
▁کابرای	-11.4695
▁micro	-11.4695
▁راورد	-11.4695
▁bijartin	-11.4697
▁bêjin	-11.4699
▁گۆڕاو	-11.4723
▁یبدار	-11.4729
▁hewcedariy	-11.4764
▁kampany	-11.4771
▁Penaberan	-11.4772
▁Project	-11.4772
▁serbestberdana	-11.4772
▁vîdyoya	-11.4772
▁سەلامەت	-11.4772
▁بەناوبانگ	-11.4772
▁قوتابی	-11.4772
▁عیبر	-11.4772
▁binivîsin	-11.4772
▁مرۆڤایەتی	-11.4773
▁admin	-11.4775
▁ستوور	-11.4777
▁Kêm	-11.4778
▁گۆر	-11.479
print	-11.4791
▁جووڵ	-11.4795
ھات	-11.4801
▁Destûr	-11.4805
0.3	-11.4815
▁Cambridge	-11.4848
▁Federal	-11.4848
▁Street	-11.4848
▁sivik	-11.4849
▁04:	-11.4851
▁daristan	-11.4851
▁دوانز	-11.4851
▁Harry	-11.4852
▁Îcar	-11.4853
2.0	-11.4881
▁sûcdar	-11.4902
[2]	-11.491
فیرع	-11.491
▁HTML	-11.4926
▁birçîbûnê	-11.4926
▁trafîkê	-11.4926
▁serfiraz	-11.4926
▁mercan	-11.4926
▁نازانین	-11.4926
▁ultra	-11.4926
process	-11.4927
▁zeviyê	-11.4927
▁pêwendiyê	-11.4928
▁grev	-11.4937
▁fîşa	-11.4937
▁operasyon	-11.4982
▁Berfireh	-11.5004
▁Broadcast	-11.5004
▁Intelsat	-11.5004
▁Virtual	-11.5004
▁îdeal	-11.5004
▁neyînî	-11.5004
▁ڕۆبۆت	-11.5004
▁single	-11.5005
▁berjewendiyên	-11.5007
▁devkî	-11.5008
▁dîrok	-11.501
graph	-11.502
▁پۆشی	-11.5031
▁پێبک	-11.5045
▁accessories	-11.5083
▁bizanibin	-11.5083
▁enerjiya	-11.5083
▁Cîgirê	-11.5083
▁Niştecîh	-11.5083
▁danasîna	-11.5083
▁derhêner	-11.5083
▁powder	-11.5083
▁بروسک	-11.5083
▁gear	-11.5084
▁nexweşxaneyê	-11.5084
▁servîs	-11.5086
▁هێنرێن	-11.5093
▁گوفتارێک	-11.5105
▁photo	-11.5136
5.0	-11.514
▁nedît	-11.5142
Express	-11.5148
5,000	-11.5152
▁California	-11.5162
▁Geştname	-11.5162
▁Platforma	-11.5162
▁ئاشووب	-11.5162
▁Siyaseta	-11.5162
▁dînamîk	-11.5162
▁لێپرسراو	-11.5162
▁Servîs	-11.5163
▁dijber	-11.5163
▁fonên	-11.5163
▁Civîn	-11.5164
▁xêz	-11.5176
hevkirin	-11.521
▁Pêşkêşker	-11.5224
▁danûstend	-11.5241
▁American	-11.5242
▁BERSÎVEK	-11.5242
▁Herweha	-11.5242
▁federal	-11.5242
▁message	-11.5242
▁şêwaz	-11.5242
▁Makîne	-11.5242
▁filter	-11.5242
▁پرۆژە	-11.5242
▁Sign	-11.5243
▁زەریا	-11.5244
▁هێما	-11.5244
▁bijîn	-11.5246
▁بیخوێن	-11.5252
▁desthilatdariy	-11.5305
Print	-11.531
توپڕ	-11.5312
▁sêyem	-11.5319
▁heybet	-11.5323
▁rsquo	-11.5323
▁vebijark	-11.5323
▁kapîtal	-11.5323
▁hêlînê	-11.5323
▁Leave	-11.5323
▁ئاشنا	-11.5323
UMX	-11.5323
▁kampanyaya	-11.5324
نەکراو	-11.5328
▁کارد	-11.5363
▁لێهات	-11.5372
▁Endezyar	-11.5404
▁PhenQ	-11.5404
▁pêkhateyên	-11.5404
▁چاوپێکەوتن	-11.5404
▁کۆنترۆڵ	-11.5404
▁Pêkenî	-11.5404
▁îmtîhan	-11.5404
▁volume	-11.5404
▁taybetmendiya	-11.5404
▁ڕۆژنامە	-11.5405
▁Xuya	-11.5405
▁bersîv	-11.5406
▁South	-11.5406
▁darayî	-11.5407
▁دیمەن	-11.5409
Pêş	-11.5409
▁AASraw	-11.5486
▁Shenzhen	-11.5486
▁veguherandin	-11.5486
▁شەپۆل	-11.5486
▁Digital	-11.5486
▁دەگۆڕێت	-11.5486
▁rayedar	-11.5486
▁rêbazek	-11.5486
▁amadekariyê	-11.5487
▁موڵک	-11.5487
▁ترسناک	-11.5491
▁drop	-11.5493
▁قود	-11.5505
وادیار	-11.5514
▁CAPTCHA	-11.5569
▁Enterprise	-11.5569
▁converter	-11.5569
▁veberhênerên	-11.5569
▁vekişînê	-11.5569
▁شاعیر	-11.5569
▁ڵقوڵا	-11.5569
▁Czech	-11.5569
▁taybetmendî	-11.5569
▁بشارن	-11.5569
▁Vegere	-11.5569
▁Show	-11.557
▁Pirsgirêka	-11.5573
▁ستدرێژ	-11.5574
▁وابک	-11.5626
▁Şiir	-11.565
▁Blythe	-11.5652
▁Mifteya	-11.5652
▁Software	-11.5652
▁error	-11.5652
▁generator	-11.5652
▁ڕابوێرن	-11.5652
▁Mamoste	-11.5652
▁bişkoka	-11.5652
▁وتویانه	-11.5652
▁hîdrolîk	-11.5652
▁pisîk	-11.5653
▁bihêle	-11.5653
▁Cezayê	-11.5653
▁بزن	-11.5653
▁sepandin	-11.5655
▁نوێنێت	-11.5655
pcs	-11.5661
▁kursiyê	-11.5676
6.0	-11.57
▁Lijneya	-11.5736
▁هەڵسوکەوت	-11.5736
▁قاروون	-11.5736
▁madenê	-11.5736
▁Perwerdehiyê	-11.5736
▁نادرێن	-11.5736
▁بریندار	-11.5736
▁laborat	-11.5736
▁ئازیز	-11.5737
▁بدەیت	-11.5737
▁Airbus	-11.5737
▁پاڕێ	-11.5738
▁کاردانەوە	-11.5738
▁transfer	-11.5739
▁بمانویست	-11.574
▁axivî	-11.574
▁دەهێنن	-11.574
▁یبینن	-11.5741
▁یخۆن	-11.575
▁organîk	-11.5751
▁Admission	-11.5821
▁August	-11.5821
▁Federasyona	-11.5821
▁niştecîh	-11.5821
▁Artêşa	-11.5821
▁referans	-11.5821
▁ئوحود	-11.5821
▁bikaribin	-11.5821
▁Navendî	-11.5821
▁bikişîne	-11.5821
▁فراوانگیر	-11.5821
▁پەیام	-11.5821
▁هەروەک	-11.5821
▁diranan	-11.5822
▁dewam	-11.5822
libusb	-11.5827
▁ئامار	-11.5827
▁berjewend	-11.584
▁تزانیو	-11.5851
▁١٥	-11.587
▁stenbolê	-11.5906
▁zayendî	-11.5906
▁zewicî	-11.5906
▁تڕوانیو	-11.5906
▁Ciwan	-11.5906
▁rêkeftin	-11.5906
▁تابلۆ	-11.5906
▁بزر	-11.5906
▁وەرزش	-11.5906
▁Type	-11.5906
▁سازاندوو	-11.5906
▁شانازی	-11.5907
▁başûrê	-11.5907
▁bêhêz	-11.5907
▁پاشماو	-11.5907
▁hîdro	-11.5908
▁Count	-11.5908
▁dilxwaz	-11.5909
▁Hejmar	-11.5915
▁birêve	-11.5991
▁Michael	-11.5993
▁Quality	-11.5993
▁Vîdeo	-11.5993
▁Wîkîpediya	-11.5993
▁aluminium	-11.5993
▁ئاوریشمی	-11.5993
▁lihevhatî	-11.5993
Password	-11.5993
▁Plastic	-11.5993
▁short	-11.5993
[4]	-11.5993
▁Class	-11.5993
Search	-11.5993
▁باکور	-11.5993
▁qediya	-11.5994
▁سێیەم	-11.5994
▁پشیلە	-11.5994
▁Style	-11.5995
▁کەسایەتی	-11.5995
▁House	-11.5995
▁xebitî	-11.5996
▁Sermase	-11.6004
▁kursa	-11.6004
▁مۆز	-11.6005
6.5	-11.6024
▁ڕێنمویی	-11.6033
▁Duyemîn	-11.608
▁Ewlekariyê	-11.608
▁Pirrjimar	-11.608
▁Zhejiang	-11.608
▁narkotîk	-11.608
▁sîgorteyê	-11.608
▁بەتایبەتی	-11.608
▁پلاستیک	-11.608
▁دەڕوات	-11.608
▁sekinandin	-11.608
▁têkiliyek	-11.608
▁profile	-11.608
▁reaksiyon	-11.608
▁têgihîştin	-11.608
▁acid	-11.608
▁blok	-11.6095
ێگەشت	-11.6117
ناتوان	-11.6131
▁ڕوناک	-11.615
بیستووه	-11.6161
▁kabîneya	-11.6167
▁جیھان	-11.6167
▁White	-11.6167
▁سیاسەت	-11.6167
▁شێواو	-11.6167
▁destdirêjî	-11.6167
▁lewma	-11.6167
▁Saint	-11.6167
▁belkî	-11.6167
▁George	-11.6168
▁forumê	-11.6168
▁Elmanya	-11.6168
field	-11.6168
▁Johnson	-11.6168
▁نمایش	-11.617
▁ببور	-11.617
▁کوشن	-11.6173
▁شەکر	-11.6176
▁دونیا	-11.6202
▁parçeyek	-11.624
gnueabihf	-11.6256
▁Balafirgeh	-11.6256
▁Genotropin	-11.6256
▁Psychiatîk	-11.6256
▁dihewîne	-11.6256
▁girseyî	-11.6256
▁جوتیار	-11.6256
▁Binesaz	-11.6256
▁plus	-11.6256
▁balafirgeha	-11.6257
▁Hevrik	-11.6258
▁بنەما	-11.6279
▁desteser	-11.6313
▁کۆبک	-11.6319
▁لێکۆڵین	-11.6336
·	-11.6341
routes	-11.6345
tricolor	-11.6345
▁Meclîsa	-11.6345
▁qaîdeyên	-11.6345
▁بتوانم	-11.6345
▁Pevçûn	-11.6345
▁battery	-11.6345
▁١٢	-11.6345
▁سەوز	-11.6345
▁ruhê	-11.6345
▁Herêmî	-11.6345
▁Serlêdan	-11.6345
▁لەدایک	-11.6345
▁hûrgelê	-11.6346
▁bazirgan	-11.6346
▁desthilatdar	-11.6365
▁jiyanek	-11.6366
جوان	-11.6373
0.000	-11.6431
ceribîne	-11.6435
▁WordPress	-11.6435
▁XNUMX	-11.6435
▁vekişîna	-11.6435
▁لەجیاتی	-11.6435
▁گەردیلە	-11.6435
▁ShortName	-11.6435
▁bêguman	-11.6435
▁diameter	-11.6435
sitemap	-11.6435
▁Rojnameya	-11.6437
3.5	-11.6448
▁Dêrê	-11.6451
ئیماندار	-11.649
▁Vebijarkên	-11.6526
▁febrîqa	-11.6526
▁mekanîzma	-11.6526
▁performance	-11.6526
▁sertîfîka	-11.6526
▁Nevada	-11.6526
▁processing	-11.6526
▁دیهێناون	-11.6526
▁فەرمان	-11.6526
▁Nexweşxaneya	-11.6526
▁داستانی	-11.6527
▁civak	-11.6537
symbols	-11.654
Drive	-11.6575
▁میراتگر	-11.6618
▁Têkelî	-11.6618
▁WhatsApp	-11.6618
▁fizîkî	-11.6618
▁hardware	-11.6618
▁neçareserkirî	-11.6618
▁provides	-11.6618
▁serokwezîr	-11.6618
▁خامۆش	-11.6618
▁خۆشحاڵ	-11.6618
▁Kalîteya	-11.6618
▁Support	-11.6618
▁Remote	-11.6618
▁Element	-11.6618
▁neçar	-11.6618
تەنھا	-11.6618
▁دەتەوێت	-11.6618
▁Sertîf	-11.6618
▁mesaj	-11.6619
▁çekên	-11.6619
▁موحا	-11.662
oglû	-11.6622
▁Sêwiran	-11.6631
▁Herêma	-11.6632
balafiran	-11.6637
zimanî	-11.6649
place	-11.6656
▁کەنار	-11.6673
▁sîstem	-11.6703
▁International	-11.671
▁Paradise	-11.671
▁Versyonekî	-11.671
▁konferans	-11.671
▁naxwazin	-11.671
▁بەتەواوی	-11.671
▁دەوڵەمەند	-11.671
▁magnet	-11.671
▁كێوی	-11.671
▁Modern	-11.671
▁Biguherîne	-11.671
▁ساخت	-11.671
▁واقع	-11.6711
ability	-11.6711
▁Ankara	-11.6711
▁elektrîk	-11.6712
▁Pênc	-11.6714
▁bikêr	-11.6716
گۆڕین	-11.6734
▁sign	-11.6749
▁Rojhilat	-11.6752
.03.2016	-11.6804
▁Biryara	-11.6804
▁Enerjiya	-11.6804
▁Privacy	-11.6804
▁پێموابێت	-11.6804
▁هیوادارم	-11.6804
▁airline	-11.6804
▁دوبارە	-11.6804
▁edîtor	-11.6804
▁Earth	-11.6804
▁bilêtên	-11.6804
▁GPS	-11.6804
▁mîmar	-11.6804
▁kifş	-11.6804
▁demsala	-11.6804
▁بارمت	-11.6806
بچڵ	-11.6824
▁terorî	-11.684
▁Mîheng	-11.6865
▁تێکچوو	-11.6873
1.3	-11.6873
▁balafirgehê	-11.6884
▁Akademiya	-11.6898
▁Pawlos	-11.6898
▁Railway	-11.6898
▁Suenee	-11.6898
▁manufacturing	-11.6898
▁جێبەجێ	-11.6898
ndrolone	-11.6898
propagand	-11.6898
▁nifşê	-11.6898
▁Terîf	-11.6898
▁deqeyan	-11.6898
▁بخوازن	-11.6898
▁cejn	-11.6899
▁فرۆشن	-11.6899
▁xwîna	-11.69
▁ئاهەنگ	-11.69
▁Bijare	-11.6914
▁دەهات	-11.6916
▁nerazî	-11.6949
▁çavkaniyê	-11.6967
▁دانیشتوان	-11.6977
▁Foundation	-11.6993
▁management	-11.6993
▁mîqdara	-11.6993
▁ئۆتۆمبێل	-11.6993
▁Computer	-11.6993
▁ڕازێنراو	-11.6993
▁qumara	-11.6993
▁چواردەور	-11.6993
▁TENÊ	-11.6993
▁بەرەنگار	-11.6993
▁سکاڵا	-11.6993
▁tîmên	-11.6993
▁pêşkeftî	-11.6994
▁ربخات	-11.6994
▁ڕۆبچ	-11.6994
▁Excel	-11.6994
▁vegeriya	-11.6996
Plus	-11.6996
▁سەرباز	-11.7016
Font	-11.7054
▁wergir	-11.7086
▁Premium	-11.709
▁Transponder	-11.709
▁Têkiliyên	-11.709
▁avantaj	-11.709
▁satelaytan	-11.709
▁رسوڕهێن	-11.709
▁سامناك	-11.709
▁ڕناهێنن	-11.709
▁Office	-11.709
▁werziş	-11.709
▁پیشەسازی	-11.709
▁seretayî	-11.709
▁hêviya	-11.709
▁تاوەکو	-11.709
▁proteîn	-11.709
▁جۆگ	-11.709
▁لێواری	-11.709
▁helbest	-11.709
▁sermaye	-11.7092
▁astê	-11.7121
▁زۆرینەی	-11.7138
▁خۆشەویست	-11.7144
شکێنێت	-11.7175
▁Active	-11.7187
▁Belçîka	-11.7187
▁Generator	-11.7187
▁Konqueror	-11.7187
▁Wireless	-11.7187
▁bîhnfireh	-11.7187
▁bęşidandin	-11.7187
▁بەدرێژای	-11.7187
▁هیندستان	-11.7187
▁Kompaniy	-11.7187
▁Qedexe	-11.7187
▁amerîkî	-11.7187
▁îmkanên	-11.7187
▁FREE	-11.7187
▁کۆلێژ	-11.7187
▁HDPyê	-11.7187
▁LTD	-11.7187
aktîv	-11.7187
▁vegere	-11.7187
▁Account	-11.7187
▁smart	-11.7188
فریشت	-11.7191
oglu	-11.7193
▁فڕۆکە	-11.7197
▁xweseriy	-11.7239
▁Komîtey	-11.7257
ڕێگ	-11.7266
▁Elektrîk	-11.7285
▁Serokwezîr	-11.7285
▁daxuyaniyê	-11.7285
▁rojnamevan	-11.7285
▁steroîd	-11.7285
▁ئێواره	-11.7285
▁بەخێو	-11.7285
▁خۆشنوود	-11.7285
▁Policy	-11.7285
▁نوقاو	-11.7285
▁ئەوروپا	-11.7285
▁parêzgeha	-11.7285
▁Danasîn	-11.7285
▁یناکات	-11.7285
▁yekîneya	-11.7285
▁Agahî	-11.7285
▁ووڵات	-11.7285
▁Karsaziy	-11.7285
▁0.9	-11.7344
▁tecrûbe	-11.736
high	-11.738
▁Hormone	-11.7384
▁qewimî	-11.7384
▁fransî	-11.7384
▁sosyal	-11.7384
▁viewing	-11.7384
▁views	-11.7384
▁Island	-11.7384
▁pîlot	-11.7384
otropîk	-11.7384
▁بخوێنن	-11.7384
▁eslê	-11.7385
▁cîhaza	-11.7386
▁ندروستی	-11.7407
Herêm	-11.7413
▁پاڵەوان	-11.7416
بخەین	-11.7434
▁Shipping	-11.7484
▁Akademî	-11.7484
▁Firotanê	-11.7484
▁Furniture	-11.7484
▁Kitchen	-11.7484
▁berevajî	-11.7484
▁daxuyanî	-11.7484
▁سەرەڕای	-11.7484
▁کیمیایی	-11.7484
▁کارمەند	-11.7484
▁سەردەمی	-11.7484
▁multimedia	-11.7484
methyl	-11.7484
▁شایەنی	-11.7485
▁نوسراو	-11.7485
▁کلیل	-11.7486
▁پڕۆسەی	-11.7487
▁xeyal	-11.7489
▁بوونەوەر	-11.7506
▁psîkolojî	-11.7563
▁Origin	-11.7585
▁endazyar	-11.7585
▁توندوتیژی	-11.7585
▁Oracle	-11.7585
▁kitêb	-11.7585
▁temsîl	-11.7585
▁Brazil	-11.7585
▁kids	-11.7585
▁nizm	-11.7585
▁Movie	-11.7586
▁قەرز	-11.7586
▁تەخت	-11.7586
▁گرینگ	-11.759
▁drama	-11.7599
سپارد	-11.7653
Steam	-11.7673
▁elektro	-11.7686
▁William	-11.7687
▁controller	-11.7687
▁cîhêreng	-11.7687
▁gotûbêj	-11.7687
▁kategoriyê	-11.7687
▁Îsraîl	-11.7687
▁تێڕوانین	-11.7687
▁bazariya	-11.7687
▁bookmaker	-11.7687
▁درەخت	-11.7687
▁Western	-11.7687
▁Odeya	-11.7687
▁CPA	-11.7691
▁تۆزێک	-11.7691
1.0	-11.7693
▁ناوخۆیی	-11.7694
#	-11.7696
▁API	-11.7696
firotinê	-11.7725
▁Rojnameger	-11.779
▁Serîlêdana	-11.779
▁Thailand	-11.779
▁hawirdor	-11.779
▁Ûkraynayê	-11.779
▁ئێسك	-11.779
▁Nasnav	-11.779
▁tengahiyê	-11.779
▁Sînor	-11.779
▁veqetîn	-11.7791
position	-11.7792
carbon	-11.7795
▁domandin	-11.7799
▁دەرچوو	-11.7807
▁Qanûn	-11.7831
▁تێبک	-11.7888
▁Beautiful	-11.7894
▁Hevserokê	-11.7894
▁Kocaeli	-11.7894
▁gauges	-11.7894
▁textures	-11.7894
▁teşwîq	-11.7894
▁بەخێرایی	-11.7894
▁خزمەتگوزاری	-11.7894
▁ciddî	-11.7894
▁سامیری	-11.7894
▁ئەکرێت	-11.7894
▁دەربڕین	-11.7894
▁pîvaz	-11.7894
▁CPU	-11.7894
▁Speed	-11.7894
▁jihevde	-11.7894
▁بێدەنگ	-11.7894
▁زێڕ	-11.7895
▁euro	-11.7896
olojiyê	-11.7897
▁sermase	-11.7905
Hemû	-11.7906
زیندوو	-11.7906
▁Modul	-11.7991
▁netewe	-11.7998
▁Blackjack	-11.7999
▁Bohemian	-11.7999
▁abonetiyê	-11.7999
▁stratejiya	-11.7999
▁Irdeto	-11.7999
▁group	-11.7999
▁iPad	-11.7999
▁qehwe	-11.7999
▁rêwiyan	-11.7999
▁Pêşkeftin	-11.7999
▁şewat	-11.7999
▁krîza	-11.7999
birêvebir	-11.8075
▁Deposit	-11.8106
▁Forklift	-11.8106
▁Gerînendeyê	-11.8106
▁Singapore	-11.8106
▁Teknolojî	-11.8106
▁VigRX	-11.8106
▁Yildirim	-11.8106
▁atmosfer	-11.8106
▁pêvajoyek	-11.8106
▁îhtîmal	-11.8106
▁پۆشاك	-11.8106
▁frame	-11.8106
▁nermalav	-11.8106
Application	-11.8106
▁گیرۆد	-11.8106
▁rêveberiyê	-11.811
Point	-11.819
▁neuro	-11.8193
1,5	-11.8196
▁muayene	-11.8213
▁پرۆگرام	-11.8213
▁Mayoraredar	-11.8213
▁bişkokên	-11.8213
▁giyaxaneyan	-11.8213
▁serokatiya	-11.8213
▁دەرئەنجام	-11.8213
▁RAID	-11.8213
▁broker	-11.8213
▁lêçûnên	-11.8213
▁BSF	-11.8213
▁Jizera	-11.8214
▁Queen	-11.8214
▁cîgirê	-11.8214
▁ببوای	-11.8214
▁شارستانی	-11.8214
▁Girtin	-11.8214
▁civiya	-11.8214
▁çolê	-11.8215
▁Pêşangeh	-11.8216
سوێند	-11.8228
منداڵ	-11.8229
This	-11.8312
▁Acetate	-11.8322
▁Jackpot	-11.8322
▁Qereqola	-11.8322
▁Shanghai	-11.8322
▁dêûbav	-11.8322
▁facebook	-11.8322
▁لەڕێگەی	-11.8322
▁Polîsan	-11.8322
▁دوێنێ	-11.8322
▁راستیدا	-11.8322
Deutsch	-11.8322
▁خۆراك	-11.8322
▁ڕاگرتنی	-11.8322
▁rêgez	-11.8322
▁ئیلهام	-11.8322
▁مێشك	-11.8322
▁pêşbaziyê	-11.8322
sdcard	-11.8322
content	-11.8323
▁Antalya	-11.8323
بڕیاری	-11.8338
▁گونجا	-11.8342
وژد	-11.8347
Ethiopia	-11.8432
▁Access	-11.8432
▁hûragahiyan	-11.8432
▁provider	-11.8432
▁Çavdêriy	-11.8432
▁Şîrove	-11.8432
▁cross	-11.8432
▁herikîna	-11.8432
▁بخوێنرێت	-11.8432
▁یادەوەری	-11.8432
▁Mercên	-11.8432
▁pêngav	-11.8432
Dialog	-11.8433
hilberandin	-11.8449
بەپێی	-11.8459
▁پێڕاگ	-11.8461
▁ڕۆچوو	-11.8505
abbreviat	-11.8543
▁Bexdayê	-11.8543
▁Education	-11.8543
▁Factory	-11.8543
▁Hotbird	-11.8543
▁Washington	-11.8543
▁contact	-11.8543
▁الحمد	-11.8543
▁هاوسەرگیری	-11.8543
▁چوارچێو	-11.8543
▁Kîjan	-11.8543
▁بپاڕێ	-11.8543
▁Sermasê	-11.8543
▁پیلانگێڕان	-11.8543
▁êvarê	-11.8544
▁پێناگ	-11.8544
▁بنچینەیی	-11.8547
▁تبینیو	-11.8555
▁derxist	-11.86
نێوان	-11.8601
▁Berpirsiyar	-11.8655
▁Multiplex	-11.8655
▁biguhere	-11.8655
▁currency	-11.8655
▁navîgasyon	-11.8655
▁nêçîr	-11.8655
▁pirrjimar	-11.8655
▁serîlêdana	-11.8655
▁بیانپارێزێت	-11.8655
“	-11.9386
«	-12.204
‘	-12.4576
•	-12.5437
©	-12.9547
£	-12.9892
