<unk>	0
<s>	0
</s>	0
.	-3.32418
,	-3.47537
▁	-3.68044
▁మరియు	-4.37066
ను	-4.71453
లు	-4.86258
:	-4.90379
లో	-5.04705
ం	-5.08461
స్	-5.12101
▁ఒక	-5.16427
;	-5.26237
ని	-5.30101
▁మీరు	-5.38574
ల	-5.40318
)	-5.40887
▁ఈ	-5.47683
ము	-5.53863
గా	-5.54044
కు	-5.65852
▁మీ	-5.66677
▁యొక్క	-5.68066
▁(	-5.68903
-	-5.72242
▁-	-5.75335
న	-5.75479
▁కోసం	-5.82067
▁లో	-5.90706
తో	-5.91572
ు	-5.93465
▁ఆ	-5.94071
▁&	-5.94131
క	-5.98629
▁నేను	-5.99164
త	-6.0266
న్	-6.05178
▁లేదా	-6.05231
ి	-6.08977
క్	-6.09079
లను	-6.0933
s	-6.11051
▁ఇది	-6.1216
▁ఉంది	-6.12728
▁నుండి	-6.14083
?	-6.14685
▁మా	-6.15345
gt	-6.18135
ర్	-6.18463
▁నా	-6.221
ల్	-6.22658
ట్	-6.24851
వ	-6.26358
ర	-6.26494
▁అ	-6.27606
రి	-6.30766
▁/	-6.3295
ాలు	-6.35568
▁మేము	-6.40589
"	-6.41321
కి	-6.43043
డ్	-6.45415
▁"	-6.45946
మ	-6.48727
▁వారు	-6.49226
▁1	-6.50462
▁ద్వారా	-6.51089
ే	-6.52529
▁చాలా	-6.57074
▁ఏ	-6.58477
!	-6.59148
▁తో	-6.62398
▁కూడా	-6.62573
▁వారి	-6.65181
▁అన్ని	-6.65234
▁తన	-6.65615
ా	-6.65786
రు	-6.67815
ంగా	-6.69092
ది	-6.69299
య	-6.69757
ప	-6.71284
ిన	-6.71568
▁కలిగి	-6.73663
యు	-6.73893
▁న	-6.74299
డం	-6.75034
పు	-6.75222
ారు	-6.75319
వి	-6.75349
డానికి	-6.75372
ట	-6.7541
రా	-6.76095
▁అది	-6.76172
▁2	-6.76463
ాన్ని	-6.76518
ప్	-6.78543
గ	-6.82628
▁ఉంటుంది	-6.8317
మైన	-6.83302
డు	-6.84665
డ	-6.85002
▁3	-6.85969
టి	-6.86261
▁కానీ	-6.86813
డి	-6.88785
నా	-6.89623
/	-6.91681
మ్	-6.92144
▁దాని	-6.92628
▁ప్రతి	-6.96342
lt	-6.97073
▁ఎ	-6.97492
▁అతను	-6.97801
▁_	-6.99216
▁గురించి	-7.00192
▁...	-7.00369
లి	-7.00538
▁అని	-7.01243
▁ఉన్నాయి	-7.02583
4	-7.03553
▁వి	-7.03976
amp	-7.04069
▁లేదు	-7.04949
▁నీ	-7.05665
▁S	-7.06452
▁క	-7.06732
y	-7.07145
మా	-7.07266
సి	-7.07522
ండి	-7.08402
దు	-7.09504
▁ఆమె	-7.09945
▁కు	-7.09975
నే	-7.1027
యా	-7.10436
▁కా	-7.11459
మి	-7.12083
జ్	-7.12822
▁5	-7.1413
వచ్చు	-7.14233
లా	-7.14437
▁ఇతర	-7.14536
"&	-7.16433
▁T	-7.16769
▁start	-7.1714
▁dur	-7.17346
ద	-7.17399
స	-7.17432
2	-7.17656
D	-7.1782
▁ఉన్న	-7.17891
="	-7.18285
▁మ	-7.19006
▁పని	-7.19523
ానికి	-7.20451
3	-7.20764
▁C	-7.21286
▁4	-7.21815
▁యెహోవా	-7.22366
వా	-7.22561
▁వద్ద	-7.23269
లలో	-7.23442
▁చేయ	-7.23462
S	-7.23494
వు	-7.24085
A	-7.24309
లకు	-7.26175
ింది	-7.2767
రీ	-7.28176
▁కాదు	-7.28416
B	-7.28721
కా	-7.28818
▁కొన్ని	-7.28845
C	-7.29783
▁అతని	-7.30111
▁వంటి	-7.3048
1	-7.30498
▁వ	-7.30595
▁చైనా	-7.31104
▁ఇ	-7.31832
▁ఎలా	-7.31932
▁19	-7.32103
▁తరువాత	-7.32962
▁రెండు	-7.33138
▁ఆయన	-7.34763
ాల	-7.3603
'	-7.36089
▁ఉత్పత్తి	-7.36226
▁A	-7.36493
▁P	-7.36537
రో	-7.36816
▁ప	-7.37112
▁మరింత	-7.37984
▁10	-7.38255
త్	-7.39387
▁D	-7.40436
ులు	-7.40875
▁కొత్త	-7.41002
▁B	-7.41068
T	-7.4135
i	-7.41368
▁రా	-7.41448
er	-7.42257
▁నాకు	-7.43195
గ్	-7.43203
▁మీకు	-7.43618
m	-7.43621
M	-7.43826
t	-7.43855
▁కో	-7.44729
▁మంచి	-7.4475
ాడు	-7.44807
పై	-7.45975
▁అయితే	-7.465
▁చేసిన	-7.46537
▁అనేక	-7.4718
▁చిన్న	-7.47989
▁6	-7.48052
▁G	-7.48526
ing	-7.4874
▁ఉచిత	-7.48771
p	-7.49583
▁అవసరం	-7.50058
P	-7.50083
▁–	-7.50182
▁వాటిని	-7.50934
▁స	-7.51363
▁కాబట్టి	-7.51483
▁అధిక	-7.51548
u	-7.51575
▁M	-7.51673
తి	-7.52674
▁మాత్రమే	-7.53257
▁ఉంటే	-7.55251
▁మొత్తం	-7.55329
గు	-7.55592
▁పెద్ద	-7.56793
▁వరకు	-7.58304
▁ఉత్తమ	-7.58563
▁ఇక్కడ	-7.5882
ష్	-7.59316
▁సైట్	-7.6038
▁సి	-7.6054
▁మొదటి	-7.6054
F	-7.60633
బ్	-7.60819
c	-7.60969
ించ	-7.61423
▁ఇప్పుడు	-7.61574
▁'	-7.62352
a	-7.62597
▁F	-7.63047
నీ	-7.63057
n	-7.63158
టర్	-7.63189
ాలి	-7.63221
▁తిరిగి	-7.63342
ాలను	-7.63451
6	-7.63597
▁ఎక్కువ	-7.63665
▁సమయం	-7.63689
G	-7.63753
7	-7.63793
▁7	-7.63877
al	-7.63957
▁9	-7.64209
లే	-7.64537
5	-7.64598
R	-7.64685
8	-7.64715
o	-7.64804
పి	-7.64827
బ	-7.65038
జ	-7.65289
com	-7.65643
ed	-7.66332
గల	-7.66577
ఫ్	-7.66718
▁పేరు	-7.66946
▁ముందు	-7.67293
L	-7.67565
in	-7.67768
▁చేయడానికి	-7.68161
00	-7.68291
▁8	-7.68388
▁మధ్య	-7.68624
▁ధర	-7.68796
▁R	-7.68866
W	-7.69311
▁కంటే	-7.69824
▁అప్పుడు	-7.69861
r	-7.69884
e	-7.7104
కో	-7.7129
h	-7.72096
▁తక్కువ	-7.72316
%	-7.72388
▁అతడు	-7.72698
▁చేయవచ్చు	-7.72879
యి	-7.73911
▁మీద	-7.74028
జి	-7.74168
వే	-7.74537
mm	-7.747
▁బా	-7.74728
V	-7.74797
d	-7.74838
▁దేవుని	-7.7515
చ	-7.75574
్	-7.75891
పా	-7.7621
న్న	-7.76285
an	-7.76549
▁H	-7.76621
▁తర్వాత	-7.76652
లీ	-7.76779
ుల	-7.7721
అ	-7.77247
▁పూర్తి	-7.77464
ాయి	-7.7762
▁E	-7.77855
స్ట్	-7.77926
▁చేయండి	-7.78534
▁మాకు	-7.78784
▁చేస్తుంది	-7.7882
బడింది	-7.78894
హ	-7.79367
▁ఉంటాయి	-7.79691
▁ఆన్లైన్	-7.80154
సు	-7.8023
▁కేవలం	-7.80598
▁నీవు	-7.80627
▁సా	-7.81822
▁0	-7.81847
x	-7.82476
▁ఏమి	-7.82652
రే	-7.82783
▁మన	-7.82907
▁వ్యవస్థ	-7.83213
▁వివిధ	-7.83458
▁సమయంలో	-7.83766
▁గొప్ప	-7.83957
లతో	-7.84181
▁తమ	-7.84213
▁మె	-7.84226
లేదు	-7.84343
▁సంస్థ	-7.84756
le	-7.85262
తు	-7.85773
యో	-7.85862
▁సాధారణ	-7.85989
9	-7.85989
బడిన	-7.86718
N	-7.86774
▁పి	-7.87691
I	-7.87766
▁సంఖ్య	-7.87957
▁పా	-7.88105
0	-7.8831
ుడు	-7.88512
▁సం	-7.88553
ar	-7.88574
▁పై	-7.8866
టీ	-7.88923
వారు	-7.89188
▁రోజు	-7.8923
▁ఫ్యాక్టరీ	-7.89292
▁ఉ	-7.89295
▁ప్రధాన	-7.89624
కే	-7.89715
l	-7.89998
▁బ	-7.90153
O	-7.90317
▁ఒకటి	-7.90731
▁డౌన్లోడ్	-7.90993
k	-7.91285
మే	-7.91299
ధ	-7.91628
▁నాణ్యత	-7.91709
ణ	-7.91839
▁అభివృద్ధి	-7.9221
▁X	-7.92228
యం	-7.92594
▁N	-7.92863
మీ	-7.92869
టం	-7.9302
పో	-7.93211
ిస్తుంది	-7.93211
▁ఆఫ్	-7.93231
నో	-7.93323
or	-7.93912
సా	-7.93955
ెను	-7.94328
H	-7.94476
b	-7.94677
▁సేవ	-7.94764
ముగా	-7.95151
K	-7.95558
▁12	-7.95605
▁వ్యాపార	-7.95753
ును	-7.96111
▁ప్రేమ	-7.96748
▁లా	-7.97218
▁హ	-7.97586
▁$	-7.98041
▁20	-7.98202
▁వీడియో	-7.98261
▁ఫోన్	-7.98348
▁ఉత్పత్తులు	-7.98389
ంది	-7.9861
▁K	-7.98846
▁డి	-7.99046
20	-7.9907
మీద	-7.99196
బా	-7.99212
▁V	-7.99356
▁రాజు	-7.99567
దా	-7.99758
ండ	-7.99904
▁వా	-8.00056
▁చూడండి	-8.0006
▁మే	-8.00408
క్స్	-8.00873
10	-8.00919
▁L	-8.01041
▁I	-8.01136
మో	-8.01284
▁W	-8.01312
▁ఎందుకంటే	-8.01484
▁J	-8.01521
▁ప్ర	-8.01523
▁పో	-8.01718
▁18	-8.01758
రె	-8.02615
ములు	-8.02644
▁జ	-8.02711
ిక	-8.0287
▁సమాచారం	-8.03574
ట్లు	-8.04072
U	-8.04072
ష	-8.04137
▁అత్యంత	-8.04156
చే	-8.04607
”	-8.05152
చ్	-8.06426
▁గ	-8.06462
▁వారికి	-8.06783
▁మంది	-8.07033
▁చెప్ప	-8.07232
E	-8.07758
▁శక్తి	-8.08217
▁O	-8.08343
▁సంవత్సరాల	-8.08541
ండ్	-8.08593
వ్	-8.08636
w	-8.08645
▁కొనుగోలు	-8.08704
▁ప్రత్యేక	-8.08886
▁మూడు	-8.09095
▁వ్యక్తి	-8.09103
▁మొబైల్	-8.09668
it	-8.09677
▁రి	-8.09717
శ	-8.09725
ౌ	-8.09812
▁ప్రజలు	-8.09886
en	-8.09998
ించి	-8.1006
ద్	-8.10335
▁ఉండ	-8.10359
ాను	-8.10372
▁కార్	-8.10471
f	-8.10791
▁ఉండాలి	-8.1092
నం	-8.10952
▁మి	-8.10956
▁కి	-8.11191
▁15	-8.11751
et	-8.11922
బడుతుంది	-8.12471
▁అప్	-8.12591
▁వె	-8.12597
▁c	-8.12699
ేందుకు	-8.1274
▁11	-8.12764
▁మద్దతు	-8.1286
50	-8.12884
▁అందుబాటులో	-8.12898
▁+	-8.12939
కర	-8.13287
X	-8.13396
▁కొ	-8.13696
చి	-8.13789
▁లేకుండా	-8.13809
ీ	-8.1421
▁2018	-8.14725
on	-8.14793
జా	-8.14824
ిత	-8.14857
▁సహాయం	-8.1515
▁“	-8.15198
▁అక్కడ	-8.15376
తా	-8.15421
▁వెబ్	-8.15434
▁తయారు	-8.15462
▁హోమ్	-8.15968
▁రైలు	-8.15971
ప్పుడు	-8.16285
es	-8.16608
▁తయారీదారులు	-8.16685
త్త	-8.1705
▁లే	-8.17167
ళ	-8.17311
▁రంగు	-8.17495
▁ఉపయోగించ	-8.17525
కీ	-8.17669
ించిన	-8.17883
(	-8.18192
▁అతనికి	-8.18195
▁సరైన	-8.18214
టానికి	-8.18247
▁•	-8.18371
బి	-8.19061
▁ఇంకా	-8.19183
▁వే	-8.19295
నకు	-8.19451
▁అదే	-8.19594
ంగ్	-8.19839
చు	-8.2113
ల్లో	-8.21426
▁ఓ	-8.21451
వారి	-8.22074
▁the	-8.22322
g	-8.22596
▁ఎవరు	-8.2297
▁లైన్	-8.23289
▁నన్ను	-8.23315
_	-8.23336
రం	-8.23463
▁అద్భుతమైన	-8.23748
▁సె	-8.2391
▁డిజైన్	-8.24064
▁పొంద	-8.24497
▁పోస్ట్	-8.24534
ుతుంది	-8.24615
ో	-8.24746
▁కల	-8.25059
▁యేసు	-8.25171
▁మో	-8.25182
Y	-8.25396
టా	-8.25469
▁LED	-8.25703
నుండి	-8.25929
▁అర్థం	-8.26346
▁a	-8.26383
▁సరఫరాదారులు	-8.2656
ింప	-8.26577
బడి	-8.26654
▁ది	-8.26855
మె	-8.27135
▁చ	-8.27163
ch	-8.2724
గి	-8.27455
ద్ద	-8.27469
▁వారిని	-8.2748
హా	-8.27505
▁చె	-8.2782
▁అను	-8.27904
▁మెషిన్	-8.27962
ుటకు	-8.28033
మని	-8.28497
▁కంపెనీ	-8.28746
ై	-8.28748
షన్	-8.28794
వాడు	-8.2885
11	-8.29276
▁చెప్పారు	-8.29302
▁సాధారణంగా	-8.29377
▁*	-8.29385
▁2019	-8.2941
30	-8.29591
ించు	-8.30751
▁చేయడం	-8.31109
టు	-8.31122
▁30	-8.3132
re	-8.31418
ప్ర	-8.31509
▁ఐ	-8.31809
భ	-8.31845
డా	-8.32383
v	-8.32416
▁ప్రపంచ	-8.32636
▁బాగా	-8.32734
వర్	-8.32892
▁బోనస్	-8.33053
▁ఉన్నప్పుడు	-8.33095
▁ఉంచ	-8.33133
▁తెలుసు	-8.33269
el	-8.33307
జీ	-8.33762
▁సంవత్సరం	-8.33796
te	-8.33842
మెంట్	-8.33956
▁సాఫ్ట్వేర్	-8.34121
12	-8.34202
▁24	-8.34289
▁ఖాతా	-8.3446
ె	-8.34555
ంత	-8.3513
▁[	-8.35242
నె	-8.35849
▁స్టీల్	-8.36012
ra	-8.36287
న్స్	-8.36347
మ్మ	-8.36422
▁మార్గం	-8.36594
▁హై	-8.36613
క్ష	-8.36848
▁కాని	-8.369
un	-8.36922
▁in	-8.36998
ంద	-8.37051
కం	-8.37153
▁విధంగా	-8.37186
▁పచ్చబొట్టు	-8.37239
▁చికిత్స	-8.37249
బో	-8.37346
ad	-8.37348
▁చేర	-8.37361
య్య	-8.38115
▁ప్రకారం	-8.3825
▁యె	-8.3837
▁తండ్రి	-8.38427
చ్చ	-8.38564
▁ఎంపిక	-8.39279
15	-8.39472
యే	-8.39548
▁ఇన్	-8.39717
▁పేజీ	-8.39725
▁అవి	-8.39816
▁కొరకు	-8.39928
▁హా	-8.39973
కర్	-8.40192
19	-8.40286
▁వచ్చి	-8.4034
▁చే	-8.40448
▁13	-8.4047
▁చేసే	-8.4047
am	-8.40788
▁యా	-8.40816
▁£	-8.40965
▁2017	-8.41002
▁భూమి	-8.41091
▁బి	-8.41278
ైన	-8.4135
th	-8.41547
▁నీటి	-8.41799
ur	-8.4189
టే	-8.41892
▁డేటా	-8.42016
▁సో	-8.42064
▁బె	-8.42069
▁రూ	-8.42101
ol	-8.42141
టో	-8.42325
▁పరీక్ష	-8.42348
▁దేవుడు	-8.42478
▁వ్యక్తిగత	-8.42522
▁నుంచి	-8.42531
z	-8.42538
ఆ	-8.42741
▁ఎందుకు	-8.42906
▁సు	-8.42992
▁ఉపయోగించి	-8.43514
▁లిమిటెడ్	-8.43659
▁సెక్స్	-8.43807
▁16	-8.43808
▁25	-8.43917
సే	-8.44068
▁దానిని	-8.44282
ri	-8.44377
వలెను	-8.44499
త్ర	-8.44593
▁14	-8.44827
పడ	-8.44942
▁డబ్బు	-8.45115
▁అందిస్తుంది	-8.45571
ంచ	-8.45655
▁యంత్రం	-8.45767
ుకొని	-8.45796
చేత	-8.45839
▁సీ	-8.46033
▁రక్షణ	-8.46215
▁సెట్	-8.46247
సీ	-8.4635
▁భాగాలు	-8.46573
▁మాట	-8.46645
కొ	-8.4669
టింగ్	-8.46836
ro	-8.47432
▁దీని	-8.47485
వీ	-8.47543
ic	-8.47756
▁ప్రారంభ	-8.47999
▁17	-8.48034
is	-8.48074
▁p	-8.48077
▁నిజంగా	-8.48141
at	-8.48156
▁తదుపరి	-8.48228
▁ఉండవచ్చు	-8.48453
జర్	-8.48621
ిస్తారు	-8.48671
▁అలాగే	-8.48699
▁పే	-8.48761
▁m	-8.48899
▁పెట్ట	-8.48911
▁ఏమిటి	-8.48926
▁దయచేసి	-8.49016
▁విలువ	-8.49165
▁ఆర్	-8.49175
▁చేశారు	-8.49471
▁పంప	-8.49506
▁నియంత్రణ	-8.49658
వె	-8.49965
▁to	-8.50134
▁డా	-8.50432
▁విడుదల	-8.50876
▁అందమైన	-8.50995
ుట	-8.51329
▁జీవితం	-8.5154
ళ్ళ	-8.51614
▁మార్కెట్	-8.51621
▁జాబితా	-8.51751
▁గో	-8.51763
▁ప్లే	-8.51849
కె	-8.52193
▁of	-8.52515
se	-8.52721
▁కలిసి	-8.52816
▁చిత్రం	-8.52886
▁లి	-8.52924
40	-8.52993
Name	-8.53005
▁ప్రక్రియ	-8.53315
▁క్రింద	-8.5332
గో	-8.53439
60	-8.53645
▁చేసి	-8.53651
▁నిర్వహణ	-8.53785
ప్ప	-8.53882
16	-8.5406
▁కీ	-8.5409
సె	-8.54093
▁విషయాలు	-8.54168
▁పరిమాణం	-8.54209
▁సరఫరా	-8.54314
▁లార్డ్	-8.54494
ల్ల	-8.54553
18	-8.54675
▁అనేది	-8.54881
ాలని	-8.54928
బు	-8.54996
▁కంప్యూటర్	-8.55019
▁బరువు	-8.55213
▁ఉన్నారు	-8.55565
▁ప్రదర్శన	-8.55617
80	-8.55719
▁అందువలన	-8.55741
▁ద	-8.55792
il	-8.55879
జె	-8.5617
ల్స్	-8.56284
▁పూర్తిగా	-8.56421
యూ	-8.56437
▁దృష్టి	-8.56672
మై	-8.567
25	-8.56891
▁పాత	-8.57044
▁సమాధానం	-8.5708
▁పె	-8.57232
▁ఆత్మ	-8.57249
▁వై	-8.57325
▁b	-8.57501
▁తేదీ	-8.57599
ఎ	-8.57682
్లో	-8.57707
▁ఏదైనా	-8.57802
▁డె	-8.57828
▁సంప్రదించండి	-8.58008
us	-8.58222
]	-8.58318
స్తుంది	-8.58349
క్క	-8.58382
▁సమస్య	-8.58519
ుము	-8.58574
ారా	-8.58833
▁కోడ్	-8.58969
▁న్యూ	-8.59226
id	-8.59368
▁సాంకేతిక	-8.59405
చేయ	-8.59637
▁21	-8.59684
దే	-8.59756
://	-8.59762
లింగ్	-8.5994
▁చూడ	-8.59965
▁వార్తలు	-8.60152
▁రకం	-8.60197
05	-8.60264
▁రె	-8.60278
14	-8.6029
▁క్రింది	-8.60314
▁తనిఖీ	-8.60408
ుడి	-8.60709
▁చెల్లించ	-8.60762
▁చివరి	-8.60859
ూ	-8.60889
▁గనుక	-8.61004
▁మునుపటి	-8.61031
▁తల	-8.61157
▁రే	-8.61164
▁#	-8.61235
01	-8.61358
="2	-8.614
▁డిపాజిట్	-8.61407
▁మోటార్	-8.61478
▁ప్రయాణ	-8.61526
▁వాటి	-8.61533
▁కే	-8.61539
▁చెల్లింపు	-8.61708
పరచ	-8.61892
▁శ	-8.62
▁and	-8.62016
▁నె	-8.6213
కుండా	-8.6216
ly	-8.6227
నప్పుడు	-8.62305
03	-8.62364
▁మరొక	-8.624
▁ఖర్చు	-8.62402
లె	-8.62595
▁వచ్చింది	-8.62714
▁భాగం	-8.62845
▁జీవ	-8.62918
▁ముఖ్యమైన	-8.62919
▁సామర్థ్యం	-8.62974
▁జి	-8.63057
▁ఆట	-8.63177
j	-8.63365
▁ఖచ్చితంగా	-8.63403
▁d	-8.63436
సం	-8.63498
▁అమలు	-8.63629
13	-8.63714
▁నాలుగు	-8.63858
▁అనే	-8.63893
▁100	-8.63895
తీ	-8.6396
ధి	-8.6397
▁రకాల	-8.64005
చె	-8.64471
దీ	-8.64479
▁ఏర్పాటు	-8.64854
▁య	-8.64899
▁h	-8.64916
lo	-8.64958
పె	-8.65096
▁ప్రయాణం	-8.65176
▁బ్లాక్	-8.6527
▁పన్ను	-8.65484
as	-8.65706
ాలకు	-8.65898
▁వైపు	-8.65902
▁ప్రజల	-8.65911
▁ప్రారంభించ	-8.6601
▁గాని	-8.66049
▁సిరీస్	-8.66525
ంట్	-8.66555
▁నీకు	-8.66586
▁ఇంటి	-8.6662
▁టెక్నాలజీ	-8.66855
▁భార్య	-8.66893
ంచి	-8.66897
ంటి	-8.66925
వరకు	-8.67103
▁పాటు	-8.67159
▁w	-8.67236
▁రో	-8.67249
▁50	-8.67253
ాల్లో	-8.67274
ష్ట	-8.67313
▁ఆలోచన	-8.67375
▁టాప్	-8.67491
J	-8.67703
▁కాంతి	-8.68109
▁సంబంధించిన	-8.6812
▁చేయబడింది	-8.68123
▁క్లిక్	-8.68124
ించే	-8.68141
ాలలో	-8.68663
మందు	-8.68845
▁U	-8.68932
▁అంద	-8.69308
▁అవకాశం	-8.69479
ుచు	-8.69535
రూ	-8.69675
▁నిర్మాణం	-8.69756
▁స్థాయి	-8.69819
▁లక్షణాలు	-8.69858
▁మూల	-8.70028
▁రెండవ	-8.7015
తారు	-8.70375
st	-8.70443
’	-8.70464
లర్	-8.70476
▁ఎల్లప్పుడూ	-8.70636
▁అంటే	-8.70666
డే	-8.70748
▁ఎంత	-8.70771
▁కారు	-8.70884
▁దా	-8.71069
▁లోకి	-8.71106
▁ప్లాస్టిక్	-8.71224
▁విధానం	-8.71227
02	-8.71253
▁ఇంటర్నెట్	-8.71362
▁మూ	-8.71471
▁విషయం	-8.71562
▁లేజర్	-8.71676
▁కె	-8.71777
వలన	-8.71849
▁కుడి	-8.71901
▁గేమ్స్	-8.7201
ళ్ళు	-8.72233
▁శరీర	-8.72254
▁చేయు	-8.72321
థ	-8.72343
▁వినియోగదారులు	-8.72388
ాము	-8.7244
ate	-8.72516
పర్	-8.72894
22	-8.7295
త్వం	-8.7297
▁f	-8.7318
▁కింద	-8.73221
▁శిక్షణ	-8.73314
▁ఎక్కడ	-8.73455
▁అప్లికేషన్	-8.73639
▁బో	-8.73669
▁మొ	-8.73816
ఖ	-8.73995
▁కోర్సు	-8.74091
ళ్ల	-8.74094
▁పరిశోధన	-8.74094
కింగ్	-8.74111
▁జా	-8.74156
▁Y	-8.74199
▁గుర్తించ	-8.74209
మునకు	-8.7426
ట్స్	-8.74263
▁వెబ్సైట్	-8.74351
▁ఇమెయిల్	-8.74368
▁సమాచారాన్ని	-8.74441
▁అమెరికా	-8.74744
▁పిల్లలు	-8.74771
▁కస్టమర్	-8.7478
▁2016	-8.74878
▁కారణంగా	-8.749
▁అవసరమైన	-8.7505
ిస్తున్న	-8.75282
▁నమూనా	-8.75325
▁ఉప	-8.75496
06	-8.75528
▁ఆహార	-8.75546
డీ	-8.75572
▁క్రెడిట్	-8.75645
&	-8.75686
న్నా	-8.75743
▁వెనుక	-8.7578
▁చేసింది	-8.75834
▁నమోదు	-8.75862
▁క్యాసినో	-8.75934
04	-8.75988
▁ఒ	-8.76003
▁వెళ్ల	-8.76084
▁పాఠశాల	-8.76116
▁సులభంగా	-8.7617
▁పరికరాలు	-8.7629
▁రవాణా	-8.76334
99	-8.76466
▁l	-8.76501
▁పొ	-8.76542
▁ప్రస్తుత	-8.76621
▁పడ	-8.76738
▁పట్ట	-8.76772
▁నిన్ను	-8.76794
▁Z	-8.76874
▁యువ	-8.77478
▁వైర్	-8.77604
▁తా	-8.77623
▁దశ	-8.77685
▁కుమారుడు	-8.77744
24	-8.77811
17	-8.7794
▁బాక్స్	-8.77973
▁పద	-8.78493
ళ్లు	-8.78528
▁వివరాలు	-8.78535
▁క్రీస్తు	-8.7862
▁టా	-8.7868
▁ధన్యవాదాలు	-8.78693
▁మెటల్	-8.78745
▁జె	-8.79185
▁చూచి	-8.79391
పీ	-8.794
▁అంతర్జాతీయ	-8.79517
▁ఆర్థిక	-8.79517
▁నెల	-8.79529
▁మానవ	-8.79887
▁లైట్	-8.80136
▁మనం	-8.80298
▁పొందండి	-8.80305
▁స్త్రీ	-8.80309
08	-8.80368
▁లేని	-8.80471
▁ఉపయోగిస్తారు	-8.80548
▁సొంత	-8.80621
▁భాష	-8.80765
▁గ్	-8.80811
డె	-8.8084
▁ప్రత్యక్ష	-8.80842
యందు	-8.80888
▁కథ	-8.81062
▁చేయాలి	-8.81115
▁మోతాదు	-8.81338
▁తయారీ	-8.81448
▁వచ్చిన	-8.81457
▁వాడ	-8.81513
▁చుట్టూ	-8.81534
రై	-8.81669
▁ఉష్ణోగ్రత	-8.81799
35	-8.81959
ట్టు	-8.82097
la	-8.82135
▁తొలగించ	-8.82178
▁అదనపు	-8.82184
▁వెళ్లి	-8.82375
▁బు	-8.82485
డో	-8.82521
▁ప్రా	-8.82576
నర్	-8.82735
▁పొందడానికి	-8.82739
ter	-8.82776
▁కాల్	-8.82782
Z	-8.83046
▁రోజుల	-8.83154
మర్	-8.83221
▁అమ్మ	-8.83274
▁మనిషి	-8.83311
▁అనుభవం	-8.83323
▁అంచనా	-8.83389
ృ	-8.83484
▁చిరునామా	-8.83506
▁పైన	-8.83716
▁తెలుగు	-8.83853
▁మోడల్	-8.83859
ంగ	-8.83929
▁దేశ	-8.83961
యర్	-8.84096
▁ఫా	-8.84097
▁ప్రశ్న	-8.84194
▁వ్యాసం	-8.84276
రణ	-8.8435
▁డే	-8.8446
▁సహా	-8.84491
07	-8.84528
▁(1	-8.84558
▁డౌన్	-8.8466
▁మార్	-8.84683
కుండ	-8.84797
39	-8.84956
▁వేడి	-8.84996
హ్	-8.84998
▁ఉండే	-8.85181
టన్	-8.85459
▁బాధ్యత	-8.85525
ang	-8.85591
▁పరి	-8.857
▁అంత	-8.85726
▁ప్రముఖ	-8.85733
▁ఒక్క	-8.85764
▁బార్	-8.85804
▁XX	-8.85901
లై	-8.85975
▁చేతి	-8.86284
▁2013	-8.86512
ay	-8.86516
ఫ	-8.8658
▁ఫోటో	-8.8664
▁విద్యుత్	-8.86648
ers	-8.8666
▁ఆరోగ్య	-8.86765
ింపు	-8.86766
లేని	-8.86882
రియా	-8.86927
ిరి	-8.87191
▁»	-8.87255
▁సై	-8.87379
▁అవ	-8.87538
▁తరచుగా	-8.87579
▁గేమ్	-8.87595
ఇ	-8.87648
వర	-8.87842
▁పాత్ర	-8.88039
▁తాజా	-8.88062
▁వేయ	-8.88211
▁పైగా	-8.88336
▁ప్రణాళిక	-8.88603
ునట్లు	-8.8865
ir	-8.88856
▁రీ	-8.88878
ొ	-8.88939
33	-8.88975
▁లైటింగ్	-8.89065
ినప్పుడు	-8.89121
▁దాదాపు	-8.89306
▁22	-8.89324
▁గత	-8.89396
ట్ట	-8.89417
▁అతి	-8.89482
▁ఒకే	-8.89583
▁మార్పు	-8.89616
▁సృష్టించ	-8.89649
▁పార్టీ	-8.89656
▁కలిగిన	-8.89723
▁వ్యతిరేకంగా	-8.89798
▁హె	-8.89903
్య	-8.89935
ఫి	-8.89942
▁గు	-8.90087
▁40	-8.90113
ీకరణ	-8.90198
▁ఆడ	-8.90383
బడ్డాయి	-8.90409
▁తల్లి	-8.90561
▁ఇవ్వ	-8.90587
▁నేడు	-8.90701
▁అందించ	-8.90849
తిని	-8.9087
▁కుమారులు	-8.9095
ణి	-8.9107
▁క్యా	-8.9107
ul	-8.91101
▁బ్యాటరీ	-8.91109
▁బ్ర	-8.91163
▁లోడ్	-8.91384
ఎస్	-8.91513
▁సంబంధం	-8.9154
▁ప్రో	-8.91616
-1	-8.91719
నేను	-8.91786
▁చి	-8.91809
ma	-8.91826
▁ఇప్పటికీ	-8.91997
ందుకు	-8.92086
▁భద్రత	-8.92124
▁వీ	-8.9213
▁బయటకు	-8.92163
▁చా	-8.92222
▁రాత్రి	-8.9225
▁నివాస	-8.92307
▁అడుగు	-8.92357
▁డాలర్	-8.9245
▁మరిన్ని	-8.92466
▁మార్చ	-8.92852
21	-8.92967
09	-8.92983
ation	-8.93006
▁కట్టింగ్	-8.93076
▁ఎంచుకోండి	-8.93113
▁జిల్లా	-8.93166
▁సమీక్ష	-8.93284
▁కోర	-8.9329
వ్వ	-8.93413
▁హో	-8.93423
75	-8.93424
▁https	-8.93474
▁జరిగింది	-8.9355
▁పిల్లల	-8.93724
సో	-8.9375
▁23	-8.93762
36	-8.93925
ent	-8.93956
0,000	-8.93988
▁వైద్య	-8.94023
పే	-8.94079
34	-8.94143
▁క్రితం	-8.94149
ut	-8.94175
li	-8.94618
ద్ధ	-8.9475
▁ఎప్పుడూ	-8.94847
▁కుటుంబ	-8.94953
▁దావీదు	-8.94979
▁ప్రస్తుతం	-8.94994
▁వేగం	-8.95037
▁ఫ	-8.95134
▁పోటీ	-8.95165
ించారు	-8.95221
▁అనుమతిస్తుంది	-8.95298
▁సులభం	-8.95325
▁గల	-8.9547
▁గంటల	-8.95485
▁ముఖ్యంగా	-8.95502
▁లోన్	-8.95548
▁చేర్చ	-8.95656
▁కాలం	-8.95721
▁వలన	-8.95992
యున్న	-8.96061
చర్	-8.96069
▁ఇవి	-8.96081
▁కాసినో	-8.96082
▁60	-8.96103
షా	-8.96114
▁నిర్ధారించ	-8.9619
▁ఎక్కువగా	-8.9619
▁నిర్వహించ	-8.96199
శా	-8.96243
▁ఎయిర్	-8.96394
@	-8.96407
28	-8.96416
వాడ	-8.96435
బుల్	-8.96514
▁దూరంగా	-8.96526
▁ఇశ్రాయేలు	-8.96528
ఈ	-8.9654
▁యే	-8.96645
32	-8.96654
▁కవర్	-8.96925
ia	-8.9695
▁పవర్	-8.97027
▁లోపల	-8.9706
▁ఐఫోన్	-8.9707
38	-8.97155
ుకో	-8.97269
▁వెంటనే	-8.97271
టె	-8.97331
▁కారణం	-8.97393
గే	-8.97579
ుదురు	-8.97668
కార	-8.97839
▁సినిమా	-8.97869
▁చూప	-8.98249
▁పరిశ్రమ	-8.98339
▁నిజమైన	-8.98478
▁గాలి	-8.98598
మైనది	-8.98605
ంటే	-8.98616
im	-8.98677
ne	-8.98768
▁ఆన్	-8.98818
▁గె	-8.98922
all	-8.98965
65	-8.98983
▁చంప	-8.99034
▁తి	-8.99051
బీ	-8.99084
దర్శ	-8.99163
వో	-8.99285
▁ఆధారంగా	-8.99401
▁ఆధునిక	-8.99421
య్	-8.99459
▁సేవ్	-8.99522
ఐ	-8.9955
▁హి	-8.99609
▁కాల	-8.99848
▁2015	-8.99876
▁నెలల	-8.99962
లోకి	-8.9997
ుతున్న	-8.99991
▁©	-9
37	-9.00008
నూ	-9.00152
తాయి	-9.00184
త్తు	-9.00273
డర్	-9.00286
ండు	-9.00357
▁ఉత్తర	-9.00467
▁స్వ	-9.00482
లోనుండి	-9.00552
▁భావ	-9.00689
▁బే	-9.00739
తే	-9.00757
▁వెర్షన్	-9.00761
▁న్యాయ	-9.00809
▁దేశం	-9.00908
▁అగ్ని	-9.00998
▁ప్రపంచంలో	-9.01014
▁జీవిత	-9.0112
▁ప్రొఫెషనల్	-9.0118
▁ఉపయోగం	-9.01264
▁ఏదో	-9.01299
▁స్వంత	-9.0131
▁యూదా	-9.01437
మన్	-9.01697
వలె	-9.01797
▁నెట్వర్క్	-9.01883
▁ఊ	-9.01915
▁నగరం	-9.01933
▁కేబుల్	-9.02092
డింగ్	-9.022
కూడదు	-9.02277
▁పొడవు	-9.0228
▁దీనిని	-9.02312
▁ఇస్తుంది	-9.02406
▁స్థానిక	-9.02497
▁సిస్టమ్	-9.02514
▁చదవండి	-9.0257
చేసి	-9.02603
పోయిన	-9.02609
నై	-9.02609
▁ఫి	-9.02651
23	-9.02823
▁ఇప్పటికే	-9.02835
▁పురుషులు	-9.02892
వేయ	-9.02911
▁నిల్వ	-9.02972
▁బీ	-9.0306
▁మార	-9.03128
▁కనుగొన	-9.03336
▁కార్డ్	-9.03373
▁ఎస్	-9.03401
▁మూడవ	-9.03406
ot	-9.03512
▁వ్యాపారం	-9.03581
ులకు	-9.03582
నింగ్	-9.03644
పెట్ట	-9.03768
ంప్	-9.038
▁గృహ	-9.04105
▁ఉపయోగించడానికి	-9.04158
▁భారీ	-9.04177
▁ఎవరైనా	-9.04214
తర	-9.04263
▁2014	-9.04559
ధ్య	-9.04588
-2	-9.04628
ాం	-9.04688
యొక్క	-9.04884
▁Re	-9.04979
స్టర్	-9.05017
▁HD	-9.05073
▁చేస్తారు	-9.05203
▁ఎం	-9.05284
od	-9.05589
▁కం	-9.05602
గర్	-9.05602
▁భ	-9.0564
▁ఇం	-9.05653
▁నిర్మాణ	-9.05713
▁అవును	-9.0572
▁డై	-9.05749
▁రూపకల్పన	-9.05815
ించడం	-9.05882
▁ఫైబర్	-9.05919
▁అందించే	-9.05963
um	-9.06235
ha	-9.06255
▁చేయబడిన	-9.06292
▁బహుశా	-9.06316
నున్న	-9.06352
▁బ్రాండ్	-9.06356
67	-9.06413
▁వాని	-9.06518
hi	-9.06556
▁తప్పు	-9.06669
45	-9.06682
▁పీ	-9.0681
▁శరీరం	-9.06824
శ్	-9.06923
హు	-9.06937
యైన	-9.06946
▁పెంచ	-9.06951
▁26	-9.06977
స్తు	-9.07068
Q	-9.0715
చ్చి	-9.07304
గురు	-9.07352
▁బలమైన	-9.0745
op	-9.0745
▁శ్రీ	-9.0753
ఆర్	-9.07692
31	-9.07695
కొని	-9.07785
▁ప్రభావం	-9.0785
ాత్మక	-9.07998
▁పరికరం	-9.08034
▁తెలియ	-9.08075
▁కేంద్ర	-9.0822
▁అవుతుంది	-9.08274
▁ఇశ్రాయేలీయుల	-9.08303
▁వయస్సు	-9.08392
▁కట్ట	-9.0846
▁మహిళలు	-9.0851
▁లింక్	-9.08545
▁దక్షిణ	-9.08643
▁g	-9.08699
ag	-9.08842
▁రోజులు	-9.08879
▁Android	-9.08945
▁వ్యాఖ్యలు	-9.09103
▁విన	-9.09146
▁స్థానంలో	-9.09169
కాల	-9.09365
ong	-9.09426
బడతాయి	-9.09451
▁తాను	-9.0947
ుకొన	-9.0952
▁ట్యాంక్	-9.09553
ందు	-9.09601
ఫా	-9.09617
▁తయారీదారు	-9.09647
▁రోడ్	-9.09763
▁పంచ	-9.09935
▁పొడి	-9.10091
one	-9.10251
యె	-9.10397
co	-9.1042
▁t	-9.10483
ట్టి	-9.10487
▁తగ్గ	-9.10612
వేసి	-9.10671
▁కనెక్ట్	-9.10676
వై	-9.10679
ry	-9.10704
▁ప్రాజెక్ట్	-9.10779
రము	-9.10827
▁సంబంధిత	-9.10847
▁బాధ	-9.10896
▁మై	-9.10939
దారు	-9.10947
▁ప్రాథమిక	-9.11036
▁లీ	-9.11065
▁సేవలు	-9.11078
▁మోషే	-9.11097
▁న్యూస్	-9.11164
▁మారింది	-9.11166
▁చెప్పెను	-9.11186
దేశ	-9.11229
▁ఉదాహరణకు	-9.11297
▁సహజ	-9.11388
▁28	-9.11431
ta	-9.11456
జు	-9.11459
▁చరిత్ర	-9.1146
▁వెళ్ళ	-9.11479
చార	-9.11513
షి	-9.11644
▁సర్వర్	-9.11786
▁రేటు	-9.11961
మంది	-9.1204
per	-9.12054
ts	-9.12058
దురు	-9.12096
యన్	-9.12107
▁బహుళ	-9.12252
▁మళ్ళీ	-9.1228
మీరు	-9.12557
▁చర్య	-9.12658
▁ప్రకటన	-9.1271
▁పదార్థం	-9.12912
▁పెట్టుబడి	-9.1295
▁శాఖ	-9.12965
▁€	-9.13026
▁సాధించ	-9.13048
▁స్క్రీన్	-9.13066
ుకున్న	-9.13079
and	-9.13155
70	-9.13192
▁టీ	-9.13246
▁రాజ	-9.13247
▁వివరణ	-9.13342
▁చట్టం	-9.13355
వలెనని	-9.1336
ఫె	-9.13459
సర్	-9.1349
▁వేదిక	-9.13545
ంప	-9.13706
బె	-9.13856
▁వ్రాయ	-9.13959
om	-9.14
▁ఎత్తు	-9.14015
▁జూన్	-9.14028
▁అమ్మాయి	-9.14096
టిక్	-9.14224
▁మార్పిడి	-9.1423
ఘ	-9.14349
▁చేసినప్పుడు	-9.14366
▁ముగింపు	-9.14443
జే	-9.14494
▁జనవరి	-9.14603
▁పట్టణము	-9.14621
▁ఐదు	-9.14636
▁మరణ	-9.14642
▁పడుతుంది	-9.14643
మూ	-9.14967
▁కెమెరా	-9.14978
▁పంపిణీ	-9.15088
▁అనగా	-9.15186
తూ	-9.15244
ap	-9.15299
▁డిజిటల్	-9.153
▁ప్రామాణిక	-9.15354
▁అయిన	-9.15373
▁షీట్	-9.15415
హి	-9.15461
▁సమ	-9.15475
▁కావలసిన	-9.15483
▁కుమారుడైన	-9.15737
సన్	-9.15747
▁కార్డు	-9.15753
▁భావించ	-9.15826
▁మార్చి	-9.1584
▁ఆర్డర్	-9.15865
▁సహ	-9.15884
ఉ	-9.1598
▁అతనిని	-9.15983
▁వాడు	-9.16026
▁n	-9.16087
▁కుమార్తె	-9.1611
▁పద్ధతి	-9.16248
▁Ch	-9.16286
▁27	-9.16726
ుచున్న	-9.16737
▁నిర్ణయించ	-9.16778
69	-9.16855
దో	-9.16912
▁నిర్దిష్ట	-9.16926
థి	-9.17081
▁కంటెంట్	-9.17091
▁పలు	-9.17123
mo	-9.17126
▁మొదలైనవి	-9.17182
ow	-9.17182
▁తప్ప	-9.17202
▁200	-9.17298
▁అల్యూమినియం	-9.17419
▁ఒత్తిడి	-9.17474
▁ఎల్	-9.17484
de	-9.17511
▁సమస్యలు	-9.17518
▁చెక్క	-9.17586
▁కొంత	-9.17637
ణు	-9.17665
▁29	-9.17719
na	-9.17813
▁అన	-9.17934
▁తీసుకు	-9.1801
రొ	-9.18048
స్టా	-9.18104
49	-9.18131
▁తీసికొని	-9.18145
▁500	-9.18219
▁పూ	-9.18221
▁మమ్మల్ని	-9.18302
▁చిత్రాలు	-9.18345
est	-9.18354
▁అండ్	-9.18427
▁కుటుంబం	-9.18501
▁హౌస్	-9.18521
యొద్దకు	-9.18636
▁స్పీకర్	-9.18691
▁స్వాగతం	-9.18746
▁సబ్	-9.18767
▁సంవత్సరాలు	-9.18769
మార్	-9.18865
▁చూస్తున్న	-9.18922
▁భూ	-9.19028
▁అలా	-9.19121
▁ఆసక్తి	-9.19129
▁గ్రా	-9.19141
▁ప్రశ్నలు	-9.1923
▁గుర్తింపు	-9.19308
▁పరిస్థితి	-9.19419
▁గుండె	-9.19426
▁కాకుండా	-9.19451
బే	-9.19593
▁ఏడు	-9.19727
▁ప్రైవేట్	-9.19754
ce	-9.19757
29	-9.198
▁శా	-9.19877
క్రమ	-9.20004
▁మీడియా	-9.20031
▁యి	-9.20121
ాల్సిన	-9.20143
72	-9.2023
▁గోడ	-9.20316
▁శోధన	-9.20317
▁అంగీకరించ	-9.20383
▁సైన్	-9.20405
▁Q	-9.20425
▁వారితో	-9.20444
రింగ్	-9.205
▁వ్యాధి	-9.20528
▁చర్చి	-9.20545
▁°	-9.2059
66	-9.20596
▁పరిచయం	-9.20606
▁సముద్ర	-9.20646
▁ఉన్నత	-9.20767
వారికి	-9.20825
▁మనస్సు	-9.20829
▁ఆధారపడి	-9.20878
ant	-9.20894
ాయ	-9.20967
ండర్	-9.20978
ల్డ్	-9.20998
▁లె	-9.21001
▁విశ్వవిద్యాలయం	-9.21013
ru	-9.21025
ine	-9.21044
-20	-9.21081
ాన	-9.2119
ద్య	-9.21252
▁హామీ	-9.21254
▁నేరుగా	-9.21284
షు	-9.2129
ver	-9.21445
▁స్పై	-9.21499
▁ఖ	-9.21581
▁ఫల	-9.21607
▁టై	-9.2163
▁@	-9.21723
▁వెళ్ళి	-9.21783
ిస్తూ	-9.21788
▁నీరు	-9.21834
ంట	-9.21858
ారని	-9.21859
88	-9.21913
▁ప్రవక్త	-9.21916
లేక	-9.21969
▁పవిత్ర	-9.22086
ac	-9.22093
టై	-9.2212
me	-9.22252
net	-9.22281
▁స్టెరాయిడ్	-9.22316
▁సహాయపడుతుంది	-9.22333
der	-9.22354
▁నిబంధనలు	-9.22369
▁చెప్పిన	-9.22484
▁వేగంగా	-9.22538
▁—	-9.22579
26	-9.22702
▁you	-9.22754
▁త్వరగా	-9.22799
ph	-9.22852
▁కావచ్చు	-9.22984
▁ఒప్పందం	-9.23069
▁చాట్	-9.23081
▁పొందిన	-9.23118
కల్	-9.23149
▁ప్రయోజనాలు	-9.2328
▁ఉపయోగించవచ్చు	-9.23295
vi	-9.23373
▁వస్తుంది	-9.23552
▁బల	-9.23589
▁మానసిక	-9.23769
▁మాట్లాడ	-9.23806
▁యూనిట్	-9.23815
▁మిగిలిన	-9.23966
▁పెరుగుదల	-9.24065
▁చెందిన	-9.24087
▁ఖచ్చితమైన	-9.24238
ంబ	-9.2429
ti	-9.24321
IN	-9.24329
no	-9.24354
▁విని	-9.24449
▁re	-9.24458
▁మరో	-9.24468
▁PC	-9.24498
▁ఎన్	-9.24502
స్తారు	-9.24529
▁వదిలి	-9.24534
▁స్థానం	-9.24553
ెదను	-9.24585
▁ప్రాంతంలో	-9.24725
▁యో	-9.24781
▁సెప్టెంబర్	-9.24828
సెస్	-9.24854
▁పుట్ట	-9.2488
▁v	-9.25026
▁స్టేషన్	-9.2508
▁ఉండటం	-9.25358
తాడు	-9.2537
▁ఇదే	-9.25374
నుబట్టి	-9.2551
మరింత	-9.25535
▁పౌడర్	-9.25541
ab	-9.25591
▁మహా	-9.25616
▁కూ	-9.25656
▁కార్యక్రమం	-9.25724
▁r	-9.25816
▁మిమ్మల్ని	-9.25839
▁వికీపీడియా	-9.25899
▁సంపాదించ	-9.25949
▁UK	-9.25964
▁సాధన	-9.25976
em	-9.26003
▁సెల్	-9.26035
వలసి	-9.26044
27	-9.26046
▁నష్టం	-9.26071
68	-9.26102
▁సంస్థలు	-9.26131
▁నిర్	-9.26165
లిన్	-9.26169
▁పాట	-9.26197
▁వచ్చే	-9.26205
▁సే	-9.26255
▁విజయ	-9.26295
▁ప్రార్థన	-9.26319
▁అందించడానికి	-9.26319
▁ఇలా	-9.26382
▁సూపర్	-9.2639
90	-9.2641
86	-9.26414
దని	-9.26459
▁అధికారిక	-9.26516
వలసిన	-9.26526
▁ప్రభుత్వ	-9.26565
▁జట్టు	-9.26648
▁డ్రైవ్	-9.26748
lu	-9.26757
ie	-9.26805
పోయింది	-9.26811
▁సుమారు	-9.26951
▁పరిశుద్ధ	-9.26976
▁చర్చ	-9.27085
జన	-9.27093
ుచున్నాను	-9.27106
▁వల్ల	-9.27152
▁ఎక్స్	-9.27186
▁యుద్ధం	-9.2722
▁Google	-9.27283
▁గుర్తు	-9.27408
లపై	-9.27419
ుటకై	-9.27436
▁పదం	-9.27444
▁అల్	-9.27544
ుకునే	-9.27551
▁వార	-9.27576
లెట్	-9.27695
▁సూచించ	-9.27713
ov	-9.27785
దల	-9.2792
▁అట్లాంటిక్	-9.27952
AN	-9.28098
77	-9.28141
▁జుట్టు	-9.28143
▁ఫె	-9.28189
▁Windows	-9.28197
▁యూరోప్	-9.28251
▁ఆశ్చర్య	-9.28258
పడి	-9.28264
▁ఫైల్	-9.28266
▁వివరించ	-9.28313
▁అసలు	-9.28342
దాని	-9.28348
▁అమెరికన్	-9.28381
▁వేల	-9.2852
▁డీ	-9.28569
కాలు	-9.2859
కెట్	-9.28634
▁ప్రోగ్రామ్	-9.2869
▁ఒకసారి	-9.28722
▁విద్యా	-9.28823
55	-9.28903
▁for	-9.28981
▁జనుల	-9.28996
తులు	-9.29017
71	-9.29085
▁గి	-9.29122
▁స్లాట్లు	-9.29197
▁దగ్గర	-9.29241
ig	-9.29262
ఫీ	-9.29268
▁ఎలక్ట్రిక్	-9.29366
▁ఏప్రిల్	-9.29366
ca	-9.29391
▁బోర్డు	-9.29394
up	-9.29418
స్థ	-9.29435
▁రేట్	-9.29542
▁బహు	-9.2962
▁సలహా	-9.29705
యొద్ద	-9.29727
▁ఆసియా	-9.29748
▁పంపు	-9.29759
▁విద్య	-9.29892
▁దరఖాస్తు	-9.29925
▁31	-9.29954
యము	-9.29957
▁దేవుడైన	-9.30008
▁కర్	-9.30053
▁ఆస్తి	-9.30108
95	-9.30209
ER	-9.30227
▁పనితీరు	-9.30237
▁స్థితి	-9.30244
▁చిట్కాలు	-9.30273
ప్రపంచవ్యాప్తంగా	-9.30299
▁నమ్మ	-9.30338
▁తర	-9.30357
▁నిజానికి	-9.30364
▁నవంబర్	-9.30424
ించింది	-9.30562
▁ఫై	-9.30734
▁de	-9.30796
▁బదిలీ	-9.30863
త్య	-9.30976
▁దయ	-9.30989
▁బ్యాంక్	-9.31053
మన	-9.31085
త్రి	-9.31156
▁ట్రాక్	-9.3117
సర	-9.31181
జం	-9.31189
▁~	-9.31355
▁మార్కెటింగ్	-9.3143
▁కళ	-9.31477
▁on	-9.31502
నట్లు	-9.31511
▁పర	-9.31529
▁మిలియన్	-9.31554
▁పారిశ్రామిక	-9.31556
▁వేరు	-9.31575
48	-9.31609
మ్ము	-9.31648
▁ఉపయోగించే	-9.31691
▁మరి	-9.31772
▁నిబంధన	-9.31876
▁ప్రభువు	-9.31969
▁ఘన	-9.32041
▁ఇన్స్టాల్	-9.32064
▁రై	-9.32069
▁టె	-9.32179
▁ఉత్పత్తుల	-9.3224
47	-9.32301
▁తెర	-9.32391
లోనికి	-9.32418
▁ఖాళీ	-9.32446
▁తే	-9.32452
స్తున్న	-9.32503
యాన్	-9.32614
▁స్టెయిన్లెస్	-9.32638
గ్గ	-9.32643
▁పైప్	-9.32664
98	-9.32691
▁డెలివరీ	-9.32702
▁సిఫార్సు	-9.32702
▁బుక్	-9.32726
▁జోడించ	-9.32769
▁ఫిబ్రవరి	-9.32894
▁సెంటర్	-9.32921
▁ప్యాకేజీ	-9.32958
0%	-9.32962
▁వినియోగదారు	-9.32967
+	-9.33048
▁క్రొత్త	-9.33087
ల్లా	-9.33145
▁పచ్చబొట్లు	-9.33151
ుకోండి	-9.33329
▁వోల్టేజ్	-9.33344
▁చెప్పు	-9.33355
=&	-9.33368
▁వర్	-9.33412
శి	-9.33437
▁చేత	-9.33438
▁క్ష	-9.33461
ment	-9.33478
▁ప్రదర్శించ	-9.33502
కార్	-9.33514
100	-9.33544
▁బ్రష్	-9.33547
85	-9.33666
▁జాతీయ	-9.3368
▁కనీసం	-9.33711
▁విభాగం	-9.33827
▁ప్రయోజనం	-9.33867
వాని	-9.33909
▁వాణిజ్య	-9.33925
▁ముందుకు	-9.33978
▁PVC	-9.3412
▁is	-9.34312
ిస్తాయి	-9.34345
▁కూడ	-9.34386
▁లేవు	-9.34487
▁ఉదాహరణ	-9.34487
▁వర్గం	-9.34531
▁విజయం	-9.34554
▁రియల్	-9.34696
సింగ్	-9.34711
▁మిల్	-9.34727
▁నిద్ర	-9.34784
▁చెడు	-9.34813
▁బ్యా	-9.34996
▁ఆహారం	-9.35036
▁చెప్పి	-9.35071
="5	-9.3511
▁జరిగిన	-9.35117
▁భాగస్వామ్యం	-9.35308
ీకరించ	-9.35375
41	-9.35507
ిస్తే	-9.35548
దె	-9.35608
ll	-9.3564
▁ఎటువంటి	-9.35647
▁అక్టోబర్	-9.3569
▁హోటల్	-9.357
ించెను	-9.35704
▁అదనంగా	-9.35756
▁ష	-9.35825
▁వలె	-9.35842
▁సర్దుబాటు	-9.35888
▁నిలిచి	-9.35888
తుంది	-9.35895
▁No	-9.35913
▁స్టార్	-9.35971
సారి	-9.3598
▁తీవ్రమైన	-9.36041
పరి	-9.36127
▁ఔషధ	-9.36226
▁చూడటానికి	-9.36279
▁జో	-9.36307
▁Co	-9.36375
di	-9.36387
▁ఆపరేషన్	-9.36418
sh	-9.36458
▁సార్లు	-9.3646
▁ప్రాంతం	-9.36482
▁లక్ష్యం	-9.36494
▁St	-9.36616
▁by	-9.36705
=	-9.37046
▁In	-9.37077
▁డబుల్	-9.37088
▁పాయింట్	-9.37201
5%	-9.37222
▁వారం	-9.37292
లేరు	-9.37317
▁100%	-9.37373
56	-9.37385
▁డిగ్రీ	-9.37487
▁e	-9.37514
200	-9.37519
నియా	-9.3763
▁కాం	-9.3768
ET	-9.37703
ON	-9.37718
ec	-9.37768
▁ప్రకటించ	-9.37821
టెడ్	-9.37825
44	-9.37833
▁మూలం	-9.37916
వద్దు	-9.37917
▁దారి	-9.37926
▁ఆరు	-9.37954
▁బదులుగా	-9.37958
▁నో	-9.3796
నందు	-9.38084
▁నగదు	-9.38094
58	-9.38136
ుకొను	-9.38156
కపోతే	-9.38201
▁ఉద్యోగ	-9.3822
▁దీన్ని	-9.38369
▁బ్యాంకు	-9.38404
▁అతిపెద్ద	-9.38431
▁సామాజిక	-9.38431
▁కలుగ	-9.38489
▁తగినంత	-9.38524
▁వెల్డింగ్	-9.38573
ధా	-9.38589
పొ	-9.38675
▁వ్యక్తులు	-9.38694
▁జనాభా	-9.38838
▁పొందవచ్చు	-9.38881
▁విమానం	-9.38881
▁చేయబడుతుంది	-9.38911
▁ఏది	-9.39054
▁స్వీకరించ	-9.39056
▁వ్యతిరేక	-9.39121
▁వ్యక్తుల	-9.39126
oo	-9.39134
▁తగిన	-9.39154
▁అమ్మకానికి	-9.39248
▁అనుబంధ	-9.3926
▁=	-9.39351
స్టె	-9.394
▁బిల్	-9.39417
52	-9.39431
▁అందుకు	-9.3955
▁బాల్	-9.39606
▁అనుమతి	-9.39648
▁ఫీచర్	-9.39659
ex	-9.39698
▁http	-9.3971
▁ప్రవేశ	-9.39719
▁హాక్	-9.39741
▁మనకు	-9.39743
▁పది	-9.39744
▁విచారణ	-9.39808
▁టో	-9.39959
గ్రా	-9.40058
▁అధ్యయనం	-9.40148
రూప	-9.40157
if	-9.40205
age	-9.40241
▁మర	-9.40308
to	-9.40355
ell	-9.40356
▁విస్తరించ	-9.40401
ho	-9.40532
▁ప్యా	-9.40551
▁x	-9.40571
▁యంత్రాలు	-9.40599
▁శైలి	-9.40625
▁కేసు	-9.40634
▁చెంద	-9.40686
▁GPS	-9.40745
▁ప్రభుత్వం	-9.40821
▁తీర్చ	-9.40843
▁తెలిసిన	-9.40853
నది	-9.40863
▁ఆటో	-9.40964
91	-9.40968
▁be	-9.41115
▁మహిళ	-9.41121
▁తగ్గించ	-9.4115
▁కనిపిస్తుంది	-9.41179
63	-9.41226
▁వ్యవసాయ	-9.41249
▁వీలు	-9.41307
▁దానికి	-9.4133
▁డిసెంబర్	-9.41388
▁సాధనం	-9.41398
▁కాపీరైట్	-9.41458
42	-9.41492
IC	-9.41551
▁పర్యావరణ	-9.41598
▁రూపొందించ	-9.41784
జో	-9.41819
▁పరిష్కారం	-9.41831
ni	-9.41831
▁గ్రామ	-9.41855
▁భారత	-9.41938
-3	-9.41969
▁కష్టం	-9.41971
▁సేకరించ	-9.41977
చేయు	-9.41984
ఎం	-9.42053
▁చక్రం	-9.42086
▁రకమైన	-9.42089
▁సిద్ధంగా	-9.42126
ుకోవడం	-9.42128
▁లేక	-9.42175
▁సంయుక్త	-9.42178
▁ఆడియో	-9.42231
▁k	-9.42261
వులు	-9.42379
▁కనబడ	-9.42427
▁am	-9.42444
▁అతనితో	-9.42448
▁‘	-9.42455
ుకోవచ్చు	-9.42516
హో	-9.42519
▁బయట	-9.42563
యిన్	-9.42637
ంచు	-9.42638
ేషన్	-9.42693
▁పాపము	-9.42806
Comment	-9.42862
▁అయినప్పటికీ	-9.43018
www	-9.43159
▁యుండ	-9.43207
▁ఎలక్ట్రానిక్	-9.4322
మీదికి	-9.43224
▁బలం	-9.43254
గీ	-9.43303
;&	-9.43315
▁పుస్తకం	-9.43373
bo	-9.43423
▁మొదట	-9.43474
▁మనము	-9.43529
కరమైన	-9.43539
▁చూసిన	-9.43564
▁కరెన్సీ	-9.43576
PS	-9.43637
▁Telugu	-9.43649
▁ఇచ్చిన	-9.43683
ge	-9.43683
▁Ma	-9.4369
▁ఆజ్ఞ	-9.43761
▁ఉపయోగించడం	-9.43786
▁డ్రైవర్	-9.43799
▁నిజ	-9.43831
▁రహస్య	-9.43862
▁తీర్పు	-9.43862
ప్పటికీ	-9.43867
ీయ	-9.4392
▁మంద	-9.43997
▁సాగ	-9.44015
pe	-9.44084
▁కనుక	-9.44138
▁కొన	-9.44166
53	-9.44178
▁ఇతరులు	-9.44184
జింగ్	-9.44219
▁సర్	-9.44219
▁జరుగుతుంది	-9.44236
57	-9.44244
ాలతో	-9.44273
▁సగటు	-9.44293
వారిని	-9.44317
▁వార్	-9.44323
వాస	-9.44335
▁కాలేదు	-9.4434
దన	-9.44408
▁హాట్	-9.4446
ite	-9.44476
▁చేయగల	-9.44554
ించడానికి	-9.44588
▁80	-9.44601
▁అనుకూల	-9.44625
▁జెట్	-9.44633
▁సంఖ్యలు	-9.44685
▁బూ	-9.44735
▁రక్షించ	-9.44885
▁కుమారుల	-9.44915
▁శి	-9.44935
▁ఆనందం	-9.44973
ak	-9.44978
▁గాయ	-9.44982
▁మిమ్మును	-9.45
▁(20	-9.45026
▁కొవ్వు	-9.45087
▁శక్తివంతమైన	-9.45172
▁వాటిలో	-9.45192
▁హక్కు	-9.45253
▁సంతోష	-9.45263
▁మెటీరియల్	-9.45304
ff	-9.45309
▁స్వీయ	-9.45375
go	-9.45382
▁అవసర	-9.45431
ద్ర	-9.45431
ve	-9.45459
యెడల	-9.45494
ఏ	-9.45579
బ్బ	-9.45648
▁నిర్వహించడానికి	-9.45715
83	-9.45764
▁నిర్మించ	-9.4579
చ్చు	-9.45803
▁బటన్	-9.4581
▁పడి	-9.45814
సము	-9.45884
▁అక్వేరియం	-9.45886
AR	-9.45888
▁తలుపు	-9.45961
్యము	-9.46042
▁ఫలితాలు	-9.46042
ob	-9.46126
ఒక	-9.4613
గొట్ట	-9.46131
97	-9.46163
చూ	-9.46178
500	-9.46219
89	-9.46241
▁తీసి	-9.46257
చన	-9.46264
▁గుడ్	-9.46267
▁ప్రయత్నించండి	-9.46397
▁రచయిత	-9.46398
▁వేచి	-9.46454
ార్	-9.46471
96	-9.46475
59	-9.46494
▁ఏమీ	-9.46557
▁యూ	-9.46623
▁st	-9.46636
▁పట్టణ	-9.46661
లూ	-9.46707
▁35	-9.46744
▁సృష్టించడానికి	-9.46751
వార	-9.46764
బడు	-9.4678
▁ఉపయోగ	-9.46815
46	-9.46857
▁నివేదిక	-9.46918
న్నీ	-9.46934
▁చదువు	-9.47017
▁దీర్ఘ	-9.47095
43	-9.47318
▁ఏకైక	-9.47357
▁అంతర్గత	-9.47434
▁అన్న	-9.47474
▁పర్వత	-9.47482
▁అటువంటి	-9.47484
▁యాక్సెస్	-9.47506
▁తెలియదు	-9.47555
▁%	-9.47574
▁నిమిషాల	-9.47613
▁ఫో	-9.47651
▁అర్	-9.47708
▁చిత్ర	-9.4775
os	-9.47884
▁రాష్ట్ర	-9.47896
ian	-9.47963
▁రీఫ్	-9.47974
▁...]	-9.48101
కొరకు	-9.48159
▁32	-9.48162
▁నియమించ	-9.48181
94	-9.48304
▁ఫ్రేమ్	-9.48325
ందరి	-9.48329
ew	-9.48371
▁అంశం	-9.484
▁బంగారు	-9.48476
భాగ	-9.48639
ార్థ	-9.48664
▁రూప	-9.48673
▁భద్రతా	-9.48776
▁దేవ	-9.4884
▁పర్	-9.48936
▁కొనసాగ	-9.4898
74	-9.49028
we	-9.49167
▁ఆలోచించ	-9.49197
▁స్టాక్	-9.4921
▁ప్రమాద	-9.49214
art	-9.49277
▁స్టికర్లు	-9.49303
రల్	-9.49342
▁ఏర్పడ	-9.49347
▁రోజువారీ	-9.49378
▁సందర్భంలో	-9.4938
క్షన్	-9.49385
కర్త	-9.49417
▁ఆధారిత	-9.49436
▁పాప	-9.49442
▁పిల్ల	-9.49473
▁ప్రవేశించ	-9.49523
▁సమాచార	-9.49563
our	-9.49598
▁CNC	-9.49757
▁సూచిక	-9.49759
▁విండో	-9.49814
▁రికార్డు	-9.49833
62	-9.49851
▁అనువర్తనం	-9.49873
▁సరి	-9.49877
ms	-9.49891
▁రక్త	-9.49961
కంటె	-9.49979
▁తెలుపు	-9.50009
▁తాము	-9.50039
▁చూసారు	-9.50047
▁తీసుకో	-9.50059
క్సి	-9.50083
దూ	-9.50083
▁పొందుటకు	-9.50084
tr	-9.50213
▁పనిచేస్తుంది	-9.50219
ah	-9.50271
ill	-9.5034
▁గ్రహ	-9.50373
▁పదార్థాలు	-9.50398
▁అచ్చు	-9.50425
▁విద్యార్థులు	-9.5055
▁వ్యాఖ్య	-9.50587
▁టాగ్లు	-9.50645
்	-9.50672
▁జీవితంలో	-9.50672
▁బర్	-9.50683
▁ప్లేట్	-9.50705
▁ఉపయోగించండి	-9.50765
▁ప్రత్యేకంగా	-9.50811
▁అవసరాలు	-9.50841
బ్రా	-9.50849
▁గది	-9.50857
▁తు	-9.50901
61	-9.50974
▁నగర	-9.50983
▁పాస్	-9.51001
▁పరిధి	-9.51007
▁2020	-9.51025
▁ఉపకరణాలు	-9.51028
▁ప్రతిదీ	-9.51051
sk	-9.51061
▁కొద్దిగా	-9.51072
▁వర్క్	-9.51083
kg	-9.51146
ణం	-9.51182
▁హార్డ్	-9.51206
▁ఆగస్టు	-9.5121
▁జూలై	-9.51221
లైన	-9.51239
ity	-9.51254
▁తొ	-9.51261
92	-9.51273
▁దీనికి	-9.51357
▁ఆలోచనలు	-9.51384
▁స్టా	-9.51402
▁అర్హత	-9.51441
దగిన	-9.51514
▁వెడల్పు	-9.51595
ack	-9.51608
▁దిగువ	-9.51613
▁నేల	-9.51623
౦	-9.51673
▁తద్వారా	-9.51676
▁చేస్తున్న	-9.51722
▁మందిరము	-9.51793
▁లైంగిక	-9.51828
▁సర్వీస్	-9.51828
▁ప్రత్యుత్తరం	-9.51862
సై	-9.51873
ard	-9.51905
▁పొర	-9.51938
▁పోర్ట్	-9.51981
▁The	-9.51984
సిన	-9.52036
▁ఆయనను	-9.52048
▁అవగాహన	-9.5206
▁కొండ	-9.52122
▁ఆశ	-9.52177
లెక్	-9.52189
▁జాన్	-9.52195
▁సామగ్రి	-9.52294
▁గ్రంథ	-9.52294
▁సరఫరాదారు	-9.52384
▁హార్మోన్	-9.5245
భా	-9.5245
▁టాటూ	-9.5246
73	-9.52495
▁వినియోగదారుల	-9.52521
▁శాంతి	-9.52585
▁అనుగుణంగా	-9.52606
▁జిఎస్టి	-9.52606
రాన్	-9.52703
▁పున	-9.52739
▁యీ	-9.52787
▁కష్ట	-9.52813
రియ	-9.52831
వాద	-9.52916
▁నింగ్బో	-9.52919
లోనే	-9.5292
పరు	-9.52926
▁మ్యాచ్	-9.52936
▁తిన	-9.52962
▁మార్పులు	-9.5297
ect	-9.53088
▁డాక్టర్	-9.53093
▁2011	-9.5312
▁భావన	-9.53126
▁చెప్పాడు	-9.53323
▁దుస్తులు	-9.53327
▁హార్	-9.53331
▁భాగంగా	-9.53365
▁ముద్ర	-9.535
▁వినియోగదారులకు	-9.53516
▁ప్రవర్తన	-9.53549
76	-9.53578
▁ఓపెన్	-9.53626
▁ఫోటోలు	-9.5364
ies	-9.53806
▁స్మార్ట్	-9.53859
▁CO	-9.53885
మంత	-9.53948
ితే	-9.5395
▁ఓడ	-9.53959
▁సంగీతం	-9.54059
ive	-9.54079
da	-9.54091
▁పట్టిక	-9.54094
▁బైబిల్	-9.54101
▁ట్యూబ్	-9.54101
హం	-9.54196
▁ఆల్	-9.54198
ub	-9.54259
నైనను	-9.54261
ుకోవడానికి	-9.54269
▁పర్యవేక్షణ	-9.54269
▁విదేశీ	-9.54293
▁ప్రభావితం	-9.54306
▁స్ట	-9.54315
తాను	-9.54326
జన్	-9.54332
మాన్	-9.54389
పోయెను	-9.54402
▁దేశంలో	-9.54496
‍	-9.54498
▁డేవిడ్	-9.54498
▁కాపీ	-9.54514
▁నష్ట	-9.54522
▁విశ్రాంతి	-9.54577
AT	-9.54582
▁ప్రారంభం	-9.54609
▁2012	-9.54617
సూ	-9.54649
బర్	-9.5469
రుగు	-9.54785
చా	-9.54792
▁తీసుకున్న	-9.54849
he	-9.54906
▁ప్రదేశం	-9.54925
▁చూడవచ్చు	-9.54942
కరణ	-9.54943
▁అత్యధిక	-9.54976
▁అర	-9.55027
ide	-9.55033
ంగు	-9.55093
▁కావ	-9.55162
వర్త	-9.55167
▁ఉచితంగా	-9.55172
ber	-9.55178
man	-9.55181
▁లెక్క	-9.55219
▁బృందం	-9.55298
స్తాయి	-9.55319
▁90	-9.55334
ast	-9.55334
ఫై	-9.5536
▁కొట్ట	-9.55422
ేది	-9.55466
87	-9.55469
▁పురుషుల	-9.55515
▁గైడ్	-9.55583
▁చూ	-9.55594
▁రివ్యూ	-9.55618
▁సిటీ	-9.55655
2018	-9.55665
AS	-9.55709
▁నేర	-9.55754
చిన	-9.55799
▁కింది	-9.55805
54	-9.55832
▁మాట్లాడుతూ	-9.55868
యల్	-9.55927
▁షిప్పింగ్	-9.55941
▁గిటార్	-9.55948
▁వివాహం	-9.55972
▁వాల్	-9.56017
రాజు	-9.56084
▁రష్యన్	-9.56102
ిస్తాము	-9.56118
▁ఆధార	-9.56201
pl	-9.56204
▁1000	-9.56204
ాంత	-9.56264
▁ప్రజా	-9.56324
ింపబడ	-9.56416
fe	-9.56484
ST	-9.56562
▁సంప్రదాయ	-9.56588
ట్రా	-9.56711
ya	-9.56826
▁ఒప్ప	-9.5689
ai	-9.56902
▁స్పష్టంగా	-9.56904
త్వ	-9.56916
▁క్రమంలో	-9.56942
▁రౌలెట్	-9.56996
▁దాన్ని	-9.57015
▁ఆనంద	-9.57016
▁స్కా	-9.57101
▁సంబంధించి	-9.57136
▁సంస్థాపన	-9.57175
▁తూర్పు	-9.57241
▁తెరవ	-9.57241
▁రద్దు	-9.57244
▁ఇంట్లో	-9.57246
్యం	-9.57334
▁పట్టు	-9.57379
ందని	-9.57381
ud	-9.57412
▁ప్యాకింగ్	-9.57423
▁తరగతి	-9.57487
ర్యా	-9.57523
▁సంఘటన	-9.57587
SA	-9.57623
▁విధ	-9.57676
▁ప్రయోజనాల	-9.57708
▁నుండ	-9.57786
▁సూచన	-9.57823
RE	-9.57946
▁విశ్లేషణ	-9.5798
▁మాస్టర్	-9.58018
▁పోయి	-9.58031
టరీ	-9.58073
▁పరికర	-9.58192
▁సంరక్షణ	-9.58227
▁వెండి	-9.58433
▁టేబుల్	-9.58559
▁కొన్నిసార్లు	-9.58578
కొన	-9.58661
ep	-9.58753
కారం	-9.58784
▁ఎంపికలు	-9.58872
ట్రో	-9.58874
▁సమీక్షలు	-9.58887
▁గాక	-9.58892
ఛ	-9.5894
▁సంపూర్ణ	-9.58974
▁ఎరుపు	-9.58976
▁అప	-9.58992
▁Vi	-9.59007
▁కనుగొనేందుకు	-9.59025
శాల	-9.59043
ల్లి	-9.5905
ka	-9.5917
పట్ట	-9.59173
▁శాశ్వత	-9.59223
▁పాల	-9.59228
▁36	-9.59237
చర	-9.59273
▁ప్లస్	-9.59355
78	-9.59434
▁మగ	-9.5944
▁ముఖం	-9.59452
ార	-9.59494
లిక్	-9.5951
▁ఆఫర్	-9.59531
▁ఫ్ల	-9.5961
ంటు	-9.59624
▁శాతం	-9.59646
▁చెయ్య	-9.59692
▁పార్క్	-9.5973
▁నమ్మకం	-9.5974
నైన	-9.59854
pa	-9.59913
యున్నది	-9.59961
▁శిక్ష	-9.60042
▁ఈలాగు	-9.60048
లాండ్	-9.60057
mg	-9.60266
పద	-9.60283
▁వృత్తి	-9.60315
జేయ	-9.6032
51	-9.60337
స్తూ	-9.60396
▁వేసి	-9.60425
▁నల్ల	-9.60431
▁ఆందోళన	-9.60483
ందో	-9.60488
▁సూ	-9.60543
▁సత్య	-9.60557
▁సంభవించ	-9.60569
▁అధికార	-9.60614
బోర్డ్	-9.60672
▁ప్రసిద్ధ	-9.60696
CA	-9.60736
లేదా	-9.60775
▁ప్రాసెసింగ్	-9.60822
▁ప్రమాదం	-9.60832
▁పాలసీ	-9.60845
▁An	-9.60846
లెస్	-9.60914
▁విస్తృత	-9.60996
▁బేస్	-9.61012
▁ఆనందించండి	-9.61032
▁సెలవు	-9.61052
▁అందు	-9.61098
▁అనుభవ	-9.61116
▁స్వా	-9.61131
▁చున్న	-9.61186
▁క్రియ	-9.6119
గం	-9.61195
▁దినమున	-9.61252
▁సీజన్	-9.6127
▁వాల్వ్	-9.61365
ష్య	-9.61452
▁జనులు	-9.61473
▁ప్యాకేజింగ్	-9.61673
▁ఫంక్షన్	-9.61673
▁దేశాల	-9.61775
తీయ	-9.61779
▁ముఖ్యం	-9.6182
▁ఎంతమంది	-9.61871
▁పనిచేయ	-9.6189
▁సందర్శించండి	-9.61915
▁నవీకరణ	-9.6193
▁వారాల	-9.62074
▁పక్ష	-9.62086
▁కోల్పో	-9.62124
▁జీ	-9.62139
▁ఒకడు	-9.6216
▁పద్ధతులు	-9.62171
ఖా	-9.62175
▁ఓర్ఫెక్	-9.62273
▁దేవుడ	-9.62294
end	-9.62365
▁షా	-9.62371
▁పేర్కొన్న	-9.62532
▁ముందుగా	-9.62631
▁రుణ	-9.62647
▁లేచి	-9.62685
▁స్థిర	-9.62702
▁ప్యానెల్	-9.62704
TE	-9.62784
▁క్లయింట్	-9.62791
▁గమనించ	-9.62803
ిస్తాడు	-9.62808
▁ప్రొ	-9.62875
▁హైడ్రాలిక్	-9.62877
▁మార్గాలు	-9.6289
▁హోం	-9.62891
▁జాగ్రత్తగా	-9.62899
▁ఇవ్వాలని	-9.62918
▁చీ	-9.62921
▁బ్లాగ్	-9.62994
డైన	-9.63048
▁ఉక్కు	-9.63055
▁కాలంలో	-9.63064
▁ఇటువంటి	-9.63072
▁చెక్	-9.63072
పరిచ	-9.63294
ంజ	-9.63332
మొ	-9.6334
▁ఊహించ	-9.63355
సెల్	-9.63357
▁వీడియోలు	-9.63515
ంగి	-9.63596
▁పదాలు	-9.63654
ft	-9.63657
▁బాహ్య	-9.63659
టెన్	-9.63719
▁ఇంధన	-9.63758
mi	-9.63784
▁సేవలను	-9.63789
▁ప్రీ	-9.63806
64	-9.63807
▁ఓవర్	-9.63851
▁సహాయపడ	-9.63892
▁మీరే	-9.63902
▁హే	-9.6396
▁వేసవి	-9.63989
▁బట్టి	-9.63996
▁వ్యా	-9.64004
▁యూజర్	-9.64035
▁భర్తీ	-9.64123
▁జన	-9.64147
82	-9.64178
▁బై	-9.64198
▁తె	-9.64209
▁లైఫ్	-9.6422
9"	-9.64259
▁విన్న	-9.64265
▁సింగిల్	-9.64272
res	-9.64351
q	-9.64377
▁జల	-9.64411
▁Sp	-9.64498
▁గోప్యతా	-9.64506
▁పిలుస్తారు	-9.64536
▁మరల	-9.64554
93	-9.64588
ణ్	-9.646
▁అభిప్రాయాలు	-9.64619
▁చర్మం	-9.64625
▁×	-9.6463
79	-9.64647
స్తా	-9.64662
fi	-9.64685
▁సన్	-9.64701
▁నూనె	-9.64714
▁పితరుల	-9.64718
ించబడ	-9.64831
▁Home	-9.64838
▁(3	-9.64864
ధు	-9.65099
▁నూతన	-9.65153
81	-9.65238
▁ఛా	-9.65309
▁వీరు	-9.65347
ఫర్	-9.65357
▁వడ్డీ	-9.65419
పతి	-9.65461
▁భారతదేశం	-9.65468
▁ఫ్యాషన్	-9.65508
▁ఉపరితల	-9.6552
▁మరణం	-9.65532
▁పైపు	-9.65614
▁దిన	-9.65619
ind	-9.65634
▁హెడ్	-9.65665
▁ప్రధానంగా	-9.65709
థా	-9.65725
▁సంబంధ	-9.65759
iz	-9.65787
▁దేశము	-9.65798
▁సిద్ధం	-9.6587
▁ఇతరుల	-9.6593
▁ఉంటారు	-9.65937
▁నిండి	-9.65952
▁తప్పించ	-9.66
▁ఎవరూ	-9.66043
ుకుంటా	-9.66124
▁వాటర్	-9.66135
▁హృదయ	-9.66136
org	-9.66189
▁ఇక	-9.66218
▁రంగ	-9.66218
ఫే	-9.66272
▁గ్రహించ	-9.66272
▁ప్రి	-9.66276
▁సగం	-9.66289
▁సిబ్బంది	-9.66311
ూరు	-9.66392
▁ప్రొఫైల్	-9.664
▁మత	-9.66454
▁ఉంటా	-9.66465
శు	-9.66469
▁విశ్వాసం	-9.66492
▁తెల్ల	-9.6651
▁ఉన్నా	-9.66513
▁మోడ్	-9.66528
ఫో	-9.66562
▁ప్రయత్నించ	-9.66562
▁ఉన్నాను	-9.6657
▁సమీప	-9.66576
▁నిపుణుల	-9.66585
▁క్లా	-9.66609
సిస్	-9.66634
ight	-9.66735
▁కొనసాగించ	-9.66756
▁సమర్పించ	-9.6676
ప్రా	-9.66803
▁అనుకూలంగా	-9.66827
▁ఫలితంగా	-9.66845
▁యెడల	-9.66876
▁డ్రా	-9.66916
▁భవనం	-9.6699
▁జర్మనీ	-9.6703
▁పరిపూర్ణ	-9.6703
5"	-9.67123
ుతాయి	-9.67126
hu	-9.67153
▁పార్	-9.672
▁యొక	-9.67201
▁చేతులు	-9.67205
AL	-9.67238
▁కోరిక	-9.67287
▁లూ	-9.67324
▁జత	-9.67346
▁కలిపి	-9.67395
▁పౌర	-9.67472
ist	-9.67509
▁చేయబడ	-9.6751
▁ఉండదు	-9.67517
రవ	-9.6752
ిస్తున్నారు	-9.67596
DE	-9.67647
▁ట్రేడింగ్	-9.6767
▁జ్ఞానం	-9.67718
▁కమిటీ	-9.67755
▁రోలర్	-9.67807
▁స్థల	-9.6785
0.0	-9.67942
▁గరిష్ట	-9.67992
ఢ	-9.68003
▁వేర్	-9.68079
▁సమయ	-9.68102
MA	-9.68112
▁స్థలం	-9.68122
▁సభ్యులు	-9.68146
ుతోంది	-9.68152
▁2010	-9.68178
ందరు	-9.68252
గానే	-9.68257
▁మంచిది	-9.68277
▁వందల	-9.68279
▁కౌ	-9.68368
▁నివసించ	-9.68369
దర	-9.68522
రియన్	-9.68572
84	-9.68593
▁సౌలు	-9.6861
▁రాజకీయ	-9.68759
▁అంటారు	-9.68804
▁సరిగ్గా	-9.68851
▁కండరాల	-9.68856
ip	-9.6894
▁\	-9.68968
▁యెహోవాకు	-9.69011
▁బం	-9.69032
ాంశ	-9.69071
}	-9.69127
స్కో	-9.69159
▁అనుకూలమైన	-9.69174
▁రసాయన	-9.69219
▁అమర్చ	-9.69237
▁మిస్	-9.69264
తుల	-9.69273
▁ఇదిగో	-9.69324
శో	-9.69359
భి	-9.69424
▁పుట్టిన	-9.69431
▁దూర	-9.69437
▁కట్	-9.69457
yl	-9.69459
నీయ	-9.6948
▁ప్లేయర్	-9.69544
▁యుద్ధ	-9.69546
ొక	-9.69643
పం	-9.6967
▁చెల్ల	-9.69723
▁దీప	-9.6973
▁మహిళల	-9.69855
{	-9.69866
▁త్రాగ	-9.69868
ke	-9.6996
పార్	-9.70024
▁45	-9.70048
▁పగ	-9.70057
▁ట్రా	-9.70092
▁గ్లాస్	-9.70153
▁ప్రయత్న	-9.70156
6"	-9.70326
▁వీక్షణ	-9.70343
ఫిక్	-9.70402
బడును	-9.70414
▁కస్టమ్	-9.70425
OR	-9.70461
కూ	-9.70481
గె	-9.70582
▁అమ్మకాలు	-9.70632
▁కోర్	-9.70642
మరియు	-9.70754
ash	-9.70823
ీకృత	-9.70826
▁యునైటెడ్	-9.70892
tion	-9.7091
▁తెచ్చ	-9.70914
▁కంట్రోలర్	-9.70986
▁సూచిస్తుంది	-9.70986
▁సమాన	-9.70999
▁చేస్తాము	-9.71014
▁పసుపు	-9.7108
▁సేకరణ	-9.71186
స్టు	-9.71208
పోయి	-9.71231
▁సరిహద్దు	-9.71268
oc	-9.71287
SS	-9.71325
▁ఆటోమేటిక్	-9.71362
ba	-9.71402
▁మోస	-9.71406
వార్	-9.71419
RA	-9.7146
▁సభ్య	-9.71503
ుకుంటుంది	-9.71504
▁భర్త	-9.71524
క్టర్	-9.71567
ర్చ	-9.71599
LE	-9.71623
▁మాటలాడ	-9.71642
▁సరళ	-9.71661
▁శ్	-9.71663
గత	-9.71664
▁కాపాడ	-9.71695
▁పరిస్థితుల	-9.71931
▁రేటింగ్	-9.71996
▁స్పష్టమైన	-9.72011
క్రియ	-9.72018
▁సర్వ	-9.72029
▁నున్న	-9.72034
▁వాయిస్	-9.72037
▁ఆయిల్	-9.72046
▁IP	-9.72065
▁ప్రజలకు	-9.7211
▁ఎగుమతి	-9.72214
టేషన్	-9.72297
విన్	-9.72301
▁మస్క్	-9.72422
▁సమూహం	-9.72439
▁వైట్	-9.72454
2019	-9.7246
cm	-9.72518
▁విషయంలో	-9.7256
act	-9.72617
▁మైనింగ్	-9.72618
▁కోట్	-9.7264
▁గ్రూప్	-9.7269
▁అవుట్	-9.72767
▁క్రమ	-9.72769
▁కొల	-9.7288
▁షూ	-9.72899
▁కత్తి	-9.72908
▁pro	-9.72934
▁పార	-9.72966
బై	-9.72997
▁వస్తువులు	-9.73021
▁Ar	-9.73121
గొ	-9.7315
ుతూ	-9.7316
▁బ్లూ	-9.73178
▁దో	-9.73223
▁ఇజ్రాయెల్	-9.7336
▁వేర్వేరు	-9.73361
▁ట్రాకర్	-9.73385
▁ఉద్యోగం	-9.7342
▁నీతి	-9.73432
చో	-9.73445
▁సందర్శించిన	-9.73449
▁ధర్మ	-9.73531
▁Name	-9.73539
▁బ్యాగ్	-9.73545
▁విషయ	-9.73588
▁సాధ్యం	-9.73628
▁సైన్స్	-9.73662
బడెను	-9.73668
▁జన్మ	-9.737
▁ధ	-9.73714
ుచున్నది	-9.73718
▁అమెచ్యూర్	-9.73746
పుడు	-9.73788
▁ప్రచురించ	-9.73823
▁టైప్	-9.73845
▁నామము	-9.73913
▁కంట్రోల్	-9.74035
ంటారు	-9.74041
▁సైనిక	-9.74064
తట్టు	-9.74151
▁గ్రీ	-9.7419
▁బొ	-9.74194
▁వినియోగం	-9.74222
▁చూపించ	-9.74251
ou	-9.74271
▁సంతోషంగా	-9.74298
▁లాక్	-9.74301
▁పరిగణించ	-9.74302
▁EA	-9.74454
▁ప్లా	-9.74478
▁అనుమతించ	-9.74564
బెట్ట	-9.74603
పోర్ట్	-9.74632
రంగ	-9.74698
▁పరిష్కరించ	-9.74753
గలదు	-9.74767
ాల్సి	-9.7478
▁విభిన్న	-9.74813
▁కంపెనీలు	-9.74831
▁టెక్స్ట్	-9.74854
ుడైన	-9.74885
qu	-9.74889
▁ముఖ్య	-9.7492
▁సేవల	-9.75017
▁రాయ	-9.75084
▁గంట	-9.75091
▁ఇంగ్లీష్	-9.75105
▁రైల్వే	-9.75125
▁సాఫ్ట్	-9.75127
నొ	-9.75167
▁జంట	-9.75212
▁చర్యలు	-9.75275
తున్న	-9.75281
▁US	-9.75315
యున్నాడు	-9.75333
▁ఎంచ	-9.75346
పోవ	-9.75354
▁ఎంతో	-9.75397
▁cryptocurrency	-9.7542
▁పరికరాల	-9.75435
▁మార్గము	-9.7545
▁మందు	-9.75471
▁భాగస్వామి	-9.75499
జ్ఞ	-9.7551
కాలము	-9.75526
CC	-9.7554
కల్ప	-9.75565
▁2009	-9.75572
▁సమీపంలో	-9.75601
EC	-9.75625
▁క్ర	-9.75668
▁ట్రిప్	-9.7568
▁చల్లని	-9.75853
▁ఇటలీ	-9.75891
▁కంటైనర్	-9.7599
▁ఉన్నప్పటికీ	-9.75996
ish	-9.75998
ust	-9.76073
▁కోట	-9.76073
▁ఇచ్చ	-9.76143
▁వచ్చినప్పుడు	-9.76234
▁అమ్మాయిలు	-9.76246
▁శ్రమ	-9.76247
▁సురక్షితంగా	-9.76269
▁కళాశాల	-9.76293
▁De	-9.76301
▁ట్ర	-9.76302
ఠ	-9.76357
ఎన్	-9.76428
డుగు	-9.76457
▁దగ్గరగా	-9.76464
తె	-9.76485
7"	-9.76532
▁చేస్తాయి	-9.76549
▁నింప	-9.7656
▁సర్వే	-9.76562
▁విడి	-9.76569
ki	-9.76575
ండింగ్	-9.76588
రెన్	-9.76592
▁ఉండి	-9.76613
▁కార్య	-9.76626
▁వాక్కు	-9.76688
▁ఇష్టపడ	-9.76706
▁con	-9.76732
ందా	-9.76738
చేసిన	-9.76753
▁అంగ	-9.7678
▁అందువల్ల	-9.76782
▁బహుమతి	-9.76783
ందున	-9.7681
▁బైక్	-9.76885
▁పూర్వ	-9.76974
▁కట్టుబడి	-9.77006
▁కనిపించే	-9.77033
▁2000	-9.77104
▁సంఘ	-9.7716
▁స్థలము	-9.77167
▁విమాన	-9.77248
▁జారీ	-9.77292
▁కప్ప	-9.77298
▁అడ్డ	-9.7731
భవ	-9.77334
▁సంవత్సరము	-9.77364
యింగ్	-9.77414
▁సహోదరుల	-9.77419
ణము	-9.77429
▁అవకాశాలు	-9.77447
రోజు	-9.77534
▁దూత	-9.77545
▁ఉనికి	-9.77586
▁సువార్త	-9.77681
▁వాస్తవ	-9.77697
▁వస్త్ర	-9.77727
హె	-9.77786
▁లేకపోతే	-9.77825
▁కన్నా	-9.77836
▁సమావేశం	-9.77841
IS	-9.77903
▁దీనిలో	-9.77958
▁మెరుగు	-9.77989
▁మహిమ	-9.78027
▁రేడియో	-9.78083
▁Mo	-9.78085
▁పెరుగుతున్న	-9.78086
▁300	-9.78096
▁ఆమోదించ	-9.78144
▁ఇష్టం	-9.7815
▁అనుభూతి	-9.78184
▁పర్సనల్	-9.78184
▁బలహీన	-9.7819
▁ఉండండి	-9.78231
▁అధికారం	-9.78241
▁కేంద్రం	-9.78285
చ్ఛ	-9.78323
▁షె	-9.78326
▁పొందుతారు	-9.78326
చ్చిన	-9.78327
▁నేటి	-9.78331
చిత్ర	-9.78384
▁చేసుకున్న	-9.78392
bu	-9.784
▁ఉన్నాము	-9.78436
వాహ	-9.78485
లైన్	-9.78619
▁TV	-9.78688
▁అయి	-9.78711
tor	-9.78733
▁ప్రీమియం	-9.78791
▁ఎంటర్	-9.78804
▁మంచు	-9.78811
▁ఎక్	-9.78825
లియా	-9.78841
▁వంట	-9.78862
ిస్తా	-9.78887
▁ఇసుక	-9.78894
రక్ష	-9.78985
▁ఐగుప్తు	-9.78993
SP	-9.79031
hd	-9.79047
▁అపవిత్ర	-9.79096
▁కటింగ్	-9.79125
▁సందర్శించ	-9.79128
▁టచ్	-9.79173
mb	-9.79179
ించాడు	-9.79211
▁ఉంచండి	-9.79258
▁చెట్టు	-9.79274
▁రబ్బరు	-9.793
కాయ	-9.79346
▁నిలువ	-9.79363
నుగూర్చి	-9.79399
▁సర్టిఫికేషన్	-9.79402
▁2008	-9.79438
▁బోధ	-9.79543
క్సీ	-9.79543
▁చేసుకో	-9.79636
▁పురాతన	-9.79709
▁యూరోపియన్	-9.79709
ాలంటే	-9.79798
▁ఇంజిన్	-9.79811
వ్యా	-9.79818
వెన్	-9.79836
▁మెయిల్	-9.79855
gu	-9.79877
ుకున్నారు	-9.79938
లొ	-9.7997
ik	-9.79996
▁ప్రజాదరణ	-9.80016
▁ప్రాసెస్	-9.80042
▁చివర	-9.80054
▁నిరంతర	-9.80079
▁షి	-9.80097
▁నది	-9.80106
▁మాడ్యూల్	-9.80119
టిన్	-9.8013
▁క్రా	-9.80142
▁USD	-9.80182
▁బీమా	-9.80206
▁కీర్తి	-9.80239
▁నమూనాలు	-9.80271
▁లేదో	-9.80277
ఇది	-9.80286
▁గంటలు	-9.80317
▁ఎవరి	-9.80407
▁150	-9.8043
డని	-9.80524
ః	-9.80524
▁షాపింగ్	-9.80538
▁ఎదురు	-9.80558
▁వర్ణ	-9.80701
ధన	-9.80713
▁బిడ్డ	-9.80748
ES	-9.80754
▁విస్తృతంగా	-9.80789
▁మొదలు	-9.80831
గూర్చి	-9.80946
▁పట్టుకొని	-9.81002
హే	-9.81006
▁తీర	-9.81014
ుకోవాలి	-9.81031
▁దేశములో	-9.81045
▁బహిరంగ	-9.81049
▁పత్రిక	-9.81108
▁పొందు	-9.81128
▁వెళ్	-9.81144
▁33	-9.81157
▁ఆపై	-9.81224
▁ఉంచడానికి	-9.81248
▁తెలుసుకోవడానికి	-9.81268
▁పాయింట్లు	-9.81321
▁లేఖ	-9.81343
ిస్తోంది	-9.81356
▁కనెక్షన్	-9.81361
▁కార్బన్	-9.81361
▁తెలిసి	-9.81554
▁టు	-9.81556
▁యింటి	-9.81558
▁షే	-9.81581
▁స్టోర్	-9.81678
లమీద	-9.81777
▁ఇన్పుట్	-9.8178
▁స్వతంత్ర	-9.81781
▁నేర్చ	-9.81781
▁మాటలు	-9.81797
▁స్వయంచాలక	-9.81861
▁సృష్టించబడింది	-9.81882
▁తేడా	-9.81935
పొంద	-9.81939
▁గుణ	-9.81956
డై	-9.8196
▁So	-9.81975
▁పర్యటన	-9.81987
▁DC	-9.81987
▁తెలుసుకోవ	-9.8199
–	-9.82018
iv	-9.82046
▁సామర్థ్యాన్ని	-9.8216
▁అంగుళాల	-9.82197
▁వడపోత	-9.82197
▁నియమ	-9.82218
సులు	-9.82233
▁అనుసరించ	-9.82248
▁ఇందులో	-9.82305
-8	-9.82313
▁ప్రెస్	-9.82325
▁అమరిక	-9.82408
▁ma	-9.82433
▁టెక్	-9.82453
▁జపనీస్	-9.82618
▁లక్ష్య	-9.82642
బడే	-9.82648
▁యెదుట	-9.8265
▁అంతటా	-9.82706
షిప్	-9.82708
ూర్	-9.82716
▁CE	-9.82726
ట్లుగా	-9.82742
తాము	-9.82808
▁చైనీస్	-9.82829
▁మైక్రో	-9.82829
▁ప్రోత్సహించ	-9.82831
▁అత్యుత్తమ	-9.82935
▁అనుకుంటున్నారా	-9.82935
▁ఇంటికి	-9.82935
▁యంత్ర	-9.82964
▁ప్రత్యేకమైన	-9.82965
▁పాల్	-9.82999
శీ	-9.83064
▁స్థిరమైన	-9.83142
▁కొందరు	-9.83181
NA	-9.83183
va	-9.83235
▁బ్రౌజర్	-9.83253
▁పైకి	-9.83263
ువాడు	-9.83263
▁యెరూషలేము	-9.83291
▁పరిశీలించ	-9.83328
min	-9.83347
▁sp	-9.83361
▁రుచి	-9.83369
▁పోరాడ	-9.83398
▁పరీక్షించ	-9.83409
ద్దు	-9.83438
▁మధ్యలో	-9.83457
ంటా	-9.83463
▁వ్యవధి	-9.83465
నందున	-9.83466
hen	-9.83491
▁ఆదాయం	-9.83515
పూర్	-9.83547
▁ఈవెంట్	-9.83572
▁Me	-9.8367
▁షో	-9.83672
ps	-9.83696
▁se	-9.83711
▁యాకోబు	-9.83784
▁రంగంలో	-9.83792
టార్	-9.83805
వడం	-9.8384
TS	-9.83867
పోర్	-9.83884
ణా	-9.83966
▁కాయిల్	-9.83975
port	-9.83999
ass	-9.84005
▁రోజుల్లో	-9.84045
కాలం	-9.84058
▁బంధ	-9.84065
దారులు	-9.84149
ీయుల	-9.84177
టికి	-9.84195
▁పగడపు	-9.84212
▁తెలుసుకోండి	-9.84212
▁బలి	-9.84221
న్యా	-9.84262
డెన్	-9.84285
▁క్రైస్తవ	-9.84319
▁వహించ	-9.84322
▁నొప్పి	-9.84322
▁లోతు	-9.84355
-5	-9.84364
EN	-9.84396
▁తెలియజేయ	-9.84423
▁అభ్యర్థన	-9.84426
▁App	-9.84436
▁అడుగుల	-9.84525
▁స్విచ్	-9.84535
▁అందించడం	-9.84551
పింగ్	-9.84568
ాయని	-9.8461
▁విశ్వవిద్యాలయ	-9.84613
ల్లీ	-9.8462
▁అవుట్పుట్	-9.84642
0.1	-9.84686
▁కళ్ళు	-9.847
▁క్లో	-9.84783
▁నేనే	-9.8479
▁నోటి	-9.84864
ుదును	-9.84867
▁సంప్రదించ	-9.8488
▁నిరంతరం	-9.84899
▁పూత	-9.84926
▁మును	-9.8498
నీవు	-9.84986
▁ట్రాన్స్	-9.84999
▁సూక్ష్మ	-9.85073
▁తక్కువగా	-9.85076
▁జూ	-9.85091
▁చల్ల	-9.85122
వ్య	-9.85125
క్షి	-9.85222
▁టోకు	-9.85226
క్షణ	-9.85242
▁ఫోర్	-9.85243
▁కనిపించ	-9.85272
ంటె	-9.85288
▁గదా	-9.85289
▁ముడి	-9.85344
▁చార్	-9.85361
ుకుంటారు	-9.8538
రేషన్	-9.85396
▁గమనిక	-9.85412
▁నిర్ణయ	-9.85436
▁స్లాట్	-9.85453
▁చుట్టు	-9.8548
మవుతుంది	-9.85482
▁ద్రవ	-9.85514
▁సమగ్ర	-9.8553
▁లెట్	-9.85593
▁వాల్యూమ్	-9.85614
కై	-9.85638
▁లక్షణాలను	-9.85645
▁ప్రారంభంలో	-9.85661
▁ఆదర్శ	-9.8571
▁ఫాస్ట్	-9.85735
▁క్రిస్మస్	-9.85832
▁దూరం	-9.85849
బడలేదు	-9.85875
▁చూచు	-9.85933
▁లోతైన	-9.85944
▁బోధించ	-9.85956
▁తొలగ	-9.85962
▁రోల్	-9.86005
▁మెదడు	-9.8616
▁ఫ్రీ	-9.86197
▁పోలి	-9.86223
▁నిపుణులు	-9.86262
-10	-9.86286
▁రాజైన	-9.86314
ినయెడల	-9.86417
▁ఇంత	-9.86441
▁సింహ	-9.86457
▁నిమిత్తము	-9.86522
రాయి	-9.86538
▁అనువదించ	-9.86597
టెక్	-9.8679
ైతే	-9.86814
▁ప్రకృతి	-9.86927
▁సంతృప్తి	-9.86927
▁తోట	-9.86928
▁సంగతి	-9.8693
▁ఆపిల్	-9.86946
▁ప్రపంచంలోని	-9.8701
▁పాలి	-9.87011
▁పునః	-9.87045
▁కీలక	-9.8705
టల్	-9.87117
▁సౌర	-9.87131
(2	-9.87147
పత్ర	-9.87238
వింగ్	-9.87307
▁అప్పటి	-9.8731
ుకుని	-9.87326
▁[...]	-9.87368
▁పొడిగింపు	-9.87368
▁with	-9.87369
ట్లయితే	-9.87435
లాగు	-9.87469
ib	-9.87478
▁రింగ్	-9.8753
▁చేయాలని	-9.87537
▁భయ	-9.87646
▁XXX	-9.87675
ster	-9.87704
▁ఇటీవల	-9.87808
▁వర్ష	-9.87811
▁అనుసంధాన	-9.87811
sp	-9.87816
▁జ్ఞాన	-9.87867
ండా	-9.87894
ace	-9.87917
▁స్కూల్	-9.88005
▁జనరల్	-9.88045
▁2007	-9.88063
▁·	-9.88106
able	-9.88143
▁పెరిగింది	-9.88156
▁మందులు	-9.88158
▁రాష్ట్రం	-9.88165
▁నలుపు	-9.88167
color	-9.88173
▁కార్డులు	-9.88189
▁Pro	-9.88191
▁దేశాలు	-9.88205
▁పేటెంట్	-9.88256
▁శ్రద్ధ	-9.88256
▁హృదయము	-9.88286
▁చేసుకోవచ్చు	-9.88343
log	-9.88352
▁పబ్లిక్	-9.88368
▁స్పేస్	-9.88369
▁ఫ్లాట్	-9.88394
▁ఎడమ	-9.88416
▁బ్యాక్	-9.88486
▁కొని	-9.88489
▁కారణ	-9.88492
▁నాటికి	-9.88584
▁గూర్చి	-9.88584
▁ఫార్మాట్	-9.88592
▁గ్యాస్	-9.88595
▁బ్రేక్	-9.88597
గలిగ	-9.88615
ెదరు	-9.88637
▁నై	-9.88652
▁వస్తాయి	-9.88692
▁కార్యక్రమాలు	-9.88697
▁కమ్యూనికేషన్	-9.88703
ప్పటి	-9.88732
▁మోసం	-9.88737
ుతారు	-9.88741
తనం	-9.8879
▁పనులు	-9.88792
ఫు	-9.88802
ార్ధ	-9.8882
▁కృప	-9.88832
▁ఆకాశ	-9.8886
▁భయం	-9.8889
▁శాస్త్ర	-9.889
▁అన్నారు	-9.88905
▁తీసుకోవడం	-9.88907
▁నియంత్రించ	-9.88914
▁ప్లాన్	-9.8894
▁అంశాలు	-9.88949
▁మౌ	-9.88959
▁స్నేహితులు	-9.88962
ల్యూ	-9.88983
▁చనిపో	-9.89009
po	-9.89032
▁ప్రకాశ	-9.89039
▁హీరో	-9.89079
వైపు	-9.89159
si	-9.89196
ినట్లు	-9.892
EL	-9.8921
▁యుద్ధము	-9.89217
▁భౌతిక	-9.89265
▁అనా	-9.89272
▁సౌకర్యం	-9.89277
▁నీలం	-9.8932
▁సహకారం	-9.89356
▁జంతువులు	-9.89374
▁భయపడ	-9.89403
▁ప్రాణము	-9.89403
▁పరిమిత	-9.89418
▁సెయింట్	-9.89491
టివ్	-9.89497
▁దేని	-9.8954
కాలంలో	-9.89559
▁మ్యాప్	-9.89583
▁విశ్వాస	-9.89587
▁థీమ్	-9.89604
రేట్	-9.89605
▁వసంత	-9.89608
ధ్వ	-9.89639
▁ముఖ	-9.89671
ion	-9.89812
▁అసాధారణ	-9.89828
▁పరిమితి	-9.8984
ser	-9.8986
▁ఉండటానికి	-9.89884
▁క్రీడలు	-9.8996
▁కలప	-9.89973
▁దుష్ప్రభావాలు	-9.90008
▁విలువైన	-9.90035
▁ప్రదేశాల	-9.90045
▁ప్రతికూల	-9.90058
బ్యా	-9.90084
దర్	-9.90109
▁ఎంచుకున్న	-9.90118
దినము	-9.90119
▁ఎప్పుడు	-9.90133
▁రూపొందించబడింది	-9.90238
▁సిద్ధ	-9.90277
ner	-9.90278
▁చేస్తున్నారు	-9.90282
▁మాన్యువల్	-9.90284
థ్	-9.9029
పోతుంది	-9.90307
out	-9.9032
▁స్వర	-9.90379
ాలనుకుంటే	-9.90453
ేటప్పుడు	-9.90466
ord	-9.90484
యోగ	-9.90505
▁విభాగాలు	-9.90513
▁సమావేశ	-9.90559
మగు	-9.90562
▁రకాలు	-9.90568
గ్ర	-9.90606
▁Po	-9.9062
ారో	-9.90706
ుకుంది	-9.90728
▁శుభ్రం	-9.90768
▁ఆసక్తికరమైన	-9.90872
▁దాచ	-9.90887
▁నాశనం	-9.90977
▁ప్రమాణ	-9.91052
▁వాస్తవానికి	-9.91055
▁సంవత్సరంలో	-9.91072
▁తెలి	-9.91091
▁ప్రకటనలు	-9.91101
▁క్వా	-9.91109
▁తీయ	-9.91133
▁జపాన్	-9.912
▁ఫ్లో	-9.91225
▁అనుభవించ	-9.9133
▁ఇష్ట	-9.91375
▁సవరించ	-9.91381
వంతు	-9.91408
▁టాబ్లెట్	-9.91429
MC	-9.9145
యున్నారు	-9.91475
కుంటే	-9.91478
ల్యా	-9.91536
▁డిమాండ్	-9.91545
▁అనువాద	-9.91546
▁ఛానల్	-9.91546
▁బిట్	-9.91547
▁Ro	-9.91608
లైట్	-9.91652
లేము	-9.91663
▁చేస్తే	-9.91682
▁సైట్లు	-9.91712
▁కళా	-9.91714
మింగ్	-9.91745
▁టూల్స్	-9.91784
▁దాటి	-9.91789
▁స్ప	-9.91792
డాన్ని	-9.91888
▁మిశ్రమ	-9.91924
▁సంగీత	-9.91952
▁ధ్వని	-9.92066
▁పంట	-9.92077
▁ఆవిష్కరణ	-9.92123
▁విత్త	-9.92208
▁నిజం	-9.92227
▁వార్షిక	-9.92236
పూర్వక	-9.92253
లియ	-9.92338
స్టిక్	-9.92366
▁ఓర్	-9.92366
day	-9.92381
నెట్	-9.92389
▁సరిపో	-9.92411
ain	-9.92432
▁Wi	-9.92454
les	-9.92461
▁అనుకుంటున్నాను	-9.92472
బట్ట	-9.92551
▁ప్రాణ	-9.92563
▁ఇచ్చింది	-9.92578
▁సంభావ్య	-9.92588
▁అయినా	-9.92614
▁రాగి	-9.92681
▁డేటాబేస్	-9.92704
పోవడం	-9.9271
▁ప్రాజెక్టు	-9.92745
▁హు	-9.92764
▁శత్రువుల	-9.92769
▁అలంకరణ	-9.92821
కాని	-9.92849
▁పరిష్కార	-9.92852
▁పార్ట్	-9.92872
▁భీమా	-9.92938
ల్లె	-9.92939
హర	-9.92939
▁he	-9.92997
▁చదరపు	-9.93054
▁లాగిన్	-9.93055
int	-9.93105
▁ch	-9.93115
▁మంత్రి	-9.93157
▁మెరుగైన	-9.93172
▁కార్యాలయం	-9.9324
GB	-9.93241
వాన్	-9.93272
వచ్చి	-9.93331
▁అధునాతన	-9.93406
▁ప్రతిబింబ	-9.93406
▁OEM	-9.93406
స్తే	-9.93408
▁j	-9.93429
ంటాయి	-9.93467
▁వాడుక	-9.93507
▁ఫలితాలను	-9.93515
▁నటించ	-9.93519
uk	-9.9354
▁పంపిన	-9.93564
ముఖ	-9.93582
ేలా	-9.93628
▁ఆండ్రాయిడ్	-9.93641
▁కఠినమైన	-9.93716
యగు	-9.93718
▁సమాజ	-9.93724
▁బలిపీఠము	-9.93759
buzz	-9.93761
▁వాతావరణ	-9.93806
▁తీసుకొని	-9.93814
▁వివాహ	-9.93826
▁బేరింగ్	-9.93836
▁00	-9.93868
▁టూల్	-9.93873
▁రౌండ్	-9.93878
av	-9.93891
ue	-9.93896
▁అసెంబ్లీ	-9.93995
▁మహ	-9.94092
▁సేవా	-9.94104
డియా	-9.94153
▁అంతట	-9.94186
▁USB	-9.94206
ick	-9.94217
▁అక్షర	-9.94217
▁విండోస్	-9.94218
▁48	-9.94305
(1	-9.94346
▁వృద్ధి	-9.94598
▁చేస్తా	-9.94634
యున్నాను	-9.94676
ాడని	-9.94733
▁దృష్టికి	-9.94754
ుచున్నాడు	-9.94797
▁తెలివైన	-9.9483
పరచు	-9.94864
▁పేజీలు	-9.94869
▁వీధి	-9.94877
▁నైపుణ్యం	-9.94957
▁రూపం	-9.95024
be	-9.95049
▁నెట్	-9.95056
▁ఉద్దేశ	-9.95072
AC	-9.95118
▁గొ	-9.95129
▁డేటింగ్	-9.9513
▁జరగ	-9.95205
▁me	-9.95232
▁ఫీజు	-9.95304
▁ISO	-9.95305
▁అమ	-9.95306
▁నియంత్ర	-9.9533
▁వచ్చెను	-9.95365
దము	-9.95426
ins	-9.95479
▁దుస్తుల	-9.95522
▁ద్వార	-9.95522
టూ	-9.95577
స్టో	-9.95652
▁గ్రేడ్	-9.95658
▁నేషనల్	-9.95665
▁ప్రకారము	-9.95697
▁పెంచడానికి	-9.95706
pr	-9.95726
▁కాక	-9.95736
పాత	-9.95746
▁మేకింగ్	-9.95778
▁లైసెన్స్	-9.95783
▁శ్రేణి	-9.95783
▁అభి	-9.95791
▁స్వయంచాలకంగా	-9.95808
han	-9.95866
▁పరిస్థితులు	-9.95876
నాడు	-9.95893
▁స్థాపించ	-9.959
▁ఉండేది	-9.95965
▁వెళ్ళండి	-9.9598
ుచున్నారు	-9.96026
▁అంశాల	-9.96071
▁మొదల	-9.96072
▁పాద	-9.96079
▁ఆర్ట్	-9.96146
▁ఉందని	-9.96202
▁సమస్త	-9.96207
ari	-9.96247
▁అప్పగించ	-9.96265
▁బోధన	-9.96277
▁అలాంటి	-9.96279
▁ఆకారం	-9.96296
తృ	-9.96305
of	-9.96342
RO	-9.96378
షీ	-9.96439
▁ఎనిమిది	-9.96507
tt	-9.96551
ట్యూ	-9.96618
300	-9.96622
nc	-9.96638
▁హాని	-9.96654
ome	-9.96719
▁నంబర్	-9.96734
▁సంభాషణ	-9.9675
▁చీకటి	-9.9675
▁నేపథ్య	-9.96871
▁సమర్థవంతంగా	-9.96871
▁శిశువు	-9.96871
▁బెడ్	-9.96884
వృత్త	-9.96887
వంత	-9.96888
▁బేబీ	-9.96905
▁అంశాలను	-9.96926
▁సౌ	-9.96932
ప్పుడ	-9.96958
▁టెస్ట్	-9.96963
cc	-9.97034
bl	-9.97061
sion	-9.9707
కుడి	-9.97081
డికి	-9.9709
▁గేర్	-9.9713
▁తీసుకుని	-9.97199
▁ప్రాంతాల్లో	-9.97251
wi	-9.97256
ated	-9.97281
స్థా	-9.97284
తోకూడ	-9.97287
▁సురక్షిత	-9.97331
▁రేట్లు	-9.9734
▁క్రిప్టో	-9.97359
▁నిర	-9.97378
▁డ్రాప్	-9.9739
▁ప్రయోజన	-9.97431
▁దాడి	-9.97442
ునని	-9.9745
▁భారతీయ	-9.97487
ప్రె	-9.97514
▁పొందింది	-9.97521
▁రూపంలో	-9.9753
▁సులభమైన	-9.97545
▁రష్యా	-9.97603
▁మేనేజర్	-9.97604
▁2006	-9.97638
▁దిగ	-9.97651
▁గ్రీన్	-9.97653
▁చేశాడు	-9.9768
rt	-9.97745
▁సెం	-9.97812
▁వరుస	-9.97825
▁శక్తిని	-9.97844
▁ఇంటర్	-9.9785
▁ప్రియమైన	-9.97937
▁బౌ	-9.97973
ny	-9.98005
Hz	-9.98028
▁కారక	-9.98064
▁చేస్తున్నాను	-9.9807
డవ	-9.98087
▁ఎప్పుడైనా	-9.98094
▁ఖర్చులు	-9.98147
▁మౌంట్	-9.98239
▁రంగులు	-9.98274
▁ప్రాధాన్యత	-9.98294
జీవ	-9.98308
▁మనుష్యుల	-9.98309
▁ప్యాక్	-9.9831
▁ట్రాఫిక్	-9.98349
io	-9.98394
టైల్	-9.98396
▁చూపు	-9.98429
▁ఆదా	-9.98465
పాటు	-9.9848
▁నిర్ణయం	-9.9851
2.1	-9.9851
▁పెంచుతుంది	-9.9853
▁బెల్ట్	-9.98533
పాల	-9.98618
ఫ్రె	-9.98673
లెన్	-9.98687
వారై	-9.98751
str	-9.98809
పూ	-9.98832
▁ఆపరేటింగ్	-9.98836
PC	-9.98844
▁ఉత్పత్తులను	-9.98847
క్కడ	-9.98855
$	-9.98867
▁250	-9.98894
భావ	-9.98901
▁మీటర్ల	-9.98905
▁అద్భుత	-9.98915
nd	-9.98919
▁గాజు	-9.98984
▁నాటక	-9.99042
▁తొలి	-9.99109
▁వీక్షించడానికి	-9.99143
ko	-9.99145
మయ్యే	-9.99164
▁(5	-9.99169
▁120	-9.99177
▁ఉదయం	-9.99185
▁ప్రియ	-9.99186
▁వినియోగ	-9.9919
▁ఎస్టేట్	-9.99208
▁నేన	-9.9924
▁భాగాల	-9.99257
నేట్	-9.99274
▁ఇష్టమైన	-9.99289
▁స్థాయిలో	-9.99316
▁ధరలు	-9.99321
▁అయస్కాంత	-9.99333
▁ఫారెక్స్	-9.99333
▁70	-9.99361
▁సొ	-9.99367
▁పిలువ	-9.99381
PE	-9.9941
▁సంబంధాలు	-9.99466
యిల్	-9.99491
▁ఫ్రాన్స్	-9.99583
ఓ	-9.9959
మిక్	-9.99647
▁అవసరాలను	-9.99655
▁పేర్లు	-9.99669
az	-9.99689
ice	-9.99697
▁Ex	-9.9971
మైంది	-9.99718
▁దోషము	-9.99733
▁చెప్పండి	-9.99779
▁వ్యర్థ	-9.99836
రువు	-9.99858
▁ఫీల్డ్	-9.99875
▁సామర్ధ్యం	-9.99958
▁హెచ్	-9.9997
▁ట్రె	-9.99982
ష్ఠ	-9.9999
▁జరిగినది	-10.0008
▁టెస్టోస్టెరాన్	-10.0008
▁మొక్క	-10.0011
సియా	-10.0015
▁విభజించ	-10.0017
▁సృష్టి	-10.002
▁అహరోను	-10.0021
▁ఉపయోగిస్తుంది	-10.0027
▁ప్రత్యామ్నాయ	-10.003
▁వీటిలో	-10.0033
▁Mac	-10.0033
▁సభ్యుల	-10.0037
▁నైట్	-10.004
ానని	-10.0047
pm	-10.0049
▁పొరుగు	-10.0049
కారము	-10.0049
▁మినీ	-10.0056
GLONASS	-10.0059
▁ఆంగ్ల	-10.0059
ug	-10.0059
▁అడవి	-10.0059
▁చేతుల	-10.0063
▁ఫార్	-10.0074
▁పండు	-10.0077
▁AC	-10.0078
▁వస్తువుల	-10.008
▁స్నేహితుల	-10.0081
▁వీరి	-10.0081
-6	-10.0081
▁అత్యవసర	-10.0084
▁పైకప్పు	-10.0084
▁ప్రభువైన	-10.0084
ok	-10.0086
▁డో	-10.0088
▁పశువుల	-10.0091
*	-10.0095
▁కొంతమంది	-10.0099
SI	-10.0101
sa	-10.0103
▁వాసన	-10.0106
▁ఎప్పటికీ	-10.0113
ెంట్	-10.0114
▁Ho	-10.012
▁పూజ	-10.0126
▁పారిస్	-10.0126
▁లై	-10.0132
▁యూరో	-10.0135
▁అర్ధ	-10.0137
▁ఇల్లు	-10.0137
▁విడిచి	-10.0139
▁తెలియజే	-10.0142
▁విగ్రహ	-10.0143
ట్రిక్	-10.0143
▁ఇండియా	-10.0149
ులైన	-10.0159
ics	-10.0167
▁మిశ్రమం	-10.0171
▁పోవు	-10.0172
కృత	-10.0173
▁To	-10.0181
▁మార్గాల	-10.0183
PA	-10.0184
▁వయసు	-10.0186
ach	-10.0197
▁పెరుగుతుంది	-10.0199
▁నివేదించ	-10.02
▁సాంకేతికత	-10.0204
▁పెన్	-10.0207
▁సిరా	-10.0211
▁వెలుపల	-10.0211
▁కిట్	-10.0212
▁min	-10.0213
MP	-10.0214
▁→	-10.0218
▁దిగుమతి	-10.0237
▁హింస	-10.024
జిక్	-10.0248
▁పాస్వర్డ్	-10.025
▁మాక్స్	-10.0274
▁సైజు	-10.0279
ఒ	-10.0282
ుడిగా	-10.0287
eng	-10.0293
న్నాయి	-10.0295
▁బజాజ్	-10.0301
ox	-10.0301
▁ST	-10.0302
▁గతంలో	-10.0303
ran	-10.0306
శ్వ	-10.0312
▁ఇంజెక్షన్	-10.0314
▁ఇంజనీర్	-10.0314
▁మళ్లీ	-10.0314
▁మెమరీ	-10.0314
▁Be	-10.0318
ంటిని	-10.0319
▁కనీస	-10.0319
▁పరిశోధనా	-10.032
CH	-10.0325
▁అనుసరించండి	-10.0325
మూల	-10.0325
▁బిగ్	-10.0332
▁భిన్నంగా	-10.0335
▁వాట్	-10.0337
▁ఇవ్వడం	-10.0338
టిల్	-10.034
▁త్వరలో	-10.034
▁ఫ్రెంచ్	-10.034
▁బహుమతులు	-10.034
▁బయలు	-10.0341
▁హ్యాండ్	-10.0343
షణ	-10.0347
▁వెల్	-10.0348
ga	-10.0349
nt	-10.0349
▁దొంగ	-10.0352
▁స్పీడ్	-10.0353
▁సమర్థవంతమైన	-10.0353
▁SE	-10.0359
▁సైకిల్	-10.0363
▁మెడికల్	-10.0366
మేము	-10.037
వేర్	-10.037
▁వెంట	-10.0376
▁సరే	-10.038
వేయు	-10.038
▁ఎన్న	-10.0387
ear	-10.0388
గలరు	-10.0388
▁34	-10.039
కండి	-10.0391
pro	-10.0393
US	-10.0396
లింగ	-10.0396
▁వైన్	-10.04
▁సార	-10.0401
▁స్పా	-10.0402
త్యా	-10.0404
ous	-10.0405
▁దెబ్బ	-10.0405
▁ఖరీదైన	-10.0405
▁డిస్క్	-10.042
OS	-10.042
భ్ర	-10.042
ost	-10.0421
్యత	-10.0429
▁వస్తువు	-10.0431
▁భార	-10.0438
▁కొద్ది	-10.0442
▁చాలామంది	-10.0454
▁sh	-10.0456
▁సంస్కృతి	-10.0457
ev	-10.0465
▁మార్క్	-10.0465
har	-10.0465
▁జార్	-10.0469
▁400	-10.0471
▁Th	-10.0472
ci	-10.0473
▁వెంట్రుక	-10.0484
వంటి	-10.0489
▁తేమ	-10.0492
1.2	-10.0496
▁సౌందర్య	-10.0497
▁ధన	-10.0503
▁ఆరోగ్యం	-10.0508
▁సున్నితమైన	-10.051
▁ఖండ	-10.0512
▁బిలియన్	-10.0513
ure	-10.0514
TA	-10.0515
▁ఆయనకు	-10.0515
▁దుర్	-10.0522
▁తెలిసికొన	-10.0535
ction	-10.0535
ens	-10.0537
▁స్టేట్స్	-10.054
స్థాన	-10.0544
▁స్వేచ్ఛ	-10.055
eb	-10.0552
ుకున్నాడు	-10.0554
వారందరు	-10.0556
▁జు	-10.0558
▁సంఖ్యలో	-10.0569
ుటకును	-10.057
▁పరిమితం	-10.0575
▁జర్మన్	-10.0577
▁రప్పించ	-10.058
▁ఫ్ర	-10.0584
చీ	-10.0584
▁కాగితం	-10.059
▁సంతాన	-10.0591
త్తి	-10.0592
ఎఫ్	-10.0592
▁అస	-10.0593
▁రెగ్యులర్	-10.0603
▁శీతలీకరణ	-10.0603
▁తప్పక	-10.0604
ంటుంది	-10.0609
▁చేసెను	-10.061
▁హ్యా	-10.0617
▁మిమీ	-10.0617
▁వంశ	-10.0624
▁శాస్త్రీయ	-10.0631
▁కాఫీ	-10.0634
▁సాధ్య	-10.064
▁కృషి	-10.0643
▁వెలుగు	-10.0644
du	-10.0646
▁రూపాన్ని	-10.0651
బూ	-10.0656
▁వేగవంతమైన	-10.0657
▁ప్రసార	-10.0657
షనల్	-10.0661
ండెను	-10.0664
ator	-10.0665
▁సమూహ	-10.0665
▁కప్	-10.0669
స్థుల	-10.0675
▁చెప్పగా	-10.0676
▁గౌరవ	-10.0676
hat	-10.0679
▁ట్యాగ్	-10.0683
▁సౌకర్యవంతమైన	-10.0684
▁స్ట్రింగ్	-10.0684
▁సన్నిధిని	-10.0689
▁కుర్చీ	-10.0697
own	-10.0698
▁ఉపయోగాలు	-10.0702
పడ్డారు	-10.0704
▁రూమ్	-10.071
▁బ్యాంకింగ్	-10.071
▁దోష	-10.0711
▁అబ్	-10.0715
▁ముక్కలు	-10.0716
son	-10.0716
▁Sa	-10.0718
▁టైమ్	-10.0721
▁చర్చించ	-10.0721
tal	-10.0721
▁చేసా	-10.0725
▁ఒంటరిగా	-10.0726
old	-10.0731
ల్చ	-10.0733
▁ఆకుపచ్చ	-10.0737
▁ఉక్రెయిన్	-10.0737
▁రోబోట్	-10.0737
ess	-10.074
దొ	-10.0744
▁పర్యాటక	-10.0751
▁స్థిరంగా	-10.0757
▁ఫైలు	-10.0758
▁ఐరోపా	-10.0764
▁లెక్కించ	-10.0771
▁తెగ	-10.0775
ఎల్	-10.0777
▁సంవత్సర	-10.0777
▁గోధుమ	-10.0778
▁పునరుద్ధరించ	-10.0778
▁వచ్చారు	-10.0778
పిల్ల	-10.0782
▁పాలు	-10.0791
▁ఆఫీసు	-10.0792
▁డివిడి	-10.0792
▁వరల్డ్	-10.0792
భూ	-10.08
▁Casino	-10.0801
▁కార్యకలాపాలు	-10.0804
▁కమ్యూనిటీ	-10.0805
▁లభించ	-10.0806
▁వ్యాప్తి	-10.0806
పడిన	-10.0815
▁పేపర్	-10.0827
▁టైర్	-10.0828
▁సమస్యలను	-10.083
▁వాటా	-10.0844
▁మార్కెట్లో	-10.0845
▁లేవీయుల	-10.0846
og	-10.0848
▁EUR	-10.085
▁ఉపయోగిస్తున్న	-10.0851
▁వివర	-10.0851
ాయెను	-10.0853
▁±	-10.0855
▁వ్యవస్థలు	-10.0857
▁జీవించ	-10.086
▁అపరిమిత	-10.086
▁సెక్యూరిటీ	-10.086
వచ్చా	-10.0865
▁కార్యము	-10.0867
▁ప్రయత్నం	-10.0868
▁ఏమిటంటే	-10.0873
UN	-10.0874
▁మ్యా	-10.0879
▁చార్టర్	-10.088
సెన్	-10.0885
over	-10.0886
ెనని	-10.0887
▁లావాదేవీ	-10.0894
▁నాయకులు	-10.0895
మెయిల్	-10.0896
ee	-10.0896
▁బయలుదేరి	-10.0897
▁గూ	-10.0901
▁సాధించడానికి	-10.0904
▁వన్	-10.0905
దారుల	-10.0909
ED	-10.091
RI	-10.0913
దానిని	-10.0914
und	-10.0917
▁వేడుక	-10.0919
▁రచన	-10.0921
భుజ	-10.0924
br	-10.0928
▁ఒకవేళ	-10.0928
▁దిగి	-10.0929
▁సమాధాన	-10.0933
హూ	-10.0933
▁ఆదాయ	-10.0933
▁Tr	-10.0935
▁La	-10.0937
▁ఆధ్యాత్మిక	-10.0942
▁మెష్	-10.0949
▁గేట్	-10.0951
tra	-10.0951
నంత	-10.0951
▁విషయాలను	-10.0954
▁అంతస్తు	-10.0956
▁పొందడం	-10.0961
రాదు	-10.0961
తిరి	-10.0962
▁నియమాలు	-10.0962
▁ఇలాంటి	-10.0964
▁కంటి	-10.0966
చ్చెను	-10.0967
▁వాతావరణం	-10.0967
ింపవలెను	-10.0968
▁అందించిన	-10.0969
▁మండల	-10.0972
▁క్లాసిక్	-10.0983
▁క్లబ్	-10.0984
▁స్ప్రింగ్	-10.0997
mp	-10.0999
▁నిత్య	-10.1002
▁అవసరాలకు	-10.1002
ండ్ర	-10.1004
టోన్	-10.1005
IF	-10.1006
▁మేలు	-10.101
▁పట్టింది	-10.101
రౌ	-10.1014
యిన	-10.1023
▁www	-10.1023
త్స	-10.1024
▁లోపలి	-10.1024
ీయులు	-10.1028
▁__	-10.1032
▁2005	-10.1033
▁సహాయక	-10.1035
TO	-10.1037
▁రాయి	-10.1038
▁వాళ్ళ	-10.1038
▁వాచ్	-10.1039
ఫ్రా	-10.1039
▁that	-10.1041
ంద్ర	-10.1041
ఇం	-10.1042
▁పాపం	-10.1044
au	-10.1045
▁యజమాను	-10.1045
▁జాతి	-10.1047
▁మందం	-10.1047
▁డ్యూ	-10.1051
▁అడ్మిన్	-10.1053
▁కార్పొరేట్	-10.1053
▁అధిపతి	-10.1053
▁ఖాతాదారులకు	-10.1054
▁యెహో	-10.1064
▁Ad	-10.1065
е	-10.1067
▁మృదువైన	-10.1067
▁చట్టపరమైన	-10.1067
▁నేర్ప	-10.1069
red	-10.1073
▁దినముల	-10.1073
▁చేతిలో	-10.1074
▁అనుకూలీకరించిన	-10.1076
▁బాగు	-10.1077
dy	-10.1079
స్పె	-10.108
▁యజమాని	-10.1081
▁కాలము	-10.1083
▁అగ్ర	-10.1091
▁పరిధిలో	-10.1096
ేవారు	-10.1097
▁కారణాలు	-10.1098
app	-10.1098
▁అందంగా	-10.1099
▁పిక్	-10.1102
▁కార్యకలాపాల	-10.111
▁భుజం	-10.1111
▁ఎఫ్	-10.1113
స్తోంది	-10.1113
లోనూ	-10.1115
ING	-10.1115
ులై	-10.1115
▁నిర్వాహక	-10.1115
▁GTS	-10.1116
▁అర్థ	-10.1124
యుక్త	-10.1124
▁మిలియన్ల	-10.1127
▁లైవ్	-10.1127
▁చెవి	-10.1127
సైడ్	-10.1133
▁జ్ఞాపక	-10.1135
▁భవిష్యత్తులో	-10.1138
▁SMS	-10.1145
ME	-10.1147
▁వర్తక	-10.1147
▁Li	-10.115
▁మూవీ	-10.1159
▁వ్యాసాలు	-10.116
▁పేద	-10.1162
▁రాక్	-10.1165
▁షెడ్యూల్	-10.1165
▁so	-10.1165
ళ్లను	-10.1166
▁దినము	-10.1167
▁మార్చడానికి	-10.1175
▁స్క్	-10.1176
▁అధికారులు	-10.1185
▁విధానాలు	-10.119
▁సంకేత	-10.119
▁Orphek	-10.1193
▁ప్రధానమంత్రి	-10.1193
▁అంగీ	-10.1201
▁ప్రారంభించారు	-10.1208
▁పుస్తకాలు	-10.121
▁38	-10.1213
AM	-10.1217
▁స్టీ	-10.1219
▁అంచు	-10.1221
▁ఆంధ్ర	-10.1222
line	-10.1224
ింపబడిన	-10.1231
▁మీటర్	-10.1232
▁పట్టణం	-10.1232
▁వాస్తవం	-10.1233
▁ద్వీప	-10.1236
▁చివరికి	-10.1238
ail	-10.124
ండ్లు	-10.1241
▁అందులో	-10.1242
▁అల్ల	-10.1245
▁చట్ట	-10.1249
▁విధమైన	-10.1252
▁ప్రారంభమైంది	-10.1252
▁లుక్	-10.1255
▁స్టేట్	-10.1261
▁ఇంటర్ఫేస్	-10.1264
▁స్నేహితుడు	-10.1264
▁సందేశం	-10.1267
▁కామ్	-10.1267
RP	-10.1274
▁చూస	-10.1274
▁వాహనం	-10.1276
▁పెంపుడు	-10.1279
0.00	-10.1285
లేదని	-10.1285
నైనా	-10.1285
నాయక	-10.1285
▁అందరి	-10.1286
జాల	-10.1297
▁బాల	-10.1299
▁బిల్లు	-10.1299
▁ప్రయత్నిస్తున్న	-10.1302
RS	-10.1305
పరిష్కరించడానికి	-10.1306
▁ధైర్య	-10.1307
▁ఆశ్రయ	-10.1307
▁ఎగువ	-10.1307
ొక్క	-10.131
▁ఒకటిగా	-10.1311
-0	-10.1313
▁పాల్గొన	-10.1318
▁మూసి	-10.1319
▁ఔషధం	-10.132
lic	-10.132
▁క్లిప్	-10.1321
▁ఫిల్టర్	-10.1321
▁విషయాల	-10.1323
▁గోల్డ్	-10.1327
ys	-10.1327
▁స్పష్ట	-10.1327
▁క్రూ	-10.1332
▁పదార్థాల	-10.1334
▁చూస్త	-10.1334
▁ఆజ్ఞాపించ	-10.1336
▁బట్టలు	-10.1338
రియల్	-10.1339
▁ప్రభావాలు	-10.1344
▁టూర్	-10.1351
2.0	-10.1352
▁లాభం	-10.1352
▁స్కూటర్	-10.1352
▁ఆకర్షించ	-10.1353
▁చెర	-10.1354
her	-10.1355
TI	-10.1356
▁వ్య	-10.1357
కొందురు	-10.1365
LA	-10.1368
▁డేటాను	-10.1375
ప్తి	-10.1375
▁తరలించ	-10.1376
а	-10.1379
▁ఫేస్బుక్	-10.1379
▁వేరే	-10.1379
▁చమురు	-10.1379
▁అద్దె	-10.1382
▁దేశాలలో	-10.1387
వాడై	-10.139
ించును	-10.1392
▁కార్యాచరణ	-10.1393
▁తాత్కాలిక	-10.1393
▁ఉపయోగించిన	-10.1394
లన్నిటిని	-10.1401
▁సెన్సార్	-10.1408
▁మూసివేయ	-10.1409
▁తరం	-10.1411
ుడని	-10.1412
పోయారు	-10.1412
▁బయలుదేర	-10.1412
▁శీర్షిక	-10.1418
▁పరీక్షలు	-10.1419
▁క్రాస్	-10.1419
ore	-10.142
▁ప్రాధమిక	-10.1422
▁మల్టీ	-10.1422
▁కాస్టింగ్	-10.1422
▁క్యూ	-10.1427
సంబంధ	-10.143
▁పోల్చ	-10.1431
CO	-10.1431
▁Red	-10.1433
▁స్ట్రిప్	-10.1436
▁జ్ఞానము	-10.144
cr	-10.1442
▁pcs	-10.1442
▁హక్కులు	-10.1446
▁తక్షణ	-10.1448
▁వున్న	-10.145
▁ఏవైనా	-10.1451
▁ఫీడ్	-10.1452
▁టవర్	-10.1453
ల్యాండ్	-10.1455
▁ఒక్కరూ	-10.1457
IT	-10.146
▁గుడారము	-10.146
▁ఇంజనీరింగ్	-10.1465
▁గెలుచుకున్న	-10.1465
▁బబులోను	-10.1465
▁సమయము	-10.1467
▁info	-10.147
▁లక్షల	-10.1471
ందే	-10.1472
▁కుక్క	-10.1472
▁ఇయర్	-10.1476
RT	-10.1476
▁రాజ్యము	-10.1477
వర్గ	-10.1478
ml	-10.148
రహిత	-10.1483
mail	-10.1484
▁పత్రాలు	-10.1485
ండో	-10.1488
▁పరస్పర	-10.1495
▁అన్య	-10.1496
లియన్	-10.1501
▁లెన్స్	-10.1503
▁శరీరంలో	-10.1507
వైన	-10.1509
పడు	-10.151
ితివి	-10.151
▁పాడ	-10.1512
form	-10.1512
▁కార్యాలయ	-10.1516
▁ప్రశంస	-10.1524
▁శోధించ	-10.1524
ance	-10.1524
▁కల్పించ	-10.1524
అన్ని	-10.1525
▁మెగా	-10.1525
▁పద్ధతుల	-10.1527
▁అర్ధం	-10.1527
▁su	-10.1532
రెడ్డి	-10.1536
శాస్త్రం	-10.1541
▁భాషలు	-10.1544
ng	-10.1544
▁మనీ	-10.1548
రెంట్	-10.1549
▁sa	-10.155
▁సినిమాలు	-10.1555
ID	-10.1566
▁తిరుగు	-10.1567
▁ప్రమోషన్	-10.1568
▁విశ్వాసము	-10.157
▁ఫర్	-10.1575
▁ఉన్నది	-10.1577
▁123	-10.158
నయెడల	-10.158
▁రోజుకు	-10.1582
▁కోణం	-10.1595
▁FX	-10.1599
▁అందుకున్న	-10.1599
▁సంపాద	-10.16
▁do	-10.1604
▁మాట్లాడటం	-10.1606
▁దేవునికి	-10.1615
ంబర్	-10.1618
▁కూడిన	-10.1624
గమ	-10.1626
▁ప్రచారం	-10.1626
▁ఇండస్ట్రీ	-10.1627
▁your	-10.1627
▁పరిశోధకులు	-10.1627
▁చూడటం	-10.1629
bi	-10.1632
మెన్	-10.1637
▁సంస్కరణ	-10.1641
ase	-10.1644
▁విధి	-10.1645
▁పనిచేసే	-10.1648
గ్రహ	-10.165
వేత్త	-10.1653
▁ఆస్ట్రేలియా	-10.1656
UR	-10.1656
ిర్ధారించుకోండి	-10.1657
▁ఫిలిష్తీయుల	-10.1658
ించుకొన	-10.1658
▁పరిష్కారాలను	-10.1662
▁లాగ	-10.1663
ళి	-10.1664
బడినది	-10.1664
నియన్	-10.1667
పోవును	-10.1668
▁జరిమానా	-10.1671
▁తెలుసా	-10.1671
▁పరిపాలన	-10.1671
▁దృశ్య	-10.1674
దైన	-10.1675
▁కార్పొరేషన్	-10.1686
ఔ	-10.1686
▁లింకులు	-10.1686
▁చదవ	-10.1686
▁వ్యాయామం	-10.1686
▁కావున	-10.1687
ana	-10.1689
▁సలహాదారు	-10.1694
▁అధ్యక్షుడు	-10.1703
▁తాడు	-10.1706
ుతుందని	-10.171
▁క్లౌడ్	-10.1715
▁సాంప్రదాయ	-10.1715
శ్చ	-10.1716
-12	-10.1717
వేశ	-10.1718
కాన్	-10.1719
▁యొద్దకు	-10.1725
బెర్	-10.1727
BC	-10.173
CI	-10.1734
▁సెక్సీ	-10.1734
ొచ్చు	-10.1744
▁చనిపోయిన	-10.1747
▁అర్పించ	-10.1748
▁నెలలు	-10.1752
▁చాలు	-10.176
▁ఇబ్బంది	-10.176
▁కెరీర్	-10.176
▁అయ్యే	-10.1761
▁మొదలుకొని	-10.1765
▁Facebook	-10.1775
▁ఆఫ్రికా	-10.1775
800	-10.1777
hy	-10.1782
ఇన్	-10.1786
▁శీఘ్ర	-10.179
▁దిశ	-10.1791
▁తల్లిదండ్రులు	-10.1795
యిడ్	-10.1798
▁ప్రపంచం	-10.1801
శృంగార	-10.1805
▁సోషల్	-10.1805
▁ఏర్పరచ	-10.1807
▁చొప్పున	-10.181
▁వేలం	-10.181
▁ఎలాంటి	-10.1813
▁దేవా	-10.1813
gr	-10.1814
▁ఉండగా	-10.1818
▁గ్లోబల్	-10.182
▁కెనడా	-10.182
▁పేరుతో	-10.1823
▁చిక్క	-10.183
▁37	-10.1834
▁అమెజాన్	-10.1835
▁ఇద్దరు	-10.1835
▁కుమారుని	-10.1837
-19	-10.1837
▁భారతదేశంలో	-10.1838
CT	-10.1841
▁అభ్యాస	-10.185
శారు	-10.1857
▁వర్తించ	-10.1858
0.2	-10.1858
▁క్లాస్	-10.1858
ంధ	-10.1862
▁మించి	-10.1864
ైనా	-10.1865
▁ద్రాక్ష	-10.1865
▁USA	-10.1872
▁వీటిని	-10.1879
▁సీసా	-10.188
▁లక్ష	-10.1883
SM	-10.1884
▁సంగ్రహ	-10.1885
▁కాన్	-10.1886
▁జరుగ	-10.1891
▁నిరోధక	-10.1893
MS	-10.1894
▁వాయిద్య	-10.1896
▁స్పందన	-10.1896
▁జరిగే	-10.1896
▁కొట్టి	-10.1897
ame	-10.1908
ద్వారా	-10.191
TR	-10.191
ుతున్నారు	-10.191
పీఠ	-10.1914
▁పళ్ళు	-10.1924
▁నమ్మకమైన	-10.1925
▁క్రీడాకారులు	-10.1926
షె	-10.1927
ek	-10.1927
ించండి	-10.1927
▁Ne	-10.1929
▁MS	-10.1931
▁ఐస్	-10.1931
వాటి	-10.1934
చొప్పున	-10.1937
▁ట్రి	-10.1938
▁కనుగొనండి	-10.1938
▁are	-10.1939
న్నె	-10.1941
▁క్రషర్	-10.1942
▁రక్తము	-10.1949
▁చేయబడతాయి	-10.195
▁టికెట్	-10.1957
ంటూ	-10.1958
▁పాల్గొనే	-10.196
▁పంపి	-10.1961
ంటాడు	-10.1965
బంధ	-10.1967
ree	-10.1967
0.3	-10.1968
▁క్రో	-10.197
▁సొలొమోను	-10.1972
▁కలయిక	-10.1972
▁మాత్రం	-10.1973
మాట	-10.1983
▁PAR	-10.1984
▁ప్రసారం	-10.1985
xBet	-10.1987
▁దైవ	-10.1994
▁అన్నాడు	-10.2
▁ఆక్వేరియం	-10.2002
పత్తి	-10.2008
▁సమాజం	-10.2008
▁విధానాల	-10.201
▁అనువర్తనాల	-10.2012
ఱ్ఱ	-10.2012
▁హీ	-10.2017
▁నివారణ	-10.2018
▁అవార్డు	-10.2018
▁స్టి	-10.2021
స్తాడు	-10.2025
▁జీవితాన్ని	-10.2025
లన్నిటి	-10.2026
▁బీచ్	-10.2028
ాత్మ	-10.203
▁గర్భ	-10.2031
▁గదిలో	-10.2032
▁విజయవంతమైన	-10.2034
▁నగరంలో	-10.2035
ans	-10.2047
▁బెర్	-10.2048
▁ఆక్సిజన్	-10.2049
▁సర్టిఫికేట్	-10.2049
▁ఆయుధ	-10.205
▁వ్ర	-10.2052
▁ఆలయ	-10.2053
▁క్షమించ	-10.2058
▁po	-10.2059
ath	-10.2061
▁వుండ	-10.2061
ea	-10.2061
▁ఏజెంట్	-10.2064
▁విమానాశ్రయం	-10.2065
▁జంతువుల	-10.2065
▁ఫైర్	-10.2068
▁ఫ్లై	-10.2074
▁గడియ	-10.2079
ాలనే	-10.2083
మంద	-10.2085
▁జీవన	-10.2089
▁ఇంక	-10.209
▁సహాయ	-10.2091
▁అధిగమించ	-10.2095
నెను	-10.21
▁చోటు	-10.2104
▁దావా	-10.2105
▁కొరియా	-10.2106
▁తీవ్రంగా	-10.2107
▁దాఖలు	-10.211
▁చెడ్డ	-10.2111
▁శ్వాస	-10.2112
▁WordPress	-10.2126
▁జాక్	-10.2126
▁యూదులు	-10.2128
ర్పణ	-10.2129
ితిని	-10.213
బద్ధ	-10.2135
▁చేయబడ్డాయి	-10.2137
జ్ఞా	-10.2141
▁కనుగొంటారు	-10.2144
సెంట్	-10.2146
ణీ	-10.2146
బ్యూ	-10.2154
▁దుఃఖ	-10.2157
▁మెషీన్	-10.2157
▁రాజధాని	-10.2157
▁పేజీలో	-10.2161
▁అనంత	-10.2161
షే	-10.2163
▁సాయం	-10.2167
▁నెమ్మదిగా	-10.2168
▁విశ్వ	-10.2171
▁చేయలేదు	-10.2172
▁జనము	-10.2178
పీడన	-10.218
▁రాజ్య	-10.2182
దై	-10.2183
▁దేవత	-10.2184
▁పచ్చ	-10.2186
▁మొట్టమొదటి	-10.2188
▁సిలిండర్	-10.2188
లియో	-10.219
▁అనువాదం	-10.2194
క్యూ	-10.2197
▁పండుగ	-10.22
▁తీస	-10.2201
▁డ్రైవింగ్	-10.2204
▁భవిష్యత్తు	-10.2205
▁వ్యూ	-10.2205
నాటి	-10.2207
▁పదున	-10.2211
య్యారు	-10.2213
▁భాగ	-10.2213
▁ఎంపికను	-10.2215
__	-10.2218
▁నిరూపించ	-10.2223
▁చేపట్ట	-10.2224
▁కత్తిరించ	-10.2226
చున్న	-10.2227
ఫ్ట్	-10.2227
▁కన్ను	-10.2231
▁పోలిస్తే	-10.2236
సిన్	-10.2236
▁తప్పనిసరిగా	-10.2237
▁HP	-10.2237
యీ	-10.2239
ర్థ	-10.224
HS	-10.2245
▁ఇంచ్	-10.2246
▁పోలీసు	-10.2251
here	-10.2251
IP	-10.2252
▁కోపం	-10.2253
పోయిరి	-10.2255
ark	-10.2255
▁చేయుటకు	-10.2264
▁వేస	-10.2266
▁ఉత్సాహ	-10.2266
▁నాయకుడు	-10.2267
▁తీగ	-10.2267
▁టేప్	-10.2268
HT	-10.2269
▁800	-10.2269
▁ex	-10.2272
ంటున్న	-10.2277
ake	-10.2278
▁కదలిక	-10.2282
▁గడువు	-10.2282
▁ప్లగ్	-10.2286
▁కారణాల	-10.2287
▁ప్రభు	-10.2292
▁పగడాలు	-10.2292
లన్నియు	-10.2298
పుస్తక	-10.2299
▁ID	-10.2303
▁హిట్	-10.2304
▁బాగ్	-10.2307
▁ఉండకూడదు	-10.2308
▁CD	-10.2308
▁అందం	-10.2312
▁చంద్ర	-10.2313
నొద్దకు	-10.2322
▁వస్త్రము	-10.2323
▁తీసుకోవాలని	-10.2332
▁యూదుల	-10.2333
యై	-10.2335
▁అప్పు	-10.2339
▁రన్	-10.2342
ాలనుకుంటున్న	-10.2343
▁రొట్టె	-10.2345
▁సృజనాత్మక	-10.2345
▁లెస్బియన్	-10.2345
▁సంతతి	-10.2346
▁వ్యవహరించ	-10.2349
▁బూట్లు	-10.2353
▁రక్తం	-10.2359
పేక్ష	-10.236
▁డైరెక్టర్	-10.2361
▁ప్రచురణ	-10.2365
▁చందా	-10.2366
▁42	-10.2371
▁వాక్యము	-10.2376
IL	-10.2379
▁600	-10.238
▁అబద్ధ	-10.2381
▁PR	-10.2381
ంభ	-10.2384
▁చిప్	-10.2384
పిక్	-10.2388
▁బహిర్గతం	-10.2391
టిక్స్	-10.2396
ఫోన్	-10.2399
భాష	-10.2399
▁గౌరవం	-10.24
వేల	-10.2405
▁సర్క్యూట్	-10.2409
▁ధ్యాన	-10.2409
న్నారు	-10.2412
▁ఇశ్రాయేలీయులు	-10.2412
▁రచనలు	-10.2419
▁విందు	-10.2422
▁చాల	-10.2424
▁సాయంత్రం	-10.2425
▁నకిలీ	-10.2425
▁బిల్డింగ్	-10.2428
▁లోపం	-10.2429
▁స్థాపించబడింది	-10.2431
విధాన	-10.2434
600	-10.2434
▁విధులు	-10.2438
▁యుండెను	-10.2446
▁నిరోధ	-10.2449
▁రక్షించడానికి	-10.2451
కూడ	-10.2455
ంచె	-10.2457
▁ఆకృతీకరణ	-10.2457
▁మెడ	-10.2458
▁వేగ	-10.2463
ుకోవటానికి	-10.2463
ుమని	-10.2467
PP	-10.2468
▁పెం	-10.2471
▁రెస్టారెంట్	-10.2473
▁నొంద	-10.2474
థర్	-10.248
ical	-10.2482
▁విశేష	-10.2482
▁కీర్తన	-10.2489
▁ప్రేక్షకుల	-10.2489
▁రహదారి	-10.2489
▁వాక్యూమ్	-10.2489
▁వాషింగ్	-10.2491
▁ఆఫర్లు	-10.2494
శేష	-10.2502
▁1.5	-10.2503
▁మేరీ	-10.2508
pcs	-10.2515
▁వీరిలో	-10.2516
కొన్న	-10.2518
▁దుకాణ	-10.252
CE	-10.2521
▁సస్పెండ్	-10.2521
▁Mar	-10.2526
tic	-10.2533
▁దంత	-10.2535
▁పరిపక్వ	-10.2538
▁ఇవ్వండి	-10.2538
▁విశ్వసనీయ	-10.2545
అప్	-10.2545
1.1	-10.2546
▁ఆలయం	-10.2549
▁చూస్తారు	-10.2552
▁II	-10.2557
▁చేయటానికి	-10.2563
ులుగా	-10.2565
▁జరిగి	-10.2567
▁భోజనం	-10.2569
▁క్లిష్టమైన	-10.257
▁మెట్రోపాలిటన్	-10.257
▁దోహద	-10.257
▁FM	-10.257
▁తెరిచి	-10.257
aw	-10.2578
ినట్లయితే	-10.2581
▁లెడ్	-10.2585
▁పలక	-10.2586
▁విఫల	-10.2586
▁సంతకం	-10.2586
▁పీటర్	-10.2587
▁వినియోగించ	-10.2589
కోసం	-10.259
IA	-10.259
▁సహకార	-10.2591
విధ	-10.2596
లోనున్న	-10.2599
▁దేశీయ	-10.2601
షియన్	-10.2606
▁విధించ	-10.2606
▁నివసిస్తున్నారు	-10.2611
▁రంగుల	-10.2612
▁నిర్వహించడం	-10.2614
▁ఉన్నాడు	-10.2618
▁అతన్ని	-10.2619
▁ఆరంభ	-10.2619
▁పోర్న్	-10.2621
▁అంతే	-10.2621
▁వివాద	-10.2622
బల్	-10.2624
వెల్	-10.2626
▁సంవత్సరానికి	-10.2628
మౌ	-10.2629
▁జనరేటర్	-10.2635
▁ఆర్ధిక	-10.2635
▁చూసి	-10.2638
లాడ	-10.2639
▁సమయాన్ని	-10.2639
స్తంభ	-10.2644
▁తేనె	-10.2647
▁co	-10.2651
▁HDBuzz	-10.2651
▁డిస్కౌంట్	-10.2651
▁ప్రాముఖ్యత	-10.2651
▁కూర్పు	-10.2652
▁మాంసం	-10.2652
▁పరలోక	-10.2652
▁ఎంచుకోవడం	-10.2653
HE	-10.266
▁తీవ్రత	-10.266
▁ఇంక్	-10.2661
▁ఇకపై	-10.2662
▁ట్రే	-10.2666
▁ద్వేష	-10.2668
▁తిరస్కరించ	-10.2669
▁స్క్రూ	-10.267
▁తరచూ	-10.267
భ్య	-10.2679
షర్	-10.2679
స్తుల	-10.2681
▁డొమైన్	-10.2684
▁ఉదయ	-10.2689
▁గ్రే	-10.269
▁భోజన	-10.269
1.0	-10.2692
▁షోర్	-10.27
▁చుట్ట	-10.27
▁విక్రయ	-10.2702
▁చదివి	-10.2702
▁అడగండి	-10.2709
షో	-10.2709
eg	-10.2715
▁ఏలయనగా	-10.2717
▁టర్కీ	-10.2718
డెడ్	-10.2718
▁ఆరోగ్యకరమైన	-10.272
▁శబ్ద	-10.2722
ఎమ్	-10.2722
▁తీసుకోవాలి	-10.2722
▁షవర్	-10.2724
▁షెల్	-10.2725
▁మేక	-10.2725
▁పక్కన	-10.2727
మైనవి	-10.2729
▁Le	-10.2733
▁ట్రేడ్	-10.2733
▁యూనివర్సిటీ	-10.2734
▁అంతర్	-10.274
▁సూచనలు	-10.2741
▁ప్రాంతాల	-10.2742
ఇప్పుడు	-10.2744
▁నిష్	-10.2745
మ్యూ	-10.2746
▁హత్య	-10.2748
▁మార్గదర్శక	-10.2749
▁షెన్జెన్	-10.275
con	-10.275
ైజేషన్	-10.2751
▁అందరూ	-10.2751
▁స్నాన	-10.2753
▁పాడు	-10.2755
▁వంద	-10.2759
కుమార	-10.2759
▁01	-10.276
porn	-10.2765
▁క్రియాశీల	-10.2767
▁ప్రోటీన్	-10.2767
▁శతాబ్దం	-10.2767
యెదుట	-10.2772
che	-10.2773
▁నోట్	-10.2781
▁ఫౌండేషన్	-10.2783
▁అప్డేట్	-10.2783
▁పిల్లలకు	-10.2784
▁ఆవిరి	-10.2785
▁విన్	-10.2789
▁వాటికి	-10.2792
▁మాట్లాడే	-10.2792
▁శుభ్ర	-10.2793
▁Ac	-10.2793
▁స్వాస్థ్యము	-10.2795
▁రోజున	-10.2795
▁చెయ్యి	-10.2799
▁దారితీసింది	-10.28
▁ఆశిస్తున్నాము	-10.28
▁కనిపెట్ట	-10.2801
సరి	-10.2802
▁రాక	-10.2802
▁ఉండెను	-10.2802
▁దాట	-10.2803
▁You	-10.2805
TP	-10.2805
▁సారి	-10.2809
▁పరిశ్రమలో	-10.2812
▁సర్వ్	-10.2815
▁ఆర్కైవ్స్	-10.2817
▁యూనియన్	-10.2817
▁సురక్షితమైన	-10.282
▁రెడీ	-10.2825
▁Live	-10.2833
▁ఫ్లాష్	-10.2836
▁ఉత్తమమైన	-10.2836
▁జరుప	-10.2838
మెంట	-10.284
▁వినడానికి	-10.284
చేతి	-10.2843
▁చెప్పే	-10.2845
▁చివరకు	-10.2847
▁క్రి	-10.2849
▁iOS	-10.285
▁శత్రువు	-10.2852
▁భాగము	-10.2854
▁ప్రభావాల	-10.2857
▁కాదని	-10.2857
▁బయో	-10.2865
▁బెట్టింగ్	-10.2866
▁స్మార్ట్ఫోన్	-10.2867
-9	-10.2873
దానం	-10.2875
▁ఆలస్యం	-10.2883
▁విష	-10.2884
The	-10.2891
గణ	-10.2891
▁అయినను	-10.2895
▁పఠనం	-10.29
▁హెచ్చరిక	-10.29
▁తొలగించడానికి	-10.2901
°	-10.2903
▁ట్రక్	-10.2904
1.5	-10.2904
▁దుష్ప్రభావాల	-10.2907
డమే	-10.2909
▁లేబుల్	-10.2911
▁ఫ్రీక్వెన్సీ	-10.2917
▁రిమోట్	-10.2917
▁సమర్థ	-10.2917
MO	-10.2922
▁తీవ్ర	-10.2923
▁ఉప్పు	-10.2925
యాంగ్	-10.2925
▁అడగ	-10.2926
▁ప్రారంభించండి	-10.2929
▁విక్రేత	-10.2933
▁PDF	-10.2934
స్థలము	-10.2935
పాఠ	-10.2943
▁బ్లా	-10.2945
▁చేస్తున్నాము	-10.2945
▁నిధుల	-10.2955
▁etc	-10.2955
▁ముందుగానే	-10.2959
పరమైన	-10.2959
ld	-10.2959
▁చేసారు	-10.2966
▁షాంఘై	-10.2967
ాలపై	-10.2968
▁దళ	-10.2972
▁ప్రారంభించింది	-10.2975
▁He	-10.2975
▁మారుతుంది	-10.2977
▁నిర్మించడానికి	-10.2978
vo	-10.2978
▁కోర్సులు	-10.2981
ty	-10.2981
▁దారితీస్తుంది	-10.2984
▁హార్డ్వేర్	-10.2985
శము	-10.2987
5,000	-10.2988
SH	-10.2994
▁ప్రయోగం	-10.2996
▁ప్రమాణాల	-10.2998
ye	-10.3006
▁చేశా	-10.3007
▁పారి	-10.3009
▁గ్రామంలో	-10.3013
▁కృష్ణ	-10.3014
▁జూదం	-10.3018
▁అన్యజనుల	-10.3018
▁మానిటర్	-10.3019
▁మందుల	-10.3021
▁ప్రత్యామ్నాయం	-10.3022
▁చేయగలరు	-10.3024
▁జోన్	-10.3025
జెన్	-10.3026
ెయిన్	-10.3031
▁మహిళా	-10.3032
▁కనెక్టర్	-10.3035
▁ఫర్నిచర్	-10.3035
▁డీలర్	-10.304
ాంతర	-10.3045
▁దుష్ట	-10.3047
▁కృత్రిమ	-10.3052
▁నిజాయితీ	-10.3052
▁అవమాన	-10.3052
▁షాట్	-10.3053
fr	-10.3053
▁గర్ల్	-10.3058
▁Ba	-10.3062
▁కావాలి	-10.3062
▁కొలత	-10.3069
▁నక్షత్ర	-10.3069
వంతమైన	-10.3075
▁CS	-10.3077
▁తీసుకోవ	-10.308
▁అభిమాన	-10.3081
uck	-10.3085
▁బలము	-10.3086
▁జలనిరోధిత	-10.3086
గల్	-10.3089
కపోవచ్చు	-10.309
▁ఫారం	-10.3098
▁మేనేజ్మెంట్	-10.3103
▁మొత్తాన్ని	-10.3103
▁ప్రక్క	-10.3105
▁1:1	-10.311
▁ఇచ్చి	-10.3111
▁మెన్	-10.3115
▁డిజైనర్	-10.312
▁పంపిణీదారుల	-10.3122
▁ఫేస్	-10.313
▁చేసుకోండి	-10.3135
▁ఆకర్షణీయమైన	-10.3137
▁ఇంటర్వ్యూ	-10.3137
▁నిబంధనల	-10.3138
సెట్	-10.3143
▁చదువ	-10.3148
2017	-10.3149
▁మతం	-10.315
▁మార్గంలో	-10.3153
▁నిరోధకత	-10.3165
▁గదులు	-10.3167
▁స్కీ	-10.3167
▁చోట	-10.317
▁అశ్లీల	-10.3172
▁ఇట్లనెను	-10.3172
▁పరిణామ	-10.3172
▁సమాధి	-10.3172
▁వర్తిస్తుంది	-10.3172
▁ఇతని	-10.3174
▁వెళ్ళడానికి	-10.3176
▁తనఖా	-10.3181
ిస్తు	-10.3183
▁చూపిస్తుంది	-10.3185
▁లవ్	-10.3185
▁YouTube	-10.3189
▁ఉపాధ్యాయ	-10.3189
▁ఛార్జ్	-10.3189
pi	-10.319
▁నిర్ధారణ	-10.319
లేషన్	-10.3194
▁బ్లాగు	-10.3195
▁అతడి	-10.3195
▁సంవత్సరాలలో	-10.3197
▁ago	-10.3199
▁పుష్ప	-10.3203
▁సమస్యల	-10.3204
▁ఉంచడం	-10.3206
▁విజయవంతంగా	-10.3209
▁PCB	-10.3209
▁కొనసాగుతుంది	-10.3212
▁పెర్	-10.3217
▁వీడియోలను	-10.322
▁మహిళలకు	-10.322
బుక్	-10.3222
▁పెడ	-10.3223
▁రుసుము	-10.3224
▁చూసింది	-10.3236
▁Ge	-10.3237
కట్ట	-10.3238
▁వీటి	-10.3238
▁విల్	-10.3238
▁నోరు	-10.3243
▁అంతా	-10.3243
▁సైన్యం	-10.3252
▁తగ్గించడానికి	-10.3256
▁పిన్	-10.3256
▁Vessoft	-10.3258
ram	-10.3259
▁ప్రేరణ	-10.326
▁పరిచయ	-10.326
రావు	-10.326
త్వాన్ని	-10.3261
▁దినములు	-10.3264
పరిమాణ	-10.3264
-7	-10.3266
▁గ్యాలరీ	-10.3276
ాలజీ	-10.3276
▁ఉందా	-10.3283
ధాన	-10.3286
▁జేమ్స్	-10.3293
▁News	-10.3293
▁సువాసన	-10.3293
▁చెప్పడం	-10.3299
▁నమూనాలను	-10.33
0000	-10.3304
▁AM	-10.3305
▁విటమిన్	-10.331
ds	-10.3311
▁బూడిద	-10.3311
BO	-10.3312
▁అధికంగా	-10.3313
▁కోపము	-10.3313
▁as	-10.3313
▁ఎన్ని	-10.332
ఘా	-10.3322
ign	-10.3323
ుడగు	-10.3325
▁అసహ్య	-10.3328
Coin	-10.3331
▁తీసుకోండి	-10.3331
LI	-10.3335
▁ఆటలు	-10.3341
యుండు	-10.3342
▁నెరవేర్చ	-10.3346
▁ప్రయోగశాల	-10.3346
su	-10.3348
గిరి	-10.3352
ముందు	-10.336
▁తీసివేయ	-10.336
హీన	-10.3362
▁ఇచ్చే	-10.3366
▁కలుస	-10.3367
డూ	-10.3373
▁తగ్గిస్తుంది	-10.3375
▁గార్డెన్	-10.3381
▁డిస్ప్లే	-10.3381
▁దశలో	-10.3384
6.5	-10.3385
▁చౌక	-10.3387
MM	-10.3388
బొ	-10.3389
▁మొదలైన	-10.339
▁ముక్క	-10.3393
▁మొదటిసారి	-10.3394
పోయే	-10.3396
unt	-10.3396
▁విక్రయించ	-10.3397
▁తారాగణం	-10.3398
▁ఫరో	-10.3405
▁అక్షరాలు	-10.3406
▁పుర	-10.3407
▁క్రష్	-10.3408
▁ఎండ్	-10.341
▁అమ్మకం	-10.341
▁పూల్	-10.3413
వృ	-10.3414
▁లండన్	-10.3416
పూరిత	-10.3416
శక్తి	-10.3417
నందరిని	-10.3418
▁కట్టడ	-10.3422
▁చిత్రాలను	-10.3424
▁టెలి	-10.3429
గ్రాడ్యుయేట్	-10.3434
▁పౌండ్	-10.3434
▁ఫ్యూ	-10.3434
▁కణ	-10.3434
▁ఆకలి	-10.3435
▁కాలి	-10.3437
-15	-10.3438
▁జాగ్రత్త	-10.344
▁(1)	-10.3443
▁రికార్డ్	-10.3451
▁మాదిరిగా	-10.3451
▁నడుస్తున్న	-10.3451
▁అంగీకరిస్తున్నా	-10.3451
▁ప్లగ్ఇన్	-10.3452
▁Free	-10.3458
▁టీన్	-10.3459
▁సామర్థ్య	-10.3465
▁వనరుల	-10.3467
▁ట్రాకింగ్	-10.3472
▁Videos	-10.3478
▁కీడు	-10.3483
▁కేస్	-10.3486
▁కూర్చుండ	-10.3488
దాన్ని	-10.3498
▁ముద్రణ	-10.35
▁పంపండి	-10.3504
▁పెయింటింగ్	-10.3504
▁శిబిరం	-10.3504
SC	-10.3512
▁నిలబడి	-10.3512
="10	-10.3513
▁ఉపరితలం	-10.352
▁ఎన్నిక	-10.3522
▁గూగుల్	-10.3522
▁విజేత	-10.3522
▁స్పందించ	-10.3523
▁గుర్తించడానికి	-10.3527
gg	-10.3528
ాలయ	-10.3534
▁కార్మికుల	-10.3537
▁వంటివి	-10.3538
కంటే	-10.3542
▁64	-10.3543
▁యూనిట్లు	-10.3544
▁gif	-10.3544
▁ఉద్యోగులు	-10.3545
▁(2)	-10.3546
▁వెదక	-10.3548
▁OS	-10.3549
▁పండ్లు	-10.3549
▁నిమిషాలు	-10.355
▁కలిగించ	-10.3553
▁0.5	-10.3556
▁మూరల	-10.3557
▁కౌన్సిల్	-10.3558
▁Porn	-10.3558
HO	-10.3562
▁క్వి	-10.3566
▁లక్షణం	-10.3577
sc	-10.3583
="8	-10.3588
▁మేఘ	-10.3589
cu	-10.3594
▁ప్రసంగ	-10.3595
▁name	-10.3596
▁దొరకలేదు	-10.3597
▁UV	-10.3599
ness	-10.3608
▁పరిసర	-10.3608
▁ఆదేశాలు	-10.3611
▁సోదరుడు	-10.3612
▁ప్రింటింగ్	-10.3612
▁అభిప్రాయ	-10.3613
▁చిత్త	-10.3618
▁కింగ్	-10.3623
▁శాస్త్రం	-10.3624
Fi	-10.3625
▁చేసికొన	-10.3629
▁లగ్జరీ	-10.363
హెచ్	-10.3638
▁షేర్	-10.3648
▁సానుకూల	-10.3648
▁పొలము	-10.3651
▁ఉపదేశ	-10.3653
▁సమానంగా	-10.3654
OL	-10.3661
ళా	-10.3664
▁Se	-10.3665
▁టెర్మినల్	-10.3666
▁యంత్రాంగం	-10.3666
ిస్తున్నాము	-10.3666
▁ప్రకాశవంతమైన	-10.3667
▁ఎంచుకోవచ్చు	-10.3668
▁తెలివి	-10.3668
▁లాంటి	-10.3678
▁అన్వేషించ	-10.368
▁ప్రత్యేకత	-10.3681
ef	-10.3682
▁సంక్లిష్ట	-10.3684
▁PP	-10.3688
▁జోడించండి	-10.369
3.1	-10.3692
▁కూర్చుని	-10.3693
▁ఆదేశ	-10.3697
▁అంతేకాక	-10.3702
▁ముట్ట	-10.3705
▁వాయు	-10.371
▁ద్రవ్య	-10.3713
▁భరించ	-10.3713
▁క్యాలెండర్	-10.3721
▁మినహాయింపు	-10.3721
list	-10.3722
▁దేవాలయ	-10.3723
▁సరిగా	-10.3723
▁సంతోషించ	-10.3734
ank	-10.3738
▁విదీశీ	-10.3739
▁నీవే	-10.3739
▁వైరస్	-10.3739
▁మిషన్	-10.3747
▁ఇస్తా	-10.375
▁43	-10.3751
▁నౌక	-10.3756
▁ప్లాస్మా	-10.3757
▁ద్వి	-10.376
▁3:1	-10.3764
జూ	-10.3769
▁లేకపోవడం	-10.3777
▁లభ్య	-10.3777
▁SD	-10.3777
ix	-10.3777
▁కోర్టు	-10.3781
▁కఠిన	-10.3782
▁వివరాల	-10.3784
▁చెల్లింపులు	-10.3786
▁ఆకాశము	-10.3787
▁మేకప్	-10.3788
▁రిలే	-10.3788
tri	-10.3791
▁స్వర్గం	-10.3795
▁వైర్లెస్	-10.3797
▁నాశనము	-10.3799
వర్ణ	-10.3801
▁వారంటీ	-10.3804
▁ఉద్	-10.3809
▁సరిపోయే	-10.3812
▁ఐరన్	-10.3812
▁ఉపయోగకరమైన	-10.3814
SE	-10.3815
▁ఎముక	-10.3815
వచ్చని	-10.3815
▁సంపద	-10.3821
త్రము	-10.3829
▁కృతజ్ఞత	-10.383
▁రోగి	-10.3831
▁నీటిని	-10.3834
▁ఫోల్డర్	-10.3849
▁స్లీవ్	-10.3849
4.1	-10.3849
▁మొక్కలు	-10.3852
▁నికర	-10.3857
ron	-10.386
బోవు	-10.3861
▁ఫ్లోర్	-10.3863
▁నోటీసు	-10.3867
▁చట్టాలు	-10.3868
▁ఎవడు	-10.3868
▁ట్రైలర్	-10.3869
▁త్వరిత	-10.3869
heng	-10.3869
▁హక్కులూ	-10.3869
▁220	-10.3871
gen	-10.3878
▁బొమ్మ	-10.3887
▁86-	-10.3889
▁అనుమాన	-10.3892
ven	-10.3895
▁చేస్తాను	-10.3895
▁కనెను	-10.3897
VA	-10.3901
▁ఏడాది	-10.3904
▁గట్టిగా	-10.3904
▁జ్ఞాపకము	-10.3906
▁పురుషుడు	-10.3907
▁శివ	-10.3912
ధుల	-10.3912
▁క్రీడా	-10.3913
▁ఇనుము	-10.3915
▁41	-10.3922
▁సభ్యుడు	-10.393
mar	-10.3936
\	-10.3936
▁Un	-10.3939
▁ఖడ్గము	-10.3941
▁విమర్శ	-10.3941
▁గుంపు	-10.3942
▁లోహ	-10.3943
▁బాలికల	-10.3945
▁వానిని	-10.3951
ుకుంటున్న	-10.3952
▁లాంగ్	-10.3955
▁ప్రవాహం	-10.3955
▁మాజీ	-10.396
▁ఈజిప్ట్	-10.396
▁మంజూరు	-10.396
▁లాభదాయక	-10.396
వ్యక్త	-10.396
▁PM	-10.3962
▁ఆశించ	-10.3963
▁కై	-10.3965
1.3	-10.397
▁చిత్రాన్ని	-10.3971
▁పరిశోధ	-10.3974
▁(_	-10.3975
ino	-10.3977
▁యోసేపు	-10.3979
▁విద్యార్థి	-10.3979
▁2:1	-10.3982
work	-10.3982
▁వచ్చిరి	-10.3982
▁బెల్	-10.3985
vel	-10.3986
read	-10.3987
▁పద్ధతిలో	-10.3987
▁భావిస్తారు	-10.3987
▁జస్ట్	-10.3988
▁పథకం	-10.3988
స్థాయి	-10.3991
▁వంతు	-10.3992
▁విద్యార్థుల	-10.3992
▁లేదని	-10.3996
▁సుదీర్ఘ	-10.3997
▁ప్రతీ	-10.3999
ెరుగ	-10.4
▁ట్రస్ట్	-10.4005
▁మైక్రోసాఫ్ట్	-10.4016
▁పిల్లలను	-10.4016
▁క్రీడ	-10.4017
చేసే	-10.4017
▁దృ	-10.4021
▁Bo	-10.4022
▁గోప్యత	-10.4022
LO	-10.4024
3.2	-10.4024
▁రామ	-10.4026
▁చేసేందుకు	-10.4026
▁Hack	-10.4027
▁కట్టర్	-10.4027
యొ	-10.403
▁వీల్	-10.4031
▁Min	-10.4033
▁వ్యాయామ	-10.4034
▁గొర్రె	-10.4035
▁సిలికాన్	-10.4035
ring	-10.4041
▁అంక	-10.4042
▁చిత్రాల	-10.4047
▁Su	-10.4047
NE	-10.4053
▁టెస్టోస్టెరోన్	-10.4054
▁కొంచెం	-10.4054
▁పునాది	-10.4054
▁నగరాలు	-10.4054
▁ఇటీవలి	-10.4054
▁సరుకు	-10.4055
కారుడు	-10.4055
▁స్థాయిలు	-10.4065
▁సీటు	-10.4072
▁Qu	-10.4072
▁వర్గీకరించ	-10.4072
FC	-10.4073
▁మంత్రిత్వ	-10.4074
కఱ్ఱ	-10.4078
▁యెరూషలేములో	-10.4079
దేశము	-10.4084
థె	-10.4085
బ్రే	-10.4085
▁పెట్టె	-10.4087
▁లైట్లు	-10.4088
II	-10.4088
ling	-10.409
▁వంటగది	-10.4091
▁సాక్ష్య	-10.4092
▁Do	-10.4095
▁కథలు	-10.4097
ింపక	-10.4102
▁మట్టి	-10.4103
ుతున్నాయి	-10.4107
▁దేశమును	-10.411
▁ధృవీకరణ	-10.411
▁మునిసిపాలిటీ	-10.411
▁డెవలపర్	-10.411
▁వసతి	-10.411
box	-10.4111
▁విశ్వసనీయత	-10.4121
▁అట్టి	-10.4125
▁రాతి	-10.4126
▁రికవరీ	-10.4129
▁నియామక	-10.4129
▁ఇతడు	-10.413
▁స్వీ	-10.4132
▁కనిపిస్తాయి	-10.4132
ొంద	-10.4133
▁వివరాలను	-10.4135
▁నిరోధించ	-10.4138
text	-10.414
▁2004	-10.4141
▁నీళ్లు	-10.4142
▁పువ్వు	-10.4148
▁రెండింటి	-10.4148
▁రక్షిత	-10.4148
▁Con	-10.4156
▁తినడానికి	-10.4158
1000	-10.4162
do	-10.4166
▁గుర	-10.4166
▁విస్తరణ	-10.4167
▁గడ్డి	-10.4168
(_	-10.4172
▁వ్రాస	-10.4172
▁ఉపయోగపడ	-10.4173
▁వాస్తవిక	-10.4173
▁క్రమంగా	-10.4174
▁అబ్బాయిలు	-10.4176
ND	-10.4179
బియా	-10.4181
▁యాంటీ	-10.4186
▁సందేశాలను	-10.419
▁గ్రేట్	-10.4192
▁సముద్రము	-10.4193
ననెను	-10.4193
▁వాహన	-10.4194
▁నిలువు	-10.4198
ప్రాంత	-10.4202
పేరు	-10.4204
▁ఖచ్చితత్వం	-10.4205
▁ప్రభావాన్ని	-10.4205
▁మ్యూజిక్	-10.4205
▁గీత	-10.4205
▁రబ్బర్	-10.4206
▁చాంబర్	-10.4207
dia	-10.4208
▁కన్వర్టర్	-10.4208
▁ప్లాంట్	-10.421
air	-10.4212
▁షాప్	-10.4212
▁బేరింగ్లు	-10.4216
tu	-10.4219
▁చిహ్నం	-10.422
ుచుండగా	-10.4227
భాగం	-10.4229
▁అనారోగ్యం	-10.4234
▁బడ్జెట్	-10.4244
PL	-10.4251
తులను	-10.4254
▁బ్లో	-10.4258
▁ఇరవై	-10.4263
▁శిల్ప	-10.4266
1.4	-10.4274
▁పిండి	-10.4279
▁years	-10.4282
▁న్యాయవాది	-10.4282
▁ఉండాలని	-10.4283
దనం	-10.4285
▁ముగించ	-10.4285
▁వివరణాత్మక	-10.4286
▁బ్యాంకులు	-10.429
▁44	-10.4294
▁ప్రయోగాలు	-10.4298
రిటీ	-10.4298
▁గ్రాఫిక్స్	-10.4301
▁ఆకృతి	-10.4302
▁ఫండ్	-10.4303
▁పెరిగిన	-10.4303
-30	-10.4308
▁హోండా	-10.4309
పెట్టు	-10.4312
ji	-10.4313
key	-10.4316
▁వానికి	-10.4317
▁క్లారినెట్	-10.4321
▁నెలవారీ	-10.4321
▁FSX	-10.4321
▁ప్రవచ	-10.4321
▁సరిపోతుంది	-10.4323
▁ఎర్ర	-10.4324
పరంగా	-10.4325
▁చెప్పింది	-10.4326
gi	-10.4332
▁ప్రకటనల	-10.4333
▁ఆమ్ల	-10.4333
fl	-10.4336
▁స్వభావం	-10.4336
మెర్	-10.4337
నగు	-10.4339
▁ఎదుర్కొన	-10.434
▁ఇరువది	-10.434
▁పశ్చిమ	-10.434
▁థ్రెడ్	-10.434
▁హౌసింగ్	-10.434
▁సూర్యుడు	-10.4343
▁మంత్ర	-10.4344
▁కాండీ	-10.4345
▁అనువర్తన	-10.4345
బర్గ్	-10.4357
▁అంట	-10.4359
▁ఆగష్టు	-10.4359
▁$1	-10.4361
▁దేవతల	-10.4368
▁స్టిక్కర్లు	-10.4369
▁మెరుగుపరచడానికి	-10.437
ene	-10.437
▁నిర్మించారు	-10.4372
▁పొగ	-10.4374
▁మోటారు	-10.4379
ati	-10.438
▁పత్రం	-10.4382
పరచుకొన	-10.439
▁పట్ల	-10.4392
త్వము	-10.4395
▁మండ	-10.4399
▁యంత్రాన్ని	-10.44
400	-10.44
▁హ్యాపీ	-10.44
▁ఉండును	-10.4405
▁అనిపించ	-10.4406
▁స్వాధీనం	-10.4411
▁ప్రశాంత	-10.4418
ros	-10.4421
▁వ్యవస్థకు	-10.4424
▁మెట్రో	-10.4427
NS	-10.4428
nu	-10.4431
▁ఎన్నో	-10.4434
▁ప్రోత్సహ	-10.4437
▁నిశ్శబ్ద	-10.4437
▁సాధ్యమైనంత	-10.4437
▁నిశ్చయముగా	-10.4439
▁Pre	-10.445
="12	-10.4454
▁అబ్రాహాము	-10.4457
ిస్తాను	-10.4461
ial	-10.447
▁సెల	-10.4479
▁సమ్మతి	-10.4481
▁can	-10.4485
కొనెను	-10.4489
▁అయిదు	-10.4493
▁యిర్మీయా	-10.4496
▁ఇస్తాంబుల్	-10.4496
▁క్వాలిటీ	-10.4496
▁పందెం	-10.4496
▁చేసుకోవడానికి	-10.4496
▁ప్రయాణీకుల	-10.4496
మాయెను	-10.4496
పడే	-10.4497
▁Br	-10.4497
స్తుందని	-10.4501
▁యాత్ర	-10.4508
▁వినండి	-10.4512
▁వాతావరణంలో	-10.4512
▁చెయ్యవచ్చు	-10.4515
▁జరుగు	-10.4516
▁కలిసే	-10.4516
▁సంవత్సరాలుగా	-10.4518
view	-10.4518
▁అనుకుంటే	-10.452
ence	-10.4523
OP	-10.4525
▁అధి	-10.4526
ava	-10.4537
▁తెలుపుము	-10.4539
▁అందిస్తాయి	-10.454
▁వర్తించే	-10.4546
0.9	-10.4547
▁చరిత్రలో	-10.4551
▁కణాల	-10.4557
▁మైదాన	-10.4561
▁తరు	-10.4561
LC	-10.4563
చుండగా	-10.4567
▁sc	-10.4571
స్థాపన	-10.4575
▁ప్రాచుర్యం	-10.4575
▁పెట్టుబడుల	-10.4575
▁దానిపై	-10.4575
▁నొక్కి	-10.4577
▁పొందటానికి	-10.4581
▁బ్యాండ్	-10.4581
▁రాజ్యం	-10.4581
ware	-10.4582
▁సందేశాన్ని	-10.4584
▁ఆనందించ	-10.4585
▁ప్రాజెక్టులు	-10.4588
తురు	-10.4591
▁వెళుతున్న	-10.4595
▁పాల్గొన్న	-10.4595
▁కార్యక్రమాల	-10.4598
పరచి	-10.4599
ren	-10.4601
▁అనుభవాన్ని	-10.4602
యొద్దనుండి	-10.4603
ton	-10.4605
▁టెల్	-10.461
▁జాబితాలో	-10.4617
▁వస్తున్న	-10.4619
▁విదేశాల	-10.4623
▁సూచించిన	-10.4625
▁మిగిలి	-10.4628
▁పడవ	-10.4633
ించుకోవడమైనది	-10.4635
▁ప్రాసెసర్	-10.4635
▁సాహిత్య	-10.4635
రోల్	-10.4637
కాదు	-10.4642
="11	-10.4645
▁అభిప్రాయం	-10.4647
▁తెలంగాణ	-10.4655
▁తీపి	-10.4655
▁రోగ	-10.4656
▁దీర్ఘకాల	-10.4662
▁పెట్టి	-10.4662
▁క్రీమ్	-10.4662
▁ప్రసిద్ధి	-10.4664
ధ్	-10.4665
▁4:1	-10.4669
▁పరంగా	-10.467
▁ప్రకటించింది	-10.4675
▁వ్యూహం	-10.4676
▁ఏళ్ల	-10.4682
పోవు	-10.4689
4.2	-10.4693
ైంది	-10.4693
▁స్పెక్ట్రం	-10.4695
▁మమ్మును	-10.4695
▁హతము	-10.4696
▁తాగ	-10.4696
▁పూర్ణ	-10.4697
గ్లా	-10.47
king	-10.4703
▁స్టాప్	-10.4705
▁రోగుల	-10.4707
▁Mobile	-10.4715
▁ఆపరేటర్	-10.4715
▁ఆస్వాదించ	-10.4715
▁ఎంచుకోవడానికి	-10.4716
▁భూమిని	-10.472
▁ఆలాగు	-10.4723
▁ప్రవేశపెట్ట	-10.4723
top	-10.4724
MT	-10.4727
Blockchain	-10.4735
▁ఉపయోగకరంగా	-10.4735
▁NO	-10.4737
▁51	-10.4738
▁అనుగ్రహ	-10.4739
భద్ర	-10.4743
▁తెలియని	-10.4746
▁వ్యాపారాలు	-10.4746
▁ట్యాంకుల	-10.4755
▁రాబోయే	-10.4755
▁47	-10.4756
way	-10.4758
సార	-10.4759
▁తెస్తుంది	-10.4759
▁రైడ్	-10.4766
▁చేతితో	-10.477
▁వెలి	-10.4771
ాస్పద	-10.4771
బద్ద	-10.4774
వృద్ధ	-10.4775
▁హంటింగ్టన్	-10.4775
▁పొదుపు	-10.4775
ఫిల్	-10.4776
4.5	-10.4784
▁క్రమం	-10.4787
▁గట్టి	-10.4789
light	-10.4791
▁DVD	-10.4795
▁గొలుసు	-10.4796
▁తప్పి	-10.4797
ుడై	-10.4797
▁సైన్యము	-10.48
▁55	-10.4802
▁Pe	-10.4807
డొ	-10.4811
▁పాలన	-10.4812
▁సేకరించిన	-10.4813
▁నింద	-10.4814
ja	-10.4815
▁ద్వంద్వ	-10.4816
▁పునరుద్ధరణ	-10.4816
డార్	-10.4816
▁పరిమాణాల	-10.4816
▁ప్రే	-10.4818
▁వాయువు	-10.4818
▁కప్పు	-10.4824
ook	-10.4825
▁అలారం	-10.4826
▁కనుగొన్నారు	-10.4827
నీయుల	-10.4828
▁ప్లాట్	-10.4828
less	-10.483
▁డోర్	-10.4831
▁ఐప్యాడ్	-10.4836
▁వంతెన	-10.4836
▁రుణాలు	-10.4836
▁వెయ్యి	-10.4836
▁డ్రాయింగ్	-10.4837
▁మందసము	-10.4839
▁నవీకరించబడింది	-10.4839
▁ప్రారంభమవుతుంది	-10.484
▁బొమ్మలు	-10.484
▁చలన	-10.4843
1.9	-10.4843
▁టన్నుల	-10.4849
▁ఉద్యోగుల	-10.4851
▁చదివ	-10.4855
▁Webtalk	-10.4856
▁this	-10.4857
▁Sho	-10.4859
▁లోబడి	-10.4861
▁యుగ	-10.4863
▁సర్టిఫికెట్	-10.4877
▁APK	-10.4877
▁వసూలు	-10.4877
▁స్క్వేర్	-10.4877
▁బంతి	-10.4884
▁పత్రాల	-10.4889
▁కూడి	-10.489
ina	-10.489
▁పట్టీ	-10.4891
విషయ	-10.4892
▁2.5	-10.4894
▁వంశస్థులు	-10.4897
▁కార్టూన్	-10.4897
▁ఎత్తి	-10.4898
▁సన్నని	-10.4899
▁46	-10.4899
చ్చే	-10.4905
▁ప్రమాణము	-10.4906
▁తల్లిదండ్రుల	-10.4912
▁ప్రతిస్పందన	-10.4918
▁ఆసుపత్రి	-10.4918
▁సమాంతర	-10.4919
ung	-10.492
▁ధాన్య	-10.4922
▁Web	-10.4923
▁చేస్తూ	-10.4923
▁కాల్స్	-10.4924
▁విడిచిపెట్ట	-10.4927
▁స్ట్రా	-10.4928
▁ప్రై	-10.4928
▁చెప్పటానికి	-10.4928
ool	-10.4936
▁విభజన	-10.4938
▁ఫలితం	-10.4939
హౌస్	-10.494
▁సెషన్	-10.4942
▁వ్యాపించ	-10.4942
▁నియో	-10.4944
▁నెలలో	-10.4947
భేద	-10.4947
ించుచు	-10.495
▁జంతు	-10.4951
▁రూపొందించిన	-10.4952
▁భాగాలను	-10.4956
▁మనసు	-10.4958
▁బ్రిటిష్	-10.4959
▁శారీరక	-10.4959
▁సందర్భాలలో	-10.496
ునికి	-10.496
▁అరణ్య	-10.4961
▁PE	-10.4962
▁We	-10.4965
cial	-10.4967
▁ఎదుట	-10.4969
మీటర్	-10.4971
▁ప్రచార	-10.4973
ేంద్ర	-10.4973
▁గురి	-10.4974
▁సంగతుల	-10.4976
▁గ్రౌండ్	-10.4979
▁సెలవిచ్చెను	-10.4979
▁హోస్ట్	-10.498
▁సందర్శన	-10.498
ాలనుకుంటున్నాను	-10.4984
▁నివారించ	-10.4986
▁ఊహ	-10.4988
▁not	-10.499
తై	-10.4998
▁ముఖము	-10.4999
▁ఫిర్యాదు	-10.5
▁సోదరులు	-10.5
▁స్వచ్ఛమైన	-10.5
▁HGH	-10.5
▁శాసన	-10.5002
నియ్య	-10.5003
900	-10.5006
▁Al	-10.5008
▁వాదన	-10.5019
▁సూర్య	-10.502
▁Microsoft	-10.5021
▁పెయింట్	-10.5021
▁నొక్కండి	-10.5021
▁బ్రౌన్	-10.5021
▁సంచులు	-10.5021
కోణ	-10.5022
▁రెండో	-10.5026
▁బ్రి	-10.5033
▁అనువర్తనాలు	-10.5033
▁సముద్రం	-10.5038
att	-10.504
▁బస్సు	-10.5043
▁మచ్చ	-10.5047
▁స్పిన్స్	-10.5052
▁శుక్రవారం	-10.5052
▁సిస్టమ్స్	-10.5055
▁పోయ	-10.5062
▁హైపర్బారిక్	-10.5062
▁ఇత్తడి	-10.5062
▁కడుపు	-10.5063
▁రెడ్	-10.5068
▁సూది	-10.5073
▁అద్దెకు	-10.5078
▁డ్రై	-10.5079
▁ఐచ్ఛిక	-10.5083
▁స్పానిష్	-10.5083
▁నైపుణ్యాలు	-10.5083
▁దాసుల	-10.5087
▁క్షణం	-10.5089
హై	-10.5091
▁బీటా	-10.5095
▁మంట	-10.5095
బాటు	-10.5104
▁ఫిట్నెస్	-10.5104
▁క్యాన్సర్	-10.5104
ుచుండెను	-10.5104
▁సులువు	-10.5105
▁షాఫ్ట్	-10.5105
▁సవాలు	-10.5106
PD	-10.5107
▁పంప్	-10.5114
emoji	-10.5125
▁యోగ	-10.513
కుండునట్లు	-10.5133
▁లక్షణాల	-10.5134
▁అందుకే	-10.5134
కొండ	-10.5136
qui	-10.5145
▁వైఫల్య	-10.5146
▁పిలిచి	-10.5147
que	-10.5147
rin	-10.5149
▁వర్కింగ్	-10.5151
▁స్టాండ్	-10.5155
▁బ్ల	-10.5158
▁తెలియజేయండి	-10.5163
ెత్తి	-10.5163
ele	-10.5163
▁గర్వ	-10.5164
▁బంగారం	-10.5167
▁తొలగింపు	-10.517
క్టివ్	-10.5174
▁తీసుకునే	-10.5176
▁పోరాటం	-10.5179
lin	-10.5181
▁ప్రయోగ	-10.5183
▁AD	-10.5184
▁యాజమాన్య	-10.5188
▁టౌన్	-10.5188
▁వేణువు	-10.5188
▁యోహాను	-10.5188
▁నిష్పత్తి	-10.5188
▁విరోధ	-10.5192
కృష్ణ	-10.5193
▁సాహస	-10.5193
lock	-10.5196
▁సుమారుగా	-10.5199
బడదు	-10.52
▁Bit	-10.5202
▁ఇవ్వడానికి	-10.5204
▁అనెను	-10.5208
▁అధ్యాయం	-10.5209
▁Phone	-10.5209
▁విచార	-10.5209
▁నిరాశ	-10.5209
▁నడిచి	-10.5211
3.5	-10.5213
rg	-10.5215
ులకును	-10.5218
▁కొలతలు	-10.5221
▁అనుకున్న	-10.5222
▁హస్త	-10.5223
▁శబ్దం	-10.5224
▁MT	-10.5229
▁Instagram	-10.523
nm	-10.5233
▁చర్మ	-10.5234
▁చూపించు	-10.5239
▁చూసే	-10.5247
▁మీడియం	-10.5252
▁స్టడీ	-10.5255
స్నేహితు	-10.5259
▁కుమారుడ	-10.5259
for	-10.5268
ట్టుగా	-10.5268
▁ఆకర్షణీయంగా	-10.5273
▁ఎమోజీలకు	-10.5273
▁మార్చండి	-10.5273
UT	-10.5273
మాత్రము	-10.5274
▁ప్రమాణాలు	-10.5274
ush	-10.5275
▁Ta	-10.5276
▁ఫైళ్లు	-10.5278
▁మనుష్యులు	-10.5278
ker	-10.5282
▁ప్రవాహ	-10.5285
▁CSGO	-10.5294
ుకునేందుకు	-10.5294
▁సందర్భాల్లో	-10.5295
▁సంకేతాలు	-10.5299
▁తగ్గించడం	-10.5314
GO	-10.532
▁will	-10.5321
▁యజమానులు	-10.5327
వాటిని	-10.5329
▁ఊరి	-10.5332
▁గణనీయమైన	-10.5337
▁సరదాగా	-10.5337
▁విధానాన్ని	-10.5337
▁టెలిఫోన్	-10.5337
▁సమకూర్చ	-10.5338
▁సంఘం	-10.534
▁LLC	-10.534
fer	-10.5342
▁మెరుగుపరచ	-10.5343
▁గోత్రము	-10.5344
▁రోమన్	-10.5346
▁కనుగొన్న	-10.5348
▁ఉత్పత్తిదారులు	-10.5349
ద్రవ్య	-10.5352
▁శామ్సంగ్	-10.5358
యున్నావు	-10.5358
▁ఎడిషన్	-10.5358
▁హోల్మ్	-10.5358
వంతం	-10.5358
▁అద్భుతంగా	-10.5358
LD	-10.536
▁తేది	-10.536
▁ఉన్నట్లు	-10.5365
▁ట్రై	-10.5367
▁ధర్మశాస్త్రము	-10.5371
▁MB	-10.5372
▁వాక్య	-10.5374
▁కలిగించే	-10.5379
▁దాసుడ	-10.5379
▁ROSELLE	-10.5379
▁మార్చు	-10.5381
▁భూమిమీద	-10.5384
▁వక్ర	-10.5387
▁గరిష్టంగా	-10.5388
ock	-10.539
▁ఆహారము	-10.5392
▁కూల్	-10.5393
స్థానం	-10.5398
▁లోగో	-10.5399
▁పదాల	-10.54
▁ఎక్స్ప్రెస్	-10.5401
▁హోస్టింగ్	-10.5401
▁స్వల్ప	-10.5401
▁1500	-10.5402
LS	-10.5408
గూ	-10.5409
▁Fe	-10.541
-01	-10.5415
▁సంవత్సరములు	-10.5422
▁భాషలో	-10.5424
▁ఉంచుతుంది	-10.5425
బడ్డ	-10.5425
▁రాడ్	-10.5428
ేగాని	-10.5431
ML	-10.5435
▁తెచ్చి	-10.5438
▁కేటాయించ	-10.5444
▁చేయుట	-10.5449
NG	-10.5451
▁చిట్కా	-10.5454
తనము	-10.5456
are	-10.5457
▁వస్తువులను	-10.5463
▁పోర్టబుల్	-10.5466
▁పారదర్శక	-10.5466
▁సూత్రం	-10.5466
▁జనముల	-10.5472
▁జాతక	-10.5472
▁గణన	-10.5476
పోతున్న	-10.5482
▁శుభాకాంక్షలు	-10.5487
▁అడిగే	-10.5488
▁విషయములో	-10.5488
▁గురువు	-10.5493
tech	-10.5494
▁కోరుకుంటున్న	-10.5499
▁పునరావృత	-10.5499
▁విషయమై	-10.55
2016	-10.5501
▁ఇయ్య	-10.5501
yo	-10.5501
▁పెట్	-10.5504
RC	-10.5505
▁స్టూడియో	-10.5509
▁from	-10.5509
▁సందేహ	-10.5509
▁స్టెప్	-10.5511
▁10%	-10.5511
GE	-10.5513
play	-10.5515
▁కుకీ	-10.552
▁Gu	-10.5521
tube	-10.5526
▁ప్రోమో	-10.5526
▁సృష్టించడం	-10.5527
▁నిలిపి	-10.5529
▁ఇన్స్టిట్యూట్	-10.5531
▁యూనివర్సల్	-10.5531
▁ఆఫీస్	-10.5532
▁స్పెయిన్	-10.5532
▁అధికారి	-10.5533
▁పాటించ	-10.5537
లాగే	-10.5542
▁పరమాణు	-10.5553
▁బయటికి	-10.5553
▁కాల్చి	-10.5554
▁action	-10.5557
▁ఏడవ	-10.5559
▁చక్క	-10.556
▁MH	-10.5563
ater	-10.5568
పడ్డ	-10.557
▁మొదలుపెట్ట	-10.557
▁భాగాన్ని	-10.557
OM	-10.5574
▁ఫుట్బాల్	-10.5575
▁LTD	-10.5575
▁బ్రోకర్	-10.5577
కూర్చ	-10.5586
▁దిశలో	-10.5586
▁నమ్మక	-10.5592
▁వైద్యుడు	-10.5594
▁సొల్యూషన్స్	-10.5594
▁డయా	-10.5595
fa	-10.5595
▁తడి	-10.5599
ich	-10.5605
▁Dr	-10.5606
▁పురుష	-10.5614
▁అనుసరించి	-10.5615
▁ఫాబ్రిక్	-10.5619
▁స్ట్రీట్	-10.5619
▁సెలవిచ్చుచున్నా	-10.5619
rop	-10.5621
భావం	-10.5622
▁లేడీస్	-10.5626
▁స్టిక్కర్	-10.5629
చింగ్	-10.5633
▁సహజంగా	-10.5633
▁నశించ	-10.5633
▁పరిశీలన	-10.5635
▁సిద్ధాంత	-10.5635
▁వెళ్ళింది	-10.5639
▁గమనించండి	-10.5641
▁యెహోషువ	-10.5641
▁ఆటగాడు	-10.5641
▁అదేవిధంగా	-10.5643
▁ప్రయాణించ	-10.5643
▁సందర్భంగా	-10.5651
▁భాగస్వాములు	-10.5659
UL	-10.566
▁తోబుట్టువుల	-10.5663
▁బిజినెస్	-10.5663
మూర్తి	-10.5665
టొ	-10.5666
▁కొనండి	-10.5668
పోయాయి	-10.5672
▁నివసిస్తున్న	-10.5673
▁Jan	-10.5674
▁లాభాలు	-10.5674
▁గ్రామం	-10.5682
గిల్	-10.5683
▁యాదృచ్ఛిక	-10.5685
▁సార్కోయిడోసిస్	-10.5685
▁బైట్సు	-10.5685
▁Sha	-10.5694
▁సహాయము	-10.5695
మంతయు	-10.5697
▁చక్రాలు	-10.57
▁వివేక	-10.57
ప్లా	-10.5706
▁ధృవీకరించ	-10.5707
▁ప్రొవైడర్	-10.5707
▁SS	-10.5709
▁నగ్న	-10.5709
KW	-10.571
▁ఇష్టపడతారు	-10.5711
▁సాగి	-10.5719
tur	-10.5724
ప్లే	-10.5724
▁ఆధారపడ	-10.5725
▁యాజకుల	-10.5725
▁దూరంలో	-10.5726
▁వ్యక్తిగతంగా	-10.5726
▁తొడుగులు	-10.5729
▁మరణించాడు	-10.5736
▁ఎన్నికల	-10.5736
▁మాట్లాడటానికి	-10.574
▁సౌలభ్యం	-10.574
▁న్యాయము	-10.5741
య్యాయి	-10.5744
▁కాంపాక్ట్	-10.5752
▁వారసత్వ	-10.5752
▁అల్ట్రా	-10.5754
AY	-10.5766
▁DJ	-10.5771
▁పరిగణలోకి	-10.5775
▁గణిత	-10.5775
▁గింజ	-10.5776
▁హెల్	-10.5778
▁సురక్షితం	-10.5778
▁చూపించడానికి	-10.5783
▁భిన్న	-10.5788
▁సమూహము	-10.579
యెహోవా	-10.5794
▁సరసమైన	-10.5796
▁నిషేధించ	-10.5799
▁ఇచ్చారు	-10.5801
▁నిలుచు	-10.5803
TH	-10.5804
మెల్	-10.5804
▁చేరండి	-10.5807
▁పడక	-10.5808
ప్రదేశ	-10.5809
▁ఉదా	-10.5812
▁వనరులను	-10.5814
▁ఐటి	-10.5817
Description	-10.5819
▁వరకూ	-10.5819
▁యుఎస్	-10.582
పక్ష	-10.5824
▁కోరుకున్న	-10.5824
▁సౌకర్యాలు	-10.5833
oz	-10.5835
»	-10.584
▁హోల్డర్	-10.5841
▁ధూప	-10.5842
▁వేట	-10.5846
load	-10.5858
గలిగిన	-10.5858
▁ఇంటర్నేషనల్	-10.5864
▁గణనీయంగా	-10.5864
▁బ్లాక్జాక్	-10.5864
▁కూపన్	-10.5864
▁పదార్ధాల	-10.5864
▁ప్రేరేప	-10.5864
▁ఆమోదం	-10.5866
▁2001	-10.5867
▁సంచయ	-10.5868
వర్గం	-10.587
▁భారతదేశ	-10.5871
▁సేవకులు	-10.5872
▁వలస	-10.5874
▁కర్మాగారం	-10.5877
తోపాటు	-10.588
కట్టు	-10.588
▁వ్యయ	-10.5881
▁వీసా	-10.5884
▁డాక్యుమెంట్	-10.5886
▁రీసెర్చ్	-10.5886
▁క్రిస్టల్	-10.5887
▁గొఱ్ఱల	-10.589
▁గడ్డ	-10.5896
▁For	-10.5898
▁నిత్యము	-10.5901
▁మానవుల	-10.5902
▁శిష్యుల	-10.5904
నిబట్టి	-10.5905
▁బాయ్	-10.5909
▁విశ్లేషించ	-10.5909
గలిగే	-10.591
▁వచ్చును	-10.5915
▁నిధులు	-10.5922
▁ప్రాంతాలు	-10.5923
▁ఫ్లైట్	-10.5924
▁మర్చిపో	-10.5931
yu	-10.5931
▁ఏజెన్సీ	-10.5932
▁ప్రోగ్రామింగ్	-10.5932
▁ముందే	-10.5933
▁మెరుగుదల	-10.5934
▁అన్యాయ	-10.5934
▁అబీ	-10.594
ave	-10.5947
▁IT	-10.5947
▁కన్నుల	-10.595
▁చింత	-10.5952
▁అద్దము	-10.5955
▁ఆకర్షణ	-10.5965
▁భాగస్వామ్య	-10.5973
▁125	-10.5973
దేమనగా	-10.5976
▁ఋణ	-10.5978
▁ట్రైనింగ్	-10.5978
▁పోషక	-10.5979
▁అటు	-10.5979
▁ఒక్కొక్క	-10.5979
▁కార్మిక	-10.5979
▁పంపించ	-10.5982
▁రాయల్	-10.5988
▁ఇశ్రా	-10.5988
▁CF	-10.599
▁నచ్చ	-10.5994
4.4	-10.5995
5.1	-10.5997
▁మేయర్	-10.5998
XNUM	-10.6
▁చారిత్రక	-10.6
▁బ్లేడ్	-10.6
▁విరాళ	-10.6
▁సైడ్	-10.6001
▁And	-10.6002
▁ఛాతీ	-10.6004
time	-10.601
▁భవనాలు	-10.6013
▁నెలకు	-10.6015
▁కలుగును	-10.6017
▁ప్రొఫెసర్	-10.6023
▁రిజిస్టర్	-10.6023
▁స్నేహపూర్వక	-10.6023
యుండెను	-10.6024
low	-10.6026
▁చేస్తోంది	-10.6026
▁తగ్గింపు	-10.6029
▁ఒప్పందాలు	-10.6034
▁కార్ట్	-10.6035
వైవిధ్య	-10.6035
బడ్డారు	-10.6036
నొద్ద	-10.6038
▁కదిలే	-10.6041
▁మూస	-10.6041
▁అధ్యక్ష	-10.6042
▁Lo	-10.6044
▁గర్భం	-10.6045
▁దుబాయ్	-10.6046
▁ప్రాప్యత	-10.6046
▁యాజకుడు	-10.6046
▁అంకితం	-10.6046
▁చేసుకోవడం	-10.6047
▁అవ్వ	-10.6047
కిరీట	-10.6055
నేమి	-10.6057
బార్	-10.6066
▁సంక్షిప్త	-10.6069
▁ధోరణి	-10.6069
▁ప్రాంతాలలో	-10.6072
పోయాడు	-10.6085
▁లభిస్తుంది	-10.6092
▁ఛానెల్	-10.6092
▁pre	-10.6092
▁మలుపు	-10.6095
▁చేసిరి	-10.6101
▁బృంద	-10.6115
▁సొసైటీ	-10.6115
chi	-10.6115
▁మనవి	-10.6122
▁మారిన	-10.6136
▁చైన్	-10.6138
▁రాష్ట్రాలు	-10.6144
▁సర్వో	-10.6149
0.6	-10.615
▁కమ్	-10.6151
▁వ్యయం	-10.6154
ger	-10.6161
▁ఫైనాన్స్	-10.6161
▁LCD	-10.6161
▁విరిగి	-10.6162
▁డెమో	-10.6164
▁అందిస్తున్న	-10.6164
క్రింద	-10.6164
▁చేయవలసిన	-10.6166
▁En	-10.617
HC	-10.6172
▁వినోద	-10.6174
2.5	-10.6184
▁సన్నిహిత	-10.6184
▁చేయాలో	-10.6187
▁పడిపోయింది	-10.6188
▁బెండింగ్	-10.619
▁డాన్	-10.6191
ext	-10.6195
▁చెల్లించండి	-10.6202
▁వేరొక	-10.6208
▁ఫిన్	-10.6208
▁తరగతుల	-10.6209
▁nice	-10.621
bit	-10.621
ోత్సవ	-10.6212
టాన్	-10.6213
▁పుస్తకాల	-10.6222
▁తన్ను	-10.6223
▁షరతులు	-10.6225
థై	-10.6226
ries	-10.623
▁సౌకర్యవంతంగా	-10.6231
▁గాడిద	-10.6231
▁వ్యసన	-10.6232
▁వరుసగా	-10.6236
▁పనిచేస్తున్న	-10.6238
▁నిర్వహ	-10.6239
▁పొడ	-10.6247
▁జాతుల	-10.6252
▁తిరుగుబాటు	-10.6255
▁ముఖ్యమైనది	-10.6255
▁దీర్ఘకాలిక	-10.6258
▁శుభ్రంగా	-10.6259
eck	-10.6261
▁స్కైప్	-10.6261
▁చేరుకోవడానికి	-10.6261
lat	-10.6267
▁వాడకం	-10.627
▁పెరుగుతాయి	-10.6279
▁అందుకుంటారు	-10.6284
▁ఆకులు	-10.6285
▁my	-10.6286
త్తె	-10.6287
▁నడప	-10.6288
▁చెల్లించిన	-10.6289
▁సహాయపడే	-10.629
▁సెట్టింగ్	-10.6296
▁దర్శకత్వం	-10.6301
▁విప్లవ	-10.6301
▁పొడవైన	-10.6302
▁పరిస్థితుల్లో	-10.6306
▁లోకము	-10.6307
ుదువు	-10.6314
▁సెలవిచ్చి	-10.6324
▁నృత్య	-10.6325
▁హ్యాండిల్	-10.6325
▁గ్రామీణ	-10.6325
మధ్య	-10.6325
▁సుందర	-10.6325
▁గడిప	-10.6328
▁నిలిపివేయ	-10.6328
లాంటి	-10.6329
▁రక్షక	-10.633
▁రూట్	-10.6333
▁సందేశాలు	-10.6342
▁మార్చవచ్చు	-10.6346
url	-10.6346
▁ఫలితాల	-10.6348
▁అసోసియేషన్	-10.6349
▁కాటలాగ్	-10.6349
IM	-10.6349
FO	-10.635
cess	-10.635
▁లోపాలు	-10.6355
య్యాడు	-10.6356
▁లెగ్	-10.6357
▁జాగ్రత్తలు	-10.6358
▁విస్తార	-10.6359
▁2003	-10.636
▁చేయుచు	-10.6362
▁ఓహ్	-10.6365
▁India	-10.6365
▁పుష్	-10.6368
వారందరి	-10.6369
▁సంతులనం	-10.6372
▁గాయం	-10.6374
▁పుట్టినరోజు	-10.6374
▁తప్పుడు	-10.6376
▁తమ్ము	-10.6381
ాధికార	-10.6382
eat	-10.6385
▁జిమ్	-10.6388
▁సభ	-10.6391
▁ప్రశ్నలకు	-10.6392
rea	-10.6393
్యాల	-10.6395
▁అప్గ్రేడ్	-10.6396
▁సెంట్రల్	-10.6396
▁కౌంటర్	-10.6396
▁బ్యాకప్	-10.6396
▁ఎడారి	-10.6396
▁కాలేజ్	-10.6396
▁వెంబడి	-10.6398
▁Hat	-10.641
▁సెకన్లు	-10.6411
▁చదవడానికి	-10.6415
2013	-10.6416
▁విద్యార్థులకు	-10.6417
▁మార్గనిర్దేశం	-10.642
▁సిగ్నల్	-10.642
▁చక్కెర	-10.642
▁సృష్టికర్త	-10.6421
ound	-10.6424
▁పెరుగు	-10.6429
▁నవ్వు	-10.6437
▁బాత్రూమ్	-10.6444
▁లైబ్రరీ	-10.6444
▁బ్రెడ్	-10.6444
▁గేమింగ్	-10.6444
▁ఎంట్రీ	-10.6444
▁విద్యార్ధుల	-10.6444
▁ఫిషింగ్	-10.6445
▁కుకీలను	-10.6445
▁బోర్	-10.6448
fo	-10.6452
▁భాషా	-10.6452
▁సజీవ	-10.6456
▁వుడ్	-10.6457
▁పొంది	-10.6457
▁సంబంధాల	-10.6459
▁బ్రదుక	-10.6462
▁కొనసాగింది	-10.6466
▁ఇంజక్షన్	-10.6468
▁భావోద్వేగ	-10.6468
▁విరుద్ధంగా	-10.6468
▁కణజాల	-10.6468
press	-10.6471
ition	-10.6471
▁క్యాష్	-10.6472
▁అతిశయ	-10.6472
▁పరిగణ	-10.6475
▁తండ్రియైన	-10.6479
శైల	-10.6485
▁మార్చడం	-10.6486
▁కట్టు	-10.6493
▁కలుపు	-10.6494
ten	-10.6496
ull	-10.6499
▁పర్వతాలు	-10.65
▁ఉద్యోగాలు	-10.6505
2.3	-10.6509
▁ఆధిపత్య	-10.6516
!!!	-10.6517
▁రెండూ	-10.6518
▁టెర్	-10.6523
▁చేసెద	-10.6527
▁మెరుగుపరుస్తుంద	-10.6527
▁చెయ్యబడింది	-10.6528
▁నిర్వహించారు	-10.6532
▁సమితి	-10.6536
▁ఉపసంహరణ	-10.654
▁నువ్వు	-10.654
మయిన	-10.654
▁స్థానాన్ని	-10.654
▁dis	-10.6541
▁ఫండ్స్	-10.6543
▁కిలోల	-10.6545
▁గుర్తుంచుకో	-10.6546
▁జాతులు	-10.655
▁Ko	-10.6551
▁మరణించారు	-10.6554
▁స్పాట్	-10.6554
▁వర్గాల	-10.6556
▁అన్నీ	-10.6562
▁ఇటాలియన్	-10.6564
▁రికార్డింగ్	-10.6564
▁ఇప్పటివరకు	-10.6566
▁ముద్దు	-10.6566
షియా	-10.6567
▁సందేశ	-10.6576
▁గొన్న	-10.6578
KV	-10.6578
▁లాగ్	-10.6579
▁భోజనము	-10.6581
▁ఎక్కి	-10.6585
▁డిఫాల్ట్	-10.6588
▁Bitcoin	-10.6588
▁రాసిన	-10.6595
▁చెప్పవచ్చు	-10.6595
దానికి	-10.6596
▁అదృష్టం	-10.6599
▁సిఎన్	-10.6601
▁గ్రామము	-10.6605
నిర్మాణ	-10.6607
▁దొరక	-10.6609
▁జరిగించ	-10.6612
▁పురోగతి	-10.6613
▁భ్రమణ	-10.6613
▁హాస్పిటల్	-10.6613
▁మందిరపు	-10.6613
▁కనిపిస్త	-10.6616
XX	-10.6617
▁శిష్యులు	-10.6617
▁దండ	-10.6626
▁పలిక	-10.6632
▁స్విట్జర్లాండ్	-10.6637
▁ఫైబర్గ్లాస్	-10.6637
▁గుర్రం	-10.6638
▁ఫుట్	-10.6638
▁నిర్వహిస్తుంది	-10.6641
▁విస్తరించి	-10.6642
▁వెళ్ళే	-10.6642
▁గుర్తించడం	-10.6645
▁సేల్స్	-10.6645
▁మనో	-10.6657
▁గందరగోళ	-10.6661
▁వెచ్చని	-10.6661
title	-10.6662
▁పారిపో	-10.6665
▁తక్షణమే	-10.6667
tric	-10.667
▁విశాల	-10.6673
యోగ్య	-10.6673
▁దృశ్యం	-10.6673
▁50%	-10.6675
▁వీక్షించ	-10.6675
సంభవ	-10.6677
ize	-10.6678
ild	-10.6679
ుచున్నాము	-10.6685
▁సెటప్	-10.6686
ించుచున్న	-10.6697
▁నిర్వచించ	-10.6711
▁రత్న	-10.6711
▁భయపడి	-10.6713
▁గూర్చియు	-10.6713
VE	-10.6724
▁తిరుగ	-10.6734
="13	-10.6735
saveatrain	-10.6735
▁యథార్థ	-10.6735
▁మ్యాచింగ్	-10.6735
▁సహచరుల	-10.6735
వారము	-10.6741
▁Mon	-10.6746
▁స్వస్థ	-10.6747
జ్ఞాన	-10.675
ating	-10.6751
▁తయార	-10.6756
▁ప్రయత్నాలు	-10.6756
దశ	-10.6758
▁అచ్చట	-10.6758
▁blockchain	-10.6759
▁థాయిలాండ్	-10.6759
▁సొగసైన	-10.6759
▁డైలాగ్	-10.6759
క్షేప	-10.676
▁నడుచు	-10.6761
▁1990	-10.6763
▁తప్పకుండా	-10.6768
డెంట్	-10.6768
▁లేప	-10.6768
ane	-10.6779
bar	-10.6781
▁ప్ల	-10.6782
▁ముందస్తు	-10.6784
▁మెకానికల్	-10.6784
▁ఎడిటర్	-10.6784
▁ఉద్దేశ్యం	-10.6786
▁నిలబడ	-10.6794
▁సూచనలను	-10.6798
సహోదరు	-10.6799
▁వుంటుంది	-10.6809
▁పురుగు	-10.681
▁ఎక్కడైనా	-10.6811
▁బాటిల్	-10.6818
ప్రతి	-10.6822
▁కార్టన్	-10.6828
▁రేపు	-10.6831
="18	-10.6832
▁హేయ	-10.6833
▁అలంకరించ	-10.6834
▁చురుకుగా	-10.6834
▁నిపుణుడు	-10.6834
▁వూఫర్	-10.6834
ఎక్స్	-10.6835
▁జాకెట్	-10.6842
▁పరిశీల	-10.6848
▁గ్రాండ్	-10.6848
▁కమ్యూనికేట్	-10.6859
▁శాస్త్రవేత్తలు	-10.6859
▁దాగి	-10.686
="15	-10.686
▁ఉద్యమం	-10.6861
సెక్స్	-10.6863
▁3000	-10.6864
▁నిర్మ	-10.6868
▁పంద	-10.6877
ze	-10.6881
▁కేతగిరీలు	-10.6883
▁జెరూసలేం	-10.6883
▁మెడిసిన్	-10.6883
▁SQL	-10.6883
▁కిలోమీటర్ల	-10.6883
▁జవాబు	-10.6883
▁డైనమిక్	-10.6884
▁బంధువు	-10.6884
▁పాలిస్టర్	-10.6886
బోతున్న	-10.6891
గింగ్	-10.6891
▁స్వాధీన	-10.6892
సాధారణ	-10.6893
ata	-10.6898
యుండుట	-10.69
▁త్రోవ	-10.6902
▁సేవకుల	-10.6905
▁క్రీ	-10.6906
table	-10.6906
▁డెస్క్టాప్	-10.6908
▁పారామితులు	-10.6908
▁ప్రభావవంతమైన	-10.6908
▁సింగపూర్	-10.6908
▁దస్త్ర	-10.6909
▁సహకరించ	-10.691
▁జాన్సన్	-10.6912
ుకుంటూ	-10.6913
▁వారానికి	-10.6915
▁సమాధానము	-10.6916
▁దేహ	-10.6919
test	-10.692
నిర్వచ	-10.6926
ఱ	-10.6934
▁సంప్రదింపు	-10.6934
▁ఆప్టికల్	-10.6934
▁EMI	-10.6934
▁ప్రాంతీయ	-10.6934
▁జీవితాలను	-10.6935
3%	-10.6937
▁API	-10.6937
▁వెస్ట్	-10.6939
▁తొక్క	-10.6945
▁ఆహ్వాన	-10.6949
సొ	-10.6954
▁వేగవంతం	-10.6959
▁మేజిక్	-10.6965
6.0	-10.6971
land	-10.6971
▁బ్రో	-10.6975
km	-10.698
▁హెర్	-10.6981
8%	-10.6981
▁ఆటోమేషన్	-10.6984
▁ముగుస్తుంది	-10.6984
▁పియానో	-10.6984
▁కమిషన్	-10.6984
▁చెందింది	-10.6984
▁ఫిలిప్	-10.6985
▁వాగ్దానం	-10.6985
▁ఆపడానికి	-10.6986
gra	-10.6998
▁షాక్	-10.7003
▁పరిజ్ఞానం	-10.7009
▁తెలుసుకోవడం	-10.7012
హీ	-10.7022
వుంది	-10.7025
▁రోగులు	-10.7025
▁క్రిస్	-10.7028
val	-10.7033
▁అనాబాలిక్	-10.7034
▁నివసించు	-10.7037
▁సిద్ధాంతం	-10.7042
▁పరిమితులు	-10.7048
యున్నవి	-10.705
9001	-10.7053
▁వనరులు	-10.7058
▁రెండ	-10.7059
▁ఎవరైతే	-10.706
▁Tablet	-10.706
▁ఆర్టికల్	-10.7062
▁అభిప్రాయము	-10.7068
▁వీధుల	-10.7071
lan	-10.7073
rat	-10.7076
▁మోనో	-10.7078
▁కొనుగోలుదారు	-10.708
gl	-10.7081
▁సాక్ష్యం	-10.7084
▁గెలాక్సీ	-10.7085
▁నాణేలు	-10.7085
▁ఫెయిర్	-10.7085
▁స్ప్రే	-10.7085
▁అవయవ	-10.7086
▁శిఖర	-10.7086
HA	-10.7087
▁ఇప్పటి	-10.7093
▁సాదా	-10.7095
▁180	-10.7098
▁స్నేహ	-10.71
పెర్	-10.71
▁వంశము	-10.71
▁పోలిక	-10.7103
▁చేయవలెను	-10.7104
ఉదా	-10.7108
▁ముస్లిం	-10.7111
▁రిపబ్లిక్	-10.7111
▁విశ్వసించ	-10.7112
▁స్టోన్	-10.7117
▁అంటుకునే	-10.7117
▁All	-10.7119
▁రాళ్ల	-10.7123
కార్యము	-10.7128
▁స్థాయికి	-10.713
▁ఇళ్ళు	-10.7134
▁WhatsApp	-10.7136
▁ముసుగు	-10.7136
▁అక్క	-10.7139
▁కుట్టు	-10.7141
▁చక్ర	-10.7142
▁బాగుంది	-10.7143
[	-10.7144
▁అంతర	-10.7148
▁స్వయంగా	-10.7148
="17	-10.715
inch	-10.716
మయ్యాయి	-10.7162
▁వ్యాధులు	-10.7162
▁న్యూయార్క్	-10.7162
▁అధిపతుల	-10.7162
▁సూచిస్తున్న	-10.7162
▁పేతురు	-10.7165
మేమి	-10.7165
ురాలు	-10.7167
▁లేడీ	-10.7175
▁చూడడానికి	-10.7182
▁ఐడియాస్	-10.7185
▁ట్విట్టర్	-10.7188
▁సాంస్కృతిక	-10.7188
▁ముప్పది	-10.7188
▁ప్రచుర	-10.7188
హైడ్రో	-10.7191
▁నిర్మించిన	-10.7193
▁త్రో	-10.72
▁రైల్	-10.7201
▁కొడుకు	-10.7202
▁ఘనత	-10.7203
▁ఎక్స్చేంజ్	-10.7213
▁సమృద్ధి	-10.7213
▁ఉష్ణ	-10.7214
ette	-10.7219
వాడెవడు	-10.722
▁సాధించింది	-10.7222
▁వినోదం	-10.7229
▁శుద్ధి	-10.723
▁పోరాట	-10.723
▁గమన	-10.7231
rad	-10.7232
▁రుజువు	-10.7239
▁ఇప్పుడే	-10.7239
▁సున్నతి	-10.7239
▁విలీనం	-10.7239
▁భయము	-10.7243
▁పట్టుకొన	-10.7244
2.2	-10.7244
ీయుడైన	-10.7246
▁బాధపడ	-10.7252
కూడదని	-10.7252
▁మొక్కల	-10.7258
▁ఈయన	-10.7262
▁పిసి	-10.7263
▁Online	-10.7265
▁ఇన్వాయిస్	-10.7265
▁అభిరుచి	-10.7265
▁వార్షికోత్సవ	-10.7266
▁కాండిల్	-10.7266
▁దుమ్ము	-10.7266
▁నడుప	-10.7267
▁ఎవని	-10.7269
భరిత	-10.727
▁రెట్లు	-10.7272
పూర్తి	-10.7274
▁తీసుకురా	-10.7289
▁ప్రాతినిధ్యం	-10.7291
▁ప్రతిపాదన	-10.7291
▁సాంద్రత	-10.7291
▁భూభాగం	-10.7293
▁నేర్చుకోవడం	-10.7294
▁గ్లూ	-10.7297
▁పూరించ	-10.7297
▁చెయ్యడానికి	-10.7301
▁తినడం	-10.7305
▁యంత్రాల	-10.7312
▁వరద	-10.7316
▁యొర్దాను	-10.7317
▁దేవదూత	-10.7317
▁పెట్టుబడిదారుల	-10.7323
▁ఆహ్వానించ	-10.7328
#	-10.733
చేసెను	-10.733
▁క్రిమి	-10.7333
▁సందర్శకులు	-10.7335
▁స్థాపించబడిన	-10.7335
▁నిషేధ	-10.7341
▁మనుష్యుని	-10.7343
▁సోమవారం	-10.7343
▁ఇబ్బందుల	-10.7343
▁సీయోను	-10.7344
▁కావడం	-10.735
▁కరుణ	-10.7351
▁అనుమతించే	-10.7351
▁అనుకూలీకరించ	-10.7355
▁ఎదుర	-10.7357
▁MP	-10.7363
▁భావిస్తున్నాను	-10.7369
▁సంకర్షణ	-10.7369
▁సరస్సు	-10.737
▁విభాగాల	-10.7373
▁రోమ్	-10.7375
▁బాడీ	-10.7377
▁కుమారుడగు	-10.7377
▁అండర్	-10.7378
▁లీడ్	-10.7379
▁నివారించడానికి	-10.7384
▁అవకాశ	-10.7385
▁విస్తారమైన	-10.7385
▁ఆకృతీకరించ	-10.7396
▁యాంత్రిక	-10.7396
▁యేసుక్రీస్తు	-10.7396
▁అంతర్నిర్మిత	-10.7396
▁అంతిమ	-10.7397
▁free	-10.74
▁నేర్చుకున్న	-10.7407
▁విస్తృతమైన	-10.7408
▁వైద్యులు	-10.7415
wo	-10.7417
▁గుర్త	-10.7417
▁కలుగజేస	-10.7418
▁అరుదుగా	-10.7422
▁నైలాన్	-10.7422
▁కౌంటీ	-10.7422
▁ప్రతినిధి	-10.7422
▁రైళ్లు	-10.7429
▁pri	-10.7435
150	-10.7438
▁గంటల్లో	-10.7441
▁స్థానాలు	-10.7446
▁నీళ్ల	-10.7447
▁సూత్రాల	-10.7451
▁700	-10.7454
▁PRO	-10.7457
▁టేక్	-10.7458
▁తిరు	-10.746
▁చేసాడు	-10.7469
▁చక్రాల	-10.7473
▁విచ్ఛిన్నం	-10.7475
2000	-10.748
▁చేరుకుంది	-10.748
▁విజ్ఞాన	-10.7485
▁లావాదేవీల	-10.7487
▁తెలుసుకోవాలి	-10.7487
lash	-10.7495
టికల్	-10.7498
▁టెంప్లేట్	-10.7501
మృగ	-10.7502
▁కోడె	-10.7503
▁భయంకరమైన	-10.7503
▁స్థిరత్వం	-10.7506
7.1	-10.7507
▁రీడర్	-10.7511
ref	-10.7518
▁2002	-10.7523
▁చక్కగా	-10.7523
ఫీల్డ్	-10.7524
▁తుది	-10.7525
the	-10.7527
▁సవరణ	-10.7528
యుండగా	-10.7532
▁సాధ్యమే	-10.7535
▁కోరుకుంటారు	-10.7558
="0.1	-10.7572
▁జోడించడానికి	-10.7577
▁ఏర్పాట్లు	-10.7581
▁కూరగాయల	-10.7581
▁ట్రాన్స్ఫార్మర్	-10.7581
▁మల్టీమీడియా	-10.7581
▁గుమ్మము	-10.7582
▁ఇవ్వగలరు	-10.7584
▁రూపాయల	-10.7588
▁వివరిస్తుంది	-10.7589
▁నేర్చుకో	-10.7594
▁ప్రోత్సాహ	-10.7608
▁మసాజ్	-10.7608
▁పరిహార	-10.7609
టువంటి	-10.761
▁జనన	-10.7612
▁స్వయం	-10.7617
▁బానిస	-10.7618
▁మాట్లాడారు	-10.7635
▁డైరెక్టరీ	-10.7635
▁బలోపేతం	-10.7635
▁గులాబీ	-10.7635
▁యాసిడ్	-10.7635
▁విడిపించ	-10.7638
▁కరిగి	-10.7639
="16	-10.7639
lf	-10.764
▁అధ్యయనాలు	-10.765
ipp	-10.7651
▁కనిపించింది	-10.7652
నాశన	-10.7658
▁ప్రేరేపించ	-10.7662
▁ముగిసిన	-10.7662
▁డ్రమ్	-10.7662
▁స్తుతించ	-10.7662
▁మరణించిన	-10.7666
▁చౌకగా	-10.7668
5.0	-10.7678
▁పక్షులు	-10.7683
▁ముగిసింది	-10.7689
▁వృత్తిపరమైన	-10.769
▁నిర్ధారిస్తుంది	-10.7691
▁దుకాణాలు	-10.7691
▁కలుగు	-10.7693
7.5	-10.7699
ade	-10.7708
▁వ్రాసిన	-10.7709
▁ఆచరణాత్మక	-10.7716
▁మనుష్యుడు	-10.7716
▁వేరియబుల్	-10.7716
▁సమూయేలు	-10.7716
▁స్క్రోల్	-10.7717
▁చెయ్యగలరు	-10.7718
▁పెన్నీ	-10.7734
▁నాలుక	-10.7737
తరువాత	-10.7739
▁హాజరు	-10.7742
▁అసిటేట్	-10.7743
▁ఆదివారం	-10.7743
▁csgo	-10.7743
▁టోఫు	-10.7746
▁కావలి	-10.7749
▁గొట్టం	-10.7749
▁ఓవెన్	-10.7751
▁పక్షి	-10.7752
▁పెంచడం	-10.7754
▁ముక్కు	-10.7754
ునుగాక	-10.7757
type	-10.7767
▁మెత్త	-10.7768
సంఖ్య	-10.7769
▁అధ్యాపక	-10.7771
▁అనుచరులు	-10.7771
▁చెల్లుబాటు	-10.7771
▁ప్రోటోకాల్	-10.7771
▁చాక్లెట్	-10.7771
▁మోయాబు	-10.7771
▁సమతుల్య	-10.7771
▁త్యాగం	-10.7771
▁మృతి	-10.7771
▁వ్యాస	-10.7775
▁దుర్మార్గ	-10.7775
▁విషయాన్ని	-10.7775
▁చేస్తున్నా	-10.7777
రెస్ట్	-10.7788
▁షాన్డాంగ్	-10.7798
▁మనోహరమైన	-10.7798
▁మిక్కిలి	-10.7798
▁సీనియర్	-10.7798
▁ఫారమ్	-10.7798
ధ్ధ	-10.7799
board	-10.7801
▁డిస్కు	-10.7802
▁అందరికీ	-10.7803
▁ఉంచుతారు	-10.7804
▁సౌకర్య	-10.7805
కామర్స్	-10.7806
సన్న	-10.7811
ముధీరిన	-10.7825
▁ఉమ్మడి	-10.7825
▁ప్రావిన్స్	-10.7825
▁వచ్చుచున్న	-10.7828
▁బ్రూ	-10.784
▁అందరు	-10.7846
▁1:2	-10.785
▁నిర్వహించండి	-10.7851
▁రైతు	-10.7852
▁ఎదుర్కో	-10.7853
▁గోల్డెన్	-10.7853
▁మంచం	-10.7853
వశ	-10.7854
▁అంతకంటే	-10.7855
▁సృష్టిస్తుంది	-10.7857
▁క్రాక్	-10.7858
▁నిర్వహించిన	-10.7861
థో	-10.7863
▁విమానాలు	-10.7871
▁ఎరుగ	-10.7874
▁చెట్లు	-10.7875
▁ఆరోపణ	-10.788
▁కెనడియన్	-10.788
▁ITIL	-10.7881
▁రిటర్న్	-10.7881
▁సరళమైన	-10.7881
xbet	-10.7885
▁స్కూ	-10.7887
▁డైనింగ్	-10.7887
▁sub	-10.7893
▁స్టార్టర్	-10.7901
▁అష్షూరు	-10.7908
▁Bonus	-10.7908
▁సారాంశం	-10.7908
▁నారింజ	-10.7908
▁అధికారుల	-10.7908
▁డెస్క్	-10.7909
గ్రామ్	-10.7911
▁have	-10.7911
▁సుఖ	-10.7914
▁అర్పింప	-10.7914
▁జంతువు	-10.7918
▁అభిమానులు	-10.7918
ాహార	-10.7926
▁పనుల	-10.7927
కైనను	-10.7928
▁రాజా	-10.7931
GenericName	-10.7936
▁సరికొత్త	-10.7936
▁పేర్కొన	-10.7936
▁ఉత్సవ	-10.7936
▁శీతాకాలంలో	-10.7936
zhou	-10.7937
▁కేకలు	-10.7937
▁భావిస్తున్నారు	-10.7939
ునిగా	-10.7946
▁చెబుతా	-10.7952
ium	-10.7953
oth	-10.7957
▁ఎలక్ట్రికల్	-10.7963
▁కంప్రెషర్	-10.7963
▁రిజిస్ట్రేషన్	-10.7963
▁విసర్జ	-10.7964
▁అపరాధ	-10.7964
▁లోపలికి	-10.7968
▁అదృశ్య	-10.7969
పడ్డాడు	-10.7971
▁కంప్యూట	-10.7975
▁మినహాయించ	-10.7977
▁Photo	-10.7986
▁భవిష్యత్	-10.799
▁అంతేకాకుండా	-10.7991
▁పండ్రెండు	-10.7991
▁ఉపాధి	-10.7991
▁డెబిట్	-10.7991
▁పానీయం	-10.7992
▁ఆవరణ	-10.7993
▁చార్ట్	-10.7994
▁కొమ్ము	-10.801
lit	-10.8013
▁అమ్మకాల	-10.8014
▁స్క్రిప్ట్	-10.8019
▁సిరామిక్	-10.802
ాలనుకుంటున్నారా	-10.8023
▁నివసించే	-10.8024
▁కాలువ	-10.8029
▁యుందు	-10.8033
పరుస్తుంది	-10.8041
విధంగా	-10.8042
▁కార్యక్రమ	-10.8044
▁సుగంధ	-10.8047
▁ఛార్జీలు	-10.8047
దేవుడు	-10.8052
shop	-10.8062
In	-10.8073
▁తిరగ	-10.8077
▁అభిమాని	-10.8078
▁మిస్టర్	-10.8081
▁అభ్యర్థించ	-10.8082
page	-10.8083
▁కోరుకుంటున్నారు	-10.809
USD	-10.8097
▁బాబు	-10.81
ుచున్నావు	-10.8102
▁ఆటోమొబైల్	-10.8104
▁యోవాబు	-10.8104
▁ఆర్ఫెక్	-10.8104
▁నమ్మదగిన	-10.8107
▁చీట్స్	-10.8109
▁ప్రాప్తి	-10.811
▁రథము	-10.8112
▁సందర్భ	-10.8115
▁ఉన్నట్లయితే	-10.8123
▁ముగ్గురు	-10.8132
▁ఆల్బమ్	-10.8132
▁క్రికెట్	-10.8133
6.2	-10.8134
ఖ్య	-10.8135
▁చూడగలరు	-10.8136
ేశ్వర	-10.8137
▁కలుప	-10.8139
▁12:1	-10.8152
భో	-10.8153
="14	-10.8157
▁సూట్	-10.8157
▁మరియొక	-10.8159
▁దుర్వినియోగ	-10.816
▁నిర్మాత	-10.816
▁కండర	-10.8161
▁అవసరమైతే	-10.8161
▁తిరుగుతోంది	-10.8161
▁ఏమైనా	-10.8161
▁ఫుడ్	-10.8161
▁వ్యక్తం	-10.8162
1,000	-10.8167
హర్	-10.8175
▁వాస్తు	-10.8177
▁Zipper	-10.8189
▁జెనరేటర్	-10.8189
▁మధ్యాహ్న	-10.8189
▁హిజ్కియా	-10.8189
▁భక్తి	-10.8189
0.4	-10.8193
▁రిటైల్	-10.8197
▁హాజర	-10.8199
▁తెరువ	-10.8199
▁టైటిల్	-10.8205
emp	-10.821
▁గై	-10.8211
$1	-10.8216
▁స్పెసిఫికేషన్	-10.8217
▁వ్యాధుల	-10.8219
గ్రఫీ	-10.8219
▁10:1	-10.8219
book	-10.8223
▁యెరూషలేమునకు	-10.8225
long	-10.8225
▁స్తంభము	-10.823
▁నిర్ణయాలు	-10.8234
▁ఫ్లా	-10.8236
మణి	-10.8236
▁ఇంగ్లాండ్	-10.8246
▁ద్రాక్షారసము	-10.8246
▁పాక్షిక	-10.8246
▁చెయ్యండి	-10.8246
▁పెదవుల	-10.8247
▁పరుగులు	-10.8264
▁నోట	-10.8267
▁ఆబ్జెక్ట్	-10.8274
▁ఇండియన్	-10.8274
▁నైపుణ్యాలను	-10.8274
స్ట్రో	-10.8283
మైతే	-10.8288
▁ట్రాక్టర్	-10.8299
▁క్లియర్	-10.8303
▁జరిగాయి	-10.8303
▁ఎవరో	-10.8304
▁యాజకులు	-10.8308
▁సమాధానాలు	-10.831
▁నవీకరించ	-10.8328
డెర్	-10.8329
▁పంక్తులు	-10.8332
▁ఛార్జర్	-10.8332
▁సర్వీసు	-10.8332
▁విమానాల	-10.8357
శాస్త్ర	-10.836
▁ఉంటుందని	-10.8361
▁థియేటర్	-10.8361
▁కాంగ్రెస్	-10.8361
▁స్వచ్ఛంద	-10.8361
video	-10.8363
Indian	-10.8371
బడుతున్న	-10.8375
▁నవల	-10.8375
▁బ్రెజిల్	-10.839
▁మెషినరీ	-10.839
▁ఫ్రాంక్	-10.839
▁వయోజన	-10.839
▁రిపోర్ట్	-10.84
▁చూశా	-10.8407
▁వాడే	-10.841
దేవి	-10.8411
▁ఆర్కైవ్	-10.8417
▁కన్వేయర్	-10.8419
▁సమ్మేళనం	-10.8419
▁స్క్రాప్	-10.8419
▁కన్స	-10.8419
▁ఎడ్జ్	-10.8419
▁కోల్పోయిన	-10.8422
▁ఆకర్ష	-10.8429
▁తరలించడానికి	-10.8442
▁గణాంకాలు	-10.8446
▁సామ్రాజ్య	-10.8448
▁పోర్టల్	-10.8448
▁మారుతున్న	-10.8449
▁ఫిష్	-10.8451
సార్లు	-10.8452
Pro	-10.8458
▁అవకాశాన్ని	-10.8461
▁లక్ష్యాలను	-10.8462
▁లాభ	-10.8473
0.7	-10.8475
▁ఆటోమోటివ్	-10.8477
▁మనష్షే	-10.8477
pdf	-10.8477
▁ప్రవర్తించ	-10.8478
▁స్పిన్	-10.8492
ప్రారంభ	-10.8494
▁నడుము	-10.85
▁1999	-10.8501
▁ట్రీ	-10.8502
▁ఢిల్లీ	-10.8506
▁అవుట్డోర్	-10.8506
▁పురాణ	-10.8507
▁బోల్ట్	-10.8507
▁ప్రాకారము	-10.851
▁లెక్కింపు	-10.8512
▁రాష్ట్రాల	-10.8512
▁అనువైన	-10.8512
▁జెండా	-10.8514
▁హెల్త్	-10.8515
▁చిహ్నాలు	-10.8518
▁గొఱ్ఱ	-10.8532
0.5	-10.8533
▁నడిపించ	-10.8534
▁టాగ్	-10.8535
బ్లె	-10.8535
▁PTFE	-10.8536
▁రొమ్ములు	-10.8536
▁సమన్వయ	-10.8536
▁URL	-10.8536
▁కావాలా	-10.8536
▁టెస్టర్	-10.8542
▁సమూహాలు	-10.8544
▁పత్రికా	-10.8549
▁గర్వంగా	-10.8554
▁సీలింగ్	-10.8557
▁దేశమునకు	-10.8557
▁థెరపీ	-10.8565
▁లాకెట్టు	-10.8565
▁ఫ్లోరింగ్	-10.8568
UP	-10.8575
▁విభజించబడింది	-10.8575
▁ఆదేశించ	-10.859
▁యింట	-10.8594
▁సులభతరం	-10.8595
▁క్షేమ	-10.8596
▁టెండర్	-10.86
▁పనులను	-10.8618
▁లాభాల	-10.8621
other	-10.8623
▁అలవాటు	-10.8625
▁విధేయ	-10.8625
▁గ్రె	-10.8626
▁సంస్కృత	-10.8627
Com	-10.8628
▁Air	-10.8643
▁అన్వేషణ	-10.8644
వీర్య	-10.8647
▁అభ్యర్థుల	-10.8654
▁ఫ్యాక్స్	-10.8654
▁సస్పెన్షన్	-10.8654
ాధిపతుల	-10.8655
▁హ్యూ	-10.8655
▁గొంతు	-10.8655
▁యేలీయుల	-10.8655
▁బ్రిటన్	-10.8657
▁పార్కింగ్	-10.866
కూడా	-10.8663
▁అయింది	-10.8666
oto	-10.8675
కూర	-10.8679
▁ఇన్సులేషన్	-10.8684
▁కవరేజ్	-10.8684
▁మొదలవుతుంది	-10.8684
▁జాక్పాట్	-10.8684
▁నైతిక	-10.8684
▁గుర్ర	-10.8685
▁రూపొందించినవారు	-10.869
▁జగన్	-10.8691
▁నడిప	-10.8693
▁పెరగడం	-10.8694
▁3.0	-10.8701
▁పతనం	-10.8702
ఫార్మ	-10.8703
▁రండి	-10.8708
▁పంపిణీదారు	-10.8709
meth	-10.871
▁రికార్డర్	-10.8714
▁వచ్చాయి	-10.8714
▁ట్రయల్	-10.8717
▁పశు	-10.8719
▁ప్రయాణికుల	-10.872
▁ఫ్లవర్	-10.8723
▁స్థానాల	-10.8729
▁2:2	-10.8732
▁వస్తే	-10.8733
▁కన్వర్	-10.874
▁వాగ్దాన	-10.8743
▁అభిలాషి	-10.8744
▁శస్త్రచికిత్స	-10.8744
▁ఫ్యాన్	-10.8745
▁సంసార	-10.8747
coin	-10.8763
▁నిరోధించడానికి	-10.8765
ాసన	-10.8765
▁పదార్థ	-10.877
▁మరుగు	-10.8774
▁టెలివిజన్	-10.8774
▁తేలికగా	-10.8774
▁నికో	-10.8774
▁గుండా	-10.8779
▁చున్నాను	-10.8786
▁రతి	-10.879
▁పథక	-10.8792
▁భవన	-10.8803
▁పన్నెండు	-10.8805
▁మన్నికైన	-10.8805
▁యూనివర్శిటీ	-10.8805
▁వ్యవహార	-10.8805
▁గ్రహీత	-10.8805
▁చైర్	-10.8805
▁ప్రింటర్	-10.8805
▁మాత్రలు	-10.8806
▁రుచికరమైన	-10.8807
▁దీవించ	-10.8808
▁చుక్క	-10.8809
ney	-10.8811
నుకుంటున్నా	-10.882
▁హైపర్	-10.8825
▁వినబడ	-10.8831
▁కాంక్రీటు	-10.8835
▁సోదరి	-10.8835
సూచి	-10.884
▁చీఫ్	-10.8852
▁నడవ	-10.8855
▁బల్ల	-10.886
నైపుణ్య	-10.8861
▁నియమాల	-10.8864
▁ఇండస్ట్రియల్	-10.8865
▁తేలికపాటి	-10.8865
▁పెళ్ళి	-10.8865
కందరికి	-10.8866
▁షూటింగ్	-10.8872
స్వామి	-10.8878
▁చేతిలోనుండి	-10.8881
▁గుహ	-10.8891
యుండిరి	-10.8892
▁పునరుత్పత్తి	-10.8896
▁ఫ్లూట్	-10.8896
▁తమిళ	-10.8896
▁యేలిన	-10.8896
▁రోటరీ	-10.8903
▁గుర్తుంచుకోండి	-10.8906
▁అహీ	-10.892
కొనుడి	-10.8943
గుదురు	-10.8943
▁చూపిస్తున్న	-10.8945
▁నిశ్చయ	-10.8948
▁వాహనాలు	-10.8954
▁డెవలప్మెంట్	-10.8957
▁ప్లాట్ఫారమ్	-10.8957
▁సెప్టెంబరు	-10.8957
▁సేంద్రీయ	-10.8957
▁ప్రదర్శిస్తుంది	-10.8957
▁భూగర్భ	-10.8957
▁ఎఫ్రాయిము	-10.8957
▁అరుదైన	-10.8957
▁చెర్రీ	-10.8957
▁స్కోర్	-10.8959
▁ఆల్ఫా	-10.8962
▁ఓటు	-10.8963
▁వెళ్లగొట్ట	-10.8964
▁స్లా	-10.8967
▁ఉత్పాదకత	-10.8974
INE	-10.8982
▁month	-10.8988
▁ఇన్వెస్ట్	-10.8988
▁యెషయా	-10.8988
back	-10.8989
▁అసలైన	-10.899
▁ఫైళ్లను	-10.899
tory	-10.8994
▁అసాధారణమైన	-10.9011
bet	-10.9016
▁మార్చబడింది	-10.9018
▁మరమ్మతు	-10.9019
▁అనిపిస్తుంది	-10.9019
▁గ్రిడ్	-10.9019
▁సమర్పణ	-10.9021
▁శక్తుల	-10.9024
▁కొంతకాలం	-10.9024
▁డ్యూటీ	-10.9027
▁దహనబలి	-10.905
▁కలిగే	-10.905
zz	-10.9051
▁item	-10.9053
▁తగిలి	-10.9054
▁8:1	-10.9055
▁కావాలని	-10.9057
▁రాక్షస	-10.9058
▁నిలుప	-10.9064
కారుల	-10.9079
▁ఉత్పన్న	-10.9081
▁నిర్దోష	-10.9081
▁అస్థిర	-10.9081
బోర్డు	-10.9081
▁నివారించేందుకు	-10.9085
▁నుంచ	-10.9089
నియంత్రించడానికి	-10.9089
oot	-10.909
ీయేలు	-10.9098
▁CPA	-10.9102
▁సింహాసనము	-10.9112
▁బొగ్గు	-10.9112
▁అసమాన	-10.9112
▁మేరకు	-10.9113
▁పాదముల	-10.9125
▁చెయ్యాలి	-10.913
▁ఆహ్లాదకరమైన	-10.9143
▁క్లెయిమ్	-10.9143
▁ప్రతిరోజూ	-10.9143
▁ప్రతిష్ఠిత	-10.9143
▁స్వీడన్	-10.9143
▁మార్గదర్శకాలు	-10.9145
రాష్ట్ర	-10.9147
▁భాగస్వాముల	-10.9148
▁అందిస్తున్నాయి	-10.9149
▁కదిల	-10.915
▁సమస్తమును	-10.9155
="0.2	-10.9157
▁అవసరాల	-10.916
▁రావడం	-10.9162
▁పుష్కలంగా	-10.9174
▁వినూత్న	-10.9174
▁ఛాంపియన్	-10.9174
▁అవ్వండి	-10.9186
UI	-10.9202
▁యువకులు	-10.9208
▁తెలుసుకున్న	-10.9209
వేసెను	-10.921
▁కోల్పోతారు	-10.9212
▁పూర్త	-10.9216
="2.9	-10.9219
▁చెబుతారు	-10.922
▁హేతు	-10.9221
link	-10.9221
▁+86	-10.9222
▁సిద్ధపరచ	-10.9225
▁నరుల	-10.9232
▁అలంకార	-10.9237
▁ల్యాబ్	-10.9238
▁లెదర్	-10.924
▁చేసుకునే	-10.9242
▁3:2	-10.9248
▁వెల్లడించ	-10.925
▁రాశారు	-10.9251
▁సూర్యుని	-10.9262
▁సిండ్రోమ్	-10.9269
▁డిటెక్టర్	-10.9269
▁పేలుడు	-10.927
star	-10.9271
▁పులి	-10.9274
▁నిశ్చ	-10.9278
▁గోత్ర	-10.9285
▁ఖాతాదారుల	-10.9291
▁అభ్యర్థి	-10.9293
▁గుళిక	-10.9301
▁మునిగి	-10.9301
▁మృతుల	-10.9301
▁కిడ్స్	-10.9303
▁చేసుకొ	-10.9304
▁పట్టించుకో	-10.9308
▁రేసింగ్	-10.931
▁ఐడియా	-10.9311
▁అధ్యయన	-10.9312
▁వనరు	-10.9316
▁త్వర	-10.9322
శతాబ్ద	-10.9331
▁ఎగ్జిబిషన్	-10.9333
▁వర్చువల్	-10.9333
▁హైదరాబాద్	-10.9333
▁యూరప్	-10.9333
▁ప్రమాదకరమైన	-10.9336
esh	-10.9336
▁పర్యవేక్షించ	-10.9341
▁వృక్ష	-10.935
బియన్	-10.9351
న్నిటిని	-10.9353
▁చెవిపోగులు	-10.9365
▁జెజియాంగ్	-10.9365
▁గిలాదు	-10.9365
▁తెలుస్తుంది	-10.9365
▁ఇంకొక	-10.9366
▁China	-10.9366
▁నడక	-10.9366
▁PARK	-10.9372
tting	-10.9375
▁జరుగుతున్న	-10.9377
▁పరికరములు	-10.9379
XXX	-10.9379
▁ఇవ్వబడుతుంది	-10.9387
6.1	-10.9388
▁లెటర్	-10.9394
▁బంగారము	-10.9397
▁క్రాఫ్ట్	-10.9398
lip	-10.94
▁ప్రేమిస్తున్నా	-10.9403
▁రెండుసార్లు	-10.9404
ుకోవాలని	-10.9405
▁సమయానికి	-10.9423
▁దాడుల	-10.9427
▁వర్గీకరణ	-10.9429
▁తోడుకొని	-10.9429
▁మెరుపు	-10.9429
▁విడువ	-10.943
▁మరోవైపు	-10.9432
▁మిత్ర	-10.9432
▁బ్లాండ్	-10.9435
▁ఆమోద	-10.9455
▁సిగ్గు	-10.9455
▁అరణ్యములో	-10.9459
▁ఉత్తేజ	-10.946
▁కంచె	-10.946
TRANSCO	-10.9461
▁నిమిషం	-10.9461
▁సింథటిక్	-10.9461
▁గుఱ్ఱము	-10.9461
▁మురికి	-10.9461
▁క్రేన్	-10.9461
▁కాలేయ	-10.947
▁పాడై	-10.9472
xml	-10.9472
దగ్గర	-10.949
▁లయ	-10.9491
▁తీసుకువచ్చ	-10.9491
▁చేసికొని	-10.9493
▁RFID	-10.9493
మవుతాయి	-10.9494
▁విరోధముగా	-10.9499
▁అవకాశాలను	-10.9499
ఆమె	-10.9502
బడ్డాడు	-10.9503
▁యాక్షన్	-10.9504
num	-10.9504
▁టీవీ	-10.9507
▁స్థానము	-10.9509
▁విమానాశ్రయ	-10.9524
▁తాళ	-10.9526
▁Teltonika	-10.9526
▁సిల్వర్	-10.9526
▁హాస్య	-10.9526
▁ఖనిజ	-10.9528
▁బ్రాడ్	-10.9528
ello	-10.9534
ెక్కి	-10.9537
▁హెచ్చ	-10.9538
▁పోషించ	-10.954
ఇదిగో	-10.9544
▁సేఫ్	-10.9552
code	-10.9558
▁ప్రెసిషన్	-10.9558
▁థామస్	-10.9558
▁పూజారి	-10.9559
▁కూర్చున్న	-10.9559
▁అప్లోడ్	-10.956
▁సులభ	-10.9563
▁పద్యం	-10.9565
bra	-10.9566
బడుతున్నాయి	-10.9573
▁యుల	-10.9574
శ్రమ	-10.9575
▁వెళుతుంది	-10.9591
▁రివార్డ్	-10.9591
▁Play	-10.9592
▁ఉపయోగపడుతుంది	-10.9596
▁చేతుల్లో	-10.9596
బడని	-10.9599
▁ధన్య	-10.96
▁game	-10.96
▁తెగులు	-10.9608
▁ప్రఖ్యాత	-10.9624
▁వాలెంటైన్	-10.9624
▁కాథలిక్	-10.9624
▁వ్యభిచార	-10.9624
▁దొరిక	-10.9624
▁తరపున	-10.9624
▁మర్చిపోతే	-10.9626
▁వంటకాలు	-10.9627
▁నిన్న	-10.9637
ందరూ	-10.9648
="2.8	-10.9652
▁నిర్లక్ష్య	-10.9657
▁మిళితం	-10.9657
▁ఇండోర్	-10.9657
▁దిక్కు	-10.9658
▁రంధ్రం	-10.9659
▁భక్తుల	-10.9659
▁చట్టాల	-10.966
ెదనని	-10.9663
▁చంద్రుడు	-10.9665
▁చెందుతున్న	-10.9676
ఋ	-10.9689
▁పనిచేశారు	-10.969
▁చేసేటప్పుడు	-10.969
▁ఎదుర్కొంటున్న	-10.969
▁సామాన్య	-10.969
▁జేబు	-10.969
▁ప్రదేశాల్లో	-10.9695
**	-10.9696
▁బాధపడుతున్న	-10.9697
▁దండు	-10.9701
▁was	-10.9706
ననియు	-10.9708
▁హోదా	-10.971
▁పాకెట్	-10.9711
▁వర్ణించ	-10.9715
2,000	-10.9716
transposh	-10.9723
▁ఔత్సాహిక	-10.9723
▁చెబుతుంది	-10.9723
▁ప్రూఫ్	-10.9723
="3.9	-10.9723
ెలవిచ్చునదేమనగా	-10.9724
▁ఫ్రంట్	-10.9727
▁నిర్దేశ	-10.9736
▁వెబ్క్యామ్	-10.9756
▁సర్వస్వామ్య	-10.9756
▁హిస్టరీ	-10.9756
▁పూర్తయిన	-10.9758
▁రోలింగ్	-10.9776
▁సదుపాయాల	-10.9789
▁సర్టిఫైడ్	-10.9789
▁స్లయిడ్	-10.9789
▁త్రవ్వ	-10.979
▁జీతం	-10.979
▁గేజ్	-10.9791
▁స్థిరపరచ	-10.9803
▁టైల్స్	-10.9805
8.3	-10.9808
▁మొఱ్ఱపెట్ట	-10.9823
▁బ్రాకెట్	-10.9823
▁బల్బ్	-10.9823
▁ఉపగ్రహ	-10.9827
▁ప్రింట్	-10.9831
row	-10.9837
ఉచిత	-10.9843
▁గుంట	-10.9844
▁డిసెంబరు	-10.9856
▁పెండ్లి	-10.9857
▁పదార్ధం	-10.9857
▁టీచర్	-10.9865
▁సకల	-10.9867
మార్గము	-10.9871
ెన్సీ	-10.9884
▁Qingdao	-10.989
▁తొమ్మిది	-10.989
▁ఫ్లెక్సి	-10.989
▁తేలికైన	-10.989
▁రేంజ్	-10.9891
▁నెరవేర	-10.9892
▁నమ్ముతారు	-10.9893
▁నిర్ణయించుకుంది	-10.9893
cket	-10.9899
▁నిర్వాహకులు	-10.9908
▁అసాధ్యం	-10.9924
▁ఐగుప్తీయుల	-10.9924
▁ట్యుటోరియల్	-10.9924
▁గోల్ఫ్	-10.9924
▁డిస్నీ	-10.9925
▁గిఫ్ట్	-10.9926
▁కూర్చు	-10.9934
▁కలరింగ్	-10.994
ింతురు	-10.9945
వైద్య	-10.9953
▁విజయవంతం	-10.9954
▁ఉల్లంఘన	-10.9958
▁పరివర్తన	-10.9958
▁మిక్సర్	-10.9958
VAC	-10.997
select	-10.9974
156	-10.9977
▁దురదృష్టవశాత్తు	-10.9992
▁క్షీణించ	-10.9992
▁తండ్రుల	-10.9992
▁స్ట్రోక్	-10.9993
▁బర్నింగ్	-10.9997
▁వైఫై	-11
5.2	-11.0003
్యాస	-11.0003
▁మోల్డ్	-11.0009
అతను	-11.0022
▁అలెర్జీ	-11.0026
▁క్రిస్టియన్	-11.0026
▁మిర్రర్	-11.0026
▁సహేతుకమైన	-11.0026
▁వైద్యుడిని	-11.0026
ాలనుకునే	-11.0027
▁జన్యు	-11.0028
▁more	-11.0031
▁హీటర్	-11.0037
▁బ్రదికి	-11.0041
▁నూలు	-11.0041
▁చేరుకున్న	-11.0043
▁నగరాల	-11.0049
Manufacturer	-11.006
▁వుపయోగించ	-11.006
▁ఆఫీసర్	-11.006
▁ODM	-11.006
▁గొఱ్ఱపిల్ల	-11.0061
▁గడప	-11.0062
▁ఉద్దేశించిన	-11.0069
▁ఆలోచ	-11.007
▁5.5	-11.0079
▁పెరిగి	-11.0088
▁ఎప్పటికప్పుడు	-11.0095
▁యోనాతాను	-11.0095
▁నిర్మూలము	-11.0095
▁ఫెమ్మే	-11.0095
▁పరిమళ	-11.0095
▁భూకంప	-11.0095
▁నగరాల్లో	-11.0104
కాలమందు	-11.0111
▁మాట్లాడుతున్న	-11.0116
▁కన్య	-11.0123
▁4:2	-11.0129
▁Deposit	-11.0129
▁కెమికల్	-11.0129
▁డ్రగ్	-11.0129
trans	-11.0133
▁చిత్రీకరించ	-11.0133
▁ఇంజన్	-11.0135
▁comp	-11.0142
కారులు	-11.0143
9.1	-11.0163
people	-11.0164
▁ఇస్సాకు	-11.0164
▁అభిషేక	-11.0164
▁జరుపుకుంటారు	-11.0165
▁సామాను	-11.0166
▁టాయ్	-11.0176
▁నటన	-11.0177
వృక్షము	-11.018
రాజ్య	-11.0189
▁సిగ్గుపడ	-11.0189
▁3.5	-11.0195
▁మరణించ	-11.0197
▁అకౌంట్	-11.0198
▁ఫ్యాబ్రిక్	-11.0198
▁సప్లిమెంట్	-11.0198
▁స్పాంజ్	-11.0199
▁డ్రాగన్	-11.0199
▁ధాతు	-11.0199
▁గైకొన	-11.0199
▁కనికర	-11.0201
▁Comments	-11.0201
▁ఆల్టో	-11.0214
ింతును	-11.0219
▁నరక	-11.0225
▁కెటగిరీలు	-11.0233
▁కెపాసిటర్	-11.0233
▁ప్రైవేటు	-11.0233
▁రియాలిటీ	-11.0233
▁దహన	-11.0234
COM	-11.0247
▁sl	-11.0253
▁కాల్షియం	-11.0268
▁ఛార్జింగ్	-11.0268
▁భరోసా	-11.0268
▁సోడియం	-11.0268
▁పోలీస్	-11.0269
▁దృఢమైన	-11.0269
▁సేవకుడు	-11.0269
▁గాలన్	-11.0269
▁వాదించ	-11.027
ఆయన	-11.0271
▁గిన్నె	-11.0271
▁అంకారా	-11.0272
▁కోరుకునే	-11.0276
duct	-11.0277
2.7	-11.0278
count	-11.0287
train	-11.0288
▁7:2	-11.0299
▁October	-11.0303
▁label	-11.0303
▁ఎడ్యుకేషన్	-11.0303
▁ఒరాకిల్	-11.0303
search	-11.0304
▁కవచ	-11.0304
▁స్ట్రిప్పింగ్	-11.0305
▁పిలుపు	-11.0305
▁బిల్డర్	-11.031
▁నేనె	-11.0337
▁కలుషిత	-11.0338
▁బట్వాడా	-11.0338
▁బిగ్గరగా	-11.0338
▁డైమండ్	-11.0339
▁పాఠ్య	-11.034
▁ప్రేమికుల	-11.0346
▁సంతోషిస్తున్నా	-11.0352
▁5:2	-11.0372
£	-11.0373
▁అలసట	-11.0374
▁నాణ్యమైన	-11.0374
▁రాజస్థాన్	-11.0374
="3.8	-11.0374
స్థితి	-11.0374
ాధిపతి	-11.0376
▁స్ట్రె	-11.0377
▁నిర్ణయించబడతాయి	-11.0381
▁అల్లిక	-11.0383
ough	-11.0391
▁సన్నిధి	-11.0395
▁ఫొటో	-11.0409
▁మెక్సికో	-11.0409
▁పెళ్లి	-11.0409
▁ఏలీయా	-11.041
="3.0	-11.041
▁నూట	-11.0421
▁అదృష్ట	-11.0429
▁తత్వ	-11.0438
▁చెదరగొట్ట	-11.0445
▁క్లీనింగ్	-11.0445
▁గ్రౌండింగ్	-11.0445
▁జోర్డాన్	-11.0445
▁పరిగణనలోకి	-11.0445
▁మ్యూజియం	-11.0445
▁సామూహిక	-11.0445
▁ఇష్యూ	-11.0445
▁కచేరీ	-11.0445
▁పాతిపెట్ట	-11.0445
▁యీలాగు	-11.0447
6.6	-11.0463
సంవత్సర	-11.048
▁అబ్ర్రేట్	-11.0481
▁ల్యాప్టాప్	-11.0481
▁సాంఘిక	-11.0481
▁పరుగెత్త	-11.0481
▁స్టోరీ	-11.0481
▁నీతిమంతుల	-11.0482
NAME	-11.0482
▁పడగొట్ట	-11.0489
▁వధించ	-11.0494
షింగ్	-11.0495
▁వెల్లడి	-11.0503
▁తప్పనిసరి	-11.0513
▁తెల్లబడటం	-11.0516
▁విడ్జెట్	-11.0516
▁వృధా	-11.0516
▁తుప్పు	-11.0517
▁ఏబది	-11.0517
="1.7	-11.0517
▁ప్రతివాడును	-11.0518
▁ఆప్టిక్	-11.0519
కపోయినా	-11.0528
▁శుద్ధ	-11.053
▁పెరగ	-11.0548
▁ప్రెసిడెంట్	-11.0552
▁ప్లాట్ఫాం	-11.0552
▁విపరీత	-11.0552
▁తృప్తి	-11.0552
Ltd	-11.0554
రంధ్ర	-11.0555
▁సౌండ్	-11.0562
8.5	-11.0564
▁తరహా	-11.0568
ుతుంద	-11.0583
▁Archives	-11.0588
▁గమ్యస్థాన	-11.0588
▁జీవనశైలి	-11.0588
▁రక్తపోటు	-11.0588
▁అథ్లెట్	-11.0589
▁మాథ్యూ	-11.0589
▁వేదాంత	-11.0589
▁హెయిర్	-11.0589
▁రచించ	-11.059
▁ఆక్రమించ	-11.0605
▁అనారోగ్య	-11.0606
లేకపోయింది	-11.0618
▁ఇంటీరియర్	-11.0625
▁సిఫారసు	-11.0625
▁భక్తిహీనుల	-11.0625
▁జోక్యం	-11.0625
బిలిటీ	-11.0625
▁అయ్యో	-11.0625
▁0086-	-11.0625
▁ఆలోచిస్తూ	-11.0626
వ్యవస్థ	-11.0629
▁స్టాటిక్	-11.0633
▁జతచేయ	-11.0647
▁కౌంట్డౌన్	-11.0661
▁వృద్ధాప్య	-11.0661
▁ఇస్లాం	-11.0661
▁మూసివేసే	-11.0661
▁ఐదవ	-11.0661
▁ఫైనల్	-11.0663
▁ఎవరికీ	-11.0671
▁***	-11.0671
ఇశ్రాయేల	-11.0679
▁శనివారం	-11.0698
▁స్థూల	-11.0698
▁నైవేద్యము	-11.0698
▁ఉపన్యాస	-11.0698
▁విలక్షణ	-11.0698
▁వదిలే	-11.0698
▁స్కోరు	-11.0699
▁రోజూ	-11.0701
ావళి	-11.0702
▁రబ్	-11.0703
▁కోరుతూ	-11.0703
▁నడుచుకొన	-11.072
▁చొప్పించ	-11.0734
▁ప్రతిఘటన	-11.0734
▁విముక్తి	-11.0734
▁సామెత	-11.0734
▁స్పార్క్	-11.0735
="1.8	-11.0735
▁స్తోత్ర	-11.0735
▁మౌంటు	-11.0737
▁జరిప	-11.0749
▁అడవుల	-11.0758
▁రీసైక్లింగ్	-11.0771
▁TabletWise	-11.0771
▁చేసుకోవాలి	-11.0771
▁MUM	-11.0771
▁ఎనేబుల్	-11.0771
▁మర్యాద	-11.0771
▁ప్రాంతానికి	-11.0771
▁సంచరించ	-11.0773
house	-11.0776
▁6:2	-11.0796
భారత	-11.0798
▁అధిరోహించ	-11.0808
▁ఆప్టిమైజేషన్	-11.0808
▁క్లీనర్	-11.0808
▁పారామితులను	-11.0808
▁ఆచరణలో	-11.0808
▁టాయిలెట్	-11.0808
▁గరిష్ఠ	-11.0808
▁కేరళ	-11.0808
▁విధాలుగా	-11.0808
ject	-11.0822
▁వదులు	-11.0826
▁యెరూష	-11.0844
▁కాలిక్యులేటర్	-11.0845
▁నెదర్లాండ్స్	-11.0845
▁రిసార్ట్	-11.0845
▁కాలిఫోర్నియా	-11.0845
▁టూత్	-11.0845
▁తీస్తుంది	-11.0845
▁షధం	-11.0846
▁వార్తల	-11.085
అవుట్	-11.0852
దంతయు	-11.087
Unlimited	-11.0882
▁పునర్వినియోగ	-11.0882
▁కిటికీ	-11.0882
▁వెతుకుతున్న	-11.0883
▁రెసిన్	-11.0887
▁who	-11.0893
▁వచ్చుట	-11.0913
▁ఇశ్రాయేలీ	-11.0918
▁TollywoodTimes	-11.0919
▁చురుకైన	-11.0919
▁పిరమిడ్	-11.0919
▁సూచిస్తారు	-11.0919
▁ఎత్తైన	-11.0919
▁రుణదాత	-11.0919
▁ఏశావు	-11.0919
▁కోల్పోయింది	-11.092
▁నడుస్తుంది	-11.092
▁సక్రియం	-11.092
▁టెక్నిక్	-11.0921
▁నిర్బంధ	-11.0922
▁గణాంకాల	-11.0924
దృఢ	-11.0928
▁Download	-11.0957
▁నావిగేషన్	-11.0957
▁సదుపాయం	-11.0957
▁రివర్స్	-11.0957
▁సిస్టం	-11.0958
▁గౌరవించ	-11.0963
="2.7	-11.0967
▁క్రై	-11.0972
▁శుభ	-11.0975
▁12:2	-11.0984
క్రిప్ట	-11.0985
▁ప్రదేశము	-11.0985
▁యూనివర్స్	-11.0994
▁దర్శకుడు	-11.0994
▁ఫిల్మ్	-11.0995
▁షరతుల	-11.1005
ాధార	-11.1024
▁తీసుకొ	-11.1024
▁చట్టబద్ధమైన	-11.1032
▁సమర్ధ	-11.1032
▁కల్పిస్తుంది	-11.1033
▁ట్రావెల్	-11.1034
▁దుష్	-11.1036
▁జరుగుతాయి	-11.1036
ature	-11.1046
8.0	-11.1068
sitemap	-11.107
▁ఎంబ్రాయిడరీ	-11.107
▁విఫలమైంది	-11.1071
▁లిఫ్ట్	-11.1076
▁స్వభావ	-11.1083
▁HTML	-11.1108
▁గిరిజన	-11.1108
▁ఫార్ములా	-11.1108
▁మెరుగుపర్చ	-11.1108
▁ప్రదాత	-11.1108
▁బాధితుల	-11.1115
▁16:1	-11.1127
▁Comp	-11.1132
▁ఎగ్జిక్యూటివ్	-11.1146
▁వీలైనంత	-11.1146
▁స్థిరపడ	-11.1147
▁వెళ్ళిపోయాడు	-11.1148
▁ప్రయోగాత్మక	-11.1148
▁నిర్వహిస్తారు	-11.115
▁ప్రవహించ	-11.1172
▁శుభ్రపరచడం	-11.1185
KChar	-11.1185
▁బ్యాలెన్స్	-11.1185
▁కమాండ్	-11.1185
ుచుండిరి	-11.1188
▁ఆశీర్వదించ	-11.1191
▁విచారించ	-11.1206
▁యిండ్ల	-11.1212
▁షోమ్రోను	-11.1223
▁ప్రతిపాదించ	-11.1223
▁వ్యవస్థాపక	-11.1223
▁పరాక్రమ	-11.1223
▁ద్రాక్షతోట	-11.1223
▁అసూయ	-11.1223
▁సొమ్ము	-11.1226
▁block	-11.1227
▁సందర్శకుల	-11.1235
▁వైవిధ్యం	-11.1241
ative	-11.1257
▁యరొబాము	-11.1262
▁వ్యాప్తంగా	-11.1262
▁పరిచర్య	-11.1262
▁క్యాంపస్	-11.1262
▁బ్రేకింగ్	-11.1262
▁వ్రాత	-11.1262
▁దురద	-11.1262
▁శాస్త్రవేత్త	-11.1263
5.00	-11.1277
▁ఎడాప్టర్	-11.13
▁అల్లాహ్	-11.13
▁ఆభరణాల	-11.13
▁టెన్నిస్	-11.13
▁కిచెన్	-11.1301
పోవుదురు	-11.1304
▁తెలుప	-11.132
బడుతోంది	-11.1334
▁టన్ను	-11.1337
8.2	-11.1338
▁అప్రమేయ	-11.1339
▁బెదిరింపు	-11.1339
▁మౌలిక	-11.1339
▁గ్రంధ	-11.134
="4.0	-11.134
▁దూడ	-11.1341
apio	-11.1366
7.0	-11.1371
▁పారిపోయి	-11.1374
Cryptocurrencies	-11.1378
నరపుత్రుడా	-11.1378
▁అకస్మాత్తుగా	-11.1378
▁ఉక్రేనియన్	-11.1378
▁ముడతలు	-11.1378
▁అమేజింగ్	-11.1378
▁SKU	-11.1378
▁తుఫాను	-11.1378
▁about	-11.1378
▁పరిశుద్ధాత్మ	-11.1382
▁జనులందరు	-11.1384
▁నియమింప	-11.1392
QShortcut	-11.1418
▁దీవెన	-11.1418
▁మెగ్నీషియం	-11.1418
▁సమ్మేళనాల	-11.1418
▁సైన్యములకధిపతియ	-11.1418
▁బిందువు	-11.1418
▁వైఖరి	-11.1418
▁పాఠాలు	-11.1419
7.2	-11.1425
6.3	-11.1432
▁నిర్దేశించ	-11.1449
▁9:2	-11.145
▁ఎదుర్కొంట	-11.1457
డ్మినిస్ట్రేషన్	-11.1457
▁బోనసెస్	-11.1457
▁విసుగు	-11.1457
▁మార్టిన్	-11.1463
ుడనై	-11.1466
▁మినహా	-11.1478
▁అబ్షాలోము	-11.1496
▁యాక్రిలిక్	-11.1496
▁KTM	-11.1497
▁CPU	-11.1497
▁పేపాల్	-11.1497
▁కొలిచే	-11.1497
▁ఉద్భవించ	-11.1497
▁లేఅవుట్	-11.15
▁నడిచే	-11.15
5.6	-11.1526
▁ఐక్య	-11.1529
▁ప్రతినిధులు	-11.1536
▁వాయిదా	-11.1536
▁కనుగొనడంలో	-11.1537
▁పుచ్చుకొన	-11.1537
▁తీసుకుంటుంది	-11.1541
▁కనాను	-11.1543
ఫోర్డ్	-11.1545
€	-11.1567
▁వ్యవహర	-11.1567
▁ధర్మశాస్త్ర	-11.1569
▁ఆప్టిమైజ్	-11.1576
▁రిలీజ్	-11.1576
▁మడత	-11.1577
▁పుత్ర	-11.1587
https	-11.1608
▁స్కై	-11.161
ధెంగడమ్	-11.1616
▁అస్పష్ట	-11.1616
▁క్రమశిక్షణ	-11.1616
▁ఫైనాన్షియల్	-11.1616
▁మంగళవారం	-11.1616
▁వ్యత్యాసం	-11.1616
▁జ్యోతి	-11.1616
▁నలువది	-11.1616
▁నిరాకరించ	-11.1616
▁ఇంటెల్	-11.1616
▁రోజాలు	-11.1616
▁కనిష్ట	-11.1617
▁జీర్ణ	-11.1617
▁కొనసాగుతున్న	-11.1619
▁సింక్	-11.1621
▁ప్రభావిత	-11.1633
లందరును	-11.1648
▁సంరక్షించ	-11.1649
▁రథ	-11.1653
▁మైఖేల్	-11.1656
▁సర్వీసెస్	-11.1656
▁స్వాతంత్ర్య	-11.1656
▁ముప్పై	-11.1656
▁అహాబు	-11.1656
▁ప్రెజర్	-11.1656
▁వెంచర్	-11.1656
▁రిజల్యూషన్	-11.1696
ాభివృద్ధి	-11.1697
▁పూర్తయింది	-11.1697
▁స్వీడిష్	-11.1697
▁సర్కిల్	-11.1697
▁చేసుకుంటా	-11.1699
▁ఆస్తులు	-11.1699
▁హీరోయిన్	-11.1699
soft	-11.1701
▁మరమ్మత్తు	-11.1737
▁వుడ్విండ్	-11.1737
▁బైబిలు	-11.1737
▁ఎల్లప్పుడు	-11.1737
▁సంపన్న	-11.1737
▁ప్రదేశ్	-11.1738
కొద్దీ	-11.1738
▁Cheat	-11.1739
▁హానికరమైన	-11.174
▁బాడీబిల్డర్	-11.1778
▁జరుగుతుందో	-11.1778
▁రెట్టింపు	-11.1778
▁వెళ్తున్నారు	-11.1778
▁మనుగడ	-11.1778
▁సుజుకి	-11.1778
▁హిందూ	-11.1778
▁AUD	-11.1778
▁ఆస్ట్రియా	-11.1778
2.8	-11.1797
▁వేతన	-11.1814
▁September	-11.1818
▁exactspy	-11.1818
▁చూద్దాం	-11.1818
▁ఇటుక	-11.1819
▁సోర్స్	-11.182
▁సహోదరుని	-11.182
▁పొడిగించ	-11.1828
▁పీల్చ	-11.1852
▁ఆస్ట్రేలియన్	-11.1859
▁Holmbygden	-11.1859
▁తెలుస్తోంది	-11.1859
▁రూఫింగ్	-11.1859
▁ఆసక్తికరంగా	-11.1859
▁హాలిడే	-11.1859
▁కారణమవుతుంది	-11.1861
▁ఉపసంహరించ	-11.1862
▁ఉపకరణాల	-11.1875
9.5	-11.1892
▁ఉద్యమ	-11.1897
▁Enterprise	-11.1901
▁ఏదేమైనా	-11.1901
▁ప్లగిన్	-11.1901
▁ట్రాన్స్మిషన్	-11.1901
▁శిబిరాల	-11.1901
▁ఉపకరణం	-11.1901
▁ఎన్నడూ	-11.1902
▁ఓర్ఫిక్	-11.1903
▁వెతుకు	-11.1903
▁పరుగుల	-11.1908
matic	-11.1928
="2.2	-11.1941
▁దేశస్థుడు	-11.1942
హాంకాంగ్	-11.1942
▁కల్దీయుల	-11.1942
▁చ్యాగ్స్యూ	-11.1942
▁సంకోచించకండి	-11.1942
▁విద్యార్ధి	-11.1942
▁రిజర్వు	-11.1942
▁అయ్యింది	-11.1942
▁Stator	-11.1945
▁స్వింగ్	-11.1948
▁స్పెక్	-11.1958
కొనుచున్న	-11.1961
అధిక	-11.1961
▁దీన	-11.1962
▁14:2	-11.1965
="2.6	-11.1979
▁విస్మరించ	-11.1983
▁విస్తీర్ణం	-11.1983
▁స్టూడెంట్	-11.1983
▁పిలిచే	-11.1983
▁ఆరాధన	-11.1984
Super	-11.1989
▁సిలువ	-11.1999
="2.0	-11.2
▁బాప్టిజం	-11.2025
▁మ్యూచువల్	-11.2025
▁కొంచెము	-11.2025
▁ధ్రువీకరణ	-11.2026
▁జ్యూ	-11.2028
▁అద్దం	-11.2028
6.9	-11.2048
▁పేర్ల	-11.2052
▁ఆటంక	-11.2061
▁జాయింట్	-11.2067
▁ఎలీషా	-11.2067
▁మార్జిన్	-11.2067
▁వెలుపలికి	-11.2067
▁ఆరాధించ	-11.2067
▁పురస్కార	-11.2068
▁ఉత్తేజకరమైన	-11.2068
Plus	-11.2073
▁Chrome	-11.2109
▁అల్పాహారం	-11.2109
▁ఎక్స్ఛేంజ్	-11.2109
▁ఎవడైనను	-11.2109
▁కనిపిస్తోంది	-11.2109
▁దోపిడీ	-11.2109
▁ద్రావణ	-11.2109
▁నెట్వర్కింగ్	-11.2109
▁నోటిఫికేషన్	-11.2109
▁యూదారాజైన	-11.2109
▁స్పెక్ట్రమ్	-11.2109
▁గర్భవతి	-11.2109
▁పిమ్మట	-11.2109
▁విపత్తు	-11.2109
▁హెన్రీ	-11.2109
నారాయణ	-11.2111
5.4	-11.2144
▁ధూళి	-11.2151
▁పెంపకం	-11.2151
▁గలిలయ	-11.2151
▁సేవకుడైన	-11.2151
travel	-11.2152
▁పవన్	-11.2153
ుడవు	-11.216
▁కుమ్మరి	-11.2174
▁ఉద్దేశించబడింది	-11.2193
mAh	-11.2194
▁స్థానానికి	-11.2194
వారలారా	-11.2194
▁టార్క్	-11.2197
మొదటి	-11.22
లార్డ్	-11.2206
▁World	-11.2236
▁unicode	-11.2236
▁ప్రొడక్షన్	-11.2236
▁మెరుగ్గా	-11.2236
▁సామర్ధ్యాల	-11.2236
▁ఆపరేట్	-11.2236
▁ఫోరమ్	-11.2236
="4.8	-11.2236
▁తాపన	-11.2237
▁కర్మాగార	-11.2254
▁పగడాల	-11.2257
ాయువు	-11.2258
▁అక్టోబరు	-11.2279
▁ఎలివేటర్	-11.2279
▁గిడ్డంగి	-11.2279
▁ప్రౌఢ	-11.2279
▁సముదాయ	-11.2279
▁ధ్రువీకరించ	-11.2279
▁కళాకారులు	-11.2279
▁దొరుకు	-11.228
▁అక్కడికి	-11.2281
దృష్టి	-11.2286
▁ఉత్పాదక	-11.2298
7.6	-11.2308
Trans	-11.2317
▁గాడ్జెట్	-11.2322
▁అసోసియేట్	-11.2322
▁చికెన్	-11.2322
▁రోగనిరోధక	-11.2322
▁పూజారులు	-11.2322
▁ఛాంబర్	-11.2324
▁13:2	-11.2335
▁ఆలోచిస్తున్న	-11.2357
▁నిమిషము	-11.2365
▁Posted	-11.2365
▁శామ్యూల్	-11.2365
▁స్టీరియో	-11.2365
▁పిస్టన్	-11.2365
="4.9	-11.2365
▁GBP	-11.2365
▁వెర్రి	-11.2366
▁ప్రతిఫల	-11.2366
▁ట్యూన్	-11.2369
వద్దని	-11.2384
ుకొంట	-11.2393
▁Bluetooth	-11.2408
▁Ethereum	-11.2408
▁TRANSLATORS	-11.2408
▁అభ్యంతర	-11.2408
▁మేనేజింగ్	-11.2408
▁టోకెన్	-11.2408
▁సంచలన	-11.2408
="1.6	-11.2409
సైకిల్	-11.242
దేవుని	-11.2432
▁అమ్మోనీయుల	-11.2452
▁వెనక్కి	-11.2452
▁క్లీన్	-11.2452
▁ద్రోహ	-11.2452
▁నీడిల్	-11.2453
▁సెకన్ల	-11.2469
దేవత	-11.2474
▁పర్యవేక్ష	-11.2478
▁ఉత్ప్రేరక	-11.2495
▁నాగరికత	-11.2495
▁స్వచ్ఛత	-11.2495
▁హైబ్రిడ్	-11.2495
లాజికల్	-11.2495
▁జన్మించాడు	-11.2498
▁వంపు	-11.25
గృహ	-11.2509
▁బాలుడు	-11.2511
▁Metatrader	-11.2539
▁కేసినోలు	-11.2539
▁క్యాబినెట్	-11.2539
▁స్పృహ	-11.2539
▁షార్ట్	-11.254
▁సంరక్షక	-11.2541
▁గొట్టాలు	-11.2542
▁ప్రతిష్ఠించ	-11.2542
▁కోణాల	-11.2551
▁వాహక	-11.2566
routes	-11.2583
▁అసిస్టెంట్	-11.2583
▁నిబద్ధత	-11.2583
▁ప్రత్యుత్తర	-11.2589
ర్జున	-11.2609
▁11:3	-11.2624
▁ఇంటిగ్రేటెడ్	-11.2627
▁పిలవబడే	-11.2627
▁లైసెన్సు	-11.2627
▁స్పెషల్	-11.2627
▁అభినందిస్తున్నా	-11.2627
▁ఖ్యాతి	-11.2627
▁చాప్టర్	-11.2627
▁రౌటర్	-11.2628
▁Video	-11.265
▁చిహ్న	-11.2664
▁అంశాన్ని	-11.2672
▁ఉల్లంఘించ	-11.2672
▁కవాటాలు	-11.2672
▁యాజకుడైన	-11.2672
▁శ్రేష్ఠ	-11.2672
▁నాలుగవ	-11.2672
▁ప్రాచీన	-11.2672
▁తలెత్త	-11.2684
\\\\	-11.2716
▁టార్గెట్	-11.2716
▁నవంబరు	-11.2716
▁పేర్కొంది	-11.2716
▁ఫ్రెండ్లీ	-11.2716
▁యూట్యూబ్	-11.2716
▁నాల్గవ	-11.2716
Query	-11.2717
▁ఇన్వర్టర్	-11.2717
xxx	-11.2717
▁అంగీకరిస్తా	-11.2717
టోకియో	-11.2718
ుకోవటం	-11.2722
ప్రసాద	-11.2735
▁ఆటగాళ్ల	-11.2736
▁Copyright	-11.2761
▁బ్రౌజ్	-11.2761
▁ప్రసరణ	-11.2761
▁ప్రథమ	-11.2763
▁తులముల	-11.2772
▁రక్షింప	-11.2787
▁ఆకస్మిక	-11.2806
▁దశాబ్దాల	-11.2806
▁అణిచివేత	-11.2806
▁థర్మల్	-11.2806
▁సెట్టింగులు	-11.2806
▁పనిచేస్తాయి	-11.2806
▁రిజర్వ్	-11.2806
▁సుదూర	-11.2806
▁CBD	-11.2807
ెవరు	-11.2832
▁ఎన్టీఆర్	-11.2852
▁తలనొప్పి	-11.2852
▁ఘోర	-11.2852
హెబ్రీయుల	-11.2852
▁ముంబై	-11.2852
▁లీనియర్	-11.2852
▁ఆఖరి	-11.2852
▁బాంబు	-11.2854
▁మేగాన్	-11.2854
▁వెంకట	-11.2858
▁గదుల	-11.2893
▁తాకిన	-11.2896
▁క్లుప్త	-11.2897
▁కలిగెను	-11.2897
▁క్వార్టెట్	-11.2897
▁సీక్రెట్	-11.2897
▁ల్యాండింగ్	-11.2897
5.5	-11.2935
▁గ్వంగ్స్యూ	-11.2943
▁చేసుకుంది	-11.2943
▁వ్యక్తీకరణ	-11.2943
▁యాంకర్	-11.2943
▁కంపన	-11.2944
కలిగి	-11.2977
▁ఎంచుకొ	-11.2982
▁Concox	-11.2989
▁కాన్సెప్ట్	-11.2989
▁విరమణ	-11.2989
▁వాపసు	-11.2989
▁పరిమాణాన్ని	-11.2989
▁1:3	-11.2998
ైజ్డ్	-11.3016
Electronic	-11.3035
▁February	-11.3035
▁గూఢచారి	-11.3035
▁ద్రవ్యరాశి	-11.3035
▁నలభై	-11.3035
▁బుధవారం	-11.3035
▁బెల్జియం	-11.3035
▁drug	-11.3035
▁నిలకడ	-11.3035
▁అంతరిక్ష	-11.3035
▁రంధ్రాలు	-11.3035
▁ప్రవచనము	-11.3036
▁నేసిన	-11.3036
▁యురొ	-11.3037
పాయింట్	-11.3065
ుకుందాం	-11.307
▁మెజారిటీ	-11.3081
▁సంశ్లేషణ	-11.3081
▁ప్రతిచోటా	-11.3081
▁ఎనర్జీ	-11.3081
▁నోకియా	-11.3081
▁యార్క్	-11.3089
డౌన్	-11.3091
▁కనుపరచ	-11.3096
ైయుండి	-11.3105
చివరి	-11.3112
హృదయ	-11.3113
▁అనవసర	-11.3116
▁ఒంటరి	-11.312
▁సెలవిచ్చు	-11.3126
orphek	-11.3127
▁యాక్సెసరీస్	-11.3127
▁ZLP	-11.3128
▁బ్రేకర్	-11.3128
▁అవతల	-11.3132
▁రంగస్థల	-11.3133
▁మిగుల	-11.3142
▁కెరూబు	-11.3174
▁జనసమూహము	-11.3174
▁బెన్యామీను	-11.3174
▁బ్లైత్	-11.3174
▁లోదుస్తులు	-11.3174
▁short	-11.3174
▁పోషిస్తుంది	-11.3174
▁మధ్యవర్తి	-11.3174
▁మిక్సింగ్	-11.3174
▁like	-11.3175
▁8:2	-11.3196
మాత్రమే	-11.3208
▁కూర్చొని	-11.3221
▁ప్రాంగణంలో	-11.3221
▁విధ్వంస	-11.3221
▁వైమానిక	-11.3221
▁వ్యూహాత్మక	-11.3221
▁బొత్తిగా	-11.3221
▁హెక్టార్ల	-11.3221
క్రిప్షన్	-11.3221
▁BSF	-11.3221
▁NYE	-11.3221
▁FOB	-11.3222
▁Auto	-11.3228
▁అణచ	-11.3231
▁ఇంటరాక్టివ్	-11.3268
▁ఎవరికైనా	-11.3268
▁ప్రభావవంతంగా	-11.3268
▁ప్రొపియోనేట్	-11.3268
▁భయభక్తులు	-11.3268
▁తల్లులు	-11.3268
▁స్మైల్	-11.3268
▁థాయ్	-11.3269
▁గమ్యం	-11.3269
▁వేడుకొన	-11.328
▁కాంక్రీట్	-11.3316
▁విలాసవంతమైన	-11.3316
▁సమర్ధవంతంగా	-11.3316
▁నమి్మ	-11.3316
మొడ్ఢ	-11.3316
▁సూచక	-11.3317
తంత్ర	-11.3325
▁పసికందు	-11.3363
▁కవాసకీ	-11.3363
▁వినైల్	-11.3364
▁ప్రవహ	-11.338
డబ్ల్యు	-11.3411
▁ఎక్సేంజ్	-11.3411
▁FREE	-11.3411
▁ఆకట్టుకునే	-11.3411
▁బెంచ్	-11.3412
▁ఉపయోగించాలో	-11.3413
టైటిల్ను	-11.3436
▁చిల్లర	-11.3449
▁అభ్యసన	-11.3459
▁గంభీర	-11.3459
▁ఘర్షణ	-11.3459
▁బాడీబిల్డింగ్	-11.3459
▁వార్తాపత్రిక	-11.3459
▁గుర్తుంచుకోవాలి	-11.3459
▁స్పూన్	-11.3459
▁ఎరువులు	-11.346
▁గ్రూపు	-11.346
ానుసారం	-11.3463
▁పనిచేస్తు	-11.3463
▁వినిపించ	-11.3469
▁Outlook	-11.3508
▁అల్టిమేట్	-11.3508
▁క్షమాపణ	-11.3508
▁ట్రెన్బోలోన్	-11.3508
▁ఫ్యాకల్టీ	-11.3508
▁సీతాకోకచిలుక	-11.3508
▁స్లైడింగ్	-11.3508
▁విశిష్ట	-11.3508
▁యిద్దరు	-11.3508
▁సప్లై	-11.3508
▁కార్పెట్	-11.3508
▁ఫార్మసీ	-11.3508
▁పెంపొందించ	-11.3508
▁సారూప్య	-11.3508
▁నర్సింగ్	-11.3508
▁సీమోను	-11.3508
▁చొక్కా	-11.3512
▁ఆచరించ	-11.3547
▁నేపధ్య	-11.3556
▁Transposh	-11.3556
▁ఆటోమేటెడ్	-11.3556
▁కాన్ఫిగర్	-11.3556
▁ఫిన్సర్వ్	-11.3556
▁ఫెస్టివల్	-11.3556
▁మనస్తత్వ	-11.3556
▁రాజ్యాంగ	-11.3556
▁కురిపించ	-11.3556
▁రాబర్ట్	-11.3556
▁దెబ్బతిన్న	-11.3557
▁ప్రార్థించ	-11.3558
ుడవై	-11.3588
▁నాయకుల	-11.3595
▁తెలపండి	-11.3605
▁నాండ్రోలోన్	-11.3605
▁నైట్క్లబ్ల	-11.3605
▁మూర్ఖ	-11.3605
▁మిగతా	-11.3605
▁జబ్బు	-11.3605
▁రావడానికి	-11.3606
▁పాఠకుల	-11.3609
▁విదేశీయుల	-11.3633
▁శీతాకాల	-11.3654
▁అకాడమీ	-11.3654
▁అల్గోరిథం	-11.3654
▁డ్రిల్లింగ్	-11.3654
▁ధూమపానం	-11.3654
▁పర్ఫెక్ట్	-11.3654
▁యెహోషాపాతు	-11.3654
▁పరిరక్షణ	-11.3654
▁ఉపకరణము	-11.3654
షైజైయాస్వ్యాంగ్	-11.3703
▁అనధికార	-11.3703
▁నత్రజని	-11.3703
▁నిలుపుదల	-11.3703
▁కింగ్డమ్	-11.3703
▁మోల్డింగ్	-11.3703
▁ప్రోగ్రాం	-11.3703
▁అంతరాయం	-11.3703
help	-11.3745
పరిపక్వ	-11.3752
▁త్రైమాసిక	-11.3753
▁కొవ్వొత్తి	-11.3753
▁తటస్థ	-11.3753
▁దర్యాప్తు	-11.3753
▁బ్లైండ్	-11.3753
▁బలవంతంగా	-11.3753
▁రెసిపీ	-11.3753
▁మేధో	-11.3753
▁శోషణ	-11.3753
▁ఇన్ఫర్మేషన్	-11.3802
▁ఖైదీ	-11.3802
▁డాక్యుమెంటేషన్	-11.3802
▁నిరీక్షణ	-11.3802
▁డయోడ్	-11.3802
▁కాపురముండ	-11.3802
▁ఇమేజ్	-11.3803
▁బిజీగా	-11.3803
▁ప్రాంతాన్ని	-11.3803
▁అనామక	-11.3804
రీతిగా	-11.3826
ification	-11.3852
▁సార్వత్రిక	-11.3852
▁గవర్నర్	-11.3852
▁అరేబియా	-11.3852
▁పరోక్ష	-11.3853
▁ఊపిరి	-11.3853
▁ఇఫ్కో	-11.3853
hangeset	-11.3903
▁క్లినికల్	-11.3903
▁దేశవ్యాప్తంగా	-11.3903
▁పెప్టైడ్	-11.3903
▁National	-11.3903
▁ఇన్స్ట్రుమెంట్	-11.3903
▁విమోచన	-11.3903
▁ఫిట్టింగ్	-11.3903
▁తిమోతి	-11.3903
▁Tech	-11.3903
▁ప్రభావము	-11.3903
▁కెపాసిటీ	-11.3953
▁భౌగోళిక	-11.3953
▁వేధింపు	-11.3953
▁స్ట్రీమ్	-11.3953
▁స్నాప్	-11.3953
▁అమాయక	-11.3953
▁వ్యాఖ్యానించ	-11.3954
బ్లాక్	-11.396
▁ప్రసవ	-11.3962
ుకొంటిని	-11.3985
▁inmenu	-11.4004
▁అమోరీయుల	-11.4004
▁అసౌకర్య	-11.4004
▁ఎపిసోడ్	-11.4004
▁పోర్ట్ఫోలియో	-11.4004
▁ఇండెక్స్	-11.4004
▁ఐశ్వర్య	-11.4004
▁రెండువందల	-11.4004
▁వశ్యత	-11.4004
▁Prime	-11.4004
▁(2015)	-11.4004
▁పగుళ్లు	-11.4004
▁DRK	-11.4004
నివ్వండి	-11.4004
▁Queclink	-11.4055
▁జ్యేష్ఠ	-11.4055
▁డ్రీం	-11.4055
▁కాన్వాస్	-11.4055
▁ఆదరణ	-11.4055
తెలుగు	-11.4063
▁లీటర్ల	-11.4064
3,000	-11.4105
▁కమర్షియల్	-11.4106
▁నమస్కారము	-11.4106
▁యాధృచ్ఛిక	-11.4106
▁స్కాట్లాండ్	-11.4106
▁డ్యాన్స్	-11.4106
▁మెయిలింగ్	-11.4106
▁అనలాగ్	-11.4106
▁దొంగిలించ	-11.4107
▁అమర్పు	-11.4107
▁ఎదుర్కొన్న	-11.4107
----	-11.4112
▁హెబ్రోను	-11.4158
▁అడిగారు	-11.4158
▁రమ్మీ	-11.4158
▁ఇద్దరూ	-11.4158
▁సరిదిద్ద	-11.4158
▁Rikoooo	-11.421
▁బ్లూటూత్	-11.421
▁లిక్విడ్	-11.421
▁వదిలించుకోవటం	-11.421
▁సోవియట్	-11.421
▁నివాసితులు	-11.421
▁వర్తిస్తాయి	-11.421
▁ABS	-11.421
▁zipper	-11.4262
▁ఉద్దీపన	-11.4262
▁ఎదురుచూడండి	-11.4262
▁తీర్చిదిద్ద	-11.4262
▁ఫ్రైడే	-11.4262
▁యాంటెన్నా	-11.4262
▁జెయింట్	-11.4262
▁డెబ్బది	-11.4262
▁పదియవ	-11.4262
JPY	-11.4263
ెవడు	-11.4275
ుతుంటారు	-11.4278
▁అతికించ	-11.4281
▁బిగించ	-11.4284
ొద్దు	-11.429
▁తిరస్కర	-11.431
▁అనుమతించబడ	-11.4312
▁మరణశిక్ష	-11.4314
▁స్కిమ్మెర్	-11.4314
▁నిరుద్యోగ	-11.4314
▁సమాఖ్య	-11.4314
▁స్టాంపింగ్	-11.4314
▁గుండ్రని	-11.4314
watch	-11.4314
▁చట్రం	-11.4314
▁diffuser	-11.4367
▁ఫంక్షనల్	-11.4367
▁మున్సిపాలిటీ	-11.4367
▁శ్రేయస్సు	-11.4367
▁స్మారక	-11.4367
▁లేవనెత్త	-11.4367
▁PHP	-11.4367
▁ATM	-11.4368
▁తెప్పించ	-11.4368
“	-11.4382
కొందును	-11.4395
▁సాక్షుల	-11.4412
▁ఈక్విటీ	-11.442
▁ఉత్తీర్ణ	-11.442
▁చైల్డ్	-11.442
▁ఫెడరల్	-11.442
▁తీసుకురావడానికి	-11.442
▁వైద్యుడికి	-11.442
▁బాల్కనీ	-11.442
▁జాకబ్	-11.442
▁రీతిలో	-11.442
ాశ్రయ	-11.4421
▁మొలకల	-11.4421
▁పాల్గొంట	-11.4465
▁Infinite	-11.4473
▁Litecoin	-11.4473
STORE	-11.4473
▁ప్రేరకం	-11.4473
▁స్టాండర్డ్	-11.4473
▁లెర్నింగ్	-11.4473
▁ఖననం	-11.4473
▁మనుషుల	-11.4474
బడాలి	-11.4478
▁ఆమ్స్టర్డ్యామ్	-11.4526
▁యాంటీవైరస్	-11.4526
▁శూన్య	-11.4526
▁పొట్టేలు	-11.4526
▁హోలోకాస్ట్	-11.4526
▁ఆగ్నేయ	-11.4527
▁రకము	-11.4528
▁చెబుతున్న	-11.4529
▁ఏకాంత	-11.453
▁అబ్బాయి	-11.4556
TSTransco	-11.458
▁నిటారుగా	-11.458
▁స్ట్రీమింగ్	-11.458
▁తెలుసుకోవలసిన	-11.458
▁దరిద్ర	-11.458
▁జెకర్యా	-11.458
▁యాంగిల్	-11.458
▁ఇవన్నీ	-11.458
content	-11.458
▁బేతేలు	-11.458
▁Karn	-11.458
▁విషాద	-11.4581
▁ప్రయాస	-11.4581
ుతుంటే	-11.4628
▁ఆండ్రోజెనిక్	-11.4634
▁కచ్చితంగా	-11.4634
▁రుగ్మత	-11.4634
▁లిథియం	-11.4634
▁జోసెఫ్	-11.4634
▁ఫ్లోరిడా	-11.4634
▁గార్డ్	-11.4634
ుదురని	-11.4637
▁వెనక	-11.465
▁ఆఫ్రికన్	-11.4688
▁ఇన్సూరెన్స్	-11.4688
▁గ్రాన్యులేటర్	-11.4688
▁కన్సల్టెంట్	-11.4688
▁క్లినిక్	-11.4688
▁Machine	-11.4688
▁డేనియల్	-11.4689
▁నేపాల్	-11.4689
▁రిబ్బన్	-11.4689
▁దిగుబడి	-11.4689
—	-11.4713
▁కేబినెట్	-11.4743
▁వారాంతంలో	-11.4743
▁ఆంధ్రప్రదేశ్	-11.4743
▁కలెక్షన్	-11.4743
▁ASTM	-11.4743
▁అన్వయ	-11.4743
▁పునాదుల	-11.4743
▁ప్రతిసారీ	-11.4743
▁అలవాట్ల	-11.4744
▁ఉంగర	-11.4744
తక్కువ	-11.4769
▁ఉగ్రత	-11.4797
▁పాళెము	-11.4798
▁పాశ్చాత్య	-11.4798
▁ర్యాంకింగ్	-11.4798
ratuit	-11.4798
▁ఒలింపిక్	-11.4798
▁ప్రస్తావించ	-11.4798
▁త్రొక్క	-11.4798
▁దీంతో	-11.4799
▁విడిపింప	-11.4799
Time	-11.4801
▁తెలియజెప్ప	-11.4802
ఫ్యాక్టరీ	-11.4826
▁ఒప్పందాల	-11.4829
▁AASraw	-11.4853
▁Messenger	-11.4853
▁{@}	-11.4853
▁అలెగ్జాండర్	-11.4853
‘	-11.553
~	-11.6486
ఞ	-12.0602
ఊ	-12.1282
×	-12.2553
•	-12.429
±	-13.3787
·	-13.4171
©	-13.5423
→	-13.6354
