<unk>	0
<s>	0
</s>	0
.	-3.2849
,	-3.42411
▁	-3.78553
▁మరియు	-4.31749
ను	-4.73057
:	-4.8864
లు	-4.93888
▁ఒక	-5.11242
లో	-5.11933
;	-5.2092
స్	-5.21924
ం	-5.26964
▁మీరు	-5.33246
)	-5.3622
▁ఈ	-5.43563
ని	-5.45385
ల	-5.49184
గా	-5.59144
▁మీ	-5.61572
▁యొక్క	-5.62741
▁(	-5.64304
ము	-5.66405
కు	-5.68119
▁-	-5.70162
-	-5.70263
▁కోసం	-5.76747
▁లో	-5.86281
▁&	-5.888
తో	-5.89739
▁నేను	-5.93832
న	-5.96022
▁ఆ	-5.97715
▁లేదా	-5.99906
▁ఇది	-6.06831
▁ఉంది	-6.0741
ు	-6.07604
▁నుండి	-6.08803
?	-6.09369
క	-6.10162
లను	-6.12707
gt	-6.13175
▁మా	-6.17499
▁నా	-6.20964
s	-6.22846
ి	-6.23559
త	-6.2515
▁/	-6.27468
న్	-6.28234
క్	-6.30179
▁మేము	-6.35254
"	-6.35443
ర్	-6.37437
▁"	-6.4038
▁వారు	-6.43813
ట్	-6.45011
▁ద్వారా	-6.4576
రి	-6.48771
▁1	-6.50226
కి	-6.51303
▁చాలా	-6.51779
వ	-6.52233
ాలు	-6.52702
!	-6.56229
▁కూడా	-6.57251
▁అ	-6.57324
▁తో	-6.593
▁అన్ని	-6.60056
▁తన	-6.60283
▁ఏ	-6.60588
▁వారి	-6.61795
ర	-6.61882
డ్	-6.63098
ల్	-6.64751
▁కలిగి	-6.69787
▁అది	-6.70791
ే	-6.7209
▁2	-6.73289
ది	-6.74853
రు	-6.75062
ంగా	-6.75683
▁ఉంటుంది	-6.77854
▁కానీ	-6.81527
యు	-6.82182
ా	-6.82978
మ	-6.83322
ాన్ని	-6.84325
ారు	-6.85987
వి	-6.87547
పు	-6.87872
డం	-6.88365
/	-6.88464
▁న	-6.8888
▁3	-6.89881
ట	-6.89895
▁దాని	-6.90151
య	-6.92071
▁అతను	-6.92478
నా	-6.92492
రా	-6.92756
lt	-6.92881
మైన	-6.93737
▁_	-6.93932
▁గురించి	-6.94898
▁...	-6.95047
▁అని	-6.972
▁ఉన్నాయి	-6.97261
▁ప్రతి	-6.97938
ిన	-6.98323
amp	-6.98788
▁లేదు	-6.99463
డు	-7.00789
▁నీ	-7.02466
డానికి	-7.03849
▁ఆమె	-7.04605
4	-7.04795
గ	-7.0755
▁5	-7.08283
▁కు	-7.08943
మ్	-7.09187
▁ఇతర	-7.09795
డి	-7.1109
"&	-7.11146
▁start	-7.11824
▁dur	-7.12029
నే	-7.12255
టి	-7.12294
ండి	-7.12295
డ	-7.12325
2	-7.12549
ప్	-7.13482
▁పని	-7.14133
▁T	-7.15291
వచ్చు	-7.1635
▁యెహోవా	-7.17048
ప	-7.17306
▁S	-7.17723
▁వద్ద	-7.17956
▁ఉన్న	-7.18137
దు	-7.19562
▁4	-7.20024
లి	-7.21178
▁కాదు	-7.23058
మా	-7.23068
▁కొన్ని	-7.23536
యా	-7.24198
▁వి	-7.24414
▁ఎ	-7.24681
▁అతని	-7.24809
▁వంటి	-7.25154
▁చైనా	-7.25916
లకు	-7.26064
S	-7.26162
లలో	-7.26384
▁ఎలా	-7.26574
▁రెండు	-7.27864
▁ఆయన	-7.29349
ానికి	-7.30577
A	-7.30715
▁ఉత్పత్తి	-7.30909
1	-7.31306
లా	-7.3174
▁తరువాత	-7.31772
D	-7.32588
▁మరింత	-7.32628
మి	-7.33209
▁కా	-7.33303
▁10	-7.33971
సి	-7.34321
B	-7.35044
▁C	-7.35238
కా	-7.35334
▁కొత్త	-7.35721
'	-7.35798
▁A	-7.36605
▁నాకు	-7.37825
3	-7.38108
▁మీకు	-7.38323
▁మంచి	-7.39431
▁క	-7.40223
స	-7.40275
ింది	-7.41036
▁అయితే	-7.41184
▁మ	-7.41456
▁వ	-7.41513
▁అనేక	-7.41879
y	-7.42012
C	-7.42225
▁ఉచిత	-7.43457
▁చేయ	-7.44284
▁చేసిన	-7.44567
▁అవసరం	-7.44691
▁–	-7.4484
▁వాటిని	-7.45615
▁19	-7.45687
▁కాబట్టి	-7.46167
▁అధిక	-7.46235
పై	-7.46313
▁చిన్న	-7.46367
జ్	-7.46552
▁6	-7.46946
వా	-7.47556
▁మాత్రమే	-7.47936
▁P	-7.48989
▁ఉంటే	-7.49932
▁మొత్తం	-7.5005
రీ	-7.50291
ాడు	-7.50372
5	-7.51238
ద	-7.5129
T	-7.516
ాల	-7.52119
▁D	-7.52206
▁వరకు	-7.5284
▁ఇ	-7.53144
▁రా	-7.5321
▁B	-7.5353
▁ఇక్కడ	-7.53547
త్	-7.54852
▁సైట్	-7.55162
▁మొదటి	-7.55211
▁పెద్ద	-7.5608
▁ఇప్పుడు	-7.56231
▁కో	-7.56468
రో	-7.56804
▁ఉత్తమ	-7.57165
▁తిరిగి	-7.58026
▁ఎక్కువ	-7.58371
▁సమయం	-7.58418
M	-7.58601
▁F	-7.58825
▁G	-7.58842
com	-7.60064
▁'	-7.60158
i	-7.61275
వు	-7.61509
▁పేరు	-7.61595
▁ముందు	-7.6199
గ్	-7.62277
▁9	-7.62699
▁చేయడానికి	-7.62766
L	-7.63328
G	-7.6363
▁సి	-7.63825
▁ప	-7.63883
6	-7.64014
ing	-7.6422
▁మధ్య	-7.64292
▁కంటే	-7.64477
▁అప్పుడు	-7.64508
F	-7.6633
m	-7.66457
నీ	-7.6688
▁7	-7.6697
▁తక్కువ	-7.67016
▁అతడు	-7.67389
▁చేయవచ్చు	-7.6753
="	-7.67564
7	-7.68015
ులు	-7.68111
8	-7.6816
▁మీద	-7.683
er	-7.68531
ాలను	-7.68747
▁R	-7.69017
W	-7.69462
▁8	-7.69853
▁దేవుని	-7.70043
▁ధర	-7.7077
mm	-7.71075
▁తర్వాత	-7.7133
బ్	-7.71818
▁పూర్తి	-7.72154
t	-7.72443
p	-7.72904
▁చేయండి	-7.73177
▁మాకు	-7.73382
▁చేస్తుంది	-7.73563
కో	-7.74231
గల	-7.74343
▁ఉంటాయి	-7.74372
▁స	-7.74833
▁ఆన్లైన్	-7.74838
▁M	-7.75045
▁నీవు	-7.75228
▁కేవలం	-7.75316
ఫ్	-7.75429
V	-7.75923
▁వ్యవస్థ	-7.77976
పి	-7.77997
in	-7.78095
▁వివిధ	-7.78141
▁సమయంలో	-7.78418
▁గొప్ప	-7.7864
o	-7.79654
d	-7.79797
యి	-7.80511
▁సాధారణ	-7.80634
బ	-7.80895
ాలి	-7.81087
▁ఏమి	-7.81489
ed	-7.81849
u	-7.81924
▁H	-7.8198
గు	-7.82153
అ	-7.82576
▁సంఖ్య	-7.82669
తి	-7.82806
R	-7.83059
ష్	-7.83228
e	-7.83436
x	-7.83563
వే	-7.83686
లేదు	-7.83711
▁ఫ్యాక్టరీ	-7.8397
▁రోజు	-7.83996
▁ప్రధాన	-7.84314
c	-7.84564
▁మన	-7.84665
వారు	-7.84918
లీ	-7.84937
▁ఒకటి	-7.85076
▁డౌన్లోడ్	-7.85677
▁పై	-7.86164
▁నాణ్యత	-7.86435
▁తమ	-7.86775
▁అభివృద్ధి	-7.86894
P	-7.87065
a	-7.8707
n	-7.87438
బడింది	-7.87607
▁ఆఫ్	-7.87858
జ	-7.87982
▁X	-7.8815
▁E	-7.8851
టర్	-7.88552
▁సేవ	-7.88764
లతో	-7.89023
చ	-7.89314
రే	-7.89581
బడిన	-7.90156
ాయి	-7.91034
▁సంస్థ	-7.91995
%	-7.92587
▁$	-7.92652
▁ఫోన్	-7.92979
▁ఉత్పత్తులు	-7.9306
▁వీడియో	-7.93082
నో	-7.93115
9	-7.93184
ముగా	-7.93298
లే	-7.93341
h	-7.93807
▁రాజు	-7.93983
▁చూడండి	-7.94742
▁బా	-7.94841
▁0	-7.94977
తు	-7.9527
మే	-7.95664
ుడు	-7.95817
N	-7.95862
జి	-7.95915
సు	-7.96157
▁ఎందుకంటే	-7.96169
K	-7.96769
0	-7.97377
an	-7.97732
హ	-7.98016
్	-7.98104
▁20	-7.9817
▁సమాచారం	-7.98202
▁మే	-7.98612
▁ప్రేమ	-7.98676
al	-7.9883
▁అత్యంత	-7.9884
▁18	-7.99096
▁12	-7.99536
ిస్తుంది	-7.99611
”	-7.99836
▁సం	-8.00158
మీ	-8.0037
▁వ్యాపార	-8.01419
▁వారికి	-8.01472
H	-8.01624
ెను	-8.01714
▁ఉ	-8.01724
పో	-8.02402
ును	-8.02823
▁W	-8.02843
▁శక్తి	-8.02856
▁కొనుగోలు	-8.03437
▁V	-8.03449
సా	-8.03562
▁వ్యక్తి	-8.03789
ించ	-8.04002
కే	-8.04032
▁మె	-8.04246
▁మొబైల్	-8.04391
▁ప్రజలు	-8.04529
ుల	-8.05467
▁ఉండాలి	-8.05585
ములు	-8.05688
▁మూడు	-8.05742
స్ట్	-8.05814
బడుతుంది	-8.06425
b	-8.06483
పా	-8.06548
▁కార్	-8.07011
▁K	-8.07019
▁+	-8.07505
▁మద్దతు	-8.07544
▁అందుబాటులో	-8.07583
▁కి	-8.07757
10	-8.08445
▁లేకుండా	-8.08486
▁సంవత్సరాల	-8.08487
▁J	-8.08497
▁ప్రత్యేక	-8.08701
మో	-8.08714
▁15	-8.08753
▁బ	-8.08884
లోని	-8.0916
▁2018	-8.09199
▁“	-8.09872
టం	-8.09979
▁అక్కడ	-8.10025
▁తయారు	-8.10144
టీ	-8.10211
దా	-8.10342
▁రైలు	-8.10599
▁హోమ్	-8.10636
▁హ	-8.11339
▁తయారీదారులు	-8.11345
▁పి	-8.11354
బా	-8.11434
▁11	-8.11706
▁N	-8.12064
▁వెబ్	-8.12179
00	-8.12219
▁పా	-8.12754
ాను	-8.12792
▁అతనికి	-8.12877
▁సరైన	-8.12899
▁L	-8.12911
▁•	-8.13052
le	-8.13171
(	-8.13255
▁వా	-8.13419
యం	-8.13566
▁ఇంకా	-8.13857
▁డి	-8.14015
▁ప్ర	-8.14087
ంది	-8.14126
▁అదే	-8.14236
▁మంది	-8.14935
▁I	-8.15259
▁రంగు	-8.15473
20	-8.16196
▁పో	-8.16344
ట్లు	-8.16548
ష	-8.16749
చే	-8.16763
▁the	-8.16913
k	-8.17038
యో	-8.17309
▁ఎవరు	-8.17654
▁సహాయం	-8.17826
▁లైన్	-8.17897
▁నన్ను	-8.17999
న్న	-8.18041
▁అద్భుతమైన	-8.1843
ప్పుడు	-8.18493
వ్	-8.18559
కీ	-8.18568
en	-8.18716
▁డిజైన్	-8.18748
ణ	-8.19109
or	-8.19448
▁యేసు	-8.19847
ధ	-8.19897
నకు	-8.20039
▁LED	-8.20386
ిక	-8.20965
▁అర్థం	-8.21014
▁సరఫరాదారులు	-8.21226
▁అప్	-8.21238
r	-8.21419
▁ఓ	-8.2155
▁సా	-8.21818
E	-8.22092
మీద	-8.22232
▁వారిని	-8.2227
▁మెషిన్	-8.22646
▁c	-8.23208
▁కంపెనీ	-8.23489
_	-8.23847
▁2019	-8.23866
▁చెప్పారు	-8.23943
▁*	-8.24009
▁సాధారణంగా	-8.24048
f	-8.24387
▁మి	-8.24771
నుండి	-8.25337
l	-8.25401
ల్లో	-8.25472
ిత	-8.25477
▁చేయడం	-8.25676
▁చ	-8.26164
Y	-8.26297
▁చెప్ప	-8.26639
ేందుకు	-8.26761
g	-8.2681
▁బాగా	-8.2718
▁ది	-8.27518
▁a	-8.27596
X	-8.27677
▁బోనస్	-8.27736
▁పోస్ట్	-8.27768
▁ఉన్నప్పుడు	-8.27773
▁రి	-8.27828
▁లా	-8.282
▁సంవత్సరం	-8.28351
▁సాఫ్ట్వేర్	-8.28805
50	-8.28844
▁30	-8.29076
క్స్	-8.29371
▁[	-8.29899
▁ఉపయోగించ	-8.30317
వాడు	-8.30541
▁స్టీల్	-8.30684
▁కాని	-8.30868
▁గ	-8.30949
U	-8.30952
నం	-8.31129
▁మార్గం	-8.31403
ో	-8.31576
▁విధంగా	-8.31838
▁పచ్చబొట్టు	-8.31917
▁చికిత్స	-8.31989
▁24	-8.31993
es	-8.32067
▁in	-8.32169
ండ్	-8.32195
మని	-8.32395
వర్	-8.32529
డా	-8.32853
▁ప్రకారం	-8.32931
▁తండ్రి	-8.33112
ౌ	-8.33242
v	-8.3348
w	-8.33808
▁ఎంపిక	-8.34035
▁తెలుసు	-8.34085
ించి	-8.34086
వారి	-8.34403
▁కొరకు	-8.34525
el	-8.34804
ండ	-8.34861
▁అను	-8.34884
▁చేసే	-8.35108
te	-8.35396
▁£	-8.35628
▁2017	-8.35635
et	-8.3585
రె	-8.36008
▁హై	-8.3601
O	-8.36678
▁డేటా	-8.36711
11	-8.36762
టు	-8.37021
ar	-8.37067
▁దేవుడు	-8.37103
ంత	-8.37143
▁నుంచి	-8.37206
▁వ్యక్తిగత	-8.37212
12	-8.37575
▁ఎందుకు	-8.37578
▁ఉపయోగించి	-8.37689
తా	-8.37853
▁ఉండ	-8.38009
బి	-8.38306
▁లిమిటెడ్	-8.38344
▁సెక్స్	-8.38443
▁25	-8.38655
▁ప్రపంచ	-8.38822
ె	-8.38871
చు	-8.3889
ుటకు	-8.39
▁దానిని	-8.39127
30	-8.39167
▁డబ్బు	-8.39834
▁వచ్చి	-8.40181
▁సెట్	-8.40238
▁అందిస్తుంది	-8.40245
▁యంత్రం	-8.40422
బడి	-8.40573
▁రక్షణ	-8.40902
ీ	-8.40932
▁మాట	-8.41051
▁భాగాలు	-8.41244
I	-8.41346
on	-8.41404
కర	-8.41757
▁13	-8.42052
▁వే	-8.42372
▁14	-8.42374
చి	-8.42538
▁ఐ	-8.42659
▁నిజంగా	-8.42816
▁తదుపరి	-8.42913
టా	-8.43075
▁ఉండవచ్చు	-8.43104
▁O	-8.43312
▁అలాగే	-8.43375
▁ఏమిటి	-8.43559
▁17	-8.43597
15	-8.43697
▁దయచేసి	-8.43701
▁16	-8.4375
▁ప్రారంభ	-8.43898
▁to	-8.44135
▁చేశారు	-8.44151
▁నియంత్రణ	-8.44336
▁జ	-8.45105
▁వె	-8.45244
▁భూమి	-8.45274
ంగ్	-8.45342
చ్	-8.4538
ద్	-8.45478
▁పెట్ట	-8.45479
▁అవి	-8.45547
▁విడుదల	-8.4556
re	-8.45655
▁అందమైన	-8.45707
▁జీవితం	-8.45715
▁మో	-8.45739
త్త	-8.4579
ch	-8.45846
▁జాబితా	-8.46197
టానికి	-8.46263
▁మార్కెట్	-8.46307
కం	-8.46788
▁of	-8.46984
జీ	-8.4706
▁బి	-8.47235
▁కలిసి	-8.47517
▁చిత్రం	-8.47525
▁హా	-8.47678
▁చేసి	-8.4792
Name	-8.47942
▁పరీక్ష	-8.47964
▁క్రింద	-8.47985
▁దీని	-8.48042
మె	-8.48073
19	-8.48255
▁నిర్వహణ	-8.48513
▁విషయాలు	-8.48822
▁పరిమాణం	-8.48891
ాలని	-8.48978
ింప	-8.48993
▁సరఫరా	-8.49004
▁సు	-8.49016
▁లార్డ్	-8.4916
బో	-8.49261
న్స్	-8.49369
▁అనేది	-8.49558
▁ఇన్	-8.49655
▁కంప్యూటర్	-8.49738
▁లే	-8.49813
▁బరువు	-8.49893
▁ఉన్నారు	-8.50162
ించిన	-8.50187
వలెను	-8.50212
▁అందువలన	-8.50422
శ	-8.50551
ప్ర	-8.50619
ిస్తారు	-8.50715
▁పూర్తిగా	-8.51059
ఆ	-8.51114
▁పొంద	-8.51303
▁నీటి	-8.51699
▁సమాధానం	-8.5174
40	-8.51749
am	-8.51919
16	-8.5199
▁కల	-8.52014
ంచ	-8.52194
▁తేదీ	-8.52282
▁కొ	-8.52393
▁ఏదైనా	-8.52486
ళ	-8.52625
ur	-8.52679
▁సంప్రదించండి	-8.52685
▁ఆర్	-8.52747
]	-8.52997
యే	-8.53051
చేయ	-8.53129
మ్మ	-8.53417
▁కోడ్	-8.53509
కర్	-8.54005
▁సాంకేతిక	-8.5418
▁ఆత్మ	-8.54232
▁చూడ	-8.54313
▁రూ	-8.54437
://	-8.54446
▁ఉంచ	-8.54544
▁గో	-8.54722
▁తల	-8.54764
▁విలువ	-8.54823
▁వార్తలు	-8.54833
▁రకం	-8.54902
▁తనిఖీ	-8.55092
సె	-8.55564
▁బె	-8.55643
▁గనుక	-8.55687
▁మునుపటి	-8.55715
▁#	-8.55888
చేత	-8.55968
▁వాటి	-8.55972
హా	-8.56044
▁డిపాజిట్	-8.56091
▁మోటార్	-8.56159
▁పేజీ	-8.56182
▁న్యూ	-8.56361
▁చెల్లింపు	-8.56516
ri	-8.56753
జా	-8.56755
ుము	-8.56818
▁యె	-8.57041
▁పాత	-8.57041
▁మరొక	-8.57085
ol	-8.57109
▁ఖర్చు	-8.57147
▁and	-8.57284
ుడి	-8.57311
షన్	-8.57376
▁వచ్చింది	-8.5739
▁చె	-8.57454
▁ఆట	-8.57525
▁సె	-8.57549
ుతుంది	-8.57593
▁ముఖ్యమైన	-8.57604
▁సామర్థ్యం	-8.57641
▁కీ	-8.57855
▁ఖచ్చితంగా	-8.58087
▁అనే	-8.58234
▁అమలు	-8.58255
▁సో	-8.58285
ఎ	-8.58351
గి	-8.58488
▁పే	-8.58547
సీ	-8.58649
బు	-8.58679
un	-8.58685
▁100	-8.58716
▁రకాల	-8.58741
▁d	-8.59042
మెంట్	-8.592
▁b	-8.59303
▁ర	-8.59378
▁ఏర్పాటు	-8.59538
05	-8.5957
▁ప్రయాణం	-8.59684
60	-8.59848
▁బ్లాక్	-8.59916
▁ప్లే	-8.59922
25	-8.6006
▁పన్ను	-8.60163
ైన	-8.60406
▁గాని	-8.60646
ించు	-8.60872
చ్చ	-8.61005
14	-8.61027
▁నాలుగు	-8.61113
రం	-8.61185
▁సిరీస్	-8.61209
దే	-8.61225
ారా	-8.61276
▁టెక్నాలజీ	-8.61539
▁నీకు	-8.61539
▁భార్య	-8.6159
▁పాటు	-8.61703
th	-8.61866
▁టాప్	-8.62122
▁ఆలోచన	-8.62152
ra	-8.6224
▁ప్రక్రియ	-8.62322
భ	-8.62459
ly	-8.62635
లె	-8.627
▁చేయబడింది	-8.62749
▁సంబంధించిన	-8.62775
▁కాంతి	-8.62784
▁క్లిక్	-8.62807
సే	-8.6285
జర్	-8.62952
13	-8.63127
01	-8.63213
is	-8.63234
J	-8.63584
▁అవకాశం	-8.64149
నప్పుడు	-8.64186
▁ప్రదర్శన	-8.64342
▁నిర్మాణం	-8.64362
▁లక్షణాలు	-8.64547
▁రెండవ	-8.64827
▁ఖాతా	-8.64993
▁కారు	-8.65111
’	-8.65148
▁లోకి	-8.65182
18	-8.65274
▁అంటే	-8.65281
▁ఎల్లప్పుడూ	-8.6532
▁చేర	-8.65365
▁ఎంత	-8.65383
ళ్ళ	-8.65399
▁లి	-8.65753
య్య	-8.65856
వె	-8.65858
▁దృష్టి	-8.65893
▁ప్లాస్టిక్	-8.65908
▁విధానం	-8.65909
▁ఇంటర్నెట్	-8.66046
▁విషయం	-8.66104
▁50	-8.66229
▁లేజర్	-8.66344
టో	-8.6646
ుచు	-8.66509
▁యా	-8.66614
▁గేమ్స్	-8.66646
▁వినియోగదారులు	-8.67022
▁సమస్య	-8.67168
▁క్రింది	-8.67594
మై	-8.67616
▁కింద	-8.6792
id	-8.68023
ుట	-8.68056
▁కుడి	-8.68056
▁ప్రయాణ	-8.68282
ic	-8.68447
▁ప్రారంభించ	-8.68562
▁చివరి	-8.68585
▁పరిశోధన	-8.68748
▁కోర్సు	-8.68832
సం	-8.68849
▁వెబ్సైట్	-8.69038
▁ఇమెయిల్	-8.69049
▁సమాచారాన్ని	-8.69109
▁పిల్లలు	-8.69321
కుండా	-8.69375
కె	-8.6943
▁కస్టమర్	-8.69464
▁2016	-8.69509
▁కారణంగా	-8.6956
▁అవసరమైన	-8.69624
▁రె	-8.69764
▁నమూనా	-8.70076
▁క్రెడిట్	-8.70329
ాలకు	-8.70358
&	-8.70393
ుకొని	-8.70483
▁చేసింది	-8.70514
▁నమోదు	-8.7056
▁క్యాసినో	-8.70619
తీ	-8.70702
▁సులభంగా	-8.70836
▁పరికరాలు	-8.7095
▁రవాణా	-8.71018
it	-8.71088
▁ప్రస్తుత	-8.71398
▁వైపు	-8.71405
ad	-8.71408
▁నిన్ను	-8.71491
టే	-8.71714
▁ద	-8.72021
se	-8.72048
▁U	-8.7215
22	-8.72201
▁వైర్	-8.72202
వరకు	-8.72367
ై	-8.72416
▁కుమారుడు	-8.72417
▁బాక్స్	-8.72821
ంట్	-8.72842
▁వివరాలు	-8.73203
ూ	-8.73272
▁భాగం	-8.73279
▁ధన్యవాదాలు	-8.73377
▁మెటల్	-8.73425
ళ్ల	-8.73603
గో	-8.73606
▁21	-8.73904
06	-8.73947
▁చూచి	-8.7402
▁ఎక్కడ	-8.74072
ంటి	-8.74177
▁ఆర్థిక	-8.74201
▁అంతర్జాతీయ	-8.74201
ంద	-8.74247
▁జి	-8.74324
▁మనం	-8.74487
▁లేని	-8.74514
లర్	-8.74707
▁పొందండి	-8.74946
▁ఉపయోగిస్తారు	-8.75231
▁Y	-8.75263
▁సొంత	-8.75304
03	-8.75542
క్ష	-8.75609
యందు	-8.7562
▁చేయాలి	-8.75714
24	-8.75781
▁క్రీస్తు	-8.75832
▁f	-8.76001
▁సీ	-8.76001
▁మోతాదు	-8.76022
▁వెళ్లి	-8.76088
▁తయారీ	-8.7614
నె	-8.76141
▁చుట్టూ	-8.76216
▁వై	-8.76373
▁ఉష్ణోగ్రత	-8.76483
z	-8.76619
▁ప్రజల	-8.76653
▁వచ్చిన	-8.76684
▁స్థాయి	-8.76692
▁య	-8.76832
▁అదనపు	-8.76868
▁జా	-8.76993
▁పొందడానికి	-8.77331
17	-8.77383
ాలలో	-8.77384
▁ఇంటి	-8.77661
▁రోజుల	-8.77865
▁అనుభవం	-8.77952
▁మనిషి	-8.77995
▁శ	-8.78185
▁చిరునామా	-8.7819
04	-8.78203
▁డే	-8.78328
కుండ	-8.785
▁తెలుగు	-8.78517
▁పైన	-8.78519
▁మోడల్	-8.78543
▁ప్రశ్న	-8.7894
▁వ్యాసం	-8.78944
పడ	-8.78953
▁శిక్షణ	-8.79019
▁సహా	-8.79202
▁m	-8.79307
▁డౌన్	-8.79339
▁వేడి	-8.79594
▁p	-8.79909
ro	-8.80205
▁బాధ్యత	-8.80209
▁Z	-8.80362
థ	-8.80363
▁నెల	-8.80425
▁మానవ	-8.80448
▁XX	-8.80459
▁పట్ట	-8.80742
▁అంత	-8.8088
▁వెళ్ల	-8.81144
▁2013	-8.81149
లేని	-8.81172
ాల్లో	-8.81301
▁విద్యుత్	-8.81332
▁కథ	-8.815
▁ఆరోగ్య	-8.81593
దీ	-8.81671
▁»	-8.81893
టింగ్	-8.81932
▁పడ	-8.8197
35	-8.8202
▁శరీర	-8.82121
ాము	-8.82197
▁తరచుగా	-8.82263
▁గేమ్	-8.82352
▁అప్లికేషన్	-8.82364
ష్ట	-8.82572
▁అమెరికా	-8.82573
▁తాజా	-8.82732
02	-8.82755
▁పాత్ర	-8.82815
మందు	-8.82896
▁పైగా	-8.82928
▁గత	-8.83014
వలన	-8.83072
▁(1	-8.83256
ించే	-8.83281
Z	-8.83456
▁లైటింగ్	-8.83747
st	-8.83788
వీ	-8.83837
07	-8.83948
▁కాల్	-8.84032
▁కలిగిన	-8.84176
▁మార్పు	-8.84305
▁పార్టీ	-8.84337
▁వ్యతిరేకంగా	-8.84478
ందుకు	-8.84745
లింగ్	-8.84833
రై	-8.84965
ట్స్	-8.85041
పరచ	-8.8506
బడ్డాయి	-8.85107
="2	-8.85119
▁h	-8.85323
▁ఫోటో	-8.85366
▁నేడు	-8.8538
▁తా	-8.85431
కొ	-8.85453
▁లోడ్	-8.85469
▁కుమారులు	-8.85588
▁డె	-8.85671
▁బ్యాటరీ	-8.85792
as	-8.86004
▁దశ	-8.86033
▁సంబంధం	-8.86099
నేను	-8.86158
▁అతి	-8.86263
▁భాష	-8.865
▁ఇప్పటికీ	-8.86664
▁మొ	-8.86782
▁బయటకు	-8.86807
▁భద్రత	-8.86825
▁మార్చ	-8.8687
at	-8.87059
▁ప్రత్యక్ష	-8.87098
▁కే	-8.87134
▁రాత్రి	-8.87147
▁పిల్లల	-8.87158
▁మరిన్ని	-8.87176
ద్ద	-8.87255
ధి	-8.87484
▁ఒ	-8.87658
▁నె	-8.87759
▁కట్టింగ్	-8.87761
▁ఎంచుకోండి	-8.87797
▁జిల్లా	-8.87846
▁పాఠశాల	-8.87944
▁సమీక్ష	-8.88026
▁https	-8.88115
▁జరిగింది	-8.88233
▁రే	-8.88326
▁l	-8.88383
▁తల్లి	-8.8866
▁క్రితం	-8.88833
ate	-8.88899
▁చి	-8.88948
▁లోన్	-8.88973
రూ	-8.88977
మునకు	-8.89056
▁రీ	-8.89123
ers	-8.8919
▁వెనుక	-8.89379
▁చే	-8.89489
▁ఎప్పుడూ	-8.89531
▁ప్రస్తుతం	-8.89548
డే	-8.89563
▁కాలం	-8.89578
▁దావీదు	-8.89663
us	-8.89755
ఎస్	-8.89829
ునట్లు	-8.89938
▁వలన	-8.89944
▁అనుమతిస్తుంది	-8.89975
▁సులభం	-8.90015
▁ముఖ్యంగా	-8.90166
80	-8.90334
21	-8.9035
ప్ప	-8.9041
▁రో	-8.90437
▁40	-8.90494
▁ఇవి	-8.90574
▁నిర్ధారించ	-8.90582
▁కాసినో	-8.90766
▁ఎక్కువగా	-8.90793
▁పె	-8.90836
ఫ	-8.90997
▁ఎయిర్	-8.91078
ిరి	-8.91174
▁దూరంగా	-8.91198
▁ఇశ్రాయేలు	-8.91218
్లో	-8.91242
▁ప్రముఖ	-8.91348
@	-8.91349
▁కవర్	-8.91552
▁పంప	-8.91668
▁పవర్	-8.91673
▁ఐఫోన్	-8.91754
▁లైట్	-8.91885
▁లోపల	-8.91934
▁పరి	-8.91941
▁వెంటనే	-8.91947
ter	-8.92031
▁కారణం	-8.92037
చె	-8.92149
j	-8.92278
▁బో	-8.92521
▁సినిమా	-8.92611
▁ఆన్	-8.92719
▁గుర్తించ	-8.92768
▁ఆహార	-8.92863
యూ	-8.92937
▁పరిశ్రమ	-8.92939
▁నిజమైన	-8.93157
▁గాలి	-8.93189
▁బార్	-8.93282
▁అడుగు	-8.93419
▁ఒకే	-8.93428
పె	-8.935
త్వం	-8.93609
త్ర	-8.93745
య్	-8.93749
▁స్త్రీ	-8.93761
▁జె	-8.93779
▁దేశం	-8.9384
▁అంచనా	-8.93939
నర్	-8.93947
▁గల	-8.94056
జె	-8.94066
▁ఆధారంగా	-8.94092
▁ఆధునిక	-8.94105
▁సేవ్	-8.94171
డె	-8.94248
ళ్ళు	-8.94257
డో	-8.94529
ent	-8.94531
▁యువ	-8.94545
▁2015	-8.94555
▁©	-8.94681
▁23	-8.94707
ఖ	-8.94728
▁బే	-8.95018
36	-8.95093
ంచి	-8.95402
▁అందించ	-8.95431
▁వెర్షన్	-8.95445
0,000	-8.95496
▁ప్రపంచంలో	-8.95754
▁వేయ	-8.95778
నని	-8.95778
▁చేతి	-8.95812
▁నగరం	-8.95856
▁ప్రొఫెషనల్	-8.95864
▁ఉపయోగం	-8.95866
▁ఏదో	-8.95959
▁స్వంత	-8.95983
il	-8.96035
యర్	-8.96042
తే	-8.96206
▁చేయు	-8.96217
పర్	-8.96403
28	-8.96456
వలె	-8.96546
▁నెట్వర్క్	-8.96567
ఈ	-8.96591
▁దా	-8.96593
▁కేబుల్	-8.96768
▁పొడవు	-8.96958
ia	-8.96969
▁ఇస్తుంది	-8.97028
▁దీనిని	-8.97109
▁స్థానిక	-8.97181
▁చదవండి	-8.97243
▁సిస్టమ్	-8.97255
ళ్లు	-8.97261
ang	-8.97407
-1	-8.97513
▁ఇప్పటికే	-8.97518
▁పురుషులు	-8.9755
▁ఉప	-8.97589
▁ఎం	-8.97595
పీ	-8.97632
▁నిల్వ	-8.97655
▁దాదాపు	-8.97663
ృ	-8.97722
శా	-8.97732
▁22	-8.97759
▁వ్యాపారం	-8.9776
▁గ్	-8.97819
▁60	-8.9789
▁చెల్లించ	-8.97919
▁కార్డ్	-8.97985
▁మూడవ	-8.98088
▁ఇవ్వ	-8.98155
▁నెలల	-8.9852
ినప్పుడు	-8.98643
▁ఉపయోగించడానికి	-8.98738
గర్	-8.98808
08	-8.98811
▁భారీ	-8.98868
ల్స్	-8.98876
▁ఎవరైనా	-8.98898
చేసి	-8.99103
▁ప్రణాళిక	-8.99147
▁2014	-8.99239
డీ	-8.99263
38	-8.99448
▁w	-8.99499
యొక్క	-8.99821
▁అమ్మ	-8.99851
▁చేస్తారు	-8.99861
▁అందించే	-8.99946
▁కోర	-9.00005
▁శరీరం	-9.00082
33	-9.00196
▁డా	-9.00316
▁వాని	-9.00437
▁నిర్మాణ	-9.00463
▁రూపకల్పన	-9.00499
▁అవును	-9.00546
తారు	-9.00587
▁ఫైబర్	-9.00601
▁అంద	-9.00696
▁అగ్ని	-9.00698
▁బహుశా	-9.00997
▁ప్రో	-9.01021
▁బ్రాండ్	-9.01056
▁చేయబడిన	-9.01196
▁మూల	-9.01204
▁విన	-9.01212
▁తప్పు	-9.01292
▁పెంచ	-9.01386
co	-9.01573
▁కె	-9.01994
23	-9.02072
▁బలమైన	-9.02082
ీకరణ	-9.02166
▁26	-9.02196
▁శ్రీ	-9.02198
▁ప్రభావం	-9.02533
-2	-9.02554
37	-9.02607
▁పరికరం	-9.02638
నున్న	-9.02951
▁అవుతుంది	-9.02968
▁ఇశ్రాయేలీయుల	-9.02983
▁మహిళలు	-9.03119
ంగ	-9.03173
▁ఎస్	-9.03199
▁వయస్సు	-9.03211
▁ఫి	-9.03221
లోకి	-9.03292
▁నిర్వహించ	-9.03306
▁రోజులు	-9.03325
▁దక్షిణ	-9.0343
lo	-9.03443
▁తాను	-9.03501
▁గు	-9.03567
పే	-9.0357
వై	-9.03608
బడతాయి	-9.03664
రణ	-9.03689
▁గె	-9.03707
▁Android	-9.03723
▁వైద్య	-9.03745
▁వ్యాఖ్యలు	-9.03747
▁స్థానంలో	-9.03822
నై	-9.03994
▁మూ	-9.04035
▁ట్యాంక్	-9.04237
షా	-9.04292
▁తయారీదారు	-9.0438
▁చేర్చ	-9.04783
▁పొడి	-9.04865
▁ఉండే	-9.04942
వ్వ	-9.05356
▁కనెక్ట్	-9.0536
Q	-9.05377
▁ప్రాజెక్ట్	-9.05463
▁సంబంధిత	-9.05526
▁సేవలు	-9.05569
▁ఉత్తర	-9.05629
▁ప్రాథమిక	-9.0572
▁న్యూస్	-9.05733
▁మోషే	-9.05778
▁28	-9.05819
మర్	-9.05828
▁మారింది	-9.0583
▁చెప్పెను	-9.05844
▁ఉదాహరణకు	-9.05889
వర	-9.05997
ma	-9.05997
▁చరిత్ర	-9.06052
▁సహజ	-9.06177
▁యూదా	-9.06191
▁సై	-9.06234
హ్	-9.06396
▁సర్వర్	-9.06443
67	-9.065
ut	-9.06517
▁రేటు	-9.0663
లై	-9.06728
▁వేగం	-9.06909
▁బహుళ	-9.06924
▁మళ్ళీ	-9.06965
▁ఒక్క	-9.0706
▁ఆడ	-9.07198
la	-9.07205
▁పోటీ	-9.07229
▁ప్రకటన	-9.07395
మీరు	-9.07421
ఐ	-9.07457
▁పదార్థం	-9.07576
మైనది	-9.07669
▁€	-9.07675
▁పెట్టుబడి	-9.07781
45	-9.07828
▁స్క్రీన్	-9.07875
▁గంటల	-9.07923
లోనుండి	-9.07994
▁చట్టం	-9.07996
▁వివరణ	-9.0802
ాత్మక	-9.08038
వలెనని	-9.0815
▁వేదిక	-9.08231
▁లింక్	-9.08339
▁డాలర్	-9.08537
▁ఎత్తు	-9.0861
▁జూన్	-9.08687
▁అమ్మాయి	-9.08823
▁వాడు	-9.0884
▁మార్పిడి	-9.08914
▁పట్టణము	-9.08988
▁చేసినప్పుడు	-9.09041
▁ముగింపు	-9.0913
▁టా	-9.09148
▁HD	-9.09229
▁జనవరి	-9.09287
ation	-9.09374
▁పడుతుంది	-9.09653
▁కెమెరా	-9.09662
▁పంపిణీ	-9.09821
▁అనగా	-9.09824
▁ఎల్	-9.09838
▁ఫా	-9.09902
▁డిజిటల్	-9.09984
▁షీట్	-9.10097
▁ప్రామాణిక	-9.10137
▁కావలసిన	-9.10152
▁మార్చి	-9.10231
తిని	-9.10402
▁లీ	-9.10404
▁కుమారుడైన	-9.1042
కూడదు	-9.10425
▁కార్డు	-9.10442
▁ఆర్డర్	-9.10542
▁అతనిని	-9.10558
34	-9.10686
▁అన	-9.1076
▁కుమార్తె	-9.10794
కొని	-9.10868
బుల్	-9.10935
ir	-9.10944
▁పద్ధతి	-9.10978
▁బాధ	-9.1101
నూ	-9.1103
ుకో	-9.11048
ఇ	-9.11147
హి	-9.11214
▁కం	-9.11265
▁జీవ	-9.11399
శ్	-9.11437
సో	-9.11479
▁200	-9.11543
▁నిర్దిష్ట	-9.11611
హు	-9.11625
▁మార	-9.11633
99	-9.1165
▁తెలియ	-9.11773
▁కంటెంట్	-9.11775
▁మొదలైనవి	-9.11862
▁సమస్యలు	-9.11936
▁అల్యూమినియం	-9.12104
▁ఒత్తిడి	-9.12159
▁కొంత	-9.12297
69	-9.12676
▁n	-9.12752
▁కుటుంబం	-9.12765
▁పొ	-9.1277
39	-9.12774
▁పూ	-9.12852
▁అండ్	-9.12856
పోయిన	-9.12859
▁హో	-9.12877
▁హౌస్	-9.12881
▁ప్రా	-9.12927
ఫి	-9.12952
▁తీసికొని	-9.1298
▁మమ్మల్ని	-9.12986
▁చిత్రాలు	-9.12999
▁అవ	-9.13021
▁అలా	-9.13254
▁సంవత్సరాలు	-9.13313
▁స్పీకర్	-9.13375
▁27	-9.13481
▁స్వాగతం	-9.13487
సన్	-9.13542
▁t	-9.13548
యొద్దకు	-9.1361
యె	-9.13774
▁ఆసక్తి	-9.13814
▁ప్రశ్నలు	-9.13828
▁చెక్క	-9.13892
క్క	-9.13929
▁re	-9.13978
▁గుర్తింపు	-9.1399
▁29	-9.1404
▁ఏడు	-9.14061
▁కాకుండా	-9.14092
▁పరిస్థితి	-9.14103
▁గుండె	-9.14108
▁వీ	-9.14108
ru	-9.14384
09	-9.14395
▁ప్రైవేట్	-9.14438
ఆర్	-9.14452
టె	-9.14509
▁ఐదు	-9.14536
▁కట్ట	-9.14583
▁భావ	-9.14646
72	-9.14653
▁తప్ప	-9.14667
▁మీడియా	-9.14682
్య	-9.14686
na	-9.1469
▁Q	-9.14781
▁చా	-9.14826
75	-9.1488
ల్ల	-9.15059
▁చర్చి	-9.15074
▁వారితో	-9.1511
▁శోధన	-9.15116
మన్	-9.15122
▁°	-9.15187
ుదురు	-9.1522
▁వ్యాధి	-9.15239
▁పరిచయం	-9.15254
▁తొలగించ	-9.15302
▁ఆధారపడి	-9.15466
▁విశ్వవిద్యాలయం	-9.15637
32	-9.15753
మార్	-9.15763
ిస్తూ	-9.15802
▁హామీ	-9.15921
రింగ్	-9.1594
▁నేరుగా	-9.15968
▁వెళ్ళి	-9.16063
▁@	-9.16077
▁స్పై	-9.16152
▁నీరు	-9.16414
▁g	-9.16432
▁పవిత్ర	-9.1677
▁నిబంధనలు	-9.16901
▁సహాయపడుతుంది	-9.17009
ఫె	-9.17049
▁వేగంగా	-9.17114
ంప	-9.1713
▁వాడ	-9.17137
▁—	-9.17236
వేయ	-9.17236
net	-9.17288
ాం	-9.17407
▁త్వరగా	-9.17479
▁కావచ్చు	-9.17496
ొ	-9.17541
▁చాట్	-9.17576
▁Ch	-9.17722
▁పొందిన	-9.17725
▁ఒప్పందం	-9.17753
ించడం	-9.17762
▁you	-9.17789
▁ప్రయోజనాలు	-9.17839
▁ఉపయోగించవచ్చు	-9.17939
కింగ్	-9.17943
im	-9.18123
od	-9.1815
▁వస్తుంది	-9.18156
▁పీ	-9.18289
▁500	-9.18397
▁మానసిక	-9.18453
వారికి	-9.18466
li	-9.18508
▁పంచ	-9.18554
▁యూనిట్	-9.18557
▁మిగిలిన	-9.18643
▁పెరుగుదల	-9.18749
▁చెందిన	-9.18775
ul	-9.18799
ంటే	-9.18837
రియా	-9.18843
▁ఖచ్చితమైన	-9.18923
de	-9.18994
▁హె	-9.19019
టన్	-9.1902
▁పద	-9.19082
▁స్థానం	-9.19197
▁మాట్లాడ	-9.1923
▁అయిన	-9.19258
▁PC	-9.19468
▁కాల	-9.19506
▁సెప్టెంబర్	-9.19512
దని	-9.19517
um	-9.19579
▁ప్రాంతంలో	-9.19671
ఫా	-9.19736
ుకునే	-9.1976
తులు	-9.19788
▁ఉండటం	-9.19998
▁ఇదే	-9.20026
▁రాజ	-9.2007
▁జీవిత	-9.2012
మంది	-9.20171
▁పౌడర్	-9.20227
▁టి	-9.20263
-20	-9.20289
▁వెళ్ళ	-9.20337
▁సంస్థలు	-9.2035
▁తి	-9.20403
65	-9.20403
▁చూప	-9.20435
మరింత	-9.20479
▁నష్టం	-9.20499
▁ఎన్	-9.20521
▁మిమ్మల్ని	-9.20523
మూ	-9.20537
▁వికీపీడియా	-9.20583
▁UK	-9.20644
▁వచ్చే	-9.20775
▁చెప్పిన	-9.20805
▁ఇం	-9.20909
▁కేంద్ర	-9.20909
▁అందించడానికి	-9.20942
▁బీ	-9.20974
▁ఇలా	-9.20978
▁ప్రార్థన	-9.21003
▁సూపర్	-9.21069
వలసిన	-9.21088
29	-9.21159
▁జట్టు	-9.2129
పెట్ట	-9.21322
▁ప్రభుత్వ	-9.21333
▁డ్రైవ్	-9.21432
దర్శ	-9.2145
66	-9.21456
▁పదం	-9.21522
88	-9.21538
▁for	-9.2165
71	-9.21659
▁Re	-9.218
▁యుద్ధం	-9.21833
▁సుమారు	-9.2188
ha	-9.21897
▁గుర్తు	-9.21963
▁నిర్ణయించ	-9.21998
▁గ్రా	-9.22003
▁వల్ల	-9.22009
▁Google	-9.22056
బే	-9.22561
ెదను	-9.2259
▁అట్లాంటిక్	-9.22637
లేక	-9.22727
▁ఫైల్	-9.22765
26	-9.22766
▁జుట్టు	-9.22824
▁31	-9.22859
▁Windows	-9.22881
▁యూరోప్	-9.22919
▁అసలు	-9.22998
ుటకై	-9.23022
▁అమెరికన్	-9.23065
▁ఒకసారి	-9.23201
న్నా	-9.23283
▁ప్రోగ్రామ్	-9.23374
▁రోడ్	-9.23486
ించారు	-9.23503
ట్ట	-9.23533
ట్టు	-9.23557
ట్టి	-9.23732
▁రేట్	-9.23797
నుబట్టి	-9.23825
▁స్లాట్లు	-9.23847
▁జనుల	-9.23852
డర్	-9.24002
▁బోర్డు	-9.24022
▁ఎలక్ట్రిక్	-9.2405
▁ఏప్రిల్	-9.2405
▁on	-9.24061
▁న్యాయ	-9.24095
▁పంపు	-9.241
▁సాధించ	-9.24116
యొద్ద	-9.24215
రము	-9.24241
ER	-9.24326
బీ	-9.24393
▁సలహా	-9.24424
▁ఆసియా	-9.24446
▁దరఖాస్తు	-9.24609
▁దేవుడైన	-9.24685
▁యే	-9.24701
▁ఆస్తి	-9.24785
▁చిట్కాలు	-9.2494
31	-9.25001
▁నిజానికి	-9.25042
▁నవంబర్	-9.25108
తాయి	-9.25118
90	-9.25173
ాన	-9.25295
▁ట్రాక్	-9.2539
▁విని	-9.25459
▁ఉపయోగించే	-9.25483
▁మార్	-9.25503
▁బదిలీ	-9.25547
ప్రపంచవ్యాప్తంగా	-9.25634
ల్డ్	-9.25727
▁బ్యాంక్	-9.25737
డింగ్	-9.25791
▁చేత	-9.25815
▁క్యా	-9.25862
జు	-9.2587
86	-9.25912
55	-9.25971
▁~	-9.26014
▁వేరు	-9.26106
▁మార్కెటింగ్	-9.26114
▁మిలియన్	-9.26191
68	-9.26224
▁పారిశ్రామిక	-9.26241
కల్	-9.26353
100	-9.26477
▁డై	-9.26517
▁ప్రభువు	-9.26632
▁తే	-9.26662
ిస్తున్న	-9.26666
▁ఇన్స్టాల్	-9.26748
▁లె	-9.26772
ant	-9.26863
▁ఉత్పత్తుల	-9.26972
ap	-9.26985
కాల	-9.27059
▁పైప్	-9.27213
ong	-9.27255
ine	-9.27292
▁స్టెయిన్లెస్	-9.27322
▁టై	-9.27335
▁డెలివరీ	-9.27386
▁సిఫార్సు	-9.27386
చర్	-9.2747
ta	-9.27496
▁ఫిబ్రవరి	-9.27578
యైన	-9.2758
▁సెంటర్	-9.276
ులకు	-9.27606
▁is	-9.27609
▁ప్యాకేజీ	-9.27642
▁సృష్టించ	-9.27685
▁భూ	-9.27711
▁పచ్చబొట్లు	-9.27835
ుతున్న	-9.27848
ry	-9.27891
▁సబ్	-9.27917
ిస్తాయి	-9.27937
▁వినియోగదారు	-9.27965
▁క్రొత్త	-9.2797
▁వోల్టేజ్	-9.28028
లోనికి	-9.28131
=&	-9.28159
దాని	-9.2816
▁బ్రష్	-9.2819
27	-9.28239
▁విద్య	-9.28281
▁కనీసం	-9.2834
▁ప్రయోజనం	-9.28345
hi	-9.28462
లపై	-9.28539
▁వాణిజ్య	-9.2861
▁ముందుకు	-9.28641
▁జాతీయ	-9.28739
▁సమ	-9.28767
ay	-9.28773
▁PVC	-9.28804
▁విజయం	-9.28813
▁శా	-9.28823
▁కూడ	-9.28912
▁రియల్	-9.28917
ిస్తే	-9.29046
▁ఆహారం	-9.29107
▁మహా	-9.29108
▁వర్గం	-9.29126
▁సహ	-9.29171
▁సెల్	-9.29245
▁వలె	-9.29282
vi	-9.29373
▁చర్య	-9.29453
▁నిద్ర	-9.29462
▁లేవు	-9.29491
▁ప్రదర్శించ	-9.29495
ag	-9.29701
ac	-9.29782
జన	-9.29864
▁జరిగిన	-9.29884
▁నమ్మ	-9.29929
▁భాగస్వామ్యం	-9.29959
స్థ	-9.2999
▁అంగీకరించ	-9.30209
▁ఎటువంటి	-9.30326
▁అక్టోబర్	-9.30374
▁హోటల్	-9.30381
▁అదనంగా	-9.3044
ph	-9.30442
▁చెప్పు	-9.30492
48	-9.30532
▁సర్దుబాటు	-9.30572
షు	-9.30599
▁మరి	-9.30619
▁In	-9.30627
బె	-9.3066
▁తీవ్రమైన	-9.30715
ండు	-9.3079
▁ప్రాంతం	-9.30866
▁వదిలి	-9.30883
▁చూడటానికి	-9.30949
▁సార్లు	-9.31081
▁ఆపరేషన్	-9.31104
▁స్టార్	-9.31118
▁మూలం	-9.31429
శి	-9.315
▁డబుల్	-9.31771
▁చంప	-9.31777
▁by	-9.31873
▁పాయింట్	-9.31907
=	-9.31976
▁100%	-9.32015
and	-9.32124
70	-9.32148
41	-9.32178
▁ఊ	-9.32181
▁నివాస	-9.32196
వద్దు	-9.32333
▁వారం	-9.3234
▁de	-9.32508
▁బదులుగా	-9.32642
▁శాఖ	-9.32678
ig	-9.32764
▁నగదు	-9.32778
▁యో	-9.32821
="5	-9.32896
▁మై	-9.32957
▁దీన్ని	-9.33056
85	-9.33084
▁సామాజిక	-9.33115
▁అతిపెద్ద	-9.33117
▁బ్యాంకు	-9.33146
▁తగినంత	-9.33207
▁వెల్డింగ్	-9.33255
▁మరో	-9.33272
▁వ్యక్తులు	-9.33343
▁తెర	-9.33412
▁x	-9.33416
▁విమానం	-9.33433
▁అందుకు	-9.3345
▁ఏది	-9.33487
▁పొందవచ్చు	-9.33496
▁జనాభా	-9.33523
▁చేయబడుతుంది	-9.33537
▁=	-9.33645
▁గృహ	-9.33672
దో	-9.33682
▁వ్యతిరేక	-9.33813
▁స్వీకరించ	-9.33844
▁వ్యక్తుల	-9.33846
▁పది	-9.33892
▁బాల్	-9.339
▁అమ్మకానికి	-9.33932
▁అనుబంధ	-9.33939
▁తగిన	-9.34067
ce	-9.34179
▁హాక్	-9.34215
▁జో	-9.34232
ment	-9.34264
▁ఫీచర్	-9.34343
ాయ	-9.3436
వో	-9.34362
▁ఉన్నత	-9.34376
నందు	-9.34398
▁http	-9.3442
+	-9.34445
▁విచారణ	-9.3449
▁Co	-9.34553
77	-9.34558
▁తగ్గించ	-9.34576
క్రమ	-9.34588
▁కలుగ	-9.34643
▁చెంద	-9.34649
▁పుట్ట	-9.34702
▁ఘన	-9.34724
▁అధ్యయనం	-9.34808
ుకోండి	-9.34867
మ్ము	-9.34895
▁నిబంధన	-9.34952
స్టా	-9.3499
నట్లు	-9.34996
▁బల	-9.35028
▁మనకు	-9.35062
▁సాధనం	-9.35145
one	-9.35166
58	-9.35235
▁యంత్రాలు	-9.35256
▁శైలి	-9.35308
▁సముద్ర	-9.35316
▁ప్రభుత్వం	-9.35376
ఎం	-9.35392
▁GPS	-9.35413
▁ఆటో	-9.35451
▁No	-9.35469
దారు	-9.35502
▁తీర్చ	-9.35527
▁మహిళ	-9.35589
▁వీలు	-9.35604
▁r	-9.35613
▁లేక	-9.35684
స్తుంది	-9.35688
▁am	-9.35694
▁దానికి	-9.35695
▁మనస్సు	-9.3572
IN	-9.3583
▁కనిపిస్తుంది	-9.35864
▁యి	-9.35892
▁దేశ	-9.35946
▁ఖ	-9.36003
▁డిసెంబర్	-9.36073
▁కష్టం	-9.36092
▁బుక్	-9.36098
▁కాపీరైట్	-9.36142
▁పరిష్కారం	-9.3622
▁తెలిసిన	-9.36252
▁చెప్పి	-9.36504
▁వార	-9.36546
▁చక్రం	-9.3674
▁రకమైన	-9.36774
▁సిద్ధంగా	-9.36789
▁సర్	-9.36825
▁సంయుక్త	-9.3685
జో	-9.36909
▁ఆడియో	-9.36972
▁‘	-9.37104
▁పాపము	-9.37122
▁దారి	-9.37156
all	-9.3716
▁అతనితో	-9.37166
▁గోడ	-9.37504
Comment	-9.37548
up	-9.37665
▁ఆజ్ఞ	-9.37678
▁అయినప్పటికీ	-9.37698
లిన్	-9.37706
ండర్	-9.37808
త్తు	-9.37814
▁మనము	-9.37861
▁టీ	-9.37889
52	-9.38
▁పుస్తకం	-9.38053
;&	-9.38055
47	-9.3806
www	-9.381
ho	-9.38158
▁నిజ	-9.3817
▁కనుక	-9.38216
▁తగ్గ	-9.3826
▁కరెన్సీ	-9.38261
▁Telugu	-9.38311
to	-9.38331
▁ఉపయోగించడం	-9.38358
▁%	-9.38378
▁ఇచ్చిన	-9.38382
▁ప్రవక్త	-9.38397
▁డ్రైవర్	-9.38483
91	-9.38504
▁చూసిన	-9.38512
▁రహస్య	-9.38546
▁దయ	-9.38554
▁ఇతరులు	-9.38652
em	-9.38654
టిక్	-9.38655
▁ఆరు	-9.38719
యెడల	-9.3886
▁మరణ	-9.38893
▁జరుగుతుంది	-9.38916
▁కాలేదు	-9.38928
నింగ్	-9.38958
▁హాట్	-9.3896
▁సగటు	-9.38977
చేయు	-9.3906
▁సంఖ్యలు	-9.39091
▁చదువు	-9.3913
▁జెట్	-9.39142
ింపు	-9.39232
▁రక్షించ	-9.39256
ne	-9.39256
ుకోవడం	-9.39414
200	-9.39443
44	-9.39523
-3	-9.39549
సర్	-9.3962
ించెను	-9.39658
ంబ	-9.3967
▁కొవ్వు	-9.39771
per	-9.39787
▁మిమ్మును	-9.39796
చార	-9.39844
▁శక్తివంతమైన	-9.39857
▁మెటీరియల్	-9.39988
▁హక్కు	-9.39998
▁స్వీయ	-9.40017
ver	-9.40075
▁వాటిలో	-9.40077
ab	-9.40115
ie	-9.40251
▁వేల	-9.40283
▁నిర్వహించడానికి	-9.40333
▁స్టెరాయిడ్	-9.40393
53	-9.40418
కార్	-9.40448
▁బటన్	-9.40464
ఏ	-9.4052
▁పాస్	-9.40526
▁అక్వేరియం	-9.4057
▁హి	-9.40595
▁ఫలితాలు	-9.40716
AN	-9.40989
టై	-9.40994
ుచున్న	-9.40995
త్య	-9.41022
పరి	-9.41024
▁కుటుంబ	-9.41052
▁ప్రయత్నించండి	-9.41064
▁రచయిత	-9.41083
▁వేచి	-9.41088
▁ఏమీ	-9.41143
ఒక	-9.41166
▁ఆశ	-9.41186
500	-9.41227
▁గుడ్	-9.4124
▁సృష్టించడానికి	-9.4133
▁పరిశుద్ధ	-9.41369
▁చెడు	-9.41408
▁స్టేషన్	-9.4141
వలసి	-9.415
▁విద్యా	-9.41537
▁32	-9.4162
▁ఎక్స్	-9.41634
42	-9.41651
కాలు	-9.41691
mo	-9.41721
ందు	-9.41847
▁ప్రవేశ	-9.41854
సింగ్	-9.41859
▁కూ	-9.41863
హో	-9.41936
▁దీర్ఘ	-9.42035
▁ఏకైక	-9.42042
▁అంతర్గత	-9.42118
▁35	-9.42123
ంప్	-9.42132
▁అటువంటి	-9.42155
▁పట్టణ	-9.42188
▁చిత్ర	-9.4219
▁యాక్సెస్	-9.42192
▁పర్వత	-9.42193
▁తెలియదు	-9.42217
▁సరి	-9.4224
ian	-9.42325
వాని	-9.42523
▁రాష్ట్ర	-9.4261
56	-9.4267
▁రీఫ్	-9.42694
▁కనుగొన	-9.42713
యాన్	-9.42756
▁...]	-9.42797
వారిని	-9.43007
▁ఫ్రేమ్	-9.43022
గే	-9.4307
▁అంశం	-9.43084
కొరకు	-9.431
ot	-9.43109
▁బంగారు	-9.4316
ుచున్నాను	-9.43211
if	-9.43235
▁v	-9.43247
రొ	-9.43261
di	-9.43263
▁నో	-9.43367
▁భద్రతా	-9.43431
74	-9.43454
▁st	-9.43482
▁వ్రాయ	-9.43535
ారని	-9.43539
ంట	-9.43658
▁కార్యక్రమం	-9.43663
టెడ్	-9.43778
▁స్టాక్	-9.43784
▁తాము	-9.43979
▁స్టికర్లు	-9.43987
▁సూచించ	-9.44034
▁సందర్భంలో	-9.44064
▁ఆధారిత	-9.4407
▁రోజువారీ	-9.44072
▁అధికారిక	-9.44075
నియా	-9.44182
61	-9.4434
ill	-9.44344
os	-9.44413
కంటె	-9.44421
▁సూచిక	-9.44443
▁CNC	-9.44456
▁అనువర్తనం	-9.4451
▁రికార్డు	-9.44517
పడి	-9.44531
▁విండో	-9.44543
▁రై	-9.44546
▁ఉపయోగ	-9.44668
▁చూసారు	-9.44723
▁తెలుపు	-9.44728
▁పొందుటకు	-9.44735
ge	-9.44741
▁అల్	-9.44852
▁చేయగల	-9.44892
▁పనిచేస్తుంది	-9.44915
▁అచ్చు	-9.45016
▁ప్లేట్	-9.45021
▁వర్క్	-9.45027
▁పదార్థాలు	-9.45062
▁పరిధి	-9.45086
▁స్టా	-9.45221
▁విద్యార్థులు	-9.45228
▁గది	-9.45245
▁టాగ్లు	-9.45314
▁వ్యాఖ్య	-9.45333
்	-9.45356
▁ఉపయోగించండి	-9.45385
▁అవసరాలు	-9.4539
ON	-9.45396
▁ప్రత్యేకంగా	-9.45436
ందరి	-9.4553
కార	-9.45554
▁పోర్ట్	-9.45572
▁తీర్పు	-9.45586
ఉ	-9.45673
▁The	-9.45683
▁ప్రతిదీ	-9.45685
▁2020	-9.45685
kg	-9.45688
▁ఉపకరణాలు	-9.45706
▁కొద్దిగా	-9.45743
▁హార్డ్	-9.45866
దూ	-9.45866
▁ఆగస్టు	-9.45894
▁జూలై	-9.45904
▁నేల	-9.45908
▁పొర	-9.45924
▁ఫె	-9.45924
▁ఆలోచనలు	-9.45929
▁దీనికి	-9.45982
59	-9.45988
▁ఆల్	-9.46038
▁అర్హత	-9.46125
▁నగర	-9.46132
om	-9.46181
దగిన	-9.46196
▁భావించ	-9.46213
▁వెడల్పు	-9.4628
ించింది	-9.46297
౦	-9.46357
▁తద్వారా	-9.46359
62	-9.46375
▁జీవితంలో	-9.46376
▁కొండ	-9.46392
స్టె	-9.46413
▁చూస్తున్న	-9.46454
▁భారత	-9.46484
▁లైంగిక	-9.46512
▁సర్వీస్	-9.46512
▁ప్రత్యుత్తరం	-9.46517
ంచు	-9.46667
no	-9.46689
▁అవగాహన	-9.46745
గ్రా	-9.46754
▁ఆయనను	-9.46755
లైన	-9.46864
మాన్	-9.46869
▁సామగ్రి	-9.46978
నది	-9.47024
49	-9.4703
▁వినియోగదారుల	-9.47075
▁సరఫరాదారు	-9.47115
▁హార్మోన్	-9.47134
▁టాటూ	-9.4714
▁యీ	-9.47155
73	-9.47171
ుకొన	-9.47283
▁అనుగుణంగా	-9.4729
▁ఫై	-9.4733
▁జాన్	-9.47344
కపోతే	-9.47391
తాడు	-9.47422
▁మార్పులు	-9.47541
థి	-9.47544
▁భావన	-9.47584
యున్న	-9.4759
▁నింగ్బో	-9.47603
మన	-9.47606
▁మ్యాచ్	-9.47612
▁నిర్	-9.47624
▁డాక్టర్	-9.47769
▁2011	-9.47788
చన	-9.47851
▁భాగంగా	-9.47853
op	-9.47866
▁దగ్గర	-9.47878
▁చెప్పాడు	-9.47944
ుకున్న	-9.47953
ుకోవచ్చు	-9.47968
ందని	-9.47972
▁దుస్తులు	-9.47988
▁స్వ	-9.48066
▁ఫల	-9.48102
స్టర్	-9.48105
▁ఫోటోలు	-9.48153
▁వినియోగదారులకు	-9.48194
▁ప్రవర్తన	-9.48238
ల్లా	-9.48245
▁తు	-9.48266
యన్	-9.48279
▁బు	-9.48288
▁ఓపెన్	-9.4831
▁హార్	-9.48398
89	-9.48491
▁స్మార్ట్	-9.48543
▁సంగీతం	-9.48669
▁తర	-9.48701
▁పట్టిక	-9.48758
▁బైబిల్	-9.48785
▁ట్యూబ్	-9.48785
▁బ్ర	-9.48836
రల్	-9.48887
▁పర్యవేక్షణ	-9.48952
▁రక్త	-9.48958
▁ప్రభావితం	-9.48968
▁విదేశీ	-9.48986
▁ప్రారంభం	-9.48996
సెస్	-9.49071
నైనను	-9.49095
▁కాపీ	-9.49132
▁ఫ	-9.49169
▁ఔషధ	-9.49206
▁తీసుకున్న	-9.49208
▁ఓడ	-9.49233
▁2012	-9.49291
▁పాల	-9.49335
ధ్య	-9.49351
▁చర్చ	-9.49403
తర	-9.49472
ుకోవడానికి	-9.49592
▁చూడవచ్చు	-9.49621
▁CO	-9.49623
▁అత్యధిక	-9.4966
▁స్థితి	-9.49673
43	-9.49725
▁Ma	-9.49766
46	-9.49769
▁ఉచితంగా	-9.4979
▁అనుమతి	-9.49846
ఫై	-9.49885
▁బృందం	-9.49934
▁కింది	-9.50041
▁కళ	-9.5009
▁గైడ్	-9.5026
▁రివ్యూ	-9.50302
▁సైన్	-9.50326
యము	-9.50383
▁పురుషుల	-9.50413
▁మాట్లాడుతూ	-9.50551
▁వివాహం	-9.50581
▁పాట	-9.50624
▁షిప్పింగ్	-9.50626
▁గిటార్	-9.50629
54	-9.50658
▁ష	-9.50694
ve	-9.50703
▁1000	-9.50707
▁వాల్	-9.50738
▁టె	-9.5074
▁సిటీ	-9.50931
57	-9.50972
▁రష్యన్	-9.5103
der	-9.51045
5%	-9.51252
▁ప్రజా	-9.5126
▁సంప్రదాయ	-9.51273
▁పనితీరు	-9.51281
▁దాన్ని	-9.51455
స్తున్న	-9.51497
▁గి	-9.51531
▁దేశంలో	-9.51554
రాజు	-9.51585
▁క్రమంలో	-9.5161
76	-9.51611
▁స్పష్టంగా	-9.51613
▁రౌలెట్	-9.5168
▁సంబంధించి	-9.51683
▁పోయి	-9.51749
▁డేవిడ్	-9.51799
92	-9.51835
▁సంస్థాపన	-9.51857
▁తూర్పు	-9.51925
▁ఇంట్లో	-9.51928
ాలతో	-9.5193
▁రద్దు	-9.51937
▁ప్రకటించ	-9.52029
▁ప్యాకింగ్	-9.52096
▁తరగతి	-9.52171
▁సాగ	-9.52182
▁భ	-9.52255
age	-9.52305
▁పట్టు	-9.52327
ll	-9.52341
ow	-9.5249
లేరు	-9.52519
▁సూచన	-9.52568
95	-9.52574
▁విశ్లేషణ	-9.52664
ex	-9.52674
▁గ్రామ	-9.52691
▁పడి	-9.52717
▁వెండి	-9.52778
▁ఆశ్చర్య	-9.52792
ీకరించ	-9.52813
▁సంరక్షణ	-9.52911
▁మిల్	-9.52949
ార్	-9.53004
▁పరికర	-9.53082
ak	-9.53128
▁బిల్	-9.53167
▁టేబుల్	-9.53243
▁కొన్నిసార్లు	-9.53263
▁ఖాళీ	-9.53304
▁ఎంపికలు	-9.53363
ov	-9.53399
▁సమీక్షలు	-9.53458
▁గాక	-9.5347
ార	-9.5354
▁సంపూర్ణ	-9.53658
▁ఎరుపు	-9.53659
▁కనుగొనేందుకు	-9.53686
est	-9.53839
రని	-9.53848
▁శాశ్వత	-9.53908
▁అనుకూల	-9.53979
▁ముఖం	-9.54011
▁మొదట	-9.54011
▁ప్లస్	-9.54024
78	-9.54059
AR	-9.54114
▁ఆఫర్	-9.54241
తూ	-9.54251
భాగ	-9.54283
జం	-9.54324
▁శాతం	-9.54329
▁పార్క్	-9.54347
▁నమ్మకం	-9.544
▁చెయ్య	-9.54412
షి	-9.545
▁లక్ష్యం	-9.54582
ర్యా	-9.54642
man	-9.54655
▁ఈలాగు	-9.54739
▁జీ	-9.54754
▁నల్ల	-9.5487
▁ప్రమాదం	-9.54967
▁వృత్తి	-9.54999
▁నేర	-9.55021
▁క్రియ	-9.55065
లోనే	-9.55107
▁శిక్ష	-9.55158
▁ఆందోళన	-9.55167
ka	-9.55241
▁అధికార	-9.55248
▁బలం	-9.55333
పోయింది	-9.55333
▁ఒకడు	-9.55484
▁ప్రాసెసింగ్	-9.55506
▁పాలసీ	-9.55527
ఫీ	-9.55554
▁కాం	-9.55563
▁బేస్	-9.55575
▁ప్రసిద్ధ	-9.55629
లేదా	-9.5563
లూ	-9.55655
▁సెలవు	-9.55701
▁విస్తృత	-9.55706
▁ఆనందించండి	-9.55713
pe	-9.55856
▁సీజన్	-9.55946
▁దినమున	-9.55961
▁జనులు	-9.56033
▁వాల్వ్	-9.56046
▁అనుభవ	-9.56101
▁బయట	-9.56159
51	-9.56169
▁St	-9.56255
▁బై	-9.56258
▁ప్యాకేజింగ్	-9.56357
▁ఫంక్షన్	-9.56357
▁ముఖ్యం	-9.5638
▁మంద	-9.56469
స్తు	-9.56509
▁సాధన	-9.56515
mg	-9.56542
▁ఎంతమంది	-9.56553
▁సందర్శించండి	-9.56563
98	-9.56677
లెక్	-9.56714
ీయ	-9.56746
▁ఉదాహరణ	-9.56763
▁కొన	-9.56764
▁పద్ధతులు	-9.56775
▁డిగ్రీ	-9.56883
▁స్థిర	-9.56899
▁36	-9.56917
▁ఓర్ఫెక్	-9.56957
▁హోం	-9.56962
me	-9.5699
▁రూపొందించ	-9.57046
▁మరల	-9.57056
ell	-9.57067
▁k	-9.57067
దల	-9.57083
నైన	-9.57084
▁బూ	-9.57098
చూ	-9.57098
▁ముందుగా	-9.57165
▁కాలంలో	-9.57171
bo	-9.57173
వాస	-9.57217
▁విన్న	-9.57253
పొ	-9.57315
▁లెక్క	-9.57315
▁be	-9.57336
▁ప్యానెల్	-9.5739
▁క్లయింట్	-9.57475
▁పాప	-9.57479
▁మార్గాలు	-9.57544
▁హైడ్రాలిక్	-9.57561
ti	-9.57568
▁జాగ్రత్తగా	-9.57573
▁గమనించ	-9.57582
▁ఇవ్వాలని	-9.57599
ec	-9.57651
▁బ్లాగ్	-9.57673
▁ఉక్కు	-9.57738
గ్గ	-9.57739
▁ఇటువంటి	-9.57752
▁వీడియోలు	-9.57894
ిస్తాడు	-9.57908
▁కొనసాగ	-9.57913
ack	-9.57944
స్తారు	-9.58054
▁లేచి	-9.58131
▁పదాలు	-9.58136
ah	-9.582
▁బాహ్య	-9.58344
64	-9.58381
▁మీరే	-9.5841
▁సేవలను	-9.58415
▁ఇంధన	-9.58438
▁సంపాదించ	-9.58513
▁ఓవర్	-9.58528
▁భారతదేశం	-9.58596
▁బహు	-9.58596
83	-9.58616
▁ఆనంద	-9.58621
పద	-9.58624
TE	-9.58644
▁వేసవి	-9.58656
ఛ	-9.58669
▁యూజర్	-9.58708
▁అర్	-9.58753
▁బట్టి	-9.58789
▁భర్తీ	-9.588
AT	-9.58801
▁లైఫ్	-9.589
▁నియమించ	-9.5891
▁సింగిల్	-9.58956
▁చెక్	-9.59036
▁పర్	-9.59069
81	-9.59091
63	-9.59156
▁గోప్యతా	-9.59185
▁పిలుస్తారు	-9.5922
కరమైన	-9.59255
▁అభిప్రాయాలు	-9.59262
▁చర్మం	-9.59264
▁×	-9.59295
ఘ	-9.59298
▁దేశము	-9.59376
దన	-9.59386
▁నూనె	-9.59398
▁శాంతి	-9.59399
▁పితరుల	-9.59399
▁Home	-9.59527
ట్రా	-9.597
▁మరణం	-9.59817
▁నూతన	-9.59837
▁వ్యా	-9.5984
▁ఉద్యోగ	-9.59951
▁వడ్డీ	-9.60103
ET	-9.60122
▁సేకరించ	-9.6017
▁నిలిచి	-9.60185
▁పైపు	-9.60187
▁ఫ్యాషన్	-9.60192
▁పార్	-9.60283
▁హెడ్	-9.6029
▁ఉపరితల	-9.60312
▁ప్రధానంగా	-9.60345
▁వ్యవసాయ	-9.60352
▁నిమిషాల	-9.60393
▁వీరు	-9.60416
జన్	-9.60448
▁సిద్ధం	-9.60496
▁ఉంటారు	-9.60571
▁కొనసాగించ	-9.60597
82	-9.60601
▁వాటర్	-9.6072
▁ఎవరూ	-9.60727
▁విభాగం	-9.60759
▁తీసుకో	-9.60932
▁సగం	-9.60948
▁ఉన్నాను	-9.60971
▁సిబ్బంది	-9.60995
▁మోడ్	-9.61028
▁ఆనందం	-9.61032
▁ప్రొఫైల్	-9.61085
▁విశ్వాసం	-9.61088
కర్త	-9.61127
▁యెడల	-9.61142
our	-9.61198
oo	-9.6121
▁సమీప	-9.61252
87	-9.61301
▁నిపుణుల	-9.61304
▁క్లా	-9.61318
▁అనుకూలంగా	-9.61481
▁ఫలితంగా	-9.6152
▁90	-9.61569
▁పర్యావరణ	-9.61613
▁భవనం	-9.61641
▁(3	-9.61669
▁అన్న	-9.61682
▁జర్మనీ	-9.61714
▁పరిపూర్ణ	-9.61714
79	-9.6174
▁యొక	-9.61746
▁చేతులు	-9.61766
ts	-9.61776
▁కేసు	-9.61798
▁వేర్	-9.61814
రూప	-9.61937
▁కోరిక	-9.61949
hu	-9.62054
▁ఉండదు	-9.6206
▁స్థలం	-9.62073
▁కలిపి	-9.62132
▁జ్ఞానం	-9.62305
బడును	-9.62319
▁ట్రేడింగ్	-9.62353
▁కమిటీ	-9.62438
▁రోలర్	-9.62476
▁మర	-9.62496
చర	-9.62504
▁వందల	-9.62515
బ్బ	-9.62525
▁కట్	-9.6258
▁గరిష్ట	-9.62684
న్నీ	-9.62762
▁సభ్యులు	-9.62763
▁2010	-9.62839
▁మంచిది	-9.62898
సిస్	-9.62948
▁సౌలు	-9.6297
రియన్	-9.62998
ుడైన	-9.63055
AL	-9.63194
ke	-9.63205
da	-9.63289
క్సి	-9.63295
▁దేశాల	-9.63367
▁అంటారు	-9.63381
▁రాజకీయ	-9.63443
▁45	-9.6347
▁టో	-9.63509
▁సరిగ్గా	-9.63535
ుతోంది	-9.63567
▁యెహోవాకు	-9.6359
▁అనుకూలమైన	-9.63671
వాద	-9.63791
▁ఇదిగో	-9.63816
▁(20	-9.63872
▁పలు	-9.6389
▁పుట్టిన	-9.63895
▁రసాయన	-9.63903
▁నిర్మించ	-9.63915
తుల	-9.64002
▁బ్యా	-9.64088
ందో	-9.64168
▁దూర	-9.64181
టరీ	-9.64212
▁ప్లేయర్	-9.64217
▁ప్రీ	-9.64252
▁రూప	-9.64266
▁\	-9.64326
▁చెల్ల	-9.64355
▁తిన	-9.64554
బర్	-9.64688
▁యుద్ధ	-9.64724
▁కోర్	-9.64729
▁గ్లాస్	-9.64835
▁మహిళల	-9.64998
▁వీక్షణ	-9.65022
▁కస్టమ్	-9.65109
రాన్	-9.6511
▁ప్రొ	-9.6515
కూ	-9.65171
▁అమ్మకాలు	-9.65297
▁యునైటెడ్	-9.65577
▁చేస్తాము	-9.65594
▁కంట్రోలర్	-9.6567
▁సూచిస్తుంది	-9.6567
మరియు	-9.65694
▁పసుపు	-9.65765
▁తెచ్చ	-9.6584
‍	-9.65857
▁సేకరణ	-9.65871
▁e	-9.65936
▁సరిహద్దు	-9.65952
స్కో	-9.66018
▁ఆటోమేటిక్	-9.66046
గురు	-9.66077
▁పరిగణించ	-9.66121
cm	-9.66131
ud	-9.66179
▁భర్త	-9.66214
▁జిఎస్టి	-9.66224
ుతాయి	-9.6627
▁విశ్రాంతి	-9.66325
్యము	-9.66355
▁కాపాడ	-9.66356
▁క్రమ	-9.66361
బడు	-9.66365
▁జోడించ	-9.66387
▁స్పష్టమైన	-9.66567
▁సరళ	-9.66584
▁చూపించ	-9.66615
▁రేటింగ్	-9.66647
▁గాయ	-9.66659
▁ప్రయత్న	-9.66694
▁ప్రజలకు	-9.66697
84	-9.66701
▁వాయిస్	-9.66714
▁ఆయిల్	-9.66719
ుకుంటుంది	-9.66748
▁సమూహం	-9.6675
దేశ	-9.66803
▁శి	-9.6681
q	-9.66826
్యం	-9.66827
▁అనుమతించ	-9.66827
▁ఎగుమతి	-9.66898
▁వైట్	-9.66915
▁నున్న	-9.67015
RE	-9.6704
▁షా	-9.67093
▁మస్క్	-9.67098
▁సందర్శించిన	-9.67115
▁కష్ట	-9.67128
▁విషయంలో	-9.67168
▁So	-9.67169
ba	-9.67174
sh	-9.67193
6"	-9.67267
లాండ్	-9.67268
▁మైనింగ్	-9.67292
ట్రో	-9.67307
▁Name	-9.67368
▁గ్రూప్	-9.67374
▁కనబడ	-9.6745
▁ప్రచురించ	-9.67496
▁షూ	-9.67564
▁వస్తువులు	-9.6764
డని	-9.67672
▁ఉద్యోగం	-9.67774
5"	-9.67794
he	-9.67808
▁బ్లూ	-9.67861
గం	-9.67922
▁సైన్స్	-9.67965
ub	-9.68001
▁స్థలము	-9.6802
▁ఇజ్రాయెల్	-9.68045
▁వేర్వేరు	-9.68045
▁లాక్	-9.68054
▁బ్యాగ్	-9.68193
▁సాధ్యం	-9.68232
93	-9.68244
▁ఆలోచించ	-9.68253
సిన	-9.68429
▁అమెచ్యూర్	-9.6843
▁టైప్	-9.68454
స్తా	-9.68498
ity	-9.68504
▁నామము	-9.6853
org	-9.68587
▁ధర్మ	-9.68631
▁ఉండి	-9.68638
▁కంట్రోల్	-9.6872
తుంది	-9.68729
జే	-9.68741
bu	-9.68762
▁వినియోగం	-9.68823
గె	-9.68907
ca	-9.68922
▁సంతోషంగా	-9.6893
LE	-9.68957
పోయి	-9.68999
లిక్	-9.6903
9"	-9.69066
▁80	-9.6908
▁వార్	-9.6909
బ్రా	-9.69171
బడెను	-9.69198
▁కోట	-9.69198
▁కౌ	-9.69258
▁కంపెనీలు	-9.69263
ఫర్	-9.69393
ite	-9.69427
▁హే	-9.69439
▁విభిన్న	-9.69497
▁US	-9.69507
▁టెక్స్ట్	-9.69525
ధా	-9.69567
గలదు	-9.69569
▁మిస్	-9.69583
▁వారాల	-9.69616
▁సేవల	-9.69652
▁చర్యలు	-9.6968
ish	-9.69689
▁సాఫ్ట్	-9.69799
▁రైల్వే	-9.69808
▁జంట	-9.6982
▁ఇంగ్లీష్	-9.69967
▁పరికరాల	-9.69971
▁EA	-9.7003
▁ఎంతో	-9.70062
చిన	-9.70073
ive	-9.70092
▁cryptocurrency	-9.70092
పం	-9.70129
▁పిల్ల	-9.7014
▁ఎంచ	-9.70151
▁భాగస్వామి	-9.70183
▁2009	-9.7023
▁సమీపంలో	-9.70293
▁ట్రిప్	-9.70328
▁ఫో	-9.70349
▁IP	-9.7036
త్వ	-9.70446
ణి	-9.70454
▁చల్లని	-9.70471
▁ప్రవేశించ	-9.70504
end	-9.7052
▁ఇటలీ	-9.70576
▁ఉన్నప్పటికీ	-9.70648
▁కంటైనర్	-9.70674
▁అమ్మాయిలు	-9.70821
▁శ్రమ	-9.70853
▁పరిష్కరించ	-9.70876
▁వచ్చినప్పుడు	-9.7091
▁సురక్షితంగా	-9.70938
▁కళాశాల	-9.70974
▁వర్	-9.70979
▁దగ్గరగా	-9.70979
కెట్	-9.71061
ఎన్	-9.71078
శాల	-9.71183
▁చేస్తాయి	-9.71205
▁సర్వే	-9.71221
ద్ధ	-9.71253
▁విడి	-9.71261
దర	-9.71272
▁పూర్వ	-9.71279
▁నింప	-9.71318
▁కుమారుల	-9.71342
▁వాక్కు	-9.7137
▁2000	-9.71415
▁బహుమతి	-9.71467
▁అందువల్ల	-9.71467
ni	-9.71483
▁బైక్	-9.71514
▁కేంద్రం	-9.71519
జేయ	-9.7153
▁సమాచార	-9.71544
ాల్సిన	-9.71563
▁కనిపించే	-9.71571
▁ఎలక్ట్రానిక్	-9.71641
▁కొట్ట	-9.71755
▁కట్టుబడి	-9.71761
▁సంతోష	-9.71787
కారం	-9.7182
ఖా	-9.71841
▁అడ్డ	-9.71853
▁మందు	-9.71867
▁జారీ	-9.71914
సర	-9.71931
రిన్	-9.71965
▁అవకాశాలు	-9.7212
ob	-9.72151
చేసిన	-9.72178
▁దూత	-9.72227
▁సన్	-9.72236
SS	-9.72286
▁సువార్త	-9.72365
▁చేస్తున్న	-9.72368
▁విధ	-9.72386
రోజు	-9.72447
నుగూర్చి	-9.72478
▁300	-9.72487
▁ఇష్టం	-9.72554
▁చేసుకో	-9.72595
వేసి	-9.72632
మీదికి	-9.72641
ార్థ	-9.72657
▁దీనిలో	-9.727
▁మహిమ	-9.72718
▁పెరుగుతున్న	-9.7277
▁ఉండండి	-9.72775
▁అధికారం	-9.72792
గానే	-9.7283
▁అనుభూతి	-9.72868
▁పర్సనల్	-9.72868
▁చీ	-9.72894
▁వాస్తవ	-9.72908
▁ఉన్నాము	-9.72935
▁లేకపోతే	-9.72951
▁పొందుతారు	-9.72995
▁దిన	-9.73023
▁చేసుకున్న	-9.73073
▁గంట	-9.73195
చిత్ర	-9.7323
వాడ	-9.73297
థా	-9.73309
ేషన్	-9.73312
▁TV	-9.73453
▁మంచు	-9.73459
▁నది	-9.73461
▁ప్రీమియం	-9.73475
▁వంట	-9.735
▁బిడ్డ	-9.73525
▁ఇసుక	-9.73578
చ్చు	-9.73614
▁జల	-9.73621
▁దిగువ	-9.73623
▁కటింగ్	-9.73636
▁ఐగుప్తు	-9.73677
▁se	-9.73694
▁కన్నా	-9.73719
▁అపవిత్ర	-9.7378
▁టచ్	-9.73829
▁ఉంచండి	-9.73841
hd	-9.73877
ించడానికి	-9.73917
▁చెట్టు	-9.73921
▁ఇక	-9.73969
▁రబ్బరు	-9.73984
పుడు	-9.73986
▁అప	-9.7402
▁టు	-9.74023
yl	-9.74026
ేది	-9.74066
▁సర్టిఫికేషన్	-9.74086
▁2008	-9.74097
7"	-9.7412
▁బోధ	-9.74183
ూరు	-9.74211
దురు	-9.74239
▁పున	-9.74303
▁బం	-9.74329
▁మెయిల్	-9.74339
▁పురాతన	-9.74393
▁యూరోపియన్	-9.74393
▁తె	-9.74416
తె	-9.74418
ies	-9.74476
▁33	-9.74489
▁ఇంజిన్	-9.74495
▁నివేదిక	-9.745
▁బొ	-9.74593
కరణ	-9.7461
94	-9.7467
▁ప్రజాదరణ	-9.74701
▁ప్రాసెస్	-9.74715
▁USD	-9.74762
▁నమూనాలు	-9.74788
▁మాడ్యూల్	-9.74803
ుచున్నది	-9.7481
▁బీమా	-9.74827
▁గంటలు	-9.74832
▁స్కా	-9.74844
▁నిరంతర	-9.74913
▁కీర్తి	-9.74926
▁లేదో	-9.74938
sk	-9.75001
ఇది	-9.75146
ః	-9.7521
▁షాపింగ్	-9.75222
96	-9.75257
ప్పటికీ	-9.75276
▁మొదలు	-9.75348
రవ	-9.75352
స్టు	-9.75361
క్టర్	-9.75364
ash	-9.75406
▁విస్తృతంగా	-9.75463
లైన్	-9.75545
▁తీసి	-9.7565
▁పట్టుకొని	-9.75653
▁150	-9.75665
▁ఉంచడానికి	-9.75713
▁పొందు	-9.75766
▁తీసుకు	-9.75802
▁పత్రిక	-9.75808
ిస్తాము	-9.75817
▁దేశములో	-9.75859
▁తెలుసుకోవడానికి	-9.75902
▁పాయింట్లు	-9.75914
▁రుణ	-9.75949
▁Ar	-9.75997
ft	-9.76043
▁కనెక్షన్	-9.76045
▁కార్బన్	-9.76045
ాంత	-9.76116
ుకోవాలి	-9.7615
▁జన	-9.7621
నందున	-9.76243
▁మాటలు	-9.7625
రియ	-9.76281
▁స్టోర్	-9.76361
▁ఇన్పుట్	-9.76463
▁స్వతంత్ర	-9.76464
డైన	-9.76504
▁సృష్టించబడింది	-9.76524
▁స్వయంచాలక	-9.76553
గొ	-9.76558
▁తేడా	-9.76615
▁పర్యటన	-9.76672
యిన్	-9.76737
స్తూ	-9.76739
IS	-9.76758
▁ఆపై	-9.76758
▁నీతి	-9.76821
▁సామర్థ్యాన్ని	-9.76839
▁డ్రా	-9.76842
▁పాల్	-9.76843
ట్లయితే	-9.76859
▁వడపోత	-9.76881
▁DC	-9.76916
–	-9.76964
▁ప్రెస్	-9.77005
▁యెదుట	-9.77124
▁అనుసరించ	-9.77125
ప్రా	-9.77156
ide	-9.77225
▁ప్రోత్సహించ	-9.77284
▁జపనీస్	-9.77302
▁వివరించ	-9.77311
▁ఇందులో	-9.77329
▁అంతటా	-9.77365
▁సర్వ	-9.77392
▁ప్రత్యేకమైన	-9.77409
ard	-9.7742
వులు	-9.7743
ast	-9.77486
▁ఇంటికి	-9.77504
▁మైక్రో	-9.77517
▁జత	-9.77531
▁అత్యుత్తమ	-9.77619
▁అనుకుంటున్నారా	-9.77619
▁చైనీస్	-9.77703
▁స్థిరమైన	-9.77812
▁పైకి	-9.77821
ాల్సి	-9.77821
▁మధ్యలో	-9.77832
▁కొందరు	-9.7785
▁లెట్	-9.77867
▁బ్రౌజర్	-9.77937
▁యెరూషలేము	-9.77978
▁యంత్ర	-9.77987
▁రుచి	-9.78047
పూర్	-9.78059
▁కోల్పో	-9.78061
▁ఆదాయం	-9.78103
▁పరిశీలించ	-9.78146
oc	-9.78282
▁ఛా	-9.7833
▁యూ	-9.78345
ణం	-9.78353
▁తలుపు	-9.78392
▁యాకోబు	-9.78469
-8	-9.78471
ంటు	-9.7853
▁తెలియజేయ	-9.78594
ితే	-9.78634
▁బలి	-9.78635
▁కాయిల్	-9.78639
go	-9.78705
▁రోజుల్లో	-9.78709
▁రేడియో	-9.78794
▁విస్తరించ	-9.7882
▁రంగంలో	-9.78827
చ్చి	-9.78867
lu	-9.78871
▁వహించ	-9.78883
తాను	-9.78891
▁పగడపు	-9.78896
▁తెలుసుకోండి	-9.78896
▁హృదయ	-9.78947
fe	-9.78955
డెన్	-9.78967
▁మత	-9.78996
▁నొప్పి	-9.79004
▁అడుగుల	-9.79006
-5	-9.79028
▁మును	-9.79104
▁అభ్యర్థన	-9.79111
▁అందించడం	-9.79155
ువాడు	-9.79193
▁స్విచ్	-9.79258
▁కళ్ళు	-9.79318
▁అవుట్పుట్	-9.79326
▁రోల్	-9.79342
▁జూ	-9.79379
▁విశ్వవిద్యాలయ	-9.79412
▁పూత	-9.79412
▁నిరంతరం	-9.79426
▁నోటి	-9.79437
▁నేనే	-9.79441
▁చల్ల	-9.7949
▁తక్కువగా	-9.79576
ster	-9.79664
▁ట్రాన్స్	-9.79669
▁టోకు	-9.79745
ద్ర	-9.79758
నీవు	-9.79769
▁క్ర	-9.79786
▁నిర్ణయ	-9.7986
▁కత్తి	-9.79893
▁గదా	-9.79896
దె	-9.79913
భా	-9.79945
▁ఫోర్	-9.79994
▁మహ	-9.80011
▁బోధించ	-9.80021
పింగ్	-9.8005
ind	-9.80082
▁గమనిక	-9.80093
▁కనిపించ	-9.80124
▁ద్రవ	-9.80173
▁స్లాట్	-9.80183
▁సమగ్ర	-9.80211
▁వాల్యూమ్	-9.80299
▁ప్రారంభంలో	-9.80302
▁లక్షణాలను	-9.80323
▁Me	-9.80356
నీయ	-9.8036
▁ఫాస్ట్	-9.80365
▁విజయ	-9.80373
▁దూరం	-9.80402
పతి	-9.80427
యల్	-9.80461
▁క్రిస్మస్	-9.80516
పత్ర	-9.80608
▁లోతైన	-9.80627
▁పోలి	-9.80643
ుకున్నారు	-9.80659
▁యుండ	-9.80711
▁ఎంటర్	-9.80717
-10	-9.80826
▁మెదడు	-9.80844
కాలము	-9.80855
▁ఫ్రీ	-9.80865
▁ఇంత	-9.80868
▁తోట	-9.80877
▁మగ	-9.80884
▁నిపుణులు	-9.80903
సులు	-9.81128
▁నిమిత్తము	-9.81157
▁పేర్కొన్న	-9.81178
97	-9.81183
IC	-9.81207
ai	-9.81304
▁ఊహించ	-9.81344
చా	-9.81445
▁రాజైన	-9.81545
▁ప్రపంచంలోని	-9.81551
▁రింగ్	-9.81562
▁నై	-9.8158
▁సౌర	-9.81596
▁ఆపిల్	-9.81602
▁సంగతి	-9.81613
▁ప్రకృతి	-9.81618
▁సంతృప్తి	-9.81635
గ్ర	-9.81639
▁ముఖ్య	-9.8174
ష్య	-9.81809
జ్ఞ	-9.8189
▁ఇచ్చ	-9.81892
ుతూ	-9.82032
▁[...]	-9.82052
▁with	-9.82053
▁పొడిగింపు	-9.82056
లాగు	-9.82128
ందా	-9.82141
▁చేయాలని	-9.82164
▁Sp	-9.82209
▁గూర్చి	-9.8221
▁చనిపో	-9.82211
సూ	-9.8228
pa	-9.82373
▁XXX	-9.82439
▁జ్ఞాన	-9.8247
▁అర	-9.82477
▁హృదయము	-9.82517
▁ఇటీవల	-9.82522
▁దేశాలు	-9.8258
▁ప్రదేశం	-9.82628
▁స్కూల్	-9.82648
▁గ్రంథ	-9.82655
▁మందులు	-9.82684
▁జనరల్	-9.82726
▁2007	-9.82735
గొట్ట	-9.8274
▁కార్డులు	-9.82752
ist	-9.8277
▁·	-9.82783
లేము	-9.82794
▁సే	-9.82802
color	-9.8283
▁పెరిగింది	-9.82839
▁నలుపు	-9.82844
▁పేటెంట్	-9.8294
▁శ్రద్ధ	-9.8294
▁Pro	-9.82953
▁మోసం	-9.82966
▁బ్యాక్	-9.8298
▁ఎడమ	-9.83002
▁చేసుకోవచ్చు	-9.83027
2018	-9.83027
▁పబ్లిక్	-9.83052
▁స్పేస్	-9.83053
▁ఎక్	-9.83057
▁ఫ్లాట్	-9.8306
▁భయం	-9.83196
▁నాటికి	-9.83239
▁గ్యాస్	-9.83278
▁బ్రేక్	-9.83279
▁వస్తాయి	-9.83335
▁చున్న	-9.83345
▁కార్యక్రమాలు	-9.83351
▁కమ్యూనికేషన్	-9.83388
▁యుద్ధము	-9.8343
▁పనులు	-9.83431
గీ	-9.83436
▁కర్	-9.83438
రేట్	-9.83447
▁ప్లాన్	-9.83447
▁కృప	-9.83509
▁అన్నారు	-9.8351
▁స్నేహితులు	-9.83539
▁తీసుకోవడం	-9.83572
▁శాస్త్ర	-9.83594
▁అంశాలు	-9.836
ion	-9.83634
▁ప్రాణము	-9.83653
రుగు	-9.83683
▁నియంత్రించ	-9.837
▁హీరో	-9.83756
ew	-9.83769
gu	-9.83782
▁సహకారం	-9.83814
లియా	-9.83838
▁సౌకర్యం	-9.83855
0%	-9.83918
▁భౌతిక	-9.83949
ాంశ	-9.83984
▁నీలం	-9.83992
▁జంతువులు	-9.84003
వైపు	-9.84089
able	-9.84089
▁సెయింట్	-9.84175
▁మ్యాప్	-9.84225
▁కలప	-9.84255
▁దేని	-9.84267
port	-9.84268
▁థీమ్	-9.84288
▁వసంత	-9.84291
▁తీయ	-9.84308
▁లక్ష్య	-9.84414
ight	-9.84433
▁పరిమితి	-9.84437
▁విశ్వాస	-9.84441
▁ఉండటానికి	-9.84492
▁అసాధారణ	-9.84498
▁షో	-9.84521
▁భయపడ	-9.84526
▁దుష్ప్రభావాలు	-9.84584
▁క్రీడలు	-9.84618
▁ఎప్పుడు	-9.84669
ైతే	-9.84692
▁విలువైన	-9.84695
▁ఎంచుకున్న	-9.84701
▁అప్పటి	-9.84716
0.0	-9.84734
▁మాస్టర్	-9.84736
▁ప్రతికూల	-9.84742
తున్న	-9.84754
▁గ్రహించ	-9.84867
▁రూపొందించబడింది	-9.84905
▁చేస్తున్నారు	-9.84919
ain	-9.84946
▁మాన్యువల్	-9.84969
▁ధ	-9.85019
ంగి	-9.85024
iv	-9.8508
రక్ష	-9.85082
ాలనుకుంటే	-9.85128
▁రకాలు	-9.85155
▁విభాగాలు	-9.85182
ya	-9.85193
థ్	-9.85239
పోయెను	-9.85309
▁శుభ్రం	-9.8531
▁షె	-9.85322
న్యా	-9.8534
▁Mo	-9.85431
300	-9.855
ps	-9.85509
▁ఆసక్తికరమైన	-9.85554
▁ప్రకటనలు	-9.8564
▁సిద్ధ	-9.85649
వాన్	-9.85659
▁నాశనం	-9.85659
వచ్చి	-9.85667
హె	-9.85682
▁An	-9.85682
▁వాస్తవానికి	-9.8573
ందరు	-9.85739
▁సైట్లు	-9.85773
▁అనుభవించ	-9.85778
▁ఉంటా	-9.8583
MC	-9.85847
▁నవీకరణ	-9.85861
▁పంట	-9.85868
▁జపాన్	-9.85922
వార	-9.86107
▁టాబ్లెట్	-9.86115
▁ప్రయత్నించ	-9.86127
▁కండరాల	-9.86189
▁సంవత్సరంలో	-9.86189
▁దాటి	-9.86222
▁డిమాండ్	-9.86229
▁ఛానల్	-9.86235
▁అనువాద	-9.86331
ుకుంది	-9.86347
▁చేస్తే	-9.86356
▁టూల్స్	-9.86412
▁బిట్	-9.86563
▁గ్రహ	-9.86576
▁నెట్	-9.86626
▁షి	-9.86649
▁టెక్	-9.86709
ఢ	-9.86716
res	-9.86718
▁మిశ్రమ	-9.86726
స్టిక్	-9.86739
▁సంగీత	-9.86744
▁నిజం	-9.86755
▁ఆవిష్కరణ	-9.86808
▁ma	-9.86809
▁దేవుడ	-9.8683
ear	-9.86876
▁వార్షిక	-9.86921
రెన్	-9.86958
▁నిండి	-9.86962
▁పార	-9.8701
▁ప్రాణ	-9.87071
▁అనుకుంటున్నాను	-9.87156
▁అయినా	-9.87198
టెక్	-9.87214
▁ఇచ్చింది	-9.87238
▁రాగి	-9.87241
▁పంపిన	-9.87355
▁అనా	-9.87374
▁డేటాబేస్	-9.87388
ిస్తున్నారు	-9.87389
▁పార్ట్	-9.87462
▁ప్రాజెక్టు	-9.87493
▁అలంకరణ	-9.87505
▁చేయబడ	-9.87535
▁ధ్వని	-9.87567
▁వర్ణ	-9.8762
▁కార్యాలయం	-9.87622
▁భీమా	-9.87659
▁మంత్రి	-9.87685
ass	-9.87706
(1	-9.87728
▁అవుట్	-9.87737
▁చదరపు	-9.87739
▁లాగిన్	-9.87739
▁అమర్చ	-9.87769
▁అంతట	-9.8779
ci	-9.87838
▁నివసించ	-9.87846
▁మెరుగైన	-9.87856
సారి	-9.8787
▁వాడుక	-9.87903
ber	-9.87941
▁ఫ్ల	-9.87999
▁అధునాతన	-9.8809
▁ప్రతిబింబ	-9.8809
▁OEM	-9.88091
tion	-9.88115
ఫో	-9.8812
GB	-9.88126
▁48	-9.88142
▁ఒప్ప	-9.88171
▁ఫలితాలను	-9.88193
ust	-9.8823
ల్యా	-9.88252
లమీద	-9.8832
▁ఆండ్రాయిడ్	-9.88326
day	-9.88361
▁కఠినమైన	-9.88389
buzz	-9.88446
▁తీసుకొని	-9.88464
ల్లీ	-9.88537
▁సేవా	-9.88558
▁రౌండ్	-9.88562
▁నటించ	-9.88573
▁వివాహ	-9.88574
▁బేరింగ్	-9.88579
▁టూల్	-9.88612
▁వాతావరణ	-9.88615
▁లూ	-9.88642
▁అసెంబ్లీ	-9.88679
▁ముఖ	-9.88724
టెన్	-9.88728
డాన్ని	-9.88741
▁పేజీలు	-9.88775
▁సమాజ	-9.8878
ూర్	-9.88795
▁విండోస్	-9.88813
టల్	-9.8887
యున్నది	-9.88871
▁USB	-9.88886
▁ఇతరుల	-9.88888
▁ఫార్	-9.88918
▁సమయ	-9.89005
జింగ్	-9.89013
వల్	-9.89072
▁కార్య	-9.89092
పాల	-9.89113
బై	-9.89114
▁సెం	-9.89134
mi	-9.89175
▁వృద్ధి	-9.89275
▁దృష్టికి	-9.89308
fi	-9.89352
పాత	-9.89481
ీయుల	-9.89489
▁విమాన	-9.89494
లెస్	-9.89495
▁వేసి	-9.89497
▁సూ	-9.89499
▁తెలివైన	-9.89512
▁వీధి	-9.89541
ించాడు	-9.89626
▁నైపుణ్యం	-9.89639
ంజ	-9.89674
ki	-9.89676
కై	-9.89685
యన	-9.89722
▁ముద్ర	-9.8977
▁చూ	-9.89775
▁డేటింగ్	-9.89794
వంత	-9.89818
▁జరగ	-9.89878
ko	-9.89883
▁రూపం	-9.89929
(2	-9.89955
▁ఫీజు	-9.89988
▁ISO	-9.89988
ద్య	-9.90127
▁వచ్చెను	-9.90149
ుదును	-9.90164
▁బర్	-9.90192
min	-9.90198
నల్	-9.90213
పోతుంది	-9.90234
▁దుస్తుల	-9.9024
▁ఆర్ట్	-9.90312
రేషన్	-9.90313
▁పెంచడానికి	-9.9032
▁గ్రేడ్	-9.90324
▁పరిస్థితులు	-9.90338
▁నేషనల్	-9.90349
▁70	-9.90379
యిల్	-9.90415
▁మేకింగ్	-9.90422
pl	-9.90449
▁లైసెన్స్	-9.90467
▁శ్రేణి	-9.90467
▁స్వయంచాలకంగా	-9.90483
▁లేఖ	-9.90518
▁ఉండేది	-9.90531
▁షే	-9.90563
▁స్థాపించ	-9.9058
▁వెళ్ళండి	-9.90628
▁హాని	-9.90644
▁మొదల	-9.90659
ణు	-9.90662
▁అంశాల	-9.90806
▁సమస్త	-9.90845
స్తాయి	-9.90858
▁ప్రకారము	-9.90878
▁ఉందని	-9.9088
▁ఆకారం	-9.90899
▁అలాంటి	-9.90935
▁అప్పగించ	-9.90953
out	-9.91015
▁Wi	-9.91017
ినయెడల	-9.91029
▁సూక్ష్మ	-9.9107
▁కాక	-9.91211
ండింగ్	-9.91308
▁తీసుకుని	-9.9133
▁బెడ్	-9.91341
▁నంబర్	-9.91374
▁సంభాషణ	-9.91434
▁చీకటి	-9.91434
▁ఎనిమిది	-9.91453
▁ప్యా	-9.9147
▁సంఘటన	-9.91474
▁బోధన	-9.915
కుడి	-9.91543
▁నేపథ్య	-9.91555
▁సమర్థవంతంగా	-9.91555
▁శిశువు	-9.91579
▁బేబీ	-9.91581
▁అంశాలను	-9.91593
ింపబడ	-9.91613
▁టెస్ట్	-9.91614
ప్రె	-9.91623
▁00	-9.91625
▁sp	-9.91682
▁ప్రియ	-9.91724
ik	-9.91726
▁me	-9.91774
ారో	-9.91778
▁రేట్లు	-9.91863
▁దాడి	-9.91873
▁గేర్	-9.91912
▁ప్రాంతాల్లో	-9.91932
sa	-9.91952
▁Po	-9.91954
pr	-9.9199
▁డ్రాప్	-9.92013
▁క్రిప్టో	-9.92043
▁పొందింది	-9.92063
తోకూడ	-9.92095
▁సురక్షిత	-9.92155
▁శక్తిని	-9.92216
▁సులభమైన	-9.92219
▁భారతీయ	-9.92224
▁రూపంలో	-9.92257
వారై	-9.92257
▁మేనేజర్	-9.92288
▁రష్యా	-9.92288
▁2006	-9.92315
పూ	-9.9235
▁చేశాడు	-9.92353
ue	-9.92384
RO	-9.92386
Hz	-9.92387
▁రంగులు	-9.92405
▁ఇంటర్	-9.92486
▁సింహ	-9.92503
▁వరుస	-9.92529
▁బౌ	-9.92563
▁ఖర్చులు	-9.92597
▁సంబంధ	-9.92601
▁ప్రియమైన	-9.92612
▁ప్యాక్	-9.92691
▁చేస్తున్నాను	-9.92737
▁సత్య	-9.92745
▁అయి	-9.92756
▁ఎప్పుడైనా	-9.92779
▁కారణ	-9.92782
▁ఆదా	-9.92811
▁మౌంట్	-9.92914
▁ధరలు	-9.92921
లెన్	-9.92928
▁ప్రాధాన్యత	-9.92961
▁ట్రాఫిక్	-9.93029
పాటు	-9.93033
▁ch	-9.93051
SP	-9.93055
▁నిర్ణయం	-9.93111
సియా	-9.93119
▁మనుష్యుల	-9.93134
టికి	-9.93134
▁పెంచుతుంది	-9.93194
▁బెల్ట్	-9.93195
RA	-9.93256
▁సార	-9.93338
భవ	-9.9336
▁pro	-9.93398
▁త్రాగ	-9.93445
▁అస	-9.93494
▁ఉత్పత్తులను	-9.93506
▁ఆపరేటింగ్	-9.9352
లెట్	-9.93522
ంటా	-9.93522
▁సమర్పించ	-9.93602
ీకృత	-9.93625
▁మీటర్ల	-9.93634
mb	-9.93641
▁పక్ష	-9.93647
▁గాజు	-9.93661
ఫ్రె	-9.93663
uk	-9.93683
▁ఉదయం	-9.93686
▁నాటక	-9.93695
▁తొలి	-9.93709
▁అంగ	-9.93714
▁డో	-9.93729
ుచున్నారు	-9.93755
▁స్థాయిలో	-9.93779
ార్ధ	-9.93782
▁ట్రె	-9.93801
▁అద్భుత	-9.93803
▁j	-9.93807
▁వీక్షించడానికి	-9.93813
$	-9.93816
యున్నాను	-9.9382
▁తెలిసి	-9.93842
▁(5	-9.93849
▁ఇష్టమైన	-9.93869
▁భాగాల	-9.93888
▁ఎస్టేట్	-9.93898
▁అయస్కాంత	-9.94017
▁ఫారెక్స్	-9.94017
▁సంబంధాలు	-9.94066
యింగ్	-9.94111
▁హెచ్	-9.94163
▁ఫ్రాన్స్	-9.94267
▁అవసరాలను	-9.94277
▁వినియోగ	-9.94281
▁దోషము	-9.9429
▁చెప్పండి	-9.9432
▁పేర్లు	-9.94345
పని	-9.94417
▁లై	-9.94438
▁ఫీల్డ్	-9.94438
▁సభ్యుల	-9.94465
▁వ్యర్థ	-9.94519
ఓ	-9.94526
▁ST	-9.94536
va	-9.94551
▁పండు	-9.94625
tor	-9.94629
▁సామర్ధ్యం	-9.94642
▁Mac	-9.94668
▁జరిగినది	-9.9475
▁టెస్టోస్టెరాన్	-9.94768
ుచున్నాడు	-9.94836
▁క్లో	-9.94856
▁ప్రత్యామ్నాయ	-9.94892
▁అహరోను	-9.94893
▁ఉపయోగిస్తుంది	-9.94948
▁వీటిలో	-9.95009
లొ	-9.95011
▁సైనిక	-9.95074
▁ఆంగ్ల	-9.95083
▁మినీ	-9.95167
బ్యా	-9.95183
మైంది	-9.95217
డవ	-9.95227
▁నైట్	-9.9523
▁అడవి	-9.95274
▁AC	-9.9533
▁34	-9.95386
▁వస్తువుల	-9.9541
▁సృష్టి	-9.95465
▁min	-9.9547
ట్రిక్	-9.955
▁అత్యవసర	-9.95524
▁పైకప్పు	-9.95524
▁ప్రభువైన	-9.95525
▁మొక్క	-9.95584
▁పశువుల	-9.95615
▁ప్రయోజనాల	-9.95648
str	-9.95655
▁విడిచి	-9.95664
▁కొంతమంది	-9.95674
int	-9.95682
▁విభజించ	-9.95691
▁వాసన	-9.95703
▁ఎప్పటికీ	-9.95738
MP	-9.9574
*	-9.95809
US	-9.95819
▁ఫ్లో	-9.95898
eng	-9.95924
▁పారిస్	-9.95953
▁యూరో	-9.96017
▁ఇల్లు	-9.96042
▁అర్ధ	-9.96109
▁ఇండియా	-9.96167
స్టో	-9.96188
శు	-9.96225
▁మిశ్రమం	-9.96258
▁కిట్	-9.96296
▁ఉన్నా	-9.96333
▁మాటలాడ	-9.96354
▁పోవు	-9.9637
▁గుణ	-9.96427
▁సిరా	-9.96464
▁సాంకేతికత	-9.96524
▁చుట్టు	-9.96538
▁వయసు	-9.96541
ణ్	-9.96545
▁గొ	-9.96546
ఠ	-9.96587
▁చూపు	-9.9664
▁పెరుగుతుంది	-9.96672
ండా	-9.96694
▁నేటి	-9.96698
▁250	-9.96703
ep	-9.96747
హం	-9.96765
▁వెలుపల	-9.96797
▁ఏర్పడ	-9.96845
▁→	-9.96857
▁తెల్ల	-9.96899
ిస్తోంది	-9.96915
▁మాక్స్	-9.96946
వెన్	-9.96961
▁వాట్	-9.96979
-6	-9.97009
▁తప్పించ	-9.9703
art	-9.97031
▁దిగుమతి	-9.97053
▁హింస	-9.97073
▁120	-9.97102
▁ఎన్న	-9.97146
▁పాస్వర్డ్	-9.97182
be	-9.97208
పరచు	-9.97212
ెదరు	-9.97236
ులైన	-9.97312
షణ	-9.97313
▁క్వా	-9.97337
▁సమాన	-9.97356
త్తి	-9.97362
దర్	-9.97398
ug	-9.97403
▁సైజు	-9.97464
les	-9.97561
▁బజాజ్	-9.97698
▁అబ్	-9.97702
ొక	-9.97708
▁గతంలో	-9.97713
▁కొని	-9.97722
▁వీరి	-9.97755
▁పరిశోధనా	-9.978
▁ఇంజనీర్	-9.97827
▁ఇంజెక్షన్	-9.97827
▁మళ్లీ	-9.97827
▁మెమరీ	-9.97827
DE	-9.9784
భి	-9.97903
▁బిగ్	-9.9791
▁అనుసరించండి	-9.97927
▁ఇవ్వడం	-9.97976
మేము	-9.97977
▁కనీస	-9.97983
▁భిన్నంగా	-9.98025
▁త్వరలో	-9.98039
tt	-9.98049
▁ఫ్రెంచ్	-9.98086
▁బహుమతులు	-9.98086
▁బయలు	-9.98089
▁వైన్	-9.98153
▁స్పీడ్	-9.98216
▁సమర్థవంతమైన	-9.98218
▁సైకిల్	-9.98234
గలరు	-9.98319
ుడిగా	-9.98329
▁మెడికల్	-9.98346
క్షన్	-9.98372
▁సరే	-9.98379
ick	-9.98455
▁మార్క్	-9.98626
▁శ్	-9.98712
▁ఖరీదైన	-9.98737
▁డిస్క్	-9.98876
▁ట్రా	-9.99096
ంటిని	-9.99109
▁కొద్ది	-9.99124
ఫు	-9.99154
కుంటే	-9.99173
▁వస్తువు	-9.99185
▁చాలామంది	-9.99194
han	-9.99213
▁సంస్కృతి	-9.99237
▁పాలు	-9.99296
▁ఆరోగ్యం	-9.99304
▁దేవ	-9.99393
AC	-9.99467
▁తేమ	-9.99473
వంటి	-9.99519
▁వెంట్రుక	-9.99524
▁సౌందర్య	-9.99656
▁దుర్	-9.99689
qu	-9.99712
▁చూచు	-9.99755
▁సున్నితమైన	-9.99788
చీ	-9.99792
▁బిలియన్	-9.99805
▁పరిమితం	-9.9984
SI	-9.99864
▁వన్	-9.99987
ga	-10.0001
▁స్టేట్స్	-10.0003
నేట్	-10.0012
▁మందిరము	-10.0015
వారందరు	-10.0018
▁స్వేచ్ఛ	-10.0018
nc	-10.0019
▁ఆయనకు	-10.0021
ఇం	-10.0022
AS	-10.0033
దము	-10.0041
▁he	-10.0045
▁జర్మన్	-10.0045
▁అభి	-10.0047
ుకుని	-10.0048
▁సంఖ్యలో	-10.005
ంటుంది	-10.0057
PC	-10.0058
ులై	-10.0062
▁తప్పక	-10.0065
▁చేసెను	-10.0065
▁ఉద్దేశ	-10.0066
▁కాగితం	-10.0067
▁చెప్పగా	-10.0069
▁రెగ్యులర్	-10.0072
▁శీతలీకరణ	-10.0072
బడే	-10.0077
▁మిమీ	-10.0079
వాహ	-10.0079
కాని	-10.0082
▁ఆమోదించ	-10.0087
▁లెక్కించ	-10.0089
మిక్	-10.0095
▁కాఫీ	-10.0095
కండి	-10.0096
▁శాస్త్రీయ	-10.0099
ST	-10.0101
ిస్తా	-10.0108
▁కృషి	-10.0112
ran	-10.0112
▁వెలుగు	-10.0112
▁రూపాన్ని	-10.0113
ner	-10.0118
టిన్	-10.0123
▁వేగవంతమైన	-10.0125
▁ప్రసార	-10.0127
▁తెగ	-10.0139
▁వంశ	-10.0141
▁ట్యాగ్	-10.0152
▁సౌకర్యవంతమైన	-10.0152
▁స్ట్రింగ్	-10.0152
▁సన్నిధిని	-10.0155
వచ్చా	-10.0155
నయెడల	-10.0157
▁రూమ్	-10.0162
క్రియ	-10.0162
▁గ్రీ	-10.0164
▁ఉపయోగాలు	-10.0164
io	-10.0164
▁కావ	-10.0165
▁కుర్చీ	-10.0165
▁మార్గము	-10.0167
NA	-10.017
▁పాలి	-10.0172
TA	-10.0174
బడలేదు	-10.0177
▁బ్యాంకింగ్	-10.0179
▁ముక్కలు	-10.018
▁ఫైలు	-10.0183
▁టైమ్	-10.0183
▁సాధ్య	-10.0185
▁ఒంటరిగా	-10.0194
▁ఉక్రెయిన్	-10.0206
▁రోబోట్	-10.0206
az	-10.0216
ఎల్	-10.0219
▁పర్యాటక	-10.0219
ser	-10.022
▁స్థిరంగా	-10.0224
▁ఆకుపచ్చ	-10.0232
▁CE	-10.0232
ee	-10.0233
▁Th	-10.0234
▁Ho	-10.0241
ator	-10.0242
▁గోధుమ	-10.0246
▁పునరుద్ధరించ	-10.0246
▁వచ్చారు	-10.0247
టివ్	-10.0248
▁సహాయపడ	-10.0254
▁దోష	-10.0255
రాదు	-10.026
▁ఆఫీసు	-10.026
▁డివిడి	-10.026
▁వరల్డ్	-10.026
▁Casino	-10.0264
టార్	-10.0265
hen	-10.0269
▁కార్యకలాపాలు	-10.027
▁To	-10.027
▁వ్యవస్థలు	-10.027
▁కమ్యూనిటీ	-10.0274
▁వ్యాప్తి	-10.0274
▁దిగి	-10.0277
▁సమస్యలను	-10.0279
▁చేసా	-10.0281
▁టైర్	-10.0283
▁బయలుదేరి	-10.0288
▁కార్యము	-10.0289
మింగ్	-10.029
▁పేపర్	-10.0293
ari	-10.0295
టూ	-10.0296
▁ఆదర్శ	-10.0299
▁చార్	-10.0299
ms	-10.0305
▁మార్కెట్లో	-10.0311
SA	-10.0312
▁ప్రయత్నం	-10.0314
▁లేవీయుల	-10.0315
వంతు	-10.0323
▁±	-10.0323
▁అపరిమిత	-10.0328
▁సెక్యూరిటీ	-10.0328
▁తీర	-10.0332
▁EUR	-10.0333
▁ఉపయోగిస్తున్న	-10.0334
ea	-10.0341
▁ఏమిటంటే	-10.0342
▁వేడుక	-10.0343
we	-10.0343
▁చార్టర్	-10.0346
తిరి	-10.0347
▁బాల	-10.0349
PA	-10.0349
త్యా	-10.0352
పట్ట	-10.0361
▁సాధించడానికి	-10.0361
▁నాయకులు	-10.0363
▁కొల	-10.0365
▁కంటి	-10.0367
ధు	-10.037
హూ	-10.037
వింగ్	-10.037
జాల	-10.0373
▁అల్ల	-10.038
దం	-10.0382
చ్ఛ	-10.0387
▁రాక్	-10.0387
▁రాయి	-10.0389
▁ఒకవేళ	-10.0397
▁రచన	-10.0398
▁బహిరంగ	-10.0399
▁మెష్	-10.0399
▁కోట్	-10.0403
దానిని	-10.0403
▁పొందడం	-10.0403
మెయిల్	-10.0406
▁వాతావరణం	-10.0407
▁ఆదాయ	-10.041
▁ఆధ్యాత్మిక	-10.041
హే	-10.0412
▁కాలము	-10.0417
▁నియమాలు	-10.0419
ాలంటే	-10.0421
▁విషయాలను	-10.0421
▁ఎఫ్	-10.0425
▁అంతస్తు	-10.0425
▁సమాధాన	-10.0426
▁నేన	-10.0427
▁ఇలాంటి	-10.0431
▁అందించిన	-10.0431
మవుతుంది	-10.0433
▁మందం	-10.0434
ందున	-10.0436
▁www	-10.0441
ess	-10.0444
హర	-10.045
వడం	-10.045
▁తెలుసుకోవ	-10.0451
▁క్లబ్	-10.0452
▁క్లాసిక్	-10.0452
▁స్ప్రింగ్	-10.0466
▁అవసరాలకు	-10.0468
▁పట్టింది	-10.0472
▁నేర్ప	-10.0474
రంగ	-10.0475
▁పాపం	-10.0479
po	-10.0481
▁గేట్	-10.0484
▁లోపలి	-10.0484
▁సంభవించ	-10.0487
mp	-10.0489
▁బంధ	-10.049
▁సహాయక	-10.0493
ొక్క	-10.0493
▁Ro	-10.0494
▁వాచ్	-10.0495
▁మేలు	-10.0498
▁2005	-10.0501
▁చేతిలో	-10.0504
▁దీప	-10.0507
▁that	-10.0508
▁పర	-10.051
వాడై	-10.0514
▁యజమాను	-10.052
▁అడ్మిన్	-10.0521
▁కార్పొరేట్	-10.0521
▁కప్	-10.0522
▁ఖాతాదారులకు	-10.0523
EC	-10.0523
కాలం	-10.0526
తాము	-10.0534
▁మృదువైన	-10.0535
е	-10.0535
▁చట్టపరమైన	-10.0535
స్తోంది	-10.0536
▁అనుకూలీకరించిన	-10.0543
ev	-10.0548
▁అందంగా	-10.0548
▁యజమాని	-10.0549
EL	-10.0557
▁De	-10.0559
▁కారణాలు	-10.056
▁పరీక్షించ	-10.0563
▁ప్లా	-10.0573
▁పాడ	-10.0575
ేటప్పుడు	-10.0576
▁విషయాల	-10.0576
▁నుండ	-10.0577
డికి	-10.0578
▁భుజం	-10.0579
▁GTS	-10.0581
రౌ	-10.0582
▁ముడి	-10.0583
▁పనిచేయ	-10.0591
sion	-10.0591
▁అర్థ	-10.0594
▁లైవ్	-10.0595
▁మండల	-10.0599
▁బాగు	-10.06
ట్లుగా	-10.06
▁మీటర్	-10.06
మంత	-10.0601
▁మిలియన్ల	-10.0605
▁భవిష్యత్తులో	-10.0607
▁పోరాడ	-10.0608
వర్త	-10.0609
బోర్డ్	-10.0612
▁SMS	-10.0613
▁400	-10.0621
du	-10.0621
▁మూవీ	-10.0623
▁వివర	-10.0626
▁వ్యాసాలు	-10.0627
▁దిగ	-10.0629
▁అందులో	-10.0632
▁షెడ్యూల్	-10.0633
▁మార్చడానికి	-10.0634
కొన	-10.0638
భావ	-10.0643
own	-10.0644
▁సంవత్సరము	-10.0644
▁అధికారులు	-10.0648
br	-10.065
▁విధానాలు	-10.0655
▁Ad	-10.0655
న్నాయి	-10.0658
▁సంకేత	-10.0661
▁Orphek	-10.0662
▁ప్రధానమంత్రి	-10.0662
▁కామ్	-10.0662
షీ	-10.0664
▁ప్రారంభించారు	-10.0665
పరిష్కరించడానికి	-10.0666
▁వాస్తవం	-10.0668
▁లుక్	-10.0669
▁ఆకాశ	-10.0671
▁పరిధిలో	-10.0674
ఫిక్	-10.0674
▁జాతి	-10.0675
▁పుస్తకాలు	-10.0676
▁అంచు	-10.0676
▁sa	-10.0678
▁సంస్థల	-10.0679
▁పట్టణం	-10.0679
▁ఎవరి	-10.0687
▁చివరికి	-10.0693
▁al	-10.0694
line	-10.0696
నాయక	-10.0697
▁ఔషధం	-10.0702
▁కార్యకలాపాల	-10.0703
2019	-10.0703
▁అమ	-10.0707
▁వాహనం	-10.0709
▁విధమైన	-10.0714
▁అందరి	-10.0718
▁ప్రారంభమైంది	-10.0721
నైనా	-10.0725
▁బిల్లు	-10.073
▁సందేశం	-10.0731
▁ఇంటర్ఫేస్	-10.0733
▁స్నేహితుడు	-10.0733
▁తొ	-10.0738
ome	-10.0739
▁స్టేట్	-10.0742
nd	-10.0742
▁సంఘ	-10.0744
▁పెంపుడు	-10.0747
టేషన్	-10.075
bi	-10.075
▁చట్ట	-10.0752
▁ప్రయత్నిస్తున్న	-10.0758
▁ఒకటిగా	-10.0758
మొ	-10.0769
స్తే	-10.0772
యిన	-10.0775
▁ఎగువ	-10.0775
లేదని	-10.0776
ace	-10.0777
గలిగ	-10.078
ుకొను	-10.0781
ళ్లను	-10.0784
app	-10.0786
▁పారి	-10.0786
పరు	-10.0787
▁క్లిప్	-10.079
▁ఫిల్టర్	-10.079
▁గోల్డ్	-10.0794
ంద్ర	-10.0795
▁ప్రభావాలు	-10.0797
▁క్రూ	-10.0798
▁పదార్థాల	-10.08
ణా	-10.0805
స్థాన	-10.0807
nt	-10.081
▁పరీక్షలు	-10.0815
▁లాభం	-10.0816
ందే	-10.0816
▁టూర్	-10.0819
▁స్కూటర్	-10.082
ేలా	-10.0823
▁తరలించ	-10.0831
▁డేటాను	-10.0836
ou	-10.0837
▁నష్ట	-10.0837
▁వేరే	-10.0839
▁దో	-10.084
పడిన	-10.0842
పోయారు	-10.0843
▁తెరవ	-10.0844
а	-10.0847
▁చమురు	-10.0847
▁ఫేస్బుక్	-10.0847
చో	-10.0853
ధన	-10.0854
▁బట్టలు	-10.0856
▁అద్దె	-10.0856
▁దేశాలలో	-10.0856
▁క్రాస్	-10.0857
▁కార్యాచరణ	-10.0862
▁తాత్కాలిక	-10.0862
▁క్యూ	-10.0864
▁ఉపయోగించిన	-10.0874
▁సెన్సార్	-10.0876
▁మూసివేయ	-10.0877
▁స్టీ	-10.0879
▁శీర్షిక	-10.0883
▁su	-10.0883
▁లక్షల	-10.0883
▁pcs	-10.0887
▁సంప్రదించ	-10.0888
ase	-10.0888
▁ప్రాధమిక	-10.089
▁మల్టీ	-10.0891
▁జ్ఞానము	-10.0891
▁మెగా	-10.0891
▁or	-10.0893
▁కాస్టింగ్	-10.0894
▁వున్న	-10.0895
▁పోల్చ	-10.0895
▁దినము	-10.0899
▁హక్కులు	-10.0902
▁విషయ	-10.0909
▁MS	-10.091
▁సమయము	-10.091
▁గుడారము	-10.0911
వేయు	-10.0911
▁info	-10.0913
▁తక్షణ	-10.0916
▁కుక్క	-10.0918
▁ఏవైనా	-10.0919
▁ఫీడ్	-10.092
▁టవర్	-10.0921
▁రాజ్యము	-10.0921
▁ఒక్కరూ	-10.0923
సంబంధ	-10.0926
▁ఫర్	-10.0927
▁యింటి	-10.0929
కల్ప	-10.0933
▁ఇంజనీరింగ్	-10.0934
▁గెలుచుకున్న	-10.0934
▁బబులోను	-10.0934
▁ఇయర్	-10.0936
లోనూ	-10.0936
▁పాల్గొన	-10.0937
ens	-10.094
▁అన్	-10.0946
▁పత్రాలు	-10.0951
రహిత	-10.0951
▁బయలుదేర	-10.0962
▁భాషలు	-10.0963
▁పరస్పర	-10.0963
▁కల్పించ	-10.0966
▁లెన్స్	-10.097
▁తాడు	-10.0975
▁మనీ	-10.0979
▁అర్ధం	-10.0983
▁క్రా	-10.0986
ళి	-10.0989
ప్పటి	-10.1
▁సినిమాలు	-10.1005
▁38	-10.1011
▁Red	-10.1013
▁ఉన్నది	-10.1022
▁అందుకున్న	-10.1027
▁సొ	-10.1028
ins	-10.103
ంగు	-10.1033
▁వస్త్ర	-10.1034
▁ప్రమోషన్	-10.1036
▁లాగ	-10.1038
అన్ని	-10.1039
▁రోజుకు	-10.1042
▁చూస	-10.1045
కాయ	-10.1046
▁మించి	-10.1052
sp	-10.1052
iz	-10.1053
▁కోణం	-10.1059
గమ	-10.1061
▁దేవునికి	-10.1069
▁మాట్లాడటం	-10.1073
యగు	-10.1074
దినము	-10.1074
son	-10.1076
ల్లి	-10.1077
▁చాలు	-10.1078
▁కూడిన	-10.108
ుటకును	-10.1084
CC	-10.1085
▁ప్రచారం	-10.1087
▁ఇండస్ట్రీ	-10.1095
▁పరిశోధకులు	-10.1095
▁చూడటం	-10.1095
ినట్లు	-10.1096
ok	-10.1101
ED	-10.1103
▁your	-10.1106
▁సంస్కరణ	-10.111
▁యొద్దకు	-10.1115
▁పనిచేసే	-10.1116
▁ఇష్ట	-10.112
నియన్	-10.1121
▁ఆస్ట్రేలియా	-10.1124
▁వ్యాయామం	-10.1126
▁పరిష్కారాలను	-10.1129
ింపవలెను	-10.1132
▁జరిమానా	-10.1139
▁తెలుసా	-10.1139
▁పరిపాలన	-10.114
గ్రహ	-10.1144
▁ఉండగా	-10.1145
▁రాయ	-10.1147
▁దృశ్య	-10.115
▁సలహాదారు	-10.1154
▁కార్పొరేషన్	-10.1154
▁క్ష	-10.1156
▁శోధించ	-10.1158
▁Li	-10.1164
▁నెలలు	-10.1165
▁ప్రపంచం	-10.1169
▁అధ్యక్షుడు	-10.1171
▁కావున	-10.1174
▁లింకులు	-10.1176
సిన్	-10.1177
▁క్లౌడ్	-10.1184
▁సాంప్రదాయ	-10.1184
ox	-10.1186
లైట్	-10.1192
800	-10.1194
▁co	-10.1197
ొచ్చు	-10.1199
▁అయ్యే	-10.1199
▁సెక్సీ	-10.1201
బెర్	-10.1204
తనం	-10.1208
గత	-10.1214
▁చనిపోయిన	-10.1215
ంటారు	-10.122
cc	-10.122
ిర్ధారించుకోండి	-10.1227
లియ	-10.1228
▁ఇబ్బంది	-10.1229
▁కెరీర్	-10.1229
ance	-10.1229
ద్దు	-10.123
▁మొదలుకొని	-10.1232
▁వేలం	-10.1237
▁Facebook	-10.1244
▁ఆఫ్రికా	-10.1244
▁దిశ	-10.1253
▁చొప్పున	-10.1253
▁దేవా	-10.1254
లన్నిటిని	-10.1258
▁శీఘ్ర	-10.1259
పోవును	-10.1259
▁తల్లిదండ్రులు	-10.126
▁చివర	-10.1261
మాట	-10.1263
cr	-10.1265
OS	-10.1265
600	-10.1266
▁పాల్గొనే	-10.1271
▁సోషల్	-10.1274
ip	-10.1274
▁ఎలాంటి	-10.1276
ml	-10.1285
▁వర్తించ	-10.1286
▁గ్లోబల్	-10.1289
▁కెనడా	-10.1289
▁విధి	-10.1291
కాన్	-10.1295
▁పేరుతో	-10.1297
▁లక్ష	-10.1298
▁ఐస్	-10.1302
రాయి	-10.1304
▁అమెజాన్	-10.1304
▁ఇద్దరు	-10.1304
ME	-10.1308
▁క్రైస్తవ	-10.1313
▁జీవన	-10.1316
▁క్లాస్	-10.1316
▁అభ్యాస	-10.1319
-19	-10.1321
పిల్ల	-10.1321
▁నిరోధక	-10.1324
తీయ	-10.1326
-12	-10.1327
ాత్మ	-10.133
▁శరీరంలో	-10.133
▁తొలగ	-10.1334
▁ద్రాక్ష	-10.1334
▁సీసా	-10.1338
▁USA	-10.1339
MS	-10.1344
యిడ్	-10.1355
లన్నిటి	-10.1358
ుడని	-10.136
▁వాయిద్య	-10.1364
▁జరిగే	-10.1364
షె	-10.1368
MA	-10.1376
▁గడియ	-10.1376
▁స్పందన	-10.1379
▁సంపాద	-10.138
▁పళ్ళు	-10.1381
▁are	-10.1387
RP	-10.1389
▁రక్తము	-10.1391
▁నమ్మకమైన	-10.1393
▁క్రీడాకారులు	-10.1395
▁కనుగొనండి	-10.1396
▁ఇంక	-10.1399
▁కుమారుని	-10.1402
ద్వారా	-10.1402
ుతుందని	-10.1404
▁వీటిని	-10.1409
▁క్రషర్	-10.141
▁చేయబడతాయి	-10.1413
▁కీలక	-10.1416
▁__	-10.142
TI	-10.1421
ింగ్	-10.1421
TO	-10.1421
▁con	-10.1426
▁టికెట్	-10.1427
▁వెల్	-10.143
చొప్పున	-10.1431
ుకుంటారు	-10.1432
▁దేవత	-10.1432
▁Ex	-10.1433
▁తిరుగు	-10.1434
-0	-10.1438
▁సొలొమోను	-10.144
▁కలయిక	-10.144
▁దెబ్బ	-10.1441
▁మాత్రం	-10.1441
▁ప్రసారం	-10.1441
▁అగ్ర	-10.1442
వాటి	-10.1448
▁PAR	-10.1449
చ్చిన	-10.1451
xBet	-10.1456
UR	-10.1457
ంటాయి	-10.1457
▁హీ	-10.146
▁దైవ	-10.1462
▁సమాజం	-10.1463
ath	-10.1465
పత్తి	-10.1467
▁ఆక్వేరియం	-10.1471
▁పునః	-10.1472
▁అన్నాడు	-10.1473
్యత	-10.1476
▁విధానాల	-10.1476
▁నియంత్ర	-10.1478
▁జీవితాన్ని	-10.1483
▁నివారణ	-10.1486
▁అవార్డు	-10.1486
LA	-10.1491
▁అనువర్తనాల	-10.1491
▁do	-10.1491
bl	-10.1492
▁బీచ్	-10.1492
▁జనము	-10.1502
▁విజయవంతమైన	-10.1502
▁జంతువుల	-10.1502
నంత	-10.1509
▁అన్య	-10.1509
▁క్షమించ	-10.151
▁వుండ	-10.1512
ాలనే	-10.1517
ng	-10.1517
▁ఆక్సిజన్	-10.1517
▁సర్టిఫికేట్	-10.1517
▁ఆయుధ	-10.1518
▁ఫైర్	-10.152
స్తుల	-10.1523
RS	-10.1524
▁గదిలో	-10.1525
▁ఫార్మాట్	-10.1525
▁ఆలయ	-10.1527
▁విమానాశ్రయం	-10.1528
▁సహాయ	-10.1534
AM	-10.1535
▁ఏజెంట్	-10.1537
act	-10.1537
బద్ధ	-10.154
▁ధన	-10.154
ఫ్రా	-10.1551
▁జాక్	-10.1555
ny	-10.1556
▁దావా	-10.1557
IF	-10.1564
▁డ్యూ	-10.1568
▁కొరియా	-10.1569
▁భారతదేశంలో	-10.1569
▁గౌరవ	-10.1571
▁చోటు	-10.1571
▁తీవ్రంగా	-10.1573
▁దాఖలు	-10.1579
స్పె	-10.158
▁శ్వాస	-10.158
▁చెడ్డ	-10.158
ుతారు	-10.1581
ఫే	-10.1588
ింపబడిన	-10.1589
▁క్రో	-10.1589
▁WordPress	-10.1594
▁చేయబడ్డాయి	-10.16
▁భార	-10.1601
▁జరుగ	-10.1602
మూల	-10.1605
విన్	-10.1609
▁కనుగొంటారు	-10.1612
ek	-10.1613
యోగ	-10.1619
క్యూ	-10.1619
బడినది	-10.162
▁యూదులు	-10.1622
▁హిట్	-10.1622
▁చేయలేదు	-10.1622
▁అనంత	-10.1624
▁దుఃఖ	-10.1625
▁మెషీన్	-10.1625
▁రాజధాని	-10.1625
యై	-10.1632
▁నెమ్మదిగా	-10.1636
TR	-10.1636
పీడన	-10.1641
▁అనువాదం	-10.1647
CI	-10.1652
▁రాజ్య	-10.1654
▁సిలిండర్	-10.1657
వైన	-10.1657
▁మొట్టమొదటి	-10.1658
BC	-10.1661
▁37	-10.1661
▁పరిమిత	-10.1664
యీ	-10.1665
▁పండుగ	-10.1666
పోయిరి	-10.1666
▁అందం	-10.1667
▁పాద	-10.1671
▁డ్రైవింగ్	-10.1672
▁భవిష్యత్తు	-10.1673
క్యు	-10.1674
▁ఎంపికను	-10.1675
gr	-10.1676
▁కత్తిరించ	-10.1677
▁విధించ	-10.1682
▁చేయుటకు	-10.1691
▁సవరించ	-10.1692
ాడని	-10.1693
ice	-10.1697
av	-10.1697
si	-10.1699
▁తప్పనిసరిగా	-10.1704
▁పోలిస్తే	-10.1704
HS	-10.1705
▁ఇంచ్	-10.1709
▁వస్త్రము	-10.1712
పోర్	-10.1712
ున్న	-10.1712
▁బలిపీఠము	-10.1716
▁42	-10.1718
▁చేపట్ట	-10.1718
లన్నియు	-10.1718
▁Vi	-10.1719
▁పోలీసు	-10.1719
ండ్లు	-10.1721
▁నగరంలో	-10.1726
▁ID	-10.1726
▁తీగ	-10.173
▁Sa	-10.1732
UN	-10.1732
▁విశ్వ	-10.1733
▁నాయకుడు	-10.1735
▁టేప్	-10.1736
▁HP	-10.1737
▁కారణాల	-10.174
న్నారు	-10.1743
ండో	-10.1746
టిక్స్	-10.1747
▁పేజీలో	-10.1749
▁బాగ్	-10.1749
▁గడువు	-10.1751
▁కదలిక	-10.1752
▁ప్లగ్	-10.1754
▁సమావేశం	-10.1758
▁Mar	-10.1759
▁పగడాలు	-10.1759
▁39	-10.1761
షనల్	-10.1766
వేర్	-10.1769
▁వ్యవధి	-10.177
▁ఉండకూడదు	-10.1773
▁మెడ	-10.1776
ాలనుకుంటున్న	-10.1783
వేల	-10.1785
నొద్దకు	-10.179
▁రక్తం	-10.18
▁తీసుకోవాలని	-10.18
▁అంగుళాల	-10.1803
ేవారు	-10.1806
▁పెన్	-10.181
▁రొట్టె	-10.1814
▁సృజనాత్మక	-10.1814
▁లెస్బియన్	-10.1814
▁సంతతి	-10.1815
విధ	-10.1816
పేక్ష	-10.1816
ుకున్నాడు	-10.1818
▁చాల	-10.1819
▁బూట్లు	-10.1819
▁వాక్యము	-10.1829
ING	-10.1829
▁గౌరవం	-10.1829
▁డైరెక్టర్	-10.183
▁నిర	-10.1831
▁ప్రచురణ	-10.1832
ys	-10.1834
శాస్త్రం	-10.1838
▁చిప్	-10.1842
▁పగ	-10.1842
▁అబద్ధ	-10.1844
ans	-10.1846
▁జు	-10.1851
▁సారి	-10.1854
▁దాచ	-10.1856
ach	-10.1857
▁బహిర్గతం	-10.1858
ఫోన్	-10.1859
▁1.5	-10.1873
▁ఇశ్రాయేలీయులు	-10.1874
so	-10.1875
▁వేగ	-10.1876
▁సర్క్యూట్	-10.1878
▁రచనలు	-10.1881
▁యుండెను	-10.1887
▁లోపం	-10.1889
▁సాయంత్రం	-10.1894
▁నకిలీ	-10.1894
▁పంపి	-10.1894
▁బిల్డింగ్	-10.1895
సము	-10.1898
▁స్థాపించబడింది	-10.1899
ండ్ర	-10.1899
▁విధులు	-10.1902
▁కోపం	-10.1902
కూడ	-10.1905
డెడ్	-10.1908
స్థా	-10.191
▁రక్షించడానికి	-10.1913
ించును	-10.1921
▁జీవించ	-10.1923
▁ఆకృతీకరణ	-10.1926
▁ఓర్	-10.1927
▁విశ్వాసము	-10.1927
ముఖ	-10.1938
▁రెస్టారెంట్	-10.1942
▁విశేష	-10.1947
▁ఆఫర్లు	-10.1951
▁భాగ	-10.1952
స్తాడు	-10.1954
▁విన్	-10.1955
▁కీర్తన	-10.1958
▁ప్రేక్షకుల	-10.1958
▁రహదారి	-10.1958
▁వాక్యూమ్	-10.1958
▁మేరీ	-10.1961
▁01	-10.1965
▁నిలువ	-10.1971
ds	-10.1974
▁వీరిలో	-10.1974
▁చూసి	-10.1976
▁Le	-10.1978
▁విందు	-10.1981
▁so	-10.1981
CT	-10.1985
▁రంగుల	-10.1986
వెల్	-10.1988
▁సస్పెండ్	-10.199
▁పరిపక్వ	-10.1998
దొ	-10.1998
▁ఇవ్వండి	-10.2001
▁ఆలయం	-10.2003
▁భోజనం	-10.2006
▁చేయటానికి	-10.2007
▁FM	-10.2009
▁జరిగి	-10.2009
pcs	-10.201
▁చూస్తారు	-10.2013
అప్	-10.2014
▁ట్రాకర్	-10.2017
మయ్యే	-10.2017
▁విశ్వసనీయ	-10.2018
దైన	-10.2018
▁వినియోగించ	-10.2019
▁డీ	-10.2019
su	-10.2022
▁చెప్పే	-10.2033
vo	-10.2033
▁800	-10.2035
ous	-10.2037
▁క్లిష్టమైన	-10.2038
▁మెట్రోపాలిటన్	-10.2038
▁తెరిచి	-10.2039
of	-10.2041
▁లెడ్	-10.2042
డియా	-10.2044
▁పలక	-10.2044
▁పీటర్	-10.2049
1.1	-10.205
▁స్వర	-10.2054
▁విఫల	-10.2055
▁సంతకం	-10.2055
▁చేస్తా	-10.2056
▁విల్	-10.2057
▁దేశీయ	-10.206
▁నేర్చ	-10.2061
her	-10.2064
▁మాట్లాడే	-10.2068
▁ఉన్నాడు	-10.2069
▁భయ	-10.2072
వార్	-10.2072
▁నిర్వహించడం	-10.2073
▁మేక	-10.2075
▁నిత్య	-10.2078
▁ప్రకాశ	-10.2078
▁నివసిస్తున్నారు	-10.2079
▁అంతే	-10.2079
PS	-10.208
▁తిరస్కరించ	-10.2081
▁Ba	-10.2085
▁అతన్ని	-10.2087
over	-10.2088
▁పోర్న్	-10.2088
▁హ్యాండ్	-10.2089
▁చెవి	-10.2092
▁సంవత్సరానికి	-10.2094
▁ఇష్టపడ	-10.2094
శో	-10.21
ఎఫ్	-10.21
▁సమయాన్ని	-10.2102
▁జనరేటర్	-10.2104
▁ఆర్ధిక	-10.2104
▁తెలి	-10.2109
బెట్ట	-10.2115
ర్చ	-10.2115
▁తీవ్రత	-10.2115
▁HDBuzz	-10.212
▁డిస్కౌంట్	-10.212
▁ప్రాముఖ్యత	-10.212
▁కూర్పు	-10.212
▁పరలోక	-10.212
▁ఎంచుకోవడం	-10.2121
▁ట్రే	-10.2122
పడు	-10.2123
▁వ్య	-10.2126
▁హు	-10.2129
▁ఇకపై	-10.213
▁123	-10.2133
▁ద్వేష	-10.2136
▁స్క్రూ	-10.2138
▁తరచూ	-10.2138
▁మాంసం	-10.2139
ుమని	-10.214
▁ఇంక్	-10.2148
▁ప్రి	-10.2151
▁క్రి	-10.2151
▁డొమైన్	-10.2153
▁Bo	-10.2155
▁గ్రీన్	-10.2157
▁దాట	-10.2157
▁గ్రే	-10.2159
▁షోర్	-10.2161
షిప్	-10.2165
▁పేద	-10.2165
▁CD	-10.2168
ction	-10.2177
▁అడగండి	-10.2177
▁sh	-10.2179
▁ఏలయనగా	-10.2186
▁టర్కీ	-10.2186
▁ఆరోగ్యకరమైన	-10.2188
▁తీసుకోవాలి	-10.219
▁షవర్	-10.2191
▁ప్రాంతాల	-10.2193
▁అంతర్	-10.2194
▁సూచనలు	-10.2197
మర	-10.2197
▁ట్రేడ్	-10.2199
▁శబ్ద	-10.2201
MO	-10.2202
▁యూనివర్సిటీ	-10.2202
▁లోతు	-10.2203
▁పెం	-10.2204
▁రోజున	-10.2205
▁యూదుల	-10.2205
▁నోట్	-10.221
▁హత్య	-10.2211
porn	-10.2213
▁అందరూ	-10.2214
▁షెన్జెన్	-10.2218
క్సీ	-10.2219
ణము	-10.222
▁కన	-10.222
▁స్నాన	-10.222
▁as	-10.2221
▁జన్మ	-10.2224
OR	-10.2227
old	-10.2227
ంచె	-10.2229
ప్త	-10.2232
▁రంగ	-10.2232
▁PR	-10.2232
▁క్రియాశీల	-10.2235
▁ప్రోటీన్	-10.2235
ఇప్పుడు	-10.2235
▁శతాబ్దం	-10.2235
లియన్	-10.2238
▁విక్రయ	-10.2238
నాడు	-10.2246
▁పిల్లలకు	-10.2247
▁ఫౌండేషన్	-10.2252
▁అప్డేట్	-10.2252
▁వాటికి	-10.2252
ైనా	-10.2253
▁ఆవిరి	-10.2253
▁ఉత్తమమైన	-10.2255
au	-10.2258
▁ఉండెను	-10.2259
▁స్వాస్థ్యము	-10.2261
▁చెయ్యి	-10.2261
యెదుట	-10.2264
▁దారితీసింది	-10.2268
▁ఆశిస్తున్నాము	-10.2269
▁కనిపెట్ట	-10.227
▁Tr	-10.2271
యాంగ్	-10.2275
▁ఆప	-10.2275
భ్ర	-10.2276
దానం	-10.2276
▁పాడు	-10.2279
RI	-10.228
▁సర్వ్	-10.228
▁ఆర్కైవ్స్	-10.2282
▁ప్రమాణాల	-10.2283
▁భాగము	-10.2284
▁సురక్షితమైన	-10.2285
▁యూనియన్	-10.2285
▁రెడీ	-10.2291
ితిని	-10.2294
▁చివరకు	-10.2296
కోసం	-10.2296
▁వినడానికి	-10.2299
▁La	-10.2302
▁ఫ్లాష్	-10.2304
▁జరుప	-10.2304
▁Live	-10.2309
▁పరిశ్రమలో	-10.2312
▁App	-10.2313
ుకుంటా	-10.2314
▁నియమ	-10.2316
▁బయో	-10.2316
▁స్ట	-10.2316
▁iOS	-10.2318
▁కాదని	-10.2321
IT	-10.2331
▁బెట్టింగ్	-10.2335
▁అయినను	-10.2335
▁స్మార్ట్ఫోన్	-10.2336
ాలజీ	-10.2338
▁ట్రక్	-10.2341
▁పొరుగు	-10.2342
▁తొలగించడానికి	-10.2345
The	-10.2345
▁You	-10.235
▁it	-10.2361
కున్న	-10.2362
ID	-10.2363
▁పఠనం	-10.2368
▁హెచ్చరిక	-10.2368
లోనున్న	-10.2369
▁లేబుల్	-10.2375
pi	-10.2376
▁అడగ	-10.2383
▁ఫ్రీక్వెన్సీ	-10.2385
▁రిమోట్	-10.2385
▁స్పా	-10.2389
చ్చెను	-10.2389
▁ex	-10.239
▁ప్రారంభించండి	-10.2391
▁ఉప్పు	-10.2393
°	-10.2397
భ్య	-10.2398
రువు	-10.24
ాయని	-10.2402
▁విక్రేత	-10.2402
▁PDF	-10.2402
▁మెన్	-10.2403
ib	-10.2404
▁చేస్తున్నాము	-10.241
▁సంవత్సర	-10.241
▁పిన్	-10.2411
▁పరిష్కార	-10.2415
ెనని	-10.2415
▁కాలి	-10.2416
నాటి	-10.2418
ical	-10.2419
▁Se	-10.2419
▁ఇచ్చి	-10.242
ect	-10.2421
▁కోర్సులు	-10.2421
▁సమస్యల	-10.2421
▁etc	-10.2422
▁నిధుల	-10.2425
▁బ్లా	-10.2426
▁ముందుగానే	-10.2426
▁చేసారు	-10.2433
▁ప్రారంభించింది	-10.2435
▁నిర్మించడానికి	-10.2435
▁రాక	-10.2435
▁షాంఘై	-10.2436
రావు	-10.244
డుగు	-10.2441
▁మారుతుంది	-10.2441
▁దారితీస్తుంది	-10.2452
▁హార్డ్వేర్	-10.2453
fr	-10.2455
▁ప్రయోగం	-10.2456
▁చేశా	-10.2457
5,000	-10.2459
▁బలము	-10.2459
▁కృష్ణ	-10.246
▁జోన్	-10.2467
▁మందుల	-10.2469
▁CS	-10.247
మైనవి	-10.2476
0.00	-10.2477
పరిచ	-10.2484
▁అన్యజనుల	-10.2487
▁చేయగలరు	-10.2487
▁జూదం	-10.2487
▁మానిటర్	-10.2487
▁పక్కన	-10.2487
▁షాట్	-10.2491
ty	-10.2491
▁మహిళా	-10.2496
▁అంగీ	-10.2497
eg	-10.2499
ంటూ	-10.2501
ాలయ	-10.2502
▁కనెక్టర్	-10.2503
▁ఫర్నిచర్	-10.2503
▁ప్రత్యామ్నాయం	-10.2503
▁గ్రామంలో	-10.2504
▁డీలర్	-10.2505
దై	-10.2507
లియో	-10.2508
దారులు	-10.2512
▁1:1	-10.2514
పూర్వక	-10.2515
లాడ	-10.2518
▁కృత్రిమ	-10.252
▁నిజాయితీ	-10.252
▁అవమాన	-10.252
▁కొలత	-10.2522
▁కావాలి	-10.2526
ree	-10.253
▁నక్షత్ర	-10.2537
వంతమైన	-10.2539
య్యారు	-10.254
గూర్చి	-10.2544
▁జలనిరోధిత	-10.2554
TP	-10.2558
కపోవచ్చు	-10.2559
▁ఫారం	-10.256
▁వీటి	-10.2562
▁ప్రక్క	-10.2564
సెట్	-10.2569
ల్యూ	-10.257
▁మేనేజ్మెంట్	-10.2571
▁మొత్తాన్ని	-10.2571
▁మతం	-10.2575
0000	-10.2585
ాంతర	-10.2587
▁డిజైనర్	-10.2589
▁కింగ్	-10.259
ల్యాండ్	-10.2592
▁చోట	-10.2592
▁సంవత్సరాలలో	-10.2598
▁చేసుకోండి	-10.2602
ark	-10.2605
▁ఆకర్షణీయమైన	-10.2606
▁ఇంటర్వ్యూ	-10.2606
▁మార్గంలో	-10.2616
▁ఆలస్యం	-10.2617
త్స	-10.2623
▁పెర్	-10.2623
డమే	-10.2626
▁నిరోధకత	-10.2628
▁He	-10.2629
▁వెళ్ళడానికి	-10.2631
▁స్కీ	-10.2633
▁గదులు	-10.2634
ధాన	-10.2636
▁పంపిణీదారుల	-10.2638
▁ఇట్లనెను	-10.264
▁పరిణామ	-10.264
▁వర్తిస్తుంది	-10.264
▁సమాధి	-10.2641
▁ఇతని	-10.2643
▁ఉంచడం	-10.2645
▁తనఖా	-10.2647
షో	-10.2649
▁లవ్	-10.2649
▁చూపిస్తుంది	-10.265
▁600	-10.265
బుక్	-10.2653
▁YouTube	-10.2657
▁ఉపాధ్యాయ	-10.2657
▁ఛార్జ్	-10.2657
▁at	-10.2658
వృత్త	-10.2658
▁నిర్ధారణ	-10.2658
Coin	-10.266
▁బ్లాగు	-10.2662
▁ago	-10.2664
ీయులు	-10.2665
ుకోవటానికి	-10.2672
▁అతడి	-10.2673
ానని	-10.2673
▁విజయవంతంగా	-10.2676
▁PCB	-10.2676
▁కొనసాగుతుంది	-10.2678
▁వీడియోలను	-10.2679
▁పుష్ప	-10.268
మెన్	-10.2685
▁మహిళలకు	-10.2687
▁రుసుము	-10.2692
▁దినములు	-10.2697
▁ఫేస్	-10.2701
▁చూసింది	-10.2702
▁నోరు	-10.2705
▁అంతా	-10.2712
జెన్	-10.2714
▁అక్షర	-10.2714
gg	-10.2714
▁తగ్గించడానికి	-10.2715
▁Vessoft	-10.2727
▁ప్రేరణ	-10.2728
▁AM	-10.2732
▁చెప్పడం	-10.2733
▁ఇచ్చే	-10.2733
▁పరిచయ	-10.2737
▁గ్యాలరీ	-10.2744
▁ఉందా	-10.2749
▁సైన్యం	-10.2751
2017	-10.2758
▁అందు	-10.2761
▁జేమ్స్	-10.2761
▁సువాసన	-10.2762
NS	-10.2763
▁నమూనాలను	-10.2764
▁అధికంగా	-10.2767
ష్ఠ	-10.2767
సెల్	-10.2768
క్షణ	-10.2772
▁ఆటలు	-10.2772
▁News	-10.2774
▁విటమిన్	-10.2779
▁బూడిద	-10.2779
ులుగా	-10.2782
జీవ	-10.2788
▁08	-10.2788
▁75	-10.279
▁విక్రయించ	-10.2793
▁తీసుకోండి	-10.2796
▁దశలో	-10.2799
▁దొంగ	-10.2811
▁Su	-10.2813
▁నెరవేర్చ	-10.2814
▁ప్రయోగశాల	-10.2814
చేతి	-10.2816
▁తీసివేయ	-10.2817
ign	-10.2818
▁కట్టడ	-10.2823
డూ	-10.2826
▁Ta	-10.2831
▁కోపము	-10.2839
▁తగ్గిస్తుంది	-10.284
ెంట్	-10.284
▁కలుస	-10.2841
ంటె	-10.2843
▁ముక్క	-10.2843
▁OS	-10.2845
tri	-10.2848
▁గార్డెన్	-10.2849
▁డిస్ప్లే	-10.2849
▁పూల్	-10.2855
TS	-10.2857
▁మొదటిసారి	-10.2857
con	-10.2857
▁మొదలైన	-10.2859
▁ఫరో	-10.2861
▁టీన్	-10.2865
▁తారాగణం	-10.2867
▁మెంట్	-10.2871
▁ఎన్ని	-10.2873
▁క్రష్	-10.2874
▁అక్షరాలు	-10.2874
ినట్లయితే	-10.2875
▁అమ్మకం	-10.2875
▁21,	-10.2877
CA	-10.2881
▁లండన్	-10.2884
▁టెలి	-10.2887
▁చిత్రాలను	-10.2891
ులతో	-10.2895
లేషన్	-10.2895
పోయే	-10.2897
▁ఫ్యూ	-10.2902
▁ఆకలి	-10.2903
▁నిలబడి	-10.2904
▁(1)	-10.291
▁ఎన్నిక	-10.2912
="10	-10.2914
▁కళా	-10.2916
▁జాగ్రత్త	-10.2916
▁రికార్డ్	-10.292
▁అంగీకరిస్తున్నా	-10.292
▁నడుస్తున్న	-10.292
▁ప్లగ్ఇన్	-10.292
▁వనరుల	-10.2921
6.5	-10.2922
▁పౌండ్	-10.2923
▁Free	-10.2925
und	-10.2929
▁ఎండ్	-10.2934
ram	-10.2935
▁కీడు	-10.2937
▁కొట్టి	-10.2938
▁ట్రాకింగ్	-10.2939
-15	-10.294
▁ముద్రణ	-10.2942
▁అంక	-10.2943
▁సామర్థ్య	-10.2944
▁గూ	-10.2944
▁Videos	-10.2945
▁64	-10.2948
▁పంపండి	-10.2951
▁0.5	-10.2961
ించబడ	-10.2961
▁సాయం	-10.2962
▁క్వి	-10.2964
▁ఉపరితలం	-10.2967
నకును	-10.2967
▁మెరుగు	-10.297
▁గుర్తించడానికి	-10.2972
▁పెయింటింగ్	-10.2973
▁శిబిరం	-10.2973
▁Be	-10.2977
▁వంటివి	-10.2978
ముందు	-10.2979
▁గూగుల్	-10.2991
▁విజేత	-10.2991
▁స్క్	-10.2994
▁యూనిట్లు	-10.2995
కంటే	-10.2997
గల్	-10.2998
▁నిమిషాలు	-10.3001
▁ఉద్యోగులు	-10.3004
hy	-10.3004
▁వెదక	-10.3007
▁శివ	-10.3008
▁gif	-10.3012
▁(2)	-10.3014
▁శాస్త్రం	-10.3021
ంభ	-10.3025
▁కౌన్సిల్	-10.3026
▁Porn	-10.3027
▁పండ్లు	-10.3027
▁un	-10.3039
PE	-10.3039
▁లక్షణం	-10.3045
బల్	-10.3047
2.1	-10.3059
టిల్	-10.306
దారుల	-10.3062
▁మేఘ	-10.3062
▁ప్రసంగ	-10.3063
▁name	-10.3064
▁UV	-10.3064
▁మోస	-10.3065
▁దొరకలేదు	-10.3065
▁చిత్త	-10.3068
ుడగు	-10.3069
▁ఆశ్రయ	-10.307
▁ఆదేశాలు	-10.3075
▁సోదరుడు	-10.308
▁ప్రింటింగ్	-10.308
ven	-10.3081
ండెను	-10.3084
▁వాటా	-10.3086
▁పెడ	-10.3086
పిక్	-10.3089
▁ప్రత్యేకత	-10.3093
unt	-10.3094
▁రిలే	-10.3095
హెచ్	-10.3095
▁మ్యా	-10.3098
▁లగ్జరీ	-10.3098
ుతున్నారు	-10.3105
▁షేర్	-10.3106
పొంద	-10.3106
▁వర్ష	-10.3109
▁సమానంగా	-10.3115
▁సానుకూల	-10.3116
har	-10.3117
▁లాంటి	-10.3118
▁పొలము	-10.3118
tal	-10.3123
▁తెలివి	-10.3129
▁టెర్మినల్	-10.3134
▁యంత్రాంగం	-10.3134
▁ప్రకాశవంతమైన	-10.3135
▁ఎంచుకోవచ్చు	-10.3136
▁సమావేశ	-10.3138
▁ద్రవ్య	-10.3141
▁ఆకాశము	-10.3141
log	-10.3147
▁వేస	-10.3148
▁3:1	-10.315
▁జోడించండి	-10.315
▁వాయు	-10.315
▁అన్వేషించ	-10.3151
▁సంక్లిష్ట	-10.3153
▁కూర్చుని	-10.3154
▁43	-10.3157
ల్లె	-10.3158
▁సంభావ్య	-10.316
బూ	-10.3166
సరి	-10.3169
ene	-10.317
ల్చ	-10.3171
▁అంతేకాక	-10.3171
▁పుర	-10.3174
వర్ణ	-10.318
▁సరిగా	-10.3186
▁జ్ఞాపక	-10.3187
▁కాగా	-10.3188
▁మినహాయింపు	-10.3189
▁క్యాలెండర్	-10.3189
నెను	-10.319
▁దేవాలయ	-10.3191
▁మార్గాల	-10.3192
▁తీసుకోవ	-10.3207
▁విదీశీ	-10.3207
▁వైరస్	-10.3208
▁లోహ	-10.3208
ెయిన్	-10.321
▁నీటిని	-10.3211
ుకుంటున్న	-10.3212
ics	-10.3212
▁మిషన్	-10.3213
▁కాన్	-10.3213
▁నీవే	-10.3215
LI	-10.3219
▁చెల్లింపులు	-10.322
యున్నాడు	-10.3223
▁41	-10.3224
▁వివరాల	-10.3224
▁ప్లాస్మా	-10.3225
form	-10.3227
▁బెల్	-10.3227
పెట్టు	-10.3228
▁ఖండ	-10.3229
▁కారక	-10.324
▁చదువ	-10.3242
▁లేకపోవడం	-10.3246
▁కోర్టు	-10.3249
▁కఠిన	-10.3252
▁మేకప్	-10.3253
కొన్న	-10.3262
▁వైర్లెస్	-10.3264
VA	-10.3265
▁నాశనము	-10.3266
▁సరిపోయే	-10.3267
నొ	-10.3269
▁వారంటీ	-10.327
-7	-10.3274
వచ్చని	-10.3274
▁ఐరన్	-10.3281
▁వీల్	-10.3281
▁జ్ఞాపకము	-10.3282
▁ఉపయోగకరమైన	-10.3282
▁ఎముక	-10.3282
తులను	-10.3287
▁సంపద	-10.3288
▁రోగి	-10.329
▁వాళ్ళ	-10.3292
▁కై	-10.3293
▁220	-10.3294
పార్	-10.3298
▁తీవ్ర	-10.3308
▁మొక్కలు	-10.3309
▁నికర	-10.3314
▁సరిపో	-10.3317
▁ఫోల్డర్	-10.3317
▁స్లీవ్	-10.3317
red	-10.3319
SM	-10.3323
▁ఫ్లోర్	-10.3323
▁చేస్తాను	-10.3325
షే	-10.3327
ంటున్న	-10.3328
▁భరించ	-10.3331
▁చట్టాలు	-10.3332
ND	-10.3333
▁చేసికొన	-10.3333
▁నోటీసు	-10.3336
▁అధిపతి	-10.3336
▁ట్రైలర్	-10.3337
▁త్వరిత	-10.3337
▁హక్కులూ	-10.3337
▁స్వర్గం	-10.3339
ఒ	-10.3339
here	-10.3341
▁కలిగించ	-10.3341
▁నొంద	-10.3352
▁ఫ్లై	-10.3354
▁క్రీడ	-10.3356
▁అనుమాన	-10.3359
▁బొమ్మ	-10.336
▁నివేదించ	-10.3363
▁వంతు	-10.3363
▁కనెను	-10.3365
▁ఈవెంట్	-10.3368
▁గట్టిగా	-10.3371
▁ఏడాది	-10.3373
▁పురుషుడు	-10.3376
చేసే	-10.3379
▁ఇనుము	-10.338
▁కేస్	-10.3382
tra	-10.3382
కొందురు	-10.3386
ron	-10.339
▁సభ్యుడు	-10.3394
="8	-10.3394
▁మాజీ	-10.3398
▁నిరోధించ	-10.34
og	-10.3406
▁తూ	-10.3409
▁విమర్శ	-10.341
▁గుంపు	-10.341
▁స్పందించ	-10.3411
▁బాలికల	-10.3412
▁ప్రవాహం	-10.3414
▁(_	-10.3416
▁SD	-10.342
ES	-10.342
చుండగా	-10.342
▁2:1	-10.3421
ino	-10.3422
▁వచ్చిరి	-10.3423
వ్యక్త	-10.3423
▁లేదని	-10.3428
▁ఈజిప్ట్	-10.3428
▁మంజూరు	-10.3428
▁జస్ట్	-10.3432
▁మౌ	-10.3433
▁చిత్రాన్ని	-10.3437
▁పద్ధతిలో	-10.344
▁ట్ర	-10.3447
▁యోసేపు	-10.3447
▁విద్యార్థి	-10.3447
ైజేషన్	-10.3448
▁పథకం	-10.345
work	-10.345
▁భావిస్తారు	-10.3453
▁స్థాయిలు	-10.3458
కఱ్ఱ	-10.346
▁ప్రతీ	-10.3462
▁విద్యార్థుల	-10.3463
ాయెను	-10.3465
▁సుదీర్ఘ	-10.3466
▁తీస	-10.3468
పోవు	-10.3469
▁వానిని	-10.3469
▁పిల్లలను	-10.3469
▁ట్రస్ట్	-10.3469
gi	-10.347
▁లైట్లు	-10.3472
▁కట్టర్	-10.3473
sc	-10.3474
mail	-10.3477
టోన్	-10.348
స్థాయి	-10.3481
▁మైక్రోసాఫ్ట్	-10.3484
▁అమరిక	-10.3488
▁Hack	-10.3493
▁చేసేందుకు	-10.3495
▁గోప్యత	-10.3497
▁చిత్రాల	-10.35
▁సిలికాన్	-10.3503
▁గొర్రె	-10.3503
ఘా	-10.3504
▁రామ	-10.3511
▁నగరాలు	-10.3514
read	-10.3514
▁క్రీడా	-10.3514
శము	-10.3517
▁కథలు	-10.3518
▁ఇటీవలి	-10.3518
▁ప్రమాద	-10.3522
▁టెస్టోస్టెరోన్	-10.3522
▁కొంచెం	-10.3522
▁పునాది	-10.3522
▁సరుకు	-10.3523
దాన్ని	-10.3528
▁సీటు	-10.3534
▁వర్గీకరించ	-10.3541
▁44	-10.3541
▁మంత్రిత్వ	-10.3542
▁విష	-10.3542
▁యెరూషలేములో	-10.3544
▁Con	-10.355
▁పరచ	-10.355
థె	-10.3553
▁వంటగది	-10.356
▁మట్టి	-10.356
గణ	-10.3563
▁సాక్ష్య	-10.3564
400	-10.3565
▁ఆధార	-10.3566
▁అట్టి	-10.3566
▁సెల	-10.3566
CE	-10.3569
ail	-10.3571
box	-10.3572
pro	-10.3573
cu	-10.3578
▁డెవలపర్	-10.3579
▁మునిసిపాలిటీ	-10.3579
▁ధృవీకరణ	-10.3579
▁వసతి	-10.3579
IL	-10.3579
▁రాతి	-10.358
▁తెలియజే	-10.3582
▁విశ్వసనీయత	-10.3584
▁సముద్రము	-10.3584
MM	-10.359
▁సహోదరుల	-10.3596
▁రికవరీ	-10.3598
▁నియామక	-10.3598
▁ఇతడు	-10.3598
▁09	-10.3599
▁కనిపిస్తాయి	-10.36
బియా	-10.3601
▁వివరాలను	-10.3602
▁నీళ్లు	-10.3602
wi	-10.3606
▁2004	-10.3607
text	-10.3609
▁ట్రి	-10.361
1000	-10.361
▁65	-10.361
▁నిలువు	-10.361
ness	-10.3611
ye	-10.3612
▁తినడానికి	-10.3616
▁పువ్వు	-10.3617
▁రెండింటి	-10.3617
▁రక్షిత	-10.3617
CH	-10.3622
▁స్నేహితుల	-10.363
ix	-10.3633
▁వెంట	-10.3633
▁గడ్డి	-10.3633
CS	-10.3635
▁విస్తరణ	-10.3636
▁దేశమును	-10.3636
▁క్రమంగా	-10.3638
కట్ట	-10.3639
▁వాస్తవిక	-10.3641
▁కప్పు	-10.3642
▁అబ్బాయిలు	-10.3642
ప్తి	-10.365
▁యాంటీ	-10.3655
▁గ్రేట్	-10.3656
▁సందేశాలను	-10.3658
▁Pa	-10.3659
rt	-10.3663
hat	-10.3663
(_	-10.3665
▁షాప్	-10.3671
▁ఖచ్చితత్వం	-10.3674
▁ప్రభావాన్ని	-10.3674
భాగం	-10.3674
▁రబ్బర్	-10.3674
సెన్	-10.3674
▁చాంబర్	-10.3675
▁బేరింగ్లు	-10.3675
నగు	-10.3676
▁కన్వర్టర్	-10.3676
▁ప్లాంట్	-10.3677
▁చిహ్నం	-10.3681
-30	-10.3681
▁ప్రమాణ	-10.3681
పేరు	-10.3686
త్రి	-10.3687
▁చేతుల	-10.3692
ిస్తు	-10.3694
▁తరు	-10.3695
▁అనారోగ్యం	-10.3696
▁ఆశించ	-10.3702
▁జరుగు	-10.3707
▁బడ్జెట్	-10.3712
▁గర్భ	-10.3713
ial	-10.3713
బర్గ్	-10.3714
▁పిండి	-10.3716
do	-10.3716
▁కప్ప	-10.3719
▁ఇరవై	-10.3731
▁PP	-10.3731
▁శిల్ప	-10.3733
ana	-10.3734
heng	-10.3738
ండ్ల	-10.3741
▁పొగ	-10.3742
▁బ్యాంకులు	-10.3742
▁మ్యూజిక్	-10.3744
▁ఉండాలని	-10.3746
key	-10.3749
▁years	-10.375
▁న్యాయవాది	-10.375
▁వివరణాత్మక	-10.3755
ించండి	-10.3757
▁ప్రయోగాలు	-10.3764
న్నె	-10.3765
▁ఫండ్	-10.3767
▁చెప్పింది	-10.3769
▁గ్రాఫిక్స్	-10.377
షియన్	-10.3771
బొ	-10.3771
▁పెరిగిన	-10.3772
▁హోండా	-10.3777
ling	-10.3778
▁ఆకృతి	-10.3781
tic	-10.3787
▁రాష్ట్రం	-10.3789
▁క్లారినెట్	-10.3789
▁FSX	-10.3789
▁నెలవారీ	-10.379
ంచిన	-10.3791
▁సరిపోతుంది	-10.3791
aw	-10.3792
▁ఆమ్ల	-10.3793
HT	-10.3794
▁స్వభావం	-10.3799
పోవడం	-10.3804
-9	-10.3806
▁ఎదుర్కొన	-10.3808
▁థ్రెడ్	-10.3808
▁పశ్చిమ	-10.3808
▁హౌసింగ్	-10.3808
▁ఇరువది	-10.3808
మీదను	-10.3808
mar	-10.3809
▁సూర్యుడు	-10.3811
రోల్	-10.3816
▁కాండీ	-10.3817
▁రప్పించ	-10.3817
త్వము	-10.3818
IA	-10.3818
▁అనువర్తన	-10.382
▁Pe	-10.3821
▁తరం	-10.3824
▁ప్రకటనల	-10.3826
▁ఆగష్టు	-10.3828
పరంగా	-10.3829
దేశము	-10.383
▁దేవతల	-10.3831
▁నిర్మించారు	-10.3831
▁స్టిక్కర్లు	-10.3833
▁మెరుగుపరచడానికి	-10.3836
▁మంత్ర	-10.3837
సై	-10.3837
▁mo	-10.3839
▁PM	-10.384
▁వో	-10.384
▁గీత	-10.384
▁తాగ	-10.3844
▁మోటారు	-10.3847
▁పత్రం	-10.3849
▁స్వాధీనం	-10.3854
▁$1	-10.3855
▁పట్ల	-10.3856
ati	-10.3862
కొను	-10.3863
▁అనిపించ	-10.3863
tr	-10.3863
ైంది	-10.3864
▁యంత్రాన్ని	-10.3866
▁చెర	-10.3867
▁హ్యాపీ	-10.3867
సెంట్	-10.387
▁వ్యవస్థకు	-10.388
EN	-10.3883
శ్వ	-10.389
▁యాత్ర	-10.3898
▁ఎర్ర	-10.39
▁ఎన్నో	-10.3902
▁నిశ్శబ్ద	-10.3906
▁సాధ్యమైనంత	-10.3906
▁తెలిసికొన	-10.3907
▁Ne	-10.3908
▁నిశ్చయముగా	-10.3908
▁FX	-10.3911
స్తంభ	-10.392
SE	-10.3924
▁Ge	-10.3924
▁అబ్రాహాము	-10.3925
మాయెను	-10.3928
ాలపై	-10.3933
▁ఆనందించ	-10.3937
ఫిల్	-10.3938
▁వర్తించే	-10.3938
▁ఉండును	-10.3941
ట్యూ	-10.3944
▁సమ్మతి	-10.3946
▁ప్రోత్సహ	-10.3948
▁Min	-10.3948
▁రోగ	-10.3949
▁వానికి	-10.3952
▁అధి	-10.3955
▁అయిదు	-10.3957
SC	-10.3957
▁po	-10.3959
LC	-10.3959
="12	-10.3961
▁ఇస్తాంబుల్	-10.3964
▁యిర్మీయా	-10.3964
▁పందెం	-10.3964
▁చేసుకోవడానికి	-10.3964
▁ప్రయాణీకుల	-10.3964
▁క్వాలిటీ	-10.3965
▁పడవ	-10.3972
ct	-10.3972
tu	-10.3974
బద్ద	-10.3976
▁గే	-10.3977
తురు	-10.3977
▁వినండి	-10.3978
▁సంవత్సరాలుగా	-10.3979
▁తీసుకునే	-10.3981
▁చెయ్యవచ్చు	-10.3983
▁కలిసే	-10.3986
HO	-10.3986
ake	-10.3988
▁అనుకుంటే	-10.3988
నట్లుగా	-10.399
▁తెలుపుము	-10.3996
ంధ	-10.3997
▁పోయ	-10.3998
ుడై	-10.3999
▁వాతావరణంలో	-10.4
పీఠ	-10.4004
▁అందిస్తాయి	-10.4008
స్థాపన	-10.4013
dia	-10.4013
▁అనువదించ	-10.4014
▁can	-10.402
సార	-10.4021
▁మైదాన	-10.4025
▁పిక్	-10.4026
మెర్	-10.4029
▁సమూహ	-10.4033
▁రాజ్యం	-10.4033
▁పొందటానికి	-10.4038
▁ప్రాచుర్యం	-10.4043
▁నొక్కి	-10.4045
▁ప్రాజెక్టులు	-10.4045
▁సందేశాన్ని	-10.4052
▁జే	-10.4053
▁చరిత్రలో	-10.4055
▁లభించ	-10.4058
▁సూచించిన	-10.4058
▁దీర్ఘకాల	-10.4062
▁పాల్గొన్న	-10.4063
ware	-10.4064
▁పెట్టి	-10.4066
▁కార్యక్రమాల	-10.4066
తట్టు	-10.4067
▁అనుభవాన్ని	-10.4068
="11	-10.407
▁ప్రసిద్ధి	-10.4076
▁వెళుతున్న	-10.4079
▁అభిప్రాయం	-10.408
ప్పుడ	-10.408
▁విదేశాల	-10.4087
వానికి	-10.4091
▁పరంగా	-10.4091
కాదు	-10.4093
వర్గ	-10.4095
▁per	-10.4097
ించుకోవడమైనది	-10.4103
▁ప్రాసెసర్	-10.4103
▁సాహిత్య	-10.4103
▁4:1	-10.4105
ank	-10.4108
top	-10.4108
▁ఏళ్ల	-10.4112
▁స్థల	-10.4114
నెట్	-10.4115
ఇన్	-10.4117
▁ముగించ	-10.4122
▁తెలంగాణ	-10.4123
▁తీపి	-10.4123
డొ	-10.4125
▁క్రీమ్	-10.413
▁ఆదేశ	-10.4135
యొద్దనుండి	-10.4136
▁ప్రకటించింది	-10.4138
▁భూమిని	-10.4138
▁బాస్	-10.4138
FC	-10.4138
యున్నారు	-10.4141
▁దానిపై	-10.4142
శృంగార	-10.4143
▁వ్యూహం	-10.4143
light	-10.4143
-11	-10.4145
ost	-10.4146
MT	-10.4146
రిటీ	-10.4147
ిస్తాను	-10.415
▁టెల్	-10.4154
▁Ha	-10.4157
▁రోగుల	-10.416
▁II	-10.416
▁గుర	-10.4161
▁వ్యాపారాలు	-10.4163
▁స్పెక్ట్రం	-10.4163
▁మమ్మును	-10.4164
▁హతము	-10.4164
▁స్టాప్	-10.4164
▁తెలియని	-10.4174
▁55	-10.4175
▁యోగ	-10.4177
▁Mobile	-10.4183
▁ఆపరేటర్	-10.4183
▁ఎంచుకోవడానికి	-10.4185
way	-10.4186
మగు	-10.4189
▁ఆలాగు	-10.4189
▁సందర్శించ	-10.4191
▁యుగ	-10.4195
ధ్	-10.4198
▁ప్రవేశపెట్ట	-10.4199
AD	-10.42
▁ఉపయోగకరంగా	-10.4203
▁పౌర	-10.4205
ool	-10.4212
▁తప్పి	-10.4212
▁నింద	-10.4213
శ్చ	-10.4217
▁రైడ్	-10.4219
▁చేతితో	-10.4222
▁త్రి	-10.4225
▁ఎదురు	-10.4225
▁మూసి	-10.4225
▁తెస్తుంది	-10.4225
▁రాబోయే	-10.4226
▁రేఖ	-10.423
dy	-10.4235
▁ప్రే	-10.4242
▁క్రమం	-10.4243
▁హంటింగ్టన్	-10.4244
▁పొదుపు	-10.4244
▁లోబడి	-10.4245
▁ప్లాట్	-10.4248
చ్చే	-10.4249
▁జాబితాలో	-10.4254
▁గట్టి	-10.4254
▁సేకరించిన	-10.4256
డై	-10.4256
less	-10.426
▁DVD	-10.4264
▁గొలుసు	-10.4264
ండే	-10.4264
▁సంగ్రహ	-10.4268
▁చూసే	-10.4269
▁Lo	-10.427
ore	-10.427
▁ఉద్యోగుల	-10.4271
▁పూజ	-10.4274
yo	-10.4278
▁వాయువు	-10.4281
▁పునరుద్ధరణ	-10.4284
▁ద్వంద్వ	-10.4284
▁అలారం	-10.4291
బోవు	-10.4291
▁డోర్	-10.4293
▁కనుగొన్నారు	-10.4294
▁తేనె	-10.4297
షర్	-10.4297
▁NO	-10.43
▁రుణాలు	-10.4301
▁2.5	-10.4302
▁బొమ్మలు	-10.4302
▁ఘ	-10.4303
భాష	-10.4303
▁ఐప్యాడ్	-10.4304
▁వంతెన	-10.4304
▁వెయ్యి	-10.4304
▁డ్రాయింగ్	-10.4305
▁మందసము	-10.4306
▁నవీకరించబడింది	-10.4307
▁ప్రారంభమవుతుంది	-10.4308
▁చలన	-10.431
▁ప్రమాణము	-10.4311
▁పాలన	-10.4312
▁కాల్స్	-10.4314
▁Di	-10.4315
▁బంతి	-10.4317
▁03	-10.4324
▁వస్తున్న	-10.4324
▁Webtalk	-10.4325
▁this	-10.4325
▁కూడి	-10.433
0.1	-10.4333
నియ్య	-10.4335
వేత్త	-10.4339
▁ఎత్తి	-10.434
▁సర్టిఫికెట్	-10.4345
lin	-10.4345
▁వసూలు	-10.4345
▁స్క్వేర్	-10.4346
▁we	-10.4346
▁APK	-10.4348
గిల్	-10.4349
▁టన్నుల	-10.435
▁పదాల	-10.4352
బడదు	-10.4352
▁పట్టీ	-10.4353
ook	-10.4354
▁పత్రాల	-10.4356
▁నియో	-10.4361
ెరుగ	-10.4362
▁యెహో	-10.4365
OP	-10.4365
▁కార్టూన్	-10.4366
▁వంశస్థులు	-10.4366
4.2	-10.4369
▁సన్నని	-10.437
▁ఎదుట	-10.437
ting	-10.4372
▁ప్రై	-10.4383
విషయ	-10.4383
▁తల్లిదండ్రుల	-10.4384
▁చెప్పటానికి	-10.4384
▁Web	-10.4385
▁ఆసుపత్రి	-10.4386
▁సమాంతర	-10.4387
భేద	-10.4388
▁చేస్తూ	-10.4389
▁ధాన్య	-10.439
▁గురి	-10.4391
▁స్ట్రా	-10.4393
PP	-10.4394
▁మంట	-10.4399
▁బట్ట	-10.4401
గిరి	-10.4407
▁రూపొందించిన	-10.4409
▁వ్యాపించ	-10.4409
ks	-10.4409
▁ఫలితం	-10.441
air	-10.4411
▁మనసు	-10.4414
ring	-10.4414
▁46	-10.4415
▁ప్రతిస్పందన	-10.4419
▁సైన్యము	-10.4419
▁విభజన	-10.442
▁అరణ్య	-10.442
▁మండ	-10.4422
▁జంతు	-10.4422
▁భాగాలను	-10.4423
పోవ	-10.4426
▁చంద్ర	-10.4426
మీటర్	-10.4427
▁బ్రిటిష్	-10.4427
▁శారీరక	-10.4428
వాల్	-10.4428
▁సందర్భాలలో	-10.4428
▁సముద్రం	-10.4432
▁మచ్చ	-10.4434
▁సభ్య	-10.4436
రెంట్	-10.4436
▁మిగిలి	-10.4436
que	-10.4438
▁ముఖము	-10.4439
▁హోస్ట్	-10.444
▁సెషన్	-10.4442
▁సంగతుల	-10.4443
▁Ac	-10.4446
PL	-10.4446
▁ప్రచార	-10.4447
▁గ్రౌండ్	-10.4448
▁సెలవిచ్చెను	-10.4448
▁సందర్శన	-10.4449
ాలనుకుంటున్నాను	-10.4452
▁విడిచిపెట్ట	-10.4455
ef	-10.4456
▁నివారించ	-10.4457
qui	-10.4463
ఫ్ట్	-10.4465
▁ఫిర్యాదు	-10.4469
▁సోదరులు	-10.4469
▁స్వచ్ఛమైన	-10.4469
king	-10.4469
▁HGH	-10.4469
▁శాసన	-10.4469
▁not	-10.447
ననెను	-10.4481
స్తుందని	-10.4482
▁వాదన	-10.4482
శేష	-10.4485
▁Microsoft	-10.4489
▁పెయింట్	-10.4489
▁నొక్కండి	-10.4489
▁బ్రౌన్	-10.4489
▁సంచులు	-10.449
▁రెండో	-10.4493
▁అనువర్తనాలు	-10.4494
ton	-10.4494
▁సిస్టమ్స్	-10.4498
▁Un	-10.4498
పుస్తక	-10.45
OL	-10.4501
ెత్తి	-10.451
▁నెలలో	-10.4512
4.1	-10.4514
▁శుక్రవారం	-10.4515
▁స్పిన్స్	-10.4516
▁47	-10.4519
▁బస్సు	-10.4525
పోర్ట్	-10.4526
బాటు	-10.4528
▁స్ట్రిప్	-10.4529
▁హైపర్బారిక్	-10.4531
▁సూది	-10.4531
▁ఇత్తడి	-10.4531
▁కడుపు	-10.4531
▁బోర్డ్	-10.4532
▁పంపించ	-10.4534
ణీ	-10.4538
▁అద్దెకు	-10.4539
ర్థ	-10.454
▁Do	-10.4543
▁డ్రై	-10.4547
▁పంప్	-10.4549
ure	-10.4549
ten	-10.455
▁నైపుణ్యాలు	-10.4552
eat	-10.4556
ుచుండగా	-10.4557
▁బీటా	-10.4559
▁0.1	-10.4561
0.9	-10.4566
హై	-10.4568
ings	-10.4569
▁ఫిట్నెస్	-10.4572
▁సులువు	-10.4573
▁క్యాన్సర్	-10.4573
▁షాఫ్ట్	-10.4573
▁సవాలు	-10.4573
__	-10.4575
▁నౌక	-10.458
▁కలలు	-10.4581
ేష్	-10.4584
▁బ్ల	-10.4586
▁Gu	-10.4588
▁ఊరి	-10.4592
emoji	-10.4593
▁స్పానిష్	-10.4595
▁MT	-10.4597
▁అందుకే	-10.4597
▁లక్షణాల	-10.46
▁క్షణం	-10.46
కుండునట్లు	-10.4601
ren	-10.4602
ధుల	-10.4602
▁ఐచ్ఛిక	-10.4604
PD	-10.461
ji	-10.4614
▁పిలిచి	-10.4615
▁స్ప	-10.4616
▁ఊహ	-10.4617
▁వర్కింగ్	-10.4617
▁స్టాండ్	-10.4621
క్షి	-10.4624
▁తెలియజేయండి	-10.463
▁గర్వ	-10.4632
▁బ్రి	-10.4635
▁బంగారం	-10.4635
▁తొలగింపు	-10.4636
▁పోరాటం	-10.4639
▁చర్చించ	-10.465
▁ఇవ్వడానికి	-10.4653
▁విచార	-10.4654
▁ఆకర్షించ	-10.4655
▁టౌన్	-10.4656
▁వేణువు	-10.4656
▁నిష్పత్తి	-10.4657
▁విరోధ	-10.4657
కారము	-10.4659
▁సుమారుగా	-10.466
పరచి	-10.4661
▁ఆహారము	-10.4662
▁ప్రయోగ	-10.4663
▁వంద	-10.4664
▁అనెను	-10.4665
▁వ్ర	-10.4667
▁వివాద	-10.4674
▁అధ్యాయం	-10.4678
▁నిరాశ	-10.4678
▁నడిచి	-10.4679
▁శబ్దం	-10.4679
▁కొలతలు	-10.4682
LS	-10.4687
▁ఖాతాను	-10.4688
కృష్ణ	-10.4689
▁గురు	-10.4689
▁Ko	-10.469
▁చూపించు	-10.4692
ros	-10.4693
▁Instagram	-10.4699
ina	-10.4699
HE	-10.4702
▁అనుకున్న	-10.4706
}	-10.4708
వంతం	-10.4709
▁చర్మ	-10.471
▁మార్చు	-10.4711
▁యున్నాడు	-10.4714
▁మీడియం	-10.472
మాత్రము	-10.472
▁స్టడీ	-10.4721
▁ప్రమాణాలు	-10.4723
ింపక	-10.4723
ఱ్ఱ	-10.4726
▁ఉన్నట్లు	-10.4727
▁Phone	-10.4731
▁యోహాను	-10.4732
▁సంఘం	-10.4734
▁మార్చండి	-10.4739
▁మనుష్యులు	-10.4739
GE	-10.474
▁ఆకర్షణీయంగా	-10.4741
▁ఎమోజీలకు	-10.4741
▁నీటిలో	-10.4744
▁ఫైళ్లు	-10.4745
▁చందా	-10.4746
▁ఉండు	-10.476
▁ప్రవాహ	-10.4762
▁గోత్రము	-10.4763
▁CSGO	-10.4763
▁సంకేతాలు	-10.4763
▁సందర్భాల్లో	-10.4763
భావం	-10.4769
▁హస్త	-10.477
▁తగ్గించడం	-10.4776
att	-10.4776
బడ్డ	-10.478
▁స్టి	-10.478
▁పెట్	-10.4782
▁రాడ్	-10.4785
పడే	-10.4785
▁యజమానులు	-10.4786
fa	-10.4787
▁will	-10.4787
rea	-10.4787
వేశ	-10.4793
ళా	-10.4799
▁కూల్	-10.4799
▁మెరుగుపరచ	-10.4801
▁2.0	-10.4801
ుకునేందుకు	-10.4803
▁తెచ్చి	-10.4803
▁గణనీయమైన	-10.4805
▁సరదాగా	-10.4805
▁విధానాన్ని	-10.4805
▁టెలిఫోన్	-10.4805
▁ధర్మశాస్త్రము	-10.4806
▁సమకూర్చ	-10.4806
▁LLC	-10.4808
▁రోమన్	-10.4811
▁ఉత్పత్తిదారులు	-10.4814
ML	-10.4815
▁కనుగొన్న	-10.4817
▁నిర్వాహక	-10.4817
▁వక్ర	-10.4817
▁కలిగించే	-10.4823
▁విషయమై	-10.4823
▁స్వా	-10.4825
▁అద్భుతంగా	-10.4825
▁తేది	-10.4826
▁శామ్సంగ్	-10.4826
▁ఎడిషన్	-10.4826
▁లోగో	-10.4828
▁MB	-10.4828
▁ట్రై	-10.4829
▁విగ్రహ	-10.483
▁హోల్మ్	-10.4832
ff	-10.4837
-01	-10.4838
▁సంతాన	-10.4838
▁SS	-10.4839
▁తరువాతి	-10.484
▁భాషలో	-10.4841
డ్డ	-10.4843
▁శత్రువుల	-10.4848
▁ROSELLE	-10.4848
rin	-10.4849
▁గరిష్టంగా	-10.4854
▁భూమిమీద	-10.4855
▁సంవత్సరములు	-10.4855
స్థానం	-10.4855
▁Dr	-10.4858
▁వాక్య	-10.4859
▁పచ్చ	-10.4859
కాలంలో	-10.486
కుమార	-10.4869
▁రెడ్డి	-10.4869
▁ఎక్స్ప్రెస్	-10.4869
▁స్వల్ప	-10.487
▁హోస్టింగ్	-10.487
న్నది	-10.4873
గూ	-10.4874
▁We	-10.4875
▁నచ్చ	-10.4875
▁49	-10.4875
▁ఉంచుతుంది	-10.4882
▁కట్టు	-10.4883
▁తట్టు	-10.4886
ock	-10.4887
యున్నావు	-10.4889
gra	-10.4893
▁51	-10.4894
nm	-10.4898
ush	-10.4908
▁ఆంధ్ర	-10.4908
▁సాగి	-10.491
RT	-10.4912
▁కేటాయించ	-10.4913
మెంట	-10.4916
నిబట్టి	-10.4917
list	-10.4917
▁1500	-10.4921
లాగే	-10.4921
పడ్డ	-10.4926
▁వస్తువులను	-10.4928
▁చిట్కా	-10.4928
మంద	-10.4933
▁పారదర్శక	-10.4934
▁పోర్టబుల్	-10.4934
▁సూత్రం	-10.4935
▁జనముల	-10.4936
▁10%	-10.4939
▁జాతక	-10.4939
టైల్	-10.4941
▁sc	-10.4942
▁ఇయ్య	-10.4946
▁ప్రక్రియలో	-10.4949
యైనను	-10.495
వాటిని	-10.4951
▁AD	-10.4951
రియల్	-10.4956
▁శుభాకాంక్షలు	-10.4956
▁అడిగే	-10.4956
▁గణన	-10.4957
స్థుల	-10.4959
కొనెను	-10.496
▁En	-10.4964
▁కోరుకుంటున్న	-10.4969
▁సృష్టించడం	-10.4969
క్టివ్	-10.497
▁గురువు	-10.4976
▁స్టూడియో	-10.4978
▁సందేహ	-10.4978
▁స్టెప్	-10.4978
▁from	-10.4979
▁ఎడ్	-10.4979
▁Fe	-10.498
▁కుకీ	-10.4982
▁అధికారి	-10.4982
nu	-10.4983
▁ప్రోమో	-10.4991
▁బలహీన	-10.4997
▁MH	-10.4998
▁ఇన్స్టిట్యూట్	-10.4999
▁యూనివర్సల్	-10.4999
▁స్పెయిన్	-10.5
▁ఆఫీస్	-10.5
▁విషయములో	-10.5001
▁86-	-10.5006
పక్ష	-10.5008
LO	-10.501
తృ	-10.502
వృ	-10.502
▁చక్క	-10.5021
▁పరమాణు	-10.5021
▁బయటికి	-10.5021
▁ఏడవ	-10.5025
▁action	-10.5025
▁భాగంలో	-10.5026
▁రెడ్	-10.5033
▁భాగాన్ని	-10.5036
▁కమ్	-10.5038
ప్లా	-10.5039
▁పాటించ	-10.5041
విధాన	-10.5041
▁అనుసరించి	-10.5042
▁ఫుట్బాల్	-10.5043
▁బ్రోకర్	-10.5045
▁LTD	-10.5048
▁నిషేధించ	-10.5048
ated	-10.505
పైన	-10.5052
▁దిశలో	-10.5053
చున్న	-10.5053
▁నమ్మక	-10.5053
చింగ్	-10.5053
▁గ్రామం	-10.5056
play	-10.5056
▁తడి	-10.5057
▁డయా	-10.5057
▁వైద్యుడు	-10.5059
▁ఇంటిలో	-10.5059
rs	-10.506
▁సొల్యూషన్స్	-10.5061
▁వేట	-10.5063
▁లింగ	-10.5065
టాన్	-10.5068
▁మొదలుపెట్ట	-10.507
▁కార్యాలయ	-10.5073
ord	-10.5076
▁ఫాబ్రిక్	-10.5087
▁స్ట్రీట్	-10.5087
▁సెలవిచ్చుచున్నా	-10.5087
▁లేడీస్	-10.509
▁పురుష	-10.509
వ్య	-10.5091
▁జై	-10.5093
▁నశించ	-10.5096
▁సహజంగా	-10.5097
▁న్యాయము	-10.5098
▁వెళ్ళింది	-10.5099
▁బెర్	-10.51
మెల్	-10.5101
▁స్టిక్కర్	-10.5104
▁నిలుచు	-10.5106
▁నిరూపించ	-10.5108
▁తిని	-10.5108
▁గమనించండి	-10.5108
▁IT	-10.5108
▁యెహోషువ	-10.5109
▁ఆటగాడు	-10.5109
▁అదేవిధంగా	-10.5111
టొ	-10.5112
ence	-10.5113
▁Al	-10.5114
▁సిద్ధాంత	-10.5114
▁సందర్భంగా	-10.5118
▁పరిశీలన	-10.5122
భద్ర	-10.5124
▁ఫ్ర	-10.5124
▁అప్పు	-10.5124
▁భాగస్వాములు	-10.5125
ker	-10.513
▁కొనండి	-10.5131
▁తోబుట్టువుల	-10.5131
▁బిజినెస్	-10.5131
▁సమూహము	-10.5136
క్కడ	-10.5138
నుండు	-10.5139
▁లాభాలు	-10.514
పోతున్న	-10.5141
▁నివసిస్తున్న	-10.5143
▁సహాయము	-10.5144
▁కోరుకున్న	-10.515
మంతయు	-10.515
▁ప్రయోజన	-10.5152
▁హెల్	-10.5152
▁యాదృచ్ఛిక	-10.5153
▁సార్కోయిడోసిస్	-10.5153
▁బైట్సు	-10.5153
▁Bu	-10.5154
దనం	-10.5155
ట్టుగా	-10.5156
2016	-10.5158
▁వివేక	-10.5158
▁దృష్టిని	-10.516
▁చక్రాలు	-10.5163
▁స్త్రీలు	-10.5165
KW	-10.5169
పోయాయి	-10.5173
che	-10.5174
▁ప్రొవైడర్	-10.5175
▁ఇష్టపడతారు	-10.5177
ich	-10.5178
▁ఉదయ	-10.5185
▁డాలర్లు	-10.5186
▁వ్యక్తిగతంగా	-10.5188
▁రన్	-10.5188
▁Jan	-10.5189
భుజ	-10.519
▁కణ	-10.5191
ప్రదేశ	-10.5192
▁ధృవీకరించ	-10.5195
▁ఈమె	-10.5197
▁దోహద	-10.5198
▁తొడుగులు	-10.5198
▁దూరంలో	-10.5199
థర్	-10.5201
▁శుభ్ర	-10.5202
▁మరణించాడు	-10.5203
▁సౌలభ్యం	-10.5205
▁యాజకుల	-10.5205
▁మాట్లాడటానికి	-10.5206
NG	-10.5213
▁చేయుట	-10.5216
▁ప్రజలను	-10.5219
▁కాంపాక్ట్	-10.522
▁వారసత్వ	-10.522
▁సురక్షితం	-10.5229
ప్లే	-10.5234
▁DJ	-10.5234
▁బ్లో	-10.5239
▁ఉదా	-10.524
▁go	-10.5242
▁చూపించడానికి	-10.5243
▁గణిత	-10.5243
▁పరిగణలోకి	-10.5243
▁గింజ	-10.5244
▁ఏర్పరచ	-10.5244
ంబర్	-10.5248
▁చేరండి	-10.5249
▁సైడ్	-10.5249
▁ఐటి	-10.525
▁పడక	-10.5253
▁భిన్న	-10.5253
ులకును	-10.5254
TH	-10.5255
▁ఇచ్చారు	-10.5263
▁మూస	-10.5264
▁సరసమైన	-10.5265
గలిగే	-10.5266
త్వాన్ని	-10.5279
▁వనరులను	-10.528
Description	-10.5287
▁వరకూ	-10.5288
యెహోవా	-10.5288
▁యుఎస్	-10.5288
▁ఖాతాల	-10.5289
▁డాన్	-10.5289
త్రము	-10.529
▁అవసర	-10.5298
▁సౌకర్యాలు	-10.5299
▁నిష్	-10.5304
▁pre	-10.5305
OM	-10.5308
▁ఎన్నికల	-10.5309
yu	-10.5309
▁ధూప	-10.531
▁హోల్డర్	-10.531
▁For	-10.532
▁ఆమోదం	-10.5325
వర్గం	-10.5326
▁ఇంటర్నేషనల్	-10.5332
▁గణనీయంగా	-10.5332
▁బ్లాక్జాక్	-10.5332
▁కూపన్	-10.5332
▁పదార్ధాల	-10.5332
»	-10.5334
▁సంచయ	-10.5335
▁సేవకులు	-10.5335
▁ఆధారపడ	-10.5336
fer	-10.5336
Fi	-10.5339
▁కర్మాగారం	-10.5339
▁వలస	-10.534
▁ఆజ్ఞాపించ	-10.5341
▁వ్యయ	-10.5342
pt	-10.5342
గలిగిన	-10.5343
▁2001	-10.5344
▁నిత్యము	-10.5345
బ్రే	-10.5345
▁వీసా	-10.5346
ావు	-10.5347
▁భారతదేశ	-10.5349
తివి	-10.5352
▁డాక్యుమెంట్	-10.5355
▁రీసెర్చ్	-10.5355
▁క్రిస్టల్	-10.5355
్మ	-10.5355
lat	-10.5359
▁ప్రయోజనాలను	-10.536
భూ	-10.536
low	-10.536
▁అబీ	-10.5363
SH	-10.5364
▁గడ్డ	-10.5367
▁ఆరంభ	-10.5368
▁వచ్చును	-10.537
▁బాయ్	-10.5372
యొ	-10.5373
▁దె	-10.5373
▁గొఱ్ఱల	-10.5374
▁విశ్లేషించ	-10.5377
▁శిష్యుల	-10.5378
తై	-10.5378
మ్యూ	-10.538
మౌ	-10.5381
▁ఫ్లైట్	-10.5382
▁కాల్చి	-10.5383
▁లావాదేవీ	-10.5383
▁నిధులు	-10.5385
▁అటు	-10.5386
▁ప్రాంతాలు	-10.5386
జిక్	-10.5392
▁all	-10.5392
జూ	-10.5394
ons	-10.5394
sy	-10.5394
▁హలో	-10.5395
ునని	-10.5395
▁లాగా	-10.5395
▁ప్రేరేప	-10.5397
chi	-10.5398
▁మర్చిపో	-10.5399
▁ఏజెన్సీ	-10.54
▁ప్రోగ్రామింగ్	-10.54
▁మెరుగుదల	-10.5401
▁అన్యాయ	-10.5402
LD	-10.5406
తోపాటు	-10.5408
▁కదిలే	-10.5411
ze	-10.5413
▁రాయల్	-10.5416
▁125	-10.542
▁ప్రదర్శనలు	-10.5423
▁అద్దము	-10.5423
4.4	-10.5424
▁ముందే	-10.5425
▁ఫే	-10.5426
నట్టు	-10.5428
▁ఆకర్షణ	-10.5431
▁యున్న	-10.5433
▁CF	-10.5434
▁అధిగమించ	-10.5437
▁SE	-10.5439
sta	-10.544
బార్	-10.5441
నేమి	-10.5443
▁విత్త	-10.5443
▁ఋణ	-10.5446
▁ట్రైనింగ్	-10.5446
▁పోషక	-10.5447
▁ఒక్కొక్క	-10.5447
rg	-10.5448
▁నెలకు	-10.5451
▁కార్ట్	-10.5451
▁భాగస్వామ్య	-10.5452
▁ఫిలిష్తీయుల	-10.5453
fo	-10.5453
▁And	-10.5455
▁ఇశ్రా	-10.5456
▁మేయర్	-10.5463
▁చారిత్రక	-10.5468
▁బ్లేడ్	-10.5468
▁పొంది	-10.5468
▁విరాళ	-10.5469
▁ఛాతీ	-10.5472
▁అవ్వ	-10.5472
ేంద్ర	-10.5473
ava	-10.5477
▁భవనాలు	-10.5479
▁గర్భం	-10.548
▁చింత	-10.5484
▁ఉంచి	-10.5486
మయ	-10.5489
▁లాంగ్	-10.549
UL	-10.5491
▁ప్రొఫెసర్	-10.5491
▁రిజిస్టర్	-10.5491
▁స్నేహపూర్వక	-10.5491
▁చేస్తోంది	-10.5493
▁తగ్గింపు	-10.5494
▁దాసుల	-10.5497
▁ఒప్పందాలు	-10.5501
నొద్ద	-10.5503
బడ్డారు	-10.5504
వైవిధ్య	-10.5505
▁కలుగును	-10.5508
ండగా	-10.5509
time	-10.5509
▁అధ్యక్ష	-10.5511
పోయాడు	-10.5514
▁దుబాయ్	-10.5514
▁ప్రాప్యత	-10.5514
▁యాజకుడు	-10.5514
▁అంకితం	-10.5514
▁చేసుకోవడం	-10.5515
RC	-10.5524
eb	-10.5529
XNUM	-10.553
▁ధోరణి	-10.5537
▁సంక్షిప్త	-10.5537
ునికి	-10.5541
EX	-10.5544
▁చేసిరి	-10.5545
▁ద్వార	-10.555
యుండు	-10.5552
▁మనవి	-10.5557
హీన	-10.5557
▁లభిస్తుంది	-10.556
▁ఛానెల్	-10.5561
▁SA	-10.5561
▁మలుపు	-10.5562
▁Br	-10.5563
▁ప్రాంతాలలో	-10.5567
▁పాఠశాలలు	-10.5572
▁తిరుగ	-10.5573
0.3	-10.5576
నీయుల	-10.5577
▁సొసైటీ	-10.5583
న్యూ	-10.559
▁బృంద	-10.5597
▁రాష్ట్రాలు	-10.5601
are	-10.5605
ఎమ్	-10.5606
▁గ్రాడ్యుయేట్	-10.5606
ger	-10.5606
▁చైన్	-10.5606
ave	-10.5607
▁వ్యయం	-10.5609
▁సర్వో	-10.5615
▁యుక్త	-10.5617
ళం	-10.5618
▁డెమో	-10.5624
▁చెల్లించిన	-10.5625
▁ఫైనాన్స్	-10.563
▁LCD	-10.563
▁విరిగి	-10.563
rm	-10.5633
▁ప్ల	-10.5633
vel	-10.5638
▁దాసుడ	-10.5639
▁తన్ను	-10.564
క్రింద	-10.5641
▁చెల్లించండి	-10.5646
▁తలుపులు	-10.5647
ane	-10.5649
▁సన్నిహిత	-10.5653
▁వినోద	-10.5654
▁చేయాలో	-10.5655
▁పడిపోయింది	-10.5655
▁బెండింగ్	-10.5657
శీ	-10.5659
land	-10.5661
▁my	-10.5663
▁చేయవలసిన	-10.5671
▁వేరొక	-10.5676
▁పేజీల	-10.5677
▁nice	-10.5678
థై	-10.568
▁సంబంధాల	-10.5683
బంధ	-10.5683
పర	-10.5685
▁పుస్తకాల	-10.5686
▁సహాయపడే	-10.5686
ame	-10.5687
▁షరతులు	-10.5691
▁మారిన	-10.5698
▁సౌకర్యవంతంగా	-10.5699
▁వ్యసన	-10.57
▁వరుసగా	-10.57
▁గాడిద	-10.5706
మల్	-10.571
▁జాతుల	-10.5712
▁లోకము	-10.5714
▁వాడకం	-10.5715
▁శుభ్రంగా	-10.5718
▁ముఖ్యమైనది	-10.5718
▁పనిచేస్తున్న	-10.572
▁చదివ	-10.5723
▁తిరుగుబాటు	-10.5723
▁ఉపయోగపడ	-10.5726
▁దీర్ఘకాలిక	-10.5726
▁స్కైప్	-10.5728
▁చేరుకోవడానికి	-10.5728
▁AP	-10.5731
▁రూట్	-10.5735
మధ్య	-10.5739
rop	-10.574
▁నటి	-10.5743
ele	-10.5746
▁విభాగంలో	-10.5747
▁పెరుగుతాయి	-10.5747
పాఠ	-10.5748
▁ఆకులు	-10.5748
▁అందుకుంటారు	-10.575
దానికి	-10.5754
త్తె	-10.5755
▁నడప	-10.5755
\	-10.5756
▁సెట్టింగ్	-10.5759
▁సభ	-10.5761
▁గాయం	-10.5761
▁రక్షక	-10.5763
lic	-10.5767
▁దర్శకత్వం	-10.577
▁పొడవైన	-10.577
▁పరిస్థితుల్లో	-10.5771
దేశం	-10.5772
రెం	-10.5773
▁us	-10.5779
సల్	-10.5783
2013	-10.5784
ater	-10.579
వ్యా	-10.5792
▁నృత్య	-10.5793
▁హ్యాండిల్	-10.5794
▁గ్రామీణ	-10.5794
▁కలుపు	-10.5794
▁గడిప	-10.5795
▁నిలిపివేయ	-10.5795
▁బ్యాండ్	-10.5796
ound	-10.5797
▁సందేశాలు	-10.5808
▁మార్చవచ్చు	-10.5812
పెట్టి	-10.5813
శారు	-10.5817
ాలా	-10.5817
▁అసోసియేషన్	-10.5817
▁కాటలాగ్	-10.5817
▁వాషింగ్	-10.5818
▁జాగ్రత్తలు	-10.5818
▁లెగ్	-10.5819
▁2003	-10.5819
▁ఫలితాల	-10.5821
▁లోపాలు	-10.5821
ాధికార	-10.5822
లాంటి	-10.5824
▁ట్రాకర్ను	-10.5828
▁విస్తార	-10.5829
▁ఓహ్	-10.583
ext	-10.583
▁పుష్	-10.583
▁జిమ్	-10.583
▁తప్పుడు	-10.5833
వారందరి	-10.5833
▁ఫిన్	-10.5834
pm	-10.5836
▁India	-10.5838
▁సంతులనం	-10.5841
▁పుట్టినరోజు	-10.5842
▁అర్పించ	-10.5845
▁నవ్వు	-10.5853
▁తమ్ము	-10.5855
▁శాఖలు	-10.5856
bit	-10.5859
▁భోజనము	-10.5859
▁ప్రశ్నలకు	-10.586
▁పెరుగు	-10.5861
▁అప్గ్రేడ్	-10.5865
▁సెంట్రల్	-10.5865
▁కౌంటర్	-10.5865
▁బ్యాకప్	-10.5865
▁కాలేజ్	-10.5865
▁ఎడారి	-10.5865
ుదువు	-10.5866
eck	-10.587
▁లైట్స్	-10.5871
▁చదవడానికి	-10.5873
▁అగ	-10.5874
▁సెకన్లు	-10.5877
▁విద్యార్థులకు	-10.5884
▁Hat	-10.5887
▁చక్కెర	-10.5888
▁మార్గనిర్దేశం	-10.5888
▁సిగ్నల్	-10.5888
▁పంద	-10.5889
▁సృష్టికర్త	-10.589
తికి	-10.5896
BO	-10.59
▁వెళ్ళే	-10.59
▁వెలి	-10.5906
3%	-10.5906
నెస్	-10.5907
NE	-10.5908
▁జార్	-10.591
▁బాత్రూమ్	-10.5912
▁లైబ్రరీ	-10.5912
▁బ్రెడ్	-10.5912
▁ఎంట్రీ	-10.5912
▁గేమింగ్	-10.5913
▁కుకీలను	-10.5913
▁ఫిషింగ్	-10.5913
▁వర్గాల	-10.5917
▁వుడ్	-10.5919
▁సజీవ	-10.5919
▁బ్రదుక	-10.5922
▁02	-10.5923
▁చేయుచు	-10.5924
▁క్యాష్	-10.5927
▁ఎక్కి	-10.5929
▁కొనసాగింది	-10.5929
▁భావోద్వేగ	-10.5936
▁ఇంజక్షన్	-10.5936
▁విరుద్ధంగా	-10.5936
▁కణజాల	-10.5937
▁లేప	-10.5941
ంటో	-10.5945
▁మార్చడం	-10.5946
▁తండ్రియైన	-10.5947
▁ఉద్యోగాలు	-10.5951
జిల్	-10.5955
▁అమరికలు	-10.5956
▁పర్వతాలు	-10.5959
యుండెను	-10.5959
▁si	-10.5961
▁భాషా	-10.5964
▁టెర్	-10.5964
▁పదున	-10.5972
▁చదివి	-10.5973
tur	-10.5973
▁చేయుము	-10.5974
▁గ్రామము	-10.5974
HC	-10.5975
▁ఆధిపత్య	-10.5984
▁చేసెద	-10.5985
▁రెండూ	-10.5986
▁నిర్వహించారు	-10.5986
▁కిలోల	-10.5988
వారము	-10.5992
▁చెయ్యబడింది	-10.5995
uck	-10.6002
▁dis	-10.6002
▁సమితి	-10.6002
▁స్పాట్	-10.6003
▁ఫండ్స్	-10.6004
▁లాగ్	-10.6007
ందురు	-10.6008
▁ఉపసంహరణ	-10.6008
▁నువ్వు	-10.6008
▁స్థానాన్ని	-10.6009
▁మెను	-10.601
▁వెళ్లు	-10.601
▁అన్నీ	-10.6011
▁MP	-10.6014
▁మరణించారు	-10.6019
▁జాతులు	-10.6025
▁గొన్న	-10.603
▁సందేశ	-10.6032
▁రికార్డింగ్	-10.6032
▁ఇప్పటివరకు	-10.6034
KV	-10.6035
▁చదవ	-10.6039
▁చెప్పవచ్చు	-10.6039
▁tr	-10.604
▁PE	-10.6043
▁0.2	-10.6044
▁కనిపిస్త	-10.6044
ించుచున్న	-10.6044
జ్ఞాన	-10.605
wo	-10.6052
▁రాసిన	-10.6054
▁దుష్ట	-10.6055
▁దండ	-10.6055
0.6	-10.6056
▁డిఫాల్ట్	-10.6057
పూరిత	-10.6057
▁Bitcoin	-10.6057
ంగో	-10.6058
▁అదృష్టం	-10.6059
▁గుర్తుంచుకో	-10.6062
▁(10	-10.6065
▁ముద్దు	-10.6066
▁సిఎన్	-10.6069
5.1	-10.6073
▁ఎర్	-10.6077
▁దొరక	-10.6077
▁ఇటాలియన్	-10.6079
దశ	-10.6079
▁శిష్యులు	-10.608
▁పురోగతి	-10.6081
▁భ్రమణ	-10.6081
▁హాస్పిటల్	-10.6081
▁మనో	-10.6085
GO	-10.6088
▁గుర్తించడం	-10.6088
▁మందిరపు	-10.6089
▁Sha	-10.609
▁కుమారుడ	-10.6091
▁జరిగించ	-10.6092
▁చేయి	-10.6093
▁పలిక	-10.6097
▁గుర్రం	-10.6098
నిర్మాణ	-10.6099
url	-10.6099
▁{	-10.6104
▁స్విట్జర్లాండ్	-10.6105
▁ఫైబర్గ్లాస్	-10.6105
▁ఫుట్	-10.6106
▁నిర్వహిస్తుంది	-10.6107
▁సేల్స్	-10.6108
▁బుద్ధి	-10.611
lan	-10.611
II	-10.6116
▁Qu	-10.6119
▁నడుచు	-10.6119
bar	-10.6122
కట్టు	-10.6123
▁దృశ్యం	-10.6123
▁నిర్మ	-10.6123
▁50%	-10.6125
ించుకొన	-10.6129
▁బోర్	-10.6129
▁విశాల	-10.6129
▁వెచ్చని	-10.613
title	-10.613
▁తక్షణమే	-10.6136
కొనిన	-10.6136
▁వెళ్	-10.6142
ld	-10.6144
▁Cl	-10.6146
▁వీక్షించ	-10.6146
స్తున్నారు	-10.6146
▁సెటప్	-10.6154
▁నిర్వచించ	-10.6157
wa	-10.6164
▁అచ్చట	-10.6165
ర్పణ	-10.6166
▁సహకార	-10.6166
="13	-10.617
!!!	-10.6173
▁చేప	-10.6173
▁మెరుగుపరుస్తుంద	-10.6175
GLONASS	-10.6176
▁పొడ	-10.6177
▁పాటలు	-10.6178
▁గూర్చియు	-10.6179
▁రత్న	-10.618
▁పూర్ణ	-10.618
▁MA	-10.6193
▁భయపడి	-10.6194
▁రేపు	-10.6195
XX	-10.6197
శం	-10.6197
▁కన్ను	-10.62
6.0	-10.6201
▁యథార్థ	-10.6203
saveatrain	-10.6203
▁మ్యాచింగ్	-10.6204
▁pa	-10.6206
▁Mon	-10.6211
▁సమస్యను	-10.6211
▁కలుగు	-10.6213
▁ప్రయత్నాలు	-10.6215
▁నివసించు	-10.622
డార్	-10.6224
▁1990	-10.6227
{	-10.6227
▁blockchain	-10.6228
▁థాయిలాండ్	-10.6228
▁సొగసైన	-10.6228
▁డైలాగ్	-10.6228
▁తయార	-10.6228
క్షేప	-10.6234
ధార	-10.6235
▁తప్పకుండా	-10.6235
oz	-10.6238
="15	-10.624
రెక్	-10.6244
oth	-10.6249
శక్తి	-10.6252
▁మెకానికల్	-10.6253
▁ఎడిటర్	-10.6253
▁ముందస్తు	-10.6253
▁ఉద్దేశ్యం	-10.6254
ప్రతి	-10.626
▁రాళ్ల	-10.6264
▁పరిశీల	-10.6265
="18	-10.6265
▁సూచనలను	-10.6266
యోగ్య	-10.6269
▁వుంటుంది	-10.6278
▁పురుగు	-10.6278
▁ఎక్కడైనా	-10.628
▁హేయ	-10.628
▁పెద్దది	-10.6282
▁బాటిల్	-10.6282
="9	-10.6284
▁చేయును	-10.6286
VE	-10.6286
▁మీదికి	-10.6287
for	-10.6291
▁కార్టన్	-10.6291
▁పరిస్థితుల	-10.6293
▁పోయింది	-10.6295
▁చంపి	-10.6297
సమ	-10.6298
▁కల్	-10.6299
▁అలంకరించ	-10.6302
▁చురుకుగా	-10.6302
▁నిపుణుడు	-10.6302
▁వూఫర్	-10.6302
▁Bit	-10.6305
▁జాకెట్	-10.6307
▁గ్రాండ్	-10.6312
▁దాగి	-10.6318
రోన్	-10.6321
▁ఉద్యమం	-10.6322
▁శాస్త్రవేత్తలు	-10.6323
ఎక్స్	-10.6324
గలవు	-10.6324
ద్రవ్య	-10.6326
▁3000	-10.6327
▁కమ్యూనికేట్	-10.6327
ండీ	-10.6333
ata	-10.6337
▁ఎలక్ట్రానిక్స్	-10.6338
▁OR	-10.6342
సైడ్	-10.6347
▁కేతగిరీలు	-10.6352
▁జెరూసలేం	-10.6352
▁జవాబు	-10.6352
▁మెడిసిన్	-10.6352
▁SQL	-10.6352
▁కిలోమీటర్ల	-10.6352
▁డైనమిక్	-10.6352
▁బంధువు	-10.6352
▁పాలిస్టర్	-10.6353
▁వ్యవహరించ	-10.6355
▁గంటలకు	-10.6356
▁గ్రహం	-10.6356
బోతున్న	-10.6357
సెక్స్	-10.6363
▁త్రోవ	-10.6366
▁సమాధానము	-10.6366
▁క్రీ	-10.6367
ja	-10.6368
lf	-10.6368
▁వారానికి	-10.6376
▁డెస్క్టాప్	-10.6377
▁పారామితులు	-10.6377
▁ప్రభావవంతమైన	-10.6377
▁సింగపూర్	-10.6377
▁దస్త్ర	-10.6377
▁సహకరించ	-10.6378
▁జాన్సన్	-10.638
▁వెస్ట్	-10.6381
▁ఈవెంట్స్	-10.6384
▁దేహ	-10.6385
▁Ni	-10.6386
nn	-10.6392
▁సేవకుల	-10.6392
ries	-10.6393
▁జీవితాలను	-10.6396
పెర్	-10.6399
▁హెర్	-10.6399
▁ఒక్కరి	-10.64
▁సంప్రదింపు	-10.6402
▁ఆప్టికల్	-10.6402
▁ప్రాంతీయ	-10.6402
▁సాహస	-10.6402
▁EMI	-10.6405
IM	-10.6406
▁తొక్క	-10.6406
▁Pre	-10.6414
నిర్వచ	-10.6414
ిస్తున్నాము	-10.6417
▁Mi	-10.6422
table	-10.6423
ుకుంటూ	-10.6424
▁వేగవంతం	-10.6428
▁మేజిక్	-10.6431
ురాలు	-10.6432
మగును	-10.6432
▁బ్రో	-10.6437
▁ఐరోపా	-10.6439
▁వాగ్దానం	-10.6444
▁సర	-10.6446
ade	-10.6448
▁చెందింది	-10.6449
▁కన్న	-10.6449
▁ఆటోమేషన్	-10.6452
▁ముగుస్తుంది	-10.6452
▁కమిషన్	-10.6452
▁పియానో	-10.6452
▁షాక్	-10.6452
▁అక్క	-10.6453
▁అంతర	-10.6456
km	-10.6466
▁ఆపడానికి	-10.6466
▁చెట్ల	-10.6469
▁తెలుసుకోవడం	-10.6471
AP	-10.6471
మయిన	-10.6476
వటానికి	-10.6476
▁పరిజ్ఞానం	-10.6478
చిత	-10.6478
ild	-10.648
▁కొనుగోలుదారు	-10.6481
▁రోగులు	-10.6487
CO	-10.649
ung	-10.6494
▁సిద్ధాంతం	-10.6498
ted	-10.6499
▁సంఘటనలు	-10.65
▁అనాబాలిక్	-10.6503
▁దంత	-10.6504
▁అభిప్రాయము	-10.6509
▁వనరులు	-10.6516
▁శరీరము	-10.652
▁చేయించ	-10.652
▁తమకు	-10.6523
▁Sho	-10.6523
▁పరిమితులు	-10.6525
మేమి	-10.6527
▁ఎవరైతే	-10.6528
▁Tablet	-10.6528
▁ఆర్టికల్	-10.653
▁Cr	-10.6531
▁ధరించి	-10.6532
▁సాక్ష్యం	-10.6533
8%	-10.6536
▁మోనో	-10.6536
▁సాదా	-10.6537
▁ఉపదేశ	-10.6539
▁వీధుల	-10.654
▁All	-10.6543
▁రైల్	-10.6544
జాన్	-10.6552
▁చేయవలెను	-10.6553
▁గెలాక్సీ	-10.6554
▁ఫెయిర్	-10.6554
▁స్ప్రే	-10.6554
▁అవయవ	-10.6554
▁శిఖర	-10.6554
▁స్నేహ	-10.6556
▁వంశము	-10.6557
గ్లా	-10.6558
▁పోలిక	-10.6559
▁నాణేలు	-10.656
AY	-10.656
hr	-10.6564
▁చివరిలో	-10.6568
▁యువత	-10.6568
▁pm	-10.657
2000	-10.657
▁సౌ	-10.6571
IP	-10.6571
▁మొక్కల	-10.6572
▁స్థాయికి	-10.6576
▁ముస్లిం	-10.6579
▁రిపబ్లిక్	-10.6579
▁సూర్య	-10.658
▁విశ్వసించ	-10.658
▁స్టోన్	-10.6583
▁ఇళ్ళు	-10.6584
▁అంటుకునే	-10.6584
▁ఆహ్వానించ	-10.6585
▁కుట్టు	-10.6586
inch	-10.6587
జ్ఞా	-10.6587
="17	-10.659
▁ఇరు	-10.659
వుంది	-10.6591
▁API	-10.6592
▁కోన్	-10.6595
ఉదా	-10.6596
the	-10.6597
▁WhatsApp	-10.6605
▁ముసుగు	-10.6605
▁బాగుంది	-10.661
ుచున్నాము	-10.6612
▁స్వయంగా	-10.6615
▁గమన	-10.6622
కొండ	-10.6622
▁చక్ర	-10.6624
▁ఆహ్వాన	-10.6625
▁చూడడానికి	-10.6626
▁న్యూయార్క్	-10.663
▁అధిపతుల	-10.6631
▁పేతురు	-10.6633
▁లేడీ	-10.6638
▁వ్యాధులు	-10.6639
ప్యా	-10.664
▁ఘనత	-10.664
[	-10.664
9001	-10.6645
▁నిర్మించిన	-10.6645
▁ఐడియాస్	-10.6648
▁భయము	-10.6651
▁సహాయంతో	-10.6652
▁ట్విట్టర్	-10.6656
▁సాంస్కృతిక	-10.6656
▁ముప్పది	-10.6656
▁కొడుకు	-10.6657
హైడ్రో	-10.6659
▁జయ	-10.6662
▁కొను	-10.6665
▁పిసి	-10.6667
▁నేర్చుకున్న	-10.6669
▁త్రో	-10.667
ుతున్నాయి	-10.6675
యున్నవి	-10.6675
▁దినములలో	-10.6679
▁సాధించింది	-10.6682
▁ఎక్స్చేంజ్	-10.6682
▁ఉష్ణ	-10.6682
▁వినోదం	-10.6684
▁గీ	-10.6685
వాడెవడు	-10.6687
▁పరిగణ	-10.6688
HA	-10.6689
▁మరణము	-10.669
cial	-10.6692
▁ఉపయోగించారు	-10.6692
స్తాము	-10.6693
▁శుద్ధి	-10.6696
▁క్రిస్	-10.6698
▁IC	-10.6699
▁కన్నుల	-10.67
▁విస్తరించి	-10.6702
▁పోరాట	-10.6707
▁రుజువు	-10.6708
▁సున్నతి	-10.6708
▁విలీనం	-10.6708
▁ఇప్పుడే	-10.6712
ించుచు	-10.6715
▁పెట్టుబడిదారుల	-10.6719
వరం	-10.6719
▁తీసుకురా	-10.672
కూడదని	-10.6722
▁నడుప	-10.6727
▁రెట్లు	-10.6732
మయ్యాయి	-10.6733
▁ఇన్వాయిస్	-10.6734
▁అభిరుచి	-10.6734
▁Online	-10.6734
▁కాండిల్	-10.6734
▁వార్షికోత్సవ	-10.6734
▁దుమ్ము	-10.6734
▁యంత్రాల	-10.6736
బట్ట	-10.6737
▁ఎవని	-10.6738
ెద	-10.6742
భరిత	-10.6743
పూర్తి	-10.6748
▁గ్రంథము	-10.6748
▁పద్ధతుల	-10.6752
ింపగా	-10.6756
కార్యము	-10.6757
▁సాంద్రత	-10.676
▁ప్రతిపాదన	-10.676
▁ప్రాతినిధ్యం	-10.676
▁చెయ్యడానికి	-10.6761
▁భూభాగం	-10.6761
▁నేర్చుకోవడం	-10.6761
▁GLONASS	-10.6762
▁తినడం	-10.6763
▁గ్లూ	-10.6764
▁పూరించ	-10.6764
▁చుట్ట	-10.6765
▁అనుమతించే	-10.6774
▁కోప	-10.678
mer	-10.6782
ించుట	-10.6784
▁కార్మిక	-10.6785
▁దేవదూత	-10.6786
▁యొర్దాను	-10.6786
▁కావడం	-10.6792
▁చేస్తున్నా	-10.6794
▁బాధపడ	-10.6794
▁పౌలు	-10.6796
▁సందర్శకులు	-10.6801
▁చిక్క	-10.6803
▁Go	-10.6804
▁స్థాపించబడిన	-10.6805
▁CA	-10.6809
▁అండర్	-10.6811
లింగ	-10.6812
▁సోమవారం	-10.6812
▁సీయోను	-10.6812
▁రోమ్	-10.6812
▁ఈయన	-10.6813
▁కరుణ	-10.6816
▁నిబంధనల	-10.6819
▁క్రిందికి	-10.6821
#	-10.6824
చేసెను	-10.6824
▁అనుకూలీకరించ	-10.6826
▁లీడ్	-10.6828
▁బాడీ	-10.6832
▁సంకర్షణ	-10.6838
▁సరస్సు	-10.6838
▁భావిస్తున్నాను	-10.6841
▁కుమారుడగు	-10.6842
▁విభాగాల	-10.6844
య్యాయి	-10.6844
▁నివారించడానికి	-10.6849
హర్	-10.6849
▁వీర	-10.6849
▁విస్తారమైన	-10.6851
స్థలము	-10.6853
▁వరద	-10.686
షన్స్	-10.686
FO	-10.6862
▁యాంత్రిక	-10.6864
▁యేసుక్రీస్తు	-10.6864
▁అంతర్నిర్మిత	-10.6864
▁అంతిమ	-10.6865
▁free	-10.6867
▁అవకాశ	-10.6868
▁మనుష్యుని	-10.6869
▁వైద్యులు	-10.687
▁విస్తృతమైన	-10.6871
▁మెట్రో	-10.6873
▁నిరోధ	-10.6888
tin	-10.6888
▁ప్రభావాలను	-10.6889
▁నివేదికలు	-10.689
▁అరుదుగా	-10.689
▁నైలాన్	-10.6891
▁కౌంటీ	-10.6891
▁ఉద్	-10.6891
▁ప్రతినిధి	-10.6891
▁తిరు	-10.6894
▁రైళ్లు	-10.6895
▁చౌక	-10.6895
ette	-10.6896
▁మార్గదర్శక	-10.6901
▁గంటల్లో	-10.6905
▁స్థానాలు	-10.6911
▁నేర్చుకో	-10.6915
▁కలి	-10.6919
▁టేక్	-10.6922
▁పోస్ట్లు	-10.6922
▁హాల్	-10.6927
▁రాష్ట్రంలో	-10.6927
▁లక్ష్యంగా	-10.6929
▁PRO	-10.6929
UT	-10.6932
rad	-10.6934
▁చేసాడు	-10.6934
▁అంట	-10.6937
▁చక్రాల	-10.6941
యుండ	-10.6942
టికల్	-10.6943
▁700	-10.6945
▁చేరుకుంది	-10.6947
క్రో	-10.6948
▁వర్తక	-10.6949
▁తెలుసుకోవాలి	-10.6951
▁నీళ్ల	-10.6952
▁విజ్ఞాన	-10.6952
ary	-10.6953
నుండియు	-10.6955
యుండుట	-10.6955
▁జనన	-10.6955
▁విచ్ఛిన్నం	-10.6956
మృగ	-10.6961
fl	-10.6965
▁కోడె	-10.6968
▁టెంప్లేట్	-10.697
150	-10.697
▁భయంకరమైన	-10.6972
▁సూత్రాల	-10.6972
▁స్థిరత్వం	-10.6974
▁ఔ	-10.6975
▁రీడర్	-10.6977
జ్జ	-10.6977
▁బస్	-10.6979
▁ఊర	-10.6981
7.1	-10.6982
ప్రి	-10.6986
▁2002	-10.6988
▁తుది	-10.6988
▁చక్కగా	-10.6989
▁పట్టుకొన	-10.6989
▁షెల్	-10.6989
▁వెనుకకు	-10.6991
ిణి	-10.6991
▁ఎరుగ	-10.6995
▁సవరణ	-10.6997
▁సాధ్యమే	-10.7003
Com	-10.7004
ంతా	-10.7008
కెన్	-10.7008
▁PS	-10.7008
గింగ్	-10.7011
▁సమా	-10.7012
▁కడ	-10.7013
▁అంచనాలు	-10.7013
గ్న	-10.7015
ఫీల్డ్	-10.7016
▁జోడించడానికి	-10.7021
▁కోరుకుంటారు	-10.7025
="0.1	-10.7029
▁ద్వీప	-10.7032
▁జైలు	-10.7032
మణి	-10.7035
పరమైన	-10.7038
ern	-10.7048
DP	-10.705
▁ఏర్పాట్లు	-10.705
▁ట్రాన్స్ఫార్మర్	-10.705
▁మల్టీమీడియా	-10.705
▁గుమ్మము	-10.705
▁ఇవ్వగలరు	-10.7052
▁ప్రేరేపించ	-10.7053
▁రూపాయల	-10.7054
▁వివరిస్తుంది	-10.7056
lock	-10.7059
▁అభిమాన	-10.706
▁పోయెను	-10.7064
shi	-10.7066
ations	-10.7067
▁నిషేధ	-10.707
="16	-10.7071
▁ప్రోత్సాహ	-10.7077
▁మసాజ్	-10.7077
▁స్వయం	-10.7077
▁పరిహార	-10.7077
టువంటి	-10.7085
ితివి	-10.7085
పడ్డారు	-10.7089
▁కరిగి	-10.7089
▁బానిస	-10.709
▁మాట్లాడారు	-10.7097
సిటీ	-10.7101
▁180	-10.7102
▁గులాబీ	-10.7104
▁డైరెక్టరీ	-10.7104
▁బలోపేతం	-10.7104
▁యాసిడ్	-10.7104
జెస్	-10.7105
▁విడిపించ	-10.7105
స్టింగ్	-10.7107
▁మరణించిన	-10.7111
నాశన	-10.7111
వాడను	-10.7113
▁చౌకగా	-10.7115
▁అధ్యయనాలు	-10.7116
▁మద్యం	-10.7118
▁కనిపించింది	-10.7119
▁ఇప్పటి	-10.7122
▁పనితీరును	-10.7128
▁PO	-10.7129
▁ముగిసిన	-10.713
▁డ్రమ్	-10.7131
▁భా	-10.7133
ఫిన్	-10.7135
ding	-10.7136
001	-10.7138
Re	-10.7138
ating	-10.7141
▁ఉరి	-10.7142
▁దుకాణాలు	-10.7144
ets	-10.7145
▁చేరి	-10.7145
మయ్య	-10.715
▁ఎమ్	-10.7152
ku	-10.7153
▁ముగిసింది	-10.7158
▁వృత్తిపరమైన	-10.7158
ral	-10.7158
▁పక్షులు	-10.7158
▁నిర్ధారిస్తుంది	-10.7159
▁ఇస్తా	-10.7165
▁పనుల	-10.7166
▁స్తుతించ	-10.7171
▁అప్లికేషన్లు	-10.7172
▁రెండ	-10.7173
ium	-10.7176
రెస్ట్	-10.7179
▁సత్యము	-10.718
▁పక్షి	-10.7181
▁సమ్	-10.7181
▁గం	-10.7182
▁యున్నారు	-10.7184
▁ఆచరణాత్మక	-10.7185
▁వేరియబుల్	-10.7185
▁సమూయేలు	-10.7185
▁మనుష్యుడు	-10.7185
▁స్క్రోల్	-10.7185
▁చెయ్యగలరు	-10.7186
test	-10.7188
▁చర్యల	-10.7189
▁ఉదాహరణలు	-10.7193
▁చావ	-10.7195
▁పెన్నీ	-10.7197
▁నాలుక	-10.7199
▁కావలి	-10.72
7.5	-10.7204
▁మెత్త	-10.7207
▁ముక్కు	-10.7207
▁హాజరు	-10.7207
▁భోజన	-10.7211
ించుటకు	-10.7212
▁csgo	-10.7212
▁అసిటేట్	-10.7212
▁ఆదివారం	-10.7212
▁టోఫు	-10.7213
▁పెంచడం	-10.7214
▁గొట్టం	-10.7215
▁విలువలను	-10.7216
్యాల	-10.7217
▁ఓవెన్	-10.7218
వశ	-10.722
బ్యూ	-10.7226
uc	-10.723
▁విషయాన్ని	-10.7231
▁వ్యాస	-10.7232
type	-10.7234
తరువాత	-10.7235
▁చాక్లెట్	-10.7239
▁చెల్లుబాటు	-10.7239
▁ప్రోటోకాల్	-10.7239
▁అధ్యాపక	-10.7239
▁మోయాబు	-10.7239
▁సమతుల్య	-10.7239
▁త్యాగం	-10.7239
ించబడిన	-10.724
ధ్ధ	-10.7242
▁దుర్మార్గ	-10.7244
▁అనుచరులు	-10.7245
2.2	-10.7247
▁1:2	-10.7247
▁డాల్	-10.7248
స్నేహితు	-10.725
ధ్వ	-10.725
సిల్	-10.7253
▁కావు	-10.7253
లేట్	-10.7254
▁అందరు	-10.7257
In	-10.7259
▁సేన	-10.726
▁AS	-10.7262
▁380	-10.7263
ire	-10.7264
సంఖ్య	-10.7266
హీ	-10.7266
▁మిక్కిలి	-10.7266
▁షాన్డాంగ్	-10.7266
▁మనోహరమైన	-10.7266
▁సీనియర్	-10.7266
▁ఫారమ్	-10.7266
▁సమర్థ	-10.7269
▁డిస్కు	-10.7269
▁ఉంచుతారు	-10.727
కామర్స్	-10.7271
▁అందరికీ	-10.7272
las	-10.7274
val	-10.7277
▁ప్రశంస	-10.7277
టప్పుడు	-10.7278
కేమి	-10.728
ani	-10.7283
▁ఉనికిలో	-10.7283
▁చేపలు	-10.7291
▁నిర్వహించిన	-10.7293
ముధీరిన	-10.7294
▁ప్రావిన్స్	-10.7294
▁ఉమ్మడి	-10.7294
ాహార	-10.7296
▁అల్ట్రా	-10.7296
బ్రి	-10.7298
▁క్రాక్	-10.73
▁మందికి	-10.7301
▁బ్రూ	-10.7302
థో	-10.7302
▁సౌకర్య	-10.7302
▁రైతు	-10.7303
▁హ్యా	-10.7303
▁చేరిన	-10.7308
▁నిర్వహించండి	-10.7311
▁వ్రాసిన	-10.7311
నందరిని	-10.7311
▁sub	-10.7315
▁రామ్	-10.7315
▁పిలువ	-10.7321
▁గోల్డెన్	-10.7321
▁మంచం	-10.7322
▁విమానాలు	-10.7322
▁సృష్టిస్తుంది	-10.7323
▁న్యాయం	-10.7323
▁అంతకంటే	-10.7324
▁సభ్యత్వం	-10.7324
▁వచ్చుచున్న	-10.7325
ler	-10.7325
కృత	-10.7326
ning	-10.7328
▁సరళమైన	-10.7331
గ్రామ్	-10.7333
సిక్	-10.7334
▁సమావేశంలో	-10.7336
ుంది	-10.7337
వుతుంది	-10.734
cess	-10.734
1.0	-10.7341
▁చర్చలు	-10.7346
▁నీడ	-10.7348
▁ప్లేస్	-10.7348
BI	-10.7349
▁ఆరోపణ	-10.7349
▁కెనడియన్	-10.7349
1.5	-10.7349
▁ITIL	-10.7349
▁రిటర్న్	-10.7349
కైనను	-10.7351
▁డైనింగ్	-10.7353
xbet	-10.7354
▁కుమా	-10.7362
ంటాడు	-10.7363
▁స్టార్టర్	-10.7365
▁స్కూ	-10.7366
▁సుఖ	-10.7368
▁రాజా	-10.7369
వృద్ధ	-10.7372
▁పరీక్షా	-10.7372
▁అష్షూరు	-10.7376
▁Bonus	-10.7376
▁సారాంశం	-10.7376
▁నారింజ	-10.7376
by	-10.7377
▁డెస్క్	-10.7377
ble	-10.7377
▁చెట్లు	-10.7378
▁have	-10.7379
▁స్టెరాయిడ్స్	-10.7388
డెర్	-10.739
▁నివసించే	-10.7391
▁అభిమానులు	-10.7395
emp	-10.7403
▁పేర్కొన	-10.7404
GenericName	-10.7404
▁ఉత్సవ	-10.7404
▁శీతాకాలంలో	-10.7404
▁సరికొత్త	-10.7405
▁కేకలు	-10.7405
-2019	-10.7406
shop	-10.741
▁ఖాళీగా	-10.7411
▁భావిస్తున్నారు	-10.7415
ఖ్య	-10.7418
▁చెబుతా	-10.7421
▁ఎలక్ట్రికల్	-10.7432
▁కంప్రెషర్	-10.7432
▁రిజిస్ట్రేషన్	-10.7432
▁దీపం	-10.7432
▁విసర్జ	-10.7432
▁మినహాయించ	-10.7432
▁అపరాధ	-10.7433
ేశ్వర	-10.7433
▁అధికారుల	-10.7433
▁లోపలికి	-10.7434
▁అదృశ్య	-10.7436
▁ఉనికిని	-10.7436
పురం	-10.7439
పడ్డాడు	-10.7439
డెంట్	-10.7439
రేజ్	-10.7442
▁స్విస్	-10.7447
▁Photo	-10.7452
▁జంతువు	-10.7453
▁షిప్	-10.7457
▁అంతేకాకుండా	-10.746
▁పండ్రెండు	-10.746
▁ఉపాధి	-10.746
▁పానీయం	-10.746
యుండగా	-10.746
ించాలి	-10.746
▁ఆవరణ	-10.7461
▁డెబిట్	-10.7461
▁భవిష్యత్	-10.7461
▁వేగంతో	-10.7467
దేవి	-10.7468
▁అమ్మకాల	-10.748
▁అభిమాని	-10.7481
▁అసహ్య	-10.7487
▁స్క్రిప్ట్	-10.7488
▁సిరామిక్	-10.7489
ాలనుకుంటున్నారా	-10.7491
▁గుర్త	-10.7491
భో	-10.7491
▁చార్ట్	-10.7493
▁కాలువ	-10.7493
▁గై	-10.7499
బెల్	-10.7501
▁ఎలి	-10.7503
దేమనగా	-10.7511
▁మౌస్	-10.7515
▁సుగంధ	-10.7516
▁గోడలు	-10.752
RM	-10.752
▁క్షణ	-10.7522
▁ఛార్జీలు	-10.7522
కన్నా	-10.7523
▁కార్యక్రమ	-10.7527
page	-10.7531
విధంగా	-10.7534
▁మిస్టర్	-10.7537
▁జీవము	-10.7539
▁ప్రణాళికలు	-10.7539
▁తిరగ	-10.7545
▁అతిశయ	-10.7546
దేవుడు	-10.7547
fin	-10.7549
▁సూట్	-10.755
▁ఏరియా	-10.7553
▁దళ	-10.7555
long	-10.7557
▁బాబు	-10.7557
▁vs	-10.7557
▁కోరుకుంటున్నారు	-10.7557
VI	-10.7562
ాస్పద	-10.7563
ney	-10.7566
▁రథము	-10.7569
▁ఖడ్గము	-10.757
▁యోవాబు	-10.7572
▁ఆర్ఫెక్	-10.7572
▁స్పోర్ట్స్	-10.7572
▁ఆటోమొబైల్	-10.7572
ull	-10.7575
▁నమ్మదగిన	-10.7575
▁చీట్స్	-10.7576
పరుస్తుంది	-10.7578
▁గర్ల్స్	-10.758
▁12:1	-10.758
బ్లె	-10.7584
▁సందర్భ	-10.7585
tube	-10.7586
="14	-10.7589
USD	-10.7589
▁ఉన్నట్లయితే	-10.7593
రూపం	-10.7596
పరిమాణ	-10.7596
▁ముగ్గురు	-10.76
▁ఆల్బమ్	-10.76
▁క్రికెట్	-10.7601
mon	-10.7601
mat	-10.7603
▁ప్రాప్తి	-10.7603
▁చూడగలరు	-10.7604
య్యాడు	-10.7606
▁చిన్నది	-10.7609
కూర	-10.7609
▁లాభ	-10.7616
▁తెరువ	-10.7626
▁అంటు	-10.7626
▁నిర్మాత	-10.7629
▁అవసరమైతే	-10.7629
▁ఫుడ్	-10.7629
▁మరియొక	-10.7629
▁ఏమైనా	-10.7629
▁తిరుగుతోంది	-10.7629
▁వ్యక్తం	-10.763
0.4	-10.7631
నిగూర్చి	-10.7631
my	-10.7633
▁వాస్తు	-10.7633
▁లేత	-10.7634
▁వాడే	-10.7636
▁అభ్యర్థించ	-10.7639
▁ఫలము	-10.7641
▁శత్రువు	-10.7642
బడుతున్న	-10.7643
1,000	-10.7644
▁Zipper	-10.7657
▁జెనరేటర్	-10.7657
▁మధ్యాహ్న	-10.7657
▁హిజ్కియా	-10.7657
▁భక్తి	-10.7657
▁రిటైల్	-10.7661
fu	-10.7664
▁స్థితిలో	-10.7664
▁ప్రదేశంలో	-10.7666
సూచి	-10.7668
▁10:1	-10.7668
▁హాజర	-10.7669
▁టైటిల్	-10.767
▁దినముల	-10.767
lit	-10.7671
▁కుటుంబము	-10.7672
ునుగాక	-10.7677
▁వ్యాధుల	-10.7677
-2018	-10.7678
par	-10.7679
book	-10.7682
▁స్పెసిఫికేషన్	-10.7685
గ్రఫీ	-10.7687
▁130	-10.7688
▁ఫ్లా	-10.7688
6.2	-10.7689
▁విమానాల	-10.7692
▁స్తంభము	-10.7693
▁నిర్ణయాలు	-10.7695
▁యెరూషలేమునకు	-10.7698
కోణ	-10.7707
$1	-10.771
▁చెయ్యండి	-10.7713
alu	-10.7714
▁ద్రాక్షారసము	-10.7714
▁ఇంగ్లాండ్	-10.7714
▁పాక్షిక	-10.7714
gen	-10.7714
view	-10.7715
5.0	-10.7716
▁నోట	-10.772
▁అప్ప	-10.7723
▁పెదవుల	-10.7724
pen	-10.7724
▁చూశా	-10.7724
▁పరుగులు	-10.773
▁మాదిరిగా	-10.7734
తివిు	-10.7736
టేట్	-10.7739
ition	-10.7739
▁ఆబ్జెక్ట్	-10.7743
▁నైపుణ్యాలను	-10.7743
▁ఇండియన్	-10.7744
▁కోత	-10.7744
tech	-10.775
▁నయం	-10.7752
ara	-10.7753
▁ఇతరులకు	-10.7757
▁క్షేత్ర	-10.7757
▁యాజకులు	-10.7761
▁ట్రాక్టర్	-10.7761
▁అడిగి	-10.7762
మైతే	-10.7762
rat	-10.7765
▁పరిస్థితులలో	-10.7771
▁క్లియర్	-10.7771
▁జరిగాయి	-10.7771
▁ఎవరో	-10.7772
▁సమాధానాలు	-10.7773
▁కార్యక్రమంలో	-10.7776
జై	-10.7781
▁దుకాణ	-10.7784
▁చేరడానికి	-10.7785
పరా	-10.7791
▁శత్రువులను	-10.7795
ప్రాంత	-10.7795
▁నవీకరించ	-10.7798
▁పంక్తులు	-10.78
▁ఛార్జర్	-10.78
▁సర్వీసు	-10.78
▁మరక	-10.7802
▁కలుప	-10.7805
eth	-10.7806
కారుడు	-10.7807
▁పరిసర	-10.7807
▁యేలు	-10.7814
▁నవల	-10.7814
▁అందిస్తున్న	-10.7818
▁ఆదేశించ	-10.7819
ier	-10.782
▁మనలను	-10.7824
load	-10.7825
-18	-10.7826
▁చేసినట్లు	-10.7827
▁మారుతున్న	-10.7828
▁చేతికి	-10.7828
▁ఫిలిప్	-10.7828
▁ఉంటుందని	-10.7829
▁థియేటర్	-10.7829
▁కాంగ్రెస్	-10.7829
▁స్వచ్ఛంద	-10.7829
▁110	-10.783
ray	-10.7831
video	-10.7831
▁Man	-10.7832
▁సాల్	-10.7832
Indian	-10.7833
▁మార్గ	-10.7834
▁వర్షం	-10.7834
▁ఫెర్	-10.7837
▁కొమ్ము	-10.7843
▁TS	-10.7843
▁భూమిపై	-10.7848
నరీ	-10.7849
స్ట్రో	-10.7851
▁కాయ	-10.7851
▁యున్నది	-10.7856
▁బ్రెజిల్	-10.7858
▁మెషినరీ	-10.7858
▁ఫ్రాంక్	-10.7858
▁వయోజన	-10.7858
ునిగా	-10.786
▁రిపోర్ట్	-10.7862
శాస్త్ర	-10.7863
▁దశలను	-10.7865
tro	-10.7876
▁కన్వేయర్	-10.7887
▁సమ్మేళనం	-10.7887
▁స్క్రాప్	-10.7887
ార్థం	-10.7889
▁కోల్పోయిన	-10.789
▁ఆర్కైవ్	-10.7891
కూర్చ	-10.7893
▁ఎడ్జ్	-10.7895
▁దగ్గరకు	-10.7897
▁వారిమీద	-10.7899
▁అమెరికాలో	-10.7899
Pro	-10.7903
▁తరలించడానికి	-10.7905
▁గణాంకాలు	-10.7911
▁ఫిష్	-10.7911
▁ఉద్యోగి	-10.7912
▁పోర్టల్	-10.7916
▁బల్ల	-10.7925
▁రాష్ట్రాల	-10.7926
▁అవకాశాన్ని	-10.7928
▁లక్ష్యాలను	-10.7928
▁రోడ్డు	-10.793
▁దృ	-10.7933
▁ఆనందంగా	-10.7937
▁ఉపయోగించాలి	-10.7937
▁పేజీకి	-10.7938
py	-10.7941
సార్లు	-10.7944
▁ఆటోమోటివ్	-10.7946
▁మనష్షే	-10.7946
pdf	-10.7946
▁కూర్చుండ	-10.7946
▁ప్రవర్తించ	-10.7946
▁కేసులు	-10.7948
▁నగల	-10.7952
ux	-10.7955
▁పారా	-10.7957
▁ట్రీ	-10.7958
▁సీల్	-10.7959
▁నడుము	-10.796
▁1999	-10.7961
▁ఐరోపాలో	-10.7961
▁స్పిన్	-10.7966
▁ఢిల్లీ	-10.7975
▁అవుట్డోర్	-10.7975
▁పురాణ	-10.7975
▁బోల్ట్	-10.7975
▁ప్రాకారము	-10.7977
▁లెక్కింపు	-10.7978
▁ప్రవక్తల	-10.7978
▁గొఱ్ఱ	-10.7979
▁జెండా	-10.798
▁అనువైన	-10.798
రాజ	-10.7981
▁హెల్త్	-10.7982
ుచున్నవి	-10.7984
▁చిహ్నాలు	-10.7984
▁టాగ్	-10.7989
PM	-10.799
▁EC	-10.7992
▁చేయబడి	-10.7995
▁విజయాలు	-10.7997
yn	-10.7999
▁PTFE	-10.8004
▁రొమ్ములు	-10.8004
▁సమన్వయ	-10.8004
▁URL	-10.8005
▁కావాలా	-10.8005
▁ఇందు	-10.8006
▁టెస్టర్	-10.8007
▁డెల్	-10.8008
▁నిలిపి	-10.8012
▁సమూహాలు	-10.8012
▁పత్రికా	-10.8013
▁సీలింగ్	-10.8016
▁యాక్	-10.8017
▁నడిపించ	-10.8017
▁Blockchain	-10.8019
▁నియమాల	-10.802
లేటర్	-10.8021
▁గర్వంగా	-10.8021
▁అధికారికంగా	-10.8021
▁ఈస్టర్	-10.8024
4.5	-10.8032
gl	-10.8032
▁థెరపీ	-10.8034
▁లాకెట్టు	-10.8034
▁దేశమునకు	-10.8035
▁ద్వి	-10.8036
▁ఫ్లోరింగ్	-10.8036
▁విభజించబడింది	-10.8043
స్వామి	-10.8044
▁సంతోషము	-10.8044
▁యింట	-10.8051
▁మానవుల	-10.8059
▁పొందే	-10.8059
్ని	-10.8063
▁సులభతరం	-10.8063
▁క్షేమ	-10.8063
▁టెండర్	-10.8067
▁పంపిణీదారు	-10.8069
▁దానిమీద	-10.8069
cl	-10.8072
▁లాభాల	-10.8075
▁సంతోషించ	-10.8079
▁గ్రె	-10.8081
▁దాస	-10.8082
▁పనులను	-10.8085
▁లావాదేవీల	-10.8087
▁IR	-10.8089
▁అడుగగా	-10.8091
ally	-10.8091
▁అలవాటు	-10.8093
▁ఉత్తమంగా	-10.8096
MI	-10.8098
▁సంస్కృత	-10.8099
▁Air	-10.81
oto	-10.8101
▁అన్వేషణ	-10.8105
▁3.0	-10.8108
other	-10.811
its	-10.8113
▁చూస్త	-10.8115
PO	-10.8117
నెల	-10.8118
▁అభ్యర్థుల	-10.8123
▁ఫ్యాక్స్	-10.8123
▁సస్పెన్షన్	-10.8123
ాధిపతుల	-10.8123
▁హ్యూ	-10.8123
▁గొంతు	-10.8123
▁యేలీయుల	-10.8123
▁బ్రిటన్	-10.8124
▁పార్కింగ్	-10.8126
ates	-10.8128
▁క్రిమి	-10.8135
▁పాప్	-10.8136
▁నడిప	-10.8142
ీయుడైన	-10.8143
▁అయింది	-10.8144
కూడా	-10.8152
▁ఇన్సులేషన్	-10.8153
▁కవరేజ్	-10.8153
▁జాక్పాట్	-10.8153
▁నైతిక	-10.8153
▁మొదలవుతుంది	-10.8153
▁జగన్	-10.8154
▁63	-10.8155
▁హిల్	-10.8156
▁రూపొందించినవారు	-10.8158
▁పెరగడం	-10.8161
▁తెల్లని	-10.8162
▁గుర్తించి	-10.8162
▁పతనం	-10.8163
సొ	-10.8164
▁గుర్ర	-10.8164
▁పశు	-10.8173
▁స్థానాల	-10.8175
▁2:2	-10.8176
వడ	-10.8176
▁మాస్టర్స్	-10.8176
▁పౌ	-10.818
▁వర్తకం	-10.818
▁ఖాతాలో	-10.818
▁రికార్డర్	-10.8183
▁వచ్చాయి	-10.8183
▁ట్రయల్	-10.8184
▁అభిప్రాయ	-10.8184
▁ప్రయాణికుల	-10.8186
▁బ్రహ్మ	-10.8187
ili	-10.8187
య్యే	-10.8189
▁ఫ్లవర్	-10.8189
▁వేసిన	-10.8189
▁ప్రమాణం	-10.8191
▁వస్తే	-10.8196
▁ఎదుర	-10.8198
▁సంసార	-10.8199
పాద	-10.8204
▁మిల్లు	-10.8207
▁ఎవడును	-10.8208
▁వ్యాపారాన్ని	-10.8208
▁కన్వర్	-10.8209
▁శస్త్రచికిత్స	-10.8213
▁అభిలాషి	-10.8213
▁ఫ్యాన్	-10.8213
▁ఉండేవి	-10.8213
0.5	-10.8219
rit	-10.8221
UP	-10.8221
▁వాగ్దాన	-10.8222
▁భవన	-10.8223
గుదురు	-10.8227
▁నిరోధించడానికి	-10.8228
▁మరుగు	-10.8229
▁నికో	-10.8234
▁గృహాలు	-10.8236
▁రండి	-10.8242
▁టెలివిజన్	-10.8243
▁తేలికగా	-10.8243
కొనుడి	-10.8243
▁గుండా	-10.8246
▁చున్నాను	-10.8251
DO	-10.8252
▁Apps	-10.8252
coin	-10.8256
▁పదార్థ	-10.826
నిచ్చి	-10.8261
స్టార్	-10.8263
▁Ke	-10.8263
▁బగ్	-10.8265
120	-10.8269
▁పథక	-10.8271
bet	-10.8272
▁పన్నెండు	-10.8273
▁యూనివర్శిటీ	-10.8273
▁గ్రహీత	-10.8273
▁చైర్	-10.8273
▁ప్రింటర్	-10.8273
▁దీవించ	-10.8273
▁మన్నికైన	-10.8274
▁స్థాయిని	-10.8274
▁మాత్రలు	-10.8274
▁రుచికరమైన	-10.8275
▁చుక్క	-10.8276
భయ	-10.8277
▁హైపర్	-10.8288
▁ద్వీపం	-10.8293
oot	-10.8294
ట్టే	-10.8294
▁360	-10.8297
▁ఉండడం	-10.83
ala	-10.8303
▁కాంక్రీటు	-10.8303
▁సోదరి	-10.8303
▁చెల్లించే	-10.8303
EA	-10.8309
▁రతి	-10.831
▁నడవ	-10.8313
▁CH	-10.8314
▁చీఫ్	-10.8316
షియా	-10.832
నైపుణ్య	-10.8331
▁ఇండస్ట్రియల్	-10.8334
▁తేలికపాటి	-10.8334
▁పెళ్ళి	-10.8334
కందరికి	-10.8334
▁షూటింగ్	-10.8338
నియంత్రించడానికి	-10.8339
▁మందిర	-10.8341
▁గుహ	-10.8345
ano	-10.8346
▁స్టేషన్లు	-10.8356
▁లావాదేవీలు	-10.8362
INE	-10.8363
▁సాధ	-10.8364
▁పునరుత్పత్తి	-10.8364
▁తమిళ	-10.8366
▁రోటరీ	-10.8369
can	-10.837
▁ఫ్లూట్	-10.8373
▁గుర్తుంచుకోండి	-10.8374
ుచుండెను	-10.8375
▁ధ్యాన	-10.8376
700	-10.8379
ధ్వని	-10.838
▁చేతిలోనుండి	-10.838
▁అహీ	-10.8381
▁Na	-10.8382
▁ప్రవేశించి	-10.8383
van	-10.8384
ించటం	-10.8393
▁రాణి	-10.8393
▁సెమీ	-10.8396
▁దుష్ప్రభావాలను	-10.8406
250	-10.8407
▁కుమారులను	-10.8408
▁మందిరమును	-10.8409
▁నిశ్చయ	-10.8412
▁స్లా	-10.8418
▁డిగ్రీల	-10.8421
back	-10.8422
▁వాహనాలు	-10.8423
▁డెవలప్మెంట్	-10.8425
▁ప్లాట్ఫారమ్	-10.8425
▁సెప్టెంబరు	-10.8425
▁సేంద్రీయ	-10.8425
ఱ	-10.8425
▁భూగర్భ	-10.8425
▁ఎఫ్రాయిము	-10.8425
▁అరుదైన	-10.8425
▁చెర్రీ	-10.8425
▁పరిశోధ	-10.8427
▁స్కోర్	-10.8427
▁ఓటు	-10.8427
నుకుంటున్నా	-10.8427
▁ప్రదర్శిస్తుంది	-10.8429
▁వెళ్లగొట్ట	-10.843
▁ఆల్ఫా	-10.843
న్నాడు	-10.8432
▁ఉత్పాదకత	-10.8439
▁RT	-10.844
▁పీస్	-10.8441
▁సాగు	-10.8444
▁అవసరాల	-10.8449
▁ద్వారము	-10.845
▁పాదముల	-10.8452
▁కణాల	-10.8453
PT	-10.8453
▁ఉత్సాహ	-10.8454
▁నుంచ	-10.8454
▁ఇన్వెస్ట్	-10.8456
▁యెషయా	-10.8456
▁month	-10.8456
▁ఫైళ్లను	-10.8458
▁అసలైన	-10.8458
▁గాయక	-10.8459
▁ఆకర్ష	-10.8469
పత్	-10.847
▁లోతుగా	-10.8471
▁అసాధారణమైన	-10.8473
▁లారా	-10.8474
▁నిబంధనలను	-10.8475
HD	-10.8478
UI	-10.8479
▁8:1	-10.8481
▁మార్చబడింది	-10.8483
▁విషయము	-10.8486
▁మరమ్మతు	-10.8487
▁అనిపిస్తుంది	-10.8487
▁గ్రిడ్	-10.8487
▁సమర్పణ	-10.8488
▁బెస్ట్	-10.8488
▁కొంతకాలం	-10.8491
▁శక్తుల	-10.8491
ీయేలు	-10.8492
▁డ్యూటీ	-10.8493
▁సైన్య	-10.8494
▁తినే	-10.8495
▁వాహన	-10.8495
▁పాట్	-10.8497
▁పెట్టె	-10.8498
▁వినబడ	-10.8499
▁చేయకుండా	-10.8506
▁దహనబలి	-10.8518
▁కలిగే	-10.8519
▁తగిలి	-10.852
▁item	-10.8521
▁కావాలని	-10.8523
▁రాక్షస	-10.8523
కానీ	-10.8524
డియో	-10.8527
▁నిలుప	-10.8528
OC	-10.8529
▁కణాలు	-10.8531
▁వైఫల్యం	-10.8542
▁ఉత్పన్న	-10.8549
▁అస్థిర	-10.8549
▁నిర్దోష	-10.8549
▁మనస్సులో	-10.8552
▁నివారించేందుకు	-10.8553
met	-10.8555
ుచున్నావు	-10.8556
▁నరుల	-10.8563
▁మూలాల	-10.8563
▁చూపిస్తున్న	-10.8564
▁వైద్యం	-10.8564
▁పొందారు	-10.8565
▁CPA	-10.8567
ert	-10.8572
▁సమావేశాలు	-10.8574
బోర్డు	-10.8575
kw	-10.8576
▁సింహాసనము	-10.858
▁బొగ్గు	-10.858
▁అసమాన	-10.858
▁మేరకు	-10.8581
NI	-10.8591
▁చెయ్యాలి	-10.8595
▁మార్గదర్శకాలు	-10.8597
▁యుల	-10.8598
▁కర్మ	-10.8602
▁పలుకు	-10.8608
▁ఆహ్లాదకరమైన	-10.8611
▁క్లెయిమ్	-10.8611
▁ప్రతిరోజూ	-10.8611
▁స్వీడన్	-10.8611
▁ప్రతిష్ఠిత	-10.8614
▁పర్యావరణం	-10.8615
="0.2	-10.8616
▁అందిస్తున్నాయి	-10.8616
▁ఫన్	-10.8618
tric	-10.8618
లిటీ	-10.8618
హార్	-10.8619
▁వేయడం	-10.862
▁భాగస్వాముల	-10.862
పరచుకొన	-10.862
డిగి	-10.8621
▁విగ్రహము	-10.8622
="2.9	-10.8624
▁రావడం	-10.8624
▁మెటా	-10.8625
▁3:2	-10.8625
▁అంగుళాలు	-10.8626
▁ప్రశంసలు	-10.8631
▁సమస్తమును	-10.8632
▁పక్క	-10.8634
▁ప్రదేశాలలో	-10.8635
DI	-10.8639
led	-10.8639
రాష్ట్ర	-10.864
▁ఖాతాదారుల	-10.864
▁ఛాంపియన్	-10.8643
▁పుష్కలంగా	-10.8643
▁వినూత్న	-10.8643
▁గోత్ర	-10.865
CP	-10.8653
▁అవ్వండి	-10.8654
▁అణు	-10.8654
▁కోట్ల	-10.8658
▁వర	-10.8661
▁అభ్యర్థి	-10.8662
▁డీల్	-10.8666
వేసెను	-10.8667
="19	-10.8667
▁సూచించే	-10.8667
▁హోల్	-10.8673
కపోవడం	-10.8673
▁యువకులు	-10.8676
▁కోల్పోతారు	-10.8678
▁సిద్ధపరచ	-10.868
▁ఎగ్	-10.8681
js	-10.8681
▁తెలుసుకున్న	-10.8684
▁పులి	-10.8685
▁హేతు	-10.8686
▁లాభదాయక	-10.8687
▁చెబుతారు	-10.8688
▁ప్రభువా	-10.8688
ీకరించిన	-10.8688
▁పూర్త	-10.8689
గింపు	-10.869
▁+86	-10.869
▁టాబ్	-10.8701
▁డాష్	-10.8701
▁సాంగ్	-10.8706
▁అలంకార	-10.8706
▁ల్యాబ్	-10.8706
▁చేసుకునే	-10.8708
▁లెదర్	-10.8708
వారం	-10.8709
ామని	-10.871
▁రాశారు	-10.8713
▁పంపడం	-10.8713
▁ఉండడానికి	-10.8716
▁కదిల	-10.8717
▁సూర్యుని	-10.8726
sha	-10.8728
mit	-10.8729
▁అట్లు	-10.8729
▁వెల్లడించ	-10.873
▁వైపులా	-10.8733
▁డిటెక్టర్	-10.8737
▁సిండ్రోమ్	-10.8737
▁పేలుడు	-10.8738
వారీ	-10.874
▁బలంగా	-10.8741
esh	-10.8749
▁నిశ్చ	-10.875
bra	-10.8751
▁లయ	-10.8761
▁పలుక	-10.8761
ననియు	-10.8761
tory	-10.8762
ెక్కి	-10.8767
కారుల	-10.8767
▁గుళిక	-10.8769
▁మునిగి	-10.8769
▁అక్రమ	-10.877
▁కిడ్స్	-10.8771
▁పాడై	-10.8774
▁పట్టించుకో	-10.8775
▁రేసింగ్	-10.8776
▁By	-10.878
త్తర	-10.878
▁కేంద్రాలు	-10.8782
▁ఐడియా	-10.8783
ఆన్	-10.879
▁జరుగుతున్న	-10.8792
▁అధ్యయన	-10.8794
▁త్వర	-10.8797
▁ఎగ్జిబిషన్	-10.8801
▁వర్చువల్	-10.8801
▁హైదరాబాద్	-10.8801
▁యూరప్	-10.8801
▁పర్యవేక్షించ	-10.8806
OT	-10.8807
▁పిల్లి	-10.8807
▁వృక్ష	-10.8809
▁సృష్టించండి	-10.8809
▁game	-10.8811
బియన్	-10.8811
▁ప్రభు	-10.8811
▁చేసుకొ	-10.8815
▁ఆశ్చర్యం	-10.8815
▁దాడుల	-10.8819
▁ప్రదేశాలు	-10.8823
ello	-10.8824
▁వనరు	-10.8825
▁బలహీనత	-10.8829
▁రంగం	-10.8829
ile	-10.883
▁Car	-10.8831
▁చేయవలసి	-10.8832
▁చెవిపోగులు	-10.8833
▁జెజియాంగ్	-10.8833
▁గిలాదు	-10.8833
▁తెలుస్తుంది	-10.8833
▁చేయటం	-10.8834
▁ఇంకొక	-10.8834
▁నడక	-10.8834
▁సంపాదించడానికి	-10.8835
▁China	-10.8835
nit	-10.884
శీల	-10.884
▁PARK	-10.884
▁మిత్ర	-10.8843
▁పరికరములు	-10.8846
XXX	-10.8846
▁వ్యాయామ	-10.8848
▁సిగ్గు	-10.885
▁సంచి	-10.8851
0.7	-10.8851
▁లెటర్	-10.8853
▁ఇవ్వబడుతుంది	-10.8854
▁LT	-10.8855
UB	-10.8858
ేగాని	-10.8864
▁ప్రవచ	-10.8864
▁బంగారము	-10.8865
▁క్రాఫ్ట్	-10.8866
▁రెండుసార్లు	-10.8873
link	-10.8879
యింది	-10.8881
ింపబడి	-10.8882
▁సమయానికి	-10.8883
▁ప్రమాదకరమైన	-10.889
బడని	-10.8894
▁కుటుంబాలు	-10.8896
▁వర్గీకరణ	-10.8897
▁తోడుకొని	-10.8897
▁మెరుపు	-10.8897
▁విడువ	-10.8898
▁ఉత్సాహం	-10.89
▁మరోవైపు	-10.89
▁బ్లాండ్	-10.8902
▁యేడు	-10.8903
▁వ్యవసాయం	-10.8904
rd	-10.8905
▁ఉంచాలి	-10.8907
press	-10.8915
▁భావించారు	-10.8915
OO	-10.8915
▁కంచె	-10.8919
▁హెచ్చ	-10.8919
▁స్థలాలు	-10.892
▁పారిపో	-10.8921
యుండిరి	-10.8921
గలవాడు	-10.8921
▁భావించాడు	-10.8924
▁ఉత్తేజ	-10.8929
▁సింథటిక్	-10.8929
▁నిమిషం	-10.8929
▁గుఱ్ఱము	-10.8929
▁మురికి	-10.893
▁క్రేన్	-10.893
▁స్వీ	-10.893
▁తీసుకువచ్చ	-10.893
▁కాలేయ	-10.8935
▁ఉన్నతమైన	-10.8936
num	-10.894
xml	-10.8941
▁అరణ్యములో	-10.8942
▁అశ్లీలత	-10.8946
▁350	-10.8949
▁వస్త్రం	-10.895
▁కలిగిస్తుంది	-10.8956
▁ఉండవు	-10.8958
▁సమాచారము	-10.896
▁RFID	-10.8962
6.1	-10.8962
▁దిగువన	-10.8962
▁పౌరులు	-10.8963
▁దేవు	-10.8965
▁pp	-10.8967
▁అవకాశాలను	-10.8967
▁విరోధముగా	-10.8968
▁యాక్షన్	-10.8969
▁టీవీ	-10.8969
▁జమ	-10.897
బడ్డాడు	-10.897
▁1980	-10.8971
దగ్గర	-10.8973
▁స్థానము	-10.8974
న్నిటిని	-10.8974
2.5	-10.8975
వీర్య	-10.8978
బడుతున్నాయి	-10.8982
hang	-10.8984
ites	-10.8986
▁హాస్య	-10.8986
ుకోవాలని	-10.8987
▁దాదాపుగా	-10.8988
ఆమె	-10.8994
▁Teltonika	-10.8994
▁కార్మికులు	-10.8994
▁సిల్వర్	-10.8994
▁బ్రాడ్	-10.8995
▁ఖనిజ	-10.8996
1.3	-10.8996
▁దోమ	-10.9003
lot	-10.9004
▁విమానాశ్రయ	-10.9004
▁పోషించ	-10.9004
▁సేఫ్	-10.9008
NC	-10.9009
▁నిన్న	-10.9014
▁సంభావ్యత	-10.9014
▁చేసికొని	-10.9016
▁వ్యవధిలో	-10.9019
▁సిరియా	-10.9022
ీర్	-10.9023
code	-10.9026
▁థామస్	-10.9027
▁ప్రెసిషన్	-10.9027
▁పూజారి	-10.9027
▁కార్మికుల	-10.9028
▁అప్లోడ్	-10.9028
▁పద్యం	-10.9031
ద్దా	-10.9034
▁తాళ	-10.9035
▁క్యాప్	-10.9035
ఇదిగో	-10.9037
▁సముద్రపు	-10.9043
▁సులభ	-10.9046
▁కోసే	-10.9047
zh	-10.9051
▁కండర	-10.9058
▁వెళుతుంది	-10.9061
▁వ్రాయండి	-10.9062
▁చేతుల్లో	-10.9062
▁రివార్డ్	-10.9062
▁ఉపయోగపడుతుంది	-10.9063
▁ధన్య	-10.9063
లేవు	-10.9064
▁అక్ష	-10.9065
▁Play	-10.9065
▁was	-10.9066
ందువు	-10.9068
▁EU	-10.9069
శ్రమ	-10.9069
▁సమర్పించిన	-10.9071
▁కూర్చున్న	-10.9071
="2.8	-10.9073
▁తెగులు	-10.9073
▁వర్ణించ	-10.9076
▁చట్టాల	-10.9082
▁ప్రేమిస్తున్నా	-10.9085
▁జియో	-10.9086
▁సంవత్సరాల్లో	-10.9087
rr	-10.9091
▁కాథలిక్	-10.9092
▁ప్రఖ్యాత	-10.9092
▁వాలెంటైన్	-10.9092
▁వ్యభిచార	-10.9092
▁దొరిక	-10.9092
▁తరపున	-10.9092
▁మర్చిపోతే	-10.9094
▁వంటకాలు	-10.9095
పాటి	-10.91
▁లభ్యత	-10.9107
ందరూ	-10.911
ద్రో	-10.9111
▁1.2	-10.9113
▁బర్న్	-10.9115
▁అమ్ముడు	-10.9117
KG	-10.9118
▁దాచిన	-10.912
med	-10.9122
▁నిర్లక్ష్య	-10.9125
▁మిళితం	-10.9125
▁ఇండోర్	-10.9125
▁దిక్కు	-10.9126
▁భక్తుల	-10.9127
▁రంధ్రం	-10.9127
▁చంద్రుడు	-10.9131
సన్న	-10.9131
▁30%	-10.9138
▁చెందుతున్న	-10.9139
చోట	-10.9145
ఫార్మ	-10.9152
▁పనిచేశారు	-10.9158
▁సామాన్య	-10.9158
▁ఎదుర్కొంటున్న	-10.9159
▁ప్రదేశాల్లో	-10.9159
▁రూల్	-10.9161
▁చేసేటప్పుడు	-10.9161
▁జేబు	-10.9164
▁బాధపడుతున్న	-10.9164
999	-10.9164
2.3	-10.9166
▁హోదా	-10.9168
▁పాకెట్	-10.9168
▁పరిస్థితులకు	-10.9171
▁చివరగా	-10.9174
tan	-10.9175
zz	-10.9186
**	-10.9186
▁చెల్లించడానికి	-10.9188
▁ఔత్సాహిక	-10.9191
transposh	-10.9191
▁చెబుతుంది	-10.9191
▁ప్రూఫ్	-10.9191
="3.9	-10.9191
2,000	-10.9192
ెలవిచ్చునదేమనగా	-10.9192
▁మద్య	-10.9193
▁ఫ్రంట్	-10.9194
ama	-10.9197
▁బహుగా	-10.92
విద్య	-10.9201
▁నిర్దేశ	-10.9202
▁దండు	-10.9205
▁కూలి	-10.9206
▁మరణించ	-10.9207
▁చర్చించడానికి	-10.9208
చర్య	-10.9209
▁నష్టాలు	-10.9212
No	-10.922
▁వెబ్క్యామ్	-10.9225
▁సర్వస్వామ్య	-10.9225
▁హిస్టరీ	-10.9225
▁చేరుకున్న	-10.9225
0.2	-10.9225
▁పూర్తయిన	-10.9226
▁విరామం	-10.9231
ుకొనుము	-10.9232
▁చేస్తు	-10.9233
▁శిక్షణా	-10.9235
▁ప్రదర్శ	-10.9235
▁రోలింగ్	-10.9236
▁సంచిక	-10.9258
▁సదుపాయాల	-10.9258
▁సర్టిఫైడ్	-10.9258
▁స్లయిడ్	-10.9258
▁త్రవ్వ	-10.9258
▁జీతం	-10.9258
▁స్థిరపరచ	-10.9265
▁టైల్స్	-10.9267
▁గేజ్	-10.9268
▁ప్రతిభ	-10.9269
star	-10.9279
▁ధ్యానం	-10.928
▁000	-10.9282
COM	-10.9284
సాధారణ	-10.9288
▁మొఱ్ఱపెట్ట	-10.9291
▁బ్రాకెట్	-10.9291
▁బల్బ్	-10.9292
▁గుంట	-10.9292
▁వేవ్	-10.9293
▁ఉపగ్రహ	-10.9294
▁ప్రింట్	-10.9296
ప్రద	-10.9301
▁పద్ధతులను	-10.9305
జేసి	-10.9305
▁pri	-10.9311
▁తొలగించడం	-10.9322
▁డిసెంబరు	-10.9325
▁పెండ్లి	-10.9325
▁పదార్ధం	-10.9325
▁సెలవిచ్చిన	-10.9327
▁టీచర్	-10.933
▁కోరల్	-10.9331
▁సకల	-10.9332
ఉచిత	-10.9338
▁వాడటం	-10.9343
▁గద్ద	-10.9346
▁1200	-10.9348
▁అనుగ్రహ	-10.9349
▁OF	-10.9358
▁Qingdao	-10.9359
▁తేలికైన	-10.9359
▁తొమ్మిది	-10.9359
▁రేంజ్	-10.9359
▁నెరవేర	-10.936
▁నమ్ముతారు	-10.9361
ica	-10.9361
▁నిర్ణయించుకుంది	-10.9361
▁!!	-10.9363
▁కాటన్	-10.9364
row	-10.9366
మార్గము	-10.9367
▁నిర్వాహకులు	-10.9368
పోతాయి	-10.9372
▁సంఘము	-10.9376
▁ధైర్యం	-10.9381
▁ట్యుటోరియల్	-10.9392
▁అసాధ్యం	-10.9392
▁గోల్ఫ్	-10.9392
▁ఐగుప్తీయుల	-10.9392
▁డిస్నీ	-10.9393
▁గిఫ్ట్	-10.9394
సాయి	-10.9399
▁నవీకరణలు	-10.9399
▁1.0	-10.9404
ింతురు	-10.9404
▁కలరింగ్	-10.9404
▁తెరవడానికి	-10.9413
▁నగరాల	-10.9417
▁ES	-10.9423
▁పంపడానికి	-10.9423
▁విజయవంతం	-10.9424
▁నివాసము	-10.9425
▁ఉల్లంఘన	-10.9426
▁మిక్సర్	-10.9426
▁పరివర్తన	-10.9427
▁పెరి	-10.9433
▁అల్ప	-10.9434
బిట్	-10.9436
VAC	-10.9438
select	-10.9441
▁అవసరాన్ని	-10.9442
▁పరిమాణాలు	-10.9442
వైద్య	-10.9446
▁సంబంధాన్ని	-10.9456
▁దురదృష్టవశాత్తు	-10.946
▁తండ్రుల	-10.946
▁స్ట్రోక్	-10.9461
rom	-10.9462
▁బర్నింగ్	-10.9463
▁3.5	-10.9465
▁హిప్	-10.9466
▁వైఫై	-10.9467
▁ఆమోద	-10.9468
▁మోల్డ్	-10.9472
▁రోజ్	-10.9474
▁కలర్	-10.9474
8.3	-10.9475
▁వైడ్	-10.9476
duct	-10.948
న్సర్	-10.9487
▁కన్య	-10.9489
▁ఉంటాడు	-10.9491
▁మూరలు	-10.9493
▁దేశానికి	-10.9494
▁అలెర్జీ	-10.9494
▁క్రిస్టియన్	-10.9494
▁మిర్రర్	-10.9494
▁వైద్యుడిని	-10.9494
ాలనుకునే	-10.9495
▁బ్రదికి	-10.9495
▁జన్యు	-10.9496
▁ముట్ట	-10.9496
▁Get	-10.9499
▁కేర్	-10.95
వతి	-10.9501
▁more	-10.9501
▁Im	-10.9501
రంగు	-10.9502
aj	-10.9503
▁హీటర్	-10.9503
▁నూలు	-10.9505
▁సహేతుకమైన	-10.951
అతను	-10.9515
let	-10.9517
భూమి	-10.9521
▁శత్రువులు	-10.9522
▁5.5	-10.9526
Manufacturer	-10.9529
▁వుపయోగించ	-10.9529
▁ఆఫీసర్	-10.9529
▁ODM	-10.9529
▁గొఱ్ఱపిల్ల	-10.9529
▁నివాసుల	-10.9529
▁గడప	-10.953
ada	-10.953
▁ఉద్దేశించిన	-10.9534
▁ఆలోచ	-10.9536
▁cl	-10.9539
▁వాకింగ్	-10.9547
▁రాలేదు	-10.955
▁యంగ్	-10.9553
▁4:2	-10.9555
▁పగటి	-10.9555
▁పెరిగి	-10.9558
ipp	-10.956
▁ఎప్పటికప్పుడు	-10.9563
▁యోనాతాను	-10.9563
▁నిర్మూలము	-10.9563
▁ఫెమ్మే	-10.9563
▁మృతి	-10.9563
▁పరిమళ	-10.9563
▁భూకంప	-10.9563
side	-10.9566
▁VP	-10.9567
కాలమందు	-10.9567
▁నగరాల్లో	-10.9571
▁మాట్లాడుతున్న	-10.9572
వల్ల	-10.9579
ky	-10.9581
▁సరిపోల	-10.9583
ష్టి	-10.9591
▁కెవి	-10.9591
▁సంవత్సరముల	-10.9597
▁Deposit	-10.9597
▁కెమికల్	-10.9597
▁డ్రగ్	-10.9597
ాకార	-10.9598
▁ఆలోచించడం	-10.9601
▁ఇంజన్	-10.9602
zi	-10.9606
▁చంపడానికి	-10.9608
▁వ్యాపారులు	-10.9609
▁ఐసో	-10.9612
trans	-10.9612
156	-10.9626
▁కృతజ్ఞతలు	-10.9626
▁నటన	-10.9627
cket	-10.9629
people	-10.9632
▁ఇస్సాకు	-10.9632
▁అభిషేక	-10.9632
▁జరుపుకుంటారు	-10.9633
▁సామాను	-10.9633
▁San	-10.9635
▁'%	-10.9636
మందున్న	-10.9639
▁టాయ్	-10.9641
ోత్సవ	-10.9641
▁comp	-10.9643
▁లాట్	-10.9643
ref	-10.9645
చిన్న	-10.9646
▁తొలగించు	-10.9653
▁ఏర్పడిన	-10.9654
వృక్షము	-10.9658
▁సంతోషిస్తున్నా	-10.9664
▁అకౌంట్	-10.9667
▁ఫ్యాబ్రిక్	-10.9667
▁సప్లిమెంట్	-10.9667
▁స్పాంజ్	-10.9667
▁డ్రాగన్	-10.9667
▁ధాతు	-10.9667
▁కనికర	-10.9668
kin	-10.9668
▁Comments	-10.9669
▁నరక	-10.9671
▁ఏమిటో	-10.9673
▁కనబడెను	-10.968
▁ఆల్టో	-10.968
▁తానే	-10.9701
▁కెపాసిటర్	-10.9702
▁కెటగిరీలు	-10.9702
▁ప్రైవేటు	-10.9702
▁రియాలిటీ	-10.9702
▁దహన	-10.9702
▁వాదించ	-10.9704
మూర్తి	-10.9705
gar	-10.9708
▁ప్రత్యక్షమై	-10.9709
▁చూస్తున్నారు	-10.9714
▁7:2	-10.9715
▁వర్డ్	-10.9717
▁చిత్రీకరించ	-10.972
ింతును	-10.9724
▁విస్తరించింది	-10.9725
▁భావిస్తున్న	-10.9728
train	-10.9728
డియన్	-10.9728
▁ఇవ్వబడింది	-10.9729
PR	-10.9731
▁సిగ్గుపడ	-10.9734
▁ఛార్జింగ్	-10.9737
▁కాల్షియం	-10.9737
▁భరోసా	-10.9737
▁సోడియం	-10.9737
▁పోలీస్	-10.9737
▁దృఢమైన	-10.9737
▁గాలన్	-10.9737
▁సేవకుడు	-10.9737
▁గిన్నె	-10.9738
▁జోడించడం	-10.974
RD	-10.974
▁అంకారా	-10.974
pon	-10.9742
▁కోరుకునే	-10.9744
ుకొనుట	-10.9749
▁సంతానము	-10.9756
కారులు	-10.9756
గుండ	-10.9757
▁చేయలేరు	-10.9762
count	-10.9768
ఆయన	-10.977
9.1	-10.9771
▁October	-10.9772
▁label	-10.9772
▁ఎడ్యుకేషన్	-10.9772
▁ఒరాకిల్	-10.9772
▁కవచ	-10.9772
search	-10.9772
▁గైకొన	-10.9772
▁స్ట్రిప్పింగ్	-10.9773
మవుతాయి	-10.9773
▁పిలుపు	-10.9773
▁బిల్డర్	-10.9776
పెల్	-10.9779
▁చూపుతుంది	-10.9784
▁విప్ప	-10.9787
క్రిప్ట	-10.9799
ful	-10.98
▁డీప్	-10.9802
▁కలుషిత	-10.9807
▁బట్వాడా	-10.9807
▁బిగ్గరగా	-10.9807
▁డైమండ్	-10.9807
▁పాఠ్య	-10.9808
▁---	-10.9808
▁ప్రయాణించ	-10.981
▁ప్రేమికుల	-10.9812
▁ఆహారాలు	-10.9814
▁ఏదీ	-10.9818
▁గ్రహించి	-10.9821
900	-10.9822
▁ఉన్నాయని	-10.9823
edit	-10.9824
▁Dec	-10.983
▁Mr	-10.983
3.2	-10.9833
▁బాట్	-10.9835
▁5:2	-10.9838
▁చిక్కు	-10.984
add	-10.9841
▁అలసట	-10.9842
▁నాణ్యమైన	-10.9842
▁రాజస్థాన్	-10.9842
ాధిపతి	-10.9843
▁స్ట్రె	-10.9845
="3.8	-10.9846
▁నిర్ణయించబడతాయి	-10.9849
▁అల్లిక	-10.9849
▁ms	-10.9849
▁క్రాష్	-10.9852
▁విత్తనాలు	-10.9853
hai	-10.9854
ough	-10.9855
cal	-10.9858
uch	-10.9861
ప్పుడే	-10.9861
▁కొమ్మ	-10.9863
EE	-10.9864
▁చెప్పడానికి	-10.9867
meth	-10.9868
£	-10.987
సైన్	-10.987
స్థితి	-10.987
▁క్షీణించ	-10.987
lip	-10.987
▁సన్నిధి	-10.9871
జాతి	-10.9875
▁తత్వ	-10.9875
1.4	-10.9877
▁ఫొటో	-10.9878
▁మెక్సికో	-10.9878
▁పెళ్లి	-10.9878
▁ఏలీయా	-10.9878
డ్యూ	-10.988
="3.0	-10.9881
ప్పటికి	-10.9882
ుకుంటాడు	-10.9883
నెల్	-10.9887
▁Job	-10.9889
▁కన్నులు	-10.9894
రింప	-10.9897
▁బస	-10.9903
ెదనని	-10.9907
లిస్ట్	-10.9908
▁అదృష్ట	-10.991
▁యుండి	-10.9912
▁చెదరగొట్ట	-10.9913
▁క్లీనింగ్	-10.9913
▁గ్రౌండింగ్	-10.9913
▁జోర్డాన్	-10.9913
▁పరిగణనలోకి	-10.9913
▁మ్యూజియం	-10.9913
▁సామూహిక	-10.9913
▁ఇష్యూ	-10.9913
▁కచేరీ	-10.9913
▁పాతిపెట్ట	-10.9914
203	-10.9915
▁యీలాగు	-10.9916
▁గృహాల	-10.9918
▁కనుగొనడానికి	-10.9919
▁స్వరము	-10.9921
▁నియమం	-10.9922
▁గుర్తించారు	-10.9924
▁నిర్మించబడింది	-10.9928
యుక్త	-10.9932
▁ప్రయాణించే	-10.9934
3.1	-10.9936
▁అక్షం	-10.9938
▁నూట	-10.9939
▁పండ్ల	-10.9941
ali	-10.9942
వార్డ్	-10.9947
▁అబ్ర్రేట్	-10.9949
▁ల్యాప్టాప్	-10.9949
▁సాంఘిక	-10.9949
▁పరుగెత్త	-10.9949
▁స్టోరీ	-10.9949
▁నీతిమంతుల	-10.995
▁పాన్	-10.995
NAME	-10.995
▁ప్యాడ్	-10.9952
చుకొని	-10.9953
▁నేత	-10.9954
▁పడగొట్ట	-10.9954
▁వెల్లడి	-10.9958
▁ఇష్టపడే	-10.9958
▁వధించ	-10.9959
వేసిన	-10.9963
den	-10.9965
షింగ్	-10.9965
ized	-10.9965
▁ఎద్దు	-10.9968
▁Des	-10.9975
సంవత్సర	-10.9977
▁MI	-10.9981
▁Cor	-10.9983
▁ఉపశమనం	-10.9983
▁తప్పనిసరి	-10.9983
▁విడ్జెట్	-10.9985
▁వృధా	-10.9985
▁తుప్పు	-10.9985
▁తెల్లబడటం	-10.9985
▁ఏబది	-10.9985
▁ప్రతివాడును	-10.9986
▁ఆప్టిక్	-10.9987
="1.7	-10.9988
▁Rated	-10.9993
కపోయినా	-10.9997
▁యుండును	-11
▁శుద్ధ	-11.0001
▁పెరగ	-11.0014
▁కలగ	-11.002
▁సేకరించడానికి	-11.0021
▁తృప్తి	-11.0021
▁ప్రెసిడెంట్	-11.0021
▁ప్లాట్ఫాం	-11.0021
▁విపరీత	-11.0021
Ltd	-11.0022
▁ఇస్తారు	-11.0024
▁సౌండ్	-11.0024
era	-11.0024
రంధ్ర	-11.0025
▁తరహా	-11.003
▁సహచరులు	-11.0031
▁తరంగ	-11.0036
▁NC	-11.0037
▁వారాలు	-11.004
ేతర	-11.0043
▁వాడిన	-11.0052
▁కేక్	-11.0054
▁ఎదురుగా	-11.0056
▁గమ్యస్థాన	-11.0057
▁Archives	-11.0057
▁అథ్లెట్	-11.0057
▁జీవనశైలి	-11.0057
▁రక్తపోటు	-11.0057
▁మాథ్యూ	-11.0057
▁హెయిర్	-11.0057
▁వేదాంత	-11.0057
board	-11.0059
▁లేడు	-11.0061
▁రచించ	-11.0063
▁స్వి	-11.0064
▁ఆక్రమించ	-11.0069
ుతుంద	-11.0069
▁యాజమాన్యం	-11.0077
▁కుమారు	-11.0077
arm	-11.0078
లేకపోయింది	-11.0081
now	-11.0083
▁అనారోగ్య	-11.0087
▁యున్నా	-11.0087
5.2	-11.0087
▁ఇంటీరియర్	-11.0093
▁సిఫారసు	-11.0093
▁భక్తిహీనుల	-11.0093
▁జోక్యం	-11.0093
▁అయ్యో	-11.0093
ాధ్య	-11.0093
▁0086-	-11.0093
▁ఆలోచిస్తూ	-11.0094
బిలిటీ	-11.0096
▁స్టాటిక్	-11.0101
▁మూడో	-11.0102
వేశారు	-11.0104
చుండెను	-11.0108
▁ఫస్ట్	-11.0108
▁GP	-11.011
▁సమానమైన	-11.0111
▁జతచేయ	-11.0111
పడుతుంది	-11.0112
▁ప్రకాశం	-11.0114
▁మాటలాడు	-11.012
▁On	-11.0123
వ్యవస్థ	-11.0124
▁CAS	-11.0127
▁కౌంట్డౌన్	-11.013
▁మూసివేసే	-11.013
▁వృద్ధాప్య	-11.013
▁ఇస్లాం	-11.013
▁ఐదవ	-11.013
▁ఫైనల్	-11.0133
▁20%	-11.0133
▁Ja	-11.0135
▁ఎవరికీ	-11.0137
▁మగవారి	-11.0137
▁***	-11.0139
▁చేస్తున్నప్పుడు	-11.014
ఇశ్రాయేల	-11.0143
6.6	-11.0145
▁యూదు	-11.0151
▁మోప	-11.0159
▁టిక్కెట్లు	-11.0164
▁పేస్ట్	-11.0166
▁నైవేద్యము	-11.0166
▁స్థూల	-11.0166
▁శనివారం	-11.0166
▁ఉపన్యాస	-11.0166
▁విలక్షణ	-11.0166
▁వదిలే	-11.0166
▁స్కోరు	-11.0167
▁రోజూ	-11.0168
▁కోరుతూ	-11.017
ావళి	-11.017
▁మూరల	-11.017
ఉన్న	-11.0172
za	-11.0175
▁భాషలలో	-11.0177
▁తొలగించండి	-11.0183
▁Long	-11.0185
▁బాండ్	-11.0186
men	-11.0186
▁కాయిన్	-11.0191
▁చెల్లించాలి	-11.0198
7%	-11.0199
హౌస్	-11.0199
▁చొప్పించ	-11.0203
▁ప్రతిఘటన	-11.0203
▁విముక్తి	-11.0203
▁సామెత	-11.0203
▁స్పార్క్	-11.0203
="1.8	-11.0203
▁స్తోత్ర	-11.0204
▁మౌంటు	-11.0204
కర్ణ	-11.0209
▁జరిప	-11.0209
▁ఉనికి	-11.0212
▁అడవుల	-11.0214
▁లాంప్	-11.0217
▁ప్రశాంత	-11.0228
▁వదులు	-11.0228
▁సేకర	-11.0232
▁6:2	-11.0235
▁బోట్	-11.0235
▁రోప్	-11.0237
house	-11.0238
▁PET	-11.0238
▁TabletWise	-11.0239
▁రీసైక్లింగ్	-11.0239
▁MUM	-11.0239
▁ఎనేబుల్	-11.0239
▁చేసుకోవాలి	-11.0239
▁మర్యాద	-11.0239
▁ప్రాంతానికి	-11.024
▁సంచరించ	-11.0241
▁దుకాణం	-11.0241
▁మార్గమున	-11.0241
▁వ్యూ	-11.0242
▁ప్రారంభించిన	-11.0243
షియ	-11.0247
▁అనుకరణ	-11.0249
▁పోగొట్ట	-11.0249
▁Slots	-11.0257
▁అశ్లీల	-11.0257
▁జీవితకాలం	-11.0262
యుందురు	-11.0267
▁అధిరోహించ	-11.0276
▁ఆచరణలో	-11.0276
▁ఆప్టిమైజేషన్	-11.0276
▁క్లీనర్	-11.0276
▁టాయిలెట్	-11.0276
▁పారామితులను	-11.0276
▁గరిష్ఠ	-11.0276
▁కేరళ	-11.0276
▁విధాలుగా	-11.0276
ise	-11.028
ject	-11.0282
▁సాధించిన	-11.0284
భారత	-11.0284
▁వెళ	-11.0287
▁Read	-11.0288
6%	-11.0289
part	-11.029
▁రబ్	-11.0291
▁గౌరవించ	-11.0296
▁వార్తల	-11.0298
▁నిర్వహించే	-11.0298
▁త్రాగు	-11.0299
▁మెనూ	-11.0299
ju	-11.03
PI	-11.0303
lk	-11.0305
▁నడుచుకొన	-11.0308
సూత్ర	-11.031
▁యెరూష	-11.0313
▁కాలిక్యులేటర్	-11.0313
▁నెదర్లాండ్స్	-11.0313
▁రిసార్ట్	-11.0313
▁కాలిఫోర్నియా	-11.0313
▁తీస్తుంది	-11.0314
▁టూత్	-11.0314
▁షధం	-11.0314
▁యింటికి	-11.0315
▁కూర్చు	-11.0318
▁భర	-11.0319
8.5	-11.032
ుటవలన	-11.0322
▁క్రైస్తవులు	-11.0327
▁చున్నాడు	-11.0332
ుకున్నా	-11.0344
rist	-11.0347
అవుట్	-11.0349
5.00	-11.0349
▁మాతృ	-11.035
Unlimited	-11.0351
▁కిటికీ	-11.0351
▁దుష్ప్రభావాల	-11.0351
▁వెతుకుతున్న	-11.0351
▁రెసిన్	-11.0355
="3.1	-11.0356
▁who	-11.0358
▁ప్రతిచర్య	-11.0361
▁దేశాల్లో	-11.0364
▁వచ్చుట	-11.0373
="2.7	-11.0373
▁ఆధారం	-11.0373
lay	-11.0374
char	-11.0376
దృఢ	-11.0378
▁కారకాలు	-11.038
▁ధైర్యము	-11.0383
▁వాళ్ళు	-11.0384
▁ఇశ్రాయేలీ	-11.0387
▁TollywoodTimes	-11.0388
▁చురుకైన	-11.0388
▁పిరమిడ్	-11.0388
▁రుణదాత	-11.0388
▁ఎత్తైన	-11.0388
▁సూచిస్తారు	-11.0388
▁ఏశావు	-11.0388
▁నడుస్తుంది	-11.0388
▁సక్రియం	-11.0388
▁కోల్పోయింది	-11.0389
▁టెక్నిక్	-11.0389
▁నిర్బంధ	-11.0389
▁మోహ	-11.039
▁గణాంకాల	-11.0393
▁తొడ	-11.0397
IE	-11.0397
▁హెవీ	-11.0397
▁కండరాలు	-11.0404
▁చేతులతో	-11.0406
▁సృష్టించు	-11.0411
▁12:2	-11.0414
▁Download	-11.0425
▁నావిగేషన్	-11.0425
▁సదుపాయం	-11.0425
▁రివర్స్	-11.0426
▁సిస్టం	-11.0426
▁పరమ	-11.0434
▁క్రై	-11.0435
▁శుభ	-11.0435
▁ఉండేలా	-11.0443
▁ప్రదేశము	-11.0445
▁ప్రపంచానికి	-11.0446
="2.1	-11.0451
▁దర్శకుడు	-11.0463
▁యూనివర్స్	-11.0463
▁ఫిల్మ్	-11.0463
▁చేయకూడదు	-11.0466
▁రాళ్ళు	-11.0471
తొ	-11.0471
▁నేనె	-11.0477
▁షరతుల	-11.0477
lar	-11.0484
▁పుల్	-11.0487
▁లూప్	-11.0489
▁చట్టబద్ధమైన	-11.0501
▁సమర్ధ	-11.0501
▁కల్పిస్తుంది	-11.0501
▁అనుసంధాన	-11.0501
▁ట్రావెల్	-11.0502
▁జరుగుతాయి	-11.0504
▁కాల్చ	-11.0504
3.5	-11.0508
▁జీవులు	-11.0512
▁దుష్	-11.0517
▁స్నేహితులతో	-11.0518
rip	-11.0518
▁నొక	-11.0525
▁Comp	-11.0528
తనము	-11.0528
▁90%	-11.0532
▁నివాసులు	-11.0532
MX	-11.0533
దంతయు	-11.0534
▁వ్రాస	-11.0538
sitemap	-11.0538
▁ఎంబ్రాయిడరీ	-11.0538
▁విఫలమైంది	-11.054
▁పెట్టెను	-11.054
▁ఎవరికి	-11.0541
▁లిఫ్ట్	-11.0542
▁జీవుల	-11.0551
▁ప్రత్యేకించి	-11.0551
జాతీయ	-11.0556
▁మాంసము	-11.0561
▁స్వభావ	-11.0561
▁1998	-11.0565
▁అణువు	-11.0568
▁సృష్టించిన	-11.057
▁రూపొంద	-11.0573
▁పొందేందుకు	-11.0573
▁ప్రకటించిన	-11.0576
▁16:1	-11.0577
▁HTML	-11.0577
▁ఫార్ములా	-11.0577
▁ప్రదాత	-11.0577
▁మెరుగుపర్చ	-11.0577
▁గిరిజన	-11.0578
▁స్టేజ్	-11.0582
▁సెక్షన్	-11.0582
▁బాధితుల	-11.0583
lash	-11.0585
▁హుక్	-11.0586
▁ప్రవహించ	-11.0594
▁ఉంచేందుకు	-11.0608
▁శాన్	-11.0611
uth	-11.0614
▁ఎగ్జిక్యూటివ్	-11.0615
▁వీలైనంత	-11.0615
▁ప్రయత్నించారు	-11.0616
▁కనుగొనవచ్చు	-11.0616
ధీ	-11.0616
▁వెళ్ళిపోయాడు	-11.0617
▁నిర్వహిస్తారు	-11.0617
▁ప్రయోగాత్మక	-11.0617
▁డాగ్	-11.0617
▁టోపీ	-11.062
▁EN	-11.062
▁ముదురు	-11.0622
▁సాతాను	-11.0625
▁లోయలో	-11.0626
bol	-11.0626
ినప్పటికీ	-11.0627
ిస్తున్నాయి	-11.0628
షియల్	-11.0629
▁గందరగోళం	-11.063
▁స్కాన్	-11.0635
2.0	-11.0635
7.0	-11.064
▁ప్రేమించు	-11.0643
▁చెప్పిరి	-11.0644
▁బీర్	-11.0651
▁శుభ్రపరచడం	-11.0653
KChar	-11.0653
▁బ్యాలెన్స్	-11.0653
▁కమాండ్	-11.0653
▁అహంకార	-11.0653
▁ఆశీర్వదించ	-11.0654
▁కప్పి	-11.0655
▁{_	-11.0657
▁నకలు	-11.0664
▁యిండ్ల	-11.0669
▁sl	-11.0674
సహోదరు	-11.0675
ుచుండిరి	-11.0677
స్థులు	-11.0677
▁చేస్తాడు	-11.0678
పోవుదురు	-11.0681
clu	-11.0688
▁నిండిన	-11.0691
▁వ్యవస్థాపక	-11.0691
▁షోమ్రోను	-11.0691
▁విచారించ	-11.0691
▁అసూయ	-11.0692
▁ద్రాక్షతోట	-11.0692
▁పరాక్రమ	-11.0692
నొంది	-11.0692
▁ప్రతిపాదించ	-11.0693
▁పోగు	-11.0693
▁సొమ్ము	-11.0694
▁block	-11.0694
▁5000	-11.0696
▁900	-11.0698
▁చేయుదురు	-11.0699
▁ఊహించిన	-11.07
▁One	-11.07
uff	-11.0704
▁సందర్శకుల	-11.0707
▁వైవిధ్యం	-11.0707
▁04:	-11.071
▁నిమ్మ	-11.0715
1.2	-11.0715
ative	-11.0716
▁పంపెను	-11.0719
%20	-11.0725
tting	-11.0725
మంతా	-11.073
▁యరొబాము	-11.073
▁క్యాంపస్	-11.073
▁బ్రేకింగ్	-11.073
▁వ్రాత	-11.073
▁వ్యాప్తంగా	-11.073
▁పరిచర్య	-11.0732
best	-11.0734
▁టన్ను	-11.0735
▁ప్రముఖులు	-11.0735
▁కొట్టు	-11.0736
▁శాస్త్రవేత్త	-11.0737
▁సౌత్	-11.0738
▁ఆహారాన్ని	-11.0744
▁కాళ్లు	-11.0745
▁చదవడం	-11.0747
▁ఆమోదించింది	-11.0748
▁1995	-11.0757
▁గాడి	-11.0762
▁పరిష్కారాలు	-11.0763
▁ఎడాప్టర్	-11.0769
▁అల్లాహ్	-11.0769
▁ఆభరణాల	-11.0769
▁టెన్నిస్	-11.0769
▁కిచెన్	-11.0769
▁Sch	-11.0771
▁రైడర్	-11.0774
▁లేచ	-11.0777
▁Or	-11.0777
▁పోటీదారు	-11.0782
▁5%	-11.0788
▁నియమింప	-11.0788
▁తెలుప	-11.0794
▁మానవులు	-11.0797
ాభి	-11.0797
▁నియమించిన	-11.0797
▁కూర్చుండి	-11.08
▁ములను	-11.0806
▁బెదిరింపు	-11.0808
▁అప్రమేయ	-11.0808
▁మౌలిక	-11.0808
▁గ్రంధ	-11.0808
="4.0	-11.0808
▁దూడ	-11.0809
పర్చ	-11.0809
8.0	-11.082
▁అక్షరాల	-11.0825
▁పిచ్	-11.0826
▁నష్టాల	-11.0828
▁చదివిన	-11.083
▁సుందరమైన	-11.0833
చెప్ప	-11.0834
▁ముట్టడి	-11.0836
apio	-11.0836
▁పరీక్షించడానికి	-11.084
▁డెక్	-11.0844
పరిచే	-11.0847
Cryptocurrencies	-11.0847
నరపుత్రుడా	-11.0847
▁అకస్మాత్తుగా	-11.0847
▁ఉక్రేనియన్	-11.0847
▁ముడతలు	-11.0847
▁అమేజింగ్	-11.0847
▁SKU	-11.0847
▁తుఫాను	-11.0847
▁about	-11.0847
▁చూపిన	-11.0847
ature	-11.085
▁పరిశుద్ధాత్మ	-11.085
▁జనులందరు	-11.0851
▁స్థిరపడ	-11.0852
▁మత్తు	-11.0854
బడుతోంది	-11.0859
▁మూలకం	-11.0866
టింగు	-11.0873
ez	-11.0874
▁తీసుకొ	-11.0877
▁మైనర్	-11.0879
QShortcut	-11.0886
▁దీవెన	-11.0886
▁మెగ్నీషియం	-11.0886
▁సైన్యములకధిపతియ	-11.0886
▁సమ్మేళనాల	-11.0886
▁వైఖరి	-11.0886
▁పాఠాలు	-11.0887
▁9:2	-11.0888
▁బిందువు	-11.0889
▁Off	-11.089
▁మారాయి	-11.0891
6.3	-11.0893
▁కృతజ్ఞత	-11.0893
▁స్టే	-11.0902
▁కాలమ్	-11.0905
ాలనుకున్న	-11.0907
▁పెట్టుబడులు	-11.091
▁ఆజ్ఞాపించిన	-11.091
▁రెక్కలు	-11.0911
▁పారిపోయి	-11.0916
▁వివరించండి	-11.0917
▁ఎదుర్కొంట	-11.0925
డ్మినిస్ట్రేషన్	-11.0925
▁బోనసెస్	-11.0925
▁విసుగు	-11.0925
▁మార్టిన్	-11.0929
▁నిర్దేశించ	-11.0929
▁అడుగ	-11.0931
▁ప్రమాదాలు	-11.0936
▁తెలిసికొని	-11.0938
▁బుట్ట	-11.0939
ఫోర్డ్	-11.0947
▁పంపవచ్చు	-11.0953
కార్య	-11.0953
tre	-11.0955
ship	-11.0956
▁తోడై	-11.0956
ture	-11.0959
రాత్రి	-11.096
▁పోకర్	-11.0963
▁మినహా	-11.0964
▁అబ్షాలోము	-11.0965
▁యాక్రిలిక్	-11.0965
▁పేపాల్	-11.0965
▁KTM	-11.0965
▁కొలిచే	-11.0965
▁ఉద్భవించ	-11.0965
▁CPU	-11.0965
▁నడిచే	-11.0965
▁లేఅవుట్	-11.0967
బాద్	-11.0967
▁ఉన్నారని	-11.0969
సంభవ	-11.0969
ెన్సీ	-11.0976
ski	-11.0978
▁వోల్	-11.098
▁ప్రమాదకర	-11.0981
▁కొనసాగుతున్న	-11.0981
మిచ్చి	-11.0986
▁అనుసంధానం	-11.0987
▁ప్రతినిధులు	-11.1005
▁వాయిదా	-11.1005
▁కనుగొనడంలో	-11.1005
▁పుచ్చుకొన	-11.1005
▁పదాన్ని	-11.1007
▁తీసుకుంటుంది	-11.1008
▁కనాను	-11.1017
▁సోఫా	-11.1017
ుకొంట	-11.1019
2.7	-11.102
7.2	-11.1033
▁కీలకమైన	-11.1034
వాడవు	-11.1035
▁ఆస్వాదించ	-11.1036
▁కదా	-11.1037
▁అడిగిన	-11.1039
▁ప్రదేశాల	-11.1041
▁ఆప్టిమైజ్	-11.1044
▁రిలీజ్	-11.1044
▁మడత	-11.1045
▁పునరావృతం	-11.1047
▁పుత్ర	-11.1049
▁చెప్పాలంటే	-11.1052
▁has	-11.1054
▁మార్గాన్ని	-11.106
▁పెట్టుబడుల	-11.106
€	-11.1062
roll	-11.1067
▁డైలీ	-11.107
కిరీట	-11.107
▁750	-11.1072
చాలా	-11.1074
▁వ్రాసి	-11.1075
▁ఆర్మ్	-11.1077
BR	-11.1079
▁స్కై	-11.1081
ళ్	-11.1082
ధెంగడమ్	-11.1084
▁క్రమశిక్షణ	-11.1084
▁జ్యోతి	-11.1084
▁ఫైనాన్షియల్	-11.1084
▁వ్యత్యాసం	-11.1084
▁అస్పష్ట	-11.1084
▁నలువది	-11.1084
▁నిరాకరించ	-11.1084
▁మంగళవారం	-11.1085
▁రోజాలు	-11.1085
▁కనిష్ట	-11.1085
▁జీర్ణ	-11.1085
▁ఇంటెల్	-11.1086
▁స్పష్టం	-11.1087
▁సంరక్షించ	-11.1089
▁సమయాల్లో	-11.1089
▁బుకింగ్	-11.109
▁హెబీ	-11.1091
▁విస్తరించేందుకు	-11.1094
కొనుచున్న	-11.1094
ize	-11.1097
▁దేవుడా	-11.11
▁ట్యాంకుల	-11.1102
▁స్వస్థ	-11.1102
https	-11.1102
▁ధర్మశాస్త్ర	-11.1103
▁GST	-11.1104
▁సింక్	-11.1107
▁ఉన్నందున	-11.1108
▁దేశమందు	-11.1112
▁ప్రభావిత	-11.1112
▁దీన	-11.1113
▁వ్రాయబడిన	-11.1118
▁స్టైల్	-11.1122
▁మైఖేల్	-11.1125
▁సర్వీసెస్	-11.1125
▁స్వాతంత్ర్య	-11.1125
▁ముప్పై	-11.1125
▁అహాబు	-11.1125
▁వెంచర్	-11.1125
▁ప్రెజర్	-11.1125
IO	-11.1127
▁New	-11.1127
="1.9	-11.1129
▁స్వదేశ	-11.1129
▁జన్మించిన	-11.113
పాత్ర	-11.1131
▁బిల్లింగ్	-11.1132
rc	-11.1137
ుడనై	-11.1139
▁వేతన	-11.1144
▁స్పష్టత	-11.1146
lex	-11.1147
UC	-11.1158
▁అర్పించు	-11.1162
soft	-11.1164
▁రిజల్యూషన్	-11.1165
▁స్వీడిష్	-11.1165
ాభివృద్ధి	-11.1165
▁పూర్తయింది	-11.1165
▁సర్కిల్	-11.1165
▁చేసుకుంటా	-11.1166
▁ఆస్తులు	-11.1167
▁హీరోయిన్	-11.1167
▁ఫైళ్ళు	-11.1172
ాసన	-11.1173
▁వంచి	-11.1175
▁సాకెట్	-11.1176
="32	-11.1178
▁పొడిగించ	-11.118
ుకొనుటకు	-11.1182
▁ఏర్పడింది	-11.1184
▁యాప్	-11.1184
▁ప్రయోజనాన్ని	-11.1184
▁6000	-11.1186
▁అంగీకరించాలి	-11.119
▁కర్ల్	-11.1193
▁పేర్కొన్నారు	-11.1203
▁మరమ్మత్తు	-11.1205
▁వుడ్విండ్	-11.1205
▁బైబిలు	-11.1205
▁ఎల్లప్పుడు	-11.1206
▁సంపన్న	-11.1206
కొద్దీ	-11.1206
▁ప్రదేశ్	-11.1206
▁Cheat	-11.1207
▁హానికరమైన	-11.1208
▁ఆస్వాదించడానికి	-11.1214
lect	-11.1215
▁KDE	-11.1216
▁ఆడవారి	-11.1217
▁హక్స్	-11.1219
మైన్	-11.1226
▁స్థలాన్ని	-11.1227
▁దుర్వినియోగం	-11.1227
▁నిర్వహ	-11.1227
▁దేశపు	-11.1228
▁ట్యాంకులు	-11.1229
నొందు	-11.123
▁రాయడం	-11.1234
బాక్స్	-11.1237
▁ఔషధాల	-11.124
▁ప్రయాణిస్తున్న	-11.1242
▁కుటుంబానికి	-11.1242
▁జరుగుతుందో	-11.1246
▁బాడీబిల్డర్	-11.1246
▁రెట్టింపు	-11.1246
▁వెళ్తున్నారు	-11.1246
▁మనుగడ	-11.1246
▁సుజుకి	-11.1246
▁హిందూ	-11.1246
▁ఆస్ట్రియా	-11.1246
▁AUD	-11.1246
▁ముద్ద	-11.1247
▁రూపొందించడానికి	-11.1247
▁Best	-11.1248
▁UPS	-11.1251
▁నిర్వాహకుడు	-11.1253
యెన్	-11.1256
▁పౌరుల	-11.1261
▁అందిస్తారు	-11.1263
▁సహనం	-11.1263
▁జావా	-11.1274
▁September	-11.1287
▁exactspy	-11.1287
▁చూద్దాం	-11.1287
▁ఇటుక	-11.1287
▁సోర్స్	-11.1288
▁సహోదరుని	-11.1289
▁అందుచేత	-11.1291
head	-11.1304
▁ఫార్మాట్లలో	-11.1306
▁నివేదించారు	-11.1311
▁ప్రచుర	-11.1313
▁విప్లవం	-11.1314
పడుతున్న	-11.1314
▁పీల్చ	-11.1315
▁ఉపసంహరించ	-11.1322
▁వెళ్ళాడు	-11.1324
▁పుట	-11.1327
▁Holmbygden	-11.1328
▁ఆస్ట్రేలియన్	-11.1328
▁రూఫింగ్	-11.1328
▁ఆసక్తికరంగా	-11.1328
▁తెలుస్తోంది	-11.1328
▁హాలిడే	-11.1328
▁మూత	-11.1328
▁కారణమవుతుంది	-11.1329
▁నెలల్లో	-11.1332
▁సంతోషించు	-11.1334
▁సహోదరులు	-11.1345
▁ఉపకరణాల	-11.1346
="2.2	-11.1347
▁SPS	-11.1349
▁గ్రో	-11.1351
▁బయటపడ	-11.136
పోవడానికి	-11.1363
ొంద	-11.1364
▁పరుగుల	-11.1366
▁Enterprise	-11.1369
▁ఏదేమైనా	-11.1369
▁ట్రాన్స్మిషన్	-11.1369
▁శిబిరాల	-11.1369
▁ప్లగిన్	-11.1369
▁ఉపకరణం	-11.1369
2.8	-11.137
▁ఓర్ఫిక్	-11.137
▁ఎన్నడూ	-11.137
▁వెతుకు	-11.1371
▁గ్రీటింగ్	-11.1374
▁ఆంధ్రా	-11.1377
▁ఉద్యమ	-11.1377
▁సాధనాలు	-11.138
tag	-11.138
బడతారు	-11.1381
▁రథ	-11.1393
▁లభ్య	-11.1394
రెడ్డి	-11.1394
▁వర్తమానము	-11.1398
="2.6	-11.1398
="2.0	-11.1398
▁సాధనాల	-11.1403
▁పరిమితుల	-11.1409
▁దేశస్థుడు	-11.141
హాంకాంగ్	-11.141
▁చ్యాగ్స్యూ	-11.141
▁సంకోచించకండి	-11.141
▁విద్యార్ధి	-11.141
▁కల్దీయుల	-11.141
▁రిజర్వు	-11.141
▁అయ్యింది	-11.141
▁Stator	-11.1412
▁కొటేషన్	-11.1416
▁ప్రతిష్ఠ	-11.1417
▁స్వింగ్	-11.1419
▁14:2	-11.1422
▁స్పెక్	-11.1423
టెల్	-11.1425
▁వ్యవహరించే	-11.1434
pur	-11.1435
▁More	-11.1436
▁స్వాధీన	-11.1437
బోయే	-11.1437
అధిక	-11.1438
▁తెరవడం	-11.1443
▁మెట్ల	-11.1445
EST	-11.1445
▁సంభవించిన	-11.1447
లందరును	-11.1449
▁విస్తీర్ణం	-11.1452
▁విస్మరించ	-11.1452
▁స్టూడెంట్	-11.1452
▁పిలిచే	-11.1452
▁ఆరాధన	-11.1452
కారణ	-11.1452
="29	-11.1454
▁బ్రాంచ్	-11.1454
blog	-11.1455
▁వచ్చెద	-11.146
▁ముద్రించ	-11.1461
▁సిలువ	-11.1464
▁ఆకర్షించింది	-11.1465
▁ప్రశాంతంగా	-11.1465
zhou	-11.1467
▁తిప్ప	-11.1468
శైల	-11.1471
▁చెవులు	-11.1474
▁ఉన్నాయా	-11.1476
pg	-11.1482
▁చేపల	-11.1483
▁తీసుకోవచ్చు	-11.1491
▁బాప్టిజం	-11.1493
▁మ్యూచువల్	-11.1493
▁కొంచెము	-11.1494
▁భారత్	-11.1494
▁ధ్రువీకరణ	-11.1494
▁అద్దం	-11.1495
▁జ్యూ	-11.1495
▁అవసరమ	-11.1499
6.9	-11.15
▁వ్యూహాలు	-11.1506
▁పేర్ల	-11.1506
▁వ్యవహర	-11.1506
▁Pics	-11.1507
సైట్	-11.151
▁కేజ్	-11.1511
▁సందర్శించడానికి	-11.1512
▁సైనికులు	-11.1516
▁అప్లై	-11.1516
▁రప్పించి	-11.1519
▁ఆటంక	-11.1524
▁Slot	-11.1527
▁ఎలీషా	-11.1535
▁జాయింట్	-11.1535
▁ఆరాధించ	-11.1535
▁మార్జిన్	-11.1535
▁వెలుపలికి	-11.1535
▁పురస్కార	-11.1536
▁ఉత్తేజకరమైన	-11.1536
matic	-11.1538
Plus	-11.1539
8.2	-11.1543
▁మార్కింగ్	-11.1543
గుణ	-11.1547
▁అరబ్	-11.1548
word	-11.1558
▁సమృద్ధిగా	-11.1559
▁గుడి	-11.1559
▁సామ్రాజ్యం	-11.1563
thi	-11.1566
నాథ	-11.157
▁వేద	-11.1575
mil	-11.1576
వర్తన	-11.1576
▁స్పెక్ట్రమ్	-11.1577
▁అల్పాహారం	-11.1577
▁ఎక్స్ఛేంజ్	-11.1577
▁ఎవడైనను	-11.1577
▁కనిపిస్తోంది	-11.1577
▁దోపిడీ	-11.1577
▁ద్రావణ	-11.1577
▁నెట్వర్కింగ్	-11.1577
▁Chrome	-11.1577
▁పిమ్మట	-11.1577
▁విపత్తు	-11.1577
▁హెన్రీ	-11.1577
▁నోటిఫికేషన్	-11.1578
▁గర్భవతి	-11.1578
▁యూదారాజైన	-11.1578
నారాయణ	-11.1579
▁ఫాల్	-11.1583
phone	-11.1583
సిద్ధ	-11.159
ేసింది	-11.159
▁నిలిచింది	-11.1592
▁తీరు	-11.1596
▁చూస్తే	-11.1597
▁కదల	-11.1597
▁ఫిలిష్తీయులు	-11.1606
▁ఊదా	-11.1609
▁బహిరంగంగా	-11.1614
▁ధూళి	-11.162
▁గలిలయ	-11.162
▁పెంపకం	-11.162
▁సేవకుడైన	-11.162
travel	-11.162
▁పవన్	-11.1623
="3.7	-11.1624
▁Top	-11.1629
ాయువు	-11.1631
▁కుమ్మరి	-11.1644
▁కావడానికి	-11.1647
user	-11.1649
ital	-11.1653
▁ఉద్దేశించబడింది	-11.1662
mAh	-11.1662
▁స్థానానికి	-11.1662
వారలారా	-11.1662
▁టార్క్	-11.1664
ాధార	-11.167
వెంట	-11.167
▁(4)	-11.1672
▁కామన్	-11.1677
lim	-11.1679
▁1996	-11.1687
▁సంప్రదించడానికి	-11.1688
9.5	-11.169
మొదటి	-11.1694
లార్డ్	-11.1698
▁World	-11.1704
▁unicode	-11.1704
▁ప్రొడక్షన్	-11.1704
▁మెరుగ్గా	-11.1704
▁సామర్ధ్యాల	-11.1704
▁ఫోరమ్	-11.1705
="4.8	-11.1705
▁తాపన	-11.1705
▁ఆపరేట్	-11.1706
▁సంపాదించిన	-11.1708
▁వేలమంది	-11.1711
="33	-11.1716
="25	-11.1719
ెదవు	-11.1722
▁అందించింది	-11.1723
▁డాటా	-11.1726
▁సందర్శించడం	-11.1726
▁పగడాల	-11.1727
్యాస	-11.1728
▁కర్మాగార	-11.1733
ప్రొ	-11.1734
▁గర్ల్	-11.1739
ుకుంటాయి	-11.1741
▁బ్రాం	-11.1745
▁అక్టోబరు	-11.1747
▁ఎలివేటర్	-11.1747
▁గిడ్డంగి	-11.1747
▁ప్రౌఢ	-11.1747
▁సముదాయ	-11.1747
▁కళాకారులు	-11.1748
▁దొరుకు	-11.1748
sky	-11.175
▁ధ్రువీకరించ	-11.1751
="3.2	-11.1753
▁అక్కడికి	-11.1753
▁గణము	-11.1756
1}	-11.1766
▁ఉత్పాదక	-11.1771
▁13:2	-11.1775
Trans	-11.1776
▁ఆధారాలు	-11.1781
దృష్టి	-11.1781
▁నుండును	-11.1783
▁1970	-11.1785
ఒక్క	-11.1785
LAN	-11.1789
▁అసోసియేట్	-11.179
▁గాడ్జెట్	-11.179
▁పూజారులు	-11.179
▁రోగనిరోధక	-11.179
▁ఛాంబర్	-11.1791
▁ముంద	-11.1792
▁చికెన్	-11.1792
▁అందిస్తాము	-11.1795
320	-11.1795
▁ఒకేసారి	-11.1795
▁నురుగు	-11.1798
▁సీట్లు	-11.18
చుట్టు	-11.18
▁యెత్తు	-11.1803
▁any	-11.1804
▁చెప్పుచున్నాను	-11.1805
▁ఆడటానికి	-11.1808
7.6	-11.1812
▁దళాలు	-11.1812
▁సోల్	-11.1816
▁పనిచేయడం	-11.1822
▁80%	-11.1824
5.6	-11.1825
▁నిమిషము	-11.1833
▁శామ్యూల్	-11.1833
▁Posted	-11.1833
▁స్టీరియో	-11.1833
▁పిస్టన్	-11.1833
="4.9	-11.1833
▁వెర్రి	-11.1834
▁GBP	-11.1834
▁ప్రతిఫల	-11.1834
వద్దని	-11.1835
▁ట్యూన్	-11.1835
▁సీరియల్	-11.1836
▁సహోదరులారా	-11.1837
▁నగ్న	-11.1843
▁భోజనాల	-11.1844
ఠా	-11.1846
▁లభించింది	-11.1846
▁కళ్ళ	-11.1847
▁సవరించడానికి	-11.1857
▁సమూహాల	-11.1859
బడుదురు	-11.186
ుడవు	-11.1872
▁Bluetooth	-11.1877
▁Ethereum	-11.1877
▁TRANSLATORS	-11.1877
▁అభ్యంతర	-11.1877
▁మేనేజింగ్	-11.1877
▁సంచలన	-11.1877
="1.6	-11.1877
▁టోకెన్	-11.1878
▁రక్షింప	-11.188
▁నిరోధిస్తుంది	-11.1882
aya	-11.1882
▁షెల్ఫ్	-11.1884
▁స్పంద	-11.1884
wise	-11.1888
▁మెరుగుపరు	-11.1893
▁విద్యార్ధులు	-11.1895
▁అనువదించడానికి	-11.1896
న్నింటి	-11.1898
▁బూత్	-11.1903
ery	-11.1904
▁తగ్గింది	-11.1914
సైకిల్	-11.1914
▁అమర్చారు	-11.1915
సముద్ర	-11.1916
▁సమర్థత	-11.1917
▁అమ్మోనీయుల	-11.192
▁వెనక్కి	-11.192
▁క్లీన్	-11.192
▁నీడిల్	-11.1921
▁ద్రోహ	-11.1923
▁ఆలోచిస్తున్న	-11.1924
▁పోరాడటానికి	-11.1927
దేవుని	-11.1932
▁సున్నా	-11.1937
▁తరగతులు	-11.194
▁సెకన్ల	-11.1941
▁కోణాల	-11.1947
▁యుందు	-11.1949
▁పర్యవేక్ష	-11.1953
3.3	-11.1962
▁యేలిన	-11.1963
▁ముగ	-11.1963
దేవత	-11.1963
▁నాగరికత	-11.1964
▁ఉత్ప్రేరక	-11.1964
▁స్వచ్ఛత	-11.1964
▁హైబ్రిడ్	-11.1964
లాజికల్	-11.1964
▁జన్మించాడు	-11.1965
HI	-11.1965
▁వంపు	-11.1967
="34	-11.1967
ెవరు	-11.1972
▁నిక్	-11.1973
lum	-11.1974
▁టీమ్	-11.1975
▁బాలుడు	-11.1978
పెద్ధ	-11.1983
రాజైన	-11.1983
కృతి	-11.1987
గృహ	-11.2004
ప్రారంభ	-11.2004
ప్రసాద	-11.2006
▁Metatrader	-11.2008
▁కేసినోలు	-11.2008
▁క్యాబినెట్	-11.2008
▁స్పృహ	-11.2008
▁షార్ట్	-11.2008
▁గొట్టాలు	-11.2009
▁సంరక్షక	-11.2009
▁ఆకృతీకరించ	-11.201
▁మిక్స్	-11.2021
▁వాహక	-11.2026
1.9	-11.2028
▁కార్యాలయాలు	-11.2037
రెండు	-11.2044
▁11:3	-11.2051
routes	-11.2051
▁అసిస్టెంట్	-11.2052
▁నిబద్ధత	-11.2052
▁అపార్ట్మెంట్	-11.2053
▁నిలబడటానికి	-11.2053
▁నెంబర్	-11.2054
▁మరోసారి	-11.2055
▁మార్గాల్లో	-11.2057
▁వివరించిన	-11.2062
▁క్లై	-11.2065
ిస్తున్నాను	-11.2076
▁III	-11.2082
▁ఇంటిగ్రేటెడ్	-11.2096
▁ఖ్యాతి	-11.2096
▁లైసెన్సు	-11.2096
▁స్పెషల్	-11.2096
▁అభినందిస్తున్నా	-11.2096
▁చాప్టర్	-11.2096
▁రౌటర్	-11.2096
▁పిలవబడే	-11.2096
▁మార్గదర్శకత్వం	-11.2098
▁పదునైన	-11.2099
▁త్రిప్ప	-11.2101
="1.2	-11.2102
="1.4	-11.2102
▁ఔట్	-11.2114
▁Video	-11.212
▁May	-11.2122
▁గ్రాముల	-11.2127
▁నివసించారు	-11.2135
రాజ్య	-11.2136
▁అంశాన్ని	-11.214
▁ఉల్లంఘించ	-11.214
▁కవాటాలు	-11.214
▁యాజకుడైన	-11.214
▁శ్రేష్ఠ	-11.214
▁నాలుగవ	-11.214
▁ప్రాచీన	-11.214
▁స్వర్గ	-11.2142
="0.8	-11.2143
▁వేదన	-11.2144
▁పల్లె	-11.2152
▁చిహ్న	-11.2154
▁అశ్వ	-11.2154
3.6	-11.2154
▁తలెత్త	-11.2155
="2.4	-11.2182
\\\\	-11.2185
▁టార్గెట్	-11.2185
▁నవంబరు	-11.2185
▁నాల్గవ	-11.2185
▁పేర్కొంది	-11.2185
▁ఫ్రెండ్లీ	-11.2185
▁యూట్యూబ్	-11.2185
▁ఇన్వర్టర్	-11.2185
Query	-11.2185
▁అంగీకరిస్తా	-11.2185
టోకియో	-11.2186
xxx	-11.2186
▁చెల్లించాల్సిన	-11.2191
▁లాటిన్	-11.2194
▁ఫన్నీ	-11.2195
▁కప్పబడి	-11.2196
థియో	-11.2201
▁ఆటగాళ్ల	-11.2202
eep	-11.2209
పల్లి	-11.2212
జెర్	-11.2221
▁వివరించడానికి	-11.2224
▁Copyright	-11.223
▁బ్రౌజ్	-11.223
▁ప్రసరణ	-11.223
▁ప్రథమ	-11.2231
▁View	-11.2231
ముడ్డి	-11.2234
అయాన్	-11.2237
right	-11.2239
▁తులముల	-11.224
▁ఇబ్బందులు	-11.225
▁దంతాలు	-11.2256
▁రేసు	-11.2258
ever	-11.2263
▁ప్రతిస్పందించ	-11.2269
▁సంభవించే	-11.2274
▁అణిచివేత	-11.2275
▁ఆకస్మిక	-11.2275
▁దశాబ్దాల	-11.2275
▁పనిచేస్తాయి	-11.2275
▁రిజర్వ్	-11.2275
▁థర్మల్	-11.2275
▁సెట్టింగులు	-11.2275
▁సుదూర	-11.2275
▁CBD	-11.2275
▁తెలియజేసి	-11.2277
▁దేవదారు	-11.2278
▁రిచ్	-11.2279
▁నిమిషాల్లో	-11.2282
▁ట్రూ	-11.2283
▁Star	-11.2283
▁తీసుకుంటారు	-11.2286
ుకోవటం	-11.2287
post	-11.2287
2.9	-11.2292
▁1:3	-11.2295
జియన్	-11.2298
file	-11.2298
▁1994	-11.2301
▁ఇరాన్	-11.2302
▁ఇచ్చెను	-11.2303
amu	-11.2306
▁కొలవ	-11.2311
▁ఎన్టీఆర్	-11.232
▁తలనొప్పి	-11.232
హెబ్రీయుల	-11.232
▁ముంబై	-11.232
▁ఘోర	-11.232
▁లీనియర్	-11.232
▁ఆఖరి	-11.232
▁పిక్సెల్	-11.2321
▁బాంబు	-11.2322
▁మేగాన్	-11.2322
▁కోల్పోవడం	-11.2322
▁కష్టపడ	-11.2323
▁వెంకట	-11.2324
▁మూలధన	-11.2324
▁జిఎస్టిఆర్	-11.2325
5.4	-11.2328
▁తొలగిస్తుంది	-11.233
▁కూరగాయలు	-11.2336
▁Last	-11.2337
▁లేయర్	-11.234
వాణి	-11.2341
▁గదుల	-11.2342
▁అలసి	-11.2342
▁తాకిన	-11.2355
▁సీక్రెట్	-11.2365
▁క్వార్టెట్	-11.2366
▁కలిగెను	-11.2366
▁క్లుప్త	-11.2366
▁ల్యాండింగ్	-11.2366
నొల్ల	-11.2369
web	-11.2371
▁వైలెట్	-11.2371
▁బంధించ	-11.2374
▁బలహీనమైన	-11.2377
7.4	-11.2385
▁లాభదాయకమైన	-11.2392
▁చేయాల్సిన	-11.2392
మంతటి	-11.2406
▁కంపన	-11.2407
▁గ్వంగ్స్యూ	-11.2411
▁చేసుకుంది	-11.2411
▁వ్యక్తీకరణ	-11.2411
▁యాంకర్	-11.2411
▁మతపరమైన	-11.2412
▁పరపతి	-11.2413
▁ఏర్పరచుకొన	-11.2414
▁తీసుకుంటే	-11.2416
▁దయ్యము	-11.2416
▁కొల్ల	-11.2417
▁ఇతను	-11.2418
iah	-11.242
▁జార్జ్	-11.2422
▁నగ్నంగా	-11.2424
var	-11.2425
▁అభిప్రాయాన్ని	-11.2427
పెద్ద	-11.2429
▁వ్యాయామాలు	-11.2432
▁ప్రభావాల	-11.2438
▁లేనప్పుడు	-11.2439
▁రసం	-11.244
pot	-11.245
▁విరమణ	-11.2457
▁Concox	-11.2457
▁కాన్సెప్ట్	-11.2457
▁వాపసు	-11.2457
▁పరిమాణాన్ని	-11.2457
▁know	-11.2458
ైజ్డ్	-11.246
▁ఏనుగు	-11.2461
="1.3	-11.2464
కలిగి	-11.2467
ుకుందాం	-11.2483
▁బలుల	-11.2483
▁CAD	-11.2485
▁4000	-11.2485
▁జోడించవచ్చు	-11.2495
Electronic	-11.2503
▁February	-11.2503
▁గూఢచారి	-11.2503
▁ద్రవ్యరాశి	-11.2503
▁నలభై	-11.2503
▁బుధవారం	-11.2503
▁బెల్జియం	-11.2503
▁drug	-11.2503
▁నిలకడ	-11.2503
▁అంతరిక్ష	-11.2503
▁రంధ్రాలు	-11.2504
▁ప్రవచనము	-11.2504
▁నేసిన	-11.2504
▁యురొ	-11.2505
▁వెళ్తాడు	-11.2505
▁పరిమాణము	-11.2505
▁ప్రమాదాల	-11.2506
▁గ్రోత్	-11.2509
కిచ్చిన	-11.2512
కొనవలెను	-11.2513
స్తుంటారు	-11.2522
▁స్వీట్	-11.2524
0.000	-11.2526
▁1997	-11.2528
▁ఇస్తాయి	-11.2531
▁పనిచేయడానికి	-11.2532
▁వచ్చితి	-11.2534
▁వస్తారు	-11.2537
▁కనుపరచ	-11.254
▁మెజారిటీ	-11.2549
▁సంశ్లేషణ	-11.2549
▁ఎనర్జీ	-11.2549
▁ప్రతిచోటా	-11.2549
▁నోకియా	-11.2549
▁వెళతారు	-11.2551
▁యార్క్	-11.2553
▁లిటిల్	-11.2555
▁చెరువు	-11.2555
పాయింట్	-11.2559
▁మాదిరిగానే	-11.2563
▁స్వారీ	-11.2563
▁మిగుల	-11.2565
▁mod	-11.2568
live	-11.2572
▁రంగస్థల	-11.2572
▁చూస్తున్నాయి	-11.2572
డౌన్	-11.2572
▁అవతల	-11.2577
▁అనవసర	-11.2577
▁అయినప్పుడు	-11.2579
▁మూత్ర	-11.2579
▁దివ్య	-11.2583
▁ఒంటరి	-11.2591
▁సెలవిచ్చు	-11.2594
▁యాక్సెసరీస్	-11.2596
orphek	-11.2596
▁ZLP	-11.2596
▁బ్రేకర్	-11.2596
▁ప్లానెట్	-11.2597
▁ఎక్స్పో	-11.2598
="1.5	-11.2604
="31	-11.2604
చివరి	-11.2606
మిచ్చు	-11.2607
▁8:2	-11.2618
▁వెంబడించ	-11.2618
▁SAP	-11.2633
6.8	-11.2642
▁కెరూబు	-11.2643
▁జనసమూహము	-11.2643
▁బెన్యామీను	-11.2643
▁బ్లైత్	-11.2643
▁లోదుస్తులు	-11.2643
▁short	-11.2643
▁పోషిస్తుంది	-11.2643
▁మధ్యవర్తి	-11.2643
▁మిక్సింగ్	-11.2643
▁like	-11.2643
▁అసహ్యకరమైన	-11.2644
▁నాటడం	-11.2644
▁అనుమతిస్తాయి	-11.2646
▁ఒంటె	-11.2647
▁8080	-11.265
▁పజిల్	-11.2654
పొంది	-11.2655
▁నుండెను	-11.2659
▁రూపాయి	-11.2661
▁అణచ	-11.267
▁Anti	-11.2671
="2.5	-11.2685
▁కూర్చొని	-11.269
▁విధ్వంస	-11.269
▁వైమానిక	-11.269
▁వ్యూహాత్మక	-11.269
▁బొత్తిగా	-11.269
▁హెక్టార్ల	-11.269
క్రిప్షన్	-11.269
▁BSF	-11.269
▁FOB	-11.269
▁ప్రాంగణంలో	-11.269
▁టెస్టింగ్	-11.2691
▁అర్పింపవలెను	-11.2691
▁Auto	-11.2694
▁వార్తా	-11.2701
మాత్రమే	-11.2702
dom	-11.2708
2.6	-11.2711
▁లంబ	-11.2732
▁ఎదుర్కో	-11.2737
▁ఇంటరాక్టివ్	-11.2737
▁ఎవరికైనా	-11.2737
▁ప్రభావవంతంగా	-11.2737
▁ప్రొపియోనేట్	-11.2737
▁భయభక్తులు	-11.2737
▁తల్లులు	-11.2737
▁స్మైల్	-11.2737
▁గమ్యం	-11.2737
▁థాయ్	-11.2737
▁విజయవాడ	-11.274
▁SEO	-11.2742
="3.3	-11.2742
▁అవుతున్న	-11.2745
▁బలిపీఠముమీద	-11.2748
▁క్యాచ్	-11.2753
▁ఆధార్	-11.2754
▁వేడుకొన	-11.2758
▁కనుగొనబడింది	-11.2761
▁ఫ్రే	-11.2765
▁ముడిపడి	-11.2768
▁కాంక్రీట్	-11.2784
▁విలాసవంతమైన	-11.2784
▁సమర్ధవంతంగా	-11.2784
▁నమి్మ	-11.2784
మొడ్ఢ	-11.2784
▁సూచక	-11.2785
▁దీనివల్ల	-11.2787
▁సూచిస్తున్నాయి	-11.2787
తంత్ర	-11.2788
▁టర్మ్	-11.279
▁పైలట్	-11.2792
▁అభిమానుల	-11.2794
▁కలుగజేసి	-11.2795
▁అనుసంధానించ	-11.2802
ొచ్చి	-11.2807
చేస్తుంది	-11.2812
▁ట్రామ్	-11.2815
8000	-11.2815
పేజీ	-11.2817
▁ఖండించ	-11.2828
▁పసికందు	-11.2832
▁కవాసకీ	-11.2832
▁వినైల్	-11.2832
▁స్ట్రిప్పర్	-11.2835
place	-11.2836
గలుగుతారు	-11.2837
▁బ్యాచ్	-11.2843
▁పరిసరాల	-11.2857
▁మందిరమునకు	-11.2867
ular	-11.2868
డబ్ల్యు	-11.288
▁ఎక్సేంజ్	-11.288
▁FREE	-11.288
▁ఆకట్టుకునే	-11.288
▁బెంచ్	-11.288
▁ఉపయోగించాలో	-11.2881
▁CEO	-11.2883
▁నేటివరకు	-11.2886
▁చిల్లర	-11.2887
▁ఎవడు	-11.2888
▁పరిశోధించ	-11.289
▁పునరావృత	-11.2895
▁పనిచేస్తు	-11.2902
▁పాపుల	-11.2906
▁ప్రవహ	-11.2907
▁his	-11.2908
టైటిల్ను	-11.2909
▁మెరుగుపరిచ	-11.2925
ward	-11.2926
▁అభ్యసన	-11.2928
▁ఘర్షణ	-11.2928
▁బాడీబిల్డింగ్	-11.2928
▁వార్తాపత్రిక	-11.2928
▁గుర్తుంచుకోవాలి	-11.2928
▁గంభీర	-11.2928
▁స్పూన్	-11.2928
▁ఎరువులు	-11.2928
▁గ్రీన్హౌస్	-11.2928
▁గ్రూపు	-11.2928
▁మందపాటి	-11.2929
▁జింక్	-11.2929
▁నమోదిత	-11.293
ానుసారం	-11.2931
▁వినిపించ	-11.2933
▁అస్స	-11.2937
▁వాలెట్	-11.294
▁మాంస	-11.2941
▁గెట్స్	-11.2942
▁ప్రతిష్ఠించ	-11.2943
▁శరణ	-11.2945
▁అధిగమించడానికి	-11.2946
ఇతర	-11.2954
▁డౌ	-11.2959
▁Spy	-11.2968
▁Outlook	-11.2976
▁అల్టిమేట్	-11.2976
▁క్షమాపణ	-11.2976
▁ట్రెన్బోలోన్	-11.2976
▁ఫ్యాకల్టీ	-11.2976
▁సీతాకోకచిలుక	-11.2976
▁స్లైడింగ్	-11.2976
▁యిద్దరు	-11.2976
▁విశిష్ట	-11.2976
▁సప్లై	-11.2976
▁కార్పెట్	-11.2976
▁పెంపొందించ	-11.2976
▁ఫార్మసీ	-11.2976
▁సారూప్య	-11.2976
▁నర్సింగ్	-11.2976
▁సీమోను	-11.2976
▁పరిశుద్ధస్థలము	-11.2978
5000	-11.2979
ept	-11.2979
▁సైన్సెస్	-11.2981
▁చొక్కా	-11.2981
="3.6	-11.2982
▁వెదురు	-11.2986
▁విధేయత	-11.2988
▁ఓడిపో	-11.2991
▁టాక్స్	-11.3001
▁పంపుతుంది	-11.3001
▁వెంబడి	-11.3003
9.2	-11.3005
▁ఆచరించ	-11.3011
▁Transposh	-11.3025
▁ఆటోమేటెడ్	-11.3025
▁కాన్ఫిగర్	-11.3025
▁నేపధ్య	-11.3025
▁ఫిన్సర్వ్	-11.3025
▁ఫెస్టివల్	-11.3025
▁రాజ్యాంగ	-11.3025
▁కురిపించ	-11.3025
▁రాబర్ట్	-11.3025
▁దెబ్బతిన్న	-11.3025
▁ప్రార్థించ	-11.3026
ible	-11.3026
▁రిస్క్	-11.3028
▁సహాయపడతాయి	-11.3028
▁ప్రవచనం	-11.3028
3.8	-11.3037
▁టీజర్	-11.3038
▁క్షీణత	-11.3038
▁సభ్యత్వ	-11.306
▁నాయకుల	-11.3065
▁తెలపండి	-11.3073
▁నాండ్రోలోన్	-11.3073
▁నైట్క్లబ్ల	-11.3073
▁మూర్ఖ	-11.3073
▁మిగతా	-11.3073
▁జబ్బు	-11.3074
▁రావడానికి	-11.3074
▁పాఠకుల	-11.3076
▁యూదావారి	-11.3081
ache	-11.3081
▁మొదట్లో	-11.3082
▁4.0	-11.3085
▁సహకారానికి	-11.3087
="2.3	-11.309
▁Well	-11.3094
▁విదేశీయుల	-11.3096
3.4	-11.3098
▁పిలువబడే	-11.3106
5.5	-11.3109
▁లింకు	-11.311
▁పిలవ	-11.3111
లేకపోతే	-11.3118
▁Nov	-11.3119
▁శీతాకాల	-11.3122
▁అకాడమీ	-11.3122
▁అల్గోరిథం	-11.3122
▁డ్రిల్లింగ్	-11.3122
▁ధూమపానం	-11.3122
▁పర్ఫెక్ట్	-11.3122
▁యెహోషాపాతు	-11.3122
▁పరిరక్షణ	-11.3122
▁ఉపకరణము	-11.3122
▁ఆక్ట	-11.3126
8.6	-11.3127
▁జీవక్రియ	-11.3127
▁సాక్షి	-11.3129
▁పోస్టర్	-11.3141
▁చేరుకో	-11.3142
▁ICO	-11.3147
▁పరిమాణాల	-11.3151
▁మూసివేసి	-11.316
▁తీసికొన	-11.3166
▁అనధికార	-11.3172
షైజైయాస్వ్యాంగ్	-11.3172
▁నత్రజని	-11.3172
▁నిలుపుదల	-11.3172
▁మోల్డింగ్	-11.3172
▁కింగ్డమ్	-11.3172
▁ప్రోగ్రాం	-11.3172
▁అంతరాయం	-11.3172
▁తెలియచేస్తుంది	-11.3173
▁మొగ్గ	-11.3183
సమయం	-11.3202
help	-11.3203
వారినందరిని	-11.3208
ICE	-11.3213
aff	-11.3214
కొత్త	-11.3219
▁కొవ్వొత్తి	-11.3221
▁తటస్థ	-11.3221
▁త్రైమాసిక	-11.3221
▁దర్యాప్తు	-11.3221
▁బలవంతంగా	-11.3221
▁బ్లైండ్	-11.3221
▁రెసిపీ	-11.3221
▁మేధో	-11.3221
▁శోషణ	-11.3221
▁ప్రత్యుత్తర	-11.3221
▁ఎలిమెంట్	-11.3225
▁sw	-11.3234
▁కన్స	-11.3237
జనుల	-11.324
పరిపక్వ	-11.3247
▁acc	-11.3258
▁ఇన్ఫర్మేషన్	-11.3271
▁ఖైదీ	-11.3271
▁డాక్యుమెంటేషన్	-11.3271
▁నిరీక్షణ	-11.3271
▁కాపురముండ	-11.3271
▁డయోడ్	-11.3271
▁ఇమేజ్	-11.3271
▁బిజీగా	-11.3271
▁ప్రాంతాన్ని	-11.3271
▁అనామక	-11.3272
▁మామూలు	-11.3272
▁నార్వే	-11.3273
▁VIP	-11.3278
▁ఒప్పుకొన	-11.3278
▁నిధి	-11.3282
▁తగ్గుతుంది	-11.3284
▁ఇనుప	-11.3297
రీతిగా	-11.3301
▁స్వాగత	-11.3306
ుడవై	-11.3319
▁సార్వత్రిక	-11.3321
▁గవర్నర్	-11.3321
▁అరేబియా	-11.3321
▁పరోక్ష	-11.3321
ification	-11.3321
▁ఊపిరి	-11.3321
▁ఇఫ్కో	-11.3321
▁గురువారం	-11.3321
▁త్రాడు	-11.3322
▁బెర్లిన్	-11.3323
వాడనై	-11.3324
▁పొడుగు	-11.3324
జెంట్	-11.3328
▁పదవీ	-11.3333
▁అనుగ్రహించు	-11.3343
rail	-11.3344
యున్నాము	-11.3346
▁తరగతుల	-11.3348
▁ప్రపంచవ్యాప్త	-11.3354
పట్టణ	-11.3361
▁స్పష్ట	-11.3361
▁7:3	-11.3366
hangeset	-11.3371
▁ఇన్స్ట్రుమెంట్	-11.3371
▁క్లినికల్	-11.3371
▁దేశవ్యాప్తంగా	-11.3371
▁పెప్టైడ్	-11.3371
▁National	-11.3371
▁విమోచన	-11.3371
▁ఫిట్టింగ్	-11.3371
▁Tech	-11.3371
▁తిమోతి	-11.3371
▁ప్రభావము	-11.3371
▁దొంగతనం	-11.3372
▁చుట్టి	-11.3373
▁వాషింగ్టన్	-11.3373
ముసలి	-11.3375
9.0	-11.3378
▁సకాలంలో	-11.3382
▁మైళ్ళ	-11.3393
▁యాజమాన్య	-11.3394
▁Game	-11.3395
▁వాహనాల	-11.3396
▁పక్షుల	-11.3405
IU	-11.3418
▁వేధింపు	-11.3422
▁కెపాసిటీ	-11.3422
▁భౌగోళిక	-11.3422
▁స్ట్రీమ్	-11.3422
▁స్నాప్	-11.3422
▁అమాయక	-11.3422
▁వ్యాఖ్యానించ	-11.3422
▁డ్రోన్	-11.3422
▁కళ్యాణ్	-11.3423
▁తెలుసుకోవచ్చు	-11.3424
▁ప్రసవ	-11.3427
="3.4	-11.3427
▁తీసివేసి	-11.3433
ుకొంటిని	-11.3446
▁తప్పించుకొని	-11.3447
బ్లాక్	-11.3453
▁inmenu	-11.3472
▁అమోరీయుల	-11.3472
▁ఇండెక్స్	-11.3472
▁ఎపిసోడ్	-11.3472
▁ఐశ్వర్య	-11.3472
▁పోర్ట్ఫోలియో	-11.3472
▁అసౌకర్య	-11.3472
▁రెండువందల	-11.3472
▁వశ్యత	-11.3472
▁పగుళ్లు	-11.3472
▁(2015)	-11.3472
▁DRK	-11.3472
నివ్వండి	-11.3473
▁అవసరమవుతుంది	-11.3474
▁Viber	-11.3474
▁ప్యాలెట్	-11.3474
▁విశ్రాంతిదినము	-11.3475
▁Prime	-11.3475
▁రుణాల	-11.3477
▁బోయింగ్	-11.3478
▁టైమర్	-11.3482
▁లీటర్ల	-11.3518
▁Queclink	-11.3523
▁జ్యేష్ఠ	-11.3523
▁డ్రీం	-11.3523
▁కాన్వాస్	-11.3524
▁ఆదరణ	-11.3524
నేగాని	-11.3526
▁సహాయపడటానికి	-11.3531
స్కేప్	-11.3543
▁పిచ్చి	-11.3545
1.7	-11.3549
ెవడు	-11.3556
తెలుగు	-11.3557
▁పొరుగువాని	-11.3558
▁ఎదురుచూ	-11.3562
బడాలి	-11.3571
▁కమర్షియల్	-11.3575
▁నమస్కారము	-11.3575
▁యాధృచ్ఛిక	-11.3575
▁డ్యాన్స్	-11.3575
▁స్కాట్లాండ్	-11.3575
▁దొంగిలించ	-11.3575
▁మెయిలింగ్	-11.3575
▁అనలాగ్	-11.3575
▁అమర్పు	-11.3575
3,000	-11.3575
▁కంప్యూటింగ్	-11.3575
▁ఎదుర్కొన్న	-11.3575
▁వింటర్	-11.3576
▁contactor	-11.3576
▁what	-11.3578
▁టాక్సీ	-11.3578
▁డాగీ	-11.3581
▁ఐక్య	-11.3581
="3.5	-11.3581
▁1.8	-11.3585
▁బార్బీ	-11.3586
▁12:3	-11.3608
▁అడిగారు	-11.3626
▁హెబ్రోను	-11.3626
▁ఇద్దరూ	-11.3626
▁రమ్మీ	-11.3626
▁సరిదిద్ద	-11.3626
▁ముందర	-11.3629
▁రాజాయెను	-11.3629
▁OFF	-11.3634
▁పచ్చిక	-11.3634
▁కరెంట్	-11.3642
మందలి	-11.3644
3.7	-11.3646
▁వెనక	-11.3652
▁అతడ	-11.3677
▁Rikoooo	-11.3678
▁బ్లూటూత్	-11.3678
▁లిక్విడ్	-11.3678
▁వదిలించుకోవటం	-11.3678
▁సోవియట్	-11.3678
▁నివాసితులు	-11.3678
▁వర్తిస్తాయి	-11.3678
▁ABS	-11.3678
స్‍క్	-11.3679
▁హ్యాకింగ్	-11.368
▁అవుట్లెట్	-11.368
▁ట్రంప్	-11.368
▁సెకను	-11.3681
▁ఆక్వా	-11.3688
▁కనిన	-11.3689
▁వాడతారు	-11.3689
ికిని	-11.3716
▁జీవించి	-11.3728
ఇక్కడ	-11.3729
▁ఆసియ	-11.373
▁ఉద్దీపన	-11.373
▁zipper	-11.373
▁జెయింట్	-11.373
▁డెబ్బది	-11.373
▁తీర్చిదిద్ద	-11.373
▁ఫ్రైడే	-11.373
▁యాంటెన్నా	-11.373
▁ఎదురుచూడండి	-11.373
▁పదియవ	-11.373
JPY	-11.3731
▁చార్లెస్	-11.3732
▁పింక్	-11.3733
▁బీజింగ్	-11.3735
▁అవుతా	-11.3738
▁నాటిన	-11.3739
▁6:3	-11.3744
▁బిగించ	-11.3746
▁అతికించ	-11.3747
▁నిలువబడి	-11.3768
▁కటక	-11.377
ప్రకారము	-11.3774
▁10:3	-11.378
ర్జున	-11.3782
▁నిరుద్యోగ	-11.3782
▁స్కిమ్మెర్	-11.3782
▁మరణశిక్ష	-11.3783
▁గుండ్రని	-11.3783
▁స్టాంపింగ్	-11.3783
watch	-11.3783
▁చట్రం	-11.3783
▁సమాఖ్య	-11.3783
▁దవడ	-11.3786
▁hand	-11.3803
▁దక్క	-11.3817
కృత్య	-11.3817
▁diffuser	-11.3835
▁ఫంక్షనల్	-11.3835
▁మున్సిపాలిటీ	-11.3835
▁శ్రేయస్సు	-11.3835
▁స్మారక	-11.3835
▁లేవనెత్త	-11.3835
▁PHP	-11.3835
▁తెప్పించ	-11.3836
▁ఇష్టపడ్డారు	-11.3836
▁ATM	-11.3836
}}	-11.3839
▁హైలైట్	-11.3844
▁పూజించ	-11.3849
డొకడు	-11.3855
ుతుంటారు	-11.3855
కొందును	-11.3855
▁ముద్రించిన	-11.3856
▁సాక్షుల	-11.3859
వ్యాప్త	-11.3863
▁భక్ష	-11.3866
▁డబ్బ	-11.3873
“	-11.3877
▁తప్పించుకొన	-11.3881
izer	-11.3885
▁ఈక్విటీ	-11.3888
▁ఉత్తీర్ణ	-11.3888
▁చైల్డ్	-11.3888
▁ఫెడరల్	-11.3888
▁తీసుకురావడానికి	-11.3888
▁వైద్యుడికి	-11.3888
▁బాల్కనీ	-11.3888
▁జాకబ్	-11.3888
▁రీతిలో	-11.3888
ాశ్రయ	-11.3889
▁మొలకల	-11.3889
▁కిరీటం	-11.389
▁పాల్గొంట	-11.389
గలిగితే	-11.389
▁అందిస్తున్నాము	-11.3893
▁under	-11.3894
="0.3	-11.3898
ధర్మ	-11.39
▁విద్యార్ధుల	-11.3918
▁16:2	-11.3923
ుతుంటే	-11.3936
▁4:3	-11.394
▁Infinite	-11.3941
▁Litecoin	-11.3941
▁ప్రేరకం	-11.3941
▁లెర్నింగ్	-11.3941
▁స్టాండర్డ్	-11.3941
STORE	-11.3941
▁ఖననం	-11.3941
▁మనుషుల	-11.3942
సింహ	-11.3943
▁చౌకైన	-11.3945
▁జయించ	-11.3951
▁ప్రాంతము	-11.3953
▁ఆదర్శ్	-11.3959
▁తిరస్కర	-11.3962
బడవచ్చు	-11.3965
▁విజయాల	-11.3984
▁పంచుకో	-11.3988
8.1	-11.3989
▁ఆమ్స్టర్డ్యామ్	-11.3995
▁యాంటీవైరస్	-11.3995
▁శూన్య	-11.3995
▁హోలోకాస్ట్	-11.3995
▁పొట్టేలు	-11.3995
▁ఆగ్నేయ	-11.3995
▁చెబుతున్న	-11.3996
▁హోల్డింగ్	-11.3996
▁విద్యావేత్త	-11.3997
▁నాలుగో	-11.3997
▁హ్యాకర్	-11.3999
▁ఏకాంత	-11.3999
హస్త	-11.4
▁రకము	-11.4002
▁అనుకూలీకరణ	-11.4002
▁యితర	-11.4003
▁వదిలివేయ	-11.4012
ైయుండి	-11.4015
ిస్తారని	-11.4024
▁అబ్బాయి	-11.4031
▁సీట్ల	-11.4046
TSTransco	-11.4048
▁నిటారుగా	-11.4048
▁స్ట్రీమింగ్	-11.4048
▁తెలుసుకోవలసిన	-11.4048
▁దరిద్ర	-11.4048
▁జెకర్యా	-11.4049
▁యాంగిల్	-11.4049
▁ఇవన్నీ	-11.4049
content	-11.4049
▁బేతేలు	-11.4049
▁Karn	-11.4049
▁దురద	-11.4049
▁ప్రయాస	-11.4049
▁జీవితకాల	-11.4049
▁విషాద	-11.4049
▁అదుపు	-11.4049
▁విసిరి	-11.405
▁స్పోర్ట్	-11.4051
9.00	-11.4071
కొట్ట	-11.4078
▁0.8	-11.4087
వీడియో	-11.4098
▁రుగ్మత	-11.4103
▁ఆండ్రోజెనిక్	-11.4103
▁కచ్చితంగా	-11.4103
▁లిథియం	-11.4103
▁జోసెఫ్	-11.4103
▁ఫ్లోరిడా	-11.4103
▁గార్డ్	-11.4103
▁కళాకారుడు	-11.4103
quot	-11.4107
▁ఫుల్	-11.4108
▁ఏడ్చ	-11.4108
▁నిరూపించబడింది	-11.4112
లింక్	-11.4114
ెక్కడ	-11.4118
వాడిని	-11.4119
▁8:3	-11.4123
image	-11.4125
berg	-11.4126
▁ఫ్లూ	-11.4149
▁కనపడ	-11.4156
▁ఆఫ్రికన్	-11.4157
▁ఇన్సూరెన్స్	-11.4157
▁కన్సల్టెంట్	-11.4157
▁క్లినిక్	-11.4157
▁గ్రాన్యులేటర్	-11.4157
▁Machine	-11.4157
▁నేపాల్	-11.4157
▁రిబ్బన్	-11.4157
▁డేనియల్	-11.4157
▁దిగుబడి	-11.4157
▁99%	-11.4158
▁నార్త్	-11.4159
▁హృదయపూర్వక	-11.4159
▁ఇన్సైడ్	-11.4161
కొలది	-11.4162
▁మారుతూ	-11.4163
▁బ్రీ	-11.4177
▁మారిపో	-11.4201
—	-11.4207
ities	-11.4209
9.9	-11.4211
▁ఆంధ్రప్రదేశ్	-11.4212
▁కేబినెట్	-11.4212
▁వారాంతంలో	-11.4212
▁ASTM	-11.4212
▁కలెక్షన్	-11.4212
▁పునాదుల	-11.4212
▁ప్రతిసారీ	-11.4212
▁అలవాట్ల	-11.4212
▁ఉంగర	-11.4212
▁అన్వయ	-11.4212
▁వెళ్తుంది	-11.4213
----	-11.4213
▁చానెల్	-11.4214
▁జన్మించారు	-11.4215
▁ఖడ్గముచేత	-11.4215
▁పడిపోయిన	-11.422
7.3	-11.4222
▁బాసెల్	-11.4223
▁19:1	-11.4228
Time	-11.4246
▁విడిపింప	-11.4256
తక్కువ	-11.4263
▁ఉగ్రత	-11.4266
▁ఒలింపిక్	-11.4266
▁పాళెము	-11.4266
▁పాశ్చాత్య	-11.4266
▁ప్రస్తావించ	-11.4266
▁ర్యాంకింగ్	-11.4266
▁త్రొక్క	-11.4267
ratuit	-11.4267
▁దీంతో	-11.4267
▁నేర్చుకుంటారు	-11.4268
▁చెరపట్ట	-11.4268
▁అందుకో	-11.4268
▁తెలియజెప్ప	-11.4269
మట్టుకు	-11.4269
లోపల	-11.4272
▁రంగాలలో	-11.4272
▁ఫోరం	-11.4277
6.4	-11.4284
▁మలచ	-11.4292
▁ఒప్పందాల	-11.43
ఫ్యాక్టరీ	-11.432
ఋ	-11.4321
▁AASraw	-11.4322
▁Messenger	-11.4322
▁{@}	-11.4322
▁అభినందించ	-11.4322
▁అలెగ్జాండర్	-11.4322
▁థింగ్స్	-11.4322
▁నడుగగా	-11.4322
▁తుపాకీ	-11.4322
▁NYE	-11.4322
▁సలాడ్	-11.4322
▁బహుమాన	-11.4322
▁భయపడ్డారు	-11.4322
▁అవసరమయ్యే	-11.4323
article	-11.4326
▁వెన్ను	-11.4335
▁సాధకుల	-11.4336
▁విప్లవ	-11.4341
▁టర్న్	-11.4356
ుదురని	-11.436
యున్నాడని	-11.4364
▁ORPHEK	-11.4377
▁ఎలియాజరు	-11.4377
▁పనిచేశాడు	-11.4377
▁ప్రొటెక్షన్	-11.4377
▁బ్రిటీష్	-11.4377
▁దృష్టాంత	-11.4377
▁shoppingdirect	-11.4377
▁ఎదోము	-11.4378
▁ప్రగతి	-11.4378
Daily	-11.4379
▁అనుకరించ	-11.4381
▁చూస్తూ	-11.4383
▁నిర్ధార	-11.4388
▁స్టై	-11.441
వాదులు	-11.4416
వంశ	-11.4425
▁4.5	-11.4427
▁ఎఫెక్ట్	-11.4433
▁బ్రిడ్జ్	-11.4433
▁పేరట	-11.4433
▁భగవంతు	-11.4434
▁అవశేషాల	-11.4434
▁భద్రపరచ	-11.4435
▁సూచిస్తున్న	-11.4436
▁సమ్మె	-11.4438
▁ఒక్కసారి	-11.4439
▁బర్నర్	-11.444
▁స్వాగతించ	-11.445
▁ప్రాధాన్య	-11.4462
ొద్దు	-11.4464
▁button	-11.4489
▁ముఖ్యమంత్రి	-11.4489
▁అవెన్యూ	-11.4489
▁రద్దీ	-11.4489
▁స్థావరాల	-11.4489
▁అంతులేని	-11.4489
▁మార్గదర్శి	-11.4489
▁లూయిస్	-11.4489
▁శైలులు	-11.4489
▁TSTRANSCO	-11.4489
▁వేలాది	-11.449
▁దోచుకొన	-11.4491
▁వాటాదారుల	-11.4492
▁ఆకాశంలో	-11.4492
▁2:3	-11.4503
▁స్తుతి	-11.4519
▁1:4	-11.4525
పరుచు	-11.4527
బడితే	-11.4533
▁విరామ	-11.4537
▁వ్యవహార	-11.4541
▁Linux	-11.4546
▁modified	-11.4546
▁సిద్కియా	-11.4546
▁అతుకులు	-11.4546
▁కృతజ్ఞతాస్తుతుల	-11.4546
▁నిలబెట్ట	-11.4546
▁బలాత్కార	-11.4546
▁వర్క్షాప్	-11.4546
▁అప్పుడప్పుడు	-11.4546
▁అటాచ్	-11.4546
▁MOQ	-11.4546
▁క్వీన్	-11.4546
2005-2018	-11.4546
ఆధారిత	-11.4548
▁అందిస్తోంది	-11.4551
▁నియంత్రిక	-11.4555
life	-11.4556
6.7	-11.4559
▁0.15	-11.4571
▁విశ్వసిస్త	-11.4575
▁make	-11.4576
ుడను	-11.4589
English	-11.4603
▁ఆండ్రోజెన్	-11.4603
▁ఎకనామిక్	-11.4603
▁ఏంజిల్స్	-11.4603
▁తదితర	-11.4603
▁మరుసటి	-11.4603
▁హ్యాంగ్స్యూ	-11.4603
▁తైవాన్	-11.4603
▁నిడివి	-11.4603
▁నటుడు	-11.4603
▁ద్వితీయ	-11.4604
▁అధిపతియగు	-11.4604
▁HDPE	-11.4606
▁ప్రాక్సీ	-11.4606
▁కుట్ర	-11.461
▁పట్టుకుని	-11.461
trac	-11.4617
▁దుష్టుల	-11.4618
▁ఒప్పించ	-11.4638
▁ముంచి	-11.4639
▁కట్టించి	-11.4651
▁ACCURL	-11.466
▁SharePoint	-11.466
▁creampie	-11.466
▁జాత్యాంతర	-11.466
▁నిమగ్నమై	-11.466
▁బాక్సులను	-11.466
▁స్టేషను	-11.466
▁చెన్నై	-11.466
▁స్లిప్	-11.466
="4.7	-11.466
▁NEW	-11.466
▁మ్యాజిక్	-11.4661
▁అనువదించబడలేదు	-11.4661
▁హెచ్చరించ	-11.4662
▁గుడార	-11.4664
▁పొందుతున్న	-11.4674
సహాయ	-11.4682
▁0.07	-11.4685
▁థర్మో	-11.4694
▁భవిష్య	-11.4705
Pirater	-11.4717
▁అడిగాడు	-11.4717
▁ఎలక్ట్రో	-11.4717
▁కేంబ్రిడ్జ్	-11.4717
▁పరిసయ్యులు	-11.4717
world	-11.4717
▁Power	-11.4717
▁నొక్కడం	-11.4717
▁బాయిలర్	-11.4717
▁వెస్ట్రన్	-11.4717
▁జ్వాల	-11.4718
▁స్పాన్సర్	-11.4718
▁చెడుతనము	-11.4718
▁బహిష్	-11.4719
7.8	-11.4719
▁పాలిమర్	-11.4722
▁వణక	-11.4723
proof	-11.4723
▁రౌతుల	-11.4724
▁సైబర్	-11.4725
నిమిత్తము	-11.4725
▁శిశు	-11.4767
▁పొంగ	-11.477
7.9	-11.4773
▁ధృవపత్రాల	-11.4775
▁Europe	-11.4775
▁ప్రిస్క్రిప్షన్	-11.4775
▁సున్నితత్వం	-11.4775
▁కొలంబియా	-11.4775
▁పైకెత్తు	-11.4775
▁ఫ్లెక్సిబుల్	-11.4776
▁న్యాయవాదులు	-11.4776
▁అనుసంధానించబడి	-11.4778
▁కెటోన్	-11.4779
▁విధానము	-11.4779
▁ప్రిన్స్	-11.4783
▁ఆలస్య	-11.4796
పోవటం	-11.4818
శతాబ్ద	-11.4818
email	-11.4821
▁నిచ్చెన	-11.4822
▁Koowheel	-11.4833
▁అభినందనలు	-11.4833
▁ఆలకించుడి	-11.4833
▁ఇంటర్మీడియట్	-11.4833
▁ఊపిరితిత్తుల	-11.4833
▁ద్రవీభవన	-11.4833
▁పరిజ్ఞానాన్ని	-11.4833
▁బాధాకరమైన	-11.4833
▁సైక్లింగ్	-11.4833
▁పొట్టేళ్ల	-11.4833
▁రాపిడి	-11.4833
▁నశింపజేయ	-11.4834
▁స్టిల్స్	-11.4837
▁ఎదురుచూస్తున్నా	-11.485
▁ఆరంభించ	-11.4858
3.0	-11.4861
▁కల్పన	-11.4861
▁పద్మ	-11.4873
▁శత్రు	-11.4886
▁మోయాబీయు	-11.4892
▁Huawei	-11.4892
▁అడ్మిషన్	-11.4892
▁అభీష్ట	-11.4892
▁మాడ్యులర్	-11.4892
▁తండ్రీ	-11.4892
▁పుంజం	-11.4892
▁సూచిస్తాయి	-11.4892
▁సెంచరీ	-11.4892
▁తొందర	-11.4892
▁ఆకారాలు	-11.4892
▁యాక్సిస్	-11.4893
▁ఎరిగి	-11.4894
▁తొట్టి	-11.4896
▁చూస్తుంది	-11.4896
▁దాణా	-11.4897
ప్రపంచ	-11.4903
▁నామం	-11.4903
9.8	-11.4928
▁నాట్య	-11.4929
4,000	-11.495
▁ఏకాగ్రత	-11.495
▁చట్టవిరుద్ధ	-11.495
▁బాక్టీరియా	-11.495
▁మొర్దెకై	-11.495
▁సజావుగా	-11.495
▁సాక్సోఫోన్	-11.495
▁మిఠాయి	-11.495
▁యాభై	-11.495
▁జానపద	-11.4951
▁అవలంబ	-11.4951
▁అన్లాక్	-11.4951
▁టెక్సాస్	-11.4951
▁ఉద్గార	-11.4951
▁గడిచి	-11.4953
పోవుచున్న	-11.4954
▁గుణకాలు	-11.4955
▁నిలబడ	-11.4959
ప్రస్తుత	-11.4963
▁3:3	-11.4966
▁అవుతారు	-11.4968
9.4	-11.4972
▁నిర్వహిస్తున్న	-11.4975
▁20:1	-11.4997
▁చోట్ల	-11.4999
▁Company	-11.501
▁టియాంజిన్	-11.501
▁పశ్చాత్తాప	-11.501
▁ముబారక్	-11.501
▁సరాసరి	-11.501
▁జుడాస్	-11.501
▁ఆసక్తుల	-11.501
▁అటవీ	-11.501
▁నమ్ముతున్నా	-11.5022
‘	-11.5027
▁8.1	-11.5034
▁నిప్పు	-11.5041
▁డచ్	-11.5066
▁November	-11.5069
▁అవలోకనం	-11.5069
▁గూఢచర్యం	-11.5069
▁మెక్సికన్	-11.5069
▁శుభవార్త	-11.5069
▁తెలుసుకుంటారు	-11.5069
▁కోరుకుంటే	-11.5069
▁హిందీ	-11.5069
▁option	-11.5069
▁ఇన్సర్ట్	-11.5069
▁ఇద్దరి	-11.5069
▁విస్మయ	-11.5069
▁మారుస్తుంది	-11.5069
మినేషన్	-11.507
▁మారియో	-11.507
▁డీజిల్	-11.507
▁FXCC	-11.507
▁స్వీకరిస్త	-11.5073
పొందుపరచు	-11.5075
▁స్వాస్థ్య	-11.5096
▁నిర్ణయించుకున్న	-11.5111
▁Technology	-11.5129
▁కంప్రెసర్	-11.5129
▁గ్రుడ్డి	-11.5129
▁ఎక్స్టెన్షన్	-11.5129
▁సరసన	-11.5129
▁ఇండిగో	-11.5129
▁కొనుగోళ్ల	-11.5129
▁ఆత్మహత్య	-11.5129
▁దోహదపడుతుంది	-11.513
▁ఎక్కడికి	-11.513
▁గూఢ	-11.5131
▁వారీగా	-11.5131
▁మనల్ని	-11.5131
▁సంగ్రహించ	-11.5131
▁సౌదీ	-11.5133
▁తోడుగా	-11.5134
మౌతుంది	-11.5137
తర్వాత	-11.5146
సుమారు	-11.5147
▁శోధిస్తున్న	-11.5168
9.99	-11.5178
▁తట్ట	-11.5189
▁Shandong	-11.5189
▁అభయారణ్యం	-11.5189
▁గర్భధారణ	-11.5189
▁చిరంజీవి	-11.5189
▁ప్రాక్టీస్	-11.5189
▁టీనేజ్	-11.5189
▁కనానీయుల	-11.5189
▁శృంగారమైన	-11.519
▁జతచేస్తుంది	-11.519
▁thr	-11.519
▁న్యాయమూర్తి	-11.5191
▁బహుముఖ	-11.5192
▁పెరిగే	-11.5192
▁పాఠం	-11.5193
▁వెతక	-11.5202
▁నెమ్మది	-11.5211
చెట్ల	-11.5235
▁స్ఫటిక	-11.525
▁first	-11.525
▁అడల్ట్	-11.525
▁అపొస్తలుల	-11.525
▁ఆశీర్వాద	-11.525
▁ఇంజినీరింగ్	-11.525
▁ట్రిగ్గర్	-11.525
▁జూనియర్	-11.525
▁సెర్చ్	-11.525
▁ఏమైనప్పటికీ	-11.525
▁ఫ్లిప్	-11.525
▁love	-11.525
▁నలుగురు	-11.525
▁నిలువబెట్ట	-11.5251
body	-11.5253
▁శవము	-11.5257
▁కీటక	-11.5259
▁వేశ్య	-11.5267
▁కంప్యూట	-11.5294
సైక్ల	-11.5296
▁నరాల	-11.5306
▁అడ్వాన్స్	-11.5311
▁యోషీయా	-11.5311
▁వార్తాలేఖ	-11.5311
▁January	-11.5311
▁mFortune	-11.5311
▁అడాప్టర్	-11.5311
▁ఖచ్చితత్వము	-11.5311
▁తార్కిక	-11.5311
▁నైజీరియా	-11.5311
▁వర్చ్యువల్	-11.5311
▁ఇరుకైన	-11.5311
▁కరిగే	-11.5311
▁ఫీడింగ్	-11.5311
కాజ్ఞాపించి	-11.5311
▁ఆశిస్తున్నాను	-11.5312
▁కొనసాగింపు	-11.5316
మ్యూజిక్	-11.5333
▁9:3	-11.534
▁22:1	-11.5349
▁అబీమెలెకు	-11.5372
▁తెరుచుకుంటుంది	-11.5372
▁నాణెం	-11.5372
▁పునరుత్థాన	-11.5372
▁ప్రాతిపదిక	-11.5372
▁బెన్యామీనీయుల	-11.5372
▁యుటిలిటీ	-11.5372
▁రాత్రిపూట	-11.5372
▁మరికొన్ని	-11.5372
▁తరిమి	-11.5372
▁ధరించుకొని	-11.5373
▁దానియేలు	-11.5374
▁ఇశ్రాయేలీయులందర	-11.5378
▁చీల్చ	-11.5378
▁అనుమతుల	-11.5378
▁సెన్స	-11.5379
publi	-11.5381
▁ఆదరించ	-11.5391
▁పక్షమున	-11.5393
▁చేర్చుకొన	-11.54
▁అనుమతించబడ	-11.5414
▁సౌలభ్య	-11.5414
▁గడుపు	-11.5416
▁ప్రావీన్స్	-11.5434
▁అబ్నేరు	-11.5434
▁జర్నల్	-11.5434
.........	-11.5434
▁బాషాను	-11.5434
▁రకాన్ని	-11.5435
▁రండని	-11.5435
▁చెరసాల	-11.5435
cycl	-11.5442
▁శోధ	-11.5443
▁పిలుచు	-11.5446
▁నరికి	-11.5449
నిరోధక	-11.5459
▁some	-11.547
▁కావాల్సిన	-11.5482
ఎఫెసీయుల	-11.5496
▁అనుభవజ్ఞులైన	-11.5496
▁గుయంగ్డోంగ్	-11.5496
▁ఫెడరేషన్	-11.5496
▁సంఘర్షణ	-11.5496
▁గాంధీ	-11.5496
▁రసీదు	-11.5496
▁రన్నింగ్	-11.5499
▁Opera	-11.5504
6,000	-11.5504
▁18:2	-11.5507
▁పొట్ట	-11.5528
▁ఇబ్బందుల	-11.553
▁సాయపడ	-11.5534
7.7	-11.5541
Super	-11.5543
▁నివేద	-11.5554
▁2:4	-11.5557
▁నిరుత్సాహ	-11.5559
▁పాకిస్తాన్	-11.5559
▁లెబానోను	-11.5559
▁discuss	-11.5559
▁టెక్నికల్	-11.5559
▁వయోలిన్	-11.5559
▁కలెక్టర్	-11.5559
▁దూషించ	-11.5559
▁తుడిచి	-11.5559
▁సంభవిస్తుంది	-11.5559
▁BMW	-11.5559
▁విలేజ్	-11.5559
▁తంతి	-11.5559
▁షెకెము	-11.5559
▁నమోద	-11.5562
▁నివసిస్త	-11.5563
▁వేగాస్	-11.5564
▁సిల్క్	-11.5564
▁పవన	-11.557
▁కడుగ	-11.5576
యోహాను	-11.5587
▁సహోదరి	-11.5621
▁Xiaomi	-11.5621
▁కేశాలంకరణ	-11.5621
▁కొవ్వొత్తులను	-11.5621
▁క్రమబద్ధీకరించ	-11.5621
▁గమ్యానికి	-11.5621
▁టోర్నమెంట్	-11.5621
▁పురపాలక	-11.5621
▁సిగరెట్	-11.5621
▁సోలమోన్స్	-11.5621
▁అడ్డంకులు	-11.5621
▁Lucks	-11.5622
▁అవరోధ	-11.5622
▁పద్దతి	-11.5622
▁కలుస్తుంది	-11.5622
▁SUM	-11.5622
▁చందాదారులు	-11.5623
▁మృతులలోనుండి	-11.5623
▁సుందర	-11.5623
▁ప్రబల	-11.5627
▁యోధుల	-11.5644
ిద్దాం	-11.5646
▁విధింప	-11.5654
గురించి	-11.5655
బోవుచున్న	-11.5667
▁ATLANTIK	-11.5685
▁అత్యల్ప	-11.5685
▁అదృష్టవశాత్తూ	-11.5685
▁క్వింగ్డావో	-11.5685
▁టాంజానియా	-11.5685
▁నిస్సందేహంగా	-11.5685
▁సోలోమోన్స్	-11.5685
▁ఒప్పందాన్ని	-11.5685
▁సన్నద్ధ	-11.5685
▁కిల్లర్	-11.5685
▁గిబ్స్	-11.5685
▁చట్టబద్ధం	-11.5685
▁స్వాధీనపరచుకొన	-11.5685
▁ఆలివ్	-11.5685
▁HIV	-11.5685
▁రహదారుల	-11.5685
▁మాస్టన్	-11.5686
▁సైకిక్	-11.5686
▁Review	-11.5687
బడవు	-11.5695
▁ఆకృతుల	-11.5697
▁కంపించ	-11.5705
Blockchain	-11.5716
high	-11.5722
▁పుట్టుక	-11.5726
▁ఉదయమున	-11.5737
▁స్వస్థపరచ	-11.574
▁PORNO	-11.5748
▁ఆతిథ్య	-11.5748
▁కాంటాక్ట్	-11.5748
▁ధ్రవమ్	-11.5748
▁పోకడలు	-11.5748
▁పౌనఃపున్య	-11.5748
▁మనస్సాక్షి	-11.5748
▁లిఫ్టింగ్	-11.5748
▁రూపాంతరం	-11.5748
▁ఓర్ఫ్క్	-11.5748
▁కమాండర్	-11.5748
▁రీడింగ్స్	-11.5749
▁దివాలా	-11.5749
▁బిలాము	-11.5749
▁జ్ఞాపకశక్తి	-11.5749
▁యెముక	-11.575
▁డ్రాఫ్ట్	-11.575
▁ఉపదేశకుల	-11.5755
నవసరం	-11.5777
సియస్	-11.5792
lick	-11.5811
▁మృతుల	-11.5812
▁అప్పుడతడు	-11.5813
▁status	-11.5813
▁ననుసరించి	-11.5813
▁స్ట్రాబెర్రీ	-11.5813
▁సెట్టింగులను	-11.5813
▁షధాన్ని	-11.5813
▁పునర్వినియోగపరచ	-11.5814
▁బుద్ధిహీన	-11.5814
▁పంజా	-11.5814
▁పొందాలో	-11.5814
▁తెలిసికొందురు	-11.5814
▁అవివేక	-11.5827
అవును	-11.5849
▁కలుగజేస	-11.5851
▁వేటాడ	-11.5852
ుదునని	-11.5855
▁12:4	-11.5856
▁మనస్తత్వ	-11.586
{0}	-11.5877
▁తీర్మాన	-11.5877
▁కండీషనర్	-11.5877
▁అయోమయ	-11.5877
▁కాస్మోస్	-11.5877
▁సంక్రమణ	-11.5877
▁శ్రద్ద	-11.5877
▁కీవర్డ్	-11.5877
▁అమ్మకపు	-11.5877
చప్పట్లు	-11.5877
▁పెన్సిల్	-11.5878
▁డార్క్	-11.5879
▁అగాధ	-11.5879
▁వెలిగించ	-11.5879
▁వైఫల్య	-11.5891
▁తీసుకుంటా	-11.5933
▁అకౌంటింగ్	-11.5942
▁కేసీఆర్	-11.5942
▁క్యాపిటల్	-11.5942
▁చింతించకండి	-11.5942
▁నేతృత్వంలో	-11.5942
▁విస్తరింప	-11.5942
▁సామాగ్రి	-11.5942
▁గులాబి	-11.5942
▁ఖరీదు	-11.5942
▁దహనబలుల	-11.5942
▁అవార్డ్స్	-11.5942
▁విమానయాన	-11.5942
▁మోసపూరిత	-11.5943
▁చెప్పగలను	-11.5944
దీర్ఘచతురస్రాకార	-11.5947
▁వ్యవహారాల	-11.5947
▁మాధ్యమం	-11.5951
8.9	-11.5957
▁0.05	-11.5963
~	-11.598
▁కూరగాయల	-11.5984
▁ఆకృతీకరించుట	-11.6004
▁Release	-11.6007
▁ఆర్కిటెక్చర్	-11.6007
▁ఏంజెల్	-11.6007
▁ఫార్మాస్యూటికల్	-11.6007
▁మౌఖిక	-11.6007
▁సదస్సు	-11.6007
▁రిఫ్రెష్	-11.6007
▁పెరుగుతోంది	-11.6007
▁ప్రతిష్టాత్మక	-11.6007
▁ట్రంక్	-11.6008
▁ఫోకస్	-11.6008
▁అర్పణము	-11.6009
,000,000	-11.6009
▁పీఠము	-11.6021
ుదుము	-11.6037
మొత్తం	-11.6048
ువారును	-11.6072
▁అసమర్థ	-11.6073
language	-11.6073
▁జనాదరణ	-11.6073
▁నిఘంటువు	-11.6073
▁డ్రీమ్	-11.6073
ఫిలిప్పీన్స్	-11.6073
Internet	-11.6073
▁కస్తూరి	-11.6073
▁దట్టమైన	-11.6073
▁ఎదుర్కోవటానికి	-11.6074
▁శుభ్రపరిచే	-11.6074
▁మద్యపాన	-11.6074
▁జ్వలన	-11.6075
▁1/2	-11.6121
0.8	-11.6131
సమచారాన్ని	-11.6139
▁నిష్క్రమణ	-11.6139
▁సబ్స్క్రయిబ్	-11.6139
▁మానవీయంగా	-11.6139
▁యావత్తు	-11.6139
▁ధ్వనులు	-11.6139
▁ఆరెంజ్	-11.6139
Rider	-11.6139
▁రాశాడు	-11.614
▁సముద్రతీర	-11.614
▁పుస్తకాన్ని	-11.614
ohm	-11.614
▁కథనాలు	-11.6141
▁బల్క్	-11.6142
▁సొల్యూషన్	-11.6152
స్టీన్	-11.6183
▁నిలిచియుండ	-11.6188
▁అపార్ట్	-11.6204
▁which	-11.6206
▁తీసుకెళ్ల	-11.6206
▁కన్నీళ్లు	-11.6206
▁జాషువా	-11.6206
▁రేడియల్	-11.6206
▁వలయాలు	-11.6206
▁సంస్థాగత	-11.6206
▁తమాషా	-11.6206
mobile	-11.6206
▁సోలార్	-11.6206
▁కొరత	-11.6207
▁Office	-11.6207
▁13:3	-11.622
▁ఎంచుకొ	-11.6234
▁సమృద్ధి	-11.6236
ఉదాహరణకు	-11.6251
="5.9	-11.6252
తగిన	-11.6257
▁అభ్యసించ	-11.6273
▁University	-11.6273
▁ఈజిప్టు	-11.6273
▁ప్రోసెసింగ్	-11.6273
▁యిరువది	-11.6273
▁స్టైలిష్	-11.6273
▁BDSM	-11.6273
▁అందుకతడు	-11.6273
▁పెరిగాయి	-11.6273
▁వీక్లీ	-11.6273
▁ఏకకాలంలో	-11.6273
▁నీతిమంతుడ	-11.6274
▁ఐగుప్తుదేశములో	-11.6274
▁సమాధుల	-11.6276
▁అప్పగింప	-11.628
▁గందరగోళ	-11.6314
▁దర్శించ	-11.6316
Casino	-11.6322
శరీర	-11.6324
▁కాపరుల	-11.6326
▁అర్పింప	-11.6328
▁మన్నిక	-11.6339
▁wagering	-11.6341
▁అణచివేత	-11.6341
▁కన్సోల్	-11.6341
▁గార్టెన్	-11.6341
▁గ్యారేజ్	-11.6341
▁చేసుకుని	-11.6341
▁డిపార్ట్మెంట్	-11.6341
▁యాజకుని	-11.6341
▁చక్రవర్తి	-11.6341
▁మైలేజ్	-11.6341
▁కొరియర్	-11.6341
▁బ్యూటీ	-11.6341
▁దాంతో	-11.6349
▁నడుస్త	-11.6355
▁జలముల	-11.6372
8,000	-11.6383
బడటం	-11.6383
▁ఉడికించాలి	-11.6409
▁ఎనిమిదవ	-11.6409
▁మహీంద్రా	-11.6409
▁రిఫ్రిజిరేటర్	-11.6409
▁సోయాబీన్	-11.6409
▁భంగిమ	-11.6409
▁క్యాబిన్	-11.6409
▁DIY	-11.6409
group	-11.6409
▁ఫీలింగ్	-11.6409
▁నాళాలు	-11.641
▁చెవుల	-11.641
▁చంద్రుని	-11.6417
▁11:4	-11.6421
▁వెలువడ	-11.6444
▁ధ్రువ	-11.6469
▁Virtual	-11.6477
▁ఈస్ట్రోజెన్	-11.6477
▁డుకాటీ	-11.6477
▁రేడియేషన్	-11.6477
▁వియత్నాం	-11.6477
▁ఇస్తున్నాము	-11.6477
▁యెహోయాదా	-11.6477
▁ఇకమీదట	-11.6477
▁సబ్బాత్	-11.6477
▁సాదోకు	-11.6477
▁శాంతియుత	-11.6477
▁షర్టు	-11.6477
▁పగిలి	-11.6477
▁నిష్క్రమించ	-11.6477
▁మీరందరు	-11.6478
▁విలియం	-11.6478
▁రంగురంగుల	-11.6478
లేకపోతున్నా	-11.6479
▁హామాను	-11.6479
▁నేర్చుకొన	-11.6486
వ్యాపార	-11.653
▁కపట	-11.653
▁అనూహ్య	-11.6546
▁ఎండబెట్టడం	-11.6546
▁డిప్యూటీ	-11.6546
▁ఫ్యామిలీ	-11.6546
▁రెహబాము	-11.6546
▁సమకాలీన	-11.6546
▁ఓదార్చ	-11.6546
▁ఐర్లాండ్	-11.6546
▁జుమ్మా	-11.6546
▁గోళాకార	-11.6546
జలము	-11.6546
▁అవినీతి	-11.6547
▁కర్తవ్య	-11.6547
script	-11.6591
▁అన్వేష	-11.6596
గ్రేడుల	-11.6596
▁పిలువబడ	-11.6597
▁చెమట	-11.6598
బుద్ధి	-11.6601
▁కిరణజన్య	-11.6616
▁డెన్మార్క్	-11.6616
▁మంత్రిత్వశాఖ	-11.6616
▁సంకలిత	-11.6616
▁సాధిస్తుందని	-11.6616
▁స్ప్రెడ్	-11.6616
▁వృత్తాకార	-11.6616
▁నెవాడా	-11.6616
▁సముచిత	-11.6616
▁స్పర్శ	-11.6616
▁పిలాతు	-11.6616
▁ఏకీకృత	-11.6616
▁మ్రాను	-11.6616
▁మమ్మీ	-11.6616
▁యువకుడు	-11.6616
▁ముగియ	-11.6616
▁నెవిస్	-11.6617
▁శాసనసభ	-11.6617
▁ఎకరాల	-11.6649
▁రెక్కల	-11.6651
▁నడచు	-11.6653
▁ఆశ్రయించ	-11.6658
▁Coinfalls	-11.6686
▁ఇండోనేషియా	-11.6686
▁ఎలిజబెత్	-11.6686
▁ఏవియేషన్	-11.6686
▁ఒకరినొకరు	-11.6686
▁గార్డియన్	-11.6686
▁టైటానియం	-11.6686
▁డైరెక్ట్	-11.6686
▁న్యూజిలాండ్	-11.6686
▁మలేషియా	-11.6686
▁తెలిపారు	-11.6686
▁కొలుస్తారు	-11.6686
▁మిడిల్	-11.6686
▁దాచిపెట్ట	-11.6686
Track	-11.6687
▁భీమ	-11.6712
▁మిగిల	-11.6717
▁వాయించ	-11.6718
▁తోడ్పడ	-11.672
▁సెలవిచ్చి	-11.6736
ఉత్పత్తి	-11.6744
▁ఉద్రిక్తత	-11.6756
▁కాలక్రమేణా	-11.6756
▁ఖగోళ	-11.6756
▁చేర్చడమైనది	-11.6756
▁ముగిసే	-11.6756
▁డివిజన్	-11.6756
▁యమహా	-11.6756
html	-11.6756
▁బ్యాగులో	-11.6756
▁అజర్యా	-11.6756
▁ఐచ్చిక	-11.6756
▁ల్యూక్	-11.6758
▁15:3	-11.6764
Life	-11.6767
▁దాసుని	-11.6768
▁శతాబ్దాల	-11.6773
నిర్మిత	-11.68
ఫికేషన్	-11.6826
▁August	-11.6827
▁Diffuser	-11.6827
▁డైమెన్షన్	-11.6827
▁తీసుకురండి	-11.6827
▁అజూర్	-11.6827
▁యెరికో	-11.6827
▁మోక్షం	-11.6827
▁అద్దాలు	-11.6827
▁దారుణ	-11.6829
▁ట్విన్	-11.6829
▁భూలోక	-11.683
బడతా	-11.6846
▁Tube	-11.6856
పరిష్కరించండి	-11.6865
బానిసత్వం	-11.6865
▁భుజించ	-11.688
▁వడ్డి	-11.6895
బ్రెజిలియన్	-11.6898
▁అధ్యాయాలు	-11.6898
▁కేవలము	-11.6898
▁జోనాథన్	-11.6898
▁రిజర్వేషన్	-11.6898
▁విజువల్	-11.6898
▁వెదుక్కోవచ్చు	-11.6898
▁సరిఅయిన	-11.6898
▁జల్లెడ	-11.6898
▁దినోత్సవం	-11.6898
▁సహోదరుడైన	-11.6898
▁సంకల్పం	-11.6898
▁కాలేజీ	-11.6898
▁పర్పుల్	-11.6898
▁కొలిమి	-11.6899
▁వివాదాస్పద	-11.6899
▁SMD	-11.6899
▁HTC	-11.691
▁దేశమంతట	-11.6923
క్రొత్త	-11.6963
▁చొరబడ	-11.6966
▁PowerShell	-11.697
▁SlotJar	-11.697
▁డైరెక్టరేట్	-11.697
▁బాస్కెట్బాల్	-11.697
▁ముహమ్మద్	-11.697
▁లభిస్తాయి	-11.697
▁స్క్రిప్చర్	-11.697
▁యూదయ	-11.697
▁బతిమాల	-11.697
▁ఉపబల	-11.6971
▁నిర్థార	-11.6971
▁సూదులు	-11.6971
▁need	-11.6971
▁ఏకరీతి	-11.6972
ాజ్ఞాపించ	-11.6973
▁22:2	-11.6999
మాధ్యమ	-11.7038
▁భుజాల	-11.7041
పాపపరిహారార్థబలి	-11.7043
▁Director	-11.7043
▁WoopShop	-11.7043
▁అంజూరపు	-11.7043
▁ఇంగ్లీషు	-11.7043
▁ఎక్సైజ్	-11.7043
▁క్లియరెన్స్	-11.7043
▁పొగమంచు	-11.7043
▁మౌంటైన్	-11.7043
▁యానిమేషన్	-11.7043
▁మోక్షానికి	-11.7043
XBET	-11.7043
▁క్లచ్	-11.7043
▁పలువురు	-11.7043
▁(2012)	-11.7043
▁జెర్సీ	-11.7043
▁పడమటి	-11.7043
▁అందుకని	-11.7043
▁తగుల	-11.7055
▁సాక్ష్యమిచ్చ	-11.7086
▁14:3	-11.7109
▁గుర్గావ్	-11.7116
▁iSpyoo	-11.7116
▁unlimited	-11.7116
▁ఆవశ్యక	-11.7116
▁నెబుకద్నెజరు	-11.7116
▁పోర్చుగల్	-11.7116
▁ప్రత్యర్థి	-11.7116
▁బుక్మేకర్	-11.7116
▁మహాసముద్రం	-11.7116
▁రూబిళ్లు	-11.7116
▁అపారమైన	-11.7116
▁మాగ్నెట్	-11.7116
▁ప్రమేయం	-11.7116
▁రిచర్డ్	-11.7116
▁సిరియనుల	-11.7116
▁యెహోరాము	-11.7116
▁పరదేశుల	-11.7117
▁లాబాను	-11.7117
▁తెలుసుకునే	-11.7118
▁సఫల	-11.7119
▁చెపుత	-11.7134
జేసెను	-11.7142
▁పొదిగి	-11.7143
▁విత్తనాల	-11.7171
▁Analytics	-11.7189
▁ఎట్లనగా	-11.7189
▁థైరాయిడ్	-11.7189
▁శరదృతువు	-11.7189
▁సూర్యకాంతి	-11.7189
▁క్రియేటివ్	-11.7189
▁గుజ్జు	-11.7189
▁డిపిఐ	-11.7189
▁కుదుర్చ	-11.7189
▁నికెల్	-11.7189
▁ప్రసూతి	-11.7189
▁క్లోజ్డ్	-11.7189
▁పరంజా	-11.7189
▁లాంతరు	-11.7189
▁మోసగాడు	-11.7189
▁సీరీస్	-11.719
▁స్కిన్	-11.7193
ాచార్య	-11.7193
▁మధుర	-11.7194
▁సంపర్క	-11.7195
▁ఉల్లాస	-11.7203
హంగేరియన్	-11.7203
▁ధైర్య	-11.7224
▁సృజించ	-11.7263
▁JBoss	-11.7263
▁అడిగెను	-11.7263
▁చీలమండ	-11.7263
▁సహచరుడు	-11.7263
▁హ్యాండ్బ్యాగ్లో	-11.7263
▁ఆమోదయోగ్యమైన	-11.7263
▁తరలింపు	-11.7263
▁(2014)	-11.7263
▁అజ్ఞాత	-11.7263
▁iPhone	-11.7263
craft	-11.7263
▁మాల్వేర్	-11.7263
▁సేవింగ్స్	-11.7263
రష్యన్	-11.7264
▁కొరడా	-11.7264
▁ఫీడర్	-11.7264
లక్ష్మి	-11.7264
▁వెంటాడ	-11.7308
▁బ్యాక్టీరియా	-11.7338
Unthank	-11.7338
▁Whatsapp	-11.7338
▁కాయిన్బేస్	-11.7338
▁పిడిఎఫ్	-11.7338
▁DMAA	-11.7338
▁వెల్లుల్లి	-11.7338
▁Erw	-11.7338
▁ఫలితాన్ని	-11.7338
▁డీబగ్	-11.7338
▁విభాగానికి	-11.7338
▁బుర్సా	-11.7338
▁ఎస్తేరు	-11.7338
▁ప్రచురితమైన	-11.7338
▁micro	-11.7338
▁every	-11.7338
▁బియ్యం	-11.7338
▁DVR	-11.7338
గ్రాడ్యుయేట్	-11.7339
'''	-11.734
▁ఆప్షన్	-11.734
మొకటి	-11.7341
▁టిక్కెట్	-11.7341
▁23:2	-11.7366
▁24:1	-11.7405
▁అవిశ్వాస	-11.7413
▁December	-11.7413
▁ఆల్కహాల్	-11.7413
▁ఆశాజనక	-11.7413
▁కన్సల్టింగ్	-11.7413
▁కాన్ఫిగరేషన్	-11.7413
▁పెర్ఫ్యూమ్	-11.7413
▁రావెనాక్స్	-11.7413
▁కర్ణాటక	-11.7413
▁రాత్రులు	-11.7413
▁మాంత్రిక	-11.7413
▁డీలక్స్	-11.7413
▁Music	-11.7413
▁అవతార	-11.7414
▁విడిభాగాల	-11.7414
NZD	-11.7414
ుతుంటాయి	-11.742
▁వృద్ధుల	-11.7425
▁సన్యాస	-11.7445
మనుష్యు	-11.7452
TRANSCO	-11.7489
▁CAPTCHA	-11.7489
▁గెలుచుకుంది	-11.7489
▁దిద్దుబాటు	-11.7489
▁బాబిలోన్	-11.7489
▁మేధస్సు	-11.7489
▁దేశస్తుడు	-11.7489
▁మరునాడు	-11.7489
▁ట్వీట్	-11.7489
▁మెట్రోబస్	-11.7489
ఎలెక్ట్రిక్	-11.7489
▁సోలమన్	-11.7489
▁సంభాషించ	-11.749
▁అనివార్య	-11.749
▁సివిల్	-11.749
▁హంటర్	-11.749
girl	-11.7503
ography	-11.7562
▁dehumidifier	-11.7565
▁అరిచాడు	-11.7565
▁ఆరోహణ	-11.7565
▁ఏరోస్పేస్	-11.7565
▁టర్నోవర్	-11.7565
▁సెలవియ్యగా	-11.7565
▁హాలోవీన్	-11.7565
▁eBay	-11.7565
▁ఇట్లనుము	-11.7565
▁లేదంటే	-11.7565
▁HBOT	-11.7565
▁System	-11.7565
▁పాతకాలపు	-11.7565
▁రిటైర్	-11.7565
▁ఏఫోదు	-11.7565
▁శేషించిన	-11.7565
▁జంక్షన్	-11.7565
▁ఆపివేయ	-11.7565
▁ఓటమి	-11.7565
▁షేడ్స్	-11.7566
▁అనిశ్చిత	-11.7575
▁అచేతన	-11.7577
▁పరిష్కర	-11.7584
▁విధేయ	-11.7626
ోజెనిక్	-11.763
▁కనుగొంట	-11.7632
▁ఇష్మాయేలు	-11.7642
▁సమకాలీకరణ	-11.7642
▁గంజాయి	-11.7642
▁అమి్మ	-11.7642
▁పంక్తి	-11.7642
▁ట్యూషన్	-11.7642
▁వినికిడి	-11.7642
▁ఎజ్రా	-11.7643
MENT	-11.7643
▁టెన్షన్	-11.7644
▁లేఖనము	-11.7644
▁దత్తత	-11.7644
▁గణాంక	-11.7647
దైవజనుడ	-11.7661
▁సహచరుల	-11.7697
▁Foshan	-11.772
▁Meyelashstore	-11.772
▁అస్థిపంజర	-11.772
▁కేటాయింపు	-11.772
▁జియంగ్సులో	-11.772
▁టమోటా	-11.772
▁బాహుబలి	-11.772
▁రిపోర్టర్	-11.772
▁లాజిస్టిక్స్	-11.772
▁సంక్రాంతి	-11.772
▁అరబిక్	-11.772
▁నిరసన	-11.772
▁వీక్షకుల	-11.772
▁చూచుటకు	-11.772
ముగ్గర	-11.7732
▁వ్యూహాల	-11.7776
▁XHTML	-11.7798
▁ఒడంబడిక	-11.7798
▁కాంట్రాక్టర్	-11.7798
▁గర్భిణీ	-11.7798
▁డిస్పోజబుల్	-11.7798
▁థియాలజీ	-11.7798
▁సరిపోల్చండి	-11.7798
▁స్క్రీనింగ్	-11.7798
▁Zhong	-11.7798
▁ఎసిటేట్	-11.7798
▁ప్రతిపాదిత	-11.7798
▁సవాళ్లు	-11.7798
▁టోక్యో	-11.7798
Author	-11.7798
▁హయ్యర్	-11.7798
source	-11.7798
▁కామిక్స్	-11.7798
▁గ్రాహకాల	-11.7798
▁ఆవిష్కరించ	-11.7799
ology	-11.78
▁సన్నగా	-11.7801
▁మేల్కొన	-11.7814
ఇన్నోవేటివ్	-11.7877
▁brushless	-11.7877
▁అడ్రెస్స్	-11.7877
▁తడలాఫిల్	-11.7877
▁నర్సరీ	-11.7877
▁నాలెడ్జ్	-11.7877
▁న్యాయమూర్తుల	-11.7877
▁ఫాంటసీ	-11.7877
▁బ్యాంకాక్	-11.7877
▁రుణగ్రహీత	-11.7877
▁రోజంతా	-11.7877
▁దశాబ్దం	-11.7877
▁తెరుస్తుంది	-11.7877
▁వందనములు	-11.7877
▁ట్రిపుల్	-11.7877
▁ఒలీవ	-11.7877
▁షార్ప్	-11.7877
▁కలవడానికి	-11.7877
NUM	-11.7907
direct	-11.7933
▁అభివృద్ది	-11.7956
▁జరగబోతోంది	-11.7956
▁జావాస్క్రిప్ట్	-11.7956
▁నెలకొల్ప	-11.7956
▁హెలికాప్టర్	-11.7956
Private	-11.7956
▁బెదిరించ	-11.7956
▁అయిదవ	-11.7956
▁వృద్ద	-11.7957
▁గల్ఫ్	-11.7957
▁ఘటన	-11.7958
శీర్వద	-11.8033
▁Meitrack	-11.8036
▁అవాంఛిత	-11.8036
▁ఆర్కిటెక్ట్	-11.8036
▁మృదువుగా	-11.8036
▁హఠాత్తుగా	-11.8036
▁జార్జియా	-11.8036
▁పూర్వీకుల	-11.8036
▁ఉపవాసము	-11.8036
▁పిజ్జా	-11.8036
▁సాయుధ	-11.8036
▁Movie	-11.8037
నందలి	-11.804
▁విశద	-11.8046
Sales	-11.8068
వచ్చో	-11.8075
▁విభజ	-11.8096
▁ఫ్లెక్సి	-11.8115
▁Stepper	-11.8117
▁ఎందుకనగా	-11.8117
▁కట్లపాము	-11.8117
▁కనురెప్ప	-11.8117
▁టెఫ్లాన్	-11.8117
▁ఫిక్సెడ్	-11.8117
▁హాలీవుడ్	-11.8117
▁చొరవ	-11.8117
▁డైజెస్ట్	-11.8117
▁ప్రేమికుడు	-11.8117
▁మాధ్యమిక	-11.8117
▁నిలుస్తుంది	-11.8117
▁మొటిమ	-11.8117
▁మంచము	-11.8117
▁షధాల	-11.812
▁Film	-11.812
▁శపించ	-11.8131
అందమైన	-11.8137
▁ప్రాంగణ	-11.8197
టెలికమ్యూనికేషన్	-11.8198
నపుంసకుడు	-11.8198
▁గెలిచింది	-11.8198
▁మ్యూనిచ్	-11.8198
▁రొమేనియా	-11.8198
▁సొదొమ	-11.8198
▁ఇంద్రియ	-11.8198
▁దమస్కు	-11.8198
▁బంతుల్లో	-11.8198
▁వధువు	-11.8198
▁లీకేజ్	-11.8198
▁అలెక్సా	-11.8198
▁ఫాదర్స్	-11.8198
▁పెండ్లిచేసికొన	-11.8198
▁ఉత్తర్వు	-11.8198
నాణ్యత	-11.822
▁రప్పిం	-11.8226
▁కాగిత	-11.823
medicine	-11.828
▁Hyderabad	-11.828
▁పునర్నిర్మించ	-11.828
▁పెంగ్విన్	-11.828
▁ఫ్రాన్సిస్	-11.828
▁బస్సూన్	-11.828
▁సంతానోత్పత్తి	-11.828
▁సప్లయర్స్	-11.828
▁హైడ్రోక్లోరైడ్	-11.828
▁యవ్వనం	-11.828
▁ప్రాంప్ట్	-11.828
▁హేరోదు	-11.828
▁గ్లాసెస్	-11.828
▁ఋతు	-11.828
▁BBW	-11.828
▁మూలికా	-11.828
▁డెవిల్	-11.8281
కమునుపు	-11.8281
వాస్తవ	-11.8301
హృదయ	-11.8304
Telugu	-11.8304
ఉత్తమ	-11.8304
▁అప్రూవల్	-11.8363
▁అరువది	-11.8363
▁అవివాహిత	-11.8363
▁పార్లమెంటు	-11.8363
▁బ్రౌజింగ్	-11.8363
▁పుర్రె	-11.8363
▁క్రేజీ	-11.8363
▁పుణ్య	-11.8363
Control	-11.8363
▁జీవముతోడు	-11.8363
▁రమ్మని	-11.8363
▁ధనవంతుల	-11.8368
వయస్సు	-11.8388
▁జపాన	-11.8405
▁గోప్య	-11.8417
▁ఎండిపో	-11.8444
పురుషాంగము	-11.8446
▁Sustanon	-11.8446
▁Yinzhou	-11.8446
▁అమాలేకీయుల	-11.8446
▁ఉద్యానవన	-11.8446
▁ఏర్పరుస్తూ	-11.8446
▁ఒరిజినల్	-11.8446
▁చతురస్ర	-11.8446
▁తలిదండ్రుల	-11.8446
▁బుడగలు	-11.8446
▁మూత్రపిండ	-11.8446
▁శ్రేణుల	-11.8446
▁స్పెషలిస్ట్	-11.8446
▁రిమైండర్	-11.8446
▁నెక్లెస్	-11.8446
▁కత్తిరింపు	-11.8446
▁protected	-11.8446
▁ఆక్సైడ్	-11.8446
▁తేనెటీగ	-11.8446
▁బెనాయా	-11.8446
▁ఉపశమన	-11.8449
ప్రత్యేక	-11.8474
▁నిలిపివేస	-11.8502
▁భగవ	-11.8507
▁నశింప	-11.853
telugu	-11.853
ఆపరేటివ్	-11.853
▁Service	-11.853
▁ఇజ్మీర్	-11.853
▁ఎగురుతూ	-11.853
▁ఎమిరేట్స్	-11.853
▁డోంగ్గున్	-11.853
▁యాండ్రాయిడ్	-11.853
▁రిపోర్టింగ్	-11.853
▁సామరస్య	-11.853
▁ఎగుమతుల	-11.853
▁నివసింప	-11.853
▁అధీకృత	-11.853
▁టన్నెల్	-11.853
▁పొయ్యి	-11.853
▁ఫాన్సీ	-11.853
▁పటిష్ట	-11.853
▁పరదేశి	-11.8531
▁వెచ్చించ	-11.8535
▁జోడిస్త	-11.854
▁ఆవిష్క	-11.8559
ఞ	-12.0073
ఊ	-12.0777
×	-12.2047
ఔ	-12.364
•	-12.3784
±	-13.3281
·	-13.3666
©	-13.4917
→	-13.5848
