<unk>	0
<s>	0
</s>	0
.	-3.39214
▁	-3.52837
,	-3.55949
▁మరియు	-4.45605
లు	-4.65383
ను	-4.70557
ం	-4.75822
:	-4.9588
లో	-4.95942
స్	-5.02784
ము	-5.191
ని	-5.19256
▁ఒక	-5.23608
ల	-5.24379
;	-5.34774
▁మీరు	-5.47152
గా	-5.47945
)	-5.48457
న	-5.54177
▁ఈ	-5.5505
క	-5.568
కు	-5.6126
ర్	-5.68105
-	-5.69645
న్	-5.70831
ు	-5.7159
▁మీ	-5.74367
ల్	-5.74776
త	-5.74956
▁అ	-5.75639
▁(	-5.75873
▁యొక్క	-5.76617
▁ఆ	-5.77321
క్	-5.82023
▁-	-5.84429
ర	-5.84695
ి	-5.88294
▁కోసం	-5.90609
▁లో	-5.92083
వ	-5.94463
తో	-5.9616
▁&	-6.02693
s	-6.03585
ట్	-6.04202
లను	-6.04535
రి	-6.05848
▁నేను	-6.07728
ాలు	-6.09996
కి	-6.12115
▁లేదా	-6.13784
డ్	-6.19844
య	-6.203
మ	-6.20704
▁ఇది	-6.20751
▁మా	-6.20807
▁ఉంది	-6.21266
▁నుండి	-6.22716
?	-6.2322
gt	-6.2659
▁నా	-6.26809
ే	-6.32829
గ	-6.35164
ప	-6.37592
రు	-6.40368
ా	-6.41362
▁/	-6.41735
డ	-6.42148
ది	-6.46869
ంగా	-6.48539
▁మేము	-6.49172
"	-6.50365
యు	-6.51867
ప్	-6.53626
డానికి	-6.53723
▁"	-6.54923
▁ఏ	-6.54962
వి	-6.54981
డు	-6.5545
▁1	-6.57144
ిన	-6.57805
▁వారు	-6.58057
ాన్ని	-6.58291
ట	-6.59596
▁ద్వారా	-6.59634
డం	-6.61375
ండి	-6.6203
▁న	-6.63197
పు	-6.63568
▁చాలా	-6.65616
రా	-6.67113
ారు	-6.67562
!	-6.67684
నా	-6.69427
డి	-6.69439
లి	-6.70069
టి	-6.7062
▁కూడా	-6.71078
▁తో	-6.71901
▁క	-6.72757
మైన	-6.73417
▁అన్ని	-6.73798
▁వారి	-6.73852
▁తన	-6.74287
y	-6.74627
▁ఎ	-6.75961
▁వి	-6.76891
▁కలిగి	-6.77584
యా	-6.77759
మ్	-6.78041
e	-6.81167
▁2	-6.82417
స	-6.83249
ద	-6.84945
▁అది	-6.84968
లా	-6.86275
▁S	-6.86707
D	-6.87856
="	-6.89352
▁3	-6.90456
వు	-6.90533
▁ఉంటుంది	-6.91706
మా	-6.92538
▁మ	-6.92847
జ్	-6.94283
మి	-6.95049
▁కానీ	-6.95362
దు	-6.9543
సి	-6.95987
▁ప్రతి	-6.96663
▁కా	-6.97615
S	-6.9771
నే	-6.98034
▁దాని	-6.98356
/	-6.9977
00	-7.01203
▁నీ	-7.03811
M	-7.04279
lt	-7.05116
▁వ	-7.05666
4	-7.0577
▁ప	-7.06289
▁అతను	-7.06298
రీ	-7.06489
▁C	-7.07145
కా	-7.07741
▁_	-7.07924
t	-7.07934
▁గురించి	-7.08723
▁...	-7.08751
▁రా	-7.08772
వచ్చు	-7.09385
▁ఇ	-7.09739
ులు	-7.10247
C	-7.10612
▁అని	-7.10847
▁కు	-7.10874
▁ఉన్నాయి	-7.1114
ింది	-7.11804
amp	-7.12073
▁ఉన్న	-7.12138
ాల	-7.12142
2	-7.12914
▁T	-7.1293
తి	-7.13273
▁లేదు	-7.13703
i	-7.13726
ానికి	-7.14159
er	-7.14165
▁P	-7.14905
1	-7.14989
▁5	-7.15344
P	-7.15501
o	-7.17397
3	-7.17553
ించ	-7.18395
▁ఆమె	-7.18491
▁A	-7.19736
లకు	-7.2038
▁చేయ	-7.20405
A	-7.20921
T	-7.21264
▁M	-7.21491
వా	-7.22297
B	-7.22806
▁B	-7.22897
▁ఇతర	-7.22908
▁4	-7.23019
రో	-7.24543
"&	-7.24987
▁పని	-7.25162
గ్	-7.25434
▁start	-7.25675
▁dur	-7.25885
లలో	-7.25916
r	-7.2736
u	-7.2757
త్	-7.27697
n	-7.28609
ఫ్	-7.3046
▁యెహోవా	-7.30901
టర్	-7.31431
a	-7.31517
▁వద్ద	-7.31791
▁D	-7.33113
in	-7.33741
ాడు	-7.34197
▁స	-7.34285
▁వంటి	-7.34524
▁19	-7.34532
ing	-7.35093
ై	-7.35962
▁ఆయన	-7.3673
▁కాదు	-7.36893
▁రెండు	-7.37338
▁కొన్ని	-7.37378
బ్	-7.37781
హ	-7.3795
లే	-7.38271
▁అతని	-7.38595
▁బా	-7.39294
m	-7.39514
▁చైనా	-7.39638
▁ప్ర	-7.40009
గు	-7.40072
▁ఎలా	-7.40567
ష్	-7.40572
▁ఉత్పత్తి	-7.40623
ధ	-7.40705
▁తరువాత	-7.41512
p	-7.42524
వే	-7.4404
'	-7.44176
బ	-7.44401
▁10	-7.44528
▁G	-7.44554
ండ్	-7.447
an	-7.45436
▁కో	-7.4568
పై	-7.45856
l	-7.46377
▁F	-7.46421
▁బ	-7.46422
▁6	-7.46468
▁మరింత	-7.46595
ాలను	-7.46666
6	-7.46758
c	-7.46774
పా	-7.47437
స్ట్	-7.47614
F	-7.48442
L	-7.48564
8	-7.48572
▁సి	-7.48767
al	-7.48824
ాయి	-7.48825
▁కొత్త	-7.49546
d	-7.49745
యి	-7.51249
▁మె	-7.51272
I	-7.51521
▁నాకు	-7.51838
O	-7.52162
▁మీకు	-7.5227
▁H	-7.52362
%	-7.52777
తు	-7.52941
▁మంచి	-7.53266
్	-7.53299
▁అధిక	-7.53303
మే	-7.53559
▁చేసిన	-7.54778
▁అయితే	-7.55037
జ	-7.55399
సు	-7.55496
ణ	-7.55625
▁అనేక	-7.55736
దా	-7.55796
V	-7.55906
5	-7.55909
R	-7.5646
▁చిన్న	-7.56557
యం	-7.56784
k	-7.5688
7	-7.56959
▁మే	-7.5703
▁ఉచిత	-7.57291
నీ	-7.57342
యో	-7.5751
▁పి	-7.57735
టీ	-7.58365
▁పా	-7.58499
▁అవసరం	-7.58662
న్న	-7.58708
▁–	-7.58761
▁గ	-7.5911
సా	-7.59136
▁వాటిని	-7.594
G	-7.59542
▁సైట్	-7.59606
ాలి	-7.59678
▁కాబట్టి	-7.60018
▁ఉత్తమ	-7.60576
పి	-7.60974
లీ	-7.6112
▁7	-7.61175
▁8	-7.6173
▁మాత్రమే	-7.61737
▁లా	-7.62173
▁సం	-7.62472
▁L	-7.62681
h	-7.62995
▁సా	-7.6322
అ	-7.63298
▁ఉంటే	-7.63793
▁మొత్తం	-7.63864
ed	-7.6419
చ	-7.64503
ీ	-7.6505
▁పెద్ద	-7.6535
x	-7.65502
ండ	-7.65558
ష	-7.66033
H	-7.66614
జి	-7.66668
▁చెప్ప	-7.6678
0	-7.66856
▁వరకు	-7.67024
W	-7.67044
ar	-7.67342
▁ఇక్కడ	-7.67354
b	-7.67534
▁పేరు	-7.67569
▁ధర	-7.6794
ుల	-7.68121
E	-7.68358
at	-7.68509
▁9	-7.68765
com	-7.68856
▁మొదటి	-7.69016
▁ఇప్పుడు	-7.70153
చే	-7.7043
▁N	-7.7046
on	-7.70545
▁'	-7.71473
బడింది	-7.71794
▁తిరిగి	-7.71877
▁మన	-7.7199
▁ఎక్కువ	-7.72176
▁సమయం	-7.7233
f	-7.72588
కో	-7.73511
▁వ్యవస్థ	-7.73813
en	-7.73884
▁R	-7.74181
ో	-7.74221
▁మధ్య	-7.74363
▁దేవుని	-7.75026
త్ర	-7.75375
మో	-7.75402
▁ముందు	-7.75616
▁వె	-7.75617
టు	-7.76317
గల	-7.76523
ంది	-7.76561
▁చేయడానికి	-7.7677
నం	-7.76962
▁జ	-7.77305
నో	-7.7751
re	-7.77835
▁కంటే	-7.78218
9	-7.78355
▁అప్పుడు	-7.7848
U	-7.79235
▁రోజు	-7.79332
ంగ్	-7.79539
శ	-7.79673
K	-7.79986
రే	-7.80429
బా	-7.8048
▁తక్కువ	-7.80768
ిస్తుంది	-7.80851
▁ఉ	-7.80925
▁సేవ	-7.8098
భ	-7.81004
రె	-7.81005
ch	-7.81019
N	-7.8109
▁అతడు	-7.81236
▁E	-7.81421
▁చేయవచ్చు	-7.81438
గి	-7.81776
వారు	-7.81924
or	-7.8202
20	-7.82211
చి	-7.82248
▁రి	-7.82251
లతో	-7.82338
క్స్	-7.82748
ును	-7.82758
బడిన	-7.83023
it	-7.83068
▁మీద	-7.83402
mm	-7.83501
▁వా	-7.83894
g	-7.84344
ద్ద	-7.84391
le	-7.84392
య్య	-7.84627
ుడు	-7.84902
▁తర్వాత	-7.85132
▁సంఖ్య	-7.85366
▁వే	-7.85504
▁పూర్తి	-7.85835
మీ	-7.85869
▁మి	-7.86494
▁చేయండి	-7.87185
▁చేస్తుంది	-7.87362
▁మాకు	-7.87476
షన్	-7.87661
▁ఉంటాయి	-7.88229
▁0	-7.88395
ంద	-7.88463
▁ఆన్లైన్	-7.88688
X	-7.89018
▁కేవలం	-7.89134
ట్లు	-7.89241
▁ఒకటి	-7.89271
▁నీవు	-7.89305
బి	-7.8936
▁పె	-7.89377
ెను	-7.89736
▁12	-7.90215
కే	-7.9033
▁పో	-7.90451
▁ఉండ	-7.91134
▁ఏమి	-7.91265
▁సంస్థ	-7.91397
▁డి	-7.91769
▁సె	-7.91808
▁వివిధ	-7.91986
▁K	-7.92191
▁సమయంలో	-7.9236
లేదు	-7.9243
▁గొప్ప	-7.92499
కీ	-7.92542
▁తమ	-7.92995
et	-7.9305
టానికి	-7.93178
10	-7.93213
ౌ	-7.93235
టా	-7.93881
ించి	-7.93989
ళ	-7.94106
▁హ	-7.94191
పో	-7.94305
▁సాధారణ	-7.94523
ముగా	-7.94736
టం	-7.95209
▁పై	-7.95531
▁వ్యాపార	-7.96212
▁ప్రధాన	-7.96613
▁వీడియో	-7.97339
ించిన	-7.97481
▁ఫ్యాక్టరీ	-7.97759
▁X	-7.97883
▁20	-7.98198
హా	-7.98213
ిక	-7.9841
▁$	-7.98416
త్త	-7.98485
▁కార్	-7.98609
ించు	-7.98818
▁ఆఫ్	-7.99171
జా	-7.99331
▁W	-7.99387
▁డౌన్లోడ్	-7.99528
▁J	-7.99533
▁లే	-7.99539
వర్	-7.99673
▁నాణ్యత	-8.00244
▁అభివృద్ధి	-8.00745
మీద	-8.00799
▁రంగు	-8.01112
(	-8.01181
▁V	-8.02035
▁I	-8.02109
▁కొ	-8.0218
▁శక్తి	-8.02801
ంత	-8.03054
▁O	-8.03273
▁యా	-8.03362
▁రో	-8.03384
▁c	-8.03688
తా	-8.04066
క్ష	-8.04074
చు	-8.04161
▁ఓ	-8.0418
చ్	-8.04288
▁18	-8.04737
w	-8.04774
ాను	-8.04861
▁ప్రేమ	-8.05191
es	-8.0523
ింప	-8.05344
చ్చ	-8.05391
ె	-8.05416
ూ	-8.05744
▁సంవత్సరాల	-8.06222
▁ఉత్పత్తులు	-8.06902
▁ఫోన్	-8.07013
▁ప్రత్యేక	-8.07662
రం	-8.07735
▁ఐ	-8.08225
థ	-8.08469
▁చూడండి	-8.08639
▁రాజు	-8.08744
వ్	-8.09216
ంచ	-8.09453
కర	-8.095
▁అప్	-8.0976
ద్	-8.09878
▁ఎందుకంటే	-8.1002
▁కొనుగోలు	-8.1021
ad	-8.10568
న్స్	-8.10688
▁అంత	-8.10836
మె	-8.11235
్య	-8.11736
▁సమాచారం	-8.12168
ళ్ల	-8.12451
వాడు	-8.1248
▁అత్యంత	-8.12692
ేందుకు	-8.12751
▁ఉంచ	-8.12887
▁m	-8.13259
▁చేర	-8.13264
el	-8.13266
▁చ	-8.13398
”	-8.13688
▁బె	-8.13695
▁15	-8.13873
▁మో	-8.14381
బో	-8.15047
50	-8.15057
బడుతుంది	-8.15088
15	-8.15198
▁పంప	-8.15472
▁పొంద	-8.15533
పడ	-8.15635
▁+	-8.15648
▁వారికి	-8.157
ప్ర	-8.15815
▁మంది	-8.15845
Y	-8.15966
జీ	-8.16344
▁పేజీ	-8.16466
12	-8.16846
ur	-8.16972
ుతుంది	-8.17033
▁11	-8.17218
▁వ్యక్తి	-8.17645
▁మూడు	-8.17668
బు	-8.17696
▁ఉపయోగించ	-8.17745
డా	-8.17956
j	-8.1796
▁మొబైల్	-8.18203
▁గు	-8.18307
▁ప్రజలు	-8.18461
ra	-8.19209
▁అక్కడ	-8.19242
▁ఉండాలి	-8.19475
z	-8.19641
సె	-8.20018
ుటకు	-8.20107
ro	-8.20339
కొ	-8.20367
తారు	-8.20468
ప్పుడు	-8.20769
▁చె	-8.21181
▁స్వ	-8.21309
▁అను	-8.21318
మని	-8.21333
▁మద్దతు	-8.21395
▁అందుబాటులో	-8.21434
బడి	-8.21449
▁a	-8.22088
ిత	-8.22093
ఖ	-8.22211
▁లేకుండా	-8.22351
ic	-8.22489
మ్మ	-8.22591
ల్లో	-8.23142
▁బ్ర	-8.23169
te	-8.23281
▁2018	-8.23378
▁కే	-8.23457
▁“	-8.2375
th	-8.23768
ఎ	-8.23783
▁సహాయం	-8.23941
▁తయారు	-8.24004
▁వెబ్	-8.24021
▁రె	-8.24219
30	-8.24405
▁హోమ్	-8.24536
ri	-8.24644
▁రైలు	-8.24879
టింగ్	-8.24926
ol	-8.25122
▁అంద	-8.25217
▁తయారీదారులు	-8.25293
am	-8.25433
v	-8.25683
11	-8.26077
▁సో	-8.26177
ల్స్	-8.26438
▁కల	-8.26706
▁ప్రపంచ	-8.26718
▁సరైన	-8.2675
నకు	-8.26859
▁అతనికి	-8.26871
▁•	-8.26913
_	-8.27083
▁భూమి	-8.27582
దేశ	-8.27649
▁ఇంకా	-8.27765
▁జా	-8.27919
స్తుంది	-8.28134
▁అదే	-8.28298
వీ	-8.28526
▁సు	-8.28687
▁చి	-8.29146
్లో	-8.29202
నె	-8.29322
తీ	-8.29604
▁*	-8.29657
▁సీ	-8.29811
01	-8.29895
గో	-8.29919
ఆ	-8.30058
▁హె	-8.30299
▁the	-8.30391
వారి	-8.30576
ళ్లు	-8.30693
కె	-8.30841
▁ది	-8.30858
ొ	-8.30997
▁ఎవరు	-8.31507
▁స్థాయి	-8.31763
▁మార్గం	-8.31806
▁లైన్	-8.31852
▁నన్ను	-8.31877
▁గో	-8.31914
▁p	-8.31966
▁అద్భుతమైన	-8.32303
▁డిజైన్	-8.326
▁ఎంపిక	-8.32621
▁ద	-8.32771
19	-8.32807
▁30	-8.32936
షి	-8.32977
మెంట్	-8.33086
▁పోస్ట్	-8.33106
▁హా	-8.33175
▁ఇన్	-8.33256
పె	-8.33363
సే	-8.33463
ైన	-8.33582
యూ	-8.3368
▁యేసు	-8.33716
కర్	-8.33733
▁పరీక్ష	-8.33762
▁డేటా	-8.34035
▁LED	-8.34241
హ్	-8.34269
జర్	-8.34383
దే	-8.34913
▁అర్థం	-8.3492
ప్ప	-8.34959
▁సరఫరాదారులు	-8.3515
▁హై	-8.35167
▁బి	-8.35677
▁ఖాతా	-8.35738
యే	-8.35855
▁మార్చ	-8.36088
▁వారిని	-8.3619
as	-8.36215
▁యె	-8.36324
▁రే	-8.36336
16	-8.36426
▁మెషిన్	-8.36497
▁డె	-8.36845
టే	-8.36865
▁తండ్రి	-8.3706
▁వచ్చి	-8.37079
▁కంపెనీ	-8.37103
▁గ్	-8.37165
టో	-8.37205
▁తెలుసు	-8.37298
▁నీటి	-8.37313
ంటి	-8.37912
▁చెప్పారు	-8.3795
▁సాధారణంగా	-8.37957
▁పే	-8.37967
▁2019	-8.38068
ల్ల	-8.38122
స్తు	-8.38206
="2	-8.38908
కింగ్	-8.39141
జె	-8.39306
▁లి	-8.39554
క్క	-8.3958
▁చేయడం	-8.3975
▁వ్యక్తిగత	-8.39994
పరచ	-8.40201
ధి	-8.40245
ారా	-8.40336
▁రూ	-8.40354
ాలని	-8.40415
ట్టు	-8.4063
▁d	-8.40719
నుండి	-8.40785
సీ	-8.40846
▁సెట్	-8.41037
▁ఉపయోగించి	-8.41169
▁మార్కెట్	-8.41222
ుతున్న	-8.41328
లింగ్	-8.41422
ందు	-8.41445
▁13	-8.41546
▁బోనస్	-8.41589
▁ఉన్నప్పుడు	-8.4164
is	-8.41647
ంట్	-8.41751
▁బాగా	-8.41826
▁సంవత్సరం	-8.42186
▁ప్రారంభించ	-8.42594
▁భాష	-8.42602
▁పొ	-8.42639
▁సాఫ్ట్వేర్	-8.42656
▁నెల	-8.42658
▁24	-8.42899
▁ప్రా	-8.42947
టన్	-8.43149
▁ఇవ్వ	-8.43267
▁తా	-8.43354
▁b	-8.43542
మై	-8.43557
▁టె	-8.43567
ధా	-8.43578
చార	-8.43584
▁16	-8.43593
▁పెట్ట	-8.43685
▁డా	-8.43693
13	-8.43729
▁చెయ్య	-8.43739
▁[	-8.43819
il	-8.44151
వలెను	-8.44176
డో	-8.44326
▁చే	-8.44485
ిస్తున్న	-8.44501
▁స్టీల్	-8.44589
చేత	-8.44701
ుకొని	-8.44933
▁అవి	-8.45047
▁w	-8.45187
▁కాని	-8.45351
ష్ట	-8.45353
▁విధంగా	-8.45527
▁వై	-8.45542
25	-8.45575
▁పచ్చబొట్టు	-8.45711
▁చికిత్స	-8.45785
▁ఆట	-8.45902
▁ఫై	-8.46128
▁చేతి	-8.46243
▁చెల్లించ	-8.46289
మందు	-8.46439
డీ	-8.46717
▁ప్రకారం	-8.46798
▁14	-8.46824
▁జాబితా	-8.469
ుట	-8.4698
18	-8.4703
▁వీ	-8.47308
▁ఖర్చు	-8.48028
▁లె	-8.48182
చె	-8.48368
▁కొరకు	-8.48616
దీ	-8.48656
▁చేసే	-8.48674
▁చూడ	-8.48751
ట్స్	-8.48876
▁U	-8.49058
un	-8.49132
ir	-8.49201
▁నిర్వహించ	-8.49241
80	-8.49498
▁£	-8.49532
▁2017	-8.49602
▁పడ	-8.49652
▁కీ	-8.49653
ిస్తారు	-8.49813
ఇ	-8.49988
వె	-8.50191
ృ	-8.50448
▁సమస్య	-8.50631
▁in	-8.50823
ించే	-8.5093
▁నుంచి	-8.51046
▁దేవుడు	-8.51083
▁చేసి	-8.51152
14	-8.51426
▁ఎందుకు	-8.51455
▁ఆర్	-8.515
▁25	-8.51626
▁h	-8.51694
▁సెక్స్	-8.52117
▁లిమిటెడ్	-8.52195
▁జీవ	-8.52287
లై	-8.5242
us	-8.52441
▁దానిని	-8.52616
▁పద	-8.52729
se	-8.53026
▁డబ్బు	-8.53651
ింపు	-8.53652
డె	-8.53728
▁గుర్తించ	-8.53868
▁వాటి	-8.53913
యర్	-8.53973
▁అందిస్తుంది	-8.54133
▁to	-8.543
▁చెల్లింపు	-8.54379
▁యంత్రం	-8.54586
▁రక్షణ	-8.54754
▁మాట	-8.54819
▁శ	-8.54961
▁ఫి	-8.55036
▁ప్రారంభ	-8.5511
▁భాగాలు	-8.55142
వ్వ	-8.55199
సం	-8.55319
డే	-8.55619
▁జి	-8.55761
▁దీని	-8.55871
▁చా	-8.56022
నూ	-8.56332
lo	-8.56454
రూ	-8.56553
లె	-8.56561
▁నిజంగా	-8.5669
▁దా	-8.5672
▁తదుపరి	-8.56764
ుడి	-8.56981
▁17	-8.56986
▁ఉండవచ్చు	-8.57034
60	-8.57098
▁అలాగే	-8.57214
▁ఏమిటి	-8.57499
▁దయచేసి	-8.57549
▁విలువ	-8.57715
▁చేశారు	-8.58016
▁నియంత్రణ	-8.58202
st	-8.5832
ంట	-8.58415
J	-8.5842
▁మూ	-8.58479
కుండా	-8.58696
▁ఆత్మ	-8.58822
▁టా	-8.58964
▁ముఖ్యమైన	-8.58993
Name	-8.59058
కార	-8.59363
▁పరి	-8.59374
▁విడుదల	-8.59411
▁అందమైన	-8.59622
40	-8.59873
▁ప్లే	-8.60019
ళ్ళ	-8.60075
▁ఉప	-8.60108
op	-8.60136
▁నిర్	-8.60221
▁నె	-8.6029
▁జీవితం	-8.60417
మునకు	-8.60771
ుచు	-8.60816
▁పట్ట	-8.60997
▁చేయు	-8.61115
ించారు	-8.61229
id	-8.61232
ాము	-8.6131
▁కలిసి	-8.61353
▁of	-8.61358
▁బో	-8.61587
రియా	-8.61681
▁ప్రక్రియ	-8.61866
▁చిత్రం	-8.61867
▁ఇం	-8.61917
▁క్రింద	-8.61944
▁తల	-8.62088
▁f	-8.62121
▁నిర్వహణ	-8.62372
▁పరిమాణం	-8.62747
▁మాట్లాడ	-8.62786
▁సరఫరా	-8.62823
▁విషయాలు	-8.62855
▁లార్డ్	-8.6286
▁కోర	-8.63009
తిని	-8.63091
▁జె	-8.63259
▁న్యూ	-8.63388
▁అనేది	-8.63441
▁కోర్సు	-8.63492
▁కంప్యూటర్	-8.63568
రణ	-8.63591
▁దశ	-8.63617
▁కాల్	-8.6371
▁బరువు	-8.63764
ంటే	-8.64012
▁కట్ట	-8.64065
▁ప్రదర్శన	-8.64153
ate	-8.64182
▁ఉన్నారు	-8.64228
▁అందువలన	-8.64282
▁పిల్లల	-8.64437
ాలలో	-8.64602
▁నమూనా	-8.64748
చేయ	-8.6482
ట్ట	-8.64835
త్వం	-8.64855
▁ఊ	-8.64941
▁పూర్తిగా	-8.65013
ళ్ళు	-8.65073
▁దృష్టి	-8.6518
ాలకు	-8.65195
ay	-8.65225
ot	-8.65293
గే	-8.65413
▁వైద్య	-8.6548
న్నా	-8.65527
▁సమాధానం	-8.65917
ంగ	-8.65946
▁హి	-8.65947
co	-8.65973
▁క్యా	-8.66002
జు	-8.66138
▁తేదీ	-8.66139
▁ఏదైనా	-8.66338
▁పాత	-8.66484
▁సంప్రదించండి	-8.66557
▁హో	-8.6658
▁వాడ	-8.66726
▁వెళ్ళ	-8.66785
ాల్లో	-8.66829
]	-8.66861
▁రాజ	-8.66867
▁మోటార్	-8.6723
22	-8.67233
రింగ్	-8.67374
▁తి	-8.67382
క్రమ	-8.67394
▁l	-8.67397
చర్	-8.67461
శ్	-8.67617
▁కోడ్	-8.67708
17	-8.67712
్యం	-8.67757
▁సాంకేతిక	-8.67867
▁ఆహార	-8.68047
▁మానవ	-8.68208
://	-8.68296
▁ఆరోగ్య	-8.68555
▁ఎక్కడ	-8.68562
▁వార్తలు	-8.68666
▁రకం	-8.68729
▁21	-8.68872
▁క్రింది	-8.68937
▁తనిఖీ	-8.68944
▁ఒ	-8.68945
స్థ	-8.69169
▁50	-8.69227
▁చివరి	-8.69231
▁(1	-8.69502
▁గనుక	-8.69547
▁మునుపటి	-8.69567
ట్టి	-8.69576
03	-8.69607
▁రై	-8.69654
▁#	-8.69824
▁డిపాజిట్	-8.69942
99	-8.70041
▁ప్రయాణ	-8.70113
▁లైట్	-8.70378
▁కె	-8.70462
య్	-8.70477
శా	-8.70481
▁తొలగించ	-8.70657
▁ప్రో	-8.70684
05	-8.7072
▁భాగం	-8.70828
▁మరొక	-8.70937
ండు	-8.70947
ిరి	-8.7097
ంచి	-8.71042
▁మరణ	-8.71061
24	-8.71187
▁వచ్చింది	-8.71268
▁100	-8.71404
▁and	-8.71413
▁నో	-8.71449
▁కథ	-8.71494
▁సామర్థ్యం	-8.71553
▁ఖచ్చితంగా	-8.71939
▁అమలు	-8.71976
▁టీ	-8.7214
▁మొ	-8.72143
ుచున్న	-8.72159
ul	-8.72246
పర్	-8.72374
▁నాలుగు	-8.72396
కెట్	-8.72444
▁భ	-8.72447
▁రకాల	-8.72481
ly	-8.72491
వరకు	-8.72551
▁అవ	-8.72587
ter	-8.72621
▁అనే	-8.7302
కరమైన	-8.73197
ఫి	-8.73212
▁ఏర్పాటు	-8.7339
▁తీసుకు	-8.73469
ఫ	-8.7371
▁బ్లాక్	-8.73744
ీకరణ	-8.73895
▁ప్రయాణం	-8.73953
యన్	-8.74078
▁పన్ను	-8.74081
▁ప్రజల	-8.74358
▁200	-8.74474
నప్పుడు	-8.74541
స్టర్	-8.7456
▁గాని	-8.74732
▁యువ	-8.74883
▁వైపు	-8.74921
▁సిరీస్	-8.75062
ణి	-8.75276
▁ఇంటి	-8.75309
▁నీకు	-8.75374
▁టెక్నాలజీ	-8.7539
▁భార్య	-8.75433
భాగ	-8.75624
షా	-8.75689
ut	-8.75891
పే	-8.76017
▁టాప్	-8.76103
li	-8.76207
▁ఆలోచన	-8.7623
▁పాటు	-8.76426
▁సంబంధించిన	-8.76442
▁వెళ్ల	-8.76568
▁క్లిక్	-8.76662
▁కం	-8.76692
▁చేయబడింది	-8.76703
▁కాంతి	-8.76719
ne	-8.76882
▁ప్రశ్న	-8.77089
▁మార్	-8.77604
-1	-8.77759
త్వ	-8.78057
నర్	-8.78184
▁Z	-8.78218
▁స్టా	-8.78241
ation	-8.78284
▁అవకాశం	-8.78293
▁లక్షణాలు	-8.78404
▁నిర్మాణం	-8.78471
రై	-8.78491
ులకు	-8.78498
▁రెండవ	-8.78657
▁సముద్ర	-8.78691
’	-8.78999
నింగ్	-8.79051
▁లోకి	-8.79119
▁ఎల్లప్పుడూ	-8.79171
ma	-8.79226
వలన	-8.79335
38	-8.79339
um	-8.79404
▁అంటే	-8.79408
▁న్యాయ	-8.79414
▁ఎంత	-8.79472
▁కాల	-8.79494
▁సినిమా	-8.79518
04	-8.79657
▁ప్లాస్టిక్	-8.79761
▁విధానం	-8.79766
▁కుడి	-8.79768
▁నమ్మ	-8.79789
▁ఇంటర్నెట్	-8.79898
▁మూల	-8.79953
▁నిర్మించ	-8.79982
▁షా	-8.80073
▁కారు	-8.80113
02	-8.80196
▁రీ	-8.8022
▁లేజర్	-8.80231
▁శరీర	-8.80549
▁గేమ్స్	-8.80596
▁సృష్టించ	-8.80689
ent	-8.80694
▁విషయం	-8.8084
▁వినియోగదారులు	-8.81053
ers	-8.81098
త్తు	-8.81219
▁అమ్మ	-8.81367
37	-8.81603
▁కింద	-8.81667
sh	-8.81791
ధ్య	-8.81861
బ్బ	-8.81897
పీ	-8.81931
▁శిక్షణ	-8.81968
బీ	-8.82055
▁అప్లికేషన్	-8.82175
బుల్	-8.82311
ia	-8.82321
▁పరిశోధన	-8.82647
తాడు	-8.82651
▁పరిశ్రమ	-8.82708
▁సమ	-8.82739
▁తప్ప	-8.82755
▁వెబ్సైట్	-8.82886
▁ఇమెయిల్	-8.82908
▁సమాచారాన్ని	-8.82987
▁2016	-8.83014
23	-8.83025
▁మార	-8.8304
▁అమెరికా	-8.8328
▁కస్టమర్	-8.83316
▁దేశ	-8.83444
▁ఇశ్రాయేలీయుల	-8.83461
▁కారణంగా	-8.83475
▁సై	-8.83528
▁పంపిణీ	-8.83567
▁అవసరమైన	-8.83598
▁పిల్లలు	-8.83627
me	-8.83707
&	-8.83805
కాల	-8.83855
టిక్	-8.84009
ow	-8.8401
డర్	-8.84067
▁క్రెడిట్	-8.8418
▁వెనుక	-8.84349
▁చేసింది	-8.84387
▁నమోదు	-8.84398
▁జో	-8.84409
▁నగరం	-8.84431
▁ఎన్	-8.84455
▁క్యాసినో	-8.8447
os	-8.84583
ినప్పుడు	-8.84584
35	-8.84604
▁పాఠశాల	-8.84652
ాత్మక	-8.84656
he	-8.84665
యున్న	-8.84675
▁సులభంగా	-8.84712
▁Y	-8.84713
▁ప్రస్తుత	-8.84763
▁రవాణా	-8.8487
▁పరికరాలు	-8.84899
నై	-8.85126
▁బాధ	-8.85277
మర్	-8.85318
▁నిన్ను	-8.8537
నున్న	-8.85603
70	-8.85641
ించడం	-8.86015
21	-8.8612
▁యి	-8.86248
▁కుమారుడు	-8.86384
▁వైర్	-8.86399
▁వాని	-8.86399
▁శరీరం	-8.86422
వార	-8.86476
om	-8.86518
▁రక్త	-8.8656
చ్చి	-8.86563
▁బాక్స్	-8.86599
90	-8.86653
తే	-8.86782
ుకో	-8.86829
ీకరించ	-8.8694
la	-8.87059
▁క్రీస్తు	-8.87154
▁ట్ర	-8.87175
▁వివరాలు	-8.87195
▁ధన్యవాదాలు	-8.87228
▁మెటల్	-8.87267
▁తెలియ	-8.87293
▁డే	-8.87304
ang	-8.87368
▁g	-8.8752
06	-8.87544
▁డై	-8.87858
▁చూచి	-8.88026
▁అంతర్జాతీయ	-8.88052
▁ఆర్థిక	-8.88053
ండర్	-8.88155
▁వచ్చిన	-8.8849
▁లీ	-8.88513
లేని	-8.88783
ag	-8.88797
లోనుండి	-8.8884
▁స్త్రీ	-8.88845
▁వార	-8.88972
▁పొందండి	-8.88973
▁ఉపయోగిస్తారు	-8.89084
▁బు	-8.89111
▁సొంత	-8.89172
▁ప్రత్యక్ష	-8.89377
పెట్ట	-8.89461
▁యుండ	-8.89486
08	-8.8961
▁భావ	-8.89639
▁చేయాలి	-8.89695
ex	-8.89705
యందు	-8.89786
▁మోతాదు	-8.89874
▁తయారీ	-8.89912
▁చుట్టూ	-8.90073
▁బాధ్యత	-8.90075
▁లేని	-8.90087
28	-8.90197
▁మనం	-8.90198
శు	-8.90227
▁ఉష్ణోగ్రత	-8.90334
ల్డ్	-8.90487
▁సిస్టమ్	-8.90527
పోయిన	-8.90587
▁అదనపు	-8.9072
▁చూప	-8.90938
em	-8.91008
Z	-8.91139
మన్	-8.91141
సో	-8.91335
▁పొందడానికి	-8.91378
▁సూ	-8.91378
▁వెళ్లి	-8.91401
థి	-8.91524
ఫా	-8.91608
▁అతి	-8.91613
ునట్లు	-8.91651
▁మనిషి	-8.91849
▁అంచనా	-8.91925
▁చిరునామా	-8.92041
▁బల	-8.92067
▁ఉండే	-8.92141
▁తెలుగు	-8.92198
▁జీవిత	-8.92208
▁అనుభవం	-8.92249
▁బీ	-8.92277
గొట్ట	-8.9234
▁మోడల్	-8.92396
▁పైన	-8.92452
▁యే	-8.92526
▁రోజుల	-8.92558
ుదురు	-8.92581
▁వ్యాసం	-8.92722
and	-8.92814
▁సహ	-8.92876
వర	-8.92877
▁నివాస	-8.92925
కై	-8.92928
▁సహా	-8.92951
▁డౌన్	-8.92984
▁ఇచ్చ	-8.93013
33	-8.93315
▁ఫా	-8.93433
▁వేడి	-8.93682
07	-8.93685
ఘ	-8.93719
▁గంటల	-8.93805
ఫీ	-8.93833
▁రాత్రి	-8.9409
de	-8.94212
▁అందు	-8.94264
▁ప్రముఖ	-8.94285
▁ఒక్క	-8.94287
▁XX	-8.94361
ట్రో	-8.94388
డింగ్	-8.94434
▁నిర్ణయించ	-8.94488
▁2013	-8.94637
ుకొన	-8.94655
ఉ	-8.94683
▁జోడించ	-8.94766
▁బార్	-8.94869
▁22	-8.94883
▁ఫోటో	-8.9497
39	-8.94985
▁విద్యుత్	-8.95184
▁తు	-8.95254
యొద్దకు	-8.95463
▁విన	-8.95559
కాలు	-8.95838
▁»	-8.95871
hi	-8.95881
▁టై	-8.95987
వై	-8.9603
▁గేమ్	-8.96074
యైన	-8.96092
▁బిల్	-8.96113
▁తరచుగా	-8.96115
▁తగ్గ	-8.96124
▁అయిన	-8.96288
▁కలిగిన	-8.96346
▁నగర	-8.96357
im	-8.96376
▁ఒకే	-8.96424
▁n	-8.96471
▁పూ	-8.9652
▁కూ	-8.96619
▁తాజా	-8.96624
▁చరిత్ర	-8.96728
కుండ	-8.96745
▁పాత్ర	-8.96759
▁గె	-8.96788
దాని	-8.96822
ద్ధ	-8.96971
▁ప్రకటన	-8.96975
▁పైగా	-8.96975
▁ప్రణాళిక	-8.97139
ong	-8.97163
tr	-8.97174
లెట్	-8.97482
▁బే	-8.97545
▁లైటింగ్	-8.97594
48	-8.97613
▁తగ్గించ	-8.97758
▁ఫ	-8.9778
75	-8.97816
▁దాదాపు	-8.97841
దారు	-8.9791
▁మార్పు	-8.98024
ుకున్న	-8.9803
దన	-8.98108
మైనది	-8.98187
▁పార్టీ	-8.98208
all	-8.98211
▁పెంచ	-8.98294
▁వ్యతిరేకంగా	-8.98352
▁ఉద్యోగ	-8.98419
్యము	-8.98551
ఆర్	-8.98601
34	-8.98626
సింగ్	-8.98672
ab	-8.98806
▁సహజ	-8.98843
బడ్డాయి	-8.98962
రుగు	-8.98972
▁40	-8.99067
▁గత	-8.9908
▁తల్లి	-8.99099
▁నేడు	-8.99253
టై	-8.99255
▁పద్ధతి	-8.99262
▁కుమారులు	-8.99556
▁బ్యాటరీ	-8.99649
▁వేల	-8.99662
వాడ	-8.99697
తులు	-8.99932
09	-9.00063
ఎస్	-9.00179
▁వేయ	-9.00189
▁చిత్ర	-9.00254
▁సే	-9.00275
▁సంబంధం	-9.00374
▁కనుగొన	-9.00451
త్య	-9.00464
▁60	-9.00536
▁ఇప్పటికీ	-9.00539
▁భద్రత	-9.00627
▁బయటకు	-9.0071
▁టో	-9.00762
▁తర	-9.00828
▁క్రా	-9.00913
▁డాలర్	-9.00961
36	-9.00973
దురు	-9.00978
▁మరిన్ని	-9.01002
▁గ్రామ	-9.01128
od	-9.01264
▁లోడ్	-9.01295
నేను	-9.01408
▁ప్రయత్న	-9.01471
▁గొ	-9.01497
▁అందించ	-9.01501
▁కట్టింగ్	-9.01617
ho	-9.01626
▁సమీక్ష	-9.01641
▁ఎంచుకోండి	-9.01649
▁జిల్లా	-9.01705
ంప్	-9.01719
▁23	-9.01822
సన్	-9.01855
న్నీ	-9.01855
▁యో	-9.01916
మ్ము	-9.02027
IN	-9.02041
▁https	-9.02069
ec	-9.02087
▁జరిగింది	-9.02096
▁అడుగు	-9.0216
na	-9.02246
0,000	-9.02522
est	-9.02579
▁సంవత్సరాలు	-9.02593
ాం	-9.02637
▁క్రితం	-9.02686
▁తప్పు	-9.02698
32	-9.02867
ha	-9.02922
▁సాధించ	-9.02998
▁పెట్టుబడి	-9.0312
వ్య	-9.03238
▁కుటుంబ	-9.03239
▁ఆడ	-9.03312
▁వేగం	-9.0336
ించింది	-9.03367
▁ఎప్పుడూ	-9.03383
▁దావీదు	-9.03514
▁కలుగ	-9.03533
▁సులభం	-9.03749
▁పోటీ	-9.03764
▁ప్రస్తుతం	-9.03819
▁అనుమతిస్తుంది	-9.03838
▁గి	-9.03845
▁గ్రా	-9.0388
▁యూనిట్	-9.04003
▁ముఖ్యంగా	-9.04076
బడతాయి	-9.04181
▁చేర్చ	-9.042
▁Ch	-9.04248
చర	-9.04331
▁నెలల	-9.04342
ఱ్ఱ	-9.0444
@	-9.04496
లేక	-9.04531
▁కాసినో	-9.04618
ఈ	-9.04629
భా	-9.04805
▁ఎక్కువగా	-9.04817
▁పీ	-9.04818
▁రూపొందించ	-9.04845
▁ఎయిర్	-9.04931
65	-9.04974
సర్	-9.04991
▁ఇవి	-9.05023
▁ఇశ్రాయేలు	-9.05066
షు	-9.05076
▁Co	-9.05084
▁దూరంగా	-9.0517
వో	-9.05171
▁వలన	-9.05219
Q	-9.05231
▁మంద	-9.0537
టె	-9.05545
ద్య	-9.05552
▁లోపల	-9.05556
▁కాలం	-9.05584
మార్	-9.05605
▁ఐఫోన్	-9.05609
per	-9.05666
▁కవర్	-9.0567
▁పవర్	-9.05687
▁నిర్ధారించ	-9.05731
▁వెంటనే	-9.05808
▁సూచన	-9.05833
▁కావ	-9.05956
చేసి	-9.06001
▁కారణం	-9.06099
ap	-9.06225
ST	-9.06228
▁ఔషధ	-9.0668
ందుకు	-9.06791
▁సరి	-9.06866
▁పొడి	-9.06918
జే	-9.06947
స్తున్న	-9.06947
▁నిజమైన	-9.06989
▁గృహ	-9.07045
▁గాలి	-9.07311
▁గల	-9.07459
▁ఖ	-9.07586
▁చంప	-9.07615
ఐ	-9.07641
దర్శ	-9.07691
ుకునే	-9.07706
భావ	-9.07778
▁శా	-9.0785
▁ఆధునిక	-9.07957
▁ఆధారంగా	-9.07983
▁సేవ్	-9.0814
one	-9.08261
▁క్రమ	-9.08354
▁2015	-9.08416
సర	-9.08526
▁©	-9.0854
హి	-9.08576
▁తిన	-9.08609
దూ	-9.08772
86	-9.08954
▁బ్యా	-9.09023
▁ఉత్తర	-9.09026
▁ప్రపంచంలో	-9.09043
▁వెర్షన్	-9.09297
▁చెంద	-9.0948
55	-9.09486
▁అగ్ని	-9.0954
▁సూచించ	-9.0958
▁ప్రొఫెషనల్	-9.09715
▁కొంత	-9.09813
▁ఏదో	-9.09851
▁స్వంత	-9.09859
తాయి	-9.09984
▁యూదా	-9.09985
▁ఉపయోగం	-9.10029
వలె	-9.10052
▁సుమారు	-9.10278
▁దేశం	-9.10307
www	-9.10371
వలసిన	-9.10415
▁నెట్వర్క్	-9.10418
▁రాష్ట్ర	-9.10427
హు	-9.10592
▁కేబుల్	-9.10644
ess	-9.10673
భవ	-9.10736
ip	-9.10756
రొ	-9.10767
సిన	-9.10776
▁పొడవు	-9.10796
▁పాట	-9.10879
కూడదు	-9.10884
▁దీనిని	-9.1095
ణా	-9.10967
▁స్థానిక	-9.11033
▁ఇస్తుంది	-9.11035
▁Re	-9.11043
▁సమయ	-9.11084
కొన	-9.11132
▁చదవండి	-9.11148
గర్	-9.11166
లపై	-9.11219
47	-9.1128
▁ఇప్పటికే	-9.11363
▁పురుషులు	-9.11478
▁నిల్వ	-9.11509
▁స్థిర	-9.117
యె	-9.11732
▁వెళ్ళి	-9.11749
▁నేర్చ	-9.11889
▁మూడవ	-9.11935
▁పాప	-9.12015
▁దక్షిణ	-9.1203
26	-9.1208
▁కార్డ్	-9.12148
పోయింది	-9.12206
ack	-9.12294
ఫె	-9.12442
గురు	-9.12443
ts	-9.125
29	-9.12588
▁పట్టణ	-9.12589
తీయ	-9.12617
కొని	-9.12639
▁భారీ	-9.12721
▁ఎవరైనా	-9.1275
▁ఉపయోగించడానికి	-9.12795
యొక్క	-9.1306
▁వ్యాపారం	-9.13102
▁2014	-9.13105
ine	-9.13133
వేయ	-9.1318
▁హక్కు	-9.13182
27	-9.1322
67	-9.13234
ry	-9.13278
▁ష	-9.13607
బె	-9.13641
కరణ	-9.13649
▁చేయబడిన	-9.13782
▁చేస్తారు	-9.13805
▁HD	-9.13855
▁ఎం	-9.13924
▁నిర్మాణ	-9.14083
ేషన్	-9.14123
త్రి	-9.14186
▁అవును	-9.14284
ll	-9.14308
▁రుణ	-9.14311
వాద	-9.14334
▁రూపకల్పన	-9.14351
▁ఫైబర్	-9.14464
▁26	-9.14482
▁అందించే	-9.14516
0%	-9.14678
స్తా	-9.14749
-2	-9.14809
▁కొనసాగ	-9.14837
▁బహుశా	-9.14856
▁ఆసక్తి	-9.14874
45	-9.14885
▁బ్రాండ్	-9.14892
▁ఫ్ల	-9.15057
ిస్తూ	-9.1509
ుకొను	-9.15162
▁విమాన	-9.15213
ుకుంటారు	-9.15489
మూ	-9.15681
దని	-9.15694
యల్	-9.1596
▁కేంద్ర	-9.16025
ig	-9.16046
▁బలమైన	-9.16072
▁శ్రీ	-9.16088
▁re	-9.16104
▁ప్రభావం	-9.16379
▁ఒప్ప	-9.16423
మంత	-9.16427
దో	-9.16427
▁ధ	-9.16447
▁మరో	-9.1647
-20	-9.16488
ంబ	-9.16771
▁బ్యాంకు	-9.1678
గ్రా	-9.16823
▁అవుతుంది	-9.16824
శీ	-9.16838
▁పరికరం	-9.16896
▁వయస్సు	-9.16927
ta	-9.16931
31	-9.16955
యాన్	-9.16967
▁తే	-9.17014
▁ఎస్	-9.17049
▁లింక్	-9.17085
ణు	-9.17173
▁ప్రకటించ	-9.17331
▁మహిళలు	-9.17334
age	-9.17367
▁Android	-9.17481
జింగ్	-9.17664
▁స్థానంలో	-9.17701
ించడానికి	-9.17764
▁వ్యాఖ్యలు	-9.17853
42	-9.17862
▁ఫె	-9.17997
ాన	-9.18022
▁28	-9.18042
▁ట్యాంక్	-9.18088
▁తయారీదారు	-9.18096
బ్రా	-9.18216
▁విజయ	-9.1822
జన్	-9.18333
క్షన్	-9.18376
దారులు	-9.18392
▁చీ	-9.18447
ధు	-9.18505
▁ఘన	-9.18591
up	-9.186
▁రోడ్	-9.18715
▁రోజులు	-9.18733
▁విషయ	-9.18785
▁పంచ	-9.19032
▁ఎల్	-9.1912
▁తాను	-9.19185
▁St	-9.19201
▁కనెక్ట్	-9.19211
శి	-9.19223
శాస్త్ర	-9.19231
▁ప్రాజెక్ట్	-9.19314
▁గది	-9.19342
▁సంబంధిత	-9.19389
▁ప్రాథమిక	-9.19572
▁మోషే	-9.19623
di	-9.19657
▁మారింది	-9.19746
ుకుంది	-9.19771
▁చెప్పెను	-9.19794
రూప	-9.19837
▁న్యూస్	-9.19849
▁ఉదాహరణకు	-9.19881
▁ఫ్లో	-9.19889
ధన	-9.20107
ిస్తాయి	-9.20166
సెస్	-9.20248
మంది	-9.20344
ov	-9.2039
AN	-9.20458
▁సర్వర్	-9.20479
వేసి	-9.20487
సారి	-9.2053
▁రేటు	-9.20556
▁అధికార	-9.20587
జన	-9.2066
గ్ర	-9.20743
▁సేకరించ	-9.20778
▁సేవలు	-9.20781
▁బహుళ	-9.20797
▁మళ్ళీ	-9.20816
మీరు	-9.2087
ru	-9.2088
net	-9.20922
▁చర్య	-9.21054
41	-9.2111
▁పరిశుద్ధ	-9.2113
▁ట్రాక్	-9.21169
▁పదార్థం	-9.21235
44	-9.2129
▁చూ	-9.21343
ti	-9.21364
▁శి	-9.2139
▁నిమిషాల	-9.21392
తుల	-9.21468
▁శాఖ	-9.21511
వలెనని	-9.21567
▁స్క్రీన్	-9.21602
▁భారత	-9.21605
▁€	-9.2162
▁వివరణ	-9.21895
▁తెలుపు	-9.21962
▁వేదిక	-9.22085
▁అనుభవ	-9.22161
స్టా	-9.22222
▁తెలుసుకోవ	-9.22301
▁అమ్మాయి	-9.22481
▁వ్రాయ	-9.22497
▁జనుల	-9.22508
▁చట్టం	-9.22513
▁ఎత్తు	-9.22552
▁చూపించ	-9.22595
▁తొ	-9.22604
66	-9.22611
▁కొన	-9.22613
▁జూన్	-9.22642
▁మార్పిడి	-9.22766
▁చేసినప్పుడు	-9.22895
▁దేశాల	-9.22952
▁ముగింపు	-9.22979
వాస	-9.23135
▁జనవరి	-9.23139
తూ	-9.23198
▁పడుతుంది	-9.23201
▁ఐదు	-9.23284
if	-9.23287
▁మరి	-9.23291
పూర్	-9.23312
▁అనగా	-9.23312
▁స్టార్	-9.23417
▁కెమెరా	-9.23513
గలరు	-9.23613
to	-9.23619
ుకోవడానికి	-9.23652
▁మై	-9.23735
▁విద్యా	-9.23783
▁డిజిటల్	-9.23835
▁ప్రామాణిక	-9.23889
ందరు	-9.23927
స్తారు	-9.23932
▁కూడ	-9.23937
▁విస్తరించ	-9.23943
▁షీట్	-9.23954
▁తె	-9.24018
▁యంత్ర	-9.24053
▁కావలసిన	-9.24055
▁కోల్పో	-9.24102
▁హే	-9.24206
▁కుమారుడైన	-9.24278
▁కార్డు	-9.2431
43	-9.24358
దారుల	-9.24371
▁ఆర్డర్	-9.24409
▁కాం	-9.24433
▁పక్ష	-9.24488
46	-9.24501
▁ప్రయోగ	-9.24524
▁నివసించ	-9.24537
▁పట్టణము	-9.24615
▁కుమార్తె	-9.24645
*	-9.24824
▁అతనిని	-9.24907
▁పర	-9.24944
ant	-9.24975
oc	-9.25041
▁27	-9.25094
▁(20	-9.25103
లూ	-9.25277
ob	-9.25313
గ్గ	-9.25356
▁దేశము	-9.25416
▁విని	-9.25427
▁నిర్దిష్ట	-9.25462
లిన్	-9.25586
▁కంటెంట్	-9.25626
▁మొదలైనవి	-9.25726
▁యెరూషలేము	-9.25792
▁చెక్క	-9.25841
▁29	-9.25941
▁అల్యూమినియం	-9.25955
▁మొక్క	-9.25967
ార్థ	-9.25998
▁ఒత్తిడి	-9.2601
▁మార్చి	-9.26155
▁ఎక్స్	-9.26158
88	-9.26213
ER	-9.26232
oo	-9.26265
స్థాన	-9.2629
డై	-9.26293
▁ఆఫర్	-9.26308
lu	-9.26377
▁క్రి	-9.26475
ుకోవడం	-9.2653
▁సమస్యలు	-9.26605
ష్య	-9.26665
▁తీసికొని	-9.26683
49	-9.26771
ందరి	-9.26802
▁మమ్మల్ని	-9.26838
▁వాడు	-9.26861
వంతు	-9.26943
నియా	-9.26954
ac	-9.27051
ak	-9.27059
▁ఛా	-9.27138
▁చిత్రాలు	-9.2716
▁హౌస్	-9.27186
▁స్పీకర్	-9.27226
ంచు	-9.27279
▁స్వాగతం	-9.27282
▁కుటుంబం	-9.27353
క్సి	-9.27388
▁చూస్తున్న	-9.27464
▁భారతదేశం	-9.27505
▁బహు	-9.27522
▁ఆధారపడి	-9.27628
▁సబ్	-9.27741
▁గుర్తింపు	-9.27845
▁500	-9.27912
▁భూ	-9.27921
▁పరిస్థితి	-9.27952
▁గుండె	-9.27983
▁గోడ	-9.27988
▁కాకుండా	-9.28032
▁అయి	-9.28098
▁ప్రశ్నలు	-9.28247
▁ప్రైవేట్	-9.28289
యెడల	-9.28355
▁వారితో	-9.28358
▁భావించ	-9.28383
▁అండ్	-9.28406
▁మీడియా	-9.28407
▁స్ప	-9.28424
లెక్	-9.28452
▁క్లా	-9.28503
ొక	-9.28573
56	-9.28621
▁v	-9.28639
ాల్సిన	-9.28642
▁అనుకూల	-9.28763
▁ఉద్దేశ	-9.28769
▁సైన్	-9.28789
నొ	-9.28847
▁గాయ	-9.28852
▁శోధన	-9.28853
ాయ	-9.28854
ON	-9.28854
="5	-9.28919
▁అంగీకరించ	-9.2892
టరీ	-9.28931
▁చర్చి	-9.28944
బే	-9.28944
▁ఏడు	-9.28991
▁వ్యాధి	-9.28992
గలిగ	-9.28998
ించెను	-9.29003
వారికి	-9.29076
▁పర్వత	-9.29081
▁In	-9.29164
శాల	-9.29188
▁పరిచయం	-9.29224
సై	-9.29269
▁°	-9.29276
▁మనస్సు	-9.29365
లైన	-9.29496
స్కో	-9.29508
▁ధర్మ	-9.29549
▁విశ్వవిద్యాలయం	-9.29702
▁Q	-9.29732
69	-9.29736
▁పలు	-9.29745
▁హామీ	-9.29812
▁షె	-9.29814
▁అలా	-9.29818
▁నేరుగా	-9.2982
no	-9.30052
▁స్పై	-9.30122
లాగు	-9.30127
కూ	-9.30142
టివ్	-9.30273
77	-9.30416
▁ప్రవక్త	-9.30456
▁ఉన్నత	-9.30488
98	-9.30573
▁పవిత్ర	-9.30622
▁ఫల	-9.30622
ారని	-9.3063
▁@	-9.30837
▁స్టెరాయిడ్	-9.30852
▁నీరు	-9.30871
▁సహాయపడుతుంది	-9.30877
▁వేగంగా	-9.31063
ep	-9.31077
▁నిబంధనలు	-9.31078
▁స్పా	-9.31118
▁—	-9.31162
▁ప్రి	-9.31224
▁త్వరగా	-9.31257
రక్ష	-9.31266
సూ	-9.3127
ell	-9.3131
▁you	-9.31319
▁సౌ	-9.31368
పడి	-9.31392
పరు	-9.31411
▁మౌ	-9.31412
▁పాల	-9.31558
ian	-9.3156
▁పొందిన	-9.31574
ph	-9.316
▁ఒప్పందం	-9.31605
▁An	-9.3165
▁చట్ట	-9.31687
ాంత	-9.31748
ల్లా	-9.31751
▁కావచ్చు	-9.31759
ుటకై	-9.31792
▁ఉపయోగించవచ్చు	-9.31865
▁ప్రయోజనాలు	-9.31888
▁చాట్	-9.32026
ie	-9.32121
▁వస్తుంది	-9.3222
ఫర్	-9.32224
▁మానసిక	-9.32305
▁స్థానం	-9.3244
▁మిగిలిన	-9.32489
ke	-9.32552
టెన్	-9.32573
ight	-9.32599
▁పెరుగుదల	-9.32602
▁PC	-9.32715
మరింత	-9.32716
68	-9.32739
▁చెప్పిన	-9.32748
▁ఖచ్చితమైన	-9.32774
▁చెందిన	-9.32777
64	-9.32788
Comment	-9.32833
▁అవసర	-9.32861
ఫై	-9.32914
ట్రా	-9.32969
ఢ	-9.33044
▁జరుగ	-9.33067
▁వదిలి	-9.33071
ect	-9.3309
ard	-9.33173
▁ప్రాంతంలో	-9.33204
వర్త	-9.33363
▁సెప్టెంబర్	-9.33364
ెదను	-9.33365
▁ఉపరితల	-9.33601
ుచున్నాను	-9.33613
▁స్టేషన్	-9.33622
▁పుట్ట	-9.33628
ies	-9.33713
నుబట్టి	-9.33812
▁ప్రసిద్ధ	-9.33898
▁ఉండటం	-9.33931
▁ముక్క	-9.33963
▁ఇదే	-9.34009
▁సాధన	-9.34031
▁కార్యక్రమం	-9.34076
▁పౌడర్	-9.34076
ండింగ్	-9.34083
▁సొ	-9.3412
▁ఇలా	-9.34146
▁సంపాదించ	-9.34216
ద్దు	-9.34225
▁విద్య	-9.34255
▁జాన్	-9.34346
▁మిమ్మల్ని	-9.34374
▁మహా	-9.34412
▁వికీపీడియా	-9.34434
▁మత	-9.34474
95	-9.34522
▁UK	-9.34536
▁సర్	-9.34585
der	-9.34721
72	-9.34771
వలసి	-9.34796
▁వచ్చే	-9.348
▁ప్రభుత్వ	-9.34814
▁అధికారిక	-9.34838
▁నష్టం	-9.34853
▁ప్రార్థన	-9.34855
▁అందించడానికి	-9.34908
▁సూపర్	-9.34941
▁కర్	-9.34982
టెడ్	-9.35158
▁జట్టు	-9.35206
ంగి	-9.35262
ET	-9.35264
▁డ్రైవ్	-9.35284
▁ప్రమాణ	-9.35326
ver	-9.35409
▁సాగ	-9.3545
▁సంస్థలు	-9.35489
ీయుల	-9.35517
▁చేస్తున్న	-9.35549
స్తాయి	-9.35631
▁చర్చ	-9.35765
▁Google	-9.35819
దగిన	-9.35826
▁ఆధార	-9.35848
▁వల్ల	-9.3591
▁గుర్తు	-9.35919
▁యుద్ధం	-9.35919
పరి	-9.35957
ంటు	-9.36008
▁ప్రమాద	-9.36091
▁జీ	-9.3617
▁ఆటో	-9.36402
ందా	-9.36415
▁భోజన	-9.36427
▁గౌరవ	-9.36427
▁సెల్	-9.36447
▁అట్లాంటిక్	-9.36488
▁అసలు	-9.36526
▁గమనించ	-9.36612
▁వార్	-9.36613
▁జుట్టు	-9.36673
▁Windows	-9.36732
vi	-9.3674
▁Ma	-9.36754
▁ఆశ్చర్య	-9.36794
▁యూరోప్	-9.36802
▁for	-9.36875
▁బాల్	-9.3689
▁సంఘ	-9.36909
▁అమెరికన్	-9.36916
▁పది	-9.36939
▁వస్త్ర	-9.37103
▁పదం	-9.37141
▁ప్రోగ్రామ్	-9.37223
▁తీసుకో	-9.3727
ive	-9.37353
▁ఒకసారి	-9.37373
▁బోర్డు	-9.37409
యొద్ద	-9.37449
స్టె	-9.37462
min	-9.37583
▁ప్రొ	-9.37595
▁సమాన	-9.3778
ite	-9.37804
▁స్లాట్లు	-9.37828
▁దగ్గర	-9.37834
▁ఫైల్	-9.37857
▁ఎలక్ట్రిక్	-9.37902
▁ఏప్రిల్	-9.37902
▁నియమ	-9.3796
జ్ఞా	-9.38002
▁సలహా	-9.38078
85	-9.38157
▁లెక్క	-9.38174
లోనికి	-9.38237
▁ఆసియా	-9.38306
▁స్థితి	-9.38336
▁దరఖాస్తు	-9.3846
▁గర్భ	-9.38506
-3	-9.38519
▁దేవుడైన	-9.38545
▁పున	-9.38592
▁విధ	-9.38605
▁ఆస్తి	-9.38687
▁అనుమతించ	-9.38764
▁పనితీరు	-9.38772
ద్ర	-9.38831
ప్రపంచవ్యాప్తంగా	-9.38834
▁చిట్కాలు	-9.3886
▁వివరించ	-9.38879
▁నిజానికి	-9.38904
iz	-9.38908
▁నవంబర్	-9.3896
▁31	-9.39223
▁బదిలీ	-9.39399
▁k	-9.39429
▁బ్యాంక్	-9.39591
bo	-9.39652
▁రేట్	-9.39668
ుకోండి	-9.39672
ాలతో	-9.39749
▁ఉపయోగించే	-9.39871
▁~	-9.39933
▁డీ	-9.39947
▁మార్కెటింగ్	-9.39966
▁మిలియన్	-9.40009
▁పంపు	-9.40068
▁పారిశ్రామిక	-9.40092
▁మహిళల	-9.40096
RE	-9.40144
ఫు	-9.40167
▁ఎక్	-9.40268
ించబడ	-9.40422
▁ఫో	-9.4046
▁ప్రభువు	-9.40514
▁వేరు	-9.40551
క్షణ	-9.40563
▁బుక్	-9.40574
▁కళ	-9.40575
▁ఇన్స్టాల్	-9.406
▁ఉత్పత్తుల	-9.407
pl	-9.40924
చేయు	-9.40932
▁నిబంధన	-9.40957
▁బర్	-9.40973
▁ఖాళీ	-9.40982
97	-9.41002
63	-9.41025
షణ	-9.41071
ub	-9.41084
ిస్తున్నారు	-9.41097
+	-9.41134
▁వినియోగదారు	-9.41161
▁స్టెయిన్లెస్	-9.41173
▁గరిష్ట	-9.41174
▁సహాయపడ	-9.41183
▁షో	-9.41236
▁డెలివరీ	-9.41237
▁సిఫార్సు	-9.41237
58	-9.41273
జం	-9.41295
▁పైప్	-9.41357
▁ఫిబ్రవరి	-9.4143
▁సెంటర్	-9.41432
▁విస్తృత	-9.41466
▁వ్యా	-9.41484
▁ప్యాకేజీ	-9.41494
▁క్రొత్త	-9.41622
▁యీ	-9.41646
▁చేత	-9.41654
యిన్	-9.41654
▁పచ్చబొట్లు	-9.41686
▁వృత్తి	-9.41691
కార్	-9.41743
100	-9.41765
=&	-9.41773
▁దయ	-9.41853
▁వోల్టేజ్	-9.41879
▁స్ట	-9.41905
ce	-9.4193
51	-9.41954
▁వాహన	-9.41965
▁ప్రదర్శించ	-9.42066
▁సంబంధ	-9.42083
▁సమూహ	-9.42178
▁బ్రష్	-9.4221
AR	-9.42236
▁జాతీయ	-9.4224
▁విభాగం	-9.42334
▁వర్గం	-9.42356
▁చూస	-9.42363
▁కనీసం	-9.42374
▁వాణిజ్య	-9.42461
▁పార్	-9.42511
▁చెప్పి	-9.42538
▁ప్రయోజనం	-9.42544
▁ముందుకు	-9.42615
హం	-9.42618
▁PVC	-9.42656
71	-9.42693
▁ప్లా	-9.42757
▁పరికర	-9.42813
మొ	-9.42823
ించాడు	-9.4295
▁ఉదాహరణ	-9.43005
చన	-9.43184
▁లేవు	-9.43232
కాలము	-9.43279
▁అక్షర	-9.43315
▁నిద్ర	-9.43327
AT	-9.43339
లాండ్	-9.43374
▁కప్ప	-9.43419
▁షే	-9.43445
ast	-9.4347
▁రియల్	-9.43477
వాని	-9.43505
దె	-9.43512
▁చెడు	-9.43526
▁విజయం	-9.4356
ిస్తా	-9.4357
ంటారు	-9.43752
▁చున్న	-9.43801
▁భాగస్వామ్యం	-9.43926
ల్యూ	-9.44056
▁మహిళ	-9.44116
▁ఎటువంటి	-9.4416
qu	-9.44184
వెన్	-9.442
▁అక్టోబర్	-9.44226
▁హోటల్	-9.44229
▁ఆశ	-9.44259
▁అదనంగా	-9.44292
▁జరిగిన	-9.44344
IC	-9.44369
▁సర్దుబాటు	-9.44424
▁నిలిచి	-9.44424
▁టెక్	-9.44442
▁సార్లు	-9.44444
▁be	-9.44464
ment	-9.4447
హో	-9.44485
▁జన	-9.44559
▁తీవ్రమైన	-9.44568
▁ఆహారం	-9.44613
ca	-9.44651
▁వ్యాఖ్య	-9.4473
▁వారం	-9.44741
▁తెచ్చ	-9.44747
▁అనువాద	-9.44796
పోవ	-9.4484
▁తెర	-9.44845
▁చూడటానికి	-9.44849
▁x	-9.44853
ండా	-9.44926
▁ఆపరేషన్	-9.44954
art	-9.45063
5%	-9.45081
▁ప్రాంతం	-9.45107
▁is	-9.45108
=	-9.45151
▁పాయింట్	-9.452
▁సమాజ	-9.45229
▁సర్వ	-9.45236
▁నిలువ	-9.45243
▁by	-9.45379
mo	-9.45433
▁డబుల్	-9.45629
లోనే	-9.45669
▁మిల్	-9.45669
▁చివర	-9.45692
ff	-9.45895
ice	-9.45905
▁100%	-9.45953
▁డిగ్రీ	-9.46022
▁వలె	-9.46102
▁అందుకు	-9.46296
96	-9.46346
▁సమాధాన	-9.4642
▁బదులుగా	-9.46493
▁పరిస్థితుల	-9.46502
త్తి	-9.46546
▁నగదు	-9.46631
▁దారి	-9.46713
▁st	-9.46724
కపోతే	-9.46729
దల	-9.46762
వద్దు	-9.46862
▁దీన్ని	-9.46904
▁ప్రాంతాల	-9.46935
57	-9.46962
▁అతిపెద్ద	-9.46966
▁సామాజిక	-9.46966
▁క్ష	-9.47029
ew	-9.47036
▁వర్	-9.47048
▁వర్క్	-9.47067
▁సంవత్సరము	-9.47068
▁తగినంత	-9.4707
పొ	-9.47092
▁వెల్డింగ్	-9.47109
రువు	-9.47132
▁స్వా	-9.47149
▁అర్ధ	-9.47188
లిక్	-9.47209
ash	-9.47212
▁మూలం	-9.47217
ంటె	-9.47229
▁గుడ్	-9.47276
▁లేక	-9.47289
▁వ్యక్తులు	-9.47296
ఠ	-9.47323
▁on	-9.47345
tion	-9.47374
▁జనాభా	-9.47374
▁లక్ష్యం	-9.47378
52	-9.47395
▁చేయబడుతుంది	-9.47475
▁పొందవచ్చు	-9.47482
లేరు	-9.47578
▁వ్యక్తుల	-9.4761
▁స్వీకరించ	-9.47627
▁వ్యతిరేక	-9.47627
▁తగిన	-9.47681
83	-9.47684
PS	-9.47756
భ్య	-9.47767
▁అమ్మకానికి	-9.47784
▁అనుబంధ	-9.47802
▁ముఖ	-9.47928
AS	-9.47995
▁విదేశీ	-9.47996
▁ఇష్టపడ	-9.48014
ింపబడ	-9.48189
▁ఫీచర్	-9.48195
▁విమానం	-9.48209
ర్యా	-9.48218
▁http	-9.48227
▁ఎవరి	-9.48273
▁అనుమతి	-9.48291
▁విచారణ	-9.48331
ీయ	-9.48345
▁ప్రవేశ	-9.48361
▁చెప్పు	-9.48381
ుకోవచ్చు	-9.48407
▁ఏది	-9.48408
▁de	-9.48442
▁=	-9.4849
▁అభిప్రాయ	-9.48518
ide	-9.48558
▁హాక్	-9.48633
తుంది	-9.48734
▁మనకు	-9.48816
▁రూప	-9.48845
బర్	-9.48864
▁కేసు	-9.4888
SS	-9.48953
▁అధ్యయనం	-9.48972
ge	-9.49029
▁ప్యా	-9.49035
తున్న	-9.4904
▁తెలిసిన	-9.49104
87	-9.49147
క్రియ	-9.49151
▁శైలి	-9.49162
▁యంత్రాలు	-9.49241
పింగ్	-9.49256
▁GPS	-9.4929
tt	-9.49342
చ్చు	-9.49357
చిన	-9.49377
▁తీర్చ	-9.49381
53	-9.49513
▁ఆకాశ	-9.4958
▁ప్రభుత్వం	-9.49637
▁కనిపిస్తుంది	-9.49715
▁వ్యవసాయ	-9.49784
కారం	-9.49824
▁డిసెంబర్	-9.49924
▁ఇటీవల	-9.49925
నందు	-9.4993
▁కాపీరైట్	-9.49994
▁దానికి	-9.50004
▁No	-9.50018
జో	-9.50066
ఎన్	-9.50067
▁పర్యావరణ	-9.50134
▁80	-9.50188
89	-9.50288
్యత	-9.50299
ప్పుడ	-9.50325
ిస్తే	-9.50376
ేది	-9.50403
59	-9.5042
▁చేస్తా	-9.50421
▁వనరుల	-9.50424
▁అతనితో	-9.50494
91	-9.50513
▁సాధనం	-9.50542
▁పరిష్కారం	-9.50578
▁రకమైన	-9.50625
500	-9.50644
▁సరళ	-9.50717
▁సంయుక్త	-9.5072
▁సిద్ధంగా	-9.50734
▁దీర్ఘ	-9.50739
▁ఆడియో	-9.50768
▁కష్టం	-9.51027
▁స్కా	-9.5104
▁‘	-9.51043
sk	-9.51057
ల్యా	-9.51129
వడం	-9.51129
ai	-9.51131
▁కనబడ	-9.51149
▁బయట	-9.51157
▁వీలు	-9.5128
రాయి	-9.51311
▁చక్రం	-9.51369
▁మర	-9.51378
ఛ	-9.51477
▁చేయగల	-9.51489
▁అయినప్పటికీ	-9.51556
▁అనుసరించ	-9.51632
▁ఎలక్ట్రానిక్	-9.51756
;&	-9.51771
▁వీరి	-9.51806
మీదికి	-9.51815
దినము	-9.5188
టెక్	-9.51897
▁పుస్తకం	-9.51915
▁తెలియజేయ	-9.51921
▁దేవ	-9.51925
▁మొదట	-9.51958
▁Telugu	-9.51969
లెస్	-9.51995
డైన	-9.52004
▁చూసిన	-9.52053
▁కరెన్సీ	-9.52112
▁పాపము	-9.52145
▁ప్రసార	-9.52173
▁ఇచ్చిన	-9.52226
ప్పటికీ	-9.52333
▁డ్రైవర్	-9.52338
▁ఉపయోగ	-9.52353
▁రహస్య	-9.52398
▁తీర్పు	-9.52398
▁డ్రా	-9.52407
▁ఉపయోగించడం	-9.52435
▁సన్	-9.52502
▁నిజ	-9.52589
వారిని	-9.52615
▁జరుగుతుంది	-9.52791
▁సగటు	-9.52829
▁కాలేదు	-9.52945
ొక్క	-9.52965
▁Vi	-9.52967
▁ఇతరులు	-9.53012
పోర్ట్	-9.53089
స్తే	-9.53135
▁పిల్ల	-9.53237
▁హాట్	-9.53284
▁కుమారుల	-9.53299
ud	-9.53318
▁ప్రత్యామ్నాయ	-9.53332
▁మనము	-9.53428
కారము	-9.53434
ఫిక్	-9.53457
▁జెట్	-9.53504
థా	-9.53571
▁బూ	-9.53599
▁మిమ్మును	-9.53609
▁చక్ర	-9.53617
▁కొవ్వు	-9.53623
ఏ	-9.53671
▁కనుక	-9.53689
▁శక్తివంతమైన	-9.53708
▁రక్షించ	-9.53751
▁మెటీరియల్	-9.53839
▁స్వీయ	-9.53868
ుతాయి	-9.539
▁నష్ట	-9.53945
ist	-9.53988
pr	-9.54025
▁వాటిలో	-9.54039
OR	-9.5405
గొ	-9.54087
▁షూ	-9.5409
ah	-9.54133
ఒక	-9.54155
ప్తి	-9.54204
▁బై	-9.54278
▁am	-9.54292
▁బేరింగ్	-9.54307
▁విషయాల	-9.54323
▁ఆజ్ఞ	-9.5437
94	-9.54389
▁ఆనందం	-9.54392
▁అక్వేరియం	-9.54422
▁బటన్	-9.54455
రేట్	-9.54464
చూ	-9.54473
▁సంతోష	-9.54477
▁నిర్వహించడానికి	-9.54482
▁తలుపు	-9.54497
గీ	-9.54515
▁దూరం	-9.5453
▁జత	-9.54544
▁ఫలితాలు	-9.54598
▁సంఖ్యలు	-9.5461
0.1	-9.54679
టూ	-9.54686
ంగు	-9.54777
▁రచయిత	-9.54934
▁ప్రయత్నించండి	-9.54966
▁ప్రాజెక్టు	-9.55007
▁35	-9.5508
▁వేచి	-9.55117
పద	-9.55208
▁ఏమీ	-9.55244
200	-9.55316
▁సృష్టించడానికి	-9.55386
ల్లి	-9.55408
pe	-9.55414
▁నివేదిక	-9.55449
దర	-9.55516
▁రచన	-9.55608
62	-9.55677
▁పర్	-9.55714
▁బలం	-9.55737
▁రంగ	-9.55829
ఎం	-9.55879
ft	-9.55881
▁ఏకైక	-9.55894
▁అంతర్గత	-9.55967
▁అటువంటి	-9.55967
రాన్	-9.55974
ప్రె	-9.56036
▁యాక్సెస్	-9.56041
▁తెలియదు	-9.56157
కొరకు	-9.56252
బెట్ట	-9.56298
▁ట్రా	-9.56333
యోగ	-9.5635
ill	-9.56416
▁అన్న	-9.5648
తె	-9.56521
▁దినముల	-9.56532
▁రీఫ్	-9.5659
▁తీసి	-9.56608
▁...]	-9.56618
స్తూ	-9.56627
సము	-9.56776
ber	-9.56792
▁ఫ్రేమ్	-9.56861
▁అంశం	-9.56936
76	-9.56973
▁బంగారు	-9.57013
క్యూ	-9.57103
▁32	-9.57105
▁పగ	-9.5725
▁భద్రతా	-9.57372
▁90	-9.57473
our	-9.5749
▁లక్ష్య	-9.57557
RO	-9.57624
▁ఆధారిత	-9.57647
▁చదువు	-9.57673
పాఠ	-9.57682
▁CO	-9.57825
▁సమాచార	-9.57826
▁స్టికర్లు	-9.57838
▁తాము	-9.5784
▁కార్య	-9.57857
చొప్పున	-9.57914
▁రోజువారీ	-9.57914
▁సందర్భంలో	-9.57918
ుతూ	-9.57967
▁ప్రవేశించ	-9.57983
▁పడి	-9.57985
బడు	-9.58028
వృ	-9.58185
▁విడి	-9.5822
▁ఏర్పడ	-9.58245
▁సూచిక	-9.58293
▁CNC	-9.58293
▁పాలి	-9.58302
▁పట్టు	-9.58303
▁క్ర	-9.58311
▁విండో	-9.58314
▁రికార్డు	-9.58368
తృ	-9.5847
92	-9.58596
▁అనువర్తనం	-9.58606
ity	-9.58625
▁పొందుటకు	-9.58636
▁స్టాక్	-9.58638
tra	-9.58649
▁చూసారు	-9.58664
▁భాగాల	-9.58689
man	-9.58692
▁రాయ	-9.58749
▁పనిచేస్తుంది	-9.58749
ust	-9.58784
▁ఓడ	-9.588
▁మిస్	-9.58801
▁యూ	-9.58805
pcs	-9.58836
▁పదార్థాలు	-9.58927
కర్త	-9.5894
▁జీవితంలో	-9.58953
▁పోలి	-9.58962
▁టాగ్లు	-9.5898
కంటె	-9.59036
నట్లు	-9.5911
▁అచ్చు	-9.5914
்	-9.59207
▁విద్యార్థులు	-9.59219
ev	-9.59279
▁ప్లేట్	-9.59313
end	-9.59402
▁అభిమాన	-9.59409
▁అవసరాలు	-9.59426
▁పత్రిక	-9.5946
▁ఉపయోగించండి	-9.59531
▁ప్రత్యేకంగా	-9.59533
▁ఉపకరణాలు	-9.59576
శ్చ	-9.59606
▁2020	-9.59606
▁కొద్దిగా	-9.59621
kg	-9.59637
▁ప్రతిదీ	-9.59651
తాను	-9.59693
▁ఆలోచించ	-9.59743
▁ఆగస్టు	-9.59746
▁జూలై	-9.59764
▁హార్డ్	-9.59792
les	-9.59794
కల్ప	-9.59853
▁గ్రహ	-9.59861
▁గూర్చి	-9.59882
▁భయ	-9.59919
▁వేసి	-9.59962
▁కొండ	-9.59963
▁అర్హత	-9.59976
54	-9.59982
ుతోంది	-9.59993
▁దీనికి	-9.60057
▁దిగువ	-9.60126
▁వెడల్పు	-9.60131
▁The	-9.60156
▁పరిమిత	-9.60167
౦	-9.60208
▁తద్వారా	-9.60213
వాహ	-9.60241
జీవ	-9.60252
▁ఆలోచనలు	-9.60326
▁మందిరము	-9.60347
▁లైంగిక	-9.60363
▁సర్వీస్	-9.60364
▁ప్రత్యుత్తరం	-9.6044
▁శ్	-9.60477
▁కొల	-9.60483
▁వంట	-9.6051
able	-9.6054
▁అవగాహన	-9.60596
ind	-9.60643
ni	-9.60647
ఫో	-9.60677
▁కనిపించ	-9.60753
▁సరఫరాదారు	-9.60799
▁సామగ్రి	-9.60829
▁గ్రంథ	-9.6083
we	-9.60843
తనం	-9.60863
ంజ	-9.60908
▁వర్ణ	-9.60928
mp	-9.60939
AC	-9.60946
▁హార్మోన్	-9.60985
▁నిర్ణయ	-9.60987
▁భయపడ	-9.60998
▁టాటూ	-9.61006
▁మనుష్యుల	-9.61063
ఇది	-9.61093
ప్పటి	-9.61131
▁అనుగుణంగా	-9.61141
▁జిఎస్టి	-9.61141
▁శాంతి	-9.61147
▁ఆయనను	-9.6117
▁వినియోగదారుల	-9.61171
▁పరిధి	-9.61226
OS	-9.61263
▁నేల	-9.61274
▁కష్ట	-9.61335
కూడ	-9.61343
▁నింగ్బో	-9.61456
▁మ్యాచ్	-9.61475
చ్ఛ	-9.61489
▁పొర	-9.61563
▁చార్	-9.61585
▁ఫ్ర	-9.61586
▁డాక్టర్	-9.61633
▁అద్భుత	-9.61671
▁2011	-9.61674
▁పోర్ట్	-9.6174
▁రుచి	-9.61799
▁మార్పులు	-9.61843
ణం	-9.61857
▁ముద్ర	-9.619
▁దుస్తులు	-9.61905
▁భాగంగా	-9.61909
▁నల్ల	-9.61919
▁1000	-9.6192
61	-9.61965
▁భావన	-9.61973
74	-9.62058
▁చెప్పాడు	-9.62065
▁వినియోగదారులకు	-9.62074
▁ప్రవర్తన	-9.6209
ందో	-9.6212
▁ఓపెన్	-9.62162
శో	-9.62173
▁సురక్షిత	-9.62178
చో	-9.6218
పార్	-9.62194
పాటు	-9.62203
▁జన్మ	-9.62317
▁ఎన్న	-9.6233
▁హార్	-9.62372
▁స్మార్ట్	-9.62395
▁లూ	-9.62512
ms	-9.62514
▁ఫోటోలు	-9.62527
out	-9.62596
▁నియమించ	-9.62616
▁బైబిల్	-9.62636
▁ట్యూబ్	-9.62638
▁భయం	-9.62655
▁పట్టిక	-9.62659
▁సంగీతం	-9.62759
▁పర్యవేక్షణ	-9.6283
▁ఆలయ	-9.62845
నైనను	-9.62845
73	-9.62868
▁ప్రభావితం	-9.62889
▁దేశంలో	-9.62896
iv	-9.62973
‍	-9.63033
▁డేవిడ్	-9.63034
▁కాపీ	-9.63092
▁విశ్రాంతి	-9.63113
▁2012	-9.63188
పరచు	-9.63248
▁తీసుకున్న	-9.63398
▁జ్ఞాపక	-9.63432
▁ఓర్	-9.63484
▁అత్యధిక	-9.63512
▁ప్రదేశం	-9.63515
బెర్	-9.63519
▁చూడవచ్చు	-9.63535
▁నిరోధక	-9.6371
ve	-9.63734
▁ప్రారంభం	-9.63883
▁ఉచితంగా	-9.63938
▁పాస్	-9.63942
▁బృందం	-9.63942
▁36	-9.63969
శాస్త్రం	-9.63988
▁పురుషుల	-9.64044
▁గైడ్	-9.64074
కాలం	-9.64078
▁ఆనంద	-9.64101
▁రివ్యూ	-9.64154
▁వరుస	-9.64156
▁బొ	-9.64199
ండెను	-9.64226
2018	-9.64249
ిస్తాడు	-9.64253
}	-9.64315
78	-9.64315
రాజు	-9.64337
po	-9.64366
▁సిటీ	-9.64373
ిస్తాము	-9.64387
▁మాట్లాడుతూ	-9.64415
und	-9.64448
▁షిప్పింగ్	-9.64476
▁గిటార్	-9.64489
పోయెను	-9.64578
ాయెను	-9.64598
▁రష్యన్	-9.64638
▁వివాహం	-9.64672
▁దాన్ని	-9.64675
స్థా	-9.64714
▁బ్లూ	-9.64741
ఖా	-9.64749
9"	-9.64839
{	-9.64962
వార్	-9.65007
రియన్	-9.6504
▁ప్రజా	-9.65042
▁నేర	-9.65049
cr	-9.65074
▁కింది	-9.651
▁సంప్రదాయ	-9.65124
▁వాతావరణం	-9.65164
▁క్రమంలో	-9.65217
▁శుభ్రం	-9.65249
SA	-9.65266
బై	-9.65304
క్షి	-9.65316
▁స్పష్టంగా	-9.65457
▁కొట్ట	-9.65485
▁ఎంచ	-9.65511
▁క్రియ	-9.65524
▁రౌలెట్	-9.65532
చా	-9.65564
క్టర్	-9.65647
ైతే	-9.6566
లేదని	-9.65681
▁సంస్థాపన	-9.65715
▁తూర్పు	-9.65776
▁ఇంట్లో	-9.65785
▁రద్దు	-9.65788
ట్లయితే	-9.65848
▁దినమున	-9.65922
ితే	-9.65944
▁ప్యాకింగ్	-9.65967
▁తెరవ	-9.65995
▁తరగతి	-9.66022
టైల్	-9.66026
▁సంఘటన	-9.66134
గానే	-9.66176
pa	-9.66177
▁ముఖ్య	-9.66245
▁వాల్	-9.66259
▁ప్రయోజనాల	-9.66306
res	-9.66375
▁స్థాపించ	-9.66474
▁సంబంధించి	-9.66488
▁విశ్లేషణ	-9.66515
93	-9.66528
నైన	-9.66573
వైపు	-9.66671
▁దో	-9.66704
▁మాస్టర్	-9.66707
ర్చ	-9.66716
▁నమ్మకం	-9.66729
▁సంరక్షణ	-9.66763
ినయెడల	-9.66838
ug	-9.66931
ore	-9.67056
▁కొన్నిసార్లు	-9.67094
▁వ్యాయామ	-9.67094
▁టేబుల్	-9.67095
▁అసాధారణ	-9.67116
▁ఉన్నా	-9.67129
MA	-9.67359
▁కట్	-9.67445
▁మగ	-9.67491
▁సంపూర్ణ	-9.67509
▁ఎరుపు	-9.67513
▁సిద్ధ	-9.67523
మాన్	-9.67531
▁కనుగొనేందుకు	-9.67567
nc	-9.67618
▁ప్లస్	-9.67678
▁శాశ్వత	-9.67759
▁సమీక్షలు	-9.67767
▁గాక	-9.67813
భి	-9.67852
▁వెండి	-9.67881
బడ్డ	-9.68035
▁దిన	-9.68109
ప్రా	-9.68171
▁శాతం	-9.68186
81	-9.68201
జ్ఞ	-9.68207
▁నిర్వహ	-9.6826
బద్ధ	-9.68262
బోర్డ్	-9.68293
▁శిక్ష	-9.68336
▁నుండ	-9.6839
io	-9.68482
▁పార్క్	-9.68511
▁ఎంపికలు	-9.68516
▁వస్తువుల	-9.6855
యున్నది	-9.6862
▁నివారించ	-9.68687
▁చేయబడ	-9.68731
▁యజమాను	-9.68765
▁ఊహించ	-9.68788
1.5	-9.68801
▁ఈలాగు	-9.68837
▁ముఖం	-9.68906
▁దేవుడ	-9.68911
నీయ	-9.68967
▁ఆందోళన	-9.69018
▁సంభవించ	-9.69027
టిన్	-9.69051
ెంట్	-9.69098
5"	-9.6911
లేదా	-9.69149
▁విన్న	-9.69157
▁సత్య	-9.69198
▁ప్రాసెసింగ్	-9.69357
▁పాలసీ	-9.69392
పరిచ	-9.69422
స్టో	-9.69433
▁సెలవు	-9.69445
జేయ	-9.69469
▁సంకేత	-9.69528
▁ఆనందించండి	-9.69584
da	-9.69663
▁నీతి	-9.69679
▁ప్రదేశాల	-9.6969
ik	-9.69701
ణము	-9.69775
▁అద్దె	-9.69783
▁బేస్	-9.69817
▁సీజన్	-9.69826
82	-9.69864
▁వాల్వ్	-9.699
PE	-9.69906
▁దేవత	-9.69916
▁ప్రమాదం	-9.69922
mg	-9.69928
0.0	-9.70036
ణ్	-9.70071
జిక్	-9.70097
▁వివర	-9.70119
▁ప్యాకేజింగ్	-9.70208
▁ఫంక్షన్	-9.70209
టికి	-9.70237
▁ట్రాన్స్	-9.70253
ంటా	-9.70275
go	-9.70333
▁జనులు	-9.70376
▁ఎంతమంది	-9.70405
▁నవీకరణ	-9.70466
▁సందర్శించండి	-9.70492
▁వర్తించ	-9.70498
▁పనిచేయ	-9.70533
మవుతుంది	-9.70535
▁పోయి	-9.70576
CA	-9.70613
▁నిత్య	-9.70634
▁ముఖ్యం	-9.70691
▁చెల్ల	-9.70707
పట్ట	-9.70739
▁పద్ధతులు	-9.70745
PA	-9.70805
▁ఓర్ఫెక్	-9.70809
$	-9.70817
NA	-9.70857
▁సృష్టి	-9.70961
▁గంట	-9.70985
og	-9.71007
▁పేర్కొన్న	-9.71068
పొంద	-9.71099
▁(3	-9.71202
▁ప్యానెల్	-9.7124
▁క్లయింట్	-9.71326
▁ముందుగా	-9.71341
▁హెచ్	-9.71377
▁హైడ్రాలిక్	-9.71413
▁లేచి	-9.71447
▁తప్పించ	-9.71465
▁మార్గాలు	-9.71475
▁ఇవ్వాలని	-9.71495
▁బ్లాగ్	-9.71554
వాటి	-9.71569
▁ఇటువంటి	-9.71586
▁ఉక్కు	-9.71594
▁జాగ్రత్తగా	-9.71603
AL	-9.7162
AM	-9.71681
ml	-9.71722
▁అడ్డ	-9.71797
▁సహాయ	-9.71879
▁సేవలను	-9.71907
rt	-9.71969
▁కాలంలో	-9.71972
US	-9.72055
▁సమస్త	-9.721
cc	-9.72144
MP	-9.72146
▁విశ్వసనీయ	-9.72195
▁బాహ్య	-9.72196
q	-9.72209
▁ప్రీ	-9.72247
▁కారణ	-9.72273
ందని	-9.72304
▁ఇంధన	-9.72315
దర్	-9.72347
▁పదాలు	-9.72432
▁వేసవి	-9.72458
▁ఓవర్	-9.72468
▁చెక్	-9.72512
▁మీరే	-9.72541
▁యూజర్	-9.72575
▁బట్టి	-9.72627
▁కండరాల	-9.72634
▁భర్తీ	-9.72674
▁లైఫ్	-9.72726
వంటి	-9.72738
EN	-9.728
▁సింగిల్	-9.72808
▁వంశ	-9.72815
మెన్	-9.72867
▁హోం	-9.72914
79	-9.72996
▁హీరో	-9.73044
org	-9.73055
▁గోప్యతా	-9.73058
▁పిలుస్తారు	-9.73072
పోయి	-9.73154
▁De	-9.73182
▁×	-9.73199
▁విభజించ	-9.73247
▁నూనె	-9.7325
▁పితరుల	-9.7325
▁చర్మం	-9.7326
EC	-9.73348
▁అభిప్రాయాలు	-9.73361
చేసెను	-9.73362
▁సూర్య	-9.73372
▁Home	-9.73376
▁ఐగుప్తు	-9.73423
▁వీడియోలు	-9.73478
▁తీస	-9.73479
▁ఫోర్	-9.7355
av	-9.73614
sa	-9.73642
ుకుంటుంది	-9.73655
సెల్	-9.7366
▁నూతన	-9.73689
లొ	-9.73745
act	-9.73774
▁సాధ్య	-9.73826
▁దిశ	-9.73858
fi	-9.73901
▁మరల	-9.73914
DE	-9.73923
▁వడ్డీ	-9.73955
వింగ్	-9.73967
▁వందల	-9.74007
▁ఫ్యాషన్	-9.74043
రౌ	-9.74046
▁పూర్వ	-9.74067
ib	-9.7408
▁వీరు	-9.74224
84	-9.74245
▁పైపు	-9.74267
ుడైన	-9.74297
▁ప్రధానంగా	-9.74428
▁చేసా	-9.74436
ya	-9.74484
▁ఉంటారు	-9.74534
ran	-9.7455
fe	-9.7457
▁ఎవరూ	-9.74579
▁హృదయ	-9.74581
▁ఉంటా	-9.74598
▁Sp	-9.74607
▁వారాల	-9.74686
గ్రహ	-9.747
▁నిండి	-9.74707
▁హెడ్	-9.74725
▁సగం	-9.74774
▁సిద్ధం	-9.74814
▁సిబ్బంది	-9.74846
▁వాటర్	-9.74881
▁స్థల	-9.74924
టార్	-9.74925
▁ప్రొఫైల్	-9.74936
▁యొక	-9.74978
▁నిపుణుల	-9.75055
▁తెల్ల	-9.75067
▁గ్రహించ	-9.75096
6"	-9.75103
▁సమీప	-9.75112
▁పాల్	-9.75201
▁విశ్వాసం	-9.75236
వర్గ	-9.75295
▁సమర్పించ	-9.75298
▁భవనం	-9.75298
▁ఉన్నాను	-9.753
ుచున్నది	-9.75311
▁ఫలితంగా	-9.75391
ఫే	-9.75394
వ్యక్త	-9.75404
▁జల	-9.75421
▁అనుకూలంగా	-9.75453
▁మోడ్	-9.75461
▁మరణం	-9.75464
ka	-9.7554
▁జర్మనీ	-9.75565
▁పరిపూర్ణ	-9.75565
▁జనము	-9.75608
ుకుంటా	-9.75677
TE	-9.75723
▁లావాదేవీ	-9.75746
TS	-9.75783
▁కోరిక	-9.75873
▁కలిపి	-9.75937
▁చేతులు	-9.75956
ందున	-9.76007
▁ఇతరుల	-9.76023
▁బాగు	-9.76061
▁పౌర	-9.76104
▁ట్రేడింగ్	-9.76206
▁చేతుల	-9.7621
▁ఎంటర్	-9.76257
▁ఉండదు	-9.7626
▁కమిటీ	-9.76291
▁రోలర్	-9.763
▁కళా	-9.76312
▁తక్షణ	-9.76394
▁జ్ఞానం	-9.76445
▁వేర్	-9.76456
yl	-9.7651
▁Ar	-9.76572
ూరు	-9.76705
▁సభ్యులు	-9.76719
▁2010	-9.76746
వైన	-9.7675
▁వాక్య	-9.76761
▁చదవ	-9.76828
పత్ర	-9.76968
▁యుద్ధ	-9.76983
▁యెడల	-9.77028
▁స్థలం	-9.77053
▁మంచిది	-9.77092
▁పరిగణించ	-9.77204
శారు	-9.77208
▁కౌ	-9.77287
▁రాజకీయ	-9.77295
▁ఇదిగో	-9.77353
▁సరిగ్గా	-9.77387
▁దృశ్య	-9.77571
▁అంటారు	-9.77574
వాన్	-9.77633
▁దూర	-9.77646
▁ఇక	-9.77657
CC	-9.77668
▁ఫ్లై	-9.7768
పతి	-9.77702
ముఖ	-9.7772
▁\	-9.77733
▁45	-9.77738
▁అనుకూలమైన	-9.7774
▁యెహోవాకు	-9.77753
▁రసాయన	-9.77754
▁అమర్చ	-9.77777
ళి	-9.77783
ost	-9.77789
▁300	-9.77816
br	-9.77819
ాంశ	-9.779
హె	-9.77901
సైడ్	-9.77953
ల్చ	-9.78013
▁పుట్టిన	-9.78061
▁సౌలు	-9.78078
▁ప్లేయర్	-9.78098
▁శబ్ద	-9.78124
ps	-9.78291
▁లోపలి	-9.78371
▁త్రాగ	-9.78406
▁దీప	-9.78422
▁కన్ను	-9.78443
ES	-9.78591
▁జూ	-9.78681
▁గ్లాస్	-9.78684
▁కొనసాగించ	-9.78824
మరియు	-9.78853
PP	-9.78862
▁వీక్షణ	-9.78899
▁కస్టమ్	-9.7896
గె	-9.79071
▁పుర	-9.79081
▁అమ్మకాలు	-9.79093
న్నె	-9.79138
▁గ్రే	-9.79149
▁అల్ల	-9.79258
▁IP	-9.79334
ీకృత	-9.79357
హే	-9.79397
7"	-9.79426
▁యునైటెడ్	-9.79428
ator	-9.79456
▁హాని	-9.79504
▁కంట్రోలర్	-9.79522
▁సూచిస్తుంది	-9.79522
ure	-9.79538
ుకున్నారు	-9.79569
కృష్ణ	-9.79616
▁పసుపు	-9.79617
మైంది	-9.7969
▁సేకరణ	-9.79735
చ్చిన	-9.79784
నెట్	-9.79801
▁సరిహద్దు	-9.79804
▁ఆటోమేటిక్	-9.79898
▁సభ్య	-9.79915
రేషన్	-9.7997
▁చేస్తాము	-9.79986
▁సాక్ష్య	-9.79996
▁ఫార్	-9.80025
▁భర్త	-9.80046
▁కొలత	-9.802
▁మాటలాడ	-9.80219
▁కాపాడ	-9.80307
▁అందరి	-9.80311
▁con	-9.80336
eb	-9.80482
▁స్పష్టమైన	-9.80537
▁రేటింగ్	-9.80581
▁వాయిస్	-9.806
▁ఆయిల్	-9.80608
▁విషయంలో	-9.80627
IT	-9.80629
va	-9.80631
▁మోస	-9.80632
వ్యా	-9.80662
▁అవుట్	-9.80674
▁ప్రజలకు	-9.80692
▁ఎగుమతి	-9.80749
▁కోర్	-9.80803
ినట్లు	-9.80922
ల్లె	-9.80956
▁మస్క్	-9.80976
2019	-9.81003
▁మైనింగ్	-9.8116
ox	-9.81194
▁గ్రూప్	-9.81226
▁App	-9.81235
ట్యూ	-9.81262
EL	-9.8128
▁వైట్	-9.81316
▁కత్తి	-9.81318
టేషన్	-9.81349
GB	-9.81383
cm	-9.81433
▁వివరాల	-9.81517
మింగ్	-9.81541
▁పార	-9.81541
ok	-9.81563
▁pro	-9.81572
బ్యా	-9.81579
పిల్ల	-9.81624
రంగ	-9.81681
▁అవకాశ	-9.81735
▁డ్యూ	-9.81826
దేశము	-9.81831
బడును	-9.81836
▁ఇజ్రాయెల్	-9.81896
▁వేర్వేరు	-9.81896
▁ట్రాకర్	-9.81931
▁వస్తువులు	-9.81951
▁వెళ్	-9.8199
▁చిత్రాల	-9.82003
▁బ్యాగ్	-9.82152
▁తరలించ	-9.82166
లమీద	-9.82182
▁సందర్శించిన	-9.82184
ail	-9.82213
▁జరిగి	-9.82262
▁అమెచ్యూర్	-9.82281
▁పరిష్కరించ	-9.82309
▁సైన్స్	-9.82335
ష్ఠ	-9.82374
▁సమూహం	-9.82414
చేసిన	-9.82489
▁నిధుల	-9.82492
▁టైప్	-9.8254
స్టు	-9.82558
▁నామము	-9.82571
▁కంట్రోల్	-9.82571
▁సైనిక	-9.82613
▁గట్టి	-9.82646
▁సాధ్యం	-9.82656
▁బొమ్మ	-9.82701
▁తీర	-9.82703
-10	-9.8273
▁కోట్	-9.82735
▁తెగ	-9.82744
కుంటే	-9.82824
▁గ్రీ	-9.82826
▁సంతోషంగా	-9.82874
▁ప్రచురించ	-9.82908
▁వినియోగం	-9.82945
bl	-9.82964
▁నై	-9.82982
gr	-9.8299
han	-9.83002
CH	-9.83016
▁EA	-9.83051
▁నున్న	-9.83057
చుండగా	-9.83061
▁ఉద్యోగం	-9.8307
▁ప్రయత్నించ	-9.83156
పూ	-9.83162
▁మార్గము	-9.83262
▁విభిన్న	-9.83348
▁బ్యాక్	-9.83372
▁టెక్స్ట్	-9.83438
ాల్సి	-9.83561
స్టిక్	-9.83597
▁ఇంగ్లీష్	-9.83641
▁రైల్వే	-9.83642
▁సాఫ్ట్	-9.83642
పుడు	-9.8365
▁Name	-9.83793
చీ	-9.83835
▁cryptocurrency	-9.83837
▁జంట	-9.83838
ట్రిక్	-9.83859
రెన్	-9.83869
యున్నాడు	-9.83916
గలదు	-9.83917
▁వెలుపల	-9.83937
▁పూజ	-9.83942
▁150	-9.83959
▁ఎంతో	-9.83976
ధ్వ	-9.84024
▁భాగస్వామి	-9.84033
▁శ్రమ	-9.84034
▁ద్రవ	-9.84051
తట్టు	-9.8409
జూ	-9.84135
▁సమీపంలో	-9.84138
▁కంపెనీలు	-9.84141
▁చర్యలు	-9.84151
▁2009	-9.84177
ba	-9.84225
▁Pro	-9.8424
▁ట్రిప్	-9.84268
▁Po	-9.8435
ద్రవ్య	-9.84373
▁ఇటలీ	-9.84428
▁చల్లని	-9.8443
▁కంటైనర్	-9.84525
▁ఉన్నప్పటికీ	-9.84538
▁ఎన్నిక	-9.84582
hu	-9.84596
▁పరికరాల	-9.84609
▁కనిపించే	-9.84624
▁సురక్షితంగా	-9.8472
▁లాక్	-9.84759
▁వచ్చినప్పుడు	-9.84767
▁కళాశాల	-9.84832
ach	-9.84871
▁నిర్వాహక	-9.84923
0.2	-9.84948
ాంతర	-9.85019
▁దగ్గరగా	-9.8504
▁అమ్మాయిలు	-9.85115
▁చేస్తాయి	-9.85135
▁ప్రవాహ	-9.85204
▁వాక్కు	-9.85228
▁కట్టుబడి	-9.85231
▁సర్వే	-9.85238
▁అందువల్ల	-9.85318
▁బహుమతి	-9.85319
▁US	-9.85328
▁2000	-9.8533
ంటుంది	-9.85342
▁వాస్తవ	-9.85376
gu	-9.85419
ుకుని	-9.85478
▁మీటర్ల	-9.85571
▁నేన	-9.85584
▁బైక్	-9.85588
కూర్చ	-9.85612
▁su	-9.85633
LE	-9.85713
IS	-9.85721
unt	-9.85733
రోజు	-9.85751
▁కన్నా	-9.85792
డుగు	-9.8583
నుగూర్చి	-9.85895
బడెను	-9.85939
డెన్	-9.86004
▁జారీ	-9.86057
ish	-9.86085
▁దూత	-9.86103
▁ఉనికి	-9.86126
▁అవకాశాలు	-9.86152
▁సువార్త	-9.86217
యింగ్	-9.86238
▁కోట	-9.86267
▁సహోదరుల	-9.86267
▁లేకపోతే	-9.8637
▁అనువర్తనాల	-9.86478
▁నది	-9.86536
▁మహిమ	-9.86555
▁దీనిలో	-9.86579
▁సమావేశం	-9.86589
చిత్ర	-9.86602
▁రేడియో	-9.86619
▁పెరుగుతున్న	-9.86623
లియా	-9.86657
▁పర్సనల్	-9.8672
▁అనుభూతి	-9.8672
▁బలహీన	-9.86729
of	-9.86796
mb	-9.86817
ou	-9.86835
▁పొందుతారు	-9.86849
ాలనుకుంటున్న	-9.86891
▁జాగ్రత్త	-9.86902
▁దుకాణ	-9.86922
tor	-9.86925
▁సరిపో	-9.86928
▁చేసుకున్న	-9.86931
▁ఇష్టం	-9.86946
▁So	-9.87067
▁నేటి	-9.87078
ins	-9.87139
▁ఉండండి	-9.87259
▁ఉన్నాము	-9.87287
స్తోంది	-9.87312
▁ప్రీమియం	-9.87327
her	-9.87387
▁సందర్శించ	-9.87415
▁మంచు	-9.87422
▁ఇసుక	-9.87432
▁స్థలము	-9.87435
▁TV	-9.87449
▁మెరుగు	-9.875
SP	-9.87553
▁మెరుగుపరచ	-9.87582
▁33	-9.87591
ట్లుగా	-9.87606
▁అపవిత్ర	-9.87632
▁అధికారం	-9.87706
▁నింప	-9.8773
▁టచ్	-9.87748
▁నిరంతర	-9.87805
hd	-9.87807
▁రబ్బరు	-9.87835
▁USD	-9.87843
▁చెట్టు	-9.87856
CO	-9.87867
▁నిలబడ	-9.87887
▁సర్టిఫికేషన్	-9.87937
మ్యూ	-9.87951
▁చేసుకో	-9.87983
▁కటింగ్	-9.87994
లైన్	-9.88011
▁2008	-9.88071
RA	-9.8814
▁ఉంచండి	-9.88196
▁పురాతన	-9.88244
▁యూరోపియన్	-9.88244
int	-9.88285
mi	-9.88325
▁కేంద్రం	-9.88338
▁స్ట్రిప్	-9.88347
▁ఇంజిన్	-9.88347
షీ	-9.88358
▁పట్టుకొని	-9.8848
ాలంటే	-9.88524
▁ప్రజాదరణ	-9.88552
▁ప్రాసెస్	-9.88597
జెన్	-9.88638
▁మాడ్యూల్	-9.88655
▁మెయిల్	-9.88737
ర్పణ	-9.88758
▁దెబ్బ	-9.88758
క్సీ	-9.88778
ster	-9.88786
▁బీమా	-9.8882
▁కీర్తి	-9.88829
▁లేదో	-9.88832
పరంగా	-9.88873
str	-9.88877
▁స్టిక్కర్	-9.88965
ుకోవాలి	-9.88987
▁పొందు	-9.89028
ః	-9.89058
▁షాపింగ్	-9.8909
ass	-9.89162
▁బిడ్డ	-9.89184
ME	-9.89186
▁బోధ	-9.89218
▁ఎదురు	-9.89218
log	-9.89288
▁PAR	-9.89313
సంవత్సర	-9.89375
▁మొదలు	-9.89415
▁గంటలు	-9.89419
▁విస్తృతంగా	-9.89421
▁దొంగ	-9.89499
▁ఉండి	-9.89516
▁DC	-9.89547
పరమైన	-9.89548
▁అంగ	-9.89568
▁బహిరంగ	-9.89584
▁గడ్డ	-9.89644
స్తంభ	-9.89688
ప్రాంత	-9.89711
▁జరగ	-9.89721
ain	-9.89759
eg	-9.89826
▁హీ	-9.89843
ల్లీ	-9.89849
ue	-9.89887
▁నమూనాలు	-9.8989
▁కనెక్షన్	-9.89896
▁కార్బన్	-9.89898
▁తెలుసుకోవడానికి	-9.89972
▁లేఖ	-9.89983
▁కనుగొన్న	-9.90004
కాయ	-9.90068
▁యింటి	-9.9007
ame	-9.9009
–	-9.90109
▁ఉంచడానికి	-9.9012
▁పాయింట్లు	-9.90136
షిప్	-9.90146
▁స్టోర్	-9.90222
▁Mo	-9.90268
▁విద్యార్థుల	-9.90298
▁స్వతంత్ర	-9.90314
▁ఇన్పుట్	-9.90316
▁స్వయంచాలక	-9.90367
▁అభి	-9.90398
ఫ్రె	-9.90447
▁సృష్టించబడింది	-9.90447
▁తేడా	-9.90501
▁పర్యటన	-9.90523
▁ఆపై	-9.90577
TO	-9.90684
▁సామర్థ్యాన్ని	-9.9071
▁అంగుళాల	-9.90733
▁వడపోత	-9.90733
▁ఇంక	-9.90794
▁ఇందులో	-9.90843
▁ప్రెస్	-9.90885
ీయులు	-9.90905
▁అమరిక	-9.90943
▁ప్రత్యేకమైన	-9.90964
▁మాటలు	-9.91028
▁CE	-9.91074
ుచున్నారు	-9.91083
గూర్చి	-9.91094
▁గుర్తుంచుకో	-9.91131
▁జపనీస్	-9.91153
పోర్	-9.91273
▁ఆమోద	-9.91343
▁చైనీస్	-9.91365
▁మైక్రో	-9.91365
▁అంతటా	-9.91416
▁తెలిసి	-9.9146
▁యెదుట	-9.91465
▁అత్యుత్తమ	-9.9147
▁ఆర్కైవ్	-9.9147
▁అనుకుంటున్నారా	-9.9147
▁దాచ	-9.91482
▁దీర్ఘకాల	-9.91615
▁ఇంటికి	-9.91667
-5	-9.91717
▁కొందరు	-9.91749
hen	-9.91779
▁బ్రౌజర్	-9.91788
▁స్థిరమైన	-9.91858
ులైన	-9.91864
▁ప్రోత్సహించ	-9.9191
▁పోరాడ	-9.91965
▁వ్యవధి	-9.92
▁ఈవెంట్	-9.92109
▁చౌక	-9.92166
▁తొలగ	-9.92175
▁గుణ	-9.92178
భ్ర	-9.92249
▁స్టీ	-9.92253
▁ఆదాయం	-9.92256
▁పైకి	-9.92262
▁యాకోబు	-9.9232
▁రంగంలో	-9.92329
port	-9.92429
▁చంద్ర	-9.92454
బడే	-9.92508
▁కాయిల్	-9.92533
▁మధ్యలో	-9.92569
▁రోజుల్లో	-9.92644
బంధ	-9.92652
▁ఆమోదించ	-9.92699
▁తెలుసుకోండి	-9.92748
▁పగడపు	-9.92748
▁ఫండ్	-9.92805
▁క్రైస్తవ	-9.92855
▁నొప్పి	-9.92859
▁విశ్వవిద్యాలయ	-9.92861
▁sp	-9.92862
కృత	-9.92866
ిస్తోంది	-9.92956
▁వహించ	-9.92958
▁అభ్యర్థన	-9.92962
sp	-9.92986
ుచున్నాడు	-9.93068
ంటిని	-9.93072
▁స్విచ్	-9.93086
ుతున్నారు	-9.93106
▁అడుగుల	-9.93125
▁అందించడం	-9.93165
▁అవుట్పుట్	-9.93177
▁నేనే	-9.93325
▁దేశములో	-9.93338
▁సంప్రదించ	-9.93366
▁XXX	-9.93386
▁కళ్ళు	-9.93435
▁బంధ	-9.93457
ari	-9.93515
▁మార్గదర్శక	-9.93608
▁సూక్ష్మ	-9.93608
▁స్లాట్	-9.93739
నీవు	-9.93769
ేటప్పుడు	-9.93817
▁తక్కువగా	-9.93825
▁నోటి	-9.93832
▁బలి	-9.93845
▁పూత	-9.93901
▁బోధించ	-9.9391
▁గమనిక	-9.93934
2.5	-9.93939
▁ద్రాక్ష	-9.94041
▁సమగ్ర	-9.9409
▁లోతు	-9.9414
▁టోకు	-9.94146
▁వాల్యూమ్	-9.9415
▁లక్షణాలను	-9.94186
▁గదా	-9.94209
▁so	-9.9422
▁చుట్టు	-9.94231
▁క్లో	-9.94239
▁ముడి	-9.9425
▁ప్రారంభంలో	-9.94267
▁నిరంతరం	-9.94292
▁ఫాస్ట్	-9.94315
థ్	-9.94346
ాయని	-9.94355
▁క్రిస్మస్	-9.94368
▁ఆదర్శ	-9.94372
▁లోతైన	-9.94481
▁నెట్	-9.94501
ాడని	-9.94585
▁నిమిత్తము	-9.94585
▁మెదడు	-9.94696
బడలేదు	-9.9476
▁ఫ్రీ	-9.94793
▁నిపుణులు	-9.94877
▁రాజైన	-9.9489
▁స్వాధీన	-9.94913
▁పరీక్షించ	-9.94969
▁వ్రాస	-9.94976
ord	-9.94982
uk	-9.9502
ారో	-9.95079
▁అనువదించ	-9.95133
ుదును	-9.95422
▁సంతృప్తి	-9.95462
▁ప్రకృతి	-9.95462
▁సంగతి	-9.95472
az	-9.95476
▁సింహ	-9.95536
ంబర్	-9.95575
▁కీలక	-9.95581
▁పునః	-9.95581
పత్తి	-9.95608
ace	-9.95641
▁ప్రపంచంలోని	-9.95681
▁ఆపిల్	-9.95687
▁చల్ల	-9.95763
ave	-9.95791
▁హ్యాండ్	-9.95843
▁జ్ఞాన	-9.95847
SI	-9.95876
ునని	-9.95886
ear	-9.95894
▁[...]	-9.95903
▁పొడిగింపు	-9.95903
▁with	-9.95904
▁తోట	-9.95958
▁చనిపో	-9.95991
har	-9.96048
▁మందులు	-9.9605
▁నిష్	-9.96105
ప్రదేశ	-9.96118
▁సౌర	-9.9615
▁చేయాలని	-9.96155
▁అప్పటి	-9.96171
▁Tr	-9.9624
▁పరిశీలించ	-9.96243
ాత్మ	-9.96255
▁అనుసంధాన	-9.96347
▁స్కూల్	-9.96347
ion	-9.96398
▁ఇంత	-9.96417
▁Ro	-9.9647
▁చూచు	-9.96525
▁జనరల్	-9.96571
▁·	-9.96654
▁పెరిగింది	-9.9668
▁2007	-9.96691
color	-9.9671
▁నలుపు	-9.96719
▁పరిశీల	-9.96786
SM	-9.9679
▁పేటెంట్	-9.96792
▁శ్రద్ధ	-9.96792
▁ఫ్లాట్	-9.96793
bu	-9.96835
మగు	-9.96868
▁చేసుకోవచ్చు	-9.96882
▁వర్ష	-9.96884
▁పబ్లిక్	-9.96904
▁స్పేస్	-9.96906
ార్ధ	-9.96912
▁రోగుల	-9.97009
▁హృదయము	-9.97046
▁పెన్	-9.97068
▁కార్డులు	-9.97096
▁ఎడమ	-9.97125
▁ఫార్మాట్	-9.97127
▁గ్యాస్	-9.97132
▁బ్రేక్	-9.97142
ick	-9.97159
▁నాటికి	-9.97171
▁కార్యక్రమాలు	-9.9721
▁కమ్యూనికేషన్	-9.97239
▁వస్తాయి	-9.973
▁పనులు	-9.97301
ెదరు	-9.97306
▁దేశాలు	-9.97317
▁అన్నారు	-9.97324
▁బ్లా	-9.97345
▁తీసుకోవడం	-9.97376
▁కృప	-9.97401
▁రోల్	-9.97413
▁అంశాలు	-9.97546
▁స్నేహితులు	-9.97563
▁దిగ	-9.97569
▁విశ్వాస	-9.97577
▁ప్రకాశ	-9.97577
▁మోసం	-9.97581
▁జంతువులు	-9.97665
▁జరుప	-9.97668
▁నియంత్రించ	-9.97676
▁ఆంధ్ర	-9.97688
▁భౌతిక	-9.97801
ుకున్నాడు	-9.97872
▁ప్లాన్	-9.97891
నందున	-9.97891
▁నీలం	-9.97897
▁సెయింట్	-9.98026
▁సహకారం	-9.98079
▁దేని	-9.98116
▁థీమ్	-9.98139
▁వసంత	-9.98145
▁రాష్ట్రం	-9.98161
▁మ్యాప్	-9.98162
lic	-9.98202
▁పారిపో	-9.9834
▁దైవ	-9.98385
నేట్	-9.9849
▁ప్రాణము	-9.98503
▁ఉండటానికి	-9.98537
వెల్	-9.98561
▁పరిమితి	-9.98566
▁విలువైన	-9.98579
▁దుష్ప్రభావాలు	-9.98589
▁ప్రతికూల	-9.98594
▁క్రీడలు	-9.98612
పోతుంది	-9.9865
▁విఫల	-9.98711
▁యుద్ధము	-9.98804
ase	-9.98807
▁మాన్యువల్	-9.9882
▁రూపొందించబడింది	-9.9882
▁చేస్తున్నారు	-9.98831
▁ఎప్పుడు	-9.98833
▁సమావేశ	-9.98854
ాలనుకుంటే	-9.98895
▁ఎంచుకున్న	-9.98901
▁విభాగాలు	-9.99078
ఫ్రా	-9.99184
▁కలప	-9.99247
▁రకాలు	-9.99357
కాలంలో	-9.99362
▁ఆసక్తికరమైన	-9.99429
▁సంతాన	-9.99452
▁మహ	-9.99483
▁నాశనం	-9.99517
ంటాయి	-9.99523
▁వాస్తవానికి	-9.99597
▁స్వర	-9.99663
బ్రే	-9.9971
▁సంవత్సరంలో	-9.99735
▁జపాన్	-9.99737
eng	-9.9983
0.5	-9.99833
▁క్వా	-9.99883
▁తెలి	-9.99894
మూల	-9.99896
▁సవరించ	-9.99934
▁టాబ్లెట్	-9.99965
యున్నారు	-10.0002
▁మిశ్రమ	-10.0007
▁డిమాండ్	-10.0008
▁ఛానల్	-10.0009
▁దాటి	-10.0009
▁Me	-10.0017
MC	-10.0018
▁పథక	-10.0021
▁చేస్తే	-10.0023
▁సంగీత	-10.0025
▁ఇష్ట	-10.0029
▁సౌకర్యం	-10.0032
లైట్	-10.0034
▁టూల్స్	-10.0038
▁ప్రకటనలు	-10.0042
▁యెహో	-10.0062
▁ధ్వని	-10.0062
▁ఆవిష్కరణ	-10.0066
▁పోరాట	-10.007
▁శత్రువుల	-10.0076
▁వార్షిక	-10.0077
(_	-10.0092
పూర్వక	-10.0095
▁అనుకుంటున్నాను	-10.0101
▁పరిష్కార	-10.0103
▁బిట్	-10.0104
▁నిజం	-10.0112
▁సంభావ్య	-10.0112
ుడిగా	-10.0113
▁ఇచ్చింది	-10.0124
▁డేటాబేస్	-10.0124
ki	-10.0125
▁పంపిన	-10.0131
▁అలంకరణ	-10.0136
▁కుమారుడ	-10.0138
app	-10.0142
▁భీమా	-10.0147
పోవడం	-10.0153
▁అయినా	-10.0154
యగు	-10.0156
▁చదరపు	-10.0159
▁లాగిన్	-10.0159
▁రాగి	-10.0168
▁మెరుగైన	-10.0171
▁శిష్యుల	-10.0171
▁మంత్రి	-10.0177
▁వ్యూ	-10.0182
▁అధునాతన	-10.0194
▁ప్రతిబింబ	-10.0194
▁OEM	-10.0194
క్కడ	-10.0196
hat	-10.0199
▁కార్యాలయం	-10.0201
▁ప్రాణ	-10.0202
▁పార్ట్	-10.0203
▁ఫలితాలను	-10.0205
▁వాడుక	-10.0211
▁కొని	-10.0212
▁పంట	-10.0212
▁వాతావరణ	-10.0212
▁ఆండ్రాయిడ్	-10.0218
▁వివాహ	-10.022
▁కఠినమైన	-10.0221
▁చేసికొన	-10.0224
వేశ	-10.0227
▁నటించ	-10.0228
buzz	-10.0229
▁బలిపీఠము	-10.0229
▁సిద్ధాంత	-10.0231
▁టూల్	-10.0236
▁నిరోధించ	-10.0236
▁తీసుకొని	-10.0238
▁రౌండ్	-10.0241
day	-10.0242
▁చెర	-10.0253
▁అసెంబ్లీ	-10.0253
▁USB	-10.0275
▁విండోస్	-10.0285
శ్వ	-10.029
▁తిరుగు	-10.0297
▁పోవు	-10.0302
2.0	-10.0303
▁వృద్ధి	-10.0313
▁స్క్	-10.0315
ark	-10.0319
▁నియంత్ర	-10.0322
యున్నాను	-10.0324
▁ఆలోచ	-10.033
▁సేవా	-10.033
▁Wi	-10.033
▁తెలివైన	-10.0337
ated	-10.0339
PC	-10.0344
▁హు	-10.0346
▁వీధి	-10.0347
▁ఉపయోగపడ	-10.0348
▁నైపుణ్యం	-10.035
▁దృష్టికి	-10.0352
▁Mac	-10.0353
▁డేటింగ్	-10.0369
వచ్చి	-10.0375
▁ఫీజు	-10.0384
▁ISO	-10.0384
▁వచ్చెను	-10.0392
▁దుస్తుల	-10.0399
పడిన	-10.0402
▁ద్వార	-10.0405
▁చక్క	-10.0415
▁సౌకర్య	-10.0418
▁నేషనల్	-10.042
▁ప్రకారము	-10.0431
▁వస్తువు	-10.0432
▁లైసెన్స్	-10.0432
▁శ్రేణి	-10.0432
▁కిట్	-10.0432
▁గ్రేడ్	-10.0433
▁పెంచడానికి	-10.0438
▁స్వయంచాలకంగా	-10.0438
▁మేకింగ్	-10.0448
▁అంశాల	-10.0454
▁నిషేధ	-10.0456
▁రూపం	-10.0457
▁ఉండేది	-10.0462
▁విత్త	-10.0463
▁బోధన	-10.0463
▁అనుభవించ	-10.0465
▁పరిస్థితులు	-10.0466
CI	-10.0469
▁మొదల	-10.047
▁అలాంటి	-10.0473
▁ఉందని	-10.0474
త్యా	-10.0478
ుడని	-10.0479
లియన్	-10.048
▁అప్పగించ	-10.048
భూ	-10.0483
▁వెళ్ళండి	-10.0484
▁మ్యా	-10.0487
▁ఆకారం	-10.05
▁ఎనిమిది	-10.0504
పడ్డ	-10.0523
▁సంభాషణ	-10.0529
▁చీకటి	-10.0529
▁నంబర్	-10.0533
▁శిశువు	-10.0541
▁సమర్థవంతంగా	-10.0541
▁నేపథ్య	-10.0541
▁స్పిన్	-10.0543
▁బేబీ	-10.0545
▁ప్రయోజన	-10.0546
నాయక	-10.0546
▁అంశాలను	-10.0547
ook	-10.0554
Hz	-10.0557
▁ఆర్ట్	-10.0557
▁దృ	-10.056
పరిపక్వ	-10.0565
▁గేర్	-10.057
▁టెస్ట్	-10.057
▁ఆకర్ష	-10.0574
▁దాడి	-10.0576
▁సులభమైన	-10.0577
tic	-10.0581
▁ప్రాంతాల్లో	-10.0582
▁రూపంలో	-10.0587
▁క్రిప్టో	-10.0589
▁చూపు	-10.0594
▁120	-10.0602
▁డ్రాప్	-10.0602
▁వినోద	-10.0603
వృత్త	-10.0604
▁బెడ్	-10.0608
▁రష్యా	-10.0614
▁మేనేజర్	-10.0614
▁ట్రి	-10.0618
▁పొందింది	-10.062
▁2006	-10.0621
▁చేస్తున్నాను	-10.0621
▁చేశాడు	-10.0624
▁గర్వ	-10.0625
du	-10.0627
▁కోరుకుంటున్న	-10.0627
▁రేట్లు	-10.0631
sion	-10.0633
▁గ్రీన్	-10.0633
▁ప్రేరేప	-10.0638
▁ప్రియమైన	-10.0644
2.1	-10.0651
▁ఇంటర్	-10.0655
▁ఎప్పుడైనా	-10.0663
▁ప్రాధాన్యత	-10.0663
కొన్న	-10.0668
▁బౌ	-10.0674
▁విశ్వ	-10.0675
వేయు	-10.0678
▁భారతీయ	-10.0681
▁మౌంట్	-10.0681
▁తీసుకుని	-10.0681
▁బెల్ట్	-10.0688
డూ	-10.0689
▁ట్రాఫిక్	-10.0689
▁అంతట	-10.0689
▁ఉద్	-10.0693
▁ప్యాక్	-10.0699
▁బ్ల	-10.0705
▁పెంచుతుంది	-10.0708
నంత	-10.0714
న్నాయి	-10.0716
▁సందర్భ	-10.0721
▁ఫీల్డ్	-10.0725
వారై	-10.0725
తోకూడ	-10.0729
▁కారక	-10.073
▁ఆపరేటింగ్	-10.0737
▁వినియోగ	-10.0739
▁ఉత్పత్తులను	-10.074
ానని	-10.0742
▁గాజు	-10.0755
▁నాటక	-10.0755
ous	-10.0758
ఓ	-10.0768
▁వీక్షించడానికి	-10.0769
▁ఇష్టమైన	-10.0771
▁ఎస్టేట్	-10.0774
▁విస్తార	-10.0775
▁నిర్ణయం	-10.0777
మయ్యే	-10.0778
▁తొలి	-10.0779
▁అవసరాలను	-10.0787
▁అయస్కాంత	-10.0787
▁ఫారెక్స్	-10.0787
ర్థ	-10.079
▁ఉదయం	-10.079
▁250	-10.0791
→	-10.0799
▁పిలువ	-10.0802
▁సార	-10.0806
▁సంబంధాలు	-10.0806
▁ఫ్రాన్స్	-10.0812
▁పేర్లు	-10.0814
శేష	-10.0816
▁పాద	-10.0819
▁దోషము	-10.0829
హర	-10.0834
బట్ట	-10.0834
▁Ex	-10.0834
రంధ్ర	-10.0837
▁అనారోగ్య	-10.0837
▁వ్యర్థ	-10.0837
▁వీటిలో	-10.0837
▁జంతు	-10.084
ome	-10.0848
పరిమాణ	-10.0849
▁సామర్ధ్యం	-10.0849
▁నివేదించ	-10.0849
▁యాజకుల	-10.085
ంద్ర	-10.0857
▁టెస్టోస్టెరాన్	-10.0862
▁జరిగినది	-10.0866
▁అహరోను	-10.0874
▁పశువుల	-10.0875
▁అరణ్య	-10.0876
▁ఉపయోగిస్తుంది	-10.0882
ics	-10.0893
▁పొరుగు	-10.0906
▁సభ్యుల	-10.0908
GLONASS	-10.0912
▁అడవి	-10.0914
▁స్నేహితుల	-10.0919
▁నిర	-10.092
▁చెప్పండి	-10.0923
▁మినీ	-10.0927
▁పారిస్	-10.0932
▁ఆంగ్ల	-10.0937
▁అత్యవసర	-10.0938
▁పైకప్పు	-10.0938
wi	-10.0938
▁ప్రభువైన	-10.0938
▁వేడుక	-10.0938
▁ఎఫ్	-10.0948
▁తెలియజే	-10.0952
▁కొంతమంది	-10.0953
దైన	-10.0956
▁వాసన	-10.0964
▁త్రో	-10.0968
pm	-10.0969
▁ఎప్పటికీ	-10.0971
▁యూరో	-10.0987
▁ట్రె	-10.0994
▁ఇల్లు	-10.0995
▁ఇండియా	-10.1001
ింపబడిన	-10.1002
▁విగ్రహ	-10.1005
▁విడిచి	-10.1012
▁విరోధ	-10.1031
UN	-10.1031
▁పండు	-10.1035
▁వయసు	-10.1039
▁మార్గాల	-10.1043
▁ఆహ్వాన	-10.1052
▁పెరుగుతుంది	-10.1053
▁మిశ్రమం	-10.1065
old	-10.1068
▁AC	-10.1069
▁నైట్	-10.1072
సియా	-10.1085
ెనని	-10.1085
▁సాంకేతికత	-10.1089
▁దిగుమతి	-10.109
▁త్వరలో	-10.1091
▁హింస	-10.1096
ction	-10.1097
ఒ	-10.1102
▁పాస్వర్డ్	-10.1103
ింపవలెను	-10.1112
▁సిరా	-10.1116
▁మండల	-10.1126
1.2	-10.1126
▁సైజు	-10.1136
▁అంక	-10.1139
▁సైకిల్	-10.1142
▁కనీస	-10.1148
▁బజాజ్	-10.1155
▁గతంలో	-10.1157
▁ఇంజెక్షన్	-10.1168
▁భాగస్వాముల	-10.1168
▁ఇంజనీర్	-10.1168
▁మళ్లీ	-10.1168
▁మెమరీ	-10.1168
▁పరిశోధనా	-10.1173
▁మాక్స్	-10.1174
▁భిన్నంగా	-10.119
లెన్	-10.119
▁అనుసరించండి	-10.1192
▁ఫ్రెంచ్	-10.1194
▁బహుమతులు	-10.1194
▁బయలు	-10.1196
▁బిగ్	-10.1198
pro	-10.1203
▁స్పీడ్	-10.1207
▁సమర్థవంతమైన	-10.1207
3.5	-10.1208
▁34	-10.1214
▁మెడికల్	-10.122
త్స	-10.1223
ంటూ	-10.1225
▁ఇవ్వడం	-10.1228
fl	-10.1241
▁సరే	-10.1253
RI	-10.1256
▁ఖరీదైన	-10.1259
red	-10.1266
HT	-10.1266
▁తెలిసికొన	-10.1273
▁డిస్క్	-10.1274
▁ప్రమాణాల	-10.1275
TA	-10.1292
▁కొద్ది	-10.1293
▁చాలామంది	-10.1305
▁సంస్కృతి	-10.1312
మెంట	-10.1325
▁వైన్	-10.1332
±	-10.1338
▁వెంట్రుక	-10.1338
▁రప్పించ	-10.1338
▁400	-10.1343
own	-10.1344
line	-10.1349
▁సౌందర్య	-10.1351
▁తేమ	-10.1355
లింగ	-10.1364
▁సున్నితమైన	-10.1364
▁బిలియన్	-10.1367
Coin	-10.1388
MO	-10.1389
▁దుర్	-10.1393
▁స్టేట్స్	-10.1399
▁జాతుల	-10.14
▁స్వేచ్ఛ	-10.1404
▁వాట్	-10.1405
▁మార్క్	-10.1409
▁ఖండ	-10.1409
ఎఫ్	-10.1422
▁జర్మన్	-10.143
▁కాగితం	-10.1443
వారందరు	-10.1445
ండో	-10.145
▁రెగ్యులర్	-10.1457
▁శీతలీకరణ	-10.1457
▁జార్	-10.1459
▁హ్యా	-10.1466
బూ	-10.1471
▁శాస్త్రీయ	-10.1484
▁మిమీ	-10.1484
▁SE	-10.1491
యిల్	-10.1494
▁కృషి	-10.1497
▁వెలుగు	-10.15
▁కాఫీ	-10.1502
దొ	-10.1507
▁వేగవంతమైన	-10.151
vel	-10.1511
▁కార్యము	-10.1511
▁రూపాన్ని	-10.1512
uck	-10.1522
▁మర్చిపో	-10.1524
▁గుర్ర	-10.1532
▁తప్పక	-10.1536
▁ట్యాగ్	-10.1537
▁సౌకర్యవంతమైన	-10.1537
▁స్ట్రింగ్	-10.1538
▁సన్నిధిని	-10.1545
షనల్	-10.1547
▁కుర్చీ	-10.1551
lock	-10.1551
షె	-10.1561
▁Th	-10.1561
ులై	-10.1562
▁ఒంటరిగా	-10.1564
▁బ్యాంకింగ్	-10.1564
పడ్డారు	-10.1565
▁పరిమితం	-10.1565
▁ఉపయోగాలు	-10.1566
▁రూమ్	-10.1578
TI	-10.158
▁భార	-10.1586
ుతున్నాయి	-10.1587
▁టైమ్	-10.1589
▁ఆకుపచ్చ	-10.1591
▁ఉక్రెయిన్	-10.1591
▁రోబోట్	-10.1591
▁వ్యాధుల	-10.1596
over	-10.1603
▁Casino	-10.1604
▁పర్యాటక	-10.1604
▁Ad	-10.1605
▁చర్చించ	-10.1607
▁ఐరోపా	-10.1618
▁దోష	-10.1621
▁లక్ష	-10.1623
యీ	-10.1629
▁పునరుద్ధరించ	-10.1631
▁గోధుమ	-10.1632
▁వచ్చారు	-10.1632
▁స్థిరంగా	-10.1635
▁సమస్యలను	-10.1636
▁ఆఫీసు	-10.1645
▁డివిడి	-10.1645
▁వరల్డ్	-10.1645
aw	-10.1652
ాలజీ	-10.1654
▁పరిధిలో	-10.1655
▁కమ్యూనిటీ	-10.1659
▁దిగి	-10.166
▁వ్యాప్తి	-10.166
▁లభించ	-10.166
▁కార్యకలాపాలు	-10.1663
▁ప్రవచ	-10.1677
▁పేపర్	-10.1683
▁II	-10.1683
ny	-10.1693
▁లేవీయుల	-10.17
మెయిల్	-10.1703
▁EUR	-10.1704
▁ఆదాయ	-10.1712
▁అపరిమిత	-10.1713
▁సెక్యూరిటీ	-10.1713
▁వాటా	-10.1716
▁ఏమిటంటే	-10.1727
UR	-10.173
▁చార్టర్	-10.1739
ake	-10.174
▁వాగ్దాన	-10.1741
▁నాయకులు	-10.1741
con	-10.1746
▁టైర్	-10.1747
▁బయలుదేరి	-10.1769
▁సాధించడానికి	-10.1772
హూ	-10.1773
భుజ	-10.1775
▁ఉపయోగిస్తున్న	-10.1776
▁ఒకవేళ	-10.1782
▁ఆధ్యాత్మిక	-10.1796
▁అంతస్తు	-10.1802
▁ప్రియ	-10.1802
IF	-10.1804
▁గేట్	-10.1813
▁ఇలాంటి	-10.1815
ుకోవటానికి	-10.1822
కుమార	-10.1823
▁వెల్	-10.1829
ఫోన్	-10.1831
▁అందించిన	-10.1832
▁నియమాలు	-10.1832
▁క్లాసిక్	-10.1837
▁క్లబ్	-10.1838
▁అవసరాలకు	-10.1841
▁మెష్	-10.1843
▁పొందడం	-10.1844
▁స్ప్రింగ్	-10.1851
వచ్చా	-10.1856
▁పట్టింది	-10.1876
▁హాజర	-10.1884
▁ఖాతాదారులకు	-10.1893
▁that	-10.1894
▁చోట	-10.1895
▁2005	-10.1898
▁వాచ్	-10.1903
▁కార్పొరేట్	-10.1906
▁అడ్మిన్	-10.1906
▁అధిపతి	-10.1906
▁వెంట	-10.1911
ING	-10.1917
▁__	-10.1919
е	-10.192
▁మృదువైన	-10.192
▁అనుకూలీకరించిన	-10.192
▁చట్టపరమైన	-10.1922
ED	-10.1927
▁నేర్ప	-10.1931
▁యజమాని	-10.1934
▁కంటి	-10.1938
▁లెక్కించ	-10.1949
▁జాతి	-10.1956
▁అర్థ	-10.1957
▁కార్యకలాపాల	-10.1957
▁భుజం	-10.1966
▁GTS	-10.1972
▁కారణాలు	-10.1972
▁అందంగా	-10.1973
▁లైవ్	-10.1977
యుక్త	-10.1984
▁తరం	-10.1987
▁SMS	-10.1991
▁వాళ్ళ	-10.1996
▁భవిష్యత్తులో	-10.1997
▁మిలియన్ల	-10.2
▁వర్తక	-10.2
▁వ్యాసాలు	-10.2005
▁ఎదుర్కొన	-10.2005
స్తుందని	-10.2006
▁చెవి	-10.2014
▁మూవీ	-10.2018
▁షెడ్యూల్	-10.2019
ిర్ధారించుకోండి	-10.2019
రెడ్డి	-10.2027
▁అధికారులు	-10.203
బొ	-10.2033
▁పదార్థాల	-10.2042
వాడై	-10.2043
స్థుల	-10.2043
నైనా	-10.2047
▁Orphek	-10.2047
▁ప్రధానమంత్రి	-10.2047
▁విధానాలు	-10.205
లన్నిటిని	-10.2055
▁అంగీ	-10.2056
▁పేద	-10.2058
▁పుస్తకాలు	-10.2067
▁జీవించ	-10.2073
▁సందేశం	-10.2075
▁మార్చడానికి	-10.2082
▁అగ్ర	-10.2085
▁ప్రారంభించారు	-10.2088
▁ద్వీప	-10.2089
LA	-10.2101
▁మూసి	-10.2104
▁ఐడియా	-10.2104
▁ప్రారంభమైంది	-10.2106
▁స్టేట్	-10.2109
రియల్	-10.2113
▁విధమైన	-10.2114
BC	-10.2115
▁ఇంటర్ఫేస్	-10.2118
▁స్నేహితుడు	-10.2118
▁చివరికి	-10.2118
▁అంచు	-10.2122
▁రాజ్యము	-10.2124
▁పెంపుడు	-10.2132
▁ఆశ్రయ	-10.2161
▁ధైర్య	-10.2161
▁ఎగువ	-10.2161
ంటున్న	-10.2161
ణీ	-10.2169
▁క్లిప్	-10.2175
▁ఫిల్టర్	-10.2175
▁లాభం	-10.2175
▁స్పష్ట	-10.2182
▁గోల్డ్	-10.2185
▁ఆజ్ఞాపించ	-10.2189
▁క్రూ	-10.219
▁బట్టలు	-10.2193
▁చూస్త	-10.2193
ga	-10.22
▁ప్రభావాలు	-10.2203
▁స్కూటర్	-10.2203
▁టూర్	-10.2205
▁వాస్తవం	-10.2207
పరిష్కరించడానికి	-10.221
చ్చెను	-10.2215
▁గుడారము	-10.2218
వైవిధ్య	-10.2218
కొందురు	-10.2219
▁జంతువుల	-10.2219
form	-10.2224
а	-10.2232
▁ఫేస్బుక్	-10.2232
▁చమురు	-10.2233
ance	-10.2236
▁Red	-10.2239
సంబంధ	-10.2246
▁బయలుదేర	-10.2246
▁కార్యాచరణ	-10.2247
▁తాత్కాలిక	-10.2247
▁అదృష్ట	-10.2247
▁షరతుల	-10.2249
▁వేరే	-10.225
▁రాయి	-10.2253
▁సెన్సార్	-10.2261
టోన్	-10.2262
▁స్థానాల	-10.2264
▁మూసివేయ	-10.2264
▁ప్రాధమిక	-10.2276
▁మల్టీ	-10.2276
▁కాస్టింగ్	-10.2276
▁పాల్గొన	-10.2278
▁పోల్చ	-10.2293
▁అధ్యయన	-10.23
▁ఏవైనా	-10.2305
▁ఫీడ్	-10.2307
▁టవర్	-10.2308
▁ఒక్కరూ	-10.2311
ల్యాండ్	-10.2317
▁ఇంజనీరింగ్	-10.2319
▁గెలుచుకున్న	-10.2319
▁బబులోను	-10.2319
▁info	-10.2323
▁జ్ఞానము	-10.2325
రహిత	-10.2328
▁వున్న	-10.2333
అన్ని	-10.2335
▁కార్యాలయ	-10.234
▁పత్రాలు	-10.2344
▁పరస్పర	-10.2348
▁ఇయర్	-10.2352
▁కుక్క	-10.2365
▁లెన్స్	-10.2369
▁పద్ధతుల	-10.2374
mail	-10.2375
▁ప్రశంస	-10.2377
▁శోధించ	-10.2377
▁సహాయక	-10.2388
▁కల్పించ	-10.2394
TR	-10.2398
సెంట్	-10.2403
▁కూడిన	-10.2415
▁అన్య	-10.2419
▁ప్రమోషన్	-10.2421
▁మందుల	-10.2423
పడే	-10.2434
▁FX	-10.2439
▁కోణం	-10.2451
▁విశ్వాసము	-10.2461
▁మాట్లాడటం	-10.2469
▁లక్షల	-10.248
▁ఇండస్ట్రీ	-10.248
▁కర్మాగార	-10.248
▁పరిశోధకులు	-10.248
▁చెబుతా	-10.2483
▁your	-10.2483
▁చూడటం	-10.2487
▁సంస్కరణ	-10.2495
▁పనిచేసే	-10.2495
0.00	-10.2502
ంటాడు	-10.2502
▁ఆస్ట్రేలియా	-10.251
▁ఫిలిష్తీయుల	-10.251
▁శుభ్ర	-10.2517
▁పరిష్కారాలను	-10.2517
▁సంపాద	-10.252
IL	-10.2522
▁జరిమానా	-10.2524
▁పరిపాలన	-10.2524
▁తెలుసా	-10.2525
▁నడిప	-10.2525
▁మంత్రిత్వ	-10.2526
ఔ	-10.2539
▁కార్పొరేషన్	-10.2539
▁లింకులు	-10.2539
▁కావున	-10.2542
వేత్త	-10.2545
▁ప్రయత్నిస్తున్న	-10.2548
▁గడియ	-10.2549
భద్ర	-10.2557
▁అధ్యక్షుడు	-10.2557
రెంట్	-10.2558
ొచ్చు	-10.2566
▁క్లౌడ్	-10.2569
▁సాంప్రదాయ	-10.2569
▁అభ్యర్థి	-10.2585
PL	-10.2586
▁సలహాదారు	-10.2587
▁సెక్సీ	-10.2589
▁అందుకున్న	-10.2598
▁అర్పించ	-10.2599
▁చనిపోయిన	-10.2601
ుతుందని	-10.2607
ితివి	-10.2613
▁ఇబ్బంది	-10.2614
▁కెరీర్	-10.2614
▁మొదలుకొని	-10.2618
▁Facebook	-10.2629
▁ఆఫ్రికా	-10.2629
ical	-10.2629
▁శీఘ్ర	-10.2644
0.3	-10.2649
▁తల్లిదండ్రులు	-10.2653
శృంగార	-10.2659
▁సోషల్	-10.2659
▁శుద్ధ	-10.2659
▁వీటిని	-10.2664
▁అయ్యే	-10.2667
▁ఎలాంటి	-10.2671
▁ఏర్పరచ	-10.2672
▁నడుచు	-10.2672
▁గ్లోబల్	-10.2674
▁కెనడా	-10.2674
పోవును	-10.2674
▁దేవా	-10.2675
▁అమెజాన్	-10.2689
▁ఇద్దరు	-10.2689
▁కుమారుని	-10.2691
▁పాల్గొనే	-10.2701
LI	-10.2702
▁అభ్యాస	-10.2704
ద్వారా	-10.2721
పోయాడు	-10.2723
▁USA	-10.2728
సెన్	-10.2728
పోయిరి	-10.2729
ెయిన్	-10.2734
▁శాస్త్రవేత్త	-10.2734
▁చిక్క	-10.2737
▁సంగ్రహ	-10.2743
OL	-10.2748
▁వాయిద్య	-10.2749
▁స్పందన	-10.2749
▁జరిగే	-10.275
▁అనువర్తన	-10.2754
▁సీసా	-10.2755
▁నమ్మకమైన	-10.2765
▁ఆకర్షించ	-10.2772
▁కొట్టి	-10.2777
పీఠ	-10.2777
▁క్రీడాకారులు	-10.278
RT	-10.2789
▁క్రషర్	-10.2795
▁పళ్ళు	-10.2796
▁దంత	-10.2797
▁చేయబడతాయి	-10.2808
▁విధి	-10.2812
▁టికెట్	-10.2812
▁కనుగొనండి	-10.2812
HS	-10.2825
▁సొలొమోను	-10.2825
▁కలయిక	-10.2826
▁మాత్రం	-10.2828
▁క్రో	-10.2837
xBet	-10.2841
▁అన్నాడు	-10.2855
▁ఆక్వేరియం	-10.2856
ినట్లయితే	-10.2858
▁విధానాల	-10.2859
సహోదరు	-10.2864
HE	-10.2867
▁విమానాశ్రయం	-10.2871
▁నివారణ	-10.2871
▁అవార్డు	-10.2871
యోగ్య	-10.2878
▁బీచ్	-10.2884
RP	-10.2887
▁విజయవంతమైన	-10.2888
▁జీవితాన్ని	-10.2895
▁సర్టిఫికేట్	-10.2902
▁ఆక్సిజన్	-10.2902
▁సెకన్ల	-10.2905
▁ఆయుధ	-10.2906
▁స్టి	-10.291
▁క్షమించ	-10.2913
▁ఏజెంట్	-10.2918
▁కణాల	-10.2924
1.0	-10.2928
ath	-10.2939
▁అధిగమించ	-10.2948
ిస్తున్నాము	-10.295
లన్నిటి	-10.2962
▁తీవ్రంగా	-10.2963
▁దాఖలు	-10.2964
▁చెడ్డ	-10.2965
▁శ్వాస	-10.2966
▁కొరియా	-10.2967
▁దావా	-10.2974
▁చోటు	-10.2976
▁WordPress	-10.2979
▁ఉద్యమ	-10.298
▁యూదులు	-10.2989
▁చేయబడ్డాయి	-10.2992
▁కనుగొంటారు	-10.2995
▁వుండ	-10.2997
▁స్ట్రా	-10.3008
▁చేయుటకు	-10.301
▁దుఃఖ	-10.301
▁నెమ్మదిగా	-10.301
▁మెషీన్	-10.3011
▁సందర్శకుల	-10.3011
▁రాజధాని	-10.3011
బ్యూ	-10.3017
▁అనంత	-10.3027
▁చేయలేదు	-10.3029
__	-10.3032
▁మొట్టమొదటి	-10.3042
▁సిలిండర్	-10.3042
పీడన	-10.3045
▁భవిష్యత్తు	-10.305
▁పండుగ	-10.3053
▁డ్రైవింగ్	-10.3058
▁సాయం	-10.3062
▁నిరూపించ	-10.3077
▁చేపట్ట	-10.3078
విధాన	-10.3079
▁పోలిస్తే	-10.309
▁తప్పనిసరిగా	-10.3091
హీన	-10.3098
▁కోపం	-10.3101
▁పోలీసు	-10.3104
▁ఇంచ్	-10.3106
1.1	-10.3117
▁కత్తిరించ	-10.312
▁ఉత్సాహ	-10.312
▁నాయకుడు	-10.312
▁టేప్	-10.3123
▁తీగ	-10.3132
▁కదలిక	-10.3136
▁ప్లగ్	-10.3136
▁పగడాలు	-10.3136
▁గడువు	-10.3136
నొద్దకు	-10.3152
పుస్తక	-10.3152
▁ప్రభు	-10.3153
స్థలము	-10.316
▁ఉండకూడదు	-10.3164
▁నిరోధ	-10.3166
▁కారణాల	-10.3175
▁యూదుల	-10.3176
▁తీసుకోవాలని	-10.3184
▁లెస్బియన్	-10.3199
▁సృజనాత్మక	-10.3199
▁రొట్టె	-10.3199
▁సంతతి	-10.32
▁వ్యవహరించ	-10.3204
▁బూట్లు	-10.3208
లన్నియు	-10.321
here	-10.3212
▁డైరెక్టర్	-10.3215
▁ప్రచురణ	-10.322
▁చందా	-10.3224
పేక్ష	-10.3228
▁తిరస్కరించ	-10.3231
▁బహిర్గతం	-10.3231
▁పదున	-10.3231
▁లోపం	-10.3239
▁శాసన	-10.3248
▁సర్క్యూట్	-10.3263
▁ధ్యాన	-10.3263
▁అబద్ధ	-10.3275
▁సాయంత్రం	-10.3279
▁నకిలీ	-10.3279
▁బిల్డింగ్	-10.3284
▁స్థాపించబడింది	-10.3287
▁విధులు	-10.3301
▁ఆకృతీకరణ	-10.3311
▁రక్షించడానికి	-10.3311
▁నొంద	-10.3327
▁రెస్టారెంట్	-10.3327
కోణ	-10.333
▁వ్ర	-10.3331
▁విశేష	-10.3342
▁కీర్తన	-10.3343
▁ప్రేక్షకుల	-10.3343
▁రహదారి	-10.3343
▁వాషింగ్	-10.3343
▁వాక్యూమ్	-10.3343
▁రన్	-10.3353
▁సస్పెండ్	-10.3375
▁విక్రయ	-10.3385
▁సహకార	-10.3403
కోసం	-10.3404
▁చూస్తారు	-10.3409
▁క్లిష్టమైన	-10.3424
▁మెట్రోపాలిటన్	-10.3424
▁దోహద	-10.3424
▁తెరిచి	-10.3424
▁సంతకం	-10.344
▁పీటర్	-10.3449
▁వినియోగించ	-10.3455
▁పలక	-10.3455
▁దేశీయ	-10.3459
▁నివసిస్తున్నారు	-10.3465
షియన్	-10.3469
▁అతన్ని	-10.3472
▁ఆరంభ	-10.3473
▁సంవత్సరానికి	-10.3473
▁పోర్న్	-10.3476
▁జనరేటర్	-10.3489
▁ఆర్ధిక	-10.3489
▁పెరగ	-10.3494
▁వివాద	-10.3496
▁తేనె	-10.3497
▁HDBuzz	-10.3505
▁డిస్కౌంట్	-10.3505
▁ప్రాముఖ్యత	-10.3505
▁కూర్పు	-10.3505
▁పరలోక	-10.3506
▁మాంసం	-10.3506
▁ఎంచుకోవడం	-10.3507
▁You	-10.351
▁చదివి	-10.3512
▁తీవ్రత	-10.3514
▁ఇకపై	-10.3516
▁సమయాన్ని	-10.352
▁ద్వేష	-10.3521
▁స్క్రూ	-10.3524
భాష	-10.3524
▁తరచూ	-10.3524
▁చదువ	-10.3525
▁ఉదయ	-10.3529
▁భాగము	-10.3536
▁డొమైన్	-10.3538
▁స్వాస్థ్యము	-10.3538
▁చుట్ట	-10.3542
ఇప్పుడు	-10.3559
▁అడగండి	-10.3567
▁ఏలయనగా	-10.3571
▁ట్రే	-10.3571
▁తీసుకోవాలి	-10.3572
▁టర్కీ	-10.3573
▁ఆరోగ్యకరమైన	-10.3579
యెదుట	-10.358
▁షవర్	-10.3584
porn	-10.3586
▁యూనివర్సిటీ	-10.3587
▁ట్రేడ్	-10.3591
▁పక్కన	-10.3594
▁హత్య	-10.3601
▁అందరూ	-10.3603
▁షెన్జెన్	-10.3604
▁కూర్చుండ	-10.3604
ైజేషన్	-10.3605
▁స్నాన	-10.3609
▁క్రియాశీల	-10.362
▁ప్రోటీన్	-10.362
▁శతాబ్దం	-10.3621
▁Live	-10.3634
▁ఫౌండేషన్	-10.3637
▁అప్డేట్	-10.3637
▁ఆవిరి	-10.364
▁దారితీసింది	-10.3653
▁కనిపెట్ట	-10.3654
▁ఆశిస్తున్నాము	-10.3654
▁యూనియన్	-10.367
▁ఉండెను	-10.3672
▁సర్వ్	-10.3676
▁చిత్త	-10.3685
విషయ	-10.3686
▁ఫ్లాష్	-10.3687
▁రెడీ	-10.3688
▁సురక్షితమైన	-10.37
▁iOS	-10.3704
▁ప్రభావాల	-10.3705
°	-10.3712
▁వినడానికి	-10.3714
▁బెట్టింగ్	-10.372
▁కాదని	-10.372
▁స్మార్ట్ఫోన్	-10.3721
కొనెను	-10.3728
▁సిగ్గు	-10.3728
The	-10.373
▁Un	-10.3734
▁ఆలస్యం	-10.3737
▁హెచ్చరిక	-10.3753
▁పఠనం	-10.3753
▁దుష్ప్రభావాల	-10.3754
▁ఫ్రీక్వెన్సీ	-10.377
▁రిమోట్	-10.377
▁లేబుల్	-10.3771
▁శత్రువు	-10.3772
▁సమర్థ	-10.3772
▁చేస్తున్నాము	-10.3775
▁తీవ్ర	-10.3776
▁ఉప్పు	-10.3778
▁విక్రేత	-10.3787
▁PDF	-10.3787
▁గ్రామంలో	-10.379
▁నిబంధనల	-10.3795
▁అడగ	-10.3798
డెడ్	-10.3803
▁వెల్లడి	-10.3804
▁etc	-10.3813
▁ముందుగానే	-10.3815
▁దళ	-10.3817
▁షాంఘై	-10.3821
బడుతున్న	-10.3823
▁చింత	-10.3827
▁మారుతుంది	-10.3835
▁చేసారు	-10.3835
5,000	-10.3837
▁దారితీస్తుంది	-10.3838
▁హార్డ్వేర్	-10.3838
▁దుష్ట	-10.384
వంతమైన	-10.3847
▁చేశా	-10.3861
పోతున్న	-10.3865
▁1:1	-10.387
▁అన్యజనుల	-10.3872
▁జూదం	-10.3872
▁మానిటర్	-10.3874
పరచుకొన	-10.3879
లేషన్	-10.3884
థె	-10.3887
▁ఫర్నిచర్	-10.3888
▁కనెక్టర్	-10.3888
▁డీలర్	-10.3889
▁మహిళా	-10.3897
▁చేయగలరు	-10.3901
▁కృత్రిమ	-10.3905
▁నిజాయితీ	-10.3905
▁అవమాన	-10.3906
▁విధించ	-10.3921
▁నక్షత్ర	-10.3923
▁కావాలి	-10.3926
▁గర్ల్	-10.3934
▁జలనిరోధిత	-10.394
కపోవచ్చు	-10.3942
ush	-10.3946
▁ఫారం	-10.3955
▁మేనేజ్మెంట్	-10.3957
▁మొత్తాన్ని	-10.3957
▁డిజైనర్	-10.3974
▁పుష్ప	-10.3974
▁ప్రక్క	-10.3987
▁ఫేస్	-10.399
▁ఆకర్షణీయమైన	-10.3991
▁ఇంటర్వ్యూ	-10.3991
▁చేసుకోండి	-10.3996
▁గదులు	-10.401
▁దాట	-10.4016
▁అశ్లీల	-10.4025
▁ఇట్లనెను	-10.4025
▁పరిణామ	-10.4025
▁సమాధి	-10.4025
▁వర్తిస్తుంది	-10.4026
ుడగు	-10.4028
▁ఇతని	-10.403
▁స్కీ	-10.4031
▁తనఖా	-10.4034
▁ఉపాధ్యాయ	-10.4043
▁YouTube	-10.4043
▁నిర్ధారణ	-10.4043
▁విజయవంతంగా	-10.4043
▁ఛార్జ్	-10.4043
▁చూపిస్తుంది	-10.4044
▁లవ్	-10.4044
పోయారు	-10.4046
▁అతడి	-10.4047
▁బ్లాగు	-10.4053
▁ago	-10.4055
▁PCB	-10.4064
▁కొనసాగుతుంది	-10.407
▁రుసుము	-10.4077
▁పరిచయ	-10.4089
▁చూసింది	-10.4098
▁సైన్యం	-10.4111
▁Vessoft	-10.4112
▁ప్రేరణ	-10.4112
2017	-10.4117
▁గ్యాలరీ	-10.4129
ign	-10.4129
పోయే	-10.4139
▁ఉందా	-10.4142
▁జేమ్స్	-10.4147
▁News	-10.4147
▁సువాసన	-10.4147
▁విటమిన్	-10.4164
▁బూడిద	-10.4165
▁కోపము	-10.4168
▁అసహ్య	-10.4182
6.5	-10.419
▁నెరవేర్చ	-10.4199
▁ప్రయోగశాల	-10.4202
▁తీసుకోండి	-10.4204
▁కలుస	-10.4209
▁తీసివేయ	-10.422
శక్తి	-10.4225
▁డిస్ప్లే	-10.4234
▁గార్డెన్	-10.4234
▁తగ్గిస్తుంది	-10.4234
▁మొదలైన	-10.4241
▁మొదటిసారి	-10.425
▁తారాగణం	-10.4252
▁అమ్మకం	-10.4254
▁డయా	-10.4264
▁పెరుగు	-10.4266
▁క్రష్	-10.4266
▁ఫరో	-10.4267
▁లండన్	-10.4269
పూరిత	-10.427
నందరిని	-10.4273
గ్రాడ్యుయేట్	-10.4287
▁పౌండ్	-10.4287
▁ఫ్యూ	-10.4289
▁ఆకలి	-10.4292
▁సామర్థ్య	-10.4292
▁మేఘ	-10.4293
▁ప్లగ్ఇన్	-10.4305
▁రికార్డ్	-10.4305
▁మాదిరిగా	-10.4305
▁నడుస్తున్న	-10.4305
▁అంగీకరిస్తున్నా	-10.4305
▁Free	-10.4306
▁Videos	-10.4322
▁ట్రాకింగ్	-10.4328
▁కార్మికుల	-10.4329
▁క్వి	-10.4338
▁అన్వేషించ	-10.4358
▁పెయింటింగ్	-10.4358
▁శిబిరం	-10.4358
▁గూగుల్	-10.4376
▁విజేత	-10.4376
▁స్పందించ	-10.4377
3.1	-10.4384
▁ముద్రణ	-10.4387
▁ఉద్యోగులు	-10.4395
▁పండ్లు	-10.4395
▁(2)	-10.4397
▁gif	-10.4399
▁ఉత్పాదక	-10.4412
▁కౌన్సిల్	-10.4412
▁Porn	-10.4412
▁వెదక	-10.443
▁లక్షణం	-10.4431
▁విక్రయించ	-10.4437
▁సంతోషించ	-10.4439
▁ఆదేశాలు	-10.4448
▁ప్రసంగ	-10.4449
▁దొరకలేదు	-10.445
▁name	-10.445
▁సోదరుడు	-10.4465
▁కూర్చుని	-10.4465
▁ప్రింటింగ్	-10.4466
▁పరిసర	-10.4466
▁లగ్జరీ	-10.4483
హెచ్	-10.4494
▁సానుకూల	-10.4502
▁పొలము	-10.4508
▁టెర్మినల్	-10.452
▁యంత్రాంగం	-10.452
▁ప్రకాశవంతమైన	-10.452
▁ఎంచుకోవచ్చు	-10.4521
1.3	-10.4521
▁తెలివి	-10.4526
దృఢ	-10.4527
▁మూరల	-10.4536
▁సంక్లిష్ట	-10.4538
view	-10.454
▁అంతేకాక	-10.4556
▁భరించ	-10.4572
▁క్యాలెండర్	-10.4574
▁మినహాయింపు	-10.4574
▁దేవాలయ	-10.4575
▁ఉత్తేజ	-10.4592
▁విదీశీ	-10.4592
▁వైరస్	-10.4594
▁ఉపదేశ	-10.4597
ననెను	-10.4608
▁ప్లాస్మా	-10.4611
▁ద్వి	-10.4615
▁నౌక	-10.4617
▁మేకప్	-10.463
▁లేకపోవడం	-10.463
▁లభ్య	-10.4633
▁3:1	-10.4637
▁కోర్టు	-10.4638
▁కఠిన	-10.4643
▁స్వర్గం	-10.4647
▁వైర్లెస్	-10.4651
▁నాశనము	-10.4654
▁వారంటీ	-10.4662
▁ఐరన్	-10.4667
▁ఉపయోగకరమైన	-10.467
▁ఎముక	-10.4674
▁సరిపోయే	-10.4677
▁సంపద	-10.4679
వచ్చని	-10.4679
▁కృతజ్ఞత	-10.4684
list	-10.4688
▁పర్యవేక్ష	-10.4694
▁క్రీడ	-10.4697
▁ఫోల్డర్	-10.4702
▁స్లీవ్	-10.4702
▁ట్రైలర్	-10.4721
▁త్వరిత	-10.4721
▁నోటీసు	-10.4721
▁ఎవడు	-10.4722
3.2	-10.4723
▁నికర	-10.4724
▁హక్కులూ	-10.4724
heng	-10.4725
ునికి	-10.4729
ెరుగ	-10.4734
ఇశ్రాయేల	-10.4736
▁కనెను	-10.4741
\	-10.4744
▁86-	-10.4746
▁అనుమాన	-10.4747
ung	-10.4748
▁ఏడాది	-10.4758
▁పురుషుడు	-10.4762
▁క్రీడా	-10.4763
▁ఇనుము	-10.4778
0.9	-10.4784
▁సభ్యుడు	-10.4784
▁ఖడ్గము	-10.4795
▁విమర్శ	-10.4795
▁బాలికల	-10.4796
▁గుంపు	-10.4796
▁ముట్ట	-10.4811
▁ఈజిప్ట్	-10.4813
▁మంజూరు	-10.4813
▁లాభదాయక	-10.4813
▁పరిశోధ	-10.482
4.1	-10.4831
▁యోసేపు	-10.4832
▁విద్యార్థి	-10.4832
work	-10.4832
▁2:1	-10.4837
▁భావిస్తారు	-10.4842
▁సుదీర్ఘ	-10.4851
ఫార్మ	-10.4864
▁Qu	-10.4865
▁మైక్రోసాఫ్ట్	-10.487
▁గోప్యత	-10.4872
▁చేసేందుకు	-10.4878
▁ట్రస్ట్	-10.4879
▁సిలికాన్	-10.4888
▁గొర్రె	-10.4888
▁Hack	-10.4891
▁కొంచెం	-10.4907
▁టెస్టోస్టెరోన్	-10.4907
▁పునాది	-10.4907
▁సరుకు	-10.4909
కారుడు	-10.4922
▁వర్గీకరించ	-10.4926
2.2	-10.4926
text	-10.4928
1.4	-10.4932
▁వంటగది	-10.4945
▁ధృవీకరణ	-10.4964
▁మునిసిపాలిటీ	-10.4964
▁డెవలపర్	-10.4964
▁వసతి	-10.4964
▁కార్యక్రమాల	-10.4969
box	-10.4978
▁రికవరీ	-10.4983
▁నియామక	-10.4983
▁ఇతడు	-10.4984
▁కనిపిస్తాయి	-10.4987
▁పువ్వు	-10.5002
▁రెండింటి	-10.5002
▁రక్షిత	-10.5002
▁విస్తరణ	-10.5021
▁వాస్తవిక	-10.5028
Description	-10.504
▁సందేశాలను	-10.504
▁యాంటీ	-10.504
్యాస	-10.5044
▁ఖచ్చితత్వం	-10.5059
▁రబ్బర్	-10.5059
▁ప్రభావాన్ని	-10.5059
▁మ్యూజిక్	-10.5059
▁గీత	-10.5059
▁చాంబర్	-10.5062
▁కన్వర్టర్	-10.5063
▁ప్లాంట్	-10.5067
▁పెట్టె	-10.5087
▁బడ్జెట్	-10.5097
▁ఇరవై	-10.5116
▁శిల్ప	-10.5121
▁years	-10.5135
▁న్యాయవాది	-10.5136
▁వివరణాత్మక	-10.5141
బడదు	-10.5143
▁ముగించ	-10.5145
cial	-10.5148
▁పురుష	-10.5151
▁గ్రాఫిక్స్	-10.5155
▁ఆకృతి	-10.5155
▁హోండా	-10.5166
▁ఎర్ర	-10.5167
▁క్లారినెట్	-10.5174
▁నెలవారీ	-10.5174
▁FSX	-10.5174
▁సరిపోతుంది	-10.5178
▁మంత్ర	-10.5183
▁ప్రోత్సహ	-10.5191
▁ఇరువది	-10.5193
▁థ్రెడ్	-10.5193
▁పశ్చిమ	-10.5193
▁హౌసింగ్	-10.5193
▁ఆమ్ల	-10.5194
ుకుంటున్న	-10.5199
▁కాండీ	-10.5202
▁సూర్యుడు	-10.5202
▁ఆగష్టు	-10.5213
▁మోటారు	-10.5232
▁పత్రం	-10.5239
▁పట్ల	-10.5252
▁హ్యాపీ	-10.5254
బర్గ్	-10.5268
▁ప్రశాంత	-10.5271
4.5	-10.5272
▁అనిపించ	-10.5272
▁నిశ్చయముగా	-10.5291
▁నిశ్శబ్ద	-10.5291
▁సాధ్యమైనంత	-10.5291
▁ఆశించ	-10.5304
▁అబ్రాహాము	-10.531
▁మైదాన	-10.5331
▁సమ్మతి	-10.534
▁ఇస్తాంబుల్	-10.535
▁పందెం	-10.535
▁యిర్మీయా	-10.535
▁క్వాలిటీ	-10.535
▁చేసుకోవడానికి	-10.535
▁ప్రయాణీకుల	-10.535
ence	-10.5363
దేమనగా	-10.5369
▁కలిసే	-10.537
▁అనుకుంటే	-10.5375
ware	-10.5387
▁అందిస్తాయి	-10.5399
▁ప్రాచుర్యం	-10.5428
▁పెట్టుబడుల	-10.5429
▁సందేశాన్ని	-10.5429
▁నొక్కి	-10.5433
4.2	-10.5446
▁పాల్గొన్న	-10.5448
▁వెళుతున్న	-10.5449
యొద్దనుండి	-10.5456
▁ఉష్ణ	-10.5468
▁మిగిలి	-10.5486
ించుకోవడమైనది	-10.5488
▁ప్రాసెసర్	-10.5488
▁సాహిత్య	-10.5488
▁విదేశాల	-10.5491
▁తెలంగాణ	-10.5508
▁క్రీమ్	-10.5508
▁తీపి	-10.551
▁వ్యూహం	-10.553
▁స్పెక్ట్రం	-10.5548
▁మమ్మును	-10.5549
▁హతము	-10.5551
▁పూర్ణ	-10.5555
▁4:1	-10.5557
▁ఆనందించ	-10.5563
▁Mobile	-10.5568
▁ఆపరేటర్	-10.5568
▁ఆస్వాదించ	-10.5568
▁ఎంచుకోవడానికి	-10.5571
▁ప్రవేశపెట్ట	-10.5572
స్థాపన	-10.5587
Blockchain	-10.5588
▁ఉపయోగకరంగా	-10.5588
▁అనుగ్రహ	-10.5595
▁తరు	-10.5598
▁ట్యాంకుల	-10.5608
▁రాబోయే	-10.5609
▁తెస్తుంది	-10.5618
▁హంటింగ్టన్	-10.5629
▁పొదుపు	-10.5629
వృద్ధ	-10.5632
మాత్రము	-10.5647
▁DVD	-10.5649
▁గొలుసు	-10.5649
▁వాయువు	-10.5649
ాశ్రయ	-10.5649
▁సైన్యము	-10.5652
ava	-10.5653
ాస్పద	-10.5654
▁దాసుల	-10.5667
▁ద్వంద్వ	-10.5669
▁పునరుద్ధరణ	-10.5669
▁సెలవిచ్చి	-10.5669
▁అలారం	-10.5682
▁ఐప్యాడ్	-10.569
▁వంతెన	-10.569
▁వెయ్యి	-10.569
▁డ్రాయింగ్	-10.5691
▁నవీకరించబడింది	-10.5693
▁ప్రారంభమవుతుంది	-10.5694
▁మందసము	-10.5695
▁చలన	-10.5699
▁Webtalk	-10.571
▁this	-10.5711
▁సర్టిఫికెట్	-10.573
▁స్క్వేర్	-10.573
▁APK	-10.573
▁వసూలు	-10.5731
▁Web	-10.5738
హౌస్	-10.5746
▁వంశస్థులు	-10.5751
▁కార్టూన్	-10.5751
▁సన్నని	-10.5752
▁పత్రాల	-10.5754
▁పరిమాణాల	-10.5756
▁తల్లిదండ్రుల	-10.5759
▁ఆసుపత్రి	-10.5771
▁ప్రతిస్పందన	-10.5771
▁ధాన్య	-10.5772
▁విడిచిపెట్ట	-10.5774
▁సమాంతర	-10.5774
▁not	-10.5775
▁చదివ	-10.5776
▁చేస్తూ	-10.5778
▁అనుకున్న	-10.5778
ేంద్ర	-10.5782
▁ఫలితం	-10.5791
▁విభజన	-10.5792
▁వ్యాపించ	-10.5799
▁బ్రిటిష్	-10.5812
▁సందర్భాలలో	-10.5815
భేద	-10.5825
▁శారీరక	-10.5828
▁గ్రౌండ్	-10.5833
▁సెలవిచ్చెను	-10.5833
▁సంగతుల	-10.5834
▁సందర్శన	-10.5834
▁నింద	-10.5837
ాలనుకుంటున్నాను	-10.584
ుకునేందుకు	-10.5845
▁సోదరులు	-10.5854
▁ఫిర్యాదు	-10.5854
▁స్వచ్ఛమైన	-10.5854
▁HGH	-10.5854
▁ఎదుట	-10.5858
▁Microsoft	-10.5874
▁పెయింట్	-10.5874
▁నొక్కండి	-10.5874
▁బ్రౌన్	-10.5875
▁సంచులు	-10.5875
ెత్తి	-10.5878
▁రెండో	-10.5879
▁కన్స	-10.5883
5.0	-10.5885
▁బస్సు	-10.5896
▁హైపర్బారిక్	-10.5916
▁ఇత్తడి	-10.5916
▁కడుపు	-10.5917
▁డ్రై	-10.5933
▁ఐచ్ఛిక	-10.5937
▁స్పానిష్	-10.5937
▁నైపుణ్యాలు	-10.5937
▁క్షణం	-10.5949
▁ఫిట్నెస్	-10.5958
▁క్యాన్సర్	-10.5958
▁షాఫ్ట్	-10.5958
▁సులువు	-10.5959
▁సవాలు	-10.5961
emoji	-10.5979
▁లక్షణాల	-10.5981
కుండునట్లు	-10.5986
ుచుండెను	-10.5991
▁వైఫల్య	-10.5999
▁పిలిచి	-10.6001
▁వర్కింగ్	-10.6008
▁బంగారం	-10.6021
▁తొలగింపు	-10.6024
▁అనెను	-10.6025
స్నేహితు	-10.603
▁యాజమాన్య	-10.6042
▁టౌన్	-10.6042
▁వేణువు	-10.6042
▁నిష్పత్తి	-10.6042
▁సాహస	-10.6049
▁అధ్యాయం	-10.6063
▁Phone	-10.6063
▁నిరాశ	-10.6063
▁నడిచి	-10.6068
▁చర్మ	-10.6074
▁Instagram	-10.6084
▁మీడియం	-10.6106
▁స్టడీ	-10.6112
▁ఆకర్షణీయంగా	-10.6126
▁ఎమోజీలకు	-10.6126
▁బానిస	-10.6128
▁CSGO	-10.6147
▁సందర్భాల్లో	-10.6151
▁will	-10.6175
▁గణనీయమైన	-10.619
▁టెలిఫోన్	-10.619
▁సరదాగా	-10.619
▁LLC	-10.619
▁విధానాన్ని	-10.6191
▁సమకూర్చ	-10.6193
ేగాని	-10.6206
▁శామ్సంగ్	-10.6212
యున్నావు	-10.6212
▁ఎడిషన్	-10.6212
▁హోల్మ్	-10.6212
▁దాసుడ	-10.6225
▁ROSELLE	-10.6233
▁ఎక్స్ప్రెస్	-10.6255
▁హోస్టింగ్	-10.6255
▁స్వల్ప	-10.6255
5.1	-10.6285
▁చిట్కా	-10.629
▁వక్ర	-10.6296
▁కేటాయించ	-10.6298
▁ప్రయాణించ	-10.6299
▁పోర్టబుల్	-10.6319
▁పారదర్శక	-10.6319
▁సూత్రం	-10.632
tube	-10.6321
▁గణన	-10.6323
▁జాతక	-10.6328
▁శుభాకాంక్షలు	-10.6341
▁అడిగే	-10.6341
▁విషయములో	-10.6343
▁పునరావృత	-10.6346
▁స్టూడియో	-10.6363
▁from	-10.6363
▁సందేహ	-10.6363
▁స్టెప్	-10.6365
play	-10.637
▁నిలిపి	-10.6383
▁ఇన్స్టిట్యూట్	-10.6385
▁యూనివర్సల్	-10.6385
▁ఆఫీస్	-10.6386
▁స్పెయిన్	-10.6386
▁ఏడవ	-10.6389
▁పరమాణు	-10.6406
▁బయటికి	-10.6407
▁మొదలుపెట్ట	-10.6409
▁action	-10.6412
2.3	-10.6416
▁ఫుట్బాల్	-10.6428
▁బ్రోకర్	-10.6428
▁LTD	-10.6428
0.6	-10.6458
▁ఫాబ్రిక్	-10.6472
▁సెలవిచ్చుచున్నా	-10.6472
▁స్ట్రీట్	-10.6472
▁అదేవిధంగా	-10.6494
▁యెహోషువ	-10.6494
▁నశించ	-10.6494
▁ఆటగాడు	-10.6495
qui	-10.6505
▁తోబుట్టువుల	-10.6516
▁బిజినెస్	-10.6516
మూర్తి	-10.6521
▁నివసిస్తున్న	-10.6526
పోయాయి	-10.6527
▁యాదృచ్ఛిక	-10.6538
▁సార్కోయిడోసిస్	-10.6538
▁బైట్సు	-10.6538
▁ధృవీకరించ	-10.6561
▁ప్రొవైడర్	-10.6561
▁నగ్న	-10.6564
▁తొడుగులు	-10.6583
▁వివేక	-10.6585
▁మరణించాడు	-10.6589
యెహోవా	-10.6603
▁కాంపాక్ట్	-10.6605
▁అల్ట్రా	-10.6605
▁వారసత్వ	-10.6606
▁పరిగణలోకి	-10.6627
▁గణిత	-10.6629
▁గింజ	-10.6632
▁భిన్న	-10.664
»	-10.6649
▁సరసమైన	-10.665
▁వరకూ	-10.6672
▁యుఎస్	-10.6675
▁హోల్డర్	-10.6695
భరిత	-10.6705
▁ఇంటర్నేషనల్	-10.6717
▁గణనీయంగా	-10.6717
▁బ్లాక్జాక్	-10.6717
▁కూపన్	-10.6718
▁పదార్ధాల	-10.6718
నిబట్టి	-10.6723
▁ధూప	-10.6724
▁సంచయ	-10.6725
▁వలస	-10.6733
▁సేవకులు	-10.6738
▁క్రిస్టల్	-10.674
▁డాక్యుమెంట్	-10.674
▁రీసెర్చ్	-10.674
▁విశ్లేషించ	-10.6762
▁ప్రోగ్రామింగ్	-10.6785
▁ఏజెన్సీ	-10.6785
▁ముందే	-10.6785
▁దహన	-10.6786
▁అన్యాయ	-10.6787
▁మెరుగుదల	-10.6787
కిరీట	-10.6793
▁భాగస్వామ్య	-10.6798
▁ఇశ్రా	-10.6809
▁అద్దము	-10.6811
4.4	-10.6819
▁ట్రైనింగ్	-10.6831
▁ఋణ	-10.6831
▁పోషక	-10.6834
▁ఒక్కొక్క	-10.6835
XNUM	-10.6853
▁చారిత్రక	-10.6853
▁బ్లేడ్	-10.6853
▁విరాళ	-10.6854
time	-10.6859
▁ప్రొఫెసర్	-10.6876
▁రిజిస్టర్	-10.6876
▁స్నేహపూర్వక	-10.6877
▁చేస్తోంది	-10.6881
▁అధ్యక్ష	-10.6895
▁దుబాయ్	-10.6899
▁యాజకుడు	-10.6899
▁ప్రాప్యత	-10.6899
▁అంకితం	-10.6899
▁చేసుకోవడం	-10.6901
▁కార్మిక	-10.6903
▁కిలోల	-10.6907
▁ధోరణి	-10.6922
▁సంక్షిప్త	-10.6922
▁బృంద	-10.6937
▁లభిస్తుంది	-10.6945
▁ఛానెల్	-10.6945
▁మలుపు	-10.6951
▁సొసైటీ	-10.6968
▁పనిచేస్తున్న	-10.6992
▁చైన్	-10.6992
▁ఫైనాన్స్	-10.7015
▁LCD	-10.7015
క్రింద	-10.7016
▁విరిగి	-10.7017
▁సన్నిహిత	-10.7038
▁పడిపోయింది	-10.7042
▁చేయాలో	-10.7043
▁వేరొక	-10.7061
▁తరగతుల	-10.7063
▁పుస్తకాల	-10.7068
ోత్సవ	-10.7076
▁కోరుకున్న	-10.7081
▁సౌకర్యవంతంగా	-10.7085
▁వ్యసన	-10.7085
▁గాడిద	-10.7085
▁తన్ను	-10.7099
▁తిరుగుబాటు	-10.7108
▁పెరుగుతాయి	-10.7133
▁నడప	-10.7145
▁దర్శకత్వం	-10.7155
▁పొడవైన	-10.7155
▁విప్లవ	-10.7155
▁నృత్య	-10.7179
▁గ్రామీణ	-10.7179
▁హ్యాండిల్	-10.7179
▁మెరుగుపరుస్తుంద	-10.7179
▁నిలిపివేయ	-10.7181
▁గడిప	-10.7186
▁India	-10.7191
▁ఫలితాల	-10.7195
▁అసోసియేషన్	-10.7202
▁కాటలాగ్	-10.7202
▁లోపాలు	-10.7214
▁సంతులనం	-10.7226
▁పుట్టినరోజు	-10.7227
▁తమ్ము	-10.7239
▁అప్గ్రేడ్	-10.725
▁సెంట్రల్	-10.725
▁పెండ్లి	-10.725
▁కౌంటర్	-10.725
▁బ్యాకప్	-10.725
▁ఎడారి	-10.725
▁కాలేజ్	-10.725
ాధికార	-10.7257
▁వెంబడి	-10.7265
▁మార్గనిర్దేశం	-10.7274
▁సిగ్నల్	-10.7274
▁చక్కెర	-10.7274
▁సృష్టికర్త	-10.7275
▁సుందర	-10.7281
press	-10.7282
▁బాత్రూమ్	-10.7297
▁లైబ్రరీ	-10.7297
▁ఫిషింగ్	-10.7297
▁బ్రెడ్	-10.7297
▁గేమింగ్	-10.7298
▁ఎంట్రీ	-10.7298
▁విద్యార్ధుల	-10.7298
మయిన	-10.7319
▁కణజాల	-10.7321
▁భావోద్వేగ	-10.7321
▁విరుద్ధంగా	-10.7321
▁ఇంజక్షన్	-10.7321
▁అతిశయ	-10.7327
▁బ్రదుక	-10.734
▁సమితి	-10.7348
▁ఆధిపత్య	-10.7369
▁రెండూ	-10.7369
!!!	-10.737
ుకోవాలని	-10.7371
▁రక్షక	-10.7379
▁చేసెద	-10.7381
▁ఉపసంహరణ	-10.7393
▁నువ్వు	-10.7394
▁స్థానాన్ని	-10.7395
ుదువు	-10.7406
నిర్మాణ	-10.7416
▁ఇప్పటివరకు	-10.7418
▁రికార్డింగ్	-10.7418
▁ఇటాలియన్	-10.7418
▁గుర్త	-10.7441
▁Bitcoin	-10.7442
▁డిఫాల్ట్	-10.7442
cket	-10.7462
▁దొరక	-10.7464
▁హాస్పిటల్	-10.7466
▁పురోగతి	-10.7466
▁భ్రమణ	-10.7466
▁మందిరపు	-10.7467
▁ఫైబర్గ్లాస్	-10.749
▁స్విట్జర్లాండ్	-10.749
▁ఫుట్	-10.7493
▁నవ్వు	-10.7504
▁పలిక	-10.7514
▁గందరగోళ	-10.7515
▁వెచ్చని	-10.7515
title	-10.7516
▁వీక్షించ	-10.7527
▁నిలుచు	-10.7528
▁సెటప్	-10.754
శైల	-10.7554
▁వర్గాల	-10.7556
▁రత్న	-10.7565
ీయుడైన	-10.7575
saveatrain	-10.7588
▁మ్యాచింగ్	-10.7588
▁యథార్థ	-10.7588
▁సేవకుల	-10.7597
▁తయార	-10.7603
▁blockchain	-10.7613
▁థాయిలాండ్	-10.7613
▁సొగసైన	-10.7613
▁డైలాగ్	-10.7613
▁కనిపిస్త	-10.7614
క్షేప	-10.7614
▁నిర్వచించ	-10.7627
▁మెకానికల్	-10.7638
▁ముందస్తు	-10.7638
▁ఎడిటర్	-10.7638
▁వుంటుంది	-10.7663
▁పురుగు	-10.7665
సాధారణ	-10.7687
▁అలంకరించ	-10.7687
▁చురుకుగా	-10.7687
▁నిపుణుడు	-10.7687
▁వూఫర్	-10.7687
▁కమ్యూనికేట్	-10.7712
▁కిలోమీటర్ల	-10.7737
▁కేతగిరీలు	-10.7737
▁జెరూసలేం	-10.7737
▁మెడిసిన్	-10.7737
▁డైనమిక్	-10.7737
▁SQL	-10.7737
▁జవాబు	-10.7737
▁బంధువు	-10.7737
నిర్వచ	-10.7739
▁అచ్చట	-10.7744
▁డెస్క్టాప్	-10.7762
▁పారామితులు	-10.7762
▁ప్రభావవంతమైన	-10.7762
▁సింగపూర్	-10.7762
▁దస్త్ర	-10.7762
▁సహకరించ	-10.7764
▁దేహ	-10.7777
ఱ	-10.7787
▁ఆప్టికల్	-10.7787
▁సంప్రదింపు	-10.7787
▁EMI	-10.7787
▁ప్రాంతీయ	-10.7788
▁API	-10.7793
▁వేగవంతం	-10.7812
6.0	-10.7833
ుకుంటూ	-10.7834
▁ముగుస్తుంది	-10.7837
▁ఆటోమేషన్	-10.7837
▁పియానో	-10.7838
▁కమిషన్	-10.7838
▁ఫిలిప్	-10.7839
▁ఆపడానికి	-10.7841
▁పరిజ్ఞానం	-10.7863
▁అనాబాలిక్	-10.7888
▁ప్రచుర	-10.7895
▁ఆర్టికల్	-10.7913
▁ఎవరైతే	-10.7913
▁Tablet	-10.7913
▁గెలాక్సీ	-10.7939
▁నాణేలు	-10.7939
▁ఫెయిర్	-10.7939
▁స్ప్రే	-10.7939
▁అవయవ	-10.794
▁శిఖర	-10.7941
▁వీధుల	-10.7945
[	-10.7953
▁రిపబ్లిక్	-10.7964
▁ముస్లిం	-10.7964
▁అంటుకునే	-10.7965
▁విశ్వసించ	-10.7968
▁స్టోన్	-10.7974
▁WhatsApp	-10.799
▁ముసుగు	-10.799
▁అధిపతుల	-10.8016
▁న్యూయార్క్	-10.8016
▁పేతురు	-10.8016
▁సూచిస్తున్న	-10.8017
▁ట్విట్టర్	-10.8041
▁సాంస్కృతిక	-10.8041
▁ముప్పది	-10.8041
హైడ్రో	-10.8045
▁కొడుకు	-10.8059
వాడెవడు	-10.8067
▁ఎక్స్చేంజ్	-10.8067
▁సమృద్ధి	-10.8067
▁స్నేహ	-10.807
▁రుజువు	-10.8093
▁ఇప్పుడే	-10.8093
▁సున్నతి	-10.8093
▁విలీనం	-10.8093
▁Online	-10.8119
▁ఇన్వాయిస్	-10.8119
▁అభిరుచి	-10.8119
క్రిప్షన్	-10.8119
▁వార్షికోత్సవ	-10.8119
▁దుమ్ము	-10.8121
▁కాండిల్	-10.8121
#	-10.8139
▁ప్రాతినిధ్యం	-10.8145
▁ప్రతిపాదన	-10.8145
▁సాంద్రత	-10.8145
▁భూభాగం	-10.8145
▁పూరించ	-10.8156
▁వరద	-10.8157
▁నడుప	-10.8165
▁యొర్దాను	-10.8171
▁దేవదూత	-10.8171
▁మనుష్యుని	-10.8197
▁సోమవారం	-10.8197
▁ఇబ్బందుల	-10.8197
▁సీయోను	-10.8197
ునుగాక	-10.8208
▁కరుణ	-10.8221
▁సంకర్షణ	-10.8223
▁భావిస్తున్నాను	-10.8223
▁సరస్సు	-10.8223
▁విభాగాల	-10.8225
▁అంతర్నిర్మిత	-10.8249
▁యాంత్రిక	-10.8249
▁యేసుక్రీస్తు	-10.8249
▁ఆకృతీకరించ	-10.8249
▁అంతిమ	-10.8252
▁అరుదుగా	-10.8276
▁నైలాన్	-10.8276
▁కౌంటీ	-10.8276
▁ప్రతినిధి	-10.8276
▁సూత్రాల	-10.8313
▁విచ్ఛిన్నం	-10.8328
▁టెంప్లేట్	-10.8355
▁కలుగజేస	-10.8362
మృగ	-10.8367
▁సవరణ	-10.8382
▁ఏర్పాట్లు	-10.8435
▁కూరగాయల	-10.8435
▁ట్రాన్స్ఫార్మర్	-10.8435
▁మల్టీమీడియా	-10.8435
▁గుమ్మము	-10.8437
▁రూపాయల	-10.8442
▁ప్రోత్సాహ	-10.8462
▁మసాజ్	-10.8462
▁పరిహార	-10.8463
▁డైరెక్టరీ	-10.8489
▁బలోపేతం	-10.8489
▁గులాబీ	-10.8489
▁యాసిడ్	-10.8489
▁విడిపించ	-10.8493
▁ముగిసిన	-10.8516
▁డ్రమ్	-10.8516
▁స్తుతించ	-10.8516
నాశన	-10.8535
▁కరిగి	-10.854
▁ముగిసింది	-10.8543
తరువాత	-10.8549
▁ఆచరణాత్మక	-10.857
▁మనుష్యుడు	-10.857
▁వేరియబుల్	-10.857
▁సమూయేలు	-10.857
▁స్క్రోల్	-10.857
▁అసిటేట్	-10.8597
▁ఆదివారం	-10.8597
▁csgo	-10.8597
type	-10.8616
▁అధ్యాపక	-10.8624
▁చెల్లుబాటు	-10.8624
▁ప్రోటోకాల్	-10.8624
▁అనుచరులు	-10.8624
▁త్యాగం	-10.8624
▁దుర్మార్గ	-10.8624
▁చాక్లెట్	-10.8624
▁మోయాబు	-10.8624
▁మృతి	-10.8624
▁సమతుల్య	-10.8624
▁1:2	-10.8634
▁మనోహరమైన	-10.8651
▁షాన్డాంగ్	-10.8651
▁మిక్కిలి	-10.8652
▁సీనియర్	-10.8652
▁ఫారమ్	-10.8652
కామర్స్	-10.8661
ముధీరిన	-10.8679
▁ప్రావిన్స్	-10.8679
▁ఉమ్మడి	-10.8679
▁వచ్చుచున్న	-10.8684
▁ఎదుర్కో	-10.8706
▁గోల్డెన్	-10.8706
▁మంచం	-10.8708
ేశ్వర	-10.8711
▁ఆరోపణ	-10.8734
▁కెనడియన్	-10.8734
▁ITIL	-10.8734
▁రిటర్న్	-10.8736
▁అష్షూరు	-10.8762
▁సారాంశం	-10.8762
▁Bonus	-10.8762
▁నారింజ	-10.8762
▁అర్పింప	-10.8766
▁Photo	-10.8789
GenericName	-10.8789
▁సరికొత్త	-10.8789
▁ఉత్సవ	-10.8789
▁పేర్కొన	-10.8789
zhou	-10.879
▁శీతాకాలంలో	-10.879
▁ఎదుర	-10.8814
▁మినహాయించ	-10.8817
▁ఎలక్ట్రికల్	-10.8817
▁కంప్రెషర్	-10.8817
▁రిజిస్ట్రేషన్	-10.8817
▁అపరాధ	-10.8817
▁విసర్జ	-10.8817
▁కంప్యూట	-10.8818
▁అంతేకాకుండా	-10.8845
▁పండ్రెండు	-10.8845
▁ఉపాధి	-10.8845
▁డెబిట్	-10.8845
▁పానీయం	-10.8845
▁ఆవరణ	-10.8847
ాహార	-10.8847
దేవుడు	-10.8861
▁స్క్రిప్ట్	-10.8873
▁సిరామిక్	-10.8873
▁ఛార్జీలు	-10.8901
▁సుగంధ	-10.8901
▁తిరగ	-10.8934
ుచున్నావు	-10.8938
▁ఆటోమొబైల్	-10.8957
▁యోవాబు	-10.8957
▁ఆర్ఫెక్	-10.8957
▁ఆల్బమ్	-10.8985
▁ముగ్గురు	-10.8985
1,000	-10.9003
▁మరియొక	-10.9013
▁దుర్వినియోగ	-10.9014
▁అవసరమైతే	-10.9014
▁తిరుగుతోంది	-10.9014
▁నిర్మాత	-10.9014
▁Zipper	-10.9042
▁జెనరేటర్	-10.9042
▁మధ్యాహ్న	-10.9042
▁హిజ్కియా	-10.9042
▁భక్తి	-10.9043
▁10:1	-10.9052
▁12:1	-10.9057
▁ఉపసంహరించ	-10.9071
▁స్పెసిఫికేషన్	-10.9071
▁ద్రాక్షారసము	-10.9099
▁ఇంగ్లాండ్	-10.9099
▁పాక్షిక	-10.9099
▁పెదవుల	-10.91
▁ఆబ్జెక్ట్	-10.9128
▁ఇండియన్	-10.9128
▁నైపుణ్యాలను	-10.9128
▁జరిగాయి	-10.9157
▁క్లియర్	-10.9157
▁ఎవరో	-10.9158
▁నవీకరించ	-10.9181
▁పంక్తులు	-10.9185
▁సర్వీసు	-10.9185
▁ఛార్జర్	-10.9185
▁పాదముల	-10.9209
▁ఉంటుందని	-10.9214
▁కాంగ్రెస్	-10.9214
▁థియేటర్	-10.9214
▁స్వచ్ఛంద	-10.9214
video	-10.9218
▁బ్రెజిల్	-10.9243
▁మెషినరీ	-10.9243
▁వయోజన	-10.9243
▁ఫ్రాంక్	-10.9243
నుకుంటున్నా	-10.9254
Indian	-10.9258
▁కన్వేయర్	-10.9272
▁సమ్మేళనం	-10.9272
▁స్క్రాప్	-10.9272
▁సామ్రాజ్య	-10.9301
▁పోర్టల్	-10.9301
ప్రారంభ	-10.9306
▁ఆటోమోటివ్	-10.9331
▁మనష్షే	-10.9331
pdf	-10.9331
▁ప్రవర్తించ	-10.9334
▁ఢిల్లీ	-10.936
▁అవుట్డోర్	-10.936
▁పురాణ	-10.936
▁బోల్ట్	-10.9363
▁వినబడ	-10.9389
▁PTFE	-10.9389
▁రొమ్ములు	-10.9389
▁సమన్వయ	-10.9389
▁URL	-10.939
▁కావాలా	-10.939
▁థెరపీ	-10.9419
▁లాకెట్టు	-10.9419
▁సులభతరం	-10.9449
▁క్షేమ	-10.945
▁సంస్కృత	-10.9476
▁అలవాటు	-10.9478
▁విధేయ	-10.948
▁అభ్యర్థుల	-10.9508
▁సస్పెన్షన్	-10.9508
▁ఫ్యాక్స్	-10.9508
ాధిపతుల	-10.9508
▁యేలీయుల	-10.9509
▁గొంతు	-10.9511
▁తెరువ	-10.9512
▁ఇన్సులేషన్	-10.9538
▁కవరేజ్	-10.9538
▁జాక్పాట్	-10.9538
▁మొదలవుతుంది	-10.9538
▁నైతిక	-10.9538
▁రికార్డర్	-10.9568
▁వచ్చాయి	-10.9568
▁ప్రయాణికుల	-10.9575
▁కన్వర్	-10.9592
▁శస్త్రచికిత్స	-10.9598
▁అభిలాషి	-10.9598
▁టెలివిజన్	-10.9628
▁తేలికగా	-10.9628
వీర్య	-10.9639
▁మన్నికైన	-10.9658
▁యూనివర్శిటీ	-10.9658
▁వ్యవహార	-10.9658
▁పన్నెండు	-10.9658
▁గ్రహీత	-10.9658
▁ప్రింటర్	-10.9658
▁చైర్	-10.9658
▁దీవించ	-10.9664
▁కాంక్రీటు	-10.9688
▁సోదరి	-10.9689
నైపుణ్య	-10.9713
▁ఇండస్ట్రియల్	-10.9719
▁తేలికపాటి	-10.9719
▁పెళ్ళి	-10.9719
కందరికి	-10.972
▁పునరుత్పత్తి	-10.9749
▁ఫ్లూట్	-10.9749
▁తమిళ	-10.975
▁డెవలప్మెంట్	-10.9811
▁ప్లాట్ఫారమ్	-10.9811
▁భూగర్భ	-10.9811
▁సేంద్రీయ	-10.9811
▁సెప్టెంబరు	-10.9811
▁ప్రదర్శిస్తుంది	-10.9811
▁ఎఫ్రాయిము	-10.9811
▁అరుదైన	-10.9811
▁చెర్రీ	-10.9811
▁month	-10.9841
▁ఇన్వెస్ట్	-10.9841
▁యెషయా	-10.9841
వృక్షము	-10.9842
▁మరమ్మతు	-10.9872
▁అనిపిస్తుంది	-10.9873
▁శక్తుల	-10.988
▁దహనబలి	-10.9903
▁కలిగే	-10.9905
▁రాక్షస	-10.9912
ీయేలు	-10.9933
▁ఉత్పన్న	-10.9934
▁నిర్దోష	-10.9935
▁అస్థిర	-10.9935
రాష్ట్ర	-10.9954
▁సింహాసనము	-10.9965
▁అసమాన	-10.9965
▁బొగ్గు	-10.9965
▁తగిలి	-10.9976
▁ఆహ్లాదకరమైన	-10.9997
▁క్లెయిమ్	-10.9997
▁స్వీడన్	-10.9997
▁ప్రతిరోజూ	-10.9997
▁ప్రతిష్ఠిత	-10.9997
▁ఛాంపియన్	-11.0028
▁పుష్కలంగా	-11.0028
▁వినూత్న	-11.0028
నియంత్రించడానికి	-11.0039
ింతును	-11.0043
▁తెలుసుకున్న	-11.0062
▁అలంకార	-11.0091
▁చేసుకునే	-11.01
▁సిండ్రోమ్	-11.0123
▁డిటెక్టర్	-11.0123
▁గుళిక	-11.0154
▁మునిగి	-11.0155
▁మృతుల	-11.0155
▁చేసుకొ	-11.016
▁పట్టించుకో	-11.0166
శతాబ్ద	-11.0184
▁ఎగ్జిబిషన్	-11.0186
▁వర్చువల్	-11.0186
▁హైదరాబాద్	-11.0186
▁యూరప్	-11.0186
▁చెవిపోగులు	-11.0218
▁జెజియాంగ్	-11.0218
▁గిలాదు	-11.0218
▁తెలుస్తుంది	-11.0218
▁బంగారము	-11.025
▁ప్రేమిస్తున్నా	-11.0254
▁వర్గీకరణ	-11.0283
▁తోడుకొని	-11.0283
దగ్గర	-11.0306
TRANSCO	-11.0315
▁నిమిషం	-11.0315
▁సింథటిక్	-11.0315
▁గుఱ్ఱము	-11.0315
▁క్రేన్	-11.0315
▁మురికి	-11.0315
▁RFID	-11.0347
మవుతాయి	-11.0347
▁తీసుకువచ్చ	-11.0375
▁Teltonika	-11.0379
▁ఖనిజ	-11.038
▁ప్రెసిషన్	-11.0412
▁థామస్	-11.0412
▁పూజారి	-11.0412
▁పోషించ	-11.0416
▁వెళుతుంది	-11.0445
▁రివార్డ్	-11.0445
▁Play	-11.0445
▁ప్రఖ్యాత	-11.0477
▁వ్యభిచార	-11.0477
ఋ	-11.0542
£	-11.1182
€	-11.2376
“	-11.5192
—	-11.5522
‘	-11.6339
~	-11.7295
ఞ	-12.1454
ఊ	-12.2096
×	-12.3362
•	-12.51
·	-13.4981
©	-13.6232
