<unk>	0
<s>	0
</s>	0
<0x00>	0
<0x01>	0
<0x02>	0
<0x03>	0
<0x04>	0
<0x05>	0
<0x06>	0
<0x07>	0
<0x08>	0
<0x09>	0
<0x0A>	0
<0x0B>	0
<0x0C>	0
<0x0D>	0
<0x0E>	0
<0x0F>	0
<0x10>	0
<0x11>	0
<0x12>	0
<0x13>	0
<0x14>	0
<0x15>	0
<0x16>	0
<0x17>	0
<0x18>	0
<0x19>	0
<0x1A>	0
<0x1B>	0
<0x1C>	0
<0x1D>	0
<0x1E>	0
<0x1F>	0
<0x20>	0
<0x21>	0
<0x22>	0
<0x23>	0
<0x24>	0
<0x25>	0
<0x26>	0
<0x27>	0
<0x28>	0
<0x29>	0
<0x2A>	0
<0x2B>	0
<0x2C>	0
<0x2D>	0
<0x2E>	0
<0x2F>	0
<0x30>	0
<0x31>	0
<0x32>	0
<0x33>	0
<0x34>	0
<0x35>	0
<0x36>	0
<0x37>	0
<0x38>	0
<0x39>	0
<0x3A>	0
<0x3B>	0
<0x3C>	0
<0x3D>	0
<0x3E>	0
<0x3F>	0
<0x40>	0
<0x41>	0
<0x42>	0
<0x43>	0
<0x44>	0
<0x45>	0
<0x46>	0
<0x47>	0
<0x48>	0
<0x49>	0
<0x4A>	0
<0x4B>	0
<0x4C>	0
<0x4D>	0
<0x4E>	0
<0x4F>	0
<0x50>	0
<0x51>	0
<0x52>	0
<0x53>	0
<0x54>	0
<0x55>	0
<0x56>	0
<0x57>	0
<0x58>	0
<0x59>	0
<0x5A>	0
<0x5B>	0
<0x5C>	0
<0x5D>	0
<0x5E>	0
<0x5F>	0
<0x60>	0
<0x61>	0
<0x62>	0
<0x63>	0
<0x64>	0
<0x65>	0
<0x66>	0
<0x67>	0
<0x68>	0
<0x69>	0
<0x6A>	0
<0x6B>	0
<0x6C>	0
<0x6D>	0
<0x6E>	0
<0x6F>	0
<0x70>	0
<0x71>	0
<0x72>	0
<0x73>	0
<0x74>	0
<0x75>	0
<0x76>	0
<0x77>	0
<0x78>	0
<0x79>	0
<0x7A>	0
<0x7B>	0
<0x7C>	0
<0x7D>	0
<0x7E>	0
<0x7F>	0
<0x80>	0
<0x81>	0
<0x82>	0
<0x83>	0
<0x84>	0
<0x85>	0
<0x86>	0
<0x87>	0
<0x88>	0
<0x89>	0
<0x8A>	0
<0x8B>	0
<0x8C>	0
<0x8D>	0
<0x8E>	0
<0x8F>	0
<0x90>	0
<0x91>	0
<0x92>	0
<0x93>	0
<0x94>	0
<0x95>	0
<0x96>	0
<0x97>	0
<0x98>	0
<0x99>	0
<0x9A>	0
<0x9B>	0
<0x9C>	0
<0x9D>	0
<0x9E>	0
<0x9F>	0
<0xA0>	0
<0xA1>	0
<0xA2>	0
<0xA3>	0
<0xA4>	0
<0xA5>	0
<0xA6>	0
<0xA7>	0
<0xA8>	0
<0xA9>	0
<0xAA>	0
<0xAB>	0
<0xAC>	0
<0xAD>	0
<0xAE>	0
<0xAF>	0
<0xB0>	0
<0xB1>	0
<0xB2>	0
<0xB3>	0
<0xB4>	0
<0xB5>	0
<0xB6>	0
<0xB7>	0
<0xB8>	0
<0xB9>	0
<0xBA>	0
<0xBB>	0
<0xBC>	0
<0xBD>	0
<0xBE>	0
<0xBF>	0
<0xC0>	0
<0xC1>	0
<0xC2>	0
<0xC3>	0
<0xC4>	0
<0xC5>	0
<0xC6>	0
<0xC7>	0
<0xC8>	0
<0xC9>	0
<0xCA>	0
<0xCB>	0
<0xCC>	0
<0xCD>	0
<0xCE>	0
<0xCF>	0
<0xD0>	0
<0xD1>	0
<0xD2>	0
<0xD3>	0
<0xD4>	0
<0xD5>	0
<0xD6>	0
<0xD7>	0
<0xD8>	0
<0xD9>	0
<0xDA>	0
<0xDB>	0
<0xDC>	0
<0xDD>	0
<0xDE>	0
<0xDF>	0
<0xE0>	0
<0xE1>	0
<0xE2>	0
<0xE3>	0
<0xE4>	0
<0xE5>	0
<0xE6>	0
<0xE7>	0
<0xE8>	0
<0xE9>	0
<0xEA>	0
<0xEB>	0
<0xEC>	0
<0xED>	0
<0xEE>	0
<0xEF>	0
<0xF0>	0
<0xF1>	0
<0xF2>	0
<0xF3>	0
<0xF4>	0
<0xF5>	0
<0xF6>	0
<0xF7>	0
<0xF8>	0
<0xF9>	0
<0xFA>	0
<0xFB>	0
<0xFC>	0
<0xFD>	0
<0xFE>	0
<0xFF>	0
ന്	-0
ക്	-1
ത്	-2
ന്ന	-3
ക്ക	-4
്‍	-5
▁അ	-6
▁പ	-7
ും	-8
▁ന	-9
്ട	-10
▁ക	-11
തി	-12
▁വ	-13
ങ്	-14
ുന്ന	-15
ില	-16
▁സ	-17
ങ്ങ	-18
ിക്ക	-19
മാ	-20
▁എ	-21
്പ	-22
്ല	-23
ച്	-24
്യ	-25
▁മ	-26
ിയ	-27
രു	-28
ുക	-29
പ്പ	-30
ണ്ട	-31
ര്‍	-32
ത്ത	-33
യി	-34
്ര	-35
▁ത	-36
ച്ച	-37
▁ഇ	-38
ട്ട	-39
ാണ	-40
ങ്ങള	-41
ടെ	-42
▁നി	-43
▁അവ	-44
ത്തി	-45
▁ച	-46
▁ആ	-47
റ്	-48
ല്ല	-49
ന്‍	-50
റെ	-51
ുന്നു	-52
▁ഒ	-53
സ്	-54
െയ	-55
ിച്ച	-56
ല്‍	-57
ാണ്	-58
ാര	-59
ന്റെ	-60
റ്റ	-61
▁വി	-62
▁പ്ര	-63
ള്	-64
ക്ക്	-65
ുടെ	-66
ള്ള	-67
▁ഉ	-68
വി	-69
ള്‍	-70
ായി	-71
ടു	-72
ില്‍	-73
ാന	-74
ത്ര	-75
ഞ്	-76
ില്ല	-77
▁ഒരു	-78
ിക	-79
ായ	-80
രിക്ക	-81
ക്ഷ	-82
▁ഞ	-83
▁എന്ന	-84
ാം	-85
തു	-86
യും	-87
ഞ്ഞ	-88
ങ്ക	-89
ന്ന്	-90
▁ര	-91
ുള്ള	-92
▁ദ	-93
ാന്‍	-94
ങ്ങള്‍	-95
▁ശ	-96
▁സ്	-97
▁ജ	-98
▁ചെയ	-99
▁പറ	-100
നെ	-101
ണ്	-102
ദ്	-103
ാൻ	-104
ുമ	-105
നി	-106
ാവ	-107
..	-108
രി	-109
നു	-110
▁മാ	-111
▁ബ	-112
ണ്ട്	-113
മായി	-114
ണം	-115
ങ്ങൾ	-116
പ്പെ	-117
▁കു	-118
രുന്നു	-119
ന്ത	-120
ിച്ചു	-121
▁ഭ	-122
▁ഈ	-123
▁ല	-124
്മ	-125
ാല	-126
രെ	-127
ിൽ	-128
പ്പോ	-129
വാ	-130
ല്ലാ	-131
വും	-132
▁പോ	-133
മ്മ	-134
യാ	-135
റിയ	-136
മായ	-137
ന്നു	-138
ുന്നത്	-139
▁ചെയ്യ	-140
▁അതി	-141
ത്യ	-142
▁(	-143
ാക്ക	-144
ന്നെ	-145
▁സം	-146
▁പി	-147
ങ്ങളുടെ	-148
െങ്ക	-149
റി	-150
ദേ	-151
▁ഏ	-152
▁കൂ	-153
▁പു	-154
ശ്	-155
▁1	-156
ടി	-157
യോ	-158
ത്തെ	-159
▁മു	-160
മാണ്	-161
▁കൊ	-162
ിട്ട	-163
തെ	-164
▁.	-165
ക്കു	-166
വര	-167
ാല്‍	-168
▁വേ	-169
രം	-170
▁പറഞ്ഞ	-171
ുകയും	-172
▁ഓ	-173
▁അവര്‍	-174
ട്	-175
▁കഴ	-176
ിക്കുന്ന	-177
▁യ	-178
ദ്ധ	-179
ഷ്ട	-180
ഹു	-181
മു	-182
നം	-183
്യം	-184
▁നീ	-185
ാമ	-186
ുകള	-187
▁കാര	-188
...	-189
ാക	-190
ലെ	-191
ിവ	-192
രുടെ	-193
ിലും	-194
▁ഗ	-195
▁പറയ	-196
▁2	-197
ച്ച്	-198
ല്ലാഹു	-199
ത്തില്‍	-200
▁ഫ	-201
രോ	-202
ന്നും	-203
വര്‍	-204
▁ഞാന്‍	-205
▁നിങ്ങള്‍	-206
▁തി	-207
▁"	-208
ടുത്ത	-209
കള	-210
ികള	-211
രുന്ന	-212
▁കാണ	-213
▁അല്ലാഹു	-214
ാധ	-215
▁അത്	-216
ദ്ദേ	-217
▁ചെയ്	-218
ൊരു	-219
▁വെ	-220
ായിരുന്നു	-221
ുകയ	-222
▁അത	-223
േഷ	-224
▁സമ	-225
റ്റ്	-226
യം	-227
ക്കും	-228
▁തു	-229
സം	-230
ന്‍റെ	-231
തിയ	-232
ുവ	-233
▁ഹ	-234
ിപ്പ	-235
▁എന്റെ	-236
ിത	-237
▁വീ	-238
ിരിക്ക	-239
▁വാ	-240
ത്ത്	-241
▁ഞാൻ	-242
ൈവ	-243
ാപ	-244
ിന	-245
െന്ന്	-246
പ്പെട	-247
രും	-248
▁സ്വ	-249
▁തീ	-250
റു	-251
രാ	-252
▁ഉപ	-253
ുകൾ	-254
ത്തിന്റെ	-255
ോദ	-256
▁നേ	-257
▁നിങ്ങളുടെ	-258
▁നമ്മ	-259
▁ഡ	-260
ിക്കുന്നു	-261
ണ്ടു	-262
ിലെ	-263
ുമ്പ	-264
ദ്ദേഹ	-265
▁ജീ	-266
പ്പെട്ട	-267
▁നട	-268
കര	-269
ത്തില	-270
▁പേ	-271
▁എന്ത	-272
ങ്ങനെ	-273
▁പറഞ്ഞു	-274
▁കാ	-275
ങ്ങളെ	-276
ഗ്	-277
െയും	-278
മേ	-279
▁അദ്ദേഹ	-280
▁“	-281
ടുക്ക	-282
in	-283
ുകൊ	-284
പോ	-285
▁വ്യ	-286
മ്പ	-287
ന്ദ	-288
▁തന്നെ	-289
▁പരി	-290
er	-291
യ്	-292
▁അറിയ	-293
▁മാത്ര	-294
ാര്‍	-295
▁ഉണ്ട	-296
▁രാ	-297
▁കേ	-298
▁ദൈവ	-299
ദ്യ	-300
േണ്ട	-301
ാൽ	-302
വിടെ	-303
▁t	-304
പ്ര	-305
on	-306
ഡ്	-307
an	-308
▁-	-309
▁അനു	-310
▁നിങ്ങൾ	-311
താണ്	-312
സി	-313
ുണ്ട	-314
ത്തിൽ	-315
▁ഇത്	-316
ുണ്ട്	-317
▁നാം	-318
▁ട	-319
ന്ധ	-320
യുടെ	-321
ഗ്ര	-322
സ്ഥ	-323
▁വള	-324
▁നാ	-325
ിക്കും	-326
ഴ്	-327
▁വല	-328
ഷ്യ	-329
▁സഹ	-330
റ്റി	-331
▁തുട	-332
നും	-333
ഭവ	-334
▁ചോദ	-335
▁മന	-336
െങ്കില്‍	-337
ല്ലാം	-338
▁ക്	-339
കാര	-340
▁ചെ	-341
പ്പോള്‍	-342
▁പക്ഷ	-343
ാർ	-344
▁സത്യ	-345
ക്കി	-346
ത്തു	-347
▁തിര	-348
▁കുറ	-349
▁മറ്റ	-350
ക്കെ	-351
ാഗ	-352
ുകള്‍	-353
▁താ	-354
▁അവരുടെ	-355
ലും	-356
ലി	-357
യോഗ	-358
ല്‍ക	-359
േക്ക്	-360
യെ	-361
▁ജന	-362
ിക്കുക	-363
ണ്ണ	-364
▁നല്ല	-365
▁ചില	-366
▁മൂ	-367
▁'	-368
സ്സ	-369
▁?	-370
ോട്ട	-371
▁ദിവ	-372
ോട്	-373
കള്‍	-374
ിയും	-375
▁സു	-376
▁റ	-377
ടുത	-378
▁തെ	-379
ാത്ത	-380
▁വിശ്	-381
ക്ത	-382
▁ചി	-383
▁കണ്ട	-384
ഴു	-385
▁അല്ല	-386
രിക്കും	-387
പ്പോഴ	-388
െന്ന	-389
നിക്ക	-390
▁നല്‍ക	-391
▁എന്ന്	-392
വിത	-393
▁പര	-394
ക്കുന്ന	-395
ോക	-396
▁കാര്യ	-397
he	-398
തിന	-399
or	-400
▁കൂടുത	-401
ച്ചു	-402
യില്‍	-403
▁എന്നാല്‍	-404
കാ	-405
at	-406
രിയ	-407
▁കോ	-408
യിൽ	-409
യായ	-410
ഴി	-411
നിക്ക്	-412
ന്മാ	-413
ികള്‍	-414
ങ്ങളും	-415
▁20	-416
വർ	-417
ത്ഥ	-418
വ്	-419
▁സ്ഥ	-420
നുഷ്യ	-421
സ്ത	-422
ധാന	-423
മി	-424
ടിയ	-425
▁പെ	-426
▁പല	-427
▁നോ	-428
▁ശ്ര	-429
ar	-430
▁സാധ	-431
ത്തിന്	-432
▁പാ	-433
▁അവി	-434
െങ്കിലും	-435
▁എന്	-436
al	-437
കൾ	-438
ാനും	-439
െയാണ്	-440
st	-441
▁അവന്‍	-442
മാണ	-443
ളി	-444
▁മനുഷ്യ	-445
ളെ	-446
ഗ്രഹ	-447
ട്ടി	-448
പ്	-449
▁അദ്ദേഹം	-450
▁തന്ന	-451
ജ്	-452
വേ	-453
നേ	-454
തും	-455
ഞ്ഞു	-456
▁വേണ്ട	-457
ുദ്ധ	-458
▁സി	-459
en	-460
▁തോ	-461
രണ	-462
ുമ്പോ	-463
▁പൊ	-464
▁അവർ	-465
ന്ത്ര	-466
▁‘	-467
വാസ	-468
ക്കാ	-469
ശ്യ	-470
▁നമ്മുടെ	-471
▁3	-472
▁നില	-473
വന	-474
ബ്	-475
▁യാ	-476
▁ഏറ്റ	-477
ടും	-478
▁എന്നെ	-479
▁ഉപയോഗ	-480
ംഗ	-481
▁വളരെ	-482
ദേശ	-483
▁വര	-484
▁സാ	-485
▁ഇതി	-486
▁എനിക്ക്	-487
▁നിന്ന്	-488
▁പോക	-489
▁അതു	-490
▁എല്ലാ	-491
മാന	-492
ുമായി	-493
െങ്കിൽ	-494
ക്കാര	-495
▁പ്രതി	-496
വസ	-497
ഷ്	-498
പാ	-499
പ്പോൾ	-500
ിക്കുകയും	-501
▁പൂ	-502
യാണ്	-503
▁ആയി	-504
▁ധ	-505
ര്‍ത്ത	-506
▁വലിയ	-507
ിരിക്കുന്നു	-508
ിക്കുന്നത്	-509
▁രാജ	-510
ou	-511
es	-512
ങ്ങി	-513
ൃഷ്ട	-514
ര്‍ച്ച	-515
▁ഏറ്റവും	-516
▁ജീവിത	-517
ളം	-518
ഞ്ച	-519
▁കാല	-520
ളുടെ	-521
▁എനിക്ക	-522
▁എന്നു	-523
കു	-524
മാക	-525
▁ഇവിടെ	-526
▁കഴി	-527
▁ആവ	-528
മില്ല	-529
ട്ട്	-530
▁പുറ	-531
it	-532
ാവി	-533
▁ചെയ്തു	-534
▁അതിന	-535
ട്ടെ	-536
മോ	-537
▁അവരെ	-538
ഷം	-539
▁,	-540
▁ഇത	-541
▁ലോക	-542
▁അവസ	-543
▁:	-544
ാലും	-545
▁രക്ഷ	-546
മെ	-547
▁ജോ	-548
ികൾ	-549
ര്	-550
മുള്ള	-551
00	-552
ധിക	-553
▁മോ	-554
▁ലഭ	-555
വരെ	-556
ോഗ	-557
▁സൂ	-558
ിട	-559
▁നിയ	-560
▁ഭൂ	-561
യില	-562
മല്ല	-563
▁ചെയ്ത	-564
▁S	-565
ീക്ഷ	-566
▁എല്ല	-567
▁A	-568
am	-569
ാതെ	-570
കാശ	-571
പ്പ്	-572
▁വര്‍	-573
ലം	-574
▁വിള	-575
▁പഠ	-576
▁കഴിയ	-577
▁വിശ	-578
ീക	-579
ാണോ	-580
▁എഴു	-581
▁ഓരോ	-582
▁നിന്റെ	-583
▁അഭ	-584
ണ്ടും	-585
▁അയാ	-586
▁സംഭവ	-587
▁പിന്ന	-588
പ്പോഴും	-589
▁C	-590
▁അല്ലാഹുവി	-591
▁നമു	-592
▁അങ്ങനെ	-593
യായും	-594
ിയുടെ	-595
.”	-596
ത്തോ	-597
ീയ	-598
ൂടെ	-599
▁സഹായ	-600
ിക്കാൻ	-601
▁മനസ്സ	-602
▁ഇട	-603
▁ആദ്യ	-604
പ്പം	-605
ൊക്കെ	-606
▁പുതിയ	-607
ിച്ചത്	-608
സ്റ്റ	-609
ല്ലോ	-610
ുന്നില്ല	-611
ാനം	-612
ക്കുക	-613
രമ	-614
ിക്കാന്‍	-615
േഷം	-616
ണി	-617
കം	-618
re	-619
▁അവിടെ	-620
ഴ്ച	-621
▁കട	-622
ങ്ങളില്‍	-623
▁നിന	-624
▁ഞാന	-625
ic	-626
രുത്	-627
ിയെ	-628
▁ആര	-629
▁വർ	-630
ോധ	-631
▁തോന്ന	-632
▁ഉറ	-633
▁കുട്ട	-634
▁മുമ്പ	-635
▁ആണ്	-636
േശ	-637
▁ജീവ	-638
ങ്ങന	-639
മായിരുന്നു	-640
▁കള	-641
▁ഇതു	-642
▁കൈ	-643
▁പോലെ	-644
▁the	-645
is	-646
യ്യ	-647
▁സൃഷ്ട	-648
▁എത്ര	-649
ര്യ	-650
ന്യ	-651
....	-652
▁ദു	-653
ിരുന്നു	-654
▁4	-655
േഖ	-656
▁P	-657
ബി	-658
▁അടുത്ത	-659
▁5	-660
ക്കുന്നു	-661
▁അവൻ	-662
le	-663
ion	-664
ത്രം	-665
▁ശി	-666
om	-667
ത്തിയ	-668
ട്ടു	-669
▁ഭാഗ	-670
▁o	-671
ംഗ്	-672
▁ആവശ്യ	-673
▁എന്നാൽ	-674
▁ആക	-675
▁T	-676
▁ഒന്ന	-677
സാര	-678
ത്തരം	-679
ഫ്	-680
▁w	-681
റിച്ച്	-682
ത്തിലെ	-683
▁തന്റെ	-684
▁മി	-685
ക്തി	-686
ുകയാണ്	-687
ന്തി	-688
▁മെ	-689
▁s	-690
ീകര	-691
▁പക്ഷേ	-692
▁തീര്‍ച്ച	-693
ിച്ച്	-694
▁&	-695
ുമോ	-696
ോടു	-697
▁വിശ്വസ	-698
▁നിങ്ങളെ	-699
▁ഞങ്ങള്‍	-700
▁19	-701
▁എല്ലാവ	-702
നാ	-703
പോലെ	-704
▁വില	-705
▁വന്ന	-706
▁നിന്ന	-707
▁കഴിഞ്ഞ	-708
ാസ	-709
▁കാരണം	-710
ണ്‍	-711
▁വൈ	-712
▁ബന്ധ	-713
▁കിട്ട	-714
▁താങ്ക	-715
ധി	-716
▁c	-717
▁കരു	-718
ന്ത്യ	-719
▁അപ	-720
▁ദിവസം	-721
ിരുന്ന	-722
▁പറയുന്നു	-723
ർത്ത	-724
▁മര	-725
ാനുള്ള	-726
ീകരിക്ക	-727
▁മാത്രം	-728
▁നിങ്ങള	-729
ാരം	-730
▁ദിവസ	-731
▁ചെയ്യുന്ന	-732
▁രണ്ടു	-733
പ്പെടുത്ത	-734
രക്ഷ	-735
മുണ്ട	-736
▁വായ	-737
▁ഞങ്ങൾ	-738
▁M	-739
▁പിന്നെ	-740
ൽക	-741
ത്രീ	-742
▁ഇല്ല	-743
ായിരുന്ന	-744
ഡി	-745
തിന്	-746
ങ്ങിയ	-747
▁കഥ	-748
▁നിര	-749
▁ഇഷ്ട	-750
▁തീര്‍ച്ചയായും	-751
ണമ	-752
▁സംസാര	-753
▁അവന്റെ	-754
▁നിന്നും	-755
രേ	-756
േക്ക	-757
▁ഞങ്ങളുടെ	-758
▁ആഗ്രഹ	-759
▁201	-760
▁f	-761
ത്വ	-762
ക്ട	-763
ുമില്ല	-764
▁...	-765
▁a	-766
ത്തിന	-767
▁കൂട്ട	-768
രീ	-769
വെ	-770
ുകൊണ്ട്	-771
▁of	-772
ിയില്‍	-773
ോഷ	-774
▁ഉള്ള	-775
▁മറ	-776
▁സമയ	-777
▁നിര്‍	-778
▁ചെയ്യും	-779
ിലേക്ക്	-780
ed	-781
▁നൽക	-782
▁ഇവ	-783
gt	-784
▁കൂടുതൽ	-785
ുകൊണ്ട	-786
▁ഖ	-787
▁ഏത	-788
▁വീണ്ടും	-789
▁d	-790
▁പരിശ	-791
ഹം	-792
ക്കിയ	-793
▁വേണ്ടി	-794
ാറ	-795
ത്സ	-796
▁b	-797
തം	-798
▁വിവര	-799
▁പക്ഷെ	-800
ോട	-801
▁ഇനി	-802
രിക്കുന്നു	-803
ൊന്നും	-804
ത്തിനു	-805
▁ആശ	-806
▁ആള	-807
ിച്ചിട്ട	-808
കാരം	-809
ാസ്	-810
▁ഗ്ര	-811
ശ്ച	-812
▁ചേ	-813
▁മാറ്റ	-814
ing	-815
▁സ്ത്രീ	-816
▁അവനെ	-817
ബന്ധ	-818
).	-819
ാരണ	-820
ൂപ	-821
▁അന	-822
ജി	-823
വാദ	-824
▁ആദ	-825
▁p	-826
▁ശിക്ഷ	-827
▁സെ	-828
▁കൊണ്ട്	-829
▁m	-830
രുത്ത	-831
▁ഒരിക്ക	-832
ിലാക്ക	-833
."	-834
ാഹ	-835
ായിരിക്കും	-836
▁പ്രധാന	-837
ളു	-838
▁സന്ത	-839
ലോ	-840
▁അവര	-841
ന്റ	-842
ൃദ	-843
ര്‍ക്ക	-844
▁എങ്ക	-845
▁നിയമ	-846
വു	-847
പി	-848
ാണു	-849
▁മേ	-850
▁എങ്ങനെ	-851
▁ക്ഷ	-852
▁I	-853
ാകുന്നു	-854
ാവ്	-855
and	-856
ുമ്പോള്‍	-857
ഭാഗ	-858
▁അതിന്റെ	-859
▁!	-860
▁രണ്ട	-861
ടുത്തി	-862
ാഷ	-863
▁ഡി	-864
ന്തു	-865
▁അമ്മ	-866
▁പ്രശ്	-867
▁എല്ലാം	-868
▁പോയി	-869
രിപ്പ	-870
ചന	-871
▁ചെയ്യുന്നു	-872
ാകും	-873
▁ഷ	-874
▁വഴ	-875
▁യാത്ര	-876
▁ശ്രമ	-877
▁നിർ	-878
വരും	-879
▁തീരു	-880
▁ദൈവം	-881
▁ഗു	-882
▁സ്നേ	-883
▁പ്രവര്‍	-884
▁അധിക	-885
▁വെള്ള	-886
ുകളും	-887
▁R	-888
▁കൃ	-889
വന്‍	-890
ോള	-891
▁വിജ	-892
ടുംബ	-893
▁നിന്നെ	-894
▁ശേഷം	-895
▁6	-896
്യത	-897
▁എവിടെ	-898
ഖ്യ	-899
ഗം	-900
▁അവസാന	-901
▁ഭൂമ	-902
▁അഭി	-903
▁B	-904
▁സമയം	-905
▁മല	-906
▁നിങ്ങള്‍ക്ക്	-907
▁അവര്‍ക്ക്	-908
▁ഭക്ഷ	-909
ുകാര	-910
▁ഇന്ത്യ	-911
▁സ്വന്ത	-912
ഞ്ഞെ	-913
▁കൂടുതല്‍	-914
ാതി	-915
പു	-916
ായിരിക്ക	-917
ൈന	-918
ടുത്തു	-919
ക്സ്	-920
▁അവന	-921
▁ഒരാ	-922
▁വഴി	-923
▁വേദ	-924
▁കാര്യം	-925
ിന്റെ	-926
▁ട്ര	-927
▁പോല	-928
മാനം	-929
▁അപ്പോള്‍	-930
നായ	-931
▁കണ്ണ	-932
കളും	-933
▁ഉയ	-934
യുള്ള	-935
▁കുടുംബ	-936
▁H	-937
ുകയില്ല	-938
സ്ഥാന	-939
''	-940
▁ഭയ	-941
ീസ്	-942
▁ഐ	-943
▁നിറ	-944
▁തല	-945
കൂ	-946
▁നന്ന	-947
▁നമുക്ക്	-948
ത്തും	-949
▁സത്യം	-950
ാര്‍ത്ഥ	-951
▁അറി	-952
ക്രമ	-953
ത്തര	-954
▁മുന്ന	-955
▁വരെ	-956
▁എന്‍റെ	-957
ികളെ	-958
▁അട	-959
▁ആരോ	-960
▁/	-961
സ്തു	-962
ഷേ	-963
▁വിഷ	-964
▁സ്വാ	-965
▁കണ്ടെ	-966
ല്ലാതെ	-967
▁ഇരു	-968
▁കെ	-969
▁ബോ	-970
▁വീട്ട	-971
▁D	-972
ിക്കാം	-973
റും	-974
ാള	-975
ങ്ങളിൽ	-976
▁തൊ	-977
▁ബി	-978
▁എന്താണ്	-979
▁മുഴ	-980
▁മഹ	-981
▁പങ്ക	-982
ാക്കി	-983
ങ്ങനെയ	-984
▁ശ്രദ്ധ	-985
ക്കള	-986
▁ഫോ	-987
യിലെ	-988
▁ശരിയ	-989
ാണെന്ന്	-990
▁മുത	-991
യ്ക്ക	-992
▁ആത്	-993
▁ചു	-994
ിര	-995
ിലുള്ള	-996
ിയോ	-997
ന്ദ്ര	-998
ച്ഛ	-999
ദ്ദേശ	-1000
ക്കം	-1001
▁വ്യക്ത	-1002
തന്നെ	-1003
▁രാജ്യ	-1004
▁നഷ്ട	-1005
▁നന്ദ	-1006
▁ചെയ്തി	-1007
▁കല	-1008
▁വിവാ	-1009
▁പ്രത്യ	-1010
▁പിന്നീ	-1011
ent	-1012
il	-1013
▁പക	-1014
▁പ്രത	-1015
▁അനുഭവ	-1016
തില്‍	-1017
▁N	-1018
ിക്കൂ	-1019
ിക്കണം	-1020
പ്പെട്ടു	-1021
്യൂ	-1022
േക്കു	-1023
▁പിട	-1024
▁ഇന്ന്	-1025
ാര്യ	-1026
യ്ക്ക്	-1027
കാല	-1028
▁കൂടെ	-1029
▁7	-1030
▁സമാ	-1031
▁കമ്പ	-1032
:1	-1033
▁പാപ	-1034
▁ബാ	-1035
ur	-1036
▁അതിനെ	-1037
▁കൂടി	-1038
മേരിക്ക	-1039
▁to	-1040
ിക്കാന	-1041
ജീ	-1042
വണ	-1043
▁F	-1044
മായും	-1045
▁എന്തു	-1046
▁നാല	-1047
വേഷ	-1048
▁)	-1049
നിയ	-1050
പ്പെടുന്ന	-1051
െന്നു	-1052
ികളുടെ	-1053
▁കൊണ്ട	-1054
▁തന്നെയാണ്	-1055
▁തര	-1056
▁അടി	-1057
▁വിശ്വാസ	-1058
ന്മ	-1059
et	-1060
▁ഉണ്ട്	-1061
▁ഹൃദ	-1062
▁രൂപ	-1063
വിധ	-1064
▁രണ്ട്	-1065
▁യു	-1066
▁വാക്ക	-1067
തായി	-1068
രമായ	-1069
വദ	-1070
േശു	-1071
ഹോ	-1072
മാര്‍	-1073
▁അമേരിക്ക	-1074
▁ലി	-1075
മുണ്ട്	-1076
▁ചെറിയ	-1077
ൊപ്പം	-1078
▁in	-1079
▁യഥ	-1080
ര്‍ശ	-1081
ദ്ര	-1082
ഷേധ	-1083
കൊ	-1084
ac	-1085
▁ലക്ഷ	-1086
▁രീ	-1087
▁സ്നേഹ	-1088
▁പുസ്ത	-1089
▁ഒരിക്കലും	-1090
▁അല്ലെങ്കിൽ	-1091
െയ്	-1092
കളെ	-1093
സ്പ	-1094
▁നോക്ക	-1095
▁അവൾ	-1096
▁9	-1097
▁അതിനാല്‍	-1098
▁10	-1099
നിമ	-1100
▁L	-1101
ന്റ്	-1102
▁8	-1103
പെ	-1104
▁E	-1105
▁മറ്റൊരു	-1106
▁രാത്ര	-1107
▁ഇപ്പോൾ	-1108
▁അല	-1109
ിക്കേണ്ട	-1110
ില്ലേ	-1111
▁പറ്റ	-1112
▁തട	-1113
ുത	-1114
റോ	-1115
▁അയ	-1116
▁തിരിച്ച	-1117
▁മുഴുവ	-1118
▁നിങ്ങൾക്ക്	-1119
▁കഴിയും	-1120
▁വയ	-1121
el	-1122
▁W	-1123
▁പിത	-1124
▁വിധ	-1125
▁അവള്‍	-1126
▁പോലും	-1127
▁യൂ	-1128
ാവുന്ന	-1129
ാവും	-1130
▁സ്റ്റ	-1131
ദേശം	-1132
▁രോഗ	-1133
▁തെറ്റ	-1134
ുമ്പോൾ	-1135
ുകൂ	-1136
▁തുറ	-1137
ല്ലേ	-1138
ിയിൽ	-1139
ാന്ത	-1140
ശ്വാസ	-1141
സ്ര	-1142
ാത	-1143
പടി	-1144
▁അതില്‍	-1145
▁തേ	-1146
ാക്കിയ	-1147
▁and	-1148
▁”	-1149
▁ഡോ	-1150
▁വന്നു	-1151
പ്പെടുന്നു	-1152
ol	-1153
▁ഇന്ന	-1154
പേ	-1155
▁മിക	-1156
▁ഒന്നും	-1157
▁ഇപ്പോള്‍	-1158
▁കൊണ്ടു	-1159
യായി	-1160
പ്പി	-1161
കല	-1162
▁വര്‍ഷ	-1163
കട	-1164
മാക്ക	-1165
▁ബ്ര	-1166
ൂത	-1167
ക്കുറിച്ച്	-1168
വരുടെ	-1169
▁യേശു	-1170
▁സാക്ഷ	-1171
▁എന്നിട്ട	-1172
▁ബാധ	-1173
▁h	-1174
▁ഉട	-1175
ീല	-1176
▁ജോലി	-1177
▁ചെയ്യുക	-1178
▁രക്ഷിത	-1179
▁–	-1180
സ്റ്റ്	-1181
യു	-1182
▁ഇറ	-1183
▁പഴ	-1184
▁ഏറെ	-1185
പ്പു	-1186
ചക	-1187
▁പിന്നീട്	-1188
േറ്റ	-1189
▁വേണം	-1190
▁ആണ	-1191
ത്തിന്‍റെ	-1192
▁G	-1193
ജ്ഞ	-1194
▁കൂട	-1195
▁n	-1196
ീസ	-1197
as	-1198
▁അതെ	-1199
▁മുഖ	-1200
നീ	-1201
▁ഓര്‍	-1202
ഘട	-1203
ധ്യ	-1204
▁കണ്ടു	-1205
▁ചിത്ര	-1206
▁വിദ്യ	-1207
യില്ല	-1208
ot	-1209
തിനെ	-1210
▁വരു	-1211
മാകുന്നു	-1212
▁അതിനു	-1213
േക	-1214
▁മികച്ച	-1215
▁നടത്ത	-1216
▁തങ്ങളുടെ	-1217
▁സമാധാന	-1218
▁''	-1219
ോടെ	-1220
▁മറ്റു	-1221
ക്കൊ	-1222
▁ഖു	-1223
ിലൂടെ	-1224
▁200	-1225
▁മരണ	-1226
രംഭ	-1227
വം	-1228
▁തിരിച്ചു	-1229
▁സംശ	-1230
▁മറു	-1231
?”	-1232
▁അസ	-1233
▁മട	-1234
ല്	-1235
▁യഹോ	-1236
▁പ്രവർ	-1237
വര്‍ക്ക്	-1238
ിരിക്കുന്ന	-1239
മ്	-1240
▁നാഥ	-1241
▁മാത	-1242
▁സ്വന്തം	-1243
▁സൈ	-1244
▁നിനക്ക്	-1245
▁സാമ	-1246
ിക്കൊ	-1247
▁എല്ലാവരും	-1248
ത്തിലും	-1249
ാർത്ഥ	-1250
തര	-1251
▁സൂക്ഷ	-1252
ടേ	-1253
▁അവരോ	-1254
െന്നും	-1255
▁എളു	-1256
▁നന്ദി	-1257
▁സ്വയം	-1258
ൂഹ	-1259
ുകളെ	-1260
ാദ	-1261
▁പ്രതീക്ഷ	-1262
▁അംഗ	-1263
ർക്ക	-1264
വനും	-1265
വോ	-1266
ത്തേ	-1267
ായം	-1268
▁ആദ്യം	-1269
ൊന്ന	-1270
▁സാധാരണ	-1271
▁പറയുന്ന	-1272
ത്തോടെ	-1273
ad	-1274
▁അനുഗ്രഹ	-1275
▁സേ	-1276
ര്‍ആ	-1277
ികളും	-1278
▁കണ	-1279
ചാര	-1280
▁കൊടുക്ക	-1281
▁പൊറു	-1282
▁ഭാര്യ	-1283
ണിയ	-1284
▁തന്നെയ	-1285
.’	-1286
ay	-1287
കളുടെ	-1288
▁ചിന്തി	-1289
▁റി	-1290
ക്കുറ	-1291
▁പ്രവര്‍ത്തി	-1292
▁മനസ്സിലാക്ക	-1293
രിക്കുന്ന	-1294
▁മക	-1295
രുഷ	-1296
▁കുറ്റ	-1297
ുള്ളത്	-1298
20	-1299
ow	-1300
ൊക്ക	-1301
▁കയ	-1302
▁ഇങ്ങനെ	-1303
ബ്ദ	-1304
തിനു	-1305
▁മൊ	-1306
▁സിനിമ	-1307
േണ്ടി	-1308
ഞ്ഞ്	-1309
▁ഫല	-1310
ുകളുടെ	-1311
തന്ത്ര	-1312
ിലാണ്	-1313
രില്‍	-1314
▁തെള	-1315
ോട്ട്	-1316
പക്ഷ	-1317
▁അന്	-1318
▁കീ	-1319
▁സഹോദ	-1320
▁ആയിരുന്നു	-1321
ിത്	-1322
▁എനിക്കു	-1323
േക്ഷ	-1324
നോ	-1325
▁ചോദിച്ചു	-1326
▁പറയുക	-1327
കൃ	-1328
▁തീരുമാന	-1329
ുണ്ടോ	-1330
▁സന്തോഷ	-1331
ർച്ച	-1332
▁ഇത്ര	-1333
▁വാങ്ങ	-1334
▁നിശ്ച	-1335
െയ്യ	-1336
▁പരീക്ഷ	-1337
▁നന്നായി	-1338
▁പരാ	-1339
ation	-1340
ിട്ടുണ്ട്	-1341
ക്കാള്‍	-1342
ല്‍പ	-1343
▁ഏക	-1344
▁മുമ്പ്	-1345
▁മണ	-1346
ർന്ന	-1347
▁ജീവിതം	-1348
▁റോ	-1349
art	-1350
ഹൃ	-1351
▁നല്‍കിയ	-1352
ജന	-1353
▁ക്ല	-1354
▁O	-1355
ര്‍ക്കും	-1356
മാവ	-1357
▁ശരീ	-1358
▁പിന്തു	-1359
▁പ്ല	-1360
▁l	-1361
പോക	-1362
ിയാണ്	-1363
▁പൂര്‍	-1364
ത്തന	-1365
▁ലൈ	-1366
▁തിരഞ്ഞെ	-1367
▁കേര	-1368
▁സൗ	-1369
▁അല്ലാഹുവിന്റെ	-1370
▁ന്	-1371
ീപ	-1372
വാസം	-1373
▁ചൈന	-1374
ശം	-1375
െയി	-1376
ിട്ടില്ല	-1377
താ	-1378
▁പ്രത്യേക	-1379
▁വായി	-1380
▁ഓർ	-1381
ീന	-1382
▁ചോദ്യം	-1383
ളിച്ച	-1384
ാരാ	-1385
ക്സ	-1386
ായത്	-1387
▁ഭാഷ	-1388
▁..	-1389
▁അവളുടെ	-1390
▁എന്നും	-1391
▁കാരണ	-1392
▁ഒരേ	-1393
▁സുരക്ഷ	-1394
ങ്ങള്‍ക്ക്	-1395
▁എന്ത്	-1396
▁വർഷ	-1397
▁താഴ	-1398
▁പറയും	-1399
▁സുഹൃ	-1400
▁ഉറപ്പ	-1401
തിര	-1402
നിന്ന്	-1403
▁മാത്രമാണ്	-1404
ഷ്ട്ര	-1405
▁മാത്രമേ	-1406
▁യുദ്ധ	-1407
തെന്ന്	-1408
▁വരും	-1409
ുമെന്ന്	-1410
ിനെ	-1411
ിക്കുകയ	-1412
ലോക	-1413
റിയാം	-1414
ct	-1415
▁യഹോവ	-1416
▁നാമ	-1417
amp	-1418
▁നിന്നു	-1419
▁ക്രി	-1420
▁പറയുന്നത്	-1421
▁സന്ദ	-1422
▁അയാള്‍	-1423
ണ്ടോ	-1424
ുകളില്‍	-1425
▁ആകാശ	-1426
രുക	-1427
▁നഗ	-1428
▁മാര്‍	-1429
ടുത്ത്	-1430
്രോ	-1431
▁ഊ	-1432
▁കേട്ട	-1433
▁ആരംഭ	-1434
▁കേള്‍	-1435
▁മറ്റുള്ള	-1436
▁അത്ര	-1437
iv	-1438
ക്കൂ	-1439
നായി	-1440
രിച്ച്	-1441
▁ആരും	-1442
ല്യ	-1443
▁വിശദ	-1444
▁എന്നിവ	-1445
▁പരിശോധ	-1446
▁ടെ	-1447
▁നേര	-1448
?"	-1449
യാള	-1450
▁പ്രവാ	-1451
lt	-1452
▁മത	-1453
▁_	-1454
▁എളുപ്പ	-1455
ക്കാന്‍	-1456
ro	-1457
സിന	-1458
▁തമ്മ	-1459
▁സ്പ	-1460
നില്‍	-1461
▁പട്ട	-1462
▁താങ്കള്‍	-1463
▁കുട	-1464
▁അല്ലെങ്കില്‍	-1465
▁ബുദ്ധ	-1466
us	-1467
ാര്‍ഥ	-1468
ായാലും	-1469
▁പ്രതിഫ	-1470
▁കൊല്ല	-1471
▁വെറു	-1472
ോർ	-1473
വിശ്വാസ	-1474
▁പുരുഷ	-1475
▁ചോദ്യ	-1476
▁എപ്പോഴും	-1477
▁വ്യത്യ	-1478
▁[	-1479
▁ഇത്തരം	-1480
▁ഖുര്‍ആ	-1481
id	-1482
▁ആരോഗ	-1483
ക്കുകയും	-1484
ാഭ	-1485
പ്പെടുത്തി	-1486
▁ഞാനും	-1487
ളും	-1488
▁അഭിപ്ര	-1489
▁അങ്ങ	-1490
▁സ്ഥല	-1491
പാട്	-1492
▁കരുത	-1493
▁12	-1494
ിക്കുന്നില്ല	-1495
ങ്കിലും	-1496
രോധ	-1497
ിക്കപ്പെട്ട	-1498
ങ്ങളാണ്	-1499
="	-1500
▁ഒഴി	-1501
പ്പറ്റി	-1502
സ്യ	-1503
▁ഞങ്ങളെ	-1504
▁ആരെ	-1505
▁ചരി	-1506
ാമോ	-1507
▁കര	-1508
ചനം	-1509
ഹിത	-1510
▁വല്ല	-1511
▁അതിന്	-1512
▁എന്നത്	-1513
▁അതേ	-1514
ാണെങ്കില്‍	-1515
ത്യാ	-1516
▁കണ്ടെത്ത	-1517
▁ചെല	-1518
▁ഹൃദയ	-1519
ുകളിൽ	-1520
▁കി	-1521
▁യാത	-1522
▁ഉദ്ദേശ	-1523
▁y	-1524
▁18	-1525
▁താമ	-1526
▁മതി	-1527
ണ്ണം	-1528
▁കാത്തി	-1529
▁മുന്‍	-1530
▁സര്‍	-1531
റ്റെ	-1532
കരമായ	-1533
ിരിക്കുന്നത്	-1534
വില്‍	-1535
▁മൂന്ന	-1536
▁എങ്കിലും	-1537
▁അക	-1538
ണമേ	-1539
നാണ്	-1540
ുവാന്‍	-1541
▁മറുപടി	-1542
ൂര്‍	-1543
യേ	-1544
ണു	-1545
▁വരുന്ന	-1546
നിന്നു	-1547
▁മനോ	-1548
▁ചെറു	-1549
ത്തിലുള്ള	-1550
ുകൊണ്ടു	-1551
സമ	-1552
▁പരിഹ	-1553
▁നേരി	-1554
▁15	-1555
ഭാവ	-1556
ാട	-1557
▁വിജയ	-1558
▁സോ	-1559
ക്കാൻ	-1560
സ്സ്	-1561
▁മൂന്നു	-1562
ിച്ചിരിക്കുന്നു	-1563
▁അനുവദ	-1564
ിന്	-1565
▁st	-1566
െന്നാണ്	-1567
വ്വ	-1568
▁മാസ	-1569
ut	-1570
ായേ	-1571
▁എത്തി	-1572
ശേഷം	-1573
▁പദ്ധ	-1574
▁പ്രവാചക	-1575
ൽപ്പ	-1576
റേ	-1577
▁കേരള	-1578
ട്ടിയ	-1579
000	-1580
ാവില്ല	-1581
ധികം	-1582
▁സ്വീകരിക്ക	-1583
ല്ലാത്ത	-1584
im	-1585
▁എഴുത	-1586
്വ	-1587
▁അച്ഛ	-1588
ൃത്തി	-1589
ിക്കു	-1590
▁th	-1591
വിട	-1592
പര	-1593
വിന്റെ	-1594
▁സംരക്ഷ	-1595
ര്‍ന്ന	-1596
ത്തം	-1597
ീത	-1598
▁പേര്	-1599
▁അവത	-1600
ിച്ചിരുന്നു	-1601
▁മാത്രമല്ല	-1602
ക്കുന്നത്	-1603
ത്വം	-1604
▁പാല	-1605
ത്തിനും	-1606
▁അവകാശ	-1607
▁എന്നാണ്	-1608
ക്കാര്‍	-1609
ig	-1610
ായ്	-1611
▁തയ്യ	-1612
▁സാഹ	-1613
ുപ	-1614
വേശ	-1615
രുണ	-1616
തോ	-1617
▁ഇന	-1618
▁സമ്പ	-1619
▁വ്യക്തി	-1620
പ്പെടു	-1621
തെല്ലാം	-1622
വഴ	-1623
▁ഉദ	-1624
▁കിട	-1625
▁ൽ	-1626
തല്ല	-1627
ചെയ്യ	-1628
▁അടുക്ക	-1629
മ്പോ	-1630
▁നിമി	-1631
▁പ്രണ	-1632
▁സ്ഥാപ	-1633
ഴുന്ന	-1634
▁വ്യത്യസ്ത	-1635
▁തുടങ്ങിയ	-1636
▁അനുസ	-1637
▁നേത	-1638
▁പെട്ട	-1639
▁നശ	-1640
ശാ	-1641
▁തുടങ്ങ	-1642
▁ബ്ല	-1643
▁പുസ്തക	-1644
▁പഠിപ്പ	-1645
▁പണം	-1646
▁ലോ	-1647
▁അവസ്ഥ	-1648
േഷൻ	-1649
▁പഴയ	-1650
▁പ്രോ	-1651
▁ആരാധ	-1652
ന്മാര്‍	-1653
▁പൂർ	-1654
:2	-1655
ത്തിലേക്ക്	-1656
ത്രെ	-1657
ീഷ	-1658
▁സംഗ	-1659
▁വേദന	-1660
.'	-1661
▁അന്വേഷ	-1662
nd	-1663
▁11	-1664
▁മാറ	-1665
ിച്ചാല്‍	-1666
ഘട്ട	-1667
▁സർ	-1668
▁എടുക്ക	-1669
ികെ	-1670
▁ശത	-1671
ബർ	-1672
വിൽ	-1673
▁കാര്യങ്ങള്‍	-1674
▁പരസ്പ	-1675
സാ	-1676
▁ടീ	-1677
▁സഹോദര	-1678
പ്പെടും	-1679
!!	-1680
▁അര്‍	-1681
▁ഇവര്‍	-1682
▁നിന്‍റെ	-1683
ിതി	-1684
ch	-1685
▁you	-1686
▁മന്ത്ര	-1687
▁വെള്ളം	-1688
▁തൊഴ	-1689
▁ആരോഗ്യ	-1690
▁ചിന്ത	-1691
▁ഉണ്ടാക	-1692
▁വര്‍ഷം	-1693
തിൽ	-1694
▁തക	-1695
▁ഇതിന	-1696
ശേഷ	-1697
▁കാർ	-1698
▁സമ്മ	-1699
▁ഒറ്റ	-1700
ക്കാല	-1701
▁പ്രശ്ന	-1702
ങ്ങനെയാണ്	-1703
▁നമ്മള്‍	-1704
വുമായി	-1705
▁തവണ	-1706
oo	-1707
ക്കുള്ള	-1708
▁ദേശ	-1709
ക്കുവ	-1710
ിലേ	-1711
ലൈ	-1712
സ്രായേ	-1713
▁പോയ	-1714
വരാണ്	-1715
▁തുടങ്ങി	-1716
▁നെ	-1717
▁ശക്ത	-1718
ര്‍ത്തി	-1719
▁ബോധ	-1720
സ്ല	-1721
▁നാട്ട	-1722
▁പണ	-1723
▁സ്വപ്	-1724
▁മത്സ	-1725
▁കുറിച്ച്	-1726
കരണ	-1727
▁for	-1728
▁g	-1729
ൻറെ	-1730
▁വർഷം	-1731
▁പറഞ്ഞത്	-1732
▁മീ	-1733
▁കുറഞ്ഞ	-1734
ag	-1735
പ്രകാരം	-1736
▁മുൻ	-1737
▁കാഴ്ച	-1738
▁ഉത്തരം	-1739
ഘടന	-1740
▁നര	-1741
▁വിഭാഗ	-1742
ങ്ങ്	-1743
ഗ്ദ	-1744
▁അതുകൊണ്ട്	-1745
▁രാവ	-1746
ിച്ചില്ല	-1747
▁ആത്മ	-1748
▁അതാണ്	-1749
ിച്ചിരുന്ന	-1750
ജ്ജ	-1751
em	-1752
▁നില്‍	-1753
▁ചെയ്യുന്നത്	-1754
▁എന്തെങ്കിലും	-1755
▁എന്തിന	-1756
▁അഞ്ച	-1757
▁വസ്തു	-1758
ശ്യം	-1759
എസ്	-1760
▁സംബന്ധ	-1761
ടിപ്പ	-1762
ാവിന്റെ	-1763
ir	-1764
ളള	-1765
▁സാധ്യത	-1766
ട്ടും	-1767
ിയ്	-1768
▁പതി	-1769
ിലോ	-1770
▁സ്വര്‍	-1771
▁is	-1772
ചി	-1773
ഗണ	-1774
ഞ്ച്	-1775
▁മറ്റ്	-1776
ൃത	-1777
െയുള്ള	-1778
ക്കായി	-1779
▁ഫ്ര	-1780
▁വൈക	-1781
ക്കള്‍	-1782
മാർ	-1783
രുവ	-1784
ട്ടില്ല	-1785
രിക്കുക	-1786
▁മനസ	-1787
▁സംഘ	-1788
ദി	-1789
▁മണിക്കൂ	-1790
▁ഓഫ	-1791
▁ഒഴിവാ	-1792
▁ഔ	-1793
▁സംശയ	-1794
▁ഡോക്ട	-1795
മാര	-1796
തിക	-1797
ex	-1798
▁കുറച്ചു	-1799
▁അവളെ	-1800
▁കഴിവ	-1801
▁അദ്ദേഹത്തിന്റെ	-1802
▁കിട്ടിയ	-1803
▁താമസ	-1804
▁ബുദ്ധി	-1805
▁U	-1806
▁ഭക്ഷണം	-1807
▁ചൂ	-1808
▁രീതി	-1809
യിച്ച	-1810
പറ	-1811
▁ഇൻ	-1812
രിച്ചു	-1813
▁ആർ	-1814
▁ലെ	-1815
ക്തിയ	-1816
ർശ	-1817
▁ജോല	-1818
▁k	-1819
.''	-1820
▁പാട	-1821
▁മനസ്സില	-1822
▁ചുറ്റ	-1823
ബ്ര	-1824
▁രാഷ്ട്ര	-1825
▁വേറെ	-1826
ിതമായ	-1827
രൂ	-1828
ണോ	-1829
ക്കിട	-1830
ന്മാർ	-1831
▁ക്ഷമ	-1832
▁നോക്കി	-1833
ത്തീ	-1834
വിനെ	-1835
▁നിയന്ത്ര	-1836
▁പലപ്പോഴും	-1837
▁യാതൊരു	-1838
ായിരുന്നില്ല	-1839
▁സുഖ	-1840
▁പരസ്പരം	-1841
▁ഭാവ	-1842
▁ലേഖ	-1843
രുന്നില്ല	-1844
▁നടന്ന	-1845
▁മൂന്ന്	-1846
ഡിയോ	-1847
▁റെ	-1848
ാന്	-1849
▁ഏതു	-1850
▁പ്രവ	-1851
ശി	-1852
▁ഉത്തര	-1853
നിൽ	-1854
ന്ഥ	-1855
▁;	-1856
▁തള്ള	-1857
▁പലരും	-1858
▁നഗര	-1859
▁കള്ള	-1860
▁ശരിക്കും	-1861
ഹ്	-1862
▁അയാൾ	-1863
▁വാഗ്ദ	-1864
▁ഉണ്ടായിരുന്നു	-1865
▁തയ്യാറ	-1866
▁രാത്രി	-1867
ബോധ	-1868
ക്കുറിച്ച	-1869
▁ജി	-1870
ട്ടുണ്ട്	-1871
ക്കാർ	-1872
▁അതോ	-1873
േയ	-1874
െടുക്ക	-1875
▁ശരീര	-1876
േണ്ടത്	-1877
▁നമ്മെ	-1878
ൂമ	-1879
▁കൃത്യ	-1880
▁അപകട	-1881
▁പ്രാര്‍ത്ഥ	-1882
ത്തിലാണ്	-1883
സൈ	-1884
▁ശബ്ദ	-1885
▁നയ	-1886
സ്വ	-1887
▁ഒര	-1888
യോജ	-1889
തിന്റെ	-1890
ers	-1891
ണമെന്ന്	-1892
മം	-1893
▁അല്ലാഹുവ	-1894
▁ഉണ്ടാക്ക	-1895
▁അന്ന	-1896
ഡിയ	-1897
▁നേട	-1898
▁പൊതു	-1899
▁ആയ	-1900
▁സങ്ക	-1901
മൂ	-1902
▁ഇതാണ്	-1903
un	-1904
▁രേഖ	-1905
▁വിപ	-1906
▁വിവാഹ	-1907
പാട	-1908
ങ്ങിനെ	-1909
ോഷം	-1910
▁കുഞ്ഞ	-1911
പോല	-1912
തിരെ	-1913
ശ്ര	-1914
കാര്യ	-1915
▁പദ്ധതി	-1916
▁വിളിച്ചു	-1917
▁മാറി	-1918
▁പ്രിയ	-1919
▁തോന്നുന്നു	-1920
▁വിവാഹം	-1921
രിച്ച	-1922
തില	-1923
ങ്ങളിലും	-1924
ാനു	-1925
▁എഴുതി	-1926
ടം	-1927
▁കൂടാതെ	-1928
▁ദേ	-1929
th	-1930
▁അവതരിപ്പ	-1931
▁നിഷേധ	-1932
ാരി	-1933
പ്പോലെ	-1934
മായിരിക്കും	-1935
▁ചെയ്യാൻ	-1936
തുപോലെ	-1937
മുഖ	-1938
▁മുതൽ	-1939
▁കുഴ	-1940
ര്‍ന്നു	-1941
▁സീ	-1942
▁നൂ	-1943
പോയി	-1944
▁സൂര്യ	-1945
op	-1946
കളില്‍	-1947
യോടെ	-1948
▁ഏത്	-1949
▁ഒന്ന്	-1950
▁ഇപ്പോഴും	-1951
ാസ്ത്ര	-1952
▁(1	-1953
▁ശക്തി	-1954
ാഴ്ച	-1955
ce	-1956
ോടൊപ്പം	-1957
രണം	-1958
▁പ്രൊ	-1959
▁ദൂത	-1960
▁ഭക്ഷണ	-1961
▁അപ്പ	-1962
ഞാന്‍	-1963
മാക്കി	-1964
ക്യ	-1965
ുമായിരുന്നു	-1966
▁നാള	-1967
▁ലോകം	-1968
▁പ്രവേശ	-1969
▁പകരം	-1970
▁ദൈവത്തിന്റെ	-1971
▁ഇനിയും	-1972
▁ഒരുപാട്	-1973
▁re	-1974
ദ്ദ	-1975
സൂ	-1976
▁നമ്മൾ	-1977
▁അടിസ്ഥാന	-1978
്ട്ര	-1979
ുമുള്ള	-1980
▁ആരാണ്	-1981
നില	-1982
▁ഒഴ	-1983
▁ദി	-1984
▁മിനി	-1985
വരു	-1986
വിധാന	-1987
▁ഹോ	-1988
തേ	-1989
▁ആരെങ്കിലും	-1990
▁പ്രവർത്തി	-1991
ാനി	-1992
▁ദയ	-1993
മാണോ	-1994
▁വിചാര	-1995
▁വരുന്നു	-1996
all	-1997
▁അന്ന്	-1998
▁കാണാം	-1999
▁രക്ത	-2000
▁കാലം	-2001
റിയില്ല	-2002
ame	-2003
ാരാളം	-2004
ഗ്ഗ	-2005
ുമുണ്ട്	-2006
ാമത്തെ	-2007
▁അറിഞ്ഞ	-2008
േക്കാം	-2009
പ്പർ	-2010
ിപ്പിച്ചു	-2011
ഭാഷ	-2012
▁നിന്നുള്ള	-2013
വല	-2014
ാനാണ്	-2015
ങ്ക്	-2016
ുകയായിരുന്നു	-2017
എന്റെ	-2018
▁ധാരാളം	-2019
മസ്	-2020
▁എം	-2021
▁പുറത്ത	-2022
▁അങ്ങനെയ	-2023
ab	-2024
ാറു	-2025
▁പേരു	-2026
▁വെറും	-2027
▁മനോഹ	-2028
▁പ്രസി	-2029
▁കാണുന്ന	-2030
ര്‍ക്ക്	-2031
ക്കാൾ	-2032
▁on	-2033
▁പരിച	-2034
▁14	-2035
ess	-2036
യാക	-2037
യുണ്ട്	-2038
▁തെളിവ	-2039
▁കൊള്ള	-2040
▁പ്രായ	-2041
ക്കേ	-2042
▁ശത്	-2043
വൻ	-2044
▁മാന	-2045
ter	-2046
ര്‍മ്മ	-2047
▁ദിവസവും	-2048
▁സമയത്ത്	-2049
▁താര	-2050
വായി	-2051
ിയേ	-2052
▁16	-2053
രിൽ	-2054
ാവു	-2055
▁ബൈ	-2056
▁കൂടിയ	-2057
ദ്ധ്യ	-2058
▁അവന്‍റെ	-2059
▁വിഷയ	-2060
കുട്ട	-2061
▁സ്കൂ	-2062
▁13	-2063
കോ	-2064
യാല്‍	-2065
▁നിനക്കു	-2066
തന്ന	-2067
▁അന്ത	-2068
▁എതി	-2069
▁വിട	-2070
▁ഡ്ര	-2071
ലാ	-2072
▁മാസം	-2073
ാവേ	-2074
ടുപ്പ	-2075
▁ശേഷ	-2076
▁0	-2077
ത്തോളം	-2078
ഷി	-2079
▁കേൾ	-2080
▁ന്യായ	-2081
▁ജനത	-2082
▁നമ്പ	-2083
▁കവിത	-2084
നുസ	-2085
ികള്‍ക്ക്	-2086
ിക്കരുത്	-2087
▁ഇതാ	-2088
ity	-2089
▁എന്നിട്ട്	-2090
▁ഉൾ	-2091
▁ഗോ	-2092
▁വസ്	-2093
▁നു	-2094
ൊരാ	-2095
▁അറിയുന്ന	-2096
▁കേന്ദ്ര	-2097
ുണ്ടായി	-2098
ര്‍ഭ	-2099
പരി	-2100
▁J	-2101
▁സന്	-2102
▁ആഹ	-2103
സു	-2104
ംഗ്ല	-2105
ലേ	-2106
▁രീതിയ	-2107
മാക്കിയ	-2108
ഷണ	-2109
▁17	-2110
▁നേരെ	-2111
.)	-2112
▁കടന്നു	-2113
ഥവാ	-2114
▁മഴ	-2115
▁സമീപ	-2116
▁ടി	-2117
▁അറിയാം	-2118
▁ചെയ്തത്	-2119
▁സംവിധാന	-2120
രായ	-2121
ist	-2122
▁താങ്കളുടെ	-2123
▁പ്രകാരം	-2124
പ്പാ	-2125
▁വിശുദ്ധ	-2126
▁ഭരണ	-2127
ുകൊണ്ടാണ്	-2128
▁ഞങ്ങള	-2129
ത്തെയും	-2130
റുകൾ	-2131
ാറ്റ	-2132
▁ചിത്രം	-2133
▁ആകുന്നു	-2134
ഭുത	-2135
▁വൃ	-2136
വനെ	-2137
▁ലഭ്യ	-2138
:3	-2139
▁ചെയ്യാന്‍	-2140
ate	-2141
av	-2142
ക്കൾ	-2143
ണ്ഡ	-2144
യുന്ന	-2145
▁വേഗ	-2146
െല്ലാം	-2147
▁കഴിയില്ല	-2148
മാറ	-2149
ശ്വര	-2150
▁കയ്യ	-2151
▁ഇതില്‍	-2152
ഖ്യാപ	-2153
▁അവസാനം	-2154
▁അള	-2155
ായില്ല	-2156
ാസം	-2157
ീര	-2158
ia	-2159
▁നടത്തി	-2160
▁നിലവ	-2161
ൊഴ	-2162
പട	-2163
▁ചൊ	-2164
▁ചരിത്ര	-2165
ിതാക്ക	-2166
സിന്റെ	-2167
▁പുത്ര	-2168
ൂർ	-2169
തായ	-2170
▁അപ്പോൾ	-2171
വനാണ്	-2172
ത്തിനായി	-2173
▁ബിസിന	-2174
▁മരിച്ച	-2175
▁അറ	-2176
▁K	-2177
▁അരു	-2178
▁വെളിച്ച	-2179
▁പാര്‍	-2180
.1	-2181
▁അതിനാൽ	-2182
▁V	-2183
പ്പെടുന്നത്	-2184
▁മോശ	-2185
▁ഉണ	-2186
▁ആലോ	-2187
ാജ	-2188
ിയുള്ള	-2189
ർന്നു	-2190
ക്കോ	-2191
നോട്	-2192
▁ഖുര്‍ആന്‍	-2193
▁തെര	-2194
▁അഭിന	-2195
os	-2196
ജീവ	-2197
ത്യം	-2198
▁പ്രസ	-2199
▁അഭിപ്രായ	-2200
▁നേഹ	-2201
um	-2202
ാതിരിക്ക	-2203
ായക	-2204
▁ജൂ	-2205
▁ഉദാഹ	-2206
▁കീഴ	-2207
▁അഥവാ	-2208
ാലോ	-2209
▁സാഹച	-2210
▁മിക്ക	-2211
ിക്കില്ല	-2212
ബൈ	-2213
est	-2214
▁നന്മ	-2215
ര്‍പ്പ	-2216
▁വായിച്ച	-2217
▁യെ	-2218
▁അധികം	-2219
ുകയോ	-2220
▁തിരു	-2221
▁തോന്നി	-2222
ട്ടം	-2223
േദ	-2224
▁മുഴുവന്‍	-2225
െയോ	-2226
▁നല്‍കുന്ന	-2227
ക്ഷേ	-2228
ിക്കാത്ത	-2229
▁സമൂഹ	-2230
ിട്ട്	-2231
▁താഴെ	-2232
കസ	-2233
ല്പ	-2234
▁25	-2235
▁പുന	-2236
രാണ്	-2237
റ്റർ	-2238
▁ദൃഷ്ട	-2239
യർ	-2240
▁ഏതെങ്കിലും	-2241
നിഷേധ	-2242
▁കണക്ക	-2243
▁ആഴ്ച	-2244
▁ആദ്യത്തെ	-2245
ങ്ങൾക്ക്	-2246
▁ഇതിനെ	-2247
▁മാർ	-2248
ിയായി	-2249
തല	-2250
▁നാളെ	-2251
ന്നി	-2252
വധി	-2253
ബു	-2254
▁ഹി	-2255
േറ്റ്	-2256
▁വിട്ടു	-2257
അല്ലാഹു	-2258
▁വിട്ട	-2259
േക്കും	-2260
if	-2261
▁പരാജ	-2262
▁പ്രഖ്യാപ	-2263
▁സാമ്പ	-2264
ിക്കാനും	-2265
ത്തന്നെ	-2266
▁തന്‍റെ	-2267
ത്തിയത്	-2268
▁അക്രമ	-2269
▁ശത്രു	-2270
യുണ്ട	-2271
▁പെരു	-2272
ിപ	-2273
▁Y	-2274
-1	-2275
▁30	-2276
ക്കളെ	-2277
ോട്ടോ	-2278
▁ഒപ്പം	-2279
ത്തേക്ക്	-2280
ഫി	-2281
ഒരു	-2282
▁മരണം	-2283
▁സ്ഥാന	-2284
▁സഭ	-2285
▁മാര്‍ഗ	-2286
▁The	-2287
▁ചുമ	-2288
▁ശരിയായ	-2289
ഘോഷ	-2290
ണമെന്ന	-2291
▁പുതു	-2292
ിയിലെ	-2293
ഹന	-2294
▁മുറ	-2295
▁ഫാ	-2296
ളേ	-2297
▁കാര്യങ്ങൾ	-2298
▁അറിയില്ല	-2299
ev	-2300
ഴും	-2301
▁ദൂ	-2302
▁തിരഞ്ഞെടുക്ക	-2303
ർഷ	-2304
▁തൊഴില	-2305
▁കോട	-2306
രുന്നത്	-2307
ൃഗ	-2308
▁പുസ്തകം	-2309
▁നരക	-2310
റ്റം	-2311
ഠിന	-2312
▁കാണുന്നു	-2313
വുമില്ല	-2314
▁വചന	-2315
ome	-2316
▁ഭാഗം	-2317
ൃപ്	-2318
ിച്ചിട്ടില്ല	-2319
▁ഗുണ	-2320
▁അവരില്‍	-2321
ിനും	-2322
ാപിതാക്ക	-2323
ടാ	-2324
▁സുരക്ഷിത	-2325
▁രസ	-2326
▁ഇംഗ്ല	-2327
മാകും	-2328
▁യി	-2329
ിരുന്നത്	-2330
ുമല്ല	-2331
ുവാൻ	-2332
▁വ്യത്യാ	-2333
▁പിന്തുട	-2334
▁ബെ	-2335
▁പിന്തുണ	-2336
▁സ്ഥിര	-2337
ment	-2338
▁നാട	-2339
▁വ്യാപ	-2340
▁നീതി	-2341
▁രാവിലെ	-2342
ൻസ്	-2343
▁ഉപയോഗിച്ച്	-2344
;&	-2345
പെട	-2346
▁തെരഞ്ഞെ	-2347
▁ഇര	-2348
▁തേട	-2349
▁ആശയ	-2350
▁അദ്ദേഹത്തെ	-2351
ap	-2352
▁»	-2353
രെയും	-2354
പ്പെടുകയും	-2355
▁സമാധാനം	-2356
▁സഹായം	-2357
▁അതും	-2358
യാണ	-2359
ak	-2360
ത്തിനുള്ള	-2361
ങ്ങളില	-2362
▁സംഭവം	-2363
▁വരുത്ത	-2364
▁ഏകദേശം	-2365
▁ബഹു	-2366
▁നടപ്പ	-2367
വുമായ	-2368
od	-2369
നിങ്ങള്‍	-2370
▁ജീവന	-2371
▁കഴിയുന്ന	-2372
▁വീട	-2373
▁പിശാ	-2374
▁എന്നതാണ്	-2375
വിദ്യ	-2376
▁പുറത്തു	-2377
▁കഴിഞ്ഞു	-2378
▁പ്രേ	-2379
▁മാതാപിതാക്ക	-2380
കെ	-2381
▁സംസ്ഥാന	-2382
▁ശരി	-2383
▁ഒടു	-2384
▁സത്യനിഷേധ	-2385
▁ഭൂമിയില്‍	-2386
▁നല്‍കി	-2387
യിലും	-2388
▁ചുവ	-2389
▁എത്ത	-2390
▁രഹ	-2391
റ്റു	-2392
▁കാരുണ	-2393
ര്‍മ	-2394
▁അതില	-2395
▁തരം	-2396
▁ആരു	-2397
ost	-2398
▁വെളി	-2399
▁പോവ	-2400
ുമു	-2401
▁സകല	-2402
▁അവരോട്	-2403
▁കുറച്ച്	-2404
ന്യൂ	-2405
▁വീട്	-2406
ന്മാരുടെ	-2407
ബോ	-2408
ടുക്കും	-2409
▁പാർ	-2410
▁ഗുരു	-2411
▁താന്‍	-2412
▁പ്രകൃ	-2413
▁കുറെ	-2414
▁വികസ	-2415
▁രാഷ്ട്രീയ	-2416
ര്യം	-2417
ദൈവ	-2418
▁കഠിന	-2419
മാണെന്ന്	-2420
ൻഡ	-2421
റിഞ്ഞ	-2422
ിലി	-2423
▁നബി	-2424
വ്യ	-2425
▁ദിന	-2426
▁വ്യക്തമായ	-2427
ക്കാന	-2428
▁വാഗ്ദാനം	-2429
ാവസ്ഥ	-2430
▁മരിച്ചു	-2431
രാശ	-2432
ഫോ	-2433
▁ബോക്സ്	-2434
▁അവയെ	-2435
▁അയാളുടെ	-2436
▁പട	-2437
▁ശതമാനം	-2438
ീഷ്	-2439
▁മേല്‍	-2440
▁സുഹൃത്തു	-2441
ക്ഷേപ	-2442
ിക്കൽ	-2443
▁ഒന്നു	-2444
ുവി	-2445
നെയും	-2446
▁സമു	-2447
▁ചിക	-2448
ളിൽ	-2449
,000	-2450
ith	-2451
ാവശ്യ	-2452
ർക്കും	-2453
ിച്ചിട്ടുണ്ട്	-2454
ീം	-2455
▁നിരവധി	-2456
ഞാൻ	-2457
ിയായ	-2458
ിക്കാനുള്ള	-2459
og	-2460
▁ആത്മാ	-2461
▁നിങ്ങള്‍ക്കു	-2462
▁നാലു	-2463
പരമായ	-2464
▁പ്രതിഫലം	-2465
▁സ്ഥലം	-2466
▁കുറവ	-2467
▁മുഖം	-2468
▁be	-2469
▁പുരോ	-2470
▁യഥാര്‍ത്ഥ	-2471
രിക്കുന്നത്	-2472
ക്ര	-2473
ht	-2474
▁start	-2475
▁അത്യ	-2476
▁ആലോച	-2477
ികളില്‍	-2478
▁പേരില്‍	-2479
ീകരണ	-2480
ാശ	-2481
▁100	-2482
ഴ്സ്	-2483
▁അപേക്ഷ	-2484
▁ഹെ	-2485
▁അറിയുന്നു	-2486
ous	-2487
േയും	-2488
▁കാര്യത്തില്‍	-2489
തെന്ത	-2490
രെയ	-2491
ew	-2492
▁അർ	-2493
▁രക്ഷിതാവി	-2494
▁പഠന	-2495
▁ഇപ്പോഴ	-2496
മീ	-2497
▁പോകുന്ന	-2498
▁സമ്	-2499
▁കാണാൻ	-2500
▁ഒരാള്‍	-2501
▁തിരിച്ചറിയ	-2502
▁എന്നോട്	-2503
ോട്ടു	-2504
▁പാവ	-2505
റിന്റെ	-2506
▁ആളുകൾ	-2507
യിലേക്ക്	-2508
our	-2509
▁നേരത്തെ	-2510
േണമേ	-2511
പ്പുറ	-2512
ച്ചി	-2513
▁യൂറോ	-2514
▁ദൃഷ്ടാന്ത	-2515
ly	-2516
ലുകൾ	-2517
▁കമ്പനി	-2518
താക്ക	-2519
▁ബന്ധപ്പെട്ട	-2520
▁മുഴുവൻ	-2521
ന്ത്	-2522
ില്ലാത്ത	-2523
ന്മാരെ	-2524
▁പരിശീല	-2525
▁ഇതിന്റെ	-2526
▁ഇക്കാര	-2527
ലിയ	-2528
▁പ്രച	-2529
▁dur	-2530
▁എന്നിട്ടും	-2531
▁വായന	-2532
▁കര്‍ത്ത	-2533
▁യോഗ	-2534
ത്തിനെ	-2535
▁ഇതുവരെ	-2536
▁കാണാന്‍	-2537
▁സേവ	-2538
▁വിവിധ	-2539
▁നല്	-2540
▁അതായത്	-2541
തീ	-2542
▁നോക്കിയ	-2543
▁ഓര്‍മ്മ	-2544
ov	-2545
ിക്കാര	-2546
ത്തിക	-2547
ിക്കുകയില്ല	-2548
▁മുതല്‍	-2549
▁പ്രതിഫല	-2550
▁പോകുന്നു	-2551
▁ഉത്ത	-2552
വരില്‍	-2553
▁24	-2554
▁കമ്പന	-2555
▁കരുണ	-2556
ക്കണം	-2557
▁അവന്	-2558
ാകട്ടെ	-2559
ഭൂമ	-2560
മ്മാ	-2561
▁വീട്ടിൽ	-2562
▁അത്ഭുത	-2563
.(	-2564
▁യഥാർത്ഥ	-2565
"&	-2566
▁സുന്ദ	-2567
▁ആന	-2568
നിന്ന	-2569
ലിന്റെ	-2570
▁അതുപോലെ	-2571
നിക്കും	-2572
▁പെണ്‍	-2573
▁സ്വതന്ത്ര	-2574
▁അദ്ദേഹത്തിന്	-2575
▁അവള	-2576
▁ചുരു	-2577
മില്ലാത്ത	-2578
▁പദ	-2579
▁ഉയർന്ന	-2580
▁പ്രകാശ	-2581
▁പശ്ച	-2582
നിന്നും	-2583
▁അതിൽ	-2584
▁ഇന്നു	-2585
▁ന്യൂ	-2586
ശു	-2587
രുടെയും	-2588
ill	-2589
▁ബുദ്ധിമു	-2590
ാണല്ലോ	-2591
▁പ്രണയ	-2592
".	-2593
▁സത്യവിശ്വാസ	-2594
യായിരുന്നു	-2595
▁പെണ്ണ	-2596
▁ടോ	-2597
▁ആസ്	-2598
സേ	-2599
കളിൽ	-2600
▁വിശ്വാസം	-2601
ാഭ്യ	-2602
▁ഗ്രന്ഥ	-2603
▁മനുഷ്യന്‍	-2604
▁ക്രിസ്തു	-2605
ത്തനം	-2606
▁r	-2607
ഫ്റ്റ്	-2608
ീൻ	-2609
നാഥ	-2610
ന്‍മാ	-2611
ധു	-2612
▁പോരാ	-2613
▁രണ്ടാം	-2614
▁അല്ലാഹുവിന്‍റെ	-2615
▁യുദ്ധം	-2616
▁എന്തുകൊണ്ട്	-2617
▁അമ	-2618
ന്തര	-2619
▁വാർത്ത	-2620
കുതി	-2621
തിയുടെ	-2622
▁ഹൈ	-2623
▁അഹ	-2624
ക്കാം	-2625
ാത്	-2626
▁മൈ	-2627
▁ഉൽപ്പ	-2628
▁ആളുകള്‍	-2629
▁199	-2630
ണ്ടി	-2631
”.	-2632
▁നശിപ്പ	-2633
▁പറയാ	-2634
▁പ്രഭ	-2635
▁വിത	-2636
▁ബു	-2637
▁സാധ്യ	-2638
▁അതൊരു	-2639
▁വിര	-2640
രിഞ്ഞു	-2641
▁ക്യാ	-2642
▁ചീ	-2643
ലാണ്	-2644
▁സഞ്ച	-2645
▁മേഖ	-2646
▁അത്തരം	-2647
ങ്ങളായി	-2648
▁ചിലര്‍	-2649
oc	-2650
ൻഡ്	-2651
▁തിക	-2652
ര്‍ന്ന്	-2653
▁ഉപേക്ഷ	-2654
▁സ്വാതന്ത്ര	-2655
ിട്ടു	-2656
▁എസ്	-2657
ഷ്ഠ	-2658
▁മലയാള	-2659
ാധിപ	-2660
▁ഭൂമി	-2661
▁വയസ്സ	-2662
▁പൈ	-2663
▁ഘട്ട	-2664
▁പ്രൊഫ	-2665
▁അല്ലേ	-2666
▁ഇന്റ	-2667
▁സേവന	-2668
▁ആക്രമ	-2669
ണമെ	-2670
▁ഫെ	-2671
▁നടന്നു	-2672
യിച്ചു	-2673
▁Re	-2674
മാത്രം	-2675
▁അതുകൊണ്ടു	-2676
▁ശാസ്ത്ര	-2677
▁എങ്കില്‍	-2678
are	-2679
▁ശു	-2680
........	-2681
▁മേഖല	-2682
▁നിയമം	-2683
പ്പറ	-2684
▁നേടിയ	-2685
വീ	-2686
വസ്ഥ	-2687
▁പിന്‍	-2688
▁ഡെ	-2689
▁ചെയ്യാം	-2690
▁എന്താ	-2691
▁തിന്ന	-2692
ക്കുമ	-2693
▁പരാജയ	-2694
▁പ്രാപ	-2695
▁വിവരങ്ങൾ	-2696
സിനെ	-2697
ര്‍ഷ	-2698
ിക്കള	-2699
ain	-2700
▁ലള	-2701
ഴിഞ്ഞ	-2702
▁നേര്‍	-2703
?’	-2704
ാബ	-2705
യാസ	-2706
േക്കുള്ള	-2707
▁പറയാം	-2708
▁മോഡ	-2709
▁അവസരം	-2710
ിത്സ	-2711
വെങ്കില്‍	-2712
▁തീർച്ച	-2713
ിലേക്കു	-2714
എന്ന	-2715
സർ	-2716
▁എഴുതിയ	-2717
ചേ	-2718
ംസ	-2719
പ്രദ	-2720
എം	-2721
▁കറു	-2722
▁വീഡിയോ	-2723
▁സാഹചര്യ	-2724
▁തോന്നിയ	-2725
▁എങ്കിൽ	-2726
▁ദാസ	-2727
ഷൻ	-2728
രായി	-2729
▁അധ്യ	-2730
വാദം	-2731
▁ആഗ്രഹിക്കുന്നു	-2732
▁അവിടു	-2733
▁കൊല	-2734
▁v	-2735
ുള്ളൂ	-2736
▁വരിക	-2737
▁*	-2738
▁വാദ	-2739
▁അവരോടു	-2740
തായിരുന്നു	-2741
▁നിശ്ചയ	-2742
ുണ്ടായിരുന്നു	-2743
ഴുന്നേ	-2744
▁ഫി	-2745
ul	-2746
ത്തോട്	-2747
▁മരിക്ക	-2748
▁മക്കള	-2749
▁മൃഗ	-2750
ട്ടോ	-2751
്രമ	-2752
▁ഹൃദയം	-2753
ിക്കുകയാണ്	-2754
ri	-2755
പിട	-2756
ഃഖ	-2757
മെന്ന്	-2758
▁In	-2759
ാമ്പ	-2760
ുമാണ്	-2761
▁കരുതി	-2762
ub	-2763
കരണം	-2764
വെന്ന്	-2765
▁ക്രമ	-2766
മന	-2767
▁സാമ്പത്തിക	-2768
▁വലു	-2769
ഭി	-2770
▁സന്തോഷം	-2771
പോയ	-2772
ോടും	-2773
▁സ്ഥിതി	-2774
▁കളി	-2775
▁പ്രാര്‍ഥ	-2776
▁ഫലം	-2777
▁സൌ	-2778
▁ഇതിന്	-2779
ുകു	-2780
▁ആദ്യമായി	-2781
▁എങ്ങനെയാണ്	-2782
റാ	-2783
▁ഉപദേശ	-2784
▁ഉദാഹരണ	-2785
▁പള്ള	-2786
േണ്ടതി	-2787
▁പറയാന്‍	-2788
▁ഇത്രയും	-2789
ുന്നതാണ്	-2790
▁വേഗം	-2791
▁നിൽ	-2792
▁സ്വീകര	-2793
വേദ	-2794
ാണെങ്കിൽ	-2795
സന്ധ	-2796
▁അടുത്ത്	-2797
▁പാര	-2798
ൊക്കെയും	-2799
▁ചികിത്സ	-2800
▁തമ്മിലുള്ള	-2801
▁യോ	-2802
ാനായി	-2803
▁റിപ്പോ	-2804
▁പശ്ചാത്ത	-2805
▁വിദ്യാഭ്യ	-2806
▁ഉൽപ്പന്ന	-2807
▁ദൈ	-2808
▁നേരിട	-2809
201	-2810
▁വെച്ച	-2811
യിലാണ്	-2812
ord	-2813
▁ഇതിനു	-2814
▁പുല	-2815
▁ഗവേഷ	-2816
▁സംസ്	-2817
▁പ്രവൃത്തി	-2818
▁ഇല്ലാ	-2819
▁നല്ലത്	-2820
ഫ്ര	-2821
▁ഉള്‍	-2822
▁ഇത്ത	-2823
ിച്ചുകൊണ്ട	-2824
ാപക	-2825
up	-2826
ായും	-2827
ുകാര്‍	-2828
▁പരിചയ	-2829
▁ഒരുമ	-2830
▁അഞ്ചു	-2831
▁എങ്ങനെയ	-2832
മാനിക്ക	-2833
ദ്യോഗ	-2834
റ്റുകൾ	-2835
▁wh	-2836
▁പീ	-2837
▁എണ്ണ	-2838
▁ഫോട്ടോ	-2839
▁21	-2840
സെ	-2841
▁വിമാന	-2842
▁എഴുത്ത	-2843
▁നാല്	-2844
ാണിത്	-2845
▁ശേഖ	-2846
ജീവിത	-2847
ിപ്പിക്കുന്ന	-2848
വിശേഷ	-2849
വത	-2850
▁താക്ക	-2851
50	-2852
▁പ്രവര്‍ത്തന	-2853
▁ആഘോഷ	-2854
ാണെന്ന	-2855
▁ചന്ദ്ര	-2856
▁ഇസ്രായേ	-2857
▁സ്വര്‍ഗ	-2858
▁ബന്ധം	-2859
ങ്കേ	-2860
ാക്	-2861
▁കുട്ടി	-2862
▁സാക്ഷി	-2863
യ്ക്കു	-2864
ുടേ	-2865
ാറില്ല	-2866
ധ്യമ	-2867
സോ	-2868
ിരിക്കും	-2869
▁പണി	-2870
ദിന	-2871
▁എനിക്കും	-2872
▁പക്ഷം	-2873
▁മാറ്റി	-2874
▁കെട്ട	-2875
▁അവനു	-2876
മുറ	-2877
▁അവര്‍ക്കു	-2878
രാജ	-2879
▁കാണുന്നത്	-2880
▁ജ്	-2881
പ്പോഴാണ്	-2882
?'	-2883
യുന്നു	-2884
),	-2885
’.	-2886
▁പാപമോ	-2887
േണ്ടതു	-2888
▁തെളിയ	-2889
ത്തായ	-2890
ുന്നതിന്	-2891
▁ലക്ഷ്യ	-2892
▁എടുത്തു	-2893
▁പേര്‍	-2894
▁മെച്ച	-2895
▁പ്രശ്നം	-2896
നങ്ങൾ	-2897
ത്തിലൂടെ	-2898
▁മരു	-2899
ഞാന	-2900
▁വെബ്	-2901
▁ട്രെയി	-2902
ത്തിയി	-2903
▁അധ	-2904
ളില്‍	-2905
▁ഇതേ	-2906
പോലും	-2907
▁ദൈവത്തെ	-2908
മാണിത്	-2909
▁താഴ്	-2910
▁നമസ്	-2911
▁കമ	-2912
▁മാതൃ	-2913
▁തീർച്ചയായും	-2914
ഹൂ	-2915
ുന്നതു	-2916
▁ദുഃഖ	-2917
▁ഓഫ്	-2918
▁വിജയം	-2919
ec	-2920
▁നമുക്കു	-2921
▁കല്പ	-2922
▁ജെ	-2923
റിൽ	-2924
▁അവർക്ക്	-2925
gm	-2926
▁എന്തായാലും	-2927
ന്താ	-2928
▁Ch	-2929
ext	-2930
▁പറ്റി	-2931
▁മാറ്റം	-2932
▁ഉപകരണ	-2933
കാര്യം	-2934
▁കരാ	-2935
▁ജനങ്ങള്‍	-2936
▁മെഷ	-2937
▁അധികാര	-2938
മായിരിക്ക	-2939
മ്പോള്‍	-2940
▁ആയു	-2941
▁പരാതി	-2942
▁ദയവായി	-2943
ൗര	-2944
▁ഇല	-2945
മന്ത്ര	-2946
ുകൊടുക്ക	-2947
▁യാഥ	-2948
ിപ്പ്	-2949
ുകളാണ്	-2950
ുന്നത	-2951
▁പെൺ	-2952
വുമാണ്	-2953
▁പരിശുദ്ധ	-2954
▁സൃഷ്ടിച്ച	-2955
??	-2956
സമയം	-2957
▁വിമ	-2958
▁മടങ്ങ	-2959
▁തണു	-2960
ുവെ	-2961
ിച്ചും	-2962
▁(2	-2963
ാനോ	-2964
ത്രി	-2965
▁തിരികെ	-2966
തിനുള്ള	-2967
▁യുവ	-2968
▁പിറ	-2969
ീകരണം	-2970
▁നിനക്ക	-2971
▁പരിഗണ	-2972
▁മുറി	-2973
തിനും	-2974
റ്റിംഗ്	-2975
▁നിങ്ങളില്‍	-2976
▁ആര്‍	-2977
▁സ്വാഗ	-2978
▁ഇസ്	-2979
▁വാഹന	-2980
▁കാണും	-2981
▁നല്ക	-2982
ങ്കേതിക	-2983
ld	-2984
ബല	-2985
▁പേർ	-2986
പൂര്‍	-2987
▁ജന്മ	-2988
▁കുട്ടികൾ	-2989
കളാണ്	-2990
ശ്വാസം	-2991
ിരിക്കുകയാണ്	-2992
സ്ട്ര	-2993
▁ഉത്	-2994
▁ഓരോരുത്ത	-2995
▁ഇതൊരു	-2996
:4	-2997
▁ഉന്ന	-2998
▁ഇന്നലെ	-2999
▁ഞങ്ങള്‍ക്ക്	-3000
റ്റിക്	-3001
ന്‍മാര്‍	-3002
ൃശ്യ	-3003
▁രഹസ്യ	-3004
ാറുണ്ട്	-3005
▁22	-3006
▁കാണുക	-3007
▁വളരെയ	-3008
പ്പെടുക	-3009
▁ആകെ	-3010
ാവിനെ	-3011
▁ദീ	-3012
.2	-3013
▁തീരുമാനം	-3014
▁ശബ്ദം	-3015
▁രംഗ	-3016
▁യുക്തി	-3017
ികളായ	-3018
▁ഫോൺ	-3019
▁അര	-3020
▁ഫ്ല	-3021
ലില്‍	-3022
▁നക്ഷ	-3023
▁ബാല	-3024
▁kgm	-3025
▁കൂട്ടുകാര	-3026
ാവശ്യം	-3027
ികളാണ്	-3028
ങ്ങളെയും	-3029
മറ	-3030
▁St	-3031
▁ലഭിക്കും	-3032
▁:)	-3033
▁അറിവ	-3034
ശ്വസ	-3035
▁പേട	-3036
ന്മാരും	-3037
ine	-3038
പ്പോക	-3039
ിപ്പിച്ച	-3040
▁വാര്‍ത്ത	-3041
▁തൂ	-3042
▁വെറുതെ	-3043
▁മുസ്ല	-3044
▁നൽകിയ	-3045
വിട്ട	-3046
▁ജാല	-3047
ുകൊള്ള	-3048
നങ്ങള്‍	-3049
▁എൻ	-3050
▁കല്ല	-3051
▁വിദ	-3052
▁ജയ	-3053
ല്‍പ്പ	-3054
പ്ല	-3055
▁തന്നേ	-3056
ട്ടർ	-3057
ര്‍ക്കാര്‍	-3058
▁പ്രസിദ്ധ	-3059
▁ഉണ്ടായി	-3060
വാദി	-3061
▁എന്തോ	-3062
▁പ്രകട	-3063
അവ	-3064
ect	-3065
▁ലേഖനം	-3066
ചെയ്	-3067
ബിൾ	-3068
▁ചോ	-3069
ത്ഥം	-3070
▁അഭിപ്രായം	-3071
▁ഞാനെ	-3072
നവും	-3073
ീതി	-3074
▁ഉപയോഗിക്കുന്ന	-3075
ക്കിടയില്‍	-3076
▁പത്ര	-3077
ack	-3078
▁സാങ്കേതിക	-3079
ഫല	-3080
▁ഗ്രാമ	-3081
▁ഓൺ	-3082
നിട	-3083
ബര്‍	-3084
വശ	-3085
ore	-3086
▁കല്‍പ	-3087
▁ശുദ്ധ	-3088
▁ലക്ഷ്യം	-3089
▁ദുര്‍	-3090
.5	-3091
▁ഓട	-3092
▁വിഷമ	-3093
നീയ	-3094
ive	-3095
▁സ്നേഹം	-3096
േറെ	-3097
▁അക്ക	-3098
ില്	-3099
രുത്തുക	-3100
▁വഹ	-3101
▁അവസര	-3102
▁അവനോടു	-3103
തിനായി	-3104
▁സൂക്ഷ്മ	-3105
▁തീവ	-3106
ിക്കുമോ	-3107
ഷ്ണ	-3108
്യമായ	-3109
▁ഇങ്ങനെയ	-3110
▁എൽ	-3111
ിക്കട്ടെ	-3112
പ്പോല	-3113
ast	-3114
▁കൊടുത്തു	-3115
ാർഥ	-3116
ിക്കൊണ്ട	-3117
▁കഷ്ട	-3118
▁വിതരണ	-3119
▁സംഘടന	-3120
▁ദുര	-3121
▁എണ്ണം	-3122
തിയെ	-3123
▁സംവിധാനം	-3124
▁ഉറങ്ങ	-3125
▁എന്തിനാണ്	-3126
▁ജല	-3127
▁50	-3128
▁ഫാക്ട	-3129
▁പ്രദേശ	-3130
out	-3131
▁കാണിച്ചു	-3132
ങ്ങളുണ്ട്	-3133
ഡർ	-3134
her	-3135
▁മൊബൈ	-3136
▁പാടില്ല	-3137
▁വീട്ടില്‍	-3138
▁കമ്മ	-3139
▁നിമിഷ	-3140
▁പങ്കാള	-3141
▁ശ്	-3142
qu	-3143
▁സന്ദര്‍ഭ	-3144
▁രണ്ടും	-3145
▁ചാ	-3146
ight	-3147
▁ഉണ്ടാവ	-3148
നുസരിച്ച്	-3149
മാശ	-3150
ത്തക	-3151
കമായ	-3152
ശ്ശ	-3153
▁പ്രവർത്തന	-3154
ans	-3155
കാലം	-3156
▁പേരും	-3157
ിക്കുമ്പോള്‍	-3158
▁ടൈ	-3159
▁ആഗ്രഹിക്കുന്ന	-3160
▁ഡയ	-3161
ബ്ല	-3162
▁തങ്ങള്‍	-3163
മെന്ന	-3164
▁നിറഞ്ഞ	-3165
▁ശക്തമായ	-3166
▁അടിമ	-3167
ഹി	-3168
▁#	-3169
▁ചെയ്യണം	-3170
ൊരിക്ക	-3171
റങ്ങ	-3172
ന്റി	-3173
▁നടക്കുന്ന	-3174
ങ്കല്‍	-3175
സിക	-3176
▁കാരുണ്യ	-3177
റ്റാ	-3178
ിക്കുകയോ	-3179
വുമ	-3180
തിനാല്‍	-3181
ല്ലാവ	-3182
▁കൊടുത്ത	-3183
▁ലഭിച്ച	-3184
▁ആയിരിക്കും	-3185
പ്പൊ	-3186
tion	-3187
▁വരുന്നത്	-3188
ിഷ്ട	-3189
▁നടക്ക	-3190
ത്തിയാ	-3191
▁പ്രയോഗ	-3192
▁കൊണ്ടുവര	-3193
ൊന്ന്	-3194
ദിവ	-3195
ep	-3196
ട്ടുള്ള	-3197
▁സംബന്ധിച്ച	-3198
▁കുട്ടികള്‍	-3199
▁ഇന്നത്തെ	-3200
▁ന്റെ	-3201
▁നമുക്ക	-3202
▁അയച്ച	-3203
▁നിർമ്മ	-3204
▁പ്രാ	-3205
▁ചോദിച്ച	-3206
കള്‍ക്ക്	-3207
▁സ്വാഗതം	-3208
രിത	-3209
നിക	-3210
vi	-3211
▁ഉണ്ടാകും	-3212
▁മൂല	-3213
ാകുന്ന	-3214
▁അല്പ	-3215
▁പേപ്പർ	-3216
വഴി	-3217
▁വചനം	-3218
▁അതല്ല	-3219
ുകൂടി	-3220
▁ആയിരിക്ക	-3221
▁മറന്നു	-3222
▁മാധ്യമ	-3223
▁with	-3224
▁നിരീക്ഷ	-3225
▁ജനം	-3226
▁പ്രദ	-3227
ട്ര	-3228
കൊണ്ട്	-3229
ക്സി	-3230
▁ഭാര	-3231
ങ്ങളിലെ	-3232
▁നോക്കൂ	-3233
വാന്‍	-3234
ip	-3235
സംഗ	-3236
▁ഓഫീസ	-3237
▁ആശുപ	-3238
▁പ്രയാസ	-3239
ang	-3240
▁വിദേശ	-3241
പാദ	-3242
ik	-3243
▁പാത	-3244
▁ലേ	-3245
▁സൂച	-3246
▁പിശാച	-3247
ാവുന്നതാണ്	-3248
▁വസ	-3249
▁ഇവരുടെ	-3250
▁നിലനി	-3251
ant	-3252
അ്	-3253
ർപ്പ	-3254
ുകൂടെ	-3255
▁$	-3256
▁ഇവർ	-3257
▁എടുത്ത	-3258
▁പാഠ	-3259
േണം	-3260
▁അന്ത്യ	-3261
▁!!	-3262
com	-3263
▁കയറി	-3264
▁ക്രൂ	-3265
▁23	-3266
▁സഹായി	-3267
▁അംഗീകരിക്ക	-3268
▁ഉപഭ	-3269
ിക്കുന്നുണ്ട്	-3270
ട്ടാണ്	-3271
മുണ്ടോ	-3272
തയും	-3273
▁മനുഷ്യനെ	-3274
▁രക്ഷിതാവ്	-3275
▁യിസ്രായേ	-3276
ക്ഷി	-3277
▁സാമൂഹ	-3278
▁ഇനിയ	-3279
.0	-3280
▁അയാളെ	-3281
▁മുഖ്യ	-3282
▁=	-3283
▁വന്നത്	-3284
▁കുഞ്ഞു	-3285
കരിക്ക	-3286
▁ഡാറ്റ	-3287
ാരും	-3288
ക്താക്ക	-3289
യ്ക്കും	-3290
▁പൂർണ്ണ	-3291
ക്രിയ	-3292
റില്‍	-3293
▁കൈവ	-3294
▁ഉയി	-3295
ear	-3296
▁സിസ്റ്റ	-3297
▁ഇരുവരും	-3298
▁തുറന്നു	-3299
▁പരമ	-3300
▁X	-3301
▁ബല	-3302
ാണി	-3303
േസ്	-3304
▁by	-3305
▁ഇവരെ	-3306
ിൻ	-3307
▁വിവരം	-3308
▁കെട്ടി	-3309
▁ഡ്രൈവ	-3310
ിയം	-3311
▁ഭീഷ	-3312
ുമതി	-3313
▁ഏഴു	-3314
▁ശരീരം	-3315
▁പരലോക	-3316
▁സര്‍ക്കാര്‍	-3317
▁പൂര്‍ണ	-3318
ാണെന്നു	-3319
ക്കളുടെ	-3320
ണ്ടായിരുന്നു	-3321
ാണു്	-3322
▁ആസ്വദ	-3323
▁അല്ലാഹുവെ	-3324
രിഞ്ഞ	-3325
▁വശ	-3326
മാണു	-3327
▁നിത്യ	-3328
▁വഴിയ	-3329
ുമെന്ന	-3330
▁വിളിച്ച	-3331
ഭാവി	-3332
▁കൊണ്ടുവ	-3333
▁അടുക്കല്‍	-3334
▁ഫയ	-3335
▁ചെലവഴ	-3336
▁ആവശ്യമാണ്	-3337
▁ദാവ	-3338
ികൂ	-3339
▁അല്ലാഹുവിന്	-3340
▁നായ	-3341
▁ഭൂമിയ	-3342
▁ഉച്ച	-3343
▁ക്ഷേ	-3344
▁നിരാശ	-3345
ജെ	-3346
▁അനേ	-3347
▁not	-3348
ുന്നുണ്ട്	-3349
ുമ്പോഴ	-3350
▁മാറിയ	-3351
പ്പോയി	-3352
▁പ്രശ	-3353
▁കേസ	-3354
▁സംഗീത	-3355
▁അഞ്ച്	-3356
ുന്നേ	-3357
▁ഘട	-3358
നിര	-3359
ൊന്നുമില്ല	-3360
▁ഡോള	-3361
▁തടയ	-3362
ലക്ഷ	-3363
ിട്ടുണ്ടോ	-3364
▁പേരെ	-3365
ത്രേ	-3366
▁ഇരിക്ക	-3367
യോട്	-3368
▁റഷ്യ	-3369
▁പിടിച്ചു	-3370
ഡുകൾ	-3371
▁കുറേ	-3372
ബിയേ	-3373
▁ഭാഗ്യ	-3374
▁തെറ്റി	-3375
rom	-3376
▁ഇന്നും	-3377
ായിരിക്കണം	-3378
▁ഞെ	-3379
ുന്നതും	-3380
ിച്ചേ	-3381
▁കുറച്ച	-3382
തുക	-3383
യല്ല	-3384
വഹ	-3385
▁തുറന്ന	-3386
▁തുടക്ക	-3387
ങ്ങളോ	-3388
▁നേതാക്ക	-3389
ിപ്പിക്കുന്നു	-3390
രുതു	-3391
ൊന്നു	-3392
▁സംശയം	-3393
ത്താണ്	-3394
▁ദ്വ	-3395
▁പേര	-3396
▁വാക്കുകള്‍	-3397
▁പോസ്റ്റ്	-3398
വിക	-3399
▁കൂടുതല	-3400
ിക്കപ്പെട	-3401
ന്താണ്	-3402
▁ക്രിസ്	-3403
▁ഉണ്ടോ	-3404
വനു	-3405
▁സ്വകാര്യ	-3406
ിനെയും	-3407
തിരിക്ക	-3408
▁നിങ്ങളോടു	-3409
age	-3410
തുമായ	-3411
ാരോ	-3412
▁ക്ഷണ	-3413
▁കുഴപ്പ	-3414
▁ഭ്ര	-3415
ിക്കുന്നവര	-3416
ാലി	-3417
▁എന്നാലും	-3418
▁പ്രക	-3419
ർമ്മ	-3420
▁ചെയ്ത്	-3421
ംബ	-3422
ഡോ	-3423
▁വസ്ത്ര	-3424
▁അനി	-3425
▁സമ്മതി	-3426
▁ശാ	-3427
ിംഗ്	-3428
▁Pre	-3429
തരം	-3430
▁പറ്റിയ	-3431
▁ശ്രീ	-3432
▁ഇയാ	-3433
▁ഉടനെ	-3434
ലുകള്‍	-3435
േഴ്	-3436
▁വിധി	-3437
▁നിരോധ	-3438
▁ബ്രിട്ട	-3439
▁ചരിത്രം	-3440
▁അവിട	-3441
കേ	-3442
ീൽ	-3443
നല്ല	-3444
ിട്ടുള്ള	-3445
ാവായ	-3446
▁മൂന്നാം	-3447
രുദ്ധ	-3448
▁നിങ്ങളോട്	-3449
ക്കുന്നവനും	-3450
▁ചര്‍ച്ച	-3451
▁ഞാനൊരു	-3452
▁con	-3453
▁it	-3454
െയർ	-3455
ിക്കുവാന്‍	-3456
▁മനസിലാക്ക	-3457
▁ബാങ്ക	-3458
▁കരുതുന്നു	-3459
▁....	-3460
▁നിക്ഷേപ	-3461
▁വെളു	-3462
▁വായിച്ചു	-3463
▁നാഥന്‍	-3464
▁ധൈ	-3465
വിള	-3466
ഹൂദ	-3467
തക	-3468
റ്റിൽ	-3469
▁അടുത്തു	-3470
ടക്ക	-3471
▁പച്ച	-3472
ത്തിന്റെയും	-3473
ഹൃദ	-3474
▁ഗ്ല	-3475
ലിനെ	-3476
▁മുട്ട	-3477
▁കറുത്ത	-3478
▁ഫാക്ടറി	-3479
▁`	-3480
▁നേരം	-3481
ിക്കുവ	-3482
▁സഹായിക്കും	-3483
സഹ	-3484
▁com	-3485
പക്ഷേ	-3486
ിക്കാതെ	-3487
ിം	-3488
.3	-3489
▁നോക്കുക	-3490
ർത്തി	-3491
ന്യം	-3492
▁പാക്ക	-3493
▁പ്രകൃതി	-3494
ർന്ന്	-3495
താണോ	-3496
▁ദിനം	-3497
ീവ്	-3498
▁എങ്ങ	-3499
▁മാനേ	-3500
▁നക്ഷത്ര	-3501
▁പോലുള്ള	-3502
▁ഇത്തവണ	-3503
10	-3504
▁സാധിക്കും	-3505
ദ്ദേഹം	-3506
▁ബാക്കി	-3507
▁ഏതൊരു	-3508
▁ഹോട്ട	-3509
▁റൂ	-3510
▁അക്ഷ	-3511
▁ചുറ്റും	-3512
ദായ	-3513
▁സ്വപ്ന	-3514
▁അവര്‍ക്ക	-3515
▁ല്‍	-3516
ard	-3517
▁ജീവിതത്തില്‍	-3518
▁പുറത്തി	-3519
▁മരുന്ന	-3520
തിനാൽ	-3521
▁നല്ലൊരു	-3522
ികൊ	-3523
ുന്നില്ലേ	-3524
▁കേട്ടു	-3525
▁നിങ്ങള്‍ക്ക	-3526
▁മുറിയ	-3527
ൾക്ക്	-3528
▁രാജ്യം	-3529
▁അപ്ര	-3530
ാക്കും	-3531
▁ഈശ്വര	-3532
▁വേണമ	-3533
സഭ	-3534
▁പ്രാര്‍ത്ഥന	-3535
▁ലോകത്തിലെ	-3536
▁പട്ടണ	-3537
▁ഇത്തര	-3538
▁നമ്മളെ	-3539
ികമായി	-3540
▁ഇതൊക്കെ	-3541
▁രണ്ടുപേ	-3542
▁നടത്തിയ	-3543
▁പുറത്ത്	-3544
▁തമാശ	-3545
▁ചെറുപ്പ	-3546
▁അച്ച	-3547
▁ആവശ്യം	-3548
സ്റ്റർ	-3549
▁പോകും	-3550
▁വിഷയം	-3551
▁പ്രമാണ	-3552
▁പരിശോധന	-3553
ിക്കാ	-3554
ort	-3555
▁കാത്തിരിക്ക	-3556
മായിരുന്ന	-3557
▁തമ്മില്‍	-3558
▁Home	-3559
▁വിന	-3560
▁നല്‍കുകയും	-3561
ടങ്ങ	-3562
▁വൈദ്യ	-3563
ാവകാശ	-3564
▁സ്വഭാവ	-3565
ാവുക	-3566
ത്തെക്കുറിച്ച്	-3567
▁തൊഴിലാള	-3568
ീമ	-3569
▁ദേശീയ	-3570
നുകൾ	-3571
one	-3572
ൗൺ	-3573
▁അവയുടെ	-3574
▁രു	-3575
ാപ്	-3576
▁ഓര്‍മ	-3577
വര്‍ത്തി	-3578
▁ഉത്തമ	-3579
▁ഞാനി	-3580
ാനാവില്ല	-3581
ഗ്ന	-3582
ടുള്ള	-3583
nt	-3584
ies	-3585
ാകാം	-3586
▁വച്ച	-3587
ൃപ്തി	-3588
▁ഭയപ്പെട	-3589
വരെയും	-3590
▁കുറിച്ച	-3591
കര്യ	-3592
▁നിമിഷം	-3593
▁റേ	-3594
ind	-3595
കർ	-3596
▁കോടതി	-3597
തിനേ	-3598
▁വന്നെ	-3599
യൊരു	-3600
▁ഗി	-3601
▁ആഗ	-3602
യിട	-3603
ീകരിച്ചു	-3604
ിക്കുമ്പോൾ	-3605
▁നടപട	-3606
▁ഇപ്രകാരം	-3607
േറ്റു	-3608
▁മറ്റെ	-3609
ിട്ടുണ്ട	-3610
▁ഇതെ	-3611
▁കടുത്ത	-3612
▁28	-3613
സിന്	-3614
▁മനോഹരമായ	-3615
ുകയാണെങ്കില്‍	-3616
▁മുകള	-3617
▁അബ	-3618
▁മുന്നറിയ	-3619
▁ഇതിൽ	-3620
▁ടാ	-3621
▁കുട്ടികളെ	-3622
ാലെ	-3623
▁മറക്ക	-3624
▁ഇടപെട	-3625
ാക്കുന്ന	-3626
വിന്‍	-3627
ിക്കുന്നതിന്	-3628
▁വർദ്ധ	-3629
▁കയറ	-3630
മാരെ	-3631
▁ലോകത്തെ	-3632
ലിൽ	-3633
▁പെട്ടെന്ന്	-3634
ുറ	-3635
▁ഗെയി	-3636
▁e	-3637
▁+	-3638
വയ	-3639
ിപ്പറ	-3640
യാളം	-3641
▁ആൻഡ്	-3642
▁നിരക്ക്	-3643
▁അതിക്രമ	-3644
സ്മ	-3645
▁198	-3646
ഷണൽ	-3647
▁അതിന്‍റെ	-3648
▁2018	-3649
വരോട്	-3650
▁ശതമാന	-3651
▁ഡിസം	-3652
▁പോകുന്നത്	-3653
▁എല്ലാവര്‍ക്കും	-3654
ണേ	-3655
ഇത്	-3656
ിവെ	-3657
:5	-3658
▁പറയാൻ	-3659
▁അസാധ	-3660
▁കിട്ടി	-3661
ിക്കുന്നതാണ്	-3662
▁tr	-3663
കൊണ്ടു	-3664
▁യഹോവയുടെ	-3665
ന്തം	-3666
▁മിനിറ്റ്	-3667
അത്	-3668
▁ആശ്ര	-3669
▁he	-3670
▁പ്രാധ	-3671
▁പിടിച്ച	-3672
▁സവിശേഷ	-3673
▁ചെന്ന	-3674
▁മൂസ	-3675
▁ഭര്‍ത്ത	-3676
▁നാണ	-3677
▁കപ്പ	-3678
▁പലതും	-3679
പാല	-3680
▁ജാ	-3681
തു്	-3682
▁സ്വാഭാവി	-3683
▁വളരെയധികം	-3684
.....	-3685
▁40	-3686
ിരുന്നാലും	-3687
പഞ്ച	-3688
്പ്പ	-3689
േന	-3690
ചിത	-3691
ത്താല്‍	-3692
▁sh	-3693
ഴിഞ്ഞു	-3694
▁പാക്കേ	-3695
▁മാനസിക	-3696
ജന്യ	-3697
ാപാ	-3698
ാമം	-3699
സ്റ്റി	-3700
▁നടപടി	-3701
▁മനസില	-3702
▁ചല	-3703
▁അമേരിക്കൻ	-3704
▁ലാഭ	-3705
▁വൈകുന്നേ	-3706
സിൽ	-3707
ുകയാണോ	-3708
▁•	-3709
▁സന്ദേശം	-3710
േഷ്	-3711
▁പ്രിയപ്പെട്ട	-3712
▁വാക്ക്	-3713
ക്കുറിച്ചുള്ള	-3714
ന്തിന	-3715
-2	-3716
▁27	-3717
▁കുട്ടികള	-3718
▁അങ്ങിനെ	-3719
പ്പെടുത്തിയി	-3720
ര്‍ത്തു	-3721
▁തര്‍ക്ക	-3722
▁പോലീസ്	-3723
▁മത്സര	-3724
▁26	-3725
▁കുടുംബം	-3726
▁ഫു	-3727
ക്കുന്നില്ല	-3728
▁ഉപയോ	-3729
▁അനുയോജ	-3730
▁സമ്മാന	-3731
▁തുടക്കം	-3732
▁ജീവി	-3733
ർട്ട്	-3734
തുകൊണ്ട്	-3735
▁രീതിയില്‍	-3736
▁തുക	-3737
ധിയ	-3738
▁അന്ധ	-3739
▁കണ്ടെത്തി	-3740
▁മടങ്ങി	-3741
▁ആര്‍ക്കും	-3742
▁അല്ലാതെ	-3743
▁ഇംഗ്ലീഷ്	-3744
▁കുതിര	-3745
▁ജാതി	-3746
ell	-3747
▁അതിലെ	-3748
▁നമ്പർ	-3749
▁ഉപഭോ	-3750
▁നിര്‍ബന്ധ	-3751
▁സംഭവിച്ച	-3752
▁ചീത്ത	-3753
▁എന്നിരുന്നാലും	-3754
മാറ്റ	-3755
ാധിക	-3756
നായിരുന്നു	-3757
▁ഒക്കെ	-3758
യോജന	-3759
മായത്	-3760
പ്പിച്ചു	-3761
പര്യ	-3762
▁കോളേ	-3763
▁വികാര	-3764
▁an	-3765
se	-3766
▁പ്രതിരോധ	-3767
▁അല്പം	-3768
▁ലീ	-3769
▁ലളിത	-3770
▁പട്ടിക	-3771
ure	-3772
വന്റെ	-3773
ക്കൊള്ള	-3774
▁സന്ദര്‍ശ	-3775
▁സേവനം	-3776
▁ഏതാനും	-3777
▁പ്രാർത്ഥ	-3778
▁പരീക്ഷണ	-3779
തെന്ന	-3780
▁സൃഷ്ടിച്ചു	-3781
പടിയ	-3782
ടുപ്പ്	-3783
വേണ്ടി	-3784
▁Th	-3785
▁പോസ്റ്റ	-3786
ാനാക	-3787
▁്	-3788
വർക്ക്	-3789
യുമായി	-3790
▁വെച്ച്	-3791
ടൊപ്പം	-3792
▁വ്യത്യാസ	-3793
▁പത്തു	-3794
▁വ്യവസ്ഥ	-3795
▁അനുഭവം	-3796
പൊ	-3797
ലു	-3798
▁ആറു	-3799
▁വിശ്വ	-3800
▁സ്തു	-3801
വിയ	-3802
യാൽ	-3803
യൂ	-3804
▁പിഴ	-3805
പ്പറ്റ	-3806
▁പൂര്‍ണ്ണ	-3807
▁ആഗ്രഹം	-3808
ഗത	-3809
▁മദ്യ	-3810
▁ഇസ്ര	-3811
▁വധ	-3812
▁ഇസ്ല	-3813
end	-3814
▁വിശ്വസിക്കുന്നു	-3815
▁ഭീകര	-3816
▁pro	-3817
പരമായി	-3818
▁പകുതി	-3819
▁സ്ക	-3820
▁ആശുപത്ര	-3821
▁പ്രധാനപ്പെട്ട	-3822
ത്തന്ന	-3823
▁ലോകത്ത്	-3824
ക്കാരെ	-3825
▁മെഷീൻ	-3826
vious	-3827
▁ചിലപ്പോള്‍	-3828
തിയില്‍	-3829
▁പ്രവാചകന്‍	-3830
തരണം	-3831
ശിക്ഷ	-3832
ത്തുള്ള	-3833
▁പാട്ട	-3834
▁ഒട്ട	-3835
ിക്കുന്നവര്‍	-3836
▁ഓൺലൈ	-3837
നമ്മ	-3838
▁മേൽ	-3839
▁പരസ്യ	-3840
ാപം	-3841
ള്ളൂ	-3842
▁ഓടി	-3843
ക്കാരുടെ	-3844
▁ഉത്തരവാദി	-3845
ial	-3846
മ്പ്	-3847
ച്ചും	-3848
▁ലൂ	-3849
▁ഇഷ്ടം	-3850
ന്തരം	-3851
▁നിറം	-3852
▁മന്ത്രി	-3853
ൂന്യ	-3854
▁ജില്ല	-3855
ിട്ടും	-3856
മല	-3857
ob	-3858
▁ഹേ	-3859
വള	-3860
▁നിയോഗ	-3861
▁are	-3862
▁എക്സ്	-3863
▁ഞങ്ങൾക്ക്	-3864
▁വിശേഷ	-3865
▁വായിക്കുക	-3866
▁ബിസിനസ്	-3867
▁വിമര്‍ശ	-3868
പ്പെടുത്തിയ	-3869
▁ഓർമ്മ	-3870
▁എഴുന്ന	-3871
▁നൽകുന്നു	-3872
▁വെളിച്ചം	-3873
▁പുര	-3874
▁പൊറുത്തു	-3875
▁പിതാവ്	-3876
▁ഉടമ	-3877
▁ഇക്കാര്യ	-3878
▁പിടികൂ	-3879
▁ആണോ	-3880
▁വ്യാ	-3881
തമ	-3882
▁സിം	-3883
ക്കാളും	-3884
▁ജനങ്ങള	-3885
▁എഴുത്തുകാര	-3886
▁അയച്ചു	-3887
ര്‍ത്ഥ	-3888
ory	-3889
ust	-3890
മായുള്ള	-3891
▁സംബന്ധിച്ച്	-3892
മ്പോൾ	-3893
▁ശൈ	-3894
▁മഹത്തായ	-3895
▁തേടി	-3896
▁കൊന്ന	-3897
മായാണ്	-3898
▁മാതൃക	-3899
ക്ടോ	-3900
▁പുരോഹിത	-3901
ക്കെതിരെ	-3902
ail	-3903
ഗമ	-3904
്മെ	-3905
ാനെ	-3906
▁നേതൃ	-3907
▁എയർ	-3908
▁സംസാരിച്ചു	-3909
തകൾ	-3910
▁ജനാധിപ	-3911
▁നം	-3912
ാളി	-3913
റിഞ്ഞു	-3914
വാള	-3915
▁ഉണ്ടായിരുന്ന	-3916
ിക്	-3917
ക്കൂട്ട	-3918
▁ആരുടെ	-3919
ിരുന്നില്ല	-3920
ൂര	-3921
4)	-3922
▁Next	-3923
മേല്‍	-3924
▁ഒരാള	-3925
▁വേണ്ടത്	-3926
വനാകുന്നു	-3927
▁വിദ്യാഭ്യാസ	-3928
ര്‍ത്തെ	-3929
▁കള്ളം	-3930
ഭാഗം	-3931
▁എന്നോടു	-3932
▁വിദ്യാർത്ഥ	-3933
▁കോൺ	-3934
സമയ	-3935
▁സന്ദർശ	-3936
ിക്കപ്പെടുന്ന	-3937
▁ആരെയും	-3938
▁ഇതെല്ലാം	-3939
▁കോടി	-3940
▁നിര്‍ത്ത	-3941
▁പോലെയ	-3942
ത്സാഹ	-3943
▁ഹിന്ദ	-3944
▁തുടര്‍ന്ന്	-3945
തന	-3946
▁2019	-3947
▁ജയില	-3948
▁ഭാരം	-3949
ഗതി	-3950
ാൻഡ്	-3951
▁വീടി	-3952
▁or	-3953
▁കാവ	-3954
എനിക്ക്	-3955
▁ആളുകളെ	-3956
ave	-3957
▁ബീ	-3958
പെട്ട	-3959
▁വരാം	-3960
മ്പര	-3961
ങ്ങളെല്ലാം	-3962
▁ഇരുപ	-3963
യിലുള്ള	-3964
▁വാങ്ങി	-3965
▁കഴുക	-3966
▁നഗരം	-3967
തിരുത്തുക	-3968
▁ഇടതു	-3969
ാമായിരുന്നു	-3970
ഗു	-3971
▁സ്ല	-3972
▁ഫോണ	-3973
▁കഥാപാ	-3974
▁കർത്ത	-3975
▁തീവ്ര	-3976
ക്കുറിച്ചു	-3977
▁അല്ലെ	-3978
▁ഉപയോഗിക്കുന്നു	-3979
▁ഗ്രഹ	-3980
▁ഭൂരി	-3981
▁സ്വാധ	-3982
▁മനുഷ്യന്റെ	-3983
▁രണ്ടാമത്തെ	-3984
യുള്ളൂ	-3985
ികൾക്ക്	-3986
▁കാലത്ത്	-3987
കരമായി	-3988
കുട്ടി	-3989
▁പറഞ്ഞാല്‍	-3990
▁കൃത്യമായി	-3991
ിക്കുന്നതും	-3992
▁നുണ	-3993
▁പ്രയോജന	-3994
തോടെ	-3995
▁ഉണ്ടായ	-3996
വന്	-3997
▁പണിയ	-3998
▁ഇല്ലാത്ത	-3999
തന്നെയാണ്	-4000
▁നിന്നാണ്	-4001
▁Com	-4002
▁പ്രസിഡ	-4003
▁29	-4004
▁വെടി	-4005
യിലൂടെ	-4006
▁ആവശ്യമില്ല	-4007
നിന്റെ	-4008
▁മാനേജ	-4009
▁ഇള	-4010
▁അന്നു	-4011
▁വിശ്വസിക്കുകയും	-4012
▁197	-4013
▁പൊല	-4014
▁പൊരു	-4015
ദാ	-4016
▁സ്ഥാനം	-4017
▁ഡോക്ടർ	-4018
പുത്ര	-4019
ിക്കുന്നതു	-4020
▁Previous	-4021
ചെ	-4022
▁വ്യവസ	-4023
▁ഒരാൾ	-4024
റ്റഡ്	-4025
▁അക്കൗ	-4026
11	-4027
▁പരമാവ	-4028
▁ആള്‍	-4029
ായിരിക്കാം	-4030
▁ആയുധ	-4031
▁കമ്പ്യൂ	-4032
▁എനിക്കറിയാം	-4033
▁മലക്ക	-4034
▁താല്‍	-4035
▁പടി	-4036
ian	-4037
▁ഒന്നാണ്	-4038
മാരും	-4039
▁വിദഗ്	-4040
.4	-4041
▁അങ്ങ്	-4042
▁കൈകാര്യം	-4043
5)	-4044
▁തന്ത്ര	-4045
▁മെറ്റ	-4046
▁ജാലവിദ്യ	-4047
▁ഒരിക്കല്‍	-4048
▁അടിയ	-4049
സംഖ്യ	-4050
!”	-4051
▁ഇന്ത്യൻ	-4052
▁മനസ്	-4053
ടിച്ച്	-4054
ച്ചേ	-4055
▁വാക്കുകൾ	-4056
▁പ്രവര്‍ത്തിച്ച	-4057
▁ശാന്ത	-4058
▁വിളി	-4059
▁ഒട്ടും	-4060
▁പുക	-4061
▁തുല്യ	-4062
ry	-4063
സ്ഥാനം	-4064
▁മനുഷ്യൻ	-4065
▁ലം	-4066
▁പിന്തി	-4067
▁സ്വപ്നം	-4068
▁വിഭാഗം	-4069
▁വലിയൊരു	-4070
6)	-4071
മതി	-4072
▁ആല	-4073
▁പ്രപഞ്ച	-4074
േണ്ടതുണ്ട്	-4075
ിൾ	-4076
▁ദാവീ	-4077
▁മണ്ണ	-4078
3)	-4079
ice	-4080
▁അപ്പോഴ	-4081
യ്ക്കുന്ന	-4082
▁തട്ട	-4083
▁പര്യ	-4084
▁രക്തം	-4085
▁ഡിസൈ	-4086
▁മുന്നില്‍	-4087
▁ലൈംഗ	-4088
▁സൂചന	-4089
കങ്ങൾ	-4090
വൽ	-4091
ജ്ഞാന	-4092
The	-4093
▁കിഴ	-4094
ീതം	-4095
▁പാപം	-4096
ud	-4097
അല്ല	-4098
ുമുണ്ട	-4099
▁വ്യത്യാസം	-4100
ace	-4101
പറയ	-4102
ാണെ	-4103
ലാം	-4104
▁നവം	-4105
▁തള	-4106
▁അവിടുന്ന്	-4107
▁ആരോപ	-4108
▁പരമാവധി	-4109
ഹമ്മ	-4110
▁ഷോ	-4111
▁ആഴ	-4112
▁മനോഹര	-4113
ക്കല്‍	-4114
▁പഠനം	-4115
30	-4116
▁മറ്റൊരാ	-4117
ീകരിച്ച	-4118
ദു	-4119
വിശ്വാസം	-4120
▁your	-4121
▁́	-4122
▁മതിയ	-4123
▁ട്രേ	-4124
നിങ്ങളുടെ	-4125
വിന്	-4126
▁ചെയ്താല്‍	-4127
മെയിൽ	-4128
▁ചെന്നു	-4129
മിന്റെ	-4130
തെന്നും	-4131
ൊക്കെയ	-4132
▁അവന്നു	-4133
▁വിച	-4134
▁സന്ദേശ	-4135
ال	-4136
കി	-4137
ാലയ	-4138
ൊപ്പ	-4139
ഗ്രന്ഥ	-4140
രിയ്	-4141
ങ്കല	-4142
ൊരിക്കലും	-4143
▁മകന്‍	-4144
റുടെ	-4145
പ്രതി	-4146
▁അനുഗ്രഹം	-4147
▁Al	-4148
ra	-4149
നോടു	-4150
▁ബഹ	-4151
▁ബ്ലോ	-4152
▁ക്ര	-4153
act	-4154
▁നൂറ്റാ	-4155
▁ചിലപ്പോൾ	-4156
ശാല	-4157
ന്മാര	-4158
pl	-4159
▁പാന	-4160
ണ്ണ്	-4161
▁വ്യക്തിയ	-4162
▁സ്വാഭാവിക	-4163
▁നിലനില്‍	-4164
ടുവ	-4165
ff	-4166
▁തീയ	-4167
▁സൈന	-4168
▁എന്തുകൊണ്ടാണ്	-4169
▁വേറ	-4170
▁ലക്ഷം	-4171
ൃഹ	-4172
ികളിൽ	-4173
ാക്കുക	-4174
▁പീഡ	-4175
▁ഭംഗ	-4176
മാത്ര	-4177
സ്യം	-4178
ിക്ക്	-4179
▁കിട്ടും	-4180
പുല	-4181
▁അദ്ധ്യ	-4182
▁യോജ	-4183
ാനാവ	-4184
▁പ്രണയം	-4185
കാരുണ	-4186
ere	-4187
▁മൊബൈൽ	-4188
മാരുടെ	-4189
ില്ലാതെ	-4190
മത	-4191
ക്കളും	-4192
മാക്കുന്നു	-4193
ിക്കുന്നത	-4194
▁പറ്റില്ല	-4195
▁വോട്ട	-4196
▁പരിപാ	-4197
▁60	-4198
.9	-4199
ല്‍ക്ക	-4200
▁ഭർത്ത	-4201
ib	-4202
▁അന്യ	-4203
ട്ടേ	-4204
രിക്കുകയും	-4205
▁അല്ലാഹുവിനെ	-4206
ഗോ	-4207
സ്ഥിതി	-4208
▁ബാക്കിയ	-4209
▁വേണ്ടിയ	-4210
▁ഏതാ	-4211
▁2017	-4212
േഷ്യ	-4213
ചിത്ര	-4214
▁അധ്യാപക	-4215
▁2015	-4216
▁മുടി	-4217
നിർ	-4218
▁കുറ്റം	-4219
ാണെന്നും	-4220
▁തലമുറ	-4221
സും	-4222
▁ഒന്നാം	-4223
▁പ്രോഗ്ര	-4224
▁പ്രാവശ്യം	-4225
കാതെ	-4226
▁അഹങ്ക	-4227
▁അങ്ങയുടെ	-4228
▁സമര	-4229
▁ഇന്റർ	-4230
▁ലംഘ	-4231
▁തീരുമാനിച്ചു	-4232
ിക്കേണ്ടത്	-4233
▁ഭാവി	-4234
▁വിലയി	-4235
▁നഷ്ടപ്പെട്ട	-4236
ശോ	-4237
രുമായി	-4238
ക്കാരും	-4239
ക്കുവേണ്ടി	-4240
▁അതിനുള്ള	-4241
▁അറിയിച്ചു	-4242
2)	-4243
▁കാർഡ്	-4244
▁അഡ	-4245
റങ്ങി	-4246
ീരിയ	-4247
വണ്ണം	-4248
▁വര്‍ദ്ധ	-4249
▁ജനങ്ങളുടെ	-4250
ത്തിലേക്കു	-4251
▁വാങ്ങിയ	-4252
ദൂത	-4253
▁മുന്‍പ്	-4254
▁ആഹാരം	-4255
മാക്കുന്ന	-4256
വഴിയ	-4257
▁എന്നറിയ	-4258
▁Con	-4259
60	-4260
▁ആര്	-4261
ുകളിലും	-4262
ബെ	-4263
▁തന	-4264
▁എന്നി	-4265
ദ്രവ	-4266
?''	-4267
▁നിലയില്‍	-4268
യിരുന്നു	-4269
▁താല	-4270
▁തെളി	-4271
▁രീതിയിൽ	-4272
▁മുസ്	-4273
▁ഉപയോഗിച്ച	-4274
▁ഇതും	-4275
▁കുട്ടികളുടെ	-4276
▁അനേകം	-4277
▁വെല്ല	-4278
▁വിധേയ	-4279
ുകൂല	-4280
ood	-4281
▁പതു	-4282
▁അടയാള	-4283
യ്ക്കുക	-4284
8)	-4285
▁@	-4286
▁പുറമെ	-4287
കര്‍	-4288
▁വസ്ത്രം	-4289
ുകാ	-4290
▁ഉന്നത	-4291
▁സ്ക്	-4292
ുകാർ	-4293
▁വൃത്തി	-4294
▁ഹാ	-4295
▁മഞ്ഞ	-4296
▁ശക്തിയ	-4297
▁നോക്കാം	-4298
▁ഇബ്	-4299
ാണെങ്കിലും	-4300
▁മൊത്തം	-4301
ികളേ	-4302
ക്കിന്	-4303
ടേയും	-4304
▁വരൂ	-4305
സ്താവ	-4306
▁അറിയുക	-4307
▁നീയെ	-4308
ാത്തത്	-4309
▁ഉമ്മ	-4310
ത്തിന്നു	-4311
റുകള്‍	-4312
▁നീക്കം	-4313
▁വന്ന്	-4314
▁സ്വാതന്ത്ര്യ	-4315
▁ബ്ലോഗ	-4316
▁സ്ത്രീകള്‍	-4317
ാംഗ	-4318
രുകയും	-4319
ിക്കയും	-4320
▁വിശ്വസിച്ച	-4321
പുസ്ത	-4322
▁കാട്ട	-4323
▁നല്‍കും	-4324
▁ഏഴ	-4325
വിധം	-4326
▁നാട്ടില്‍	-4327
▁രോഗം	-4328
യെയും	-4329
പ്പെടുത്തുന്നു	-4330
ർഘ	-4331
▁ദശ	-4332
.8	-4333
▁വഞ്ച	-4334
▁കാത്തു	-4335
ങ്ങളുടെയും	-4336
▁ch	-4337
icle	-4338
ർക്കാർ	-4339
▁ജ്ഞാന	-4340
ിക്കുമ	-4341
▁അവിശ്വസ	-4342
▁ശമ്പ	-4343
▁സത്യസന്ധ	-4344
മിന	-4345
▁പ്രകടിപ്പ	-4346
▁ജീവിച്ച	-4347
മക	-4348
▁പരാമ	-4349
വില	-4350
യൊക്കെ	-4351
▁from	-4352
വായ	-4353
▁കളയ	-4354
ാക്കുന്നു	-4355
▁എല്ലാവർക്കും	-4356
▁ട്രെയിൻ	-4357
▁at	-4358
▁തികച്ചും	-4359
▁ദൈവമേ	-4360
▁ഒടുവിൽ	-4361
ook	-4362
്ക്ക്	-4363
ണിവ	-4364
▁പൂച്ച	-4365
▁തീരുമാനിക്ക	-4366
ഹാസ	-4367
ന്റേ	-4368
▁അവഗണ	-4369
▁ഒടുവില്‍	-4370
▁റീ	-4371
▁കത്തി	-4372
സത്യ	-4373
മായിരുന്നില്ല	-4374
▁പറഞ്ഞ്	-4375
ത്തുന്ന	-4376
▁മോഹ	-4377
ോടുകൂടെ	-4378
▁പ്രത്യക്ഷ	-4379
▁ഉയിര്‍ത്തെ	-4380
▁പ്രസംഗ	-4381
▁മുമ്പില്‍	-4382
ടുത്തെ	-4383
ത്താ	-4384
നിക്കു	-4385
▁കഴിഞ്ഞില്ല	-4386
▁31	-4387
ച്ചത്	-4388
ിപ്പിക്കുകയും	-4389
ിതാ	-4390
▁ദോഷ	-4391
ായിക	-4392
hy	-4393
▁പെണ്‍കുട്ട	-4394
ബാ	-4395
ങ്ങളുമായി	-4396
▁കാര്യമാണ്	-4397
▁ഡേ	-4398
ഴുത	-4399
▁as	-4400
▁ഉം	-4401
▁പിതാക്ക	-4402
▁Ind	-4403
▁സംവിധ	-4404
ച്ചവ	-4405
▁‍	-4406
ല്ലാവരും	-4407
▁പഞ്ച	-4408
▁സ്തുതി	-4409
▁ജനങ്ങളെ	-4410
▁ഓൺലൈൻ	-4411
▁എത്രയോ	-4412
▁ലൈംഗിക	-4413
▁താങ്കൾ	-4414
▁ഇറങ്ങി	-4415
▁കഴിഞ്ഞ്	-4416
▁മറ്റുള്ളവരെ	-4417
മാന്‍	-4418
▁കൊണ്ടാണ്	-4419
▁ബുദ്ധിമുട്ട	-4420
▁ചോദിക്കുന്നു	-4421
ുകെ	-4422
ായുള്ള	-4423
▁ആശംസ	-4424
▁ചിലർ	-4425
ഭൂ	-4426
തിലും	-4427
7)	-4428
നിടെ	-4429
ാക്കുകയും	-4430
്റെ	-4431
ശ്വ	-4432
▁തരാം	-4433
▁അതോടെ	-4434
▁ഷൂ	-4435
ിലായിരുന്നു	-4436
▁ജീവിതത്തിൽ	-4437
▁ലഭിച്ചു	-4438
▁രാജ്യത്തെ	-4439
ൻസ	-4440
▁മറ്റേ	-4441
▁വിശാല	-4442
ുകയുണ്ടായി	-4443
▁(19	-4444
,,	-4445
നുള്ള	-4446
▁An	-4447
ത്തിരി	-4448
▁കുള	-4449
▁വിവരങ്ങള്‍	-4450
▁ഭി	-4451
▁ജനിച്ച	-4452
▁ജീവന്‍	-4453
▁ശ്രദ്ധിക്കുക	-4454
മിച്ച്	-4455
വൈ	-4456
▁കണ്ണു	-4457
▁കൗ	-4458
▁സമുദായ	-4459
▁പ്രസ്താവ	-4460
ish	-4461
ത്തോടു	-4462
▁കോട്ട	-4463
ിനു	-4464
▁നദ	-4465
അവര്‍	-4466
▁ചെയ്തിരുന്നു	-4467
▁സൈനിക	-4468
▁ഉപദേശം	-4469
▁രണ്ടാമ	-4470
▁നിങ്ങളും	-4471
▁ഗ്രൂ	-4472
▁ഇവിട	-4473
ite	-4474
▁പ്രായം	-4475
ിക്കുമെന്ന്	-4476
പ്പെടെ	-4477
▁ഇറങ്ങ	-4478
ൽപ്പന	-4479
▁സാധാരണയായി	-4480
▁ഉറക്ക	-4481
▁ഉദ്	-4482
മന്ത്രി	-4483
▁കാണിച്ച	-4484
▁പൊട്ട	-4485
▁മൂസാ	-4486
▁പൊറുക്കുന്നവനും	-4487
ാകെ	-4488
▁വീണു	-4489
▁മാനു	-4490
റിയുന്ന	-4491
▁പാപങ്ങള്‍	-4492
▁അത്തര	-4493
...]	-4494
▁പ്പ	-4495
▁സൈന്യ	-4496
▁എഞ്ച	-4497
▁എപ്പോഴ	-4498
▁ഏറ്റെ	-4499
▁നിന്നോട്	-4500
വയാണ്	-4501
▁നൽകി	-4502
ളിയ	-4503
▁അറിയാമോ	-4504
▁ആവശ്യമായ	-4505
നബിയേ	-4506
ദിനം	-4507
ഥം	-4508
▁വരാ	-4509
▁സൗജന്യ	-4510
നാക	-4511
സര്‍	-4512
േണ്ടതില്ല	-4513
ക്കാണ്	-4514
▁ശിഷ്യ	-4515
ിക്കൊണ്ട്	-4516
രിട	-4517
▁പറയുകയും	-4518
▁ബന്ധു	-4519
▁സർക്കാർ	-4520
▁വ്യക്തമായി	-4521
▁അയ്യ	-4522
റ്റില്‍	-4523
പാടു	-4524
▁നല്‍കുന്നു	-4525
,)	-4526
▁art	-4527
പ്പെട്ടത്	-4528
▁You	-4529
▁മണിക്കൂർ	-4530
ാവാം	-4531
▁താക്കീ	-4532
ബ്രാഹ	-4533
ങ്ങളിലൂടെ	-4534
ary	-4535
▁തരും	-4536
▁മുൻപ്	-4537
▁കാമ	-4538
▁വിപ്ല	-4539
▁ഭൂമിയുടെ	-4540
able	-4541
തൊ	-4542
തയുടെ	-4543
▁തോട്ട	-4544
ഗ്ഗം	-4545
▁ധന	-4546
റായി	-4547
▁നിങ്ങൾക്കു	-4548
▁വേണോ	-4549
▁കറ	-4550
▁കുറയ്ക്ക	-4551
▁സിസ്റ്റം	-4552
▁റസൂ	-4553
▁വലുത	-4554
▁കാര്‍	-4555
▁തിരിഞ്ഞു	-4556
▁Ar	-4557
▁ഫോണ്‍	-4558
▁ശൂന്യ	-4559
ുംബ	-4560
ിനെയ	-4561
▁കാലാവസ്ഥ	-4562
▁നിശ	-4563
!"	-4564
▁അറിവ്	-4565
▁തരത്തിലുള്ള	-4566
▁സ്ത്രീകൾ	-4567
▁[...]	-4568
▁വര്‍ധ	-4569
9)	-4570
▁അരുളിച്ച	-4571
...”	-4572
▁പിൻ	-4573
▁പര്‍	-4574
ാര്	-4575
ുമെ	-4576
▁സത്യത്തില്‍	-4577
െന്നാല്‍	-4578
▁താള	-4579
▁മൂലം	-4580
▁ഒഴുക	-4581
ാന്യം	-4582
-0	-4583
▁യഥാര്‍ഥ	-4584
ാകാര	-4585
▁മുതി	-4586
▁റാ	-4587
ശുദ്ധ	-4588
മിക	-4589
▁സജീവ	-4590
▁യൂണിവ	-4591
ide	-4592
▁സമുദ്ര	-4593
ഫ്രിക്ക	-4594
▁പ്രോത്സാഹ	-4595
▁ഉടൻ	-4596
▁കൃഷി	-4597
▁ജപ്പ	-4598
ree	-4599
▁വിഭവ	-4600
ുകാല	-4601
▁അതേസമയം	-4602
▁പ്രശസ്ത	-4603
▁ഒരുപക്ഷേ	-4604
കളിലും	-4605
▁സമര്‍പ്പ	-4606
ങ്ങള്‍ക്കു	-4607
▁അസു	-4608
ശാസ്ത്ര	-4609
▁സംഗീതം	-4610
ണമെന്നു	-4611
▁വിവേ	-4612
▁മദ	-4613
ൈഡ്	-4614
▁ഭൂത	-4615
▁ദിവസത്തെ	-4616
▁കാലഘട്ട	-4617
ert	-4618
▁അതിശ	-4619
▁എത്തിയ	-4620
▁സമാന	-4621
ുളള	-4622
.7	-4623
▁സാക്ഷ്യം	-4624
ൊന്നുമല്ല	-4625
നട	-4626
▁ടീം	-4627
▁കിലോ	-4628
▁വെബ്സൈ	-4629
▁സംവിധായക	-4630
▁എന്‍	-4631
▁name	-4632
▁പിന്നെയും	-4633
ാട്ട	-4634
▁കോപ	-4635
▁സമരം	-4636
▁തെറ്റ്	-4637
▁ചിലത്	-4638
പയോഗ	-4639
▁2014	-4640
▁മുകളിൽ	-4641
▁സ്ട്ര	-4642
പ്പാട്	-4643
▁ഗവേഷണ	-4644
▁വഴിക	-4645
▁താളിൽ	-4646
▁പ്രഭാത	-4647
യാത്ര	-4648
▁ചോദിക്കുക	-4649
▁നേരിട്ട്	-4650
▁ഇല്ലാതെ	-4651
1)	-4652
വിന്‍റെ	-4653
ിച്ചെ	-4654
▁ശീ	-4655
▁വിതരണക്കാർ	-4656
ികയും	-4657
ോളൂ	-4658
ുകള്‍ക്ക്	-4659
▁താങ്കള്‍ക്ക്	-4660
ധിപ	-4661
▁ഒരാളെ	-4662
.6	-4663
▁നൂറ്റാണ്ട	-4664
▁താൻ	-4665
▁കൃഷ	-4666
രിദ്ര	-4667
ജിപ്	-4668
▁അനുമതി	-4669
▁യൂണിവേഴ്	-4670
▁Post	-4671
▁മക്കള്‍	-4672
.[	-4673
▁അറ്റ	-4674
▁യുടെ	-4675
▁റിപ്പോര്‍	-4676
▁എങ്ങിനെ	-4677
▁വിതരണം	-4678
റിനെ	-4679
▁മോശം	-4680
▁കന	-4681
▁മുമ്പത്തെ	-4682
▁do	-4683
▁ഉപദ്രവ	-4684
▁വെല്ലുവി	-4685
▁വലതു	-4686
ഹാര	-4687
ിലായി	-4688
▁എനിക്കൊരു	-4689
ക്കണ	-4690
മനുഷ്യ	-4691
▁ബാധ്യത	-4692
▁that	-4693
▁പങ്കു	-4694
ക്കുവാന്‍	-4695
ൽപ	-4696
വേറിയ	-4697
▁ശ്രമിച്ചു	-4698
ങ്കര	-4699
ീണ	-4700
▁ബാഗ്	-4701
▁കണ്ടുമു	-4702
▁പാപമോചനം	-4703
▁കഥാപാത്ര	-4704
സിയ	-4705
▁ദൂര	-4706
ികളായി	-4707
നിങ്ങൾ	-4708
▁സാമൂഹിക	-4709
▁പ്രതാപ	-4710
▁ലേഖന	-4711
യെല്ലാം	-4712
▁മര്‍	-4713
▁ഫെബ്	-4714
▁ക്ഷേത്ര	-4715
പക്ഷം	-4716
▁ഇന്‍	-4717
▁തിരക്ക	-4718
ദര്‍ശ	-4719
▁മനസ്സില്‍	-4720
▁വിശ്വസിക്കുന്ന	-4721
▁മതം	-4722
▁നിയന്ത്രണ	-4723
▁ദേവ	-4724
▁വീണ	-4725
▁ജൂലൈ	-4726
▁ചൊല്ല	-4727
▁നാമം	-4728
▁നേട്ട	-4729
▁വക	-4730
ിച്ചാൽ	-4731
ational	-4732
▁പ്രധാനമാണ്	-4733
▁ഒക്ക	-4734
▁പാവം	-4735
orld	-4736
▁താരതമ	-4737
ാണത്	-4738
ജിംഗ്	-4739
▁സുപ്ര	-4740
▁ചെയ്യുകയും	-4741
ന്നത്	-4742
▁വീണ്ട	-4743
▁ab	-4744
രോട്	-4745
▁ക്ക	-4746
▁വേഗത	-4747
▁ഓട്ടോ	-4748
▁നോട്ട	-4749
പ്പെടുത്തുകയും	-4750
▁നിസ്സ	-4751
▁കൊടുത്തി	-4752
ery	-4753
ence	-4754
▁ഉയര	-4755
▁സന്ദര്‍ഭം	-4756
▁പറയൂ	-4757
റ്ററി	-4758
ിച്ചുകൂ	-4759
▁തെരഞ്ഞെടുക്ക	-4760
▁അവരും	-4761
രൂപ	-4762
ിപ്പിക്ക	-4763
▁ഇതോടെ	-4764
▁ഒക്ടോ	-4765
▁ചേട്ട	-4766
▁ബൈബി	-4767
▁നിശ്ചിത	-4768
വാറും	-4769
▁നഷ്ടം	-4770
▁ഏതാണ്ട്	-4771
▁പിന്നാലെ	-4772
ന്തോ	-4773
ര്‍ഘ	-4774
ർജ്ജ	-4775
▁അവനോട്	-4776
ുകളയ	-4777
▁നില്‍ക്കുന്ന	-4778
ുല	-4779
12	-4780
തിയാണ്	-4781
▁വെച്ചു	-4782
േള	-4783
▁അഭിമാന	-4784
പക്ഷെ	-4785
ങ്ങള്‍ക്കും	-4786
▁ആരംഭിച്ചു	-4787
ബ്ബ	-4788
ിച്ചോ	-4789
▁എവിടെയ	-4790
ിയാ	-4791
സിനോ	-4792
ാന്യ	-4793
പ്പാട	-4794
ിച്ചിരുന്നില്ല	-4795
ile	-4796
▁വട	-4797
▁കഴിയുമോ	-4798
▁തള്ളിപ്പറ	-4799
Name	-4800
വെന്ന	-4801
▁Un	-4802
▁പരിഹരിക്ക	-4803
പ്പുറം	-4804
▁അര്‍ഹ	-4805
ങ്ങളുണ്ട	-4806
▁തെറ്റായ	-4807
▁ഗണ	-4808
▁കൃത്യമായ	-4809
▁ഇങ്ങ	-4810
മുണ്ടായിരുന്നു	-4811
▁എന്തിന്	-4812
▁വിശദീകരിക്ക	-4813
▁പൂജ	-4814
ഹത്യ	-4815
▁എനിക്കെ	-4816
▁കണ്ടില്ല	-4817
▁തുടർന്ന്	-4818
▁സഹായിക്കുന്നു	-4819
▁ഒരിക്കൽ	-4820
ന്‍മ	-4821
▁സ്വാതന്ത്ര്യം	-4822
▁we	-4823
▁this	-4824
▁നിർത്ത	-4825
▁ഇപ്പോ	-4826
യിൻ	-4827
▁നൃ	-4828
മൊ	-4829
പോകും	-4830
േക്കാണ്	-4831
▁ചെയ്യേണ്ട	-4832
▁മുത്ത	-4833
പ്പെടുത്തുന്ന	-4834
▁നേടി	-4835
റപ്പ	-4836
ിക്കുന്നവര്‍ക്ക്	-4837
▁വലിപ്പ	-4838
റൽ	-4839
▁ഭേദ	-4840
▁സ്നേഹിക്കുന്നു	-4841
▁വില്‍	-4842
▁താങ്കളെ	-4843
▁ഔദ്യോഗ	-4844
▁ഈജിപ്	-4845
▁മനുഷ്യരെ	-4846
കളെയും	-4847
തിന്‍റെ	-4848
മില്ലാതെ	-4849
▁ഉണ്ടാക്കിയ	-4850
ക്രി	-4851
കാരുണിക	-4852
ധുനിക	-4853
▁ഇണ	-4854
▁ചുമതല	-4855
ഴ്സ	-4856
▁ലിം	-4857
വര്‍ക്കും	-4858
▁2013	-4859
മാസ	-4860
▁ആശയം	-4861
▁നമ്മള	-4862
▁നിശ്ചയമായും	-4863
▁പെൺകുട്ട	-4864
▁അമ്മയുടെ	-4865
'.	-4866
▁സമ്പാദ	-4867
▁രൂപം	-4868
EB	-4869
▁നടത്തുന്ന	-4870
▁കുറി	-4871
▁സ്വർ	-4872
▁തിരിച്ചുവിട്ട	-4873
▁കേസ്	-4874
▁പേടിയ	-4875
▁മഹത്വ	-4876
▁ഉള്ളത്	-4877
ire	-4878
▁നീയും	-4879
ാകണം	-4880
▁കണ്ട്	-4881
ങ്കില്‍	-4882
▁ദരിദ്ര	-4883
▁ശരിയാണ്	-4884
▁അതിഥ	-4885
▁നൈ	-4886
▁മണി	-4887
ായിരുന്നോ	-4888
ക്കാലത്ത്	-4889
ക്കാരന്‍	-4890
▁അല്ലാഹുവില്‍	-4891
▁ദൈവമായ	-4892
ക്കൊണ്ട	-4893
ഡിംഗ്	-4894
▁ജനാധിപത്യ	-4895
▁പരിഹാര	-4896
▁ചെല്ല	-4897
▁മുഹമ്മ	-4898
▁പാക	-4899
ാവൂ	-4900
ന്ഗ്	-4901
▁അവലോക	-4902
▁കൊലപാ	-4903
▁സ്ഥാപന	-4904
ലിന	-4905
▁സംഭവിച്ചു	-4906
▁ആയിരം	-4907
▁വകു	-4908
കഥ	-4909
▁ചാന	-4910
ത്തായി	-4911
▁അവധി	-4912
ൊക്കെയാണ്	-4913
മയ	-4914
ിക്കേഷൻ	-4915
▁നാശ	-4916
▁പതുക്കെ	-4917
ത്തേക്കു	-4918
▁ദുരന്ത	-4919
ാക്കാന്‍	-4920
▁ആവര്‍ത്തി	-4921
▁നിർമ്മാ	-4922
▁അറിയുന്നില്ല	-4923
റുക	-4924
ണമെന്നില്ല	-4925
▁ബാങ്ക്	-4926
▁ഇപ്പൊ	-4927
ിപ്പിക്കും	-4928
ർട്ട	-4929
▁ചുംബ	-4930
▁സങ്കീ	-4931
ംസ്	-4932
▁കാണുന്നില്ല	-4933
▁പറയാന	-4934
ിയർ	-4935
▁കാസിനോ	-4936
▁വനി	-4937
▁ഇച്ഛ	-4938
▁ആശങ്ക	-4939
▁മറന്ന	-4940
എൻ	-4941
സിറ്റി	-4942
രുന്ന്	-4943
▁വിധം	-4944
ction	-4945
യേറിയ	-4946
ബാധ	-4947
്യാണ	-4948
▁മുഴുവനും	-4949
േട്ട	-4950
▁തടവ	-4951
സ്തി	-4952
▁മമ്മ	-4953
പ്പും	-4954
ical	-4955
▁ചെയ്യരുത്	-4956
▁സര്‍ക്കാര	-4957
▁മിക്കവാറും	-4958
രുവരി	-4959
▁പ്രക്രിയ	-4960
▁ധൈര്യ	-4961
ime	-4962
▁താൽ	-4963
ട്ടില്‍	-4964
▁ഇവര	-4965
▁ചർച്ച	-4966
▁ال	-4967
▁തനിക്ക്	-4968
സ്തവ	-4969
ഖ്	-4970
▁``	-4971
ue	-4972
▁35	-4973
വാര്‍ത്ത	-4974
▁നിര്‍വഹ	-4975
ിക്കുന്നവരെ	-4976
▁കുറഞ്ഞത്	-4977
▁ഉദാഹരണത്തിന്	-4978
േട	-4979
▁90	-4980
ക്കുകൾ	-4981
വരുന്ന	-4982
▁ഗര്‍ഭ	-4983
റുണ്ട്	-4984
▁Q	-4985
ാവണം	-4986
▁al	-4987
ാനുസ	-4988
▁ഇവര്‍ക്ക്	-4989
ുകളിലെ	-4990
▁വിളിക്കുന്നു	-4991
ിക്കുകയായിരുന്നു	-4992
▁കൂട്ടത്തില്‍	-4993
▁ചാർ	-4994
▁കുറ്റവാള	-4995
▁ഉൽപ്പന്നങ്ങൾ	-4996
▁ക്യാമറ	-4997
▁ശപ	-4998
="2	-4999
▁സാർ	-5000
▁നിഷ്	-5001
▁പാപമോചന	-5002
▁ആര്‍ക്ക	-5003
▁തിരിച്ചെ	-5004
▁സൂക്ഷിക്കുക	-5005
യോഹ	-5006
▁ഓപ്	-5007
▁തിരിച്ചുവിട്ടതു	-5008
▁ജൂത	-5009
മ്മാണ	-5010
▁കണ്ടുപിട	-5011
വാന	-5012
▁ദുഷ്ട	-5013
ള്‍ക്ക്	-5014
ക്കൊണ്ട്	-5015
▁പൗര	-5016
ംശ	-5017
▁തന്നെയാകുന്നു	-5018
▁ഇതുപോലെ	-5019
വിൻ	-5020
▁അനുകൂല	-5021
▁ദൃശ്യ	-5022
ിയത്	-5023
▁അല്‍പ	-5024
ട്ടുണ്ട	-5025
19	-5026
own	-5027
ാൻസ്	-5028
ase	-5029
േഷന്‍	-5030
▁നല്ലതാണ്	-5031
▁ചായ	-5032
ാർഡ്	-5033
▁പോകാം	-5034
കാലത്ത്	-5035
▁സമൂ	-5036
▁മുതല	-5037
▁ഒള	-5038
▁വിവ	-5039
▁സജ്ജ	-5040
ഫെ	-5041
ിത്യ	-5042
▁വിഡ്	-5043
▁ക്ലാസ്	-5044
▁അങ്ക	-5045
tt	-5046
ങ്ങും	-5047
▁ഫലപ്രദ	-5048
▁വസ്തുത	-5049
▁അപ്	-5050
ാമെന്ന്	-5051
▁മധു	-5052
▁അവസാനത്തെ	-5053
▁ഭീഷണി	-5054
▁word	-5055
പറ്റ	-5056
▁പല്ല	-5057
െങ്കിലോ	-5058
▁ഡോക്ടര്‍	-5059
▁ഗൗര	-5060
▁ഉദ്യോഗ	-5061
▁സുഹൃത്തുക്കള	-5062
▁അമ്പ	-5063
▁ഉപയോഗം	-5064
▁പശ്ചാത്തപ	-5065
▁സംത	-5066
▁പോകാൻ	-5067
ർത്ഥ	-5068
▁വച്ച്	-5069
ിലേക്കും	-5070
▁ഭയം	-5071
പൂ	-5072
▁വിൽ	-5073
▁ഇതിനായി	-5074
ount	-5075
▁ഇമെയിൽ	-5076
താകുന്നു	-5077
റ്റേ	-5078
▁അതിനുശേഷം	-5079
▁നാഥന്റെ	-5080
▁അതുകൊണ്ടാണ്	-5081
▁മധ്യ	-5082
ാധികാര	-5083
ർഡ്	-5084
▁ശ്രമം	-5085
കൊള്ള	-5086
▁up	-5087
▁വാതില	-5088
ress	-5089
▁ഉണ്ടാക്കി	-5090
റ്റോ	-5091
▁ഉരു	-5092
▁പെരുമാറ	-5093
ട്രോ	-5094
വൃത്തി	-5095
▁രാജകു	-5096
ിക്കാതി	-5097
ിക്കപ്പെടും	-5098
ക്കൽ	-5099
▁എഴുതിയി	-5100
▁ഐക്യ	-5101
▁ഡിസൈൻ	-5102
▁En	-5103
▁കാണണം	-5104
ുമ്പ്	-5105
▁അക്ഷര	-5106
▁ഭാഗ്യം	-5107
▁ചേർ	-5108
▁2016	-5109
▁നൽകുന്ന	-5110
നിന	-5111
ദൃശ്യ	-5112
ലോഡ്	-5113
▁ശാര	-5114
▁സലാം	-5115
▁വെട്ട	-5116
▁അധികാരം	-5117
▁തിള	-5118
തൊക്കെ	-5119
▁ജോൺ	-5120
▁അയാള	-5121
▁അതിനായി	-5122
▁യൂറോപ്പ	-5123
ാംശ	-5124
▁പത്ത്	-5125
▁ടീച്ച	-5126
▁ഗാ	-5127
െങ്കില	-5128
▁ഭ്രാന്ത	-5129
▁ഇപ്പോഴത്തെ	-5130
▁ദൈവത്തിന്‍റെ	-5131
വാര	-5132
▁ബേ	-5133
▁നിഴ	-5134
▁ടീമ	-5135
▁കണ്ടത്	-5136
▁ഗർ	-5137
കന്‍	-5138
▁നിറവേ	-5139
▁സംഖ്യ	-5140
▁പറഞ്ഞാൽ	-5141
gle	-5142
▁ആധുനിക	-5143
യാണോ	-5144
പ്യ	-5145
ക്കാതെ	-5146
ഹാ	-5147
യോടു	-5148
കരമാണ്	-5149
▁അസുഖ	-5150
ഭാവന	-5151
▁നിഷേധിച്ചു	-5152
ടക്കം	-5153
▁പേജ്	-5154
ുമൊരു	-5155
▁ഫെബ്രുവരി	-5156
▁നീണ്ട	-5157
▁എനിക്കറിയില്ല	-5158
▁can	-5159
▁അഗ്	-5160
▁സാര	-5161
▁കൊച്ച	-5162
രുതേ	-5163
▁യൂണി	-5164
▁ആയിര	-5165
ിച്ചിരിക്കുന്നത്	-5166
▁ദ്വീപ	-5167
▁തമ്മിൽ	-5168
ഴുന്നേല്‍	-5169
ുകയുമില്ല	-5170
ദിവസം	-5171
▁അന്വേഷണ	-5172
▁പോലെയാണ്	-5173
ല്ലെ	-5174
▁കഴിയാത്ത	-5175
▁ദൃ	-5176
ഭയ	-5177
▁കടം	-5178
▁അഭിമുഖ	-5179
എന്ത	-5180
▁മോഡൽ	-5181
കുറ	-5182
▁അര്‍ത്ഥ	-5183
ാവോ	-5184
▁me	-5185
▁മാന്യ	-5186
ong	-5187
▁ക്രിസ്ത്യ	-5188
▁ഉറപ്പായും	-5189
▁32	-5190
▁അഭിനയ	-5191
രോഗ	-5192
▁എന്തും	-5193
▁കോള	-5194
▁വാക്കു	-5195
സാധ	-5196
▁മെഡ	-5197
ങ്ങള്	-5198
▁ഏപ്ര	-5199
▁അമേരിക്കന്‍	-5200
ിന്‍	-5201
ult	-5202
▁നാഥാ	-5203
ണമെന്നും	-5204
▁ദൗ	-5205
ാലു	-5206
സിസ്	-5207
▁ശുഭ	-5208
ാമല്ലോ	-5209
▁സ്റ്റോ	-5210
▁ആണെന്ന്	-5211
▁us	-5212
▁ഏര്‍	-5213
ഴ്ച്ച	-5214
▁article	-5215
▁വെളുത്ത	-5216
▁കേള്‍ക്ക	-5217
ാറ്റ്	-5218
വേദന	-5219
▁തൃപ്തി	-5220
▁ജനസംഖ്യ	-5221
മ്പു	-5222
ഷന്‍	-5223
▁ജനു	-5224
▁മക്കളെ	-5225
▁സ്കൂള	-5226
വാക	-5227
ക്യം	-5228
ക്ഷൻ	-5229
▁ex	-5230
നാം	-5231
▁ഛ	-5232
▁bl	-5233
ികളെയും	-5234
▁ആഫ്രിക്ക	-5235
ated	-5236
▁സംഭാഷ	-5237
ഴിയ	-5238
ത്തിലേ	-5239
ിക്കാതിരിക്ക	-5240
▁എപ്പോഴാണ്	-5241
▁വിലയിരുത്ത	-5242
രമൊരു	-5243
▁un	-5244
ാരാഷ്ട്ര	-5245
▁കിടക്ക	-5246
വരി	-5247
▁തീരെ	-5248
▁ഇരട്ട	-5249
▁എല്ലായി	-5250
▁അവിടുത്തെ	-5251
ൊറ്റ	-5252
▁നാടക	-5253
▁ഇവി	-5254
▁ഇതില	-5255
▁സമ്മാനം	-5256
▁എളുപ്പം	-5257
ോസ്	-5258
ിയിരിക്കുന്നു	-5259
▁കരുതിയ	-5260
▁196	-5261
▁രചന	-5262
ാക്ക്	-5263
▁എവിടെയാണ്	-5264
▁പേജ	-5265
▁ഉപയോഗിക്കുക	-5266
▁മനസ്സ്	-5267
▁ഏതായാലും	-5268
▁മുദ്ര	-5269
▁ആയിരുന്ന	-5270
ശ്രദ്ധ	-5271
▁പതിന	-5272
▁അവകാശം	-5273
അതെ	-5274
ില്യ	-5275
▁തിരയ	-5276
▁മുന്നോട്ടു	-5277
▁പൊറുത്ത	-5278
▁ജീവിതത്തിലെ	-5279
ge	-5280
ne	-5281
മാകുന്ന	-5282
ാൻഡ	-5283
▁മുന്‍പ	-5284
പൂർ	-5285
uc	-5286
▁സന്തതി	-5287
ിക്കോ	-5288
▁ക്രൂര	-5289
▁വേര്‍	-5290
▁സംഗതി	-5291
ുകൊള്ളുക	-5292
ink	-5293
▁ആർക്കും	-5294
▁ധാരണ	-5295
ിച്ചമ	-5296
▁മകൻ	-5297
▁മനുഷ്യര്‍	-5298
മായിരിക്കുന്നു	-5299
▁ബോണ	-5300
▁അന്നേ	-5301
▁194	-5302
റിന്	-5303
ികമായ	-5304
▁എന്നീ	-5305
▁കാണാന	-5306
hen	-5307
▁ഇരുന്നു	-5308
:6	-5309
▁തയാ	-5310
▁ഉണ്ടായിരിക്ക	-5311
േകം	-5312
സ്ഥല	-5313
▁വ്യാജ	-5314
▁ഉപയോഗിക്കുന്നത്	-5315
▁സെപ്	-5316
െടുത്ത	-5317
:8	-5318
▁പരിഹാരം	-5319
▁വീട്ടിലെ	-5320
▁പരിശീലനം	-5321
▁ബന്ധപ്പെടുക	-5322
▁എഫ്	-5323
▁വിപുല	-5324
iz	-5325
ick	-5326
ുവോ	-5327
വെള്ള	-5328
▁എളുപ്പമാണ്	-5329
▁പോകാന്‍	-5330
▁നിലവാര	-5331
ഭാവം	-5332
................	-5333
റാണ്	-5334
യുടെയും	-5335
▁പ്രതിനി	-5336
▁സര്‍വ്വ	-5337
▁സുന്ദര	-5338
യള	-5339
▁തന്നു	-5340
▁നവ	-5341
ന്നിധ	-5342
▁ആകാം	-5343
ie	-5344
മാണത്	-5345
ൃതി	-5346
▁തീയതി	-5347
▁ഉടന്‍	-5348
▁മത്സരം	-5349
▁sp	-5350
▁ടൂ	-5351
ന്നാ	-5352
▁പരമകാരുണിക	-5353
▁പോലീസ	-5354
="1	-5355
▁ടെക്	-5356
▁വിവരണം	-5357
▁നികുതി	-5358
▁പിതാവി	-5359
▁നടക്കുന്നത്	-5360
▁le	-5361
▁പരിക്ക	-5362
▁വരില്ല	-5363
▁മറിയ	-5364
▁കുറവ്	-5365
വല്ലോ	-5366
ാക്കാൻ	-5367
ിനുള്ള	-5368
ീല്‍	-5369
ോഴും	-5370
തിരി	-5371
▁നൽകാൻ	-5372
ീറ്റ്	-5373
േണ്ടതിന്നു	-5374
ിക്കപ്പെട്ടു	-5375
▁all	-5376
▁അവനാണ്	-5377
oogle	-5378
▁ആക്രമണ	-5379
റില്ല	-5380
▁കളിയ	-5381
▁സർവ	-5382
ക്കില്ല	-5383
ings	-5384
▁യെഹൂദ	-5385
ർക്ക്	-5386
ളയ	-5387
▁ജീവിക്കുന്ന	-5388
▁കച്ചവ	-5389
▁??	-5390
▁അതൊക്കെ	-5391
▁മുസ്ലിം	-5392
▁ഇക്കാര്യം	-5393
▁വേദഗ്രന്ഥ	-5394
ass	-5395
്യവും	-5396
യുമില്ല	-5397
▁ബഹുമാന	-5398
▁Tr	-5399
▁റിയ	-5400
▁സ്വന്തമായി	-5401
നിപ്പ	-5402
തന്നെയ	-5403
▁വിനോദ	-5404
▁മണ്ട	-5405
▁ആഹാര	-5406
▁ക്ലാസ	-5407
erv	-5408
ഞ്ജ	-5409
ങ്ങളിലേക്ക്	-5410
▁ലഭിക്കുന്ന	-5411
▁ക്ലി	-5412
ഷണം	-5413
▁ഒപ്പ	-5414
▁ആളുകള	-5415
ക്കാരൻ	-5416
മെടുക്ക	-5417
▁നിലനിർത്ത	-5418
5-	-5419
▁ജീവിതത്തിന്റെ	-5420
▁വിലാസം	-5421
ങ്ങുന്ന	-5422
▁2011	-5423
▁വെളിപ്പെടുത്ത	-5424
▁സഖ	-5425
▁നേര്‍വഴിയ	-5426
▁ചിന്തിക്കുന്ന	-5427
▁Sp	-5428
▁സൗകര്യ	-5429
ശംസ	-5430
ിലുണ്ട്	-5431
▁നിര്‍മ്മ	-5432
▁പ്രമേ	-5433
ദം	-5434
▁൧	-5435
eed	-5436
ചകം	-5437
▁കോണ്‍	-5438
▁ഉറക്കം	-5439
ark	-5440
▁നടക്കുന്നു	-5441
▁അമ്മയെ	-5442
▁വ്യായ	-5443
▁വൈകാതെ	-5444
▁1.	-5445
▁വേട്ട	-5446
▁അഭ്യ	-5447
▁അത്രയും	-5448
റ്റര്‍	-5449
▁ആവശ്യമുള്ള	-5450
..?	-5451
▁തുടരുക	-5452
▁അങ്ങനെയാണ്	-5453
ോടുള്ള	-5454
▁കേരളം	-5455
ർദ്ദ	-5456
▁രച	-5457
▁വിറ്റ	-5458
▁ഇന്ത്യന്‍	-5459
▁തമി	-5460
▁ഘ	-5461
▁36	-5462
▁വീഴ	-5463
▁കണ്ണുകള്‍	-5464
▁നിർദ്ദേശ	-5465
ക്രോ	-5466
▁%	-5467
▁സ്വര	-5468
ാകില്ല	-5469
മാറ്റം	-5470
▁ചിത്രങ്ങൾ	-5471
ർമ	-5472
▁മറിച്ച്	-5473
▁ചെയ്യാന	-5474
വാഹ	-5475
വുകൾ	-5476
ലിശ	-5477
▁ശാരീര	-5478
▁കടല	-5479
▁ബോധ്യ	-5480
റിംഗ്	-5481
▁എന്താണെന്ന്	-5482
▁അനാഥ	-5483
▁Sh	-5484
▁ഒക്കെയും	-5485
േല്‍	-5486
▁മനുഷ്യന്	-5487
▁പൂർത്തിയാ	-5488
▁ഗൂ	-5489
വ്വം	-5490
▁താല്പ	-5491
▁പ്രചോദ	-5492
നുമ	-5493
▁ആത്മഹത്യ	-5494
സ്ക	-5495
▁പശു	-5496
▁will	-5497
▁ദര്‍ശ	-5498
▁അഭിനന്ദ	-5499
്യൂണി	-5500
റങ്ങിയ	-5501
▁വര്‍ഷത്തെ	-5502
▁എല്ലാവരെയും	-5503
നിലെ	-5504
▁രണ്ടോ	-5505
ക്കുറിച്ചും	-5506
▁ചോദ്യങ്ങൾ	-5507
▁ഇഹ	-5508
മാണം	-5509
▁അളവ്	-5510
▁കാണിക്കുന്ന	-5511
േറ്റർ	-5512
വന്നു	-5513
ത്തെപ്പറ്റി	-5514
ന്‍സ്	-5515
ാതം	-5516
▁പ്രേരിപ്പ	-5517
ഴുതി	-5518
▁ഇന്ത്യയിലെ	-5519
ുമെന്നും	-5520
▁കേരളത്തിലെ	-5521
▁വിശ്രമ	-5522
▁സംഭാവന	-5523
ക്കാലം	-5524
ടാതെ	-5525
▁സംഭവിച്ചത്	-5526
തെന്നു	-5527
▁വ്യവസായ	-5528
▁മാര്‍ഗത്തില്‍	-5529
▁ഈശോ	-5530
▁പ്രത്യേകം	-5531
വെച്ച	-5532
▁വിശ്വസ്ത	-5533
▁കെട്ടിട	-5534
▁മിണ്ട	-5535
▁ഹിന്ദു	-5536
▁നീക്ക	-5537
ിലുണ്ട	-5538
▁കൊല്ലം	-5539
80	-5540
▁And	-5541
▁ഇലക്ട	-5542
▁ഇറ്റ	-5543
▁ശീല	-5544
▁അപ്പൊ	-5545
▁പ്രത്യേകത	-5546
ായ്മ	-5547
▁ദിവ്യ	-5548
▁പങ്കെടുക്ക	-5549
▁ബ്ലോഗ്	-5550
▁അതിജീവ	-5551
▁വിവാഹിത	-5552
▁ലഭ്യമാണ്	-5553
▁നല്‍കുക	-5554
▁രാജാവ്	-5555
▁വിമാനം	-5556
▁ഘടക	-5557
▁കുടിയ	-5558
▁ഇസ്രയേ	-5559
ിപ്പിക്കുക	-5560
▁man	-5561
▁വിപണ	-5562
▁അവിശ്വാസ	-5563
▁മാത്രമാകുന്നു	-5564
▁തീര	-5565
▁വോ	-5566
▁നിശബ്ദ	-5567
പോലെയ	-5568
▁പ്രതിസന്ധ	-5569
തുട	-5570
▁കല്യാണ	-5571
▁വാർത്തകൾ	-5572
ജമാന	-5573
▁ഉപയോഗിക്ക	-5574
മെന്നു	-5575
▁പ്രത്യേകിച്ച്	-5576
▁who	-5577
▁പ്രശ്നങ്ങൾ	-5578
▁സ്ര	-5579
▁ഷെ	-5580
തുമാണ്	-5581
പ്പുകൾ	-5582
പ്പേ	-5583
▁ഒരുമിച്ച്	-5584
പ്രവര്‍	-5585
▁വിചാരണ	-5586
▁കരുണാനി	-5587
▁ലളിതമായ	-5588
ുതി	-5589
▁പടിഞ്ഞ	-5590
ിക്കറ്റ്	-5591
േണ്ടതാണ്	-5592
ber	-5593
▁പറഞ്ഞതു	-5594
▁പ്രസവ	-5595
ിനി	-5596
▁തിന്മ	-5597
▁മദ്യപ	-5598
▁ഉപകരണങ്ങൾ	-5599
▁പറഞ്ഞില്ല	-5600
▁എന്തിനു	-5601
ൊര	-5602
▁സൈക്കി	-5603
സില്‍	-5604
▁വല്ലവനും	-5605
്യമാണ്	-5606
ംഭ	-5607
▁pr	-5608
▁ഡൗൺ	-5609
▁പൊടി	-5610
▁മേഘ	-5611
ലക്ഷം	-5612
ുവാനും	-5613
▁ആരാധന	-5614
വരേ	-5615
▁മുന്നോട്ട്	-5616
:7	-5617
സമ്മ	-5618
▁എന്തൊരു	-5619
മൊന്നും	-5620
ാവുകയും	-5621
എഫ്	-5622
▁ആണു	-5623
▁ഗൗരവ	-5624
റ്റിന്റെ	-5625
ance	-5626
ുമായിരുന്നില്ല	-5627
ബിയ	-5628
മെന്റ്	-5629
▁ഇസ്ലാമ	-5630
▁ഒരുമിച്ചു	-5631
പുര	-5632
▁45	-5633
▁പ്രതികരണ	-5634
സ്റ്റോ	-5635
▁മില്ല	-5636
ത്തുക	-5637
മാൻ	-5638
tern	-5639
▁അവര്	-5640
▁അവതരിപ്പിച്ചു	-5641
▁Read	-5642
▁മലയാളം	-5643
കൂടി	-5644
ിടത്തോളം	-5645
▁എന്തിനാ	-5646
▁ലാ	-5647
ന്ന്‍	-5648
മറിയ	-5649
):	-5650
സീ	-5651
▁വ്യാപാര	-5652
▁പുണ	-5653
▁അവയ	-5654
ൊഴികെ	-5655
▁ലാമ	-5656
നമാണ്	-5657
തൊരു	-5658
▁എഴുന്നേറ്റു	-5659
ാകുമോ	-5660
▁അടുക്കള	-5661
▁ജീവൻ	-5662
ിതമായി	-5663
▁മൂല്യ	-5664
▁അറിയാത്ത	-5665
ുമ്പോഴും	-5666
▁രസകരമായ	-5667
▁ഡ്രൈവർ	-5668
▁33	-5669
▁സാം	-5670
▁പലിശ	-5671
▁ത്ര	-5672
▁പ്രവാസ	-5673
▁അദ്	-5674
▁പുറക	-5675
▁അനുസരിച്ച്	-5676
▁വേറൊരു	-5677
വ്വത	-5678
▁സ്കൂൾ	-5679
▁നടപ്പിലാക്ക	-5680
▁ജനങ്ങള്‍ക്ക്	-5681
▁ഫൈ	-5682
ിലേക്കുള്ള	-5683
മാര്‍ഗ	-5684
▁ഒന്നുമില്ല	-5685
ments	-5686
▁സന്ധ	-5687
▁ബോട്ട	-5688
▁ആൾ	-5689
▁സോഫ്റ്റ്	-5690
ാസ്ത്രം	-5691
▁am	-5692
▁തുടര	-5693
ഞങ്ങള്‍	-5694
▁പ്രാധാന്യം	-5695
▁കവി	-5696
▁നിര്‍ദ്ദേശ	-5697
we	-5698
▁സമൂഹം	-5699
▁നിലപാട	-5700
pp	-5701
▁വൃദ്ധ	-5702
▁ആകയാല്‍	-5703
യിഡ്	-5704
ാണുള്ളത്	-5705
▁മനസ്സിലായി	-5706
ാലം	-5707
▁ലിമി	-5708
▁ഘടന	-5709
▁അദ്ദേഹത്തിന്‍റെ	-5710
▁അപ്പോ	-5711
ബന്ധന	-5712
▁താത്	-5713
▁നിന്ദ	-5714
▁സുരക്ഷാ	-5715
ര്‍ത്ത്	-5716
▁വല്ലതും	-5717
ത്തുട	-5718
▁ശവ	-5719
▁ലക്ഷണ	-5720
▁കുട്ടിയെ	-5721
ായോ	-5722
ER	-5723
▁പാക്കേജിംഗ്	-5724
▁കൂട്ടി	-5725
▁ഓര്‍ക്കുക	-5726
ങ്ങളേ	-5727
തിലൂടെ	-5728
▁അംഗീ	-5729
▁ക്ക്	-5730
▁ചൂട	-5731
ക്കെല്ലാം	-5732
▁കഴിവുള്ള	-5733
▁കൺ	-5734
▁ഉപകാര	-5735
കമായി	-5736
▁പോളി	-5737
▁എൻറെ	-5738
ത്തിൻറെ	-5739
▁ചോദ്യങ്ങള്‍	-5740
▁അനുയോജ്യമായ	-5741
ug	-5742
വരായി	-5743
▁തൊട്ട	-5744
നുഭവ	-5745
▁തെറ്റിദ്ധ	-5746
▁ഒരുത്ത	-5747
▁ലിസ്റ്റ	-5748
▁നീല	-5749
▁ടേ	-5750
▁അജ്ഞ	-5751
▁?”	-5752
ഭാഗ്യ	-5753
മിത	-5754
▁ദാ	-5755
ഞങ്ങളുടെ	-5756
7-	-5757
ank	-5758
ടക	-5759
▁ചിന്തിച്ച	-5760
8-	-5761
▁ക്ലാ	-5762
▁ദൈവദൂത	-5763
ലൂ	-5764
▁ഥ	-5765
▁Pr	-5766
തയുള്ള	-5767
▁അഴ	-5768
▁മരുഭൂമ	-5769
ലിന്	-5770
ോട്ടെ	-5771
▁ധരിക്ക	-5772
െയില	-5773
നെറ്റ്	-5774
▁കലാകാര	-5775
ൈൽ	-5776
▁കുറവാണ്	-5777
▁കല്‍പന	-5778
ee	-5779
ക്കപ്പെട്ട	-5780
▁ആറ	-5781
▁2010	-5782
വന്ന	-5783
▁അവന്ന്	-5784
▁പ്രതികരണം	-5785
രോടും	-5786
താണെന്ന്	-5787
സര	-5788
▁തരൂ	-5789
▁നീയ	-5790
▁താക്കീത്	-5791
ിക്കാനാണ്	-5792
ഭു	-5793
▁വല്ലാതെ	-5794
ics	-5795
▁80	-5796
ake	-5797
▁അക്	-5798
ിനിയം	-5799
▁വിദ്യാഭ്യാസം	-5800
ഖു	-5801
▁1,	-5802
്മെന്റ്	-5803
മേൽ	-5804
▁ഊഹ	-5805
തിനെപ്പറ്റി	-5806
▁കാൽ	-5807
▁നല്‍കാന്‍	-5808
▁നല്‍കിയത്	-5809
ുകിട്ട	-5810
▁ഏഴ്	-5811
▁അടുത്തത്	-5812
▁തുടരുന്നു	-5813
▁ഞായ	-5814
▁ശുപ	-5815
▁ഭിന്ന	-5816
▁സൈറ്റ്	-5817
ിപ്പിക്കാൻ	-5818
▁ബിസിനസ്സ്	-5819
മാറി	-5820
▁തിരഞ്ഞെടുക്കുക	-5821
ലീ	-5822
▁കോഡ്	-5823
ലാഖ	-5824
▁US	-5825
ിക്കേണ്ടി	-5826
▁സ്റ്റീൽ	-5827
മാക്കുകയും	-5828
▁ഇതൊന്നും	-5829
▁തറ	-5830
ാശാല	-5831
▁അന്വേഷണം	-5832
▁ഇഷ്ടമാണ്	-5833
▁കണ്ടിട്ടില്ല	-5834
:)	-5835
വേള	-5836
ക്ടർ	-5837
▁words	-5838
▁ഒരൊറ്റ	-5839
സ്ക്	-5840
▁ഉപഭോക്താക്ക	-5841
ദേശിക	-5842
▁ഉത്പാദ	-5843
▁പൂർണ	-5844
ിക്കേണ്ടതി	-5845
കൊണ്ട	-5846
▁പോയത്	-5847
▁മോദ	-5848
▁2020	-5849
▁അച്ഛൻ	-5850
▁ലേക്ക്	-5851
▁സൗഹൃദ	-5852
▁കണ്ടെത്താൻ	-5853
▁ഏതാണ്	-5854
▁?"	-5855
▁അപ്ല	-5856
▁അസം	-5857
ern	-5858
orm	-5859
▁പ്രതിഷേധ	-5860
--	-5861
▁പാഴ	-5862
▁തടസ്സ	-5863
ങ്ങളൊന്നും	-5864
ഫോൺ	-5865
▁പ്രധാനമായും	-5866
▁j	-5867
▁അന്താരാഷ്ട്ര	-5868
▁പിണ	-5869
ാഗ്രഹ	-5870
▁എനിക്കിഷ്ട	-5871
ചു	-5872
ോർഡ്	-5873
ായിരുന്നെങ്കില്‍	-5874
▁വിചിത്ര	-5875
▁ഉപയോക്താക്ക	-5876
▁ഉദ്ധ	-5877
ുമൊക്കെ	-5878
▁ചെയ്തിട്ടില്ല	-5879
?)	-5880
▁ഉദ്യോഗസ്ഥ	-5881
▁ഉപയോഗിക്കാൻ	-5882
ിച്ചതു	-5883
▁(201	-5884
▁മൊത്ത	-5885
ിച്ചാലും	-5886
ിയെടുക്ക	-5887
ക്കുകയാണ്	-5888
▁ലോകത്തിന്റെ	-5889
തവണ	-5890
▁പരിപാട	-5891
▁നിശ്ചയം	-5892
▁അടുത്തേക്ക്	-5893
▁പിടി	-5894
▁വിരോധ	-5895
നിര്‍	-5896
▁2012	-5897
റവോ	-5898
▁താപ	-5899
▁ദൂരം	-5900
ിലധികം	-5901
▁കയ്യില്‍	-5902
ൂട്ട	-5903
മല്ലേ	-5904
▁എല്ലായിട	-5905
▁വ്യത്യസ്തമായ	-5906
▁ഉപയോഗിക്കാം	-5907
ിട്ടുള്ളത്	-5908
ാല്	-5909
ഞ്ചി	-5910
▁പ്രത്യാ	-5911
▁ശിവ	-5912
▁രാമ	-5913
എന്നെ	-5914
ജീവിതം	-5915
▁വോട്ട്	-5916
4-	-5917
എനിക്ക	-5918
▁ചുവന്ന	-5919
▁ചങ്ങ	-5920
▁70	-5921
▁വിഡ്ഢ	-5922
▁കഴിയുന്നില്ല	-5923
▁have	-5924
▁അണ	-5925
റ്റും	-5926
ഖല	-5927
▁അല്ലാത്ത	-5928
▁കാര്യത്തിൽ	-5929
▁പഠിച്ചു	-5930
ാത്മാ	-5931
▁മടക്ക	-5932
▁തരുന്ന	-5933
▁നടു	-5934
▁അടുക്കൽ	-5935
▁ധാര	-5936
▁കരയ	-5937
ാകുന്നത്	-5938
ിപ്പിക്കുന്നത്	-5939
▁പറയാനുള്ള	-5940
ദിവസ	-5941
▁WEB	-5942
▁ഒതു	-5943
▁ആത്മീയ	-5944
▁വൈകുന്നേരം	-5945
▁യുവാ	-5946
▁പാട്ട്	-5947
ിരിക്കണം	-5948
▁ഫുട്	-5949
oug	-5950
▁രുച	-5951
▁തിരുത്ത	-5952
വർത്തി	-5953
▁കൊച്ചു	-5954
▁മന്ത്രവാദ	-5955
സിനു	-5956
▁വാസ്തവ	-5957
▁മാർക്ക	-5958
40	-5959
▁വിവാദ	-5960
▁കൊതി	-5961
▁ഭൂമിയെ	-5962
ാനുസൃത	-5963
ചില	-5964
▁അപ്രകാരം	-5965
▁യുഎസ്	-5966
▁സത്യനിഷേധികള്‍	-5967
▁pl	-5968
▁ഹാജ	-5969
ടുന്ന	-5970
▁സമയവും	-5971
ിയായിരുന്നു	-5972
ധാനം	-5973
▁അടുത്തി	-5974
▁ജ്വ	-5975
ര്‍ത്തും	-5976
▁കസ്റ്റ	-5977
വരാരോ	-5978
ുകയുള്ളൂ	-5979
▁ഭവന	-5980
▁കോളേജ	-5981
▁Bl	-5982
▁വക്ക	-5983
▁ഒരുക്ക	-5984
▁നടക്കും	-5985
▁മുന്നറിയിപ്പ	-5986
ഭരണ	-5987
ച്ചോ	-5988
▁കഴു	-5989
ിച്ചിട്ടുണ്ട	-5990
ുചെയ്യ	-5991
▁നിന്നോടു	-5992
▁ഗുണം	-5993
IN	-5994
ക്കുകയോ	-5995
▁Res	-5996
▁മരുന്ന്	-5997
:10	-5998
▁മെയ്	-5999
സംഗം	-6000
▁വികസന	-6001
▁ഡിസംബർ	-6002
▁മുന്നേ	-6003
▁തള്ളിക്കള	-6004
▁മനുഷ്യരുടെ	-6005
▁നടന്നത്	-6006
▁ചിത്രങ്ങള്‍	-6007
വെച്ചു	-6008
ുകയാണെങ്കിൽ	-6009
ബോധം	-6010
ജോ	-6011
▁കാലയള	-6012
▁കാര്യങ്ങളും	-6013
▁അവധ	-6014
▁ദാന	-6015
ിക്കാണ	-6016
▁മണിക്കൂര്‍	-6017
കൾക്ക്	-6018
റിയാമോ	-6019
▁അസൂ	-6020
▁റേഡിയോ	-6021
ാകാന്‍	-6022
ങ്ങളോട്	-6023
പേരും	-6024
▁ബുക്ക്	-6025
▁യേശുവിനെ	-6026
മീറ്റർ	-6027
▁രൂ	-6028
ാലാണ്	-6029
▁കോഴ	-6030
▁പരിപാല	-6031
▁ആരോഗ്യം	-6032
sh	-6033
▁പണ്ട	-6034
▁സോഷ്യ	-6035
▁മുകളില്‍	-6036
രിക	-6037
ുവീ	-6038
▁മൃത	-6039
▁അടുപ്പ	-6040
▁2009	-6041
▁അവരു	-6042
കലാശാല	-6043
രുത	-6044
മാകാം	-6045
▁കൊള്ളുക	-6046
▁ലിമിറ്റഡ്	-6047
▁സമാധാനവും	-6048
▁മുള	-6049
▁ഗ്ലാസ്	-6050
ിക്കാനായി	-6051
മുത	-6052
="3	-6053
▁സംരംഭ	-6054
ക്കിയത്	-6055
▁നന്നായ	-6056
▁ഫീ	-6057
ശലേ	-6058
▁തരു	-6059
▁ഇന്ത്യയിൽ	-6060
ുമെന്നു	-6061
ൈസ്	-6062
▁അവശേഷ	-6063
▁മുന്നിൽ	-6064
▁നല്‍കുന്നത്	-6065
തൊന്നും	-6066
▁മരം	-6067
▁നല്‍കപ്പെട്ട	-6068
▁പ്രമുഖ	-6069
രിയുടെ	-6070
▁യഹോവേ	-6071
▁ചെയ്തിട്ടുണ്ട്	-6072
6-	-6073
ോഭ	-6074
മുകൾ	-6075
▁റോഡ	-6076
ഹാരം	-6077
▁മൗ	-6078
▁തിരിച്ച്	-6079
മാസം	-6080
pt	-6081
▁പുറം	-6082
▁ഊർജ്ജ	-6083
▁ചോദിക്കും	-6084
▁സ്ത്രീകളെ	-6085
▁ഏജ	-6086
ന്റെയും	-6087
മര്‍	-6088
▁ഉള്ളൂ	-6089
▁കല്പന	-6090
▁2.	-6091
▁പഠിച്ച	-6092
▁ചെയ്യുന്നില്ല	-6093
▁ചെയ്തില്ല	-6094
▁യാഥാര്‍ത്ഥ	-6095
്വാന	-6096
▁നിര്‍ദേശ	-6097
ich	-6098
ാടി	-6099
▁യജമാന	-6100
▁അന്തര	-6101
▁ഇതുപോല	-6102
▁യന്ത്ര	-6103
▁രാത്രിയില്‍	-6104
▁താനും	-6105
▁ഫറവോ	-6106
യിപ്പ	-6107
▁ജനുവരി	-6108
▁പങ്കുവ	-6109
▁അസ്വ	-6110
▁ഭരണഘടന	-6111
▁ഗിഫ്റ്റ്	-6112
ാക്കിയത്	-6113
യാള്‍	-6114
▁ദ്ര	-6115
ത്താന്‍	-6116
ൃദ്ധ	-6117
▁പരമ്പര	-6118
ഴം	-6119
തയെ	-6120
alam	-6121
▁ശീർഷ	-6122
▁പറയണം	-6123
▁ഹോം	-6124
പ്പെടാന്‍	-6125
മാണെങ്കില്‍	-6126
▁വിക്ക	-6127
▁ഇതിനകം	-6128
▁സംരക്ഷണ	-6129
:9	-6130
▁വേഗത്തിൽ	-6131
▁സൃഷ്ടി	-6132
ath	-6133
ബന്ധം	-6134
▁വയ്യ	-6135
▁കഴിച്ചു	-6136
ധാര	-6137
ധികാര	-6138
▁സാര്‍	-6139
▁കഠിനമായ	-6140
▁ജ്യ	-6141
▁മുട	-6142
▁സിദ്ധ	-6143
ീപ്	-6144
▁വണ്ട	-6145
ork	-6146
ണമെങ്കില്‍	-6147
നുമായ	-6148
ഹിക	-6149
▁എക്	-6150
▁കയറ്റ	-6151
▁Wh	-6152
OR	-6153
▁കണക്കാക്ക	-6154
മട	-6155
ൂഷ	-6156
ഹരി	-6157
...?	-6158
ികളോട്	-6159
▁അതിലും	-6160
പ്പെടുന്നില്ല	-6161
▁വിരുദ്ധ	-6162
▁വയ്ക്ക	-6163
▁തോന്നുന്നില്ല	-6164
▁de	-6165
▁കയ്യിൽ	-6166
▁ദീര്‍ഘ	-6167
മാം	-6168
▁കുഞ്ഞിനെ	-6169
▁കുരി	-6170
െയെല്ലാം	-6171
▁വ്യക്തമാക്ക	-6172
▁ഫലമായി	-6173
ടിയുടെ	-6174
▁ഹു	-6175
▁ബൈബിൾ	-6176
ക്ട്	-6177
▁പാറ	-6178
േം	-6179
▁സാങ്കേതികവിദ്യ	-6180
വരിക	-6181
▁ഓഫീസ്	-6182
▁നിറവേറ്റ	-6183
താങ്ക	-6184
▁ആധിപ	-6185
▁ആരാ	-6186
▁ഇടയിൽ	-6187
▁ചെലവ്	-6188
▁സ്വാധീന	-6189
▁നായക	-6190
▁യുക്തിമാ	-6191
▁മയ	-6192
സ്ത്ര	-6193
▁കമ്പ്യൂട്ട	-6194
▁ഭാഗമായി	-6195
▁മറ്റും	-6196
വിഭാഗ	-6197
▁പരാമര്‍ശ	-6198
▁ജീവിതത്തെ	-6199
▁sa	-6200
ഡിറ്റ്	-6201
▁അവർക്കു	-6202
▁ബാഗ	-6203
▁ചിലരെ	-6204
▁നിശ്ചയിച്ച	-6205
▁സ്ത്രീകളുടെ	-6206
▁പൗ	-6207
▁കഴിവ്	-6208
▁പിശാച്	-6209
വേഗം	-6210
അവന്‍	-6211
▁രാജ്യത്ത്	-6212
ിക്കാറുണ്ട്	-6213
പ്രകാര	-6214
▁റില	-6215
▁more	-6216
▁അനുസരിക്ക	-6217
ീയം	-6218
▁എന്നൊരു	-6219
▁പൊറുക്ക	-6220
ൻസി	-6221
▁ചതി	-6222
ങ്ങൾക്കു	-6223
ound	-6224
▁നിസ്	-6225
▁പരിപാടി	-6226
▁മാലാഖ	-6227
▁ഇൻസ്റ്റ	-6228
▁സാഹിത്യ	-6229
▁പഠിപ്പിച്ചു	-6230
▁യൂണിവേഴ്സിറ്റി	-6231
ടോ	-6232
▁അറിയാൻ	-6233
ിലെയും	-6234
ുള്ളതാണ്	-6235
കരം	-6236
▁മകനെ	-6237
▁വംശ	-6238
▁ദ്	-6239
▁പട്ടി	-6240
▁അല്‍	-6241
▁പുഴ	-6242
യാകുന്നു	-6243
▁അകല	-6244
▁സന്താന	-6245
alay	-6246
▁New	-6247
▁വാതിൽ	-6248
▁പ്രധാനം	-6249
▁Google	-6250
▁കൂടിയാണ്	-6251
▁my	-6252
▁യോഗ്യത	-6253
▁ഓരോരുത്തരും	-6254
ിനീയ	-6255
▁താരം	-6256
▁യൂറോപ്യ	-6257
മൂലം	-6258
▁എല്ലായ	-6259
▁ചിന്തിച്ചു	-6260
▁നാടി	-6261
▁വിദഗ്ധ	-6262
വര്‍ഷ	-6263
പോകുന്നു	-6264
1-	-6265
ിക്കാറില്ല	-6266
cc	-6267
▁ഉണ്ടെങ്കിൽ	-6268
▁500	-6269
▁പവർ	-6270
തല്ലേ	-6271
15	-6272
ike	-6273
നുമായി	-6274
▁എതിര	-6275
▁സംശയമില്ല	-6276
▁തുടര്‍ന്നു	-6277
▁ഭക്ത	-6278
താര	-6279
▁സ്മ	-6280
പത്	-6281
കൃത്യ	-6282
ന്‍മാരെ	-6283
ീര്‍	-6284
കരിച്ചു	-6285
▁നിലപാട്	-6286
െടുത്തു	-6287
ര്‍ച്ചയായും	-6288
▁റൂമ	-6289
ുമെന്നാണ്	-6290
ടിയില്‍	-6291
▁പൊലീസ്	-6292
ർണ	-6293
ട്ടിഫ	-6294
▁കൊണ്ടും	-6295
▁ഒന്നാമ	-6296
ക്കാര്‍ക്ക്	-6297
▁ബസ്	-6298
▁പരിഹസ	-6299
ym	-6300
▁മുന്നറിയിപ്പ്	-6301
ിമ	-6302
ക്തമായ	-6303
▁വാഗ്ദാന	-6304
മിതി	-6305
▁Pro	-6306
നിടയില്‍	-6307
▁കേരളത്തില്‍	-6308
▁195	-6309
▁സിംഹാസ	-6310
▁ഉദാഹരണം	-6311
▁കൊടു	-6312
ന്‍മാര	-6313
▁അതെല്ലാം	-6314
രേയും	-6315
െന്നോ	-6316
▁പൈസ	-6317
▁ഇന്ത്യയുടെ	-6318
ിക്കൊള്ള	-6319
ens	-6320
യാകും	-6321
▁പവി	-6322
▁അസൂയ	-6323
▁മഹത്വം	-6324
70	-6325
മാക്കും	-6326
▁അത്യാവശ്യ	-6327
▁രണ്ടുപേരും	-6328
▁ഇട്ട	-6329
▁അച്ഛന്‍	-6330
▁അറിഞ്ഞു	-6331
▁സ്വീകരിച്ച	-6332
▁സംഘം	-6333
രീതി	-6334
മാകുന്നത്	-6335
▁വരുത്തി	-6336
▁about	-6337
▁മാറുന്നു	-6338
റ്റുകള്‍	-6339
▁വിശദാംശ	-6340
▁സംഭവിക്കുന്നത്	-6341
▁ദീർഘ	-6342
▁പേരിൽ	-6343
▁Man	-6344
▁ഇരുന്ന	-6345
▁മാര്‍ഗം	-6346
ife	-6347
▁വിട്ട്	-6348
വര്‍ഷം	-6349
▁നിമിത്തം	-6350
▁2008	-6351
▁അന്തി	-6352
കൻ	-6353
▁ചുരുക്ക	-6354
ാൾ	-6355
ism	-6356
വിട്ടു	-6357
ങ്ങളെക്കുറിച്ച്	-6358
▁നേഹം	-6359
......	-6360
▁പക്കല്‍	-6361
താവ്	-6362
മ്യ	-6363
▁സ്ഥി	-6364
▁നങ്ങള്‍	-6365
മിനെ	-6366
,”	-6367
ിക്കേണ്ടതു	-6368
▁◆	-6369
▁രൂപക	-6370
1]	-6371
▁ഭര	-6372
മത്രെ	-6373
ിക്കുവാൻ	-6374
തുകൊണ്ടു	-6375
വെന്നും	-6376
▁അടങ്ങിയ	-6377
▁അവരിൽ	-6378
▁വരാന്‍	-6379
▁ഭാഗമാണ്	-6380
▁ആറ്	-6381
▁മഹാ	-6382
മേറിയ	-6383
▁പറയുന്നില്ല	-6384
▁ഓർമ	-6385
കൃത	-6386
വാൻ	-6387
▁കാരുണ്യം	-6388
▁മുമ്പേ	-6389
▁രജി	-6390
▁അപരി	-6391
▁വിളിച്ച്	-6392
സ്ട	-6393
ദിന്റെ	-6394
▁വച്ചു	-6395
▁സന്തു	-6396
▁എപ്പോൾ	-6397
▁തിരിഞ്ഞ	-6398
ോളജി	-6399
ത്താൽ	-6400
കാര്യത	-6401
▁ബാറ്ററി	-6402
ED	-6403
രൂശലേ	-6404
വിഷ	-6405
പുരം	-6406
ഫാക്	-6407
▁അതുകൊണ്ടുതന്നെ	-6408
▁അവള്‍ക്ക്	-6409
ിക്കപ്പെടുന്നു	-6410
ബോധനം	-6411
▁അയാള്‍ക്ക്	-6412
▁തൃ	-6413
▁മുപ്പ	-6414
ൌര	-6415
AR	-6416
ിലെത്തി	-6417
ild	-6418
ിനോട്	-6419
ളിന്റെ	-6420
▁നീങ്ങ	-6421
▁കഴിക്കുന്ന	-6422
▁മറ്റുള്ളവരുടെ	-6423
▁അലുമ	-6424
▁ഒരുപാടു	-6425
▁കുറഞ്ഞു	-6426
▁ഉല്‍	-6427
▁ഉണ്ടു	-6428
▁പരിശോധിക്കുക	-6429
ൻഡ്രോ	-6430
▁ശാരീരിക	-6431
മർ	-6432
സില	-6433
വേണ്ട	-6434
▁ബോണസ്	-6435
▁വിദ്യാര്‍ത്ഥ	-6436
▁യും	-6437
പ്പെട്ട്	-6438
ത്തോട	-6439
▁അറിയും	-6440
▁ഇടയില്‍	-6441
▁സൃഷ്ടിച്ചത്	-6442
▁ഭഗ	-6443
ഭ്യ	-6444
▁വരികള്‍	-6445
▁കയറിയ	-6446
പിന്നെ	-6447
▁സ്റ്റേഷ	-6448
▁വൈറ	-6449
ise	-6450
▁ചൈനീസ്	-6451
▁ഇതിലെ	-6452
▁അറു	-6453
▁വീടു	-6454
നാകുന്നു	-6455
▁വിശ്വാസികള്‍	-6456
▁Ad	-6457
▁ചെവി	-6458
ാവട്ടെ	-6459
▁ഓണ	-6460
▁ശമ്പളം	-6461
▁സുഹൃത്ത്	-6462
▁ഇഷ്ടപ്പെടുന്ന	-6463
▁കാല്‍	-6464
▁പ്രൊഫഷണൽ	-6465
▁ദൈവിക	-6466
▁ഇഷ്	-6467
▁കൊള്ളാം	-6468
നിന്നുള്ള	-6469
മാല	-6470
ിള	-6471
▁നാശം	-6472
ുമല്ലോ	-6473
ft	-6474
ition	-6475
ove	-6476
▁Ex	-6477
ഷ്പ	-6478
കളായി	-6479
തീര്‍ച്ചയായും	-6480
▁പങ്കിട	-6481
▁ആനന്ദ	-6482
ര്‍ക്കുക	-6483
▁ഭൂമിയിലെ	-6484
AN	-6485
ുകാണ	-6486
▁അസാധാരണ	-6487
▁പിതാവിന്റെ	-6488
▁ആഗോള	-6489
ങ്ങളായ	-6490
▁സത്യമാണ്	-6491
▁അല്ലാഹുവാണ്	-6492
▁സൂക്ഷ്മത	-6493
മാക്കുക	-6494
▁ദുര്‍ബല	-6495
▁മാനുഫാക്	-6496
പ്പെടുത്താൻ	-6497
▁ഓർഡർ	-6498
രവും	-6499
▁രാജാവിന്റെ	-6500
:12	-6501
▁പേരി	-6502
▁നമ്പര്‍	-6503
▁അവര്‍ക്കും	-6504
ിനായി	-6505
▁പ്ലാസ്	-6506
യ്ക്കായി	-6507
▁ഉപമ	-6508
▁പരിഷ്	-6509
▁വ്യാഖ്യ	-6510
തുവരെ	-6511
ദൃ	-6512
ജ്ജ്	-6513
യിരിക്ക	-6514
▁ഒരുപോലെ	-6515
▁ഇഷ്ടപ്പെട്ട	-6516
▁ആവേശ	-6517
യേശു	-6518
▁ഔദ്യോഗിക	-6519
മാവും	-6520
▁മാനുഫാക്ച	-6521
വെയർ	-6522
ോകൾ	-6523
▁ഇരുട്ട	-6524
▁പ്രേമ	-6525
▁കുത്തി	-6526
▁മുല	-6527
ിക്കാവുന്ന	-6528
▁ലൈറ്റ്	-6529
▁വൃക്ഷ	-6530
▁യെരൂശലേ	-6531
ിക്കെ	-6532
▁ഇല്ലാത	-6533
▁വന്‍	-6534
ുണ്ടായ	-6535
ക്കാനുള്ള	-6536
▁എന്നായിരുന്നു	-6537
▁തന്നെയായിരുന്നു	-6538
▁Or	-6539
▁ആകാശം	-6540
▁തുടങ്ങും	-6541
▁വർഷത്തെ	-6542
ുകൾക്ക്	-6543
ിച്ചിട്ടുള്ള	-6544
▁സഹായിക്കുന്ന	-6545
▁പിള്ള	-6546
▁മാര്‍ഗദര്‍ശ	-6547
..."	-6548
▁കൂട്ടത്തില	-6549
▁.”	-6550
▁വാഹ	-6551
▁റോഡ്	-6552
▁നിബന്ധന	-6553
:13	-6554
വകാശ	-6555
▁എന്തെന്നാല്‍	-6556
▁നാള്‍	-6557
▁നിനക്കെ	-6558
▁സ്വര്‍ഗ്ഗ	-6559
▁പറയട്ടെ	-6560
▁വരുമ്പോള്‍	-6561
▁ആഗ്രഹിക്കുന്നത്	-6562
ക്ഷണ	-6563
▁ചെയ്യേണ്ടത്	-6564
നിറ	-6565
▁തിരഞ്ഞെടുത്ത	-6566
▁രക്ഷിതാവിന്‍റെ	-6567
▁സവിശേഷത	-6568
▁കൈകള്‍	-6569
2-	-6570
പ്പോയ	-6571
പ്റ്റ	-6572
▁സര്‍വ	-6573
▁ഇസ്രായേല്‍	-6574
▁തുടരും	-6575
▁അൽ	-6576
▁കോണ്‍ഗ്ര	-6577
▁തന്നെയാണ	-6578
▁പ്രാര്‍ഥന	-6579
ിതം	-6580
▁നിര്‍ണ	-6581
▁തുടങ്ങിയത്	-6582
so	-6583
ളോ	-6584
ദെ	-6585
▁ശരാശ	-6586
▁കഥകള്‍	-6587
▁നേരത്തേ	-6588
▁ഞെട്ട	-6589
▁Pl	-6590
▁തൊഴിൽ	-6591
▁അറിയാന്‍	-6592
▁എത്രമാത്രം	-6593
▁ബൂ	-6594
ൻ്റെ	-6595
ുകളുണ്ട്	-6596
▁പുറമേ	-6597
▁ജഡ്	-6598
ിച്ചിരുന്നത്	-6599
സ്ഥാപ	-6600
▁ദുരിത	-6601
▁ഇക്കാര്യത്തില്‍	-6602
▁—	-6603
olog	-6604
▁ഒന്നോ	-6605
ക്കുന്നുണ്ട്	-6606
▁പുറപ്പെട്ടു	-6607
AT	-6608
▁പേരാണ്	-6609
നത്തിന്	-6610
▁ഉപകരണം	-6611
▁രക്ഷിതാവിങ്കല്‍	-6612
▁മ്യൂ	-6613
▁സഹോദരി	-6614
?.	-6615
▁സാഹചര്യം	-6616
▁ഇല്ലാതാക്ക	-6617
:11	-6618
▁പ്രകടനം	-6619
ടിയെ	-6620
പ്പെടുത്തും	-6621
ond	-6622
വിന	-6623
▁:-	-6624
▁വാസ	-6625
▁ചെയ്യാത്ത	-6626
ല്ല്	-6627
▁ഒഴിവ	-6628
▁പിന്നില്‍	-6629
ിച്ചുകൊണ്ട്	-6630
തരമായ	-6631
▁ആർക്ക	-6632
ുവിന്‍	-6633
▁കൂട്ടിച്ചേ	-6634
െയെ	-6635
റ്റൽ	-6636
▁സ്ഥലത്ത്	-6637
▁ലോഗ	-6638
▁കര്‍മ്മ	-6639
▁അവനും	-6640
▁ഉറപ്പ്	-6641
▁ഉപയോഗിച്ചു	-6642
േഷ്ഠ	-6643
▁വണ്ടി	-6644
▁വര്‍ഷവും	-6645
▁ഗംഭ	-6646
▁ആകർഷ	-6647
▁കൊട്ട	-6648
▁വില്ല	-6649
▁എന്തൊക്കെ	-6650
തായിരിക്കും	-6651
ah	-6652
▁ഡിജി	-6653
▁വൃത്തിയാ	-6654
23	-6655
പേക്ഷ	-6656
▁ആകും	-6657
▁കൊലപാതക	-6658
ത്തിയായി	-6659
▁പേടി	-6660
▁മനസ്സിൽ	-6661
▁ev	-6662
ത്താവ	-6663
▁ഭൂമിയിൽ	-6664
▁വന്നാല്‍	-6665
▁പ്രകാശം	-6666
▁മനസ്സിലാക്കിയ	-6667
▁ഇഹലോക	-6668
▁നെറ്റ്	-6669
▁ചിരിക്ക	-6670
▁നീള	-6671
▁ട്യൂ	-6672
ിനെയാണ്	-6673
▁അദൃശ്യ	-6674
▁നിലയിൽ	-6675
ാവുന്നത്	-6676
വനായി	-6677
▁ഇന്ത്യയില്‍	-6678
eral	-6679
▁സ്വീകരിക്കുകയും	-6680
▁പ്രവർത്തനം	-6681
▁post	-6682
▁കര്‍ഷ	-6683
▁സല്‍ക	-6684
▁സത്യമായി	-6685
▁പൂര്‍ത്തിയാ	-6686
വാര്യ	-6687
ശക്തി	-6688
▁നൂറു	-6689
▁ആരുമില്ല	-6690
▁ക്രെ	-6691
▁നൽകും	-6692
▁കുപ്പ	-6693
റിക്	-6694
▁നിലവിള	-6695
കരെ	-6696
▁en	-6697
▁അലങ്ക	-6698
▁സിറ്റി	-6699
ുകേ	-6700
▁പ്രഖ്യാപിച്ചു	-6701
▁ഉള്ളിൽ	-6702
▁അല്ലാഹുവിനോട്	-6703
ജീവി	-6704
ീന്‍	-6705
▁കുരു	-6706
▁trans	-6707
ിച്ചുകള	-6708
▁കൊണ്ടുപോക	-6709
▁അമ്മയും	-6710
▁സംരക്ഷണം	-6711
▁നിലവിലുള്ള	-6712
ഡ്ര	-6713
ock	-6714
▁മാം	-6715
▁മോട്ട	-6716
▁ad	-6717
▁ധാരാള	-6718
▁സമ്മേള	-6719
▁കുടി	-6720
▁ലണ്ട	-6721
തായും	-6722
ക്കുന്നതും	-6723
ാറെ	-6724
ഇനി	-6725
▁അതിന്നു	-6726
▁കെട്ടിച്ചമ	-6727
വര്	-6728
port	-6729
▁സെപ്റ്റം	-6730
ക്കർ	-6731
സ്വാ	-6732
മെന്നും	-6733
▁സംസാരിക്കുന്ന	-6734
▁കൃതി	-6735
▁കമ്പനിയ	-6736
▁ഭാര്യയെ	-6737
▁ദ്രോ	-6738
വാണ്	-6739
▁മൂന്നാമ	-6740
ിച്ചാണ്	-6741
ുന്നതിനു	-6742
reat	-6743
റാഴ്ച	-6744
▁ഇംഗ്ലീഷ	-6745
▁എഴുന്നേ	-6746
▁ഉല്പ	-6747
▁രക്ഷിതാവേ	-6748
▁കക്ഷ	-6749
▁ഭയപ്പെടുന്നു	-6750
▁ജ്ഞ	-6751
ിച്ചി	-6752
വുകള്‍	-6753
ക്കാനും	-6754
ത്തേയും	-6755
▁സാധ്യമല്ല	-6756
▁ആണ്‍	-6757
▁എത്രയും	-6758
ിക്കുന്നുണ്ടോ	-6759
നാട	-6760
oll	-6761
▁വിപ്ലവ	-6762
യില്ലാത്ത	-6763
കളിലെ	-6764
▁ഇതിലും	-6765
▁കൃപ	-6766
▁ഉറവിട	-6767
▁നിയന്ത്രണം	-6768
▁ശ്രമിക്കുക	-6769
▁ഭവ	-6770
ചിതമായ	-6771
▁മത്സ്യ	-6772
▁കാറ	-6773
tional	-6774
▁കാലാവ	-6775
▁ഇദ്ദേഹം	-6776
▁മാറും	-6777
▁അദ്ദേഹത്തിനു	-6778
▁റിപ്പോര്‍ട്ട്	-6779
ിയൻ	-6780
▁ag	-6781
▁കോർ	-6782
ഞ്ഞത്	-6783
▁ഭാരത	-6784
▁ഒരാളുടെ	-6785
▁ശരിയായി	-6786
ബേ	-6787
പ്പെടാൻ	-6788
▁പതിപ്പ്	-6789
ിച്ചിട്ട്	-6790
▁കുട്ടിയുടെ	-6791
ിലേറെ	-6792
കളുണ്ട്	-6793
▁കവ	-6794
▁കട്ട	-6795
ിക്കേണമേ	-6796
ach	-6797
oy	-6798
ക്കേണ്ട	-6799
ഗര	-6800
ിക്കാനാവില്ല	-6801
▁വിസ്മ	-6802
▁ആശ്രയ	-6803
▁കണ്ടോ	-6804
ിക്കല്‍	-6805
▁ഫലങ്ങൾ	-6806
les	-6807
▁(3	-6808
▁ദേഷ്യ	-6809
▁ഒഴികെ	-6810
▁തിരിയ	-6811
▁പുലര്‍ത്ത	-6812
▁അലുമിനിയം	-6813
ത്തിലായിരുന്നു	-6814
oad	-6815
റേഴ്സ്	-6816
▁എന്റേ	-6817
▁വളർച്ച	-6818
വള്‍	-6819
▁ഓസ്ട്ര	-6820
▁വയസ	-6821
▁അന്തരീക്ഷ	-6822
▁മക്കൾ	-6823
ണ്ഡിത	-6824
വിരുദ്ധ	-6825
▁അപ്പോഴും	-6826
▁മാത്രമായിരുന്നു	-6827
▁ഗ്രന്ഥം	-6828
പ്പിന്റെ	-6829
▁ബ്രിട്ടീഷ്	-6830
ാപ്ര	-6831
▁സുന്ദരിയ	-6832
▁എത്തിച്ചേ	-6833
ബോധന	-6834
▁ഖേദ	-6835
▁ബിൽ	-6836
▁അപകടം	-6837
▁സമ്പന്ന	-6838
മഹ	-6839
▁ജനത്തെ	-6840
▁ദശലക്ഷം	-6841
ുകഴിഞ്ഞ	-6842
▁മീഡിയ	-6843
ക്ഷമ	-6844
▁എച്ച്	-6845
▁പങ്കുചേ	-6846
തിനേക്കാള്‍	-6847
▁കച്ചവട	-6848
▁മാനുഫാക്ചറേഴ്സ്	-6849
▁ഉണ്ടെങ്കില്‍	-6850
▁തുടർന്നു	-6851
ുന്നവര്‍	-6852
▁i	-6853
alayalam	-6854
▁സംസാരിക്കുന്നു	-6855
▁ഒരേയൊരു	-6856
▁എന്നില്‍	-6857
▁തെളിവുകള്‍	-6858
.“	-6859
▁ഡ്രൈ	-6860
മുണ്ടാക്ക	-6861
േനെ	-6862
ര്‍ആന്‍	-6863
▁ആച	-6864
▁അഴി	-6865
▁ശനിയ	-6866
ശ്രൂഷ	-6867
ർത്തു	-6868
ിക്കേഷ	-6869
▁ജോണ്‍	-6870
ിക്കാമോ	-6871
▁പ്രചരിപ്പ	-6872
ബുക്ക്	-6873
▁പരിധി	-6874
▁അനീതി	-6875
▁ഭൂതകാല	-6876
▁ഉള്ളില്‍	-6877
ons	-6878
വാസി	-6879
ായിരം	-6880
വാസികള	-6881
▁അപമാന	-6882
▁മരിക്കും	-6883
▁വൈകി	-6884
rit	-6885
ഴുതിയ	-6886
ുണ്ടാകും	-6887
▁വെടിയ	-6888
▁ഗുരുതരമായ	-6889
▁പത്ത	-6890
ാനാകും	-6891
▁ഒരെ	-6892
കളേ	-6893
▁34	-6894
▁വിൻഡ	-6895
▁ഇബ്രാഹ	-6896
▁കരാര്‍	-6897
▁പങ്കാളി	-6898
▁കഴിഞ്ഞാല്‍	-6899
വൃ	-6900
▁തുണ	-6901
▁He	-6902
കരുടെ	-6903
▁അർത്ഥ	-6904
▁‘‘	-6905
▁തയാറ	-6906
▁രഹസ്യം	-6907
▁എത്രത്തോളം	-6908
▁നേതൃത്വം	-6909
▁Cl	-6910
ന്നായി	-6911
▁തുടങ്ങിയവ	-6912
▁കര്‍മ	-6913
ഇല്ല	-6914
▁അനിവാര്യ	-6915
▁വേർ	-6916
▁നുറു	-6917
▁ചിറ	-6918
ലുകളും	-6919
ഫലം	-6920
ോളം	-6921
▁എല്ലാവരുടെയും	-6922
വ്വാ	-6923
മാണെന്ന	-6924
:15	-6925
▁കൂടുതലും	-6926
▁Am	-6927
▁മറിക	-6928
▁നിർബന്ധ	-6929
▁മുമ്പിൽ	-6930
"(	-6931
▁ജനങ്ങൾ	-6932
ിച്ചപ്പോള്‍	-6933
ലുകള	-6934
റിയും	-6935
മല്ലാത്ത	-6936
പ്പെടുത്തുക	-6937
▁സ്വീകരിച്ചു	-6938
▁കരുണാനിധിയ	-6939
▁ഭാഗങ്ങൾ	-6940
▁സത്യത്തിൽ	-6941
▁പരു	-6942
▁മേല	-6943
ുകാരുടെ	-6944
▁കണ്ടുമുട്ട	-6945
!)	-6946
വിവര	-6947
▁ഞാനത്	-6948
▁വാങ്ങാൻ	-6949
ക്ഷണം	-6950
▁പോകണം	-6951
▁ഉയര്‍ന്ന	-6952
ധന	-6953
▁കൈയ്യ	-6954
ന്യാ	-6955
യെന്ന	-6956
▁ഉത്സ	-6957
ല്ലൊ	-6958
▁ദുർ	-6959
നുമാണ്	-6960
▁കരുതുന്നത്	-6961
▁മറ്റൊന്ന	-6962
▁സഹായിച്ച	-6963
൦൦	-6964
തീക്ഷ	-6965
▁പിശാചു	-6966
▁നോക്ക്	-6967
▁തൊട	-6968
▁പിന്നീട	-6969
▁ഡാ	-6970
▁നീണ്ടു	-6971
▁ഒരാഴ്ച	-6972
▁സാമൂഹ്യ	-6973
▁ഞായറാഴ്ച	-6974
നേരം	-6975
▁വിറ	-6976
▁തോന്നുന്നത്	-6977
3-	-6978
പുറ	-6979
യെന്ന്	-6980
ual	-6981
▁അസ്വസ്ഥ	-6982
▁എളുപ്പത്തിൽ	-6983
കൂടുത	-6984
▁ടെലി	-6985
▁പൂര്‍ണമായും	-6986
ey	-6987
ിലേക്ക	-6988
ഗി	-6989
▁37	-6990
▁ഉപഭോക്ത	-6991
പോവ	-6992
▁ഡോളർ	-6993
അദ്ദേഹം	-6994
ിയു	-6995
▁മറുപടിയ	-6996
fer	-6997
▁യഥാർത്ഥത്തിൽ	-6998
per	-6999
സമാ	-7000
▁തണുപ്പ	-7001
▁സങ്കട	-7002
രാള	-7003
ക്കുകള്‍	-7004
ത്തോടും	-7005
▁എഡി	-7006
െയില്‍	-7007
▁പാര്‍ട്ട	-7008
യ്ക്കുന്നു	-7009
പീ	-7010
▁സ്റ്റെ	-7011
▁നാളില്‍	-7012
രാജ്യ	-7013
കൂട്ട	-7014
▁അല്‍പം	-7015
▁ഉപയോക്ത	-7016
▁വെല്ലുവിള	-7017
▁Sy	-7018
▁മെഡിക്കൽ	-7019
വർത്തനം	-7020
▁100%	-7021
▁സ്രഷ്ട	-7022
▁നൊ	-7023
▁ഗാന്ധ	-7024
▁ഇറക്കി	-7025
ീവ	-7026
ാരംഭ	-7027
▁പങ്കുവെ	-7028
9-	-7029
ജാല	-7030
രഹിത	-7031
▁മറക്കരുത്	-7032
▁അത്ത	-7033
▁കാണാത	-7034
▁അങ്ങനെയുള്ള	-7035
▁മാതാപിതാക്കള്‍	-7036
▁നന	-7037
ഞ്ചു	-7038
▁തികഞ്ഞ	-7039
ON	-7040
▁അക്കൗണ്ട	-7041
ിക്കൊടുക്ക	-7042
▁പ്രാർത്ഥന	-7043
.,	-7044
രോടു	-7045
ത്തുന്നു	-7046
പ്പന	-7047
▁ജോസ	-7048
▁ദാരി	-7049
▁അക്രമം	-7050
ീകരിക്കും	-7051
▁തിങ്ക	-7052
▁ഒഴിവാക്കുക	-7053
▁ഐഹിക	-7054
▁വാതില്‍	-7055
യ്ക്കുള്ള	-7056
▁ശീർഷകങ്ങൾ	-7057
▁പ്രവച	-7058
▁ചിരിച്ചു	-7059
▁മാറ്റങ്ങള്‍	-7060
യര്‍	-7061
▁നേതൃത്വ	-7062
തെങ്കില്‍	-7063
▁മെച്ചപ്പെട്ട	-7064
▁Is	-7065
▁വാടക	-7066
▁എല്ലായിടത്തും	-7067
പ്രിയ	-7068
▁അസ്ഥ	-7069
▁38	-7070
റിലെ	-7071
▁വേല	-7072
▁കമന്റ	-7073
▁കളിക്ക	-7074
▁മുഹമ്മദ്	-7075
..!	-7076
▁യൂണിയ	-7077
▁വിറ്റു	-7078
▁ചെയ്തുകൊണ്ട	-7079
▁പ്രതികരിക്ക	-7080
▁ഡയറ	-7081
▁സുഖം	-7082
▁അവൾക്ക്	-7083
▁അക്കൗണ്ട്	-7084
ക്കുമ്പോള്‍	-7085
▁3.	-7086
ജീവന	-7087
ര്‍ജ	-7088
▁കൊന്നു	-7089
▁ശരാശരി	-7090
▁മോഷ്ട	-7091
ays	-7092
വിനു	-7093
▁വര്	-7094
ന്തിന്	-7095
▁പ്രതാപിയും	-7096
മുഖം	-7097
ാതിരുന്ന	-7098
▁പിറക	-7099
und	-7100
▁നില്	-7101
▁ആട	-7102
▁കാര്യവും	-7103
▁വരുമ്പോൾ	-7104
▁യഥാർഥ	-7105
യുണ്ടോ	-7106
▁ചുറ്റുമുള്ള	-7107
▁ലിസ്റ്റ്	-7108
ചൊ	-7109
▁മുൻപ	-7110
ായുടെ	-7111
▁സ്പെ	-7112
എന്നാല്‍	-7113
▁നിലവിൽ	-7114
▁പ്രദർശ	-7115
ഇവിടെ	-7116
ണ്ടെന്ന്	-7117
യെങ്കിലും	-7118
▁സൂക്ഷ്മമായി	-7119
ര്‍ഥ	-7120
▁India	-7121
optional	-7122
തയോടെ	-7123
▁കണ്ടാല്‍	-7124
▁നേര്‍വഴിയിലാക്ക	-7125
യേറെ	-7126
▁എൽഇ	-7127
▁വിഭ	-7128
ക്കരുത്	-7129
▁ഘട്ടം	-7130
▁പ്രാധാന്യ	-7131
▁എട്ടു	-7132
▁കളിക്കാര	-7133
ആർ	-7134
▁പാമ്പ	-7135
മാണെന്നു	-7136
▁യഹൂദ	-7137
16	-7138
▁പിന്‍പറ്റ	-7139
പ്പിട	-7140
▁രൂപകൽപ്പന	-7141
▁കുടു	-7142
നങ്ങളും	-7143
▁ശ്രദ്ധേയ	-7144
െയെങ്കിലും	-7145
▁ദുബ	-7146
▁ചൂണ്ട	-7147
▁സംഘടിപ്പ	-7148
▁അവസാനിപ്പ	-7149
ould	-7150
▁ഏറ്റെടുക്ക	-7151
നത്തിന്റെ	-7152
രാന്‍	-7153
▁തനിക്ക	-7154
▁കിട്ടുന്ന	-7155
ായു	-7156
▁ജീവിപ്പ	-7157
▁പ്രസ്താവന	-7158
രാവ	-7159
പുസ്തക	-7160
ികള്‍ക്കും	-7161
▁ശെ	-7162
▁ഓര്‍ക്ക	-7163
▁ഏതോ	-7164
▁വിരമ	-7165
▁കുറിച്ചുള്ള	-7166
UR	-7167
ക്റ്റ്	-7168
ചെയ്തു	-7169
ിരുന്നെങ്കില്‍	-7170
ഡം	-7171
▁നിങ്ങൾക്ക	-7172
▁ഏഷ്യ	-7173
▁അവരി	-7174
ുകാരന്‍	-7175
ലിക	-7176
aw	-7177
▁നിലനിൽ	-7178
മുണ്ടായി	-7179
▁സ്വീകരിക്കുന്ന	-7180
ൈൻ	-7181
▁സൗന്ദ	-7182
▁വലിപ്പം	-7183
ഹര	-7184
▁എന്നോ	-7185
▁ഉൾപ്പെടെ	-7186
▁ചെയ്യില്ല	-7187
▁കമ്പനിയുടെ	-7188
ുവാ	-7189
▁ജർമ്മ	-7190
എന്‍റെ	-7191
തെങ്ങനെ	-7192
നാള്‍	-7193
ാവിന്	-7194
യോന്യം	-7195
▁ധൈര്യം	-7196
ന്തെങ്കിലും	-7197
▁വാക്കുകള	-7198
ox	-7199
▁ഉറപ്പു	-7200
▁പ്രാദേശിക	-7201
ash	-7202
▁കണ്ടപ്പോള്‍	-7203
ാണവര്‍	-7204
▁മന്ദ	-7205
▁തിരഞ്ഞെടുപ്പ	-7206
ഗെ	-7207
▁സ്പീ	-7208
ിന്‍റെ	-7209
▁എവിടെയും	-7210
▁രാജാവ	-7211
▁പരീക്ഷണം	-7212
▁മോളെ	-7213
▁അതോടൊപ്പം	-7214
ign	-7215
▁പ്ലീസ്	-7216
▁കുന്ന	-7217
▁ഉൾപ്പെടുന്നു	-7218
▁ചോര	-7219
▁ശ്വാസം	-7220
▁ആഘ	-7221
▁അമിത	-7222
▁കാമുക	-7223
ങ്ങിയത്	-7224
വെങ്കിൽ	-7225
▁വേണ്ടിയാണ്	-7226
്പന	-7227
നത്തില്‍	-7228
▁കാണിക്കുന്നു	-7229
:14	-7230
തുമില്ല	-7231
▁യാത്രാ	-7232
ിച്ചിരിക്ക	-7233
▁റിപ്പോർട്ട്	-7234
▁കൃഷ്ണ	-7235
:18	-7236
വനന്ത	-7237
സൂത്ര	-7238
▁വാഹനം	-7239
മറ്റ	-7240
▁യേശുവിന്റെ	-7241
▁പ്രാണ	-7242
ിക്കുന്നവന്‍	-7243
now	-7244
▁ചിരി	-7245
▁അല്ലാഹുവിങ്കല്‍	-7246
▁പുറത്തെ	-7247
തൃ	-7248
▁അറിയാതെ	-7249
▁മറ്റുള്ളവര്‍	-7250
18	-7251
അമ്മ	-7252
ദൈവം	-7253
▁ഉയര്‍ത്ത	-7254
ത്തേത്	-7255
▁ക്ലിക്ക്	-7256
ില്ലെങ്കില്‍	-7257
▁ഒരിട	-7258
ജു	-7259
200	-7260
▁കീഴട	-7261
ൊരാള്‍	-7262
▁വൈദ്യുതി	-7263
▁but	-7264
17	-7265
:16	-7266
▁."	-7267
▁ജനിച്ചു	-7268
വചന	-7269
▁സംസാരിക്കുന്നത്	-7270
ഭുതം	-7271
▁അതായിരുന്നു	-7272
ണ്ടർ	-7273
കാരിക	-7274
▁അവനില്‍	-7275
▁കാര്യമായ	-7276
▁സ്വകാര്യത	-7277
്പ്പോഴും	-7278
▁സാധിക്കില്ല	-7279
▁കോളേജ്	-7280
ട്ടുള്ളത്	-7281
ക്കെതിര	-7282
▁വായിക്കാന്‍	-7283
ുട	-7284
ഭവം	-7285
▁പ്രോഗ്രാമ	-7286
▁ചൂട്	-7287
▁പരിസ്ഥിതി	-7288
▁ചെയ്യുന്നതാണ്	-7289
നൂ	-7290
ോടൊപ്പ	-7291
▁ആപ്പി	-7292
▁പുരസ്	-7293
▁അറബി	-7294
▁ഇക്കൂട്ട	-7295
▁ഇവന്‍	-7296
ക്കല	-7297
▁നാലാം	-7298
▁ഉൽ	-7299
▁അവലോകനം	-7300
▁പ്രേക്ഷ	-7301
▁ദില	-7302
▁പൊറുത്തുകൊടുക്ക	-7303
രിക്കാന്‍	-7304
മായോ	-7305
▁കുളി	-7306
തുര	-7307
▁കൌ	-7308
▁നൃത്തം	-7309
90	-7310
ES	-7311
മ്പാ	-7312
രിച്ചത്	-7313
▁സമർപ്പ	-7314
▁അഹങ്കാര	-7315
▁ഏപ്രിൽ	-7316
▁ആത്മാര്‍	-7317
▁വ്യക്തമാക്കി	-7318
▁സ്ക്രീ	-7319
തെങ്കിലും	-7320
oin	-7321
▁അവസാനമായി	-7322
▁പോകുന്നില്ല	-7323
▁മോച	-7324
▁--	-7325
▁ബാധക	-7326
uth	-7327
ുള്ളു	-7328
റിയുന്നു	-7329
▁കാണുകയും	-7330
ാരു	-7331
oh	-7332
..”	-7333
app	-7334
നാമ	-7335
പ്പോലെയ	-7336
▁മൃതദേ	-7337
▁ഫേസ്	-7338
ക്കൊപ്പം	-7339
▁ബാധിച്ച	-7340
▁കാറ്റ	-7341
▁ദൈവത്തിന്	-7342
▁പിതാവേ	-7343
iss	-7344
ject	-7345
▁was	-7346
ഷിദ്ധ	-7347
▁ഉപരി	-7348
▁സത്യത്തെ	-7349
▁പുതിയൊരു	-7350
▁വചനങ്ങള്‍	-7351
▁നിഗ	-7352
▁പ്രതിനിധ	-7353
▁ഉദ്ദേശിക്കുന്ന	-7354
▁തല്ല	-7355
വചനം	-7356
നമ്മുടെ	-7357
▁പട്ടാള	-7358
▁തോന്നും	-7359
▁ചെയ്യുമ്പോൾ	-7360
സേര	-7361
▁ഭയങ്കര	-7362
▁നിസ്സാര	-7363
to	-7364
ina	-7365
▁തക്ക	-7366
ാകുന്നില്ല	-7367
ൂരി	-7368
ാഫ	-7369
▁താന	-7370
▁ഞാന്	-7371
ps	-7372
പാഠ	-7373
ങ്ങൾക്കും	-7374
▁മാംസം	-7375
ാള്‍	-7376
▁കൂള	-7377
▁നിര്‍മ	-7378
▁എല്ലായ്പ്പോഴും	-7379
വനല്ല	-7380
▁രാജ്യത്തിന്റെ	-7381
മെല്ലാം	-7382
▁ചട്ട	-7383
▁സസ്യ	-7384
▁തിരുവനന്ത	-7385
▁സത്യവും	-7386
▁രാജാവു	-7387
ടിച്ചു	-7388
▁ക്ഷീണ	-7389
▁സംഭവിക്കും	-7390
▁ലഘ	-7391
iew	-7392
വയെ	-7393
▁ഒന്നുക	-7394
ിട്ടില്ലേ	-7395
▁തുടര്‍ച്ച	-7396
പ്രദേശ	-7397
▁ഭക്തി	-7398
eg	-7399
ായണ	-7400
മല്ലാതെ	-7401
▁അവനി	-7402
▁നടപടിയ	-7403
ബോൾ	-7404
▁സ്വഭാവം	-7405
▁ഇല്ലായിരുന്നു	-7406
▁കഴിയുന്നു	-7407
ally	-7408
▁സൂപ്പർ	-7409
ണീ	-7410
▁ഫലകം	-7411
ന്തിനാ	-7412
ഗന്ധ	-7413
▁അല്ലാഹുവോട്	-7414
▁അതാ	-7415
▁അധി	-7416
▁ജ്ഞാനം	-7417
▁കാര്യങ്ങളില്‍	-7418
▁എന്താണു	-7419
▁പ്ലാസ്റ്റിക്	-7420
ത്തിന്‍	-7421
▁നമസ്കാരം	-7422
yp	-7423
▁അറിയാവുന്ന	-7424
▁എന്തെല്ലാം	-7425
▁ഐഡിയ	-7426
▁അങ്ങേ	-7427
▁സർട്ടിഫ	-7428
▁വിളിക്കുന്നത്	-7429
▁വിഗ്രഹ	-7430
ങ്ങളുള്ള	-7431
▁എടുത്ത്	-7432
വരാകുന്നു	-7433
ദാന	-7434
േക്കാള്‍	-7435
:17	-7436
▁ട്	-7437
▁എൽഇഡി	-7438
▁ഭൂമിയും	-7439
▁അമേരിക്കയില്‍	-7440
▁പ്ലേ	-7441
മുള്ളത്	-7442
▁വേണമെങ്കിലും	-7443
യുമാണ്	-7444
▁നൽകുക	-7445
ത്തോടൊപ്പം	-7446
ുകാരെ	-7447
▁അനുക	-7448
▁സ്ത്രീകളും	-7449
ശ്മ	-7450
▁ജോലിയ	-7451
ാണെന്നാണ്	-7452
ിക്കുമായിരുന്നു	-7453
▁നഗ്ന	-7454
▁കഴിയൂ	-7455
▁തങ്ങളെ	-7456
ിക്കണമെന്ന്	-7457
ഗ്രി	-7458
നിമി	-7459
യധികം	-7460
▁മാലി	-7461
!!!	-7462
ണമെന്നാണ്	-7463
ണ്ഠ	-7464
ചെയ്ത	-7465
▁തെരു	-7466
▁ഇദ്ദേഹ	-7467
▁സേവനങ്ങൾ	-7468
ത്തില്‍നിന്ന്	-7469
▁ചേച്ചി	-7470
റുകള	-7471
ിച്ചിട്ടുണ്ടോ	-7472
▁അനന്തരം	-7473
ര്‍ക്കുന്ന	-7474
▁ഫോർ	-7475
െന്നത്	-7476
കളുമായി	-7477
▁ഇഷ്ടപ്പെടുന്നു	-7478
വുമുണ്ട്	-7479
മാണെന്നും	-7480
▁അവരാണ്	-7481
▁തുല	-7482
▁മാർച്ച്	-7483
പ്രശ്	-7484
പറഞ്ഞു	-7485
▁മുതിർന്ന	-7486
▁കേള്‍ക്കുന്ന	-7487
▁കമ്മീഷ	-7488
▁സ്വാധീ	-7489
പതി	-7490
▁ആലോചിച്ചു	-7491
അങ്ങനെ	-7492
▁റൂം	-7493
▁സാക്ഷ്യ	-7494
▁കൊണ്ടുവന്നു	-7495
▁പ്രോഗ്രാം	-7496
▁മിസ്	-7497
▁ഒക്ടോബർ	-7498
▁ഉണ്ടായിരിക്കും	-7499
▁ചെയ്യാനുള്ള	-7500
//	-7501
ാഫി	-7502
▁നാര	-7503
മല്ലോ	-7504
▁ഉടമ്പ	-7505
േലിയ	-7506
▁പ്രസിഡന്റ്	-7507
▁എന്നറിയില്ല	-7508
▁പ്രവർത്തനങ്ങൾ	-7509
▁htt	-7510
റ്റീവ്	-7511
▁അതിക്രമം	-7512
▁ലഭിച്ചത്	-7513
▁ഒരുമിച്ചുകൂ	-7514
▁വിഷയത്തില്‍	-7515
ാർശ	-7516
▁ഗത	-7517
▁ഗ്യ	-7518
നാള	-7519
▁ഏല്പ	-7520
▁ഉറപ്പുവ	-7521
▁ശുശ്രൂഷ	-7522
തൊക്കെയും	-7523
▁ബാധിക്കും	-7524
രിഞ്ഞ്	-7525
ുകൂടിയ	-7526
▁To	-7527
ശ്വത	-7528
▁For	-7529
▁ഡിസ	-7530
▁മേശ	-7531
▁കിടന്നു	-7532
▁നിങ്ങളിൽ	-7533
ലിവ	-7534
▁താങ്കള	-7535
▁മുമ്പുള്ള	-7536
നമു	-7537
▁ഇരിക്കുന്ന	-7538
▁പാദ	-7539
tr	-7540
▁ത്	-7541
▁അതൊന്നും	-7542
▁ശാസ്ത്രീയ	-7543
തിനേക്കാൾ	-7544
വിഡ്	-7545
▁മാറ്റങ്ങൾ	-7546
▁വേഷ	-7547
ുമെല്ലാം	-7548
▁വിമാനത്താവ	-7549
▁നിലകൊള്ള	-7550
ഹീന	-7551
▁സ്വീ	-7552
ിക്കണ്ട	-7553
▁ആകാശഭൂമ	-7554
▁സെൽ	-7555
▁എവിട	-7556
▁മനസ്സിലാക്കി	-7557
▁im	-7558
▁ഇല്ലെങ്കില്‍	-7559
ഹേ	-7560
▁മോട്ടോർ	-7561
▁193	-7562
▁പാര്‍ട്ടി	-7563
▁സ്ഥിരമായി	-7564
▁വിദ്യാര്‍ഥ	-7565
▁എന്നല്ല	-7566
▁വരികയും	-7567
മ്പതി	-7568
▁കൊടുക്കും	-7569
▁കൊണ്ടുവന്ന	-7570
ൃഷ്	-7571
▁ശബ	-7572
മായ്	-7573
▁സൊ	-7574
▁ഇടി	-7575
▁നാഥനില്‍	-7576
ജൻ	-7577
▁പണ്ഡിത	-7578
▁നിഷിദ്ധ	-7579
ss	-7580
ബൂ	-7581
▁ദഹ	-7582
▁അലി	-7583
▁എന്തുകൊണ്ട	-7584
▁ആക്സ	-7585
▁കൊഴു	-7586
▁വഴികൾ	-7587
▁മോശമായ	-7588
▁തുടർച്ച	-7589
▁പറ്റുമോ	-7590
▁നിര്‍ത്തി	-7591
▁ദൃഷ്ടാന്തങ്ങള്‍	-7592
▁മിനു	-7593
▁തിങ്കള	-7594
▁മദ്ധ്യ	-7595
▁സ്വര്‍ഗത്തില്‍	-7596
▁വിവാഹമോ	-7597
▁ആവശ്യപ്പെട്ട	-7598
ീകൃത	-7599
ട്ടാ	-7600
ടിയിൽ	-7601
യുകയും	-7602
▁നല്ലതു	-7603
▁ഞങ്ങളോട്	-7604
വളെ	-7605
▁കുട്ടിയ	-7606
ൾഡ്	-7607
ivers	-7608
▁പാഠം	-7609
▁താപനില	-7610
ള്ളു	-7611
ബുദ്ധ	-7612
▁പെൺകുട്ടി	-7613
▁എഴുതിയത്	-7614
ുണ്ടായിരുന്ന	-7615
െയൊക്കെ	-7616
േണ്ടിവരും	-7617
▁തിരിച്ചുവര	-7618
ഗാമ	-7619
വ്യൂ	-7620
▁അരുളിച്ചെയ്യ	-7621
▁ഗെയിം	-7622
മാണല്ലോ	-7623
ക്കുവാൻ	-7624
▁ഇയാള്‍	-7625
▁മൂന്നാമത്തെ	-7626
▁ദൃഢ	-7627
▁ആത്മാവ്	-7628
ുമുമ്പ്	-7629
ൊക്കെയോ	-7630
▁കേട്ട്	-7631
നുമാകുന്നു	-7632
മാക്കുന്നത്	-7633
ുമ്പോഴാണ്	-7634
▁എന്തുചെയ്യ	-7635
▁വിശ്വസിച്ചു	-7636
▁തൈ	-7637
▁സംഭ	-7638
▁അബൂ	-7639
▁ആൻഡ്രോ	-7640
▁അര്‍ത്ഥം	-7641
▁കണ്ണ്	-7642
▁ഇടം	-7643
ണ്ടാക്കിയ	-7644
ക്കാരു	-7645
▁ലജ്ജ	-7646
▁ക്രിസ്ത്യാന	-7647
▁അവളോട്	-7648
▁വല്ലാത്ത	-7649
▁ശക്തമായി	-7650
▁ത്രീ	-7651
▁ശാസ്ത്രജ്ഞ	-7652
▁48	-7653
▁റെയിൽ	-7654
▁ഭാഗത്ത്	-7655
ന്റുകൾ	-7656
▁മറികട	-7657
വരല്ല	-7658
▁ദിവസമാണ്	-7659
ിച്ചിരിക്കുന്ന	-7660
സൺ	-7661
▁ടൈപ്പ്	-7662
▁പരിണ	-7663
ന്മാരെയും	-7664
രള	-7665
▁അമ്	-7666
▁കണ്ണുകൾ	-7667
മെങ്കിലും	-7668
▁ശനിയാഴ്ച	-7669
▁സംഭവിക്കുന്ന	-7670
▁അബദ്ധ	-7671
▁യാക്കോ	-7672
▁ജീവിക്കാന്‍	-7673
ric	-7674
▁അവയില്‍	-7675
▁ക്ഷമിക്കണം	-7676
▁കസേര	-7677
വസ്തു	-7678
▁താമസം	-7679
▁പങ്ക്	-7680
▁എല്ലാരും	-7681
പ്ത	-7682
▁cl	-7683
▁വിജയി	-7684
ത്തിനുശേഷം	-7685
▁തണുത്ത	-7686
ളിനെ	-7687
▁നിവേദ	-7688
സ്റ്റര്‍	-7689
ണിന്റെ	-7690
▁കൊറിയ	-7691
▁കുറിച്ചു	-7692
റൂ	-7693
▁വയസ്	-7694
▁നടപടികള്‍	-7695
▁ബജ	-7696
▁മൌ	-7697
▁2007	-7698
▁ഗുരുതര	-7699
▁സംസ്കാര	-7700
▁നിരീക്ഷണ	-7701
▁നടത്തുകയും	-7702
▁സീസ	-7703
▁ആളുകളുടെ	-7704
▁ഭാര്യയും	-7705
ായാണ്	-7706
▁മകനേ	-7707
ൈറ്റ്	-7708
▁ബട്ട	-7709
▁സിനി	-7710
▁’	-7711
▁ഗതാഗ	-7712
▁പദവി	-7713
▁ചില്ല	-7714
▁പ്രതിഭ	-7715
▁കാള	-7716
പേര്‍	-7717
▁നിർമ്മാണ	-7718
▁എന്നെയും	-7719
പരാധ	-7720
▁വെബ്സൈറ്റ്	-7721
പ്പെടുത്താന്‍	-7722
▁എന്തേ	-7723
ax	-7724
▁ഇം	-7725
▁ശര	-7726
നിശ്ച	-7727
▁ബിരു	-7728
▁അല്ലാഹുവിലും	-7729
erm	-7730
▁ച്	-7731
▁കപട	-7732
▁നബിയേ	-7733
13	-7734
▁(4	-7735
▁No	-7736
▁നവംബർ	-7737
▁ഔദ	-7738
▁ആജ്ഞ	-7739
▁വരാൻ	-7740
▁നന്ദിക	-7741
പറ്റി	-7742
▁ആഗ്രഹിച്ചു	-7743
▁ഇങ്ങനെയാണ്	-7744
old	-7745
ര്‍ണ	-7746
പ്പര്യ	-7747
▁നേടുക	-7748
തുകൊണ്ട	-7749
▁ഏകാ	-7750
രാഷ്ട്ര	-7751
ക്കമുള്ള	-7752
▁പരിശീലന	-7753
ത്തിനുള്ളിൽ	-7754
14	-7755
്വാനം	-7756
▁പ്രവര്‍ത്തനം	-7757
24	-7758
്രമം	-7759
റുകളും	-7760
▁ആവശ്യപ്പെട്ടു	-7761
▁one	-7762
മാണു്	-7763
▁പുണ്യ	-7764
▁സഹകരണ	-7765
▁ആസൂത്ര	-7766
▁പന്ത്ര	-7767
ന്നങ്ങൾ	-7768
-3	-7769
ഴപ്പ	-7770
▁പോഷ	-7771
▁വാല	-7772
▁ക്യ	-7773
ക്കൊണ്ടു	-7774
▁ദോഷം	-7775
▁അനുയായി	-7776
25	-7777
ഗാ	-7778
▁ഡ്രോ	-7779
മൊക്കെ	-7780
മായിത്തീ	-7781
▁ഇവരില്‍	-7782
▁എടുത്തി	-7783
▁ദാരിദ്ര	-7784
▁ആത്മാവിനെ	-7785
▁രാത്രിയിൽ	-7786
.’’	-7787
ക്കണക്കിന്	-7788
▁(5	-7789
▁തെളിവ്	-7790
▁പ്രത്യേകിച്ചും	-7791
ts	-7792
▁അടച്ചു	-7793
▁ചക്ര	-7794
ുകൊടുത്തു	-7795
▁നിരന്തരം	-7796
ele	-7797
▁ഓപ്പ	-7798
ത്തിലോ	-7799
▁പറയുന്നതു	-7800
▁വേദനിപ്പ	-7801
▁ഇൻഡ	-7802
▁തൃപ്	-7803
▁ഡൗൺലോഡ്	-7804
▁സമാനമായ	-7805
▁വിളിക്കും	-7806
▁പറയരുത്	-7807
▁പുസ്തകങ്ങള്‍	-7808
ക്കിടെ	-7809
▁സംതൃപ്	-7810
ട്ടുണ്ടോ	-7811
ലിലെ	-7812
രാക്ക	-7813
▁സഹായിക്കാൻ	-7814
യാൾ	-7815
▁ശുപാർശ	-7816
അവൻ	-7817
▁കവാ	-7818
▁ഒട്ടേറെ	-7819
▁വന്നില്ല	-7820
▁ശ്വാസ	-7821
▁വര്‍ഷമായി	-7822
ങ്ങുന്നു	-7823
▁കണ്ടെത്തിയ	-7824
ര്‍ഔ	-7825
ക്രിസ്തു	-7826
▁വയസ്സ്	-7827
▁അന്നത്തെ	-7828
▁എന്തായിരുന്നു	-7829
▁സൃഷ്ടിക്കുന്ന	-7830
▁ഒളി	-7831
2]	-7832
▁സദ	-7833
▁◆◆	-7834
▁പ്രാഥ	-7835
▁കണക്ക്	-7836
ക്കാരാണ്	-7837
▁താല്പര്യ	-7838
▁നടത്തിയത്	-7839
എൽ	-7840
▁ക്രോ	-7841
▁വെയ്	-7842
റർ	-7843
▁പെണ്ണു	-7844
ver	-7845
രാൻ	-7846
▁പത	-7847
ഷ്ടം	-7848
ജ്യ	-7849
▁ശാശ്വത	-7850
പ്പെടുത്തിയത്	-7851
▁ഗവ	-7852
ക്കട	-7853
▁said	-7854
▁വരുമാന	-7855
പതു	-7856
▁അറബ	-7857
ന്നോ	-7858
▁തടാക	-7859
▁യാഥാര്‍ഥ	-7860
▁തുടര്‍ന്ന	-7861
അതു	-7862
▁ഇറക്ക	-7863
▁ഉയർത്ത	-7864
▁അകത്തു	-7865
▁വര്‍ഷങ്ങള്‍	-7866
▁പെട്ടെ	-7867
▁പരിശ്രമ	-7868
ക്കിൽ	-7869
ിക്കൊണ്ടു	-7870
▁യാതൊന്നും	-7871
നുസരിച്ച	-7872
ൃത്യ	-7873
ather	-7874
▁തമിഴ്	-7875
ാതിരിക്കുക	-7876
▁ലൈസ	-7877
ടുന്നു	-7878
രേഖ	-7879
േഷ്യം	-7880
▁നിറഞ്ഞു	-7881
▁എല്ലാറ്റ	-7882
▁നിലവില്‍	-7883
▁ഞങ്ങള്‍ക്കു	-7884
ര്‍ജ്ജ	-7885
▁മുഖേന	-7886
ചോദ	-7887
ിനോ	-7888
▁പുനരു	-7889
മുണ്ടാകും	-7890
://	-7891
ions	-7892
▁വാദം	-7893
▁വ്യാഴ	-7894
ിവന്നു	-7895
പ്പര്‍	-7896
▁താരതമ്യ	-7897
▁നടത്തും	-7898
ണമോ	-7899
▁മാതാപിതാക്കൾ	-7900
▁ആയിരുന്നില്ല	-7901
▁ദീപ	-7902
പുസ്തകം	-7903
▁കൂടുതലായി	-7904
▁എക്സ	-7905
▁അനുവദനീയ	-7906
കയും	-7907
പ്പിൽ	-7908
ർക്കാൻ	-7909
▁വാക്യ	-7910
▁കാണിക്കുകയും	-7911
▁തെരുവ	-7912
ടുത്തത്	-7913
ാവുന്നു	-7914
താണു	-7915
ന്തിനാണ്	-7916
▁ലഭിക്കുന്നു	-7917
▁ആൽ	-7918
ക്കൻ	-7919
▁39	-7920
▁ഗുഹ	-7921
ചെയ്യുന്ന	-7922
▁2000	-7923
▁മില്യ	-7924
▁തെളിഞ്ഞ	-7925
ില്ലെന്ന്	-7926
▁അരുളിച്ചെയ്	-7927
ാവസ	-7928
സിലെ	-7929
്ക്സ	-7930
▁സ്പര്‍ശ	-7931
പ്പെടുകയോ	-7932
ഗൃഹ	-7933
ോഗം	-7934
▁ഓപ്പറ	-7935
▁രാജാക്ക	-7936
▁വ്യക്തിഗത	-7937
▁അജ	-7938
▁അധീന	-7939
▁കാണുമ്പോള്‍	-7940
▁സോറി	-7941
▁മകനായ	-7942
▁ദാവീദ്	-7943
വരായിരുന്നു	-7944
രാതന	-7945
▁300	-7946
ാജ്യ	-7947
▁പ്രത്യാശ	-7948
▁നിരസ	-7949
▁തരുന്നു	-7950
▁മണ്ഡ	-7951
▁പാരമ്പ	-7952
▁ക്വാ	-7953
▁വിശകല	-7954
▁പ്രി	-7955
ട്ടിന്റെ	-7956
ിക്കപ്പെടുകയും	-7957
▁ആവി	-7958
▁സ്വി	-7959
▁പറഞ്ഞിരുന്നു	-7960
േത	-7961
രാക	-7962
▁ആദി	-7963
▁ചര	-7964
▁അന്തിമ	-7965
▁കൊണ്ടുപോയി	-7966
ാഹീം	-7967
▁പതിവ്	-7968
▁പടം	-7969
ാവുമോ	-7970
ണൽ	-7971
്യു	-7972
മാക്കാൻ	-7973
▁മുതലായ	-7974
▁ദേഷ്യം	-7975
▁അപ്പോഴാണ്	-7976
▁മെറ്റീരിയ	-7977
▁ശ്രമിക്കുന്നു	-7978
▁തിരുമേ	-7979
▁സന്തുഷ്ട	-7980
▁കുട്ടികളും	-7981
ത്തിനുള്ളില്‍	-7982
.00	-7983
▁ആരോടും	-7984
▁വരുമാനം	-7985
form	-7986
▁അടച്ച	-7987
▁കാലാവധി	-7988
▁പോലെയുള്ള	-7989
ഇപ്പോൾ	-7990
പോകുന്ന	-7991
▁അതിലൂടെ	-7992
▁നിലവാരമുള്ള	-7993
ുടേയും	-7994
പ്പില്‍	-7995
▁മാത്രമായി	-7996
▁രോ	-7997
ഭൂമി	-7998
▁സല്‍കര്‍മ്മ	-7999
▁ഗൃഹ	-8000
▁റബ്	-8001
▁വിജയിച്ച	-8002
▁ദൈവത്തിനു	-8003
ിപ്പിക്കാന്‍	-8004
▁മൂല്യം	-8005
▁അപരിചിത	-8006
▁ജനിച്ചത്	-8007
ഹെ	-8008
▁പോരാട്ട	-8009
▁ശേഷമാണ്	-8010
▁പ്രതിഫലവും	-8011
യിലേക്കു	-8012
▁ശ്രേഷ്ഠ	-8013
പ്പെടാത്ത	-8014
ള്ളി	-8015
▁ദാനം	-8016
ിരിക്കെ	-8017
കൈ	-8018
ുമാകുന്നു	-8019
▁ജൂൺ	-8020
▁കൈവശ	-8021
▁ഭരമേ	-8022
▁വളർത്ത	-8023
▁മനുഷ്യനും	-8024
▁മാംസ	-8025
ിലുള്ളത്	-8026
▁അവരവരുടെ	-8027
▁ഫില	-8028
▁ലോകക	-8029
ations	-8030
▁സ്വര്‍ഗം	-8031
▁ജീവിക്കുന്നത്	-8032
ക്കിന്റെ	-8033
▁ക്രെഡിറ്റ്	-8034
▁ജലം	-8035
▁മാർഗ	-8036
▁മായ	-8037
▁ധിക്ക	-8038
തിരുന്ന	-8039
▁dis	-8040
ower	-8041
▁ബുധ	-8042
▁ബോധനം	-8043
ുണ്ടായത്	-8044
▁നിരപരാധ	-8045
കര്യം	-8046
സിംഗ്	-8047
▁കണ്‍	-8048
▁കാര്യങ്ങള	-8049
േജ്	-8050
▁പൊരുത്ത	-8051
ഷന	-8052
▁150	-8053
വുമല്ല	-8054
▁പരിഭാഷ	-8055
യെക്കുറിച്ച്	-8056
▁റോമ	-8057
anc	-8058
▁need	-8059
ത്തില്	-8060
▁കോൺഗ്ര	-8061
▁വിയ	-8062
ത്താൻ	-8063
▁ക്ലാസ്സ	-8064
▁എല	-8065
ുവായ	-8066
▁നരകം	-8067
▁മലിന	-8068
▁അപൂര്‍	-8069
:-	-8070
▁.(	-8071
▁മദ്യം	-8072
▁ഗാന	-8073
▁ജനറ	-8074
▁എത്തും	-8075
▁വരണം	-8076
▁അന്യോന്യം	-8077
തിയും	-8078
▁കമ്മ്യൂണി	-8079
▁ശേഷി	-8080
▁മറ്റുള്ളവർ	-8081
▁വെറ	-8082
ubl	-8083
▁ഉടമസ്ഥ	-8084
▁കാപ്പി	-8085
▁വിശാലമായ	-8086
▁നടത്തുന്നത്	-8087
സാക്ഷ	-8088
▁ആരോപണ	-8089
രുതെന്ന്	-8090
ങ്കലേക്ക്	-8091
വരുന്നു	-8092
▁മുമ്പാകെ	-8093
ടിച്ച	-8094
▁അതിശയ	-8095
▁നടപ്പാക്ക	-8096
ഗ്ല	-8097
▁നിയമസഭ	-8098
▁(200	-8099
നല്‍ക	-8100
▁വിദഗ്ദ്ധ	-8101
▁തോന്നുന്ന	-8102
▁ജന്മം	-8103
ഡിൽ	-8104
▁സന്ന	-8105
രിമല	-8106
▁നേതാവ്	-8107
▁തെറ്റുകള്‍	-8108
line	-8109
▁സദ്	-8110
▁കഴിച്ച	-8111
ായാല്‍	-8112
▁അതിവേഗം	-8113
ren	-8114
▁മൃദ	-8115
▁ആന്‍	-8116
യുള്ളു	-8117
ിവെച്ച	-8118
▁എന്നതു	-8119
ിക്കഴിഞ്ഞ	-8120
▁മനുഷ്യപുത്ര	-8121
ows	-8122
▁അളവ	-8123
▁കഥകൾ	-8124
▁കന്ന	-8125
▁വഴികള	-8126
▁പ്രായോഗ	-8127
▁സമയമായി	-8128
ൊഴുക	-8129
lease	-8130
മാകട്ടെ	-8131
▁75	-8132
▁അതുവഴി	-8133
ട്ടിൽ	-8134
▁ലിങ്ക	-8135
▁വീഴ്ച	-8136
എല്ലാ	-8137
▁എനിക്കി	-8138
▁അദ്ധ്യാപക	-8139
തെന്ത്	-8140
▁ലോകമെ	-8141
ിക്കാനോ	-8142
▁ആശ്വാസ	-8143
▁ആക്രമണം	-8144
▁ആയിരിക്കണം	-8145
▁വിജ്ഞാന	-8146
ുവശ	-8147
▁വെള	-8148
▁പിന്നിൽ	-8149
▁ജീവിക്കും	-8150
വലി	-8151
ുമുത	-8152
▁വാര	-8153
▁ശത്രുക്കള	-8154
പിത	-8155
▁ടിക്കറ്റ്	-8156
ുവന്നു	-8157
▁മെറ്റൽ	-8158
ci	-8159
ന്മാരേ	-8160
ത്തുന്നത്	-8161
="4	-8162
ദ്ധ്യത	-8163
പ്രദമായ	-8164
▁എതിരാള	-8165
▁ജീവിക്കുന്നു	-8166
▁ഏർ	-8167
▁യിസ്രായേല്‍	-8168
uk	-8169
▁സെർ	-8170
തയില്‍	-8171
▁നേരിടുന്ന	-8172
▁വേണ്ടിയുള്ള	-8173
:19	-8174
വത്സ	-8175
വിനിമ	-8176
▁അഗ്നി	-8177
ികം	-8178
ഴ്ത്തി	-8179
▁വൃത്ത	-8180
ാറുണ്ടോ	-8181
▁ഇവിടെയാണ്	-8182
▁കാര്യമില്ല	-8183
▁അക്കാര	-8184
▁ഏഴാം	-8185
▁അസത്യ	-8186
ിക്കണോ	-8187
▁ഞാനാണ്	-8188
▁കുടുംബാംഗ	-8189
▁എഞ്ചിനീയ	-8190
▁പുരുഷന്മാർ	-8191
ുകളായി	-8192
▁ചാര	-8193
വല്‍	-8194
▁res	-8195
ുവന്ന	-8196
▁തകരാ	-8197
▁കൂട്ടം	-8198
▁മൈക്രോ	-8199
പോലെയാണ്	-8200
.."	-8201
▁ജപ്പാന	-8202
▁വിശദമായി	-8203
ോടി	-8204
ത്വവും	-8205
▁പിടികൂടി	-8206
രന്‍	-8207
രേണമേ	-8208
▁ആത്മവിശ്വാസം	-8209
▁ക്കു	-8210
▁ആവശ്യക	-8211
▁2006	-8212
▁എന്നാ	-8213
▁ഖുര്‍ആനില്‍	-8214
▁ബാക്കിയുള്ള	-8215
▁gr	-8216
▁വന	-8217
ange	-8218
▁നോക്കുന്ന	-8219
▁ജനത്തിന്റെ	-8220
▁കത്ത്	-8221
▁How	-8222
▁നുറുങ്ങ	-8223
▁എപ്പോഴെങ്കിലും	-8224
ുദ	-8225
ിയല്ല	-8226
▁വൈദ	-8227
▁സൂര്യനെ	-8228
ater	-8229
▁പടിഞ്ഞാറ	-8230
ോട്ടും	-8231
▁താരതമ്യം	-8232
പ്പുകള്‍	-8233
ther	-8234
ിയുമായി	-8235
▁സംസാരിക്കാന്‍	-8236
വക	-8237
സംഘ	-8238
വരിൽ	-8239
▁കാരം	-8240
▁തൊട്ടു	-8241
▁സഹായിച്ചു	-8242
▁വീട്ടിലേക്ക്	-8243
▁കുട്ടികള്‍ക്ക്	-8244
▁പർ	-8245
ക്കൊരു	-8246
▁തലച്ചോ	-8247
▁വഴികള്‍	-8248
▁അപ്രതീക്ഷ	-8249
▁കമ്പ്യൂട്ടർ	-8250
ത്മ	-8251
ട്സ്	-8252
▁ഉണ്ടാവും	-8253
▁കാര്യങ്ങളെ	-8254
▁അനാവശ്യ	-8255
''.	-8256
▁നിലനിര്‍ത്ത	-8257
▁ദമ്പതി	-8258
▁അടിച്ചു	-8259
▁പൂർണ്ണമായും	-8260
വലം	-8261
പ്പിന്	-8262
ിയിലും	-8263
▁തിങ്കളാഴ്ച	-8264
്പ്	-8265
▁വിവേക	-8266
പ്രവർ	-8267
▁ഒഴിഞ്ഞു	-8268
പ്പെടാം	-8269
ുകട	-8270
▁ലൈബ്ര	-8271
▁Your	-8272
ിക്കേണ്ടതുണ്ട്	-8273
യത്	-8274
▁ദിശ	-8275
▁പയ്യ	-8276
▁കഠിനമായി	-8277
ില്ലായിരുന്നു	-8278
ക്കറ	-8279
▁സെക്ക	-8280
കേന്ദ്ര	-8281
▁വർഷവും	-8282
ിക്കുവാനും	-8283
ോപ	-8284
▁എട്ട്	-8285
▁പരിശുദ്ധാത്മാ	-8286
▁ടാങ്ക	-8287
▁കണ്ടില്ലേ	-8288
േഡ്	-8289
▁അശുദ്ധ	-8290
▁പ്രസംഗം	-8291
▁പാത്ര	-8292
▁ഭീ	-8293
▁ലു	-8294
▁]	-8295
ര്‍ത്ഥം	-8296
▁താമസിക്കുന്ന	-8297
മായില്ല	-8298
തയാണ്	-8299
▁കത്ത	-8300
▁നാട്	-8301
▁ഗോത്ര	-8302
സുകൾ	-8303
ിയോടെ	-8304
കൂട്ടി	-8305
▁ഇടപാട	-8306
▁സെറ്റ്	-8307
▁അനുസരണ	-8308
▁പുനഃ	-8309
▁ഞങ്ങളും	-8310
▁സൃഷ്	-8311
▁സംസാരം	-8312
▁വിളിക്കാം	-8313
ഷനുകൾ	-8314
ph	-8315
ാരോഗ	-8316
▁മനഃ	-8317
▁യോഹ	-8318
▁God	-8319
▁പ്രോജ	-8320
▁ഇന്റര്‍	-8321
▁നബ	-8322
മാരി	-8323
▁ദൂരെ	-8324
▁മോനെ	-8325
▁വരെയുള്ള	-8326
▁ഉയര്‍ത്തി	-8327
▁ആത്മവിശ്വാസ	-8328
▁നിങ്ങള്	-8329
▁ഓസ്ട്രേലിയ	-8330
▁അനാ	-8331
▁വര്‍ത്ത	-8332
▁സബ്	-8333
▁സൂക്ത	-8334
ക്കുമോ	-8335
ുകഴിഞ്ഞു	-8336
▁വധശിക്ഷ	-8337
ചിന്ത	-8338
ത്തുനിന്ന്	-8339
▁കര്‍ത്താവ്	-8340
▁തീര്‍ത്തും	-8341
99	-8342
ാകാശ	-8343
▁ധനം	-8344
▁ലാഭം	-8345
▁ചിന്തകള്‍	-8346
▁വയർ	-8347
▁അക്വേറിയ	-8348
ru	-8349
ക്കൂടി	-8350
▁ധര്‍മ്മ	-8351
▁ഞാനെന്റെ	-8352
ിക്കുന്നതില്‍	-8353
▁ഫ്രഞ്ച്	-8354
▁സന്തോഷവാര്‍ത്ത	-8355
▁ബിജെ	-8356
▁ആചാര	-8357
▁പുരാതന	-8358
▁സാധ്യതയുണ്ട്	-8359
ചാരം	-8360
റിനു	-8361
▁പ്രവര്‍ത്തക	-8362
▁മുഖ്യമന്ത്രി	-8363
അപ്പോള്‍	-8364
അത	-8365
▁ഹലോ	-8366
▁transl	-8367
▁രക്ഷിതാക്ക	-8368
▁പശ്ചാത്താപം	-8369
▁ക്സ	-8370
ിയിലേക്ക്	-8371
▁നഷ്ടപ്പെട്ടു	-8372
ഇതു	-8373
▁ഒഴു	-8374
▁ദ്രോഹ	-8375
▁കുഴപ്പം	-8376
▁തൊഴില്‍	-8377
ഷ്ക	-8378
▁ധ്യ	-8379
▁like	-8380
ക്കില്‍	-8381
▁ശബരിമല	-8382
▁ഇടതുപക്ഷ	-8383
▁ഉദ്ദേശിച്ച	-8384
രുത്തി	-8385
▁കൊടുക്കുന്ന	-8386
ചരി	-8387
▁പാസ്	-8388
നേക്കാള്‍	-8389
▁ചെയ്യപ്പെട്ട	-8390
▁ലഭിക്കുന്നത്	-8391
▁കരി	-8392
▁തരുമോ	-8393
▁പ്രോസ	-8394
കീയ	-8395
▁ബില്ല	-8396
സഞ്ച	-8397
▁ശിക്ഷയില്‍	-8398
ക്കട്ടെ	-8399
▁ജയിച്ച	-8400
യിരിക്കും	-8401
▁Ph	-8402
ever	-8403
▁അതിരു	-8404
▁പുറത്തിറ	-8405
ണ്ടെങ്കില്‍	-8406
പെട്ടു	-8407
▁കുരിശ	-8408
▁ഉത്തമം	-8409
▁അവസാനിച്ചു	-8410
▁പറയില്ല	-8411
▁അവരെല്ലാം	-8412
▁കടമ	-8413
▁വസ്തുക്കൾ	-8414
▁അവളോടു	-8415
▁വ്യാഖ്യാന	-8416
▁അമേരിക്കയിലെ	-8417
▁കുതി	-8418
റാമ	-8419
ബിന്റെ	-8420
▁പ്രളയ	-8421
പ്രവാ	-8422
്യമായി	-8423
▁അനന്ത	-8424
▁താങ്ങ	-8425
▁തിയ	-8426
▁ആവശ്യങ്ങൾ	-8427
▁2,	-8428
▁താല്‍പര്യ	-8429
ഭാഗവും	-8430
AS	-8431
▁എന്താണ	-8432
▁മിഥ	-8433
▁ഒത്തു	-8434
▁കണ്ടെത്തുക	-8435
▁ഉപേക്ഷിച്ചു	-8436
▁പെട്ടെന്നു	-8437
▁നിങ്ങള്‍ക്കും	-8438
ബോർഡ്	-8439
ll	-8440
▁الل	-8441
▁ജനന	-8442
▁നന്‍മ	-8443
▁തലവേദന	-8444
ക്കറിയാം	-8445
▁ചിത	-8446
▁അതുകൊണ്ട	-8447
▁തോന്നിയത്	-8448
▁ഉത്തരവാദിത്ത	-8449
ക്ഷിണ	-8450
▁ഡോക്ടറെ	-8451
▁സന്തോഷവും	-8452
▁അഡ്മ	-8453
വരുടെയും	-8454
▁42	-8455
▁സദാ	-8456
നിംഗ്	-8457
ക്കുറി	-8458
നുമ്ക്സ	-8459
▁സ്ത്രീകള	-8460
▁സംസാരിക്കാൻ	-8461
▁ശേഷവും	-8462
▁ഡിജിറ്റൽ	-8463
▁നീന്ത	-8464
▁ള	-8465
പറയുക	-8466
ption	-8467
ർദ്ദം	-8468
▁വരാന	-8469
▁വഴിതെ	-8470
▁ചെറിയൊരു	-8471
നിന്നെ	-8472
▁എന്നൊക്കെ	-8473
ose	-8474
ക്കാത്ത	-8475
യാളി	-8476
ല്യം	-8477
വേശം	-8478
▁ഒമ്പ	-8479
▁ക്രൈ	-8480
▁വന്നിരിക്കുന്നു	-8481
▁പള്ളി	-8482
ന്‍സ	-8483
സ്നേ	-8484
ിയില്ല	-8485
ൈവ്	-8486
▁അജ്ഞാത	-8487
മാക്കാന്‍	-8488
▁നടത്തിയി	-8489
റിയാന്‍	-8490
City	-8491
ച്ക്	-8492
▁ഇഷ്ടമുള്ള	-8493
▁അമേരിക്കയുടെ	-8494
▁ഫിലി	-8495
്ലാദ	-8496
ത്രയും	-8497
▁കൊടുക്കുക	-8498
▁ഉയരം	-8499
▁ബഹുദൈവ	-8500
▁വിശിഷ്ട	-8501
▁ജീവിതവും	-8502
ർജ	-8503
ണമെങ്കിൽ	-8504
▁ജീവിക്കാൻ	-8505
▁ആരോഗ്യകരമായ	-8506
ാലയം	-8507
▁തീവ്രവാദ	-8508
▁ഇത്തരത്തിലുള്ള	-8509
ശീല	-8510
നോടും	-8511
▁താക്കീത	-8512
▁പെയി	-8513
▁കമ്മി	-8514
▁അരി	-8515
വത്	-8516
▁തിന്നു	-8517
▁സവിശേഷതകൾ	-8518
ുകയാണ	-8519
▁മോദി	-8520
ിക്കിട	-8521
യിലേ	-8522
ജ്ഞാനം	-8523
▁അറിയുന്നവനാണ്	-8524
pr	-8525
▁ഇസ്ലാം	-8526
▁വാചക	-8527
▁വേട്ടയാ	-8528
▁ആസ	-8529
▁കാന	-8530
നിടയിൽ	-8531
▁ചിലവഴ	-8532
പ്പോലും	-8533
▁സ്ത്ര	-8534
ിലേയ്ക്ക്	-8535
▁പിന്തുടരുക	-8536
,"	-8537
▁കനത്ത	-8538
ക്കുട്ട	-8539
▁കേൾക്കാൻ	-8540
▁കിട്ടിയില്ല	-8541
▁ചെയ്തിരുന്ന	-8542
▁അറിയുന്നവനും	-8543
▁മറച്ച	-8544
ിച്ചതാണ്	-8545
▁FS	-8546
▁ശമ്പള	-8547
▁സാധിച്ചു	-8548
ിക്കേണ്ടതില്ല	-8549
▁വിശദീകരണം	-8550
▁ചെയ്യുമ്പോള്‍	-8551
ലിസ്	-8552
▁പോക്ക	-8553
▁ജീവനോടെ	-8554
▁ഇവിടുത്തെ	-8555
മൊന്നുമില്ല	-8556
പ്രായ	-8557
▁എഴുതാന്‍	-8558
▁പുള്ള	-8559
▁വാങ്ങുന്ന	-8560
വച്ച	-8561
ാടനം	-8562
▁ജീവനുള്ള	-8563
▁മാഷ	-8564
▁സംഭാഷണ	-8565
▁മന്ത്രവാദം	-8566
സ്രയ	-8567
▁പോര	-8568
്	-8569
▁	-8570
ന	-8571
ി	-8572
ക	-8573
ു	-8574
ത	-8575
ാ	-8576
ര	-8577
യ	-8578
വ	-8579
ല	-8580
ട	-8581
പ	-8582
െ	-8583
ം	-8584
മ	-8585
.	-8586
‍	-8587
റ	-8588
ള	-8589
ങ	-8590
ച	-8591
ണ	-8592
സ	-8593
അ	-8594
ോ	-8595
േ	-8596
ദ	-8597
എ	-8598
ഞ	-8599
ീ	-8600
ഷ	-8601
ശ	-8602
ഇ	-8603
,	-8604
ൂ	-8605
ഹ	-8606
ആ	-8607
ൽ	-8608
ൊ	-8609
ഗ	-8610
ർ	-8611
ധ	-8612
ഒ	-8613
ൾ	-8614
e	-8615
ഴ	-8616
ജ	-8617
ൻ	-8618
ഭ	-8619
ബ	-8620
a	-8621
t	-8622
ഉ	-8623
o	-8624
?	-8625
i	-8626
n	-8627
r	-8628
ൈ	-8629
s	-8630
ഥ	-8631
:	-8632
1	-8633
ഡ	-8634
0	-8635
l	-8636
ഫ	-8637
ഈ	-8638
2	-8639
)	-8640
"	-8641
(	-8642
ൃ	-8643
-	-8644
h	-8645
;	-8646
d	-8647
m	-8648
'	-8649
ഏ	-8650
u	-8651
c	-8652
!	-8653
ഖ	-8654
ഓ	-8655
g	-8656
3	-8657
5	-8658
p	-8659
”	-8660
9	-8661
4	-8662
y	-8663
f	-8664
“	-8665
8	-8666
6	-8667
7	-8668
w	-8669
b	-8670
ഘ	-8671
S	-8672
ഠ	-8673
A	-8674
C	-8675
ൺ	-8676
v	-8677
’	-8678
k	-8679
T	-8680
‘	-8681
P	-8682
&	-8683
ൗ	-8684
I	-8685
M	-8686
/	-8687
E	-8688
R	-8689
D	-8690
N	-8691
B	-8692
L	-8693
O	-8694
H	-8695
F	-8696
ഐ	-8697
ഛ	-8698
W	-8699
G	-8700
]	-8701
[	-8702
x	-8703
ൌ	-8704
_	-8705
–	-8706
U	-8707
=	-8708
%	-8709
ഊ	-8710
V	-8711
K	-8712
Y	-8713
ഔ	-8714
X	-8715
ഃ	-8716
J	-8717
َ	-8718
z	-8719
ل	-8720
ഢ	-8721
*	-8722
൦	-8723
j	-8724
`	-8725
»	-8726
+	-8727
ا	-8728
൧	-8729
q	-8730
$	-8731
#	-8732
@	-8733
à	-8734
◆	-8735
൨	-8736
Q	-8737
•	-8738
́	-8739
—	-8740
