<unk>	0
<s>	0
</s>	0
.	-3.44782
▁	-3.61239
,	-3.64457
▁છે	-4.13237
:	-4.39763
▁અને	-4.6922
)	-4.70655
s	-4.80474
ો	-4.9122
-	-4.91502
ને	-4.99679
▁માટે	-4.99831
ની	-5.01671
માં	-5.03754
▁(	-5.0679
ના	-5.22051
▁તે	-5.26383
▁આ	-5.27261
ર	-5.35506
▁કરો	-5.37797
ન	-5.4355
▁કે	-5.44136
▁-	-5.45772
ી	-5.61585
નો	-5.6188
ક	-5.62604
લ	-5.68075
▁પર	-5.69757
ે	-5.80375
▁એક	-5.8182
▁જે	-5.84803
સ	-5.8483
▁નથી	-5.85139
મ	-5.85178
નું	-5.86765
▁એ	-5.8974
ઓ	-5.95707
▁તમે	-5.97536
▁સાથે	-6.0244
C	-6.06116
▁જ	-6.08071
▁/	-6.08546
/	-6.11367
;	-6.12902
▁(_	-6.13637
▁%	-6.13944
તા	-6.15369
▁કરી	-6.19249
ટ	-6.19459
A	-6.19838
S	-6.20084
વા	-6.22186
ા	-6.26429
▁1	-6.31324
ં	-6.33877
▁ડાઉનલોડ	-6.35736
d	-6.36576
થી	-6.36735
્સ	-6.36787
▁ઉપલબ્ધ	-6.37661
M	-6.39729
▁કરવા	-6.41316
▁પણ	-6.41968
પ	-6.42989
"	-6.45318
ડ	-6.46893
D	-6.47868
▁kgm	-6.48545
1	-6.49785
▁_	-6.51094
▁S	-6.5239
L	-6.52496
એ	-6.52705
_	-6.55474
▁અથવા	-6.55733
▁તો	-6.58587
▁જો	-6.58708
વ	-6.58738
y	-6.59521
R	-6.60737
'	-6.61098
▁ને	-6.62006
?	-6.62012
▁હોય	-6.62423
2	-6.62448
▁pcs	-6.63129
▁હું	-6.63214
B	-6.63615
▁છો	-6.64169
▁"	-6.64267
▁અ	-6.65562
▁દ્વારા	-6.66028
F	-6.6646
e	-6.68037
P	-6.68106
T	-6.68347
a	-6.70638
જ	-6.71117
com	-6.72075
ni	-6.73087
p	-6.75628
er	-6.77291
ત	-6.77481
O	-6.77626
▁માં	-6.7835
pdf	-6.78999
▁તમારા	-6.79165
▁રીતે	-6.79199
3	-6.79609
▁ન	-6.80967
▁P	-6.81583
u	-6.81659
ગ	-6.82198
▁કરે	-6.8238
o	-6.82691
E	-6.83883
▁2	-6.85013
શ	-6.8558
!	-6.86102
en	-6.86654
રા	-6.86996
▁અમે	-6.882
▁A	-6.89852
m	-6.90117
n	-6.90597
▁C	-6.9117
▁પછી	-6.91285
રી	-6.91559
in	-6.92716
ઝ	-6.93436
k	-6.93846
બ	-6.94033
rupan	-6.94687
G	-6.94705
▁3	-6.95403
િંગ	-6.95508
▁ક	-6.96174
▁ગઢડા	-6.9667
5	-6.96711
▁કોઈ	-6.96981
t	-6.97174
N	-6.9797
i	-6.98364
▁તેઓ	-6.9849
▁રહ્યા	-6.98733
▁“	-6.98783
I	-6.99273
▁લોકો	-6.9928
▁&	-6.99487
લા	-7.01158
▁શું	-7.01499
▁વધુ	-7.02437
▁ટેટૂઝ	-7.02507
c	-7.02542
4	-7.02729
%	-7.02998
▁પસંદ	-7.03469
▁બ	-7.04056
▁જ્યારે	-7.04313
▁બધા	-7.04446
▁નામ	-7.04959
ણ	-7.05159
▁ના	-7.05224
▁થયેલ	-7.05695
x	-7.06004
દ	-7.06111
▁B	-7.06281
al	-7.06895
V	-7.07058
ય	-7.08428
▁શકે	-7.09063
H	-7.09183
00	-7.09365
ડી	-7.09607
W	-7.11617
f	-7.11726
r	-7.11953
િ	-7.12035
ing	-7.13233
▁5	-7.14504
▁પરંતુ	-7.15089
▁બે	-7.15157
▁4	-7.15377
ળ	-7.15957
ું	-7.16188
▁સમય	-7.16814
▁કરવામાં	-7.17218
b	-7.17246
▁T	-7.17278
▁છું	-7.18496
▁છીએ	-7.18575
▁G	-7.1874
તી	-7.18886
l	-7.18993
▁તમને	-7.19388
K	-7.19895
▁ઇ	-7.21193
▁તેને	-7.21622
િત	-7.22936
▁હતી	-7.2308
મા	-7.23735
▁સ	-7.24413
g	-7.24464
▁10	-7.25349
▁name	-7.25465
▁હતો	-7.25574
▁નહિં	-7.2601
્	-7.26174
▁આવે	-7.26586
▁તરીકે	-7.26917
્યા	-7.27219
▁થી	-7.27275
▁F	-7.27421
▁–	-7.27454
લી	-7.27689
▁ત્યારે	-7.28079
▁તેના	-7.283
ુ	-7.3091
માંથી	-7.30934
▁'%	-7.31412
▁વિ	-7.31787
વી	-7.32879
▁તમારી	-7.32913
▁#	-7.33535
▁in	-7.3362
▁માહિતી	-7.33685
▁થાય	-7.33686
0	-7.34109
િક	-7.34483
▁M	-7.3465
▁D	-7.34747
▁ઉપયોગ	-7.3492
રો	-7.35088
સી	-7.353
▁વ	-7.35845
gt	-7.35911
ટી	-7.36167
▁$	-7.36482
▁...	-7.36837
▁મે	-7.3697
▁તેથી	-7.37629
ક્સ	-7.37697
Name	-7.37848
▁વિશે	-7.37922
U	-7.37933
▁કહ્યું	-7.38095
ંગ	-7.39078
▁કરીને	-7.3909
▁રંગ	-7.39392
▁સા	-7.39985
હ	-7.40208
▁a	-7.40681
▁કામ	-7.40694
X	-7.41435
આ	-7.43086
an	-7.4364
6	-7.43827
▁આપણે	-7.44309
10	-7.44495
20	-7.44547
▁મ	-7.44669
▁પ્રથમ	-7.44803
▁EUR	-7.44814
▁L	-7.47331
▁પાસે	-7.47517
h	-7.47562
▁હતા	-7.47665
ચ	-7.47985
▁કારણ	-7.48615
▁R	-7.48831
કો	-7.48935
પી	-7.49052
mm	-7.49613
શે	-7.49782
re	-7.4992
▁ભૂલ	-7.50512
w	-7.50523
નાં	-7.51013
▁€	-7.51021
le	-7.5143
8	-7.5203
ar	-7.52271
▁અમારા	-7.52332
@	-7.5243
▁H	-7.52747
7	-7.52878
▁પ	-7.53299
City	-7.53885
▁7	-7.539
ૂ	-7.53981
▁6	-7.5402
amp	-7.54029
▁ભાગ	-7.5418
▁2018	-7.54262
▁પે	-7.55282
▁શકો	-7.55976
▁8	-7.56314
(	-7.56429
▁ત્યાં	-7.57002
▁મને	-7.57078
વો	-7.57321
▁કો	-7.5733
્યો	-7.57714
ઇ	-7.58626
▁સુધી	-7.5923
optional	-7.59286
કા	-7.59514
▁હતું	-7.59638
ed	-7.59673
તો	-7.60292
ખ	-7.60746
સ્ટ	-7.60878
્ય	-7.61229
▁જોઈએ	-7.61436
થ	-7.62473
▁હ	-7.62555
ધ	-7.63259
▁+	-7.63395
action	-7.63457
એસ	-7.6363
ફ	-7.63738
▁મારા	-7.63869
v	-7.64093
યા	-7.64532
on	-7.64717
વું	-7.65596
▁K	-7.65677
▁નહિ	-7.66163
▁સિસ્ટમ	-7.66508
▁તેની	-7.67171
લો	-7.67797
▁E	-7.67979
ર્	-7.68528
▁બંધ	-7.68597
▁ફાઇલ	-7.68713
▁મા	-7.69351
▁અન્ય	-7.69406
▁I	-7.69639
ડા	-7.69972
▁પ્રકાર	-7.70042
▁N	-7.70087
9	-7.7012
▁મધ્ય	-7.70253
▁માત્ર	-7.70594
▁હવે	-7.70742
્યુ	-7.7115
ાય	-7.71313
▁the	-7.71943
▁ઓ	-7.72277
▁આવી	-7.72665
lt	-7.73108
વે	-7.73289
▁યાદી	-7.73388
50	-7.73393
▁19	-7.73571
▁લે	-7.74253
▁2019	-7.74302
▁દૂર	-7.74311
Y	-7.74402
વિ	-7.74495
▁12	-7.74613
ra	-7.74633
ન્સ	-7.74865
11	-7.75277
મી	-7.75635
et	-7.7575
▁પ્ર	-7.76024
12	-7.7608
▁ઉ	-7.76124
ક્ષ	-7.76697
જી	-7.76736
z	-7.76755
▁બહાર	-7.77486
▁X	-7.77548
▁કા	-7.7755
રે	-7.77775
at	-7.77795
el	-7.77956
▁ફાઈલ	-7.78107
▁J	-7.78153
or	-7.78227
es	-7.78263
િયા	-7.78774
▁ફોન	-7.79945
30	-7.81283
▁થઈ	-7.81295
it	-7.81489
જા	-7.82018
▁શકાય	-7.82023
▁ભાવ	-7.82243
ri	-7.82269
▁વર્ષ	-7.82287
▁એમ	-7.82443
ng	-7.82538
લે	-7.8283
▁—	-7.82884
▁20	-7.83215
▁નવી	-7.83315
▁મારી	-7.83419
▁9	-7.83846
▁'	-7.84007
▁દેવ	-7.84168
ર્સ	-7.84169
.”	-7.84609
▁દરેક	-7.8467
ઈ	-7.84708
ro	-7.85001
th	-7.85411
▁સી	-7.85491
▁જીવન	-7.85661
▁જેમ	-7.86082
▁ગ	-7.86091
▁0	-7.86515
am	-7.866
▁ટેટૂ	-7.86925
બી	-7.87563
▁કી	-7.87997
▁સક્રિય	-7.88099
▁ખૂબ	-7.88474
સા	-7.88572
▁દ	-7.88666
▁W	-7.88942
▁*	-7.89023
ષ	-7.90191
▁માંથી	-7.90309
▁દિવસ	-7.90558
ેલ	-7.90823
▁સંગ્રહ	-7.90848
▁માપ	-7.90876
▁વ્યક્તિ	-7.9098
▁પી	-7.91014
▁18	-7.91339
ાઈ	-7.91351
▁સેવા	-7.92189
▁શોધ	-7.92194
▁ફોલ્ડર	-7.92511
ur	-7.92706
▁to	-7.92744
▁શરૂ	-7.93481
▁ઉત્પાદન	-7.94006
15	-7.94413
ીંગ	-7.94666
ર્ટ	-7.94777
02	-7.95036
દા	-7.9543
▁મદદ	-7.95521
▁O	-7.95784
▁મો	-7.95978
▁c	-7.96098
▁નિષ્ફળ	-7.96177
ન્ટ	-7.96356
▁કરેલ	-7.96444
▁ઈસુ	-7.96781
ch	-7.97154
▁તેમના	-7.97245
▁V	-7.97544
વામાં	-7.97848
ૅ	-7.97864
▁પા	-7.98063
▁ચિત્ર	-7.98518
▁15	-7.98569
▁વિચાર	-7.98605
▁સંપર્ક	-7.98746
▁ઈ	-7.98872
▁શ્રેષ્ઠ	-7.98951
▁બતાવો	-7.98989
://	-7.99144
▁સર્વર	-7.99446
▁આધાર	-7.99949
la	-8.00105
ાઇ	-8.00177
▁અમારી	-8.00289
01	-8.00618
▁કિંમત	-8.00925
કી	-8.01406
▁સિ	-8.02102
▁સ્થિતિ	-8.0213
40	-8.02203
તે	-8.02483
▁કહે	-8.0279
▁બીજા	-8.03178
ૉ	-8.03457
▁ત	-8.03461
▁ખરેખર	-8.03674
કે	-8.03986
▁£	-8.04432
▁p	-8.04462
▁યુ	-8.04739
▁સ્	-8.04752
co	-8.04915
▁ઉપકરણ	-8.05112
ડો	-8.05226
▁આપે	-8.05262
ટા	-8.05451
અ	-8.0548
્યું	-8.05485
મો	-8.05541
▁મશીન	-8.06074
▁લો	-8.06411
▁ઘણા	-8.06642
03	-8.06852
▁શક્યા	-8.07098
ic	-8.07195
શો	-8.07268
)...	-8.07393
▁આગળ	-8.07572
▁રે	-8.07591
▁જગ્યા	-8.07606
નિ	-8.0765
▁મુખ્ય	-8.08278
16	-8.08326
▁જરૂર	-8.0847
&	-8.08472
J	-8.08721
▁કેવી	-8.08824
▁translation	-8.08987
60	-8.09231
▁©	-8.09315
▁સંપૂર્ણ	-8.09537
બા	-8.09617
સ્	-8.09643
▁કરશે	-8.09784
સે	-8.09963
▁વિન્ડો	-8.09967
▁હો	-8.10125
25	-8.10322
▁11	-8.10375
▁વપરાશકર્તા	-8.10504
▁નિ	-8.10822
▁2017	-8.10843
▁ગુજરાતી	-8.11
▁ધ	-8.11118
▁પ્રક્રિયા	-8.11214
24	-8.1146
▁ડી	-8.11544
ter	-8.11738
▁મેં	-8.118
જે	-8.11866
મ્પ	-8.12065
▁ડે	-8.12416
▁not	-8.1246
▁ઈસુએ	-8.12881
▁ફક્ત	-8.12976
▁સામાન્ય	-8.13022
▁કોડ	-8.13337
તું	-8.13441
]	-8.13597
ઠ	-8.14056
ભ	-8.14163
▁સં	-8.14193
▁ભ	-8.14273
▁નેટવર્ક	-8.14545
ીય	-8.14756
▁need	-8.15237
05	-8.15238
▁જવાબ	-8.15348
▁ખ	-8.15353
▁સુયોજિત	-8.15403
▁શા	-8.15503
▁સ્થાન	-8.15531
me	-8.15655
▁of	-8.15694
Z	-8.15784
ાયેલ	-8.1599
▁વિશ્વાસ	-8.16539
▁સો	-8.16625
▁મૂળભૂત	-8.16896
▁અહીં	-8.16975
ad	-8.17314
▁સૌથી	-8.17328
18	-8.17428
▁ઉચ્ચ	-8.17722
▁તેણે	-8.17817
j	-8.17997
▁બોલ	-8.18366
▁સે	-8.18519
▁પ્રવેશ	-8.18762
▁24	-8.18813
type	-8.18823
િન	-8.18884
દી	-8.19152
▁રહે	-8.19248
▁વધારે	-8.19329
▁લોકોને	-8.19787
il	-8.20008
કાર	-8.20134
ટર	-8.20169
▁ઘર	-8.20204
નુ	-8.2025
ol	-8.20251
▁બનાવવા	-8.20537
▁વિષે	-8.20656
લ્	-8.20893
▁and	-8.20899
▁ઉત્પાદનો	-8.20929
▁ડોલર	-8.2094
પા	-8.21351
▁જ્યાં	-8.21438
▁16	-8.21444
▁ઉપર	-8.21479
▁અર્થ	-8.21639
▁કરતાં	-8.21727
▁માણસ	-8.21789
▁સ્તર	-8.2183
ma	-8.22152
te	-8.22177
▁સંખ્યા	-8.22189
▁નવા	-8.22209
06	-8.2227
us	-8.22363
mahima	-8.22415
▁m	-8.22498
▁મોટા	-8.22586
તિ	-8.22802
▁અંત્ય	-8.23337
▁૧	-8.23397
▁કાર્ય	-8.23402
▁ખ્રિસ્ત	-8.2348
▁ચાઇના	-8.23567
▁જોડાણ	-8.23755
ન્ડ	-8.23992
▁દર	-8.24173
▁કંપની	-8.24197
▁વસ્તુઓ	-8.24335
▁પોસ્ટ	-8.24481
એમ	-8.24871
▁[	-8.24903
▁કરવાનું	-8.25003
86	-8.25178
▁દાખલ	-8.25557
07	-8.25669
st	-8.26012
un	-8.26037
14	-8.26077
▁બધી	-8.26187
▁કાઢી	-8.2646
મિ	-8.26467
▁ડિસ્ક	-8.26901
▁વેબસાઇટ	-8.26924
▁‘	-8.27092
રિ	-8.2718
▁30	-8.27267
▁વસ્તુ	-8.27639
-1	-8.27642
ૈ	-8.27762
▁નીચે	-8.27907
▁does	-8.27963
▁અમને	-8.28018
▁લિ	-8.28301
▁14	-8.2833
લિ	-8.28365
▁f	-8.28375
મેલ	-8.28413
▁કરવાની	-8.28505
▁માંગો	-8.28534
13	-8.28536
ડે	-8.28684
▁જુઓ	-8.28839
મે	-8.28899
▁લખાણ	-8.28924
▁રિ	-8.28946
22	-8.28987
▁probably	-8.29165
જો	-8.2926
li	-8.29507
▁નહીં	-8.29592
▁હે	-8.29781
▁કર્યો	-8.29829
19	-8.29848
▁સરળ	-8.29888
▁પાસવર્ડ	-8.29905
▁શ	-8.2992
▁મફત	-8.29965
▁પસંદગી	-8.30081
id	-8.30181
▁વિવિધ	-8.30398
▁25	-8.30408
▁યોગ્ય	-8.30461
▁બનાવો	-8.30756
ગા	-8.30912
▁જી	-8.3121
ંક	-8.31452
▁હશે	-8.31634
▁પહેલા	-8.31962
▁તેમને	-8.32102
▁ખા	-8.32194
di	-8.322
ેશન	-8.32325
▁વે	-8.32442
▁Windows	-8.33484
ીઓ	-8.3351
▁વર્ણન	-8.33548
▁કરતા	-8.33902
’	-8.33922
ંડ	-8.34091
▁સ્વ	-8.3451
સો	-8.34535
▁@	-8.3455
▁કાર્યક્રમ	-8.34633
ેડ	-8.34831
સ્ત	-8.3485
▁અપ	-8.34865
▁પાણી	-8.34869
ir	-8.34914
શા	-8.34964
▁તમામ	-8.35226
99	-8.35275
ર્ક	-8.35516
▁સામગ્રી	-8.35574
▁ગુણવત્તા	-8.35617
▁13	-8.3564
યુ	-8.35724
▁2016	-8.35834
▁મુક્ત	-8.35876
▁બી	-8.36085
▁રમત	-8.36151
▁જરૂરી	-8.36317
▁સ્પષ્ટ	-8.36336
▁U	-8.36622
ાં	-8.36665
▁કર્યું	-8.36869
▁૫	-8.36971
ાવ	-8.37179
▁૨	-8.37256
▁જાય	-8.37301
35	-8.37413
▁50	-8.37711
▁આપી	-8.37735
▁પૂર્ણ	-8.37935
is	-8.37968
ળા	-8.38127
▁કર	-8.38248
80	-8.38263
▁પો	-8.38388
▁ઇમેઇલ	-8.38476
▁થ	-8.38538
ઉ	-8.38566
▁ડ	-8.38699
op	-8.38928
Comment	-8.38959
▁સુ	-8.3909
04	-8.39183
▁તથા	-8.39567
ખા	-8.39608
વર	-8.40097
▁બદલો	-8.40172
ay	-8.40737
21	-8.40815
▁વિસ્તાર	-8.40847
▁ફરીથી	-8.40895
એલ	-8.41196
se	-8.41521
▁કેટલાક	-8.41663
ઓને	-8.42316
17	-8.42424
”	-8.42446
08	-8.42706
▁ફેરફાર	-8.42771
▁તેઓએ	-8.4279
ધા	-8.43206
▁તાપમાન	-8.43499
▁શકાતુ	-8.43502
▁જા	-8.44003
ણી	-8.44371
Q	-8.44393
▁વચ્ચે	-8.44493
▁ફે	-8.4456
ગ્	-8.44691
▁મહેરબાની	-8.44851
▁બો	-8.44913
▁h	-8.44945
▁બનાવી	-8.45052
▁આવશે	-8.4514
▁આપવા	-8.45171
38	-8.4519
-2	-8.45432
▁મોબાઇલ	-8.45859
▁w	-8.46206
55	-8.46213
ate	-8.46234
માન	-8.46458
▁તારીખ	-8.46479
sh	-8.46498
▁જાણકારી	-8.46517
▁ટી	-8.46521
૧	-8.46585
▁Android	-8.46659
75	-8.47148
200	-8.47403
ia	-8.47422
▁ફ	-8.47519
▁૩	-8.47669
de	-8.47749
ut	-8.47798
▁17	-8.47848
▁કુલ	-8.4792
▁શહેર	-8.47936
lo	-8.48172
▁ક્લિક	-8.48188
ot	-8.48304
39	-8.4871
▁પહેલાં	-8.48724
▁મહત્તમ	-8.48798
▁આપણા	-8.49076
▁ગયો	-8.49212
▁પ્રેમ	-8.49214
▁મિ	-8.49278
ઘ	-8.49393
રુ	-8.49501
▁આવૃત્તિ	-8.49544
▁ઘ	-8.49598
▁કદ	-8.49775
હે	-8.49927
▁તમારે	-8.503
ang	-8.50352
▁વખતે	-8.50376
ly	-8.50388
▁પ્રયત્ન	-8.50472
▁વાત	-8.50695
▁પ્રતિ	-8.50768
000	-8.50799
▁ઉમેરો	-8.5107
▁ઓનલાઇન	-8.51136
સ્ક	-8.51365
▁કેન્દ્ર	-8.51442
ne	-8.51514
▁પોતાના	-8.51525
▁ગયા	-8.51616
▁અસમર્થ	-8.51671
▁b	-8.51698
▁નકલ	-8.51707
▁Y	-8.5179
▁ડિઝાઇન	-8.51825
▁થશે	-8.51969
▁"%	-8.52037
▁Z	-8.52112
▁લાગે	-8.52231
▁જોવા	-8.5232
એન	-8.5252
▁પાવર	-8.52524
▁અલગ	-8.52582
ent	-8.52652
▁અનુભવ	-8.52752
▁સોફ્ટવેર	-8.52984
▁ચાલુ	-8.53005
પો	-8.53233
ul	-8.53315
▁વર્તમાન	-8.53321
▁પ્રભુ	-8.5335
▁શ્રેણી	-8.53427
▁ભગવાન	-8.53451
▁મી	-8.53589
યો	-8.5364
ટે	-8.53655
+	-8.53918
32	-8.54015
▁સંવાદ	-8.54092
color	-8.54157
▁આપ	-8.54189
▁સાઇટ	-8.54251
હા	-8.54307
▁પ્રાપ્ત	-8.54318
=	-8.54485
36	-8.54499
બે	-8.54524
▁જોઈ	-8.54624
▁તેઓને	-8.54774
▁રી	-8.54809
▁વેબ	-8.5496
ver	-8.55013
ગી	-8.55038
િયન	-8.55148
▁સ્વાસ્થ્ય	-8.55184
▁સમાચાર	-8.55264
લેન્ડ	-8.5544
▁તેમ	-8.55482
90	-8.5551
▁મુ	-8.55556
▁અયોગ્ય	-8.55662
▁100	-8.55734
ક્ર	-8.55742
▁આદેશ	-8.55768
ટો	-8.5609
લ્ડ	-8.56136
દાર	-8.56136
95	-8.56193
▁200	-8.56361
▁અંદર	-8.56465
તુ	-8.5656
▁એસ	-8.5666
બો	-8.56712
48	-8.56737
િસ	-8.56791
ow	-8.56846
▁be	-8.56922
▁વાપરો	-8.56983
ation	-8.57144
▁મુલાકાત	-8.57166
▁વિડિઓ	-8.57256
-3	-8.57323
▁ચ	-8.57472
▁આવ્યો	-8.57521
▁ડિ	-8.57566
no	-8.57603
▁Re	-8.57769
મ્બ	-8.5784
▁કેસિનો	-8.57925
▁વેચાણ	-8.57926
▁ગા	-8.57958
▁કર્યા	-8.58058
▁શકતા	-8.5816
45	-8.58463
▁૪	-8.58494
prasa	-8.58581
28	-8.58882
65	-8.59051
▁v	-8.5914
ers	-8.5929
ho	-8.59327
23	-8.59381
▁સાધનો	-8.59402
▁નંબર	-8.59422
▁ઉપ	-8.59601
્ર	-8.59974
ણા	-8.60055
િય	-8.60073
▁વિકલ્પો	-8.6012
▁વર્ગ	-8.60124
Electronic	-8.60153
વર્	-8.60295
▁બાળકો	-8.60345
88	-8.60387
લ્સ	-8.60448
▁ખાસ	-8.6046
તર	-8.60512
▁ખોલો	-8.6052
▁https	-8.60625
વુ	-8.60646
▁હા	-8.60743
રણ	-8.61124
▁વગેરે	-8.61244
▁સારી	-8.61337
ળી	-8.6151
▁ઉત્તર	-8.61511
pe	-8.61627
09	-8.61705
▁આત્મા	-8.61803
hk	-8.61895
▁મોડેલ	-8.62203
all	-8.62245
▁http	-8.6243
▁વરતાલ	-8.62433
www	-8.6259
▁re	-8.62837
▁આવ્યું	-8.62883
સિ	-8.62893
પર	-8.63133
▁તું	-8.636
▁ખાતરી	-8.6381
▁ખાલી	-8.63996
▁જૂથ	-8.64174
શન	-8.64313
▁મહિના	-8.6468
▁ટો	-8.64777
▁g	-8.6524
▁કોઈપણ	-8.65364
70	-8.65393
to	-8.65608
▁સર્વ	-8.65862
▁ડો	-8.65948
▁EU	-8.65982
▁કરવું	-8.66009
▁મળી	-8.66251
▁જેવા	-8.66306
▁ક્રિયા	-8.6632
જન	-8.6641
▁૭	-8.66668
લેટ	-8.66818
▁22	-8.66883
▁રો	-8.66945
શ્	-8.67016
▁ભરતી	-8.67115
▁બાજુ	-8.67201
▁is	-8.67315
ગો	-8.67335
ઇન	-8.67356
ર્ડ	-8.67499
▁વિકાસ	-8.67813
▁જોઇએ	-8.67825
ેટ	-8.6784
આર	-8.67981
▁એક્સ	-8.67986
and	-8.68122
26	-8.68201
▁હોઈ	-8.68217
વ્ય	-8.68231
mo	-8.68274
33	-8.68389
▁શોધી	-8.68434
▁જીવ	-8.68587
▁નં	-8.68629
▁કોઇ	-8.68646
▁થીમ	-8.68649
▁બટન	-8.68654
પ્	-8.68698
ાસ	-8.6871
▁કરીએ	-8.68751
દિ	-8.68881
▁સાધન	-8.6889
પે	-8.68903
૦	-8.68904
ર્મ	-8.69012
▁પરવાનગી	-8.69374
▁રાખ	-8.69386
um	-8.69398
59	-8.69433
▁જેથી	-8.69466
▁Infinite	-8.69513
om	-8.69608
▁સ્થાપિત	-8.69823
વાનું	-8.69847
▁લી	-8.69996
▁હાથ	-8.70056
▁ભારત	-8.70103
▁મેળવી	-8.70241
▁for	-8.70264
▁અંત	-8.70267
▁ફોન્ટ	-8.70282
▁ચો	-8.70521
▁બા	-8.70538
ંટ	-8.70647
▁કિ	-8.70828
▁પૂર	-8.71059
▁થયો	-8.71207
▁પડ	-8.71233
▁લેખ	-8.7129
▁તરફ	-8.71296
na	-8.71371
ૌ	-8.71379
▁લા	-8.71418
▁40	-8.71874
▁ડિરેક્ટરી	-8.7202
ti	-8.72237
શી	-8.72271
▁ઓળખ	-8.72317
net	-8.72652
▁અવાજ	-8.72691
▁ક્ર	-8.72717
ૃ	-8.72769
હો	-8.72859
▁યુએસ	-8.72968
▁x	-8.72993
27	-8.731
IN	-8.7315
▁સ્ક્રીન	-8.73172
▁ત્રણ	-8.73351
ag	-8.73439
ફ્ર	-8.73589
29	-8.73746
em	-8.73778
▁ક્ષમતા	-8.73823
▁સારંગપુર	-8.73823
▁થયા	-8.73895
▁આવ્યા	-8.74022
ex	-8.74099
▁દેવે	-8.7415
▁•	-8.74154
▁ઘણી	-8.74235
▁દા	-8.74335
▁સુરક્ષિત	-8.74399
▁દેશ	-8.74463
▁ગુ	-8.74472
▁Ma	-8.74587
▁21	-8.74715
▁સરકાર	-8.74866
ંદ	-8.74922
▁ઉત્પાદકો	-8.75184
ડિ	-8.7519
વાર	-8.75242
▁ઓગસ્ટ	-8.7527
▁સરનામું	-8.75284
da	-8.75558
ત્	-8.7565
▁લઈ	-8.75688
▁કુ	-8.75898
37	-8.75952
66	-8.76052
85	-8.7622
▁28	-8.7633
મેન્ટ	-8.76368
▁માર્ગ	-8.76374
▁Ch	-8.76467
▁2020	-8.76493
▁સ્ટીલ	-8.76546
બર	-8.766
▁યજમાન	-8.76835
▁તેમની	-8.76944
▁»	-8.76947
▁કૃપા	-8.77132
▁પૂર્વ	-8.77226
▁પૃષ્ઠ	-8.7733
▁હિ	-8.77474
▁info	-8.77691
ite	-8.77769
▁નિયંત્રણ	-8.77927
▁માન્ય	-8.7795
ર્ન	-8.78024
▁કોલ	-8.78248
▁by	-8.78322
વાન	-8.78367
▁વાપરવા	-8.78407
world	-8.78427
▁ચા	-8.78428
▁કાર્ડ	-8.78487
▁બધું	-8.78593
▁°	-8.78603
▁આજે	-8.78629
▁થયું	-8.78737
▁ઑનલાઇન	-8.78929
▁શોધો	-8.79038
બ્ર	-8.79118
47	-8.79142
▁ધ્યાન	-8.79398
56	-8.79424
▁બોનસ	-8.79436
▁શરૂઆત	-8.79639
▁સ્ત્રોત	-8.79739
="	-8.79754
ca	-8.79856
▁પૂરી	-8.79929
77	-8.80006
▁ગે	-8.80015
▁પ્રમાણપત્ર	-8.80341
▁રહી	-8.80359
ta	-8.80444
ીએ	-8.80473
58	-8.80585
ab	-8.80621
▁એચ	-8.80778
▁ફરી	-8.80792
▁દસ્તાવેજ	-8.80855
ha	-8.8104
im	-8.81163
ભા	-8.81189
▁રાજ્ય	-8.81207
31	-8.81461
ઢ	-8.81696
▁દો	-8.81782
▁23	-8.81845
▁યાદ	-8.82037
▁આઇ	-8.82082
▁યુનિવર્સિટી	-8.82102
ફે	-8.82466
▁ભાષા	-8.82477
▁હંમેશા	-8.82501
▁કૉપિરાઇટ	-8.82519
ટ્સ	-8.82568
હું	-8.82591
▁રાખો	-8.82619
ત્ર	-8.82788
▁ચિ	-8.82834
▁આયાત	-8.8284
34	-8.82918
▁મૃત્યુ	-8.82939
he	-8.8299
▁ચોક્કસ	-8.83036
▁=	-8.83114
org	-8.83147
▁પાપ	-8.83212
▁(%	-8.83288
100	-8.83362
▁બંધારણ	-8.83464
▁પાથ	-8.8351
▁ચે	-8.8352
▁રાખવા	-8.83591
▁તૈયાર	-8.83628
▁સ્થાપના	-8.83686
લું	-8.83739
▁વજન	-8.8386
ER	-8.8387
▁કાર	-8.83897
▁શોધવા	-8.83935
49	-8.84181
▁2013	-8.84209
▁પાનું	-8.84254
vi	-8.84354
ંચ	-8.84566
▁નકશા	-8.84631
▁રહ્યો	-8.84737
▁સમ	-8.84831
▁શરીર	-8.84846
▁નોંધ	-8.84955
▁ઓફ	-8.85028
▁બનાવ	-8.85138
▁સ્વીકાર	-8.85169
▁લેવા	-8.85181
▁મેનુ	-8.85387
▁નાના	-8.85395
va	-8.85439
lu	-8.85535
▁ધરાવે	-8.85595
46	-8.85701
▁શ્રી	-8.85728
▁સંદેશા	-8.85792
▁દેખાવ	-8.85951
▁લિમિટેડ	-8.86135
41	-8.8617
▁૬	-8.86172
ફા	-8.86503
57	-8.86509
q	-8.86662
ત્ત	-8.86782
▁સમાપ્ત	-8.86787
$	-8.86917
મુ	-8.87076
ki	-8.87117
દ્ધ	-8.87158
▁જૂન	-8.87207
▁અસર	-8.87259
ry	-8.87305
▁60	-8.87395
▁કલાક	-8.87454
ip	-8.87551
▁વિકલ્પ	-8.87595
2019	-8.87748
▁સમયે	-8.87889
▁આપોઆપ	-8.87993
૨	-8.88103
▁માણસો	-8.88194
▁ટેકનોલોજી	-8.88214
▁હેક	-8.88408
▁Constellation	-8.885
સ્ટે	-8.88543
98	-8.88562
▁નિષ્ફળતા	-8.88655
68	-8.88669
▁2015	-8.88714
▁બની	-8.88743
▁ક્	-8.88836
69	-8.88894
યર	-8.89003
up	-8.89006
▁લાલ	-8.89129
▁મેળવવા	-8.89143
▁પાછળ	-8.89152
▁આપ્યો	-8.8929
▁પરિવાર	-8.89342
રૂપ	-8.89447
53	-8.89456
ક્ટ	-8.89615
▁પડશે	-8.89617
ff	-8.89746
51	-8.89787
▁છ	-8.89841
ટુ	-8.89877
▁એપિસોડ	-8.89886
▁ઉદ્યોગ	-8.90003
▁વી	-8.90151
▁જાન્યુઆરી	-8.90224
▁મિનિટ	-8.9045
▁2014	-8.90643
ine	-8.90649
▁રમતો	-8.90719
▁નિષ્ક્રિય	-8.90917
▁કર્યુ	-8.91031
▁પ્રકાશ	-8.91067
ard	-8.91164
▁વિના	-8.91229
▁24.00	-8.91255
▁સ્થાનિક	-8.9127
▁કારણે	-8.91471
▁Pro	-8.91648
▁સરેરાશ	-8.91701
▁લાગુ	-8.91743
▁In	-8.92303
▁પ્રશ્નો	-8.92363
▁માન	-8.92392
્ડ	-8.92457
▁ફાઇલો	-8.9246
▁પાડે	-8.92509
▁ટ્ર	-8.9264
પણ	-8.92664
સુ	-8.92719
▁પ્રોજેક્ટ	-8.92737
▁જુલાઈ	-8.92858
▁યોજના	-8.9295
▁જાણ	-8.93011
▁t	-8.93016
ment	-8.93141
▁ચેનલ	-8.93208
est	-8.93216
▁સામે	-8.9334
▁પાછા	-8.93341
▁પડે	-8.93371
ack	-8.93399
76	-8.93607
▁થવા	-8.93939
્ઝ	-8.93974
▁No	-8.94036
▁હોવા	-8.94082
▁પુન	-8.94166
,000	-8.94233
▁બીજી	-8.94349
per	-8.94454
વાળા	-8.94485
▁Google	-8.94487
▁રાષ્ટ્રીય	-8.94488
મ્	-8.94522
▁on	-8.94552
ઝી	-8.94568
▁ડેસ્કટોપ	-8.94723
૩	-8.94764
▁સંદેશાઓ	-8.94877
▁સંગ્રહો	-8.95
▁નાખ	-8.95001
યોગ	-8.95069
▁ખાનગી	-8.95078
▁ખર્ચ	-8.95091
▁પિતા	-8.95252
63	-8.95408
▁આનંદ	-8.95436
ગ્ર	-8.9547
ac	-8.95471
▁સારા	-8.95491
bo	-8.9551
▁૧૧	-8.95597
▁થઇ	-8.95645
▁શિક્ષણ	-8.95675
▁વપરાશ	-8.95693
નિક	-8.95844
▁૯	-8.96337
42	-8.96339
ંધ	-8.96463
▁નકશો	-8.9651
પિ	-8.9659
67	-8.96711
▁×	-8.96712
▁કરવો	-8.96727
▁કદાચ	-8.9675
▁જાહેર	-8.96867
ell	-8.96952
▁પોર્ટ	-8.97051
ત્વ	-8.97075
ting	-8.97295
▁k	-8.97364
▁નજીક	-8.97476
▁આપણને	-8.97479
▁પ્રો	-8.97528
▁પગ	-8.97613
▁ઇન્	-8.97831
▁Q	-8.97915
▁ટે	-8.97927
▁ખરાબ	-8.97961
hi	-8.98052
▁જાઓ	-8.98139
52	-8.98517
▁મન	-8.9875
▁સમજ	-8.98751
ev	-8.98776
ies	-8.98882
ેલા	-8.9889
ાંક	-8.9895
▁ભૂ	-8.99053
▁આપો	-8.99201
▁ચાલ	-8.99241
61	-8.99543
▁લક્ષ્ય	-8.99558
▁બનાવે	-8.99568
બુ	-8.99661
▁શક્તિ	-8.99696
▁શક્ય	-8.99793
▁ઝડપી	-8.99839
▁~	-8.99948
▁ખાતે	-8.99997
▁એપ્રિલ	-9.00055
▁છોડી	-9.0007
▁ઈસુને	-9.00217
ફો	-9.00228
ill	-9.00327
▁પરિ	-9.00394
ge	-9.00584
▁બરાબર	-9.00679
91	-9.00683
▁ઑ	-9.00759
one	-9.00797
▁અજ્ઞાત	-9.00804
▁27	-9.00854
▁26	-9.0086
▁સેવાઓ	-9.00901
▁તમારું	-9.00965
▁ખબર	-9.0097
છ	-9.01024
▁રૂપરેખાંકન	-9.01055
▁બિન	-9.01201
▁વ્યક્તિગત	-9.01326
▁નક્કી	-9.01433
▁બદલી	-9.01475
tion	-9.01528
ઝા	-9.0159
▁ચાર	-9.01672
▁ફેક્ટરી	-9.01686
▁પ્રમાણે	-9.01692
ST	-9.01708
SS	-9.01811
▁સ્ત્રી	-9.01829
ાવવા	-9.01835
44	-9.01873
ON	-9.02015
ou	-9.02023
▁રોડ	-9.02054
▁મોટી	-9.0226
થા	-9.0241
તાં	-9.02466
▁ક્ષેત્ર	-9.02505
▁લગભગ	-9.02575
▁ટિપ્પણીઓ	-9.02715
\	-9.02781
▁(32/64	-9.02831
▁કરવાનો	-9.0287
▁લેખક	-9.02973
ક્ટર	-9.02988
▁ન્યૂ	-9.03206
▁હેઠળ	-9.03215
▁જશે	-9.03271
°	-9.03375
▁બ્લોગ	-9.03474
▁શક	-9.03494
ઝર	-9.03566
▁સુયોજનો	-9.03601
▁label	-9.03601
▁મહિનો	-9.03601
▁નવું	-9.03608
ચા	-9.03749
▁પેનલ	-9.03776
▁મૂળ	-9.03823
ce	-9.03969
▁વિચારો	-9.03996
▁ગો	-9.04074
▁વોલ્યુમ	-9.04118
▁મીડિયા	-9.04129
▁મેળવો	-9.04135
500	-9.04308
▁ખાતા	-9.04391
gu	-9.04411
▁l	-9.04629
▁વગર	-9.04687
ેજ	-9.04742
▁પુનઃ	-9.04781
89	-9.04787
▁વિગતો	-9.04865
એફ	-9.04921
▁સ્ટોક	-9.05041
▁શબ્દ	-9.0509
▁હાઇ	-9.05119
▁અનુસર	-9.05179
ંબ	-9.0519
▁ચિહ્ન	-9.05318
▁ખો	-9.05502
▁કરનાર	-9.05701
▁દેવની	-9.05705
કરણ	-9.05713
▁સત્ય	-9.05801
સ્થ	-9.05844
▁29	-9.05867
96	-9.05974
સં	-9.05988
કાળ	-9.06124
▁કોણ	-9.0624
pa	-9.06347
ચાર	-9.06554
▁સમાવેશ	-9.06572
▁રદ	-9.06633
:%	-9.06721
ખી	-9.06835
▁તક	-9.0685
▁રેકોર્ડ	-9.06878
end	-9.0693
▁૧૦	-9.07116
▁ઓફર	-9.07123
મેન	-9.0741
્વ	-9.07465
▁નવેમ્બર	-9.07546
▁વિશ્વ	-9.07559
▁ખસેડો	-9.07584
92	-9.07664
▁કલ્યાણ	-9.07681
૯	-9.07711
▁ગણ	-9.07796
્યૂ	-9.07797
▁CO	-9.07859
ci	-9.07953
ba	-9.08003
▁રાહ	-9.08027
▁કડી	-9.08192
▁ક્યાં	-9.08225
po	-9.08259
▁ઉદાહરણ	-9.08355
▁વાર્તા	-9.08355
▁શેર	-9.08586
▁સર	-9.0871
▁પ્રકારના	-9.08739
ંત	-9.0878
▁શીર્ષક	-9.08897
▁સંદેશો	-9.08915
▁આધારભૂત	-9.0892
*	-9.08946
▁સત્ર	-9.09003
▁સાંભળ	-9.09007
૫	-9.09028
▁અમેરિકા	-9.09033
▁Gujarati	-9.09236
▁શિ	-9.09286
▁અગાઉ	-9.09306
64	-9.09349
art	-9.09409
?”	-9.0943
▁પ્રયાસ	-9.09443
54	-9.09453
▁જવા	-9.09477
▁Free	-9.09484
ઃ	-9.09566
▁મહાન	-9.09615
ap	-9.09629
▁તાલીમ	-9.09716
-8	-9.09792
દાન	-9.09922
PS	-9.09986
લ્ટ	-9.10063
72	-9.10151
der	-9.1018
▁ટ્રેક	-9.10217
▁પેપર	-9.10219
▁એપ્લિકેશન	-9.1023
▁વાર	-9.10265
cm	-9.103
ર્જ	-9.10302
US	-9.10309
▁પોતાની	-9.10407
એક્સ	-9.10407
▁દેવના	-9.10426
▁સમીક્ષા	-9.10575
78	-9.10665
▁દબાણ	-9.1068
▁Sh	-9.10689
43	-9.10818
▁જ્ઞાન	-9.1117
87	-9.11181
▁જેટ	-9.11185
▁કહી	-9.1119
▁ભા	-9.11213
-4	-9.11215
ાઉ	-9.1127
▁બાર	-9.11303
▁પ્રકાશિત	-9.11325
ફ્ટ	-9.11534
▁એન્	-9.11593
LE	-9.11602
▁Vessoft	-9.11654
▁કરવી	-9.11656
ઝિ	-9.1171
▁બનાવવામાં	-9.11772
▁De	-9.11773
▁બદલવા	-9.11932
▁સેલ	-9.12012
ru	-9.12022
▁મોટર	-9.12041
▁આઉટપુટ	-9.12074
▁મિત્ર	-9.12078
▁આધારિત	-9.12087
ન્જ	-9.12123
day	-9.12147
▁//	-9.12176
▁રહેશે	-9.12214
ધી	-9.1225
we	-9.12313
▁બદલ	-9.12347
▁આભાર	-9.12373
our	-9.12616
▁વિષય	-9.12639
▁પ્લગઇન	-9.12644
▁શકીએ	-9.12654
▁de	-9.12676
▁રચના	-9.12735
▁સંશોધન	-9.12778
93	-9.1278
▁પેકેજ	-9.12805
▁કંઈ	-9.12845
િટ	-9.12899
nd	-9.13019
ઇલ	-9.1305
▁સેટ	-9.13072
ide	-9.13181
▁લોડ	-9.13309
શ્ર	-9.1344
73	-9.1346
▁પવિત્ર	-9.1363
▁પ્રોડક્ટ્સ	-9.13673
▁સંબંધિત	-9.13693
ગે	-9.13698
ટલ	-9.13711
▁ગ્રાહકો	-9.13873
94	-9.13902
▁500	-9.13921
62	-9.13988
શિ	-9.13997
▁બાળક	-9.14012
▁સહિત	-9.14025
ચો	-9.14157
ટન	-9.14169
▁ઓક્ટોબર	-9.14202
▁તમારો	-9.14202
ve	-9.14262
▁સુંદર	-9.14271
ec	-9.14297
▁અપડેટ	-9.14346
ચર	-9.14399
▁શકાતી	-9.14489
▁St	-9.14598
▁કઈ	-9.14725
▁ટોચ	-9.1478
▁સહ	-9.14911
▁મોડલ	-9.14999
MP	-9.15047
▁કાર્યક્રમો	-9.15098
▁31	-9.15149
▁ડ્ર	-9.15192
▁યહૂદિઓ	-9.15194
▁બીટ	-9.15452
ધાર	-9.15559
84	-9.15598
એચ	-9.15604
▁તારા	-9.15652
▁કરતી	-9.1567
▁લખ	-9.15707
▁સ્પ	-9.15749
▁એવી	-9.15795
હી	-9.15805
▁નવો	-9.15864
▁મોકલો	-9.15902
હક	-9.1595
સ્ટર	-9.15967
82	-9.16029
▁ફાઈલો	-9.16045
ટિ	-9.16058
▁સુરક્ષા	-9.16104
શું	-9.16125
ant	-9.16206
▁દુ	-9.16339
ચી	-9.16355
AT	-9.1643
▁સમગ્ર	-9.1654
97	-9.16595
land	-9.16597
▁લાંબા	-9.16669
▁આપવામાં	-9.16867
▁આવેલ	-9.16873
▁દક્ષિણ	-9.16904
▁ફા	-9.16912
▁માનવ	-9.17061
go	-9.17208
ચે	-9.17368
ક્લ	-9.17391
▁કહેવા	-9.17391
જુ	-9.17431
▁વાપરી	-9.17511
▁લીટી	-9.17528
weather	-9.17554
.’	-9.1758
▁એટલે	-9.17855
▁પીસી	-9.17949
▁બિંદુ	-9.18
▁ભર	-9.18013
▁ફોટો	-9.18171
▁વધ	-9.18296
▁રંગો	-9.183
view	-9.18748
િયો	-9.18766
▁શબ્દો	-9.1883
▁તપાસ	-9.189
-5	-9.18926
au	-9.18943
ue	-9.19172
ઠા	-9.1919
▁મારો	-9.19194
▁વિકિપીડિયા	-9.19199
▁you	-9.19274
fe	-9.19295
▁સંદર્ભ	-9.19652
pl	-9.19757
ast	-9.19851
dr	-9.19983
▁રૂપરેખા	-9.2011
▁જેવી	-9.20186
▁દેશો	-9.20232
▁અભ્યાસ	-9.20254
▁URL	-9.20263
▁બજાર	-9.20266
▁ચકાસ	-9.20285
ga	-9.2032
tra	-9.20351
▁પ્રશ્ન	-9.20449
▁વખત	-9.20565
▁રોક	-9.20652
▁સફેદ	-9.20718
▁સ્થળ	-9.20735
les	-9.20869
▁વ્યવસ્થાપક	-9.20871
▁સારું	-9.20929
ub	-9.20945
ob	-9.20968
ick	-9.2098
▁લોકોએ	-9.20983
▁ટીમ	-9.20986
સ્પે	-9.20996
▁મોકલ	-9.21039
▁તેમણે	-9.21043
ber	-9.21125
▁રસ	-9.21179
▁ફો	-9.21183
▁35	-9.21185
od	-9.21221
▁સ્રોત	-9.21336
ધિ	-9.21343
▁પિ	-9.21431
દ્	-9.21767
▁ફ્લ	-9.21806
▁બને	-9.21975
ીકરણ	-9.22064
ષ્ટ	-9.22102
▁ફેબ્રુઆરી	-9.22104
▁બંને	-9.22426
▁શાળા	-9.22485
ઈન	-9.22603
વાય	-9.22629
▁રાખે	-9.22656
▁condition	-9.22727
હાસ્ય	-9.22974
▁આપણી	-9.23088
ash	-9.23153
▁Casino	-9.23182
ity	-9.23189
ts	-9.23191
▁એવું	-9.23289
ાઓ	-9.233
ka	-9.23313
ai	-9.23337
▁સત્તાધિકરણ	-9.23354
ભાવ	-9.23421
▁કરું	-9.23481
▁કોર	-9.23545
ર્ગ	-9.23684
79	-9.23702
▁અધિકાર	-9.23706
▁સમૂહ	-9.23719
લુ	-9.23727
ળો	-9.23766
-6	-9.23776
▁ઓડિયો	-9.23826
▁દર્શાવ	-9.23961
ak	-9.23976
▁કું	-9.24009
▁બિ	-9.24185
▁ઉત્	-9.2423
▁તકનીકી	-9.24296
▁પદ્ધતિ	-9.24301
ફિ	-9.24306
▁વડે	-9.24314
કર્તા	-9.24316
▁બાબતો	-9.24323
▁સહાય	-9.24329
▁ઉકેલ	-9.2447
▁હજુ	-9.24515
▁ઝડપ	-9.24563
▁રમ	-9.24595
▁લખવા	-9.24621
▁વિભાગ	-9.24661
ફી	-9.24662
▁સુધારો	-9.24753
▁કૂ	-9.24811
▁શો	-9.24889
પ્ટ	-9.2493
▁ખરીદી	-9.25011
૮	-9.25122
unit	-9.25208
man	-9.25321
71	-9.25395
▁ફિ	-9.25411
▁સમાન	-9.25443
▁બેગ	-9.25499
▁IP	-9.25654
▁શરતો	-9.25691
▁લીલા	-9.25753
fi	-9.25759
be	-9.25821
▁માગ	-9.25847
ize	-9.25944
ect	-9.26079
▁નાંખો	-9.26116
▁મુશ્કેલ	-9.26384
▁ટ્રેન	-9.26479
▁જુ	-9.26548
▁બ્રશ	-9.26565
▁છતાં	-9.26574
▁ટકા	-9.26596
▁નીતિ	-9.26599
▁થોડા	-9.26709
કૃત	-9.26741
▁વાયર	-9.26774
▁વાદળી	-9.26836
▁ડિસેમ્બર	-9.26871
▁પરિસ્થિતિ	-9.26871
ph	-9.2689
▁પૂછ	-9.26926
▁The	-9.27026
▁ડેટા	-9.27135
▁સંત	-9.27455
▁અનુ	-9.27505
▁કહું	-9.27522
▁GB	-9.2761
▁વ્યવસાય	-9.27623
▁કાચ	-9.2768
ig	-9.27683
▁વચન	-9.27751
che	-9.27792
▁સ્વાગત	-9.27852
▁અસરો	-9.27857
સ્ત્ર	-9.27887
આઈ	-9.27926
કુ	-9.28005
▁USA	-9.28024
▁જાણો	-9.28057
્રો	-9.28089
▁હોસ્ટિંગ	-9.28182
▁સંબંધ	-9.283
▁Mo	-9.28306
hu	-9.284
ea	-9.2844
▁32	-9.28448
▁ઇમેજ	-9.28514
▁ઓછી	-9.28545
▁ગુણ	-9.28645
▁ચેતવણી	-9.28677
દ્ર	-9.28699
▁તને	-9.28767
▁પુત્ર	-9.28817
▁ચકાસણી	-9.28955
▁ટૂલ	-9.2901
▁એન્ડ	-9.29111
▁ઊ	-9.29188
▁1000	-9.29287
▁લોગ	-9.29309
▁ચિત્રો	-9.29353
▁ધાર	-9.29389
▁રોગ	-9.29489
ાણ	-9.29512
IC	-9.29599
▁તેવી	-9.29735
▁ઉપકરણો	-9.29854
port	-9.30072
___	-9.30074
81	-9.30124
ist	-9.30177
▁પાવડર	-9.3018
▁મૂ	-9.30223
▁વિશ્વમાં	-9.30318
▁ચી	-9.3039
રૂ	-9.30408
74	-9.30558
▁રોજ	-9.30614
▁00:00:00	-9.30686
▁પહેલેથી	-9.30686
▁નિકાસ	-9.30688
▁ભાગો	-9.30705
▁અંતિમ	-9.31042
▁છબીઓ	-9.31057
▁એવા	-9.31068
ઇડ	-9.31075
ong	-9.31145
ass	-9.31338
▁બિલ	-9.31359
બ્	-9.31375
ક્ક	-9.31465
out	-9.31498
▁હોત	-9.31555
▁અટકાવ	-9.31657
▁વાંચી	-9.31673
▁ટેક	-9.31801
યે	-9.31841
▁પહોળાઈ	-9.31876
ice	-9.31912
રું	-9.31997
▁પુસ્તક	-9.32048
▁જોડાયેલ	-9.32167
▁સ્થિત	-9.32188
▁મજબૂત	-9.32219
sta	-9.32288
▁હાજર	-9.32412
▁તકતી	-9.32492
▁ક્રેડિટ	-9.32563
▁ડોમેઇન	-9.32563
io	-9.32711
▁લાભ	-9.32799
ock	-9.32801
▁સ્લોટ્સ	-9.32844
▁સમસ્યા	-9.32863
▁mo	-9.32932
યલ	-9.33089
▁પૃથ્વી	-9.33097
દો	-9.3315
▁વ્યાવસાયિક	-9.33254
ie	-9.33259
▁પિતર	-9.33305
▁do	-9.33343
con	-9.33357
▁પ્રવેશદ્વારની	-9.33428
▁વરસાદ	-9.33428
▁શૈલી	-9.33428
▁પરીક્ષણ	-9.33429
▁અક્ષર	-9.3347
▁ફર	-9.33506
ાંત	-9.33514
▁બચાવ	-9.33618
્લ	-9.33624
▁વિદ્યાર્થીઓ	-9.33725
ઍસ	-9.33908
▁સરનામાં	-9.33923
▁માર્ચ	-9.33979
છા	-9.3398
▁પાઉલ	-9.34002
▁જોયું	-9.34037
▁બદલે	-9.34045
▁માઉન્ટ	-9.34126
▁CD	-9.34139
▁પ્રવાસ	-9.34145
▁વપરાશકર્તાઓ	-9.34215
▁વિશિષ્ટ	-9.34301
▁કૉલ	-9.3442
▁બાબત	-9.34454
▁અમારો	-9.34478
▁મોડ્યુલ	-9.34487
▁જણાવ્યું	-9.34497
ian	-9.34562
ish	-9.34601
▁સંદેશ	-9.34629
▁ડા	-9.34632
▁મદદથી	-9.34639
ib	-9.34682
EL	-9.34751
ost	-9.34758
▁હોમ	-9.3478
્તિ	-9.34783
▁ઉત્પાદક	-9.34806
ંજ	-9.34834
▁બ્રાન્ડ	-9.34851
ion	-9.34881
▁ગમે	-9.34948
▁બ્લેક	-9.35006
-10	-9.35038
▁લાગ	-9.35071
િમ	-9.35092
ખો	-9.3511
log	-9.35171
▁છોડ	-9.35179
▁ચકાસો	-9.35311
▁સત્તાવાર	-9.3537
lic	-9.35408
▁2012	-9.35415
ધુ	-9.35502
▁કેલેન્ડર	-9.35546
▁૫૪	-9.35552
ke	-9.35684
▁મારફતે	-9.35713
▁ફી	-9.35725
▁રહ્યું	-9.35984
જ્ઞા	-9.36015
▁છેલ્લે	-9.36078
▁86-	-9.36079
▁મારે	-9.36089
▁એફ	-9.36188
▁રાજ	-9.36196
▁પસાર	-9.36286
PC	-9.36299
▁રૂપ	-9.36307
રિયા	-9.36348
વાળી	-9.36352
▁ટેબ	-9.36352
▁વિશાળ	-9.36427
▁રૂપરેખાંકિત	-9.36606
▁નોંધણી	-9.36644
if	-9.36656
▁હેતુ	-9.36722
2018	-9.36771
ટ્રો	-9.36773
NI	-9.36846
▁દ્દારા	-9.36965
▁જાહેરાત	-9.3697
▁ગુણધર્મો	-9.37039
▁ઈચ્છ	-9.37049
▁વપરાય	-9.37102
▁સમાવ	-9.3711
oc	-9.37146
▁સતત	-9.37146
▁j	-9.37217
ster	-9.37227
્રા	-9.37228
▁st	-9.37312
▁પ્લેટફોર્મ	-9.37328
pr	-9.37373
આઇ	-9.37374
સ્ટા	-9.3743
▁પટ્ટી	-9.37489
▁દરમિયાન	-9.37507
▁સ્થિર	-9.37507
▁વધારો	-9.37511
▁સ્ક	-9.37512
age	-9.37527
▁રહેવા	-9.37616
able	-9.37651
▁સુસંગત	-9.37688
act	-9.37814
▁પાંચ	-9.3793
▁મળે	-9.37995
▁પ્લાસ્ટિક	-9.38051
▁વેપાર	-9.38057
▁અવ	-9.38087
▁An	-9.38151
min	-9.38178
▁મીટર	-9.38232
▁બ્રાઉઝર	-9.38273
▁અસ	-9.38275
#	-9.38298
▁યુરોપ	-9.38334
▁પ્રાર્થના	-9.38416
cr	-9.3852
ID	-9.38574
▁દુનિયા	-9.38606
▁છાપ	-9.38611
str	-9.38819
િકલ	-9.38884
mi	-9.38891
▁HD	-9.38891
▁ઓછા	-9.38921
▁સાચવો	-9.38962
▁બતાવ	-9.39014
િડ	-9.39179
oo	-9.39289
83	-9.39445
▁દે	-9.39457
cc	-9.3952
▁કાળો	-9.39599
ance	-9.3982
▁મેઈલ	-9.39912
▁pro	-9.40133
બંધ	-9.40188
▁છેલ્લા	-9.40256
ઘા	-9.40338
▁નહી	-9.4043
▁ક્ષતિ	-9.40449
set	-9.40567
▁સંસ્થા	-9.40729
ર્ષ	-9.40745
▁રક્ષણ	-9.40825
▁બોક્સ	-9.40949
માર	-9.40984
▁ખોરાક	-9.41007
▁www	-9.41037
▁ચાલી	-9.4107
▁સારવાર	-9.41195
▁ભારતીય	-9.41253
▁લખી	-9.41306
▁ID	-9.41335
▁સ્તંભ	-9.41382
▁આગામી	-9.41432
ire	-9.41436
IS	-9.41483
lay	-9.41497
▁લેબલ	-9.41557
▁WordPress	-9.4157
▁forecast	-9.4157
▁સૂ	-9.41607
▁૮	-9.41669
gi	-9.41714
▁JOBiST	-9.41759
▁જઈ	-9.41778
▁બાકી	-9.41833
ન્ગ	-9.41841
▁કરશો	-9.41852
▁કાઢ	-9.41876
▁દવા	-9.41931
▁પૈસા	-9.41948
▁યોહાન	-9.41948
હિ	-9.4197
▁રૂ	-9.42013
▁મૂક	-9.42102
▁પરિવહન	-9.42137
▁આશા	-9.42144
▁ફોટા	-9.42182
▁વાસ્તવિક	-9.42303
▁પાસ	-9.4239
▁દર્શાવો	-9.42439
▁To	-9.42579
BAR	-9.4269
▁સંપર્કો	-9.42715
્રુ	-9.42736
ણે	-9.42739
▁બ્લોક	-9.4274
gr	-9.42852
▁Co	-9.4286
▁ધર્મ	-9.42995
સ્ટી	-9.43023
યન	-9.43044
▁મૂલ્ય	-9.43096
tic	-9.43137
▁or	-9.43196
વાદ	-9.43273
▁અનુસાર	-9.43288
▁રાજા	-9.43322
ક્ત	-9.43333
▁પાસેથી	-9.4335
ગર	-9.43381
▁તેમજ	-9.43408
▁પાઇપ	-9.43475
▁મેમરી	-9.43475
▁સ્ટોર	-9.43548
MA	-9.43556
▁ખોલી	-9.43581
▁ઇન્ટરફેસ	-9.43665
AP	-9.43685
ગુ	-9.43738
▁પરિણામ	-9.43904
▁અહેવાલ	-9.44051
▁અવગણ	-9.44052
▁જન્મ	-9.44053
New	-9.44218
▁પૂર્વદર્શન	-9.44245
▁`%	-9.44246
કેટ	-9.4425
દર	-9.44259
▁Ba	-9.44321
ક્શન	-9.44342
uk	-9.44418
▁પ્રિન્ટર	-9.44458
સ્પ	-9.44528
▁ક્રમમાં	-9.44537
િઆ	-9.44591
▁ખેંચ	-9.44827
ન્ડર	-9.4519
▁શિષ્યો	-9.45361
અર	-9.45374
▁સ્થિતિમાં	-9.45405
▁con	-9.45412
▁એકાઉન્ટ	-9.45413
use	-9.45445
▁કંપનીઓ	-9.45445
મહ	-9.45452
ગ્રામ	-9.4564
mb	-9.45654
▁ગ્રાહક	-9.45668
કામ	-9.45778
tri	-9.45792
▁with	-9.45806
▁ચાર્જ	-9.45828
▁ભાઈઓ	-9.4585
0.00	-9.45894
▁વાતો	-9.45951
▁અઠવાડિયા	-9.46002
▁ગ્રે	-9.46007
▁૧૨	-9.46008
સ્ટો	-9.46059
▁પ્રદાન	-9.46063
▁દિવસો	-9.46081
ft	-9.46135
(1	-9.46182
▁બોર્ડ	-9.46192
lex	-9.46222
▁મોકલવા	-9.46226
ase	-9.46245
bl	-9.46309
▁ઘટના	-9.46363
▁ઇનપુટ	-9.46397
▁ઔદ્યોગિક	-9.46397
tt	-9.46418
▁ચલાવવા	-9.46425
PA	-9.46461
0.0	-9.46593
▁ઇતિહાસ	-9.46595
▁સંભાળ	-9.46596
av	-9.46618
▁માર	-9.46679
▁Ho	-9.46695
▁વાંચો	-9.46768
ેલી	-9.46783
▁દિશા	-9.46795
ાવી	-9.46816
▁ઉપદેશ	-9.46872
▁દૂરસ્થ	-9.46913
unchpad	-9.46993
▁વિન્ડોઝ	-9.47176
▁બેટરી	-9.47195
▁હમણાં	-9.47232
▁એડ	-9.47376
▁ઘણો	-9.47393
▁અરજી	-9.47396
મ્યુ	-9.47535
▁જગ્યાએ	-9.47582
ov	-9.47584
▁ટીવી	-9.47589
▁Anirdesh	-9.47591
▁આંતરિક	-9.47615
ંપ	-9.47675
ust	-9.47732
▁વ્યાપક	-9.47792
а	-9.47792
પૂ	-9.4786
file	-9.47875
▁વીડિયો	-9.47933
▁૧૮	-9.48026
▁ટૅગ્સ	-9.48055
ર્વ	-9.48082
ja	-9.48089
ક્યુ	-9.48294
SE	-9.48388
ભૂત	-9.4845
▁મીમી	-9.48518
▁ઍ	-9.48536
undo	-9.48625
▁તારી	-9.48733
▁મેટલ	-9.48738
▁આઉટ	-9.48776
▁સૌ	-9.48798
-12	-9.4883
▁ગુમ	-9.48832
▁ન્યાય	-9.48845
▁અલ	-9.48956
▁વૈશ્વિક	-9.49003
▁weather	-9.49004
of	-9.49116
િલ	-9.49141
▁રહેલ	-9.49161
!”	-9.49308
▁પ્રકારની	-9.4935
▁સમીક્ષાઓ	-9.49383
▁સપ્ટેમ્બર	-9.49409
▁પાશ્વ	-9.49429
▁ગણતરી	-9.49614
int	-9.49653
▁બ્રા	-9.49673
▁ટોચના	-9.49752
▁બ્લ	-9.49807
▁૧૫	-9.49859
▁પરિમાણો	-9.49896
▁કમ્પ્યુટર	-9.50023
iv	-9.50039
ગ્રા	-9.50058
▁Be	-9.50098
pi	-9.50106
▁દૃશ્ય	-9.50207
TE	-9.50258
▁જાત	-9.50332
▁જેવું	-9.50426
િકા	-9.50448
▁સાફ	-9.5046
▁ક્યારેય	-9.50463
▁કંઈક	-9.50544
પ્સ	-9.5056
old	-9.50578
▁સ્તરો	-9.50609
paper	-9.50663
▁ડ્રાઇવ	-9.5075
▁Bonus	-9.50847
▁પસંદગીઓ	-9.50902
▁ઇચ્છ	-9.50907
▁મળ	-9.51127
ator	-9.51156
▁જાતે	-9.51196
▁રજૂ	-9.51268
૭	-9.51416
▁પાનાં	-9.51448
▁સૉફ્ટવેર	-9.51469
ન્ક	-9.51526
ger	-9.51559
▁બુ	-9.51619
▁size	-9.51705
ans	-9.51762
ડવા	-9.51778
▁મંદિર	-9.51839
▁બરફ	-9.51896
0.5	-9.52066
▁વાપર	-9.52205
▁લોકપ્રિય	-9.52305
SP	-9.52338
ord	-9.52342
ari	-9.52371
line	-9.52406
▁રાખી	-9.52483
▁પ્રિય	-9.52487
▁ઇન	-9.52551
▁વિકસ	-9.52597
CH	-9.5271
▁લઇ	-9.52789
િશ	-9.52813
ign	-9.52909
▁મહિલા	-9.52937
થે	-9.52959
▁કેશ	-9.52969
રેટ	-9.53093
▁ચીન	-9.5313
ran	-9.53226
123	-9.5328
તમે	-9.53355
▁આસપાસ	-9.5336
▁ધોરણ	-9.53361
▁લેસર	-9.5338
્રી	-9.53498
▁જીત	-9.5352
▁item	-9.53581
ah	-9.53657
▁તુ	-9.53681
▁કિંમતો	-9.5372
▁કરતો	-9.53739
▁દિવસે	-9.53961
▁દીકરો	-9.53998
▁પદચ્છેદન	-9.5407
▁ભાષાઓ	-9.54085
▁ઉમેરવા	-9.54114
▁ગીત	-9.54115
▁મુજબ	-9.54212
▁ફ્રી	-9.54257
▁નિયમ	-9.54291
tor	-9.54378
▁ફેસબુક	-9.54426
▁ફિલ્મ	-9.54427
▁કાગળ	-9.54427
ાઇડ	-9.5448
▁મળશે	-9.54484
▁બહુ	-9.54508
▁આપેલ	-9.54541
▁પાર્ક	-9.54543
પણે	-9.54563
▁ફૂલ	-9.5457
ઇસ	-9.54632
iz	-9.54668
▁પાડ	-9.54689
▁ગોઠવ	-9.54752
▁મહત્વ	-9.54782
મેટ	-9.54786
▁તરફથી	-9.54822
}	-9.54841
▁હવામાન	-9.54876
▁KDE	-9.54899
bu	-9.54925
ત્યા	-9.54932
MoHFW	-9.54947
▁પહોંચ	-9.55
ct	-9.55019
▁અમુક	-9.55288
▁જમીન	-9.55309
▁યા	-9.55387
▁આરોગ્ય	-9.55504
▁APK	-9.55507
ાઇઝ	-9.55562
બૂ	-9.55571
CT	-9.55625
▁બળ	-9.55626
▁ઘટક	-9.55648
▁સંચાલન	-9.55721
▁ડિગ્રી	-9.55732
ight	-9.55748
▁(1)	-9.55869
▁દુકાન	-9.55886
▁સંગીત	-9.55888
ll	-9.55894
▁પામ	-9.55909
е	-9.55938
▁sp	-9.55943
ાત્મક	-9.56007
▁રુ	-9.56017
લાઇન	-9.56028
▁Hack	-9.56043
▁ગામ	-9.56122
▁સરનામા	-9.56197
▁સૂચન	-9.56246
▁Li	-9.56263
▁રહ્યાં	-9.56287
▁bit	-9.5635
▁ફોલ્ડરો	-9.56369
▁HTML	-9.56374
▁લંબાઈ	-9.56374
પણું	-9.56388
▁૧૬	-9.564
Language	-9.56593
▁PM	-9.56702
▁ટ્રે	-9.56777
શાસ્ત્ર	-9.56792
▁ઈચ્છા	-9.56812
▁મોટો	-9.56922
▁બિઝનેસ	-9.57032
દેશ	-9.57066
▁કપ	-9.5722
gujju	-9.57252
▁ઉત્તમ	-9.57262
ેન્	-9.57352
▁દેખ	-9.57356
▁જાણી	-9.57429
પુ	-9.57431
▁સંપાદક	-9.57473
▁સક્ષમ	-9.57475
▁ISO	-9.57478
▁ઝા	-9.57503
▁કાર્યો	-9.57506
▁45	-9.57551
▁શુ	-9.57611
ટિંગ	-9.57633
▁સંસ્કરણ	-9.57694
▁પેકેજિંગ	-9.57845
▁આપશે	-9.57857
લાઈ	-9.58056
ort	-9.58073
ina	-9.58111
▁મહિમા	-9.58138
▁ચેટ	-9.58275
▁ભવિષ્ય	-9.58361
▁ઘટકો	-9.58439
for	-9.58469
પૂર્વક	-9.58496
બેક	-9.58526
▁બુકમાર્ક	-9.58588
ગલ	-9.58612
▁કરાવ	-9.58714
NG	-9.58715
ધર	-9.58729
▁સંચાલિત	-9.58808
▁80	-9.58839
select	-9.58884
▁ચુકવણી	-9.59033
▁સાચું	-9.59257
પ્રે	-9.59278
ool	-9.59339
NO	-9.59454
▁વર્ષો	-9.59458
о	-9.59482
▁ઉપયોગી	-9.59499
▁પ્રાણી	-9.59505
▁100%	-9.59515
▁ગુજરાતીં	-9.59587
આંખ	-9.59604
ાઇટ	-9.59701
app	-9.59736
▁Ar	-9.59873
મણ	-9.59943
▁Di	-9.59944
▁ગયું	-9.59967
▁નિયમિત	-9.60013
▁લાઇટ	-9.60149
▁મુલાકાતીઓ	-9.6023
;&	-9.60247
800	-9.60285
▁Po	-9.60302
▁પુ	-9.6035
▁ડાય	-9.60357
▁star	-9.60405
વિગતો	-9.6045
▁હોવી	-9.6046
▁લાવી	-9.60508
ૂં	-9.60565
▁મિત્રો	-9.60657
ive	-9.60684
▁month	-9.60709
▁ખરીદ	-9.60728
▁બાદ	-9.60842
▁નિઃશુલ્ક	-9.60844
▁સીએ	-9.61031
kg	-9.61053
ક્ટો	-9.61066
▁સામાજિક	-9.61073
▁USD	-9.61081
▁આજ્ઞા	-9.61285
▁સલાહ	-9.61303
ણું	-9.61317
કૃતિ	-9.61439
ડું	-9.61503
▁વર્ચ્યુઅલ	-9.61532
▁ઉમેર	-9.61549
▁state	-9.61564
name	-9.61619
લ્પ	-9.61731
▁Vi	-9.61791
300	-9.6181
▁અંતે	-9.61816
મારા	-9.61908
▁શરુ	-9.61936
ાન્	-9.62073
▁નિર્	-9.62158
tr	-9.62199
કિ	-9.622
▁ફિલ્ટર	-9.62226
▁અંતર	-9.62338
પ્લ	-9.62382
UR	-9.62475
▁મેળવ	-9.62491
ભર	-9.62504
TS	-9.6267
▁ગઈ	-9.62702
▁GST	-9.62703
▁વાંચવા	-9.62771
▁90	-9.62776
▁મેમો	-9.6278
do	-9.62851
▁ઓટો	-9.62856
▁બાંધ	-9.62956
▁પ્રભાવ	-9.62986
▁હવા	-9.63012
▁ઢ	-9.63037
tal	-9.63116
▁ડેવલપર	-9.63157
▁પ્રદર્શન	-9.63157
▁સંપૂર્ણપણે	-9.6319
હાર	-9.63244
▁લગ્ન	-9.63393
▁જગત	-9.63395
TH	-9.6341
ટ્ટ	-9.63479
તન	-9.63588
▁આકાર	-9.63626
▁પાર્ટીશન	-9.63632
▁ઝડપથી	-9.63645
૬	-9.63718
શીલ	-9.63841
▁વિજેટ	-9.63865
▁રોલ	-9.63879
▁300	-9.63973
▁માંગ	-9.63985
▁હૃદય	-9.64097
▁બતાવે	-9.64313
▁Canada	-9.64333
▁પર્યાવરણ	-9.64333
▁મર્યાદા	-9.64333
▁વિનિમય	-9.64333
▁સમર્થ	-9.64343
▁રોકાણ	-9.64348
કારી	-9.6436
▁બંધબેસ	-9.64372
▁આપ્યું	-9.64432
▁રૂમ	-9.6446
TP	-9.64548
▁પ્રદેશ	-9.64615
▁CA	-9.64618
▁પાડવા	-9.64628
▁અક્ષરો	-9.64654
▁ચલાવો	-9.64656
સ્ટ્રે	-9.64744
▁પરિણામો	-9.64752
▁કસ્ટમ	-9.64803
▁ઇન્ટરનેટ	-9.64808
▁પ્રોગ્રામ	-9.64824
▁સેક્સ	-9.64854
-7	-9.64976
લિંગ	-9.6499
▁આવશ્યક	-9.65046
ર્બ	-9.6505
▁Play	-9.65108
બળ	-9.65118
▁નોકરી	-9.65164
▁Mi	-9.65184
▁સભા	-9.6523
▁Enterprise	-9.65284
▁આંતરરાષ્ટ્રીય	-9.65284
▁ટર્મિનલ	-9.65284
▁માઉસ	-9.65285
ko	-9.6531
ty	-9.65312
▁ગોઠવણી	-9.65312
▁રહો	-9.65317
ana	-9.65438
▁પ્રારંભ	-9.65458
ભિ	-9.6546
▁બતાવવા	-9.65495
▁ઊંચાઈ	-9.65558
▁અસ્તિત્વ	-9.65593
ound	-9.65617
▁બેંક	-9.65626
SH	-9.65669
ઇન્ટ	-9.65746
▁મહત્વપૂર્ણ	-9.65769
▁લુ	-9.65773
pt	-9.65777
▁34	-9.65813
વેર	-9.65839
▁ગુજરાત	-9.65878
▁સ્થાપન	-9.65997
તમ	-9.66003
▁દરમ્યાન	-9.66004
▁હોલ	-9.66008
mode	-9.66172
▁સપાટી	-9.66245
▁ફાઇલને	-9.66282
▁સ્ત્રીઓ	-9.66287
▁કીબોર્ડ	-9.66521
▁Me	-9.66601
વેદ	-9.66622
▁સુયોજન	-9.66729
▁સૂચક	-9.66729
▁એશિયા	-9.6673
▁જાતને	-9.66803
▁36	-9.66834
▁લાવો	-9.66869
▁ગિફ્ટ	-9.66977
400	-9.67
▁Tr	-9.67045
▁હેડર	-9.67055
▁નિયમો	-9.67087
▁રેખા	-9.6714
૪	-9.67147
▁You	-9.67157
▁અલ્	-9.67183
▁અદ્યતન	-9.67214
▁લાવ	-9.67343
▁હુ	-9.67393
પોર્ટ	-9.67494
0.1	-9.67498
▁આકાશ	-9.67646
▁સ્ટેટ્સ	-9.67708
▁યહૂદિ	-9.6773
અપ	-9.67799
nc	-9.67822
▁હાલમાં	-9.67832
▁વિનંતી	-9.67948
▁પ્રિ	-9.67981
▁શાંતિ	-9.67998
ડુ	-9.68009
▁ઘરે	-9.68028
ન્ન	-9.68139
ુર	-9.68213
/~	-9.68217
▁ગતિ	-9.68223
▁se	-9.68242
GB	-9.68242
▁સપોર્ટ	-9.68273
▁પોતે	-9.68322
િટી	-9.68361
▁ચૂ	-9.68362
ee	-9.68493
TR	-9.68509
ld	-9.68562
▁મર	-9.68621
▁મેક	-9.68658
▁કોષ્ટક	-9.68688
▁So	-9.68697
▁લાવવા	-9.68756
▁150	-9.68815
ટ્રી	-9.68904
▁જાણે	-9.68905
qu	-9.68969
▁કન્	-9.69002
time	-9.69044
લ્ક	-9.69048
▁ટેગ	-9.69107
▁નમૂના	-9.69145
▁Evolution	-9.69182
▁નિયંત્રિત	-9.69182
બોક્સ	-9.692
▁Web	-9.69233
▁સોંપ	-9.69252
▁છાપવા	-9.69273
▁પ્રવાહી	-9.69361
▁કટીંગ	-9.69433
▁પેદા	-9.69486
▁He	-9.69668
ચુ	-9.69692
▁સુધારવા	-9.69757
▁ન્યુ	-9.69813
600	-9.69897
▁શબ્દમાળા	-9.69931
▁પહેર	-9.69943
▁સર્વિસ	-9.6999
▁માર્ગદર્શન	-9.70182
▁એકબીજા	-9.70182
ેન્ટ	-9.70246
▁પાર	-9.70254
ગત	-9.70284
▁Inc	-9.70295
િવ	-9.70412
▁વાંચ	-9.70573
pan	-9.70575
ear	-9.70576
▁પહેલાથી	-9.70617
કારિયાણી	-9.70686
▁ચોરસ	-9.70691
પાત્ર	-9.7074
"&	-9.70761
વેલ	-9.70912
▁સત્તા	-9.70921
р	-9.70937
▁બ્રાઉન	-9.70938
text	-9.70947
▁મિલ	-9.7097
▁છબી	-9.70976
▁Home	-9.71028
▁ફોર્મ	-9.71129
▁ઑપરેટિંગ	-9.7119
▁સમુદ્ર	-9.7119
▁સ્વામી	-9.71191
aw	-9.71272
▁પશ્ચિમ	-9.7132
▁કાર્યરત	-9.71446
▁પાલન	-9.71461
ચિ	-9.71536
▁વર્ત	-9.71596
▁sh	-9.71699
સ્કો	-9.71744
▁સુધાર	-9.71755
બર્ગ	-9.71766
▁ઓછામાં	-9.71836
ભાગ	-9.71896
▁ચેક	-9.71921
▁સુપર	-9.71961
▁37	-9.71981
સ્થાન	-9.72016
▁ટેબલ	-9.7219
▁ફેરવ	-9.72242
▁as	-9.72322
▁અંગ	-9.72324
ેલો	-9.72442
▁વાક્ય	-9.72468
▁શીખ	-9.72499
નગર	-9.7252
▁ભાઈ	-9.72678
લિન	-9.72746
py	-9.72753
ટ્રિ	-9.72873
▁ફળ	-9.72887
▁પ્લગઈન	-9.7299
▁દસ્તાવેજો	-9.72998
▁ઉમેરી	-9.73058
▁દેખાય	-9.73068
▁મંજૂરી	-9.73122
▁start	-9.73137
▁દૈનિક	-9.73239
▁મારું	-9.73421
▁કલા	-9.73447
▁સર્વે	-9.73454
▁પ્રોક્સી	-9.73499
▁થોડી	-9.735
▁વિશ્વના	-9.73542
▁ઓફિસ	-9.73545
▁me	-9.73564
TI	-9.73651
▁રીત	-9.73703
atch	-9.7374
▁ભાગીદાર	-9.73758
▁ઈમેજ	-9.73759
ated	-9.73791
▁હાલ	-9.73853
કારો	-9.73969
▁મોકલી	-9.74018
▁આઈ	-9.74094
▁ચાલો	-9.74133
ton	-9.74143
tu	-9.74193
▁Online	-9.74279
▁પ્રાથમિક	-9.74279
bi	-9.74294
ree	-9.74306
▁કોઇપણ	-9.74334
que	-9.74406
▁કામગીરી	-9.74541
▁પોલીસ	-9.74555
ED	-9.74615
▁કેબલ	-9.74737
180	-9.74754
ઉં	-9.74754
છી	-9.74759
▁પુર	-9.74799
▁કુટુંબ	-9.74803
▁ડિસ્પ્લે	-9.74803
િયમ	-9.74805
▁so	-9.74817
▁દલીલ	-9.74819
▁૧૭	-9.74838
▁ઉપરાંત	-9.74843
▁70	-9.7499
2017	-9.75029
▁ખુશ	-9.75071
▁સ્ટેશન	-9.75074
▁જોખમ	-9.75106
▁સ્વરૂપ	-9.75123
▁કવર	-9.75159
▁Ro	-9.75225
▁તરત	-9.75316
▁સુવાર્તા	-9.7533
▁જરૂરિયાતો	-9.75416
▁કેટલીક	-9.75516
લ્લ	-9.75543
▁that	-9.75624
▁ઘણું	-9.75694
▁Mar	-9.75702
▁ડૉલર	-9.7586
▁વ્યાપાર	-9.7586
▁પ્રોસેસ	-9.7586
સ્ટ્ર	-9.75932
150	-9.7602
ડિયા	-9.76041
▁સાત	-9.76099
\.	-9.76117
▁ગોપનીયતા	-9.76126
▁ફિટનેસ	-9.76126
▁CNC	-9.7613
ઝે	-9.7614
▁મૂકી	-9.76143
har	-9.76263
ાયો	-9.76323
air	-9.76343
ook	-9.7636
▁સુમેળ	-9.76393
▁વૈવિધ્યપૂર્ણ	-9.76395
Full	-9.76399
▁મિલિયન	-9.76433
vo	-9.76442
▁જણાવ	-9.76486
લિક	-9.76513
IP	-9.76605
▁Phone	-9.7666
છે	-9.76713
્મ	-9.76766
▁બાળ	-9.76782
રાષ્ટ્ર	-9.76928
▁વિન્ડોને	-9.77032
▁સિટી	-9.77124
▁±	-9.77146
▁જનરેટર	-9.77197
▁હકીકત	-9.77197
▁કાર્	-9.7725
hat	-9.77369
▁ક્રમ	-9.77383
દેવ	-9.77408
▁ડિપોઝિટ	-9.77467
▁વાતચીત	-9.77467
▁કેમેરા	-9.77469
પટ્ટી	-9.77479
ome	-9.77494
mp	-9.77546
▁શુદ્ધ	-9.77567
નિયા	-9.7758
ya	-9.77606
ડબલ્યુ	-9.77609
▁your	-9.77619
મારી	-9.77697
▁મંત્રાલય	-9.77737
▁સહી	-9.77738
▁વાયરલેસ	-9.77744
DE	-9.77833
▁સમજી	-9.77961
▁યાજક	-9.78017
▁Te	-9.78018
light	-9.7809
▁ગોઠવો	-9.78111
▁સૂચના	-9.78185
Hz	-9.78228
▁Win	-9.78234
▁ભેગા	-9.7828
▁બેરિંગ	-9.78286
▁26.00	-9.78293
▁OF	-9.78329
tool	-9.78354
▁પહેલ	-9.78368
sion	-9.78388
વૉ	-9.78392
ક્રોસ	-9.78396
▁માલ	-9.78399
પેટ	-9.78405
▁લૂ	-9.78462
▁નાશ	-9.78543
▁લખો	-9.78548
▁વિસ્તૃત	-9.78552
quot	-9.78577
▁MA	-9.78599
ફર	-9.78625
▁જાણવા	-9.78662
▁અભિપ્રાયો	-9.78745
▁નાખવા	-9.78806
▁આપમેળે	-9.78825
ફાઇ	-9.78852
▁૦	-9.78885
લોકડાઉન	-9.78892
▁પત્ર	-9.78944
▁ટેક્સ	-9.78984
▁ઓર્ડર	-9.79104
▁ફેરફારો	-9.79192
લ્લા	-9.79209
લોક	-9.7924
az	-9.79253
ood	-9.79277
સૂ	-9.79347
▁છાપો	-9.79365
બોર્ડ	-9.79456
સ્ટેટ	-9.79466
▁Gu	-9.79466
વત	-9.79477
gram	-9.79494
▁વાળ	-9.79545
▁ટિપ્પણી	-9.79622
▁ઊં	-9.79636
▁ગાય	-9.79743
▁સ્લોટ	-9.79753
dev	-9.79799
▁Le	-9.7982
og	-9.79872
▁પોતાને	-9.79932
▁શીટ	-9.80004
▁પકડ	-9.80167
▁યરૂશાલેમ	-9.80203
▁ઇલેક્ટ્રોનિક	-9.80203
▁શિક્ષક	-9.80207
ake	-9.8023
વ્યા	-9.80243
▁રેટિંગ	-9.80246
▁લક્ષણો	-9.80263
▁ઊંચા	-9.80473
▁Mobile	-9.80481
chi	-9.80492
▁કહેવાય	-9.8053
▁ગ્રાફ	-9.80532
-01	-9.80557
▁સેન્ટ	-9.80583
\@	-9.80599
્થ	-9.8067
માર્ક	-9.80703
0000	-9.80712
▁English	-9.80759
▁પ્રા	-9.80766
મીટર	-9.80844
ખંડ	-9.80888
ચ્છ	-9.80912
લ્ફ	-9.80988
PL	-9.8103
▁પડી	-9.81139
EN	-9.81195
cy	-9.81261
▁Dr	-9.81283
▁ઇચ્છા	-9.81314
▁ક્યાંતો	-9.81425
▁માલિક	-9.81471
▁હાલની	-9.81485
are	-9.81493
▁ટાઇ	-9.81513
▁ઝોન	-9.81604
▁dur	-9.8163
શુ	-9.81664
▁લાઇન	-9.8167
▁વાલ્વ	-9.81881
▁પ્લે	-9.81935
્યાં	-9.81969
▁યુકે	-9.82082
શ્વ	-9.82118
▁ફુ	-9.82159
▁હતુ	-9.82163
▁ડિજિટલ	-9.82164
▁દર્શાવે	-9.8217
▁માર્કેટિંગ	-9.822
▁Con	-9.82223
▁નિષ્ણાત	-9.82447
gg	-9.82459
▁ઈન્	-9.82543
▁દોર	-9.82638
▁એલ્યુમિનિયમ	-9.82731
▁મત	-9.82816
cu	-9.82835
▁યુરો	-9.82885
▁લિંક	-9.82925
▁પ્રકાશન	-9.82994
▁સ્માર્ટ	-9.83016
▁પાછો	-9.83016
▁મોટું	-9.83017
▁મગજ	-9.83018
▁2000	-9.83109
▁દર્શાવવા	-9.83176
▁શકું	-9.83187
ace	-9.83234
ગુલાબ	-9.83258
▁ખોલવા	-9.83308
▁ઉદ્	-9.83352
host	-9.83422
▁પાના	-9.83491
ટ્રા	-9.83506
સાય	-9.83518
hy	-9.83539
▁su	-9.83584
▁CPU	-9.8359
▁પ્રમાણ	-9.83659
▁તેણી	-9.83662
▁મેક્સ	-9.83682
▁+86	-9.83829
new	-9.83845
▁રકમ	-9.83878
સ્તર	-9.83889
▁અનુવાદ	-9.8389
સાર	-9.83918
▁મહા	-9.83984
બાર	-9.83998
▁Ex	-9.84053
▁સાંભળી	-9.8415
▁દીકરા	-9.84164
ચંદ્ર	-9.84166
યું	-9.8421
ાશે	-9.84344
▁વ્યવસ્થા	-9.84468
▁છુપા	-9.84486
▁પસંદિત	-9.84503
ભુ	-9.84523
સ્થા	-9.84531
ષ્ઠ	-9.84627
▁ઘાટ	-9.84668
ji	-9.84675
mon	-9.84709
પ્ત	-9.84733
▁માત્રા	-9.84741
▁વોલ્ટેજ	-9.84743
▁લાઇવ	-9.84743
PM	-9.84775
▁શકાયુ	-9.84815
▁શાસ્ત્ર	-9.84817
box	-9.84835
▁શકશે	-9.84865
પૂર્ણ	-9.84963
▁દોરી	-9.85016
ર્ચ	-9.85163
▁08	-9.85203
▁2010	-9.85205
▁{0}	-9.85306
▁કમ્પ્યૂટર	-9.85325
▁નિર્ણય	-9.85325
▁જીનોમ	-9.85331
▁અસરકારક	-9.85339
▁કરાર	-9.85354
format	-9.85405
▁સોલ	-9.85454
ale	-9.85526
▁સાઇટમેપ	-9.85617
▁બીજો	-9.85819
▁IC	-9.85886
યુક્ત	-9.85909
▁શ્રીજીમહારાજ	-9.8591
▁વિમાન	-9.85949
▁બનવા	-9.86016
ચિત	-9.86018
▁તાળુ	-9.86028
▁Su	-9.86113
▁આશ્ચર્ય	-9.86205
The	-9.8628
▁શહેરમાં	-9.86388
▁પટેલ	-9.86502
▁શેરી	-9.8652
▁ટેટૂઝહાથ	-9.86555
▁ટેલ	-9.86607
▁પોસ્ટેડ	-9.86624
ૂન	-9.8669
▁થાઇ	-9.86748
▁હતાં	-9.86768
▁શીખવ	-9.86794
▁district	-9.86795
▁title	-9.86835
કારક	-9.86898
▁વપરાયેલ	-9.87084
▁જમણી	-9.87096
▁Pre	-9.87186
▁રમવા	-9.87257
ture	-9.87264
▁સ્ક્રિપ્ટ	-9.87306
લિયન	-9.87312
▁સબ	-9.87337
▁can	-9.87345
▁પ્રોટોકોલ	-9.8739
▁સંસ્કૃતિ	-9.8739
▁translated	-9.8739
▁વિજ્ઞાન	-9.87395
▁કેદીઓ	-9.87399
ring	-9.87465
▁અગ્ર	-9.87482
▁આકાશમાં	-9.87507
િઓ	-9.87529
લોન	-9.87533
▁આવતા	-9.87561
હિત	-9.87591
▁gu	-9.87596
▁વીમા	-9.87614
▁ઇન્દ્રિયો	-9.87688
▁સંચાલક	-9.87689
▁મૂકવા	-9.87713
પક્ષી	-9.87748
▁જુદા	-9.8776
મત	-9.87845
▁૨૦	-9.87865
▁રેસ	-9.87867
▁ફેરવો	-9.87934
પુર	-9.87977
હાઉસ	-9.88017
ક્રમ	-9.88149
્યુઅલ	-9.88153
▁પરીક્ષા	-9.88288
▁FSX	-9.8829
900	-9.88339
lin	-9.8836
▁પ્લા	-9.88427
▁ગુણધર્મ	-9.88465
▁કરેલા	-9.8854
▁માણસને	-9.88561
વાઇ	-9.88568
▁LexUriServ	-9.88589
▁એલઇડી	-9.88589
▁સુચના	-9.88591
NE	-9.88603
han	-9.88605
સ્ટ્રી	-9.88852
▁ઉત્પન્ન	-9.88891
▁કંઇ	-9.88893
▁એડમિન	-9.88894
▁મેકઅપ	-9.88899
▁ઊભા	-9.88919
ach	-9.88988
▁33	-9.89044
▁Com	-9.89057
▁જાવ	-9.89221
NT	-9.89322
▁શામેલ	-9.89344
▁કાયમ	-9.89368
▁વર્ષે	-9.89431
▁ફોલ્ડરમાં	-9.89434
મંત્ર	-9.89462
▁ડેટાબેઝ	-9.89498
▁સ્વયં	-9.89499
work	-9.89501
RAID	-9.89504
▁જોડાવા	-9.8952
અનંત	-9.89523
▁(2)	-9.89649
ત્રી	-9.89651
120	-9.89666
▁ખસેડવા	-9.89681
▁પરિમાણ	-9.89687
▁પામે	-9.89747
્લે	-9.8976
Black	-9.89807
▁દીઠ	-9.89831
▁પક્ષ	-9.89955
▁રુટ	-9.89964
▁મળ્યું	-9.89977
▁સમાવે	-9.90065
▁તેવું	-9.9011
▁યુનિ	-9.90203
RI	-9.90277
▁ચલાવ	-9.9032
key	-9.90362
▁પિક્સેલ	-9.90416
વાળું	-9.90496
▁600	-9.90706
▁કેન્દ્રિત	-9.90708
▁નિયંત્રક	-9.90723
▁નુકસાન	-9.90723
▁ડ્રાઈવ	-9.90726
table	-9.90753
▁માતાનો	-9.9077
▁per	-9.9085
▁Live	-9.90928
pro	-9.90999
▁પથ્થર	-9.91032
▁મોલેક્યુલર	-9.91032
▁સાંભળવા	-9.91035
▁વિન્ડોમાં	-9.91036
▁સમાજ	-9.9104
▁undo	-9.91101
▁ભેટ	-9.91151
▁09	-9.91187
par	-9.91286
▁ગયેલ	-9.91355
બહેન	-9.91504
▁ગરમ	-9.91644
▁વૃક્ષ	-9.91652
▁વધારાની	-9.91653
▁નાંખ	-9.91659
▁લીધે	-9.91659
▁2011	-9.91708
▁EN	-9.91902
▁જોયો	-9.91928
ંડા	-9.91941
▁સમુદાય	-9.91964
▁છોકરી	-9.91975
ન્ટે	-9.92057
▁દેવને	-9.92094
▁દેવનો	-9.92112
▁એવો	-9.92124
let	-9.92163
▁જરૂરિયાત	-9.92175
▁250	-9.92176
▁બસ	-9.92313
▁ડોમેન	-9.92325
ત્ય	-9.92386
▁સંપર્કમાં	-9.92388
▁સ્ટાર	-9.92402
▁ago	-9.92427
▁સાદ	-9.92431
▁દાવો	-9.92464
rit	-9.92474
▁મેળવવામાં	-9.92581
▁પૂછપરછ	-9.9259
▁વ્યાસ	-9.92604
user	-9.92621
▁સહન	-9.92837
ન્સી	-9.92845
▁સંસ્થાન	-9.92853
lan	-9.92857
1000	-9.92963
▁શકશો	-9.92981
▁but	-9.93003
▁વ્યાખ્યાયિત	-9.93191
▁કચરાપેટી	-9.93239
ress	-9.93277
▁હોટ	-9.93439
▁બીજ	-9.93446
▁માફ	-9.93449
▁પ્રગતિ	-9.93536
ner	-9.93572
▁એટલા	-9.93582
jo	-9.93615
▁Hu	-9.93638
▁120	-9.93839
▁વેચાઈ	-9.93888
▁સુધારાશે	-9.9391
HFW	-9.9404
▁નીચેના	-9.94094
ness	-9.94207
▁અમલ	-9.94238
▁DI	-9.94368
▁64	-9.94419
▁પેટી	-9.9447
hilippines	-9.94491
▁મર્યાદિત	-9.94491
▁વિરૂદ્ધ	-9.94491
▁જૂ	-9.94498
▁પૂછયું	-9.94502
▁મશીનરી	-9.94515
તાજ	-9.94619
▁કલાકાર	-9.94644
▁લેવામાં	-9.94691
▁provinces	-9.94827
▁લવ	-9.94845
rush	-9.94875
test	-9.94919
dia	-9.94926
સિંહ	-9.94931
▁ગેમ્સ	-9.94983
▁કુદરતી	-9.95134
▁ચિંતા	-9.95135
▁XML	-9.95136
▁છૂટ	-9.95143
▁400	-9.95203
▁દેવામાં	-9.95206
▁ક્રિયાઓ	-9.9525
વિકાસ	-9.95364
▁નોંધો	-9.95387
▁વોલ	-9.95398
▁સ્ટ્રીમ	-9.95467
▁અગ્રણી	-9.9548
▁થા	-9.95487
▁ઈસુના	-9.955
lock	-9.95565
▁ચિહ્નો	-9.9564
▁કદી	-9.95752
▁અલ્ટ્રાસોનિક	-9.9578
▁દબાવો	-9.9578
▁જયારે	-9.95781
CHI	-9.95831
▁વ્યવહાર	-9.95905
▁ફીડ	-9.95918
uck	-9.95927
heng	-9.95966
▁સરસ	-9.95975
the	-9.96015
®	-9.96104
▁ફ્રેમ	-9.96105
▁કાર્બન	-9.96113
▁નવ	-9.96125
▁ગુમાવ	-9.96131
▁પાડી	-9.96167
ure	-9.96206
▁ન્યાયી	-9.96361
▁ફ્લેગ	-9.96456
▁પ્રે	-9.96457
▁લાગણી	-9.96475
વર્ડ	-9.96496
▁ભાગના	-9.96529
ze	-9.96671
▁ગત	-9.96719
▁ક્લે	-9.96753
▁મુસાફરી	-9.96757
▁જવાબદારી	-9.96758
▁આકર્ષ	-9.9676
▁કીઓ	-9.96827
ional	-9.96923
▁માતા	-9.96938
ડ્રો	-9.96939
▁લક્ષણ	-9.97021
now	-9.97053
ical	-9.97085
ાર્થ	-9.97255
info	-9.97276
ory	-9.97283
list	-9.97338
▁MB	-9.97368
▁વેચ	-9.97382
▁શિપિંગ	-9.97414
▁પત્ની	-9.97427
કીય	-9.97443
▁મેઇલ	-9.97487
પ્લે	-9.97499
▁કરીશ	-9.97617
▁સભ્ય	-9.9768
▁થતા	-9.97686
▁ગેમ	-9.97708
▁સુવિધાઓ	-9.97711
▁મલ્ટી	-9.97745
▁DVD	-9.97746
▁વૈકલ્પિક	-9.97778
▁કોલેજ	-9.97804
▁વ્યક્તિને	-9.97806
▁આત્મ	-9.97904
▁પ્રવૃત્તિઓ	-9.98024
▁ભારે	-9.98073
▁મિશ્રણ	-9.98075
▁સ્વાધીન	-9.98075
રિક	-9.98179
▁part	-9.98221
▁ટૂંક	-9.98227
▁જેણે	-9.98266
▁સીમા	-9.98321
▁ઈવોલ્યુશન	-9.98407
▁થ્રેડ	-9.98407
▁મેનેજમેન્ટ	-9.98407
▁વિડિયો	-9.98407
▁ઈસુની	-9.98438
▁મૂકો	-9.98447
▁નીચા	-9.98456
cur	-9.98459
ર્થ	-9.98501
નિયમ	-9.98506
બ્રુ	-9.98528
અને	-9.98616
▁અસ્તિત્વમાં	-9.98644
▁માર્ક	-9.98656
▁ચક્ર	-9.98718
▁માછલી	-9.98741
▁કાળજી	-9.98744
▁this	-9.98746
▁ખરીદો	-9.98787
▁ગ્રહ	-9.98814
▁બીજું	-9.98823
સ્ટિ	-9.98859
િયર	-9.98992
ક્વિ	-9.9906
▁અનન્ય	-9.99075
▁કૂકીઝ	-9.99075
unt	-9.99076
▁સૂચવ	-9.99084
▁બેઠક	-9.99085
દર્શક	-9.99146
▁Wi	-9.99184
▁1.5	-9.99299
▁ST	-9.99303
▁સુખ	-9.99331
▁Deposit	-9.99411
▁ખોટું	-9.99411
▁0086-	-9.99411
▁ઓર	-9.99421
ron	-9.99441
▁URI	-9.99443
▁ટાઉન	-9.99476
▁હજી	-9.99542
▁ઘણાં	-9.9964
ary	-9.99662
250	-9.99714
પત્ર	-9.99763
▁સન	-9.99773
▁નાણાં	-9.99818
▁પ્રિન્ટિંગ	-9.99835
▁800	-10.0002
▁tr	-10.0005
▁છુ	-10.0006
▁should	-10.0006
▁પ્રમુખ	-10.0009
uz	-10.001
mark	-10.0012
▁ચલ	-10.0017
▁રહ્યુ	-10.0026
▁કિલો	-10.0027
bra	-10.0029
▁Bo	-10.0031
add	-10.004
keyboard	-10.0043
▁૧૪	-10.0046
edit	-10.005
સિસ્ટમ	-10.005
▁Do	-10.0056
▁જોઇ	-10.0074
▁રોટલી	-10.0077
▁બાંધકામ	-10.0078
્‍	-10.0081
▁are	-10.0083
▁૭૧	-10.0085
ચેરી	-10.0095
Blockchain	-10.0111
▁રીટ્વીટ	-10.0111
▁જટિલ	-10.0111
▁વાહન	-10.0112
▁કુશળતા	-10.0118
▁વિદ્યાર્થી	-10.0121
ઇન્ડ	-10.0122
▁{	-10.013
▁બદલાવ	-10.0134
▁જેવો	-10.0145
▁પુરવઠો	-10.0145
▁પુસ્તિકા	-10.0145
▁આઇફોન	-10.0145
▁કેટલાએક	-10.0145
▁ક્રે	-10.0148
gen	-10.0148
▁કહો	-10.0149
▁મૂસા	-10.0153
▁હક	-10.0164
▁AC	-10.0171
ટેક	-10.0172
▁બેકઅપ	-10.0179
▁કવિતા	-10.0179
▁થાઓ	-10.018
દ્દ	-10.0182
▁સુવિધા	-10.0183
વાળો	-10.0183
▁૧૩	-10.0187
In	-10.019
▁સંકેતો	-10.0202
▁સંકોચ	-10.0214
▁પેકિંગ	-10.0214
▁box	-10.0221
▁લોક	-10.0226
0.23	-10.0239
ries	-10.0241
▁જૂના	-10.0244
▁સ્થળાંતર	-10.0248
▁સારાંશ	-10.0248
▁લોયા	-10.0249
▁સાંભળ્યું	-10.0256
▁પ્રાંત	-10.0258
▁પ્લેટ	-10.0271
▁વહેંચ	-10.0274
é	-10.0283
▁WhatsApp	-10.0283
▁માળખું	-10.0283
▁નીચેની	-10.0285
▁સિવાય	-10.029
▁વળ	-10.0301
▁ભાત	-10.031
▁એન્જિન	-10.0317
Country	-10.0318
▁Twitter	-10.0318
▁pricelist	-10.0318
▁ઊર્જા	-10.0318
▁રજીસ્ટર	-10.0318
▁ગાળક	-10.0319
▁ચાર્ટર	-10.0319
0.3	-10.0325
▁યુદ્ધ	-10.0328
▁પંપ	-10.0329
સંગ્રહ	-10.033
આશરે	-10.0331
▁જોડી	-10.0343
▁ઘટાડો	-10.0344
▁હેડ	-10.0351
▁ઓબ્જેક્ટ	-10.0353
▁ચૂકવ	-10.0353
▁કહેવું	-10.0353
માત્ર	-10.0368
▁સર્જ	-10.0375
પાલ	-10.0376
▁જાણીએ	-10.0381
▁જેકપોટ	-10.0388
▁જાડાઈ	-10.0388
▁sales	-10.0389
▁બિલ્ડ	-10.0391
ata	-10.0418
с	-10.0423
▁અટક	-10.0424
▁દર્શક	-10.0425
લેસ	-10.0427
▁મળ્યો	-10.0432
▁આવવા	-10.0439
▁આવું	-10.0452
▁જિલ્લો	-10.0458
▁વૈજ્ઞાનિક	-10.0458
▁બાહ્ય	-10.0458
▁વિસ્તારમાં	-10.0459
▁બુક	-10.0463
▁ગોળી	-10.0464
pcs	-10.0477
▁સૂર્ય	-10.0479
ટ્રે	-10.0481
▁ગેસ	-10.0488
▁કચરાપેટીમાં	-10.0492
▁રશિયા	-10.0494
▁માધ્યમ	-10.0494
▁આંકડા	-10.0494
▁ટાપુ	-10.0502
▁220	-10.0505
▁પોલિ	-10.0506
wi	-10.051
▁એરે	-10.052
textattr	-10.0529
▁નીંગબો	-10.0529
ાયેલા	-10.053
hai	-10.054
▁ધ્યાનમાં	-10.0543
▁પ્રતિકાર	-10.055
ેબલ	-10.0562
▁તબીબી	-10.0565
▁મોઝેક	-10.0565
▁કાયદા	-10.0565
▁સાબિત	-10.0565
▁ફ્લાઇટ	-10.0567
▁કરાયેલ	-10.0568
574	-10.0592
મય	-10.0596
▁તફાવત	-10.0601
▁નોંધપાત્ર	-10.0603
▁Ne	-10.0603
0,000	-10.0604
layers	-10.0605
ંઠ	-10.0609
વંશ	-10.0614
▁વધાર	-10.0615
ave	-10.0616
▁માસ્ક	-10.0619
▁GSTR	-10.0622
▁સ્કેન	-10.063
▁શક્તિશાળી	-10.0637
swkothar	-10.0637
▁જમણે	-10.0637
▁44	-10.0641
કોડ	-10.0651
uc	-10.0659
ny	-10.0661
▁સુધારા	-10.0667
▁HTTP	-10.0673
▁ઈન્ટરનેટ	-10.0673
▁ઢાળ	-10.0673
▁અભ્યાસક્રમ	-10.0674
▁ઊંચી	-10.0674
▁યુપી	-10.068
▁Up	-10.0681
ાલય	-10.0683
▁Long	-10.0685
▁શિષ્યોને	-10.069
0.2	-10.07
લીન	-10.071
▁મધ્યમ	-10.0713
▁News	-10.0713
image	-10.0715
LTD	-10.0716
▁For	-10.0728
▁MT	-10.0739
regions	-10.0746
▁વિશ્વસનીય	-10.0746
▁સમસ્યાઓ	-10.0755
▁ભય	-10.076
હુ	-10.0767
અલ	-10.0771
▁આપનું	-10.0772
▁હાર્ડ	-10.0781
▁ફ્રાન્સ	-10.0782
▁દર્દી	-10.0782
▁સેકન્ડ	-10.0782
▁વ્યવસ્થાપન	-10.0782
▁તેનાથી	-10.0783
▁અજાણ	-10.0784
▁ચલાવી	-10.0784
Stock	-10.0786
▁ડાબે	-10.0787
▁કરીશું	-10.0806
cha	-10.0807
▁પામ્યા	-10.0809
વાઈ	-10.081
▁આફ્રિકા	-10.0819
▁પ્રોફાઇલ	-10.0819
▁સરળતાથી	-10.0819
બિલાડી	-10.0819
▁શેલ	-10.0821
▁પાછુ	-10.0821
▁ફોર	-10.0826
▁સાચવ	-10.0827
▁સ્પિન	-10.0829
val	-10.0853
▁પ્રદર્શિત	-10.0856
▁સુયોજીત	-10.0856
▁count	-10.0856
▁પક્ષીએ	-10.0858
▁પ્રેરિતો	-10.0859
2001	-10.086
જૂ	-10.0861
▁ગોલ્ડ	-10.0861
▁Slots	-10.0866
oll	-10.0871
get	-10.0875
▁પ્રિન્ટ	-10.0882
ાનંદ	-10.089
▁કોર્પોરેટ	-10.0892
▁પીવીસી	-10.0893
▁વર્લ્ડ	-10.0893
સેટ	-10.0894
▁કેન્સર	-10.0895
▁બહેનો	-10.0895
▁Un	-10.09
-2018	-10.0906
▁ચોકઠાંઓ	-10.0914
▁કાળા	-10.0918
મોન	-10.0924
▁વિશેષ	-10.0927
GenericName	-10.093
▁કૅલેન્ડર	-10.093
▁જોડણી	-10.093
▁આલ્ફા	-10.093
▁કસ્ટમાઇઝ	-10.0931
▁પાઉન્ડ	-10.0935
ence	-10.0964
▁જાણતા	-10.0966
object	-10.0967
и	-10.0967
▁કૂપન	-10.0967
Image	-10.0968
્ટન	-10.0971
▁મળ્યા	-10.0971
▁વિન્ડોની	-10.0974
▁Al	-10.0983
▁સમાવિષ્ટો	-10.0989
▁માર્ગદર્શિકા	-10.0998
ભૂ	-10.0998
▁sa	-10.1001
back	-10.1001
તંત્ર	-10.1003
વેલેન્ટાઇન	-10.1004
▁posted	-10.1004
oss	-10.1005
ઈલ	-10.101
▁રાખીને	-10.1013
▁માણસે	-10.1013
▁બોલ્યા	-10.1016
▁રાત	-10.1036
▁ઊભી	-10.1041
russia	-10.1042
ન્ટા	-10.1048
▁કૉ	-10.1059
form	-10.1067
ભારત	-10.1077
શક્તિ	-10.1077
`	-10.1079
▁Vachanamrut	-10.1079
▁સંકળાયેલ	-10.1079
▁વિતરણ	-10.1079
▁OEM	-10.1079
▁UP	-10.1086
▁વધારવા	-10.1094
એન્કર	-10.11
ther	-10.11
▁સપ્લાયર	-10.1114
▁વેબસાઈટ	-10.1117
▁version	-10.1117
ાઉન્ડ	-10.1119
▁૧૯	-10.1124
▁સાઉન્ડ	-10.1125
▁નીકળ	-10.1132
ડાઇ	-10.1136
▁બીટા	-10.1148
book	-10.1149
▁pre	-10.1151
▁દ્રષ્ટિ	-10.1155
▁ક્ષણ	-10.1155
▁ફૂટ	-10.1155
▁બન્યું	-10.1155
અમે	-10.1164
▁હોવું	-10.1167
▁કેટલા	-10.1177
હાર્ટ	-10.1177
▁સંમત	-10.1178
gujarati	-10.1182
▁પ્લસ	-10.119
▁મોનિટર	-10.1193
▁અનામત	-10.1193
▁દુષ્ટ	-10.1195
▁૬૭	-10.1195
▁પગલું	-10.1197
૨૦૦	-10.1198
UI	-10.1199
▁110	-10.12
▁ડ્રાઇવર	-10.121
▁ચર્ચા	-10.1229
▁પેટ	-10.1237
ml	-10.1238
2.1	-10.124
▁સૂચિત	-10.1242
$1	-10.1244
▁એમએમ	-10.1259
ફ્લે	-10.1263
ling	-10.1266
▁સમૃદ્ધ	-10.1269
▁તીવ્ર	-10.1269
▁જિલ્લા	-10.1269
KChar	-10.1269
▁માળ	-10.1271
▁પ્રત્યેક	-10.1272
▁પ્રમાણપત્રો	-10.1273
▁અંગે	-10.1276
▁સભ્યો	-10.1277
▁હીટ	-10.128
▁બાપ	-10.1283
▁મરણ	-10.1284
▁લોન	-10.1309
▁france	-10.1314
▁રૂપાંતરિત	-10.1314
▁ડાબી	-10.1317
સ્વ	-10.1345
▁ધ્વનિ	-10.1346
▁મંડળી	-10.135
હૂ	-10.1355
▁રેડ	-10.1361
▁સુધારાઓ	-10.1362
▁જોયા	-10.1364
▁We	-10.1366
▁નાઇટ	-10.1366
▁કોમ	-10.1368
ગ્રી	-10.1372
map	-10.1381
ર્ત	-10.1381
▁ઍક્સેસ	-10.1385
▁તાજેતરની	-10.1385
▁સંપત્તિ	-10.1385
Region	-10.1386
▁block	-10.1388
▁એસિડ	-10.139
▁ગરમી	-10.1392
ટિવ	-10.1395
▁નદી	-10.1398
over	-10.1404
િઅન	-10.1415
▁સારો	-10.1417
▁જથ્થો	-10.1424
▁રાત્રે	-10.1424
ડ્રેગન	-10.1424
▁ભોજન	-10.1424
▁એનકોડ	-10.1424
આઉટ	-10.1426
▁નિશ્ચયનું	-10.1436
▁કોર્સ	-10.1444
વણી	-10.1448
char	-10.145
160	-10.1451
▁ઓવર	-10.1456
▁આધુનિક	-10.1463
▁ગ્લાસ	-10.1463
▁કપડાં	-10.1463
▁from	-10.1463
▁ઉંમર	-10.1463
▁ઓપન	-10.1464
▁કલાકની	-10.1466
▁જીવંત	-10.1468
▁પ્રવૃત્તિ	-10.1472
NUM	-10.1475
▁પૂછો	-10.148
છાતી	-10.1481
▁search	-10.1491
ચાલ	-10.1493
▁8.1	-10.1495
શરૂ	-10.1496
▁GNOME	-10.1502
▁TRANSLATORS	-10.1502
▁અત્યંત	-10.1502
▁અનિચ્છનીય	-10.1502
કન્યાઓ	-10.1502
▁ટેટૂઝપગ	-10.1503
▁ઇલેક્ટ્રિક	-10.1503
▁પાશ્વભાગ	-10.1503
▁સ્વતંત્ર	-10.1505
ung	-10.1511
▁માલિકી	-10.1513
▁સંગ	-10.1522
▁ક્ષેત્રો	-10.153
▁સંસ્થાઓ	-10.1535
▁int	-10.1538
▁પરંપરાગત	-10.1542
▁સખત	-10.1542
▁સમજાવ	-10.1547
ankit	-10.1547
▁ટાઇમ	-10.1549
ગુણ	-10.1552
▁કાર્યક્ષમતા	-10.1554
જીવન	-10.1558
▁એકત્ર	-10.1561
▁પ્રયોગ	-10.1562
▁પુરુષો	-10.1566
HE	-10.157
ધ્ય	-10.1584
▁ઘટનાઓ	-10.1589
pm	-10.1594
▁India	-10.1595
૦૦	-10.1601
▁સુધારેલ	-10.1607
પ્રત	-10.1612
ameroon	-10.1621
▁વાતાવરણ	-10.1621
▁ઘડિયાળ	-10.1621
▁ટ્યુબ	-10.1621
build	-10.1621
▁આર્થિક	-10.1621
help	-10.1622
ફોર્મ	-10.1637
▁નીકળો	-10.1657
ંભ	-10.1658
▁પદાર્થ	-10.1661
▁મથક	-10.1661
ક્રો	-10.1674
▁$1	-10.1679
red	-10.1681
NAME	-10.1701
▁વારંવાર	-10.1701
▁પહોંચી	-10.1712
▁જીવી	-10.1712
▁→	-10.1712
▁પરવાનગીઓ	-10.1721
▁અક્ષ	-10.174
▁સાહસ	-10.1743
▁વૈ	-10.1744
▁તૈયારી	-10.1759
bar	-10.176
▁આયોજન	-10.1781
▁સિરીઝ	-10.1781
▁ક્લિપબોર્ડ	-10.1782
▁હાર્ડવેર	-10.1782
▁અર્ક	-10.1782
▁ફાઇલોને	-10.1783
▁થેલી	-10.1787
▁નિયમન	-10.1791
▁સહકાર	-10.1791
▁એકવાર	-10.1795
usa	-10.1815
▁status	-10.1822
▁વિશ્લેષણ	-10.1822
▁સિદ્ધાંત	-10.1822
▁અમેરિકન	-10.1823
▁છત	-10.1823
▁જોકે	-10.1824
▁દર્શન	-10.1836
▁ઘન	-10.1839
▁ડબલ	-10.1842
ન્ટર	-10.1843
▁શક્યતા	-10.1852
eck	-10.1852
▁પ્રત્યે	-10.186
▁પ્લગ	-10.186
▁અનુકૂળ	-10.1862
▁કારાવાસ	-10.1862
к	-10.1862
▁પ્રગટ	-10.1863
ART	-10.1865
▁આંખો	-10.1866
▁પ્રારંભિક	-10.1873
date	-10.1875
▁મોકલ્યો	-10.1876
સાઈ	-10.1881
▁ખુલ	-10.1883
▁કશું	-10.1891
▁નિર્માણ	-10.1903
▁SKU	-10.1903
▁બનાવેલ	-10.1909
▁હાલનાં	-10.1912
▁સરખા	-10.1913
ક્ષણ	-10.1923
બોલ	-10.1937
▁સીરીયલ	-10.1944
▁બાઇક	-10.1948
▁સ્પષ્ટીકરણ	-10.195
▁બેન્ડ	-10.1952
▁૩૦	-10.196
▁ચિહ્નિત	-10.1967
▁સ્થાપ	-10.1979
Coin	-10.198
2016	-10.198
▁અંગ્રેજી	-10.1985
▁કોપીરાઇટ	-10.1985
▁ડીસી	-10.2001
▁કનેક્ટ	-10.2003
પ્રો	-10.2006
▁ગેંગ	-10.2011
▁ભૌતિક	-10.2026
▁United	-10.2027
▁અવતરણ	-10.2027
▁લીધો	-10.2027
▁ઊંડા	-10.203
▁સલામત	-10.2032
કુલ	-10.2038
▁ફ્લોર	-10.2044
GE	-10.2048
tive	-10.2049
▁થવું	-10.2057
હીરા	-10.2061
▁ફૂડ	-10.2068
▁સ્ટ્રીટ	-10.2069
▁કહીએ	-10.207
▁1500	-10.2071
વિલે	-10.2071
▁પવન	-10.2071
▁પેકેજો	-10.2074
બાઈ	-10.208
▁કલ્પના	-10.2087
▁≤	-10.2089
▁ઘટાડ	-10.2108
▁દયા	-10.2109
બટરફ્લાય	-10.211
▁પ્રતિક્રિયા	-10.211
▁સહભાગી	-10.211
▁કન્વર્ટ	-10.211
dialog	-10.2111
▁મેચ	-10.2114
▁પાછી	-10.2115
▁કાર્ટ	-10.2119
▁અધ	-10.212
KW	-10.213
▁સફળ	-10.213
▁વગાડ	-10.2132
▁months	-10.2135
વ્યવહાર	-10.2135
unicode	-10.2152
lar	-10.2162
▁મોડ	-10.2169
▁પરિવર્તન	-10.2194
▁મુખ્યત્વે	-10.2194
▁પ્રમાણભૂત	-10.2195
▁સાધનપટ્ટી	-10.2196
▁બિલ્ડીંગ	-10.2198
▁સંગ્રહવા	-10.2222
▁ઊભો	-10.2236
▁પોતાનું	-10.2236
▁ઑફ	-10.2237
Query	-10.2238
2000	-10.2247
▁બનાવ્યું	-10.2248
read	-10.225
ઝેડ	-10.2252
203	-10.2259
▁વિશેષતા	-10.226
▁લેબ	-10.2261
▁વધી	-10.2262
▁En	-10.2262
▁game	-10.2263
રાશિ	-10.2267
ન્ચ	-10.2267
▁ટ્રાન્સ	-10.2278
wise	-10.2281
▁નાંખવા	-10.2282
▁comp	-10.2285
▁તારણ	-10.2289
tan	-10.2296
▁મળ્યુ	-10.2312
▁માઇક્રો	-10.2321
▁નિશાની	-10.2321
▁જેલમાં	-10.2324
▁વપરા	-10.2324
▁આરામ	-10.2326
▁જવું	-10.2328
▁શરત	-10.2337
▁ઉભ	-10.2344
▁અધિકારો	-10.2347
પૂર્વ	-10.2363
wBuyBuy	-10.2363
▁યુનાઇટેડ	-10.2363
▁ગંભીર	-10.2363
▁સોમવાર	-10.2363
▁here	-10.2364
▁પહોંચાડ	-10.2366
bit	-10.2375
▁પ્રમાણમાં	-10.2376
▁380	-10.2386
▁ઇન્ટર	-10.2386
▁ભક્ત	-10.2395
▁કર્મચારીઓ	-10.2396
▁પીડા	-10.2397
▁ઉતર	-10.2398
ute	-10.2404
▁subjects	-10.2406
▁પુરવઠા	-10.2406
▁જોવાઈ	-10.2407
cent	-10.2409
▁રચાયેલ	-10.2415
▁ખોટા	-10.2419
▁125	-10.242
▁ભરો	-10.2422
▁સાઇન	-10.2425
▁દાંત	-10.2425
▁ઇંચ	-10.2437
▁અવરોધ	-10.2449
▁સ્તુતિ	-10.2449
▁પેઢી	-10.245
▁ચૂકવણી	-10.2452
▁આવરી	-10.2453
▁શીખવા	-10.2462
▁પુલ	-10.2474
▁જર્મની	-10.2476
પરંતુ	-10.2486
મૃત	-10.2487
▁સંશોધક	-10.2493
▁અપેક્ષા	-10.2493
▁ઈબ્રાહિમ	-10.2493
▁સમર્પિત	-10.2493
▁ખુબ	-10.2493
▁વ્યસ્ત	-10.2493
▁ખોલવામાં	-10.2493
▁have	-10.2496
▁30.00	-10.2498
▁પર્વત	-10.2499
▁સંકેત	-10.2507
999	-10.2508
web	-10.2515
▁રૂપાંતર	-10.252
▁દેહ	-10.2522
શ્રેષ્ઠ	-10.253
▁iOS	-10.2536
▁કર્સર	-10.2538
▁૨૭	-10.2541
644	-10.2541
rc	-10.2557
rent	-10.2558
▁વગાડો	-10.2568
▁પૂરતી	-10.2572
▁કામચલાઉ	-10.258
▁ક્રિપ્ટો	-10.258
▁નાણાકીય	-10.258
▁રશિયન	-10.258
▁ટ્રેડિંગ	-10.258
group	-10.258
તાળીઓ	-10.258
▁વ્હીલ	-10.2581
સ્લીવ	-10.2581
▁ગુપ્ત	-10.2582
▁યુવાન	-10.2583
▁પતિ	-10.2584
ગ્રહ	-10.2585
▁સપ્લાય	-10.2603
▁MP	-10.2614
હ્યુ	-10.2618
▁પારદર્શક	-10.2625
▁શકાશે	-10.2626
▁સેવક	-10.2628
ection	-10.2638
▁them	-10.2643
▁હાર્	-10.2655
▁જંગલ	-10.266
▁માંગતા	-10.2664
▁જુએ	-10.2665
▁તેજસ્વી	-10.2668
▁બનશે	-10.2668
▁વિરોધી	-10.2668
▁ફાળવ	-10.2671
▁ઓછું	-10.2675
▁સીધી	-10.2681
▁કયા	-10.2681
સ્ટ્રો	-10.2682
ફાઈલ	-10.2701
▁ભાર	-10.2702
imp	-10.2706
greece	-10.2712
▁GIMP	-10.2712
પસંદ	-10.2713
ઠ્ઠ	-10.2713
▁વોટ	-10.2715
▁મકાન	-10.2716
mail	-10.2721
▁વિડિઓઝ	-10.2721
▁ટેસ્ટ	-10.2722
ose	-10.2735
▁અત્યારે	-10.2736
▁ખાતુ	-10.2736
▁સપ્લાયર્સ	-10.2736
▁ખાવા	-10.2748
▁ચાલે	-10.275
▁સંયોજનો	-10.2752
▁તાર	-10.2754
▁પોસ્ટ્સ	-10.2755
▁ફાઇબર	-10.2757
▁take	-10.2759
long	-10.2762
▁સફર	-10.277
▁શ્રેણીઓ	-10.277
▁વાંચન	-10.2777
▁જૂની	-10.278
▁Ni	-10.2789
▁સૂચિ	-10.2791
▁LIVE	-10.2801
▁પ્રબોધકો	-10.2801
▁સફળતાપૂર્વક	-10.2802
▁નમૂનાઓ	-10.2808
▁સ્વાદ	-10.2826
9001	-10.2826
્વે	-10.2833
▁રોમ	-10.284
▁હોવુ	-10.2845
\\\\	-10.2846
▁રજૂઆત	-10.2846
▁એરપોર્ટ	-10.2846
▁નિર્દેશ	-10.2847
મેઈલ	-10.2848
▁ઘાત	-10.285
▁સંયુક્ત	-10.285
ડેલ	-10.2866
રેક	-10.2872
▁જગ્યાઓ	-10.2883
પોલ	-10.2888
▁વહે	-10.2889
google	-10.2891
▁સોલ્યુશન્સ	-10.2891
▁આવતી	-10.2893
[	-10.2895
▁pref	-10.2904
▁હિંસા	-10.2912
ન્દ્ર	-10.2916
ઈટ	-10.2925
▁યુનાઈટેડ	-10.2936
▁મનુષ્ય	-10.2936
▁ફોટોગ્રાફ	-10.2936
ગરદન	-10.2936
▁Archives	-10.2937
▁States	-10.2938
▁સંભવિત	-10.2939
tab	-10.2954
war	-10.2955
લાઇટ	-10.2961
▁નકલી	-10.297
▁લાવવામાં	-10.2972
▁હાઇડ્રોલિક	-10.2982
▁થોડો	-10.2982
▁રસ્તા	-10.2982
style	-10.2982
્યુલેશન	-10.2985
▁૩૭	-10.2986
ષ્ટિ	-10.2994
▁ટેપ	-10.3003
low	-10.3007
▁કરવુ	-10.3023
▁દ્રશ્ય	-10.3027
દંપતિ	-10.3027
▁Tablet	-10.3027
lit	-10.303
ING	-10.3041
▁સમાવિષ્ટ	-10.3046
▁સીધા	-10.3054
▁હોઇ	-10.3072
▁યાત્રા	-10.3073
▁લૉગ	-10.3073
▁Cheat	-10.3073
▁કળ	-10.3074
▁રસપ્રદ	-10.3074
▁ચર્ચ	-10.3079
થિ	-10.3081
▁અતિ	-10.3087
▁સમજવા	-10.3088
▁વાદળ	-10.3093
gain	-10.3104
▁આપતુ	-10.3111
▁પ્રયોગો	-10.3112
▁બંધબેસતુ	-10.3113
દેવદૂત	-10.3119
▁ટુકડા	-10.3119
અંતઃકરણ	-10.3119
▁ટૅબ	-10.3119
▁છોકરા	-10.3121
▁પ્લેયર	-10.3122
રિયલ	-10.3132
▁માયા	-10.3143
બ્રહ્મ	-10.3166
▁બાપ્તિસ્મા	-10.3166
▁શારીરિક	-10.3166
▁વધારાના	-10.3169
▁વોચ	-10.3169
▁આવક	-10.3174
▁dis	-10.3174
▁સફળતા	-10.3189
▁ગ્રેડ	-10.3191
▁કાઢવા	-10.3192
▁આપતા	-10.3197
▁3000	-10.3202
▁વેસ્ટ	-10.3203
▁વગાડવા	-10.3204
▁સમજણ	-10.3207
▁ચોકઠાં	-10.3212
▁italy	-10.3212
▁ઈનપુટ	-10.3212
▁ટેમ્પલેટ	-10.3212
▁વ્યાખ્યા	-10.3212
travel	-10.3212
▁વૃદ્ધિ	-10.3218
ત્રિ	-10.322
▁ત્યારથી	-10.3224
બ્લ	-10.3227
▁સાચા	-10.3236
·	-10.3259
▁October	-10.3259
▁ડિલિવરી	-10.3259
▁ફૅક્સ	-10.3259
▁એન્જિનિયર	-10.326
▁શેતાન	-10.3261
▁૨૮	-10.3266
▁થતી	-10.3268
▁પૂરું	-10.3268
▁બફર	-10.3276
▁દૂતો	-10.328
▁સ્પા	-10.3287
2020	-10.3293
▁જાણું	-10.3295
province	-10.3304
▁આલ્બમ	-10.3306
▁કાનૂની	-10.3306
▁વર્ડપ્રેસ	-10.3306
▁લીડ	-10.3306
▁USB	-10.3307
ify	-10.3308
ધ્ધ	-10.3318
▁કોન્	-10.3319
▁નીકળી	-10.3319
▁Last	-10.3325
▁સાચી	-10.3326
▁પાઉલે	-10.3339
▁ખૂ	-10.3342
▁Copyright	-10.3353
▁પધ્ધતિ	-10.3353
▁સર્વાધિકાર	-10.3353
▁2005	-10.3353
▁લઘુતમ	-10.3353
way	-10.3355
▁ફ્લેટ	-10.3361
▁યેન	-10.3363
▁લગ	-10.3366
▁સમક્ષ	-10.3372
ુષ્	-10.3373
▁ઈચ્છે	-10.3384
▁તારો	-10.3396
Unlimited	-10.34
▁departments	-10.34
▁આગેવાન	-10.3401
▁જાપાન	-10.3407
▁QR	-10.3408
▁મળેલ	-10.3416
ફૂલ	-10.342
▁બાજુએ	-10.343
▁ફેશન	-10.3431
▁ઉમેદવારી	-10.3447
▁menu	-10.3448
▁બચત	-10.3448
▁આપ્યા	-10.3451
▁સેન્સર	-10.3452
ney	-10.3455
▁અધિકારીઓ	-10.3456
▁અંક	-10.3459
link	-10.3479
TJ	-10.3482
▁All	-10.3482
ask	-10.3494
н	-10.3496
આદિવાસી	-10.3496
▁Linux	-10.3496
▁કઠોર	-10.3496
▁ફરોશીઓ	-10.3496
▁શુક્રવાર	-10.3496
▁સંવેદનશીલ	-10.3496
▁ભૂમિકા	-10.3496
▁નાગરિક	-10.3496
▁વિદેશી	-10.3496
▁MDR	-10.3496
▁ઈમેઈલ	-10.35
પ્પ	-10.35
▁વાણી	-10.35
▁ડેટિંગ	-10.3502
▁સાઇટ્સ	-10.3506
▁સહાયક	-10.3508
પ્રભુ	-10.3517
und	-10.3534
2015	-10.3534
▁ચહેરા	-10.3544
▁તદ્દન	-10.3544
Color	-10.3546
▁પિલાત	-10.3546
▁વાસ્તવિકતા	-10.355
▁મહત્વનું	-10.3559
▁ખોટી	-10.3569
▁શિષ્યોએ	-10.358
▁સલામતી	-10.3586
ગેજ	-10.3587
▁ગૂગલ	-10.3592
▁બ્રેક	-10.3593
▁મરિયમ	-10.3594
પ્રિ	-10.3594
કોઈ	-10.3597
1.5	-10.36
▁રૂપાંતરણ	-10.3602
▁વ્યવસાયિક	-10.3612
સૂર્ય	-10.3616
▁ગિ	-10.3625
page	-10.3627
▁કેટેગરી	-10.3641
▁વિધેય	-10.3641
▁સત્સંગ	-10.3641
▁સરોવર	-10.3641
View	-10.3641
▁ખ્યાલ	-10.3641
▁પાળ	-10.3644
▁ક્લિપ	-10.3648
▁ઘેર	-10.3657
ક્વા	-10.366
▁માઇલ	-10.3666
સુંદર	-10.3666
▁સ્પેન	-10.369
▁સામનો	-10.3692
▁છેલ્લી	-10.3692
▁ગરીબ	-10.3692
કમળ	-10.3701
▁ભક્તિ	-10.3709
પાછળ	-10.3716
ટેટૂ	-10.3717
▁ખેલાડીઓ	-10.3719
▁મેળવે	-10.3719
▁Nov	-10.3722
સ્મ	-10.3724
▁જાતિ	-10.3725
▁નોર્	-10.3726
▁સેન્ટર	-10.3731
▁આપવી	-10.3732
▁ભલામણ	-10.3739
▁શકાતો	-10.3739
▁દિવાલ	-10.3739
▁find	-10.3739
▁એપ્લેટ	-10.3739
▁લાઈવ	-10.3739
▁રાઉન્ડ	-10.374
▁સોકેટ	-10.3746
▁જુદી	-10.3747
▁2.5	-10.3748
▁લખ્યું	-10.3749
▁હકો	-10.375
▁બર્ન	-10.3751
▁પંચ	-10.3753
▁વેચવા	-10.3754
▁Red	-10.3755
▁ટોપ	-10.3757
મેં	-10.3768
▁પ્લેન	-10.377
સ્તાન	-10.3774
qui	-10.3777
▁ડોમેઈન	-10.3788
▁વાર્ષિક	-10.3788
▁મહેમાન	-10.3788
▁સરખામણી	-10.3788
▁સાંકળ	-10.3788
▁ઓફલાઇન	-10.3791
water	-10.3795
▁1.0	-10.3796
hor	-10.3803
▁અશુદ્ધ	-10.3806
નારાઓ	-10.381
▁પકડી	-10.3811
▁Mon	-10.3811
face	-10.3814
વાદી	-10.3822
બિલ	-10.3822
▁હજારો	-10.3829
ડાઉન	-10.3833
▁કાસ્ટ	-10.3835
▁પ્રતિનિધિ	-10.3837
▁એક્સચેન્જ	-10.3837
▁પ્રસારણ	-10.3837
▁મુક	-10.384
▁પ્રિન્ટીંગ	-10.3842
ware	-10.3843
code	-10.3868
▁હેન્ડલ	-10.3869
▁આદર્શ	-10.3885
▁સ્નેપશોટ	-10.3887
▁અંદાજ	-10.3887
▁બુદ્ધિ	-10.3887
ખોપરી	-10.3888
▁બતાવી	-10.389
▁દરિયા	-10.389
▁વેગ	-10.3905
▁ધારકો	-10.3905
press	-10.3908
▁માંગે	-10.3909
▁તાળું	-10.3917
પુરુષો	-10.392
–	-10.392
2013	-10.3922
▁શરમ	-10.3931
હોકાયંત્ર	-10.3937
ectures	-10.3937
▁YouTube	-10.3938
▁button	-10.3938
▁SSL	-10.394
▁ચલણ	-10.395
▁2008	-10.3952
▁પ્રવાહ	-10.3952
▁પૂરુ	-10.3955
પ્રદ	-10.3955
▁પડકાર	-10.3959
▁રચ	-10.3964
▁દૂત	-10.3986
▁મૂર્તિ	-10.3987
▁અગ્નિ	-10.3987
▁લાંબી	-10.3987
▁પગલાં	-10.3987
▁પાલતુ	-10.3987
▁કિનારી	-10.3988
▁એલોય	-10.3988
full	-10.3989
▁નિયમશાસ્ત્ર	-10.3989
iya	-10.3996
▁ટૂંકાણ	-10.3996
bug	-10.3998
▁ગ્રીન	-10.4
china	-10.4016
▁Air	-10.4027
▁કુચ	-10.4031
ઋ	-10.4035
▁શિક્ષા	-10.4036
▁Download	-10.4038
▁સાર્મથ્ય	-10.4038
▁સૈનિકો	-10.4038
▁વસંત	-10.4038
▁Short	-10.404
▁વય	-10.4047
ઇગલ	-10.4066
ણાં	-10.4078
▁રાસાયણિક	-10.4089
▁વહીવટ	-10.4089
▁શંઘાઇ	-10.4089
▁ચુંબક	-10.4089
▁ખેતર	-10.4089
▁હેરોદ	-10.4089
redhat	-10.4089
▁PDA	-10.409
▁થાપણ	-10.4091
▁રિપોર્ટ	-10.4094
▁ગિયર	-10.4097
128	-10.4104
ઉપ	-10.4115
▁અહી	-10.4117
▁ક્લાઈન્ટ	-10.414
▁સ્ક્રિન	-10.414
▁કમિશન	-10.414
filter	-10.414
▁ફિલિપ	-10.414
File	-10.4141
ઈસુ	-10.4145
igh	-10.4149
▁પાયે	-10.4151
▁ઊંઘ	-10.4151
ally	-10.4153
▁બેન્ક	-10.416
▁કેટલી	-10.4161
▁લાવે	-10.4166
▁Que	-10.4168
▁ખસેડી	-10.4176
અથવા	-10.4181
▁Machine	-10.4191
▁અનલિમિટેડ	-10.4191
▁તાજેતરના	-10.4191
▁દિલગીર	-10.4191
▁હોન્ડા	-10.4191
▁આછો	-10.4192
બાય	-10.4213
▁સુધારી	-10.423
▁Education	-10.4242
▁ઘૂંટી	-10.4242
▁સપ્તાહ	-10.4242
▁શૂન્ય	-10.4242
▁આરંભ	-10.4243
▁છેલ્લું	-10.4243
▁અપરાધ	-10.4243
ફોર્ડ	-10.4246
▁લીધી	-10.4249
▁will	-10.4252
▁એપ્લિકેશન્સ	-10.4256
રેખા	-10.4269
love	-10.4271
ctor	-10.4273
▁વાપરેલ	-10.4275
▁દુર્	-10.4284
▁બુટ	-10.4286
▁ભરવા	-10.4287
▁ડિસે	-10.4289
▁મૂળભુત	-10.4294
▁ટિપ્સ	-10.4294
▁મૂર્ખ	-10.4294
▁કાંઈ	-10.4294
▁સાક્ષી	-10.4296
▁હોવો	-10.4297
▁રક્ત	-10.4298
▁તીર	-10.43
ietnam	-10.4302
▁નજર	-10.4305
▁કારણકે	-10.4306
પત્	-10.4311
BTC	-10.4315
like	-10.4315
▁મોટે	-10.432
650	-10.4329
સુયોજિત	-10.4341
▁બાહ્ત	-10.4346
▁ફોરેક્સ	-10.4346
▁સ્વચ્છ	-10.4351
▁દૃશ્યમાન	-10.4352
▁એન્ટિ	-10.4361
▁નોટ	-10.4393
▁Cryptocurrency	-10.4399
▁શેનઝેન	-10.4399
▁આઇટમ	-10.4399
▁સ્પીડ	-10.4399
▁MAX	-10.4411
▁બેલ્ટ	-10.443
▁પ્રેસ	-10.4444
ર્ફ	-10.4447
ભાઈ	-10.445
▁બ્લોસમ	-10.4451
▁ડાઇનિંગ	-10.4451
▁Please	-10.4451
▁અમારું	-10.4451
▁લાકડા	-10.4451
ium	-10.4453
▁લડવા	-10.4454
tech	-10.4454
editor	-10.4458
ન્ના	-10.4464
સ્વી	-10.4476
▁વિશ્વાસીઓ	-10.4477
▁ટાળ	-10.4482
▁cl	-10.4485
▁હાઈ	-10.4487
eek	-10.4494
વૃત્તિ	-10.4502
▁Rikoooo	-10.4504
▁નોટબુક	-10.4504
▁દરવાજા	-10.4504
▁અવેજી	-10.4505
zhou	-10.4505
દર્શ	-10.4507
ફેધર	-10.4516
▁હોટેલ	-10.4516
▁જાળી	-10.4517
shan	-10.4526
પાત	-10.4532
▁સ્પાય	-10.4532
▁થકી	-10.4533
cpu	-10.4534
Change	-10.4538
▁બીચ	-10.4539
▁3.0	-10.454
▁ભૂખ	-10.4545
વિસ્તાર	-10.4557
▁Company	-10.4557
▁કન્સોલ	-10.4557
▁Video	-10.4557
▁વિજેતા	-10.4558
▁સુલભ	-10.4558
વોટરક	-10.4558
{0}	-10.4561
▁સિમોન	-10.4571
gradient	-10.4611
કૃષ્ણ	-10.4611
▁TabletWise	-10.4611
▁બિનઆધારભૂત	-10.4611
▁સ્પર્ધા	-10.4611
▁સ્નાતક	-10.4611
▁અવયવ	-10.4612
▁કરતું	-10.4635
સ્સા	-10.4643
▁ક્યારેક	-10.4643
▁rarely	-10.4665
▁સજ્જ	-10.4665
▁હોસ્પિટલ	-10.4665
▁Photo	-10.4665
▁હરોળ	-10.4665
▁એજન્ટ	-10.4665
▁ધાતુ	-10.4667
▁એવોર્ડ	-10.4668
▁માળખા	-10.4668
▁રેડિયો	-10.467
ેંદી	-10.4671
▁પ્લાન્ટ	-10.4671
▁પેચ	-10.4718
▁નિષ્કર્ષણ	-10.4719
▁સિલિકોન	-10.4719
▁પરિચય	-10.4719
▁માસ્ટર	-10.4739
duct	-10.4755
▁ઓળખાય	-10.4766
▁ખેડૂત	-10.4773
▁પુખ્ત	-10.4773
▁શેનડોંગ	-10.4773
▁શૈક્ષણિક	-10.4773
▁૨૦૧૪	-10.4773
▁class	-10.4774
▁રબર	-10.478
▁હેન્ડ	-10.4789
exico	-10.4797
space	-10.4808
અર્ધવિરામ	-10.4828
▁લશ્કર	-10.4828
▁ડિસ્કાઉન્ટ	-10.4828
▁તાકાત	-10.4828
▁ફોર્મેટ	-10.4833
▁આંતર	-10.4833
▁2009	-10.4833
▁૩૫	-10.4836
▁વર્થ	-10.4839
ચ્ચ	-10.4842
▁ઘટાડવા	-10.4848
▁રાખેલા	-10.4867
▁jetetroll	-10.4883
▁ચોકસાઇ	-10.4883
▁સંતુલિત	-10.4883
▁ન્યૂનતમ	-10.4883
▁વપરાશકર્તાનામ	-10.4885
▁ક્રોધ	-10.4886
▁પત્તા	-10.4886
▁વિચિત્ર	-10.4889
▁(8)	-10.4894
▁Playing	-10.4901
▁મુદ્દાઓ	-10.4902
▁નીકળવા	-10.4904
▁નિષ્	-10.4925
▁ટાપુઓ	-10.4925
▁બ્રાઉઝ	-10.4926
olitics	-10.4938
▁{@}	-10.4938
▁આશીર્વાદ	-10.4938
▁પારસ્પરિક	-10.4938
▁શાહીનો	-10.4938
▁ઑગસ્ટ	-10.4938
▁મોટાભાગના	-10.4938
9.99	-10.495
▁રંગીન	-10.495
0.6	-10.4951
▁દૂતે	-10.4971
▁ટૅગ	-10.4976
્રેસ	-10.4981
▁Congress	-10.4993
▁એસેસરીઝ	-10.4993
▁ઝેજીઆંગ	-10.4993
▁દેખરેખ	-10.4993
▁Cauc	-10.4994
rico	-10.4999
▁રૂપિયા	-10.5007
્ટોન	-10.5014
ડ્રે	-10.504
▁આર્કાઇવ	-10.5049
▁પરિશિષ્ટ	-10.5049
▁વધસ્તંભ	-10.5049
▁અપલોડ	-10.5049
▁મંત્રણા	-10.5049
▁વિલંબ	-10.5049
▁આંગળી	-10.505
▁2.0	-10.505
▁short	-10.5051
PBF	-10.5054
લિસ્ટ	-10.5058
top	-10.5064
મેઇલ	-10.5065
ipp	-10.5074
વિદ્યા	-10.5079
right	-10.5092
▁official	-10.5105
▁એન્ટરપ્રાઇઝ	-10.5105
▁ચમત્કાર	-10.5105
▁કેન્ડી	-10.5107
▁મિશન	-10.5121
▁પ્રોમો	-10.5122
▁ટૂંકા	-10.5126
▁શકતો	-10.5127
▁આઇટી	-10.5142
▁પુરુષ	-10.5146
▁પ્રોત્સાહન	-10.5162
▁ફોર્મ્યુલા	-10.5162
▁પ્રસન્ન	-10.5162
ambia	-10.5163
▁પેટર્ન	-10.5165
▁અનુક્રમિત	-10.5169
▁પ્રકૃતિ	-10.5172
cle	-10.518
▁ગઇ	-10.518
▁ખસેડ	-10.5186
એક્સએક્સ	-10.5192
▁બોધ	-10.5203
▁બાર્	-10.521
▁તબક્કા	-10.5219
▁ઇન્સ્ટોલ	-10.5219
▁ટ્વિ	-10.5219
plug	-10.5219
▁ઉપનામ	-10.5222
▁માંગણી	-10.5224
board	-10.5225
{	-10.5227
▁ફરજ	-10.5233
▁બદલાઈ	-10.5233
▁પ્રોડક્ટ	-10.5259
ઇંગ	-10.5266
ન્હ	-10.5267
▁વૈવિધ્ય	-10.5275
▁General	-10.5276
▁અનુક્રમણિકા	-10.5276
▁કોઠારી	-10.5276
▁ગ્રુપ	-10.5276
▁એફઓબી	-10.5276
▁માનસિક	-10.5276
▁ટ્રાન્સફર	-10.5277
▁ક્લિ	-10.5291
ove	-10.5294
ઑ	-10.5295
▁દોરવા	-10.5312
▁Minimum	-10.5333
▁ઇંગલિશ	-10.5333
▁ટ્રાફિક	-10.5333
▁Whatsapp	-10.5333
▁National	-10.5333
▁ફાયદા	-10.5333
▁ડિબગ	-10.5334
▁ઉત્સાહ	-10.5334
▁ટેટૂહાથ	-10.5337
▁મુખ	-10.5339
▁તકનીક	-10.5344
eep	-10.5351
Sky	-10.5353
▁વળી	-10.5356
▁માથા	-10.5358
▁લાગ્યા	-10.5362
▁ઊઠ	-10.5368
▁રિંગ	-10.538
▁બધુ	-10.5381
ીકલ	-10.5386
▁લાઇબ્રેરી	-10.5391
vectors	-10.5391
▁ટેલિફોન	-10.5391
▁પાઉડર	-10.5391
2.5	-10.5392
▁brita	-10.5392
This	-10.54
▁બોટલ	-10.5402
▁RGB	-10.5406
▁ફોર્ટ	-10.5406
http	-10.5414
▁(3)	-10.5416
▁eu	-10.542
run	-10.5422
▁option	-10.543
▁પાઠ	-10.543
▁ભલે	-10.5436
▁અનુક્રમ	-10.5444
▁કોર્પોરેશન	-10.5449
.03.2019	-10.5449
▁ઓફલાઈન	-10.5449
▁VPN	-10.545
▁જેટલું	-10.5456
▁ધણી	-10.5477
gmail	-10.5485
▁Pinterest	-10.5508
▁એમેઝોન	-10.5508
▁કૃત્રિમ	-10.5508
turkey	-10.5508
▁ઠીક	-10.5508
▁જુગાર	-10.5508
▁ઠરાવ	-10.5508
▁યુઆન	-10.5508
▁કાપડ	-10.5508
▁GDM	-10.5509
▁API	-10.5511
▁પૂછવા	-10.5514
6.5	-10.5521
▁લોહી	-10.5522
▁eur	-10.5564
▁ગેલેરી	-10.5567
▁સેકંડ	-10.5567
▁દેખાડ	-10.557
▁પેટન્ટ	-10.5573
▁એપલ	-10.5578
▁બ્લુ	-10.5586
▁more	-10.5586
▁License	-10.5626
▁પ્લેલીસ્ટ	-10.5626
▁Microsoft	-10.5626
▁અબજ	-10.563
▁એકંદર	-10.5638
▁વહેંચાયેલ	-10.564
▁ગાળા	-10.5643
▁ચામડ	-10.5653
▁Manufacturer	-10.5685
▁inmenu	-10.5685
ELEX	-10.5685
▁પ્રીતિ	-10.5686
▁સ્કૂલ	-10.5686
▁ગ્રાન્ડ	-10.5686
▁કલર્સ	-10.5686
▁દેખાશે	-10.5687
▁લેઆઉટ	-10.5692
૦૦૦	-10.5733
india	-10.5737
હાય	-10.5741
▁europa	-10.5745
▁એનક્રિપ્ટ	-10.5745
▁ડોંગગુઆન	-10.5745
▁પદ્દતિ	-10.5745
▁નકારાત્મક	-10.5745
▁પંચાળા	-10.5745
ટેન્શન	-10.5745
▁થોડું	-10.5745
▁ભાષાંતર	-10.5745
▁ચાંદી	-10.5745
▁વહાણ	-10.5745
▁28.00	-10.5747
▁૨૪	-10.5751
▁પામ્યો	-10.576
print	-10.5778
ચિત્ર	-10.5789
0.000	-10.5803
સ્વપ્નકૃષ્ટી	-10.5805
▁યહૂદા	-10.5805
ડબ્લ્યુ	-10.5805
▁શ્ર્વે	-10.5806
▁જાપાનીઝ	-10.5806
▁જાન્યુ	-10.5806
gnome	-10.5806
▁ક્યારે	-10.5822
▁હવાઈ	-10.5825
▁સ્કોર	-10.5847
▁કોંગ્રેસ	-10.5866
▁વિગતવાર	-10.5866
▁%1$	-10.5866
▁Auto	-10.587
▁૭૬	-10.5871
▁યુરોપિયન	-10.5873
9.5	-10.588
▁સ્ટાફ	-10.589
head	-10.5907
email	-10.5908
▁ઉન્નત	-10.5915
જ્ઞ	-10.5917
▁એનક્રિપ્શન	-10.5927
▁વીજળી	-10.5927
▁હસ્તાક્ષર	-10.5927
તાક્ષરો	-10.5927
▁કીરીંગ	-10.5927
▁પોતાનો	-10.5928
▁મેનેજર	-10.5928
▁ટોનર	-10.5929
▁વળતર	-10.5931
▁ક્રમાંક	-10.5935
▁બાયો	-10.5943
arque	-10.5967
▁નાટક	-10.5969
ેક્	-10.597
0.8	-10.5973
Tube	-10.598
▁જોડાય	-10.5982
▁અલબત્ત	-10.5988
▁Edition	-10.5988
▁અમાન્ય	-10.5988
▁શરુઆત	-10.5989
▁જર્સી	-10.599
▁પોર્ટેબલ	-10.5991
▁વિજય	-10.5991
▁સ્ટ્રોક	-10.5991
▁Game	-10.5992
▁ફાળો	-10.5993
▁લાયક	-10.5995
tain	-10.5998
ચિહ્ન	-10.603
т	-10.605
atalonia	-10.605
▁અગમચેતીઓ	-10.605
▁આજુબાજુ	-10.605
▁ઉલ્લેખ	-10.605
▁ઓપરેટિંગ	-10.605
▁કૉપિયર	-10.605
▁લેપટોપ	-10.605
«	-10.605
▁દૂધ	-10.605
દાયક	-10.6054
▁ટચ	-10.6082
other	-10.6099
મંડળ	-10.6111
▁Karnar	-10.6112
▁ઉદ્ભવી	-10.6112
▁પહોળાઇ	-10.6112
▁પોપઅપ	-10.6112
▁નવીનતમ	-10.6112
▁સ્ક્રીનશોટ	-10.6112
▁ડેવિડ	-10.6112
yahoo	-10.6112
▁%2$	-10.6112
▁મોનીટર	-10.6113
▁વાસના	-10.6113
▁બંદર	-10.6114
xml	-10.6163
ુઆન	-10.6169
azerbaijan	-10.6175
▁યશાયા	-10.6175
▁સોનાટાટ્ટો	-10.6175
▁જ્હોન	-10.6175
▁આશ્રય	-10.6175
▁ઓપ્ટિક	-10.6175
▁મહારાજ	-10.6175
razil	-10.6176
▁પ્રમાણિત	-10.6191
ઔ	-10.6238
▁આધ્યાત્મિક	-10.6238
▁Bitcoin	-10.6238
▁Blackjack	-10.6238
▁ઈન્ટરફેસ	-10.6238
▁તળિયે	-10.6238
▁વ્યૂહરચના	-10.6238
▁સ્પીનોની	-10.6238
▁રસ્તો	-10.6238
▁Patel	-10.6238
▁ગાલીલ	-10.6238
▁સ્પર્શ	-10.6238
down	-10.6253
▁વાલા	-10.6258
્રેટ	-10.629
ગેટ	-10.6294
▁Slotjar	-10.6301
▁નમૂનો	-10.6301
▁મતલબ	-10.6301
uerto	-10.6301
▁ફરિયાદ	-10.6301
▁ઠંડા	-10.6301
▁શંકા	-10.6301
spain	-10.6302
▁ચોક્કસપણે	-10.6305
▁એકત્રિત	-10.6313
સ્ક્રીન	-10.6353
▁વૃદ્ધ	-10.6357
▁સ્ટાન્ડર્ડ	-10.6365
▁વેલ્ડિંગ	-10.6365
▁Text	-10.6365
▁કિબોર્ડ	-10.6369
Gtk	-10.6372
▁04:	-10.6398
crea	-10.6407
▁Slot	-10.6411
france	-10.6418
ટાઇમ	-10.6421
▁અલ્ટ્રાસાઉન્ડ	-10.6429
▁ઓસ્ટ્રેલિયા	-10.6429
▁યાકૂબ	-10.6429
▁વર્કઆઉટ	-10.6429
command	-10.6429
▁રોબોટ	-10.6429
change	-10.6431
▁દાયકા	-10.6432
▁કેટલો	-10.6436
▁પૂછ્યું	-10.6441
start	-10.6474
▁પશુ	-10.648
title	-10.6485
▁ધરાવતા	-10.6493
▁નુકશાન	-10.6493
▁ફ્લેશ	-10.6494
▁અમલીકરણ	-10.6495
▁સ્ક્વેર	-10.6495
▁યોજ	-10.6502
▁Watch	-10.6503
▁પુનર્	-10.653
▁XXX	-10.6535
▁કાર્યક્ષમ	-10.6537
▁પ્રેરણા	-10.6542
€	-10.6551
ا	-10.6558
▁કોસ્મેટિક	-10.6558
▁નેરોલેક	-10.6558
▁સર્જનાત્મક	-10.6558
▁સંતોષ	-10.6558
▁ઈશ્વર	-10.6558
▁કામદારો	-10.6559
નિંદા	-10.656
▁true	-10.6561
▁લોન્ચ	-10.6563
▁પોઇન્ટ	-10.6564
▁વાઇન	-10.6572
▁મૂક્યો	-10.6576
▁અંશ	-10.6595
જ઼	-10.6606
thailand	-10.6624
▁કિસ્સામાં	-10.6624
▁પીડીએફ	-10.6624
▁દાઉદ	-10.6624
▁પ્રેશર	-10.6624
▁ઉમેદવાર	-10.6625
▁free	-10.6632
▁ત્યાગ	-10.6634
▁8400	-10.6643
asa	-10.6673
NamePossessive	-10.6689
donesia	-10.6689
▁ક્લાયન્ટ	-10.6689
▁નિરીક્ષણ	-10.6689
▁પ્રાધાન્ય	-10.6689
▁મનોરંજન	-10.6689
▁રમતગમત	-10.6689
▁શિક્ષિત	-10.6689
▁પ્રવેગ	-10.669
▁સ્વીચ	-10.6695
▁ધપાવ	-10.67
▁લાગ્યું	-10.6701
▁સાઈટ	-10.6702
ગૃહ	-10.6702
▁સ્કેલ	-10.671
Mail	-10.671
હાઇડ્રો	-10.675
પ્રાપ્ત	-10.6754
í	-10.6756
▁modified	-10.6756
▁ઉપલ્બધ	-10.6756
▁થ્રેશોલ્ડ	-10.6756
▁બ્રિજ	-10.6756
в	-10.6756
▁સ્વિચ	-10.6756
▁રેન્ડમ	-10.6756
▁પ્રોટીન	-10.6756
▁Power	-10.6756
▁નેશનલ	-10.6756
▁હૂક	-10.6759
▁અંકિત	-10.6766
▁8250	-10.6767
▁hack	-10.6769
ેટેડ	-10.6775
State	-10.6783
▁નોકર	-10.6796
▁ઇન્જેક્શન	-10.6822
▁વ્યભિચાર	-10.6822
▁સ્પર્ધાત્મક	-10.6822
▁અતિશય	-10.6822
▁આગાહી	-10.6822
▁મહિને	-10.6822
બિંદુ	-10.6823
▁તાજા	-10.6833
Box	-10.684
▁જથ્થા	-10.684
▁ખેલાડી	-10.6849
▁બદલાયેલ	-10.6862
RAM	-10.6865
Indian	-10.6869
▁પ્રેરિત	-10.6884
▁ગેરકાયદે	-10.6889
▁યૂસફ	-10.6889
html	-10.6889
▁1703,	-10.689
▁ડ્રોપ	-10.6905
▁દીવ	-10.6916
▁જર્મન	-10.6918
zimbabwe	-10.6957
▁અભિગમ	-10.6957
▁શિકાગો	-10.6957
▁સ્માર્ટફોન	-10.6957
▁પૈકી	-10.6957
▁લાંબો	-10.6957
▁પરાક્રમ	-10.6957
!!!	-10.6958
▁ગીતશાસ્ત્ર	-10.6959
જ્યારે	-10.6961
▁has	-10.6962
▁આવકાર	-10.6964
▁With	-10.6965
▁1.2	-10.6968
▁કતાર	-10.6969
rypt	-10.6978
બ્બ	-10.6997
у	-10.7025
▁SlotJar	-10.7025
▁ઈતિહાસ	-10.7025
▁ડિફૉલ્ટ	-10.7025
▁વોટરપ્રૂફ	-10.7025
▁123456	-10.7025
▁"{0}"	-10.7025
▁મેડિકલ	-10.7025
▁પાર્ટ્સ	-10.7025
2005-2018	-10.7025
▁સ્નાયુ	-10.7025
▁year	-10.7026
▁ફિટિંગ	-10.7028
▁હુકમ	-10.703
0.4	-10.7057
message	-10.7093
▁જોડાઈ	-10.7094
▁પ્રસંગ	-10.7094
709,	-10.7126
ોલોજી	-10.7145
▁બિનયહૂદિ	-10.7162
▁વર્તણૂક	-10.7162
▁સંઘર્ષ	-10.7162
▁સમયગાળો	-10.7162
▁અંધકાર	-10.7162
▁GNU	-10.7163
▁ત્વચા	-10.7163
Ctrl	-10.7163
▁ગર્ભ	-10.7164
▁ઇન્ડિયા	-10.7166
607,	-10.7186
▁ત્યાર	-10.7188
▁4.0	-10.7224
Description	-10.7229
▁Global	-10.7232
▁ઈકોમર્સ	-10.7232
▁ગુઆંગડોંગ	-10.7232
▁જન્મદિવસ	-10.7232
▁ટેક્નોલોજી	-10.7232
▁ન્યૂનત્તમ	-10.7232
▁બાર્નાબાસ	-10.7232
▁ભંડોળ	-10.7232
▁રહસ્ય	-10.7232
▁રીસોર્ટ્સ	-10.7232
▁વોલપેપર	-10.7232
▁માતાપિતા	-10.7232
▁બગડેલ	-10.7232
▁અગત્ય	-10.7232
▁આમંત્રણ	-10.7232
▁ITC	-10.7232
▁વલણ	-10.7233
▁PCI	-10.7234
▁Porn	-10.7241
▁શાંત	-10.7244
▁સફાઈ	-10.725
▁લગાવ	-10.7255
શુદ્ધિ	-10.7255
0.7	-10.7269
▁તારે	-10.7291
▁[...]	-10.7302
▁બ્રિટિશ	-10.7302
▁પ્રતિસાદ	-10.7302
▁ઉર્જા	-10.7302
▁વિશ્વભરમાં	-10.7302
▁check	-10.7302
▁ઓછો	-10.7302
▁જરુરી	-10.7302
▁બન્યા	-10.7304
▁મિરર	-10.7307
▁કેનેડા	-10.7308
▁પ્રતિબંધ	-10.7309
‘	-10.7316
કેટલાક	-10.7316
▁ભેજ	-10.7318
▁અત્યાર	-10.7334
સ્પી	-10.7372
▁કટોકટી	-10.7372
▁ટ્રેડમિલ	-10.7372
▁સ્કાયપે	-10.7372
romania	-10.7372
▁ગિટાર	-10.7372
▁સવારે	-10.7373
▁LLC	-10.7373
▁ચૂકવણું	-10.7374
proof	-10.7376
phone	-10.7378
▁ફાર્મ	-10.7388
ન્ત	-10.7416
auto	-10.742
/09/2019	-10.7443
▁ગેરહાજર	-10.7443
▁જાળવણી	-10.7443
▁પ્રખ્યાત	-10.7443
▁લાઈસન્સ	-10.7443
▁***	-10.7443
mobile	-10.7443
▁2018-10-	-10.7443
▁ફેડરલ	-10.7444
ગુજરાતી	-10.7461
▁ચોંટાડો	-10.7515
▁રવિવાર	-10.7515
▁સંકલિત	-10.7515
▁થોમસ	-10.7515
▁પ્રમોશન	-10.7515
▁મિલકત	-10.7515
▁સાયન્સ	-10.7515
VAC	-10.7517
▁ફાયર	-10.7523
▁ટોકન	-10.7544
▁Ethereum	-10.7586
▁ધરાવતી	-10.7586
number	-10.7586
▁ઘેટાં	-10.7586
▁વ્યાજ	-10.7588
Spot	-10.7589
▁વળાંક	-10.7589
▁શાસ્ત્રીઓ	-10.7593
×	-10.7609
દૂર	-10.7612
ઇલેક્ટ્ર	-10.7657
ification	-10.7659
ä	-10.7659
▁કંટ્રોલ	-10.7659
▁પ્રત્યુત્તર	-10.7659
▁મિશ્રિત	-10.7659
▁મલ્ટિ	-10.7659
▁તણાવ	-10.7659
▁ઝેરી	-10.766
▁શાઉલ	-10.7661
▁છેલ્લો	-10.7663
▁ગલન	-10.7666
▁એકદમ	-10.7669
▁any	-10.7683
▁તમારુ	-10.7711
Transposh	-10.7732
▁ધ્યેય	-10.7732
▁સિરામિક	-10.7732
▁માપદંડ	-10.7732
▁ગ્રંથ	-10.7732
▁ફ્રોમ	-10.7732
▁સ્ટીકર	-10.7732
▁રૂબલ	-10.7732
ough	-10.7732
▁વસ્તી	-10.7732
▁શેરીઓમાં	-10.7732
▁રાજકીય	-10.7734
▁વહેંચણી	-10.7737
Show	-10.7755
▁Gujarat	-10.7795
content	-10.7805
ö	-10.7805
▁Business	-10.7805
▁આઉટડોર	-10.7806
▁ધૂળ	-10.7806
▁જ્યોર્જ	-10.7806
▁છુપાયેલ	-10.7807
▁ગુલામ	-10.7807
self	-10.7808
▁આવ્યુ	-10.7864
9.00	-10.7868
▁ઓનલાઈન	-10.788
▁સમયગાળા	-10.788
▁આલેખ	-10.7881
▁ક્લબ	-10.7883
▁આઇકોન	-10.7883
▁હિસ્ટ્રી	-10.7883
▁ટાઇલ્સ	-10.7885
▁બૂમ	-10.7909
Constellation	-10.7911
ાત્મા	-10.7912
▁ઝુ	-10.7929
▁માર્કેટ	-10.7949
palette	-10.7954
Pirater	-10.7954
▁Gratuit	-10.7954
▁ઑબ્જેક્ટ	-10.7954
▁સાહિત્ય	-10.7954
▁સ્લાઇડ	-10.7954
л	-10.7954
▁32.00	-10.7964
▁ગ્રીક	-10.7965
.04.2019	-10.8029
▁વત્તા	-10.803
▁Open	-10.803
MHZ	-10.803
▁ટાયર	-10.803
Action	-10.8031
▁કણો	-10.8033
2.0	-10.8047
્યુલર	-10.8052
▁teether	-10.8105
▁કોમ્પ્યુટર	-10.8105
▁ટ્રાન્ઝિશનલ	-10.8105
▁દ્ધારા	-10.8105
▁બ્લુટુથ	-10.8105
▁વિદેશમાં	-10.8105
ડેનિસ	-10.8106
▁રેટેડ	-10.8107
▁કડક	-10.8108
▁આપણો	-10.8108
▁પરિપૂર્ણ	-10.8108
%%)	-10.8109
▁સિંગલ	-10.8114
▁ખૂણા	-10.8115
Key	-10.8116
0-0	-10.8137
આધારિત	-10.8143
આગળ	-10.8143
Tech	-10.8144
▁તંદુરસ્ત	-10.8181
▁તાજેતરમાં	-10.8181
▁મમ્મીએ	-10.8181
▁સ્ટેનલેસ	-10.8181
▁પ્રસ્તુત	-10.8181
▁ફેબ્રિક	-10.8181
▁વિધાનસભા	-10.8181
▁શનિવાર	-10.8181
▁ટેબ્લેટ	-10.8181
▁ચરબી	-10.8182
▁શિષ્ય	-10.8186
symbols	-10.8189
≥98%	-10.8258
▁મુદ્દો	-10.8258
▁IMAP	-10.8258
▁રાણી	-10.8262
channel	-10.8336
▁Software	-10.8336
▁navigation	-10.8336
▁republic	-10.8336
▁દીધું	-10.8336
▁લાઇસન્સ	-10.8336
▁ધીરજ	-10.8336
▁અર્પણ	-10.8336
▁કાયદો	-10.8336
▁શોપિંગ	-10.8336
▁ધીમે	-10.8336
▁કચરો	-10.8336
▁દ્વિ	-10.8338
▁ઉપયોગિતા	-10.8338
▁તરંગ	-10.8338
▁જાળીદાર	-10.8339
Private	-10.8414
PropertyName	-10.8414
▁unlimited	-10.8414
▁અદ્ભુત	-10.8414
▁ક્રિસમસ	-10.8414
▁વ્યવસ્થિત	-10.8414
▁સંતુલન	-10.8414
▁સંલગ્ન	-10.8414
▁સમયસમાપ્તિ	-10.8414
▁સુઝુકી	-10.8414
▁દુઃખ	-10.8414
▁સિક્કા	-10.8414
▁SQL	-10.8414
▁2011-2012	-10.8493
▁એલાર્મ	-10.8493
▁પ્રેરક	-10.8493
▁ઇલેક્ટ્રીક	-10.8493
▁ફોકસ	-10.8493
error	-10.8493
video	-10.8494
▁આવતો	-10.8496
▁ઓફસેટ	-10.8496
▁જહાજ	-10.8498
ôl	-10.853
ر	-10.8572
▁municipalit	-10.8572
lithuania	-10.8572
ѕ	-10.8572
▁ટિકિટ	-10.8572
▁ફાયરફોક્સ	-10.8572
Permissions	-10.8572
▁afeat	-10.8572
▁ઇટાલી	-10.8572
▁દરરોજ	-10.8572
▁exp	-10.862
geria	-10.8652
▁કૃષિ	-10.8652
ત્યારબાદ	-10.8652
▁લાંબુ	-10.8652
▁એટલું	-10.8653
▁વિરામ	-10.8654
}}	-10.8655
▁જનરલ	-10.8667
સ્કેપ	-10.8715
▁Instagram	-10.8733
▁Public	-10.8733
▁કાઉન્ટી	-10.8733
▁પુનરાવર્તન	-10.8733
▁વૈવાહિક	-10.8733
▁મોઢું	-10.8733
▁અમારે	-10.8733
▁ઇમારત	-10.8735
▁સંયોજન	-10.8741
▁ભજવ	-10.876
ngxi	-10.8808
▁પાર્ટી	-10.8812
▁અમર્યાદિત	-10.8814
▁કૌંસ	-10.8814
▁સૂક્ષ્મ	-10.8814
і	-10.8814
Control	-10.8814
▁સાહેબ	-10.8814
▁બટલર	-10.8814
hostface	-10.8815
▁બેઠો	-10.8815
▁અણુ	-10.8874
▁ખીલ	-10.8886
▁System	-10.8896
▁ટુંકાણ	-10.8896
▁ટ્રેઇલર્સ	-10.8896
▁તબક્કો	-10.8896
▁સબ્સ્ક્રાઇબ	-10.8896
▁પોષણ	-10.8896
▁મૂલ્યાંકન	-10.8896
▁સંભાવના	-10.8896
▁કલીક	-10.8898
▁પૂલ	-10.8903
▁ફાઇલનામ	-10.8908
REC	-10.8952
▁અઠવાડિયુ	-10.8979
▁કન્સેપ્ટ	-10.8979
▁દુશ્મન	-10.8979
▁નિશ્ચિત	-10.8979
▁બાથરૂમ	-10.8979
▁એક્સપ્રેસ	-10.8979
▁કૈસર	-10.8979
▁આવર્તન	-10.8979
▁ક્રાંતિ	-10.8979
▁તૂટી	-10.8979
▁ધન્ય	-10.8979
▁રાજ્યાસન	-10.8979
▁રીડર	-10.898
JPY	-10.8981
▁જરુંર	-10.8987
સ્થાપિત	-10.9042
ઊ	-10.9046
▁ચુક	-10.9055
▁Jailbreak	-10.9062
▁રજિસ્ટર	-10.9062
Access	-10.9062
▁ટાળ્યાનું	-10.9062
▁મોજણી	-10.9062
▁સ્ક્રોલ	-10.9062
▁ડીવીડી	-10.9062
▁સચોટ	-10.9062
▁ટકાવારી	-10.9062
▁અવકાશ	-10.9062
▁ત્રીજા	-10.9062
▁પ્રશંસા	-10.9063
▁કેડીઇ	-10.9063
▁ઉડાન	-10.9063
▁ભેદ	-10.9065
ટાઉન	-10.9072
ક્ષેત્ર	-10.9131
oxy	-10.9134
▁નિવૃત્ત	-10.9145
▁જ્વેલરી	-10.9146
▁શીપીંગ	-10.9146
▁સન્માન	-10.9146
▁હકારાત્મક	-10.9146
▁વ્હાઇટ	-10.9147
▁POR	-10.9147
▁apk	-10.9148
▁ટાવર	-10.9148
▁કિશોર	-10.9149
▁કહ્યા	-10.915
▁ઋગ	-10.9151
▁ડિમન	-10.9155
{{	-10.9158
▁window	-10.92
olombia	-10.9231
▁California	-10.9231
▁Facebook	-10.9231
▁Technology	-10.9231
▁ઠંડક	-10.9231
▁મેટાડેટા	-10.9231
▁મૈત્રીપૂર્ણ	-10.9231
▁લાઈબ્રેરી	-10.9231
▁વિપરીત	-10.9231
●	-10.9231
▁ઉજવણી	-10.9231
▁લૌરા	-10.9231
▁સુન્નત	-10.9231
▁લન્ડન	-10.9231
▁અંહિ	-10.9231
▁મેલફોર્મ	-10.9231
▁HGH	-10.9231
craft	-10.9231
▁સસ્તા	-10.9231
▁Ltd	-10.9232
▁બનાવનાર	-10.9234
soft	-10.9263
▁Corporation	-10.9316
▁ઇલિનોઇસ	-10.9316
▁એનિમેશન	-10.9316
▁એરક્રાફ્ટ	-10.9316
▁ડેવલપમેન્ટ	-10.9316
▁યાંત્રિક	-10.9316
▁ખાણકામ	-10.9316
.05.2019	-10.9316
▁હમેશા	-10.9316
ભ્રમણ	-10.9316
▁અડધા	-10.9317
વસ્તુ	-10.9325
XXXX	-10.9347
પૃથ્વી	-10.9395
▁લાક્ષણિક	-10.9402
▁December	-10.9402
▁Txxx	-10.9402
▁weekday	-10.9402
▁કારકિર્દી	-10.9402
▁કાવાસાકી	-10.9402
▁ફ્રેન્ચ	-10.9402
▁લઘુત્તમ	-10.9402
▁સિલિન્ડર	-10.9402
▁હ્રદય	-10.9402
▁August	-10.9402
▁અવતાર	-10.9405
5.98	-10.9407
Trade	-10.941
ફશોર	-10.9413
▁હજાર	-10.9417
fghanistan	-10.9489
twitter	-10.9489
▁ગૌરવ	-10.9489
▁ન્યુનત્તમ	-10.9489
▁બહુવિધ	-10.9489
▁ખુલ્લા	-10.9489
script	-10.9489
▁ધરાવતુ	-10.9489
▁કોષો	-10.949
▁મોકલનાર	-10.9495
▁વ્હ	-10.9498
વિલ્લે	-10.9509
▁ફેલાવ	-10.9559
Φ	-10.9577
฿	-10.9577
▁QEMU	-10.9577
▁અપાવનાર	-10.9577
▁પ્રીમિયમ	-10.9577
▁સ્ટેઈનલેસ	-10.9577
▁સર્કિટ	-10.9577
	-10.9577
▁સંરક્ષણ	-10.9577
▁મહેનત	-10.9577
▁નહોતી	-10.9577
▁મશિન	-10.9578
▁જોડાઓ	-10.9578
▁under	-10.9578
▁સ્નાન	-10.9598
windows	-10.9609
ીઅન	-10.9658
જીવંત	-10.9665
પ્રકાશ	-10.9666
વિશ્રામવાર	-10.9666
▁Kothari	-10.9666
▁November	-10.9666
▁કન્ટેનર	-10.9666
▁પ્રતિબિંબ	-10.9666
▁વિભાજિત	-10.9666
▁સ્વામિનારાયણ	-10.9666
▁સોસાયટી	-10.9666
▁Products	-10.9666
▁શુભેચ્છા	-10.9666
▁ટેકનિકલ	-10.9666
▁પોઈન્ટ	-10.9666
▁સમાંતર	-10.9666
▁બન્યો	-10.9667
▁સ્વપ્ન	-10.9669
▁ક્રોન	-10.9698
▁Jizerou	-10.9755
▁બુધવાર	-10.9755
▁મીણબત્તી	-10.9755
▁2019-02-	-10.9755
▁ગૌણ	-10.9755
▁અદભૂત	-10.9755
▁about	-10.9755
bonus	-10.9756
▁સંગઠન	-10.9757
▁લઘુ	-10.9844
▁Tewhan	-10.9845
▁sonication	-10.9845
▁ઓક્સિજન	-10.9845
▁ગુણોત્તર	-10.9845
▁સાંકેતિક	-10.9845
Contributions	-10.9845
▁Stateville	-10.9845
▁શબ્દકોષ	-10.9845
▁કાર્યવાહી	-10.9845
▁ભૂતપૂર્વ	-10.9845
▁કદાપિ	-10.9845
▁જીત્યાનું	-10.9845
પ્રકાર	-10.985
Select	-10.9858
▁તુલના	-10.9867
▁તોફાન	-10.9894
Media	-10.9918
▁ડાયમેન્શન	-10.9936
▁ફાઉન્ડેશન	-10.9936
Unthank	-10.9936
▁Credit	-10.9936
▁લાઇફ	-10.9936
▁દ્રઢ	-10.9936
▁ટેક્સ્ટ	-10.9936
should	-10.9943
£	-10.9943
turn	-10.9949
enezuela	-11.0028
▁લાયસન્સ	-11.0028
▁એજન્સી	-11.0028
▁કસરત	-11.0028
▁Micro	-11.0028
▁આયર્ન	-11.0028
ville	-11.0028
▁સ્ટેન્ડ	-11.0028
▁માસિક	-11.0028
Sales	-11.0033
convert	-11.0034
ROM	-11.0045
▁નિશ્ચય	-11.0087
्	-11.012
^	-11.012
м	-11.012
▁Webtalk	-11.012
▁software	-11.012
▁સ્થપાયેલ	-11.012
▁જીપીએસ	-11.012
▁JSON	-11.012
▁વિડીયો	-11.012
▁ફેંકી	-11.012
▁દીવાલ	-11.0121
Shift	-11.0121
▁વાદ્ય	-11.0121
પ્રમાણ	-11.0132
ક્ચર	-11.0143
▁ઘણુ	-11.0187
▁shoppingdirect	-11.0214
å	-11.0214
LIVEFROMLOCKDOWN	-11.0214
á	-11.0214
▁Brasero	-11.0214
▁MOSAIC	-11.0214
▁ગ્લોબલ	-11.0214
▁ચોકઠું	-11.0214
▁ધુમ્મસ	-11.0214
▁અમદાવાદ	-11.0214
▁ભંગાણ	-11.0214
▁વિરુદ્ધ	-11.0214
▁સત્પુરુષ	-11.0214
▁ઓપરેશન	-11.0214
▁હોર્મોન	-11.0214
▁ઇવેન્ટ	-11.0214
▁શ્વાસ	-11.0214
▁રેલવે	-11.0214
Rider	-11.0214
▁કોન્કર	-11.0216
મૂળભૂત	-11.0229
▁નિવાસ	-11.0242
▁Tumblr	-11.0308
ominican	-11.0308
▁glamor	-11.0308
▁અવર્ગીકૃત	-11.0308
▁પ્રોફેસર	-11.0308
▁ફાઇબરગ્લાસ	-11.0308
▁સંકલન	-11.0308
▁સંપાદન	-11.0308
▁સામયિક	-11.0308
▁સુનિશ્ચિત	-11.0308
▁દીધો	-11.0308
▁2018-11-	-11.0308
▁એકસાથે	-11.0308
▁Folder	-11.0308
zaire	-11.0308
source	-11.0308
▁admin	-11.0309
▁પરમાણુ	-11.0309
▁આખરે	-11.0309
▁યોર્ક	-11.0309
▁POP	-11.0309
▁ખૂલેલ	-11.0313
slot	-11.0324
▁wordpress	-11.0403
system	-11.0403
μ	-11.0403
નિર્વિકલ્પ	-11.0403
▁LEWISBURG	-11.0403
structur	-11.0403
▁જુનિયર	-11.0403
▁એસએમએસ	-11.0403
▁પિતૃ	-11.0403
USMLE	-11.0403
▁ટાઈમ	-11.0403
▁સપ્ટે	-11.0403
▁મેક્સિકો	-11.0403
▁SMU	-11.0404
▁દીધા	-11.0405
▁PDF	-11.0405
nkit	-11.0416
Exp	-11.0424
▁method	-11.0499
XCHARX	-11.0499
▁પ્રોત્સાહિત	-11.0499
▁ઠંડી	-11.0499
▁સેન્ટ્રલ	-11.0499
zoom	-11.0499
Socket	-11.05
▁બન્ને	-11.05
▁લાક્ષણિકતાઓ	-11.05
▁when	-11.05
▁કોલેટ્સ	-11.05
▁નસીબ	-11.05
▁દીધી	-11.05
▁લેટિન	-11.0513
▁શકીશ	-11.0518
સંગીત	-11.0523
Share	-11.0557
▁આવનાર	-11.0565
યોજિત	-11.0594
ी	-11.0597
▁January	-11.0597
▁જાવાસ્ક્રિપ્ટ	-11.0597
▁ધિક્કાર	-11.0597
▁ફેરબદલી	-11.0597
▁યંત્ર	-11.0597
▁લંબચોરસ	-11.0597
▁સંકુચિત	-11.0597
▁ટ્યુટોરીયલ	-11.0597
▁શોષણ	-11.0597
▁Charter	-11.0597
▁inmate	-11.0597
▁લૉક	-11.0597
▁સંબોધ	-11.0597
▁2019-01-	-11.0597
▁ત્રીજી	-11.0597
▁નહોતા	-11.0597
▁+0000.	-11.0597
▁2018-12-	-11.0597
▁Apk	-11.0597
Studio	-11.0695
YUAN	-11.0695
▁Litecoin	-11.0695
▁minutes	-11.0695
▁અચાનક	-11.0695
▁એડેપ્ટર	-11.0695
▁સેમસંગ	-11.0695
▁ગુસ્સે	-11.0695
▁સુનાવણી	-11.0695
display	-11.0695
▁વર્તુળ	-11.0695
▁પોલાણ	-11.0695
level	-11.0695
▁શકાતા	-11.0695
graph	-11.0696
▁જણાય	-11.0701
▁નબળા	-11.0714
દુકાન	-11.0724
વીડિયો	-11.0724
search	-11.0724
▁મંજૂર	-11.0739
udan	-11.074
▁વ્યક્ત	-11.0771
▁description	-11.0794
▁અપારદર્શકતા	-11.0794
▁જાળવવા	-11.0794
▁તપશ્ચર્યાસ્થાન	-11.0794
▁દિલ્હી	-11.0794
▁યહૂદી	-11.0794
▁પ્રણાલી	-11.0794
▁લખેલું	-11.0794
▁નહોતો	-11.0794
▁ટોળીઓ	-11.0794
▁ભેગુ	-11.0794
aragua	-11.0794
▁ઉઘાડ	-11.0796
▁ક્વોટ	-11.0798
▁BLOODS	-11.0894
▁EMBA	-11.0894
▁Semiconductor	-11.0894
▁World	-11.0894
▁ગેંગ્સ્ટા	-11.0894
▁ડુકાટી	-11.0894
▁દ્રાક્ષારસ	-11.0894
▁સંગ્રહપદ્ધતિ	-11.0894
▁લૂકઅપ	-11.0894
preset	-11.0894
shopify	-11.0894
▁ટેટૂપગ	-11.0894
▁AUD	-11.0894
Trans	-11.0991
Australia	-11.0995
▁Crochet	-11.0995
▁Technologies	-11.0995
▁Virtual	-11.0995
▁ક્વિન્ગડાઓ	-11.0995
▁ટીપ્પણી	-11.0995
▁પૂંઠું	-11.0995
▁LDAP	-11.0995
custom	-11.0995
▁હેલ્થ	-11.0995
▁plus	-11.0995
wind	-11.1017
વિશ્વાસ	-11.1033
▁હમણા	-11.1076
▁માઇક્રોસોફ્ટ	-11.1097
▁રાઉટર	-11.1097
▁વિભાજક	-11.1097
▁વૈરાગ્ય	-11.1097
▁શણગાર	-11.1097
▁શૂરવીર	-11.1097
WHSR	-11.1097
▁Nimki	-11.1097
▁પુરુંષ	-11.1097
▁લાકડું	-11.1097
▁Adress	-11.1097
▁આગમન	-11.1097
LUO	-11.1097
▁જમણા	-11.1102
▁અભિપ્રાય	-11.1127
દક્ષિણ	-11.1138
▁કુશળ	-11.1178
અભિવાદન	-11.12
▁Movie	-11.12
▁હલવાન	-11.1201
Plug	-11.1204
▁બપોર	-11.1207
Security	-11.1304
iCalImp	-11.1304
▁Generator	-11.1304
▁ત્રિજ્યા	-11.1304
▁લક્ઝરી	-11.1304
.06.2019	-11.1304
▁ચોકસાઈ	-11.1304
▁Posted	-11.1304
▁અનંતજીવન	-11.1304
દૃષ્ટિ	-11.1304
▁વિદાય	-11.1304
Japan	-11.1304
▁પાઈપ	-11.1308
south	-11.1334
▁ફેલાય	-11.1376
abbreviated	-11.1409
▁Germany	-11.1409
▁પૃષ્ઠભૂમિ	-11.1409
▁લંબાઇ	-11.1409
▁વનસ્પતિ	-11.1409
▁સકારાત્મક	-11.1409
▁નારંગી	-11.1409
▁પ્રાચીન	-11.1409
▁ટાંકી	-11.1409
▁ઓળખાતો	-11.1409
▁tips	-11.1409
Next	-11.141
▁હંમેશ	-11.1428
પશ્ચિમ	-11.1461
desktop	-11.1516
▁Service	-11.1516
Calendar	-11.1516
▁તૃતીય	-11.1516
▁હિંમત	-11.1516
▁કારખાનું	-11.1516
▁વિરોધ	-11.1516
mission	-11.1516
▁હાયપર	-11.1516
▁પ્રદાતા	-11.1516
▁ઘોડા	-11.1516
▁વિતરક	-11.1517
વડાવ	-11.153
Total	-11.1574
▁Bowflex	-11.1623
▁બાઇબલ	-11.1623
sweden	-11.1623
▁website	-11.1623
▁ઇન્જેક્ટર	-11.1623
▁એક્સેસરીઝ	-11.1623
▁સમાધાન	-11.1623
▁એનર્જી	-11.1623
▁વૈભવી	-11.1623
▁સેંકડો	-11.1623
▁પથારી	-11.1623
▁મેન્યુઅલ	-11.1623
▁લાકડી	-11.1623
▁અધિકૃત	-11.1624
portugal	-11.1732
▁1528113	-11.1732
▁કૅમેરા	-11.1732
▁ધરપકડ	-11.1732
▁ધાર્મિક	-11.1732
▁પરાભવ	-11.1732
▁વિક્રેતા	-11.1732
▁ઝાંખી	-11.1732
▁રિબેટ્સ	-11.1732
▁વિટામિન	-11.1732
★	-11.1732
▁Holmbygden	-11.1732
▁કઠિન	-11.1732
▁થર્મલ	-11.1732
▁ક્વેરી	-11.1732
▁ભેગી	-11.1732
options	-11.1768
▁trolface	-11.1842
▁દ્રષ્ટાંતે	-11.1842
▁ફીચર્ડ	-11.1842
mdraid	-11.1842
▁પ્રતિષ્ઠા	-11.1842
▁ભરપૂર	-11.1842
▁Multi	-11.1842
▁Colle	-11.1875
▁ઓછુ	-11.1935
Ethiopian	-11.1953
switzerland	-11.1953
≥	-11.1953
▁Ontario	-11.1953
નૈતિક	-11.1953
▁વોશિંગ	-11.1953
▁સ્ક્રીનસેવર	-11.1953
▁ઇન્સ્ટન્ટ	-11.1953
▁ચંચળ	-11.1953
follow	-11.1953
▁કાર્યસ્થળ	-11.1953
▁નીચું	-11.1953
▁માલ્ટા	-11.1953
machine	-11.1953
▁સેટિંગ્સ	-11.1953
Search	-11.1954
Type	-11.1956
▁સરનામુ	-11.2048
▁રીઝોલ્યુશન	-11.2065
▁સંસાધનો	-11.2065
default	-11.2065
▁કિસ્સાઓમાં	-11.2065
▁ગેરંટી	-11.2065
▁ફર્નિચર	-11.2065
▁બેકએન્ડ	-11.2065
▁સિન્ડ્રોમ	-11.2065
▁Chrome	-11.2065
▁generic	-11.2065
▁પ્રસ્તાવ	-11.2065
▁ભૂંગળી	-11.2065
▁કુંઠિત	-11.2065
▁દીકરી	-11.2065
Coptic	-11.2065
▁હુમલો	-11.2065
▁Adder	-11.2065
▁પડોશી	-11.2065
▁ઘોડો	-11.2065
▁સરહદ	-11.2066
▁સાંજે	-11.2066
Gujarati	-11.2139
સામગ્રી	-11.2139
▁Category	-11.2169
▁સવિકલ્પ	-11.2179
▁ઇન્ટરનેશનલ	-11.2179
▁ઓટોમોટિવ	-11.2179
▁પસ્તાવો	-11.2179
▁માઈક્રોસોફ્ટ	-11.2179
▁સોશિયલ	-11.2179
ceania	-11.2179
▁અનિષ્ટ	-11.2179
▁દેશકાળે	-11.2179
▁ભયંકર	-11.2179
િર્મૂળ	-11.2179
▁ડાબું	-11.2179
▁વેરહાઉસ	-11.2179
▁ઉપાસના	-11.2179
▁કોયડા	-11.2179
example	-11.2179
▁બગાડ	-11.2187
સમૂહ	-11.2257
પ્રથમ	-11.2257
જરૂરી	-11.2257
▁Foundation	-11.2294
▁service	-11.2294
▁અશક્ય	-11.2294
▁અસત્પુરુષની	-11.2294
▁ઐતિહાસિક	-11.2294
▁ગેલેક્સી	-11.2294
▁વિરોધાભાસ	-11.2294
▁સિરીયલ્સ	-11.2294
▁glass	-11.2294
▁કેનેડિયન	-11.2294
▁લવચીક	-11.2294
▁વાજબી	-11.2294
▁મુખ્યમંત્રી	-11.2294
▁લિયેમ	-11.2294
▁Clash	-11.2294
▁સસ્તું	-11.2294
પોઇંટ	-11.2294
burn	-11.2326
▁ગુરુવાર	-11.241
ObjectClass	-11.241
▁અનુયાયીઓ	-11.241
▁ચોખ્ખ	-11.241
▁ટૂકડા	-11.241
▁બ્રહ્માંડ	-11.241
▁વર્કશોપ	-11.241
▁વાગ્યાની	-11.241
▁સ્ટાર્ટર	-11.241
▁અસ્વીકાર	-11.241
—	-11.2742
»	-11.3121
઼	-11.5586
“	-11.7016
ઍ	-11.7986
~	-11.9344
±	-12.278
ઞ	-12.4123
©	-12.6919
≤	-12.7445
‍	-12.7639
•	-12.8589
→	-13.3106
ઐ	-13.7464
ô	-13.7465
➖	-13.7465
