<unk>	0
<s>	0
</s>	0
▁	-3.30743
.	-3.55817
,	-3.78789
▁છે	-4.26765
:	-4.53239
ો	-4.55492
s	-4.76854
ને	-4.83137
ર	-4.8381
)	-4.83884
▁અને	-4.83955
માં	-4.91868
-	-4.95073
ન	-4.97836
ની	-5.07486
ના	-5.09222
લ	-5.10875
▁માટે	-5.14439
▁(	-5.1957
ક	-5.1995
▁આ	-5.24008
મ	-5.26818
ી	-5.31754
▁તે	-5.33016
સ	-5.42119
ે	-5.5088
▁કરો	-5.52473
▁કે	-5.52803
વા	-5.52838
ઓ	-5.57162
▁-	-5.62486
નો	-5.65471
ટ	-5.65531
▁એ	-5.80478
▁પર	-5.82041
ડ	-5.8424
▁જે	-5.88432
તા	-5.88631
ં	-5.89195
▁એક	-5.90416
ા	-5.91945
પ	-5.92666
નું	-5.96774
▁જ	-5.97441
C	-5.98274
▁નથી	-5.99776
ત	-6.00319
▁અ	-6.05389
વ	-6.07062
d	-6.08397
S	-6.09762
▁તમે	-6.12077
A	-6.12712
o	-6.14281
a	-6.16028
▁સાથે	-6.17047
/	-6.19573
y	-6.2181
જ	-6.23439
▁/	-6.24253
;	-6.24448
▁%	-6.26912
▁(_	-6.28193
▁કરી	-6.29614
e	-6.30952
િ	-6.3126
ગ	-6.3246
D	-6.33311
રી	-6.33577
M	-6.3405
થી	-6.34502
t	-6.34664
u	-6.36268
ય	-6.37554
P	-6.3759
l	-6.38149
p	-6.38386
T	-6.39013
▁ક	-6.40184
▁1	-6.4019
k	-6.40689
▁S	-6.42083
c	-6.42542
દ	-6.43091
R	-6.43226
i	-6.461
એ	-6.46573
1	-6.46914
રા	-6.49428
▁ડાઉનલોડ	-6.50339
ણ	-6.51674
શ	-6.52182
▁ઉપલબ્ધ	-6.52252
્	-6.5342
્સ	-6.53497
ૂ	-6.53773
L	-6.53877
"	-6.53882
ુ	-6.54381
▁P	-6.55486
▁જો	-6.55576
▁કરવા	-6.55959
E	-6.566
▁પણ	-6.56895
n	-6.57364
ળ	-6.57652
બ	-6.60615
b	-6.60687
▁બ	-6.6153
▁kgm	-6.63148
B	-6.64261
▁સ	-6.6441
▁C	-6.64844
in	-6.65309
2	-6.65558
I	-6.66279
લા	-6.66497
▁_	-6.66583
ઝ	-6.67172
m	-6.67443
▁ન	-6.67744
▁વ	-6.68916
_	-6.69236
r	-6.69356
er	-6.69638
F	-6.69767
▁અથવા	-6.7028
િક	-6.70718
N	-6.71636
f	-6.72145
▁A	-6.72561
▁તો	-6.7322
િત	-6.74746
'	-6.74819
O	-6.76294
?	-6.76618
▁છો	-6.76814
▁હોય	-6.77115
en	-6.77374
▁pcs	-6.77645
▁હું	-6.77988
▁"	-6.78262
x	-6.78277
િંગ	-6.79365
g	-6.80479
▁દ્વારા	-6.80631
ું	-6.80774
5	-6.80897
com	-6.81264
વી	-6.8363
્યા	-6.84037
al	-6.8432
▁સા	-6.85373
▁T	-6.85395
ni	-6.86052
G	-6.86297
00	-6.88211
3	-6.89305
▁મ	-6.89542
▁પા	-6.89584
▁વિ	-6.90541
ફ	-6.90545
લી	-6.90828
▁3	-6.91643
▁2	-6.91756
ઇ	-6.91815
મા	-6.9294
pdf	-6.93603
રો	-6.93676
▁તમારા	-6.93767
▁રીતે	-6.93805
ડી	-6.94207
▁કરે	-6.94247
H	-6.94396
!	-6.94406
▁B	-6.94469
હ	-6.94513
ચ	-6.95031
▁પ	-6.95335
%	-6.98069
▁મા	-6.98153
ઈ	-6.98326
an	-6.99697
ભ	-7.0005
20	-7.00599
le	-7.01449
▁M	-7.01777
0	-7.0179
ંગ	-7.01961
▁મે	-7.02517
▁અમે	-7.02852
તી	-7.02878
w	-7.04201
ડા	-7.04242
ાય	-7.04552
4	-7.04959
▁G	-7.05341
▁બે	-7.05644
ક્સ	-7.05776
▁પછી	-7.05895
▁રહ્યા	-7.05993
re	-7.07386
ટી	-7.07435
ખ	-7.07899
▁પ્ર	-7.08095
ધ	-7.08618
h	-7.08809
rupan	-7.0929
્યુ	-7.09679
રે	-7.10215
▁હ	-7.10501
▁ગઢડા	-7.11273
▁કોઈ	-7.11553
▁પસંદ	-7.12114
ing	-7.12759
▁ટેટૂઝ	-7.12819
▁“	-7.13395
વો	-7.13607
▁લોકો	-7.13745
on	-7.13763
▁તેઓ	-7.13814
લો	-7.14011
▁D	-7.14253
ar	-7.14762
▁&	-7.14898
or	-7.15937
▁શું	-7.1659
▁ઇ	-7.16609
કો	-7.16735
▁વધુ	-7.17073
V	-7.17694
ર્	-7.17734
▁નામ	-7.17851
સ્ટ	-7.18017
ન્ડ	-7.18469
કા	-7.18655
ન્ટ	-7.18816
▁જ્યારે	-7.18847
▁બધા	-7.19088
▁L	-7.19175
W	-7.1922
યા	-7.1942
▁હો	-7.19561
U	-7.19633
▁થયેલ	-7.20298
વે	-7.22559
▁કો	-7.23722
▁શકે	-7.2382
z	-7.23974
▁H	-7.24473
ક્ષ	-7.2492
ાઈ	-7.24957
▁F	-7.25125
▁ગ	-7.2532
▁સમય	-7.25899
X	-7.25945
K	-7.25991
શે	-7.26216
▁4	-7.26902
વું	-7.27232
થ	-7.27292
▁આવે	-7.27531
કાર	-7.27777
મે	-7.28079
ેલ	-7.28303
▁પરંતુ	-7.29735
ન્સ	-7.30955
▁5	-7.31231
લે	-7.31481
▁કરવામાં	-7.32011
it	-7.32867
આ	-7.33041
▁છું	-7.33119
▁છીએ	-7.33183
ch	-7.33367
તો	-7.33566
▁રંગ	-7.33681
v	-7.33902
▁તમને	-7.33992
િયા	-7.34536
▁R	-7.34793
▁પે	-7.34835
▁10	-7.35136
અ	-7.35365
સી	-7.35565
▁ઉપયોગ	-7.36706
▁ઉ	-7.37202
▁તેના	-7.37395
▁તેને	-7.37535
▁હતી	-7.37755
▁ભ	-7.3829
લિ	-7.38433
6	-7.39343
▁name	-7.40153
▁હતો	-7.40238
▁નહિં	-7.40681
્ય	-7.40693
8	-7.40756
at	-7.40774
માંથી	-7.40803
▁વિશે	-7.4085
ed	-7.41039
▁a	-7.41043
▁તરીકે	-7.4152
10	-7.41817
▁–	-7.42099
▁ત્યારે	-7.42673
્યો	-7.43729
ra	-7.43871
et	-7.44234
ષ	-7.44308
સા	-7.44376
વિ	-7.44537
▁થી	-7.45621
▁ભાગ	-7.45647
ણી	-7.45889
▁'%	-7.46018
ત્ર	-7.46821
▁in	-7.4687
પી	-7.4702
ર્સ	-7.47027
▁તમારી	-7.47513
▁E	-7.47663
▁#	-7.48258
▁માહિતી	-7.48288
▁થાય	-7.48353
નાં	-7.4854
▁N	-7.48616
▁પાસે	-7.48939
લ્	-7.49081
ાઇ	-7.49103
▁$	-7.49515
es	-7.4965
j	-7.50024
gt	-7.50419
▁સ્	-7.50629
Name	-7.50651
▁યુ	-7.50738
્યું	-7.50908
▁સં	-7.51053
ic	-7.5118
▁...	-7.51456
જી	-7.52151
▁તેથી	-7.52374
▁કામ	-7.52462
સ્	-7.52556
▁કહ્યું	-7.52699
ro	-7.5375
વામાં	-7.53782
▁દ	-7.53789
▁થ	-7.54034
નિ	-7.54061
▁કરીને	-7.54215
▁હતા	-7.5434
ઠ	-7.5436
ક્ર	-7.54889
પ્	-7.54976
▁8	-7.55856
@	-7.56178
ટા	-7.56398
ટર	-7.56634
દા	-7.57018
▁ચ	-7.57302
7	-7.57553
▁W	-7.57616
▁કારણ	-7.57994
▁આપણે	-7.58945
(	-7.59032
▁પ્રથમ	-7.59346
▁EUR	-7.5942
મો	-7.59512
▁2018	-7.59611
▁20	-7.6
બી	-7.61132
તિ	-7.61157
ri	-7.61208
mm	-7.61696
50	-7.62079
▁કા	-7.62406
પા	-7.62407
st	-7.63167
ur	-7.64155
▁રે	-7.64705
▁+	-7.64952
amp	-7.65106
▁ભૂલ	-7.65381
ેટ	-7.65382
11	-7.65577
▁€	-7.65664
▁ફાઇલ	-7.66379
am	-7.66672
▁અમારા	-7.66921
▁6	-7.67749
રિ	-7.68156
▁સિ	-7.68276
▁7	-7.68407
ભા	-7.6851
City	-7.68564
દી	-7.68803
▁ફ	-7.69141
એસ	-7.69153
▁પ્રકાર	-7.69284
▁પો	-7.69704
મી	-7.70181
▁વર્ષ	-7.70948
▁દિવસ	-7.71037
▁ત	-7.71051
▁શકો	-7.71215
▁c	-7.7136
▁ત્યાં	-7.71606
▁લો	-7.71804
▁I	-7.71872
તુ	-7.71876
el	-7.72091
યો	-7.72718
▁મને	-7.72957
▁K	-7.73688
▁સુધી	-7.73845
optional	-7.73889
me	-7.73938
▁માત્ર	-7.73963
ter	-7.74029
▁મધ્ય	-7.74044
▁હતું	-7.74256
us	-7.74269
ંક	-7.74391
જા	-7.74786
ate	-7.74871
Y	-7.74939
ીઓ	-7.75017
સે	-7.75312
ર્મ	-7.75608
ાવ	-7.75779
th	-7.76035
▁જોઈએ	-7.76043
▁દેવ	-7.76313
▁લે	-7.7697
▁12	-7.77094
▁J	-7.77328
▁સી	-7.77868
action	-7.78086
12	-7.78239
▁ફોલ્ડર	-7.78278
▁મારા	-7.78282
ર્ટ	-7.78528
ાયેલ	-7.78868
હા	-7.78901
▁the	-7.78915
સ્ત	-7.79352
ડો	-7.79446
▁ધ	-7.79787
▁2019	-7.80119
▁V	-7.80466
▁નહિ	-7.80704
▁ક્ર	-7.80908
કી	-7.8093
▁સંપર્ક	-7.8102
▁લા	-7.81098
▁સિસ્ટમ	-7.81204
▁સે	-7.81522
▁શ	-7.81715
01	-7.81905
▁તેની	-7.81968
▁p	-7.82007
il	-7.82206
lt	-7.82516
▁આપ	-7.8264
કે	-7.82715
ad	-7.83
▁મો	-7.83099
ol	-7.83444
▁બંધ	-7.83587
ખા	-7.8376
ીંગ	-7.83827
▁અન્ય	-7.84012
▁શકાય	-7.84324
ંડ	-7.84396
▁વિન્ડો	-7.84763
ૉ	-7.84954
▁O	-7.84981
▁બા	-7.85012
▁હવે	-7.85459
un	-7.85716
9	-7.85733
ગા	-7.86071
▁જા	-7.8608
તે	-7.8617
શો	-7.86403
ce	-7.86479
&	-7.86544
▁19	-7.86769
▁ઈસુ	-7.86956
▁X	-7.86978
૦	-7.87053
▁ખ	-7.87054
હી	-7.87291
્ર	-7.87414
▁કી	-7.87428
ng	-7.87672
▁આવી	-7.87988
▁યાદી	-7.88097
ેશન	-7.88124
▁એમ	-7.88255
▁નિ	-7.88681
▁દૂર	-7.88771
▁ચિત્ર	-7.89038
ળી	-7.89286
ૅ	-7.89907
▁પી	-7.90018
ાઉ	-7.90072
▁જાણ	-7.90218
▁0	-7.9048
▁ટેટૂ	-7.90859
િન	-7.91016
▁કાર્ય	-7.91082
30	-7.91338
બા	-7.91661
▁જગ્યા	-7.91712
શા	-7.91786
▁નવી	-7.91965
▁સંગ્રહ	-7.91977
ia	-7.91988
▁બહાર	-7.92076
ટે	-7.92124
▁ફાઈલ	-7.92179
જે	-7.92239
he	-7.92606
15	-7.92856
▁સ્થિતિ	-7.93256
ir	-7.93328
ઉ	-7.93548
▁વ્યક્તિ	-7.93658
▁બી	-7.94127
sh	-7.94264
ેડ	-7.94428
▁ઉપકરણ	-7.94446
ધા	-7.94468
ાં	-7.9454
di	-7.95169
03	-7.95325
▁સો	-7.95348
▁ફોન	-7.95648
▁કિંમત	-7.95872
▁થઈ	-7.9602
હે	-7.96287
▁ઈ	-7.96306
la	-7.96905
▁15	-7.97128
મિ	-7.9735
▁—	-7.97517
co	-7.97693
▁મારી	-7.97954
▁ભાવ	-7.98098
▁ગુ	-7.98154
▁9	-7.98537
▁U	-7.98557
▁*	-7.98661
.”	-7.99023
▁દરેક	-7.99271
ૈ	-7.99308
બો	-7.99423
▁શા	-7.99442
op	-7.99506
ow	-7.9986
lo	-8.0026
▁શક	-8.00374
▁હે	-8.00397
▁જીવન	-8.00565
ગ્	-8.00622
▁માપ	-8.00701
▁૧	-8.01074
ર્ક	-8.01273
▁વે	-8.01467
▁'	-8.01681
16	-8.01709
વર	-8.01962
▁આપે	-8.02043
▁શોધ	-8.02195
02	-8.0249
te	-8.02682
▁સક્રિય	-8.02703
▁જેમ	-8.02745
li	-8.02789
▁t	-8.02908
▁ખૂબ	-8.03069
ર્ડ	-8.03298
J	-8.03559
ંદ	-8.03674
મ્પ	-8.03936
શન	-8.04316
▁કહે	-8.04441
▁ગુજરાતી	-8.05049
માન	-8.05282
▁18	-8.05635
▁૨	-8.05828
▁કરેલ	-8.05984
▁ઘ	-8.06054
▁માંથી	-8.06369
▁મશીન	-8.06515
▁માણસ	-8.06542
▁રિ	-8.06551
તર	-8.06726
સ્ક	-8.06893
ડે	-8.07003
ણા	-8.07139
▁સેવા	-8.07287
▁ઘણા	-8.07693
▁ડે	-8.07703
▁શરૂ	-8.07829
▁to	-8.08072
▁સુ	-8.08087
▁ઉત્પાદન	-8.08254
બે	-8.08361
તું	-8.08459
▁હા	-8.08551
▁ગે	-8.08615
80	-8.08686
▁રહે	-8.09281
000	-8.09315
ma	-8.10067
▁મદદ	-8.10123
▁f	-8.1029
ળા	-8.10398
▁મિ	-8.10495
▁નિષ્ફળ	-8.10716
▁પોસ્ટ	-8.10735
રુ	-8.10974
▁તેમના	-8.11026
▁w	-8.11082
શ્	-8.11339
▁નીચે	-8.11453
▁સ્વ	-8.11583
ચી	-8.11782
▁સ્તર	-8.11862
જો	-8.11868
▁બો	-8.12143
’	-8.12512
▁કંપની	-8.12737
રૂ	-8.12789
▁વિચાર	-8.12919
▁શ્રેષ્ઠ	-8.13651
ીય	-8.13692
▁ડી	-8.1374
://	-8.13745
▁દર	-8.14008
▁બતાવો	-8.14157
is	-8.14165
▁b	-8.1429
▁આધાર	-8.14676
▁સર્વર	-8.14728
▁અમારી	-8.14872
▁કર	-8.14928
▁ઇન્	-8.15073
▁ફે	-8.16106
de	-8.16183
om	-8.16311
▁ઘર	-8.16363
▁વપરાશકર્તા	-8.16487
ha	-8.16654
એમ	-8.17035
60	-8.17544
ta	-8.1769
▁બીજા	-8.17723
40	-8.1773
86	-8.17993
▁લિ	-8.18047
▁ખરેખર	-8.18277
25	-8.18418
05	-8.1848
▁મુખ્ય	-8.18516
▁પસંદગી	-8.18542
▁m	-8.18717
ent	-8.18984
▁£	-8.19084
▁ખા	-8.19139
▁પ્રતિ	-8.1939
▁ગા	-8.19544
ચા	-8.19578
▁સ્પ	-8.2006
99	-8.20283
Z	-8.2038
▁ફો	-8.20454
ho	-8.20635
▁અપ	-8.20903
18	-8.20934
]	-8.20971
35	-8.21057
▁ટે	-8.21273
▁વિશ્વાસ	-8.21281
▁મુ	-8.21282
ાઓ	-8.2174
id	-8.21772
▁શક્યા	-8.2187
▁11	-8.21914
)...	-8.21971
▁આગળ	-8.22006
▁બોલ	-8.22074
▁ક્	-8.22324
ay	-8.22449
િયન	-8.22748
13	-8.22861
▁જરૂર	-8.22944
ot	-8.23071
▁translation	-8.2359
મેલ	-8.23655
છ	-8.23808
▁©	-8.23927
▁કેવી	-8.24102
▁પહેલા	-8.24109
24	-8.24126
▁સંપૂર્ણ	-8.24147
▁પ્રો	-8.24217
▁૩	-8.24226
ક્ટ	-8.24276
▁કરશે	-8.24426
▁છ	-8.24448
09	-8.24808
▁2017	-8.24949
▁ડિ	-8.25002
હો	-8.25082
ne	-8.25457
ation	-8.25498
▁પ્રક્રિયા	-8.25817
▁અંત	-8.2624
ex	-8.26268
ટિ	-8.26385
▁કિ	-8.26487
tion	-8.26695
▁મેં	-8.26879
▁not	-8.27071
સિ	-8.2719
▁મોટા	-8.27371
▁લખ	-8.27499
▁ઈસુએ	-8.27546
ૃ	-8.27563
▁ફક્ત	-8.27602
▁સામાન્ય	-8.27625
07	-8.27672
▁In	-8.27801
▁16	-8.27977
um	-8.28175
▁કોડ	-8.28442
17	-8.2849
se	-8.28591
08	-8.28651
▁નેટવર્ક	-8.29148
ગ્ર	-8.29299
િય	-8.29461
06	-8.29581
▁સુયોજિત	-8.29732
▁of	-8.29747
લ્સ	-8.298
▁need	-8.29841
▁જવાબ	-8.29853
▁સ્થાન	-8.29987
ઇન	-8.30035
em	-8.30158
ers	-8.30167
દ્ધ	-8.30376
લું	-8.30427
▁દર્શાવ	-8.30541
ઢ	-8.30696
▁30	-8.30811
▁ડિસ્ક	-8.30893
▁સમજ	-8.31278
▁મૂળભૂત	-8.31348
▁[	-8.31559
▁અહીં	-8.3156
યુ	-8.31702
▁સૌથી	-8.31939
ul	-8.32093
-1	-8.32223
લ્ડ	-8.32249
▁ચાલ	-8.32256
▁ઉચ્ચ	-8.32321
ut	-8.32333
▁તેણે	-8.32524
▁પ્રવેશ	-8.33366
type	-8.33435
04	-8.33478
નુ	-8.33786
▁રો	-8.33794
▁વધારે	-8.33863
▁વાત	-8.33951
ત્	-8.34159
▁24	-8.34243
▁સુધાર	-8.34541
▁ફેરફાર	-8.34586
▁લોકોને	-8.34797
▁ટો	-8.35168
▁વિષે	-8.3526
▁જી	-8.35302
▁ડોલર	-8.35549
વાનું	-8.35656
▁બનાવવા	-8.35673
90	-8.35774
ઘ	-8.35849
▁ઉત્પાદનો	-8.35941
▁જ્યાં	-8.35997
▁સ્પષ્ટ	-8.36073
ry	-8.36163
▁અર્થ	-8.36223
14	-8.36232
▁h	-8.36286
▁મી	-8.36299
▁and	-8.36372
▁કરતાં	-8.36424
▁ઉપર	-8.36529
▁g	-8.36576
▁સંખ્યા	-8.36795
▁નવા	-8.36851
mahima	-8.37018
વર્	-8.3749
36	-8.37727
▁વિસ્તાર	-8.37751
▁ખ્રિસ્ત	-8.37996
▁અંત્ય	-8.38042
▁ચાઇના	-8.38171
19	-8.38216
▁જોડાણ	-8.38229
પર	-8.38535
સ્થા	-8.38625
▁વસ્તુઓ	-8.38768
ver	-8.38807
▁પૂર	-8.38809
લેટ	-8.38845
▁ફા	-8.39077
im	-8.39174
▁કરવાનું	-8.39462
www	-8.39571
▁લી	-8.39647
▁સાંભળ	-8.40041
22	-8.40112
શી	-8.40127
▁શહેર	-8.40161
▁દાખલ	-8.40162
૧	-8.40312
ર્ન	-8.40414
▁ચે	-8.40676
▁બધી	-8.40893
પો	-8.40896
▁રમત	-8.411
▁કાઢી	-8.41181
45	-8.4119
ધી	-8.41348
▁જુ	-8.414
ત્ત	-8.41521
▁વેબસાઇટ	-8.41527
રણ	-8.41772
▁‘	-8.41775
ફો	-8.41886
▁વસ્તુ	-8.42232
ru	-8.42266
▁200	-8.42319
▁does	-8.42574
▁મૂક	-8.42585
▁અમને	-8.42656
▁કરવાની	-8.42882
યર	-8.42885
ec	-8.43163
▁17	-8.43205
ૌ	-8.43378
▁મળ	-8.43397
▁લખાણ	-8.43524
▁માંગો	-8.43583
▁જુઓ	-8.4374
▁probably	-8.43768
▁કેન્દ્ર	-8.43768
▁25	-8.44005
પ્ટ	-8.44028
▁નહીં	-8.44228
▁કર્યો	-8.44468
▁પાસવર્ડ	-8.44506
▁મફત	-8.44569
▁સરળ	-8.44623
▁14	-8.44954
▁વિવિધ	-8.45001
▁યોગ્ય	-8.45064
વુ	-8.45141
સુ	-8.45697
▁બનાવો	-8.45801
2019	-8.45818
ળો	-8.45989
▁બતાવ	-8.45993
▁ભાષા	-8.46192
▁તેમને	-8.46217
▁હશે	-8.46412
ષ્ટ	-8.46417
▁ભા	-8.46593
▁સ્ક	-8.46663
ંબ	-8.46968
ang	-8.47006
23	-8.47024
ac	-8.47172
▁સર	-8.47486
▁Windows	-8.48087
ect	-8.48125
▁વર્ણન	-8.48151
▁વાંચ	-8.4817
ેજ	-8.48416
▁કરતા	-8.48606
▁એસ	-8.48712
to	-8.48835
▁કાર્યક્રમ	-8.48921
સ્ટે	-8.48926
▁૭	-8.48951
Q	-8.49098
બ્ર	-8.49234
▁પાણી	-8.49727
▁તમામ	-8.4983
▁સહ	-8.49967
▁સામગ્રી	-8.50025
▁2016	-8.50044
▁ગુણવત્તા	-8.5022
ડિ	-8.50272
▁સર્વ	-8.50277
▁મુક્ત	-8.50377
ong	-8.50679
▁કદ	-8.50714
▁નકલ	-8.50841
▁જરૂરી	-8.50939
\	-8.51073
વ્ય	-8.51382
▁પડ	-8.51478
▁13	-8.5155
▁કર્યું	-8.51581
એલ	-8.5165
▁શ્રેણી	-8.51867
▁@	-8.52013
21	-8.52027
-2	-8.52075
▁આઇ	-8.52187
▁ટ્ર	-8.52313
ઇલ	-8.52423
▁૫	-8.52464
con	-8.52625
ion	-8.52806
▁જાય	-8.52863
▁જોવા	-8.5291
ંચ	-8.53034
▁re	-8.53038
▁ઇમેઇલ	-8.5307
ચિ	-8.53071
▁પૂર્ણ	-8.53088
ત્યા	-8.53142
્વ	-8.53142
થા	-8.53334
70	-8.53428
Comment	-8.53542
▁ક્રિયા	-8.53647
▁સાઇટ	-8.53762
ગી	-8.53769
▁ઓફ	-8.53771
▁ચા	-8.54073
▁તથા	-8.54207
▁આપી	-8.54317
▁જૂન	-8.54439
િટ	-8.54594
28	-8.54677
hi	-8.54977
▁વિડિઓ	-8.55039
▁દા	-8.55072
▁50	-8.55311
▁બદલો	-8.55379
ીએ	-8.55464
ગો	-8.55467
all	-8.55483
દાર	-8.55493
▁ફરીથી	-8.555
33	-8.55603
▁ઉપ	-8.55608
ફ્ર	-8.55656
બર	-8.55871
▁કેટલાક	-8.55934
મ્બ	-8.55964
એફ	-8.56005
પે	-8.56352
39	-8.56474
▁મોકલ	-8.56541
=	-8.56563
▁જાત	-8.57182
”	-8.57414
▁તેઓએ	-8.57437
ID	-8.57573
▁એક્સ	-8.57611
55	-8.57771
▁ઊ	-8.57826
ાસ	-8.57868
▁તાપમાન	-8.58102
▁શકાતુ	-8.58112
75	-8.58197
34	-8.58214
▁શિ	-8.58239
pa	-8.58282
ંત	-8.58446
ટ્સ	-8.58616
▁Q	-8.58689
▁ફ્લ	-8.5869
IN	-8.58927
બ્	-8.58978
માર	-8.59004
ર્વ	-8.59016
▁વચ્ચે	-8.59097
▁ડો	-8.59222
▁મહેરબાની	-8.59454
▁પ્રે	-8.59554
▁આવશે	-8.59746
જન	-8.5984
▁કુ	-8.59979
▁બનાવી	-8.59985
▁હાલ	-8.60114
▁Y	-8.60155
37	-8.60187
▁દુ	-8.60217
38	-8.6023
▁મોબાઇલ	-8.60463
ટુ	-8.60765
લ્લ	-8.60826
32	-8.60893
▁તારીખ	-8.61074
if	-8.61089
▁જાણકારી	-8.61118
▁મૂ	-8.61231
િસ	-8.61239
▁Android	-8.61262
૮	-8.61301
હિ	-8.61458
▁ટી	-8.61522
per	-8.61561
gu	-8.61566
▁બદલ	-8.61584
200	-8.61779
ack	-8.618
▁Re	-8.61852
▁દસ્તાવેજ	-8.61921
▁આપવા	-8.61962
▁કુલ	-8.6208
no	-8.62516
age	-8.62543
▁ક્લિક	-8.62665
▁અલગ	-8.62979
યે	-8.62994
▁પરવાનગી	-8.63401
▁મહત્તમ	-8.63401
▁સાધન	-8.63454
▁પહેલાં	-8.63534
▁ઓળખ	-8.63554
▁આપણા	-8.63631
પણ	-8.63679
▁બનાવ	-8.63822
દ્	-8.63828
▁ગયો	-8.63975
▁નિયમ	-8.64017
રું	-8.64143
▁આવૃત્તિ	-8.64147
▁v	-8.64292
▁બાજુ	-8.64549
ધાર	-8.64595
vi	-8.64617
ke	-8.64729
▁દેખ	-8.64789
▁પ્રેમ	-8.64879
▁તમારે	-8.64904
▁ચો	-8.64919
▁પ્રયત્ન	-8.64979
▁વખતે	-8.6503
ock	-8.65222
art	-8.65277
▁Z	-8.65446
▁ચિહ્ન	-8.65497
▁છાપ	-8.65554
▁ઑ	-8.65686
▁ઓનલાઇન	-8.65739
65	-8.65816
▁સ્ક્રીન	-8.66045
▁ઉમેરો	-8.66085
▁પોતાના	-8.66138
▁પગ	-8.66159
▁અસમર્થ	-8.66274
ob	-8.66367
▁ડિઝાઇન	-8.66428
▁ગયા	-8.66467
લેન્ડ	-8.6663
▁"%	-8.66682
▁થશે	-8.66729
-3	-8.66748
oo	-8.66883
▁લાગે	-8.67101
લ્ટ	-8.67155
▁પાવર	-8.67204
ub	-8.6728
▁અનુભવ	-8.67359
▁પ્રભુ	-8.6751
ાંક	-8.67563
+	-8.67584
▁સોફ્ટવેર	-8.67587
▁પ્રિન્ટ	-8.67666
ab	-8.6769
▁Ch	-8.67743
ર્જ	-8.67753
▁વર્તમાન	-8.67759
શાસ્ત્ર	-8.67782
▁100	-8.67888
ite	-8.67895
▁ભગવાન	-8.68055
ag	-8.68131
ફે	-8.68131
ાંત	-8.68143
ap	-8.68186
▁વિશ્વ	-8.68206
▁ચાલુ	-8.68377
ip	-8.68385
ાઇટ	-8.68392
વાદ	-8.68402
પ્લ	-8.68548
▁સંવાદ	-8.68741
color	-8.68761
der	-8.68815
ly	-8.68872
▁ધ્યાન	-8.69001
and	-8.69063
ig	-8.69151
પોર્ટ	-8.6917
▁પ્રાપ્ત	-8.69242
▁તેઓને	-8.69389
શું	-8.69462
▁જીવ	-8.69468
ઝા	-8.69488
▁ગો	-8.69515
▁કોલ	-8.69682
48	-8.69687
▁જોઈ	-8.69728
▁વેબ	-8.69754
▁સ્વાસ્થ્ય	-8.69788
▁સમાચાર	-8.69867
$	-8.69944
▁અયોગ્ય	-8.70266
▁નાખ	-8.70389
▁આદેશ	-8.70692
▁નોંધ	-8.70859
દિ	-8.71063
▁અંદર	-8.71072
ive	-8.71085
pe	-8.71098
▁પ્રમાણપત્ર	-8.71309
ંજ	-8.71415
▁પ્લે	-8.71503
▁ખો	-8.71626
ંટ	-8.7163
▁મુલાકાત	-8.71748
▁પ્રકાશ	-8.71762
▁વાપરો	-8.71878
lu	-8.71922
one	-8.72051
▁આવ્યો	-8.7213
▁વેચાણ	-8.72527
▁કેસિનો	-8.72529
૭	-8.72538
95	-8.72567
▁કર્યા	-8.72647
▁લાવ	-8.72706
▁ચકાસ	-8.72721
▁ઈચ્છ	-8.72727
▁Ma	-8.72775
▁સમ	-8.72852
mo	-8.73012
ca	-8.73073
▁લેવા	-8.73118
▁be	-8.73123
▁St	-8.73168
prasa	-8.73185
▁શકતા	-8.73215
ક્ત	-8.73349
▁સમીક્ષા	-8.73354
શુ	-8.73376
આઉટ	-8.73767
88	-8.73839
ber	-8.73876
શિ	-8.739
▁નંબર	-8.74034
hk	-8.74057
▁હિ	-8.74136
pl	-8.74249
▁સ્ત્રી	-8.74279
દેશ	-8.74291
▁સાધનો	-8.74493
▁લાગ	-8.74543
▁મેળવવા	-8.74561
ine	-8.74684
Electronic	-8.74756
▁૪	-8.74774
▁વર્ગ	-8.74796
au	-8.74816
▁પૂછ	-8.74851
▁તૈયાર	-8.74923
▁વિકલ્પો	-8.74961
ફા	-8.74992
▁બાળકો	-8.75114
▁કંઈ	-8.75178
▁ખોલો	-8.75181
▁શેર	-8.75237
▁https	-8.75263
64	-8.75399
ard	-8.75447
da	-8.75461
એન	-8.75472
▁ખાસ	-8.75531
્ઝ	-8.75588
ેન્	-8.75632
▁વગેરે	-8.75848
પિ	-8.75901
▁પુ	-8.75926
▁ટોચ	-8.76055
▁ઉત્તર	-8.76138
▁કલાક	-8.76574
▁૬	-8.76581
▁http	-8.76606
▁આત્મા	-8.76644
▁મોડેલ	-8.76782
▁28	-8.76809
▁સારી	-8.76813
est	-8.7685
44	-8.769
▁for	-8.769
▁Sh	-8.77031
▁વરતાલ	-8.77037
98	-8.77063
na	-8.77284
weather	-8.77293
ill	-8.77423
▁આવ્યું	-8.7747
નિક	-8.77506
▁22	-8.77818
પટ્ટી	-8.7782
્રો	-8.77885
ts	-8.78216
૩	-8.78269
▁ખાતરી	-8.78414
ti	-8.78527
પૂ	-8.78602
27	-8.78701
▁ખાલી	-8.78702
▁જૂથ	-8.78762
▁મિત્ર	-8.78803
ચ્છ	-8.78815
દ્ર	-8.78852
ગે	-8.78968
26	-8.78979
ga	-8.7898
go	-8.79268
▁મહિના	-8.79284
we	-8.79362
56	-8.7955
dia	-8.79568
▁કોઈપણ	-8.79994
▁અવ	-8.80213
59	-8.80532
net	-8.80598
▁કરવું	-8.80656
▁EU	-8.80664
્રા	-8.80896
pro	-8.80928
po	-8.80973
▁હાથ	-8.8107
▁દે	-8.81089
▁રાખ	-8.81112
ee	-8.81147
29	-8.81203
▁તું	-8.81251
સ્ટ્ર	-8.81334
દ્દ	-8.81563
▁મળી	-8.81701
▁ભરતી	-8.81763
ev	-8.81811
▁ચોક્કસ	-8.82299
▁ભૂ	-8.82378
▁જોઇએ	-8.8239
,000	-8.82507
▁સંસ્થા	-8.82562
▁વિકાસ	-8.82676
ve	-8.82684
▁પરિ	-8.82832
▁માંગ	-8.82837
▁પૃષ્ઠ	-8.82931
▁de	-8.83138
▁હોઈ	-8.83223
▁ફાઇલો	-8.83251
▁બટન	-8.83311
ft	-8.83378
▁શોધી	-8.83395
MA	-8.8341
ન્ન	-8.8346
▁ક્યાં	-8.83491
▁કરીએ	-8.83575
મેન્ટ	-8.83873
ki	-8.83914
bo	-8.83922
▁દેશ	-8.83969
▁ભારત	-8.83998
▁Infinite	-8.84116
▁સ્થાપિત	-8.84116
▁રાજ્ય	-8.84178
જ્ઞા	-8.84261
▁થીમ	-8.84323
ક્લ	-8.84383
▁કોઇ	-8.84457
▁જેથી	-8.84473
▁જેવા	-8.84915
▁નં	-8.84965
▁ફોન્ટ	-8.85008
▁મેળવી	-8.85018
ass	-8.85043
▁અધિકાર	-8.85223
આર	-8.85257
ક્ટર	-8.85275
ભૂત	-8.85359
▁info	-8.85361
કેટ	-8.85397
▁is	-8.85413
▁લેખ	-8.85497
▁ઊં	-8.85667
▁તરફ	-8.85917
▁થયો	-8.85958
▁40	-8.8602
up	-8.8634
િયમ	-8.86441
▁ડિરેક્ટરી	-8.86623
શ્ર	-8.86695
gr	-8.8682
ST	-8.86866
▁Pro	-8.87022
▁ઝડપ	-8.87175
ખી	-8.87231
▁અવાજ	-8.8733
ચર	-8.87397
ies	-8.87572
▁યુએસ	-8.87658
ge	-8.87759
are	-8.87927
ist	-8.87933
▁ત્રણ	-8.87993
ીકરણ	-8.88027
▁બુ	-8.88042
▁you	-8.88123
ઈન	-8.88171
▁21	-8.88176
લુ	-8.88183
▁સારંગપુર	-8.88426
▁ક્ષમતા	-8.88426
▁ટેબ	-8.88437
▁આવ્યા	-8.88445
મુ	-8.88462
▁અનુ	-8.88481
એક્સ	-8.8861
▁પુન	-8.88651
▁ચલાવ	-8.88703
▁ક્ષેત્ર	-8.88714
▁થયા	-8.88734
▁•	-8.88772
▁પામ	-8.88798
▁ભર	-8.88853
▁ઘણી	-8.88946
▁સુરક્ષિત	-8.89002
▁દેવે	-8.89283
▁સરકાર	-8.89315
57	-8.89434
*	-8.89439
va	-8.89868
▁સરનામું	-8.89872
▁ઓગસ્ટ	-8.89873
66	-8.89904
ide	-8.89929
▁ઉત્પાદકો	-8.89959
▁શક્ય	-8.90048
૯	-8.90282
US	-8.90287
▁બનાવે	-8.90345
▁કહેવા	-8.90403
▁લઈ	-8.9042
▁No	-8.9044
ON	-8.90569
ત્વ	-8.90598
▁દો	-8.90671
▁2020	-8.90711
▁તેમની	-8.90768
31	-8.90773
▁પોર્ટ	-8.90948
85	-8.9101
▁માર્ગ	-8.91024
લાઇન	-8.91133
▁સ્ટીલ	-8.91146
બોર્ડ	-8.91148
▁પૂર્વ	-8.91176
49	-8.91196
ou	-8.91307
વાળા	-8.91385
▁યજમાન	-8.91439
▁»	-8.91623
▁કૃપા	-8.91735
ight	-8.91738
ff	-8.92059
▁રમ	-8.92061
▁શ્રી	-8.92167
47	-8.92258
IC	-8.92415
▁નિયંત્રણ	-8.9253
ેલા	-8.92708
કામ	-8.92745
▁માન્ય	-8.92799
▁અક્ષર	-8.92895
ER	-8.92994
world	-8.9303
▁બધું	-8.93132
▁શિષ્યો	-8.93231
▁કાર્ડ	-8.93237
▁by	-8.9324
SS	-8.93324
▁થયું	-8.93332
▁ઑનલાઇન	-8.93533
lay	-8.93534
▁વાપરવા	-8.93598
58	-8.93692
▁આજે	-8.9371
LE	-8.93835
▁°	-8.93927
▁બોનસ	-8.94045
▁નાના	-8.94068
41	-8.9407
▁શરૂઆત	-8.94242
▁પ્રમાણ	-8.94247
="	-8.94296
સ્થ	-8.94303
ov	-8.94306
▁સ્ત્રોત	-8.94342
▁શોધો	-8.9449
્થ	-8.94537
▁કાર	-8.9456
ક્ષણ	-8.94593
ity	-8.94653
ell	-8.94874
100	-8.94999
▁પૂરી	-8.95004
▁રહી	-8.95036
46	-8.95157
77	-8.95585
lic	-8.95602
ચે	-8.95797
સ્પે	-8.95863
ાવવા	-8.95965
▁ફરી	-8.96142
ress	-8.96161
▁યાદ	-8.96258
િયો	-8.9642
▁રુ	-8.96431
▁નિર્	-8.96641
▁યુનિવર્સિટી	-8.96706
હું	-8.9672
man	-8.96791
q	-8.96832
▁હંમેશા	-8.96914
▁શીખ	-8.96948
▁કૉપિરાઇટ	-8.97123
org	-8.9716
▁એચ	-8.97225
ફ્ટ	-8.9724
▁કહી	-8.97401
▁આયાત	-8.97453
tra	-8.97457
▁મૃત્યુ	-8.97543
▁રાખો	-8.97603
▁23	-8.97789
▁પેકેજ	-8.98063
▁સ્થાપના	-8.98067
▁બંધારણ	-8.98067
▁(%	-8.9813
tor	-8.98171
▁પહોંચ	-8.98172
▁માન	-8.98237
▁2013	-8.98285
સ્ટર	-8.98348
69	-8.98565
▁વજન	-8.98606
▁પાથ	-8.9862
51	-8.98642
▁mo	-8.98708
▁ફી	-8.98729
▁=	-8.98743
53	-8.98822
ંધ	-8.98833
▁રસ	-8.98926
▁પરિણામ	-8.99022
▁રાખવા	-8.99229
▁નકશા	-8.99236
▁ઓછા	-8.99246
▁રહ્યો	-8.9934
▁શરીર	-8.99455
▁સ્વીકાર	-8.99771
૫	-8.99934
pr	-9.00008
▁મેનુ	-9.00051
ચો	-9.00093
our	-9.00128
▁ધરાવે	-9.00199
▁પાનું	-9.00275
67	-9.00299
▁ફિ	-9.00375
▁ઉત્	-9.00434
ઠા	-9.00454
▁દેખાવ	-9.00646
▁શોધવા	-9.00662
▁લિમિટેડ	-9.00738
▁ન્યૂ	-9.00887
che	-9.01061
સ્ટો	-9.01095
CH	-9.01125
▁એપ્લિકેશન	-9.01172
▁સંદેશા	-9.01177
▁અસર	-9.01292
▁સમાપ્ત	-9.0139
MP	-9.01433
ort	-9.01454
42	-9.01583
ઘા	-9.01673
▁60	-9.01745
૨	-9.0182
AP	-9.01855
ણે	-9.01874
▁વિકલ્પ	-9.01888
ast	-9.0195
▁નીકળ	-9.02291
▁ઘટક	-9.02307
ea	-9.02446
ગુ	-9.02467
▁આપોઆપ	-9.02596
▁એન્	-9.02596
લ્પ	-9.02651
ba	-9.0266
દર્શક	-9.027
▁2015	-9.02755
▁ટેકનોલોજી	-9.02817
ાઇઝ	-9.02914
▁પાછળ	-9.0315
દો	-9.03188
▁સમયે	-9.03203
▁ફર	-9.03219
▁Constellation	-9.03241
▁તક	-9.03256
▁નિષ્ફળતા	-9.03421
કુ	-9.0356
ph	-9.03566
▁પરિવાર	-9.03937
▁આપ્યો	-9.04025
end	-9.04081
▁માણસો	-9.04092
૪	-9.04108
▁વપરાય	-9.04214
▁પડશે	-9.04276
▁એપિસોડ	-9.04489
▁પાપ	-9.04537
▁ઉદ્યોગ	-9.04602
તાં	-9.04669
▁સમાવ	-9.04679
▁જાન્યુઆરી	-9.04827
int	-9.04856
▁મિનિટ	-9.05054
ઝી	-9.05112
▁2014	-9.05272
▁નિષ્ક્રિય	-9.05279
ભાવ	-9.0535
able	-9.0539
ધુ	-9.05422
ધિ	-9.05446
ari	-9.05456
500	-9.05477
▁કર્યુ	-9.05673
ie	-9.057
▁શબ્દ	-9.05726
▁પાડે	-9.05839
▁24.00	-9.05859
▁લાલ	-9.05888
▁અંગ	-9.05993
▁સ્થાનિક	-9.05998
▁રમતો	-9.06076
્યૂ	-9.06223
▁બની	-9.06284
▁સરેરાશ	-9.06304
▁ચિ	-9.06423
ian	-9.06454
▁વધ	-9.06536
▁લાગુ	-9.06592
▁કારણે	-9.06601
રૂપ	-9.06606
68	-9.06827
0.00	-9.0712
▁પ્રશ્નો	-9.07203
ચાર	-9.07226
63	-9.073
▁પ્રોજેક્ટ	-9.0734
ment	-9.07395
▁યોજના	-9.07456
▁જુલાઈ	-9.07457
▁ચેનલ	-9.07832
ting	-9.07941
ઃ	-9.08022
▁પાછા	-9.08023
▁હેક	-9.08169
▁ન્યાય	-9.08191
▁પડે	-9.08247
land	-9.08255
▁વિના	-9.08558
76	-9.08595
▁સમસ્યા	-9.08622
બુ	-9.08623
▁સંદેશાઓ	-9.08696
▁હાઇ	-9.08923
▁બીજી	-9.08923
400	-9.09033
52	-9.09041
ire	-9.09079
▁Google	-9.0909
▁રાષ્ટ્રીય	-9.09091
ક્ક	-9.09175
▁સામે	-9.09301
▁ડેસ્કટોપ	-9.09326
યલ	-9.09523
▁ખાનગી	-9.09681
▁ખર્ચ	-9.09719
▁વપરાશ	-9.0979
▁ઉમેર	-9.09875
ase	-9.09925
▁પિતા	-9.0998
ફિ	-9.09984
2018	-9.10015
▁આનંદ	-9.10047
કાળ	-9.10148
▁બીટ	-9.10152
સ્પ	-9.10155
PS	-9.10184
▁૧૧	-9.10224
▁ઇચ્છ	-9.10268
▁શિક્ષણ	-9.10297
▁સહાય	-9.10441
▁પુનઃ	-9.10527
▁થઇ	-9.10644
▁ધાર	-9.10689
day	-9.10812
છા	-9.10824
61	-9.10869
ાત્મક	-9.1087
▁સંગ્રહો	-9.10914
▁ગોઠવ	-9.10934
ટ્રો	-9.11041
્તિ	-9.11097
▁સારા	-9.1111
▁નકશો	-9.11115
▁કદાચ	-9.11354
▁પિ	-9.11403
▁કરવો	-9.11461
▁જાહેર	-9.11469
▁×	-9.1147
log	-9.11489
▁ડ્ર	-9.11594
ત્ય	-9.11761
▁સૂચન	-9.11836
▁star	-9.11951
▁નજીક	-9.12082
▁આપણને	-9.12089
89	-9.12151
ear	-9.12367
▁વેચ	-9.12424
▁ખરાબ	-9.12565
undo	-9.12686
કૃત	-9.12736
યોગ	-9.12817
ize	-9.12832
▁૯	-9.12905
▁વ્યવસાય	-9.13053
▁પરિમાણ	-9.13053
▁હોવા	-9.13112
out	-9.13121
▁થવા	-9.1338
min	-9.13693
▁જાઓ	-9.14116
▁લક્ષ્ય	-9.14161
▁બિન	-9.14177
74	-9.14469
ina	-9.14605
▁શક્તિ	-9.14637
▁ખાતે	-9.14644
▁An	-9.14654
▁૧૦	-9.14655
▁એપ્રિલ	-9.14657
▁ઝડપી	-9.14801
▁રાખે	-9.14897
▁છોડી	-9.14975
AT	-9.1502
91	-9.15055
ધર	-9.15124
▁બરાબર	-9.15282
New	-9.15301
▁સેટ	-9.1539
▁ગ્રે	-9.15402
▁અજ્ઞાત	-9.15408
સ્ટા	-9.15521
▁તમારું	-9.15533
ાઇડ	-9.15539
▁De	-9.15612
▁ખબર	-9.15616
▁સેવાઓ	-9.15658
▁રૂપરેખાંકન	-9.15659
▁CO	-9.15779
▁ઈસુને	-9.1578
▁શો	-9.15858
▁વ્યક્તિગત	-9.15911
▁નક્કી	-9.16037
▁ફેક્ટરી	-9.16289
▁26	-9.16332
દાન	-9.16365
▁~	-9.16395
હક	-9.16549
▁પ્રમાણે	-9.16662
ઝિ	-9.16699
▁બદલી	-9.16701
▁આપો	-9.16924
▁મોટી	-9.17028
°	-9.17062
▁પાઉલ	-9.17089
▁27	-9.17171
▁લગભગ	-9.17178
▁મોટર	-9.1719
▁રોડ	-9.17304
▁32	-9.17339
▁ટિપ્પણીઓ	-9.17354
▁કરવાનો	-9.17376
▁(32/64	-9.17434
ash	-9.17775
સ્ટ્રી	-9.17784
▁હેઠળ	-9.17819
▁લેખક	-9.1782
ost	-9.17968
▁29	-9.18028
▁બ્લોગ	-9.18077
▁label	-9.18204
▁મહિનો	-9.18205
han	-9.1837
▁સુયોજનો	-9.1837
92	-9.18413
▁પેનલ	-9.18455
આઈ	-9.1848
▁કરનાર	-9.18532
▁જશે	-9.1858
ue	-9.186
▁વોલ્યુમ	-9.18721
▁મીડિયા	-9.18722
▁નવું	-9.18734
43	-9.18763
-10	-9.18781
▁se	-9.18898
▁મૂળ	-9.19065
▁મન	-9.19147
▁મેળવો	-9.1921
▁દોર	-9.19225
▁વગર	-9.1926
▁ખાતા	-9.19321
▁વિચારો	-9.19496
જુ	-9.19577
▁સ્ટોક	-9.19671
54	-9.19815
▁અનુસર	-9.19823
▁વિગતો	-9.2
▁તાર	-9.20107
ર્ગ	-9.20149
ran	-9.20241
▁ઘટના	-9.20428
▁સત્ય	-9.2066
▁Mo	-9.20694
▁દેવની	-9.20756
▁આભાર	-9.20761
82	-9.20796
▁ટેક	-9.20814
96	-9.20992
ook	-9.21001
▁સમાવેશ	-9.21132
87	-9.21134
▁રેકોર્ડ	-9.21481
ice	-9.21622
ક્શન	-9.21638
▁રદ	-9.21797
▁ડ્રાઇવ	-9.22017
▁રૂપ	-9.22036
▁રાખી	-9.22041
box	-9.22067
માર્ક	-9.22097
▁કાઢ	-9.22121
▁નવેમ્બર	-9.2215
શ્વ	-9.22163
▁પાશ્વ	-9.22256
▁કલ્યાણ	-9.22284
▁આકાશ	-9.22309
▁રાહ	-9.22697
▁ખરીદ	-9.22775
▁ઉદાહરણ	-9.22958
▁વાર્તા	-9.22958
▁પ્રકારના	-9.22966
મંત્ર	-9.2299
▁ખસેડો	-9.22991
62	-9.22997
▁મહાન	-9.23006
EL	-9.23019
qu	-9.23036
▁કોણ	-9.23082
▁ટ્રેક	-9.23133
▁ઓફર	-9.23303
72	-9.23321
▁શીર્ષક	-9.235
▁Gujarati	-9.23528
▁આધારભૂત	-9.23542
▁ટકા	-9.23583
▁વાસ્તવિક	-9.23636
▁અમેરિકા	-9.23637
93	-9.23714
▁સંદેશો	-9.23761
iv	-9.23805
▁અગાઉ	-9.23911
?”	-9.23997
▁કડી	-9.24011
▁પ્રયાસ	-9.24049
▁Free	-9.24052
દર્શ	-9.24181
250	-9.24283
▁તાલીમ	-9.2432
▁સત્ર	-9.24369
▁સંત	-9.24559
▁ચાર	-9.24656
▁રચના	-9.24873
▁પેપર	-9.24912
▁વાર	-9.24919
▁પોતાની	-9.25016
bu	-9.25016
▁ફેરવ	-9.25119
▁દબાણ	-9.25284
▁બાંધ	-9.25348
▁દેવના	-9.25534
800	-9.25602
ર્ષ	-9.25733
ci	-9.25738
▁મળે	-9.25834
▁સપ્લાય	-9.25839
cm	-9.25918
▁અસ્તિત્વ	-9.25978
▁પ્રકાશિત	-9.26043
▁Vessoft	-9.26257
▁આધારિત	-9.26342
}	-9.26397
▁યુરોપ	-9.264
▁//	-9.26408
73	-9.26456
▁કરવી	-9.26461
▁જ્ઞાન	-9.26588
▁બનાવવામાં	-9.26636
ન્જ	-9.26674
▁આઉટપુટ	-9.26677
▁કું	-9.26876
▁રહેશે	-9.26906
પેટ	-9.27078
▁31	-9.27229
▁પ્લગઇન	-9.2724
▁વિષય	-9.27248
▁ઘટાડ	-9.27252
▁શકીએ	-9.27306
port	-9.2736
▁GST	-9.27381
▁સંશોધન	-9.27381
ord	-9.27567
▁ખસેડ	-9.27644
{	-9.27664
▁ગુણ	-9.27735
▁બાળક	-9.28055
▁સુંદર	-9.28092
▁હુ	-9.28097
▁બ્લ	-9.28155
▁પ્રોડક્ટ્સ	-9.28233
▁પવિત્ર	-9.28234
pt	-9.28235
▁કન્	-9.28292
ટ્રે	-9.28294
▁બાર	-9.2833
▁સંબંધિત	-9.28336
78	-9.28366
▁પ્રા	-9.28392
▁રાજ	-9.28453
ગ્રી	-9.28531
ફી	-9.28663
▁જરૂરિયાત	-9.28668
ર્ચ	-9.28691
▁ગ્રાહકો	-9.28703
▁સહિત	-9.28787
▁ઓક્ટોબર	-9.28805
▁તમારો	-9.28807
94	-9.28875
▁500	-9.28902
▁રૂપાંતર	-9.2895
▁અપડેટ	-9.2895
▁લોડ	-9.28962
▁શકાતી	-9.29093
▁મોડલ	-9.29124
▁બદલવા	-9.29259
ant	-9.29347
પૃથ્વી	-9.2938
ન્ક	-9.29585
▁યહૂદિઓ	-9.29603
▁કસ્ટમ	-9.29821
કરણ	-9.29838
બંધ	-9.30207
આંખ	-9.30229
સ્વી	-9.30252
કર્તા	-9.30274
84	-9.30303
▁કાર્યક્રમો	-9.30397
▁કરતી	-9.30405
▁સુરક્ષા	-9.30721
▁ડાય	-9.30754
▁કઈ	-9.30773
એચ	-9.30852
▁વગાડ	-9.30856
▁ગણ	-9.30915
▁નવો	-9.30916
▁વાપર	-9.31104
▁દક્ષિણ	-9.31126
કૃતિ	-9.31139
▁સમગ્ર	-9.31172
▁વચન	-9.31174
▁લાંબા	-9.31273
▁do	-9.31425
▁દૃશ્ય	-9.31567
{0}	-9.31714
▁તારા	-9.31714
▁month	-9.31714
▁ટૂંક	-9.31715
▁આપવામાં	-9.318
પક્ષી	-9.31802
▁ફાઈલો	-9.3189
▁મોકલો	-9.31948
▁બિંદુ	-9.3201
▁so	-9.32014
97	-9.32015
▁એવી	-9.3225
▁બ્રા	-9.32254
▁લીટી	-9.32295
ish	-9.32303
▁વાપરી	-9.3244
▁મહત્વ	-9.32449
▁એટલે	-9.32463
થે	-9.32586
▁પીસી	-9.32607
▁ફોટો	-9.32765
600	-9.32867
▁સેલ	-9.32939
ust	-9.3299
ન્ગ	-9.33244
પુર	-9.33253
▁સેન્ટ	-9.3332
view	-9.33352
▁તપાસ	-9.33505
▁લક્ષણ	-9.33534
▁વળ	-9.33678
▁માનવ	-9.33687
▁વિકિપીડિયા	-9.33802
▁પ્રારંભ	-9.33802
▁શબ્દો	-9.33966
▁રોજ	-9.34041
▁મારો	-9.34142
્ડ	-9.34144
▁સંદર્ભ	-9.34256
▁ચૂકવ	-9.34407
str	-9.3463
▁રૂપરેખા	-9.3471
▁પ્રશ્ન	-9.34743
▁અભ્યાસ	-9.34861
▁URL	-9.34864
▁બજાર	-9.34879
્રેસ	-9.3494
▁વખત	-9.35068
▁મેળવ	-9.35079
▁સફેદ	-9.35322
▁સ્થળ	-9.35373
▁વ્યવસ્થાપક	-9.35475
▁દેશો	-9.35528
▁તેમણે	-9.35631
▁લોકોએ	-9.35676
79	-9.35686
▁સારું	-9.35703
▁ટ્રેન	-9.35734
-12	-9.359
▁સ્રોત	-9.35948
ake	-9.36292
▁જેવી	-9.36319
▁ફેબ્રુઆરી	-9.36708
▁મૂલ્ય	-9.36724
tic	-9.36794
▁ટીમ	-9.36836
▁બંને	-9.37054
▁શાળા	-9.37157
▁હવા	-9.3719
ther	-9.3721
▁condition	-9.3733
▁Casino	-9.37487
▁બંધબેસ	-9.37493
ણું	-9.37707
▁જાણી	-9.37738
હાસ્ય	-9.37856
▁IP	-9.379
▁આપણી	-9.37929
▁સત્તાધિકરણ	-9.37957
▁સમૂહ	-9.37958
▁વર્ત	-9.37977
ger	-9.38058
▁શરુ	-9.38337
▁ઓડિયો	-9.38429
▁કરું	-9.38576
GB	-9.38653
▁તકનીકી	-9.38746
▁પદ્ધતિ	-9.38904
ગ્રા	-9.3891
▁ઉકેલ	-9.39078
▁એવું	-9.39086
▁હજુ	-9.39174
▁બાબતો	-9.39208
▁વિભાગ	-9.39225
ick	-9.39229
▁વડે	-9.39266
▁રોક	-9.39361
▁નમૂના	-9.3954
81	-9.3958
71	-9.396
▁શરતો	-9.40023
▁ખરીદી	-9.40093
unit	-9.40103
પણે	-9.40358
▁સમાન	-9.40443
▁લીલા	-9.40604
▁બેગ	-9.40731
▁You	-9.40979
▁મુશ્કેલ	-9.40987
▁1000	-9.41109
▁બ્રશ	-9.4119
▁છતાં	-9.41192
▁નાંખો	-9.4128
▁નીતિ	-9.41291
▁વાદળી	-9.41315
▁થોડા	-9.41318
▁ગીત	-9.4143
▁વાયર	-9.41434
▁ડિસેમ્બર	-9.41474
▁પરિસ્થિતિ	-9.41474
▁કૂ	-9.41752
▁ડેટા	-9.41844
▁સુધારો	-9.41858
▁માલિક	-9.42013
▁કહું	-9.42258
▁સ્વાગત	-9.42455
▁sp	-9.42582
▁USA	-9.42635
▁હોસ્ટિંગ	-9.42785
છી	-9.42834
▁અસરો	-9.42881
▁સંબંધ	-9.42894
▁ઇમેજ	-9.43121
▁ઓછી	-9.43129
▁ચેતવણી	-9.43281
▁પુત્ર	-9.43396
▁ચકાસણી	-9.434
▁છોડ	-9.43474
fe	-9.43534
▁ટૂલ	-9.43619
▁બિલ	-9.43799
૬	-9.43802
▁એન્ડ	-9.43841
▁Play	-9.43856
▁કચરાપેટી	-9.44113
▁GB	-9.44506
સ્ત્ર	-9.4455
___	-9.44651
tri	-9.44659
▁પાવડર	-9.44783
▁રોગ	-9.44814
▁વહેંચ	-9.44952
▁સુવિધા	-9.44952
▁દૂત	-9.45181
▁પ્લા	-9.45201
ઍ	-9.45273
▁00:00:00	-9.45289
▁પહેલેથી	-9.4529
▁નિકાસ	-9.45293
TI	-9.45391
▁છબીઓ	-9.45459
▁અટકાવ	-9.4546
▁લોગ	-9.45551
▁અંતિમ	-9.45631
▁વિશ્વમાં	-9.4572
▁લાવવા	-9.46091
ance	-9.46182
▁બિ	-9.46212
ગ્રહ	-9.46419
▁પહોળાઈ	-9.4648
▁જોડાયેલ	-9.46482
▁લખવા	-9.46496
▁પુસ્તક	-9.46655
▁સ્થિત	-9.46807
▁મજબૂત	-9.46822
TE	-9.46897
▁બહુ	-9.46902
▁કાચ	-9.46981
▁હાજર	-9.47082
▁તકતી	-9.47146
▁ક્રેડિટ	-9.47166
▁ડોમેઇન	-9.47166
act	-9.47202
▁ખોલવા	-9.47221
▁સ્લોટ્સ	-9.47434
▁વાંચી	-9.47505
har	-9.4755
▁વપરાશકર્તાઓ	-9.47707
▁ગરમ	-9.47714
ave	-9.47724
બહેન	-9.47776
▁માગ	-9.47777
▁લાભ	-9.47789
▁વ્યાવસાયિક	-9.47858
▁પ્રવેશદ્વારની	-9.48031
▁વરસાદ	-9.48031
▁શૈલી	-9.48032
▁પરીક્ષણ	-9.48034
▁પિતર	-9.48046
▁વિદ્યાર્થીઓ	-9.48049
ઍસ	-9.48221
▁બચાવ	-9.4825
▁જોયું	-9.48559
▁સરનામાં	-9.48614
▁સૌ	-9.4862
▁માર્ચ	-9.48676
▁માઉન્ટ	-9.4873
▁કૉલ	-9.48738
▁બાબત	-9.48753
▁પ્રવાસ	-9.48798
▁વિશિષ્ટ	-9.48904
▁સંદેશ	-9.48913
▁મોડ્યુલ	-9.49079
▁અમારો	-9.49089
▁ઉત્પાદક	-9.49098
▁જણાવ્યું	-9.49115
▁મદદથી	-9.49253
રેટ	-9.49267
ડાઉન	-9.49454
ator	-9.49515
▁બ્રાન્ડ	-9.49522
▁બ્લેક	-9.49611
▁બદલે	-9.49744
▁સત્તાવાર	-9.49964
▁Me	-9.50004
▁2012	-9.50111
▁ગમે	-9.50142
▁કેલેન્ડર	-9.50153
▁૫૪	-9.5017
▁સભ્ય	-9.50187
પ્ત	-9.50224
atch	-9.50307
▁મારફતે	-9.50316
Coin	-9.50377
▁મારે	-9.50602
▁નાંખ	-9.50608
▁રહ્યું	-9.50639
▁86-	-9.50653
▁છેલ્લે	-9.50693
mail	-9.50703
▁પકડ	-9.50742
ડ્રો	-9.50851
▁પસાર	-9.50857
▁વિશાળ	-9.5103
▁રૂપરેખાંકિત	-9.51209
▁પ્રવૃત્તિ	-9.51236
યુક્ત	-9.51285
▁નોંધણી	-9.51341
આઇ	-9.51388
ton	-9.51408
▁હેતુ	-9.51484
▁દ્દારા	-9.51568
▁જાહેરાત	-9.51575
ષ્ઠ	-9.51612
ેબલ	-9.51685
▁વધારો	-9.51753
▁સતત	-9.5176
old	-9.51787
▁ગુણધર્મો	-9.51829
▁કાર્	-9.51868
▁પ્લેટફોર્મ	-9.51929
#	-9.51978
▁દરમિયાન	-9.5211
▁સ્થિર	-9.5211
▁બ્રાઉઝર	-9.52291
▁સુસંગત	-9.52291
oll	-9.52545
વાળી	-9.52576
▁પ્લાસ્ટિક	-9.52654
▁વેપાર	-9.52676
▁પાંચ	-9.52761
વ્યવહાર	-9.53019
▁પ્રાર્થના	-9.53019
▁દુનિયા	-9.53203
▁મેઈલ	-9.53393
▁લૂ	-9.53629
▁સાચવો	-9.53722
િટી	-9.53764
dr	-9.53808
▁રહેવા	-9.5402
tal	-9.54101
line	-9.54303
▁તાળુ	-9.54335
▁કાળો	-9.54348
ચુ	-9.54786
▁ક્ષતિ	-9.55066
▁લેબલ	-9.55103
83	-9.55371
▁રક્ષણ	-9.55474
▁નહી	-9.55588
▁આગામી	-9.55611
▁ખોરાક	-9.55611
▁સારવાર	-9.55797
▁ભારતીય	-9.55861
▁સ્તંભ	-9.55985
▁ટાઇ	-9.56116
▁WordPress	-9.56173
▁forecast	-9.56173
0.0	-9.56346
▁JOBiST	-9.56362
▁કરશો	-9.56535
▁જીત	-9.5654
▁પૈસા	-9.56551
▁યોહાન	-9.56555
▁ઉપદેશ	-9.56595
▁બાકી	-9.56603
િઆ	-9.56655
▁પરિવહન	-9.5674
▁ફોટા	-9.56992
BAR	-9.57128
province	-9.57311
▁બ્લોક	-9.57409
que	-9.57687
તંત્ર	-9.57703
▁બિલ્ડ	-9.57734
▁તેમજ	-9.57762
▁ધર્મ	-9.57859
▁અનુસાર	-9.57885
▁પાઇપ	-9.58084
123	-9.58086
▁મેમરી	-9.58088
▁સંકેત	-9.58089
ound	-9.58173
mi	-9.5826
ઇલેક્ટ્ર	-9.58269
▁ઇન્ટરફેસ	-9.58269
▁ખોલી	-9.58332
▁અહેવાલ	-9.58654
▁જન્મ	-9.58657
▁ઓટો	-9.58661
▁અવગણ	-9.58662
▁but	-9.58785
▁પૂર્વદર્શન	-9.58848
▁`%	-9.5885
▁રાજા	-9.58865
▁ખેંચ	-9.59431
app	-9.59549
ર્બ	-9.59568
▁સ્ટોર	-9.59705
▁ગ્રાહક	-9.5996
▁એકાઉન્ટ	-9.60017
▁Web	-9.60018
▁ભાઈઓ	-9.6002
0.5	-9.60112
▁with	-9.60409
▁ચાર્જ	-9.60463
▁અઠવાડિયા	-9.60606
▁૧૨	-9.60667
ગ્રામ	-9.60723
▁પ્રદાન	-9.60744
▁પ્રત્યે	-9.60803
▁ઇનપુટ	-9.61
▁ઔદ્યોગિક	-9.61
▁ઇતિહાસ	-9.61198
▁સંભાળ	-9.61203
▁દિશા	-9.61401
unchpad	-9.61596
▁દૂરસ્થ	-9.61599
▁હમણાં	-9.61795
▁બેટરી	-9.61809
▁વીડિયો	-9.61994
▁ઘણો	-9.62002
▁અરજી	-9.62011
▁વિન્ડોઝ	-9.62141
▁Anirdesh	-9.62194
▁આંતરિક	-9.62194
file	-9.6225
▁ટીવી	-9.62347
▁વ્યાપક	-9.62395
а	-9.62395
▁સ્માર્ટ	-9.62395
▁ટૅગ્સ	-9.62596
▁૧૮	-9.62689
▁મીમી	-9.63186
▁મેટલ	-9.6326
▁વૈશ્વિક	-9.63606
▁ટ્રાન્સ	-9.63606
!”	-9.63886
▁સપ્ટેમ્બર	-9.64013
બૂ	-9.64042
▁તારી	-9.64164
▁ગણતરી	-9.64218
પ્રે	-9.64361
સૂર્ય	-9.64434
▁૧૫	-9.64486
▁કમ્પ્યુટર	-9.64626
▁ચોકઠાં	-9.64832
▁સમાવિષ્ટ	-9.64832
▁સૂચિ	-9.65039
▁ક્યારેય	-9.65155
▁ચલાવવા	-9.6519
paper	-9.65299
પૂર્ણ	-9.65333
▁Bonus	-9.65451
▁છુપા	-9.65495
▁રજૂ	-9.65865
▁મંદિર	-9.66072
▁સૉફ્ટવેર	-9.66072
▁size	-9.66333
▁બરફ	-9.66526
▁લોકપ્રિય	-9.66908
▁પ્રિય	-9.67249
▁મોકલવા	-9.6738
▁વિકસ	-9.6749
▁મહિલા	-9.67541
▁લઇ	-9.67676
▁આસપાસ	-9.67963
▁ધોરણ	-9.67965
▁લેસર	-9.67994
▁item	-9.68199
host	-9.68293
▁પ્રયોગ	-9.68328
▁કરતો	-9.68508
▁દીકરો	-9.68602
▁અમલ	-9.68814
▁મુજબ	-9.68816
▁ફ્રી	-9.68875
ign	-9.68878
ન્ચ	-9.69027
▁ફેસબુક	-9.69029
▁ફિલ્મ	-9.69032
▁કાગળ	-9.69033
▁મળશે	-9.69277
▁તરફથી	-9.69431
▁સત્તા	-9.6946
▁KDE	-9.69461
~	-9.69493
▁હવામાન	-9.69506
MoHFW	-9.69533
▁પાર્ક	-9.69588
▁bit	-9.69825
▁ટાપુ	-9.69891
▁સંગીત	-9.69892
▁અમુક	-9.69894
▁દુકાન	-9.69916
▁જમીન	-9.6992
▁આરોગ્ય	-9.70107
▁APK	-9.70115
▁સંચાલન	-9.70324
▁ડિગ્રી	-9.70366
▁(1)	-9.70437
е	-9.70541
▁સરનામા	-9.70704
▁Hack	-9.70766
▁HTML	-9.70977
▁લંબાઈ	-9.70978
▁૧૬	-9.71022
Language	-9.71196
▁કરાવ	-9.71298
▁મોટો	-9.71442
▁સીએ	-9.71514
ાન્	-9.71586
પુરુષો	-9.71635
▁બિઝનેસ	-9.71635
▁સફળ	-9.71639
gujju	-9.71856
▁ઉત્તમ	-9.7186
▁સંપાદક	-9.72076
▁ISO	-9.72079
▁સક્ષમ	-9.72085
▁ઉમેરવા	-9.72204
▁સંસ્કરણ	-9.72298
900	-9.72452
▁પેકેજિંગ	-9.72534
પણું	-9.72705
▁નિશ્ચય	-9.72742
▁મહિમા	-9.72742
▁આપશે	-9.72784
▁ભવિષ્ય	-9.72964
▁સલામત	-9.72966
પૂર્વક	-9.72986
▁બુકમાર્ક	-9.73188
▁સંચાલિત	-9.73411
select	-9.73414
▁લાઇટ	-9.73481
▁ચુકવણી	-9.73635
▁સાચું	-9.73862
▁ટેક્સ	-9.73983
о	-9.74085
વિગતો	-9.74134
▁100%	-9.74139
▁પ્રાણી	-9.74195
▁ગયું	-9.74541
▁મુલાકાતીઓ	-9.74895
▁નિયમિત	-9.74897
▁લઘુ	-9.75219
▁નિઃશુલ્ક	-9.75448
▁સામાજિક	-9.75676
▁USD	-9.75694
▁સલાહ	-9.75909
બર્ગ	-9.76049
name	-9.76117
▁વર્ચ્યુઅલ	-9.76136
▁state	-9.76148
$1	-9.76671
▁ફિલ્ટર	-9.7683
tool	-9.76887
▁પ્રભાવ	-9.77708
▁ડેવલપર	-9.7776
▁ફિટનેસ	-9.7776
▁પ્રદર્શન	-9.77763
્યુઅલ	-9.77775
▁સંપૂર્ણપણે	-9.77799
▁જગત	-9.77807
ટ્ટ	-9.77809
▁લગ્ન	-9.77999
▁પાર્ટીશન	-9.78229
▁શુદ્ધ	-9.78231
▁નોકરી	-9.78467
▁વિજેટ	-9.78475
0.1	-9.78505
અનંત	-9.78561
▁હૃદય	-9.787
▁પર્યાવરણ	-9.78936
▁Canada	-9.78936
▁મર્યાદા	-9.78936
▁વિનિમય	-9.78936
▁સમર્થ	-9.78937
▁રોકાણ	-9.78937
▁પ્રદેશ	-9.79409
▁ઇન્ટરનેટ	-9.79411
▁પ્રોગ્રામ	-9.79445
▁આવશ્યક	-9.79649
▁Enterprise	-9.79887
▁આંતરરાષ્ટ્રીય	-9.79887
▁ટર્મિનલ	-9.79887
▁માઉસ	-9.79894
▁હેડર	-9.79962
▁ગોઠવણી	-9.80016
▁રહો	-9.80026
▁ઊંચાઈ	-9.80206
▁ગુજરાત	-9.80347
▁મહત્વપૂર્ણ	-9.80377
▁દરમ્યાન	-9.80607
france	-9.80609
mode	-9.80823
▁સપાટી	-9.80849
▁સુયોજન	-9.81021
▁કીબોર્ડ	-9.8119
▁સૂચક	-9.81332
▁એશિયા	-9.81338
▁ગિફ્ટ	-9.81575
▁અદ્યતન	-9.81818
▁સ્ટેટ્સ	-9.82309
▁વિનંતી	-9.82551
▁શાંતિ	-9.82553
▁યહૂદિ	-9.82662
should	-9.83043
▁કોષ્ટક	-9.83295
ાર્થ	-9.83456
time	-9.83502
±	-9.83786
▁Evolution	-9.83786
▁નિયંત્રિત	-9.83786
▁સોંપ	-9.83839
▁કટીંગ	-9.84042
▁શબ્દમાળા	-9.84534
▁પહેર	-9.84596
▁સર્વિસ	-9.84623
▁માર્ગદર્શન	-9.84785
▁એકબીજા	-9.84786
▁રીત	-9.84862
નગર	-9.85079
કારિયાણી	-9.85291
▁ચોરસ	-9.853
р	-9.8554
▁બ્રાઉન	-9.85542
▁Home	-9.85543
text	-9.85698
▁ઑપરેટિંગ	-9.85793
▁સમુદ્ર	-9.85793
▁સ્વામી	-9.85797
▁કાર્યરત	-9.86061
▁પાલન	-9.86127
▁સ્વયં	-9.86304
▁સુપર	-9.86657
ફ્લે	-9.8688
▁આત્મ	-9.86988
▁વાક્ય	-9.87077
વ્યાખ્યાયિત	-9.87328
▁પ્લગઈન	-9.87584
ક્વિ	-9.8764
▁વાળ	-9.87674
▁દૈનિક	-9.87842
▁પ્રોક્સી	-9.88106
▁થોડી	-9.88112
▁ઓફિસ	-9.88178
▁ભાગીદાર	-9.88363
▁ઈમેજ	-9.88367
▁પ્રાથમિક	-9.88882
▁Online	-9.88882
▁કોઇપણ	-9.88949
વૈકલ્પિક	-9.89144
▁કામગીરી	-9.89145
▁પોલીસ	-9.89182
▁સ્ટાર	-9.89362
▁કુટુંબ	-9.89407
▁ડિસ્પ્લે	-9.89407
▁દલીલ	-9.89455
▁ઉપરાંત	-9.89486
▁૧૭	-9.89515
ટ્રિ	-9.89556
▁ખુશ	-9.89686
▁સ્ટેશન	-9.89698
▁કેબલ	-9.89699
▁સ્વરૂપ	-9.89744
▁જોખમ	-9.89752
▁સુવાર્તા	-9.89934
▁કેટલીક	-9.89934
work	-9.90207
▁that	-9.90224
▁ઘણું	-9.90255
▁ડૉલર	-9.90463
▁વ્યાપાર	-9.90463
▁ગોપનીયતા	-9.90729
▁CNC	-9.90738
▁તરત	-9.90937
▁સુમેળ	-9.90997
▁મિલિયન	-9.90997
▁વૈવિધ્યપૂર્ણ	-9.90999
Full	-9.91002
▁જણાવ	-9.91175
▁Phone	-9.91264
દેવ	-9.91448
રાષ્ટ્ર	-9.91532
▁ઈન્	-9.91583
▁જનરેટર	-9.918
▁હકીકત	-9.918
▁વૃદ્ધ	-9.918
▁ડિપોઝિટ	-9.9207
▁વાતચીત	-9.9207
▁કેમેરા	-9.92078
▁મંત્રાલય	-9.9234
▁વાયરલેસ	-9.92341
ડબલ્યુ	-9.92468
▁યાજક	-9.92616
▁છૂટ	-9.92676
▁ભેગા	-9.92885
▁26.00	-9.92896
▁બેરિંગ	-9.929
▁પહેલ	-9.92938
▁વિસ્તૃત	-9.93155
ટાઇમ	-9.93188
quot	-9.93221
▁આપમેળે	-9.93429
▁ઓર્ડર	-9.93706
ture	-9.93783
જીવંત	-9.93937
▁ટિપ્પણી	-9.94148
Tube	-9.94153
▁ઉમેદવાર	-9.94253
▁સ્લોટ	-9.94381
▁પોતાને	-9.94551
▁શીટ	-9.94735
▁યરૂશાલેમ	-9.94806
▁ઇલેક્ટ્રોનિક	-9.94806
▁રેટિંગ	-9.94818
▁શિક્ષક	-9.9482
▁Mobile	-9.95084
▁ઊંચા	-9.95147
▁ગ્રાફ	-9.95168
▁English	-9.95362
▁ખુલ	-9.95817
▁ઝોન	-9.96217
mark	-9.96234
▁dur	-9.96285
જીવન	-9.96383
▁વાલ્વ	-9.96485
▁ડિજિટલ	-9.96767
▁માર્કેટિંગ	-9.96767
▁ખેલાડી	-9.96767
▁નિષ્ણાત	-9.9705
▁ક્યારે	-9.97176
▁એલ્યુમિનિયમ	-9.97334
▁મોટું	-9.97623
▁પાછો	-9.97625
▁મગજ	-9.97628
ness	-9.98088
▁સંયોજન	-9.98192
▁CPU	-9.98195
ગુલાબ	-9.9823
▁રકમ	-9.98498
▁અનુવાદ	-9.98533
▁દીકરા	-9.98767
ચંદ્ર	-9.9878
▁વ્યવસ્થા	-9.99052
é	-9.99056
▁વોલ્ટેજ	-9.99346
▁લાઇવ	-9.99349
▁ઘાટ	-9.99495
▁કમ્પ્યૂટર	-9.99928
▁અસરકારક	-9.99929
▁નિર્ણય	-9.99932
▁જીનોમ	-9.9994
▁કરાર	-10.0004
▁સાઇટમેપ	-10.0022
▁શ્રીજીમહારાજ	-10.0051
▁આશ્ચર્ય	-10.0081
▁બનવા	-10.0098
▁પટેલ	-10.0112
▁ટેટૂઝહાથ	-10.0119
▁district	-10.014
▁જમણી	-10.0171
▁translated	-10.0199
▁પ્રોટોકોલ	-10.0199
▁સંસ્કૃતિ	-10.0199
▁વિજ્ઞાન	-10.0201
▁કેદીઓ	-10.0202
▁વીમા	-10.0209
▁આવતા	-10.0224
▁ઇન્દ્રિયો	-10.0229
▁સંચાલક	-10.0229
▁ગુણધર્મ	-10.0276
▁માઇક્રો	-10.0289
▁પરીક્ષા	-10.0289
▁FSX	-10.0289
▁LexUriServ	-10.0319
▁એલઇડી	-10.0319
▁સુચના	-10.032
▁મેકઅપ	-10.0349
▁ઉત્પન્ન	-10.0349
▁એડમિન	-10.035
▁કંઇ	-10.0351
▁ડેટાબેઝ	-10.041
▁જોડાવા	-10.0418
▁કાયમ	-10.0419
Black	-10.0442
▁દીઠ	-10.0448
▁પિક્સેલ	-10.0502
વાળું	-10.0512
▁નિયંત્રક	-10.0533
▁નુકસાન	-10.0533
▁ડ્રાઈવ	-10.0533
▁પથ્થર	-10.0564
▁મોલેક્યુલર	-10.0564
▁સમાજ	-10.0566
▁ગયેલ	-10.0599
▁વધારાની	-10.0626
▁વૃક્ષ	-10.0626
▁લીધે	-10.0627
▁સમુદાય	-10.0657
▁છોકરી	-10.066
૨૦૦	-10.0688
▁પૂછપરછ	-10.0719
▁વ્યાસ	-10.0721
▁હજાર	-10.0757
ઋ	-10.0782
▁પ્રગતિ	-10.0814
▁એટલા	-10.0817
▁સુધારાશે	-10.0846
info	-10.0848
HFW	-10.0867
▁કલાકાર	-10.0883
વિકાસ	-10.0906
hilippines	-10.0909
‍	-10.0909
▁મર્યાદિત	-10.0909
▁વિરૂદ્ધ	-10.0909
▁પૂછયું	-10.091
▁ગેમ્સ	-10.0942
સિંહ	-10.0971
▁કુદરતી	-10.0974
▁XML	-10.0974
▁ચિંતા	-10.0974
▁સ્ટ્રીમ	-10.1012
▁કોન્	-10.1014
▁અલ્ટ્રાસોનિક	-10.1038
▁દબાવો	-10.1038
▁જયારે	-10.1039
ુષ્	-10.104
uck	-10.1055
®	-10.1071
▁ફ્રેમ	-10.1071
▁કાર્બન	-10.1072
મૃત	-10.1093
▁ફ્લેગ	-10.1109
▁મુસાફરી	-10.1136
▁જવાબદારી	-10.1136
▁આકર્ષ	-10.1137
▁શિપિંગ	-10.1202
▁પત્ની	-10.1202
▁DVD	-10.1235
▁મલ્ટી	-10.1235
▁સ્વાધીન	-10.1268
▁મિશ્રણ	-10.1268
બ્રહ્મ	-10.1268
▁ઈવોલ્યુશન	-10.1301
▁મેનેજમેન્ટ	-10.1301
▁થ્રેડ	-10.1301
▁વિડિયો	-10.1301
▁ટાઉન	-10.1301
઼	-10.1334
▁માછલી	-10.1334
▁કાળજી	-10.1335
▁this	-10.1336
▁કૂકીઝ	-10.1368
▁અનન્ય	-10.1368
▁સૂચવ	-10.1368
▁બેઠક	-10.137
▁Deposit	-10.1401
▁0086-	-10.1401
▁ખોટું	-10.1402
▁URI	-10.1402
duct	-10.1402
સિસ્ટમ	-10.1415
▁નાણાં	-10.1435
▁પ્રમુખ	-10.1469
▁રહ્યુ	-10.1475
keyboard	-10.1503
▁રોટલી	-10.1537
Blockchain	-10.1571
▁કુશળતા	-10.1571
▁રીટ્વીટ	-10.1571
▁જટિલ	-10.1572
▁વાહન	-10.1577
▁પુરવઠો	-10.1605
▁કેટલાએક	-10.1605
▁પુસ્તિકા	-10.1605
▁આઇફોન	-10.1605
▁વિદ્યાર્થી	-10.1636
▁બેકઅપ	-10.1639
▁કવિતા	-10.164
▁સંકોચ	-10.1675
▁પેકિંગ	-10.1675
સંગ્રહ	-10.1697
▁સ્થળાંતર	-10.1709
▁સારાંશ	-10.1709
▁WhatsApp	-10.1743
▁માળખું	-10.1743
▁એન્જિન	-10.1778
Country	-10.1778
▁Twitter	-10.1778
▁pricelist	-10.1778
▁રજીસ્ટર	-10.1778
▁ઊર્જા	-10.1778
▁પંપ	-10.1782
▁ગાળક	-10.1782
▁ચાર્ટર	-10.1786
આશરે	-10.1811
▁ઓબ્જેક્ટ	-10.1813
▁જેકપોટ	-10.1848
▁sales	-10.1848
▁જાડાઈ	-10.1848
с	-10.1883
પ્રત	-10.1888
▁જિલ્લો	-10.1919
▁વૈજ્ઞાનિક	-10.1919
▁બાહ્ય	-10.1919
▁માધ્યમ	-10.1954
▁રશિયા	-10.1954
▁આંકડા	-10.1955
textattr	-10.199
▁બુદ્ધિ	-10.199
▁નીંગબો	-10.199
▁મોઝેક	-10.2025
▁તબીબી	-10.2026
▁કાયદા	-10.2026
▁સાબિત	-10.2026
▁તફાવત	-10.2061
▁નોંધપાત્ર	-10.2061
swkothar	-10.2097
▁શક્તિશાળી	-10.2097
▁જમણે	-10.2098
▁HTTP	-10.2133
▁ઈન્ટરનેટ	-10.2133
▁ઢાળ	-10.2133
▁અભ્યાસક્રમ	-10.2134
▁સ્કેન	-10.2161
LTD	-10.2182
regions	-10.2206
▁વિશ્વસનીય	-10.2206
▁ફ્રાન્સ	-10.2243
▁દર્દી	-10.2243
▁વ્યવસ્થાપન	-10.2243
▁સેકન્ડ	-10.2243
▁અજાણ	-10.2253
Stock	-10.2253
▁સાચવ	-10.2274
▁આફ્રિકા	-10.2279
▁પ્રોફાઇલ	-10.2279
▁સરળતાથી	-10.2279
બિલાડી	-10.228
▁પાછુ	-10.2295
▁સુયોજીત	-10.2316
▁count	-10.2316
▁પ્રદર્શિત	-10.2316
ાનંદ	-10.2349
▁કોર્પોરેટ	-10.2353
▁પીવીસી	-10.2353
▁વર્લ્ડ	-10.2353
GenericName	-10.239
▁કૅલેન્ડર	-10.239
▁આલ્ફા	-10.239
▁પાઉન્ડ	-10.239
▁જોડણી	-10.2391
и	-10.2427
Image	-10.2428
▁કૂપન	-10.2429
શક્તિ	-10.2444
▁માર્ગદર્શિકા	-10.2457
વેલેન્ટાઇન	-10.2464
▁posted	-10.2464
gujarati	-10.2502
▁ઊભી	-10.2502
russia	-10.2502
`	-10.2539
▁Vachanamrut	-10.2539
▁સંકળાયેલ	-10.2539
▁OEM	-10.254
▁વિતરણ	-10.254
એન્કર	-10.2577
▁વેબસાઈટ	-10.2577
▁version	-10.2577
▁દ્રષ્ટિ	-10.2615
▁ફૂટ	-10.2616
▁અનામત	-10.2653
▁મોનિટર	-10.2653
→	-10.2729
▁સમૃદ્ધ	-10.2729
▁જિલ્લા	-10.2729
▁તીવ્ર	-10.2729
KChar	-10.273
≤	-10.2768
▁ધ્વનિ	-10.2807
▁મંડળી	-10.2807
▁તાજેતરની	-10.2845
▁સંપત્તિ	-10.2845
▁ઍક્સેસ	-10.2845
Region	-10.2845
▁એનકોડ	-10.2884
ડ્રેગન	-10.2884
▁રાત્રે	-10.2884
▁ભોજન	-10.2885
▁કપડાં	-10.2923
▁આધુનિક	-10.2923
▁ગ્લાસ	-10.2923
▁ઉંમર	-10.2923
▁from	-10.2923
▁ઓપન	-10.2924
NUM	-10.2948
▁GNOME	-10.2963
▁TRANSLATORS	-10.2963
▁અનિચ્છનીય	-10.2963
▁અત્યંત	-10.2963
કન્યાઓ	-10.2963
▁પરંપરાગત	-10.3002
ankit	-10.3002
▁સખત	-10.3003
▁પ્રીતિ	-10.3042
ameroon	-10.3081
▁આર્થિક	-10.3081
▁ઘડિયાળ	-10.3081
▁વાતાવરણ	-10.3081
▁ટ્યુબ	-10.3081
build	-10.3081
help	-10.3083
▁પદાર્થ	-10.3121
▁વારંવાર	-10.3161
NAME	-10.3161
▁ક્લિપબોર્ડ	-10.3241
▁આયોજન	-10.3242
▁સિરીઝ	-10.3242
▁ડબલ	-10.3263
▁status	-10.3282
▁વિશ્લેષણ	-10.3282
▁સિદ્ધાંત	-10.3282
▁અમેરિકન	-10.3282
▁અનુકૂળ	-10.3323
▁કારાવાસ	-10.3323
к	-10.3323
▁નિર્માણ	-10.3363
▁SKU	-10.3364
▁સીરીયલ	-10.3404
▁કોપીરાઇટ	-10.3446
▁ભૌતિક	-10.3487
▁United	-10.3487
▁અવતરણ	-10.3487
▁ફૂડ	-10.3529
બટરફ્લાય	-10.357
▁સહભાગી	-10.357
▁પ્રતિક્રિયા	-10.357
▁કન્વર્ટ	-10.357
unicode	-10.3612
▁પરિવર્તન	-10.3654
▁મુખ્યત્વે	-10.3654
Query	-10.3696
wise	-10.3739
wBuyBuy	-10.3824
▁કર્મચારીઓ	-10.3824
▁ગંભીર	-10.3824
▁યુનાઇટેડ	-10.3824
▁સોમવાર	-10.3824
પરંતુ	-10.3854
▁subjects	-10.3867
▁પુરવઠા	-10.3867
શ્રેષ્ઠ	-10.3898
▁સ્તુતિ	-10.391
▁અવરોધ	-10.391
▁ઈબ્રાહિમ	-10.3953
▁અપેક્ષા	-10.3953
▁સંશોધક	-10.3953
▁સમર્પિત	-10.3953
▁ખુબ	-10.3953
▁iOS	-10.3997
▁ક્રિપ્ટો	-10.404
▁કામચલાઉ	-10.404
▁નાણાકીય	-10.404
▁ટ્રેડિંગ	-10.404
▁રશિયન	-10.404
group	-10.4041
▁વિરોધી	-10.4084
▁ઓછું	-10.4128
પ્રાપ્ત	-10.417
greece	-10.4172
▁GIMP	-10.4172
ઠ્ઠ	-10.4175
▁LIVE	-10.4261
[	-10.4262
≥	-10.4442
·	-10.4719
н	-10.4956
–	-10.5288
ઔ	-10.5347
ઞ	-10.5912
ઑ	-10.6662
«	-10.751
т	-10.751
€	-10.7919
ا	-10.8018
в	-10.8216
í	-10.8216
у	-10.8485
‘	-10.8683
×	-10.8977
ä	-10.9119
ö	-10.9266
ô	-10.9414
л	-10.9414
ر	-11.0032
ѕ	-11.0032
і	-11.0274
ઊ	-11.0403
●	-11.0691
	-11.1037
฿	-11.1037
Φ	-11.1037
£	-11.1311
м	-11.1581
्	-11.1581
^	-11.1581
å	-11.1674
á	-11.1674
μ	-11.1864
ी	-11.2057
★	-11.3192
—	-11.411
»	-11.4489
“	-11.8384
©	-12.8287
ઐ	-12.9956
•	-12.9957
➖	-12.9957
