<unk>	0
<s>	0
</s>	0
.	-3.37225
,	-3.53976
▁	-3.82706
▁છે	-4.02061
:	-4.29313
▁અને	-4.57922
)	-4.61764
-	-4.86483
s	-4.87328
▁માટે	-4.88588
ની	-4.96925
▁(	-4.98836
ને	-5.0532
માં	-5.14386
▁તે	-5.16099
▁કરો	-5.2652
ના	-5.27035
▁આ	-5.324
▁-	-5.3347
▁કે	-5.40354
ો	-5.41197
નો	-5.58881
▁પર	-5.61136
▁નથી	-5.73871
▁એક	-5.75764
▁જે	-5.77552
▁તમે	-5.86271
નું	-5.86778
▁સાથે	-5.91202
▁/	-5.9671
ર	-5.99822
▁એ	-6.02149
;	-6.02181
▁(_	-6.02419
/	-6.0422
▁%	-6.04527
▁કરી	-6.08045
▁જ	-6.10265
ક	-6.12038
ી	-6.12652
ન	-6.17376
C	-6.18353
લ	-6.18559
A	-6.22184
▁ડાઉનલોડ	-6.24488
▁ઉપલબ્ધ	-6.26411
▁1	-6.28087
ે	-6.28304
સ	-6.30543
▁પણ	-6.3059
▁કરવા	-6.30967
ઓ	-6.31236
"	-6.34943
▁kgm	-6.37297
▁_	-6.39448
થી	-6.40856
S	-6.42659
▁અથવા	-6.44474
d	-6.44847
્સ	-6.45183
_	-6.45217
▁તો	-6.46761
તા	-6.47426
▁હોય	-6.51162
▁pcs	-6.51864
▁હું	-6.51878
'	-6.5223
▁ને	-6.52427
▁"	-6.52814
▁દ્વારા	-6.54791
▁છો	-6.54862
?	-6.56025
M	-6.57936
મ	-6.61446
com	-6.62198
B	-6.63199
▁માં	-6.63404
▁જો	-6.64205
L	-6.66257
ni	-6.66577
pdf	-6.67752
D	-6.67753
▁રીતે	-6.67965
R	-6.67991
▁તમારા	-6.69063
1	-6.71684
વા	-6.718
એ	-6.72481
ં	-6.7279
▁કરે	-6.72839
2	-6.77973
▁2	-6.7835
!	-6.78693
▁અમે	-6.79671
ા	-6.79861
▁પછી	-6.80076
P	-6.803
F	-6.81985
T	-6.82577
rupan	-6.83439
3	-6.84459
▁S	-6.85233
▁ગઢડા	-6.85444
▁કોઈ	-6.85706
▁તેઓ	-6.86908
▁રહ્યા	-6.87543
▁&	-6.88067
▁લોકો	-6.88094
▁શું	-6.90146
▁ન	-6.90546
▁“	-6.91035
▁વધુ	-6.91229
▁ટેટૂઝ	-6.91241
▁જ્યારે	-6.93052
▁પસંદ	-6.93687
▁થયેલ	-6.94447
▁3	-6.94629
ટ	-6.95107
▁ના	-6.95939
▁શકે	-6.9778
en	-6.98537
▁બધા	-6.99836
▁નામ	-6.99885
▁પરંતુ	-7.03818
▁કરવામાં	-7.05812
p	-7.06937
પ	-7.07026
%	-7.07096
G	-7.07158
▁છું	-7.07239
▁છીએ	-7.07326
▁સમય	-7.07731
V	-7.07809
▁તમને	-7.08216
▁C	-7.08919
E	-7.10029
▁તેને	-7.10067
4	-7.10338
e	-7.11191
▁હતી	-7.11793
er	-7.13172
W	-7.13385
▁A	-7.13883
▁name	-7.1416
▁હતો	-7.14302
▁નહિં	-7.14719
▁થી	-7.14856
▁તરીકે	-7.15669
N	-7.16166
▁–	-7.16184
n	-7.16294
▁ત્યારે	-7.16828
▁તેના	-7.17322
m	-7.18188
5	-7.19067
વ	-7.19082
▁'%	-7.2016
▁અ	-7.21053
▁આવે	-7.21431
▁તમારી	-7.21663
y	-7.21766
▁5	-7.21918
▁P	-7.21985
▁થાય	-7.22425
▁માહિતી	-7.22466
▁#	-7.22469
ડ	-7.22682
▁10	-7.2296
O	-7.23248
▁ઉપયોગ	-7.23806
a	-7.23937
િંગ	-7.24093
gt	-7.24899
▁4	-7.25201
x	-7.25328
▁...	-7.25627
▁$	-7.25753
ત	-7.26278
▁તેથી	-7.26359
▁in	-7.26365
▁વિશે	-7.26653
▁કહ્યું	-7.26849
જ	-7.27315
▁કરીને	-7.27716
Name	-7.28425
in	-7.28691
ing	-7.30381
રી	-7.30505
▁રંગ	-7.30874
▁કામ	-7.31078
માંથી	-7.3197
▁a	-7.32455
o	-7.32678
i	-7.32925
▁આપણે	-7.33084
▁પ્રથમ	-7.33544
▁EUR	-7.33594
શ	-7.34308
c	-7.34949
t	-7.35531
▁પાસે	-7.36243
▁હતા	-7.36333
H	-7.38857
mm	-7.39143
▁કારણ	-7.39534
▁€	-7.39725
K	-7.39828
u	-7.40376
ડી	-7.40465
▁ઇ	-7.40516
X	-7.40681
▁અમારા	-7.41107
▁B	-7.42552
City	-7.42579
નાં	-7.42602
▁2018	-7.42698
amp	-7.43257
@	-7.43496
ું	-7.43911
▁બ	-7.44107
▁શકો	-7.44597
▁મને	-7.4537
▁ત્યાં	-7.45751
I	-7.46376
▁બે	-7.46803
b	-7.47123
▁સુધી	-7.47978
optional	-7.48038
▁હતું	-7.48363
ઝ	-7.49366
સી	-7.50065
▁જોઈએ	-7.50178
▁ભૂલ	-7.50526
8	-7.50634
આ	-7.5194
action	-7.52262
▁મારા	-7.52347
▁F	-7.52568
લા	-7.5258
બ	-7.53256
ય	-7.53277
ગ	-7.54152
▁G	-7.54243
▁+	-7.54367
વી	-7.54924
▁નહિ	-7.54968
▁8	-7.55755
▁તેની	-7.56295
f	-7.56639
al	-7.56833
▁બંધ	-7.57077
▁અન્ય	-7.5821
▁6	-7.5876
▁માત્ર	-7.59263
▁ભાગ	-7.59312
k	-7.59526
▁હવે	-7.5959
ક્સ	-7.60022
▁આવી	-7.61168
▁ફાઇલ	-7.61948
▁સિસ્ટમ	-7.62583
મા	-7.62983
રો	-7.62988
▁દૂર	-7.63046
▁મધ્ય	-7.63303
લી	-7.63305
▁the	-7.63403
▁2019	-7.63757
6	-7.64083
▁7	-7.65657
▁T	-7.65923
▁બહાર	-7.66229
ુ	-7.66953
તી	-7.66958
(	-7.67257
7	-7.67469
r	-7.67724
lt	-7.67814
▁ફોન	-7.68501
▁પ્રકાર	-7.68576
ed	-7.69356
▁થઈ	-7.70035
▁શકાય	-7.7071
▁ક	-7.70832
▁12	-7.71134
▁—	-7.7162
રા	-7.71664
ટી	-7.71852
▁મારી	-7.71889
00	-7.72089
l	-7.72384
10	-7.73591
▁'	-7.73681
0	-7.73856
▁19	-7.73964
U	-7.74906
હ	-7.74975
v	-7.75652
▁ટેટૂ	-7.75677
્યા	-7.75857
શે	-7.76303
▁ભાવ	-7.76601
▁D	-7.76682
▁સક્રિય	-7.76901
.”	-7.77104
▁ખૂબ	-7.77221
▁કી	-7.77374
▁K	-7.77553
▁માંથી	-7.77679
▁નવી	-7.7804
▁R	-7.79057
▁વિ	-7.79154
દ	-7.79156
▁દિવસ	-7.79774
▁*	-7.80023
▁મે	-7.8011
▁ફાઈલ	-7.80383
વો	-7.80452
▁સેવા	-7.80863
▁to	-7.81035
h	-7.81322
▁શરૂ	-7.82064
9	-7.82073
ણ	-7.82441
▁ઉત્પાદન	-7.83032
િત	-7.83212
▁દરેક	-7.83256
▁I	-7.83627
g	-7.8401
▁માપ	-7.84339
▁દેવ	-7.84607
▁નિષ્ફળ	-7.84988
▁વર્ષ	-7.85151
▁ઈસુ	-7.85505
▁તેમના	-7.8618
▁20	-7.86322
પી	-7.86473
▁જેમ	-7.86523
▁9	-7.87063
▁H	-7.87279
▁બતાવો	-7.87622
▁એમ	-7.87639
▁શ્રેષ્ઠ	-7.8765
▁જીવન	-7.87681
▁સંપર્ક	-7.87873
://	-7.87899
▁M	-7.88327
▁યાદી	-7.88333
તો	-7.88487
ફ	-7.88737
▁મા	-7.88759
▁અમારી	-7.89027
▁કિંમત	-7.89991
ng	-7.9024
▁મ	-7.90581
▁N	-7.91053
▁શોધ	-7.91318
▁સ	-7.91757
▁E	-7.91778
▁બીજા	-7.91866
ચ	-7.92084
▁ખરેખર	-7.92426
▁ફોલ્ડર	-7.9358
on	-7.93775
▁વ્યક્તિ	-7.9394
વું	-7.94072
કો	-7.94368
▁X	-7.94538
▁કરેલ	-7.94631
▁L	-7.9466
▁સર્વર	-7.94786
an	-7.95664
▁શક્યા	-7.95787
▁આપે	-7.95816
▁મદદ	-7.95975
)...	-7.96166
▁આગળ	-7.96294
▁જરૂર	-7.96436
▁જગ્યા	-7.96573
30	-7.96773
▁કેવી	-7.97332
િક	-7.97341
&	-7.97641
▁translation	-7.97739
▁આધાર	-7.97756
20	-7.9782
ંગ	-7.97969
ઇ	-7.97996
▁©	-7.98062
▁ઓ	-7.98175
▁સંપૂર્ણ	-7.98287
▁કરશે	-7.98518
▁વિન્ડો	-7.98837
11	-7.99197
▁2017	-7.9946
12	-7.99704
▁ગુજરાતી	-7.99742
▁ઘણા	-8.00174
▁મેં	-8.00189
▁સંગ્રહ	-8.00208
▁મુખ્ય	-8.01196
▁18	-8.0136
ળ	-8.01483
▁ઈસુએ	-8.01603
▁not	-8.01645
▁£	-8.01768
▁ફક્ત	-8.01795
▁સામાન્ય	-8.01854
▁ચિત્ર	-8.01875
▁લે	-8.02071
]	-8.02349
▁ઈ	-8.02701
જી	-8.02736
▁નેટવર્ક	-8.03298
▁15	-8.03627
્	-8.03924
▁સ્થિતિ	-8.03926
▁સુયોજિત	-8.04006
મી	-8.04297
w	-8.04434
▁ઉપકરણ	-8.04619
▁11	-8.04635
J	-8.04887
▁કોડ	-8.051
સ્ટ	-8.05178
▁0	-8.0527
▁મૂળભૂત	-8.05616
▁અહીં	-8.05767
ાય	-8.06007
▁સૌથી	-8.06064
Y	-8.06193
▁મશીન	-8.06448
16	-8.06457
▁તેણે	-8.06507
થ	-8.06914
type	-8.07573
50	-8.07925
▁વધારે	-8.08052
▁લોકોને	-8.08413
re	-8.08992
▁and	-8.0913
િ	-8.09182
▁ઉત્પાદનો	-8.09313
કા	-8.09369
▁વિષે	-8.09408
▁લો	-8.095
es	-8.09612
▁ડોલર	-8.0969
▁ઉચ્ચ	-8.09738
્યો	-8.09754
▁પ્રક્રિયા	-8.09862
ીંગ	-8.09879
▁૧	-8.10176
▁જ્યાં	-8.10176
▁કરતાં	-8.10424
એસ	-8.10607
ઈ	-8.10668
▁સંખ્યા	-8.10939
mahima	-8.11167
th	-8.11371
▁of	-8.11656
▁ચાઇના	-8.12369
▁વપરાશકર્તા	-8.12473
▁કહે	-8.12653
▁ઉપર	-8.12685
ખ	-8.13071
▁કંપની	-8.13072
▁[	-8.13588
▁મોટા	-8.13687
▁કરવાનું	-8.13731
▁30	-8.1401
ર્સ	-8.14021
▁need	-8.14254
ડા	-8.14517
▁W	-8.1474
▁બધી	-8.14912
▁કાઢી	-8.1512
▁16	-8.15284
▁અંત્ય	-8.15332
▁ડિસ્ક	-8.15644
▁‘	-8.15681
▁પ્રવેશ	-8.15699
રે	-8.15915
▁J	-8.16632
ન્સ	-8.16644
▁does	-8.16711
▁વસ્તુ	-8.16714
18	-8.16764
▁અમને	-8.1684
▁માંગો	-8.17134
▁કરવાની	-8.17409
▁સા	-8.17596
la	-8.17623
▁જુઓ	-8.17658
▁લખાણ	-8.17734
શો	-8.17762
▁probably	-8.17918
z	-8.1813
▁વિશ્વાસ	-8.18261
▁નહીં	-8.18325
▁કર્યો	-8.18554
▁સરળ	-8.18602
▁સ્તર	-8.18657
▁મફત	-8.18717
▁પસંદગી	-8.18932
▁જવાબ	-8.18964
સા	-8.19045
▁વિવિધ	-8.19154
▁બનાવો	-8.19166
▁યોગ્ય	-8.19313
le	-8.19319
▁24	-8.19338
▁નીચે	-8.2026
▁હશે	-8.20309
15	-8.20575
▁પહેલા	-8.20755
▁તેમને	-8.20776
▁નવા	-8.21035
▁ડે	-8.21045
▁દાખલ	-8.21359
▁p	-8.21396
ક્ષ	-8.2141
યા	-8.21853
▁વસ્તુઓ	-8.21977
▁@	-8.22065
▁Windows	-8.22236
▁કો	-8.2224
19	-8.22328
▁વર્ણન	-8.22391
▁બનાવવા	-8.22416
▁14	-8.22482
લે	-8.22605
▁કરતા	-8.22616
ન્ટ	-8.22714
▁વેબસાઇટ	-8.23014
વિ	-8.23027
▁સી	-8.23317
co	-8.23522
25	-8.23568
▁પાણી	-8.23683
▁કાર્યક્રમ	-8.2373
▁પોસ્ટ	-8.23909
▁તમામ	-8.23978
▁અર્થ	-8.24127
86	-8.24127
▁સામગ્રી	-8.24297
▁2016	-8.24422
▁ગુણવત્તા	-8.24424
40	-8.24459
▁રમત	-8.24879
▁સ્પષ્ટ	-8.25088
જે	-8.25323
▁યુ	-8.2535
▁કર્યું	-8.25574
▁જાય	-8.25792
▁c	-8.26085
▁જરૂરી	-8.26088
▁કાર્ય	-8.26355
ેલ	-8.26379
વે	-8.26814
નુ	-8.27068
▁વ	-8.27207
▁ઇમેઇલ	-8.27226
▁પાસવર્ડ	-8.2732
ાઇ	-8.27334
મેલ	-8.2758
▁વિચાર	-8.27653
▁સ્થાન	-8.27748
બી	-8.27935
▁તથા	-8.28306
▁પી	-8.28643
▁બદલો	-8.28698
Z	-8.29428
am	-8.2958
▁ફરીથી	-8.29642
▁દર	-8.29676
▁કેટલાક	-8.30328
▁માણસ	-8.30512
▁ઘર	-8.30638
”	-8.30926
કે	-8.31306
▁તેઓએ	-8.3143
▁ફેરફાર	-8.31847
▁તાપમાન	-8.32251
14	-8.3227
▁પૂર્ણ	-8.3239
▁25	-8.32391
▁પ	-8.32558
▁V	-8.3282
▁13	-8.33079
▁મુક્ત	-8.33129
▁વચ્ચે	-8.33246
▁બનાવી	-8.33473
િયા	-8.33572
▁મહેરબાની	-8.33604
▁આવશે	-8.33891
el	-8.33927
Comment	-8.34314
તે	-8.3434
્યું	-8.34403
02	-8.34437
▁મોબાઇલ	-8.34612
or	-8.34912
et	-8.34972
▁તારીખ	-8.35225
લો	-8.35349
▁Android	-8.35457
▁પે	-8.35987
▁કુલ	-8.36316
it	-8.36569
▁ક્લિક	-8.37065
▁ડી	-8.37249
▁પહેલાં	-8.37403
22	-8.37532
▁મહત્તમ	-8.3755
▁ગયો	-8.37937
▁કદ	-8.38118
▁50	-8.38139
ar	-8.38302
▁જોવા	-8.38315
▁જોડાણ	-8.38398
▁સે	-8.38513
▁તમારે	-8.39053
▁વખતે	-8.39073
ૅ	-8.39564
▁વાત	-8.39585
બા	-8.39658
▁ઉમેરો	-8.39668
▁ઓનલાઇન	-8.39893
▁ગયા	-8.40347
▁અસમર્થ	-8.40423
▁હ	-8.40443
▁17	-8.40571
01	-8.40574
▁ડિઝાઇન	-8.40577
▁નકલ	-8.40593
▁થશે	-8.40687
▁"%	-8.40763
▁લાગે	-8.40847
35	-8.41159
▁પાવર	-8.41221
▁ચાલુ	-8.41301
▁અલગ	-8.41302
▁સોફ્ટવેર	-8.41738
13	-8.42009
▁શ્રેણી	-8.42256
▁m	-8.423
color	-8.42912
▁તેઓને	-8.43167
▁જોઈ	-8.433
’	-8.43406
▁આપી	-8.43563
▁સ્વાસ્થ્ય	-8.43937
▁ઉ	-8.43964
▁સમાચાર	-8.44086
▁આપણા	-8.44277
▁અયોગ્ય	-8.44419
સે	-8.44629
▁ગ	-8.44686
▁પ્ર	-8.44874
90	-8.44993
17	-8.45044
ra	-8.45159
અ	-8.45215
▁અંદર	-8.45217
us	-8.45499
▁વાપરો	-8.4553
▁આવૃત્તિ	-8.45577
▁મો	-8.45666
▁મુલાકાત	-8.45927
▁વિડિઓ	-8.46054
ur	-8.46089
▁લિ	-8.46163
▁આવ્યો	-8.46269
▁શકાતુ	-8.46393
▁વેચાણ	-8.46676
▁કેસિનો	-8.46677
▁શકતા	-8.46822
▁રહે	-8.46876
▁જાણકારી	-8.46937
▁કા	-8.47031
prasa	-8.47332
▁પ્રયત્ન	-8.47793
▁સાધનો	-8.47904
દા	-8.47956
▁પોતાના	-8.48037
▁બી	-8.4808
▁પ્રેમ	-8.48133
ાઈ	-8.48361
▁તેમ	-8.4865
▁વિકલ્પો	-8.48659
▁ખાસ	-8.48872
▁પ્રાપ્ત	-8.48882
ro	-8.48971
▁ખોલો	-8.49297
▁https	-8.49323
▁100	-8.4936
80	-8.49734
36	-8.49736
▁તું	-8.49872
▁સારી	-8.4988
▁વગેરે	-8.49997
▁વેબ	-8.50124
▁ઉત્તર	-8.50346
્ય	-8.50377
id	-8.50783
▁મોડેલ	-8.5095
24	-8.51094
▁http	-8.51162
▁વરતાલ	-8.51186
hk	-8.51402
▁આવ્યું	-8.51628
www	-8.51857
ri	-8.52225
▁વર્તમાન	-8.52325
એમ	-8.52504
▁આદેશ	-8.52543
ીય	-8.52569
▁ખાતરી	-8.52595
▁ખાલી	-8.52676
▁શા	-8.5269
▁કેન્દ્ર	-8.52944
▁સિ	-8.53221
▁મહિના	-8.53432
▁જેવા	-8.53683
▁કોઈપણ	-8.54094
જો	-8.54148
▁કર	-8.54243
Q	-8.54291
▁O	-8.54451
▁EU	-8.54673
▁કરવું	-8.54722
▁કર્યા	-8.54826
▁૭	-8.54967
ડો	-8.55214
▁ટી	-8.55414
▁ભરતી	-8.55852
+	-8.55888
Electronic	-8.56341
સ્	-8.56535
▁જોઇએ	-8.5657
▁શોધી	-8.56792
▁હોઈ	-8.5693
▁Z	-8.57092
▁કરીએ	-8.57179
▁૫	-8.57182
21	-8.57363
me	-8.57526
્યુ	-8.57815
▁આપવા	-8.57893
▁જેથી	-8.57976
▁Infinite	-8.58265
▁પરવાનગી	-8.5828
▁પા	-8.58467
▁સ્થાપિત	-8.58502
▁200	-8.58515
▁ખ્રિસ્ત	-8.58627
▁સાઇટ	-8.58667
39	-8.58752
▁મેળવી	-8.58904
▁ફોન્ટ	-8.59022
03	-8.59136
ic	-8.5925
▁શહેર	-8.59357
વર	-8.59403
05	-8.59637
મો	-8.59696
▁is	-8.5984
▁થયો	-8.59943
08	-8.60076
▁for	-8.60087
▁જી	-8.60327
ટા	-8.60536
28	-8.60558
ધ	-8.60707
-3	-8.60794
ઉ	-8.60798
38	-8.6083
આર	-8.60889
▁નંબર	-8.61001
▁અવાજ	-8.61437
▁પ્રભુ	-8.61745
=	-8.61802
▁સ્ક્રીન	-8.61848
▁આત્મા	-8.62012
▁ત્રણ	-8.62119
99	-8.62543
▁વિકાસ	-8.62544
▁સારંગપુર	-8.62575
▁દેવે	-8.62581
ૂ	-8.62648
▁•	-8.62898
06	-8.62985
▁સાધન	-8.63063
▁બોલ	-8.63095
મે	-8.63123
▁સુરક્ષિત	-8.63151
▁વિસ્તાર	-8.63163
▁તરફ	-8.63289
29	-8.63431
તું	-8.63467
▁ઉત્પાદકો	-8.63728
▁નં	-8.63771
▁40	-8.63817
▁ઓગસ્ટ	-8.64026
▁સરનામું	-8.64032
▁દ	-8.64073
કી	-8.64393
32	-8.64432
-2	-8.64445
60	-8.64474
▁x	-8.6494
▁2020	-8.65003
ad	-8.6502
યુ	-8.6509
▁વે	-8.65112
-1	-8.65215
▁સ્ટીલ	-8.65294
75	-8.65351
▁અનુભવ	-8.65433
▁»	-8.65643
▁તેમની	-8.65658
is	-8.65718
▁અપ	-8.65891
▁હો	-8.65966
▁સર્વ	-8.66047
▁info	-8.6629
▁બાળકો	-8.66359
▁થીમ	-8.66495
se	-8.6651
▁એસ	-8.6666
▁નિયંત્રણ	-8.66679
▁°	-8.66739
▁વાપરવા	-8.66794
▁શોધો	-8.67031
▁આજે	-8.67121
▁બધું	-8.67335
▁હા	-8.67439
▁થયું	-8.67493
▁ઑનલાઇન	-8.67683
▁ક્રિયા	-8.67765
▁સંવાદ	-8.67977
net	-8.68016
ly	-8.68126
▁બોનસ	-8.68187
▁પૂરી	-8.68368
▁Y	-8.68709
ર્	-8.68806
▁૨	-8.68814
ડે	-8.69089
▁રહી	-8.69177
▁પ્રમાણપત્ર	-8.69374
▁ફરી	-8.69536
ંક	-8.69672
▁જૂથ	-8.69691
▁કોઇ	-8.69716
▁થ	-8.69866
09	-8.7002
▁અંત	-8.70389
સો	-8.70522
▁સો	-8.70656
▁રાખો	-8.70692
▁આવ્યા	-8.70707
▁૪	-8.70721
▁=	-8.70795
27	-8.70844
જા	-8.70848
▁મળી	-8.70934
▁સુ	-8.71217
un	-8.71251
▁કૃપા	-8.7126
▁કૉપિરાઇટ	-8.71272
▁ક્ષમતા	-8.71351
▁ત	-8.71417
▁by	-8.71464
▁આયાત	-8.71589
રિ	-8.71641
▁ચોક્કસ	-8.71863
26	-8.72225
▁પાથ	-8.72232
▁નિ	-8.72256
ૉ	-8.72317
▁સ્થાપના	-8.72335
▁બટન	-8.72427
▁કાર	-8.72526
▁તૈયાર	-8.72526
▁વજન	-8.72544
▁2013	-8.72636
▁પાનું	-8.72655
મિ	-8.73201
▁નકશા	-8.73383
ભ	-8.73479
▁રહ્યો	-8.73493
▁be	-8.73549
▁ઘણી	-8.73807
▁ઓફ	-8.74053
▁મેનુ	-8.74074
▁યજમાન	-8.74131
▁ધરાવે	-8.74347
il	-8.74406
▁હે	-8.74462
▁f	-8.745
▁૩	-8.74508
ીઓ	-8.74513
▁60	-8.74586
હું	-8.7466
▁સં	-8.74693
▁દેખાવ	-8.74695
23	-8.74787
▁લિમિટેડ	-8.74887
▁g	-8.7562
▁જૂન	-8.7569
▁માર્ગ	-8.75744
95	-8.7577
નિ	-8.75775
ers	-8.75923
▁બની	-8.75975
48	-8.75994
▁સમયે	-8.75998
st	-8.76055
▁અસર	-8.76137
ૈ	-8.76465
ઓને	-8.76548
33	-8.76566
j	-8.76608
▁વિકલ્પ	-8.7663
▁(%	-8.76766
▁આપોઆપ	-8.76798
▁રિ	-8.76798
ટો	-8.76885
▁ટેકનોલોજી	-8.76971
ગા	-8.77006
▁Constellation	-8.77175
▁2015	-8.77202
37	-8.77237
▁નિષ્ફળતા	-8.77261
▁યાદ	-8.7729
▁મેળવવા	-8.77754
▁લાલ	-8.77791
▁મી	-8.77793
વામાં	-8.77925
▁આપ્યો	-8.77991
▁પરિવાર	-8.78081
▁પડશે	-8.78322
▁નાના	-8.78322
તિ	-8.78442
▁h	-8.78524
55	-8.7861
▁વર્ગ	-8.78628
▁દસ્તાવેજ	-8.78636
▁પૃષ્ઠ	-8.78749
▁પ્રકાશ	-8.78889
31	-8.78944
▁રમતો	-8.78965
બો	-8.79227
▁હાથ	-8.79335
▁નિષ્ક્રિય	-8.79623
▁2014	-8.79672
▁કારણે	-8.79737
to	-8.79756
કાર	-8.79787
▁કર્યુ	-8.79788
▁v	-8.79825
45	-8.79831
▁સ્થાનિક	-8.79941
▁24.00	-8.80005
▁ધ	-8.8002
▁ફાઇલો	-8.80232
▁સ્ત્રોત	-8.80234
ેશન	-8.80292
▁સ્વ	-8.80354
ણી	-8.80355
li	-8.80361
▁લાગુ	-8.80389
ટર	-8.80421
▁સરેરાશ	-8.80453
▁નોંધ	-8.80477
de	-8.80535
▁પ્રતિ	-8.80553
▁પડે	-8.80685
ાયેલ	-8.8082
▁પ્રશ્નો	-8.80903
65	-8.80932
હા	-8.81063
▁પ્રોજેક્ટ	-8.81489
▁જુલાઈ	-8.81721
લ્	-8.81728
▁યુનિવર્સિટી	-8.81887
▁U	-8.81995
▁પાછા	-8.82076
ર્ટ	-8.82421
▁સ્	-8.82569
70	-8.82635
200	-8.82725
▁સંગ્રહો	-8.82735
▁બાજુ	-8.8285
▁ડિરેક્ટરી	-8.82882
▁બીજી	-8.83003
શન	-8.83238
▁રાષ્ટ્રીય	-8.83245
▁Google	-8.83337
▁ડેસ્કટોપ	-8.83521
▁સરકાર	-8.83626
▁ખાનગી	-8.83919
▁થયા	-8.83936
▁સારા	-8.84032
▁આમ	-8.84033
88	-8.84045
દી	-8.84053
▁આનંદ	-8.84186
▁થઇ	-8.84346
▁વપરાશ	-8.84357
▁શિક્ષણ	-8.84425
▁ભાષા	-8.84448
▁૧૧	-8.84518
im	-8.84755
▁નકશો	-8.85262
na	-8.85356
="	-8.85369
▁હંમેશા	-8.8537
▁×	-8.85379
▁કરવો	-8.85439
▁કદાચ	-8.85502
▁મૃત્યુ	-8.85816
um	-8.86029
▁રે	-8.86107
▁શરીર	-8.86136
ry	-8.86188
▁નજીક	-8.86227
▁આપણને	-8.86229
▁૯	-8.86442
▁જાઓ	-8.86454
▁છ	-8.86625
▁બંધારણ	-8.8666
46	-8.86661
લિ	-8.86709
▁ખરાબ	-8.86727
▁આપો	-8.86744
ch	-8.86795
ol	-8.87027
▁ધ્યાન	-8.87065
▁માન્ય	-8.87138
ેડ	-8.87173
lo	-8.87241
▁ભારત	-8.87257
▁લઈ	-8.87683
100	-8.87728
ન્ડ	-8.87822
સ્ક	-8.87899
▁શક્તિ	-8.87911
▁બનાવે	-8.8796
07	-8.87994
પા	-8.88033
યો	-8.88201
પે	-8.8821
▁લક્ષ્ય	-8.8831
98	-8.88467
▁પૂર્વ	-8.88485
di	-8.88516
▁22	-8.88522
▁કાર્ડ	-8.88537
▁ઝડપી	-8.88605
ાં	-8.88627
▁~	-8.88672
▁ખાતે	-8.88704
▁બો	-8.88812
▁re	-8.88847
▁ઈસુને	-8.88864
▁એપ્રિલ	-8.88891
04	-8.89144
▁No	-8.89361
▁સેવાઓ	-8.89379
▁21	-8.89423
▁બરાબર	-8.89431
op	-8.89463
mo	-8.89476
▁અજ્ઞાત	-8.89556
▁ખબર	-8.89691
▁રૂપરેખાંકન	-8.89808
▁તમારું	-8.89817
▁એપિસોડ	-8.89899
▁બદલી	-8.89971
▁વ્યક્તિગત	-8.90068
▁નક્કી	-8.90185
▁Pro	-8.90263
te	-8.90343
▁પ્રમાણે	-8.90364
▁ફેક્ટરી	-8.90438
▁રોડ	-8.90508
$	-8.9057
▁શરૂઆત	-8.90604
▁કોલ	-8.90789
ter	-8.90818
▁મોટી	-8.9089
▁એર	-8.90947
▁લેખક	-8.91024
▁t	-8.91163
▁કલાક	-8.91269
▁લગભગ	-8.91385
▁ટિપ્પણીઓ	-8.91427
▁વિચારો	-8.91532
▁(32/64	-8.91583
▁જશે	-8.91659
▁કરવાનો	-8.91676
▁સમાપ્ત	-8.91796
▁પો	-8.91882
વાળા	-8.91887
▁હેઠળ	-8.91967
67	-8.92062
▁જાહેર	-8.9209
▁નવું	-8.92152
▁28	-8.92207
world	-8.92249
એલ	-8.9228
પર	-8.92319
▁label	-8.92354
▁મહિનો	-8.92354
49	-8.92436
▁પેનલ	-8.92614
▁મેળવો	-8.92667
▁મીડિયા	-8.92876
▁લા	-8.93062
▁ખર્ચ	-8.93128
▁વિગતો	-8.93386
૧	-8.93388
એન	-8.934
▁વગર	-8.93405
ut	-8.93568
▁પાછળ	-8.93667
▁સ્ટોક	-8.93785
શા	-8.93819
▁કોણ	-8.94
હે	-8.94041
▁પુન	-8.94145
▁ચિહ્ન	-8.94149
66	-8.94276
▁દેવની	-8.94289
org	-8.94465
76	-8.94482
▁સત્ય	-8.9449
▁કિ	-8.94511
ent	-8.94517
▁ચાર	-8.94565
▁પિતા	-8.94902
▁બા	-8.94905
:%	-8.95048
▁લી	-8.95054
▁એક્સ	-8.95102
▁રદ	-8.95236
ul	-8.95263
ષ	-8.95291
96	-8.95297
▁સમાવેશ	-8.95303
▁વાર	-8.95313
▁ઓફર	-8.95506
િન	-8.95616
▁રેકોર્ડ	-8.9563
at	-8.95766
▁કેમ	-8.9586
ાવ	-8.96159
▁ખસેડો	-8.96226
▁નવેમ્બર	-8.96299
▁કલ્યાણ	-8.96433
▁મૂળ	-8.96738
89	-8.96739
▁રી	-8.97025
▁એન	-8.97045
▁ક્યાં	-8.97051
▁ઉદાહરણ	-8.97201
44	-8.97285
▁શેર	-8.97327
per	-8.97386
▁સંદેશો	-8.97449
cm	-8.9745
▁ટ	-8.97511
▁શીર્ષક	-8.97649
▁આધારભૂત	-8.97655
34	-8.97673
▁અમેરિકા	-8.97785
▁રાખવા	-8.97786
▁મહાન	-8.97831
▁Gujarati	-8.97921
▁પાડે	-8.98071
▁પ્રયાસ	-8.98195
?”	-8.98199
ot	-8.9834
▁તાલીમ	-8.98468
▁રચના	-8.98478
▁Free	-8.98533
▁પેપર	-8.98907
લેન્ડ	-8.98982
▁એપ્લિકેશન	-8.98997
▁પોતાની	-8.99157
▁સામે	-8.99166
સ્ત	-8.99234
▁ચ	-8.99241
▁શ્રી	-8.99251
▁સમીક્ષા	-8.99389
▁લેવા	-8.994
▁27	-8.99419
▁દબાણ	-8.99433
68	-8.99459
▁પગ	-8.99568
57	-8.99592
▁મિનિટ	-8.99679
▁હોવા	-8.99691
▁વિના	-8.99768
▁ચેનલ	-8.99819
64	-8.99844
▁પ્રકાશિત	-9.00037
▁યોજના	-9.00108
pe	-9.00124
▁બનાવવામાં	-9.00148
▁કરવી	-9.00352
▁Vessoft	-9.00406
▁ડ	-9.00479
▁આધારિત	-9.00493
▁સેટ	-9.00517
▁શક્ય	-9.00571
▁આઉટપુટ	-9.00826
▁ભ	-9.00882
▁રહેશે	-9.009
▁જવા	-9.01033
▁યુએસ	-9.01069
▁આભાર	-9.01117
્ઝ	-9.01218
▁//	-9.01275
▁મિત્ર	-9.01318
▁શકીએ	-9.01395
▁પ્લગઇન	-9.01395
▁સંશોધન	-9.01531
▁રાજ્ય	-9.01707
▁ડિ	-9.01716
ંચ	-9.01782
ગો	-9.0186
ow	-9.02055
▁સંદેશા	-9.02061
,000	-9.02157
▁ભગવાન	-9.02273
▁લોડ	-9.02482
▁સંબંધિત	-9.02487
ઇન	-9.02488
▁પ્રોડક્ટ્સ	-9.02528
▁પવિત્ર	-9.02529
ૌ	-9.02611
▁સહિત	-9.02702
▁શોધવા	-9.02737
▁પાપ	-9.02775
53	-9.02848
▁ઓક્ટોબર	-9.02954
▁તમારો	-9.02954
▁બાળક	-9.02977
▁એલ	-9.02982
▁અપડેટ	-9.03098
સર	-9.03175
ટે	-9.03221
▁કાર્યક્રમો	-9.03223
▁દેશ	-9.03236
▁શકાતી	-9.03243
ies	-9.03294
▁છોડી	-9.03301
▁ટોચ	-9.0331
▁on	-9.03468
▁ફાઈલો	-9.03474
▁મોડલ	-9.03545
▁દા	-9.0355
▁સ્ત્રી	-9.03858
▁એવી	-9.03898
▁પ્રકારના	-9.03952
▁મન	-9.03998
ણા	-9.04014
58	-9.04094
▁બિન	-9.04115
▁મોકલો	-9.04172
▁ગે	-9.04209
91	-9.04274
▁આપ	-9.0428
▁કરતી	-9.04332
બે	-9.04527
ફા	-9.04577
▁કુ	-9.04584
▁હેક	-9.04717
▁દેવના	-9.04732
▁500	-9.04757
▁સુરક્ષા	-9.04837
▁આપવામાં	-9.0517
▁સમગ્ર	-9.05278
▁રંગો	-9.05333
▁લાંબા	-9.05422
-8	-9.05468
.’	-9.05492
▁જાન્યુઆરી	-9.05639
▁k	-9.05891
વુ	-9.05917
°	-9.05929
▁વાપરી	-9.05975
ang	-9.06012
▁મોટર	-9.06043
ઠ	-9.06095
▁23	-9.061
▁બ્લોગ	-9.06155
ંડ	-9.06176
▁ખ	-9.06377
▁31	-9.06437
▁૧૦	-9.06624
ia	-9.06657
▁એટલે	-9.06811
▁ગા	-9.06819
weather	-9.06823
▁ફોટો	-9.06836
યર	-9.07111
▁શબ્દો	-9.07197
માન	-9.07543
▁મારો	-9.07547
▁શબ્દ	-9.07715
મ્પ	-9.0774
▁મિ	-9.07872
▁લેખ	-9.07891
▁વોલ્યુમ	-9.07912
42	-9.07923
▁વિકિપીડિયા	-9.08077
▁સુયોજનો	-9.08189
▁you	-9.08268
▁શ	-9.08288
ag	-9.08425
▁જેવી	-9.0849
ER	-9.0861
▁b	-9.08746
85	-9.08841
▁રૂપરેખા	-9.08861
▁નવો	-9.08936
▁URL	-9.09013
▁અભ્યાસ	-9.09084
▁પોર્ટ	-9.09094
▁હાઇ	-9.09201
હો	-9.09252
97	-9.09293
all	-9.09347
47	-9.09406
▁વખત	-9.09428
▁પ્રશ્ન	-9.09483
▁લોકોએ	-9.09499
▁ફે	-9.09554
▁સફેદ	-9.09614
▁વ્યવસ્થાપક	-9.09623
▁ઉપ	-9.09648
▁સારું	-9.09671
ઘ	-9.09756
▁ટીમ	-9.09762
▁તેમણે	-9.09787
up	-9.0991
▁રાખે	-9.09949
and	-9.10401
▁બાર	-9.10508
87	-9.10639
ation	-9.10659
94	-9.10737
▁રાહ	-9.10823
▁ફેબ્રુઆરી	-9.10857
500	-9.1088
▁થવા	-9.10948
▁સત્ર	-9.11062
▁બંને	-9.11172
-4	-9.1142
▁કું	-9.11462
▁condition	-9.11479
્ડ	-9.1148
▁એવું	-9.11495
હાસ્ય	-9.11625
એફ	-9.11785
▁આપણી	-9.1181
▁જીવ	-9.12018
▁કરું	-9.12074
▁સત્તાધિકરણ	-9.12106
om	-9.12209
▁ક્ષેત્ર	-9.12293
▁સમૂહ	-9.124
▁ખા	-9.12455
▁મુ	-9.12521
▁ઓડિયો	-9.12578
▁બાબતો	-9.12821
ge	-9.12905
51	-9.12912
▁વડે	-9.12937
▁તકનીકી	-9.13006
-5	-9.13028
તર	-9.1308
▁સંદેશાઓ	-9.13097
73	-9.13129
▁સુધારો	-9.13133
▁સહાય	-9.13178
▁હજુ	-9.13224
પો	-9.1325
-6	-9.13273
શું	-9.13277
▁ખરીદી	-9.13447
▁ઝડપ	-9.13465
▁Q	-9.13575
▁જેઓ	-9.137
56	-9.13725
▁ડો	-9.13959
78	-9.14009
41	-9.14065
▁In	-9.14113
61	-9.14122
▁દક્ષિણ	-9.14181
ઃ	-9.14317
▁શરતો	-9.14337
▁સમાન	-9.1444
▁નાંખો	-9.1467
▁શો	-9.14686
▁બેગ	-9.1471
72	-9.14832
▁Casino	-9.15224
▁છતાં	-9.15317
▁નીતિ	-9.15321
sh	-9.15344
તુ	-9.15389
▁બ્રશ	-9.15441
▁થોડા	-9.1548
ખા	-9.15623
▁ડિસેમ્બર	-9.15624
69	-9.15703
▁રો	-9.15745
63	-9.15768
▁તારા	-9.15818
▁કરનાર	-9.15842
▁ઓળખ	-9.15889
▁વાદળી	-9.15983
લ્સ	-9.15997
▁તને	-9.16059
૨	-9.1609
▁32	-9.16094
દાર	-9.16127
▁જાણો	-9.16143
▁અસરો	-9.16153
79	-9.16159
▁કહું	-9.16189
q	-9.16202
ha	-9.16279
▁26	-9.16297
ડિ	-9.16324
▁વ્યવસાય	-9.16406
▁The	-9.16426
93	-9.16484
▁એવા	-9.1659
▁સ્વાગત	-9.16605
ત્	-9.1669
▁de	-9.16791
રુ	-9.16795
▁૬	-9.16832
▁USA	-9.16856
▁ચિત્રો	-9.16861
▁ઉદ્યોગ	-9.1689
▁પીસી	-9.16919
▁હોસ્ટિંગ	-9.1695
ex	-9.16965
▁ફ	-9.16965
સુ	-9.1702
▁ન્યૂ	-9.17046
▁માણસો	-9.17063
54	-9.17161
▁હોત	-9.17206
▁ઓછી	-9.17276
ર્ડ	-9.17294
▁ચેતવણી	-9.17431
▁ભાગો	-9.17454
▁ઉપકરણો	-9.17482
▁ચકાસણી	-9.17635
▁તેવી	-9.17703
ma	-9.1773
▁CO	-9.17775
▁દો	-9.17931
71	-9.18093
કર	-9.18114
સિ	-9.18134
da	-9.18288
vi	-9.18533
▁વિશ્વ	-9.18542
ce	-9.18656
▁29	-9.18785
▁વિશ્વમાં	-9.18822
▁સેલ	-9.18905
▁પાવડર	-9.18932
ta	-9.19027
▁કંઈ	-9.19031
43	-9.19032
▁બિલ	-9.19113
▁કઈ	-9.19198
▁પ્રો	-9.19345
▁00:00:00	-9.19438
▁પહેલેથી	-9.19438
▁નિકાસ	-9.19439
ay	-9.19445
▁ગો	-9.19495
▁ઇન્	-9.19563
▁પેકેજ	-9.19569
em	-9.19681
▁છબીઓ	-9.19751
no	-9.19758
▁અંતિમ	-9.19785
આઈ	-9.19936
▁વી	-9.19993
▁માન	-9.20056
ver	-9.20166
ine	-9.20234
▁વાંચી	-9.20268
▁w	-9.20403
▁પહોળાઈ	-9.2063
▁મજબૂત	-9.20971
ગે	-9.21
ાન	-9.21014
▁સ્થિત	-9.21082
▁તકતી	-9.21181
▁એચ	-9.21246
gu	-9.21247
▁ક્રેડિટ	-9.21315
▁ડોમેઇન	-9.21315
▁સમજ	-9.21321
▁સ્લોટ્સ	-9.21587
82	-9.21696
▁બીટ	-9.21699
▁કહી	-9.21722
▁સમસ્યા	-9.21724
▁પૃથ્વી	-9.21745
▁વ્યાવસાયિક	-9.22007
▁CD	-9.22023
ate	-9.22088
▁વપરાશકર્તાઓ	-9.22111
▁પ્રવેશદ્વારની	-9.2218
▁પરીક્ષણ	-9.22181
▁વરસાદ	-9.22181
▁અક્ષર	-9.22227
▁બદલે	-9.22318
ઍસ	-9.2243
્ર	-9.22497
▁ગ્રાહકો	-9.22629
▁do	-9.22689
▁માર્ચ	-9.22727
▁જોયું	-9.22772
▁માઉન્ટ	-9.22878
▁ડેટા	-9.22928
▁કૉલ	-9.2301
▁પ્રવાસ	-9.23016
▁અમારો	-9.23229
▁જણાવ્યું	-9.2324
▁ચકાસો	-9.23279
▁મદદથી	-9.23291
▁બાબત	-9.23487
▁બ્રાન્ડ	-9.23596
▁ગમે	-9.23684
▁સંદેશ	-9.23724
મેન્ટ	-9.23732
▁બ્લેક	-9.23757
▁કડી	-9.23886
▁સત્તાવાર	-9.24117
ર્ક	-9.24178
▁1000	-9.24184
ગી	-9.24189
▁સુંદર	-9.24206
▁કેલેન્ડર	-9.24294
▁૫૪	-9.24299
end	-9.24341
77	-9.24423
▁Re	-9.2443
▁મારફતે	-9.24465
▁રહ્યું	-9.24711
he	-9.24711
84	-9.24737
59	-9.24772
▁2012	-9.248
વાળી	-9.24823
▁છેલ્લે	-9.24825
▁હોમ	-9.24885
▁પસાર	-9.25012
મ્	-9.25016
▁ટેબ	-9.2517
▁વિશાળ	-9.25179
▁મારે	-9.25196
ki	-9.25251
*	-9.25299
ti	-9.25308
▁નોંધણી	-9.25382
▁રૂપરેખાંકિત	-9.25424
▁સંદર્ભ	-9.2549
▁ગુણધર્મો	-9.25623
▁દ્દારા	-9.25717
▁વપરાય	-9.25808
▁સતત	-9.25898
▁મીટર	-9.25942
▁વધારો	-9.26058
▁પ્લેટફોર્મ	-9.26079
▁દરમિયાન	-9.26259
ેટ	-9.26318
સં	-9.2639
▁ટે	-9.26417
port	-9.26427
ાસ	-9.26488
▁સુસંગત	-9.26509
▁પાંચ	-9.26647
▁મળે	-9.26694
▁પ્લાસ્ટિક	-9.26803
▁બ્રાઉઝર	-9.26895
▁યુરોપ	-9.26945
▁લીલા	-9.26959
ph	-9.27007
વાનું	-9.27012
િયો	-9.27017
▁ગણ	-9.27066
બર	-9.27096
▁પ્રાર્થના	-9.27168
81	-9.27187
ેન	-9.27322
ાઉ	-9.27356
▁સાચવો	-9.27442
▁De	-9.27662
▁ઓછા	-9.27706
૦	-9.27742
▁વિષય	-9.27881
િયન	-9.28058
▁ગુ	-9.28149
એક્સ	-9.28271
▁કાળો	-9.2829
▁સંસ્થા	-9.28301
▁સ્રોત	-9.28312
▁બિંદુ	-9.28498
▁૮	-9.28627
▁www	-9.28671
▁બદલવા	-9.28789
▁છેલ્લા	-9.28898
▁બોક્સ	-9.28898
વાર	-9.28916
▁ટ્રેક	-9.29138
▁નહી	-9.29154
▁ક્ષતિ	-9.29199
ab	-9.29209
▁ચાલી	-9.29276
▁લખી	-9.2954
▁રક્ષણ	-9.29573
▁અલ	-9.29587
▁l	-9.29719
▁ખોરાક	-9.29759
િય	-9.29931
▁સારવાર	-9.29949
▁ભારતીય	-9.29977
▁જ્ઞાન	-9.29984
▁આશા	-9.30091
▁આગામી	-9.30102
ist	-9.30133
ભા	-9.30143
શી	-9.30204
▁forecast	-9.30322
▁WordPress	-9.30323
▁JOBiST	-9.30511
▁કરશો	-9.30573
▁માનવ	-9.3058
▁પૈસા	-9.307
▁દર્શાવો	-9.30705
▁પુત્ર	-9.30776
▁or	-9.30869
પ્	-9.30891
દિ	-9.3093
ba	-9.30982
તાં	-9.30999
▁ID	-9.31003
52	-9.31003
▁પરિવહન	-9.31034
▁વાસ્તવિક	-9.31114
સન	-9.31151
ment	-9.31203
ઢ	-9.31208
લ્ડ	-9.31212
ીએ	-9.31226
▁35	-9.31305
92	-9.31447
▁બ્લોક	-9.31473
▁રસ	-9.31694
▁બને	-9.31781
▁તેમજ	-9.32008
▁અનુસાર	-9.32036
▁પાસેથી	-9.32052
▁IP	-9.32146
▁પાઇપ	-9.32226
▁મેમરી	-9.32226
▁ખોલી	-9.32322
▁ટૂલ	-9.32345
લુ	-9.32352
▁લીટી	-9.32387
▁ઇન્ટરફેસ	-9.32418
મુ	-9.32502
પણ	-9.32619
ંદ	-9.32745
▁અહેવાલ	-9.32803
▁આવેલ	-9.32874
▁પૂર્વદર્શન	-9.32997
▁`%	-9.33017
va	-9.33141
▁પ્રિન્ટર	-9.33162
▁વિશિષ્ટ	-9.3319
ir	-9.3324
▁ક્રમમાં	-9.33243
▁સ્થિતિમાં	-9.33424
▁રહેવા	-9.33716
▁કંપનીઓ	-9.33817
▁શાળા	-9.33839
▁બોર્ડ	-9.33909
▁રા	-9.33933
▁વાતો	-9.33954
કરણ	-9.3406
▁શિષ્યો	-9.34105
▁GB	-9.34268
▁ભાઈઓ	-9.34484
ઝા	-9.34601
▁જોડાયેલ	-9.34635
▁ગ્રાહક	-9.34703
LE	-9.34752
▁અઠવાડિયા	-9.34756
▁પ્રદાન	-9.34763
▁કહેવા	-9.34842
BAR	-9.34941
▁ચા	-9.35062
▁ઇનપુટ	-9.3515
▁ઔદ્યોગિક	-9.3515
▁વાંચો	-9.3522
▁પરિસ્થિતિ	-9.35282
▁એફ	-9.3533
▁ઇતિહાસ	-9.35348
ie	-9.35355
▁ઘટના	-9.35398
મેન	-9.35409
SS	-9.35585
83	-9.35586
▁દૂરસ્થ	-9.35618
▁વિન્ડોઝ	-9.35766
est	-9.35777
ST	-9.35821
62	-9.35824
▁ઇમેજ	-9.35895
▁વાયર	-9.35903
▁બેટરી	-9.35945
▁હમણાં	-9.35973
▁ટ્રેન	-9.36091
▁આઇ	-9.36121
▁અરજી	-9.36145
▁ઘણો	-9.36147
▁ઉપદેશ	-9.36187
▁જગ્યાએ	-9.36229
▁ટીવી	-9.36268
▁Anirdesh	-9.36344
▁રોજ	-9.36347
▁આંતરિક	-9.36351
બુ	-9.36458
74	-9.36706
▁ગુમ	-9.36742
▁ટૅગ્સ	-9.36802
ell	-9.36804
▁૧૮	-9.37006
▁weather	-9.37053
▁૧૨	-9.37167
▁તારી	-9.37334
ચે	-9.37506
એચ	-9.37511
▁મેટલ	-9.37556
▁મીમી	-9.37617
lex	-9.37682
▁વૈશ્વિક	-9.37755
▁ન્યાય	-9.37788
undo	-9.37855
▁પ્રકારની	-9.37884
▁દુ	-9.37944
▁સમીક્ષાઓ	-9.38022
!”	-9.38084
સ્ટર	-9.38115
▁સપ્ટેમ્બર	-9.38162
▁પાશ્વ	-9.38167
▁સ્તરો	-9.38214
▁જેટ	-9.38262
૫	-9.38301
▁ગણતરી	-9.38366
ત્ર	-9.38402
▁ટકા	-9.38405
▁પરિમાણો	-9.38443
▁શૈલી	-9.38469
▁ટોચના	-9.38534
િસ	-9.38645
▁જેવું	-9.38667
▁ભૂ	-9.38688
છ	-9.38744
▁અધિકાર	-9.38752
▁સાફ	-9.38915
▁કેશ	-9.3892
lu	-9.38983
▁કંઈક	-9.39043
▁પસંદગીઓ	-9.39202
▁માર	-9.39211
▁જાણ	-9.39221
▁ક્યારેય	-9.39293
ળી	-9.39441
os	-9.39565
▁ખાતા	-9.39566
▁Bonus	-9.39599
▁પટ્ટી	-9.39644
▁જાતે	-9.39713
ૃ	-9.39812
ant	-9.39852
કુ	-9.39954
ળા	-9.4001
▁કોર	-9.40015
▁રજૂ	-9.40018
ion	-9.40054
▁નિયમ	-9.40084
▁સરનામાં	-9.40095
ર્મ	-9.40221
▁સૉફ્ટવેર	-9.40222
▁એન્ડ	-9.40299
▁૧૫	-9.40315
▁વિભાગ	-9.40424
#	-9.40561
▁PM	-9.40581
▁બરફ	-9.40641
tion	-9.40892
કર્તા	-9.40894
ru	-9.4102
▁લોકપ્રિય	-9.41058
▁દે	-9.41111
▁પ્રિય	-9.41112
▁કિંમતો	-9.4119
લેટ	-9.41247
▁size	-9.41309
ગ્	-9.41361
man	-9.41367
▁લઇ	-9.41497
able	-9.41816
▁ધાર	-9.41846
▁ટો	-9.41847
ac	-9.41891
ક્ટ	-9.41954
આઇ	-9.4201
▁આસપાસ	-9.42113
▁દિવસે	-9.42153
▁લેસર	-9.42169
કાળ	-9.4222
તમે	-9.42259
▁મેઈલ	-9.42298
▁item	-9.42334
▁કરતો	-9.42418
ite	-9.42485
mi	-9.42556
▁ભાષાઓ	-9.4257
▁ગામ	-9.42591
ve	-9.4274
▁દીકરો	-9.42751
▁પદચ્છેદન	-9.42785
▁મુજબ	-9.42964
▁ફ્રી	-9.4317
▁કાગળ	-9.43179
▁ફિલ્મ	-9.43179
▁ફેસબુક	-9.43179
▁મળશે	-9.43202
▁વીડિયો	-9.43218
▁પાર્ક	-9.43317
▁દેશો	-9.4332
PA	-9.43331
MA	-9.43377
▁સ્થિર	-9.43453
▁ફોલ્ડરો	-9.43466
▁તરફથી	-9.43546
▁હવામાન	-9.43618
▁KDE	-9.43628
ાર	-9.4368
MoHFW	-9.43698
▁જુ	-9.43916
300	-9.43971
▁અમુક	-9.4404
▁મોડ્યુલ	-9.44055
▁જમીન	-9.44058
▁વચન	-9.44165
▁આરોગ્ય	-9.44256
▁ડા	-9.44277
▁રહ્યાં	-9.4429
કૃત	-9.44471
▁સંચાલન	-9.44473
▁ડિગ્રી	-9.44476
▁સંગીત	-9.44525
▁અગાઉ	-9.44545
▁(1)	-9.44594
е	-9.44691
▁APK	-9.44692
▁Hack	-9.44726
▁ઘટક	-9.44758
▁bit	-9.44763
મ્બ	-9.44784
▁ફા	-9.44806
▁વિદ્યાર્થીઓ	-9.44817
▁કાર્યો	-9.44918
▁80	-9.45078
▁રોગ	-9.45084
ેજ	-9.45088
▁લંબાઈ	-9.45127
▁૧૬	-9.45155
▁ઈચ્છા	-9.45214
▁તપાસ	-9.45342
▁HTML	-9.45367
-10	-9.4542
AT	-9.45573
▁St	-9.45603
▁મોટો	-9.45609
▁દર્શાવ	-9.45724
▁બિઝનેસ	-9.45785
▁તક	-9.4584
ાઓ	-9.45877
▁આઉટ	-9.4591
ne	-9.45925
અર	-9.45966
▁ઉત્તમ	-9.46011
▁ચેટ	-9.46078
▁સંપાદક	-9.46226
▁સક્ષમ	-9.46226
્વ	-9.4631
▁સંસ્કરણ	-9.46447
▁with	-9.46476
▁આપશે	-9.46515
▁પેકેજિંગ	-9.46541
ort	-9.46608
▁પદ્ધતિ	-9.4667
nd	-9.46767
▁મહિમા	-9.46891
▁ઘટકો	-9.4691
▁ISO	-9.46914
▁ઉપયોગી	-9.46955
સ્ટે	-9.47018
paper	-9.47357
ig	-9.47457
▁વ્યાપક	-9.47554
select	-9.47595
▁ચે	-9.47625
▁સંચાલિત	-9.47672
▁ચુકવણી	-9.47785
hi	-9.47788
ian	-9.47852
▁લેબલ	-9.47954
▁સ્તંભ	-9.48011
▁સાચું	-9.48025
unit	-9.48032
▁જન્મ	-9.48036
ાવવા	-9.48038
ટ્સ	-9.48067
▁ગુજરાતીં	-9.48085
-12	-9.48116
0.0	-9.48147
યે	-9.48151
▁રાજા	-9.48181
▁100%	-9.48242
▁ઉત્પાદક	-9.48311
રૂપ	-9.48321
SP	-9.48505
▁જા	-9.48643
▁ગયું	-9.4873
▁નિયમિત	-9.4873
▁લાવી	-9.48798
▁મિત્રો	-9.48952
▁મુલાકાતીઓ	-9.4896
of	-9.49062
kg	-9.49096
;&	-9.49107
▁હોવી	-9.49117
▁આપેલ	-9.49153
▁Mo	-9.49164
▁HD	-9.49313
▁શિ	-9.49422
મન	-9.49438
▁month	-9.49516
▁નિઃશુલ્ક	-9.49597
વિગતો	-9.49719
▁45	-9.49786
▁સામાજિક	-9.49825
▁star	-9.49852
▁r	-9.49889
▁બહુ	-9.499
▁એકમ	-9.49983
▁ચી	-9.49996
ka	-9.50214
▁અંતે	-9.50248
▁વર્ચ્યુઅલ	-9.50285
NI	-9.50375
SE	-9.50481
▁ધર્મ	-9.50554
▁USD	-9.50606
િટ	-9.5072
а	-9.50741
▁પાસ	-9.50762
▁ફિલ્ટર	-9.50978
ેલા	-9.51072
ર્ન	-9.51142
▁યહૂદિઓ	-9.51274
gujju	-9.51442
▁પાઉલ	-9.51554
▁Ma	-9.51576
▁મેમો	-9.51629
એક	-9.51723
view	-9.51834
▁ડેવલપર	-9.51909
▁પ્રદર્શન	-9.51909
નિક	-9.51926
▁90	-9.51927
▁સંપૂર્ણપણે	-9.51936
▁લગ્ન	-9.52146
▁જાહેરાત	-9.52175
▁પાર્ટીશન	-9.52384
▁ઝડપથી	-9.52386
ON	-9.52448
થા	-9.52564
ak	-9.52585
▁વિજેટ	-9.52614
▁કસ્ટમ	-9.52631
ઝર	-9.52761
cc	-9.52812
▁હૃદય	-9.52849
▁રૂમ	-9.52933
▁રૂ	-9.52959
IN	-9.52975
▁કાચ	-9.52979
૬	-9.52997
CT	-9.53001
▁અક્ષરો	-9.53003
▁પરિણામો	-9.53033
▁ચલાવો	-9.53082
▁વિનિમય	-9.53085
▁Canada	-9.53099
▁બતાવવા	-9.53112
▁ચો	-9.53121
▁આપ્યું	-9.53126
ga	-9.53238
▁મર્યાદા	-9.53319
▁300	-9.53452
▁સેક્સ	-9.53486
▁mo	-9.53491
go	-9.5352
રૂ	-9.53521
▁યોહાન	-9.53539
▁ઇન્ટરનેટ	-9.5356
▁પ્રોગ્રામ	-9.53563
▁બાકી	-9.53643
▁ફર	-9.53878
૩	-9.53925
ંટ	-9.54003
▁Enterprise	-9.54037
▁આંતરરાષ્ટ્રીય	-9.54037
▁ટર્મિનલ	-9.54037
▁માઉસ	-9.54037
્યૂ	-9.54163
▁રહો	-9.54172
▁બેંક	-9.54185
▁ચાર્જ	-9.54222
▁પ્રારંભ	-9.54241
▁ઊંચાઈ	-9.54292
▁ય	-9.54322
be	-9.54404
▁હાજર	-9.54407
▁અસ્તિત્વ	-9.54411
ફો	-9.54423
▁સ્થાપન	-9.54448
▁સંત	-9.54481
▁મહત્વપૂર્ણ	-9.54518
▁ફાઇલને	-9.54583
▁સ્ત્રીઓ	-9.54601
▁Li	-9.54684
▁વાર્તા	-9.54738
▁દરમ્યાન	-9.54756
▁You	-9.54983
▁ગુજરાત	-9.54986
▁મર	-9.55043
name	-9.55048
▁બજાર	-9.55066
▁34	-9.5507
ack	-9.55072
▁લાવો	-9.55091
▁સપાટી	-9.55112
▁કીબોર્ડ	-9.5526
ચર	-9.55357
▁જાતને	-9.55375
io	-9.55414
▁રેખા	-9.55456
▁પડ	-9.55459
▁નિયમો	-9.55521
▁પિ	-9.55532
▁એશિયા	-9.55551
if	-9.55563
ફે	-9.55588
▁ગિફ્ટ	-9.55739
od	-9.55963
▁અદ્યતન	-9.55967
▁સુયોજન	-9.56101
▁બદલ	-9.56228
લું	-9.5623
▁પુસ્તક	-9.56252
▁હાલમાં	-9.56387
▁લોગ	-9.5641
▁ચાલ	-9.56466
▁ઘ	-9.56502
▁સ્ટેટ્સ	-9.56533
▁વિનંતી	-9.567
▁એકાઉન્ટ	-9.56786
▁લાવવા	-9.56788
PS	-9.5679
▁શાંતિ	-9.56895
▁દુનિયા	-9.56959
/~	-9.56971
▁સપોર્ટ	-9.56975
ub	-9.56977
▁પોતે	-9.56993
pa	-9.57045
\	-9.57097
▁જાણે	-9.57205
▁છાપવા	-9.57265
▁ટેક	-9.57344
ca	-9.57405
pr	-9.57437
▁કોષ્ટક	-9.5744
ધા	-9.57499
▁આજ્ઞા	-9.57515
▁ડ્રાઇવ	-9.5756
fe	-9.57621
ap	-9.57663
▁ટેગ	-9.57712
▁સુધારવા	-9.57822
▁Vi	-9.57841
000	-9.57912
▁Evolution	-9.57935
▁નમૂના	-9.57981
▁પેદા	-9.58007
▁નિયંત્રિત	-9.58031
▁પ્રવાહી	-9.58043
▁ચલાવવા	-9.58164
о	-9.58183
▁કટીંગ	-9.58196
ock	-9.58198
▁સંપર્કો	-9.58233
▁સમ	-9.58307
▁લખ	-9.58454
▁દવા	-9.5855
ash	-9.58616
▁શબ્દમાળા	-9.58683
▁જાત	-9.58689
▁સર્વિસ	-9.58707
▁પરિણામ	-9.58801
min	-9.5881
bo	-9.58909
▁શક	-9.58911
▁માર્ગદર્શન	-9.58934
IC	-9.59071
▁ફોર્મ	-9.59133
▁00	-9.59259
▁સરનામા	-9.59317
▁પહેલાથી	-9.59341
▁ઇન	-9.59424
કારિયાણી	-9.59437
▁દૃશ્ય	-9.59482
▁ચોરસ	-9.59514
▁લાભ	-9.59529
▁કમ્પ્યુટર	-9.59529
800	-9.59532
▁છાપ	-9.59588
▁સત્તા	-9.5968
▁બ્રાઉન	-9.5969
▁Home	-9.59722
▁Co	-9.59759
▁છબી	-9.59782
land	-9.59782
▁બાદ	-9.59802
"&	-9.59896
ast	-9.59926
▁ઑપરેટિંગ	-9.59942
▁લુ	-9.59979
mode	-9.60046
▁as	-9.60178
▁કાર્યરત	-9.60197
▁પાલન	-9.6026
ઝિ	-9.60292
sta	-9.60325
unchpad	-9.60446
▁ઓછામાં	-9.60497
fi	-9.60538
ન્ગ	-9.60571
▁રાખી	-9.60588
ip	-9.60798
▁દસ્તાવેજો	-9.60954
▁ફળ	-9.61019
▁ટેબલ	-9.61026
▁ભાઈ	-9.61147
400	-9.61189
▁રીત	-9.6128
out	-9.61313
▁ઉમેરી	-9.61442
▁start	-9.61579
▁માલ	-9.61635
▁હવા	-9.61657
▁ચાલો	-9.61723
▁દેખાય	-9.61739
▁મંજૂરી	-9.61843
▁દૈનિક	-9.61991
▁સંભાળ	-9.62032
▁મોકલી	-9.62082
▁મારું	-9.6209
▁વિશ્વના	-9.62215
one	-9.6222
▁અંતર	-9.62222
GB	-9.62224
▁પ્રોક્સી	-9.62251
▁થોડી	-9.6227
▁ઓફિસ	-9.62279
\.	-9.6235
▁ગઈ	-9.62355
AP	-9.62467
▁સમુદ્ર	-9.6251
our	-9.62546
ec	-9.62555
▁ક્રમ	-9.62581
ગર	-9.62607
0.00	-9.62788
ill	-9.62839
▁૦	-9.62961
▁સાત	-9.62966
િઆ	-9.63002
▁કોઇપણ	-9.63073
▁મેક	-9.63131
(1	-9.63147
ci	-9.63225
▁Online	-9.63239
▁કામગીરી	-9.63305
હક	-9.63376
▁કવર	-9.63521
▁કુટુંબ	-9.63556
▁ડિસ્પ્લે	-9.63556
▁ઉપરાંત	-9.63569
▁૧૭	-9.63584
ધાર	-9.63647
▁કેબલ	-9.63701
હી	-9.63704
રણ	-9.63762
▁સ્ટેશન	-9.63821
વાન	-9.63889
▁રહેલ	-9.63892
▁CA	-9.63923
▁જરૂરિયાતો	-9.63931
▁સ્વરૂપ	-9.64077
▁સુવાર્તા	-9.64083
▁GST	-9.64154
▁દિવસો	-9.64187
▁મૂકી	-9.64194
▁કેટલીક	-9.64196
િકા	-9.64312
▁કલા	-9.64314
▁that	-9.6436
▁ઘણું	-9.64408
ish	-9.64483
▁આકાર	-9.64518
▁એડ	-9.64553
▁ડૉલર	-9.64613
▁ઉકેલ	-9.64724
ity	-9.64744
act	-9.64833
▁ફિટનેસ	-9.64878
▁CNC	-9.64884
▁ગોપનીયતા	-9.64988
થે	-9.65008
▁સુમેળ	-9.65145
▁મિલિયન	-9.65158
▁37	-9.6522
▁વૈવિધ્યપૂર્ણ	-9.65232
કેટ	-9.65243
Full	-9.65279
ગ્ર	-9.6532
▁લખવા	-9.65476
▁બાળ	-9.65513
વેદ	-9.65545
▁સિટી	-9.65581
▁વિન્ડોને	-9.65583
po	-9.65592
ઝો	-9.65594
▁Phone	-9.656
પિ	-9.65668
▁ન્યુ	-9.65698
▁સહી	-9.65707
age	-9.65712
મર	-9.65831
▁ઊ	-9.65835
▁સમજી	-9.65838
▁શરુ	-9.6585
▁±	-9.65856
ાંક	-9.65943
▁જનરેટર	-9.65949
પુ	-9.66035
▁ગોઠવો	-9.66119
▁ડિપોઝિટ	-9.66219
▁વાતચીત	-9.66219
▁કેમેરા	-9.6622
▁તરત	-9.66253
લિંગ	-9.66267
ts	-9.66291
▁your	-9.66303
▁લખો	-9.66436
▁નાશ	-9.66485
▁મંત્રાલય	-9.66489
▁વાયરલેસ	-9.66496
▁છોડ	-9.66519
▁Inc	-9.66529
જન	-9.66571
Hz	-9.66627
▁પત્ર	-9.66707
▁જાણવા	-9.66805
ard	-9.66838
▁ફેરફારો	-9.66852
▁ઑ	-9.66902
ting	-9.66915
150	-9.67014
▁ભેગા	-9.67032
▁બેરિંગ	-9.67034
▁26.00	-9.67039
કામ	-9.67052
ધર	-9.67152
સ્ટા	-9.67164
ear	-9.67226
▁વિસ્તૃત	-9.67305
▁ખુશ	-9.67306
▁હેતુ	-9.67315
▁અભિપ્રાયો	-9.67423
▁છાપો	-9.67513
ice	-9.67526
▁ટેક્સ	-9.67558
ber	-9.67564
▁આપમેળે	-9.67578
CH	-9.67585
▁સ્થળ	-9.67766
ષ્ટ	-9.67839
▁ઓર્ડર	-9.67855
▁70	-9.68123
ભર	-9.68148
▁પડી	-9.68209
ત્ત	-9.68221
▁નામો	-9.68226
air	-9.68228
▁150	-9.68314
▁બ્લ	-9.68351
▁વેપાર	-9.68385
▁ટિપ્પણી	-9.68462
▁સ્લોટ	-9.6852
સ્પ	-9.68641
▁પોતાને	-9.6868
અપ	-9.68741
ાઇઝ	-9.68754
▁ચીન	-9.68776
▁લક્ષણો	-9.68777
▁લાઇન	-9.68788
ડુ	-9.68938
▁રોકાણ	-9.68955
▁રેટિંગ	-9.68965
▁Ba	-9.69076
▁શીટ	-9.6908
▁કહેવાય	-9.69206
▁Mobile	-9.69233
\@	-9.693
ઇસ	-9.69333
▁હુ	-9.69464
ચી	-9.69486
▁2000	-9.69553
-7	-9.6959
▁ઇચ્છા	-9.69624
▁English	-9.69651
▁36	-9.69725
▁એન્	-9.6984
ાવી	-9.70007
ટ્રો	-9.70075
▁હાલની	-9.70086
▁ક્યાંતો	-9.7015
pi	-9.70249
▁Dr	-9.70306
oo	-9.70327
૭	-9.70351
કિ	-9.70354
▁માલિક	-9.70354
▁ઝોન	-9.70388
▁પાના	-9.70441
ઝી	-9.70448
ત્વ	-9.70448
▁સહ	-9.70452
ીયા	-9.70492
▁dur	-9.7054
ld	-9.70562
▁વાલ્વ	-9.70635
▁રૂપ	-9.7064
▁યુકે	-9.70742
▁હતુ	-9.70837
▁ડિજિટલ	-9.70916
▁માર્કેટિંગ	-9.70943
ટલ	-9.71
લ્ટ	-9.71129
ire	-9.7115
▁મંદિર	-9.71197
▁ફોટા	-9.71252
ધિ	-9.71256
▁દિશા	-9.71338
પ્લ	-9.71384
▁ઉમેરવા	-9.71388
▁પાનાં	-9.714
બંધ	-9.71454
ko	-9.71472
▁એલ્યુમિનિયમ	-9.71483
વેર	-9.71661
▁યુરો	-9.71672
▁સાંભળી	-9.71685
2017	-9.71718
▁મગજ	-9.71768
▁પાછો	-9.71773
▁શકું	-9.71836
ho	-9.71953
▁સોંપ	-9.72065
▁શાસ્ત્ર	-9.7217
બ્	-9.72181
▁ઘરે	-9.72198
▁મોટું	-9.72227
▁ઍ	-9.72257
▁CPU	-9.72341
▁ખોલવા	-9.72376
▁+86	-9.72576
format	-9.72591
▁રકમ	-9.72628
ટિ	-9.7263
▁અનુવાદ	-9.72631
▁પસંદિત	-9.727
iv	-9.72762
▁માત્રા	-9.72849
ong	-9.72921
▁Play	-9.73035
▁વાક્ય	-9.73206
▁યા	-9.7322
▁દોરી	-9.73262
ance	-9.73268
▁સભા	-9.73268
▁{0}	-9.73335
ll	-9.73447
▁it	-9.73493
▁લાઇવ	-9.73495
▁વોલ્ટેજ	-9.73496
▁શકશે	-9.73545
nc	-9.73567
યલ	-9.73626
mb	-9.73692
ty	-9.7386
set	-9.73865
શાસ્ત્ર	-9.73917
▁શકાયુ	-9.73931
120	-9.73949
▁ફી	-9.74013
▁પ્રકાશન	-9.74031
▁અસ	-9.74064
▁કમ્પ્યૂટર	-9.74077
▁નિર્ણય	-9.74077
▁જીનોમ	-9.74079
▁અસરકારક	-9.7409
▁બીજો	-9.74106
વેલ	-9.74127
▁શહેરમાં	-9.74158
વાય	-9.74206
▁સાઇટમેપ	-9.74375
▁ખો	-9.74383
૪	-9.74461
▁વિમાન	-9.74486
___	-9.74499
ખો	-9.74571
▁To	-9.74637
▁કરાર	-9.74647
▁શ્રીજીમહારાજ	-9.74663
▁તાળુ	-9.74839
600	-9.74857
પૂર્વક	-9.74866
▁ગ્રે	-9.74876
MP	-9.74885
▁હતાં	-9.74932
▁ફૂલ	-9.74954
ક્ક	-9.74965
▁રમવા	-9.75039
ન્ક	-9.75041
▁શેરી	-9.75067
ાઇડ	-9.75103
▁વધ	-9.75115
▁બનવા	-9.75138
▁બચાવ	-9.75239
▁પટેલ	-9.75265
▁09	-9.75302
પણે	-9.75312
▁પોસ્ટેડ	-9.75316
▁ટેટૂઝહાથ	-9.75319
▁title	-9.75351
▁સૌ	-9.754
▁district	-9.75548
ator	-9.75712
▁વપરાયેલ	-9.75834
▁પુનઃ	-9.75845
▁જમણી	-9.75846
▁સૂચક	-9.75848
▁સર્વે	-9.75849
▁સ્ક્રિપ્ટ	-9.75959
▁con	-9.75975
▁ફેરવો	-9.7602
▁બિ	-9.7602
▁પ્રોટોકોલ	-9.76142
▁translated	-9.76143
▁સંસ્કૃતિ	-9.76158
▁આવતા	-9.76224
▁મહિલા	-9.76274
▁કેદીઓ	-9.76305
▁સંચાલક	-9.76441
▁જુદા	-9.76471
▁માણસને	-9.76504
▁Web	-9.76534
▁કરેલા	-9.76656
▁વિજ્ઞાન	-9.76664
ov	-9.76778
▁બળ	-9.76808
der	-9.76846
ઈન	-9.76957
ster	-9.77002
▁પરીક્ષા	-9.7704
▁FSX	-9.77041
▁સ્વીકાર	-9.77096
▁વર્ષે	-9.77111
▁ફોલ્ડરમાં	-9.77118
▁રોક	-9.77137
▁સ્ટાર	-9.7719
▁MA	-9.77295
▁ચેક	-9.77306
ડું	-9.77342
▁LexUriServ	-9.77342
▁સુચના	-9.77342
▁ટ્રે	-9.77373
દો	-9.77376
▁ગુણધર્મ	-9.77501
ીકરણ	-9.7752
▁બસ	-9.77561
▁He	-9.77567
▁એલઇડી	-9.77599
▁ઉત્પન્ન	-9.77644
▁મેકઅપ	-9.77651
▁ઊભા	-9.77654
▁પાર	-9.77654
▁તેવું	-9.77669
▁an	-9.77745
ai	-9.77756
▁ખસેડવા	-9.779
р	-9.77939
ide	-9.78006
▁શામેલ	-9.78038
▁સમાવે	-9.78059
che	-9.78175
ust	-9.78211
દેવ	-9.78247
▁ડેટાબેઝ	-9.78251
▁જોડાવા	-9.78282
▁Me	-9.78283
ેલી	-9.78354
ઝે	-9.78357
gr	-9.78398
▁(2)	-9.78404
▁રુટ	-9.7841
ીત	-9.78496
▁can	-9.7854
▁દીઠ	-9.78563
▁સાંભળવા	-9.78606
▁મળ્યું	-9.7866
▁બતાવે	-9.78846
MM	-9.78901
ass	-9.78927
▁undo	-9.79071
▁દુકાન	-9.79082
વાળું	-9.79266
ચો	-9.79299
▁કેન્દ્રિત	-9.79309
▁કાર્	-9.79329
▁વિન્ડોમાં	-9.794
▁નિયંત્રક	-9.79476
▁નુકસાન	-9.79476
▁Live	-9.79519
▁માતાનો	-9.79528
▁state	-9.79529
▁હેડર	-9.79731
▁એવો	-9.79742
▁08	-9.79759
▁પથ્થર	-9.79784
▁મોલેક્યુલર	-9.79784
▁ભેટ	-9.79818
▁લાઇટ	-9.79873
▁જગત	-9.79875
▁સલાહ	-9.79889
પણું	-9.79898
▁મોકલ	-9.79945
▁દેવને	-9.7996
સ્ટી	-9.80012
▁સમાજ	-9.80076
▁ગયેલ	-9.80108
▁લવ	-9.80273
બોક્સ	-9.80367
▁વૃક્ષ	-9.80405
▁વધારાની	-9.80405
▁જોયો	-9.80433
▁વાળ	-9.80444
▁2011	-9.80455
▁ગરમ	-9.80507
▁દેવનો	-9.80579
ee	-9.80591
ાત	-9.80612
▁સંપર્કમાં	-9.80678
ન્ડર	-9.80681
▁Be	-9.80691
▁સમુદાય	-9.80716
▁જાણી	-9.80791
▁33	-9.80839
▁EN	-9.80884
જુ	-9.80889
૮	-9.80902
▁મેક્સ	-9.80995
▁હોટ	-9.81011
▁ડોમેન	-9.81051
▁મેળવવામાં	-9.81116
▁ago	-9.81121
▁દાવો	-9.81135
▁સેન્ટ	-9.81136
1000	-9.8117
ાળ	-9.81203
▁જરૂરિયાત	-9.81209
ટન	-9.81272
▁પૂછપરછ	-9.81342
▁વ્યાસ	-9.81348
2018	-9.81423
▁જાવ	-9.81427
▁64	-9.81435
▁પશ્ચિમ	-9.81444
▁વ્યાખ્યાયિત	-9.81471
▁કપ	-9.81581
▁૨૦	-9.81584
ev	-9.81615
▁but	-9.81686
▁શકશો	-9.81693
ન્જ	-9.81768
▁600	-9.81781
ea	-9.81806
▁પૂર	-9.81915
▁120	-9.82124
સ્કો	-9.82141
▁બુકમાર્ક	-9.8216
ick	-9.8222
મહ	-9.8226
▁પ્રગતિ	-9.82288
ans	-9.82329
bu	-9.82421
▁ગત	-9.82431
file	-9.82467
▁પેટી	-9.82469
▁મોકલવા	-9.82583
▁લેવામાં	-9.82613
▁વેચાઈ	-9.82615
▁વાંચવા	-9.8264
▁સુધારાશે	-9.82647
▁રાખ	-9.82719
▁55	-9.82765
▁સરસ	-9.82787
HFW	-9.82794
▁સંબંધ	-9.82841
ગુ	-9.82885
-01	-9.82909
ઇડ	-9.82996
▁મશીનરી	-9.82997
ાશે	-9.83085
▁48	-9.8309
▁હક	-9.83154
છા	-9.8321
▁નોંધો	-9.83211
hilippines	-9.83244
▁વિરૂદ્ધ	-9.83244
▁પૂછયું	-9.83249
▁ક્રિયાઓ	-9.83299
▁પિતર	-9.83391
▁મર્યાદિત	-9.83411
▁કદી	-9.83418
art	-9.83467
▁An	-9.83508
ધી	-9.8351
PC	-9.83552
▁provinces	-9.83576
સિંહ	-9.83634
▁ગેમ્સ	-9.83675
▁વ્યવસ્થા	-9.83685
log	-9.83687
▁ચિહ્નો	-9.83696
▁ગતિ	-9.83709
▁પુ	-9.83741
▁પાડી	-9.83846
▁જઈ	-9.8386
▁પર્યાવરણ	-9.83866
▁XML	-9.83887
▁ચિંતા	-9.8389
au	-9.83892
▁કુદરતી	-9.83913
ID	-9.83969
▁સંસ્થાન	-9.84034
▁કીઓ	-9.84092
પક્ષી	-9.84124
પુર	-9.84152
▁દેવામાં	-9.84181
▁અગ્રણી	-9.84224
▁અગ્ર	-9.84226
સ્થાન	-9.84229
▁વ્યવહાર	-9.84257
▁Di	-9.84311
uk	-9.84315
▁ઈસુના	-9.84351
▁38	-9.84388
CHI	-9.84529
▁ભાગના	-9.84531
▁અલ્ટ્રાસોનિક	-9.84532
▁જયારે	-9.84532
▁બુ	-9.84554
▁પરિમાણ	-9.84595
▁યહૂદિ	-9.84596
▁દબાવો	-9.84625
▁માતા	-9.84637
વિકાસ	-9.84639
▁250	-9.84663
▁ફીડ	-9.84669
▁પ્રાથમિક	-9.847
▁કરીશ	-9.84735
લ્પ	-9.84753
do	-9.84773
▁ન્યાયી	-9.84807
®	-9.84857
ફર	-9.84916
US	-9.84923
con	-9.85062
▁ફિ	-9.85075
▁ભર	-9.8515
tu	-9.85287
ચા	-9.85397
રેટ	-9.85477
▁મુસાફરી	-9.85509
0000	-9.85519
▁વ્યક્તિને	-9.85599
ach	-9.85625
વર્ડ	-9.8567
hu	-9.85725
▁ST	-9.85747
▁વાંચ	-9.85761
▁મેઇલ	-9.85828
અને	-9.85875
▁જવાબદારી	-9.85876
▁at	-9.86031
▁લક્ષણ	-9.86051
▁વ્યાપાર	-9.86127
▁શિપિંગ	-9.86167
▁પત્ની	-9.86174
TS	-9.86213
લ્ક	-9.86246
▁મૂકો	-9.8626
▁st	-9.86316
▁સુવિધાઓ	-9.86378
▁માર્ક	-9.86387
▁વૈકલ્પિક	-9.86396
info	-9.86421
▁સીમા	-9.86565
▁મિલ	-9.86572
▁ખરીદો	-9.86665
▁ભારે	-9.86669
▁પ્રવૃત્તિઓ	-9.86696
test	-9.86701
pan	-9.86771
▁જીત	-9.86779
▁જેણે	-9.86797
▁સ્વાધીન	-9.86827
▁મિશ્રણ	-9.8685
▁05	-9.86875
▁પોલીસ	-9.86915
▁DVD	-9.8696
▁400	-9.8708
▁હિ	-9.87135
▁થ્રેડ	-9.8716
▁વિડિયો	-9.8716
▁મેનેજમેન્ટ	-9.87162
▁ઈવોલ્યુશન	-9.87163
▁નીચા	-9.87176
▁મેળવ	-9.87274
▁અસ્તિત્વમાં	-9.87305
ive	-9.87394
▁ઈસુની	-9.87414
▁ઘણાં	-9.87486
▁માછલી	-9.87493
▁this	-9.87495
્રી	-9.87534
▁બીજું	-9.87566
oc	-9.87615
ah	-9.87661
▁મૂલ્ય	-9.87813
▁સ્માર્ટ	-9.87823
▁અનન્ય	-9.87829
▁બેઠક	-9.8783
▁કૂકીઝ	-9.87849
▁Mi	-9.87877
▁1.5	-9.87917
▁સૂ	-9.87967
▁હજી	-9.87976
PL	-9.87976
▁ટાઉન	-9.88022
▁part	-9.88099
ંધ	-9.88108
}	-9.88152
▁Deposit	-9.88163
▁ખોટું	-9.88163
▁એડમિન	-9.88169
ભાવ	-9.88176
▁URI	-9.88179
▁so	-9.88278
દ્	-9.88305
યું	-9.88389
▁બતાવ	-9.88401
▁આકાશ	-9.8841
▁હાલ	-9.8843
▁ભા	-9.88448
▁પ્રિન્ટિંગ	-9.88565
▁નાણાં	-9.88566
▁અલ્	-9.88585
▁should	-9.88621
ft	-9.88633
ner	-9.88639
ize	-9.88713
ye	-9.88778
▁જોઇ	-9.88825
The	-9.88941
old	-9.89005
▁રહ્યુ	-9.89068
▁પ્લગઈન	-9.89073
▁ફ્લ	-9.89088
▁800	-9.89151
keyboard	-9.89189
ood	-9.89191
▁૧૪	-9.89212
▁પ્રાણી	-9.89271
▁જેવો	-9.89333
▁રોટલી	-9.89517
▁બાંધકામ	-9.89521
ou	-9.89522
▁AC	-9.89531
▁૭૧	-9.89567
પલ	-9.89568
uz	-9.89682
ંબ	-9.89738
day	-9.89756
▁આઈ	-9.89824
▁શેલ	-9.8985
▁જટિલ	-9.89859
સ્થ	-9.8986
▁રીટ્વીટ	-9.89861
▁કચરાપેટી	-9.89891
▁કુશળતા	-9.89909
250	-9.89919
PM	-9.89928
▁મુશ્કેલ	-9.89965
▁કહો	-9.89972
pl	-9.89977
મોર	-9.89991
શીલ	-9.90038
2019	-9.90077
▁સુપર	-9.90154
les	-9.90162
▁પુસ્તિકા	-9.902
▁આઇફોન	-9.90206
▁કેટલાએક	-9.90206
બલ	-9.90264
ંજ	-9.90277
▁માગ	-9.90339
▁થાઓ	-9.90365
▁જૂના	-9.90403
que	-9.90403
▁જોખમ	-9.90465
ખી	-9.9048
▁બેકઅપ	-9.9055
▁સંકેતો	-9.90552
▁ભાત	-9.90564
▁૧૩	-9.90588
0.23	-9.90617
EN	-9.90658
▁સુવિધા	-9.90667
▁વિદ્યાર્થી	-9.90691
ન્ન	-9.90702
ાયો	-9.90869
▁પેકિંગ	-9.90925
લાઇન	-9.90986
▁લોયા	-9.91059
માર	-9.9108
▁સ્ક	-9.91098
▁જોડી	-9.91145
wa	-9.91188
▁gu	-9.9123
▁સ્થળાંતર	-9.91235
▁સારાંશ	-9.91235
▁0086-	-9.91236
▁પ્રાંત	-9.91251
▁સાંભળ્યું	-9.91258
▁આવું	-9.91291
વલ	-9.91296
▁આડ	-9.9131
▁પૂછ	-9.91392
▁મૂ	-9.91417
▁આવશ્યક	-9.91426
▁પ્લેટ	-9.91483
▁રમ	-9.91483
▁Ho	-9.91512
▁WhatsApp	-9.91582
▁માળખું	-9.91582
▁સિવાય	-9.91606
શિ	-9.91611
▁દર્શક	-9.91611
▁નીચેની	-9.91621
▁સ્ટોર	-9.91637
▁સાંભળ	-9.91663
▁ઘટાડો	-9.91679
ળો	-9.9169
તન	-9.91713
▁સમર્થ	-9.91729
▁વિસ્તારમાં	-9.91749
ટુ	-9.91753
વ્ય	-9.91792
ણે	-9.91798
Language	-9.91854
tor	-9.91868
TE	-9.91891
▁એન્જિન	-9.91927
Country	-9.9193
▁Twitter	-9.9193
▁રજીસ્ટર	-9.9193
▁pricelist	-9.91931
▁ઊર્જા	-9.91932
▁Bo	-9.91942
▁યુદ્ધ	-9.91956
▁બુક	-9.92005
ઇલ	-9.92008
▁પંપ	-9.92046
▁sp	-9.92101
▁કહેવું	-9.92146
▁ઈમેજ	-9.92182
બર્ગ	-9.92188
▁વળ	-9.92208
લોન	-9.92219
▁ઓબ્જેક્ટ	-9.9228
▁સહન	-9.9231
▁સ્વામી	-9.92357
RI	-9.92363
▁MT	-9.92367
▁જાણીએ	-9.92431
હિ	-9.92544
▁સુધારા	-9.92618
▁જેકપોટ	-9.92631
▁જાડાઈ	-9.92637
▁sales	-9.92639
પોર્ટ	-9.92642
▁ગીત	-9.92673
tool	-9.92705
લ્લ	-9.92726
▁ગેસ	-9.92792
EL	-9.92823
▁j	-9.92875
▁હેડ	-9.92995
▁મળ્યો	-9.93011
▁મહત્વ	-9.93086
▁સૂર્ય	-9.9315
▁આવવા	-9.93288
quot	-9.93315
▁જિલ્લો	-9.93336
▁વૈજ્ઞાનિક	-9.93336
ુર	-9.934
0.3	-9.93434
vo	-9.93517
પૂ	-9.93523
▁ધ્યાનમાં	-9.93612
▁માધ્યમ	-9.93691
▁રશિયા	-9.93693
▁OF	-9.93703
પ્સ	-9.93832
▁એરે	-9.93851
▁ટાપુ	-9.93857
▁are	-9.93912
ke	-9.93929
pcs	-9.94029
▁નીંગબો	-9.94047
▁સ્વયં	-9.94053
▁પ્રતિકાર	-9.94159
મારા	-9.94163
▁ગાય	-9.94214
NT	-9.94234
TH	-9.94252
▁ગોળી	-9.94354
▁તબીબી	-9.94404
▁બાહ્ય	-9.94404
▁મોઝેક	-9.94404
▁કાયદા	-9.94404
▁ફ્લાઇટ	-9.94406
▁220	-9.94483
▁ચિ	-9.94545
cy	-9.94594
દ્ધ	-9.94708
▁નીચેના	-9.94715
િટી	-9.9475
▁તફાવત	-9.94763
▁નોંધપાત્ર	-9.94771
▁Up	-9.94794
ભાગ	-9.94826
▁માસ્ક	-9.94839
▁બનાવ	-9.94894
▁GSTR	-9.94934
▁કરાયેલ	-9.95008
િડ	-9.9501
swkothar	-9.95122
▁શક્તિશાળી	-9.95122
▁જમણે	-9.95123
▁સુખ	-9.95263
▁જણાવ	-9.95381
▁સૂચન	-9.95398
વન	-9.95416
▁સ્કેન	-9.95463
▁ઈન્ટરનેટ	-9.95483
▁HTTP	-9.95483
▁ઊંચી	-9.95486
▁ઢાળ	-9.95488
▁ચાર્ટર	-9.95505
▁ક્	-9.95515
▁શિષ્યોને	-9.95582
▁વીમા	-9.95601
IS	-9.95636
▁44	-9.95725
▁ગુણ	-9.95813
get	-9.95855
▁આપનું	-9.95857
hy	-9.95881
▁અનુ	-9.95897
cu	-9.96029
mp	-9.9605
▁સમસ્યાઓ	-9.96076
LF	-9.96118
▁ચલાવી	-9.96188
▁39	-9.96196
▁વિશ્વસનીય	-9.96209
regions	-9.9621
dr	-9.96353
tri	-9.96382
▁હાર્ડ	-9.96445
▁તેનાથી	-9.96448
▁વ્યવસ્થાપન	-9.96574
▁ડાબે	-9.96596
Stock	-9.96604
▁પામ્યા	-9.96681
શ્વ	-9.96726
▁લોન	-9.96786
▁કરીશું	-9.96806
▁આગ	-9.96896
ગુલાબ	-9.96938
▁We	-9.96939
▁આફ્રિકા	-9.9694
▁સરળતાથી	-9.96942
▁પ્રોફાઇલ	-9.96943
બિલાડી	-9.96943
▁સ્પિન	-9.96955
સેટ	-9.97001
▁પહેર	-9.97089
રિયા	-9.97136
લેસ	-9.97157
▁ટ્ર	-9.97175
▁પ્રેરિતો	-9.97184
▁Slots	-9.97206
િવ	-9.97245
▁પ્રદર્શિત	-9.97308
▁સુયોજીત	-9.97308
▁પક્ષીએ	-9.97319
લિન	-9.97448
▁Ro	-9.97544
▁પ્રિન્ટ	-9.97652
▁કોર્પોરેટ	-9.97677
▁પીવીસી	-9.97677
▁ચોકઠાંઓ	-9.97678
▁વર્લ્ડ	-9.97681
▁કેન્સર	-9.97686
▁માળ	-9.97687
▁કાળા	-9.97723
lock	-9.97733
ase	-9.97742
▁યુપી	-9.97746
▁જાણતા	-9.97751
દ્ર	-9.97796
▁count	-9.97833
ya	-9.97869
▁બહેનો	-9.97875
ake	-9.9788
▁મધ્યમ	-9.97905
વર્	-9.9791
▁માણસે	-9.97942
▁લિંક	-9.9798
ton	-9.97989
કારક	-9.97997
GenericName	-9.98047
▁કૅલેન્ડર	-9.98048
▁જોડણી	-9.98048
▁આલ્ફા	-9.98049
▁પાઉન્ડ	-9.98067
TR	-9.98132
▁મળ્યા	-9.98163
▁ઓટો	-9.9822
▁સમાવિષ્ટો	-9.98408
▁કૂપન	-9.9842
▁બોલ્યા	-9.98499
▁રાખીને	-9.98611
હાર્ટ	-9.98678
▁વિન્ડોની	-9.98707
▁માર્ગદર્શિકા	-9.98746
▁બેક	-9.98746
▁posted	-9.98793
ure	-9.98861
tr	-9.98964
▁નેટ	-9.98966
▁ક્ષણ	-9.98995
cr	-9.9902
▁હોલ	-9.99077
▁વધારવા	-9.99158
▁છુ	-9.99164
▁ઊભી	-9.99167
▁મલ્ટી	-9.99167
russia	-9.99168
▁Con	-9.99237
date	-9.9926
ાત્મક	-9.99285
િલ	-9.99378
▁પ્રભાવ	-9.99527
▁Vachanamrut	-9.99543
▁સંકળાયેલ	-9.99543
▁વિતરણ	-9.99543
▁OEM	-9.99543
▁નોકરી	-9.99548
TP	-9.99598
▁સબ	-9.99632
▁યાદીમાં	-9.99689
(2	-9.99724
િમ	-9.99806
એન્કર	-9.9983
mon	-9.99855
ary	-9.99859
▁બીટા	-9.99875
▁વેબસાઈટ	-9.9992
▁La	-9.99924
▁સાઉન્ડ	-9.99951
gujarati	-10.0001
ભારત	-10.0003
001	-10.0007
▁મૂક	-10.0016
▁હોવું	-10.002
▁કમ	-10.0024
textattr	-10.003
▁બન્યું	-10.0032
▁પ્લસ	-10.0032
દ્દ	-10.0035
બૂ	-10.0036
▁ડ્રાઇવર	-10.0038
▁પ્રમાણપત્રો	-10.0043
ml	-10.0046
નારા	-10.0049
▁version	-10.005
ling	-10.005
tra	-10.0057
શુ	-10.0058
▁તેણી	-10.0058
▁મળ	-10.006
▁pre	-10.0068
▁મોનિટર	-10.0068
▁અનામત	-10.0068
▁દુષ્ટ	-10.0069
▁૬૭	-10.0069
▁પગલું	-10.007
▁ચર્ચા	-10.0076
▁નાખવા	-10.0076
▁પામે	-10.0077
ક્શન	-10.0078
અમે	-10.0083
્યાં	-10.0083
ue	-10.0092
િઅન	-10.0093
▁ઝી	-10.0096
ob	-10.0097
ક્લ	-10.0103
▁su	-10.0106
▁પ્રમુખ	-10.0106
str	-10.0107
ેન્ટ	-10.0108
▁સભ્યો	-10.0108
tt	-10.0109
▁સૂચિત	-10.0113
ઠા	-10.0114
ાવે	-10.0121
▁અંગે	-10.0123
▁જીવનમાં	-10.0128
▁મરણ	-10.0129
▁પ્રત્યેક	-10.0135
KChar	-10.0144
▁જિલ્લા	-10.0145
24.	-10.0149
▁france	-10.0158
▁01	-10.0161
▁જીવી	-10.0163
દર	-10.0165
▁માફ	-10.0177
pm	-10.0186
▁રૂપાંતરિત	-10.0186
▁ડાબી	-10.0188
ેન્	-10.0193
િશ	-10.0195
▁ફોલ્ડરને	-10.0196
▁ફ્રેમ	-10.0205
▁નદી	-10.0219
▁ધ્વનિ	-10.0221
▁સુધારાઓ	-10.0222
▁પૂછો	-10.0233
▁એમએમ	-10.0234
▁New	-10.024
▁સારો	-10.0245
▁ગરમી	-10.0249
▁ઍક્સેસ	-10.026
▁તાજેતરની	-10.026
▁સંપત્તિ	-10.026
Region	-10.0261
▁બ્રા	-10.0261
jo	-10.0261
▁block	-10.0262
▁એસિડ	-10.0262
ડિયા	-10.0266
▁કોર્સ	-10.027
▁US	-10.0271
▁ડાય	-10.0273
▁Ch	-10.0274
▁IC	-10.0286
▁સર	-10.0289
ડ્રેગન	-10.0299
▁ભોજન	-10.0299
▁રાત્રે	-10.0299
gi	-10.0302
▁નિશ્ચયનું	-10.0311
▁આકાશમાં	-10.0311
▁જીવંત	-10.0317
▁કલાકની	-10.0318
▁લોક	-10.0319
ર્ગ	-10.0319
▁ગોઠવણી	-10.0322
ight	-10.0326
્તિ	-10.0333
NO	-10.0338
▁આધુનિક	-10.0338
▁ઉંમર	-10.0338
▁ઓપન	-10.0338
▁ગ્લાસ	-10.0339
▁from	-10.034
▁જથ્થો	-10.0341
▁કપડાં	-10.0343
SH	-10.0344
▁search	-10.0345
gram	-10.0346
▁8.1	-10.0349
ny	-10.0352
▁પ્રવૃત્તિ	-10.0355
છાતી	-10.0359
▁માલિકી	-10.0369
har	-10.0369
▁TRANSLATORS	-10.0377
▁અત્યંત	-10.0377
▁અનિચ્છનીય	-10.0377
▁ટેટૂઝપગ	-10.0378
▁ઇલેક્ટ્રિક	-10.0378
▁પાશ્વભાગ	-10.0378
▁India	-10.0382
▁110	-10.0387
▁સંસ્થાઓ	-10.039
▁GNOME	-10.0397
▁___	-10.0402
▁per	-10.0403
ૂં	-10.0406
▁અન	-10.0412
▁સખત	-10.0417
ankit	-10.0422
▁SD	-10.0422
કન્યાઓ	-10.0422
▁કાર્યક્ષમતા	-10.0426
▁ઘટનાઓ	-10.0431
▁સુધારેલ	-10.0437
▁પરંપરાગત	-10.0438
▁જોડાણો	-10.0454
hai	-10.0463
▁જોયા	-10.0469
▁એકત્ર	-10.0471
▁શુ	-10.0475
line	-10.0476
▁નીકળો	-10.0482
▁શી	-10.0489
og	-10.0493
▁કાઢ	-10.0494
▁પહોંચી	-10.0495
ameroon	-10.0496
▁વાતાવરણ	-10.0496
▁આર્થિક	-10.0496
▁ઘડિયાળ	-10.0496
▁ટ્યુબ	-10.0496
bar	-10.0515
▁પાડવા	-10.0516
ound	-10.0516
▁વિશેષ	-10.0519
▁ઉમેર	-10.0527
▁પરવાનગીઓ	-10.0529
▁Long	-10.0532
ect	-10.0536
▁મથક	-10.0536
▁કોલેજ	-10.0539
2001	-10.0539
123	-10.0559
સાર	-10.0565
ેલો	-10.0575
▁વારંવાર	-10.0576
▁દર્શાવે	-10.0576
▁તૈયારી	-10.0578
▁યાદીને	-10.0579
ચાર	-10.0582
▁→	-10.0585
▁થતા	-10.0587
▁સંગ્રહવા	-10.0588
▁se	-10.059
▁For	-10.0595
0.1	-10.0597
2000	-10.0603
▁એકવાર	-10.0607
ari	-10.0612
▁નાંખ	-10.0613
lay	-10.0618
eg	-10.0628
▁કંઇ	-10.0634
▁ઘરમાં	-10.064
▁અર્ક	-10.0641
▁ફાઇલોને	-10.0644
▁વર્ષો	-10.0644
▁દર્શાવવા	-10.0649
▁જોકે	-10.0653
usa	-10.0655
▁આયોજન	-10.0656
▁સિરીઝ	-10.0656
▁હાર્ડવેર	-10.0657
▁થેલી	-10.0659
we	-10.0663
▁ચક્ર	-10.0678
▁માંગ	-10.0678
ran	-10.0681
▁પાત્ર	-10.0683
▁આંખ	-10.0683
ક્ર	-10.0684
0.5	-10.0685
▁બનાવેલ	-10.0688
work	-10.0696
▁વિશ્લેષણ	-10.0697
▁status	-10.0697
▁અમેરિકન	-10.0698
▁ફેર	-10.0701
▁શક્યતા	-10.0701
▁રેસ	-10.0702
▁દર્શન	-10.0705
ત્યા	-10.0708
let	-10.0717
▁શુદ્ધ	-10.0722
▁પ્લગ	-10.0736
▁અનુકૂળ	-10.0737
▁કારાવાસ	-10.0737
▁પ્રગટ	-10.0738
▁News	-10.0738
▁સરખા	-10.074
▁મોકલ્યો	-10.0741
▁પ્રારંભિક	-10.0743
▁પુર	-10.0744
▁પહેલ	-10.0744
▁પ્રત્યે	-10.0747
▁કશું	-10.075
▁સહકાર	-10.0756
થો	-10.0758
nt	-10.0765
▁Gu	-10.0765
tic	-10.0766
for	-10.0767
▁SKU	-10.0778
py	-10.0779
▁છત	-10.078
▁ભાગનો	-10.078
▁આંખો	-10.0783
HE	-10.0784
▁ચિત્રને	-10.079
▁હાલનાં	-10.079
▁ઇન્દ્રિયો	-10.079
લિક	-10.0793
ભિ	-10.0812
▁નિર્માણ	-10.0814
▁૩૦	-10.0814
▁ડબલ	-10.0819
▁સીરીયલ	-10.0819
▁બાઇક	-10.0821
▁સ્પષ્ટીકરણ	-10.0823
દે	-10.0827
▁ભવિષ્ય	-10.0828
▁પાડ	-10.0829
▁ચિહ્નિત	-10.0832
▁તુ	-10.0836
કુલ	-10.084
▁મેચ	-10.0843
▁પેકેજો	-10.0845
▁ડીસી	-10.0852
▁સ્ટ્રીમ	-10.0854
▁કોપીરાઇટ	-10.086
મેટ	-10.0861
▁સીએ	-10.0866
In	-10.087
▁ગેંગ	-10.0871
▁લોકડાઉન	-10.0888
વિલે	-10.089
▁અંગ્રેજી	-10.0891
▁MB	-10.0895
▁કાર્બન	-10.0898
▁86-	-10.09
▁United	-10.0902
▁અવતરણ	-10.0902
▁ભૌતિક	-10.0902
с	-10.0902
▁લીધો	-10.0903
▁થવું	-10.0917
bl	-10.0918
▁એકબીજા	-10.0921
હીરા	-10.0925
▁કહીએ	-10.0931
▁સલામત	-10.0934
▁પ્રા	-10.0943
▁ફૂડ	-10.0943
▁કલ્પના	-10.0943
▁સ્ટ્રીટ	-10.0943
▁પવન	-10.0947
▁દયા	-10.0948
્થ	-10.0958
▁રોલ	-10.096
▁≤	-10.096
ઉં	-10.0965
GE	-10.0976
્લ	-10.0978
▁વાંચન	-10.0982
▁વધી	-10.0984
બટરફ્લાય	-10.0985
dialog	-10.0985
▁પ્રતિક્રિયા	-10.0986
્મ	-10.0986
▁પાછી	-10.0986
▁Ha	-10.0989
▁0.5	-10.0997
▁પ્રદેશ	-10.0999
▁months	-10.1
કીય	-10.1005
▁51	-10.1006
▁એજ	-10.1009
CN	-10.1009
▁સફળ	-10.1011
read	-10.1012
▁75	-10.1015
▁int	-10.1024
▁SI	-10.1026
lan	-10.1027
unicode	-10.1027
OS	-10.1028
▁વપરાશકર્તાને	-10.1029
▁1500	-10.1034
▁નાંખવા	-10.1037
bit	-10.1051
▁સન	-10.1059
▁દરેકને	-10.1059
વ્યવહાર	-10.1062
▁06	-10.1066
▁પરિવર્તન	-10.1069
▁મુખ્યત્વે	-10.1069
▁પ્રમાણભૂત	-10.1069
▁સાધનપટ્ટી	-10.107
યન	-10.1071
▁બિલ્ડીંગ	-10.1071
▁Wi	-10.1072
▁2010	-10.1072
હિત	-10.1075
uc	-10.1096
▁જવું	-10.1098
▁ભરો	-10.1101
▁ફ્રાન્સ	-10.1102
પેટ	-10.1106
▁સભ્ય	-10.1109
▁RAID	-10.111
▁ઊભો	-10.1111
▁પોતાનું	-10.1111
ડવ	-10.1112
Query	-10.1113
▁બનાવ્યું	-10.1114
▁અધિકારો	-10.1118
ાવો	-10.1123
▁લીધે	-10.1126
પાલ	-10.1127
▁વિશેષતા	-10.1127
▁Sh	-10.1128
▁નિયમન	-10.1128
ક્ટર	-10.113
રાશિ	-10.113
203	-10.1134
યુક્ત	-10.1134
IP	-10.1134
ze	-10.1144
wise	-10.1157
▁તારણ	-10.1161
▁ઓર	-10.1162
UI	-10.1166
pt	-10.1179
ાનંદ	-10.1179
ib	-10.1179
▁જેલમાં	-10.118
▁$1	-10.1183
▁game	-10.1184
▁box	-10.1186
▁મળ્યુ	-10.1186
ok	-10.1187
વાળો	-10.119
▁Do	-10.1198
▁પ્રમાણમાં	-10.1208
ડર	-10.1211
ટેક	-10.1213
પ્લે	-10.1215
▁41	-10.1216
વાદ	-10.1226
▁પીડા	-10.1228
▁શીખવા	-10.1236
▁શરત	-10.1238
▁ગંભીર	-10.1239
▁યુનાઇટેડ	-10.1239
▁here	-10.1243
▁નિશાની	-10.1246
મોન	-10.1249
▁પુલ	-10.1251
book	-10.1258
cent	-10.1259
્લે	-10.1259
chi	-10.1261
▁કર્મચારીઓ	-10.1263
cur	-10.1265
▁સાઇન	-10.1267
▁ભક્ત	-10.127
▁જોવાઈ	-10.1272
▁subjects	-10.1282
▁પુરવઠા	-10.1282
▁ખોટા	-10.1285
▁દાંત	-10.1286
ચેરી	-10.1289
▁રચાયેલ	-10.1294
▁થાઇ	-10.1299
▁ઇંચ	-10.13
ક્ત	-10.1301
long	-10.1305
▁ચલ	-10.1315
ડવા	-10.1317
▁સ્તુતિ	-10.1325
▁પેઢી	-10.1325
▁ચૂકવણી	-10.1326
▁આવરી	-10.1326
▁ભાર	-10.1333
▁કેદી	-10.1337
▁વન	-10.1338
▁જર્મની	-10.1341
ઈલ	-10.1343
મણ	-10.135
▁લાવ	-10.1353
▁ટાઇમ	-10.1356
▁ખોલવામાં	-10.136
▁કૂ	-10.1364
▁બાપ	-10.1365
▁અપેક્ષા	-10.1368
▁સમર્પિત	-10.1368
▁ખુબ	-10.1368
▁have	-10.1369
atch	-10.1369
ional	-10.1372
▁દેહ	-10.1379
▁પરિ	-10.1383
▁રાખવામાં	-10.1383
▁ઈબ્રાહિમ	-10.1385
▁ઓવર	-10.1386
▁ટૂંક	-10.1389
644	-10.1389
▁રૂપાંતર	-10.1398
▁વગાડો	-10.14
▁30.00	-10.1402
▁સંકેત	-10.141
▁iOS	-10.1412
▁કર્સર	-10.1412
New	-10.1412
પરંતુ	-10.1413
▁૨૭	-10.1414
▁પૂરતી	-10.1418
▁વૈ	-10.1422
▁વ્યસ્ત	-10.1427
lar	-10.1429
▁યુવાન	-10.144
▁ઊંચા	-10.1449
▁રાજ	-10.1454
રું	-10.1454
▁કામચલાઉ	-10.1455
▁નાણાકીય	-10.1455
તાળીઓ	-10.1455
▁રશિયન	-10.1455
સ્લીવ	-10.1455
▁ગુપ્ત	-10.1456
KW	-10.1456
શ્રેષ્ઠ	-10.1457
▁ટ્રેડિંગ	-10.1458
▁દાન	-10.1463
▁પેટ	-10.1468
મિન	-10.1474
▁પક્ષ	-10.1483
▁07	-10.1484
ાયેલા	-10.1484
▁ગ્રામ	-10.1493
▁શકાશે	-10.15
ina	-10.1501
હૂ	-10.1506
▁૧૯	-10.151
▁કચરાપેટીમાં	-10.1513
▁નાખો	-10.1514
▁માંગતા	-10.1516
▁અનુસર	-10.1516
▁જુએ	-10.1524
▁125	-10.1535
▁પકડ	-10.1536
▁વિરોધી	-10.1537
▁ચાલે	-10.1539
ત્રી	-10.1541
▁તેજસ્વી	-10.1543
▁બનશે	-10.1547
▁સીધી	-10.1547
સ્ટ્રે	-10.1547
▁ઓછું	-10.1548
tal	-10.1549
▁me	-10.1552
▁ડબલ્યુ	-10.1552
▁we	-10.1559
▁જૂની	-10.1562
▁પતિ	-10.1565
▁વિડિઓઝ	-10.1574
▁ઢ	-10.1576
▁ટેસ્ટ	-10.1576
▁ma	-10.1581
▁380	-10.1583
▁રેડ	-10.1587
▁નિષ્ણાત	-10.1587
▁GIMP	-10.1587
▁મકાન	-10.1589
▁કોમ	-10.159
gen	-10.1592
▁મોડ	-10.1594
▁સપ્લાયર્સ	-10.1601
કારો	-10.1601
▁શ્રેણીઓ	-10.1602
▁અત્યારે	-10.1605
▁પોસ્ટ્સ	-10.1607
▁સંયોજનો	-10.1612
ંપ	-10.1613
▁ફો	-10.1624
ગલ	-10.1626
ફાઈલ	-10.1629
▁ફાઇબર	-10.1632
▁take	-10.1634
તાજ	-10.1635
▁જગ્યાઓ	-10.1637
▁સફર	-10.1637
▁સંદેશાઓને	-10.1638
▁મશીનો	-10.1639
▁65	-10.1646
-15	-10.165
▁બનાવવાનું	-10.1652
CO	-10.1654
▁કયા	-10.1655
▁ઇલેક્ટ્રોનિક	-10.1661
▁હકીકત	-10.1662
િયમ	-10.1663
▁નમૂનાઓ	-10.1668
ણો	-10.1674
▁LIVE	-10.1676
▁સફળતાપૂર્વક	-10.1677
િઝ	-10.1685
▁સમજવા	-10.1688
▁AM	-10.1693
rt	-10.1703
▁પ્રબોધકો	-10.171
▁હોવુ	-10.1718
▁કાઢવા	-10.172
▁માઇક્રો	-10.1721
\\\\	-10.1721
▁રજૂઆત	-10.1721
▁સંયુક્ત	-10.1723
▁એરપોર્ટ	-10.1723
▁સૂચિ	-10.1724
▁ભય	-10.173
▁ડ્ર	-10.1732
▁CE	-10.1735
વૉ	-10.1744
િક્સ	-10.1745
▁Ti	-10.1756
ct	-10.1756
ory	-10.1757
▁નકલી	-10.176
હુ	-10.1761
ન્દ્ર	-10.1761
્ટી	-10.1762
▁Pa	-10.1762
▁હિંસા	-10.1766
google	-10.1766
▁આવતી	-10.1767
▁સોલ્યુશન્સ	-10.1769
101	-10.1772
▁કળ	-10.1773
▁Ar	-10.1774
મેઈલ	-10.1774
વાઇ	-10.1775
▁Pre	-10.1778
રિયલ	-10.1778
સ્ટો	-10.178
▁pref	-10.1783
▁ઈન્	-10.1787
▁સિસ્ટમો	-10.1797
▁બંધબેસતુ	-10.1801
▁વોલ	-10.1802
▁world	-10.1803
૯	-10.1805
rc	-10.1809
ડેલ	-10.181
▁યુનાઈટેડ	-10.1811
▁મનુષ્ય	-10.1811
ગરદન	-10.1811
▁Archives	-10.1812
▁States	-10.1813
▁રાત	-10.1814
ચુ	-10.1817
back	-10.1818
[	-10.1822
▁લાવવામાં	-10.183
▁સંભવિત	-10.1832
▁કરાવ	-10.1837
▁દીકરા	-10.1838
▁them	-10.184
▁નવ	-10.1847
▁Sa	-10.1854
▁હાઇડ્રોલિક	-10.1857
style	-10.1857
બેક	-10.1857
▁રસ્તા	-10.1858
▁થોડો	-10.1858
▁૩૭	-10.186
▁sa	-10.1861
▁સપ્લાય	-10.1862
way	-10.1866
ાણ	-10.1869
▁સૂચના	-10.1872
▁ચલાવ	-10.1873
▁પ્રમાણ	-10.1875
▁આપતા	-10.188
▁02	-10.188
▁કવિતા	-10.1881
ફી	-10.1882
ING	-10.1887
▁અતિ	-10.1888
મય	-10.1888
▁42	-10.1893
▁કરવુ	-10.1897
9001	-10.1898
и	-10.1902
▁દ્રશ્ય	-10.1903
દંપતિ	-10.1903
▁Tablet	-10.1903
્‍	-10.1906
▁Win	-10.1909
▁સીધા	-10.1912
ગ્સ	-10.1914
▁ખ્રિસ્તના	-10.1915
▁દોર	-10.1918
▁હોઇ	-10.1919
▁સંગ્રહી	-10.1926
▁સ્થાનો	-10.1932
સાઈ	-10.1935
▁નાખ	-10.1941
▁પ્રયોગો	-10.1941
é	-10.1948
▁યાત્રા	-10.1949
▁રસપ્રદ	-10.1949
▁સમાવિષ્ટ	-10.195
▁Cheat	-10.1953
▁AD	-10.1956
▁મુક	-10.1961
ચંદ્ર	-10.1962
gain	-10.1962
▁નાઇટ	-10.1965
▁ભૂલો	-10.1967
box	-10.1968
▁Su	-10.1971
ક્રમ	-10.1971
low	-10.1973
▁વાદળ	-10.1975
▁ધોરણ	-10.1978
ર્બ	-10.1979
▁ચર્ચ	-10.1986
-2018	-10.1988
દેવદૂત	-10.1995
▁લાગણી	-10.1995
▁પ્લેયર	-10.1996
▁હાર્	-10.2
▁વગાડવા	-10.2001
▁ગ્રેડ	-10.2013
▁પૂરો	-10.2017
▁આવક	-10.2024
મંત્ર	-10.2026
▁વેસ્ટ	-10.2039
▁આંકડા	-10.2041
▁બાપ્તિસ્મા	-10.2041
▁શારીરિક	-10.2041
▁વોચ	-10.2042
મારી	-10.2052
▁un	-10.2056
▁સફળતા	-10.2057
▁ગેમ	-10.206
ED	-10.2061
ney	-10.2063
પ્ટ	-10.2075
web	-10.2078
▁કરેલી	-10.2086
▁પ્રકારો	-10.2087
▁italy	-10.2087
▁ઈનપુટ	-10.2087
▁વ્યાખ્યા	-10.2087
▁ટેમ્પલેટ	-10.2088
▁વૃદ્ધિ	-10.209
▁સાચા	-10.2092
ેશ	-10.2098
▁ત્યારથી	-10.2098
▁યરૂશાલેમ	-10.21
નિયા	-10.2101
time	-10.2101
▁ચોકઠાં	-10.2105
▁પૂરું	-10.2107
▁થતી	-10.211
▁સંદેશાને	-10.2111
▁દસ	-10.2115
▁સાન	-10.2117
ાલય	-10.2126
gg	-10.2129
▁દૂતો	-10.2129
▁October	-10.2134
▁ડિલિવરી	-10.2134
▁ફૅક્સ	-10.2134
▁ટોપ	-10.2135
▁શેતાન	-10.2136
▁૨૮	-10.2137
▁પુરુષો	-10.2138
▁Ta	-10.2143
▁બફર	-10.2144
▁All	-10.2147
▁જાણું	-10.2148
બોર્ડ	-10.215
▁નીકળી	-10.2156
app	-10.2157
ર્જ	-10.2162
▁47	-10.2165
ગ્રા	-10.2169
▁પાઉલે	-10.2172
ંત	-10.2173
province	-10.2179
▁આલ્બમ	-10.2181
▁વર્ડપ્રેસ	-10.2181
▁કાનૂની	-10.2181
▁સાચી	-10.2186
▁નિર્	-10.2186
પત્ર	-10.2186
મત	-10.219
▁Last	-10.219
▁લઈને	-10.2191
▁ઈચ્છે	-10.2192
▁આપ્યા	-10.2194
▁2005	-10.2195
▁USB	-10.2198
lin	-10.2198
▁બેસ	-10.22
સ્ટિ	-10.2201
ધન	-10.2204
▁%(	-10.2204
▁તારો	-10.2206
▁use	-10.2209
▁ચિની	-10.2226
▁લીડ	-10.2227
▁Copyright	-10.2228
▁પધ્ધતિ	-10.2228
▁લઘુતમ	-10.2228
rad	-10.2229
▁સર્વાધિકાર	-10.2229
▁અનુસરો	-10.2229
▁મળેલ	-10.2232
▁વિકસ	-10.2233
▁સમક્ષ	-10.2233
▁Le	-10.2235
▁કરા	-10.2246
ધ્ય	-10.2252
ાર્થ	-10.2254
▁3000	-10.2257
▁ફ્લેગ	-10.2263
▁QR	-10.2267
▁ફ્લેટ	-10.2267
▁વાર્તાલાપ	-10.2272
▁departments	-10.2276
▁બાજુએ	-10.2277
▁જાપાન	-10.2278
▁દલીલ	-10.2278
ments	-10.2279
▁યેન	-10.2279
▁ફેશન	-10.2286
શ્	-10.2286
▁થા	-10.229
▁ઉમેદવારી	-10.2291
bi	-10.2293
ther	-10.2297
્ટ	-10.2297
160	-10.2299
ળે	-10.232
▁બચત	-10.2323
▁menu	-10.2324
▁ફ્લો	-10.2335
cl	-10.2339
▁મેળ	-10.234
▁સહાયક	-10.2342
ફૂલ	-10.2346
▁જઇ	-10.2352
111	-10.2353
▁અધિકારીઓ	-10.2355
TJ	-10.2356
▁ક્રે	-10.2357
▁સાઇટ્સ	-10.2358
ug	-10.2359
ung	-10.2362
▁અવ	-10.2367
▁મહા	-10.2368
н	-10.2371
આદિવાસી	-10.2371
▁કઠોર	-10.2371
▁ભૂમિકા	-10.2371
▁સંવેદનશીલ	-10.2371
▁વિદેશી	-10.2371
▁શુક્રવાર	-10.2371
▁વાણી	-10.2372
▁તપાસો	-10.2373
▁ડેટિંગ	-10.2374
▁ઈમેઈલ	-10.2375
▁·	-10.2376
▁ફરોશીઓ	-10.2378
▁MDR	-10.238
link	-10.2382
ીયન	-10.2384
ધુ	-10.2391
બહેન	-10.2395
▁Linux	-10.2401
▁રાષ્ટ્ર	-10.2401
▁Un	-10.2405
લાઈ	-10.2408
▁મહત્વનું	-10.241
▁વાસ્તવિકતા	-10.241
▁Blockchain	-10.2411
▁કાળજી	-10.2419
▁ચહેરા	-10.2419
▁તદ્દન	-10.2419
red	-10.2419
nu	-10.242
ક્યુ	-10.2421
જ્	-10.2422
Color	-10.2426
▁ખોટી	-10.2427
ND	-10.2429
▁pro	-10.2432
form	-10.2434
ર્ચ	-10.2437
પ્રભુ	-10.2444
▁સલામતી	-10.2446
▁શિષ્યોએ	-10.2449
ટિંગ	-10.2451
▁Com	-10.2452
▁જાતિ	-10.2456
મેં	-10.2459
▁મોકલવામાં	-10.2462
અલ	-10.2462
▁દેખ	-10.2462
▁“%	-10.2465
▁જાન્યુઆરીમાં	-10.2466
▁ગૂગલ	-10.2468
▁છોકરી	-10.2468
▁મરિયમ	-10.2468
ન્ટર	-10.2469
કોઈ	-10.247
▁પિક્સેલ	-10.2471
▁રૂપાંતરણ	-10.2477
▁વ્યવસાયિક	-10.2478
▁Red	-10.2478
▁up	-10.2481
tab	-10.2485
EE	-10.2489
▁ક્લિપ	-10.2506
▁વેચવા	-10.2509
▁હકો	-10.2513
▁ટુ	-10.2514
av	-10.2515
▁કેટેગરી	-10.2516
▁વિધેય	-10.2516
▁સત્સંગ	-10.2516
▁સરોવર	-10.2516
▁ખ્યાલ	-10.2516
▁ઘેર	-10.2519
▁લોગો	-10.2519
▁1.0	-10.2524
ઇટ	-10.2526
▁એટલા	-10.254
સૂર્ય	-10.2543
▁સેન્ટર	-10.2545
ade	-10.2549
▁દેશમાં	-10.2551
▁ભગવાનના	-10.2552
ચ્છ	-10.2554
▁ઉપકરણને	-10.2562
▁પુરવઠો	-10.2564
▁ગરીબ	-10.2566
▁છેલ્લી	-10.2566
NG	-10.2575
▁ભક્તિ	-10.2579
▁2.5	-10.2582
▁આપવી	-10.2583
UR	-10.2586
▁ખેલાડીઓ	-10.2586
▁સામનો	-10.2589
▁ટા	-10.2591
qui	-10.2591
▁સ્ટ્ર	-10.2592
face	-10.2593
સુંદર	-10.2593
▁વય	-10.2603
▁છૂટ	-10.2613
▁ભલામણ	-10.2614
▁શકાતો	-10.2614
▁find	-10.2614
▁લાઈવ	-10.2614
▁દિવાલ	-10.2614
▁રાઉન્ડ	-10.2614
▁એપ્લેટ	-10.2614
ef	-10.2615
▁સોકેટ	-10.2617
▁જુદી	-10.2617
▁લખ્યું	-10.2618
રીપ	-10.2622
લ્લા	-10.2624
ટ્ટ	-10.2636
કમળ	-10.2639
▁બેન્ડ	-10.2641
યોગ	-10.2642
▁પકડી	-10.2642
▁સમાવ	-10.2643
પાછળ	-10.2644
ટેટૂ	-10.2644
ફિ	-10.2644
▁રોમ	-10.2647
180	-10.2652
220	-10.2652
▁AS	-10.2653
qu	-10.2655
▁અશુદ્ધ	-10.2656
ેન્સ	-10.2659
▁\	-10.2661
▁અંગ	-10.2661
▁વાર્ષિક	-10.2663
▁સરખામણી	-10.2663
▁ડોમેઈન	-10.2663
▁સાંકળ	-10.2663
▁મહેમાન	-10.2664
▁આખા	-10.2665
ર્ત	-10.2665
▁ઓફલાઇન	-10.2665
▁સ્પ	-10.2666
સ્વ	-10.2666
water	-10.2666
are	-10.2669
▁બતાવી	-10.267
ગત	-10.2672
▁સંગ	-10.2673
▁કહેવામાં	-10.2674
▁વધાર	-10.2675
ron	-10.268
▁હજારો	-10.2688
ors	-10.2693
દુ	-10.2697
▁કલાકાર	-10.2701
sion	-10.2709
▁મૂકવા	-10.2709
▁હેન્ડલ	-10.2711
▁એક્સચેન્જ	-10.2713
▁પ્રસારણ	-10.2713
▁પ્રિન્ટીંગ	-10.2717
▁લેબ	-10.2724
fr	-10.2725
▁પડકાર	-10.2732
by	-10.2734
▁માંગે	-10.2735
1.5	-10.2735
▁નગર	-10.2737
▁આદર્શ	-10.2743
▁અા	-10.2746
▁દિ	-10.2748
ત્ય	-10.2749
▁Black	-10.2749
▁બાંધ	-10.275
ચક	-10.2751
▁So	-10.2758
▁સ્નેપશોટ	-10.2762
▁અંદાજ	-10.2762
ખોપરી	-10.2762
KG	-10.2766
▁ધારકો	-10.2771
ાઉન્ડ	-10.2781
▁તાળું	-10.2783
▁ક્રિ	-10.2786
▁99	-10.28
▁પૂરુ	-10.2809
હોકાયંત્ર	-10.2812
ectures	-10.2812
▁શિક્ષા	-10.2812
▁YouTube	-10.2812
▁SSL	-10.2814
▁બુદ્ધિ	-10.2815
▁ચલણ	-10.2818
ern	-10.2819
▁પ્રે	-10.2821
code	-10.2821
▁66	-10.2822
▁ક્લે	-10.2825
▁ભરવા	-10.2831
▁તીર	-10.2832
▁થયાનું	-10.2832
▁જૂ	-10.2834
▁સાબિત	-10.2837
▁રહેતા	-10.2841
▁વાપર	-10.2842
▁કાયમ	-10.2843
900	-10.2847
–	-10.2847
▁Mar	-10.2848
ીઝ	-10.285
ene	-10.2851
પુરુષો	-10.2855
▁UP	-10.2855
mt	-10.2856
▁લાંબી	-10.2863
▁કિનારી	-10.2863
▁એલોય	-10.2863
▁પાલતુ	-10.2863
▁નિયમશાસ્ત્ર	-10.2864
રેક	-10.2864
▁ગ્રીન	-10.2867
mar	-10.2868
▁પેજ	-10.287
light	-10.2872
▁button	-10.2873
▁છોડો	-10.2877
▁પ્રવાહ	-10.2882
▁123	-10.2883
થિ	-10.2883
▁બ્રેક	-10.2884
▁કુચ	-10.2885
ન્ટા	-10.2889
▁લાવે	-10.2893
ઇગલ	-10.2897
ાદ	-10.2897
ness	-10.2898
બાર	-10.2898
▁દૂત	-10.2901
ji	-10.2903
▁dis	-10.2903
▁DS	-10.2904
▁2008	-10.2908
▁અગાઉના	-10.2908
▁આશ્ચર્ય	-10.2913
▁સાર્મથ્ય	-10.2913
▁વસંત	-10.2914
▁Ra	-10.2914
▁PC	-10.2914
▁મૂર્તિ	-10.2918
કારી	-10.2929
ડ્રે	-10.293
▁Download	-10.2943
આંખ	-10.2953
▁સ્ટેટ	-10.2953
ik	-10.2956
બ્રુ	-10.2963
▁ક્રિપ્ટો	-10.2964
▁રાસાયણિક	-10.2964
▁શંઘાઇ	-10.2964
redhat	-10.2964
▁હેરોદ	-10.2964
▁PDA	-10.2964
▁રૂપે	-10.2965
▁ખેતર	-10.2965
▁થાપણ	-10.2965
▁રિપોર્ટ	-10.2966
▁ગિયર	-10.2966
▁અહી	-10.2967
શ્રી	-10.297
rom	-10.2974
▁કેટલા	-10.2978
▁ડર	-10.2988
▁object	-10.2993
less	-10.2996
▁બર્ન	-10.2997
File	-10.2998
પટ્ટી	-10.2999
▁ક્ર	-10.3
▁new	-10.3002
dev	-10.3007
વાદી	-10.3009
TI	-10.301
▁બિલ્ડ	-10.301
▁ક્લાઈન્ટ	-10.3015
▁કમિશન	-10.3015
▁સ્ક્રિન	-10.3015
▁ઊંઘ	-10.3019
▁પાયે	-10.3019
▁પહોંચ	-10.3021
▁બેન્ક	-10.3025
▁ખસેડી	-10.3028
▁બુટ	-10.3031
▁સુધારી	-10.3032
▁પ્રિ	-10.3038
▁બધાં	-10.3043
દાન	-10.3045
▁દેશોમાં	-10.3046
▁કેટલી	-10.3046
▁શરૂઆતમાં	-10.3047
▁63	-10.3054
અનંત	-10.3054
▁ગ્ર	-10.3057
દેશ	-10.306
▁સર્	-10.3061
▁Machine	-10.3066
▁અનલિમિટેડ	-10.3066
▁તાજેતરના	-10.3066
▁દિલગીર	-10.3066
ek	-10.3067
▁હોન્ડા	-10.3067
ઈસુ	-10.3068
NE	-10.3078
ral	-10.3084
ated	-10.3087
pro	-10.3088
ual	-10.309
▁આછો	-10.309
▁NO	-10.3095
▁no	-10.3097
▁92	-10.3104
અથવા	-10.3108
▁વાય	-10.311
ર્ય	-10.3111
▁માણસોને	-10.3114
▁ઘૂંટી	-10.3118
▁સપ્તાહ	-10.3118
▁અપરાધ	-10.3118
▁આરંભ	-10.3118
▁છેલ્લું	-10.3118
▁will	-10.312
▁લીધી	-10.312
▁એપ્લિકેશન્સ	-10.3126
▁ડિસે	-10.313
▁{	-10.3131
ટ્રા	-10.3132
320	-10.3133
ફ્ટ	-10.3134
રાય	-10.3134
ક્ટો	-10.3135
▁જેમ્સ	-10.3149
છી	-10.315
▁Ne	-10.3151
▁શિક્ષકો	-10.3156
▁પામ	-10.3159
▁59	-10.3161
▁સમૃદ્ધ	-10.3164
▁કારણકે	-10.3164
▁એસી	-10.3168
સ્તર	-10.3169
▁મૂર્ખ	-10.3169
▁કાંઈ	-10.317
▁ટિપ્સ	-10.317
▁સાક્ષી	-10.317
▁રક્ત	-10.317
▁નજર	-10.3174
▁DC	-10.3175
▁હોવો	-10.3178
્યુટ	-10.3178
ietnam	-10.3179
▁Br	-10.3183
▁મત	-10.3183
૨૦૦	-10.3186
yl	-10.3189
▁વાપરેલ	-10.3196
az	-10.3201
ક્રોસ	-10.3204
વૃત્તિ	-10.3204
લ્ફ	-10.3205
▁મૂળભુત	-10.3206
▁Gr	-10.3208
સ્ટ્ર	-10.3212
▁બાહ્ત	-10.3222
▁ફોરેક્સ	-10.3222
▁સ્વચ્છ	-10.3223
▁દૃશ્યમાન	-10.3224
$1	-10.3235
ગેજ	-10.3235
▁જ્ઞાની	-10.3241
ale	-10.3242
▁શોધવામાં	-10.3244
ence	-10.3244
▁આખી	-10.3245
▁બાળકોને	-10.3246
ign	-10.3247
▁ટેલ	-10.3249
2020	-10.3253
▁52	-10.3255
iz	-10.3258
ata	-10.3259
han	-10.326
સંગ્રહ	-10.3267
▁બીજ	-10.3269
ana	-10.327
▁Cryptocurrency	-10.3274
▁શેનઝેન	-10.3274
▁આઇટમ	-10.3274
▁સ્પીડ	-10.3274
ring	-10.3275
▁બેલ્ટ	-10.3285
▁MAX	-10.3285
rate	-10.3286
▁28,	-10.3293
▁Na	-10.3298
▁ગમ	-10.3302
રિક	-10.3306
▁3.0	-10.3306
▁બીચ	-10.3307
▁પ્રેસ	-10.3309
Fi	-10.3311
▁આધારે	-10.3313
્રો	-10.3315
▁રોલર	-10.3317
▁સરકારી	-10.3319
ક્વિ	-10.3321
bra	-10.3325
▁Please	-10.3327
▁ડાઇનિંગ	-10.3327
▁બ્લોસમ	-10.3327
▁અમારું	-10.3327
▁લડવા	-10.3327
▁બન	-10.3329
editor	-10.3329
2.1	-10.3335
▁પ્રયોગ	-10.3337
ચિત	-10.3338
મીટર	-10.3339
tan	-10.3339
ભાઈ	-10.334
હાર	-10.3341
ારા	-10.3342
ાયા	-10.3344
size	-10.3348
ભુ	-10.3355
▁RO	-10.3357
▁જળ	-10.3357
હેના	-10.3366
▁ગુમાવ	-10.3368
ja	-10.337
▁સંમત	-10.3376
▁દરવાજા	-10.3379
▁Rikoooo	-10.3379
▁અવેજી	-10.338
▁નોટબુક	-10.338
▁યોગ	-10.3381
▁ઓળખાય	-10.3384
ફેધર	-10.3385
▁વિશ્વાસીઓ	-10.3385
▁કાઢો	-10.3386
છે	-10.3388
▁Tr	-10.3389
▁આપવાનું	-10.3389
▁હોટેલ	-10.3389
▁થકી	-10.3389
▁સ્પાય	-10.339
▁આઠ	-10.3396
▁57	-10.3407
▁જાળી	-10.341
ેન્ડ	-10.3411
▁પેચ	-10.3419
▁sh	-10.3429
સૂ	-10.3432
▁Company	-10.3433
▁કન્સોલ	-10.3433
▁વિજેતા	-10.3433
cle	-10.3437
▁સિમોન	-10.3439
વોટરક	-10.3446
સ્સા	-10.3446
લિસ્ટ	-10.3455
▁આર્ટ	-10.346
લોક	-10.3464
▁time	-10.3467
▁અવગણો	-10.347
▁Video	-10.3471
પૂર્ણ	-10.3474
▁વિસ્તારો	-10.3475
દર્શક	-10.3477
સ્ટોન	-10.3477
▁લેક	-10.3481
▁પેલા	-10.3485
ન્ચ	-10.3485
▁સ્પર્ધા	-10.3486
▁Education	-10.3486
gradient	-10.3486
▁TabletWise	-10.3486
▁બિનઆધારભૂત	-10.3486
▁સ્નાતક	-10.3486
▁અવયવ	-10.3486
ool	-10.3495
▁ચકાસી	-10.3501
ત્રિ	-10.3501
▁કરતું	-10.3504
▁ક્યારેક	-10.3506
▁Al	-10.351
▁શકાતું	-10.3511
▁એકમો	-10.3512
2016	-10.3514
the	-10.3519
DE	-10.3535
▁નવાં	-10.3536
લીન	-10.3538
▁હોસ્પિટલ	-10.354
▁rarely	-10.354
▁Photo	-10.354
▁હરોળ	-10.354
▁ધાતુ	-10.354
▁માળખા	-10.3542
▁સજ્જ	-10.3542
▁એવોર્ડ	-10.3542
▁પ્લાન્ટ	-10.3542
ook	-10.3543
ેંદી	-10.3544
▁એજન્ટ	-10.3545
▁આશરે	-10.355
▁ઉતર	-10.3553
▁માન્યતા	-10.3554
પ્રો	-10.3555
▁Ni	-10.3557
સ્મ	-10.3565
▁ગી	-10.3572
▁રુ	-10.3581
▁ja	-10.3583
ણું	-10.3587
▁ધોરણો	-10.3592
▁પરિચય	-10.3594
▁સિલિકોન	-10.3594
▁નિષ્કર્ષણ	-10.3595
▁રેડિયો	-10.3597
▁યાજક	-10.3604
▁માસ્ટર	-10.3605
▁ઘટાડવા	-10.3613
ણાં	-10.3617
tech	-10.3618
ખર	-10.3635
▁યાજકો	-10.3639
▁file	-10.364
▁કસ્ટમાઇઝ	-10.3643
▁પુખ્ત	-10.3648
▁શેનડોંગ	-10.3648
▁૨૦૧૪	-10.3648
▁શૈક્ષણિક	-10.3648
▁class	-10.3649
ન્ના	-10.3649
▁રબર	-10.365
▁મંડળી	-10.3654
▁પ્લે	-10.3662
space	-10.3668
UT	-10.3673
ome	-10.368
▁કૅ	-10.3684
▁પ્રક્રિયાઓ	-10.3685
▁નીકળવા	-10.3691
▁સમા	-10.3692
▁2009	-10.3694
▁સામેલ	-10.37
▁needs	-10.3702
અર્ધવિરામ	-10.3703
▁ડિસ્કાઉન્ટ	-10.3703
▁તાકાત	-10.3703
▁ફોર્મેટ	-10.3708
▁વર્થ	-10.3708
ave	-10.3711
cal	-10.3721
▁58	-10.3723
▁રાખેલા	-10.3723
now	-10.3725
▁Po	-10.3728
ૂન	-10.373
king	-10.3731
ટ્રે	-10.3736
▁બજારમાં	-10.3744
▁સમજાવ	-10.3747
574	-10.3751
HC	-10.3751
700	-10.3753
ally	-10.3754
▁jetetroll	-10.3758
▁ન્યૂનતમ	-10.3758
▁સંતુલિત	-10.3758
▁ચોકસાઇ	-10.3758
▁ક્રોધ	-10.3758
ધ્ધ	-10.3758
▁વપરાશકર્તાનામ	-10.3759
પ્રે	-10.376
▁વિચિત્ર	-10.3761
▁ફ્લોર	-10.3762
▁રચ	-10.3766
▁(8)	-10.377
ries	-10.377
▁Playing	-10.3771
▁મુદ્દાઓ	-10.3772
page	-10.3774
▁વાન	-10.3774
▁૩૫	-10.3775
તીર	-10.3776
ીઆ	-10.3776
.360	-10.3777
ઇન્ડ	-10.3777
▁350	-10.3779
▁પાડવામાં	-10.3786
▁ટાપુઓ	-10.3788
▁Mon	-10.3789
▁03	-10.3792
▁ER	-10.3803
સ્ટ્રો	-10.3805
▁સેકન્ડ	-10.3813
olitics	-10.3813
▁{@}	-10.3813
▁આશીર્વાદ	-10.3813
▁પારસ્પરિક	-10.3813
▁મોટાભાગના	-10.3813
Dv	-10.3813
▁ઑગસ્ટ	-10.3814
GI	-10.3819
ંભ	-10.382
▁રંગીન	-10.3822
▁ફોર	-10.3823
▁અંક	-10.383
ન્ડો	-10.3832
▁દૂતે	-10.3834
▁જીતી	-10.3836
▁શાહીનો	-10.3838
HD	-10.384
▁બ્રાઉઝ	-10.3841
▁દોરવા	-10.3843
▁એકાંત	-10.3844
સ્ટન	-10.3846
▁all	-10.3853
▁ટૅગ	-10.3853
rent	-10.3853
િઓ	-10.3855
▁Get	-10.3856
rico	-10.3867
ાઈન	-10.3867
૦૦	-10.3867
▁પદ્ધતિઓ	-10.3868
▁ફૂટ	-10.3868
▁Congress	-10.3869
▁એસેસરીઝ	-10.3869
▁ઝેજીઆંગ	-10.3869
▁દેખરેખ	-10.3869
▁Cauc	-10.3869
▁રૂપિયા	-10.3874
ટ્રી	-10.3875
lU	-10.3879
▁uri	-10.3882
લિયન	-10.3884
map	-10.3886
ાન્	-10.3887
▁મજા	-10.389
▁Ex	-10.3892
hat	-10.3892
નિયમ	-10.3898
▁Te	-10.39
હવે	-10.3903
▁સ્વીકારવા	-10.3904
▁unit	-10.3907
St	-10.391
શ્ર	-10.391
જ્ઞા	-10.3912
ાઇન	-10.3916
▁યુગ	-10.3922
ose	-10.3923
▁પરિશિષ્ટ	-10.3925
▁વધસ્તંભ	-10.3925
▁વિલંબ	-10.3925
▁મંત્રણા	-10.3925
▁આંગળી	-10.3925
▁short	-10.3925
▁અપલોડ	-10.3926
▁કડીઓ	-10.3927
▁ઝા	-10.3927
PBF	-10.3927
▁માણસના	-10.3934
▁લખવામાં	-10.3938
▁મુશ્કેલી	-10.394
heng	-10.3945
ાઇલ	-10.395
right	-10.3954
oss	-10.3955
▁ક્લિ	-10.3959
ics	-10.3961
▁Car	-10.3965
lic	-10.3965
▁bo	-10.3972
kw	-10.3977
▁Nov	-10.3977
▁ટૂંકા	-10.3978
▁official	-10.3981
▁એન્ટરપ્રાઇઝ	-10.3981
▁કેન્ડી	-10.3983
મેઇલ	-10.3986
▁મિશન	-10.3987
▁પ્રોમો	-10.3987
ાતી	-10.3988
▁શકતો	-10.3989
▁0.1	-10.399
▁23,	-10.3992
▁આઇટી	-10.3994
▁શ્ર	-10.3995
▁ફ્રે	-10.3995
▁ગોલ્ડ	-10.3995
▁જૂથો	-10.4001
▁ખ્રિસ્તમાં	-10.4001
▁રેતી	-10.4003
▁ગઇ	-10.4006
uck	-10.401
$2	-10.4016
▁ઉકેલો	-10.4019
▁આર્	-10.4019
▁કૉ	-10.4021
val	-10.4026
▁ભૂલી	-10.4033
ક્વા	-10.4036
▁પ્રોત્સાહન	-10.4037
▁ફોર્મ્યુલા	-10.4037
▁પ્રસન્ન	-10.4037
▁Min	-10.4038
▁પેટર્ન	-10.4038
▁પ્રકૃતિ	-10.4039
▁અનુક્રમિત	-10.404
▁pa	-10.4044
cM	-10.4052
▁બોધ	-10.4053
ન્ટે	-10.406
▁TO	-10.4072
ટોન	-10.4076
eep	-10.4079
▁ભવિષ્યમાં	-10.4081
▁સંવાદમાં	-10.4084
ambia	-10.4089
▁પુરુષ	-10.4093
▁તબક્કા	-10.4094
plug	-10.4095
▁ઉપનામ	-10.4095
iya	-10.4096
▁માંગણી	-10.4096
▁બદલાઈ	-10.4099
ડ્	-10.41
▁LTD	-10.4113
રેખા	-10.4116
▁2.0	-10.4133
િકલ	-10.4134
▁પ્રોડક્ટ	-10.4135
▁ખાવા	-10.4136
▁Air	-10.4141
પૂર્વ	-10.4141
▁ફોટાઓ	-10.4143
▁વૈવિધ્ય	-10.4151
▁General	-10.4151
▁કોઠારી	-10.4151
▁એફઓબી	-10.4151
▁ગ્રુપ	-10.4151
▁માનસિક	-10.4151
▁MP	-10.4151
▁ટ્રાન્સફર	-10.4152
મેર	-10.4158
▁56	-10.4158
▁49	-10.4159
OO	-10.4159
▁વળી	-10.4162
ium	-10.4163
▁અનુક્રમણિકા	-10.4167
ste	-10.4168
▁ગીતો	-10.4171
▁સંબંધો	-10.4174
જૂ	-10.4176
તમને	-10.4177
▁લાગ્યા	-10.4177
run	-10.4182
▁વ્યક્તિઓ	-10.4183
▁રિંગ	-10.4183
▁કોંગ	-10.4185
▁પિતરે	-10.4185
▁10%	-10.4188
લાં	-10.4192
▁GP	-10.4196
ાંત	-10.4197
▁પુસ્તકો	-10.4199
key	-10.4202
▁અવરોધ	-10.4205
je	-10.4207
▁Minimum	-10.4209
▁ઇંગલિશ	-10.4209
▁ટ્રાફિક	-10.4209
▁National	-10.4209
▁Whatsapp	-10.4209
▁ફાયદા	-10.4209
▁Short	-10.421
▁ટેટૂહાથ	-10.4213
mu	-10.4218
▁માથા	-10.4219
aw	-10.4222
int	-10.4223
▁સાંભળો	-10.4225
▁તકનીક	-10.4231
▁બધુ	-10.4241
999	-10.4245
1-1	-10.425
HB	-10.4251
▁પોસ્ટનો	-10.4254
▁53	-10.4262
▁option	-10.4263
▁ઘાટ	-10.4264
▁પાઉડર	-10.4266
▁લાઇબ્રેરી	-10.4266
vectors	-10.4267
▁ટેલિફોન	-10.4267
▁brita	-10.4267
ટ્રિ	-10.4272
▁પાઠ	-10.4274
▁પાક	-10.4276
▁RGB	-10.4276
▁ભલે	-10.4278
layers	-10.4279
▁સૂચનો	-10.428
▁અડ	-10.4289
▁જોબ	-10.4291
▁(3)	-10.4291
▁બોટલ	-10.4293
▁રન	-10.4293
▁ખેંચો	-10.4296
2.5	-10.4297
ફોન	-10.43
▁એપલ	-10.4307
▁એન્ટિ	-10.4308
▁આપતુ	-10.4317
તમ	-10.4318
બુક	-10.432
ware	-10.4321
ફ્ર	-10.4323
.03.2019	-10.4325
▁કોર્પોરેશન	-10.4325
▁VPN	-10.4325
્રુ	-10.4325
▁ઓફલાઈન	-10.4326
▁જેટલું	-10.4327
▁વેલેન્ટાઇન	-10.4329
oll	-10.4333
▁ધણી	-10.4333
▁AT	-10.4337
્ન	-10.4338
▁IM	-10.434
http	-10.4342
mail	-10.4344
0059	-10.4345
gmail	-10.435
સાય	-10.4352
▁શહેરો	-10.4372
ઈટ	-10.4373
▁Unlimited	-10.4375
▁બોલી	-10.4375
▁હાઉસ	-10.4379
▁ટૅબ	-10.4382
▁એમેઝોન	-10.4383
▁કૃત્રિમ	-10.4383
▁Pinterest	-10.4383
▁GDM	-10.4383
▁ઠીક	-10.4383
▁જુગાર	-10.4384
▁યુઆન	-10.4384
▁MS	-10.4384
▁API	-10.4384
▁ક્ષેત્રો	-10.4386
DI	-10.4387
▁લોહી	-10.439
▁કાપડ	-10.4394
્વે	-10.4394
▁પ્લેન	-10.4396
▁પદ	-10.4397
▁પૂરા	-10.4397
▁ગાળક	-10.4397
▁મધ	-10.4399
▁ફોર્ટ	-10.4411
ર્થ	-10.4413
▁ઠરાવ	-10.4416
જીવન	-10.4417
ઠ્ઠ	-10.4417
તેની	-10.4423
▁કાપી	-10.4425
▁વતી	-10.4427
▁આકૃતિ	-10.4432
▁ઇન્ટર	-10.4436
▁મૂકે	-10.4437
▁eur	-10.4438
▁દલીલો	-10.4438
▁eu	-10.444
▁ગેલેરી	-10.4442
▁અગ્નિ	-10.4442
▁સેકંડ	-10.4442
add	-10.4443
▁પેટન્ટ	-10.4446
▁Pi	-10.4451
▁more	-10.4452
ઘા	-10.4452
▁બ્લુ	-10.4452
▁Language	-10.4455
▁વાહન	-10.4456
▁Day	-10.4464
ન્સી	-10.4469
▁સાંભળે	-10.4469
ali	-10.447
-24	-10.4472
▁War	-10.4472
▁મુખ	-10.4473
કૃતિ	-10.4475
▁build	-10.4488
▁પ્લાન	-10.4491
▁પંચ	-10.4495
ઈડ	-10.4497
imp	-10.4498
▁License	-10.4501
▁પ્લેલીસ્ટ	-10.4501
▁Microsoft	-10.4501
110	-10.4505
▁ફ્લે	-10.4506
▁વહેંચાયેલ	-10.4509
▁કિલો	-10.4512
▁સ્પા	-10.4512
▁ક્રોસ	-10.4514
▁greece	-10.4515
ress	-10.452
▁ધ્યાનથી	-10.4522
▁એચડી	-10.4523
સ્ટ્રી	-10.4527
▁યહૂદિઓએ	-10.4532
▁વસ્ત્રો	-10.4535
cn	-10.4537
▁ડ્રાઈવર	-10.4538
▁બધાજ	-10.4542
ટકી	-10.4546
▁MC	-10.4552
કોડ	-10.4552
▁Manufacturer	-10.4561
▁inmenu	-10.4561
ELEX	-10.4561
▁સ્કૂલ	-10.4561
▁દેખાશે	-10.4561
▁ગ્રાન્ડ	-10.4562
▁Hu	-10.4562
▁પ્રીતિ	-10.4562
▁22,	-10.4563
▁હેક્સ	-10.4564
▁કલર્સ	-10.4569
▁મળીને	-10.457
▁લેઆઉટ	-10.4573
▁અબજ	-10.4576
india	-10.4582
▁દેવનું	-10.4589
▁Go	-10.4593
▁અક્ષ	-10.4595
▁tr	-10.4597
edit	-10.4598
▁શૂન્ય	-10.4603
▁વિનાશ	-10.4608
બેલ	-10.4611
નગર	-10.4615
▁Bit	-10.4616
▁europa	-10.462
▁એનક્રિપ્ટ	-10.462
▁પંચાળા	-10.462
▁પદ્દતિ	-10.462
▁ભાષાંતર	-10.462
▁વહાણ	-10.462
▁નકારાત્મક	-10.4621
▁થોડું	-10.4621
▁28.00	-10.4621
▁fl	-10.4621
▁શિક્ષક	-10.4622
▁૨૪	-10.4624
▁પામ્યો	-10.4624
▁id	-10.4626
ન્હ	-10.4632
▁એમબી	-10.4634
ace	-10.4635
▁view	-10.4637
HS	-10.4638
રંગ	-10.4639
wi	-10.4645
print	-10.4649
▁TC	-10.4651
mg	-10.4651
ખંડ	-10.4658
બિ	-10.4666
▁ઑફ	-10.467
▁PE	-10.4677
▁સ્વાદ	-10.4678
સ્વપ્નકૃષ્ટી	-10.4681
▁યહૂદા	-10.4681
▁શ્ર્વે	-10.4681
▁જાપાનીઝ	-10.4681
▁જાન્યુ	-10.4682
010	-10.4684
table	-10.4685
▁હવાઈ	-10.469
▁સાર	-10.4695
ર્ષ	-10.4704
▁ભારતમાં	-10.4707
▁ક્યારે	-10.4716
▁તર	-10.4716
▁કોર્ટ	-10.4718
▁પ્રબોધક	-10.4719
▁વગાડ	-10.4727
▁બૅ	-10.4729
▁અટકાવો	-10.4734
▁Jin	-10.4735
ડોર	-10.4736
▁પ્રોસેસર	-10.4738
ભૂ	-10.4738
▁ફાળવ	-10.4741
▁%1$	-10.4741
ટિવ	-10.4741
▁કોંગ્રેસ	-10.4742
▁વિગતવાર	-10.4742
▁યુરોપિયન	-10.4744
▁૭૬	-10.4746
▁હર	-10.4748
head	-10.4749
▁IN	-10.4761
▁62	-10.4765
વાઈ	-10.4768
▁હાજરી	-10.4769
▁સ્ટાફ	-10.4772
રાજ	-10.4772
▁મેન	-10.4773
▁set	-10.4773
જિ	-10.4778
cha	-10.4781
માર્ક	-10.4784
પાત	-10.4788
?’	-10.479
કોમ	-10.4791
ઉપ	-10.4796
ઉલ	-10.4797
▁એનક્રિપ્શન	-10.4802
▁હસ્તાક્ષર	-10.4802
તાક્ષરો	-10.4802
▁કીરીંગ	-10.4802
▁પોતાનો	-10.4803
▁વીજળી	-10.4803
▁ટોનર	-10.4803
▁વળતર	-10.4804
▁ક્રમાંક	-10.4805
▁લેવી	-10.4805
્વા	-10.4814
બોલ	-10.4815
▁મિનિટો	-10.4816
▁લૉગ	-10.4816
▁પાડો	-10.4821
▁ઉભ	-10.4824
arque	-10.4827
▁વિષયો	-10.4829
▁હોવ	-10.4829
▁નાટક	-10.4829
▁BO	-10.483
▁આવેલું	-10.484
વણી	-10.4842
0.2	-10.4842
ઇંગ	-10.4852
▁લેશે	-10.4853
▁85	-10.4857
ડ્સ	-10.4861
ff	-10.4863
▁અલબત્ત	-10.4864
▁Edition	-10.4864
▁શરુઆત	-10.4864
▁ફિલિપ	-10.4864
▁વિજય	-10.4864
▁પોર્ટેબલ	-10.4865
▁જર્સી	-10.4865
▁સ્ટ્રોક	-10.4865
▁ફાળો	-10.4865
▁અમાન્ય	-10.4866
▁Game	-10.4869
ારી	-10.4882
ંગા	-10.4883
ger	-10.4883
▁GTK	-10.4885
ફોર્ડ	-10.4886
▁ટેપ	-10.4888
ન્યુ	-10.489
top	-10.4899
▁ગોઠવણીઓ	-10.49
host	-10.4907
oy	-10.4916
▁ખાતુ	-10.4918
અો	-10.4923
્ટન	-10.4925
atalonia	-10.4925
▁અગમચેતીઓ	-10.4925
▁આજુબાજુ	-10.4925
▁ઉલ્લેખ	-10.4925
▁ઓપરેટિંગ	-10.4925
▁લેપટોપ	-10.4925
т	-10.4925
▁દૂધ	-10.4925
▁કૉપિયર	-10.4926
▁આવેલા	-10.4937
▁સ્કોર	-10.4943
▁મોં	-10.4946
▁TS	-10.495
▁અનુભવી	-10.4951
વત	-10.4955
▁શીખવ	-10.4956
▁mod	-10.4963
user	-10.4967
લાઇટ	-10.4971
hr	-10.4983
▁વપરા	-10.4986
▁Karnar	-10.4987
▁નવીનતમ	-10.4987
▁સ્ક્રીનશોટ	-10.4988
મંડળ	-10.4988
▁%2$	-10.4988
▁વાસના	-10.4988
yahoo	-10.4988
▁બંદર	-10.4988
▁પહોળાઇ	-10.4988
▁પોપઅપ	-10.4988
▁ઉદ્ભવી	-10.4992
▁પાપી	-10.5
▁મેનેજર	-10.5004
▁વર્તન	-10.5007
115	-10.5007
▁આઇસ	-10.5009
UL	-10.5014
▁ઓળખી	-10.5015
▁બ્ર	-10.5017
નલાઇન	-10.5018
▁WP	-10.5019
▁સીઇ	-10.5023
▁દરે	-10.5025
▁હલ	-10.5029
▁આરામ	-10.5031
▁BS	-10.5032
▁વહે	-10.5033
યમ	-10.5044
xml	-10.5045
▁યશાયા	-10.505
▁સોનાટાટ્ટો	-10.505
▁જ્હોન	-10.505
▁આશ્રય	-10.505
▁મહારાજ	-10.505
ank	-10.5052
▁પ્રમાણિત	-10.5056
િપ	-10.5056
▁ઊંડા	-10.5067
▁સિદ્ધાંત	-10.5068
und	-10.5069
ical	-10.5075
bin	-10.5077
▁1903	-10.5081
નૂ	-10.5083
▁ઘન	-10.5086
▁ખસ	-10.5089
image	-10.5089
▁બ્રે	-10.5092
▁ઉદ્યોગો	-10.5095
વધુ	-10.5095
▁cl	-10.5095
ui	-10.5097
▁સપ્લાયર	-10.5097
▁day	-10.51
સ્ત્ર	-10.5105
▁ચેર	-10.5107
▁21,	-10.5109
▁કરનારા	-10.511
તંત્ર	-10.511
▁46	-10.5113
▁Bitcoin	-10.5113
▁Blackjack	-10.5113
▁આધ્યાત્મિક	-10.5113
▁ઈન્ટરફેસ	-10.5113
▁તળિયે	-10.5113
▁વ્યૂહરચના	-10.5113
▁Patel	-10.5113
▁સ્પીનોની	-10.5113
▁રસ્તો	-10.5113
▁સ્પર્શ	-10.5113
▁ગાલીલ	-10.5113
બ્ર	-10.5114
ળુ	-10.5118
▁સાઇટનો	-10.5118
બળ	-10.5123
0,000	-10.5123
▁વાલા	-10.5124
ele	-10.5125
▁બ્રહ્મ	-10.5128
down	-10.5134
▁કોન્	-10.5134
ich	-10.5141
▁નોકરીઓ	-10.515
▁On	-10.5151
105	-10.5158
પાત્ર	-10.5159
્રેસ	-10.5168
122	-10.517
ating	-10.517
▁ડેવિડ	-10.5172
▁Slotjar	-10.5176
▁મતલબ	-10.5176
▁ઠંડા	-10.5176
▁નમૂનો	-10.5176
▁ફરિયાદ	-10.5176
uerto	-10.5176
▁પ્રેરણા	-10.5176
spain	-10.5177
▁ચોક્કસપણે	-10.518
▁એકત્રિત	-10.5183
▁વર્ક	-10.5186
▁કોચ	-10.5187
▁મળવા	-10.5189
tain	-10.5191
other	-10.5193
▁સોર્સ	-10.5195
▁ખેંચી	-10.5195
row	-10.5197
ify	-10.5198
▁Th	-10.5201
▁રહેવું	-10.5204
7000	-10.5208
ંડા	-10.5208
▁વેગ	-10.521
▁અવગણ	-10.521
▁એકબીજાને	-10.5211
▁બોલે	-10.5214
ઑ	-10.5214
▁સૂચનાઓ	-10.5219
▁સ્વતંત્ર	-10.5226
ેબલ	-10.5228
210	-10.5232
કાં	-10.5233
par	-10.5236
▁સ્ટાન્ડર્ડ	-10.524
▁વેલ્ડિંગ	-10.524
▁કિબોર્ડ	-10.5242
▁Text	-10.5243
▁યો	-10.5246
▁કોલ્સ	-10.5248
▁કટ	-10.5252
્લી	-10.5253
ath	-10.5256
▁વિચાર્યું	-10.5268
પાન	-10.5275
▁Best	-10.5275
▁વૃદ્ધ	-10.5276
site	-10.5278
▁ચકાસવા	-10.5279
▁સેવ	-10.5279
સ્ક્રીન	-10.528
▁લેખમાં	-10.5297
સ્કી	-10.5302
▁ડ્રાઈવ	-10.5302
▁અલ્ટ્રાસાઉન્ડ	-10.5304
▁યાકૂબ	-10.5304
▁રોબોટ	-10.5304
command	-10.5304
▁ઓસ્ટ્રેલિયા	-10.5305
▁દાયકા	-10.5305
▁પૂછ્યું	-10.5308
ions	-10.5309
▁વિન	-10.5309
▁કેન્દ્રો	-10.5313
▁વર્કઆઉટ	-10.5316
▁સૌર	-10.5319
▁તત્વો	-10.5332
▁1507	-10.5333
સ્વી	-10.5336
▁લીટીઓ	-10.5338
▁પશુ	-10.5339
france	-10.5346
▁વર્ષથી	-10.5352
▁લાભો	-10.5354
▁સોનું	-10.5357
▁130	-10.5358
લાઈન	-10.5358
cpu	-10.5361
start	-10.5364
▁નુકશાન	-10.5368
▁ધરાવતા	-10.5368
▁સ્ક્વેર	-10.5369
▁અમલીકરણ	-10.5369
▁ફુ	-10.537
▁Watch	-10.5373
▁વાપરે	-10.5374
▁ફ્લેશ	-10.5376
0.8	-10.5377
મૂ	-10.538
▁બટનો	-10.5384
▁જીવતા	-10.5384
▁કબર	-10.5388
▁04:	-10.5388
iao	-10.539
2015	-10.5397
▁XXX	-10.5405
email	-10.5408
▁ખંડ	-10.541
title	-10.5412
-04	-10.5414
▁Da	-10.5417
▁સોમવાર	-10.5418
▁કાર્યક્ષમ	-10.5418
▁લાગ	-10.5426
▁સદ	-10.5428
к	-10.5433
ا	-10.5433
▁કોસ્મેટિક	-10.5433
▁નેરોલેક	-10.5433
▁54	-10.5434
▁ઈશ્વર	-10.5434
▁વર્ગો	-10.5434
▁સર્જનાત્મક	-10.5434
નિંદા	-10.5434
▁true	-10.5434
▁પોઇન્ટ	-10.5435
▁સંતોષ	-10.5435
▁લોન્ચ	-10.5437
▁વાઇન	-10.5438
▁મૂક્યો	-10.5439
text	-10.5439
▁China	-10.5455
love	-10.5457
▁કામદારો	-10.5457
256	-10.5457
પ્રિ	-10.5462
▁ભાગીદારી	-10.5464
170	-10.5473
ંઠ	-10.5479
▁key	-10.5482
▁Of	-10.5483
▁ફાઈલનું	-10.5483
▁આત્મ	-10.549
▁કિસ્સામાં	-10.5499
▁પીડીએફ	-10.5499
thailand	-10.5499
▁પ્રેશર	-10.5499
▁દાઉદ	-10.5499
▁સ્થિતિને	-10.5501
▁ત્યાગ	-10.5502
▁ચીટ	-10.5504
ાકા	-10.551
▁69	-10.5511
125	-10.5511
▁જીએસટી	-10.5514
360	-10.5514
▁હેન્ડ	-10.5517
▁સૂચવ	-10.5518
▁બાયો	-10.5526
▁Sha	-10.5542
▁1809	-10.5545
▁માગતા	-10.5545
ફોર્મ	-10.5548
ગણ	-10.5549
▁8400	-10.5552
ષા	-10.5553
વ્યા	-10.5561
rr	-10.5562
▁પ્રાધાન્ય	-10.5565
NamePossessive	-10.5565
▁ક્લાયન્ટ	-10.5565
▁નિરીક્ષણ	-10.5565
▁મનોરંજન	-10.5565
▁શિક્ષિત	-10.5565
donesia	-10.5565
ુઆન	-10.5565
▁રમતગમત	-10.5566
▁લાગ્યું	-10.5567
▁સ્વીચ	-10.5567
▁સ્કેલ	-10.5572
▁ટન	-10.5577
▁સાઈટ	-10.558
ક્ષણ	-10.558
="1	-10.5585
▁વસ્તુઓને	-10.5586
હાઇડ્રો	-10.5588
▁કન્	-10.5589
ree	-10.5597
▁દિશામાં	-10.56
State	-10.5601
▁free	-10.5601
▁1511	-10.5609
રૂપે	-10.561
▁જાણકારીને	-10.5619
▁પેન	-10.563
в	-10.5631
▁ઉપલ્બધ	-10.5631
▁થ્રેશોલ્ડ	-10.5631
▁Power	-10.5631
▁પ્રોટીન	-10.5631
▁modified	-10.5631
▁નેશનલ	-10.5631
▁સ્વિચ	-10.5632
▁હૂક	-10.5632
▁બ્રિજ	-10.5634
▁hack	-10.5635
▁અંકિત	-10.5636
▁રેન્ડમ	-10.5636
ym	-10.5639
▁8250	-10.5642
ler	-10.5643
▁ટુકડાઓ	-10.5646
▁મેળવે	-10.5649
હાય	-10.5651
▁9200	-10.5653
9.5	-10.5656
્મા	-10.5659
▁કોટ	-10.5664
ars	-10.5672
lor	-10.5677
▁સર્વરો	-10.5677
બાઈ	-10.5679
ટાઈ	-10.5679
▁ઘાટો	-10.5684
▁1803	-10.5686
▁ઇન્જેક્શન	-10.5697
▁વ્યભિચાર	-10.5697
▁અતિશય	-10.5697
▁આગાહી	-10.5697
▁મહિને	-10.5698
▁સ્પર્ધાત્મક	-10.5698
▁તાજા	-10.57
▁ખાતાને	-10.5704
પ્ત	-10.5705
ano	-10.5708
RAM	-10.571
Box	-10.5713
shan	-10.5714
ei	-10.5717
▁યુએસએ	-10.5717
▁સાહસ	-10.5721
side	-10.5727
પતિ	-10.5731
new	-10.5734
બેર	-10.5734
▁San	-10.5735
▁ખેલાડી	-10.5736
0.4	-10.5737
▁અટકાવવા	-10.5738
AY	-10.5739
▁બદલાયેલ	-10.5742
▁અનુસરવા	-10.5744
▁ફ્ર	-10.5748
બિંદુ	-10.575
યી	-10.5751
▁બચાવવા	-10.5756
▁નોટ	-10.5757
eet	-10.5759
▁04	-10.5765
▁ગેરકાયદે	-10.5765
html	-10.5765
▁યૂસફ	-10.5765
▁પ્રાણીઓ	-10.5765
▁1703,	-10.5765
▁ટ્રી	-10.5767
▁has	-10.5769
▁પ્રી	-10.5771
▁વિભાગો	-10.5774
▁અધ	-10.5783
▁પ્રેરિત	-10.5787
ord	-10.5788
lum	-10.5791
▁રોકડ	-10.5792
ફ્યુ	-10.5803
Bus	-10.5806
▁જર્મન	-10.5808
▁દર્દીઓ	-10.581
▁180	-10.5814
▁સીટી	-10.5814
▁ch	-10.5816
▁બગ	-10.5818
પ્રા	-10.5822
-200	-10.5824
▁મૃત	-10.5828
days	-10.583
▁પૈકી	-10.5832
zimbabwe	-10.5832
▁અભિગમ	-10.5832
▁શિકાગો	-10.5832
▁પરાક્રમ	-10.5832
▁લાંબો	-10.5832
▁સ્માર્ટફોન	-10.5833
▁પાળ	-10.5833
▁ગીતશાસ્ત્ર	-10.5833
▁બદલાવ	-10.5834
▁કતાર	-10.5836
▁કિટ	-10.5837
▁With	-10.5837
▁ગ્રહ	-10.5837
020	-10.5838
▁ડ્રોપ	-10.5845
▁ભૂત	-10.5851
▁હકીકતમાં	-10.5853
PH	-10.5855
▁પદાર્થ	-10.5856
2012	-10.5865
▁MD	-10.5866
માત્ર	-10.5868
▁ઉન્નત	-10.5868
હ્યુ	-10.587
HZ	-10.5874
tive	-10.5876
ura	-10.5882
જ્યારે	-10.5888
▁પાડેલ	-10.5889
ino	-10.589
Indian	-10.5894
્રા	-10.5897
ઈસ	-10.5898
▁SlotJar	-10.59
▁ઈતિહાસ	-10.59
▁ડિફૉલ્ટ	-10.59
▁મેડિકલ	-10.59
у	-10.59
▁"{0}"	-10.59
▁વોટરપ્રૂફ	-10.59
▁સ્નાયુ	-10.59
2005-2018	-10.59
▁પાર્ટ્સ	-10.5901
▁ફિટિંગ	-10.5901
▁year	-10.5901
▁વર્ત	-10.5904
▁લેખો	-10.5906
▁હુકમ	-10.5907
▁VPS	-10.5908
102	-10.5908
વવા	-10.5909
પત્	-10.5911
▁our	-10.5922
▁text	-10.5924
▁અભ્યાસક્રમ	-10.5926
▁મુશ્કેલીઓ	-10.5928
▁તકો	-10.5928
▁નીકળ	-10.5935
▁સજા	-10.5936
▁ક્ષેત્રમાં	-10.5936
▁જોડો	-10.5936
▁નોડ	-10.5937
!!!	-10.5938
▁750	-10.5939
607,	-10.5939
▁ઉપજ	-10.5939
▁Ko	-10.5946
▁સૂચવે	-10.5949
▁યરૂશાલેમમાં	-10.595
NAME	-10.5957
ડબલ્યુ	-10.5958
uri	-10.5959
▁સેવક	-10.596
▁વિચારું	-10.596
▁હેર	-10.596
▁43	-10.5961
▁ભગવાનની	-10.5963
use	-10.5963
▁Ca	-10.5966
▁વોટ	-10.5968
▁ચૂકવવા	-10.5968
▁જોડાઈ	-10.5969
▁પ્રસંગ	-10.5969
gl	-10.597
વિદ્યા	-10.597
▁વચનો	-10.5974
▁720	-10.5981
▁જોશો	-10.5982
▁આકર્ષક	-10.5982
wp	-10.5982
▁દોડ	-10.5982
▁દાસ	-10.5985
ર્ફ	-10.5988
▁મોટે	-10.5989
709,	-10.5996
ક્રો	-10.5997
meter	-10.6
▁ઊઠ	-10.6
▁નોકર	-10.6003
▁સમાવી	-10.6008
▁બાર્	-10.6009
▁છાપન	-10.6011
▁યોજનાઓ	-10.6012
▁સર્જ	-10.6016
`	-10.6028
mark	-10.6037
▁અંધકાર	-10.6038
▁વર્તણૂક	-10.6038
▁સમયગાળો	-10.6038
▁ત્વચા	-10.6038
▁સંઘર્ષ	-10.6038
▁GNU	-10.6038
Ctrl	-10.6038
▁ઇન્ડિયા	-10.6039
board	-10.604
ere	-10.6041
બાય	-10.6042
▁પાછું	-10.6048
▁પેક	-10.6051
▁મૂકવામાં	-10.6053
▁અધિકારી	-10.6056
▁નકાર	-10.6058
▁રિલે	-10.6061
બ્લ	-10.6064
▁fa	-10.6066
ર્પ	-10.607
▁ત્યાર	-10.6071
▁વધે	-10.6075
▁કાન્સ	-10.6076
▁અમલમાં	-10.6079
▁ખરીદવા	-10.608
▁બદલાવો	-10.6085
▁નંબરો	-10.609
▁વ્હીલ	-10.6091
▁શાંત	-10.6101
▁ખરીદે	-10.6103
Description	-10.6104
▁Pas	-10.6106
▁અગત્ય	-10.6107
▁ઈકોમર્સ	-10.6107
▁ગુઆંગડોંગ	-10.6107
▁ટેક્નોલોજી	-10.6107
▁ન્યૂનત્તમ	-10.6107
▁બાર્નાબાસ	-10.6107
▁ભંડોળ	-10.6107
▁રીસોર્ટ્સ	-10.6107
▁Global	-10.6107
▁વોલપેપર	-10.6107
▁આમંત્રણ	-10.6107
▁માતાપિતા	-10.6107
▁રહસ્ય	-10.6107
▁ITC	-10.6107
▁જન્મદિવસ	-10.6107
▁બગડેલ	-10.6108
▁વલણ	-10.6108
▁લગાવ	-10.6114
▁PCI	-10.6116
▁શરમ	-10.6118
▁તારે	-10.6124
▁સફાઈ	-10.6124
રાવ	-10.613
▁En	-10.6136
▁પીપી	-10.6148
રાગ	-10.6149
▁આપણું	-10.6149
list	-10.615
▁મેરી	-10.6151
▁મેટા	-10.6155
▁તીવ્ર	-10.6161
help	-10.617
▁1.2	-10.6172
▁[...]	-10.6177
▁બ્રિટિશ	-10.6177
▁પ્રતિસાદ	-10.6177
▁વિશ્વભરમાં	-10.6177
▁ઉર્જા	-10.6178
▁મિરર	-10.6178
▁ઓછો	-10.618
▁કેનેડા	-10.618
▁ભેજ	-10.6181
ગાર	-10.6183
▁ગુણ્યા	-10.6185
layer	-10.6189
▁૨૧	-10.6192
▁બન્યા	-10.6193
▁જેટલી	-10.6195
ડાં	-10.6204
વુડ	-10.6211
▁આદર	-10.6213
▁દર્શાવી	-10.6214
▁અત્યાર	-10.6219
auto	-10.6222
▁Lo	-10.6228
▁પાઉલને	-10.623
લાલ	-10.6235
▁ખે	-10.6237
▁4.0	-10.624
કેટલાક	-10.6243
▁હાઈ	-10.6243
▁check	-10.6247
▁કટોકટી	-10.6247
▁સ્કાયપે	-10.6247
▁ગિટાર	-10.6247
romania	-10.6247
▁ટ્રેડમિલ	-10.6248
▁ચૂકવણું	-10.6248
▁LLC	-10.6248
▁Fe	-10.6251
▁જરુરી	-10.6251
▁ફાર્મ	-10.6253
▁શકાઈ	-10.6253
▁ગોઠવ	-10.6257
▁મદદરૂપ	-10.6258
▁સવારે	-10.6259
▁સ્વા	-10.6259
char	-10.627
USD	-10.627
ara	-10.6271
▁ડીજે	-10.6274
▁પ્રવેશો	-10.628
▁વર્ષનો	-10.6285
▁રહેલા	-10.6287
avi	-10.6288
▁જમા	-10.6289
▁લાખો	-10.629
TY	-10.6296
પણા	-10.6298
▁કહેશે	-10.63
128	-10.6301
103	-10.6303
▁ફરજ	-10.6307
સ્થા	-10.6308
▁સુકા	-10.6313
ડિઓ	-10.6316
/09/2019	-10.6318
▁ગેરહાજર	-10.6318
▁પ્રખ્યાત	-10.6318
▁લાઈસન્સ	-10.6318
▁ફેડરલ	-10.6318
▁જાળવણી	-10.6319
▁અં	-10.6319
tar	-10.6323
▁જાણ્યું	-10.6327
▁કહેતા	-10.6327
▁કહીશ	-10.6328
▁ચેનલો	-10.6334
▁દેવા	-10.6338
fa	-10.634
અસ	-10.6345
લોગ	-10.6345
▁1200	-10.6349
▁રાજ્યમાં	-10.6352
▁XP	-10.6353
▁કોઇલ	-10.6355
▁જોડાણને	-10.6357
▁ખાન	-10.6365
▁વેચ	-10.6369
▁450	-10.6369
▁યાદીમાંથી	-10.6384
મું	-10.6387
▁દુનિયામાં	-10.6387
▁મહત્વની	-10.6388
▁ચોંટાડો	-10.639
▁પ્રમોશન	-10.639
▁રવિવાર	-10.639
▁સંકલિત	-10.639
▁સાયન્સ	-10.639
▁થોમસ	-10.639
▁મિલકત	-10.639
star	-10.6391
VAC	-10.6392
▁જવાબદાર	-10.6394
ગુજરાતી	-10.6395
▁ટોકન	-10.6398
▁ઘા	-10.64
▁હોવાથી	-10.6404
જનક	-10.6404
UTF	-10.6406
▁Que	-10.6406
▁પાપો	-10.6408
સ્કા	-10.6408
rg	-10.641
▁Read	-10.6413
over	-10.6414
▁બનાવટ	-10.6415
▁000	-10.6417
ute	-10.6421
Player	-10.6425
▁વ્યક્તિએ	-10.6426
ગ્યુ	-10.6428
-60	-10.6435
▁user	-10.6439
ISO	-10.6443
▁ખાતાઓ	-10.6444
▁નવે	-10.6461
▁Ethereum	-10.6462
▁ધરાવતી	-10.6462
▁વ્યાજ	-10.6462
પસંદ	-10.6462
▁વળાંક	-10.6463
▁વહેંચ	-10.6465
▁શાસ્ત્રીઓ	-10.6466
▁ચોક	-10.6477
▁રજાઓ	-10.6477
▁પોપ	-10.6477
▁26,	-10.6483
my	-10.6483
▁ખાતું	-10.6484
eek	-10.6485
▁સાજો	-10.6486
▁હોંગ	-10.6487
▁ભાગે	-10.6501
▁મહિલાઓ	-10.6502
▁કર્મ	-10.6504
▁ખ્રિસ્તની	-10.6505
Show	-10.6507
pot	-10.6507
press	-10.6511
▁q	-10.6512
કોન	-10.6516
▁2018-10-	-10.652
ફાઇ	-10.653
▁Ri	-10.6531
▁great	-10.6532
▁પિન	-10.6533
▁કંટ્રોલ	-10.6534
▁પ્રત્યુત્તર	-10.6534
▁મલ્ટિ	-10.6534
▁તણાવ	-10.6534
▁ઝેરી	-10.6535
▁ગલન	-10.6535
×	-10.6536
▁મિશ્રિત	-10.6536
▁છેલ્લો	-10.6536
▁પહોંચાડ	-10.6536
▁li	-10.6537
▁શાઉલ	-10.6538
▁ભી	-10.6538
▁એકદમ	-10.6538
▁સર્જન	-10.6543
112	-10.6543
▁પેઇન્ટ્સ	-10.6547
જ્ઞ	-10.6549
રોન	-10.6551
શરૂ	-10.6554
410	-10.6557
▁રણ	-10.6557
▁ME	-10.6557
▁સમાપ્તિ	-10.6559
▁કાસ્ટ	-10.6564
▁સંશોધકો	-10.6564
▁any	-10.6571
િયર	-10.6577
મ્યુ	-10.6579
▁ભૂતકાળમાં	-10.6582
▁ઉડ	-10.6585
▁95	-10.6585
ઝેડ	-10.6586
orn	-10.6586
emb	-10.659
▁તમારુ	-10.6591
▁રડ	-10.6591
બ્રે	-10.6593
▁હસ્ત	-10.6594
▁વધારાના	-10.6595
ધામ	-10.6595
fu	-10.6597
9.00	-10.6599
▁ક્યુ	-10.6601
▁ઇમેલ	-10.6601
Spot	-10.6602
▁હોસ્ટ	-10.6603
104	-10.6603
▁Net	-10.6606
▁ધ્યેય	-10.6607
▁માપદંડ	-10.6607
▁સિરામિક	-10.6607
▁વસ્તી	-10.6607
▁ફ્રોમ	-10.6607
▁સ્ટીકર	-10.6607
▁શેરીઓમાં	-10.6607
▁ગ્રંથ	-10.6608
▁રાજકીય	-10.6608
▁પુનર્	-10.6608
▁વહેંચણી	-10.6609
▁રૂબલ	-10.6609
Image	-10.661
▁સ્તરે	-10.661
▁હત્યા	-10.6611
બિટ	-10.6615
▁પડ્યો	-10.6618
રિન	-10.6618
▁બંધબેસતા	-10.6619
ole	-10.6619
▁પારદર્શક	-10.6619
▁My	-10.662
▁જીવવા	-10.6627
▁પોલી	-10.6628
nel	-10.663
cor	-10.6633
▁ઇલેક્ટ્રોનિક્સ	-10.6633
▁EX	-10.6633
bre	-10.6642
mat	-10.6648
▁Ki	-10.6649
▁Or	-10.6655
ટલા	-10.6656
▁ટાઇ	-10.666
▁કેમ્પ	-10.6666
▁કનેક્ટર	-10.667
દૂર	-10.6675
350	-10.6675
ટીમ	-10.6676
▁Business	-10.6681
▁ધૂળ	-10.6681
▁જ્યોર્જ	-10.6681
content	-10.6681
razil	-10.6681
▁ગુલામ	-10.6681
▁છુપાયેલ	-10.6681
▁આઉટડોર	-10.6682
self	-10.6691
▁ફોટોગ્રાફ	-10.6693
ark	-10.6693
rypt	-10.6694
▁ભૂખ	-10.6695
▁Gujarat	-10.67
▁દિવસોમાં	-10.6701
▁ખાધ	-10.6707
▁લૂક	-10.6711
▁PI	-10.6711
▁લેવાય	-10.6714
▁નાદ	-10.6715
લોડ	-10.6718
મિલ	-10.672
ink	-10.6721
ધો	-10.6723
-100	-10.6723
▁સમર્થન	-10.6725
બીએસ	-10.6725
કળા	-10.6728
ati	-10.6729
રામ	-10.6735
કોર	-10.6745
▁ઘાત	-10.6746
▁સમયગાળા	-10.6755
▁ઓનલાઈન	-10.6755
▁હિસ્ટ્રી	-10.6755
▁આલેખ	-10.6756
▁ક્લબ	-10.6756
▁આઇકોન	-10.6758
eb	-10.6758
▁સાચો	-10.6762
▁બૂમ	-10.6765
▁DN	-10.6766
▁ટાઇલ્સ	-10.6768
▁ખોલ	-10.677
▁આવ્યુ	-10.6772
▁ભવ્ય	-10.6773
▁સાદ	-10.6774
▁sc	-10.6778
▁નાગરિક	-10.6784
▁By	-10.6785
▁દુકાનો	-10.679
▁પાસવર્ડને	-10.6794
▁MI	-10.6795
▁જાણીતા	-10.6798
hang	-10.6804
1-2	-10.6808
zip	-10.681
્રેટ	-10.6811
▁જંગલ	-10.6812
▁સદી	-10.6813
▁દવાઓ	-10.6814
ju	-10.6816
▁સુંદરતા	-10.682
▁Man	-10.6821
bel	-10.6829
Pirater	-10.6829
▁Gratuit	-10.6829
▁ઑબ્જેક્ટ	-10.6829
▁સાહિત્ય	-10.6829
palette	-10.6829
л	-10.6829
▁સ્લાઇડ	-10.683
▁ચાર્ટ	-10.6833
▁ગ્રીક	-10.6834
▁માર્કેટ	-10.6834
▁સ્વિસ	-10.6835
mit	-10.6837
OU	-10.6837
Constellation	-10.6838
url	-10.684
▁off	-10.6841
▁32.00	-10.6844
બદ્ધ	-10.6846
▁અનંત	-10.6847
▁ક્રિયાને	-10.6857
ભૂત	-10.6858
ભરી	-10.6868
▁હાથમાં	-10.6872
▁લોટ	-10.6878
▁પકડવા	-10.6881
્યુલર	-10.6902
yo	-10.6903
.04.2019	-10.6905
▁વત્તા	-10.6905
▁Open	-10.6905
▁માઇલ	-10.6905
Action	-10.6905
▁ટાયર	-10.6907
▁ઊં	-10.6907
▁પ્રદેશમાં	-10.6911
train	-10.6911
▁Pay	-10.6917
att	-10.6917
▁સંતો	-10.6921
MHZ	-10.6925
▁0.2	-10.693
▁ટ્રસ્ટ	-10.6936
▁સામ	-10.6941
▁કન્વર્ટ	-10.6942
▁કણો	-10.6945
વિધ	-10.6952
▁સોય	-10.696
▁LT	-10.6961
9.99	-10.6962
▁ફેરવવા	-10.6964
▁અટક	-10.6966
▁પૂ	-10.6974
▁Image	-10.6978
▁બિંદુઓ	-10.698
▁teether	-10.698
▁ટ્રાન્ઝિશનલ	-10.698
▁બ્લુટુથ	-10.698
▁દ્ધારા	-10.698
▁વિદેશમાં	-10.698
▁કડક	-10.6981
ડેનિસ	-10.6981
▁પરિપૂર્ણ	-10.6981
Tech	-10.6981
▁સિંગલ	-10.6982
▁રેટેડ	-10.6982
▁સૈનિકો	-10.6983
▁આપણો	-10.6983
%%)	-10.6984
▁રેન્જ	-10.6984
▁ચકાસે	-10.6984
▁900	-10.6986
▁લેવાની	-10.6986
▁ખૂણા	-10.6987
▁વહીવટ	-10.6992
▁BE	-10.6994
▁પ્રેમીઓ	-10.6995
▁વ્ય	-10.6996
મ્બો	-10.6997
▁પાછળથી	-10.7001
▁દંડ	-10.7003
મ્બા	-10.7005
▁રમો	-10.7007
▁કોમ્પ્યુટર	-10.7008
મ્બર	-10.7009
▁બુકમાર્કો	-10.7012
▁જોડવા	-10.7014
શ્ય	-10.703
▁ક્લિપબોર્ડમાં	-10.703
201	-10.7032
wt	-10.7039
▁કક્ષ	-10.7041
▁app	-10.7043
450	-10.705
▁બાલ	-10.7055
ન્ડા	-10.7056
▁તાજેતરમાં	-10.7057
▁પ્રસ્તુત	-10.7057
▁વિધાનસભા	-10.7057
▁શનિવાર	-10.7057
▁ટેબ્લેટ	-10.7057
▁ચરબી	-10.7057
▁સ્ટેનલેસ	-10.7057
▁ફેબ્રિક	-10.7057
240	-10.7058
▁મમ્મીએ	-10.7062
▁ઊંચાઇ	-10.7063
▁વિકસિત	-10.7063
▁ne	-10.7065
symbols	-10.7065
km	-10.7069
આગળ	-10.707
▁મૂડી	-10.7071
sha	-10.7075
▁LTC	-10.7078
▁તંદુરસ્ત	-10.7083
▁org	-10.7086
▁વિચારી	-10.7088
રુપ	-10.7088
▁શિષ્ય	-10.7089
▁કાયમી	-10.709
▁વોર	-10.7093
ગ્રામ	-10.7095
▁ઈચ્છ	-10.7096
ible	-10.7099
▁કાટ	-10.7101
ગ્ન	-10.7103
▁આપીએ	-10.7103
▁શીખ	-10.7106
▁અભ્યાસક્રમો	-10.7107
▁ઓન	-10.7108
▁કલાકો	-10.7109
tablet	-10.7111
▁લૂ	-10.7117
▁વિસ્તારોમાં	-10.7123
▁હોડ	-10.7124
304	-10.7126
▁ડોક	-10.713
▁છુપા	-10.7132
≥98%	-10.7134
▁મુદ્દો	-10.7134
Key	-10.7134
▁IMAP	-10.7135
▁સંજ્ઞા	-10.7136
▁લીધા	-10.7138
સ્પે	-10.7139
▁રાણી	-10.714
ipp	-10.7141
▁ખુલ	-10.7145
▁પિલાતે	-10.7145
▁29,	-10.7146
▁મેજ	-10.7146
▁50%	-10.7147
▁(6)	-10.7148
િસ્ટ	-10.7151
બેન	-10.7162
ફ્લે	-10.7163
▁પાનાંઓ	-10.7164
▁સ્થળો	-10.717
▁પર્વત	-10.7171
▁ચૂકવ	-10.7177
ICS	-10.7177
IG	-10.7178
▁સંપર્કોને	-10.7183
amb	-10.7186
▁ચંદ્ર	-10.7189
▁comp	-10.7192
▁જાહેરાતો	-10.7204
સ્પી	-10.7206
▁Software	-10.7211
▁navigation	-10.7211
▁દીધું	-10.7211
▁લાઇસન્સ	-10.7211
▁કાયદો	-10.7211
▁ધીરજ	-10.7211
▁શોપિંગ	-10.7211
channel	-10.7211
▁કચરો	-10.7211
▁દ્વિ	-10.7212
▁republic	-10.7212
▁અર્પણ	-10.7212
▁જાળીદાર	-10.7213
▁ધીમે	-10.7213
▁ચિટ્સ	-10.7213
hol	-10.7217
▁ઉપયોગિતા	-10.7217
▁૫૩	-10.7217
શોધ	-10.7217
▁0.9	-10.7218
▁તરંગ	-10.7219
વિન	-10.7222
▁આત્માઓ	-10.7223
▁ગ્રાફિક	-10.7224
Coin	-10.723
▁one	-10.7232
▁સાજા	-10.7234
્તા	-10.7242
134	-10.7246
orea	-10.7257
▁ગ્રાહકોને	-10.7265
▁લાવ્યા	-10.7266
▁પાછુ	-10.7277
eat	-10.7286
Private	-10.7289
PropertyName	-10.7289
ä	-10.7289
í	-10.7289
▁unlimited	-10.7289
▁અદ્ભુત	-10.7289
▁ક્રિસમસ	-10.7289
▁વ્યવસ્થિત	-10.7289
▁સંતુલન	-10.7289
▁સંલગ્ન	-10.7289
▁સુઝુકી	-10.7289
▁દુઃખ	-10.7289
▁સિક્કા	-10.7289
▁SQL	-10.7289
▁કઇ	-10.7289
ફ્રે	-10.729
▁સમયસમાપ્તિ	-10.729
▁શાળાઓ	-10.7291
બિન	-10.7299
▁ક્રશ	-10.73
▁સહભાગી	-10.7307
▁ઓર્	-10.7308
▁હેલો	-10.7312
ચિત્ર	-10.7316
▁સ્લ	-10.7322
0.000	-10.7327
▁થવાની	-10.7329
દર્શ	-10.733
tw	-10.7337
▁ES	-10.7341
Pro	-10.7349
ost	-10.7356
▁ગિ	-10.7356
war	-10.736
ર્ણ	-10.7366
▁2011-2012	-10.7368
▁ફોકસ	-10.7368
▁પ્રેરક	-10.7368
▁ઇલેક્ટ્રીક	-10.7368
error	-10.7368
video	-10.7368
▁હંમેશાં	-10.7368
▁નિષ્ણાતો	-10.7369
▁આવતો	-10.7369
▁એલાર્મ	-10.7369
▁સોલ	-10.737
▁ઓફસેટ	-10.7372
યાં	-10.7372
▁જહાજ	-10.7372
▁ટકાઉ	-10.7375
▁પ્રકરણ	-10.7377
ાયેલી	-10.7377
ફિલ	-10.738
▁160	-10.738
ôl	-10.738
ier	-10.7381
માપ	-10.7382
▁કોરિયા	-10.7383
ચ્ચ	-10.7386
▁રાજ્યો	-10.7387
Black	-10.7389
વાદળી	-10.7391
▁ગુરુ	-10.7391
225	-10.7392
▁wBuyBuy	-10.7393
hot	-10.7397
▁Jet	-10.74
▁દીકરાને	-10.74
▁માણસનો	-10.7401
▁મંદિરમાં	-10.7403
▁સુધારક	-10.7404
▁એકમાત્ર	-10.7405
▁વસ્ત્ર	-10.7406
▁માંગુ	-10.7406
▁લાગી	-10.7408
050	-10.7411
not	-10.7412
▁સ્થાપક	-10.7414
▁સીલ	-10.7415
▁આપીશ	-10.7419
icker	-10.7422
▁VM	-10.7429
▁બંધારણમાં	-10.7433
hd	-10.744
▁ઝુ	-10.744
▁પેડ	-10.7443
▁ઇન્સ્ટોલ	-10.7446
lithuania	-10.7447
▁municipalit	-10.7447
▁ફાયરફોક્સ	-10.7447
ѕ	-10.7447
ر	-10.7447
▁afeat	-10.7447
▁ટિકિટ	-10.7447
▁ઇટાલી	-10.7447
▁દરરોજ	-10.7447
▁સમીકરણ	-10.7449
▁જઈને	-10.745
Fou	-10.7451
▁પ્રોસેસિંગ	-10.7452
eu	-10.7454
ન્ડે	-10.7454
▁લિપિ	-10.7455
▁લ્યુ	-10.7455
▁દર્દી	-10.7473
▁દર્શાવેલ	-10.7479
▁ગ્લ	-10.7482
પછી	-10.7483
યેલ	-10.7485
▁IS	-10.7486
filters	-10.749
▁મૃત્યુમાંથી	-10.7492
▁વર્તમાનમાં	-10.7493
▁ટુર	-10.7496
▁ટ્રક	-10.7499
▁FL	-10.7512
▁HS	-10.7514
શક્તિ	-10.7518
ili	-10.752
eta	-10.7521
▁OS	-10.7521
કૃષ્ણ	-10.7526
▁લાખ	-10.7526
▁કૃષિ	-10.7527
▁જનરલ	-10.7527
▁એટલું	-10.7527
▁લાંબુ	-10.7527
▁તુલના	-10.7528
▁સહયોગ	-10.7528
}}	-10.7529
સાન	-10.7538
andy	-10.7542
૦૦૦	-10.7545
▁નાખી	-10.7545
▁ખીલ	-10.7546
▁અરે	-10.755
tro	-10.7551
▁ક્રિસ્ટલ	-10.7552
ગ્રી	-10.7552
▁પૅ	-10.7555
▁ચઢ	-10.7556
130	-10.7561
▁બેચ	-10.7562
▁II	-10.7563
155	-10.7564
ગ્રહ	-10.7571
▁ખૂ	-10.7573
ર્ધ	-10.7575
▁સાથ	-10.7579
▁4000	-10.7591
▁1999	-10.7592
▁મીની	-10.7594
▁બેબી	-10.7596
▁મુક્તિ	-10.7601
ica	-10.7601
650	-10.7607
▁Instagram	-10.7608
▁Public	-10.7608
▁કાઉન્ટી	-10.7608
▁વૈવાહિક	-10.7608
▁મોઢું	-10.7608
▁પુનરાવર્તન	-10.7608
ર્મો	-10.7612
▁કરાવવા	-10.7613
▁અમારે	-10.7614
▁ભજવ	-10.7614
▁ઉમેરવામાં	-10.7616
▁મૂસા	-10.7632
લોકડાઉન	-10.7635
▁EST	-10.7635
245	-10.7638
એમએમ	-10.764
▁સંયોજન	-10.7645
▁ટૂંકાણ	-10.7651
hua	-10.7659
▁Cr	-10.7666
▁વાહનો	-10.767
dir	-10.7676
ઇન્ટ	-10.7686
▁ભાગીદાર	-10.7688
▁કૌંસ	-10.7689
▁સૂક્ષ્મ	-10.7689
і	-10.7689
▁સાહેબ	-10.7689
▁બટલર	-10.7689
▁બેઠો	-10.7689
hostface	-10.769
▁અમર્યાદિત	-10.7691
▁online	-10.7692
▁ગર્વ	-10.7692
▁પાર્ટી	-10.7693
▁માસ	-10.7694
ise	-10.7695
ોઇડ	-10.7697
▁સમજણ	-10.7698
ગેટ	-10.7698
▁શકતું	-10.7702
▁કોટિંગ	-10.7703
▁કાળી	-10.7704
ized	-10.7706
ડવું	-10.7708
િન્	-10.7709
▁વેપારી	-10.7716
iran	-10.7721
▁કાર્ટ	-10.7721
ask	-10.7724
▁અણુ	-10.7729
ેટર	-10.7731
albi	-10.7731
▁વાવ	-10.7734
▁ત્ર	-10.7737
▁કોમ્પ	-10.7739
▁ઉત્પાદકતા	-10.7746
▁વિશ્વાસી	-10.7746
uj	-10.775
zh	-10.7752
નારાઓ	-10.7761
▁વાડ	-10.7764
▁અનુક્રમ	-10.7768
ö	-10.7771
▁System	-10.7771
▁ટુંકાણ	-10.7771
▁ટ્રેઇલર્સ	-10.7771
▁તબક્કો	-10.7771
▁સબ્સ્ક્રાઇબ	-10.7771
▁સંભાવના	-10.7771
▁મૂલ્યાંકન	-10.7771
▁કલીક	-10.7772
▁સાધુ	-10.7779
▁ફાઇલનામ	-10.778
▁Tool	-10.7783
dia	-10.7785
▁હિટ	-10.779
લિયા	-10.7798
▁જવાબો	-10.7799
▁આપતી	-10.7799
755	-10.78
▁કિંગ	-10.7801
▁ખાડી	-10.7804
▁પૂલ	-10.7806
!’	-10.7807
ted	-10.781
▁ચિપ	-10.7811
▁વડા	-10.7812
▁વર્	-10.7813
ટેડ	-10.7814
▁પહેલી	-10.7816
cial	-10.7818
▁DR	-10.782
▁And	-10.7836
-05-	-10.7837
▁ઈન	-10.7838
વર્ષ	-10.7845
▁વાંચવામાં	-10.7845
wan	-10.7847
▁અંશ	-10.7848
▁એક્સપ્રેસ	-10.7854
▁ક્રાંતિ	-10.7854
▁દુશ્મન	-10.7854
▁નિશ્ચિત	-10.7854
▁આવર્તન	-10.7854
▁કન્સેપ્ટ	-10.7854
▁રાજ્યાસન	-10.7854
JPY	-10.7855
▁ધન્ય	-10.7855
▁તૂટી	-10.7856
230	-10.7856
▁`	-10.7857
▁જરુંર	-10.7857
phone	-10.7857
▁ઇચ્છિત	-10.7858
બ્બ	-10.7861
ર્વ	-10.7872
▁vir	-10.7874
▁બનાવ્યા	-10.7874
▁ટચ	-10.7874
▁ચુક	-10.7877
▁ઉદ્	-10.7878
▁રમી	-10.788
▁group	-10.7882
▁રીડર	-10.7884
ker	-10.789
▁છુપાવો	-10.7891
ત્તમ	-10.7892
▁બદલાય	-10.7893
▁હેકર	-10.7894
▁MO	-10.7894
1.2	-10.7896
▁પથ	-10.79
cam	-10.7903
માટે	-10.7904
▁બોટ	-10.7914
▁window	-10.7922
▁સેન્સર	-10.7922
▁માયા	-10.7931
▁Jailbreak	-10.7937
▁ઘેટાં	-10.7937
▁પ્રશંસા	-10.7937
▁ટાળ્યાનું	-10.7937
▁મોજણી	-10.7937
▁સચોટ	-10.7937
▁અવકાશ	-10.7937
▁સ્ક્રોલ	-10.7937
▁ટકાવારી	-10.7937
▁ડીવીડી	-10.7937
▁સીડી	-10.7937
▁ત્રીજા	-10.7937
▁કેડીઇ	-10.7938
▁ભેદ	-10.7939
ફ્લ	-10.7939
▁ઉડાન	-10.7939
▁સંચાર	-10.7941
યં	-10.7942
part	-10.7943
weta	-10.7943
▁પમ્પ	-10.7952
▁લાઇટિંગ	-10.7957
▁દીવ	-10.7958
▁ખેડૂતો	-10.7961
135	-10.7964
▁કાન	-10.7971
ઊ	-10.7973
▁દુર્	-10.7978
▁BI	-10.7978
▁ડોઝ	-10.798
ટાઉન	-10.7986
▁ફેરવી	-10.799
▁શાહી	-10.799
▁વેટ	-10.7991
2014	-10.7995
ફેક્ટ	-10.7999
▁RF	-10.8005
RU	-10.8009
▁દ્રષ્ટિ	-10.8009
સાઇ	-10.8017
▁ચુંબક	-10.8019
ડબ્લ્યુ	-10.8019
▁પૃષ્ઠો	-10.8019
▁જ્વેલરી	-10.8021
▁હકારાત્મક	-10.8021
▁શીપીંગ	-10.8021
▁સન્માન	-10.8021
▁વ્હાઇટ	-10.8021
▁POR	-10.8022
▁ઋગ	-10.8022
▁apk	-10.8022
▁કહ્યા	-10.8023
▁કિશોર	-10.8023
▁ફાઇલસિસ્ટમ	-10.8025
▁ટાવર	-10.8026
▁ગુડ	-10.8026
{{	-10.8028
િનો	-10.8029
▁ડિમન	-10.8029
▁ખરા	-10.8031
▁વાયુ	-10.8032
આઉટ	-10.8038
▁ગ્રાફિક્સ	-10.8039
▁જતાં	-10.804
None	-10.8041
▁5000	-10.8044
સ્થાપિત	-10.8046
▁અર્	-10.8048
▁બેડ	-10.8049
▁મૂલ્યો	-10.805
પીએસ	-10.8058
ક્ષેત્ર	-10.8059
▁પિક્સેલો	-10.8065
વેબ	-10.8067
▁નાખવામાં	-10.807
▁BTC	-10.8074
ird	-10.8074
▁Top	-10.808
▁ગ્રેટ	-10.8081
5.00	-10.8084
reg	-10.8085
▁પગલાં	-10.8087
▁બેસી	-10.8089
▁140	-10.8097
2.0	-10.8101
▁રહ	-10.8101
▁પ્રભુના	-10.8102
▁0.00	-10.8104
▁જિમ	-10.8104
▁700	-10.8105
olombia	-10.8106
▁California	-10.8106
▁Technology	-10.8106
▁ઠંડક	-10.8106
▁મેટાડેટા	-10.8106
▁મૈત્રીપૂર્ણ	-10.8106
▁લાઈબ્રેરી	-10.8106
▁લૌરા	-10.8106
▁વિપરીત	-10.8106
▁સુન્નત	-10.8106
▁લન્ડન	-10.8106
mobile	-10.8106
▁મેલફોર્મ	-10.8106
▁HGH	-10.8106
▁Facebook	-10.8106
PSC	-10.8106
▁Ltd	-10.8107
▁અંહિ	-10.8107
▁બનાવનાર	-10.8107
▁ઉજવણી	-10.8107
▁240	-10.8107
▁સોફ્ટ	-10.8108
lit	-10.8109
▁Che	-10.811
▁સસ્તા	-10.811
્ફ	-10.8111
િયસ	-10.8112
▁માનવામાં	-10.8115
esh	-10.8115
▁સારુ	-10.8116
▁અંતઃકરણ	-10.8118
ભે	-10.8119
▁જાણતો	-10.8122
▁પ્લા	-10.8123
▁ડાઉન	-10.8124
380	-10.8124
▁તીવ્રતા	-10.8125
▁દોષ	-10.8126
આરએફ	-10.8129
▁DI	-10.8131
▁ટૉ	-10.8133
oz	-10.8137
શિયા	-10.8146
▁વેબસાઇટ્સ	-10.8147
lm	-10.8147
▁ભગવાનને	-10.815
ત્મક	-10.815
▁61	-10.8152
▁ચોરી	-10.8155
▁આકાશમાંથી	-10.8159
▁ભાષામાં	-10.8161
▁દિન	-10.8165
▁પરિણામે	-10.817
▁સંબંધી	-10.8173
▁નર્સ	-10.8176
જ઼	-10.818
▁મેટર	-10.8181
card	-10.8186
▁ગુમાવી	-10.819
▁વિદ્યાર્થીઓને	-10.8191
▁લાયક	-10.8191
.05.2019	-10.8191
▁Corporation	-10.8191
▁ઇલિનોઇસ	-10.8191
▁એનિમેશન	-10.8191
▁એરક્રાફ્ટ	-10.8191
▁ડેવલપમેન્ટ	-10.8191
▁યાંત્રિક	-10.8191
▁હમેશા	-10.8191
▁ખાણકામ	-10.8192
▁અડધા	-10.8193
▁૬૮	-10.8194
▁શાફ્ટ	-10.8195
▁કોફી	-10.8197
▁એન્જિનિયરિંગ	-10.8197
za	-10.8204
▁વિચારે	-10.8204
zo	-10.8204
▁ડીલ	-10.8208
▁Mac	-10.8212
▁આપતો	-10.8215
▁ક્લિપબોર્ડ	-10.8222
▁દરિયા	-10.8225
▁ગોળ	-10.8226
chat	-10.8226
isk	-10.8227
XXXX	-10.8229
▁image	-10.823
ection	-10.8232
▁ડિરેક્ટરીને	-10.8232
ચિહ્ન	-10.8233
વસ્તુ	-10.8236
ઠી	-10.8238
યોન	-10.824
▁કાપો	-10.8245
▁૧૦૦	-10.8245
▁આપવાની	-10.8248
▁સ્પે	-10.8249
▁84	-10.8254
▁બોલતા	-10.8256
▁ગાળકો	-10.8257
▁સ્થાને	-10.8261
▁bug	-10.8261
▁પોલ	-10.8261
કોલ	-10.8264
રિસ	-10.8264
▁કાચો	-10.8275
▁કૂકી	-10.8276
202	-10.8277
▁સરક	-10.8277
▁લાક્ષણિક	-10.8278
▁December	-10.8278
▁weekday	-10.8278
▁કારકિર્દી	-10.8278
▁કાવાસાકી	-10.8278
▁સિલિન્ડર	-10.8278
▁હ્રદય	-10.8278
▁August	-10.8278
▁સદા	-10.8278
▁લઘુત્તમ	-10.8278
▁ફ્રેન્ચ	-10.8278
▁અવતાર	-10.8279
▁Txxx	-10.8279
▁●	-10.8281
▁૩૯	-10.8281
▁ટેકો	-10.8281
▁was	-10.8282
▁કુળ	-10.8283
▁ઘડ	-10.8283
▁85.00	-10.8283
પ્પ	-10.8284
▁શીખવવા	-10.8284
વંશ	-10.8286
▁રૂટ	-10.829
888	-10.8291
wing	-10.8292
Trade	-10.8296
▁DNS	-10.8297
ાઇટ	-10.8298
▁બાંધી	-10.8299
shi	-10.83
inland	-10.8302
▁માણ	-10.8304
બ્રો	-10.8305
▁ડૂ	-10.8306
▁મેગા	-10.8313
્રે	-10.8315
▁360	-10.8317
▁નિવૃત્ત	-10.8317
પૃથ્વી	-10.8322
▁હજાર	-10.8322
▁ક્રોન	-10.8326
003	-10.8328
યાદી	-10.8331
▁થો	-10.8333
ફીલ્ડ	-10.8339
ore	-10.8343
▁ન્યૂઝ	-10.8344
▁જેટલા	-10.8349
▁લખાયેલ	-10.8357
fghanistan	-10.8365
twitter	-10.8365
▁ખુલ્લા	-10.8365
▁ગૌરવ	-10.8365
▁ન્યુનત્તમ	-10.8365
▁ધરાવતુ	-10.8365
▁બહુવિધ	-10.8366
▁બહેન	-10.8366
▁વ્હ	-10.8367
▁XNUM	-10.8368
▁સ્વભાવ	-10.8369
▁બોલવા	-10.8373
▁સેલ્સ	-10.8374
▁Ev	-10.8375
વિલ્લે	-10.8376
▁રજા	-10.8376
યાન	-10.8376
▁કુકી	-10.8381
▁Hat	-10.8382
▁turkey	-10.8383
159	-10.8385
▁ફેલાવ	-10.8387
▁સુયોજનોને	-10.8387
▁યુનિ	-10.8388
▁કોષો	-10.8389
▁Real	-10.8391
▁મોકલનાર	-10.8393
▁શુદ્ધતા	-10.8398
exico	-10.8407
▁દાખલા	-10.8407
▁યુક્રેન	-10.8413
max	-10.8414
▁મોકલ્યા	-10.8419
ચિ	-10.843
5.98	-10.8432
▁સ્નાન	-10.8434
▁શીખી	-10.8434
▁સપ્લાયરો	-10.8437
ama	-10.8437
ોલોજી	-10.8439
uff	-10.8444
▁ખરીદ	-10.845
▁TR	-10.8451
▁View	-10.8451
▁પાલ	-10.8452
▁QEMU	-10.8452
▁અપાવનાર	-10.8452
▁પ્રીમિયમ	-10.8452
▁સ્ટેઈનલેસ	-10.8452
▁સંરક્ષણ	-10.8452
▁સર્કિટ	-10.8452
▁નહોતી	-10.8452
▁મશિન	-10.8452
▁જોડાઓ	-10.8453
▁છોકરીઓ	-10.8453
▁મહેનત	-10.8455
▁લાગ્યો	-10.8457
સ્તા	-10.846
▁પેકેજીંગ	-10.8468
▁સુધાર	-10.8469
▁ઈચ્છતા	-10.847
▁રેન્ડર	-10.847
▁ગણિત	-10.8472
▁આવેલી	-10.8474
▁વડીલો	-10.8476
-2019	-10.8477
▁This	-10.848
260	-10.848
▁ફાસ્ટ	-10.8481
▁Mag	-10.8482
hell	-10.8493
બિલ	-10.8495
▁દર્શાવવામાં	-10.8499
{0}	-10.8501
▁UK	-10.8501
ષ્ટિ	-10.8503
▁અર્ધ	-10.8504
▁વિગત	-10.8504
▁ખેંચ	-10.8504
▁બીજે	-10.8513
▁LY	-10.8515
▁કરેલું	-10.8516
▁મેઘ	-10.852
▁૫૦	-10.8524
▁ઉત્સાહ	-10.8527
▁સ્વીકારે	-10.8528
▁અબ	-10.8529
▁ઘસ	-10.8533
ન્ય	-10.8535
▁Kothari	-10.8541
▁November	-10.8541
▁કન્ટેનર	-10.8541
▁વિભાજિત	-10.8541
▁શુભેચ્છા	-10.8541
▁સોસાયટી	-10.8541
▁સ્વામિનારાયણ	-10.8541
▁Products	-10.8541
▁પોઈન્ટ	-10.8541
▁સમાંતર	-10.8541
▁ટેકનિકલ	-10.8541
▁સ્વપ્ન	-10.8542
▁પ્રતિબદ્ધ	-10.8543
▁લાગતું	-10.8543
▁વિસ્તર	-10.8545
▁બન્યો	-10.8546
▁ફાઈલનામ	-10.8547
▁૨૩	-10.8547
▁રાખ્યું	-10.8548
▁બર્	-10.8548
પાસ	-10.8549
▁સળ	-10.855
▁રાખવું	-10.8551
▁જેમણે	-10.8551
▁બનાવશે	-10.8551
▁Porn	-10.8556
▁(0)	-10.8556
▁બોસ	-10.8557
▁જોબ્સ	-10.8566
લેમ	-10.8568
ric	-10.8579
rit	-10.858
▁પામી	-10.8582
ેટેડ	-10.8583
▁જીવે	-10.8585
▁અનુભવો	-10.8589
પ્રકાશ	-10.8592
જીવંત	-10.8594
▁સ્વીકારી	-10.8594
▁સલાહકાર	-10.86
▁સહભાગીઓ	-10.861
0-1	-10.8619
▁માપન	-10.8622
▁આહાર	-10.8626
▁Jizerou	-10.863
▁અદભૂત	-10.863
▁મીણબત્તી	-10.863
▁ગૌણ	-10.863
▁બુધવાર	-10.863
▁2019-02-	-10.863
▁about	-10.863
bonus	-10.863
▁સંગઠન	-10.8631
▁બાંધવામાં	-10.8633
ever	-10.8633
▁અસક્રિય	-10.8634
▁રોયલ	-10.8634
▁નીચી	-10.8635
▁પર્યાવરણીય	-10.8636
રબાની	-10.8636
▁વાર્તાઓ	-10.8638
▁સાચવ	-10.8642
ove	-10.8642
▁વિશ્વની	-10.8646
cap	-10.8646
windows	-10.8647
plc	-10.8648
▁પ્રિન્સ	-10.8648
▁ઇચ્છ	-10.8649
કૂ	-10.8654
4000	-10.8655
▁પ્રભુએ	-10.8655
▁યુએસપી	-10.8655
▁(5)	-10.8657
room	-10.8658
ture	-10.8661
▁૪૦	-10.8663
ous	-10.8663
થાઈ	-10.8665
▁યૂ	-10.8665
▁Gh	-10.8666
Select	-10.8667
▁Bao	-10.8667
▁મહે	-10.8669
ane	-10.8672
▁છોડીને	-10.8675
સિસ	-10.8675
▁દેશે	-10.8677
Add	-10.8677
▁ગ્રાફ	-10.868
▁છોકરા	-10.8685
▁ટૂ	-10.869
oli	-10.8693
KK	-10.8693
▁માણસોએ	-10.8697
▁Apps	-10.8698
▁તેવુ	-10.8701
▁my	-10.8712
▁વાયરસ	-10.8713
▁કલાકારો	-10.8713
▁JIN	-10.8714
▁લઘુ	-10.872
▁Stateville	-10.872
▁Tewhan	-10.872
▁ઓક્સિજન	-10.872
▁ગુણોત્તર	-10.872
▁શબ્દકોષ	-10.872
▁સાંકેતિક	-10.872
Contributions	-10.872
▁કદાપિ	-10.872
▁કાર્યવાહી	-10.872
▁જીત્યાનું	-10.872
▁sonication	-10.872
▁ભૂતપૂર્વ	-10.8721
▁ડોક્ટર	-10.8723
▁બંધબેસતી	-10.8723
▁સૂત્ર	-10.8723
▁ટ્રેનર	-10.8723
▁મુકામ	-10.8724
▁સ્વર્ગ	-10.8725
▁કંઈપણ	-10.8725
▁ઈચ્છું	-10.8727
▁બતાવેલ	-10.8728
gar	-10.8733
▁શોધે	-10.8742
▁શક્યો	-10.8749
▁72	-10.8751
▁દબાવી	-10.8752
▁ગૂ	-10.8758
Media	-10.8759
▁ધો	-10.8759
tag	-10.8765
▁ફેરવ	-10.8766
uch	-10.8766
▁ટેલિ	-10.877
€	-10.8776
પ્રકાર	-10.8777
▁શરીરમાં	-10.8789
▁તોફાન	-10.8789
હામ	-10.8791
▁મોકલેલ	-10.8791
▁પડ્યા	-10.8792
270	-10.8792
Free	-10.8792
▁પેઇન્ટ	-10.8798
132	-10.8801
hor	-10.8809
▁વર્ષોમાં	-10.8811
▁ડાયમેન્શન	-10.8811
▁ફાઉન્ડેશન	-10.8811
Unthank	-10.8811
▁દ્રઢ	-10.8811
▁લાઇફ	-10.8811
▁Credit	-10.8812
▁ટેક્સ્ટ	-10.8813
▁Launchpad	-10.8813
▁પામશે	-10.8819
ech	-10.882
બિયન	-10.882
-06-	-10.8823
▁Tue	-10.8824
▁હસ	-10.8826
▁મેટ	-10.8827
▁પં	-10.8832
▁કેમ્પસ	-10.8834
▁PU	-10.8836
▁ઘાસ	-10.8839
▁(4)	-10.8841
▁પરિસ્થિતિઓ	-10.8842
0-0	-10.8843
var	-10.8851
ટ્ટા	-10.8854
ration	-10.886
ગુણ	-10.8862
hong	-10.8867
should	-10.887
£	-10.887
▁સંકોચન	-10.8871
▁બાકીના	-10.8884
▁રેમ	-10.8884
▁સંતાન	-10.8887
▁ટાઇપ	-10.889
eve	-10.889
ડાઇ	-10.8895
▁સ્ત્રોતો	-10.8895
જોડ	-10.8897
▁મોટુ	-10.8897
▁લગ	-10.89
205	-10.8901
145	-10.8902
▁ટ્રાન્સ	-10.8902
enezuela	-10.8903
▁લાયસન્સ	-10.8903
▁આયર્ન	-10.8903
▁એજન્સી	-10.8904
▁કસરત	-10.8904
▁સ્ટેન્ડ	-10.8904
▁પોષણ	-10.8904
▁પ્રતિભાવ	-10.8904
convert	-10.8905
▁સરદાર	-10.8906
▁અર્થતંત્ર	-10.8907
▁માસિક	-10.8907
▁સોદો	-10.8908
▁ફાયર	-10.8908
▁ઉશ્કેરી	-10.8909
▁લશ્કરી	-10.891
▁help	-10.8912
▁ચામડ	-10.8912
Sales	-10.8912
▁ટિ	-10.8916
▁બેઠા	-10.8917
004	-10.892
▁બૉ	-10.8928
Wi	-10.8933
▁ચાહક	-10.8935
▁ગેર	-10.8935
lat	-10.8936
▁ચલાવવામાં	-10.8939
▁પ્રયત્નો	-10.8942
▁states	-10.895
▁ભાગીદારો	-10.8954
▁10000	-10.8956
▁નિશ્ચય	-10.8961
▁1.1	-10.8962
▁lib	-10.8964
group	-10.8964
bus	-10.8966
▁ખાતર	-10.8967
2006.	-10.8968
ગસ્ટ	-10.8971
crea	-10.8978
▁ભગવાનમાં	-10.8981
▁Cha	-10.8981
▁ફીટ	-10.8988
▁આપનાર	-10.8988
▁ભજન	-10.899
pg	-10.899
▁ગળ	-10.899
▁full	-10.8994
▁TE	-10.8995
्	-10.8995
ઔ	-10.8995
^	-10.8995
м	-10.8995
▁Webtalk	-10.8995
▁software	-10.8995
▁JSON	-10.8996
▁વિડીયો	-10.8996
▁વાદ્ય	-10.8996
▁ગર્ભ	-10.8996
▁નવીનતા	-10.8996
ઘો	-10.8997
▁જાદુ	-10.8997
જ્ઞાન	-10.8997
▁જીપીએસ	-10.8998
▁It	-10.8998
ava	-10.8999
▁આંતર	-10.9002
Shift	-10.9004
▁ભાડેથી	-10.9011
▁ફોર્	-10.9012
▁એમએચ	-10.9014
▁રોઝ	-10.9014
▁ફેંકી	-10.9015
પ્રતિ	-10.9016
તેઓ	-10.9018
▁વોલ્યુમને	-10.902
▁દીવાલ	-10.9021
share	-10.9025
▁પેસે	-10.9026
▁સ્વામીએ	-10.9028
▁Lu	-10.9033
▁સ્રોતો	-10.9035
af	-10.9037
▁પ્રકારનાં	-10.9037
▁ચીનના	-10.9041
▁કન્વર્ટર	-10.9043
{	-10.905
▁ઘરો	-10.9056
wBuyBuy	-10.9059
પ્રમાણ	-10.9059
સુયોજિત	-10.906
▁ખોલે	-10.9067
duct	-10.9068
▁ઘણુ	-10.9069
▁યોહાને	-10.9069
▁કાપ	-10.9075
▁03:	-10.9075
aff	-10.9082
▁વીજ	-10.9084
▁પોલિ	-10.9087
LIVEFROMLOCKDOWN	-10.9089
▁Brasero	-10.9089
▁MOSAIC	-10.9089
▁shoppingdirect	-10.9089
▁અમદાવાદ	-10.9089
▁ઓપરેશન	-10.9089
▁ચોકઠું	-10.9089
▁ધુમ્મસ	-10.9089
▁વિરુદ્ધ	-10.9089
▁સત્પુરુષ	-10.9089
á	-10.9089
▁ભંગાણ	-10.9089
▁ઇવેન્ટ	-10.9089
▁શંકા	-10.9089
▁શ્વાસ	-10.9089
▁રેલવે	-10.9089
▁હોર્મોન	-10.9089
▁ગ્લોબલ	-10.9089
▁job	-10.9091
▁કોન્કર	-10.9091
Rider	-10.9092
proof	-10.9092
▁ખ્રિસ્તે	-10.9092
5000	-10.9094
▁મોડ્યુલો	-10.9096
ature	-10.9097
▁ઘણીવાર	-10.9097
▁પ્રભાવિત	-10.9099
▁શાસન	-10.91
▁નિવાસ	-10.91
▁Alt	-10.9102
▁એચએસ	-10.9106
▁પૂછવા	-10.9109
▁IPv	-10.911
▁gnome	-10.9115
▁વિલા	-10.9116
ક્સિ	-10.9118
▁સંવાદને	-10.9118
life	-10.9121
inch	-10.9124
cat	-10.9128
8000	-10.913
▁2006	-10.9131
▁TV	-10.9131
▁નફો	-10.9131
oe	-10.9132
▁બાજુમાં	-10.9141
rill	-10.9148
▁Chi	-10.9154
▁રાખીએ	-10.9154
મૂળભૂત	-10.9156
▁કનેક્ટ	-10.9156
stat	-10.9157
▁કરાવી	-10.9164
len	-10.9168
2013	-10.917
શિયન	-10.9172
▁230	-10.9173
બધા	-10.9174
uro	-10.9179
ominican	-10.9183
▁glamor	-10.9183
▁અવર્ગીકૃત	-10.9183
▁ફાઇબરગ્લાસ	-10.9183
▁સંકલન	-10.9183
▁સામયિક	-10.9183
▁સુનિશ્ચિત	-10.9183
▁Tumblr	-10.9183
▁પ્રોફેસર	-10.9183
▁સંપાદન	-10.9183
▁Folder	-10.9183
▁દીધો	-10.9183
▁2018-11-	-10.9183
source	-10.9183
▁admin	-10.9183
▁પરમાણુ	-10.9184
▁POP	-10.9184
▁આખરે	-10.9184
zaire	-10.9184
▁યોર્ક	-10.9185
▁ખૂલેલ	-10.9185
રાઈ	-10.9185
▁થાઇલેન્ડ	-10.9186
▁વિસ્તરણ	-10.9189
ROM	-10.9191
slot	-10.9191
▁માગે	-10.9191
▁બનાવ્યો	-10.9192
▁શાખા	-10.9196
▁નરમ	-10.9196
▁સમજે	-10.9202
▁એકસાથે	-10.9202
kW	-10.9203
ૈયા	-10.9207
▁આપવું	-10.9208
▁હેતુઓ	-10.9211
▁પહોંચવા	-10.9211
▁media	-10.9213
asa	-10.922
▁છોકરાઓ	-10.9224
▁વેલ્	-10.9228
▁મોહ	-10.9229
ીઅન	-10.923
ંખ	-10.923
home	-10.9232
002	-10.9236
ાદિક	-10.9238
1.0	-10.9241
▁જાળ	-10.9254
ફ્	-10.9269
Mail	-10.927
cho	-10.927
geria	-10.9273
પોલ	-10.9275
▁સપ્ટે	-10.9278
system	-10.9279
μ	-10.9279
નિર્વિકલ્પ	-10.9279
▁LEWISBURG	-10.9279
▁wordpress	-10.9279
▁જુનિયર	-10.9279
▁એસએમએસ	-10.9279
▁પિતૃ	-10.9279
structur	-10.9279
USMLE	-10.9279
▁મેક્સિકો	-10.9279
▁દીધા	-10.9279
▁PDF	-10.9279
▁SMU	-10.9279
▁123456	-10.928
▁china	-10.9282
▁GBP	-10.9283
data	-10.9283
▁ડૉ	-10.929
Sky	-10.9291
▁ટાઇલ	-10.9293
શ્ચ	-10.9294
nkit	-10.9297
Link	-10.9297
▁લેખન	-10.9299
▁ટાળવા	-10.9299
▁ટીપ્સ	-10.93
▁ઝાડ	-10.93
▁દોરો	-10.9304
ફિલ્ડ	-10.9305
It	-10.9307
▁મીન	-10.931
ાત્મા	-10.9319
▁2500	-10.9323
ame	-10.9325
મેપ	-10.9326
post	-10.933
▁સ્થિતિઓ	-10.934
▁બેઝ	-10.9342
▁ફોલ	-10.9345
જીવ	-10.9349
ક્રિયા	-10.9349
▁વિશ્વાસુ	-10.9352
શાળા	-10.9355
સિન	-10.936
મુક્ત	-10.9361
▁કાચા	-10.9362
ક્રી	-10.9365
▁under	-10.9368
▁inter	-10.9371
▁method	-10.9375
▁ઠંડી	-10.9375
▁પ્રોત્સાહિત	-10.9375
▁સેન્ટ્રલ	-10.9375
Socket	-10.9375
▁કરતુ	-10.9375
XCHARX	-10.9375
▁when	-10.9375
▁કોલેટ્સ	-10.9375
▁બન્ને	-10.9375
▁લાક્ષણિકતાઓ	-10.9375
▁દીધી	-10.9375
▁નસીબ	-10.9375
zoom	-10.9376
▁અનાજ	-10.9376
▁મૂલ્યવાન	-10.9377
▁ફ્રેંક	-10.9378
▁નીચો	-10.938
ડ્રો	-10.9381
▁શકીશ	-10.9382
શુલ્ક	-10.9385
▁લેટિન	-10.9385
ન્ત	-10.9386
▁NAME	-10.9391
▁TM	-10.9391
777	-10.9395
▁฿	-10.9395
▁જગતમાં	-10.9395
▁અભાવ	-10.9396
560	-10.9396
rip	-10.9396
▁સંદર્ભમાં	-10.94
▁ઉતાર	-10.9402
▁ભારતના	-10.9412
5,000	-10.9415
▁ક્લો	-10.9417
▁આવનાર	-10.9418
▁£5	-10.9419
▁ટ્રેકો	-10.9427
પ્રત	-10.9431
▁થીમ્સ	-10.9434
▁એકાઉન્ટ્સ	-10.9438
▁ઓળખવામાં	-10.9438
▁પદાર્થો	-10.9439
▁સ્પેન	-10.9448
સંગીત	-10.945
▁ભાડે	-10.946
યોજિત	-10.9469
ी	-10.9472
▁Charter	-10.9472
▁January	-10.9472
▁ટ્યુટોરીયલ	-10.9472
▁ધિક્કાર	-10.9472
▁ફેરબદલી	-10.9472
▁લંબચોરસ	-10.9472
▁સંકુચિત	-10.9472
▁યંત્ર	-10.9472
▁inmate	-10.9472
▁સંબોધ	-10.9472
▁જાવાસ્ક્રિપ્ટ	-10.9472
▁Micro	-10.9472
▁Apk	-10.9472
▁નહોતા	-10.9472
▁ત્રીજી	-10.9472
▁આશ્ચર્યજનક	-10.9472
▁+0000.	-10.9472
▁2019-01-	-10.9472
▁પ્રતિનિધિત્વ	-10.9472
▁શોષણ	-10.9473
▁2018-12-	-10.9473
▁એનકોડીંગ	-10.9474
▁ઇકો	-10.9475
▁ડેમો	-10.948
▁ગયુ	-10.9483
▁રોગો	-10.9485
▁ડ્રો	-10.9485
▁અવગણવા	-10.9485
▁Winx	-10.9487
ender	-10.9491
ટ્યુન	-10.9494
▁ઇમેજો	-10.9496
▁ખસેડ	-10.9496
▁લૉક	-10.9497
▁જિ	-10.9501
▁કઈક	-10.9502
▁અનુસરે	-10.9502
▁નિર્દેશ	-10.9502
▁જોડાવો	-10.9503
▁હેપી	-10.9507
▁લોસ	-10.9508
0.6	-10.9511
▁હાથી	-10.9514
▁નઝર	-10.9517
311	-10.9519
▁તેમનું	-10.9526
▁ફંડ	-10.9529
RAN	-10.9531
PCS	-10.9532
▁ટીપ	-10.9536
ચરણ	-10.9539
▁નવુ	-10.954
▁Transposh	-10.9545
▁સુલભ	-10.9554
eck	-10.9555
▁May	-10.9557
235	-10.9561
▁ડિબગ	-10.9567
YUAN	-10.957
▁અચાનક	-10.957
▁એડેપ્ટર	-10.957
▁ગુસ્સે	-10.957
▁સેમસંગ	-10.957
display	-10.957
▁સુનાવણી	-10.957
Studio	-10.957
▁વર્તુળ	-10.957
level	-10.957
▁શકાતા	-10.957
▁પોલાણ	-10.957
▁minutes	-10.9571
graph	-10.9571
ાળી	-10.9573
▁જણાય	-10.9574
▁નબળા	-10.9575
▁અંગત	-10.9584
tation	-10.9587
▁Gtk	-10.9589
▁લીલો	-10.959
▁Tube	-10.959
▁મોજા	-10.9594
▁પૂછી	-10.9598
જીન	-10.9602
▁ચાંદીના	-10.9603
8.3	-10.9608
ley	-10.961
ટેલ	-10.9615
કેમ	-10.9619
▁ધી	-10.9619
▁કૂદ	-10.9622
▁અમલ	-10.9623
▁મંજૂર	-10.9626
▁ref	-10.9632
▁ક્યા	-10.9633
ART	-10.964
▁તાણ	-10.9642
▁ડ્રગ	-10.9647
આશરે	-10.965
દુકાન	-10.9651
udan	-10.9651
વીડિયો	-10.9651
search	-10.9651
વર્ક	-10.9654
6.5	-10.9658
▁1080	-10.9661
▁વ્યક્ત	-10.9665
▁description	-10.9669
▁તપશ્ચર્યાસ્થાન	-10.9669
▁દિલ્હી	-10.9669
▁યહૂદી	-10.9669
▁અપારદર્શકતા	-10.9669
▁ટોળીઓ	-10.9669
▁પ્રણાલી	-10.9669
▁નહોતો	-10.9669
▁જાળવવા	-10.9669
▁ઉઘાડ	-10.9669
▁લખેલું	-10.9669
▁ક્વોટ	-10.967
▁ઝેડ	-10.967
▁રિયાલ	-10.967
▁મિડ	-10.9671
▁બ્લોગર	-10.9672
સ્તાન	-10.9673
▁પક્ષીઓ	-10.9675
ંકી	-10.9675
▁2004	-10.9676
rac	-10.9677
▁માર્ગો	-10.9679
change	-10.9688
ઘર	-10.9691
▁જાગ	-10.9691
▁લેમ્પ	-10.9692
006	-10.9692
કિયા	-10.9695
▁DIN	-10.9697
▁લાકડા	-10.9701
▁«	-10.9701
9.95	-10.9702
berg	-10.9707
ડ્યો	-10.9712
2-1	-10.972
▁હબ	-10.972
▁74	-10.9722
▁યુનિવર્સિટીઓ	-10.9726
▁ભોગવ	-10.9731
▁{1}	-10.9732
car	-10.9737
સિસ્ટમ	-10.9744
▁layers	-10.9749
LTD	-10.9753
િઝન	-10.9756
HY	-10.9757
▁World	-10.9769
preset	-10.9769
▁BLOODS	-10.9769
▁EMBA	-10.9769
▁Semiconductor	-10.9769
▁ગેંગ્સ્ટા	-10.9769
▁ડુકાટી	-10.9769
▁દ્રાક્ષારસ	-10.9769
▁સંગ્રહપદ્ધતિ	-10.9769
▁ટેટૂપગ	-10.9769
shopify	-10.9769
lf	-10.9769
▁AUD	-10.9769
▁લૂકઅપ	-10.977
▁who	-10.9774
▁પૂરતું	-10.9775
▁પોર્ન	-10.9775
▁શહેરનું	-10.9776
stro	-10.9776
▁મેપ	-10.978
▁Audio	-10.9781
ike	-10.9785
▁કાર્ડ્સ	-10.9799
▁Φ	-10.9799
Share	-10.9801
▁ઘટ	-10.9801
▁ચમત્કારો	-10.9804
▁ગોઠવવા	-10.9806
Trans	-10.9808
▁ડોંગગુઆનમાં	-10.9808
▁Page	-10.9813
ham	-10.9814
060	-10.9815
▁સ્વીકારો	-10.9818
▁રુમ	-10.9818
▁અટકી	-10.9819
watch	-10.9821
બેટ	-10.9822
▁મહ	-10.9825
▁ગ્લો	-10.9826
▁ઈચ્છો	-10.9828
▁access	-10.983
▁સાહસો	-10.9836
▁ukraine	-10.9839
152	-10.984
ray	-10.9845
theme	-10.9847
▁ઘટાડે	-10.985
અંતઃકરણ	-10.9855
▁FI	-10.9857
▁ચલાવે	-10.9864
▁પ્રતિનિધિ	-10.9869
Australia	-10.987
▁Crochet	-10.987
▁Technologies	-10.987
▁ક્વિન્ગડાઓ	-10.987
▁ટીપ્પણી	-10.987
▁પૂંઠું	-10.987
▁Virtual	-10.987
▁LDAP	-10.987
custom	-10.987
▁હેલ્થ	-10.987
232	-10.987
▁plus	-10.987
▁શસ્ત્ર	-10.9872
▁ટોર્ક	-10.9875
▁ટ્રેડ	-10.9881
શિપ	-10.9881
▁3.5	-10.9882
2-2	-10.9885
▁ગૃહ	-10.9885
▁પૂર્વજો	-10.9886
▁સ્ટેક	-10.9888
eky	-10.9891
▁ટોટી	-10.9892
▁ઈમેજો	-10.9898
▁Max	-10.99
▁ફેસ	-10.9904
ctor	-10.9908
ચિંત	-10.9922
▁શૂ	-10.9924
wind	-10.9925
▁દેખાડ	-10.9929
▁YC	-10.9934
▁Part	-10.9946
નિકલ	-10.9949
▁હીટ	-10.9949
▁car	-10.9951
▁હમણા	-10.9957
વિશ્વાસ	-10.996
pur	-10.9963
▁Nimki	-10.9972
▁પુરુંષ	-10.9972
▁માઇક્રોસોફ્ટ	-10.9972
▁રાઉટર	-10.9972
▁વિભાજક	-10.9972
▁વૈરાગ્ય	-10.9972
▁શણગાર	-10.9972
▁શૂરવીર	-10.9972
▁લાકડું	-10.9972
▁Adress	-10.9972
WHSR	-10.9972
LUO	-10.9972
▁ચૂંટણી	-10.9973
▁જમણા	-10.9975
▁આગમન	-10.9975
▁નિદાન	-10.9975
▁ઈચ્છતો	-10.9977
▁over	-10.9978
▁Flight	-10.9983
440	-10.9984
▁આદેશો	-10.999
▁Xin	-10.999
JT	-10.9991
effects	-10.9991
▁યહૂદિયા	-10.9992
▁list	-10.9992
▁App	-10.9993
bro	-10.9994
▁સ્વતંત્રતા	-10.9997
▁પેસો	-10.9997
▁ટનલ	-10.9998
HI	-10.9998
▁Back	-10.9999
જાર	-11.0002
cast	-11.0005
215	-11.0009
II	-11.0009
mac	-11.001
▁Ve	-11.0011
1.7	-11.0014
▁પોતાનાં	-11.0017
arm	-11.002
▁ઉત્	-11.002
▁જણાવે	-11.0026
▁ઉદ્યોગમાં	-11.0029
▁અભિપ્રાય	-11.003
NIL	-11.0031
▁ભરત	-11.0035
Qu	-11.0037
▁Star	-11.0042
COM	-11.0042
zu	-11.0045
▁XR	-11.0045
▁અજાણ	-11.0047
▁માયાને	-11.0051
▁કુશળ	-11.006
દક્ષિણ	-11.0065
પ્રાપ્ત	-11.0066
▁એન્જિનિયર	-11.0069
1.1	-11.0069
અભિવાદન	-11.0075
▁Movie	-11.0075
Plug	-11.0077
▁બપોર	-11.0077
126	-11.0078
▁Java	-11.0078
▁ઠગ	-11.0079
▁બિલ્ટ	-11.008
▁કોરિયન	-11.008
▁like	-11.0081
▁નાખ્યો	-11.0082
સેલ	-11.0085
▁અટકાવે	-11.0085
▁હલવાન	-11.0089
▁સંગ્રહાયેલ	-11.0089
▁વધતી	-11.0092
▁પેરા	-11.0097
off	-11.0099
rail	-11.0107
bot	-11.0108
ચાલ	-11.0111
1.4	-11.0116
▁જોડે	-11.0117
188	-11.0119
012	-11.012
▁સ્ત્રીને	-11.012
નિઆ	-11.0127
156	-11.0131
▁Cap	-11.0132
▁યોજ	-11.0137
▁તત્વ	-11.0141
ન્ગો	-11.0142
▁2021	-11.016
Change	-11.0171
વેલેન્ટાઇન	-11.0171
▁થવાનું	-11.0172
158	-11.0174
▁પહોંચાડવા	-11.0179
.06.2019	-11.0179
Security	-11.0179
iCalImp	-11.0179
▁Generator	-11.0179
▁ત્રિજ્યા	-11.0179
▁લક્ઝરી	-11.0179
▁વિદાય	-11.0179
▁અનંતજીવન	-11.018
▁ચોકસાઈ	-11.018
▁પાઈપ	-11.018
Japan	-11.018
▁ગતિશીલ	-11.0181
ક્લિક	-11.0181
▁પ્રિંટ	-11.0181
▁ઉપચાર	-11.0182
▁Posted	-11.0183
નહર	-11.0183
▁ખોટો	-11.0185
▁સાંભળ્યો	-11.0188
▁big	-11.0189
▁ખરું	-11.019
▁ઓઇલ	-11.0191
ક્લો	-11.0191
▁exp	-11.0195
▁સ્વીકાર્ય	-11.0206
હરિ	-11.0206
▁એશિયન	-11.0206
▁આવકાર	-11.0209
tdr	-11.0211
west	-11.0212
▁વરસ	-11.0222
1500	-11.0224
▁કટર	-11.0228
▁રાહત	-11.0228
સ્ટેટ	-11.0231
▁DE	-11.0231
base	-11.0231
▁ઇચ્છો	-11.0232
last	-11.0233
404	-11.0236
▁તાર	-11.024
▁વિસ્તારક	-11.0245
▁ઇજા	-11.0246
-07-	-11.0251
ીકલ	-11.0253
▁Bill	-11.0254
▁રામ	-11.0255
ટિન	-11.0255
▁કાપવા	-11.0259
મેક	-11.0259
south	-11.026
એક્સએક્સ	-11.026
▁સંગ્રહિત	-11.0261
▁એકંદર	-11.0266
▁સીસી	-11.0276
હાઉસ	-11.0279
િતા	-11.028
▁ફ્લેગો	-11.0281
▁કપડા	-11.0282
▁જઈશ	-11.0284
abbreviated	-11.0284
▁Germany	-11.0284
▁પૃષ્ઠભૂમિ	-11.0284
▁પ્રાચીન	-11.0284
▁વનસ્પતિ	-11.0284
▁સકારાત્મક	-11.0284
▁લંબાઇ	-11.0284
▁નારંગી	-11.0284
▁ઓળખાતો	-11.0284
▁કેટલું	-11.0285
▁ટાંકી	-11.0285
▁tips	-11.0287
▁નિષ્	-11.0289
▁તારું	-11.0291
illa	-11.0297
▁spol	-11.0297
▁જોડાઇ	-11.03
▁શુભ	-11.03
▁ભાવિ	-11.0304
▁ઓળખવા	-11.0304
▁કણ	-11.0304
▁કર્યાનું	-11.0307
context	-11.0309
▁Comments	-11.031
MPa	-11.0311
750	-11.0311
▁એપિસોડ્સ	-11.0313
▁Slot	-11.0314
Sound	-11.0317
તેથી	-11.0319
▁સવારી	-11.0321
▁રોકવા	-11.0321
word	-11.0323
512	-11.0323
2.00	-11.0329
▁વર્ષોથી	-11.033
નિકો	-11.0334
▁વર્ણ	-11.0334
▁નોર્	-11.0341
Next	-11.0352
કાર્ય	-11.0357
ku	-11.0368
like	-11.0369
769	-11.0369
▁ગોલ્ડન	-11.0369
▁યહૂદિઓને	-11.0371
▁સંકોચ	-11.0383
▁20%	-11.0386
2°	-11.0386
પશ્ચિમ	-11.0388
▁હિંમત	-11.0391
desktop	-11.0391
▁Service	-11.0391
▁તૃતીય	-11.0391
▁કારખાનું	-11.0391
mission	-11.0391
▁પ્રદાતા	-11.0391
▁ઘોડા	-11.0391
▁વિતરક	-11.0391
169	-11.0392
▁રોજગાર	-11.0393
▁આઇપી	-11.0393
▁El	-11.0394
roll	-11.04
soft	-11.0403
▁event	-11.0403
NZ	-11.0404
▁ચાલ્યો	-11.0404
▁વિરોધ	-11.0405
ij	-11.0407
▁ફિક્સ	-11.041
▁હાર	-11.0415
▁કથા	-11.0415
Total	-11.0418
▁જંગલી	-11.0422
▁નીચેનાં	-11.0423
▁વર્ણવ	-11.0425
▁મૂક્યા	-11.043
3000	-11.0435
▁સાદા	-11.0436
china	-11.0436
▁રહેલી	-11.0438
▁આવૃત્તિઓ	-11.0441
CHF	-11.0442
VDC	-11.045
ango	-11.0452
▁સંશોધક	-11.0453
મીમી	-11.0454
▁હેડરો	-11.0454
છો	-11.0456
yr	-11.0457
▁ઓએસ	-11.0458
▁ડિરેક્ટરીઓ	-11.0459
NUM	-11.0465
જીએ	-11.0474
યુએસ	-11.0477
▁ગાળા	-11.0478
▁હંમેશ	-11.0485
pack	-11.0487
325	-11.0495
▁આર્કાઇવ	-11.0497
sweden	-11.0498
▁Bowflex	-11.0498
▁ઇન્જેક્ટર	-11.0498
▁એક્સેસરીઝ	-11.0498
▁વૈભવી	-11.0498
▁website	-11.0498
▁એનર્જી	-11.0498
▁બાઇબલ	-11.0498
▁સમાધાન	-11.0498
▁સેંકડો	-11.0498
▁લાકડી	-11.0498
▁વહન	-11.0498
▁મેન્યુઅલ	-11.0499
▁અધિકૃત	-11.0499
▁પથારી	-11.0499
▁ઉદ્દેશ	-11.0499
▁ઉદ્ધાર	-11.0499
▁Auto	-11.0499
▁PHP	-11.0499
▁રોપ	-11.05
▁છૂટક	-11.0502
▁ઘણાબધા	-11.0502
▁રેગ	-11.0503
▁ઓહ	-11.0503
▁Par	-11.0507
▁5.5	-11.0508
▁પગાર	-11.0509
▁Change	-11.0511
REC	-11.0512
▁FTP	-11.0515
▁128	-11.0516
▁બદલવામાં	-11.0523
APK	-11.0524
877	-11.0527
૨૦	-11.0527
▁માનતા	-11.0528
૯૯	-11.0531
▁પ્લગઈનો	-11.0533
▁નિર્દેશક	-11.0535
▁Mary	-11.0535
▁સમજણનું	-11.0536
ONG	-11.0542
866	-11.0545
▁હોડી	-11.0548
▁ટીકા	-11.0551
▁ટ્રીપ	-11.0554
ફેસ	-11.0556
▁પાર્	-11.0558
▁રોકી	-11.0558
▁બદલવાનું	-11.0561
3.6	-11.0561
▁પત્તાની	-11.0566
▁કરવાનુ	-11.0566
blog	-11.0566
▁2007	-11.0566
serv	-11.0569
▁ત્યારબાદ	-11.0574
▁DO	-11.0584
▁સેકન્ડો	-11.0587
igh	-11.0587
▁યુવી	-11.0587
▁1.8	-11.0589
▁સત્રો	-11.0594
મહત્વના	-11.0599
★	-11.0607
portugal	-11.0607
▁1528113	-11.0607
▁Holmbygden	-11.0607
▁category	-11.0607
▁કૅમેરા	-11.0607
▁ઝાંખી	-11.0607
▁ધરપકડ	-11.0607
▁ધાર્મિક	-11.0607
▁પરાભવ	-11.0607
▁રિબેટ્સ	-11.0607
▁વિક્રેતા	-11.0607
▁કઠિન	-11.0607
▁વિટામિન	-11.0607
▁થર્મલ	-11.0607
▁ભેગી	-11.0607
▁ક્વેરી	-11.0607
▁પુનઃસંગ્રહ	-11.0608
View	-11.0608
▁કાળજીપૂર્વક	-11.0608
RAID	-11.0609
▁ફેબ્રુ	-11.0609
168	-11.0613
▁મોલ્ડિંગ	-11.0614
▁LEE	-11.0617
▁સરનામાંને	-11.0617
▁લખવાનું	-11.0618
tools	-11.0628
TER	-11.0628
cut	-11.0639
qua	-11.0646
▁ફોલ્ડ	-11.0649
▁Val	-11.0654
ધર્મ	-11.0655
▁azerbaijan	-11.066
107	-11.066
isa	-11.0662
▁છોડવા	-11.0665
▁How	-11.0666
▁માગો	-11.0671
▁સ્ટોરી	-11.0673
▁ઝાર	-11.0674
▁કમ્પ્યુટર્સ	-11.0676
8.0	-11.0677
▁OD	-11.0677
▁HL	-11.0677
વાળુ	-11.0681
▁Control	-11.0681
▁બોલ્ટ	-11.0682
▁ક્રેક	-11.0684
બીટ	-11.0693
મારે	-11.0694
▁ગોઠવી	-11.0698
▁માર્	-11.0707
▁0.6	-11.0715
mdraid	-11.0717
▁trolface	-11.0717
▁દ્રષ્ટાંતે	-11.0717
▁ફીચર્ડ	-11.0717
▁ભરપૂર	-11.0717
▁પ્રતિષ્ઠા	-11.0717
▁Multi	-11.0717
craft	-11.0717
▁અવસ્થા	-11.0718
લ્ગ	-11.0718
▁ઑક્ટોબર	-11.0718
▁વાહક	-11.0718
▁ડ્રિલ	-11.0718
▁પ્રતિબંધ	-11.0719
▁સ્પોટ	-11.0719
great	-11.0722
options	-11.0724
▁ડાળી	-11.0724
sky	-11.0724
full	-11.0728
▁NMP	-11.0732
▁(10)	-11.0732
▁તુર્કી	-11.0734
▁રાખવી	-11.0735
▁One	-11.0742
▁ફરતે	-11.0743
POS	-11.0754
▁ZY	-11.0757
▁travel	-11.0758
137	-11.0763
▁ઉમેરાયેલ	-11.0763
રેલ	-11.0773
▁પાસા	-11.0776
LAN	-11.0777
live	-11.0781
282	-11.0784
▁ભણ	-11.0791
▁ઇન્દ્રિયોની	-11.0795
▁લેબલ્સ	-11.0798
▁દૃશ્યો	-11.0803
▁સ્પેસ	-11.0809
▁ધોવા	-11.0813
▁ઓછુ	-11.0816
ious	-11.0819
raw	-11.0825
▁પૂરતા	-11.0826
≥	-11.0828
Ethiopian	-11.0828
switzerland	-11.0828
નૈતિક	-11.0828
▁Ontario	-11.0828
▁ચંચળ	-11.0828
▁સ્ક્રીનસેવર	-11.0828
▁ઇન્સ્ટન્ટ	-11.0828
▁કાર્યસ્થળ	-11.0828
follow	-11.0828
▁માલ્ટા	-11.0828
machine	-11.0828
▁સેટિંગ્સ	-11.0828
▁અમેઝિંગ	-11.0828
▁આવતું	-11.0828
▁પિતરને	-11.0829
▁યુનિયન	-11.0829
▁લાગણીઓ	-11.0829
Search	-11.0829
Type	-11.0829
.”‘	-11.083
▁show	-11.0831
▁કાર્ડબોર્ડ	-11.0831
▁મોલ્ડ	-11.0834
▁pool	-11.0834
▁number	-11.0834
ંઘ	-11.0835
▁નીચું	-11.0835
▁હીટિંગ	-11.0836
▁ગણવામાં	-11.0838
▁Face	-11.0838
ngxi	-11.0841
▁પીળા	-11.0843
ફુલ	-11.0844
▁PNG	-11.0846
▁ચાલવા	-11.0847
▁સેન્સર્સ	-11.0849
▁પારદર્શકતા	-11.0852
▁Ver	-11.0853
▁4.5	-11.0856
▁ધપાવો	-11.0859
▁ઉમેદવારો	-11.0859
▁જવાનું	-11.0862
point	-11.0866
ELL	-11.0871
▁ટ્રેકિંગ	-11.0871
▁અટકાવ	-11.0872
▁સાચવી	-11.0874
▁પત્તા	-11.0878
izer	-11.0882
▁	-11.0887
▁ફુટ	-11.0889
▁0.7	-11.0894
ALL	-11.0904
▁લાકડાના	-11.0904
સ્લો	-11.0913
▁જોવું	-11.0913
▁6000	-11.0923
્ટોન	-11.0925
▁સરનામુ	-11.0928
▁પૂછે	-11.0934
▁ચાર્જર	-11.0936
ext	-11.0938
▁generic	-11.094
default	-11.094
Coptic	-11.094
Permissions	-11.094
▁Chrome	-11.094
▁કિસ્સાઓમાં	-11.094
▁કુંઠિત	-11.094
▁દીકરી	-11.094
▁ફર્નિચર	-11.094
▁ભૂંગળી	-11.094
▁રીઝોલ્યુશન	-11.094
▁સંસાધનો	-11.094
▁સિન્ડ્રોમ	-11.094
▁ગેરંટી	-11.094
▁પ્રસ્તાવ	-11.094
▁બેકએન્ડ	-11.094
▁હુમલો	-11.094
▁પડોશી	-11.094
▁સાંજે	-11.094
▁ઘોડો	-11.094
▁સરહદ	-11.094
▁બજેટ	-11.094
▁Adder	-11.0941
▁TLS	-11.0941
▁ધીમી	-11.0944
▁દોષિત	-11.0946
▁બીજુ	-11.0946
▁પ્રચાર	-11.0946
▁સાવધાન	-11.0947
▁શર્ટ	-11.0953
▁પહોચ્યા	-11.0953
zone	-11.0956
▁બિલ્ડિંગ	-11.0956
▁આગેવાનો	-11.0956
▁મૂસાએ	-11.0957
▁play	-11.0959
▁Sign	-11.0965
્ટિક	-11.0965
▁message	-11.0967
zi	-11.0971
▁ઓપ્ટિકલ	-11.0974
▁જોખમો	-11.0975
▁તેણીએ	-11.0977
▁આપતું	-11.0978
મિટ	-11.0984
▁અટકાવી	-11.0987
▁પીવા	-11.1001
▁કહેતો	-11.1015
જુઓ	-11.1016
ull	-11.1019
▁ડીપ	-11.1025
તેમ	-11.103
▁તાજુ	-11.1032
▁AMP	-11.1032
ષણ	-11.1035
▁86-5	-11.104
▁Category	-11.1042
▁UPS	-11.1051
ceania	-11.1054
▁ઇન્ટરનેશનલ	-11.1054
▁ઓટોમોટિવ	-11.1054
▁પસ્તાવો	-11.1054
▁માઈક્રોસોફ્ટ	-11.1054
▁સવિકલ્પ	-11.1054
▁સોશિયલ	-11.1054
▁અનિષ્ટ	-11.1054
▁દેશકાળે	-11.1054
▁ભયંકર	-11.1054
▁વેરહાઉસ	-11.1054
▁ડાબું	-11.1054
▁ઉપાસના	-11.1054
▁કોયડા	-11.1054
example	-11.1054
િર્મૂળ	-11.1054
▁જંતુ	-11.1054
▁ધર્માદિક	-11.1055
▁અંતરાલ	-11.1055
▁ચોકલેટ	-11.1055
મ્યુલેટ	-11.1056
▁સ્ટોરેજ	-11.1057
▁પૂજા	-11.1057
▁બગાડ	-11.1059
દાયક	-11.106
▁૩૮	-11.106
▁જાળવી	-11.106
▁તર્યા	-11.1063
▁જાતીય	-11.1063
▁પીસ	-11.1064
▁પૂર્ણાંક	-11.1065
ટાઇમ	-11.1065
સામગ્રી	-11.1066
Gujarati	-11.1067
▁૩૧	-11.1068
શુદ્ધિ	-11.1071
▁ગેમિંગ	-11.1072
▁શોધવાનું	-11.1077
▁ક્ષમતાઓ	-11.1081
▁OFF	-11.109
ણ્ય	-11.1092
▁ગ્રહન	-11.1095
▁હાલના	-11.1101
ત્રા	-11.1119
▁સમર	-11.1121
▁650	-11.1124
▁આગ્રહ	-11.1124
HU	-11.1132
▁આકર્ષ	-11.1132
▁કલર	-11.1134
▁સિદ્ધાંતો	-11.1136
5-1	-11.1137
▁સ્થિરતા	-11.1137
▁મેનેજ	-11.1141
▁સવાર	-11.1141
Exp	-11.1143
ક્રિ	-11.1143
▁વેચી	-11.1146
ન્ગા	-11.1152
▁2.2	-11.1159
▁કેટલો	-11.1163
▁સ્તંભો	-11.1168
▁Foundation	-11.1169
▁અશક્ય	-11.1169
▁અસત્પુરુષની	-11.1169
▁ઐતિહાસિક	-11.1169
▁કેનેડિયન	-11.1169
▁ગેલેક્સી	-11.1169
▁વાજબી	-11.1169
▁વિરોધાભાસ	-11.1169
▁સિરીયલ્સ	-11.1169
▁મુખ્યમંત્રી	-11.1169
▁લવચીક	-11.1169
▁glass	-11.1169
▁લિયેમ	-11.1169
▁સસ્તું	-11.1169
▁Clash	-11.1169
▁service	-11.1169
▁કનેક્શન	-11.1169
▁ભુજ	-11.1169
▁કિલોમીટર	-11.117
▁પીટર	-11.117
▁હોલ્મ	-11.117
3.5	-11.1171
Feng	-11.1171
▁જાગૃતિ	-11.1171
▁પુરવઠોકર્તા	-11.1171
▁દબાવવા	-11.1172
▁૫૯	-11.1174
▁૬૩	-11.1174
▁કાર્યકારી	-11.1175
▁ખડક	-11.1175
▁(24-	-11.1176
▁પોલિસી	-11.1183
વિસ્તાર	-11.1184
જરૂરી	-11.1184
પ્રથમ	-11.1184
સમૂહ	-11.1184
ાઇઝેશન	-11.1187
User	-11.1189
▁બચાવી	-11.1191
▁વધવા	-11.1192
drive	-11.1195
▁મધ્યસ્થ	-11.1195
▁સ્કેટ	-11.1199
▁૪૫	-11.1202
Print	-11.1205
▁ક્રોમ	-11.1206
નિર્	-11.1208
▁૨૫	-11.1216
▁સંકોચો	-11.1218
▁Sun	-11.1228
▁રાજી	-11.1229
▁નળી	-11.123
ફેટ	-11.1241
gov	-11.1242
▁ઘાતક	-11.1242
ship	-11.1244
▁ચાલતા	-11.1245
ફેર	-11.1248
સ્કેપ	-11.1249
▁સોમ	-11.125
▁લેન્સ	-11.1262
▁ક્ષેત્રોમાં	-11.1262
▁સીએસ	-11.1272
▁પિતાએ	-11.1275
ર્દ	-11.1278
▁પ્રોસેસ	-11.1284
▁Yu	-11.1284
▁***	-11.1285
medicine	-11.1285
ObjectClass	-11.1285
▁અનુયાયીઓ	-11.1285
▁બ્રહ્માંડ	-11.1285
▁વર્કશોપ	-11.1285
▁વાગ્યાની	-11.1285
▁સ્ટાર્ટર	-11.1285
▁કુતર્ક	-11.1285
▁ટૂકડા	-11.1285
▁સિક્કો	-11.1285
second	-11.1285
▁અસ્વીકાર	-11.1285
▁સ્પેનિશ	-11.1286
195	-11.1287
▁આર્કાઇવ્ઝ	-11.1287
▁ક્રિકેટ	-11.1287
▁ગુરુવાર	-11.1288
yuan	-11.1291
▁અનુમાન	-11.1291
▁૩૩	-11.1293
▁૫૭	-11.1293
007	-11.1295
▁some	-11.1295
▁her	-11.1296
align	-11.1297
▁રુચિનું	-11.1299
order	-11.13
▁અંગના	-11.1301
▁સુલભતા	-11.1304
2008	-11.1304
▁Electronics	-11.1307
ાવ્યો	-11.1308
▁ઘનતા	-11.1314
▁પ્રવેગ	-11.1315
▁શૈલીઓ	-11.1316
▁ગુણો	-11.1317
▁વાલ	-11.1317
રાજ્ય	-11.1321
તમારા	-11.1327
pass	-11.1331
▁૨૨	-11.1336
hoo	-11.134
▁ઇચ્છતા	-11.1348
ગ્લ	-11.135
='	-11.135
323	-11.1353
▁લીધેલ	-11.1362
▁પેલેટ	-11.1374
▁વેચાય	-11.1384
png	-11.1384
▁sub	-11.1386
▁been	-11.1389
▁જાવા	-11.1397
▁program	-11.1399
volume	-11.1403
▁સસ્પેન્ડ	-11.1403
▁આત્મદર્શનનું	-11.1403
▁ડિજીટલ	-11.1403
▁નિર્વિકારી	-11.1403
▁માહાત્મ્યજ્ઞાને	-11.1403
▁સોડિયમ	-11.1403
▁પ્રીતિવાળાનું	-11.1403
▁ફુવારો	-11.1403
Password	-11.1403
MIME	-11.1403
▁(2012)	-11.1404
▁Guide	-11.1405
▁gedit	-11.1406
▁Super	-11.1406
▁હેતુનું	-11.1408
▁અપવાદ	-11.1408
▁850	-11.1409
▁નિશ્ચયવાળાન	-11.1411
▁Job	-11.1412
hosting	-11.1416
▁અપૂર્ણ	-11.1419
આધારિત	-11.1422
▁બાઇટ	-11.1422
Blockchain	-11.1423
આગામી	-11.1423
▁હિમ	-11.1424
▁થાક	-11.1428
▁વ્હીલ્સ	-11.143
▁મુખ્યા	-11.1431
▁PIN	-11.1431
▁એનકોડર	-11.1433
▁વર્તે	-11.1439
uid	-11.1444
▁ક્રૂ	-11.1444
▁than	-11.1451
▁ફોટોગ્રાફી	-11.1451
Drive	-11.1454
▁સામાન	-11.1455
505	-11.1464
▁નાખે	-11.1465
▁આપણાં	-11.1465
ada	-11.1467
▁ફૂલો	-11.1467
arti	-11.1468
્યુઅલ	-11.1478
▁સ્થળે	-11.1484
▁બિગ	-11.1488
▁બાજુઓ	-11.1494
▁ખાણ	-11.15
▁બીપ	-11.1502
4.4	-11.1503
▁પ્રતીક	-11.1504
333	-11.1505
હસે	-11.1508
mil	-11.1515
ification	-11.1519
churchofchrist	-11.1522
▁International	-11.1522
▁Mallari	-11.1522
▁ઉલ્લંઘન	-11.1522
▁પોડકાસ્ટ	-11.1522
▁પ્રોટેક્શન	-11.1522
▁રિટર્ન	-11.1522
▁વ્યાયામ	-11.1522
▁ગુનેગાર	-11.1522
▁એરોસ્પેસ	-11.1522
▁નિર્માતા	-11.1522
Countdown	-11.1522
▁એવન્યુ	-11.1522
▁જમણું	-11.1522
▁નૃત્ય	-11.1522
▁પસંદીદા	-11.1522
▁ઑક્ટો	-11.1522
▁ઉઠાવ	-11.1523
▁પરિચિત	-11.1523
▁(1,5	-11.1523
▁સુધારણા	-11.1524
▁મનપસંદ	-11.1524
▁રિટેલ	-11.1524
▁હિલ	-11.1524
▁ઝૂ	-11.1525
▁ઓળખાણ	-11.1525
▁ઊંચુ	-11.1525
Direct	-11.1525
▁Opera	-11.1525
▁રીડ	-11.1527
▁વોટર	-11.1529
▁કોટેડ	-11.1529
▁ગાયના	-11.1531
દૂ	-11.1531
ities	-11.1532
▁પહોંચ્યા	-11.1532
▁પૂછ્યો	-11.1532
quotes	-11.1532
ગ્રસ્ત	-11.1534
nick	-11.1534
▁વર્કિંગ	-11.1536
▁hand	-11.1536
unt	-11.1537
▁પ્રેક્ષકો	-11.1539
વર્તમાન	-11.1545
જોડાણ	-11.1546
860	-11.155
UE	-11.1555
ભાઇ	-11.1557
▁સાધ	-11.1561
server	-11.1563
▁કોપર	-11.1573
હેમ	-11.1583
▁સપાટ	-11.1585
▁ફોરમ	-11.1588
▁Gra	-11.1607
ઉપદેશક	-11.1619
▁માનવતા	-11.1621
ન્ટિ	-11.1622
Press	-11.1624
▁1.3	-11.163
▁Mozilla	-11.1642
▁Quality	-11.1642
▁Vidyavihar	-11.1642
▁નોટિલસ	-11.1642
▁પુષ્કળ	-11.1642
▁સાર્વજનિક	-11.1642
▁હાંસલ	-11.1642
▁વિતરિત	-11.1642
▁resources	-11.1642
▁ભાંગી	-11.1642
▁Lucks	-11.1642
▁micro	-11.1642
▁શ્રેય	-11.1643
▁નિર્બળ	-11.1643
gypt	-11.1643
▁યજમાનનામ	-11.1644
▁ઊંડાઈ	-11.1648
▁(12-	-11.1655
▁મોકલે	-11.1663
▁Rire	-11.1667
shop	-11.1667
build	-11.1668
—	-11.1669
▁શેડ	-11.1673
▁એન્ટી	-11.1675
eria	-11.1679
પાદ	-11.1681
chu	-11.1687
ષ્ઠ	-11.1687
▁ખાઈ	-11.1689
▁280	-11.1692
▁પામેલા	-11.1698
▁કંઇક	-11.1709
▁બીટી	-11.1711
▁Shi	-11.1714
મ્બે	-11.1715
▁મોન્ટે	-11.1718
▁Jan	-11.1724
▁અક્ષમ	-11.1726
tip	-11.1728
▁365	-11.1731
▁જોડાય	-11.1738
bug	-11.1745
▁1100	-11.1745
રાઇટ	-11.1748
▁અદા	-11.1752
zhou	-11.1756
▁She	-11.1758
▁Aladdin	-11.1764
▁which	-11.1764
▁અસ્પષ્ટ	-11.1764
▁અહિંયા	-11.1764
▁તિમોથી	-11.1764
▁દ્રાવક	-11.1764
▁બલિદાન	-11.1764
▁સામૂહિક	-11.1764
africa	-11.1764
▁બાઇનરી	-11.1764
▁દ્રાક્ષ	-11.1764
▁રુપરેખાંકન	-11.1764
▁સમયપત્રક	-11.1764
▁Person	-11.1764
▁ઋણ	-11.1765
▁પુનઃસુયોજિત	-11.1765
▁એટલી	-11.1765
▁યુક્રેનિયન	-11.1766
▁ઢાંક	-11.1766
▁કસ્ટમાઇઝ્ડ	-11.1767
▁બારણું	-11.1767
▁SSD	-11.1768
▁ઉદાસ	-11.1769
▁અઠવાડિયું	-11.177
▁કામદાર	-11.177
▁ફ્રન્ટ	-11.1773
▁ઉમેરા	-11.1777
▁કલમ	-11.178
▁રાખું	-11.1787
વિચ	-11.1787
▁ક્લાસિક	-11.179
દિવસ	-11.1794
▁Host	-11.1795
▁100,000	-11.1798
▁મંચ	-11.18
motion	-11.1801
\\	-11.1814
well	-11.1814
▁તમારામાંના	-11.1817
▁કર્મચારી	-11.1817
▁લિંક્સ	-11.1817
▁686	-11.1827
▁લેડ	-11.1829
kar	-11.1841
▁રાજાઓ	-11.1844
▁સમાવવા	-11.1867
▁ટૂલ્સ	-11.1868
પ્રદ	-11.1869
પિતા	-11.1875
▁જરુર	-11.1886
albania	-11.1888
▁Hielscher	-11.1888
▁Litecoin	-11.1888
▁ઓપરેટર	-11.1888
▁કીમૅપ	-11.1888
▁ગેલ્વેનાઈઝ્ડ	-11.1888
▁થમ્બનેઈલ	-11.1888
▁પરબિડીયું	-11.1888
▁બાસ્કેટ	-11.1888
▁વાનગીઓ	-11.1888
▁વિક્ષેપ	-11.1888
▁સસ્પેન્શન	-11.1888
▁સ્વીડિશ	-11.1888
▁વેટિકન	-11.1888
▁નીચલા	-11.1888
▁તલવાર	-11.1888
▁સાયકલ	-11.1888
Device	-11.1888
▁સમિતિ	-11.1888
▁ઑડિઓ	-11.1889
▁Internet	-11.1889
▁ડ્યુઅલ	-11.1889
▁ઉલટાવો	-11.189
▁અનુરૂપ	-11.189
▁મોનીટરીંગ	-11.1891
▁વોલેટ	-11.1891
▁સ્પ્રે	-11.1892
▁ટોટલ	-11.1892
▁કેન્યા	-11.1892
▁દસ્તાવેજીકરણ	-11.1894
▁મિસ્ટર	-11.1895
▁વિરામ	-11.1895
▁વેલી	-11.1896
▁મોન્ટ	-11.1905
▁આવ્યાં	-11.1907
▁થતું	-11.191
▁પડતી	-11.1912
ATE	-11.1914
▁RSS	-11.1917
660	-11.1917
▁પગલાંઓ	-11.1919
▁રોમાન	-11.1926
▁હેંગ	-11.1928
678	-11.1931
▁ભૂતકાળ	-11.1932
▁Cat	-11.1943
▁ચૂક	-11.1947
▁સાબિતી	-11.195
▁5.0	-11.1959
▁શીખો	-11.1965
820	-11.1967
ભંગ	-11.1976
▁સેવકો	-11.1976
226	-11.1988
▁ચૂ	-11.1991
વર્ગ	-11.1995
વૅ	-11.1995
create	-11.1998
વ્યુ	-11.1999
ado	-11.2008
520	-11.2009
▁મોનીટર	-11.201
å	-11.2013
▁ઈસ્રાએલ	-11.2013
dictionary	-11.2013
language	-11.2013
▁એકાગ્રતા	-11.2013
▁એક્સટેન્સન	-11.2013
▁ટ્રાન્સમિશન	-11.2013
▁તાત્કાલિક	-11.2013
▁નેપોમુક	-11.2013
▁પાકિસ્તાન	-11.2013
▁બુદ્ધિશાળી	-11.2013
▁રીપબ્લિક	-11.2013
▁વાચકો	-11.2013
▁સંજોગો	-11.2013
▁સિંગાપુર	-11.2013
▁સૌંદર્ય	-11.2013
▁હટર્ઝ	-11.2013
position	-11.2013
▁વેલ્ડીંગ	-11.2013
▁શોધખોળ	-11.2013
▁FREE	-11.2013
▁Spain	-11.2013
▁ધ્વજ	-11.2013
▁એડજસ્ટેબલ	-11.2013
▁કસિનો	-11.2013
▁પાશ્ર્વભાગ	-11.2013
▁TRUE	-11.2013
▁જમણો	-11.2013
▁IEC	-11.2013
▁આખું	-11.2013
▁છેવટે	-11.2014
power	-11.2015
Clean	-11.2016
▁Poly	-11.2017
▁સુરત	-11.2017
▁બતાવ્યું	-11.2022
▁માનીએ	-11.2022
▁હી	-11.2022
▁જોડાયા	-11.2024
▁કાર્યકર	-11.2026
માર્ગદર્શિકાઓમાં	-11.2029
ngzhou	-11.2036
▁યુએસબી	-11.2036
▁More	-11.2037
▁make	-11.2037
asi	-11.2041
રુંપ	-11.2043
▁સોમવારથી	-11.2045
▁હરાવ	-11.2046
નિષ્ક્રિય	-11.2049
ચાર્જ	-11.205
ગોન	-11.2055
▁ડીલ્સ	-11.2056
▁હોડીમાં	-11.2061
Web	-11.2062
▁કાઢે	-11.2063
▁મૅ	-11.208
▁%.1	-11.2086
12345	-11.2088
▁મૂસાના	-11.2093
▁એમએસ	-11.21
▁મુદ્દા	-11.2106
▁લખે	-11.2107
0.7	-11.2112
++	-11.2116
▁1800	-11.2119
=%	-11.2122
download	-11.2139
cuador	-11.2139
generateur	-11.2139
▁Mukhiya	-11.2139
▁iPod	-11.2139
▁વરિષ્ઠ	-11.2139
function	-11.2139
▁webtalk	-11.2139
▁અસંખ્ય	-11.2139
▁એલએલસી	-11.2139
▁રેસ્ટોરન્ટ	-11.2139
▁શ્રીહરિની	-11.2139
▁સજાવટ	-11.2139
▁આઘાત	-11.2139
▁પેટ્રોલ	-11.214
SCCM	-11.214
sitemap	-11.214
▁પ્લેબેક	-11.214
▁અલ્ટ્રા	-11.2141
triche	-11.2142
Center	-11.2142
લક્ષી	-11.2143
▁છાયા	-11.2145
▁સેક્ટર	-11.2147
▁આઇલેન્ડ	-11.2148
▁ટેમ્પ	-11.2148
path	-11.2148
મુખી	-11.2155
▁બતાવશે	-11.2156
401	-11.216
▁વધારાનાં	-11.216
▁ટાળ	-11.2163
▁કોર્ડ	-11.2168
▁25%	-11.217
▁પડતા	-11.2171
8.5	-11.2172
▁ડ્રાઇવિંગ	-11.2176
6.3	-11.2177
city	-11.2178
વૈકલ્પિક	-11.2178
▁du	-11.218
▁બોલ્યો	-11.218
વિજ્ઞાન	-11.2183
▁Tri	-11.2183
7.5	-11.2187
▁ભોગ	-11.2189
Hosting	-11.219
ept	-11.2191
સમય	-11.2195
આપણે	-11.2202
▁સિન્	-11.2206
deg	-11.2208
▁કચરાપેટીમાંથી	-11.2213
▁પર્વતો	-11.2213
કાર્ડ	-11.2214
oxy	-11.2214
▁કોલું	-11.2214
ફિશ	-11.2215
▁ચમત્કાર	-11.2223
▁પૂછવામાં	-11.2225
ttle	-11.2233
ette	-11.2235
dale	-11.2242
▁પદચ્છેદ	-11.2247
▁પિલાત	-11.2249
▁ચોકઠા	-11.2255
▁બનેલા	-11.2257
inter	-11.2261
ૉપ	-11.2264
▁પોલીસી	-11.2267
▁Adobe	-11.2268
▁University	-11.2268
▁ખિસ્સા	-11.2268
▁પાસફ્રેઝ	-11.2268
▁ફાર્માસ્યુટિકલ	-11.2268
▁લૂટારા	-11.2268
▁ITIL	-11.2268
▁અભિયાન	-11.2268
▁લીધું	-11.2268
▁આંધળા	-11.2268
▁વંશીય	-11.2268
ongolia	-11.2268
piece	-11.2268
▁વિંડો	-11.2268
Russia	-11.2268
▁ભાગ્યે	-11.2268
▁વકીલ	-11.2268
▁GIF	-11.2268
▁યોગદાન	-11.2268
▁ચોર	-11.2269
▁ગુલાબી	-11.2269
▁ચુંબકીય	-11.2271
ઢી	-11.2272
jpg	-11.2274
▁બનવું	-11.2277
▁લેટર	-11.2279
▁Light	-11.228
▁સંભાળી	-11.2283
▁ધ્રુવ	-11.2285
▁દ્રષ્ટિએ	-11.2286
▁જાણવું	-11.229
▁ટાઈમ	-11.2294
▁અજાણી	-11.2296
▁એચપી	-11.2298
ough	-11.2299
રાષ્ટ્ર	-11.2309
▁ફેક્સ	-11.2311
6000	-11.232
▁ઇસ્ટર	-11.2325
સર્વ	-11.233
▁શેન	-11.2344
▁બિનયહૂદિઓ	-11.2348
▁સલામ	-11.2353
▁પોર્ટલ	-11.2362
▁સમજાવવા	-11.237
િમા	-11.2376
▁દશ	-11.2386
Advanced	-11.2397
▁Giveaway	-11.2397
▁sinlonglass	-11.2397
▁ઉડ્ડયન	-11.2397
▁કેલ્ક્યુલેટર	-11.2397
▁પબ્લિક	-11.2397
▁ફર્મવેર	-11.2397
▁મીઠું	-11.2397
▁વિરાજમાન	-11.2397
▁સાંસ્કૃતિક	-11.2397
▁સ્થાયી	-11.2397
▁ચહેરો	-11.2397
▁જલ્દી	-11.2397
▁ટ્રાયલ	-11.2398
▁uuid	-11.2398
▁ઉત્સવ	-11.2398
▁ELY	-11.2398
▁ખુલ્લી	-11.2398
▁રસીદ	-11.2398
▁જથ્થાબંધ	-11.2398
▁એક્સટેન્શન	-11.2398
▁પહાડ	-11.2398
▁ડ્રોઅર	-11.2399
▁મજૂર	-11.2399
▁ટોગલ	-11.24
▁વેબકેમ	-11.24
▁ટેન્ક	-11.2402
▁સીધો	-11.2403
▁Tai	-11.2403
▁રેંજ	-11.2403
જ્જ	-11.2406
▁rich	-11.2408
une	-11.2408
▁કપાસ	-11.2409
▁માંગતો	-11.241
gra	-11.241
▁Post	-11.2411
▁ODM	-11.2414
exam	-11.2428
▁call	-11.2429
રીતે	-11.243
▁મંદ	-11.2433
▁7.5	-11.2434
bert	-11.2459
▁પહોંચે	-11.2465
▁તારાઓ	-11.2478
▁પૂરક	-11.249
▁પશ્ચિમી	-11.249
ક્વે	-11.2496
345	-11.2497
state	-11.2499
▁જોડાયેલા	-11.2499
▁ઉકેલવા	-11.2517
rank	-11.252
ફ્ટવેર	-11.2521
િષ	-11.2521
્‍ય	-11.2523
Gilks	-11.2529
aribbean	-11.2529
▁Empathy	-11.2529
▁JPEG	-11.2529
▁SOCKS	-11.2529
▁ક્લાઇન્ટ	-11.2529
▁ટુકડો	-11.2529
▁તાઇવાન	-11.2529
▁સૂચકાંકો	-11.2529
▁સ્ટુડિયો	-11.2529
▁સ્ફટિક	-11.2529
▁કરુણા	-11.2529
▁દબાયેલ	-11.2529
▁સમકક્ષ	-11.2529
▁શ્વેત	-11.2529
▁સ્ટીકી	-11.2529
▁સબમિટ	-11.253
▁સોલિડ	-11.253
ક્ચર	-11.253
▁સિલાસ	-11.253
▁સરખી	-11.2531
▁SMS	-11.2532
▁MOQ	-11.2532
▁પુનઃતાજ	-11.2537
▁સ્પેક્સ	-11.2537
▁બોલાવી	-11.2538
▁સજીવન	-11.2538
▁અર્થશાસ્ત્ર	-11.2541
▁LED	-11.2542
▁ચમક	-11.2543
2.6	-11.2547
▁ઊંટ	-11.2549
▁પડતો	-11.255
▁36.5	-11.2554
▁best	-11.2559
▁ગાળાના	-11.2561
▁Apple	-11.2565
▁Shun	-11.2566
ટોલ	-11.2569
▁એમએલ	-11.257
▁2019-03-	-11.2571
ફિન	-11.2572
▁વિકસાવવામાં	-11.2573
▁રીવર	-11.2574
▁Piece	-11.2578
છેલ્લા	-11.2579
▁અહિ	-11.2586
▁એલિયા	-11.2593
▁ટૂંકાણો	-11.2603
▁પુત્રી	-11.2615
▁copy	-11.2636
rush	-11.2636
▁મંડળીઓ	-11.2651
ાવ્યા	-11.2659
chess	-11.2659
uploads	-11.2662
▁રુપરેખા	-11.2662
▁Spins	-11.2662
▁first	-11.2662
▁inlistbox	-11.2662
▁અસાધારણ	-11.2662
▁અસિસ્ટન્ટ	-11.2662
▁પ્લાઝમા	-11.2662
▁ફાયદો	-11.2662
▁વચનામૃત	-11.2662
▁વોરંટી	-11.2662
▁ભિન્ન	-11.2662
▁લિઆંગ	-11.2662
▁એમ્બેડ	-11.2662
▁ધંધા	-11.2662
▁સાઉથ	-11.2663
north	-11.2663
▁જાંબલી	-11.2663
▁ગ્રીસ	-11.2663
▁શોધાયુ	-11.2663
▁મંગળવાર	-11.2663
device	-11.2664
▁સવાલ	-11.2665
▁પટ્ટીઓ	-11.2666
▁ખર્ચાળ	-11.2668
▁લિફ્ટ	-11.2668
▁ગંધ	-11.2672
▁સ્થપાયેલી	-11.2672
લિસ	-11.2672
▁પડ્યું	-11.2676
▁સંમતિ	-11.2676
write	-11.2678
▁અપમાન	-11.268
▁બનાવતી	-11.268
▁સ્થળોએ	-11.2684
▁પ્રજા	-11.2689
▁વહેંચવા	-11.269
▁કોડેક	-11.269
▁પ્રતિભા	-11.269
▁સ્કોટ	-11.2693
પોટ	-11.2693
▁પરિબળો	-11.2695
▁ઘટાડી	-11.2696
વચન	-11.2699
▁TED	-11.2704
મિત્ર	-11.2708
▁ઉભી	-11.2711
▁થતાં	-11.2715
BTC	-11.2717
foo	-11.2719
પાર્ટ	-11.272
799	-11.2726
▁vk	-11.2726
▁શરું	-11.2726
▁પ્રાથમિકતા	-11.2727
▁બ્રાસ	-11.2735
▁ક્રિસ્ટ	-11.2738
▁ખાવાનું	-11.2738
trip	-11.2739
▁નાગરિકો	-11.2743
▁વહેંચો	-11.2746
▁ધારણા	-11.2747
ફશોર	-11.2751
▁અગાઉથી	-11.2765
▁fo	-11.2778
▁લશ્કર	-11.2787
late	-11.2791
dynamic	-11.2797
▁કમ્પોઝ	-11.2797
▁અનમાઉન્ટ	-11.2798
▁ક્લાઉડ	-11.2798
▁ગ્રેસ્કેલ	-11.2798
▁છિદ્ર	-11.2798
▁ત્રિકોણ	-11.2798
▁ફાઇનાન્સ	-11.2798
▁બેઇજિંગ	-11.2798
▁રોજિંદા	-11.2798
▁હરિભક્ત	-11.2798
▁ઊભું	-11.2798
▁લડાઈ	-11.2798
norway	-11.2798
▁cheats	-11.2798
▁David	-11.2798
▁વિઝીટ	-11.2798
▁iPhone	-11.2798
▁લિયાંગ	-11.2798
▁વાસણ	-11.2798
▁24/7	-11.2798
▁આરામદાયક	-11.2798
▁સાન્તા	-11.2798
▁પ્રમાણન	-11.2805
▁1.6	-11.2806
▁યુક્તિઓ	-11.2806
udi	-11.2811
left	-11.2811
▁બનાવવું	-11.2811
▁મુનિ	-11.2811
▁ફૉ	-11.2812
CategoryName	-11.2812
▁kde	-11.2814
▁4.2	-11.2819
▁એકંદરે	-11.2822
▁રેસિંગ	-11.2822
▁બોન્ડ	-11.2824
▁વિચાર્યુ	-11.2824
heat	-11.2826
▁એસ્ટેટ	-11.283
ward	-11.283
▁કિમી	-11.2832
પૉ	-11.2832
▁હીટર	-11.2832
▁બાથરૂમમાં	-11.2835
▁ઘડી	-11.2845
▁પ્રાપ્તિ	-11.2849
યોગ્ય	-11.2853
▁પહેરે	-11.2869
audi	-11.2871
▁પેસ્ટ	-11.2877
hir	-11.2889
૫૦	-11.2891
▁લીલામ	-11.2898
▁ટેલી	-11.2901
▁ચાહ	-11.2917
bet	-11.2919
rule	-11.2921
▁PRO	-11.2923
▁પેટા	-11.2927
▁જથ્થા	-11.2934
▁Office	-11.2934
▁કાઉન્સિલ	-11.2934
▁પ્રોટોટાઇપ	-11.2934
▁મતભેદ	-11.2934
▁ઉત્તેજન	-11.2935
▁ભયાનક	-11.2935
▁રેલ્વે	-11.2935
▁ડાયરેક્ટ	-11.2935
▁ભાવનાત્મક	-11.2935
▁તકલીફ	-11.2935
▁ધનવાન	-11.2935
ville	-11.2935
▁કારણોસર	-11.2935
▁ગાળણ	-11.2935
▁આવરણ	-11.2935
▁Single	-11.2935
▁True	-11.2936
▁પૂર્તિ	-11.2936
▁બોલાવ્યા	-11.2936
▁know	-11.2938
▁રીઅલ	-11.2939
▁Plane	-11.2939
▁DONG	-11.2941
1801	-11.2944
▁વપરાતી	-11.2945
સ્પેસ	-11.2946
▁રાખ્યો	-11.2948
area	-11.295
▁વ્યાપારી	-11.2951
▁આકર્ષણ	-11.2952
engal	-11.2954
▁દાદા	-11.2956
185	-11.2957
ફીન	-11.2963
▁માઇલ્સ	-11.2964
▁આકાશી	-11.2971
inder	-11.2972
ેક્	-11.2976
દ્રા	-11.2986
▁લીગ	-11.2992
▁આપેલા	-11.2993
object	-11.2995
»	-11.2995
▁અશ્	-11.2998
બદલ	-11.3002
onic	-11.3003
ક્ટિવ	-11.3006
ball	-11.3011
▁અનુસરી	-11.3022
▁OP	-11.3047
none	-11.3052
▁દ્વાર	-11.3062
▁જોડાવ	-11.3068
▁જન્મે	-11.3072
▁just	-11.3072
▁પુનઃશરૂ	-11.3073
minute	-11.3073
▁February	-11.3073
▁Fruity	-11.3073
▁episode	-11.3073
▁teething	-11.3073
▁આરક્ષિત	-11.3073
▁ચુંબન	-11.3073
▁મોટરસાઇકલ	-11.3073
▁લહેરિયું	-11.3073
▁'{0}'	-11.3073
▁કેલિફોર્નિયા	-11.3073
▁સમારકામ	-11.3073
▁ઇન્ડસ્ટ્રી	-11.3073
▁કૂતરો	-11.3073
▁દેખીતી	-11.3073
▁બલ્બ	-11.3073
▁ઉનાળા	-11.3073
▁ડ્રીમ	-11.3074
▁સ્વેપ	-11.3074
▁HMC	-11.3074
config	-11.3075
▁string	-11.3075
▁હંકાર	-11.3075
▁તાળા	-11.3076
▁જાઉં	-11.3076
▁બાજુપટ્ટી	-11.3077
▁ડિબગીંગ	-11.3078
2.7	-11.3078
4.99	-11.3078
▁Review	-11.3079
નિષ્ઠ	-11.3085
340	-11.3086
▁માફી	-11.3089
▁વીંટ	-11.309
▁દિવ્ય	-11.309
147	-11.3115
પ્રસ	-11.3116
▁વગાડી	-11.3124
▁દેખાડો	-11.3135
470	-11.3138
Casino	-11.3138
▁લખેલા	-11.3138
▁કવિતાઓ	-11.3139
▁શીખવે	-11.314
▁ઓપ્ટિક	-11.3172
▁રખ	-11.3177
▁ક્લાસ	-11.3186
▁નષ્ટ	-11.3197
direct	-11.3209
▁કૈસર	-11.3212
process	-11.3214
▁Antivirus	-11.3214
▁આત્યંતિક	-11.3214
▁કમ્પ્રેસર	-11.3214
▁કોંક્રિટ	-11.3214
▁ઘંટડી	-11.3214
▁ઘોંઘાટ	-11.3214
▁બ્રોડબેન્ડ	-11.3214
▁April	-11.3214
▁France	-11.3214
▁પાસફ્રેજ	-11.3214
▁નહોતું	-11.3214
▁રિસર્ચ	-11.3214
▁હેબઈ	-11.3214
▁Rental	-11.3214
▁શિબિર	-11.3214
▁એસઇઓ	-11.3214
▁શબ્દકોશ	-11.3214
▁સંસ્કાર	-11.3215
▁નમ્ર	-11.3215
▁સોનેરી	-11.3215
▁ડૉક્ટર	-11.3215
▁જડિત	-11.3215
▁Plus	-11.3215
▁SMD	-11.3216
Click	-11.3216
▁પુનઃપ્રાપ્તિ	-11.3217
▁2010-2019	-11.3217
▁ઘટ્ટ	-11.3217
▁તેટલી	-11.3217
▁March	-11.3218
▁કેમિકલ	-11.3218
aya	-11.3219
▁મદદનીશ	-11.3219
▁ઉપાડ	-11.3223
▁સાદું	-11.3225
▁Qua	-11.3232
ંબલી	-11.3235
206	-11.3244
▁ખસેડે	-11.3246
▁plan	-11.3254
▁Dong	-11.3257
લોકો	-11.3257
▁સમાવતુ	-11.3259
safe	-11.3263
▁ઇરાન	-11.3264
ફાઇલ	-11.3278
filter	-11.328
સ્વામી	-11.3283
version	-11.3286
▁ટૂંકી	-11.3286
▁ખેંચવા	-11.3304
▁અવગણી	-11.3304
NET	-11.3305
485	-11.3307
free	-11.3322
gujarat	-11.3323
ukh	-11.3325
આઉટ્સ	-11.3334
▁!!	-11.3338
▁ધ્રુ	-11.3342
▁ફેંક	-11.3347
▁કહ્યુ	-11.3356
▁ટ્યુટોરિયલ	-11.3357
▁પ્રત્યક્ષ	-11.3357
Message	-11.3357
Screen	-11.3357
▁Lesson	-11.3357
▁casino	-11.3357
▁અકસ્માત	-11.3357
▁આબોહવા	-11.3357
▁એડહેસિવ	-11.3357
▁એનીમેશન	-11.3357
▁પાયથોન	-11.3357
▁પોલિએસ્ટર	-11.3357
▁લાજરસ	-11.3357
▁વાસ્તવમાં	-11.3357
▁કસોટી	-11.3357
▁અવાહક	-11.3357
▁હરાજી	-11.3357
pilot	-11.3357
▁વૉલેટ	-11.3357
▁હાયપર	-11.3357
▁વધારાનું	-11.3357
▁South	-11.3357
▁એન્ડ્રોઇડ	-11.3357
special	-11.3357
▁ધરવામાં	-11.3357
▁વરાળ	-11.3357
▁તળાવ	-11.3357
▁જલદી	-11.3358
▁જર્નલ	-11.3358
▁એટલો	-11.3358
▁પોરિસ	-11.3359
▁સાચવવામાં	-11.336
▁ઑફિસ	-11.336
house	-11.3361
▁મેઈલબોક્સ	-11.3361
▁ટપક	-11.3361
▁નિયત	-11.3361
દાસજી	-11.3362
▁ફાઈલસિસ્ટમ	-11.3363
▁6.0	-11.3363
▁હીરો	-11.3364
jiang	-11.3364
▁આત્મિક	-11.3365
▁તાજી	-11.3368
▁બધો	-11.3369
▁રાખશે	-11.3377
▁35.5	-11.3378
▁મૂવી	-11.338
▁SSH	-11.3402
▁રજ	-11.3404
GST	-11.3407
enmark	-11.3407
▁રીંગ	-11.3412
▁ધોરણે	-11.3416
સામાન્ય	-11.3425
▁પામવા	-11.3428
bul	-11.3443
▁Blu	-11.3446
▁Tele	-11.3465
▁એનકોડ	-11.3466
▁શૉ	-11.3479
▁તુર્ક	-11.3484
▁2.4	-11.3489
▁બ્રાઝિલ	-11.3491
▁શકતુ	-11.3496
▁5.9	-11.3498
▁information	-11.3502
▁અડધેથી	-11.3502
▁કમ્પાઇલ	-11.3502
▁પ્રાદેશિક	-11.3502
▁વિખ્યાત	-11.3502
▁સત્તાધિકાર	-11.3502
▁શંકુ	-11.3502
length	-11.3502
▁Skype	-11.3502
▁MAPI	-11.3502
▁કબૂલ	-11.3502
▁શ્લોક	-11.3502
session	-11.3502
▁માર્ટિન	-11.3502
▁પરસ્પર	-11.3503
▁ભાષણ	-11.3503
▁આવશ્યકતા	-11.3503
▁બર્લિન	-11.3503
▁દેખાતી	-11.3503
Server	-11.3504
▁£200	-11.3505
photo	-11.3506
▁DIY	-11.3508
▁Mexico	-11.3509
▁UID	-11.351
▁અખબારી	-11.3513
▁ફ્લાય	-11.3516
બ્રા	-11.3517
▁ગોઠવણ	-11.3518
▁જુવાન	-11.3518
▁કેટલોગ	-11.3519
Self	-11.3519
▁પિંક	-11.352
▁નાંખેલ	-11.3523
▁મેગ્નેટ	-11.3537
▁ઇમારતો	-11.3538
▁+34	-11.356
ન્દ	-11.3562
▁ઇચ્છે	-11.3566
્રોન	-11.3569
▁૨૯	-11.3569
▁રહેતો	-11.357
▁સંઘ	-11.3576
MSN	-11.3578
azerbaijan	-11.3578
મોટું	-11.3579
▁Now	-11.358
1.3	-11.3584
0.9	-11.3585
▁ધોળ	-11.3593
iff	-11.3596
768	-11.3609
5.6	-11.3611
poli	-11.3628
▁Sub	-11.3628
▁ખરી	-11.3645
પ્યુ	-11.3647
1-0	-11.3648
Desktop	-11.3649
▁એલિવેટર	-11.3649
▁ડિટેક્ટર	-11.3649
▁સપ્લિમેન્ટ	-11.3649
application	-11.3649
▁JavaScript	-11.3649
▁blockchain	-11.3649
▁અંતર્ગત	-11.3649
▁એએસટીએમ	-11.3649
▁કાયદેસર	-11.3649
▁પ્રદૂષણ	-11.3649
▁બગીચા	-11.3649
▁રેશિયો	-11.3649
result	-11.3649
▁ડ્રામા	-11.3649
wysluxury	-11.3649
▁પરિણમે	-11.3649
▁ગાંધી	-11.3649
URAL	-11.3649
▁સસ્તી	-11.3649
▁દેખાતા	-11.3649
▁every	-11.3649
▁નંખાયેલ	-11.3649
▁વિધવા	-11.365
▁ટ્વિટર	-11.365
▁બુલિયન	-11.3651
▁ચેમ્બર	-11.3651
▁મુદ્રા	-11.3651
folder	-11.3651
▁અમલદાર	-11.3651
▁ગાર્ડ	-11.3651
atvia	-11.3652
▁Chali	-11.3654
▁સ્ટોપ	-11.3655
▁UIP	-11.3656
▁સેન્ડ	-11.3657
▁want	-11.3658
▁વાંચ્યું	-11.366
▁લાવ્યો	-11.366
▁Xbox	-11.3661
▁સમૃદ્ધિ	-11.3665
▁ડાબા	-11.3666
Info	-11.3667
▁હાઉસિંગ	-11.3668
▁ક્લેશ	-11.3668
▁બ્રિ	-11.3673
ENG	-11.369
▁Hand	-11.3695
▁બિનયહૂદિ	-11.3705
▁ઘટી	-11.371
▁Cash	-11.3712
2.2	-11.3718
▁ico	-11.3728
▁Art	-11.3733
▁જીતવા	-11.3739
▁ડોંગગુઆન	-11.374
oul	-11.3766
િમિ	-11.3771
એમબી	-11.3775
ization	-11.3784
વંત	-11.3797
▁Sonotrode	-11.3798
▁આફિક્રા	-11.3798
▁ક્રાફ્ટ	-11.3798
▁નેતૃત્વ	-11.3798
▁રુપરેખાંકિત	-11.3798
▁શાકભાજી	-11.3798
▁સર્પાકાર	-11.3798
▁સુગંધ	-11.3798
▁★★★★★	-11.3798
દૃષ્ટિ	-11.3798
વૃતિ	-11.3798
▁આયોજક	-11.3798
▁ઓટોમેશન	-11.3798
▁દ્રષ્ટિકોણ	-11.3798
▁મોબાઈલ	-11.3798
▁સાઉદી	-11.3798
GUAN	-11.3798
▁ઓળંગ	-11.3798
▁સીધું	-11.3798
▁લીંબુ	-11.3798
▁Green	-11.3798
smart	-11.3799
▁તેટલું	-11.3799
▁કાર્ટૂન	-11.3799
▁રજિસ્ટર્ડ	-11.3799
▁છોકરો	-11.38
chip	-11.3801
▁their	-11.3801
7.1	-11.3802
▁ડાયેટ	-11.3802
▁ભરાઈ	-11.381
▁ચાકર	-11.3813
▁માનવીય	-11.3814
▁મેળવેલ	-11.3818
sys	-11.3822
▁સ્ટ્રીમિંગ	-11.3825
▁ચૂકી	-11.3827
▁નોર્થ	-11.3832
247	-11.3859
ગીરી	-11.3864
9000	-11.3875
▁એન્ડ્ર	-11.3877
મંદિર	-11.3885
▁see	-11.3888
▁પેલે	-11.3905
▁પ્રવેગક	-11.3912
▁આરબ	-11.3913
ટેબલ	-11.3915
▁ટુકડા	-11.3916
8-1	-11.3919
ટ્રેક	-11.3923
▁ડિરેક્ટર	-11.3926
0.0000	-11.393
ુષ્	-11.3935
▁મિશ્ર	-11.394
count	-11.3947
▁2.3	-11.3947
▁પરંપરા	-11.395
▁ઇલેક્ટ્રો	-11.395
▁COSME	-11.395
▁GUJARATI	-11.395
▁YACAI	-11.395
▁ઇન્કવાયરી	-11.395
▁સ્કૂટર	-11.395
▁ઝુંબેશ	-11.395
▁ફૂગ	-11.395
▁વેક્યુમ	-11.395
▁શરણાર્થી	-11.395
▁direction	-11.395
▁False	-11.395
request	-11.395
▁Accessed	-11.395
▁વિકાસકર્તાઓ	-11.395
▁પીટીઓ	-11.395
▁ટ્રેડમાર્ક	-11.395
▁આંકડાકીય	-11.3951
▁Website	-11.3951
▁વિવેક	-11.3952
▁અપટાઇમ	-11.3952
▁ક્રીમ	-11.3953
▁કાષ્ઠ	-11.3953
ра	-11.3954
burg	-11.3954
▁દેખાતુ	-11.3955
▁કેટલાંક	-11.3955
▁Oct	-11.3957
▁૩૪	-11.3958
▁ઊતર	-11.3959
▁ચકાસાયેલ	-11.3959
▁ગ્રહણ	-11.3959
▁Sens	-11.396
CAS	-11.3962
▁કાર્બનિક	-11.3963
▁કાસ્ટિંગ	-11.3965
▁આગેવાનોએ	-11.3966
▁સોલો	-11.3971
font	-11.3973
▁પીસીબી	-11.3974
▁સૈનિકોએ	-11.3974
▁Gold	-11.3977
▁મિસર	-11.3977
spect	-11.3978
ફિસ	-11.3997
▁ચકાસ	-11.4018
cheng	-11.4019
SOP	-11.402
Crush	-11.4027
શબ્દ	-11.4041
પ્રદેશ	-11.4041
▁શૂટ	-11.4041
gsm	-11.4044
(33)	-11.4046
▁ચાંદી	-11.4052
fill	-11.4063
wire	-11.4071
▁વહીવટી	-11.4081
308	-11.4094
▁પીણા	-11.4097
▁Archiv	-11.4101
ability	-11.4104
ગર્ભાવસ્થા	-11.4104
ન્ફ્રાસ્ટ્રક્ચર	-11.4104
▁Clickfunnels	-11.4104
▁Dariussssss	-11.4104
▁LEANPORN	-11.4104
▁Roulette	-11.4104
▁આફ્રિકન	-11.4104
▁આર્કિટેક્ચર	-11.4104
▁ઇજનેરો	-11.4104
▁એસિટેટ	-11.4104
▁એસોસિયેશન	-11.4104
▁ઑપ્ટિમાઇઝ	-11.4104
▁ચાઇનિઝ	-11.4104
▁પરમેશ્વર	-11.4104
▁માહાત્મ્ય	-11.4104
▁રમકડાં	-11.4104
▁before	-11.4104
▁કોન્ફરન્સ	-11.4104
▁મુંબઈ	-11.4104
▁સભ્યપદ	-11.4104
▁vCard	-11.4104
▁નેધરલેન્ડ	-11.4104
▁રાજધાની	-11.4104
▁શુદ્ધિકરણ	-11.4104
▁સંભળા	-11.4104
▁જુલાઇ	-11.4104
▁નોઝલ	-11.4104
▁Rights	-11.4104
▁અથડામણ	-11.4104
▁KTM	-11.4104
ethyl	-11.4105
ified	-11.4105
▁ગાંઠ	-11.4107
RES	-11.4107
▁નિત્ય	-11.4109
▁ગાર્ડન	-11.4112
▁કૂચ	-11.4117
DVD	-11.4119
▁બતાવવી	-11.4128
▁ક્લોન	-11.413
night	-11.4136
▁જીબી	-11.4149
રક્ષા	-11.415
▁હદ	-11.4151
▁MBR	-11.4152
▁સનદ	-11.4152
▁શિકાર	-11.4159
▁દબાવ	-11.4162
▁1/2	-11.4172
277	-11.4173
▁2.9	-11.4188
INE	-11.4196
anada	-11.4198
▁પ્રબોધ	-11.4198
સ્ક્રિપ્ટ	-11.4199
સુયોજન	-11.42
બંધારણ	-11.42
એટલે	-11.42
▁Leg	-11.4204
▁ખેડૂત	-11.4215
▁વેપારીઓ	-11.4218
અંત	-11.4219
▁1:1	-11.4221
િષ્	-11.4227
000000	-11.4235
you	-11.424
વ્યવસ્થા	-11.4249
▁પટ	-11.4252
ાધિકાર	-11.4253
deposit	-11.426
distribute	-11.426
germany	-11.426
guatemala	-11.426
પ્રાયોજકો	-11.426
લ્ગોરિધમ	-11.426
▁Published	-11.426
▁Yahoo	-11.426
▁receive	-11.426
▁ડીટેક્ટર	-11.426
▁ડ્રાફ્ટ	-11.426
▁ફૂંકા	-11.426
▁વફાદાર	-11.426
▁સ્વયંસેવક	-11.426
▁વિસ્ફોટ	-11.426
▁Stories	-11.426
▁પુનરાવર્તિત	-11.426
▁વિખેર	-11.426
▁હળવા	-11.426
▁બેલેન્સ	-11.426
screen	-11.426
▁Social	-11.4261
▁ઉછેર	-11.4261
▁ચેકઆઉટ	-11.4261
film	-11.4263
▁કીર્તન	-11.4264
stonia	-11.4265
કારણ	-11.4268
વ્યાપી	-11.427
▁ઉંચા	-11.4272
▁પીળો	-11.4272
▁Gmail	-11.4275
Today	-11.4275
chan	-11.4277
▁લાઈટ	-11.4277
▁ટર્મ	-11.4282
▁ચાલ્યા	-11.4288
સાથે	-11.4294
▁સોદા	-11.4294
ગુરુ	-11.431
▁નાઇલ	-11.434
1.6	-11.434
સ્થિતિ	-11.4348
▁ભીડ	-11.4357
travel	-11.436
પારદર્શક	-11.4361
4.0	-11.437
209	-11.4372
ફક્ત	-11.4375
૧૧	-11.4377
▁ધારણ	-11.438
ફોમ	-11.4382
▁સ્ટેન	-11.4385
▁કોષ	-11.4407
▁નીકળે	-11.4409
4.5	-11.4413
cryptocurrencies	-11.4419
▁Alberta	-11.4419
▁America	-11.4419
▁Converter	-11.4419
▁September	-11.4419
▁Ukraine	-11.4419
▁ઇન્ડોનેશિયા	-11.4419
▁જેતલપુર	-11.4419
▁તુરંત	-11.4419
▁નિર્ણાયક	-11.4419
▁મનોરંજક	-11.4419
▁વિરુંદ્ધ	-11.4419
▁સ્વાભાવિક	-11.4419
▁Coinbase	-11.4419
▁ઈર્ષ્યા	-11.4419
▁ઓપ્ટિમાઇઝેશન	-11.4419
▁કાલ્પનિક	-11.4419
▁પેસિફિક	-11.4419
▁પ્રેક્ટિસ	-11.4419
▁દુબઇ	-11.4419
▁બ્રાઝીલ	-11.4419
▁સમજાયું	-11.4419
▁પુરસ્કાર	-11.4419
▁પાછલા	-11.4419
▁આપત્તિ	-11.4419
▁જીલ્લો	-11.4419
▁પુરાવા	-11.4419
▁Talk	-11.4419
▁બડાઈ	-11.4419
▁મુગટ	-11.4419
▁9600)	-11.4419
▁ડેસ્ક	-11.4419
location	-11.4419
▁પ્રયોગશાળા	-11.4419
Design	-11.4419
▁ઉપવાસ	-11.442
▁વરખ	-11.442
▁સ્ટેજ	-11.442
Title	-11.4421
▁પ્રોફોર્મ	-11.4421
▁સંવત	-11.4423
local	-11.4428
▁Inter	-11.4432
▁Core	-11.4434
▁તર્ક	-11.4435
▁દાદી	-11.4436
▁how	-11.4441
▁યાંગ	-11.4443
RUB	-11.4448
burn	-11.4451
▁બચી	-11.4454
▁ખામી	-11.4455
▁**	-11.4455
▁આરોપ	-11.4455
▁જીવતો	-11.4458
▁બાથ	-11.4458
▁શિવ	-11.4462
▁ઘટાડ	-11.4474
▁ઉમેદવાર	-11.4484
▁આવશ્યકતાઓ	-11.449
-08-20	-11.4492
auda	-11.4494
mask	-11.4495
lated	-11.4499
▁આજના	-11.4503
776	-11.4503
૧૦	-11.4506
ગમત	-11.4511
GTK	-11.4525
ગઢડા	-11.4525
વ્યસ્ત	-11.4531
▁ધપાવ	-11.4547
▁બિમાર	-11.4557
▁4.1	-11.456
▁રાખ્યા	-11.457
▁4.7	-11.4574
ન્ઝા	-11.4575
▁ટ્વિ	-11.4578
▁ચૂંટ	-11.458
▁Remote	-11.458
▁ઇન્ટેલિજન્સ	-11.458
▁ચળવળ	-11.458
▁જૈવિક	-11.458
▁મ્યુનિસિપલ	-11.458
▁વાણિજ્ય	-11.458
▁શિર્ષક	-11.458
▁હવાઈમથક	-11.458
▁ગુણાકાર	-11.458
▁સિલ્વર	-11.458
▁સ્પોર્ટ્સ	-11.458
▁નિવારણ	-11.458
▁રસોડું	-11.458
▁SMART	-11.458
▁ધમકી	-11.458
▁સીએનસી	-11.458
▁ઠંડુ	-11.458
▁Smut	-11.458
xBet	-11.458
address	-11.4581
▁બંગાળ	-11.4581
▁મતદાન	-11.4581
▁રોકાણકારો	-11.4582
▁શ્રીકૃષ્ણ	-11.4583
▁ધોધ	-11.4583
▁ફાળવણી	-11.4584
▁zea	-11.4584
▁ઘરેલું	-11.4584
▁રત્ન	-11.4585
▁નેતાઓ	-11.4586
IFF	-11.4587
steel	-11.4588
▁હિપ	-11.4593
▁વહેલી	-11.4593
▁થયુ	-11.4597
▁વીમો	-11.46
▁આજની	-11.4603
▁ચાલતો	-11.4606
▁પલ્સ	-11.4609
▁ક્યૂ	-11.4614
▁ડચ	-11.4628
▁3.2	-11.4645
irc	-11.4646
▁ફીણ	-11.4649
5.0	-11.4685
«	-11.4691
વિષય	-11.4691
મૂલ્ય	-11.4692
ફોલ્ડર	-11.4692
▁ગોઠવાયેલ	-11.4703
બ્રિક	-11.4703
▁સ્થાપ	-11.4705
▁જૂઠા	-11.4716
▁વાપરવુ	-11.474
▁પોર્ટફોલિયો	-11.4744
▁Ekiga	-11.4744
▁Episode	-11.4744
▁mosaic	-11.4744
▁પ્રશ્ર્ન	-11.4744
▁શરુંઆત	-11.4744
▁સરનામાપોથી	-11.4744
▁સુશોભન	-11.4744
▁હિન્દી	-11.4744
▁હિસ્સો	-11.4744
@163.	-11.4744
▁નિદર્શન	-11.4744
youtube	-11.4744
linux	-11.4744
▁ઉદય	-11.4744
field	-11.4744
▁HDPE	-11.4744
▁માથું	-11.4744
▁hours	-11.4744
▁રોટરી	-11.4744
▁જોડાશે	-11.4744
▁પરિભ્રમણ	-11.4744
▁તકરાર	-11.4744
Config	-11.4744
▁અવગુણ	-11.4745
▁ક્વિઝ	-11.4745
body	-11.4745
▁હોલસેલ	-11.4745
▁ખરુ	-11.4745
▁RFID	-11.4745
▁આતુર	-11.4745
araguay	-11.4749
▁આસરો	-11.4751
▁મળતું	-11.4752
scape	-11.4755
▁ખાંડ	-11.4757
▁નાખશે	-11.476
માન્ય	-11.476
▁III	-11.4763
▁કચેરી	-11.4763
▁product	-11.4765
▁જેનાથી	-11.4769
▁ઉત્સાહી	-11.4771
▁પૂર્વીય	-11.4771
media	-11.4793
▁Hong	-11.4797
▁મેળવનાર	-11.4815
▁તૂ	-11.4842
પાણી	-11.4846
859	-11.4852
▁નાખ્યા	-11.4855
China	-11.4861
અન્ય	-11.4865
Temp	-11.4878
▁trans	-11.4905
▁મેક્રો	-11.491
benchmark	-11.4911
azakhstan	-11.4911
rgentina	-11.4911
▁British	-11.4911
▁Reserved	-11.4911
▁Ultrasonics	-11.4911
▁XDMCP	-11.4911
▁discuss	-11.4911
▁ઝ્હેન	-11.4911
▁મધ્યાહ્ન	-11.4911
▁વાંધો	-11.4911
▁tooltip	-11.4911
▁બઢતી	-11.4911
▁જામીન	-11.4911
▁Water	-11.4911
▁રિવર્સ	-11.4911
▁Javascript	-11.4911
▁GWA	-11.4911
▁લગાડ	-11.4912
▁સંકટ	-11.4913
ragon	-11.4914
▁યાદશક્તિ	-11.4914
▁સીએસએસ	-11.4915
▁ભરેલા	-11.4915
▁યાર્ન	-11.4915
▁બજારોમાં	-11.4917
▁Aria	-11.4919
▁૪૨	-11.4919
▁વર્ગીકરણ	-11.4919
▁રાખનાર	-11.4919
▁લગતી	-11.4919
50,000	-11.4921
▁ચામડું	-11.4921
hond	-11.4922
▁મીઠા	-11.4923
▁ડમ્પ	-11.4926
%.0	-11.4927
▁ઇંડા	-11.4927
▁પોલેન્ડ	-11.4928
▁કોર્ન	-11.4939
project	-11.494
izing	-11.4943
▁પીઠ	-11.4944
▁યુએન	-11.4946
anne	-11.4948
▁પાળતુ	-11.4959
pping	-11.496
▁સિદ્ધિ	-11.4969
EUR	-11.497
▁બંધબેસે	-11.4987
▁બંધબેસ	-11.5018
▁ડઝન	-11.5022
▁ઊગ	-11.5022
▁Hua	-11.5024
gnome	-11.5033
ચોકઠાંઓ	-11.5033
This	-11.5033
અમને	-11.5035
▁વડીલ	-11.504
સેપ્ટ	-11.5043
સંત	-11.5049
▁નિશાન	-11.5058
▁even	-11.5062
libvirt	-11.508
▁Metatrader	-11.508
▁valentine	-11.508
▁અનિવાર્ય	-11.508
▁અપગ્રેડ	-11.508
▁અફસોસ	-11.508
▁ઉત્પાદિત	-11.508
▁કમ્પ્યુટિંગ	-11.508
▁જિઆંગસુમાં	-11.508
▁વાંસળી	-11.508
▁Python	-11.508
▁નામંજૂર	-11.508
▁પૈસો	-11.508
▁કેબિનેટ	-11.508
▁વીમાદાતા	-11.508
▁શ્યામ	-11.508
▁સહુથી	-11.508
▁નિકાલ	-11.508
▁Down	-11.508
strict	-11.5081
▁આધીન	-11.5081
▁NZD	-11.5081
▁Hols	-11.5081
▁કાંટા	-11.5081
▁ફૂટબોલ	-11.5081
▁ટ્રાન્સપોર્ટ	-11.5081
▁પુષ્ટિ	-11.5081
▁બદલનાર	-11.5082
▁મેટ્રિક	-11.5082
▁જીવનશૈલી	-11.5082
▁વાટ	-11.5085
▁ટ્રમ્પ	-11.5086
▁ગાળો	-11.5086
network	-11.5087
▁સ્વસ્થ	-11.5088
▁રજુ	-11.5089
▁બ્લેડ	-11.5089
ifier	-11.5089
▁૬૨	-11.5091
▁boxes	-11.5093
▁નિરાશા	-11.5093
▁પતન	-11.5094
▁બદલાઇ	-11.5098
વિશ્રામવાર	-11.5099
adding	-11.51
▁વ્યસન	-11.5105
▁ઉચ્ચાર	-11.511
5.5	-11.5112
▁(7)	-11.5112
▁સ્ટેપ	-11.5113
ચલો	-11.5122
▁જાડા	-11.5167
lect	-11.5181
Pieces	-11.5188
▁જ્યોત	-11.5192
વપરાશકર્તા	-11.5209
▁નોંધાયેલ	-11.5212
App	-11.5212
ology	-11.5227
▁86-0	-11.5235
▁સાવધ	-11.5243
9.9	-11.5248
ટ્વીટ	-11.5251
alaysia	-11.5252
brushes	-11.5252
▁Inverter	-11.5252
▁Royale	-11.5252
▁Welcome	-11.5252
▁અદૃશ્ય	-11.5252
▁અસ્થાયી	-11.5252
▁ઇન્સ્યુલેશન	-11.5252
▁કમનસીબે	-11.5252
▁છૂટાછેડા	-11.5252
▁ઝખાર્યા	-11.5252
▁ટેસ્ટોસ્ટેરોન	-11.5252
▁ધારાવાહિક	-11.5252
▁પૂંછડી	-11.5252
▁પ્રામાણિક	-11.5252
▁ફેકલ્ટી	-11.5252
▁વસવાટ	-11.5252
▁વાસ્તુ	-11.5252
▁સેમ્યુઅલ	-11.5252
▁સ્વીડન	-11.5252
▁IFFCO	-11.5252
▁protected	-11.5252
▁ઇમિગ્રન્ટ્સ	-11.5252
▁કોમ્પ્રેસર	-11.5252
▁રેખીય	-11.5252
▁વીપીએન	-11.5252
▁સ્તેફન	-11.5252
▁Gnome	-11.5252
▁અભિમાન	-11.5252
▁સ્વીકૃતિ	-11.5252
▁provide	-11.5253
▁વર્જિન	-11.5253
▁સિગ્નલ	-11.5253
▁આમંત્રિત	-11.5253
▁બ્લૉગ	-11.5253
▁ઝાંખુ	-11.5253
▁રસ્તે	-11.5253
▁Music	-11.5253
▁ન્યૂઝલેટર	-11.5253
▁અંત્યોખ	-11.5253
▁ટ્રૅક	-11.5253
▁PGP	-11.5253
▁તૂટેલ	-11.5253
▁સ્નેપ	-11.5253
▁લૂંટ	-11.5255
▁હવાવાળો	-11.5255
▁ઝિપ	-11.5256
▁મીઠી	-11.5256
માર્ગ	-11.5256
white	-11.5257
▁ગુગલ	-11.5257
connect	-11.5259
game	-11.5262
બીએમ	-11.5263
▁અવરોધિત	-11.5265
8.6	-11.5265
૧૯	-11.5265
▁સાદડી	-11.5267
▁શિયાળ	-11.5271
▁ટેપિંગ	-11.5273
▁ખાકી	-11.5273
▁ફર્યો	-11.5275
jamai	-11.5276
▁મેટ્રો	-11.5287
▁બેનર	-11.5288
▁રેન્ડ	-11.5289
પોઝ	-11.5291
ર્જા	-11.5299
temp	-11.5341
Copy	-11.5342
વ્રત	-11.5345
▁દશા	-11.5357
▁ઠર	-11.5367
▁વિકસાવવા	-11.5372
message	-11.5386
જીએસટી	-11.5387
બ્રહ્મ	-11.5387
greece	-11.5387
ચકાસણી	-11.5387
ભગવાન	-11.5387
માહિતી	-11.5388
૯૧	-11.5413
IDE	-11.5416
▁પ્રાણ	-11.5421
▁પ્રતિબિંબ	-11.5424
▁સાચુ	-11.5427
patterns	-11.5428
EMAIL	-11.5428
▁Banshee	-11.5428
▁Manager	-11.5428
▁આંશિક	-11.5428
▁કન્ટેઈનર	-11.5428
▁કારોબારી	-11.5428
▁તાજેતરનું	-11.5428
▁પ્રાયોગિક	-11.5428
▁ફાઈબર	-11.5428
▁મૌખિક	-11.5428
▁સ્વાદિષ્ટ	-11.5428
▁દશાંશ	-11.5428
▁ન્યાયાધીશ	-11.5428
▁સગવડ	-11.5428
▁હાઇલાઇટ્સ	-11.5428
transposh	-11.5428
▁ઇંધણ	-11.5428
▁સર્વોચ્ચ	-11.5428
▁અજગર	-11.5428
▁આઇઓએસ	-11.5428
▁ડિપ્લોમા	-11.5428
▁પાંદડા	-11.5428
▁ireland	-11.5428
▁સ્પીકર	-11.5428
▁સ્મરણ	-11.5428
▁વિચારધારા	-11.5428
▁csgo	-11.5428
▁કર્નલ	-11.5428
▁નાનુમોટુ	-11.5428
▁કિનારે	-11.5428
▁ઑર્ડર	-11.5428
▁શરમજનક	-11.5429
eorgia	-11.5429
▁ત્રીજો	-11.5429
▁શેઠ	-11.5429
▁FOR	-11.5429
6.0	-11.5429
▁છાંટ	-11.5429
▁સ્પેઇન	-11.543
▁etc	-11.5431
▁look	-11.5432
▁પાંખ	-11.5434
▁Word	-11.5436
▁gold	-11.5437
▁ભેગું	-11.5437
ોગ્રાફી	-11.5438
▁સફાઇ	-11.5438
▁બળવાન	-11.5438
▁ખેતી	-11.544
▁રાખશો	-11.5444
▁એક્સએલ	-11.5447
▁most	-11.5448
▁only	-11.545
▁મેદાન	-11.5458
▁લટક	-11.5458
સૂચિ	-11.5483
oland	-11.5489
Soft	-11.5495
Model	-11.5497
HAN	-11.5503
▁ચેઇન	-11.551
▁Colle	-11.5538
▁આગેવાન	-11.5563
turkey	-11.5568
▁0.01	-11.5569
ખ્રિસ્ત	-11.5569
Read	-11.5571
ડાઉન	-11.5572
public	-11.5605
ભ્રમણ	-11.5606
▁અગિયાર	-11.5606
▁મકદોનિયા	-11.5606
universal	-11.5606
▁Browser	-11.5606
▁Columbia	-11.5606
▁DIODE	-11.5606
▁Quebec	-11.5606
▁equina	-11.5606
▁stepper	-11.5606
▁પીટીએફઇ	-11.5606
▁પુરૂષ	-11.5606
▁પેટાકંપની	-11.5606
▁પ્રભાવશાળી	-11.5606
▁પ્રોફેશનલ	-11.5606
▁બેન્ચમાર્ક	-11.5606
▁સંપાદિત	-11.5606
▁સ્થગિત	-11.5606
▁Pocket	-11.5606
▁બળતણ	-11.5606
▁ફ્રાન્ક	-11.5607
▁પેટ્રિક	-11.5607
▁also	-11.5607
▁અમેરિકી	-11.5607
▁એનાલોગ	-11.5607
▁પેહલા	-11.5607
▁listbox	-11.5607
:$1_	-11.5607
▁એટલાન્ટા	-11.5608
▁નિવેદન	-11.5608
Sync	-11.5608
▁પોલિમર	-11.5608
▁દક્ષિણપૂર્વ	-11.561
▁what	-11.561
▁પ્રતિબિંબિત	-11.5611
▁June	-11.5611
▁without	-11.5612
૧૮	-11.5613
▁બનેલું	-11.5614
turn	-11.5616
▁ICQ	-11.5616
▁ભેળ	-11.5617
▁સીએએસ	-11.562
▁ચાહે	-11.5644
▁ફોલ્	-11.5656
Connect	-11.5658
▁સોલર	-11.5665
4.9	-11.5693
▁૬૦	-11.5715
▁સિદ્ધ	-11.5735
મેગ્નેટિક	-11.5744
▁ઇમારત	-11.5744
▁પરિબળ	-11.5745
Gtk	-11.5754
button	-11.5754
વિહાર	-11.5762
▁પહોચ	-11.5768
▁નીચુ	-11.5783
jia	-11.5786
Object	-11.5788
Switch	-11.5788
▁Guzzi	-11.5788
▁ethereum	-11.5788
▁license	-11.5788
▁mediawiki	-11.5788
▁અનલૉક	-11.5788
▁અલગોરિધમ	-11.5788
▁આરએન્ડડી	-11.5788
▁ઇન્સ્ટિટ્યૂટ	-11.5788
▁કીબાઈન્ડીં	-11.5788
▁કોમોડિટી	-11.5788
▁છાજલીઓ	-11.5788
▁તહેવાર	-11.5788
▁નિમંત્રણ	-11.5788
▁પોર્ટુગલ	-11.5788
▁પ્રતિનિધી	-11.5788
▁પ્રસિદ્ધ	-11.5788
▁પ્રાપ્યતા	-11.5788
▁પ્રોમ્પ્ટ	-11.5788
▁મ્યુઝીક	-11.5788
▁સ્થિતિસ્થાપક	-11.5788
▁હિન્દુ	-11.5788
▁સંપ્રદાય	-11.5788
▁કિંગડમ	-11.5788
▁થોભો	-11.5788
▁Class	-11.5788
▁તત્ત્વ	-11.5788
▁વણાટ	-11.5788
▁ચોપડી	-11.5788
▁હુમલા	-11.5788
▁July	-11.5788
▁ભઠ્ઠી	-11.5788
Location	-11.5788
▁Train	-11.5788
▁ફાજલ	-11.5788
▁અવલોકન	-11.5788
▁ડીઝલ	-11.5789
▁વિશિષ્ટતાઓ	-11.5789
▁Exchange	-11.5789
▁સ્ટોરીબોર્ડ	-11.5789
▁Pdf	-11.5789
▁કૉપિ	-11.5789
eason	-11.579
▁ફ્યુઅલ	-11.579
▁કાર્ટુન	-11.5791
્યુલેશન	-11.5791
▁હાકેમ	-11.5792
▁સહેજ	-11.5794
▁સમાવાયેલ	-11.5794
▁જૈન	-11.5795
▁કરન્સી	-11.5795
▁હોઉં	-11.5796
▁કાર્યાલય	-11.5799
AIR	-11.5801
▁બેઠી	-11.5801
▁વાપરશે	-11.5804
▁comment	-11.5807
xbet	-11.5808
XMR	-11.5808
▁જમવા	-11.5809
▁(9)	-11.5818
▁દોરે	-11.5818
શાયર	-11.5828
▁યુનિટ	-11.5849
▁4.3	-11.5891
Write	-11.5895
▁યોજાય	-11.5905
hill	-11.5916
▁જૂઠ	-11.5931
huang	-11.5936
“	-11.5943
Tube	-11.5946
with	-11.5953
▁Anti	-11.596
script	-11.5967
Step	-11.5968
▁ઉછ	-11.597
saveatrain	-11.5973
Access	-11.5973
સ્ક્રિપ્શન	-11.5973
▁Bepanh	-11.5973
▁Roselle	-11.5973
▁ensembles	-11.5973
▁આયુર્વેદ	-11.5973
▁ઈન્જેક્શન	-11.5973
▁એક્સ્ટેંશન	-11.5973
▁એટલાન્ટિક	-11.5973
▁એરિઝોના	-11.5973
▁કન્વેયર	-11.5973
▁ચેલ્સિયા	-11.5973
▁ભયભીત	-11.5973
▁રજીસ્ટ્રેશન	-11.5973
▁વિયેતનામ	-11.5973
▁સ્ક્રૂ	-11.5973
▁હાંસિયા	-11.5973
▁હારમાળા	-11.5973
▁પીટર્સબર્ગ	-11.5973
▁સ્પોન્જ	-11.5973
▁86-574-8	-11.5973
▁RedeLin	-11.5973
▁સીબીડી	-11.5974
મેઇનલેન્ડ	-11.5974
SIZE	-11.5974
▁FAQ	-11.5974
▁ડિવાઇસ	-11.5974
▁રક્ષક	-11.5974
▁વિશ્રામવારે	-11.5974
▁Return	-11.5974
▁****	-11.5975
▁અપીલ	-11.5976
▁ગુણાંક	-11.5977
▁ઇન્ટેલ	-11.5977
▁છુપાડો	-11.5978
▁ધીરે	-11.598
txt	-11.598
▁Team	-11.5982
▁અસામાન્ય	-11.5983
▁ચિત્ત	-11.5983
વડાવ	-11.5984
▁What	-11.5984
▁લાગશે	-11.5986
▁ઉજવ	-11.5988
▁પ્રમાણિક	-11.5988
▁પહેર્યો	-11.5989
▁મર્જ	-11.599
▁ભાગવત	-11.5993
▁તાવ	-11.5993
forex	-11.5995
mount	-11.6008
(20)	-11.6011
plain	-11.6014
6577	-11.6016
પોલિસ	-11.6018
▁કૌશલ્ય	-11.6028
6.1	-11.6062
▁high	-11.6097
સક્રિય	-11.6128
Disc	-11.613
ગૃહ	-11.6135
trac	-11.6144
અમારા	-11.6147
▁મમ્મી	-11.615
▁રજિસ્ટર	-11.6161
▁Scratch	-11.6162
▁qemu	-11.6162
▁ઇન્ટરવ્યૂ	-11.6162
▁ઉદભવ	-11.6162
▁વડોદરા	-11.6162
▁વિદ્યુત	-11.6162
/01/2020	-11.6162
વિસંગતિ	-11.6162
▁London	-11.6162
▁Pacific	-11.6162
▁rsquo	-11.6162
▁આગ્રહણીય	-11.6162
▁ઑસ્ટ્રેલિયન	-11.6162
▁દુર્લભ	-11.6162
▁ફોર્કલિફ્ટ	-11.6162
▁રંગબેરંગી	-11.6162
▁રિસાયકલ	-11.6162
▁હુઇઝોઉ	-11.6162
▁નિરૂપણ	-11.6162
onfigmgr	-11.6162
▁કમાણી	-11.6162
▁બાકાત	-11.6162
▁ચક્રવાત	-11.6162
વિનિયમો	-11.6162
▁મચ્છર	-11.6162
gconf	-11.6162
▁પીસવાની	-11.6162
▁સીરીઝ	-11.6162
▁એંજિન	-11.6162
પરિધાન	-11.6162
▁કાર્તિક	-11.6162
▁માઇમ	-11.6162
▁એનિમેટ	-11.6163
▁માર્બલ	-11.6163
▁આવવું	-11.6164
value	-11.6164
▁અંધાર	-11.6165
blue	-11.6165
▁સ્પાર્ક	-11.6166
▁પ્રમાદ	-11.6166
▁સૂચી	-11.6166
▁લૉગિન	-11.6166
▁નોર્વે	-11.6167
▁જાગૃત	-11.6167
▁બોસ્ટન	-11.6168
▁સોંપણી	-11.6173
▁આકારણી	-11.6174
chile	-11.6175
intl	-11.6177
▁0.05	-11.6185
olab	-11.6191
▁SGS	-11.6192
▁ઇનામ	-11.6198
▁૨૦૦૦	-11.6201
▁ભૂખ્યા	-11.6207
▁લૉ	-11.6217
▁2.7	-11.6247
metal	-11.625
matic	-11.6305
WIT	-11.6331
જગ્યા	-11.6332
ઉત્તર	-11.6332
▁કન્યા	-11.6335
ત્રીજ	-11.6349
▁પુનઃપ્રાપ્ત	-11.6352
▁અનિચ્છનિય	-11.6354
▁અનુલક્ષીને	-11.6354
▁અસ્થિર	-11.6354
▁જાહેરખબર	-11.6354
▁ડિસ્ટ્રિક્ટ	-11.6354
▁ડૅસ્કટોપ	-11.6354
▁પાયલોટ	-11.6354
▁ફિટનેસરેબેટ્સ	-11.6354
▁બંધબેસાડો	-11.6354
▁Delhi	-11.6354
▁નિયામક	-11.6354
▁ફ્લોરિડા	-11.6354
▁મધમાખી	-11.6354
▁રોબર્ટ	-11.6354
▁ગિબ્સ	-11.6354
▁ઝબૂક	-11.6354
▁વિમુખ	-11.6354
▁account	-11.6354
▁કેપિટલ	-11.6354
▁પુષ્પ	-11.6354
▁સંહિતા	-11.6354
▁સાથીદાર	-11.6355
church	-11.6355
▁પંજાબ	-11.6355
▁પાકીટ	-11.6355
▁સ્થાપત્ય	-11.6355
▁રાજકારણ	-11.6355
▁મતવિસ્તાર	-11.6355
▁echo	-11.6355
▁સ્માર્ટકાર્ડ	-11.6355
control	-11.6355
▁અપૂર્ણાંક	-11.6356
▁બૂથ	-11.6356
▁ગાર્ડિયન	-11.6356
▁ABU	-11.6356
▁કોલેજોને	-11.6356
▁એક્સેસ	-11.6357
▁પ્રધાન	-11.6358
▁એન્જલ	-11.6359
▁વ્યાપકપણે	-11.636
▁કિલ્લા	-11.636
▁બુલેટ	-11.636
▁બીટદર	-11.636
girl	-11.636
▁પ્રતિબંધિત	-11.6362
▁કૃપાદાન	-11.6365
▁સુધારાયેલ	-11.6372
▁આવકાર્ય	-11.6391
Store	-11.6396
active	-11.6396
▁શીખ્યા	-11.6401
▁મિલાન	-11.6401
▁ક્યુબ	-11.6413
મૃત	-11.6431
સમજશક્તિ	-11.6433
(18)	-11.6451
▁Ext	-11.6452
▁નીકળ્યા	-11.6481
7-9	-11.649
produc	-11.6503
stock	-11.6516
મૂર્તિ	-11.6531
HTML	-11.6531
ઉપલબ્ધ	-11.6532
▁ઉલટા	-11.6547
rick	-11.6549
▁પ્રતિકૂળ	-11.6551
▁લંડન	-11.6551
▁શંકાસ્પદ	-11.6551
ruguay	-11.6551
▁Beilun	-11.6551
▁ઋષિ	-11.6551
▁ઓથોરિટી	-11.6551
▁ઔષધ	-11.6551
▁ડિઝાઈન	-11.6551
▁પરિપક્વ	-11.6551
▁પોઝિશન	-11.6551
▁બેડરૂમ	-11.6551
▁મહાસાગર	-11.6551
▁સાવચેત	-11.6551
▁હાથમોજાં	-11.6551
Digital	-11.6551
▁ઇસ્લામ	-11.6551
▁ટ્યૂબ	-11.6551
▁રિફંડ	-11.6551
▁આંધળો	-11.6551
▁આઇપેડ	-11.6551
▁તકનિકી	-11.6551
▁કઠણ	-11.6551
નાઇજીર	-11.6551
▁ઉપરોક્ત	-11.6551
▁ભૂંડો	-11.6551
▁સ્પુલ	-11.6551
▁પાતળા	-11.6551
▁North	-11.6551
settings	-11.6551
▁ખનિજ	-11.6551
reference	-11.6551
▁ખોવાયેલ	-11.6551
▁તપનું	-11.6551
▁આટલું	-11.6551
▁એટીવી	-11.6551
▁સરકપટ્ટી	-11.6551
▁સ્ક્રુ	-11.6552
▁Holm	-11.6552
▁ચિત્રપટ	-11.6553
▁અવ્યાખ્યાયિત	-11.6553
સ્થાપન	-11.6554
▁અધિક	-11.6555
▁બ્રિટન	-11.6555
▁કેમેરો	-11.6556
▁સ્નેહ	-11.6559
▁બીમારી	-11.656
transform	-11.6561
જન્મ	-11.6567
▁ફેલાય	-11.6592
7.73	-11.6615
(40)	-11.6656
▁cost	-11.6657
5-0	-11.6682
99.99	-11.6706
▁86-13	-11.6727
‘	-11.6731
harger	-11.6731
જથ્થો	-11.6735
નંબર	-11.6737
ICON	-11.6742
111213141516	-11.675
drawable	-11.6751
▁ભૂગોળ	-11.6751
▁વિશ્ર્વાસ	-11.6751
Battery	-11.6751
Material	-11.6751
aDateFmt	-11.6751
activo	-11.6751
daemon	-11.6751
netherlands	-11.6751
▁75533656727	-11.6751
▁Solitaire	-11.6751
▁variant	-11.6751
▁ઇનકમિંગ	-11.6751
▁એટર્ની	-11.6751
▁ચૅગ્જ઼્યૂ	-11.6751
▁ચેમ્પિયન	-11.6751
▁છેતરપિંડી	-11.6751
▁જબરદસ્ત	-11.6751
▁દિલાસો	-11.6751
▁પ્યાદું	-11.6751
▁માછીમારી	-11.6751
▁મુખારવિંદ	-11.6751
▁મૂંઝવણ	-11.6751
▁મેસેન્જર	-11.6751
▁સુપરડોમેન	-11.6751
▁સ્ટેમ્પિંગ	-11.6751
▁અનામિક	-11.6751
▁શ્રદ્ધા	-11.6751
▁સેમિકન્ડક્ટર	-11.6751
▁backpack	-11.6751
▁અવશેષ	-11.6751
▁સ્ટેઇન્ડ	-11.6751
▁નૈરા	-11.6751
▁શિયાળામાં	-11.6751
▁સનાતન	-11.6751
▁અત્તર	-11.6751
▁પરપોટા	-11.6751
nsurance	-11.6751
ફંક્શન	-11.6751
▁પેઈન્ટ	-11.6751
▁ગ્રીડ	-11.6751
▁શુક્ર	-11.6751
બ્લાસ્ટ	-11.6752
ки	-11.6752
▁અનુક્રમાંક	-11.6752
▁સર્વેક્ષણ	-11.6752
▁ખોવાઈ	-11.6753
▁સ્ટ્રીપ	-11.6753
▁12:00	-11.6754
▁કૈસરિયા	-11.6754
▁ઇન્સ્ટોલેશન	-11.6754
▁ઓલિવ	-11.6755
▁અજાણ્યું	-11.6755
▁ભૂંડા	-11.6755
▁GSTIN	-11.6756
▁High	-11.6758
▁દરિયાઇ	-11.6759
exec	-11.6762
▁ઊચ	-11.6781
scale	-11.6794
psi	-11.6849
6.30	-11.6864
ector	-11.6869
▁Crea	-11.6885
▁શક્ત	-11.6887
ઍ	-11.6925
number	-11.6943
બુદ્ધિ	-11.6944
પોઇંટ	-11.6953
▁price	-11.6955
nbsp	-11.6955
publicidadonline	-11.6955
ોઅહેવાલો	-11.6955
▁Kingdom	-11.6955
▁NetworkManager	-11.6955
▁Pidgin	-11.6955
▁ProgressPlay	-11.6955
▁Tomboy	-11.6955
▁brushless	-11.6955
▁અદ્રશ્ય	-11.6955
▁અનુભૂતિ	-11.6955
▁આડકતરી	-11.6955
▁ઉત્તેજક	-11.6955
▁કંટાળાજનક	-11.6955
▁છંટકાવ	-11.6955
▁ડાયાબિટીસ	-11.6955
▁દુન્યવી	-11.6955
▁પરમહંસ	-11.6955
▁બેકઍન્ડ	-11.6955
▁વાગ્યે	-11.6955
▁વિચલિત	-11.6955
▁XMailer	-11.6955
▁રિએક્ટર	-11.6955
▁NULL	-11.6955
▁હોલ્ડિંગ	-11.6955
operation	-11.6955
▁ગુંદર	-11.6955
▁હોશિયાર	-11.6955
▁અટકાયત	-11.6955
▁સચિવ	-11.6955
▁Editor	-11.6955
▁વેકેશન	-11.6955
▁શાપિત	-11.6955
▁એસએપી	-11.6955
▁ક્રુઝ	-11.6955
▁નમઃ	-11.6955
▁વહાલા	-11.6955
▁વોશિંગ્ટન	-11.6955
▁કાંઇ	-11.6955
Tokio	-11.6955
▁Robert	-11.6955
▁Battle	-11.6956
disks	-11.6956
▁ખૂણે	-11.6956
▁માર્થા	-11.6956
black	-11.6958
▁ભરેલી	-11.6958
▁અજાણ્યો	-11.6961
Wacom	-11.6965
▁શાસક	-11.6975
▁દીવા	-11.6984
START	-11.6984
9.4	-11.7071
▁symbol	-11.7139
store	-11.7145
▁થનાર	-11.7147
પ્રયત્ન	-11.7157
પવિત્ર	-11.7159
▁મંગળ	-11.7161
/10/2019	-11.7163
કર્નેલિયસ	-11.7163
મિશિગન	-11.7163
▁AASraw	-11.7163
▁Culture	-11.7163
▁Shravan	-11.7163
▁jackpots	-11.7163
▁અઠવાડિયે	-11.7163
▁આંતરરાષ્ટ્રિય	-11.7163
▁આરાધના	-11.7163
▁ઇજનેરી	-11.7163
▁એક્રેલિક	-11.7163
▁કોમ્પેક્ટ	-11.7163
▁ગાણિતિક	-11.7163
▁ઘર્ષણ	-11.7163
▁ટિયાનજિન	-11.7163
▁ડિસ્ચાર્જ	-11.7163
▁દંપતી	-11.7163
▁નિર્દોષ	-11.7163
▁નિર્ધારિત	-11.7163
▁પેસફિક	-11.7163
▁મૂએલામાંથી	-11.7163
▁યૂટ્યૂબ	-11.7163
▁વિભાજીત	-11.7163
▁UUID	-11.7163
▁ડાયમંડ	-11.7163
▁રેડિયલ	-11.7163
▁સંક્રમણ	-11.7163
▁ટોળું	-11.7163
▁MPEG	-11.7163
▁ક્લીનર	-11.7163
▁બમણું	-11.7163
▁કાદવ	-11.7163
▁iCalendar	-11.7163
▁સિવિલ	-11.7163
▁market	-11.7163
▁પરિષદ	-11.7163
▁જાસૂસ	-11.7163
▁Xxx	-11.7163
▁સ્વયંસંચાલિત	-11.7163
▁Fox	-11.7163
▁બીબામાં	-11.7163
▁કેરિયર	-11.7163
▁વિડીઓ	-11.7164
એસઓપી	-11.7164
▁તારનાર	-11.7164
▁ફ્રેમવર્ક	-11.7164
▁Prepar	-11.7164
▁ઉતરાણ	-11.7164
shift	-11.7164
▁નોટિસ	-11.7166
કલ્ચર	-11.7167
▁ડિકોડ	-11.7168
▁પીએસએ	-11.7168
▁પ્રદેશોમાં	-11.7168
iceland	-11.7168
▁પરોક્ષ	-11.7168
▁ફિફા	-11.7171
▁બેસાડ	-11.7184
઼	-11.7192
anama	-11.7214
dict	-11.7243
bble	-11.729
▁બાથરૂમ	-11.7317
5:02	-11.7321
▁વેગાસ	-11.7356
▁સંભવ	-11.7374
ઝડપી	-11.7374
કાર્યક્રમ	-11.7375
▁સ્પ્રિંગ	-11.7376
browser	-11.7376
global	-11.7376
templates	-11.7376
▁Shotwell	-11.7376
▁bulgaria	-11.7376
▁પ્રોડક્શન	-11.7376
▁ભૂંસવું	-11.7376
▁મોટેભાગે	-11.7376
▁રમૂજી	-11.7376
▁વુડવિંડ	-11.7376
▁સાર્વત્રિક	-11.7376
▁Fitness	-11.7376
▁વર્ગીકૃત	-11.7376
▁વાઇફાઇ	-11.7376
▁હનુમાન	-11.7376
xNUMX	-11.7376
▁ટર્બો	-11.7376
▁પર્યાપ્ત	-11.7376
▁પ્રજનન	-11.7376
▁શ્રવણ	-11.7376
▁સિમ્યુલેટર	-11.7376
▁place	-11.7376
▁વક્તા	-11.7376
▁શ્રીમતી	-11.7376
engine	-11.7376
▁નાજુક	-11.7376
▁ઈજનેર	-11.7376
▁Buy	-11.7376
▁બોરિંગ	-11.7376
digit	-11.7376
▁પોશાક	-11.7376
▁ચિકન	-11.7376
▁Break	-11.7376
▁હાઈડ્રો	-11.7376
▁ઉલટી	-11.7376
પિરાઇટ	-11.7377
▁ટુવાલ	-11.7377
▁ઉઠાડ	-11.7377
▁દફન	-11.7377
Split	-11.7377
▁મિક્સર	-11.7377
▁મુદત	-11.7377
Speed	-11.7378
▁બોલાવ્યો	-11.7379
▁બડાશ	-11.7379
▁જીડબ્લ્યુ	-11.7381
▁માંગીએ	-11.7381
▁આચાર્ય	-11.7382
angheng	-11.7382
▁boss	-11.7383
▁સાયપ્ર	-11.7383
Girl	-11.7414
7.6	-11.7426
click	-11.7426
▁તિર	-11.7434
કલાક	-11.7483
▁નિષ્કર્ષ	-11.7589
Calendar	-11.7593
17181920212223	-11.7593
▁CoinCETI	-11.7593
▁DarkTokenDT	-11.7593
▁SCSI	-11.7593
▁strength	-11.7593
▁આભારસ્તુતિ	-11.7593
▁ઉત્સર્જન	-11.7593
▁એપાર્ટમેન્ટ	-11.7593
▁ઓપરેટીંગ	-11.7593
▁ખતરનાક	-11.7593
▁દરખાસ્ત	-11.7593
▁ધિરાણ	-11.7593
▁નિરર્થક	-11.7593
▁પ્રાકૃતિક	-11.7593
▁યથાર્થ	-11.7593
▁લાયબ્રેરી	-11.7593
▁સંગઠિત	-11.7593
▁સર્ટિફિકેશન	-11.7593
▁સિમ્યુલેશન	-11.7593
Secret	-11.7593
▁Medical	-11.7593
▁people	-11.7593
▁કોન્સોલ	-11.7593
▁પાસ્ખાપર્વ	-11.7593
▁બહાદુર	-11.7593
▁વિઝાર્ડ	-11.7593
▁Cannon	-11.7593
▁આઈપેડ	-11.7593
▁માહિતિ	-11.7593
▁અસક્ષમ	-11.7593
▁credit	-11.7593
▁જોગવાઈ	-11.7593
▁ડોકટરો	-11.7593
▁મનોવિજ્ઞાન	-11.7593
balance	-11.7593
▁રાજનીતિ	-11.7593
Lobster	-11.7593
▁કંપનવિસ્તાર	-11.7593
▁દરબારમાં	-11.7593
▁છાત્ર	-11.7593
password	-11.7593
▁રહેવાસીઓ	-11.7593
▁ઓરડામાં	-11.7593
▁અચળ	-11.7593
▁નવીનીકરણ	-11.7594
armenia	-11.7594
Hello	-11.7594
▁એકીકૃત	-11.7594
▁અંજીર	-11.7594
▁ઉંદર	-11.7594
▁અરબી	-11.7594
દર્શકપટ્ટી	-11.7594
▁લાયકાત	-11.7595
▁ઉગાડ	-11.7595
▁Maker	-11.7595
▁(2015)	-11.7595
▁કેન્	-11.7595
▁ટ્વિંક	-11.7596
▁મેળવનારાઓ	-11.7596
▁અવધિ	-11.7596
મર્યાદા	-11.7596
▁MCAT	-11.7596
▁ટૅબલેટ	-11.7596
લખાણ	-11.7597
▁CMS	-11.7597
▁વર્ગખંડ	-11.7599
જુલાઈ	-11.7599
▁પ્લેનેટ	-11.76
▁ત્રાસ	-11.76
check	-11.7602
▁ક્રીક	-11.7604
▁ઉપસ્થિત	-11.761
0-20	-11.7611
spir	-11.764
▁ચકાસનાર	-11.7654
paint	-11.766
6.8	-11.7671
8.9	-11.7684
▁પાડનાર	-11.7763
▁ફેલાયેલ	-11.7773
rikoooo	-11.7815
▁પલટાવો	-11.7815
ઓક્ટોપસ	-11.7815
માથ્થી	-11.7815
▁Samsung	-11.7815
▁business	-11.7815
▁અસ્વસ્થ	-11.7815
▁ડેવલોપર	-11.7815
▁તીક્ષ્ણ	-11.7815
▁દૃષ્ટાંત	-11.7815
▁પડછાયા	-11.7815
▁પોર્ટુગીઝ	-11.7815
▁ભ્રષ્ટાચાર	-11.7815
▁રિઝોલ્યુશન	-11.7815
▁રોગપ્રતિકારક	-11.7815
▁લૂગડાં	-11.7815
▁વિભાજન	-11.7815
▁સંક્ષિપ્ત	-11.7815
▁હથિયાર	-11.7815
▁હ્રિવિનિયા	-11.7815
▁કોતરણી	-11.7815
▁ગઈકાલે	-11.7815
▁પંક્તિ	-11.7815
▁બેઠેલા	-11.7815
▁વિચારસરણી	-11.7815
.08.2018	-11.7815
MONTH	-11.7815
▁ઉદેશ્ય	-11.7815
▁પચાસ	-11.7815
▁મુબારક	-11.7815
▁યહોવા	-11.7815
▁સાંધા	-11.7815
▁એનાઇમ	-11.7815
▁ઉમદા	-11.7815
▁એફેસસ	-11.7815
Author	-11.7815
▁સીવણ	-11.7815
IGHT	-11.7815
Special	-11.7815
▁પરગણું	-11.7815
▁કચરા	-11.7816
▁કલંક	-11.7816
▁રિબન	-11.7816
▁કાંટો	-11.7816
▁બંડલ	-11.7816
▁ડીએનએ	-11.7816
package	-11.7817
▁એસેમ્બલી	-11.7817
frame	-11.7817
▁બિનઆધારિત	-11.7818
▁ઊંચે	-11.7818
▁પ્રજાતિ	-11.7818
પૃષ્ઠ	-11.7824
(10)	-11.7826
Edit	-11.7829
Order	-11.7832
▁ચોખ્ખુ	-11.7848
FILE	-11.7848
બિલ્	-11.7861
forward	-11.788
▁Jiang	-11.7904
▁ભેગુ	-11.8031
સ્ટ્રેલિયા	-11.804
rajkot	-11.8043
▁GStreamer	-11.8043
▁Vishay	-11.8043
▁backsplash	-11.8043
▁extruder	-11.8043
▁sinlongglass	-11.8043
▁sprites	-11.8043
▁એનાલિસિસ	-11.8043
▁ગંતવ્ય	-11.8043
▁ટેલિવિઝન	-11.8043
▁નિકાલજોગ	-11.8043
▁ફ્રાઇડે	-11.8043
▁મહત્ત્વ	-11.8043
▁શાબ્દિક	-11.8043
▁Firefox	-11.8043
▁Valentine	-11.8043
▁અધ્યક્ષ	-11.8043
▁ઋતુ	-11.8043
▁એક્ઝિક્યુટિવ	-11.8043
▁ગોસ્પેલ	-11.8043
▁જીંદગી	-11.8043
▁વાક્યરચના	-11.8043
▁આઉટલુક	-11.8043
▁-----	-11.8043
▁either	-11.8043
▁ફુવારા	-11.8043
▁કરવેરા	-11.8043
▁એલસીડી	-11.8043
Domain	-11.8043
▁ડેનિશ	-11.8043
▁સમરૂની	-11.8043
domain	-11.8043
yemen	-11.8043
્રિયાપ્રતિક્રિયા	-11.8043
▁એડવાન્સ	-11.8043
▁એસ્ટ્રા	-11.8043
▁અપૂરતી	-11.8043
▁જ્વાળા	-11.8043
▁કૂતરા	-11.8043
▁વિરામચિહ્ન	-11.8043
▁ધીમું	-11.8043
▁યુનિકોડ	-11.8043
▁ઊંચો	-11.8044
▁જોડનાર	-11.8044
▁આરએચ	-11.8044
▁24.98	-11.8045
ગવર્ન	-11.8045
▁SEK	-11.8045
▁સરાઉન્ડ	-11.8045
cross	-11.8045
▁હરીફ	-11.8045
▁Sports	-11.8045
▁રીવ્યુ	-11.8045
translate	-11.8048
index	-11.8049
▁(1,2	-11.8056
Christ	-11.8056
સફેદ	-11.8056
કૃપા	-11.8056
કંઈ	-11.8064
Find	-11.8068
House	-11.809
flag	-11.8122
▁SHA	-11.8216
▁સૈનિક	-11.823
▁નિરાશ	-11.8257
~	-11.827
ઇલેક્ટ્ર	-11.8273
zbekistan	-11.8275
▁22.02.2019	-11.8275
▁Amazon	-11.8275
▁GoDaddy	-11.8275
▁Graduate	-11.8275
▁Limited	-11.8275
▁અર્મેનિયન	-11.8275
▁ઉપશીર્ષક	-11.8275
▁ઓલિમ્પિક	-11.8275
▁ગેજેટ્સ	-11.8275
▁ગ્રાઇન્ડીંગ	-11.8275
▁ટેકનિશિયન	-11.8275
▁બાદબાકી	-11.8275
▁મલેશિયા	-11.8275
▁માવજત	-11.8275
▁મુદ્રિત	-11.8275
▁રેસ્ટોરાં	-11.8275
▁શુકમુનિ	-11.8275
▁સાધનમદદ	-11.8275
▁સ્નિગ્ધ	-11.8275
▁હરિયાણા	-11.8275
▁Shopify	-11.8275
▁inverter	-11.8275
▁ફૂલ્લીનો	-11.8275
▁કેપ્ચા	-11.8275
▁ગ્રુવ	-11.8275
▁ડેનમાર્ક	-11.8275
▁ભરેલું	-11.8275
family	-11.8275
સહજાનંદ	-11.8275
▁રેઝિન	-11.8275
▁ટોક્યો	-11.8275
▁સ્પુન	-11.8275
▁HDMI	-11.8275
▁યુટીસી	-11.8275
▁Hydro	-11.8275
▁ઝરમર	-11.8275
socket	-11.8275
▁મિકેનિક	-11.8275
▁દ્રારા	-11.8275
Source	-11.8275
false	-11.8276
▁ચતુર્	-11.8276
▁એન્ટેના	-11.8276
▁બદલામાં	-11.8276
▁MGA	-11.8276
▁છુપાવવા	-11.8276
▁આધિન	-11.8276
▁લડાઇ	-11.8276
▁ઑફશોર	-11.8276
▁ચોવીસ	-11.8277
▁(2013)	-11.8277
▁શત્રુ	-11.8278
▁રાજસ્થાન	-11.8278
▁(2016)	-11.8278
▁Daqi	-11.828
▁ચશ્મા	-11.8284
uyana	-11.8288
વાર્તાલાપ	-11.8294
ડિરેક્ટરી	-11.8294
આકાશ	-11.8296
શરૂઆત	-11.8297
6.6	-11.8317
Trend	-11.837
(16)	-11.8379
ગ્રાફિક	-11.8399
▁86-57	-11.8405
Point	-11.8438
▁સોલ્યુશન	-11.8497
-03-20	-11.85
9.6	-11.8511
ટેન્શન	-11.8512
2425262728293031	-11.8513
▁12345678910	-11.8513
.08.2013	-11.8513
Gujju	-11.8513
ско	-11.8513
▁Decorative	-11.8513
▁GETWELL	-11.8513
▁Ishqbaaz	-11.8513
▁NxtNXT	-11.8513
▁PayCoinXPY	-11.8513
▁ROSELLE	-11.8513
▁where	-11.8513
▁zlp	-11.8513
▁ઇકોનોમિક	-11.8513
▁ઉત્કૃષ્ટ	-11.8513
▁ઉત્પ્રેરક	-11.8513
▁ઔપચારિક	-11.8513
▁કર્ણાટક	-11.8513
▁કૌટુંબિક	-11.8513
▁ખુરશી	-11.8513
▁ગુરુત્વાકર્ષણ	-11.8513
▁ઘૂંટણ	-11.8513
▁ચરકટનો	-11.8513
▁જીકોમ્પ્રીસ	-11.8513
▁દૃઢ	-11.8513
▁નાઇટ્રોજન	-11.8513
▁પુનરુંત્થાન	-11.8513
▁પેરેંટલ	-11.8513
▁પૉલિસી	-11.8513
▁લેબોરેટરી	-11.8513
▁સમારંભ	-11.8513
▁સ્ટાર્ટઅપ	-11.8513
energy	-11.8513
શાંઘાઈ	-11.8513
▁Travel	-11.8513
▁ડેટાશીટ	-11.8513
▁પપ્પા	-11.8513
▁પાઇરેટ	-11.8513
▁ફાયબર	-11.8513
્ટભંજન	-11.8513
▁Happy	-11.8513
▁ચાર્લ્સ	-11.8513
▁ટળ્યા	-11.8513
▁વછેરા	-11.8513
▁complete	-11.8513
▁ડૅશ	-11.8513
▁લીનિયર	-11.8513
▁આક્ષેપ	-11.8513
▁વટાવી	-11.8513
▁GSET	-11.8513
▁ગેલરિ	-11.8513
એક્સએનએક્સએક્સ	-11.8513
▁ઇઝરાયેલ	-11.8513
▁દરવાજો	-11.8513
▁contin	-11.8513
▁Ultra	-11.8513
Button	-11.8513
▁વખાણ	-11.8513
▁Price	-11.8513
▁બોનોબો	-11.8513
▁ઢોળ	-11.8513
▁રસોઈ	-11.8513
,00€	-11.8514
▁અહિયાં	-11.8514
▁વસૂલ	-11.8514
▁એડેલે	-11.8514
▁લેડિઝ	-11.8514
▁આંસુ	-11.8514
▁સ્પંદન	-11.8514
▁SXL	-11.8514
▁ખવડાવ	-11.8515
▁(2014)	-11.8515
સ્પેનીશ	-11.8516
▁તિતસ	-11.8516
,00,000	-11.8516
▁9:00	-11.8517
▁burm	-11.8519
▁PURP	-11.8521
KIT	-11.8522
bhuta	-11.8525
▁ચેતવ	-11.8526
IBM	-11.8528
BRL	-11.8543
▁ગેલન	-11.8545
-10-19	-11.8563
▁વોલ્ટ	-11.8583
▁આદમ	-11.8589
▁નકામા	-11.8603
(17)	-11.863
Enter	-11.8657
▁next	-11.8676
▁કંપન	-11.8714
▁ચોખ્ખ	-11.8722
એસેમ્બલ	-11.8755
▁વોશિંગ	-11.8757
▁BitcoinDarkBTCD	-11.8757
હાયબરનેટ	-11.8757
▁CraigsCoinCRAIG	-11.8757
▁Entertainment	-11.8757
▁PeerCoinPPC	-11.8757
▁WooCommerce	-11.8757
▁xHamster	-11.8757
▁અનિશ્ચિત	-11.8757
▁અર્થઘટન	-11.8757
▁ઉત્પત્તિ	-11.8757
▁ક્લાર્ક	-11.8757
▁જિંદગી	-11.8757
▁પડછાયો	-11.8757
▁પાંજરા	-11.8757
▁પ્રશિક્ષણ	-11.8757
▁બેન્ડવિડ્થ	-11.8757
▁વાટાઘાટ	-11.8757
▁શુષ્ક	-11.8757
▁સંબધિત	-11.8757
▁સૂકવણી	-11.8757
Zombie	-11.8757
▁ગુંબજ	-11.8757
▁દુખાવો	-11.8757
▁યુઆઇપી	-11.8757
▁શેડ્યૂલ	-11.8757
▁Article	-11.8757
▁કેનવાસ	-11.8757
Standard	-11.8757
▁એસ્પેક્ટ	-11.8757
europe	-11.8757
▁ઉત્કટ	-11.8757
▁કચ્છી	-11.8757
▁દમસ્ક	-11.8757
▁ધંધો	-11.8757
▁મહાવરો	-11.8757
▁વ્યકિત	-11.8757
▁Steel	-11.8757
▁ફ્રાંસ	-11.8757
▁રિલીઝ	-11.8757
▁મોટાભાગની	-11.8757
▁after	-11.8757
▁Automatic	-11.8757
▁ફકરા	-11.8757
▁Advi	-11.8757
▁અપનાવે	-11.8758
▁07:00	-11.8758
▁Huafu	-11.8758
નહૂમ	-11.8758
▁સિનેમા	-11.8758
▁poly	-11.8758
▁પુરુષોત્તમ	-11.8758
▁સ્પૂન	-11.8759
▁અચકા	-11.876
MXN	-11.8763
ગુજરાત	-11.8765
HKD	-11.8767
નિર્ગુણ	-11.8769
▁વંચાય	-11.877
;=1	-11.8772
બ્રાઝિલીયન	-11.8777
▁મૌન	-11.8782
માણસ	-11.8788
નિર્માણ	-11.8788
સમાચાર	-11.8788
0-30	-11.8819
▁રુચિ	-11.8822
▁સંભાળનાર	-11.8938
▁1/1	-11.8995
aragua	-11.9
ચિકિત્સા	-11.9007
▁DigiByteDGB	-11.9007
▁Europe	-11.9007
▁GConf	-11.9007
▁MINOLTA	-11.9007
▁PKCS	-11.9007
▁iTunes	-11.9007
▁mFortune	-11.9007
▁એફિલિએટ	-11.9007
▁ઘરગથ્થુ	-11.9007
▁ટચપેડ	-11.9007
▁તબક્કે	-11.9007
▁રિપબ્લિક	-11.9007
▁વતૃળ	-11.9007
▁વર્ટિકલ	-11.9007
▁સુખાકારી	-11.9007
▁BitsharesBTS	-11.9007
▁Components	-11.9007
▁Easy	-11.9007
▁ZCashZEC	-11.9007
▁course	-11.9007
▁અધિનિયમ	-11.9007
▁આઇપોડ	-11.9007
▁એક્સએમએલ	-11.9007
▁એલેક્ઝાન્ડ	-11.9007
▁પરિશ્રમ	-11.9007
▁બહેતર	-11.9007
▁સરખું	-11.9007
.06.2018	-11.9007
nyauctionwizards	-11.9007
▁Jaish	-11.9007
▁પાસ્ખા	-11.9007
▁ઇન્ડેક્સ	-11.9007
crushthe	-11.9007
▁સિનિયર	-11.9007
guardian	-11.9007
▁લેન્ડસ્કેપ	-11.9007
▁પતંગ	-11.9007
▁આર્કેડ	-11.9007
▁નબળી	-11.9007
▁ગેટવે	-11.9007
▁ફ્લાઈટ	-11.9007
Account	-11.9007
▁CJK	-11.9007
▁bytes	-11.9007
client	-11.9008
company	-11.9008
ચ્છેદ	-11.9008
▁હિસાબ	-11.9008
▁ગુડબાય	-11.9008
policy	-11.9008
▁પાદરી	-11.9008
▁કિલોગ્રામ	-11.9008
▁ખૂણો	-11.9008
▁નિષ્ઠા	-11.9009
▁CSV	-11.9009
lovenia	-11.901
▁later	-11.901
Units	-11.901
▁પીડિત	-11.9011
▁PSD	-11.9012
Audio	-11.9044
Unlimited	-11.9044
એલઇડી	-11.9044
તમારું	-11.9045
અહીં	-11.9045
ચાઇના	-11.9045
▁Collect	-11.9107
Shop	-11.915
▁કુદરત	-11.9242
▁અઠવાડિયુ	-11.9252
xxx	-11.926
દ્યોગિક	-11.9264
▁Nautilus	-11.9264
▁Prestashop	-11.9264
▁Scooby	-11.9264
▁Spelling	-11.9264
▁Syrup	-11.9264
▁published	-11.9264
▁આશ્ચર્યચકિત	-11.9264
▁ક્લેરનેટ	-11.9264
▁ડિવિઝન	-11.9264
▁ડોલ્ફિન	-11.9264
▁બાંયધરી	-11.9264
▁ભૌગોલિક	-11.9264
▁મદદગ્રંથ	-11.9264
▁મિસ્ત્રી	-11.9264
▁વિશ્લેષક	-11.9264
▁સર્ટિફાઇડ	-11.9264
▁સિલીકોન	-11.9264
▁સ્વિટ્ઝર્લૅન્ડ	-11.9264
સ્પ્લેન્ડર	-11.9264
▁CSGO	-11.9264
▁Cutting	-11.9264
▁UNIX	-11.9264
▁ખુલ્લો	-11.9264
▁મિલીમીટર	-11.9264
▁શાણપણ	-11.9264
▁શ્રીમંત	-11.9264
.07.2018	-11.9264
▁Daily	-11.9264
▁Foshan	-11.9264
▁ખાદ્ય	-11.9264
▁સેગમેન્ટ	-11.9264
▁terms	-11.9264
▁કેપ્ચર	-11.9264
▁ફટકો	-11.9264
▁York	-11.9264
▁આઇએસઓ	-11.9264
▁SMTP	-11.9264
▁દેશદેશના	-11.9264
▁બ્રોકર	-11.9264
▁Slotmatic	-11.9264
ખગોળ	-11.9264
▁નક્કર	-11.9264
▁મહારાષ્ટ્ર	-11.9264
record	-11.9265
▁રેશમ	-11.9265
▁Intel	-11.9265
▁SME	-11.9265
▁2019-04-	-11.9267
▁FAN	-11.9268
▁હંસ	-11.9272
▁SVN	-11.9274
Google	-11.9308
વિકિપીડિયા	-11.9308
પ્રવેશ	-11.9308
ઉત્પાદન	-11.9308
ગુણવત્તા	-11.9308
Menu	-11.9326
નિર્દેશિત	-11.9357
▁રુપાંતર	-11.9527
Amphenol	-11.9527
▁CRYSTAL	-11.9527
▁Kharkiv	-11.9527
▁OnePlus	-11.9527
▁Saskatchewan	-11.9527
▁battery	-11.9527
▁details	-11.9527
▁libxenlight	-11.9527
▁litecoin	-11.9527
▁sinlongmosaic	-11.9527
▁traditional	-11.9527
▁અન્વેષણ	-11.9527
▁અભિનંદન	-11.9527
▁અવિરત	-11.9527
▁આર્કિટેક્ટ	-11.9527
▁ઉષ્મા	-11.9527
▁ઍડપ્ટર	-11.9527
▁ઍનલૉગ	-11.9527
▁એકેડેમી	-11.9527
▁ગુઆંગઝાઉ	-11.9527
▁ઝાંખો	-11.9527
▁ટેક્નોલૉજી	-11.9527
▁ઠોકર	-11.9527
▁પલ્ગઇન	-11.9527
▁ફેડરેશન	-11.9527
▁મશ્કરી	-11.9527
▁રિસાયક્લિંગ	-11.9527
▁વિસર્જન	-11.9527
▁સભાસ્થાનોમાં	-11.9527
▁સાંદ્રતા	-11.9527
▁સેગ્મેન્ટ	-11.9527
▁સેન્ટીમીટર	-11.9527
▁સ્ટાઇલશીટ	-11.9527
▁ચલચિત્રો	-11.9527
▁ફરજિયાત	-11.9527
▁બગીચો	-11.9527
▁રમુજી	-11.9527
.05.2018	-11.9527
▁એસ્ટ્રોજન	-11.9527
▁ચમચી	-11.9527
▁દ્રાવ્ય	-11.9527
▁Ningbo	-11.9527
▁કેન્વાસ	-11.9527
health	-11.9527
▁રીમોટ	-11.9527
▁સંકલ્પ	-11.9527
▁Glade	-11.9527
stream	-11.9527
▁ટ્રિગર	-11.9527
▁પેઠે	-11.9527
▁Jamon	-11.9527
▁Petro	-11.9527
▁મસાલા	-11.9527
▁બજાજ	-11.9527
▁Pharma	-11.9527
▁ખમીર	-11.9527
Marvel	-11.9527
▁નેચરલ	-11.9527
▁હિલચાલ	-11.9527
લપેપર	-11.9527
▁મોડેમ	-11.9527
▁પઝલ	-11.9527
▁ઇંટો	-11.9527
▁08:00	-11.9527
install	-11.9527
▁સુગમ	-11.9528
▁અદાલત	-11.9528
▁SEO	-11.953
▁પોઇંટર	-11.953
▁ઇરાક	-11.9533
▁દાખવ	-11.9534
ANY	-11.9542
OWN	-11.9556
Express	-11.9561
fox	-11.9561
ounce	-11.9567
Format	-11.9567
પ્રવાહ	-11.9578
સેકન્ડ	-11.9579
Leave	-11.958
પરિમાણીય	-11.9642
disc	-11.971
OSGEAR	-11.9797
PermissionsLevel	-11.9797
Revealed	-11.9797
XBET	-11.9797
▁Coinfalls	-11.9797
▁through	-11.9797
▁અનુકૂલન	-11.9797
▁ઉત્તોદન	-11.9797
▁એન્જીનિયરિંગ	-11.9797
▁કંબોડિયા	-11.9797
▁કાંતવાની	-11.9797
▁કૅલ્ક્યુલેટર	-11.9797
▁તહોમત	-11.9797
▁નવલકથા	-11.9797
▁પગલૂછણિયું	-11.9797
▁પ્રતિષ્ઠિત	-11.9797
▁ફેસ્તુસ	-11.9797
▁બુલડોઝર	-11.9797
▁બ્લૂટૂથ	-11.9797
▁મુસાફરો	-11.9797
▁મોટરસાયકલ	-11.9797
▁રિચાર્ડ	-11.9797
▁રિપોઝીટરી	-11.9797
▁લોકશાહી	-11.9797
▁શૃંગારિક	-11.9797
▁સિંગાપોર	-11.9797
▁સ્પ્રીંગ	-11.9797
▁અપોલોસ	-11.9797
▁કાઉન્ટર	-11.9797
▁ગર્ભવતી	-11.9797
▁લપેટો	-11.9797
▁સિગ્મા	-11.9797
▁"{1}"	-11.9797
▁Electro	-11.9797
▁Wallpaper	-11.9797
▁રોમેન્ટિક	-11.9797
▁વિનમ્ર	-11.9797
kitchen	-11.9797
▁પ્યાલો	-11.9797
▁Flash	-11.9797
▁HPLC	-11.9797
▁શાનદાર	-11.9797
▁above	-11.9797
▁પાસ્કલ	-11.9797
/07/201	-11.9797
▁રીસેપ્ટર	-11.9797
▁ડિલક્સ	-11.9797
▁પાર્ટનર	-11.9797
▁Work	-11.9797
surat	-11.9798
▁ખલેલ	-11.9798
▁ગાળવા	-11.9798
▁ઇંટર	-11.9798
UAH	-11.9799
▁સ્લીપ	-11.9799
KRW	-11.98
input	-11.98
shayar	-11.9801
issue	-11.9807
scriptionSample	-11.9808
Organi	-11.9839
ફ્રાન્સ	-11.9856
Online	-11.9856
હંમેશા	-11.9856
▁ઈરાન	-11.9977
▁યુક્તિ	-12.0057
▁રીલેઝને	-12.0075
GDateTime	-12.0075
belgium	-12.0075
ચિકિત્સક	-12.0075
▁Anjuta	-12.0075
▁Bellota	-12.0075
▁Categories	-12.0075
▁CoinFalls	-12.0075
▁Comprar	-12.0075
▁Lenovo	-12.0075
▁Newfoundland	-12.0075
▁Ponyville	-12.0075
▁SpamAssassin	-12.0075
▁character	-12.0075
▁motorbikes	-12.0075
▁અપેક્ષિત	-12.0075
▁એમ્ફેનોલ	-12.0075
▁એસોસિએશન	-12.0075
▁ક્ષેમકુશળ	-12.0075
▁ગેરમાર્ગે	-12.0075
▁દુરુપયોગ	-12.0075
▁દ્ધાક્ષારસ	-12.0075
▁નાનામોટાપણા	-12.0075
▁પગરખાં	-12.0075
▁ફ્રાન્સિસ્કો	-12.0075
▁બાર્સિલોના	-12.0075
▁બૌદ્ધિક	-12.0075
▁બ્રોડકાસ્ટ	-12.0075
▁મલ્ટીમીડિયા	-12.0075
▁મિલિગ્રામ	-12.0075
▁રંગનકશા	-12.0075
▁લૈંગિક	-12.0075
▁વરરાજા	-12.0075
▁સાલ્વાડોર	-12.0075
▁સૂબેદાર	-12.0075
▁સેલિબ્રિટી	-12.0075
▁SASL	-12.0075
▁મરાઠી	-12.0075
▁મ્યુરલ	-12.0075
▁સાલગીરી	-12.0075
▁સ્વિમિંગ	-12.0075
▁પરીક્ષક	-12.0075
▁સમજૂતી	-12.0075
▁અન્વય	-12.0075
manager	-12.0075
▁reply	-12.0075
leading	-12.0075
▁માઇનિંગ	-12.0075
▁વિસારક	-12.0075
▁૨૦૦૮	-12.0075
▁અમેરીકન	-12.0075
▁થપ્પી	-12.0075
▁અપનાવવા	-12.0075
▁દેવનાગરી	-12.0075
Defender	-12.0075
▁એફડીએ	-12.0075
▁ચપળ	-12.0075
europetravel	-12.0075
▁(4,29	-12.0075
▁બમણી	-12.0075
▁સભાજનો	-12.0075
▁રિઆલ	-12.0075
▁ઝઘડ	-12.0075
▁નકામી	-12.0075
▁ZLP	-12.0075
UHL	-12.0075
▁says	-12.0075
▁latest	-12.0075
▁એક્સ્પો	-12.0075
school	-12.0076
▁અથડા	-12.0077
▁CONN	-12.0078
CTION	-12.0091
પુરુષ	-12.0096
Create	-12.0109
opyshop	-12.0136
શૈલી	-12.0138
પરિવહન	-12.0141
શિક્ષક	-12.0141
દ્વારા	-12.0142
▁kind	-12.0144
Guard	-12.0169
edici	-12.018
▁વેલિંગ્ટન	-12.036
ભૌમિતિક	-12.036
▁23.02.2019	-12.036
▁Bratz	-12.036
▁Hongxiang	-12.036
▁Rhythmbox	-12.036
▁altcoin	-12.036
▁available	-12.036
▁fireproof	-12.036
▁reminder	-12.036
▁stirring	-12.036
▁અલ્પવિરામ	-12.036
▁ઇંગ્લેન્ડ	-12.036
▁ઇન્સ્ટિટ્યુટ	-12.036
▁એલિપ્ટિકલ	-12.036
▁ગ્રેજ્યુએટ	-12.036
▁ટોલરન્સ	-12.036
▁તિરસ્કાર	-12.036
▁દુષ્કર્મ	-12.036
▁નગરપાલિકા	-12.036
▁મૂળાક્ષર	-12.036
▁મોર્ગેજ	-12.036
▁રજિસ્ટ્રેશન	-12.036
▁રિપ્લેસમેન્ટ	-12.036
▁રેફ્રિજરેશન	-12.036
▁વિઘટન	-12.036
▁વિપશ્યના	-12.036
▁વૉકિંગ	-12.036
▁સાહજિક	-12.036
▁સુડોકુ	-12.036
▁સ્થાનાંતરિત	-12.036
▁હિમાચલ	-12.036
bosnia	-12.036
▁Outlook	-12.036
▁RayHaber	-12.036
▁ઓટોમોબાઇલ	-12.036
▁કુરિયર	-12.036
▁ટ્રાન્સડ્યુસર્સ	-12.036
▁દરિયાકાંઠ	-12.036
▁નિરાકરણ	-12.036
▁મૂખ્ય	-12.036
▁લિથિયમ	-12.036
▁વિઝ્યુઅલ	-12.036
▁વીઆઇપી	-12.036
▁સાધારણ	-12.036
▁Script	-12.0361
▁TopSlotSite	-12.0361
▁peripher	-12.0361
▁DHCP	-12.0361
▁સતાવણી	-12.0361
éné	-12.0361
▁Hunter	-12.0361
▁could	-12.0361
usmle	-12.0361
▁ખજાનો	-12.0361
▁પિસીસ	-12.0361
▁ગંદા	-12.0361
▁ભાંગેલ	-12.0361
▁મિટર્સ	-12.0361
▁ગ્રાન્ટ	-12.0361
▁વિશ્વભરના	-12.0361
▁(4,28	-12.0361
▁પૌલ	-12.0364
Alpha	-12.0365
લૅન્ડ	-12.038
▁2010-201	-12.0389
Check	-12.0399
Transposh	-12.0435
અંગ્રેજી	-12.0435
પ્રોડક્ટ્સ	-12.0436
પ્રવાસ	-12.0436
ખાનગી	-12.0436
લૉગ	-12.0467
Two	-12.0471
ઘાટાં	-12.051
સંગતતા	-12.0543
▁ફરોશી	-12.0613
▁અખબાર	-12.0633
▁એડજસ્ટ	-12.0654
▁develop	-12.0655
Subject	-12.0655
વિષમઘડી	-12.0655
▁મલ્ખીસદેક	-12.0655
આસિસ્ટેડ	-12.0655
એક્સ્યુએનએક્સ	-12.0655
▁Comodo	-12.0655
▁Enjoy	-12.0655
▁Krishna	-12.0655
▁LOCTITE	-12.0655
▁NEXRAD	-12.0655
▁Netflix	-12.0655
▁Policy	-12.0655
▁Privacy	-12.0655
▁ProBlogger	-12.0655
▁Removal	-12.0655
▁Tanzanian	-12.0655
▁Texas	-12.0655
▁WikiWon	-12.0655
▁kickasstorrents	-12.0655
▁અશ્લીલતા	-12.0655
▁ઇમિગ્રેશન	-12.0655
▁ઉત્ક્રાંતિ	-12.0655
▁એપ્લીકેશન	-12.0655
▁ઓસ્ટ્રેલિયન	-12.0655
▁ઘોષણા	-12.0655
▁ઝલ્દી	-12.0655
▁ડિક્રિપ્ટ	-12.0655
▁તમારૂં	-12.0655
▁તસવીરો	-12.0655
▁ધરાવતો	-12.0655
▁નિરંતર	-12.0655
▁પ્રમુખયાજક	-12.0655
▁પ્લેસ્ટેશન	-12.0655
▁મેલબોર્ન	-12.0655
▁લોજિસ્ટિક્સ	-12.0655
▁વંશવેલો	-12.0655
▁વડાપ્રધાન	-12.0655
▁વાહિયાત	-12.0655
▁શાઇજાઇજ઼્વૅંગ	-12.0655
▁સમર્પણ	-12.0655
▁સ્પ્રેડશીટ	-12.0655
▁હિંસક	-12.0655
▁Omron	-12.0655
▁Street	-12.0655
▁ડ્યૂટી	-12.0655
▁પ્લેઈંગ	-12.0655
▁સહનશીલતા	-12.0655
▁સ્પ્લિટ	-12.0655
John	-12.0655
▁ઉપસર્ગ	-12.0655
▁કારભારી	-12.0655
▁Meeting	-12.0655
▁implie	-12.0655
▁ઓરેકલ	-12.0655
▁ગ્રામીણ	-12.0655
▁જોહ્ન	-12.0655
▁વિલિયમ	-12.0655
uvichar	-12.0655
▁SPMK	-12.0655
▁૨૦૦૭	-12.0655
schema	-12.0655
▁વિપુલ	-12.0655
▁Vente	-12.0655
▁માંદગી	-12.0655
▁વેશ્યા	-12.0655
▁સંચય	-12.0655
nepal	-12.0655
▁સ્મિથ	-12.0655
▁Series	-12.0655
▁તરફેણ	-12.0655
▁વરુના	-12.0655
▁વર્ઝન	-12.0655
▁hope	-12.0655
▁પૂછાતા	-12.0655
▁મસ્તક	-12.0656
.4.2018	-12.0657
▁બેન્ઝ	-12.0657
Gadu	-12.0657
augh	-12.0659
▁ધકેલ	-12.067
▁(2,1	-12.0673
Video	-12.0738
દાખલ	-12.0749
Mount	-12.0896
▁સ્થપાયેલ	-12.0936
▁author	-12.0958
▁કેમ્બ્રિજ	-12.0958
▁બાપ્તિસ્ત	-12.0958
/08/2019	-12.0958
ReplyForward	-12.0958
akistan	-12.0958
anufactur	-12.0958
deThemes	-12.0958
ગુડગાંવમાં	-12.0958
▁Graphene	-12.0958
▁Mahima	-12.0958
▁PARTIC	-12.0958
▁Retrieved	-12.0958
▁component	-12.0958
▁અવિનાશી	-12.0958
▁ઇમર્જન્સી	-12.0958
▁એડમિનિસ્ટ્રેશન	-12.0958
▁એન્ક્રિપ્ટ	-12.0958
▁ઓટોમેટિક	-12.0958
▁કમ્પોનન્ટ	-12.0958
▁ક્લાયંટ	-12.0958
▁ગલ્ફસ્ટ્રીમ	-12.0958
▁ચૂંથવું	-12.0958
▁જોયસ્ટીક	-12.0958
▁ટુલટીપ	-12.0958
▁ટોયોટા	-12.0958
▁ટ્રીટમેન્ટ	-12.0958
▁ડીપાર્ટમેન્ટ	-12.0958
▁દંતકથા	-12.0958
▁ધરતીકંપ	-12.0958
▁પરિપ્રેક્ષ્ય	-12.0958
▁ફિલિપાઇન્સ	-12.0958
▁બેંગકોક	-12.0958
▁મથાળું	-12.0958
▁મિલિસેકન્ડ	-12.0958
▁વિદ્યાલય	-12.0958
▁શિષ્ટાચાર	-12.0958
▁સંભવતઃ	-12.0958
▁સ્પેક્ટ્રમ	-12.0958
▁હાઇબ્રિડ	-12.0958
pixel	-12.0958
▁Heroes	-12.0958
▁અનાન્યા	-12.0958
▁આજ્ઞાંકિત	-12.0958
▁મેડીકલ	-12.0958
▁રેન્કિંગ	-12.0958
▁હંગેરી	-12.0958
▁જુમ્મા	-12.0958
▁રિવ્યૂ	-12.0958
▁વાયોલિન	-12.0958
rayhaber	-12.0958
▁Quick	-12.0958
▁દૈવી	-12.0958
▁વ્યવસ્થાપિત	-12.0958
▁સહેલું	-12.0958
▁કોયડો	-12.0958
▁ધૂપ	-12.0958
▁શોર્ટ્સ	-12.0958
▁Avast	-12.0958
▁ટ્રાન્સફોર્મર	-12.0958
▁સલ્ફર	-12.0958
▁Modle	-12.0958
▁પ્રશ્રો	-12.0958
▁આશિકી	-12.0958
vador	-12.0958
▁James	-12.0958
સીમ્યુલેશન	-12.0958
▁શાશ્વત	-12.0958
▁સઘન	-12.0958
▁After	-12.0958
mistry	-12.0958
▁કમ્યુનિ	-12.0958
▁TUV	-12.0958
▁પંડિત	-12.0958
hristmas	-12.0958
guides	-12.0959
▁સળગાવ	-12.0959
્સએક્સએલ	-12.0959
ભમરી	-12.0959
buffer	-12.0959
એસએસડી	-12.0959
vcpus	-12.0959
▁દઈશ	-12.096
▁ઊઠાડ	-12.0961
▁નેપાળ	-12.0966
Command	-12.0969
walk	-12.0973
remove	-12.0983
ધૂમ	-12.0992
▁મણિ	-12.0998
0-500	-12.1026
▁થીજાવ	-12.1034
ત્યારબાદ	-12.105
ukraine	-12.105
શૂન્ય	-12.1051
મૂળભુત	-12.1051
ઉદાહરણ	-12.1051
ચોક્કસ	-12.1051
કિંમત	-12.1051
પ્રક્રિયા	-12.1051
Phone	-12.1052
યોહાન	-12.1084
▁extra	-12.1092
▁પ્રેક્ષક	-12.1225
▁Geo	-12.1231
▁ઉશ્કેર	-12.1248
પુનરાવર્ત	-12.1268
electronic	-12.127
▁Morehacks	-12.127
▁ભોંય	-12.127
Antarctica	-12.127
Application	-12.127
friendly	-12.127
plasma	-12.127
▁Bollywood	-12.127
▁Cixi	-12.127
▁DMCA	-12.127
▁Koowheel	-12.127
▁Messenger	-12.127
▁MySQL	-12.127
▁Resolution	-12.127
▁Safety	-12.127
▁Second	-12.127
▁VeloSSD	-12.127
▁hardfork	-12.127
▁આનુવંશિક	-12.127
▁ઉત્તેજિત	-12.127
▁ઑગ્ઝિલિઅરિ	-12.127
▁ઓળિયું	-12.127
▁કેપેસિટર	-12.127
▁ચાંચિયાગીરી	-12.127
▁જીકોન્ફ	-12.127
▁ટેક્નિકલ	-12.127
▁ત્વરિત	-12.127
▁નવોત્થાન	-12.127
▁રંગનકશો	-12.127
▁રસાયણશાસ્ત્ર	-12.127
▁રેસ્ટોરેન્ટ	-12.127
▁લાઇસેંસ	-12.127
▁વર્ષગાંઠ	-12.127
▁વીડિયોઅનુક્રમ	-12.127
▁વ્યૂહાત્મક	-12.127
▁સાપ્તાહિક	-12.127
▁સ્ટ્રિગિ	-12.127
▁સ્વચાલિત	-12.127
બરબ્બાસ	-12.127
▁ઢોંગી	-12.127
▁રીબેટ્સ	-12.127
▁હોંગકોંગ	-12.127
Films	-12.127
▁:::::	-12.127
▁CODEC	-12.127
▁ઈર્ષા	-12.127
▁નાઇજીરીયા	-12.127
▁પંચાંગ	-12.127
▁મધ્યવર્તી	-12.127
▁મખમલ	-12.127
▁XMPP	-12.127
▁એચટીસી	-12.127
.10.2018	-12.127
▁Monero	-12.127
console	-12.127
▁રીંછ	-12.127
▁અછત	-12.127
-8859-1	-12.127
ાઈઝેશન	-12.127
▁એલર્જી	-12.127
▁Boston	-12.127
▁પરમાત્મા	-12.127
▁ટ્રાવેલ	-12.127
▁ઉત્થાન	-12.127
▁સિલીંગ	-12.127
toggle	-12.127
▁ઓડિટ	-12.1271
Cancel	-12.1271
▁હોલ્ડર	-12.1273
વૂડ	-12.1281
ડેવિડસન	-12.1291
સમતોલ	-12.1304
Space	-12.1332
Logo	-12.1336
Control	-12.1373
એપ્રિલ	-12.1374
સુધારા	-12.1382
▁ઉદ્ભવ	-12.1571
▁પહોળ	-12.1591
▁પાશ્ર્વ	-12.1592
▁ANSI	-12.1593
▁કન્સલ્ટન્ટ	-12.1593
▁સિધ્ધાંત	-12.1593
austria	-12.1593
qbaz	-12.1593
િફિકેશન	-12.1593
▁20.02.2019	-12.1593
▁Automation	-12.1593
▁Avenger	-12.1593
▁Dropshipping	-12.1593
▁FITNESS	-12.1593
▁MERCHANTABILITY	-12.1593
▁MacBook	-12.1593
▁PornHub	-12.1593
▁Prasangs	-12.1593
▁Science	-12.1593
▁Survey	-12.1593
▁Treadclimber	-12.1593
▁eyelash	-12.1593
▁hoverboard	-12.1593
▁kartik	-12.1593
▁problem	-12.1593
▁skylights	-12.1593
▁students	-12.1593
▁warranty	-12.1593
▁would	-12.1593
▁અણધારી	-12.1593
▁અમુલ્ય	-12.1593
▁એસોસિયેટ	-12.1593
▁કોશિકાઓ	-12.1593
▁ક્રુઇઝર	-12.1593
▁ક્રોએશિયન	-12.1593
▁ખડતલ	-12.1593
▁ગાણિતીક	-12.1593
▁ગૅલરી	-12.1593
▁ચાઇનીઝ	-12.1593
▁ઝ્લોટી	-12.1593
▁ટર્કિશ	-12.1593
▁ડાયોક્સાઇડ	-12.1593
▁ડુપ્લિકેટ	-12.1593
▁પરામર્શ	-12.1593
▁પેસેન્જર	-12.1593
▁પ્રોવાઇડર	-12.1593
▁બાંગ્લાદેશ	-12.1593
▁મેસેજિંગ	-12.1593
▁રમકડાની	-12.1593
▁રીપોઝીટરી	-12.1593
▁વિધાર્થી	-12.1593
▁વેક્યૂમ	-12.1593
▁સર્ટિફિકેટ	-12.1593
▁સ્ટીફન	-12.1593
▁સ્નિપેટ	-12.1593
▁હેન્ગજ્હોય	-12.1593
▁હ્યુઆવેઇ	-12.1593
output	-12.1593
▁please	-12.1593
▁કલેક્ટર	-12.1593
StrictlySlots	-12.1593
bookmarks	-12.1593
routes	-12.1593
▁Checkout	-12.1593
▁અલાસ્કા	-12.1593
▁ખરીદદારો	-12.1593
▁હેન્ડબેગ	-12.1593
▁Level	-12.1593
▁Ninja	-12.1593
▁ફાયરવોલ	-12.1593
▁hostdev	-12.1593
▁નીવડે	-12.1593
▁વિજળી	-12.1593
TYPE	-12.1593
▁coins	-12.1593
▁visit	-12.1593
▁એન્ડરસન	-12.1593
▁ડેલ્ટા	-12.1593
Desmos	-12.1593
Factory	-12.1593
▁અપ્પર	-12.1593
▁કબજો	-12.1593
▁વૉઇસ	-12.1593
▁કોલકાતા	-12.1593
vertical	-12.1593
▁ફિનિશ	-12.1593
▁બેરબેક	-12.1593
▁secure	-12.1593
Process	-12.1593
▁કંટાળ	-12.1593
▁નરકમાં	-12.1593
▁પીએલએ	-12.1595
rabia	-12.1619
umble	-12.1663
±	-12.1707
સ્રોત	-12.1708
▁વિશ્રામ	-12.1888
French	-12.1926
uxembourg	-12.1926
ઓપરેટિવ	-12.1926
▁21.02.2019	-12.1926
▁ASCII	-12.1926
▁Diavel	-12.1926
▁LinkedIn	-12.1926
▁MegaUpload	-12.1926
▁Niyati	-12.1926
▁RippleXRP	-12.1926
▁SCHOTTKY	-12.1926
▁appointment	-12.1926
▁cookware	-12.1926
▁slitting	-12.1926
▁આયુષ્ય	-12.1926
▁ઇનોવેશન	-12.1926
▁ઉદઘાટન	-12.1926
▁એક્ઝેક્યુટેબલ	-12.1926
▁એમ્બ્યુલન્સ	-12.1926
▁એમ્બ્સ્ડ	-12.1926
▁ઐશ્વર્ય	-12.1926
▁કચૂકાનું	-12.1926
▁કેમ્પફાયર	-12.1926
▁ગિરનાર	-12.1926
▁ગુરુકુળ	-12.1926
▁ડિસક્લેમર	-12.1926
▁ડિસ્ટ્રીબ્યુટર	-12.1926
▁થિયેટર	-12.1926
▁પાડાખારનું	-12.1926
▁પૂર્વભૂમિકા	-12.1926
▁પ્રયોજનનું	-12.1926
▁ફાયઆન્સ	-12.1926
▁ફિલસૂફી	-12.1926
▁બિનઓળખાયેલ	-12.1926
▁મત્સરવાળાનું	-12.1926
▁રગ્બી	-12.1926
▁રજિસ્ટ્રાર	-12.1926
▁રાતોરાત	-12.1926
▁સદાસર્વકાળ	-12.1926
▁સદૂકીઓ	-12.1926
▁સારકોઈડોસિસ	-12.1926
▁સ્ટેનોગ્રાફર	-12.1926
▁હાંસિયો	-12.1926
▁હૈદરાબાદ	-12.1926
▁WIFI	-12.1926
▁attache	-12.1926
▁stdout	-12.1926
▁ઈન્ડેક્સ	-12.1926
▁ઓક્સફોર્ડ	-12.1926
▁ગોળાકાર	-12.1926
▁ચાર્લોટ	-12.1926
▁જાણપણાનું	-12.1926
▁ડોટકોમ	-12.1926
▁પેન્સિલ	-12.1926
▁યર્દન	-12.1926
▁Tweet	-12.1926
▁ઓડિશા	-12.1926
▁ગુસ્સો	-12.1926
▁મેક્સીકન	-12.1926
▁સૉર્ટ	-12.1926
▁Punjab	-12.1926
▁Washing	-12.1926
▁ઓક્સાઇડ	-12.1926
▁રીટર્ન	-12.1926
▁સુવર્ણ	-12.1926
▁ફેફસા	-12.1926
▁સ્ક્રેપ	-12.1926
▁choose	-12.1926
▁Rooder	-12.1926
Laptop	-12.1926
▁Italy	-12.1926
Analog	-12.1926
width	-12.1926
▁બહુમતી	-12.1926
Launch	-12.1926
▁રેપિડ	-12.1926
▁White	-12.1926
▁દ્રવ્ય	-12.1926
▁ભેગો	-12.1926
writing	-12.1926
▁પર્સનલ	-12.1926
ઞ	-12.2998
	-12.398
ઋ	-12.5562
©	-12.5846
≤	-12.6372
‍	-12.7125
•	-12.7516
Φ	-12.9521
→	-13.2034
฿	-13.3033
ô	-13.681
·	-14.049
ઐ	-15.1325
●	-15.1326
➖	-15.1326
