<unk>	0
<s>	0
</s>	0
.	-3.40242
,	-3.57751
▁	-3.72347
▁છે	-4.06431
:	-4.32973
▁અને	-4.62319
)	-4.65113
s	-4.85778
-	-4.89244
▁માટે	-4.92959
ની	-4.97459
▁(	-5.02152
ને	-5.0272
માં	-5.10162
ો	-5.18192
▁તે	-5.19999
ના	-5.23655
▁આ	-5.30858
▁કરો	-5.30899
▁-	-5.38351
▁કે	-5.43631
નો	-5.60651
▁પર	-5.6447
ર	-5.67353
ન	-5.75777
▁એક	-5.77798
▁જે	-5.78075
▁નથી	-5.78249
નું	-5.85411
ક	-5.87837
ી	-5.89343
▁તમે	-5.90649
લ	-5.9261
▁એ	-5.93641
▁સાથે	-5.95564
▁/	-6.01339
સ	-6.03678
;	-6.06023
ે	-6.06709
▁(_	-6.06776
/	-6.06991
▁%	-6.08385
▁જ	-6.1159
▁કરી	-6.12393
ઓ	-6.14993
C	-6.16644
A	-6.21321
મ	-6.24749
▁1	-6.28598
▁ડાઉનલોડ	-6.28859
▁ઉપલબ્ધ	-6.30783
તા	-6.32631
▁કરવા	-6.34434
▁પણ	-6.35007
્સ	-6.3745
S	-6.38252
"	-6.38707
d	-6.39424
થી	-6.39864
▁kgm	-6.41668
▁_	-6.44043
M	-6.47085
ં	-6.47634
▁અથવા	-6.48849
_	-6.49371
▁તો	-6.51381
વા	-6.54715
'	-6.55348
▁હોય	-6.55536
▁pcs	-6.56242
▁હું	-6.56282
▁ને	-6.56516
▁"	-6.5705
▁છો	-6.59057
▁દ્વારા	-6.59152
L	-6.59986
?	-6.60397
R	-6.62412
D	-6.62887
ટ	-6.63354
1	-6.63902
B	-6.64157
ા	-6.64567
એ	-6.64833
com	-6.65083
▁જો	-6.65579
2	-6.67307
ni	-6.69149
▁માં	-6.6934
▁S	-6.70092
pdf	-6.72122
▁તમારા	-6.72287
▁રીતે	-6.72317
પ	-6.75623
F	-6.77104
▁કરે	-6.77162
P	-6.77793
T	-6.78436
▁2	-6.79768
3	-6.80331
!	-6.81021
▁અ	-6.8294
p	-6.83133
▁અમે	-6.83507
▁પછી	-6.84452
▁ન	-6.85668
e	-6.86093
rupan	-6.8781
▁ગઢડા	-6.89817
▁કોઈ	-6.90086
ડ	-6.91031
▁તેઓ	-6.91389
en	-6.91837
▁રહ્યા	-6.91879
▁લોકો	-6.92422
▁&	-6.92516
▁શું	-6.94561
▁“	-6.95406
▁3	-6.95415
વ	-6.95449
▁વધુ	-6.95607
▁ટેટૂઝ	-6.95615
y	-6.96181
▁જ્યારે	-6.97429
er	-6.97462
▁નામ	-6.97944
▁પસંદ	-6.98046
▁થયેલ	-6.98818
E	-6.99096
▁ના	-6.99138
▁C	-6.99304
▁બધા	-7.00591
▁A	-7.00657
▁શકે	-7.02159
G	-7.02617
4	-7.02837
m	-7.03541
V	-7.04347
o	-7.05091
a	-7.05541
▁P	-7.05864
%	-7.06026
િંગ	-7.06147
W	-7.08154
▁પરંતુ	-7.08199
ત	-7.09107
n	-7.09799
▁કરવામાં	-7.10248
▁છું	-7.11613
▁સમય	-7.11644
N	-7.1167
in	-7.11676
▁છીએ	-7.11697
x	-7.1236
▁તમને	-7.12595
રી	-7.12818
u	-7.12914
t	-7.13046
5	-7.13612
શ	-7.1437
▁તેને	-7.1458
▁હતી	-7.16172
I	-7.16422
જ	-7.16431
ing	-7.17693
i	-7.18015
▁name	-7.18563
▁હતો	-7.18679
▁નહિં	-7.19113
▁થી	-7.19244
O	-7.19579
▁તરીકે	-7.2004
▁–	-7.20565
▁ત્યારે	-7.212
▁તેના	-7.21578
▁10	-7.22405
▁5	-7.22801
ગ	-7.22847
▁4	-7.23524
▁આવે	-7.24168
▁'%	-7.24531
▁ઇ	-7.25314
c	-7.25331
▁તમારી	-7.26034
ય	-7.26502
▁થાય	-7.26801
▁માહિતી	-7.2684
▁#	-7.26877
▁ઉપયોગ	-7.28122
▁બે	-7.28313
▁ક	-7.28742
K	-7.28846
▁in	-7.29056
gt	-7.29298
▁બ	-7.29683
▁...	-7.30004
▁$	-7.30259
ડી	-7.30503
▁તેથી	-7.30699
▁વિશે	-7.30911
▁કહ્યું	-7.31218
Name	-7.31642
00	-7.31851
▁કરીને	-7.32144
▁B	-7.32907
b	-7.33012
k	-7.33271
▁કામ	-7.3335
▁રંગ	-7.33682
લા	-7.34199
▁a	-7.34401
માંથી	-7.34495
f	-7.34659
H	-7.35355
બ	-7.35806
ઝ	-7.36885
▁આપણે	-7.37428
▁પ્રથમ	-7.3792
▁EUR	-7.37934
વી	-7.39941
ું	-7.40472
▁પાસે	-7.4062
▁હતા	-7.40711
X	-7.40758
સી	-7.409
મા	-7.41919
આ	-7.42203
al	-7.4223
▁F	-7.42298
mm	-7.43179
▁કારણ	-7.4383
નાં	-7.43853
▁€	-7.44132
ણ	-7.44498
▁G	-7.4532
રો	-7.45431
▁અમારા	-7.45452
r	-7.45545
તી	-7.45594
City	-7.46986
ક્સ	-7.47063
amp	-7.47189
▁2018	-7.47311
@	-7.47629
લી	-7.47768
8	-7.47815
રા	-7.47933
▁ભૂલ	-7.48333
▁શકો	-7.49004
6	-7.49144
▁મને	-7.49941
▁ત્યાં	-7.50122
0	-7.51501
▁સુધી	-7.5235
optional	-7.52408
▁હતું	-7.52741
▁6	-7.53135
▁T	-7.53626
▁8	-7.53958
્યા	-7.53991
▁જોઈએ	-7.54552
દ	-7.55213
l	-7.55955
▁+	-7.56403
action	-7.56578
▁મારા	-7.56867
▁D	-7.57103
▁ભાગ	-7.57256
િત	-7.57688
▁નહિ	-7.59309
ુ	-7.60266
▁તેની	-7.60678
7	-7.61418
▁બંધ	-7.61502
▁અન્ય	-7.62528
U	-7.62834
ટી	-7.63039
ચ	-7.63169
▁વિ	-7.63188
▁મધ્ય	-7.63485
▁માત્ર	-7.63636
▁મ	-7.63697
કો	-7.63756
▁હવે	-7.63981
શે	-7.64104
હ	-7.64945
10	-7.65226
▁the	-7.65394
h	-7.65496
▁આવી	-7.65659
▁મે	-7.65661
▁7	-7.6591
(	-7.66045
▁ફાઇલ	-7.66141
▁સિસ્ટમ	-7.66909
▁R	-7.66952
▁2019	-7.66982
▁દૂર	-7.67425
lt	-7.67559
▁H	-7.68096
ed	-7.69097
તો	-7.69528
g	-7.69681
▁પ્રકાર	-7.70466
an	-7.70592
▁બહાર	-7.70605
િક	-7.71182
િ	-7.72037
v	-7.721
▁12	-7.72338
▁મા	-7.72694
્	-7.72791
▁ફોન	-7.72959
ફ	-7.739
9	-7.74165
▁થઈ	-7.74411
▁સ	-7.7442
પી	-7.74915
▁શકાય	-7.75219
▁K	-7.7577
▁—	-7.75998
▁I	-7.76105
▁મારી	-7.7641
▁19	-7.76479
્યો	-7.7664
re	-7.76876
▁ભાવ	-7.7758
વો	-7.78127
ંગ	-7.78142
વું	-7.78673
▁L	-7.78724
▁'	-7.78935
ખ	-7.79606
20	-7.79861
કા	-7.79918
▁ટેટૂ	-7.8006
ળ	-7.80152
30	-7.80464
▁નવી	-7.80591
▁E	-7.80646
એસ	-7.81148
on	-7.81161
▁સક્રિય	-7.81277
.”	-7.81413
▁ઓ	-7.81568
▁ખૂબ	-7.81594
▁ફાઈલ	-7.81733
▁વર્ષ	-7.81937
▁*	-7.82062
le	-7.82172
▁કી	-7.82333
▁માંથી	-7.82497
▁X	-7.82555
▁20	-7.83094
▁માપ	-7.83886
▁દિવસ	-7.83993
જી	-7.84293
મી	-7.8458
▁સેવા	-7.85235
es	-7.85255
▁to	-7.85301
▁શરૂ	-7.86449
▁એમ	-7.86473
▁M	-7.86632
▁N	-7.86946
ng	-7.87195
▁ઉત્પાદન	-7.87292
થ	-7.87339
▁દરેક	-7.87614
▁9	-7.88195
સ્ટ	-7.88361
▁નિષ્ફળ	-7.89334
▁દેવ	-7.8935
▁પ	-7.8942
▁જીવન	-7.89569
50	-7.89711
▁ઈસુ	-7.89878
▁શોધ	-7.89951
▁તેમના	-7.90471
12	-7.9101
▁જેમ	-7.91405
z	-7.91906
્ય	-7.91956
▁શ્રેષ્ઠ	-7.92045
▁બતાવો	-7.92065
▁સંપર્ક	-7.92071
://	-7.92268
ન્સ	-7.92385
▁સર્વર	-7.92487
▁યાદી	-7.92702
સા	-7.92819
11	-7.93392
▁અમારી	-7.93405
ઇ	-7.9385
▁લે	-7.94141
▁કિંમત	-7.94214
▁સ્થિતિ	-7.95358
w	-7.95501
▁બીજા	-7.96242
▁સા	-7.9647
▁ખરેખર	-7.96796
▁£	-7.97541
▁ફોલ્ડર	-7.97816
▁આપે	-7.9786
Y	-7.97926
▁વ્યક્તિ	-7.98233
▁0	-7.98474
▁ઈ	-7.98483
▁સંગ્રહ	-7.98609
ડા	-7.99059
▁W	-7.99067
▁કરેલ	-7.9916
ક્ષ	-7.99247
th	-7.99729
ર્સ	-7.9989
la	-7.9995
▁શક્યા	-8.00174
▁મદદ	-8.00344
)...	-8.00527
ાય	-8.00584
યા	-8.00665
▁આગળ	-8.00675
રે	-8.00698
▁18	-8.00796
▁જગ્યા	-8.00884
▁જરૂર	-8.00902
બી	-8.013
▁મુખ્ય	-8.01412
02	-8.01478
▁પી	-8.01492
&	-8.01816
▁કેવી	-8.01823
ઈ	-8.0183
▁J	-8.02015
▁આધાર	-8.021
▁translation	-8.0211
ેલ	-8.02324
▁©	-8.02434
▁સંપૂર્ણ	-8.02656
J	-8.02868
▁કરશે	-8.02892
▁વિન્ડો	-8.03164
વિ	-8.03402
am	-8.03469
▁ચિત્ર	-8.03477
▁કો	-8.03506
▁2017	-8.03879
▁ગુજરાતી	-8.04107
િયા	-8.0444
16	-8.04475
▁ઘણા	-8.0451
▁મેં	-8.04683
40	-8.05027
ar	-8.05449
ીંગ	-8.05643
▁not	-8.05808
▁11	-8.0585
▁ઈસુએ	-8.05985
▁ફક્ત	-8.06096
▁સામાન્ય	-8.06145
▁15	-8.06495
લે	-8.06516
]	-8.0672
ાઇ	-8.07341
▁લો	-8.07453
▁નેટવર્ક	-8.07668
▁સુયોજિત	-8.0839
▁ઉપકરણ	-8.08858
el	-8.09119
▁સી	-8.09332
▁વિશ્વાસ	-8.09652
▁કોડ	-8.09665
▁યુ	-8.09822
▁મૂળભૂત	-8.1
▁અહીં	-8.10095
▁સૌથી	-8.10435
▁p	-8.10557
લો	-8.10625
▁મશીન	-8.1069
et	-8.10715
▁ઉચ્ચ	-8.10842
▁V	-8.10873
▁તેણે	-8.10892
▁c	-8.10897
co	-8.11347
વે	-8.11693
▁કહે	-8.11858
▁પ્રવેશ	-8.11935
type	-8.11943
▁વિચાર	-8.12187
▁વધારે	-8.12428
15	-8.12545
or	-8.12627
▁લોકોને	-8.12842
ન્ટ	-8.13325
તે	-8.13392
18	-8.13448
▁વિષે	-8.13778
▁and	-8.13818
▁ઉત્પાદનો	-8.13833
▁વ	-8.13872
▁ડોલર	-8.14061
▁પ્રક્રિયા	-8.14148
▁જ્યાં	-8.1455
ૅ	-8.14652
▁કરતાં	-8.14825
▁સંખ્યા	-8.15309
▁16	-8.15465
mahima	-8.15538
▁મોટા	-8.15687
▁હ	-8.1604
▁of	-8.1607
દા	-8.16083
▁જવાબ	-8.16159
શો	-8.16468
ra	-8.16485
▁પે	-8.16576
▁૧	-8.16663
▁ચાઇના	-8.1669
▁વપરાશકર્તા	-8.16757
▁ઉપર	-8.17136
▁વસ્તુઓ	-8.17373
▁કંપની	-8.17387
25	-8.17703
▁ગ	-8.17753
▁[	-8.17989
▁O	-8.18022
▁24	-8.18137
▁કરવાનું	-8.1814
અ	-8.18253
▁need	-8.18608
▁ડે	-8.19009
▁બધી	-8.19291
▁કાઢી	-8.19516
▁સિ	-8.19547
86	-8.19667
▁અંત્ય	-8.19711
▁ડિસ્ક	-8.20016
્યું	-8.20046
▁વેબસાઇટ	-8.20047
▁‘	-8.20058
▁30	-8.20097
▁પ્ર	-8.20109
19	-8.20162
ri	-8.20267
▁નીચે	-8.20718
▁ડી	-8.20739
▁વસ્તુ	-8.20831
it	-8.2102
▁does	-8.21084
▁અમને	-8.21136
▁માંગો	-8.21588
▁14	-8.21686
▁કરવાની	-8.218
▁જુઓ	-8.21943
▁લખાણ	-8.22045
▁કાર્ય	-8.22065
કે	-8.22133
▁probably	-8.22288
ૂ	-8.22414
નુ	-8.22479
▁નહીં	-8.22707
▁સ્થાન	-8.22887
▁સ્તર	-8.22901
▁કર્યો	-8.22934
▁સરળ	-8.22978
▁પાસવર્ડ	-8.23027
▁મફત	-8.23088
▁પસંદગી	-8.23268
▁કા	-8.23283
▁વિવિધ	-8.23525
▁યોગ્ય	-8.23587
▁બનાવો	-8.23611
▁અર્થ	-8.23656
60	-8.24256
▁હશે	-8.24698
્યુ	-8.24831
▁પહેલા	-8.25089
▁તેમને	-8.25204
ાઈ	-8.25437
▁ધ	-8.25566
બા	-8.25609
▁દાખલ	-8.25671
▁નવા	-8.25727
▁માણસ	-8.26061
ro	-8.26363
01	-8.26391
▁Windows	-8.26607
▁વર્ણન	-8.26757
▁બનાવવા	-8.26775
▁@	-8.26959
▁કરતા	-8.26975
Z	-8.27146
▁25	-8.27545
▁કાર્યક્રમ	-8.27922
▁ઘર	-8.27926
▁પાણી	-8.27976
જે	-8.28194
▁પોસ્ટ	-8.28287
▁તમામ	-8.28349
▁સામગ્રી	-8.28681
▁ગુણવત્તા	-8.288
▁2016	-8.28895
▁રમત	-8.29226
▁સ્પષ્ટ	-8.29459
સે	-8.2976
▁કર્યું	-8.29968
▁દર	-8.30077
▁જાય	-8.30211
▁જરૂરી	-8.30343
ic	-8.30473
▁ઉ	-8.31176
▁ઇમેઇલ	-8.31598
જા	-8.31608
▁મો	-8.3227
id	-8.32414
ંક	-8.32477
ur	-8.32498
▁જોડાણ	-8.32586
ધ	-8.32667
▁તથા	-8.32679
▁સે	-8.33067
▁બદલો	-8.33142
ૉ	-8.3333
80	-8.33407
14	-8.33416
મેલ	-8.33508
ર્	-8.33792
▁ફરીથી	-8.34014
▁દ	-8.34327
▁કેટલાક	-8.34743
”	-8.35411
▁બી	-8.35558
▁તેઓએ	-8.35843
ch	-8.35957
▁ફેરફાર	-8.3606
22	-8.36581
▁તાપમાન	-8.36622
▁પૂર્ણ	-8.36815
▁13	-8.36872
me	-8.37501
▁મુક્ત	-8.37521
▁વચ્ચે	-8.37616
▁બનાવી	-8.37921
▁મહેરબાની	-8.37974
▁આવશે	-8.38262
Comment	-8.38684
13	-8.38806
▁મોબાઇલ	-8.38982
35	-8.3929
▁તારીખ	-8.39598
▁Android	-8.39833
એમ	-8.40422
▁પા	-8.40713
▁રહે	-8.40835
▁કુલ	-8.40858
ડો	-8.41142
▁ક્લિક	-8.41464
us	-8.41471
▁શા	-8.41683
▁50	-8.41774
▁પહેલાં	-8.41817
ad	-8.41878
જો	-8.41908
▁મહત્તમ	-8.4192
17	-8.42159
▁આપણા	-8.42217
▁અપ	-8.42313
▁ગયો	-8.4232
▁ખ્રિસ્ત	-8.42404
▁કદ	-8.42612
▁આવૃત્તિ	-8.42665
-1	-8.42766
▁17	-8.42996
▁લિ	-8.43016
ઠ	-8.43072
▁જોવા	-8.43265
▁તમારે	-8.43423
▁વખતે	-8.43465
▁પ્રયત્ન	-8.43585
▁ત	-8.43695
05	-8.43876
▁વાત	-8.43897
▁ઉમેરો	-8.44098
st	-8.44162
▁ઓનલાઇન	-8.44264
▁થ	-8.4463
▁પોતાના	-8.44645
▁ટી	-8.44649
▁ગયા	-8.44687
▁m	-8.44703
▁અસમર્થ	-8.44794
▁Y	-8.44845
▁નકલ	-8.44917
▁ડિઝાઇન	-8.44948
▁થશે	-8.45075
મો	-8.45121
▁"%	-8.45142
▁લાગે	-8.45241
▁પાવર	-8.45612
▁અલગ	-8.45695
ૈ	-8.45808
▁ચાલુ	-8.45911
▁સોફ્ટવેર	-8.46108
▁તેમ	-8.46157
▁નિ	-8.46182
ter	-8.46211
ટર	-8.46262
▁પ્રભુ	-8.46421
▁વર્તમાન	-8.46422
90	-8.46542
▁શ્રેણી	-8.46596
ીય	-8.46759
કી	-8.47168
મિ	-8.47258
color	-8.47284
+	-8.47321
▁પ્રાપ્ત	-8.47407
ષ	-8.47589
▁જોઈ	-8.47684
▁તેઓને	-8.47694
=	-8.47878
’	-8.47891
▁આપી	-8.48132
un	-8.48282
▁સ્વાસ્થ્ય	-8.48307
▁100	-8.48324
▁સમાચાર	-8.48388
▁અયોગ્ય	-8.48785
▁આદેશ	-8.488
03	-8.489
ટા	-8.49102
નિ	-8.49451
▁સં	-8.49455
▁અંદર	-8.49587
▁રી	-8.49821
▁Z	-8.49851
▁h	-8.49942
▁વાપરો	-8.49972
▁રે	-8.50244
▁જી	-8.50246
▁મુલાકાત	-8.50296
06	-8.5037
▁વિડિઓ	-8.50418
▁આવ્યો	-8.50641
te	-8.50666
સ્	-8.50713
▁શકાતુ	-8.50729
at	-8.50743
▁કેસિનો	-8.51047
▁વેચાણ	-8.51047
di	-8.51051
▁મી	-8.5106
▁કર્યા	-8.51117
▁શકતા	-8.51217
▁જાણકારી	-8.5129
▁200	-8.51471
prasa	-8.51703
j	-8.51717
▁૫	-8.51841
વર	-8.51917
▁આપવા	-8.52062
24	-8.52345
▁સાધનો	-8.52352
તું	-8.52365
▁પ્રેમ	-8.52558
ભ	-8.52736
▁વિકલ્પો	-8.53116
પા	-8.53341
▁ખાસ	-8.53368
Q	-8.5346
▁ખોલો	-8.53684
▁https	-8.53705
▁હો	-8.54116
hk	-8.54293
▁સારી	-8.54304
▁વગેરે	-8.54367
▁વે	-8.54377
ડે	-8.54413
▁be	-8.54432
ણી	-8.54504
▁વેબ	-8.54603
▁શહેર	-8.54617
▁ઉત્તર	-8.5473
▁તું	-8.54834
ર્ટ	-8.5532
▁મોડેલ	-8.55325
36	-8.55343
08	-8.55548
▁http	-8.55554
▁વરતાલ	-8.55556
▁કર	-8.55663
www	-8.5599
▁આવ્યું	-8.56003
21	-8.56041
28	-8.56084
મે	-8.5612
is	-8.56186
▁બોલ	-8.5642
04	-8.56548
▁સુ	-8.56626
▁હા	-8.56663
▁ખાતરી	-8.56971
▁બો	-8.57062
▁ખાલી	-8.5707
32	-8.57091
ેશન	-8.57167
▁કેન્દ્ર	-8.57186
se	-8.57303
23	-8.57557
▁મહિના	-8.57803
il	-8.57986
યો	-8.58
માન	-8.58167
-2	-8.58315
ly	-8.58392
કાર	-8.58449
▁કોઈપણ	-8.58471
▁જેવા	-8.58509
▁વિસ્તાર	-8.58729
તિ	-8.58886
▁અનુભવ	-8.59001
૧	-8.59031
▁EU	-8.59062
▁કરવું	-8.59107
▁ક્રિયા	-8.59484
▁૭	-8.59485
▁U	-8.596
-3	-8.59854
વામાં	-8.59883
▁સો	-8.59988
▁ભરતી	-8.60241
▁બાજુ	-8.60336
99	-8.60636
ાયેલ	-8.60699
Electronic	-8.60709
યુ	-8.60821
ઓને	-8.60866
▁જોઇએ	-8.60943
ગ્	-8.60979
95	-8.61233
▁હોઈ	-8.61309
▁થીમ	-8.61329
▁શોધી	-8.6133
38	-8.61614
26	-8.61643
▁કરીએ	-8.61672
▁ખ	-8.61858
▁હે	-8.61904
▁is	-8.6195
▁સંવાદ	-8.62022
▁જેથી	-8.62481
▁પરવાનગી	-8.62587
▁Infinite	-8.62635
▁for	-8.62704
ol	-8.6282
ન્ડ	-8.62877
એલ	-8.62891
▁સ્થાપિત	-8.62902
▁f	-8.62986
▁સાઇટ	-8.63034
▁સ્	-8.63162
રિ	-8.63268
▁મેળવી	-8.63307
de	-8.63365
▁ફોન્ટ	-8.63388
39	-8.63454
બે	-8.63674
▁હાથ	-8.63707
લિ	-8.63803
▁ભગવાન	-8.63899
ેડ	-8.63988
લ્	-8.64301
▁થયો	-8.64325
75	-8.64384
▁તરફ	-8.6442
▁સર્વ	-8.64667
net	-8.64687
▁૨	-8.64715
આર	-8.65105
07	-8.65106
▁નંબર	-8.65156
29	-8.6524
▁ડિરેક્ટરી	-8.65292
ut	-8.65719
▁અવાજ	-8.6581
ઘ	-8.65889
હા	-8.65898
▁સાધન	-8.66203
▁સ્ક્રીન	-8.66254
▁આત્મા	-8.66302
na	-8.66313
▁ત્રણ	-8.665
▁રિ	-8.66604
એન	-8.66809
▁ક્ષમતા	-8.66945
▁સારંગપુર	-8.66945
li	-8.66951
સ્ક	-8.66952
▁વિકાસ	-8.66985
▁દેવે	-8.67048
▁આવ્યા	-8.67091
▁મિ	-8.67201
▁•	-8.67272
▁સુરક્ષિત	-8.67521
ers	-8.67594
▁નં	-8.67804
▁એસ	-8.67833
65	-8.679
▁ઉત્પાદકો	-8.68148
▁40	-8.68181
66	-8.68253
▁ઓગસ્ટ	-8.68392
શા	-8.68402
▁સરનામું	-8.68405
27	-8.68524
▁સ્વ	-8.68649
ઉ	-8.68657
▁x	-8.68714
િન	-8.68856
lo	-8.69167
રુ	-8.69237
▁2020	-8.69476
33	-8.6948
▁માર્ગ	-8.69486
▁v	-8.69496
▁૪	-8.6951
▁ગા	-8.69613
▁સ્ટીલ	-8.69666
ma	-8.69691
ang	-8.69887
સો	-8.69956
09	-8.69967
▁»	-8.70048
▁તેમની	-8.70097
▁કૃપા	-8.70255
▁પૃષ્ઠ	-8.70559
ટો	-8.70676
▁info	-8.70733
▁બાળકો	-8.70796
ર્ડ	-8.70898
ex	-8.70943
ાવ	-8.71003
▁નિયંત્રણ	-8.71049
ul	-8.7109
▁વાપરવા	-8.7127
▁22	-8.71325
▁વર્ગ	-8.71405
ગો	-8.71458
ગા	-8.71487
▁°	-8.71508
▁આજે	-8.71519
▁ખા	-8.71669
▁શોધો	-8.71714
▁બધું	-8.71715
▁by	-8.71837
▁થયું	-8.71858
▁ઑનલાઇન	-8.72053
ent	-8.72196
વુ	-8.72325
▁૩	-8.72359
45	-8.72483
to	-8.7252
▁21	-8.72548
▁બોનસ	-8.72558
▁પૂરી	-8.72802
op	-8.72831
▁સ્ત્રોત	-8.72861
▁ફે	-8.72973
હે	-8.72985
પર	-8.73007
▁રહી	-8.73564
mo	-8.73588
▁પ્રમાણપત્ર	-8.7363
70	-8.73917
▁જૂથ	-8.73956
▁ફરી	-8.73993
▁કોઇ	-8.74031
▁g	-8.74041
100	-8.74276
▁કાર	-8.74466
▁રાજ્ય	-8.74483
▁અંત	-8.74532
ીઓ	-8.74539
શન	-8.74548
▁યાદ	-8.75183
▁યુનિવર્સિટી	-8.75225
▁પો	-8.75294
▁મળી	-8.75352
▁રાખો	-8.75396
▁re	-8.75398
▁કૉપિરાઇટ	-8.75642
▁ભાષા	-8.7566
▁=	-8.75777
▁આયાત	-8.75961
▁ચોક્કસ	-8.76158
▁(%	-8.7622
ne	-8.76239
▁પાથ	-8.76644
▁બટન	-8.76711
▁સ્થાપના	-8.76734
▁પ્રતિ	-8.76746
▁બંધારણ	-8.76749
200	-8.76796
▁તૈયાર	-8.76861
▁વજન	-8.7692
▁ફ	-8.76957
ate	-8.76959
▁પાનું	-8.77115
▁2013	-8.77142
46	-8.77349
ગી	-8.7761
હું	-8.77633
પે	-8.77645
ia	-8.77657
ંડ	-8.77733
▁નકશા	-8.77753
લ્સ	-8.77781
▁રહ્યો	-8.77865
દી	-8.77911
55	-8.77943
▁શરીર	-8.77967
sh	-8.77999
88	-8.78003
▁ઘણી	-8.78185
85	-8.78246
▁નોંધ	-8.78246
▁ઓફ	-8.78381
▁મેનુ	-8.78446
▁યજમાન	-8.78501
49	-8.78514
▁ધરાવે	-8.78718
48	-8.78756
58	-8.78912
મ્પ	-8.79032
▁દેખાવ	-8.79063
▁એક્સ	-8.79064
૦	-8.79254
▁લિમિટેડ	-8.79258
▁શ્રી	-8.79407
all	-8.79413
▁કોલ	-8.7949
▁ભારત	-8.79629
31	-8.79802
▁23	-8.79902
▁60	-8.79938
બો	-8.80178
▁અસર	-8.80491
ry	-8.80554
57	-8.80566
▁સમયે	-8.80612
▁કલાક	-8.80636
▁બની	-8.80785
▁વિકલ્પ	-8.80886
37	-8.80888
ાં	-8.80888
▁કાર્ડ	-8.81024
▁આપોઆપ	-8.81116
▁ડ	-8.81247
69	-8.81257
▁ટેકનોલોજી	-8.81336
ow	-8.81473
▁જૂન	-8.81478
▁Constellation	-8.81581
▁ભ	-8.8162
▁નિષ્ફળતા	-8.81691
▁2015	-8.81734
▁ગે	-8.81813
▁લાલ	-8.81911
▁કિ	-8.82132
▁મેળવવા	-8.8216
org	-8.8222
▁આપ્યો	-8.82372
ation	-8.82376
▁પરિવાર	-8.82453
ઇન	-8.82541
▁w	-8.82547
▁નાના	-8.82586
▁પડશે	-8.82712
▁દસ્તાવેજ	-8.82891
▁એપિસોડ	-8.83009
▁રમતો	-8.83537
▁પ્રકાશ	-8.83641
▁દા	-8.83722
▁પૂર્વ	-8.83931
▁નિષ્ક્રિય	-8.84015
▁કર્યુ	-8.84135
▁2014	-8.84197
▁કારણે	-8.84288
▁સ્થાનિક	-8.84337
▁24.00	-8.84377
im	-8.84533
76	-8.84727
um	-8.84763
▁લાગુ	-8.84771
મેન્ટ	-8.8479
▁સરેરાશ	-8.84824
▁ફાઇલો	-8.84958
68	-8.85119
▁પ્રશ્નો	-8.85359
ૌ	-8.85579
34	-8.85611
▁પ્રોજેક્ટ	-8.8586
▁પડે	-8.85941
▁જુલાઈ	-8.85979
▁No	-8.86026
and	-8.86061
da	-8.86278
▁થવા	-8.86331
98	-8.86336
સ્ત	-8.86407
લેન્ડ	-8.86425
▁ડિ	-8.8644
▁પાછા	-8.8645
▁બા	-8.86644
તર	-8.8673
▁લેવા	-8.8724
▁બીજી	-8.87404
▁સંગ્રહો	-8.87445
▁રાષ્ટ્રીય	-8.87615
▁એલ	-8.87688
▁Google	-8.87719
▁ડેસ્કટોપ	-8.87846
▁સરકાર	-8.87947
▁ચ	-8.88037
▁ખાનગી	-8.88203
▁થયા	-8.88203
▁પિતા	-8.88323
▁સારા	-8.88442
▁આનંદ	-8.88558
▁૧૧	-8.88714
▁થઇ	-8.88733
▁શિક્ષણ	-8.88796
▁વપરાશ	-8.88866
ટે	-8.88875
▁શ	-8.88938
▁દેશ	-8.89245
ફા	-8.8961
▁નકશો	-8.89632
▁હંમેશા	-8.89718
▁×	-8.89789
▁કરવો	-8.89812
▁કદાચ	-8.89872
ંચ	-8.90068
ay	-8.90105
યર	-8.90157
▁મૃત્યુ	-8.90188
▁૯	-8.90472
67	-8.90509
▁નજીક	-8.90598
▁આપણને	-8.906
▁રાખ	-8.90729
▁આમ	-8.90766
▁છ	-8.90864
▁જાઓ	-8.90923
વાળા	-8.90969
▁Pro	-8.91023
▁ખરાબ	-8.91099
ેટ	-8.91163
="	-8.91203
ણા	-8.91246
▁આપો	-8.91344
▁ધ્યાન	-8.9141
▁માન્ય	-8.91598
▁શક્ય	-8.91751
▁કેમ	-8.91891
સુ	-8.91907
૨	-8.91919
ર્ક	-8.91956
▁એચ	-8.92008
▁લઈ	-8.92044
તુ	-8.92135
▁બનાવે	-8.92178
▁k	-8.92443
ies	-8.92553
▁શક્તિ	-8.92572
▁લક્ષ્ય	-8.92681
ot	-8.92711
▁ઝડપી	-8.92895
▁છોડી	-8.92919
▁હેક	-8.9298
▁28	-8.92992
▁~	-8.93056
▁ખાતે	-8.93093
▁લી	-8.93103
▁જીવ	-8.93114
▁એપ્રિલ	-8.93177
▁ઈસુને	-8.93283
ir	-8.9333
▁રો	-8.93392
▁b	-8.93415
▁બરાબર	-8.93801
દાર	-8.93808
▁સેવાઓ	-8.93862
▁અજ્ઞાત	-8.93927
▁ખબર	-8.94066
▁તમારું	-8.94086
▁ઉપ	-8.94133
$	-8.94139
▁રૂપરેખાંકન	-8.94178
▁બદલી	-8.94422
▁વ્યક્તિગત	-8.9444
▁નક્કી	-8.94556
▁પ્રમાણે	-8.94784
▁યુએસ	-8.94798
ખા	-8.94804
▁ફેક્ટરી	-8.94808
▁ગુ	-8.94818
56	-8.94903
▁રોડ	-8.94945
▁શરૂઆત	-8.94963
પો	-8.95014
▁સ્ત્રી	-8.9503
▁26	-8.9504
ેન	-8.95079
▁27	-8.95283
▁મોટી	-8.95284
ળી	-8.95358
47	-8.95605
▁લેખક	-8.95656
▁લગભગ	-8.95698
q	-8.95772
▁ટિપ્પણીઓ	-8.95814
▁(32/64	-8.95953
▁કરવાનો	-8.96023
▁જશે	-8.96149
▁સમાપ્ત	-8.96149
સર	-8.96156
per	-8.96281
500	-8.96282
▁હેઠળ	-8.96338
▁વિચારો	-8.9635
world	-8.96382
▁જાહેર	-8.9646
▁શોધવા	-8.96526
▁બ્લોગ	-8.96597
▁નવું	-8.96597
▁સુયોજનો	-8.96634
▁label	-8.96724
▁મહિનો	-8.96724
°	-8.96777
▁પેનલ	-8.9703
▁t	-8.97076
▁મેળવો	-8.97108
▁લેખ	-8.97108
ine	-8.9712
ti	-8.97182
▁વોલ્યુમ	-8.97241
▁મીડિયા	-8.97248
,000	-8.97353
ag	-8.97431
▁ખર્ચ	-8.97501
44	-8.97774
▁વગર	-8.9778
ંદ	-8.97837
▁Re	-8.97884
▁વિગતો	-8.9791
▁લા	-8.97978
▁પાછળ	-8.98099
▁કુ	-8.98137
▁સ્ટોક	-8.98157
્ર	-8.98188
▁પુન	-8.98335
61	-8.98508
▁ચિહ્ન	-8.98571
▁કોણ	-8.98626
▁દેવની	-8.98651
▁જવા	-8.98795
▁સત્ય	-8.98881
વાનું	-8.99068
▁In	-8.99106
ta	-8.99232
em	-8.9947
:%	-8.99579
ha	-8.99606
▁રદ	-8.99672
▁સમાવેશ	-8.99679
▁on	-8.99802
િસ	-8.99903
96	-8.99905
▁ચાર	-8.99985
▁રેકોર્ડ	-9.00001
▁ઓફર	-9.00022
he	-9.001
સિ	-9.00118
▁29	-9.00287
ફે	-9.00432
વ્ય	-9.00455
▁વાર	-9.00596
▁વિશ્વ	-9.00655
▁ખસેડો	-9.00666
▁નવેમ્બર	-9.0067
સં	-9.00785
▁કલ્યાણ	-9.00803
▁મૂળ	-9.0113
▁ક્યાં	-9.01329
89	-9.01345
▁રાહ	-9.01433
▁મુ	-9.01483
64	-9.01538
▁ઉદાહરણ	-9.01582
▁પડ	-9.01694
▁શેર	-9.01736
72	-9.01761
ર્મ	-9.01787
▁સંદેશો	-9.01908
▁ઇન્	-9.01984
▁શીર્ષક	-9.0202
53	-9.02021
▁આધારભૂત	-9.02026
pe	-9.02058
▁સત્ર	-9.02065
cm	-9.02102
ીએ	-9.0214
▁અમેરિકા	-9.02156
▁પ્રકારના	-9.0217
ત્	-9.02191
▁બિન	-9.02284
▁વી	-9.02313
▁Gujarati	-9.02322
*	-9.02349
્ઝ	-9.02397
▁મહાન	-9.02401
▁પાડે	-9.02411
▁રાખવા	-9.02529
?”	-9.02557
▁પ્રયાસ	-9.02565
મ્બ	-9.02626
▁પોર્ટ	-9.02634
ઃ	-9.02689
▁તાલીમ	-9.02839
▁રચના	-9.02851
91	-9.02932
▁Free	-9.0295
▁ચા	-9.02959
77	-9.0304
▁ટ્રેક	-9.03043
▁પેપર	-9.03292
દિ	-9.03346
▁એપ્લિકેશન	-9.03355
ver	-9.03442
▁દેવના	-9.03463
▁સામે	-9.03506
▁પોતાની	-9.03528
▁de	-9.03562
રણ	-9.03636
ડિ	-9.0371
▁સમીક્ષા	-9.03729
▁દબાણ	-9.03803
▁મિનિટ	-9.03935
▁મન	-9.04025
છ	-9.04052
▁ચેનલ	-9.04076
▁૬	-9.04083
▁બદલવા	-9.04303
▁હોવા	-9.04365
▁સમજ	-9.04409
▁પ્રકાશિત	-9.04421
પ્	-9.04422
▁પગ	-9.04429
▁યોજના	-9.04488
▁બનાવવામાં	-9.04579
હો	-9.04664
▁વિના	-9.04678
▁કરવી	-9.04739
▁Vessoft	-9.04777
▁ચાલ	-9.04943
▁આધારિત	-9.05079
▁સેટ	-9.05116
▁આઉટપુટ	-9.05197
▁ટો	-9.05213
▁રહેશે	-9.05289
▁મિત્ર	-9.05355
▁આભાર	-9.0549
▁//	-9.05505
-4	-9.05518
▁ઓળખ	-9.05604
▁પ્લગઇન	-9.05766
▁શકીએ	-9.05768
▁હાઇ	-9.05833
vi	-9.05896
▁સંશોધન	-9.05901
▁ઉદ્યોગ	-9.06191
73	-9.06312
▁સંદેશા	-9.06395
om	-9.06655
▁લોડ	-9.06705
▁સંબંધિત	-9.06776
▁ગ્રાહકો	-9.06873
▁પ્રોડક્ટ્સ	-9.06913
▁પવિત્ર	-9.06916
▁સહિત	-9.0709
▁આપ	-9.0715
▁બાળક	-9.0726
▁ઓક્ટોબર	-9.07325
▁તમારો	-9.07325
▁પાપ	-9.07406
▁અપડેટ	-9.07468
▁શકાતી	-9.07614
AT	-9.07623
▁કઈ	-9.07684
▁ટોચ	-9.07771
▁કાર્યક્રમો	-9.07847
▁પ્રો	-9.07858
ru	-9.07959
ER	-9.07975
▁બીટ	-9.0804
▁મોડલ	-9.08056
િય	-9.08105
▁ફાઈલો	-9.08295
ge	-9.08299
hi	-9.08342
▁તારા	-9.08584
▁એવી	-9.08614
▁મોકલો	-9.08663
ki	-9.08669
▁કરતી	-9.08724
ce	-9.08733
no	-9.0881
78	-9.0909
ભા	-9.09201
▁સુરક્ષા	-9.09208
▁31	-9.09541
ેલા	-9.09545
82	-9.09549
▁માનવ	-9.09579
▁સમગ્ર	-9.09653
.’	-9.09665
▁આપવામાં	-9.09694
▁500	-9.09714
ાસ	-9.09737
▁લાંબા	-9.09792
▁જાન્યુઆરી	-9.09918
▁હિ	-9.09983
ab	-9.09985
▁દક્ષિણ	-9.09987
-5	-9.09995
▁ઘ	-9.10361
▁રંગો	-9.10407
▁મોટર	-9.10435
▁વાપરી	-9.10454
lu	-9.1051
▁CO	-9.10802
51	-9.10924
weather	-9.10955
▁૧૦	-9.10969
▁પીસી	-9.11016
▁ફોટો	-9.11169
▁માન	-9.11202
▁એટલે	-9.11205
ંટ	-9.1123
42	-9.115
94	-9.11648
-8	-9.11668
▁શબ્દો	-9.11681
84	-9.11812
▁શબ્દ	-9.11994
▁મારો	-9.12133
41	-9.1225
શું	-9.12398
▁you	-9.12418
▁વિકિપીડિયા	-9.12461
97	-9.12485
▁ડો	-9.12608
ૃ	-9.12659
▁રા	-9.12754
▁સંદર્ભ	-9.12775
up	-9.12862
59	-9.13057
63	-9.13157
▁જેવી	-9.13159
▁રૂપરેખા	-9.13232
▁બને	-9.13233
▁સમ	-9.13303
▁અભ્યાસ	-9.13378
▁URL	-9.13384
▁નવો	-9.13418
▁પ્રશ્ન	-9.13739
▁વખત	-9.13755
87	-9.13756
ac	-9.13797
▁સફેદ	-9.1384
▁લોકોએ	-9.13959
▁વ્યવસ્થાપક	-9.13994
ટન	-9.14037
▁સારું	-9.14059
▁તેમણે	-9.1416
લું	-9.14169
▁ટીમ	-9.14351
-6	-9.14362
▁સ્રોત	-9.14456
ત્ર	-9.14527
્ડ	-9.14582
▁જા	-9.14919
ર્ન	-9.14967
▁શો	-9.15105
va	-9.15189
▁ફેબ્રુઆરી	-9.15227
▁Q	-9.15264
IN	-9.153
▁રાખે	-9.15359
▁બાર	-9.15399
▁બંને	-9.15545
pa	-9.15651
▁condition	-9.1585
એફ	-9.15996
હાસ્ય	-9.1606
▁એવું	-9.1612
▁કું	-9.16146
લેટ	-9.16169
વર્	-9.16174
▁આપણી	-9.16187
▁Casino	-9.16274
ટિ	-9.16315
▁સત્તાધિકરણ	-9.16476
▁કરું	-9.1648
▁ક્ષેત્ર	-9.16574
79	-9.16596
▁સમૂહ	-9.16803
ગે	-9.16848
▁ઓડિયો	-9.16949
SS	-9.17053
▁આઇ	-9.17132
▁બાબતો	-9.17294
▁વડે	-9.17325
▁l	-9.17348
▁તકનીકી	-9.17387
▁સહાય	-9.17464
▁સંદેશાઓ	-9.17486
▁સુધારો	-9.17565
▁હજુ	-9.1761
લ્ડ	-9.17636
▁ઝડપ	-9.17777
ાન	-9.17789
ઢ	-9.17848
▁ખરીદી	-9.17849
end	-9.18159
▁32	-9.1816
ાવવા	-9.18163
▁જુ	-9.1846
▁ચો	-9.18621
▁શરતો	-9.1875
▁સમાન	-9.18764
▁લીલા	-9.1881
▁ટ્રેન	-9.18947
પિ	-9.19073
▁નાંખો	-9.1915
મ્	-9.19233
સ્ટર	-9.19464
▁બેગ	-9.19577
93	-9.19669
▁બ્રશ	-9.1968
▁છતાં	-9.19689
▁નીતિ	-9.19701
▁થોડા	-9.19833
િયન	-9.19945
ant	-9.19961
પણ	-9.19979
▁ડિસેમ્બર	-9.19995
ST	-9.19998
▁દો	-9.20096
▁સેલ	-9.20201
▁કરનાર	-9.20238
▁વાદળી	-9.20423
▁વાયર	-9.20445
બ્ર	-9.20455
▁કહું	-9.20598
▁અસરો	-9.20704
▁જાણો	-9.20709
▁The	-9.20718
▁વ્યવસાય	-9.20765
▁તને	-9.20897
ment	-9.20913
▁સ્વાગત	-9.20976
▁પૂછ	-9.21175
▁ગો	-9.21211
▁USA	-9.21227
▁ધાર	-9.2125
આઈ	-9.21315
▁હોસ્ટિંગ	-9.21324
▁ન્યૂ	-9.21544
▁ઇમેજ	-9.21636
▁ચિત્રો	-9.2164
▁ઓછી	-9.2165
શી	-9.21771
▁માણસો	-9.21795
▁ચેતવણી	-9.218
▁De	-9.2191
સ્ટે	-9.21955
▁પુત્ર	-9.21972
▁એવા	-9.22003
43	-9.22009
▁ચકાસણી	-9.22032
▁ભૂ	-9.22084
▁ચે	-9.22101
ળા	-9.22198
▁ઉપકરણો	-9.22207
gu	-9.22226
મેન	-9.22256
52	-9.2227
▁હોત	-9.22418
સ્પે	-9.22421
one	-9.22469
▁ટૂલ	-9.22478
71	-9.22501
▁તેવી	-9.22561
▁ભાગો	-9.22562
port	-9.22641
▁1000	-9.22756
વાર	-9.22926
74	-9.22944
▁ઊ	-9.22956
▁જાણ	-9.23032
▁કંઈ	-9.23181
▁પાવડર	-9.23303
▁વિશ્વમાં	-9.2339
ka	-9.23397
ON	-9.23435
તાં	-9.23495
ell	-9.2354
54	-9.2366
કરણ	-9.23786
▁પેકેજ	-9.23807
▁00:00:00	-9.23809
▁પહેલેથી	-9.23809
▁નિકાસ	-9.23809
▁બિલ	-9.23844
▁Mo	-9.23907
લુ	-9.23982
▁છબીઓ	-9.24145
▁અંતિમ	-9.24159
ક્ર	-9.24504
ba	-9.24543
ill	-9.24585
▁વાંચી	-9.24722
▁પહોળાઈ	-9.24999
ist	-9.25103
ત્ત	-9.25183
ip	-9.25195
ાઉ	-9.25297
▁સ્થિત	-9.25331
▁મજબૂત	-9.25342
▁જોડાયેલ	-9.2535
▁તકતી	-9.2556
▁ટે	-9.25613
▁ક્રેડિટ	-9.25686
▁ડોમેઇન	-9.25686
ho	-9.25755
▁સ્લોટ્સ	-9.25965
▁સમસ્યા	-9.2605
▁કહી	-9.26145
કુ	-9.26153
▁પૃથ્વી	-9.26163
▁વ્યાવસાયિક	-9.26377
એચ	-9.2647
▁પ્રવેશદ્વારની	-9.26551
▁શૈલી	-9.26551
▁પરીક્ષણ	-9.26551
▁વરસાદ	-9.26551
▁અક્ષર	-9.26593
au	-9.26634
81	-9.26637
▁વપરાશકર્તાઓ	-9.26712
▁વિદ્યાર્થીઓ	-9.26774
ઍસ	-9.26825
▁CD	-9.26851
▁બદલે	-9.26887
ચર	-9.26961
▁સરનામાં	-9.27008
▁હોમ	-9.27034
▁માર્ચ	-9.27093
▁જોયું	-9.27144
▁માઉન્ટ	-9.27248
▁પ્રવાસ	-9.27258
▁ડેટા	-9.27309
ચે	-9.27378
NI	-9.27469
▁શિ	-9.27472
▁કૉલ	-9.27493
જુ	-9.27524
▁અમારો	-9.276
▁જણાવ્યું	-9.27612
▁મોડ્યુલ	-9.27615
▁મદદથી	-9.27667
▁બાબત	-9.27744
▁ચકાસો	-9.27775
▁do	-9.27858
▁સંદેશ	-9.27964
▁બ્રાન્ડ	-9.27974
▁ગમે	-9.28093
▁બ્લેક	-9.28128
ટ્સ	-9.28337
▁કડી	-9.28431
▁સત્તાવાર	-9.28488
000	-9.28622
▁સુંદર	-9.28638
▁કેલેન્ડર	-9.28665
▁૫૪	-9.28673
ve	-9.28759
કૃત	-9.28788
▁મારફતે	-9.28836
ેજ	-9.2887
વાળી	-9.28978
▁રહ્યું	-9.291
io	-9.29115
▁મારે	-9.2919
▁છેલ્લે	-9.29197
▁2012	-9.29281
િટ	-9.29366
્યૂ	-9.29377
▁પસાર	-9.29392
▁ટેબ	-9.29424
▁લખ	-9.29426
▁એફ	-9.29431
▁આવેલ	-9.29437
▁વિશાળ	-9.29549
મર	-9.29618
▁રસ	-9.29668
▁રૂપરેખાંકિત	-9.29729
▁રહેવા	-9.29744
▁નોંધણી	-9.29762
▁હેતુ	-9.29793
our	-9.29803
ંબ	-9.29921
ક્ટ	-9.30054
▁ગુણધર્મો	-9.30062
▁દ્દારા	-9.30088
▁રોગ	-9.30103
▁વપરાય	-9.302
▁સતત	-9.30268
▁પિ	-9.30408
▁પટ્ટી	-9.30412
▁મીટર	-9.3042
▁પ્લેટફોર્મ	-9.30451
ou	-9.30454
▁વધારો	-9.30473
62	-9.3061
▁દરમિયાન	-9.30629
▁સ્થિર	-9.30629
▁ટેક	-9.30649
-10	-9.30675
ઝા	-9.30763
out	-9.30797
▁સુસંગત	-9.30811
િયો	-9.30848
▁પાંચ	-9.31027
▁મળે	-9.31041
▁પ્લાસ્ટિક	-9.31174
▁બ્રાઉઝર	-9.31313
▁યુરોપ	-9.31343
▁પ્રાર્થના	-9.31539
os	-9.31585
ઝિ	-9.31594
cc	-9.31667
મુ	-9.31806
92	-9.31953
ચી	-9.31984
▁સાચવો	-9.32
▁ઓછા	-9.32063
ity	-9.32159
▁વિષય	-9.32162
હી	-9.32276
૫	-9.32371
એક્સ	-9.32639
▁કાળો	-9.32677
ca	-9.32788
ાંક	-9.32794
▁બિંદુ	-9.3288
83	-9.32911
▁સંસ્થા	-9.32944
ting	-9.32993
ph	-9.33092
est	-9.33152
ાઓ	-9.33218
ન્ગ	-9.33255
▁ગણ	-9.33257
▁St	-9.33364
ash	-9.33459
▁બોક્સ	-9.33495
▁સ્વીકાર	-9.33496
▁નહી	-9.33532
▁છેલ્લા	-9.33542
▁૮	-9.33554
▁www	-9.33556
▁ક્ષતિ	-9.3357
▁ID	-9.3369
▁માર	-9.33716
▁અગાઉ	-9.33874
uk	-9.33894
▁ચાલી	-9.33932
▁રક્ષણ	-9.33945
▁ખોરાક	-9.34129
▁લખી	-9.3415
▁કાચ	-9.3417
nd	-9.34279
2019	-9.34297
▁સારવાર	-9.3432
▁ભારતીય	-9.34354
▁લેબલ	-9.3441
▁જ્ઞાન	-9.3443
tion	-9.34499
▁સ્તંભ	-9.34505
▁આગામી	-9.3451
ઝર	-9.3455
ga	-9.3457
▁Sh	-9.34576
▁જઈ	-9.34614
▁WordPress	-9.34693
▁forecast	-9.34693
▁આશા	-9.34716
▁JOBiST	-9.34881
ick	-9.34888
▁બાકી	-9.34919
▁કરશો	-9.34947
LE	-9.34994
▁પૈસા	-9.35071
▁યોહાન	-9.35071
▁સંપર્કો	-9.35158
▁દર્શાવો	-9.35179
▁35	-9.35361
▁બતાવ	-9.35395
▁પરિવહન	-9.35421
▁વાસ્તવિક	-9.3546
BAR	-9.35817
▁બ્લોક	-9.3585
ie	-9.35938
ock	-9.36086
બર	-9.3609
▁યહૂદિઓ	-9.36125
▁રાજા	-9.36342
▁અનુસાર	-9.36407
▁તેમજ	-9.36414
▁પાસેથી	-9.36434
વાન	-9.3648
▁પાઇપ	-9.36596
▁મેમરી	-9.36597
▁લીટી	-9.36702
▁ખોલી	-9.3672
▁ઇન્ટરફેસ	-9.36788
ષ્ટ	-9.3696
▁IP	-9.36975
્વ	-9.37049
▁બદલ	-9.37063
ard	-9.3708
▁ક્	-9.37104
2018	-9.37168
▁અહેવાલ	-9.37174
▁જન્મ	-9.37179
બુ	-9.37232
▁or	-9.37315
▁પૂર્વદર્શન	-9.37367
▁`%	-9.37368
▁પ્રિન્ટર	-9.3756
▁વિશિષ્ટ	-9.37561
▁ક્રમમાં	-9.37633
▁અલ	-9.37716
ak	-9.37835
0.0	-9.37924
▁શાળા	-9.38229
▁પૂર	-9.38297
▁રોક	-9.38331
▁કંપનીઓ	-9.38342
▁સ્થિતિમાં	-9.38356
▁Ma	-9.3844
▁શિષ્યો	-9.38477
▁ડા	-9.38492
▁એકાઉન્ટ	-9.38536
oo	-9.38604
▁વાતો	-9.38626
▁બોર્ડ	-9.38669
નિક	-9.38675
ub	-9.38701
આઇ	-9.38752
▁ભાઈઓ	-9.38902
▁with	-9.38929
▁ગ્રાહક	-9.38959
▁GB	-9.38966
▁ચલાવવા	-9.39122
▁અઠવાડિયા	-9.39125
▁૧૨	-9.39135
▁પ્રદાન	-9.39145
રૂ	-9.39171
▁ચાર્જ	-9.39313
▁ભર	-9.39315
▁86-	-9.39324
▁શક	-9.39357
▁ઇનપુટ	-9.3952
▁ઔદ્યોગિક	-9.3952
▁પરિસ્થિતિ	-9.39562
be	-9.39661
ગ્ર	-9.3971
▁ઇતિહાસ	-9.39718
▁સંભાળ	-9.39718
▁વાંચો	-9.39744
▁ઘટના	-9.3975
▁એન્ડ	-9.3977
▁કહેવા	-9.39853
▁દૂરસ્થ	-9.40008
ite	-9.40103
view	-9.40103
man	-9.40131
▁ફર	-9.40163
▁વિન્ડોઝ	-9.40166
▁ઉપદેશ	-9.40229
▁બેટરી	-9.40316
▁હમણાં	-9.4035
if	-9.40505
▁અરજી	-9.40517
▁ઘણો	-9.40522
▁જગ્યાએ	-9.4064
IC	-9.40647
▁ટીવી	-9.40683
▁Anirdesh	-9.40714
▁આંતરિક	-9.40724
ID	-9.40866
િઆ	-9.40913
▁વ્યાપક	-9.40914
а	-9.40915
થે	-9.4092
ધાર	-9.4095
▁રોજ	-9.40956
ber	-9.41043
#	-9.41129
▁૧૮	-9.41139
land	-9.41153
▁ટૅગ્સ	-9.41177
▁યા	-9.4118
0.00	-9.41327
go	-9.41542
▁મીમી	-9.41622
po	-9.41648
▁તારી	-9.41745
▁weather	-9.41747
ev	-9.41751
▁મેટલ	-9.41807
▁ગુમ	-9.41845
▁બિ	-9.4195
undo	-9.42007
▁ન્યાય	-9.4211
▁વૈશ્વિક	-9.42125
▁કોર	-9.42249
▁પ્રકારની	-9.42334
AP	-9.42393
▁સમીક્ષાઓ	-9.42438
!”	-9.42447
▁સપ્ટેમ્બર	-9.42533
▁પાશ્વ	-9.42544
▁દુ	-9.42571
ec	-9.42613
▁ટકા	-9.42735
▁ગણતરી	-9.42736
▁અધિકાર	-9.42847
▁પરિમાણો	-9.42885
▁ટોચના	-9.42891
▁સ્તરો	-9.42966
▁૧૫	-9.42973
ack	-9.43029
▁કમ્પ્યુટર	-9.43146
mi	-9.43231
▁દે	-9.4325
ig	-9.433
▁જેવું	-9.43313
▁દૃશ્ય	-9.43332
▁સાફ	-9.43355
lex	-9.43423
▁સહ	-9.43475
થા	-9.43482
▁કંઈક	-9.43487
▁ક્યારેય	-9.4358
ion	-9.4373
▁ડ્રાઇવ	-9.43753
▁પસંદગીઓ	-9.43757
paper	-9.43781
▁Bonus	-9.4397
▁કેશ	-9.4413
▁જાતે	-9.44143
▁ખાતા	-9.44165
▁એડ	-9.44192
▁જેટ	-9.44354
▁રજૂ	-9.44387
જન	-9.44478
▁સૉફ્ટવેર	-9.44592
▁HD	-9.44618
▁વિભાગ	-9.44691
SE	-9.44823
સ્થ	-9.44897
▁મંદિર	-9.44923
▁બરફ	-9.45013
ધિ	-9.45055
▁Co	-9.45123
કર્તા	-9.45233
▁લોકપ્રિય	-9.45428
▁નિયમ	-9.45451
▁પ્રિય	-9.45496
able	-9.45721
▁બજાર	-9.4577
▁size	-9.45777
ટ્રો	-9.45801
▁રાજ	-9.45807
ts	-9.45867
▁લઇ	-9.45879
ળો	-9.45932
▁ચીન	-9.46034
▁કિંમતો	-9.4608
MA	-9.46122
▁ઉમેરવા	-9.46268
ass	-9.46454
તમે	-9.46466
▁આસપાસ	-9.46483
િડ	-9.46492
▁લેસર	-9.46556
કાળ	-9.46561
યે	-9.46635
▁item	-9.46707
▁દિવસે	-9.46752
▁મેઈલ	-9.46784
▁PM	-9.46798
▁કરતો	-9.46812
bl	-9.46889
રૂપ	-9.4698
ધી	-9.47072
▁ભાષાઓ	-9.47086
▁દીકરો	-9.47121
▁પદચ્છેદન	-9.47173
પણે	-9.47224
▁મુજબ	-9.47335
▁ફ્રી	-9.47361
▁બહુ	-9.47519
▁ફેસબુક	-9.47549
▁કાગળ	-9.47549
▁ફિલ્મ	-9.47549
▁મળશે	-9.47583
▁વીડિયો	-9.4764
▁પાર્ક	-9.47753
▁તરફથી	-9.47932
}	-9.47963
▁Ch	-9.47984
▁હવામાન	-9.47997
▁KDE	-9.48012
▁દેશો	-9.48023
MoHFW	-9.48083
PA	-9.48162
(1	-9.48293
▁ગામ	-9.48303
▁ફોલ્ડરો	-9.48352
day	-9.48353
▁અમુક	-9.48411
▁જમીન	-9.4843
▁વચન	-9.4846
ue	-9.48552
od	-9.48592
▁આરોગ્ય	-9.48627
▁APK	-9.48629
ક્ક	-9.48711
▁લખવા	-9.4875
-12	-9.48787
▁સંચાલન	-9.48843
▁દર્શાવ	-9.48847
▁ડિગ્રી	-9.48849
▁આપેલ	-9.48886
▁સંગીત	-9.4895
▁(1)	-9.48975
ong	-9.48993
▁સંત	-9.49041
е	-9.49061
▁ઘટક	-9.49068
▁રહ્યાં	-9.4911
▁Hack	-9.49112
ci	-9.49225
▁bit	-9.49268
fi	-9.49394
લ્ટ	-9.49425
▁લંબાઈ	-9.49497
ંધ	-9.495
ાર	-9.4951
▁૧૬	-9.49524
▁તપાસ	-9.49594
ast	-9.49615
▁ઈચ્છા	-9.49659
▁HTML	-9.49763
▁માગ	-9.49774
▁કાર્યો	-9.49863
SP	-9.49936
fe	-9.49942
▁મોટો	-9.49994
▁બિઝનેસ	-9.50155
ફો	-9.50283
હિ	-9.50352
300	-9.50364
gujju	-9.50375
▁ઉત્તમ	-9.50386
▁Vi	-9.50427
▁ઉકેલ	-9.5048
ચો	-9.50501
ન્જ	-9.50539
ઇસ	-9.50563
▁સંપાદક	-9.50596
▁સક્ષમ	-9.50596
▁ચેટ	-9.50662
ish	-9.50697
▁તક	-9.50704
▁આઉટ	-9.50722
ld	-9.50812
▁સંસ્કરણ	-9.50817
ંત	-9.5087
▁આપશે	-9.50896
▁પેકેજિંગ	-9.5093
▁પદ્ધતિ	-9.51005
ice	-9.51043
ian	-9.51059
▁mo	-9.51079
CH	-9.51106
▁સ્થળ	-9.51154
▁મહિમા	-9.51261
▁છોડ	-9.51298
▁ISO	-9.51336
▁ઘટકો	-9.51405
▁વર્ષો	-9.51415
800	-9.51438
bo	-9.51569
▁ઉપયોગી	-9.5185
▁80	-9.51851
▁સંચાલિત	-9.51931
select	-9.51971
▁ચુકવણી	-9.52156
unit	-9.52181
અર	-9.52279
ft	-9.52312
▁પુનઃ	-9.52372
▁ફા	-9.52376
ort	-9.52378
▁સાચું	-9.5238
▁ચી	-9.52391
▁ઉત્પાદક	-9.52541
PS	-9.52558
▁ગુજરાતીં	-9.52607
▁100%	-9.5263
પૂ	-9.52645
▁હવા	-9.52748
ઝો	-9.5278
ap	-9.52796
act	-9.52865
પુ	-9.52902
▁નિયમિત	-9.53113
▁ગયું	-9.53113
▁એન્	-9.53247
▁લાવી	-9.53331
▁મુલાકાતીઓ	-9.53332
માર	-9.5337
▁શરુ	-9.5341
CT	-9.53415
ff	-9.53427
;&	-9.53438
▁મિત્રો	-9.53507
▁હોવી	-9.53555
of	-9.53574
ator	-9.53692
kg	-9.53847
વિગતો	-9.53852
▁month	-9.53874
▁નિઃશુલ્ક	-9.53967
▁આજ્ઞા	-9.54029
name	-9.54039
▁સામાજિક	-9.54196
▁star	-9.54302
▁બનાવ	-9.54386
ેલી	-9.5446
▁45	-9.54477
pr	-9.54481
ગર	-9.54546
દ્ર	-9.54549
ઈન	-9.54633
▁વર્ચ્યુઅલ	-9.54655
▁state	-9.54681
ans	-9.54698
▁અંતે	-9.54709
▁રહેલ	-9.54877
▁સ્ટોર	-9.54939
▁ધર્મ	-9.54984
▁USD	-9.55058
▁નાખ	-9.55147
દ્ધ	-9.5521
▁વાંચવા	-9.5521
▁ઑ	-9.55303
▁ફિલ્ટર	-9.55348
▁90	-9.55374
ect	-9.55462
MP	-9.55489
▁GST	-9.55767
▁વધ	-9.55773
▁પાસ	-9.55817
▁પાઉલ	-9.55865
ભર	-9.55888
ધા	-9.55939
▁મેમો	-9.56033
હાર	-9.56091
▁આકાર	-9.56108
▁ડેવલપર	-9.56279
▁પ્રદર્શન	-9.5628
▁સંપૂર્ણપણે	-9.56315
▁જગત	-9.56416
sta	-9.56417
▁જાહેરાત	-9.56432
▁લગ્ન	-9.56517
▁બચાવ	-9.56567
ear	-9.56654
pi	-9.56668
▁પાર્ટીશન	-9.56755
▁ઝડપથી	-9.56759
▁Li	-9.56846
EL	-9.56857
ક્યુ	-9.56899
ર્ગ	-9.56913
▁લાભ	-9.56934
▁વિજેટ	-9.56985
▁300	-9.57128
૬	-9.57132
▁કસ્ટમ	-9.57163
age	-9.57171
▁હૃદય	-9.57219
▁ફૂલ	-9.57227
એક	-9.57302
▁રૂમ	-9.57347
▁Canada	-9.57456
▁વિનિમય	-9.57456
▁રોકાણ	-9.57463
▁આપ્યું	-9.57504
▁પરિણામો	-9.57512
▁અક્ષરો	-9.57544
▁મેક	-9.57553
▁ચલાવો	-9.57644
શાસ્ત્ર	-9.5766
PC	-9.57678
્રી	-9.57693
▁મર્યાદા	-9.57715
▁સેક્સ	-9.579
▁ઇન્ટરનેટ	-9.57931
▁પ્રોગ્રામ	-9.57936
che	-9.5798
▁લુ	-9.57997
▁બતાવવા	-9.58006
▁બ્લ	-9.58032
૩	-9.58056
▁આવશ્યક	-9.58168
મારા	-9.58352
▁Enterprise	-9.58407
▁આંતરરાષ્ટ્રીય	-9.58407
▁ટર્મિનલ	-9.58407
▁માઉસ	-9.58407
▁રહો	-9.58576
▁ઍ	-9.58577
▁પ્રારંભ	-9.58601
ign	-9.58613
▁ઊંચાઈ	-9.58665
▁બેંક	-9.58678
▁હાજર	-9.58735
▁મર	-9.58738
▁સ્થાપન	-9.58743
▁અસ્તિત્વ	-9.58756
▁મૂલ્ય	-9.58758
▁મહત્વપૂર્ણ	-9.58888
old	-9.58898
ઠા	-9.5906
▁વાર્તા	-9.59064
▁ફાઇલને	-9.59077
▁દરમ્યાન	-9.59126
▁34	-9.59128
▁સ્ત્રીઓ	-9.59215
▁બળ	-9.59229
▁ગુજરાત	-9.59322
▁સપાટી	-9.59491
૮	-9.59551
િકલ	-9.59567
▁લાવો	-9.59627
▁કીબોર્ડ	-9.59636
ov	-9.59737
▁જાતને	-9.59762
con	-9.598
▁ગુણ	-9.59929
▁એશિયા	-9.59941
▁નિયમો	-9.60022
▁રેખા	-9.60051
▁ગિફ્ટ	-9.60113
▁હેડર	-9.60303
સ્ટા	-9.60309
▁અદ્યતન	-9.60337
▁સુયોજન	-9.60394
▁પુ	-9.60397
▁પુસ્તક	-9.60508
▁He	-9.60537
૪	-9.60557
▁ઘરે	-9.60572
min	-9.60736
▁You	-9.60875
▁સ્ટેટ્સ	-9.60909
▁લોગ	-9.60914
▁હાલમાં	-9.60916
શિ	-9.61009
▁વિનંતી	-9.61071
▁શાંતિ	-9.6111
▁કલા	-9.61146
▁દુનિયા	-9.61307
▁ટ્ર	-9.61321
/~	-9.6134
\	-9.61346
▁સપોર્ટ	-9.61359
▁અનુસર	-9.61389
▁પોતે	-9.6139
iv	-9.61408
▁લાવવા	-9.61411
▁મોકલ	-9.61497
▁ફી	-9.6154
ક્લ	-9.61558
▁રુ	-9.61677
કિ	-9.61701
▁જાણે	-9.61704
SH	-9.61764
▁છાપવા	-9.61772
▁ફ્લ	-9.61788
▁Ba	-9.61804
▁કોષ્ટક	-9.6181
ire	-9.61889
▁રૂ	-9.61917
ide	-9.62033
▁An	-9.62106
બ્	-9.62141
▁ટેગ	-9.62199
દ્	-9.62227
ખો	-9.62254
ટલ	-9.62268
▁સુધારવા	-9.62283
▁Evolution	-9.62305
▁નિયંત્રિત	-9.62305
▁નમૂના	-9.62317
▁સોંપ	-9.6234
▁પિતર	-9.62344
કામ	-9.62378
્રુ	-9.62378
હક	-9.62418
▁પેદા	-9.62429
▁પ્રવાહી	-9.62441
ight	-9.62456
છા	-9.62469
ct	-9.62518
о	-9.62554
▁કટીંગ	-9.62555
ીકરણ	-9.62578
▁ફિ	-9.62709
ાઇડ	-9.62753
પ્લ	-9.62877
ગુ	-9.62925
▁પરિણામ	-9.63013
▁શબ્દમાળા	-9.63053
▁પહેર	-9.6306
▁સર્વિસ	-9.63089
GB	-9.63105
▁દવા	-9.63239
▁માર્ગદર્શન	-9.63304
der	-9.63334
રું	-9.63339
િમ	-9.63364
oc	-9.6337
▁con	-9.63377
▁જાત	-9.63443
gr	-9.63479
▁Me	-9.63555
િકા	-9.63556
▁છાપ	-9.63625
▁સરનામા	-9.63653
▁પહેલાથી	-9.63718
કારિયાણી	-9.63808
▁ચોરસ	-9.63809
▁ન્યુ	-9.63902
tor	-9.63961
▁સત્તા	-9.6405
р	-9.6406
▁બ્રાઉન	-9.6406
▁મૂ	-9.64083
"&	-9.64095
▁Home	-9.64103
▁છબી	-9.64134
▁સીએ	-9.64161
▁બાદ	-9.64218
▁ફોર્મ	-9.64222
૯	-9.64229
▁ઑપરેટિંગ	-9.64313
▁પશ્ચિમ	-9.64376
mode	-9.64447
app	-9.64549
▁કાર્યરત	-9.64568
▁પાલન	-9.64575
સ્પ	-9.64657
unchpad	-9.64816
▁ઓછામાં	-9.64902
ડુ	-9.64944
▁ટેબલ	-9.65087
૭	-9.65137
▁36	-9.6532
▁રાખી	-9.65338
▁દસ્તાવેજો	-9.65585
▁ભાઈ	-9.656
▁ફળ	-9.65666
▁પરિ	-9.65887
▁ઉમેરી	-9.65963
▁દેખાય	-9.66008
▁start	-9.66057
▁પ્લગઈન	-9.66111
▁CA	-9.66162
▁મંજૂરી	-9.66215
▁ખો	-9.66284
▁દૈનિક	-9.66362
▁ચિ	-9.66434
▁સર્વે	-9.66481
▁as	-9.66491
▁મારું	-9.66497
▁અંતર	-9.66497
\.	-9.66607
▁પ્રોક્સી	-9.66622
▁થોડી	-9.66623
▁મોકલી	-9.66641
▁ઓફિસ	-9.66652
▁હાલ	-9.66661
▁ચાલો	-9.66691
▁ગઈ	-9.66777
▁વિશ્વના	-9.6679
▁સમુદ્ર	-9.6688
▁ઈમેજ	-9.66882
▁Ar	-9.66898
▁ઇન	-9.66981
▁રીત	-9.67121
▁me	-9.67157
ચાર	-9.67223
ાવી	-9.67234
▁પ્રાથમિક	-9.67402
▁Online	-9.67404
▁કોઇપણ	-9.67448
▁ક્રમ	-9.67534
▁રૂપ	-9.67645
▁કામગીરી	-9.67664
▁સભા	-9.67754
બંધ	-9.6789
યલ	-9.67909
▁કુટુંબ	-9.67926
▁ડિસ્પ્લે	-9.67926
▁ઉપરાંત	-9.67945
▁૧૭	-9.67956
▁સાત	-9.67994
400	-9.67998
▁કવર	-9.68069
▁વાંચ	-9.68072
▁કેબલ	-9.68108
ર્જ	-9.6813
-7	-9.6815
▁તરત	-9.68168
▁સ્ટેશન	-9.68193
▁જોખમ	-9.68218
ત્વ	-9.68253
do	-9.68282
ંજ	-9.6834
▁જરૂરિયાતો	-9.68397
ાઇઝ	-9.68406
▁સ્વરૂપ	-9.68429
▁37	-9.68431
કેટ	-9.68439
ance	-9.6845
▁સુવાર્તા	-9.68453
▁કેટલીક	-9.68597
▁મૂકી	-9.68657
▁that	-9.68737
▁ઘણું	-9.68796
▁બુ	-9.68808
▁st	-9.68813
150	-9.68816
▁વ્યાપાર	-9.68983
▁ડૉલર	-9.68984
▁To	-9.68993
ll	-9.69023
▁નાખવા	-9.69123
પ્ટ	-9.69134
ડું	-9.69216
િલ	-9.69233
▁ગોપનીયતા	-9.69249
▁ફિટનેસ	-9.69249
▁CNC	-9.69255
▁દિવસો	-9.69257
સ્ટી	-9.69355
▁માલ	-9.69405
▁સુમેળ	-9.69516
▁વૈવિધ્યપૂર્ણ	-9.69517
▁મિલિયન	-9.69534
ન્ક	-9.6955
ન્ડર	-9.69614
▁બાળ	-9.69618
Full	-9.69661
▁પોલીસ	-9.69694
પેટ	-9.69695
લિંગ	-9.69726
▁Phone	-9.69783
મેટ	-9.69853
▁સ્ક	-9.69925
બર્ગ	-9.69942
▁માંગ	-9.69986
▁૦	-9.70014
▁વિન્ડોને	-9.70046
▁સિટી	-9.70054
ust	-9.70072
ke	-9.70077
eg	-9.70092
▁±	-9.70246
▁જનરેટર	-9.7032
▁અસ	-9.70348
▁સહી	-9.70352
tool	-9.70459
▁આકાશ	-9.70482
▁જીત	-9.70588
▁ડિપોઝિટ	-9.70589
▁વાતચીત	-9.70589
▁કેમેરા	-9.70591
▁સમજી	-9.70611
ster	-9.70682
▁your	-9.70695
▁વેપાર	-9.70711
▁મંત્રાલય	-9.7086
▁વાયરલેસ	-9.70867
▁ગોઠવો	-9.70874
પટ્ટી	-9.70898
ya	-9.70909
વેદ	-9.70977
વાય	-9.71062
▁Inc	-9.71064
Hz	-9.71085
▁નાશ	-9.7111
▁OF	-9.71149
▁લખો	-9.7117
▁પત્ર	-9.71248
▁જાણવા	-9.71327
▁ભેગા	-9.71403
▁બેરિંગ	-9.71406
▁26.00	-9.71412
mb	-9.71618
▁ગોઠવ	-9.71641
▁ફેરફારો	-9.71665
▁વિસ્તૃત	-9.71675
▁ખુશ	-9.71677
quot	-9.71688
cr	-9.71743
શ્વ	-9.71804
▁અભિપ્રાયો	-9.71823
▁આપમેળે	-9.71948
▁છાપો	-9.7201
▁ટેક્સ	-9.72032
િશ	-9.72085
log	-9.72091
▁ગાય	-9.72203
▁ઓર્ડર	-9.72226
▁150	-9.72304
▁ટિપ્પણી	-9.72797
ah	-9.72836
લ્પ	-9.72858
▁સ્લોટ	-9.72879
▁બ્રા	-9.72888
▁ઇચ્છ	-9.72963
અપ	-9.72994
દાન	-9.73012
ઝી	-9.73014
▁પોતાને	-9.73052
▁ઝા	-9.73061
▁પડી	-9.73219
▁લક્ષણો	-9.73243
▁રેટિંગ	-9.73343
▁લાઇન	-9.73367
દેવ	-9.73433
▁શીટ	-9.73481
nc	-9.73482
IS	-9.73498
▁કહેવાય	-9.73546
▁Mobile	-9.73603
▁દોર	-9.73667
\@	-9.73667
air	-9.73736
ાત	-9.73857
▁English	-9.73882
▁પહોંચ	-9.73932
ચુ	-9.73982
▁ગ્રે	-9.74065
▁08	-9.74079
િટી	-9.74182
▁ઇચ્છા	-9.74257
▁હુ	-9.74261
▁દર્શાવવા	-9.74295
ઝે	-9.74396
▁Ho	-9.74469
પૂર્વક	-9.74526
ee	-9.74531
▁ક્યાંતો	-9.74537
▁હાલની	-9.74636
બૂ	-9.74657
▁માલિક	-9.74665
▁70	-9.74709
▁ઝોન	-9.74767
str	-9.74807
pl	-9.74838
▁dur	-9.74888
▁વાલ્વ	-9.75004
મહ	-9.75044
સ્થાન	-9.75056
int	-9.75122
▁યુકે	-9.75151
▁હતુ	-9.75201
▁પાના	-9.75254
▁ડિજિટલ	-9.75286
2017	-9.75289
TR	-9.75294
વેર	-9.75313
▁માર્કેટિંગ	-9.75319
tu	-9.75363
▁2000	-9.75377
ji	-9.75397
line	-9.75505
▁ફોટા	-9.75555
ીયા	-9.75562
▁દિશા	-9.75678
▁ભા	-9.7569
chi	-9.7571
US	-9.75771
▁પાનાં	-9.75792
▁એલ્યુમિનિયમ	-9.75854
▁se	-9.75897
mp	-9.75924
▁Mi	-9.75941
▁લિંક	-9.75995
ાણ	-9.76046
▁રમ	-9.76071
cy	-9.76111
▁યુરો	-9.76112
▁સ્માર્ટ	-9.76136
▁પાછો	-9.76139
▁મગજ	-9.76139
▁સાંભળી	-9.76172
▁શકું	-9.76228
▁તેણી	-9.76429
▁મિલ	-9.76458
▁મેક્સ	-9.76538
ાળ	-9.76544
ઘા	-9.76562
tra	-9.76641
▁મોટું	-9.76655
PL	-9.76662
▁CPU	-9.76712
▁Be	-9.76775
▁ખોલવા	-9.76799
લોન	-9.76799
120	-9.76833
▁પ્રમાણ	-9.76833
ેન્ટ	-9.76859
pan	-9.76888
tri	-9.76945
▁+86	-9.76966
▁રકમ	-9.76999
▁અનુવાદ	-9.77003
▁રેસ	-9.77013
▁સૂ	-9.77034
ભાગ	-9.77038
ઇલ	-9.77077
▁શકાયુ	-9.77254
▁પસંદિત	-9.77259
ચંદ્ર	-9.77288
▁Play	-9.77295
ણે	-9.77313
▁શાસ્ત્ર	-9.77316
પોર્ટ	-9.77318
ત્ય	-9.77343
▁માત્રા	-9.77361
▁પ્રકાશન	-9.77469
▁વાક્ય	-9.77577
format	-9.77652
ચા	-9.77746
▁{0}	-9.77784
▁Dr	-9.77826
▁વોલ્ટેજ	-9.77865
▁લાઇવ	-9.77865
▁વિકસ	-9.77875
▁દોરી	-9.77883
▁જાવ	-9.77916
▁શકશે	-9.77937
iz	-9.78003
0000	-9.78011
▁વ્યવસ્થા	-9.78033
્રા	-9.78055
box	-9.78064
▁ડાય	-9.7827
▁કમ્પ્યૂટર	-9.78448
▁નિર્ણય	-9.78448
▁જીનોમ	-9.7845
▁અસરકારક	-9.78461
▁બીજો	-9.78566
યુક્ત	-9.78577
▁પાર	-9.78619
___	-9.7863
ંપ	-9.78659
બળ	-9.78715
▁સાઇટમેપ	-9.78749
▁સુપર	-9.78754
▁શહેરમાં	-9.78864
▁વિમાન	-9.78945
▁શ્રીજીમહારાજ	-9.79033
ત્રી	-9.79063
▁બનવા	-9.79073
▁કરાર	-9.7908
શ્	-9.79097
▁તાળુ	-9.79176
600	-9.79265
dr	-9.79306
▁શેરી	-9.7937
har	-9.79378
ood	-9.79538
▁અગ્ર	-9.79566
▁હતાં	-9.79576
▁રમવા	-9.79605
▁પટેલ	-9.79623
set	-9.79642
▁સમાવ	-9.79653
▁ટેટૂઝહાથ	-9.79684
ED	-9.7969
▁સૌ	-9.79698
▁પોસ્ટેડ	-9.79705
▁ફો	-9.79771
▁title	-9.7983
hu	-9.79893
▁district	-9.79918
▁Di	-9.79936
test	-9.79947
▁ઉમેર	-9.79983
તન	-9.80018
▁પામે	-9.8015
PM	-9.80154
▁સૂચક	-9.80215
▁જમણી	-9.80217
▁વપરાયેલ	-9.80246
▁Ex	-9.803
▁Web	-9.80365
ેલો	-9.80366
▁સ્ક્રિપ્ટ	-9.80375
▁મેળવ	-9.80391
▁ફેરવો	-9.8043
▁પ્રોટોકોલ	-9.80513
▁સંસ્કૃતિ	-9.80513
▁translated	-9.80513
વેલ	-9.80525
▁મહિલા	-9.80577
▁૨૦	-9.80604
ea	-9.80607
▁આવતા	-9.80613
ty	-9.8067
-01	-9.80675
▁કેદીઓ	-9.80702
ન્ટે	-9.80754
▁ઇન્દ્રિયો	-9.80811
▁સંચાલક	-9.80811
TE	-9.80819
▁કરેલા	-9.80848
ણો	-9.80861
▁જુદા	-9.80867
▁Le	-9.80882
▁09	-9.80951
▁કાઢ	-9.80967
▁it	-9.81056
▁વિજ્ઞાન	-9.81095
ીત	-9.81098
▁માણસને	-9.81208
દો	-9.81298
tal	-9.81377
▁સર	-9.81384
▁MA	-9.81385
▁પરીક્ષા	-9.81411
▁FSX	-9.81412
ase	-9.81413
▁કાર્	-9.81475
▁ફોલ્ડરમાં	-9.81578
▁LexUriServ	-9.81712
▁એલઇડી	-9.81712
cu	-9.81712
▁સુચના	-9.81713
ફ્ર	-9.81735
▁ગુણધર્મ	-9.81758
▁Ro	-9.8182
▁can	-9.81853
▁ચેક	-9.8186
▁વર્ષે	-9.81906
રેટ	-9.81919
▁ઉત્પન્ન	-9.82014
▁કંઇ	-9.82015
▁મેકઅપ	-9.82022
ક્ત	-9.8203
▁ઊભા	-9.82034
પુર	-9.82189
બોક્સ	-9.82207
for	-9.82253
િયમ	-9.82274
og	-9.82295
▁શામેલ	-9.82418
▁ખસેડવા	-9.82536
▁33	-9.8256
▁બસ	-9.82579
▁તેવું	-9.82605
▁ડેટાબેઝ	-9.82621
▁સ્વયં	-9.82621
work	-9.82628
અનંત	-9.82633
▁250	-9.82654
▁જૂ	-9.82664
દર	-9.8267
▁જોડાવા	-9.827
▁સમાવે	-9.82778
▁(2)	-9.82789
host	-9.82883
▁રુટ	-9.82905
▁દીઠ	-9.82938
ory	-9.82966
ઇડ	-9.82974
tr	-9.83039
▁સાંભળવા	-9.83047
▁મળ્યું	-9.83063
▁આઈ	-9.83106
bu	-9.8317
શ્ર	-9.83193
▁ઓર	-9.83196
ari	-9.8323
qu	-9.83343
ફી	-9.83357
▁બતાવે	-9.83394
▁દુકાન	-9.83411
que	-9.83424
શીલ	-9.83508
વાળું	-9.83644
EN	-9.83675
▁કેન્દ્રિત	-9.8372
▁undo	-9.83804
hat	-9.83817
▁નિયંત્રક	-9.83846
▁નુકસાન	-9.83846
▁ઢ	-9.83848
▁Live	-9.83881
વત	-9.83894
▁માતાનો	-9.83894
▁વિન્ડોમાં	-9.83912
▁સાદ	-9.84002
▁પથ્થર	-9.84155
▁મોલેક્યુલર	-9.84155
▁મળ	-9.84195
▁ભેટ	-9.84207
્તિ	-9.84217
▁સલાહ	-9.84238
mon	-9.84278
▁લાઇટ	-9.84284
પણું	-9.84322
પ્સ	-9.84389
▁એવો	-9.84408
▁સમાજ	-9.8442
ai	-9.84441
▁દેવને	-9.84459
▁ગયેલ	-9.84485
tt	-9.8451
થો	-9.84515
બહેન	-9.84593
▁EN	-9.84724
▁ટ્રે	-9.84738
ેન્	-9.84746
વૉ	-9.84754
લિન	-9.8476
▁વૃક્ષ	-9.84775
▁વધારાની	-9.84776
▁લીધે	-9.84778
▁2011	-9.84819
▁ગરમ	-9.84828
▁ચલાવ	-9.84845
કારો	-9.84896
▁દેવનો	-9.84914
▁વાળ	-9.84925
▁જોયો	-9.84941
▁સેન્ટ	-9.84942
TS	-9.84943
ફર	-9.8495
▁માફ	-9.8496
▁સમુદાય	-9.85087
▁600	-9.85151
tic	-9.85203
gg	-9.85204
▁સંપર્કમાં	-9.85235
▁so	-9.85248
UR	-9.85368
▁જાણી	-9.85382
▁નાંખ	-9.85418
▁ડોમેન	-9.85422
▁જરૂરિયાત	-9.85465
▁ago	-9.8551
ran	-9.85524
▁દાવો	-9.85542
▁મેળવવામાં	-9.85565
▁હોટ	-9.85605
▁સહન	-9.85667
dia	-9.85676
▁પૂછપરછ	-9.85712
▁વ્યાસ	-9.85719
▁48	-9.85774
▁ST	-9.85788
user	-9.85796
art	-9.85817
▁વાપર	-9.85847
▁સ્પ	-9.85884
1000	-9.85915
સ્કો	-9.8593
▁લવ	-9.85993
▁શકશો	-9.86073
▁but	-9.86076
TH	-9.8614
▁sp	-9.86235
▁વ્યાખ્યાયિત	-9.86251
ર્બ	-9.86305
▁કચરાપેટી	-9.86409
▁બુકમાર્ક	-9.86416
▁સ્ટાર	-9.86485
DE	-9.86539
file	-9.86635
▁પ્રગતિ	-9.86659
ost	-9.8667
unt	-9.86714
▁64	-9.8675
મણ	-9.86779
IP	-9.8681
▁વેચાઈ	-9.86994
▁પ્રે	-9.87001
▁સુધારાશે	-9.87024
મારી	-9.87029
▁પેટી	-9.87041
▁55	-9.87069
▁સંબંધ	-9.8714
HFW	-9.87143
▁મોકલવા	-9.87257
▁લેવામાં	-9.87336
ઉં	-9.87353
ન્ન	-9.87388
▁મશીનરી	-9.8745
▁ગત	-9.87459
▁120	-9.87468
▁સરસ	-9.87556
▁સંસ્થાન	-9.87589
hilippines	-9.87614
▁મર્યાદિત	-9.87614
▁વિરૂદ્ધ	-9.87614
▁પૂછયું	-9.87624
TP	-9.877
ook	-9.87713
ાશે	-9.87803
▁કલાકાર	-9.87845
▁provinces	-9.87948
▁at	-9.87952
ફિ	-9.87962
▁નોંધો	-9.88007
ંડા	-9.88009
સિંહ	-9.88035
▁ક્રિયાઓ	-9.88062
▁કદી	-9.88098
▁ગેમ્સ	-9.88101
▁ગતિ	-9.88138
▁IC	-9.88151
▁સન	-9.88172
hy	-9.882
▁પર્યાવરણ	-9.88235
▁XML	-9.88258
▁છૂટ	-9.8826
▁ચિંતા	-9.88261
▁કુદરતી	-9.88291
▁ચિહ્નો	-9.88349
રિયા	-9.8842
ach	-9.88465
▁યહૂદિ	-9.88473
▁પાડી	-9.88486
્લે	-9.88556
▁દેવામાં	-9.88574
▁સ્ટ્રીમ	-9.88585
▁અગ્રણી	-9.886
▁ફીડ	-9.88607
ko	-9.88621
▁ઈસુના	-9.887
▁નીચેના	-9.88715
lock	-9.88731
વિકાસ	-9.88771
પક્ષી	-9.88797
▁Po	-9.88803
▁વ્યવહાર	-9.88812
CHI	-9.88864
▁પરિમાણ	-9.88866
ગલ	-9.8888
▁અલ્ટ્રાસોનિક	-9.88903
▁જયારે	-9.88903
ure	-9.88917
▁કીઓ	-9.88969
▁દબાવો	-9.8902
▁હક	-9.89148
▁ભાગના	-9.89161
®	-9.89227
▁કાર્બન	-9.89231
▁ન્યાયી	-9.89253
▁કપ	-9.89283
નિયા	-9.8938
ive	-9.89383
▁ફ્રેમ	-9.89434
▁માતા	-9.89498
ધર	-9.89515
દ્દ	-9.89556
▁થતા	-9.89566
▁લાગણી	-9.89568
લાઈ	-9.89656
▁કરીશ	-9.89663
▁અનુ	-9.89664
▁MB	-9.89677
ચિ	-9.89699
▁માર્ક	-9.89853
▁મુસાફરી	-9.8988
NE	-9.89927
વર્ડ	-9.90074
The	-9.90087
ચ્છ	-9.90087
▁વ્યક્તિને	-9.9009
યું	-9.90125
▁38	-9.90141
▁ફ્લેગ	-9.9019
heng	-9.90207
▁જવાબદારી	-9.90239
▁લક્ષણ	-9.90309
▁gu	-9.90322
▁મેઇલ	-9.90354
▁થા	-9.90479
મત	-9.90516
▁શિપિંગ	-9.90537
▁પત્ની	-9.90545
ખી	-9.90564
info	-9.90604
▁મૂકો	-9.90759
▁ગેમ	-9.90778
▁સુવિધાઓ	-9.90783
▁વૈકલ્પિક	-9.90828
▁કોલેજ	-9.90907
ana	-9.90909
▁સીમા	-9.90984
▁ઓટો	-9.91054
▁ભારે	-9.91085
અને	-9.91096
▁પ્રવૃત્તિઓ	-9.91099
લ્ક	-9.9113
▁ખરીદો	-9.91138
▁શુ	-9.91141
▁લાવ	-9.91148
▁મિશ્રણ	-9.91198
▁સ્વાધીન	-9.91198
્લ	-9.91223
▁જેણે	-9.91228
ron	-9.91343
▁DVD	-9.91382
▁ટૂંક	-9.91439
િઓ	-9.91441
jo	-9.91517
▁મત	-9.91519
▁થ્રેડ	-9.9153
▁વિડિયો	-9.9153
▁ઈવોલ્યુશન	-9.91533
▁મેનેજમેન્ટ	-9.91534
▁નીચા	-9.9155
list	-9.91637
▁Bo	-9.91652
▁અસ્તિત્વમાં	-9.9171
વલ	-9.91713
▁ક્રે	-9.91726
az	-9.91756
▁ઈસુની	-9.91761
ાયો	-9.91835
▁માછલી	-9.91863
▁this	-9.91867
▁400	-9.91889
▁બીજું	-9.91948
ટુ	-9.91953
▁ગ્રહ	-9.91983
▁આત્મ	-9.92013
gi	-9.92049
▁ઘણાં	-9.92099
▁1.5	-9.92132
wi	-9.92134
▁અનન્ય	-9.92198
▁બેઠક	-9.92204
▁કૂકીઝ	-9.92222
▁પાડ	-9.92323
્મ	-9.92413
▁હજી	-9.92438
▁are	-9.92472
▁ટાઉન	-9.92487
▁Deposit	-9.92533
▁ખોટું	-9.92533
▁0086-	-9.92534
▁એડમિન	-9.92541
▁URI	-9.92555
▁05	-9.92581
ef	-9.92609
uz	-9.92633
▁part	-9.92658
ભાવ	-9.92679
▁Te	-9.92837
▁કૂ	-9.92936
▁નાણાં	-9.92942
▁પ્રિન્ટિંગ	-9.92948
કારક	-9.93031
▁should	-9.9308
▁La	-9.93185
▁જોઇ	-9.93259
▁per	-9.93284
▁રહ્યુ	-9.9341
let	-9.93413
ated	-9.9348
▁પ્રાણી	-9.93516
keyboard	-9.9356
▁૧૪	-9.93587
mark	-9.93639
વાદ	-9.93647
▁ગીત	-9.93648
▁મહા	-9.93673
▁છુ	-9.93788
▁Mar	-9.93794
▁AC	-9.93838
▁જેવો	-9.93877
▁રોટલી	-9.93887
▁બાંધકામ	-9.93892
ize	-9.93911
les	-9.93953
▁૭૧	-9.93959
ચેરી	-9.94057
ner	-9.94119
વાળો	-9.9414
▁800	-9.94161
▁જટિલ	-9.9423
▁રીટ્વીટ	-9.94233
▁{	-9.94243
▁મુશ્કેલ	-9.94279
▁કુશળતા	-9.94287
ડવા	-9.94307
▁કહો	-9.94416
▁સુધારા	-9.94448
▁વિદ્યાર્થી	-9.94473
સાર	-9.94564
▁પુસ્તિકા	-9.94571
▁આઇફોન	-9.94577
▁કેટલાએક	-9.94578
▁મૂસા	-9.9462
લ્લ	-9.94664
NO	-9.94712
લાઇન	-9.94775
▁થાઓ	-9.94844
RI	-9.9485
▁કવિતા	-9.94915
▁બેકઅપ	-9.94921
▁બેક	-9.94941
મય	-9.94952
▁અંગ	-9.94952
▁૧૩	-9.94956
▁સુવિધા	-9.95002
▁સંકેતો	-9.95014
▁box	-9.95057
▁હેડ	-9.951
▁ભાત	-9.95154
250	-9.95166
ત્યા	-9.95249
▁જૂના	-9.95257
▁પેકિંગ	-9.95261
ભિ	-9.95278
▁Pre	-9.95337
લ્લા	-9.95368
▁અલ્	-9.95388
0.23	-9.95401
▁પ્લેટ	-9.95456
▁લોયા	-9.95482
▁સાંભળ	-9.95591
▁સ્થળાંતર	-9.95605
▁સારાંશ	-9.95606
▁સાંભળ્યું	-9.95633
▁પ્રાંત	-9.95637
સૂ	-9.95695
ye	-9.95723
મોર	-9.95739
▁જોડી	-9.9575
્યાં	-9.95777
▁વહેંચ	-9.95851
▁WhatsApp	-9.95952
▁માળખું	-9.95952
▁પ્રદેશ	-9.95966
Language	-9.95986
▁સિવાય	-9.95989
▁સમર્થ	-9.95997
val	-9.96023
▁ધોરણ	-9.96089
▁નીચેની	-9.96131
▁ઘટાડો	-9.96223
▁એન્જિન	-9.96296
Country	-9.96301
▁Twitter	-9.96301
▁ઊર્જા	-9.96301
▁રજીસ્ટર	-9.96301
▁pricelist	-9.96302
ale	-9.96307
▁યુદ્ધ	-9.96347
▁પંપ	-9.96353
▁Tr	-9.96382
ib	-9.96391
બલ	-9.96427
▁Hu	-9.96461
▁આવું	-9.9648
▁વિસ્તારમાં	-9.96496
▁દર્શક	-9.96535
▁કહેવું	-9.96564
▁વળ	-9.96586
▁ઓબ્જેક્ટ	-9.96651
▁સ્વામી	-9.96779
▁જાણીએ	-9.96822
ાઇટ	-9.96832
we	-9.96835
ૂન	-9.96957
▁જેકપોટ	-9.97001
▁જાડાઈ	-9.97001
▁sales	-9.97011
▁03	-9.97062
ટ્રે	-9.97102
ક્ટર	-9.97162
vo	-9.97227
▁એરે	-9.97264
▁MT	-9.97281
▁બુક	-9.97285
▁મળ્યો	-9.97402
ton	-9.97449
▁44	-9.9748
▁સૂર્ય	-9.97701
▁જિલ્લો	-9.97707
▁વૈજ્ઞાનિક	-9.97707
▁ગેસ	-9.97717
001	-9.97784
▁આવવા	-9.97812
▁ઊં	-9.97861
વ્યા	-9.97869
લેસ	-9.9787
▁મહત્વ	-9.97946
▁કચરાપેટીમાં	-9.97986
▁ધ્યાનમાં	-9.98056
▁માધ્યમ	-9.98062
▁રશિયા	-9.98065
ફાઇ	-9.98149
hai	-9.98154
▁કન્	-9.98156
pcs	-9.98165
▁ટાપુ	-9.98196
સેટ	-9.98296
કોડ	-9.98306
(2	-9.98311
lan	-9.98365
0.3	-9.98386
over	-9.9839
textattr	-9.98417
▁નીંગબો	-9.98417
▁પ્રતિકાર	-9.98505
▁તબીબી	-9.98775
▁બાહ્ય	-9.98775
▁મોઝેક	-9.98775
▁સાબિત	-9.98775
▁કાયદા	-9.98775
▁ફ્લાઇટ	-9.98781
▁ગોળી	-9.98803
▁220	-9.99006
▁ચૂ	-9.99028
નારા	-9.99042
▁તફાવત	-9.99133
▁નોંધપાત્ર	-9.99142
▁કરાયેલ	-9.9921
▁માસ્ક	-9.99252
ક્શન	-9.99281
▁મધ્યમ	-9.99308
▁GSTR	-9.99339
અલ	-9.99447
swkothar	-9.99492
▁શક્તિશાળી	-9.99493
▁જમણે	-9.99494
▁જણાવ	-9.99513
▁Up	-9.9958
▁સૂચન	-9.99588
▁સુખ	-9.9968
▁શીખ	-9.99719
▁Long	-9.99773
▁HTTP	-9.99854
▁ઈન્ટરનેટ	-9.99854
▁ઢાળ	-9.99861
▁ઊંચી	-9.99863
▁પ્રા	-9.99963
▁સ્કેન	-9.99982
▁શિષ્યોને	-9.99985
▁For	-10.0002
▁વીમા	-10.0004
0,000	-10.0011
▁Gu	-10.0012
પાલ	-10.0016
ake	-10.0018
યોગ	-10.0019
image	-10.0025
▁આપનું	-10.0026
ary	-10.0038
▁પેટ	-10.0052
▁સમસ્યાઓ	-10.0054
▁વિશ્વસનીય	-10.0058
regions	-10.0058
▁શેલ	-10.0061
24.	-10.0068
▁39	-10.0076
get	-10.0078
▁ચલાવી	-10.0082
▁તેનાથી	-10.0085
▁હાર્ડ	-10.0087
layers	-10.009
▁વ્યવસ્થાપન	-10.0094
▁સેકન્ડ	-10.0095
▁અજાણ	-10.0096
▁News	-10.0096
Stock	-10.0098
▁ડાબે	-10.0098
gram	-10.0105
▁પામ્યા	-10.0109
▁હોલ	-10.0115
▁કરીશું	-10.0118
▁પામ	-10.0124
▁ભવિષ્ય	-10.013
ગુલાબ	-10.0131
▁આફ્રિકા	-10.0131
▁પ્રોફાઇલ	-10.0131
▁સરળતાથી	-10.0131
બિલાડી	-10.0131
▁ચાર્ટર	-10.0132
▁સ્પિન	-10.0134
ાત્મક	-10.0135
▁ટુ	-10.015
ાવે	-10.0152
▁સાચવ	-10.0153
સ્ટ્રે	-10.0157
LF	-10.0158
▁પ્રેરિતો	-10.0162
▁પ્રદર્શિત	-10.0168
▁સુયોજીત	-10.0168
▁count	-10.0168
▁પક્ષીએ	-10.0169
▁ગોલ્ડ	-10.017
▁Slots	-10.0176
▁Con	-10.0193
▁પ્રિન્ટ	-10.0196
િવ	-10.0198
મોન	-10.0199
▁કોર્પોરેટ	-10.0205
▁પીવીસી	-10.0205
▁વર્લ્ડ	-10.0205
sion	-10.0206
▁કેન્સર	-10.0206
▁બહેનો	-10.0206
NT	-10.0211
▁કાળા	-10.0212
▁પ્લે	-10.0212
▁ચોકઠાંઓ	-10.0214
બોર્ડ	-10.0222
▁જાણતા	-10.0225
ger	-10.0233
ક્રમ	-10.0236
▁યુપી	-10.0237
GenericName	-10.0242
▁કૅલેન્ડર	-10.0242
▁જોડણી	-10.0242
▁આલ્ફા	-10.0242
▁પાઉન્ડ	-10.0246
યન	-10.0248
ml	-10.0249
▁07	-10.0255
▁મળ્યા	-10.0257
▁ક્રિ	-10.0258
ુર	-10.0262
▁માણસે	-10.0265
▁UP	-10.0277
и	-10.0279
▁કૂપન	-10.0279
Image	-10.028
ાલય	-10.0283
0.2	-10.0284
▁સમાવિષ્ટો	-10.0287
▁બોલ્યા	-10.0292
▁રાખીને	-10.0301
▁વિન્ડોની	-10.0306
▁માર્ગદર્શિકા	-10.0311
હૂ	-10.0315
▁posted	-10.0316
▁Un	-10.0319
bra	-10.0329
160	-10.0335
▁કમ	-10.0338
▁ક્લે	-10.0341
▁કૉ	-10.0342
િક્સ	-10.0349
▁ઊભી	-10.0354
▁મલ્ટી	-10.0354
russia	-10.0354
▁માળ	-10.0355
▁વધારવા	-10.0361
હાર્ટ	-10.0365
▁ચલ	-10.0375
▁લોન	-10.0375
TI	-10.0383
wa	-10.0387
▁પ્રભાવ	-10.0389
lin	-10.0389
▁નોકરી	-10.039
`	-10.0391
▁Vachanamrut	-10.0391
▁સંકળાયેલ	-10.0391
▁વિતરણ	-10.0391
▁OEM	-10.0391
▁ક્ષણ	-10.0399
એન્કર	-10.0404
lar	-10.0408
▁ફોર	-10.0408
▁વિશેષ	-10.0408
▁We	-10.0409
ભારત	-10.0416
▁યાદીમાં	-10.0427
▁વેબસાઈટ	-10.0429
▁version	-10.0429
▁અવ	-10.043
▁સાઉન્ડ	-10.0434
▁બીટા	-10.0437
ob	-10.0441
-15	-10.0442
શુ	-10.0447
ાઉન્ડ	-10.0449
book	-10.0452
▁હોવું	-10.0465
▁ફૂટ	-10.0467
▁બન્યું	-10.0467
▁પ્લસ	-10.047
▁નેટ	-10.047
▁j	-10.047
▁su	-10.0472
▁મૂક	-10.0475
▁સંમત	-10.048
લિક	-10.0483
૨૦૦	-10.0485
▁pre	-10.0486
▁Su	-10.0487
gujarati	-10.0491
ન્ટા	-10.0493
▁નીકળ	-10.0496
0.1	-10.0498
ગ્રા	-10.0501
▁મોનિટર	-10.0505
▁અનામત	-10.0505
ટિંગ	-10.0506
અમે	-10.0506
▁દુષ્ટ	-10.0507
▁૬૭	-10.0507
▁પગલું	-10.0508
▁કેટલા	-10.0509
cur	-10.0514
▁ચર્ચા	-10.0515
▁પ્રમાણપત્રો	-10.0523
▁પ્રમુખ	-10.0543
▁ડ્રાઇવર	-10.0545
ર્વ	-10.0548
▁110	-10.055
ok	-10.055
▁સૂચિત	-10.0551
ny	-10.0553
▁સભ્યો	-10.0556
▁એટલા	-10.0562
ીઝ	-10.0565
aw	-10.0565
▁અંગે	-10.0571
▁સબ	-10.0571
▁ઝી	-10.0576
▁પ્રત્યેક	-10.0577
▁મરણ	-10.0579
▁સમૃદ્ધ	-10.0581
KChar	-10.0581
▁જિલ્લા	-10.0581
ional	-10.0588
ાન્	-10.059
▁AM	-10.0601
▁જીવનમાં	-10.0601
▁જોયા	-10.0608
▁france	-10.0609
સ્ટ્રી	-10.0622
ડિયા	-10.0622
▁રૂપાંતરિત	-10.0624
▁ડાબી	-10.0627
mat	-10.0633
▁Do	-10.0635
▁ગ્રામ	-10.0637
્ટી	-10.0646
▁ફોલ્ડરને	-10.0647
્રો	-10.0648
oss	-10.065
▁ધ્વનિ	-10.0659
HE	-10.0659
▁મંડળી	-10.0662
▁નદી	-10.0664
▁સુધારાઓ	-10.0667
▁01	-10.067
▁એમએમ	-10.0685
▁ગરમી	-10.0693
▁ઍક્સેસ	-10.0697
▁તાજેતરની	-10.0697
▁સંપત્તિ	-10.0697
Region	-10.0698
▁block	-10.0699
▁એજ	-10.0699
▁New	-10.07
▁એસિડ	-10.0701
▁લોક	-10.0703
▁સારો	-10.0706
િઅન	-10.0713
▁કોર્સ	-10.0719
સ્ટો	-10.0721
ારા	-10.0731
gen	-10.0733
dev	-10.0735
▁રાત્રે	-10.0736
▁ભોજન	-10.0736
ડ્રેગન	-10.0736
pm	-10.0747
▁નિશ્ચયનું	-10.0748
▁પૂછો	-10.075
▁ગોઠવણી	-10.0752
લ્ફ	-10.0754
▁ક્ષેત્રો	-10.0759
▁ઓવર	-10.0759
180	-10.0762
▁જીવંત	-10.0766
▁આકાશમાં	-10.0769
▁જીવી	-10.077
▁sa	-10.0773
બોલ	-10.0775
▁આધુનિક	-10.0775
▁ગ્લાસ	-10.0775
▁ઉંમર	-10.0775
▁ઓપન	-10.0776
▁from	-10.0777
are	-10.078
▁કપડાં	-10.0781
▁જથ્થો	-10.0783
▁કલાકની	-10.0787
▁પ્રવૃત્તિ	-10.0789
▁search	-10.0792
છાતી	-10.0797
▁US	-10.0806
date	-10.0807
▁માલિકી	-10.0814
▁TRANSLATORS	-10.0814
▁અત્યંત	-10.0814
▁અનિચ્છનીય	-10.0814
▁GNOME	-10.0814
કન્યાઓ	-10.0815
▁ટેટૂઝપગ	-10.0815
▁ઇલેક્ટ્રિક	-10.0815
▁પાશ્વભાગ	-10.0816
123	-10.0817
▁8.1	-10.0818
હુ	-10.0823
ૂં	-10.0831
ja	-10.0834
▁સંસ્થાઓ	-10.0836
▁ટાઇમ	-10.0839
▁પુરુષો	-10.0845
ree	-10.085
▁સખત	-10.0854
ankit	-10.086
▁કાર્યક્ષમતા	-10.0865
▁pro	-10.0866
▁બેસ	-10.0869
▁___	-10.0871
▁પરંપરાગત	-10.0878
▁ઘટનાઓ	-10.0881
▁સુધારેલ	-10.0886
▁એકત્ર	-10.0896
જીવન	-10.0897
cal	-10.0897
▁પક્ષ	-10.0898
▁India	-10.0909
bar	-10.0911
િઝ	-10.0914
▁વોલ	-10.0916
તમ	-10.0923
▁મોડ	-10.093
ameroon	-10.0933
▁ટ્યુબ	-10.0933
▁વાતાવરણ	-10.0933
▁ઘડિયાળ	-10.0933
▁આર્થિક	-10.0933
help	-10.0934
▁51	-10.094
▁સમજાવ	-10.0941
ze	-10.0943
▁Wi	-10.0945
બાર	-10.095
જિ	-10.0951
▁નીકળો	-10.0952
લોક	-10.0963
▁સોલ	-10.0965
▁પાડવા	-10.0971
▁મથક	-10.0973
▁પદાર્થ	-10.0973
ફોર્મ	-10.0974
ik	-10.0976
▁ઈન્	-10.0977
▁પહોંચી	-10.0978
2.1	-10.0978
▁જોડાણો	-10.0983
બેક	-10.0989
▁પરવાનગીઓ	-10.0994
▁tr	-10.0995
ાંત	-10.1006
ling	-10.1007
ંઠ	-10.1009
▁વારંવાર	-10.1013
NAME	-10.1013
In	-10.1016
▁નિર્	-10.1017
▁દર્શાવે	-10.1021
▁→	-10.1023
NG	-10.1029
▁તૈયારી	-10.1029
▁વૈ	-10.1029
▁યાદીને	-10.1031
▁અક્ષ	-10.1037
▁અર્ક	-10.1049
▁એકવાર	-10.1053
ound	-10.1053
▁સાહસ	-10.1054
ન્સી	-10.1062
▁Sa	-10.1066
▁Win	-10.1067
ેબલ	-10.1074
2001	-10.1075
▁ફાઇલોને	-10.1087
▁આયોજન	-10.1093
▁સિરીઝ	-10.1093
▁હાર્ડવેર	-10.1094
▁શી	-10.1096
▁થેલી	-10.1098
▁જોકે	-10.1101
્વે	-10.1105
▁આંખ	-10.1107
0.5	-10.111
av	-10.1113
▁ઘરમાં	-10.1124
▁ચક્ર	-10.1124
▁સંગ્રહવા	-10.1131
py	-10.1131
▁વિશ્લેષણ	-10.1134
▁સિદ્ધાંત	-10.1134
▁status	-10.1134
▁અમેરિકન	-10.1135
▁પાત્ર	-10.1136
▁દર્શન	-10.1142
usa	-10.1144
2000	-10.1152
▁શક્યતા	-10.1153
▁શુદ્ધ	-10.1157
▁વર્ક	-10.1158
lay	-10.1159
ચાલ	-10.1159
▁પ્લગ	-10.1173
▁પહેલ	-10.1174
▁અનુકૂળ	-10.1174
▁કારાવાસ	-10.1174
▁પ્રગટ	-10.1175
▁સરખા	-10.1178
▁પ્રત્યે	-10.1179
▁મોકલ્યો	-10.1182
▁પ્રારંભિક	-10.1182
▁૩૦	-10.1194
▁કશું	-10.1195
▁સહકાર	-10.1209
▁SKU	-10.1215
ડેલ	-10.1221
▁હાલનાં	-10.1225
▁આંખો	-10.1232
▁ભાગનો	-10.124
▁બનાવેલ	-10.1241
▁ઉભ	-10.1245
ave	-10.125
▁ઘન	-10.125
rent	-10.1253
▁ચિત્રને	-10.1254
▁નિર્માણ	-10.1255
▁ડબલ	-10.1256
▁સીરીયલ	-10.1256
▁બાઇક	-10.1259
▁સ્પષ્ટીકરણ	-10.126
▁છત	-10.1271
▁ચિહ્નિત	-10.1272
ાયેલા	-10.1275
▁SI	-10.1283
ઈટ	-10.1292
▁કોપીરાઇટ	-10.1297
ાઇન	-10.1301
▁ડીસી	-10.1301
વિલે	-10.1302
▁પેકેજો	-10.131
pt	-10.1312
▁ટેલ	-10.1313
▁ગેંગ	-10.1314
▁યુનિ	-10.1314
▁અંગ્રેજી	-10.1332
▁મેચ	-10.1332
કુલ	-10.1332
▁ઉત્	-10.1332
▁લોકડાઉન	-10.1338
▁United	-10.1339
▁અવતરણ	-10.1339
▁ભૌતિક	-10.1339
▁લીધો	-10.1339
с	-10.1339
▁કોમ	-10.1343
ક્વિ	-10.1347
▁1500	-10.1349
હીરા	-10.1353
▁એકબીજા	-10.1356
▁થવું	-10.1362
▁સલામત	-10.1364
▁કહીએ	-10.137
ence	-10.1373
▁દયા	-10.138
▁ફૂડ	-10.138
▁કલ્પના	-10.138
▁સ્ટ્રીટ	-10.1381
▁41	-10.1382
▁પવન	-10.1382
▁વન	-10.1384
▁ફેર	-10.1385
▁નિયમન	-10.1388
▁≤	-10.1399
▁ma	-10.1403
203	-10.1406
▁06	-10.1408
UI	-10.1421
બટરફ્લાય	-10.1422
dialog	-10.1423
▁પ્રતિક્રિયા	-10.1423
▁પાછી	-10.1424
તાજ	-10.1424
▁Ni	-10.1434
સ્ટિ	-10.1437
▁months	-10.1439
▁સફળ	-10.1446
bi	-10.1452
્થ	-10.1456
ર્ચ	-10.146
▁0.5	-10.1463
unicode	-10.1464
▁વધી	-10.1465
rc	-10.1469
સાઈ	-10.1471
વ્યવહાર	-10.1476
▁હાઉસ	-10.1476
▁વપરાશકર્તાને	-10.1478
▁$1	-10.148
ડ્રો	-10.1484
▁Com	-10.1485
▁વગાડ	-10.1491
bit	-10.1499
ste	-10.1501
▁પરિવર્તન	-10.1506
▁ફ્રાન્સ	-10.1506
▁મુખ્યત્વે	-10.1506
read	-10.1506
▁પ્રમાણભૂત	-10.1506
ાવો	-10.1508
▁બિલ્ડીંગ	-10.1508
▁સાધનપટ્ટી	-10.1508
ug	-10.1511
▁દરેકને	-10.1513
ઝેડ	-10.1521
▁નાંખવા	-10.1522
▁તુ	-10.1529
▁વાંચન	-10.1529
▁સભ્ય	-10.1534
▁ખાવા	-10.1534
CN	-10.1535
uc	-10.1537
▁2010	-10.1538
GE	-10.1539
ગત	-10.1542
રિક	-10.1543
દેશ	-10.1545
▁ઊભો	-10.1548
▁પોતાનું	-10.1548
Query	-10.155
▁બનાવ્યું	-10.1553
▁RAID	-10.1557
cha	-10.1558
mail	-10.1565
કીય	-10.1568
▁વિશેષતા	-10.1568
▁game	-10.1572
▁જવું	-10.1575
▁અધિકારો	-10.1579
રાશિ	-10.1579
ેશ	-10.1586
દે	-10.1595
wise	-10.1595
ડવ	-10.1598
વાઇ	-10.1603
▁તારણ	-10.1605
▁ભરો	-10.1609
▁વપરા	-10.1617
▁મળ્યુ	-10.1621
cent	-10.1623
▁જેલમાં	-10.1626
▁માઇક્રો	-10.1633
▁So	-10.1635
▁૧૯	-10.1635
ાર્થ	-10.164
▁ડ્ર	-10.1643
દર્શક	-10.1643
▁રોલ	-10.1646
▁75	-10.1654
par	-10.166
▁શરત	-10.1664
lic	-10.1668
wBuyBuy	-10.1676
▁યુનાઇટેડ	-10.1676
▁ગંભીર	-10.1676
▁સોમવાર	-10.1676
▁here	-10.1676
▁નિશાની	-10.1678
▁પ્રમાણમાં	-10.1682
▁પીડા	-10.1684
્ટન	-10.1684
add	-10.1685
▁વર્ત	-10.1688
▁ઉતર	-10.1689
▁નવ	-10.1694
ઈલ	-10.1699
▁કર્મચારીઓ	-10.1704
▁શીખવા	-10.1707
▁ભક્ત	-10.1709
પૂર્વ	-10.171
▁સાઇન	-10.1713
▁જોવાઈ	-10.1714
સ્ટ્ર	-10.1716
▁Pa	-10.1718
▁subjects	-10.1719
▁પુરવઠા	-10.1719
▁ખોટા	-10.1723
ord	-10.1724
ring	-10.1725
▁દાંત	-10.1727
પોલ	-10.173
▁રચાયેલ	-10.1731
2016	-10.1737
▁પુલ	-10.1737
રેક	-10.174
▁ઇંચ	-10.1744
્ન	-10.1744
▁થાઇ	-10.1749
પ્રે	-10.1758
▁સ્તુતિ	-10.1762
▁અવરોધ	-10.1762
▁પેઢી	-10.1762
▁ચૂકવણી	-10.1763
▁આવરી	-10.1763
▁ભાગીદાર	-10.1764
▁પુર	-10.1771
ધુ	-10.1778
▁જર્મની	-10.1782
▁કેદી	-10.1784
red	-10.1794
સ્ટન	-10.1795
644	-10.1795
han	-10.1797
▁ખોલવામાં	-10.18
▁અપેક્ષા	-10.1805
▁ઈબ્રાહિમ	-10.1805
▁સમર્પિત	-10.1805
▁ખુબ	-10.1805
rt	-10.1805
▁વ્યસ્ત	-10.1805
▁have	-10.1807
▁પર્વત	-10.1809
▁30.00	-10.1812
▁ઈચ્છ	-10.1812
પ્ત	-10.1817
▁સાન	-10.1821
▁રોમ	-10.1822
long	-10.1824
▁દેહ	-10.1825
New	-10.1826
પરંતુ	-10.1826
પ્લે	-10.1826
▁ભાર	-10.1828
atch	-10.1831
▁રૂપાંતર	-10.1832
▁રાખવામાં	-10.1832
▁સંકેત	-10.1836
▁int	-10.1839
▁AS	-10.1844
▁iOS	-10.1849
ાનંદ	-10.1849
▁કર્સર	-10.185
▁૨૭	-10.1851
ics	-10.1854
▁અવગણ	-10.1856
ગ્રહ	-10.1858
▁પૂરતી	-10.1861
▁વગાડો	-10.1863
▁65	-10.1867
▁Ha	-10.1869
શ્રેષ્ઠ	-10.1871
KW	-10.1876
▁યુવાન	-10.1883
▁ઊંચા	-10.1886
▁ક્ર	-10.1888
▁Ne	-10.1889
▁કામચલાઉ	-10.1892
▁નાણાકીય	-10.1892
તાળીઓ	-10.1892
group	-10.1892
great	-10.1892
▁વ્હીલ	-10.1893
સ્લીવ	-10.1893
▁રશિયન	-10.1893
▁ગુપ્ત	-10.1894
▁ટ્રેડિંગ	-10.1896
ધ્ય	-10.19
ade	-10.1904
▁380	-10.1911
rad	-10.1914
▁કયા	-10.1916
HS	-10.1926
▁બાપ	-10.1932
▁શકાશે	-10.1937
હિત	-10.194
ટેક	-10.1941
▁પકડ	-10.1952
▁વોટ	-10.1952
cl	-10.1953
▁125	-10.1954
▁જંગલ	-10.1959
▁માંગતા	-10.1966
▁જુએ	-10.1973
▁વિરોધી	-10.1973
ments	-10.1974
▁તેજસ્વી	-10.198
▁બનશે	-10.198
▁ફાળવ	-10.1981
▁42	-10.1983
ન્ડો	-10.1983
▁ઓછું	-10.1986
▁છુપા	-10.1986
▁સીધી	-10.1987
▁કરાવ	-10.1991
▁પારદર્શક	-10.2003
▁ડબલ્યુ	-10.2005
▁સ્પા	-10.2007
▁ટેસ્ટ	-10.201
▁નિષ્ણાત	-10.2012
▁વિડિઓઝ	-10.2015
શિયન	-10.2017
▁નાખો	-10.2019
▁ચાલે	-10.202
▁હાર્	-10.2023
▁GIMP	-10.2024
▁પતિ	-10.2027
▁મકાન	-10.2028
ool	-10.2034
▁સપ્લાયર્સ	-10.204
ફાઈલ	-10.2043
▁અત્યારે	-10.2045
OS	-10.2047
ક્રો	-10.2051
▁પોસ્ટ્સ	-10.2052
▁Al	-10.2054
▁સંયોજનો	-10.2055
▁શ્રેણીઓ	-10.2057
▁જૂની	-10.2061
▁ફાઇબર	-10.2069
▁take	-10.2071
▁સફર	-10.2076
▁સંદેશાઓને	-10.2081
▁બનાવવાનું	-10.2093
▁ઇલેક્ટ્રોનિક	-10.2096
▁હકીકત	-10.2097
ina	-10.2098
▁સૂચિ	-10.2106
ન્દ્ર	-10.2107
▁વાય	-10.2108
▁નમૂનાઓ	-10.2111
▁LIVE	-10.2113
▁સફળતાપૂર્વક	-10.2114
▁ક્રિપ્ટો	-10.2119
ધન	-10.2121
▁જગ્યાઓ	-10.2124
્યુટ	-10.213
ath	-10.2137
જ્	-10.2138
ર્ય	-10.2143
ose	-10.2146
▁CE	-10.2153
▁હોવુ	-10.2155
▁પ્રબોધકો	-10.2156
\\\\	-10.2158
▁રજૂઆત	-10.2158
▁એરપોર્ટ	-10.2158
▁સંયુક્ત	-10.2161
▁ઘાત	-10.2164
▁દાન	-10.2165
101	-10.2165
▁મશીનો	-10.217
▁વહે	-10.2173
મેઈલ	-10.2187
▁ભય	-10.219
▁સમજવા	-10.2201
▁હિંસા	-10.2203
google	-10.2203
▁આવતી	-10.2204
▁સોલ્યુશન્સ	-10.2206
▁લાગ	-10.2209
▁સેવક	-10.2209
ઇટ	-10.221
▁un	-10.2211
▁pref	-10.2217
▁નકલી	-10.2226
▁sh	-10.223
fr	-10.2231
▁કાઢવા	-10.2233
[	-10.2235
વાઈ	-10.2235
▁કરા	-10.2246
▁મનુષ્ય	-10.2248
▁યુનાઈટેડ	-10.2248
ગરદન	-10.2249
▁Archives	-10.225
▁States	-10.225
▁સંભવિત	-10.225
રિયલ	-10.2253
▁બંધબેસતુ	-10.2264
back	-10.2266
▁them	-10.2267
▁ટેપ	-10.2268
ele	-10.2271
▁શીખવ	-10.2273
▁લાવવામાં	-10.2273
▁દીકરા	-10.2274
ank	-10.2274
▁રેડ	-10.228
▁વિન	-10.2284
▁ફોટોગ્રાફ	-10.2286
▁En	-10.2287
▁સપ્લાય	-10.2289
▁ટા	-10.2291
▁હાઇડ્રોલિક	-10.2294
▁થોડો	-10.2294
style	-10.2294
▁રસ્તા	-10.2295
▁૩૭	-10.2297
▁આપતા	-10.2298
ING	-10.2304
ગ્રામ	-10.2305
▁સૂચના	-10.2307
ગ્સ	-10.231
▁world	-10.2324
સ્ટ્રો	-10.2329
less	-10.233
▁કરવુ	-10.2333
ણું	-10.2338
▁દ્રશ્ય	-10.234
દંપતિ	-10.234
▁Tablet	-10.234
9001	-10.2343
▁સીધા	-10.2346
▁Ti	-10.2349
▁અતિ	-10.235
web	-10.2353
▁હોઇ	-10.236
ન્યુ	-10.2375
▁સમાવિષ્ટ	-10.2375
▁સિસ્ટમો	-10.2382
é	-10.2385
▁યાત્રા	-10.2385
▁લૉગ	-10.2385
▁રસપ્રદ	-10.2386
▁Cheat	-10.2387
▁પ્રયોગો	-10.2388
હ્યુ	-10.2396
ક્ટો	-10.2399
gain	-10.2406
▁વાદળ	-10.2408
▁નાઇટ	-10.2413
▁ખ્રિસ્તના	-10.2418
HC	-10.2421
▁ચર્ચ	-10.2421
▁વેચ	-10.2421
▁સંગ્રહી	-10.2425
way	-10.2427
▁માયા	-10.2428
દેવદૂત	-10.2432
▁ટૅબ	-10.2432
અંતઃકરણ	-10.2432
▁પ્લેયર	-10.2434
▁રાત	-10.2438
▁AD	-10.2439
time	-10.2452
▁Br	-10.2455
cho	-10.2457
qui	-10.2469
CO	-10.2472
war	-10.2475
▁આંકડા	-10.2478
▁બાપ્તિસ્મા	-10.2478
▁શારીરિક	-10.2478
▁ગ્રેડ	-10.2478
▁વોચ	-10.248
▁વગાડવા	-10.248
▁વધારાના	-10.248
▁આવક	-10.2481
▁સ્થાનો	-10.2485
eck	-10.2489
▁વેસ્ટ	-10.2489
મંત્ર	-10.2492
ાદ	-10.2495
▁સફળતા	-10.2497
ળે	-10.2498
▁dis	-10.25
▁સમજણ	-10.2504
-2018	-10.2506
▁સંગ	-10.2508
▁પૂરો	-10.2519
કારી	-10.2523
ui	-10.2523
▁italy	-10.2524
▁ઈનપુટ	-10.2524
▁વ્યાખ્યા	-10.2524
travel	-10.2525
▁ટેમ્પલેટ	-10.2525
▁વૃદ્ધિ	-10.2528
▁સાચા	-10.2531
▁ત્યારથી	-10.2536
▁યરૂશાલેમ	-10.2536
▁ચોકઠાં	-10.2538
yl	-10.2546
▁3000	-10.2551
▁પૂરું	-10.2553
▁સંદેશાને	-10.2554
low	-10.2555
▁47	-10.2561
▁MC	-10.2561
▁થતી	-10.2561
ત્રિ	-10.2569
▁October	-10.2571
▁ડિલિવરી	-10.2571
▁ફૅક્સ	-10.2571
મિન	-10.2571
▁લીડ	-10.2572
▁શેતાન	-10.2573
111	-10.2573
▁ખૂ	-10.2575
▁૨૮	-10.2575
▁દૂતો	-10.2576
▁બફર	-10.2583
્‍	-10.2583
ખંડ	-10.2584
▁જાણું	-10.2589
▁Car	-10.2597
▁આપ્યા	-10.2602
▁કરેલી	-10.2606
▁use	-10.2611
ney	-10.2613
▁All	-10.2614
province	-10.2616
▁પાઉલે	-10.2618
▁આલ્બમ	-10.2618
▁વર્ડપ્રેસ	-10.2618
▁કાનૂની	-10.2618
ધ્ધ	-10.2619
▁નીકળી	-10.2619
ટ્ટ	-10.2624
શક્તિ	-10.2627
▁સાચી	-10.2627
▁Last	-10.2631
2020	-10.2633
▁લઈને	-10.2634
▁USB	-10.2634
▁કળ	-10.2639
સ્ત્ર	-10.2639
▁ઈચ્છે	-10.2643
▁2005	-10.2644
્વા	-10.2644
▁%(	-10.2647
પત્ર	-10.2648
▁દસ	-10.2653
▁તારો	-10.2663
▁મુક	-10.2663
▁Copyright	-10.2665
▁પધ્ધતિ	-10.2665
▁લઘુતમ	-10.2665
▁સર્વાધિકાર	-10.2666
▁સમક્ષ	-10.2676
સ્વ	-10.2676
▁યેન	-10.268
▁પ્રકારો	-10.2687
nu	-10.2694
▁ચિની	-10.2699
▁દલીલ	-10.2704
▁મળેલ	-10.2706
▁QR	-10.2708
▁અંક	-10.2713
▁departments	-10.2713
▁ટોપ	-10.2713
▁આગેવાન	-10.2713
▁વાર્તાલાપ	-10.2714
▁ફ્લેટ	-10.2715
ટ્રા	-10.2715
▁જાપાન	-10.2716
▁અનુસરો	-10.2725
▁ફેશન	-10.2731
ડ્	-10.2733
▁બાજુએ	-10.2734
બ્રુ	-10.2737
▁ફ્લો	-10.2743
વવા	-10.2743
▁ઉમેદવારી	-10.275
મ્યુ	-10.2758
▁પ્લેન	-10.2758
ફૂલ	-10.276
▁બચત	-10.276
▁menu	-10.2761
▁સેન્સર	-10.2763
▁પાળ	-10.2766
ાઇલ	-10.2768
▁we	-10.2769
ask	-10.2773
form	-10.2776
▁હોડ	-10.2778
TJ	-10.2779
link	-10.2781
ness	-10.2784
બ્રો	-10.2792
▁અધિકારીઓ	-10.2797
▁સાઇટ્સ	-10.2801
ગેજ	-10.2806
▁સહાયક	-10.2807
ata	-10.2807
н	-10.2808
આદિવાસી	-10.2808
▁Linux	-10.2808
▁કઠોર	-10.2808
▁ફરોશીઓ	-10.2808
▁ભૂમિકા	-10.2808
▁શુક્રવાર	-10.2808
▁સંવેદનશીલ	-10.2808
▁નાગરિક	-10.2808
▁વિદેશી	-10.2808
▁જઇ	-10.2809
▁વાણી	-10.281
▁ડેટિંગ	-10.2812
▁ઈમેઈલ	-10.2812
▁·	-10.2813
by	-10.2815
▁MDR	-10.2818
▁કિલો	-10.2822
ung	-10.2822
▁તપાસો	-10.2835
▁no	-10.2844
▁મહત્વનું	-10.2847
▁વાસ્તવિકતા	-10.2854
▁કાળજી	-10.2856
▁ચહેરા	-10.2856
▁તદ્દન	-10.2856
પ્રભુ	-10.2857
▁Blockchain	-10.2858
▁ખોટી	-10.2866
Color	-10.2867
▁નોર્	-10.2868
574	-10.2884
▁શિષ્યોએ	-10.2888
▁સલામતી	-10.289
▁રાષ્ટ્ર	-10.2894
▁પિક્સેલ	-10.2897
▁મેળ	-10.2897
▁છોકરી	-10.2898
char	-10.2903
▁મોકલવામાં	-10.2904
▁“%	-10.2904
▁ગૂગલ	-10.2905
વાદી	-10.2905
▁મરિયમ	-10.2906
▁દેખ	-10.2911
▁જાન્યુઆરીમાં	-10.2911
▁જાતિ	-10.2912
કોઈ	-10.2912
▁રૂપાંતરણ	-10.2917
▁વ્યવસાયિક	-10.2918
▁99	-10.2929
▁Mon	-10.2932
▁52	-10.2933
▁લેબ	-10.2936
▁અધ	-10.2937
▁ક્લિપ	-10.2943
▁કેટેગરી	-10.2953
▁સત્સંગ	-10.2953
▁વિધેય	-10.2953
▁સરોવર	-10.2953
▁ખ્યાલ	-10.2953
View	-10.2953
સૂર્ય	-10.2957
▁ઘેર	-10.2959
ern	-10.2961
900	-10.2966
મેં	-10.2966
▁Ra	-10.2967
બાય	-10.2969
▁માઇલ	-10.2971
ara	-10.2975
ical	-10.2975
▁વેચવા	-10.2978
▁મેળવે	-10.2983
▁Ko	-10.2983
▁લોગો	-10.2984
▁હકો	-10.2986
લીન	-10.2989
240	-10.2989
1.5	-10.2996
▁સેન્ટર	-10.3
▁પુરવઠો	-10.3001
▁છેલ્લી	-10.3003
▁ગરીબ	-10.3004
સુંદર	-10.3006
▁ઉપકરણને	-10.3015
▁ભક્તિ	-10.3016
eet	-10.3016
▁up	-10.3022
▁2.5	-10.3024
▁આપવી	-10.3024
▁ખેલાડીઓ	-10.3026
સ્મ	-10.3027
▁સામનો	-10.303
▁1.0	-10.304
press	-10.3043
ટ્રિ	-10.3044
▁ભલામણ	-10.3051
▁દિવાલ	-10.3051
▁શકાતો	-10.3051
к	-10.3051
▁find	-10.3051
▁લાઈવ	-10.3051
▁એપ્લેટ	-10.3051
▁રાઉન્ડ	-10.3052
▁પંચ	-10.3055
▁સોકેટ	-10.3055
face	-10.3055
▁જુદી	-10.3056
પાછળ	-10.3057
ટેટૂ	-10.3057
▁કાસ્ટ	-10.3057
▁લખ્યું	-10.3058
▁વધાર	-10.3064
ther	-10.3065
▁વેગ	-10.3069
▁વય	-10.307
▁દેશમાં	-10.3073
▁સ્થળો	-10.3077
કમળ	-10.3084
▁પકડી	-10.3086
tab	-10.3089
▁Red	-10.309
પૂર્ણ	-10.3093
▁અશુદ્ધ	-10.3094
▁Na	-10.3097
▁ડોમેઈન	-10.31
▁વાર્ષિક	-10.31
▁સરખામણી	-10.31
▁સાંકળ	-10.31
નિયમ	-10.3102
▁મહેમાન	-10.3102
▁ઓફલાઇન	-10.3102
▁બેન્ડ	-10.3103
water	-10.3105
EE	-10.3107
und	-10.311
૦૦	-10.312
▁કહેવામાં	-10.3121
▁સ્ટ્ર	-10.3124
2015	-10.3126
▁હજારો	-10.3132
ંભ	-10.3133
▁ભગવાનના	-10.3134
▁આખા	-10.3148
▁\	-10.3149
▁એક્સચેન્જ	-10.315
▁પ્રસારણ	-10.315
▁ડર	-10.3152
▁પ્રિન્ટીંગ	-10.3154
▁મૂકવા	-10.3158
દુ	-10.3158
ace	-10.3162
▁હેન્ડલ	-10.3169
▁બતાવી	-10.3169
▁બાંધ	-10.3175
ware	-10.3176
ક્ષણ	-10.3179
▁આદર્શ	-10.3181
ર્થ	-10.3183
ડ્રે	-10.3186
ક્રોસ	-10.3187
KG	-10.319
code	-10.3194
▁માંગે	-10.3197
▁ટ્રાન્સ	-10.3199
▁સ્નેપશોટ	-10.3199
▁અંદાજ	-10.3199
ખોપરી	-10.32
▁Black	-10.3201
▁નગર	-10.3203
▁ભી	-10.3208
▁શરમ	-10.3209
ન્ટર	-10.321
▁Ta	-10.3214
▁ધારકો	-10.3215
ણાં	-10.3219
rom	-10.3224
▁તાળું	-10.3225
▁પડકાર	-10.3233
મેર	-10.3241
220	-10.3242
▁બ્રેક	-10.3246
▁પૂરુ	-10.3247
રીપ	-10.3249
હોકાયંત્ર	-10.3249
ectures	-10.3249
▁શિક્ષા	-10.325
▁YouTube	-10.325
▁SSL	-10.3251
ND	-10.3256
pro	-10.3258
▁બુદ્ધિ	-10.3258
▁2008	-10.3259
▁ચલણ	-10.3259
પુરુષો	-10.326
–	-10.326
ચિત	-10.3262
છી	-10.3269
▁થયાનું	-10.3271
▁કાયમ	-10.3276
▁રહેતા	-10.3288
▁Air	-10.3294
▁અગ્નિ	-10.33
▁પાલતુ	-10.33
▁લાંબી	-10.33
▁કિનારી	-10.33
▁એલોય	-10.33
▁તીર	-10.33
▁પગલાં	-10.3301
▁નિયમશાસ્ત્ર	-10.3301
▁ગ્રીન	-10.3307
▁પેજ	-10.3311
▁DI	-10.3312
▁button	-10.3316
▁પ્રવાહ	-10.3318
▁દૂત	-10.3321
full	-10.3324
china	-10.3325
▁કુચ	-10.333
cle	-10.3331
▁ટૂંકાણ	-10.3339
વણી	-10.3339
bug	-10.3347
▁આશ્ચર્ય	-10.335
▁સાર્મથ્ય	-10.335
▁વસંત	-10.335
▁Short	-10.3352
ઇગલ	-10.3353
▁મૂર્તિ	-10.3361
▁સૈનિકો	-10.3362
આંખ	-10.3363
▁અગાઉના	-10.3368
▁લાવે	-10.3372
▁છોડો	-10.3372
-04	-10.3376
▁ભરવા	-10.3377
▁123	-10.3377
▁Download	-10.3383
650	-10.3399
▁રાસાયણિક	-10.3401
▁વહીવટ	-10.3401
▁શંઘાઇ	-10.3401
▁દ્રષ્ટિ	-10.3401
▁હેરોદ	-10.3401
redhat	-10.3401
▁PDA	-10.3402
▁થાપણ	-10.3403
▁ખેતર	-10.3403
▁રિપોર્ટ	-10.3404
▁ગિયર	-10.3405
શ્રી	-10.3405
▁નિર્દેશ	-10.3408
ષ્ટિ	-10.3415
▁અહી	-10.3416
▁રૂપે	-10.3431
જનક	-10.3433
▁new	-10.3436
ેન્ડ	-10.3436
▁object	-10.3438
File	-10.3442
▁63	-10.3443
▁બિલ્ડ	-10.3446
▁ક્લાઈન્ટ	-10.3452
▁સ્ક્રિન	-10.3452
▁કમિશન	-10.3452
ler	-10.3452
▁ફિલિપ	-10.3452
▁આર્	-10.3454
ફ્ટ	-10.3456
ors	-10.3458
▁પાયે	-10.3458
▁ઊંઘ	-10.3461
igh	-10.3461
▁બુટ	-10.3463
ીયન	-10.3464
કોમ	-10.3464
▁બેન્ક	-10.3466
▁બર્ન	-10.3466
light	-10.3471
▁કેટલી	-10.3477
▁ખસેડી	-10.348
▁સુધારી	-10.3481
▁દેશોમાં	-10.3484
▁ગ્ર	-10.3485
ઈસુ	-10.3486
▁ખે	-10.3492
▁શરૂઆતમાં	-10.3494
▁સ્ટેટ	-10.3497
▁નોટ	-10.3501
▁Machine	-10.3503
▁અનલિમિટેડ	-10.3503
▁તાજેતરના	-10.3503
▁દિલગીર	-10.3503
▁આછો	-10.3504
▁હોન્ડા	-10.3504
AY	-10.3512
▁પોલિ	-10.3514
king	-10.3517
અથવા	-10.3521
્યુઅલ	-10.3522
OO	-10.3525
▁ગમ	-10.3536
128	-10.354
▁Education	-10.3555
▁ઘૂંટી	-10.3555
▁સપ્તાહ	-10.3555
▁અપરાધ	-10.3555
▁આરંભ	-10.3555
▁છેલ્લું	-10.3555
▁માણસોને	-10.3556
▁લીધી	-10.3558
mt	-10.3559
▁will	-10.3559
▁ઘાટ	-10.3562
▁શ્ર	-10.3566
▁એપ્લિકેશન્સ	-10.3567
▁ઇન્ટર	-10.357
▁ડિસે	-10.357
ર્ષ	-10.3574
top	-10.3588
રેખા	-10.3589
▁યોગ	-10.3595
▁જેમ્સ	-10.3601
▁શિક્ષકો	-10.3603
▁કારણકે	-10.3606
tan	-10.3606
▁મૂર્ખ	-10.3607
▁ટિપ્સ	-10.3607
▁કાંઈ	-10.3607
▁સાક્ષી	-10.3607
▁રક્ત	-10.3608
like	-10.3612
▁નજર	-10.3612
ietnam	-10.3614
BTC	-10.362
▁NO	-10.3622
▁DS	-10.3626
love	-10.3627
▁હોવો	-10.3629
▁92	-10.3633
પ્પ	-10.3638
▁વાપરેલ	-10.3645
ફોર્ડ	-10.3645
▁ગુમાવ	-10.3646
▁મૂળભુત	-10.3647
ર્ત	-10.3647
▁59	-10.3657
▁બાહ્ત	-10.3659
▁ફોરેક્સ	-10.3659
▁સ્વચ્છ	-10.3661
$1	-10.3662
સ્તર	-10.3662
▁દૃશ્યમાન	-10.3663
tech	-10.367
oy	-10.367
સંગ્રહ	-10.3681
થિ	-10.3683
▁જ્ઞાની	-10.3687
▁આખી	-10.3687
▁બાળકોને	-10.3692
વૃત્તિ	-10.3693
▁બીજ	-10.3703
ન્ના	-10.3704
રાય	-10.3707
▁Cryptocurrency	-10.3711
▁શેનઝેન	-10.3711
▁આઇટમ	-10.3711
▁સ્પીડ	-10.3711
સાય	-10.3714
▁DC	-10.3719
▁શોધવામાં	-10.372
▁MAX	-10.3722
્લી	-10.3727
▁બેલ્ટ	-10.3728
આઉટ	-10.373
▁28,	-10.373
ઈડ	-10.3747
table	-10.3748
▁એસી	-10.3751
size	-10.3761
▁3.0	-10.3762
ભાઈ	-10.3762
▁બ્લોસમ	-10.3764
▁Please	-10.3764
▁ડાઇનિંગ	-10.3764
▁અમારું	-10.3764
▁રોલર	-10.3764
▁લાકડા	-10.3764
▁પ્રયોગ	-10.3764
મીટર	-10.3765
▁લડવા	-10.3765
editor	-10.3767
▁વિશ્વાસીઓ	-10.3782
▁સરકારી	-10.3782
ર્પ	-10.3783
imp	-10.3785
RU	-10.3785
સ્થા	-10.3789
▁comp	-10.379
▁આધારે	-10.3796
▁fl	-10.3797
▁પ્રેસ	-10.3798
320	-10.3799
▁ja	-10.3804
ક્વા	-10.3809
UT	-10.3812
▁હાઈ	-10.3813
▁Rikoooo	-10.3816
▁દરવાજા	-10.3817
▁અવેજી	-10.3817
▁પ્રિ	-10.3817
▁નોટબુક	-10.3817
માર્ક	-10.3818
eek	-10.3819
▁બીચ	-10.382
ફેધર	-10.3823
▁હોટેલ	-10.3827
Fi	-10.3831
▁Min	-10.3832
▁થકી	-10.3832
▁સ્પાય	-10.3834
▁ભૂખ	-10.3839
cpu	-10.3839
▁જાળી	-10.3844
tive	-10.3847
▁આપવાનું	-10.3848
ષા	-10.3849
Change	-10.3854
ral	-10.3857
▁cl	-10.3859
▁જળ	-10.3861
ભુ	-10.3861
▁કાઢો	-10.3863
▁Nov	-10.3865
▁RO	-10.3866
▁ઓળખાય	-10.3867
▁Company	-10.387
▁કન્સોલ	-10.387
▁Video	-10.387
▁વિજેતા	-10.387
▁સુલભ	-10.387
વોટરક	-10.387
▁સિમોન	-10.3879
છે	-10.3881
ene	-10.3885
▁લૂ	-10.3885
▁એકમો	-10.3886
iya	-10.3888
ીકલ	-10.3889
▁પેચ	-10.3897
વિસ્તાર	-10.3897
હેના	-10.3903
સ્સા	-10.392
▁સ્પર્ધા	-10.3923
gradient	-10.3923
કૃષ્ણ	-10.3923
▁TabletWise	-10.3923
▁બિનઆધારભૂત	-10.3923
▁સ્નાતક	-10.3923
▁અવયવ	-10.3924
▁time	-10.3934
▁અવગણો	-10.3938
ટિવ	-10.394
▁II	-10.3941
▁કરતું	-10.3944
▁પેલા	-10.3946
-200	-10.3947
▁ક્યારેક	-10.3948
સ્ટોન	-10.3952
પ્રિ	-10.3959
▁શકાતું	-10.3971
▁ચકાસી	-10.3971
પ્રો	-10.3974
▁ફ્રે	-10.3975
બિલ	-10.3975
▁rarely	-10.3977
▁હોસ્પિટલ	-10.3977
▁Photo	-10.3977
▁હરોળ	-10.3977
▁ધાતુ	-10.3977
▁bo	-10.3978
▁માળખા	-10.3979
▁સજ્જ	-10.3979
▁પ્લાન્ટ	-10.398
▁એવોર્ડ	-10.398
▁રેડિયો	-10.3981
▁એજન્ટ	-10.3983
lit	-10.3984
▁આશરે	-10.4
▁માન્યતા	-10.4002
▁નવાં	-10.4003
▁વિસ્તારો	-10.4003
▁આઠ	-10.4008
▁આર્ટ	-10.4013
▁TO	-10.4015
ેંદી	-10.4018
રાવ	-10.4024
▁યાજક	-10.4029
▁લેક	-10.403
▁સિલિકોન	-10.4031
▁પરિચય	-10.4031
▁નિષ્કર્ષણ	-10.4032
▁કસ્ટમાઇઝ	-10.4043
▁માસ્ટર	-10.4048
▁ખેંચ	-10.4052
▁ધોરણો	-10.4064
bin	-10.4079
▁ઘટાડવા	-10.4079
▁હેન્ડ	-10.4085
▁પુખ્ત	-10.4085
▁શેનડોંગ	-10.4085
▁શૈક્ષણિક	-10.4085
▁૨૦૧૪	-10.4085
▁class	-10.4086
▁યાજકો	-10.4087
▁રબર	-10.4088
ART	-10.4095
િપ	-10.4096
space	-10.4108
exico	-10.411
▁350	-10.4112
▁file	-10.4118
use	-10.4126
now	-10.4127
▁ચકાસ	-10.413
▁સર્	-10.4134
the	-10.4138
▁2009	-10.4139
અર્ધવિરામ	-10.414
▁ડિસ્કાઉન્ટ	-10.414
▁તાકાત	-10.414
ries	-10.4144
▁વર્થ	-10.4144
▁ફોર્મેટ	-10.4144
▁૩૫	-10.4145
▁અટકાવ	-10.4151
▁Bit	-10.4151
▁needs	-10.4151
fu	-10.4153
▁કૅ	-10.4157
shan	-10.416
ઉલ	-10.4161
▁પ્રક્રિયાઓ	-10.4166
▁સામેલ	-10.4168
▁રાખેલા	-10.4168
લિસ્ટ	-10.418
▁નીકળવા	-10.4181
▁jetetroll	-10.4195
▁ન્યૂનતમ	-10.4195
▁સંતુલિત	-10.4195
▁ચોકસાઇ	-10.4195
.360	-10.4195
▁ક્રોધ	-10.4195
▁વપરાશકર્તાનામ	-10.4196
યમ	-10.4197
▁પત્તા	-10.4197
▁વિચિત્ર	-10.4198
▁Jin	-10.4204
page	-10.4207
▁(8)	-10.4207
▁Playing	-10.421
▁મુદ્દાઓ	-10.4211
ન્ચ	-10.4215
▁બજારમાં	-10.4217
્મા	-10.4227
▁પાડવામાં	-10.4227
▁ટાપુઓ	-10.423
▁સંકોચ	-10.4241
▁{@}	-10.425
▁આશીર્વાદ	-10.425
▁પારસ્પરિક	-10.425
olitics	-10.425
▁ઑગસ્ટ	-10.425
▁મોટાભાગના	-10.425
▁ટ્રી	-10.4254
HD	-10.4255
▁રંગીન	-10.426
▁બ્રાઉઝ	-10.4263
0.6	-10.4264
▁અરે	-10.4266
▁શાહીનો	-10.4275
▁દૂતે	-10.4276
▁Pi	-10.4277
9.99	-10.4283
Dv	-10.4284
rico	-10.4286
▁ફ્લોર	-10.4286
▁ટૅગ	-10.4289
▁એકાંત	-10.4294
ove	-10.43
▁રચ	-10.4301
▁Congress	-10.4306
▁એસેસરીઝ	-10.4306
▁ઝેજીઆંગ	-10.4306
▁દેખરેખ	-10.4306
▁Cauc	-10.4306
▁જીતી	-10.4312
▁રૂપિયા	-10.4313
▁Get	-10.4313
▁પદ્ધતિઓ	-10.4314
lU	-10.4318
િયર	-10.4323
ભૂ	-10.4325
હવે	-10.4331
▁વેપારી	-10.4337
મું	-10.4339
je	-10.4341
▁ફરજ	-10.4342
▁uri	-10.4346
▁મજા	-10.435
▁પરિશિષ્ટ	-10.4362
▁વધસ્તંભ	-10.4362
▁વિલંબ	-10.4362
▁મંત્રણા	-10.4362
▁આંગળી	-10.4362
▁short	-10.4363
ress	-10.4363
▁અપલોડ	-10.4363
PBF	-10.4365
વિદ્યા	-10.4371
-24	-10.4372
map	-10.4376
▁કડીઓ	-10.4381
DI	-10.4381
▁મુશ્કેલી	-10.4384
GI	-10.4385
kw	-10.4391
▁ટૂંકા	-10.4391
મેઇલ	-10.4399
010	-10.44
▁unit	-10.4404
જ્ઞા	-10.4405
▁માણસના	-10.4407
right	-10.4408
▁લખવામાં	-10.4413
ટકી	-10.4414
▁official	-10.4418
▁એન્ટરપ્રાઇઝ	-10.4418
▁ચમત્કાર	-10.4418
▁કેન્ડી	-10.4419
▁ફુ	-10.4419
▁ER	-10.4422
▁પ્રોમો	-10.4427
▁મિશન	-10.4428
▁શકતો	-10.4431
▁ત્ર	-10.4432
▁આઇટી	-10.4436
uck	-10.4438
0.000	-10.4441
▁દોરવા	-10.4449
▁યુગ	-10.4452
▁ગઇ	-10.4455
▁રેતી	-10.4459
ટ્રી	-10.4467
▁સમા	-10.4472
▁પ્રોત્સાહન	-10.4474
▁ફોર્મ્યુલા	-10.4474
▁પ્રસન્ન	-10.4474
▁પુરુષ	-10.4475
▁પેટર્ન	-10.4476
▁પ્રકૃતિ	-10.4477
▁અનુક્રમિત	-10.4479
▁ક્લિ	-10.449
▁પૂછવા	-10.4491
▁બોધ	-10.4495
1-1	-10.4499
ome	-10.4499
▁જૂથો	-10.4501
▁ઉકેલો	-10.4505
6.5	-10.4511
▁સ્વીકારવા	-10.4513
ાયેલી	-10.4518
▁IN	-10.4518
ambia	-10.4522
▁0.1	-10.4527
ally	-10.4528
▁તબક્કા	-10.4531
▁ઇન્સ્ટોલ	-10.4531
plug	-10.4532
▁ઉપનામ	-10.4533
▁ભવિષ્યમાં	-10.4533
board	-10.4534
▁માંગણી	-10.4535
▁બદલાઈ	-10.4539
▁ખ્રિસ્તમાં	-10.454
▁LTD	-10.4564
{	-10.4566
▁પ્રોડક્ટ	-10.4571
cM	-10.4572
લિયન	-10.4573
▁સંવાદમાં	-10.4577
▁ખસેડ	-10.4577
UL	-10.4587
નૂ	-10.4587
▁વૈવિધ્ય	-10.4588
▁General	-10.4588
▁અનુક્રમણિકા	-10.4588
▁કોઠારી	-10.4588
▁એફઓબી	-10.4588
▁ગ્રુપ	-10.4588
▁માનસિક	-10.4588
▁ટ્રાન્સફર	-10.4589
ium	-10.4593
▁2.0	-10.4594
▁જોડાવ	-10.4595
▁ફોટાઓ	-10.4595
▁53	-10.4597
ual	-10.4604
તમને	-10.4619
rate	-10.4619
▁વળી	-10.462
▁લાગ્યા	-10.4621
▁ભૂલી	-10.4623
oli	-10.4625
▁ગીતો	-10.4626
ાતી	-10.4627
▁સંબંધો	-10.4632
999	-10.4632
eep	-10.4633
▁10%	-10.4639
▁રિંગ	-10.464
▁કોંગ	-10.4641
▁પિતરે	-10.4642
▁Minimum	-10.4646
▁ઇંગલિશ	-10.4646
▁ટ્રાફિક	-10.4646
▁National	-10.4646
▁Whatsapp	-10.4646
▁ફાયદા	-10.4646
▁ડિબગ	-10.4646
▁ઉત્સાહ	-10.4646
▁તુર્ક	-10.4648
▁ટેટૂહાથ	-10.465
ડાઉન	-10.4651
▁માથા	-10.466
▁પુસ્તકો	-10.4663
▁ઊઠ	-10.4663
જૂ	-10.4664
▁તકનીક	-10.4665
key	-10.4673
▁વાન	-10.4673
ઇન્ડ	-10.4674
સ્કા	-10.4675
▁બધુ	-10.4675
2.5	-10.4678
▁વ્યક્તિઓ	-10.4679
▁સાંભળો	-10.4681
▁પોસ્ટનો	-10.4686
▁Ri	-10.4691
▁હલ	-10.4693
$2	-10.4701
vectors	-10.4703
▁પાઉડર	-10.4703
▁લાઇબ્રેરી	-10.4703
▁ટેલિફોન	-10.4704
▁brita	-10.4704
સ્ટેટ	-10.4706
mu	-10.4712
▁RGB	-10.4715
▁એન્ટિ	-10.4716
▁ભલે	-10.4721
▁પાઠ	-10.4721
▁option	-10.4725
▁eu	-10.4726
▁(3)	-10.4728
▁IM	-10.4731
700	-10.4732
▁બોટલ	-10.4734
▁સૂચનો	-10.4736
ions	-10.4738
બુક	-10.4738
▁મુખ	-10.4746
સિસ્ટમ	-10.475
▁આપતુ	-10.4752
▁એપલ	-10.4752
http	-10.4755
This	-10.4757
▁અનુક્રમ	-10.4757
ગ્રી	-10.4759
.03.2019	-10.4762
▁કોર્પોરેશન	-10.4762
▁VPN	-10.4762
▁ઓફલાઈન	-10.4763
▁ખેંચો	-10.4764
▁જેટલું	-10.4765
ન્હ	-10.4765
▁જોબ	-10.4765
ફોન	-10.4767
▁all	-10.4774
ટોન	-10.4778
▁વેલેન્ટાઇન	-10.4779
▁ધણી	-10.478
▁હીટ	-10.4782
▁રન	-10.4786
▁પ્રી	-10.4787
▁GP	-10.4789
▁સ્લ	-10.4793
gmail	-10.4795
0059	-10.4798
▁62	-10.4802
mar	-10.4806
▁પૂરા	-10.4806
run	-10.481
પણા	-10.4811
▁Unlimited	-10.4817
▁Pinterest	-10.482
▁એમેઝોન	-10.482
▁કૃત્રિમ	-10.482
turkey	-10.482
▁ઠીક	-10.482
▁ઠરાવ	-10.482
▁કાપડ	-10.482
▁યુઆન	-10.482
▁GDM	-10.4821
ઠ્ઠ	-10.4821
▁જુગાર	-10.4821
▁API	-10.4822
▁ગાળક	-10.4823
115	-10.4827
▁લોહી	-10.4831
▁War	-10.4833
▁ફોર્ટ	-10.4838
▁MP	-10.4842
HB	-10.4843
▁હોંગ	-10.485
ગણ	-10.4859
days	-10.486
▁પાક	-10.4862
▁કાપી	-10.4863
▁આકૃતિ	-10.4869
▁eur	-10.4872
▁ગેલેરી	-10.4879
▁સેકંડ	-10.4879
▁દેખાડ	-10.488
▁વાહન	-10.4882
ipp	-10.4882
▁પેટન્ટ	-10.4884
▁વતી	-10.4887
▁દલીલો	-10.489
▁more	-10.4891
▁બ્લુ	-10.4892
▁મૂકે	-10.4893
▁ફ્લે	-10.4895
▁મધ	-10.4897
▁MS	-10.4902
oll	-10.4902
▁Day	-10.4906
▁Gr	-10.4906
▁શહેરો	-10.4916
▁લગ	-10.4918
rit	-10.492
▁સાંભળે	-10.4921
ura	-10.4922
▁Language	-10.4932
ify	-10.4934
122	-10.4935
▁build	-10.4937
▁ડ્રાઈવર	-10.4937
▁License	-10.4938
▁પ્લેલીસ્ટ	-10.4938
▁Microsoft	-10.4938
▁મોં	-10.494
▁અબજ	-10.4941
▁ગાળા	-10.4944
▁એકંદર	-10.4948
▁બોલી	-10.4951
▁ચામડ	-10.4953
▁વહેંચાયેલ	-10.4954
ન્ડે	-10.4958
▁ધ્યાનથી	-10.496
▁greece	-10.496
▁એચડી	-10.4972
▁પ્લાન	-10.4973
▁યહૂદિઓએ	-10.4979
▁વસ્ત્રો	-10.498
▁એમબી	-10.4987
▁ઑફ	-10.4992
▁ક્રોસ	-10.4992
તેની	-10.4997
▁Manufacturer	-10.4998
▁inmenu	-10.4998
ELEX	-10.4998
▁સ્કૂલ	-10.4998
▁શૂન્ય	-10.4998
▁કલર્સ	-10.4998
▁દેખાશે	-10.4998
▁ગ્રાન્ડ	-10.4999
▁પ્રીતિ	-10.5
▁હેક્સ	-10.5
▁શિક્ષક	-10.5001
▁લેઆઉટ	-10.5002
▁Fe	-10.5007
cn	-10.5013
▁બધાજ	-10.5015
▁પદ	-10.5016
▁મળીને	-10.5017
▁દેવનું	-10.5032
orn	-10.504
કૃતિ	-10.5044
india	-10.5046
lor	-10.5047
▁વિનાશ	-10.5049
ઉપ	-10.5053
▁સરક	-10.5055
▁europa	-10.5058
▁એનક્રિપ્ટ	-10.5058
▁ડોંગગુઆન	-10.5058
▁પંચાળા	-10.5058
▁પદ્દતિ	-10.5058
▁ચાંદી	-10.5058
▁ભાષાંતર	-10.5058
▁વહાણ	-10.5058
▁થોડું	-10.5058
▁નકારાત્મક	-10.5058
▁28.00	-10.5059
isk	-10.506
▁૨૪	-10.5062
▁પામ્યો	-10.5065
લાં	-10.509
નગર	-10.5091
▁દરિયા	-10.5097
edit	-10.5099
ડાઇ	-10.5106
print	-10.5108
જ્ઞ	-10.5109
▁સ્વાદ	-10.5111
સ્વપ્નકૃષ્ટી	-10.5118
▁યહૂદા	-10.5118
ડબ્લ્યુ	-10.5118
gnome	-10.5118
TY	-10.5118
▁શ્ર્વે	-10.5118
▁જાપાનીઝ	-10.5118
▁જાન્યુ	-10.5119
▁સેવ	-10.5121
mg	-10.5122
▁હવાઈ	-10.5131
ole	-10.5131
ONG	-10.5133
▁પ્રબોધક	-10.5139
▁ક્યારે	-10.5144
▁બ્રે	-10.5149
ાઈન	-10.5152
tain	-10.5153
સ્તાન	-10.5155
વુડ	-10.5156
▁કેમ્પ	-10.5158
110	-10.5161
▁કોર્ટ	-10.5162
▁TC	-10.5169
▁Go	-10.5176
▁%1$	-10.5178
▁કોંગ્રેસ	-10.5179
▁વિગતવાર	-10.5179
પાન	-10.5179
▁અટકાવો	-10.518
▁Auto	-10.518
▁યુરોપિયન	-10.5182
▁૭૬	-10.5183
▁પ્રોસેસર	-10.5185
head	-10.5191
▁બૅ	-10.5192
ષ્ઠ	-10.5199
▁સ્ટાફ	-10.5201
▁ભારતમાં	-10.5203
rush	-10.5207
gar	-10.521
▁હોવ	-10.5211
▁ઉન્નત	-10.5212
▁હાજરી	-10.5217
?’	-10.5222
ંગા	-10.5234
▁એનક્રિપ્શન	-10.5239
▁હસ્તાક્ષર	-10.5239
તાક્ષરો	-10.5239
▁કીરીંગ	-10.524
▁પોતાનો	-10.524
▁વીજળી	-10.524
▁ટોનર	-10.5241
▁વળતર	-10.5242
▁ક્રમાંક	-10.5243
▁view	-10.5243
▁પ્લા	-10.5245
="1	-10.5248
૦૦૦	-10.525
▁શૂ	-10.5255
▁અડ	-10.5255
Tube	-10.5259
▁જોડાય	-10.526
▁લેવી	-10.5263
arque	-10.5274
▁નાટક	-10.5275
▁PE	-10.5278
▁આવેલું	-10.5289
▁હસ્ત	-10.5293
2014	-10.5293
▁પાડો	-10.53
▁Edition	-10.5301
▁અલબત્ત	-10.5301
▁અમાન્ય	-10.5301
▁શરુઆત	-10.5301
▁લાયક	-10.5301
▁વિજય	-10.5302
▁જર્સી	-10.5302
▁પોર્ટેબલ	-10.5303
▁સ્ટ્રોક	-10.5303
▁Game	-10.5303
▁ફાળો	-10.5303
▁મિનિટો	-10.5304
▁વિષયો	-10.5304
▁લેશે	-10.5305
ગાર	-10.5306
▁દીવ	-10.5313
▁set	-10.5314
રાજ	-10.5315
▁BO	-10.5317
OU	-10.5319
other	-10.5325
ઇંગ	-10.533
▁GTK	-10.5331
▁ગોઠવણીઓ	-10.5342
રંગ	-10.5345
▁કોન્	-10.535
▁ખાતુ	-10.5355
atalonia	-10.5362
▁અગમચેતીઓ	-10.5362
▁આજુબાજુ	-10.5362
▁ઉલ્લેખ	-10.5362
▁ઓપરેટિંગ	-10.5362
▁કૉપિયર	-10.5362
▁લેપટોપ	-10.5362
«	-10.5362
▁દૂધ	-10.5362
т	-10.5362
્યુલેશન	-10.5365
▁સ્કોર	-10.5366
ચિહ્ન	-10.537
▁બગ	-10.5373
ટાઈ	-10.5376
▁હર	-10.5376
ડાં	-10.5376
210	-10.5379
zh	-10.5379
105	-10.539
નલાઇન	-10.5392
▁આવેલા	-10.5397
ત્તમ	-10.5408
▁પાપી	-10.541
ute	-10.5415
▁130	-10.5421
મંડળ	-10.5422
yahoo	-10.5425
▁Karnar	-10.5425
▁ઉદ્ભવી	-10.5425
▁પહોળાઇ	-10.5425
▁નવીનતમ	-10.5425
▁સ્ક્રીનશોટ	-10.5425
▁%2$	-10.5425
▁વાસના	-10.5425
▁પોપઅપ	-10.5425
▁બંદર	-10.5425
▁આરામ	-10.5428
▁સુધાર	-10.5432
▁મેનેજર	-10.5445
755	-10.5454
▁આકર્ષ	-10.5459
▁સીઇ	-10.5469
▁mod	-10.5469
▁વર્તન	-10.547
બ્લ	-10.5478
xml	-10.548
azerbaijan	-10.5487
▁યશાયા	-10.5487
▁સોનાટાટ્ટો	-10.5487
▁જ્હોન	-10.5487
▁આશ્રય	-10.5487
▁ઓપ્ટિક	-10.5487
▁મહારાજ	-10.5488
▁પ્રમાણિત	-10.5498
ham	-10.5504
વધુ	-10.5512
▁સાર	-10.5516
▁દરે	-10.5518
▁1903	-10.5522
▁સપ્લાયર	-10.5534
▁ઊંડા	-10.5537
▁ઘડ	-10.5539
▁કરનારા	-10.5546
તંત્ર	-10.5548
▁ઓળખી	-10.5549
▁ઈન્ટરફેસ	-10.555
▁Bitcoin	-10.555
▁Blackjack	-10.555
▁આધ્યાત્મિક	-10.555
▁તળિયે	-10.555
▁વ્યૂહરચના	-10.555
▁સ્પીનોની	-10.555
▁રસ્તો	-10.555
▁Patel	-10.555
▁સ્પર્શ	-10.555
▁ગાલીલ	-10.555
▁સાઇટનો	-10.5552
▁ગુડ	-10.5557
▁વાલા	-10.5559
site	-10.5561
down	-10.5567
મેપ	-10.5568
▁And	-10.557
▁અનુભવી	-10.5573
▁બ્રહ્મ	-10.5573
પાત્ર	-10.5574
▁54	-10.5583
▁નોકરીઓ	-10.5593
▁ચેર	-10.5604
▁TS	-10.5608
▁ઉદ્યોગો	-10.561
▁ડેવિડ	-10.5613
▁Slotjar	-10.5613
▁મતલબ	-10.5613
▁નમૂનો	-10.5613
uerto	-10.5613
▁ફરિયાદ	-10.5613
▁ઠંડા	-10.5613
▁પ્રેરણા	-10.5613
spain	-10.5614
▁ચોક્કસપણે	-10.5618
▁એકત્રિત	-10.5622
▁BS	-10.5624
કાં	-10.5624
ઑ	-10.5628
પાત	-10.5638
▁સોર્સ	-10.5638
▁On	-10.5645
ર્ફ	-10.5648
▁રહેવું	-10.5649
▁એકબીજાને	-10.5651
▁ખેંચી	-10.5652
▁સ્વતંત્ર	-10.5661
▁મળવા	-10.5668
▁સૂચનાઓ	-10.5671
▁વૃદ્ધ	-10.5672
▁સ્ટાન્ડર્ડ	-10.5677
▁વેલ્ડિંગ	-10.5677
▁Text	-10.5677
▁કિબોર્ડ	-10.5679
Gtk	-10.568
▁બાયો	-10.5687
ળુ	-10.5688
સ્ક્રીન	-10.5693
row	-10.5699
▁04:	-10.5702
▁વિચાર્યું	-10.5709
▁કોલ્સ	-10.5713
▁પેન	-10.5713
020	-10.5714
▁Best	-10.5715
▁સદ	-10.5716
પીએસ	-10.5727
▁Slot	-10.5727
▁બોલે	-10.5732
▁અલ્ટ્રાસાઉન્ડ	-10.5741
▁ઓસ્ટ્રેલિયા	-10.5741
▁યાકૂબ	-10.5741
▁રોબોટ	-10.5741
command	-10.5741
▁વર્કઆઉટ	-10.5742
▁ડ્રાઈવ	-10.5742
▁દાયકા	-10.5742
0.8	-10.5743
change	-10.5745
▁WP	-10.5745
▁પૂછ્યું	-10.5752
▁ગિ	-10.5752
ુઆન	-10.5754
▁Mag	-10.5754
france	-10.5759
ટાઇમ	-10.5759
અો	-10.5773
▁તત્વો	-10.5776
▁1507	-10.5776
ating	-10.5777
▁સૌર	-10.578
▁પશુ	-10.5782
▁કેટલો	-10.5783
start	-10.5785
▁લેખમાં	-10.5787
lum	-10.5793
▁યોજ	-10.5796
▁લીટીઓ	-10.5798
▁નુકશાન	-10.5806
▁ધરાવતા	-10.5806
▁અમલીકરણ	-10.5806
▁ચકાસવા	-10.5806
▁સ્ક્વેર	-10.5808
text	-10.5809
▁Watch	-10.5811
▁વર્ષથી	-10.5811
▁ફ્લેશ	-10.5815
title	-10.5825
ali	-10.5827
▁સોનું	-10.5828
7000	-10.583
▁લાભો	-10.583
▁વાપરે	-10.5831
▁કબર	-10.5835
▁કેન્દ્રો	-10.5835
not	-10.5843
▁XXX	-10.5845
▁કાર્યક્ષમ	-10.5853
ડોર	-10.5857
▁જીવતા	-10.586
▁એનકોડ	-10.5867
▁કોસ્મેટિક	-10.587
▁નેરોલેક	-10.587
ا	-10.5871
▁ઈશ્વર	-10.5871
▁કામદારો	-10.5871
▁સર્જનાત્મક	-10.5871
નિંદા	-10.5871
▁પોઇન્ટ	-10.5872
▁true	-10.5872
▁સંતોષ	-10.5872
▁લોન્ચ	-10.5874
▁મૂક્યો	-10.5878
▁વાઇન	-10.588
નારાઓ	-10.5882
્રેસ	-10.5885
€	-10.5892
▁બટનો	-10.5892
માત્ર	-10.5893
▁અંશ	-10.5899
6000	-10.5899
▁China	-10.5902
email	-10.5903
▁Sha	-10.5907
્રેટ	-10.5907
▁કોચ	-10.5909
ગ્રાફિક	-10.5932
▁ભાગીદારી	-10.5932
▁કિસ્સામાં	-10.5936
▁પીડીએફ	-10.5936
thailand	-10.5936
▁દાઉદ	-10.5936
▁પ્રેશર	-10.5936
ઈસ	-10.5937
iao	-10.5939
▁free	-10.594
▁ફાઈલનું	-10.5941
▁ત્યાગ	-10.5942
▁key	-10.5945
લાઈન	-10.5949
▁ઉમેદવાર	-10.5949
▁સૂચવ	-10.595
▁ખંડ	-10.5957
▁ચીટ	-10.5959
▁જીએસટી	-10.596
▁વર્ગો	-10.5976
▁8400	-10.5981
125	-10.5981
▁1809	-10.5983
ano	-10.5991
ગેટ	-10.5992
લાઇટ	-10.5997
▁ઉદ્	-10.5998
donesia	-10.6002
▁મનોરંજન	-10.6002
NamePossessive	-10.6002
▁ક્લાયન્ટ	-10.6002
▁નિરીક્ષણ	-10.6002
▁પ્રાધાન્ય	-10.6002
▁રમતગમત	-10.6002
▁શિક્ષિત	-10.6002
▁પ્રવેગ	-10.6002
▁સ્વીચ	-10.6005
▁લાગ્યું	-10.6006
▁ધપાવ	-10.6008
▁સાઈટ	-10.6009
▁માગતા	-10.601
ગૃહ	-10.6011
▁સ્કેલ	-10.6014
tar	-10.603
ગુણ	-10.603
256	-10.6042
▁દિશામાં	-10.6043
રૂપે	-10.6046
▁1511	-10.6049
હાઇડ્રો	-10.6052
▁Th	-10.6055
2013	-10.6056
9.5	-10.6057
State	-10.6061
в	-10.6068
▁ઉપલ્બધ	-10.6068
▁થ્રેશોલ્ડ	-10.6068
▁બ્રિજ	-10.6068
▁સ્વિચ	-10.6068
▁રેન્ડમ	-10.6068
▁Power	-10.6068
▁પ્રોટીન	-10.6068
▁modified	-10.6068
▁નેશનલ	-10.6068
▁હૂક	-10.607
▁જાણકારીને	-10.607
PH	-10.6073
▁hack	-10.6075
▁અંકિત	-10.6075
▁8250	-10.6079
▁ટુકડાઓ	-10.6085
▁9200	-10.6086
પ્રાપ્ત	-10.6095
ark	-10.6099
▁દોડ	-10.6107
new	-10.6117
▁1803	-10.6126
ili	-10.6126
▁સામ	-10.6132
2012	-10.6133
▁ઇન્જેક્શન	-10.6134
▁વ્યભિચાર	-10.6134
▁અતિશય	-10.6135
▁આગાહી	-10.6135
▁મહિને	-10.6135
▁સ્પર્ધાત્મક	-10.6135
ection	-10.6137
uri	-10.6139
▁તાજા	-10.6139
▁ઘાટો	-10.614
▁ખાતાને	-10.6147
RAM	-10.6149
▁0.9	-10.615
▁750	-10.6156
બિંદુ	-10.6163
મૂ	-10.6163
Box	-10.6167
▁ખેલાડી	-10.6168
▁હેર	-10.6177
Indian	-10.6179
સ્કી	-10.6188
▁યુએસએ	-10.6188
▁બદલાયેલ	-10.6188
▁ગેરકાયદે	-10.6202
html	-10.6202
▁યૂસફ	-10.6202
▁1703,	-10.6202
cor	-10.6204
hr	-10.6206
▁ડ્રોપ	-10.6207
ctor	-10.621
▁પ્રાણીઓ	-10.6212
▁પ્રેરિત	-10.6213
પતિ	-10.6213
▁Mac	-10.6216
▁180	-10.6227
▁અટકાવવા	-10.6229
hua	-10.6234
▁જર્મન	-10.6239
▁43	-10.6242
વર્ક	-10.6243
▁ખસ	-10.6247
▁વિભાગો	-10.6248
▁રોકડ	-10.6251
Bus	-10.6251
▁દર્દીઓ	-10.6254
▁has	-10.6254
▁બચાવવા	-10.6256
બેલ	-10.6263
avi	-10.6265
▁સીટી	-10.6268
▁અભિગમ	-10.6269
zimbabwe	-10.6269
▁શિકાગો	-10.6269
▁પૈકી	-10.6269
▁પરાક્રમ	-10.6269
▁લાંબો	-10.6269
▁સ્માર્ટફોન	-10.627
!!!	-10.627
▁બદલાવ	-10.627
▁ગીતશાસ્ત્ર	-10.6271
▁With	-10.6275
▁કતાર	-10.6276
▁720	-10.6287
▁હકીકતમાં	-10.6294
0.4	-10.6297
જ્યારે	-10.6301
▁આવકાર	-10.6311
▁મૃત	-10.6323
uch	-10.6328
Coin	-10.6334
▁SlotJar	-10.6337
▁ઈતિહાસ	-10.6337
▁ડિફૉલ્ટ	-10.6337
▁વોટરપ્રૂફ	-10.6337
▁"{0}"	-10.6337
▁મેડિકલ	-10.6337
у	-10.6337
▁સ્નાયુ	-10.6337
2005-2018	-10.6337
▁MD	-10.6337
▁year	-10.6338
▁પાર્ટ્સ	-10.6338
▁ફિટિંગ	-10.6338
HZ	-10.6339
▁પાર્	-10.6339
ju	-10.634
▁હુકમ	-10.6343
▁VPS	-10.6347
▁અભ્યાસક્રમ	-10.6351
rr	-10.6353
▁ખરીદ	-10.6356
ોલોજી	-10.6361
hor	-10.6365
વેબ	-10.6367
▁મુશ્કેલીઓ	-10.6369
ડબલ્યુ	-10.6371
▁પાડેલ	-10.6371
સ્વી	-10.6374
▁અનુસરવા	-10.6375
▁નોડ	-10.6376
▁ક્ષેત્રમાં	-10.6381
607,	-10.6381
પ્રા	-10.6381
170	-10.6382
▁text	-10.6386
▁યરૂશાલેમમાં	-10.6389
▁ઉપજ	-10.639
▁સૂચવે	-10.6392
▁જોડો	-10.6393
▁સજા	-10.6399
message	-10.6406
▁જોડાઈ	-10.6406
▁પ્રસંગ	-10.6406
ફ્યુ	-10.6407
▁વિચારું	-10.6413
▁450	-10.6421
▁મોટે	-10.6421
▁ચૂકવવા	-10.6422
▁તકો	-10.6423
રાગ	-10.6426
▁જોશો	-10.6426
▁કિટ	-10.6431
709,	-10.6433
▁નોકર	-10.6435
▁આકર્ષક	-10.6437
▁લેખો	-10.6439
▁Or	-10.6442
▁વચનો	-10.6448
▁કોટ	-10.645
▁સળ	-10.6456
▁San	-10.6457
▁સર્જ	-10.6462
▁યોજનાઓ	-10.6467
▁છાપન	-10.6474
▁વર્તણૂક	-10.6475
▁સંઘર્ષ	-10.6475
▁સમયગાળો	-10.6475
▁અંધકાર	-10.6475
▁બિનયહૂદિ	-10.6475
▁ત્વચા	-10.6475
▁GNU	-10.6475
Ctrl	-10.6475
▁ગર્ભ	-10.6475
▁ઇન્ડિયા	-10.6477
▁sc	-10.6478
▁Man	-10.648
▁સમાવી	-10.6481
▁પાછું	-10.6488
▁TE	-10.6492
▁મૂકવામાં	-10.6494
▁નકાર	-10.6504
▁ત્યાર	-10.6505
▁રિલે	-10.6508
▁ભૂત	-10.6514
▁કાન્સ	-10.6517
▁અમલમાં	-10.6517
meter	-10.6521
360	-10.6525
▁ગૂ	-10.6527
▁બદલાવો	-10.6534
▁fa	-10.6534
▁દેવા	-10.6539
▁ખરીદવા	-10.654
▁અધિકારી	-10.6541
▁1.2	-10.6541
Description	-10.6541
▁શાંત	-10.6543
▁Global	-10.6544
▁ઈકોમર્સ	-10.6544
▁ગુઆંગડોંગ	-10.6544
▁ટેક્નોલોજી	-10.6544
▁ન્યૂનત્તમ	-10.6544
▁બાર્નાબાસ	-10.6544
▁ભંડોળ	-10.6544
▁માતાપિતા	-10.6544
▁રીસોર્ટ્સ	-10.6544
▁વોલપેપર	-10.6544
▁અગત્ય	-10.6544
▁આમંત્રણ	-10.6544
▁ITC	-10.6545
▁જન્મદિવસ	-10.6545
▁રહસ્ય	-10.6545
▁બગડેલ	-10.6545
▁PCI	-10.6545
▁વલણ	-10.6546
▁૨૧	-10.6558
▁Porn	-10.6559
▁સફાઈ	-10.656
▁ખરીદે	-10.6565
▁લગાવ	-10.657
કાર્ય	-10.6572
▁તારે	-10.6573
layer	-10.658
▁MI	-10.6582
▁મેટા	-10.6588
▁આપણું	-10.6589
હાય	-10.6596
▁તીવ્ર	-10.6596
▁દાસ	-10.66
▁પીપી	-10.6608
▁નંબરો	-10.6611
att	-10.6612
▁[...]	-10.6614
▁બ્રિટિશ	-10.6614
▁ઉર્જા	-10.6614
▁પ્રતિસાદ	-10.6614
▁check	-10.6614
▁વિશ્વભરમાં	-10.6614
▁ઓછો	-10.6614
▁પોલી	-10.6614
▁બન્યા	-10.6615
▁મિરર	-10.6617
▁કર્મ	-10.6618
▁કેનેડા	-10.6618
▁પ્રતિબંધ	-10.6618
▁ભેજ	-10.662
▁વધે	-10.6623
▁ગુણ્યા	-10.663
ich	-10.6632
▁બાર્	-10.6634
▁જેટલી	-10.6635
િસ્ટ	-10.6636
▁4.0	-10.6639
▁મેરી	-10.664
▁અત્યાર	-10.6652
કેટલાક	-10.6656
બાઈ	-10.6659
ગ્યુ	-10.6665
wp	-10.667
▁પાઉલને	-10.6672
▁જરુરી	-10.6678
▁તાર	-10.6683
▁કટોકટી	-10.6684
▁સ્કાયપે	-10.6684
▁ગિટાર	-10.6684
romania	-10.6684
▁ટ્રેડમિલ	-10.6684
▁સવારે	-10.6685
▁ચૂકવણું	-10.6685
▁LLC	-10.6685
▁આદર	-10.6686
phone	-10.6689
USD	-10.6689
auto	-10.6689
▁દર્શાવી	-10.669
▁ફાર્મ	-10.6692
▁શકાઈ	-10.6694
▁મદદરૂપ	-10.6696
ોઇડ	-10.6698
▁000	-10.6709
gl	-10.6714
▁ડીજે	-10.6716
▁રહેલા	-10.672
▁ડોક	-10.6736
▁Pas	-10.6737
▁લાખો	-10.6738
▁કહેતા	-10.674
▁કહેશે	-10.6747
/09/2019	-10.6755
▁***	-10.6755
▁ગેરહાજર	-10.6755
▁પ્રખ્યાત	-10.6755
▁ફેડરલ	-10.6755
▁લાઈસન્સ	-10.6755
▁કહીશ	-10.6755
▁જાળવણી	-10.6756
▁2018-10-	-10.6756
tw	-10.6761
▁સુકા	-10.6766
▁જાણ્યું	-10.6767
410	-10.6772
0.7	-10.6792
word	-10.6793
888	-10.6798
▁ટાઇ	-10.6808
ગુજરાતી	-10.6809
134	-10.681
▁ચૂકવ	-10.6814
▁દુર્	-10.6818
▁યાદીમાંથી	-10.6819
▁મહત્વની	-10.6824
▁ચોંટાડો	-10.6827
▁પ્રમોશન	-10.6827
▁રવિવાર	-10.6827
▁સંકલિત	-10.6827
▁થોમસ	-10.6827
▁સાયન્સ	-10.6827
▁મિલકત	-10.6827
ડિઓ	-10.6828
VAC	-10.6829
▁ચેનલો	-10.683
▁દુનિયામાં	-10.6831
▁ફાયર	-10.6832
▁જવાબદાર	-10.6836
▁ટોકન	-10.6841
▁હોવાથી	-10.6841
UTF	-10.6845
▁કોઇલ	-10.6847
▁Read	-10.6866
▁1200	-10.6866
▁ઘટાડ	-10.6867
▁ગોળ	-10.6871
પસંદ	-10.6876
▁વ્યક્તિએ	-10.6877
રિન	-10.6883
▁XP	-10.6888
ISO	-10.689
uff	-10.6891
chat	-10.6897
રિસ	-10.6898
▁Ethereum	-10.6899
▁ઘેટાં	-10.6899
▁ધરાવતી	-10.6899
number	-10.6899
▁વ્યાજ	-10.6899
▁વળાંક	-10.6901
▁શાસ્ત્રીઓ	-10.6903
▁Que	-10.6905
▁પાપો	-10.6906
Player	-10.6907
▁ખાતાઓ	-10.6909
▁રજાઓ	-10.6917
▁પોપ	-10.6922
▁ખાતું	-10.6931
▁સાજો	-10.6934
▁પેસે	-10.6934
▁નવે	-10.6943
×	-10.6949
nel	-10.6951
▁મહિલાઓ	-10.6955
▁પહોંચાડ	-10.6959
▁સર્જન	-10.6965
શ્ય	-10.6967
cam	-10.697
ification	-10.6971
ä	-10.6971
▁કંટ્રોલ	-10.6971
▁પ્રત્યુત્તર	-10.6971
▁મિશ્રિત	-10.6971
▁મલ્ટિ	-10.6971
▁તણાવ	-10.6971
▁ઝેરી	-10.6972
star	-10.6972
▁છેલ્લો	-10.6974
▁ગલન	-10.6974
▁શાઉલ	-10.6975
▁એકદમ	-10.6977
શરૂ	-10.6977
▁ઘટ	-10.6981
▁ચાર્ટ	-10.6981
▁પેઇન્ટ્સ	-10.6985
ઇન્ટ	-10.6987
▁સ્વા	-10.6987
▁any	-10.6989
િન્	-10.6991
દૂર	-10.7002
pack	-10.7004
Show	-10.7005
▁સમાપ્તિ	-10.7006
▁સંશોધકો	-10.7009
શિયા	-10.7011
▁ભૂતકાળમાં	-10.702
▁તમારુ	-10.7025
ક્રિયા	-10.7029
જ઼	-10.7032
side	-10.7033
▁બનાવટ	-10.704
લોગ	-10.7042
▁ME	-10.7043
Spot	-10.7044
Transposh	-10.7044
▁ધ્યેય	-10.7044
▁સિરામિક	-10.7044
▁ફ્રોમ	-10.7044
▁માપદંડ	-10.7044
▁સ્ટીકર	-10.7044
▁વસ્તી	-10.7044
▁શેરીઓમાં	-10.7045
▁ગ્રંથ	-10.7045
▁રાજકીય	-10.7046
▁રૂબલ	-10.7046
▁વહેંચણી	-10.7048
▁ઇમેલ	-10.7048
▁હત્યા	-10.7051
િયસ	-10.7052
9.00	-10.7056
▁અપૂર્ણ	-10.706
ધામ	-10.7061
▁Net	-10.7067
▁પડ્યો	-10.7067
▁બંધબેસતા	-10.7068
▁હોસ્ટ	-10.7068
▁ટુર	-10.7072
▁ઇલેક્ટ્રોનિક્સ	-10.7072
અસ	-10.7073
લોડ	-10.7081
▁My	-10.7081
pot	-10.7083
▁EX	-10.7088
ature	-10.7089
ture	-10.7089
▁ઝુ	-10.7092
▁લેવાય	-10.7098
▁સ્તરે	-10.71
▁Gujarat	-10.7109
▁રડ	-10.7117
content	-10.7118
ö	-10.7118
▁Business	-10.7118
▁ધૂળ	-10.7118
▁જ્યોર્જ	-10.7118
razil	-10.7119
▁આઉટડોર	-10.7119
self	-10.7119
▁ગુલામ	-10.7119
▁છુપાયેલ	-10.7119
1-2	-10.7133
rypt	-10.7135
▁કનેક્ટર	-10.7143
▁દિવસોમાં	-10.7146
▁પિન	-10.7149
▁લૂક	-10.7156
wing	-10.7166
350	-10.7169
▁ખાન	-10.7172
▁આવ્યુ	-10.7177
▁જીવવા	-10.7179
ટલા	-10.718
▁સમર્થન	-10.7184
▁સમયગાળા	-10.7192
▁ઓનલાઈન	-10.7192
▁આલેખ	-10.7193
▁ક્લબ	-10.7194
▁હિસ્ટ્રી	-10.7194
▁આઇકોન	-10.7194
▁સાચો	-10.7204
વંશ	-10.7204
▁ટાઇલ્સ	-10.7207
▁બૂમ	-10.7208
▁ખોલ	-10.7216
▁વાવ	-10.7217
▁ભવ્ય	-10.7227
▁જાણીતા	-10.723
ાત્મા	-10.7233
▁પુનર્	-10.724
▁ઉડ	-10.7248
Constellation	-10.7251
▁સદી	-10.7251
▁દુકાનો	-10.7255
ફ્લ	-10.7261
▁માર્કેટ	-10.7261
▁દવાઓ	-10.7261
બિન	-10.7264
л	-10.7266
Pirater	-10.7266
palette	-10.7266
▁Gratuit	-10.7266
▁ઑબ્જેક્ટ	-10.7266
▁સાહિત્ય	-10.7266
ભૂત	-10.7267
▁સ્લાઇડ	-10.7267
▁મેટર	-10.7268
▁સુંદરતા	-10.7268
▁ગ્રીક	-10.7273
▁સ્વિસ	-10.7276
url	-10.7277
▁32.00	-10.7281
▁વોર	-10.7281
▁વીજ	-10.7281
zip	-10.7284
▁900	-10.7287
બદ્ધ	-10.7297
▁DN	-10.7298
▁By	-10.7298
▁બર્	-10.7309
વિધ	-10.7335
▁off	-10.734
.04.2019	-10.7342
▁વત્તા	-10.7342
▁Open	-10.7342
Action	-10.7342
▁ટાયર	-10.7344
બીએસ	-10.7345
▁પકડવા	-10.7346
bel	-10.7352
▁Pay	-10.7353
▁અટક	-10.7357
▁કણો	-10.7362
MHZ	-10.7363
bre	-10.7365
્યુલર	-10.7366
▁કન્વર્ટ	-10.7369
hot	-10.737
▁ખાધ	-10.7377
Tech	-10.738
પત્	-10.738
▁પ્રદેશમાં	-10.7386
▁લોટ	-10.7388
ભે	-10.7404
▁ટ્રસ્ટ	-10.7407
tag	-10.7412
train	-10.7412
▁teether	-10.7417
▁કોમ્પ્યુટર	-10.7417
▁ટ્રાન્ઝિશનલ	-10.7417
▁બ્લુટુથ	-10.7417
▁દ્ધારા	-10.7417
▁વિદેશમાં	-10.7417
ડેનિસ	-10.7418
▁કડક	-10.7418
▁પરિપૂર્ણ	-10.7418
▁રેટેડ	-10.742
%%)	-10.7421
▁સિંગલ	-10.7421
▁આપણો	-10.7422
▁રેન્જ	-10.7425
hang	-10.7427
▁ખૂણા	-10.7427
▁સંતો	-10.7428
▁પ્રેમીઓ	-10.7433
▁ફેરવવા	-10.7435
▁બિંદુઓ	-10.7439
▁પાછળથી	-10.7439
▁જોડવા	-10.7459
▁ક્લિપબોર્ડમાં	-10.7459
▁દંડ	-10.746
▁સોય	-10.7472
▁બુકમાર્કો	-10.7477
બ્રે	-10.7477
આધારિત	-10.7483
આગળ	-10.7484
▁તંદુરસ્ત	-10.7494
▁તાજેતરમાં	-10.7494
▁પ્રસ્તુત	-10.7494
▁ફેબ્રિક	-10.7494
▁વિધાનસભા	-10.7494
▁શનિવાર	-10.7494
▁સ્ટેનલેસ	-10.7494
▁ટેબ્લેટ	-10.7494
▁ચરબી	-10.7494
stat	-10.7496
▁મમ્મીએ	-10.7499
▁ઊંચાઇ	-10.75
▁રમો	-10.7501
symbols	-10.7502
કળા	-10.7507
▁વિકસિત	-10.7507
135	-10.7507
મ્બા	-10.7507
શોધ	-10.7509
બિટ	-10.7511
▁શિષ્ય	-10.7515
▁LTC	-10.7515
▁મૂડી	-10.7515
ible	-10.7536
▁કાયમી	-10.7536
ફ્લે	-10.7547
tablet	-10.7551
▁આપીએ	-10.7551
mit	-10.7554
▁અભ્યાસક્રમો	-10.7557
▁ચોક	-10.7562
▁વિસ્તારોમાં	-10.7563
wt	-10.7565
ટીમ	-10.7566
≥98%	-10.7571
▁મુદ્દો	-10.7571
▁IMAP	-10.7572
Key	-10.7573
▁સંજ્ઞા	-10.7574
▁લીધા	-10.7576
▁રાણી	-10.7582
▁પિલાતે	-10.7585
▁ખુલ	-10.7586
▁ફોલ	-10.7586
▁50%	-10.7587
▁(6)	-10.7587
▁ગ્રાફ	-10.759
304	-10.7613
▁પાનાંઓ	-10.7617
મ્બર	-10.7637
▁Chi	-10.7642
▁ટૂ	-10.7643
channel	-10.7648
▁Software	-10.7648
▁navigation	-10.7648
▁દીધું	-10.7648
▁ધીરજ	-10.7648
▁લાઇસન્સ	-10.7648
▁કાયદો	-10.7648
▁અર્પણ	-10.7648
▁શોપિંગ	-10.7648
▁ધીમે	-10.7648
▁કચરો	-10.7648
▁republic	-10.7649
▁દ્વિ	-10.7649
▁ઉપયોગિતા	-10.7649
▁જાળીદાર	-10.765
▁ચિટ્સ	-10.7651
▁તરંગ	-10.7652
orea	-10.7654
▁૫૩	-10.7655
▁બાલ	-10.7659
km	-10.7665
▁ચકાસે	-10.7667
emb	-10.767
▁LT	-10.7671
▁મેજ	-10.7672
▁જાહેરાતો	-10.7679
ICS	-10.7685
amb	-10.7689
▁સાજા	-10.7691
icker	-10.7708
રુપ	-10.7711
▁પાછુ	-10.7711
▁લાવ્યા	-10.7712
PropertyName	-10.7726
í	-10.7726
▁unlimited	-10.7726
▁અદ્ભુત	-10.7726
▁ક્રિસમસ	-10.7726
▁વ્યવસ્થિત	-10.7726
▁સંતુલન	-10.7726
▁સંલગ્ન	-10.7726
▁સમયસમાપ્તિ	-10.7726
▁સુઝુકી	-10.7726
Private	-10.7726
▁દુઃખ	-10.7726
▁સિક્કા	-10.7726
▁SQL	-10.7726
ચિત્ર	-10.773
▁સહભાગી	-10.7735
▁શાળાઓ	-10.7742
▁ક્રશ	-10.7742
▁પેરા	-10.7751
▁આત્માઓ	-10.7752
geria	-10.7756
▁જાળ	-10.7757
▁હેલો	-10.7763
દર્શ	-10.7769
એક્સએક્સ	-10.7769
▁કઇ	-10.7776
155	-10.7793
ôl	-10.7794
Black	-10.7802
▁2011-2012	-10.7805
▁એલાર્મ	-10.7805
વાદળી	-10.7805
▁ફોકસ	-10.7805
▁ઇલેક્ટ્રીક	-10.7805
▁પ્રેરક	-10.7805
error	-10.7805
video	-10.7805
ica	-10.7807
▁આવતો	-10.7807
▁ઓફસેટ	-10.7809
Pro	-10.781
▁જહાજ	-10.781
▁ટકાઉ	-10.7812
સ્કેપ	-10.7815
▁વેટ	-10.7817
▁પ્રકરણ	-10.7818
▁નિષ્ણાતો	-10.7826
▁કોરિયા	-10.7826
ન્ડા	-10.7827
▁હંમેશાં	-10.7828
▁મોહ	-10.7831
▁વસ્ત્ર	-10.7833
ચ્ચ	-10.7838
▁દીકરાને	-10.7841
▁એકમાત્ર	-10.7843
▁આપીશ	-10.7852
▁Jet	-10.7854
Fou	-10.7856
▁સુધારક	-10.7864
Qu	-10.7865
ttle	-10.7866
▁લાગી	-10.7875
▁municipalit	-10.7884
lithuania	-10.7884
▁ટિકિટ	-10.7884
▁ફાયરફોક્સ	-10.7884
ѕ	-10.7884
▁afeat	-10.7884
▁ઇટાલી	-10.7884
ر	-10.7884
▁દરરોજ	-10.7884
izer	-10.7887
▁સમીકરણ	-10.7888
▁VM	-10.789
▁પ્રોસેસિંગ	-10.789
▁લિપિ	-10.7897
▁લ્યુ	-10.7898
▁સ્થાપક	-10.79
▁દિન	-10.7901
પછી	-10.7902
▁દર્દી	-10.7903
▁મૃત્યુમાંથી	-10.7928
filters	-10.7928
rg	-10.7931
andy	-10.7932
▁દર્શાવેલ	-10.7936
▁કાર્ટ	-10.7946
ર્ણ	-10.7946
▁કાટ	-10.7953
ફ્રે	-10.7956
▁લાખ	-10.7961
▁કૃષિ	-10.7964
▁ક્રિસ્ટલ	-10.7964
ત્યારબાદ	-10.7964
▁જનરલ	-10.7965
▁લાંબુ	-10.7965
▁એટલું	-10.7965
▁તુલના	-10.7965
▁વિરામ	-10.7965
▁સહયોગ	-10.7966
}}	-10.7967
▁ચઢ	-10.7972
▁નાદ	-10.7974
245	-10.7985
ati	-10.8016
▁ખીલ	-10.8018
▁ઓર્	-10.8025
▁1999	-10.8031
shop	-10.8033
સ્તા	-10.8034
▁મુક્તિ	-10.8036
225	-10.8039
▁Instagram	-10.8045
▁Public	-10.8045
▁કાઉન્ટી	-10.8045
▁વૈવાહિક	-10.8045
▁મોઢું	-10.8045
▁અમારે	-10.8045
▁પુનરાવર્તન	-10.8046
▁ઇમારત	-10.8047
લોકડાઉન	-10.8048
▁પેડ	-10.8049
▁ભજવ	-10.8053
એમએમ	-10.8061
▁ટ્રક	-10.8065
▁માંગુ	-10.8066
▁EST	-10.8067
iran	-10.8068
▁કરાવવા	-10.8069
▁સંયોજન	-10.807
▁4000	-10.8073
ized	-10.8076
1.2	-10.8077
▁બેબી	-10.8078
dir	-10.8097
tro	-10.8105
PSC	-10.8118
▁વાહનો	-10.8122
▁ડેમો	-10.8124
і	-10.8126
▁અમર્યાદિત	-10.8126
▁કૌંસ	-10.8126
▁સૂક્ષ્મ	-10.8126
▁સાહેબ	-10.8126
Control	-10.8126
▁બટલર	-10.8126
▁બેઠો	-10.8127
hostface	-10.8127
▁online	-10.813
▁પાર્ટી	-10.8131
▁ગર્વ	-10.8133
▁શકતું	-10.8135
▁કોટિંગ	-10.8144
▁કાળી	-10.8147
▁નિષ્	-10.8149
▁અણુ	-10.8172
સ્પી	-10.8173
albi	-10.8177
cial	-10.819
▁ઉત્પાદકતા	-10.8192
જ્ઞાન	-10.8192
▁કોમ્પ	-10.8207
▁System	-10.8208
▁ટુંકાણ	-10.8208
▁ટ્રેઇલર્સ	-10.8208
▁તબક્કો	-10.8208
▁સબ્સ્ક્રાઇબ	-10.8208
▁પોષણ	-10.8208
▁સંભાવના	-10.8208
▁મૂલ્યાંકન	-10.8208
▁કલીક	-10.8209
▁પૂલ	-10.8212
▁સાધુ	-10.8215
▁ફાઇલનામ	-10.8218
▁Tool	-10.8225
▁બદલાય	-10.8233
▁ટચ	-10.8239
▁OS	-10.824
!’	-10.8241
ise	-10.8242
877	-10.8243
▁આપતી	-10.8244
-05-	-10.8256
POS	-10.8261
▁નાખી	-10.8264
▁પહેલી	-10.8264
▁ખાડી	-10.8265
▁વડા	-10.8266
નિર્	-10.8282
ર્ધ	-10.8289
▁અઠવાડિયુ	-10.8291
▁કન્સેપ્ટ	-10.8291
▁ક્રાંતિ	-10.8291
▁દુશ્મન	-10.8291
▁નિશ્ચિત	-10.8291
▁બાથરૂમ	-10.8291
▁એક્સપ્રેસ	-10.8291
▁તૂટી	-10.8291
▁આવર્તન	-10.8291
▁કૈસર	-10.8291
▁ધન્ય	-10.8291
▁રાજ્યાસન	-10.8291
▁રીડર	-10.8292
JPY	-10.8292
▁જરુંર	-10.8296
યેલ	-10.8296
▁છુપાવો	-10.8299
▁ઇચ્છિત	-10.8306
માટે	-10.8314
cap	-10.8317
▁vir	-10.8319
વર્ષ	-10.833
▁ચુક	-10.8335
hol	-10.8344
2.0	-10.8345
▁સાથ	-10.8345
▁બનાવ્યા	-10.8345
▁ચિપ	-10.8361
▁MO	-10.8367
▁5000	-10.8368
▁રમી	-10.8372
▁Jailbreak	-10.8374
▁પ્રશંસા	-10.8374
▁ટાળ્યાનું	-10.8374
▁મોજણી	-10.8374
▁સ્ક્રોલ	-10.8374
▁સચોટ	-10.8374
▁અવકાશ	-10.8374
▁ટકાવારી	-10.8374
▁ડીવીડી	-10.8374
▁ત્રીજા	-10.8374
▁કેડીઇ	-10.8375
▁ભેદ	-10.8376
▁ઉડાન	-10.8376
weta	-10.8377
▁સંચાર	-10.8381
▁વાડ	-10.8384
REC	-10.8384
ઊ	-10.8386
▁જિમ	-10.839
▁લાઇટિંગ	-10.8398
▁સીડી	-10.8403
▁બંધબેસ	-10.8403
▁ખેડૂતો	-10.8404
▁પમ્પ	-10.8406
ટાઉન	-10.8407
▁ડોઝ	-10.8423
▁પથ	-10.8428
▁શાહી	-10.8432
▁ફેરવી	-10.8439
▁ખરા	-10.8447
સ્થાપિત	-10.8448
▁window	-10.8451
▁ચુંબક	-10.8456
▁જ્વેલરી	-10.8458
▁હકારાત્મક	-10.8458
▁શીપીંગ	-10.8458
▁સન્માન	-10.8458
▁વ્હાઇટ	-10.8459
▁POR	-10.8459
▁ઋગ	-10.8459
▁apk	-10.8459
▁ગ્રાફિક્સ	-10.8459
▁કહ્યા	-10.846
▁કિશોર	-10.8461
▁ટૉ	-10.8462
▁ડિમન	-10.8464
▁ટાવર	-10.8464
▁ફાઇલસિસ્ટમ	-10.8465
▁વાયુ	-10.8472
ક્ષેત્ર	-10.8472
▁પિક્સેલો	-10.8472
{{	-10.8473
wan	-10.8477
▁જતાં	-10.849
ird	-10.8504
▁ગ્રેટ	-10.851
ફેક્ટ	-10.8515
None	-10.8529
▁Top	-10.8539
▁લાઈબ્રેરી	-10.8543
olombia	-10.8543
▁California	-10.8543
▁Technology	-10.8543
▁ઠંડક	-10.8543
▁મેટાડેટા	-10.8543
▁મૈત્રીપૂર્ણ	-10.8543
▁લૌરા	-10.8543
▁વિપરીત	-10.8543
▁સુન્નત	-10.8543
●	-10.8543
▁લન્ડન	-10.8543
▁અંહિ	-10.8543
mobile	-10.8543
▁HGH	-10.8543
▁મેલફોર્મ	-10.8543
craft	-10.8543
▁Facebook	-10.8543
▁Ltd	-10.8544
▁ઉજવણી	-10.8544
▁બનાવનાર	-10.8544
▁સોફ્ટ	-10.8546
▁સસ્તા	-10.8548
▁માનવામાં	-10.8555
રાષ્ટ્ર	-10.8559
aff	-10.856
▁તીવ્રતા	-10.8565
part	-10.8566
▁સારુ	-10.8567
▁જાણતો	-10.8567
132	-10.8567
આરએફ	-10.8569
▁દોષ	-10.8569
▁સ્પેન	-10.8572
▁રૂટ	-10.8575
▁૧૦૦	-10.8578
▁ચોરી	-10.8588
card	-10.8591
▁સંબંધી	-10.8598
▁આકાશમાંથી	-10.86
arti	-10.8613
▁બોટ	-10.8616
▁પરિણામે	-10.8622
▁Corporation	-10.8629
▁ઇલિનોઇસ	-10.8629
▁એનિમેશન	-10.8629
▁એરક્રાફ્ટ	-10.8629
▁ખાણકામ	-10.8629
▁ડેવલપમેન્ટ	-10.8629
▁યાંત્રિક	-10.8629
▁હમેશા	-10.8629
.05.2019	-10.8629
▁અડધા	-10.863
▁શાફ્ટ	-10.8632
▁૬૮	-10.8633
▁એન્જિનિયરિંગ	-10.8636
▁કોફી	-10.8638
ન્ત	-10.8639
asa	-10.8647
▁ગુમાવી	-10.8647
▁700	-10.8647
વસ્તુ	-10.8647
▁કાપો	-10.8648
▁આપતો	-10.8658
▁નિવૃત્ત	-10.8658
▁સદા	-10.8659
XXXX	-10.8662
ફિલ	-10.8667
▁ક્લિપબોર્ડ	-10.8668
▁મહે	-10.8671
5.00	-10.8671
▁May	-10.8677
Exp	-10.8684
▁હિટ	-10.8688
ફશોર	-10.8695
ever	-10.8698
યાદી	-10.87
▁રજા	-10.8705
▁બોલતા	-10.8706
▁ગાળકો	-10.8711
▁લાક્ષણિક	-10.8715
▁August	-10.8715
▁December	-10.8715
▁Txxx	-10.8715
▁weekday	-10.8715
▁કારકિર્દી	-10.8715
▁કાવાસાકી	-10.8715
▁સિલિન્ડર	-10.8715
▁હ્રદય	-10.8715
▁કૂકી	-10.8715
▁લઘુત્તમ	-10.8715
4000	-10.8715
▁ફ્રેન્ચ	-10.8715
▁અવતાર	-10.8716
▁85.00	-10.872
▁૩૯	-10.872
▁ન્યૂઝ	-10.8731
પૃથ્વી	-10.8735
▁DNS	-10.8735
Trade	-10.8745
▁હજાર	-10.8746
inland	-10.8751
▁ડૂ	-10.8754
▁બાંધી	-10.8759
▁મેગા	-10.8761
▁જેટલા	-10.8766
▁કુળ	-10.8787
ફીલ્ડ	-10.8791
max	-10.8794
fghanistan	-10.8802
▁ખુલ્લા	-10.8802
▁ગૌરવ	-10.8802
▁ન્યુનત્તમ	-10.8802
twitter	-10.8802
▁ધરાવતુ	-10.8802
▁કોષો	-10.8802
▁બહુવિધ	-10.8803
▁વ્હ	-10.8804
▁સ્થાપ	-10.8804
▁XNUM	-10.8805
▁સ્વભાવ	-10.8806
વિલ્લે	-10.8814
▁કુકી	-10.8823
▁સેલ્સ	-10.8828
▁શીખવવા	-10.8832
▁મોકલનાર	-10.8833
▁શુદ્ધતા	-10.884
▁ફેલાવ	-10.884
▁Real	-10.8843
▁લખાયેલ	-10.8848
5.98	-10.8851
▁Hat	-10.8852
▁ક્રોન	-10.8854
બ્બ	-10.8858
▁દાખલા	-10.8863
▁મોકલ્યા	-10.8864
▁360	-10.8865
▁my	-10.8867
rail	-10.8868
▁સ્નાન	-10.8883
Φ	-10.8889
฿	-10.8889
▁QEMU	-10.8889
▁અપાવનાર	-10.8889
▁પ્રીમિયમ	-10.8889
▁સ્ટેઈનલેસ	-10.8889
	-10.8889
▁સંરક્ષણ	-10.8889
▁સર્કિટ	-10.8889
▁નહોતી	-10.8889
▁મશિન	-10.889
▁જોડાઓ	-10.889
▁under	-10.8891
▁સપ્લાયરો	-10.8891
▁was	-10.8893
▁મહેનત	-10.8893
▁રેન્ડર	-10.8896
▁લાગ્યો	-10.8898
▁અર્ધ	-10.8901
▁છોકરીઓ	-10.8903
▁પેકેજીંગ	-10.8906
{0}	-10.8914
▁ગણિત	-10.8914
▁ફાસ્ટ	-10.8918
▁વડીલો	-10.8919
▁ઈચ્છતા	-10.8926
zhou	-10.893
▁વિગત	-10.8933
▁રહ	-10.8935
-06-	-10.895
▁બીજે	-10.8962
▁શીખી	-10.8966
▁LY	-10.8972
નિષ્ઠ	-10.8975
▁શુભેચ્છા	-10.8978
▁Kothari	-10.8978
▁November	-10.8978
▁કન્ટેનર	-10.8978
▁પ્રતિબિંબ	-10.8978
▁વિભાજિત	-10.8978
▁સોસાયટી	-10.8978
▁સ્વામિનારાયણ	-10.8978
વિશ્રામવાર	-10.8978
▁Products	-10.8978
▁ટેકનિકલ	-10.8978
▁પોઈન્ટ	-10.8978
▁સમાંતર	-10.8978
▁બન્યો	-10.8978
▁કરેલું	-10.8979
▁સ્વપ્ન	-10.898
▁પ્રતિબદ્ધ	-10.898
▁વિસ્તર	-10.8981
▁લાગતું	-10.8982
▁મેઘ	-10.8983
▁UK	-10.8983
▁ફાઈલનામ	-10.8985
▁૨૩	-10.8985
windows	-10.8986
▁મોકલેલ	-10.8987
▁some	-10.8988
▁જેમણે	-10.899
▁(0)	-10.8997
▁બનાવશે	-10.8997
▁રાખ્યું	-10.8998
▁૪૦	-10.9003
▁જોબ્સ	-10.9005
જીવંત	-10.9005
પ્રકાશ	-10.9005
▁રાખવું	-10.9008
▁Max	-10.9014
▁સલાહકાર	-10.9043
2.7	-10.9049
159	-10.9057
▁સહભાગીઓ	-10.9057
▁Jizerou	-10.9067
▁મીણબત્તી	-10.9067
▁અદભૂત	-10.9067
▁ગૌણ	-10.9067
▁બુધવાર	-10.9067
▁2019-02-	-10.9067
▁about	-10.9067
bonus	-10.9068
▁સંગઠન	-10.9068
Add	-10.9069
▁બાંધવામાં	-10.9071
▁અસક્રિય	-10.9072
▁રોયલ	-10.9072
રબાની	-10.9073
▁પર્યાવરણીય	-10.9073
▁ચાહક	-10.9073
▁યૂ	-10.9076
▁નીચી	-10.9076
▁ફેરવ	-10.9086
▁પ્રિન્સ	-10.9088
plc	-10.909
▁વાર્તાઓ	-10.9091
ration	-10.9094
▁(5)	-10.9095
room	-10.9097
▁યુએસપી	-10.9098
ેટેડ	-10.9102
▁પામી	-10.9103
▁છોકરા	-10.9114
Select	-10.9127
▁માણસોએ	-10.9139
▁Bao	-10.9143
▁લઘુ	-10.9157
Contributions	-10.9157
▁Stateville	-10.9157
▁Tewhan	-10.9157
▁sonication	-10.9157
▁ઓક્સિજન	-10.9157
▁ગુણોત્તર	-10.9157
▁સાંકેતિક	-10.9157
▁શબ્દકોષ	-10.9157
▁કાર્યવાહી	-10.9157
▁કદાપિ	-10.9157
▁જીત્યાનું	-10.9157
145	-10.9157
▁ભૂતપૂર્વ	-10.9158
▁ડોક્ટર	-10.916
▁સૂત્ર	-10.9161
▁મુકામ	-10.9162
▁કંઈપણ	-10.9163
▁બંધબેસતી	-10.9164
▁સ્વર્ગ	-10.9164
▁JIN	-10.9164
▁ઈચ્છું	-10.917
▁બોલવા	-10.9178
▁ફોર્	-10.918
▁Star	-10.9187
પ્રકાર	-10.919
▁દબાવી	-10.9196
▁બતાવેલ	-10.9214
Free	-10.9218
▁તોફાન	-10.9221
Media	-10.9228
▁ટેલિ	-10.9233
▁પેઇન્ટ	-10.9235
ત્મક	-10.9239
Unthank	-10.9248
▁ડાયમેન્શન	-10.9248
▁ફાઉન્ડેશન	-10.9248
▁Credit	-10.9248
▁લાઇફ	-10.9248
▁દ્રઢ	-10.9248
▁ટેક્સ્ટ	-10.9248
▁બૉ	-10.9249
▁Launchpad	-10.925
turn	-10.9252
▁પ્રતિભાવ	-10.9253
▁ઘાસ	-10.9257
▁પામશે	-10.926
ેક્	-10.9274
▁ટાઇપ	-10.9274
▁Tue	-10.9274
▁lib	-10.9277
▁સ્વીકારી	-10.9277
▁(4)	-10.928
should	-10.9283
£	-10.9283
▁કેમ્પસ	-10.9285
▁સ્વીકારે	-10.929
ટ્ટા	-10.9307
▁પરિસ્થિતિઓ	-10.9321
▁મોટુ	-10.9332
▁સંતાન	-10.9338
enezuela	-10.934
▁લાયસન્સ	-10.934
▁આયર્ન	-10.934
▁Micro	-10.934
▁માસિક	-10.934
▁સ્ટેન્ડ	-10.934
▁એજન્સી	-10.9341
▁કસરત	-10.9341
convert	-10.9343
▁અર્થતંત્ર	-10.9344
▁સરદાર	-10.9345
▁સોદો	-10.9346
▁ઉશ્કેરી	-10.9348
Sales	-10.9351
▁લશ્કરી	-10.9353
▁સંકોચન	-10.9356
▁બેઠા	-10.9367
inch	-10.9368
▁પડ્યા	-10.9385
2006.	-10.9387
▁નિશ્ચય	-10.9397
ટેડ	-10.9398
▁ખાતર	-10.9405
share	-10.9406
205	-10.9417
થાઈ	-10.9427
▁ટ્વિ	-10.943
hong	-10.9432
्	-10.9432
^	-10.9433
м	-10.9433
ઔ	-10.9433
▁Webtalk	-10.9433
▁software	-10.9433
▁સ્થપાયેલ	-10.9433
▁JSON	-10.9433
▁વિડીયો	-10.9433
▁ફેંકી	-10.9433
▁દીવાલ	-10.9433
Shift	-10.9433
▁વાદ્ય	-10.9433
▁નવીનતા	-10.9434
▁જાદુ	-10.9435
▁જીપીએસ	-10.9436
ક્ચર	-10.9437
▁ભજન	-10.9438
પ્રતિ	-10.9443
hell	-10.9445
▁આપનાર	-10.9445
1.0	-10.9446
ભરી	-10.9446
▁આંતર	-10.9447
▁ભાડેથી	-10.9449
▁એમએચ	-10.9454
▁સ્વામીએ	-10.9467
▁ફીટ	-10.947
પ્રમાણ	-10.9472
સુયોજિત	-10.9473
▁કન્વર્ટર	-10.9493
▁ઘણુ	-10.9501
બિયન	-10.9509
bus	-10.9514
duct	-10.952
▁ખોલે	-10.9524
LIVEFROMLOCKDOWN	-10.9526
á	-10.9526
▁Brasero	-10.9526
▁MOSAIC	-10.9526
▁shoppingdirect	-10.9526
▁અમદાવાદ	-10.9526
▁ગ્લોબલ	-10.9526
▁ચોકઠું	-10.9526
▁વિરુદ્ધ	-10.9526
å	-10.9526
▁ધુમ્મસ	-10.9526
▁ભંગાણ	-10.9526
▁સત્પુરુષ	-10.9526
▁ઓપરેશન	-10.9526
▁હોર્મોન	-10.9526
▁ઇવેન્ટ	-10.9526
▁શંકા	-10.9526
▁રેલવે	-10.9526
▁શ્વાસ	-10.9526
▁શાસન	-10.9527
▁job	-10.9528
▁કોન્કર	-10.9528
proof	-10.9529
Rider	-10.9529
ava	-10.953
▁ઘણીવાર	-10.9535
▁પ્રભાવિત	-10.9539
life	-10.954
▁નિવાસ	-10.9542
▁IPv	-10.9548
મૂળભૂત	-10.9569
▁નફો	-10.9576
બધા	-10.9593
crea	-10.9599
▁રાખીએ	-10.9599
▁કનેક્ટ	-10.9601
▁2006	-10.9603
ફેટ	-10.9613
▁કરાવી	-10.962
▁Tumblr	-10.962
▁અવર્ગીકૃત	-10.962
ominican	-10.962
▁દીધો	-10.962
▁પ્રોફેસર	-10.962
▁ફાઇબરગ્લાસ	-10.962
▁સંકલન	-10.962
▁સંપાદન	-10.962
▁સામયિક	-10.962
▁સુનિશ્ચિત	-10.962
▁glamor	-10.962
zaire	-10.962
▁2018-11-	-10.962
▁એકસાથે	-10.962
▁Folder	-10.962
source	-10.9621
▁admin	-10.9621
▁પરમાણુ	-10.9621
▁યોર્ક	-10.9621
▁આખરે	-10.9621
▁POP	-10.9621
▁રોઝ	-10.9621
▁થાઇલેન્ડ	-10.9623
Link	-10.9624
▁ખૂલેલ	-10.9625
▁વિસ્તરણ	-10.9629
slot	-10.9631
ROM	-10.9633
▁બનાવ્યો	-10.9638
▁શાખા	-10.9638
▁નરમ	-10.9642
off	-10.9646
▁આપવું	-10.965
▁1.1	-10.9658
ૈયા	-10.9662
▁છોકરાઓ	-10.9667
▁inter	-10.967
home	-10.9711
rill	-10.9714
▁સપ્ટે	-10.9715
structur	-10.9716
system	-10.9716
μ	-10.9716
નિર્વિકલ્પ	-10.9716
▁LEWISBURG	-10.9716
▁એસએમએસ	-10.9716
▁જુનિયર	-10.9716
▁wordpress	-10.9716
▁પિતૃ	-10.9716
USMLE	-10.9716
▁મેક્સિકો	-10.9716
▁દીધા	-10.9716
▁123456	-10.9716
▁PDF	-10.9716
▁SMU	-10.9717
nkit	-10.9717
▁ટીપ્સ	-10.9723
▁ટાઈમ	-10.9727
▁GBP	-10.9729
Sky	-10.9733
▁ટાઇલ	-10.9736
▁ડૉ	-10.9739
▁ટાળવા	-10.974
137	-10.9742
0-0	-10.9745
ફિલ્ડ	-10.9751
Mail	-10.976
ender	-10.9773
શાળા	-10.9774
મુક્ત	-10.9774
▁પહોંચવા	-10.9778
PCS	-10.9795
ીઅન	-10.9806
▁method	-10.9812
XCHARX	-10.9812
▁ઠંડી	-10.9812
▁પ્રોત્સાહિત	-10.9812
▁સેન્ટ્રલ	-10.9812
zoom	-10.9812
▁બન્ને	-10.9812
Socket	-10.9812
▁when	-10.9812
▁કોલેટ્સ	-10.9812
▁કરતુ	-10.9812
▁લાક્ષણિકતાઓ	-10.9812
▁દીધી	-10.9812
▁નસીબ	-10.9812
▁અનાજ	-10.9814
▁મૂલ્યવાન	-10.9815
▁ફ્રેંક	-10.9816
▁નીચો	-10.9819
▁Che	-10.9821
oxy	-10.9822
શુલ્ક	-10.9822
▁શકીશ	-10.9823
1.1	-10.9824
▁લેટિન	-10.9824
▁કાચા	-10.9824
▁ઓળખવામાં	-10.9825
data	-10.9831
▁અભાવ	-10.9843
મિટ	-10.9847
▁ઉતાર	-10.9848
ાદિક	-10.986
સંગીત	-10.9863
▁આવનાર	-10.9867
RAN	-10.9869
TER	-10.9896
post	-10.9898
▁ભાડે	-10.9899
યોજિત	-10.9906
ी	-10.9909
▁ટ્યુટોરીયલ	-10.9909
▁January	-10.9909
▁જાવાસ્ક્રિપ્ટ	-10.9909
▁ધિક્કાર	-10.9909
▁ફેરબદલી	-10.9909
▁યંત્ર	-10.9909
▁લંબચોરસ	-10.9909
▁સંકુચિત	-10.9909
▁Charter	-10.9909
▁શોષણ	-10.9909
▁લૉક	-10.9909
▁inmate	-10.9909
▁સંબોધ	-10.9909
▁નહોતા	-10.9909
▁ત્રીજી	-10.9909
▁Apk	-10.9909
▁2019-01-	-10.9909
▁+0000.	-10.9909
▁પ્રતિનિધિત્વ	-10.9909
▁આશ્ચર્યજનક	-10.9909
▁2018-12-	-10.991
▁એનકોડીંગ	-10.9914
8000	-10.9923
777	-10.9924
▁ગયુ	-10.9926
▁ref	-10.9926
ટ્યુન	-10.9928
▁Winx	-10.9929
શ્ચ	-10.9945
mac	-10.9948
▁હેપી	-10.9957
▁નઝર	-10.997
▁Litecoin	-11.0007
Studio	-11.0007
YUAN	-11.0007
▁અચાનક	-11.0007
▁એડેપ્ટર	-11.0007
▁ગુસ્સે	-11.0007
▁સેમસંગ	-11.0007
display	-11.0007
▁સુનાવણી	-11.0007
▁વર્તુળ	-11.0007
▁પોલાણ	-11.0007
level	-11.0007
▁શકાતા	-11.0007
graph	-11.0007
▁minutes	-11.0008
▁જણાય	-11.0011
▁ડ્રગ	-11.0015
પ્રત	-11.0016
▁નબળા	-11.002
સ્લો	-11.0024
▁અંગત	-11.0031
▁લીલો	-11.0035
udan	-11.0037
▁મોજા	-11.0047
▁જાગ	-11.005
▁Cap	-11.0056
▁અવગણવા	-11.0061
▁મંજૂર	-11.0063
આશરે	-11.0064
દુકાન	-11.0064
વીડિયો	-11.0064
search	-11.0064
COM	-11.0072
▁અમલ	-11.0073
▁કૂદ	-11.0089
▁ઝાડ	-11.0096
▁વ્યક્ત	-11.0101
▁description	-11.0106
▁તપશ્ચર્યાસ્થાન	-11.0106
▁દિલ્હી	-11.0106
▁યહૂદી	-11.0106
▁અપારદર્શકતા	-11.0106
▁પ્રણાલી	-11.0106
▁લખેલું	-11.0106
▁ટોળીઓ	-11.0106
▁નહોતો	-11.0106
▁ભેગુ	-11.0106
aragua	-11.0106
▁જાળવવા	-11.0106
▁ઉઘાડ	-11.0107
▁ક્વોટ	-11.0108
▁રિયાલ	-11.0108
ચરણ	-11.0111
▁પક્ષીઓ	-11.0113
8.3	-11.0123
▁ફંડ	-11.0137
▁લેમ્પ	-11.014
▁તાણ	-11.014
▁ભોગવ	-11.0144
▁DIN	-11.0158
LTD	-11.0167
▁Gra	-11.0173
Share	-11.0179
9.95	-11.0187
berg	-11.0196
▁3.5	-11.0198
▁Part	-11.02
preset	-11.0206
▁BLOODS	-11.0206
▁EMBA	-11.0206
▁Semiconductor	-11.0206
▁World	-11.0206
▁ગેંગ્સ્ટા	-11.0206
▁ડુકાટી	-11.0206
▁દ્રાક્ષારસ	-11.0206
▁સંગ્રહપદ્ધતિ	-11.0206
▁ટેટૂપગ	-11.0206
shopify	-11.0206
▁AUD	-11.0207
▁લૂકઅપ	-11.0207
1.7	-11.0208
ough	-11.0211
▁પૂરતું	-11.0216
▁પોર્ન	-11.0217
▁who	-11.0218
5,000	-11.0223
▁ટ્રેડ	-11.024
▁Page	-11.0264
watch	-11.0272
▁અટકી	-11.0273
Trans	-11.0275
1.4	-11.0291
પ્રદ	-11.0291
ક્રિ	-11.0298
▁car	-11.0301
▁પ્રતિનિધિ	-11.0306
▁Virtual	-11.0307
▁Crochet	-11.0307
▁Technologies	-11.0307
▁ક્વિન્ગડાઓ	-11.0307
▁ટીપ્પણી	-11.0307
▁પૂંઠું	-11.0307
Australia	-11.0307
custom	-11.0307
▁LDAP	-11.0307
▁હેલ્થ	-11.0307
▁plus	-11.0307
▁શસ્ત્ર	-11.031
▁ટોર્ક	-11.0317
eky	-11.0318
wind	-11.0322
ship	-11.0322
▁પૂર્વજો	-11.0327
▁સ્ટેક	-11.0334
theme	-11.0341
▁ટોટી	-11.0344
gov	-11.0345
વિશ્વાસ	-11.0373
▁હમણા	-11.039
▁ઘટાડે	-11.0392
▁ચૂંટણી	-11.0409
▁પુરુંષ	-11.0409
▁માઇક્રોસોફ્ટ	-11.0409
▁રાઉટર	-11.0409
▁વિભાજક	-11.0409
▁વૈરાગ્ય	-11.0409
▁શણગાર	-11.0409
▁શૂરવીર	-11.0409
▁Nimki	-11.0409
▁Adress	-11.0409
▁લાકડું	-11.0409
▁આગમન	-11.0409
WHSR	-11.0409
LUO	-11.0409
▁જમણા	-11.0413
▁નિદાન	-11.0417
▁યહૂદિયા	-11.042
▁ઈચ્છતો	-11.042
▁Flight	-11.0422
ચિંત	-11.0423
▁બાઇટ	-11.0435
▁સ્વતંત્રતા	-11.0438
▁પેસો	-11.0442
HY	-11.0444
▁Back	-11.0444
▁અભિપ્રાય	-11.0456
▁વેલ્	-11.0466
-07-	-11.047
દક્ષિણ	-11.0479
ious	-11.0486
▁કુશળ	-11.0494
▁એન્જિનિયર	-11.0505
અભિવાદન	-11.0512
▁Movie	-11.0513
▁ગોઠવવા	-11.0513
Plug	-11.0515
▁બપોર	-11.0515
▁Java	-11.0516
▁બિલ્ટ	-11.0516
▁કોરિયન	-11.0517
▁ઠગ	-11.0522
▁૨૫	-11.0522
▁હલવાન	-11.0527
▁નાખ્યો	-11.0531
▁જણાવે	-11.0536
▁વધતી	-11.0538
ક્ટિવ	-11.0542
▁સંગ્રહાયેલ	-11.0554
ike	-11.0555
▁2021	-11.0566
cast	-11.0566
▁તત્વ	-11.0569
last	-11.0578
વેલેન્ટાઇન	-11.0584
base	-11.0594
િઝન	-11.0594
188	-11.0602
વડાવ	-11.0604
ક્લિક	-11.0605
યુએસ	-11.0611
Security	-11.0616
iCalImp	-11.0616
▁Generator	-11.0616
▁ત્રિજ્યા	-11.0616
▁લક્ઝરી	-11.0616
.06.2019	-11.0616
દૃષ્ટિ	-11.0616
▁Posted	-11.0616
▁અનંતજીવન	-11.0616
▁વિદાય	-11.0616
Japan	-11.0616
▁ચોકસાઈ	-11.0617
▁પાઈપ	-11.0618
▁કાપવા	-11.0618
▁ગતિશીલ	-11.0618
▁પ્રિંટ	-11.0619
▁ઉપચાર	-11.0622
▁ખોટો	-11.0624
▁ખરું	-11.0624
▁સાંભળ્યો	-11.0629
▁big	-11.063
▁ઓઇલ	-11.0633
▁ભરત	-11.0635
▁પહોંચાડવા	-11.0638
▁Bill	-11.066
▁ફેલાય	-11.0665
ull	-11.067
▁વરસ	-11.0674
tdr	-11.068
નહર	-11.0683
હાઉસ	-11.0693
west	-11.07
bot	-11.0701
south	-11.0703
▁5.5	-11.0705
▁વર્ણવ	-11.0716
▁કપડા	-11.0717
abbreviated	-11.0721
▁Germany	-11.0721
▁લંબાઇ	-11.0721
▁પૃષ્ઠભૂમિ	-11.0721
▁વનસ્પતિ	-11.0721
▁સકારાત્મક	-11.0721
▁પ્રાચીન	-11.0721
▁નારંગી	-11.0721
▁ઓળખાતો	-11.0722
▁ટાંકી	-11.0722
▁tips	-11.0722
▁સવારી	-11.0722
▁કેટલું	-11.0722
Next	-11.0722
▁તારું	-11.0733
▁spol	-11.0736
▁જોડાઇ	-11.0745
context	-11.0747
▁Comments	-11.075
જ્જ	-11.0755
▁શુભ	-11.0764
MPa	-11.0769
Sound	-11.0779
પશ્ચિમ	-11.0801
8.0	-11.0807
Calendar	-11.0828
▁તૃતીય	-11.0828
desktop	-11.0828
▁Service	-11.0828
▁હિંમત	-11.0828
▁કારખાનું	-11.0828
mission	-11.0828
▁હાયપર	-11.0828
▁પ્રદાતા	-11.0828
▁ઘોડા	-11.0828
▁event	-11.0828
▁વિતરક	-11.0829
▁રોજગાર	-11.083
શિપ	-11.084
soft	-11.0846
▁વિરોધ	-11.0846
▁આઇપી	-11.0846
▁મૂક્યા	-11.0848
▁ફિક્સ	-11.0858
▁ચાલ્યો	-11.0861
હરિ	-11.0862
▁એન્ટી	-11.0863
Total	-11.0867
▁કથા	-11.087
▁સંશોધક	-11.0879
મહત્વના	-11.0886
VDC	-11.0886
NUM	-11.0907
▁વર્ણ	-11.0909
156	-11.0916
▁હંમેશ	-11.092
▁અટકાવે	-11.0924
▁આર્કાઇવ	-11.0934
▁Bowflex	-11.0935
sweden	-11.0935
▁ઇન્જેક્ટર	-11.0935
▁એક્સેસરીઝ	-11.0935
▁એનર્જી	-11.0935
▁વૈભવી	-11.0935
▁બાઇબલ	-11.0935
▁સમાધાન	-11.0935
▁સેંકડો	-11.0935
▁website	-11.0935
▁પથારી	-11.0935
▁મેન્યુઅલ	-11.0935
▁લાકડી	-11.0936
▁વહન	-11.0936
▁અધિકૃત	-11.0936
▁ઉદ્દેશ	-11.0936
▁PHP	-11.0937
▁ઉદ્ધાર	-11.0937
▁ઘણાબધા	-11.0939
▁1.8	-11.0949
▁પગાર	-11.095
▁FTP	-11.0957
▁ટ્રીપ	-11.0969
▁Mary	-11.0991
roll	-11.0992
વાળુ	-11.0994
૯૯	-11.0999
▁exp	-11.1011
RAID	-11.1022
serv	-11.1026
blog	-11.1029
portugal	-11.1044
▁1528113	-11.1044
▁કૅમેરા	-11.1044
▁ઝાંખી	-11.1044
▁ધરપકડ	-11.1044
▁ધાર્મિક	-11.1044
▁પરાભવ	-11.1044
▁રિબેટ્સ	-11.1044
▁વિક્રેતા	-11.1044
▁વિટામિન	-11.1044
★	-11.1044
▁Holmbygden	-11.1044
▁કઠિન	-11.1044
▁થર્મલ	-11.1044
▁ભેગી	-11.1044
▁ક્વેરી	-11.1044
▁કાળજીપૂર્વક	-11.1045
▁પુનઃસંગ્રહ	-11.1046
▁ફેબ્રુ	-11.1048
▁મોલ્ડિંગ	-11.1052
▁LEE	-11.1056
▁Colle	-11.1058
▁ફોલ્ડ	-11.1059
▁ધોવા	-11.1062
▁(10)	-11.1064
ધર્મ	-11.1096
live	-11.1109
options	-11.1112
Copy	-11.1121
▁બોલ્ટ	-11.1121
ાઇઝેશન	-11.1138
▁પાસા	-11.1138
▁4.5	-11.1147
2.00	-11.1151
▁trolface	-11.1154
▁દ્રષ્ટાંતે	-11.1154
▁પ્રતિષ્ઠા	-11.1154
▁ફીચર્ડ	-11.1154
mdraid	-11.1154
▁ભરપૂર	-11.1154
▁Multi	-11.1154
▁ઑક્ટોબર	-11.1155
▁અવસ્થા	-11.1155
▁વાહક	-11.1156
▁ડ્રિલ	-11.1156
▁સ્પોટ	-11.1156
▁ડાળી	-11.1163
sky	-11.1165
▁NMP	-11.1174
▁ફરતે	-11.1188
▁One	-11.1203
▁ઉમેરાયેલ	-11.1211
▁ઓછુ	-11.125
▁2.2	-11.1252
ટેન્શન	-11.1263
≥	-11.1265
Ethiopian	-11.1265
switzerland	-11.1265
નૈતિક	-11.1265
▁Ontario	-11.1265
▁વોશિંગ	-11.1265
follow	-11.1265
▁ઇન્સ્ટન્ટ	-11.1265
▁સ્ક્રીનસેવર	-11.1265
▁ચંચળ	-11.1265
▁કાર્યસ્થળ	-11.1265
▁નીચું	-11.1265
▁માલ્ટા	-11.1265
machine	-11.1265
▁સેટિંગ્સ	-11.1265
▁અમેઝિંગ	-11.1265
▁આવતું	-11.1266
Search	-11.1266
Type	-11.1266
▁program	-11.1266
▁યુનિયન	-11.1266
.”‘	-11.1267
▁show	-11.1269
▁કાર્ડબોર્ડ	-11.127
point	-11.127
▁pool	-11.1274
▁મોલ્ડ	-11.1275
▁ગણવામાં	-11.1277
▁Face	-11.1279
▁હીટિંગ	-11.1282
LAN	-11.1287
▁પીળા	-11.1289
▁PNG	-11.129
ALL	-11.1342
▁ભણ	-11.1355
▁સરનામુ	-11.1362
3.5	-11.1371
order	-11.1372
હસે	-11.1376
▁સંસાધનો	-11.1377
Permissions	-11.1377
▁Chrome	-11.1377
▁કિસ્સાઓમાં	-11.1377
▁ગેરંટી	-11.1377
▁ફર્નિચર	-11.1377
▁ભૂંગળી	-11.1377
▁રીઝોલ્યુશન	-11.1377
▁સિન્ડ્રોમ	-11.1377
Coptic	-11.1377
default	-11.1377
▁કુંઠિત	-11.1377
▁દીકરી	-11.1377
▁generic	-11.1377
▁પ્રસ્તાવ	-11.1377
▁બેકએન્ડ	-11.1377
▁હુમલો	-11.1377
▁પડોશી	-11.1377
▁ઘોડો	-11.1377
▁સરહદ	-11.1378
▁સાંજે	-11.1378
▁બજેટ	-11.1378
▁Adder	-11.1378
▁ધીમી	-11.1378
▁TLS	-11.1378
▁ફુટ	-11.1383
▁સાવધાન	-11.1383
▁દોષિત	-11.1384
stro	-11.1388
▁બીજુ	-11.1389
▁પહોચ્યા	-11.1389
▁પ્રચાર	-11.1389
▁બિલ્ડિંગ	-11.1396
▁શર્ટ	-11.1399
zone	-11.1406
▁આપતું	-11.1424
▁તાજુ	-11.1467
Gujarati	-11.1479
સામગ્રી	-11.1479
▁Category	-11.148
▁ઇન્ટરનેશનલ	-11.1491
▁ઓટોમોટિવ	-11.1491
▁પસ્તાવો	-11.1491
▁માઈક્રોસોફ્ટ	-11.1491
▁સવિકલ્પ	-11.1491
▁સોશિયલ	-11.1491
ceania	-11.1491
▁અનિષ્ટ	-11.1491
▁દેશકાળે	-11.1491
▁ભયંકર	-11.1491
▁વેરહાઉસ	-11.1491
▁ડાબું	-11.1491
▁ઉપાસના	-11.1491
example	-11.1491
▁કોયડા	-11.1491
િર્મૂળ	-11.1491
▁પૂજા	-11.1491
▁જંતુ	-11.1491
▁ધર્માદિક	-11.1492
▁તર્યા	-11.1493
▁ચોકલેટ	-11.1493
▁અંતરાલ	-11.1493
મ્યુલેટ	-11.1495
▁સ્ટોરેજ	-11.1496
▁બગાડ	-11.1496
▁૩૮	-11.1499
▁જાળવી	-11.15
▁જાતીય	-11.1501
▁૪૫	-11.1502
દાયક	-11.1502
શુદ્ધિ	-11.1504
▁પૂર્ણાંક	-11.1506
▁૩૧	-11.1512
▁મેનેજ	-11.1569
▁play	-11.1581
ફુલ	-11.1594
જરૂરી	-11.1597
પ્રથમ	-11.1597
સમૂહ	-11.1597
▁Foundation	-11.1606
▁અશક્ય	-11.1606
▁અસત્પુરુષની	-11.1606
▁ઐતિહાસિક	-11.1606
▁કેનેડિયન	-11.1606
▁ગેલેક્સી	-11.1606
▁વિરોધાભાસ	-11.1606
▁સિરીયલ્સ	-11.1606
▁મુખ્યમંત્રી	-11.1606
▁લવચીક	-11.1606
▁વાજબી	-11.1606
▁લિયેમ	-11.1606
▁glass	-11.1606
▁સસ્તું	-11.1606
▁Clash	-11.1606
▁service	-11.1606
▁કનેક્શન	-11.1606
પોઇંટ	-11.1606
▁ભુજ	-11.1606
▁કિલોમીટર	-11.1607
▁હોલ્મ	-11.1608
▁પુરવઠોકર્તા	-11.1608
▁જાગૃતિ	-11.1609
▁૬૩	-11.1612
▁કાર્યકારી	-11.1613
▁(24-	-11.1613
▁૫૯	-11.1615
▁ખડક	-11.1619
▁સ્કેટ	-11.1622
Feng	-11.1622
▁પોલિસી	-11.1622
▁૨૨	-11.1623
burn	-11.1626
12345	-11.1628
▁દબાવવા	-11.1631
User	-11.1632
drive	-11.1641
▁ક્રોમ	-11.1675
▁પ્રોસેસ	-11.1701
medicine	-11.1722
▁ચોખ્ખ	-11.1722
ObjectClass	-11.1722
▁અનુયાયીઓ	-11.1722
▁ગુરુવાર	-11.1722
▁ટૂકડા	-11.1722
▁બ્રહ્માંડ	-11.1722
▁વાગ્યાની	-11.1722
▁સ્ટાર્ટર	-11.1722
▁કુતર્ક	-11.1722
▁વર્કશોપ	-11.1722
▁સિક્કો	-11.1722
▁અસ્વીકાર	-11.1722
second	-11.1722
એસેમ્બલ	-11.1723
▁સ્પેનિશ	-11.1723
▁આર્કાઇવ્ઝ	-11.1724
▁ક્રિકેટ	-11.1724
▁just	-11.1725
▁૩૩	-11.173
▁અનુમાન	-11.1732
▁૫૭	-11.1732
yuan	-11.1736
▁પેલેટ	-11.1745
▁Electronics	-11.1747
asi	-11.1758
રાજ્ય	-11.1761
Print	-11.1767
ngxi	-11.1769
Blockchain	-11.1836
આગામી	-11.1837
volume	-11.184
▁આત્મદર્શનનું	-11.184
▁ડિજીટલ	-11.184
▁નિર્વિકારી	-11.184
▁માહાત્મ્યજ્ઞાને	-11.184
▁પ્રીતિવાળાનું	-11.184
▁સસ્પેન્ડ	-11.184
▁સોડિયમ	-11.184
▁ફુવારો	-11.184
Password	-11.184
MIME	-11.184
▁(2012)	-11.1841
▁Guide	-11.1842
▁gedit	-11.1843
▁Super	-11.1844
▁નિશ્ચયવાળાન	-11.1848
▁અપવાદ	-11.1848
▁Job	-11.1851
▁વેચાય	-11.1854
▁sub	-11.1863
4.4	-11.1888
▁ક્રૂ	-11.1895
▁than	-11.1905
▁PRO	-11.1944
Drive	-11.195
વર્તમાન	-11.1959
જોડાણ	-11.1959
▁International	-11.1959
▁Mallari	-11.1959
▁ઉલ્લંઘન	-11.1959
▁એરોસ્પેસ	-11.1959
▁પોડકાસ્ટ	-11.1959
▁પ્રોટેક્શન	-11.1959
▁વ્યાયામ	-11.1959
churchofchrist	-11.1959
▁રિટર્ન	-11.1959
▁ગુનેગાર	-11.1959
▁નિર્માતા	-11.1959
Countdown	-11.1959
▁એવન્યુ	-11.1959
▁રિટેલ	-11.1959
▁જમણું	-11.1959
▁નૃત્ય	-11.1959
▁(1,5	-11.1959
▁પસંદીદા	-11.1959
▁ઑક્ટો	-11.196
▁ઉઠાવ	-11.196
▁પરિચિત	-11.1961
▁મનપસંદ	-11.1961
▁સુધારણા	-11.1962
Direct	-11.1963
▁ઝૂ	-11.1963
▁ઓળખાણ	-11.1964
▁Opera	-11.1965
▁ઊંચુ	-11.1966
▁કોટેડ	-11.1967
ગ્રસ્ત	-11.1975
▁મેળવનાર	-11.1998
server	-11.2005
ફિન	-11.2017
▁સપાટ	-11.2018
RES	-11.205
▁પ્રતીક	-11.206
6.3	-11.2065
▁Mozilla	-11.2079
▁Quality	-11.2079
▁Vidyavihar	-11.2079
▁નોટિલસ	-11.2079
▁પુષ્કળ	-11.2079
▁સાર્વજનિક	-11.2079
▁હાંસલ	-11.2079
▁resources	-11.2079
▁વિતરિત	-11.2079
▁ભાંગી	-11.2079
નાઇજીર	-11.208
▁Lucks	-11.208
▁micro	-11.208
▁શ્રેય	-11.208
gypt	-11.2081
▁યજમાનનામ	-11.2081
▁નિર્બળ	-11.2081
build	-11.2081
—	-11.2082
▁ઊંડાઈ	-11.2086
▁(12-	-11.2093
CAS	-11.2098
Press	-11.2121
▁શેડ	-11.2148
7.5	-11.2179
્ટિક	-11.2182
▁Aladdin	-11.2201
▁which	-11.2201
▁અસ્પષ્ટ	-11.2201
▁અહિંયા	-11.2201
▁તિમોથી	-11.2201
▁દ્રાક્ષ	-11.2201
▁દ્રાવક	-11.2201
▁યુક્રેનિયન	-11.2201
▁સામૂહિક	-11.2201
africa	-11.2201
▁બલિદાન	-11.2201
▁બાઇનરી	-11.2201
▁સમયપત્રક	-11.2201
▁રુપરેખાંકન	-11.2201
▁Person	-11.2202
▁ઋણ	-11.2202
▁ફ્રન્ટ	-11.2202
▁પુનઃસુયોજિત	-11.2202
▁એટલી	-11.2203
▁કસ્ટમાઇઝ્ડ	-11.2204
▁બારણું	-11.2204
▁ઢાંક	-11.2205
▁SSD	-11.2206
દિવસ	-11.2207
▁ઉદાસ	-11.2208
મૃત	-11.2228
▁કલમ	-11.2239
▁ક્લાસિક	-11.224
motion	-11.224
▁કર્મચારી	-11.2244
\\	-11.2245
▁5.0	-11.2256
ઉપદેશક	-11.2258
albania	-11.2325
▁Hielscher	-11.2325
▁Internet	-11.2325
▁ઓપરેટર	-11.2325
▁કીમૅપ	-11.2325
▁ગેલ્વેનાઈઝ્ડ	-11.2325
▁થમ્બનેઈલ	-11.2325
▁પરબિડીયું	-11.2325
▁બાસ્કેટ	-11.2325
▁વિક્ષેપ	-11.2325
▁સસ્પેન્શન	-11.2325
▁સ્વીડિશ	-11.2325
▁વાનગીઓ	-11.2325
▁વેટિકન	-11.2325
▁નીચલા	-11.2325
▁તલવાર	-11.2325
▁સાયકલ	-11.2325
Device	-11.2325
▁સમિતિ	-11.2325
▁ઑડિઓ	-11.2326
▁ઉલટાવો	-11.2328
▁અનુરૂપ	-11.2328
▁મોનીટરીંગ	-11.2328
▁ડ્યુઅલ	-11.2329
▁વોલેટ	-11.233
white	-11.233
▁કેન્યા	-11.233
▁સ્પ્રે	-11.233
▁દસ્તાવેજીકરણ	-11.2332
▁ટોટલ	-11.2332
▁મિસ્ટર	-11.2339
▁make	-11.2342
▁જરુર	-11.2343
▁ભૂતકાળ	-11.2367
▁હરાવ	-11.2367
▁Host	-11.237
2.6	-11.2373
્ટોન	-11.2384
create	-11.2396
▁મોનીટર	-11.2447
▁સંભવ	-11.2447
position	-11.245
dictionary	-11.245
▁એકાગ્રતા	-11.245
▁એક્સટેન્સન	-11.245
▁એડજસ્ટેબલ	-11.245
▁ટ્રાન્સમિશન	-11.245
▁તાત્કાલિક	-11.245
▁નેપોમુક	-11.245
▁પાકિસ્તાન	-11.245
▁પાશ્ર્વભાગ	-11.245
▁બુદ્ધિશાળી	-11.245
▁રીપબ્લિક	-11.245
▁સિંગાપુર	-11.245
▁સૌંદર્ય	-11.245
▁TRUE	-11.245
▁ઈસ્રાએલ	-11.245
▁વેલ્ડીંગ	-11.245
▁શોધખોળ	-11.245
▁હટર્ઝ	-11.245
language	-11.245
▁FREE	-11.245
▁વાચકો	-11.245
▁સંજોગો	-11.245
▁Spain	-11.245
▁ધ્વજ	-11.245
▁કસિનો	-11.245
▁જમણો	-11.2451
▁આખું	-11.2451
▁છેવટે	-11.2452
power	-11.2453
▁સુરત	-11.2454
Clean	-11.2455
▁ટાળ	-11.2456
▁Poly	-11.2458
નિષ્ક્રિય	-11.2462
»	-11.2462
▁માનીએ	-11.2464
ચાર્જ	-11.2464
માર્ગદર્શિકાઓમાં	-11.2467
▁મુદ્દા	-11.2538
download	-11.2576
cuador	-11.2576
function	-11.2576
generateur	-11.2576
▁Mukhiya	-11.2576
▁iPod	-11.2576
▁અસંખ્ય	-11.2576
▁રેસ્ટોરન્ટ	-11.2576
▁વરિષ્ઠ	-11.2576
▁webtalk	-11.2576
▁શ્રીહરિની	-11.2576
▁એલએલસી	-11.2576
▁સજાવટ	-11.2576
SCCM	-11.2577
▁પેટ્રોલ	-11.2577
▁આઘાત	-11.2577
sitemap	-11.2577
▁અલ્ટ્રા	-11.2578
▁છાયા	-11.2578
▁પ્લેબેક	-11.2578
triche	-11.258
Center	-11.2581
લક્ષી	-11.2582
▁સેક્ટર	-11.2586
મુખી	-11.2587
▁ટેમ્પ	-11.2588
▁આઇલેન્ડ	-11.2588
વૈકલ્પિક	-11.2591
વિજ્ઞાન	-11.2597
્‍ય	-11.2621
Hosting	-11.2627
▁ભોગ	-11.2657
8.5	-11.2662
▁પદચ્છેદ	-11.2674
▁du	-11.2674
▁પિલાત	-11.2682
▁ચોકઠા	-11.2688
▁Tai	-11.2697
▁Adobe	-11.2705
▁University	-11.2705
▁ખિસ્સા	-11.2705
▁પાસફ્રેઝ	-11.2705
▁ફાર્માસ્યુટિકલ	-11.2705
▁લૂટારા	-11.2705
▁ITIL	-11.2705
▁અભિયાન	-11.2705
▁આંધળા	-11.2705
▁લીધું	-11.2705
▁વંશીય	-11.2705
piece	-11.2705
ongolia	-11.2705
jpg	-11.2705
Russia	-11.2705
▁વિંડો	-11.2705
▁બનવું	-11.2705
▁ભાગ્યે	-11.2706
▁GIF	-11.2706
▁વકીલ	-11.2706
▁યોગદાન	-11.2706
▁ગુલાબી	-11.2707
▁ચુંબકીય	-11.2708
▁સલામ	-11.2793
Advanced	-11.2835
▁Giveaway	-11.2835
▁sinlonglass	-11.2835
▁uuid	-11.2835
▁ઉડ્ડયન	-11.2835
▁કેલ્ક્યુલેટર	-11.2835
▁ચહેરો	-11.2835
▁પબ્લિક	-11.2835
▁ફર્મવેર	-11.2835
▁વિરાજમાન	-11.2835
▁સાંસ્કૃતિક	-11.2835
▁સ્થાયી	-11.2835
▁મીઠું	-11.2835
▁જલ્દી	-11.2835
▁ડ્રોઅર	-11.2835
▁વેબકેમ	-11.2835
europe	-11.2835
▁ટ્રાયલ	-11.2835
▁copy	-11.2835
▁સીધો	-11.2835
▁ખુલ્લી	-11.2835
▁જથ્થાબંધ	-11.2835
▁રસીદ	-11.2835
▁ELY	-11.2835
▁ઉત્સવ	-11.2835
▁મજૂર	-11.2836
▁પહાડ	-11.2836
▁એક્સટેન્શન	-11.2836
▁ટેન્ક	-11.2839
▁કપાસ	-11.284
▁ટોગલ	-11.284
▁રેંજ	-11.2845
▁rich	-11.2846
ફ્ટવેર	-11.2956
▁7.5	-11.2962
Gilks	-11.2966
aribbean	-11.2966
▁Apple	-11.2966
▁Empathy	-11.2966
▁JPEG	-11.2966
▁SOCKS	-11.2966
▁ક્લાઇન્ટ	-11.2966
▁સ્ટુડિયો	-11.2966
▁સ્ફટિક	-11.2966
▁તાઇવાન	-11.2966
▁ટુકડો	-11.2966
▁સૂચકાંકો	-11.2966
▁કરુણા	-11.2966
▁દબાયેલ	-11.2966
▁સમકક્ષ	-11.2966
▁શ્વેત	-11.2966
▁સ્ટીકી	-11.2966
▁સબમિટ	-11.2967
▁સિલાસ	-11.2968
▁સરખી	-11.2969
▁સોલિડ	-11.2969
▁MOQ	-11.2969
▁SMS	-11.297
▁4.2	-11.2975
▁બોલાવી	-11.2976
▁પુનઃતાજ	-11.298
▁2019-03-	-11.2988
છેલ્લા	-11.2993
▁Piece	-11.302
▁ચમક	-11.3039
ngzhou	-11.3057
chess	-11.3093
▁રુપરેખા	-11.3099
▁first	-11.3099
▁inlistbox	-11.3099
▁અસાધારણ	-11.3099
▁અસિસ્ટન્ટ	-11.3099
▁જાંબલી	-11.3099
▁વચનામૃત	-11.3099
▁Spins	-11.3099
▁પ્લાઝમા	-11.3099
▁ફાયદો	-11.3099
uploads	-11.3099
▁વોરંટી	-11.3099
▁એમ્બેડ	-11.3099
▁લિઆંગ	-11.3099
▁ભિન્ન	-11.3099
▁ધંધા	-11.31
▁સાઉથ	-11.31
north	-11.31
▁શોધાયુ	-11.31
▁મંગળવાર	-11.3101
▁ગ્રીસ	-11.3101
device	-11.3102
▁સવાલ	-11.3104
▁લિફ્ટ	-11.3105
▁ખર્ચાળ	-11.3105
write	-11.3124
▁કોડેક	-11.3137
વચન	-11.3165
ept	-11.3176
▁લશ્કર	-11.3215
▁ક્લાઉડ	-11.3235
▁છિદ્ર	-11.3235
dynamic	-11.3235
▁cheats	-11.3235
▁iPhone	-11.3235
▁અનમાઉન્ટ	-11.3235
▁ઊભું	-11.3235
▁ગ્રેસ્કેલ	-11.3235
▁ત્રિકોણ	-11.3235
▁ફાઇનાન્સ	-11.3235
▁બેઇજિંગ	-11.3235
▁રોજિંદા	-11.3235
▁હરિભક્ત	-11.3235
▁કમ્પોઝ	-11.3235
▁લડાઈ	-11.3235
norway	-11.3235
▁David	-11.3235
▁લિયાંગ	-11.3235
▁વિઝીટ	-11.3235
▁સાન્તા	-11.3235
▁24/7	-11.3235
▁આરામદાયક	-11.3235
▁વાસણ	-11.3235
CategoryName	-11.3248
1-0	-11.3273
▁સ્કોટ	-11.3351
▁જથ્થા	-11.3371
▁Office	-11.3372
▁કાઉન્સિલ	-11.3372
▁પ્રોટોટાઇપ	-11.3372
▁મતભેદ	-11.3372
▁ભયાનક	-11.3372
▁રેલ્વે	-11.3372
▁ઉત્તેજન	-11.3372
▁બોલાવ્યા	-11.3372
▁ભાવનાત્મક	-11.3372
▁તકલીફ	-11.3372
▁ડાયરેક્ટ	-11.3372
▁ધનવાન	-11.3372
▁કારણોસર	-11.3372
ville	-11.3372
▁ગાળણ	-11.3372
▁આવરણ	-11.3373
▁Single	-11.3373
▁True	-11.3375
▁પૂર્તિ	-11.3375
▁know	-11.3375
▁Plane	-11.3377
engal	-11.3395
object	-11.3408
બદલ	-11.3419
▁દ્વાર	-11.3498
▁પુનઃશરૂ	-11.351
minute	-11.351
▁February	-11.351
▁episode	-11.351
▁teething	-11.351
▁આરક્ષિત	-11.351
▁ચુંબન	-11.351
▁મોટરસાઇકલ	-11.351
▁લહેરિયું	-11.351
▁'{0}'	-11.351
▁Fruity	-11.351
▁કેલિફોર્નિયા	-11.351
▁સમારકામ	-11.351
▁ઇન્ડસ્ટ્રી	-11.351
▁દેખીતી	-11.351
▁કૂતરો	-11.351
▁બલ્બ	-11.351
▁ઉનાળા	-11.3511
▁ડ્રીમ	-11.3511
▁સ્વેપ	-11.3511
config	-11.3511
▁HMC	-11.3512
▁હંકાર	-11.3513
▁દિવ્ય	-11.3513
▁string	-11.3514
4.99	-11.3514
▁તાળા	-11.3515
▁જાઉં	-11.3516
વ્યાખ્યાયિત	-11.3551
Casino	-11.3551
gujarat	-11.3561
▁ક્લાસ	-11.3608
▁Antivirus	-11.3651
▁આત્યંતિક	-11.3651
▁કમ્પ્રેસર	-11.3651
▁કોંક્રિટ	-11.3651
▁ઘોંઘાટ	-11.3651
▁પાસફ્રેજ	-11.3651
▁પુનઃપ્રાપ્તિ	-11.3651
▁બ્રોડબેન્ડ	-11.3651
▁શિબિર	-11.3651
process	-11.3651
▁April	-11.3651
▁ઘંટડી	-11.3651
▁France	-11.3651
▁નહોતું	-11.3651
▁રિસર્ચ	-11.3651
▁હેબઈ	-11.3651
▁Rental	-11.3651
▁એસઇઓ	-11.3651
▁શબ્દકોશ	-11.3652
▁સંસ્કાર	-11.3652
Hello	-11.3652
▁નમ્ર	-11.3652
▁ડૉક્ટર	-11.3652
▁સોનેરી	-11.3652
▁જડિત	-11.3652
▁2010-2019	-11.3653
▁SMD	-11.3654
▁Plus	-11.3654
Click	-11.3654
▁ઘટ્ટ	-11.3655
▁મદદનીશ	-11.3656
▁તેટલી	-11.3656
▁ઉપાડ	-11.3663
સ્વામી	-11.3696
safe	-11.3703
▁ઇરાન	-11.3712
filter	-11.3716
▁Qua	-11.3758
Message	-11.3794
▁Lesson	-11.3794
▁casino	-11.3794
▁અકસ્માત	-11.3794
▁આબોહવા	-11.3794
▁એડહેસિવ	-11.3794
▁ટ્યુટોરિયલ	-11.3794
▁પાયથોન	-11.3794
▁પોલિએસ્ટર	-11.3794
▁પ્રત્યક્ષ	-11.3794
▁લાજરસ	-11.3794
▁વાસ્તવમાં	-11.3794
Screen	-11.3794
▁એનીમેશન	-11.3794
▁કસોટી	-11.3794
▁હરાજી	-11.3794
▁અવાહક	-11.3794
pilot	-11.3794
▁વધારાનું	-11.3794
▁વૉલેટ	-11.3794
special	-11.3794
▁એન્ડ્રોઇડ	-11.3794
▁South	-11.3794
▁ધરવામાં	-11.3794
▁વરાળ	-11.3794
▁તળાવ	-11.3795
▁જલદી	-11.3795
▁જર્નલ	-11.3795
▁ટપક	-11.3795
ન્દ	-11.3796
▁એટલો	-11.3796
▁ઑફિસ	-11.3797
house	-11.3797
▁પોરિસ	-11.3798
▁મેઈલબોક્સ	-11.3798
દાસજી	-11.3799
▁નિયત	-11.38
direct	-11.3806
▁35.5	-11.3806
▁બ્રાઝિલ	-11.393
▁information	-11.3939
▁અડધેથી	-11.3939
▁કમ્પાઇલ	-11.3939
▁પ્રાદેશિક	-11.3939
▁વિખ્યાત	-11.3939
▁સત્તાધિકાર	-11.3939
▁માર્ટિન	-11.3939
▁ભાષણ	-11.3939
▁શંકુ	-11.3939
length	-11.3939
▁Skype	-11.3939
▁શ્લોક	-11.3939
▁MAPI	-11.3939
▁કબૂલ	-11.3939
session	-11.3939
▁પરસ્પર	-11.394
▁દેખાતી	-11.394
▁બર્લિન	-11.394
Server	-11.3942
photo	-11.3945
▁મેગ્નેટ	-11.3954
5.6	-11.396
Self	-11.3961
મોટું	-11.3992
MSN	-11.3996
પ્રસ	-11.3998
0.9	-11.4049
▁5.9	-11.4055
▁કાયદેસર	-11.4086
Desktop	-11.4086
application	-11.4086
▁JavaScript	-11.4086
▁blockchain	-11.4086
▁અંતર્ગત	-11.4086
▁એએસટીએમ	-11.4086
▁એલિવેટર	-11.4086
▁પ્રદૂષણ	-11.4086
▁રેશિયો	-11.4086
▁સપ્લિમેન્ટ	-11.4086
▁ડિટેક્ટર	-11.4086
▁બગીચા	-11.4086
▁ડ્રામા	-11.4086
result	-11.4086
wysluxury	-11.4086
▁પરિણમે	-11.4086
▁ગાંધી	-11.4086
URAL	-11.4086
▁દેખાતા	-11.4086
▁સસ્તી	-11.4086
▁નંખાયેલ	-11.4086
▁every	-11.4087
▁મુદ્રા	-11.4087
atvia	-11.4087
▁વિધવા	-11.4088
▁બુલિયન	-11.4088
▁Chali	-11.4088
▁ચેમ્બર	-11.4088
▁અમલદાર	-11.4088
folder	-11.4088
▁ટ્વિટર	-11.409
▁સ્ટોપ	-11.4094
7.1	-11.4096
9.9	-11.4098
Info	-11.4109
▁સમાવતુ	-11.4174
000000	-11.421
▁Sonotrode	-11.4235
▁આફિક્રા	-11.4235
▁ક્રાફ્ટ	-11.4235
▁નેતૃત્વ	-11.4235
▁રુપરેખાંકિત	-11.4235
▁શાકભાજી	-11.4235
▁સર્પાકાર	-11.4235
▁★★★★★	-11.4235
▁આયોજક	-11.4235
▁મોબાઈલ	-11.4235
▁સુગંધ	-11.4235
▁ઓટોમેશન	-11.4235
▁દ્રષ્ટિકોણ	-11.4235
▁સાઉદી	-11.4235
GUAN	-11.4235
▁સીધું	-11.4235
▁ઓળંગ	-11.4235
▁લીંબુ	-11.4236
▁Green	-11.4236
વૃતિ	-11.4236
smart	-11.4236
▁રજિસ્ટર્ડ	-11.4236
▁કાર્ટૂન	-11.4236
▁તેટલું	-11.4236
▁છોકરો	-11.4237
ified	-11.4238
મંદિર	-11.4298
▁ડિરેક્ટર	-11.43
▁ટુકડા	-11.4347
▁પરંપરા	-11.4387
▁ઇલેક્ટ્રો	-11.4387
▁COSME	-11.4387
▁GUJARATI	-11.4387
▁YACAI	-11.4387
▁ઇન્કવાયરી	-11.4387
▁ઝુંબેશ	-11.4387
▁સ્કૂટર	-11.4387
▁શરણાર્થી	-11.4387
▁direction	-11.4387
▁વેક્યુમ	-11.4387
▁ફૂગ	-11.4387
▁False	-11.4387
request	-11.4387
▁Accessed	-11.4387
▁વિકાસકર્તાઓ	-11.4387
▁પીટીઓ	-11.4387
▁ટ્રેડમાર્ક	-11.4387
▁આંકડાકીય	-11.4388
▁Website	-11.4388
▁ક્રીમ	-11.4388
▁વિવેક	-11.439
▁દેખાતુ	-11.4392
burg	-11.4392
font	-11.44
spect	-11.4411
શબ્દ	-11.4454
પ્રદેશ	-11.4455
SOP	-11.4464
(33)	-11.4479
gsm	-11.4489
DVD	-11.4533
▁Archiv	-11.4537
ability	-11.4541
▁Clickfunnels	-11.4541
▁Dariussssss	-11.4541
▁LEANPORN	-11.4541
▁Roulette	-11.4541
▁અથડામણ	-11.4541
▁આફ્રિકન	-11.4541
▁આર્કિટેક્ચર	-11.4541
▁ઇજનેરો	-11.4541
▁એસિટેટ	-11.4541
▁એસોસિયેશન	-11.4541
▁ઑપ્ટિમાઇઝ	-11.4541
▁કોન્ફરન્સ	-11.4541
▁ચાઇનિઝ	-11.4541
▁પરમેશ્વર	-11.4541
▁માહાત્મ્ય	-11.4541
▁મુંબઈ	-11.4541
▁રમકડાં	-11.4541
ગર્ભાવસ્થા	-11.4541
ન્ફ્રાસ્ટ્રક્ચર	-11.4541
▁before	-11.4541
▁નેધરલેન્ડ	-11.4541
▁સભ્યપદ	-11.4541
▁શુદ્ધિકરણ	-11.4541
▁vCard	-11.4541
▁રાજધાની	-11.4541
▁સંભળા	-11.4541
▁નોઝલ	-11.4541
▁Rights	-11.4541
▁KTM	-11.4541
ethyl	-11.4542
ology	-11.4545
▁દબાવ	-11.4549
રક્ષા	-11.4551
ન્ઝા	-11.4556
ુષ્	-11.4558
ાધિકાર	-11.4582
સુયોજન	-11.4613
સ્ક્રિપ્ટ	-11.4613
બંધારણ	-11.4613
એટલે	-11.4613
▁ખેડૂત	-11.4641
Disc	-11.4644
▁પ્રબોધ	-11.4648
વ્યવસ્થા	-11.4652
▁2.9	-11.4677
deposit	-11.4697
distribute	-11.4697
germany	-11.4697
guatemala	-11.4697
પ્રાયોજકો	-11.4697
લ્ગોરિધમ	-11.4697
▁Published	-11.4697
▁Yahoo	-11.4697
▁receive	-11.4697
▁ડીટેક્ટર	-11.4697
▁ડ્રાફ્ટ	-11.4697
▁સ્વયંસેવક	-11.4697
▁ફૂંકા	-11.4697
▁વફાદાર	-11.4697
▁વિસ્ફોટ	-11.4697
Switch	-11.4697
▁Stories	-11.4697
▁પુનરાવર્તિત	-11.4697
▁બેલેન્સ	-11.4697
▁વિખેર	-11.4697
▁હળવા	-11.4697
screen	-11.4697
▁ઉછેર	-11.4697
▁Social	-11.4698
▁ચેકઆઉટ	-11.4699
▁કીર્તન	-11.47
stonia	-11.4703
film	-11.4705
▁ઉંચા	-11.4715
઼	-11.4724
Today	-11.4735
પારદર્શક	-11.4774
▁Alberta	-11.4856
▁Converter	-11.4856
▁September	-11.4856
▁Ukraine	-11.4856
▁કાલ્પનિક	-11.4856
▁જેતલપુર	-11.4856
▁નિર્ણાયક	-11.4856
▁પેસિફિક	-11.4856
▁પ્રેક્ટિસ	-11.4856
▁મનોરંજક	-11.4856
▁વિરુંદ્ધ	-11.4856
▁સ્વાભાવિક	-11.4856
cryptocurrencies	-11.4856
▁America	-11.4856
▁ઇન્ડોનેશિયા	-11.4856
▁ઓપ્ટિમાઇઝેશન	-11.4856
▁તુરંત	-11.4856
▁Coinbase	-11.4856
▁ઈર્ષ્યા	-11.4856
▁દુબઇ	-11.4856
▁બ્રાઝીલ	-11.4856
▁સમજાયું	-11.4856
▁પુરસ્કાર	-11.4856
▁પાછલા	-11.4856
▁જીલ્લો	-11.4856
▁આપત્તિ	-11.4856
▁પુરાવા	-11.4856
▁9600)	-11.4856
▁Talk	-11.4856
▁બડાઈ	-11.4856
▁મુગટ	-11.4856
▁પ્રયોગશાળા	-11.4856
location	-11.4857
Design	-11.4857
▁વરખ	-11.4858
▁સ્ટેજ	-11.4858
Title	-11.4859
-08-20	-11.4893
▁આરોપ	-11.49
સ્થિતિ	-11.4904
GTK	-11.4938
ગઢડા	-11.4938
ોગ્રાફી	-11.5006
▁Remote	-11.5017
▁ઇન્ટેલિજન્સ	-11.5017
▁ચળવળ	-11.5017
▁જૈવિક	-11.5017
▁મ્યુનિસિપલ	-11.5017
▁વાણિજ્ય	-11.5017
▁હવાઈમથક	-11.5017
▁સિલ્વર	-11.5017
▁ગુણાકાર	-11.5017
▁શિર્ષક	-11.5017
▁સ્પોર્ટ્સ	-11.5017
▁રસોડું	-11.5017
▁નિવારણ	-11.5017
▁SMART	-11.5017
▁ધમકી	-11.5017
▁સીએનસી	-11.5017
▁Smut	-11.5017
▁ઠંડુ	-11.5017
▁બંગાળ	-11.5017
xBet	-11.5017
address	-11.5018
▁zea	-11.5019
▁રત્ન	-11.5024
IFF	-11.5026
મૂલ્ય	-11.5102
વિષય	-11.5105
ફોલ્ડર	-11.5105
▁Crea	-11.5157
▁એન્ડ્ર	-11.5158
@163.	-11.5181
▁Ekiga	-11.5181
▁Episode	-11.5181
▁mosaic	-11.5181
▁પોર્ટફોલિયો	-11.5181
▁પ્રશ્ર્ન	-11.5181
▁શરુંઆત	-11.5181
▁સુશોભન	-11.5181
▁હિન્દી	-11.5181
▁હિસ્સો	-11.5181
▁નિદર્શન	-11.5181
▁સરનામાપોથી	-11.5181
linux	-11.5181
youtube	-11.5181
▁Ultra	-11.5181
▁હોલસેલ	-11.5181
field	-11.5181
▁HDPE	-11.5181
▁ઉદય	-11.5181
▁માથું	-11.5181
▁hours	-11.5181
▁રોટરી	-11.5181
▁જોડાશે	-11.5181
Config	-11.5181
▁તકરાર	-11.5182
▁પરિભ્રમણ	-11.5182
body	-11.5182
▁ક્વિઝ	-11.5182
▁અવગુણ	-11.5182
▁આતુર	-11.5183
scape	-11.5196
▁product	-11.5207
China	-11.5274
benchmark	-11.5348
azakhstan	-11.5348
rgentina	-11.5348
▁British	-11.5348
▁Reserved	-11.5348
▁Ultrasonics	-11.5348
▁XDMCP	-11.5348
▁discuss	-11.5348
▁tooltip	-11.5348
▁ઝ્હેન	-11.5348
▁મધ્યાહ્ન	-11.5348
▁વાંધો	-11.5348
▁બઢતી	-11.5348
▁Javascript	-11.5348
▁જામીન	-11.5348
▁રિવર્સ	-11.5348
▁Water	-11.5348
▁GWA	-11.5349
▁લગાડ	-11.535
ragon	-11.5353
project	-11.5399
Temp	-11.5408
ચોકઠાંઓ	-11.5446
▁વડીલ	-11.5467
▁ડઝન	-11.5487
▁નિશાન	-11.5516
libvirt	-11.5517
▁Metatrader	-11.5517
▁Python	-11.5517
▁ઉત્પાદિત	-11.5517
▁જિઆંગસુમાં	-11.5517
▁વાંસળી	-11.5517
▁valentine	-11.5517
▁અનિવાર્ય	-11.5517
▁અફસોસ	-11.5517
▁કમ્પ્યુટિંગ	-11.5517
▁નામંજૂર	-11.5517
▁કેબિનેટ	-11.5517
▁પૈસો	-11.5517
▁વીમાદાતા	-11.5517
▁સહુથી	-11.5517
▁NZD	-11.5517
▁શ્યામ	-11.5517
▁Down	-11.5517
▁કાંટા	-11.5518
▁નિકાલ	-11.5518
strict	-11.5518
▁Hols	-11.5518
▁આધીન	-11.5518
▁બદલનાર	-11.552
▁મેટ્રિક	-11.552
Pieces	-11.5619
વપરાશકર્તા	-11.5622
HAN	-11.5657
▁સાવધ	-11.568
▁જ્યોત	-11.5686
ટ્વીટ	-11.5687
▁Inverter	-11.5689
▁Royale	-11.5689
▁Welcome	-11.5689
▁અદૃશ્ય	-11.5689
▁અસ્થાયી	-11.5689
▁ઇમિગ્રન્ટ્સ	-11.5689
▁કમનસીબે	-11.5689
▁છૂટાછેડા	-11.5689
▁ઝખાર્યા	-11.5689
▁ટેસ્ટોસ્ટેરોન	-11.5689
▁ધારાવાહિક	-11.5689
▁પ્રામાણિક	-11.5689
▁ફેકલ્ટી	-11.5689
▁વસવાટ	-11.5689
▁વાસ્તુ	-11.5689
▁સિગ્નલ	-11.5689
▁સ્વીડન	-11.5689
▁protected	-11.569
▁કોમ્પ્રેસર	-11.569
▁ઝાંખુ	-11.569
▁તૂટેલ	-11.569
▁પૂંછડી	-11.569
▁વર્જિન	-11.569
▁વીપીએન	-11.569
alaysia	-11.569
▁IFFCO	-11.569
▁ઇન્સ્યુલેશન	-11.569
▁સેમ્યુઅલ	-11.569
▁સ્તેફન	-11.569
brushes	-11.569
▁રેખીય	-11.569
▁Gnome	-11.569
▁અભિમાન	-11.569
▁સ્વીકૃતિ	-11.569
▁રસ્તે	-11.569
▁provide	-11.569
▁આમંત્રિત	-11.569
▁બ્લૉગ	-11.569
▁Music	-11.569
▁ન્યૂઝલેટર	-11.569
▁અંત્યોખ	-11.569
▁ટ્રૅક	-11.569
▁PGP	-11.569
▁સ્નેપ	-11.5691
jamai	-11.571
▁શિયાળ	-11.5714
connect	-11.5776
ભગવાન	-11.58
greece	-11.58
જીએસટી	-11.58
બ્રહ્મ	-11.58
ચકાસણી	-11.5801
માહિતી	-11.5801
patterns	-11.5865
▁Banshee	-11.5865
▁Manager	-11.5865
▁આંશિક	-11.5865
▁કન્ટેઈનર	-11.5865
▁કારોબારી	-11.5865
▁તાજેતરનું	-11.5865
▁દશાંશ	-11.5865
▁ન્યાયાધીશ	-11.5865
▁પ્રાયોગિક	-11.5865
▁મૌખિક	-11.5865
▁સ્વાદિષ્ટ	-11.5865
EMAIL	-11.5865
transposh	-11.5865
▁ફાઈબર	-11.5865
▁સગવડ	-11.5865
▁હાઇલાઇટ્સ	-11.5865
▁સર્વોચ્ચ	-11.5865
▁સ્પ્રિંગ	-11.5865
▁ડિપ્લોમા	-11.5865
▁ઇંધણ	-11.5865
▁સ્પીકર	-11.5865
▁પાંદડા	-11.5865
▁અજગર	-11.5865
▁આઇઓએસ	-11.5865
▁ireland	-11.5865
▁નાનુમોટુ	-11.5865
▁સ્મરણ	-11.5865
▁વિચારધારા	-11.5865
▁csgo	-11.5865
▁કિનારે	-11.5865
▁કર્નલ	-11.5865
▁ઑર્ડર	-11.5866
FILE	-11.5866
▁FOR	-11.5866
eorgia	-11.5866
▁છાંટ	-11.5867
▁લટક	-11.5902
Model	-11.5945
Soft	-11.5969
ખ્રિસ્ત	-11.5982
Read	-11.5984
વ્રત	-11.5988
public	-11.6042
ભ્રમણ	-11.6043
universal	-11.6044
▁Browser	-11.6044
▁Columbia	-11.6044
▁DIODE	-11.6044
▁Quebec	-11.6044
▁equina	-11.6044
▁stepper	-11.6044
▁પીટીએફઇ	-11.6044
▁પુરૂષ	-11.6044
▁પેટાકંપની	-11.6044
▁પ્રભાવશાળી	-11.6044
▁પ્રોફેશનલ	-11.6044
▁ફ્રાન્ક	-11.6044
▁બેન્ચમાર્ક	-11.6044
▁સંપાદિત	-11.6044
▁સ્થગિત	-11.6044
▁અગિયાર	-11.6044
▁મકદોનિયા	-11.6044
▁Pocket	-11.6044
▁બળતણ	-11.6044
▁પેટ્રિક	-11.6044
▁also	-11.6044
▁અમેરિકી	-11.6044
▁એનાલોગ	-11.6044
▁પેહલા	-11.6044
:$1_	-11.6044
▁નિવેદન	-11.6045
Sync	-11.6046
▁ભેળ	-11.6058
Connect	-11.61
button	-11.6167
મેગ્નેટિક	-11.6207
▁પહોચ	-11.6208
script	-11.6225
Object	-11.6225
▁Guzzi	-11.6225
▁ethereum	-11.6225
▁license	-11.6225
▁mediawiki	-11.6225
▁અનલૉક	-11.6225
▁અલગોરિધમ	-11.6225
▁આરએન્ડડી	-11.6225
▁ઇન્સ્ટિટ્યૂટ	-11.6225
▁કિંગડમ	-11.6225
▁કીબાઈન્ડીં	-11.6225
▁કોમોડિટી	-11.6225
▁છાજલીઓ	-11.6225
▁તહેવાર	-11.6225
▁થોભો	-11.6225
▁પોર્ટુગલ	-11.6225
▁પ્રતિનિધી	-11.6225
▁પ્રસિદ્ધ	-11.6225
▁પ્રાપ્યતા	-11.6225
▁પ્રોમ્પ્ટ	-11.6225
▁મ્યુઝીક	-11.6225
▁હિન્દુ	-11.6225
▁નિમંત્રણ	-11.6225
▁સંપ્રદાય	-11.6225
▁સ્થિતિસ્થાપક	-11.6225
▁ભઠ્ઠી	-11.6225
▁વણાટ	-11.6225
▁Class	-11.6225
▁તત્ત્વ	-11.6225
▁હુમલા	-11.6225
▁ચોપડી	-11.6225
Location	-11.6225
▁ફાજલ	-11.6226
▁Train	-11.6226
▁અવલોકન	-11.6226
▁વિશિષ્ટતાઓ	-11.6226
▁ડીઝલ	-11.6226
▁કાર્ટુન	-11.6227
eason	-11.6237
“	-11.6356
Access	-11.641
▁RedeLin	-11.641
સ્ક્રિપ્શન	-11.6411
▁86-574-8	-11.6411
▁Bepanh	-11.6411
▁Roselle	-11.6411
▁ensembles	-11.6411
▁આયુર્વેદ	-11.6411
▁ઈન્જેક્શન	-11.6411
▁એક્સ્ટેંશન	-11.6411
▁એરિઝોના	-11.6411
▁કન્વેયર	-11.6411
▁પીટર્સબર્ગ	-11.6411
▁ભયભીત	-11.6411
▁રજીસ્ટ્રેશન	-11.6411
▁વિયેતનામ	-11.6411
▁હાંસિયા	-11.6411
▁હારમાળા	-11.6411
▁એટલાન્ટિક	-11.6411
▁ચેલ્સિયા	-11.6411
▁સ્ક્રૂ	-11.6411
▁સ્પોન્જ	-11.6411
saveatrain	-11.6411
▁સીબીડી	-11.6411
SIZE	-11.6411
મેઇનલેન્ડ	-11.6411
▁ડિવાઇસ	-11.6411
▁FAQ	-11.6411
▁રક્ષક	-11.6411
txt	-11.6425
▁ઉજવ	-11.6429
Step	-11.6449
plain	-11.6496
Write	-11.6515
સક્રિય	-11.6538
▁મમ્મી	-11.6586
▁રજિસ્ટર	-11.6598
▁વિદ્યુત	-11.6599
/01/2020	-11.6599
▁London	-11.6599
▁Pacific	-11.6599
▁Scratch	-11.6599
▁qemu	-11.6599
▁rsquo	-11.6599
▁આગ્રહણીય	-11.6599
▁ઇન્ટરવ્યૂ	-11.6599
▁ઉદભવ	-11.6599
▁ઑસ્ટ્રેલિયન	-11.6599
▁ફોર્કલિફ્ટ	-11.6599
▁રંગબેરંગી	-11.6599
▁રિસાયકલ	-11.6599
▁વડોદરા	-11.6599
▁હુઇઝોઉ	-11.6599
વિસંગતિ	-11.6599
▁CSGO	-11.6599
▁દુર્લભ	-11.6599
▁નિરૂપણ	-11.6599
▁પીસવાની	-11.6599
onfigmgr	-11.6599
વિનિયમો	-11.6599
▁એંજિન	-11.6599
▁બાકાત	-11.6599
▁કમાણી	-11.6599
▁એનિમેટ	-11.6599
▁ચક્રવાત	-11.6599
gconf	-11.6599
▁સીરીઝ	-11.6599
▁મચ્છર	-11.6599
▁કાર્તિક	-11.66
પરિધાન	-11.66
▁પ્રમાદ	-11.6604
▁જાગૃત	-11.6605
જગ્યા	-11.6745
ઉત્તર	-11.6746
▁account	-11.6791
▁અનિચ્છનિય	-11.6791
▁ડિસ્ટ્રિક્ટ	-11.6791
▁ફિટનેસરેબેટ્સ	-11.6791
▁અનુલક્ષીને	-11.6792
▁અસ્થિર	-11.6792
▁ડૅસ્કટોપ	-11.6792
▁પંજાબ	-11.6792
▁પાયલોટ	-11.6792
▁ફ્લોરિડા	-11.6792
▁મધમાખી	-11.6792
▁જાહેરખબર	-11.6792
▁બંધબેસાડો	-11.6792
▁રોબર્ટ	-11.6792
▁વિમુખ	-11.6792
▁Delhi	-11.6792
▁ઝબૂક	-11.6792
▁નિયામક	-11.6792
▁ગિબ્સ	-11.6792
▁પુષ્પ	-11.6792
▁સંહિતા	-11.6792
▁કેપિટલ	-11.6792
church	-11.6792
▁સાથીદાર	-11.6792
▁પાકીટ	-11.6792
control	-11.6792
▁પ્રધાન	-11.6795
girl	-11.6798
produc	-11.6901
સમજશક્તિ	-11.6934
મૂર્તિ	-11.6944
HTML	-11.6945
ઉપલબ્ધ	-11.6945
▁ઉલટા	-11.6985
▁ઋષિ	-11.6988
▁મહાસાગર	-11.6988
Digital	-11.6988
ruguay	-11.6988
transform	-11.6988
▁Beilun	-11.6988
▁ઓથોરિટી	-11.6988
▁ઔષધ	-11.6988
▁ટ્યૂબ	-11.6988
▁ડિઝાઈન	-11.6988
▁પોઝિશન	-11.6988
▁બેડરૂમ	-11.6988
▁શંકાસ્પદ	-11.6988
▁હાથમોજાં	-11.6988
▁ઇસ્લામ	-11.6988
▁પરિપક્વ	-11.6988
▁પ્રતિકૂળ	-11.6988
▁સાવચેત	-11.6988
▁તકનિકી	-11.6988
▁રિફંડ	-11.6988
▁લંડન	-11.6988
▁આંધળો	-11.6988
▁આઇપેડ	-11.6988
▁પાતળા	-11.6988
▁ઉપરોક્ત	-11.6988
▁કઠણ	-11.6988
▁સ્પુલ	-11.6988
▁ભૂંડો	-11.6988
settings	-11.6988
reference	-11.6988
▁ખનિજ	-11.6988
▁ખોવાયેલ	-11.6988
‘	-11.7145
જથ્થો	-11.7148
111213141516	-11.7187
Battery	-11.7188
Material	-11.7188
aDateFmt	-11.7188
drawable	-11.7188
netherlands	-11.7188
▁75533656727	-11.7188
▁Solitaire	-11.7188
▁variant	-11.7188
▁ઇનકમિંગ	-11.7188
▁ચૅગ્જ઼્યૂ	-11.7188
▁જબરદસ્ત	-11.7188
▁દિલાસો	-11.7188
▁પ્યાદું	-11.7188
▁માછીમારી	-11.7188
▁મૂંઝવણ	-11.7188
▁મેસેન્જર	-11.7188
▁વિશ્ર્વાસ	-11.7188
▁સુપરડોમેન	-11.7188
▁સ્ટેમ્પિંગ	-11.7188
daemon	-11.7188
▁અવશેષ	-11.7188
▁એટર્ની	-11.7188
▁ચેમ્પિયન	-11.7188
▁છેતરપિંડી	-11.7188
▁શ્રદ્ધા	-11.7188
▁સેમિકન્ડક્ટર	-11.7188
activo	-11.7188
▁ભૂગોળ	-11.7188
▁મુખારવિંદ	-11.7188
▁backpack	-11.7188
▁અનામિક	-11.7188
▁સ્ટેઇન્ડ	-11.7188
▁શિયાળામાં	-11.7188
▁પરપોટા	-11.7188
nsurance	-11.7188
▁નૈરા	-11.7188
▁સનાતન	-11.7188
▁પેઈન્ટ	-11.7188
ફંક્શન	-11.7188
બ્લાસ્ટ	-11.7189
▁ઓલિવ	-11.7193
ઍ	-11.7333
બુદ્ધિ	-11.7357
▁price	-11.7391
nbsp	-11.7392
electronic	-11.7392
publicidadonline	-11.7392
ોઅહેવાલો	-11.7392
▁Kingdom	-11.7392
▁NetworkManager	-11.7392
▁Pidgin	-11.7392
▁ProgressPlay	-11.7392
▁Tomboy	-11.7392
▁brushless	-11.7392
▁અદ્રશ્ય	-11.7392
▁અનુભૂતિ	-11.7392
▁આડકતરી	-11.7392
▁ઉત્તેજક	-11.7392
▁કંટાળાજનક	-11.7392
▁છંટકાવ	-11.7392
▁ડાયાબિટીસ	-11.7392
▁દુન્યવી	-11.7392
▁બેકઍન્ડ	-11.7392
▁રિએક્ટર	-11.7392
▁વાગ્યે	-11.7392
▁વિચલિત	-11.7392
▁Editor	-11.7392
▁XMailer	-11.7392
▁પરમહંસ	-11.7392
▁NULL	-11.7392
▁હોલ્ડિંગ	-11.7392
▁અટકાયત	-11.7392
▁હોશિયાર	-11.7392
operation	-11.7392
▁ગુંદર	-11.7392
▁એસએપી	-11.7392
▁સચિવ	-11.7392
▁વેકેશન	-11.7392
▁શાપિત	-11.7392
▁ક્રુઝ	-11.7392
▁વહાલા	-11.7392
▁કાંઇ	-11.7392
Tokio	-11.7392
પ્રયત્ન	-11.757
પવિત્ર	-11.7573
▁symbol	-11.7578
▁મંગળ	-11.7598
/10/2019	-11.76
મિશિગન	-11.76
▁AASraw	-11.76
▁Culture	-11.76
▁Shravan	-11.76
▁jackpots	-11.76
▁અઠવાડિયે	-11.76
▁આંતરરાષ્ટ્રિય	-11.76
▁આરાધના	-11.76
▁ઇજનેરી	-11.76
▁એક્રેલિક	-11.76
▁ગાણિતિક	-11.76
▁ઘર્ષણ	-11.76
▁ટિયાનજિન	-11.76
▁ડિસ્ચાર્જ	-11.76
▁નિર્દોષ	-11.76
▁નિર્ધારિત	-11.76
▁પેસફિક	-11.76
▁મૂએલામાંથી	-11.76
▁યૂટ્યૂબ	-11.76
▁વિભાજીત	-11.76
કર્નેલિયસ	-11.76
▁કોમ્પેક્ટ	-11.76
▁દંપતી	-11.76
▁UUID	-11.76
▁ડાયમંડ	-11.76
▁રેડિયલ	-11.76
▁સંક્રમણ	-11.76
▁MPEG	-11.76
▁પરિષદ	-11.76
▁ક્લીનર	-11.76
▁ટોળું	-11.76
▁બમણું	-11.76
▁કાદવ	-11.76
▁જાસૂસ	-11.76
▁કેરિયર	-11.7601
કલ્ચર	-11.7606
global	-11.7813
▁Shotwell	-11.7813
▁bulgaria	-11.7813
▁ભૂંસવું	-11.7813
▁મોટેભાગે	-11.7813
▁વુડવિંડ	-11.7813
▁સાર્વત્રિક	-11.7813
browser	-11.7813
templates	-11.7813
▁Fitness	-11.7813
▁ટર્બો	-11.7813
▁પ્રોડક્શન	-11.7813
▁રમૂજી	-11.7813
▁હનુમાન	-11.7813
xNUMX	-11.7813
▁વર્ગીકૃત	-11.7813
▁વાઇફાઇ	-11.7813
▁વક્તા	-11.7813
▁શ્રવણ	-11.7813
▁સિમ્યુલેટર	-11.7813
▁place	-11.7813
▁પર્યાપ્ત	-11.7813
▁પ્રજનન	-11.7813
engine	-11.7813
▁ઈજનેર	-11.7813
▁Break	-11.7813
digit	-11.7813
▁પોશાક	-11.7813
▁ઉઠાડ	-11.7814
▁મુદત	-11.7815
Speed	-11.7815
Split	-11.7815
▁સાયપ્ર	-11.782
Girl	-11.7848
▁ઉપસ્થિત	-11.7856
મર્યાદા	-11.8009
▁નિષ્કર્ષ	-11.8024
17181920212223	-11.803
▁Cannon	-11.803
▁DarkTokenDT	-11.803
▁SCSI	-11.803
▁strength	-11.803
▁આભારસ્તુતિ	-11.803
▁એપાર્ટમેન્ટ	-11.803
▁ઓપરેટીંગ	-11.803
▁ખતરનાક	-11.803
▁ધિરાણ	-11.803
▁નિરર્થક	-11.803
▁પ્રાકૃતિક	-11.803
▁બહાદુર	-11.803
▁યથાર્થ	-11.803
▁લાયબ્રેરી	-11.803
▁સર્ટિફિકેશન	-11.803
▁CoinCETI	-11.803
▁Medical	-11.803
▁people	-11.803
▁ઉત્સર્જન	-11.803
▁પાસ્ખાપર્વ	-11.803
▁વિઝાર્ડ	-11.803
▁સંગઠિત	-11.803
▁કોન્સોલ	-11.803
▁દરખાસ્ત	-11.803
▁માહિતિ	-11.803
Secret	-11.803
▁આઈપેડ	-11.803
▁જોગવાઈ	-11.803
▁મનોવિજ્ઞાન	-11.803
▁credit	-11.803
▁અસક્ષમ	-11.803
▁ડોકટરો	-11.803
Lobster	-11.803
balance	-11.803
▁અંજીર	-11.803
▁દરબારમાં	-11.803
armenia	-11.8031
▁ઉગાડ	-11.8032
પૃષ્ઠ	-11.8237
ઓક્ટોપસ	-11.8252
~	-11.8684
±	-12.212
ઞ	-12.3435
ઋ	-12.5997
‍	-12.6197
©	-12.6259
≤	-12.6785
•	-12.793
→	-13.2447
ô	-13.7687
ઐ	-14.0902
·	-14.0903
➖	-14.0903
