<unk>	0
<s>	0
</s>	0
▁	-3.03338
ৰ	-3.25078
s	-4.09245
'	-4.16278
)	-4.26376
-	-4.46168
ত	-4.47835
▁কৰা	-4.53881
।	-4.6178
,	-4.65434
:	-4.66321
ব	-4.69093
▁কৰক	-4.75365
ন	-4.79446
ে	-4.81343
ক	-4.82489
▁%	-4.93094
▁(_	-5.12096
▁হ	-5.17471
▁(	-5.24483
সমূহ	-5.28517
ল	-5.34376
▁এটা	-5.58212
▁বাবে	-5.5834
ী	-5.58417
d	-5.60309
▁আৰু	-5.61537
লে	-5.63193
.	-5.64471
ম	-5.65391
▁এই	-5.66929
a	-5.77896
/	-5.83523
▁কৰিব	-5.84346
▁হৈছে	-5.84433
_	-5.8471
e	-5.87581
▁।	-5.87768
;	-5.88602
প	-5.93535
ট	-5.94054
▁পৰা	-5.95369
চ	-5.95385
▁'%	-5.97612
▁বা	-5.97982
য়	-5.995
▁ব্যৰ্থ	-6.01332
ো	-6.01432
o	-6.04044
ড	-6.04196
▁কাম	-6.0692
t	-6.08735
ি	-6.092
▁ফোল্ডাৰ	-6.09772
S	-6.12087
"	-6.12511
েৰ	-6.13629
টি	-6.13659
▁তথ্য	-6.14249
▁নাম	-6.1471
▁নহয়	-6.16641
i	-6.17089
c	-6.17762
▁অ	-6.18939
▁দ্বাৰা	-6.19378
p	-6.19383
▁ব্যৱহাৰ	-6.24341
▁বাৰ্তা	-6.24394
ই	-6.24781
u	-6.26092
▁আ	-6.26697
স	-6.28526
ৰ্	-6.28657
▁ক	-6.29884
b	-6.30202
া	-6.30659
A	-6.31102
▁নাই	-6.3387
▁এ	-6.3485
হ	-6.34985
▁নে	-6.3719
g	-6.37429
টো	-6.37719
জ	-6.37907
m	-6.39391
▁কোনো	-6.39923
n	-6.4007
▁ফাইল	-6.41046
▁কৰি	-6.42459
▁ই	-6.42716
Name	-6.42827
l	-6.43661
y	-6.45595
▁আপুনি	-6.45771
▁প	-6.46556
গ	-6.47275
দ	-6.48411
▁"	-6.48438
▁প্ৰদৰ্শন	-6.49467
ণ	-6.50869
▁কি	-6.51004
কে	-6.51115
C	-6.5121
▁কৰিবলৈ	-6.52768
▁নতুন	-6.53163
▁মান	-6.54689
▁তালিকা	-6.54804
P	-6.5528
▁কৰিবলে	-6.56383
▁বি	-6.56483
না	-6.5861
▁সৈতে	-6.59517
&	-6.5988
▁আপোনাৰ	-6.59962
T	-6.60208
ু	-6.61918
f	-6.62444
লৈ	-6.62673
I	-6.64812
▁নথিপত্ৰ	-6.65042
M	-6.65459
তা	-6.65804
er	-6.66785
▁কৰে	-6.67067
v	-6.67336
▁নোৱাৰি	-6.67352
gt	-6.68368
r	-6.68978
▁ঠিকনা	-6.69016
?	-6.69122
▁1	-6.69196
নি	-6.69492
D	-6.69803
তে	-6.71144
্য	-6.71327
িক	-6.72441
▁স	-6.72854
O	-6.73081
লা	-6.73982
▁সময়	-6.74086
R	-6.7435
▁আছে	-6.75044
▁হয়	-6.75048
ছ	-6.75617
িত	-6.75791
ও	-6.76507
ৰা	-6.76878
লি	-6.78123
k	-6.78433
E	-6.79699
▁ত্ৰুটি	-6.80225
▁সংৰক্ষণ	-6.80559
...	-6.80814
x	-6.80961
শ	-6.81234
▁অথবা	-6.81358
মা	-6.82074
▁ছবি	-6.82484
ৰি	-6.85969
্	-6.87211
▁সংযোগ	-6.8764
▁ফ	-6.87955
▁পৰিবৰ্তন	-6.8864
্যা	-6.89717
%	-6.90657
াৰ	-6.91988
য়ে	-6.93419
’	-6.93697
B	-6.96546
এ	-6.97974
▁প্ৰ	-6.98664
▁S	-6.99288
▁হোৱা	-6.99423
ৱ	-6.99814
▁নি	-7.0033
L	-7.00407
F	-7.01566
▁যোগ	-7.01759
▁মতামত	-7.02464
▁C	-7.02645
h	-7.02732
▁আৰম্ভ	-7.03196
▁কাৰ্য্য	-7.03411
re	-7.03494
▁Evolution	-7.03975
an	-7.04461
▁ডিভাইচ	-7.04909
ছে	-7.0526
মি	-7.05285
র	-7.05991
তি	-7.06078
াই	-7.06686
ং	-7.06722
ar	-7.07
▁নিৰ্বাচিত	-7.07241
▁হব	-7.07314
▁উপস্থিত	-7.07462
1	-7.07943
িয়া	-7.08002
U	-7.08027
▁P	-7.08043
▁A	-7.09015
▁প্ৰাপ্ত	-7.09179
▁চিহ্নিত	-7.09566
ভ	-7.09652
N	-7.10661
▁পা	-7.10807
▁সৃষ্টি	-7.11434
বা	-7.13559
▁চ	-7.13695
▁পৰিচয়	-7.14073
▁বিন্যাস	-7.14793
য়া	-7.14936
থ	-7.16191
▁না	-7.16585
al	-7.17177
কা	-7.17449
(	-7.17479
বি	-7.18518
w	-7.18948
▁=	-7.19253
or	-7.19439
▁নাযায়	-7.19495
পা	-7.20925
▁কৰোঁতে	-7.21793
▁পৃষ্ঠা	-7.22081
▁সকলো	-7.22509
▁ডিস্ক	-7.23124
▁ম	-7.24361
▁বন্ধ	-7.24363
▁উ	-7.2449
েল	-7.24718
▁সংখ্যা	-7.25396
▁যদি	-7.26574
টা	-7.26862
▁বস্তু	-7.27432
▁M	-7.281
উ	-7.29436
হা	-7.31421
in	-7.31852
▁যি	-7.31878
▁চুমাচুমি	-7.32111
▁পোৱা	-7.3217
▁মা	-7.33098
▁মেইল	-7.33604
▁গ	-7.33974
▁অনুগ্ৰহ	-7.34612
ষ	-7.34766
ক্ষ	-7.34886
▁ধৰণ	-7.35614
ঁ	-7.36043
িং	-7.36173
োৱা	-7.36662
ing	-7.37011
ফ	-7.3727
▁চমকানি	-7.37876
▁G	-7.37975
নে	-7.38158
▁দ	-7.38502
▁পাৰে	-7.40568
র্	-7.40688
▁2	-7.40833
বাৰ	-7.41098
@	-7.41379
▁ব্যৱহৃত	-7.41748
▁সক্ৰিয়	-7.41995
▁নিৰ্ধাৰণ	-7.42119
▁এক	-7.42209
▁সংক্ৰান্ত	-7.42367
বোৰ	-7.42579
▁T	-7.43009
মেইল	-7.43127
▁"%	-7.43264
▁নিৰ্বাচন	-7.43994
▁স্থানান্তৰ	-7.44121
ীয়	-7.44142
কি	-7.45039
▁স্থান	-7.45041
▁ভ	-7.45626
মান	-7.47069
▁কা	-7.47131
▁থকা	-7.47469
ন্ট	-7.4775
▁অনুসন্ধান	-7.47855
▁সা	-7.47908
en	-7.48093
▁নিৰ্মাণ	-7.48116
▁সম্ভৱ	-7.48775
▁মে	-7.49089
লো	-7.49148
ৃ	-7.49151
ক্স	-7.49644
]	-7.4984
▁অবৈধ	-7.50781
জা	-7.50998
জন	-7.51199
অ	-7.51391
▁Name	-7.51597
▁পুনৰ	-7.51752
▁অৱস্থা	-7.51837
▁উইন্ডো	-7.52112
▁হল	-7.52252
▁চমকানো	-7.52552
▁সন্ধান	-7.53103
▁যে	-7.53212
খ	-7.53323
H	-7.5343
▁কপি	-7.53701
প্ৰ	-7.53955
on	-7.54045
lt	-7.54106
▁পৰীক্ষা	-7.55057
▁Comment	-7.55093
▁of	-7.55286
▁বিকল্প	-7.5554
th	-7.55977
▁নগল	-7.56334
▁বৰ্তমান	-7.56385
▁হিচাপে	-7.56912
▁শৃগালী	-7.57194
▁ছলচাতুরী	-7.57194
▁3	-7.57957
▁অক্ষম	-7.58428
▁&	-7.58689
ষ্ট	-7.59016
▁সমৰ্থিত	-7.59084
কৰণ	-7.59547
▁সম্পূৰ্ণ	-7.59553
ra	-7.59738
▁উপলব্ধ	-7.59968
▁প্ৰতি	-7.60284
েই	-7.60477
▁বৈশিষ্ট্য	-7.60626
2	-7.6083
▁ও	-7.61494
)...	-7.61503
▁মি	-7.62112
G	-7.6223
▁B	-7.62686
কাৰী	-7.63076
▁উপ	-7.63216
▁নেটৱাৰ্ক	-7.63279
ভাৱে	-7.63647
▁অন্য	-7.63659
▁কৰ্ম	-7.63668
▁শ	-7.63882
চি	-7.63919
▁সংহতি	-7.6403
▁অংশ	-7.65289
সা	-7.65936
▁স্	-7.65976
▁হৈ	-7.66058
খন	-7.66861
▁মচি	-7.67123
▁পৰি	-7.67123
▁কৰোতে	-7.67271
▁১	-7.67324
ৱা	-7.67515
আ	-7.68333
ধ	-7.68381
▁D	-7.68698
▁কল	-7.69428
▁দেখুৱাওক	-7.69768
ৈ	-7.69806
V	-7.69865
6	-7.70091
ণ্ড	-7.70195
▁সং	-7.71059
ধা	-7.71243
▁বে	-7.71921
জি	-7.72235
▁সমস্যা	-7.72405
le	-7.72734
▁শব্দ	-7.72918
▁বাতিল	-7.73082
দা	-7.73114
ন্	-7.73194
0	-7.73592
un	-7.73724
▁তা	-7.73772
ic	-7.73925
▁আবৃত	-7.74096
at	-7.74194
ন্ড	-7.74307
▁একটি	-7.74744
20	-7.74772
4	-7.74881
type	-7.75124
▁দিয়া	-7.75144
it	-7.75536
ed	-7.75699
▁আলো	-7.76034
▁সংস্কৰণ	-7.76512
স্ক	-7.76704
=	-7.76838
▁২	-7.76861
▁অজ্ঞাত	-7.77214
▁name	-7.77355
▁প্ৰদান	-7.77601
ফা	-7.77911
▁অনুমতি	-7.78097
▁ৰং	-7.78105
নী	-7.78147
▁F	-7.78404
পি	-7.78567
্র	-7.78796
▁পাছৱাৰ্ড	-7.78809
য	-7.79038
▁উৎস	-7.79051
▁অবিকল্পিত	-7.79742
00	-7.8071
▁প্ৰেৰণ	-7.81344
et	-7.81447
▁জ	-7.81468
▁[	-7.81718
▁ভিডিঅ	-7.82269
০	-7.82429
ইন	-7.82957
▁আকাৰ	-7.83047
▁অৱস্থান	-7.83608
ur	-7.83882
z	-7.84059
কৈ	-7.84107
েট	-7.84325
▁ইয়াৰ	-7.84538
W	-7.84745
▁বিষয়	-7.84766
5	-7.84898
▁জা	-7.85024
▁চা	-7.85107
▁(%	-7.85343
▁স্বাক্ষৰ	-7.8546
tr	-7.85705
▁বিনিময়	-7.85842
de	-7.85996
no	-7.86093
”	-7.86227
▁http	-7.86291
▁দিন	-7.86419
▁কে	-7.86753
ন্দ	-7.86824
▁ডি	-7.86911
▁কেৱল	-7.87
▁লাগিব	-7.87194
▁য	-7.8726
▁উত্তৰ	-7.87391
▁বৈধ	-7.87583
▁আন	-7.87747
ce	-7.88098
▁ছ	-7.88171
থা	-7.88374
▁ব্যৱস্থা	-7.88722
্ৰ	-7.89026
▁চাৰ্ভাৰ	-7.8904
ঘ	-7.89682
▁বৰ্তমানে	-7.89881
হে	-7.90244
ক্ৰ	-7.90298
▁ব্যৱহাৰকাৰী	-7.90632
",	-7.90659
▁ইয়াক	-7.90769
▁প্ৰয়োজন	-7.911
▁পথ	-7.91446
▁বহি	-7.91604
১	-7.91933
কো	-7.92111
▁ডমেইন	-7.92175
স্ট	-7.93189
am	-7.93214
▁পে	-7.93243
▁অন্তৰ্ভুক্ত	-7.93408
▁সেৱক	-7.9341
ডি	-7.93485
ter	-7.93539
▁কেলেন্ডাৰ	-7.93615
▁L	-7.94029
▁ভাষা	-7.94039
▁জন্য	-7.94041
▁সংযুক্ত	-7.94481
▁কিন্তু	-7.94657
3	-7.94708
মে	-7.94958
▁E	-7.95054
▁বাছক	-7.95083
▁ৰঙ	-7.9514
▁অধিক	-7.95201
সকল	-7.95501
▁বীমা	-7.96321
▁লৈ	-7.96462
ol	-7.96555
▁কাৰণে	-7.96661
▁বৰ্ষপঞ্জি	-7.96987
▁লাটভিয়ান	-7.96987
দি	-7.97155
ta	-7.97604
ৌ	-7.97631
▁the	-7.97927
ma	-7.98015
▁চি	-7.98104
▁ব্যক্তিগত	-7.983
7)	-7.9833
▁(1	-7.98607
▁কমান্ড	-7.98936
▁তাৰ	-7.98965
▁ফন্ট	-7.99112
▁বিৱৰণ	-7.99154
ল্	-7.99363
▁লগ	-7.99536
▁প্ৰমাণপত্ৰ	-7.99597
▁N	-7.99786
ha	-8.00456
▁গ্ৰহণ	-8.0048
2)	-8.00526
ro	-8.00638
▁R	-8.00667
ch	-8.0078
▁পি	-8.01095
▁সেৱা	-8.01186
জে	-8.01194
▁কৰিছে	-8.01351
▁প্র	-8.01369
▁বিশ্লেষণ	-8.02043
▁K	-8.022
ঞ্চ	-8.02269
▁খোলা	-8.0295
ভাবে	-8.02988
\	-8.03094
হি	-8.03171
▁একাওন্ট	-8.03177
▁আঁতৰুৱা	-8.03182
8)	-8.03818
▁কৰো	-8.03885
▁স্থানীয়	-8.03971
▁কো	-8.04248
▁label	-8.04786
▁ক্ষেত্ৰত	-8.0482
me	-8.04933
▁প্ৰা	-8.04995
▁যা	-8.05086
▁পু	-8.05339
▁4	-8.05481
ষ্	-8.05661
আপ	-8.05813
ঙ	-8.06153
গা	-8.06594
▁ৰিক্ত	-8.06662
K	-8.06723
com	-8.06857
▁শাৰী	-8.06892
ৱে	-8.06933
▁অনুৰোধ	-8.07132
তো	-8.07422
▁ধাৰ্য্য	-8.07627
8	-8.07687
▁উদ্দেশ্যে	-8.078
৪	-8.07845
▁অনু	-8.0806
ধি	-8.08108
▁size	-8.08828
▁লিখনী	-8.09066
▁প্ৰয়োগ	-8.09082
6)	-8.09216
12	-8.09231
▁প্ৰক্ৰিয়া	-8.0929
ভি	-8.09368
ায়	-8.09393
▁হেডাৰ	-8.09779
ex	-8.10012
ct	-8.10145
ত্	-8.10238
j	-8.10256
id	-8.10282
▁I	-8.10485
la	-8.10714
▁সমৰ্থন	-8.10755
ম্প	-8.11025
://	-8.11028
দ্	-8.11062
ের	-8.11067
▁স্ব	-8.11417
ভা	-8.11419
▁ব্যক্তি	-8.11481
ঃ	-8.11495
paper	-8.11503
▁H	-8.11654
▁অসমীয়া	-8.11715
ান	-8.11747
▁এক্স	-8.11832
▁X	-8.12124
ন্ত	-8.1234
mo	-8.12526
ুন	-8.12598
▁তাৰিখ	-8.12743
16	-8.1285
ঔৣ	-8.12994
▁নিম্নলিখিত	-8.12994
X	-8.13111
ত্ত	-8.13135
▁পিছত	-8.13248
te	-8.13252
▁ইচ্ছুক	-8.13498
ri	-8.13718
net	-8.13929
▁মাপ	-8.14278
▁আমি	-8.1432
্ৰা	-8.14404
▁উল্লেখ	-8.15027
0)	-8.15136
স্ত	-8.15198
কাৰ	-8.15848
নাম	-8.16215
3)	-8.16277
▁গুপ্তশব্দ	-8.16319
▁ক্লিক	-8.16349
িয়	-8.16529
(24	-8.17134
ঞ্জ	-8.17371
▁আমাৰ	-8.17397
▁মেমো	-8.17402
▁বাৰ্তাসমূহ	-8.17414
ক্ষণ	-8.17524
ৰু	-8.17641
▁বু	-8.17781
▁নিশ্চিত	-8.18133
▁ছা	-8.18194
▁দৰ্শন	-8.18222
ূ	-8.18284
▁সময়ত	-8.1844
▁দু	-8.18605
চা	-8.18663
▁থেকে	-8.18688
:%	-8.18845
op	-8.18883
▁হবে	-8.18898
੔	-8.19489
▁বুটাম	-8.1949
▁সম্ভব	-8.20029
!	-8.20298
যোগ	-8.20358
▁আখৰ	-8.20584
শ্ব	-8.20624
▁দেখা	-8.20809
▁হয়েছে	-8.20846
স্	-8.21147
শ্	-8.21331
ir	-8.21476
২	-8.21976
▁লোড	-8.22005
াহ	-8.22305
▁দি	-8.22327
▁ইন	-8.22391
▁অৱ	-8.22592
▁আপ	-8.22696
▁ওপৰত	-8.22718
aunchpad	-8.22764
▁প্ৰদৰ্শিত	-8.22764
▁ডাইৰেকটৰি	-8.23042
▁ঘ	-8.23095
11	-8.23205
জু	-8.23356
লাইন	-8.23512
সে	-8.23586
▁টা	-8.2367
▁সু	-8.23794
▁in	-8.24146
ীয়া	-8.2416
▁সে	-8.24248
▁বিষয়ে	-8.24344
(_	-8.24556
টে	-8.24598
▁ক্ষেত্ৰ	-8.24622
▁সামৰ্থবান	-8.24715
▁সেই	-8.24721
কৃত	-8.24769
যুক্ত	-8.2496
amp	-8.25024
▁?	-8.25032
ড়	-8.25287
ho	-8.25395
21	-8.25457
18	-8.25505
▁দস্তাবেজ	-8.25577
▁সম্পাদন	-8.26104
▁আৰ্কাইভ	-8.26149
▁আই	-8.2642
li	-8.26551
▁ব্য	-8.26937
▁ইছলাম	-8.27014
▁প্ৰিন্ট	-8.27197
▁সভা	-8.27233
quot	-8.27304
▁20	-8.27423
▁সুৰক্ষা	-8.27595
▁বিশেষ	-8.27635
ক্ত	-8.27791
যোগ্য	-8.27865
নো	-8.27866
▁ইতিমধ্যে	-8.27886
▁চেষ্টা	-8.27886
to	-8.27891
▁অকল	-8.2825
▁খ	-8.28303
sh	-8.28669
um	-8.2871
▁অসম	-8.28834
▁ভুল	-8.28836
▁করা	-8.28887
el	-8.29025
▁ডাঙৰ	-8.29358
▁“%	-8.29404
ক্	-8.29425
াপ	-8.29487
5)	-8.29716
▁চে	-8.29921
▁ডা	-8.30348
▁কম	-8.30536
▁ভা	-8.30971
শা	-8.31236
▁কাৰণ	-8.31401
▁টেব	-8.31439
▁w	-8.3154
▁যাব	-8.31553
াল	-8.31837
▁ডে	-8.31931
om	-8.32023
▁মাই	-8.32051
▁ঘটনা	-8.32069
tion	-8.32148
ent	-8.32208
▁প্ৰমাণীকৰণ	-8.32364
▁সম	-8.32578
il	-8.32643
ation	-8.32648
▁উদ্ধাৰ	-8.32671
▁হৈছিল	-8.32693
▁প্ৰস্থ	-8.33078
Comment	-8.33207
▁অনুপ্ৰয়োগ	-8.33285
▁আল	-8.34445
▁দল	-8.3455
▁এপ্লিকেচন	-8.35124
লী	-8.35325
▁এইটো	-8.35351
ঠ	-8.3542
▁বিভিন্ন	-8.35465
▁সীমা	-8.35468
ভাৰ	-8.35476
15	-8.35507
সং	-8.35525
▁সহায়	-8.35543
25	-8.35699
▁অপ্ৰত্যাশিত	-8.35781
▁আইকন	-8.35788
he	-8.35876
▁উইন্ডোৰ	-8.35881
▁সাক্ষাৎকাৰ	-8.36101
▁লিখা	-8.36377
৮	-8.36415
▁পছন্দ	-8.36415
▁`%	-8.36416
▁পঞ্জিকা	-8.36733
▁নেকি	-8.36864
▁CD	-8.36921
9)	-8.36968
60	-8.36986
▁অফ	-8.37053
ঙ্গ	-8.37172
▁সঠিক	-8.3732
ll	-8.37321
▁ৱেব	-8.3744
ম্ব	-8.37442
q	-8.37695
▁স্তম্ভ	-8.37696
িকা	-8.37715
্বা	-8.37983
▁পৰ্দা	-8.38342
▁মাজত	-8.38348
▁সলনি	-8.38669
▁হচ্ছে	-8.3867
ৰূপে	-8.38808
৬	-8.38991
লাই	-8.39353
▁স্থাপন	-8.39579
চাৰ	-8.39596
ab	-8.39647
50	-8.39905
িন	-8.401
্ব	-8.40111
▁লক্ষ্য	-8.40305
ত্ব	-8.40455
মু	-8.40556
▁সাধাৰণ	-8.40968
▁পদ্ধতি	-8.40969
চ্	-8.40992
di	-8.4112
▁"{0}"	-8.41636
▁প্ৰস্থান	-8.41718
াম	-8.41754
কু	-8.42117
▁কৰতে	-8.42361
▁খোলক	-8.42647
গ্ৰ	-8.42762
▁অতি	-8.42828
hi	-8.42986
▁তেওঁ	-8.42991
ue	-8.43089
ুল	-8.43089
▁ইমপোৰ্ট	-8.43326
▁পাৰিব	-8.43578
▁আগ	-8.43702
▁ধৰন	-8.43706
▁সংৰূপ	-8.43708
ut	-8.43716
টাৰ	-8.43861
ভূ	-8.43881
ঙ্ক	-8.44343
▁দেখুৱা	-8.44343
▁আৱশ্যক	-8.44353
▁ফিল্টাৰ	-8.44353
▁দিয়ক	-8.44701
▁সমস্ত	-8.44731
co	-8.44748
▁প্ৰকাশ	-8.44958
▁নিৰ্ধাৰিত	-8.45044
▁কৰিলে	-8.45066
▁অৱস্থাত	-8.45074
গো	-8.45185
51	-8.45441
26	-8.45795
▁হস্ট	-8.46026
▁to	-8.46132
ওঁ	-8.46149
▁5	-8.46288
▁ঘৰ	-8.46428
▁প্ৰকল্প	-8.4644
▁প্ৰশ্ন	-8.46441
চন	-8.46483
▁মুছে	-8.46527
▁মন	-8.46597
▁ৰূপে	-8.46614
10	-8.46664
▁মিল	-8.46684
▁আবৰ্জনাৰ	-8.46788
▁অডিঅ	-8.46904
▁ID	-8.4706
▁কিছু	-8.47089
▁ফাইলসমূহ	-8.47234
ৰ্ট	-8.47265
(2	-8.47298
ুৱা	-8.47507
Y	-8.47727
থি	-8.47737
▁সৰ্বাধিক	-8.48213
▁জি	-8.48245
▁বিজ্ঞান	-8.48663
▁(3	-8.48836
▁মধ্যে	-8.48895
খা	-8.49065
30	-8.49129
ব্	-8.4931
▁10	-8.49556
▁প্ৰাপক	-8.49659
▁অনুযায়ী	-8.50018
▁অনুপস্থিত	-8.50018
▁দিব	-8.50235
▁চাবি	-8.50285
গ্	-8.50351
ve	-8.50367
▁যেতিয়া	-8.50386
▁হাত	-8.50422
▁পঢ়া	-8.50437
▁৩	-8.50445
িয়ান	-8.50461
িয়ে	-8.50711
▁দা	-8.51024
▁পাঠ	-8.51163
im	-8.51183
▁সতীচ্ছদ	-8.51856
▁বাহিৰ	-8.51873
ৎ	-8.52153
▁(4	-8.52159
▁চিস্টেম	-8.52228
্ৰি	-8.52236
▁মু	-8.52333
ৰ্থ	-8.52574
▁নকৰে	-8.52602
াস	-8.52763
▁month	-8.52976
▁ডিফল্ট	-8.52976
▁শেষ	-8.53192
▁উপাদান	-8.53239
ার	-8.53598
24	-8.54006
select	-8.54108
ৰূপ	-8.54177
▁গে	-8.54259
80	-8.54422
/~	-8.54492
17	-8.54532
ত্ৰ	-8.54656
ন্ত্ৰ	-8.54658
ানো	-8.54815
▁যিকোনো	-8.5487
▁বেক	-8.5488
▁টেক্সট	-8.54898
িউ	-8.54931
তু	-8.55004
ংগ	-8.55065
▁দিয়ে	-8.55095
up	-8.55314
▁ইনস্টল	-8.55387
ঢ়	-8.55609
ৰ্ম	-8.5575
▁ব্যবহাৰ	-8.56021
▁বিচাৰে	-8.56025
▁পূৰ্ব	-8.56166
...(_	-8.56176
▁সম্পাদনা	-8.56263
▁আবৰ্জনা	-8.56416
পু	-8.56427
গত	-8.56505
✞	-8.56794
▁ডোমেইন	-8.568
KChar	-8.568
▁প্ৰথম	-8.56805
সি	-8.57066
▁সহ	-8.57379
▁(10	-8.57512
▁উল্লিখিত	-8.57977
▁পুনৰুদ্ধাৰ	-8.57977
unit	-8.58081
ub	-8.58212
▁কোন	-8.58309
▁ক্ষতি	-8.58388
13	-8.58425
▁আন্তঃপৃষ্ঠ	-8.58769
টৱৰ্ক	-8.5877
ওক	-8.58842
▁চিহ্ন	-8.59123
▁অনুমোদন	-8.59167
▁বাকচ	-8.59195
19	-8.59233
শি	-8.59573
▁সংস্থাপন	-8.59579
▁ইয়াত	-8.59621
29	-8.5969
org	-8.59781
▁নিষ্ক্ৰিয়	-8.59969
$1	-8.60046
ংক	-8.6008
▁লিখক	-8.60146
▁উল্লেখিত	-8.60153
▁থাকিব	-8.60204
Stock	-8.60372
ne	-8.60773
▁অনুবাদ	-8.60807
দে	-8.60999
▁বিকল্পসমূহ	-8.61014
▁বহী	-8.61185
▁প্লাগ	-8.61201
▁ভি	-8.61228
▁6	-8.61325
চ্ছ	-8.61379
+	-8.61403
▁অবস্থান	-8.61493
▁মেনু	-8.61605
ive	-8.61707
if	-8.61777
ফি	-8.61792
▁খেল	-8.61795
56	-8.61853
14	-8.61866
▁GNOME	-8.62002
▁বিফল	-8.62004
▁block	-8.62006
৫	-8.62067
of	-8.62196
▁‘	-8.62264
▁DVD	-8.62267
প্	-8.62398
▁প্ৰক্সি	-8.62414
7	-8.62674
40	-8.62735
▁আমেৰিকা	-8.62826
৭	-8.62826
▁URL	-8.62826
▁চাল	-8.62872
ৱি	-8.62872
▁কু	-8.63213
লিক	-8.63396
ম্	-8.63406
বাদ	-8.63732
▁যায়	-8.63762
ti	-8.63771
▁যন্ত্ৰ	-8.6412
▁উপৰ	-8.64484
▁মেমৰি	-8.64498
োঁ	-8.64691
এই	-8.64853
▁যৌনাংগ	-8.64918
▁সি	-8.65118
unicode	-8.65342
pro	-8.65432
▁গা	-8.65636
▁গুৱাহাটী	-8.65768
▁চাৰ্ভাৰৰ	-8.66018
▁শক্তি	-8.66218
▁চলি	-8.66317
▁এটি	-8.66323
মো	-8.6641
(1	-8.66427
চিত্ৰ	-8.66451
▁বৃদ্ধি	-8.66464
▁ধ	-8.66545
▁তলত	-8.66641
▁এখন	-8.66707
▁মূল	-8.66794
ন্ধ	-8.67041
▁অতিৰিক্ত	-8.67055
▁অসামৰ্থবান	-8.67074
▁অন্ত	-8.67163
▁J	-8.67224
ইল	-8.67277
ion	-8.67322
▁ডাইলগ	-8.67488
▁বছৰ	-8.67502
▁মাহ	-8.67672
য়ো	-8.67899
▁আচমন	-8.67923
▁সত্য	-8.68014
▁পৰিচয়সমূহ	-8.68108
▁ভিডিও	-8.6836
▁স্বনিৰ্বাচিত	-8.6836
▁হিসাবে	-8.6836
▁সেইটো	-8.68435
▁আগত	-8.68534
ie	-8.6854
ুৰ	-8.68718
▁সমল	-8.68779
▁ভলিউম	-8.68798
গু	-8.68834
▁বৈশিষ্ট	-8.69047
28	-8.6913
▁পেনেল	-8.69242
▁দিশ	-8.69407
▁টে	-8.69416
াইট	-8.69494
000	-8.69526
▁ফি	-8.69555
▁মো	-8.69637
▁General	-8.69681
▁পত্ৰচিহ্ন	-8.69682
▁পুনঃ	-8.69682
45	-8.69709
▁অপেক্ষা	-8.69786
$	-8.70006
32	-8.70111
▁0	-8.70167
mi	-8.70462
▁শি	-8.70491
▁লগত	-8.70568
Z	-8.70572
▁কিছুমান	-8.70645
▁লোৱা	-8.70665
pa	-8.70764
▁কাৰ্য	-8.70773
▁দে	-8.70838
▁পুনৰায়	-8.71114
ান্ত	-8.7115
9	-8.71298
পত্ৰ	-8.71354
▁In	-8.71396
▁বিভাগ	-8.71472
▁বাৰ্ন	-8.71499
ফে	-8.71632
▁part	-8.71924
▁লেখা	-8.71945
▁অবস্থা	-8.72088
▁লক	-8.72117
▁8	-8.72265
▁XML	-8.72378
▁নিৰ্দেশ	-8.72521
ষ্ঠ	-8.72549
▁মিলি	-8.72648
▁মোড	-8.72652
(23	-8.72701
▁পেইন	-8.72702
▁তৈৰি	-8.72835
▁গণিত	-8.72937
▁চু	-8.7319
▁অস্থায়ী	-8.73293
▁নম্বৰ	-8.73295
▁বীমাকৃত	-8.7335
ডা	-8.73515
age	-8.73568
৩	-8.73676
▁ঈ	-8.73677
\\\	-8.73754
54	-8.73783
▁কেন্দ্ৰ	-8.73799
▁অসমৰ্থিত	-8.74217
▁প্ৰৰণ	-8.74251
▁সম্	-8.74658
শু	-8.74658
▁নিৰ্ব্বাচন	-8.74682
▁সম্পদ	-8.74684
▁বিচাৰি	-8.74813
▁ভাৰত	-8.74829
ছি	-8.75
▁অন	-8.75074
▁চাওক	-8.75273
▁আলেখ্য	-8.75619
▁সংযোগক্ষেত্ৰ	-8.75619
▁লাগে	-8.7562
▁আপনাৰ	-8.75632
▁গু	-8.75953
▁পোৰ্ট	-8.75978
▁(36	-8.75999
▁নীতি	-8.76107
▁টকা	-8.7624
ণি	-8.76338
email	-8.76534
▁CPU	-8.76565
38	-8.76798
ate	-8.76844
▁২০	-8.76849
ছো	-8.76907
▁স্থায়ী	-8.77018
▁সম্পাদক	-8.77041
▁উইজেট	-8.77041
01	-8.77085
▁W	-8.77164
▁সৰু	-8.77328
▁বিন	-8.77468
▁নিয়ন্ত্ৰণ	-8.77519
▁আপডেইট	-8.78
▁পলিচী	-8.78
www	-8.78001
▁অবধি	-8.78004
▁থাকে	-8.78018
▁মই	-8.78175
▁is	-8.78288
07	-8.7853
ack	-8.78567
J	-8.7867
▁একে	-8.78794
▁পুল	-8.78831
▁চিনাক্ত	-8.78969
গৰাকী	-8.78969
▁যোগাযোগ	-8.78969
▁পেলাওক	-8.78969
▁লেবেল	-8.78969
▁কী	-8.79074
▁প্ৰকৃত	-8.79132
সূচী	-8.79173
▁একাউন্ট	-8.79456
۝	-8.79457
▁যাওক	-8.79531
সকলৰ	-8.79633
▁Y	-8.79634
▁গুণ	-8.79729
▁বুলি	-8.79924
format	-8.79949
▁দাবী	-8.79952
▁{0}	-8.80079
▁সামগ্ৰী	-8.80439
দান	-8.80514
page	-8.80716
৯	-8.8081
কাম	-8.80918
▁অভিগম	-8.80934
▁ক্ৰম	-8.8096
০০	-8.81095
▁এনে	-8.81284
▁সম্পৰ্কে	-8.81396
▁ভাল	-8.81396
▁12	-8.81399
▁সন্ধানহিন	-8.81433
▁অফলাইন	-8.81474
▁সহায়ত	-8.81511
▁উচ্চতা	-8.81536
▁প্ৰয়োজনীয়	-8.81577
▁নহ	-8.81682
22	-8.81838
▁অন্যান্য	-8.81932
▁বড়ো	-8.81932
▁সৰ্বশেষ	-8.81938
23	-8.82043
াউ	-8.82402
Q	-8.82434
▁তেন্তে	-8.82434
ly	-8.82621
▁সপ্তাহ	-8.82841
▁স্তৰ	-8.82936
▁সংগ্ৰহ	-8.82973
ist	-8.83072
ন্স	-8.83109
▁অপ	-8.83509
▁উদ্	-8.83635
02	-8.83807
New	-8.8388
▁খেলা	-8.83882
▁License	-8.83957
▁GNU	-8.83957
▁টুলবাৰ	-8.8399
ফো	-8.84043
49	-8.84078
IN	-8.84325
ছা	-8.84455
keyboard	-8.8447
ngoswami	-8.8447
▁ডেস্কটপ	-8.84541
08	-8.84557
▁শীৰ্ষক	-8.84601
প্ত	-8.8472
ল্ড	-8.84909
search	-8.84985
▁অবজেক্ট	-8.84985
▁আপোনাক	-8.84985
▁সংৰক্ষিত	-8.84986
▁স্প	-8.84997
কাল	-8.85062
▁V	-8.85102
োল	-8.85194
ড়া	-8.85271
59	-8.8531
▁ড্ৰাইভ	-8.85396
63	-8.85491
aphukan	-8.85504
file	-8.85508
▁ৰূপত	-8.85577
lu	-8.85601
াব	-8.85685
পূ	-8.85771
end	-8.85914
▁ফেলুন	-8.86025
90	-8.86323
▁স্ট্ৰিং	-8.86549
▁~	-8.86639
27	-8.86705
পোৰ্ট	-8.8673
ুদ্ধ	-8.87006
all	-8.87017
ণ্ট	-8.87261
=\	-8.87267
▁//	-8.87364
▁পূৰ্বে	-8.87384
েক্ট	-8.8742
ষণ	-8.87567
▁ওপৰ	-8.87643
▁খা	-8.87781
48	-8.87836
▁Public	-8.88135
▁সাৰ্টিফিকেট	-8.88135
▁আপডেট	-8.88135
▁মাউন্ট	-8.88136
po	-8.88136
▁তৰ্ক	-8.88191
name	-8.88247
▁আৰম্ভণি	-8.88271
ডাৰ	-8.88378
and	-8.88418
স্প	-8.88486
(13	-8.88561
▁LDAP	-8.8867
▁ব্যৱহাৰযোগ্য	-8.89029
▁ভিত্তি	-8.89069
GenericName	-8.89208
▁নকৰা	-8.89211
▁ফলত	-8.89249
▁কথা	-8.89312
▁(27	-8.89618
▁URI	-8.89748
়	-8.89774
▁লাভ	-8.89949
▁TV	-8.89966
96	-8.90032
▁তাক	-8.9025
red	-8.90469
▁মূল্য	-8.90637
▁সহায়ক	-8.9066
লেট	-8.90703
▁সূচনা	-8.90838
▁POP	-8.90839
চিত	-8.90961
▁লগতে	-8.91064
ip	-8.91111
▁action	-8.91138
65	-8.91194
▁কোম্পানী	-8.91388
▁স্নেপশ্বট	-8.91388
▁গণনা	-8.91389
লিস্ট	-8.9169
▁ধৰণৰ	-8.91699
কৰ্তা	-8.91761
িবলৈ	-8.9192
▁গতি	-8.91935
▁প্ৰব্ৰজন	-8.9194
▁ক্যাশ	-8.91942
▁বহু	-8.91976
66	-8.92012
িও	-8.92045
ট্ৰি	-8.92245
দ্ধ	-8.92393
fedoraproject	-8.92496
▁সুসংগত	-8.92496
hat	-8.92507
▁পো	-8.92509
▁হয়নি	-8.92518
▁প্ৰাচল	-8.92531
▁পটভূমিৰ	-8.92535
(26	-8.92605
স্থিত	-8.92626
▁on	-8.92661
▁ক্ৰ	-8.92811
মুখ	-8.92984
04	-8.93004
দেশ	-8.93007
▁আতৰাওক	-8.93054
▁ইনপুট	-8.93054
▁ভিতৰত	-8.93056
নিয়া	-8.93454
▁বিচ্ছিন্ন	-8.93616
▁গন্তব্য	-8.93616
প্ৰযুক্তি	-8.93636
09	-8.94077
াৰ্ড	-8.94125
▁সদস্য	-8.94181
দৰ্শ	-8.94617
▁নথিপত্ৰসমূহ	-8.94668
time	-8.94671
৷	-8.94749
▁{@}	-8.94749
▁News	-8.94838
স্থা	-8.94968
▁ইউ	-8.95076
▁১০	-8.95094
55	-8.95128
▁এতিয়া	-8.9522
▁HTML	-8.95321
▁ব্যবহৃত	-8.95321
day	-8.95334
পো	-8.95438
▁সংহতিসমূহ	-8.95497
▁বাৰ্ণ	-8.95518
▁ৰঙৰ	-8.95593
▁যেনে	-8.95612
▁এল	-8.95625
▁ইতিহাস	-8.95726
লু	-8.95739
▁সম্বাদ	-8.95917
▁মাধ্যমে	-8.95935
▁ব্ৰ	-8.95952
cal	-8.9613
▁টেগ	-8.96365
াওক	-8.96404
তালিকা	-8.9641
▁ফা	-8.96415
▁অনুষ্ঠান	-8.96473
▁লিখ	-8.96568
con	-8.96627
31	-8.96728
▁মুক্ত	-8.96832
▁এনক	-8.96852
▁পৰিবৰ্তে	-8.97055
▁কিবৰ্ড	-8.97055
▁প্ৰগ্ৰাম	-8.97055
▁(23	-8.97149
▁প্ৰান্ত	-8.97255
▁(28	-8.97437
জাৰ	-8.97525
▁7	-8.97614
▁সহযোগে	-8.9764
েশন	-8.98184
▁(17	-8.98185
58	-8.98629
▁অ্যাকাউন্ট	-8.98819
▁আবশ্যক	-8.9882
▁পিক্সেল	-8.9882
▁চাইল্ড	-8.9882
▁পৰবৰ্তী	-8.98823
রি	-8.9883
82	-8.98841
চল	-8.99282
per	-8.99301
বু	-8.9937
▁প্ৰস্তুত	-8.99415
▁সৰঞ্জাম	-8.99415
▁সুৰক্ষিত	-8.99415
▁(47	-8.99756
▁লু	-8.99821
▁পূৰ্ণ	-8.9998
▁শিক্ষা	-9.00031
▁প্লাগিন	-9.00054
▁অধিবেশন	-9.00616
▁উলম্ব	-9.00617
▁ব্যৱস্থাপনা	-9.00617
▁দূৰবৰ্তী	-9.00619
▁item	-9.00623
06	-9.00674
▁অঞ্চল	-9.01226
▁সুমুৱাওক	-9.01229
▁পূৰ্ববৰ্তী	-9.01232
▁নাছিল	-9.01302
▁(59	-9.01313
▁সৰ্ব	-9.01361
list	-9.01431
▁৫	-9.01476
81	-9.0154
▁চলা	-9.01659
▁IP	-9.01662
▁নেই	-9.01729
33	-9.01766
▁Brasero	-9.01832
▁নিম্ন	-9.01836
▁লোক	-9.02149
▁অস্তিত্ববান	-9.02446
▁পেলোৱা	-9.02447
▁আছিল	-9.0263
▁লিখিব	-9.0266
.2	-9.02868
সু	-9.0288
▁“	-9.02972
মূলক	-9.03065
cpu	-9.03113
port	-9.03117
ৰ্ক	-9.03128
83	-9.03245
46	-9.03502
▁এইচ	-9.03522
▁নহব	-9.03591
ı	-9.03684
▁IMAP	-9.03684
▁টাৰ্মিনেল	-9.03684
▁পূৰ্বদৰ্শন	-9.03684
▁প্ৰৱেশ	-9.03684
key	-9.03688
▁অনলাইন	-9.03725
ain	-9.03836
স্থল	-9.03843
▁উপস্থিতি	-9.04035
▁*	-9.04068
চু	-9.04129
▁সুবিধা	-9.04379
▁জীৱন	-9.04431
ল্প	-9.04719
স্থ	-9.04729
95	-9.04851
▁আশা	-9.05337
ফ্	-9.05497
▁De	-9.05548
▁পৰৱৰ্তী	-9.05571
log	-9.05755
ব্যস্ত	-9.05777
▁নো	-9.06055
▁উচ্চ	-9.06077
▁নিৰ্দিষ্ট	-9.06207
▁বিস্তাৰ	-9.06212
34	-9.06238
▁নিয়ম	-9.06246
▁আদেশ	-9.06427
ang	-9.06441
িল	-9.06491
▁ব্যৱহাৰকাৰীৰ	-9.06778
▁কিনা	-9.06782
▁চৰ্টকাট	-9.06849
▁প্ৰযোজ্য	-9.06849
▁লিঙ্ক	-9.06858
▁এবং	-9.06861
ry	-9.06887
▁লগিয়া	-9.07097
79	-9.07163
▁(11	-9.07311
{0}	-9.07317
35	-9.07495
▁করুন	-9.07495
▁সাথে	-9.07499
▁প্ৰতিস্থাপন	-9.07513
সহ	-9.07701
ৃষ্ট	-9.07838
▁পঠ	-9.07902
▁লওক	-9.08182
98	-9.08188
োধ	-9.08371
▁+	-9.08444
(46	-9.08511
ment	-9.08668
ছিল	-9.08689
▁উইন্ডোত	-9.08725
▁নিউ	-9.08797
▁নকল	-9.0881
52	-9.09041
ডিঅ	-9.09057
▁India	-9.09208
▁আহি	-9.09359
ID	-9.09396
▁দৃদ্ধ	-9.09455
▁সতৰ্কবাৰ্তা	-9.09455
▁বিভাজন	-9.09455
লেণ্ড	-9.09607
্ৰু	-9.09876
্তি	-9.10012
▁অভি	-9.1006
▁আইটেম	-9.10117
তকৈ	-9.10162
▁নকৰিব	-9.10213
▁গ্ৰ	-9.10234
05	-9.10306
▁যোৱা	-9.10342
ডিং	-9.10462
ki	-9.10498
য়োগ	-9.10506
দু	-9.10701
▁#	-9.10712
▁শ্ৰেণী	-9.10783
text	-9.10786
▁ধাৰণ	-9.10791
শীল	-9.11084
▁Ma	-9.11144
▁উৎ	-9.11353
▁and	-9.11451
▁উন্নত	-9.11455
▁com	-9.11793
99	-9.11814
▁প্ৰত্য	-9.11904
ধী	-9.11992
▁অহা	-9.12021
▁HTTP	-9.1213
▁একাধিক	-9.1213
77	-9.12141
ভাৱ	-9.12188
▁Assamese	-9.12241
64	-9.12503
▁অনুসৰি	-9.12811
▁তেতিয়া	-9.12811
▁তেনে	-9.12851
pre	-9.12869
91	-9.12931
ook	-9.12938
রা	-9.13087
75	-9.13248
▁সমাপ্ত	-9.13271
ga	-9.13434
mitakhya	-9.13495
ক্ষা	-9.13513
▁Re	-9.1355
▁as	-9.13589
▁অক্ষৰ	-9.13591
▁চাব	-9.13664
১৯	-9.13667
▁প্লে	-9.13799
57	-9.13919
পৰি	-9.13922
ঠি	-9.14143
▁দ্বিতীয়	-9.14185
▁প্ৰতিক্ৰিয়া	-9.14185
▁সাৰ্ভাৰ	-9.14185
88	-9.14322
▁মোৰ	-9.14404
ite	-9.14437
▁বৰ্	-9.14445
dev	-9.14651
▁পৃথক	-9.1488
▁Free	-9.14881
▁মিনিট	-9.14881
▁প্ৰেৰিত	-9.14882
▁পাব	-9.15134
▁পৰিচিত	-9.15224
▁দেখ	-9.1548
গ্ৰহ	-9.15578
▁খামখেয়াল	-9.15579
▁কাৰ	-9.15675
ষা	-9.15711
▁উপাদানৰ	-9.16278
BAR	-9.16286
লিচি	-9.16319
mail	-9.16409
▁এজন	-9.16547
▁ব্যাক	-9.16556
▁অধিকাৰ	-9.16654
▁পৰিচিতি	-9.16707
94	-9.16709
92	-9.16776
▁short	-9.16992
▁অত্যাধিক	-9.16992
▁ঘন্টা	-9.16994
▁বানান	-9.17027
▁for	-9.17038
▁থিম	-9.17045
97	-9.17057
▁তলৰ	-9.17087
▁খণ্ড	-9.17111
ach	-9.17307
▁ৰখা	-9.17382
(45	-9.17642
▁ক্লা	-9.17693
▁সাৰাংশ	-9.17708
▁পেলাব	-9.17711
▁প্ৰেৰক	-9.17758
:(_	-9.17972
প্ল	-9.18147
None	-9.1827
গুলি	-9.1842
Windows	-9.18426
▁ঢকান	-9.18426
▁বৈশিষ্ট্যাবলী	-9.18426
▁স্বয়ংক্ৰিয়	-9.18507
▁ভাৰতীয়	-9.18518
▁তালিকাভুক্ত	-9.1853
▁সম্পন্ন	-9.18607
use	-9.18747
line	-9.18814
স্থান	-9.19087
76	-9.19097
▁নোহোৱা	-9.19151
▁মাত্ৰা	-9.19167
▁ধন	-9.19262
▁অংশীদাৰী	-9.1927
ম্ভ	-9.19394
ide	-9.196
▁দেশ	-9.19619
ft	-9.19634
onit	-9.19709
▁ট্ৰেক	-9.19728
▁অবস্থায়	-9.19796
▁থ্ৰেড	-9.19881
▁দুৰ্ঘটনা	-9.19881
▁গোস্বামী	-9.19881
▁'{0}'	-9.19882
▁বার্তা	-9.19883
জ্ঞা	-9.19909
▁ধৰি	-9.19952
▁ডিস্কত	-9.19985
▁সাব	-9.19986
78	-9.20035
াগ	-9.20404
▁প্ৰণালী	-9.20464
▁ৰো	-9.20605
▁আমদানি	-9.20616
▁প্ৰত্যাশিত	-9.20616
▁ফলাফল	-9.20616
box	-9.20621
▁ডাটা	-9.20812
হু	-9.20864
স্টা	-9.20925
▁অনুসাৰে	-9.21357
▁মাউছ	-9.21359
ইন্টাৰ	-9.21385
▁নিশ্চিতৰূপে	-9.21421
user	-9.21531
▁পাৰি	-9.21795
▁ইউৰোপ	-9.22103
▁ফুকন	-9.22103
▁পৰিমাণ	-9.22104
ঘাত	-9.22179
44	-9.22179
av	-9.22349
▁বিশ্ব	-9.2249
ong	-9.22644
▁উজ্জ্বল	-9.22855
▁মৃত্যু	-9.22855
▁শেহতীয়া	-9.22855
▁ৰাখক	-9.22855
▁এনক্ৰিপ্ট	-9.22856
▁কিতাপ	-9.22866
ISO	-9.22866
▁দুটা	-9.23139
▁বাগ	-9.23273
Re	-9.23453
চিহ্ন	-9.23466
▁সংমিহলি	-9.23612
▁গ্ৰাহক	-9.23613
▁চেট	-9.23621
able	-9.23774
স্ব	-9.24113
বদ্ধ	-9.24155
ধ্য	-9.24202
▁পটভূমি	-9.24322
{	-9.24356
▁পৰিষ্কাৰ	-9.24376
▁পূৰ্বৱৰ্তী	-9.24376
▁ৱেবছাইট	-9.24376
▁ডাউনলোড	-9.24377
help	-9.24378
▁স্বচালিতভাৱে	-9.24415
▁লগিন	-9.2447
▁ড্ৰাইভাৰ	-9.24534
▁অক্ষ	-9.24542
▁ক্ষেত্ৰে	-9.24542
▁নেট	-9.24672
▁তৃতীয়	-9.25145
▁মন্তব্য	-9.25145
দিন	-9.25179
▁ব্যৱহাৰকৰ্তাৰ	-9.25348
▁পড়া	-9.25398
36	-9.25725
86	-9.25876
▁হিচাপ	-9.25892
▁থাকিলে	-9.2592
▁সংযোজন	-9.2592
▁আয়তন	-9.25921
%%	-9.25939
▁সদায়	-9.25946
68	-9.25949
47	-9.26092
ৰপৰা	-9.26115
▁সম্ভাব্য	-9.26701
▁মৌলিক	-9.26701
▁প্ৰতিনিধি	-9.26702
#	-9.26785
বেশ	-9.26818
মাত্ৰ	-9.26984
ৰ্ণ	-9.27087
(4	-9.27106
est	-9.27277
াত্মক	-9.273
▁চৰকাৰ	-9.27353
one	-9.27368
Possessive	-9.27489
▁প্ৰোগ্ৰাম	-9.27489
মিতাক্ষ	-9.2749
পূৰ্ণ	-9.27521
▁তুলি	-9.27686
▁খু	-9.27736
▁সক্ষম	-9.27932
▁নকৰি	-9.28172
▁Empathy	-9.28282
▁সাহায্য	-9.28282
▁দৃশ্যমান	-9.28284
int	-9.28389
lock	-9.28402
▁সোঁ	-9.28535
▁ক্ষমতা	-9.28703
গ্ৰা	-9.28753
ary	-9.28954
▁প্ৰচেষ্টা	-9.29082
▁নাখায়	-9.29083
▁লেখক	-9.29084
▁ফোন	-9.29174
▁ধাৰা	-9.2919
53	-9.29243
খি	-9.29272
▁সন্	-9.29291
▁প্ৰকাশিত	-9.29355
▁কাজ	-9.29408
▁ফটো	-9.2945
ari	-9.29506
tar	-9.29728
}	-9.2987
link	-9.29891
▁মহিলা	-9.29891
সাবস্ক্ৰাইব	-9.29934
▁(55	-9.2997
▁আজি	-9.30054
▁তথা	-9.30109
বিদ	-9.30447
▁পঢ়িব	-9.30701
▁Exchange	-9.30702
▁আউটপুট	-9.30702
▁ইম্পোৰ্ট	-9.30702
টু	-9.3073
own	-9.31031
out	-9.31194
েয়াৰ	-9.31404
Query	-9.31522
▁পঠাওক	-9.31537
▁–	-9.31697
(5	-9.31968
▁সহজ	-9.32216
▁পৰিসংখ্যা	-9.32348
Color	-9.32349
▁জ্ঞান	-9.324
▁(50	-9.32767
43	-9.3281
72	-9.32914
▁কৰ্মক্ষেত্ৰ	-9.33181
▁বোঁচকা	-9.33181
▁ৰুম	-9.33205
▁ফেলা	-9.33212
বিলাক	-9.33287
াঁচ	-9.33377
73	-9.33424
▁যাবে	-9.33776
128	-9.33901
মেন	-9.33903
ance	-9.33953
▁আদি	-9.3398
©	-9.34022
▁Foundation	-9.34022
▁আমৰিকা	-9.34022
▁Sora	-9.34026
▁সমাপ্তি	-9.34299
াছ	-9.34545
বিহীন	-9.34613
ity	-9.34861
CategoryName	-9.34869
protected	-9.34869
—	-9.34869
▁পৰ্যাপ্ত	-9.34869
▁সমাধান	-9.34869
▁আতৰাব	-9.3487
▁চুক্তি	-9.34883
▁2.	-9.35014
▁ডাউনল	-9.35041
▁গোট	-9.35049
▁মাৰ্ক	-9.35076
▁বক্স	-9.35147
▁খোলিব	-9.35359
ঢ	-9.3571
▁বিবৰণ	-9.35725
▁সফল	-9.35728
$$	-9.35756
▁নিবেশ	-9.35831
ine	-9.35932
71	-9.36181
man	-9.36302
edit	-9.36368
03	-9.36449
▁সম্পৰ্ক	-9.36532
▁Software	-9.36586
দ্যুতি	-9.36586
▁স্ট্ৰিম	-9.36586
▁বিতৰণ	-9.36587
atch	-9.36791
(14	-9.37001
▁অন্তত	-9.37121
42	-9.37171
▁মাধ্যম	-9.37396
▁ক্যাটাগৰি	-9.37455
▁পৰ্দ্দা	-9.37455
▁এপসন	-9.37456
বৃত্ত	-9.37459
▁ফ্লেগ	-9.3746
▁চলোৱা	-9.37464
আউট	-9.3751
▁2019	-9.37518
▁প্ৰভাৱ	-9.37579
▁bu	-9.37691
ize	-9.37713
har	-9.37717
ক্ষিত	-9.37763
▁দায়িত্ব	-9.38333
▁শিৰোনাম	-9.38333
▁বিষয়বস্তু	-9.38349
gina	-9.38354
▁মানুহ	-9.38355
▁The	-9.38513
পেক্ষা	-9.38743
ণা	-9.38871
াংশ	-9.38933
▁আইন	-9.39198
▁চিকিৎসা	-9.39216
▁QEMU	-9.39218
▁আঁতৰাবলৈ	-9.39218
▁ৰিমাইন্ডাৰ	-9.39218
▁নীলম	-9.39218
▁অতিথি	-9.39275
▁চমু	-9.39478
37	-9.39551
মূ	-9.39631
▁চীন	-9.39898
▁পৰিচালনা	-9.40031
▁সঞ্চালন	-9.4011
▁টকিঅ	-9.4011
▁সংযোগমাধ্যম	-9.4011
▁বজোৱা	-9.40111
▁কনফিগাৰেশন	-9.40117
ধু	-9.4021
▁উচিত	-9.40239
▁মধ্য	-9.40302
date	-9.40574
▁মেইলিং	-9.40637
িতা	-9.40893
а	-9.41011
▁অনুমোদিত	-9.41011
▁মূদ্ৰক	-9.41011
▁স্থগিত	-9.41011
▁স্বাস্থ্য	-9.41011
সূচক	-9.41011
▁সংখ্যক	-9.41028
Indian	-9.4135
▁__	-9.41497
▁LongName	-9.4192
▁অধিসূচনা	-9.4192
▁স্বাভাবিক	-9.4192
▁KDE	-9.41921
▁PCI	-9.41923
error	-9.41925
গ্রহ	-9.41934
▁কোড	-9.42107
▁Wi	-9.42374
ভিল	-9.42566
ক্ৰিপ্ট	-9.42803
▁ডিবাগ	-9.42839
▁মুখগত	-9.4284
▁টিপক	-9.42841
symbols	-9.42953
▁Vi	-9.43605
▁গছ	-9.43744
	-9.43764
▁ক্ষতিগ্ৰস্থ	-9.43764
▁মূদ্ৰণ	-9.43764
▁ৰূপান্তৰ	-9.43764
▁মডেল	-9.43766
}}	-9.43775
▁কৰ্মসূচী	-9.43857
ৱৰ্ত	-9.4403
▁প্ৰিন্টাৰ	-9.44109
▁উল্লেখ্য	-9.4427
▁বো	-9.44378
ল্ট	-9.44676
▁ব্যৱসায়	-9.44695
hukan	-9.44698
▁অংশগ্ৰহণকাৰী	-9.44698
ā	-9.44698
▁Ekiga	-9.44698
▁ধনৰাশি	-9.44698
▁প্ৰতিমূৰ্তি	-9.44698
▁প্ৰতিলিপি	-9.44699
▁বিকাশ	-9.44832
▁0.0	-9.44853
বেক	-9.45424
39	-9.45489
▁স্বচালিত	-9.45593
▁এনক্ৰিপশন	-9.45642
▁ৰেকৰ্ড	-9.45642
▁পংক্তি	-9.45642
▁ফাঁকা	-9.45642
পূৰ্ব	-9.45685
▁লিখুন	-9.45694
▁স্টে	-9.45701
ast	-9.45796
89	-9.46303
▁অধীনত	-9.46594
▁গোলগাল	-9.46594
▁ফোল্ডার	-9.46594
▁কেতিয়া	-9.46601
{{	-9.46606
▁ব্যৱস্থাপক	-9.46613
▁ব্যৱস্থাপ্ৰণালী	-9.46616
▁তিনি	-9.46665
70	-9.46795
▁Jan	-9.46809
▁জো	-9.47119
▁প্ৰতিষ্ঠান	-9.47284
PL	-9.47506
▁কম্পিউটাৰ	-9.47556
▁বিশিষ্ট	-9.47556
▁আতৰোৱা	-9.47556
াধিকাৰ	-9.47579
অনু	-9.47653
▁বেছি	-9.47653
Time	-9.47654
▁কুকি	-9.47731
মেন্ট	-9.47999
Va	-9.48133
স্তা	-9.48408
▁প্ৰমাণ	-9.4851
Description	-9.48527
▁ইত্যাদি	-9.48527
▁লোকচান	-9.48527
▁দিলে	-9.48944
▁দৰে	-9.49061
Contributions	-9.49507
▁জিপ্লাছ	-9.49507
▁দৈৰ্ঘ্য	-9.49507
▁প্রদর্শন	-9.49507
▁নাযাব	-9.49508
▁ব্যুৰ	-9.49588
ঠা	-9.49671
বাইল	-9.49753
হীন	-9.49958
▁..	-9.5001
(47	-9.50107
▁উদাহৰণ	-9.50496
ا	-9.50497
▁আঁচনি	-9.50497
▁পুনৰাবৃত্তি	-9.50497
▁লুকুৱা	-9.50497
disk	-9.50503
▁বীজ	-9.50514
Key	-9.50521
▁উদ্দেশ্য	-9.50687
▁খালি	-9.50731
ইয়া	-9.50792
ভুক্ত	-9.50846
▁ইমেইল	-9.50874
▁ৰাখিব	-9.50993
uti	-9.5117
▁(48	-9.5148
▁কেমেৰা	-9.51497
▁খনক	-9.52067
ock	-9.52419
▁প্ৰবিষ্টি	-9.52507
▁মখোমুখী	-9.52507
▁ক্লাএন্ট	-9.52507
▁reset	-9.52507
▁পৰিৱৰ্তন	-9.52507
▁GTK	-9.52508
▁আৰ্হি	-9.52509
▁টুল	-9.52525
▁পঠোৱা	-9.52606
▁বাটন	-9.5267
▁ঠিক	-9.52822
*	-9.52899
যা	-9.52915
query	-9.53527
▁নিৰাপদ	-9.53528
▁ফ্ল্যাগ	-9.53528
UTF	-9.53529
▁এশিয়া	-9.53533
▁পৰিয়াল	-9.53559
="	-9.53766
শেষ	-9.53819
▁দিছে	-9.53881
কাশ	-9.54076
্যু	-9.54169
▁গৃহ	-9.54553
▁ShortName	-9.54558
▁উন্নয়ন	-9.54558
▁সৰ্বোচ্চ	-9.54558
▁"{1}"	-9.54559
▁ব্যৱহাৰকৰ্তা	-9.54654
read	-9.54746
▁by	-9.54748
▁বাদ	-9.54767
ব্দ	-9.54802
চাই	-9.54904
sec	-9.55547
▁এটাচমেন্ট	-9.55601
▁গুৰুত্বপূৰ্ণ	-9.55605
File	-9.55605
▁সৰিয়ে	-9.55617
▁vir	-9.55624
▁দূৰ	-9.55682
▁কাৰ্ড	-9.56032
▁প্ৰসাৰ	-9.56563
▁গোপন	-9.56594
р	-9.56653
display	-9.56653
▁National	-9.56653
▁মনিটৰ	-9.56653
▁ঠিকানা	-9.56654
▁পৰিৱেশ	-9.56659
▁নিজৰ	-9.56744
▁প্ৰসাৰিত	-9.56771
খিনি	-9.56841
▁ট্ৰে	-9.56964
93	-9.57055
▁fs	-9.57097
▁যোগান	-9.57109
ডাউন	-9.57213
অৰ্থাৎ	-9.57717
▁কমপিউটাৰ	-9.57717
▁ভাৰ্চুৱেল	-9.57717
▁সতেজ	-9.57721
▁স্কেন	-9.57731
right	-9.57786
▁অনুকৰণ	-9.57946
▁জুম	-9.58016
▁খোলিবলে	-9.58174
বিন্যাস	-9.58399
▁আফ্ৰিকা	-9.58792
▁Bollywood	-9.58792
▁ডিৰেক্টৰি	-9.58792
▁প্ৰত্যুত্তৰ	-9.58792
▁নিৰীক্ষণ	-9.58792
ক্তি	-9.58916
▁খবৰ	-9.58934
▁ৰক্ষা	-9.59079
▁কামসূচী	-9.59312
▁দুই	-9.59617
▁ৰোগ	-9.59792
꧁	-9.59879
mdraid	-9.59879
ঝ	-9.59879
▁JSON	-9.59879
▁USB	-9.59879
▁অভিব্যক্ত	-9.59879
▁নোৱাৰে	-9.59879
▁থীম	-9.5988
info	-9.59889
▁স্থায়ীৰূপে	-9.59931
Show	-9.59985
get	-9.60169
[	-9.60364
টোৱে	-9.6051
▁জনা	-9.60638
ধৰণ	-9.60734
▁খাম	-9.60918
꧂	-9.60978
view	-9.60978
▁event	-9.60978
▁VPN	-9.60978
সমুহ	-9.60989
▁বিশ্বাস	-9.61008
▁স্ক্ৰিপ্ট	-9.61035
▁ৰাজ্য	-9.61089
74)	-9.61254
ড়ি	-9.61615
ৰ্য্য	-9.61828
▁ক্ল	-9.62018
▁পৰিকল্পনা	-9.62089
▁জড়িত	-9.6209
▁SSL	-9.62092
Play	-9.62094
▁প্ৰধান	-9.62094
▁নথকাকৈ	-9.62117
▁স্পুল	-9.62145
▁To	-9.62561
ase	-9.62563
ফোল্ডাৰ	-9.63017
সম্পূৰ্ণ	-9.63029
▁আঁতৰ	-9.63181
▁অৱশিষ্ট	-9.63212
▁নিয়ন্ত্ৰক	-9.63212
▁শেল্ফ	-9.63212
▁লিখনযোগ্য	-9.63213
▁পূৰণ	-9.63215
▁আমাক	-9.63278
▁টেবুল	-9.63302
▁গোপনীয়তা	-9.63357
ভো	-9.63415
oogle	-9.64283
Coptic	-9.64349
▁সৰ্বনিম্ন	-9.64349
▁ব্লক	-9.6435
▁hrs	-9.6435
▁প্ৰতিৰোধ	-9.64352
▁বিচৰা	-9.64356
▁শ্ৰী	-9.64357
▁ঠাই	-9.64374
▁পুৰনি	-9.64375
▁বিৰতি	-9.64426
▁ফ্ল	-9.64701
▁আপনি	-9.64914
▁বতৰ	-9.64962
টেক্সট	-9.65414
▁গোপনীয়	-9.65415
☬	-9.65479
{1}	-9.65498
▁পৰিবৰ্তিত	-9.65498
▁মূখ্য	-9.65498
▁ৰাজহুৱা	-9.65498
▁লিপি	-9.65534
▁Nil	-9.65646
▁নীৰিক্ষণ	-9.66661
▁পদাৰ্থ	-9.66661
▁স্ক্ৰিন	-9.66661
Next	-9.66663
▁ৰয়েছে	-9.66664
▁ৰহমান	-9.66664
▁টাইপ	-9.66669
▁খুলিব	-9.66706
▁অনুজ্ঞা	-9.66711
রু	-9.66982
85	-9.67706
oswami	-9.67837
window	-9.67837
message	-9.67838
▁পৰিশোধ	-9.67838
▁ব্যবস্থা	-9.67838
▁সংকলন	-9.67838
▁গৈছে	-9.67838
▁এছিয়া	-9.67843
start	-9.67845
▁হোস্ট	-9.67846
host	-9.67854
▁বৰ্জন	-9.67935
▁পঢ়িবলৈ	-9.68031
▁এতিয়াও	-9.68075
Permissions	-9.69028
▁পূৰ্বপ্ৰদৰ্শন	-9.69028
▁লাইব্ৰেৰী	-9.69028
▁সঁজুলি	-9.69028
▁সময়সীমা	-9.69028
▁স্বনিৰ্ধাৰিত	-9.69028
▁সৰ্বমোট	-9.69028
▁চিকিৎসালয়	-9.69031
▁সিহত	-9.69045
▁App	-9.69066
▁চলাওক	-9.69071
স্ট্ৰ	-9.69514
ঢ়া	-9.69967
ر	-9.70233
▁কাৰ্ছাৰ	-9.70233
▁পৰামৰ্শ	-9.70233
▁ব্যবহার	-9.70233
▁ভঁৰাল	-9.70233
▁স্ক্ৰল	-9.70234
▁media	-9.7024
▁আঁতৰাওক	-9.70246
▁ব্ৰাউজাৰ	-9.70314
▁ৰাজ	-9.71063
Ethiopian	-9.71452
▁minute	-9.71452
▁ইংৰাজী	-9.71452
▁ইন্টাৰনেট	-9.71452
▁দূৰৱৰ্তী	-9.71452
▁ৰামানুজন	-9.71452
▁নিৰ্ভৰ	-9.71452
▁চকেট	-9.71464
গুলো	-9.71615
500	-9.71752
▁কৰিছিল	-9.71768
বৰ্তী	-9.72647
MIME	-9.72687
▁IFFCO	-9.72687
▁ক্লিপবৰ্ড	-9.72687
▁প্ৰডাক্ট	-9.72687
▁মুহাম্মদ	-9.72687
▁সম্পত্তি	-9.72687
▁সৃজন	-9.72688
▁ভিন্ন	-9.72688
▁টিউব	-9.72688
▁হওয়া	-9.72697
state	-9.727
▁বাফাৰ	-9.7276
▁পৰিচালন	-9.72797
▁সম্পৰ্কিত	-9.72855
ust	-9.7298
ভিত্তিক	-9.73012
▁যাতে	-9.73399
▁টগল	-9.73938
▁ট্যাব	-9.73939
▁বিন্দু	-9.73939
▁ডাঠ	-9.74041
87	-9.74261
২০	-9.74265
▁লিখি	-9.74267
ব্যৱহাৰ	-9.74279
াঁও	-9.74409
▁চফ্টৱেৰ	-9.75203
▁প্ৰিমিয়াম	-9.75203
▁বিশ্ববিদ্যালয়	-9.75203
Sound	-9.75203
▁বৰাদ্দ	-9.75203
কারী	-9.75217
▁Google	-9.75276
▁প্ৰকাৰ	-9.7573
low	-9.76157
▁টোকা	-9.76452
▁উৎপন্ন	-9.76485
▁প্ৰভাবিত	-9.76485
▁শূণ্য	-9.76485
▁সতৰ্কবাণী	-9.76485
▁সংকোচন	-9.76485
▁ৰেখা	-9.7649
▁প্লেইন	-9.76564
▁ছেকেণ্ড	-9.76571
▁VM	-9.76858
▁কলাম	-9.77007
স্বয়ংক্ৰিয়ভাবে	-9.77637
বিধান	-9.77726
ঞ	-9.77744
দৃশ্য	-9.77781
dictionary	-9.77783
â	-9.77783
ঊ	-9.77783
▁শৈলী	-9.77783
স্খলিত	-9.77784
পশ্চিম	-9.77784
▁দ্ৰুত	-9.77785
▁অজানা	-9.77786
▁মুখ্য	-9.778
▁টাইম	-9.77808
▁পঠাব	-9.77819
▁lib	-9.77822
▁পাছত	-9.77841
▁ঘূৰ	-9.77862
সময়	-9.7837
TRUE	-9.79099
▁অবাঞ্ছিত	-9.79099
▁ইসুজু	-9.79099
▁দীঘল	-9.79099
▁ধ্বনি	-9.79099
উদাহৰণস্বৰূপ	-9.791
▁Web	-9.79101
title	-9.79102
▁ব্ৰাউছাৰ	-9.79167
▁সঠিকভাবে	-9.79235
edia	-9.79515
е	-9.80432
▁Meeting	-9.80433
▁ডকুমেন্ট	-9.80433
▁সংক্ষিপ্ত	-9.80433
▁uuid	-9.80433
▁আবন্টন	-9.80433
▁যৌথ	-9.80433
▁শতাংশ	-9.80434
▁দক্ষতা	-9.80434
▁ব্ৰিজ	-9.80434
▁বাংলা	-9.80437
পাৰ্শ্ব	-9.80447
▁প্ৰাৰম্ভিক	-9.80547
ভু	-9.8073
▁পোস্ট	-9.80803
▁প্ৰতিষ্ঠা	-9.80815
(15	-9.81256
পেড	-9.81542
▁নিষ্পেষণ	-9.81784
▁নিৰ্গম	-9.81784
▁অন্তৰ্গত	-9.81784
▁আড়াল	-9.81787
▁আলোচনা	-9.8179
▁ফীড	-9.81802
▁সংজ্ঞা	-9.81869
▁ধৰ্ম	-9.81878
▁সোম	-9.81936
খোজ	-9.8299
default	-9.83154
▁দক্ষিণ	-9.83154
print	-9.83154
▁হ্ৰাস	-9.8316
▁ছেন্ট	-9.83201
▁সঠিকৰূপে	-9.83253
▁মুঠ	-9.83428
াবিব	-9.83522
▁নিৰ্বাচক	-9.84543
‍	-9.84543
▁উদ্ধৃত	-9.84543
▁কোৰআন	-9.84543
▁অভিনেতা	-9.84543
▁গ্ৰন্থ	-9.84543
▁স্কিমা	-9.84543
▁থাকলে	-9.84544
▁this	-9.84545
▁চেনেল	-9.84549
▁আনলক	-9.84571
84)	-9.8476
গছনি	-9.84767
http	-9.85479
ü	-9.85951
▁পৰিপ্ৰেক্ষতিত	-9.85951
▁বিপৰীত	-9.85951
▁ৰিচাৰ্ছ	-9.85951
▁বিলম্ব	-9.85954
▁সংকেত	-9.85967
▁নাকচ	-9.85984
User	-9.85985
জীৱ	-9.87374
о	-9.8738
স্বাভাৱিক	-9.8738
▁weekday	-9.8738
▁ফাইলচিস্টেম	-9.8738
▁বহিৰ্তম	-9.8738
▁বাইনাৰি	-9.8738
▁শুধুমাত্ৰ	-9.8738
Ð	-9.8738
menu	-9.87385
▁সামৰি	-9.87388
econd	-9.87394
▁লিংক	-9.87402
১৫	-9.87989
▁প্ৰাৰম্ভ	-9.88708
69	-9.88723
▁(100	-9.88793
iCalImp	-9.88829
▁পাচফ্ৰেইছ	-9.88829
status	-9.88829
▁দেওয়া	-9.88829
▁ইঞ্জিন	-9.88829
load	-9.88829
آ	-9.8883
group	-9.88831
▁চাৰ্জ	-9.88835
Xxx	-9.88839
▁ৰেড	-9.88949
▁সংস্থা	-9.89699
আপোনাৰ	-9.90025
▁MAPI	-9.903
▁কনচৌল	-9.903
▁মাইগ্ৰেট	-9.903
▁ৰফিকুল	-9.903
▁PGP	-9.90301
আপুনাৰ	-9.90302
▁আকৃতি	-9.9031
▁চলমান	-9.90312
Bus	-9.90409
বৰ্তন	-9.90614
ell	-9.91376
▁ধাৰ্য	-9.91673
▁ক্লিপ	-9.91789
button	-9.91792
▁আনুভূমিক	-9.91792
▁Folder	-9.91792
▁আবেদন	-9.91792
▁XXX	-9.91792
▁তেওঁলোকৰ	-9.91792
▁আগবাঢ়ি	-9.91792
▁খুলুন	-9.91793
URA	-9.91796
☬✞	-9.91817
▁ফলক	-9.91901
▁প্ৰত্যক্ষ	-9.91936
▁ছাইট	-9.91948
ান্ডা	-9.92553
н	-9.93307
Linux	-9.93307
▁SOCKS	-9.93307
▁আগবঢ়োৱা	-9.93307
▁ব্যাখ্যা	-9.93307
▁সূচনাপ্ৰদান	-9.93307
▁নিজস্ব	-9.93307
work	-9.93309
▁অন্তিম	-9.9331
▁অনুপাত	-9.93316
ask	-9.93363
▁আধাৰ	-9.93379
ugu	-9.94422
Search	-9.94846
▁vCard	-9.94846
▁অপসাৰণ	-9.94846
▁এক্সট্ৰেক্ট	-9.94846
▁মেটাৰ্চ	-9.94846
▁দৰঙী	-9.94846
▁সফলতাৰে	-9.94846
▁স্ক্ৰিনশ্বট	-9.94846
▁কেনেকৈ	-9.94846
▁বৰ্ণনা	-9.94846
▁TLS	-9.94849
▁খৰচ	-9.94903
▁নথকা	-9.9637
▁জ্যোতি	-9.96408
▁সুনিশ্চিত	-9.96408
▁ঘুৰাই	-9.96408
▁ইফকো	-9.96409
▁নিবন্ধ	-9.96412
▁সন্তান	-9.96413
শাৰী	-9.96509
add	-9.96722
বলগীয়া	-9.96814
▁(593	-9.9687
▁ব্ৰাউজ	-9.97888
▁চিড়িতনৰ	-9.97995
▁জনপ্ৰিয়	-9.97995
▁সংলগ্ন	-9.97995
ř	-9.97996
▁তথাপিও	-9.97996
▁অনুলিপি	-9.97996
▁সঁচা	-9.97996
▁অতিক্ৰম	-9.97996
▁বেটাৰি	-9.97997
▁অপশন	-9.97999
▁গৃহস্থ	-9.98014
▁শিল্প	-9.98041
▁শিশু	-9.98057
▁গ্লে	-9.98079
▁বাইট	-9.98186
ভেদ	-9.98295
াষ্ট্	-9.99322
▁Outlook	-9.99608
▁SMTP	-9.99608
▁অগ্ৰাহ্য	-9.99608
▁ইশকাপনৰ	-9.99608
▁তেখেত	-9.99608
▁ৰুহিতনৰ	-9.99608
header	-9.99609
▁ফৰমেট	-9.99609
▁অনুক্ৰম	-9.9961
▁পাওয়া	-9.9961
▁ক্লিপবোৰ্ড	-9.99613
▁কৰ্মস্থলৰ	-9.99613
card	-9.99623
▁ৱেবপৃষ্ঠা	-9.99628
▁তুলনা	-10.0001
▁চলন	-10.0112
▁brasero	-10.0125
▁উপধায়ক	-10.0125
▁ডায়লগ	-10.0125
▁দায়বদ্ধতা	-10.0125
▁প্ৰতিবেদন	-10.0125
▁সঞ্চালিত	-10.0125
▁ৰাষ্ট্ৰীয়	-10.0125
▁job	-10.0125
▁ইঙ্গিত	-10.0125
স্বামী	-10.0125
▁কর্ম	-10.0129
unja	-10.013
ব্যৱস্থা	-10.0151
হৈছে	-10.0151
▁ৰুট	-10.0167
▁পালন	-10.0208
%.1	-10.0211
▁ধজভংগ	-10.0291
▁সিস্টেম	-10.0291
number	-10.0291
▁সোঁফালে	-10.0291
Gadu	-10.0291
device	-10.0292
▁এইচকিউ	-10.0292
ê	-10.0292
▁হৰতনৰ	-10.0292
▁প্ৰস্তাব	-10.0292
▁কাগজ	-10.0292
▁করতে	-10.0292
▁ব্যবহাৰকাৰীৰ	-10.0292
স্থাপন	-10.0319
▁স্কেইল	-10.032
প্ৰণালী	-10.0322
অসমীয়া	-10.0327
version	-10.0461
▁before	-10.0461
▁iCalendar	-10.0461
▁অব্যাহত	-10.0461
▁বাৰ্ষিক	-10.0461
▁সম্প্ৰসাৰণ	-10.0461
Type	-10.0461
▁পৰিবহন	-10.0461
▁ৰেজিস্টাৰ	-10.0461
ҟ	-10.0461
▁xxx	-10.0461
▁প্ৰটোকল	-10.0461
▁স্বচ্ছতা	-10.0461
▁একত্ৰিত	-10.0461
ব্যাপী	-10.0461
▁জন্ম	-10.0461
▁দৰুন	-10.0463
াৱলী	-10.0514
▁কনফিগাৰ	-10.0632
current	-10.0633
ডব্লিউ	-10.0633
▁ভ্ৰমণ	-10.0633
▁Gtk	-10.0634
Action	-10.0634
▁সোমাওক	-10.0635
▁One	-10.0636
▁যোগ্যতা	-10.0638
উপাদানৰ	-10.0687
°	-10.0809
▁প্ৰত্যাখ্যান	-10.0809
▁প্ৰদর্শন	-10.0809
▁ফলস্বৰূপ	-10.0809
▁বর্তমান	-10.0809
▁বৰ্ত্তমান	-10.0809
tooltip	-10.0809
Ŧ	-10.0809
▁খসড়া	-10.0809
▁আহৰণ	-10.0809
▁কাৰ্চাৰ	-10.0809
▁সমষ্টি	-10.0809
▁KPR	-10.0809
color	-10.0809
space	-10.0809
▁অবস্থিত	-10.0809
▁জন্মদিন	-10.081
DVD	-10.0872
▁নিৰ্মাতা	-10.0987
▁পৰিচালক	-10.0987
▁ভূমিকা	-10.0987
▁সংগঠক	-10.0987
▁সংশোধন	-10.0987
▁ৰপ্তানি	-10.0987
▁ৱাৰেন্টি	-10.0987
address	-10.0987
▁অনুসৰণ	-10.0987
gnome	-10.0987
লুকাওক	-10.0988
▁প্ৰমাণীত	-10.0988
▁আঁকা	-10.0988
কালীন	-10.0989
sync	-10.0991
▁Flo	-10.0992
▁প্ৰতীক	-10.1025
‘	-10.1053
NAME	-10.1169
ن	-10.1169
html	-10.1169
▁NameMeeting	-10.1169
▁Xiaomi	-10.1169
▁গৱেষণা	-10.1169
▁বেকএণ্ড	-10.1169
create	-10.1169
▁ম্যাদ	-10.117
▁মাল্টি	-10.117
▁চাকৰি	-10.117
▁UID	-10.117
▁মধ্যবৰ্তী	-10.117
▁ৰাখা	-10.1172
▁জাপান	-10.1186
[[	-10.1217
Mac	-10.1219
action	-10.1255
▁ৰাখি	-10.1263
▁ৰচনা	-10.1293
ক্ষমতা	-10.1329
▁সুমুৱা	-10.1352
language	-10.1354
▁GroupWise	-10.1354
▁কিচ্কিচ্	-10.1354
▁খোলোঁতে	-10.1354
▁বাওঁফালে	-10.1354
▁সুনিৰ্দিষ্ট	-10.1354
▁এনকোডিং	-10.1354
▁তাগিদ	-10.1354
▁ৱেবচাইট	-10.1354
▁নিযুক্তক	-10.1355
▁বাইন্ড	-10.1355
বোৰ্ড	-10.1357
▁হেৰাই	-10.1358
পৃষ্ঠা	-10.1447
▁ডেস্কট	-10.1517
▁গুৰুত্ব	-10.1542
ঋ	-10.1543
▁বাণিজ্য	-10.1543
ск	-10.1543
▁USA	-10.1543
slot	-10.1543
▁নিৰ্মিত	-10.1543
▁প্ৰবন্ধ	-10.1543
▁জীৱন্ত	-10.1544
▁বাছাই	-10.1544
▁আত্ম	-10.1554
ight	-10.1723
`	-10.1735
▁মহাসাগৰ	-10.1735
▁Microsoft	-10.1735
▁check	-10.1735
▁ডাটাবেইচ	-10.1735
▁তৈয়াৰ	-10.1735
volume	-10.1735
▁অপৰিচিত	-10.1735
▁পূৰ্ণসংখ্যা	-10.1735
custom	-10.1735
delete	-10.1735
▁Open	-10.1735
▁বুজুৱা	-10.1735
▁গাড়ী	-10.1735
▁যাওয়া	-10.1735
▁সনাক্ত	-10.1735
▁যৌন	-10.1736
▁প্ৰসংগ	-10.1736
▁ব্যৱসায়ীক	-10.1736
▁প্লেয়াৰ	-10.1736
▁অমিল	-10.1738
system	-10.1931
▁PKCS	-10.1931
▁SpamAssassin	-10.1931
▁ইনক্ৰিপষণ	-10.1931
▁প্ৰৱিষ্টি	-10.1931
▁স্বাগতম	-10.1931
▁RAID	-10.1931
▁এপ্লেট	-10.1931
▁প্ৰশান্ত	-10.1931
wiki	-10.1932
Spot	-10.1932
▁ওচৰত	-10.1932
▁নীচে	-10.1932
▁সম্ভৱতঃ	-10.1932
জাতীয়	-10.1934
▁গণিতজ্ঞ	-10.2087
▁02110-1301	-10.2131
▁clips	-10.2131
▁অভিনায়ক	-10.2131
▁কীপ্যাড	-10.2131
▁ক্ষেত্র	-10.2131
▁দ্বীপপুঞ্জ	-10.2131
▁ফৰৱাৰ্ড	-10.2131
▁ভাৰছুৱেল	-10.2131
▁মডিউল	-10.2131
▁মেটাডাটা	-10.2131
د	-10.2131
▁দিল্লী	-10.2131
▁আঁতৰাওঁ	-10.2131
▁সংৰেখন	-10.2131
▁ক্লেইম	-10.2131
▁সময়অন্ত	-10.2131
gconf	-10.2132
▁কৰ্মচাৰী	-10.2132
▁ট্যাগ	-10.2132
play	-10.2132
▁সমাজ	-10.2132
recurr	-10.2336
▁কীচেইনে	-10.2336
▁নিষ্কাষণ	-10.2336
▁পঠাওতে	-10.2336
▁পঠিওৱা	-10.2336
▁বলৱৎ	-10.2336
▁বোধগম্য	-10.2336
▁লাইসেন্স	-10.2336
▁হস্পিটেলত	-10.2336
▁অভিগম্যতা	-10.2336
▁উলোটা	-10.2336
▁মেয়াদ	-10.2336
▁গঠন	-10.2336
▁সতৰ্ক	-10.2336
▁সূচি	-10.2336
▁ছালাত	-10.2337
▁আকৌ	-10.2337
▁খাদ্য	-10.234
▁Fift	-10.2349
▁বয়স	-10.2464
নিৰ্দেশ	-10.2478
বস্তু	-10.249
সম্পন্ন	-10.2491
বিজ্ঞান	-10.2492
▁ব্ৰাউছ	-10.2533
Select	-10.2544
▁qemu	-10.2544
▁গ্ৰাফিক্স	-10.2544
▁জৰিয়তে	-10.2544
▁নাথাকিব	-10.2544
▁নিৰাপত্তা	-10.2544
▁নূন্যতম	-10.2544
▁লিমাজীন	-10.2544
libvirt	-10.2544
▁পাৰবেন	-10.2544
▁URl	-10.2544
full	-10.2544
▁কম্বো	-10.2544
klin	-10.2544
▁সোধা	-10.2544
spec	-10.2545
show	-10.2545
▁কাৰ্য্যালয়	-10.2547
▁বদল	-10.2564
▁প্লা	-10.2588
সংখ্য	-10.2627
অবিকল্পিত	-10.2714
সংহতি	-10.2714
আপুনি	-10.2714
source	-10.2757
в	-10.2757
▁Archive	-10.2757
▁Street	-10.2757
▁অছাল্লাম	-10.2757
▁অনুভূমিক	-10.2757
▁ঘোষণা	-10.2757
▁চাল্লাল্লাহু	-10.2757
▁থাম্বনেইল	-10.2757
▁নির্বাচন	-10.2757
▁প্ৰোটোকল	-10.2757
▁ব্যৱহাৰকৰোঁতা	-10.2757
▁সংস্কৃতি	-10.2757
▁সন্দৰ্ভ	-10.2757
▁সম্বন্ধীয়	-10.2757
cript	-10.2757
▁June	-10.2757
▁খুলতে	-10.2757
connect	-10.2757
drive	-10.2757
▁বেলেগ	-10.2757
▁স্বয়ং	-10.2758
▁জীবন	-10.2759
▁ইউনিক	-10.276
ট্ট	-10.2878
▁অংশগ্ৰহণকৰ্তা	-10.2974
account	-10.2974
folder	-10.2974
server	-10.2974
বৈকল্পিক	-10.2974
▁Shotwell	-10.2974
▁অনাকাঙ্ক্ষিত	-10.2974
▁অভিজ্ঞতা	-10.2974
▁অৱশ্যে	-10.2974
▁একেলগে	-10.2974
▁জ্যামিতি	-10.2974
▁পরিচিতি	-10.2974
▁বিজ্ঞাপন	-10.2974
▁ব্লুটুথ	-10.2974
▁হাৰ্ডৱেৰ	-10.2974
▁প্ৰণয়ন	-10.2974
▁প্ৰস্তাৱ	-10.2974
▁ব্যর্থ	-10.2974
▁সংরক্ষণ	-10.2974
▁পৰিস্থিতি	-10.2975
auto	-10.2976
রূপে	-10.3196
▁Jabber	-10.3196
▁reminder	-10.3196
▁খেলোয়াড়	-10.3196
▁প্লেটফৰ্মত	-10.3196
▁বৰকটকী	-10.3196
▁লাইব্ৰেৰি	-10.3196
▁সময়অঞ্চল	-10.3196
▁আব্দুল	-10.3196
▁ফজিলত	-10.3196
ompany	-10.3196
▁ক্ৰীড়া	-10.3196
▁অভিধান	-10.3196
▁প্ৰদৰ্শক	-10.3197
গ্ৰুপ	-10.3199
ছেকেণ্ডত	-10.3334
▁symbol	-10.3395
disabled	-10.3423
▁NULL	-10.3423
▁Pidgin	-10.3423
▁every	-10.3423
▁টানেলিং	-10.3423
▁মুছলিম	-10.3423
▁সম্বন্ধে	-10.3423
কেটেগৰী	-10.3424
▁একাউণ্ট	-10.3424
▁আলাইহি	-10.3424
ember	-10.3424
▁আতৰাই	-10.3424
▁চলচিত্ৰ	-10.3424
▁বিক্ৰী	-10.3424
▁অংশীদাৰ	-10.3618
েন্দ্ৰ	-10.364
স্ক্ৰাইব	-10.3643
সন্ধান	-10.3653
scape	-10.3656
▁দ্বন্দ্ব	-10.3656
(13181)	-10.3656
period	-10.3656
▁Insurance	-10.3656
▁SASL	-10.3656
▁variant	-10.3656
▁টেমপ্লেট	-10.3656
▁পাছওৱাৰ্ড	-10.3656
▁বিদ্যমান	-10.3656
Disc	-10.3656
▁ব্যবস্থাপনা	-10.3656
▁আচৰণ	-10.3656
▁been	-10.3656
(4843)	-10.3656
▁প্ৰগতি	-10.3657
Ctrl	-10.3657
okio	-10.3665
config	-10.3894
Privacy	-10.3894
Subject	-10.3894
benchmark	-10.3894
▁UUID	-10.3894
▁বিপদাশংকা	-10.3894
▁শ্বাইখ	-10.3894
▁স্বত্বাধিকাৰ	-10.3894
friend	-10.3894
▁বিনামুল	-10.3894
▁আৰক্ষী	-10.3894
▁এখানে	-10.3894
▁উত্স	-10.3894
▁পেইস্ট	-10.3894
▁পৰিণতি	-10.3895
ন়্	-10.3897
▁প্ৰশাসন	-10.4138
পৰিস্ৰাৱক	-10.4138
▁Economic	-10.4138
▁dbus	-10.4138
▁অক্টোবৰ	-10.4138
▁আমন্ত্ৰণ	-10.4138
▁আল্লাহৰ	-10.4138
▁ক্ষতিপূৰণ	-10.4138
▁নৱীকৰণ	-10.4138
▁পঢ়োতে	-10.4138
▁পদক্ষেপ	-10.4138
▁পৰিস্ৰাৱন	-10.4138
forward	-10.4138
▁অগ্ৰসৰ	-10.4138
▁বিৰুদ্ধে	-10.4138
▁ট্যাবলৌ	-10.4138
▁Image	-10.4138
▁True	-10.4138
▁কল্পনা	-10.4138
▁প্রক্সি	-10.4138
Create	-10.4139
▁অডিও	-10.4139
অথবা	-10.4162
প্ৰাপ্ত	-10.4163
desktop	-10.4388
example	-10.4388
м	-10.4388
ঔ	-10.4388
▁অবিহনে	-10.4388
▁দৈনিক	-10.4388
▁মীমাংসা	-10.4388
▁মুদ্ৰণ	-10.4388
▁সংক্রান্ত	-10.4388
▁সাপ্তাহিক	-10.4388
▁হেঁচকা	-10.4388
▁অধ্যয়ন	-10.4388
▁ব্যতিক্ৰম	-10.4388
Socket	-10.4388
▁নিৰূপণ	-10.4388
▁পৰিসেবা	-10.4388
▁ঈশান	-10.4388
▁পৃষ্ঠ	-10.4554
▁অস্তিত্ব	-10.4644
ē	-10.4644
и	-10.4644
অগ্নিকাণ্ড	-10.4644
▁অলিম্পিয়াড	-10.4644
▁আগবঢ়াওক	-10.4644
▁এক্সিকিউট	-10.4644
▁ডায়ালগ	-10.4644
▁প্ৰদৰ্শনক্ষেত্ৰ	-10.4644
▁বর্ষপঞ্জি	-10.4644
▁বৈদ্যুতিক	-10.4644
▁সংঘঠন	-10.4644
{2}	-10.4644
▁নাগৰিক	-10.4644
▁চিনেমা	-10.4645
▁যাচ্ছে	-10.4645
বহিয়ের	-10.4648
ঈ	-10.4688
সপ্তাহ	-10.4695
সন্মত	-10.4753
abbreviated	-10.4908
▁Policy	-10.4908
▁style	-10.4908
▁অপ্ৰকাশিত	-10.4908
▁গোছলখানা	-10.4908
▁ঘূৰ্ণন	-10.4908
▁ডিচেম্বৰ	-10.4908
▁পুনাৰম্ভ	-10.4908
▁ফৰওয়াৰ্ড	-10.4908
▁বাওঁফালৰ	-10.4908
▁সিদ্ধান্ত	-10.4908
▁হ্যান্ডব্যাগ	-10.4908
▁‍অজ্ঞাত	-10.4908
password	-10.4908
ب	-10.4908
▁এনালগ	-10.4908
▁ধন্যবাদ	-10.4908
▁বঁটা	-10.4908
evolution	-10.5178
toolbar	-10.5178
ç	-10.5178
▁appointment	-10.5178
▁অতিস্বনক	-10.5178
▁অত্যন্ত	-10.5178
▁অস্বচ্ছতা	-10.5178
▁আঙ্গুলি	-10.5178
▁তৎক্ষনাত	-10.5178
▁থাকবে	-10.5178
▁দ্বীপ	-10.5178
▁পৃথিৱী	-10.5178
▁বুজাবলৈ	-10.5178
▁ভৌগলিক	-10.5178
▁সম্ভাবনা	-10.5178
▁সাৰ্বজনীন	-10.5178
▁নালাগে	-10.5178
▁পৰ্যন্ত	-10.5178
▁সম্ভাৱনা	-10.5178
▁যিহেতু	-10.5178
▁লোমষ	-10.5178
▁ICQ	-10.5178
content	-10.5178
▁অভিযান	-10.5178
▁বজাওক	-10.5178
Group	-10.5178
ইতিহাস	-10.5259
lobal	-10.5456
ನ	-10.5456
▁GConf	-10.5456
▁Nautilus	-10.5456
▁STUN	-10.5456
▁Service	-10.5456
▁Skype	-10.5456
▁Tamuz	-10.5456
▁libxenlight	-10.5456
▁অস্বাক্ষৰ	-10.5456
▁ইভেন্ট	-10.5456
▁এলগৰিথম	-10.5456
▁কম্পোনেন্ট	-10.5456
▁গাণিতিক	-10.5456
▁জানুৱাৰী	-10.5456
▁নিৰ্ঘন্ট	-10.5456
▁নীড়পাতা	-10.5456
▁সঞ্চালক	-10.5456
▁সোনকালে	-10.5456
▁সৌন্দৰ্য	-10.5456
▁স্খলন	-10.5456
ه	-10.5456
ل	-10.6035
ō	-10.6339
я	-10.6651
ा	-10.6651
ī	-10.6974
ي	-10.6974
ी	-10.6974
г	-10.6974
ğ	-10.7307
т	-10.7307
س	-10.7307
م	-10.7307
द	-10.7652
л	-10.8009
न	-10.8009
ö	-10.8009
д	-10.8379
–	-10.8681
у	-10.8764
ی	-10.9164
॥	-10.9164
्	-10.9164
к	-11.0015
“	-11.0463
с	-11.0946
~	-12.8078
ঐ	-13.6919
ş	-13.692
•	-13.6921
×	-13.6922
»	-13.6923
ৣ	-13.6923
