<unk>	0
<s>	0
</s>	0
ৰ	-3.67773
▁	-3.95239
'	-4.04102
s	-4.09356
)	-4.16951
▁কৰা	-4.27962
।	-4.38857
,	-4.40947
:	-4.43986
-	-4.44033
▁কৰক	-4.49456
▁%	-4.66654
▁(_	-4.86028
ব	-4.89702
▁হ	-4.99024
ত	-4.99064
▁(	-5.13113
▁এটা	-5.32284
▁বাবে	-5.32421
▁আৰু	-5.35615
ে	-5.38489
ক	-5.42433
▁এই	-5.44017
▁।	-5.52389
.	-5.56239
▁কৰিব	-5.58449
▁হৈছে	-5.58462
;	-5.63517
▁ৰ	-5.64302
▁পৰা	-5.70641
▁'%	-5.71742
▁ব্যৰ্থ	-5.75416
_	-5.80291
▁কাম	-5.81652
/	-5.82037
▁তথ্য	-5.90011
▁নহয়	-5.90717
▁নাম	-5.9256
▁-	-5.93439
▁দ্বাৰা	-5.93476
লে	-5.94067
"	-5.947
▁ব্যৱহাৰ	-5.98346
d	-5.99562
সমূহ	-6.00518
▁বা	-6.07257
▁নাই	-6.08146
য়	-6.08448
▁'	-6.10733
ন	-6.1433
▁কোনো	-6.1438
▁ফোল্ডাৰ	-6.15665
▁নে	-6.16866
ল	-6.18138
▁কৰি	-6.18549
▁আপুনি	-6.20726
▁বাৰ্তা	-6.22047
▁ফাইল	-6.22593
Name	-6.24857
▁"	-6.2505
▁প্ৰদৰ্শন	-6.26125
▁কৰিবলৈ	-6.2681
▁নতুন	-6.29053
▁কৰিবলে	-6.30266
▁সৈতে	-6.33602
▁আপোনাৰ	-6.33948
েৰ	-6.35288
▁ক	-6.36279
&	-6.36838
▁কি	-6.3739
▁নোৱাৰি	-6.4144
▁তালিকা	-6.41595
▁মান	-6.41609
▁কৰে	-6.4385
gt	-6.43885
▁ঠিকনা	-6.45018
টো	-6.47243
?	-6.47934
▁আছে	-6.49007
▁ই	-6.51939
▁হয়	-6.52067
S	-6.53205
ড	-6.543
▁সংৰক্ষণ	-6.54681
...	-6.54799
▁অথবা	-6.55364
▁ত্ৰুটি	-6.56608
▁ত	-6.58443
▁সময়	-6.6128
▁সংযোগ	-6.61732
▁নথিপত্ৰ	-6.61993
ম	-6.62799
▁ন	-6.64183
▁1	-6.64301
▁অ	-6.66861
’	-6.67782
▁এ	-6.69115
▁পৰিবৰ্তন	-6.7555
ই	-6.76304
▁মতামত	-6.76549
A	-6.76947
▁আৰম্ভ	-6.77318
▁Evolution	-6.78065
▁হব	-6.80047
লৈ	-6.80182
▁নিৰ্বাচিত	-6.81355
▁উপস্থিত	-6.81679
▁যোগ	-6.81882
▁চিহ্নিত	-6.83638
▁প্ৰাপ্ত	-6.83769
e	-6.84844
a	-6.8547
▁সৃষ্টি	-6.8553
▁ছবি	-6.8694
▁হোৱা	-6.89832
▁=	-6.91531
l	-6.91932
▁নাযায়	-6.9358
▁বিন্যাস	-6.9412
▁কৰোঁতে	-6.9588
C	-6.96542
%	-6.97536
টি	-6.97583
u	-6.97833
▁সকলো	-6.9869
▁সংখ্যা	-7.00991
R	-7.0268
া	-7.02963
ি	-7.03008
কে	-7.03766
▁বন্ধ	-7.0404
▁পৰিচয়	-7.04089
▁না	-7.06096
x	-7.06144
▁পোৱা	-7.06144
▁চুমাচুমি	-7.06195
▁ডিভাইচ	-7.06253
▁প	-7.07158
D	-7.07307
▁অনুগ্ৰহ	-7.11397
▁চমকানি	-7.11961
t	-7.12259
▁ডিস্ক	-7.12343
▁মেইল	-7.12854
T	-7.13044
▁কাৰ্য্য	-7.13092
▁আ	-7.13228
▁ল	-7.13456
o	-7.13753
▁পাৰে	-7.14723
▁যদি	-7.14965
M	-7.15601
▁ব্যৱহৃত	-7.1586
▁স	-7.15988
P	-7.16022
▁সংক্ৰান্ত	-7.16452
▁নিৰ্ধাৰণ	-7.16452
▁"%	-7.17316
▁Name	-7.17381
চ	-7.17556
▁নিৰ্বাচন	-7.18081
n	-7.184
▁পৃষ্ঠা	-7.19088
হ	-7.19307
মেইল	-7.20166
▁সক্ৰিয়	-7.20396
▁স্থানান্তৰ	-7.2076
▁থকা	-7.21552
▁ধৰণ	-7.21624
▁নিৰ্মাণ	-7.22209
▁সম্ভৱ	-7.22904
প	-7.23426
তা	-7.24789
▁অবৈধ	-7.2489
ী	-7.25303
▁&	-7.25442
▁হল	-7.26057
▁চমকানো	-7.26661
i	-7.26734
▁Comment	-7.27829
▁যি	-7.28349
▁ফ	-7.28415
▁সন্ধান	-7.28933
F	-7.28961
াৰ	-7.29458
▁of	-7.29644
▁নগল	-7.30426
তে	-7.30447
▁বৰ্তমান	-7.30884
▁হিচাপে	-7.30935
▁কপি	-7.3125
▁ছলচাতুরী	-7.31279
▁শৃগালী	-7.31279
]	-7.32292
▁অক্ষম	-7.3234
▁অৱস্থা	-7.32539
▁সমৰ্থিত	-7.33168
p	-7.33319
▁2	-7.33515
▁পৰীক্ষা	-7.33601
m	-7.34228
)...	-7.35909
িত	-7.36653
c	-7.367
O	-7.37204
@	-7.37327
▁নেটৱাৰ্ক	-7.3738
গ	-7.37793
স	-7.37897
▁_	-7.37993
▁সংহতি	-7.38006
B	-7.38314
না	-7.38365
lt	-7.38745
▁বস্তু	-7.39164
▁/	-7.39779
▁স্থান	-7.40061
▁যে	-7.40249
▁উপলব্ধ	-7.40791
▁মচি	-7.41129
▁কৰোতে	-7.41309
E	-7.41437
ট	-7.42865
▁অন্য	-7.43105
▁সম্পূৰ্ণ	-7.43418
▁দেখুৱাওক	-7.43848
লা	-7.44958
▁বৈশিষ্ট্য	-7.45145
L	-7.45748
▁সমস্যা	-7.465
র	-7.47197
▁A	-7.47723
▁চ	-7.47726
এ	-7.47811
▁আবৃত	-7.48181
ৰা	-7.48597
▁একটি	-7.48615
▁দিয়া	-7.49121
1	-7.49153
▁3	-7.49378
N	-7.49513
সমূহৰ	-7.4963
▁বাতিল	-7.49713
▁এক	-7.50083
▁name	-7.50382
▁সংস্কৰণ	-7.50642
ো	-7.50783
▁পুনৰ	-7.51256
▁অজ্ঞাত	-7.51343
▁শব্দ	-7.51353
▁হৈ	-7.51486
(	-7.5153
f	-7.5156
▁অনুসন্ধান	-7.52013
▁ৰং	-7.53053
নি	-7.54026
য়ে	-7.54196
ও	-7.54458
▁ভিডিঅ	-7.56458
▁আকাৰ	-7.56936
r	-7.57129
▁কৰ্ম	-7.57434
▁লে	-7.57677
▁ও	-7.57739
▁ম	-7.58033
I	-7.58362
▁ইয়াৰ	-7.58438
▁পাছৱাৰ্ড	-7.58813
▁বিনিময়	-7.59927
▁প্ৰেৰণ	-7.59931
▁http	-7.59982
”	-7.60311
▁উৎস	-7.60539
▁অবিকল্পিত	-7.6121
▁লাগিব	-7.61278
g	-7.61802
▁কেৱল	-7.61929
▁প্ৰদান	-7.62065
▁আলো	-7.62175
2	-7.62464
▁অনুমতি	-7.62721
▁বৰ্তমানে	-7.6346
▁অংশ	-7.63643
▁S	-7.63694
▁[	-7.64473
▁ইয়াক	-7.64876
▁প্ৰয়োজন	-7.65215
▁(%	-7.65378
▁লৈ	-7.65738
▁উত্তৰ	-7.66155
বা	-7.66814
er	-7.66816
▁G	-7.67292
",	-7.67356
▁বৈধ	-7.67628
▁জন্য	-7.68124
▁অৱস্থান	-7.68204
▁উইন্ডো	-7.68414
▁কিন্তু	-7.6875
▁বাছক	-7.69212
▁অন্তৰ্ভুক্ত	-7.69581
▁পথ	-7.69643
b	-7.70135
▁কাৰণে	-7.70349
জ	-7.7094
▁লাটভিয়ান	-7.71074
U	-7.71257
▁বীমা	-7.7192
▁কল	-7.72075
▁প্ৰ	-7.72355
▁ব্যক্তিগত	-7.72422
ং	-7.72864
▁কমান্ড	-7.7302
k	-7.7305
h	-7.73389
type	-7.73569
▁বিকল্প	-7.73662
y	-7.7425
▁অধিক	-7.7433
▁তাৰ	-7.74626
▁সংযুক্ত	-7.75086
মা	-7.75104
▁নি	-7.75302
▁the	-7.75375
িক	-7.75414
▁বি	-7.75457
বোৰ	-7.75495
▁P	-7.75581
▁বিশ্লেষণ	-7.76128
▁প্ৰতি	-7.76599
▁কেলেন্ডাৰ	-7.77903
▁বাৰ্তাৰ	-7.78397
▁ক্ষেত্ৰত	-7.78542
▁label	-7.79024
=	-7.79116
▁চাৰ্ভাৰ	-7.79468
▁C	-7.79601
▁ৰঙ	-7.80581
▁ৰিক্ত	-7.80743
v	-7.81088
▁অনুৰোধ	-7.81216
▁কৰিছে	-7.81534
▁উদ্দেশ্যে	-7.81798
▁»	-7.8193
4	-7.82077
▁মি	-7.82255
ৰি	-7.82447
ইন	-7.82834
▁size	-7.8303
▁প্ৰয়োগ	-7.83189
িয়া	-7.83498
▁গ্ৰহণ	-7.83898
▁সমৰ্থন	-7.8484
://	-7.85116
▁সমূহ	-7.85236
▁অসমীয়া	-7.85358
paper	-7.85581
3	-7.85863
▁ব্যৱস্থা	-7.86335
বাৰ	-7.86433
শ	-7.8646
▁?	-7.86503
▁তাৰিখ	-7.86868
H	-7.87019
ঔৣ	-7.87078
▁নিম্নলিখিত	-7.87079
▁পিছত	-7.87452
▁ইচ্ছুক	-7.87587
▁কৰো	-7.88007
▁আমি	-7.88034
▁আন	-7.88266
▁দিন	-7.88306
ান	-7.88474
ed	-7.88828
াই	-7.8883
▁প্ৰমাণপত্ৰ	-7.89213
▁উ	-7.89512
5	-7.89601
▁স্থানীয়	-7.9041
▁ক্লিক	-7.90478
▁গুপ্তশব্দ	-7.9048
▁স্বাক্ষৰ	-7.90661
▁প্ৰক্ৰিয়া	-7.90942
▁আমাৰ	-7.91512
▁খোলা	-7.91616
্য	-7.91885
▁হবে	-7.92203
▁উল্লেখ	-7.92484
▁a	-7.92586
▁থেকে	-7.9282
▁ডমেইন	-7.92829
▁আঁতৰুৱা	-7.93244
੔	-7.93574
▁হেডাৰ	-7.94077
্	-7.94435
6	-7.94569
খন	-7.94721
▁মা	-7.94939
কি	-7.95013
িং	-7.95069
▁হয়েছে	-7.95121
▁ফোল্ডাৰৰ	-7.955
▁মাপ	-7.95784
▁লোড	-7.96079
▁ব্যৱহাৰকাৰী	-7.96213
▁ওপৰত	-7.96396
ছ	-7.96402
য়া	-7.9643
কা	-7.96647
▁বিষয়	-7.96773
▁প্ৰদৰ্শিত	-7.96849
aunchpad	-7.96849
▁বিষয়ে	-7.97648
▁সময়ত	-7.98127
▁সামৰ্থবান	-7.98573
দ	-7.98813
লি	-7.99191
net	-7.99624
▁২	-8.00011
▁বিৱৰণ	-8.00033
:%	-8.00343
(_	-8.00981
amp	-8.0115
▁১	-8.01559
▁সুৰক্ষা	-8.0172
!	-8.01971
▁চেষ্টা	-8.02008
ing	-8.02186
বি	-8.02248
▁অকল	-8.02349
ছে	-8.03018
quot	-8.03434
▁সম্পাদন	-8.03473
▁“%	-8.03486
▁লিখনী	-8.03489
▁X	-8.04349
com	-8.04352
▁উইন্ডোৰ	-8.04899
▁4	-8.0502
▁L	-8.05479
▁ডাইৰেকটৰি	-8.06087
▁ভুল	-8.06179
▁প্ৰিন্ট	-8.06418
▁উদ্ধাৰ	-8.06758
▁হৈছিল	-8.06768
▁ডাঙৰ	-8.07343
▁দৰ্শন	-8.07783
▁সেৱা	-8.0808
W	-8.08198
▁নিশ্চিত	-8.08298
মান	-8.0846
টা	-8.09235
▁এইটো	-8.09471
▁ফন্ট	-8.09496
▁বিভিন্ন	-8.09551
▁কৰ	-8.09851
▁`%	-8.105
▁নেকি	-8.10748
▁যাব	-8.11024
▁কে	-8.1114
w	-8.11357
▁সম্ভব	-8.11467
▁একাওন্ট	-8.1156
▁ইতিমধ্যে	-8.11677
▁প্ৰস্থ	-8.1197
▁মাজত	-8.12426
▁গ	-8.12656
▁হচ্ছে	-8.12751
▁CD	-8.12797
▁সলনি	-8.12884
▁মেমো	-8.13037
▁ক্ষেত্ৰ	-8.13701
তি	-8.14
▁করা	-8.14361
▁লক্ষ্য	-8.14397
Comment	-8.14847
▁সাক্ষাৎকাৰ	-8.14963
▁ধাৰ্য্য	-8.15031
▁"{0}"	-8.15721
▁প্ৰস্থান	-8.15773
ভাৱে	-8.16226
ীয়	-8.16322
▁কৰতে	-8.16483
▁ৰূপে	-8.16541
েই	-8.16751
▁খোলক	-8.16787
▁কম	-8.17323
▁পা	-8.17335
▁পাৰিব	-8.17525
▁স্থাপন	-8.17624
▁অৱস্থাত	-8.17977
▁মিল	-8.18064
নে	-8.18293
▁কৰিলে	-8.18353
▁ছ	-8.18432
▁আৱশ্যক	-8.18438
▁দিয়ক	-8.18783
▁সমস্ত	-8.18789
▁আবৰ্জনাৰ	-8.19219
▁নিৰ্ধাৰিত	-8.19226
▁ৱেব	-8.19229
ণ	-8.19313
▁বিশেষ	-8.19594
▁ID	-8.19802
▁to	-8.20018
▁সেই	-8.2022
▁পি	-8.2038
▁মুছে	-8.20538
▁ফাইলসমূহ	-8.20596
▁অডিঅ	-8.20996
▁কিছু	-8.21212
▁লগ	-8.21408
▁B	-8.21703
▁সঠিক	-8.21882
▁নথিপত্ৰৰ	-8.22372
▁সৰ্বাধিক	-8.22383
▁বৰ্ষপঞ্জি	-8.22524
G	-8.227
▁মধ্যে	-8.2276
▁বহি	-8.23423
▁দেখা	-8.23725
▁তা	-8.23855
▁অনুযায়ী	-8.24103
▁অনুপস্থিত	-8.24169
▁মাই	-8.2477
▁টা	-8.24819
▁প্ৰশ্ন	-8.24836
চি	-8.2544
▁দ	-8.25792
▁ইমপোৰ্ট	-8.25868
▁সতীচ্ছদ	-8.25941
কৈ	-8.26517
▁নকৰে	-8.26686
▁ফিল্টাৰ	-8.26701
আপ	-8.26748
▁month	-8.27061
োৱা	-8.27122
▁আল	-8.27302
ফ	-8.27638
V	-8.27676
▁কাৰণ	-8.28296
/~	-8.28577
▁ডিফল্ট	-8.28595
▁যিকোনো	-8.28967
মি	-8.29171
▁ড	-8.29499
▁কা	-8.29512
▁H	-8.29857
▁সম্পাদনা	-8.29941
▁আখৰ	-8.30026
▁আৰ্কাইভ	-8.30046
▁বিচাৰে	-8.30152
...(_	-8.30302
ঃ	-8.30394
▁বুটাম	-8.30527
KChar	-8.30885
▁চিহ্ন	-8.31113
▁F	-8.31353
▁5	-8.31542
▁উল্লিখিত	-8.32062
unit	-8.32073
▁পুনৰুদ্ধাৰ	-8.32111
in	-8.32579
▁আন্তঃপৃষ্ঠ	-8.32854
▁টেক্সট	-8.33165
▁অনুমোদন	-8.33252
▁যেতিয়া	-8.33302
ভ	-8.3353
▁সংস্থাপন	-8.33654
▁লিখক	-8.33712
▁ইয়াত	-8.33908
▁অফ	-8.33951
select	-8.34067
▁নিষ্ক্ৰিয়	-8.34096
▁উল্লেখিত	-8.34151
▁বিকল্পসমূহ	-8.34436
Stock	-8.34458
▁থাকিব	-8.34519
▁সাধাৰণ	-8.34729
▁in	-8.34733
al	-8.34781
▁শাৰী	-8.3482
▁বাৰ্তাসমূহ	-8.35065
▁6	-8.35434
▁প্ৰমাণীকৰণ	-8.35645
▁DVD	-8.35685
▁দিয়ে	-8.35699
▁মে	-8.35804
▁বে	-8.35937
▁বিফল	-8.36095
▁GNOME	-8.36114
▁চাৰ্ভাৰৰ	-8.36347
▁প্ৰক্সি	-8.36498
▁সহায়	-8.36935
▁আমেৰিকা	-8.36962
▁URL	-8.37018
▁অতি	-8.37077
▁কোন	-8.37189
▁অপ্ৰত্যাশিত	-8.37685
an	-8.37765
▁T	-8.37959
▁block	-8.3843
▁মেমৰি	-8.38588
▁যৌনাংগ	-8.39003
▁তালিকাৰ	-8.39156
▁প্লাগ	-8.39416
unicode	-8.39427
▁স্তম্ভ	-8.39449
▁এটি	-8.39653
▁হস্ট	-8.39935
লাইন	-8.40069
▁ছবিৰ	-8.40141
▁দল	-8.40267
am	-8.40447
েল	-8.40643
▁তলত	-8.4087
▁অতিৰিক্ত	-8.41194
▁অসামৰ্থবান	-8.41231
▁ভাষা	-8.41343
▁M	-8.41627
▁অবস্থান	-8.41923
K	-8.41987
▁আচমন	-8.42008
▁10	-8.42159
▁চিস্টেম	-8.42189
en	-8.42386
▁ভিডিও	-8.42444
▁স্বনিৰ্বাচিত	-8.42446
▁হিসাবে	-8.42455
জি	-8.42658
▁I	-8.42691
▁ভলিউম	-8.42904
▁ইনস্টল	-8.42935
▁এৰ	-8.4321
▁সেইটো	-8.43263
▁ডি	-8.43298
▁আইকন	-8.43302
▁সংৰূপ	-8.43353
▁লগত	-8.43637
ৱ	-8.43693
▁General	-8.43796
▁অসম	-8.44051
▁সীমা	-8.44076
▁হাত	-8.44087
ের	-8.44114
+	-8.44575
or	-8.44578
▁D	-8.44675
▁কিছুমান	-8.44696
▁লোৱা	-8.44763
▁দেখুৱা	-8.4478
8)	-8.44876
▁লিখা	-8.4495
দা	-8.45008
▁পুনৰায়	-8.45144
ন্	-8.4542
▁অনুবাদ	-8.4557
▁ট	-8.45638
▁বাৰ্ন	-8.45675
জা	-8.46044
লো	-8.46078
▁পদ্ধতি	-8.46329
▁XML	-8.46463
▁শেষ	-8.46505
▁প্ৰকাশ	-8.46532
5)	-8.46618
খ	-8.4665
▁তৈৰি	-8.46919
েন	-8.46953
▁অনুপ্ৰয়োগ	-8.46988
▁পঞ্জিকা	-8.46995
▁বীমাকৃত	-8.47406
▁সা	-8.47497
ৱা	-8.4766
\\\	-8.47839
▁শক্তি	-8.47932
▁ইছলাম	-8.48143
▁অসমৰ্থিত	-8.48302
াম	-8.48381
7)	-8.48432
▁চি	-8.48662
▁পঢ়া	-8.48716
▁নিৰ্ব্বাচন	-8.48767
▁টেব	-8.48854
পা	-8.49218
▁চাওক	-8.49257
অ	-8.4941
ter	-8.49438
▁পৰি	-8.49606
▁লাগে	-8.49706
▁আপনাৰ	-8.49818
▁সেৱক	-8.49897
▁part	-8.49979
▁উপ	-8.50142
▁অপেক্ষা	-8.50227
▁আবৰ্জনা	-8.5026
▁পোৰ্ট	-8.50273
উ	-8.50364
z	-8.5052
▁CPU	-8.50799
▁আই	-8.50831
email	-8.5095
▁E	-8.50976
▁8	-8.51212
▁সম্পাদক	-8.51222
চা	-8.51309
পি	-8.51395
▁মই	-8.51434
▁নিয়ন্ত্ৰণ	-8.51655
▁এখন	-8.51774
0	-8.51848
▁বিজ্ঞান	-8.51855
▁{0}	-8.5193
▁দি	-8.52023
▁অবধি	-8.52085
▁থাকে	-8.52098
▁যন্ত্ৰ	-8.52475
▁উপাদান	-8.52698
কাৰী	-8.52889
▁যোগাযোগ	-8.53053
▁পেলাওক	-8.53054
▁বৃদ্ধি	-8.53073
۝	-8.5354
▁যাওক	-8.53592
▁ক্ষতি	-8.53779
▁অস্থায়ী	-8.54008
থ	-8.54247
▁মূল	-8.54854
▁দিব	-8.5495
▁যায়	-8.55035
▁সম্পৰ্কে	-8.55149
▁সন্ধানহিন	-8.55525
▁অফলাইন	-8.55544
▁উচ্চতা	-8.55585
▁ব্য	-8.55616
মে	-8.55674
▁জ	-8.55709
প্ৰ	-8.55867
▁is	-8.55895
▁সৰ্বশেষ	-8.56017
▁on	-8.56025
▁বড়ো	-8.5603
▁সত্য	-8.56062
▁অন্যান্য	-8.56088
্যা	-8.56313
▁তেন্তে	-8.56523
▁সৰু	-8.56532
▁চলি	-8.56896
X	-8.57389
ৰ্	-8.57533
▁ডোমেইন	-8.57589
▁পত্ৰচিহ্ন	-8.57794
New	-8.58021
▁৩	-8.58024
▁License	-8.58042
▁GNU	-8.58042
▁ধৰণৰ	-8.58138
▁পুনঃ	-8.58554
ngoswami	-8.58556
2)	-8.58564
ডি	-8.58738
▁প্ৰৰণ	-8.58922
ভাবে	-8.58958
▁সংৰক্ষিত	-8.5907
▁আপোনাক	-8.59083
▁মিলি	-8.59516
aphukan	-8.59591
▁এপ্লিকেচন	-8.59655
▁ৰূপত	-8.59775
▁ব্যবহাৰ	-8.59881
▁ফেলুন	-8.60109
▁পূৰ্বে	-8.6031
▁স্ট্ৰিং	-8.60633
হা	-8.60814
▁ভ	-8.60881
▁অবস্থা	-8.60898
▁প্ৰথম	-8.60915
▁সভা	-8.61139
=\	-8.61215
▁তাক	-8.61275
▁য	-8.61406
▁R	-8.6144
▁(1	-8.61789
▁ব্যক্তি	-8.62012
ু	-8.62058
কো	-8.62146
ুন	-8.62168
▁ডিভাইচৰ	-8.622
▁আপডেট	-8.6222
▁মাউন্ট	-8.6222
▁Public	-8.62256
▁//	-8.62265
▁0	-8.62666
▁LDAP	-8.62755
ন্ট	-8.62791
▁ধৰন	-8.62818
স্	-8.62839
▁শীৰ্ষক	-8.62874
▁ব্যৱহাৰযোগ্য	-8.62941
▁লক	-8.63113
▁ফলত	-8.63301
▁চা	-8.63492
▁সহায়ত	-8.63641
▁গণিত	-8.63699
▁সহায়ক	-8.63758
▁কী	-8.638
ক্ষ	-8.63902
▁URI	-8.63911
▁লাভ	-8.63919
▁ভাল	-8.63946
▁আপডেইট	-8.64001
▁দস্তাবেজ	-8.64077
▁সম্পদ	-8.64128
▁টকা	-8.6417
▁TV	-8.64242
▁অভিগম	-8.64342
▁action	-8.64367
format	-8.6442
▁লগতে	-8.64491
▁সি	-8.64658
▁হোৱাৰ	-8.6482
▁‘	-8.64829
▁চিনাক্ত	-8.64881
কাৰ	-8.64919
▁POP	-8.64923
▁গণনা	-8.65486
8	-8.65536
▁পটভূমিৰ	-8.65587
org	-8.65784
▁হয়নি	-8.65926
GenericName	-8.66025
▁বহী	-8.66148
▁বিন	-8.66208
▁গুৱাহাটী	-8.66451
▁ফোল্ডাৰে	-8.66575
fedoraproject	-8.6658
6)	-8.66588
ৈ	-8.66602
ষ্ট	-8.66795
▁নথিপত্ৰসমূহ	-8.67092
▁পৰিচয়সমূহ	-8.67096
িন	-8.67109
▁আতৰাওক	-8.67139
▁ইনপুট	-8.67139
▁ভিতৰত	-8.67332
▁সপ্তাহ	-8.67338
✞	-8.67506
▁সূচনা	-8.67758
es	-8.68193
▁~	-8.68303
▁K	-8.68538
৷	-8.68834
▁{@}	-8.68834
▁News	-8.68869
আ	-8.68875
▁ঘটনা	-8.68881
▁সংহতিসমূহ	-8.68999
▁গুণ	-8.69167
▁ইতিহাস	-8.6921
▁ড্ৰাইভ	-8.69215
▁ব্যবহৃত	-8.69405
▁বাৰ্ণ	-8.69449
২	-8.69555
▁HTML	-8.69563
▁মাহ	-8.69609
it	-8.69652
র্	-8.69737
▁মাধ্যমে	-8.69798
▁একাউন্ট	-8.69874
গা	-8.69994
▁যেনে	-8.70053
▁কথা	-8.70063
le	-8.70178
ar	-8.70616
নো	-8.70647
▁মুক্ত	-8.70986
▁সংযোগক্ষেত্ৰ	-8.71052
▁পৰিবৰ্তে	-8.7114
▁কিবৰ্ড	-8.71159
on	-8.71164
▁নম্বৰ	-8.71208
▁ৰঙৰ	-8.71448
জন	-8.71695
▁সহযোগে	-8.71726
▁অবজেক্ট	-8.71807
un	-8.71877
▁7	-8.72545
▁আবশ্যক	-8.72904
▁সামগ্ৰী	-8.72929
ৰণ	-8.72947
▁পৰবৰ্তী	-8.7299
ৌ	-8.73068
াল	-8.73096
▁তৰ্ক	-8.73124
▁সুৰক্ষিত	-8.73657
▁অন	-8.73866
▁স্ব	-8.74059
▁টুলবাৰ	-8.74225
▁ব্যৱহাৰকাৰীৰ	-8.74342
▁ডাইলগ	-8.74543
▁প্ৰকল্প	-8.74573
▁দূৰবৰ্তী	-8.74701
▁item	-8.74702
▁ডেস্কটপ	-8.74711
00	-8.75066
সা	-8.75067
▁সহ	-8.75115
▁প্ৰয়োজনীয়	-8.75222
▁এতিয়া	-8.75256
▁পূৰ্ববৰ্তী	-8.75308
▁সুমুৱাওক	-8.75311
▁নাছিল	-8.75349
▁পুল	-8.75484
▁অঞ্চল	-8.755
▁ঘৰ	-8.75701
▁চাবি	-8.75794
▁অনুষ্ঠান	-8.75916
▁Brasero	-8.75917
▁লেবেল	-8.75921
▁স্তৰ	-8.75924
▁টি	-8.75945
▁শ	-8.76077
ha	-8.76101
াব	-8.76154
▁বিভাগ	-8.76165
▁আপ	-8.76422
▁অস্তিত্ববান	-8.7653
▁পেলোৱা	-8.7653
▁লেখা	-8.76544
▁আছিল	-8.76569
▁এনে	-8.76592
▁“	-8.76677
▁নহব	-8.76861
▁উপস্থিতি	-8.7713
১	-8.77196
▁IMAP	-8.7777
▁পূৰ্বদৰ্শন	-8.77771
10	-8.77849
▁প্ৰৱেশ	-8.77882
re	-8.78188
ায়	-8.7852
▁বাহিৰ	-8.78522
হে	-8.7888
▁x	-8.78996
keyboard	-8.79012
▁আশা	-8.79058
▁বছৰ	-8.79229
ভাৰ	-8.7925
11	-8.79649
▁পৰৱৰ্তী	-8.79656
▁কিনা	-8.79761
▁এক্স	-8.79936
▁প্ৰাপক	-8.79948
▁নিৰ্দিষ্ট	-8.80292
▁আদেশ	-8.80315
▁উপৰ	-8.80483
▁চৰ্টকাট	-8.80933
▁এবং	-8.80936
▁প্ৰযোজ্য	-8.80964
▁লগিয়া	-8.81005
3)	-8.81083
▁বুলি	-8.81092
▁and	-8.81124
▁লিঙ্ক	-8.81124
চ্	-8.81166
▁করুন	-8.81579
▁সাথে	-8.81579
▁প্ৰতিস্থাপন	-8.81586
▁প্ৰব্ৰজন	-8.81672
▁ইন	-8.82111
25	-8.82263
▁লওক	-8.82298
Y	-8.82326
স্ত	-8.82352
▁নেই	-8.82829
▁নকল	-8.82895
▁নকৰা	-8.82895
▁সু	-8.8297
▁বিচ্ছিন্ন	-8.83474
▁বিভাজন	-8.83539
▁সতৰ্কবাৰ্তা	-8.83539
▁দৃদ্ধ	-8.8354
▁মন	-8.83571
▁নীতি	-8.83628
▁c	-8.83717
▁নকৰিব	-8.83768
▁খেলা	-8.84058
▁অনু	-8.84129
th	-8.84151
▁ব্যৱস্থাপনা	-8.84176
▁আইটেম	-8.84202
▁আৰ	-8.84219
▁বেক	-8.84291
ৰ্ট	-8.84364
▁দাবী	-8.84378
▁মোৰ	-8.84442
▁বৈশিষ্ট	-8.846
▁কো	-8.84716
▁India	-8.84791
তো	-8.85024
▁অহা	-8.85192
▁১০	-8.85514
no	-8.85518
name	-8.85625
▁উপাদানৰ	-8.8565
তাৰ	-8.85666
ৰো	-8.85762
▁খ	-8.85786
▁Assamese	-8.85842
নী	-8.86092
এই	-8.86212
▁একাধিক	-8.86222
▁স্থায়ী	-8.86279
▁HTTP	-8.86286
▁সেৱকৰ	-8.86399
▁পেনেল	-8.86447
ta	-8.86456
▁যাৰ	-8.8646
লী	-8.86491
▁পূৰ্ব	-8.86556
▁আগত	-8.86672
▁অনুসৰি	-8.86895
▁জি	-8.87059
▁দা	-8.87355
▁সমাপ্ত	-8.87494
▁উলম্ব	-8.8772
▁সংগ্ৰহ	-8.87759
ch	-8.87806
ন্দ	-8.87894
0)	-8.88142
▁প্ৰতিক্ৰিয়া	-8.88274
▁ভি	-8.88287
▁দ্বিতীয়	-8.88382
20	-8.88531
▁পৰিচয়ৰ	-8.8855
7	-8.88921
▁প্ৰেৰিত	-8.89038
ঞ্চ	-8.89075
{0}	-8.89183
ক্স	-8.89241
▁পৰিচিত	-8.89288
▁একে	-8.89532
▁খামখেয়াল	-8.89664
09	-8.89904
ra	-8.90039
▁এজন	-8.90072
▁ডিস্কত	-8.90126
▁বৰ্ষপঞ্জিৰ	-8.9031
▁বিচাৰি	-8.90316
▁ক্যাশ	-8.9036
BAR	-8.90368
▁ব্যাক	-8.90386
কৰণ	-8.90519
▁পছন্দ	-8.90545
30	-8.90768
hat	-8.908
▁অনুসন্ধানৰ	-8.91044
▁অত্যাধিক	-8.91077
▁বানান	-8.91133
▁তলৰ	-8.91136
▁খণ্ড	-8.91367
▁সম্পন্ন	-8.91464
▁সাৰ্টিফিকেট	-8.91506
id	-8.91712
▁(3	-8.91725
▁সুবিধা	-8.91787
▁সাৰাংশ	-8.91792
▁Free	-8.91908
▁*	-8.92028
▁পেইন	-8.92031
▁ঢকান	-8.92511
▁বৈশিষ্ট্যাবলী	-8.92511
িয়ে	-8.92533
▁তালিকাভুক্ত	-8.92556
:(_	-8.92596
▁খেল	-8.9266
▁ভাৰতীয়	-8.92698
▁বিল	-8.92934
যোগ্য	-8.92973
▁অধিবেশন	-8.93086
ম্	-8.93106
▁পূৰ্ণ	-8.93191
ঁ	-8.93264
▁অংশীদাৰী	-8.93363
16	-8.93562
▁অনলাইন	-8.93594
▁অবস্থায়	-8.93762
▁থ্ৰেড	-8.93965
▁গোস্বামী	-8.93968
▁'{0}'	-8.9397
▁প্ৰণালী	-8.93991
▁g	-8.94088
▁ধৰি	-8.94198
▁ট্ৰেক	-8.94238
▁মাত্ৰা	-8.94506
▁ভিত্তি	-8.9459
কৃত	-8.946
▁সুসংগত	-8.94678
▁প্ৰত্যাশিত	-8.94736
▁ফলাফল	-8.94779
60	-8.95121
80	-8.95398
▁তেওঁ	-8.95405
▁অনুসাৰে	-8.95441
▁নিশ্চিতৰূপে	-8.95468
▁পৃষ্ঠাৰ	-8.95598
at	-8.95868
ভা	-8.95896
ুৰ	-8.96111
▁ফুকন	-8.96188
▁আলেখ্য	-8.96189
▁কেন্দ্ৰ	-8.96193
▁স্নেপশ্বট	-8.96328
▁সম	-8.96638
▁উইন্ডোত	-8.96654
▁উন্নত	-8.9692
▁এনক্ৰিপ্ট	-8.9694
▁দুটা	-8.96976
▁ৰাখক	-8.9698
চন	-8.97095
▁০	-8.97325
▁চেট	-8.97343
▁সকল	-8.97404
15	-8.97456
▁৫	-8.97605
▁পৃথক	-8.9763
▁ক্ষেত্ৰে	-8.97656
▁সংমিহলি	-8.97698
▁এন	-8.97881
▁V	-8.97943
স্ক	-8.97952
▁মেনু	-8.98007
▁short	-8.9801
▁ডিস্কৰ	-8.98179
▁ব্যৱহাৰকৰ্তাৰ	-8.98344
▁পূৰ্বৱৰ্তী	-8.98463
▁স্বচালিতভাৱে	-8.98476
▁লগিন	-8.98508
▁পৰিষ্কাৰ	-8.98512
▁ডাউনলোড	-8.98527
ৰ্থ	-8.98581
▁বহু	-8.98607
▁ড্ৰাইভাৰ	-8.98696
38	-8.98896
\	-8.98984
▁প্ৰস্তুত	-8.99026
red	-8.99063
▁তৃতীয়	-8.9923
▁মন্তব্য	-8.99232
▁পড়া	-8.99272
তকৈ	-8.99387
▁নিয়ম	-8.99395
▁পাৰি	-8.99604
▁গা	-8.99636
▁পটভূমি	-8.99843
▁N	-8.99897
▁সংযোজন	-9.00005
▁আয়তন	-9.00046
াহ	-9.00049
▁থাকিলে	-9.00078
▁অক্ষৰ	-9.00266
এৰ	-9.00278
q	-9.00486
য	-9.00495
(24	-9.00737
▁আমদানি	-9.00786
▁সম্ভাব্য	-9.00824
▁মৌলিক	-9.00869
▁ক্ষমতা	-9.00935
▁টেগ	-9.01278
▁থিম	-9.01389
ভি	-9.01397
▁গন্তব্য	-9.01435
▁গতি	-9.01573
Possessive	-9.01573
মিতাক্ষ	-9.01574
▁সক্ষম	-9.01646
▁com	-9.01786
▁পৰ্দা	-9.01876
▁মোড	-9.01917
▁Empathy	-9.02367
▁@	-9.02495
▁পে	-9.02514
টৱৰ্ক	-9.02751
▁type	-9.02762
▁ফোন	-9.02978
sh	-9.03038
স্ট	-9.03092
▁অন্ত	-9.03123
▁নাখায়	-9.03167
▁প্ৰচেষ্টা	-9.0317
সি	-9.03176
▁কাৰ্য্যৰ	-9.03218
্ব	-9.03222
ওক	-9.03244
ীয়া	-9.03271
▁প্ৰকাশিত	-9.03281
▁লেখক	-9.03373
▁অধিকাৰ	-9.0348
▁ক্ৰ	-9.03581
হি	-9.03596
J	-9.03597
▁তেতিয়া	-9.03741
▁for	-9.0385
▁মিনিট	-9.0414
onit	-9.04171
▁সৰঞ্জাম	-9.04326
▁শিক্ষা	-9.04744
▁Exchange	-9.04787
▁আউটপুট	-9.04787
▁ইম্পোৰ্ট	-9.04787
▁মূল্য	-9.05065
▁–	-9.05137
ৱে	-9.05324
সকলৰ	-9.05494
▁পঠাওক	-9.05607
▁সমল	-9.05832
ৰী	-9.05863
▁অ্যাকাউন্ট	-9.06245
িয়ান	-9.06327
▁আৰম্ভণি	-9.06639
▁যাবে	-9.06761
32	-9.06936
ূ	-9.07
of	-9.07147
▁ফন্টৰ	-9.07177
Query	-9.07266
▁বোঁচকা	-9.07266
▁ফেলা	-9.07269
▁স্বয়ংক্ৰিয়	-9.07347
▁12	-9.07427
12	-9.07441
▁বাগ	-9.07539
▁m	-9.07786
▁Foundation	-9.08106
▁আমৰিকা	-9.08106
▁Sora	-9.08107
ণ্ড	-9.08529
দি	-9.0859
▁www	-9.08674
58	-9.08844
▁ৰখা	-9.08869
▁পৰ্যাপ্ত	-9.08954
protected	-9.0896
▁সমাধান	-9.08962
CategoryName	-9.08965
▁চাইল্ড	-9.0901
কু	-9.09386
ৰূপে	-9.09514
থা	-9.0953
▁প্ৰকৃত	-9.09585
▁ডাউনল	-9.09786
▁বিবৰণ	-9.09809
িকা	-9.09935
▁প্র	-9.10007
▁স্	-9.10147
▁সদস্য	-9.10405
▁Software	-9.10671
▁বিতৰণ	-9.10671
▁স্ট্ৰিম	-9.10671
▁উচ্চ	-9.10711
▁(28	-9.10763
▁পৰিবৰ্তনসমূহ	-9.10854
▁সম্বাদ	-9.10958
▁এপসন	-9.1154
▁ক্যাটাগৰি	-9.1154
▁2019	-9.11547
▁পৰিমাণ	-9.1168
▁ফোল্ডাৰসমূহ	-9.11888
▁মাধ্যম	-9.11978
পেক্ষা	-9.12338
▁বিষয়বস্তু	-9.12429
gina	-9.12549
▁কাৰ	-9.1256
▁প্ৰান্ত	-9.12602
▁লি	-9.12636
▁শ্ৰেণী	-9.12768
তালিকা	-9.12853
▁ক্ৰম	-9.1313
▁9	-9.13232
▁QEMU	-9.13302
▁নীলম	-9.13303
▁আঁতৰাবলৈ	-9.13325
▁অতিথি	-9.13328
▁চিকিৎসা	-9.13344
▁চমু	-9.13346
▁মু	-9.13351
িল	-9.13592
40	-9.13764
▁মো	-9.13774
ঙ	-9.13901
▁উইজেট	-9.14098
দ্যুতি	-9.14195
▁বজোৱা	-9.14195
▁টকিঅ	-9.14201
▁উচিত	-9.14211
▁কনফিগাৰেশন	-9.14257
▁গ্ৰাহক	-9.14376
▁ৱেবছাইট	-9.14378
▁পাঠ	-9.14456
▁মেইলিং	-9.14462
▁p	-9.14544
▁ঘন্টা	-9.1479
59	-9.14902
▁স্থগিত	-9.15096
▁an	-9.15148
▁সংখ্যক	-9.1515
▁অনুমোদিত	-9.15174
▁©	-9.15226
▁স্বাস্থ্য	-9.15242
▁প্লাগিন	-9.15287
জু	-9.15718
▁বস্তুৰ	-9.1587
কট	-9.15901
▁দৃশ্যমান	-9.15906
▁LongName	-9.16005
▁PCI	-9.16024
None	-9.16092
▁স্বাভাবিক	-9.16119
ল্	-9.1619
▁as	-9.16312
▁গছ	-9.16334
▁Windows	-9.16504
সহ	-9.16682
▁পেলাব	-9.16752
▁দু	-9.16755
li	-9.16814
▁বাৰ্তাটি	-9.16861
▁টিপক	-9.16923
▁মানসমূহ	-9.16987
▁মুখগত	-9.17076
▁__	-9.17076
▁পাৰ	-9.17135
symbols	-9.17167
ie	-9.17206
et	-9.17277
ম্প	-9.17353
▁The	-9.17678
	-9.17849
▁ৰূপান্তৰ	-9.17849
▁ক্ষতিগ্ৰস্থ	-9.1785
▁মডেল	-9.17864
▁কৰ্মসূচী	-9.17868
ত্ত	-9.17954
▁প্ৰিন্টাৰ	-9.18069
▁পো	-9.18198
▁ব্যক্তিৰ	-9.18472
▁উল্লেখ্য	-9.18585
el	-9.18595
▁হিচাপ	-9.18614
▁অন্তত	-9.18614
mitakhya	-9.18676
▁ফলে	-9.18724
hukan	-9.18779
▁Ekiga	-9.18783
▁প্ৰতিমূৰ্তি	-9.18783
▁শেহতীয়া	-9.18825
▁পৰ্দাৰ	-9.18928
ৰপৰা	-9.18933
▁কাজ	-9.19381
▁ওপৰ	-9.19472
▁পৰিচিতি	-9.19617
▁ফাঁকা	-9.19727
▁লিখুন	-9.19732
▁কাৰ্য	-9.19803
▁বাদ	-9.19836
▁প্ৰা	-9.19876
▁+	-9.19948
96	-9.20004
49	-9.20208
▁search	-9.20238
▁ধাৰা	-9.20312
▁চে	-9.20333
ডিং	-9.20376
ur	-9.20549
ডা	-9.20614
▁গোলগাল	-9.20679
▁মহিলা	-9.20874
▁অধীনত	-9.20902
▁ব্যৱস্থাপ্ৰণালী	-9.20974
▁ইউ	-9.21016
▁এল	-9.2144
▁লিখিব	-9.21534
▁আতৰোৱা	-9.21641
▁W	-9.21786
▁তথা	-9.21793
▁বিশিষ্ট	-9.21872
▁20	-9.22073
▁দিলে	-9.22187
01	-9.22228
▁এনক	-9.22267
98	-9.22361
ly	-9.22506
টন	-9.22576
▁ইত্যাদি	-9.22611
▁লোকচান	-9.22616
▁দৰে	-9.227
▁ঘৰৰ	-9.22713
▁..	-9.2276
য়ো	-9.229
নাম	-9.23029
▁or	-9.23106
ুল	-9.23109
েট	-9.23173
▁খোলিব	-9.2321
▁ধন	-9.23325
▁Y	-9.23336
▁যোৱা	-9.23349
▁পৰিসংখ্যা	-9.23381
31	-9.23483
Va	-9.23503
▁লা	-9.23509
▁সঞ্চালন	-9.23578
55	-9.23586
Contributions	-9.23592
▁নাযাব	-9.23592
▁জিপ্লাছ	-9.23593
▁দৈৰ্ঘ্য	-9.23625
০	-9.23817
▁মৃত্যু	-9.24053
ফা	-9.24119
▁প্ৰাচল	-9.24171
▁দিশ	-9.24194
ro	-9.24561
▁বেছি	-9.24595
▁খালি	-9.24618
াচ	-9.24713
▁উদাহৰণ	-9.24743
▁ইমেইল	-9.24749
(23	-9.24779
▁ডাটা	-9.24923
▁৪	-9.25
▁উদ্দেশ্য	-9.25242
to	-9.25244
▁সভাৰ	-9.25413
▁শিৰোনাম	-9.25414
▁(10	-9.25506
▁বার্তা	-9.25516
50	-9.25826
▁ফটো	-9.25826
la	-9.25827
dy	-9.25929
▁সময়েৰ	-9.26186
▁ভাবে	-9.26274
▁খনক	-9.26521
▁J	-9.26547
ঘ	-9.26582
Color	-9.2659
▁আৰ্হি	-9.26592
▁ক্লাএন্ট	-9.26592
▁প্ৰবিষ্টি	-9.26592
▁GTK	-9.26592
▁গে	-9.26621
▁মখোমুখী	-9.2668
▁reset	-9.2678
▁শি	-9.26823
▁পঠোৱা	-9.26863
ic	-9.26892
জে	-9.26903
▁নিবেশ	-9.27142
দী	-9.27288
▁সূচী	-9.27351
ধা	-9.27373
54	-9.27415
লিচি	-9.275
▁IP	-9.27528
▁নিৰাপদ	-9.27612
▁ফ্ল্যাগ	-9.27613
▁এশিয়া	-9.27649
▁দিছে	-9.27691
▁জা	-9.27708
="	-9.27743
08	-9.28013
াস	-9.28092
▁13	-9.28215
▁কোড	-9.28351
সকল	-9.28388
▁টাৰ্মিনেল	-9.2856
9	-9.28596
▁এনক্ৰিপশন	-9.28636
▁ShortName	-9.28652
▁সৰ্বোচ্চ	-9.28713
▁ব্যস্ত	-9.28837
▁তেওঁৰ	-9.2901
▁সং	-9.29259
26	-9.29333
টে	-9.29365
▁সে	-9.29567
▁24	-9.2966
▁সৰিয়ে	-9.29688
▁গুৰুত্বপূৰ্ণ	-9.29738
▁পাব	-9.29742
▁fs	-9.29864
▁কাৰ্ড	-9.29926
▁কু	-9.29926
▁ব্যৱহাৰকৰ্তা	-9.30066
uti	-9.30219
ঙ্গ	-9.30376
▁ডা	-9.30441
28	-9.30646
▁ইউৰোপ	-9.3069
▁ডিবাগ	-9.30702
▁গোপন	-9.30711
▁National	-9.30737
▁প্ৰসাৰিত	-9.30764
পত্ৰ	-9.30804
▁পঢ়িব	-9.30932
েচ	-9.30959
▁ঠিক	-9.30993
▁বিষয়ক	-9.31059
▁নিজৰ	-9.3111
চু	-9.31143
▁পছন্দৰ	-9.31295
▁পৰীক্ষণ	-9.31359
দান	-9.31485
ত্	-9.31527
▁KDE	-9.31714
▁(4	-9.3174
▁ভাৰ্চুৱেল	-9.31801
▁সতেজ	-9.31802
▁স্কেন	-9.31813
▁ব্ৰ	-9.3192
▁অক্ষ	-9.31947
18	-9.31977
৩	-9.3205
▁খোলিবলে	-9.32093
▁জুম	-9.32269
▁অনুকৰণ	-9.32311
▁লিখাৰ	-9.32411
৫	-9.3252
▁18	-9.32584
▁ভাষাৰ	-9.32602
▁স্থানত	-9.3269
▁পলিচী	-9.32698
▁আফ্ৰিকা	-9.32877
▁ডিৰেক্টৰি	-9.32877
▁Bollywood	-9.32877
▁not	-9.32967
▁কামসূচী	-9.33006
▁দুই	-9.33014
▁নিৰীক্ষণ	-9.33016
▁আদি	-9.33039
ce	-9.331
▁খবৰ	-9.33101
▁এইচ	-9.33353
▁আজি	-9.33363
mm	-9.33479
▁#	-9.33487
▁জ্ঞান	-9.33633
▁লোক	-9.33655
▁16	-9.33658
দু	-9.33923
mdraid	-9.33964
▁JSON	-9.33964
▁USB	-9.33964
▁থীম	-9.33967
▁স্থায়ীৰূপে	-9.33982
▁ধাৰ্য্যত	-9.34005
▁নোৱাৰে	-9.34088
▁খাম	-9.34158
ক্ৰ	-9.34197
꧂	-9.35063
▁VPN	-9.35063
▁স্ক্ৰিপ্ট	-9.35064
সমুহ	-9.35064
▁꧁	-9.35075
help	-9.35326
file	-9.35366
▁চৰকাৰ	-9.35458
▁যুক্ত	-9.35481
▁জন	-9.355
পো	-9.35718
▁নিৰ্দেশ	-9.35814
▁দায়িত্ব	-9.35857
ধ	-9.35885
▁b	-9.36081
গো	-9.36111
56	-9.3615
▁স্পুল	-9.36181
▁প্ৰধান	-9.36198
▁নথকাকৈ	-9.3631
▁SSL	-9.36399
▁জড়িত	-9.3642
▁দস্তাবেজত	-9.36448
www	-9.36541
text	-9.36554
▁অনুপ্ৰয়োগৰ	-9.36628
ার	-9.36794
▁নিউ	-9.36812
ন্ড	-9.36875
27	-9.36934
}	-9.37024
৬	-9.37098
্র	-9.37168
▁অৱশিষ্ট	-9.37297
▁শেল্ফ	-9.37298
▁আমাক	-9.37308
▁পূৰণ	-9.37315
▁অৱ	-9.37329
▁নিয়ন্ত্ৰক	-9.3733
ুৱা	-9.37431
ir	-9.37466
▁বীজ	-9.37475
▁লিখনযোগ্য	-9.37525
ol	-9.37683
63	-9.3777
িম	-9.37773
কাল	-9.37882
▁al	-9.37891
02	-9.38021
ৎ	-9.38389
Coptic	-9.38434
▁hrs	-9.38434
▁সৰ্বনিম্ন	-9.38434
▁প্ৰতিৰোধ	-9.38434
▁বিৰতি	-9.38437
▁পুৰনি	-9.3845
▁বিচৰা	-9.38458
page	-9.38482
▁মনত	-9.38488
▁আপনি	-9.38536
▁ডে	-9.38556
ষ	-9.38585
ন্ত	-9.38706
▁বিশ্বাস	-9.38759
▁বহিৰ	-9.39099
me	-9.39242
োন	-9.39255
▁গোপনীয়	-9.39527
▁প্রদর্শন	-9.3956
☬	-9.39566
▁মূখ্য	-9.39583
▁ৰাজহুৱা	-9.39583
▁Nil	-9.39594
▁লিপি	-9.39612
▁পৰিবৰ্তিত	-9.39639
▁ৰাখিব	-9.39741
▁সমলসমূহ	-9.4
ip	-9.40312
48	-9.40381
▁ধৰণে	-9.40432
go	-9.40452
▁সদায়	-9.40699
▁পুনৰাবৃত্তি	-9.40737
▁মাউছ	-9.40746
▁ৰহমান	-9.40747
▁ৰয়েছে	-9.40747
▁নীৰিক্ষণ	-9.40751
Next	-9.40773
▁ছা	-9.40837
▁ভাষাত	-9.40853
মূলক	-9.40894
14	-9.40956
প্ৰযুক্তি	-9.41214
নিয়া	-9.41222
▁যোগান	-9.41257
▁৬	-9.41448
▁ছে	-9.41464
lu	-9.41691
▁ৰেকৰ্ড	-9.41887
24	-9.41915
oswami	-9.41919
▁পৰিশোধ	-9.41922
▁হোস্ট	-9.41923
▁বৰ্জন	-9.41934
▁গৈছে	-9.41937
▁চাবিৰ	-9.4202
▁এতিয়াও	-9.42026
▁এছিয়া	-9.4203
▁পঢ়িবলৈ	-9.42048
▁ব্যবস্থা	-9.42161
▁কাৰ্য্যসমূহ	-9.42171
▁ডমেইনৰ	-9.42284
▁ঈ	-9.42308
▁একক	-9.42638
সকলে	-9.42716
ৰু	-9.42754
াগ	-9.42767
and	-9.42934
}}	-9.431
▁চিকিৎসালয়	-9.43114
▁স্বনিৰ্ধাৰিত	-9.43116
▁চলাওক	-9.43122
▁সময়সীমা	-9.43142
File	-9.43159
▁CA	-9.43161
▁সৰ্বমোট	-9.4317
▁পূৰ্বপ্ৰদৰ্শন	-9.43331
Z	-9.43384
▁দুৰ্ঘটনা	-9.43435
▁(55	-9.43576
53	-9.43686
▁ফোল্ডাৰেৰ	-9.43755
76	-9.43768
ৃ	-9.438
▁কাট	-9.43836
▁ফোল্ডার	-9.43966
কৰ্তা	-9.43969
▁আতৰাব	-9.44048
PL	-9.4414
পে	-9.44218
▁বিকাশ	-9.44228
▁আঁতৰাওক	-9.44319
▁প্ৰমাণীকৰণৰ	-9.44412
▁ব্ৰাউজাৰ	-9.44431
▁৭	-9.44571
দে	-9.44671
িও	-9.44684
21	-9.44697
▁14	-9.44699
[	-9.44708
ছা	-9.44716
▁বতৰ	-9.44779
ংগ	-9.44813
▁media	-9.44855
um	-9.4486
search	-9.44879
ৰ্ক	-9.45002
ঠ	-9.45515
Ethiopian	-9.45537
▁ইংৰাজী	-9.45537
▁ইন্টাৰনেট	-9.45537
▁দূৰৱৰ্তী	-9.45538
▁চকেট	-9.45569
▁অসমৰ	-9.45598
▁কৰিছিল	-9.45745
57	-9.45752
ut	-9.45802
Q	-9.45846
ex	-9.45911
▁নিৰ্দেশক	-9.46002
▁বাকচত	-9.46076
time	-9.46128
▁দিনৰ	-9.46296
▁মূদ্ৰণ	-9.46739
▁সংযোগমাধ্যম	-9.46759
▁IFFCO	-9.46772
▁টিউব	-9.46772
▁মুহাম্মদ	-9.46772
▁ক্লিপবৰ্ড	-9.46773
▁যাতে	-9.46816
▁সম্পৰ্কিত	-9.46819
▁বাফাৰ	-9.46884
চে	-9.46916
▁ভিন্ন	-9.46953
42	-9.47019
▁ভা	-9.47071
ৰ্ত	-9.47202
▁ব্যৱস্থাৰ	-9.47207
হাৰ	-9.4721
9)	-9.47222
গুলি	-9.47236
ion	-9.47239
▁U	-9.47248
ছিল	-9.47273
▁পিক্সেল	-9.47286
▁by	-9.47507
িট	-9.4764
(5	-9.47732
▁লুকুৱা	-9.48009
▁আঁচনি	-9.48014
▁টগল	-9.48022
▁ট্যাব	-9.48022
▁চলোৱা	-9.48028
▁ডাঠ	-9.48031
▁পৰিয়াল	-9.48035
▁বিন্দু	-9.48394
=%	-9.4853
▁v	-9.48552
ভিল	-9.48561
46	-9.48684
▁আগতে	-9.48773
33	-9.4882
িব	-9.48837
▁পেনেলৰ	-9.48867
(1	-9.48917
▁কিতাপ	-9.48918
াত	-9.49083
▁চফ্টৱেৰ	-9.49287
▁বৰাদ্দ	-9.49287
খিনি	-9.49297
বাইল	-9.49319
▁পংক্তি	-9.4932
▁প্ৰতিনিধি	-9.49359
ue	-9.49361
▁খা	-9.49446
ma	-9.4946
▁মিডিয়া	-9.4947
ry	-9.49485
▁প্ৰাথমিক	-9.49507
▁40	-9.49531
মো	-9.49574
ঞ্জ	-9.49599
▁Google	-9.49638
-1	-9.49646
▁Re	-9.49683
টোৱে	-9.49695
▁✞	-9.4971
/%	-9.49734
▁নকৰিলে	-9.49738
73	-9.4976
▁পছন্দসমূহ	-9.49781
▁প্ৰাচলসমূহ	-9.49824
গৰাকী	-9.49847
যুক্ত	-9.4989
▁Z	-9.49997
▁এম	-9.50069
▁30	-9.50078
▁গোট	-9.50108
▁সহজ	-9.50126
22	-9.5016
ri	-9.50287
▁ব্যুৰ	-9.5055
▁প্ৰভাবিত	-9.5057
▁সতৰ্কবাণী	-9.5057
▁উৎপন্ন	-9.50571
23	-9.50663
▁ফা	-9.50701
▁ৰুম	-9.50814
▁মেপ	-9.50824
▁কলাম	-9.50833
ডিঅ	-9.50985
ধি	-9.50989
াও	-9.51008
▁গৰাকী	-9.51166
স্থ	-9.51172
▁প্ৰতিলিপি	-9.51184
টাৰ	-9.5119
▁তুলি	-9.51193
▁নিম্ন	-9.512
▁বাকচৰ	-9.51366
▁প্ৰতিটো	-9.51454
89	-9.51582
▁চু	-9.51741
▁সেৱাৰ	-9.51861
â	-9.51867
▁অজানা	-9.51868
▁বিস্তাৰ	-9.51909
▁মনিটৰ	-9.51955
▁টুল	-9.51964
স্বয়ংক্ৰিয়ভাবে	-9.51983
▁শৈলী	-9.52081
▁বিকল্পৰ	-9.52133
▁সমাপ্তি	-9.52143
▁দ্ৰুত	-9.52182
91	-9.52423
▁(11	-9.52482
▁প্ৰভাৱ	-9.52493
▁ছবিসমূহ	-9.52558
▁y	-9.52627
ISO	-9.52655
ve	-9.52662
শ্ব	-9.52708
▁(59	-9.52838
দিন	-9.53044
pa	-9.53053
▁প্ৰি	-9.53068
▁(36	-9.531
▁ইসুজু	-9.53184
▁অবাঞ্ছিত	-9.53184
▁দীঘল	-9.53184
▁ব্ৰাউছাৰ	-9.53218
▁পাছত	-9.53244
▁সঠিকভাবে	-9.53253
▁বাচ	-9.53259
▁ধ্বনি	-9.53283
▁ৰক্ষা	-9.53315
ড়	-9.53566
▁প্ৰমাণ	-9.53578
৮	-9.536
▁লিখনীৰ	-9.53674
মন	-9.53877
বিহীন	-9.53971
্স	-9.54071
▁১৯	-9.5414
ব্	-9.54177
om	-9.54259
ৰ্ম	-9.5431
cal	-9.54323
oogle	-9.54442
বু	-9.54468
▁পৰিকল্পনা	-9.54497
০০	-9.54513
▁দক্ষতা	-9.54517
▁সংক্ষিপ্ত	-9.54517
▁শতাংশ	-9.54519
▁ব্ৰিজ	-9.54522
▁আবন্টন	-9.54534
গ্ৰ	-9.54591
সং	-9.54595
▁প্ৰোগ্ৰাম	-9.54597
▁প্ৰাৰম্ভিক	-9.54607
▁uuid	-9.54685
▁ব্যৱস্থাপক	-9.54696
গত	-9.547
ari	-9.54758
▁ৰাজ্য	-9.54759
▁উন্নয়ন	-9.54804
▁অৰ্থাৎ	-9.54994
%%	-9.55079
▁আখৰৰ	-9.55097
▁you	-9.551
▁string	-9.55124
ast	-9.55135
▁শাৰীৰ	-9.55227
েষ্	-9.55321
▁file	-9.55463
co	-9.55469
▁অধিসূচনা	-9.55509
▁ঠিকানা	-9.55634
▁নিষ্পেষণ	-9.55869
▁নিৰ্গম	-9.55869
▁আড়াল	-9.55869
▁ফীড	-9.5587
▁অন্তৰ্গত	-9.55871
▁সংজ্ঞা	-9.55873
▁আঘাত	-9.55895
▁আলোচনা	-9.55962
▁নোহোৱা	-9.55964
zu	-9.56011
port	-9.56075
95	-9.56263
▁বুটামৰ	-9.56404
68	-9.56415
▁ৰিমাইন্ডাৰ	-9.56654
রি	-9.5674
93	-9.56765
04	-9.56819
▁Jan	-9.56908
্তি	-9.56979
▁11	-9.57065
19	-9.57089
▁লগা	-9.57104
ā	-9.57222
▁হ্ৰাস	-9.57239
▁সঠিকৰূপে	-9.57282
▁৮	-9.57284
▁ৱা	-9.57309
▁মুঠ	-9.57315
স্থান	-9.57387
▁Meeting	-9.57411
▁"{1}"	-9.57416
▁ছবিক	-9.57523
▁Inc	-9.57582
▁পৰিচালনা	-9.57585
শা	-9.57627
▁যদিহে	-9.57645
▁জীৱন	-9.57771
▁ভাৰতত	-9.57796
▁নামকৰণ	-9.57871
85	-9.57959
াবিব	-9.57991
35	-9.58062
▁ধৰনৰ	-9.58127
মেন	-9.58152
▁ফ্লেগ	-9.58278
▁key	-9.58425
▁উজ্জ্বল	-9.58486
হীন	-9.58489
▁দে	-9.58525
ীত	-9.58525
▁বু	-9.58614
▁থাকলে	-9.58628
▁আনলক	-9.58632
▁চেনেল	-9.58633
▁সোঁ	-9.58693
▁this	-9.58856
গছনি	-9.5886
▁Bo	-9.58949
▁সাহায্যে	-9.58964
▁বাচি	-9.58968
▁নিৰ্বাচক	-9.59047
▁ফি	-9.59054
▁\	-9.59201
ছন	-9.59257
78	-9.59268
79)	-9.59318
▁আইন	-9.59492
92	-9.59551
-8	-9.59565
end	-9.5957
▁নহ	-9.59624
▁(23	-9.5964
▁পলিচীৰ	-9.5971
▁event	-9.59746
েক্ট	-9.59753
▁আহি	-9.59778
ক্	-9.59899
▁$	-9.59972
▁স্বচালিত	-9.59976
▁পৰিপ্ৰেক্ষতিত	-9.60036
▁ৰিচাৰ্ছ	-9.60037
▁সংকেত	-9.60037
▁নাকচ	-9.6004
▁বিলম্ব	-9.60129
▁চাপ	-9.60179
▁15	-9.60214
▁চাল	-9.60278
ক্ত	-9.60285
ı	-9.60391
99	-9.60398
টোসমূহ	-9.60501
▁w	-9.60728
▁পোস্ট	-9.60791
়	-9.60817
▁ভাৰত	-9.60819
▁(17	-9.60977
▁বাহিৰে	-9.60994
▁সেৱকেৰ	-9.61066
13	-9.61214
▁পু	-9.61237
▁পৰ্দাত	-9.6126
▁পক্ষৰ	-9.61433
Ð	-9.61463
▁বহিৰ্তম	-9.61464
▁weekday	-9.61465
▁ফাইলচিস্টেম	-9.61481
right	-9.61494
88	-9.61496
▁সামৰি	-9.61505
all	-9.61518
▁হৈতো	-9.61586
▁শুধুমাত্ৰ	-9.61644
ab	-9.6176
use	-9.61838
il	-9.61898
▁প্ৰত্যুত্তৰ	-9.61954
edit	-9.62111
▁query	-9.62226
▁সাব	-9.62228
97	-9.62261
▁কিমান	-9.62268
▁সাবস্ক্ৰাইব	-9.62314
03	-9.62351
ছো	-9.62372
Description	-9.62476
http	-9.62497
log	-9.6274
মু	-9.62757
▁পৃষ্ঠাসমূহ	-9.62813
পু	-9.62832
৭	-9.6286
iCalImp	-9.62914
▁পাচফ্ৰেইছ	-9.62914
ত্ৰ	-9.62931
▁প্ৰতিষ্ঠান	-9.62931
▁একাওন্টসমূহ	-9.62976
▁উপৰত	-9.63071
ba	-9.63099
di	-9.63521
▁গ্ৰ	-9.63649
েজ	-9.63713
৪	-9.63894
▁(48	-9.64061
▁উইন্ডোক	-9.64065
ান্ত	-9.64101
▁এটাচমেন্ট	-9.64135
77	-9.64183
তী	-9.64206
▁MAPI	-9.64384
▁কনচৌল	-9.64384
▁মাইগ্ৰেট	-9.64384
▁ৰফিকুল	-9.64384
▁আকৃতি	-9.64385
▁চলমান	-9.64385
▁স্প	-9.64409
াপ	-9.64533
▁PGP	-9.64541
আপুনাৰ	-9.6459
▁বিজ্ঞানী	-9.64613
দ্	-9.64665
▁মেনুৰ	-9.64804
▁পদাৰ্থ	-9.64826
▁টেবুল	-9.64867
j	-9.6499
000	-9.65287
▁{	-9.6536
▁বক্স	-9.65496
শি	-9.65531
36	-9.65583
▁আৰম্ভণিত	-9.65601
▁(27	-9.65615
128	-9.65779
▁ধাৰ্য	-9.65854
▁টাইপ	-9.65856
▁প্ৰগ্ৰাম	-9.65873
▁XXX	-9.65877
URA	-9.65878
▁খুলুন	-9.6588
▁তেওঁলোকৰ	-9.65882
▁আবেদন	-9.65893
☬✞	-9.65899
▁ক্লিপ	-9.65918
▁পাথ	-9.65963
51	-9.66059
71	-9.6613
গ্	-9.66162
▁ছাইট	-9.66266
▁Folder	-9.66302
▁কেমেৰা	-9.66385
▁বৈশিষ্ট্যসমূহ	-9.66385
▁দেশৰ	-9.66532
ছি	-9.66571
▁চাব	-9.66595
▁প্লে	-9.66621
িয়	-9.6672
IT	-9.66751
Fi	-9.66759
প্	-9.6689
▁ট্ৰে	-9.66913
▁error	-9.66993
▁প্ৰডাক্ট	-9.66995
UTF	-9.67021
আপোনাৰ	-9.67044
▁set	-9.67105
user	-9.67159
▁17	-9.67218
▁মূদ্ৰক	-9.67226
▁ভে	-9.67241
Play	-9.67386
▁আগবঢ়োৱা	-9.67392
▁ব্যাখ্যা	-9.67392
▁নিজস্ব	-9.67393
▁অনুপাত	-9.674
▁অন্তিম	-9.67409
▁প্লেইন	-9.67427
▁সংৰূপণ	-9.67488
▁পৰে	-9.67619
▁বাধা	-9.67747
▁IPv	-9.6785
▁যিবোৰ	-9.67865
ৰ্ড	-9.6795
64	-9.68045
39	-9.68046
▁org	-9.68069
▁বো	-9.68281
▁প্ৰমাণপত্ৰৰ	-9.68329
Show	-9.68579
▁কোম্পানী	-9.68609
▁মধ্য	-9.68609
▁বাকচ	-9.68749
29	-9.68761
সে	-9.68801
▁কম্পিউটাৰ	-9.68809
▁vCard	-9.6893
▁দৰঙী	-9.6893
▁মেটাৰ্চ	-9.6893
▁স্ক্ৰিনশ্বট	-9.6893
▁এক্সট্ৰেক্ট	-9.68932
▁খৰচ	-9.68935
▁সফলতাৰে	-9.68935
▁কেনেকৈ	-9.6894
▁বৰ্ণনা	-9.68948
User	-9.68962
▁অপসাৰণ	-9.69037
ID	-9.69087
▁কৰ্মক্ষেত্ৰ	-9.69111
▁সাৰ্ভাৰেৰ	-9.69135
▁ইছলামী	-9.69167
▁গৃহ	-9.69207
▁চলা	-9.69246
ment	-9.69272
▁আঁতৰুৱাৰ	-9.69298
47	-9.69351
▁TLS	-9.69393
▁ইছলামৰ	-9.69508
▁(50	-9.69526
লেণ্ড	-9.69567
▁বিশ্ব	-9.69582
▁Wi	-9.69662
get	-9.69677
▁জে	-9.69762
ত্ব	-9.69864
()	-9.70017
চ্ছ	-9.70248
▁যিটো	-9.70254
ভিত্তিক	-9.70264
▁ফাইলটি	-9.70343
▁একো	-9.70442
▁নথকা	-9.70468
▁দক্ষিণ	-9.70492
▁ঘুৰাই	-9.70493
▁সন্তান	-9.70493
▁সুনিশ্চিত	-9.70495
▁ইফকো	-9.70516
de	-9.70599
ton	-9.70633
পোৰ্ট	-9.70686
ুম	-9.70712
05	-9.70735
▁জ্যোতি	-9.70872
line	-9.70945
▁তাস	-9.71031
▁পঞ্জিকাৰ	-9.71201
▁time	-9.71302
81	-9.71317
▁ডিভাইচসমূহ	-9.7136
65	-9.71393
▁true	-9.71418
▁কোম্পানীৰ	-9.71454
dev	-9.71525
ca	-9.71566
▁চালক	-9.71607
$	-9.71699
▁স্তম্ভৰ	-9.7175
্ৰ	-9.71871
44	-9.71895
▁পৰিচালন	-9.71902
▁ব্ৰাউজ	-9.72008
▁2.	-9.72023
▁শূণ্য	-9.72073
ř	-9.72079
▁চিড়িতনৰ	-9.7208
▁জনপ্ৰিয়	-9.7208
▁সংলগ্ন	-9.7208
▁সৃজন	-9.7208
▁বেটাৰি	-9.7208
▁অতিক্ৰম	-9.72089
▁তথাপিও	-9.72097
▁বেকআপ	-9.72144
ুক	-9.72387
ent	-9.72538
▁লাইন	-9.72601
শ্	-9.72606
ation	-9.72749
▁বাইট	-9.72813
▁আগৰ	-9.72815
তু	-9.72923
▁চোৱা	-9.7305
বিলাক	-9.73168
ড়া	-9.73181
্ড	-9.73255
Indian	-9.73432
ব্যস্ত	-9.73456
▁প্ৰাপকৰ	-9.7346
list	-9.73597
header	-9.73693
▁SMTP	-9.73693
▁অগ্ৰাহ্য	-9.73693
▁ইশকাপনৰ	-9.73693
▁ৰুহিতনৰ	-9.73693
▁কৰ্মস্থলৰ	-9.73694
▁কোষ	-9.73714
▁পাওয়া	-9.73722
▁Outlook	-9.73896
▁ব্লক	-9.73911
▁পৰিৱেশন	-9.73945
▁ঈক্ষণকামী	-9.73958
▁‘%	-9.73975
▁চলন	-9.74007
▁দশক	-9.74012
▁স্ক্ৰল	-9.7403
45	-9.74034
▁চিটি	-9.74063
মতে	-9.74072
▁আইডি	-9.74202
▁প্ৰেৰক	-9.74299
ge	-9.74304
লু	-9.74306
▁লাইব্ৰেৰী	-9.7444
card	-9.74847
▁ঠ	-9.74925
▁পূ	-9.75098
$$	-9.7511
ন্যা	-9.75313
آ	-9.75332
▁brasero	-9.75333
▁উপধায়ক	-9.75333
▁সঞ্চালিত	-9.75333
▁ইঙ্গিত	-9.75333
unja	-9.7534
▁প্ৰতিবেদন	-9.75342
স্বামী	-9.75344
▁এক্সপোৰ্ট	-9.75348
▁দায়বদ্ধতা	-9.75378
▁পালন	-9.75418
▁ৰাষ্ট্ৰীয়	-9.75451
▁UA	-9.75505
▁job	-9.75601
64)	-9.75695
ক্ষণ	-9.75713
▁50	-9.75715
ালি	-9.75763
▁ৰুট	-9.75826
▁চেল	-9.7601
▁ধৰা	-9.7602
▁ঘ	-9.7621
▁ট্ৰি	-9.76218
79	-9.76281
▁ঘটনাসমূহ	-9.76458
▁ক্ষ	-9.76556
▁এপ্লিকেচনৰ	-9.76654
▁cpu	-9.76726
▁তাচ	-9.76766
▁প্ৰতিষ্ঠা	-9.76774
▁ডোমেইনৰ	-9.7681
ব্য	-9.76888
▁স্থানে	-9.76903
▁(29	-9.76946
▁তিনি	-9.76975
ê	-9.76999
▁ধজভংগ	-9.76999
Gadu	-9.76999
▁হৰতনৰ	-9.76999
▁কাগজ	-9.76999
▁করতে	-9.77001
▁সোঁফালে	-9.77002
07	-9.77044
tr	-9.77062
▁এইচকিউ	-9.77245
াৰি	-9.77295
এল	-9.77399
te	-9.77446
হু	-9.77456
পেড	-9.77481
▁উদাহৰণস্বৰূপ	-9.77502
▁কর্ম	-9.77543
▁খোলাৰ	-9.77656
চল	-9.77677
▁Q	-9.77802
▁বস্তুবোৰ	-9.77905
ll	-9.77908
▁বিৱৰণসমূহ	-9.77959
▁প্ৰকাৰ	-9.77998
▁সম্পৰ্ক	-9.78154
কাচ	-9.78158
চাৰ	-9.78206
াক	-9.7832
▁ব্যবহাৰকাৰীৰ	-9.78341
াইট	-9.78342
▁থ	-9.78373
টিকে	-9.78489
add	-9.78504
ম্ব	-9.78523
link	-9.78525
06	-9.78558
ঙ্ক	-9.78576
(4	-9.7862
বো	-9.78653
ҟ	-9.78693
▁before	-9.78694
▁iCalendar	-9.78694
▁অব্যাহত	-9.78694
▁একত্ৰিত	-9.78694
▁প্ৰটোকল	-9.78694
▁সম্প্ৰসাৰণ	-9.78694
▁xxx	-9.78694
▁পৰিবহন	-9.78694
▁দৰুন	-9.78697
▁জন্ম	-9.78697
▁সহায়িকা	-9.78742
▁re	-9.78758
▁অনুক্ৰম	-9.78759
▁মালিক	-9.78801
▁নথিপত্ৰটি	-9.78824
▁সম্ভবত	-9.78893
ine	-9.78925
ct	-9.78961
ণি	-9.79098
▁পঢ়াৰ	-9.79282
▁কুকি	-9.79385
▁Ko	-9.79511
▁বুট	-9.79569
▁জো	-9.79617
▁51	-9.79704
▁একাওন্টৰ	-9.79909
▁(18	-9.80117
▁নেটৱৰ্ক	-9.80131
অসমীয়া	-9.80292
যা	-9.80366
▁গু	-9.80372
▁চীন	-9.80396
▁কনফিগাৰ	-9.8042
Action	-9.8042
▁সোমাওক	-9.8042
▁ভ্ৰমণ	-9.8042
70	-9.80431
▁সমগ্ৰ	-9.80436
▁চাৰ্জ	-9.80456
87	-9.80552
▁বিন্যাসে	-9.80563
▁জমা	-9.80574
▁$1	-9.80584
▁ছি	-9.80626
▁অপ	-9.80672
▁ৰো	-9.80719
▁যোগ্যতা	-9.80776
খা	-9.80794
▁from	-9.80873
▁অৱস্থানত	-9.80881
.2	-9.80948
পাৰ	-9.80983
লগ	-9.81124
কাকত	-9.81166
im	-9.81186
▁message	-9.81236
▁এইখন	-9.81485
েক্স	-9.816
mo	-9.81664
▁19	-9.81672
▁সঁজুলি	-9.81674
▁—	-9.81741
ai	-9.81876
▁পৰিৱৰ্তন	-9.81925
▁100	-9.81944
▁চুক্তি	-9.82106
▁বস্তুসমূহ	-9.8216
▁যৌথ	-9.82161
Ŧ	-9.82172
▁খসড়া	-9.82173
▁প্ৰত্যাখ্যান	-9.82173
▁ফলস্বৰূপ	-9.82173
▁প্ৰদর্শন	-9.82173
▁অবস্থিত	-9.82173
▁কাৰ্চাৰ	-9.82177
▁সমষ্টি	-9.8218
▁আহৰণ	-9.82187
▁KPR	-9.82199
▁ফোল্ডাৰটি	-9.82287
▁জন্মদিন	-9.823
▁has	-9.82308
▁যুদ্ধ	-9.82502
৯	-9.82527
99)	-9.82551
▁স্বাভাৱিক	-9.82598
িচ	-9.82609
mail	-9.82689
▁দেশ	-9.82733
▁TRUE	-9.82803
▁ISO	-9.82934
▁with	-9.8297
বাদ	-9.83206
▁সংকোচন	-9.83214
▁ka	-9.8329
▁মাস	-9.83509
▁অনুমতিসমূহ	-9.83521
▁ধ	-9.83682
উপাদানৰ	-9.83893
print	-9.8391
▁নিৰ্মাতা	-9.83958
▁পৰিচালক	-9.83958
▁সংগঠক	-9.83958
▁ৰপ্তানি	-9.83958
▁ৱাৰেন্টি	-9.83958
▁প্ৰমাণীত	-9.83969
▁ধৰ্ম	-9.83969
▁ভূমিকা	-9.8397
sync	-9.83974
▁ৰোগ	-9.83975
সকলক	-9.83976
যোগ	-9.83991
▁ছেন্ট	-9.83992
▁কেতিয়াও	-9.84016
▁ৰচনা	-9.84054
▁ফৰ্ম	-9.84059
▁সম্পৰ্কীয়	-9.84111
66	-9.84146
ইল	-9.84397
▁চো	-9.84498
▁টে	-9.84673
্ৰা	-9.84821
▁১০০	-9.84877
90	-9.84924
▁প্ৰযুক্তি	-9.85036
▁কাৰ্ছাৰ	-9.85075
চান	-9.8521
▁অভিব্যক্তি	-9.85212
▁সংকলন	-9.85275
▁বহীৰ	-9.85381
▁MA	-9.85595
▁+'	-9.85681
▁লিংক	-9.85699
DVD	-9.8574
ইয়া	-9.8574
টেক্সট	-9.85751
▁উৎ	-9.8577
▁বেকএণ্ড	-9.85777
▁মধ্যবৰ্তী	-9.85778
▁Xiaomi	-9.85783
▁NameMeeting	-9.85786
লিস্ট	-9.85805
▁উপযুক্ত	-9.85806
Bus	-9.85811
▁UID	-9.85821
▁প্ৰচাৰ	-9.85839
▁ফ্ৰেম	-9.85841
he	-9.85852
▁ৰাখা	-9.85866
▁চীনা	-9.85875
োধ	-9.85893
▁In	-9.85955
মেন্ট	-9.86004
con	-9.86018
লাই	-9.86104
▁বিধি	-9.86166
োঁ	-9.86237
▁status	-9.86254
আই	-9.86269
ফি	-9.8631
গান	-9.86396
▁minutes	-9.86613
ub	-9.86615
▁পেইনৰ	-9.86648
AP	-9.86869
▁ডকুমেন্ট	-9.8695
▁সাহায্য	-9.8718
one	-9.87181
52	-9.87268
ia	-9.87278
ock	-9.87315
▁গল	-9.8737
▁Key	-9.87398
int	-9.87432
বদ্ধ	-9.87454
ীল	-9.87463
▁ছেট	-9.87476
▁মানচিত্ৰ	-9.87498
ডো	-9.87549
্ম	-9.87553
atch	-9.87567
▁ধনৰাশি	-9.8757
day	-9.8758
ack	-9.87588
Sound	-9.87598
▁সুমুৱা	-9.87616
‘	-9.87625
▁গৱেষণা	-9.87628
▁GroupWise	-9.87628
▁কিচ্কিচ্	-9.87628
▁গ্ৰন্থ	-9.87628
▁সুনিৰ্দিষ্ট	-9.87628
▁খোলোঁতে	-9.87629
▁এনকোডিং	-9.87635
▁ঈমান	-9.87678
▁স্বচ্ছতা	-9.87693
▁নিযুক্তক	-9.87707
▁দুবাৰ	-9.87711
▁নোড	-9.87762
▁বাওঁফালে	-9.87826
▁উপায়	-9.87835
▁কোটি	-9.87895
lab	-9.87933
▁টাইম	-9.87945
▁হেৰাই	-9.87989
▁কমপিউটাৰ	-9.88165
▁25	-9.88365
▁পাতল	-9.88367
▁বাৰ্তাসমূহকে	-9.88408
▁{1}	-9.88472
ভূ	-9.8849
▁be	-9.88613
▁ভিউ	-9.88705
▁সেৱকে	-9.88749
▁(47	-9.88752
▁মত	-9.88757
▁ওপৰৰ	-9.8887
▁প্ৰিমিয়াম	-9.88881
▁দাবীৰ	-9.89013
▁(30	-9.89043
94	-9.89118
up	-9.89159
▁পৰামৰ্শ	-9.89264
াংশ	-9.89402
▁ডেস্কট	-9.8944
view	-9.89511
slot	-9.89515
▁USA	-9.89517
▁বুড়া	-9.89524
▁গুৰুত্ব	-9.89525
▁নিৰ্মিত	-9.89539
ফোল্ডাৰ	-9.89541
▁প্ৰবন্ধ	-9.89544
সত্য	-9.89548
action	-9.89549
হৈছে	-9.89572
▁ধনৰাশিৰ	-9.89575
ধী	-9.89613
▁বেয়া	-9.89682
▁26	-9.89705
bK	-9.89713
▁পদ	-9.89771
▁ৰূপ	-9.89954
পূ	-9.90106
▁ফিল্ড	-9.90275
.1	-9.90337
▁(100	-9.90338
▁যদিও	-9.9035
▁ডাউন	-9.90419
▁গো	-9.90564
ল্ড	-9.90573
ছৰ	-9.9061
▁উই	-9.90612
ণ্ট	-9.90685
পথ	-9.90712
▁দেখুৱাব	-9.90736
▁জানা	-9.90745
ক্ষিত	-9.908
▁১২	-9.9093
ষ্	-9.90937
▁দিশত	-9.9127
▁Microsoft	-9.91438
▁অপৰিচিত	-9.91438
▁ডাটাবেইচ	-9.91438
▁তৈয়াৰ	-9.91438
custom	-9.91438
volume	-9.91438
▁গাড়ী	-9.91438
▁মহাসাগৰ	-9.91438
▁প্ৰসংগ	-9.91438
▁প্লেয়াৰ	-9.9144
▁অমিল	-9.9144
▁বুজুৱা	-9.91441
▁পূৰ্ণসংখ্যা	-9.91442
▁ব্যৱসায়ীক	-9.91443
▁প্ৰৰিত	-9.91455
▁পাঠযোগ্য	-9.91467
পৃষ্ঠা	-9.91483
MIME	-9.91486
ugu	-9.91523
▁জীৱনী	-9.91564
▁ধাৰণ	-9.9163
▁বাটন	-9.91671
▁ফাইলটো	-9.91688
দৰ	-9.91872
▁যত	-9.92026
▁বছৰৰ	-9.92099
মুখ	-9.92204
not	-9.92242
ৰিং	-9.92478
▁আৰব	-9.92622
হী	-9.92705
▁ব্যৱসায়	-9.92863
▁কোণ	-9.92895
74)	-9.92929
▁চেক	-9.92941
84)	-9.93023
▁বিপৰীত	-9.9319
▁চাইল্ডৰ	-9.93269
#	-9.93295
72	-9.93301
পূৰ্ণ	-9.93342
▁ফৰমেট	-9.93363
▁ৰেজিস্টাৰ	-9.93392
е	-9.93398
▁RAID	-9.93399
▁PKCS	-9.93399
▁SpamAssassin	-9.93399
▁ইনক্ৰিপষণ	-9.93399
▁এপ্লেট	-9.93399
▁প্ৰশান্ত	-9.93399
▁প্ৰৱিষ্টি	-9.93399
▁স্বাগতম	-9.93399
▁যৌন	-9.93399
Spot	-9.93399
▁নীচে	-9.934
▁অৱস্থিত	-9.93403
▁পাইছে	-9.93424
▁সম্ভৱতঃ	-9.93433
▁আহিছে	-9.9345
▁ব্যৱহাৰকাৰীনাম	-9.9347
▁অসম্পূৰ্ণ	-9.93486
▁জানিবলৈ	-9.93487
▁জিলা	-9.93579
▁প্ৰকল্পৰ	-9.9363
▁অৰ্থ	-9.93736
▁বৰ্গ	-9.93812
▁ওচৰত	-9.9387
াউ	-9.93895
▁Indian	-9.93946
▁মুখ্য	-9.94011
ft	-9.94229
▁গণিতজ্ঞ	-9.94319
(2	-9.94328
\.	-9.94394
ৰ্ন	-9.9442
va	-9.9446
set	-9.94485
▁বৈশিষ্টসমূহ	-9.94512
বেল	-9.94578
ধান	-9.94601
▁আইকনৰ	-9.94676
▁খন	-9.94679
ফে	-9.94717
nc	-9.94738
ph	-9.94774
▁(54	-9.94792
▁আৰ্কাইভত	-9.94904
▁চিত্ৰ	-9.94939
াং	-9.94946
▁(13	-9.94997
pt	-9.951
▁পঠাব	-9.95139
স্তা	-9.95259
ৱি	-9.95314
▁Fran	-9.95386
মিন	-9.95394
▁02110-1301	-9.95399
▁clips	-9.95399
▁কীপ্যাড	-9.95399
▁ক্লেইম	-9.95399
▁দ্বীপপুঞ্জ	-9.95399
▁মেটাডাটা	-9.95399
▁সংৰেখন	-9.95399
▁কৰ্মচাৰী	-9.95399
▁সংবাদ	-9.95406
▁সমাজ	-9.95412
▁Mar	-9.9544
▁সময়অন্ত	-9.95442
▁পৰিবৰ্তনশীল	-9.95489
▁উৎপাদন	-9.95492
▁MAC	-9.95505
হো	-9.95574
▁VM	-9.95595
োল	-9.95709
lld	-9.95709
▁লিস্ট	-9.95756
াৰ্	-9.9576
ঠি	-9.95798
▁টোকা	-9.95818
be	-9.95924
▁ভাষাসমূহ	-9.96024
▁বাক্স	-9.96083
tar	-9.96142
▁চনৰ	-9.96185
ডাৰ	-9.96328
রু	-9.96597
▁আৰবী	-9.96649
চাই	-9.96702
▁প্ৰগ্ৰামৰ	-9.96755
▁স্কিমা	-9.96965
pi	-9.9706
OR	-9.9707
▁ভাগ	-9.97097
ফল	-9.97166
▁ডায়লগ	-9.97246
html	-9.97391
nl	-9.97432
▁কীচেইনে	-9.9744
▁নিষ্কাষণ	-9.9744
▁পঠাওতে	-9.9744
▁পঠিওৱা	-9.9744
▁বলৱৎ	-9.9744
▁বোধগম্য	-9.9744
▁লাইসেন্স	-9.9744
▁হস্পিটেলত	-9.9744
▁গঠন	-9.9744
▁Flo	-9.9744
▁আকৌ	-9.97441
▁Fift	-9.97448
▁খাদ্য	-9.97448
pre	-9.97468
*	-9.97499
▁সিস্টেম	-9.97503
▁চুৰি	-9.97535
po	-9.97603
পূৰ্ব	-9.97634
ছেন	-9.97725
▁মাউছৰ	-9.97738
থি	-9.97849
▁শ্ৰী	-9.97854
সু	-9.97886
▁পাঁচ	-9.97948
সময়	-9.98033
▁ঘটনাৰ	-9.9811
▁বয়স	-9.98194
▁q	-9.98231
িভ	-9.98457
▁ক্ষতিৰ	-9.9855
▁যা	-9.98628
io	-9.98726
▁সাত	-9.98755
িয়াম	-9.98805
▁গৃহস্থ	-9.9884
এন্ড	-9.98966
গু	-9.99047
▁বাইনাৰি	-9.99122
িমা	-9.99148
▁ৰাখি	-9.99213
▁4.	-9.99347
17	-9.9942
বলগীয়া	-9.99432
▁সেৱাসমূহ	-9.99493
▁বাংলা	-9.9952
ا	-9.99522
▁qemu	-9.99523
▁জৰিয়তে	-9.99523
▁নাথাকিব	-9.99523
▁নিৰাপত্তা	-9.99523
▁নূন্যতম	-9.99523
▁লিমাজীন	-9.99523
klin	-9.99523
▁URl	-9.99523
show	-9.99524
▁গ্ৰাফিক্স	-9.99525
▁সোধা	-9.99531
▁মাজৰ	-9.99533
Don	-9.99535
▁বদল	-9.99537
Select	-9.99553
▁পাৰবেন	-9.99575
পাল	-9.99582
move	-9.99719
রা	-9.99778
cm	-9.99862
▁গ্লে	-9.99883
▁Tel	-9.99935
▁খোৱা	-10
▁অ্যাকাউন্টেৰ	-10.0006
▁বড়	-10.0017
▁বিৱৰণী	-10.0019
▁সেট	-10.0022
▁লগে	-10.0031
▁সূচনাপ্ৰদানৰ	-10.0048
ate	-10.0066
▁বস্তুটি	-10.008
ৰ্গ	-10.0102
ৃত	-10.0121
▁বিপ	-10.0127
▁খেলাৰ	-10.013
ুদ	-10.0133
▁আহ	-10.0135
▁(20	-10.0136
▁মোডে	-10.014
▁সম্	-10.0142
ান্	-10.0147
full	-10.0157
▁তেনে	-10.016
▁দেয়	-10.0161
▁প্ৰত্যক্ষ	-10.0163
▁শিশু	-10.0165
▁Archive	-10.0165
▁June	-10.0165
▁Street	-10.0165
▁অনুভূমিক	-10.0165
▁চাল্লাল্লাহু	-10.0165
▁থাম্বনেইল	-10.0165
▁নির্বাচন	-10.0165
▁প্ৰোটোকল	-10.0165
▁সংস্কৃতি	-10.0165
▁সনাক্ত	-10.0165
▁ঘোষণা	-10.0165
▁বেলেগ	-10.0165
য়ী	-10.0166
▁জীবন	-10.0166
▁বাতৰি	-10.0166
▁সম্বন্ধীয়	-10.0166
▁খুলতে	-10.0167
▁খুলিবলৈ	-10.0174
▁গোপনীয়তাৰ	-10.0177
▁(593	-10.0183
নীয়	-10.0183
ট্ৰ	-10.019
Key	-10.0193
▁মানুহ	-10.0197
াইজ	-10.0201
▁পত্ৰ	-10.0207
▁Yahoo	-10.0209
em	-10.0209
▁mbox	-10.021
▁কেলেন্ডাৰসমূহ	-10.0227
কোনো	-10.0228
▁দলৰ	-10.023
▁নকৰি	-10.0231
▁আগ	-10.0243
ন্ধ	-10.025
▁Times	-10.0251
▁খেলৰ	-10.0256
ষা	-10.0272
per	-10.0278
▁200	-10.0278
▁দিবলে	-10.0284
(13	-10.0289
▁সময়তে	-10.0294
▁page	-10.0295
▁ছেকেণ্ড	-10.0297
কী	-10.0319
কাৰীৰ	-10.0323
দেশ	-10.0341
▁বিকল্পেৰ	-10.0349
▁কোৰআন	-10.0349
▁ৰামানুজন	-10.035
▁মোডত	-10.0351
▁ক্ষেত্ৰসমূহ	-10.0355
▁শাৰীত	-10.0366
িউ	-10.0367
mac	-10.0377
disks	-10.0377
▁SOCKS	-10.0378
▁Shotwell	-10.0382
▁অনাকাঙ্ক্ষিত	-10.0382
▁অভিজ্ঞতা	-10.0382
▁অৱশ্যে	-10.0382
▁জ্যামিতি	-10.0382
▁প্ৰণয়ন	-10.0382
▁ব্যর্থ	-10.0382
▁সংরক্ষণ	-10.0382
▁একেলগে	-10.0382
▁হাৰ্ডৱেৰ	-10.0382
▁প্ৰস্তাৱ	-10.0383
▁ডেমন	-10.0384
▁ফলন	-10.0384
folder	-10.0384
▁বহুতো	-10.0387
▁চনত	-10.0388
▁ছায়া	-10.039
raw	-10.039
▁ব্লুটুথ	-10.0393
▁বিস্তাৰিত	-10.0393
▁খাপ	-10.0397
▁আনুভূমিক	-10.0403
▁এগৰাকী	-10.0404
▁বিজ্ঞাপন	-10.0406
▁তেনেহলে	-10.0407
পন	-10.0408
▁চৰক	-10.0408
dictionary	-10.0413
state	-10.0414
key	-10.0415
অবিকল্পিত	-10.0416
আপুনি	-10.0416
াজ	-10.0429
গ্রহ	-10.0432
িঅ	-10.0437
▁পপ	-10.0438
▁নো	-10.0445
▁বাৰ্তাসমূহৰ	-10.0472
▁অনুলিপি	-10.0496
▁নিজে	-10.0497
্ৰি	-10.0503
▁পৰ্দ্দা	-10.0507
▁Id	-10.0515
ৰূপ	-10.0522
ru	-10.0528
▁ইঞ্জিন	-10.0542
tab	-10.0547
ক্তি	-10.0552
75	-10.0553
পৰা	-10.0557
ীন	-10.057
21)	-10.0574
▁হওয়াৰ	-10.058
▁ব্যবহার	-10.0602
▁অনুসৰণ	-10.0603
`	-10.0605
▁reminder	-10.0605
▁আব্দুল	-10.0605
▁ক্ৰীড়া	-10.0605
▁ফজিলত	-10.0605
▁বৰকটকী	-10.0605
▁লাইব্ৰেৰি	-10.0605
guy	-10.0605
image	-10.0605
ompany	-10.0605
.245	-10.0606
▁করে	-10.0606
▁2017	-10.0606
▁Text	-10.0606
▁প্ৰসাৰণ	-10.0606
▁One	-10.0607
▁PIN	-10.0608
▁সময়অঞ্চল	-10.061
াণ	-10.0615
▁প্লেটফৰ্মত	-10.0616
▁Jabber	-10.062
কিং	-10.062
▁মোক	-10.0627
▁প্ৰদৰ্শক	-10.0629
▁list	-10.063
লেও	-10.063
▁দশ	-10.0632
োচ	-10.0635
▁$$	-10.0636
েস্ট	-10.0636
cpu	-10.0642
চিত	-10.0645
▁এপ্লিকেচনসমূহ	-10.0647
▁প্রতি	-10.0651
াওক	-10.0659
শু	-10.066
(26	-10.0682
▁আউট	-10.0683
▁start	-10.0685
ীক	-10.0711
▁(1)	-10.0729
▁symbol	-10.0771
▁Permissions	-10.0772
স্প	-10.0774
200	-10.0775
স্ব	-10.0775
▁de	-10.078
▁ভাৰতৰ	-10.0781
িছ	-10.0786
▁কিট	-10.0794
▁উইন্ডোটি	-10.0798
শন	-10.0807
▁অনুজ্ঞা	-10.0808
▁বিশ্ববিদ্যালয়	-10.081
▁ৱেবপৃষ্ঠা	-10.0826
ান্ডা	-10.083
▁NULL	-10.0832
▁একাউণ্ট	-10.0832
▁মুছলিম	-10.0832
কেটেগৰী	-10.0832
▁Pidgin	-10.0832
▁every	-10.0832
▁চলচিত্ৰ	-10.0832
▁বিক্ৰী	-10.0832
▁আতৰাই	-10.0832
▁প্ৰত্যেক	-10.0832
▁টানেলিং	-10.0833
▁পাইপ	-10.0834
▁সুসংগতি	-10.0839
▁অনুসন্ধানেৰ	-10.0844
disabled	-10.0845
▁অংশগ্ৰহণকাৰী	-10.0847
▁আলাইহি	-10.0848
▁কৰেছেন	-10.085
▁সম্বন্ধে	-10.085
▁বিচাৰক	-10.0857
▁এচ	-10.086
20)	-10.086
▁access	-10.087
title	-10.0874
▁Ma	-10.0874
ম্যা	-10.0874
গণিত	-10.0877
▁code	-10.0878
ay	-10.0882
69	-10.089
IS	-10.0894
োক	-10.091
(22	-10.0915
ুলি	-10.0915
েন্স	-10.0923
▁{{	-10.0932
▁Xxx	-10.0941
▁বাইন্ড	-10.0952
tion	-10.096
(45	-10.0967
▁old	-10.097
▁IM	-10.0971
▁২০	-10.0983
নু	-10.0993
12)	-10.1031
▁অংশগ্ৰহণকাৰীৰ	-10.1034
if	-10.1037
▁ভঁৰাল	-10.1048
ইছে	-10.1054
▁অংশীদাৰ	-10.1057
স্ক্ৰাইব	-10.1064
period	-10.1065
▁Insurance	-10.1065
▁SASL	-10.1065
▁variant	-10.1065
▁টেমপ্লেট	-10.1065
▁পাছওৱাৰ্ড	-10.1065
▁বিদ্যমান	-10.1065
Ctrl	-10.1065
▁প্ৰমিত	-10.1065
▁কুমাৰ	-10.1065
▁আচৰণ	-10.1066
okio	-10.1067
▁প্ৰদানকাৰী	-10.1067
tag	-10.1069
:$1_	-10.1069
▁জনোৱা	-10.107
▁টেবিল	-10.1071
▁কেন্দ্ৰীয়	-10.1074
▁সদায়ে	-10.1074
▁been	-10.1075
▁আঁ	-10.1076
tog	-10.1084
▁উজ্জ্বলতা	-10.1086
▁সাৰ্ভাৰে	-10.1088
▁প্ৰামাণিক	-10.1094
▁পৰ্দ্দাৰ	-10.1095
ist	-10.1096
▁যো	-10.1098
▁স্থাপিত	-10.1108
▁আলেখ্যন	-10.1112
িবলৈ	-10.1113
▁স্ক্ৰিন	-10.1113
▁দৰ্শনত	-10.1113
▁To	-10.1117
▁হয়তো	-10.1119
ফাইল	-10.1121
▁ফ্লেগসমূহ	-10.1124
▁পাৰো	-10.1125
24)	-10.1129
▁দূৰ	-10.113
34	-10.1132
▁চাৰি	-10.114
কেট	-10.1145
▁পৰিস্থিতি	-10.1146
▁কাৰ্	-10.1146
▁এইবোৰ	-10.1147
▁xml	-10.1148
▁en	-10.1159
▁দাস	-10.1161
Re	-10.1164
▁প্ৰকৃতি	-10.1167
▁ছোট	-10.1167
▁জল	-10.1172
ছবি	-10.1177
est	-10.1178
▁28	-10.118
ছেট	-10.1182
কৰা	-10.1188
াৱলী	-10.1192
dir	-10.1192
গে	-10.1197
▁নেট	-10.1213
আৰ	-10.1216
site	-10.122
▁23	-10.1221
▁পাওঁ	-10.123
▁দস্তাবেজসমূহ	-10.1236
43	-10.1247
▁আম	-10.125
বেক	-10.1266
▁নিৰ্ভৰ	-10.1267
▁সফল	-10.1278
লেন্ড	-10.1281
▁সমাপ্তিৰ	-10.1283
▁বাৰ্তাসমূহক	-10.1283
▁তেনেহ	-10.1284
▁উইন্ডোতে	-10.1289
▁সম্পত্তি	-10.1292
▁প্ৰাৰম্ভ	-10.1292
▁ম্যাদ	-10.1296
গুলো	-10.1296
▁আট	-10.13
group	-10.1301
▁তাগিদ	-10.1302
Privacy	-10.1303
▁UUID	-10.1303
▁বিনামুল	-10.1303
▁শ্বাইখ	-10.1303
▁পেইস্ট	-10.1303
▁এখানে	-10.1303
▁স্বত্বাধিকাৰ	-10.1303
▁যোগেদি	-10.1303
▁মেচিন	-10.1303
Disc	-10.1303
▁নিয়ক	-10.1304
▁বেকএন্ড	-10.1304
▁চলক	-10.1305
▁উত্স	-10.1306
▁লেবেলৰ	-10.1308
my	-10.1309
▁পইন্টাৰ	-10.1309
▁চুক্তিসমূহৰ	-10.1311
সম	-10.1313
▁সেয়া	-10.1313
▁লেখাৰ	-10.1318
▁প্ৰাথমিকতা	-10.1319
▁সম্পূৰ্ণৰূপে	-10.1319
▁স্বাক্ষৰকাৰী	-10.1321
▁বিকল্পত	-10.1321
ানি	-10.1322
▁উদ্ধৃতি	-10.1324
▁যোগদান	-10.1328
▁পাবলৈ	-10.1329
▁গোপনীয়তা	-10.1333
display	-10.1334
▁দিকে	-10.1337
info	-10.1351
▁লেক	-10.1353
97)	-10.1359
▁জু	-10.136
▁পৰিৱৰ্তনসমূহ	-10.1362
▁0.0	-10.1367
rd	-10.1367
▁ভিত্তিত	-10.1371
▁প্ৰতিটি	-10.1404
▁ঘট	-10.1408
▁কাৰণৰ	-10.1411
▁স্ক	-10.1432
▁De	-10.1439
▁আবৰ্জনালে	-10.144
জনক	-10.1446
▁ছেকেণ্ডত	-10.1446
▁সীমাৰ	-10.145
মোৰ	-10.1455
▁ঠাই	-10.1469
▁Sa	-10.1473
এচ	-10.1474
▁আধাৰ	-10.1478
▁তুলনা	-10.148
▁অভিনেতাৰ	-10.1486
▁অংশে	-10.1492
CD	-10.1505
▁অ্যা	-10.1506
ঠা	-10.1506
জো	-10.1508
▁যেন	-10.1517
▁চাৰ্ভাৰত	-10.1523
ৰ্চ	-10.1523
ice	-10.1534
▁অপশন	-10.1538
bb	-10.1539
▁(46	-10.1542
▁ফৰৱাৰ্ড	-10.1543
▁Economic	-10.1547
▁আল্লাহৰ	-10.1547
▁ক্ষতিপূৰণ	-10.1547
▁পদক্ষেপ	-10.1547
▁পৰিস্ৰাৱন	-10.1547
▁বিৰুদ্ধে	-10.1547
▁ভাৰছুৱেল	-10.1547
▁ট্যাবলৌ	-10.1547
▁গ্রহণ	-10.1547
▁অডিও	-10.1547
▁CMS	-10.1547
▁dbus	-10.1547
▁নৱীকৰণ	-10.1547
▁mime	-10.1547
▁চালানো	-10.1547
▁দেখুন	-10.1547
▁আমন্ত্ৰণ	-10.1548
▁ডাম্প	-10.1549
▁গল্প	-10.1549
সূচী	-10.155
forward	-10.155
▁বিভাগৰ	-10.1553
▁ইনলাইন	-10.1556
▁your	-10.1556
▁৯	-10.1557
67)	-10.1561
▁পঢ়োতে	-10.1563
▁at	-10.1565
চিত্ৰ	-10.1567
▁বাওঁ	-10.1567
স্ট্ৰ	-10.1568
▁অভি	-10.1572
▁হাঁ	-10.1575
▁অগ্ৰসৰ	-10.1578
▁Image	-10.1578
লং	-10.158
▁ক্লাব	-10.1588
▁ফাইলনাম	-10.1597
75)	-10.1599
°	-10.1603
tooltip	-10.1603
—	-10.1606
▁সংযোগক্ষেত্ৰৰ	-10.1607
যেনে	-10.1608
চিহ্ন	-10.1608
ব্যৱহাৰকাৰী	-10.1609
▁কাষত	-10.1617
19)	-10.1631
▁সংস্থা	-10.1635
ন়্	-10.1644
▁অংশত	-10.1646
94)	-10.1647
▁জনা	-10.1649
ঙ্	-10.166
েও	-10.1668
▁পদ্ধতিৰ	-10.1674
ap	-10.1691
app	-10.1701
29)	-10.1712
েশন	-10.1727
জাৰ	-10.173
ষ্ঠ	-10.1739
লিক	-10.175
▁পৰিচালনাৰ	-10.1761
পৰি	-10.1763
PC	-10.178
▁বন্ধু	-10.1793
а	-10.1796
▁বিকল্পক	-10.1796
source	-10.1796
example	-10.1797
▁অধ্যয়ন	-10.1797
▁অবিহনে	-10.1797
▁দৈনিক	-10.1797
▁নিৰূপণ	-10.1797
▁ব্যতিক্ৰম	-10.1797
▁মীমাংসা	-10.1797
▁মুদ্ৰণ	-10.1797
▁সংক্রান্ত	-10.1797
▁সাপ্তাহিক	-10.1797
▁হেঁচকা	-10.1797
Socket	-10.1797
▁পৰিসেবা	-10.1797
▁আপনাকে	-10.1797
refer	-10.1797
ER	-10.1799
▁gedit	-10.1799
▁পুথি	-10.1801
▁লিখতে	-10.1802
▁কোম্পানীয়ে	-10.1806
▁একেটা	-10.1808
▁TX	-10.1809
▁ক্ৰমিক	-10.181
▁am	-10.1811
▁সাম	-10.1813
▁ভঁৰালৰ	-10.1814
▁থাকা	-10.1818
rev	-10.1819
▁আলফা	-10.182
▁পুলৰ	-10.1822
▁উলোটা	-10.1822
▁ঈশান	-10.1828
ানিবলৈ	-10.1833
▁PC	-10.1837
সূচক	-10.1845
▁দৃশ্য	-10.186
number	-10.186
স্খলিত	-10.1862
Permissions	-10.1862
error	-10.1863
অথবা	-10.1864
▁Web	-10.1872
▁হেডাৰসমূহ	-10.1877
শাৰী	-10.188
▁current	-10.1882
▁১৮	-10.1892
▁আৰ্কাইভৰ	-10.19
▁ৰিমাইন্ডাৰসমূহ	-10.1905
ুজ	-10.1908
▁লু	-10.1908
out	-10.1917
▁প্ৰেৰকৰ	-10.1933
▁স্কোৰ	-10.1955
দ্ৰ	-10.1965
▁45	-10.1971
▁চিস্টেমৰ	-10.1973
▁পক্ষ	-10.1975
পুৰ	-10.1976
▁১১	-10.1986
%.1	-10.199
বক্স	-10.1994
িতা	-10.1995
স্টা	-10.2005
mi	-10.2006
▁গণ	-10.2017
41	-10.2017
▁ফু	-10.2029
able	-10.2029
86	-10.2041
াৱ	-10.2052
▁ৰেখা	-10.2053
▁অস্তিত্ব	-10.2053
▁অলিম্পিয়াড	-10.2053
▁বর্ষপঞ্জি	-10.2053
▁বৈদ্যুতিক	-10.2053
▁যাচ্ছে	-10.2053
friend	-10.2053
▁চিনেমা	-10.2053
▁সজোৱা	-10.2053
space	-10.2053
▁স্লট	-10.2053
svn	-10.2054
▁অনুৰূপ	-10.2055
▁vir	-10.2055
▁আগবঢ়াওক	-10.2057
▁OS	-10.2058
▁SIP	-10.2058
▁DNS	-10.2058
▁MiB	-10.2059
▁গোটেই	-10.2059
▁fd	-10.206
▁pa	-10.2062
▁ক্যাশে	-10.2062
▁আঁকা	-10.2063
ভুক্ত	-10.2063
▁সম্পত্তিৰ	-10.2065
ণী	-10.2065
▁খুলিব	-10.2078
▁গড়	-10.208
%.0	-10.2081
▁যায়নি	-10.2081
▁প্ৰেৰকেৰ	-10.2083
amitakhya	-10.2083
bo	-10.2089
▁বিমান	-10.209
▁নথি	-10.2093
▁user	-10.2093
▁মুখ	-10.2098
new	-10.2098
▁হাৰ্ড	-10.2113
▁২৪	-10.2115
BC	-10.2122
হয়েছে	-10.2127
▁শা	-10.2128
▁বন্টন	-10.2131
জাতীয়	-10.2132
man	-10.2133
date	-10.2143
বস্তু	-10.215
▁it	-10.2151
▁লিখিত	-10.2153
▁সন্	-10.2163
▁27	-10.2166
▁যিয়ে	-10.2171
্বা	-10.2184
▁লিখি	-10.2189
▁প্ৰদৰ্শনক্ষেত্ৰ	-10.2193
▁সৰল	-10.2195
▁সকলৰ	-10.2205
▁disk	-10.2208
ষণ	-10.2227
▁মেইলবক্স	-10.2239
▁জেন	-10.2242
▁Ch	-10.2254
▁info	-10.2258
37	-10.2262
ang	-10.2262
ড়ি	-10.2268
▁ছাত্ৰ	-10.2269
▁চম	-10.2271
av	-10.2272
▁মডিউল	-10.2272
▁option	-10.2279
ুপ	-10.2283
শীল	-10.2293
ki	-10.23
▁আজ	-10.2305
ر	-10.2316
abbreviated	-10.2316
▁Policy	-10.2316
▁গোছলখানা	-10.2316
▁ঘূৰ্ণন	-10.2316
▁ডিচেম্বৰ	-10.2316
▁ধন্যবাদ	-10.2316
▁পুনাৰম্ভ	-10.2316
▁ফৰওয়াৰ্ড	-10.2316
▁বঁটা	-10.2316
▁সিদ্ধান্ত	-10.2316
▁হ্যান্ডব্যাগ	-10.2316
▁‍অজ্ঞাত	-10.2316
▁এজেন্ট	-10.2316
▁এনালগ	-10.2316
Super	-10.2316
▁বাওঁফালৰ	-10.2316
▁কৰ্মেৰ	-10.2317
▁vcpu	-10.2317
▁শ্বেল	-10.2318
▁থোৱা	-10.2321
▁NTM	-10.2322
▁up	-10.2325
▁স্থায়ীভাৱে	-10.2327
▁Far	-10.2329
বৃত্ত	-10.2335
▁ফলক	-10.2337
▁style	-10.2339
▁প্ৰগ্ৰামটো	-10.2344
▁পিছলৈ	-10.2345
[[	-10.2348
▁অপ্ৰকাশিত	-10.235
ert	-10.2355
▁MB	-10.2357
host	-10.2358
কাম	-10.2361
▁টু	-10.2365
জনৰ	-10.2377
▁দিবলৈ	-10.238
▁স্বাক্ষৰিত	-10.2383
mg	-10.2385
▁No	-10.2387
▁প্ৰস্তুতি	-10.2387
▁বাৰ্	-10.2388
▁দৃষ্টি	-10.2391
িশ্ব	-10.2392
Search	-10.2393
ংক	-10.2393
default	-10.2395
▁৩০	-10.2396
স্টাৰ	-10.2397
ব্যৱস্থা	-10.2398
সপ্তাহ	-10.2398
১৯	-10.2398
নতুন	-10.2399
▁১৫	-10.2399
82)	-10.2406
াট	-10.241
second	-10.2415
ন্য	-10.2424
এটা	-10.2448
▁sp	-10.2451
োপ	-10.2457
দৰ্শ	-10.2458
▁App	-10.2458
▁তুলিব	-10.2461
ga	-10.2465
▁lock	-10.2478
▁কেপ	-10.2496
▁text	-10.2498
লিকা	-10.2505
▁স্খলিত	-10.2516
▁ফুট	-10.2517
▁সাৰ্ভাৰ	-10.2526
▁লো	-10.2527
িপ	-10.2528
▁(364	-10.253
▁ফ্ল	-10.2534
▁PA	-10.2536
ক্ট	-10.2539
ুট	-10.2541
▁80	-10.2543
.8	-10.2554
IP	-10.2569
▁স্কেইল	-10.2582
▁সাৰ্বজনীন	-10.2586
content	-10.2586
▁appointment	-10.2586
▁অতিস্বনক	-10.2586
▁অত্যন্ত	-10.2586
▁আঙ্গুলি	-10.2586
▁তৎক্ষনাত	-10.2586
▁থাকবে	-10.2586
▁দ্বীপ	-10.2586
▁নালাগে	-10.2586
▁ভৌগলিক	-10.2586
▁যিহেতু	-10.2586
▁সম্ভাবনা	-10.2586
evolution	-10.2586
▁ICQ	-10.2586
▁লোমষ	-10.2586
▁মেয়াদ	-10.2586
toolbar	-10.2586
▁আদায়	-10.2586
▁পৰ্যন্ত	-10.2587
▁বুজাবলৈ	-10.2587
▁অভিযান	-10.2587
▁বজাওক	-10.2587
auto	-10.2587
▁অভিযোগ	-10.2587
▁সম্ভাৱনা	-10.2587
▁স্কুল	-10.2588
▁অৱধি	-10.2588
▁স্থিৰ	-10.2588
▁Live	-10.2589
লিট	-10.2591
▁days	-10.2591
▁অদল	-10.2594
স্থল	-10.2595
▁অকচ	-10.2596
the	-10.2599
ভাষ	-10.26
path	-10.2601
▁অস্বচ্ছতা	-10.2605
ti	-10.2607
্থ	-10.2611
গুয়া	-10.2614
$1	-10.2626
▁শুদ্ধ	-10.2627
য়োগ	-10.263
▁সতৰ্ক	-10.2631
▁খোজে	-10.2634
▁করার	-10.2635
▁সেইবোৰ	-10.2647
Mac	-10.265
লিন	-10.2651
(3	-10.2652
▁হোম	-10.2654
▁বজাৰ	-10.2659
দ্ধ	-10.2663
▁(101	-10.2666
▁অভিব্যক্ত	-10.2671
color	-10.2672
▁long	-10.2674
বিজ্ঞান	-10.2676
read	-10.2686
সকলো	-10.269
খান	-10.2691
▁ৱেবচাইট	-10.2696
TV	-10.27
ফাৰ	-10.2703
▁ঢ	-10.2706
na	-10.2709
▁লৈকে	-10.2717
▁উদ্যোগ	-10.2724
বছৰ	-10.2731
ফু	-10.2741
▁500	-10.2747
টেড	-10.275
ভে	-10.2766
▁ছেল	-10.2766
▁read	-10.2775
▁পাছ	-10.2776
ne	-10.2786
▁date	-10.2787
▁উইজেটৰ	-10.2806
▁22	-10.2812
্প	-10.2829
delete	-10.2838
▁নিউজ	-10.2854
▁True	-10.2854
83	-10.2861
lobal	-10.2864
ನ	-10.2864
▁GConf	-10.2864
▁Nautilus	-10.2864
▁STUN	-10.2864
▁Service	-10.2864
▁Skype	-10.2864
▁libxenlight	-10.2864
▁অর্ডাৰ	-10.2864
▁ইভেন্ট	-10.2864
▁এলগৰিথম	-10.2864
▁গাণিতিক	-10.2864
▁জানুৱাৰী	-10.2864
▁নিৰ্ঘন্ট	-10.2864
▁পুনৰাৰম্ভ	-10.2864
▁সঞ্চালক	-10.2864
▁সোনকালে	-10.2864
▁স্খলন	-10.2864
▁সীমিত	-10.2864
▁খচৰা	-10.2864
▁ছলেহ	-10.2864
▁সৰানো	-10.2864
▁Term	-10.2864
ROM	-10.2865
▁গোলাম	-10.2865
▁পাঠানো	-10.2865
▁সৰ্বদা	-10.2865
▁ইণ্ডিয়া	-10.2866
▁Kho	-10.2866
▁ধাপ	-10.2866
▁videos	-10.2866
▁মটৰ	-10.2866
▁আঁতৰ	-10.2867
other	-10.2868
▁অস্বাক্ষৰ	-10.2868
▁আপগুলি	-10.2868
▁ডিমন	-10.2869
▁ব্ৰাউছ	-10.2872
ag	-10.2881
▁বিচাৰিব	-10.2882
দণ্ড	-10.2883
▁ব্যক্তিয়ে	-10.2896
▁দেওয়া	-10.2896
▁সাধন	-10.2898
▁মন্ত্ৰী	-10.29
▁keyring	-10.29
▁ডাইলগত	-10.2901
▁দ্বা	-10.2901
▁ৰামানুজনৰ	-10.2906
েন্ড	-10.2908
▁বৈকল্পিক	-10.2916
▁অধিসূচনাসমূহ	-10.2942
▁প্ৰয়োজনীয়তা	-10.2944
▁চুইচ	-10.2944
500	-10.2945
▁হওয়া	-10.295
language	-10.2957
▁ৱে	-10.2958
{	-10.2959
এম	-10.2959
ইতিহাস	-10.2961
অসম	-10.2963
label	-10.2963
ase	-10.2967
▁গেল	-10.298
Un	-10.3007
69)	-10.3008
লাম	-10.3027
▁button	-10.3031
াঁ	-10.3035
▁সো	-10.3041
ant	-10.3055
▁চলাই	-10.3056
ওঁ	-10.3057
▁default	-10.3064
বৰ্	-10.3071
▁সূচক	-10.3074
িশ	-10.3077
▁দিল্লী	-10.308
▁যোগ্য	-10.3084
▁আখৰসমূহ	-10.3088
▁যাক	-10.309
82	-10.3094
.4	-10.31
▁পাত	-10.3105
▁প্ৰোগ্ৰামৰ	-10.3112
্য়	-10.3112
▁উল	-10.3115
▁state	-10.3117
▁দেখাব	-10.3122
▁নিবন্ধ	-10.3126
বাৰ্গ	-10.3131
box	-10.3137
▁কেতিয়া	-10.314
▁সংশোধন	-10.3143
▁সাক্ষাৎ	-10.3148
▁চলোৱাৰ	-10.3149
▁নবী	-10.315
password	-10.315
▁SCSI	-10.315
▁এপ্লিকেশন	-10.315
▁ওৱাৰেন্টি	-10.315
▁ক্ষতিগ্ৰস্ত	-10.315
▁পাৰ্থক্য	-10.315
▁পাৰ্শ্ববৰ্তী	-10.315
▁ভৰ্ত্তি	-10.315
▁সন্নিবেশ	-10.315
▁অখণ্ডতা	-10.315
▁ডিষ্ক	-10.315
▁বিক্ৰেতা	-10.315
▁মুদ্ৰক	-10.315
▁আপলোড	-10.315
▁কল্পনা	-10.315
▁মেশিন	-10.315
▁CSV	-10.315
▁মাৰাত্মক	-10.315
▁শাখা	-10.315
▁জাননী	-10.3151
▁গুৰুতৰ	-10.3151
▁সোঁফালৰ	-10.3153
▁Post	-10.3154
▁চালু	-10.3157
▁পথালি	-10.3158
(46	-10.3162
▁ডাক	-10.3162
▁স্থানীয়ৰূপে	-10.3163
▁সাপেক্ষে	-10.3164
▁সিহতক	-10.3168
▁হজ্জ	-10.3172
▁স্তৰৰ	-10.3173
▁You	-10.3175
▁লঞ্চ	-10.3178
▁বর্তমানে	-10.3178
▁বিশ্ববিদ্যালয়ৰ	-10.3178
▁দুটি	-10.318
▁পশ্চিম	-10.3188
US	-10.3197
▁আতৰাবলে	-10.3215
▁libvirt	-10.3219
▁সাৰ্টিফিকেটেৰ	-10.3226
▁১৪	-10.3228
▁ৰেড	-10.3231
▁system	-10.3237
সম্পূৰ্ণ	-10.3242
▁ki	-10.3252
▁id	-10.3253
িকো	-10.3257
block	-10.3258
ীম	-10.3262
পণ	-10.3268
41)	-10.327
▁menu	-10.3271
ভাৰত	-10.3275
▁ৱ	-10.3276
▁জুন	-10.3277
েয়াৰ	-10.3318
▁দস্তাবেজৰ	-10.332
own	-10.3356
off	-10.3367
কাৰ্য্য	-10.3379
ute	-10.338
খি	-10.3382
ড্	-10.3384
har	-10.3413
▁বিস্তাৰৰ	-10.342
লৱে	-10.3425
জী	-10.343
▁no	-10.3442
▁প্ৰশাসক	-10.3442
▁প্ৰগতি	-10.3444
min	-10.3444
config	-10.3444
PermissionsLevel	-10.3444
Security	-10.3444
desktop	-10.3444
▁Catalog	-10.3444
▁Python	-10.3444
▁meeting	-10.3444
▁অ্যানিমেশন	-10.3444
▁ধ্বংস	-10.3444
▁নীড়পাতা	-10.3444
▁শ্ৰেণীবিভাগ	-10.3444
▁সাহিত্য	-10.3444
▁স্তূপ	-10.3444
▁স্থাপত্য	-10.3444
▁ফ্ৰেইম	-10.3444
▁সার্চ	-10.3444
▁ইংগিত	-10.3444
▁স্বয়ং	-10.3444
▁প্ৰৰকেৰ	-10.3444
▁RSS	-10.3444
▁সূকীয়া	-10.3444
▁এক্সটেনশন	-10.3444
▁বৃহৎ	-10.3444
▁Spelling	-10.3444
▁দুৰ্বল	-10.3445
▁জুলাই	-10.3445
▁নীলা	-10.3445
▁পূৰ্ণপৰ্দা	-10.3445
▁প্লেলিস্ট	-10.3445
▁পেলেট	-10.3445
▁অসুস্থতা	-10.3447
▁হস্টনাম	-10.3451
▁এইচবি	-10.3454
▁Mi	-10.3456
▁বাছ	-10.3459
▁প্লাগিনসমূহ	-10.346
উল	-10.346
▁কাৰ্য্যক্ষেত্ৰ	-10.3462
▁শিৰোণামা	-10.3464
▁ত্ৰুটিপূৰ্ণ	-10.3465
52)	-10.3467
বন্ধ	-10.3468
\@	-10.3468
ন্স	-10.347
▁জানক	-10.3474
▁টিপা	-10.3477
নেল	-10.3478
াশ	-10.3481
ঢ়	-10.3485
▁সামগ্ৰীৰ	-10.3486
▁বৰ্ত্তমানৰ	-10.3495
▁ষ্টে	-10.3495
▁সক্ৰিয়কৰণ	-10.3497
▁বিলাক	-10.3497
▁08	-10.3502
▁section	-10.3511
ন়	-10.3523
eek	-10.3525
are	-10.3527
▁লিখিবলে	-10.3528
In	-10.353
▁Description	-10.3534
টু	-10.3541
▁ধৰনেৰ	-10.3549
ite	-10.3555
ü	-10.3567
(20	-10.3574
▁সভায়	-10.3576
▁বাজ	-10.3583
প্র	-10.3596
টাউন	-10.3599
▁বাহন	-10.3607
▁বৰ্	-10.3613
াধিকাৰ	-10.3618
(14	-10.3619
কৰন	-10.3632
op	-10.3643
▁কেমেৰাৰ	-10.3644
▁নাথ	-10.3645
%%)	-10.3668
্চ	-10.3685
মী	-10.3701
ক্ৰি	-10.3711
▁দেওয়াৰ	-10.3714
ho	-10.3716
(47	-10.3717
ানা	-10.3721
sub	-10.3725
▁পৰিৱেশ	-10.3726
ain	-10.3729
েন্দ্ৰ	-10.3729
▁সংগ্ৰহস্থল	-10.373
▁ব্যক্ত	-10.3737
াৰ্ড	-10.3741
ity	-10.3742
▁বিপদাশংকা	-10.3746
▁মাল্টি	-10.3747
ن	-10.3747
▁সাফল্য	-10.3747
ইউনাইটেড	-10.3747
র্ডেনীয়ার্চ	-10.3747
▁BOLLYWOOD	-10.3747
▁Bonobo	-10.3747
▁will	-10.3747
▁অভাৰৰাইড	-10.3747
▁আনমাউন্ট	-10.3747
▁গাঁথনি	-10.3747
▁টেক্কা	-10.3747
▁ধাৰাবাহিক	-10.3747
▁পরিচিতি	-10.3747
▁প্ৰোফাইল	-10.3747
▁বিত্তীয়	-10.3747
▁লিখোতে	-10.3747
▁সৌন্দৰ্য	-10.3747
▁স্থিতিমাপ	-10.3747
▁অফিসে	-10.3747
▁অৱসান	-10.3747
▁অভ্যন্তৰীণ	-10.3747
▁এলবাম	-10.3747
▁দৃঢ়	-10.3747
▁গাইড	-10.3747
▁পেলাওতে	-10.3747
IBM	-10.3747
▁সূচনাবাৰ্তা	-10.3747
▁টেবলেট	-10.3749
▁বিট	-10.375
▁সুযোগ	-10.375
▁চাৰিটা	-10.3751
▁Pro	-10.3753
ৌদি	-10.3753
▁কাৰ্য্যসূচী	-10.3757
▁অপ্ৰত্যাশিতভাবে	-10.3761
▁ব্যক্তিত্ব	-10.3762
▁নিজেই	-10.3764
▁প্ৰকৃতিৰ	-10.3767
List	-10.3775
▁মাহৰ	-10.3784
▁প্ৰাসংগিক	-10.3786
▁শিক্ষক	-10.3786
▁21	-10.3787
দেৰ	-10.3787
▁48	-10.3788
ছিয়া	-10.379
▁পঠ	-10.3797
▁দিশা	-10.3802
▁চাবলে	-10.3803
▁can	-10.3804
▁35	-10.381
▁MD	-10.3812
ell	-10.3814
▁32	-10.382
▁প্ৰদৰ্শনযোগ্য	-10.3829
table	-10.3832
▁ক্লিপবোৰ্ডে	-10.3841
▁সাধাৰণত	-10.3844
run	-10.3849
▁স্ম	-10.3859
▁মেম	-10.3861
pages	-10.3865
ুয়া	-10.3867
device	-10.3869
▁মানৱ	-10.3869
কুই	-10.3869
ইউ	-10.3871
lock	-10.3872
▁ফলা	-10.3882
প্ত	-10.3883
▁ৰিচ	-10.3887
নাই	-10.3906
▁mode	-10.3909
2000	-10.3911
২০	-10.3914
ল্লা	-10.3918
জ্ঞা	-10.3925
▁হু	-10.3927
▁গণিতৰ	-10.3941
▁টাৰ্মিনেলত	-10.3952
68)	-10.3954
iv	-10.3966
▁নহলে	-10.397
▁সিং	-10.3984
▁জীৱনৰ	-10.3999
বিদ	-10.3999
▁পাছৱাৰ্ডসমূহ	-10.401
ক্র	-10.401
ষ্টি	-10.4012
▁কাৰ্য্যালয়	-10.4014
ভেদ	-10.402
▁সম্বাদৰ	-10.4022
top	-10.4033
্টি	-10.4034
ES	-10.4036
▁খেলোয়াড়	-10.404
▁জানিব	-10.4041
▁খু	-10.4044
▁উদ	-10.4047
াছ	-10.4048
নান	-10.4058
▁দুয়ো	-10.4058
р	-10.4059
create	-10.4059
aDateFmt	-10.406
উদ্ভট	-10.406
ক্সিলেৰি	-10.406
▁NNTP	-10.406
▁অনুষ্ঠিত	-10.406
▁অবশিষ্ট	-10.406
▁আংশিক	-10.406
▁ক্লায়েন্ট	-10.406
▁দ্রঢ়িমা	-10.406
▁ধূসৰ	-10.406
▁নির্বাচিত	-10.406
▁সংগীত	-10.406
▁সোণকালে	-10.406
▁hostdev	-10.406
▁প্ৰসেস	-10.406
▁ফোকাস	-10.406
▁বিক্রী	-10.406
▁পঠিয়াব	-10.406
▁NetworkManager	-10.406
▁ইউনিক	-10.406
▁স্ৰোত	-10.406
▁ফিকহ	-10.406
▁তেওঁলোকে	-10.406
cript	-10.406
▁প্ৰতিধ্বনি	-10.406
▁ব্ৰডবেণ্ড	-10.406
▁অংক	-10.406
▁সেয়েহে	-10.406
▁বিৰাম	-10.406
▁ৰেডিঅ	-10.406
▁বিশেষজ্ঞ	-10.4061
▁অনেক	-10.4061
▁AIM	-10.4064
▁2016	-10.4064
▁তোলা	-10.4065
▁নং	-10.4077
▁মধ্যম	-10.4078
▁'$1	-10.409
▁link	-10.4091
▁সাময়িক	-10.4093
▁অগ্নিকাণ্ড	-10.41
▁শূন্য	-10.41
▁use	-10.4102
▁টানি	-10.411
▁do	-10.4117
▁চিন্তা	-10.4118
▁১৬	-10.4119
▁ভৱিষ্যত	-10.4121
br	-10.4121
▁বিচ	-10.4123
▁চাকৰি	-10.4126
▁ব্যৱহাৰকাৰীক	-10.4131
▁ক্ল	-10.4135
▁UTF	-10.4137
none	-10.4139
▁অভিগম্যতা	-10.4143
▁pid	-10.4148
100	-10.4152
ডেল	-10.4161
▁ইতিমধ্যেই	-10.4176
▁অভিধান	-10.4187
শেষ	-10.4188
সাবস্ক্ৰাইব	-10.4188
▁উপাদানত	-10.4189
button	-10.4191
সন্ধান	-10.4192
পৰীক্ষণ	-10.4192
true	-10.4194
▁টাৰ্মিনেলৰ	-10.4194
্ট	-10.4196
ভিডিঅ	-10.4197
part	-10.4197
▁আস	-10.4198
▁প্ৰথমে	-10.4202
▁আজিৰ	-10.4204
▁মেমোটো	-10.4212
pro	-10.422
চো	-10.4224
▁এককসমূহ	-10.4224
ৰ্ভ	-10.4224
▁মৃত্যুৰ	-10.423
▁ৰু	-10.4233
▁rc	-10.4235
্ৰু	-10.424
(1)	-10.4244
▁বিধান	-10.4249
লচ	-10.4254
াৰী	-10.4258
কোণ	-10.4261
পাত	-10.4262
ium	-10.4264
০০০	-10.4281
▁পঞ্জিকাত	-10.4289
▁উইন্ডোসমূহ	-10.4289
উপ	-10.4291
ল্ট	-10.4304
size	-10.4305
▁অধীন	-10.4306
ক্ক	-10.4308
▁60	-10.4312
মেল	-10.4313
ভাগ	-10.4329
70)	-10.4332
▁dictionary	-10.4336
িটি	-10.4339
ভিড	-10.4349
ডেন	-10.4358
▁ইয়া	-10.4359
ৰ্দ	-10.4362
উন	-10.4377
▁CJK	-10.4382
▁অনুভৱ	-10.4382
▁অপাৰেটিং	-10.4382
▁কতৃপক্ষ	-10.4382
▁কথোপকথন	-10.4382
▁নিম্নোক্ত	-10.4382
▁পঠিয়াওক	-10.4382
▁বাঞ্ছনীয়	-10.4382
▁শইকীয়া	-10.4382
▁ডিজাইন	-10.4382
click	-10.4382
process	-10.4382
সৈকত	-10.4382
▁Eye	-10.4382
▁প্ৰধানমন্ত্ৰী	-10.4382
▁সংহিত	-10.4382
▁সঞ্চয়	-10.4382
▁spice	-10.4383
▁মাৰ্কিন	-10.4383
sort	-10.4383
▁প্যাড	-10.4384
▁স্পষ্ট	-10.4384
▁lib	-10.4384
▁পুৰণি	-10.4385
▁বাছাই	-10.4385
▁ধাৰণকাৰী	-10.4385
▁Sep	-10.4386
▁সফলভাৱে	-10.4386
▁অৱতাৰ	-10.4387
▁ফেলে	-10.4387
▁SSH	-10.4387
▁ক্লাচ	-10.4388
▁ব্যৱসায়িক	-10.4389
▁সংযোগমাধ্যমৰ	-10.439
▁১৩	-10.4392
9660	-10.4394
▁বেংক	-10.4396
▁নেওয়া	-10.4402
ধু	-10.4405
বোৰ্ড	-10.4406
ালা	-10.4406
yar	-10.4408
▁সৰঞ্জামৰ	-10.4409
▁সঠিকভাৱে	-10.4409
▁সন্দৰ্ভত	-10.4417
▁প্ৰকাশক	-10.4418
▁তেজ	-10.442
▁২৫	-10.4426
eb	-10.4428
গ্ৰাম	-10.4432
▁গন্তব্যৰ	-10.4438
web	-10.444
িল্	-10.4446
▁Assam	-10.4449
▁উইজেটেৰ	-10.4451
▁ডাইৰেকটৰিত	-10.446
লস	-10.4461
▁অভিনেতা	-10.4464
▁নম্বৰৰ	-10.4464
▁ইনবক্স	-10.4472
▁লিখ	-10.4473
▁পেলাবলে	-10.4479
▁একাউন্টেৰ	-10.449
▁দাও	-10.4506
ana	-10.4507
▁0,	-10.4509
Type	-10.451
▁ব্যৱহাৰকৰোঁতাৰ	-10.4515
▁ভিতৰৰ	-10.4518
ঝ	-10.4524
version	-10.4524
▁ফালৰ	-10.4525
ৰ্য্য	-10.4526
সংৰক্ষণ	-10.4527
বিধান	-10.4533
▁সম্পদসমূহ	-10.4533
▁[%	-10.4539
▁লুকাওক	-10.4539
▁দেহ	-10.4541
▁open	-10.4545
স্থা	-10.4545
▁পিছৰ	-10.4546
সম্পাদনা	-10.4549
▁কাষৰ	-10.4552
ফো	-10.4557
▁56	-10.4566
উক্ত	-10.457
ty	-10.4575
▁সহায়তা	-10.4579
ানো	-10.4582
বিধ	-10.4598
ost	-10.46
ian	-10.4601
▁90	-10.4603
পী	-10.4612
▁AT	-10.4615
কৰ্ম	-10.4633
ছোঁ	-10.4638
ঞ্জা	-10.4639
rr	-10.464
II	-10.4642
▁টিপি	-10.4649
rc	-10.4652
hi	-10.4664
ওঁক	-10.467
ব্দ	-10.467
▁ব্যৱস্থাপকৰ	-10.4672
দৰ্শন	-10.4677
▁ফো	-10.4681
▁AS	-10.4683
▁উদ্ধৃত	-10.4686
▁11:	-10.4689
▁প্ৰতিনিধিৰ	-10.4693
▁11,	-10.4695
িয়ন	-10.47
ল্ক	-10.47
শ্চ	-10.4703
Password	-10.4715
▁Aisleriot	-10.4715
▁like	-10.4715
▁ইন্সটল	-10.4715
▁এনিমেশন	-10.4715
▁কয়েকটি	-10.4715
▁থাকোতে	-10.4715
▁পঢ়োঁতে	-10.4715
▁পুষ্পহীনতা	-10.4715
▁বাধ্যতামূলক	-10.4715
▁বিভাজক	-10.4715
▁লিমিটেড	-10.4715
▁সংশ্লিষ্ট	-10.4715
▁সাংকেতিক	-10.4715
-8859-1	-10.4715
অঙ্গুলিসঁচালন	-10.4715
▁অস্ট্ৰেলিয়া	-10.4715
▁মুকলি	-10.4715
▁TSP	-10.4716
▁ইমেজ	-10.4716
▁অন্তৰাল	-10.4716
▁সম্প্ৰতি	-10.4716
▁কলঘৰ	-10.4716
▁আদব	-10.4716
▁that	-10.4716
▁prc	-10.4717
idhi	-10.4717
▁পূৰ্বৰূপ	-10.4718
▁প্ৰবেশ	-10.4719
login	-10.4719
▁আঁতৰাই	-10.472
▁নিয়োগ	-10.472
▁বহিস্থিত	-10.472
▁কলবেক	-10.4722
▁লাখ	-10.4724
▁ধীৰ	-10.4724
▁স্পিন	-10.4725
ng	-10.4728
▁মেথ	-10.4728
▁পানী	-10.4729
▁বিলোপন	-10.4731
▁বাটনটি	-10.4732
▁'{{	-10.4736
▁\\	-10.4736
▁license	-10.4738
▁পাসওয়াৰ্ড	-10.4738
▁অঙ্ক	-10.474
ika	-10.475
▁প্ৰক্ৰিয়াকৰণ	-10.4752
▁My	-10.4752
▁None	-10.4755
▁Enter	-10.4758
options	-10.4763
ধাৰী	-10.4764
▁অবিকল্পিতভাৱে	-10.4766
▁31	-10.4775
▁ছাপ	-10.478
▁5.	-10.4805
▁সেটি	-10.4823
▁কম্পোসাৰ	-10.4827
টোসমূহক	-10.483
▁একেই	-10.4831
▁বৈধতা	-10.4835
সবা	-10.484
▁সংকলনৰ	-10.4846
বুল	-10.4847
ুম্	-10.485
সম্পন্ন	-10.4854
▁36	-10.4858
▁মাছ	-10.4865
server	-10.4872
(11	-10.4877
▁ডমেইনসমূহ	-10.4879
▁পত্ৰচিহ্নসমূহ	-10.4882
2.0	-10.4884
টেল	-10.4886
Windows	-10.4892
▁প্ৰতিলিপিত	-10.4896
বিন্যাস	-10.4898
িয়াল	-10.49
ংশ	-10.49
মূ	-10.4904
▁পৰিব	-10.4905
েৰেল	-10.491
ni	-10.4911
াদ	-10.4918
SH	-10.4919
data	-10.4919
▁bus	-10.492
ল্প	-10.4925
74	-10.4926
েষণ	-10.4931
্ল	-10.4942
বোৰক	-10.4943
▁এছ	-10.4945
by	-10.4949
▁ক্লিপবোৰ্ড	-10.4954
াঁচ	-10.4958
▁ৰাজ	-10.4965
IN	-10.4973
▁কোৰ	-10.4979
▁অভাৱ	-10.4982
্যাট	-10.4983
▁ঘন্টাৰ	-10.4987
▁$2	-10.4991
▁শীৰ্ষ	-10.5006
ara	-10.5011
িজ	-10.5017
▁ধাৰণা	-10.5023
মাই	-10.5024
▁নহল	-10.5031
ধাৰা	-10.5035
2:34	-10.5037
▁ফলকৰ	-10.5041
▁MIME	-10.5052
▁প্রক্সি	-10.5054
ৰ্জন	-10.5056
▁tar	-10.5059
▁Open	-10.506
French	-10.506
level	-10.506
universal	-10.506
▁অধ্যায়	-10.506
▁আক্ৰান্ত	-10.506
▁উত্তীৰ্ণ	-10.506
▁উদ্ভিদ	-10.506
▁প্ৰত্যাহাৰ	-10.506
▁প্ৰোথিত	-10.506
▁বলপূৰ্বক	-10.506
▁মেইলবাকচ	-10.506
▁যথেষ্ট	-10.506
▁শাস্তি	-10.506
▁সমন্বয়	-10.506
▁সহযোগী	-10.506
▁সামাজিক	-10.506
▁স্ট্যাটাস	-10.506
ç	-10.506
ē	-10.506
▁নমুনা	-10.506
▁ব্যাপক	-10.506
▁সজাওক	-10.506
▁ফেলতে	-10.506
▁গনোম	-10.506
▁কেইটামান	-10.506
▁মানাংকন	-10.506
▁GiB	-10.506
▁have	-10.506
▁বুলিয়ান	-10.506
▁hint	-10.506
▁INR	-10.506
াঙ্ক	-10.5061
▁SHA	-10.5061
▁maildir	-10.5061
▁Facebook	-10.5061
▁৯০	-10.5062
▁Kati	-10.5062
▁পৰিদৰ্শন	-10.5062
left	-10.5063
▁বিবিধ	-10.5065
domain	-10.5065
▁পেডিং	-10.5065
ক্ৰমে	-10.5065
ৱন	-10.5065
কিঅ	-10.5069
▁May	-10.507
চী	-10.5071
▁আউটবক্স	-10.5075
▁operation	-10.5084
িষ্ট	-10.5086
displayName	-10.5089
▁ঊ	-10.5098
▁গতিকে	-10.5101
▁টুলবাৰৰ	-10.5102
▁ইন্ডেক্স	-10.5105
▁ডেস্কটপত	-10.5106
▁ডাইলগৰ	-10.5107
ুত	-10.5108
▁'/'	-10.511
▁২০১৪	-10.5112
der	-10.5114
▁সোম	-10.5125
ring	-10.5129
ভু	-10.513
▁পৰিস্ৰাৱক	-10.5139
ছাত্ৰী	-10.5146
▁Feb	-10.5147
45)	-10.5149
▁ফোল্ডাৰসমূহৰ	-10.5153
ংশগ্ৰহণকাৰীবৃন্দ	-10.5155
▁জ্ঞানৰ	-10.5168
560	-10.5172
ive	-10.5178
যান	-10.5179
ইপ	-10.52
্ৰো	-10.5201
াগত	-10.5205
▁স্ট	-10.5208
ran	-10.5209
ষ্টা	-10.5212
এস	-10.5213
num	-10.5217
db	-10.5224
ব্যৱহাৰ	-10.5225
gnome	-10.5226
query	-10.5228
লিখনী	-10.5228
▁কলসমূহ	-10.5228
▁গুৱাহাটীৰ	-10.5229
উচ	-10.5229
ার্ড	-10.5242
অফ	-10.5248
imm	-10.5251
▁St	-10.5257
▁যোৱাৰ	-10.5259
▁version	-10.5262
চভিল	-10.5267
▁কৰ্মক্ষেত্ৰৰ	-10.5281
▁Vi	-10.5286
▁অক্ষত	-10.5288
▁stat	-10.53
▁মূ	-10.5302
ja	-10.531
▁স্থল	-10.5315
▁400	-10.5327
Pre	-10.5327
83)	-10.5328
▁বৃদ্ধ	-10.5335
To	-10.5342
মিক	-10.5347
43)	-10.5352
▁ধৰ	-10.5356
▁পৃষ্ঠ	-10.5367
▁আইকনসমূহ	-10.5369
াৰ্চ	-10.537
▁প্লা	-10.537
ানু	-10.5377
▁জাল	-10.5392
▁বহিয়ে	-10.5398
RW	-10.5401
▁শিল্প	-10.5405
ভৰি	-10.5407
ৰ্ণ	-10.5408
▁ট্যাগ	-10.5409
▁Co	-10.5413
bit	-10.5414
▁উপদেশ	-10.5414
▁আত্ম	-10.5415
▁গুৰু	-10.5416
▁Bubble	-10.5417
▁Ubuntu	-10.5417
▁অধ্যাপক	-10.5417
▁আনুমানিক	-10.5417
▁ইঞ্চুৰেঞ্চ	-10.5417
▁উপসৰ্গ	-10.5417
▁এক্সপাঞ্জ	-10.5417
▁তাগাদা	-10.5417
▁পুনৰাম্ভ	-10.5417
▁পুৰোনো	-10.5417
▁ভট্ভটি	-10.5417
▁ছাইল্ড	-10.5417
▁প্ৰত্যাশা	-10.5417
▁পঞ্জীয়ন	-10.5417
value	-10.5417
न	-10.5417
▁আয়োজন	-10.5417
▁কলসীয়	-10.5417
▁নাথাকে	-10.5417
▁District	-10.5417
▁Elm	-10.5417
▁পঢ়ক	-10.5417
▁সাহেব	-10.5417
▁তুমি	-10.5418
▁সুন্দৰ	-10.5418
▁ব্যৱস্থাপিত	-10.5418
▁Evince	-10.5418
▁দ্বারা	-10.5418
▁ধনাত্মক	-10.5418
▁অনুবৰ্তন	-10.5418
▁অংশগ্ৰহণ	-10.5418
▁পৰ্যবেক্ষণ	-10.5419
▁শস্য	-10.5419
▁পৰিক্ষা	-10.5419
aj	-10.5421
▁VMX	-10.5421
▁Page	-10.5421
▁ড্ৰপ	-10.5421
▁দিছিল	-10.5424
▁পৰিচয়সমূহৰ	-10.5427
কীয়া	-10.5427
:%02	-10.5428
▁নহোৱা	-10.5429
▁অনুচ্ছেদ	-10.543
▁che	-10.5434
▁ভাইৰাছ	-10.5435
কেইটা	-10.5436
▁Mor	-10.5436
▁Could	-10.5442
▁সক্রিয়	-10.5442
▁বৈজ্ঞানিক	-10.5442
▁অপ্ৰত্যাশিতভাৱে	-10.5443
▁চাবলৈ	-10.5445
▁asp	-10.5445
▁#%	-10.545
▁plain	-10.5456
▁return	-10.5456
▁বিৱৰিত	-10.5456
আতৰ	-10.5458
▁লিখিবলৈ	-10.5461
▁ওপৰলৈ	-10.5461
লিং	-10.5462
▁কৃষি	-10.5463
mode	-10.5465
▁দেখাওক	-10.5465
ৰোনা	-10.5469
▁ডিভাইচসমূহৰ	-10.5475
▁এটাচমেন্টসমূহ	-10.5479
▁আগলৈ	-10.5482
▁word	-10.5485
মুখী	-10.549
ংকা	-10.5494
▁বহিয়ের	-10.5498
▁খুব	-10.5504
জনে	-10.5507
▁ৰাইট	-10.5508
▁পেইনেৰ	-10.5513
▁ৰেচম	-10.5513
ঁজ	-10.5514
িনা	-10.5517
ৰ্ধ	-10.5518
▁গৈ	-10.5519
োম	-10.5525
লেট	-10.5526
▁থা	-10.5531
▁মিটাৰ	-10.5532
▁পাও	-10.554
▁হলেও	-10.5546
▁কাৰ্ছাৰৰ	-10.5558
ঙ্গা	-10.5561
▁অধিবেশনৰ	-10.5567
▁সহজে	-10.5569
▁Linux	-10.557
▁বৃদ্ধিত	-10.5574
ওয়া	-10.5574
▁(0	-10.5584
স্থাপন	-10.5591
▁কৰিছেন	-10.5592
▁বৃ	-10.5593
wiki	-10.5594
address	-10.5595
োয়া	-10.5597
উত্তৰ	-10.5599
▁টকাৰ	-10.5603
▁NT	-10.5605
▁gnome	-10.5613
▁minute	-10.5618
ত্বৰ	-10.5631
▁চাৰ্	-10.5631
OU	-10.564
▁device	-10.5642
্ধাৰ	-10.5652
:\	-10.5655
49)	-10.5663
tain	-10.5672
▁ব্যক্তিক	-10.5672
(458	-10.5677
▁Search	-10.568
নাহ	-10.5683
ome	-10.569
tri	-10.5697
ভো	-10.5713
pfu	-10.5733
ীকৰণ	-10.5736
▁250	-10.5762
কৰণৰ	-10.5764
▁আদিৰ	-10.5769
▁29	-10.5775
▁শৰ্মা	-10.5776
ight	-10.5778
▁পংক্তিৰ	-10.5778
▁ইফক	-10.5783
▁জীৱন্ত	-10.5784
▁'"$1"	-10.5788
▁অসমাপ্ত	-10.5788
▁অৱৈধ	-10.5788
▁আয়োজিত	-10.5788
▁প্রেরণ	-10.5788
▁বেতাঁৰ	-10.5788
▁ভাৰচুৱেল	-10.5788
▁মেৰামতি	-10.5788
▁Bogofilter	-10.5788
▁অপাৰেটৰ	-10.5788
▁মহাবিদ্যালয়	-10.5788
▁হেণ্ডেল	-10.5788
▁দ্বীন	-10.5788
▁জাৰ্মান	-10.5788
▁উপযোগী	-10.5788
command	-10.5788
▁গঠিত	-10.5788
▁Gtk	-10.5788
▁Spy	-10.5788
▁rich	-10.5788
▁উত্তম	-10.5788
Insert	-10.5788
prefs	-10.5788
▁অভ্যন্তৰীক	-10.5788
▁টকেন	-10.5788
▁প্ৰতীকচিহ্ন	-10.5788
▁বহল	-10.5788
▁পৰ্যায়	-10.5788
(4790)	-10.5788
▁দ্বন্দ্বযুক্ত	-10.5788
▁ইনক্ৰিপ্ট	-10.5788
▁দশমিক	-10.5788
(4791)	-10.5788
▁খাঁজ	-10.5789
▁ৰিডাৰ	-10.5789
▁ক্ৰমবিন্যাস	-10.5789
▁অফচেট	-10.5789
▁তললৈ	-10.5789
▁মেটাল	-10.5789
▁(72)	-10.579
▁ঘূৰাই	-10.5792
▁অসম্ভব	-10.5792
▁বাণিজ্যিক	-10.5792
▁বিপৰ্যয়	-10.5792
▁06:	-10.5793
▁স্বচালিতভাবে	-10.5793
▁"0"	-10.5793
স্পেস	-10.5794
▁বায়ু	-10.5795
ট্ৰি	-10.5795
প্ৰণালীৰ	-10.5796
▁অংশগ্ৰহণকৰ্তা	-10.5796
▁২৭	-10.5797
▁মূদ্ৰণৰ	-10.5798
▁Konqueror	-10.5799
▁মাৰ্চ	-10.5799
png	-10.5801
▁দৰ্শক	-10.5801
▁নকৰাকৈ	-10.5803
▁ধাৰ্য্যকৰণ	-10.5808
expr	-10.5812
▁জাৰি	-10.5813
▁উপশীৰ্ষকসমূহ	-10.5813
▁বাকচলৈ	-10.5815
▁এণ্ড	-10.5822
▁স্কীমা	-10.5826
ুস	-10.5826
ধ্য	-10.5836
▁পঠাবলে	-10.5839
েণ্ট	-10.5843
▁এইচসি	-10.5847
▁প্ৰত্য	-10.5848
▁শিল্পী	-10.5857
▁root	-10.5865
▁৫০	-10.5868
হিন	-10.5869
kg	-10.5873
"}	-10.5874
▁দেখি	-10.5874
▁Show	-10.5875
▁HD	-10.5875
row	-10.5879
বহি	-10.5879
▁পঢ়িবলে	-10.5885
▁01:	-10.5887
▁Na	-10.5888
▁সঁজুলিসমূহ	-10.5895
▁পৰ্দ্দাত	-10.5905
▁ছালাত	-10.5915
▁মাপে	-10.5934
ray	-10.5956
▁কৰ্মক্ষেত্ৰত	-10.5957
▁নফ	-10.5963
▁কৃ	-10.5964
▁12,	-10.5979
ৱৰ	-10.598
▁Tab	-10.598
নিম্ন	-10.5983
open	-10.5984
▁তাচৰ	-10.5984
ডিস্ক	-10.5992
▁অভিনায়কৰ	-10.6007
▁GB	-10.6012
00,000	-10.6023
এইচ	-10.6025
যদি	-10.603
▁বিষয়া	-10.6031
▁যাওয়াৰ	-10.6031
▁স্টে	-10.6041
▁এফ	-10.6048
যি	-10.6053
▁ডো	-10.6056
▁ৰঙা	-10.6057
ধন	-10.6065
(27	-10.6066
ach	-10.6069
▁হেড	-10.6073
ণা	-10.6076
▁গুৱাহাটীত	-10.6077
▁বুটামত	-10.6078
▁আগে	-10.608
▁অধি	-10.6083
প্ৰাপ্ত	-10.609
▁সম্বাদত	-10.609
প্ৰাপ	-10.6102
ler	-10.6104
▁ষ	-10.6107
windows	-10.6112
▁প্ৰব্ৰজনৰ	-10.6116
▁ব্	-10.6121
▁ভূ	-10.6131
▁বিষয়সমূহ	-10.6132
▁চাৰ্ভাৰে	-10.6135
স্থিত	-10.6136
▁1000	-10.6141
▁প্ৰস্তাব	-10.6142
▁Com	-10.6151
ENAME	-10.6155
ংগা	-10.6157
▁আৰক্ষী	-10.6167
ook	-10.6167
▁বাণিজ্য	-10.6168
▁পৃথিৱী	-10.6168
▁ঘূৰ	-10.6169
▁সঁচা	-10.617
াত্মক	-10.6171
▁Tamuz	-10.6171
টী	-10.6172
াৰ্ণ	-10.6172
я	-10.6172
▁check	-10.6172
ī	-10.6172
▁Audio	-10.6172
▁Calendar	-10.6172
▁Delhi	-10.6172
▁Epiphany	-10.6172
▁character	-10.6172
▁অন্তর্ভুক্ত	-10.6172
▁অ্যাপ্লিকেশন	-10.6172
▁ইনফর্মেশান	-10.6172
▁ইশকাপনেৰ	-10.6172
▁তৰবিয়ত	-10.6172
▁দৈহিক	-10.6172
▁পেকেইজ	-10.6172
▁ব্যৱধান	-10.6172
▁মেগ্নিফাইড	-10.6172
▁সংঘৰ্ষ	-10.6172
▁সম্প্ৰসাৰন	-10.6172
▁সাধাৰন	-10.6172
▁সৰ্বোত্তম	-10.6172
▁হৰতনেৰ	-10.6172
▁ৰুহিতনেৰ	-10.6172
▁Talk	-10.6172
▁Cogl	-10.6172
▁Option	-10.6172
▁Sebasti	-10.6172
▁checksum	-10.6172
▁ভাণ্ডাৰ	-10.6172
ा	-10.6172
▁PNG	-10.6172
▁ফিল্ম	-10.6172
▁বাইবেল	-10.6172
▁হোটেল	-10.6172
▁ঊৰ্ধ্বতন	-10.6172
▁বুলিয়েন	-10.6172
▁RSA	-10.6173
▁লিখোঁতে	-10.6173
▁php	-10.6173
একাকী	-10.6173
▁নোৱাৰ	-10.6174
▁জৰিত	-10.6174
▁অবিৱৰিত	-10.6175
উভয়	-10.6176
▁কাৰ্য্যকৰী	-10.6176
▁জীৱন্তকৰণ	-10.6176
scape	-10.6177
▁05:	-10.6178
▁টৱৰ্ক	-10.6178
▁তিনিটা	-10.618
ata	-10.6181
▁কম্বো	-10.6183
foo	-10.6184
▁সময়কাল	-10.6184
▁২৩	-10.6185
জান	-10.6185
▁পলিচীখন	-10.6185
gconf	-10.6187
▁কলেজ	-10.6187
▁বাচনি	-10.6189
▁ধাৰ	-10.6192
▁প্ৰসাৰন	-10.6192
▁উপলব্ধকৰ্তা	-10.6193
▁চলাবলে	-10.6194
▁47	-10.6195
▁কালো	-10.6196
▁1.0	-10.6197
▁কুটা	-10.6197
theme	-10.6198
▁English	-10.6199
var	-10.62
ত্ৰী	-10.62
▁চকু	-10.6201
DL	-10.6202
গ্ৰুপ	-10.6202
▁আইনী	-10.6204
▁বিচ্ছিন্নিত	-10.6211
▁উইজেটটি	-10.6214
▁পৰিণতিত	-10.6215
▁এইমাত্ৰ	-10.6215
▁আগষ্ট	-10.6216
LE	-10.622
ong	-10.6221
▁আয়ত	-10.6224
ide	-10.6225
▁স্টক	-10.6229
▁sound	-10.623
▁কোৰআনৰ	-10.6233
▁ছু	-10.6242
you	-10.6266
IG	-10.6274
▁সময়ের	-10.6295
▁থাই	-10.6296
উড	-10.6297
▁প্ৰিমিয়ামৰ	-10.6304
িছে	-10.6306
▁পুৰ	-10.6311
▁ব্যবস্থাপনা	-10.6314
▁যাওয়া	-10.6319
হেম	-10.6324
No	-10.6333
▁Lo	-10.6339
tra	-10.6346
▁ঠাইত	-10.6369
মাত্ৰ	-10.6371
▁শেষত	-10.6373
▁বেশ	-10.6374
বিশেষ	-10.6381
লুকাওক	-10.6381
সদস্য	-10.6381
Xxx	-10.6382
load	-10.6383
message	-10.6383
dao	-10.6391
▁An	-10.6401
প্ল	-10.6411
ick	-10.6412
▁খেলক	-10.6415
বতৰা	-10.6425
আৰু	-10.6429
মাহ	-10.6435
ট্	-10.6435
ওঁতে	-10.6438
াংক	-10.6444
▁দণ্ড	-10.6455
▁উইন্ডোকে	-10.6469
▁প্ৰান্তৰ	-10.6483
▁ওচৰ	-10.6484
▁বিচাৰ	-10.6485
▁টেপ	-10.6488
▁স্ক্ৰ	-10.649
▁ঘটনাক	-10.649
▁পৰিচয়সমূহক	-10.6492
▁আগবাঢ়ি	-10.6495
jan	-10.6505
▁দূৰৰ	-10.6514
ze	-10.6515
ক্ষ্য	-10.6534
বক্সেৰ	-10.6542
▁ৰুমৰ	-10.6555
gg	-10.6565
▁স্কো	-10.6565
কারী	-10.6566
▁অনুবাদক	-10.6566
▁শেষে	-10.6568
video	-10.6569
▁নাগৰিক	-10.6572
tails	-10.6572
▁এক্সিকিউট	-10.6572
Special	-10.6572
notify	-10.6572
Expand	-10.6572
ReplyForward	-10.6572
change	-10.6572
▁mutex	-10.6572
▁অতিক্ৰান্ত	-10.6572
▁অসংলগ্ন	-10.6572
▁আছুতীয়া	-10.6572
▁আটাইতকৈ	-10.6572
▁আব্দুল্লাহ	-10.6572
▁ডিজিটেল	-10.6572
▁প্ৰফেছৰ	-10.6572
▁ফেব্ৰুৱাৰী	-10.6572
▁সংকুচিত	-10.6572
▁সংঘটিত	-10.6572
▁ৰেহাই	-10.6572
▁পৰিৱৰ্তে	-10.6572
्	-10.6572
▁ঔষধ	-10.6572
▁যাত্ৰা	-10.6572
▁চৰিয়ত	-10.6572
▁লভ্য	-10.6572
▁সভাপতি	-10.6572
▁হাইপাৰ	-10.6572
Link	-10.6572
▁কঠিন	-10.6572
▁গেলেৰী	-10.6572
▁পৰিমাপ	-10.6573
▁আকার	-10.6573
▁বিশ্বব্যাপী	-10.6573
▁API	-10.6573
গৌণ	-10.6573
▁ঘটিছে	-10.6573
▁ভৰোৱা	-10.6573
▁ফতোৱা	-10.6573
▁লাতিন	-10.6573
▁লেটিন	-10.6573
▁নিৰ্ভৰশীল	-10.6573
▁ছায়াছবি	-10.6573
▁মেডিকেল	-10.6573
▁ওয়েব	-10.6573
▁হেডার	-10.6573
▁"1"	-10.6574
▁Tech	-10.6574
▁পৰিসৰ	-10.6574
▁ধাৰণকৰ্তা	-10.6574
game	-10.6574
▁Rach	-10.6574
▁CURL	-10.6575
▁ৰাতি	-10.6575
▁দেবে	-10.6575
talk	-10.6576
▁bug	-10.6577
▁"'''	-10.6577
▁সন্মান	-10.6577
▁সেটআপ	-10.6577
▁উপৰিও	-10.6578
▁লোগো	-10.6578
▁ছকেট	-10.6578
acher	-10.6579
▁Sound	-10.6579
Ch	-10.658
raid	-10.658
▁বুজায়	-10.6584
যো	-10.6586
▁খুঁ	-10.6588
NAME	-10.6591
▁বিচাৰিছে	-10.6592
ঘাত	-10.6593
১২	-10.6597
(607)	-10.6598
▁বিবেচনা	-10.66
▁mail	-10.66
▁পৰিবেশ	-10.6602
.323	-10.6604
▁শান্তি	-10.6608
▁মুনীন	-10.6608
▁ডেটা	-10.6608
জ্জা	-10.6613
alla	-10.6613
বিদ্যা	-10.6614
▁"#	-10.6614
Add	-10.662
▁এখনো	-10.662
▁সফলতা	-10.6621
াৰা	-10.6623
▁এপ	-10.6632
▁সম্পূৰ্ণভাৱে	-10.6646
▁Read	-10.6651
▁যন্ত্ৰটি	-10.6653
এচএ	-10.6653
▁ভগ	-10.6655
▁vlan	-10.6656
▁false	-10.6656
▁dev	-10.6658
▁লিখে	-10.667
সেন্ট	-10.6674
uri	-10.6675
▁বৰ্ষপঞ্জিটি	-10.6681
গ্ৰহণ	-10.6687
▁আধাৰত	-10.6688
▁কেনে	-10.6688
▁ব্যৱসায়ৰ	-10.6689
্রা	-10.669
▁ক্ষেত্রে	-10.67
Pop	-10.6701
256	-10.6702
▁ওজন	-10.6705
▁San	-10.6705
34)	-10.671
llu	-10.6721
▁ভিত্তিক	-10.6729
we	-10.6752
▁মূদ্ৰকত	-10.6758
oe	-10.676
▁স্নেপশ্বটসমূহ	-10.6774
(4843)	-10.6796
(282)	-10.6797
ঢ	-10.6798
with	-10.6799
{1}	-10.6799
string	-10.68
Assamese	-10.68
ঘন্টা	-10.68
অনুকৰণ	-10.6801
ন্ত্ৰ	-10.6802
▁অছাল্লামৰ	-10.6803
▁আচ	-10.6823
low	-10.6828
▁নগ	-10.6834
▁২১	-10.6834
োদ	-10.6849
স্য	-10.6852
▁বক্সৰ	-10.6863
▁শী	-10.6866
▁দুৰ্ঘটনাৰ	-10.6872
▁প্লেট	-10.6883
▁মোট	-10.6907
▁if	-10.691
main	-10.6923
ম্ভ	-10.6927
▁"{1}"-	-10.6935
বার	-10.6935
media	-10.6946
ৰিজ	-10.6947
▁কাৰণত	-10.6958
▁প্ৰসাৰ	-10.6959
▁ডায়ালগ	-10.697
র্ণ	-10.6979
▁প্ৰেৰণেৰ	-10.6981
▁এডিট	-10.6982
▁ঘণ্টা	-10.6988
د	-10.6989
▁Abhi	-10.6989
▁আটাইবোৰ	-10.6989
▁ইম্পোর্ট	-10.6989
▁এন্ট্ৰি	-10.6989
▁কেইবাটাও	-10.6989
▁ছাৰাউন্ড	-10.6989
▁দাখিল	-10.6989
▁নিউক্লীয়	-10.6989
▁প্ৰাকৃতিক	-10.6989
▁বঙালী	-10.6989
▁শ্ৰেষ্ঠ	-10.6989
▁সাংখ্যিক	-10.6989
▁সাংসদ	-10.6989
▁স্মাইলি	-10.6989
(13166)	-10.6989
ğ	-10.6989
OfThe	-10.6989
▁আনহাতে	-10.6989
Cancel	-10.6989
ব্বিশ	-10.6989
▁আঁকতে	-10.6989
▁সতৰ্কধ্বনি	-10.6989
▁FTP	-10.6989
▁পিতৃ	-10.6989
▁গেলেৰি	-10.6989
вр	-10.6989
ем	-10.6989
▁স্ট্যান্ড	-10.6989
▁জটিল	-10.6989
▁হেৰুৱা	-10.699
▁বাজানো	-10.699
▁gconfd	-10.699
▁Roll	-10.699
▁GUI	-10.699
obert	-10.699
▁বৰফ	-10.699
▁স্বভাৱ	-10.6991
▁ভাড়া	-10.6991
▁সোমোৱা	-10.6992
▁#1	-10.6993
▁2018	-10.6993
▁নিশ্চিতকৰণৰ	-10.6993
পন্ন	-10.6994
▁হৰুৱা	-10.6996
▁তাড়া	-10.6997
▁উঠা	-10.6997
csv	-10.6997
▁পিক্সেলৰ	-10.6997
▁উপনাম	-10.6998
েইট	-10.6999
▁ৰোমান	-10.7
বাইট	-10.7
▁স্থায়ীভাবে	-10.7001
বাসী	-10.7003
▁বিগত	-10.7004
▁চাইট	-10.7004
▁Top	-10.7005
▁All	-10.7006
▁ব্যুৰো	-10.7007
▁মাস্ক	-10.7011
▁মেনুবাৰ	-10.7012
▁গ্ৰহণযোগ্য	-10.7013
গ্ন	-10.7013
▁বার্তার	-10.7014
▁মূল্যৰ	-10.7015
driver	-10.7019
210	-10.702
▁পুনৰনাম	-10.702
▁নামেৰে	-10.7021
▁বিকাশক	-10.7025
▁VCard	-10.7026
=0	-10.7027
(%	-10.7028
▁বেইন	-10.703
(15	-10.7045
টিক্স	-10.7048
ক্ষা	-10.705
▁Te	-10.7051
▁hours	-10.7059
▁লিস্টে	-10.7061
গ্র	-10.7068
▁নিজা	-10.7068
▁ইমপোৰ্টাৰ	-10.7073
▁প্ৰস্ত	-10.7081
জীৱ	-10.7084
201	-10.7087
▁1.5	-10.7088
▁PID	-10.7088
▁ব্যবহাৰকাৰী	-10.7098
▁নিৰ্দেশনা	-10.7102
▁অৱস্থাবাৰ	-10.7109
▁দায়িত্বৰ	-10.711
etc	-10.7113
▁ভাব	-10.7113
imited	-10.7116
▁তো	-10.7129
▁নৱ	-10.7134
▁Sha	-10.7136
দ্ব	-10.7137
▁স্নেপশ্বটৰ	-10.714
▁সিহতৰ	-10.7141
▁খেলনা	-10.7152
কিন	-10.716
▁বিহীন	-10.7171
Lock	-10.7171
▁অভিনায়ক	-10.7172
ure	-10.7185
বেশ	-10.7188
▁ওপ	-10.7196
▁j	-10.7208
রণ	-10.7219
▁অনলাইনত	-10.7224
সংহতি	-10.7229
(13181)	-10.7231
ডাউন	-10.7233
–	-10.7235
লিচ	-10.7236
ৃষ্ট	-10.7238
51)	-10.7244
▁Bha	-10.7249
ভিউ	-10.725
ops	-10.7253
আমি	-10.7254
The	-10.7255
.7	-10.7268
▁মানুহে	-10.7272
▁পৰিচিতিৰ	-10.7273
▁চুই	-10.7283
াঙি	-10.7284
▁দিওঁ	-10.7285
▁আপডেইটসমূহ	-10.7287
IV	-10.7292
▁help	-10.7297
▁প্ৰত্যুত্তৰৰ	-10.7312
▁শে	-10.7315
lia	-10.7317
খ্যা	-10.7318
.9	-10.732
▁স্বা	-10.7321
▁নীতিৰ	-10.7328
{{	-10.7332
▁চাকৰিৰ	-10.7332
▁পদ্ধতিসমূহ	-10.7335
ভাৱ	-10.7341
ial	-10.7348
ট্ট	-10.7355
ext	-10.7356
▁বাহনৰ	-10.7356
▁অবজেক্টসমূহ	-10.7362
উই	-10.7368
াইভ	-10.7376
়্	-10.7376
কাউ	-10.738
স্ম	-10.7386
কাশ	-10.7394
▁II	-10.7398
▁আঁতৰাব	-10.7415
▁Time	-10.7417
▁প্ৰশাসন	-10.7423
175	-10.7424
count	-10.7424
к	-10.7424
(242190)	-10.7424
Printer	-10.7424
পৰ্য্যাপ্ত	-10.7424
▁Totem	-10.7424
▁এডাপ্টাৰ	-10.7424
▁তথ্যভঁৰাল	-10.7424
▁পর্যালোচনা	-10.7424
▁পাৰস্পৰিক	-10.7424
▁প্ৰমপ্ট	-10.7424
▁বিদ্যালয়	-10.7424
▁বেণ্ডৱাইড্ত	-10.7424
▁মীমাংসিত	-10.7424
▁সচেতন	-10.7424
▁সামঞ্জস্য	-10.7424
(846)	-10.7424
Russia	-10.7424
▁tubs	-10.7424
▁প্ৰসঙ্গ	-10.7424
▁বৰাবৰ	-10.7424
▁সেকেন্ড	-10.7424
ember	-10.7424
▁হিন্দু	-10.7424
▁Word	-10.7424
▁আতৰুৱা	-10.7424
▁বিৱৰক	-10.7424
▁নিচিনা	-10.7424
▁EWS	-10.7424
▁পয়েন্ট	-10.7424
▁ভৰষা	-10.7424
▁হিতাধিকাৰ	-10.7424
▁অনুগ্ৰহপূৰ্বক	-10.7424
▁আলোচনী	-10.7424
▁PEM	-10.7424
▁যেতিয়ালৈকে	-10.7424
▁PPD	-10.7424
▁ৱেবকেম	-10.7424
▁কখনো	-10.7424
▁অঁকা	-10.7424
▁মুখ্যমন্ত্ৰী	-10.7424
▁স্লাইডশ্ব	-10.7424
▁আজকেৰ	-10.7424
▁মাৰ্কাস	-10.7424
▁হওতে	-10.7425
▁Inline	-10.7425
▁জ্ঞাত	-10.7426
▁সংগ্রহ	-10.7426
▁এনকিউ	-10.7426
▁পুনৰনিৰ্দেশ	-10.7426
▁cgroup	-10.7427
আন	-10.7427
▁স্লাইডাৰ	-10.7428
▁মোবাইল	-10.7428
▁ছকেৰ	-10.7428
▁ব্যৱহাৰকাৰীজনে	-10.7428
▁Mehr	-10.7428
▁চিঠি	-10.7429
▁আনসাবস্ক্ৰাইব	-10.7429
▁নিজকে	-10.743
▁কম্প্ৰে	-10.743
desc	-10.743
▁কাৰ্য্যক্ৰম	-10.743
▁একমাত্ৰ	-10.743
▁দেখতে	-10.743
▁লেহেম	-10.743
ance	-10.7432
▁নিশ্চয়তা	-10.7432
▁সমকামী	-10.7432
▁নোহোৱাকৈ	-10.7432
▁বিনষ্ট	-10.7438
▁মানুহজন	-10.7441
▁টাইমাৰ	-10.7441
watch	-10.7442
▁init	-10.7443
▁নিকট	-10.7447
▁মহা	-10.7447
▁স্টেট	-10.7451
▁বাধ্য	-10.7452
র্মাণ	-10.7453
old	-10.7454
▁লেন	-10.7456
▁চিনাক্তকৰণ	-10.7458
▁আলেখ্যনৰ	-10.7459
▁বেহা	-10.7463
▁DHCP	-10.7463
▁JavaScript	-10.7463
▁পূৰ্বাবস্থা	-10.7463
▁(105	-10.7467
ন্তু	-10.7468
▁অনুজ্ঞাৰ	-10.747
▁Import	-10.7472
▁মেন	-10.7472
▁ইঞ্চি	-10.7474
▁বাকী	-10.7476
▁cdrecord	-10.7489
▁প্ৰাপকৰা	-10.7491
জিত	-10.7493
▁un	-10.7502
থো	-10.7505
ary	-10.751
▁উপাদানসমূহ	-10.7512
▁Group	-10.7515
▁task	-10.7515
ডু	-10.7518
ARG	-10.752
শে	-10.7522
▁ক্লা	-10.7523
▁স্কিমাৰ	-10.7528
981	-10.7529
ৰঙ	-10.7538
▁আন্ত	-10.7539
▁উইন্ডোর	-10.7548
▁account	-10.755
▁ৱিকি	-10.7552
▁বেশি	-10.7557
দ্দ	-10.7559
▁সাৰা	-10.7559
লোঁ	-10.7601
350	-10.7605
▁মেমোসমূহ	-10.7612
ust	-10.7615
▁300	-10.7616
▁বিকল্পটি	-10.7617
▁তেখেতৰ	-10.7618
▁অছাল্লাম	-10.7622
ali	-10.7622
▁সংঘঠন	-10.7623
▁বক্সত	-10.7632
It	-10.7647
▁দিশৰ	-10.7653
86)	-10.7654
▁UI	-10.7664
▁লাইব্ৰেৰীৰ	-10.7668
▁হাতত	-10.7669
300	-10.767
▁*.	-10.7672
AX	-10.7673
শাৰীৰ	-10.7678
700	-10.7681
menu	-10.7685
Subject	-10.7685
Linux	-10.7686
short	-10.7689
সলনি	-10.769
বিষয়	-10.769
▁বিশ্বৰ	-10.7696
দো	-10.7696
tick	-10.7704
econd	-10.7708
IM	-10.7712
ics	-10.7714
▁নাপা	-10.7722
▁ছালাতৰ	-10.7723
ছোট	-10.773
url	-10.7734
্লি	-10.7734
▁70	-10.7741
▁বিকল্পটো	-10.7743
ত্যা	-10.7745
▁বৈশিষ্টৰ	-10.7757
▁ঘৰে	-10.7759
চিয়ান	-10.7762
▁শ্ৰেণীৰ	-10.7771
uk	-10.7771
▁প্লাগিনৰ	-10.7777
টৱৰ্কৰ	-10.7787
▁12:	-10.7798
▁বুজি	-10.78
▁নোহোৱাৰ	-10.7806
Mail	-10.7809
স্টন	-10.7821
▁বর্তমান	-10.7833
▁OF	-10.7841
▁মাতৃ	-10.7842
দল	-10.7844
▁ডিগ্ৰি	-10.7853
িবলে	-10.7856
▁75	-10.7856
zip	-10.7857
▁উৎপাদ	-10.7857
▁ৰখাৰ	-10.786
▁Tube	-10.7873
▁খোলো	-10.7874
н	-10.7878
л	-10.7878
history	-10.7878
▁উপভোক্তা	-10.7878
▁দিশনিৰ্ণয়	-10.7878
birthday	-10.7878
proxy	-10.7878
▁Flickr	-10.7878
▁NUMA	-10.7878
▁strength	-10.7878
▁অসুবিধা	-10.7878
▁কেডব্লু	-10.7878
▁কৌশল	-10.7878
▁ক্ষুদ্ৰ	-10.7878
▁চিকিৎসক	-10.7878
▁চিড়িতনেৰ	-10.7878
▁দৰমহা	-10.7878
▁পটভূমী	-10.7878
▁পরীক্ষা	-10.7878
▁পুৰভূমিৰ	-10.7878
▁প্ৰশিক্ষণ	-10.7878
▁পৰিপূৰক	-10.7878
▁বৰষুণ	-10.7878
▁লাইচেঞ্চ	-10.7878
▁সেউজীয়া	-10.7878
category	-10.7878
▁গুটিয়ে	-10.7878
▁জীৱিকা	-10.7878
▁বান্ধনী	-10.7878
▁ৰোবোট	-10.7878
duration	-10.7878
т	-10.7878
▁কাৰ্যালয়	-10.7878
▁টিপুন	-10.7878
▁টুলটিপ	-10.7878
▁বিজহব	-10.7878
▁মাউস	-10.7878
play	-10.7878
▁PNM	-10.7878
▁মিনোল	-10.7878
▁আইকণ	-10.7878
▁হাৰ্বাৰ	-10.7879
▁বাক্যবিন্যাস	-10.7879
▁শুনিব	-10.7879
▁ম্যাপ	-10.7879
ultitran	-10.7879
▁GdkColor	-10.7879
▁ডিক্ৰিপ্ট	-10.7879
২৪৫	-10.788
▁বাছাইকৃত	-10.788
▁Thu	-10.788
▁পুনৰনামকৰণ	-10.788
▁চাওঁক	-10.7881
▁গেলৱে	-10.7882
▁ফ্লপি	-10.7882
▁সঁচাকৈ	-10.7882
▁এক্সটেন	-10.7882
▁ইনস্টলেশন	-10.7882
▁জাপানী	-10.7884
▁পুনৰসংহতি	-10.7884
▁বাৰ্ষিকি	-10.7885
Start	-10.7885
▁0.000	-10.7886
▁বিল্ট	-10.7887
▁তেতিয়াহে	-10.7888
▁বিৰল	-10.7889
▁লঞ্চাৰ	-10.789
▁ট্যাগটি	-10.7891
▁উন্নয়নকাৰী	-10.7891
force	-10.7892
▁স্কেল	-10.7894
target	-10.7894
▁অপশনটি	-10.7896
▁ফটোবোৰ	-10.7899
গ্ৰহ	-10.7901
ভিযান্ত্ৰিক	-10.7901
▁প্ৰমাণিত	-10.7901
তঃ	-10.7903
Size	-10.7903
▁দেখাও	-10.7904
▁দিকেৰ	-10.7904
▁শিক্ষাৰ	-10.7904
▁কৰ্মতালিকা	-10.7906
▁নোট	-10.7907
▁আশ্ব	-10.7908
▁JB	-10.7908
▁Khordad	-10.791
▁Server	-10.791
▁stdout	-10.791
▁তেখেতে	-10.7914
▁ঔ	-10.792
▁সূ	-10.792
▁নিশ্চিতভাৱে	-10.7922
▁পেতে	-10.7923
▁মিনি	-10.7925
কাট	-10.7927
▁ছো	-10.7927
▁যান্ত্ৰিক	-10.7929
▁শ্রেণী	-10.7929
▁যতন	-10.7931
▁তাসেৰ	-10.7935
▁description	-10.7937
share	-10.794
Use	-10.794
▁সূচিত	-10.7942
▁33	-10.7945
▁ME	-10.7949
over	-10.7951
্যাক	-10.7953
▁বাইনাৰিৰ	-10.7968
ative	-10.7968
▁family	-10.7974
ভগ	-10.7975
▁ঘড়িৰ	-10.7982
▁এপ্লিকেচনে	-10.7991
নীয়া	-10.7996
ডেড	-10.7998
ছু	-10.7998
▁(4815)	-10.8001
্বাৰ	-10.8002
▁কিতাপসমূহ	-10.8007
wo	-10.8009
▁জান	-10.8014
▁মেনুত	-10.8015
ture	-10.802
▁মহ	-10.8021
সাৰিত	-10.803
▁পেজ	-10.8037
▁কমপিউটাৰৰ	-10.8041
age	-10.8046
াঁও	-10.8047
KB	-10.8047
▁2.5	-10.8048
▁ৰিপোৰ্ট	-10.8051
▁প্ৰৰণেৰ	-10.8051
ণ্	-10.8054
▁IO	-10.8056
▁95	-10.8063
▁ব্ল	-10.8069
াইন	-10.8069
▁সংকোচনৰ	-10.8073
ско	-10.8075
▁ৱেস্ট	-10.8082
িলো	-10.8086
লিচিৰ	-10.8096
্তন	-10.8098
▁নতুনকৈ	-10.8117
▁address	-10.8121
▁চোৱাৰ	-10.8147
▁ঝ	-10.8147
▁bu	-10.8152
cat	-10.8157
▁লোকে	-10.8158
(2651)	-10.8161
▁কং	-10.8162
Op	-10.8163
পৰ্দা	-10.8163
়া	-10.8164
্ণ	-10.8164
পঢ়িব	-10.8165
“	-10.8165
ফিল্ড	-10.8166
ানী	-10.8166
খণ্ড	-10.8178
ৃতি	-10.818
বাহন	-10.8193
প্ৰতি	-10.8199
▁হিচাপৰ	-10.82
ear	-10.8208
▁টেবুলৰ	-10.8208
▁are	-10.8214
TO	-10.8223
▁পাচ	-10.8226
▁উইন্ডোটো	-10.8231
ল্টা	-10.824
টিভ	-10.8241
▁থাকি	-10.8241
240	-10.8243
ask	-10.8251
▁প্ৰকল্পত	-10.8258
েষ	-10.826
▁title	-10.8267
▁ঠাইৰ	-10.8278
750	-10.8279
▁পঢ়ি	-10.828
▁সেসমূহ	-10.8282
▁150	-10.8286
চিং	-10.8288
▁কাষবাৰ	-10.8288
▁শত	-10.8293
▁সৰ্ব	-10.8317
▁যাও	-10.8326
ার্	-10.8328
▁চ্যানেল	-10.8335
▁কম্পোনেন্ট	-10.8335
era	-10.8339
▁স্বচ্ছ	-10.8339
▁খোজ	-10.8347
▁সংগত	-10.835
work	-10.8351
▁প্ৰৱন্ধ	-10.8354
OPTION	-10.8355
generic	-10.8355
schema	-10.8355
▁iPod	-10.8355
GhostScript	-10.8355
machine	-10.8355
mount	-10.8355
picture	-10.8355
ttached	-10.8355
▁DTMF	-10.8355
▁Dynam	-10.8355
▁ShortDayName	-10.8355
▁heading	-10.8355
▁আৱাহন	-10.8355
▁কৃষ্ণ	-10.8355
▁তৌহীদ	-10.8355
▁নাথাকিলে	-10.8355
▁নালাগিব	-10.8355
▁নিষিদ্ধ	-10.8355
▁নেদেখুৱাব	-10.8355
▁বৰঙণি	-10.8355
▁শ্বিৰ্ক	-10.8355
▁স্বনির্ধারিত	-10.8355
▁সৰ্বমুঠ	-10.8355
▁হাইপাৰভাইছৰ	-10.8355
flag	-10.8355
{2}	-10.8355
▁কমপাইল	-10.8355
▁ডাইৰেক্ট	-10.8355
▁তীৰচিহ্ন	-10.8355
▁পড়ুন	-10.8355
▁পুষ্প	-10.8355
▁বেনামী	-10.8355
▁যুক্তৰাষ্ট্ৰ	-10.8355
Other	-10.8355
▁আহোতে	-10.8355
▁বিশাল	-10.8355
connect	-10.8355
▁যোজনা	-10.8355
▁বৰুৱা	-10.8355
▁cdrdao	-10.8355
Contact	-10.8355
▁পদবী	-10.8355
▁হাজাৰ	-10.8355
▁বিপৰ্যস্ত	-10.8355
▁দীৰ্ঘ	-10.8355
▁২০২০	-10.8355
recurrpage	-10.8355
▁থাম্ব	-10.8356
▁ইচ্ছা	-10.8356
▁ক্লোন	-10.8356
▁July	-10.8356
▁উপবৃত্ত	-10.8357
▁লগআউট	-10.8357
▁আঁচনিৰ	-10.8358
marker	-10.8358
▁ডাবল	-10.8359
▁MSN	-10.8359
▁লুকুৱাওক	-10.8359
▁কেন্দ্ৰীত	-10.836
▁বাৰ্ষিকী	-10.836
▁আনুভূমিকভাৱে	-10.8361
ৰ‍্	-10.8361
▁পাঠিয়ে	-10.8362
▁দুয়োটা	-10.8362
▁১৭	-10.8366
য্	-10.8366
▁সংশোধনী	-10.8367
▁স্ক্ৰলবাৰ	-10.8367
ৱৰ্তী	-10.8367
▁মৃত	-10.8367
লম্বন	-10.8368
▁Pine	-10.8368
▁ৰেকৰ্ডিং	-10.8369
▁শাৰীৰিক	-10.8372
NONE	-10.8372
ik	-10.8374
▁জোৰা	-10.8376
▁Me	-10.8377
্যু	-10.8378
▁তাহলে	-10.8378
bl	-10.8379
▁সমলৰ	-10.8379
▁সিৰিলিক	-10.8388
▁বস্তুসহ	-10.8388
▁প্ৰথমবাৰ	-10.8393
▁স্ক্ৰিনৰ	-10.8394
▁নীতিয়ে	-10.8396
▁নিয়মিত	-10.8396
ীণ	-10.8399
▁বাহিৰত	-10.84
▁গ্ল	-10.8402
ৱাৰ্ড	-10.8403
জ্	-10.8404
▁মিমি	-10.8407
▁তথ্যচিত্ৰ	-10.841
ন্টা	-10.841
▁ফিল্টাৰসমূহ	-10.8412
▁পৰামৰ্শসমূহ	-10.8419
▁অক্টোবৰত	-10.8421
মুক্ত	-10.8422
save	-10.8423
▁সাৱধান	-10.8427
▁Ho	-10.8428
▁উত্	-10.8429
▁মানুহৰ	-10.8432
▁টেগটো	-10.8452
▁সত্যতা	-10.8453
▁বৰ্ষপঞ্জিতে	-10.8455
▁Sync	-10.8455
▁ৰাখো	-10.8455
▁কাষ	-10.8461
▁কৰোঁ	-10.8462
▁ৰোধ	-10.8469
▁FLA	-10.8472
▁Wacom	-10.8474
সো	-10.8486
▁তুলনাত	-10.8487
window	-10.8489
▁দেখ	-10.849
বহিৰ	-10.8492
form	-10.8494
▁Di	-10.8496
অনু	-10.8508
▁লোকৰ	-10.851
▁শ্ব	-10.8512
▁Xen	-10.8514
▁সাধাৰণতে	-10.8516
▁map	-10.8518
▁সপ্তাহেৰ	-10.8522
৫০	-10.8524
▁বুজিব	-10.8525
▁(39	-10.8528
▁Win	-10.8531
▁ডকুমেন্টৰ	-10.8534
▁ভাষাসমূহৰ	-10.8549
নাছ	-10.8554
▁ৰোগৰ	-10.8556
▁সেইসমূহ	-10.8569
▁চলাব	-10.8572
▁ৱাই	-10.8575
▁কুকিৰ	-10.8587
iya	-10.8593
spin	-10.8601
োট	-10.8602
ten	-10.8612
ada	-10.8612
▁টন	-10.8615
ুয়ে	-10.862
▁শাৰীসমূহৰ	-10.8626
▁TO	-10.8631
▁GA	-10.8633
▁Type	-10.8639
চহৰ	-10.8639
gi	-10.8644
▁car	-10.8647
আউট	-10.8663
সংযোগ	-10.8668
▁কম্পিউটাৰৰ	-10.8668
▁চৰকাৰে	-10.8676
▁মূদ্ৰকৰ	-10.8681
ko	-10.8688
▁color	-10.8697
▁স্বাক্ষৰেৰ	-10.8715
হ্য	-10.8719
▁কৰিছো	-10.8722
▁2000	-10.8723
ize	-10.8724
▁number	-10.8727
▁02:	-10.8732
ফাই	-10.8745
▁display	-10.8747
▁ms	-10.875
▁গ্ৰাহকৰ	-10.8752
▁অংশগ্ৰহণকাৰীক	-10.8754
ফালৰ	-10.8779
পোন	-10.8782
323	-10.8784
▁অক্টোবৰ	-10.8786
টৱৰ্কত	-10.8787
▁সূচি	-10.8787
▁(278	-10.8816
az	-10.8817
লোক	-10.8829
▁(3)	-10.8831
▁সংহত	-10.8833
▁বিজ	-10.8836
ঞ	-10.8843
▁সমকাম	-10.8847
▁অলপ	-10.8848
▁কিতাপৰ	-10.8849
▁বুদ্ধি	-10.8851
ō	-10.8853
power	-10.8854
▁Meh	-10.8854
س	-10.8855
ي	-10.8855
feature	-10.8855
linux	-10.8855
niversa	-10.8855
م	-10.8855
▁প্রয়োজন	-10.8855
Australia	-10.8855
Settings	-10.8855
दी	-10.8855
বিজ্ঞপ্তি	-10.8855
▁COLOR	-10.8855
▁Channel	-10.8855
▁LongDayName	-10.8855
▁TRANSLATORS	-10.8855
▁information	-10.8855
▁scsi	-10.8855
▁অদলবদল	-10.8855
▁অভিনন্দন	-10.8855
▁অৰ্থনৈতিক	-10.8855
▁ইথাৰনেট	-10.8855
▁উন্মোচন	-10.8855
▁উৎপত্তি	-10.8855
▁এস্কেইপ	-10.8855
▁চালনাজ্ঞান	-10.8855
▁চৌহদ	-10.8855
▁ডাটাবেস	-10.8855
▁ডেউৰী	-10.8855
▁নেটমাস্ক	-10.8855
▁পাৰম্পৰিক	-10.8855
▁প্ৰতিমূৰ্ত্তি	-10.8855
▁বিকলাংগতা	-10.8855
▁বিপ্লৱ	-10.8855
▁বিস্ফোৰণ	-10.8855
▁মাৰ্জিন	-10.8855
▁মেৰিওৱা	-10.8855
▁রয়েছে	-10.8855
▁সম্পর্ক	-10.8855
▁স্বনিৰ্বাচন	-10.8855
▁বিটৰেইট	-10.8855
▁বিদেশী	-10.8855
iface	-10.8855
▁অক্ষৰমালা	-10.8855
▁প্ৰতীক্ষা	-10.8855
(2633)	-10.8855
ফাওজান	-10.8855
▁কাৰ্যকৰী	-10.8855
▁EUR	-10.8855
▁আপনার	-10.8855
▁ibus	-10.8855
▁সুগম	-10.8855
▁বহন	-10.8855
▁পৰামিতি	-10.8855
Account	-10.8855
▁বেলুন	-10.8855
▁ভৰ্তি	-10.8855
▁আমালৈ	-10.8855
▁শুনা	-10.8855
▁ভৰসা	-10.8855
▁divisions	-10.8855
▁২০১৯	-10.8855
▁parallels	-10.8855
▁পোহৰ	-10.8856
পুনিনিশ্চিতৰূপে	-10.8856
▁${	-10.8856
XDG	-10.8856
▁বাজাও	-10.8856
▁ব্যবহারকারীর	-10.8857
▁প্ৰযুক্তিগত	-10.8857
▁ফোৰ্ট	-10.8857
▁গন্তব্যস্থল	-10.8857
▁সময়োত্তীৰ্ণ	-10.8857
▁অন্যতম	-10.8857
▁কবৰৰ	-10.8859
▁(40	-10.886
▁তথাপি	-10.886
▁পপআপ	-10.8861
ctor	-10.8861
▁প্ৰত্যক্ষভাৱে	-10.8862
▁ব্লগ	-10.8862
▁জানতে	-10.8863
bonding	-10.8864
▁SOCKSv	-10.8864
দেৱ	-10.8865
▁স্বৰূপে	-10.8865
াধ	-10.8868
ভ্	-10.8868
়ু	-10.8872
▁উলম্বভাৱে	-10.8876
(2)	-10.8877
ল্যান্ড	-10.8877
▁সাইট	-10.8879
▁শ্ৰ	-10.888
▁অটোক্যাড	-10.888
▁অংকটো	-10.888
▁প্ৰান্তিক	-10.888
uke	-10.8882
(2628)	-10.8884
▁ভূল	-10.8884
ংদ	-10.8887
▁নিৰ্ম	-10.8888
▁চলিছে	-10.8889
▁January	-10.889
ইন্টাৰ	-10.8891
▁মঞ্চ	-10.8895
▁Video	-10.89
▁ডিব্ৰুগড়	-10.89
VCD	-10.8906
607	-10.8907
▁মিনিটৰ	-10.8908
▁01	-10.8908
▁গেছে	-10.8908
কালীন	-10.8917
▁পিক্সেলসমূহত	-10.8917
দেন	-10.8923
▁আপল	-10.8929
tree	-10.8932
661	-10.894
exec	-10.8946
▁MP	-10.8955
▁স্থানান্তৰণ	-10.8966
ফোন	-10.897
▁বিপৰীতে	-10.8974
▁হাদীছৰ	-10.8983
▁fr	-10.8994
▁bin	-10.9004
▁মেমোটি	-10.9006
▁আপুনিএই	-10.9013
▁Con	-10.9013
ding	-10.9022
ৰিপোৰ্ট	-10.9027
▁হিউ	-10.9036
▁যাবলৈ	-10.9039
ুদ্ধ	-10.9045
▁প্ৰদৰ্শনকাৰী	-10.9062
▁ফন্টসমূহ	-10.9066
tal	-10.9067
▁মাহত	-10.9069
▁Subject	-10.9072
▁সকলোবোৰ	-10.9074
▁প্ৰকাশনা	-10.9074
▁হাতেৰ	-10.9076
▁all	-10.908
▁সদস্যৰ	-10.9081
▁(13181)	-10.9082
▁উদ্	-10.9085
ration	-10.9086
0,000	-10.9087
▁events	-10.91
▁Sc	-10.9102
▁টেবত	-10.9103
থী	-10.9111
▁প্ৰকাৰৰ	-10.9112
(9	-10.9116
ণ্ডা	-10.9118
▁DE	-10.9119
▁st	-10.912
▁Sco	-10.9136
▁অংশগ্ৰহণকৰ্তাৰ	-10.9142
মোহ	-10.9143
ুৰি	-10.9147
protect	-10.9149
▁পিছ	-10.9151
কোন	-10.9153
▁(596	-10.9161
▁77	-10.9164
253	-10.9165
দম	-10.9171
start	-10.9176
▁হস্টত	-10.9177
Time	-10.9188
TRUE	-10.9191
অৰ্থাৎ	-10.9191
এপ্লিকেচন	-10.9191
উৎস	-10.9192
art	-10.9192
xml	-10.9192
বৰ্তমান	-10.9192
ঈ	-10.9192
প্ৰমাণ	-10.9192
তথ্য	-10.9193
দ্বাৰা	-10.9193
সম্ভৱ	-10.9193
▁Min	-10.9194
▁Ro	-10.9194
১১	-10.9203
▁Apple	-10.921
াফ	-10.9215
▁লিস্টেৰ	-10.9215
▁পাৱ	-10.9219
কাজ	-10.9225
পুনৰ	-10.9229
কর্ম	-10.9237
▁37	-10.9241
▁কমিট	-10.9242
▁প্ৰতিষ্ঠানৰ	-10.9242
ore	-10.9243
তলত	-10.9248
▁ভো	-10.925
▁তৰ্কসমূহ	-10.925
▁ঘটা	-10.9257
▁আইনৰ	-10.927
▁মহিলাৰ	-10.9271
ষ্ঠা	-10.9272
▁ৱেবছাইটৰ	-10.9273
▁windows	-10.928
্বয়ংক্ৰিয়ৰূপে	-10.9282
▁non	-10.9292
▁পৰিমাণৰ	-10.9296
itt	-10.9297
▁(209	-10.9304
del	-10.9307
▁65	-10.9314
▁ইবন	-10.9348
▁ডু	-10.935
মূল	-10.9352
্তা	-10.9355
onflict	-10.9359
sec	-10.9368
যোগে	-10.9369
থিত	-10.9369
গমন	-10.9372
ডবেণ্ড	-10.938
reference	-10.9381
plugin	-10.9381
Accept	-10.9381
Entry	-10.9381
Include	-10.9381
Object	-10.9381
ahjongg	-10.9381
akeup	-10.9381
hidden	-10.9381
position	-10.9381
submit	-10.9381
▁Cheese	-10.9381
▁Control	-10.9381
▁Dolphin	-10.9381
▁Groupwise	-10.9381
▁JPEG	-10.9381
▁Resolution	-10.9381
▁place	-10.9381
▁আতৰাওতে	-10.9381
▁গতিবৰ্ধক	-10.9381
▁চলিটেয়াৰ	-10.9381
▁জিজ্ঞাসা	-10.9381
▁দেখুওৱা	-10.9381
▁প্ৰক্ষিপ্ত	-10.9381
▁পৰিবর্তন	-10.9381
▁বিদ্ৰোহ	-10.9381
▁বীণাবিশেষ	-10.9381
▁বৈঠক	-10.9381
▁য়নেকবেশিচদাচদি	-10.9381
▁যাদৃচ্ছিক	-10.9381
▁লকস্পেইচ	-10.9381
▁লাইব্ৰৰি	-10.9381
▁সংকোচিত	-10.9381
▁সংগঠন	-10.9381
▁সংবেদনশীল	-10.9381
▁সন্ত্ৰাসবাদ	-10.9381
▁ৰাজনীতি	-10.9381
Location	-10.9381
▁আজীজ	-10.9381
▁আদালত	-10.9381
▁পঠাওতা	-10.9381
▁শুল্ক	-10.9381
▁Awal	-10.9381
▁Gnome	-10.9381
▁ইংলেণ্ড	-10.9381
▁উভতি	-10.9381
▁এলিয়াচ	-10.9381
▁লুকিয়ে	-10.9381
contact	-10.9381
▁gpg	-10.9381
▁স্মৃতিশক্তি	-10.9381
নিষ্পাপ	-10.9381
▁প্ৰতিকৃতি	-10.9381
▁পৱিত্	-10.9381
▁UPS	-10.9381
▁কেৰিয়াৰ	-10.9381
▁Bug	-10.9381
▁মাঝে	-10.9381
চাঁচা	-10.9381
বৰ্ড	-10.9381
▁ভঙা	-10.9381
▁পণ্য	-10.9381
▁নিদিব	-10.9381
▁নামাকৰণ	-10.9381
▁কিদৰে	-10.9381
▁চলুন	-10.9381
প্ৰচলিত	-10.9381
▁চলছে	-10.9381
▁বৃক্ক	-10.9381
razi	-10.9381
▁কৰণীয়	-10.9381
▁জৰ্জিয়	-10.9381
SPI	-10.9382
▁তেজপুৰ	-10.9382
▁স্ক্ৰোল	-10.9382
▁following	-10.9382
▁আপগ্ৰেড	-10.9382
ফোৰ্ড	-10.9382
▁খৰছ	-10.9382
Edit	-10.9382
▁কেন্দ্ৰস্থিত	-10.9383
▁অনুজ্ঞাপত্ৰ	-10.9383
▁বাৰ্স্ট	-10.9383
EMA	-10.9384
▁চুক্তিপত্ৰ	-10.9384
▁দুৰ্ঘটনামূলক	-10.9385
network	-10.9385
▁সফলভাবে	-10.9385
াণী	-10.9385
▁নহওক	-10.9386
▁ৰিভাৰ	-10.9386
▁2013	-10.9387
▁সোমবাৰ	-10.9387
▁দলবদ্ধ	-10.9388
hide	-10.9388
এক্সপ্ৰে	-10.9389
▁টিপে	-10.939
▁03:	-10.939
▁04:	-10.939
ulb	-10.939
nada	-10.9392
▁টাইপিং	-10.9394
▁বজায়	-10.9394
▁স্বীকৃতি	-10.9395
অৱস্থা	-10.9399
IE	-10.9399
▁কিৱাৰ্ড	-10.94
▁দুখন	-10.9402
▁ইন্	-10.9403
▁বিপদ	-10.9403
▁বাহিৰেও	-10.9405
▁ৰাখে	-10.9411
▁আঁতৰাওঁক	-10.9411
▁২২	-10.9414
▁সংগ্ৰহস্থলেৰ	-10.9414
▁প্রো	-10.9416
▁window	-10.9416
▁নোহোৱাকে	-10.9418
▁ইজাৰ	-10.9419
▁Ba	-10.9419
abh	-10.9421
abi	-10.9422
down	-10.9427
▁উপদেশিত	-10.9428
allow	-10.9429
চিঅ	-10.9433
▁একজন	-10.9434
ইষ্ট	-10.9436
username	-10.9437
gger	-10.9441
disc	-10.9444
EC	-10.9445
্তব্য	-10.9446
III	-10.9449
▁signature	-10.945
▁ধাৰাই	-10.9454
▁pipe	-10.9461
ভেল	-10.9461
▁প্ৰকল্পটি	-10.9466
▁106	-10.9468
ণ্ড্র	-10.9468
▁পৰীক্ষামূলক	-10.947
▁ঘটনাটি	-10.9471
▁ছেকেণ্ডৰ	-10.9472
▁16:	-10.9472
▁প্ৰাৰ্থীৰ	-10.9473
▁পক্ষে	-10.9477
▁প্ৰকাশন	-10.9481
(66)	-10.9489
▁আটক	-10.9489
ey	-10.949
VZ	-10.9496
▁পৰিসংখ্যান	-10.9499
▁নেটমিটিংৰ	-10.9502
Date	-10.9508
▁লুপ	-10.9513
▁কালদৈৰ্ঘ্যৰ	-10.9516
▁XP	-10.952
(146	-10.9524
▁34	-10.953
▁বিজেপিৰ	-10.9531
▁টোকাসমূহ	-10.9543
্রী	-10.9544
▁মুদ্ৰাৰ	-10.9545
▁জনাব	-10.9558
▁ব্যবহাৰেৰ	-10.958
tool	-10.958
▁কমপিউটাৰত	-10.9582
গুণ	-10.9583
▁url	-10.9611
▁পিক্সেলে	-10.962
শী	-10.9623
▁কম্পিউটাৰত	-10.9625
োভ	-10.9625
▁(4843)	-10.9633
▁নিবেশৰ	-10.9638
▁Ka	-10.9641
বাইন্ডিং	-10.9645
▁Kan	-10.9651
book	-10.9663
সী	-10.9664
▁nm	-10.9682
▁সূচনাপ্ৰদান	-10.9683
\-	-10.9683
cap	-10.9685
▁স্বীকাৰ	-10.9714
▁Dec	-10.9723
-7	-10.9726
ুচ	-10.9733
সীমা	-10.9736
▁কাৰনেল	-10.9737
▁ne	-10.974
index	-10.9743
current	-10.9746
নিৰ্বাচিত	-10.9746
কেৱল	-10.9748
▁language	-10.9752
মিটাৰ	-10.9755
▁VI	-10.9762
▁পদাৰ্থৰ	-10.9768
▁পেন	-10.9774
▁sa	-10.9779
▁(172	-10.9786
▁দিনেৰ	-10.979
▁জাপান	-10.98
▁পানীৰ	-10.98
মেয়ে	-10.9809
িডা	-10.986
চাম	-10.9869
any	-10.987
▁For	-10.988
▁2.2	-10.9885
পিএ	-10.9888
▁সম্বন্ধ	-10.9889
▁মনিটৰৰ	-10.9899
মিলি	-10.9902
জ্ঞ	-10.9905
▁পুন	-10.9915
▁ডাই	-10.992
▁gtk	-10.9931
সোঁফাল	-10.9931
▁বিনামূলীয়া	-10.9934
▁আমন্ত্ৰ	-10.9934
▁Gdk	-10.9936
▁প্ৰতীক	-10.9936
▁পৰিয়ালৰ	-10.9936
START	-10.9936
ন্টাৰ্কটিকা	-10.9936
▁virtio	-10.9936
(240783)	-10.9936
(24223)	-10.9936
Antarctica	-10.9936
Firefox	-10.9936
▁COMMAND	-10.9936
▁Display	-10.9936
▁TimeBrazil	-10.9936
▁UNIX	-10.9936
▁WebDAV	-10.9936
▁tmp	-10.9936
▁অসীমিত	-10.9936
▁অৰ্থনীতি	-10.9936
▁আইআৰডিএ	-10.9936
▁ইটালিয়ান	-10.9936
▁ইফফচো	-10.9936
▁ইয়ামাহা	-10.9936
▁উত্থাপন	-10.9936
▁উত্পাদক	-10.9936
▁উদ্ভূত	-10.9936
▁উপলক্ষে	-10.9936
▁কিলোমিটাৰ	-10.9936
▁চিক্ৰেট	-10.9936
▁ছেটিংছ	-10.9936
▁জিনিষ	-10.9936
▁দ্বৈত	-10.9936
▁পৰিবহণ	-10.9936
▁ব্যৱকৰোঁতা	-10.9936
▁ভভারতীয়	-10.9936
▁ভাৰ্চুয়াল	-10.9936
▁ভৌতিক	-10.9936
▁মন্দিৰ	-10.9936
▁যথাযত	-10.9936
▁লেপটপ	-10.9936
▁স্মাৰ্টকাৰ্ড	-10.9936
▁ৰেখাংকন	-10.9936
▁ৱালপেপাৰ	-10.9936
article	-10.9936
▁বাইণ্ডিং	-10.9936
▁বাহ্যিক	-10.9936
▁বিনিয়োগ	-10.9936
▁শিঙা	-10.9936
▁সম্মতি	-10.9936
▁সাবমেনু	-10.9936
у	-10.9936
▁কম্পাইল	-10.9936
▁কিলোবাইট	-10.9936
▁ড্ৰেগ	-10.9936
▁দিৱস	-10.9936
▁বিভেদন	-10.9936
▁শনিবাৰ	-10.9936
▁Pango	-10.9936
▁নিদিয়ে	-10.9936
▁Network	-10.9936
▁বিবৃতি	-10.9936
▁"{2}"	-10.9936
▁কৃষক	-10.9936
▁পাঠাতে	-10.9936
▁মুল্য	-10.9936
▁usb	-10.9937
▁পাঠ্যক্ৰম	-10.9937
▁(492)	-10.9937
▁বাওফাল	-10.9937
পাৰ্শ্ব	-10.9937
▁অধিনত	-10.9937
▁গিনি	-10.9937
▁ৰিয়াদ	-10.9937
▁থাকক	-10.9937
▁বিনেস	-10.9937
▁বুঢ়া	-10.9937
পেতিতে	-10.9937
▁ওয়াই	-10.9937
Bras	-10.9937
watchlist	-10.9937
▁hex	-10.9937
▁বাংলাদেশ	-10.9938
(620)	-10.9938
▁মিশ্ৰণ	-10.9938
(621)	-10.9938
edia	-10.9938
▁ইন্টাৰ্	-10.9938
▁স্টেচন	-10.9938
▁লিপী	-10.9939
▁হস্তচালিতভাৱে	-10.9939
▁অৱদান	-10.9939
entry	-10.9939
▁সাগৰ	-10.9939
RAM	-10.994
▁যৌথৰূপে	-10.994
ING	-10.9941
▁জনাওক	-10.9942
▁আঁতৰাওঁতে	-10.9942
▁উজ্জ্বলকৰণ	-10.9942
▁প্ৰশাসনিক	-10.9942
▁আৱৰ্ত	-10.9943
▁(31)	-10.9943
▁প্রদান	-10.9943
▁2012	-10.9944
▁কমেও	-10.9944
▁$1',	-10.9944
Device	-10.9944
যুগ্ম	-10.9944
▁সংস্থাৰ	-10.9944
গ্ৰা	-10.9944
▁ব্যৱহাৰকাৰীজনক	-10.9945
▁Back	-10.9945
rently	-10.9945
▁প্ৰস্তাবিত	-10.9946
Game	-10.9947
▁সবিশেষ	-10.9948
arga	-10.9949
▁ছুটি	-10.9951
▁বগা	-10.9951
▁Blu	-10.9952
lette	-10.9952
▁আন্তঃপৃষ্ট	-10.9954
▁২৬	-10.9954
▁বৰ্ণ	-10.9957
▁মাজে	-10.9957
▁14:	-10.9957
▁ৱেবপৃষ্ঠাটি	-10.996
▁(16)	-10.9964
১৫	-10.9966
▁অনুচ্ছেদেৰ	-10.9967
▁অভিগম্য	-10.9967
rate	-10.998
▁দুআ	-10.9982
▁ekiga	-10.9987
_$1	-10.999
▁(174	-10.9991
▁সৰ্বধৰনৰ	-10.9998
▁মিলিছেকেণ্ডত	-11
▁কেয়াৰ	-11.0006
▁first	-11.0009
▁যুৱক	-11.001
▁Create	-11.0021
▁Mozilla	-11.0032
=1	-11.004
▁cdr	-11.0043
▁কলেৰ	-11.0049
মাদ	-11.0058
cent	-11.006
▁52	-11.0062
▁কম্প	-11.0063
recurr	-11.0064
িঙৰ	-11.0075
৪৫	-11.0075
াৰ্ছ	-11.0078
▁প্ৰগ্ৰামসমূহ	-11.0078
▁রূপে	-11.0079
▁পিক্সেলসমূহ	-11.0092
▁২০০	-11.0104
▁ড্ৰাইভত	-11.0106
ফ্ৰি	-11.0109
cy	-11.011
ble	-11.0124
▁ভাৰতবৰ্ষৰ	-11.0136
াধিক	-11.0138
েটৰ	-11.0153
▁বাহনখনৰ	-11.0156
660	-11.0161
থান	-11.017
োনিয়া	-11.0173
iks	-11.0186
▁প্রাপ্ত	-11.0196
ক্ৰম	-11.0202
লীয়া	-11.0207
▁অনুলিপিপ্ৰাপক	-11.0219
▁তেখেত	-11.0221
চবাৰ্গ	-11.0223
▁43	-11.0225
long	-11.023
▁কৰ্মটি	-11.0234
লোম	-11.024
বৰ্তন	-11.0243
367	-11.0247
▁ৰুমত	-11.0248
▁(2651)	-11.0249
map	-11.0255
নেম	-11.0258
অন	-11.0274
▁বিভাগসমূহ	-11.0275
▁ৱেবচাইটত	-11.0286
▁অন্তৰ্	-11.0289
▁মূলধন	-11.0297
▁নিষ্	-11.03
▁বাঁও	-11.0302
▁ব্যবস্থাপনাৰ	-11.031
▁অবস্থানে	-11.0313
ın	-11.0316
অঞ্চল	-11.0321
পৃ	-11.0322
বড়	-11.0325
পঞ্জিকা	-11.0325
settings	-11.0331
CPU	-11.0335
সাধাৰণ	-11.0335
▁গঢ়ি	-11.0346
▁vo	-11.0351
ank	-11.036
▁new	-11.0367
ৰ্ষ	-11.0378
▁টেবসমূহ	-11.0381
▁গুণক	-11.0392
ত্যাগ	-11.04
▁অভিগম্যতাৰ	-11.0405
পক্ষ	-11.041
ুৱে	-11.0411
ডাটা	-11.0412
123	-11.0422
ead	-11.0425
▁তাহ	-11.0453
▁সুখ	-11.0457
▁Go	-11.0468
▁পৰাকৈ	-11.0471
েখে	-11.0475
ৰ্জ	-11.0481
র্ম	-11.0491
bster	-11.0494
local	-11.0495
ধৰণৰ	-11.0499
▁খুলি	-11.05
▁পেকেট	-11.0503
▁বৰ্ষ	-11.0517
▁আঁকাৰ	-11.0517
শাসন	-11.0521
▁কেলেণ্ডাৰ	-11.0521
▁আগবঢ়াই	-11.0521
▁ঋণ	-11.0524
д	-11.0525
Language	-11.0525
ঋ	-11.0525
হস্তমৈথুন	-11.0525
▁remote	-11.0525
Signature	-11.0525
Status	-11.0525
warning	-11.0525
ب	-11.0525
ی	-11.0525
▁Change	-11.0525
▁Thaani	-11.0525
▁dhcp	-11.0525
▁font	-11.0525
▁navigation	-11.0525
▁অভিবাদন	-11.0525
▁আধুনিক	-11.0525
▁ছেন্ট্ৰাল	-11.0525
▁টেছলা	-11.0525
▁টেলিপোৰ্ট	-11.0525
▁নিঃশব্দ	-11.0525
▁ন্যায়ালয়	-11.0525
▁পুয়েৰ্তো	-11.0525
▁পেটেণ্ট	-11.0525
▁প্ৰতিনিদ্ধিত্ব	-11.0525
▁প্ৰভৃতি	-11.0525
▁পৰিচালিত	-11.0525
▁পৰ্যালোচনা	-11.0525
▁বানপানী	-11.0525
▁ভট্টাচাৰ্য	-11.0525
▁মুহাম্মাদ	-11.0525
▁শক্তিশালী	-11.0525
▁সংলঘ্ন	-11.0525
▁সংৰক্ষীত	-11.0525
▁সঙ্গীত	-11.0525
▁স্ট্ৰাকচাৰ	-11.0525
▁হস্তান্তৰ	-11.0525
▁ৰক্ষাকৰ্ত্তা	-11.0525
Document	-11.0525
▁কাৰ্টুন	-11.0525
▁ঘুৰাওক	-11.0525
▁ফৰম্যাট	-11.0525
▁বিবাহৰ	-11.0525
▁ষ্টিফেন	-11.0525
interface	-11.0525
▁connection	-11.0525
▁ক্ৰিকেট	-11.0525
▁নিৰ্ণয়	-11.0525
▁পড়তে	-11.0525
▁বৈয়াম	-11.0525
write	-11.0525
▁কিধৰণে	-11.0525
▁স্টিকি	-11.0525
(831)	-11.0525
▁পচন্দ	-11.0525
▁পূর্ব	-11.0525
▁ফল্চ	-11.0525
▁ৰেটিং	-11.0525
▁পাহৰি	-11.0525
▁কনটেক্সট	-11.0525
▁ৰঞ্জিত	-11.0525
▁Adar	-11.0525
▁ইফালে	-11.0525
▁ট্ৰান্স	-11.0525
▁কৰবেন	-11.0525
▁GameName	-11.0525
সাক্ষাৎকার	-11.0525
▁শত্ৰু	-11.0525
delay	-11.0525
▁প্ৰযুক্তিবিদ্যা	-11.0525
definit	-11.0526
▁vCPU	-11.0526
▁প্রেরকের	-11.0526
▁নথিভুক্ত	-11.0526
(4744)	-11.0526
▁তোলক	-11.0526
big	-11.0526
▁পৰিচালনব্যৱস্থা	-11.0526
▁ৰাখুন	-11.0526
▁শিকক	-11.0526
offline	-11.0526
▁"2"	-11.0526
profile	-11.0526
চিল্কচ	-11.0526
redirect	-11.0527
▁cgi	-11.0527
▁base	-11.0527
▁দেওবাৰ	-11.0527
context	-11.0528
▁লুকা	-11.0528
▁চচমকানো	-11.0528
▁Doe	-11.0528
sig	-11.0528
angle	-11.0528
token	-11.0529
▁নহোৱাকৈ	-11.0529
ৰ্মুখি	-11.0529
▁পরিবর্তন	-11.0529
▁লেখো	-11.053
Netscape	-11.053
▁বিশ্বস্ত	-11.0531
▁SVCD	-11.0531
▁SIM	-11.0532
▁এক্সট্ৰ	-11.0533
France	-11.0533
উট	-11.0534
▁2020	-11.0534
older	-11.0534
▁পঠাই	-11.0534
}}',	-11.0536
▁উৎসস্থল	-11.0536
ness	-11.0536
▁(14)	-11.0536
▁লুকাই	-11.0537
▁নিবিচাৰে	-11.0538
▁শুভ	-11.0538
printer	-11.0541
▁More	-11.0546
▁৩২	-11.0546
▁00:	-11.0547
recent	-11.0548
ম্বো	-11.0548
▁(177	-11.0548
▁মাইক্ৰ	-11.0549
kar	-11.0549
▁ৰেণ্ডাৰ	-11.0551
**	-11.0551
▁চালনা	-11.0553
▁দেখানো	-11.0554
Devhelp	-11.0554
▁1.8	-11.0556
▁পলিচীয়ে	-11.0556
▁সেয়ে	-11.0558
িৱ	-11.0558
year	-11.0559
▁নিমজ	-11.056
updated	-11.0564
▁বেকিং	-11.0565
▁৬০	-11.0566
াৱী	-11.0566
FILE	-11.0566
▁তুৰ্কি	-11.0566
▁চৰকাৰী	-11.0567
▁প্ৰোগ্ৰামটি	-11.0568
▁নিবন্ধন	-11.057
▁method	-11.0578
ndi	-11.0582
▁দিয়েছে	-11.0583
ায়ন	-11.0583
▁বাটনেৰ	-11.0585
▁কৰিবলগীয়া	-11.0586
ren	-11.0589
▁System	-11.059
▁প্রযুক্তি	-11.059
▁জনলৈ	-11.059
▁বিয়প	-11.0592
▁প্ৰিন্টিং	-11.0596
▁dis	-11.0602
▁লাইনেৰ	-11.0603
▁KP	-11.0603
ুকু	-11.0611
▁mi	-11.0611
▁॥	-11.0614
▁পদ্ধতিতে	-11.0623
▁John	-11.0626
▁column	-11.0626
▁Mon	-11.0627
▁প্ৰতিবাৰ	-11.0636
▁max	-11.0638
ণ্ডি	-11.0641
▁কাজেৰ	-11.0649
ুণ	-11.0661
▁শেল	-11.0664
দিয়া	-11.0667
▁FD	-11.0668
nat	-11.0671
ক্ষি	-11.0675
ূদ	-11.0691
▁ভিতৰ	-11.0692
ফ্	-11.0705
JP	-11.0707
ওৱা	-11.0714
▁অবস্থাত	-11.0716
▁যেমন	-11.0716
▁settings	-11.0723
bar	-11.0726
▁বিষ	-11.0729
214	-11.0735
our	-11.0742
▁MS	-11.0744
অৰ্ধ	-11.0757
only	-11.0764
চেন্ট	-11.0777
▁শো	-11.0793
▁দিনবোৰ	-11.0794
disk	-11.0795
▁অনুপ্ৰয়োগে	-11.0799
প্ৰেছ	-11.0803
সোফাল	-11.0803
▁load	-11.0812
▁1.2	-11.0816
▁প্ৰভাৱসমূহ	-11.0821
৩৫	-11.0825
▁মেয়ে	-11.0826
ৱলী	-11.0833
▁DB	-11.0837
পিং	-11.0838
748	-11.0844
▁server	-11.0869
Pur	-11.087
▁সংঘঠনৰ	-11.0873
এছ	-11.088
▁ব্যৱহাৰকৰোঁতা	-11.0894
িংটন	-11.0897
▁তেওঁক	-11.0897
▁প্ৰতিষ্ঠানসমূহ	-11.0907
ন্ডাৰ	-11.0909
ভিত্তি	-11.0917
হ্	-11.0949
This	-11.0955
system	-11.0958
অন্ত	-11.0959
টুলবাৰ	-11.096
উদাহৰণস্বৰূপ	-11.096
TLS	-11.096
নথিপত্ৰ	-11.0961
আইকন	-11.0961
সাক্ষাৎকাৰ	-11.0961
গুপ্তশব্দ	-11.0961
বিন্দু	-11.0961
মিনিট	-11.0963
সংযুক্ত	-11.0964
নিয়ম	-11.0967
শব্দ	-11.0968
ুক্	-11.0972
▁বৃহ	-11.0977
নন্দ	-11.0978
▁It	-11.098
সংখ্যা	-11.0985
কালী	-11.0991
▁মাত্ৰ	-11.0994
ica	-11.0998
▁tooltip	-11.1004
▁°	-11.1004
▁ুলি	-11.101
icon	-11.1017
▁সত্	-11.1019
বন্টন	-11.1023
▁ৰঙেৰ	-11.1023
▁কোনটো	-11.1034
▁দলসমূহ	-11.1042
▁সংযুক্তি	-11.1057
ুণা	-11.1065
ঘাই	-11.1066
▁mac	-11.107
▁মিলিছেকেণ্ড	-11.1081
▁পৰিণতি	-11.1081
▁সন্দৰ্ভ	-11.1081
▁জামা	-11.1081
▁86	-11.1082
multi	-11.1083
লিঙ্ক	-11.1084
▁কাৰ্য্যসমূহক	-11.109
হোৱা	-11.1095
▁auth	-11.1105
626	-11.1108
▁Dev	-11.1121
গুই	-11.1129
▁বাৰ্ষিক	-11.1134
benchmarking	-11.1146
benchmark	-11.1146
▁হস্তচালিত	-11.1147
▁নীৰিক্ষ	-11.1147
▁ৰাষ্ট্ৰ	-11.1147
daemon	-11.1149
▁দ্বন্দ্ব	-11.1149
▁ঊৰ্ধ্ব	-11.115
▁বিশ্ল	-11.115
Benga	-11.115
privacy	-11.115
ö	-11.115
▁মনোনিবেষ	-11.115
Count	-11.115
VirtualBox	-11.115
accelerator	-11.115
bookmarks	-11.115
function	-11.115
reason	-11.115
session	-11.115
ঐচ্ছিক	-11.115
ন্যূনতম	-11.115
ভিগেটৰ	-11.115
▁INDIA	-11.115
▁MacOS	-11.115
▁SELinux	-11.115
▁growisofs	-11.115
▁when	-11.115
▁অনিৰাপদ	-11.115
▁অ্যাপলিকেশন	-11.115
▁আনুসাঙ্গিক	-11.115
▁আপেক্ষিক	-11.115
▁আবহাওয়া	-11.115
▁আহ্বান	-11.115
▁ইনস্ট্যান্স	-11.115
▁উদ্দিষ্ট	-11.115
▁এলুমিনিয়াম	-11.115
▁কেনেদৰে	-11.115
▁ক্ৰচহেয়াৰসমূহ	-11.115
▁গবেষনা	-11.115
▁চফ্টওৱেৰ	-11.115
▁চ্প্ৰিংচ	-11.115
▁ড্ৰুইড	-11.115
▁ত্ৰুটী	-11.115
▁ধাঁধা	-11.115
▁নিৰ্দ্দিষ্ট	-11.115
▁বাওঁহাতৰ	-11.115
▁বিশ্লেষক	-11.115
▁লাগিছে	-11.115
▁শুধুমাত্র	-11.115
▁সংসাধন	-11.115
▁সদৃশ	-11.115
▁সবের্াচ্চ	-11.115
▁স্প্লিট	-11.115
▁স্যুইট	-11.115
▁২০১৮	-11.115
▁ৰিসোৰ্স	-11.115
(46198)	-11.115
Format	-11.115
Shift	-11.115
micro	-11.115
please	-11.115
refix	-11.115
template	-11.115
▁class	-11.115
▁অনিয়মিত	-11.115
▁কৰ্মশালা	-11.115
▁চিৰিলিক	-11.115
▁বাৰংবাৰ	-11.115
▁শব্দকোষ	-11.115
▁সাইফাৰ	-11.115
▁সালসলনি	-11.115
▁নীতিমালা	-11.115
▁চেহাৰা	-11.115
▁জয়ন্ত	-11.115
▁বিখ্যাত	-11.115
anner	-11.115
▁VNC	-11.115
▁আকিবলে	-11.115
▁thread	-11.115
(2478)	-11.115
▁GIF	-11.115
▁TCP	-11.115
▁সন্মতি	-11.115
spec	-11.115
▁Bahman	-11.115
▁তোমাৰ	-11.115
▁লাইফ	-11.115
▁ৰেন্ডাৰ	-11.115
▁টয়লেট	-11.115
▁GPS	-11.115
▁ইবাদত	-11.115
দিনব্যাপী	-11.115
▁vCenter	-11.115
▁শ্ৰমিক	-11.115
▁prog	-11.115
▁than	-11.115
▁Messages	-11.115
▁বিভক্ত	-11.115
▁স্ক্ৰীন	-11.115
▁Inbox	-11.1151
▁সার্ভারের	-11.1151
▁আটলান্টিক	-11.1151
▁যাচাই	-11.1151
▁স্বআৰম্ভ	-11.1151
gress	-11.1151
▁যেসব	-11.1152
▁back	-11.1152
▁অপৰিবৰ্তিত	-11.1152
▁এনট্ৰি	-11.1152
▁চান্টা	-11.1152
▁জোড়া	-11.1152
▁গেছ	-11.1152
▁গাঢ়	-11.1152
▁হাউছ	-11.1152
▁vnc	-11.1153
▁শিশুসকলৰ	-11.1153
▁শিক্ষণ	-11.1154
▁নির	-11.1154
▁লেখাচিত্ৰ	-11.1154
▁আৰোপ	-11.1154
End	-11.1156
দর্শ	-11.1156
▁শোনা	-11.1157
▁মাৰ্কাৰ	-11.1157
লবাৰ্ট	-11.1157
▁GAL	-11.1158
▁CIN	-11.1158
▁আইলেণ্ড	-11.1158
▁নিয়ন্ত্ৰন	-11.1159
▁বিষয়টোৰ	-11.1159
▁আৰক্ষীয়ে	-11.1159
▁ভোট	-11.116
▁Nav	-11.116
▁আগবাঢ়িবলৈ	-11.116
▁জগত	-11.116
▁টানেল	-11.1161
▁সংগতি	-11.1161
invalid	-11.1162
▁পেজাৰ	-11.1164
(65)	-11.1164
▁Tir	-11.1164
▁বৈ	-11.1165
▁প্ৰতিবাদ	-11.1166
▁কলিতা	-11.1166
▁২৮	-11.1167
▁উন্নতি	-11.1167
▁অপ্ৰত্যাশিতৰূপে	-11.1168
▁উপকৃত	-11.1168
▁বৰ্ত্তমানে	-11.1169
বৰ্তী	-11.117
▁ৰাজ্যিক	-11.1171
গুলোকে	-11.1174
▁পেকেটসমূহ	-11.1177
▁ট্ৰা	-11.1177
ক্ল	-11.1181
▁application	-11.1182
▁মুনাজ্জিদ	-11.1182
▁টাইল	-11.1185
▁0.5	-11.1185
mot	-11.1187
▁50%	-11.1189
▁প্ৰস্তাবসমূহ	-11.1191
▁সাবফোল্ডাৰ	-11.1195
▁ডেকা	-11.1197
▁গীত	-11.1197
▁টিপিলে	-11.1202
▁KDED	-11.1203
▁FI	-11.1203
▁চন্দ্ৰ	-11.1207
deleted	-11.1209
▁জিস	-11.1212
আব্	-11.1217
▁bytes	-11.122
▁স্থানীয়ভাৱে	-11.1223
▁দৃশ্যমানতা	-11.1228
▁প্ৰতিনিধিত্ব	-11.1231
for	-11.1232
▁input	-11.1232
১০	-11.1238
421	-11.1241
▁ৰোগী	-11.1243
▁কাৰ্য্যালয়ে	-11.1244
▁কেজি	-11.1244
▁And	-11.1249
▁120	-11.1249
াত্	-11.1265
ীক্ষা	-11.1265
▁BO	-11.1273
▁মিটা	-11.1273
▁10.0	-11.1281
▁Maha	-11.1283
▁RFC	-11.1284
ত্‍	-11.1285
য্য	-11.1289
ৱেল	-11.1291
▁শাৰীসমূহ	-11.1291
LO	-11.1292
▁টপ	-11.1296
yan	-11.1297
▁pci	-11.1297
TY	-11.1298
স্থি	-11.1302
ভিয়া	-11.1305
Tue	-11.1308
▁প্ৰাপকসকলৰ	-11.1324
icons	-11.1327
▁স্বত্ব	-11.1343
▁Ne	-11.1354
▁800	-11.1356
Day	-11.1363
▁Tra	-11.1366
▁কিভাবে	-11.1371
▁index	-11.1374
▁ত্যাগ	-11.1375
▁কামতালিকা	-11.1375
পৰিস্থিতিতে	-11.1377
▁বাচক	-11.1378
▁book	-11.1379
শাহ	-11.1386
ark	-11.1409
▁প্রস্থ	-11.1412
▁ভাৰ্	-11.1416
গ্ৰহণকৰ্তাবৃন্দ	-11.1429
%%)।	-11.1434
ক্ৰিয়া	-11.1436
▁গ্ৰা	-11.1442
▁uri	-11.1458
এফ	-11.1461
ন্ত্র	-11.1476
ফেন	-11.1478
▁wiki	-11.1487
▁আহিব	-11.1506
াওঁ	-11.1512
▁লেখ	-11.1516
ফ্ল	-11.1529
▁int	-11.1537
▁প্ৰস্থেৰ	-11.1538
nav	-11.1548
Not	-11.156
▁বাহনখন	-11.1566
▁নম্বৰসমূহ	-11.1567
rames	-11.1569
▁MH	-11.1572
বাহি	-11.1572
(46585)	-11.1621
account	-11.1624
স্ক্ৰিন	-11.1625
নিৰ্ধাৰিত	-11.1626
▁100000	-11.1626
বিশ্বাস	-11.1627
টেক্স	-11.1627
সক্ৰিয়	-11.1628
▁ফ্ৰে	-11.1628
HTML	-11.1629
পোৱাৰ	-11.1629
মূল্য	-11.1634
Folder	-11.1634
ৱিকি	-11.1637
384	-11.164
▁বুজ	-11.1641
ছেকেণ্ডত	-11.1646
প্ৰকৃত	-11.1649
দৃষ্টি	-11.1655
2312	-11.1675
োৱে	-11.1676
▁bi	-11.1679
108	-11.1679
চেট	-11.1688
hit	-11.1695
doe	-11.1708
GB	-11.1743
▁বুটামসমূহ	-11.1766
▁ফ্লেশ	-11.1767
▁দুৰ্	-11.1786
ছ্	-11.1787
ONE	-11.1792
▁পাইলট	-11.1797
▁দায়বদ্ধ	-11.1797
জ্বল	-11.1799
▁sys	-11.1801
ডব্লিউ	-11.1804
▁স্থিতি	-11.1806
parent	-11.1806
সন্মত	-11.1806
▁সীমাবদ্ধ	-11.1807
▁গভীৰ	-11.1809
▁ভগ্ন	-11.1812
ه	-11.1815
▁অবিকল্প	-11.1816
recentchanges	-11.1816
▁চিকিত্সা	-11.1816
▁স্বাক্ষর	-11.1816
(12657)	-11.1816
(24207)	-11.1816
Organis	-11.1816
Orientation	-11.1816
stream	-11.1816
আগবাঢ়ক	-11.1816
নির্ধাৰিত	-11.1816
▁Buddy	-11.1816
▁February	-11.1816
▁GStreamer	-11.1816
▁SMART	-11.1816
▁STARTTLS	-11.1816
▁Science	-11.1816
▁Version	-11.1816
▁অনুসারে	-11.1816
▁অস্ত্ৰোপচাৰ	-11.1816
▁আগবঢ়াব	-11.1816
▁আনুষ্ঠানিক	-11.1816
▁ইণ্টাৰনেট	-11.1816
▁ইলেকট্ৰনিক	-11.1816
▁ইস্টাৰ্ন	-11.1816
▁উত্পাটন	-11.1816
▁উপসমষ্টি	-11.1816
▁কাৰ্যকাৰিতা	-11.1816
▁ক্যাৰেট	-11.1816
▁টেমপ্লেইট	-11.1816
▁ডেটাবেছ	-11.1816
▁ধুমুহা	-11.1816
▁ধৰ্মঘট	-11.1816
▁নিম্নৰেখিত	-11.1816
▁নেতৃত্ব	-11.1816
▁নৱেম্বৰ	-11.1816
▁পুৰোভূমি	-11.1816
▁পেৰেন্ট	-11.1816
▁প্ৰদূষণ	-11.1816
▁ফেষ্টিভেল	-11.1816
▁বহিষ্কৰণ	-11.1816
▁বিঘ্নিত	-11.1816
▁বিমানবন্দৰ	-11.1816
▁যথাযথ	-11.1816
▁শৈক্ষিক	-11.1816
▁সংঘটন	-11.1816
▁সংযোজিত	-11.1816
▁সম্প্ৰসাৰিত	-11.1816
▁হাস্পতাল	-11.1816
▁ৰেঙনী	-11.1816
(45721)	-11.1816
Check	-11.1816
createacc	-11.1816
queue	-11.1816
г	-11.1816
▁PATH	-11.1816
▁Spamassassin	-11.1816
▁আলজেৰিয়া	-11.1816
▁কোঁৱৰ	-11.1816
▁পাৰ্শ্বৰূপ	-11.1816
▁পৰিবৰ্তক	-11.1816
▁ভভিজা	-11.1816
▁মনোযোগ	-11.1816
▁হিব্ৰু	-11.1816
Office	-11.1816
split	-11.1816
▁again	-11.1816
▁অগ্ৰাধিকাৰ	-11.1816
▁ইউনিকোড	-11.1816
▁ডাটাবেছ	-11.1816
▁প্ৰাক্তন	-11.1816
▁মেসেজ	-11.1816
▁সংপৃক্তকৰণ	-11.1816
▁স্বতন্ত্ৰ	-11.1816
▁এড়িয়ে	-11.1816
▁পৰিষদ	-11.1816
▁ফাউণ্ডেশ্যন	-11.1816
▁এনেকুৱা	-11.1816
▁ব্ৰেণ্ড	-11.1816
▁সন্দেহ	-11.1816
▁ইউনিট	-11.1816
▁চুম্বক	-11.1816
▁যত্ন	-11.1816
▁পেকেজ	-11.1816
Org	-11.1816
▁August	-11.1816
▁মছলা	-11.1816
▁NAT	-11.1816
▁দোকান	-11.1816
▁সংশয়	-11.1816
NTLM	-11.1816
guest	-11.1816
▁খোঁজ	-11.1816
▁ভৰাওক	-11.1816
▁সঁচায়ক	-11.1817
Paper	-11.1817
propos	-11.1817
▁পুৰুষ	-11.1817
▁owner	-11.1817
permission	-11.1817
preferences	-11.1817
(839)	-11.1817
retty	-11.1817
▁PST	-11.1817
parse	-11.1817
▁ডায়েল	-11.1817
▁গ্ৰহন	-11.1817
▁কপিৰাইট	-11.1817
ashion	-11.1817
▁উচ্চতম	-11.1817
▁কাৰ্যক্ষমতা	-11.1817
iaries	-11.1817
▁ৰিস্ক	-11.1817
▁selected	-11.1818
▁অপৰাধ	-11.1818
▁বক্ল	-11.1818
▁গ্ৰাফিকেল	-11.1818
▁তাঁৰ	-11.1818
▁মেট্ৰিক	-11.1818
▁ASCII	-11.1818
▁রেল	-11.1818
▁বাক্য	-11.1818
(619)	-11.1818
▁সমিতি	-11.1819
▁কাৰ্যসূচী	-11.1819
▁অঙ্কুৰ	-11.182
▁গৃহীত	-11.182
▁পুনঃস্থাপন	-11.182
▁উপস্থাপন	-11.182
▁সর্ব	-11.182
▁অগ্নি	-11.1821
▁ইউৰো	-11.1821
▁অৱগত	-11.1821
▁পুনৰাবৃত্তিমূলক	-11.1821
▁নিৰীক্ষ	-11.1822
▁স্বাধীনতা	-11.1822
▁ভাৱবিনিময়ী	-11.1823
▁সংকট	-11.1823
make	-11.1823
zone	-11.1823
▁গভীৰতা	-11.1824
▁দূৰত্ব	-11.1824
▁(500)	-11.1825
▁Yau	-11.1825
▁পুলিচ	-11.1825
▁Jum	-11.1825
▁অলপতে	-11.1826
▁পৰিকল্পনাকাৰী	-11.1827
▁ইউৰোপিয়ান	-11.1827
▁খোলোতে	-11.1827
▁মাৰ্ক	-11.1828
▁সুজু	-11.1828
টেন্টৰ	-11.1829
Only	-11.183
▁প্রদর্শনের	-11.183
চৰ্চা	-11.1831
▁অধিকাংশ	-11.1833
▁Dai	-11.1834
▁ব্যবহাৰযোগ্য	-11.1834
▁বাঢ়ি	-11.1835
▁অৱস্থাসূচক	-11.1835
▁৩১	-11.1838
▁পেলায়	-11.184
▁স্বাক্ষৰণসমূহ	-11.1842
▁MY	-11.1842
▁ব্যৱস্থাপনাঃ	-11.1843
▁নগদ	-11.1843
▁Port	-11.1844
▁কম্পোনেন্টেৰ	-11.1844
▁ফেক্স	-11.1844
same	-11.1844
▁আহিলা	-11.1845
নিউ	-11.1846
▁মুহূৰ্তে	-11.1847
▁ডায়ালগেৰ	-11.1848
▁object	-11.1851
▁দো	-11.1851
▁Qt	-11.1851
core	-11.1854
▁অধিসূচ	-11.1856
▁বিকৃত	-11.1858
▁দেখুৱাবলৈ	-11.1858
ঢ়া	-11.1859
CID	-11.1859
▁ক্ষেত্রত	-11.1864
▁সৰ্বধৰণৰ	-11.1864
3.5	-11.1865
▁স্বাক্ষৰণ	-11.1866
▁drive	-11.1872
▁filter	-11.1874
▁ফোল্ডারের	-11.1877
▁গ্লেজ	-11.1878
▁অবচিত	-11.1878
উলকি	-11.1883
▁RGBA	-11.1885
▁চাবিয়ে	-11.1887
▁da	-11.189
▁ব্লকেৰ	-11.1898
▁আগবাঢ়িব	-11.1909
▁Cor	-11.1917
▁নিৰ্ভৰতা	-11.1919
▁দেশত	-11.1922
hell	-11.1924
▁sex	-11.193
▁কৰ্মৰত	-11.1931
▁kde	-11.1933
(2778	-11.1941
▁here	-11.1946
▁উৎসৱ	-11.1947
▁মহান	-11.1949
▁চাপলে	-11.1951
March	-11.1954
▁নথিপত্ৰপ্ৰণালী	-11.1955
নপত্ৰ	-11.1957
online	-11.1976
▁কেডব্লিউ	-11.1977
▁শুক	-11.1982
▁দিল্লীত	-11.1983
▁পেলা	-11.1993
▁প্ৰডাক্টসমূহ	-11.1998
▁110	-11.1999
▁খোলিবলৈ	-11.2001
▁calendar	-11.2001
▁দিও	-11.2011
▁বাতিলকৰণ	-11.2015
▁(46585)	-11.2015
▁লিংকসমূহ	-11.2025
▁This	-11.2029
519	-11.203
cam	-11.2031
ji	-11.2036
▁গৃহস্থত	-11.2047
মিং	-11.2053
্যাগ	-11.2057
ন্টন	-11.2062
িলি	-11.2067
point	-11.2087
ইণ্ড	-11.2091
310	-11.2106
▁জাপানি	-11.2107
খাই	-11.2123
▁ওৱা	-11.2125
Tri	-11.2155
▁bar	-11.2157
▁(233	-11.2158
োল্ড	-11.2168
proc	-11.2176
(67)	-11.2176
▁সিহত	-11.2181
512	-11.2203
চিও	-11.2211
▁সাক্ষাৎকাৰেৰ	-11.222
ade	-11.2231
ৈয	-11.2243
২৯	-11.2246
arp	-11.2249
াধি	-11.2249
নাং	-11.2252
3.0	-11.2268
শ্ন	-11.2303
DY	-11.2305
myco	-11.2309
দৃশ্য	-11.2325
সুৰক্ষিত	-11.2328
calendar	-11.2336
পাঠ	-11.2336
যেমন	-11.2337
URL	-11.2337
events	-11.2337
(4815)	-11.2338
পিক্সেল	-11.234
status	-11.234
from	-11.234
আৰম্ভ	-11.2341
পঠোৱা	-11.2341
ৰেচম	-11.2341
অজ্ঞাত	-11.2342
অধিক	-11.2342
সংস্কৰণ	-11.2343
স্বত্ব	-11.2344
আইডি	-11.2348
সেৱা	-11.2352
IPv	-11.2352
অন্য	-11.2352
▁নিজ	-11.2357
সময়ত	-11.2362
▁3.1	-11.2362
যোৱা	-11.237
о	-11.2377
্যাশ	-11.2381
এক্স	-11.2398
▁কোৰিয়া	-11.2408
▁প্ৰকল্পে	-11.2438
▁স্থাপনা	-11.2441
বেশি	-11.2457
ফ্ট	-11.2467
▁খোল	-11.248
mov	-11.248
▁শূণ্যস্থান	-11.2509
▁সংখ্য	-11.2511
kit	-11.2515
pid	-11.2518
▁মানসিক	-11.2524
small	-11.2529
exemplarCity	-11.2531
▁ال	-11.2531
strong	-11.2531
অপেশাদার	-11.2531
Config	-11.2531
policy	-11.2531
▁OpenGL	-11.2531
▁অৰুণাচল	-11.2531
▁চিৰিয়াখানা	-11.2531
▁প্যাকেজ	-11.2531
Certificate	-11.2531
Desktop	-11.2531
Shahrivar	-11.2531
active	-11.2531
dialog	-11.2531
overburn	-11.2531
popup	-11.2531
ছিষ্টেম	-11.2531
▁Bugzilla	-11.2531
▁Libisofs	-11.2531
▁Plasma	-11.2531
▁Radio	-11.2531
▁TIFF	-11.2531
▁pronunciation	-11.2531
▁quality	-11.2531
▁receive	-11.2531
▁regex	-11.2531
▁shanbe	-11.2531
▁software	-11.2531
▁অপ্ৰয়োজনীয়	-11.2531
▁অপ্ৰাকাশিত	-11.2531
▁অ্যাকউন্ট	-11.2531
▁আরম্ভ	-11.2531
▁ইণ্ডেন্ট	-11.2531
▁উল্লম্ব	-11.2531
▁এক্সটেন্ডেড	-11.2531
▁এন্টাৰপ্ৰাইজ	-11.2531
▁কাৰ্য্যকলাপ	-11.2531
▁চিমসংযোগ	-11.2531
▁ছাড়ুন	-11.2531
▁টেলিপেথী	-11.2531
▁ডিচ্চাৰ্জ	-11.2531
▁ডিসপ্লে	-11.2531
▁থিয়েটাৰ	-11.2531
▁ধনাদায়	-11.2531
▁ধোঁৱা	-11.2531
▁পাকিস্তান	-11.2531
▁পিক্সমেপ	-11.2531
▁প্রাধান্য	-11.2531
▁প্ৰজাতন্ত্ৰ	-11.2531
▁প্ৰায়োগিক	-11.2531
▁পৰিৱহন	-11.2531
▁বিষাক্ত	-11.2531
▁যতিচিহ্ন	-11.2531
▁শংকৰদেৱ	-11.2531
▁শিক্ষনবীশ	-11.2531
▁শ্ৰেণীবিভাজন	-11.2531
▁সঙ্কলন	-11.2531
▁সহযোগিতা	-11.2531
▁সাঙ্কেতিক	-11.2531
TEXT	-11.2531
▁secure	-11.2531
▁চাউথ	-11.2531
▁শিকাৰু	-11.2531
Islam	-11.2531
contributions	-11.2531
▁আন্তঃৰাষ্ট্ৰীয়	-11.2531
▁উদ্ভাৱন	-11.2531
▁কেচুৱা	-11.2531
▁সেশান	-11.2531
▁স্ক্যান	-11.2531
▁অঁ্যা	-11.2531
▁উচ্চাৰণ	-11.2531
▁Sided	-11.2531
▁অতিমাত্রা	-11.2531
▁আলোকপাত	-11.2531
▁জুবিন	-11.2531
▁সেইবাবে	-11.2531
▁KiB	-11.2531
kvm	-11.2531
▁বেভেলৰ	-11.2531
▁(18+)	-11.2531
▁kbit	-11.2531
▁ধ্ব	-11.2531
▁PDF	-11.2531
▁হৰফেৰ	-11.2531
▁ভালেমান	-11.2531
▁%1$	-11.2531
State	-11.2531
Info	-11.2531
▁December	-11.2531
▁পঞ্জী	-11.2531
▁Auto	-11.2531
▁মূল্যবান	-11.2531
Full	-11.2531
তলিকায়	-11.2531
▁ঠিকনাবহী	-11.2531
▁সোণোৱাল	-11.2531
▁ৰঞ্জন	-11.2531
ан	-11.2531
▁বিদ্যুৎ	-11.2531
(826)	-11.2531
▁শৃংখল	-11.2531
▁(*.	-11.2531
▁মিডিয়াৱিকি	-11.2531
▁প্ৰতিষ্ঠাপক	-11.2532
▁close	-11.2532
▁গোচৰ	-11.2532
▁ৰেঞ্জ	-11.2532
▁নাগৰিকত্ব	-11.2532
▁যোৱাকালী	-11.2532
(630)	-11.2532
▁ক্লৌন	-11.2532
▁~/.	-11.2532
▁কার্য	-11.2532
▁মাইগ্রে	-11.2532
▁সম্ভাৱ্য	-11.2532
preview	-11.2533
▁ৰেডিও	-11.2533
দৈত্য	-11.2533
তত্ত্ব	-11.2533
verb	-11.2533
▁মিলিমিটাৰ	-11.2533
.239	-11.2533
soft	-11.2533
▁REC	-11.2534
▁Vino	-11.2534
NV	-11.2534
mark	-11.2534
াজী	-11.2534
ANI	-11.2534
▁কোডেক	-11.2534
▁ইউজাৰ	-11.2534
CRL	-11.2534
hostname	-11.2535
▁গরম	-11.2535
▁(71)	-11.2535
▁বোৰ্ডে	-11.2537
অফিচৰ	-11.2537
▁2014	-11.2537
▁পৰিপূৰ্ণ	-11.2539
timeout	-11.254
▁বছা	-11.254
lash	-11.2541
ক্রিয়া	-11.2541
▁মাস্টাৰ	-11.2541
▁numa	-11.2542
▁ভংগ	-11.2543
▁কেতিয়াবা	-11.2543
▁কালত	-11.2543
▁অদৃশ্য	-11.2544
▁সীমান্ত	-11.2545
▁Data	-11.2545
২০১০	-11.2546
▁লগাওক	-11.2547
rank	-11.2547
▁125	-11.2548
▁বুধ	-11.2548
▁2006	-11.2548
▁ডাঃ	-11.2549
▁সীমাবদ্ধতা	-11.255
▁শেহতীয়াকৈ	-11.2552
েশ্বন	-11.2553
arba	-11.2553
stand	-11.2554
▁ডিবাগিং	-11.2556
াভা	-11.2556
▁bir	-11.2557
▁অপেক্ষাৰত	-11.2558
▁চ্যানেলেৰ	-11.256
Hz	-11.256
▁GPL	-11.2561
▁বিলোপ	-11.2567
▁channel	-11.2567
▁সাম্প্ৰতিক	-11.2567
▁Sum	-11.2568
▁সন্ধানহীন	-11.2568
▁ভূমি	-11.2569
▁দাবি	-11.257
ized	-11.257
▁fork	-11.2572
▁অস্থায়ীভাৱে	-11.2575
▁কালৰ	-11.2577
▁encoding	-11.2582
▁something	-11.2582
▁শাস্ত্ৰ	-11.2582
াইজড	-11.2583
▁অন্যথা	-11.2584
তকৈও	-11.2585
অৰুণ	-11.2587
comment	-11.2591
▁ইবনে	-11.2597
গুয়ে	-11.2597
▁সংযুক্তকাৰী	-11.2598
▁CO	-11.2602
▁পইন্ট	-11.2604
▁DN	-11.2618
▁program	-11.2626
Mode	-11.263
▁আগতেই	-11.2633
▁প্ৰথমতে	-11.2636
▁অধিকাৰী	-11.2644
▁শিৰোনামা	-11.2655
েশ্বৰ	-11.2657
Comm	-11.266
▁বহিয়েত	-11.2675
োৰ্চ	-11.268
▁ৰাখিবলে	-11.271
▁টেক্সটটি	-11.2712
▁থিমেৰ	-11.2712
▁নৈ	-11.2716
2007	-11.2722
▁প্ৰকল্পটো	-11.2726
থাই	-11.274
শ্যন	-11.2742
251	-11.2765
▁টেগসমূহ	-11.2771
oby	-11.2793
প্ৰণালী	-11.2799
বেদন	-11.2804
স্ট্ৰি	-11.2817
tta	-11.2818
▁কাৰনে	-11.2828
প্ৰাপকসহ	-11.2845
hain	-11.2848
লিংক	-11.2849
▁বিদ	-11.2873
গিন	-11.2876
▁Bhar	-11.2884
▁সৰঞ্জামসমূহ	-11.2897
CK	-11.2906
ৱৰ্ত	-11.2911
2.1	-11.294
▁কোম্পানীসমূহ	-11.2957
▁xen	-11.2971
col	-11.2986
▁অভিধানত	-11.2988
ন্ডো	-11.2991
রূপে	-11.2994
822	-11.3005
্ভ	-11.302
টোৱেই	-11.3036
▁ড্ৰ	-11.3067
জীৱন	-11.3074
Share	-11.3075
▁আলেখ্যসমূহ	-11.3076
212	-11.3084
Dec	-11.3105
Wacom	-11.3107
উন্নয়ন	-11.3109
জ্যোতি	-11.3109
স্বাভাৱিক	-11.311
প্ৰাথমিক	-11.311
libvirt	-11.311
বিশিষ্ট	-11.311
সৰ্বাধিক	-11.3111
প্ৰিন্ট	-11.3111
ব্যক্তিগত	-11.3111
দ্ৰুত	-11.3111
অনুগ্ৰহ	-11.3112
বৃদ্ধি	-11.3112
উলম্ব	-11.3114
আপনাৰ	-11.3115
Web	-11.3115
১৪	-11.3116
ভাৰতীয়	-11.3119
অডিঅ	-11.3124
Feb	-11.3126
▁খুল	-11.3126
Google	-11.3126
▁এশ	-11.3131
াৰ্জ	-11.3135
ode	-11.3141
ফ্ৰ	-11.3147
▁180	-11.3157
▁DA	-11.3174
FLA	-11.318
অকল	-11.3197
ছাইট	-11.3223
াপ্তি	-11.3225
▁আঁতৰাওঁ	-11.3248
ষ্ঠি	-11.3253
গণ	-11.3255
▁বিপৰ্য্যয়	-11.3256
পাঠেৰ	-11.3267
bus	-11.3273
▁শক্ত	-11.3283
▁কম্পোস	-11.3293
▁ভাৱবিনিময়	-11.3293
▁শ্লোভাক	-11.3295
▁দৈৰ্ঘ	-11.3296
▁শুক্ৰ	-11.3297
এইটো	-11.3298
и	-11.3299
Daemon	-11.33
▁দূৰ্ঘটনা	-11.33
▁ব্ৰাজিল	-11.33
(12658)	-11.33
(242162)	-11.33
Developer	-11.33
Organizer	-11.33
location	-11.33
result	-11.33
territory	-11.33
য়েলচুদাচুদিছভি	-11.33
▁Abies	-11.33
▁BIOS	-11.33
▁Black	-11.33
▁CUPS	-11.33
▁CalDAV	-11.33
▁Class	-11.33
▁Libvirt	-11.33
▁Mission	-11.33
▁Zhong	-11.33
▁copy	-11.33
▁individual	-11.33
▁photo	-11.33
▁translation	-11.33
▁vCalendar	-11.33
▁vendor	-11.33
▁অগ্রাধিকাৰ	-11.33
▁অথোৰিটি	-11.33
▁অসামৰিক	-11.33
▁আগবঢ়ায়	-11.33
▁আন্তৰ্জাতিক	-11.33
▁আমদানী	-11.33
▁উইজাৰ্ড	-11.33
▁উলিওৱা	-11.33
▁কনফিগারেশন	-11.33
▁গ্ৰন্থপঞ্জী	-11.33
▁গ্ৰেপ্তাৰ	-11.33
▁গৱেষক	-11.33
▁টাৰ্মিনাল	-11.33
▁ডকাইতি	-11.33
▁ডানদিকে	-11.33
▁ডিজিটাল	-11.33
▁তথ্যসংগ্ৰহ	-11.33
▁ত্রুটি	-11.33
▁ত্ৰিভূজ	-11.33
▁ধার্য	-11.33
▁ধ্ৰুৱক	-11.33
▁নিম্নৰেখাঙ্কন	-11.33
▁নেইমস্পেইচ	-11.33
▁নেটওয়াৰ্ক	-11.33
▁পরিচিতিদের	-11.33
▁পাসওয়ার্ড	-11.33
▁পুঞ্জীভূত	-11.33
▁পুৰস্কাৰ	-11.33
▁প্ৰগ্ৰেছ	-11.33
▁পৰিৱৰ্ত্তন	-11.33
▁ফিংগাৰপ্ৰিন্ট	-11.33
▁বিক্ষিপ্ত	-11.33
▁ব্ল্যাকজ্যাক	-11.33
▁ভাইৰেল	-11.33
▁মছজিদ	-11.33
▁সামগ্রী	-11.33
▁হিন্দি	-11.33
▁হিসেবে	-11.33
Delete	-11.33
INFO	-11.33
Source	-11.33
bridge	-11.33
joh	-11.33
unknown	-11.33
তিনিচুকীয়া	-11.33
সাংবাদিক	-11.33
▁Express	-11.33
▁Photo	-11.33
▁commit	-11.33
▁pluginview	-11.33
▁অবৰোধ	-11.33
▁এক্সপ্ৰেশন	-11.33
▁গিয়েছে	-11.33
▁প্রস্তুত	-11.33
▁প্ৰচ্ছদ	-11.33
▁প্ৰান্তৰেখা	-11.33
▁ভগিনীসংঘ	-11.33
▁শ্ৰীগুণম	-11.33
▁সমান্তৰাল	-11.33
▁ৰাছুল	-11.33
▁ৰাছুলুল্লা	-11.33
(46558)	-11.33
Downkeyboard	-11.33
▁Country	-11.33
▁ইন্টাৰফে	-11.33
▁ছাৰ্বিয়া	-11.33
▁ফাৰ্মৱেৰ	-11.33
▁সঘনে	-11.33
merge	-11.33
qcow	-11.33
▁common	-11.33
▁ইফেক্ট	-11.33
▁ৰুচীয়	-11.33
loop	-11.33
▁জীয়াই	-11.33
▁জৈৱ	-11.33
▁হিমন্ত	-11.33
▁অভিলেখ	-11.33
▁পৰ্টেল	-11.33
▁import	-11.33
▁অধ্যক্ষ	-11.33
▁বিশদ	-11.33
▁স্তুতি	-11.33
/2015	-11.33
▁গুগল	-11.33
ণ্ড্রুন্দীবর়	-11.33
fail	-11.33
▁Hard	-11.33
▁এগিয়ে	-11.33
▁ৱিকিপিডিয়া	-11.33
▁দখল	-11.33
Upkeyboard	-11.33
নিৰ্ব্বাচ	-11.33
▁ঈশ্বৰ	-11.33
▁ইনক্ৰিপ্টেড	-11.33
NGO	-11.33
▁ইহতক	-11.33
▁ট্ৰিগাৰ	-11.33
▁ফ্ৰী	-11.33
▁ভৰণি	-11.33
(13080)	-11.33
▁802.1	-11.33
progress	-11.33
▁ধাৰণক্ষমতা	-11.33
KEY	-11.33
▁দবোৱা	-11.33
▁শৰীৰ	-11.33
▁Java	-11.33
tasklist	-11.33
▁নেটলিঙ্ক	-11.33
টকিয়	-11.33
▁বনাব	-11.33
▁উলিয়াই	-11.33
▁কুশল	-11.3301
(845)	-11.3301
▁গ্ৰুপেৰ	-11.3301
▁Out	-11.3301
▁পাউণ্ড	-11.3301
UTC	-11.3301
▁চলাকালীন	-11.3301
▁যাত্ৰী	-11.3301
upload	-11.3301
▁অপসাৰিত	-11.3301
peer	-11.3301
▁পৰোক্ষ	-11.3301
▁সূত্ৰ	-11.3301
▁ৰেখাচিত্ৰ	-11.3301
▁ডেভেল	-11.3301
Porn	-11.3301
▁চেকবক্স	-11.3301
▁মাৰ্কেটিং	-11.3302
▁পেশী	-11.3302
▁ৰীমা	-11.3302
▁uid	-11.3302
▁more	-11.3302
▁যন্ত্র	-11.3302
াবধানতা	-11.3302
exist	-11.3303
▁চাইলে	-11.3303
▁মাৰ্কআপ	-11.3303
MAIL	-11.3303
▁পাবলিক	-11.3303
ন্চিঅ	-11.3303
▁WiFi	-11.3303
▁Media	-11.3303
▁স্বল্প	-11.3304
▁তাৰপিছত	-11.3304
iff	-11.3304
▁inmenu	-11.3304
▁আগবঢ়াইছে	-11.3304
▁বৃত্তি	-11.3304
ENT	-11.3305
▁সুবিধাজনক	-11.3305
▁৫৯	-11.3306
▁পাশে	-11.3306
▁Book	-11.3306
▁বার্তাগুলি	-11.3306
▁চিফাৰ	-11.3307
াৰ্ভাৰ	-11.3307
▁কাৰীম	-11.3308
▁Home	-11.3308
▁PIM	-11.3308
▁জিপ	-11.3308
▁ভগ্নী	-11.3308
কোমল	-11.3309
▁কাৰ্যতালিকা	-11.3309
▁খালী	-11.3309
▁পাৰোঁ	-11.331
▁স্কেইলিং	-11.331
▁DBus	-11.331
▁07:	-11.3311
(18	-11.3311
▁বেঙ্ক	-11.3311
▁2015	-11.3312
bian	-11.3313
distribute	-11.3313
-12-	-11.3314
▁নতুনতম	-11.3314
▁ফৰমায়	-11.3314
▁কৰছেন	-11.3314
next	-11.3315
▁টেনে	-11.3316
Created	-11.3316
win	-11.3317
▁সাজু	-11.3319
▁2005	-11.332
▁স্নিপেটসমূহ	-11.3323
▁ম্যাদী	-11.3324
bot	-11.3325
▁শৰ্মাই	-11.3325
▁পশ্চিমা	-11.3325
▁পরীক্ষণে	-11.3325
▁বৃহস্পতিবাৰ	-11.3327
▁ইউৰোপীয়	-11.333
াকৰন	-11.3331
▁into	-11.3331
▁পাঠ্য	-11.3334
আমীন	-11.3334
▁365	-11.3339
▁জুই	-11.334
▁উল্লেখযোগ্য	-11.3341
cue	-11.3341
▁বিপৰ্য্যয়সমূহ	-11.3344
▁ডিগ্ৰিসমূহ	-11.3344
▁সহজতে	-11.3346
▁খেলোয়াড়েৰ	-11.3349
▁নাপালে	-11.3349
টেন	-11.3354
৭০	-11.3356
▁বজাত	-11.3359
▁লগোৱা	-11.3361
▁বিশেষকৈ	-11.3362
োঁতে	-11.3367
▁যুক্তি	-11.3367
▁ডাঙৰকৈ	-11.337
172	-11.3379
▁প্ৰকৃততে	-11.3382
মাণ	-11.3384
▁দিনটোৰ	-11.3392
▁অনুসন্ধানের	-11.3403
862	-11.3405
▁সাৰ্টিফিকেটটি	-11.3409
▁মানচিত্ৰসমূহ	-11.3409
সেভাৰ	-11.341
▁কামৰূপ	-11.3411
▁কাষবাৰত	-11.3416
▁কুকিসমূহ	-11.3418
নেচ	-11.3422
ৰিফ	-11.3424
509	-11.3437
346	-11.344
▁ঠিকানায়	-11.3441
▁গণক	-11.3443
▁Cap	-11.3443
hol	-11.3472
▁নিৰ্ব	-11.3472
▁প্ৰদানকাৰীসকল	-11.3474
জাবলৈ	-11.3492
ড়ে	-11.3508
লম্ব	-11.3517
▁বৃহত	-11.3535
1000	-11.3567
▁৪০	-11.3593
▁Par	-11.3613
▁প্	-11.3623
▁ৰাখ	-11.3633
ুগ	-11.3638
গৈ	-11.3649
▁অংশবোৰ	-11.365
জেন	-11.3658
DSA	-11.3668
▁ML	-11.3682
600	-11.3682
িংচ	-11.3689
bin	-11.3701
▁ৰাশি	-11.3703
▁IV	-11.3706
সকললৈ	-11.371
ৱর্	-11.3745
ndro	-11.3746
▁অগ্	-11.3751
গামী	-11.3777
ষি	-11.3794
্যান্ড	-11.3804
প্লে	-11.3811
5,000	-11.3868
াজাতীয়	-11.3874
▁মুদ্ৰা	-11.3875
Wed	-11.3884
িন্ন	-11.3892
কাৰ্য	-11.3917
পৰিস্ৰাৱক	-11.3941
pci	-11.3942
section	-11.3943
ওপৰত	-11.3944
ব্যৱহৃত	-11.3945
জড়িত	-11.3949
প্ৰয়োগ	-11.3949
কেডব্লিউ	-11.395
পঢ়া	-11.3953
uro	-11.3954
প্ৰদান	-11.3959
tip	-11.396
পাঁচ	-11.396
ancell	-11.3978
▁exe	-11.3981
গোহাঁইৰ	-11.3982
▁সম্পাদ	-11.3989
ৰোনাত	-11.3997
pon	-11.4022
▁600	-11.4032
▁কাৰ্য্যকৰ	-11.4032
সেট	-11.4033
স্তু	-11.4073
▁পঞ্চম	-11.4077
ঘাট	-11.4085
Dei	-11.4086
ভোগ	-11.4093
▁স্নিপেট	-11.4108
▁পাৰবে	-11.4116
ncell	-11.4123
▁স্লাইড	-11.4125
▁স্বাধীন	-11.4126
▁memo	-11.4128
▁পৰ্যবেক্ষ	-11.413
board	-11.4132
Social	-11.4133
field	-11.4133
region	-11.4133
▁trans	-11.4133
External	-11.4133
কনট্ৰাস্ট	-11.4133
align	-11.4133
▁মঙ্গোলিয়া	-11.4133
Split	-11.4133
confirm	-11.4133
▁Clutter	-11.4133
▁reply	-11.4133
▁আগুৱাই	-11.4133
▁নেটওয়ার্ক	-11.4133
▁প্ৰশ্নোত্তৰ	-11.4133
▁সাপ্লি	-11.4133
▁সাবস্ক্ৰিপশন	-11.4133
▁ৰিকাৰ্ছিভ	-11.4133
107621	-11.4133
BSSID	-11.4133
Battery	-11.4133
CalItem	-11.4133
Dictionary	-11.4133
Family	-11.4133
GDateTime	-11.4133
Statistic	-11.4133
endOptionsWithin	-11.4133
manager	-11.4133
metadata	-11.4133
python	-11.4133
screen	-11.4133
yrillic	-11.4133
দেউতাক	-11.4133
নৱমুছলিম	-11.4133
সংগৃহীত	-11.4133
▁--------	-11.4133
▁ALSA	-11.4133
▁Author	-11.4133
▁Client	-11.4133
▁GnuPG	-11.4133
▁PostScript	-11.4133
▁Smith	-11.4133
▁Tevet	-11.4133
▁VoIP	-11.4133
▁WiMAX	-11.4133
▁published	-11.4133
▁sendmail	-11.4133
▁wifi	-11.4133
▁অপাৰেশনটি	-11.4133
▁অ্যাকশন	-11.4133
▁অৱলোকন	-11.4133
▁আনপ্লাগ	-11.4133
▁আপেক্ষক	-11.4133
▁আৰ্গুমেন্ট	-11.4133
▁ইনস্ট্যান্ট	-11.4133
▁ইমুলেটৰ	-11.4133
▁উদযাপন	-11.4133
▁এপিফেনি	-11.4133
▁এপ্লিকেশ্বন	-11.4133
▁ওয়াৰেন্টি	-11.4133
▁কাহিনী	-11.4133
▁কেৰেক্টাৰ	-11.4133
▁ঘড়ী	-11.4133
▁ঘূৰ্ণীবতাহ	-11.4133
▁চূড়ান্ত	-11.4133
▁জাভাস্ক্ৰিপ্ট	-11.4133
▁টেন্র্ফ	-11.4133
▁ট্ৰেইলাৰ	-11.4133
▁ডিক্ৰিপষণ	-11.4133
▁তিলাৱাত	-11.4133
▁তীব্ৰ	-11.4133
▁নুশুধিব	-11.4133
▁পৃথিবীৰ	-11.4133
▁প্ৰতিযোগিতা	-11.4133
▁প্ৰত্যাহ্বান	-11.4133
▁প্ৰাইভেট	-11.4133
▁পৰিবৰ্ত্তন	-11.4133
▁পৰীক্ষাৰ্থীৰ	-11.4133
▁বাহুসন্ধিমূল	-11.4133
▁মাল্টিকাস্ট	-11.4133
▁মেয়াদপূৰ্তীৰ	-11.4133
▁মোৎজাৰ্ট	-11.4133
▁শীঘ্ৰ	-11.4133
▁সতৰ্কতামূলক	-11.4133
▁সন্মিলন	-11.4133
▁সাক্ষৰতা	-11.4133
▁সাবস্ক্র	-11.4133
▁সাম্প্ৰদায়িক	-11.4133
▁স্ক্ৰিনছেইভাৰ	-11.4133
▁স্বৰাঘাত	-11.4133
▁স্যাম্পেল	-11.4133
▁হ্যান্ডলাৰ	-11.4133
▁২০১৭	-11.4133
▁ৰেজিস্ট্ৰি	-11.4133
resetpass	-11.4133
▁Fact	-11.4133
▁find	-11.4133
▁happen	-11.4133
▁আৰ্মেনিয়	-11.4133
▁কাৰখানা	-11.4133
▁চেহেৰা	-11.4133
▁দম্পতি	-11.4133
▁দিয়োতে	-11.4133
▁সময়ৰেখা	-11.4133
▁ইটালিক	-11.4133
▁চানেকি	-11.4133
▁টোগল	-11.4133
▁ব্ৰেকেট	-11.4133
▁মাছাইল	-11.4133
▁লিগেল	-11.4133
▁হ্যান্ডেল	-11.4133
define	-11.4133
peak	-11.4133
▁তোমাক	-11.4133
▁প্ৰসস্ত	-11.4133
orrupt	-11.4133
▁(4795)	-11.4133
▁লুকআপ	-11.4133
buddy	-11.4133
▁free	-11.4133
▁আল্ফা	-11.4133
▁registered	-11.4133
(4559)	-11.4133
স্নাতক	-11.4133
▁সদস্যপদ	-11.4133
▁END	-11.4133
▁জৰুৰীকালীন	-11.4133
▁মঙল	-11.4133
▁মহানগৰীৰ	-11.4133
▁নিদিলে	-11.4133
▁জিতেন্দ্	-11.4133
▁বাগিচা	-11.4133
▁কাৰ্সাৰ	-11.4133
▁সোধক	-11.4133
▁বিস্তৃত	-11.4133
▁DST	-11.4133
▁ছাইড	-11.4133
specialpages	-11.4133
▁নোটবুক	-11.4133
▁সঙ্গে	-11.4133
wait	-11.4134
▁(127)	-11.4134
▁এনেদৰে	-11.4134
▁tty	-11.4134
charset	-11.4134
▁বিষ্ণু	-11.4134
هر	-11.4134
▁সৰ্বাত্মক	-11.4134
▁শ্বেয়াৰ	-11.4134
▁আয়োগৰ	-11.4134
رد	-11.4134
▁বাঁওফালে	-11.4134
▁কম্বোবক্স	-11.4134
▁April	-11.4134
▁Bahof	-11.4134
▁details	-11.4134
▁নিম্নবৰ্তী	-11.4134
▁রঙ	-11.4134
▁ইনফিল	-11.4134
এপ্ৰিল	-11.4134
▁নাছিৰ	-11.4134
▁ইন্টাৰেক্ট	-11.4135
▁ইঞ্জিনিয়াৰ	-11.4135
▁স্টেপাৰ	-11.4135
▁Films	-11.4135
(4773)	-11.4135
▁enable	-11.4135
dump	-11.4135
▁Save	-11.4135
▁without	-11.4135
▁draw	-11.4135
house	-11.4135
বুৰ্গ	-11.4135
▁তাগিদটিকে	-11.4135
আচলতে	-11.4135
র্ষ	-11.4136
▁এনেধৰণৰ	-11.4136
▁শব্	-11.4136
▁সৰ্বস্বত্	-11.4136
▁প্লেইনটেক্সট	-11.4136
▁বেইনচ্	-11.4136
▁পৰিচিতিদেৰ	-11.4136
▁চলাচল	-11.4136
▁গগৈ	-11.4137
▁পৌৰ	-11.4137
▁সুচী	-11.4137
▁আতৰত	-11.4137
▁বিনামূলীয়াকৈ	-11.4137
▁বীজবিলাক	-11.4138
▁দোষ	-11.4138
▁ৱারি	-11.4138
▁বুদ্ধিমান	-11.4139
▁Apr	-11.4139
▁ট্ৰেডিং	-11.4139
pcs	-11.414
▁সহনীয়	-11.414
just	-11.414
▁কাৰ্য্যক্ষমতা	-11.414
▁লোকসকলৰ	-11.4143
āra	-11.4144
চিত্র	-11.4144
Recent	-11.4144
▁ব্ৰাউছিং	-11.4144
▁বহিস্থ	-11.4145
▁XPM	-11.4146
▁(25)	-11.4146
▁ষ্টক	-11.4147
▁আলোকত	-11.4147
▁প্রক্সির	-11.4148
▁Aza	-11.4148
▁Bura	-11.4149
ক্লান্ত	-11.415
▁pri	-11.415
▁বছৰীয়া	-11.415
▁মানুষ	-11.415
▁উচ্চতৰ	-11.4151
▁উত্তৰাধিকাৰ	-11.4152
▁পঠিত	-11.4152
▁নিবন্ধিত	-11.4153
sysinfo	-11.4154
▁মেঘ	-11.4155
▁কুকিজ	-11.4156
▁বিহু	-11.4157
▁কিতাপখন	-11.4158
্ষণ	-11.416
▁শেহতীয়াভাৱে	-11.4161
▁ৰোজা	-11.4162
▁দুজন	-11.4162
▁গানৰ	-11.4165
▁জাতি	-11.4166
োউ	-11.4166
▁পশু	-11.4167
প্ৰস্থ	-11.4169
র়ি	-11.4169
▁বিচাৰিবলৈ	-11.4171
▁তুলিবলৈ	-11.4171
BCC	-11.4172
▁Fun	-11.4172
▁পোষ্ট	-11.4173
▁234	-11.4175
▁গুদ	-11.4176
▁মানসম্পন্ন	-11.4176
▁প্ৰভাৱিত	-11.4178
▁বেনাৰ	-11.4178
▁3.6	-11.418
▁ফুড	-11.4184
▁সহকাৰী	-11.4185
▁খাতা	-11.4186
▁mh	-11.4186
▁ভিয়েতনামি	-11.4191
▁কোং	-11.4194
▁আনন্দ	-11.4195
▁[--	-11.4196
ট্রি	-11.4202
asha	-11.4204
▁পলিচি	-11.4212
▁ডায়লগেৰ	-11.4215
▁বন্ধুসকল	-11.422
RAN	-11.4226
▁ঘুৰি	-11.423
িগম	-11.4243
▁বুজা	-11.4249
▁আনকি	-11.4261
▁স্তম্ভসমূহৰ	-11.4268
rie	-11.4268
▁মডিউলসমূহ	-11.4279
৪৮	-11.428
▁450	-11.4292
গ্ৰেড	-11.4296
নিহিত	-11.4303
▁জিন	-11.4303
▁পৃথকিত	-11.4306
ej	-11.4316
▁1.6	-11.4317
scr	-11.4321
২৪	-11.4327
্হ	-11.4329
৩০	-11.4351
▁ঠিকনাবহি	-11.4355
▁220	-11.4359
(1052)	-11.4376
ুবা	-11.4377
▁ইঞ্জিনসমূহ	-11.4379
pul	-11.438
#12	-11.4389
েশ্যন	-11.4405
PAL	-11.4407
এইচভি	-11.4409
▁160	-11.4417
▁কার্	-11.4452
▁Ja	-11.4452
▁ইনফ	-11.4458
866	-11.4461
বাঁওফাল	-11.4464
কানাড	-11.4479
▁ড্ৰা	-11.448
▁জানে	-11.45
ল্লি	-11.4512
জ্জ	-11.4518
▁194	-11.4535
tiya	-11.4537
▁উদ্য	-11.4549
ুধ	-11.4568
৪৩	-11.4569
োগো	-11.4583
ছী	-11.4597
চ্চ	-11.4635
WD	-11.465
unk	-11.466
▁৮০	-11.467
দিনীয়া	-11.4671
360	-11.4678
080	-11.4716
▁ঘু	-11.4717
▁pop	-11.474
▁যুগ	-11.4742
▁নির্দেশ	-11.4775
▁আছো	-11.4777
▁doc	-11.478
▁বিজেপি	-11.4784
সংস্ক	-11.4811
ск	-11.4845
RFC	-11.4848
Sync	-11.4849
family	-11.4849
false	-11.485
root	-11.485
বহিয়ের	-11.485
Group	-11.4851
Assam	-11.4851
Yahoo	-11.4852
অধিবেশন	-11.4852
ৰাজ্য	-11.4852
ব্যবস্থা	-11.4853
লিখনযোগ্য	-11.4853
টাইম	-11.4853
ডিফল্ট	-11.4853
প্ৰথম	-11.4853
ঠিকনা	-11.4854
SSL	-11.4854
বাতিল	-11.4854
অসামৰ্থবান	-11.4855
পৰিবৰ্তন	-11.4855
আমাৰ	-11.4855
উচ্চ	-11.4856
▁265	-11.486
ক্লিক	-11.4863
ুৱাওক	-11.4865
task	-11.4867
vlan	-11.4868
mbox	-11.4874
মাচ	-11.4883
gre	-11.4888
ধৰণ	-11.4889
▁আইকনসমূহৰ	-11.489
PID	-11.4898
বিধি	-11.4903
▁ক্লি	-11.4917
▁নিয	-11.4918
ALL	-11.493
▁আপুন	-11.4945
650	-11.4952
▁প্রকাশ	-11.4954
পিছত	-11.4958
rig	-11.4986
0.0	-11.4986
▁(1295	-11.5001
mple	-11.5021
▁On	-11.5024
▁নিশ্চয়	-11.5025
চ্ছুক	-11.5031
▁Tim	-11.5033
▁ঘোষ	-11.5035
conf	-11.5036
▁under	-11.5039
চমত্কার	-11.5039
iaomi	-11.5039
launch	-11.5041
▁অভ্যন্তৰ	-11.5042
с	-11.5042
project	-11.5042
register	-11.5042
ishvas	-11.5042
ট্ৰেডমাৰ্ক	-11.5042
-2022-	-11.5042
[[:$1]]	-11.5042
▁keepalive	-11.5042
normal	-11.5042
▁উন্মুক্ত	-11.5042
▁ব্যাঘাত	-11.5042
▁সৃজনীশক্তি	-11.5042
(13011)	-11.5042
(153581)	-11.5042
(23557)	-11.5042
America	-11.5042
Chooser	-11.5042
Monday	-11.5042
Priority	-11.5042
Reference	-11.5042
SendOptionsAfter	-11.5042
Sign	-11.5042
background	-11.5042
balance	-11.5042
empty	-11.5042
highlight	-11.5042
primary	-11.5042
publisher	-11.5042
remaining	-11.5042
summary	-11.5042
দুঃখিত	-11.5042
হঁতক	-11.5042
▁(4335)	-11.5042
▁CORBA	-11.5042
▁Dasher	-11.5042
▁PlayerName	-11.5042
▁Tweet	-11.5042
▁WebKit	-11.5042
▁abbreviation	-11.5042
▁blkio	-11.5042
▁fame	-11.5042
▁output	-11.5042
▁security	-11.5042
▁support	-11.5042
▁symlink	-11.5042
▁through	-11.5042
▁watchdog	-11.5042
▁whatsthis	-11.5042
▁অগ্ৰভূমিৰ	-11.5042
▁অনধিকাৰ	-11.5042
▁অপৰ্যাপ্ত	-11.5042
▁অবচ্ছেদ	-11.5042
▁অসংহিত	-11.5042
▁অ্যালগোৰিদম	-11.5042
▁আক্ৰমণ	-11.5042
▁আখিৰাত	-11.5042
▁আবৰ্জিত	-11.5042
▁ইন্টাৰপ্ৰেটাৰ	-11.5042
▁ইন্দোনেশিয়া	-11.5042
▁ইব্ৰাহীম	-11.5042
▁উন্নীতকৰণ	-11.5042
▁এক্সেপশন	-11.5042
▁এনক্যাপসুলেট	-11.5042
▁কাৰ্যকলাপ	-11.5042
▁কুঁৱলী	-11.5042
▁গেইটৱে	-11.5042
▁ছিমছাম	-11.5042
▁জাৰ্নাল	-11.5042
▁তত্বাৱধান	-11.5042
▁দৈনন্দিন	-11.5042
▁দৰ্শনাৰ্থী	-11.5042
▁নাৰ্লিকাৰ	-11.5042
▁পাঁচমিশালী	-11.5042
▁পূৰ্বনিৰ্দিষ্ট	-11.5042
▁প্ৰত্যাবৰ্তন	-11.5042
▁পৰিশ্ৰুত	-11.5042
▁ফ্যাক্টৰি	-11.5042
▁ফ্রেমৱৰ্কটো	-11.5042
▁বসন্ত	-11.5042
▁বাঁদিকে	-11.5042
▁বাৰেমহীয়া	-11.5042
▁ব্যাপাৰে	-11.5042
▁ভাইসৰ	-11.5042
▁মনোৰঞ্জন	-11.5042
▁মন্ত্ৰালয়	-11.5042
▁মূলনীতিসমূহ	-11.5042
▁মেঘাচ্ছন্ন	-11.5042
▁যোৰহাট	-11.5042
▁লিথিয়াম	-11.5042
▁লুণ্ঠন	-11.5042
▁সদস্যভুক্তি	-11.5042
▁সভ্যতা	-11.5042
▁সময়ছোৱাত	-11.5042
▁সমৃদ্ধ	-11.5042
▁সর্বোচ্চ	-11.5042
▁সাইডবাৰ	-11.5042
▁সাৰ্ভিস	-11.5042
▁সৰাসৰি	-11.5042
▁হটস্পট	-11.5042
▁ৰঙৰনক্সা	-11.5042
▁ৰেডিয়ানসমূহ	-11.5042
Install	-11.5042
control	-11.5042
freenode	-11.5042
ইউক্ৰেইনিয়	-11.5042
ইন্ডিয়ানা	-11.5042
বিনামূল্যে	-11.5042
▁Copyright	-11.5042
▁Drive	-11.5042
▁উইলিয়াম	-11.5042
▁উৰ্দু	-11.5042
▁চাবফোল্ডাৰসমূহ	-11.5042
▁চেণ্টাৰ	-11.5042
▁জাহাজ	-11.5042
▁টাচপেড	-11.5042
▁প্রকল্প	-11.5042
▁মিৰ্জাখানী	-11.5042
▁শ্ৰীমন্ত	-11.5042
Content	-11.5042
Write	-11.5042
missing	-11.5042
▁ডিগ্ৰী	-11.5042
▁প্ৰেফিক্স	-11.5042
MediaWiki	-11.5042
third	-11.5042
▁Pause	-11.5042
▁RNG	-11.5042
▁sink	-11.5042
▁প্ৰসাদ	-11.5042
▁মাথোন	-11.5042
▁শিক্ষাৰ্থী	-11.5042
(623)	-11.5042
খোকামনি	-11.5042
▁Font	-11.5042
▁ইসলাম	-11.5042
▁চিনাকি	-11.5042
(617)	-11.5042
▁(2620)	-11.5042
▁(4789)	-11.5042
▁DUE	-11.5042
▁চাঁওক	-11.5042
▁লাগিল	-11.5042
▁সহযোগত	-11.5042
▁Direct	-11.5042
xref	-11.5042
▁গণেশ	-11.5042
ी	-11.5042
▁ধরন	-11.5042
▁শুধি	-11.5042
▁(5573)	-11.5042
▁ফলবেক	-11.5042
▁TiB	-11.5042
▁ধাতু	-11.5042
▁উলিয়াব	-11.5042
cache	-11.5042
▁আলোকচিত্ৰবিদ্যা	-11.5042
▁পংতি	-11.5042
▁ৰস্টাৰলৈ	-11.5042
ুদ্দিন	-11.5042
Render	-11.5042
▁(1060)	-11.5042
▁গেৰেজ	-11.5042
panel	-11.5043
▁জাকাত	-11.5043
▁ৰূট	-11.5043
partition	-11.5043
▁ফাললৈ	-11.5043
▁বৃত্তিধাৰী	-11.5043
▁স্বত্বন্ত্ৰ	-11.5043
▁অনুৰাগ	-11.5043
▁ঋণাত্মক	-11.5043
download	-11.5043
▁নকশা	-11.5043
▁বন্দৰ	-11.5043
▁প্ৰাৰম্ভসময়ত	-11.5043
▁GSM	-11.5043
caption	-11.5043
SET	-11.5043
▁কিয়নো	-11.5043
(23380)	-11.5043
▁থাকাকালীন	-11.5043
▁২০১৫	-11.5043
▁Connector	-11.5043
udha	-11.5043
vino	-11.5043
▁ৰুকন	-11.5043
▁ব্লকগুলোকে	-11.5043
▁ইমাম	-11.5044
▁was	-11.5044
▁হিউমেন	-11.5044
(4753)	-11.5044
▁লোকেইল	-11.5044
▁অনুকূল	-11.5044
▁Savera	-11.5044
▁ছুপাৰ	-11.5044
Big	-11.5044
▁ৰূপভেদ	-11.5044
▁জনাইছে	-11.5044
▁HyperV	-11.5044
▁গুপ্ত	-11.5044
▁কীলক	-11.5044
▁ইউৰোপিয়	-11.5044
Opera	-11.5045
▁অতীত	-11.5045
phone	-11.5045
▁অফসেট	-11.5045
▁লুঠ	-11.5045
▁চাৰ্জ্ড	-11.5046
▁Award	-11.5046
▁প্ৰজাতিৰ	-11.5046
▁উত্তৰপশ্চিম	-11.5046
Disk	-11.5047
▁টিয়াৰ	-11.5047
nologin	-11.5047
কোঠাৰ	-11.5047
ফাতহ	-11.5047
esser	-11.5047
▁Jack	-11.5047
▁পংচ	-11.5048
▁$$\	-11.5048
▁উপবিন্যাস	-11.5048
পত্র	-11.5048
▁টেম্প	-11.5048
pool	-11.5048
▁জব্দ	-11.5048
▁থিয়	-11.5049
HRC	-11.5049
▁এনকোডাৰ	-11.5049
▁PTY	-11.5049
▁অবস্থাসূচক	-11.5049
▁নিৰ্দেশকৰ্তা	-11.5049
▁(73)	-11.505
▁নিযুক্তি	-11.505
▁Janof	-11.5051
▁(206)	-11.5051
▁অনুসৰণকাৰী	-11.5051
(1580	-11.5052
▁তাদেৰ	-11.5052
▁মানসিকতা	-11.5052
▁চেপে	-11.5053
▁পৃথিৱীখন	-11.5053
▁(1012)	-11.5053
▁(1008)	-11.5053
▁Tuber	-11.5053
▁কথাখিনি	-11.5055
▁ঘৰুৱা	-11.5056
▁ইনস্টল্ড	-11.5057
▁বেমাৰ	-11.5057
▁২০০০	-11.5057
▁ইচ্চ	-11.5059
▁চ্যাট	-11.5059
▁ফৰমেটিং	-11.506
▁অসুৰক্ষিত	-11.506
▁Dhar	-11.5061
▁নিৰ্দেশকাৰী	-11.5063
(139	-11.5064
▁চাৰপাশে	-11.5067
▁উদ্যোগী	-11.5067
▁call	-11.5069
▁ফুটাৰ	-11.5072
প্লাৱন	-11.5073
diff	-11.5073
▁মিছা	-11.5076
conflict	-11.508
▁আগবাঢ়িবলে	-11.5081
▁গুৱা	-11.5083
nik	-11.5084
▁মানপ্ৰাপ্ত	-11.5084
▁যিবিলাক	-11.5085
Year	-11.5086
▁সম্পাদনযোগ্য	-11.5087
▁ছাইন	-11.5087
locale	-11.509
▁সৰুকৈ	-11.5093
gar	-11.5094
▁বিশেষভাবে	-11.5095
img	-11.5096
▁100%	-11.5097
▁টেগবোৰ	-11.5097
▁উদ্ধ	-11.5098
ব্ৰিটিশ	-11.5099
লিচিয়ে	-11.5099
▁অবিকল্পিতৰূপে	-11.51
▁সিহতে	-11.5104
▁সেক্স	-11.5105
▁222	-11.5115
fini	-11.5115
▁ডঃ	-11.5117
্তে	-11.5123
▁ভুলকৈ	-11.5127
▁সিস্টেমেৰ	-11.5133
▁মৌ	-11.5133
zh	-11.5135
code	-11.5136
▁0.1	-11.5139
▁সংকল	-11.5149
জোড়	-11.5163
ır	-11.5168
▁225	-11.517
ক্ষেত্ৰে	-11.5173
ফিক্স	-11.5185
ন্ধা	-11.5188
▁ব্লু	-11.5201
в	-11.5243
direct	-11.5254
HQ	-11.5256
850	-11.5265
প্লাছ	-11.5267
(546)	-11.5289
ুষ	-11.5293
কূল	-11.5295
ৈছে	-11.5313
ুলু	-11.5317
▁Red	-11.5318
▁দৃ	-11.5358
AND	-11.5404
▁any	-11.5421
▁যাওঁ	-11.5464
▁বজা	-11.5475
গৃহ	-11.5514
595	-11.5521
েণ্ডাৰ	-11.5524
ক্ষমতা	-11.5532
way	-11.5559
▁304	-11.5572
▁কপিপ্ৰাপক	-11.5616
▁কৌট	-11.5632
999	-11.5641
খোৱা	-11.5647
▁ক্ষেত্র	-11.5651
▁Ol	-11.5685
ultimedia	-11.5704
▁কালদৈৰ্ঘ্য	-11.5784
▁হাদীছ	-11.5784
্পো	-11.5791
▁recur	-11.581
▁প্ৰাপকসকল	-11.581
‍	-11.5811
চেচ	-11.5813
1.5	-11.5823
মোদ	-11.5827
▁(549	-11.5832
মাধ্যম	-11.5838
স্বাক্ষৰ	-11.584
নিৰ্দেশ	-11.584
স্থায়ী	-11.5842
জাপানি	-11.5847
চমকানো	-11.5847
স্থাপিত	-11.5849
cdr	-11.585
খেলনা	-11.585
বৈকল্পিক	-11.5851
word	-11.5852
সামগ্ৰী	-11.5852
নিৰ্বাচক	-11.5852
পূৰ্বপ্ৰদৰ্শন	-11.5853
ইছলাম	-11.5853
চিন্তা	-11.5853
ডিভাইচ	-11.5853
ড্ৰাইভাৰ	-11.5853
পদ্ধতি	-11.5853
প্ৰৱেশ	-11.5853
অনুপস্থিত	-11.5853
বিৱৰণ	-11.5854
অবৈধ	-11.5854
অনুসন্ধান	-11.5854
স্থানান্তৰ	-11.5854
▁ব্যক্তিজন	-11.5854
যুদ্ধ	-11.5854
থেকে	-11.5854
reset	-11.5861
অংশ	-11.5862
Read	-11.5863
প্রতি	-11.5868
▁hour	-11.5871
সৰল	-11.5887
▁ya	-11.5895
মধ্য	-11.5896
here	-11.5905
max	-11.5926
জেল	-11.5966
কাৰণ	-11.5974
▁disable	-11.5983
▁ইতিমধ্য	-11.5995
▁মুহূৰ্ত	-11.5996
▁দুৰ্ভাগ্য	-11.6002
▁নিযুক্ত	-11.6027
375	-11.6033
িষ্কা	-11.6037
▁ব্যৱহ	-11.6037
▁বৃহস্পতি	-11.6038
▁মিশ্ৰ	-11.604
▁গ্ৰাফিক	-11.6041
▁বিদ্যু	-11.6042
Visual	-11.6042
▁পৰিপ্ৰেক্ষ	-11.6042
Manual	-11.6042
খ্ৰীষ্ট	-11.6042
ل	-11.6042
ification	-11.6042
মাইক্ৰোফোন	-11.6042
(12942)	-11.6042
(24211)	-11.6042
(45716)	-11.6042
Authentication	-11.6042
Distance	-11.6042
MeetingResp	-11.6042
Plugin	-11.6042
Quality	-11.6042
Register	-11.6042
Virtual	-11.6042
strftime	-11.6042
গাঁঠনি	-11.6042
পেলিনড্ৰম	-11.6042
েপ্টেম্বৰ	-11.6042
▁(36263)	-11.6042
▁(44874)	-11.6042
▁(628)	-11.6042
▁ASSAMESE	-11.6042
▁CRTC	-11.6042
▁GtkFileChooser	-11.6042
▁Hijjah	-11.6042
▁INBOX	-11.6042
▁Issued	-11.6042
▁Khabar	-11.6042
▁MIUI	-11.6042
▁NUMBER	-11.6042
▁October	-11.6042
▁Organization	-11.6042
▁PackageKit	-11.6042
▁PulseAudio	-11.6042
▁Shvat	-11.6042
▁Style	-11.6042
▁attachment	-11.6042
▁either	-11.6042
▁milliseconds	-11.6042
▁mkisofs	-11.6042
▁playback	-11.6042
▁unsigned	-11.6042
▁şey	-11.6042
▁অংশগ্ৰহনকাৰী	-11.6042
▁অভাৰৰাইট	-11.6042
▁অসুবিধেও	-11.6042
▁আকস্মিক	-11.6042
▁আকৰ্ষণ	-11.6042
▁আঞ্চলিক	-11.6042
▁আৰোহণ	-11.6042
▁আৰ্বজনা	-11.6042
▁আৱিষ্কাৰ	-11.6042
▁আৱিস্কাৰ	-11.6042
▁ইঞ্চিউৰেন্স	-11.6042
▁ইথিওপিক	-11.6042
▁উষ্ণতা	-11.6042
▁এনিমেষণ	-11.6042
▁এলপিভিডি	-11.6042
▁ওৱাহ্হাব	-11.6042
▁কৃত্ৰিম	-11.6042
▁কেম্ব্ৰিজ	-11.6042
▁কোম্পানি	-11.6042
▁গ্লোবাল	-11.6042
▁চাৰিওফালে	-11.6042
▁ট্ৰাফিক	-11.6042
▁ডিলিমিটাৰ	-11.6042
▁ততোধিক	-11.6042
▁তাপমাত্ৰা	-11.6042
▁তেওলোকৰ	-11.6042
▁তৎক্ষণাৎ	-11.6042
▁তৎক্ষনাৎ	-11.6042
▁নিম্নৰেখা	-11.6042
▁নিষেধ	-11.6042
▁নিষ্পত্তি	-11.6042
▁পটভুমি	-11.6042
▁পাঞ্জাবী	-11.6042
▁পিক্সবাফ	-11.6042
▁প্ৰব্ৰজক	-11.6042
▁প্ৰভাৱশালী	-11.6042
▁বক্তৃতা	-11.6042
▁বহীৰ্তম	-11.6042
▁বিসংগত	-11.6042
▁বেগবৰ্দ্ধক	-11.6042
▁ভবিষ্য	-11.6042
▁ভূঁইকপ	-11.6042
▁মৃতদেহ	-11.6042
▁মেকানিক	-11.6042
▁মেগ্নিফায়াৰ	-11.6042
▁সংগঠিত	-11.6042
▁সঘনাই	-11.6042
▁সন্নিৱিষ্ট	-11.6042
▁সফ্টওয়্যাৰ	-11.6042
▁সিহঁতৰ	-11.6042
▁সৰ্বশ্ৰেষ্ঠ	-11.6042
▁হাইস্কুল	-11.6042
▁হাজৰিকা	-11.6042
▁ৰেফাৰেন্স	-11.6042
(231213)	-11.6042
(231237)	-11.6042
(43279)	-11.6042
found	-11.6042
graph	-11.6042
optical	-11.6042
special	-11.6042
▁DATA	-11.6042
▁focus	-11.6042
▁listener	-11.6042
▁means	-11.6042
▁vcpupin	-11.6042
▁ঘনত্ব	-11.6042
▁দলগতভাৱে	-11.6042
▁দুৰ্ঘটনাজনিত	-11.6042
▁প্যানেল	-11.6042
▁প্রসেস	-11.6042
▁প্ৰদৰ্শণ	-11.6042
▁মচোতে	-11.6042
▁স্পৰ্শ	-11.6042
(32843)	-11.6042
(45720)	-11.6042
HOME	-11.6042
ভগভিজা	-11.6042
▁Clear	-11.6042
▁টুকুৰা	-11.6042
▁টোকাবহী	-11.6042
▁দৰ্শানো	-11.6042
▁পুনৰআকাৰ	-11.6042
▁প্লাগেবল	-11.6042
▁প্ৰদত্ত	-11.6042
▁ভাসমান	-11.6042
▁স্কাইপ	-11.6042
Error	-11.6042
প্ৰফেচৰ	-11.6042
▁(4994)	-11.6042
▁libxl	-11.6042
▁বণ্টন	-11.6042
▁সাক্ষী	-11.6042
always	-11.6042
Update	-11.6042
▁ৰেইটিং	-11.6042
width	-11.6042
িয়্যাহ	-11.6042
▁বোনাস	-11.6042
jpg	-11.6042
▁trash	-11.6042
অকপট	-11.6042
গৃহিণী	-11.6042
ভূমিত	-11.6042
▁(4805)	-11.6042
▁dict	-11.6042
▁kind	-11.6042
▁draft	-11.6042
▁চশমা	-11.6042
▁পাকিছ	-11.6042
▁পিকিউ	-11.6042
▁ব্যবহাৰকারীৰ	-11.6042
▁(491)	-11.6042
▁গ্ৰিড	-11.6042
▁যেখানে	-11.6042
Help	-11.6042
require	-11.6042
▁NFS	-11.6042
lexis	-11.6042
▁TPM	-11.6042
▁কম্পোজ	-11.6042
▁আলাদা	-11.6042
▁এতিয়ালৈকে	-11.6042
▁যোনটো	-11.6042
▁প্রথম	-11.6042
▁বিদআত	-11.6042
▁BMP	-11.6042
(625)	-11.6042
▁ব্যতীত	-11.6042
▁DSL	-11.6042
▁ছওম	-11.6042
▁দাঁত	-11.6042
feed	-11.6043
▁ভাৰ্জিন	-11.6043
▁মাল্টিমিডিয়া	-11.6043
▁অন্তৰ্বৰ্তী	-11.6043
▁(496)	-11.6043
(23381)	-11.6043
▁PPP	-11.6043
▁গ্ৰাফীয়	-11.6043
▁ভিলেজ	-11.6043
▁কুইজ	-11.6043
▁কাঁড়চিহ্ন	-11.6043
▁BSD	-11.6043
▁কৈছিল	-11.6043
▁লেনদেন	-11.6043
▁ওৱেব	-11.6043
▁(156)	-11.6043
▁প্ৰৌব	-11.6043
▁কাপোৰ	-11.6043
▁গৰ্ভাৱস্থাত	-11.6043
▁Cdr	-11.6043
▁তেওঁলোকক	-11.6043
▁স্মৃতি	-11.6043
▁ইন্ধন	-11.6043
▁সংকটপূৰ্ণ	-11.6043
2002;	-11.6043
▁ক্ৰেতা	-11.6043
▁বাক্যাংশ	-11.6043
▁ভগ্নাংশ	-11.6043
▁দুৰত্ব	-11.6043
▁এইখানে	-11.6043
hibit	-11.6043
প্ৰমানকাৰী	-11.6043
▁সংস্থাপিত	-11.6043
▁হাৰিয়ে	-11.6043
▁কাইলৈ	-11.6044
▁বিৰোধ	-11.6044
▁পৰিচয়লনা	-11.6044
black	-11.6044
▁খাবলে	-11.6044
▁(123)	-11.6044
▁পিছফাল	-11.6044
▁দুগুণ	-11.6044
▁মাজেৰে	-11.6044
মিহলি	-11.6045
▁পোইন্টাৰ	-11.6045
▁——	-11.6045
▁স্কেইল্ড	-11.6045
ōra	-11.6045
▁২০০১	-11.6045
▁ইচ্ছাকৃত	-11.6045
▁যাকাত	-11.6046
▁Tamuzof	-11.6046
▁কেছেৰ	-11.6046
▁ভাষণ	-11.6046
▁অৱদানকাৰী	-11.6046
▁0.005	-11.6046
চিয়েল	-11.6046
▁চেলুলাৰ	-11.6047
ন্সোল	-11.6047
▁নিশ্চিতরূপে	-11.6047
???	-11.6047
▁সুকীয়া	-11.6047
▁চনলৈ	-11.6047
▁(5079)	-11.6047
▁১২৫	-11.6047
মাতৃৰ	-11.6048
▁পুঁজিলৈ	-11.6048
▁সংবদ্ধ	-11.6048
▁সঁজা	-11.6048
(4583)	-11.6048
▁বুধবাৰ	-11.6048
CTN	-11.6048
▁৬৪	-11.6048
▁স্মৰণ	-11.6049
▁কেলেণ্ডাৰখন	-11.6049
▁আঙুলি	-11.6049
▁may	-11.6049
৬৮	-11.6049
▁সংস	-11.605
minor	-11.605
▁শ্বাপ	-11.6051
▁ভগাই	-11.6053
▁ব্যবহারের	-11.6053
▁অশুদ্ধ	-11.6053
▁অন্তৰ্ভুক্তিৰ	-11.6053
mbenchmarking	-11.6053
▁দিওতে	-11.6054
ট্ৰিবিউ	-11.6054
▁পড়ে	-11.6055
▁(113)	-11.6055
▁ব্যয়ৰ	-11.6055
▁বীচ	-11.6056
▁শেয়াৰ	-11.6056
▁(508)	-11.6057
▁সঞ্চালনযোগ্য	-11.6057
▁বাজিৰ	-11.6058
▁উপলব্ধকারী	-11.6059
▁সময	-11.606
▁(115)	-11.606
4.2	-11.606
▁খাওক	-11.606
▁Xft	-11.606
▁2011	-11.6061
▁জাভা	-11.6061
afe	-11.6063
▁আগমন	-11.6064
▁লিঙ্গ	-11.6067
▁টিভি	-11.6067
▁শৰ্ট	-11.607
রানো	-11.6071
United	-11.6071
▁0.3	-11.6072
▁পাইলটেৰ	-11.6072
▁উদ্বোধ	-11.6074
▁অন্ততঃ	-11.6075
▁স্বাক্ষৰকৰ্তা	-11.6076
▁এইচকি	-11.6078
স্টকাৰ্ড	-11.6079
match	-11.6081
▁বোজা	-11.6081
▁সংখ্যাসূচক	-11.6081
▁ssh	-11.6086
▁এনকোড	-11.6087
▁উপকাৰী	-11.6088
▁দেও	-11.609
ত্মক	-11.6097
(4752)	-11.6098
▁মধ্যমা	-11.6103
▁সৰ্বা	-11.6118
▁হেৰা	-11.6157
▁কুচ	-11.6169
(81)	-11.6169
পায়ু	-11.6169
Meta	-11.617
Ray	-11.6178
char	-11.618
ল্ফ	-11.6186
৩৪	-11.6197
▁টাৰ্	-11.6199
lbar	-11.6203
ভুল	-11.6204
▁সোণ	-11.6214
ংজু	-11.6215
▁(80)	-11.6216
▁শ্বা	-11.6226
▁পৃষ্	-11.6232
large	-11.6259
খবৰ	-11.6274
▁Bah	-11.6292
ফোল্ডারগুলি	-11.6333
(278)	-11.6366
▁ছেমি	-11.6374
স্বৰূপ	-11.6375
মেথ	-11.6378
▁Sex	-11.64
276	-11.6416
hot	-11.651
720	-11.6538
mem	-11.6583
apm	-11.6585
▁৮০০	-11.6637
▁0.01	-11.6639
চাৰি	-11.6649
পাং	-11.6666
ür	-11.6683
▁Part	-11.6685
▁ভাৰতবৰ্ষ	-11.6755
BUS	-11.676
তিষ্ঠানিক	-11.6886
▁নেটমিটিং	-11.6895
▁ঘড়ি	-11.6898
▁কোৰিয়	-11.6912
▁ঢাক	-11.6916
▁মুম্বাই	-11.6943
সামৰ্থবান	-11.695
পশ্চিম	-11.6957
John	-11.6959
column	-11.6959
Mozilla	-11.696
ঈক্ষণকামী	-11.696
শ্ৰেণী	-11.6962
access	-11.6963
সতৰ্ক	-11.6963
পছন্দ	-11.6964
শৈলী	-11.6964
উদাহৰণ	-11.6964
দ্বিতীয়	-11.6964
পৰিচয়	-11.6964
Free	-11.6964
job	-11.6965
তাৰিখ	-11.6965
স্বাস্থ্য	-11.6965
this	-11.6966
প্ৰক্ৰিয়া	-11.6968
বীজ	-11.6968
নিৰ্দেশনা	-11.6968
মুখগত	-11.6969
যদিহে	-11.6969
বাৰ্তা	-11.6972
হেডাৰ	-11.6975
▁যুৱ	-11.6983
সহায়	-11.6985
শক্তি	-11.6986
লিখা	-11.6989
▁(2651	-11.6993
kde	-11.6994
হৈ	-11.7059
2.5	-11.706
াপদ	-11.7062
প্ৰজাতি	-11.7068
▁সুৰক্ষ	-11.7086
▁পরীক্ষণ	-11.7116
▁কৰ্তৃপক্ষ	-11.7141
▁RGB	-11.7145
বৰ্জনা	-11.7146
আঙুল	-11.7146
ever	-11.7146
▁Jul	-11.7149
▁অৰ্হতা	-11.715
▁ন্যায়াধীশ	-11.715
▁সার্ভার	-11.7151
▁ইন্টাৰেক	-11.7152
gram	-11.7152
lose	-11.7152
ব্যাপী	-11.7152
mission	-11.7153
oken	-11.7153
▁কাঁড়	-11.7153
▁পুস্তিকা	-11.7153
directory	-11.7153
▁ঘঁহা	-11.7153
▁cookie	-11.7153
▁gloss	-11.7153
▁এন্টিএলিয়া	-11.7153
▁চৌধুৰী	-11.7153
▁ডিরেক্টরি	-11.7153
▁সৰবৰাহ	-11.7153
'''$1'''	-11.7153
:18:27	-11.7153
Application	-11.7153
Autodesk	-11.7153
Chennai	-11.7153
Digital	-11.7153
ERROR	-11.7153
Exec	-11.7153
Gallery	-11.7153
Replacewith	-11.7153
augh	-11.7153
battery	-11.7153
bottom	-11.7153
categories	-11.7153
laceOfTheMeeting	-11.7153
mboxImp	-11.7153
modified	-11.7153
terminal	-11.7153
চিকিৎসীয়	-11.7153
তাত্ত্বিক	-11.7153
নিৰ্দ্ধাৰিত	-11.7153
হেক্সাডেচিমেল	-11.7153
াৰোগেট	-11.7153
▁!!!	-11.7153
▁(14836)	-11.7153
▁(156346)	-11.7153
▁(1576)	-11.7153
▁(2540)	-11.7153
▁(27482)	-11.7153
▁(32677)	-11.7153
▁(36252)	-11.7153
▁(36771)	-11.7153
▁(59438)	-11.7153
▁Affairs	-11.7153
▁Beauty	-11.7153
▁Choukei	-11.7153
▁ETree	-11.7153
▁Education	-11.7153
▁FanFold	-11.7153
▁Nisan	-11.7153
▁Number	-11.7153
▁Pixbuf	-11.7153
▁Puneet	-11.7153
▁Rhythmbox	-11.7153
▁Standard	-11.7153
▁Trust	-11.7153
▁cartridge	-11.7153
▁cputune	-11.7153
▁float	-11.7153
▁implie	-11.7153
▁lookup	-11.7153
▁visit	-11.7153
▁অটোসেভ	-11.7153
▁অত্যধিক	-11.7153
▁অভাৰফ্লো	-11.7153
▁অসংকোচিত	-11.7153
▁অসংৰক্ষিত	-11.7153
▁আক্বীদা	-11.7153
▁আগবঢ়াৰ	-11.7153
▁আত্মসমৰ্পণ	-11.7153
▁ইস্লংদ্	-11.7153
▁উত্তেজনা	-11.7153
▁উদ্ভৱ	-11.7153
▁এক্সিকিউষণ	-11.7153
▁কঠোৰ	-11.7153
▁কঢ়িয়াই	-11.7153
▁কিৰজিস্থান	-11.7153
▁ক্ৰেডিট	-11.7153
▁গাখীৰ	-11.7153
▁গুজৰাট	-11.7153
▁গুটানো	-11.7153
▁গোলকীয়	-11.7153
▁গৱেষনা	-11.7153
▁ছফ্টৱেৰ	-11.7153
▁ছেপ্তেম্বৰ	-11.7153
▁জৰিমনা	-11.7153
▁টিউনিং	-11.7153
▁ডিভেলপমেন্ট	-11.7153
▁তফছীৰ	-11.7153
▁তুৰ্কমেনিস্তান	-11.7153
▁দুচকীয়া	-11.7153
▁নগদধনবিহীন	-11.7153
▁নাপাহৰিব	-11.7153
▁নুন্যতম	-11.7153
▁নৰ্মেলাইজ	-11.7153
▁পুনরুদ্ধার	-11.7153
▁পূৰ্বআবন্টন	-11.7153
▁পূৰ্বাহ্ণ	-11.7153
▁প্ৰতিবন্ধকতা	-11.7153
▁প্ৰশংসা	-11.7153
▁প্ৰাথমত্য	-11.7153
▁বালসমেত	-11.7153
▁বিপজ্জনক	-11.7153
▁বিবিডব্লিউ	-11.7153
▁বিৱিধ	-11.7153
▁ভাবসংকেত	-11.7153
▁ভাৰছুৱেলাইজেষণ	-11.7153
▁ভাৰ্ছুৱেল	-11.7153
▁ভূচিত্ৰাৱলী	-11.7153
▁মণিটৰ	-11.7153
▁মণিপুৰ	-11.7153
▁মাদ্ৰাজ	-11.7153
▁ম্যানেজাৰ	-11.7153
▁ষান্মাসিক	-11.7153
▁সঁফুৰা	-11.7153
▁সংঘটক	-11.7153
▁সত্ত্বেও	-11.7153
▁সমতূল্য	-11.7153
▁সমমাত্ৰিক	-11.7153
▁সমর্থন	-11.7153
▁সোঁহাতৰ	-11.7153
▁সোণালী	-11.7153
▁স্টেণ্ডবাই	-11.7153
▁স্টেপল্	-11.7153
▁স্বাদহীন	-11.7153
▁স্যাঁতসেঁতে	-11.7153
▁হিন্দী	-11.7153
▁ৰাহিমাহুল্লাহ	-11.7153
▁ৰুপান্তৰ	-11.7153
▁ৰূপাঙ্কণ	-11.7153
▁ৱেস্টাৰ্ন	-11.7153
Monospace	-11.7153
Screen	-11.7153
elepathy	-11.7153
package	-11.7153
throttle	-11.7153
অপৰাহ্ণ	-11.7153
▁Samba	-11.7153
▁shortcut	-11.7153
▁উপৰোক্ত	-11.7153
▁কল্কিম	-11.7153
▁কাঁটাৰ	-11.7153
▁কাৰিকৰী	-11.7153
▁গ্ৰান্ডে	-11.7153
▁গৰমিল	-11.7153
▁চেংদু	-11.7153
▁ধাৰনকাৰী	-11.7153
▁পায়ুপথ	-11.7153
▁পোর্ট	-11.7153
▁প্ৰতিবন্ধিত	-11.7153
▁পৰামৰ্শদাতা	-11.7153
▁পৰিদৰ্শিত	-11.7153
▁ফাতাৱা	-11.7153
▁বক্তব্য	-11.7153
▁বান্ধীত	-11.7153
▁বৈশিষ্ঠ	-11.7153
▁মডেম	-11.7153
▁শব্দমাত্ৰা	-11.7153
▁সম্পূর্ণ	-11.7153
:$2_	-11.7153
Custom	-11.7153
hesaurus	-11.7153
▁(511)	-11.7153
▁(5668)	-11.7153
▁(9129)	-11.7153
▁autostart	-11.7153
▁unix	-11.7153
(9730)	-11.7153
DOMAIN	-11.7153
ctual	-11.7153
▁KVM	-11.7153
▁উপাৰ্জন	-11.7153
▁কনসোল	-11.7153
▁পুনৰীক্ষণ	-11.7153
▁স্নেপ	-11.7153
▁DVI	-11.7153
▁আলেকজ	-11.7153
▁প্রাপক	-11.7153
(46583)	-11.7153
(618)	-11.7153
client	-11.7153
▁(1284)	-11.7153
▁ওলোটা	-11.7153
▁ফিনিটি	-11.7153
▁সামান্য	-11.7153
▁Adium	-11.7153
▁WEP	-11.7153
▁ইসিজি	-11.7153
Power	-11.7153
▁(4881)	-11.7153
▁আশ্বুৰা	-11.7153
▁লুকোৱা	-11.7153
▁(1847)	-11.7153
▁হেলেনা	-11.7153
(13145)	-11.7153
▁NCB	-11.7153
▁Palm	-11.7153
monitor	-11.7153
▁(515)	-11.7153
▁(5578)	-11.7153
▁টোকেন	-11.7153
▁থাকতে	-11.7153
▁ভৰষাবান	-11.7153
2003;	-11.7154
▁(59311)	-11.7154
▁বাদুলিৰ	-11.7154
▁সোধিব	-11.7154
▁পানামা	-11.7154
▁বাস্তৱ	-11.7154
এক্সিকিউটেবুল	-11.7154
▁বিকিউ	-11.7154
▁ৰমজান	-11.7154
▁কাষ্টম	-11.7154
▁অনুদিত	-11.7154
▁Emacs	-11.7154
▁স্পেইন	-11.7154
▁সৰ্বব্যাপী	-11.7154
মেঘালয়	-11.7154
▁পুনৰগঠ	-11.7154
smart	-11.7154
▁IRC	-11.7154
▁কনটেক্ট	-11.7154
From	-11.7154
▁ব্যবসা	-11.7154
গভৰ্নেন্স	-11.7154
▁একেবাৰে	-11.7154
▁ভৰাট	-11.7154
▁Novell	-11.7154
▁(195)	-11.7154
▁(204)	-11.7154
▁STP	-11.7154
▁মেলেনি	-11.7154
▁অনুষ্ঠানসমূহকে	-11.7154
(817)	-11.7154
▁POS	-11.7154
▁Translation	-11.7154
▁PDA	-11.7154
জিৎ	-11.7154
▁বিৰোধিতা	-11.7154
Mutt	-11.7154
▁মহাকাশ	-11.7154
▁জুড়ে	-11.7154
▁দক্ষিণপশ্চিম	-11.7154
▁পুনৰাকৃত	-11.7154
▁SMS	-11.7154
▁ছোৱাব	-11.7154
اه	-11.7154
▁Online	-11.7154
▁ৰূম	-11.7154
▁পৰ্যটন	-11.7154
▁ফেলক	-11.7154
শিঘ্ৰ	-11.7154
▁হয়েছিল	-11.7154
▁অবকাল	-11.7154
▁সদস্যবৃন্দ	-11.7155
বাল্টিক	-11.7155
▁ঘূৰাওক	-11.7155
▁'{1}'	-11.7155
▁udev	-11.7155
▁প্ৰগতিশীল	-11.7155
ра	-11.7155
(4682)	-11.7155
▁কীচেন	-11.7155
▁ডিকোড	-11.7155
তথ্যকোষ	-11.7155
▁পঠনীয়	-11.7155
rollback	-11.7155
ICU	-11.7155
▁তিনিমাহ	-11.7155
মিটিং	-11.7155
movie	-11.7155
vani	-11.7155
▁মাংস	-11.7155
▁nonce	-11.7155
▁সচিব	-11.7156
▁১৪৯	-11.7156
▁পূৰ্বদৃশ্য	-11.7156
(4726)	-11.7156
▁ফ্ৰেঞ্চ	-11.7156
▁মূল্যায়ন	-11.7156
(4574)	-11.7156
(816)	-11.7156
চন্দন	-11.7156
▁গ্ৰেন্ড	-11.7156
▁বুলেট	-11.7156
▁নিয়োগকৰ্তা	-11.7156
▁উপভোগ	-11.7156
binding	-11.7156
▁সংবিধান	-11.7157
▁(5020)	-11.7157
▁ঘণ্টাতকৈ	-11.7157
▁গ্ৰীক	-11.7157
▁বিশুদ্ধ	-11.7157
▁বিপদাশংকাৰপৰা	-11.7158
সঁচ	-11.7158
▁পৰিসীমা	-11.7158
েঁচা	-11.7158
▁প্রয়োগ	-11.7158
String	-11.7159
▁যাদু	-11.7159
▁filtering	-11.7159
▁উলোটাওক	-11.7159
▁রং	-11.7159
▁শুক্ৰবাৰ	-11.716
▁ভাঙি	-11.716
▁ছাড়া	-11.716
▁কীবোৰ্ড	-11.716
▁স্পষ্টভাবে	-11.716
▁গাৰ্গ	-11.7161
▁Model	-11.7161
never	-11.7161
▁নামঘৰ	-11.7162
▁Of	-11.7162
▁পেমেন্ট	-11.7162
horiz	-11.7162
▁এনক্ৰিপশনবিহীন	-11.7162
MAT	-11.7162
▁অপচন	-11.7163
▁আত্মীয়	-11.7163
▁পাউ	-11.7163
unset	-11.7164
laka	-11.7164
▁টীম	-11.7164
▁With	-11.7165
ক্ৰিপ্ট	-11.7165
ility	-11.7167
▁সিঙ্ক	-11.7167
roll	-11.7167
▁লিটাৰ	-11.7167
▁কৰ্তৃপক্ষই	-11.7167
▁লেভেল	-11.7167
▁বৰ্ণিত	-11.7167
▁ভেতৰ	-11.7168
▁Email	-11.7168
blocked	-11.7169
logic	-11.717
▁লিখিছে	-11.717
▁(119)	-11.7171
োঙা	-11.7171
▁ফৰৱাৰ্ডিং	-11.7171
Today	-11.7171
txt	-11.7172
▁What	-11.7172
▁Nov	-11.7172
▁টেংক	-11.7172
▁(118)	-11.7173
▁যোগানকাৰী	-11.7174
▁এডিটাৰ	-11.7174
▁619	-11.7176
_("	-11.718
(4751)	-11.7181
বিধিসন্মত	-11.7182
▁but	-11.7184
কৰোঁ	-11.7184
Restart	-11.7186
uff	-11.7189
tits	-11.719
পাচলি	-11.7204
listbox	-11.7211
▁গঢ়	-11.7211
lrz	-11.7228
Mime	-11.726
কালিন	-11.7265
ient	-11.7287
▁rom	-11.7317
▁পুচ	-11.7319
▁নিবিচাৰো	-11.7383
▁cancel	-11.7386
▁Net	-11.7399
পূৱ	-11.7454
▁see	-11.7455
TER	-11.7476
১৬	-11.7487
বৃন্দ	-11.7509
পৰিস্থিতিৰ	-11.752
Lee	-11.7561
▁সদস্যসকল	-11.7563
8.5	-11.7638
▁পুৰণ	-11.7645
ৰাইড	-11.7727
authenticat	-11.7738
▁প্রত্য	-11.7801
চেলছ	-11.7896
নুবাদ	-11.7956
ile	-11.8021
৮৭	-11.8024
[{{	-11.8037
ভোজন	-11.8064
ards	-11.8083
ংগলম	-11.8149
chi	-11.8161
ক্যাল	-11.8164
Create	-11.8183
সম্ভব	-11.8201
drive	-11.8204
(80)	-11.8207
খোজ	-11.8207
সাৱধান	-11.8208
খোলিবলৈ	-11.8209
॥	-11.8209
pipe	-11.821
নিশ্চিত	-11.821
cdrecord	-11.8211
sound	-11.8211
শিল্পী	-11.8211
শুদ্ধ	-11.8212
২০১৪	-11.8212
মিডিয়া	-11.8213
মাউছ	-11.8213
এইচকিউ	-11.8213
দূৰ	-11.8214
বুটাম	-11.8214
©	-11.8214
অংশীদাৰী	-11.8214
একাউন্ট	-11.8214
অন্যান্য	-11.8214
ইনস্টল	-11.8215
URI	-11.8215
পৰবৰ্তী	-11.8215
ত্ৰুটি	-11.8215
এইচসি	-11.8216
▁নিৰ্বাচ	-11.822
▁স্বয়ংক্রিয়	-11.8223
ভিন্ন	-11.8225
▁সমস্য	-11.8327
▁(2628	-11.8329
▁প্লেটফৰ্ম	-11.8335
50,000	-11.834
lection	-11.8342
larını	-11.8355
▁ব্যৱসা	-11.8355
serve	-11.8384
▁পঞ্জিক	-11.8386
▁ফৰমা	-11.8391
▁ব্যবহারকারী	-11.8399
▁Hyper	-11.8401
м	-11.8402
quir	-11.8403
world	-11.8403
পঞ্জিতে	-11.8403
emplarCharacters	-11.8403
-8859-8	-11.8403
▁bugzilla	-11.8403
▁আমদানিকৰোঁতা	-11.8403
ified	-11.8403
measurement	-11.8403
request	-11.8403
▁configuration	-11.8403
▁এপলিকেশন	-11.8403
▁জার্নাল	-11.8403
▁নিউজিলেণ্ড	-11.8403
▁প্ৰশমক	-11.8403
▁প্ৰসাশন	-11.8403
▁ফ্ৰাঞ্চ	-11.8403
▁বিধেয়ক	-11.8403
▁সংসাধক	-11.8403
▁সম্প্ৰচাৰ	-11.8403
▁সহকৰ্মী	-11.8403
▁স্লোভেনিয়া	-11.8403
(230127)	-11.8403
(242118)	-11.8403
(242124)	-11.8403
(24218)	-11.8403
(45718)	-11.8403
Accelerator	-11.8403
Access	-11.8403
Advanced	-11.8403
MERCHANTABILITY	-11.8403
Mathematical	-11.8403
Memory	-11.8403
PATTERN	-11.8403
Secure	-11.8403
Unknown	-11.8403
Yesterday	-11.8403
criteria	-11.8403
crypttab	-11.8403
external	-11.8403
fDlgSlideSwitchP	-11.8403
floor	-11.8403
mathematics	-11.8403
pixbuf	-11.8403
replace	-11.8403
subject	-11.8403
vanagari	-11.8403
wodim	-11.8403
}-${	-11.8403
بندر	-11.8403
অদ্ভুত	-11.8403
অভ্যুত্থান	-11.8403
ইউক্ৰেনিয়ান	-11.8403
এম্বুলেঞ্চৰ	-11.8403
গ্ৰেডিয়েন্ট	-11.8403
ধ্বন্যাত্মক	-11.8403
পন্থী	-11.8403
েন্টিমিটাৰ	-11.8403
▁#-#-#-#-#	-11.8403
▁(12837)	-11.8403
▁(12880)	-11.8403
▁(12891)	-11.8403
▁(17070)	-11.8403
▁(277790)	-11.8403
▁(278219)	-11.8403
▁(36257)	-11.8403
▁(46548)	-11.8403
▁(46550)	-11.8403
▁(4959)	-11.8403
▁(5663)	-11.8403
▁(59446)	-11.8403
▁AUTH	-11.8403
▁AtkHyperlink	-11.8403
▁Gcalctool	-11.8403
▁HOST	-11.8403
▁Libburn	-11.8403
▁Music	-11.8403
▁Please	-11.8403
▁RADOS	-11.8403
▁SunPorno	-11.8403
▁TumblrEmail	-11.8403
▁Unicode	-11.8403
▁fill	-11.8403
▁hyper	-11.8403
▁iscsi	-11.8403
▁justify	-11.8403
▁libisofs	-11.8403
▁modify	-11.8403
▁neighbor	-11.8403
▁should	-11.8403
▁virgins	-11.8403
▁অগ্ৰগণ্য	-11.8403
▁অনুকলন	-11.8403
▁অন্বেষণ	-11.8403
▁অপ্ৰত্যাশীত	-11.8403
▁অপৰিহাৰ্য	-11.8403
▁অবাঞ্চিত	-11.8403
▁অবিলম্বে	-11.8403
▁অমুছলিমসকল	-11.8403
▁অস্বীকাৰ	-11.8403
▁অৰিহণা	-11.8403
▁অৱজেক্ট	-11.8403
▁আইডেন্টিফায়াৰ	-11.8403
▁আক্ষৰিক	-11.8403
▁আপোনালোকে	-11.8403
▁আপোনালোকৰ	-11.8403
▁আভ্যন্তৰীণ	-11.8403
▁ইটিৰেটৰ	-11.8403
▁ইনচিফাৰমেন্ট	-11.8403
▁উদ্বেগ	-11.8403
▁উন্নহয়ন	-11.8403
▁উপদেষ্টা	-11.8403
▁উলংঘন	-11.8403
▁ঋতুস্ৰাৱ	-11.8403
▁এপিছোড	-11.8403
▁এম্পাৰছেন্দ	-11.8403
▁কংগ্ৰেছ	-11.8403
▁কেইটিমান	-11.8403
▁কেলকুলেটৰ	-11.8403
▁ক্যাৰেক্টাৰ	-11.8403
▁ক্লোটস্কি	-11.8403
▁খেলুৱৈ	-11.8403
▁গুচাওক	-11.8403
▁চাবিফলকৰ	-11.8403
▁চেপ্তেম্বৰ	-11.8403
▁চৌপাশে	-11.8403
▁চৰ্তাবলী	-11.8403
▁ছাহাবী	-11.8403
▁জলসেচন	-11.8403
▁টেলিফোন	-11.8403
▁ডাইজেস্ট	-11.8403
▁ডালােেঢ	-11.8403
▁ডেলিভাৰী	-11.8403
▁তাৰতম্য	-11.8403
▁দৃষ্টিপৰ্ট	-11.8403
▁দৃষ্টিভংগী	-11.8403
▁দ্বিগুণ	-11.8403
▁নেতিবাচক	-11.8403
▁নেতৃত্বাধীন	-11.8403
▁পড়বে	-11.8403
▁পশ্চাত্‍গামী	-11.8403
▁পিক্ছেলৰসংখ্যা	-11.8403
▁পুনঃনামকৰণ	-11.8403
▁পুনঃবিতৰণ	-11.8403
▁পূৰ্বাঞ্চলত	-11.8403
▁পৃষ্ঠভূমি	-11.8403
▁পোৰ্টুগাল	-11.8403
▁প্ৰাসঙ্গিক	-11.8403
▁প্ৰাৰম্ভকৰোঁতা	-11.8403
▁পৰিবৰ্ত্তিত	-11.8403
▁ফিল্মফেয়াৰ	-11.8403
▁ফেব্ৰু	-11.8403
▁বজ্ৰপাত	-11.8403
▁বঢ়োৱা	-11.8403
▁বরাদ্দ	-11.8403
▁বহিৰাক্ৰমণ	-11.8403
▁বহিৰ্গমন	-11.8403
▁বাজেয়াপ্তকৰণ	-11.8403
▁বিতংকৈ	-11.8403
▁ব্যান্ডহুইডত্	-11.8403
▁বৰনামঘৰ	-11.8403
▁ভয়াবহ	-11.8403
▁ভাট্টা	-11.8403
▁ভিছুৱেল	-11.8403
▁ভিটামিন	-11.8403
▁ভূমিস্খলন	-11.8403
▁মংত্র	-11.8403
▁মনোনীত	-11.8403
▁মাধৱদেৱ	-11.8403
▁মেগ্নিফিকেষণ	-11.8403
▁মৌখিক	-11.8403
▁শানতুং	-11.8403
▁শিল্পকৌশল	-11.8403
▁শীৰ্ষকবিহিন	-11.8403
▁শুণ্য	-11.8403
▁সঁহাৰি	-11.8403
▁সঙ্কেত	-11.8403
▁সম্মুখগামী	-11.8403
▁সারাংশ	-11.8403
▁সুত্ৰধাৰ	-11.8403
▁সুবিন্যস্ত	-11.8403
▁স্টাইলাচ	-11.8403
▁স্পেনিচ	-11.8403
▁সৰ্বধৰনেৰ	-11.8403
▁হাঙ্গেৰী	-11.8403
▁ৰাজনিতী	-11.8403
▁ৰূপৰেখা	-11.8403
▁ৰেস্তোৰা	-11.8403
▁ৰ্টুগিছ	-11.8403
(231197)	-11.8403
ensitiv	-11.8403
gvfs	-11.8403
১৯৯৮	-11.8403
▁Life	-11.8403
▁OWA	-11.8403
▁Rating	-11.8403
▁build	-11.8403
▁zaman	-11.8403
▁অন্তৰ্ভূক্ত	-11.8403
▁এপ্রিল	-11.8403
▁কিলোগ্ৰাম	-11.8403
▁ছাঁদ	-11.8403
▁নেনোমিটাৰ	-11.8403
▁প্যালেট	-11.8403
▁বয়লাৰ	-11.8403
▁যুক্তিসংগত	-11.8403
▁হৃদয়	-11.8403
▁ৰেখাঙ্কন	-11.8403
(13023)	-11.8403
▁উপলব্ধকৰোঁতা	-11.8403
▁ঘাতচিহ্ন	-11.8403
▁জঞ্জাল	-11.8403
▁প্ৰাকদৰ্শন	-11.8403
▁বার্ষিক	-11.8403
▁বিন্যস্ত	-11.8403
▁ভাৰ্সান	-11.8403
▁ভৰালী	-11.8403
▁লক্ষ্মী	-11.8403
▁লাক্সেম	-11.8403
▁সহনশীল	-11.8403
2833"	-11.8403
lzma	-11.8403
▁অনামিকা	-11.8403
▁কানাডিয়ান	-11.8403
▁বছৰেকীয়া	-11.8403
(1635)	-11.8403
▁জ্ঞাপন	-11.8403
Duration	-11.8403
▁(5644)	-11.8403
-8136	-11.8403
▁(921)	-11.8403
▁Telef	-11.8403
▁উৎসাহিত	-11.8403
▁কৰ্মস্থলেৰ	-11.8403
▁নোলোৱা	-11.8403
▁প্ৰবাহিত	-11.8403
▁after	-11.8403
▁ভালদৰে	-11.8403
▁সংলাপ	-11.8403
▁দরুন	-11.8403
▁বিপণন	-11.8403
▁মূল্যৱান	-11.8403
prune	-11.8403
▁08:00	-11.8403
▁পিভট	-11.8403
(488)	-11.8403
▁(820)	-11.8403
▁এলাৰ্ম	-11.8403
socket	-11.8403
▁(3048)	-11.8403
▁(922)	-11.8403
ণ্ণে	-11.8404
প্রনোদ	-11.8404
▁অর়িৱ	-11.8404
▁চাইকেল	-11.8404
▁তাপমান	-11.8404
▁পুস্তিকাটোত	-11.8404
▁Kill	-11.8404
▁JPG	-11.8404
▁WPA	-11.8404
▁WAR	-11.8404
▁কঙ্গো	-11.8404
(2626)	-11.8404
▁Chess	-11.8404
▁আয়োগে	-11.8404
▁(1048)	-11.8404
▁(4710)	-11.8404
▁Marath	-11.8404
▁room	-11.8404
ски	-11.8404
▁তুষাৰপাত	-11.8404
circ	-11.8404
join	-11.8404
▁সন্তুষ্ট	-11.8404
Important	-11.8404
▁মাগী	-11.8404
প্ৰাধিকৰণ	-11.8404
▁তামিল	-11.8404
▁সীমালৈকে	-11.8404
▁উপনীত	-11.8404
▁ঘোৰা	-11.8404
▁teen	-11.8404
▁দহন	-11.8404
িঙ্গাপুৰ	-11.8404
▁গতকাল	-11.8404
▁স্তুপ	-11.8404
▁স্পেইচ	-11.8404
▁আকাশী	-11.8404
▁কুৰ্দি	-11.8404
ам	-11.8404
ডাকোটা	-11.8404
serif	-11.8404
▁২০১৬	-11.8404
▁netlink	-11.8404
▁পিক্সেলৰসংখ্যা	-11.8404
▁Kids	-11.8404
▁ব্লিঙ্ক	-11.8404
্ভপাত	-11.8404
createaccount	-11.8404
▁ফেললে	-11.8404
▁মেৰীক	-11.8404
▁(140)	-11.8404
▁অধিক্ৰম	-11.8404
▁(160)	-11.8404
▁পঞ্জীভুক্ত	-11.8404
Center	-11.8404
▁ক্যাড	-11.8404
▁ECC	-11.8404
▁ক্লাউড	-11.8404
▁Esfand	-11.8404
▁ঠিকানাবইয়ে	-11.8404
▁SAR	-11.8404
▁উঠিব	-11.8404
▁গৃহযুদ্ধ	-11.8404
▁অন্তৰ্বস্তু	-11.8404
▁কাছাৰ	-11.8404
▁মহানগৰ	-11.8404
guru	-11.8404
▁live	-11.8404
▁Ltd	-11.8404
▁বাইৰন	-11.8404
▁বিপদজনক	-11.8404
▁দুৰ্যোগ	-11.8404
(832)	-11.8405
▁পদত্যাগ	-11.8405
▁ৰূপায়ন	-11.8405
▁CSS	-11.8405
▁মানৱাধিকাৰ	-11.8405
▁backend	-11.8405
▁বতাহ	-11.8405
▁স্বখোজ	-11.8405
▁(36452)	-11.8405
▁(59349)	-11.8405
▁শেডাৰ	-11.8405
খেছিলেন	-11.8405
▁মুষ্ঠি	-11.8405
▁২০০৬	-11.8405
সজুলি	-11.8405
▁চলাওঁতে	-11.8405
ফুল্ল	-11.8406
▁চেতন	-11.8406
▁সংবাদমেল	-11.8406
▁অপব্যৱহাৰ	-11.8406
▁(5493)	-11.8406
▁পেনগো	-11.8406
▁(2949)	-11.8406
▁নিচেৰ	-11.8406
▁গোপণ	-11.8406
▁মহন্ত	-11.8406
posite	-11.8406
▁বহিৰ্গামী	-11.8406
▁অৱকাশ	-11.8406
▁ৰাজস্থান	-11.8406
ları	-11.8406
▁মালিকানা	-11.8406
▁গৈছিল	-11.8406
(490)	-11.8406
▁hard	-11.8407
strict	-11.8407
▁গুনাহ	-11.8407
nstant	-11.8407
(2624)	-11.8407
▁(5075)	-11.8407
▁term	-11.8407
▁উপবৃত্তকৃত	-11.8407
▁প্লেবেক	-11.8407
▁সাহস	-11.8407
▁DBX	-11.8408
▁ৰেজিস্টাৰ্ড	-11.8408
▁1970	-11.8408
▁Febof	-11.8408
▁Remove	-11.8409
(4660)	-11.8409
tube	-11.8409
nowiki	-11.8409
Playlist	-11.8409
detect	-11.8409
▁লকডাউন	-11.8409
BAS	-11.8409
▁States	-11.8409
underline	-11.8409
▁স্বৰ্ণ	-11.8409
▁0.001	-11.841
বইয়ে	-11.841
▁(1074)	-11.841
▁(1055)	-11.841
▁0.002	-11.8411
▁ছাৰ্জ	-11.8411
▁Right	-11.8411
▁হিচা	-11.8411
্লোভাকিয়া	-11.8411
gdk	-11.8411
▁আন্তঃ	-11.8411
export	-11.8412
memory	-11.8412
▁ফিটাৰ	-11.8412
হ্যাঁ	-11.8412
(495)	-11.8412
▁Zip	-11.8413
▁ঘোষনা	-11.8413
▁(139)	-11.8414
▁কোনোবাই	-11.8414
▁জামো	-11.8414
▁(76)	-11.8414
▁(1015)	-11.8414
▁স্বচালিতৰূপে	-11.8415
▁(1003)	-11.8415
arest	-11.8415
tech	-11.8415
▁ফ্লাশ	-11.8416
▁(590)	-11.8417
▁অপসা	-11.8417
▁ফাৰ্ম	-11.8418
▁য়ঃ	-11.8419
পাদন	-11.842
▁(483)	-11.8421
ইপোক	-11.8422
lement	-11.8422
▁নবীকৰণ	-11.8423
তিলিপি	-11.8426
TNE	-11.8429
▁প্ৰাৰম্ভকৰণ	-11.8435
গ্ৰস্থ	-11.8435
▁(26)	-11.8435
udo	-11.8436
িঘ্	-11.844
TrueType	-11.8452
2986	-11.846
atsu	-11.8487
▁ৱেলচ	-11.8489
author	-11.8497
porn	-11.8502
Tool	-11.8509
তেওঁলোক	-11.852
১৮০	-11.8521
ম্বার	-11.8527
(4575	-11.8537
ডেস্ক	-11.8597
acebook	-11.8599
-450	-11.862
(168)	-11.8652
হাঁহি	-11.8658
কোৰীয়	-11.8669
▁র়	-11.8701
▁See	-11.8722
েতিয়াও	-11.8749
GMail	-11.8771
মংগল	-11.8791
স্কেপ	-11.88
today	-11.881
্যাসৰ	-11.8825
যুগৰ	-11.8825
েচিয়ান	-11.8884
াষ্ট্	-11.8918
▁0.03	-11.8978
ৰ্গামী	-11.8981
▁Multi	-11.8991
Pad	-11.9055
▁Swa	-11.9062
6582	-11.911
ুডু	-11.9156
০৫	-11.9309
limit	-11.9387
সৎকামৰ	-11.9518
▁বৰ্ত্তমান	-11.953
সম্পাদন	-11.954
▁প্ৰাৰ্থী	-11.9573
ৱস্থা	-11.9602
দৰ্	-11.961
বিকল্প	-11.9629
Meeting	-11.9634
program	-11.9637
input	-11.9638
first	-11.9638
signature	-11.9639
description	-11.9639
মন্ত্ৰী	-11.964
কৃষি	-11.964
ইন্ডেক্স	-11.964
আগলৈ	-11.964
Enter	-11.9641
অগ্নিকাণ্ড	-11.9641
শূন্য	-11.9641
Image	-11.9641
প্ৰাসংগিক	-11.9641
শিক্ষক	-11.9641
অপ্ৰকাশিত	-11.9641
ঈশান	-11.9641
অগ্ৰসৰ	-11.9641
প্ৰামাণিক	-11.9641
বিপৰীত	-11.9641
সিস্টেম	-11.9642
Outlook	-11.9642
শুধুমাত্ৰ	-11.9642
চেষ্টা	-11.9642
uuid	-11.9642
নিৰীক্ষণ	-11.9643
স্বাভাবিক	-11.9643
keyring	-11.9643
আমেৰিকা	-11.9643
অতিৰিক্ত	-11.9643
পুনৰুদ্ধাৰ	-11.9643
যেতিয়া	-11.9643
অনুমতি	-11.9643
সৃষ্টি	-11.9643
সংৰূপ	-11.9648
নহয়	-11.9649
dah	-11.9665
▁স্কীম	-11.9681
▁wwn	-11.9722
▁উপশীৰ্ষক	-11.973
\\%	-11.9753
▁নিয়ন্ত্ৰ	-11.9764
▁Unit	-11.979
্বোধন	-11.9791
ward	-11.98
▁virtual	-11.9805
▁bond	-11.9805
কল্পিত	-11.9818
update	-11.982
ful	-11.9822
▁সম্ভাৱ	-11.9823
▁even	-11.9824
▁অক্টো	-11.983
ilms	-11.9831
▁মাৰ্কেট	-11.9831
▁প্রেরক	-11.9831
▁trace	-11.9831
▁ফিলিপ	-11.9832
গ্ৰাফী	-11.9832
▁জৰুৰী	-11.9832
Manager	-11.9832
গভৰ্ন	-11.9832
▁আলোকচিত্ৰ	-11.9832
৮৬২৫০১	-11.9832
First	-11.9832
ignore	-11.9832
length	-11.9832
▁মাইক্ৰোছেকেণ্ড	-11.9832
▁মাইক্ৰোমিটাৰ	-11.9832
metacity	-11.9832
(13015)	-11.9832
(13016)	-11.9832
(16604)	-11.9832
(23881)	-11.9832
(28882)	-11.9832
(32832)	-11.9832
(43946)	-11.9832
(6012)	-11.9832
Mexico	-11.9832
RWBCIS	-11.9832
Refresh	-11.9832
Toggle	-11.9832
VIDEO	-11.9832
arameters	-11.9832
exact	-11.9832
extract	-11.9832
include	-11.9832
nautilus	-11.9832
previous	-11.9832
public	-11.9832
revision	-11.9832
separate	-11.9832
service	-11.9832
success	-11.9832
öyle	-11.9832
ঁতসেঁতে	-11.9832
অসামঞ্জস্যপূৰ্ণ	-11.9832
ক্যামেৰা	-11.9832
দিনবেপী	-11.9832
প্ৰতিমুৰ্তি	-11.9832
ভেনিজুৱেলা	-11.9832
মাদাগাচকাৰ	-11.9832
িউনিছিয়া	-11.9832
িকেনমিতি	-11.9832
▁(13126)	-11.9832
▁(1656)	-11.9832
▁(235520)	-11.9832
▁(24105)	-11.9832
▁(242051)	-11.9832
▁(24214)	-11.9832
▁(276355)	-11.9832
▁(280792)	-11.9832
▁(46553)	-11.9832
▁(4907)	-11.9832
▁(5105)	-11.9832
▁(5601)	-11.9832
▁(59278)	-11.9832
▁(8776)	-11.9832
▁192.168.2.1	-11.9832
▁APOP	-11.9832
▁Adansonia	-11.9832
▁Addressbook	-11.9832
▁Bongaigaon	-11.9832
▁Botanix	-11.9832
▁Completion	-11.9832
▁Envelope	-11.9832
▁Galway	-11.9832
▁GtkAdjustment	-11.9832
▁Gucharmap	-11.9832
▁Indonesia	-11.9832
▁Modified	-11.9832
▁OneDrive	-11.9832
▁Reserved	-11.9832
▁Surah	-11.9832
▁Touchstrip	-11.9832
▁VLAN	-11.9832
▁`{0}'	-11.9832
▁bandwidth	-11.9832
▁fallback	-11.9832
▁hope	-11.9832
▁iSCSI	-11.9832
▁install	-11.9832
▁macvtap	-11.9832
▁moniker	-11.9832
▁nwfilter	-11.9832
▁rotation	-11.9832
▁texas	-11.9832
▁vscoop	-11.9832
▁warrant	-11.9832
▁wimax	-11.9832
▁অক্ষুণ্ণ	-11.9832
▁অক্সিজেন	-11.9832
▁অপাৰেছন	-11.9832
▁অমীমাংসিত	-11.9832
▁আগামীকাল	-11.9832
▁আজাৰবাইজান	-11.9832
▁আত্মহত্যা	-11.9832
▁ইনচুলিন	-11.9832
▁ইনফোকম	-11.9832
▁ইনষ্টিটিউট	-11.9832
▁ইনস্টেন্ট	-11.9832
▁উথ্থাপিত	-11.9832
▁এডাপ্টৰ	-11.9832
▁এনক্ৰিপছন	-11.9832
▁এলগোৰিদম	-11.9832
▁কঢ়িওৱা	-11.9832
▁কন্ট্ৰোল	-11.9832
▁কম্বোবাকচ	-11.9832
▁কাজাখস্তান	-11.9832
▁কার্যসূচীঃ	-11.9832
▁ক্ৰমবিকাশ	-11.9832
▁কৰ্তৃত্ব	-11.9832
▁কৰ্পোৰেট	-11.9832
▁গতিবৰ্দ্ধক	-11.9832
▁গোবিন্দ	-11.9832
▁গৌণিকৰণ	-11.9832
▁গ্ৰহণকাৰীসমূহক	-11.9832
▁গ্ৰেডিয়ানসমূহ	-11.9832
▁চকোলেট	-11.9832
▁চফঘব	-11.9832
▁চল্লিশ	-11.9832
▁চেতাবনি	-11.9832
▁চৰিত্ৰৰ	-11.9832
▁টেলিভিছন	-11.9832
▁ত্ৰিনিদাদ	-11.9832
▁দধুমপান	-11.9832
▁দৃষ্টিপটভূমি	-11.9832
▁দেশজুৰি	-11.9832
▁দৈতসম্ভোগী	-11.9832
▁নিউট্ৰিফ্ল	-11.9832
▁নির্ধাৰণ	-11.9832
▁নিলিখিব	-11.9832
▁নিৰপেক্ষ	-11.9832
▁নিৰ্বিশেষে	-11.9832
▁নোটিফিকে	-11.9832
▁পর্যাপ্ত	-11.9832
▁পাসৱৰ্ড	-11.9832
▁পুনরাবৃত্তি	-11.9832
▁পোনপটীয়া	-11.9832
▁প্ৰতিশ্ৰুতি	-11.9832
▁প্ৰত্যূত্তৰটি	-11.9832
▁প্ৰাপ্তিস্বীকাৰ	-11.9832
▁প্ৰৱণতা	-11.9832
▁পৰম্পৰাগত	-11.9832
▁ফিল্টার	-11.9832
▁ফেচবুক	-11.9832
▁ফ্লেমিং	-11.9832
▁বান্ধীবলে	-11.9832
▁বাস্তবায়িত	-11.9832
▁বিত্তমন্ত্ৰী	-11.9832
▁বিবৰ্দ্ধক	-11.9832
▁বিভাজিত	-11.9832
▁বুঝতে	-11.9832
▁ব্যাটারি	-11.9832
▁বৰদলৈ	-11.9832
▁বৰ্দ্ধিত	-11.9832
▁ভৌগোলিক	-11.9832
▁মহাপুৰুষ	-11.9832
▁মাধ্যাকৰ্ষণ	-11.9832
▁মূল্যহ্ৰাস	-11.9832
▁যাকাৰিয়্যাহ	-11.9832
▁যাত্ৰাপুস্তক	-11.9832
▁লাইবেৰিয়া	-11.9832
▁শাৰিৰীক	-11.9832
▁শিক্ষানুষ্ঠান	-11.9832
▁শ্ৰদ্ধা	-11.9832
▁সংক্ৰমণ	-11.9832
▁সংস্করণের	-11.9832
▁সঞ্জীৱ	-11.9832
▁সতর্কবার্তা	-11.9832
▁সন্নিবিষ্ট	-11.9832
▁সবাতোকৈ	-11.9832
▁সাংস্কৃতিক	-11.9832
▁সুবিধানুযায়ী	-11.9832
▁সুস্পষ্ট	-11.9832
▁সৃজনীশীল	-11.9832
▁সেঁতু	-11.9832
▁সৈংত্	-11.9832
▁স্বনির্বাচিত	-11.9832
▁হস্তক্ষেপ	-11.9832
▁হাঙ্গুল	-11.9832
▁হাতপুথি	-11.9832
▁হেক্সাডেসিম	-11.9832
▁হেল্পলাইন	-11.9832
▁ৰংগনাথন	-11.9832
▁ৰবীন্দ্ৰ	-11.9832
▁ৰাজনৈতিক	-11.9832
Beep	-11.9832
expand	-11.9832
high	-11.9832
চীনদেশীয়	-11.9832
▁(1062)	-11.9832
▁(161)	-11.9832
▁(278240)	-11.9832
▁libburn	-11.9832
▁libhal	-11.9832
▁sqlite	-11.9832
▁আৰেকটি	-11.9832
▁এডব্লিউজি	-11.9832
▁ঐতিহাসিক	-11.9832
▁কেনেকুৱা	-11.9832
▁গৌৰৱ	-11.9832
▁চাহিদা	-11.9832
▁চ্লাইড	-11.9832
▁ডিলাৰেৰ	-11.9832
▁ঢোকানো	-11.9832
▁তেলুগু	-11.9832
▁প্ৰক্ৰীয়া	-11.9832
▁ফায়াৰৱাল	-11.9832
▁বোৱাৰী	-11.9832
▁মেইনলেণ্ড	-11.9832
▁সৰলীকৃত	-11.9832
Directory	-11.9832
nbsp	-11.9832
notifications	-11.9832
উজবেকীয়	-11.9832
বৰপেটা	-11.9832
২০১৩	-11.9832
▁(4986)	-11.9832
▁Guide	-11.9832
▁Www	-11.9832
▁bitrate	-11.9832
▁bool	-11.9832
▁chardev	-11.9832
▁sgio	-11.9832
▁অনুবৃত্তি	-11.9832
▁অনুশীলন	-11.9832
▁ইউনিয়ন	-11.9832
▁উইণ্ডো	-11.9832
▁কৃতিত্ব	-11.9832
▁জালিয়াতি	-11.9832
▁জীৱবিজ্ঞান	-11.9832
▁থলুৱা	-11.9832
▁নেশ্যনেল	-11.9832
▁পচ্ছন্দ	-11.9832
▁প্লাষ্টিক	-11.9832
▁প্ৰমানপত্ৰ	-11.9832
▁ফোলিও	-11.9832
▁ফৰাচী	-11.9832
▁বিজুতি	-11.9832
▁বিদ্বেষপৰায	-11.9832
▁সন্মুখীন	-11.9832
(32619)	-11.9832
Tuesday	-11.9832
metric	-11.9832
স্বীকার	-11.9832
ালভাডোৰ	-11.9832
▁Click	-11.9832
▁York	-11.9832
▁অভ্যাস	-11.9832
▁আইনষ্টাইন	-11.9832
▁পৰিৱৰ্তক	-11.9832
Input	-11.9832
spamc	-11.9832
}}]]	-11.9832
▁(12821)	-11.9832
▁(5669)	-11.9832
▁[0..	-11.9832
▁আগ্ৰহী	-11.9832
▁এনআৰচি	-11.9832
▁তেনেকুৱা	-11.9832
▁তৈরি	-11.9832
▁প্ৰিন্সিপ	-11.9832
▁যন্ত্ৰপাতি	-11.9832
▁যৌগ	-11.9832
▁FAQ	-11.9832
▁Hula	-11.9832
▁Unable	-11.9832
▁অতিবাহিত	-11.9832
▁বনাওক	-11.9832
▁বিকিৰণ	-11.9832
▁বৰ্ধিত	-11.9832
▁(5664)	-11.9832
▁টেকস্ট	-11.9832
▁টেবলিউ	-11.9832
▁মাহজং	-11.9832
▁উদঙা	-11.9832
Calib	-11.9832
aximum	-11.9832
▁কাস্টম	-11.9832
▁ক্ৰেশ্ব	-11.9832
▁Rhy	-11.9832
▁ডিষ্ট্ৰিবিউটৰ	-11.9832
userrights	-11.9832
white	-11.9832
মাউথ	-11.9832
পঞ্চাশ	-11.9832
▁(1679)	-11.9832
▁(5044)	-11.9832
▁(510)	-11.9832
▁ভুগি	-11.9832
▁হাজিৰ	-11.9832
▁(1166)	-11.9832
▁হাঙ্গেৰি	-11.9832
▁existing	-11.9832
▁এক্সিকিউটেবল	-11.9832
▁ঘুৰোৱা	-11.9832
▁বিরতি	-11.9832
▁ব্যবধান	-11.9832
▁সোৰ্স	-11.9832
(231252)	-11.9832
▁(4727)	-11.9832
▁শতিকাৰ	-11.9832
▁হাছান	-11.9832
Canada	-11.9832
chool	-11.9832
▁(1071)	-11.9832
▁সুলভ	-11.9832
▁kwin	-11.9832
About	-11.9832
▁(1065)	-11.9832
▁(5554)	-11.9832
bolic	-11.9832
▁আচবাব	-11.9832
▁মাচুল	-11.9832
▁(1063)	-11.9832
vcf	-11.9832
বোর্ড	-11.9832
▁connected	-11.9832
Fetch	-11.9832
(2457)	-11.9832
spamd	-11.9832
▁জডান	-11.9832
▁CHE	-11.9832
▁Scroll	-11.9832
▁বিতৰন	-11.9832
water	-11.9832
rfc	-11.9832
serial	-11.9832
▁PUR	-11.9832
▁shut	-11.9832
swap	-11.9832
▁Acer	-11.9832
▁স্পিকাৰ	-11.9832
▁CBD	-11.9832
▁editor	-11.9832
▁ৰীডাৰ	-11.9832
Job	-11.9832
▁লিওন	-11.9832
▁সৰ্বসাধাৰণ	-11.9833
ল্যাটিন	-11.9833
avail	-11.9833
LTR	-11.9833
gresource	-11.9833
strip	-11.9833
addressbook	-11.9833
টাইটেল	-11.9833
▁ভাগ্যৰ	-11.9833
▁(59634)	-11.9833
▁আনন্দজনক	-11.9833
▁আচৰিত	-11.9833
▁উৰুগু	-11.9833
▁Webkit	-11.9833
▁ভগভগ	-11.9833
Copy	-11.9833
▁নিষ্কাশ	-11.9833
▁ফুটবল	-11.9833
▁LED	-11.9833
(2538)	-11.9833
▁অধিগ্ৰহণ	-11.9833
▁ড্ৰপডাউন	-11.9833
ordad	-11.9833
nimation	-11.9833
▁চিয়ামৰ	-11.9833
▁কৰননি	-11.9833
▁আগমনকৰ্তা	-11.9833
▁Oct	-11.9833
handle	-11.9833
▁২০১১	-11.9833
▁মিলিলিটা	-11.9833
▁backup	-11.9833
Wak	-11.9833
▁আহমেদ	-11.9833
রুৰ‍্	-11.9834
▁হাৰ্ডডিস্ক	-11.9834
▁ফেলো	-11.9834
▁পকঃ	-11.9834
▁যেহেতু	-11.9834
brain	-11.9834
▁গেলাৰী	-11.9834
▁২০০৭	-11.9834
DIR	-11.9834
timezone	-11.9834
ত্যুত্ত	-11.9834
▁গ্ৰোভ	-11.9834
▁Esf	-11.9834
গায়ানা	-11.9835
(3845)	-11.9835
▁সূচিপত্ৰ	-11.9835
▁ট্ৰাস্ট	-11.9835
▁iid	-11.9835
▁মেৰোৱা	-11.9835
▁হুইল	-11.9835
legen	-11.9835
.0:-	-11.9835
▁অধিহাৰ	-11.9835
▁বাতৰিদল	-11.9836
প্লিকে	-11.9836
▁(1824)	-11.9836
dvd	-11.9836
িডোনিয়া	-11.9838
10:00	-11.9838
▁(497)	-11.9838
ম্বোডিয়া	-11.9838
GPG	-11.9838
▁snd	-11.984
▁tablet	-11.984
েলুলাৰ	-11.9842
স্বচ্ছতানপুংসক	-11.9843
CCI	-11.985
▁পার্ট	-11.9851
▁গ্ৰেব	-11.9855
ntire	-11.9856
▁ৰাজত্ব	-11.9856
9.5	-11.9858
টবুক	-11.9858
Spacekeyboard	-11.9859
লাওতে	-11.9863
্মুখীন	-11.9865
(23379)	-11.9868
lockquote	-11.9869
▁1.38	-11.9876
▁হাউচ	-11.9878
২০০৮	-11.991
এইস্থানে	-11.9922
Personal	-11.9966
ldap	-12.0072
setup	-12.0084
▁পৰ্য	-12.013
▁useful	-12.013
▁prop	-12.0132
▁অসৎকাম	-12.0156
▁প্ৰক্ৰিয	-12.0176
ashi	-12.0376
ধনী	-12.0381
frame	-12.0412
উদ্যোগিক	-12.0593
,000-1	-12.0659
complete	-12.088
িঞ্চি	-12.0964
ক্ষেত্ৰত	-12.1017
ected	-12.109
LAR	-12.1118
▁আপোনা	-12.1186
ফিল্টাৰিং	-12.1216
যান্ত্ৰিক	-12.1219
▁face	-12.1234
ীক্ষক	-12.1264
চিস্টেম	-12.1289
বিৱৰিত	-12.1294
পৃথকিত	-12.1302
পইন্ট	-12.1304
শ্রেণী	-12.1304
System	-12.1305
প্রযুক্তি	-12.1305
ইঞ্চি	-12.1305
সৰ্বধৰনৰ	-12.1305
পৰীক্ষামূলক	-12.1305
Import	-12.1306
ঊ	-12.1307
return	-12.1307
plain	-12.1307
সাময়িক	-12.1307
গোপনীয়তা	-12.1307
উলোটা	-12.1308
পৰিৱৰ্তনসমূহ	-12.1308
আনুভূমিক	-12.1308
বিজ্ঞাপন	-12.1308
প্ৰদৰ্শক	-12.1308
বাওঁফালে	-12.1309
উদ্দেশ্য	-12.1309
PGP	-12.1309
সূচনা	-12.1309
ডেস্কটপ	-12.1309
নথকাকৈ	-12.1309
শেহতীয়া	-12.1309
মৌলিক	-12.131
ফলাফল	-12.131
HTTP	-12.131
নিয়ন্ত্ৰণ	-12.131
নিষ্ক্ৰিয়	-12.131
খোলক	-12.131
নেটৱাৰ্ক	-12.131
প্ৰেৰিত	-12.131
bytes	-12.131
হিচাপে	-12.131
লিখিত	-12.1318
ৰ্টকাটৰ	-12.1448
▁চাৰপাশ	-12.1452
HAN	-12.1452
▁হিসাব	-12.1454
valid	-12.1479
▁নিৰ্ধাৰ	-12.1485
ization	-12.1489
োগ্য	-12.1493
▁follow	-12.1495
parallel	-12.1495
scroll	-12.1496
vince	-12.1496
ৃংখল	-12.1497
▁Translat	-12.1498
ুযায়ী	-12.1498
separator	-12.1499
ово	-12.1499
question	-12.1499
Wifi	-12.1499
dildo	-12.1499
hristophe	-12.1499
argument	-12.1499
freedesktop	-12.1499
xxxtrasmall	-12.1499
ург	-12.1499
;#39;	-12.1499
Project	-12.1499
debug	-12.1499
duplicatesearch	-12.1499
fixed	-12.1499
nosuch	-12.1499
প্ৰচেছৰ	-12.1499
▁finger	-12.1499
▁virGetUser	-12.1499
▁অপ্রত্যাশিত	-12.1499
▁এন্টিবায়	-12.1499
▁প্ৰমূখ	-12.1499
▁ভ্ৰান্তি	-12.1499
▁মঙ্গলবাৰ	-12.1499
(201154)	-12.1499
(231537)	-12.1499
(235509)	-12.1499
(239787)	-12.1499
(240404)	-12.1499
(24259)	-12.1499
(44015)	-12.1499
(46587)	-12.1499
(55976)	-12.1499
:$1_$1]]	-12.1499
Break	-12.1499
CURRENT	-12.1499
Continue	-12.1499
Delegate	-12.1499
Digits	-12.1499
DjVu	-12.1499
Eastern	-12.1499
Events	-12.1499
ForeignFolder	-12.1499
Hebrew	-12.1499
Kiribati	-12.1499
Ordibehesht	-12.1499
Pantallas	-12.1499
Pragya	-12.1499
SOURCE	-12.1499
Safari	-12.1499
Screencast	-12.1499
SourceResolution	-12.1499
Thursday	-12.1499
Ukrainian	-12.1499
Zoom	-12.1499
anonymous	-12.1499
authier	-12.1499
centered	-12.1499
echnorati	-12.1499
geometry	-12.1499
grafted	-12.1499
iology	-12.1499
jbicha	-12.1499
silence	-12.1499
storage	-12.1499
threshold	-12.1499
رانی	-12.1499
অষ্ট্রেলিয়া	-12.1499
ইৰকুটস্ক	-12.1499
উদাহৰনস্বৰূপ	-12.1499
গুয়াতেমালা	-12.1499
গোভিনা	-12.1499
থনৈতিক	-12.1499
নিখুঁত	-12.1499
মালভিনাছ	-12.1499
মুছলমান	-12.1499
লুটিৱাওক	-12.1499
শ্বানক্বীতি	-12.1499
সম্পুৰ্ণ	-12.1499
স্তোত্র	-12.1499
েথামফেটাম	-12.1499
্যাডমিনিস্ট্ৰেট	-12.1499
৩২৩	-12.1499
৫৪৯৯	-12.1499
ৰ্তুগিজ	-12.1499
▁(12789)	-12.1499
▁(12861)	-12.1499
▁(12981)	-12.1499
▁(14217)	-12.1499
▁(14218)	-12.1499
▁(15400)	-12.1499
▁(15458)	-12.1499
▁(1615)	-12.1499
▁(173352)	-12.1499
▁(17908)	-12.1499
▁(184262)	-12.1499
▁(23884)	-12.1499
▁(246671)	-12.1499
▁(29322)	-12.1499
▁(33539)	-12.1499
▁(36377)	-12.1499
▁(36776)	-12.1499
▁(45953)	-12.1499
▁(59181)	-12.1499
▁(59499)	-12.1499
▁(678)	-12.1499
▁Android	-12.1499
▁AppArmor	-12.1499
▁Attachment	-12.1499
▁GVariant	-12.1499
▁Heshvan	-12.1499
▁High	-12.1499
▁Hottie	-12.1499
▁IEEE	-12.1499
▁Libdvdcss	-12.1499
▁Metacity	-12.1499
▁Moniker	-12.1499
▁NOTICE	-12.1499
▁NumLock	-12.1499
▁OAuth	-12.1499
▁OneNote	-12.1499
▁PWLIB	-12.1499
▁Polynesia	-12.1499
▁Quiz	-12.1499
▁Rajab	-12.1499
▁Tumblr	-12.1499
▁USENET	-12.1499
▁adjustment	-12.1499
▁child	-12.1499
▁could	-12.1499
▁foldoc	-12.1499
▁genisoimage	-12.1499
▁null	-12.1499
▁virXPath	-12.1499
▁whois	-12.1499
▁অগ্ৰগতি	-12.1499
▁অতিরিক্ত	-12.1499
▁অন্তৰ্নিহীত	-12.1499
▁অপৰিচালিত	-12.1499
▁অস্বিত্ববান	-12.1499
▁অৱিহনে	-12.1499
▁আকাংক্ষা	-12.1499
▁আনুবংশ	-12.1499
▁আনুষংগিক	-12.1499
▁আন্ডাৰস্ক	-12.1499
▁আফগানিস্তান	-12.1499
▁আমহাৰিক	-12.1499
▁ইতিবাচক	-12.1499
▁ইনফিনিট	-12.1499
▁উজবেকিস্তান	-12.1499
▁একসাথে	-12.1499
▁এক্সপেন্ডাৰ	-12.1499
▁এক্সেটনশন	-12.1499
▁ঐতিহ্য	-12.1499
▁কনটেইনাৰ	-12.1499
▁কাজিৰঙা	-12.1499
▁কালছোৱাত	-12.1499
▁কাৰ্যদিবস	-12.1499
▁কাৰ্য্যদিবস	-12.1499
▁কিৰ্গিজ	-12.1499
▁কেনেধৰণে	-12.1499
▁ক্যাপস	-12.1499
▁ক্লোনডাইক	-12.1499
▁গেঁটেবাত	-12.1499
▁ঘুঁটিৰ	-12.1499
▁ঘুৰাওতে	-12.1499
▁চতুর্ম্মুখ	-12.1499
▁ছলচেনা	-12.1499
▁ছুন্নত	-12.1499
▁জাস্টিফিকেশন	-12.1499
▁জিম্বাবুয়ে	-12.1499
▁জ্যেষ্ঠ	-12.1499
▁ঠিকনাবাইয়ে	-12.1499
▁ডিভাইস	-12.1499
▁ঢেকীয়াখোৱা	-12.1499
▁ত্ৰিকোনমিতিৰ	-12.1499
▁দুৰ্ভাৱনা	-12.1499
▁দূষিতকৰণ	-12.1499
▁ধুলিধুমুহা	-12.1499
▁নমস্কাৰ	-12.1499
▁নিদিয়াকৈ	-12.1499
▁নিমন্ত্ৰণ	-12.1499
▁নিস্ক্ৰিয়	-12.1499
▁নিৰ্ভুলতা	-12.1499
▁নেমস্পেইচ	-12.1499
▁পট্ৰেইট	-12.1499
▁পদ্মশ্ৰী	-12.1499
▁পাছথ্ৰু	-12.1499
▁পুথিভঁৰাল	-12.1499
▁পূৰ্বাঞ্চলৰ	-12.1499
▁পোণপটীয়া	-12.1499
▁প্রণালী	-12.1499
▁প্ৰতিকচিহ্নসমূহ	-12.1499
▁প্ৰতিদ্বন্ধিতা	-12.1499
▁প্ৰত্যাখ্যাত	-12.1499
▁প্ৰদূষন	-12.1499
▁প্ৰসিদ্ধ	-12.1499
▁পৰামর্শ	-12.1499
▁পৰিশ্ৰম	-12.1499
▁পৰ্টেবল	-12.1499
▁পৰ্য্যন্ত	-12.1499
▁পৰৱৰ্ত্তী	-12.1499
▁ফিঙ্গাৰপ্ৰিন্ট	-12.1499
▁ফেব্ৰিক	-12.1499
▁বসবাস	-12.1499
▁বিকশিত	-12.1499
▁বিবৰ্ধক	-12.1499
▁বুলগেৰিয়া	-12.1499
▁বৃষ্টিপাত	-12.1499
▁বেলাৰুচীয়	-12.1499
▁বৌদ্ধ	-12.1499
▁মাকড়সা	-12.1499
▁মুৰব্বী	-12.1499
▁মেনেজমেন্ট	-12.1499
▁যাৱতীয়	-12.1499
▁লুকৱাপ	-12.1499
▁লেছোথো	-12.1499
▁লেণ্ডস্কেইপ	-12.1499
▁শৰ্তানুযায়ী	-12.1499
▁ষ্ট্ৰং	-12.1499
▁সমানুপাতিকভাৱে	-12.1499
▁সলিটেয়াৰ	-12.1499
▁সাম্ভাব্য	-12.1499
▁স্টেথোস্কোপ	-12.1499
▁সৱিশেষ	-12.1499
▁হাভেন	-12.1499
▁হিমবৃষ্টি	-12.1499
▁হেণ্ডছেইক	-12.1499
▁হেমাহি	-12.1499
▁হেল্পাৰ	-12.1499
▁হোৱাটছএপ্প	-12.1499
▁৩৬০	-12.1499
▁ৰক্তপৰীক্ষা	-12.1499
▁ৰপ্তানী	-12.1499
▁ৰিচিপ্ট	-12.1499
▁ৰেগুলাৰ	-12.1499
EIGHT	-12.1499
TYPE	-12.1499
XMPP	-12.1499
cronym	-12.1499
jabber	-12.1499
jump	-12.1499
modmap	-12.1499
module	-12.1499
whatlinkshere	-12.1499
অলেশিয়ান	-12.1499
সস্নেহ	-12.1499
▁(28807)	-12.1499
▁(36782)	-12.1499
▁Cannot	-12.1499
▁Interview	-12.1499
▁Roche	-12.1499
▁Romalı	-12.1499
▁exhibition	-12.1499
▁উভকামী	-12.1499
▁এস্পেক্ট	-12.1499
▁চৰ্তসাপেক্ষ	-12.1499
▁ছাউথ	-12.1499
▁ডায়লিং	-12.1499
▁তদুপৰি	-12.1499
▁দিছপুৰ	-12.1499
▁নইথাৰ	-12.1499
▁নিউজগ্ৰুপে	-12.1499
▁নিয়মাবলী	-12.1499
▁প্রস্তুতির	-12.1499
▁বিটমেপ	-12.1499
▁ব্ৰুনেই	-12.1499
▁মাজুলী	-12.1499
▁মাৰ্বেল	-12.1499
▁শতবৰ্ষ	-12.1499
▁স্বকামী	-12.1499
▁ৰেডিক্যাল	-12.1499
(13142)	-12.1499
(46560)	-12.1499
/11/2015	-12.1499
Session	-12.1499
layout	-12.1499
toggle	-12.1499
verti	-12.1499
কাঙ্খ	-12.1499
ন্টেনেগ্	-12.1499
▁stdin	-12.1499
▁আকীদা	-12.1499
▁ইৰেচাৰ	-12.1499
▁উচিৎ	-12.1499
▁কপটিক	-12.1499
▁গনুহ	-12.1499
▁গুণাগুণ	-12.1499
▁ধঁপাত	-12.1499
▁নিৰিক্ষণ	-12.1499
▁বলিভাৰ	-12.1499
▁বিনোদন	-12.1499
▁সমমিতি	-12.1499
▁১৯৯৬	-12.1499
▁‍হৈছে	-12.1499
badtitle	-12.1499
▁(211)	-12.1499
▁(9312)	-12.1499
▁Mixer	-12.1499
▁অৱশেষত	-12.1499
▁কনিষ্ঠা	-12.1499
▁কাৰ্ণেল	-12.1499
▁ট্ৰ্যাক	-12.1499
▁মিথ্যা	-12.1499
▁হিমালয়	-12.1499
PORT	-12.1499
Wallet	-12.1499
border	-12.1499
entries	-12.1499
tamil	-12.1499
মাঝাৰি	-12.1499
লজিকেল	-12.1499
▁একউন্ট	-12.1499
▁ওমৰাৰ	-12.1499
▁চৰ্তবোৰ	-12.1499
▁পৰিণাম	-12.1499
▁বৈৰিতা	-12.1499
▁শিকিবলৈ	-12.1499
▁হঠাৎ	-12.1499
piece	-12.1499
▁burn	-12.1499
▁কল্পনাকৰনৰ	-12.1499
(46555)	-12.1499
ভাৰসাম্য	-12.1499
▁(843)	-12.1499
▁Loves	-12.1499
▁ফাগুন	-12.1499
▁মুকুট	-12.1499
contribut	-12.1499
▁সত্যাপন	-12.1499
manual	-12.1499
▁জনসাধাৰণৰ	-12.1499
▁জীপাল	-12.1499
মিদং	-12.1499
▁উপহাৰসমূহ	-12.1499
▁যোৱাকালি	-12.1499
Remote	-12.1499
▁অক্সফ	-12.1499
▁পারেন	-12.1499
▁প্ৰতিষ্ঠিত	-12.1499
▁বাউন্ড	-12.1499
▁গ্ৰহণকাৰীসমূহৰ	-12.1499
▁তৰ্জনি	-12.1499
Weight	-12.1499
ाद	-12.1499
▁(4792)	-12.1499
▁পাইছিল	-12.1499
▁(2381)	-12.1499
▁(923)	-12.1499
▁কেন্সাৰ	-12.1499
▁ঘটেছে	-12.1499
▁ৰাখিয়েই	-12.1499
▁NIC	-12.1499
▁সেশনেৰ	-12.1499
▁(5517)	-12.1499
▁ক্ৰিপ্টো	-12.1499
▁টৌন	-12.1499
▁(1283)	-12.1499
▁আভাস	-12.1499
(231268)	-12.1499
▁(1081)	-12.1499
▁(1285)	-12.1499
▁সমীপ	-12.1499
▁প্ৰিয়বোৰ	-12.1499
CONFIG	-12.1499
▁সরিয়ে	-12.1499
▁(1163)	-12.1499
▁15:12	-12.1499
▁উপফোল্ডাৰসমূহ	-12.1499
▁ল্যাটিনা	-12.1499
▁(4738)	-12.1499
▁(4780)	-12.1499
▁(966)	-12.1499
▁RBD	-12.1499
▁CHF	-12.1499
▁কলকাতা	-12.1499
▁RTP	-12.1499
▁বিদেশত	-12.1499
person	-12.1499
▁PHP	-12.1499
▁অছিলা	-12.1499
▁উচৰত	-12.1499
▁পাইকাৰী	-12.1499
উপদ্ৰৱ	-12.1499
▁Netbook	-12.1499
▁উত্পাদন	-12.1499
▁ধেমা	-12.1499
▁(602)	-12.1499
▁(667)	-12.1499
▁OpenPGP	-12.1499
▁প্রবাহ	-12.1499
▁(2316)	-12.1499
▁নকৰালৈকে	-12.1499
▁মেডিয়া	-12.1499
▁ডাক্তৰ	-12.1499
▁ৱিকিমিডিয়া	-12.1499
▁(5515)	-12.1499
▁HAL	-12.1499
▁দহনকারী	-12.1499
েহেতু	-12.1499
▁coat	-12.1499
▁ইথিল	-12.1499
▁vids	-12.1499
ин	-12.1499
▁কনটে	-12.1499
(4862)	-12.1499
▁Aug	-12.1499
▁শৰ্টকাট	-12.1499
▁প্ৰৱন্ধটোত	-12.1499
▁অভিসূচনা	-12.1499
▁বোঝা	-12.1499
▁মিটাডাটা	-12.1499
▁কমপক্ষে	-12.1499
▁ভাস্কৰ	-12.1499
▁পঠিয়াই	-12.1499
▁CDMA	-12.1499
▁home	-12.1499
চ্যুতি	-12.1499
▁socks	-12.1499
TCH	-12.1499
Serif	-12.1499
▁সোৱাদ	-12.1499
▁ফিলিপাইন	-12.1499
▁বীমাধাৰীৰ	-12.1499
▁ওলমি	-12.1499
▁টিমুৰ	-12.1499
▁অফাৰটো	-12.1499
▁তথ্যাদি	-12.1499
RED	-12.15
▁গুণিতক	-12.15
COD	-12.15
Export	-12.15
▁ৰূপবম	-12.15
▁SRA	-12.15
বাউন্স	-12.15
অতিমানৱ	-12.15
▁ৰাছেল	-12.15
poweroff	-12.15
(4804)	-12.15
▁nice	-12.15
ীনিবাস	-12.15
▁ৱায়াৰ	-12.15
▁এন্টাৰ	-12.15
▁কমিছন	-12.15
বিছানা	-12.15
luks	-12.1501
ভালপোৱা	-12.1501
▁মংদা	-12.1501
acak	-12.1501
Stats	-12.1501
ichard	-12.1501
NET	-12.1501
▁এমবেড	-12.1501
Pipe	-12.1501
▁মীড	-12.1502
▁একেবাৰত	-12.1502
বেছিৰভাগ	-12.1503
-1252	-12.1503
▁test	-12.1503
Program	-12.1503
▁কেৰেট	-12.1504
পিডিয়া	-12.1505
ওমস্ক	-12.1505
▁07/0	-12.1507
Bcc	-12.1507
জন্তুৰ	-12.1507
▁মণ্ডল	-12.1507
Bern	-12.1508
ফাতিহ	-12.1509
(4816)	-12.1509
ouble	-12.1509
(126)	-12.1513
(62)	-12.1513
▁কৱচ	-12.1517
▁ফল্কলে	-12.1519
traweb	-12.1521
▁ৰাউট	-12.1524
যুৱতী	-12.153
virtualport	-12.1531
Acti	-12.1539
Month	-12.154
gtkhtml	-12.1542
২০০৯	-12.1547
Profile	-12.1547
▁Card	-12.1563
কথাবতৰা	-12.1569
চাবট্ৰি	-12.1591
alias	-12.1592
Congo	-12.1611
জাতিয়ে	-12.1626
৮৯	-12.1646
িৰাপ	-12.1648
▁(564	-12.1681
Low	-12.1758
ডিফল্টৰূপে	-12.1759
COM	-12.1859
গর্ভ	-12.1884
মাত্র	-12.189
▁18/03/201	-12.196
(557)	-12.2036
েন্তে	-12.2133
Log	-12.2225
▁বিপৰ্য	-12.2265
ortal	-12.2654
বাছক	-12.2854
▁নিবিচাৰ	-12.3035
সংখ্য	-12.3214
ছেকেণ্ড	-12.3236
নিধিত্বমূলক	-12.3246
ঔ	-12.3304
filter	-12.3304
RGBA	-12.3304
অবচিত	-12.3304
চন্দ্ৰ	-12.3305
method	-12.3305
ekiga	-12.3305
ডিব্ৰুগড়	-12.3306
Video	-12.3306
ড্ৰাইভত	-12.3306
DHCP	-12.3306
পূৰ্বাবস্থা	-12.3306
JavaScript	-12.3306
VCard	-12.3306
মুনীন	-12.3307
শান্তি	-12.3307
অনুচ্ছেদ	-12.3307
style	-12.3308
সংকলন	-12.3308
পিছলৈ	-12.3308
প্ৰত্যুত্তৰ	-12.3309
পৰিৱেশন	-12.3309
বিলোপ	-12.3309
মখোমুখী	-12.3309
ডাউনলোড	-12.3309
অনুমোদিত	-12.331
সুৰক্ষা	-12.331
কেলেন্ডাৰ	-12.331
উপলব্ধ	-12.331
▁স্বীকৃত	-12.344
updat	-12.3453
▁অসুস্থ	-12.3475
▁সমাধা	-12.3478
▁Short	-12.3479
▁পুঙ্খানুপুঙ্খ	-12.3486
▁পুঁজি	-12.3487
▁কনফিগ	-12.3491
SCII	-12.3493
▁Spell	-12.3495
্ঘতম	-12.3496
▁ভ্ৰম	-12.3497
্যৱসায়	-12.3497
গৰ্ভাৱস্থা	-12.3497
Excel	-12.3498
▁তুষাৰ	-12.3498
CONF	-12.3498
Spec	-12.3498
ুন্দীবর়	-12.3498
▁Face	-12.3499
napshot	-12.3499
মাজোনাচ	-12.3499
Launch	-12.3499
eather	-12.3499
▁পাৰচেক্স	-12.3499
eject	-12.3499
filehist	-12.3499
raājī	-12.3499
ureaucra	-12.3499
▁ফেথম	-12.3499
▁ভিয়েটনাম	-12.3499
Sleep	-12.3499
অশ্বচালনা	-12.3499
▁192.168.0.0/	-12.3499
▁boobs	-12.3499
▁উৰাজাহাজ	-12.3499
▁নির্ধারণ	-12.3499
▁হিমশীতল	-12.3499
(11851)	-12.3499
(1221)	-12.3499
(1272)	-12.3499
(14018)	-12.3499
(231363)	-12.3499
(239980)	-12.3499
(240797)	-12.3499
(24261)	-12.3499
(24264)	-12.3499
(2533)	-12.3499
(36481)	-12.3499
(3852)	-12.3499
(43882)	-12.3499
(740)	-12.3499
(847)	-12.3499
-8859-4	-12.3499
-8859-5	-12.3499
.06.2015	-12.3499
/12/2015	-12.3499
Beaufort	-12.3499
Current	-12.3499
DIRECT	-12.3499
Development	-12.3499
Dialog	-12.3499
Encoding	-12.3499
Gecko	-12.3499
Jeeves	-12.3499
MEMORY	-12.3499
PROPERTIES	-12.3499
PROX	-12.3499
SCALE	-12.3499
Stream	-12.3499
TIME	-12.3499
adjective	-12.3499
affinity	-12.3499
average	-12.3499
behind	-12.3499
blahblah	-12.3499
emiyorum	-12.3499
erversed	-12.3499
hoose	-12.3499
livepreview	-12.3499
loginreq	-12.3499
mobile	-12.3499
ncognito	-12.3499
nocookies	-12.3499
omainMigrate	-12.3499
properties	-12.3499
regorian	-12.3499
related	-12.3499
remember	-12.3499
reminders	-12.3499
response	-12.3499
restore	-12.3499
secret	-12.3499
spawn	-12.3499
thumb	-12.3499
vmxnet	-12.3499
অনুলীপিপ্ৰাপক	-12.3499
আন্তঃৰাষ্ট্রীয়	-12.3499
আশ্চৰ্যজনক	-12.3499
ইলেক্ট্ৰনিক	-12.3499
এবস্ট্ৰেক্ট	-12.3499
গ্ৰেনাডা	-12.3499
জিব্ৰাল্টাৰ	-12.3499
জুমুআ	-12.3499
পবিষয়শ্রেণীসমূহ	-12.3499
বদলকাৰীত	-12.3499
বিষ্ময়কৰ	-12.3499
ভিক্টোৰিয়া	-12.3499
ভোলিউ	-12.3499
মংগলাষ্টকম	-12.3499
মাৰ্টিনিক	-12.3499
মিলিসেকেন্ডে	-12.3499
সিঙ্ক্ৰোনাস	-12.3499
হস্যজনক	-12.3499
েন্দ্ৰনাথ	-12.3499
ৰোনাতংকঃ	-12.3499
▁(1061)	-12.3499
▁(11188)	-12.3499
▁(13180)	-12.3499
▁(148172)	-12.3499
▁(1616)	-12.3499
▁(17071)	-12.3499
▁(17913)	-12.3499
▁(23546)	-12.3499
▁(239932)	-12.3499
▁(24222)	-12.3499
▁(253545)	-12.3499
▁(2672)	-12.3499
▁(27296)	-12.3499
▁(27480)	-12.3499
▁(27497)	-12.3499
▁(277943)	-12.3499
▁(278630)	-12.3499
▁(280401)	-12.3499
▁(280763)	-12.3499
▁(281120)	-12.3499
▁(32799)	-12.3499
▁(36964)	-12.3499
▁(4903)	-12.3499
▁(54417)	-12.3499
▁(58749)	-12.3499
▁(58758)	-12.3499
▁(59491)	-12.3499
▁(8266)	-12.3499
▁(9833)	-12.3499
▁1-312408	-12.3499
▁63.38	-12.3499
▁63.63	-12.3499
▁Applicable	-12.3499
▁Bagian	-12.3499
▁CTET	-12.3499
▁EXIF	-12.3499
▁GtkSourceView	-12.3499
▁Inspector	-12.3499
▁Interrupt	-12.3499
▁Kidney	-12.3499
▁Kiswahili	-12.3499
▁Kymco	-12.3499
▁Latest	-12.3499
▁Library	-12.3499
▁MessengerName	-12.3499
▁Muharram	-12.3499
▁Package	-12.3499
▁Piwigo	-12.3499
▁Pranam	-12.3499
▁SECTION	-12.3499
▁SheetName	-12.3499
▁Trench	-12.3499
▁blockstats	-12.3499
▁carbide	-12.3499
▁closu	-12.3499
▁dnsmasq	-12.3499
▁emulatorpin	-12.3499
▁epoll	-12.3499
▁general	-12.3499
▁guestfwd	-12.3499
▁iCalender	-12.3499
▁latest	-12.3499
▁libdvdcss	-12.3499
▁library	-12.3499
▁modifier	-12.3499
▁monospace	-12.3499
▁nvram	-12.3499
▁shift	-12.3499
▁xHamster	-12.3499
▁অংগীকাৰবদ্ধ	-12.3499
▁অংশগ্ৰহনকৰ্তা	-12.3499
▁অট্টালিকা	-12.3499
▁অধ্যাপিকা	-12.3499
▁অনস্বীকাৰ্য্য	-12.3499
▁অনুপ্ৰেৰণা	-12.3499
▁অপৰাহ্ন	-12.3499
▁অস্বীকৃতিজ্ঞাপণ	-12.3499
▁আচঁনি	-12.3499
▁আণ্ডাৰৰাইট	-12.3499
▁আনফ্লেগ	-12.3499
▁আনুষঙ্গিক	-12.3499
▁আবন্টিত	-12.3499
▁আল্ফানিউমেৰিক	-12.3499
▁আৰ্জেনটিনা	-12.3499
▁ইটালীয়	-12.3499
▁ইতালীয়	-12.3499
▁ইতিপূৰ্বে	-12.3499
▁ইনকোলয়	-12.3499
▁ইনষ্টলেচন	-12.3499
▁ইলিপসিস	-12.3499
▁উছাইমীন	-12.3499
▁উত্তোলন	-12.3499
▁উলিয়াওক	-12.3499
▁উলোটোৱা	-12.3499
▁এক্সেকিউটেবল	-12.3499
▁এঙ্গোলা	-12.3499
▁এনিমেছন	-12.3499
▁এম্বুলেন্স	-12.3499
▁ঔজ্বল্যহীন	-12.3499
▁ঔদ্যোগিক	-12.3499
▁কনফাৰেঞ্চ	-12.3499
▁কম্পনাংক	-12.3499
▁কাল্পনিক	-12.3499
▁কাহতানী	-12.3499
▁কাৰোবাক	-12.3499
▁কেইবাজন	-12.3499
▁কেলভিন	-12.3499
▁কৈসেরা	-12.3499
▁কোমোৰোছ	-12.3499
▁কোলোম্বিয়া	-12.3499
▁ক্যালকুলেটৰ	-12.3499
▁ক্রোৱেচিয়া	-12.3499
▁ক্ৰমবৰ্ধমান	-12.3499
▁ক্ৰোয়েছিয়া	-12.3499
▁গাঞ্জাখিনি	-12.3499
▁গাণিতীক	-12.3499
▁গেল্ওৱাই	-12.3499
▁ঘাঁটি	-12.3499
▁ঘোঁৰা	-12.3499
▁চফটৱেৰ	-12.3499
▁চিবিআইৰ	-12.3499
▁চিৰস্থায়ীভাৱে	-12.3499
▁চুড়ান্ত	-12.3499
▁চ্পেন	-12.3499
▁চ্যুইট	-12.3499
▁ছাৰাউণ্ড	-12.3499
▁ছুন্নাত	-12.3499
▁ছুন্নাহৰ	-12.3499
▁জান্নাত	-12.3499
▁জামুকলীয়া	-12.3499
▁টপোলজি	-12.3499
▁টার্মিন্যাল	-12.3499
▁টেঞ্জেন্ট	-12.3499
▁টোপোলজি	-12.3499
▁টোবাগো	-12.3499
▁ডক্টৰেট	-12.3499
▁ডিজিটীয়ভাৱে	-12.3499
▁ডুপ্লিকেট	-12.3499
▁ডুপ্লেক্স	-12.3499
▁ডেক্সটপ	-12.3499
▁ণিৰ্ণয়	-12.3499
▁ততালিকে	-12.3499
▁তানজানিয়া	-12.3499
▁তীক্ষ্ণ	-12.3499
▁দুগ্ধপান	-12.3499
▁দৃষ্টিগোচৰ	-12.3499
▁দেবনাগৰি	-12.3499
▁দৈত্যকৃষ্ণকায়	-12.3499
▁দৰাচলতে	-12.3499
▁নগদধনৰহিত	-12.3499
▁নপঠাব	-12.3499
▁নিউক্লিয়েৰ	-12.3499
▁নিম্নলেখিত	-12.3499
▁নির্ধারিত	-12.3499
▁নিশ্চায়ন	-12.3499
▁নেমোনিক	-12.3499
▁পাসফ্ৰেস	-12.3499
▁পিঁয়াজ	-12.3499
▁পুনৰলেবেলিং	-12.3499
▁পুরুঙগ	-12.3499
▁পূৰ্বাহ্ন	-12.3499
▁পোনেপোনে	-12.3499
▁প্ৰত্যাবৰ্ত্তন	-12.3499
▁প্ৰমাণীকৰন	-12.3499
▁প্ৰোজেক্ট	-12.3499
▁পৰ্দাজুড়ে	-12.3499
▁ফ্ুলপাছ	-12.3499
▁ফ্ৰীচেল	-12.3499
▁ফ্ৰীসেল	-12.3499
▁বহিষ্কাৰ	-12.3499
▁বাদ্যযন্ত্ৰ	-12.3499
▁বুলগাৰিয়া	-12.3499
▁বুৰুন্ডি	-12.3499
▁বৃত্তাকাৰ	-12.3499
▁বেইজিং	-12.3499
▁বেচৰকাৰী	-12.3499
▁বেটুপাত	-12.3499
▁বৈপৰিত্য	-12.3499
▁বোপোমোফো	-12.3499
▁বোলিভিয়া	-12.3499
▁ব্যৱ্হাৰ	-12.3499
▁ভাইৰাচ	-12.3499
▁ভানুয়াটু	-12.3499
▁ভিঢিয়ো	-12.3499
▁মনোনয়ন	-12.3499
▁মনোনিবেশ	-12.3499
▁মহাৰাষ্ট্ৰ	-12.3499
▁মাদাগাস্কাৰ	-12.3499
▁মিনাৰেল	-12.3499
▁মেথেমেটিকেল	-12.3499
▁মেসেনজা	-12.3499
▁যথানুপাত	-12.3499
▁যুঁজ	-12.3499
▁যৌৱন	-12.3499
▁রন্ানাঘর	-12.3499
▁লাইছেঞ্চ	-12.3499
▁লিথুৱানিয়া	-12.3499
▁লেবানন	-12.3499
▁লোটোখেলা	-12.3499
▁শিলাবৃষ্টি	-12.3499
▁শুধমাত্ৰ	-12.3499
▁শ্ৰীলঙ্কা	-12.3499
▁সংযেগ	-12.3499
▁সংৰক্ষন	-12.3499
▁সংৰোপণ	-12.3499
▁সঞ্চাপন	-12.3499
▁সবচেয়ে	-12.3499
▁সমালোচক	-12.3499
▁সমৰ্পিত	-12.3499
▁সহজলভ্য	-12.3499
▁সাঙুৰি	-12.3499
▁সাজসজ্জা	-12.3499
▁সামুদ্ৰিক	-12.3499
▁সাসপেন্ড	-12.3499
▁সাহায়ক	-12.3499
▁সিহঁতে	-12.3499
▁সুদৃঢ়	-12.3499
▁সূচনাবার্তা	-12.3499
▁স্ক্ৰিনচেভাৰ	-12.3499
▁স্ক্ৰিনছেভাৰ	-12.3499
▁হটপ্লাগ	-12.3499
▁হাংগুল	-12.3499
▁হিংসাত্মক	-12.3499
▁হিছাপে	-12.3499
▁হিন্টিং	-12.3499
▁ৰক্তচাপ	-12.3499
▁ৰাষ্ট্রপতি	-12.3499
▁ৰিমাইণ্ডাৰ	-12.3499
▁ৰূপাভম	-12.3499
▁ৰেপিডচ	-12.3499
▁ৰৈখিক	-12.3499
▁ৱাইন্দস্ক্ৰীণৰ	-12.3499
▁ৱিক্সনেৰী	-12.3499
▁ৱেইকৱাপ	-12.3499
Follow	-12.3499
Weekday	-12.3499
contribs	-12.3499
private	-12.3499
wrong	-12.3499
কেমব্ৰিজ	-12.3499
▁'''\$	-12.3499
▁(1416)	-12.3499
▁(610)	-12.3499
▁1312408	-12.3499
▁CMYK	-12.3499
▁Canva	-12.3499
▁White	-12.3499
▁available	-12.3499
▁echo	-12.3499
▁iommu	-12.3499
▁narrow	-12.3499
▁netcf	-12.3499
▁selinux	-12.3499
▁tickpolicy	-12.3499
▁অনুসৰ্গ	-12.3499
▁অপাৰেন্ড	-12.3499
▁অৱহেলা	-12.3499
▁আমোদজনক	-12.3499
▁ইঞ্জীন	-12.3499
▁ইসুকৰ্তা	-12.3499
▁ঈঙ্গিত	-12.3499
▁খুজিছে	-12.3499
▁গ্ৰন্থকেইখন	-12.3499
▁জিএছটি	-12.3499
▁ডাইনামিক	-12.3499
▁নমচিব	-12.3499
▁নৱবৰ্ষ	-12.3499
▁পাঞ্জাৱ	-12.3499
▁পিটকেয়াৰ্ন	-12.3499
▁পুণ্য়	-12.3499
▁প্ৰটকল	-12.3499
▁প্ৰবনতা	-12.3499
▁ফরাসি	-12.3499
▁বাহৰেইন	-12.3499
▁বিজুলী	-12.3499
▁বিধায়ক	-12.3499
▁বিশ্বজুৰি	-12.3499
▁ভাবুকি	-12.3499
▁মনোভাৱ	-12.3499
▁সজাগতা	-12.3499
Mirror	-12.3499
Picasa	-12.3499
gvim	-12.3499
ough	-12.3499
লদোভা	-12.3499
▁(3712)	-12.3499
▁2.495	-12.3499
▁47.50	-12.3499
▁Cross	-12.3499
▁Espejo	-12.3499
▁German	-12.3499
▁büyü	-12.3499
▁href	-12.3499
▁scaling	-12.3499
▁অপহৰণ	-12.3499
▁আইছলেন্ড	-12.3499
▁উৰণীয়া	-12.3499
▁এল্বাম	-12.3499
▁কিশোৰ	-12.3499
▁খ্ৰীষ্টপূৰ্ব	-12.3499
▁গাম্বিয়া	-12.3499
▁জাম্বিয়া	-12.3499
▁জেনাৰেল	-12.3499
▁ঢেঁক	-12.3499
▁নলগীয়া	-12.3499
▁নাইজেৰিয়া	-12.3499
▁নাবালক	-12.3499
▁প্লেলিষ্ট	-12.3499
▁ফাংচন	-12.3499
▁মেকুৰী	-12.3499
▁মেনেজাৰ	-12.3499
▁ষ্টেডিয়াম	-12.3499
(13139)	-12.3499
Calcu	-12.3499
definitions	-12.3499
thumbnail	-12.3499
▁KWin	-12.3499
▁lxc	-12.3499
▁আগতিয়াকৈ	-12.3499
▁ইনডেক্স	-12.3499
▁কণ্ঠ	-12.3499
▁ক্ৰমাৎ	-12.3499
▁ছহীহ	-12.3499
▁ছোৱালী	-12.3499
▁টিপোতে	-12.3499
▁তেনেদৰে	-12.3499
▁নবৱী	-12.3499
▁পাৰ্কিং	-12.3499
▁বলগুলো	-12.3499
▁যীচু	-12.3499
▁সনাক্তকৰণেৰ	-12.3499
▁সুন্দর	-12.3499
Volume	-12.3499
▁Spice	-12.3499
▁বন্দী	-12.3499
▁বেংকটেশ	-12.3499
(23600)	-12.3499
CONT	-12.3499
internal	-12.3499
স্পেচিয়েল	-12.3499
▁(4090)	-12.3499
▁SOAP	-12.3499
▁ইজুজু	-12.3499
▁কুৱাৰ্ট	-12.3499
▁চাবিৰফলক	-12.3499
▁টোনার	-12.3499
▁তাৰোপৰি	-12.3499
▁ৰিলিফ	-12.3499
rkida	-12.3499
▁আহমদ	-12.3499
▁ক্লাসিক	-12.3499
Binding	-12.3499
Lucky	-12.3499
loppy	-12.3499
▁(12864)	-12.3499
▁এলিমেন্ট	-12.3499
▁খুন্দা	-12.3499
▁দাৱাহ	-12.3499
▁পর্দা	-12.3499
▁ভিকাৰ্ড	-12.3499
▁ভেঙ্গে	-12.3499
▁Basic	-12.3499
▁সুষম	-12.3499
ফ্ৰান্স	-12.3499
▁(833)	-12.3499
▁কল্যাণ	-12.3499
▁মগজু	-12.3499
▁যিধৰণে	-12.3499
▁কোয়েৰি	-12.3499
▁মিক্সাৰ	-12.3499
▁আঁকুন	-12.3499
▁জ্বলাব	-12.3499
(23574)	-12.3499
acity	-12.3499
▁SSID	-12.3499
▁চাংমা	-12.3499
(13182)	-12.3499
Room	-12.3499
Samoa	-12.3499
TOOL	-12.3499
viet	-12.3499
জোঁৱা	-12.3499
▁(3044)	-12.3499
▁(5436)	-12.3499
Mount	-12.3499
sysop	-12.3499
▁টিকাকৰণ	-12.3499
▁নাউৰু	-12.3499
োথেৰা	-12.3499
▁(4747)	-12.3499
Paste	-12.3499
WIFI	-12.3499
xyz	-12.3499
▁(698)	-12.3499
▁জনাজাত	-12.3499
▁নোসোধ	-12.3499
▁(2299)	-12.3499
▁গ্ৰীড	-12.3499
(2263)	-12.3499
▁(2988)	-12.3499
▁Soft	-12.3499
▁গেরো	-12.3499
▁ভৈল	-12.3499
Cairo	-12.3499
▁নাৰায়ণ	-12.3499
কর্ষণ	-12.3499
▁(1165)	-12.3499
▁(3007)	-12.3499
▁Laur	-12.3499
▁উইজেটটোয়ে	-12.3499
▁ৰছিদ	-12.3499
▁বেলেঞ্চ	-12.3499
▁(858)	-12.3499
▁using	-12.3499
▁অৱনতি	-12.3499
▁ফেডাৰে	-12.3499
অভিভাৱক	-12.3499
▁পালাউ	-12.3499
depth	-12.3499
▁(683)	-12.3499
▁মজিয়া	-12.3499
▁মুকেশ	-12.3499
recursive	-12.3499
Monitor	-12.3499
begin	-12.3499
▁চালাতে	-12.3499
Jumee	-12.3499
quit	-12.3499
clear	-12.3499
▁মিটিঙ	-12.3499
▁ৰিনিউ	-12.3499
(514)	-12.3499
estern	-12.3499
layerGenericName	-12.3499
puni	-12.3499
random	-12.3499
▁উপবৃত্তিয়কৰ	-12.3499
(834)	-12.3499
বাহৰেন	-12.3499
গেটৱে	-12.35
▁কেৰেলা	-12.35
verflow	-12.35
অ্যান্টি	-12.35
Agent	-12.35
দক্ষিন	-12.35
ulticast	-12.35
বিছাউ	-12.35
▁মেচিডোন	-12.35
▁থাকোঁ	-12.3501
▁লিম্বু	-12.3501
▁ডায়েৰি	-12.3501
▁daemonize	-12.3502
rabic	-12.3502
এৰিট্ৰ	-12.3503
পুতুল	-12.3503
(4800)	-12.3503
অৰ্হতাসম্পন্ন	-12.3505
পূৰ্ববৎ	-12.3506
tivation	-12.3507
(807)	-12.3507
াঢ়ি	-12.3508
(806)	-12.351
milli	-12.3512
Minute	-12.3515
ৃত্তক	-12.3515
▁জমেটো	-12.3525
radia	-12.3536
Demo	-12.3556
প্ৰিন্স	-12.356
evees	-12.356
▁ছৰ্টকাট	-12.3562
identifie	-12.3566
▁স্লেশ	-12.3585
ব্যক্তিসকল	-12.3708
haima	-12.3727
মুম্বাইৰ	-12.3907
ঢাকা	-12.3983
▁Rupa	-12.4219
Applet	-12.4247
টাৰনেশ্	-12.4451
অৱস্থ	-12.5223
овск	-12.5421
▁ভৱিষ্য	-12.5467
▁Persona	-12.5756
~	-12.578
encoding	-12.5804
something	-12.5804
শাস্ত্ৰ	-12.5804
ধ্বনি	-12.5804
সৰ্বধৰণৰ	-12.5804
ফোল্ডারের	-12.5804
তুৰ্কি	-12.5805
উপদেশিত	-12.5806
January	-12.5806
সিৰিলিক	-12.5806
Khordad	-12.5806
Server	-12.5806
stdout	-12.5806
বিবেচনা	-12.5807
English	-12.5807
Could	-12.5807
সক্রিয়	-12.5807
বৈজ্ঞানিক	-12.5807
operation	-12.5807
license	-12.5807
পাসওয়াৰ্ড	-12.5807
শিৰোণামা	-12.5808
শীৰ্ষক	-12.5808
ব্ৰাউছ	-12.5808
অস্বচ্ছতা	-12.5808
পঢ়োতে	-12.5808
আলাইহি	-12.5808
Jabber	-12.5809
সম্পৰ্কীয়	-12.5809
জন্মদিন	-12.5809
ৰাষ্ট্ৰীয়	-12.5809
অপসাৰণ	-12.5809
আলোচনা	-12.5809
কনফিগাৰেশন	-12.5809
সৰ্বোচ্চ	-12.581
একাওন্ট	-12.581
সম্পাদক	-12.581
Public	-12.581
পৰিষ্কাৰ	-12.581
GNOME	-12.581
General	-12.581
নিৰ্মাণ	-12.5811
Evolution	-12.5811
▁ভিয়েতনাম	-12.5811
Window	-12.5828
কৰ্মক্ষেত্ৰ	-12.5882
▁identif	-12.5913
▁Space	-12.5949
▁আগবঢ়াও	-12.5954
▁পরিবর্ত	-12.5977
▁সংঘঠ	-12.5977
নপুংসক	-12.5978
▁লাটভিয়া	-12.5978
োত্তীৰ্ণ	-12.5985
ratio	-12.5991
▁আনুভূম	-12.5994
েডিকেল	-12.5995
division	-12.5995
Message	-12.5995
▁Connect	-12.5997
িষ্ণু	-12.5997
▁ইলেকট্ৰি	-12.5998
Studio	-12.5998
শ্যকীয়	-12.5998
▁ডিষ্ট্ৰিবিউ	-12.5998
▁ফাউণ্ডে	-12.5998
feedback	-12.5999
осто	-12.5999
▁মাগাডান	-12.5999
METHOD	-12.5999
dayPeriod	-12.5999
nnocenthigh	-12.5999
unrecogni	-12.5999
▁Spamassas	-12.5999
▁ioctl	-12.5999
▁Expr	-12.5999
▁বাৎসৰিক	-12.5999
Submit	-12.5999
alternative	-12.5999
ibbles	-12.5999
virNWFilterSnoop	-12.5999
▁thāk	-12.5999
▁গ্যাৰেন্টি	-12.5999
Questions	-12.5999
databaseerror	-12.5999
essenger	-12.5999
newuserlog	-12.5999
ক্সক্সক্সক্স	-12.5999
▁Automatic	-12.5999
▁গ্রীষ্ম	-12.5999
▁চুদাচু	-12.5999
▁বৃহষ্পতি	-12.5999
▁মাৰ্ছাল	-12.5999
▁শিৱেন্দ্ৰ	-12.5999
▁স্ট্ৰাইপ	-12.5999
(12815)	-12.5999
(13114)	-12.5999
(139105)	-12.5999
(146640)	-12.5999
(150053)	-12.5999
(152222)	-12.5999
(231046)	-12.5999
(231269)	-12.5999
(23430)	-12.5999
(23594)	-12.5999
(238297)	-12.5999
(24078)	-12.5999
(242160)	-12.5999
(25059)	-12.5999
(25119)	-12.5999
(2528)	-12.5999
(27231)	-12.5999
(3507)	-12.5999
(43890)	-12.5999
(44810)	-12.5999
(45433)	-12.5999
(46590)	-12.5999
-8859-2	-12.5999
-8859-3	-12.5999
-8859-9	-12.5999
.01.2019	-12.5999
Assistant	-12.5999
Challenge	-12.5999
Character	-12.5999
DHCPSnoopReq	-12.5999
Eject	-12.5999
ExampleCode	-12.5999
Experi	-12.5999
FIXME	-12.5999
Frequen	-12.5999
HORIZ	-12.5999
MMMM	-12.5999
MacRoman	-12.5999
Micronesia	-12.5999
NORMAL	-12.5999
PMFBY	-12.5999
Pixmap	-12.5999
Portugal	-12.5999
SELF	-12.5999
Technology	-12.5999
[1-15]	-12.5999
accel	-12.5999
algrind	-12.5999
assphrase	-12.5999
badger	-12.5999
biswajyoti	-12.5999
celandic	-12.5999
credentials	-12.5999
dministrator	-12.5999
enburg	-12.5999
firefox	-12.5999
ificationreading	-12.5999
iographic	-12.5999
lassic	-12.5999
lgorithm	-12.5999
neighbourhood	-12.5999
ocheck	-12.5999
ostVirtualSwitch	-12.5999
passwd	-12.5999
playedCommonName	-12.5999
reboot	-12.5999
receiving	-12.5999
relative	-12.5999
roatian	-12.5999
rotational	-12.5999
sequence	-12.5999
ujarati	-12.5999
urkish	-12.5999
urmukhi	-12.5999
vmware	-12.5999
wwpn	-12.5999
ıyla	-12.5999
агадан	-12.5999
алининград	-12.5999
расноярск	-12.5999
অ্যালায়েস	-12.5999
আৰফাজ	-12.5999
ইন্ডিয়ানাপোলিস	-12.5999
ইস্তানবুল	-12.5999
চিহুয়াহুয়া	-12.5999
তুভ্য়ং	-12.5999
প্রস্তাবিত	-12.5999
প্ৰেক্ষাগৃহ	-12.5999
বিশ্বাসঘাতকতা	-12.5999
মনোনিৱেষ	-12.5999
মাৰকিউৰিৰ	-12.5999
লুইসভিল	-12.5999
শগাবাট	-12.5999
সাম্প্রতিক	-12.5999
ামোত্তেজকতত্ত্ব	-12.5999
▁"2.6.0")	-12.5999
▁(11236)	-12.5999
▁(11530)	-12.5999
▁(11639)	-12.5999
▁(11735)	-12.5999
▁(11948)	-12.5999
▁(11984)	-12.5999
▁(12833)	-12.5999
▁(12836)	-12.5999
▁(12940)	-12.5999
▁(1417)	-12.5999
▁(141731)	-12.5999
▁(15461)	-12.5999
▁(159652)	-12.5999
▁(16235)	-12.5999
▁(167517)	-12.5999
▁(168880)	-12.5999
▁(17069)	-12.5999
▁(173368)	-12.5999
▁(174683)	-12.5999
▁(206595)	-12.5999
▁(2261)	-12.5999
▁(23587)	-12.5999
▁(242106)	-12.5999
▁(242112)	-12.5999
▁(242192)	-12.5999
▁(2617)	-12.5999
▁(2635)	-12.5999
▁(277850)	-12.5999
▁(278987)	-12.5999
▁(279828)	-12.5999
▁(280420)	-12.5999
▁(29227)	-12.5999
▁(30232)	-12.5999
▁(32674)	-12.5999
▁(32794)	-12.5999
▁(36259)	-12.5999
▁(36260)	-12.5999
▁(36766)	-12.5999
▁(36778)	-12.5999
▁(4304)	-12.5999
▁(46233)	-12.5999
▁(4901)	-12.5999
▁(4905)	-12.5999
▁(5108)	-12.5999
▁(59283)	-12.5999
▁(59490)	-12.5999
▁(9128)	-12.5999
▁(9265)	-12.5999
▁(9606)	-12.5999
▁(9607)	-12.5999
▁09/07/2017	-12.5999
▁177757	-12.5999
▁3.755	-12.5999
▁8-94314263-	-12.5999
▁ACPI	-12.5999
▁Academy	-12.5999
▁Algebraic	-12.5999
▁Arcade	-12.5999
▁BlueZ	-12.5999
▁Bridge	-12.5999
▁Browser	-12.5999
▁Catalan	-12.5999
▁Christmas	-12.5999
▁Compensation	-12.5999
▁Distinguished	-12.5999
▁Encryption	-12.5999
▁Framework	-12.5999
▁GOLD	-12.5999
▁GVFS	-12.5999
▁Galeon	-12.5999
▁Grayscale	-12.5999
▁IOBuffer	-12.5999
▁ISDN	-12.5999
▁Juicer	-12.5999
▁Kalita	-12.5999
▁Kubuntu	-12.5999
▁Kushuberu	-12.5999
▁Machine	-12.5999
▁ModuleComment	-12.5999
द	-12.9332
ৣ	-13.4331
꧁	-14.4157
ঐ	-14.4328
ş	-14.4329
•	-14.433
×	-14.4331
»	-14.4332
