<unk>	0
<s>	0
</s>	0
ৰ	-3.56222
▁	-3.72742
'	-3.96485
s	-4.1021
)	-4.17314
▁কৰা	-4.32264
।	-4.42576
,	-4.45257
-	-4.47197
:	-4.47619
▁কৰক	-4.53758
▁%	-4.71051
ব	-4.85953
ত	-4.89067
▁(_	-4.9035
▁হ	-5.02338
▁(	-5.12693
ে	-5.27185
ক	-5.27611
▁এটা	-5.36588
▁বাবে	-5.36721
▁আৰু	-5.39917
▁এই	-5.48202
▁।	-5.58087
.	-5.58875
▁কৰিব	-5.62757
▁হৈছে	-5.6277
;	-5.67816
▁ৰ	-5.72646
▁পৰা	-5.74459
▁'%	-5.7598
▁ব্যৰ্থ	-5.79715
_	-5.83393
/	-5.84762
▁কাম	-5.85047
সমূহ	-5.85353
ন	-5.92006
d	-5.92763
লে	-5.92866
▁তথ্য	-5.93998
▁নহয়	-5.95012
▁নাম	-5.96337
▁দ্বাৰা	-5.97779
"	-5.98107
▁-	-5.99779
▁ব্যৱহাৰ	-6.02639
য়	-6.06309
ল	-6.07309
▁বা	-6.10037
▁নাই	-6.12261
▁ফোল্ডাৰ	-6.17932
▁কোনো	-6.18334
েৰ	-6.19446
▁নে	-6.2105
▁কৰি	-6.22033
▁আপুনি	-6.241
▁ফাইল	-6.24375
▁বাৰ্তা	-6.25966
Name	-6.27254
▁প্ৰদৰ্শন	-6.29442
▁"	-6.30006
▁কৰিবলৈ	-6.31122
▁নতুন	-6.32254
▁তালিকা	-6.3293
▁কৰিবলে	-6.3457
▁ক	-6.36666
টো	-6.36782
▁সৈতে	-6.37901
▁আপোনাৰ	-6.38255
▁কি	-6.40062
&	-6.40692
▁মান	-6.43976
▁নোৱাৰি	-6.45738
gt	-6.48028
▁কৰে	-6.48165
▁ঠিকনা	-6.48249
S	-6.48511
ড	-6.49159
?	-6.49905
▁ই	-6.51022
ম	-6.5172
▁আছে	-6.53314
▁হয়	-6.56005
▁সংৰক্ষণ	-6.58989
...	-6.59087
▁অথবা	-6.59675
▁ত্ৰুটি	-6.60897
▁অ	-6.61179
▁ত	-6.63275
e	-6.63298
▁1	-6.64289
▁ন	-6.64409
ই	-6.65277
▁সময়	-6.65517
▁নথিপত্ৰ	-6.65947
▁সংযোগ	-6.66038
A	-6.66251
a	-6.67334
▁এ	-6.67476
’	-6.72081
লৈ	-6.74517
া	-6.75052
l	-6.79135
▁পৰিবৰ্তন	-6.79835
ি	-6.80022
▁মতামত	-6.80848
ী	-6.81395
▁আৰম্ভ	-6.81621
u	-6.81807
▁Evolution	-6.82359
C	-6.8339
▁ছবি	-6.84248
o	-6.84269
▁হব	-6.84515
▁নিৰ্বাচিত	-6.85662
▁উপস্থিত	-6.85954
▁যোগ	-6.86224
▁চিহ্নিত	-6.87939
▁প্ৰাপ্ত	-6.88104
t	-6.88595
▁সৃষ্টি	-6.89832
টি	-6.91524
▁বিন্যাস	-6.92863
▁পৰিচয়	-6.93344
▁হোৱা	-6.9383
চ	-6.94914
প	-6.95444
R	-6.95993
▁=	-6.9606
D	-6.96143
▁নাযায়	-6.97879
T	-6.98019
কে	-6.99571
P	-6.9998
▁কৰোঁতে	-7.00179
%	-7.00549
▁কাৰ্য্য	-7.00602
▁সকলো	-7.00999
n	-7.01074
▁ডিস্ক	-7.01971
x	-7.02346
হ	-7.02427
▁প	-7.0259
▁আ	-7.03375
▁সংখ্যা	-7.04257
M	-7.05958
▁বন্ধ	-7.08344
▁না	-7.0979
▁ডিভাইচ	-7.10187
স	-7.10231
▁পোৱা	-7.10458
▁চুমাচুমি	-7.10495
গ	-7.12317
i	-7.13594
▁স	-7.14478
c	-7.14691
O	-7.15058
▁অনুগ্ৰহ	-7.15703
তা	-7.15974
▁চমকানি	-7.1626
▁মেইল	-7.17575
▁ল	-7.17915
তে	-7.18562
p	-7.18611
▁পাৰে	-7.19041
▁যদি	-7.19298
না	-7.19654
▁ব্যৱহৃত	-7.20166
▁নিৰ্ধাৰণ	-7.20751
▁সংক্ৰান্ত	-7.20751
m	-7.21161
▁"%	-7.21608
▁নিৰ্বাচন	-7.22381
▁ফ	-7.22555
▁Name	-7.22895
▁পৃষ্ঠা	-7.23045
মেইল	-7.2401
▁সক্ৰিয়	-7.247
▁স্থানান্তৰ	-7.25054
▁ধৰণ	-7.25652
▁থকা	-7.25854
F	-7.26004
াৰ	-7.26202
▁নিৰ্মাণ	-7.265
▁সম্ভৱ	-7.27217
িত	-7.27385
E	-7.2837
▁অবৈধ	-7.29195
▁হল	-7.29734
ট	-7.30136
লা	-7.3038
▁যি	-7.30563
▁&	-7.30829
▁2	-7.30941
▁চমকানো	-7.30967
▁সন্ধান	-7.31308
(	-7.32157
▁Comment	-7.32352
B	-7.32955
]	-7.34007
L	-7.34109
▁of	-7.342
▁নগল	-7.34718
▁বৰ্তমান	-7.35128
▁হিচাপে	-7.35247
ো	-7.35417
▁কপি	-7.35563
▁ছলচাতুরী	-7.35578
▁শৃগালী	-7.35578
▁S	-7.36491
▁অক্ষম	-7.36674
▁অৱস্থা	-7.36724
▁সমৰ্থিত	-7.37468
▁পৰীক্ষা	-7.37901
f	-7.38299
র	-7.38505
ৰা	-7.393
▁উপলব্ধ	-7.39559
g	-7.40189
)...	-7.40197
এ	-7.40762
N	-7.40929
@	-7.41188
k	-7.41376
r	-7.41473
er	-7.41493
▁নেটৱাৰ্ক	-7.41683
য়ে	-7.41924
▁সংহতি	-7.42292
নি	-7.42299
ও	-7.42396
lt	-7.42431
1	-7.42749
▁বস্তু	-7.43201
▁_	-7.44052
▁স্থান	-7.44302
▁যে	-7.44348
▁A	-7.44489
▁চ	-7.45005
▁অন্য	-7.45186
▁মচি	-7.45438
▁কৰোতে	-7.45614
▁3	-7.45867
▁/	-7.46353
▁ম	-7.46653
I	-7.47058
সমূহৰ	-7.4717
▁সম্পূৰ্ণ	-7.47736
▁দেখুৱাওক	-7.48148
▁বৈশিষ্ট্য	-7.494
দ	-7.50041
ং	-7.50281
▁সমস্যা	-7.50789
b	-7.51112
▁বাতিল	-7.51505
▁G	-7.51996
▁আবৃত	-7.5248
▁একটি	-7.52922
h	-7.52964
▁নি	-7.53102
▁এক	-7.53141
জ	-7.53256
▁দিয়া	-7.53379
▁অনুসন্ধান	-7.53653
বা	-7.5376
▁শব্দ	-7.54092
▁name	-7.548
▁পুনৰ	-7.54935
▁সংস্কৰণ	-7.54952
y	-7.55341
▁অজ্ঞাত	-7.55653
▁লে	-7.55657
▁হৈ	-7.5582
▁কৰ্ম	-7.55865
▁ও	-7.56575
▁ৰং	-7.57441
▁অংশ	-7.57896
2	-7.5891
মা	-7.59002
িক	-7.59166
বোৰ	-7.59631
▁ভিডিঅ	-7.60784
িং	-7.61124
▁আকাৰ	-7.61248
▁P	-7.61776
v	-7.61928
▁উৎস	-7.62039
▁আলো	-7.62834
▁ইয়াৰ	-7.62892
ৰি	-7.62911
▁পাছৱাৰ্ড	-7.6308
▁C	-7.63385
▁অবিকল্পিত	-7.63443
িয়া	-7.64188
▁প্ৰেৰণ	-7.64195
▁বিনিময়	-7.64226
▁http	-7.64341
”	-7.6461
▁বি	-7.64677
শ	-7.65386
▁কেৱল	-7.65464
▁লাগিব	-7.65578
▁উত্তৰ	-7.65895
▁প্ৰদান	-7.66316
▁[	-7.66721
▁অনুমতি	-7.66994
াই	-7.67498
▁উইন্ডো	-7.67679
▁বৰ্তমানে	-7.67852
▁ইয়াক	-7.69191
্য	-7.69263
▁প্ৰয়োজন	-7.6951
▁(%	-7.69738
ছ	-7.7068
U	-7.71118
▁কল	-7.71139
▁প্ৰ	-7.71228
",	-7.71305
▁লৈ	-7.71377
▁অন্তৰ্ভুক্ত	-7.71792
H	-7.71795
▁বৈধ	-7.7192
▁জন্য	-7.72426
▁অৱস্থান	-7.72511
▁সংযুক্ত	-7.72912
▁কিন্তু	-7.73051
▁বাছক	-7.73495
্	-7.73668
▁পথ	-7.7401
▁বীমা	-7.74714
▁কাৰণে	-7.74792
▁প্ৰতি	-7.75079
▁লাটভিয়ান	-7.75371
বাৰ	-7.75782
▁অধিক	-7.76693
▁ব্যক্তিগত	-7.76735
ed	-7.76899
4	-7.76937
▁চাৰ্ভাৰ	-7.77289
▁কমান্ড	-7.77319
▁বিকল্প	-7.77368
type	-7.77429
5	-7.78168
▁তাৰ	-7.7848
=	-7.78818
কা	-7.78986
▁উ	-7.79576
▁the	-7.79795
▁মি	-7.79875
খন	-7.79941
▁স্বাক্ষৰ	-7.80376
▁বিশ্লেষণ	-7.80427
ইন	-7.80498
▁ৰঙ	-7.80724
ান	-7.80958
▁খোলা	-7.8135
▁কেলেন্ডাৰ	-7.82163
▁দিন	-7.82511
▁ক্ষেত্ৰত	-7.82887
লি	-7.83344
▁label	-7.8336
কি	-7.83698
বি	-7.84062
▁বাৰ্তাৰ	-7.84263
▁মা	-7.84668
▁ৰিক্ত	-7.85042
w	-7.8537
▁অনুৰোধ	-7.85515
▁কৰিছে	-7.85805
▁উদ্দেশ্যে	-7.86113
▁»	-7.86229
ing	-7.86302
▁গ্ৰহণ	-7.86647
ণ	-7.86987
ছে	-7.87045
▁size	-7.87376
▁প্ৰয়োগ	-7.87439
▁আন	-7.88421
▁সমৰ্থন	-7.89139
কৈ	-7.89314
://	-7.89414
▁অসমীয়া	-7.89725
paper	-7.89881
য়া	-7.90111
ৱ	-7.90288
▁ব্যৱস্থা	-7.9038
▁কৰো	-7.90575
▁স্থানীয়	-7.90662
3	-7.9093
▁তাৰিখ	-7.91126
6	-7.91251
▁নিম্নলিখিত	-7.91378
ঔৣ	-7.91378
▁পিছত	-7.91769
▁ইচ্ছুক	-7.91882
▁আমি	-7.92388
▁?	-7.92736
▁প্ৰমাণপত্ৰ	-7.93187
▁উল্লেখ	-7.93387
্যা	-7.93498
in	-7.94146
▁ক্লিক	-7.94708
▁গুপ্তশব্দ	-7.94799
তি	-7.94862
▁প্ৰক্ৰিয়া	-7.95193
▁সমূহ	-7.95313
▁আমাৰ	-7.95828
নে	-7.962
▁X	-7.96316
▁হবে	-7.96704
▁ডমেইন	-7.96847
▁থেকে	-7.97131
ফ	-7.97161
▁আঁতৰুৱা	-7.97217
টা	-7.97386
W	-7.97409
੔	-7.97873
net	-7.98178
▁হেডাৰ	-7.98325
▁L	-7.98535
▁মাপ	-7.98914
▁a	-7.99081
▁হয়েছে	-7.99468
▁ব্যৱহাৰকাৰী	-8.00349
▁লোড	-8.00388
▁ওপৰত	-8.00723
▁বিষয়	-8.01003
▁প্ৰদৰ্শিত	-8.01148
aunchpad	-8.01148
▁কে	-8.01568
▁B	-8.01781
▁বিষয়ে	-8.02012
▁ফোল্ডাৰৰ	-8.02077
▁সময়ত	-8.02561
▁4	-8.02674
োৱা	-8.02943
▁সামৰ্থবান	-8.02956
▁২	-8.03077
▁বিৱৰণ	-8.04304
:%	-8.04566
▁সম্পাদন	-8.04575
(_	-8.04974
ীয়	-8.04985
মি	-8.05109
amp	-8.0517
an	-8.0533
▁প্ৰিন্ট	-8.05704
মান	-8.05802
▁সুৰক্ষা	-8.05978
▁১	-8.06163
!	-8.0627
▁চেষ্টা	-8.06271
ভ	-8.06465
ঃ	-8.06547
▁অকল	-8.06662
▁পা	-8.06693
▁গ	-8.07042
ভাৱে	-8.07101
▁ভুল	-8.0716
com	-8.07324
▁ফন্ট	-8.07378
▁লিখনী	-8.075
quot	-8.07732
▁ডাঙৰ	-8.07741
▁“%	-8.07784
চি	-8.08895
▁যাব	-8.09193
▁ছ	-8.09373
▁নিশ্চিত	-8.09537
▁উইন্ডোৰ	-8.09845
8)	-8.09993
▁কাৰণ	-8.10087
▁ডাইৰেকটৰি	-8.10296
G	-8.10413
V	-8.10482
কাৰী	-8.10545
▁উদ্ধাৰ	-8.11054
▁হৈছিল	-8.11073
▁প্ৰস্থ	-8.11357
▁M	-8.11704
▁দৰ্শন	-8.11843
▁সেৱা	-8.12067
খ	-8.1273
▁কৰ	-8.13324
▁F	-8.13837
▁বিভিন্ন	-8.13849
▁এইটো	-8.13919
েল	-8.14549
▁সাক্ষাৎকাৰ	-8.146
▁তা	-8.14675
▁`%	-8.14799
▁দ	-8.14835
▁নেকি	-8.15081
▁CD	-8.15274
Comment	-8.15364
▁একাওন্ট	-8.15478
▁সম্ভব	-8.15647
▁বিশেষ	-8.15948
▁ইতিমধ্যে	-8.15964
▁কম	-8.16453
en	-8.16517
▁মাজত	-8.16726
al	-8.17013
▁হচ্ছে	-8.17051
প্ৰ	-8.17094
▁সলনি	-8.17216
▁স্থাপন	-8.17255
র্	-8.17281
▁মেমো	-8.17325
েই	-8.17395
▁ক্ষেত্ৰ	-8.17815
▁সেই	-8.17968
▁বহি	-8.18238
▁করা	-8.18664
▁লক্ষ্য	-8.18696
▁ধাৰ্য্য	-8.19256
▁বুটাম	-8.19308
▁কা	-8.19459
▁H	-8.19611
or	-8.19812
▁আৰ্কাইভ	-8.19942
▁"{0}"	-8.2002
▁প্ৰস্থান	-8.2008
▁লগ	-8.20659
▁কৰতে	-8.20795
▁পি	-8.21027
▁খোলক	-8.21054
জি	-8.21093
▁ৰূপে	-8.21441
▁পাৰিব	-8.21832
▁to	-8.22118
am	-8.2217
▁অৱস্থাত	-8.22429
▁মিল	-8.22528
▁কৰিলে	-8.22682
▁আৱশ্যক	-8.22737
ৱা	-8.22937
▁দিয়ক	-8.23083
▁সমস্ত	-8.23093
▁ফিল্টাৰ	-8.23397
▁নিৰ্ধাৰিত	-8.23547
▁ৱেব	-8.23561
▁আবৰ্জনাৰ	-8.23755
ক্ষ	-8.23993
▁বে	-8.24142
▁টা	-8.24149
▁মে	-8.24178
▁ID	-8.24453
▁মুছে	-8.24842
অ	-8.25108
▁ফাইলসমূহ	-8.25148
▁অডিঅ	-8.25219
উ	-8.25279
▁কিছু	-8.2551
লো	-8.25817
ৰ্	-8.25965
▁সঠিক	-8.26171
▁বৰ্ষপঞ্জি	-8.26474
▁উপ	-8.26574
▁সৰ্বাধিক	-8.26703
▁মধ্যে	-8.27084
ar	-8.27108
ু	-8.2775
ন্	-8.27977
▁দেখা	-8.27999
▁মাই	-8.2802
েন	-8.2813
▁নথিপত্ৰৰ	-8.28293
▁অনুযায়ী	-8.28402
▁অনুপস্থিত	-8.28484
ন্ট	-8.28488
7)	-8.28524
জা	-8.28833
▁প্ৰশ্ন	-8.29133
▁ড	-8.29164
5)	-8.29278
▁ইমপোৰ্ট	-8.30163
▁সতীচ্ছদ	-8.3024
আপ	-8.30607
▁আল	-8.30688
▁নকৰে	-8.30986
▁হাত	-8.31067
▁month	-8.3136
▁ডিফল্ট	-8.31471
থ	-8.32073
▁টেক্সট	-8.32216
▁ট	-8.32289
▁অফ	-8.32322
▁সা	-8.32361
▁শাৰী	-8.32719
▁T	-8.32753
▁in	-8.32781
/~	-8.32875
▁যিকোনো	-8.33266
▁দিয়ে	-8.33329
ter	-8.33566
3)	-8.33612
▁5	-8.33784
ের	-8.33915
▁আখৰ	-8.34001
▁সম্পাদনা	-8.34311
▁বিচাৰে	-8.34464
...(_	-8.34593
le	-8.34846
▁কোন	-8.35135
KChar	-8.35184
▁D	-8.35356
▁6	-8.35451
▁চিহ্ন	-8.3573
K	-8.36267
▁উল্লিখিত	-8.36361
unit	-8.36381
▁পুনৰুদ্ধাৰ	-8.36422
▁হস্ট	-8.36437
6)	-8.3665
▁আন্তঃপৃষ্ঠ	-8.37153
z	-8.37228
▁(1	-8.37261
re	-8.37273
▁টেব	-8.37457
মে	-8.37548
▁দল	-8.37551
▁অনুমোদন	-8.37551
▁E	-8.37613
▁যেতিয়া	-8.37614
▁সংস্থাপন	-8.37954
▁লিখক	-8.38023
▁ইয়াত	-8.382
0	-8.38338
select	-8.38367
▁স্তম্ভ	-8.38371
▁নিষ্ক্ৰিয়	-8.38405
▁উল্লেখিত	-8.38464
▁অতি	-8.3857
Stock	-8.38756
▁বিকল্পসমূহ	-8.38781
▁থাকিব	-8.38821
ৈ	-8.39069
▁সাধাৰণ	-8.39119
▁বাৰ্তাসমূহ	-8.39287
▁অবস্থান	-8.39321
2)	-8.39405
▁প্ৰমাণীকৰণ	-8.3962
un	-8.39997
▁DVD	-8.40086
▁বিফল	-8.40398
▁GNOME	-8.4042
▁প্ৰক্সি	-8.40797
দা	-8.40834
▁সহায়	-8.41092
▁ডি	-8.41179
▁আমেৰিকা	-8.41274
▁URL	-8.41372
▁চাৰ্ভাৰৰ	-8.41516
▁অপ্ৰত্যাশিত	-8.41972
চা	-8.4232
▁ইনস্টল	-8.4253
▁প্ৰকাশ	-8.42572
▁পদ্ধতি	-8.4277
▁পৰি	-8.42799
▁block	-8.42886
▁মেমৰি	-8.42888
▁চি	-8.43035
হা	-8.43189
▁যৌনাংগ	-8.43302
▁অনুপ্ৰয়োগ	-8.43465
▁প্লাগ	-8.43715
0)	-8.43719
unicode	-8.43726
ভাবে	-8.43747
লাইন	-8.43755
▁য	-8.43843
▁দি	-8.43881
▁এটি	-8.44019
ায়	-8.44064
▁K	-8.44231
▁ভাষা	-8.44439
▁সীমা	-8.44603
▁তলত	-8.45208
▁অসামৰ্থবান	-8.45451
▁I	-8.45476
▁অতিৰিক্ত	-8.45506
▁10	-8.4563
▁চিস্টেম	-8.46171
স্	-8.46171
হি	-8.46184
▁আচমন	-8.46307
on	-8.46315
▁জ	-8.46592
▁ব্যক্তি	-8.46691
▁আইকন	-8.46733
▁ছবিৰ	-8.46739
▁ভিডিও	-8.46743
▁হিসাবে	-8.46743
▁স্বনিৰ্বাচিত	-8.46745
▁সেইটো	-8.47047
▁ভলিউম	-8.47182
▁ফোল্ডাৰে	-8.47515
▁ভ	-8.47515
ra	-8.4754
▁সংৰূপ	-8.4759
পা	-8.47758
▁লগত	-8.48005
▁General	-8.48065
▁অসম	-8.48107
▁অপেক্ষা	-8.48133
+	-8.48421
▁লিখা	-8.48884
▁কিছুমান	-8.48996
▁দেখুৱা	-8.49049
▁লোৱা	-8.49094
it	-8.4916
▁ব্য	-8.49432
▁পুনৰায়	-8.49458
▁R	-8.49653
▁অনুবাদ	-8.49795
▁বাৰ্ন	-8.49985
▁কো	-8.50137
ন্দ	-8.50265
▁এৰ	-8.50365
ষ্ট	-8.50555
▁XML	-8.50762
▁শেষ	-8.50786
20	-8.5088
কাৰ	-8.50914
▁পঞ্জিকা	-8.51047
▁অবস্থা	-8.51116
▁তৈৰি	-8.51219
পি	-8.5135
িন	-8.5144
সা	-8.51519
▁অস্থায়ী	-8.51677
▁বীমাকৃত	-8.51713
▁প্ৰকল্প	-8.52081
▁ইছলাম	-8.52099
\\\	-8.52138
▁শক্তি	-8.5216
গা	-8.52565
80	-8.52584
▁শ	-8.52595
▁পঢ়া	-8.52596
▁অসমৰ্থিত	-8.52601
▁এপ্লিকেচন	-8.5266
ৌ	-8.52742
ch	-8.52879
▁আই	-8.53006
▁নিৰ্ব্বাচন	-8.53066
▁চাওক	-8.53565
10	-8.5358
ৰণ	-8.53585
▁সেৱক	-8.53767
লী	-8.53784
ic	-8.53956
▁লাগে	-8.54003
▁আপনাৰ	-8.54145
াম	-8.54188
▁আবৰ্জনা	-8.54234
▁বিজ্ঞান	-8.54288
▁part	-8.54344
▁টকা	-8.54676
কো	-8.54678
at	-8.54688
▁পোৰ্ট	-8.54712
ডি	-8.54768
th	-8.54796
▁ব্যবহাৰ	-8.54897
▁8	-8.5502
▁CPU	-8.55135
স্ত	-8.55207
▁সৰু	-8.55477
▁সম্পাদক	-8.5549
Y	-8.55496
▁মই	-8.55832
▁গুৱাহাটী	-8.55845
▁নিয়ন্ত্ৰণ	-8.55966
16	-8.55993
email	-8.56073
▁এখন	-8.56114
es	-8.56286
▁অবধি	-8.56384
▁থাকে	-8.56402
▁{0}	-8.56543
▁উপাদান	-8.56584
▁যন্ত্ৰ	-8.5677
X	-8.57202
▁বৃদ্ধি	-8.57332
▁পেলাওক	-8.57352
▁যোগাযোগ	-8.57353
▁চা	-8.57424
▁সত্য	-8.57451
▁ক্ষতি	-8.57733
আ	-8.57804
াল	-8.57838
۝	-8.5784
▁যাওক	-8.57913
▁প্ৰথম	-8.58094
ুন	-8.5827
▁গুণ	-8.58346
▁পৰিচয়সমূহ	-8.5839
াব	-8.58944
▁মূল	-8.59358
▁যায়	-8.59361
▁পে	-8.59435
▁সম্পৰ্কে	-8.59468
য	-8.59479
▁মাহ	-8.59481
▁দিব	-8.59525
▁সন্ধানহিন	-8.59828
▁অফলাইন	-8.59844
▁উচ্চতা	-8.59892
▁is	-8.60042
▁মিলি	-8.60251
▁সৰ্বশেষ	-8.60317
▁বড়ো	-8.60331
▁স্ব	-8.60363
▁অন্যান্য	-8.60405
▁তেন্তে	-8.60818
▁সু	-8.60906
▁চলি	-8.6128
▁ডোমেইন	-8.61563
▁on	-8.61601
জন	-8.61622
▁৩	-8.62035
▁পত্ৰচিহ্ন	-8.62054
New	-8.62326
▁License	-8.62341
▁GNU	-8.62341
স্ক	-8.62368
(24	-8.62434
▁টুলবাৰ	-8.62548
▁(3	-8.62598
▁ডাইলগ	-8.62616
▁সি	-8.62619
25	-8.62622
▁0	-8.62784
▁পুনঃ	-8.62851
ngoswami	-8.62855
নো	-8.62877
▁শীৰ্ষক	-8.62942
▁কী	-8.63037
▁ঘৰ	-8.63145
▁প্ৰৰণ	-8.63198
8	-8.63223
▁আপোনাক	-8.63369
▁সংৰক্ষিত	-8.63369
▁লক	-8.63371
স্ট	-8.63399
▁ধৰণৰ	-8.63586
টৱৰ্ক	-8.63683
▁ড্ৰাইভ	-8.63811
aphukan	-8.63892
▁জি	-8.64008
▁ৰূপত	-8.6415
ঁ	-8.64161
▁ফেলুন	-8.64408
▁আপ	-8.64687
00	-8.64729
▁পূৰ্বে	-8.64734
েট	-8.64837
▁স্ট্ৰিং	-8.64932
▁সভা	-8.65124
▁সহ	-8.65138
ha	-8.65252
=\	-8.65528
▁তাক	-8.65826
ভা	-8.6627
▁নম্বৰ	-8.66411
▁Public	-8.66519
▁আপডেট	-8.66519
▁মাউন্ট	-8.66519
▁//	-8.66541
▁তৰ্ক	-8.66599
হে	-8.66606
▁ধৰন	-8.66705
11	-8.66803
▁LDAP	-8.67054
▁কথা	-8.6722
▁ব্যৱহাৰযোগ্য	-8.67278
▁ভাল	-8.67564
▁বিন	-8.67579
▁ফলত	-8.67605
▁গণিত	-8.6782
▁দস্তাবেজ	-8.67942
▁সহায়ত	-8.68037
▁ডিভাইচৰ	-8.68075
▁সহায়ক	-8.68078
▁URI	-8.68132
▁প্ৰাপক	-8.68279
▁আপডেইট	-8.68319
▁লাভ	-8.68369
▁সম্পদ	-8.68387
▁TV	-8.68634
▁অভিগম	-8.68635
এই	-8.68716
format	-8.68745
▁action	-8.68797
▁লগতে	-8.68891
ক্স	-8.69022
▁চিনাক্ত	-8.69171
নী	-8.6919
▁POP	-8.69222
▁‘	-8.69265
ীয়া	-8.69369
▁সূচনা	-8.69372
15	-8.69409
org	-8.69664
38	-8.69693
▁বিভাগ	-8.69759
▁গণনা	-8.69793
▁টি	-8.70033
▁পটভূমিৰ	-8.70116
▁বহী	-8.70144
কৰণ	-8.70218
▁হয়নি	-8.70289
১	-8.70299
GenericName	-8.70324
▁প্ৰব্ৰজন	-8.70324
জু	-8.70331
▁বাহিৰ	-8.70368
id	-8.70451
কৃত	-8.70456
no	-8.7048
fedoraproject	-8.7088
▁হোৱাৰ	-8.7099
ৰো	-8.71007
▁N	-8.71299
✞	-8.71357
▁আতৰাওক	-8.71438
▁ইনপুট	-8.71438
▁নথিপত্ৰসমূহ	-8.71588
▁ভিতৰত	-8.71631
▁সপ্তাহ	-8.717
▁চাবি	-8.71725
ঞ্চ	-8.71805
ro	-8.72563
▁~	-8.72611
▁বৈশিষ্ট	-8.72639
ভাৰ	-8.72748
ুৰ	-8.72796
ণ্ড	-8.72925
চ্	-8.72955
৷	-8.73133
▁{@}	-8.73133
▁News	-8.73176
▁সংহতিসমূহ	-8.7341
▁ইতিহাস	-8.73601
▁নীতি	-8.73643
▁ব্যবহৃত	-8.73705
▁বাৰ্ণ	-8.73783
▁HTML	-8.73902
২	-8.73936
▁ঘটনা	-8.74086
▁মাধ্যমে	-8.74146
▁একাউন্ট	-8.74159
যোগ্য	-8.74416
▁যেনে	-8.74495
▁7	-8.74705
তো	-8.74943
▁c	-8.74944
▁এক্স	-8.74999
▁সংযোগক্ষেত্ৰ	-8.75004
sh	-8.7529
▁অন	-8.7535
▁মুক্ত	-8.75378
▁পৰিবৰ্তে	-8.75439
▁কিবৰ্ড	-8.75439
▁সম	-8.75443
▁বছৰ	-8.75765
ম্প	-8.75914
▁সহযোগে	-8.76023
▁অবজেক্ট	-8.76088
ূ	-8.76293
▁x	-8.76712
▁ৰঙৰ	-8.76835
▁সামগ্ৰী	-8.76887
60	-8.76951
▁সং	-8.77092
▁আবশ্যক	-8.77203
▁পৰবৰ্তী	-8.77204
▁ইন	-8.77226
ta	-8.77228
ৰ্ট	-8.77617
▁অনু	-8.77898
ur	-8.78118
▁সুৰক্ষিত	-8.78144
ৰূপে	-8.78532
▁ঘ	-8.78561
▁ডেস্কটপ	-8.78877
▁দূৰবৰ্তী	-8.79001
▁item	-8.79002
et	-8.79066
▁অধিবেশন	-8.79152
▁ব্যৱহাৰকাৰীৰ	-8.7928
▁প্ৰয়োজনীয়	-8.79537
▁এতিয়া	-8.79549
ভি	-8.79583
▁পূৰ্ববৰ্তী	-8.79608
▁সুমুৱাওক	-8.79611
▁নাছিল	-8.79666
▁অঞ্চল	-8.79846
▁লেবেল	-8.79864
▁স্তৰ	-8.7994
▁গা	-8.79941
▁ভি	-8.80054
▁অনুষ্ঠান	-8.80215
▁Brasero	-8.80216
▁পুল	-8.80348
▁লেখা	-8.80492
থা	-8.80573
▁অস্তিত্ববান	-8.80829
▁পেলোৱা	-8.80829
▁আছিল	-8.80892
▁প্র	-8.80991
▁“	-8.81038
▁m	-8.81044
▁এনে	-8.81061
▁নহব	-8.81185
ডা	-8.8122
keyboard	-8.81447
ওক	-8.81485
▁উপস্থিতি	-8.81599
\	-8.8174
সি	-8.81926
7	-8.81932
▁দা	-8.81984
িয়ে	-8.81991
▁পূৰ্বদৰ্শন	-8.82068
▁IMAP	-8.82069
▁অনলাইন	-8.82092
▁প্ৰৱেশ	-8.82209
12	-8.82352
▁পূৰ্ব	-8.83295
▁নকৰা	-8.83323
▁আশা	-8.83369
ম্	-8.83546
▁পৰৱৰ্তী	-8.83955
▁স্নেপশ্বট	-8.84196
▁কিনা	-8.84219
of	-8.84225
▁মন	-8.84305
01	-8.84518
▁নিৰ্দিষ্ট	-8.84591
▁আদেশ	-8.84623
09	-8.84909
▁আগত	-8.8508
ৎ	-8.85187
▁চৰ্টকাট	-8.85232
▁প্ৰযোজ্য	-8.85232
▁এবং	-8.85236
▁খ	-8.85303
▁লগিয়া	-8.85324
j	-8.85397
▁বুলি	-8.85433
▁পু	-8.8555
▁লিঙ্ক	-8.85597
▁মূল্য	-8.85735
▁করুন	-8.85878
▁সাথে	-8.85878
▁প্ৰতিস্থাপন	-8.85885
▁and	-8.8589
াহ	-8.86046
সকলৰ	-8.86217
▁জা	-8.86249
▁(10	-8.86294
▁(11	-8.86581
▁লওক	-8.86616
▁উপৰ	-8.86697
তাৰ	-8.86794
▁সদস্য	-8.86907
▁সাৰ্টিফিকেট	-8.86958
▁টেগ	-8.87164
▁নকল	-8.87198
▁নেই	-8.87347
▁তেওঁ	-8.87664
50	-8.87742
▁বিচ্ছিন্ন	-8.87766
▁সতৰ্কবাৰ্তা	-8.87838
▁দৃদ্ধ	-8.87838
▁বিভাজন	-8.87838
তকৈ	-8.87971
▁নকৰিব	-8.88076
▁খেলা	-8.88113
ঙ	-8.88182
▁g	-8.88301
কৰ্তা	-8.8832
▁দাবী	-8.88344
▁ব্যৱস্থাপনা	-8.88468
▁আইটেম	-8.88501
hat	-8.88714
q	-8.88864
▁বিল	-8.88937
▁India	-8.89076
▁ডা	-8.89135
de	-8.89175
ol	-8.89442
▁মোৰ	-8.89465
name	-8.8948
▁অহা	-8.89573
li	-8.89584
▁বেক	-8.89696
্ব	-8.89697
▁শিক্ষা	-8.89842
▁১০	-8.89951
ঘ	-8.90048
▁একে	-8.90058
মো	-8.9006
ষ	-8.90086
▁Assamese	-8.90215
▁লোক	-8.9036
▁পেনেল	-8.9042
▁স্থায়ী	-8.90445
▁12	-8.90466
ri	-8.90487
▁একাধিক	-8.90521
▁উপাদানৰ	-8.90572
▁HTTP	-8.90603
চন	-8.90611
▁আলেখ্য	-8.90928
▁সেৱকৰ	-8.91172
▁অনুসৰি	-8.91194
▁যাৰ	-8.91253
ce	-8.91562
দি	-8.91675
▁সমাপ্ত	-8.91769
▁ভা	-8.91857
▁উলম্ব	-8.92055
▁সংগ্ৰহ	-8.92159
▁প্ৰতিক্ৰিয়া	-8.92576
▁দ্বিতীয়	-8.92709
{0}	-8.93032
30	-8.93241
▁প্ৰেৰিত	-8.93264
▁(28	-8.93373
▁Free	-8.93405
▁মিনিট	-8.93531
▁পৰিচিত	-8.93615
▁V	-8.93696
▁খামখেয়াল	-8.93963
০	-8.94108
▁সমল	-8.94181
63	-8.94244
▁এজন	-8.94443
▁পছন্দ	-8.9451
▁বিচাৰি	-8.9458
▁ক্যাশ	-8.94589
BAR	-8.94668
▁ব্যাক	-8.94679
লিচি	-8.94773
ত্	-8.95075
▁W	-8.95076
J	-8.95097
il	-8.95228
▁বৰ্ষপঞ্জিৰ	-8.95259
▁অত্যাধিক	-8.95376
▁বানান	-8.95382
▁থিম	-8.95386
▁তলৰ	-8.95453
▁ডিস্কত	-8.95529
▁খণ্ড	-8.95742
▁ৰখা	-8.95947
▁পেইন	-8.95993
▁সম্পন্ন	-8.96059
▁সুবিধা	-8.96084
▁সাৰাংশ	-8.96091
▁খেল	-8.96425
▁*	-8.96516
▁ধৰি	-8.96549
26	-8.96671
▁স্বয়ংক্ৰিয়	-8.96671
▁প্ৰান্ত	-8.96794
:(_	-8.96798
▁বৈশিষ্ট্যাবলী	-8.9681
▁ঢকান	-8.9681
▁তালিকাভুক্ত	-8.9687
▁অনুসন্ধানৰ	-8.96893
▁ভাৰতীয়	-8.97041
el	-8.97072
▁অধিকাৰ	-8.97104
▁আৰ	-8.97187
কাল	-8.9722
▁for	-8.97538
21	-8.9755
▁সৰঞ্জাম	-8.97626
▁অংশীদাৰী	-8.97699
▁পূৰ্ণ	-8.97713
ধ	-8.97716
▁পো	-8.97802
▁মাত্ৰা	-8.97859
ৱে	-8.9799
▁অবস্থায়	-8.98141
▁এন	-8.98257
▁থ্ৰেড	-8.98265
▁'{0}'	-8.98265
▁গোস্বামী	-8.98267
▁ট্ৰেক	-8.98533
▁প্ৰণালী	-8.98534
ড়	-8.98536
(23	-8.98816
ৰ্থ	-8.98849
▁সুসংগত	-8.98961
▁ভিত্তি	-8.98976
▁প্ৰত্যাশিত	-8.99
ত্ত	-8.99001
▁ফলাফল	-8.99001
▁শ্ৰেণী	-8.9915
▁নিয়ম	-8.99203
red	-8.99542
▁লি	-8.99616
96	-8.99633
▁বহু	-8.99735
▁অনুসাৰে	-8.99741
▁নিশ্চিতৰূপে	-8.99778
▁স্	-8.99795
▁০	-8.9983
▁পৃথক	-9.00013
31	-9.00466
▁পৰিমাণ	-9.00487
▁ফুকন	-9.00487
▁কেন্দ্ৰ	-9.00501
কু	-9.0065
াপ	-9.0066
ct	-9.00763
শ্ব	-9.00783
▁প্লাগিন	-9.01122
তালিকা	-9.01145
▁উন্নত	-9.01191
▁এনক্ৰিপ্ট	-9.01241
▁উইন্ডোত	-9.01271
▁ৰাখক	-9.01286
▁দুটা	-9.01291
ুৱা	-9.01291
▁শেহতীয়া	-9.01338
▁p	-9.0145
▁চেট	-9.01454
to	-9.01868
▁পৃষ্ঠাৰ	-9.01933
▁গ্ৰাহক	-9.01996
▁সংমিহলি	-9.01997
▁মেনু	-9.02072
▁ক্ষেত্ৰে	-9.02229
▁ক্ৰ	-9.02232
▁short	-9.02386
▁সকল	-9.02426
▁পিক্সেল	-9.02495
▁৫	-9.02613
▁ব্যৱহাৰকৰ্তাৰ	-9.02705
▁পৰিষ্কাৰ	-9.0276
▁ডাউনলোড	-9.0276
▁পূৰ্বৱৰ্তী	-9.02762
▁ৱেবছাইট	-9.02763
▁স্বচালিতভাৱে	-9.02778
▁লগিন	-9.02806
▁মু	-9.02824
▁ড্ৰাইভাৰ	-9.03045
▁প্ৰস্তুত	-9.03332
▁20	-9.03363
গো	-9.03382
▁প্ৰকৃত	-9.03417
▁তৃতীয়	-9.03529
▁মন্তব্য	-9.03531
▁পড়া	-9.03581
te	-9.03618
59	-9.03622
▁দু	-9.03766
ie	-9.03789
▁পটভূমি	-9.0382
▁পৰিচিতি	-9.03921
▁পাৰি	-9.03928
58	-9.03983
▁পাঠ	-9.04001
ল্	-9.04031
la	-9.04122
▁সংযোজন	-9.04304
▁আয়তন	-9.04366
▁থাকিলে	-9.04373
▁হিচাপ	-9.04538
onit	-9.04554
▁অক্ষৰ	-9.04805
চে	-9.04947
▁J	-9.04964
▁আমদানি	-9.05085
▁মৌলিক	-9.05085
▁সম্ভাব্য	-9.05085
▁উচ্চ	-9.0516
স্থ	-9.05261
▁গন্তব্য	-9.05406
▁ক্ষমতা	-9.05488
65	-9.05502
▁কাজ	-9.05734
▁পৰ্দা	-9.05849
Possessive	-9.05873
মিতাক্ষ	-9.05873
▁গতি	-9.05899
▁চে	-9.05912
▁সক্ষম	-9.06013
ation	-9.06031
▁অন্ত	-9.06097
▁মোড	-9.06117
▁b	-9.06168
িকা	-9.06215
চু	-9.06234
এৰ	-9.06393
▁Empathy	-9.06666
▁দৃশ্যমান	-9.06676
▁কাৰ	-9.06715
সকল	-9.06873
32	-9.07222
▁com	-9.07331
▁ফোন	-9.07414
▁দিশ	-9.07433
▁প্ৰচেষ্টা	-9.07466
▁নাখায়	-9.07466
▁লেখক	-9.07469
98	-9.07522
ার	-9.07583
40	-9.07602
▁প্ৰকাশিত	-9.07602
ঙ্গ	-9.07704
(1	-9.07861
▁তেতিয়া	-9.07977
টে	-9.08192
▁মহিলা	-9.08273
ন্ড	-9.08533
▁type	-9.08677
▁Exchange	-9.09086
▁আউটপুট	-9.09086
▁ইম্পোৰ্ট	-9.09086
▁@	-9.09095
িল	-9.09099
ip	-9.09396
▁শি	-9.0947
▁(4	-9.09492
▁–	-9.09562
িয়ান	-9.09843
▁মো	-9.09858
Query	-9.09905
▁পঠাওক	-9.09908
▁অ্যাকাউন্ট	-9.1051
ক্ৰ	-9.10546
টন	-9.10583
▁পৰিসংখ্যা	-9.10736
49	-9.1087
▁আৰম্ভণি	-9.10875
▁ৰুম	-9.11293
28	-9.11303
▁যাবে	-9.11321
▁ক্ৰম	-9.11422
▁বোঁচকা	-9.11565
▁ফেলা	-9.1157
ফা	-9.11635
▁আদি	-9.11682
্ৰ	-9.12003
সহ	-9.12275
িয়	-9.12348
▁বাগ	-9.12353
95	-9.12398
▁Foundation	-9.12406
▁আমৰিকা	-9.12406
▁Sora	-9.12406
▁ইউৰোপ	-9.12411
ছা	-9.12606
▁পাৰ	-9.127
▁ফন্টৰ	-9.12769
▁চাইল্ড	-9.12983
CategoryName	-9.13253
▁পৰ্যাপ্ত	-9.13253
▁সমাধান	-9.13253
protected	-9.1326
18	-9.13295
ৰপৰা	-9.13314
▁www	-9.13319
জে	-9.13396
▁উইজেট	-9.13524
পত্ৰ	-9.13579
27	-9.13593
পো	-9.13607
ছিল	-9.13739
েচ	-9.13922
▁অন্তত	-9.14066
নাম	-9.14083
▁বিবৰণ	-9.14108
▁নিবেশ	-9.1412
56	-9.14235
৬	-9.14309
▁ডাউনল	-9.14364
ন্ত	-9.14443
▁নিৰ্দেশ	-9.14516
um	-9.14579
▁অৱ	-9.14638
▁সম্বাদ	-9.14852
all	-9.14866
ৰু	-9.14935
দ্যুতি	-9.1497
▁Software	-9.1497
▁স্ট্ৰিম	-9.1497
▁বিতৰণ	-9.1497
ুল	-9.1508
▁পৰিবৰ্তনসমূহ	-9.15333
▁গ্ৰ	-9.15517
কট	-9.15555
▁এপসন	-9.15839
▁ক্যাটাগৰি	-9.15839
▁2019	-9.15849
টাৰ	-9.16
াউ	-9.16091
▁ছা	-9.16213
▁প্ৰা	-9.16222
▁মাধ্যম	-9.16241
ঠ	-9.16287
পেক্ষা	-9.16658
help	-9.16676
▁ফোল্ডাৰসমূহ	-9.16714
▁দায়িত্ব	-9.16717
▁শিৰোনাম	-9.16717
gina	-9.16718
▁বিষয়বস্তু	-9.1673
ত্ব	-9.1683
▁9	-9.16837
▁চিকিৎসা	-9.17601
▁QEMU	-9.17601
▁নীলম	-9.17602
▁আঁতৰাবলৈ	-9.17625
▁অতিথি	-9.17628
▁চমু	-9.17664
▁16	-9.17808
ধা	-9.17859
33	-9.17886
যুক্ত	-9.17915
▁এল	-9.17992
▁৪	-9.18088
68	-9.18408
▁বজোৱা	-9.18494
▁সঞ্চালন	-9.18494
▁টকিঅ	-9.18501
▁উচিত	-9.18524
দু	-9.18558
▁কনফিগাৰেশন	-9.18572
পে	-9.18575
▁ঘন্টা	-9.18855
▁মেইলিং	-9.18873
৫	-9.18876
▁কিতাপ	-9.19021
▁কোড	-9.19153
66	-9.19201
54	-9.19239
৩	-9.19337
▁চৰকাৰ	-9.19341
▁অনুমোদিত	-9.19395
▁স্থগিত	-9.19395
▁সংখ্যক	-9.19397
9	-9.19401
▁©	-9.19557
▁স্বাস্থ্য	-9.19579
ক্	-9.19645
9)	-9.19694
None	-9.19851
▁Re	-9.19891
▁as	-9.19924
রি	-9.19947
▁কু	-9.2008
▁LongName	-9.20304
▁KDE	-9.20304
▁PCI	-9.20326
▁স্বাভাবিক	-9.20446
▁গছ	-9.20683
বিহীন	-9.20702
86	-9.20801
14	-9.20858
▁Windows	-9.20925
▁পেলাব	-9.20951
▁ডিবাগ	-9.21222
▁টিপক	-9.21223
▁মুখগত	-9.21225
▁যোৱা	-9.21259
▁বিশ্ব	-9.21275
▁বাৰ্তাটি	-9.21279
▁__	-9.21331
47	-9.21391
symbols	-9.21428
▁(50	-9.2154
▁an	-9.21599
সং	-9.21632
▁লা	-9.21723
▁খা	-9.21738
▁মানসমূহ	-9.21769
ম্ব	-9.21794
▁ইউ	-9.21826
mo	-9.21895
▁বস্তুৰ	-9.22075
ly	-9.22107
াস	-9.22139
▁দুৰ্ঘটনা	-9.2214
▁ক্ষতিগ্ৰস্থ	-9.22148
▁মূদ্ৰণ	-9.22148
	-9.22148
▁ৰূপান্তৰ	-9.22148
▁মডেল	-9.22167
▁কৰ্মসূচী	-9.22168
▁The	-9.22326
36	-9.22339
▁প্ৰিন্টাৰ	-9.22392
▁Y	-9.22859
▁উল্লেখ্য	-9.22908
দান	-9.22933
ব্	-9.22951
mitakhya	-9.22955
hukan	-9.23074
▁প্ৰতিমূৰ্তি	-9.23082
▁Ekiga	-9.23082
55	-9.231
▁ফলে	-9.23242
▁ধন	-9.23267
▁বাদ	-9.23291
▁পৰ্দাৰ	-9.23617
▁এনক	-9.23678
য়ো	-9.23887
▁কাৰ্য	-9.23914
▁খোলিব	-9.23935
and	-9.23979
▁এনক্ৰিপশন	-9.24026
▁পংক্তি	-9.24026
▁ফাঁকা	-9.24026
▁লিখুন	-9.24031
ma	-9.24277
ve	-9.24287
▁ব্যক্তিৰ	-9.24332
if	-9.24449
22	-9.24547
দী	-9.24583
▁ধাৰা	-9.2473
ংগ	-9.24736
▁ওপৰ	-9.24817
▁search	-9.24894
ঞ্জ	-9.24935
ৃ	-9.24962
port	-9.24964
▁গোলগাল	-9.24978
▁প্ৰভাৱ	-9.25001
▁Jan	-9.25045
▁+	-9.25068
হাৰ	-9.25071
▁অধীনত	-9.25199
▁ব্যৱস্থাপ্ৰণালী	-9.25239
▁প্ৰতিষ্ঠান	-9.25273
্র	-9.25378
াচ	-9.2566
▁(55	-9.25668
ডিং	-9.25818
▁লিখিব	-9.259
▁কম্পিউটাৰ	-9.2594
▁আতৰোৱা	-9.2594
▁কুকি	-9.26
08	-9.26096
▁তথা	-9.26157
▁(59	-9.26219
▁বিশিষ্ট	-9.26228
▁ফটো	-9.26262
57	-9.26281
48	-9.26516
▁দিলে	-9.26562
76	-9.26772
ut	-9.26803
▁ব্ৰ	-9.26908
▁ইত্যাদি	-9.2691
▁লোকচান	-9.26918
▁দৰে	-9.27015
▁..	-9.27384
PL	-9.27432
▁যুক্ত	-9.27488
file	-9.27542
্ড	-9.27728
িও	-9.27788
▁or	-9.27823
Contributions	-9.27891
▁নাযাব	-9.27891
128	-9.27892
▁জিপ্লাছ	-9.27893
▁দৈৰ্ঘ্য	-9.27896
▁মৃত্যু	-9.28024
প্	-9.28039
ধি	-9.28142
Va	-9.28293
▁ডে	-9.28316
▁আহি	-9.28372
▁প্ৰাচল	-9.28447
▁ঘৰৰ	-9.2845
▁এইচ	-9.28533
▁আঁচনি	-9.28881
▁বেছি	-9.28902
▁খালি	-9.28934
▁ডাটা	-9.28938
▁ইমেইল	-9.29071
▁উদাহৰণ	-9.29083
om	-9.29284
51	-9.29318
▁ৰাখিব	-9.2933
▁গে	-9.29418
▁কাৰ্য্যসমূহ	-9.29461
▁উদ্দেশ্য	-9.29499
▁ফা	-9.29546
Q	-9.29564
ex	-9.29615
mm	-9.29625
দ্	-9.29674
pa	-9.29696
োন	-9.29732
▁বার্তা	-9.2981
▁(27	-9.2984
lu	-9.29977
▁৮	-9.29991
▁14	-9.30051
▁খনক	-9.30126
dy	-9.30179
▁ধ	-9.30205
শ্	-9.30299
▁সভাৰ	-9.30367
মু	-9.30517
ir	-9.30531
▁(36	-9.30558
▁টে	-9.30715
াগ	-9.30771
Color	-9.3089
▁ক্লাএন্ট	-9.30891
▁প্ৰবিষ্টি	-9.30891
▁GTK	-9.30891
▁আৰ্হি	-9.30891
▁reset	-9.30896
▁সময়েৰ	-9.30971
▁মখোমুখী	-9.31
me	-9.31059
▁ঠিক	-9.31133
▁পঠোৱা	-9.31238
77	-9.31637
▁(23	-9.3171
co	-9.31768
▁সূচী	-9.31857
▁নিৰাপদ	-9.31911
▁ফ্ল্যাগ	-9.31911
▁এশিয়া	-9.31913
▁পৰিয়াল	-9.3192
ছো	-9.31938
ion	-9.31954
▁13	-9.31976
▁দিছে	-9.32014
▁IP	-9.32026
="	-9.32052
73	-9.32285
▁ভাবে	-9.32323
▁সে	-9.32332
ID	-9.32354
dev	-9.32441
▁টাৰ্মিনেল	-9.32453
uti	-9.3277
▁ShortName	-9.32951
93	-9.32952
▁সৰ্বোচ্চ	-9.33029
ari	-9.33129
▁পাব	-9.33398
▁ব্যস্ত	-9.33443
▁চলা	-9.33641
▁অপ	-9.3367
▁নোহোৱা	-9.33848
ষ্	-9.33856
▁গুৰুত্বপূৰ্ণ	-9.33987
▁সৰিয়ে	-9.33988
▁(47	-9.33995
▁ছে	-9.34069
েক্স	-9.3415
▁by	-9.34224
▁কাৰ্ড	-9.34245
▁fs	-9.34251
▁তেওঁৰ	-9.34257
ৰ্ক	-9.34429
▁ব্যৱহাৰকৰ্তা	-9.34443
mail	-9.34678
ue	-9.34711
▁গোপন	-9.35008
▁National	-9.35037
▁মনিটৰ	-9.35037
▁নিজৰ	-9.35048
▁প্ৰসাৰিত	-9.35065
খিনি	-9.3507
23	-9.35261
▁24	-9.35325
ঙ্ক	-9.35367
▁ৱা	-9.35369
লু	-9.35393
▁পঢ়িব	-9.35432
বু	-9.35441
গ্ৰ	-9.35473
▁বিষয়ক	-9.35524
▁যোগান	-9.35555
▁৬	-9.35663
▁পৰীক্ষণ	-9.35808
▁পলিচী	-9.3584
▁অক্ষ	-9.35992
▁পছন্দৰ	-9.36085
ā	-9.361
▁কমপিউটাৰ	-9.36101
▁ভাৰ্চুৱেল	-9.36101
▁সতেজ	-9.36101
▁18	-9.36113
▁স্কেন	-9.36117
02	-9.36146
end	-9.36178
▁খোলিবলে	-9.36413
▁জন	-9.36431
53	-9.3656
ত্ৰ	-9.36672
▁জুম	-9.36695
▁অনুকৰণ	-9.36738
go	-9.36971
ock	-9.3709
▁আফ্ৰিকা	-9.37176
▁ডিৰেক্টৰি	-9.37176
▁Bollywood	-9.37176
▁প্ৰত্যুত্তৰ	-9.37176
▁খবৰ	-9.37216
▁আজি	-9.37275
04	-9.37294
▁কামসূচী	-9.37303
▁নিৰীক্ষণ	-9.37349
▁দুই	-9.37361
ı	-9.37432
▁লিখাৰ	-9.37492
▁স্থানত	-9.37493
▁জ্ঞান	-9.37605
im	-9.37635
70	-9.37749
▁#	-9.37753
▁ভাষাৰ	-9.37786
▁not	-9.37812
গত	-9.37966
টোৱে	-9.38022
Z	-9.38096
text	-9.38154
▁JSON	-9.38263
mdraid	-9.38263
▁USB	-9.38264
▁থীম	-9.38268
▁স্থায়ীৰূপে	-9.38288
▁নোৱাৰে	-9.38406
▁বক্স	-9.38493
▁খাম	-9.38541
▁ধাৰ্য্যত	-9.38542
▁বু	-9.38612
▁বাচ	-9.39012
(5	-9.39153
▁সহজ	-9.39199
}}	-9.39347
꧂	-9.39362
▁VPN	-9.39362
সমুহ	-9.39363
▁স্ক্ৰিপ্ট	-9.39365
▁꧁	-9.39376
▁নিউ	-9.39396
৮	-9.39442
ছন	-9.39472
▁চাপ	-9.39624
92	-9.39705
▁বিশ্বাস	-9.39783
▁আইন	-9.40016
page	-9.4003
ওঁ	-9.40137
ডিঅ	-9.40261
সকলে	-9.40293
www	-9.40386
▁স্পুল	-9.40483
▁প্ৰধান	-9.40502
▁w	-9.40565
po	-9.40579
▁Z	-9.40612
▁নথকাকৈ	-9.40646
▁SSL	-9.40754
স্থান	-9.40771
▁জড়িত	-9.40779
42	-9.40876
▁দস্তাবেজত	-9.40902
▁ঈ	-9.40934
24	-9.40987
46	-9.41075
্ৰা	-9.41224
▁আগতে	-9.41325
}	-9.41334
▁v	-9.41509
time	-9.41538
ৰ্ম	-9.41567
▁চাবিৰ	-9.4157
▁বীজ	-9.41589
▁অৱশিষ্ট	-9.41596
▁নিয়ন্ত্ৰক	-9.41596
▁শেল্ফ	-9.41596
▁আমাক	-9.41607
▁পূৰণ	-9.41619
াছ	-9.41621
▁টেবুল	-9.41631
19	-9.41841
di	-9.41857
▁লিখনযোগ্য	-9.4188
৪	-9.4189
পু	-9.42016
▁অনুপ্ৰয়োগৰ	-9.42294
ca	-9.42369
চাৰ	-9.42422
79)	-9.42569
oogle	-9.42677
Coptic	-9.42733
▁hrs	-9.42733
▁প্ৰতিৰোধ	-9.42734
▁সৰ্বনিম্ন	-9.42735
▁পুৰনি	-9.42737
▁বিৰতি	-9.42739
▁বিচৰা	-9.42762
▁আপনি	-9.42869
(2	-9.42905
সে	-9.42913
দিন	-9.42954
▁মনত	-9.42986
-1	-9.43452
log	-9.43689
ack	-9.43744
▁ভে	-9.43772
(4	-9.43805
▁গোপনীয়	-9.43824
▁প্রদর্শন	-9.43857
☬	-9.43866
▁পৰিবৰ্তিত	-9.43882
▁মূখ্য	-9.43882
▁ৰাজহুৱা	-9.43882
▁ঠিকানা	-9.43888
▁চু	-9.43909
▁Nil	-9.43911
▁লিপি	-9.43918
ৰ্ড	-9.44152
day	-9.44154
▁মূদ্ৰক	-9.44287
▁সমলসমূহ	-9.4443
29	-9.44442
▁তাচ	-9.44443
হীন	-9.44614
▁event	-9.44617
ap	-9.44707
▁মাউছ	-9.4476
▁সদায়	-9.44981
▁পুনৰাবৃত্তি	-9.45037
▁পদাৰ্থ	-9.45045
▁ৰহমান	-9.45046
▁ৰয়েছে	-9.45047
▁নীৰিক্ষণ	-9.45052
প্ৰযুক্তি	-9.4506
Next	-9.4509
মূলক	-9.45188
▁বহিৰ	-9.45362
▁al	-9.45378
[	-9.45463
▁ধৰণে	-9.45536
▁প্ৰগ্ৰাম	-9.45637
▁ভাষাত	-9.45808
ছি	-9.45861
মন	-9.45891
নিয়া	-9.45921
05	-9.45936
▁(17	-9.46067
▁ৰেকৰ্ড	-9.46171
৭	-9.46198
oswami	-9.46219
▁পৰিশোধ	-9.46221
▁হোস্ট	-9.46223
▁গৈছে	-9.46238
▁বৰ্জন	-9.4624
০০	-9.4627
▁এছিয়া	-9.46321
▁একক	-9.46327
▁এতিয়াও	-9.46338
▁পঢ়িবলৈ	-9.46354
শা	-9.4638
▁এম	-9.46542
07	-9.46564
▁ব্যবস্থা	-9.46575
▁0.0	-9.4667
99	-9.4668
▁প্ৰি	-9.47081
দে	-9.47088
ll	-9.47231
▁স্প	-9.47274
85	-9.47376
িম	-9.47391
▁লাইব্ৰেৰী	-9.47412
▁সৰ্বমোট	-9.47412
▁চিকিৎসালয়	-9.47413
▁স্বনিৰ্ধাৰিত	-9.47415
▁চলাওক	-9.4743
File	-9.47435
▁সময়সীমা	-9.47454
▁পূৰ্বপ্ৰদৰ্শন	-9.47684
▁চোৱা	-9.4769
▁CA	-9.47765
যোগ	-9.4781
ast	-9.48021
▁ডমেইনৰ	-9.48022
▁গু	-9.48027
64)	-9.48197
চ্ছ	-9.4831
ent	-9.48322
▁আতৰাব	-9.48345
▁ফোল্ডার	-9.48358
ান্ত	-9.48441
▁y	-9.48504
va	-9.48508
গৰাকী	-9.4859
▁আঁতৰাওক	-9.48619
▁ব্ৰাউজাৰ	-9.48675
search	-9.48724
▁বিকাশ	-9.48788
ভিল	-9.48819
▁নিৰ্দেশক	-9.48844
ৰ্ত	-9.49006
▁ফি	-9.49233
▁media	-9.49289
ry	-9.49295
▁বতৰ	-9.49335
তু	-9.49526
্স	-9.49536
ডাৰ	-9.49579
ক্ত	-9.49585
▁প্ৰমাণীকৰণৰ	-9.4968
▁৭	-9.49699
Ethiopian	-9.49836
▁ইংৰাজী	-9.49836
▁ইন্টাৰনেট	-9.49836
▁দূৰৱৰ্তী	-9.49838
▁চকেট	-9.49874
্তি	-9.5
cal	-9.50003
35	-9.50112
▁কৰিছিল	-9.50131
▁বাকচত	-9.50434
▁30	-9.50439
91	-9.50456
াও	-9.50534
75	-9.50557
োঁ	-9.50675
▁সংযোগমাধ্যম	-9.5073
▁অসমৰ	-9.50759
োল	-9.50921
▁IFFCO	-9.51071
▁প্ৰডাক্ট	-9.51071
▁মুহাম্মদ	-9.51071
▁ক্লিপবৰ্ড	-9.51071
▁টিউব	-9.51072
ment	-9.51075
▁ভিন্ন	-9.51075
▁সম্পৰ্কিত	-9.51123
▁যাতে	-9.51138
িউ	-9.51196
▁বাফাৰ	-9.51205
▁U	-9.51429
▁বো	-9.51488
▁প্ৰমাণ	-9.5153
ay	-9.51576
ge	-9.51651
ুক	-9.51677
52	-9.51748
গুলি	-9.51815
ba	-9.51906
শি	-9.51987
▁চলোৱা	-9.52001
▁লুকুৱা	-9.52305
▁টগল	-9.52321
▁ট্যাব	-9.52322
▁ডাঠ	-9.5234
িট	-9.52415
▁প্লে	-9.52515
bo	-9.52742
▁বিন্দু	-9.52787
up	-9.52834
=%	-9.52836
44	-9.52892
13	-9.5299
▁ব্যৱস্থাৰ	-9.53167
▁কোম্পানী	-9.53274
▁প্ৰতিনিধি	-9.53283
▁দে	-9.53304
▁কাট	-9.53484
▁স্বচালিত	-9.53533
▁চফ্টৱেৰ	-9.53587
▁প্ৰিমিয়াম	-9.53587
▁বৰাদ্দ	-9.53587
right	-9.53631
বাইল	-9.53636
▁দিনৰ	-9.53638
▁Google	-9.53648
▁প্ৰকাৰ	-9.53723
▁পেনেলৰ	-9.53774
/%	-9.53863
▁প্ৰাথমিক	-9.53875
▁মেপ	-9.53961
▁Q	-9.5399
▁নকৰিলে	-9.53995
▁মিডিয়া	-9.53997
78	-9.54054
IT	-9.54077
▁(54	-9.54125
000	-9.54129
▁পছন্দসমূহ	-9.54149
▁প্ৰাচলসমূহ	-9.54154
39	-9.54244
্ম	-9.54321
▁লাইন	-9.54353
89	-9.54433
▁গোট	-9.54522
88	-9.54657
গ্	-9.54799
▁ব্যুৰ	-9.54852
▁প্ৰভাবিত	-9.54869
▁সংকোচন	-9.54869
▁সতৰ্কবাণী	-9.54869
▁উৎপন্ন	-9.5487
▁✞	-9.55038
েক্ট	-9.55107
▁কলাম	-9.55174
user	-9.55252
90	-9.55316
▁প্ৰতিলিপি	-9.5541
▁তুলি	-9.55501
▁40	-9.55532
্বা	-9.55614
▁নিম্ন	-9.55654
▁(29	-9.55695
81	-9.55742
74)	-9.55832
▁বিস্তাৰ	-9.55874
▁প্ৰতিটো	-9.55918
▁নেট	-9.55922
▁বাকচৰ	-9.5594
con	-9.56008
▁গৰাকী	-9.56058
▁সমাপ্তি	-9.56162
â	-9.56168
▁অজানা	-9.56168
▁ব্লক	-9.56169
▁টুল	-9.56294
স্বয়ংক্ৰিয়ভাবে	-9.56419
▁শৈলী	-9.56433
ISO	-9.56521
▁দ্ৰুত	-9.56558
তী	-9.56605
▁চাব	-9.56686
হু	-9.56719
▁ৰোগ	-9.56766
edit	-9.56803
17	-9.56975
▁জীৱন	-9.57219
▁ব্যৱসায়	-9.57469
▁অবাঞ্ছিত	-9.57483
▁ইসুজু	-9.57483
▁দীঘল	-9.57483
▁ধ্বনি	-9.57494
▁ব্ৰাউছাৰ	-9.57531
▁সেৱাৰ	-9.57541
▁সঠিকভাবে	-9.57564
▁ছবিসমূহ	-9.57575
▁ৰক্ষা	-9.57641
▁পাছত	-9.57665
▁গৃহ	-9.57829
est	-9.57978
়	-9.58
▁(48	-9.58097
▁লগা	-9.58166
▁15	-9.58196
set	-9.58381
▁বিকল্পৰ	-9.5843
ai	-9.58511
%%	-9.58551
▁প্ৰোগ্ৰাম	-9.58563
নীয়	-9.58591
ৰূপ	-9.58667
▁ব্যৱস্থাপক	-9.58671
▁১৯	-9.58672
▁পৰিকল্পনা	-9.58786
ا	-9.58816
▁uuid	-9.58817
▁ডকুমেন্ট	-9.58817
▁সংক্ষিপ্ত	-9.58817
▁শতাংশ	-9.58817
▁দক্ষতা	-9.58817
title	-9.58817
▁ব্ৰিজ	-9.58824
▁আবন্টন	-9.58835
▁প্ৰাৰম্ভিক	-9.58851
▁ৰাজ্য	-9.59127
▁উন্নয়ন	-9.59172
বিলাক	-9.59174
list	-9.59345
▁অৰ্থাৎ	-9.5941
▁লিখনীৰ	-9.59451
বো	-9.59496
ীত	-9.59503
▁Wi	-9.5955
▁string	-9.59573
▁you	-9.59636
▁থ	-9.59754
▁অধিসূচনা	-9.59783
71	-9.59828
▁নিষ্পেষণ	-9.60168
▁নিৰ্গম	-9.60168
▁আড়াল	-9.60168
Play	-9.60169
▁আলোচনা	-9.6017
▁ফীড	-9.6017
▁অন্তৰ্গত	-9.60171
▁সংজ্ঞা	-9.60176
▁আঘাত	-9.60202
ub	-9.60234
চিত	-9.60489
▁আখৰৰ	-9.60532
ki	-9.60617
zu	-9.60631
▁file	-9.60647
▁স্ক্ৰিন	-9.60655
▁শাৰীৰ	-9.60677
ne	-9.60678
ab	-9.60911
▁ৰিমাইন্ডাৰ	-9.60944
সু	-9.61075
are	-9.61247
াবিব	-9.61283
▁নহ	-9.61403
দৰ্শ	-9.61427
▁দক্ষিণ	-9.61538
▁হ্ৰাস	-9.61539
▁পৰিচালনা	-9.61567
ফি	-9.61571
▁সঠিকৰূপে	-9.61597
▁Inc	-9.61624
▁মুঠ	-9.61626
খা	-9.61706
▁যদিহে	-9.61739
▁Meeting	-9.61752
▁"{1}"	-9.61755
03	-9.61906
▁ভাৰতত	-9.62118
▁নামকৰণ	-9.6232
▁চাল	-9.62355
৯	-9.62375
লাই	-9.62538
▁ফ্লেগ	-9.62547
line	-9.62553
মেন	-9.62568
one	-9.62603
ড়া	-9.6267
▁উজ্জ্বল	-9.62781
rd	-9.62804
▁সাব	-9.62904
▁this	-9.62927
▁কোৰআন	-9.62927
▁থাকলে	-9.62928
▁স্কিমা	-9.6293
▁আনলক	-9.62933
▁চেনেল	-9.62934
▁সোঁ	-9.6303
-8	-9.6314
গছনি	-9.63141
▁key	-9.63239
▁ধৰনৰ	-9.63277
▁সাহায্যে	-9.63314
▁দেশ	-9.63326
▁বুটামৰ	-9.63383
▁নিৰ্বাচক	-9.63406
(26	-9.63466
▁বাচি	-9.6357
▁(100	-9.63709
99)	-9.64055
io	-9.64128
▁$	-9.64157
ড়ি	-9.64248
mi	-9.64316
▁পৰিপ্ৰেক্ষতিত	-9.64335
▁ৰিচাৰ্ছ	-9.64336
▁সংকেত	-9.64337
▁নাকচ	-9.64341
▁বিলম্ব	-9.64357
97	-9.64405
▁পলিচীৰ	-9.64542
▁17	-9.64755
▁11	-9.64764
▁19	-9.64786
াইজ	-9.64787
▁ৰো	-9.64915
▁ভাৰত	-9.65069
▁Bo	-9.65126
াৰী	-9.65133
▁\	-9.65328
বাদ	-9.65337
▁পোস্ট	-9.65504
tr	-9.65507
▁বাহিৰে	-9.65596
▁পৰ্দাত	-9.65695
▁সেৱকেৰ	-9.65707
ৰ্গ	-9.65708
▁weekday	-9.65764
▁বহিৰ্তম	-9.65764
▁বাইনাৰি	-9.65764
Ð	-9.65764
▁মধ্য	-9.65776
▁ফাইলচিস্টেম	-9.65779
▁লিংক	-9.65786
▁সামৰি	-9.65818
▁হৈতো	-9.65897
use	-9.65941
▁শুধুমাত্ৰ	-9.65987
▁যা	-9.6613
শু	-9.66168
Description	-9.66322
http	-9.6634
পূৰ্ব	-9.66347
▁কিমান	-9.66607
▁পক্ষৰ	-9.66673
▁query	-9.66712
▁সাবস্ক্ৰাইব	-9.6682
▁ব্	-9.66824
জনক	-9.66952
get	-9.67056
64	-9.67137
int	-9.67151
▁তিনি	-9.6719
iCalImp	-9.67213
▁পাচফ্ৰেইছ	-9.67213
ণি	-9.67256
▁চাৰ্জ	-9.6726
▁ভাষাসমূহ	-9.67403
▁একাওন্টসমূহ	-9.67425
মেন্ট	-9.67455
▁পৃষ্ঠাসমূহ	-9.67476
▁উপৰত	-9.67542
▁বাটন	-9.67547
লেণ্ড	-9.67753
চিহ্ন	-9.67825
79	-9.68157
মুখ	-9.68224
▁এটাচমেন্ট	-9.68395
াইট	-9.68405
94	-9.68529
▁100	-9.68535
▁দূৰ	-9.68674
▁MAPI	-9.68684
▁কনচৌল	-9.68684
▁মাইগ্ৰেট	-9.68684
▁ৰফিকুল	-9.68684
আপুনাৰ	-9.68684
▁চলমান	-9.68685
▁আকৃতি	-9.68685
ছেন	-9.68687
ইল	-9.68706
▁মানুহ	-9.68733
এল	-9.68922
▁উইন্ডোক	-9.68958
▁বিজ্ঞানী	-9.69038
▁PGP	-9.69091
link	-9.69346
ক্ষণ	-9.69485
Fi	-9.69707
(45	-9.69718
▁মেনুৰ	-9.69723
ব্য	-9.69743
▁দেখুৱাব	-9.69817
hi	-9.69855
▁{	-9.69906
▁আৰম্ভণিত	-9.70034
pi	-9.70072
▁টাইপ	-9.70143
▁ধাৰ্য	-9.70148
▁অনুজ্ঞা	-9.70173
▁ক্লিপ	-9.70174
▁XXX	-9.70176
▁খুলুন	-9.70176
URA	-9.70177
▁তেওঁলোকৰ	-9.70183
▁আবেদন	-9.70193
☬✞	-9.70198
▁2.	-9.70262
▁মানচিত্ৰ	-9.70292
▁পাথ	-9.70302
িচ	-9.70345
▁কেমেৰা	-9.70356
েষ্	-9.70385
ti	-9.70386
▁—	-9.70442
▁গো	-9.70476
ুম	-9.70577
▁Folder	-9.70705
▁মালিক	-9.70764
▁ছাইট	-9.70799
UTF	-9.70867
আপোনাৰ	-9.70887
▁বৈশিষ্ট্যসমূহ	-9.70939
ft	-9.71001
েজ	-9.71035
গান	-9.71131
34	-9.71223
▁ট্ৰে	-9.71291
▁set	-9.71357
ডো	-9.71395
ফল	-9.71404
▁ৰূপ	-9.7149
▁error	-9.71566
▁আগবঢ়োৱা	-9.71691
▁নিজস্ব	-9.71691
▁ব্যাখ্যা	-9.71691
▁অনুপাত	-9.71706
▁অন্তিম	-9.71707
▁প্লেইন	-9.71736
▁সৰ্ব	-9.71746
man	-9.71748
ph	-9.71752
▁দেশৰ	-9.71771
▁সংৰূপণ	-9.71822
য়োগ	-9.71884
▁জে	-9.71989
▁পৰে	-9.72008
াৰি	-9.72089
▁বাধা	-9.72091
▁(20	-9.72253
▁IPv	-9.72258
▁যিবোৰ	-9.7226
▁আলেখ্যন	-9.7229
ক্ষিত	-9.72311
$	-9.72358
06	-9.72403
Show	-9.72424
▁ছেকেণ্ড	-9.72473
▁বাকচ	-9.72645
▁জনা	-9.72798
▁কৰ্মক্ষেত্ৰ	-9.72888
.2	-9.72899
43	-9.72924
ধী	-9.73036
ga	-9.73075
52)	-9.73168
а	-9.73226
آ	-9.7323
▁vCard	-9.7323
▁অপসাৰণ	-9.7323
▁দৰঙী	-9.7323
▁মেটাৰ্চ	-9.7323
▁স্ক্ৰিনশ্বট	-9.7323
▁এক্সট্ৰেক্ট	-9.73231
▁সফলতাৰে	-9.73235
▁খৰচ	-9.73237
▁কেনেকৈ	-9.73247
▁বৰ্ণনা	-9.73261
User	-9.7327
বলগীয়া	-9.73319
কৰন	-9.73368
▁যিটো	-9.73404
▁ইছলামী	-9.73594
▁org	-9.73646
ালি	-9.73653
▁সাৰ্ভাৰেৰ	-9.73666
▁জো	-9.73735
▁TLS	-9.73805
ine	-9.74068
▁পূ	-9.74104
ভিত্তিক	-9.74133
he	-9.74361
ন্ধ	-9.74494
▁প্ৰমাণপত্ৰৰ	-9.74607
বদ্ধ	-9.74631
েন্স	-9.74671
ন্স	-9.74701
▁একো	-9.74708
▁নথকা	-9.74756
▁ঘুৰাই	-9.74792
▁সন্তান	-9.74793
▁সুনিশ্চিত	-9.74794
▁আট	-9.74795
▁ইফকো	-9.7482
atch	-9.74846
▁ফাইলটি	-9.74902
▁(18	-9.74913
▁ইছলামৰ	-9.74913
পোৰ্ট	-9.74937
▁(30	-9.74989
20)	-9.75088
িছ	-9.75181
▁দিকে	-9.75212
▁জ্যোতি	-9.75263
ton	-9.75314
add	-9.75355
iv	-9.75362
▁আঁতৰুৱাৰ	-9.75514
▁তাস	-9.75522
িয়াম	-9.75614
mac	-9.75642
রা	-9.75696
▁চেল	-9.75791
ষণ	-9.7586
▁ডিভাইচসমূহ	-9.75888
▁true	-9.75944
সময়	-9.75953
▁চালক	-9.75967
ন্যা	-9.76049
▁Ma	-9.76146
▁পৰিচালন	-9.76187
▁ব্ৰাউজ	-9.76303
▁শূণ্য	-9.76371
▁চিড়িতনৰ	-9.76379
▁জনপ্ৰিয়	-9.76379
▁সংলগ্ন	-9.76379
▁সৃজন	-9.76379
▁ব্যবহার	-9.76379
ř	-9.7638
▁বেটাৰি	-9.7638
▁অতিক্ৰম	-9.76382
ate	-9.76394
▁গৃহস্থ	-9.76394
▁তথাপিও	-9.76398
▁বেকআপ	-9.7644
▁time	-9.76456
াং	-9.76604
▁পঞ্জিকাৰ	-9.76622
লগ	-9.7664
▁কোম্পানীৰ	-9.76695
▁ঠাই	-9.76808
জী	-9.76905
হী	-9.77087
▁১২	-9.77251
▁(13	-9.77266
Indian	-9.77276
▁বাইট	-9.77285
ব্যস্ত	-9.77308
শাৰী	-9.77363
▁আগৰ	-9.77695
37	-9.777
লিক	-9.77712
পৰি	-9.77718
display	-9.77809
12)	-9.77861
▁Ko	-9.77895
▁স্তম্ভৰ	-9.77921
মী	-9.77937
পূ	-9.77969
header	-9.77992
▁SMTP	-9.77992
▁অগ্ৰাহ্য	-9.77992
▁ইশকাপনৰ	-9.77992
▁ৰুহিতনৰ	-9.77992
▁ফৰমেট	-9.77992
▁কৰ্মস্থলৰ	-9.77993
▁পাওয়া	-9.78024
▁কোষ	-9.78043
new	-9.78044
▁অনুক্ৰম	-9.78062
▁পৰিৱেশন	-9.78133
▁ছি	-9.78224
45	-9.78228
▁প্ৰেৰক	-9.78242
▁Outlook	-9.78245
▁‘%	-9.78266
▁re	-9.78271
▁দশক	-9.78365
▁স্ক্ৰল	-9.78398
▁ঈক্ষণকামী	-9.78401
▁চিটি	-9.7844
চল	-9.7846
▁চলন	-9.78467
▁আইডি	-9.78614
ট্ৰ	-9.78721
card	-9.78808
সূচক	-9.78892
97)	-9.78903
$$	-9.78927
গু	-9.79172
মতে	-9.79352
▁পদ	-9.79367
em	-9.79435
ুলি	-9.79474
▁পঠ	-9.79483
থি	-9.79492
▁brasero	-9.79632
▁উপধায়ক	-9.79632
▁ডায়লগ	-9.79632
▁সঞ্চালিত	-9.79632
▁ইঙ্গিত	-9.79632
▁ৰাষ্ট্ৰীয়	-9.7964
▁প্ৰতিবেদন	-9.79641
unja	-9.79645
▁এক্সপোৰ্ট	-9.79648
স্বামী	-9.79649
▁প্ৰাপকৰ	-9.79673
▁দায়বদ্ধতা	-9.79676
AP	-9.79742
▁পালন	-9.79769
▁ধৰা	-9.79806
▁UA	-9.79832
টিকে	-9.79844
নু	-9.79886
▁job	-9.79968
ia	-9.80032
স্তা	-9.80112
be	-9.80128
▁ৰুট	-9.80332
পাত	-9.8045
▁সম্	-9.80614
ভূ	-9.80785
ণ্ট	-9.80811
▁ঘটনাসমূহ	-9.80828
82)	-9.80921
পাৰ	-9.80971
▁প্ৰতিষ্ঠা	-9.81029
OR	-9.81106
আই	-9.81131
not	-9.81221
number	-9.81298
ê	-9.81298
▁ধজভংগ	-9.81298
Gadu	-9.81298
▁হৰতনৰ	-9.81299
▁কাগজ	-9.81299
▁করতে	-9.813
▁স্কেইল	-9.81301
▁সোঁফালে	-9.81302
ক্তি	-9.81344
▁cpu	-9.81361
▁ট্ৰি	-9.81371
▁de	-9.81404
per	-9.81478
▁সিস্টেম	-9.8156
▁এইচকিউ	-9.816
▁In	-9.81635
▁ক্ষ	-9.81678
▁মহা	-9.81682
▁বস্তুবোৰ	-9.81849
▁ঠ	-9.81915
▁উদাহৰণস্বৰূপ	-9.81923
▁কর্ম	-9.81928
হো	-9.82007
বেল	-9.82057
87	-9.82065
▁ডোমেইনৰ	-9.82189
▁স্থানে	-9.82213
পেড	-9.82226
72	-9.82334
স্ট্ৰ	-9.82356
▁আহ	-9.82364
ফোল্ডাৰ	-9.82369
▁সম্পৰ্ক	-9.82375
app	-9.82376
হৈছে	-9.8238
▁বিৱৰণসমূহ	-9.82389
ধৰণ	-9.82459
ীম	-9.82466
যা	-9.82479
ফে	-9.82548
সকলক	-9.82557
▁ব্যবহাৰকাৰীৰ	-9.82729
▁50	-9.82786
▁পক্ষ	-9.82867
67)	-9.8289
▁তেনে	-9.82927
▁এপ্লিকেচনৰ	-9.82962
▁সংস্থা	-9.82975
▁before	-9.82993
▁iCalendar	-9.82993
▁অব্যাহত	-9.82993
▁প্ৰটোকল	-9.82993
▁সম্প্ৰসাৰণ	-9.82993
ҟ	-9.82993
▁একত্ৰিত	-9.82993
▁ৰেজিস্টাৰ	-9.82993
▁পৰিবহন	-9.82993
▁xxx	-9.82994
▁দৰুন	-9.82997
▁জন্ম	-9.83001
▁সহায়িকা	-9.83044
কাচ	-9.83071
াওক	-9.83169
▁নথিপত্ৰটি	-9.83205
োধ	-9.83315
▁সম্ভবত	-9.8358
▁নেটৱৰ্ক	-9.83669
অসমীয়া	-9.84138
▁বুট	-9.84141
▁অভি	-9.84282
প্র	-9.84615
▁চীন	-9.84687
▁কনফিগাৰ	-9.84713
▁ভ্ৰমণ	-9.84717
Action	-9.84718
▁সোমাওক	-9.8472
▁সংবাদ	-9.84737
রু	-9.84741
▁সমগ্ৰ	-9.84745
move	-9.84751
▁পঢ়াৰ	-9.84792
▁জমা	-9.84938
ডু	-9.85049
▁যোগ্যতা	-9.8505
োপ	-9.85057
ধান	-9.85138
▁from	-9.85283
▁$1	-9.85287
ঙ্	-9.85289
কাকত	-9.85468
24)	-9.85543
য়ী	-9.85554
ৱি	-9.85659
▁অৱস্থানত	-9.85796
▁message	-9.85824
▁খু	-9.85827
▁সঁজুলি	-9.85956
▁একাওন্টৰ	-9.85985
▁পৰিৱৰ্তন	-9.86184
▁এইখন	-9.86232
▁চুক্তি	-9.86403
ho	-9.8643
▁যৌথ	-9.86456
▁ইঞ্জিন	-9.8647
Ŧ	-9.86471
tooltip	-9.86472
°	-9.86472
▁খসড়া	-9.86472
▁প্ৰত্যাখ্যান	-9.86472
▁ফলস্বৰূপ	-9.86472
▁প্ৰদর্শন	-9.86472
color	-9.86472
▁KPR	-9.86472
▁অবস্থিত	-9.86472
▁কাৰ্চাৰ	-9.86478
▁জন্মদিন	-9.8648
▁সমষ্টি	-9.86483
▁যুদ্ধ	-9.86493
▁আহৰণ	-9.86494
▁উৎ	-9.86501
▁ফৰ্ম	-9.86605
▁has	-9.86682
▁বস্তুসমূহ	-9.86719
▁ফোল্ডাৰটি	-9.86908
pt	-9.86919
▁51	-9.86959
nc	-9.86983
▁স্বাভাৱিক	-9.87002
পাল	-9.87067
▁TRUE	-9.87257
দ্ধ	-9.87278
▁বাহন	-9.87326
দেশ	-9.87448
▁with	-9.87465
21)	-9.87534
▁200	-9.87625
(46	-9.87657
উপাদানৰ	-9.87736
ian	-9.87752
▁ISO	-9.87851
▁অনুমতিসমূহ	-9.88106
▁ka	-9.88112
লেন্ড	-9.88192
print	-9.88196
▁মাস	-9.88204
address	-9.88258
▁নিৰ্মাতা	-9.88258
▁পৰিচালক	-9.88258
▁সংগঠক	-9.88258
▁ৰপ্তানি	-9.88258
▁ৱাৰেন্টি	-9.88258
▁অনুসৰণ	-9.88258
▁প্ৰমাণীত	-9.88269
▁ধৰ্ম	-9.88274
▁ভূমিকা	-9.88274
sync	-9.88274
▁সম্পৰ্কীয়	-9.88292
▁ছেন্ট	-9.88307
▁কেতিয়াও	-9.88319
▁ভাগ	-9.88392
ইয়া	-9.8849
▁আঁকা	-9.88501
▁শ্ৰী	-9.88678
▁সো	-9.8876
ৰ্ন	-9.8903
▁কাৰ্ছাৰ	-9.89045
▁$$	-9.89047
চাই	-9.89059
▁১০০	-9.89084
▁সংকলন	-9.89098
▁শা	-9.8911
িতা	-9.89214
াংশ	-9.89282
ant	-9.89341
har	-9.89429
চান	-9.8951
▁অভিব্যক্তি	-9.89531
ীল	-9.89574
DVD	-9.89583
টেক্সট	-9.89603
▁চো	-9.89668
লিস্ট	-9.89744
lab	-9.89788
84)	-9.89993
▁প্ৰযুক্তি	-9.90043
▁(593	-9.90073
html	-9.90076
▁গৱেষণা	-9.90076
▁বেকএণ্ড	-9.90076
▁চাকৰি	-9.90077
▁মধ্যবৰ্তী	-9.90078
▁Xiaomi	-9.90083
▁NameMeeting	-9.90085
Bus	-9.9012
▁উপযুক্ত	-9.90129
▁UID	-9.9013
▁ম্যাদ	-9.90132
▁বিধি	-9.90135
▁প্ৰচাৰ	-9.90157
▁ৰাখা	-9.90168
box	-9.90182
▁চীনা	-9.90199
▁ফ্ৰেম	-9.90218
▁+'	-9.90268
▁MA	-9.90414
ঠি	-9.90531
▁উই	-9.90532
▁ছেট	-9.90574
▁জানা	-9.90615
IS	-9.90668
▁status	-9.90671
▁বহীৰ	-9.90695
▁ফু	-9.90801
▁26	-9.9087
▁minutes	-9.90906
▁জু	-9.91001
▁গল	-9.9121
পূৰ্ণ	-9.913
able	-9.91371
▁সাহায্য	-9.91411
Sound	-9.91441
‘	-9.91468
▁be	-9.91512
▁ধনৰাশি	-9.91514
▁ঢ	-9.91545
pre	-9.91577
▁নো	-9.91582
▁ৰচনা	-9.91676
▁পেইনৰ	-9.91795
মাত্ৰ	-9.91824
▁ৰাখি	-9.91831
▁সুমুৱা	-9.91913
ঝ	-9.91926
▁GroupWise	-9.91928
▁কিচ্কিচ্	-9.91928
▁খোলোঁতে	-9.91928
▁গ্ৰন্থ	-9.91928
▁সুনিৰ্দিষ্ট	-9.91928
▁ৱেবচাইট	-9.91928
language	-9.91928
▁নিযুক্তক	-9.91928
▁হেৰাই	-9.91943
▁বাতৰি	-9.91945
▁এনকোডিং	-9.91947
▁ঈমান	-9.91981
▁স্বচ্ছতা	-9.91993
▁দুবাৰ	-9.92039
▁Key	-9.92088
▁নোড	-9.92097
▁বাওঁফালে	-9.92174
▁ফুট	-9.9219
▁উপায়	-9.92209
▁টাইম	-9.92334
▁কোটি	-9.92346
ুদ্ধ	-9.92398
ান্	-9.9244
▁মুখ্য	-9.92454
▁বৰ্গ	-9.92514
লিং	-9.9255
▁পাতল	-9.92622
▁আগ	-9.92659
▁বাৰ্তাসমূহকে	-9.92783
স্প	-9.9295
▁{1}	-9.92983
▁সেৱকে	-9.93005
াধিকাৰ	-9.93081
জাৰ	-9.93144
(13	-9.93233
▁ভিউ	-9.93239
ৰ্ষ	-9.93319
key	-9.93384
action	-9.93392
সত্য	-9.93396
ice	-9.93493
▁পৰামৰ্শ	-9.93523
75)	-9.93661
▁ডেস্কট	-9.93716
▁ওপৰৰ	-9.93763
view	-9.9381
slot	-9.93814
▁গুৰুত্ব	-9.93815
▁USA	-9.93817
▁বুড়া	-9.93826
▁নিৰ্মিত	-9.93841
▁প্ৰবন্ধ	-9.93844
স্থা	-9.93853
ite	-9.93925
পথ	-9.93974
.1	-9.93998
ংক	-9.94015
▁বেয়া	-9.94026
bK	-9.94081
্ৰি	-9.94133
ানা	-9.9417
▁ধনৰাশিৰ	-9.94237
▁দাবীৰ	-9.94268
ুট	-9.94302
াৰ্	-9.94512
na	-9.94581
Un	-9.94629
▁যদিও	-9.9475
▁ফিল্ড	-9.9476
ide	-9.94996
ary	-9.95015
(22	-9.95053
▁লু	-9.95077
tar	-9.95085
েও	-9.95199
ল্ড	-9.95204
▁ডাউন	-9.95232
▁গণ	-9.95238
ঠা	-9.95277
পৃষ্ঠা	-9.95323
MIME	-9.95329
▁ধাৰণ	-9.95475
েশন	-9.95495
▁আৰব	-9.95516
▁বিপ	-9.9554
▁২০	-9.9557
▁আম	-9.95723
▁বাংলা	-9.95734
custom	-9.95737
delete	-9.95737
▁Microsoft	-9.95737
▁অপৰিচিত	-9.95737
▁ডাটাবেইচ	-9.95737
volume	-9.95737
▁গাড়ী	-9.95737
▁তৈয়াৰ	-9.95737
▁সনাক্ত	-9.95737
▁মহাসাগৰ	-9.95738
▁প্ৰসংগ	-9.95738
▁ব্যৱসায়ীক	-9.95738
▁প্লেয়াৰ	-9.95739
▁অমিল	-9.9574
▁বুজুৱা	-9.95743
▁পূৰ্ণসংখ্যা	-9.95743
▁প্ৰৰিত	-9.9576
▁পাঠযোগ্য	-9.95778
▁মত	-9.9578
ugu	-9.95852
ৰ্ণ	-9.95889
▁জীৱনী	-9.95897
াণ	-9.95967
▁দিশত	-9.961
ঢ়	-9.96219
ain	-9.96484
▁q	-9.96622
ভাৱ	-9.96623
ীন	-9.96722
by	-9.96851
#	-9.97133
ষ্ঠ	-9.97301
—	-9.97349
▁যত	-9.97412
▁বিপৰীত	-9.9748
▁লিস্ট	-9.97485
Type	-9.97605
শীল	-9.97631
গুলো	-9.97632
е	-9.97697
▁PKCS	-9.97698
▁RAID	-9.97698
▁SpamAssassin	-9.97698
▁ইনক্ৰিপষণ	-9.97698
▁এপ্লেট	-9.97698
▁প্ৰশান্ত	-9.97698
▁প্ৰৱিষ্টি	-9.97698
▁স্বাগতম	-9.97698
Spot	-9.97698
▁যৌন	-9.97698
wiki	-9.97699
▁নীচে	-9.977
▁সম্ভৱতঃ	-9.97702
▁অৱস্থিত	-9.97705
ুদ	-9.9771
▁পাইছে	-9.97727
▁ব্যৱহাৰকাৰীনাম	-9.97777
▁আহিছে	-9.97782
▁জানিবলৈ	-9.97791
▁অসম্পূৰ্ণ	-9.97791
map	-9.97798
▁কোণ	-9.97889
▁25	-9.97934
▁জিলা	-9.97974
স্ব	-9.97989
▁অৰ্থ	-9.98075
িমা	-9.98122
▁ওচৰত	-9.98203
াদ	-9.98295
▁চেক	-9.98297
▁বছৰৰ	-9.98312
▁চাইল্ডৰ	-9.98329
▁জল	-9.9834
▁গণিতজ্ঞ	-9.98474
raw	-9.98493
মিন	-9.98571
▁Indian	-9.98849
\.	-9.98903
▁Mar	-9.99038
▁বৈশিষ্টসমূহ	-9.99106
▁(101	-9.9923
িবলৈ	-9.99337
2000	-9.9941
▁পঠাব	-9.99449
বেক	-9.99623
▁প্ৰাৰম্ভ	-9.99647
▁Fran	-9.99686
ü	-9.99698
▁02110-1301	-9.99698
▁clips	-9.99698
▁ক্লেইম	-9.99698
▁দিল্লী	-9.99698
▁মডিউল	-9.99698
▁মেটাডাটা	-9.99698
▁সংৰেখন	-9.99698
▁কীপ্যাড	-9.99698
▁দ্বীপপুঞ্জ	-9.99698
▁কৰ্মচাৰী	-9.99698
▁ফৰৱাৰ্ড	-9.99699
▁সমাজ	-9.99715
▁সময়অন্ত	-9.9974
এন্ড	-9.9975
▁পৰিবৰ্তনশীল	-9.99813
▁উৎপাদন	-9.99816
▁MAC	-9.99819
পুৰ	-9.99845
site	-9.99855
েন্ড	-9.99933
▁VM	-9.99946
▁চিত্ৰ	-9.99962
lld	-10.0015
▁আৰ্কাইভত	-10.0017
▁4.	-10.0019
ity	-10.0025
কাশ	-10.0047
▁আইকনৰ	-10.0054
▁বাক্স	-10.0056
▁উদ্	-10.0066
▁চনৰ	-10.0082
ist	-10.0084
▁তুলিব	-10.0094
eb	-10.0096
▁টোকা	-10.0103
▁আৰবী	-10.0112
আৰ	-10.0114
ive	-10.0116
▁list	-10.0118
▁সিহত	-10.0124
▁অধি	-10.0127
BC	-10.0132
*	-10.0133
োক	-10.0136
ষা	-10.0145
▁প্ৰকল্পৰ	-10.0154
69	-10.0159
age	-10.0161
ru	-10.0167
69)	-10.0169
▁বলৱৎ	-10.0174
▁কীচেইনে	-10.0174
▁নিষ্কাষণ	-10.0174
▁পঠাওতে	-10.0174
▁পঠিওৱা	-10.0174
▁বোধগম্য	-10.0174
▁লাইসেন্স	-10.0174
▁হস্পিটেলত	-10.0174
▁উলোটা	-10.0174
▁গঠন	-10.0174
▁Flo	-10.0174
▁ছালাত	-10.0174
কারী	-10.0174
▁আকৌ	-10.0174
41	-10.0175
▁খাদ্য	-10.0175
▁Fift	-10.0176
▁পাঁচ	-10.0182
▁চুৰি	-10.0184
খি	-10.0189
পন	-10.0195
▁অভিগম্যতা	-10.0196
ER	-10.02
Re	-10.0205
%%)	-10.021
ম্যা	-10.0214
▁হাৰ্ড	-10.0231
কেট	-10.0236
▁প্ৰগ্ৰামৰ	-10.0249
▁মাউছৰ	-10.0262
▁বয়স	-10.0264
াজ	-10.0271
▁উল	-10.0272
▁Ch	-10.03
94)	-10.0314
চিত্ৰ	-10.0324
ag	-10.0335
19)	-10.0335
▁পানী	-10.0352
▁ঘটনাৰ	-10.0356
▁ব্ৰাউছ	-10.0375
▁আঁ	-10.0381
▁বড়	-10.0381
▁qemu	-10.0382
▁জৰিয়তে	-10.0382
▁নাথাকিব	-10.0382
▁নিৰাপত্তা	-10.0382
▁নূন্যতম	-10.0382
▁লিমাজীন	-10.0382
▁URl	-10.0382
klin	-10.0382
show	-10.0382
▁গ্ৰাফিক্স	-10.0382
▁সোধা	-10.0383
▁মাজৰ	-10.0384
▁কাৰ্য্যালয়	-10.0384
Select	-10.0385
▁বদল	-10.0385
▁সেৱাসমূহ	-10.0386
▁পাৰবেন	-10.0389
▁খোৱা	-10.0394
Don	-10.0398
▁No	-10.0403
▁De	-10.041
▁সাত	-10.0415
full	-10.0417
▁গ্লে	-10.042
▁সেট	-10.0421
min	-10.0421
াৱলী	-10.0422
out	-10.0426
▁Tel	-10.043
িঅ	-10.0433
▁ক্ষতিৰ	-10.0435
▁অ্যাকাউন্টেৰ	-10.0439
শন	-10.0458
▁বিৱৰণী	-10.0462
82	-10.0465
▁অংশগ্ৰহণকৰ্তা	-10.0469
▁বিচাৰিব	-10.0471
▁উদ্যোগ	-10.0471
cm	-10.0478
▁স্ক	-10.0479
tog	-10.048
▁সূচনাপ্ৰদানৰ	-10.049
▁লগে	-10.0504
পণ	-10.0511
book	-10.0512
্লি	-10.0518
▁বস্তুটি	-10.0519
কিং	-10.0522
▁পশ্চিম	-10.0524
▁লিখি	-10.0533
▁old	-10.0535
▁To	-10.054
জো	-10.0552
▁নিবন্ধ	-10.0572
বস্তু	-10.0576
(14	-10.0576
Key	-10.0577
▁মোডে	-10.0583
▁প্ৰত্যক্ষ	-10.0594
source	-10.0595
▁Archive	-10.0595
▁Street	-10.0595
▁অনুভূমিক	-10.0595
▁ঘোষণা	-10.0595
▁চাল্লাল্লাহু	-10.0595
▁থাম্বনেইল	-10.0595
▁নির্বাচন	-10.0595
▁প্ৰোটোকল	-10.0595
▁সংস্কৃতি	-10.0595
▁June	-10.0595
▁খুলতে	-10.0595
▁বেলেগ	-10.0595
▁শিশু	-10.0595
▁সম্বন্ধীয়	-10.0596
▁mbox	-10.0597
▁জীবন	-10.0597
ভুক্ত	-10.0601
▁খুলিবলৈ	-10.0605
কোনো	-10.0606
ৃত	-10.0608
▁গোপনীয়তাৰ	-10.0636
▁দেয়	-10.0642
▁Yahoo	-10.0649
nl	-10.0653
ফাইল	-10.0662
▁নকৰি	-10.0665
▁খেলাৰ	-10.0672
▁কেলেন্ডাৰসমূহ	-10.0674
▁Web	-10.0675
▁Times	-10.0678
▁do	-10.0696
op	-10.0699
োচ	-10.07
▁দিবলে	-10.0716
পৰা	-10.072
িভ	-10.0725
▁ৰামানুজন	-10.0747
▁টিপি	-10.075
disks	-10.0758
▁খেলৰ	-10.0792
the	-10.0794
dictionary	-10.0798
state	-10.0798
▁ৱে	-10.0798
অবিকল্পিত	-10.08
আপুনি	-10.08
▁সময়তে	-10.0801
▁মোডত	-10.0802
▁SOCKS	-10.0807
বিধান	-10.081
group	-10.0811
▁ক্ষেত্ৰসমূহ	-10.0811
server	-10.0812
▁Shotwell	-10.0812
▁অভিজ্ঞতা	-10.0812
▁অৱশ্যে	-10.0812
▁জ্যামিতি	-10.0812
▁প্ৰণয়ন	-10.0812
▁ব্যর্থ	-10.0812
▁ব্লুটুথ	-10.0812
▁অনাকাঙ্ক্ষিত	-10.0812
▁একেলগে	-10.0812
▁সংরক্ষণ	-10.0812
▁হাৰ্ডৱেৰ	-10.0812
▁প্ৰস্তাৱ	-10.0813
▁বিকল্পেৰ	-10.0814
▁ডেমন	-10.0814
folder	-10.0815
▁ফলন	-10.0815
▁নিজে	-10.0817
▁বহুতো	-10.0817
login	-10.0819
▁চনত	-10.0821
▁ছায়া	-10.0823
▁বিস্তাৰিত	-10.0824
▁এগৰাকী	-10.0836
▁তেনেহলে	-10.0837
▁আনুভূমিক	-10.0838
▁খাপ	-10.0839
▁২০০	-10.0839
▁বিজ্ঞাপন	-10.0841
▁পত্ৰ	-10.0842
▁চৰক	-10.0848
▁শাৰীত	-10.0867
গ্রহ	-10.087
date	-10.0871
▁মোক	-10.0878
▁পৰ্দ্দা	-10.0897
কাৰীৰ	-10.0909
table	-10.0913
টু	-10.0915
ell	-10.0929
▁দলৰ	-10.093
▁page	-10.0932
tion	-10.0934
ang	-10.0943
্থ	-10.0947
▁ঘট	-10.0951
windows	-10.0957
83)	-10.0958
▁Id	-10.0961
▁পপ	-10.098
49)	-10.0994
▁অনুলিপি	-10.1001
▁দশ	-10.1019
cpu	-10.1027
load	-10.1034
▁প্ৰতীক	-10.1034
`	-10.1034
р	-10.1034
▁Jabber	-10.1035
▁reminder	-10.1035
▁আব্দুল	-10.1035
▁ক্ৰীড়া	-10.1035
▁খেলোয়াড়	-10.1035
▁ফজিলত	-10.1035
▁বৰকটকী	-10.1035
▁লাইব্ৰেৰি	-10.1035
▁প্ৰদৰ্শক	-10.1035
guy	-10.1035
▁One	-10.1035
ompany	-10.1035
▁অভিধান	-10.1035
.245	-10.1036
image	-10.1036
▁হওয়াৰ	-10.1036
▁করে	-10.1036
▁প্ৰসাৰণ	-10.1037
▁2017	-10.1037
▁Text	-10.1037
▁PIN	-10.1039
▁সময়অঞ্চল	-10.104
▁ফ্ল	-10.1044
▁প্রতি	-10.1046
▁প্লেটফৰ্মত	-10.1047
▁বৰ্	-10.1058
▁(364	-10.1064
ছবি	-10.1069
▁An	-10.1079
US	-10.1093
▁বাৰ্তাসমূহৰ	-10.1095
▁এপ্লিকেচনসমূহ	-10.111
▁গেল	-10.1119
bb	-10.1135
(15	-10.1136
▁আউট	-10.1137
▁সাম	-10.115
In	-10.1154
tab	-10.1156
লেও	-10.1162
ব্দ	-10.1164
ক্ৰি	-10.1165
ইছে	-10.1172
▁start	-10.1182
লং	-10.1188
▁অংশগ্ৰহণকাৰী	-10.119
▁ৰাজ	-10.1195
▁বিশ্ববিদ্যালয়	-10.1207
▁symbol	-10.1211
ট্ৰি	-10.1222
der	-10.1226
ফাৰ	-10.1233
▁23	-10.124
▁উইন্ডোটি	-10.124
▁Permissions	-10.1244
ছেট	-10.1253
▁ৱেবপৃষ্ঠা	-10.1255
গণিত	-10.1259
ডাউন	-10.1261
কেটেগৰী	-10.1262
▁NULL	-10.1262
▁Pidgin	-10.1262
▁একাউণ্ট	-10.1262
▁মুছলিম	-10.1262
▁আলাইহি	-10.1262
▁চলচিত্ৰ	-10.1262
▁বিক্ৰী	-10.1262
▁every	-10.1262
▁code	-10.1262
▁আতৰাই	-10.1262
▁প্ৰত্যেক	-10.1262
▁ভাৰতৰ	-10.1263
▁টানেলিং	-10.1264
▁পাইপ	-10.1265
block	-10.1265
disabled	-10.1273
▁সুসংগতি	-10.1274
▁en	-10.1274
▁সম্বন্ধে	-10.1283
▁কৰেছেন	-10.1286
▁বিচাৰক	-10.1295
লিন	-10.1305
▁access	-10.1309
▁অনুসন্ধানেৰ	-10.1326
%.1	-10.1347
ান্ডা	-10.1358
লেট	-10.1362
ড্	-10.1364
▁কিট	-10.1368
▁বাইন্ড	-10.1371
মূ	-10.1371
▁অ্যা	-10.1389
ute	-10.1395
▁Xxx	-10.1398
[[	-10.1415
▁28	-10.1415
দেৰ	-10.1417
▁(1)	-10.1423
▁জেন	-10.1428
av	-10.1429
▁{{	-10.143
▁ভঁৰাল	-10.1445
▁IM	-10.1456
▁(46	-10.1463
To	-10.1473
▁অংশগ্ৰহণকাৰীৰ	-10.1479
্তা	-10.1479
▁এচ	-10.1481
▁অংশীদাৰ	-10.1483
▁সাৰ্ভাৰে	-10.1491
স্ক্ৰাইব	-10.1494
ر	-10.1494
(13181)	-10.1494
period	-10.1494
▁Insurance	-10.1494
▁SASL	-10.1494
▁variant	-10.1494
▁টেমপ্লেট	-10.1494
▁পাছওৱাৰ্ড	-10.1494
▁বিদ্যমান	-10.1494
▁ব্যবস্থাপনা	-10.1494
▁আচৰণ	-10.1494
▁প্ৰগতি	-10.1494
space	-10.1495
Ctrl	-10.1495
▁প্ৰমিত	-10.1495
▁কুমাৰ	-10.1495
scape	-10.1497
:$1_	-10.1499
okio	-10.1499
▁টেবিল	-10.1502
▁জনোৱা	-10.1502
ঞ্জা	-10.1504
▁কেন্দ্ৰীয়	-10.1505
read	-10.1506
▁been	-10.1507
(4843)	-10.1507
▁সদায়ে	-10.1507
েয়াৰ	-10.151
▁প্ৰদানকাৰী	-10.151
▁উজ্জ্বলতা	-10.1516
ni	-10.1526
my	-10.1528
াৱ	-10.1528
বিদ	-10.153
▁প্ৰামাণিক	-10.1531
▁চাৰি	-10.1541
▁হয়তো	-10.1555
pro	-10.1556
▁নবী	-10.1556
▁পাৰো	-10.1558
▁ফ্লেগসমূহ	-10.1559
▁পৰ্দ্দাৰ	-10.156
▁এইবোৰ	-10.1565
▁পৰিস্থিতি	-10.1576
▁প্ৰকৃতি	-10.1582
▁যো	-10.1584
লিট	-10.1585
200	-10.1587
▁দৰ্শনত	-10.1598
▁স্থাপিত	-10.1598
▁xml	-10.1599
tag	-10.1602
ষ্টা	-10.1614
▁ছোট	-10.1616
▁দাস	-10.1619
ানি	-10.1622
▁কাৰ্	-10.1646
কাম	-10.1647
mg	-10.1663
dir	-10.1676
▁দস্তাবেজসমূহ	-10.1679
▁নিউজ	-10.1679
▁স্ম	-10.1684
▁সম্পত্তি	-10.1689
▁নিৰ্ভৰ	-10.1699
▁Sa	-10.1713
▁সফল	-10.1713
েন্দ্ৰ	-10.1715
▁১৮	-10.1717
▁তেনেহ	-10.1718
▁প্ৰস্তাব	-10.1726
▁তাগিদ	-10.1732
Privacy	-10.1733
Subject	-10.1733
friend	-10.1733
▁UUID	-10.1733
▁বিনামুল	-10.1733
▁বিপদাশংকা	-10.1733
▁শ্বাইখ	-10.1733
▁স্বত্বাধিকাৰ	-10.1733
▁পেইস্ট	-10.1733
▁এখানে	-10.1733
▁উত্স	-10.1733
▁যোগেদি	-10.1733
Disc	-10.1733
▁মেচিন	-10.1733
▁বেকএন্ড	-10.1734
▁নিয়ক	-10.1734
▁চলক	-10.1736
info	-10.1737
▁গোপনীয়তা	-10.1738
▁পইন্টাৰ	-10.1739
▁চুক্তিসমূহৰ	-10.1742
সম্পন্ন	-10.1743
▁সেয়া	-10.1744
ব্যৱস্থা	-10.1747
▁বাৰ্তাসমূহক	-10.1749
▁প্ৰাথমিকতা	-10.175
▁উইন্ডোতে	-10.1754
▁সম্পূৰ্ণৰূপে	-10.1755
▁উদ্ধৃতি	-10.1756
83	-10.1757
▁যোগদান	-10.176
▁পাবলৈ	-10.1761
▁স্বাক্ষৰকাৰী	-10.1765
▁বহিয়ে	-10.1772
▁সমাপ্তিৰ	-10.1773
ring	-10.1774
িজ	-10.1783
CD	-10.1796
▁App	-10.1798
াশ	-10.1801
▁ভিত্তিত	-10.1802
▁পৰিৱৰ্তনসমূহ	-10.1804
কৰা	-10.1806
কীয়া	-10.1807
▁পাওঁ	-10.1812
াঁচ	-10.1815
▁সন্	-10.1819
▁লিস্টে	-10.1825
▁বিকল্পত	-10.1836
ৰিপোৰ্ট	-10.1841
বৰ্	-10.1844
▁প্ৰতিটি	-10.1846
২০	-10.1852
▁ভগ	-10.1858
দ্ৰ	-10.186
bit	-10.1868
▁আবৰ্জনালে	-10.1872
▁লেখাৰ	-10.1875
▁লেবেলৰ	-10.1882
স্টা	-10.1883
রূপে	-10.1884
▁যাক	-10.189
▁আধাৰ	-10.1901
মোৰ	-10.1901
োদ	-10.1905
্ৰু	-10.1912
সূচী	-10.1914
▁টু	-10.1921
এচ	-10.1926
▁ছেকেণ্ডত	-10.1939
▁অভিনেতাৰ	-10.1942
$1	-10.1965
▁অপশন	-10.1967
ight	-10.1968
জনৰ	-10.197
ভাষ	-10.1971
▁লেক	-10.1975
▁Economic	-10.1976
▁আল্লাহৰ	-10.1976
▁ক্ষতিপূৰণ	-10.1976
▁পঢ়োতে	-10.1976
▁পদক্ষেপ	-10.1976
▁পৰিস্ৰাৱন	-10.1976
▁বিৰুদ্ধে	-10.1976
▁ভাৰছুৱেল	-10.1976
▁ট্যাবলৌ	-10.1976
▁প্রক্সি	-10.1976
▁কল্পনা	-10.1976
Create	-10.1976
▁mime	-10.1976
▁অডিও	-10.1977
▁গ্রহণ	-10.1977
▁CMS	-10.1977
▁নৱীকৰণ	-10.1977
▁dbus	-10.1977
মিটিং	-10.1977
▁চালানো	-10.1977
▁দেখুন	-10.1978
▁আমন্ত্ৰণ	-10.1978
ণী	-10.1979
ত্যাগ	-10.1979
▁গল্প	-10.198
▁ডাম্প	-10.1982
uri	-10.1983
▁ক্ল	-10.1984
forward	-10.1986
▁ইনলাইন	-10.1986
▁your	-10.1988
eek	-10.1989
▁Co	-10.199
যেনে	-10.1992
মেল	-10.1992
ব্যৱহাৰকাৰী	-10.1995
▁হাঁ	-10.2
▁আলফা	-10.2001
▁45	-10.2003
বিন্যাস	-10.2011
ভো	-10.2013
▁Image	-10.2015
▁অগ্ৰসৰ	-10.2015
সম	-10.2022
url	-10.2023
▁বাওঁ	-10.2027
Mac	-10.2033
▁ফাইলনাম	-10.2034
▁যেন	-10.2034
▁ক্লাব	-10.2047
▁কাষত	-10.2049
▁দৃষ্টি	-10.2063
off	-10.2068
▁চাৰ্ভাৰত	-10.2079
ন়্	-10.2093
(3	-10.2104
▁সীমাৰ	-10.2108
ধ্য	-10.2138
▁৯	-10.214
▁মানৱ	-10.2142
▁১৪	-10.2147
▁তুলনা	-10.2149
▁অংশে	-10.2153
▁22	-10.216
ear	-10.2161
own	-10.2166
▁তেখেত	-10.2174
োম	-10.2182
▁পাছ	-10.2183
▁সংযোগক্ষেত্ৰৰ	-10.2186
ৰ্চ	-10.221
কাট	-10.2211
ize	-10.2223
create	-10.2226
example	-10.2226
▁অধ্যয়ন	-10.2226
▁অবিহনে	-10.2226
▁দৈনিক	-10.2226
▁নিৰূপণ	-10.2226
▁ব্যতিক্ৰম	-10.2226
▁মীমাংসা	-10.2226
▁মুদ্ৰণ	-10.2226
▁সংক্রান্ত	-10.2226
▁সাপ্তাহিক	-10.2226
▁হেঁচকা	-10.2226
▁পৰিসেবা	-10.2226
Socket	-10.2226
▁আপনাকে	-10.2226
▁শৰ্মা	-10.2227
refer	-10.2227
▁gedit	-10.2229
▁স্পষ্ট	-10.2231
▁লিখতে	-10.2233
▁lib	-10.2234
▁পুথি	-10.2236
PC	-10.2236
▁বিভাগৰ	-10.2236
▁কোম্পানীয়ে	-10.2239
▁একেটা	-10.224
▁TX	-10.2241
▁ক্ৰমিক	-10.2242
স্খলিত	-10.2246
Permissions	-10.2247
error	-10.2248
অথবা	-10.2249
▁বন্ধু	-10.2249
বোৰ্ড	-10.225
▁পৰিচালনাৰ	-10.2251
▁থাকা	-10.2254
500	-10.226
ন্ত্ৰ	-10.2263
▁ঈশান	-10.2266
সকলো	-10.2272
ানিবলৈ	-10.2275
▁ভঁৰালৰ	-10.228
প্ৰাপ্ত	-10.2291
IG	-10.2292
▁বিকল্পক	-10.231
rev	-10.2313
▁হেডাৰসমূহ	-10.2314
window	-10.2314
াঁ	-10.2317
এম	-10.2325
ুপ	-10.2325
জাতীয়	-10.2332
▁current	-10.2333
▁ৰিমাইন্ডাৰসমূহ	-10.2336
ert	-10.2339
েণ্ট	-10.2343
▁sp	-10.2345
▁PC	-10.2356
ঁজ	-10.2357
II	-10.2364
▁পদ্ধতিৰ	-10.2378
▁পুলৰ	-10.2385
tra	-10.2389
্যাট	-10.2392
কৰণৰ	-10.2398
ংশ	-10.2402
▁স্কোৰ	-10.2403
▁হু	-10.2406
ase	-10.2406
34)	-10.241
▁up	-10.241
▁প্ৰেৰকৰ	-10.2414
43)	-10.2421
▁১১	-10.2432
▁দৃশ্য	-10.2441
29)	-10.2454
▁27	-10.2456
ভে	-10.2456
দো	-10.2461
ক্ট	-10.2468
াট	-10.247
বক্স	-10.2479
(27	-10.2482
▁অস্তিত্ব	-10.2483
▁ৰেখা	-10.2483
▁অলিম্পিয়াড	-10.2483
▁আগবঢ়াওক	-10.2483
▁বর্ষপঞ্জি	-10.2483
▁বৈদ্যুতিক	-10.2483
▁সংঘঠন	-10.2483
ن	-10.2483
▁চিনেমা	-10.2483
▁ডায়ালগ	-10.2483
▁যাচ্ছে	-10.2483
▁সজোৱা	-10.2483
▁DNS	-10.2483
▁স্লট	-10.2484
▁Mi	-10.2484
svn	-10.2485
▁vir	-10.2485
▁অনুৰূপ	-10.2486
▁গোটেই	-10.2489
▁SIP	-10.2489
▁MiB	-10.249
▁OS	-10.2491
▁নিয়োগ	-10.2492
▁fd	-10.2494
▁গড়	-10.2502
▁চম	-10.2502
▁খুলিব	-10.2505
▁Pro	-10.2507
বিধ	-10.2508
ৰ্ভ	-10.2508
%.0	-10.2511
▁বিট	-10.2511
ty	-10.2512
হয়েছে	-10.2512
▁যায়নি	-10.2515
০০০	-10.2516
ক্র	-10.2516
amitakhya	-10.2518
▁প্ৰেৰকেৰ	-10.2518
▁ঘূৰ	-10.2522
▁ক্যাশে	-10.2522
lock	-10.2524
স্টাৰ	-10.2524
▁নথি	-10.2526
▁বিমান	-10.2527
▁ষ্টে	-10.2528
host	-10.2529
▁সম্পত্তিৰ	-10.253
▁২৪	-10.256
শ্চ	-10.2562
▁at	-10.2569
▁বন্টন	-10.258
প্ৰতি	-10.2581
▁লিখিত	-10.2581
ৰ্য্য	-10.2583
▁সৰল	-10.2592
▁চিস্টেমৰ	-10.2599
ণা	-10.2599
স্য	-10.2603
▁প্ৰদৰ্শনক্ষেত্ৰ	-10.261
▁Vi	-10.2613
▁যিয়ে	-10.2619
জান	-10.2633
▁মেইলবক্স	-10.2639
br	-10.2642
▁৩০	-10.2647
ach	-10.2656
▁use	-10.266
ES	-10.2664
▁user	-10.2676
ষ্টি	-10.2706
উল	-10.271
▁disk	-10.2717
▁Lo	-10.2722
(47	-10.2727
▁মুখ	-10.2727
▁ফলক	-10.2737
▁info	-10.2738
▁আইকনসমূহ	-10.2741
স্থল	-10.2745
abbreviated	-10.2746
▁Open	-10.2746
▁Policy	-10.2746
▁style	-10.2746
▁গোছলখানা	-10.2746
▁ঘূৰ্ণন	-10.2746
▁ডিচেম্বৰ	-10.2746
▁ধন্যবাদ	-10.2746
▁পুনাৰম্ভ	-10.2746
▁ফৰওয়াৰ্ড	-10.2746
▁বঁটা	-10.2746
▁সিদ্ধান্ত	-10.2746
▁হ্যান্ডব্যাগ	-10.2746
▁‍অজ্ঞাত	-10.2746
▁এজেন্ট	-10.2746
▁এনালগ	-10.2746
▁বাওঁফালৰ	-10.2746
Super	-10.2746
▁শ্বেল	-10.2746
▁vcpu	-10.2747
গ্ৰা	-10.2752
▁NTM	-10.2752
▁পিছলৈ	-10.2752
▁থোৱা	-10.2753
িশ	-10.2756
েস্ট	-10.2757
▁স্থায়ীভাৱে	-10.2758
বৃত্ত	-10.2763
▁option	-10.2771
▁Far	-10.2772
শেষ	-10.2773
▁ছাত্ৰ	-10.2774
প্ল	-10.2774
গুয়া	-10.2777
ন্য	-10.2778
Search	-10.2779
default	-10.278
ল্প	-10.2781
সপ্তাহ	-10.2781
নতুন	-10.2783
১৯	-10.2784
▁প্ৰগ্ৰামটো	-10.2785
দৃশ্য	-10.2785
▁অপ্ৰকাশিত	-10.2788
▁১৫	-10.2792
ম্ভ	-10.2792
াৰ্ড	-10.2795
িটি	-10.2796
▁MB	-10.2807
▁am	-10.2814
▁কৰ্মেৰ	-10.2814
▁প্ৰস্তুতি	-10.2815
▁দিবলৈ	-10.2815
▁স্বাক্ষৰিত	-10.2831
second	-10.2844
এটা	-10.2846
▁শে	-10.2858
বাৰ্গ	-10.288
জ্	-10.288
লিকা	-10.2898
সবা	-10.2901
বছৰ	-10.2907
ফো	-10.2911
▁মধ্যম	-10.2923
▁সাৰ্ভাৰ	-10.2946
্ল	-10.2978
ওঁতে	-10.2983
নেল	-10.2984
▁lock	-10.2988
IP	-10.2995
▁স্খলিত	-10.2995
্প	-10.2998
ali	-10.2999
▁কেপ	-10.3012
.8	-10.3016
evolution	-10.3016
▁দ্বীপ	-10.3016
▁নালাগে	-10.3016
▁পৃথিৱী	-10.3016
▁সাৰ্বজনীন	-10.3016
content	-10.3016
▁appointment	-10.3016
▁অতিস্বনক	-10.3016
▁অত্যন্ত	-10.3016
▁আঙ্গুলি	-10.3016
▁তৎক্ষনাত	-10.3016
▁থাকবে	-10.3016
▁ভৌগলিক	-10.3016
▁যিহেতু	-10.3016
▁সম্ভাবনা	-10.3016
▁সম্ভাৱনা	-10.3016
ç	-10.3016
▁ICQ	-10.3016
▁লোমষ	-10.3016
▁স্থিৰ	-10.3016
toolbar	-10.3016
▁আদায়	-10.3016
▁মেয়াদ	-10.3016
▁বুজাবলৈ	-10.3017
▁আত্ম	-10.3017
▁অভিযান	-10.3017
auto	-10.3017
▁পৰ্যন্ত	-10.3017
▁বজাওক	-10.3017
▁অভিযোগ	-10.3018
▁স্কুল	-10.3018
▁খোজে	-10.3018
▁অকচ	-10.3019
▁অৱধি	-10.3019
▁শুদ্ধ	-10.3019
▁Feb	-10.302
▁Live	-10.3021
▁PA	-10.3025
▁days	-10.3026
▁অদল	-10.3029
▁বিদ	-10.3033
path	-10.3033
▁অস্বচ্ছতা	-10.3039
ণ্	-10.3047
▁text	-10.3052
ব্যৱহাৰ	-10.3057
▁সেইবোৰ	-10.3059
বিজ্ঞান	-10.3059
▁বাৰ্	-10.3066
▁করার	-10.3069
খোজ	-10.307
▁সকলৰ	-10.3072
IV	-10.3072
▁সতৰ্ক	-10.3073
▁id	-10.3078
▁অভিব্যক্ত	-10.3098
▁ৰেড	-10.3106
▁হোম	-10.3107
▁it	-10.3118
ুজ	-10.3125
▁long	-10.3127
জীৱ	-10.3129
74	-10.3149
▁লো	-10.3153
▁লৈকে	-10.3155
ভু	-10.3162
▁pa	-10.318
▁বজাৰ	-10.3205
জ্ঞা	-10.3207
.4	-10.321
IN	-10.3212
্টি	-10.3219
LE	-10.3241
web	-10.327
▁আজ	-10.3273
হিন	-10.3275
▁উদ	-10.3275
ক্ক	-10.3278
▁True	-10.3281
দণ্ড	-10.329
▁read	-10.3291
▁দেওয়া	-10.3292
lobal	-10.3294
ನ	-10.3294
▁GConf	-10.3294
▁Nautilus	-10.3294
▁STUN	-10.3294
▁Service	-10.3294
▁Skype	-10.3294
▁Tamuz	-10.3294
▁libxenlight	-10.3294
▁ইভেন্ট	-10.3294
▁এলগৰিথম	-10.3294
▁কম্পোনেন্ট	-10.3294
▁গাণিতিক	-10.3294
▁জানুৱাৰী	-10.3294
▁নিৰ্ঘন্ট	-10.3294
▁পুনৰাৰম্ভ	-10.3294
▁সঞ্চালক	-10.3294
▁সোনকালে	-10.3294
▁সৌন্দৰ্য	-10.3294
▁স্খলন	-10.3294
▁অর্ডাৰ	-10.3294
▁মন্ত্ৰী	-10.3294
▁সীমিত	-10.3294
▁খচৰা	-10.3294
▁ছলেহ	-10.3294
▁সৰানো	-10.3294
▁Term	-10.3294
ROM	-10.3295
▁গোলাম	-10.3295
▁ইণ্ডিয়া	-10.3295
▁keyring	-10.3295
▁পাঠানো	-10.3295
(4815)	-10.3296
▁videos	-10.3297
▁সাধন	-10.3297
▁আঁতৰ	-10.3297
▁মটৰ	-10.3298
▁Kho	-10.3298
▁অস্বাক্ষৰ	-10.3298
কোণ	-10.3298
▁আপগুলি	-10.3298
▁সৰ্বদা	-10.3298
▁ধাপ	-10.3299
other	-10.33
▁ডিমন	-10.33
▁দ্বা	-10.3302
▁বেংক	-10.3309
ল্ট	-10.3309
▁date	-10.3312
TV	-10.3313
▁গৈ	-10.3314
ধাৰী	-10.3329
▁ব্যক্তিয়ে	-10.3336
{	-10.3342
▁35	-10.3344
▁হওয়া	-10.3345
ইতিহাস	-10.3345
label	-10.3347
টেড	-10.3348
অসম	-10.3348
▁ছেল	-10.3353
▁বৈকল্পিক	-10.3359
প্ত	-10.3366
িষ্ট	-10.3366
▁প্ৰয়োজনীয়তা	-10.3372
▁অধিসূচনাসমূহ	-10.3377
▁ৰামানুজনৰ	-10.3378
▁উইজেটৰ	-10.338
মাহ	-10.3381
ext	-10.3382
যদি	-10.3384
ৰ্জন	-10.3388
▁চুইচ	-10.34
▁ক্লা	-10.3405
ানো	-10.3424
▁ডাইলগত	-10.3425
উপ	-10.3435
ফু	-10.3459
খান	-10.347
(2651)	-10.3471
(458	-10.3481
▁নাপা	-10.3482
গুণ	-10.3488
িকো	-10.3489
উড	-10.3501
▁button	-10.3502
বুল	-10.3515
ধু	-10.3516
▁আখৰসমূহ	-10.3521
▁চলাই	-10.3534
▁default	-10.3543
লাম	-10.3546
run	-10.3546
ল্ক	-10.3552
ৱন	-10.356
▁500	-10.3565
▁কেতিয়া	-10.3569
▁সংশোধন	-10.3569
ৰ্দ	-10.357
ইউ	-10.3575
▁দেখাব	-10.3576
▁সাক্ষাৎ	-10.3577
password	-10.358
▁বিক্ৰেতা	-10.358
▁SCSI	-10.358
▁এপ্লিকেশন	-10.358
▁ওৱাৰেন্টি	-10.358
▁ক্ষতিগ্ৰস্ত	-10.358
▁পাৰ্থক্য	-10.358
▁পাৰ্শ্ববৰ্তী	-10.358
▁প্ৰশাসক	-10.358
▁ভৰ্ত্তি	-10.358
▁সন্নিবেশ	-10.358
▁সাপেক্ষে	-10.358
▁অখণ্ডতা	-10.358
▁চ্যানেল	-10.358
▁ডিগ্ৰি	-10.358
▁মুদ্ৰক	-10.358
▁আপলোড	-10.358
▁ডিষ্ক	-10.358
▁ড্ৰপ	-10.358
▁মেশিন	-10.358
▁হজ্জ	-10.358
▁CSV	-10.358
▁জাননী	-10.358
▁স্বয়ং	-10.358
▁মাৰাত্মক	-10.358
▁You	-10.358
▁spice	-10.358
cript	-10.3581
▁শাখা	-10.3581
▁গুৰুতৰ	-10.3581
▁সোঁফালৰ	-10.3584
▁Post	-10.3584
▁পথালি	-10.3588
▁চালু	-10.359
ble	-10.3595
iya	-10.3595
▁স্থানীয়ৰূপে	-10.3598
▁state	-10.361
ana	-10.3612
▁বর্তমানে	-10.3612
▁প্ৰোগ্ৰামৰ	-10.3613
▁লঞ্চ	-10.3616
▁দুটি	-10.3618
সম্পূৰ্ণ	-10.3626
▁80	-10.363
▁বিচ	-10.3636
ঢ	-10.3637
▁আতৰাবলে	-10.3645
sub	-10.3647
▁বিশ্ববিদ্যালয়ৰ	-10.365
▁সিহতক	-10.3652
▁চলোৱাৰ	-10.3654
ara	-10.3655
▁libvirt	-10.3667
▁সাৰ্টিফিকেটেৰ	-10.3679
▁system	-10.3688
এইচ	-10.369
▁সূচক	-10.3699
নাই	-10.37
▁ডাক	-10.371
ইপ	-10.3727
▁menu	-10.3731
ভাৰত	-10.3738
▁জুন	-10.3745
কাৰ্য্য	-10.3752
▁open	-10.376
▁স্তৰৰ	-10.3761
্য়	-10.3774
ঢ়া	-10.3777
41)	-10.3779
কৰ্ম	-10.3781
ডেল	-10.3783
az	-10.383
ুত	-10.3841
pages	-10.3847
ial	-10.3847
থো	-10.3851
গমন	-10.3851
560	-10.3862
PermissionsLevel	-10.3874
Security	-10.3874
desktop	-10.3874
▁Catalog	-10.3874
▁Python	-10.3874
▁Spelling	-10.3874
▁meeting	-10.3874
▁অসুস্থতা	-10.3874
▁অ্যানিমেশন	-10.3874
▁ধ্বংস	-10.3874
▁নীড়পাতা	-10.3874
▁শ্ৰেণীবিভাগ	-10.3874
▁সাহিত্য	-10.3874
▁স্তূপ	-10.3874
▁স্থাপত্য	-10.3874
config	-10.3874
settings	-10.3874
▁ফ্ৰেইম	-10.3874
▁সার্চ	-10.3874
▁ইংগিত	-10.3874
▁Gtk	-10.3874
▁প্ৰৰকেৰ	-10.3874
▁RSS	-10.3874
▁সূকীয়া	-10.3874
▁এক্সটেনশন	-10.3874
Wacom	-10.3874
index	-10.3875
▁পূৰ্ণপৰ্দা	-10.3875
▁দুৰ্বল	-10.3875
▁জুলাই	-10.3875
▁প্লেলিস্ট	-10.3875
▁নীলা	-10.3875
▁বৃহৎ	-10.3875
▁জানক	-10.3876
▁পেলেট	-10.3876
▁কাষবাৰ	-10.3877
▁উপবৃত্ত	-10.3877
▁হস্টনাম	-10.3882
ran	-10.3882
FLA	-10.3885
▁এইচবি	-10.3887
▁কাৰ্য্যক্ষেত্ৰ	-10.3895
▁ত্ৰুটিপূৰ্ণ	-10.3896
িশ্ব	-10.3897
নাহ	-10.3898
▁শিৰোণামা	-10.3899
\@	-10.3903
▁টিপা	-10.391
▁5.	-10.3913
ন়	-10.3914
ong	-10.3922
▁বিস্তাৰৰ	-10.3925
িপ	-10.3928
▁দস্তাবেজৰ	-10.3931
▁মিলিছেকেণ্ড	-10.3935
▁প্লাগিনসমূহ	-10.3935
row	-10.3935
▁সক্ৰিয়কৰণ	-10.3939
বন্ধ	-10.3948
ৰোনা	-10.3951
▁যোগ্য	-10.3952
ডিস্ক	-10.3953
▁section	-10.3957
▁লিখিবলে	-10.3959
▁বাজ	-10.3972
▁প্ৰত্য	-10.3981
tri	-10.399
টাউন	-10.3993
▁ধৰনেৰ	-10.3999
▁ki	-10.4001
▁বৃ	-10.4004
▁সভায়	-10.401
▁08	-10.4032
▁Description	-10.4059
(20	-10.406
▁ব্যক্ত	-10.4065
▁বৰ্ত্তমানৰ	-10.4066
ধন	-10.4095
▁বিলাক	-10.4095
ুম্	-10.4098
▁সামগ্ৰীৰ	-10.4104
bar	-10.411
▁কেমেৰাৰ	-10.414
্রা	-10.4141
size	-10.4146
▁no	-10.415
▁পৰিৱেশ	-10.415
▁সংগ্ৰহস্থল	-10.4157
দল	-10.4162
লৱে	-10.4167
▁মাল্টি	-10.4177
ō	-10.4177
▁দৃঢ়	-10.4177
ইউনাইটেড	-10.4177
র্ডেনীয়ার্চ	-10.4177
▁BOLLYWOOD	-10.4177
▁Bonobo	-10.4177
▁will	-10.4177
▁অভাৰৰাইড	-10.4177
▁আনমাউন্ট	-10.4177
▁গাঁথনি	-10.4177
▁টেক্কা	-10.4177
▁ধাৰাবাহিক	-10.4177
▁পরিচিতি	-10.4177
▁পেলাওতে	-10.4177
▁প্ৰোফাইল	-10.4177
▁লিখোতে	-10.4177
▁সাফল্য	-10.4177
▁সূচনাবাৰ্তা	-10.4177
▁স্থিতিমাপ	-10.4177
▁অফিসে	-10.4177
▁বিত্তীয়	-10.4177
▁অৱসান	-10.4177
▁ঘণ্টা	-10.4177
▁অভ্যন্তৰীণ	-10.4177
▁এলবাম	-10.4177
▁শিক্ষক	-10.4177
▁গাইড	-10.4177
IBM	-10.4177
▁Tube	-10.4179
▁দেওয়াৰ	-10.4179
▁টেবলেট	-10.418
▁এডিট	-10.4181
▁চাৰিটা	-10.4181
▁সুযোগ	-10.4182
▁বাহনখন	-10.4184
▁ব্যক্তিত্ব	-10.4184
ৌদি	-10.4186
▁32	-10.4188
▁কাৰ্য্যসূচী	-10.4188
▁অপ্ৰত্যাশিতভাবে	-10.4193
▁নিজেই	-10.4195
List	-10.4207
িয়ন	-10.4215
▁দাও	-10.4216
▁Ne	-10.4217
db	-10.4218
▁প্ৰাসংগিক	-10.4225
ika	-10.4232
▁প্ৰকৃতিৰ	-10.4239
▁can	-10.4241
▁চাবলে	-10.4242
device	-10.4253
▁প্ৰদৰ্শনযোগ্য	-10.4277
▁MD	-10.4279
▁ক্লিপবোৰ্ডে	-10.428
▁ইবন	-10.4301
▁সাধাৰণত	-10.4309
bl	-10.431
▁পৰ্য	-10.431
▁ৰিচ	-10.4327
▁AT	-10.433
▁মেম	-10.4332
ন্ডাৰ	-10.4341
ler	-10.4343
▁ফলা	-10.4352
▁(278	-10.4374
45)	-10.4375
কুই	-10.4378
▁mode	-10.4382
ল্লা	-10.4384
জনে	-10.4393
▁থা	-10.4395
ome	-10.4398
▁নহলে	-10.4403
▁টাৰ্মিনেলত	-10.4405
▁ৰু	-10.4406
100	-10.441
েৰেল	-10.4424
icon	-10.4428
ভেদ	-10.4437
গ্ৰহণ	-10.4443
SH	-10.4446
▁48	-10.4453
▁জানিব	-10.4463
ছিয়া	-10.447
▁নাথ	-10.4475
গ্ন	-10.4476
চো	-10.4483
▁দুয়ো	-10.4488
▁সিং	-10.4488
aDateFmt	-10.4489
উদ্ভট	-10.4489
ক্সিলেৰি	-10.4489
▁NNTP	-10.4489
▁অবশিষ্ট	-10.4489
▁ক্লায়েন্ট	-10.4489
▁দ্রঢ়িমা	-10.4489
▁ধূসৰ	-10.4489
▁নির্বাচিত	-10.4489
▁প্ৰতিধ্বনি	-10.4489
▁সোণকালে	-10.4489
▁অনুষ্ঠিত	-10.4489
▁আংশিক	-10.4489
▁প্ৰসেস	-10.4489
▁ফোকাস	-10.4489
▁বিক্রী	-10.4489
▁সংগীত	-10.4489
▁NetworkManager	-10.4489
▁hostdev	-10.4489
ा	-10.4489
▁পঠিয়াব	-10.4489
▁বুদ্ধি	-10.4489
▁ইউনিক	-10.449
▁দিশা	-10.449
Sync	-10.449
▁স্ৰোত	-10.449
▁ফিকহ	-10.449
▁তেওঁলোকে	-10.449
্যু	-10.449
top	-10.449
▁ব্ৰডবেণ্ড	-10.449
▁সেয়েহে	-10.449
▁ৰেডিঅ	-10.4491
▁বিৰাম	-10.4491
▁তোলা	-10.4491
▁বিশেষজ্ঞ	-10.4491
▁অনেক	-10.4492
▁পাছৱাৰ্ডসমূহ	-10.4493
ative	-10.4493
▁AIM	-10.4495
▁'$1	-10.4495
▁অংক	-10.4496
▁2016	-10.4498
▁pid	-10.4499
গৌণ	-10.4499
▁১৬	-10.4501
▁পাত	-10.4514
েষণ	-10.4514
গ্ৰুপ	-10.4517
▁আস	-10.4518
স্থিত	-10.452
▁সাময়িক	-10.4532
ডেন	-10.4532
▁জীৱনৰ	-10.4535
▁অগ্নিকাণ্ড	-10.4539
▁শূন্য	-10.4539
rc	-10.4542
▁My	-10.4548
▁টানি	-10.4551
▁ব্যৱহাৰকাৰীক	-10.4552
▁চিন্তা	-10.4562
▁গণিতৰ	-10.4565
সাবস্ক্ৰাইব	-10.4572
ask	-10.4573
▁সম্বাদৰ	-10.4574
{{	-10.4574
button	-10.4575
সন্ধান	-10.4576
পৰীক্ষণ	-10.4577
part	-10.4578
true	-10.4578
ভিডিঅ	-10.4582
▁ইয়া	-10.4596
▁ভৱিষ্যত	-10.4596
▁মাহৰ	-10.4601
none	-10.461
▁ইতিমধ্যেই	-10.4619
▁পৰিব	-10.4632
we	-10.4638
বতৰা	-10.4647
▁মেথ	-10.4655
▁এককসমূহ	-10.4658
যো	-10.4659
▁মেমোটো	-10.466
াঙি	-10.4663
▁UTF	-10.4663
▁link	-10.4667
▁উপাদানত	-10.4669
ভাগ	-10.4681
ভগ	-10.4682
0,000	-10.4683
্ধাৰ	-10.4684
গ্ৰাম	-10.4687
▁পঞ্জিকাত	-10.4692
▁প্ৰথমে	-10.4695
লোঁ	-10.47
▁কৃ	-10.4702
জিত	-10.471
োয়া	-10.4711
্ট	-10.4712
▁টাৰ্মিনেলৰ	-10.4727
▁rc	-10.4733
▁বাছ	-10.4737
▁অধীন	-10.4737
মেয়ে	-10.4737
▁নং	-10.4737
tain	-10.4749
▁bu	-10.4755
▁আজিৰ	-10.4756
▁পৃষ্ঠ	-10.476
বার	-10.4766
▁মৃত্যুৰ	-10.4768
িল্	-10.477
Pre	-10.4776
▁উইন্ডোসমূহ	-10.4779
▁লিখ	-10.4784
▁11,	-10.4786
▁২৫	-10.4791
▁অপাৰেটিং	-10.4812
▁কতৃপক্ষ	-10.4812
▁কথোপকথন	-10.4812
▁নিম্নোক্ত	-10.4812
▁পঠিয়াওক	-10.4812
▁প্ৰধানমন্ত্ৰী	-10.4812
▁বাঞ্ছনীয়	-10.4812
▁শইকীয়া	-10.4812
process	-10.4812
▁CJK	-10.4812
▁অনুভৱ	-10.4812
▁ডিজাইন	-10.4812
click	-10.4812
▁মুদ্ৰা	-10.4812
সৈকত	-10.4812
▁Eye	-10.4812
▁পুৰণি	-10.4812
▁সংহিত	-10.4813
▁সঞ্চয়	-10.4813
▁মাৰ্কিন	-10.4813
▁ইচ্ছা	-10.4814
sort	-10.4814
This	-10.4814
▁প্যাড	-10.4814
▁হাইপাৰ	-10.4815
▁বাছাই	-10.4815
▁back	-10.4816
▁সফলভাৱে	-10.4816
▁ধাৰণকাৰী	-10.4817
▁Sep	-10.4818
▁ফেলে	-10.4819
▁অৱতাৰ	-10.4819
▁SSH	-10.4819
▁১৩	-10.4824
▁ক্লাচ	-10.4824
▁ব্যৱসায়িক	-10.4825
9660	-10.4826
▁নেওয়া	-10.483
ভিড	-10.4832
▁dictionary	-10.4834
▁বিধান	-10.4838
▁সঠিকভাৱে	-10.4841
▁21	-10.4849
▁সন্দৰ্ভত	-10.4851
▁তেজ	-10.4852
(1)	-10.4856
▁অভিনেতা	-10.4858
াংক	-10.486
yar	-10.486
গ্র	-10.4877
▁ইনবক্স	-10.4892
▁Assam	-10.4895
▁উইজেটেৰ	-10.4898
পী	-10.4906
▁সংযোগমাধ্যমৰ	-10.4907
version	-10.4908
▁পেলাবলে	-10.4909
সংৰক্ষণ	-10.4911
▁কেনে	-10.4911
সাধাৰণ	-10.4913
▁আন্ত	-10.4922
ost	-10.4923
সম্পাদনা	-10.4933
▁আয়ত	-10.4933
▁একাউন্টেৰ	-10.494
▁প্ৰকাশক	-10.4943
▁0,	-10.4944
▁ব্যৱহাৰকৰোঁতাৰ	-10.4962
▁ভিতৰৰ	-10.4965
▁[%	-10.4967
▁ডাইৰেকটৰিত	-10.4972
চিয়ান	-10.4978
ium	-10.4981
▁সম্পদসমূহ	-10.4987
▁ফালৰ	-10.499
▁দেহ	-10.4994
টেল	-10.4994
▁সহায়তা	-10.5001
▁পিছৰ	-10.5002
▁কাষৰ	-10.5004
▁গন্তব্যৰ	-10.5006
▁লুকাওক	-10.5008
ছোঁ	-10.5013
▁(105	-10.5032
উক্ত	-10.5042
্ৰো	-10.5046
ানু	-10.5073
াৰ্চ	-10.5076
▁Com	-10.5094
▁সৰঞ্জামৰ	-10.5103
▁11:	-10.5111
▁উদ্ধৃত	-10.5113
options	-10.5114
▁90	-10.5131
ুষ	-10.5132
ইন্টাৰ	-10.5137
н	-10.5145
অঙ্গুলিসঁচালন	-10.5145
ب	-10.5145
Password	-10.5145
onflict	-10.5145
ğ	-10.5145
▁Aisleriot	-10.5145
▁like	-10.5145
▁অস্ট্ৰেলিয়া	-10.5145
▁ইন্সটল	-10.5145
▁এনিমেশন	-10.5145
▁কয়েকটি	-10.5145
▁থাকোতে	-10.5145
▁পঢ়োঁতে	-10.5145
▁বাধ্যতামূলক	-10.5145
▁বিনামূলীয়া	-10.5145
▁বিভাজক	-10.5145
▁লিমিটেড	-10.5145
▁সংশ্লিষ্ট	-10.5145
▁সাংকেতিক	-10.5145
▁হাদীছ	-10.5145
(46585)	-10.5145
-8859-1	-10.5145
▁পুষ্পহীনতা	-10.5145
▁বিজেপি	-10.5145
▁বিলোপন	-10.5145
▁Enter	-10.5145
▁মুকলি	-10.5145
connect	-10.5145
▁ইমেজ	-10.5145
▁TSP	-10.5145
▁অন্তৰাল	-10.5146
▁কলঘৰ	-10.5146
▁সম্প্ৰতি	-10.5146
▁আদব	-10.5147
▁that	-10.5147
▁prc	-10.5147
▁বহিস্থিত	-10.5148
▁কম্পোসাৰ	-10.5149
idhi	-10.5149
▁পূৰ্বৰূপ	-10.5149
▁প্ৰবেশ	-10.5149
▁'{{	-10.515
▁আঁতৰাই	-10.5151
▁কলবেক	-10.5153
টোসমূহক	-10.5155
▁স্পিন	-10.5158
▁লাখ	-10.5158
▁AS	-10.516
▁ধীৰ	-10.5161
▁বাটনটি	-10.5169
্চ	-10.517
▁\\	-10.5171
শী	-10.5172
▁license	-10.5174
▁পাসওয়াৰ্ড	-10.5174
600	-10.5181
ষ্ঠি	-10.5184
▁ব্যৱস্থাপকৰ	-10.5184
▁60	-10.5185
▁অঙ্ক	-10.5187
▁প্ৰক্ৰিয়াকৰণ	-10.519
র্ণ	-10.5194
ৃষ্ট	-10.5195
(11	-10.5196
▁অবিকল্পিতভাৱে	-10.5202
কিঅ	-10.5202
▁Con	-10.5208
▁নম্বৰৰ	-10.5216
▁প্ৰতিনিধিৰ	-10.5224
যেমন	-10.5242
আতৰ	-10.5248
▁ছাপ	-10.5252
▁ফ্ৰে	-10.5253
পশ্চিম	-10.5258
▁ডমেইনসমূহ	-10.5259
▁সেটি	-10.526
▁ভূ	-10.5268
▁একেই	-10.5271
Windows	-10.5276
▁বৈধতা	-10.5276
data	-10.5277
▁এফ	-10.5281
িয়াল	-10.5283
2:34	-10.5286
উই	-10.529
num	-10.53
▁মাছ	-10.5301
ত্ৰী	-10.5306
ার্ড	-10.5311
▁সংকলনৰ	-10.5338
▁পত্ৰচিহ্নসমূহ	-10.5339
ধাৰা	-10.5339
▁প্ৰতিলিপিত	-10.5346
▁None	-10.5356
low	-10.5362
মাই	-10.5364
▁ক্লিপবোৰ্ড	-10.5375
▁ফো	-10.5394
ঙ্গা	-10.5406
▁bus	-10.5425
কাউ	-10.5428
▁অভাৱ	-10.543
▁শীৰ্ষ	-10.543
াঙ্ক	-10.5436
যান	-10.5448
উন	-10.5451
▁নহল	-10.5457
▁56	-10.5463
No	-10.5467
ছাত্ৰী	-10.5484
ঘাত	-10.5486
▁st	-10.5487
calendar	-10.549
universal	-10.549
▁operation	-10.549
▁অধ্যায়	-10.549
▁উত্তীৰ্ণ	-10.549
▁উদ্ভিদ	-10.549
▁কালদৈৰ্ঘ্য	-10.549
▁প্ৰত্যাহাৰ	-10.549
▁প্ৰোথিত	-10.549
▁বলপূৰ্বক	-10.549
▁মেইলবাকচ	-10.549
▁যথেষ্ট	-10.549
▁শাস্তি	-10.549
▁সমন্বয়	-10.549
▁সামাজিক	-10.549
French	-10.549
level	-10.549
▁আক্ৰান্ত	-10.549
▁সহযোগী	-10.549
▁পৰিদৰ্শন	-10.549
▁সজাওক	-10.549
▁স্ট্যাটাস	-10.549
ē	-10.549
▁maildir	-10.549
▁নমুনা	-10.549
▁ব্যাপক	-10.549
▁গনোম	-10.549
▁কেইটামান	-10.549
▁ফেলতে	-10.549
সাৱধান	-10.549
▁Kati	-10.549
▁মানাংকন	-10.549
▁GiB	-10.549
▁have	-10.549
▁বুলিয়ান	-10.549
▁hint	-10.549
▁INR	-10.549
▁২০১৪	-10.5491
▁SHA	-10.5491
▁Facebook	-10.5491
শ্যন	-10.5491
▁৯০	-10.5492
domain	-10.5496
left	-10.5496
▁বিবিধ	-10.5497
▁পেডিং	-10.5497
▁বৃহ	-10.5499
▁'/'	-10.55
▁আউটবক্স	-10.5502
▁May	-10.5511
▁ফলকৰ	-10.5514
োভ	-10.5514
াৰ্ণ	-10.5515
চভিল	-10.5527
displayName	-10.5532
▁ধাৰণা	-10.5533
▁গতিকে	-10.5533
▁ঊ	-10.5537
ংকা	-10.5537
▁এছ	-10.5543
ইঞ্চি	-10.5544
ick	-10.5544
▁ইন্ডেক্স	-10.5545
▁ঘন্টাৰ	-10.5546
2.0	-10.5551
▁Sha	-10.5552
70)	-10.5557
▁MIME	-10.5564
স্বত্ব	-10.5565
▁$2	-10.5574
▁ডেস্কটপত	-10.558
ন্তু	-10.5584
▁পৰিস্ৰাৱক	-10.5588
▁tar	-10.5595
123	-10.5596
ক্ষা	-10.5602
gnome	-10.561
োনিয়া	-10.561
ure	-10.5611
query	-10.5612
লিখনী	-10.5612
start	-10.5614
▁ৱিকি	-10.5615
you	-10.5617
অনু	-10.562
mode	-10.5622
াইভ	-10.5643
ক্ৰমে	-10.5646
ja	-10.5647
অফ	-10.5647
ভেল	-10.5648
▁বিচাৰ	-10.5648
▁নৱ	-10.5658
aj	-10.567
ংশগ্ৰহণকাৰীবৃন্দ	-10.5703
▁জ্ঞানৰ	-10.5706
চী	-10.5717
uk	-10.5722
▁কলসমূহ	-10.5739
▁version	-10.5742
▁অক্ষত	-10.5743
▁ফোল্ডাৰসমূহৰ	-10.5745
imm	-10.575
▁বৃদ্ধ	-10.5761
▁non	-10.5761
▁12,	-10.5768
jan	-10.5768
▁প্লা	-10.577
ুয়া	-10.5782
Dec	-10.5786
▁কৰ্মক্ষেত্ৰৰ	-10.5788
িনা	-10.5789
▁সোম	-10.5791
rr	-10.5801
▁স্থল	-10.5828
▁শিল্প	-10.5837
▁ট্যাগ	-10.5837
▁উপদেশ	-10.5845
د	-10.5847
▁Bubble	-10.5847
▁Could	-10.5847
▁Ubuntu	-10.5847
▁plain	-10.5847
▁অধ্যাপক	-10.5847
▁আনুমানিক	-10.5847
▁ইঞ্চুৰেঞ্চ	-10.5847
▁এক্সপাঞ্জ	-10.5847
▁পুৰোনো	-10.5847
▁পৰ্যবেক্ষণ	-10.5847
▁ভট্ভটি	-10.5847
▁সক্রিয়	-10.5847
ember	-10.5847
я	-10.5847
▁Evince	-10.5847
▁তাগাদা	-10.5847
▁পুনৰাম্ভ	-10.5847
▁প্ৰত্যাশা	-10.5847
▁উপসৰ্গ	-10.5847
▁ছাইল্ড	-10.5847
value	-10.5847
न	-10.5847
local	-10.5847
▁আয়োজন	-10.5847
▁কলসীয়	-10.5847
▁পঞ্জীয়ন	-10.5847
▁District	-10.5847
▁নাথাকে	-10.5847
▁Elm	-10.5847
▁পঢ়ক	-10.5847
▁সাহেব	-10.5847
▁তুমি	-10.5848
▁ব্যৱস্থাপিত	-10.5848
▁সুন্দৰ	-10.5848
▁দ্বারা	-10.5848
▁অনুবৰ্তন	-10.5848
▁অংশগ্ৰহণ	-10.5848
প্ৰণালীৰ	-10.5848
▁ধনাত্মক	-10.5848
াত্মক	-10.585
▁পৰিক্ষা	-10.585
▁গুৰু	-10.585
gg	-10.585
▁শস্য	-10.585
▁ভগ্ন	-10.585
▁VMX	-10.5851
▁অৱদান	-10.5852
cdr	-10.5852
▁নহোৱা	-10.5852
ৰ‍্	-10.5855
▁Page	-10.5856
▁দিছিল	-10.5857
▁মূ	-10.5857
:%02	-10.5859
pci	-10.5861
▁অনুচ্ছেদ	-10.5864
▁যোৱাৰ	-10.5866
কেইটা	-10.5867
RW	-10.5867
▁মাজে	-10.5868
▁আগলৈ	-10.5871
▁মিটাৰ	-10.5874
ata	-10.5875
ভৰি	-10.5875
▁অপ্ৰত্যাশিতভাৱে	-10.5875
▁বৈজ্ঞানিক	-10.5878
▁#%	-10.5879
▁asp	-10.588
▁che	-10.588
ফ্	-10.5881
▁চাবলৈ	-10.5881
▁Mor	-10.5887
▁ষ	-10.5889
▁stat	-10.5893
▁লিখিবলৈ	-10.5893
▁ওপৰলৈ	-10.5893
ট্	-10.5895
Add	-10.5895
▁return	-10.5896
▁বিৱৰিত	-10.5896
▁দেখাওক	-10.5904
▁কৃষি	-10.5905
▁নিজা	-10.5906
▁জাল	-10.5909
▁এটাচমেন্টসমূহ	-10.5919
▁word	-10.5931
any	-10.5937
▁লিখে	-10.5942
মুখী	-10.5944
▁বহিয়ের	-10.595
▁ৰাইট	-10.595
এস	-10.5953
▁স্টে	-10.5959
▁পেইনেৰ	-10.5961
▁ৰেচম	-10.5967
▁পাও	-10.5969
সীমা	-10.5971
স্থাপন	-10.5973
▁হলেও	-10.5975
াগত	-10.5976
message	-10.5982
উত্তৰ	-10.5983
tick	-10.5985
▁ডিভাইচসমূহৰ	-10.5989
OU	-10.5989
াঁও	-10.5991
▁খুব	-10.6006
▁Linux	-10.6037
IM	-10.6046
▁minute	-10.6049
▁কাৰ্ছাৰৰ	-10.6055
▁বৃদ্ধিত	-10.606
▁সহজে	-10.6065
▁NT	-10.6067
▁gnome	-10.6091
350	-10.612
▁কৰিছেন	-10.6126
▁device	-10.6127
টিভ	-10.6136
▁সূচি	-10.6144
pfu	-10.6157
▁400	-10.6159
ীকৰণ	-10.616
▁Search	-10.6172
.7	-10.6172
ভ্	-10.6176
▁এণ্ড	-10.6188
:\	-10.6207
▁250	-10.6212
▁ইফক	-10.6212
▁জীৱন্ত	-10.6214
▁trans	-10.6218
ск	-10.6218
ঔ	-10.6218
Mozilla	-10.6218
и	-10.6218
ي	-10.6218
▁'"$1"	-10.6218
▁Bogofilter	-10.6218
▁Konqueror	-10.6218
▁অপাৰেটৰ	-10.6218
▁অসমাপ্ত	-10.6218
▁অসম্ভব	-10.6218
▁অৱৈধ	-10.6218
▁আয়োজিত	-10.6218
▁উপশীৰ্ষকসমূহ	-10.6218
▁দ্বীন	-10.6218
▁প্ৰৱন্ধ	-10.6218
▁বিপৰ্যয়	-10.6218
▁বেতাঁৰ	-10.6218
▁ভাৰচুৱেল	-10.6218
▁মহাবিদ্যালয়	-10.6218
▁মেৰামতি	-10.6218
▁হেণ্ডেল	-10.6218
▁অভ্যন্তৰীক	-10.6218
▁ভাৰতবৰ্ষ	-10.6218
▁অফচেট	-10.6218
▁উত্তম	-10.6218
▁কেলেণ্ডাৰ	-10.6218
▁প্রেরণ	-10.6218
▁স্কীমা	-10.6218
▁জাৰ্মান	-10.6218
▁দশমিক	-10.6218
▁উপযোগী	-10.6218
▁গঠিত	-10.6218
command	-10.6218
Insert	-10.6218
▁Spy	-10.6218
prefs	-10.6218
▁rich	-10.6218
pipe	-10.6218
▁টকেন	-10.6218
▁ৰিডাৰ	-10.6218
▁বহল	-10.6218
▁দ্বন্দ্বযুক্ত	-10.6218
(4790)	-10.6218
(4791)	-10.6219
▁ইনক্ৰিপ্ট	-10.6219
▁খাঁজ	-10.6219
▁ক্ৰমবিন্যাস	-10.6219
▁তললৈ	-10.6219
▁মেটাল	-10.6219
RFC	-10.622
▁(72)	-10.622
▁পৰ্যায়	-10.622
▁বাণিজ্যিক	-10.6223
▁"0"	-10.6223
▁এইচসি	-10.6224
▁স্বচালিতভাবে	-10.6224
▁ঘূৰাই	-10.6225
▁06:	-10.6225
▁বায়ু	-10.6226
িবলে	-10.6226
স্পেস	-10.6228
▁২৭	-10.6228
▁বিপদ	-10.6229
png	-10.623
▁মাৰ্চ	-10.6231
▁01:	-10.6234
▁নকৰাকৈ	-10.624
▁বৰ্ণ	-10.6242
▁ধাৰ্য্যকৰণ	-10.6242
expr	-10.6246
▁দৰ্শক	-10.6247
▁বাকচলৈ	-10.6247
▁জাৰি	-10.6263
ওয়া	-10.6264
কেডব্লিউ	-10.6269
▁পঠাবলে	-10.6269
▁29	-10.627
বেশ	-10.627
ুস	-10.6276
cat	-10.6277
▁DB	-10.6289
▁শিল্পী	-10.6299
▁৫০	-10.63
"}	-10.63
▁root	-10.6314
▁পঢ়িবলে	-10.6316
210	-10.6317
▁সঁজুলিসমূহ	-10.6328
▁HD	-10.6332
▁পৰ্দ্দাত	-10.6348
নিম্ন	-10.6366
open	-10.6369
kg	-10.6371
▁ৰঙা	-10.6375
১১	-10.6376
পাঠ	-10.6379
▁বিষয়া	-10.6389
▁কৰ্মক্ষেত্ৰত	-10.6406
▁Show	-10.6418
▁Tab	-10.643
▁দেখি	-10.644
ance	-10.6452
েইট	-10.646
ray	-10.646
ust	-10.6468
▁অভিনায়কৰ	-10.647
▁হেড	-10.6472
▁নফ	-10.6486
▁যাওয়াৰ	-10.6493
▁1000	-10.651
▁চাৰ্	-10.6515
▁(596	-10.6518
যি	-10.6539
▁আগে	-10.6544
▁GB	-10.6548
ংগা	-10.655
▁সম্বাদত	-10.6554
▁মাপে	-10.6556
▁দণ্ড	-10.6561
চিং	-10.6571
theme	-10.6579
ook	-10.6584
▁আৰক্ষী	-10.6596
▁বাণিজ্য	-10.6597
▁সঁচা	-10.6599
gconf	-10.6602
John	-10.6602
column	-10.6602
signature	-10.6602
▁Audio	-10.6602
▁Calendar	-10.6602
▁Delhi	-10.6602
▁Epiphany	-10.6602
▁Option	-10.6602
▁Sebasti	-10.6602
▁character	-10.6602
▁check	-10.6602
▁অন্তর্ভুক্ত	-10.6602
▁অ্যাপ্লিকেশন	-10.6602
▁ইনফর্মেশান	-10.6602
▁ইশকাপনেৰ	-10.6602
▁তৰবিয়ত	-10.6602
▁দৈহিক	-10.6602
▁পেকেইজ	-10.6602
▁বিপৰ্য্যয়	-10.6602
▁ব্যৱধান	-10.6602
▁মেগ্নিফাইড	-10.6602
▁লিখোঁতে	-10.6602
▁সংঘৰ্ষ	-10.6602
▁সাধাৰন	-10.6602
▁সৰ্বোত্তম	-10.6602
▁ৰুহিতনেৰ	-10.6602
▁প্ৰাৰ্থী	-10.6602
▁সম্প্ৰসাৰন	-10.6602
▁হৰতনেৰ	-10.6602
ī	-10.6602
▁Cogl	-10.6602
▁Talk	-10.6602
▁checksum	-10.6602
▁ভাণ্ডাৰ	-10.6602
power	-10.6602
▁PNG	-10.6602
একাকী	-10.6602
▁ফিল্ম	-10.6602
▁কাৰ্য্যকৰী	-10.6602
▁বাইবেল	-10.6602
▁হোটেল	-10.6602
▁ঊৰ্ধ্বতন	-10.6602
▁বুলিয়েন	-10.6602
▁RSA	-10.6602
▁php	-10.6603
▁চলাবলে	-10.6603
▁জৰিত	-10.6605
benchmarking	-10.6605
▁অবিৱৰিত	-10.6605
▁জীৱন্তকৰণ	-10.6607
উভয়	-10.6607
ENAME	-10.6609
▁স্টক	-10.6612
▁05:	-10.6612
▁তিনিটা	-10.6612
▁সমকামী	-10.6612
▁কম্বো	-10.6616
▁নোৱাৰ	-10.6617
▁২৩	-10.6617
▁পলিচীখন	-10.6618
▁কলেজ	-10.6618
▁বিষয়সমূহ	-10.6619
▁(0	-10.6621
▁ধাৰ	-10.6622
▁বাচনি	-10.6625
▁প্ৰসাৰন	-10.6627
foo	-10.6628
▁1.0	-10.6631
▁সময়কাল	-10.6632
llu	-10.6633
▁English	-10.6636
▁কালো	-10.6636
▁থাই	-10.6636
▁কুটা	-10.6638
▁চকু	-10.6638
▁বিচ্ছিন্নিত	-10.6645
▁উইজেটটি	-10.6649
▁পৰিণতিত	-10.6649
▁গুৱাহাটীত	-10.665
▁আইনী	-10.6656
▁আগষ্ট	-10.6659
▁আগবাঢ়িব	-10.6667
▁Di	-10.6674
▁sound	-10.6674
ng	-10.6686
▁এইমাত্ৰ	-10.6692
old	-10.6698
▁যাওয়া	-10.6718
▁ক্ষেত্র	-10.6726
▁সময়ের	-10.6738
DL	-10.674
লুকাওক	-10.6765
বিশেষ	-10.6765
Xxx	-10.6766
পঢ়িব	-10.6767
সদস্য	-10.6767
–	-10.6768
সুৰক্ষিত	-10.677
00,000	-10.678
▁ছু	-10.6781
আৰু	-10.6782
dao	-10.6807
▁ডো	-10.6824
981	-10.6826
▁car	-10.6834
▁দেখ	-10.6854
ষ্ঠা	-10.6861
ৰ্ধ	-10.6865
here	-10.6866
▁শেষত	-10.6869
▁মেন	-10.6876
▁খেলক	-10.6887
▁বেশ	-10.6891
▁স্ক্ৰ	-10.6902
▁ঠাইত	-10.6906
াণী	-10.6907
▁ওচৰ	-10.691
ট্ট	-10.6918
▁আগবাঢ়ি	-10.6923
▁Ro	-10.6926
▁স্টেট	-10.6928
▁উইন্ডোকে	-10.6936
১২	-10.6948
etc	-10.6957
হেম	-10.6963
▁ঘটনাক	-10.697
NAME	-10.6996
video	-10.6998
work	-10.6999
▁নাগৰিক	-10.7001
tails	-10.7002
▁এক্সিকিউট	-10.7002
notify	-10.7002
ডিব্ৰুগড়	-10.7002
Expand	-10.7002
ReplyForward	-10.7002
change	-10.7002
first	-10.7002
▁mutex	-10.7002
▁অতিক্ৰান্ত	-10.7002
▁অসংলগ্ন	-10.7002
▁আছুতীয়া	-10.7002
▁আটাইতকৈ	-10.7002
▁আব্দুল্লাহ	-10.7002
▁ঔষধ	-10.7002
▁ডিজিটেল	-10.7002
▁প্ৰফেছৰ	-10.7002
▁ফেব্ৰুৱাৰী	-10.7002
▁বিবেচনা	-10.7002
▁মুহূৰ্ত	-10.7002
▁মেডিকেল	-10.7002
▁সংকুচিত	-10.7002
▁সংঘটিত	-10.7002
▁স্নিপেট	-10.7002
▁ৰেহাই	-10.7002
linux	-10.7002
्	-10.7002
॥	-10.7002
▁পৰিৱৰ্তে	-10.7002
▁পাইলট	-10.7002
▁শান্তি	-10.7002
▁মুনীন	-10.7002
▁যাত্ৰা	-10.7002
▁সভাপতি	-10.7002
Special	-10.7002
▁চৰিয়ত	-10.7002
▁Word	-10.7002
▁লভ্য	-10.7002
▁কঠিন	-10.7002
▁গেলেৰী	-10.7002
▁লাতিন	-10.7002
Link	-10.7002
পাৰ্শ্ব	-10.7002
▁পৰিমাপ	-10.7003
▁আকার	-10.7003
▁API	-10.7003
▁ঘটিছে	-10.7003
▁বিশ্বব্যাপী	-10.7003
▁ছায়াছবি	-10.7003
▁নিৰ্ভৰশীল	-10.7003
▁ফতোৱা	-10.7003
▁লেটিন	-10.7003
▁মানসিক	-10.7003
▁ভৰোৱা	-10.7003
▁ওয়েব	-10.7003
▁হেডার	-10.7004
▁"1"	-10.7004
▁Tech	-10.7004
▁বুজায়	-10.7004
▁লোগো	-10.7005
▁পৰিসৰ	-10.7005
▁ধাৰণকৰ্তা	-10.7005
▁ৰাতি	-10.7006
▁দেবে	-10.7006
▁Rach	-10.7006
▁CURL	-10.7006
ক্ৰিয়া	-10.7006
▁সেটআপ	-10.7007
▁সন্মান	-10.7008
talk	-10.7008
▁"'''	-10.7008
▁উপৰিও	-10.7009
▁ছকেট	-10.7009
▁টেপ	-10.7009
▁bug	-10.701
acher	-10.7012
raid	-10.7018
িছে	-10.7019
এচএ	-10.7023
লিচ	-10.7023
(607)	-10.7023
▁বিচাৰিছে	-10.7025
▁পৰিচয়সমূহক	-10.7027
▁২১	-10.7027
জ্জা	-10.7029
.323	-10.7033
▁পৰিবেশ	-10.7034
ক্ষ্য	-10.7036
▁খুঁ	-10.7041
▁"#	-10.7043
save	-10.7044
Size	-10.7045
▁সফলতা	-10.7047
▁স্কো	-10.7049
▁ডেটা	-10.7053
Use	-10.7053
▁এখনো	-10.7059
▁অনুবাদক	-10.7061
▁শেষে	-10.7062
জ্বল	-10.707
াৰ্ছ	-10.7074
alla	-10.7077
game	-10.7077
▁সম্পূৰ্ণভাৱে	-10.7083
▁যন্ত্ৰটি	-10.7088
ada	-10.7097
▁Read	-10.7098
▁ME	-10.7101
▁vlan	-10.7106
▁false	-10.7106
▁Sound	-10.7109
▁বৰ্ষপঞ্জিটি	-10.7118
বক্সেৰ	-10.712
সেন্ট	-10.7122
ফাই	-10.7127
▁আধাৰত	-10.713
নীয়া	-10.7153
Pop	-10.716
▁ওজন	-10.7166
▁যাও	-10.7177
Tue	-10.7182
{1}	-10.7183
with	-10.7183
ঘন্টা	-10.7183
string	-10.7184
Assamese	-10.7184
অনুকৰণ	-10.7186
লিঙ্ক	-10.7206
253	-10.721
টী	-10.7224
ops	-10.7226
সংখ্যা	-10.7227
main	-10.7244
▁San	-10.7245
▁ভিত্তিক	-10.7256
▁স্নেপশ্বটসমূহ	-10.7258
▁অছাল্লামৰ	-10.7264
nada	-10.7271
▁মূদ্ৰকত	-10.7271
▁ক্ষেত্রে	-10.7287
(282)	-10.7288
▁চুই	-10.7311
256	-10.7333
িলো	-10.734
▁বুজ	-10.7343
▁(40	-10.7345
▁প্লেট	-10.735
▁"{1}"-	-10.7352
▁মোট	-10.7355
wo	-10.7359
▁বজা	-10.7363
▁বিকাশক	-10.7369
▁প্ৰসাৰ	-10.7382
media	-10.7402
sec	-10.7402
▁মাতৃ	-10.7417
ঞ	-10.7418
ه	-10.7419
т	-10.7419
OfThe	-10.7419
س	-10.7419
م	-10.7419
সৰ্বধৰনৰ	-10.7419
▁VCard	-10.7419
▁ইম্পোর্ট	-10.7419
▁কেইবাটাও	-10.7419
▁ছাৰাউন্ড	-10.7419
▁নিউক্লীয়	-10.7419
▁প্ৰাকৃতিক	-10.7419
▁বঙালী	-10.7419
▁শ্ৰেষ্ঠ	-10.7419
▁সতৰ্কধ্বনি	-10.7419
▁সাংখ্যিক	-10.7419
▁সাংসদ	-10.7419
▁স্ট্যান্ড	-10.7419
▁স্মাইলি	-10.7419
▁আটাইবোৰ	-10.7419
▁দাখিল	-10.7419
(13166)	-10.7419
▁Abhi	-10.7419
▁এন্ট্ৰি	-10.7419
▁আনহাতে	-10.7419
/2015	-10.7419
ব্বিশ	-10.7419
Cancel	-10.7419
▁কাৰ্য্যক্ৰম	-10.7419
▁আঁকতে	-10.7419
▁FTP	-10.7419
▁পিতৃ	-10.7419
▁গেলেৰি	-10.7419
▁জটিল	-10.7419
вр	-10.7419
ем	-10.7419
▁বিদ্যু	-10.7419
▁বাজানো	-10.742
▁পূর্ব	-10.742
▁gconfd	-10.742
▁হেৰুৱা	-10.742
▁Roll	-10.742
▁GUI	-10.742
obert	-10.7421
▁RGB	-10.7421
▁বৰফ	-10.7421
▁সোমোৱা	-10.7423
▁স্বভাৱ	-10.7423
▁ভাড়া	-10.7423
▁নিশ্চিতকৰণৰ	-10.7425
driver	-10.7425
▁2018	-10.7425
পন্ন	-10.7426
বৰ্তী	-10.7426
csv	-10.7429
▁তাড়া	-10.7429
বাইট	-10.7429
▁বুধ	-10.743
▁হৰুৱা	-10.743
▁উঠা	-10.743
▁উপনাম	-10.7432
▁স্থায়ীভাবে	-10.7433
বাসী	-10.7433
▁ৰোমান	-10.7433
▁বৈ	-10.7437
▁চাইট	-10.7437
▁বিগত	-10.744
▁Top	-10.744
▁PID	-10.7441
▁ব্যুৰো	-10.7441
▁All	-10.7444
▁মেনুবাৰ	-10.7444
▁বার্তার	-10.7446
▁গ্ৰহণযোগ্য	-10.7448
iff	-10.7455
▁মাস্ক	-10.7455
▁নামেৰে	-10.7456
▁পুনৰনাম	-10.7457
(%	-10.7461
আন	-10.7464
=0	-10.7464
▁বেইন	-10.7469
▁প্ৰেৰণেৰ	-10.7488
▁hours	-10.7489
টিক্স	-10.7501
▁ইমপোৰ্টাৰ	-10.7508
▁ব্যবহাৰকাৰী	-10.7517
ংদ	-10.7521
▁প্ৰস্ত	-10.7523
▁অন্তৰ্	-10.7539
▁1.5	-10.754
▁#1	-10.7546
রণ	-10.7548
▁অৱস্থাবাৰ	-10.7553
▁অভিনায়ক	-10.7565
▁বৰ্ত্তমান	-10.7574
cent	-10.7581
জাপানি	-10.7582
▁ওপ	-10.7587
▁নিষ্	-10.7592
▁খেলনা	-10.761
নিৰ্দেশ	-10.7611
সংহতি	-10.7614
account	-10.7618
imited	-10.7623
The	-10.7647
ভিউ	-10.7647
আমি	-10.7648
ুচ	-10.7656
▁দুৰ্	-10.7659
lia	-10.7668
▁শী	-10.7697
▁আপডেইটসমূহ	-10.7702
Ch	-10.7705
়্	-10.776
ncell	-10.7772
abi	-10.7796
ৰিজ	-10.7797
ক্ষমতা	-10.7798
▁অবজেক্টসমূহ	-10.7805
▁পদ্ধতিসমূহ	-10.7808
tal	-10.7811
ze	-10.7813
▁মানুহে	-10.7815
.9	-10.7819
▁দিওঁ	-10.7823
300	-10.7832
▁আঁতৰাব	-10.7845
drive	-10.7848
▁প্ৰশাসন	-10.7852
count	-10.7854
к	-10.7854
▁পাৰস্পৰিক	-10.7854
(242190)	-10.7854
Printer	-10.7854
System	-10.7854
▁DHCP	-10.7854
▁Totem	-10.7854
▁তথ্যভঁৰাল	-10.7854
▁পর্যালোচনা	-10.7854
▁পূৰ্বাবস্থা	-10.7854
▁প্ৰমপ্ট	-10.7854
▁বিদ্যালয়	-10.7854
▁বেণ্ডৱাইড্ত	-10.7854
▁মীমাংসিত	-10.7854
▁মুখ্যমন্ত্ৰী	-10.7854
▁সচেতন	-10.7854
▁সামঞ্জস্য	-10.7854
(846)	-10.7854
Russia	-10.7854
পৰ্য্যাপ্ত	-10.7854
▁Import	-10.7854
▁bi	-10.7854
▁tubs	-10.7854
▁এডাপ্টাৰ	-10.7854
▁প্ৰসঙ্গ	-10.7854
▁বিৱৰক	-10.7854
▁হিন্দু	-10.7854
▁বৰাবৰ	-10.7854
▁সেকেন্ড	-10.7854
▁আতৰুৱা	-10.7854
▁ফ্ৰী	-10.7854
▁EWS	-10.7854
▁পয়েন্ট	-10.7854
(2628)	-10.7854
▁নিচিনা	-10.7854
▁ভৰষা	-10.7854
▁আলোচনী	-10.7854
▁যেতিয়ালৈকে	-10.7854
▁হিতাধিকাৰ	-10.7854
▁অনুগ্ৰহপূৰ্বক	-10.7854
▁PEM	-10.7854
▁নিজকে	-10.7854
▁ৱেবকেম	-10.7854
ARG	-10.7854
▁PPD	-10.7854
input	-10.7854
▁কখনো	-10.7854
▁task	-10.7854
▁অঁকা	-10.7854
▁আজকেৰ	-10.7854
▁স্লাইডশ্ব	-10.7854
▁মাৰ্কাস	-10.7855
ফোৰ্ড	-10.7855
▁হওতে	-10.7855
▁Inline	-10.7856
▁জ্ঞাত	-10.7857
▁সংগ্রহ	-10.7857
▁এনকিউ	-10.7857
ন্ত্র	-10.7857
▁cgroup	-10.7857
▁স্লাইডাৰ	-10.7858
▁মোবাইল	-10.7858
▁ব্যৱহাৰকাৰীজনে	-10.7859
▁কম্প্ৰে	-10.7859
▁আনসাবস্ক্ৰাইব	-10.7859
▁Mehr	-10.7859
▁পুনৰনিৰ্দেশ	-10.7859
▁ছকেৰ	-10.786
▁চিঠি	-10.786
▁বাকী	-10.786
▁লেহেম	-10.7861
desc	-10.7862
▁নিশ্চয়তা	-10.7862
▁দেখতে	-10.7863
▁একমাত্ৰ	-10.7867
ness	-10.7867
▁নোহোৱাকৈ	-10.787
▁বিনষ্ট	-10.7871
▁টাইমাৰ	-10.7872
ভোগ	-10.7875
watch	-10.7878
▁মানুহজন	-10.7878
▁init	-10.788
▁ট্ৰা	-10.788
▁Time	-10.7882
▁নিকট	-10.7884
র্মাণ	-10.7885
▁Bha	-10.7885
▁Te	-10.7886
িঙৰ	-10.7886
▁চিনাক্তকৰণ	-10.7895
▁বাধ্য	-10.7898
খ্যা	-10.7901
ফোন	-10.7901
▁JavaScript	-10.7902
▁বেহা	-10.7904
▁cdrecord	-10.7935
▁স্বা	-10.7936
▁প্ৰাপকৰা	-10.794
exec	-10.7947
স্ম	-10.7955
▁উপাদানসমূহ	-10.7955
▁Group	-10.7967
ডেড	-10.7991
▁উইন্ডোর	-10.7997
াৰ্জ	-10.8002
▁সাৰা	-10.8017
▁অছাল্লাম	-10.8019
▁বেশি	-10.8021
▁মেমোসমূহ	-10.8035
AX	-10.8059
▁বিকল্পটি	-10.8061
menu	-10.8069
Linux	-10.807
short	-10.8073
সলনি	-10.8074
বিষয়	-10.8074
▁account	-10.8095
▁*.	-10.8095
▁বুজি	-10.8097
▁UI	-10.8122
econd	-10.8139
It	-10.8158
▁300	-10.8161
▁বক্সত	-10.8167
▁(174	-10.8171
ছোট	-10.8173
(9	-10.8186
ষি	-10.8188
ren	-10.8197
▁বিকল্পটো	-10.8214
বৃন্দ	-10.8219
IE	-10.8223
▁নিৰ্দেশনা	-10.8252
▁বর্তমান	-10.8256
জ্ঞ	-10.8259
▁উৎপাদ	-10.8282
ture	-10.829
ward	-10.8291
zip	-10.8294
েখে	-10.8297
▁OF	-10.8302
▁খোলো	-10.8304
▁II	-10.8304
ক্ৰিপ্ট	-10.8306
play	-10.8307
method	-10.8308
category	-10.8308
history	-10.8308
▁অসুবিধা	-10.8308
▁উপভোক্তা	-10.8308
▁দিশনিৰ্ণয়	-10.8308
birthday	-10.8308
л	-10.8308
▁Flickr	-10.8308
▁Khordad	-10.8308
▁NUMA	-10.8308
▁stdout	-10.8308
▁strength	-10.8308
▁কেডব্লু	-10.8308
▁কৌশল	-10.8308
▁চিকিৎসক	-10.8308
▁চিড়িতনেৰ	-10.8308
▁দৰমহা	-10.8308
▁পটভূমী	-10.8308
▁পরীক্ষণ	-10.8308
▁পরীক্ষা	-10.8308
▁পুৰভূমিৰ	-10.8308
▁প্ৰশিক্ষণ	-10.8308
▁পৰিপূৰক	-10.8308
▁বৰষুণ	-10.8308
▁লাইচেঞ্চ	-10.8308
▁সেউজীয়া	-10.8308
▁ৰোবোট	-10.8308
proxy	-10.8308
▁Server	-10.8308
▁ক্ষুদ্ৰ	-10.8308
▁বান্ধনী	-10.8308
▁কাৰ্যালয়	-10.8308
▁গুটিয়ে	-10.8308
duration	-10.8308
▁চাওঁক	-10.8308
▁টিপুন	-10.8308
▁জীৱিকা	-10.8308
▁টুলটিপ	-10.8308
▁বিজহব	-10.8308
▁হাৰ্বাৰ	-10.8308
▁মাউস	-10.8308
▁PNM	-10.8308
▁মিনোল	-10.8308
▁আইকণ	-10.8308
ско	-10.8309
▁বাক্যবিন্যাস	-10.8309
▁পঞ্জী	-10.8309
▁শুনিব	-10.8309
Start	-10.8309
ultitran	-10.8309
State	-10.8309
▁ম্যাপ	-10.8309
▁GdkColor	-10.8309
▁শুক্ৰ	-10.8309
প্ৰজাতি	-10.8309
২৪৫	-10.831
definit	-10.831
▁ডিক্ৰিপ্ট	-10.8311
▁বাছাইকৃত	-10.8311
▁পুনৰনামকৰণ	-10.8311
▁Thu	-10.8312
▁গেলৱে	-10.8313
▁ফ্লপি	-10.8313
▁সঁচাকৈ	-10.8313
▁ইনস্টলেশন	-10.8314
▁পুনৰসংহতি	-10.8314
▁এক্সটেন	-10.8315
zone	-10.8316
▁বাৰ্ষিকি	-10.8316
▁জাপানী	-10.8318
▁তেতিয়াহে	-10.8319
▁বিল্ট	-10.8319
▁লঞ্চাৰ	-10.8321
▁ট্যাগটি	-10.8321
target	-10.8322
▁ভো	-10.8322
▁মাৰ্ক	-10.8322
▁0.000	-10.8323
স্টন	-10.8324
▁উন্নয়নকাৰী	-10.8324
▁বিৰল	-10.8324
force	-10.8326
▁নোট	-10.8327
▁স্কেল	-10.8327
▁অপশনটি	-10.8327
▁Blu	-10.8329
▁ফটোবোৰ	-10.8333
▁দেখাও	-10.8335
▁প্ৰমাণিত	-10.8335
ভিযান্ত্ৰিক	-10.8337
়ু	-10.834
▁কৰ্মতালিকা	-10.8341
▁শুভ	-10.8342
গ্ৰহ	-10.8343
ুয়ে	-10.8345
▁JB	-10.8349
▁নিশ্চিতভাৱে	-10.8358
▁আশ্ব	-10.8363
▁সূ	-10.8369
▁শ্রেণী	-10.8371
▁যান্ত্ৰিক	-10.8371
ম্বো	-10.8372
▁যতন	-10.8375
▁তাসেৰ	-10.8375
▁description	-10.8382
▁পেতে	-10.8384
▁মিনি	-10.8384
share	-10.8395
(146	-10.8396
পৃ	-10.8402
▁সূচিত	-10.8404
▁তেখেতে	-10.8405
over	-10.8409
▁TO	-10.8417
▁মেনুত	-10.8427
▁family	-10.8427
দ্দ	-10.8449
পোন	-10.845
▁তুলনাত	-10.8454
্যাশ	-10.8454
সাৰিত	-10.8468
▁2.5	-10.8472
abh	-10.8483
KB	-10.8499
▁কিতাপসমূহ	-10.8504
▁প্ৰৰণেৰ	-10.8512
ীণ	-10.853
kit	-10.8532
▁পেজ	-10.8538
▁ৱেস্ট	-10.8547
পৰ্দা	-10.8548
“	-10.855
ফিল্ড	-10.855
১৪	-10.8555
বাহন	-10.8567
▁মিটা	-10.857
খণ্ড	-10.8575
▁IO	-10.8596
নিউ	-10.8641
▁বাঁও	-10.8643
▁থাকি	-10.8673
700	-10.8693
▁পঢ়ি	-10.8707
▁সেসমূহ	-10.8723
ল্টা	-10.8734
▁150	-10.8763
▁স্বচ্ছ	-10.8772
▁সংগত	-10.8781
{2}	-10.8784
ö	-10.8784
GhostScript	-10.8784
generic	-10.8784
mount	-10.8784
picture	-10.8784
ttached	-10.8784
▁DTMF	-10.8784
▁ShortDayName	-10.8784
▁heading	-10.8784
▁iPod	-10.8784
▁আৱাহন	-10.8784
▁কৃষ্ণ	-10.8784
▁ডাইৰেক্ট	-10.8784
▁তীৰচিহ্ন	-10.8784
▁তৌহীদ	-10.8784
▁দীৰ্ঘ	-10.8784
▁নাথাকিলে	-10.8784
▁নালাগিব	-10.8784
▁নিষিদ্ধ	-10.8784
▁নেদেখুৱাব	-10.8784
▁বিপৰ্যস্ত	-10.8784
▁বৰঙণি	-10.8784
▁যুক্তৰাষ্ট্ৰ	-10.8784
▁শ্বিৰ্ক	-10.8784
▁সিৰিলিক	-10.8784
▁স্বনির্ধারিত	-10.8784
▁সৰ্বমুঠ	-10.8784
▁হাইপাৰভাইছৰ	-10.8784
daemon	-10.8784
machine	-10.8784
schema	-10.8784
▁cdrdao	-10.8784
▁কমপাইল	-10.8784
▁পড়ুন	-10.8784
▁Dynam	-10.8784
OPTION	-10.8785
flag	-10.8785
▁আহোতে	-10.8785
▁বেনামী	-10.8785
▁যোজনা	-10.8785
▁বিশাল	-10.8785
Other	-10.8785
▁পুষ্প	-10.8785
▁MSN	-10.8785
program	-10.8785
লম্বন	-10.8785
Contact	-10.8785
▁বৰুৱা	-10.8785
▁পদবী	-10.8785
▁হাজাৰ	-10.8785
recurrpage	-10.8785
▁তাহলে	-10.8785
▁২০২০	-10.8785
ট্ৰিবিউ	-10.8786
▁ক্লোন	-10.8786
▁থাম্ব	-10.8786
▁July	-10.8787
▁লগআউট	-10.8787
▁ৱাই	-10.8787
spec	-10.8788
marker	-10.8789
▁কেন্দ্ৰীত	-10.879
▁লুকুৱাওক	-10.879
▁আনুভূমিকভাৱে	-10.8792
▁ডাবল	-10.8792
▁বাৰ্ষিকী	-10.8793
▁দুয়োটা	-10.8793
ল্যান্ড	-10.8793
▁পাঠিয়ে	-10.8794
▁এনকোড	-10.8794
▁gtk	-10.8796
▁১৭	-10.8798
▁স্ক্ৰলবাৰ	-10.8798
▁মৃত	-10.8799
▁ড্ৰা	-10.8801
▁Pine	-10.8801
175	-10.8803
▁সংশোধনী	-10.8803
NONE	-10.8804
ৱৰ্তী	-10.8805
▁ৰেকৰ্ডিং	-10.8805
▁শাৰীৰিক	-10.8805
▁জোৰা	-10.881
িলি	-10.8815
ুৱে	-10.882
▁বস্তুসহ	-10.882
▁কৰোঁ	-10.8826
▁প্ৰথমবাৰ	-10.883
▁নিয়মিত	-10.8833
▁নীতিয়ে	-10.8838
▁Sco	-10.8847
▁তথ্যচিত্ৰ	-10.8847
ৱাৰ্ড	-10.885
750	-10.8856
▁মিমি	-10.8856
▁অক্টোবৰত	-10.8858
▁পৰামৰ্শসমূহ	-10.8859
▁কাষ	-10.8864
মুক্ত	-10.8871
▁শাৰীসমূহৰ	-10.8872
gger	-10.8884
▁ৰাখো	-10.8887
▁সত্যতা	-10.889
▁বৰ্ষপঞ্জিতে	-10.8896
form	-10.8905
নাছ	-10.8909
▁ৰোধ	-10.8911
য্	-10.8911
▁পাচ	-10.8914
▁টেগটো	-10.8916
▁পিছ	-10.8944
▁সাধাৰণতে	-10.8966
▁সপ্তাহেৰ	-10.8982
ছু	-10.8986
▁Win	-10.9014
▁গ্ল	-10.9033
spin	-10.9035
সামৰ্থবান	-10.9039
্তন	-10.9045
আউট	-10.9047
সংযোগ	-10.9054
240	-10.9064
▁Xen	-10.9094
▁কৰিছো	-10.9103
উট	-10.9106
চহৰ	-10.9108
▁02:	-10.9125
৫০	-10.913
scr	-10.9152
GB	-10.9155
▁বুজিব	-10.9165
়া	-10.9166
▁অংশগ্ৰহণকাৰীক	-10.9178
▁Min	-10.9183
▁অক্টোবৰ	-10.9208
ফালৰ	-10.9217
▁For	-10.9244
মূল	-10.9257
▁সংহত	-10.926
স্থাপিত	-10.9264
চবাৰ্গ	-10.9266
▁সমকাম	-10.9275
▁অলপ	-10.9278
▁Meh	-10.9278
о	-10.9284
filter	-10.9284
bonding	-10.9284
Settings	-10.9284
niversa	-10.9284
Australia	-10.9284
feature	-10.9284
বিজ্ঞপ্তি	-10.9284
▁COLOR	-10.9284
▁Channel	-10.9284
▁LongDayName	-10.9284
▁TRANSLATORS	-10.9284
▁information	-10.9284
▁scsi	-10.9284
▁অটোক্যাড	-10.9284
▁অদলবদল	-10.9284
▁অভিনন্দন	-10.9284
▁অৰ্থনৈতিক	-10.9284
▁ইথাৰনেট	-10.9284
▁উন্মোচন	-10.9284
▁উৎপত্তি	-10.9284
▁এস্কেইপ	-10.9284
▁চালনাজ্ঞান	-10.9284
▁চৌহদ	-10.9284
▁ডাটাবেস	-10.9284
▁ডেউৰী	-10.9284
▁নেটমাস্ক	-10.9284
▁পাৰম্পৰিক	-10.9284
▁প্ৰতিমূৰ্ত্তি	-10.9284
▁বিকলাংগতা	-10.9284
▁বিপ্লৱ	-10.9284
▁বিস্ফোৰণ	-10.9284
▁ব্যবহারকারীর	-10.9284
▁মাৰ্জিন	-10.9284
▁মেৰিওৱা	-10.9284
▁রয়েছে	-10.9284
▁সময়োত্তীৰ্ণ	-10.9284
▁সম্পর্ক	-10.9284
▁স্বনিৰ্বাচন	-10.9284
iface	-10.9284
▁কাৰ্যকৰী	-10.9284
▁প্রয়োজন	-10.9284
▁বিটৰেইট	-10.9284
▁অক্ষৰমালা	-10.9284
▁বিদেশী	-10.9284
▁প্ৰতীক্ষা	-10.9285
ফাওজান	-10.9285
▁EUR	-10.9285
दी	-10.9285
(2633)	-10.9285
▁আপনার	-10.9285
▁ibus	-10.9285
▁সুগম	-10.9285
Account	-10.9285
▁পৰামিতি	-10.9285
▁বেলুন	-10.9285
▁বহন	-10.9285
▁ভৰ্তি	-10.9285
▁আমালৈ	-10.9285
▁জানতে	-10.9285
▁ভৰসা	-10.9285
▁divisions	-10.9285
▁শুনা	-10.9285
▁২০১৯	-10.9285
▁parallels	-10.9286
▁${	-10.9286
পুনিনিশ্চিতৰূপে	-10.9286
▁পিক্সেলসমূহত	-10.9286
XDG	-10.9286
▁বাজাও	-10.9286
▁পোহৰ	-10.9286
▁ব্লগ	-10.9287
exist	-10.9287
▁গন্তব্যস্থল	-10.9287
▁ফোৰ্ট	-10.9287
▁প্ৰযুক্তিগত	-10.9287
▁অন্যতম	-10.9288
পইন্ট	-10.929
▁তথাপি	-10.929
দর্শ	-10.929
▁পপআপ	-10.929
▁কবৰৰ	-10.9291
sig	-10.9291
▁প্ৰত্যক্ষভাৱে	-10.9292
▁SOCKSv	-10.9296
▁স্বৰূপে	-10.9301
ctor	-10.9304
▁উলম্বভাৱে	-10.9308
▁অংকটো	-10.9313
▁সাইট	-10.9314
▁প্ৰান্তিক	-10.9322
▁ভূল	-10.9322
607	-10.9322
▁চলিছে	-10.9325
VCD	-10.9329
uke	-10.9332
কালীন	-10.9338
▁মঞ্চ	-10.9342
▁নিৰ্ম	-10.9342
▁গেছে	-10.9347
▁শ্ৰ	-10.9362
▁প্ৰকাশনা	-10.9382
দেৱ	-10.9406
▁বিপৰীতে	-10.9422
tree	-10.9434
▁স্থানান্তৰণ	-10.9438
পিএ	-10.9439
▁মেমোটি	-10.9446
▁MP	-10.945
661	-10.9466
থিত	-10.9471
323	-10.948
▁fr	-10.9496
Time	-10.9572
এপ্লিকেচন	-10.9574
xml	-10.9575
TRUE	-10.9575
ঈ	-10.9575
প্ৰমাণ	-10.9575
অৰ্থাৎ	-10.9575
উৎস	-10.9576
সম্ভৱ	-10.9576
বৰ্তমান	-10.9576
দ্বাৰা	-10.9577
অৱস্থা	-10.9577
তথ্য	-10.9577
protect	-10.958
কর্ম	-10.9589
▁কমিট	-10.9589
rate	-10.959
▁জাপান	-10.9597
ৃতি	-10.9616
পুনৰ	-10.9633
▁Apple	-10.9639
▁বিজ	-10.9642
তলত	-10.9655
খোলিবলৈ	-10.9716
কাজ	-10.9739
(139	-10.9786
সংখ্য	-10.979
▁পাৱ	-10.9795
এক্সপ্ৰে	-10.9809
ডবেণ্ড	-10.981
reference	-10.9811
▁remote	-10.9811
plugin	-10.9811
▁প্রস্তুত	-10.9811
Entry	-10.9811
Object	-10.9811
ahjongg	-10.9811
akeup	-10.9811
hidden	-10.9811
policy	-10.9811
position	-10.9811
submit	-10.9811
মুনাজ্জিদ	-10.9811
▁Cheese	-10.9811
▁Control	-10.9811
▁Dolphin	-10.9811
▁Groupwise	-10.9811
▁JPEG	-10.9811
▁Resolution	-10.9811
▁place	-10.9811
▁আতৰাওতে	-10.9811
▁গতিবৰ্ধক	-10.9811
▁চলিটেয়াৰ	-10.9811
▁জিজ্ঞাসা	-10.9811
▁দেখুওৱা	-10.9811
▁প্ৰক্ষিপ্ত	-10.9811
▁পৰিবর্তন	-10.9811
▁বিদ্ৰোহ	-10.9811
▁বীণাবিশেষ	-10.9811
▁য়নেকবেশিচদাচদি	-10.9811
▁যাদৃচ্ছিক	-10.9811
▁লকস্পেইচ	-10.9811
▁লাইব্ৰৰি	-10.9811
▁সংকোচিত	-10.9811
▁সংগঠন	-10.9811
▁সংবেদনশীল	-10.9811
▁সন্ত্ৰাসবাদ	-10.9811
▁স্বীকৃতি	-10.9811
▁স্মৃতিশক্তি	-10.9811
▁ৰাজনীতি	-10.9811
Accept	-10.9811
Include	-10.9811
▁Gnome	-10.9811
▁Hyper	-10.9811
▁জৰ্জিয়	-10.9811
▁পঠাওতা	-10.9811
Location	-10.9811
▁আদালত	-10.9811
▁বৈঠক	-10.9811
▁আজীজ	-10.9811
▁ইংলেণ্ড	-10.9811
▁উভতি	-10.9811
▁এলিয়াচ	-10.9811
▁শুল্ক	-10.9811
contact	-10.9811
▁Awal	-10.9811
▁gpg	-10.9811
▁লুকিয়ে	-10.9811
▁UPS	-10.9811
▁প্ৰতিকৃতি	-10.9811
নিষ্পাপ	-10.9811
▁কিদৰে	-10.9811
▁পৱিত্	-10.9811
▁কেৰিয়াৰ	-10.9811
▁Bug	-10.9811
▁মাঝে	-10.9811
▁ভঙা	-10.9811
চাঁচা	-10.9811
প্ৰচলিত	-10.9811
▁নামাকৰণ	-10.9811
▁নিদিব	-10.9811
▁পণ্য	-10.9811
▁চলুন	-10.9811
ulb	-10.9811
▁বৃক্ক	-10.9811
▁চলছে	-10.9811
▁তেজপুৰ	-10.9812
▁কৰণীয়	-10.9812
▁বিৰোধ	-10.9812
SPI	-10.9812
▁স্ক্ৰোল	-10.9812
▁following	-10.9812
▁খৰছ	-10.9812
razi	-10.9812
preview	-10.9812
▁আপগ্ৰেড	-10.9812
Edit	-10.9813
▁কেন্দ্ৰস্থিত	-10.9813
▁Port	-10.9814
▁চুক্তিপত্ৰ	-10.9814
▁বাৰ্স্ট	-10.9814
▁অনুজ্ঞাপত্ৰ	-10.9815
EMA	-10.9815
▁কাৰনেল	-10.9815
network	-10.9815
▁দুৰ্ঘটনামূলক	-10.9815
▁সফলভাবে	-10.9816
▁2013	-10.9817
108	-10.9817
▁নহওক	-10.9817
▁ৰিভাৰ	-10.9818
▁সোমবাৰ	-10.9818
▁দলবদ্ধ	-10.9819
▁DE	-10.982
▁উপদেশিত	-10.9822
▁03:	-10.9822
▁টিপে	-10.9823
▁04:	-10.9825
VZ	-10.9826
▁টাইপিং	-10.9829
▁কিৱাৰ্ড	-10.983
allow	-10.983
hide	-10.9832
▁বাহিৰেও	-10.9839
▁দুখন	-10.9841
▁বজায়	-10.9842
▁২২	-10.9843
▁ৰাখে	-10.9846
▁আঁতৰাওঁক	-10.9846
▁সংগ্ৰহস্থলেৰ	-10.985
username	-10.9856
year	-10.9857
▁আনন্দ	-10.9857
ৱৰ্ত	-10.9859
III	-10.986
▁নোহোৱাকে	-10.9861
▁ইজাৰ	-10.9862
▁প্রো	-10.9869
down	-10.987
▁একজন	-10.9871
disc	-10.9875
চিঅ	-10.9887
▁ঘটা	-10.9891
▁ধাৰাই	-10.9893
্তব্য	-10.9896
▁ঘটনাটি	-10.9906
▁106	-10.9908
▁It	-10.9911
▁পৰীক্ষামূলক	-10.9913
for	-10.9922
▁প্ৰকল্পটি	-10.9929
ণ্ড্র	-10.9937
(2778	-10.9951
▁টোকাসমূহ	-10.9974
Date	-10.9976
দেন	-10.9977
▁(209	-10.9991
▁লুপ	-11
events	-11.0014
লোম	-11.0017
tool	-11.0076
▁সূচনাপ্ৰদান	-11.0079
থী	-11.0081
ration	-11.0088
বাইন্ডিং	-11.0101
▁Kan	-11.0113
ইষ্ট	-11.0121
current	-11.0129
নিৰ্বাচিত	-11.013
কেৱল	-11.0132
মিটাৰ	-11.015
▁স্বীকাৰ	-11.0162
উলকি	-11.0167
ın	-11.0231
arga	-11.0275
▁VI	-11.0301
▁সম্বন্ধ	-11.0312
cap	-11.0315
ark	-11.0319
▁(172	-11.0348
সোঁফাল	-11.0359
▁আমন্ত্ৰ	-11.0364
ব্যাপী	-11.0365
▁Gdk	-11.0366
▁Network	-11.0366
article	-11.0366
ل	-11.0366
(240783)	-11.0366
(24223)	-11.0366
Antarctica	-11.0366
Firefox	-11.0366
encoding	-11.0366
something	-11.0366
ন্টাৰ্কটিকা	-11.0366
যুগ্ম	-11.0366
▁COMMAND	-11.0366
▁TimeBrazil	-11.0366
▁UNIX	-11.0366
▁WebDAV	-11.0366
▁virtio	-11.0366
▁অসীমিত	-11.0366
▁অৰ্থনীতি	-11.0366
▁আইআৰডিএ	-11.0366
▁আন্তঃপৃষ্ট	-11.0366
▁ইটালিয়ান	-11.0366
▁ইফফচো	-11.0366
▁ইয়ামাহা	-11.0366
▁উত্থাপন	-11.0366
▁উত্পাদক	-11.0366
▁উপলক্ষে	-11.0366
▁কম্পাইল	-11.0366
▁কৰ্তৃপক্ষ	-11.0366
▁চিক্ৰেট	-11.0366
▁ড্ৰেগ	-11.0366
▁দ্বৈত	-11.0366
▁পাঠ্যক্ৰম	-11.0366
▁বাইণ্ডিং	-11.0366
▁বাহ্যিক	-11.0366
▁ব্যৱকৰোঁতা	-11.0366
▁ভাৰ্চুয়াল	-11.0366
▁ভৌতিক	-11.0366
▁মন্দিৰ	-11.0366
▁যথাযত	-11.0366
▁লেপটপ	-11.0366
▁সাবমেনু	-11.0366
▁স্মাৰ্টকাৰ্ড	-11.0366
▁ৰেখাংকন	-11.0366
▁ৱালপেপাৰ	-11.0366
START	-11.0366
খ্ৰীষ্ট	-11.0366
▁Display	-11.0366
▁উদ্ভূত	-11.0366
▁কিলোবাইট	-11.0366
▁কিলোমিটাৰ	-11.0366
▁ছেটিংছ	-11.0366
▁পৰিবহণ	-11.0366
▁ভভারতীয়	-11.0366
▁শিঙা	-11.0366
▁tmp	-11.0366
▁জিনিষ	-11.0366
▁বিনিয়োগ	-11.0366
▁বিভেদন	-11.0366
▁সম্মতি	-11.0366
у	-11.0366
▁Pango	-11.0366
▁দিৱস	-11.0366
▁শনিবাৰ	-11.0366
▁বিবৃতি	-11.0366
▁"{2}"	-11.0366
▁নিদিয়ে	-11.0366
▁পাঠাতে	-11.0366
▁কৃষক	-11.0366
▁usb	-11.0366
▁বাওফাল	-11.0367
▁(492)	-11.0367
▁গিনি	-11.0367
▁মুল্য	-11.0367
▁বিনেস	-11.0367
▁থাকক	-11.0367
▁অধিনত	-11.0367
▁ৰিয়াদ	-11.0367
watchlist	-11.0367
▁ওয়াই	-11.0367
পেতিতে	-11.0367
াধিক	-11.0368
Bras	-11.0368
▁hex	-11.0368
▁বাংলাদেশ	-11.0368
(621)	-11.0368
(620)	-11.0368
▁বুঢ়া	-11.0368
▁ডায়েল	-11.0368
▁মিশ্ৰণ	-11.0368
▁স্টেচন	-11.0369
ever	-11.0369
▁লিপী	-11.0369
▁গঢ়ি	-11.0369
▁হস্তচালিতভাৱে	-11.0369
edia	-11.037
entry	-11.037
RAM	-11.037
▁মূলধন	-11.0371
▁ইন্টাৰ্	-11.0371
▁সাগৰ	-11.0371
▁যৌথৰূপে	-11.0371
▁আঁতৰাওঁতে	-11.0372
ING	-11.0373
▁প্ৰশাসনিক	-11.0373
▁উজ্জ্বলকৰণ	-11.0373
▁$1',	-11.0374
Device	-11.0374
▁(31)	-11.0374
▁জনাওক	-11.0375
rently	-11.0376
▁আৱৰ্ত	-11.0376
▁কমেও	-11.0376
▁প্রদান	-11.0376
মিলি	-11.0377
১৫	-11.0378
▁2012	-11.0378
▁সবিশেষ	-11.0378
▁ব্যৱহাৰকাৰীজনক	-11.038
▁ছুটি	-11.0381
▁প্ৰস্তাবিত	-11.0384
▁Back	-11.0384
▁অভিগম্য	-11.0388
▁২৬	-11.0389
▁বগা	-11.0389
▁ৱেবপৃষ্ঠাটি	-11.0392
▁মাইক্ৰ	-11.0394
lette	-11.0395
▁অনুচ্ছেদেৰ	-11.0402
ফ্ট	-11.0404
▁(16)	-11.0414
pul	-11.0422
▁দুআ	-11.0422
_$1	-11.0425
▁যুৱক	-11.0439
ফ্ৰি	-11.0444
▁অনুলিপিপ্ৰাপক	-11.0453
recurr	-11.0456
▁nm	-11.0473
▁2.2	-11.0502
৪৫	-11.0513
▁Tra	-11.0546
▁সুখ	-11.0549
251	-11.0554
▁শুক	-11.0615
▁প্রাপ্ত	-11.0646
বৰ্তন	-11.0665
অঞ্চল	-11.0707
URL	-11.0716
পঞ্জিকা	-11.0719
CPU	-11.0721
▁পিক্সেলে	-11.0757
চেন্ট	-11.0801
ছাইট	-11.0818
long	-11.0827
older	-11.0876
▁খুলি	-11.0896
চাম	-11.0903
bster	-11.0918
▁পেকেট	-11.0931
▁আগবঢ়াই	-11.0951
শাসন	-11.0951
ঋ	-11.0953
в	-11.0954
Document	-11.0955
▁পুস্তিকা	-11.0955
Signature	-11.0955
Status	-11.0955
interface	-11.0955
warning	-11.0955
ی	-11.0955
হস্তমৈথুন	-11.0955
▁Change	-11.0955
▁GameName	-11.0955
▁Thaani	-11.0955
▁dhcp	-11.0955
▁font	-11.0955
▁navigation	-11.0955
▁আধুনিক	-11.0955
▁ঘুৰাওক	-11.0955
▁চাৰপাশ	-11.0955
▁টেলিপোৰ্ট	-11.0955
▁তুৰ্কি	-11.0955
▁নিঃশব্দ	-11.0955
▁নিবিচাৰে	-11.0955
▁ন্যায়ালয়	-11.0955
▁পরিবর্তন	-11.0955
▁পুয়েৰ্তো	-11.0955
▁প্রেরকের	-11.0955
▁প্ৰতিনিদ্ধিত্ব	-11.0955
▁প্ৰভৃতি	-11.0955
▁প্ৰযুক্তিবিদ্যা	-11.0955
▁পৰিচালিত	-11.0955
▁পৰ্যালোচনা	-11.0955
▁বানপানী	-11.0955
▁ভট্টাচাৰ্য	-11.0955
▁মুহাম্মাদ	-11.0955
▁শক্তিশালী	-11.0955
▁সংলঘ্ন	-11.0955
▁সংৰক্ষীত	-11.0955
▁সঙ্গীত	-11.0955
▁স্ট্ৰাকচাৰ	-11.0955
▁হস্তান্তৰ	-11.0955
▁ৰক্ষাকৰ্ত্তা	-11.0955
д	-11.0955
▁অভিবাদন	-11.0955
▁কাৰ্টুন	-11.0955
▁ছেন্ট্ৰাল	-11.0955
▁টেছলা	-11.0955
▁ষ্টিফেন	-11.0955
▁দেওবাৰ	-11.0955
▁পেটেণ্ট	-11.0955
▁ফৰম্যাট	-11.0955
▁বিবাহৰ	-11.0955
▁connection	-11.0955
▁নিৰ্ণয়	-11.0955
▁স্টিকি	-11.0955
▁ক্ৰিকেট	-11.0955
▁পড়তে	-11.0955
(831)	-11.0955
▁cgi	-11.0955
▁বৈয়াম	-11.0955
Language	-11.0955
▁লেখো	-11.0955
▁পচন্দ	-11.0955
▁ফল্চ	-11.0955
delay	-11.0955
▁শত্ৰু	-11.0955
▁কনটেক্সট	-11.0955
▁পাহৰি	-11.0955
▁ৰঞ্জিত	-11.0955
▁Doe	-11.0955
▁ৰেটিং	-11.0955
▁Adar	-11.0955
▁ইফালে	-11.0955
▁কিধৰণে	-11.0955
FILE	-11.0955
▁কৰবেন	-11.0955
▁স্থিতি	-11.0955
সাক্ষাৎকার	-11.0955
ৰ্গামী	-11.0955
▁ট্ৰান্স	-11.0955
▁vCPU	-11.0956
▁নথিভুক্ত	-11.0956
▁তোলক	-11.0956
▁ৰাখুন	-11.0956
▁পৰিচালনব্যৱস্থা	-11.0956
▁ঋণ	-11.0956
▁max	-11.0956
▁ভূমি	-11.0956
▁"2"	-11.0956
(4744)	-11.0956
offline	-11.0957
চিল্কচ	-11.0957
redirect	-11.0957
▁শিকক	-11.0957
profile	-11.0957
big	-11.0957
updated	-11.0957
▁base	-11.0958
▁চচমকানো	-11.0958
▁কেয়াৰ	-11.0958
context	-11.0959
token	-11.096
েলুলাৰ	-11.0961
▁নহোৱাকৈ	-11.0961
angle	-11.0961
▁SVCD	-11.0963
▁নিমজ	-11.0963
▁লুকা	-11.0964
France	-11.0965
ৰ্মুখি	-11.0966
▁এক্সট্ৰ	-11.0966
▁SIM	-11.0966
▁উৎসস্থল	-11.0966
}}',	-11.0967
▁লুকাই	-11.0968
▁2020	-11.0971
▁(14)	-11.0972
▁পঠাই	-11.0975
printer	-11.0975
▁৩২	-11.0975
**	-11.0976
▁More	-11.0977
▁ৰেণ্ডাৰ	-11.098
recent	-11.0981
Devhelp	-11.0983
▁1.8	-11.0986
▁দেখানো	-11.0986
▁00:	-11.0986
▁চালনা	-11.0989
▁পলিচীয়ে	-11.099
▁সেয়ে	-11.0993
▁প্ৰোগ্ৰামটি	-11.1001
fini	-11.1008
▁বেকিং	-11.101
▁৬০	-11.1014
অৰ্ধ	-11.1016
াষ্ট্	-11.102
আব্	-11.1025
▁জনলৈ	-11.1029
▁নিবন্ধন	-11.1031
▁চৰকাৰী	-11.1034
▁বিয়প	-11.1036
াৱী	-11.1044
িন্ন	-11.105
প্ৰণালী	-11.1062
▁dis	-11.1065
Not	-11.1085
▁ভিতৰ	-11.1097
▁Maha	-11.1098
Comm	-11.1122
only	-11.1155
JP	-11.1178
disk	-11.1181
660	-11.1198
kar	-11.1205
ণ্ডি	-11.1235
৩৫	-11.1235
সোফাল	-11.1236
▁শেল	-11.1252
প্ৰেছ	-11.1261
▁(177	-11.1268
িংটন	-11.1269
▁1.2	-11.1274
▁ব্যৱহাৰকৰোঁতা	-11.1291
ভিত্তি	-11.1294
748	-11.1295
বন্টন	-11.1337
214	-11.1338
system	-11.1342
উদাহৰণস্বৰূপ	-11.1344
টুলবাৰ	-11.1344
বিন্দু	-11.1344
TLS	-11.1344
বিশ্বাস	-11.1344
নথিপত্ৰ	-11.1345
আইকন	-11.1345
সাক্ষাৎকাৰ	-11.1345
গুপ্তশব্দ	-11.1345
মিনিট	-11.1347
অন্ত	-11.1351
সংযুক্ত	-11.1352
নিয়ম	-11.1353
▁বিষ	-11.1356
শব্দ	-11.1359
োল্ড	-11.1374
ুকু	-11.1387
▁vo	-11.1399
▁পৰিণতি	-11.1503
▁সন্দৰ্ভ	-11.1503
ুণা	-11.1514
multi	-11.1523
626	-11.1528
▁auth	-11.1542
▁শো	-11.1553
‍	-11.1554
▁Dev	-11.1557
▁বাৰ্ষিক	-11.1557
▁গেছ	-11.1558
benchmark	-11.1576
▁নীৰিক্ষ	-11.1576
▁হস্তচালিত	-11.1576
▁ৰাষ্ট্ৰ	-11.1578
▁দ্বন্দ্ব	-11.1579
м	-11.1579
gress	-11.1579
▁ঊৰ্ধ্ব	-11.1579
Benga	-11.158
▁গবেষনা	-11.158
function	-11.158
refix	-11.158
▁আটলান্টিক	-11.158
VirtualBox	-11.158
accelerator	-11.158
bookmarks	-11.158
reason	-11.158
session	-11.158
template	-11.158
ঐচ্ছিক	-11.158
ন্যূনতম	-11.158
ভিগেটৰ	-11.158
▁Bahman	-11.158
▁INDIA	-11.158
▁MacOS	-11.158
▁Messages	-11.158
▁growisofs	-11.158
▁অনিৰাপদ	-11.158
▁অপৰিবৰ্তিত	-11.158
▁অ্যাপলিকেশন	-11.158
▁আনুসাঙ্গিক	-11.158
▁আপেক্ষিক	-11.158
▁আবহাওয়া	-11.158
▁ইনস্ট্যান্স	-11.158
▁উদ্দিষ্ট	-11.158
▁এলুমিনিয়াম	-11.158
▁কেনেদৰে	-11.158
▁ক্ৰচহেয়াৰসমূহ	-11.158
▁চফ্টওৱেৰ	-11.158
▁চিৰিলিক	-11.158
▁চ্প্ৰিংচ	-11.158
▁ড্ৰুইড	-11.158
▁ত্ৰুটী	-11.158
▁ধাঁধা	-11.158
▁নিয়ন্ত্ৰন	-11.158
▁নিৰ্দ্দিষ্ট	-11.158
▁বাওঁহাতৰ	-11.158
▁বিশ্লেষক	-11.158
▁মনোনিবেষ	-11.158
▁লাগিছে	-11.158
▁শুধুমাত্র	-11.158
▁সংসাধন	-11.158
▁সদৃশ	-11.158
▁সবের্াচ্চ	-11.158
▁স্প্লিট	-11.158
▁স্যুইট	-11.158
▁২০১৮	-11.158
▁ৰিসোৰ্স	-11.158
Format	-11.158
invalid	-11.158
▁SELinux	-11.158
▁when	-11.158
▁আহ্বান	-11.158
▁বাৰংবাৰ	-11.158
▁সালসলনি	-11.158
(46198)	-11.158
privacy	-11.158
▁class	-11.158
▁অনিয়মিত	-11.158
▁কৰ্মশালা	-11.158
▁শব্দকোষ	-11.158
▁সাইফাৰ	-11.158
Count	-11.158
please	-11.158
▁চেহাৰা	-11.158
Shift	-11.158
▁জয়ন্ত	-11.158
▁নীতিমালা	-11.158
▁বিখ্যাত	-11.158
গভৰ্ন	-11.158
▁VNC	-11.158
micro	-11.158
▁তোমাৰ	-11.158
▁শ্ৰমিক	-11.158
▁আকিবলে	-11.158
anner	-11.158
▁thread	-11.158
▁চান্টা	-11.158
(2478)	-11.158
▁GIF	-11.158
▁TCP	-11.158
▁সাপ্লি	-11.158
▁সন্মতি	-11.158
▁GAL	-11.158
▁টয়লেট	-11.158
▁vCenter	-11.158
▁লাইফ	-11.158
▁ইবাদত	-11.158
▁ৰেন্ডাৰ	-11.158
▁GPS	-11.158
▁prog	-11.158
▁স্ক্ৰীন	-11.158
দিনব্যাপী	-11.1581
small	-11.1581
▁than	-11.1581
▁বিভক্ত	-11.1581
▁সার্ভারের	-11.1581
▁স্বআৰম্ভ	-11.1581
▁Inbox	-11.1582
▁যাচাই	-11.1582
▁সাবফোল্ডাৰ	-11.1582
▁যেসব	-11.1582
▁জোড়া	-11.1582
▁এনট্ৰি	-11.1583
▁vnc	-11.1583
▁শিশুসকলৰ	-11.1584
▁লেখাচিত্ৰ	-11.1584
▁Nav	-11.1585
▁শিক্ষণ	-11.1585
▁গাঢ়	-11.1585
▁হাউছ	-11.1585
▁আৰোপ	-11.1586
▁বিশ্ল	-11.1587
লবাৰ্ট	-11.1588
▁শোনা	-11.1588
End	-11.1588
▁আইলেণ্ড	-11.1589
▁টানেল	-11.159
▁ভোট	-11.159
▁আৰক্ষীয়ে	-11.159
▁মাৰ্কাৰ	-11.159
▁বিষয়টোৰ	-11.1591
▁CIN	-11.1592
ত্‍	-11.1592
▁সংগতি	-11.1595
▁জগত	-11.1595
োৱে	-11.1596
▁Tir	-11.1598
▁পেজাৰ	-11.1598
▁২৮	-11.1599
▁আগবাঢ়িবলৈ	-11.16
▁প্ৰতিবাদ	-11.16
(65)	-11.1601
▁কলিতা	-11.1602
▁শৰ্ট	-11.1603
▁অপ্ৰত্যাশিতৰূপে	-11.1604
▁ৰাজ্যিক	-11.1605
▁উপকৃত	-11.161
গুলোকে	-11.1611
▁পেকেটসমূহ	-11.1611
nav	-11.1613
▁টাইল	-11.1616
▁50%	-11.1618
▁উন্নতি	-11.1621
▁0.5	-11.1622
▁ৰোগী	-11.1634
▁ডেকা	-11.1642
▁গীত	-11.1644
▁প্ৰতিনিধিত্ব	-11.1645
2312	-11.1661
Mode	-11.1661
▁জামা	-11.1675
▁সত্	-11.1691
ীক্ষা	-11.1712
▁10.0	-11.1715
১০	-11.1742
য্য	-11.1782
পৰিস্থিতিতে	-11.1784
▁800	-11.1807
গুই	-11.1828
367	-11.1857
ছেকেণ্ডত	-11.1867
ফেন	-11.1874
Day	-11.1927
rames	-11.1958
শাহ	-11.1978
পৃথকিত	-11.1997
স্ক্ৰিন	-11.2007
নিৰ্ধাৰিত	-11.201
HTML	-11.2011
সক্ৰিয়	-11.2012
Folder	-11.2019
▁ভাৰ্	-11.2019
ৱিকি	-11.2026
মূল্য	-11.2027
দৃষ্টি	-11.2042
পোৱাৰ	-11.2045
প্ৰকৃত	-11.2051
▁100000	-11.2062
ডব্লিউ	-11.2153
▁ফ্লেশ	-11.2195
ONE	-11.222
▁দায়বদ্ধ	-11.2228
▁sys	-11.2236
parent	-11.2236
▁সীমাবদ্ধ	-11.2238
▁গভীৰ	-11.2238
▁অবিকল্প	-11.2239
সন্মত	-11.2241
board	-11.2245
createacc	-11.2246
▁Translat	-11.2246
(12657)	-11.2246
Office	-11.2246
Orientation	-11.2246
Source	-11.2246
split	-11.2246
আগবাঢ়ক	-11.2246
নির্ধাৰিত	-11.2246
▁ASCII	-11.2246
▁August	-11.2246
▁Buddy	-11.2246
▁GStreamer	-11.2246
▁SMART	-11.2246
▁STARTTLS	-11.2246
▁Science	-11.2246
▁Version	-11.2246
▁অগ্ৰাধিকাৰ	-11.2246
▁অনুসারে	-11.2246
▁আগবঢ়াব	-11.2246
▁আনুষ্ঠানিক	-11.2246
▁ইণ্টাৰনেট	-11.2246
▁ইলেকট্ৰনিক	-11.2246
▁ইস্টাৰ্ন	-11.2246
▁উত্পাটন	-11.2246
▁উপসমষ্টি	-11.2246
▁কাৰ্যকাৰিতা	-11.2246
▁ক্যাৰেট	-11.2246
▁চিকিত্সা	-11.2246
▁টেমপ্লেইট	-11.2246
▁ডেটাবেছ	-11.2246
▁ধুমুহা	-11.2246
▁ধৰ্মঘট	-11.2246
▁নিম্নৰেখিত	-11.2246
▁নেতৃত্ব	-11.2246
▁নৱেম্বৰ	-11.2246
▁পুৰোভূমি	-11.2246
▁প্ৰদূষণ	-11.2246
▁ফাউণ্ডেশ্যন	-11.2246
▁ফেষ্টিভেল	-11.2246
▁বহিষ্কৰণ	-11.2246
▁বিঘ্নিত	-11.2246
▁বিমানবন্দৰ	-11.2246
▁যথাযথ	-11.2246
▁শৈক্ষিক	-11.2246
▁সংপৃক্তকৰণ	-11.2246
▁সংযোজিত	-11.2246
▁সম্প্ৰসাৰিত	-11.2246
▁স্বাক্ষর	-11.2246
▁হাস্পতাল	-11.2246
▁হিব্ৰু	-11.2246
▁ৰেঙনী	-11.2246
(24207)	-11.2246
(45721)	-11.2246
Check	-11.2246
ashion	-11.2246
queue	-11.2246
recentchanges	-11.2246
▁February	-11.2246
▁PATH	-11.2246
▁Spamassassin	-11.2246
▁অস্ত্ৰোপচাৰ	-11.2246
▁আলজেৰিয়া	-11.2246
▁কোঁৱৰ	-11.2246
▁পেৰেন্ট	-11.2246
▁পৰিবৰ্তক	-11.2246
▁মনোযোগ	-11.2246
▁সংঘটন	-11.2246
Organis	-11.2246
г	-11.2246
▁ইউনিকোড	-11.2246
▁ডাটাবেছ	-11.2246
▁দোকান	-11.2246
▁ভভিজা	-11.2246
▁মেসেজ	-11.2246
stream	-11.2246
▁পাৰ্শ্বৰূপ	-11.2246
▁প্ৰাক্তন	-11.2246
▁পৰিষদ	-11.2246
propos	-11.2246
▁স্বতন্ত্ৰ	-11.2246
▁again	-11.2246
▁ইউনিট	-11.2246
▁এড়িয়ে	-11.2246
▁বক্ল	-11.2246
▁ব্ৰেণ্ড	-11.2246
Only	-11.2246
▁অগ্নি	-11.2246
▁এনেকুৱা	-11.2246
▁পুৰুষ	-11.2246
▁যত্ন	-11.2246
NTLM	-11.2246
▁পেকেজ	-11.2246
▁চুম্বক	-11.2246
▁ইউৰো	-11.2246
▁মছলা	-11.2246
▁NAT	-11.2246
▁সংশয়	-11.2246
▁সন্দেহ	-11.2246
▁সঁচায়ক	-11.2246
▁খোঁজ	-11.2246
Org	-11.2246
guest	-11.2246
▁ভৰাওক	-11.2247
ুদ্দিন	-11.2247
preferences	-11.2247
Paper	-11.2247
permission	-11.2247
(839)	-11.2247
▁owner	-11.2247
▁PST	-11.2247
retty	-11.2247
parse	-11.2247
▁কপিৰাইট	-11.2247
▁উচ্চতম	-11.2247
▁গ্ৰহন	-11.2247
iaries	-11.2248
▁নগদ	-11.2248
▁অপৰাধ	-11.2248
▁কাৰ্যক্ষমতা	-11.2248
▁selected	-11.2248
▁গ্ৰাফিকেল	-11.2248
(619)	-11.2248
▁ৰিস্ক	-11.2249
▁তাঁৰ	-11.2249
▁কাৰ্যসূচী	-11.2249
▁সর্ব	-11.2249
▁বাক্য	-11.2249
▁রেল	-11.225
▁পুনঃস্থাপন	-11.225
▁অঙ্কুৰ	-11.225
▁সমিতি	-11.225
▁শূণ্যস্থান	-11.225
▁মেট্ৰিক	-11.225
▁গৃহীত	-11.2251
▁পুনৰাবৃত্তিমূলক	-11.2251
▁দূৰত্ব	-11.2251
▁উপস্থাপন	-11.2251
▁স্বাধীনতা	-11.2253
▁নিৰীক্ষ	-11.2253
▁অৱগত	-11.2254
▁গভীৰতা	-11.2254
▁ভাৱবিনিময়ী	-11.2256
▁ইউৰোপিয়ান	-11.2256
চিয়েল	-11.2257
▁পুলিচ	-11.2257
▁অলপতে	-11.2257
▁খোলোতে	-11.2258
▁Yau	-11.2259
▁সংকট	-11.2259
চৰ্চা	-11.226
▁প্রদর্শনের	-11.2261
make	-11.2262
▁Jum	-11.2262
▁পৰিকল্পনাকাৰী	-11.2262
▁অধিকাংশ	-11.2263
core	-11.2263
▁(500)	-11.2265
same	-11.2269
▁সুজু	-11.2269
▁৩১	-11.227
▁ব্যবহাৰযোগ্য	-11.227
▁অৱস্থাসূচক	-11.2274
টেন্টৰ	-11.2274
▁বাঢ়ি	-11.2275
▁ব্যৱস্থাপনাঃ	-11.228
▁MY	-11.2293
3.5	-11.2296
▁প্রস্থ	-11.2297
▁কোৰিয়া	-11.2299
▁গ্লেজ	-11.231
▁ফোল্ডারের	-11.232
▁অধিসূচ	-11.2328
ফিক্স	-11.2341
▁নিৰ্ভৰতা	-11.2343
ঘাই	-11.2343
doe	-11.2355
বৃহস্পতিবাৰ	-11.2362
▁নথিপত্ৰপ্ৰণালী	-11.2372
গ্ৰেড	-11.2385
online	-11.2389
▁Dai	-11.2406
March	-11.2409
hell	-11.2446
ুক্	-11.2452
▁sex	-11.2463
▁da	-11.252
0.0	-11.2533
৪৩	-11.2554
িষ্কা	-11.257
ফ্ল	-11.2593
টেক্স	-11.2617
গ্ৰহণকৰ্তাবৃন্দ	-11.2665
519	-11.2673
২৯	-11.2683
পিক্সেল	-11.272
status	-11.2724
from	-11.2725
মিডিয়া	-11.2725
পঠোৱা	-11.2725
আৰম্ভ	-11.2726
সংস্কৰণ	-11.2726
অজ্ঞাত	-11.2726
ৰেচম	-11.2726
অধিক	-11.2727
আইডি	-11.2733
অন্য	-11.2734
IPv	-11.2738
সেৱা	-11.2744
3.0	-11.2753
proc	-11.2781
point	-11.2784
myco	-11.2797
512	-11.2838
বেশি	-11.2859
▁খোল	-11.2859
▁3.1	-11.2883
▁(233	-11.2947
contributions	-11.296
ification	-11.2961
strong	-11.2961
▁regex	-11.2961
▁ইণ্ডেন্ট	-11.2961
▁উল্লম্ব	-11.2961
▁টেলিপেথী	-11.2961
▁নিষেধ	-11.2961
▁প্যাকেজ	-11.2961
Certificate	-11.2961
Config	-11.2961
Desktop	-11.2961
Shahrivar	-11.2961
active	-11.2961
dialog	-11.2961
distribute	-11.2961
overburn	-11.2961
popup	-11.2961
অপেশাদার	-11.2961
ছিষ্টেম	-11.2961
▁Bugzilla	-11.2961
▁Libisofs	-11.2961
▁OpenGL	-11.2961
▁Plasma	-11.2961
▁Radio	-11.2961
▁TIFF	-11.2961
▁pronunciation	-11.2961
▁quality	-11.2961
▁receive	-11.2961
▁shanbe	-11.2961
▁software	-11.2961
▁অতিমাত্রা	-11.2961
▁অপ্ৰয়োজনীয়	-11.2961
▁অপ্ৰাকাশিত	-11.2961
▁অ্যাকউন্ট	-11.2961
▁অৰুণাচল	-11.2961
▁আন্তঃৰাষ্ট্ৰীয়	-11.2961
▁এক্সটেন্ডেড	-11.2961
▁এন্টাৰপ্ৰাইজ	-11.2961
▁কাৰ্য্যকলাপ	-11.2961
▁চিৰিয়াখানা	-11.2961
▁ছাড়ুন	-11.2961
▁ডিচ্চাৰ্জ	-11.2961
▁ডিসপ্লে	-11.2961
▁থিয়েটাৰ	-11.2961
▁ধনাদায়	-11.2961
▁ধোঁৱা	-11.2961
▁পাকিস্তান	-11.2961
▁পিক্সমেপ	-11.2961
▁প্রাধান্য	-11.2961
▁প্ৰজাতন্ত্ৰ	-11.2961
▁প্ৰায়োগিক	-11.2961
▁পৰিৱহন	-11.2961
▁বিষাক্ত	-11.2961
▁শংকৰদেৱ	-11.2961
▁শিক্ষনবীশ	-11.2961
▁শ্ৰেণীবিভাজন	-11.2961
▁সঙ্কলন	-11.2961
▁সম্ভাৱ্য	-11.2961
▁সহযোগিতা	-11.2961
▁সাঙ্কেতিক	-11.2961
▁সোণোৱাল	-11.2961
exemplarCity	-11.2961
▁December	-11.2961
▁secure	-11.2961
▁ال	-11.2961
▁চিমসংযোগ	-11.2961
▁যতিচিহ্ন	-11.2961
▁যোৱাকালী	-11.2961
Islam	-11.2961
graph	-11.2961
▁আরম্ভ	-11.2961
▁চাউথ	-11.2961
TEXT	-11.2961
▁শিকাৰু	-11.2961
▁উচ্চাৰণ	-11.2961
▁সেশান	-11.2961
▁স্ক্যান	-11.2961
▁অঁ্যা	-11.2961
▁কেচুৱা	-11.2961
▁সেইবাবে	-11.2961
▁KiB	-11.2961
▁Sided	-11.2961
▁আলোকপাত	-11.2961
▁জুবিন	-11.2961
▁REC	-11.2961
▁বেভেলৰ	-11.2961
▁(18+)	-11.2961
kvm	-11.2961
▁কার্য	-11.2961
feed	-11.2961
▁%1$	-11.2961
▁PDF	-11.2961
▁ভালেমান	-11.2961
▁হৰফেৰ	-11.2961
Info	-11.2961
▁kbit	-11.2961
▁Auto	-11.2961
▁মূল্যবান	-11.2961
Full	-11.2961
▁ঠিকনাবহী	-11.2961
তলিকায়	-11.2961
▁দহন	-11.2961
▁(*.	-11.2961
▁মিডিয়াৱিকি	-11.2961
رد	-11.2961
▁ৰঞ্জন	-11.2961
▁শৃংখল	-11.2961
(826)	-11.2961
▁প্ৰতিষ্ঠাপক	-11.2962
▁close	-11.2962
ан	-11.2962
▁~/.	-11.2962
▁ৰেঞ্জ	-11.2962
▁ক্লৌন	-11.2962
▁গোচৰ	-11.2962
▁নাগৰিকত্ব	-11.2962
তত্ত্ব	-11.2963
▁মিলিমিটাৰ	-11.2963
(630)	-11.2963
▁ৰেডিও	-11.2963
▁মাইগ্রে	-11.2963
দৈত্য	-11.2964
.239	-11.2964
mark	-11.2964
hostname	-11.2965
ANI	-11.2965
CRL	-11.2965
▁ইউজাৰ	-11.2965
verb	-11.2965
soft	-11.2965
▁Vino	-11.2965
▁(71)	-11.2966
▁ধ্ব	-11.2966
▁গরম	-11.2966
অফিচৰ	-11.2967
বুৰ্গ	-11.2968
▁পৰিপূৰ্ণ	-11.297
timeout	-11.297
পাদন	-11.297
▁2014	-11.2971
▁বোৰ্ডে	-11.2972
▁মাস্টাৰ	-11.2973
▁Data	-11.2973
▁কেতিয়াবা	-11.2975
২০১০	-11.2975
ক্রিয়া	-11.2975
rank	-11.2976
▁numa	-11.2978
▁বছা	-11.2978
▁ভংগ	-11.2978
▁সীমাবদ্ধতা	-11.298
▁সীমান্ত	-11.298
lash	-11.298
▁লগাওক	-11.2982
▁2006	-11.2983
▁কালত	-11.2984
▁Bhar	-11.2992
stand	-11.2995
েশ্বন	-11.2999
mple	-11.3005
অৰুণ	-11.3009
▁bir	-11.3014
310	-11.3018
comment	-11.3023
ৈয	-11.307
Share	-11.3082
াপ্তি	-11.3154
োৰ্চ	-11.3165
েশ্বৰ	-11.319
2007	-11.3192
খাই	-11.3193
গুয়ে	-11.3258
▁ইনফ	-11.3281
822	-11.3285
বেদন	-11.3335
arba	-11.334
2.1	-11.3469
libvirt	-11.3492
স্বাভাৱিক	-11.3494
জ্যোতি	-11.3494
উন্নয়ন	-11.3494
প্ৰাথমিক	-11.3494
ব্যবস্থা	-11.3494
বিশিষ্ট	-11.3495
বৃদ্ধি	-11.3495
প্ৰিন্ট	-11.3495
ডিফল্ট	-11.3495
সৰ্বাধিক	-11.3495
ব্যক্তিগত	-11.3495
দ্ৰুত	-11.3496
অনুগ্ৰহ	-11.3496
উলম্ব	-11.3498
আপনাৰ	-11.35
ভাৰতীয়	-11.3504
Web	-11.3507
প্ৰাপকসহ	-11.3601
▁আঁতৰাওঁ	-11.3669
bus	-11.3701
▁শক্ত	-11.3716
▁ভাৱবিনিময়	-11.3719
▁কম্পোস	-11.3722
▁দৈৰ্ঘ	-11.3725
নিৰ্ব্বাচ	-11.3729
unknown	-11.373
▁photo	-11.373
(12658)	-11.373
(242162)	-11.373
Daemon	-11.373
Developer	-11.373
Organizer	-11.373
bridge	-11.373
location	-11.373
result	-11.373
tasklist	-11.373
territory	-11.373
গোহাঁইৰ	-11.373
য়েলচুদাচুদিছভি	-11.373
সাংবাদিক	-11.373
▁Abies	-11.373
▁BIOS	-11.373
▁CUPS	-11.373
▁CalDAV	-11.373
▁Libvirt	-11.373
▁Mission	-11.373
▁Photo	-11.373
▁copy	-11.373
▁individual	-11.373
▁vCalendar	-11.373
▁vendor	-11.373
▁অগ্রাধিকাৰ	-11.373
▁অথোৰিটি	-11.373
▁অসামৰিক	-11.373
▁আগবঢ়ায়	-11.373
▁আন্তৰ্জাতিক	-11.373
▁আমদানী	-11.373
▁উইজাৰ্ড	-11.373
▁উলিওৱা	-11.373
▁কনফিগারেশন	-11.373
▁গ্ৰেপ্তাৰ	-11.373
▁গৱেষক	-11.373
▁টাৰ্মিনাল	-11.373
▁ডকাইতি	-11.373
▁ডানদিকে	-11.373
▁ডিজিটাল	-11.373
▁তথ্যসংগ্ৰহ	-11.373
▁ত্রুটি	-11.373
▁ত্ৰিভূজ	-11.373
▁ধ্ৰুৱক	-11.373
▁নিম্নৰেখাঙ্কন	-11.373
▁নেইমস্পেইচ	-11.373
▁নেটওয়াৰ্ক	-11.373
▁পরিচিতিদের	-11.373
▁পাসওয়ার্ড	-11.373
▁পুঞ্জীভূত	-11.373
▁পুৰস্কাৰ	-11.373
▁প্ৰান্তৰেখা	-11.373
▁পৰিৱৰ্ত্তন	-11.373
▁ফাৰ্মৱেৰ	-11.373
▁ফিংগাৰপ্ৰিন্ট	-11.373
▁বিক্ষিপ্ত	-11.373
▁ব্ল্যাকজ্যাক	-11.373
▁ভগিনীসংঘ	-11.373
▁ভাইৰেল	-11.373
▁মছজিদ	-11.373
▁মাৰ্কেটিং	-11.373
▁সমান্তৰাল	-11.373
▁সামগ্রী	-11.373
▁স্তুতি	-11.373
▁হিন্দি	-11.373
▁হিসেবে	-11.373
▁ৰাছুলুল্লা	-11.373
▁ৱিকিপিডিয়া	-11.373
চমত্কার	-11.373
তিনিচুকীয়া	-11.373
▁Express	-11.373
▁অবৰোধ	-11.373
▁গ্ৰন্থপঞ্জী	-11.373
▁দূৰ্ঘটনা	-11.373
▁ধার্য	-11.373
▁নির্দেশ	-11.373
▁প্ৰগ্ৰেছ	-11.373
▁ব্ৰাজিল	-11.373
▁শ্ৰীগুণম	-11.373
▁Class	-11.373
▁Country	-11.373
▁Java	-11.373
▁Zhong	-11.373
▁pluginview	-11.373
▁এক্সপ্ৰেশন	-11.373
▁গিয়েছে	-11.373
▁প্ৰচ্ছদ	-11.373
(46558)	-11.373
Downkeyboard	-11.373
INFO	-11.373
merge	-11.373
qcow	-11.373
▁commit	-11.373
▁common	-11.373
▁ইফেক্ট	-11.373
▁ছাৰ্বিয়া	-11.373
▁পাউণ্ড	-11.373
▁ফৰমায়	-11.373
▁ৰাছুল	-11.373
Delete	-11.373
▁Pause	-11.373
▁জৈৱ	-11.373
▁সঘনে	-11.373
▁ৰুচীয়	-11.373
(13080)	-11.373
joh	-11.373
▁ইন্টাৰফে	-11.373
▁হিমন্ত	-11.373
loop	-11.373
▁Black	-11.373
▁পৰ্টেল	-11.373
ণ্ড্রুন্দীবর়	-11.373
▁অধ্যক্ষ	-11.373
▁অভিলেখ	-11.373
▁জীয়াই	-11.373
▁বিশদ	-11.373
Upkeyboard	-11.373
▁গুগল	-11.373
▁এগিয়ে	-11.373
fail	-11.373
▁শৰীৰ	-11.373
▁import	-11.373
▁ইনক্ৰিপ্টেড	-11.373
▁দখল	-11.373
▁Hard	-11.373
NGO	-11.373
▁ঈশ্বৰ	-11.373
▁ইহতক	-11.373
▁ট্ৰিগাৰ	-11.373
▁ভৰণি	-11.373
▁802.1	-11.373
progress	-11.373
▁more	-11.373
(845)	-11.373
KEY	-11.373
▁দবোৱা	-11.373
▁পাশে	-11.3731
▁উলিয়াই	-11.3731
টকিয়	-11.3731
▁ধাৰণক্ষমতা	-11.3731
▁ফিলিপ	-11.3731
▁কুশল	-11.3731
▁বনাব	-11.3731
UTC	-11.3731
▁পৰোক্ষ	-11.3731
▁গ্ৰুপেৰ	-11.3731
▁ৰেখাচিত্ৰ	-11.3731
▁নেটলিঙ্ক	-11.3731
▁চলাকালীন	-11.3731
▁Out	-11.3731
▁অপসাৰিত	-11.3731
▁চেকবক্স	-11.3731
▁যাত্ৰী	-11.3731
▁সূত্ৰ	-11.3731
▁(1295	-11.3732
peer	-11.3732
Porn	-11.3732
▁ডেভেল	-11.3732
▁ৰীমা	-11.3732
upload	-11.3732
াবধানতা	-11.3733
MAIL	-11.3733
▁তাৰপিছত	-11.3734
▁WiFi	-11.3734
▁uid	-11.3734
ন্চিঅ	-11.3734
▁চাইলে	-11.3734
▁যন্ত্র	-11.3734
▁মাৰ্কআপ	-11.3734
▁Media	-11.3734
▁inmenu	-11.3734
▁পেশী	-11.3734
▁পাবলিক	-11.3735
▁আগবঢ়াইছে	-11.3735
▁স্বল্প	-11.3735
▁বৃত্তি	-11.3736
▁বার্তাগুলি	-11.3736
ENT	-11.3736
▁৫৯	-11.3737
▁Book	-11.3737
▁সুবিধাজনক	-11.3737
▁Home	-11.3738
▁চিফাৰ	-11.3739
▁কাৰ্যতালিকা	-11.374
▁PIM	-11.3741
▁DBus	-11.3742
কোমল	-11.3743
াৰ্ভাৰ	-11.3744
▁পাৰোঁ	-11.3744
▁কাৰীম	-11.3746
ল্যাটিন	-11.3746
-12-	-11.3747
▁নতুনতম	-11.3748
▁খালী	-11.3748
েহেতু	-11.3748
▁07:	-11.3749
▁শ্লোভাক	-11.3753
tits	-11.3762
আমীন	-11.3768
৭০	-11.379
সেভাৰ	-11.3835
5,000	-11.3846
▁দিনটোৰ	-11.385
▁প্ৰদানকাৰীসকল	-11.389
▁ৰাখ	-11.3907
▁(2651	-11.4036
জাবলৈ	-11.41
▁ৰাশি	-11.4135
DSA	-11.4152
৪৮	-11.4252
346	-11.4273
অকল	-11.4316
পৰিস্ৰাৱক	-11.4325
section	-11.4327
গৃহ	-11.4327
PGP	-11.4328
সূচনা	-11.4328
ওপৰত	-11.4329
ব্যৱহৃত	-11.4329
জড়িত	-11.4336
▁exe	-11.4386
▁সম্পাদ	-11.4412
▁পঞ্চম	-11.4503
172	-11.451
▁পাৰবে	-11.4541
▁স্লাইড	-11.4554
▁স্বাধীন	-11.4555
▁memo	-11.4559
region	-11.4563
র়ি	-11.4563
field	-11.4563
Split	-11.4563
কনট্ৰাস্ট	-11.4563
▁মঙ্গোলিয়া	-11.4563
BSSID	-11.4563
Screen	-11.4563
manager	-11.4563
resetpass	-11.4563
▁Clutter	-11.4563
▁Tevet	-11.4563
▁বাহুসন্ধিমূল	-11.4563
▁সন্মিলন	-11.4563
107621	-11.4563
Battery	-11.4563
CalItem	-11.4563
Dictionary	-11.4563
Family	-11.4563
GDateTime	-11.4563
Statistic	-11.4563
charset	-11.4563
endOptionsWithin	-11.4563
metadata	-11.4563
orrupt	-11.4563
python	-11.4563
screen	-11.4563
yrillic	-11.4563
নৱমুছলিম	-11.4563
সংগৃহীত	-11.4563
▁--------	-11.4563
▁ALSA	-11.4563
▁Bahof	-11.4563
▁Client	-11.4563
▁Films	-11.4563
▁GnuPG	-11.4563
▁PostScript	-11.4563
▁Smith	-11.4563
▁VoIP	-11.4563
▁WiMAX	-11.4563
▁happen	-11.4563
▁published	-11.4563
▁reply	-11.4563
▁sendmail	-11.4563
▁wifi	-11.4563
▁অপাৰেশনটি	-11.4563
▁অৱলোকন	-11.4563
▁আনপ্লাগ	-11.4563
▁আপেক্ষক	-11.4563
▁আৰ্গুমেন্ট	-11.4563
▁ইনস্ট্যান্ট	-11.4563
▁ইমুলেটৰ	-11.4563
▁উদযাপন	-11.4563
▁এপ্লিকেশ্বন	-11.4563
▁ওয়াৰেন্টি	-11.4563
▁কেৰেক্টাৰ	-11.4563
▁ঘূৰ্ণীবতাহ	-11.4563
▁চূড়ান্ত	-11.4563
▁জাভাস্ক্ৰিপ্ট	-11.4563
▁টেন্র্ফ	-11.4563
▁ট্ৰেইলাৰ	-11.4563
▁ডিক্ৰিপষণ	-11.4563
▁তিলাৱাত	-11.4563
▁তীব্ৰ	-11.4563
▁নুশুধিব	-11.4563
▁নেটওয়ার্ক	-11.4563
▁পৃথিবীৰ	-11.4563
▁প্ৰতিযোগিতা	-11.4563
▁প্ৰত্যাহ্বান	-11.4563
▁প্ৰশ্নোত্তৰ	-11.4563
▁প্ৰাইভেট	-11.4563
▁পৰিবৰ্ত্তন	-11.4563
▁পৰীক্ষাৰ্থীৰ	-11.4563
▁বিষ্ণু	-11.4563
▁মহানগৰীৰ	-11.4563
▁মাল্টিকাস্ট	-11.4563
▁মেয়াদপূৰ্তীৰ	-11.4563
▁মোৎজাৰ্ট	-11.4563
▁শীঘ্ৰ	-11.4563
▁সতৰ্কতামূলক	-11.4563
▁সাক্ষৰতা	-11.4563
▁সাবস্ক্ৰিপশন	-11.4563
▁সাম্প্ৰদায়িক	-11.4563
▁স্ক্ৰিনছেইভাৰ	-11.4563
▁স্বৰাঘাত	-11.4563
▁স্যাম্পেল	-11.4563
▁হ্যান্ডলাৰ	-11.4563
▁হ্যান্ডেল	-11.4563
▁২০১৭	-11.4563
▁ৰিকাৰ্ছিভ	-11.4563
▁ৰেজিস্ট্ৰি	-11.4563
দেউতাক	-11.4563
▁Style	-11.4563
▁find	-11.4563
▁অ্যাকশন	-11.4563
▁আগুৱাই	-11.4563
▁এপিফেনি	-11.4563
▁চেহেৰা	-11.4563
▁তোমাক	-11.4563
▁সময়ৰেখা	-11.4563
▁সাবস্ক্র	-11.4563
confirm	-11.4563
▁আল্ফা	-11.4563
▁আৰ্মেনিয়	-11.4563
▁কাহিনী	-11.4563
▁ঘড়ী	-11.4563
▁দম্পতি	-11.4563
▁দিয়োতে	-11.4563
▁নোটবুক	-11.4563
▁ব্ৰেকেট	-11.4563
▁লিগেল	-11.4563
align	-11.4563
▁ইটালিক	-11.4563
▁কাৰখানা	-11.4563
▁চানেকি	-11.4563
▁মাছাইল	-11.4563
▁Fact	-11.4563
External	-11.4563
define	-11.4563
peak	-11.4563
▁গগৈ	-11.4563
▁টোগল	-11.4563
buddy	-11.4563
▁প্ৰসস্ত	-11.4563
▁সদস্যপদ	-11.4563
▁registered	-11.4563
▁লুকআপ	-11.4563
▁free	-11.4563
▁এনেদৰে	-11.4563
Social	-11.4563
▁জৰুৰীকালীন	-11.4563
▁শ্বেয়াৰ	-11.4563
(4559)	-11.4563
স্নাতক	-11.4563
▁(4795)	-11.4563
▁END	-11.4563
avail	-11.4563
▁বাগিচা	-11.4563
▁নিদিলে	-11.4563
▁মঙল	-11.4563
▁এনেধৰণৰ	-11.4563
▁কাৰ্সাৰ	-11.4563
▁জিতেন্দ্	-11.4563
specialpages	-11.4563
▁বিস্তৃত	-11.4563
▁সোধক	-11.4563
▁DST	-11.4563
▁দোষ	-11.4564
▁ছাইড	-11.4564
▁সঙ্গে	-11.4564
wait	-11.4564
▁(127)	-11.4564
▁ইঞ্জিনিয়াৰ	-11.4564
هر	-11.4564
▁tty	-11.4564
▁কম্বোবক্স	-11.4564
ত্যুত্ত	-11.4564
আচলতে	-11.4564
▁বাঁওফালে	-11.4564
▁details	-11.4564
▁আয়োগৰ	-11.4565
▁ইনফিল	-11.4565
▁সৰ্বাত্মক	-11.4565
এপ্ৰিল	-11.4565
▁নিম্নবৰ্তী	-11.4565
▁স্টেপাৰ	-11.4565
▁April	-11.4565
▁ইন্টাৰেক্ট	-11.4565
▁নাছিৰ	-11.4565
▁রঙ	-11.4565
▁তাগিদটিকে	-11.4565
▁without	-11.4565
▁enable	-11.4565
▁Save	-11.4565
(4773)	-11.4566
dump	-11.4566
▁draw	-11.4566
▁প্লেইনটেক্সট	-11.4566
house	-11.4566
▁বেইনচ্	-11.4567
just	-11.4567
ট্রি	-11.4567
▁পৰিচিতিদেৰ	-11.4568
▁চলাচল	-11.4568
▁সুচী	-11.4568
▁পৌৰ	-11.4569
▁বীজবিলাক	-11.4569
▁ট্ৰেডিং	-11.4569
▁আতৰত	-11.4569
▁প্রকাশ	-11.457
▁Apr	-11.457
pcs	-11.4573
Dei	-11.4578
চিত্র	-11.4578
Recent	-11.4579
sysinfo	-11.4579
▁সৰ্বস্বত্	-11.4579
ক্লান্ত	-11.4585
▁Aza	-11.4588
▁Bura	-11.4591
▁বেনাৰ	-11.4638
RAN	-11.4639
▁বন্ধুসকল	-11.4647
▁3.6	-11.4657
ক্ষেত্ৰে	-11.4691
asha	-11.4717
▁Author	-11.4748
▁1.6	-11.4755
নিহিত	-11.4801
#12	-11.4802
বাঁওফাল	-11.4823
PAL	-11.4846
এইচভি	-11.4873
২৪	-11.4874
(1052)	-11.4974
limit	-11.5032
াজাতীয়	-11.5089
িগম	-11.5135
কানাড	-11.5189
family	-11.5233
Group	-11.5233
false	-11.5234
বহিয়ের	-11.5234
root	-11.5234
Assam	-11.5235
Yahoo	-11.5236
ঈক্ষণকামী	-11.5236
অধিবেশন	-11.5236
লিখনযোগ্য	-11.5237
টাইম	-11.5237
উচ্চ	-11.5237
প্ৰথম	-11.5238
ঠিকনা	-11.5238
SSL	-11.5238
বাতিল	-11.5239
পৰিবৰ্তন	-11.5239
আমাৰ	-11.5241
vlan	-11.5253
ঘাট	-11.5269
ৰাজ্য	-11.5276
ALL	-11.5342
AND	-11.5394
পিছত	-11.5413
▁নিশ্চয়	-11.5455
কল্পিত	-11.546
direct	-11.5468
iaomi	-11.5469
▁under	-11.5469
launch	-11.5471
▁অভ্যন্তৰ	-11.5472
с	-11.5472
project	-11.5472
register	-11.5472
CONF	-11.5472
MediaWiki	-11.5472
খোকামনি	-11.5472
Chooser	-11.5472
Sign	-11.5472
[[:$1]]	-11.5472
control	-11.5472
normal	-11.5472
summary	-11.5472
ইন্ডিয়ানা	-11.5472
▁Connector	-11.5472
▁blkio	-11.5472
▁security	-11.5472
▁দৰ্শনাৰ্থী	-11.5472
▁যোৰহাট	-11.5472
▁সমৃদ্ধ	-11.5472
(13011)	-11.5472
(153581)	-11.5472
(23557)	-11.5472
-2022-	-11.5472
America	-11.5472
Install	-11.5472
Priority	-11.5472
Reference	-11.5472
SendOptionsAfter	-11.5472
background	-11.5472
balance	-11.5472
empty	-11.5472
freenode	-11.5472
highlight	-11.5472
missing	-11.5472
primary	-11.5472
publisher	-11.5472
ইউক্ৰেইনিয়	-11.5472
ট্ৰেডমাৰ্ক	-11.5472
দুঃখিত	-11.5472
হঁতক	-11.5472
▁(4335)	-11.5472
▁CORBA	-11.5472
▁Dasher	-11.5472
▁Drive	-11.5472
▁PlayerName	-11.5472
▁Tweet	-11.5472
▁WebKit	-11.5472
▁abbreviation	-11.5472
▁output	-11.5472
▁support	-11.5472
▁symlink	-11.5472
▁through	-11.5472
▁watchdog	-11.5472
▁whatsthis	-11.5472
▁অগ্ৰভূমিৰ	-11.5472
▁অনধিকাৰ	-11.5472
▁অপৰ্যাপ্ত	-11.5472
▁অবচ্ছেদ	-11.5472
▁অসংহিত	-11.5472
▁অ্যালগোৰিদম	-11.5472
▁আক্ৰমণ	-11.5472
▁আখিৰাত	-11.5472
▁আবৰ্জিত	-11.5472
▁আলোকচিত্ৰবিদ্যা	-11.5472
▁ইন্টাৰপ্ৰেটাৰ	-11.5472
▁ইন্দোনেশিয়া	-11.5472
▁ইব্ৰাহীম	-11.5472
▁উন্নীতকৰণ	-11.5472
▁এক্সেপশন	-11.5472
▁এনক্যাপসুলেট	-11.5472
▁কাৰ্যকলাপ	-11.5472
▁কুঁৱলী	-11.5472
▁গেইটৱে	-11.5472
▁ছিমছাম	-11.5472
▁জাৰ্নাল	-11.5472
▁তত্বাৱধান	-11.5472
▁দৈনন্দিন	-11.5472
▁নাৰ্লিকাৰ	-11.5472
▁ন্যায়াধীশ	-11.5472
▁পাঁচমিশালী	-11.5472
▁পূৰ্বনিৰ্দিষ্ট	-11.5472
▁প্ৰত্যাবৰ্তন	-11.5472
▁পৰিশ্ৰুত	-11.5472
▁ফ্যাক্টৰি	-11.5472
▁ফ্রেমৱৰ্কটো	-11.5472
▁বাঁদিকে	-11.5472
▁বাৰেমহীয়া	-11.5472
▁ব্যাপাৰে	-11.5472
▁মনোৰঞ্জন	-11.5472
▁মন্ত্ৰালয়	-11.5472
▁মিৰ্জাখানী	-11.5472
▁মূলনীতিসমূহ	-11.5472
▁মেঘাচ্ছন্ন	-11.5472
▁লিথিয়াম	-11.5472
▁লুণ্ঠন	-11.5472
▁সভ্যতা	-11.5472
▁সময়ছোৱাত	-11.5472
▁সর্বোচ্চ	-11.5472
▁সাইডবাৰ	-11.5472
▁সাৰ্ভিস	-11.5472
▁সৃজনীশক্তি	-11.5472
▁সৰাসৰি	-11.5472
▁হটস্পট	-11.5472
▁ৰঙৰনক্সা	-11.5472
▁ৰেডিয়ানসমূহ	-11.5472
বিনামূল্যে	-11.5472
▁Copyright	-11.5472
▁fame	-11.5472
▁keepalive	-11.5472
▁উইলিয়াম	-11.5472
▁উৰ্দু	-11.5472
▁চাবফোল্ডাৰসমূহ	-11.5472
▁ব্যাঘাত	-11.5472
▁ভাইসৰ	-11.5472
▁শ্ৰীমন্ত	-11.5472
▁সদস্যভুক্তি	-11.5472
Monday	-11.5472
remaining	-11.5472
▁উন্মুক্ত	-11.5472
▁চেণ্টাৰ	-11.5472
▁টাচপেড	-11.5472
▁প্ৰাৰম্ভসময়ত	-11.5472
▁বসন্ত	-11.5472
▁স্বত্বন্ত্ৰ	-11.5472
Content	-11.5472
ी	-11.5472
▁জাহাজ	-11.5472
▁প্রকল্প	-11.5472
▁প্ৰেফিক্স	-11.5472
▁শিক্ষাৰ্থী	-11.5472
▁হিউমেন	-11.5472
(623)	-11.5472
ishvas	-11.5472
▁ডিগ্ৰী	-11.5472
▁মাথোন	-11.5472
▁RNG	-11.5472
▁ইসলাম	-11.5472
▁লাগিল	-11.5472
Write	-11.5472
third	-11.5472
▁Font	-11.5472
▁নিযুক্তি	-11.5472
▁প্ৰসাদ	-11.5472
(617)	-11.5472
▁চিনাকি	-11.5472
▁DUE	-11.5472
▁Direct	-11.5472
▁sink	-11.5472
▁চাঁওক	-11.5472
▁(4789)	-11.5472
▁সহযোগত	-11.5472
xref	-11.5472
▁গণেশ	-11.5472
▁(5573)	-11.5472
▁(2620)	-11.5472
▁TiB	-11.5472
▁ফলবেক	-11.5472
▁শুধি	-11.5472
▁উলিয়াব	-11.5472
▁ৰস্টাৰলৈ	-11.5472
▁ধাতু	-11.5472
▁পংতি	-11.5472
▁গেৰেজ	-11.5472
cache	-11.5472
▁লোকেইল	-11.5472
▁ইচ্চ	-11.5473
Render	-11.5473
partition	-11.5473
▁(1060)	-11.5473
panel	-11.5473
▁বৃত্তিধাৰী	-11.5473
▁ঋণাত্মক	-11.5473
ordad	-11.5473
▁ফাললৈ	-11.5473
▁ৰূট	-11.5473
▁জাকাত	-11.5473
▁অনুৰাগ	-11.5473
▁নকশা	-11.5473
▁থাকাকালীন	-11.5473
caption	-11.5473
download	-11.5473
▁GSM	-11.5473
▁কিয়নো	-11.5473
▁২০১৫	-11.5473
(23380)	-11.5473
SET	-11.5473
▁ব্লকগুলোকে	-11.5473
▁বন্দৰ	-11.5473
vino	-11.5474
▁ৰুকন	-11.5474
▁অনুকূল	-11.5474
▁ছুপাৰ	-11.5474
udha	-11.5474
▁ইমাম	-11.5474
▁ৰূপভেদ	-11.5474
▁was	-11.5474
(4753)	-11.5474
ları	-11.5474
▁Savera	-11.5475
Big	-11.5475
▁জনাইছে	-11.5475
Opera	-11.5475
▁কীলক	-11.5475
▁অতীত	-11.5475
▁গুপ্ত	-11.5476
vani	-11.5476
ফাতহ	-11.5478
Disk	-11.5478
▁টিয়াৰ	-11.5479
পত্র	-11.5479
কোঠাৰ	-11.548
HRC	-11.548
esser	-11.548
▁বেমাৰ	-11.5489
▁পংচ	-11.5497
প্লাৱন	-11.5501
uff	-11.5506
ndro	-11.5523
ব্ৰিটিশ	-11.5528
প্লাছ	-11.5712
▁সংকল	-11.5738
কূল	-11.5775
(546)	-11.5894
ultimedia	-11.5963
▁কপিপ্ৰাপক	-11.5983
▁কৌট	-11.6085
েণ্ডাৰ	-11.6106
1.5	-11.6213
স্বাক্ষৰ	-11.6223
মাধ্যম	-11.6224
চমকানো	-11.6232
খেলনা	-11.6234
Read	-11.6234
বৈকল্পিক	-11.6235
চিন্তা	-11.6236
word	-11.6236
পদ্ধতি	-11.6236
নিৰ্বাচক	-11.6236
পূৰ্বপ্ৰদৰ্শন	-11.6237
সামগ্ৰী	-11.6237
ইছলাম	-11.6237
ড্ৰাইভাৰ	-11.6237
ডিভাইচ	-11.6237
প্ৰৱেশ	-11.6237
অনুপস্থিত	-11.6238
বিৱৰণ	-11.6238
অনুসন্ধান	-11.6238
অবৈধ	-11.6238
স্থানান্তৰ	-11.6238
থেকে	-11.6239
▁বৃহস্পতি	-11.6298
▁hour	-11.6302
▁recur	-11.6308
horiz	-11.634
▁ইতিমধ্য	-11.6418
▁disable	-11.6421
▁দুৰ্ভাগ্য	-11.6427
▁গ্ৰাফিক	-11.6468
▁ব্যৱহ	-11.6469
▁মিশ্ৰ	-11.647
▁পৰিপ্ৰেক্ষ	-11.6472
optical	-11.6472
▁draft	-11.6472
ভগভিজা	-11.6472
▁ভবিষ্য	-11.6472
▁মেকানিক	-11.6472
(12942)	-11.6472
(24211)	-11.6472
(45716)	-11.6472
Authentication	-11.6472
Distance	-11.6472
MeetingResp	-11.6472
Plugin	-11.6472
Quality	-11.6472
Register	-11.6472
United	-11.6472
always	-11.6472
strftime	-11.6472
গাঁঠনি	-11.6472
পেলিনড্ৰম	-11.6472
েপ্টেম্বৰ	-11.6472
▁(36263)	-11.6472
▁(44874)	-11.6472
▁(628)	-11.6472
▁ASSAMESE	-11.6472
▁CRTC	-11.6472
▁DATA	-11.6472
▁Hijjah	-11.6472
▁INBOX	-11.6472
▁Issued	-11.6472
▁Khabar	-11.6472
▁MIUI	-11.6472
▁NUMBER	-11.6472
▁October	-11.6472
▁Organization	-11.6472
▁PackageKit	-11.6472
▁PulseAudio	-11.6472
▁Shvat	-11.6472
▁attachment	-11.6472
▁either	-11.6472
▁focus	-11.6472
▁milliseconds	-11.6472
▁mkisofs	-11.6472
▁unsigned	-11.6472
▁şey	-11.6472
▁অংশগ্ৰহনকাৰী	-11.6472
▁অভাৰৰাইট	-11.6472
▁অসুবিধেও	-11.6472
▁আকস্মিক	-11.6472
▁আৰোহণ	-11.6472
▁আৰ্বজনা	-11.6472
▁আৱিষ্কাৰ	-11.6472
▁আৱিস্কাৰ	-11.6472
▁ইঞ্চিউৰেন্স	-11.6472
▁ইথিওপিক	-11.6472
▁উষ্ণতা	-11.6472
▁এনিমেষণ	-11.6472
▁এলপিভিডি	-11.6472
▁ওৱাহ্হাব	-11.6472
▁কৃত্ৰিম	-11.6472
▁কেম্ব্ৰিজ	-11.6472
▁কোম্পানি	-11.6472
▁গ্লোবাল	-11.6472
▁চাৰিওফালে	-11.6472
▁ডিলিমিটাৰ	-11.6472
▁ততোধিক	-11.6472
▁তাপমাত্ৰা	-11.6472
▁তেওলোকৰ	-11.6472
▁তৎক্ষণাৎ	-11.6472
▁তৎক্ষনাৎ	-11.6472
▁নিম্নৰেখা	-11.6472
▁নিষ্পত্তি	-11.6472
▁পটভুমি	-11.6472
▁পাঞ্জাবী	-11.6472
▁পিক্সবাফ	-11.6472
▁প্ৰব্ৰজক	-11.6472
▁প্ৰভাৱশালী	-11.6472
▁বক্তৃতা	-11.6472
▁ভূঁইকপ	-11.6472
▁মৃতদেহ	-11.6472
▁মেগ্নিফায়াৰ	-11.6472
▁সংগঠিত	-11.6472
▁সঘনাই	-11.6472
▁সন্নিৱিষ্ট	-11.6472
▁সফ্টওয়্যাৰ	-11.6472
▁সিহঁতৰ	-11.6472
▁সৰ্বশ্ৰেষ্ঠ	-11.6472
▁হাইস্কুল	-11.6472
▁হাজৰিকা	-11.6472
▁ৰেফাৰেন্স	-11.6472
(231213)	-11.6472
Virtual	-11.6472
found	-11.6472
▁GtkFileChooser	-11.6472
▁listener	-11.6472
▁means	-11.6472
▁playback	-11.6472
▁আকৰ্ষণ	-11.6472
▁আঞ্চলিক	-11.6472
▁কম্পোজ	-11.6472
▁দলগতভাৱে	-11.6472
▁প্যানেল	-11.6472
▁প্রসেস	-11.6472
▁বেগবৰ্দ্ধক	-11.6472
▁মুম্বাই	-11.6472
▁স্পৰ্শ	-11.6472
(231237)	-11.6472
(43279)	-11.6472
(45720)	-11.6472
HOME	-11.6472
মাইক্ৰোফোন	-11.6472
▁vcpupin	-11.6472
▁টুকুৰা	-11.6472
▁টোকাবহী	-11.6472
▁ট্ৰাফিক	-11.6472
▁দুৰ্ঘটনাজনিত	-11.6472
▁পুনৰআকাৰ	-11.6472
▁প্লাগেবল	-11.6472
▁প্ৰদৰ্শণ	-11.6472
▁বহীৰ্তম	-11.6472
▁বিসংগত	-11.6472
▁মচোতে	-11.6472
(32843)	-11.6472
Error	-11.6472
▁(4994)	-11.6472
▁libxl	-11.6472
▁উদ্বোধ	-11.6472
▁প্ৰদত্ত	-11.6472
▁লেনদেন	-11.6472
▁স্কাইপ	-11.6472
Update	-11.6472
authenticat	-11.6472
প্ৰফেচৰ	-11.6472
▁বণ্টন	-11.6472
▁ঘনত্ব	-11.6472
▁ভাসমান	-11.6472
▁Clear	-11.6472
▁দৰ্শানো	-11.6472
▁প্রথম	-11.6472
▁ৰেইটিং	-11.6472
Manual	-11.6472
▁সাক্ষী	-11.6472
jpg	-11.6472
▁বোনাস	-11.6472
গৃহিণী	-11.6472
width	-11.6472
অকপট	-11.6472
▁(4805)	-11.6472
▁kind	-11.6472
িয়্যাহ	-11.6472
▁যেখানে	-11.6472
ভূমিত	-11.6472
▁trash	-11.6472
▁(491)	-11.6472
▁চশমা	-11.6472
▁পাকিছ	-11.6472
Help	-11.6472
require	-11.6472
▁পিকিউ	-11.6472
▁এতিয়ালৈকে	-11.6472
(625)	-11.6472
lexis	-11.6472
▁NFS	-11.6472
▁ভাৰ্জিন	-11.6472
▁গ্ৰিড	-11.6472
▁TPM	-11.6472
▁আলাদা	-11.6472
▁বিদআত	-11.6472
▁যোনটো	-11.6472
▁dict	-11.6472
▁ব্যতীত	-11.6472
(23381)	-11.6472
▁ব্যবহাৰকারীৰ	-11.6472
▁ইন্ধন	-11.6472
▁DSL	-11.6473
▁BMP	-11.6473
▁ছওম	-11.6473
special	-11.6473
▁দাঁত	-11.6473
▁গ্ৰাফীয়	-11.6473
Visual	-11.6473
▁দুৰত্ব	-11.6473
▁ভিলেজ	-11.6473
▁মাল্টিমিডিয়া	-11.6473
▁(496)	-11.6473
▁PPP	-11.6473
▁কুইজ	-11.6473
▁অন্তৰ্বৰ্তী	-11.6473
▁BSD	-11.6473
▁কাঁড়চিহ্ন	-11.6473
▁ওৱেব	-11.6473
▁সংকটপূৰ্ণ	-11.6473
2002;	-11.6473
▁বাক্যাংশ	-11.6473
▁প্ৰৌব	-11.6473
▁গৰ্ভাৱস্থাত	-11.6473
▁স্মৃতি	-11.6473
▁এইখানে	-11.6473
▁তেওঁলোকক	-11.6473
▁Cdr	-11.6473
▁ক্ৰেতা	-11.6473
▁(156)	-11.6473
▁কাপোৰ	-11.6473
▁কৈছিল	-11.6473
প্ৰমানকাৰী	-11.6474
▁ভগ্নাংশ	-11.6474
▁হাৰিয়ে	-11.6474
▁কাইলৈ	-11.6474
▁পিছফাল	-11.6474
▁পৰিচয়লনা	-11.6474
মিহলি	-11.6475
মাতৃৰ	-11.6476
Meta	-11.6477
▁চনলৈ	-11.6479
CTN	-11.648
▁সঁজা	-11.6481
▁আঙুলি	-11.6482
afe	-11.6489
▁বীচ	-11.6499
স্টকাৰ্ড	-11.6514
▁0.3	-11.6519
পায়ু	-11.6573
(81)	-11.6605
▁পৃষ্	-11.665
ফোল্ডারগুলি	-11.6677
large	-11.6707
access	-11.7347
সতৰ্ক	-11.7347
শ্ৰেণী	-11.7347
job	-11.7347
শৈলী	-11.7348
পছন্দ	-11.7348
উদাহৰণ	-11.7348
স্বাস্থ্য	-11.7348
পৰিচয়	-11.7348
দ্বিতীয়	-11.7348
Free	-11.7349
updat	-11.7409
▁যুৱ	-11.7422
তিষ্ঠানিক	-11.7423
আঙুল	-11.7573
বৰ্জনা	-11.7575
▁Jul	-11.7578
▁অৰ্হতা	-11.758
▁সার্ভার	-11.7581
▁ইন্টাৰেক	-11.7581
lose	-11.7582
▁কাঁড়	-11.7583
mission	-11.7583
gram	-11.7583
throttle	-11.7583
elepathy	-11.7583
▁সমর্থন	-11.7583
'''$1'''	-11.7583
augh	-11.7583
modified	-11.7583
চিকিৎসীয়	-11.7583
মেঘালয়	-11.7583
▁Nisan	-11.7583
▁cookie	-11.7583
▁gloss	-11.7583
▁উত্তেজনা	-11.7583
▁এন্টিএলিয়া	-11.7583
▁কঠোৰ	-11.7583
▁চৌধুৰী	-11.7583
▁ছফ্টৱেৰ	-11.7583
▁ছেপ্তেম্বৰ	-11.7583
▁ডিরেক্টরি	-11.7583
▁বালসমেত	-11.7583
▁মাদ্ৰাজ	-11.7583
:18:27	-11.7583
Application	-11.7583
Autodesk	-11.7583
Chennai	-11.7583
Digital	-11.7583
Exec	-11.7583
Gallery	-11.7583
Monospace	-11.7583
Replacewith	-11.7583
aximum	-11.7583
battery	-11.7583
bottom	-11.7583
categories	-11.7583
directory	-11.7583
essenger	-11.7583
laceOfTheMeeting	-11.7583
mboxImp	-11.7583
smart	-11.7583
terminal	-11.7583
তাত্ত্বিক	-11.7583
নিৰ্দ্ধাৰিত	-11.7583
হেক্সাডেচিমেল	-11.7583
▁!!!	-11.7583
▁(14836)	-11.7583
▁(156346)	-11.7583
▁(2540)	-11.7583
▁(27482)	-11.7583
▁(32677)	-11.7583
▁(36252)	-11.7583
▁(36771)	-11.7583
▁(5668)	-11.7583
▁(59438)	-11.7583
▁Affairs	-11.7583
▁Beauty	-11.7583
▁Choukei	-11.7583
▁ETree	-11.7583
▁Education	-11.7583
▁FanFold	-11.7583
▁Novell	-11.7583
▁Number	-11.7583
▁Pixbuf	-11.7583
▁Puneet	-11.7583
▁Rhythmbox	-11.7583
▁Standard	-11.7583
▁cartridge	-11.7583
▁cputune	-11.7583
▁float	-11.7583
▁implie	-11.7583
▁lookup	-11.7583
▁visit	-11.7583
▁অটোসেভ	-11.7583
▁অত্যধিক	-11.7583
▁অভাৰফ্লো	-11.7583
▁অসংকোচিত	-11.7583
▁আক্বীদা	-11.7583
▁আগবঢ়াৰ	-11.7583
▁আত্মসমৰ্পণ	-11.7583
▁ইস্লংদ্	-11.7583
▁এক্সিকিউষণ	-11.7583
▁কঢ়িয়াই	-11.7583
▁কনটেক্ট	-11.7583
▁কনসোল	-11.7583
▁কাৰিকৰী	-11.7583
▁কিৰজিস্থান	-11.7583
▁ক্ৰেডিট	-11.7583
▁গাখীৰ	-11.7583
▁গোলকীয়	-11.7583
▁গ্ৰান্ডে	-11.7583
▁গৰমিল	-11.7583
▁গৱেষনা	-11.7583
▁জৰিমনা	-11.7583
▁টিউনিং	-11.7583
▁ডিভেলপমেন্ট	-11.7583
▁তফছীৰ	-11.7583
▁তুৰ্কমেনিস্তান	-11.7583
▁নগদধনবিহীন	-11.7583
▁নাপাহৰিব	-11.7583
▁নুন্যতম	-11.7583
▁নৰ্মেলাইজ	-11.7583
▁পুনরুদ্ধার	-11.7583
▁পূৰ্বআবন্টন	-11.7583
▁পূৰ্বাহ্ণ	-11.7583
▁প্ৰতিবন্ধকতা	-11.7583
▁প্ৰশংসা	-11.7583
▁প্ৰাথমত্য	-11.7583
▁বিপজ্জনক	-11.7583
▁বিবিডব্লিউ	-11.7583
▁বিৱিধ	-11.7583
▁বৈশিষ্ঠ	-11.7583
▁ভাৰছুৱেলাইজেষণ	-11.7583
▁ভাৰ্ছুৱেল	-11.7583
▁ভূচিত্ৰাৱলী	-11.7583
▁মণিটৰ	-11.7583
▁মণিপুৰ	-11.7583
▁ম্যানেজাৰ	-11.7583
▁ষান্মাসিক	-11.7583
▁সঁফুৰা	-11.7583
▁সংঘটক	-11.7583
▁সত্ত্বেও	-11.7583
▁সমতূল্য	-11.7583
▁সম্পূর্ণ	-11.7583
▁সোঁহাতৰ	-11.7583
▁সোণালী	-11.7583
▁স্টেণ্ডবাই	-11.7583
▁স্টেপল্	-11.7583
▁স্বাদহীন	-11.7583
▁স্যাঁতসেঁতে	-11.7583
▁হিন্দী	-11.7583
▁ৰাহিমাহুল্লাহ	-11.7583
▁ৰুপান্তৰ	-11.7583
▁ৰূপাঙ্কণ	-11.7583
▁ৱেস্টাৰ্ন	-11.7583
:$2_	-11.7583
rollback	-11.7583
द	-11.7583
অপৰাহ্ণ	-11.7583
যুগৰ	-11.7583
াৰোগেট	-11.7583
▁(1576)	-11.7583
▁Trust	-11.7583
▁shortcut	-11.7583
▁unix	-11.7583
▁উদ্ভৱ	-11.7583
▁উপৰোক্ত	-11.7583
▁কল্কিম	-11.7583
▁গুজৰাট	-11.7583
▁গুটানো	-11.7583
▁চেংদু	-11.7583
▁দুচকীয়া	-11.7583
▁পায়ুপথ	-11.7583
▁প্ৰতিবন্ধিত	-11.7583
▁পৰিদৰ্শিত	-11.7583
▁বান্ধীত	-11.7583
▁ভাবসংকেত	-11.7583
▁মডেম	-11.7583
▁সমমাত্ৰিক	-11.7583
▁সৰবৰাহ	-11.7583
(9730)	-11.7583
hesaurus	-11.7583
package	-11.7583
▁(511)	-11.7583
▁(9129)	-11.7583
▁Samba	-11.7583
▁কাঁটাৰ	-11.7583
▁ধাৰনকাৰী	-11.7583
▁পৰামৰ্শদাতা	-11.7583
▁বক্তব্য	-11.7583
▁বিশুদ্ধ	-11.7583
Custom	-11.7583
DOMAIN	-11.7583
ERROR	-11.7583
▁autostart	-11.7583
▁ঘঁহা	-11.7583
▁পোর্ট	-11.7583
▁ফাতাৱা	-11.7583
▁সংৰক্ষন	-11.7583
(618)	-11.7583
client	-11.7583
▁উপাৰ্জন	-11.7583
▁জুড়ে	-11.7583
▁পুনৰীক্ষণ	-11.7583
▁DVI	-11.7583
▁স্নেপ	-11.7583
ctual	-11.7583
▁Adium	-11.7583
▁ওলোটা	-11.7583
▁সামান্য	-11.7583
(46583)	-11.7583
▁(1284)	-11.7583
▁KVM	-11.7583
▁আশ্বুৰা	-11.7583
▁ফিনিটি	-11.7583
larını	-11.7583
▁(4881)	-11.7583
▁আলেকজ	-11.7583
▁ইসিজি	-11.7583
Power	-11.7583
▁হেলেনা	-11.7583
▁WEP	-11.7583
2003;	-11.7583
▁(1847)	-11.7583
▁ভৰষাবান	-11.7583
▁প্রাপক	-11.7583
(13145)	-11.7583
▁Palm	-11.7583
▁লুকোৱা	-11.7583
▁(5578)	-11.7583
▁পুনৰাকৃত	-11.7583
এক্সিকিউটেবুল	-11.7583
▁NCB	-11.7583
monitor	-11.7583
▁(59311)	-11.7583
▁থাকতে	-11.7583
▁সোধিব	-11.7583
▁টোকেন	-11.7584
▁(515)	-11.7584
▁filtering	-11.7584
▁বাদুলিৰ	-11.7584
▁পানামা	-11.7584
▁'{1}'	-11.7584
▁কাষ্টম	-11.7584
▁ৰমজান	-11.7584
▁অনুদিত	-11.7584
▁বাস্তৱ	-11.7584
▁IRC	-11.7584
▁স্পেইন	-11.7584
▁Emacs	-11.7584
▁বিকিউ	-11.7584
▁পুনৰগঠ	-11.7584
▁ক্ৰিপ্টো	-11.7584
String	-11.7584
▁একেবাৰে	-11.7584
ংগলম	-11.7584
▁ভৰাট	-11.7584
From	-11.7584
▁ব্যবসা	-11.7584
▁অনুষ্ঠানসমূহকে	-11.7584
▁(204)	-11.7584
▁মেলেনি	-11.7584
▁(195)	-11.7584
(817)	-11.7584
▁STP	-11.7584
▁PDA	-11.7584
Mutt	-11.7584
শিঘ্ৰ	-11.7584
বাল্টিক	-11.7585
ICU	-11.7585
▁কীচেন	-11.7586
তথ্যকোষ	-11.7586
(4751)	-11.7586
▁ডিকোড	-11.7586
▁মাংস	-11.7587
(816)	-11.7587
চন্দন	-11.7588
(4726)	-11.7588
▁cancel	-11.7588
সঁচ	-11.759
েঁচা	-11.7592
oken	-11.7592
▁Model	-11.7594
বিধিসন্মত	-11.7605
োঙা	-11.7615
পাচলি	-11.7631
lrz	-11.7654
▁প্রত্য	-11.7684
Mime	-11.7693
laka	-11.771
পৰিস্থিতিৰ	-11.7995
▁স্বয়ংক্রিয়	-11.8346
চেলছ	-11.8417
নিশ্চিত	-11.8593
cdrecord	-11.8594
sound	-11.8595
শিল্পী	-11.8595
এইচকিউ	-11.8597
মাউছ	-11.8597
বুটাম	-11.8598
©	-11.8598
অংশীদাৰী	-11.8598
একাউন্ট	-11.8599
অন্যান্য	-11.8599
ইনস্টল	-11.8599
▁নিৰ্বাচ	-11.8644
▁প্লেটফৰ্ম	-11.8758
lection	-11.8766
্লোভাকিয়া	-11.8794
▁ব্যৱসা	-11.8797
▁পঞ্জিক	-11.8815
তেওঁলোক	-11.8832
quir	-11.8833
world	-11.8833
▁bugzilla	-11.8833
measurement	-11.8833
▁লক্ষ্মী	-11.8833
-8859-8	-11.8833
Memory	-11.8833
▁Esfand	-11.8833
▁emulator	-11.8833
▁should	-11.8833
▁আক্ষৰিক	-11.8833
▁উদ্বেগ	-11.8833
▁এপলিকেশন	-11.8833
▁ডেলিভাৰী	-11.8833
▁ভিছুৱেল	-11.8833
▁মেগ্নিফিকেষণ	-11.8833
▁যুক্তিসংগত	-11.8833
▁সঙ্কেত	-11.8833
▁স্লোভেনিয়া	-11.8833
(230127)	-11.8833
(242118)	-11.8833
(242124)	-11.8833
(24218)	-11.8833
(45718)	-11.8833
Accelerator	-11.8833
MERCHANTABILITY	-11.8833
Mathematical	-11.8833
PATTERN	-11.8833
Secure	-11.8833
Unknown	-11.8833
Yesterday	-11.8833
criteria	-11.8833
crypttab	-11.8833
external	-11.8833
fDlgSlideSwitchP	-11.8833
floor	-11.8833
gvfs	-11.8833
mathematics	-11.8833
pixbuf	-11.8833
replace	-11.8833
subject	-11.8833
vanagari	-11.8833
wodim	-11.8833
بندر	-11.8833
অদ্ভুত	-11.8833
অভ্যুত্থান	-11.8833
ইউক্ৰেনিয়ান	-11.8833
এম্বুলেঞ্চৰ	-11.8833
গ্ৰেডিয়েন্ট	-11.8833
ধ্বন্যাত্মক	-11.8833
পঞ্জিতে	-11.8833
পন্থী	-11.8833
েন্টিমিটাৰ	-11.8833
▁#-#-#-#-#	-11.8833
▁(12837)	-11.8833
▁(12880)	-11.8833
▁(12891)	-11.8833
▁(17070)	-11.8833
▁(277790)	-11.8833
▁(278219)	-11.8833
▁(46548)	-11.8833
▁(46550)	-11.8833
▁(4959)	-11.8833
▁(5644)	-11.8833
▁(5663)	-11.8833
▁(59446)	-11.8833
▁AUTH	-11.8833
▁AtkHyperlink	-11.8833
▁Gcalctool	-11.8833
▁HOST	-11.8833
▁Libburn	-11.8833
▁Music	-11.8833
▁RADOS	-11.8833
▁SunPorno	-11.8833
▁TreeModel	-11.8833
▁TumblrEmail	-11.8833
▁Unicode	-11.8833
▁configuration	-11.8833
▁fill	-11.8833
▁hyper	-11.8833
▁iscsi	-11.8833
▁justify	-11.8833
▁libisofs	-11.8833
▁modify	-11.8833
▁neighbor	-11.8833
▁virgins	-11.8833
▁অগ্ৰগণ্য	-11.8833
▁অন্বেষণ	-11.8833
▁অপ্ৰত্যাশীত	-11.8833
▁অপৰিহাৰ্য	-11.8833
▁অবাঞ্চিত	-11.8833
▁অবিলম্বে	-11.8833
▁অমুছলিমসকল	-11.8833
▁অস্বীকাৰ	-11.8833
▁অৰিহণা	-11.8833
▁অৱজেক্ট	-11.8833
▁আইডেন্টিফায়াৰ	-11.8833
▁আপোনালোকে	-11.8833
▁আপোনালোকৰ	-11.8833
▁আভ্যন্তৰীণ	-11.8833
▁আমদানিকৰোঁতা	-11.8833
▁ইটিৰেটৰ	-11.8833
▁ইনচিফাৰমেন্ট	-11.8833
▁উন্নহয়ন	-11.8833
▁উপদেষ্টা	-11.8833
▁উপলব্ধকৰোঁতা	-11.8833
▁উলংঘন	-11.8833
▁ঋতুস্ৰাৱ	-11.8833
▁এপিছোড	-11.8833
▁এম্পাৰছেন্দ	-11.8833
▁কংগ্ৰেছ	-11.8833
▁কেইটিমান	-11.8833
▁কেলকুলেটৰ	-11.8833
▁ক্যাৰেক্টাৰ	-11.8833
▁ক্লোটস্কি	-11.8833
▁চাবিফলকৰ	-11.8833
▁চেপ্তেম্বৰ	-11.8833
▁চৌপাশে	-11.8833
▁চৰ্তাবলী	-11.8833
▁জলসেচন	-11.8833
▁জার্নাল	-11.8833
▁টেলিফোন	-11.8833
▁ঠিকানাবইয়ে	-11.8833
▁ডাইজেস্ট	-11.8833
▁ডালােেঢ	-11.8833
▁তাৰতম্য	-11.8833
▁তুষাৰপাত	-11.8833
▁দৃষ্টিপৰ্ট	-11.8833
▁দৃষ্টিভংগী	-11.8833
▁দ্বিগুণ	-11.8833
▁নেতিবাচক	-11.8833
▁নেতৃত্বাধীন	-11.8833
▁নেনোমিটাৰ	-11.8833
▁পশ্চাত্‍গামী	-11.8833
▁পিক্ছেলৰসংখ্যা	-11.8833
▁পুনঃনামকৰণ	-11.8833
▁পুনঃবিতৰণ	-11.8833
▁পূৰ্বাঞ্চলত	-11.8833
▁পৃষ্ঠভূমি	-11.8833
▁পোৰ্টুগাল	-11.8833
▁প্ৰবাহিত	-11.8833
▁প্ৰশমক	-11.8833
▁প্ৰাকদৰ্শন	-11.8833
▁প্ৰাসঙ্গিক	-11.8833
▁প্ৰাৰম্ভকৰোঁতা	-11.8833
▁পৰিবৰ্ত্তিত	-11.8833
▁ফিল্মফেয়াৰ	-11.8833
▁ফেব্ৰু	-11.8833
▁বজ্ৰপাত	-11.8833
▁বঢ়োৱা	-11.8833
▁বরাদ্দ	-11.8833
▁বহিৰাক্ৰমণ	-11.8833
▁বাজেয়াপ্তকৰণ	-11.8833
▁বার্ষিক	-11.8833
▁বিতংকৈ	-11.8833
▁বিধেয়ক	-11.8833
▁ব্যান্ডহুইডত্	-11.8833
▁বৰনামঘৰ	-11.8833
▁ভয়াবহ	-11.8833
▁ভিটামিন	-11.8833
▁ভূমিস্খলন	-11.8833
▁মংত্র	-11.8833
▁মনোনীত	-11.8833
▁মাধৱদেৱ	-11.8833
▁মৌখিক	-11.8833
▁লাক্সেম	-11.8833
▁শানতুং	-11.8833
▁শিল্পকৌশল	-11.8833
▁শুণ্য	-11.8833
▁সঁহাৰি	-11.8833
▁সংসাধক	-11.8833
▁সম্প্ৰচাৰ	-11.8833
▁সম্মুখগামী	-11.8833
▁সুত্ৰধাৰ	-11.8833
▁সুবিন্যস্ত	-11.8833
▁স্টাইলাচ	-11.8833
▁স্পেনিচ	-11.8833
▁সৰ্বধৰনেৰ	-11.8833
▁হাঙ্গেৰী	-11.8833
▁২০১৬	-11.8833
▁ৰাজনিতী	-11.8833
▁ৰূপৰেখা	-11.8833
▁ৰেস্তোৰা	-11.8833
▁ৰ্টুগিছ	-11.8833
(231197)	-11.8833
Advanced	-11.8833
Remote	-11.8833
emplarCharacters	-11.8833
১৯৯৮	-11.8833
▁(36257)	-11.8833
▁OWA	-11.8833
▁Please	-11.8833
▁build	-11.8833
▁অনুকলন	-11.8833
▁অন্তৰ্ভূক্ত	-11.8833
▁এপ্রিল	-11.8833
▁খেলুৱৈ	-11.8833
▁গুচাওক	-11.8833
▁ছাহাবী	-11.8833
▁নিউজিলেণ্ড	-11.8833
▁প্ৰসাশন	-11.8833
▁ফ্ৰাঞ্চ	-11.8833
▁বয়লাৰ	-11.8833
▁বহিৰ্গমন	-11.8833
▁ভাট্টা	-11.8833
▁ভাৰ্সান	-11.8833
▁হৃদয়	-11.8833
▁ৰেখাঙ্কন	-11.8833
ensitiv	-11.8833
▁Rating	-11.8833
▁zaman	-11.8833
▁পড়বে	-11.8833
▁প্যালেট	-11.8833
▁ভালদৰে	-11.8833
▁সহকৰ্মী	-11.8833
▁সারাংশ	-11.8833
Access	-11.8833
ified	-11.8833
request	-11.8833
▁অনামিকা	-11.8833
▁কিলোগ্ৰাম	-11.8833
▁ছাঁদ	-11.8833
▁বিন্যস্ত	-11.8833
▁সহনশীল	-11.8833
2833"	-11.8833
lzma	-11.8833
}-${	-11.8833
▁Telef	-11.8833
▁কানাডিয়ান	-11.8833
▁জঞ্জাল	-11.8833
▁wwn	-11.8833
▁জ্ঞাপন	-11.8833
▁বছৰেকীয়া	-11.8833
▁ভৰালী	-11.8833
(13023)	-11.8833
ফুল্ল	-11.8833
▁ঘাতচিহ্ন	-11.8833
ণ্ণে	-11.8833
▁কৰ্মস্থলেৰ	-11.8833
(1635)	-11.8833
▁উৎসাহিত	-11.8833
▁(921)	-11.8833
Duration	-11.8833
join	-11.8833
prune	-11.8833
▁08:00	-11.8833
▁after	-11.8833
-8136	-11.8833
▁দরুন	-11.8833
▁নোলোৱা	-11.8833
▁পিভট	-11.8833
▁এলাৰ্ম	-11.8833
▁(3048)	-11.8833
▁বিপণন	-11.8833
(488)	-11.8833
▁(820)	-11.8833
▁(922)	-11.8833
▁চাইকেল	-11.8833
▁মূল্যৱান	-11.8833
detect	-11.8834
▁JPG	-11.8834
▁সংলাপ	-11.8834
▁তাপমান	-11.8834
প্রনোদ	-11.8834
▁WPA	-11.8834
▁কঙ্গো	-11.8834
Zoom	-11.8834
প্ৰাধিকৰণ	-11.8834
▁সন্তুষ্ট	-11.8834
(2626)	-11.8834
▁স্তুপ	-11.8834
▁Kill	-11.8834
▁কুৰ্দি	-11.8834
▁সাহস	-11.8834
▁স্পেইচ	-11.8834
িঙ্গাপুৰ	-11.8834
circ	-11.8834
▁Life	-11.8834
▁Marath	-11.8834
ডাকোটা	-11.8834
▁অর়িৱ	-11.8834
▁আকাশী	-11.8834
▁ঘোৰা	-11.8835
(832)	-11.8835
▁বাইৰন	-11.8835
guru	-11.8835
Center	-11.8835
▁বতাহ	-11.8835
সজুলি	-11.8837
(490)	-11.8838
nstant	-11.8838
underline	-11.8839
strict	-11.8839
(4660)	-11.8839
memory	-11.884
tube	-11.8843
(495)	-11.8846
তিলিপি	-11.8854
িঘ্	-11.8894
TrueType	-11.8896
১৮০	-11.8959
porn	-11.9017
হাঁহি	-11.917
েতিয়াও	-11.9284
acebook	-11.9442
▁Multi	-11.9642
▁ভৱিষ্য	-11.9762
ক্ষেত্ৰত	-11.9771
সম্পাদন	-11.9928
সৎকামৰ	-11.9966
Meeting	-12.0018
description	-12.0023
কৃষি	-12.0024
ইন্ডেক্স	-12.0024
অগ্নিকাণ্ড	-12.0024
শূন্য	-12.0024
প্ৰাসংগিক	-12.0024
অপ্ৰকাশিত	-12.0025
ঈশান	-12.0025
অগ্ৰসৰ	-12.0025
Image	-12.0025
প্ৰামাণিক	-12.0025
বিপৰীত	-12.0026
সিস্টেম	-12.0026
Outlook	-12.0026
শুধুমাত্ৰ	-12.0026
নিৰীক্ষণ	-12.0027
স্বাভাবিক	-12.0027
অতিৰিক্ত	-12.0027
আমেৰিকা	-12.0027
যেতিয়া	-12.0027
পুনৰুদ্ধাৰ	-12.0027
অনুমতি	-12.0028
সৃষ্টি	-12.0028
\\%	-12.0165
author	-12.0229
▁virtual	-12.0232
▁even	-12.0252
▁জৰুৰী	-12.0262
Manager	-12.0262
গ্ৰাফী	-12.0262
metric	-12.0262
nbsp	-12.0262
মাদাগাচকাৰ	-12.0262
success	-12.0262
▁ঐতিহাসিক	-12.0262
▁ঢোকানো	-12.0262
▁দৈতসম্ভোগী	-12.0262
(13015)	-12.0262
(13016)	-12.0262
(16604)	-12.0262
(28882)	-12.0262
(32832)	-12.0262
(43946)	-12.0262
(6012)	-12.0262
First	-12.0262
Mexico	-12.0262
RWBCIS	-12.0262
Refresh	-12.0262
Spacekeyboard	-12.0262
Stream	-12.0262
arameters	-12.0262
complete	-12.0262
extract	-12.0262
include	-12.0262
length	-12.0262
nautilus	-12.0262
revision	-12.0262
separate	-12.0262
service	-12.0262
ঁতসেঁতে	-12.0262
অসামঞ্জস্যপূৰ্ণ	-12.0262
দিনবেপী	-12.0262
ভেনিজুৱেলা	-12.0262
িউনিছিয়া	-12.0262
িকেনমিতি	-12.0262
▁(13126)	-12.0262
▁(235520)	-12.0262
▁(24105)	-12.0262
▁(242051)	-12.0262
▁(24214)	-12.0262
▁(276355)	-12.0262
▁(280792)	-12.0262
▁(46553)	-12.0262
▁(4907)	-12.0262
▁(5105)	-12.0262
▁(8776)	-12.0262
▁192.168.2.1	-12.0262
▁APOP	-12.0262
▁Adansonia	-12.0262
▁Addressbook	-12.0262
▁Bongaigaon	-12.0262
▁Botanix	-12.0262
▁Completion	-12.0262
▁Envelope	-12.0262
▁Galway	-12.0262
▁GtkAdjustment	-12.0262
▁Gucharmap	-12.0262
▁Indonesia	-12.0262
▁Modified	-12.0262
▁OneDrive	-12.0262
▁Reserved	-12.0262
▁Surah	-12.0262
▁Touchstrip	-12.0262
▁VLAN	-12.0262
▁`{0}'	-12.0262
▁bandwidth	-12.0262
▁fallback	-12.0262
▁hope	-12.0262
▁iSCSI	-12.0262
▁install	-12.0262
▁libburn	-12.0262
▁macvtap	-12.0262
▁moniker	-12.0262
▁nwfilter	-12.0262
▁rotation	-12.0262
▁sqlite	-12.0262
▁texas	-12.0262
▁vscoop	-12.0262
▁warrant	-12.0262
▁wimax	-12.0262
▁অক্ষুণ্ণ	-12.0262
▁অক্সিজেন	-12.0262
▁অপাৰেছন	-12.0262
▁অভ্যাস	-12.0262
▁অমীমাংসিত	-12.0262
▁আইনষ্টাইন	-12.0262
▁আগামীকাল	-12.0262
▁আত্মহত্যা	-12.0262
▁ইনচুলিন	-12.0262
▁ইনফোকম	-12.0262
▁ইনষ্টিটিউট	-12.0262
▁ইনস্টেন্ট	-12.0262
▁উথ্থাপিত	-12.0262
▁এডাপ্টৰ	-12.0262
▁এলগোৰিদম	-12.0262
▁কঢ়িওৱা	-12.0262
▁কন্ট্ৰোল	-12.0262
▁কম্বোবাকচ	-12.0262
▁কার্যসূচীঃ	-12.0262
▁ক্ৰমবিকাশ	-12.0262
▁কৰ্তৃত্ব	-12.0262
▁কৰ্পোৰেট	-12.0262
▁গতিবৰ্দ্ধক	-12.0262
▁গৌৰৱ	-12.0262
▁গ্ৰহণকাৰীসমূহক	-12.0262
▁গ্ৰেডিয়ানসমূহ	-12.0262
▁চফঘব	-12.0262
▁চল্লিশ	-12.0262
▁চেতাবনি	-12.0262
▁চৰিত্ৰৰ	-12.0262
▁টেলিভিছন	-12.0262
▁ত্ৰিনিদাদ	-12.0262
▁দধুমপান	-12.0262
▁দৃষ্টিপটভূমি	-12.0262
▁নিউট্ৰিফ্ল	-12.0262
▁নির্ধাৰণ	-12.0262
▁নিলিখিব	-12.0262
▁নিৰপেক্ষ	-12.0262
▁নিৰ্বিশেষে	-12.0262
▁নোটিফিকে	-12.0262
▁পর্যাপ্ত	-12.0262
▁পাসৱৰ্ড	-12.0262
▁পোনপটীয়া	-12.0262
▁প্ৰতিশ্ৰুতি	-12.0262
▁প্ৰত্যূত্তৰটি	-12.0262
▁প্ৰাপ্তিস্বীকাৰ	-12.0262
▁প্ৰিন্সিপ	-12.0262
▁প্ৰৱণতা	-12.0262
▁পৰম্পৰাগত	-12.0262
▁ফায়াৰৱাল	-12.0262
▁ফিল্টার	-12.0262
▁ফেচবুক	-12.0262
▁ফ্লেমিং	-12.0262
▁বান্ধীবলে	-12.0262
▁বাস্তবায়িত	-12.0262
▁বিত্তমন্ত্ৰী	-12.0262
▁বিদ্বেষপৰায	-12.0262
▁বিবৰ্দ্ধক	-12.0262
▁বিভাজিত	-12.0262
▁বোৱাৰী	-12.0262
▁ব্যাটারি	-12.0262
▁বৰ্দ্ধিত	-12.0262
▁ভৌগোলিক	-12.0262
▁মহাপুৰুষ	-12.0262
▁মাইক্ৰোছেকেণ্ড	-12.0262
▁মাইক্ৰোমিটাৰ	-12.0262
▁মাধ্যাকৰ্ষণ	-12.0262
▁মূল্যহ্ৰাস	-12.0262
▁যাকাৰিয়্যাহ	-12.0262
▁যাত্ৰাপুস্তক	-12.0262
▁লাইবেৰিয়া	-12.0262
▁শাৰিৰীক	-12.0262
▁শিক্ষানুষ্ঠান	-12.0262
▁সংক্ৰমণ	-12.0262
▁সংস্করণের	-12.0262
▁সঞ্জীৱ	-12.0262
▁সতর্কবার্তা	-12.0262
▁সন্নিবিষ্ট	-12.0262
▁সবাতোকৈ	-12.0262
▁সাংস্কৃতিক	-12.0262
▁সুবিধানুযায়ী	-12.0262
▁সুস্পষ্ট	-12.0262
▁সেঁতু	-12.0262
▁সৈংত্	-12.0262
▁স্বনির্বাচিত	-12.0262
▁হস্তক্ষেপ	-12.0262
▁হাঙ্গুল	-12.0262
▁হাতপুথি	-12.0262
▁হেক্সাডেসিম	-12.0262
▁হেল্পলাইন	-12.0262
▁ৰংগনাথন	-12.0262
▁ৰাজনৈতিক	-12.0262
(23881)	-12.0262
Beep	-12.0262
Toggle	-12.0262
previous	-12.0262
öyle	-12.0262
স্বীকার	-12.0262
▁(1656)	-12.0262
▁(278240)	-12.0262
▁(4986)	-12.0262
▁(5601)	-12.0262
▁(59278)	-12.0262
▁chardev	-12.0262
▁আৰেকটি	-12.0262
▁উইণ্ডো	-12.0262
▁এডব্লিউজি	-12.0262
▁গোবিন্দ	-12.0262
▁চ্লাইড	-12.0262
▁জালিয়াতি	-12.0262
▁তেলুগু	-12.0262
▁দেশজুৰি	-12.0262
▁পুনরাবৃত্তি	-12.0262
▁প্ৰক্ৰীয়া	-12.0262
▁বুঝতে	-12.0262
▁মেইনলেণ্ড	-12.0262
▁ৰবীন্দ্ৰ	-12.0262
expand	-12.0262
ignore	-12.0262
notifications	-12.0262
ক্যামেৰা	-12.0262
চীনদেশীয়	-12.0262
প্ৰতিমুৰ্তি	-12.0262
৮৬২৫০১	-12.0262
▁York	-12.0262
▁অনুবৃত্তি	-12.0262
▁আজাৰবাইজান	-12.0262
▁কৃতিত্ব	-12.0262
▁চকোলেট	-12.0262
▁চাহিদা	-12.0262
▁ডিলাৰেৰ	-12.0262
▁প্লাষ্টিক	-12.0262
▁ফৰাচী	-12.0262
▁বৰদলৈ	-12.0262
▁ভুগি	-12.0262
▁শ্ৰদ্ধা	-12.0262
▁সন্মুখীন	-12.0262
▁সৃজনীশীল	-12.0262
Directory	-12.0262
exact	-12.0262
high	-12.0262
metacity	-12.0262
public	-12.0262
উজবেকীয়	-12.0262
২০১৩	-12.0262
▁আচবাব	-12.0262
▁ইউনিয়ন	-12.0262
▁পচ্ছন্দ	-12.0262
▁ফোলিও	-12.0262
▁সৰলীকৃত	-12.0262
VIDEO	-12.0262
বৰপেটা	-12.0262
ালভাডোৰ	-12.0262
▁(1062)	-12.0262
▁Click	-12.0262
▁bitrate	-12.0262
▁libhal	-12.0262
▁sgio	-12.0262
▁অনুশীলন	-12.0262
▁আচৰিত	-12.0262
▁কেনেকুৱা	-12.0262
▁নেশ্যনেল	-12.0262
▁প্ৰমানপত্ৰ	-12.0262
▁পৰিৱৰ্তক	-12.0262
(32619)	-12.0262
Input	-12.0262
▁Www	-12.0262
▁[0..	-12.0262
▁আগ্ৰহী	-12.0262
▁থলুৱা	-12.0262
▁শতিকাৰ	-12.0262
chool	-12.0262
▁Guide	-12.0262
▁এনআৰচি	-12.0262
▁জীৱবিজ্ঞান	-12.0262
▁বিজুতি	-12.0262
▁যন্ত্ৰপাতি	-12.0262
▁বনাওক	-12.0262
▁বৰ্ধিত	-12.0262
spamc	-12.0262
▁উদঙা	-12.0262
white	-12.0262
▁এক্সিকিউটেবল	-12.0262
▁টেবলিউ	-12.0262
পঞ্চাশ	-12.0262
Calib	-12.0262
মাউথ	-12.0262
(231252)	-12.0262
▁হাঙ্গেৰি	-12.0262
spamd	-12.0262
বোর্ড	-12.0262
Fetch	-12.0262
bolic	-12.0263
টাইটেল	-12.0263
▁উৰুগু	-12.0263
Copy	-12.0263
(2538)	-12.0263
(3845)	-12.0264
handle	-12.0264
nimation	-12.0265
ম্বোডিয়া	-12.027
স্বচ্ছতানপুংসক	-12.0271
(23379)	-12.0296
ntire	-12.0303
্মুখীন	-12.0306
lockquote	-12.0308
Personal	-12.0384
২০০৮	-12.0448
▁অসৎকাম	-12.0567
▁প্ৰক্ৰিয	-12.0779
frame	-12.0938
▁face	-12.1152
উদ্যোগিক	-12.1201
যান্ত্ৰিক	-12.1576
চিস্টেম	-12.1674
বিৱৰিত	-12.1676
পৰীক্ষামূলক	-12.1688
শ্রেণী	-12.1689
return	-12.169
ঊ	-12.1691
সাময়িক	-12.1691
গোপনীয়তা	-12.1691
পৰিৱৰ্তনসমূহ	-12.1692
আনুভূমিক	-12.1692
বিজ্ঞাপন	-12.1692
বাওঁফালে	-12.1692
শেহতীয়া	-12.1693
নথকাকৈ	-12.1693
~	-12.6165
ৣ	-13.4762
ঐ	-14.454
ş	-14.4541
•	-14.4542
×	-14.4543
»	-14.4544
꧁	-14.4544
