<unk>	0
<s>	0
</s>	0
ৰ	-3.32895
▁	-3.36918
'	-4.03508
s	-4.10515
)	-4.19233
▁কৰা	-4.39641
।	-4.4886
,	-4.51587
-	-4.51937
:	-4.53559
▁কৰক	-4.61133
ত	-4.62252
▁%	-4.7861
ব	-4.79496
▁(_	-4.97782
▁হ	-5.08539
ে	-5.11131
ক	-5.13383
▁(	-5.1581
▁এটা	-5.4399
▁বাবে	-5.44108
সমূহ	-5.46999
▁আৰু	-5.47296
ন	-5.48513
▁এই	-5.53898
.	-5.57591
▁।	-5.69057
▁কৰিব	-5.70165
▁হৈছে	-5.70175
;	-5.74373
ল	-5.79645
d	-5.81165
▁পৰা	-5.81656
▁'%	-5.83374
▁ব্যৰ্থ	-5.87103
_	-5.88759
/	-5.89881
লে	-5.90743
▁কাম	-5.92435
▁তথ্য	-6.00497
য়	-6.01403
▁নহয়	-6.02407
"	-6.0263
▁ফোল্ডাৰ	-6.03111
▁নাম	-6.0391
ী	-6.04733
▁দ্বাৰা	-6.05174
ম	-6.0998
▁ব্যৱহাৰ	-6.10026
▁-	-6.122
▁বা	-6.12616
েৰ	-6.16506
▁নাই	-6.19637
▁ক	-6.256
▁কোনো	-6.25747
▁নে	-6.27866
▁কৰি	-6.28295
▁ফাইল	-6.28836
▁আপুনি	-6.31512
▁বাৰ্তা	-6.324
Name	-6.32691
টো	-6.34967
▁প্ৰদৰ্শন	-6.35219
ড	-6.35625
e	-6.3738
▁"	-6.37808
S	-6.3797
▁কৰিবলৈ	-6.38522
▁নতুন	-6.38999
▁তালিকা	-6.40455
▁কৰিবলে	-6.41968
▁কি	-6.4319
▁সৈতে	-6.45288
▁আপোনাৰ	-6.45682
টি	-6.46288
a	-6.46718
&	-6.46975
▁এ	-6.4846
ই	-6.50977
▁ই	-6.51251
▁মান	-6.52019
▁নোৱাৰি	-6.53125
gt	-6.53898
প	-6.54247
l	-6.54581
▁ঠিকনা	-6.54785
ি	-6.55389
▁কৰে	-6.55411
?	-6.56186
o	-6.56648
▁অ	-6.57172
u	-6.60581
▁আছে	-6.60718
া	-6.60898
t	-6.61111
চ	-6.61475
A	-6.6149
▁হয়	-6.63452
▁1	-6.66395
▁সংৰক্ষণ	-6.66399
...	-6.66491
▁অথবা	-6.67092
▁ত্ৰুটি	-6.68282
লৈ	-6.68915
▁সময়	-6.6909
▁নথিপত্ৰ	-6.71406
C	-6.71569
▁ন	-6.72339
▁আ	-6.72405
▁সংযোগ	-6.73401
p	-6.7497
স	-6.75066
P	-6.78217
n	-6.78628
’	-6.79468
c	-6.79781
T	-6.80792
ো	-6.812
D	-6.81221
না	-6.81905
ট	-6.82284
তা	-6.83091
x	-6.84195
g	-6.85336
▁হোৱা	-6.85485
i	-6.86569
হ	-6.87209
▁পৰিবৰ্তন	-6.8731
▁মতামত	-6.88235
▁আৰম্ভ	-6.88979
▁Evolution	-6.89746
▁ছবি	-6.90947
m	-6.91697
কে	-6.91714
গ	-6.92146
▁হব	-6.92327
M	-6.92403
▁নিৰ্বাচিত	-6.93066
▁উপস্থিত	-6.9331
▁যোগ	-6.93588
R	-6.93819
▁চিহ্নিত	-6.9533
▁প্ৰাপ্ত	-6.95521
▁স	-6.96567
▁সৃষ্টি	-6.97205
%	-6.99152
▁প	-6.99661
তে	-6.99788
▁পৰিচয়	-6.99931
▁বিন্যাস	-7.00283
লা	-7.01246
O	-7.01281
ৰা	-7.01732
er	-7.03216
▁=	-7.04018
▁নাযায়	-7.05266
E	-7.05938
r	-7.062
f	-7.06696
জ	-7.06817
▁কৰোঁতে	-7.07564
▁কাৰ্য্য	-7.07589
িত	-7.0802
▁সকলো	-7.08428
▁ডিস্ক	-7.09164
1	-7.09323
k	-7.09467
দ	-7.09819
নি	-7.09985
িক	-7.10344
▁সংখ্যা	-7.11252
y	-7.11446
▁না	-7.12436
B	-7.12588
ং	-7.14368
▁পৃষ্ঠা	-7.14924
▁বন্ধ	-7.1566
্য	-7.15744
▁ডিভাইচ	-7.1669
v	-7.17684
াৰ	-7.17691
▁পোৱা	-7.17821
▁চুমাচুমি	-7.17882
ও	-7.20537
L	-7.20666
F	-7.20858
▁অনুগ্ৰহ	-7.23057
য়ে	-7.23303
▁চমকানি	-7.23647
▁S	-7.23933
র	-7.23936
N	-7.24298
▁ফ	-7.24651
(	-7.25117
▁মেইল	-7.26071
▁A	-7.26328
▁পাৰে	-7.26394
▁বি	-7.26501
▁যদি	-7.26715
▁নি	-7.26803
b	-7.27017
I	-7.2732
▁ব্যৱহৃত	-7.27569
▁নিৰ্ধাৰণ	-7.2789
▁সংক্ৰান্ত	-7.28138
লি	-7.28365
▁2	-7.28732
শ	-7.28887
▁"%	-7.29001
▁নিৰ্বাচন	-7.29765
▁স্থানান্তৰ	-7.29892
▁ল	-7.29897
মেইল	-7.30291
▁চ	-7.31765
▁ম	-7.32026
▁সক্ৰিয়	-7.32102
▁বস্তু	-7.32284
▁ধৰণ	-7.3238
▁থকা	-7.33242
▁Name	-7.33297
এ	-7.33471
মা	-7.33782
▁নিৰ্মাণ	-7.33887
ৰি	-7.34527
▁সম্ভৱ	-7.34632
বা	-7.34733
িং	-7.3485
h	-7.35185
▁অবৈধ	-7.36597
▁হল	-7.3668
্	-7.37517
▁যি	-7.37961
ছ	-7.38128
▁অৱস্থা	-7.38248
▁চমকানো	-7.38451
]	-7.38598
▁সন্ধান	-7.38792
▁Comment	-7.40246
▁কপি	-7.40859
▁যে	-7.40985
▁&	-7.4099
▁of	-7.41727
▁নগল	-7.42105
▁বৰ্তমান	-7.42455
▁পৰীক্ষা	-7.42534
▁হিচাপে	-7.42645
▁P	-7.42801
▁ছলচাতুরী	-7.42965
▁শৃগালী	-7.42965
িয়া	-7.43214
▁3	-7.43246
▁অক্ষম	-7.44147
▁সমৰ্থিত	-7.44855
▁উপলব্ধ	-7.4693
or	-7.47045
ৱ	-7.47096
@	-7.47468
)...	-7.47508
lt	-7.47604
াই	-7.48056
▁বিকল্প	-7.48086
▁পুনৰ	-7.48104
▁প্ৰ	-7.48607
▁নেটৱাৰ্ক	-7.4905
U	-7.49309
▁সংহতি	-7.49796
▁G	-7.50101
▁এক	-7.50329
▁সম্পূৰ্ণ	-7.51225
▁স্থান	-7.51798
▁কৰ্ম	-7.51883
▁অন্য	-7.52529
▁মচি	-7.52841
▁কৰোতে	-7.53019
▁C	-7.5353
▁ও	-7.5462
বোৰ	-7.55009
▁দেখুৱাওক	-7.55536
ভ	-7.56587
্যা	-7.56643
▁বৈশিষ্ট্য	-7.56792
2	-7.5708
w	-7.57175
▁অংশ	-7.57184
কা	-7.57273
▁_	-7.57297
H	-7.57623
▁সমস্যা	-7.58176
বাৰ	-7.58289
▁বাতিল	-7.5885
▁M	-7.59139
▁/	-7.59726
▁আবৃত	-7.59867
▁লে	-7.59893
▁অনুসন্ধান	-7.60165
▁একটি	-7.60384
▁উইন্ডো	-7.60748
▁দিয়া	-7.60785
মি	-7.61128
▁শব্দ	-7.61418
ণ	-7.61966
▁সংস্কৰণ	-7.62366
▁name	-7.62679
▁অজ্ঞাত	-7.63068
▁হৈ	-7.63258
ar	-7.63772
বি	-7.64349
▁ৰং	-7.64455
▁পাছৱাৰ্ড	-7.6458
▁উৎস	-7.64888
an	-7.64904
▁অবিকল্পিত	-7.65399
ed	-7.659
কি	-7.6626
খ	-7.66351
▁মা	-7.66495
▁প্ৰেৰণ	-7.67114
▁[	-7.67221
তি	-7.67828
ফ	-7.67866
▁মি	-7.67958
টা	-7.68086
▁ভিডিঅ	-7.68237
▁আকাৰ	-7.68714
য়া	-7.69115
েল	-7.69216
4	-7.69459
▁ইয়াৰ	-7.69967
▁কল	-7.70204
ছে	-7.70211
▁আলো	-7.70249
re	-7.70422
en	-7.7085
▁দিন	-7.71084
▁বিনিময়	-7.71613
▁http	-7.71876
in	-7.71908
”	-7.71998
ভাৱে	-7.72254
5	-7.72495
▁কেৱল	-7.7289
▁প্ৰতি	-7.72962
▁লাগিব	-7.72965
নে	-7.73021
▁উত্তৰ	-7.73341
▁বৈধ	-7.73355
▁প্ৰদান	-7.73718
▁অনুমতি	-7.74307
▁পা	-7.74318
▁চাৰ্ভাৰ	-7.75129
▁বৰ্তমানে	-7.75364
ing	-7.76454
▁ইয়াক	-7.76533
▁প্ৰয়োজন	-7.76894
▁(%	-7.77149
অ	-7.77431
ইন	-7.77481
6	-7.77505
▁উ	-7.77793
ৰ্	-7.77971
উ	-7.7812
",	-7.78238
▁B	-7.78376
কৈ	-7.78899
▁অন্তৰ্ভুক্ত	-7.7918
ু	-7.79223
=	-7.79787
▁জন্য	-7.79822
▁অৱস্থান	-7.79915
▁সংযুক্ত	-7.80225
▁কিন্তু	-7.8044
কাৰী	-7.80518
খন	-7.80839
▁বাছক	-7.8085
3	-7.81043
▁ৰঙ	-7.81167
▁অধিক	-7.81349
▁পথ	-7.8159
▁তাৰ	-7.81839
▁বীমা	-7.82098
▁কাৰণে	-7.82245
মান	-7.82269
আ	-7.82297
W	-7.82594
▁লাটভিয়ান	-7.82758
▁লৈ	-7.82875
▁D	-7.82906
type	-7.8371
▁কা	-7.8396
al	-7.84146
▁ব্যক্তিগত	-7.84159
▁কমান্ড	-7.84707
▁প্ৰমাণপত্ৰ	-7.85368
ক্ষ	-7.85809
▁গ্ৰহণ	-7.8649
▁the	-7.87266
▁কৰিছে	-7.87319
লো	-7.87448
▁স্বাক্ষৰ	-7.8776
▁বিশ্লেষণ	-7.87814
am	-7.88386
জি	-7.8854
G	-7.88657
▁খোলা	-7.8872
▁আঁতৰুৱা	-7.88949
▁আন	-7.88983
▁কৰো	-7.89379
ৱা	-7.89558
▁কেলেন্ডাৰ	-7.89671
▁২	-7.8984
ন্ট	-7.90198
▁ক্ষেত্ৰত	-7.90341
▁বিষয়	-7.90766
V	-7.90821
ঁ	-7.90831
▁label	-7.90839
▁ৰিক্ত	-7.9243
▁অনুৰোধ	-7.92903
▁উদ্দেশ্যে	-7.93521
▁শ	-7.93575
▁»	-7.93616
▁ব্যৱহাৰকাৰী	-7.93844
▁size	-7.94591
z	-7.94593
▁প্ৰয়োগ	-7.94829
থ	-7.9496
le	-7.95076
▁(1	-7.95445
ীয়	-7.95561
▁ডমেইন	-7.95628
▁বাৰ্তাৰ	-7.95717
জা	-7.95768
র্	-7.96024
▁সমৰ্থন	-7.96526
://	-7.96798
▁সা	-7.96867
োৱা	-7.97084
paper	-7.9727
▁অসমীয়া	-7.97274
▁ব্যৱস্থা	-7.97281
▁স্থানীয়	-7.98051
চি	-7.98188
▁X	-7.9839
8)	-7.98426
▁তাৰিখ	-7.98514
▁T	-7.98653
ঔৣ	-7.98765
▁নিম্নলিখিত	-7.98765
▁পিছত	-7.99225
▁ইচ্ছুক	-7.99269
net	-7.99299
▁আমি	-7.99762
▁মাপ	-7.99843
প্ৰ	-8.00045
▁উল্লেখ	-8.00879
ন্	-8.00887
েই	-8.01824
ra	-8.02085
▁ক্লিক	-8.02099
▁গুপ্তশব্দ	-8.02232
▁H	-8.0243
▁প্ৰক্ৰিয়া	-8.02585
▁দ	-8.03041
▁মেমো	-8.03154
▁আমাৰ	-8.03163
▁হবে	-8.04005
▁থেকে	-8.04458
▁L	-8.04506
▁গ	-8.0474
▁?	-8.04874
00	-8.05244
੔	-8.0526
ক্স	-8.05303
▁তা	-8.05411
ঃ	-8.05798
▁একাওন্ট	-8.05919
▁হেডাৰ	-8.05922
▁4	-8.05972
▁মে	-8.06022
!	-8.06069
ান	-8.06335
হা	-8.06621
▁F	-8.06849
▁দৰ্শন	-8.06888
▁হয়েছে	-8.06973
▁বে	-8.07033
▁কে	-8.07247
▁উপ	-8.07302
▁লোড	-8.0773
▁ওপৰত	-8.08207
▁প্ৰদৰ্শিত	-8.08535
aunchpad	-8.08535
▁ডাইৰেকটৰি	-8.08813
com	-8.09251
at	-8.09279
জন	-8.09488
▁বিষয়ে	-8.09583
6)	-8.1005
ষ্ট	-8.10126
▁১	-8.10336
▁সামৰ্থবান	-8.10407
▁নিশ্চিত	-8.10476
▁সময়ত	-8.10886
(_	-8.1138
it	-8.11412
▁বিৱৰণ	-8.11546
amp	-8.11785
▁সম্পাদন	-8.11943
:%	-8.12062
▁দেখা	-8.12197
পা	-8.12836
▁ভ	-8.1296
quot	-8.13075
▁প্ৰিন্ট	-8.1319
▁সুৰক্ষা	-8.13366
▁চেষ্টা	-8.1366
▁ইতিমধ্যে	-8.13733
▁ফন্ট	-8.13975
▁অকল	-8.13976
▁লিখনী	-8.14166
ের	-8.14409
▁ভুল	-8.1456
un	-8.14995
▁ডাঙৰ	-8.15128
ter	-8.15154
▁“%	-8.15172
5)	-8.15333
স্ট	-8.15377
▁a	-8.15635
0	-8.15879
▁পি	-8.16014
ur	-8.1603
3)	-8.16177
▁যাব	-8.1674
▁বাৰ্তাসমূহ	-8.17065
আপ	-8.17151
মে	-8.17208
▁কাৰণ	-8.17398
▁বৰ্ষপঞ্জি	-8.17592
▁কম	-8.17677
▁উদ্ধাৰ	-8.18442
▁দল	-8.18457
▁হৈছিল	-8.1846
on	-8.18644
ন্দ	-8.18677
▁সেৱা	-8.18756
▁প্ৰস্থ	-8.18774
▁টা	-8.19022
সা	-8.19057
য	-8.19122
ৃ	-8.19234
▁উইন্ডোৰ	-8.19288
স্ক	-8.19647
১	-8.19927
দা	-8.20339
Comment	-8.20342
▁in	-8.20597
▁বিভিন্ন	-8.21236
▁এইটো	-8.21282
2)	-8.21411
ৈ	-8.21734
▁বহি	-8.21918
▁সাক্ষাৎকাৰ	-8.22044
▁`%	-8.22186
7)	-8.22323
▁E	-8.22357
▁নেকি	-8.22523
▁সম্ভব	-8.22802
▁CD	-8.23289
▁বিশেষ	-8.23712
▁মাজত	-8.24114
▁হচ্ছে	-8.24439
▁সলনি	-8.24684
▁লগ	-8.24912
▁ক্ষেত্ৰ	-8.24983
▁স্থাপন	-8.25085
▁I	-8.25454
▁সেই	-8.2564
▁বুটাম	-8.25792
▁পৰি	-8.2597
▁চি	-8.26023
▁করা	-8.26053
▁লক্ষ্য	-8.26076
▁ধাৰ্য্য	-8.26412
▁ছ	-8.26498
▁পে	-8.26625
▁পদ্ধতি	-8.26739
▁ডি	-8.26845
▁মাই	-8.27073
▁সাধাৰণ	-8.27085
▁আৰ্কাইভ	-8.27092
কৰণ	-8.27138
▁"{0}"	-8.27408
ণ্ড	-8.2743
▁প্ৰস্থান	-8.27469
id	-8.27484
পি	-8.27503
▁আখৰ	-8.27588
K	-8.27644
ha	-8.27692
চা	-8.27802
0)	-8.27824
th	-8.28027
▁কৰতে	-8.28109
▁খোলক	-8.28417
কো	-8.28601
▁ইমপোৰ্ট	-8.29097
▁পাৰিব	-8.29279
▁to	-8.29552
যোগ্য	-8.2996
▁5	-8.30074
▁আৱশ্যক	-8.30124
▁ফিল্টাৰ	-8.30124
▁কৰিলে	-8.3014
25	-8.30164
▁ৰূপে	-8.302
ষ	-8.30411
▁অৱস্থাত	-8.3045
▁দিয়ক	-8.3047
▁সমস্ত	-8.30488
▁মিল	-8.30488
▁K	-8.30515
12	-8.30628
▁স্ব	-8.30684
▁প্ৰকাশ	-8.30743
▁ৱেব	-8.30837
▁নিৰ্ধাৰিত	-8.30992
▁সীমা	-8.31131
হি	-8.31208
▁শাৰী	-8.31246
স্ত	-8.31558
▁N	-8.31633
▁আবৰ্জনাৰ	-8.31737
▁ID	-8.31833
গা	-8.31992
ic	-8.3202
▁প্ৰকল্প	-8.32211
▁মুছে	-8.3224
▁ফাইলসমূহ	-8.32252
▁অডিঅ	-8.32608
20	-8.32649
▁কিছু	-8.32876
es	-8.33047
▁সঠিক	-8.33541
▁প্র	-8.34034
▁সৰ্বাধিক	-8.34141
▁R	-8.3423
▁মধ্যে	-8.34502
▁আইকন	-8.3464
▁ব্য	-8.35579
▁ট	-8.35708
▁অনুপস্থিত	-8.35789
▁অনুযায়ী	-8.35789
ol	-8.35844
▁হাত	-8.35936
▁প্ৰশ্ন	-8.3652
ৌ	-8.36857
ch	-8.37008
স্	-8.37247
(24	-8.37267
10	-8.37341
▁অনু	-8.37389
হে	-8.3746
▁সতীচ্ছদ	-8.37627
▁শেষ	-8.37812
▁চিস্টেম	-8.37999
ৱে	-8.38085
▁সু	-8.38181
▁আল	-8.38279
▁নকৰে	-8.38373
▁ঘটনা	-8.386
80	-8.38734
no	-8.38734
▁month	-8.38747
▁ডিফল্ট	-8.38912
▁উপাদান	-8.3932
ূ	-8.39322
২	-8.39328
লী	-8.39477
▁অফ	-8.39622
select	-8.39879
▁টেক্সট	-8.39993
▁নথিপত্ৰৰ	-8.40097
/~	-8.40263
▁যিকোনো	-8.40652
▁দিয়ে	-8.40737
ঞ্চ	-8.40889
▁জা	-8.4106
শ্ব	-8.41153
▁কো	-8.41275
▁জ	-8.41441
et	-8.41673
▁ব্যবহাৰ	-8.41793
▁সম্পাদনা	-8.41803
▁বিচাৰে	-8.4186
...(_	-8.41969
▁অতি	-8.4211
ৰু	-8.42209
ভাবে	-8.42214
▁টেব	-8.42321
KChar	-8.42571
q	-8.42571
▁প্ৰথম	-8.42572
কাৰ	-8.42594
▁অপ্ৰত্যাশিত	-8.42894
▁কোন	-8.42975
26	-8.43347
ভি	-8.43509
▁চিহ্ন	-8.4373
▁উল্লিখিত	-8.43748
▁পুনৰুদ্ধাৰ	-8.43748
ল্	-8.43774
unit	-8.43788
▁c	-8.43803
ro	-8.43863
▁পঞ্জিকা	-8.43937
▁ক্ষতি	-8.44146
▁হস্ট	-8.4417
▁আন্তঃপৃষ্ঠ	-8.4454
X	-8.44692
▁অনুমোদন	-8.44938
▁যেতিয়া	-8.4494
▁স্তম্ভ	-8.44943
sh	-8.45156
▁সংস্থাপন	-8.45344
▁6	-8.45351
▁ইয়াত	-8.45368
▁লিখক	-8.45496
নো	-8.45511
▁নিষ্ক্ৰিয়	-8.4574
▁থাকিব	-8.45765
▁উল্লেখিত	-8.45877
Stock	-8.46143
▁প্ৰমাণীকৰণ	-8.46196
▁বিকল্পসমূহ	-8.46457
▁অনুবাদ	-8.4656
Y	-8.46821
▁সং	-8.46825
▁অবস্থান	-8.46871
▁প্লাগ	-8.46955
▁বহী	-8.46966
▁য	-8.46984
লাইন	-8.47289
▁DVD	-8.47723
▁GNOME	-8.47773
▁বিফল	-8.47797
▁সহায়	-8.48141
▁প্ৰক্সি	-8.48184
ায়	-8.48219
▁ডে	-8.48287
▁block	-8.48481
+	-8.4854
দ্	-8.48561
▁আমেৰিকা	-8.48597
গত	-8.48732
▁URL	-8.48838
▁10	-8.48902
ডি	-8.48962
চ্	-8.49048
▁৩	-8.49351
▁ঘ	-8.4983
▁ইনস্টল	-8.49843
▁যন্ত্ৰ	-8.4986
j	-8.49889
▁অনুপ্ৰয়োগ	-8.50043
▁মেমৰি	-8.50268
60	-8.50362
▁যৌনাংগ	-8.50689
াম	-8.50866
▁খেল	-8.51047
▁চাৰ্ভাৰৰ	-8.51112
unicode	-8.51113
▁ভাষা	-8.51307
▁গুৱাহাটী	-8.51539
▁এখন	-8.523
কৃত	-8.52312
il	-8.52332
▁এটি	-8.52353
▁তলত	-8.524
▁বৃদ্ধি	-8.52407
ct	-8.52467
থা	-8.52625
21	-8.52668
▁মাহ	-8.527
▁আই	-8.52754
▁অতিৰিক্ত	-8.52826
▁অসামৰ্থবান	-8.52839
জু	-8.53053
▁চা	-8.53089
▁0	-8.53095
▁ব্যক্তি	-8.53258
▁ডাইলগ	-8.53259
▁পৰিচয়সমূহ	-8.53471
▁8	-8.53492
▁আচমন	-8.53694
▁বছৰ	-8.53815
▁ভি	-8.541
▁ভিডিও	-8.54131
▁হিসাবে	-8.54131
▁স্বনিৰ্বাচিত	-8.54133
▁সেইটো	-8.54258
▁অসম	-8.5433
ঙ	-8.54507
▁সত্য	-8.54516
▁ভলিউম	-8.54569
▁দি	-8.54657
16	-8.5486
▁সংৰূপ	-8.54967
▁সভা	-8.55116
ৰ্ট	-8.55437
▁General	-8.55452
▁পুনঃ	-8.55452
▁পত্ৰচিহ্ন	-8.55452
▁লিখা	-8.55516
▁অপেক্ষা	-8.55524
▁লগত	-8.55612
ীয়া	-8.56022
50	-8.56094
ৰূপে	-8.56117
▁সম	-8.56285
▁দেখুৱা	-8.56389
▁কিছুমান	-8.56394
▁লোৱা	-8.5649
াব	-8.56551
▁পুনৰায়	-8.56855
ৰণ	-8.56925
\	-8.56926
টাৰ	-8.56976
▁ইন	-8.57063
▁ফোল্ডাৰে	-8.57101
▁বিভাগ	-8.57255
▁পেইন	-8.57314
11	-8.57351
▁বাৰ্ন	-8.57458
▁লেখা	-8.57721
ৰো	-8.57808
কু	-8.57858
▁মূল	-8.57901
দি	-8.5797
▁দস্তাবেজ	-8.5811
▁XML	-8.58149
▁অবস্থা	-8.58306
▁ইছলাম	-8.58435
▁ছবিৰ	-8.58459
▁তৈৰি	-8.58606
8	-8.58648
▁পোৰ্ট	-8.58698
০	-8.5898
ধ	-8.5901
▁অস্থায়ী	-8.59064
▁নম্বৰ	-8.59068
▁বীমাকৃত	-8.59107
▁পঢ়া	-8.59181
ভা	-8.59225
▁চলি	-8.5927
▁পুল	-8.59362
▁এপ্লিকেচন	-8.59492
\\\	-8.59525
▁শক্তি	-8.59537
▁গণিত	-8.59541
▁অসমৰ্থিত	-8.59988
ওক	-8.60033
▁প্ৰৰণ	-8.60053
িয়ে	-8.60151
▁সহ	-8.60203
▁সেৱক	-8.6024
▁মিলি	-8.6031
াহ	-8.60367
▁সম্পদ	-8.60454
▁নিৰ্ব্বাচন	-8.60454
▁ডা	-8.60658
▁আবৰ্জনা	-8.60808
ভাৰ	-8.60893
▁চাওক	-8.60981
32	-8.61366
▁সংযোগক্ষেত্ৰ	-8.6139
▁লাগে	-8.6139
▁আপনাৰ	-8.61394
▁বিন	-8.61486
মো	-8.61658
▁part	-8.61895
▁বিজ্ঞান	-8.61903
▁টকা	-8.62086
ুৰ	-8.62126
▁সি	-8.62241
▁কী	-8.62248
ষ্	-8.62569
▁CPU	-8.62612
ent	-8.62758
▁উইজেট	-8.62824
▁সম্পাদক	-8.62879
▁is	-8.62931
▁সৰু	-8.62941
email	-8.63274
▁নিয়ন্ত্ৰণ	-8.6329
▁মই	-8.63435
▁20	-8.63523
াল	-8.63528
7	-8.63669
াইট	-8.6368
▁আপডেইট	-8.63771
▁অবধি	-8.63772
▁থাকে	-8.63775
56	-8.64159
পত্ৰ	-8.64163
ta	-8.64676
▁গে	-8.64679
▁ভাল	-8.64727
▁চিনাক্ত	-8.6474
▁পেলাওক	-8.6474
▁যোগাযোগ	-8.6474
▁লেবেল	-8.64759
▁{0}	-8.64827
ত্ব	-8.64908
15	-8.64934
۝	-8.65227
▁একাউন্ট	-8.65227
▁যাওক	-8.65255
▁(3	-8.65553
▁দাবী	-8.65719
▁J	-8.66036
▁গুণ	-8.66109
▁b	-8.66184
▁সামগ্ৰী	-8.66375
▁এক্স	-8.66616
▁অভিগম	-8.66709
ুন	-8.66719
▁(4	-8.6675
▁on	-8.66759
▁পূৰ্ব	-8.66836
▁যায়	-8.66848
▁সম্পৰ্কে	-8.66881
▁দিব	-8.66954
▁প্ৰাপক	-8.67095
ঘ	-8.67195
▁সন্ধানহিন	-8.67214
▁অফলাইন	-8.6723
▁উচ্চতা	-8.67281
নী	-8.67378
ঙ্ক	-8.67543
▁অন্যান্য	-8.67703
▁সৰ্বশেষ	-8.67704
li	-8.6772
▁বড়ো	-8.67729
▁ডোমেইন	-8.68136
▁তেন্তে	-8.68205
▁সপ্তাহ	-8.68348
▁স্তৰ	-8.68417
কাল	-8.69013
ce	-8.69184
▁খেলা	-8.69355
ri	-8.69409
27	-8.69534
ক্	-8.69545
িন	-8.69637
New	-8.69672
▁লক	-8.69711
▁License	-8.69728
▁GNU	-8.69728
▁নীতি	-8.69732
▁জি	-8.69969
সি	-8.69973
▁টুলবাৰ	-8.70029
ুল	-8.7007
▁গা	-8.7021
ngoswami	-8.70241
েট	-8.70258
me	-8.70275
▁ডেস্কটপ	-8.70282
▁শীৰ্ষক	-8.7034
de	-8.70365
ম্প	-8.70371
28	-8.70494
পু	-8.70604
▁অবজেক্ট	-8.70756
▁আপোনাক	-8.70756
▁সংৰক্ষিত	-8.70757
সকলৰ	-8.70935
টৱৰ্ক	-8.71082
▁ড্ৰাইভ	-8.71192
aphukan	-8.71279
ন্ত	-8.71356
তো	-8.71627
পে	-8.71759
▁ৰূপত	-8.71792
▁ফেলুন	-8.71795
▁ঘৰ	-8.71903
▁স্ট্ৰিং	-8.7232
▁পূৰ্বে	-8.72369
▁~	-8.72384
▁w	-8.72451
▁ভা	-8.72572
িয়	-8.72635
▁অন	-8.72898
=\	-8.72941
▁দু	-8.73093
▁ধৰন	-8.7327
up	-8.7329
ংগ	-8.73524
নাম	-8.73743
▁তাক	-8.73776
te	-8.73819
▁//	-8.7387
38	-8.7388
▁Public	-8.73906
▁আপডেট	-8.73906
▁মাউন্ট	-8.73906
▁তৰ্ক	-8.73926
▁চাবি	-8.74024
▁ধৰণৰ	-8.74249
▁স্	-8.74379
ut	-8.74393
▁LDAP	-8.74441
org	-8.74513
▁কথা	-8.74718
ডা	-8.74779
▁ব্যৱহাৰযোগ্য	-8.74792
GenericName	-8.74979
▁ফলত	-8.75007
51	-8.75134
ir	-8.75136
এই	-8.75177
la	-8.75296
name	-8.75397
(23	-8.75434
if	-8.7548
▁URI	-8.75519
▁লাভ	-8.75597
ex	-8.75658
▁সহায়ক	-8.75688
▁সহায়ত	-8.75774
▁মূল্য	-8.75821
ঙ্গ	-8.75989
▁ছা	-8.7601
format	-8.76129
(1	-8.7613
▁TV	-8.76374
িউ	-8.76419
▁লগতে	-8.76424
▁action	-8.76506
▁POP	-8.76609
চন	-8.76633
▁প্ৰা	-8.76664
▁সূচনা	-8.76831
mo	-8.76905
▁‘	-8.7698
▁স্নেপশ্বট	-8.77159
keyboard	-8.77159
চ্ছ	-8.77185
▁গণনা	-8.77197
✞	-8.77632
▁বাহিৰ	-8.77674
▁প্ৰব্ৰজন	-8.77711
ড়	-8.77816
▁হয়নি	-8.77872
el	-8.77907
ত্ত	-8.77918
▁মেনু	-8.78031
▁পটভূমিৰ	-8.78079
fedoraproject	-8.78267
ation	-8.78357
48	-8.78554
▁নথিপত্ৰসমূহ	-8.78801
▁ইনপুট	-8.78825
▁আতৰাওক	-8.78825
▁ভিতৰত	-8.78826
িয়ান	-8.7894
▁আপ	-8.78946
59	-8.79025
ম্ব	-8.79366
▁গন্তব্য	-8.79387
▁বিচ্ছিন্ন	-8.79387
সং	-8.79403
সে	-8.79422
01	-8.79449
▁12	-8.79512
▁ডিভাইচৰ	-8.79517
ma	-8.79818
ক্ৰ	-8.79843
▁বৈশিষ্ট	-8.79961
▁সদস্য	-8.80443
63	-8.80452
৷	-8.8052
▁{@}	-8.8052
▁News	-8.80583
▁7	-8.80821
▁সংহতিসমূহ	-8.80942
▁এতিয়া	-8.81023
▁ব্যবহৃত	-8.81092
্র	-8.81119
▁বাৰ্ণ	-8.81188
▁ইতিহাস	-8.81214
▁V	-8.81303
েচ	-8.81304
23	-8.81326
▁মু	-8.81377
▁HTML	-8.81384
▁মাধ্যমে	-8.81573
▁এনে	-8.81608
▁সম্বাদ	-8.81672
ৰ্থ	-8.81779
▁টেগ	-8.82006
▁যেনে	-8.82082
09	-8.82166
ৎ	-8.82197
▁অনুষ্ঠান	-8.82244
চে	-8.82488
▁একে	-8.82508
to	-8.82509
▁মুক্ত	-8.82514
্ব	-8.82733
৯	-8.82767
29	-8.82792
▁পৰিবৰ্তে	-8.82826
▁কিবৰ্ড	-8.82827
J	-8.82936
all	-8.83317
▁সহযোগে	-8.83411
▁W	-8.83471
ফা	-8.83524
তালিকা	-8.8358
07	-8.83709
▁মন	-8.83836
page	-8.84062
ab	-8.84269
▁(10	-8.84461
of	-8.84554
▁আবশ্যক	-8.84591
▁চাইল্ড	-8.84591
▁পৰবৰ্তী	-8.84591
▁খ	-8.84601
▁পিক্সেল	-8.84873
▁সৰঞ্জাম	-8.85186
pa	-8.85289
▁দা	-8.8543
▁বিচাৰি	-8.85593
▁পু	-8.85674
▁সুৰক্ষিত	-8.85702
পো	-8.85755
▁(17	-8.85787
ie	-8.85955
um	-8.8622
াউ	-8.86261
9)	-8.86275
▁ব্যৱস্থাপনা	-8.86387
▁দূৰবৰ্তী	-8.86389
▁item	-8.86389
▁উলম্ব	-8.86395
and	-8.86478
ঞ্জ	-8.86576
▁অধিবেশন	-8.86611
66	-8.86689
▁ফা	-8.86868
▁ৰঙৰ	-8.86966
▁প্ৰয়োজনীয়	-8.86988
▁পূৰ্ববৰ্তী	-8.86998
▁সুমুৱাওক	-8.86999
08	-8.87045
▁নাছিল	-8.87057
red	-8.87113
▁অঞ্চল	-8.87348
▁লোক	-8.87429
▁Brasero	-8.87603
co	-8.87977
31	-8.88104
ন্ধ	-8.88107
▁বেক	-8.88148
▁লি	-8.8819
▁অস্তিত্ববান	-8.88216
▁পেলোৱা	-8.88217
▁আছিল	-8.8831
ip	-8.88354
▁যা	-8.88367
ঠ	-8.88437
▁“	-8.88569
ছো	-8.88746
টে	-8.88827
▁নহব	-8.89007
▁*	-8.89011
ার	-8.89094
▁উপস্থিতি	-8.89219
▁টাৰ্মিনেল	-8.89455
▁পূৰ্বদৰ্শন	-8.89455
▁প্ৰৱেশ	-8.89455
▁IMAP	-8.89456
▁অনলাইন	-8.8948
্ৰা	-8.89555
▁ব্যৱহাৰকাৰীৰ	-8.89733
৪	-8.8974
ধি	-8.89804
▁(28	-8.89848
ম্	-8.90066
▁শিক্ষা	-8.90086
95	-8.90425
ছা	-8.90435
▁(23	-8.90538
ভূ	-8.90557
14	-8.90597
৫	-8.90667
▁নকৰা	-8.90672
াপ	-8.90689
▁বু	-8.90708
▁প্ৰান্ত	-8.90769
▁আশা	-8.90814
ho	-8.90847
িকা	-8.90862
৬	-8.91082
▁পৰৱৰ্তী	-8.91341
18	-8.91789
lu	-8.91844
়	-8.91871
▁নিৰ্দিষ্ট	-8.91978
▁নিয়ম	-8.91985
▁আদেশ	-8.92035
▁কিনা	-8.92043
58	-8.92143
▁সে	-8.92168
40	-8.92421
▁ক্ৰ	-8.92469
কৰ্তা	-8.9247
98	-8.9249
ক্ত	-8.92545
▁চৰ্টকাট	-8.9262
▁প্ৰযোজ্য	-8.9262
▁চে	-8.92623
▁এবং	-8.92627
▁লিঙ্ক	-8.92641
port	-8.92642
▁বুলি	-8.92714
▁লগিয়া	-8.92738
▁আগত	-8.92871
৩	-8.93031
ত্	-8.93158
▁করুন	-8.93265
▁সাথে	-8.93266
▁প্ৰতিস্থাপন	-8.93281
▁কাৰ্য	-8.93407
▁উপৰ	-8.93453
ৰ্ম	-8.93554
30	-8.93578
▁টে	-8.93833
▁নহ	-8.93873
▁পো	-8.93874
▁শি	-8.93892
▁লওক	-8.94031
শ্	-8.94042
65	-8.94103
ion	-8.94174
▁তেওঁ	-8.94243
▁সাৰ্টিফিকেট	-8.94331
tion	-8.94355
মু	-8.94435
{0}	-8.94448
▁এন	-8.94454
▁সুবিধা	-8.94568
▁কেন্দ্ৰ	-8.94588
▁নকল	-8.9459
ধা	-8.95006
তকৈ	-8.95048
▁নেই	-8.95113
▁দৃদ্ধ	-8.95226
▁বিভাজন	-8.95226
▁সতৰ্কবাৰ্তা	-8.95226
04	-8.95292
ব্	-8.95335
ll	-8.95374
▁and	-8.95417
▁নকৰিব	-8.95479
22	-8.95636
ly	-8.95765
▁আইটেম	-8.95888
9	-8.959
▁পাঠ	-8.95934
81	-8.96173
▁India	-8.96441
মূলক	-8.96556
▁ইউ	-8.96579
text	-8.96595
hat	-8.96671
▁পেনেল	-8.96995
▁অহা	-8.97108
▁(11	-8.97112
▁উন্নত	-8.97226
▁১০	-8.97353
▁মোৰ	-8.97695
▁Assamese	-8.97784
▁স্থায়ী	-8.97815
▁HTTP	-8.97901
▁একাধিক	-8.97901
ন্ড	-8.98064
্ৰ	-8.98141
▁আলেখ্য	-8.98171
ve	-8.98399
চিত্ৰ	-8.98489
▁অনুসৰি	-8.98582
▁তেতিয়া	-8.98582
▁(36	-8.98687
▁মো	-8.99073
▁সমাপ্ত	-8.99124
55	-8.99198
▁সংগ্ৰহ	-8.99568
▁সেৱকৰ	-8.99748
ুৱা	-8.99844
▁দ্বিতীয়	-8.99956
▁প্ৰতিক্ৰিয়া	-8.99956
৮	-8.99991
▁৫	-8.99991
সকল	-9.00058
▁সকল	-9.00303
গো	-9.00376
স্থ	-9.00378
96	-9.00423
জাৰ	-9.00522
▁Free	-9.00651
▁মিনিট	-9.00651
▁প্ৰেৰিত	-9.00651
▁পছন্দ	-9.0083
▁অৱ	-9.00896
▁Re	-9.00906
▁উপাদানৰ	-9.00923
▁ভিত্তি	-9.01042
▁পৰিচিত	-9.01054
▁গ্ৰ	-9.01057
▁কু	-9.01089
02	-9.01181
▁উচ্চ	-9.0124
▁খামখেয়াল	-9.0135
▁যাৰ	-9.01402
চু	-9.01569
54	-9.01658
▁সমল	-9.0169
ফি	-9.01858
লিচি	-9.019
▁ক্যাশ	-9.01903
▁as	-9.01935
▁এজন	-9.01977
টন	-9.01994
সহ	-9.02053
BAR	-9.02055
▁ব্যাক	-9.0208
যুক্ত	-9.02141
▁পৰিচিতি	-9.02371
im	-9.02671
▁গু	-9.02722
▁অত্যাধিক	-9.02763
▁বানান	-9.02774
▁থিম	-9.02779
▁তলৰ	-9.02793
▁খণ্ড	-9.02798
কট	-9.02828
▁ৰখা	-9.02857
49	-9.02947
▁অধিকাৰ	-9.03022
▁কাৰ	-9.03037
▁short	-9.03304
▁নিৰ্দেশ	-9.03338
▁ঘন্টা	-9.03354
▁সাৰাংশ	-9.03479
▁পেলাব	-9.03479
বু	-9.03744
জে	-9.0379
▁সম্পন্ন	-9.03911
▁বিল	-9.03942
None	-9.04017
:(_	-9.04044
▁ধৰি	-9.04068
ন্ত্ৰ	-9.04146
▁বৈশিষ্ট্যাবলী	-9.04197
▁ঢকান	-9.04197
▁ভাৰতীয়	-9.04227
ত্ৰ	-9.0426
▁তালিকাভুক্ত	-9.04286
▁স্বয়ংক্ৰিয়	-9.04319
▁ডিস্কত	-9.04566
শি	-9.04618
▁for	-9.04656
শা	-9.04731
▁(59	-9.04808
▁নোহোৱা	-9.04922
▁মাত্ৰা	-9.0493
▁অংশীদাৰী	-9.05189
onit	-9.05255
▁বৰ্ষপঞ্জিৰ	-9.05493
om	-9.05498
▁অবস্থায়	-9.0555
▁প্ৰণালী	-9.05643
▁থ্ৰেড	-9.05652
▁দুৰ্ঘটনা	-9.05652
▁বার্তা	-9.05653
▁'{0}'	-9.05653
▁গোস্বামী	-9.05656
▁যোৱা	-9.05732
হাৰ	-9.05927
রি	-9.06023
োধ	-9.06047
▁ওপৰ	-9.0616
▁পূৰ্ণ	-9.06238
▁সুসংগত	-9.06349
▁প্ৰত্যাশিত	-9.06387
▁ফলাফল	-9.06387
▁শ্ৰেণী	-9.06387
op	-9.0654
▁ক্ৰম	-9.06724
45	-9.06824
▁অনুসাৰে	-9.07128
▁মাউছ	-9.07128
▁বহু	-9.07134
▁নিশ্চিতৰূপে	-9.07178
user	-9.07259
গ্ৰ	-9.07287
ID	-9.07354
ub	-9.0747
▁(47	-9.07584
▁ট্ৰেক	-9.07643
এৰ	-9.07643
▁পৃথক	-9.07709
▁প্ৰগ্ৰাম	-9.07715
▁অনুসন্ধানৰ	-9.07787
▁পৰিমাণ	-9.07874
▁ইউৰোপ	-9.07874
▁ফুকন	-9.07875
▁গতি	-9.07961
▁পাৰি	-9.08162
▁পৰ্দা	-9.0834
▁মৃত্যু	-9.08626
▁শেহতীয়া	-9.08626
▁ৰাখক	-9.08626
▁এনক্ৰিপ্ট	-9.08629
▁কিতাপ	-9.0863
▁দুটা	-9.08729
▁11	-9.08757
use	-9.08829
▁চেট	-9.08861
▁প্লাগিন	-9.08991
প্	-9.09227
িও	-9.0928
ı	-9.09382
▁সংমিহলি	-9.09383
▁গ্ৰাহক	-9.09383
▁ক্ষেত্ৰে	-9.09653
▁লিখিব	-9.09744
িট	-9.09949
▁উইন্ডোত	-9.1003
▁লু	-9.10037
▁পূৰ্বৱৰ্তী	-9.10147
▁পৰিষ্কাৰ	-9.10147
▁ৱেবছাইট	-9.10147
▁ডাউনলোড	-9.10147
▁স্বচালিতভাৱে	-9.10173
▁লগিন	-9.1019
46	-9.10215
88	-9.1035
▁০	-9.10386
▁পটভূমি	-9.10405
▁ড্ৰাইভাৰ	-9.10526
▁প্ৰকৃত	-9.10645
90	-9.10702
▁বাগ	-9.10727
▁প্ৰস্তুত	-9.1077
▁তৃতীয়	-9.10916
▁মন্তব্য	-9.10919
▁ব্যৱহাৰকৰ্তাৰ	-9.10923
▁পড়া	-9.10983
(4	-9.11234
দু	-9.11558
▁থাকিলে	-9.11691
▁সংযোজন	-9.11691
▁আয়তন	-9.11786
▁হিচাপ	-9.1187
ৰপৰা	-9.11881
ue	-9.12269
▁আমদানি	-9.12472
▁প্ৰতিনিধি	-9.12472
▁মৌলিক	-9.12472
▁সম্ভাব্য	-9.12472
▁কাজ	-9.12473
68	-9.12497
33	-9.12757
স্থান	-9.12759
▁খা	-9.12821
mi	-9.12854
▁চৰকাৰ	-9.13046
Possessive	-9.1326
▁প্ৰোগ্ৰাম	-9.1326
মিতাক্ষ	-9.1326
▁অন্ত	-9.13297
▁মোড	-9.13368
▁com	-9.13433
▁অক্ষৰ	-9.13622
াস	-9.13662
▁সক্ষম	-9.13674
দান	-9.13829
▁ক্ষমতা	-9.13891
▁Empathy	-9.14053
▁দৃশ্যমান	-9.14054
▁ফি	-9.14333
▁ফটো	-9.14472
▁দিশ	-9.14565
▁ফোন	-9.14832
▁প্ৰচেষ্টা	-9.14853
▁নাখায়	-9.14854
▁লেখক	-9.14858
47	-9.14863
▁প্ৰকাশিত	-9.15057
ছিল	-9.15136
▁৪	-9.152
▁আজি	-9.15297
োল	-9.15353
বাদ	-9.15359
128	-9.15444
যোগ	-9.1553
▁অক্ষ	-9.15588
▁(55	-9.15627
▁মহিলা	-9.15661
▁তথা	-9.15723
76	-9.15891
73	-9.16337
▁Exchange	-9.16473
▁আউটপুট	-9.16473
▁ইম্পোৰ্ট	-9.16473
ইল	-9.16693
35	-9.16714
▁সহজ	-9.16776
▁–	-9.1718
Query	-9.17292
▁পঠাওক	-9.17299
▁ধাৰা	-9.1745
াগ	-9.17553
▁অপ	-9.17557
▁অ্যাকাউন্ট	-9.17883
▁চলা	-9.17962
৭	-9.17997
▁পঢ়িব	-9.18021
file	-9.18038
▁আৰম্ভণি	-9.1805
▁পৰিসংখ্যা	-9.18124
িল	-9.18127
▁জ্ঞান	-9.18127
াওক	-9.18242
েক্ট	-9.18425
▁ৰুম	-9.18485
▁(50	-9.18576
13	-9.18629
▁বোঁচকা	-9.18952
▁যাবে	-9.18961
▁ফেলা	-9.18961
▁কৰ্মক্ষেত্ৰ	-9.18995
বিলাক	-9.18996
তু	-9.19036
▁আদি	-9.19191
ki	-9.19318
▁আইন	-9.19479
57	-9.19504
ল্প	-9.19613
91	-9.19634
ৰ্ড	-9.19664
Z	-9.1977
▁Foundation	-9.19793
▁আমৰিকা	-9.19793
▁Sora	-9.19794
▁সমাপ্তি	-9.19968
লু	-9.20173
মাত্ৰ	-9.20206
দে	-9.20213
ডিং	-9.2028
▁type	-9.20286
চাৰ	-9.20338
ba	-9.20562
CategoryName	-9.2064
▁পৰ্যাপ্ত	-9.2064
▁সমাধান	-9.2064
protected	-9.20648
▁বক্স	-9.20729
70	-9.20945
86	-9.21227
▁বিবৰণ	-9.21496
▁নিবেশ	-9.21523
▁#	-9.21526
▁www	-9.21562
▁পৰিবৰ্তনসমূহ	-9.21571
▁স্প	-9.21585
▁অন্তত	-9.21704
▁ডাউনল	-9.21779
▁বাচ	-9.22084
▁বাদ	-9.22183
}	-9.22337
দ্যুতি	-9.22357
▁Software	-9.22357
▁স্ট্ৰিম	-9.22357
▁বিতৰণ	-9.22358
▁(27	-9.22457
▁ফন্টৰ	-9.22559
▁@	-9.22613
line	-9.22668
▁ব্ৰ	-9.22685
ack	-9.22762
▁একক	-9.23169
▁এপসন	-9.23226
▁ক্যাটাগৰি	-9.23226
▁পৰ্দ্দা	-9.23226
▁চলোৱা	-9.23228
▁2019	-9.23242
▁প্ৰভাৱ	-9.23259
▁মাধ্যম	-9.23368
▁ভাৰত	-9.23461
▁জন	-9.23589
োন	-9.23709
di	-9.23876
pro	-9.23954
po	-9.23998
ca	-9.24003
ছন	-9.24069
▁দায়িত্ব	-9.24104
▁শিৰোনাম	-9.24104
help	-9.24104
gina	-9.24108
36	-9.24108
▁মানুহ	-9.2411
▁বিষয়বস্তু	-9.24119
▁চু	-9.24137
পেক্ষা	-9.24195
কাম	-9.24258
দিন	-9.24264
der	-9.24295
▁পাৰ	-9.24368
▁an	-9.24424
ান্ত	-9.24497
92	-9.24525
ry	-9.24607
▁ধ	-9.24615
▁পলিচী	-9.24921
▁চিকিৎসা	-9.24987
▁QEMU	-9.24989
▁নীলম	-9.24989
▁অতিথি	-9.25007
▁আঁতৰাবলৈ	-9.25014
▁চমু	-9.25085
date	-9.25336
স্থল	-9.25625
39	-9.25643
▁পৰিচালনা	-9.2566
53	-9.25729
▁সংযোগমাধ্যম	-9.25881
▁সঞ্চালন	-9.25881
▁বজোৱা	-9.25882
▁কনফিগাৰেশন	-9.25884
▁টকিঅ	-9.25889
▁উচিত	-9.25918
▁প্লে	-9.26017
ছি	-9.26245
▁মেইলিং	-9.26377
ay	-9.26494
▁Y	-9.26498
▁কোড	-9.26649
34	-9.26667
▁বিস্তাৰ	-9.26696
সূচক	-9.26782
▁অনুমোদিত	-9.26782
▁মূদ্ৰক	-9.26782
▁স্থগিত	-9.26782
▁সংখ্যক	-9.26785
শু	-9.27001
▁©	-9.27022
▁স্বাস্থ্য	-9.27054
দী	-9.27274
াচ	-9.2732
▁9	-9.2739
71	-9.27489
দৰ্শ	-9.27534
77	-9.27549
▁বো	-9.27656
▁LongName	-9.27691
▁KDE	-9.27692
▁PCI	-9.27717
con	-9.27875
▁স্বাভাবিক	-9.27901
▁মানসমূহ	-9.2798
▁৬	-9.2802
বিহীন	-9.2816
▁গছ	-9.28212
har	-9.28308
ৱি	-9.28342
াংশ	-9.28425
▁এনক	-9.28455
17	-9.28494
75	-9.28565
▁টিপক	-9.28609
▁ডিবাগ	-9.28609
▁মুখগত	-9.2861
▁__	-9.28611
▁Windows	-9.28613
symbols	-9.2876
▁বিশ্ব	-9.28767
হু	-9.29024
(2	-9.29036
.2	-9.29038
▁The	-9.29087
▁ৱা	-9.29163
▁পাব	-9.29195
(5	-9.29207
▁জীৱন	-9.29338
▁ৰো	-9.29432
পৰি	-9.29447
ৰ্ক	-9.29507
ate	-9.29523
	-9.29535
▁ক্ষতিগ্ৰস্থ	-9.29535
▁মূদ্ৰণ	-9.29535
▁ৰূপান্তৰ	-9.29535
}}	-9.29545
য়ো	-9.29554
▁মডেল	-9.29559
▁কৰ্মসূচী	-9.29568
▁ধন	-9.2975
▁বাৰ্তাটি	-9.29771
▁প্ৰিন্টাৰ	-9.298
end	-9.29802
day	-9.29807
▁উল্লেখ্য	-9.29856
ne	-9.29915
mitakhya	-9.30312
ari	-9.30324
দ্ধ	-9.30407
hukan	-9.30461
▁Ekiga	-9.30469
▁প্ৰতিমূৰ্তি	-9.30469
▁প্ৰতিলিপি	-9.30469
▁অংশগ্ৰহণকাৰী	-9.3048
▁বিকাশ	-9.30524
ষণ	-9.3056
▁ফলে	-9.30843
43	-9.30919
েক্স	-9.3099
dev	-9.3125
▁এনক্ৰিপশন	-9.31413
▁পংক্তি	-9.31413
▁ফাঁকা	-9.31413
▁ৰেকৰ্ড	-9.31413
▁লিখুন	-9.31423
▁0.0	-9.31436
ৰ্ত	-9.31801
নিয়া	-9.32047
লেণ্ড	-9.32144
▁পৰ্দাৰ	-9.32164
hi	-9.3225
জনক	-9.32318
▁2.	-9.32346
▁গোলগাল	-9.32365
▁ব্যৱস্থাপক	-9.32372
▁ব্যৱস্থাপ্ৰণালী	-9.32384
াছ	-9.32408
ুক	-9.32493
▁Jan	-9.32522
ge	-9.32558
ment	-9.326
মূ	-9.32612
▁অধীনত	-9.32655
▁খোলিব	-9.32665
▁জো	-9.32694
▁13	-9.32694
ast	-9.32697
Q	-9.32809
▁প্ৰতিষ্ঠান	-9.32862
▁এইচ	-9.33011
▁search	-9.33166
PL	-9.33297
▁কম্পিউটাৰ	-9.33327
▁আতৰোৱা	-9.33327
▁বেছি	-9.33361
▁কুকি	-9.33413
ডো	-9.33551
▁ব্যক্তিৰ	-9.33582
গু	-9.33597
▁বিশিষ্ট	-9.33753
Va	-9.33788
time	-9.33826
▁দিলে	-9.33957
মুখ	-9.34081
per	-9.34129
Description	-9.34298
▁ইত্যাদি	-9.34298
▁লোকচান	-9.34306
mail	-9.34366
্তি	-9.34416
▁দৰে	-9.34477
05	-9.34583
ণি	-9.34693
79)	-9.3477
ওঁ	-9.34813
▁প্ৰমাণ	-9.34917
ফে	-9.35023
▁ঈ	-9.35137
▁In	-9.3524
Contributions	-9.35278
▁জিপ্লাছ	-9.35278
▁প্রদর্শন	-9.35278
▁নাযাব	-9.35279
▁দৈৰ্ঘ্য	-9.35288
▁..	-9.35306
▁ব্যুৰ	-9.35338
▁গো	-9.354
▁+	-9.3544
▁কাৰ্য্যসমূহ	-9.35442
000	-9.35464
ize	-9.35476
uti	-9.35493
▁প্ৰাচল	-9.35861
▁আহি	-9.35874
▁প্ৰেৰক	-9.36056
াও	-9.36149
▁৮	-9.36172
▁খু	-9.36264
▁পুনৰাবৃত্তি	-9.36268
▁লুকুৱা	-9.36268
▁আঁচনি	-9.36268
▁বীজ	-9.36269
▁খালি	-9.36356
▁ডাটা	-9.36381
িম	-9.36481
▁ইমেইল	-9.36484
93	-9.36497
▁উদাহৰণ	-9.36567
▁সম্	-9.3662
▁উদ্দেশ্য	-9.36665
▁ৰাখিব	-9.36715
go	-9.36833
হীন	-9.37064
▁যুক্ত	-9.37068
06	-9.37121
নু	-9.37204
▁কেমেৰা	-9.37268
▁ঘৰৰ	-9.37468
▁খনক	-9.37631
চল	-9.3778
$	-9.37802
▁bu	-9.37827
▁Wi	-9.37924
▁16	-9.3797
ভো	-9.38
ক্ষণ	-9.38115
▁নিউ	-9.38134
ock	-9.38175
▁ৰূপ	-9.3824
Color	-9.38277
ā	-9.38278
▁ক্লাএন্ট	-9.38278
▁প্ৰবিষ্টি	-9.38278
▁মখোমুখী	-9.38278
▁GTK	-9.38278
▁আৰ্হি	-9.38278
link	-9.38279
mm	-9.38285
▁reset	-9.38286
89	-9.38387
মেন	-9.38388
ল্ট	-9.3854
▁(48	-9.38555
লাই	-9.38572
▁সময়েৰ	-9.38706
▁ঠিক	-9.38722
▁পঠোৱা	-9.38791
▁al	-9.38838
03	-9.3884
▁দে	-9.39057
▁re	-9.39088
one	-9.39101
▁ফোল্ডার	-9.39125
▁এল	-9.39252
ti	-9.39252
▁নিৰাপদ	-9.39299
▁ফ্ল্যাগ	-9.39299
UTF	-9.39299
▁এশিয়া	-9.39301
▁পৰিয়াল	-9.3931
log	-9.39355
dy	-9.39398
▁দিছে	-9.39409
="	-9.39464
্বা	-9.39612
ia	-9.39613
▁স্টে	-9.39825
*	-9.40033
্ড	-9.40105
▁ShortName	-9.40329
▁সৰ্বোচ্চ	-9.40329
▁"{1}"	-9.4033
▁IP	-9.40458
হী	-9.40484
▁সভাৰ	-9.40537
▁সূচী	-9.40548
19	-9.40566
▁ব্যৱহাৰকৰ্তা	-9.40685
▁উন্নয়ন	-9.40788
44	-9.40854
্ম	-9.4101
লিক	-9.41109
▁আগ	-9.41161
সকলে	-9.41268
▁এটাচমেন্ট	-9.41372
▁গুৰুত্বপূৰ্ণ	-9.41375
▁সৰিয়ে	-9.4138
99	-9.41526
▁ব্যস্ত	-9.4158
াজ	-9.41733
▁কাৰ্ড	-9.41773
▁fs	-9.41955
িচ	-9.42246
▁by	-9.4231
▁গোপন	-9.42389
ist	-9.42407
▁National	-9.42424
▁ঠিকানা	-9.42425
▁মনিটৰ	-9.42425
▁নিজৰ	-9.42451
ন্স	-9.42465
খিনি	-9.4249
▁প্ৰসাৰিত	-9.42491
▁14	-9.42568
io	-9.4257
(14	-9.42771
he	-9.42806
▁যোগান	-9.42841
▁তেওঁৰ	-9.42943
▁ভাবে	-9.43196
চিহ্ন	-9.43295
গুলি	-9.43298
▁নিম্ন	-9.4338
(26	-9.43472
▁কমপিউটাৰ	-9.43488
▁ভাৰ্চুৱেল	-9.43488
▁সতেজ	-9.4349
▁স্কেন	-9.4349
চাই	-9.4349
42	-9.43511
▁পৰীক্ষণ	-9.43568
va	-9.43642
24	-9.4365
ফো	-9.43739
▁বিষয়ক	-9.43769
ণা	-9.43793
▁খোলিবলে	-9.43795
37	-9.43819
na	-9.44147
▁চাল	-9.44209
▁জুম	-9.44265
#	-9.44403
▁অনুকৰণ	-9.44454
▁ডিৰেক্টৰি	-9.44563
▁Bollywood	-9.44563
▁আফ্ৰিকা	-9.44563
▁প্ৰত্যুত্তৰ	-9.44563
▁নিৰীক্ষণ	-9.44571
০০	-9.44587
▁খবৰ	-9.44624
78	-9.44679
▁পছন্দৰ	-9.44712
▁কামসূচী	-9.44752
▁24	-9.44858
▁দুই	-9.44879
(13	-9.45129
▁(20	-9.45164
খা	-9.453
ai	-9.45345
▁ৰোগ	-9.4536
্ৰি	-9.45374
mdraid	-9.4565
▁JSON	-9.4565
▁থীম	-9.4565
▁USB	-9.45651
▁Z	-9.4568
▁স্থায়ীৰূপে	-9.45681
Show	-9.45731
▁নোৱাৰে	-9.45818
▁not	-9.46001
ong	-9.46089
▁খাম	-9.46226
ঢ়	-9.46235
▁শাৰীৰ	-9.46343
▁(18	-9.4641
▁স্থানত	-9.46512
www	-9.46662
bo	-9.46691
ap	-9.46695
▁ধাৰ্য্যত	-9.46701
নীয়	-9.46741
꧂	-9.46749
▁VPN	-9.46749
সমুহ	-9.46751
▁স্ক্ৰিপ্ট	-9.46755
▁꧁	-9.4677
▁ৰাজ্য	-9.46793
আই	-9.4689
▁লিখাৰ	-9.46893
সু	-9.4696
ডিঅ	-9.47075
▁ভাষাৰ	-9.47214
[	-9.47253
টোৱে	-9.47293
থি	-9.47298
▁গৃহ	-9.47343
▁বিশ্বাস	-9.47368
(45	-9.47508
▁ডিভাইচসমূহ	-9.47639
▁উজ্জ্বল	-9.47748
▁পৰিকল্পনা	-9.4786
▁জড়িত	-9.4786
▁SSL	-9.47861
▁স্পুল	-9.47883
▁নথকাকৈ	-9.4789
▁প্ৰধান	-9.479
74)	-9.47911
▁নেট	-9.47962
ga	-9.4816
্স	-9.48184
▁চাপ	-9.48395
▁ভে	-9.48537
▁আগতে	-9.48918
▁অৱশিষ্ট	-9.48983
▁নিয়ন্ত্ৰক	-9.48983
▁শেল্ফ	-9.48983
▁লিখনযোগ্য	-9.48984
▁আমাক	-9.49003
▁পূৰণ	-9.4901
▁টেবুল	-9.49034
nc	-9.49086
▁বাহিৰে	-9.49086
▁দস্তাবেজত	-9.49158
চিত	-9.49323
ইয়া	-9.4937
▁এম	-9.49373
পাৰ	-9.4951
ড়া	-9.49556
েয়াৰ	-9.49673
বদ্ধ	-9.49983
oogle	-9.50063
Coptic	-9.5012
▁hrs	-9.5012
▁বিচৰা	-9.50121
▁সৰ্বনিম্ন	-9.50122
▁প্ৰতিৰোধ	-9.50122
▁ব্লক	-9.50123
▁পুৰনি	-9.50126
▁বিৰতি	-9.50136
ফোল্ডাৰ	-9.50156
▁ঠাই	-9.50164
97	-9.50293
▁চাব	-9.50297
▁আপনি	-9.50303
▁নো	-9.50825
▁18	-9.50924
▁মনত	-9.50925
▁চাবিৰ	-9.50957
ুলি	-9.51111
▁জনা	-9.51132
ine	-9.51149
▁গোপনীয়	-9.51198
☬	-9.51254
প্ৰযুক্তি	-9.51256
а	-9.51269
▁পৰিবৰ্তিত	-9.51269
▁মূখ্য	-9.51269
▁ৰাজহুৱা	-9.51269
▁ছে	-9.51303
ংক	-9.51311
▁লিপি	-9.51328
▁Nil	-9.51343
atch	-9.51377
ফ্	-9.51404
est	-9.51508
own	-9.51565
▁সাব	-9.51754
83	-9.51867
▁অনুপ্ৰয়োগৰ	-9.51889
▁তাচ	-9.51957
▁সমলসমূহ	-9.51969
are	-9.52255
▁সদায়	-9.52277
able	-9.52426
▁পদাৰ্থ	-9.52432
▁ৰহমান	-9.52433
▁ৰয়েছে	-9.52433
▁টাইপ	-9.52435
▁নীৰিক্ষণ	-9.52441
▁অনুজ্ঞা	-9.52447
File	-9.52473
▁সফল	-9.52485
Next	-9.52493
ant	-9.52613
52)	-9.52681
▁ধৰণে	-9.52867
▁১৯	-9.52954
52	-9.53054
▁(13	-9.53056
Fi	-9.53134
েজ	-9.5336
int	-9.53447
োপ	-9.53588
▁তাস	-9.53607
oswami	-9.53608
▁পৰিশোধ	-9.53609
▁সংকলন	-9.53609
20)	-9.53612
▁হোস্ট	-9.53612
▁গৈছে	-9.53628
▁বৰ্জন	-9.53647
▁এছিয়া	-9.53693
ট্ৰ	-9.53712
স্থিত	-9.53754
▁এতিয়াও	-9.53763
▁পঢ়িবলৈ	-9.53788
▁ভাষাত	-9.53792
▁(29	-9.53829
পাত	-9.54017
স্থা	-9.54099
▁ব্যবস্থা	-9.54132
▁Q	-9.54247
cal	-9.54258
োঁ	-9.54633
▁event	-9.54657
▁(54	-9.5479
Permissions	-9.54799
▁লাইব্ৰেৰী	-9.54799
▁সঁজুলি	-9.54799
▁সৰ্বমোট	-9.54799
▁চিকিৎসালয়	-9.54801
▁স্বনিৰ্ধাৰিত	-9.54803
▁চলাওক	-9.54828
গৰাকী	-9.54833
▁সময়সীমা	-9.5484
search	-9.54999
▁চোৱা	-9.55175
▁পূৰ্বপ্ৰদৰ্শন	-9.55202
ভিল	-9.55207
▁CA	-9.55365
▁সাম	-9.55496
ডাৰ	-9.55637
▁আতৰাব	-9.55727
64)	-9.55789
▁পৰামৰ্শ	-9.56004
▁ভঁৰাল	-9.56004
▁কাৰ্ছাৰ	-9.56004
▁media	-9.56006
▁দূৰ	-9.56008
▁আঁতৰাওক	-9.56008
right	-9.56058
▁ব্ৰাউজাৰ	-9.56067
পূৰ্ণ	-9.5611
▁স্ক্ৰল	-9.56157
▁Ma	-9.56232
ফল	-9.56534
▁বহিৰ	-9.56898
▁উল	-9.57013
▁বতৰ	-9.57107
Ethiopian	-9.57223
▁ইংৰাজী	-9.57223
▁ইন্টাৰনেট	-9.57223
▁দূৰৱৰ্তী	-9.57223
▁ৰামানুজন	-9.57223
OR	-9.57257
গুলো	-9.57273
▁চকেট	-9.57276
▁প্ৰি	-9.57294
ক্র	-9.57339
▁৭	-9.57346
ভিত্তিক	-9.57498
▁কৰিছিল	-9.5752
ধ্য	-9.57547
▁30	-9.5786
▁বাকচত	-9.58017
▁২০	-9.58095
কাশ	-9.5816
▁(46	-9.58269
টিকে	-9.58359
▁নিৰ্দেশক	-9.58442
MIME	-9.58458
▁IFFCO	-9.58458
▁প্ৰডাক্ট	-9.58458
▁মুহাম্মদ	-9.58458
▁সম্পত্তি	-9.58458
▁ক্লিপবৰ্ড	-9.58458
▁ভিন্ন	-9.58458
▁টিউব	-9.58459
▁হওয়া	-9.58461
▁সম্পৰ্কিত	-9.58522
read	-9.58534
▁সোঁ	-9.58597
out	-9.58621
▁বাফাৰ	-9.58653
▁যাতে	-9.58659
ৰ্গ	-9.58704
85	-9.58729
▁পৰিচালন	-9.58766
ড়ি	-9.58809
▁লগা	-9.59169
state	-9.59268
▁ট্ৰে	-9.59284
াৰি	-9.59301
tar	-9.59372
CD	-9.59415
▁প্ৰমাণীকৰণৰ	-9.59544
▁40	-9.59671
▁টগল	-9.59709
▁ট্যাব	-9.5971
info	-9.59724
▁ডাঠ	-9.59747
▁কোম্পানী	-9.59811
গ্	-9.59856
য়োগ	-9.60056
tr	-9.60095
▁পঠ	-9.60231
=%	-9.60267
▁বিন্দু	-9.60399
▁ডমেইনৰ	-9.6055
▁অসমৰ	-9.60634
av	-9.60675
IT	-9.60703
87	-9.60704
▁স্বচালিত	-9.60907
Sound	-9.60974
▁চফ্টৱেৰ	-9.60974
▁প্ৰিমিয়াম	-9.60974
▁বিশ্ববিদ্যালয়	-9.60974
▁বৰাদ্দ	-9.60974
Play	-9.60976
▁Google	-9.61037
বাইল	-9.61088
িছ	-9.61092
▁প্ৰকাৰ	-9.61182
/%	-9.61247
▁প্ৰাথমিক	-9.61427
▁নকৰিলে	-9.61442
▁প্ৰাচলসমূহ	-9.61519
▁উইন্ডোক	-9.61615
Re	-9.61705
▁পছন্দসমূহ	-9.61747
▁দেশ	-9.61782
low	-9.61801
▁15	-9.61937
▁মিডিয়া	-9.62037
▁টোকা	-9.62108
াৰ্	-9.62227
▁প্ৰভাবিত	-9.62256
▁শূণ্য	-9.62256
▁সংকোচন	-9.62256
▁সতৰ্কবাণী	-9.62256
▁উৎপন্ন	-9.62257
▁মেপ	-9.62294
▁প্লেইন	-9.62318
▁সৰ্ব	-9.62341
মিন	-9.62342
▁উদ্	-9.62394
▁গোট	-9.62433
▁কলাম	-9.6261
▁পেনেলৰ	-9.62702
▁তুলি	-9.62757
500	-9.62795
ISO	-9.62811
ft	-9.6331
স্বয়ংক্ৰিয়ভাবে	-9.63333
▁প্ৰতিটো	-9.63437
▁ছবিসমূহ	-9.63439
দৃশ্য	-9.63553
â	-9.63554
ا	-9.63554
dictionary	-9.63554
স্খলিত	-9.63554
▁শৈলী	-9.63554
▁দ্ৰুত	-9.63555
▁অজানা	-9.63555
▁টাইম	-9.63569
▁পঠাব	-9.63576
lock	-9.63652
▁চেল	-9.63777
▁বাকচৰ	-9.6402
▁টুল	-9.64043
ive	-9.64101
অনু	-9.64177
ite	-9.64222
বিধান	-9.64314
edit	-9.64369
%%	-9.64629
▁গৰাকী	-9.6466
▁ব্যৱসায়	-9.64785
▁ব্যৱস্থাৰ	-9.64812
ন্যা	-9.64816
▁চুক্তি	-9.64864
▁অবাঞ্ছিত	-9.6487
▁ইসুজু	-9.6487
▁দীঘল	-9.6487
▁ধ্বনি	-9.6487
title	-9.64872
82)	-9.64873
▁ব্ৰাউছাৰ	-9.64922
▁সঠিকভাবে	-9.64952
▁ৰক্ষা	-9.64973
ৰূপ	-9.65023
▁✞	-9.65041
▁পাছত	-9.65162
▁দেখ	-9.65245
▁লাইন	-9.65307
eb	-9.65426
▁17	-9.65439
সময়	-9.65491
▁প্ৰকৃতি	-9.65514
িতা	-9.65542
set	-9.65573
list	-9.65645
iv	-9.65924
II	-9.66089
ach	-9.66185
{{	-9.66191
▁uuid	-9.66204
▁আবন্টন	-9.66204
▁ডকুমেন্ট	-9.66204
▁যৌথ	-9.66204
▁সংক্ষিপ্ত	-9.66204
▁দক্ষতা	-9.66204
▁ব্ৰিজ	-9.66204
▁শতাংশ	-9.66204
▁শ্ৰী	-9.66206
▁প্ৰাৰম্ভিক	-9.66271
94	-9.66446
41	-9.66487
মেন্ট	-9.66531
শীল	-9.6668
ম্ভ	-9.66731
যা	-9.66784
ভুক্ত	-9.66813
▁$1	-9.66936
▁মধ্য	-9.66958
▁Sa	-9.67017
▁প্ৰতিষ্ঠা	-9.67018
ase	-9.67063
▁অৰ্থাৎ	-9.67084
▁কাট	-9.67144
▁অধিসূচনা	-9.67149
▁string	-9.67324
লেও	-9.67334
স্ব	-9.67448
ানো	-9.67468
▁you	-9.67488
▁নিষ্পেষণ	-9.67555
▁নিৰ্গম	-9.67555
▁আড়াল	-9.67556
▁আলোচনা	-9.67558
▁ফীড	-9.6756
▁অন্তৰ্গত	-9.67569
▁সংজ্ঞা	-9.67571
▁প্ৰযুক্তি	-9.67571
▁আঘাত	-9.67634
ণী	-9.67657
▁(30	-9.67756
age	-9.67916
বৃত্ত	-9.67948
▁স্ক্ৰিন	-9.68265
$1	-9.68303
▁সেৱাৰ	-9.68458
zu	-9.68471
▁ৰিমাইন্ডাৰ	-9.68499
রু	-9.68558
Un	-9.6857
IN	-9.68624
প্র	-9.68666
▁100	-9.68708
াবিব	-9.68839
গ্ৰা	-9.68888
ঝ	-9.68924
default	-9.68925
▁Meeting	-9.68925
▁দক্ষিণ	-9.68925
print	-9.68925
▁হ্ৰাস	-9.68927
▁সঠিকৰূপে	-9.68999
▁মুঠ	-9.69044
▁Inc	-9.69123
▁যদিহে	-9.69191
▁50	-9.69347
-8	-9.69355
দেশ	-9.69372
ide	-9.69598
▁\	-9.69635
স্প	-9.6964
ধৰণ	-9.69768
▁যত	-9.69771
▁ফ্লেগ	-9.6989
▁নামকৰণ	-9.6993
▁পোস্ট	-9.70089
▁সো	-9.70101
mac	-9.70105
(46	-9.70156
লগ	-9.70197
ph	-9.70247
▁অভিনেতা	-9.70314
▁কোৰআন	-9.70314
▁this	-9.70314
▁থাকলে	-9.70314
▁স্কিমা	-9.70315
▁চেনেল	-9.70315
▁আনলক	-9.70325
▁App	-9.70394
▁file	-9.70453
▁ট্ৰি	-9.70507
গছনি	-9.70516
ৰ্ন	-9.70564
▁লিখনীৰ	-9.70651
pi	-9.70673
▁সাহায্যে	-9.7077
▁নিৰ্বাচক	-9.70784
াইজ	-9.70866
ডু	-9.70971
▁ভাৰতত	-9.71072
দেৰ	-9.71148
▁De	-9.71184
▁ছু	-9.71233
▁বাচি	-9.7129
▁key	-9.71458
sec	-9.71518
▁de	-9.71524
▁উই	-9.71571
ৱৰ্ত	-9.7161
▁আম	-9.71648
▁থ	-9.71694
ü	-9.71722
▁পৰিপ্ৰেক্ষতিত	-9.71722
▁বিপৰীত	-9.71723
▁ৰিচাৰ্ছ	-9.71723
▁সংকেত	-9.71726
▁নাকচ	-9.71733
▁বিলম্ব	-9.71754
User	-9.71766
box	-9.71859
▁(100	-9.72047
লেট	-9.72135
রা	-9.72149
িয়াম	-9.72301
▁আখৰৰ	-9.72411
পূৰ্ব	-9.72617
http	-9.72619
64	-9.72732
▁ধৰনৰ	-9.72828
খি	-9.72854
পেড	-9.7293
man	-9.73122
▁ভাষাসমূহ	-9.73138
Ð	-9.73151
▁weekday	-9.73151
▁ফাইলচিস্টেম	-9.73151
▁বহিৰ্তম	-9.73151
▁বাইনাৰি	-9.73151
▁শুধুমাত্ৰ	-9.73151
▁সৃজন	-9.73151
menu	-9.73152
▁লিংক	-9.73178
ণ্ট	-9.7323
▁হৈতো	-9.73297
▁সামৰি	-9.73306
▁মহা	-9.736
▁পৰ্দাত	-9.73602
79	-9.73628
▁সেৱকেৰ	-9.73755
▁ছি	-9.73866
▁$	-9.73886
াৰ্ড	-9.7394
99)	-9.74028
84)	-9.74061
ক্ষিত	-9.74094
12)	-9.7415
▁কিমান	-9.74268
বেক	-9.74371
min	-9.74389
▁বুটামৰ	-9.74413
ছেন	-9.74512
▁query	-9.74558
▁তিনি	-9.74577
load	-9.746
iCalImp	-9.746
▁পাচফ্ৰেইছ	-9.746
ر	-9.746
▁ইঞ্জিন	-9.746
▁দেওয়া	-9.746
▁পলিচীৰ	-9.74642
এল	-9.74675
▁সাবস্ক্ৰাইব	-9.74718
▁চাৰ্জ	-9.74724
em	-9.74735
ook	-9.74746
▁পক্ষৰ	-9.74794
▁19	-9.74828
97)	-9.74866
get	-9.74893
▁বাটন	-9.74986
72	-9.75152
ুদ্ধ	-9.7528
▁No	-9.75298
্ৰু	-9.75388
▁একাওন্টসমূহ	-9.75416
▁উপৰত	-9.75564
ang	-9.75573
টেক্সট	-9.75627
▁with	-9.7582
▁পৃষ্ঠাসমূহ	-9.75883
▁MAPI	-9.76071
▁কনচৌল	-9.76071
▁মাইগ্ৰেট	-9.76071
▁ৰফিকুল	-9.76071
▁PGP	-9.76071
আপুনাৰ	-9.76071
▁চলমান	-9.76074
▁আকৃতি	-9.76075
Bus	-9.76137
▁ৰেড	-9.7618
▁বিজ্ঞানী	-9.76835
মতে	-9.76849
▁Bo	-9.76877
ধী	-9.7697
কৰন	-9.77109
আপোনাৰ	-9.77167
▁প্ৰাপকৰ	-9.77228
▁দেখুৱাব	-9.77357
হো	-9.77486
১৫	-9.77493
গান	-9.77512
not	-9.77528
▁ধাৰ্য	-9.77528
▁ক্লিপ	-9.77559
button	-9.77563
▁Folder	-9.77563
▁XXX	-9.77563
▁খুলুন	-9.77563
URA	-9.77565
☬✞	-9.77583
▁আবেদন	-9.77587
▁প্ৰত্যক্ষ	-9.7759
▁তেওঁলোকৰ	-9.77595
▁ফলক	-9.77631
▁ছাইট	-9.77653
ell	-9.77671
পূ	-9.77736
▁পাথ	-9.77837
▁{	-9.77841
▁আৰম্ভণিত	-9.77846
▁আনুভূমিক	-9.77856
▁মানচিত্ৰ	-9.77894
েন্স	-9.78228
19)	-9.78326
▁বৈশিষ্ট্যসমূহ	-9.78393
▁—	-9.78693
ice	-9.78822
ঠি	-9.78863
স্ট্ৰ	-9.78898
display	-9.78904
▁বাকচ	-9.78983
▁SOCKS	-9.79078
▁আগবঢ়োৱা	-9.79078
▁ব্যাখ্যা	-9.79078
▁নিজস্ব	-9.79078
▁আধাৰ	-9.79089
▁অন্তিম	-9.79096
▁অনুপাত	-9.79111
▁পদ	-9.79175
▁IPv	-9.79194
▁সংৰূপণ	-9.7925
শন	-9.7936
▁পৰে	-9.79566
▁বাধা	-9.79596
▁ছেকেণ্ড	-9.79624
▁যিবোৰ	-9.79671
▁যিটো	-9.79678
ক্তি	-9.79812
▁error	-9.79845
▁আলেখ্যন	-9.80002
সূচী	-9.80056
▁ধাৰণ	-9.8011
ভাৱ	-9.80156
▁set	-9.8016
ক্ৰি	-9.80196
AP	-9.80202
▁দেশৰ	-9.80461
▁মালিক	-9.80498
24)	-9.80591
▁vCard	-9.80617
▁অপসাৰণ	-9.80617
▁এক্সট্ৰেক্ট	-9.80617
▁দৰঙী	-9.80617
▁মেটাৰ্চ	-9.80617
▁সফলতাৰে	-9.80617
▁স্ক্ৰিনশ্বট	-9.80617
Search	-9.80617
آ	-9.80617
▁TLS	-9.80618
▁খৰচ	-9.80631
▁কেনেকৈ	-9.80641
▁বৰ্ণনা	-9.80662
▁পপ	-9.80687
▁স্কো	-9.80772
স্টাৰ	-9.81225
▁মেনুৰ	-9.81339
▁পূ	-9.81373
▁ইছলামী	-9.81423
▁সাৰ্ভাৰেৰ	-9.81596
▁ব্	-9.81775
IS	-9.81827
পোৰ্ট	-9.81861
ফাৰ	-9.81943
▁জে	-9.82069
ইন্টাৰ	-9.82078
▁নথকা	-9.82139
বলগীয়া	-9.82147
▁ঘুৰাই	-9.82179
▁সুনিশ্চিত	-9.82179
▁সন্তান	-9.8218
▁নিবন্ধ	-9.82181
▁vir	-9.82187
▁ইফকো	-9.82225
▁lib	-9.82284
ঠা	-9.82335
▁(593	-9.82351
add	-9.82583
▁দিকে	-9.82628
▁একো	-9.82782
ব্দ	-9.82797
শ্চ	-9.8285
▁জ্যোতি	-9.82878
▁১২	-9.82895
ust	-9.83087
be	-9.83174
ran	-9.83396
(47	-9.8342
▁চেক	-9.83431
Indian	-9.83546
ব্যস্ত	-9.83566
▁গণ	-9.83568
শাৰী	-9.83579
ary	-9.83657
ৰ্চ	-9.83661
▁ব্ৰাউজ	-9.83684
ř	-9.83766
▁চালক	-9.83766
▁চিড়িতনৰ	-9.83766
▁জনপ্ৰিয়	-9.83766
▁তথাপিও	-9.83766
▁ব্যবহার	-9.83766
▁সংলগ্ন	-9.83766
▁বেটাৰি	-9.83767
▁অতিক্ৰম	-9.83769
▁অপশন	-9.83778
▁গৃহস্থ	-9.83785
▁শিশু	-9.83792
▁To	-9.83816
rd	-9.83817
▁বেকআপ	-9.83843
▁বাইট	-9.83868
▁true	-9.83891
ian	-9.84046
স্তা	-9.84056
82	-9.84107
▁org	-9.84343
ধান	-9.84453
raw	-9.84453
ক্ষা	-9.84479
ain	-9.84525
▁time	-9.8458
▁গ্লে	-9.84581
pt	-9.84657
▁আট	-9.84683
bit	-9.84901
▁ইছলামৰ	-9.85145
▁কোম্পানীৰ	-9.8515
$$	-9.85228
▁Outlook	-9.85379
▁SMTP	-9.85379
▁অগ্ৰাহ্য	-9.85379
▁ইশকাপনৰ	-9.85379
▁ৰুহিতনৰ	-9.85379
header	-9.8538
▁ফৰমেট	-9.8538
▁পাওয়া	-9.8538
▁তেখেত	-9.8538
▁কৰ্মস্থলৰ	-9.85383
card	-9.85397
▁ৱেবপৃষ্ঠা	-9.854
▁তুলনা	-9.8544
▁অনুক্ৰম	-9.85471
▁কোষ	-9.85491
new	-9.85491
▁আইডি	-9.85495
ER	-9.85548
▁200	-9.85569
▁পৰিৱেশন	-9.85597
ষ্টা	-9.85646
▁‘%	-9.85656
▁দশক	-9.85813
▁অভি	-9.85952
▁ঈক্ষণকামী	-9.85985
প্ল	-9.86127
21)	-9.86147
▁ka	-9.86202
▁চিটি	-9.86209
my	-9.86311
▁চলন	-9.86334
▁Ko	-9.86855
দণ্ড	-9.86903
▁প্ৰাৰম্ভ	-9.86936
বেল	-9.86969
স্বামী	-9.87011
▁brasero	-9.87019
▁job	-9.87019
▁উপধায়ক	-9.87019
▁সঞ্চালিত	-9.87019
▁ডায়লগ	-9.87019
▁ইঙ্গিত	-9.87019
▁ৰাষ্ট্ৰীয়	-9.87028
▁প্ৰতিবেদন	-9.87028
▁এক্সপোৰ্ট	-9.87037
unja	-9.87041
▁দায়বদ্ধতা	-9.87046
▁UA	-9.87068
mode	-9.87082
ton	-9.87093
open	-9.87126
ট্ৰি	-9.87183
▁ৰুট	-9.87295
▁ধৰা	-9.87309
▁পালন	-9.87332
জী	-9.87406
বাৰ্গ	-9.87513
ty	-9.87587
ঢ়া	-9.87598
▁লিখ	-9.87634
▁ঢ	-9.87728
ল্ড	-9.87789
▁ফু	-9.88001
ঙ্	-9.88056
গ্ৰহ	-9.88146
%.1	-9.88235
▁জু	-9.88275
▁আগৰ	-9.88442
▁কর্ম	-9.88469
থো	-9.88474
ব্যৱস্থা	-9.88651
হৈছে	-9.88655
▁স্তম্ভৰ	-9.88667
number	-9.88685
▁ধজভংগ	-9.88685
▁সিস্টেম	-9.88685
Gadu	-9.88686
▁এইচকিউ	-9.88686
ê	-9.88686
▁প্ৰস্তাব	-9.88686
▁স্কেইল	-9.88686
▁হৰতনৰ	-9.88686
▁ৰেখা	-9.88686
▁কাগজ	-9.88687
▁করতে	-9.88688
econd	-9.8869
▁সোঁফালে	-9.88692
▁ব্যবহাৰকাৰীৰ	-9.88694
device	-9.88696
▁পঞ্জিকাৰ	-9.88856
▁বিধি	-9.88882
▁ঘটনাসমূহ	-9.88902
ru	-9.88956
▁old	-9.89112
▁বস্তুবোৰ	-9.89378
প্ত	-9.89445
সকলক	-9.89485
▁বিৱৰণসমূহ	-9.89491
িভ	-9.89582
▁cpu	-9.89592
▁উদাহৰণস্বৰূপ	-9.89611
▁সম্পৰ্ক	-9.89652
dir	-9.89691
▁স্থানে	-9.89766
ৰ্ধ	-9.89795
▁পক্ষ	-9.89941
েশন	-9.89991
ag	-9.9024
▁চীন	-9.90289
স্থাপন	-9.90308
▁তেনে	-9.90308
▁আৰব	-9.90312
প্ৰণালী	-9.90365
view	-9.90376
р	-9.90378
ҟ	-9.9038
▁before	-9.9038
▁iCalendar	-9.9038
▁অব্যাহত	-9.9038
▁গ্ৰন্থ	-9.9038
▁প্ৰটোকল	-9.9038
▁পৰিবহন	-9.9038
▁সম্প্ৰসাৰণ	-9.9038
▁ৰেজিস্টাৰ	-9.9038
version	-9.9038
▁xxx	-9.9038
▁একত্ৰিত	-9.9038
▁বাৰ্ষিক	-9.90381
▁দৰুন	-9.90386
কারী	-9.90386
▁জন্ম	-9.90394
ভু	-9.904
▁ধৰ্ম	-9.90409
অসমীয়া	-9.90418
কেট	-9.90425
▁সহায়িকা	-9.90439
(3	-9.90446
▁সংস্থা	-9.90465
▁Tel	-9.90557
tri	-9.90569
চান	-9.90576
▁Mar	-9.90609
িমা	-9.90866
▁নেটৱৰ্ক	-9.91015
ষা	-9.91101
app	-9.91138
▁জল	-9.91147
94)	-9.91283
▁list	-9.91341
কীয়া	-9.9145
কাচ	-9.91573
এচ	-9.91719
ৰ্ণ	-9.91809
▁কনফিগাৰ	-9.92099
▁ভ্ৰমণ	-9.92104
Action	-9.92107
▁One	-9.9211
▁সোমাওক	-9.92113
▁যোগ্যতা	-9.92128
current	-9.92131
▁সমগ্ৰ	-9.9215
▁সংবাদ	-9.92151
move	-9.92183
▁নথিপত্ৰটি	-9.92197
▁সম্ভবত	-9.92224
ুম	-9.92224
▁ডোমেইনৰ	-9.92342
ড্	-9.92368
▁জমা	-9.92447
পথ	-9.92637
াৱ	-9.9275
▁বাৰ্	-9.92786
▁from	-9.92943
কাকত	-9.93103
ষ্ঠ	-9.93362
▁বুট	-9.93374
ভেল	-9.93423
▁পৰিৱৰ্তন	-9.93433
▁এপ্লিকেচনৰ	-9.9351
(15	-9.93583
▁এইখন	-9.93681
▁message	-9.93748
▁নিৰ্ভৰ	-9.93854
tooltip	-9.93859
°	-9.93859
Ŧ	-9.93859
▁খসড়া	-9.93859
▁প্ৰত্যাখ্যান	-9.93859
▁ফলস্বৰূপ	-9.93859
▁বৰ্ত্তমান	-9.93859
▁প্ৰদর্শন	-9.93859
▁KPR	-9.93859
color	-9.9386
▁অবস্থিত	-9.93861
▁উৎ	-9.93861
67)	-9.93867
▁জন্মদিন	-9.93869
▁কাৰ্চাৰ	-9.9387
▁সমষ্টি	-9.93874
▁আহৰণ	-9.9388
▁যুদ্ধ	-9.93886
উপাদানৰ	-9.94012
▁ফৰ্ম	-9.94086
্লি	-9.94127
▁বৰ্	-9.94161
▁লঞ্চ	-9.9423
▁বস্তুসমূহ	-9.94323
▁has	-9.94345
▁স্বাভাৱিক	-9.94645
▁ঘট	-9.94784
ুট	-9.94808
off	-9.94813
▁TRUE	-9.95024
▁বাহন	-9.95125
▁চো	-9.95143
▁অৱস্থানত	-9.95161
ali	-9.95238
▁পঢ়াৰ	-9.95294
▁১০০	-9.95468
▁সন্	-9.95518
াত্মক	-9.95622
▁নিৰ্মাতা	-9.95645
▁পৰিচালক	-9.95645
▁ভূমিকা	-9.95645
▁সংগঠক	-9.95645
▁সংশোধন	-9.95645
▁ৰপ্তানি	-9.95645
▁ৱাৰেন্টি	-9.95645
address	-9.95645
gnome	-9.95645
▁অনুসৰণ	-9.95645
লুকাওক	-9.95648
▁প্ৰমাণীত	-9.95649
কালীন	-9.95649
sync	-9.95669
▁সম্পৰ্কীয়	-9.95683
▁কেতিয়াও	-9.9571
▁ছেন্ট	-9.95718
লেন্ড	-9.958
▁নথি	-9.95853
DVD	-9.95861
▁আঁকা	-9.9587
▁অনুমতিসমূহ	-9.95901
▁মাস	-9.95913
▁প্ৰদানকাৰী	-9.96025
ity	-9.96048
BC	-9.96149
▁ঠ	-9.96168
লিস্ট	-9.96252
ইছে	-9.9639
▁ISO	-9.96786
খান	-9.96809
জো	-9.96834
▁অভিব্যক্তি	-9.96886
লিকা	-9.97012
▁MA	-9.97053
ance	-9.97214
▁ভাগ	-9.97336
▁+'	-9.97415
▁বাংলা	-9.9746
html	-9.97463
▁NameMeeting	-9.97463
▁Xiaomi	-9.97463
▁গৱেষণা	-9.97463
▁বেকএণ্ড	-9.97463
▁চাকৰি	-9.97465
▁মধ্যবৰ্তী	-9.97468
▁ৰাখা	-9.97468
▁শিল্প	-9.97493
▁ম্যাদ	-9.97502
▁UID	-9.97513
▁উপযুক্ত	-9.97544
▁ধনৰাশি	-9.97554
lab	-9.97555
▁প্ৰচাৰ	-9.97606
▁চীনা	-9.97615
▁ফ্ৰেম	-9.97656
▁$$	-9.9766
পাল	-9.97684
ৃষ্ট	-9.97701
‘	-9.97745
book	-9.97751
২০	-9.97853
▁কাৰ্	-9.97918
tra	-9.97959
▁be	-9.98223
▁minutes	-9.9829
▁status	-9.98345
ial	-9.98376
▁ৰচনা	-9.9848
▁ৰাখি	-9.98486
▁২০০	-9.98693
▁সাহায্য	-9.98708
▁আহ	-9.98775
জ্ঞা	-9.98811
▁জানা	-9.98877
ক্ট	-9.98899
ask	-9.98957
▁শা	-9.98987
▁ফো	-9.99054
ুদ	-9.99145
▁সুমুৱা	-9.99296
language	-9.99314
▁GroupWise	-9.99315
▁কিচ্কিচ্	-9.99315
▁খোলোঁতে	-9.99315
▁বাওঁফালে	-9.99315
▁সুনিৰ্দিষ্ট	-9.99315
▁তাগিদ	-9.99315
▁স্বচ্ছতা	-9.99315
▁ৱেবচাইট	-9.99315
▁নিযুক্তক	-9.99316
▁মুখ্য	-9.99321
▁হেৰাই	-9.99335
▁এনকোডিং	-9.99339
▁বাতৰি	-9.99347
IP	-9.99376
▁ঈমান	-9.99392
edia	-9.99462
▁উপায়	-9.99476
▁দুবাৰ	-9.99512
▁পাতল	-9.99526
▁নোড	-9.99636
key	-9.99658
ৰ্জন	-9.99661
বোৰ্ড	-9.99669
action	-9.99676
সত্য	-9.99693
.8	-9.99783
▁ভিউ	-9.99811
▁গল	-9.99828
▁সেৱকে	-9.99955
▁বাৰ্তাসমূহকে	-9.99974
▁51	-9.99979
▁বৰ্গ	-10.0006
▁কোটি	-10.0012
▁দৃষ্টি	-10.0027
disk	-10.0029
েন্ড	-10.0036
াধিকাৰ	-10.0038
▁Key	-10.0046
▁ছেট	-10.0047
pre	-10.005
▁বিপ	-10.0064
▁Ch	-10.0073
ক্ষমতা	-10.0082
▁Vi	-10.0084
▁ডেস্কট	-10.0105
▁4.	-10.0119
slot	-10.012
▁নিৰ্মিত	-10.012
▁প্ৰবন্ধ	-10.012
▁গুৰুত্ব	-10.012
▁USA	-10.0121
▁Flo	-10.0121
▁বুড়া	-10.0123
▁দুয়ো	-10.0124
্তা	-10.0126
▁{1}	-10.0149
host	-10.0151
▁বেয়া	-10.0153
bK	-10.016
পৃষ্ঠা	-10.0161
▁ফুট	-10.0187
▁যদিও	-10.0237
লিন	-10.024
াণ	-10.026
▁ফিল্ড	-10.0261
টু	-10.0266
▁ধনৰাশিৰ	-10.0303
To	-10.0304
`	-10.0312
volume	-10.0312
▁Microsoft	-10.0312
▁অপৰিচিত	-10.0312
▁ডাটাবেইচ	-10.0312
▁বুজুৱা	-10.0312
▁তৈয়াৰ	-10.0312
▁মহাসাগৰ	-10.0312
custom	-10.0312
delete	-10.0312
▁গাড়ী	-10.0312
▁যাওয়া	-10.0312
▁সনাক্ত	-10.0312
▁যৌন	-10.0312
▁প্ৰসংগ	-10.0313
▁ব্যৱসায়ীক	-10.0313
▁প্লেয়াৰ	-10.0313
▁পূৰ্ণসংখ্যা	-10.0313
▁অমিল	-10.0313
▁সংগ্ৰহস্থল	-10.0316
▁প্ৰৰিত	-10.0317
▁পাঠযোগ্য	-10.032
▁বন্ধু	-10.033
▁ৰাজ	-10.0334
▁অংক	-10.0338
▁ডাউন	-10.0352
ugu	-10.0355
—	-10.0362
▁জীৱনী	-10.0362
বিশেষ	-10.0367
▁টু	-10.0383
পণ	-10.0392
▁দিশত	-10.041
▁যো	-10.0438
200	-10.0456
▁ওপৰৰ	-10.0459
75)	-10.0473
িবলৈ	-10.0479
▁পাৰো	-10.048
াৱলী	-10.0501
Type	-10.0503
е	-10.0508
system	-10.0509
▁PKCS	-10.0509
▁SpamAssassin	-10.0509
▁ইনক্ৰিপষণ	-10.0509
▁এপ্লেট	-10.0509
▁প্ৰৱিষ্টি	-10.0509
▁স্বাগতম	-10.0509
▁প্ৰশান্ত	-10.0509
wiki	-10.0509
▁RAID	-10.0509
Spot	-10.0509
▁নীচে	-10.0509
▁সম্ভৱতঃ	-10.0509
জাতীয়	-10.051
▁উদ্যোগ	-10.051
▁অৱস্থিত	-10.0511
▁থাকা	-10.0512
▁পাইছে	-10.0514
(22	-10.0517
▁আহিছে	-10.0518
▁অসম্পূৰ্ণ	-10.0518
▁জানিবলৈ	-10.0518
▁ব্যৱহাৰকাৰীনাম	-10.0522
▁মাৰ্ক	-10.0526
▁স্ম	-10.0527
map	-10.0534
In	-10.0544
▁জিলা	-10.0548
▁অৰ্থ	-10.0559
▁ওচৰত	-10.0571
block	-10.0578
▁গণিতজ্ঞ	-10.0611
▁ফ্ল	-10.0614
ৰ্ষ	-10.0624
▁অধি	-10.0628
▁বৈশিষ্টসমূহ	-10.0658
▁(101	-10.0659
▁কোণ	-10.0663
bb	-10.0664
by	-10.0669
েণ্ট	-10.0674
\.	-10.0678
▁প্ৰসাৰ	-10.0696
বিদ	-10.0701
এন্ড	-10.0708
Linux	-10.0708
▁02110-1301	-10.0709
▁clips	-10.0709
▁অভিনায়ক	-10.0709
▁কীপ্যাড	-10.0709
▁ক্ষেত্র	-10.0709
▁দিল্লী	-10.0709
▁ফৰৱাৰ্ড	-10.0709
▁মডিউল	-10.0709
▁মেটাডাটা	-10.0709
▁সংৰেখন	-10.0709
▁দ্বীপপুঞ্জ	-10.0709
▁ক্লেইম	-10.0709
▁সময়অন্ত	-10.0709
н	-10.0709
▁ট্যাগ	-10.0709
▁কৰ্মচাৰী	-10.0709
▁আঁতৰাওঁ	-10.0709
▁Fran	-10.071
▁সমাজ	-10.0712
rev	-10.0721
▁MAC	-10.0722
▁পৰিবৰ্তনশীল	-10.0724
▁উৎপাদন	-10.0726
▁ট্ৰা	-10.0732
▁প্রতি	-10.0737
▁VM	-10.0745
▁লিস্ট	-10.0765
▁Indian	-10.0771
2000	-10.08
site	-10.0802
lld	-10.0803
াশ	-10.0815
এইচ	-10.0827
▁তুলিব	-10.084
ঞ্জা	-10.0852
▁সিহত	-10.0855
▁বাক্স	-10.0878
▁আৰবী	-10.0889
▁আৰ্কাইভত	-10.0901
▁কেতিয়া	-10.0906
74	-10.0911
▁কীচেইনে	-10.0913
▁নিষ্কাষণ	-10.0913
▁পঠাওতে	-10.0913
▁পঠিওৱা	-10.0913
▁বলৱৎ	-10.0913
▁বোধগম্য	-10.0913
▁লাইসেন্স	-10.0913
▁হস্পিটেলত	-10.0913
▁উলোটা	-10.0913
▁অভিগম্যতা	-10.0913
▁গঠন	-10.0913
▁সূচি	-10.0913
▁ছালাত	-10.0913
▁আকৌ	-10.0913
:$1_	-10.0913
▁খাদ্য	-10.0915
▁Fift	-10.0918
▁পাঁচ	-10.0921
▁চুৰি	-10.093
%%)	-10.0947
ুপ	-10.0962
tog	-10.0974
▁সেৱাসমূহ	-10.0991
▁হাৰ্ড	-10.1004
▁বয়স	-10.1027
ute	-10.1037
্থ	-10.1059
ES	-10.109
▁ব্ৰাউছ	-10.1113
▁অন্তৰ্	-10.1114
ঘাত	-10.1115
▁বড়	-10.1121
libvirt	-10.1121
▁qemu	-10.1121
▁জৰিয়তে	-10.1121
▁নাথাকিব	-10.1121
▁নিৰাপত্তা	-10.1121
▁নূন্যতম	-10.1121
▁লিমাজীন	-10.1121
▁URl	-10.1121
▁পাৰবেন	-10.1121
Select	-10.1121
work	-10.1121
space	-10.1121
▁কম্বো	-10.1121
klin	-10.1121
▁vcpu	-10.1121
show	-10.1121
▁গ্ৰাফিক্স	-10.1121
▁কাৰ্য্যালয়	-10.1123
▁সোধা	-10.1123
▁মাজৰ	-10.1125
▁বদল	-10.1127
লিট	-10.113
▁খোৱা	-10.1135
▁প্লা	-10.1143
জীৱ	-10.1152
full	-10.1159
▁চনৰ	-10.1171
Don	-10.118
▁অ্যাকাউন্টেৰ	-10.1181
▁পানী	-10.1181
▁লিখি	-10.1183
49)	-10.1185
জান	-10.1188
▁আঁ	-10.1193
▁সেট	-10.1196
বস্তু	-10.1204
Key	-10.1204
সম্পন্ন	-10.1205
বিজ্ঞান	-10.1206
▁সোম	-10.1211
ফাইল	-10.1212
69)	-10.1213
কোনো	-10.122
ভাৰত	-10.1223
ধু	-10.1241
▁সূচনাপ্ৰদানৰ	-10.126
▁বিচাৰিব	-10.126
৫০	-10.1273
ম্যা	-10.1279
▁নিউজ	-10.128
্যু	-10.1282
▁বিৱৰণী	-10.1297
▁কেলেন্ডাৰসমূহ	-10.13
disks	-10.1309
ংশ	-10.1313
▁মোডে	-10.1313
▁do	-10.1323
▁লগে	-10.1327
▁An	-10.1327
source	-10.1334
▁Archive	-10.1334
▁Street	-10.1334
▁অছাল্লাম	-10.1334
▁অনুভূমিক	-10.1334
▁ঘোষণা	-10.1334
▁চাল্লাল্লাহু	-10.1334
▁থাম্বনেইল	-10.1334
▁নির্বাচন	-10.1334
▁প্ৰোটোকল	-10.1334
▁ব্যৱহাৰকৰোঁতা	-10.1334
▁সংস্কৃতি	-10.1334
▁সন্দৰ্ভ	-10.1334
▁সম্বন্ধীয়	-10.1334
▁June	-10.1334
▁খুলতে	-10.1334
▁স্বয়ং	-10.1334
▁বেলেগ	-10.1334
▁mbox	-10.1334
▁পশ্চিম	-10.1336
▁Web	-10.1336
▁জীবন	-10.1337
▁টিপি	-10.1338
▁উপদেশ	-10.1339
▁Times	-10.1339
স্টা	-10.134
▁খুলিবলৈ	-10.1344
ধাৰী	-10.136
▁বস্তুটি	-10.1379
the	-10.1382
মুখী	-10.1386
▁নকৰি	-10.1389
ara	-10.1399
ome	-10.1413
▁Yahoo	-10.1414
অবিকল্পিত	-10.1427
আপুনি	-10.1428
সংহতি	-10.1434
▁(278	-10.1437
ফু	-10.1445
▁গোপনীয়তাৰ	-10.1446
▁প্ৰত্য	-10.1455
▁দিবলে	-10.1457
ট্ট	-10.1468
cm	-10.1474
বিধ	-10.148
LE	-10.1482
বৰ্তী	-10.1548
group	-10.1549
folder	-10.1551
বৈকল্পিক	-10.1551
▁Shotwell	-10.1551
▁অনাকাঙ্ক্ষিত	-10.1551
▁অভিজ্ঞতা	-10.1551
▁অৱশ্যে	-10.1551
▁জ্যামিতি	-10.1551
▁প্ৰণয়ন	-10.1551
▁প্ৰস্তাৱ	-10.1551
▁বিজ্ঞাপন	-10.1551
▁ব্লুটুথ	-10.1551
server	-10.1551
▁সংরক্ষণ	-10.1551
▁একেলগে	-10.1551
▁ব্যর্থ	-10.1551
account	-10.1551
▁হাৰ্ডৱেৰ	-10.1551
▁ডেমন	-10.1552
▁অংশগ্ৰহণকৰ্তা	-10.1552
auto	-10.1552
▁বহুতো	-10.1556
কাট	-10.1557
▁ফলন	-10.1558
login	-10.1561
▁১৮	-10.1561
▁নিজে	-10.1565
▁হাঁ	-10.1568
▁ছায়া	-10.1571
▁চনত	-10.1572
▁বিস্তাৰিত	-10.1573
US	-10.1575
▁তেনেহলে	-10.1576
▁এগৰাকী	-10.158
▁খাপ	-10.1598
▁মোডত	-10.1606
ছেট	-10.1611
গুয়া	-10.1613
গ্রহ	-10.1615
▁ক্ষেত্ৰসমূহ	-10.1616
ring	-10.162
▁চৰক	-10.1622
▁Mi	-10.1623
▁start	-10.1623
IG	-10.1634
বেশ	-10.1644
cpu	-10.1657
br	-10.1657
▁বিকল্পেৰ	-10.1674
▁পাছ	-10.1675
▁সময়তে	-10.168
windows	-10.1696
ৰোনা	-10.1707
ছিয়া	-10.1707
table	-10.1713
ছবি	-10.1717
ণ্	-10.1741
▁অ্যা	-10.175
▁এপ্লিকেচনসমূহ	-10.1755
Time	-10.1769
▁প্ৰতীক	-10.177
রূপে	-10.1773
▁Jabber	-10.1773
▁reminder	-10.1773
▁আব্দুল	-10.1773
▁খেলোয়াড়	-10.1773
▁প্লেটফৰ্মত	-10.1773
▁ফজিলত	-10.1773
▁বৰকটকী	-10.1773
▁লাইব্ৰেৰি	-10.1773
▁ক্ৰীড়া	-10.1773
ompany	-10.1773
▁প্ৰদৰ্শক	-10.1773
guy	-10.1774
▁অভিধান	-10.1774
image	-10.1776
▁করে	-10.1776
▁Id	-10.1776
.245	-10.1776
▁Text	-10.1777
▁2017	-10.1778
▁সময়অঞ্চল	-10.1778
▁দশ	-10.1778
▁প্ৰসাৰণ	-10.1779
▁PIN	-10.1784
গমন	-10.1785
▁নহোৱা	-10.1785
tab	-10.1799
উপ	-10.1801
গ্ৰুপ	-10.1801
▁অনুলিপি	-10.1825
▁শাৰীত	-10.1832
▁অঙ্ক	-10.1838
▁বিদ	-10.1847
▁সৰল	-10.1848
▁দেয়	-10.1865
শেষ	-10.1875
▁মোক	-10.1886
ডাউন	-10.1886
error	-10.1887
গণিত	-10.1888
▁আউট	-10.193
▁পৰিস্থিতি	-10.1935
▁(364	-10.1946
▁symbol	-10.1963
ঁজ	-10.1963
গুণ	-10.1971
▁ছেল	-10.199
num	-10.1993
ষ্টি	-10.1999
о	-10.2
কেটেগৰী	-10.2001
▁NULL	-10.2001
▁Pidgin	-10.2001
▁একাউণ্ট	-10.2001
▁টানেলিং	-10.2001
▁মুছলিম	-10.2001
▁সম্বন্ধে	-10.2001
disabled	-10.2001
▁আলাইহি	-10.2001
▁বিক্ৰী	-10.2001
▁every	-10.2001
▁চলচিত্ৰ	-10.2001
▁code	-10.2001
▁আতৰাই	-10.2001
▁প্ৰত্যেক	-10.2001
▁আত্ম	-10.2001
▁পাইপ	-10.2002
▁১৪	-10.2012
▁সুসংগতি	-10.2012
ানু	-10.2024
▁কৰেছেন	-10.2024
▁বিচাৰক	-10.2039
▁Con	-10.2062
▁access	-10.207
▁IM	-10.2077
69	-10.2087
▁অনুসন্ধানেৰ	-10.2088
▁উইন্ডোটি	-10.2088
িয়ন	-10.209
[[	-10.2111
ভেদ	-10.2115
▁বাইন্ড	-10.2122
ুষ	-10.2124
গ্ৰাম	-10.2125
▁যাক	-10.2126
ান্ডা	-10.2155
▁সাৰ্ভাৰে	-10.2157
▁Xxx	-10.2202
ext	-10.2207
▁অংশীদাৰ	-10.2209
স্ক্ৰাইব	-10.2232
(13181)	-10.2233
period	-10.2233
▁Insurance	-10.2233
▁SASL	-10.2233
▁variant	-10.2233
▁টেমপ্লেট	-10.2233
▁পাছওৱাৰ্ড	-10.2233
▁প্ৰামাণিক	-10.2233
▁বিদ্যমান	-10.2233
▁ব্যবস্থাপনা	-10.2233
▁আচৰণ	-10.2233
▁প্ৰগতি	-10.2233
▁মাল্টি	-10.2233
Ctrl	-10.2233
(4843)	-10.2234
▁কুমাৰ	-10.2234
▁প্ৰমিত	-10.2234
▁ছোট	-10.2235
▁Com	-10.2236
scape	-10.2238
▁নবী	-10.2241
▁টেবিল	-10.2241
okio	-10.2242
▁জনোৱা	-10.2244
▁কেন্দ্ৰীয়	-10.2246
▁been	-10.2247
▁উজ্জ্বলতা	-10.2257
▁সদায়ে	-10.2265
▁বুজি	-10.2267
▁Pro	-10.2274
▁হয়তো	-10.2299
▁চাৰি	-10.23
▁ফ্লেগসমূহ	-10.2305
সবা	-10.2307
▁জেন	-10.2313
ঙ্গা	-10.2342
০০০	-10.2345
েইট	-10.2365
ঢ	-10.2367
সন্ধান	-10.2368
▁গোপনীয়তা	-10.237
▁বহিয়ে	-10.2373
্রা	-10.2378
▁xml	-10.2389
▁লিস্টে	-10.239
run	-10.2393
▁স্থাপিত	-10.2394
tag	-10.241
▁উদ	-10.2432
েন্দ্ৰ	-10.2451
▁দস্তাবেজসমূহ	-10.2454
▁তেনেহ	-10.2458
ত্ৰী	-10.2466
Disc	-10.247
Privacy	-10.2471
config	-10.2471
friend	-10.2471
▁UUID	-10.2471
▁বিনামুল	-10.2471
▁বিপদাশংকা	-10.2471
▁শ্বাইখ	-10.2471
Subject	-10.2471
د	-10.2471
▁আৰক্ষী	-10.2471
▁স্বত্বাধিকাৰ	-10.2471
▁পৰিণতি	-10.2471
▁পেইস্ট	-10.2471
▁উত্স	-10.2471
▁এখানে	-10.2471
▁যোগেদি	-10.2472
▁মেচিন	-10.2472
▁বেকএন্ড	-10.2473
▁চুক্তিসমূহৰ	-10.2474
▁নিয়ক	-10.2475
ন়্	-10.2478
▁চলক	-10.248
TV	-10.2485
▁পইন্টাৰ	-10.2487
ৰিপোৰ্ট	-10.2489
▁প্ৰাথমিকতা	-10.2492
▁ক্ল	-10.2493
▁সেয়া	-10.2493
▁উদ্ধৃতি	-10.2496
প্ৰতি	-10.2497
▁সম্পূৰ্ণৰূপে	-10.2501
▁যোগদান	-10.2502
▁পাবলৈ	-10.2505
▁স্বাক্ষৰকাৰী	-10.2516
▁আগবাঢ়িব	-10.2521
▁ভগ	-10.2526
▁পৰিৱৰ্তনসমূহ	-10.253
▁উইন্ডোতে	-10.2561
▁দাস	-10.2577
ৰ্ভ	-10.2588
▁আবৰ্জনালে	-10.2615
যেনে	-10.262
াঁচ	-10.2621
ব্যৱহাৰকাৰী	-10.2623
▁পাওঁ	-10.2623
১৯	-10.2629
বিন্যাস	-10.2637
▁প্ৰতিটি	-10.2668
▁ভিত্তিত	-10.2675
▁স্ক্ৰ	-10.2695
ctor	-10.2702
ight	-10.2704
▁জাপান	-10.2713
টেড	-10.2715
ن	-10.2715
পৰিস্ৰাৱক	-10.2715
▁Economic	-10.2715
▁dbus	-10.2715
▁অক্টোবৰ	-10.2715
▁অগ্ৰসৰ	-10.2715
▁আমন্ত্ৰণ	-10.2715
▁আল্লাহৰ	-10.2715
▁ক্ষতিপূৰণ	-10.2715
▁নৱীকৰণ	-10.2715
▁পঢ়োতে	-10.2715
▁পদক্ষেপ	-10.2715
▁পৰিস্ৰাৱন	-10.2715
▁বিৰুদ্ধে	-10.2715
▁ভাৰছুৱেল	-10.2715
▁Image	-10.2715
▁ট্যাবলৌ	-10.2715
▁প্রক্সি	-10.2715
▁কল্পনা	-10.2715
Create	-10.2715
▁অডিও	-10.2715
▁mime	-10.2715
▁গ্রহণ	-10.2715
▁CMS	-10.2715
▁কাষত	-10.2716
মিটিং	-10.2716
▁চালানো	-10.2717
ত্যাগ	-10.2717
▁প্ৰশাসন	-10.2718
▁দেখুন	-10.2718
forward	-10.2721
ৃতি	-10.2724
▁ডাম্প	-10.2724
▁গল্প	-10.2726
▁ইনলাইন	-10.2728
▁your	-10.2731
▁আলফা	-10.2743
eek	-10.2744
▁ছেকেণ্ডত	-10.2756
▁বাওঁ	-10.2772
ভাষ	-10.2785
▁ক্লাব	-10.2788
Mac	-10.2796
▁ফাইলনাম	-10.2803
url	-10.2836
কুই	-10.2852
▁হেডাৰসমূহ	-10.2856
mg	-10.2857
অথবা	-10.2877
প্ৰাপ্ত	-10.2877
▁১১	-10.2913
সকলো	-10.2917
▁sp	-10.2918
▁PC	-10.2936
কাৰ্য্য	-10.2965
example	-10.2965
ঔ	-10.2965
▁অবিহনে	-10.2965
▁দৈনিক	-10.2965
▁ব্যতিক্ৰম	-10.2965
▁মীমাংসা	-10.2965
▁মুদ্ৰণ	-10.2965
▁সংক্রান্ত	-10.2965
▁সাপ্তাহিক	-10.2965
▁হেঁচকা	-10.2965
desktop	-10.2965
▁অধ্যয়ন	-10.2965
▁নিৰূপণ	-10.2965
Socket	-10.2965
▁ঈশান	-10.2965
▁পৰিসেবা	-10.2965
create	-10.2965
▁আপনাকে	-10.2965
▁gedit	-10.2966
refer	-10.2967
▁ইনক্ৰিপ্ট	-10.2967
▁শৰ্মা	-10.2968
▁পুথি	-10.2969
▁মানৱ	-10.2974
▁স্পষ্ট	-10.2975
▁কোম্পানীয়ে	-10.298
▁লিখতে	-10.298
▁একেটা	-10.2986
ভাগ	-10.2989
▁TX	-10.299
▁ক্ৰমিক	-10.2994
ানিবলৈ	-10.3044
▁ৰিমাইন্ডাৰসমূহ	-10.3044
window	-10.3053
uri	-10.3076
ৰ্দ	-10.3089
সন্মত	-10.3094
ৰ্য্য	-10.3135
start	-10.3137
হয়েছে	-10.314
▁পৃষ্ঠ	-10.3142
স্বত্ব	-10.3151
ost	-10.3162
্যাট	-10.3171
▁খুলিব	-10.3209
▁অস্তিত্ব	-10.3222
▁বৈদ্যুতিক	-10.3222
▁অলিম্পিয়াড	-10.3222
▁আগবঢ়াওক	-10.3222
▁ডায়ালগ	-10.3222
▁বর্ষপঞ্জি	-10.3222
▁সংঘঠন	-10.3222
▁নাগৰিক	-10.3222
অগ্নিকাণ্ড	-10.3222
▁চিনেমা	-10.3222
▁যাচ্ছে	-10.3222
(2651)	-10.3222
▁সজোৱা	-10.3222
▁বন্টন	-10.3222
▁DNS	-10.3222
▁মেইলবক্স	-10.3222
(20	-10.3224
svn	-10.3226
▁অনুৰূপ	-10.3226
(27	-10.3228
▁স্লট	-10.3228
▁গোটেই	-10.3228
▁MiB	-10.3231
▁SIP	-10.3233
▁নিয়োগ	-10.3237
▁OS	-10.3238
▁২৪	-10.3238
▁গড়	-10.3247
▁fd	-10.3248
%.0	-10.3252
amitakhya	-10.3265
▁যায়নি	-10.3266
▁ঘূৰ	-10.3267
▁আইকনসমূহ	-10.3268
▁ক্যাশে	-10.3278
▁প্ৰেৰকেৰ	-10.3284
মেল	-10.3292
▁ষ্টে	-10.3301
ja	-10.3308
▁বিমান	-10.331
▁প্ৰদৰ্শনক্ষেত্ৰ	-10.3325
▁৩০	-10.3336
▁PA	-10.335
▁লিখিত	-10.3358
ইউ	-10.3382
▁যিয়ে	-10.3386
বহিয়ের	-10.3392
সপ্তাহ	-10.3409
নতুন	-10.3413
ন্ডাৰ	-10.3472
abbreviated	-10.3485
password	-10.3485
▁Open	-10.3485
▁Policy	-10.3485
▁style	-10.3485
▁অপ্ৰকাশিত	-10.3485
▁গোছলখানা	-10.3485
▁ঘূৰ্ণন	-10.3485
▁ডিচেম্বৰ	-10.3485
▁ধন্যবাদ	-10.3485
▁পুনাৰম্ভ	-10.3485
▁ফৰওয়াৰ্ড	-10.3485
▁বাওঁফালৰ	-10.3485
▁সিদ্ধান্ত	-10.3485
▁হ্যান্ডব্যাগ	-10.3485
▁‍অজ্ঞাত	-10.3485
▁এজেন্ট	-10.3485
▁বঁটা	-10.3485
▁এনালগ	-10.3485
▁NTM	-10.3485
▁পিছলৈ	-10.3485
Super	-10.3485
▁শ্বেল	-10.3486
▁ভগ্ন	-10.3488
▁থোৱা	-10.3493
▁স্থায়ীভাৱে	-10.3502
এটা	-10.3507
iya	-10.3516
▁প্ৰস্তুতি	-10.3535
▁কেনে	-10.3535
ium	-10.3536
▁Far	-10.3539
▁প্ৰগ্ৰামটো	-10.3548
আতৰ	-10.3552
row	-10.3556
▁দিবলৈ	-10.3558
▁ৰিচ	-10.3572
মাই	-10.3588
▁স্বাক্ষৰিত	-10.359
▁Lo	-10.3604
▁option	-10.3618
▁MB	-10.3621
বছৰ	-10.3624
াঁও	-10.3646
▁ছাত্ৰ	-10.3663
▁সাৰ্ভাৰ	-10.3673
(458	-10.3676
ব্যৱহাৰ	-10.3684
ওঁতে	-10.3693
content	-10.3755
evolution	-10.3755
▁পৃথিৱী	-10.3755
toolbar	-10.3755
ç	-10.3755
▁appointment	-10.3755
▁অতিস্বনক	-10.3755
▁অত্যন্ত	-10.3755
▁অস্বচ্ছতা	-10.3755
▁আঙ্গুলি	-10.3755
▁তৎক্ষনাত	-10.3755
▁থাকবে	-10.3755
▁দ্বীপ	-10.3755
▁নালাগে	-10.3755
▁বুজাবলৈ	-10.3755
▁ভৌগলিক	-10.3755
▁যিহেতু	-10.3755
▁লোমষ	-10.3755
▁সম্ভাবনা	-10.3755
▁সম্ভাৱনা	-10.3755
▁সাৰ্বজনীন	-10.3755
▁ICQ	-10.3755
▁খোলো	-10.3755
▁বজাওক	-10.3755
▁মেয়াদ	-10.3755
Group	-10.3755
tails	-10.3755
▁স্থিৰ	-10.3755
▁সতৰ্ক	-10.3755
▁আদায়	-10.3755
▁অভিযান	-10.3755
▁স্কুল	-10.3756
▁অদল	-10.3756
▁বেশ	-10.3756
▁পৰ্যন্ত	-10.3757
▁অভিযোগ	-10.3757
▁খোজে	-10.3758
▁অৱধি	-10.376
▁Live	-10.3762
▁Feb	-10.3762
▁শুদ্ধ	-10.3762
path	-10.3767
▁মধ্যম	-10.377
▁days	-10.3772
▁অকচ	-10.3775
▁সেইবোৰ	-10.38
▁1000	-10.3809
▁করার	-10.3816
খোজ	-10.3834
▁অভিব্যক্ত	-10.3842
▁ধাৰ	-10.3849
যো	-10.386
▁হোম	-10.3862
IV	-10.3862
গ্র	-10.3896
▁লৈকে	-10.3904
ন়	-10.3919
ুয়া	-10.3936
▁বিট	-10.3938
গ্ন	-10.3944
{	-10.396
▁মেথ	-10.396
যদি	-10.3968
মাহ	-10.3971
ইতিহাস	-10.3973
label	-10.3976
অসম	-10.3977
কোণ	-10.3985
rate	-10.4021
▁True	-10.4024
false	-10.4033
lobal	-10.4033
ನ	-10.4033
▁GConf	-10.4033
▁Nautilus	-10.4033
▁STUN	-10.4033
▁Service	-10.4033
▁Skype	-10.4033
▁Tamuz	-10.4033
▁libxenlight	-10.4033
▁ইভেন্ট	-10.4033
▁এলগৰিথম	-10.4033
▁কম্পোনেন্ট	-10.4033
▁গাণিতিক	-10.4033
▁জানুৱাৰী	-10.4033
▁নিৰ্ঘন্ট	-10.4033
▁নীড়পাতা	-10.4033
▁সঞ্চালক	-10.4033
▁সীমিত	-10.4033
▁সোনকালে	-10.4033
▁সৌন্দৰ্য	-10.4033
▁স্খলন	-10.4033
ه	-10.4033
▁অর্ডাৰ	-10.4033
▁পুনৰাৰম্ভ	-10.4033
filter	-10.4033
▁খচৰা	-10.4033
▁মন্ত্ৰী	-10.4033
▁গোলাম	-10.4033
ONE	-10.4033
▁Gtk	-10.4033
▁ছলেহ	-10.4033
ROM	-10.4034
▁keyring	-10.4034
▁সৰানো	-10.4034
web	-10.4034
▁Term	-10.4034
▁ডিমন	-10.4034
▁চুইচ	-10.4034
▁ইণ্ডিয়া	-10.4034
▁সাধন	-10.4034
(4815)	-10.4034
শ্যন	-10.4034
▁পাঠানো	-10.4035
▁videos	-10.4037
▁অস্বাক্ষৰ	-10.4037
▁আপগুলি	-10.4037
▁সৰ্বদা	-10.4039
▁আঁতৰ	-10.4039
other	-10.404
▁ধাপ	-10.4041
ন্ত্র	-10.4041
▁মটৰ	-10.4042
▁Kho	-10.4045
▁বেংক	-10.4046
▁দ্বা	-10.406
▁গৈ	-10.4061
▁পৰ্য	-10.4063
560	-10.4081
▁ব্যক্তিয়ে	-10.4084
▁প্ৰয়োজনীয়তা	-10.4085
▁বেইন	-10.4086
spec	-10.4092
ble	-10.4105
▁অধিসূচনাসমূহ	-10.4122
হিন	-10.416
ন্তু	-10.4187
াৰ্চ	-10.4229
ick	-10.4231
▁নাপা	-10.4236
▁can	-10.4246
সম্পূৰ্ণ	-10.4253
ুম্	-10.4303
ক্ৰিপ্ট	-10.4315
▁সাক্ষাৎ	-10.4316
ē	-10.4318
ঊ	-10.4318
▁SCSI	-10.4318
▁অখণ্ডতা	-10.4318
▁এপ্লিকেশন	-10.4318
▁ওৱাৰেন্টি	-10.4318
▁ক্ষতিগ্ৰস্ত	-10.4318
▁পাৰ্থক্য	-10.4318
▁প্ৰশাসক	-10.4318
▁বিক্ৰেতা	-10.4318
▁ভৰ্ত্তি	-10.4318
▁মুদ্ৰক	-10.4318
▁সন্নিবেশ	-10.4318
▁সাপেক্ষে	-10.4318
▁হজ্জ	-10.4318
▁চ্যানেল	-10.4318
▁পাৰ্শ্ববৰ্তী	-10.4318
▁ডিগ্ৰি	-10.4319
▁আপলোড	-10.4319
▁ড্ৰপ	-10.4319
▁মেশিন	-10.4319
▁ডিষ্ক	-10.4319
▁CSV	-10.4319
▁জাননী	-10.4319
▁পথালি	-10.4319
cript	-10.4319
▁মাৰাত্মক	-10.4319
▁spice	-10.4319
▁শাখা	-10.432
▁অলপ	-10.4321
▁গুৰুতৰ	-10.4321
▁সোঁফালৰ	-10.4325
▁Post	-10.4326
▁চলাই	-10.4337
▁চালু	-10.4337
▁স্থানীয়ৰূপে	-10.4341
▁বর্তমানে	-10.4357
▁আতৰাবলে	-10.4385
data	-10.4387
▁কেপ	-10.4397
▁সিহতক	-10.4403
সাৰিত	-10.4404
▁দুটি	-10.4407
▁সাৰ্টিফিকেটেৰ	-10.4424
▁জুন	-10.4432
▁প্লাগিনসমূহ	-10.4483
▁You	-10.4499
aj	-10.4523
্ধাৰ	-10.4566
{1}	-10.4568
ডিস্ক	-10.459
ব্যাপী	-10.4612
▁ক্লা	-10.4612
PermissionsLevel	-10.4613
Security	-10.4613
reference	-10.4613
▁Catalog	-10.4613
▁Python	-10.4613
▁Spelling	-10.4613
▁meeting	-10.4613
▁অসুস্থতা	-10.4613
▁অ্যানিমেশন	-10.4613
▁কাৰ্য্যক্ষেত্ৰ	-10.4613
▁ধ্বংস	-10.4613
▁শিৰোণামা	-10.4613
▁শ্ৰেণীবিভাগ	-10.4613
▁সাহিত্য	-10.4613
▁সূকীয়া	-10.4613
▁স্তূপ	-10.4613
▁স্থাপত্য	-10.4613
▁হস্তচালিত	-10.4613
settings	-10.4613
▁কাষবাৰ	-10.4613
▁ফ্ৰেইম	-10.4613
▁ফিল্ম	-10.4613
▁সার্চ	-10.4613
▁ইংগিত	-10.4613
▁বুদ্ধি	-10.4613
▁RSS	-10.4613
▁প্ৰৰকেৰ	-10.4613
▁এক্সটেনশন	-10.4613
Wacom	-10.4613
▁পূৰ্ণপৰ্দা	-10.4613
index	-10.4614
▁বৃহৎ	-10.4614
▁দুৰ্বল	-10.4614
▁প্লেলিস্ট	-10.4614
▁জুলাই	-10.4614
▁নীলা	-10.4616
▁জানক	-10.4618
▁পেলেট	-10.4619
▁উপবৃত্ত	-10.462
FLA	-10.4621
▁হস্টনাম	-10.4625
▁টিপা	-10.4625
▁এইচবি	-10.4629
টাউন	-10.4643
▁ত্ৰুটিপূৰ্ণ	-10.4644
\@	-10.4651
▁মিলিছেকেণ্ড	-10.4658
▁সক্ৰিয়কৰণ	-10.4673
240	-10.4701
▁লিখিবলে	-10.4722
▁ধৰনেৰ	-10.4747
▁ব্যক্ত	-10.4769
▁বৃ	-10.4848
▁পৰিৱেশ	-10.4875
ō	-10.4916
শ্রেণী	-10.4916
▁পরিচিতি	-10.4916
family	-10.4916
ইউনাইটেড	-10.4916
র্ডেনীয়ার্চ	-10.4916
▁BOLLYWOOD	-10.4916
▁Bonobo	-10.4916
▁অভাৰৰাইড	-10.4916
▁অভ্যন্তৰীণ	-10.4916
▁আনমাউন্ট	-10.4916
▁গাঁথনি	-10.4916
▁টেক্কা	-10.4916
▁দৃঢ়	-10.4916
▁ধাৰাবাহিক	-10.4916
▁পেলাওতে	-10.4916
▁সূচনাবাৰ্তা	-10.4916
▁স্থিতিমাপ	-10.4916
▁প্ৰোফাইল	-10.4916
▁বিত্তীয়	-10.4916
▁সাফল্য	-10.4916
▁লিখোতে	-10.4916
▁will	-10.4916
▁অফিসে	-10.4916
▁অৱসান	-10.4916
▁ঘণ্টা	-10.4916
▁এলবাম	-10.4916
▁শিক্ষক	-10.4916
▁গাইড	-10.4916
IBM	-10.4916
ডেল	-10.4921
▁পেকেট	-10.4921
▁টেবলেট	-10.4921
▁Tube	-10.4921
▁চাৰিটা	-10.4922
▁বাহনখন	-10.4923
▁এডিট	-10.4924
▁সুযোগ	-10.4925
▁বৃহ	-10.4925
▁ব্যক্তিত্ব	-10.4928
ৌদি	-10.4932
▁কাৰ্য্যসূচী	-10.4933
▁অপ্ৰত্যাশিতভাবে	-10.4933
▁নিজেই	-10.4937
জ্বল	-10.4947
List	-10.4962
ংগা	-10.4963
▁দাও	-10.4968
0,000	-10.4969
253	-10.4975
▁চাবলে	-10.4992
র্ণ	-10.4995
▁ক্লিপবোৰ্ডে	-10.5016
ika	-10.5021
▁বৃদ্ধ	-10.5044
গ্ৰহণ	-10.5066
▁ইবন	-10.5078
ল্লা	-10.5117
সাবস্ক্ৰাইব	-10.52
পৰীক্ষণ	-10.5204
part	-10.5206
true	-10.5206
▁জানিব	-10.5208
Pre	-10.5209
ভিডিঅ	-10.5212
aDateFmt	-10.5228
ক্সিলেৰি	-10.5228
▁NNTP	-10.5228
▁NetworkManager	-10.5228
▁অবশিষ্ট	-10.5228
▁এক্সিকিউট	-10.5228
▁ক্লায়েন্ট	-10.5228
▁দ্রঢ়িমা	-10.5228
▁নির্বাচিত	-10.5228
▁প্ৰতিধ্বনি	-10.5228
▁ভৱিষ্যত	-10.5228
▁সংগীত	-10.5228
▁সোণকালে	-10.5228
উদ্ভট	-10.5228
▁ধূসৰ	-10.5228
▁সেয়েহে	-10.5228
ा	-10.5228
▁অনুষ্ঠিত	-10.5228
▁আংশিক	-10.5228
▁ফোকাস	-10.5228
▁প্ৰসেস	-10.5228
▁hostdev	-10.5228
▁বিক্রী	-10.5228
▁যাত্ৰা	-10.5228
▁পঠিয়াব	-10.5228
▁AIM	-10.5228
▁ভৰষা	-10.5228
▁স্ৰোত	-10.5228
▁ৰেডিঅ	-10.5228
Sync	-10.5228
▁ইউনিক	-10.5229
▁ফিকহ	-10.5229
▁ব্ৰডবেণ্ড	-10.5229
▁তেওঁলোকে	-10.5229
▁বিশেষজ্ঞ	-10.523
▁তোলা	-10.523
▁বিৰাম	-10.5231
▁অনেক	-10.5232
▁pid	-10.5234
গৌণ	-10.5237
ative	-10.5238
▁2016	-10.5242
▁'$1	-10.5242
▁দিশা	-10.5244
▁১৬	-10.5244
চিঅ	-10.5282
none	-10.5287
top	-10.5316
▁টানি	-10.5321
বতৰা	-10.5324
দেন	-10.5343
(11	-10.5354
▁অধীন	-10.5452
icon	-10.5453
লোঁ	-10.5471
ডব্লিউ	-10.5486
াঙি	-10.5496
সম্পাদনা	-10.5539
সাধাৰণ	-10.5539
সংৰক্ষণ	-10.5539
▁বাছাই	-10.5549
и	-10.5551
cdrecord	-10.5551
process	-10.5551
ī	-10.5551
▁অপাৰেটিং	-10.5551
▁কতৃপক্ষ	-10.5551
▁কথোপকথন	-10.5551
▁নিম্নোক্ত	-10.5551
▁পঠিয়াওক	-10.5551
▁প্ৰধানমন্ত্ৰী	-10.5551
▁বাঞ্ছনীয়	-10.5551
▁CJK	-10.5551
▁শইকীয়া	-10.5551
▁ডিজাইন	-10.5551
▁মুদ্ৰা	-10.5551
▁অনুভৱ	-10.5551
click	-10.5551
সৈকত	-10.5551
▁পুৰণি	-10.5551
▁ইনবক্স	-10.5551
▁SSH	-10.5551
▁নেওয়া	-10.5551
▁Eye	-10.5551
▁সংহিত	-10.5552
▁সঞ্চয়	-10.5552
▁অৱতাৰ	-10.5553
▁হাইপাৰ	-10.5553
▁মাৰ্কিন	-10.5554
▁ইচ্ছা	-10.5554
▁প্যাড	-10.5554
This	-10.5554
▁পিছৰ	-10.5554
tain	-10.5554
sort	-10.5556
▁Sep	-10.5557
▁back	-10.5558
▁ফেলে	-10.5559
▁ধাৰণকাৰী	-10.556
9660	-10.556
▁সফলভাৱে	-10.5563
▁১৩	-10.5567
▁ক্লাচ	-10.5567
▁তেজ	-10.5571
▁ব্যৱসায়িক	-10.5572
যেমন	-10.5585
▁ৱেস্ট	-10.5591
▁সঠিকভাৱে	-10.5592
াংক	-10.5616
কিঅ	-10.5623
ছোঁ	-10.5627
▁সহায়তা	-10.5662
▁২৫	-10.5665
চিয়ান	-10.5708
options	-10.5717
▁আন্ত	-10.5721
ষি	-10.5725
▁আয়ত	-10.5745
▁দেহ	-10.5775
you	-10.5794
▁উদ্ধৃত	-10.585
পশ্চিম	-10.5881
Windows	-10.5883
т	-10.5884
-8859-1	-10.5884
Password	-10.5884
onflict	-10.5884
ب	-10.5884
▁Aisleriot	-10.5884
▁license	-10.5884
▁like	-10.5884
▁অস্ট্ৰেলিয়া	-10.5884
▁আগবঢ়াই	-10.5884
▁ইন্সটল	-10.5884
▁এনিমেশন	-10.5884
▁থাকোতে	-10.5884
▁পঢ়োঁতে	-10.5884
▁পাসওয়াৰ্ড	-10.5884
▁বাধ্যতামূলক	-10.5884
▁বিনামূলীয়া	-10.5884
▁বিভাজক	-10.5884
▁লিমিটেড	-10.5884
▁সংশ্লিষ্ট	-10.5884
▁সাংকেতিক	-10.5884
▁হাদীছ	-10.5884
ğ	-10.5884
অঙ্গুলিসঁচালন	-10.5884
▁কয়েকটি	-10.5884
▁গভীৰ	-10.5884
▁পুষ্পহীনতা	-10.5884
▁বিজেপি	-10.5884
(46585)	-10.5884
ember	-10.5884
▁বিলোপন	-10.5884
▁Enter	-10.5884
▁prc	-10.5884
connect	-10.5884
▁মুকলি	-10.5884
▁ইমেজ	-10.5884
▁TSP	-10.5884
▁অন্তৰাল	-10.5884
▁কলঘৰ	-10.5885
▁সম্প্ৰতি	-10.5885
▁আদব	-10.5887
▁that	-10.5887
▁কম্পোসাৰ	-10.5888
▁পূৰ্বৰূপ	-10.5889
▁\\	-10.5889
▁লাখ	-10.589
▁আঁতৰাই	-10.5891
▁বহিস্থিত	-10.5892
▁প্ৰবেশ	-10.5893
idhi	-10.5893
▁কলবেক	-10.5895
▁স্পিন	-10.5896
উক্ত	-10.5899
▁'{{	-10.5899
টোসমূহক	-10.5902
জ্জা	-10.5905
ার্ড	-10.5906
▁ধীৰ	-10.5916
▁প্ৰক্ৰিয়াকৰণ	-10.5918
▁বাটনটি	-10.5921
ষ্ঠা	-10.5921
2:34	-10.5932
ষ্ঠি	-10.5956
ধাৰা	-10.5971
▁(105	-10.5984
▁stat	-10.6031
ছাত্ৰী	-10.6044
▁ফ্ৰে	-10.6065
▁সেটি	-10.6096
▁ক্লিপবোৰ্ড	-10.6116
2.0	-10.6153
▁শীৰ্ষ	-10.6161
▁অভাৱ	-10.6195
ক্ৰমে	-10.6219
French	-10.6229
description	-10.6229
▁Facebook	-10.6229
▁operation	-10.6229
▁উত্তীৰ্ণ	-10.6229
▁কালদৈৰ্ঘ্য	-10.6229
▁প্ৰত্যাহাৰ	-10.6229
▁প্ৰোথিত	-10.6229
▁বলপূৰ্বক	-10.6229
▁মেইলবাকচ	-10.6229
▁যথেষ্ট	-10.6229
▁সমন্বয়	-10.6229
▁সামাজিক	-10.6229
▁২০১৪	-10.6229
calendar	-10.6229
ংশগ্ৰহণকাৰীবৃন্দ	-10.6229
▁অধ্যায়	-10.6229
▁ইন্ডেক্স	-10.6229
▁উদ্ভিদ	-10.6229
▁শাস্তি	-10.6229
universal	-10.6229
▁আক্ৰান্ত	-10.6229
▁যুৱ	-10.6229
▁সহযোগী	-10.6229
▁স্ট্যাটাস	-10.6229
▁trans	-10.6229
level	-10.6229
▁পৰিদৰ্শন	-10.6229
▁আউটবক্স	-10.6229
▁maildir	-10.6229
gress	-10.6229
▁সজাওক	-10.6229
▁নমুনা	-10.6229
▁ব্যাপক	-10.6229
▁গনোম	-10.6229
▁মানাংকন	-10.6229
সাৱধান	-10.6229
▁কেইটামান	-10.6229
▁ফেলতে	-10.6229
▁বুলিয়ান	-10.6229
▁GiB	-10.6229
▁SHA	-10.6229
▁৯০	-10.6229
▁have	-10.6229
▁hint	-10.623
▁INR	-10.623
▁Kati	-10.6231
▁ৱিকি	-10.6233
▁সীমাবদ্ধ	-10.6237
left	-10.6239
query	-10.6239
লিখনী	-10.6241
▁বিবিধ	-10.6241
▁পেডিং	-10.6241
▁'/'	-10.6241
▁বৈ	-10.6259
displayName	-10.6271
▁May	-10.6275
ইঞ্চি	-10.6277
▁গতিকে	-10.6278
চভিল	-10.6278
িবলে	-10.6288
বৰ্তন	-10.6297
cap	-10.6304
▁ধাৰণা	-10.634
োনিয়া	-10.6363
▁বিচাৰ	-10.6382
▁দুৰ্	-10.6399
600	-10.6474
▁$2	-10.651
jan	-10.6534
imm	-10.6552
▁non	-10.6578
ö	-10.6586
▁Bubble	-10.6586
▁Could	-10.6586
▁District	-10.6586
▁Evince	-10.6586
▁Ubuntu	-10.6586
▁plain	-10.6586
▁আনুমানিক	-10.6586
▁ইঞ্চুৰেঞ্চ	-10.6586
▁এক্সপাঞ্জ	-10.6586
▁পুৰোনো	-10.6586
▁পৰ্যবেক্ষণ	-10.6586
▁বৈজ্ঞানিক	-10.6586
▁ভট্ভটি	-10.6586
▁ভাৱবিনিময়	-10.6586
▁সক্রিয়	-10.6586
JavaScript	-10.6586
я	-10.6586
▁অধ্যাপক	-10.6586
▁উপসৰ্গ	-10.6586
▁কৃষি	-10.6586
▁ছাইল্ড	-10.6586
▁তাগাদা	-10.6586
▁প্ৰত্যাশা	-10.6586
▁বিৱৰিত	-10.6586
▁পুনৰাম্ভ	-10.6586
न	-10.6586
local	-10.6586
▁Tech	-10.6586
▁আয়োজন	-10.6586
▁কলসীয়	-10.6586
▁নাথাকে	-10.6586
▁পঞ্জীয়ন	-10.6586
value	-10.6586
▁শস্য	-10.6586
▁Elm	-10.6586
▁পঢ়ক	-10.6586
▁সাহেব	-10.6586
▁ব্যৱস্থাপিত	-10.6587
▁অংশগ্ৰহণ	-10.6587
▁তুমি	-10.6587
▁দ্বারা	-10.6587
▁সুন্দৰ	-10.6587
▁ঋণ	-10.6588
▁ধনাত্মক	-10.6588
▁অনুবৰ্তন	-10.6588
▁VMX	-10.659
pci	-10.6592
▁অৱদান	-10.6592
▁পৰিক্ষা	-10.6592
ৰ‍্	-10.6593
▁গুৰু	-10.6595
▁দিছিল	-10.6596
সীমা	-10.6599
:%02	-10.6602
▁Page	-10.6603
tick	-10.6604
message	-10.6609
চমকানো	-10.6611
উত্তৰ	-10.6612
কেইটা	-10.6613
বিষয়	-10.6613
▁দেখাওক	-10.6614
▁মাজে	-10.6617
▁#%	-10.6627
▁চাবলৈ	-10.6627
▁অপ্ৰত্যাশিতভাৱে	-10.6628
▁আগলৈ	-10.6631
Add	-10.664
্তব্য	-10.6641
Dec	-10.6646
▁che	-10.6656
▁minute	-10.6789
েণ্ডাৰ	-10.6829
াৰ্ণ	-10.6867
pfu	-10.6891
▁ইফক	-10.6947
▁জীৱন্ত	-10.6954
ск	-10.6956
Mozilla	-10.6956
ي	-10.6956
▁'"$1"	-10.6956
▁Bogofilter	-10.6956
▁Konqueror	-10.6956
▁অপাৰেটৰ	-10.6956
▁অসম্ভব	-10.6956
▁আয়োজিত	-10.6956
▁উপশীৰ্ষকসমূহ	-10.6956
▁বিপৰ্যয়	-10.6956
▁বেতাঁৰ	-10.6956
▁ভাৰচুৱেল	-10.6956
▁মহাবিদ্যালয়	-10.6956
▁মেৰামতি	-10.6956
▁স্বাধীন	-10.6956
▁হেণ্ডেল	-10.6956
▁অসমাপ্ত	-10.6956
▁অৱৈধ	-10.6956
▁দ্বীন	-10.6956
▁স্কীমা	-10.6956
▁কেলেণ্ডাৰ	-10.6956
▁জাৰ্মান	-10.6956
▁প্রেরণ	-10.6956
▁প্ৰৱন্ধ	-10.6956
▁ভাৰতবৰ্ষ	-10.6956
▁উপযোগী	-10.6956
▁অফচেট	-10.6956
▁অভ্যন্তৰীক	-10.6956
▁উত্তম	-10.6956
▁দশমিক	-10.6956
Insert	-10.6956
▁গঠিত	-10.6956
command	-10.6957
prefs	-10.6957
▁Spy	-10.6957
▁টকেন	-10.6957
▁তললৈ	-10.6957
▁rich	-10.6957
png	-10.6957
▁দ্বন্দ্বযুক্ত	-10.6957
▁ৰিডাৰ	-10.6957
(4790)	-10.6958
(4791)	-10.6958
▁বহল	-10.6958
▁ক্লোন	-10.6958
▁ক্ৰমবিন্যাস	-10.6958
▁খাঁজ	-10.6958
RFC	-10.6958
▁"0"	-10.6959
▁(72)	-10.6959
▁মেটাল	-10.6959
▁পৰ্যায়	-10.6959
▁বায়ু	-10.6961
▁স্বচালিতভাবে	-10.6963
▁এইচসি	-10.6964
▁বাণিজ্যিক	-10.6964
▁ঘূৰাই	-10.6965
▁06:	-10.6971
ness	-10.6974
▁বিপদ	-10.6974
▁২৭	-10.6974
স্পেস	-10.6975
▁মাৰ্চ	-10.6978
▁নকৰাকৈ	-10.6982
▁01:	-10.6982
▁ধাৰ্য্যকৰণ	-10.6986
▁বাকচলৈ	-10.6988
expr	-10.6993
নিম্ন	-10.6994
ঈ	-10.6995
এচএ	-10.7004
▁দৰ্শক	-10.7017
১১	-10.7026
কেডব্লিউ	-10.7032
▁চাৰ্	-10.7035
▁বৰ্ণ	-10.7049
ada	-10.7067
পুনৰ	-10.7085
▁(596	-10.7111
▁হেড	-10.7167
▁বাণিজ্য	-10.7333
▁সঁচা	-10.7337
gconf	-10.734
▁Audio	-10.7341
▁check	-10.7341
John	-10.7341
column	-10.7341
signature	-10.7341
у	-10.7341
م	-10.7341
▁Calendar	-10.7341
▁Cogl	-10.7341
▁English	-10.7341
▁Epiphany	-10.7341
▁Option	-10.7341
▁Sebasti	-10.7341
▁character	-10.7341
▁অন্তর্ভুক্ত	-10.7341
▁অবিৱৰিত	-10.7341
▁ইনফর্মেশান	-10.7341
▁ইশকাপনেৰ	-10.7341
▁তৰবিয়ত	-10.7341
▁দৈহিক	-10.7341
▁পেকেইজ	-10.7341
▁ব্যৱধান	-10.7341
▁মেগ্নিফাইড	-10.7341
▁লিখোঁতে	-10.7341
▁সংঘৰ্ষ	-10.7341
▁সম্প্ৰসাৰন	-10.7341
▁সাধাৰন	-10.7341
▁সৰ্বোত্তম	-10.7341
▁হোটেল	-10.7341
▁ৰুহিতনেৰ	-10.7341
س	-10.7341
▁Delhi	-10.7341
▁অ্যাপ্লিকেশন	-10.7341
▁বিপৰ্য্যয়	-10.7341
▁checksum	-10.7341
▁ভাণ্ডাৰ	-10.7341
power	-10.7341
▁হৰতনেৰ	-10.7341
▁Talk	-10.7341
▁PNG	-10.7341
▁বাইবেল	-10.7341
একাকী	-10.7341
▁বুলিয়েন	-10.7341
▁কাৰ্য্যকৰী	-10.7341
▁ঊৰ্ধ্বতন	-10.7341
▁RSA	-10.7341
▁চলাবলে	-10.7342
▁php	-10.7342
benchmarking	-10.7344
▁জীৱন্তকৰণ	-10.7344
domain	-10.7344
▁জৰিত	-10.7345
উভয়	-10.7348
ENAME	-10.7349
▁Thu	-10.7351
▁তিনিটা	-10.7354
▁05:	-10.7356
over	-10.7357
▁পলিচীখন	-10.7359
▁কলেজ	-10.7361
▁২৩	-10.7365
▁থাই	-10.7366
▁স্টক	-10.737
▁নোৱাৰ	-10.7376
▁1.0	-10.7383
theme	-10.7392
Xxx	-10.7393
সদস্য	-10.7394
পঢ়িব	-10.7395
–	-10.7395
সুৰক্ষিত	-10.7395
▁কুটা	-10.7406
ুৱে	-10.741
0.0	-10.7451
▁আগষ্ট	-10.7454
dao	-10.7627
▁ওচৰ	-10.7635
▁আগবাঢ়ি	-10.7657
350	-10.7702
here	-10.7721
NAME	-10.7733
video	-10.7735
▁গ্ৰাফিক	-10.774
ReplyForward	-10.7741
first	-10.7741
notify	-10.7741
॥	-10.7741
ডিব্ৰুগড়	-10.7741
▁mutex	-10.7741
▁অতিক্ৰান্ত	-10.7741
▁অসংলগ্ন	-10.7741
▁আছুতীয়া	-10.7741
▁আটাইতকৈ	-10.7741
▁আব্দুল্লাহ	-10.7741
▁ডিজিটেল	-10.7741
▁প্ৰফেছৰ	-10.7741
▁ফেব্ৰুৱাৰী	-10.7741
▁বিবেচনা	-10.7741
▁মুহূৰ্ত	-10.7741
▁মেডিকেল	-10.7741
▁সংকুচিত	-10.7741
▁সংঘটিত	-10.7741
▁সার্ভার	-10.7741
▁স্নিপেট	-10.7741
▁ৰেহাই	-10.7741
Expand	-10.7741
linux	-10.7741
▁ঔষধ	-10.7741
▁গেলেৰী	-10.7741
Special	-10.7741
change	-10.7741
▁শান্তি	-10.7741
▁পাইলট	-10.7741
▁পৰিৱৰ্তে	-10.7741
▁মুনীন	-10.7741
▁চৰিয়ত	-10.7741
▁বুজায়	-10.7741
▁লাতিন	-10.7741
्	-10.7741
▁সভাপতি	-10.7741
▁ঘটিছে	-10.7741
▁Word	-10.7741
▁লভ্য	-10.7741
Link	-10.7741
▁কঠিন	-10.7741
talk	-10.7741
পাৰ্শ্ব	-10.7741
▁পৰিমাপ	-10.7742
▁মাতৃ	-10.7742
▁আকার	-10.7742
▁ছায়াছবি	-10.7742
▁লোগো	-10.7742
▁API	-10.7742
▁ফতোৱা	-10.7742
▁বিশ্বব্যাপী	-10.7742
▁মানসিক	-10.7742
▁নিৰ্ভৰশীল	-10.7742
▁হেডার	-10.7743
▁ওয়েব	-10.7743
▁"1"	-10.7743
▁ভৰোৱা	-10.7743
00,000	-10.7743
▁লেটিন	-10.7743
▁দেবে	-10.7743
(607)	-10.7744
▁ধাৰণকৰ্তা	-10.7745
▁CURL	-10.7745
▁"'''	-10.7746
▁বাক্য	-10.7746
▁পৰিসৰ	-10.7746
▁সেটআপ	-10.7747
▁পৰিবেশ	-10.7748
game	-10.7748
▁ছকেট	-10.7748
▁ৰাতি	-10.7748
▁উপৰিও	-10.7749
▁Rach	-10.7749
▁সন্মান	-10.7751
▁সংকট	-10.7754
াৰ্ছ	-10.7781
Use	-10.7793
with	-10.7811
মিডিয়া	-10.7811
string	-10.7811
Assamese	-10.7812
ঘন্টা	-10.7812
save	-10.7819
অনুকৰণ	-10.7819
▁খুঁ	-10.7827
সংখ্যা	-10.7841
পিছত	-10.7883
ডেড	-10.7966
foo	-10.7988
(282)	-10.8005
যান	-10.808
main	-10.8087
▁dis	-10.8125
ঞ	-10.8149
▁স্ট্যান্ড	-10.8158
л	-10.8158
obert	-10.8158
সৰ্বধৰনৰ	-10.8158
▁VCard	-10.8158
▁ইম্পোর্ট	-10.8158
▁কেইবাটাও	-10.8158
▁ছাৰাউন্ড	-10.8158
▁নিউক্লীয়	-10.8158
▁বঙালী	-10.8158
▁শ্ৰেষ্ঠ	-10.8158
▁সতৰ্কধ্বনি	-10.8158
▁সাংখ্যিক	-10.8158
▁সাংসদ	-10.8158
OfThe	-10.8158
▁আটাইবোৰ	-10.8158
▁দাখিল	-10.8158
▁প্ৰাকৃতিক	-10.8158
▁স্মাইলি	-10.8158
imited	-10.8158
ব্বিশ	-10.8158
(13166)	-10.8158
▁RGB	-10.8158
▁এন্ট্ৰি	-10.8158
▁Abhi	-10.8158
▁আনহাতে	-10.8158
/2015	-10.8158
▁Roll	-10.8158
Cancel	-10.8158
▁আঁকতে	-10.8158
Account	-10.8158
▁কাৰ্য্যক্ৰম	-10.8158
▁গেলেৰি	-10.8158
▁বাজানো	-10.8158
▁FTP	-10.8158
ем	-10.8158
▁পিতৃ	-10.8158
вр	-10.8158
Start	-10.8158
▁জটিল	-10.8158
▁বিদ্যু	-10.8158
▁পূর্ব	-10.8159
▁হেৰুৱা	-10.8159
▁gconfd	-10.8159
▁নিশ্চিতকৰণৰ	-10.8159
▁GUI	-10.816
জাপানি	-10.8163
▁বৰফ	-10.8164
▁ভাড়া	-10.8164
▁স্বভাৱ	-10.8165
▁সোমোৱা	-10.8165
driver	-10.8166
বাঁওফাল	-10.8166
পন্ন	-10.8168
sig	-10.817
▁2018	-10.817
▁স্থায়ীভাবে	-10.8172
▁হৰুৱা	-10.8172
▁তাড়া	-10.8172
▁উঠা	-10.8173
csv	-10.8175
বাসী	-10.818
▁বুধ	-10.8181
▁1.5	-10.8182
ncell	-10.8182
nada	-10.819
▁নামেৰে	-10.82
নিৰ্দেশ	-10.8241
তথ্য	-10.8249
123	-10.8316
▁দিওঁ	-10.8492
▁আঁতৰাব	-10.8583
drive	-10.8584
в	-10.8592
к	-10.8592
register	-10.8592
(242190)	-10.8592
System	-10.8592
▁Totem	-10.8592
▁এডাপ্টাৰ	-10.8592
▁তথ্যভঁৰাল	-10.8592
▁নিশ্চয়তা	-10.8592
▁পর্যালোচনা	-10.8592
▁পাৰস্পৰিক	-10.8592
▁প্ৰমপ্ট	-10.8592
▁বেণ্ডৱাইড্ত	-10.8592
▁মীমাংসিত	-10.8592
▁মুখ্যমন্ত্ৰী	-10.8592
▁সচেতন	-10.8592
▁সামঞ্জস্য	-10.8592
(846)	-10.8592
Printer	-10.8592
Russia	-10.8592
পৰ্য্যাপ্ত	-10.8592
▁বিদ্যালয়	-10.8592
г	-10.8592
▁আজকেৰ	-10.8592
▁হিন্দু	-10.8592
▁সেকেন্ড	-10.8592
▁tubs	-10.8592
▁প্ৰসঙ্গ	-10.8593
▁বিৱৰক	-10.8593
▁বৰাবৰ	-10.8593
▁EWS	-10.8593
▁আতৰুৱা	-10.8593
(2628)	-10.8593
▁অনুগ্ৰহপূৰ্বক	-10.8593
▁হিতাধিকাৰ	-10.8593
▁আলোচনী	-10.8593
▁নিচিনা	-10.8593
▁পয়েন্ট	-10.8593
▁যেতিয়ালৈকে	-10.8593
exec	-10.8593
▁লেহেম	-10.8593
ARG	-10.8593
▁ফ্ৰী	-10.8593
▁PEM	-10.8593
▁ৱেবকেম	-10.8593
▁নিজকে	-10.8593
▁PPD	-10.8593
▁ব্যৱহাৰকাৰীজনে	-10.8593
ları	-10.8593
▁কখনো	-10.8593
▁অঁকা	-10.8593
▁স্লাইডশ্ব	-10.8594
count	-10.8594
▁হওতে	-10.8595
▁মাৰ্কাস	-10.8595
desc	-10.8596
▁স্লাইডাৰ	-10.8597
▁কম্প্ৰে	-10.8597
▁সংগ্রহ	-10.8597
ফোৰ্ড	-10.8597
▁Inline	-10.8597
▁মোবাইল	-10.8597
▁cgroup	-10.8598
▁আনসাবস্ক্ৰাইব	-10.8598
▁পুনৰনিৰ্দেশ	-10.8598
▁ছকেৰ	-10.86
▁Mehr	-10.86
▁এনকিউ	-10.86
▁জ্ঞাত	-10.8601
▁চিঠি	-10.8601
▁বাকী	-10.8609
র্মাণ	-10.8651
▁UI	-10.8695
short	-10.8701
সলনি	-10.8703
জ্ঞ	-10.8906
▁বর্তমান	-10.8986
িঙৰ	-10.8994
▁উৎপাদ	-10.9006
▁fr	-10.9029
ward	-10.9036
play	-10.9046
category	-10.9047
history	-10.9047
birthday	-10.9047
ভিযান্ত্ৰিক	-10.9047
২৪৫	-10.9047
▁Flickr	-10.9047
▁Khordad	-10.9047
▁NUMA	-10.9047
▁stdout	-10.9047
▁strength	-10.9047
▁অসুবিধা	-10.9047
▁উপভোক্তা	-10.9047
▁কেডব্লু	-10.9047
▁কৌশল	-10.9047
▁ক্ষুদ্ৰ	-10.9047
▁চিকিৎসক	-10.9047
▁চিড়িতনেৰ	-10.9047
▁দিশনিৰ্ণয়	-10.9047
▁দৰমহা	-10.9047
▁পটভূমী	-10.9047
▁পরীক্ষণ	-10.9047
▁পরীক্ষা	-10.9047
▁পুৰভূমিৰ	-10.9047
▁প্ৰশিক্ষণ	-10.9047
▁পৰিপূৰক	-10.9047
▁বিজহব	-10.9047
▁বৰষুণ	-10.9047
▁লাইচেঞ্চ	-10.9047
▁সেউজীয়া	-10.9047
▁ৰোবোট	-10.9047
▁পুনৰনামকৰণ	-10.9047
proxy	-10.9047
▁টিপুন	-10.9047
▁বান্ধনী	-10.9047
▁কাৰ্যালয়	-10.9047
▁চাওঁক	-10.9047
duration	-10.9047
▁গেলৱে	-10.9047
▁গুটিয়ে	-10.9047
▁পঞ্জী	-10.9047
▁জীৱিকা	-10.9047
▁টুলটিপ	-10.9047
▁হাৰ্বাৰ	-10.9047
▁PNM	-10.9047
▁শুক্ৰ	-10.9047
▁আইকণ	-10.9047
▁মাউস	-10.9047
▁বাক্যবিন্যাস	-10.9047
▁মিনোল	-10.9047
ско	-10.9047
ultitran	-10.9048
▁শুনিব	-10.9048
▁GdkColor	-10.9048
State	-10.9048
▁ম্যাপ	-10.9048
প্ৰজাতি	-10.9049
Edit	-10.9049
target	-10.9049
▁বাছাইকৃত	-10.905
▁OF	-10.905
definit	-10.9051
▁ডিক্ৰিপ্ট	-10.9051
▁সঁচাকৈ	-10.9052
▁ইনস্টলেশন	-10.9053
▁ফ্লপি	-10.9053
force	-10.9062
Comm	-10.9075
▁শুভ	-10.9123
fini	-10.9134
পৰ্দা	-10.9175
“	-10.9177
ফিল্ড	-10.9179
কূল	-10.9179
বাহন	-10.9213
েখে	-10.9295
াষ্ট্	-10.9339
▁পঢ়ি	-10.944
▁এক্সটেন	-10.9455
▁বাঁও	-10.9519
generic	-10.9523
{2}	-10.9523
▁Gdk	-10.9523
GhostScript	-10.9523
OPTION	-10.9523
daemon	-10.9523
ification	-10.9523
machine	-10.9523
marker	-10.9523
picture	-10.9523
schema	-10.9523
ttached	-10.9523
▁DTMF	-10.9523
▁Dynam	-10.9523
▁ShortDayName	-10.9523
▁cdrdao	-10.9523
▁heading	-10.9523
▁আৱাহন	-10.9523
▁কৃষ্ণ	-10.9523
▁ডাইৰেক্ট	-10.9523
▁তীৰচিহ্ন	-10.9523
▁তৌহীদ	-10.9523
▁দীৰ্ঘ	-10.9523
▁নাথাকিলে	-10.9523
▁নালাগিব	-10.9523
▁নিষিদ্ধ	-10.9523
▁নেদেখুৱাব	-10.9523
▁বিপৰ্যস্ত	-10.9523
▁বৰঙণি	-10.9523
▁যুক্তৰাষ্ট্ৰ	-10.9523
▁শ্বিৰ্ক	-10.9523
▁স্বনির্ধারিত	-10.9523
▁সৰ্বমুঠ	-10.9523
▁হাইপাৰভাইছৰ	-10.9523
▁iPod	-10.9523
▁পড়ুন	-10.9523
▁সিৰিলিক	-10.9523
mount	-10.9523
▁কমপাইল	-10.9523
▁আহোতে	-10.9523
▁বেনামী	-10.9523
▁যোজনা	-10.9523
flag	-10.9523
Other	-10.9523
▁বিশাল	-10.9523
▁পুষ্প	-10.9523
Contact	-10.9524
▁MSN	-10.9524
ট্ৰিবিউ	-10.9524
▁কার্য	-10.9524
ল্যান্ড	-10.9524
▁পদবী	-10.9524
▁থাম্ব	-10.9524
program	-10.9524
▁তাহলে	-10.9524
▁বৰুৱা	-10.9524
লম্বন	-10.9524
recurrpage	-10.9524
▁কেন্দ্ৰীত	-10.9525
▁হাজাৰ	-10.9525
▁২০২০	-10.9525
▁লগআউট	-10.9526
▁এনকোড	-10.9535
▁ডাবল	-10.9537
events	-10.9581
form	-10.9628
সামৰ্থবান	-10.9663
আউট	-10.9672
খোলিবলৈ	-10.9721
spin	-10.973
▁গ্ল	-10.9853
্তন	-10.9861
স্থাপিত	-10.9925
িষ্কা	-10.9962
▁সংহত	-10.9995
▁Meh	-11.0015
protect	-11.0018
niversa	-11.0023
bonding	-11.0023
ل	-11.0023
বিজ্ঞপ্তি	-11.0023
▁ibus	-11.0023
▁অটোক্যাড	-11.0023
▁চৌহদ	-11.0023
▁বিস্ফোৰণ	-11.0023
Australia	-11.0023
Settings	-11.0023
feature	-11.0023
পুনিনিশ্চিতৰূপে	-11.0023
▁COLOR	-11.0023
▁Channel	-11.0023
▁LongDayName	-11.0023
▁TRANSLATORS	-11.0023
▁divisions	-11.0023
▁information	-11.0023
▁parallels	-11.0023
▁অদলবদল	-11.0023
▁অভিনন্দন	-11.0023
▁অৰ্থনৈতিক	-11.0023
▁ইথাৰনেট	-11.0023
▁উন্মোচন	-11.0023
▁উৎপত্তি	-11.0023
▁এস্কেইপ	-11.0023
▁চালনাজ্ঞান	-11.0023
▁ডেউৰী	-11.0023
▁প্রয়োজন	-11.0023
▁প্ৰতিমূৰ্ত্তি	-11.0023
▁প্ৰতীক্ষা	-11.0023
▁বিকলাংগতা	-11.0023
▁ব্যবহারকারীর	-11.0023
▁মাৰ্জিন	-11.0023
▁মেৰিওৱা	-11.0023
▁সময়োত্তীৰ্ণ	-11.0023
▁স্বনিৰ্বাচন	-11.0023
▁scsi	-11.0023
▁নেটমাস্ক	-11.0023
▁পাৰম্পৰিক	-11.0023
▁বিপ্লৱ	-11.0023
▁রয়েছে	-11.0023
▁সম্পর্ক	-11.0023
▁ডাটাবেস	-11.0023
guest	-11.0023
iface	-11.0023
▁বিটৰেইট	-11.0023
▁কাৰ্যকৰী	-11.0023
▁অক্ষৰমালা	-11.0023
ফাওজান	-11.0023
दी	-11.0023
▁বিদেশী	-11.0023
(2633)	-11.0023
▁EUR	-11.0023
▁আপনার	-11.0023
▁সুগম	-11.0023
▁বেলুন	-11.0024
▁পৰামিতি	-11.0024
▁বাজাও	-11.0024
▁আমালৈ	-11.0024
▁ভৰ্তি	-11.0024
▁বহন	-11.0024
▁${	-11.0024
ত্‍	-11.0024
▁জানতে	-11.0025
▁২০১৯	-11.0025
XDG	-11.0025
▁বাংলাদেশ	-11.0025
▁ভৰসা	-11.0025
▁ব্লগ	-11.0026
▁শুনা	-11.0026
▁পোহৰ	-11.0026
big	-11.0027
দর্শ	-11.0028
পইন্ট	-11.003
▁অন্যতম	-11.003
uke	-11.0082
tree	-11.01
TRUE	-11.0202
xml	-11.0202
অৰ্থাৎ	-11.0202
এপ্লিকেচন	-11.0203
প্ৰমাণ	-11.0204
প্ৰিন্ট	-11.0204
উৎস	-11.0204
সম্ভৱ	-11.0204
বৰ্তমান	-11.0205
দ্বাৰা	-11.0205
অৱস্থা	-11.0206
কানাড	-11.0308
এক্সপ্ৰে	-11.0517
ডবেণ্ড	-11.0548
multi	-11.0549
plugin	-11.0549
submit	-11.0549
ی	-11.0549
Accept	-11.0549
Entry	-11.0549
Object	-11.0549
ahjongg	-11.0549
policy	-11.0549
position	-11.0549
д	-11.0549
নিষ্পাপ	-11.0549
▁Cheese	-11.0549
▁Control	-11.0549
▁Dolphin	-11.0549
▁Groupwise	-11.0549
▁JPEG	-11.0549
▁Resolution	-11.0549
▁place	-11.0549
▁আতৰাওতে	-11.0549
▁আপগ্ৰেড	-11.0549
▁গতিবৰ্ধক	-11.0549
▁জিজ্ঞাসা	-11.0549
▁দেখুওৱা	-11.0549
▁পঠাওতা	-11.0549
▁প্রস্তুত	-11.0549
▁প্ৰক্ষিপ্ত	-11.0549
▁পৰিবর্তন	-11.0549
▁বিদ্ৰোহ	-11.0549
▁বীণাবিশেষ	-11.0549
▁য়নেকবেশিচদাচদি	-11.0549
▁যাদৃচ্ছিক	-11.0549
▁লকস্পেইচ	-11.0549
▁লাইব্ৰৰি	-11.0549
▁সংকোচিত	-11.0549
▁সংগঠন	-11.0549
▁সংবেদনশীল	-11.0549
▁সন্ত্ৰাসবাদ	-11.0549
▁স্বীকৃতি	-11.0549
▁স্মৃতিশক্তি	-11.0549
▁ৰাজনীতি	-11.0549
Include	-11.055
hidden	-11.055
▁Hyper	-11.055
▁চলিটেয়াৰ	-11.055
▁বৈঠক	-11.055
▁শুল্ক	-11.055
akeup	-11.055
▁Gnome	-11.055
▁UPS	-11.055
▁remote	-11.055
▁কাঁড়	-11.055
▁জৰ্জিয়	-11.055
▁বৃক্ক	-11.055
Location	-11.055
▁gpg	-11.055
contact	-11.055
▁আজীজ	-11.055
▁আদালত	-11.055
▁এলিয়াচ	-11.055
▁ইংলেণ্ড	-11.055
▁উভতি	-11.055
▁Awal	-11.055
▁তেজপুৰ	-11.055
▁লুকিয়ে	-11.055
▁প্ৰতিকৃতি	-11.055
▁auth	-11.055
▁কিদৰে	-11.055
▁পৱিত্	-11.055
▁মাঝে	-11.055
▁কেৰিয়াৰ	-11.055
▁ভঙা	-11.055
▁Port	-11.055
▁Bug	-11.055
year	-11.055
প্ৰচলিত	-11.055
▁নামাকৰণ	-11.055
▁নিদিব	-11.055
▁চলুন	-11.055
চাঁচা	-11.055
▁পণ্য	-11.0551
ulb	-11.0551
SPI	-11.0551
▁চলছে	-11.0551
preview	-11.0551
▁Auto	-11.0551
▁কৰণীয়	-11.0552
▁খৰছ	-11.0552
▁স্ক্ৰোল	-11.0552
razi	-11.0552
EMA	-11.0556
recurr	-11.0559
▁ৰিভাৰ	-11.0639
disc	-11.0639
(2778	-11.0674
▁সূচনাপ্ৰদান	-11.0737
নিৰ্বাচিত	-11.0757
কেৱল	-11.0761
বাইন্ডিং	-11.081
ever	-11.0847
▁স্বীকাৰ	-11.0926
▁অনুলিপিপ্ৰাপক	-11.0975
োল্ড	-11.101
সোঁফাল	-11.1091
তেওঁলোক	-11.1096
(240783)	-11.1105
Antarctica	-11.1105
Format	-11.1105
START	-11.1105
article	-11.1105
encoding	-11.1105
something	-11.1105
watchlist	-11.1105
ন্টাৰ্কটিকা	-11.1105
যুগ্ম	-11.1105
ুন্দীবর়	-11.1105
▁COMMAND	-11.1105
▁Display	-11.1105
▁Network	-11.1105
▁TimeBrazil	-11.1105
▁UNIX	-11.1105
▁WebDAV	-11.1105
▁অসীমিত	-11.1105
▁অৰ্থনীতি	-11.1105
▁আন্তঃপৃষ্ট	-11.1105
▁ইটালিয়ান	-11.1105
▁ইফফচো	-11.1105
▁ইয়ামাহা	-11.1105
▁উত্থাপন	-11.1105
▁উত্পাদক	-11.1105
▁উপলক্ষে	-11.1105
▁কম্পাইল	-11.1105
▁কিলোবাইট	-11.1105
▁কিলোমিটাৰ	-11.1105
▁কৰ্তৃপক্ষ	-11.1105
▁ড্ৰেগ	-11.1105
▁দ্বৈত	-11.1105
▁পাঠ্যক্ৰম	-11.1105
▁পৰিবহণ	-11.1105
▁বাইণ্ডিং	-11.1105
▁বাহ্যিক	-11.1105
▁ব্যৱকৰোঁতা	-11.1105
▁ভাৰ্চুয়াল	-11.1105
▁ভৌতিক	-11.1105
▁যথাযত	-11.1105
▁লেপটপ	-11.1105
▁স্মাৰ্টকাৰ্ড	-11.1105
▁ৱালপেপাৰ	-11.1105
(24223)	-11.1105
Firefox	-11.1105
খ্ৰীষ্ট	-11.1105
▁virtio	-11.1105
▁আইআৰডিএ	-11.1105
▁কৃষক	-11.1105
▁চিক্ৰেট	-11.1105
▁ছেটিংছ	-11.1105
▁ভভারতীয়	-11.1105
▁মন্দিৰ	-11.1105
▁মিশ্ৰণ	-11.1105
▁সাবমেনু	-11.1105
▁ৰেখাংকন	-11.1105
Device	-11.1105
Screen	-11.1105
▁জিনিষ	-11.1105
▁বাওফাল	-11.1105
▁শিঙা	-11.1105
▁tmp	-11.1105
▁বিনিয়োগ	-11.1105
▁"{2}"	-11.1105
▁উদ্ভূত	-11.1105
▁Pango	-11.1105
▁বিভেদন	-11.1105
▁সম্মতি	-11.1105
▁দিৱস	-11.1105
▁শনিবাৰ	-11.1105
▁পাঠাতে	-11.1105
▁বিবৃতি	-11.1105
▁নিদিয়ে	-11.1105
▁থাকক	-11.1105
▁(492)	-11.1105
▁গিনি	-11.1105
▁usb	-11.1105
▁প্রাপ্ত	-11.1105
▁ৰিয়াদ	-11.1105
তত্ত্ব	-11.1106
▁মুল্য	-11.1106
▁ওয়াই	-11.1106
▁বিনেস	-11.1106
▁অধিনত	-11.1106
(621)	-11.1106
(620)	-11.1107
পেতিতে	-11.1107
rames	-11.1108
▁ডায়েল	-11.1109
▁hex	-11.1109
RAM	-11.1109
▁গঢ়ি	-11.111
rently	-11.1113
▁ইন্টাৰ্	-11.1116
pul	-11.1133
lette	-11.1156
367	-11.1185
অঞ্চল	-11.1335
URL	-11.1342
পঞ্জিকা	-11.1347
CPU	-11.1351
parent	-11.1681
শাসন	-11.169
ঋ	-11.169
с	-11.1693
Language	-11.1693
▁সংৰক্ষীত	-11.1693
Document	-11.1693
Signature	-11.1693
warning	-11.1693
▁GameName	-11.1693
▁Thaani	-11.1693
▁dhcp	-11.1693
▁navigation	-11.1693
▁আধুনিক	-11.1693
▁ঘুৰাওক	-11.1693
▁চাৰপাশ	-11.1693
▁টেলিপোৰ্ট	-11.1693
▁তুৰ্কি	-11.1693
▁নিঃশব্দ	-11.1693
▁ন্যায়ালয়	-11.1693
▁পরিবর্তন	-11.1693
▁পুয়েৰ্তো	-11.1693
▁পুস্তিকা	-11.1693
▁প্রেরকের	-11.1693
▁প্ৰতিনিদ্ধিত্ব	-11.1693
▁প্ৰযুক্তিবিদ্যা	-11.1693
▁পৰিচালিত	-11.1693
▁পৰ্যালোচনা	-11.1693
▁বানপানী	-11.1693
▁ভট্টাচাৰ্য	-11.1693
▁মুহাম্মাদ	-11.1693
▁শক্তিশালী	-11.1693
▁ষ্টিফেন	-11.1693
▁সংলঘ্ন	-11.1693
▁সঙ্গীত	-11.1693
▁স্ট্ৰাকচাৰ	-11.1693
▁ৰক্ষাকৰ্ত্তা	-11.1693
Status	-11.1693
হস্তমৈথুন	-11.1693
▁Change	-11.1693
▁font	-11.1693
▁কৰবেন	-11.1693
▁ছেন্ট্ৰাল	-11.1693
▁পেটেণ্ট	-11.1693
▁প্ৰভৃতি	-11.1693
interface	-11.1693
▁অভিবাদন	-11.1693
▁হস্তান্তৰ	-11.1693
▁কাৰ্টুন	-11.1693
▁দেওবাৰ	-11.1693
▁ফৰম্যাট	-11.1693
▁বিবাহৰ	-11.1693
▁টেছলা	-11.1693
Devhelp	-11.1693
▁আল্ফা	-11.1693
▁connection	-11.1693
▁নিৰ্ণয়	-11.1693
▁স্টিকি	-11.1693
(831)	-11.1693
চিল্কচ	-11.1693
▁ক্ৰিকেট	-11.1693
▁পড়তে	-11.1693
▁বৈয়াম	-11.1693
▁ৰঞ্জিত	-11.1693
▁ৰেটিং	-11.1693
▁ফল্চ	-11.1693
▁cgi	-11.1693
delay	-11.1694
▁লেখো	-11.1694
ৰ্গামী	-11.1694
▁পচন্দ	-11.1694
▁vCPU	-11.1694
▁পাহৰি	-11.1694
▁শত্ৰু	-11.1694
▁কনটেক্সট	-11.1694
▁SIM	-11.1694
▁ইফালে	-11.1694
▁কিধৰণে	-11.1694
সাক্ষাৎকার	-11.1694
FILE	-11.1694
▁তোলক	-11.1694
▁Doe	-11.1694
▁Adar	-11.1694
▁নিমজ	-11.1694
▁"2"	-11.1695
RAN	-11.1695
(4744)	-11.1695
France	-11.1702
সোফাল	-11.1714
িঘ্	-11.179
ndro	-11.1809
ৰ্মুখি	-11.1862
ভিত্তি	-11.1926
উদাহৰণস্বৰূপ	-11.1971
বিন্দু	-11.1972
বিশ্বাস	-11.1972
টুলবাৰ	-11.1973
নথিপত্ৰ	-11.1973
সাক্ষাৎকাৰ	-11.1973
গুপ্তশব্দ	-11.1973
গৃহ	-11.1973
সংখ্য	-11.2023
প্ৰেছ	-11.2089
‍	-11.2305
▁নীৰিক্ষ	-11.2314
benchmark	-11.2314
▁ৰাষ্ট্ৰ	-11.2315
▁দ্বন্দ্ব	-11.2317
м	-11.2318
▁ঊৰ্ধ্ব	-11.2318
privacy	-11.2318
▁class	-11.2318
invalid	-11.2318
VirtualBox	-11.2318
accelerator	-11.2318
bookmarks	-11.2318
reason	-11.2318
ঁতসেঁতে	-11.2318
ন্যূনতম	-11.2318
ভিগেটৰ	-11.2318
▁Bahman	-11.2318
▁INDIA	-11.2318
▁MacOS	-11.2318
▁growisofs	-11.2318
▁vCenter	-11.2318
▁অনিয়মিত	-11.2318
▁অনিৰাপদ	-11.2318
▁অপৰিবৰ্তিত	-11.2318
▁অ্যাপলিকেশন	-11.2318
▁আনুসাঙ্গিক	-11.2318
▁আপেক্ষিক	-11.2318
▁আবহাওয়া	-11.2318
▁ইনস্ট্যান্স	-11.2318
▁উদ্দিষ্ট	-11.2318
▁এলুমিনিয়াম	-11.2318
▁কেনেদৰে	-11.2318
▁ক্ৰচহেয়াৰসমূহ	-11.2318
▁গবেষনা	-11.2318
▁চফ্টওৱেৰ	-11.2318
▁চ্প্ৰিংচ	-11.2318
▁ড্ৰুইড	-11.2318
▁ত্ৰুটী	-11.2318
▁ধাঁধা	-11.2318
▁নিৰ্দ্দিষ্ট	-11.2318
▁বাওঁহাতৰ	-11.2318
▁বিখ্যাত	-11.2318
▁বিশ্লেষক	-11.2318
▁মনোনিবেষ	-11.2318
▁লাগিছে	-11.2318
▁শুধুমাত্র	-11.2318
▁শ্ৰমিক	-11.2318
▁সংসাধন	-11.2318
▁সদৃশ	-11.2318
▁সবের্াচ্চ	-11.2318
▁স্প্লিট	-11.2318
▁স্যুইট	-11.2318
▁২০১৮	-11.2318
▁ৰিসোৰ্স	-11.2318
Benga	-11.2318
function	-11.2318
refix	-11.2318
session	-11.2318
template	-11.2318
▁Messages	-11.2318
▁আহ্বান	-11.2318
▁চিৰিলিক	-11.2318
please	-11.2318
▁SELinux	-11.2318
▁আটলান্টিক	-11.2318
▁সালসলনি	-11.2318
(46198)	-11.2318
▁বাৰংবাৰ	-11.2318
Shift	-11.2318
▁শব্দকোষ	-11.2318
গ্ৰহণকৰ্তাবৃন্দ	-11.2318
▁when	-11.2318
▁কৰ্মশালা	-11.2318
▁সাইফাৰ	-11.2318
▁চেহাৰা	-11.2318
micro	-11.2318
▁জয়ন্ত	-11.2318
Count	-11.2318
▁VNC	-11.2318
▁তোমাৰ	-11.2318
▁আকিবলে	-11.2318
▁চান্টা	-11.2318
▁ৰেন্ডাৰ	-11.2319
▁GIF	-11.2319
(2478)	-11.2319
▁টয়লেট	-11.2319
▁নীতিমালা	-11.2319
▁TCP	-11.2319
anner	-11.2319
▁GAL	-11.2319
▁thread	-11.2319
▁শোনা	-11.2319
▁সাপ্লি	-11.2319
▁GPS	-11.2319
▁লাইফ	-11.2319
▁বিভক্ত	-11.2321
স্নাতক	-11.2321
লবাৰ্ট	-11.2326
▁হাউছ	-11.2327
▁বিশ্ল	-11.2333
▁ফ্লেশ	-11.2374
▁0.5	-11.2384
পৃথকিত	-11.2462
পৰিস্থিতিতে	-11.2505
ছেকেণ্ডত	-11.2531
নিৰ্ধাৰিত	-11.2637
স্ক্ৰিন	-11.2638
HTML	-11.2639
সক্ৰিয়	-11.264
দৃষ্টি	-11.2691
▁দায়বদ্ধ	-11.2974
▁নিৰীক্ষ	-11.298
board	-11.2984
stream	-11.2985
Office	-11.2985
(12657)	-11.2985
Check	-11.2985
Orientation	-11.2985
recentchanges	-11.2985
আগবাঢ়ক	-11.2985
গৰ্ভাৱস্থা	-11.2985
নির্ধাৰিত	-11.2985
▁ASCII	-11.2985
▁August	-11.2985
▁Buddy	-11.2985
▁February	-11.2985
▁GStreamer	-11.2985
▁SMART	-11.2985
▁STARTTLS	-11.2985
▁Science	-11.2985
▁Spamassassin	-11.2985
▁Translat	-11.2985
▁Version	-11.2985
▁অনুসারে	-11.2985
▁অস্ত্ৰোপচাৰ	-11.2985
▁আগবঢ়াব	-11.2985
▁আনুষ্ঠানিক	-11.2985
▁ইণ্টাৰনেট	-11.2985
▁ইলেকট্ৰনিক	-11.2985
▁ইস্টাৰ্ন	-11.2985
▁উত্পাটন	-11.2985
▁উপসমষ্টি	-11.2985
▁কাৰ্যকাৰিতা	-11.2985
▁চিকিত্সা	-11.2985
▁টেমপ্লেইট	-11.2985
▁ডেটাবেছ	-11.2985
▁ধুমুহা	-11.2985
▁নিম্নৰেখিত	-11.2985
▁নেতৃত্ব	-11.2985
▁নৱেম্বৰ	-11.2985
▁পুৰোভূমি	-11.2985
▁প্ৰদূষণ	-11.2985
▁পৰিবৰ্তক	-11.2985
▁ফাউণ্ডেশ্যন	-11.2985
▁ফেষ্টিভেল	-11.2985
▁বিঘ্নিত	-11.2985
▁বিমানবন্দৰ	-11.2985
▁যথাযথ	-11.2985
▁শৈক্ষিক	-11.2985
▁সংঘটন	-11.2985
▁সংযোজিত	-11.2985
▁সম্প্ৰসাৰিত	-11.2985
▁স্বাক্ষর	-11.2985
▁হাস্পতাল	-11.2985
▁ৰেঙনী	-11.2985
(45721)	-11.2985
NTLM	-11.2985
Organis	-11.2985
Source	-11.2985
createacc	-11.2985
queue	-11.2985
ইন্ডিয়ানা	-11.2985
▁আলজেৰিয়া	-11.2985
▁কোঁৱৰ	-11.2985
▁দোকান	-11.2985
▁ধৰ্মঘট	-11.2985
▁বহিষ্কৰণ	-11.2985
▁সংপৃক্তকৰণ	-11.2985
▁হিব্ৰু	-11.2985
(24207)	-11.2985
split	-11.2985
▁PATH	-11.2985
▁অগ্ৰাধিকাৰ	-11.2985
▁ক্যাৰেট	-11.2985
▁ডাটাবেছ	-11.2985
▁পেৰেন্ট	-11.2985
▁ভভিজা	-11.2985
▁মনোযোগ	-11.2985
ashion	-11.2985
▁ইউনিকোড	-11.2985
▁পাৰ্শ্বৰূপ	-11.2985
▁চাউথ	-11.2985
iaries	-11.2985
▁মেসেজ	-11.2985
▁প্ৰাক্তন	-11.2985
▁অগ্নি	-11.2985
▁এনেকুৱা	-11.2985
▁পৰিষদ	-11.2985
Only	-11.2985
▁again	-11.2985
▁এড়িয়ে	-11.2985
▁বক্ল	-11.2985
▁ব্ৰেণ্ড	-11.2985
propos	-11.2985
▁পুৰুষ	-11.2985
▁ইউনিট	-11.2985
▁স্বতন্ত্ৰ	-11.2985
▁খোঁজ	-11.2985
▁যত্ন	-11.2985
▁সঁচায়ক	-11.2985
▁চুম্বক	-11.2985
▁পেকেজ	-11.2985
▁NAT	-11.2985
▁মছলা	-11.2985
▁সংশয়	-11.2985
▁সন্দেহ	-11.2985
▁অপৰাধ	-11.2986
ুদ্দিন	-11.2986
Paper	-11.2986
(839)	-11.2986
retty	-11.2986
(619)	-11.2987
parse	-11.2988
▁সমিতি	-11.2991
gram	-11.2992
▁মেট্ৰিক	-11.2997
▁Yau	-11.3002
চৰ্চা	-11.3002
make	-11.302
▁বাঢ়ি	-11.3025
বৃহস্পতিবাৰ	-11.308
March	-11.3139
status	-11.3351
from	-11.3352
পঠোৱা	-11.3353
পিক্সেল	-11.3353
সংস্কৰণ	-11.3354
অজ্ঞাত	-11.3354
▁অধিসূচ	-11.3604
TEXT	-11.3699
contributions	-11.3699
exemplarCity	-11.3699
▁এন্টাৰপ্ৰাইজ	-11.3699
▁টেলিপেথী	-11.3699
▁শিক্ষনবীশ	-11.3699
Certificate	-11.3699
Desktop	-11.3699
Shahrivar	-11.3699
dialog	-11.3699
distribute	-11.3699
overburn	-11.3699
অপেশাদার	-11.3699
ছিষ্টেম	-11.3699
▁Bugzilla	-11.3699
▁Libisofs	-11.3699
▁OpenGL	-11.3699
▁Plasma	-11.3699
▁Radio	-11.3699
▁TIFF	-11.3699
▁Tumblr	-11.3699
▁pronunciation	-11.3699
▁quality	-11.3699
▁receive	-11.3699
▁secure	-11.3699
▁shanbe	-11.3699
▁software	-11.3699
▁ال	-11.3699
▁অতিমাত্রা	-11.3699
▁অপ্ৰয়োজনীয়	-11.3699
▁অপ্ৰাকাশিত	-11.3699
▁অ্যাকউন্ট	-11.3699
▁অৰুণাচল	-11.3699
▁আন্তঃৰাষ্ট্ৰীয়	-11.3699
▁ইণ্ডেন্ট	-11.3699
▁উল্লম্ব	-11.3699
▁এক্সটেন্ডেড	-11.3699
▁চিমসংযোগ	-11.3699
▁চিৰিয়াখানা	-11.3699
▁ছাড়ুন	-11.3699
▁ডিচ্চাৰ্জ	-11.3699
▁ডিসপ্লে	-11.3699
▁থিয়েটাৰ	-11.3699
▁ধনাদায়	-11.3699
▁ধোঁৱা	-11.3699
▁পাকিস্তান	-11.3699
▁পিক্সমেপ	-11.3699
▁প্যাকেজ	-11.3699
▁প্রাধান্য	-11.3699
▁প্ৰজাতন্ত্ৰ	-11.3699
▁পৰিৱহন	-11.3699
▁বিষাক্ত	-11.3699
▁মিডিয়াৱিকি	-11.3699
▁যতিচিহ্ন	-11.3699
▁শংকৰদেৱ	-11.3699
▁শ্ৰেণীবিভাজন	-11.3699
▁সঙ্কলন	-11.3699
▁সম্ভাৱ্য	-11.3699
▁সহযোগিতা	-11.3699
▁সাঙ্কেতিক	-11.3699
▁সোণোৱাল	-11.3699
Config	-11.3699
graph	-11.3699
▁কাৰ্য্যকলাপ	-11.3699
▁প্ৰায়োগিক	-11.3699
▁December	-11.3699
▁নিষেধ	-11.3699
▁স্ক্যান	-11.3699
▁regex	-11.3699
popup	-11.3699
▁যোৱাকালী	-11.3699
active	-11.3699
▁আরম্ভ	-11.3699
▁শিকাৰু	-11.3699
Islam	-11.3699
strong	-11.3699
▁উচ্চাৰণ	-11.3699
▁সেইবাবে	-11.3699
▁সেশান	-11.3699
▁কেচুৱা	-11.3699
▁আলোকপাত	-11.3699
▁জুবিন	-11.3699
▁KiB	-11.3699
▁Sided	-11.3699
Info	-11.37
▁হৰফেৰ	-11.37
Full	-11.37
(826)	-11.37
▁ক্লৌন	-11.3702
(630)	-11.3702
▁মাইগ্রে	-11.3702
অৰুণ	-11.3704
অফিচৰ	-11.3707
দৈত্য	-11.3746
স্বাভাৱিক	-11.4121
জ্যোতি	-11.4121
প্ৰাথমিক	-11.4122
ব্যবস্থা	-11.4122
উন্নয়ন	-11.4122
বিশিষ্ট	-11.4122
বৃদ্ধি	-11.4123
ডিফল্ট	-11.4123
সৰ্বাধিক	-11.4123
ব্যক্তিগত	-11.4123
বেদন	-11.4262
▁কম্পোস	-11.446
▁দৈৰ্ঘ	-11.4461
নিৰ্ব্বাচ	-11.4467
(12658)	-11.4468
(242162)	-11.4468
Developer	-11.4468
location	-11.4468
tasklist	-11.4468
unknown	-11.4468
গোহাঁইৰ	-11.4468
চমত্কার	-11.4468
য়েলচুদাচুদিছভি	-11.4468
সাংবাদিক	-11.4468
▁Abies	-11.4468
▁BIOS	-11.4468
▁CUPS	-11.4468
▁CalDAV	-11.4468
▁Express	-11.4468
▁Libvirt	-11.4468
▁Mission	-11.4468
▁Zhong	-11.4468
▁individual	-11.4468
▁photo	-11.4468
▁vCalendar	-11.4468
▁vendor	-11.4468
▁অগ্রাধিকাৰ	-11.4468
▁অথোৰিটি	-11.4468
▁অসামৰিক	-11.4468
▁আগবঢ়ায়	-11.4468
▁আন্তৰ্জাতিক	-11.4468
▁উইজাৰ্ড	-11.4468
▁উলিওৱা	-11.4468
▁গ্ৰেপ্তাৰ	-11.4468
▁গৱেষক	-11.4468
▁টাৰ্মিনাল	-11.4468
▁ডকাইতি	-11.4468
▁ডানদিকে	-11.4468
▁ত্রুটি	-11.4468
▁ত্ৰিভূজ	-11.4468
▁দূৰ্ঘটনা	-11.4468
▁ধ্ৰুৱক	-11.4468
▁নেইমস্পেইচ	-11.4468
▁নেটওয়াৰ্ক	-11.4468
▁পাসওয়ার্ড	-11.4468
▁পুঞ্জীভূত	-11.4468
▁পুৰস্কাৰ	-11.4468
▁প্ৰান্তৰেখা	-11.4468
▁পৰিৱৰ্ত্তন	-11.4468
▁ফাৰ্মৱেৰ	-11.4468
▁ফিংগাৰপ্ৰিন্ট	-11.4468
▁বিক্ষিপ্ত	-11.4468
▁ব্ল্যাকজ্যাক	-11.4468
▁ভগিনীসংঘ	-11.4468
▁মছজিদ	-11.4468
▁মাৰ্কেটিং	-11.4468
▁সমান্তৰাল	-11.4468
▁হিসেবে	-11.4468
▁ৰাছুলুল্লা	-11.4468
▁ৰুচীয়	-11.4468
▁ৱিকিপিডিয়া	-11.4468
Organizer	-11.4468
bridge	-11.4468
তিনিচুকীয়া	-11.4468
▁Photo	-11.4468
▁কনফিগারেশন	-11.4468
▁গ্ৰন্থপঞ্জী	-11.4468
▁ডিজিটাল	-11.4468
▁ধার্য	-11.4468
▁নিম্নৰেখাঙ্কন	-11.4468
▁পরিচিতিদের	-11.4468
▁প্ৰগ্ৰেছ	-11.4468
▁ব্ৰাজিল	-11.4468
▁ভাইৰেল	-11.4468
▁সামগ্রী	-11.4468
▁স্তুতি	-11.4468
▁হিন্দি	-11.4468
Daemon	-11.4468
result	-11.4468
territory	-11.4468
▁আমদানী	-11.4468
▁তথ্যসংগ্ৰহ	-11.4468
▁শ্ৰীগুণম	-11.4468
▁ৰাছুল	-11.4468
(845)	-11.4468
qcow	-11.4468
▁Java	-11.4468
▁এক্সপ্ৰেশন	-11.4468
▁নির্দেশ	-11.4468
▁Class	-11.4469
▁Country	-11.4469
▁copy	-11.4469
▁pluginview	-11.4469
▁গিয়েছে	-11.4469
(46558)	-11.4469
▁commit	-11.4469
▁common	-11.4469
▁ছাৰ্বিয়া	-11.4469
▁ফৰমায়	-11.4469
▁Black	-11.4469
▁অবৰোধ	-11.4469
▁জৈৱ	-11.4469
(13080)	-11.4469
Delete	-11.4469
Downkeyboard	-11.4469
▁প্ৰচ্ছদ	-11.4469
merge	-11.4469
▁সঘনে	-11.4469
▁ইফেক্ট	-11.4469
▁পাউণ্ড	-11.4469
▁পৰোক্ষ	-11.4469
INFO	-11.4469
▁হিমন্ত	-11.4469
▁পৰ্টেল	-11.4469
▁জীয়াই	-11.4469
▁অভিলেখ	-11.4469
▁অধ্যক্ষ	-11.4469
▁ইহতক	-11.4469
KEY	-11.4469
▁উলিয়াই	-11.447
MAIL	-11.4472
াবধানতা	-11.4473
ল্যাটিন	-11.4476
প্ৰাপকসহ	-11.4661
▁শ্লোভাক	-11.4854
সূচনা	-11.4956
ব্যৱহৃত	-11.4957
▁সম্পাদ	-11.5128
▁recur	-11.5283
▁স্লাইড	-11.5291
Social	-11.5302
Power	-11.5302
External	-11.5302
metadata	-11.5302
specialpages	-11.5302
confirm	-11.5302
screen	-11.5302
▁Clutter	-11.5302
▁বাহুসন্ধিমূল	-11.5302
▁বিষ্ণু	-11.5302
107621	-11.5302
Battery	-11.5302
CalItem	-11.5302
Dictionary	-11.5302
Family	-11.5302
GDateTime	-11.5302
Statistic	-11.5302
endOptionsWithin	-11.5302
manager	-11.5302
orrupt	-11.5302
python	-11.5302
resetpass	-11.5302
yrillic	-11.5302
নৱমুছলিম	-11.5302
সংগৃহীত	-11.5302
▁--------	-11.5302
▁ALSA	-11.5302
▁Author	-11.5302
▁Bahof	-11.5302
▁GnuPG	-11.5302
▁PostScript	-11.5302
▁Tevet	-11.5302
▁WiMAX	-11.5302
▁happen	-11.5302
▁published	-11.5302
▁sendmail	-11.5302
▁অপাৰেশনটি	-11.5302
▁অৱলোকন	-11.5302
▁আনপ্লাগ	-11.5302
▁আপেক্ষক	-11.5302
▁আৰ্গুমেন্ট	-11.5302
▁ইনস্ট্যান্ট	-11.5302
▁ইমুলেটৰ	-11.5302
▁উদযাপন	-11.5302
▁এপিফেনি	-11.5302
▁এপ্লিকেশ্বন	-11.5302
▁ওয়াৰেন্টি	-11.5302
▁কেৰেক্টাৰ	-11.5302
▁ঘূৰ্ণীবতাহ	-11.5302
▁চূড়ান্ত	-11.5302
▁জাভাস্ক্ৰিপ্ট	-11.5302
▁টেন্র্ফ	-11.5302
▁ট্ৰেইলাৰ	-11.5302
▁ডিক্ৰিপষণ	-11.5302
▁তিলাৱাত	-11.5302
▁তীব্ৰ	-11.5302
▁দুৰ্ভাগ্য	-11.5302
▁নুশুধিব	-11.5302
▁নেটওয়ার্ক	-11.5302
▁নোটবুক	-11.5302
▁পৃথিবীৰ	-11.5302
▁প্ৰতিযোগিতা	-11.5302
▁প্ৰত্যাহ্বান	-11.5302
▁প্ৰশ্নোত্তৰ	-11.5302
▁প্ৰাইভেট	-11.5302
▁পৰিবৰ্ত্তন	-11.5302
▁মহানগৰীৰ	-11.5302
▁মেয়াদপূৰ্তীৰ	-11.5302
▁মোৎজাৰ্ট	-11.5302
▁শীঘ্ৰ	-11.5302
▁সতৰ্কতামূলক	-11.5302
▁সন্মিলন	-11.5302
▁সাবস্ক্ৰিপশন	-11.5302
▁সাম্প্ৰদায়িক	-11.5302
▁স্ক্ৰিনছেইভাৰ	-11.5302
▁স্যাম্পেল	-11.5302
▁হ্যান্ডলাৰ	-11.5302
▁হ্যান্ডেল	-11.5302
▁২০১৭	-11.5302
▁ৰিকাৰ্ছিভ	-11.5302
▁ৰেজিস্ট্ৰি	-11.5302
BSSID	-11.5302
▁Client	-11.5302
▁VoIP	-11.5302
▁আগুৱাই	-11.5302
▁পৰীক্ষাৰ্থীৰ	-11.5302
▁মাল্টিকাস্ট	-11.5302
▁সাক্ষৰতা	-11.5302
▁স্বৰাঘাত	-11.5302
Split	-11.5302
charset	-11.5302
sysinfo	-11.5302
দেউতাক	-11.5302
▁Smith	-11.5302
▁Style	-11.5302
▁reply	-11.5302
▁অ্যাকশন	-11.5302
▁তোমাক	-11.5302
▁দম্পতি	-11.5302
▁দিয়োতে	-11.5302
▁মঙ্গোলিয়া	-11.5302
▁সময়ৰেখা	-11.5302
▁চেহেৰা	-11.5302
▁সাবস্ক্র	-11.5302
কনট্ৰাস্ট	-11.5302
▁আৰ্মেনিয়	-11.5302
ी	-11.6211
द	-11.8322
©	-11.9226
~	-12.6794
ৣ	-13.55
ঐ	-14.5176
ş	-14.5177
•	-14.5178
×	-14.5179
»	-14.518
꧁	-14.518
