<unk>	0
<s>	0
</s>	0
▁	-2.67784
,	-3.88337
.	-4.23351
:	-4.39559
;	-4.41113
▁&	-4.69233
-	-4.97222
)	-5.006
▁។	-5.00775
s	-5.09821
amp	-5.11057
▁(	-5.1262
▁#	-5.27028
។	-5.29032
▁160;	-5.36689
▁និង	-5.39717
▁-	-5.42338
▁ការ	-5.42904
▁/	-5.43478
▁បាន	-5.49729
gt	-5.5228
/	-5.57441
▁1	-5.67967
និង	-5.74458
▁ដែល	-5.76488
▁អ្នក	-5.77
e	-5.81973
▁នៅ	-5.95224
%	-5.98446
▁របស់	-6.13477
▁2	-6.14585
នៃ	-6.16554
▁ជា	-6.20737
▁ក្នុង	-6.27793
▁មាន	-6.29
ការ	-6.29391
2	-6.30011
▁នេះ	-6.33203
▁សម្រាប់	-6.35961
lt	-6.36988
សម្រាប់	-6.38017
▁_	-6.39009
▁3	-6.39112
▁កម្មវិធី	-6.43216
▁ដោយ	-6.4582
com	-6.46101
▁S	-6.46689
D	-6.497
▁៖	-6.52205
របស់	-6.55246
▁ត្រូវ	-6.56582
នេះ	-6.58498
S	-6.59385
▁start	-6.60206
!	-6.6026
▁5	-6.60545
y	-6.6057
▁ឬ	-6.60901
▁dur	-6.6132
"&	-6.6196
បាន	-6.63685
▁4	-6.63762
in	-6.6434
"	-6.64866
er	-6.64892
3	-6.65578
x	-6.67425
▁មិន	-6.68363
p	-6.6857
?	-6.69022
▁អាច	-6.71102
ដែល	-6.71284
នៅ	-6.71557
A	-6.71703
▁ទៅ	-6.72373
▁kgm	-6.72849
ន	-6.73122
▁ប្រើ	-6.73475
▁A	-6.74089
4	-6.7424
▁នឹង	-6.74772
▁P	-6.75212
ពី	-6.75248
d	-6.7538
://	-6.76244
នៅក្នុង	-6.76359
C	-6.76697
▁ដើម្បី	-6.77556
▁...	-6.78555
ing	-6.78879
▁ឯកសារ	-6.79811
m	-6.81845
▁in	-6.82508
▁T	-6.83182
▁–	-6.85186
▁10	-6.85253
មួយ	-6.8535
រ	-6.85481
▁C	-6.85668
▁ពី	-6.8576
▁កំណត់	-6.86454
▁វា	-6.86885
▁K	-6.87029
a	-6.87286
▁6	-6.87432
ជា	-6.88745
▁មួយ	-6.89116
b	-6.89187
...	-6.89378
_	-6.89598
▁នៃ	-6.89794
ស	-6.90751
▁$	-6.92364
ដោយ	-6.93312
▁ហើយ	-6.93327
មាន	-6.93877
▁"	-6.94651
▁លោក	-6.94684
ក	-6.97936
n	-6.98027
v	-6.99983
@	-7.00443
▁ខែ	-7.00668
1	-7.0092
អ្នក	-7.01897
o	-7.02879
▁ឆ្នាំ	-7.03121
ម	-7.04122
▁2018	-7.0484
▁ក្រុមហ៊ុន	-7.05172
▁ម៉ាស៊ីន	-7.05476
r	-7.05661
▁D	-7.06306
▁F	-7.06901
▁លើ	-7.07072
▁B	-7.07214
ជាមួយ	-7.07233
g	-7.07303
ដើម្បី	-7.08038
▁គឺ	-7.08266
i	-7.0851
=	-7.10312
ត	-7.10368
▁ឧបករណ៍	-7.10661
W	-7.12324
▁ទំព័រ	-7.12377
5	-7.1273
ទៅ	-7.13227
c	-7.13521
f	-7.13551
▁8	-7.13788
V	-7.14471
▁7	-7.15348
M	-7.15657
របស់អ្នក	-7.16087
al	-7.17109
t	-7.1747
▁+	-7.18468
▁R	-7.18468
mm	-7.18481
7	-7.18609
▁M	-7.1891
▁រូប	-7.19346
ង	-7.20912
ល	-7.21671
L	-7.21696
▁the	-7.21921
▁http	-7.22175
▁G	-7.22566
ក្នុង	-7.23061
8	-7.24048
ប	-7.24302
ed	-7.24586
▁ធ្វើ	-7.25032
B	-7.25052
▁ថ្ងៃ	-7.2549
ក្រុមហ៊ុន	-7.25632
Name	-7.25985
▁19	-7.26176
▁បង្ហាញ	-7.2624
▁2019	-7.26523
▁ផលិតផល	-7.27163
T	-7.28839
▁ព័ត៌មាន	-7.29104
▁E	-7.29405
▁ប្រព័ន្ធ	-7.29535
G	-7.30804
៖	-7.321
▁*	-7.32131
▁សូម	-7.32442
▁H	-7.32639
P	-7.34535
&	-7.3461
9	-7.35186
K	-7.35397
▁ដើម	-7.36051
▁ជ្រើស	-7.37179
▁ពេល	-7.37345
▁ដង	-7.37475
នៅលើ	-7.38265
l	-7.39164
ទី	-7.39258
កម្មវិធី	-7.39344
▁ឲ្យ	-7.39448
on	-7.39917
to	-7.40163
]	-7.40333
▁ស្លាក	-7.42027
ឆ្នាំ	-7.42351
▁20	-7.42442
▁ឈ្មោះ	-7.42912
▁ប្រភេទ	-7.43233
6	-7.44618
▁ជាមួយ	-7.45574
▁ថា	-7.45911
▁ទំហំ	-7.45984
R	-7.46936
'	-7.47148
វា	-7.47776
▁iPhone	-7.47983
▁ថត	-7.48305
▁12	-7.48467
▁L	-7.48873
”	-7.49164
10	-7.49609
▁[	-7.49912
▁Co	-7.50108
▁0	-7.51217
en	-7.51278
or	-7.51457
▁2017	-7.51894
▁បន្ថែម	-7.51898
▁of	-7.52454
ថ្មី	-7.52762
F	-7.5286
h	-7.52981
▁តម្លៃ	-7.53414
▁9	-7.54515
k	-7.54847
▁ទូរស័ព្ទ	-7.55331
▁យើង	-7.5555
គឺ	-7.55867
km	-7.56198
X	-7.56762
H	-7.57245
▁15	-7.5743
▁V	-7.57485
វ	-7.57564
▁តែ	-7.5761
លើ	-7.58796
w	-7.58981
ថា	-7.59605
le	-7.59616
Comment	-7.59851
▁@	-7.59852
▁មើល	-7.60132
▁រូបភាព	-7.60138
re	-7.60747
org	-7.6113
ឬ	-7.61594
នឹង	-7.62209
ម៉ាស៊ីន	-7.62289
an	-7.62562
▁•	-7.6318
ប្រព័ន្ធ	-7.63668
▁I	-7.64412
▁បើ	-7.6516
el	-7.65616
it	-7.65617
មិន	-7.6587
▁នៅក្នុង	-7.66012
▁and	-7.66253
es	-7.66741
លោក	-7.66824
▁info	-7.66833
▁to	-7.66867
▁មុន	-7.67114
▁ទាញយក	-7.67447
▁W	-7.67798
co	-7.67949
▁a	-7.68316
▁បន្ទាប់	-7.69117
/?	-7.6926
▁X	-7.69279
u	-7.69716
▁ចុច	-7.69966
▁តាម	-7.70023
▁ខ្ញុំ	-7.70041
▁N	-7.71062
▁ចំនួន	-7.71909
N	-7.71998
▁ថ្មី	-7.72259
ត្រូវបាន	-7.72611
▁ពណ៌	-7.72846
▁តើ	-7.73226
E	-7.73296
▁https	-7.7469
th	-7.74843
0	-7.74908
(	-7.7508
12	-7.75109
ឧបករណ៍	-7.75332
ly	-7.75403
នៃការ	-7.75592
ទាំងអស់	-7.75624
ដែលមាន	-7.77032
▁ក្រុម	-7.77555
ដ	-7.77977
ខ្ញុំ	-7.78506
▁18	-7.78792
kh	-7.79012
▁m	-7.79357
▁“	-7.79793
▁ទេ	-7.79916
របស់យើង	-7.80296
▁30	-7.80301
ភាព	-7.80528
30	-7.81069
▁ម៉ោង	-7.81402
▁ប្រអប់	-7.82184
ហើយ	-7.82716
ic	-7.83081
▁ផ្នែក	-7.83512
▁បើក	-7.8392
16	-7.84074
▁2016	-7.84838
យ	-7.85364
▁បង្កើត	-7.85651
តាម	-7.86459
ណា	-7.87219
▁p	-7.88319
ប្រតិបត្តិការ	-7.88359
▁name	-7.88421
▁សារ	-7.8851
20	-7.88527
▁16	-7.88623
▁»	-7.88629
O	-7.88743
11	-7.88767
01	-7.88839
City	-7.88911
et	-7.89612
ស្	-7.89697
▁ស	-7.89708
ទូរស័ព្ទ	-7.89839
▁គ្មាន	-7.9003
▁+0000	-7.90092
z	-7.90132
▁Ltd	-7.90522
15	-7.90566
▁2013	-7.90571
ផលិតផល	-7.90631
▁ជម្រើស	-7.90716
▁J	-7.90776
am	-7.91105
1%9	-7.91482
ar	-7.91675
▁យក	-7.9196
▁លេខ	-7.9216
17	-7.92444
▁ទី	-7.93907
▁24	-7.9452
us	-7.94746
50	-7.94835
ទឹក	-7.94841
▁'	-7.95046
at	-7.95273
▁បញ្ចូល	-7.95501
▁២	-7.95638
▁ពាក្យ	-7.9566
យើង	-7.95672
▁ធាតុ	-7.95825
▁ទាំងអស់	-7.96434
▁ទីក្រុង	-7.97452
ខ្ពស់	-7.97582
▁រ	-7.97599
▁for	-7.97609
អាច	-7.97719
▁ត្រូវបាន	-7.98013
ស៊ី	-7.98116
05	-7.98213
▁25	-7.98699
ផ្នែក	-7.98808
ធ្វើ	-7.99068
▁អត្ថបទ	-7.99253
ចំនួន	-7.99436
▁ដាក់	-7.99695
▁បញ្ជី	-8.00937
▁2014	-8.01266
លី	-8.01532
អ	-8.01557
ch	-8.0169
▁100	-8.0202
អំពី	-8.02023
▁ខាង	-8.02191
19	-8.02826
40	-8.03244
បន្ថែម	-8.03385
24	-8.03735
60	-8.04147
▁50	-8.04609
id	-8.04673
se	-8.04675
ប្រើ	-8.0481
▁ប៉ុន្តែ	-8.0491
▁១	-8.04935
▁2015	-8.05074
ជាមួយនឹង	-8.05406
▁ជំនួយ	-8.05734
▁Cambodia	-8.05754
ur	-8.0681
00	-8.0686
ច	-8.06871
03	-8.06973
▁អំពី	-8.07075
▁KDE	-8.0747
▁Z	-8.07477
ប្រភេទ	-8.07617
▁ភាព	-8.08231
▁£	-8.08267
▁រក	-8.0838
▁ចិន	-8.08402
▁ទំព័រដើម	-8.08623
ធំ	-8.08932
▁ក	-8.09144
▁កំពុង	-8.09618
▁ចូល	-8.09723
▁ទៀត	-8.10165
▁បញ្ជា	-8.10187
Y	-8.10616
▁ផ្លូវ	-8.10673
ad	-8.11181
▁O	-8.11519
="	-8.11558
▁ឡើង	-8.11578
តា	-8.11637
25	-8.1246
ជាង	-8.12966
is	-8.13498
13	-8.13992
ក្នុងការ	-8.14597
កម្ពុជា	-8.14935
▁13	-8.15086
ការងារ	-8.15104
លេខ	-8.1511
▁តំបន់	-8.15227
ក្រុម	-8.16058
▁ដល់	-8.16201
U	-8.17306
22	-8.17415
st	-8.17516
ro	-8.17623
▁on	-8.17645
ia	-8.17651
▁U	-8.17793
្	-8.17826
te	-8.18186
▁14	-8.18251
▁ប	-8.18747
▁គ្រប់គ្រង	-8.18902
▁ដំណឹង	-8.18954
04	-8.1905
09	-8.19124
▁ដូច	-8.19468
▁Android	-8.19654
▁«	-8.19737
▁ប្រទេស	-8.19779
www	-8.19837
ដែលបាន	-8.19858
▁ចេញ	-8.20075
▁ថ្ម	-8.20487
02	-8.20554
▁របៀប	-8.20565
▁ចង់	-8.2115
J	-8.21392
▁ច្រើន	-8.21719
▁មក	-8.2206
▁The	-8.22635
39	-8.22875
▁ភាសា	-8.22993
14	-8.23007
▁កំហុស	-8.23058
▁បិទ	-8.23264
▁Windows	-8.23495
21	-8.23712
35	-8.23923
▁Capacitor	-8.23928
និងការ	-8.24058
▁Forex	-8.24196
▁ម	-8.242
▁11	-8.24232
▁f	-8.24249
▁បច្ចុប្បន្ន	-8.24967
▁នៅលើ	-8.25014
▁©	-8.25407
▁21	-8.25874
រី	-8.26
សម្រាប់ការ	-8.26121
36	-8.26195
ថ្ងៃ	-8.26637
45	-8.26759
ា	-8.2698
▁ទាំង	-8.27648
18	-8.27745
▁គឺជា	-8.27752
▁រោងចក្រ	-8.2781
▁ដូច្នេះ	-8.27886
ដា	-8.27931
▁រក្សា	-8.28152
lang	-8.28182
▁រចនា	-8.28316
▁Re	-8.28343
ទ	-8.28411
▁23	-8.28433
ល្អ	-8.28523
▁បោះពុម្ព	-8.28581
ល្អបំផុត	-8.29147
ation	-8.29173
ដូចជា	-8.2923
▁ទិន្នន័យ	-8.29297
▁ទំនាក់ទំនង	-8.29481
ion	-8.29496
ជាតិ	-8.29522
ដល់	-8.29639
រោងចក្រ	-8.29788
មក	-8.29891
▁ពួក	-8.30208
ថ្ម	-8.30229
▁17	-8.31023
សា	-8.31261
33	-8.31362
23	-8.31409
brag	-8.31412
ឯកសារ	-8.31584
ទីក្រុង	-8.31726
▁អាសយដ្ឋាន	-8.31764
▁c	-8.31948
អា	-8.32117
um	-8.3216
នី	-8.32188
▁នោះ	-8.32248
▁អនុញ្ញាត	-8.32876
ម៉ា	-8.3304
▁ទទួល	-8.3307
ដោយឥតគិតថ្លៃ	-8.33107
រ៉ា	-8.33249
ឡើង	-8.33339
#	-8.33452
cambodia	-8.33832
▁អាន	-8.33855
បំពង់	-8.33933
▁ពិនិត្យ	-8.34243
▁by	-8.34262
កា	-8.34367
ol	-8.34385
ma	-8.34407
ប្រាក់	-8.34496
ព័ត៌មាន	-8.34692
▁លក់	-8.3477
▁Hack	-8.34925
ine	-8.34969
▁គេ	-8.35192
▁សាកលវិទ្យាល័យ	-8.35199
▁ប្រសិន	-8.35308
34	-8.35434
ី	-8.35516
▁សេវា	-8.35563
ate	-8.35582
▁ឆ្លើយតប	-8.35637
▁បង្អួច	-8.35645
ri	-8.35819
il	-8.35928
▁ល	-8.36003
Z	-8.36281
un	-8.36334
▁ក្រណាត់	-8.36455
បំផុត	-8.36958
29	-8.37104
គ	-8.37887
37	-8.37906
26	-8.38001
ទេ	-8.38091
mo	-8.38354
80	-8.38638
ដំណើរការ	-8.38661
▁500	-8.38978
ធ្វើការ	-8.38994
រថយន្ត	-8.39295
▁is	-8.39684
▁លេខយោង	-8.39826
បង្ហាញ	-8.4006
me	-8.40332
▁អ	-8.40332
▁ល្ងាច	-8.40743
cm	-8.40924
ផ្សេងទៀត	-8.41045
ទំហំ	-8.41225
▁បន្ទាត់	-8.41269
ចេញ	-8.41305
▁ដំណើរការ	-8.41327
lo	-8.41569
បើក	-8.4172
ចិន	-8.42003
▁Bitcoin	-8.42068
ឱ្យ	-8.42186
ang	-8.42208
▁បណ្ដាញ	-8.42307
ឥឡូវនេះ	-8.42647
90	-8.42787
▁Y	-8.42837
ពួកគេ	-8.42837
la	-8.42947
ផ្លូវ	-8.43567
ra	-8.43624
ពាណិជ្ជកម្ម	-8.4378
▁និយាយ	-8.43782
▁~	-8.43813
im	-8.43839
តម្លៃ	-8.43872
▁ពេលវេលា	-8.43946
▁អា	-8.44253
▁ចាប់ផ្ដើម	-8.44536
man	-8.44664
32	-8.4511
▁k	-8.45171
ទំនាក់ទំនង	-8.45393
▁Name	-8.45651
▁ក្រោយ	-8.45796
ិ	-8.45962
ne	-8.46069
ត្រូវ	-8.46088
នូវ	-8.46171
▁ប៊ូតុង	-8.4625
ផលិត	-8.4629
តាមរយៈ	-8.46347
នោះ	-8.46547
▁2020	-8.46565
ពេល	-8.46849
របស់ខ្ញុំ	-8.47079
ta	-8.47195
built	-8.474
de	-8.47484
▁ការងារ	-8.47504
ong	-8.47982
▁អ្នកផ្គត់ផ្គង់	-8.48085
j	-8.48315
តែ	-8.48393
▁ទុក	-8.48465
▁USA	-8.49097
▁Smart	-8.49172
ៈ	-8.49236
▁សរសេរ	-8.49487
▁ស្វែងរក	-8.49489
31	-8.49496
ពីរ	-8.49646
▁ធនាគារ	-8.49845
ុ	-8.49943
▁កម្រិត	-8.50215
li	-8.50554
08	-8.50854
▁សៀវភៅ	-8.50872
ថាមពល	-8.50929
06	-8.51131
▁ផ្ទុក	-8.5153
▁នាទី	-8.51699
ជាច្រើន	-8.51981
▁ប្រទេសចិន	-8.52003
▁បម្រើ	-8.52016
▁នៅពេល	-8.52021
មនុស្ស	-8.52077
▁ទីតាំង	-8.52153
na	-8.52299
▁គាំទ្រ	-8.52471
▁Samsung	-8.52566
ot	-8.52648
▁សម្ព័ន្ធ	-8.52895
38	-8.53009
▁de	-8.53041
▁Google	-8.53142
▁60	-8.53164
▁រក្សាសិទ្ធិ	-8.53339
ផ្ទះ	-8.53358
ter	-8.53382
ir	-8.53642
▁polyester	-8.5367
អូ	-8.53699
▁ខ្សែ	-8.53779
▁Ch	-8.53894
▁ultrasonic	-8.5404
om	-8.54041
យក	-8.54047
▁°	-8.54836
រដ្ឋ	-8.55034
70	-8.55259
▁កាស៊ីណូ	-8.555
75	-8.55582
69	-8.55639
71	-8.55762
▁40	-8.56118
▁រង	-8.56464
ឡា	-8.56582
▁=	-8.56634
១	-8.56738
▁22	-8.56907
តំបន់	-8.57038
របស់ខ្លួន	-8.57072
▁ឃើញ	-8.57316
▁100%	-8.57346
ព	-8.57493
សេវា	-8.57503
ឈ្មោះ	-8.57652
▁ប្រាក់	-8.57821
ែ	-8.57874
86	-8.5797
▁មូលដ្ឋាន	-8.58192
▁ចាក់	-8.58262
▁ឱ្យ	-8.58415
▁Home	-8.58509
da	-8.58743
▁200	-8.59081
ers	-8.59126
ដែក	-8.59147
▁ព្រឹត្តិការណ៍	-8.59421
72	-8.59482
07	-8.59594
▁ផ្ញើ	-8.59621
ខ្សែ	-8.59754
ៗ	-8.59852
68	-8.59878
99	-8.60045
▁វីដេអូ	-8.60071
គ្នា	-8.60107
200	-8.6011
ex	-8.6012
67	-8.60245
▁៣	-8.60337
▁កា	-8.60745
44	-8.60771
66	-8.6087
and	-8.61074
▁បញ្ជាក់	-8.61397
អន្តរជាតិ	-8.61557
ក្រណាត់	-8.6176
▁ជាង	-8.61763
▁កំណែ	-8.61935
▁ក្រោម	-8.61935
▁City	-8.61951
comment	-8.62001
os	-8.62547
ផ្គត់ផ្គង់	-8.62575
ដៃ	-8.62719
▁26	-8.62759
▁អ្វី	-8.62883
▁រូបថត	-8.62917
ie	-8.63088
as	-8.63438
ដាក់	-8.6392
ហ	-8.64054
▁Li	-8.64341
Q	-8.64686
▁មម	-8.64692
បច្ចេកវិទ្យា	-8.6477
ឧស្សាហកម្ម	-8.6495
▁កម្ពុជា	-8.64993
51	-8.65052
▁គាត់	-8.6517
▁ក្រុង	-8.65191
ant	-8.6521
▁re	-8.65789
▁ធម្មតា	-8.65906
ry	-8.66152
▁€	-8.66191
រូបភាព	-8.66255
▁សម្ភារៈ	-8.66278
របស់ក្រុមហ៊ុន	-8.66283
ប្រើប្រាស់	-8.66298
▁របារ	-8.66478
ig	-8.66478
មុន	-8.66533
ម៉ោង	-8.66539
55	-8.66604
▁៤	-8.66709
ញ	-8.66715
បង្កើត	-8.66896
កំដៅ	-8.66899
▁be	-8.67058
▁t	-8.67113
ប្រទេស	-8.67193
▁hour	-8.67342
លក់	-8.67379
-1	-8.67626
បញ្ចូល	-8.67801
▁ប្រតិបត្តិការ	-8.67912
▁ផ្ទះ	-8.67958
ប្រ	-8.67961
គ្មាន	-8.68151
▁title	-8.68158
២	-8.68289
▁គ្នា	-8.68381
▁មតិ	-8.68452
+	-8.6861
optional	-8.68689
42	-8.68746
បិទ	-8.6883
▁In	-8.69178
ណ	-8.69445
សរុប	-8.69472
ab	-8.69516
▁Ma	-8.696
▁វាយ	-8.6961
ent	-8.69898
▁item	-8.69974
▁ចំណាំ	-8.69992
ian	-8.70051
គណនី	-8.70225
ពេលវេលា	-8.70231
ទិន្នន័យ	-8.70285
▁កញ្ញា	-8.7031
end	-8.7035
▁ពិសេស	-8.70362
28	-8.70507
ខែ	-8.70546
46	-8.70621
ដី	-8.70663
▁រថយន្ត	-8.70689
ដំបូង	-8.70695
ge	-8.70761
▁រចនាសម្ព័ន្ធ	-8.70795
ជ	-8.70804
ពន្លឺ	-8.70914
▁ផ្លាស់ប្ដូរ	-8.71199
▁គម្រោង	-8.71344
’	-8.71428
52	-8.71505
▁អ៊ី	-8.71567
គឺជា	-8.71581
I	-8.71643
▁ឧសភា	-8.71652
កាត់	-8.72408
54	-8.72425
▁ចំណុច	-8.72477
ដោយស្វ័យប្រវត្តិ	-8.72613
ចូល	-8.72834
ca	-8.72959
▁ផ្ដល់	-8.73029
ដើម	-8.73145
ការពារ	-8.73246
ម៉ូតូ	-8.73276
▁ត្រឹមត្រូវ	-8.73297
88	-8.73738
▁PVC	-8.73739
▁ទីនេះ	-8.73987
▁ធ្នូ	-8.74022
▁2012	-8.74035
▁ផ្សេង	-8.74101
▁ចាប់	-8.74153
ើ	-8.74387
ជំនួយ	-8.74412
▁យ៉ាង	-8.74529
▁ស៊េរី	-8.74687
geeks	-8.7472
▁1000	-8.7485
pcs	-8.74903
ថ	-8.74948
weather	-8.74949
]]	-8.74954
ac	-8.74999
▁សមត្ថភាព	-8.75003
age	-8.75037
▁អ៊ីមែល	-8.75096
56	-8.75233
ក្រុង	-8.75305
*	-8.75341
▁ខែមករា	-8.75359
▁កាលបរិច្ឆេទ	-8.75416
▁តម្រង	-8.75432
▁ចំពោះ	-8.75455
មើល	-8.75489
គម្រោង	-8.75573
land	-8.75673
បន្ត	-8.7568
op	-8.75687
100	-8.75758
65	-8.7588
▁ទិដ្ឋភាព	-8.76085
▁ទឹក	-8.76134
គ្រប់គ្រង	-8.76136
▁ដុល្លារ	-8.76157
▁វិញ	-8.76239
27	-8.76266
▁27	-8.76336
▁រក្សាទុក	-8.76404
▁កាន់	-8.76453
ៃ	-8.76952
ផ្ទាល់ខ្លួន	-8.76952
▁action	-8.77054
វីដេអូ	-8.77061
ថ្ងៃទី	-8.77187
កំណត់	-8.7722
ពិសេស	-8.77223
sh	-8.77248
49	-8.77299
95	-8.77312
កំពូល	-8.77605
▁No	-8.77623
74	-8.77639
▁នាក់	-8.7785
ពិភពលោក	-8.77921
ទទួល	-8.77925
ប់	-8.78164
ho	-8.78351
92	-8.78566
ហា	-8.78846
អេ	-8.78965
▁រួម	-8.79021
up	-8.79077
ឺ	-8.79196
ទទួលបាន	-8.79235
ul	-8.79278
យ៉ាង	-8.79407
ក់	-8.79447
ភ្ជាប់	-8.79523
ខ	-8.79739
▁ប្រ	-8.79781
43	-8.79971
53	-8.79974
the	-8.79994
lu	-8.80001
»	-8.80011
▁PDF	-8.80027
▁មជ្ឈមណ្ឌល	-8.80287
ill	-8.80372
▁28	-8.80408
ard	-8.80505
▁Le	-8.8055
▁ដំឡើង	-8.80609
ចាប់ផ្តើម	-8.80645
▁ជំនួស	-8.8067
▁គេហទំព័រ	-8.80825
Stencils	-8.80919
96	-8.81022
▁បំពង់	-8.81155
▁លុប	-8.81264
ឌី	-8.81357
▁មិថុនា	-8.81424
អាន	-8.81556
wordpress	-8.8165
▁ឡើយ	-8.81662
di	-8.81669
73	-8.81929
▁ដែលមាន	-8.81974
▁St	-8.82279
▁LED	-8.82337
;&	-8.82432
▁ល្អ	-8.82565
▁ប្រសិនបើ	-8.82706
▁ដែលបាន	-8.82713
do	-8.82995
76	-8.83118
▁សញ្ញា	-8.8327
▁ខែសីហា	-8.83608
▁ទាក់ទង	-8.8363
▁ម៉ឺនុយ	-8.83715
នាក់	-8.83941
son	-8.83944
យ៉ា	-8.84046
▁តុលា	-8.84064
ទីផ្សារ	-8.84112
ៀ	-8.84189
▁ភ្ជាប់	-8.84192
អាជីវកម្ម	-8.84221
ha	-8.84268
ោ	-8.84279
▁វិធី	-8.84438
បោះពុម្ព	-8.84519
▁ដំបូង	-8.84769
▁អស់	-8.84824
▁វិនាទី	-8.84891
▁ក៏	-8.84955
ru	-8.84961
ment	-8.84964
▁ដ៏	-8.84972
▁កុំព្យូទ័រ	-8.85033
go	-8.85057
▁ល្បឿន	-8.85194
ធ្វើឱ្យ	-8.85212
អាមេរិក	-8.85294
per	-8.85314
▁Bo	-8.85378
▁បញ្ចប់	-8.85452
ច្រើន	-8.8554
▁អ្នកអាច	-8.85592
សុវត្ថិភាព	-8.85641
▁នូវ	-8.85703
▁អក្សរ	-8.85893
▁គ្រាប់	-8.85988
▁ល្បែង	-8.86005
ទិញ	-8.8607
វ៉ា	-8.8607
▁មករា	-8.86367
▁ផ្តល់	-8.86388
ដូច	-8.86515
រក	-8.8654
▁សង់ទីម៉ែត្រ	-8.86746
កាស៊ីណូ	-8.8696
សារ	-8.87092
ide	-8.8724
▁កន្លែង	-8.87298
មុខ	-8.87342
▁បទ	-8.87358
គាត់	-8.87409
ប្រកាស	-8.8746
▁ប្រវត្តិ	-8.87541
៣	-8.87561
▁Khmer	-8.87654
គំរូ	-8.8774
មួយចំនួន	-8.87805
▁ខេត្ត	-8.87814
▁ជួរ	-8.87864
63	-8.87891
ce	-8.87981
អតិថិជន	-8.8821
▁150	-8.88261
ut	-8.883
▁ម៉ា	-8.88329
ip	-8.88443
500	-8.88505
▁w	-8.88563
ទូរស័ព្ទដៃ	-8.88678
au	-8.88688
▁00	-8.88722
ap	-8.88781
▁អេក្រង់	-8.88807
78	-8.88839
▁you	-8.88901
▁ម៉ូតូ	-8.88907
▁Mon	-8.88987
▁Penh	-8.89021
▁ស្បែក	-8.89026
▁35	-8.89072
▁សីហា	-8.89096
▁លទ្ធផល	-8.89144
▁ប្ដូរ	-8.89465
▁ខែតុលា	-8.89591
យន្តហោះ	-8.89594
បា	-8.89843
ដ៏	-8.90226
កំពុង	-8.90305
▁ភាសាខ្មែរ	-8.90333
▁(1	-8.90505
ខ្លួន	-8.90643
of	-8.90674
▁Se	-8.90681
▁300	-8.90709
▁000	-8.90739
ចុងក្រោយ	-8.90805
ប្រេង	-8.90951
57	-8.90976
one	-8.90985
▁លំនាំ	-8.91045
est	-8.91051
▁គ	-8.91272
សម្ភារៈ	-8.91391
ក្រ	-8.91421
ឡូ	-8.91663
▁De	-8.91739
▁លក្ខណៈ	-8.91742
▁ទទួលបាន	-8.91869
58	-8.91906
៩	-8.91975
87	-8.92034
▁CNC	-8.92085
ផងដែរ	-8.92105
សំខាន់	-8.92109
ve	-8.92248
កម្ម	-8.92292
all	-8.92302
អ៊ី	-8.92307
▁មិនអាច	-8.9248
▁ធីក	-8.92489
៍	-8.92515
កម្រិត	-8.9253
▁សេចក្តី	-8.92558
77	-8.92798
សេវាកម្ម	-8.9284
មេ	-8.9285
eng	-8.92938
▁ខ្ពស់	-8.9306
ល់	-8.93272
ន់	-8.93389
▁បន្ទប់	-8.93425
if	-8.93438
▁ពិត	-8.93444
▁Casino	-8.93469
ទាប	-8.93592
▁IP	-8.93617
▁រយៈពេល	-8.93646
េ	-8.93647
អគ្គិសនី	-8.93669
▁ជួល	-8.93679
▁លំនាំដើម	-8.93868
បន្ទាប់	-8.939
64	-8.9403
▁ជូន	-8.94078
▁៥	-8.94086
ជីវិត	-8.9415
ទាញយក	-8.9433
color	-8.9446
61	-8.94547
គាំទ្រ	-8.94626
▁សំណួរ	-8.94634
94	-8.94724
▁សៀវ	-8.94791
ផ្សព្វផ្សាយ	-8.9489
ចំពោះ	-8.94918
our	-8.94952
តូច	-8.94983
▁ដំណើរ	-8.95056
ម្	-8.95163
ដឹកជញ្ជូន	-8.9522
ថត	-8.95264
សម	-8.95311
▁ភៅ	-8.95348
ប៊ី	-8.9545
hi	-8.955
កាត	-8.95648
▁កញ្ចប់	-8.95944
▁Huawei	-8.96004
81	-8.96052
▁សម័យ	-8.96179
ធនាគារ	-8.96309
47	-8.96548
កន្លែង	-8.96556
▁ណា	-8.9658
▁ព្រះ	-8.96625
98	-8.96654
▁កែសម្រួល	-8.96863
វី	-8.96913
bo	-8.96984
▁សា	-8.97149
▁មនុស្ស	-8.9717
▁សកម្មភាព	-8.97327
ni	-8.97449
ណែនាំ	-8.97462
ton	-8.97497
pe	-8.9763
▁កាត	-8.97632
kv	-8.97685
41	-8.97779
ies	-8.97997
▁ម៉ែត្រ	-8.98012
៤	-8.9808
▁សំឡេង	-8.98216
បណ្តាញ	-8.98232
▁គណនី	-8.98235
▁ស្	-8.98299
▁អ៊ីម៉ែល	-8.98463
▁2010	-8.98871
របស់ពួកគេ	-8.9889
ផ្តល់	-8.99034
48	-8.9915
▁ករណី	-8.99209
▁សេចក្ដី	-8.99392
▁ថាមពល	-8.9948
អនុវត្ត	-8.99775
ំ	-8.99812
មី	-8.99821
▁Constellation	-8.99909
▁La	-8.99984
ិច	-9.00003
សំរាប់	-9.0013
៥	-9.0018
របស់គាត់	-9.00261
សុខភាព	-9.00301
▁រដ្ឋ	-9.00386
q	-9.00471
em	-9.00556
89	-9.00576
vi	-9.00687
▁គួរ	-9.00864
IN	-9.00957
he	-9.01082
សិក្សា	-9.01085
▁ផ្ទៃ	-9.01151
79	-9.01166
91	-9.01197
97	-9.01257
▁តង់ស្យុងខ្ពស់	-9.01566
សូម	-9.017
▁ក្រទ្បាផ្ទៃ	-9.01717
ង់	-9.0181
▁ផ្ទាំង	-9.01905
បច្ចេកទេស	-9.01995
ba	-9.02001
ថ្នាំ	-9.02006
ត្រូវបានគេ	-9.02071
▁Mar	-9.02099
ឈ្នះ	-9.02308
▁2011	-9.02348
▁ចុះ	-9.02387
▁ជើង	-9.02452
▁សម្ងាត់	-9.02467
ទូ	-9.02477
▁សិទ្ធិ	-9.0258
សាកលវិទ្យាល័យ	-9.02588
▁News	-9.02616
▁160;?	-9.02636
▁APK	-9.02676
▁គំរូ	-9.02681
▁Ningbo	-9.02719
ាំង	-9.02747
ci	-9.02792
ព្រះ	-9.02803
ិត	-9.02897
▁យោបល់	-9.02941
▁ខ្លួន	-9.03191
▁ដូចជា	-9.03201
▁ជាមួយនឹង	-9.03282
ចាក់	-9.03316
ធម្មតា	-9.03359
ផ្ទុក	-9.03398
59	-9.03465
▁Ro	-9.03559
▁ឧទាហរណ៍	-9.03573
▁Mobile	-9.03576
ell	-9.03675
អតិបរមា	-9.03756
ិក	-9.0381
▁ទិញ	-9.03825
▁ខ្មៅ	-9.03992
82	-9.04021
▁លេង	-9.04022
ឲ្យ	-9.04093
▁បំផុត	-9.04096
85	-9.04162
▁×	-9.04191
▁www	-9.0426
គេហទំព័រ	-9.04373
ud	-9.04488
▁តភ្ជាប់	-9.04608
ប្លាស្ទិច	-9.04661
▁ប្រភព	-9.04695
▁80	-9.04699
▁kde	-9.04758
▁ដែរ	-9.04801
-5	-9.04865
▁ស៊ី	-9.05132
port	-9.05176
▁រៀបចំ	-9.05207
មូលដ្ឋាន	-9.05215
▁រត់	-9.05275
▁របាយការណ៍	-9.05292
▁ម្សៅ	-9.05464
▁៦	-9.055
▁29	-9.05717
រយៈពេល	-9.05806
▁សរុប	-9.05872
net	-9.05936
▁CO	-9.06207
▁បូក	-9.06234
ium	-9.06417
▁90	-9.06651
▁បន្ត	-9.06652
ពុំអាចរកបាន	-9.06829
▁ខែវិច្ឆិកា	-9.06839
ទេសចរណ៍	-9.06866
កុំព្យូទ័រ	-9.0687
▁h	-9.06891
ជី	-9.06991
ត្រជាក់	-9.0705
ER	-9.07079
រឿង	-9.07109
▁កំពូល	-9.07211
▁ចំនួនអ្នកទស្សនា	-9.07248
▁អតិថិជន	-9.07307
ទាំង	-9.07328
▁By	-9.07391
សេ	-9.07485
ជ្រើសរើស	-9.07533
▁Al	-9.07558
pa	-9.0761
តូ	-9.07675
បន្ទាត់	-9.07716
▁ពិនិត្យឡើងវិញ	-9.07741
▁11:	-9.07769
▁សេវាកម្ម	-9.07817
ណាស់	-9.07821
$	-9.0783
ម៉ាក	-9.07844
▁Microsoft	-9.07887
រៀបចំ	-9.07913
▁ទ្រង់ទ្រាយ	-9.07937
រូប	-9.07946
▁កូដ	-9.08104
▁ដៃ	-9.08217
ist	-9.08266
▁ថ្ងៃទី	-9.08439
ite	-9.08441
gu	-9.08481
io	-9.0857
ឡ	-9.08796
គុណភាព	-9.08801
▁32	-9.08806
no	-9.08825
▁៨	-9.08842
កុមារ	-9.08948
▁ប្រធាន	-9.09074
▁Q	-9.09118
ag	-9.09248
បំពេញ	-9.09387
ខ្យល់	-9.09435
ណាមួយ	-9.09505
▁ខែមីនា	-9.09591
▁អេ	-9.09622
▁URL	-9.09713
ទាំងនេះ	-9.09737
គេ	-9.09756
SA	-9.09858
▁ធ្វើការ	-9.10373
▁រុករក	-9.10407
ជំងឺ	-9.10536
ប្រាក់រង្វាន់	-9.10554
ុង	-9.10622
ថ្ងៃនេះ	-9.10701
▁ផ្លាស់ទី	-9.10913
រថភ្លើង	-9.11019
▁ច	-9.11123
▁ពីរ	-9.11149
▁Comments	-9.11301
ច្បាប់	-9.11327
ទៅនឹង	-9.11376
▁ពិន្ទុ	-9.11444
រហូតដល់	-9.11469
▁ស្រុក	-9.11517
▁អតិបរមា	-9.11524
ph	-9.11553
▁Visa	-9.11596
▁ចុង	-9.11671
ភាសា	-9.11744
▁ប្លាស្ទិច	-9.11762
ity	-9.11821
▁ខ្មែរ	-9.11952
▁Pro	-9.11953
នេះគឺ	-9.11986
▁បច្ចេកវិទ្យា	-9.12059
▁whatsthis	-9.12104
▁ទទឹង	-9.12208
able	-9.12231
▁អនុវត្ត	-9.12295
6"	-9.12321
▁ពុម្ព	-9.12323
▁ពន្លឺ	-9.12358
oc	-9.12484
▁ទំងន់	-9.12494
បូម	-9.12563
រវាង	-9.12642
▁ខែមេសា	-9.12714
▁តើធ្វើដូចម្តេច	-9.12783
der	-9.12809
▁ផ្ទាល់	-9.12823
អាហារ	-9.12957
ទំព័រ	-9.13015
ga	-9.13147
ពេញ	-9.13192
GB	-9.13195
▁Me	-9.1322
▁Free	-9.1336
▁ធនធាន	-9.13369
▁បន្ទាប់ពី	-9.13394
▁ប្រតិទិន	-9.13398
▁អាមេរិក	-9.13423
បី	-9.13461
0,000	-9.1358
▁Mac	-9.1368
▁ប្រកាស	-9.13794
ka	-9.13956
ect	-9.14167
សេដ្ឋកិច្ច	-9.14227
ហ្វ	-9.14366
▁១០	-9.14479
be	-9.14487
▁ហ៊ុន	-9.14577
អភិវឌ្ឍន៍	-9.14592
▁ខែកុម្ភៈ	-9.14607
▁with	-9.14654
ub	-9.14654
ពាក្យ	-9.14767
ះ	-9.14964
▁Ba	-9.15077
នេះ។	-9.15182
93	-9.15241
គី	-9.15296
AN	-9.1541
ជម្រើស	-9.15473
ចង់	-9.1558
ts	-9.15758
ទៅកាន់	-9.15797
ិន	-9.15958
័	-9.16101
▁ABA	-9.1611
▁វិច្ឆិកា	-9.16174
ទូទៅ	-9.1623
▁ព	-9.16291
▁ព្រឹក	-9.16292
mi	-9.1636
▁បន្ទះ	-9.16406
បុរស	-9.16418
និយាយ	-9.16544
ជួយ	-9.16656
▁Be	-9.16757
ខ្មៅ	-9.1676
រា	-9.16933
បញ្ចប់	-9.16981
IS	-9.17052
▁រន្ធ	-9.17103
▁ខៀវ	-9.17158
ah	-9.17184
1"	-9.17268
▁សំបុត្រ	-9.17289
គ្រប់យ៉ាង	-9.17291
ក្រោយ	-9.17406
ត្រូវការ	-9.17459
សង្គម	-9.17479
▁01	-9.17508
▁Phnom	-9.17557
ធម្មជាតិ	-9.17559
▁ខែកញ្ញា	-9.17599
សរសេរ	-9.17651
▁យើងមាន	-9.17757
សញ្ញា	-9.17761
out	-9.17787
ឡើងវិញ	-9.17812
kg	-9.17932
▁ផ្សាយ	-9.17959
2"	-9.18119
gi	-9.18173
▁Lo	-9.18216
សកម្មភាព	-9.18374
▁Konqueror	-9.18495
▁An	-9.18512
អេស	-9.18523
gov	-9.18572
កញ្ចក់	-9.18825
▁USD	-9.18831
▁ចម្លង	-9.18911
▁ក្រហម	-9.18923
ick	-9.1893
បន្ទាប់ពី	-9.18991
tic	-9.19023
ស្បែក	-9.19131
▁មេសា	-9.19231
ប្រអប់	-9.19345
ver	-9.19435
ml	-9.19462
▁បណ្តាញ	-9.19568
ពេញលេញ	-9.1957
MA	-9.19631
ដឹកនាំ	-9.1982
▁are	-9.1985
ow	-9.19852
▁For	-9.19922
▁កែ	-9.1993
់	-9.19978
អេក្រង់	-9.20074
កូ	-9.20212
▁31	-9.20218
សាធារណៈ	-9.20267
រង	-9.20346
▁កាបូប	-9.20383
▁បញ្ហា	-9.20403
ng	-9.2048
▁ទៅកាន់	-9.20484
▁ដែលជា	-9.205
▁គ្រប់	-9.20524
៧	-9.20617
62	-9.20797
▁ភ្នំពេញ	-9.20902
po	-9.20912
ណ៍	-9.20926
▁ចាប់ផ្តើម	-9.20962
អង្គការ	-9.20981
7"	-9.21097
art	-9.21164
line	-9.21214
សៀវភៅ	-9.21326
ួ	-9.21415
ក្នុងមួយ	-9.21487
ជួល	-9.21529
▁ខែមិថុនា	-9.21733
▁ឥឡូវ	-9.21761
▁district	-9.21851
▁Ad	-9.21871
ial	-9.21905
សមត្ថភាព	-9.21911
▁វិញ្ញាបនបត្រ	-9.2194
ak	-9.22019
ស្វែងរក	-9.22029
▁សន្លឹក	-9.22148
▁ទាញ	-9.22149
▁Ha	-9.22165
រឹង	-9.22175
ូ	-9.22206
០០	-9.22214
ឥតខ្សែ	-9.22259
ពណ៌	-9.22283
▁OF	-9.22288
ភ	-9.22311
▁ផ្សេងៗ	-9.22323
ឈើ	-9.22373
ny	-9.22381
▁មេ	-9.22447
▁'%	-9.22487
▁ខែធ្នូ	-9.22663
ឹម	-9.22709
▁ថាស	-9.22903
ក៏	-9.22985
ទីតាំង	-9.23155
▁បរាជ័យ	-9.23168
នេះត្រូវបាន	-9.23169
ear	-9.23263
▁រឿង	-9.23286
នៅទីនេះ	-9.23317
su	-9.23348
កីឡា	-9.23365
▁not	-9.23617
pi	-9.23636
បន្ថែមទៀត	-9.23664
bi	-9.23664
▁Download	-9.2375
▁អង្គការ	-9.23765
ted	-9.23769
ការប្រកួត	-9.23791
សាកល្បង	-9.23923
▁គ្រឿង	-9.23935
▁	-9.24083
si	-9.24193
▁ISO	-9.24211
៨	-9.24227
ផលិតកម្ម	-9.24419
▁Mo	-9.24423
AT	-9.24475
▁ខ	-9.24729
សូ	-9.24842
ផ្	-9.24883
han	-9.24959
tion	-9.25132
វិធី	-9.25364
ស្រុក	-9.25463
លើកទី	-9.25496
▁ខ្ញុំជា	-9.25634
▁លាន	-9.25682
▁ម៉ូឌុល	-9.25747
▁Car	-9.25885
▁ចូលរួម	-9.25951
che	-9.25973
ai	-9.2613
▁Online	-9.26139
▁Air	-9.26177
សត្វ	-9.26183
▁Wed	-9.262
▁ថ្នាក់	-9.26217
▁Mi	-9.26373
ុន	-9.26409
ចិត្ត	-9.2642
▁ជួលឡាន	-9.26475
ight	-9.26574
▁ដោយឥតគិតថ្លៃ	-9.26585
ដែលអ្នក	-9.26603
▁តូច	-9.26744
ber	-9.2676
▁ប្រវែង	-9.26764
រូបថត	-9.2685
ណូ	-9.26866
é	-9.26977
sa	-9.26984
ស៊េរី	-9.27162
▁label	-9.27235
▁កាត់	-9.27293
ព្យាបាល	-9.27364
ash	-9.27392
les	-9.27433
មាស	-9.27514
▁HVC	-9.2775
▁ទូទៅ	-9.27775
កូន	-9.27804
ទៀត	-9.27813
▁ផ្ទៃតុ	-9.27848
ក្រុមហ៊ុនផលិត	-9.2792
▁Tue	-9.27983
ករណី	-9.28011
▁វិ	-9.28042
-6	-9.28269
▁sp	-9.28319
▁New	-9.28328
បទ	-9.28353
ix	-9.28359
od	-9.28409
រចនាសម្ព័ន្ធ	-9.28479
▁your	-9.28593
គ្រប់	-9.28605
▁ប្រាក់រង្វាន់	-9.28693
▁រួច	-9.28824
▁"%	-9.28839
ជ្រើស	-9.28846
របស់លោក	-9.2888
▁Su	-9.28929
▁06	-9.28946
ធារាសាស្ត្រ	-9.29038
und	-9.29062
▁Do	-9.29063
ance	-9.29077
ប្រទេសកម្ពុជា	-9.29096
អោយ	-9.29231
“	-9.2931
ហេតុផល	-9.29332
រ៉ូ	-9.2936
lan	-9.2942
គ្រួសារ	-9.2947
mp	-9.29473
AC	-9.29492
០០០	-9.29539
ភ្នំ	-9.29586
ចុច	-9.29612
អ្វី	-9.29694
▁·	-9.29771
▁កណ្ដុរ	-9.29782
▁ទស្សនា	-9.29832
▁TRANSLATORS	-9.2984
▁Vol	-9.29843
▁អឺរ៉ូ	-9.29982
▁ធំ	-9.30042
▁Di	-9.30092
▁250	-9.30121
pl	-9.30121
លេង	-9.30152
▁កក្កដា	-9.3016
▁ក្រុមហ៊ុនផលិត	-9.30164
▁Vessoft	-9.30237
PS	-9.303
▁វត្ថុ	-9.30492
រន្ធ	-9.30516
បូ	-9.30556
83	-9.3056
ត្រ	-9.30576
▁ពាណិជ្ជកម្ម	-9.30595
▁Po	-9.30744
សេរ៉ាមិច	-9.30768
▁condition	-9.30769
▁តំណាង	-9.30879
-0	-9.30907
▁He	-9.30938
នឹងត្រូវបាន	-9.31104
84	-9.31157
ស្រ	-9.31189
▁Apple	-9.31255
ind	-9.31463
▁តើអ្នក	-9.31465
ប្រឹក្សាភិបាល	-9.31571
ល្	-9.31623
▁គិត	-9.31627
ឌីជីថល	-9.31668
បួន	-9.31781
ច្រើនជាង	-9.31794
▁ពួកគេ	-9.31861
▁មុខ	-9.31879
មានការ	-9.31922
ជំនួស	-9.31966
▁Jo	-9.32331
ហ្គោ	-9.32331
▁សកម្ម	-9.32354
ler	-9.32396
▁Ar	-9.32409
បញ្ជាក់	-9.32423
អប់រំ	-9.32489
▁បៃតង	-9.32502
៉	-9.32518
ល្បឿន	-9.32734
សាលា	-9.32755
ឃើញ	-9.32846
ft	-9.32886
អ្វីដែល	-9.32911
ពិ	-9.32949
▁ថ្លៃ	-9.33182
ast	-9.33238
2019	-9.33275
gen	-9.33322
con	-9.33327
មកពី	-9.33348
បញ្ហា	-9.3337
▁—	-9.33414
ec	-9.33518
▁EA	-9.33537
▁តាមរយៈ	-9.33596
▁កុម្ភៈ	-9.33606
ដឹង	-9.33613
វេទិកា	-9.33667
▁ញ	-9.33928
▁Facebook	-9.34173
▁មាតិកា	-9.34237
កញ្ចប់	-9.34244
ចាប់	-9.34307
▁ការប្រើប្រាស់	-9.34318
ចូលទៅក្នុង	-9.34346
ភ្លើង	-9.34351
ay	-9.34362
-10	-9.34414
▁តារាង	-9.34432
min	-9.34561
កៅស៊ូ	-9.3457
hat	-9.34575
ខ្មែរ	-9.34585
▁Ultrasonic	-9.34709
សំណួរ	-9.34922
▁នាង	-9.35
ass	-9.35045
▁ការការពារ	-9.35172
វេចខ្ចប់	-9.35229
▁ទូរសារ	-9.35244
មកដល់	-9.35333
▁០	-9.35349
▁រយៈ	-9.35466
2018	-9.35471
ស្រី	-9.35557
▁ច្បាប់	-9.35648
តែមួយ	-9.35681
▁ប្រសិនបើអ្នក	-9.3575
▁02	-9.35782
កង់	-9.35858
uk	-9.35886
ty	-9.35928
▁Br	-9.35929
ឃ	-9.35942
ក្តៅ	-9.35975
គិត	-9.36104
▁Canada	-9.36105
លុយ	-9.36195
comments	-9.36268
ធី	-9.36389
ster	-9.36438
▁ការកំណត់	-9.36499
OS	-9.36529
ven	-9.366
ការប្រើប្រាស់	-9.3663
▁ស្ថានភាព	-9.36707
▁ស៊ីឌី	-9.36762
មជ្ឈមណ្ឌល	-9.36786
▁Galaxy	-9.3681
ខាងក្រៅ	-9.36952
ជ័រ	-9.36982
sk	-9.37065
▁លក្ខខណ្ឌ	-9.37074
សហគមន៍	-9.37121
▁ឥឡូវនេះ	-9.37127
yl	-9.37158
▁ជួយ	-9.3716
%9	-9.37164
សណ្ឋាគារ	-9.37262
box	-9.3734
លា	-9.37391
▁ទម្រង់	-9.37429
top	-9.37463
វែង	-9.37504
EC	-9.37531
ករ	-9.37676
យ៉ាងខ្លាំង	-9.37906
▁do	-9.37966
▁AC	-9.37969
ti	-9.38107
-8	-9.38252
▁ក្នុងរយៈពេល	-9.38258
ខ្លាំង	-9.38287
ប៉ា	-9.3831
រួម	-9.38313
មម	-9.38327
នៅក្នុងការ	-9.38351
400	-9.3836
យូ	-9.38376
ជួរ	-9.3854
tr	-9.38558
▁El	-9.3861
ក្រៅ	-9.3867
អាចត្រូវបាន	-9.38791
ផ្ញើ	-9.38803
ទំនិញ	-9.38808
▁Plus	-9.38824
ដែលជា	-9.38859
របៀប	-9.38872
បញ្ជា	-9.38873
ធាតុ	-9.38968
ពហុ	-9.39106
សាក	-9.39138
ត្រី	-9.39211
▁ស្វ័យ	-9.39245
▁iOS	-9.39251
▁បន្ទាប់មក	-9.3932
ting	-9.39322
ath	-9.39353
ែក	-9.39373
▁English	-9.3942
ៅ	-9.39462
ish	-9.39485
fish	-9.39491
និ	-9.3954
▁120	-9.39543
ទេ។	-9.39577
▁ខែកក្កដា	-9.39605
day	-9.39675
▁→	-9.3968
▁can	-9.39728
▁រាល់	-9.39746
យើងខ្ញុំ	-9.39784
ron	-9.39821
៦	-9.39889
▁Qu	-9.3997
លើបណ្តាញ	-9.39978
ប្រទេសចិន	-9.40003
ព្រឹត្តិការណ៍	-9.40019
res	-9.4004
ner	-9.40052
▁លេខកូដយោង	-9.40122
ភី	-9.40219
មិនបាន	-9.40328
▁ផ្	-9.40338
មើលឃើញ	-9.40376
លោកអ្នក	-9.40403
លទ្ធផល	-9.40544
0.00	-9.4061
AL	-9.40619
-20	-9.40622
ចំ	-9.40642
ach	-9.40676
£	-9.40757
វិនិយោគ	-9.40796
គ្របដណ្តប់	-9.40843
អាលុយមីញ៉ូម	-9.4094
▁Archives	-9.40956
▁គុណភាព	-9.40998
▁ដែក	-9.41119
world	-9.41159
ord	-9.41163
បញ្ជូន	-9.41178
cam	-9.41397
▁Sp	-9.41419
▁To	-9.41445
ren	-9.41576
ran	-9.41629
អត្ថបទ	-9.41663
▁blockchain	-9.4169
ចាស់	-9.419
▁pro	-9.41908
ដំណោះស្រាយ	-9.41938
ure	-9.4194
ត់	-9.41948
▁បាននិយាយថា	-9.41967
▁សម្គាល់	-9.4199
▁45	-9.4205
▁this	-9.42051
ដូច្នេះ	-9.42069
សំបុត្រ	-9.42086
den	-9.42114
IC	-9.42194
▁ពុម្ពអក្សរ	-9.42199
▁Sa	-9.42213
lin	-9.4236
ខេត្ត	-9.424
ផ្លាស់ប្តូរ	-9.42526
ជិះ	-9.42569
នៅពេល	-9.42588
▁ឧស្សាហកម្ម	-9.42641
▁that	-9.4268
វិ	-9.42721
▁ហៅ	-9.42751
▁PTFE	-9.42788
ack	-9.42919
▁HD	-9.43009
▁លក្ខណៈពិសេស	-9.43055
ត្រួតពិនិត្យ	-9.43144
ភាគច្រើន	-9.43151
រត់	-9.43176
ឯកជន	-9.43243
ជន	-9.43291
ជាផ្លូវការ	-9.43391
រាវ	-9.4341
800	-9.43479
▁丨	-9.4349
ចំណាត់ថ្នាក់	-9.43491
បច្ចុប្បន្ន	-9.43518
▁2009	-9.43542
ថ្នាក់	-9.43591
▁សូចនាករ	-9.4362
▁ចុងក្រោយ	-9.43679
▁Technology	-9.43694
▁ក្រ	-9.43845
ម្សៅ	-9.43964
ចូលចិត្ត	-9.4403
ទៅជា	-9.44059
▁[...]	-9.4415
RA	-9.44173
ដែលមានគុណភាព	-9.44174
រាងកាយ	-9.44197
="6	-9.44221
▁សាកល្បង	-9.44227
បន្ទះ	-9.44288
គំនិត	-9.44356
▁Play	-9.44377
act	-9.44388
▁ក្រាហ្វិក	-9.44499
sta	-9.44644
ត្រឹមត្រូវ	-9.44726
ផ្ទាល់	-9.44785
▁ចំណង	-9.44844
ll	-9.44852
content	-9.44917
លូ	-9.44957
▁color	-9.45047
▁36	-9.45182
ធុង	-9.45195
លាយ	-9.45262
ការផ្លាស់ប្តូរ	-9.45267
tu	-9.45339
សីតុណ្ហភាព	-9.45398
ម៉ូ	-9.45434
vo	-9.45481
នាំ	-9.4552
ុក	-9.45573
ហិរញ្ញវត្ថុ	-9.45584
▁ច្រក	-9.45677
oo	-9.45687
ក្រោម	-9.45758
វិទ្យាសាស្រ្ត	-9.45845
AR	-9.45975
ការអភិវឌ្ឍ	-9.45978
book	-9.46034
▁គោលការណ៍	-9.46042
▁220	-9.46156
ផ្ទៃ	-9.46209
រចនា	-9.46278
cc	-9.46288
▁រចនាប័ទ្ម	-9.46306
▁ៗ	-9.46465
នាង	-9.46532
▁34	-9.46696
▁ហ្គេម	-9.46738
▁ប៉ុណ្ណោះ	-9.46794
mAh	-9.46932
អស្ចារ្យ	-9.46995
ទំនើប	-9.47037
ស្លាប់	-9.47043
ជូន	-9.47083
bar	-9.47161
▁មីនា	-9.47334
iz	-9.47402
ខ្នាតតូច	-9.47414
កំ	-9.47496
ដឹងថា	-9.4754
ator	-9.47546
▁និពន្ធ	-9.47561
ដ្ឋាន	-9.47591
ដូ	-9.47665
▁14:	-9.47695
ដែកថែប	-9.47708
▁Con	-9.47758
mb	-9.47789
▁ស្គាល់	-9.47827
គ្រាន់តែ	-9.47841
▁Shenzhen	-9.47874
ជាការ	-9.47887
ការគ្រប់គ្រង	-9.47908
▁Bill	-9.4792
▁Pa	-9.48159
តិ	-9.48224
▁Ja	-9.48229
▁PCB	-9.48302
©	-9.48339
ាំ	-9.48395
ort	-9.48496
▁ហេតុ	-9.48598
nt	-9.48639
ដោយផ្ទាល់	-9.48687
TS	-9.48765
▁2000	-9.4883
▁1'	-9.4888
▁ម។	-9.48933
បែប	-9.4897
▁as	-9.49109
eg	-9.49115
▁២០	-9.49159
▁ការគាំទ្រ	-9.49203
តុបតែង	-9.4929
ផ្សេងៗ	-9.4936
អ្នកផ្គត់ផ្គង់	-9.49371
▁75	-9.49404
▁Property	-9.49479
▁option	-9.49489
ជញ្ជាំង	-9.49583
▁កុំ	-9.49657
SP	-9.49676
ue	-9.49767
ការិយាល័យ	-9.49896
ens	-9.49955
ម្នាក់	-9.50048
ផ្កាឈូក	-9.50115
តេ	-9.5015
▁សំរាប់	-9.50207
tor	-9.5023
ប្រឆាំងនឹង	-9.50286
កូដ	-9.50297
ke	-9.5034
ile	-9.50364
ធ្វើដំណើរ	-9.50404
ពង្រីក	-9.50425
▁sa	-9.50494
▁អគារ	-9.50504
កាត់បន្ថយ	-9.50572
▁លេខកូដ	-9.50574
▁បែតា	-9.50599
ary	-9.50608
ung	-9.50731
▁សុវត្ថិភាព	-9.50738
ទូរទស្សន៍	-9.50784
មួយដែល	-9.50861
ON	-9.50978
▁Gu	-9.51035
-12	-9.51046
ko	-9.51082
គ្រឿង	-9.51083
▁អូឌីយ៉ូ	-9.511
ចូលរួម	-9.51104
▁ភ្ញៀវ	-9.51135
ន្ត	-9.5114
អាវ	-9.51296
កំណែ	-9.51417
▁អត្រា	-9.51454
ដូចគ្នា	-9.51522
ុយ	-9.51544
▁Inc	-9.51547
▁ឆ្វេង	-9.51628
▁សោ	-9.51698
news	-9.51778
▁HTML	-9.51907
▁ត្រឡប់	-9.52031
ជាប់	-9.52129
▁ស្រទាប់	-9.5225
ឥតគិតថ្លៃ	-9.52292
និយាយថា	-9.52338
គួរឱ្យ	-9.52377
▁ភាគ	-9.52428
ងាយស្រួល	-9.52443
▁តួអក្សរ	-9.52455
តារាង	-9.52456
MP	-9.52459
ana	-9.52464
▁៧	-9.52474
្រ	-9.52534
RE	-9.52598
ដែលអាច	-9.52789
បានទទួល	-9.52865
ob	-9.52905
ចល័ត	-9.53022
so	-9.53072
អាកាស	-9.53087
មា	-9.53094
ណេ	-9.53151
▁09	-9.53167
▁Pre	-9.53176
▁ព្រិល	-9.5318
ki	-9.53186
▁បី	-9.5323
▁នាំចូល	-9.53302
fi	-9.53353
ទុក	-9.53361
CI	-9.53462
អ្នកអាច	-9.53556
នានា	-9.53594
ina	-9.53636
ថ្លៃ	-9.53646
នៅកម្ពុជា	-9.53654
▁គំនិត	-9.53675
aw	-9.53694
បន្	-9.53759
▁ប្រតិបត្តិ	-9.53824
▁តំណ	-9.53901
កោសិកា	-9.53902
ប្រជាជន	-9.53988
hu	-9.54002
យុវជន	-9.5407
ការទូទាត់	-9.54092
វិញ	-9.54181
ពិតជា	-9.54197
ធ	-9.54241
ផ្សេងគ្នា	-9.54329
▁Ra	-9.54359
▁ភ្លៀង	-9.54383
តម្រូវការ	-9.54413
ស្រាវជ្រាវ	-9.54543
ger	-9.54658
ប្	-9.54685
▁ការផ្លាស់ប្តូរ	-9.54691
ភាគហ៊ុន	-9.547
GenericName	-9.54745
▁វាល	-9.54759
សមាជិក	-9.54801
▁ជ	-9.54854
ខាងក្រោម	-9.54882
ស្តីពី	-9.54946
អក្សរ	-9.55034
ដុល្លារ	-9.5505
▁សីតុណ្ហភាព	-9.5506
▁អាវ	-9.55153
lex	-9.55213
ហៅ	-9.55229
work	-9.5526
▁ឡើងវិញ	-9.5526
▁ដែន	-9.55284
▁វេទិកា	-9.5535
▁ពេញ	-9.55623
▁Fri	-9.55711
eu	-9.55717
▁ដី	-9.55718
view	-9.55785
▁ហាង	-9.55826
▁សាលា	-9.55845
old	-9.55923
ឧ	-9.55995
ដេក	-9.56044
▁រូបតំណាង	-9.56155
1000	-9.56246
ya	-9.56255
transposh	-9.56281
អ៊ុយក្រែន	-9.56281
▁ផែនទី	-9.56309
▁សំណុំ	-9.5633
▁st	-9.56333
ជាមួយនឹងការ	-9.56349
▁400	-9.56362
▁Ho	-9.56452
▁ទាន់	-9.56459
▁ណ្តា	-9.5647
ចែករំលែក	-9.56502
▁Development	-9.56626
▁អគារស្នាក់នៅរូម	-9.56626
Hz	-9.56673
▁Vi	-9.56675
▁ការិយាល័យ	-9.56678
▁Cl	-9.5672
ឧស្ម័ន	-9.56721
ក្រហម	-9.56765
▁inlistbox	-9.56798
៨៥៥	-9.56802
បរិក្ខារ	-9.56808
ដោយប្រើ	-9.5684
ail	-9.56884
▁អ៊ីញ	-9.56947
▁មតិយោបល់លើ	-9.57146
ជិត	-9.57153
cal	-9.57155
▁ជាតិ	-9.57167
ផា	-9.5724
▁បម្លែង	-9.57259
ធានា	-9.57314
តើ	-9.57407
ពាក់	-9.57425
កម្មវិធីបញ្ជា	-9.57438
ចុះ	-9.57506
មិនមាន	-9.57538
ប៉	-9.57545
ice	-9.57548
ទាក់ទង	-9.57561
/#	-9.576
ប្រចាំឆ្នាំ	-9.57732
▁ម៉ូដែល	-9.57755
▁ថ្នាំ	-9.57774
▁(1)	-9.57776
០	-9.57777
ទទួលយក	-9.57798
សិល្បៈ	-9.57835
ok	-9.57883
▁70	-9.57976
▁សហរដ្ឋអាមេរិក	-9.58001
សិទ្ធិ	-9.58078
ជួប	-9.58127
បេតុង	-9.58144
▁You	-9.58226
▁2008	-9.58228
▁Cam	-9.58229
ign	-9.58323
="5	-9.58351
ត្រា	-9.58384
មធ្យម	-9.58462
បុគ្គលិក	-9.58588
ឌ	-9.58783
▁សិទ្ធ	-9.58805
បន្ទាន់	-9.58857
ជំនាញ	-9.58974
tan	-9.59042
▁ជីវិត	-9.59043
iv	-9.59054
▁Twitter	-9.59071
ling	-9.59113
log	-9.59113
0000	-9.59132
ខាង	-9.59163
▁Pi	-9.59191
ស្ត្រី	-9.59262
ដែលត្រូវបាន	-9.59389
ជើង	-9.59435
air	-9.59497
hen	-9.59526
ខាងក្នុង	-9.59553
way	-9.59581
▁វិភាគ	-9.59588
រំ	-9.59603
ov	-9.59674
ID	-9.59718
Description	-9.59781
▁inmenu	-9.59781
▁និយមន័យ	-9.59781
int	-9.59891
LE	-9.59946
CC	-9.59949
ស្តង់ដារ	-9.59964
៥០	-9.60016
▁នាំ	-9.60027
▁USB	-9.60041
ave	-9.60065
▁Geeks	-9.60138
▁ក្រសួង	-9.60191
▁Jun	-9.60203
post	-9.60224
រស់នៅ	-9.6027
BC	-9.60285
▁Tr	-9.60351
5"	-9.60362
▁ពង្រីក	-9.60508
cl	-9.60517
▁វិទ្យាស្ថាន	-9.60587
}	-9.60661
លំដាប់	-9.60661
mail	-9.60682
▁33	-9.60725
ដង	-9.60812
▁forecast	-9.60855
▁ថ្ងៃនេះ	-9.60965
▁មិនមែន	-9.61016
▁ទ	-9.61074
▁ចន្លោះ	-9.61097
▁គីឡូក្រាម	-9.61163
មុខងារ	-9.61188
▁សំ	-9.61234
ive	-9.61308
ឡេ	-9.61382
▁Bonus	-9.61397
កាបូប	-9.61421
ste	-9.61454
▁So	-9.61458
▁ហ	-9.61459
▁បង្កើន	-9.61497
ផ្តល់ជូន	-9.61505
▁អភិវឌ្ឍន៍	-9.61528
បាញ់	-9.61624
ហ្កា	-9.6168
យ៉ូ	-9.61718
▁គន្លឹះ	-9.6172
▁ប្រើប្រាស់	-9.61723
ទាំងពីរ	-9.61746
ពាក់កណ្តាល	-9.61776
ឡាន	-9.61792
ire	-9.61804
win	-9.6187
ជំរុញ	-9.61943
សំណង់	-9.61947
▁1"	-9.61956
ផ្សារ	-9.62026
រូ	-9.62067
នេះបាន	-9.62133
ឹង	-9.62142
បញ្ជី	-9.62157
ជីវ	-9.62214
▁And	-9.62257
▁ខាងក្រោម	-9.62272
ប័ណ្ណ	-9.6234
▁មិនមាន	-9.62355
ភាគ	-9.62376
▁សង្កាត់	-9.62383
▁ចិត្ត	-9.62424
តម្រង	-9.62432
▁ប្រហែល	-9.62463
="3	-9.62465
ប្រមាណ	-9.62489
▁Chamkarmon	-9.62489
▁Oct	-9.62518
នឹងត្រូវ	-9.62518
ern	-9.62529
ប៉ុន្តែ	-9.62547
ហ្ស	-9.62631
ស្រស់ស្អាត	-9.62637
ដោយមាន	-9.62687
▁មេកាបៃ	-9.62786
lay	-9.6279
សម្ពាធ	-9.62852
គឺមាន	-9.62928
▁Hu	-9.62971
less	-9.6316
▁អូ	-9.63167
សេចក្តី	-9.63194
ous	-9.63207
€	-9.63229
ន្ទ	-9.63232
▁ជំហាន	-9.63247
▁តួ	-9.63312
សន្លឹក	-9.63327
MS	-9.63362
បុរាណ	-9.63408
ពិតប្រាកដ	-9.63436
ត្រូវតែ	-9.63466
EL	-9.63536
▁En	-9.63546
បំបែក	-9.63579
mer	-9.63679
▁ណាមួយ	-9.63688
ED	-9.63693
pro	-9.63758
ក្បាល	-9.63766
ឈ្មួញកណ្តាល	-9.63791
TC	-9.63833
ction	-9.63848
pc	-9.63859
ris	-9.63924
list	-9.63946
▁ដែកអ៊ីណុក	-9.63952
red	-9.63978
ធម្មនុញ្ញ	-9.64004
នា	-9.64113
សិ	-9.64148
province	-9.64149
គីមី	-9.64298
▁លើក	-9.64298
ពិត	-9.64321
ប្រហែល	-9.64371
ated	-9.6439
▁ផ្សេងទៀត	-9.64399
▁$1	-9.64403
រាប់	-9.64413
និងផ្គត់ផ្គង់	-9.64418
អ្នកប្រើ	-9.64445
កែ	-9.645
▁សម	-9.64503
▁សណ្ឋាគារ	-9.64674
ចាប់ពី	-9.64706
ស្នើសុំ	-9.6473
▁លាក់	-9.6477
▁Wi	-9.6489
បានធ្វើ	-9.64904
="4	-9.64983
mg	-9.64996
600	-9.65001
for	-9.65123
សមុទ្រ	-9.65195
បរទេស	-9.652
រលាយ	-9.65203
cur	-9.65211
វិទ្យា	-9.65357
ចំណុច	-9.6537
កម្លាំង	-9.65388
ood	-9.6551
ware	-9.65516
ទម្រង់	-9.65526
▁៩	-9.65537
▁កុមារ	-9.65578
រោងចក្រផលិត	-9.65592
▁ចែក	-9.65651
▁លំដាប់	-9.65666
▁សមាជិក	-9.65702
▁Phone	-9.65707
ន៍	-9.65773
ib	-9.65805
▁ស្គ្រីប	-9.65845
ចេញពី	-9.6585
អង់គ្លេស	-9.65963
▁Matt	-9.65986
▁រោងចក្រផលិត	-9.65986
ផ្ដល់	-9.65996
មិនអាច	-9.6602
▁ប្រាស់	-9.66043
▁មែន	-9.66213
▁window	-9.66217
ES	-9.66242
ទាំងមូល	-9.66276
▁World	-9.66283
▁48	-9.66316
ខ្លី	-9.66353
ការគាំទ្រ	-9.66378
▁ឯកឧត្តម	-9.66394
ដំឡើង	-9.66423
ដើម្បីទទួលបាន	-9.66434
រហ័ស	-9.66518
ជួញដូរ	-9.66552
▁Mini	-9.6656
▁ជាន់	-9.66579
ឡើយ	-9.66587
uri	-9.66738
gg	-9.66741
កាល	-9.66823
▁ដុល្លារអាមេរិក	-9.66825
ត្រូវបានប្រើ	-9.66834
▁បោះបង់	-9.66898
នេះមាន	-9.66911
fer	-9.66992
▁GPS	-9.67093
▁រក្សាសិទ្ធ	-9.67157
▁មាស	-9.67263
▁Ph	-9.6728
លើក	-9.67322
▁Holmes	-9.67364
អំណាច	-9.6743
ឆ្លង	-9.67539
▁ប្តូរ	-9.67557
កសិកម្ម	-9.6756
▁បានទេ	-9.67727
▁ស្ដាំ	-9.67949
▁Ne	-9.68009
ning	-9.6806
បង់	-9.68107
AP	-9.6813
កាំរស្មី	-9.68134
ឡាស៊ែរ	-9.68136
▁ក្រៅ	-9.68157
4.5	-9.68236
ឹ	-9.68266
កាន់តែ	-9.68288
que	-9.6839
▁ផង	-9.68414
TI	-9.68428
▁Thu	-9.68519
▁ជូនដំណឹង	-9.68565
▁ត្រូវការ	-9.6857
▁វេលា	-9.68722
▁button	-9.68723
កើនឡើង	-9.68733
ជប៉ុន	-9.68783
សកម្ម	-9.68803
សាច់	-9.68805
សារធាតុ	-9.6882
ការព្យាបាល	-9.68825
▁Bu	-9.68868
▁1.5	-9.68942
▁រហូតដល់	-9.69169
MC	-9.69222
az	-9.69235
▁សូមអរគុណ	-9.69261
▁600	-9.69317
▁Ta	-9.69368
▁សូ	-9.69376
IP	-9.69457
▁កញ្ចក់	-9.6954
▁{	-9.69542
ភ្នាល់	-9.69576
ដូចខាងក្រោម	-9.69588
គូ	-9.69589
tra	-9.696
▁ស្វ័យប្រវត្តិ	-9.69617
▁hack	-9.6962
▁Sun	-9.69866
we	-9.69868
OR	-9.69875
▁ឈ្មោះអ្នក	-9.69891
វិធីសាស្រ្ត	-9.69923
part	-9.69932
តាមដាន	-9.69956
របស់អ្នក។	-9.69989
▁David	-9.70006
កណ្តាល	-9.70016
▁ដំណោះស្រាយ	-9.70027
▁LTD	-9.70095
▁ស៊ុម	-9.70109
▁ជាក់លាក់	-9.70212
ផ្តល់ជូននូវ	-9.70213
▁UP	-9.7024
▁មុខងារ	-9.70265
▁ឥត	-9.70267
គួរ	-9.70327
▁ប្រេង	-9.7051
នាទី	-9.70578
SI	-9.70609
="1	-9.70724
ten	-9.70814
men	-9.70901
ែង	-9.70973
សំឡេង	-9.71
atch	-9.71021
ផល	-9.71041
គ្រាប់	-9.71057
▁អេស៊ីលីដា	-9.71082
KH	-9.71092
150	-9.71095
kw	-9.71208
▁con	-9.71247
▁ម៉ាក	-9.71307
▁ព្យាយាម	-9.71334
▁ផ្ទាល់ខ្លួន	-9.71334
▁Group	-9.71378
ប៊	-9.71396
ace	-9.7142
សន្តិសុខ	-9.71481
កើត	-9.71581
▁រាជធានីភ្នំពេញ	-9.71581
car	-9.71587
រៀន	-9.71587
២០	-9.71605
អ្នកនឹង	-9.71671
300	-9.71682
250	-9.71683
wi	-9.71708
SE	-9.7174
ហ្	-9.71789
▁5000	-9.71812
សំ	-9.71844
▁Web	-9.71846
ស្ងួត	-9.71883
▁កាលពី	-9.71942
▁ត្រួតពិនិត្យ	-9.71964
ស្តាប់	-9.71966
ics	-9.7197
▁Na	-9.72036
mon	-9.72056
សាខា	-9.72086
▁state	-9.72092
សុទ្ធ	-9.72093
▁HTTPS	-9.7213
▁១២	-9.72237
សម្រាប់អ្នក	-9.72278
pp	-9.72286
ជ្រ	-9.72291
▁អ្នកប្រើ	-9.72324
ហ្គា	-9.7237
ries	-9.72425
ដប់	-9.72435
រង្វាន់	-9.72469
ឆ្លងកាត់	-9.72504
▁ចម្ងាយ	-9.72516
▁Ni	-9.72595
0.6	-9.72603
▁រូបថតសម្រាប់	-9.72609
ek	-9.72615
▁បា	-9.7265
za	-9.72663
▁iPad	-9.7269
form	-9.72783
ាស់	-9.72787
▁បំពេញ	-9.72833
នៅតែ	-9.72871
ហ្សា	-9.72881
▁Doorknob	-9.72893
ink	-9.72899
chi	-9.7292
▁0.0	-9.72924
cu	-9.72943
សុំ	-9.72968
ដើរ	-9.72969
រ៉ែ	-9.73019
▁Th	-9.7303
បង្ក	-9.73045
អនុញ្ញាតឱ្យ	-9.73052
а	-9.73094
រក្សា	-9.73114
▁0.5	-9.73116
▁រវាង	-9.73127
▁App	-9.73139
វេ	-9.73227
▁HP	-9.73248
unt	-9.73259
PA	-9.7326
®	-9.733
▁800	-9.73401
ax	-9.73513
សប្តាហ៍	-9.73513
▁ចាស់	-9.73515
▁ការពិពណ៌នា	-9.73601
▁Top	-9.73664
▁Oxford	-9.73708
ខ្ញុំបាន	-9.7374
រក្សាទុក	-9.7379
light	-9.73918
សភា	-9.73931
▁ប្ល	-9.73963
ពិនិត្យមើល	-9.73988
▁cr	-9.73993
សិស្ស	-9.74031
jo	-9.74144
ហាង	-9.74195
រួមបញ្ចូល	-9.74247
▁សួរ	-9.74277
ert	-9.74278
mat	-9.74284
▁Jet	-9.74328
rop	-9.74447
▁ទាំងនេះ	-9.74449
by	-9.74461
ក្លាយជា	-9.74467
ត្តិ	-9.74493
បានបង្កើតឡើង	-9.74523
▁status	-9.7453
▁ម៉ែ	-9.74588
▁លម្អិត	-9.74648
-19	-9.74685
tal	-9.74704
NAME	-9.74706
▁ផលិត	-9.74746
រាង	-9.74807
័រ	-9.74825
ux	-9.74877
▁Ga	-9.74899
▁ផ្ទេរ	-9.74905
លឿន	-9.74928
លំហូរ	-9.74946
ហ្គី	-9.7497
▁កើត	-9.74997
▁សប្តាហ៍	-9.75049
▁កម្ពស់	-9.75079
ភាពយន្ត	-9.75096
AM	-9.75136
FS	-9.75161
her	-9.75294
▁ក្	-9.75329
▁សំខាន់	-9.75396
over	-9.75422
▁ដឹង	-9.75449
▁ទន់	-9.75477
កក់	-9.75493
RC	-9.75574
eb	-9.75584
▁j	-9.75596
ផ្អាក	-9.75598
អិល	-9.75625
oll	-9.75639
ប្រសិទ្ធភាព	-9.75681
កុង	-9.75709
▁IC	-9.75728
ence	-9.75789
▁Ctrl	-9.75818
ទឹកប្រាក់	-9.75826
▁១៩	-9.75831
ook	-9.75851
បម្រើ	-9.75859
អឺរ៉ុប	-9.75876
សាច់ប្រាក់	-9.75877
can	-9.75904
CT	-9.75912
▁ស្ត្រី	-9.75929
វៀតណាម	-9.75986
use	-9.76003
សហរដ្ឋអាមេរិក	-9.76019
រស់	-9.76102
▁ដេរ	-9.76159
▁២០១៩	-9.76217
▁from	-9.76221
▁នៅពេលដែល	-9.76267
ថេរ	-9.76273
ហ្គេម	-9.76279
ons	-9.76308
IA	-9.76312
ការធ្វើ	-9.76315
២៣	-9.7632
▁ចាប់ពី	-9.76323
រហូតដល់ទៅ	-9.76339
▁ថ្នាំកូត	-9.76394
wa	-9.76448
dy	-9.7647
▁pre	-9.76509
ei	-9.76518
ich	-9.76539
ik	-9.76581
bu	-9.76583
feed	-9.76615
ជ្រាបទឹក	-9.7672
▁ភាពយន្ត	-9.76729
ប្រវត្តិសាស្រ្ត	-9.76844
▁ខ្លាំង	-9.76877
ខាងលើ	-9.76887
ហេ	-9.76917
-30	-9.76926
ខ្សែភាពយន្ត	-9.76962
▁EN	-9.77121
▁cryptocurrency	-9.77186
▁ឌី	-9.77211
ase	-9.77226
ជំនឿកាតូលិក	-9.77251
▁0.1	-9.77267
បន្ទប់	-9.77332
▁post	-9.77401
រាប	-9.77423
▁បំបែក	-9.77464
ភ្នែក	-9.77543
ទ្	-9.77597
▁យន្តហោះ	-9.77625
page	-9.77634
▁type	-9.77638
ហ្គ	-9.77639
FC	-9.77642
▁MP	-9.77693
▁កែប្រែ	-9.77717
ប្រាំ	-9.77789
▁ប្រាកដ	-9.77864
▁ថ្មីៗ	-9.77895
ល្អឥតខ្ចោះ	-9.77898
The	-9.77941
In	-9.78011
CO	-9.78026
ការអនុវត្ត	-9.78067
php	-9.7807
បរិស្ថាន	-9.78072
ក្មេង	-9.78086
UN	-9.78214
ET	-9.78236
▁Da	-9.78288
▁Copyshop	-9.78316
ចុង	-9.78343
let	-9.78368
▁កាល	-9.78403
▁BS	-9.78467
តន្ត្រី	-9.78529
▁ចល័ត	-9.78579
ley	-9.7859
ឥណទាន	-9.78615
nd	-9.78635
ទ្វារ	-9.78715
យូរ	-9.78727
▁McKnight	-9.78746
▁DN	-9.7881
▁Sh	-9.78818
តិច	-9.7886
ភាសាអង់គ្លេស	-9.7893
▁បញ្ជូន	-9.78959
▁MOQ	-9.78968
▁du	-9.78997
ពីម្សិល	-9.79177
ដំបូល	-9.79178
ព្រះអង្គ	-9.79187
យ៉	-9.7921
ក្រដាស	-9.79219
EA	-9.7923
cy	-9.79237
▁09:	-9.79348
▁ក្រដាស	-9.79356
ជាអ្នក	-9.79387
លើសពី	-9.79399
▁DJ	-9.79428
អ៊ីម៉ែល	-9.79435
▁CA	-9.79469
va	-9.79484
▁កូន	-9.79529
▁37	-9.79551
កំពង់ផែ	-9.79611
▁ស៊ីស្កូ	-9.79617
hr	-9.79623
▁ហ្វេសប៊ុក	-9.79704
រុំ	-9.79705
ប្រឆាំង	-9.79731
rd	-9.7976
▁១៥	-9.79826
▁Ko	-9.79837
▁វិញ្ញាបនប័ត្រ	-9.79889
▁Cr	-9.79934
▁±	-9.80014
▁នេះជា	-9.80042
រីករាយ	-9.80055
ene	-9.80206
ចក្រភពអង់គ្លេស	-9.80266
▁ការពារ	-9.80279
▁ឃ្លាំង	-9.80296
ake	-9.80312
ស្លាក	-9.8037
នោះទេ	-9.80375
ពិភាក្សា	-9.80395
ឱកាស	-9.80399
វិជ្ជាជីវៈ	-9.80454
-11	-9.80546
▁តំលៃ	-9.80572
អគារ	-9.80611
លួស	-9.8062
▁អំណាច	-9.80626
▁មធ្យម	-9.80682
▁ប្រទាក់	-9.80702
▁Photo	-9.80749
ព្រ	-9.80792
RI	-9.80815
▁125	-9.80933
▁will	-9.80972
▁ប្រធានបទ	-9.81014
="8	-9.81016
fa	-9.81029
ព្យាយាម	-9.81085
▁Qingdao	-9.81143
ខ្សែស្រឡាយ	-9.81143
រួមមាន	-9.81158
▁PC	-9.81174
EN	-9.81193
2016	-9.81222
van	-9.81303
ara	-9.81309
▁សេ	-9.81318
ផ្សាយ	-9.81327
ផ	-9.81383
អង្គ	-9.81424
▁China	-9.81476
ពន្ធ	-9.81513
▁សង្ខេប	-9.81532
[	-9.81534
▁នៅទីនេះ	-9.81542
នៅឆ្នាំ	-9.81592
ុល	-9.81632
ans	-9.81726
តិចជាង	-9.81783
ពីការ	-9.81844
ត្	-9.81858
▁ចែករំលែក	-9.81962
ទៅក្នុង	-9.81992
រដ្ឋាភិបាល	-9.82055
ាប់	-9.82081
▁នៅថ្ងៃទី	-9.82155
▁កោះ	-9.82213
▁ឈ្មួញកណ្តាល	-9.82236
រុក្ខជាតិ	-9.82251
ស៍	-9.82272
ោះ	-9.82305
ប្រាក់បញ្ញើ	-9.82327
ជាលើកដំបូង	-9.82332
val	-9.82348
នៅទីក្រុង	-9.82376
គ្រ	-9.82422
កំហុស	-9.82495
▁(2)	-9.82611
សី	-9.82682
▁ជាមុន	-9.82694
ou	-9.827
ical	-9.82717
គម្រប	-9.82767
▁US	-9.82795
លោ	-9.82834
លំ	-9.82909
▁Instagram	-9.82922
120	-9.82923
កិច្ចព្រមព្រៀង	-9.82926
▁ផ្គូផ្គង	-9.82955
▁Open	-9.82973
កាសែត	-9.83004
dr	-9.83042
អាយ	-9.83064
វេជ្ជសាស្ត្រ	-9.83148
▁ធុង	-9.83173
▁Posted	-9.8318
សួរ	-9.83191
ប្រចាំថ្ងៃ	-9.83205
▁កម្រាស់	-9.83243
ola	-9.83276
▁65	-9.83281
ឈ	-9.83343
▁បកប្រែ	-9.83353
ក្រសួង	-9.83364
ត្រឡប់មកវិញ	-9.83383
▁ទីផ្សារ	-9.83405
▁MT	-9.83475
ែន	-9.83481
វិល	-9.83507
▁so	-9.83525
▁first	-9.83598
ពាក្យសម្ងាត់	-9.83607
▁ចំ	-9.83625
▁នីមួយៗ	-9.83647
ank	-9.83658
▁All	-9.83659
ក្នុងស្រុក	-9.83664
▁ផ្លាស់	-9.83666
ros	-9.83693
ទៅលើ	-9.83724
ក្នុងចំណោម	-9.83782
ឯក	-9.83806
▁Amazon	-9.83824
អញ្ជើញ	-9.83831
▁Lu	-9.83899
▁កម្លាំង	-9.83907
Khmer	-9.83947
ទន្លេ	-9.84051
អ្នកកំពុងទស្សនា	-9.84051
▁ឈុត	-9.84115
▁២៣	-9.84158
▁64	-9.84229
2015	-9.84272
▁វគ្គសិក្សា	-9.84284
▁ម៉ូ	-9.84306
▁per	-9.84336
បូមបេតុង	-9.84338
rain	-9.84372
KW	-9.84375
▁ស្នើ	-9.84376
▁អំពីយើង	-9.84388
OP	-9.84389
ប្រភព	-9.84437
ការដឹកជញ្ជូន	-9.84469
▁កណ្ដាល	-9.84473
▁ពួកវា	-9.84479
las	-9.84521
▁38	-9.84552
នៅជិត	-9.846
2000	-9.84623
ឥណ្ឌា	-9.84625
▁we	-9.84654
▁Er	-9.84699
កំណើត	-9.84732
របស់វា	-9.84767
▁ការវេចខ្ចប់	-9.84794
▁55	-9.84827
អាគុយ	-9.84828
▁នា	-9.84849
ano	-9.84862
ble	-9.84906
ខ្លួនឯង	-9.84956
▁YouTube	-9.84963
ចំណាយ	-9.85013
▁Un	-9.85066
ផ្តល់នូវ	-9.85076
▁យោង	-9.85133
ja	-9.85162
ភូមិ	-9.85184
មិនមែនជា	-9.8542
គោរព	-9.85422
ភ្នំពេញប៉ុស្តិ៍	-9.85433
ade	-9.85486
web	-9.85522
XL	-9.8553
▁Mu	-9.85532
▁ឯកជន	-9.85539
pr	-9.85655
▁ក្បាល	-9.8567
▁menu	-9.85672
dia	-9.85744
▁Go	-9.85812
RO	-9.85822
USD	-9.85835
វិស័យ	-9.85838
▁Ri	-9.85903
▁ណាស់	-9.85996
អ្នកជំនាញ	-9.8601
គោលដៅ	-9.86089
ភាសាខ្មែរ	-9.86177
រ៉េ	-9.86229
ust	-9.86229
សម្រាប់លក់	-9.86329
ណ្	-9.86376
tro	-9.86387
នាម	-9.86471
ប្រសិនបើ	-9.86472
លក្ខណៈ	-9.86479
ពួក	-9.8649
ទោស	-9.86508
▁ម្នាក់	-9.86545
មូលនិធិ	-9.86673
▁ជំហានទី	-9.86714
▁ស្រី	-9.86721
pf	-9.86755
ាក់	-9.86761
▁ម៉ូដែល។	-9.86811
▁ទារក	-9.86812
▁tooltip	-9.86813
france	-9.86822
▁li	-9.86841
▁សាខា	-9.86845
ស្ទ	-9.86846
CH	-9.86858
ស្នើ	-9.86925
ker	-9.8693
▁ខ្ញុំបាន	-9.87003
ដែរ	-9.87004
▁ស្វែង	-9.87017
ប៉ុន្មាន	-9.87047
▁គ្រប់យ៉ាង	-9.87089
▁un	-9.87094
▁២០១៥	-9.87149
="10	-9.87167
ដំណាក់កាល	-9.87173
▁FileCatalyst	-9.87281
ដៃគូ	-9.87311
▁DC	-9.87339
នាំចេញ	-9.8734
article	-9.87343
ដោះស្រាយ	-9.87361
▁Fi	-9.87382
សម្ងាត់	-9.87388
ប្រតិបត្តិ	-9.87399
ឧទាហរណ៍	-9.87409
▁08	-9.87416
TE	-9.87432
ប្ដូរតាមបំណង	-9.87503
ept	-9.87506
រដ្ឋបាល	-9.87556
hy	-9.87573
ការ៉េ	-9.87585
មកកាន់	-9.87607
0000,0	-9.87637
មុនពេល	-9.8766
ខ្លាំងណាស់	-9.87679
du	-9.87725
ស្នូល	-9.87751
អ័រម៉ូន	-9.87751
តុ	-9.8784
▁ទាន់សម័យ	-9.87868
ដប	-9.87877
bit	-9.87882
▁ម្ចាស់	-9.87882
ស្អាត	-9.87933
ray	-9.87985
DM	-9.88022
វាល	-9.88076
កិច្ច	-9.88097
នៅឯ	-9.88121
▁ចុះឈ្មោះ	-9.88126
▁ផងដែរ	-9.88147
ហ្វូ	-9.88153
▁អង្កត់ផ្ចិត	-9.88154
tin	-9.88158
▁Spy	-9.88203
ែល	-9.88219
▁Tablet	-9.88224
low	-9.88266
នៅថ្ងៃទី	-9.88276
វាយ	-9.88288
កសាង	-9.88293
ជាន់	-9.88418
ភ្នំពេញ	-9.88435
ជួសជុល	-9.88437
mar	-9.88442
qui	-9.88453
សហគ្រាស	-9.8846
▁ផ្សព្វផ្សាយ	-9.88487
▁Ka	-9.88517
ដេ	-9.88558
ចាត់	-9.88563
▁១៦	-9.88587
▁me	-9.88594
អេឡិចត្រូនិច	-9.88602
ដែលយើង	-9.88644
ថ្នាំកូត	-9.88685
ji	-9.88751
▁more	-9.88763
▁Che	-9.88779
តំលៃ	-9.88838
▁គូ	-9.88845
ប្រចាំ	-9.88869
▁07	-9.88879
នៅពេលដែល	-9.8889
CM	-9.8892
កាមេរ៉ា	-9.88943
▁អង់គ្លេស	-9.88977
▁ផ្លូវកាត់	-9.89038
▁ឧ	-9.89072
▁សម្ពាធ	-9.89075
សាមញ្ញ	-9.89103
ពិនិត្យឡើងវិញ	-9.89182
ចម្រុះ	-9.89184
បំ	-9.89224
សាស្ត្រ	-9.89249
គួរតែ	-9.89259
lor	-9.89262
ទូទាត់	-9.89272
cha	-9.89312
វាស់	-9.89349
▁ពិភពលោក	-9.89357
បៃតង	-9.89363
សាសនា	-9.89414
បង្កើន	-9.89418
▁ជួសជុល	-9.89437
ប្រុស	-9.89457
មហាវិទ្យាល័យ	-9.8946
ឈរ	-9.8947
▁បូម	-9.89546
កែវ	-9.89547
ចែកចាយ	-9.89553
កើតឡើង	-9.89594
បង្វិល	-9.89604
លាន	-9.89605
ផ្លូវដែក	-9.89629
▁ភ្នំពេញប៉ុស្តិ៍	-9.8965
ការផលិត	-9.89664
▁Super	-9.89677
Cambodia	-9.89723
▁ថ	-9.89762
▁ក្រាម	-9.89872
▁CUPS	-9.89894
ជំហាន	-9.89967
▁ប្រសើរ	-9.901
▁ព្រលានយន្តហោះ	-9.90134
ឡុង	-9.90161
▁Union	-9.90216
អប្បបរមា	-9.90241
ជិះកង់	-9.90246
my	-9.90259
លក្ខណៈពិសេស	-9.9026
បូក	-9.90368
▁'',	-9.90386
លម្អិត	-9.90408
ប្រជុំ	-9.9045
ទៀន	-9.90465
af	-9.90484
9001	-9.90497
ឆ្ងាយ	-9.90498
fr	-9.90547
ff	-9.90555
▁សហគមន៍	-9.90571
▁Bar	-9.90595
វត្ត	-9.90666
ព្រឹក	-9.90692
ls	-9.90706
name	-9.90711
▁ប្រចាំ	-9.90728
ally	-9.90745
វិទ្យាស្ថាន	-9.90746
ទន់	-9.90772
ស្រាល	-9.90796
រួមទាំង	-9.90875
▁សិក្ខាសាលា	-9.90878
ជំនាញវិជ្ជាជីវៈ	-9.90893
ក្នុងរយៈពេល	-9.90896
គ្រែ	-9.90935
ចាប់អារម្មណ៍	-9.90942
សិន	-9.90945
▁Win	-9.90958
ឆ	-9.9099
ព្រះជាម្ចាស់	-9.91
▁មូលនិធិ	-9.91008
▁ទោះ	-9.91011
ផ្ទាំង	-9.91023
អាយុ	-9.91068
▁រហូត	-9.91083
កៅអី	-9.91105
cr	-9.9111
ring	-9.9114
វាយតម្លៃ	-9.91141
▁បុរស	-9.91188
ST	-9.91207
ug	-9.9121
▁Min	-9.91221
▁sq	-9.91258
មាត់	-9.91334
▁កាមេរ៉ា	-9.9134
ស្មាតហ្វូន	-9.91348
បារាំង	-9.91384
សាក់	-9.91419
tric	-9.9145
ជក់	-9.91507
▁Ac	-9.91561
rc	-9.91582
▁Man	-9.91615
▁កង់	-9.91625
▁អាហារ	-9.91642
KV	-9.91658
sen	-9.91675
att	-9.91719
មិនមែន	-9.91783
▁10000	-9.91889
សាលារៀន	-9.91905
បេ	-9.91942
ham	-9.91959
ពេទ្យ	-9.92077
ធ្លាប់	-9.92084
0%	-9.92119
គុណ	-9.92127
មហា	-9.92143
▁វិមាត្រ	-9.92155
ier	-9.92162
១០	-9.92184
ម្ចាស់	-9.9222
▁translate	-9.92245
yn	-9.92259
other	-9.92303
▁ទ្រី	-9.92306
read	-9.92313
ផ្សិត	-9.92323
ព្រះអម្ចាស់	-9.9233
▁ស្វាយ	-9.92395
HC	-9.92405
▁Manufacturer	-9.92449
ប្រាប់	-9.92542
ខាងមុខ	-9.92554
LC	-9.92587
▁ក្បឿង	-9.92591
សូម្បីតែ	-9.92665
row	-9.92679
គោ	-9.92701
IT	-9.92726
លៃតម្រូវ	-9.92758
▁ភ្នំ	-9.92777
សកល	-9.92798
▁ពហុ	-9.92803
ING	-9.92814
ធានារ៉ាប់រង	-9.92823
▁Chrome	-9.92825
ល្បី	-9.92844
▁Best	-9.92846
ប្រយុទ្ធ	-9.92849
មគ្គុទ្ទេស	-9.92866
▁Reap	-9.92894
▁3000	-9.9302
▁ទទេ	-9.93063
ពពក	-9.93073
▁Skype	-9.93077
▁Siem	-9.93079
show	-9.93157
OL	-9.9317
យល់	-9.93202
▁នាំចេញ	-9.93232
ការស្រាវជ្រាវ	-9.93286
▁Western	-9.93325
text	-9.93337
▁ដប	-9.93353
▁ទម្ងន់	-9.93353
សង្ខេប	-9.93381
កូរ៉េ	-9.93391
ទេស	-9.93392
ការណ៍	-9.93413
▁Asia	-9.93441
▁ខុស	-9.9345
▁ដោយប្រើ	-9.93473
uck	-9.93503
បានចាប់ផ្តើម	-9.93515
▁លាយ	-9.93522
BO	-9.93533
▁Auto	-9.93577
▁Red	-9.93588
▁2.5	-9.93598
lat	-9.93608
អាស៊ី	-9.93614
ប្ប	-9.93632
ស្គាល់	-9.93675
ចុះឈ្មោះ	-9.93688
ៀង	-9.93715
▁រឹង	-9.93725
▁អរគុណ	-9.93749
▁ថ្មទូរស័ព្ទ	-9.93802
и	-9.93821
▁Key	-9.93842
US	-9.9389
ផ្ទះបាយ	-9.93895
rent	-9.93899
▁ឡាស៊ែរ	-9.93921
▁ដំណាក់កាល	-9.93938
ជាក់លាក់	-9.93968
ខា	-9.94057
rea	-9.94065
▁សុ	-9.94119
ការលក់	-9.94243
▁1500	-9.94265
▁FSX	-9.94328
▁ហេតុអ្វីបានជា	-9.9434
▁អគ្គិសនី	-9.94362
▁ដុំ	-9.94365
ដោយលោក	-9.94392
×	-9.94443
▁Real	-9.94477
ភា	-9.94483
▁រកឃើញ	-9.94483
TV	-9.94506
gmail	-9.94536
ពិនិត្យ	-9.94555
អាក្រក់	-9.94574
មានន័យថា	-9.94577
រួមបញ្ចូលទាំង	-9.94653
▁ភូមិ	-9.94787
▁FX	-9.94796
ធនធាន	-9.94985
សង	-9.94998
▁Sha	-9.95005
▁ឡា	-9.95027
zo	-9.95088
▁ឯកតា	-9.95098
▁100,0	-9.95148
NT	-9.9516
ស់	-9.95188
គេហទំព័រផ្លូវការ	-9.95217
ក្រុមប្រឹក្សា	-9.95312
សមាសធាតុ	-9.95334
▁ជាតិសរសៃ	-9.95363
▁ទូរស័ព្ទដៃ	-9.95439
▁គ្រាន់	-9.95511
▁ខណៈ	-9.95539
▁មហាវិទ្យាល័យ	-9.95543
ប្រវែង	-9.95561
о	-9.95589
ប្រតិកម្ម	-9.95592
ត្ត	-9.95669
lic	-9.95752
ាន	-9.95788
ុំ	-9.95835
រួមគ្នា	-9.95876
▁បរិស្ថាន	-9.95882
ប្រដាប់	-9.9591
lip	-9.95991
នឹងមាន	-9.95995
-2018	-9.96027
ន័យ	-9.96077
▁ម្ជុល	-9.9608
▁លិខិតអាមេរិក	-9.96113
▁សម្រួល	-9.96133
ock	-9.962
PP	-9.96249
▁បោះ	-9.96315
តែប៉ុណ្ណោះ	-9.96359
era	-9.9636
អ្នកមាន	-9.96367
CoV	-9.96374
វិភាគ	-9.96382
▁ជី	-9.96401
▁br	-9.96413
សាងសង់	-9.96443
តែងតែ	-9.96513
Country	-9.9662
▁Dr	-9.9665
mq	-9.9667
▁អំពើ	-9.96682
▁អ្វីដែល	-9.9673
▁Light	-9.96737
ការចំណាយ	-9.9675
សិទ្ធិគ្រប់យ៉ាង។	-9.96835
ដក	-9.96882
លក្ខខណ្ឌ	-9.96905
▁ម្ដង	-9.96914
ទា	-9.9697
ពួកយើង	-9.96987
▁ថ្ងៃមុន	-9.97026
▁0.2	-9.9712
board	-9.97151
ati	-9.9718
ចុះបញ្ជី	-9.97181
DP	-9.97187
▁ងាយស្រួល	-9.97204
▁≤	-9.97236
MM	-9.97275
FA	-9.97376
ម៉ោន	-9.97388
▁month	-9.97407
▁សុខភាព	-9.97444
មានប្រសិទ្ធិភាព	-9.97546
ME	-9.9757
▁ដក	-9.97598
▁បាទ	-9.97639
▁Uni	-9.97644
តែមួយគត់	-9.97652
ខ្សាច់	-9.97658
អ៊ីនធឺណិត	-9.97666
សម្គាល់	-9.9767
="2	-9.97764
▁PP	-9.97816
ព័ត៌មានបន្ថែម	-9.9782
▁ភារកិច្ច	-9.97869
ថតរូប	-9.97875
លំនៅដ្ឋាន	-9.97908
ច្បាស់លាស់	-9.97909
OM	-9.97926
ចុងក្រោយបំផុត	-9.97931
▁បណ្ណាល័យ	-9.97943
▁We	-9.97973
heng	-9.9799
ហ៊	-9.98
ple	-9.98032
Fi	-9.98034
tec	-9.98049
សម្រេច	-9.98111
▁Jul	-9.98147
បង្	-9.98153
តិចតួច	-9.98169
▁Deposit	-9.98169
យុទ្ធសាស្រ្ត	-9.9817
រកឃើញ	-9.98241
wo	-9.98279
័យ	-9.98303
▁Si	-9.98371
▁ទូរទស្សន៍	-9.98395
▁ដឺក្រេ	-9.98431
សន្សំ	-9.98434
▁Office	-9.98441
pt	-9.98484
hang	-9.9854
អាជ្ញាប័ណ្ណ	-9.98602
mal	-9.98602
រាជ	-9.98611
▁star	-9.98638
ព្រៃ	-9.98664
cor	-9.98732
ប្រាំមួយ	-9.988
▁សិក្សា	-9.98828
2014	-9.98835
MT	-9.9884
គ្រូ	-9.98893
ស្តង់ដា	-9.98915
បើ	-9.98927
ise	-9.98932
-15	-9.98936
▁Media	-9.98979
ទីពីរ	-9.99006
ចាន	-9.99105
ទឹកកក	-9.9911
លក់ដុំ	-9.99117
PC	-9.99161
សប្បាយ	-9.99193
គ្រប់គ្រាន់	-9.9922
OC	-9.99329
សូចនាករ	-9.99335
បណ្ដាញ	-9.99342
▁ពិធីការ	-9.99363
បច្ចុប្បន្នភាព	-9.99369
យើងមាន	-9.99387
app	-9.99399
ប្តូរ	-9.99407
▁កើតឡើង	-9.99426
ដោយគ្មាន	-9.99436
▁សត្វ	-9.99439
lock	-9.99476
▁ក្ដារ	-9.99478
ខ្លះ	-9.99518
▁វិទ្យា	-9.99558
កាហ្វេ	-9.99564
▁ជាច្រើន	-9.99593
▁Bi	-9.99594
▁file	-9.99635
ush	-9.99674
▁ខាងក្រោយ	-9.99712
ឱសថ	-9.99732
ze	-9.99743
ទាំងស្រុង	-9.9975
▁Hielscher	-9.9975
ការដាក់ប្រាក់	-9.9976
ther	-9.99839
▁Cup	-9.99842
▁Cha	-9.99843
▁បញ្ឈប់	-9.99938
កម្រិតខ្ពស់	-9.99946
ួន	-9.99999
អេឡិចត្រូនិ	-10.0002
ផងដែរ។	-10.001
ឹក	-10.002
▁អត្តសញ្ញាណ	-10.0024
▁បង់	-10.0026
fo	-10.0027
▁ខែមុន	-10.0028
set	-10.0031
ត្រង់	-10.0033
har	-10.0036
▁ឥណទាន	-10.0037
ហ៊ី	-10.0043
St	-10.0043
TF	-10.0045
▁ប៉ា	-10.0049
Material	-10.0051
review	-10.0054
ស្រឡាញ់	-10.0054
select	-10.0057
មេរោគ	-10.0059
តុលាការ	-10.0059
TO	-10.0063
▁←	-10.0066
▁(20	-10.0066
nu	-10.007
▁Mod	-10.0072
GP	-10.0073
សម្រាប់ប្រព័ន្ធ	-10.0076
សោ	-10.0078
▁ឆានែល	-10.008
▁Amarok	-10.0082
▁ស្រួល	-10.0082
version	-10.0084
ជាដើម	-10.0086
អនុញ្ញាត	-10.0087
ឈាម	-10.0109
អាមេរិច	-10.0109
▁str	-10.0117
▁ទាប	-10.0125
អ្នកប្រើប្រាស់	-10.0128
សាកថ្ម	-10.0131
▁Center	-10.0131
ទស្សនា	-10.0134
មន្ត្រី	-10.0137
▁ការដឹកជញ្ជូន	-10.015
ភេទ	-10.0152
យប់	-10.0154
អិន	-10.0159
ប្រហែលជា	-10.0161
е	-10.0163
ធ្មេញ	-10.0163
មន្ទីរពេទ្យ	-10.0163
▁យើងមានឯកទេស	-10.0164
កំសាន្ត	-10.017
កោះ	-10.0171
ម្យ៉ាងវិញទៀត	-10.0174
ចាំបាច់	-10.0174
គាត់បាន	-10.0176
ហូ	-10.0178
▁អាល់ប៊ុម	-10.018
ម៉ូដែល	-10.0185
tri	-10.0185
0.5	-10.0189
ស្ដង់ដារ	-10.019
▁PayPal	-10.019
card	-10.0193
▁នាយក	-10.0194
ការជួញដូរ	-10.0196
▁រាយ	-10.0199
▁ជម្រះ	-10.0201
▁អារម្មណ៍	-10.0204
ពាក់ព័ន្ធ	-10.0204
ឥឡូវ	-10.0205
ខៀវ	-10.0206
7.5	-10.0207
▁ចាប់តាំងពី	-10.0208
ចំណូល	-10.0208
▁San	-10.0216
▁ការរចនា	-10.0223
ML	-10.0224
បង្អួច	-10.023
▁180	-10.023
រាជធានីភ្នំពេញ	-10.0231
▁២០១៦	-10.0235
ួល	-10.0235
▁សំនួរ	-10.0238
តំណ	-10.0239
របស់លោកអ្នក	-10.0241
លោហៈ	-10.0243
code	-10.0248
tech	-10.0249
▁ជ្រើសរើស	-10.0256
rack	-10.0259
ស៊	-10.0269
▁Cor	-10.0272
▁ប័ណ្ណ	-10.0282
ox	-10.0282
get	-10.0283
hai	-10.029
ជនជាតិ	-10.0295
mu	-10.0296
▁វ៉ាត់	-10.03
▁khmer	-10.0303
del	-10.0305
វ៉ុល	-10.0306
បារ	-10.0308
ND	-10.0312
TM	-10.0317
ប្រចាំខែ	-10.0319
សម្លេង	-10.0321
TH	-10.0323
ជ្រុង	-10.0328
ស្ថានភាព	-10.0332
ក្ខ	-10.0338
▁BTC	-10.0341
ini	-10.0344
ខុសគ្នា	-10.0345
វត្ថុ	-10.0347
▁86-	-10.0347
ឥ	-10.0348
ម៉ែត្រ	-10.035
▁ដូចគ្នា	-10.0353
▁និងការផលិត	-10.0355
របស់នាង	-10.0359
▁បានបង្កើត	-10.0365
រេ	-10.0367
▁បរិមាណ	-10.0371
▁ទស្សនៈ	-10.0372
▁GSM	-10.0372
▁Bank	-10.0372
▁Du	-10.0373
▁110	-10.0373
ពានរង្វាន់	-10.0378
នៃព្រះគ្រីស្ទ	-10.0378
ប្លុក	-10.0378
បង្ហាប់	-10.0379
សក់	-10.038
▁International	-10.0382
▁CE	-10.0389
▁dis	-10.039
sha	-10.0391
HA	-10.0394
ដោយខ្លួនឯង	-10.0401
2.5	-10.0401
ស្រទាប់	-10.0406
OT	-10.041
កាលពី	-10.0412
ច្បាស់	-10.0412
6%	-10.0416
online	-10.0418
▁សិស្ស	-10.0419
MB	-10.0428
="12	-10.0435
បុគ្គល	-10.0436
សំយោគ	-10.0437
▁ពិពណ៌នា	-10.0438
ការបង្កើត	-10.0439
▁ទ្រនិច	-10.044
1.5	-10.044
▁គ្រាប់ចុច	-10.044
កាណាដា	-10.0442
ពូជ	-10.0449
▁ត្រា	-10.0456
▁PE	-10.0459
▁សម្បត្តិ	-10.0465
ចម្លង	-10.0469
▁no	-10.0469
កិច្ចសហប្រតិបត្ត	-10.0473
mit	-10.0473
RS	-10.0478
▁have	-10.048
ការភ្នាល់	-10.0482
reg	-10.0482
LA	-10.0488
វីង	-10.0488
ឆ្នោត	-10.049
ឧបត្ថម្ភ	-10.0492
▁group	-10.0492
អន្ដរជាតិ	-10.0493
SM	-10.0494
មានគុណភាពខ្ពស់	-10.0499
▁+86	-10.0499
▁2.0	-10.0504
▁Toul	-10.0504
▁ទិវា	-10.0509
បទចម្រៀង	-10.051
ប្រែប្រួល	-10.0521
▁តន្ត្រី	-10.0521
មិនត្រូវបាន	-10.0522
និស្សិត	-10.0526
▁28,	-10.0526
▁យើងបាន	-10.0528
▁ភាគហ៊ុន	-10.0529
ក្លឹប	-10.0529
ឆ្	-10.053
▁អាស៊ី	-10.0535
ម៉េ	-10.0535
uc	-10.0535
បឹង	-10.0541
▁នេះគឺជា	-10.0541
="9	-10.0543
បង់ប្រាក់	-10.0547
▁មើលទៅមុខដើម្បី	-10.0549
ក្តី	-10.055
ទាំងនោះ	-10.055
▁ឌីវីឌី	-10.0553
LI	-10.0558
lim	-10.056
2.1	-10.0566
rom	-10.0566
▁អាជីវកម្ម	-10.0573
▁ជំងឺ	-10.0574
▁all	-10.0576
ិការរបស់អ្នក	-10.0579
PE	-10.058
eck	-10.0581
ពត់	-10.0586
បរិមាណ	-10.0588
nc	-10.0589
គោលបំណង	-10.0589
tt	-10.0593
ផលប៉ះពាល់	-10.06
▁ភ្លើង	-10.0605
ទូរស័ព្ទចល័ត	-10.0605
ម៉ាស៊ីនថតចម្លង	-10.0607
តំណាង	-10.0607
GE	-10.0608
អស់	-10.0608
ចា	-10.061
ន្ដ	-10.0611
▁ការផ្សព្វផ្សាយ	-10.0611
ទិន្នផល	-10.0619
▁១៨	-10.0619
សេវាកម្មបន្	-10.0619
ក្រូ	-10.0622
ក្រម	-10.0624
▁គូរ	-10.0628
▁Ya	-10.0631
▁2007	-10.0632
ទាប់ពីការលក់និង	-10.0634
ហូត	-10.0635
▁11,	-10.0636
▁ឃ	-10.0645
សេចក្ដី	-10.0647
▁app	-10.0649
ari	-10.0649
ជាតិសរសៃ	-10.065
ពិធី	-10.0651
ហ្ស៊ី	-10.0656
▁លិខិត	-10.0658
▁ពាន់	-10.0661
ទេសដ៏ល្អឥតខ្ចោះ។	-10.0662
▁ប្រភេទផលិតផលនៃ	-10.0662
ផលិតពីប្រទេសចិន	-10.0663
▁Pay	-10.0672
▁Slots	-10.0672
រឹងមាំ	-10.0673
ការណែនាំ	-10.0675
កេ	-10.0676
ចម្បង	-10.0678
កិច្ចការ	-10.068
នេះគឺជា	-10.0687
នយោបាយ	-10.069
▁Metatrader	-10.0691
▁គោល	-10.0697
▁គុណ	-10.0703
uff	-10.0704
sch	-10.0711
របស់អតិថិជន	-10.0714
រៀង	-10.0715
▁គ្រាន់តែ	-10.0716
="11	-10.0718
▁SKU	-10.0719
5.0	-10.072
ពង្រឹង	-10.072
▁Christ	-10.0721
ថ្មីៗ	-10.0724
ការគាំទ្របច្ចេក	-10.0724
▁ជិត	-10.0736
វិញ្ញាបនប័ត្រ	-10.074
▁Led	-10.0742
tre	-10.0743
▁Mark	-10.0745
中文	-10.0748
ឯកទេស	-10.0748
▁ផ្សិត	-10.0749
▁ងាយ	-10.0761
new	-10.0762
▁ក្នុងនាមជា	-10.0763
ប៉េ	-10.0764
ដំណើរ	-10.0767
▁បុគ្គលិក	-10.077
▁គោលនយោបាយ	-10.0773
វដ្ត	-10.0777
▁column	-10.0777
សាជីវកម្ម	-10.0777
ការត្រួតពិនិត្យ	-10.0787
▁កីឡា	-10.0791
ប្រធាន	-10.0799
▁សមាសភាគ	-10.0801
ខ្ពស់លក់ដុំនៃ	-10.0805
▁ប័ណ្ណសារ	-10.0807
▁ការផ្តល់	-10.0808
▁សតិ	-10.0814
ចាំ	-10.0814
▁04:	-10.0818
▁sh	-10.0819
2020	-10.0819
▁តម្រូវ	-10.082
▁ឈើ	-10.0821
vis	-10.0823
▁ភីកសែល	-10.0824
eep	-10.0828
គ្រឿងបន្លាស់	-10.0828
កាលបរិច្ឆេទ	-10.0831
▁ខែឧសភា	-10.0833
ពិព័រណ៍	-10.0833
ប៊ិច	-10.0834
សម្អាត	-10.0834
វិស្វកម្ម	-10.0834
public	-10.0834
uch	-10.0835
▁Power	-10.0835
▁3.0	-10.0836
▁គោលដៅ	-10.0838
បំពាក់	-10.0846
ក្នុងមួយថ្ងៃ	-10.0846
▁ប៊ីត	-10.0848
▁៣០	-10.0848
ចេះ	-10.0849
▁លោកស្រី	-10.0853
មានតម្លៃ	-10.0859
ស៊ីធី	-10.0862
ផែនការ	-10.0862
ប៊ូតុង	-10.0862
ធ្លាក់ចុះ	-10.0866
ក្នុងឆ្នាំ	-10.0883
GO	-10.0883
.99	-10.0885
br	-10.0886
ខេ	-10.0887
▁world	-10.089
គណបក្ស	-10.0892
រុស្ស៊ី	-10.0892
បំពង់បង្ហូរទឹក	-10.0897
▁១០០	-10.0901
▁Ca	-10.0904
LS	-10.0905
ual	-10.0908
សៀគ្វី	-10.0912
TP	-10.0915
ដាច់	-10.0916
តឹង	-10.0919
▁LCD	-10.0923
▁លេខសម្គាល់	-10.0925
▁ការត្រួតពិនិត្យ	-10.0927
info	-10.0929
ចម្	-10.0931
long	-10.0941
pan	-10.0943
▁វ៉ុល	-10.0944
▁ស្មើ	-10.0948
▁វ៉ា	-10.0949
▁ទឹកកក	-10.095
▁កំ	-10.095
ឆ្មា	-10.095
=5.0.6	-10.0951
html	-10.0952
source	-10.0952
side	-10.0956
ដ៏អស្ចារ្យ	-10.0957
▁គូស	-10.0962
index	-10.0985
▁new	-10.0985
លិច	-10.0991
ឆ្លើយតប	-10.0996
▁ស្ថានីយ	-10.0997
▁ម៉ាស៊ីនភ្លើង	-10.0998
▁បណ្ណសារ	-10.1001
Packing	-10.101
ប្រៀបធៀប	-10.1015
▁ម៉ាស៊ីនបម្រើ	-10.102
ចងចាំ	-10.1022
▁Ru	-10.1022
អេកូ	-10.1024
ពីរដង	-10.1026
ram	-10.1026
PR	-10.1028
▁មិនា	-10.1031
rate	-10.1031
▁play	-10.1032
ទាក់ទងនឹង	-10.1036
ខាងជើង	-10.1037
▁ភីអិលស៊ី	-10.1039
т	-10.1039
ផែនដី	-10.1039
▁17,	-10.1039
ឯករាជ្យ	-10.104
កែច្នៃ	-10.1041
ម៉ាស៊ីនត្រជាក់	-10.1043
▁ប្លុក	-10.1043
▁Mag	-10.1044
▁ផ្កា	-10.105
ប្រា	-10.1051
ការបញ្ជាទិញ	-10.1057
អភិវឌ្ឍ	-10.106
BET	-10.1063
បទពិសោធន៍	-10.1067
▁Piwigo	-10.1069
គ្រោះ	-10.1069
▁check	-10.1069
ព្រំដែន	-10.1074
ress	-10.1078
▁រង់ចាំ	-10.1083
▁ដឹកនាំ	-10.1083
រង់ចាំ	-10.1084
▁រូបរាង	-10.1086
ឃុំ	-10.1088
ការសិក្សា	-10.1092
ct	-10.1092
▁លីត្រ	-10.1094
▁រៀល	-10.1097
▁ទៀងទាត់	-10.1098
សមាគមធាងត្នោត	-10.1098
អនឡាញ	-10.1098
ខាងស្ដាំ	-10.1098
ពេញនិយម	-10.1098
now	-10.1101
▁ជួប	-10.1103
gan	-10.1107
▁២០១៨	-10.1109
▁បំណង	-10.111
អាង	-10.111
▁Global	-10.1111
សំខាន់ៗ	-10.1111
▁08:	-10.1114
▁Note	-10.1114
▁សំលៀកបំពាក់	-10.1115
Color	-10.1117
▁ប្លង់	-10.1122
មានទីតាំងស្ថិតនៅ	-10.1124
▁លេខម៉ូដែល	-10.1132
ផ្តល់ឱ្យ	-10.1133
▁កូ	-10.1134
អ៊ូ	-10.1144
▁អាយុ	-10.1147
arm	-10.1148
tel	-10.1149
ពេញចិត្ត	-10.1152
អត្រា	-10.1153
▁សង់	-10.1156
BA	-10.1158
២០១៣	-10.1161
ជុំ	-10.1163
umb	-10.1163
▁១១	-10.1166
ប្រូ	-10.1168
▁អ្នកនិពន្ធ	-10.1171
េចក្តីថ្លែងការណ៍	-10.1171
▁ប្រកួត	-10.1171
អំពីការ	-10.1172
CE	-10.1173
▁Ti	-10.118
▁សម្លៀកបំពាក់	-10.1183
▁ក្នុងតម្លៃ	-10.1187
មិត្តភក្តិ	-10.1188
1.1	-10.119
នំ	-10.1192
-25	-10.12
ark	-10.1201
ភ្នាក់ងារ	-10.1204
▁សមាមាត្រ	-10.1207
ការកំណត់	-10.121
របាយការណ៍	-10.1211
▁វី	-10.1211
សម័យ	-10.1213
▁30%	-10.1214
ថ្ងៃអាទិត្យ	-10.1218
វ័យក្មេង	-10.1218
▁បង្ហោះនៅលើ	-10.1218
▁រាង	-10.122
▁Toner	-10.122
qu	-10.1224
▁Plan	-10.1226
▁ផ្ទៀងផ្ទាត់	-10.1227
oth	-10.1228
មីក្រូ	-10.1231
CL	-10.1231
▁ស្រ	-10.1235
▁សប្តាហ៍មុន	-10.1237
▁បន្ថយ	-10.1238
late	-10.124
▁សកល	-10.1241
▁MH	-10.1245
សន្និសីទ	-10.1248
▁WhatsApp	-10.1248
▁acrylic	-10.1248
▁Multi	-10.1249
▁សេន	-10.125
▁Motor	-10.125
▁ជាមួយនឹងការ	-10.1259
បទពិសោធ	-10.1262
0.0	-10.1265
កិន	-10.1266
▁ចា	-10.1267
▁Color	-10.1268
ផ្លែ	-10.1273
add	-10.1274
▁ហេតុនេះ	-10.1275
bb	-10.1278
បញ្ចាំង	-10.1278
▁John	-10.1279
SH	-10.1279
▁root	-10.1279
▁បាត	-10.1279
បញ្ចេញ	-10.1291
▁បដិសេធ	-10.1295
001	-10.1296
PM	-10.1296
▁07:	-10.1302
មន្ទីរពិសោធន៍	-10.1309
pdf	-10.1309
ទារក	-10.131
ស្ថាប័ន	-10.131
Trans	-10.1315
press	-10.1315
▁មិនអាចរកបាន	-10.1318
▁ការជូនដំណឹង	-10.1321
zhou	-10.1331
▁លេចឡើង	-10.1336
រូបិយប័ណ្ណ	-10.1337
និទាឃរដូវ	-10.1339
▁ពិព័រណ៍	-10.134
ino	-10.1343
ងាយ	-10.1344
EM	-10.1348
▁PU	-10.1358
ការដំឡើង	-10.1361
កាបូន	-10.1364
\	-10.1369
▁Apk	-10.137
ទ្រ	-10.137
▁(0)	-10.1374
សម្លៀកបំពាក់	-10.1374
▁EUR	-10.1375
ចរ	-10.1378
នាំមុខ	-10.138
មានទំហំ	-10.1383
ound	-10.1385
eas	-10.1389
mark	-10.1389
▁ដោះស្រាយ	-10.1394
ោង	-10.1395
▁សែន	-10.1398
រំខាន	-10.14
អ៊ីសូឡង់	-10.14
▁LEE	-10.1405
ចាប់ផ្ដើម	-10.1406
°	-10.1406
គន្លឹះ	-10.1406
▁85	-10.141
ធំបំផុត	-10.141
▁២១	-10.1415
▁កាសែត	-10.142
ថ្នាក់ទី	-10.1426
gr	-10.1428
email	-10.1428
សង្គ្រោះ	-10.143
`	-10.1431
▁University	-10.1431
▁Sch	-10.1431
king	-10.1431
▁២០១៧	-10.1431
900	-10.1433
ew	-10.1434
ប៉ះពាល់	-10.1439
2%80%	-10.144
lon	-10.144
berg	-10.1441
▁API	-10.1443
ili	-10.1446
▁47	-10.1447
ផែនទី	-10.1452
ors	-10.1457
ផ្ទេរ	-10.1458
ល្ងាច	-10.1458
▁2006	-10.1459
▁Holmbygden	-10.1462
បង	-10.1464
inch	-10.1466
មីន	-10.1467
▁បំណែក	-10.1468
▁MS	-10.1472
ការធ្វើតេស្ត	-10.1475
▁ផ	-10.1475
ធ្លាក់	-10.1475
▁130	-10.1476
តួ	-10.1485
២៨	-10.1487
ែត	-10.1488
ខ្នាត	-10.149
លាក់	-10.1491
ភ្លឺ	-10.1493
ព្	-10.1496
ស្វាគមន៍	-10.1499
ប៉ូល	-10.1502
gal	-10.1508
IF	-10.151
cent	-10.1511
tar	-10.1513
កិច្ចប្រជុំ	-10.1516
%8	-10.1521
ឮ	-10.1523
យ៉ាងហោចណាស់	-10.1523
н	-10.1523
លើកទឹកចិត្ត	-10.1524
▁អូស	-10.1528
dd	-10.1533
រុ	-10.1535
▁etc	-10.1536
នេ	-10.1538
lf	-10.1539
shi	-10.1539
="15	-10.1542
▁Or	-10.1544
▁CC	-10.1546
▁ល។	-10.1555
ពេជ្រ	-10.1562
សហការ	-10.1563
ពូ	-10.1564
▁មី	-10.1567
▁Live	-10.1574
ដាក់ប្រាក់	-10.1579
ild	-10.1581
សុ	-10.1582
▁ព្រោះ	-10.1583
ធ្វើឡើង	-10.1584
អ៊ិ	-10.1587
ស្វា	-10.1587
តំណែង	-10.1588
្រី	-10.1591
▁បារាំង	-10.1594
lar	-10.1597
▁Wa	-10.1601
PT	-10.1602
ស្មា	-10.1602
ដកស្រង់	-10.1607
▁អាលុយមីញ៉ូម	-10.1607
ចូលទៅ	-10.1609
▁អាយ	-10.161
▁ឈ្នះ	-10.1615
វេបសាយ	-10.1617
មួក	-10.1617
បង្រួម	-10.1618
▁មុនពេល	-10.1618
រួច	-10.1624
ama	-10.1628
ព័	-10.1636
ដំណឹងល្អ	-10.1637
ទោះបីជា	-10.1639
▁UV	-10.1647
▁សូមមើល	-10.1648
អាពាហ៍ពិពាហ៍	-10.1648
ដទៃទៀត	-10.1649
បណ្តុះបណ្តាល	-10.1652
ole	-10.1657
lot	-10.1657
សាន	-10.1658
avi	-10.166
▁អំពូល	-10.1661
នៅជុំវិញ	-10.1662
គឺជាការ	-10.1668
ហេតុ	-10.1671
▁អឺរ៉ុប	-10.1674
អតីត	-10.1674
▁Tri	-10.1675
បើកបរ	-10.1676
▁99	-10.1683
ួរ	-10.1685
ឱ្យមាន	-10.1687
▁Bit	-10.1692
gar	-10.1694
▁SH	-10.1694
203	-10.1695
0.7	-10.1697
យកចេញ	-10.1699
▁គម្រប	-10.1701
ane	-10.1701
▁ho	-10.1705
▁ម៉ាស៊ីនបោះពុម្ព	-10.1709
rin	-10.171
ជំនាន់	-10.1711
="0.1	-10.1713
▁ប្រយោជន៍	-10.1717
▁bo	-10.172
ដែលអាចប្រើបាន	-10.1724
បែក	-10.1726
ken	-10.1726
▁ទំនង	-10.1727
ុស	-10.1732
ឯង	-10.1735
KG	-10.1742
ភ្លាមៗ	-10.1744
សត្វចិញ្ចឹម	-10.1746
វិទ្យាសាស្ត្រ	-10.1747
តួនាទី	-10.175
▁ការប្រកួត	-10.1752
គុណភាពខ្ពស់	-10.1753
▁េ្រគងបន	-10.1756
▁អោយ	-10.1761
▁micro	-10.1761
ica	-10.1761
▁លឿន	-10.1764
0.4	-10.1771
ផ្សំ	-10.1772
9.00	-10.1773
▁crypto	-10.1774
▁ភាគរយ	-10.1775
▁សិល្បៈ	-10.1776
ដុំ	-10.178
តាមរយៈការ	-10.1783
មានភាព	-10.1784
ä	-10.1785
២០០	-10.1787
បណ្	-10.1791
TR	-10.1797
los	-10.1797
▁ជោគជ័យ	-10.1803
▁Yu	-10.1803
▁LexUriServ	-10.1806
▁capacitor	-10.1806
▁ព្រះអម្ចាស់	-10.1806
▁time	-10.1807
ជេ	-10.1811
▁ស្តង់ដារ	-10.1812
1.7	-10.1819
▁ខ្យល់	-10.1821
-18	-10.1822
zi	-10.1826
អ្នកគាំទ្រ	-10.1828
ចាក់សោ	-10.1829
ata	-10.1829
ü	-10.1832
ដោត	-10.1833
philippines	-10.1838
▁$1.99	-10.1839
0.000	-10.1839
្តា	-10.1843
▁ដែលត្រូវ	-10.1844
ស្ថិតិ	-10.1854
▁CS	-10.1857
▁ID	-10.1858
អាលុយមីញ៉ូ	-10.1861
ore	-10.1861
េះ	-10.1863
ល្បឿនលឿន	-10.1865
ចិញ្ចឹម	-10.1867
▁Français	-10.187
▁taffeta	-10.187
▁Daun	-10.1874
▁សមាគម	-10.1875
ស្រប	-10.1877
ខុស	-10.1878
ស៊ីឡាំង	-10.1879
ផ្ញើសារ	-10.188
▁ទិន្នផល	-10.1887
ស្ត	-10.1889
ជឿ	-10.1894
▁ធម្មនុញ្ញ	-10.1895
ការតភ្ជាប់	-10.1898
▁ទិញរូបភាព។	-10.1902
▁អត្ថប្រយោជន៍	-10.1904
ck	-10.1909
តុល្យភាព	-10.191
ប៉ូ	-10.1912
រ៉	-10.1912
▁អស្ចារ្យ	-10.1914
ture	-10.1915
អនុ	-10.1915
តំណភ្ជាប់	-10.1918
▁ឡ	-10.1919
ការពិត	-10.1919
IM	-10.1927
សុខ	-10.1929
cap	-10.1929
▁វាជា	-10.193
▁ចូរ	-10.193
្ត	-10.193
ុត	-10.1933
ប្រាសាទ	-10.1935
អាដាប់ធ័រ	-10.1935
▁Trenbolone	-10.1935
▁KMail	-10.1935
5.00	-10.1935
▁OEM	-10.1938
▁តុ	-10.1938
▁អាស័យដ្ឋាន	-10.1939
nes	-10.1939
blockchain	-10.1946
ville	-10.195
▁តម្រៀប	-10.195
▁ការធ្វើតេស្ត	-10.1954
▁កាស	-10.1961
ព្រះអាទិត្យ	-10.1962
▁95	-10.1967
យ៉ាងទូលំទូលាយ	-10.1969
▁On	-10.1969
ច្រៀង	-10.197
orn	-10.1971
IG	-10.1977
១៦	-10.1977
0.8	-10.1977
ស្នាក់នៅ	-10.1978
▁ផ្លាស់ប្តូរ	-10.198
ized	-10.198
មាតិកា	-10.1981
▁ព្រមាន	-10.1981
៊	-10.1996
ថ្ងៃពុធ	-10.1999
កំរិត	-10.1999
▁Honda	-10.1999
ស្តី	-10.2008
ារ	-10.2012
▁he	-10.2014
ទ្រង់ទ្រាយ	-10.2015
ទឹកអាស៊ីត	-10.2015
ize	-10.2025
BR	-10.2025
ដែលមិន	-10.2027
▁di	-10.203
រ៉ូម	-10.2031
ប្រតិបត្ដិការ	-10.2032
eld	-10.2032
▁គីឡូម៉ែត្រ	-10.2034
usa	-10.2037
ទូច	-10.2038
3.5	-10.2038
សន្ទះ	-10.2039
▁Comp	-10.2039
▁ខ្លី	-10.2045
ខូច	-10.2049
▁គី	-10.2051
▁count	-10.2051
កម្រាស់	-10.2051
អាណា	-10.2052
រាល់	-10.2053
▁ដ្រាយ	-10.2055
EX	-10.2059
IL	-10.2064
down	-10.2066
▁រួមទាំង	-10.2068
▁Fu	-10.2069
emp	-10.2069
ero	-10.2071
▁East	-10.2074
▁អាគុយ	-10.2077
cho	-10.2084
ធិ	-10.2086
អ្នកត្រូវ	-10.2088
vers	-10.2097
▁Español	-10.2097
រោងម៉ាស៊ីនកិន	-10.2098
AB	-10.2098
▁about	-10.2098
PO	-10.21
▁29,	-10.2108
6.5	-10.211
onm	-10.211
▁ម៉ាស៊ីនថត	-10.2112
ៀម	-10.2113
អ្វីដែលអ្នក	-10.2119
ret	-10.2119
ការរចនា	-10.2119
ឈុត	-10.2122
ប្រកបដោយ	-10.2126
▁Fo	-10.2128
រលក	-10.2129
ស្រលាញ់	-10.213
អនាគត	-10.2131
file	-10.2131
រសជាតិ	-10.2132
ច្រ	-10.2134
នរណាម្នាក់	-10.2142
MO	-10.2143
▁ម្យ៉ាងវិញទៀត	-10.215
last	-10.215
220	-10.2151
សម្រាប់ទូរស័ព្ទ	-10.2154
ប្លក	-10.2155
р	-10.2163
បងប្អូន	-10.2164
▁FOB	-10.2169
="17	-10.2172
នាវា	-10.2174
▁Page	-10.2176
▁និ	-10.2182
វីស	-10.2183
▁តារា	-10.2191
ទម្ងន់	-10.2192
▁HGH	-10.2197
▁សាក	-10.2198
ylord	-10.2199
▁Gr	-10.2201
បើកចំហ	-10.2203
="18	-10.2205
▁ប៊ី	-10.221
្ធ	-10.221
Read	-10.2211
តង់	-10.2213
▁ថាតើ	-10.2215
ភព	-10.2221
▁បង្វិល	-10.2222
ការការពារ	-10.2222
ឆាប់	-10.2233
ome	-10.2243
http	-10.2245
▁រាយការណ៍	-10.2247
ស្នាម	-10.2248
meter	-10.2248
ទេសភាព	-10.225
បំភ្លឺ	-10.2254
ុម	-10.226
អាចប្រើបាន	-10.226
ធ្ងន់	-10.2263
ចំណុចប្រទាក់	-10.2263
ពន្យល់	-10.2263
សម្លាប់	-10.2263
Time	-10.2267
បរិ	-10.2267
មើលទៅ	-10.2272
▁កិច្ច	-10.2273
សម្ដែង	-10.2277
▁ពេញលេញ	-10.228
▁ប៊ុ	-10.2282
▁សប្ដាហ៍	-10.2287
▁ផលិតកម្ម	-10.2296
700	-10.2296
សហ	-10.2297
▁plus	-10.2301
rat	-10.2302
ថវិកា	-10.2302
បាននិយាយថា	-10.2302
ការសម្តែង	-10.2302
▁ដំណើរទស្សនកិច្ច	-10.2306
២២	-10.2308
▁int	-10.2312
ទទួលស្គាល់	-10.2313
▁ចម្លើយ	-10.2313
matic	-10.2319
ដ៏ល្អបំផុត	-10.2321
▁ព្រមទាំង	-10.2327
សម្តេច	-10.233
▁មហាសន្និបាត	-10.233
5,000	-10.2333
case	-10.2335
ការអប់រំ	-10.2337
ប្រាក់ចំណេញ	-10.2339
▁My	-10.2339
ជំ	-10.2349
សាយ	-10.2353
យាន	-10.2357
▁ឆ្នាំ២០១៧	-10.2358
ជានិច្ច	-10.2364
▁Trading	-10.2364
ទទេ	-10.2364
▁roller	-10.2365
ព្រះវិហារ	-10.2371
ើរ	-10.2371
ព្រិល	-10.2375
LD	-10.2381
AY	-10.2381
▁Sen	-10.2386
▁យប់	-10.2387
▁ដោយមាន	-10.2389
ផ្កា	-10.239
ជំនួសថ្ម	-10.2391
▁●	-10.2394
ui	-10.2395
ku	-10.2398
zer	-10.2402
lm	-10.2404
▁ភ្នាក់ងារ	-10.2404
ura	-10.2406
អង្កត់ផ្ចិត	-10.2407
វិទ្យុ	-10.2408
សំណាញ់	-10.2409
▁តិច	-10.2411
ez	-10.2412
▁2004	-10.2415
don	-10.2416
RP	-10.2418
ែរ	-10.2424
កាយ	-10.2427
▁ដែកថែប	-10.2429
▁pneumatic	-10.2431
សព្ទ	-10.2431
▁26,	-10.2431
ស្ពាន	-10.2436
លែង	-10.2438
ឈី	-10.244
101	-10.245
itch	-10.2453
Mo	-10.2453
ward	-10.2453
នៅក្នុងប្រទេស	-10.2456
▁ត្រជាក់	-10.2457
▁380	-10.2459
ជើងហោះហើរ	-10.2459
៌	-10.246
▁Gen	-10.2463
សំបក	-10.2464
▁រំលែក	-10.2465
▁ខ្ញុំមាន	-10.2472
▁រថភ្លើង	-10.2477
ក្នុងអំឡុងពេល	-10.2481
▁ការធ្វើ	-10.2492
▁ពិធី	-10.2495
▁អាកាស	-10.2496
ទស្សនាវដ្តី	-10.25
បេះដូង	-10.25
Region	-10.25
បង្កើតឡើង	-10.2501
ឧប	-10.2502
តាំង	-10.2502
▁សំណើ	-10.2503
▁ផ្ដើម	-10.2504
ាល	-10.2504
raft	-10.251
ស្ថាន	-10.2518
ប៉ះ	-10.2521
បាត់បង់	-10.2523
▁ផ្លូវលេខ	-10.2525
par	-10.2527
សាសន៍	-10.2533
យីហោ	-10.2534
ដេញថ្លៃ	-10.2535
១២	-10.2535
ជាច្រើនទៀត	-10.2537
ធឺ	-10.2541
▁ក្រឡា	-10.2543
▁ខោ	-10.2545
▁ជើងហោះហើរ	-10.2548
CB	-10.2551
វត្តមាន	-10.2552
លេ	-10.2552
des	-10.2554
▁រីករាយ	-10.2554
open	-10.2556
edu	-10.2558
MI	-10.2564
បាច់	-10.2566
របៀបដែល	-10.2573
View	-10.2574
រាត្រី	-10.2577
▁Pr	-10.2582
សម្ព័ន្ធ	-10.2586
▁ហ្គា	-10.2586
▁ទម្លាក់	-10.2588
ប្រឡង	-10.2588
mpt	-10.259
▁Har	-10.2592
ទិ	-10.2593
phone	-10.2597
ដុត	-10.2599
wp	-10.2602
ជំនឿ	-10.2602
វិនិច្ឆ័យ	-10.2603
ជ្រៅ	-10.2604
VI	-10.2604
▁ទំ	-10.2605
វាជាការ	-10.2613
▁អ៊ិនគ្រីប	-10.2615
នឹងមិន	-10.2616
6.0	-10.2617
ក៏ដោយ	-10.2621
ឧបករណ៍ភ្ជាប់	-10.2624
▁បញ្ឈរ	-10.2625
▁២៤	-10.2625
្យ	-10.2626
ចំណែក	-10.263
ការធ្វើដំណើរ	-10.263
="16	-10.263
ថង់	-10.2634
ទិក	-10.2637
ប្រូតេអ៊ីន	-10.2637
▁MetaTrader	-10.2637
▁Alloy	-10.2637
▁អភិវឌ្ឍ	-10.2639
▁tr	-10.2644
ស្រា	-10.2646
រប	-10.2649
រូបរាង	-10.2658
▁360	-10.2662
▁និស្សិត	-10.2663
ester	-10.2664
លេខកូដ	-10.267
mac	-10.267
រៀបរាប់	-10.2672
▁May	-10.2672
▁South	-10.2673
ធា	-10.2674
ចូលដំណើរការ	-10.2675
ថ្មទូរស័ព្ទ	-10.2676
▁លំអិត	-10.268
សេរី	-10.2681
san	-10.2682
▁ជាប់	-10.2683
UR	-10.2686
▁ឧស្ម័ន	-10.2688
▁ថ្ងៃបន្ទាប់	-10.2695
option	-10.2696
បង្ហោះ	-10.2696
▁qu	-10.2697
▁រ៉ូប	-10.2698
២៧	-10.2702
ចលនា	-10.2703
គណនា	-10.2704
បានបញ្ចប់	-10.2704
▁Je	-10.2706
នៅក្រោម	-10.2706
មធ្យោបាយ	-10.2707
អាជីព	-10.2707
▁Germany	-10.2707
appeared	-10.2707
ាន់	-10.2714
នេះបើយោងតាម	-10.2715
▁49	-10.2716
សួន	-10.2716
▁ជញ្ជាំង	-10.2717
បោះ	-10.2717
នៅទីនោះ	-10.2718
ប្រទេសឥណ្ឌា	-10.2724
2017	-10.2734
លេងល្បែង	-10.2737
▁បេ	-10.274
ពត៌មាន	-10.274
រាយ	-10.274
AH	-10.2742
កោណ	-10.2742
ក្លែងក្លាយ	-10.2742
▁Company	-10.2742
should	-10.2742
ហាត់ប្រាណ	-10.2742
white	-10.2742
▁មុំ	-10.2742
លេច	-10.2742
ទាមទារ	-10.2744
ond	-10.2747
▁គ្រឿងបន្លាស់	-10.2749
▁គោលបំណង	-10.2754
▁ប្រាប់	-10.2755
▁សាល	-10.2758
ស៊ុម	-10.2759
▁ចាន	-10.2765
oh	-10.2766
អាសយដ្ឋាន	-10.2776
ជាមុន	-10.2779
▁ដៃគូ	-10.278
▁រហ័ស	-10.2784
អី	-10.2784
ក្រាម	-10.2786
▁Gra	-10.2786
RL	-10.2786
!!!	-10.2788
ម៉ាស៊ីនភ្លើង	-10.279
▁Gold	-10.2794
shan	-10.2797
ៀក	-10.2797
Ch	-10.2799
តម្រូវ	-10.2799
High	-10.2803
▁អាល់	-10.2804
-08-	-10.2805
▁យល់	-10.2805
បៀ	-10.2809
ថេ	-10.2809
▁up	-10.2811
▁ប៊ិច	-10.2812
ទទឹង	-10.2814
▁Com	-10.2816
3.1	-10.2819
▁OS	-10.2819
-16	-10.2819
ដែកអ៊ីណុក	-10.2823
ស្ពាន់	-10.2823
▁them	-10.2823
ode	-10.2825
▁ឆ្លើយ	-10.2827
បានរកឃើញ	-10.2828
ating	-10.2832
ម្តងទៀត	-10.2834
ម៉ាស៊ីនបោះពុម្ព	-10.2836
អ៊ីមែល	-10.2837
ែម	-10.2838
ច្នៃប្រឌិត	-10.2838
ឆា	-10.2839
កោង	-10.2839
▁3.5	-10.284
▁Kate	-10.2843
ៀន	-10.2843
ឆ្លាត	-10.2847
▁Zhejiang	-10.2847
▁បន្លិច	-10.2847
▁romper	-10.2848
ö	-10.2848
ខូ	-10.285
ាត់	-10.2852
លំនាំដើម	-10.2853
អចលនទ្រព្យ	-10.2853
ម៉ូទ័រ	-10.2855
gl	-10.2856
ស្តុក	-10.2856
ben	-10.2859
សារព័ត៌មាន	-10.286
mini	-10.2865
="14	-10.287
▁des	-10.2878
-40	-10.2881
time	-10.2882
ថែរក្សា	-10.2883
▁មាត្រា	-10.2883
bra	-10.2883
▁២០១៤	-10.2886
អ៊ីន	-10.2886
▁AM	-10.2886
ឌូ	-10.2898
gra	-10.2898
▁១៤	-10.2908
▁ប្រផេះ	-10.2908
6000	-10.2909
▁ដែលអាច	-10.2911
ប្រទេសថៃ	-10.2916
និយម	-10.2916
▁២៥	-10.2917
ឱ	-10.2918
▁ប្រមូល	-10.2918
ត្រឹមតែ	-10.2918
ទាក់ទាញ	-10.2919
lit	-10.292
▁ឥតគិតថ្លៃ	-10.2925
tool	-10.2927
វិញ្ញាបនបត្រ	-10.2928
▁ធ្វើឱ្យ	-10.2928
ដាំ	-10.293
ភាពត្រឹមត្រូវ	-10.293
បុរសម្នាក់	-10.293
▁ស្រស់	-10.2934
kin	-10.2939
888	-10.2952
៣០	-10.2952
គ្រឿងសង្ហារឹម	-10.2954
កត្តា	-10.2954
▁តោន	-10.2955
ទ្រង់	-10.2956
សេចក្តីអធិប្បាយ	-10.2957
បណ្ឌិត	-10.2961
នៅថ្ងៃនេះ	-10.2964
▁ឌីជីថល	-10.2964
អំពូល	-10.2967
▁តម្រូវការ	-10.2968
ស្តា	-10.2969
ម៉ាស៊ីនបម្រើ	-10.2978
ខាងត្បូង	-10.298
uth	-10.298
▁PMP	-10.2982
េត	-10.2982
yr	-10.2983
សម្តែង	-10.2984
▁រ៉ូឡែត	-10.2987
▁Shandong	-10.299
ឈានមុខគេ	-10.299
ក្មេងស្រី	-10.2991
មូលហេតុ	-10.2993
▁ប៉ុ	-10.2999
▁ដង់ស៊ីតេ	-10.3005
▁22,	-10.3007
បរិសុទ្ធ	-10.3008
▁ដោយសារតែ	-10.3008
គំ	-10.3009
bur	-10.3017
១១	-10.3019
▁ចំណាយ	-10.302
▁2005	-10.3022
▁ចំណងជើង	-10.3023
អគ្គីសនី	-10.3027
▁Port	-10.3027
▁240	-10.3032
ម្តង	-10.3038
▁អត្ថបទបន្ទាប់	-10.3039
▁ដើរ	-10.3039
▁ចេញពី	-10.304
AI	-10.3042
pot	-10.3045
410	-10.3048
GA	-10.306
ត៍	-10.3061
ចៃដន្យ	-10.3062
▁Service	-10.3062
▁microfiber	-10.3062
ថ្ងៃអង្គារ	-10.3062
គ្រោះថ្នាក់	-10.3063
▁សាន	-10.3064
▁use	-10.3065
▁អនុ	-10.3066
star	-10.3074
oid	-10.3076
ក្រានីត	-10.3078
ក្នុងតំបន់	-10.3078
▁អ្នកជំនាញ	-10.3082
ហ្វេសប៊ុក	-10.3083
២៦	-10.3084
▁អេស្ប៉ាញ	-10.3085
▁ឆ	-10.3086
▁NC	-10.3086
▁ឈប់	-10.309
▁រង្វាន់	-10.3094
:28	-10.3097
ជនភៀសខ្លួន	-10.3098
រមៀល	-10.3098
អឿម	-10.3098
▁ស្បែកជើង	-10.3098
ហុងកុង	-10.3099
ចរន្ត	-10.31
▁ឆ្នាំ២០១៨	-10.3103
▁SP	-10.3109
▁បាញ់	-10.3111
អេឡិចត្រូនិក	-10.3111
យើងនឹង	-10.3111
▁Last	-10.3112
▁ប្រជាជន	-10.3116
tive	-10.3117
▁has	-10.3119
home	-10.3121
ភាពខុសគ្នា	-10.3122
រយ	-10.3123
▁Jan	-10.3124
▁ជជែក	-10.3127
NC	-10.3128
▁ខា	-10.313
="13	-10.3134
ភស្តុតាង	-10.3135
សាធារណរដ្ឋ	-10.314
▁សាសនាចក្រ	-10.3143
ness	-10.3149
នាំចូល	-10.3149
▁អំណោយ	-10.3149
ពិសោធន៍	-10.3154
.000	-10.3155
▁ជំនាញ	-10.3156
-50	-10.316
/10/	-10.3162
WS	-10.3165
▁តើអ្វីទៅជា	-10.3171
ស្ដេច	-10.3171
len	-10.3174
▁ធានា	-10.3176
▁ព្រះរាជាណាចក្រ	-10.3178
ុះ	-10.318
យើងកំពុង	-10.3183
▁(3)	-10.3187
lick	-10.3189
ប្ដូរ	-10.3198
កំណត់ត្រា	-10.3199
ទូលំទូលាយ	-10.3205
ខួរក្បាល	-10.3208
▁០២៣	-10.321
hua	-10.3216
OD	-10.3216
ool	-10.3217
crea	-10.3217
▁ដេ	-10.3218
បន្លែ	-10.3222
វីនដូ	-10.3222
▁បាត់បង់	-10.3226
▁sub	-10.3228
កាន់តែច្រើន	-10.323
វគ្គ	-10.324
ថ្ងៃសុក្រ	-10.3241
▁ទំនេរ	-10.3242
Com	-10.3242
▁ហិរញ្ញវត្ថុ	-10.3243
លុប	-10.3244
សម្របសម្រួល	-10.3245
នូ	-10.3245
ពលរដ្ឋ	-10.3245
ធូលី	-10.3247
DN	-10.3251
▁how	-10.3252
លីន	-10.3256
▁Up	-10.3259
ម្ល	-10.326
▁ធ្លាក់	-10.3267
ការរៀបចំ	-10.3267
HL	-10.3269
gent	-10.3273
▁50%	-10.3274
▁លឿង	-10.3278
▁Pen	-10.3279
សិក្ខាសាលា	-10.3279
eak	-10.3281
Language	-10.3281
នាយករដ្ឋមន្ត្រី	-10.3281
ប្រធានាធិបតី	-10.3281
ជម្ងឺ	-10.3281
យុទ្ធនាការ	-10.3281
▁At	-10.3282
▁admin	-10.3283
ពាង	-10.3287
ull	-10.3288
មានសុវត្ថិភាព	-10.3288
▁Ver	-10.3288
បង្ហាញពី	-10.3296
DI	-10.3297
▁pref	-10.3299
ani	-10.3302
ពាន់	-10.331
ល្អបំផុតសម្រាប់	-10.331
អាស៊ីត	-10.3311
key	-10.3314
▁អាចរកបាន	-10.3315
សំអាត	-10.3318
វីរុស	-10.3319
កិត្តិយស	-10.3319
rpm	-10.3319
វគ្គសិក្សា	-10.332
NE	-10.332
Ray	-10.332
▁CR	-10.3322
០៩	-10.3322
back	-10.3329
ខ្ទ	-10.3329
▁Han	-10.3333
▁នាវា	-10.3334
បុ	-10.3337
ប្រមូល	-10.3337
ខ្ពស់ជាង	-10.3344
BS	-10.3345
▁អចលនទ្រព្យ	-10.335
▁កាត់បន្ថយ	-10.3357
▁ផ្សារ	-10.3358
4.7	-10.3359
▁Intel	-10.3359
123	-10.3359
▁VPN	-10.336
រលោង	-10.336
▁Java	-10.3361
▁ផ្កាយ	-10.3361
អុបទិក	-10.3363
ាយ	-10.3366
ju	-10.3367
:59	-10.337
▁នាឡិកា	-10.3371
លានដុល្លារ	-10.3372
បានកើនឡើង	-10.3372
▁នាយកដ្ឋាន	-10.338
ខែមីនា	-10.3387
▁023	-10.3388
9.99	-10.3389
មុំ	-10.339
url	-10.3391
▁1200	-10.3391
មណ្ឌល	-10.3393
▁Battery	-10.3393
▁object	-10.3393
▁បង្ហាប់	-10.3396
អាវយឺត	-10.3398
▁ផ្តើម	-10.34
▁here	-10.3404
js	-10.3407
▁កម្ម	-10.3411
▁វិទ្យុ	-10.3416
កម្សាន្ត	-10.3416
▁បានប្រកាស	-10.342
▁ប្រឆាំង	-10.3424
៣១	-10.3426
▁750	-10.3427
▁NA	-10.3428
aff	-10.3429
▁regions	-10.343
▁slab	-10.3431
បាត	-10.3435
ផ្អែកលើ	-10.3438
nor	-10.3439
▁រៀន	-10.3443
▁ឧទ្យាន	-10.3446
ពេក	-10.345
▁ម៉ែត្រការ៉េ	-10.3451
-60	-10.3453
ខ្ញុំនឹង	-10.3459
▁Sol	-10.3462
▁Wal	-10.3463
និន្នាការ	-10.3468
កំណើន	-10.3468
▁ការជំនួសជំនួស	-10.3468
ស្រូវ	-10.3468
▁[1]	-10.3468
mobile	-10.3468
pen	-10.347
ធាន	-10.3472
ព្រះយេស៊ូ	-10.3472
▁UIP	-10.3475
ជាន់ខ្ពស់	-10.3478
▁II	-10.3482
▁41	-10.3489
▁Ben	-10.3492
▁ការពិនិត្យ	-10.3493
បើកដំណើរការ	-10.3493
aster	-10.3494
rid	-10.3495
នាយកប្រតិបត្តិ	-10.3496
នេះគឺជាការ	-10.3496
ស្កេន	-10.3497
1.6	-10.3499
▁ការវិនិយោគ	-10.3499
មិត្ត	-10.35
▁my	-10.3501
PF	-10.3502
បង្រៀន	-10.3506
Query	-10.3506
ស្នោ	-10.3506
▁James	-10.3506
▁coated	-10.3506
ស្រដៀងគ្នា	-10.3508
អ្នកដែល	-10.3508
បម្លែង	-10.3509
ដែលល្អបំផុត	-10.351
▁+855	-10.3512
▁ការធ្វើដំណើរ	-10.3516
丨	-10.3519
ella	-10.3526
bet	-10.3528
▁កប្បាស	-10.353
media	-10.3536
▁Crypto	-10.3542
សហព័ន្ធ	-10.3543
cast	-10.3544
▁Tu	-10.3548
▁បូ	-10.3552
▁សាមញ្ញ	-10.3555
▁អប្បបរមា	-10.3565
ali	-10.3568
134	-10.3572
ld	-10.3575
▁អនុគមន៍	-10.3576
tory	-10.3578
▁Max	-10.358
▁Indicator	-10.3582
ប្រពៃណី	-10.3582
សម្ពោធ	-10.3582
ធំទូលាយ	-10.3584
គា	-10.3586
city	-10.3586
▁user	-10.3588
Shift	-10.3589
cat	-10.3589
▁បន្ទប់គេង	-10.359
fu	-10.3591
អូស្ត្រាលី	-10.3592
▁$24.99	-10.3592
អារម្មណ៍	-10.3599
▁Video	-10.3606
ចាប់យក	-10.3607
ចោល	-10.3608
បន្ទប់ទឹក	-10.3608
ets	-10.3611
▁វិស័យ	-10.3612
table	-10.3613
▁Silicon	-10.362
▁Tailoress	-10.362
ស្រេចចិត្ត	-10.362
▁block	-10.3621
ឥទ្ធិពល	-10.3624
Payment	-10.3624
1.2	-10.3631
▁ចាំបាច់	-10.3643
ដោយសារតែ	-10.3644
160	-10.3646
ភាគី	-10.3652
▁1.0	-10.3653
PI	-10.3655
មានទីក្រុង	-10.3657
សំណាង	-10.3658
KChar	-10.3658
ដំណាំ	-10.3659
ភ្ញៀវ	-10.3659
630	-10.366
▁XL	-10.3664
are	-10.3666
ភ្	-10.367
នៃសាកលវិទ្យាល័យ	-10.3672
ផ្សាយផ្ទាល់	-10.3682
▁TV	-10.3685
▁ផ្ទះល្វែង	-10.3685
▁ស៊ីឡាំង	-10.3687
rel	-10.3688
តម	-10.3688
ហោះហើរ	-10.3691
សំណើ	-10.3692
▁ព្រួញ	-10.3694
pg	-10.3694
ការពិនិត្យ	-10.3695
អាកាសចរណ៍	-10.3695
service	-10.3697
▁torrent	-10.3697
1.0	-10.3698
សម្រេចចិត្ត	-10.3698
ប្រធានបទ	-10.3699
លីវ	-10.3701
ត្បាញ	-10.3702
▁ដេមិន	-10.3702
▁Review	-10.3702
២០១២	-10.3704
▁ណែនាំ	-10.3704
▁វីឡា	-10.3705
▁get	-10.3708
ក្បួន	-10.3711
ដែលជាកន្លែងដែល	-10.3715
ចូលរួមក្នុង	-10.3717
សប់	-10.3719
lk	-10.372
▁រទេះ	-10.3721
quot	-10.3722
បានដាក់	-10.3724
គំនូរ	-10.3725
="2.9	-10.3726
អ៊ីណុក	-10.3726
បាល់ទាត់	-10.3733
▁ភី	-10.3734
▁ផែនការ	-10.3735
១៩	-10.3735
varychin	-10.3735
ı	-10.3735
ងងឹត	-10.3735
វប្បធម៌	-10.3735
▁Image	-10.3737
កិច្ចសន្យា	-10.3738
▁សម្រាក	-10.3738
ជាងមុន	-10.3739
italy	-10.3741
▁NAME	-10.3742
EP	-10.3743
▁take	-10.3748
▁ផ្ទះលេខ	-10.3752
ឈានដល់	-10.3756
ការកើនឡើង	-10.377
ជូនដំណឹង	-10.377
▁ត្រូវបានគេ	-10.3771
ជម្រៅ	-10.3774
▁Transposh	-10.3774
សន្ទស្សន៍	-10.3774
▁ការប្រើ	-10.3778
ដែរឬទេ	-10.3778
បង្កើនបន្ថយ	-10.378
▁Sam	-10.3781
ការបញ្ចុះតម្លៃ	-10.3785
គ្រាប់បាល់	-10.3785
▁ផល	-10.3789
▁1.2	-10.3791
oil	-10.3792
vent	-10.3793
IE	-10.3795
▁កូនសោ	-10.3801
inder	-10.3804
305	-10.3805
ងាយស្រួលក្នុងការ	-10.3808
▁ប៉ារ៉ាម៉ែត្រ	-10.381
▁Kork	-10.3813
▁ហេតុអ្វី	-10.3815
▁ស្រ្ត	-10.3817
gram	-10.3817
▁ច្រ	-10.3818
▁ODM	-10.3819
▁យោបល់បិទ	-10.382
▁message	-10.3821
▁កិច្ចប្រជុំ	-10.3823
▁Poly	-10.3825
ular	-10.3829
▁វ៉	-10.383
▁fla	-10.3832
▁ST	-10.3836
ាស	-10.3838
▁ហ្វ	-10.3841
រួចហើយ	-10.3844
ប្រឹក្សា	-10.3846
ក្រុមហ៊ុនផលិតនិង	-10.3847
Box	-10.385
▁Cambodian	-10.3855
▁need	-10.3855
180	-10.3856
▁ឈរ	-10.3859
ដើមឈើ	-10.386
▁សង្កត់	-10.3866
កុំ	-10.3867
="19	-10.3869
▁អ៊ីនធឺណិត	-10.3875
ith	-10.3875
pha	-10.3877
ប្រណាំង	-10.3877
លេងហ្គេម	-10.3885
បាល់	-10.3885
វិទ្យាល័យ	-10.3888
អភិបាល	-10.389
98%	-10.389
ពិន្ទុ	-10.3891
′′	-10.3891
▁Bajaj	-10.3891
ទប់ស្កាត់	-10.3891
ព្រលានយន្តហោះ	-10.3891
ean	-10.3893
▁ពានរង្វាន់	-10.3894
▁ឆ្នាំ២០១៦	-10.3895
ដេរ	-10.3899
oul	-10.3904
▁ទស្សន៍	-10.3908
ពីចម្ងាយ	-10.3909
▁game	-10.391
TT	-10.3918
oz	-10.3919
its	-10.3921
▁ទឹកក្រូច	-10.3925
BAR	-10.3927
ជាផ្នែកមួយនៃ	-10.3927
អន្តរ	-10.3929
ជីកាបៃ	-10.3931
អាជ្ញាកណ្តាល	-10.3931
▁was	-10.3931
NS	-10.3931
▁She	-10.3931
រោគសញ្ញា	-10.3932
របស់យើង។	-10.3932
ក្ល	-10.3933
លឿង	-10.3934
ពា	-10.394
Book	-10.3941
ចែក	-10.3942
វាជា	-10.3943
▁ស្ថាបនា	-10.3944
▁ទទួលយក	-10.3946
▁ស្ថិត	-10.3947
រៀល	-10.3947
▁ស្វាគមន៍	-10.3952
▁ខាងលើ	-10.3958
ាវ	-10.3968
អ៊ីស្រាអែល	-10.397
▁បែបផែន	-10.3971
ស្តុ	-10.3972
ចំនួនទឹកប្រាក់	-10.3972
ការទិញ	-10.3973
8.5	-10.3974
▁តាមដាន	-10.3997
ធ្	-10.3997
▁ចែកចាយ	-10.4001
type	-10.4001
ថ្មីបំផុត	-10.4002
ធ្វើការជាមួយ	-10.4003
▁58	-10.4006
ស្រដៀង	-10.4008
គឺជាអ្វី	-10.4008
2012	-10.4009
ឪពុក	-10.401
សន្តិភាព	-10.401
ឆ្លាតវៃ	-10.401
▁crusher	-10.401
▁ការវិភាគ	-10.401
▁កំណត់ហេតុ	-10.4013
ការទាញយក	-10.4016
ចូលរួមជាមួយ	-10.4019
អាចធ្វើបាន	-10.402
ឈប់	-10.4021
ភ្ល	-10.4023
▁ឱកាស	-10.4025
▁Tra	-10.4025
tur	-10.4027
▁Cap	-10.4027
▁៩៩	-10.403
▁សង្គម	-10.4032
ហ្វេ	-10.4035
▁របាំង	-10.4035
▁160	-10.4037
គណៈកម្មាធិការ	-10.4039
rich	-10.404
ក្រុមគ្រួសារ	-10.4042
រោគ	-10.4043
សែន	-10.4043
ចិត្ដ	-10.4047
បោះឆ្នោត	-10.4048
♪	-10.405
GL	-10.405
គម	-10.4056
▁មូល	-10.4057
▁IM	-10.4057
▁ក្តៅ	-10.4058
-100	-10.4059
បញ្ឈប់	-10.4061
ផ្ទះល្វែង	-10.4062
ពែង	-10.4062
ឿ	-10.4083
▁ផ្អាក	-10.4084
:27	-10.4084
ចិញ្ចៀន	-10.409
អូស្រ្តាលី	-10.409
▁class	-10.409
▁Hol	-10.409
រដូវក្តៅ	-10.409
LO	-10.4092
▁350	-10.4093
ការបង្រៀន	-10.4093
ខ្សែសង្វាក់	-10.4094
ើប	-10.4097
ដែលខ្ញុំ	-10.4098
▁700	-10.4099
ស្ថានីយ	-10.4103
Video	-10.4105
Co	-10.4108
ទំងន់	-10.4109
▁កាក់	-10.411
▁ផលប៉ះពាល់	-10.4114
ណាត់	-10.4119
ថាជា	-10.4123
យោបល់	-10.4125
erry	-10.4128
▁ទិនានុប្បវត្តិ	-10.4129
ត្រៀម	-10.4129
លិខិតឆ្លងដែន	-10.413
▁ការបញ្ចេញសំឡេង	-10.413
▁Money	-10.4131
230	-10.4132
ផ្ទៃខាងក្រោយ	-10.4138
▁សួន	-10.4138
▁ព្យុះ	-10.4141
nn	-10.4141
▁Long	-10.4144
▁ជនជាតិ	-10.4144
▁Email	-10.4146
សំលៀកបំពាក់	-10.4147
ឆ្នេរ	-10.4148
ការលំបាក	-10.4149
▁Bay	-10.4151
▁Hot	-10.4153
rey	-10.4156
▁ត្រឹម	-10.4156
ច្រើនបំផុត	-10.4156
ology	-10.4159
HZ	-10.4163
PG	-10.4164
ការបណ្តុះបណ្តាល	-10.4166
ីន	-10.4166
▁ន័យ	-10.4167
ភាពឯកជន	-10.4169
៤០	-10.417
ធ្ងន់ធ្ងរ	-10.417
បំផ្លាញ	-10.417
រំកិល	-10.417
វាយប្រហារ	-10.417
ស័ង្កសី	-10.417
អារ៉ាប់	-10.417
great	-10.417
russia	-10.417
គ្រីប	-10.4172
តំបន់បណ្តាញ	-10.4172
ទល់នឹង	-10.4173
▁War	-10.4173
ផ្សាយបន្តផ្ទាល់	-10.4175
▁ជប៉ុន	-10.4179
▁ការរៀបចំ	-10.4181
▁Royale	-10.4184
៦០	-10.4185
▁This	-10.4189
ដែលត្រូវ	-10.419
▁free	-10.4191
jet	-10.4191
▁4.0	-10.4195
2.8	-10.4197
urt	-10.4206
បម្រុង	-10.421
▁PowerShell	-10.4211
ព្យួរ	-10.4211
▁Hel	-10.4212
ប្រព្រឹត្ត	-10.4213
▁access	-10.4214
ស៊ុ	-10.4215
ដដែល	-10.4216
▁some	-10.422
ស្រោម	-10.4221
សៀ	-10.4221
តូចៗ	-10.4222
▁១៣	-10.4227
▁Sok	-10.4227
ទូក	-10.4229
="3.9	-10.4229
អាស្រ័យលើ	-10.4232
▁190	-10.4236
ហ្គូ	-10.424
▁Ju	-10.4242
BM	-10.4248
▁Jin	-10.4249
▁ភោជនីយដ្ឋាន	-10.4251
▁អាំងឌុចទ័	-10.4251
ឧបករណ៍ចាប់សញ្ញា	-10.4251
▁});	-10.4251
▁Polyester	-10.4252
▁Machine	-10.4252
5.1	-10.4252
ស្រទាប់ឈីប	-10.4253
▁sonication	-10.4253
លើកកម្ពស់	-10.4254
នៅក្នុងទីក្រុង	-10.4255
BI	-10.4257
ច្រើនទៀត	-10.426
ann	-10.4264
ស្ថិតនៅ	-10.4266
▁ពាក់	-10.4268
▁ការព្យាបាល	-10.4269
មានបញ្ហា	-10.4272
ស្មើ	-10.4273
ូត	-10.4276
▁ច្រើនទៀត	-10.4277
ផ្តល់សេវា	-10.4278
នៅអឺរ៉ុប	-10.4279
១៥	-10.4279
var	-10.428
បន្តិច	-10.4282
onic	-10.4284
ផ្តោត	-10.4287
▁Set	-10.4287
▁key	-10.4287
▁ចុះហត្ថលេខា	-10.4291
▁QR	-10.4293
▁Europe	-10.4294
▁វាមាន	-10.4295
▁ស្ករ	-10.4297
ផ្លូវរថភ្លើង	-10.4298
nm	-10.4302
-200	-10.4302
▁ដុត	-10.4303
5000	-10.4304
សូត្រ	-10.4304
គ្មានដែនកំណត់	-10.4306
▁សុខ	-10.4307
CP	-10.431
0,0	-10.4311
ខាងលិច	-10.4316
ជ្រាប	-10.4317
2013	-10.4317
ney	-10.4318
ម៉ាស	-10.4319
FF	-10.4325
▁តង់ស្យុង	-10.4327
យន្តហោះឯកជន	-10.4332
បង្កើតឡើងដោយ	-10.4332
Control	-10.4333
បូមទឹកបេតុង	-10.4334
good	-10.4334
▁31,	-10.4334
ដឹក	-10.4335
▁Hi	-10.4341
▁ពិតជា	-10.4342
▁បញ្ជីចាក់	-10.4347
ami	-10.4348
110	-10.435
ថ្លែង	-10.4351
▁វេ	-10.4354
បូមទឹក	-10.4354
2011	-10.4354
▁Server	-10.4355
▁បទពិសោធន៍	-10.4355
oli	-10.4362
លំអិត	-10.4362
7.2	-10.4365
នីមួយៗ	-10.4365
គម្ពីរ	-10.4367
SN	-10.4369
▁Deutsch	-10.4374
▁ប្រូកស៊ី	-10.4374
សំបកកង់	-10.4376
ដើម្បីឱ្យ	-10.4376
▁CAP	-10.4379
▁ចលនា	-10.4379
ទុកចិត្ត	-10.4379
▁ផោន	-10.4383
ផ្សេងទៀត។	-10.4385
="2.8	-10.4389
uan	-10.4389
្យា	-10.4391
▁ឈ្មោះធាតុ	-10.4392
គិតថា	-10.4393
ជាទូទៅ	-10.4403
ដំណឹង	-10.4403
stra	-10.4405
cry	-10.4407
សមាគម	-10.441
GG	-10.4415
▁មេឌៀ	-10.4415
អាទិភាព	-10.4416
▁ម្តង	-10.4416
\\	-10.4416
▁ប៊ូ	-10.4416
▁Black	-10.4416
="0.2	-10.4417
រឺ	-10.4418
អនុបណ្ឌិត	-10.4419
▁បាត់	-10.4419
right	-10.442
▁Casting	-10.4422
▁27,	-10.4423
បង្កើតទំព័រ	-10.4424
off	-10.4425
ជាអ្វី	-10.4426
ព័រ	-10.4427
▁Main	-10.4428
.0.2	-10.4429
▁លើបណ្តាញ	-10.443
nov	-10.4432
តារា	-10.4432
▁រួមមាន	-10.4437
▁set	-10.4437
▁Sat	-10.4439
បង្ហូរ	-10.4442
▁HS	-10.4444
សព្វថ្ងៃនេះ	-10.4449
អត្ថប្រយោជន៍	-10.4455
▁អញ្ជើញ	-10.4456
▁Nepomuk	-10.4457
=3.5.1	-10.4457
▁Cauda	-10.4457
ជឿទុកចិត្ត	-10.4457
▁nylon	-10.4458
ផ្លែឈើ	-10.4458
ឈឺ	-10.446
▁បន្ទាន់	-10.446
9.1	-10.4464
▁Mat	-10.4467
បានបង្កើត	-10.4468
▁Hose	-10.4471
ដំ	-10.4479
▁ម៉	-10.4494
យើងបាន	-10.4495
▁Virtual	-10.4495
▁ត្រង់	-10.4496
មេកានិច	-10.4499
▁Health	-10.4499
ទុក្ខ	-10.4499
ទ្រព្យ	-10.4499
ប្រជាពលរដ្ឋ	-10.4499
ចង្កៀង	-10.45
តភ្ជាប់	-10.4502
ហើរ	-10.4502
▁when	-10.4503
▁មកពីក្រុមហ៊ុន	-10.4504
០២	-10.4504
សំលេង	-10.4508
▁ជន	-10.4515
days	-10.4516
លាង	-10.4522
▁ហត្ថលេខា	-10.4528
▁NO	-10.4533
ចន្លោះ	-10.4534
ភេសជ្ជៈ	-10.4535
ប្រកួតប្រជែង	-10.4536
ification	-10.4536
យ៉ាងណា	-10.4536
នាយក	-10.4536
▁Dis	-10.4538
▁0086-	-10.454
ត្នោត	-10.4541
ខ្សែក្រវាត់	-10.4541
ប៊្លូធូស	-10.4541
▁WysLuxury	-10.4541
▁លើស	-10.4542
ផ្សារដែក	-10.4544
▁ការបញ្ជាក់	-10.4553
▁Dec	-10.4553
ates	-10.4555
កែប្រែចុងក្រោយ	-10.4558
▁ស៊ូ	-10.4559
▁អ៊	-10.4559
ចម្រៀង	-10.456
rist	-10.456
ថែទាំ	-10.4561
hp	-10.4564
▁Pan	-10.4568
ប៉ុណ្ណោះ	-10.457
ត្រូវបានគេប្រើ	-10.4573
CAD	-10.4575
អាចរកបាន	-10.4576
rie	-10.4576
ANG	-10.4579
▁ពិតប្រាកដ	-10.458
េន	-10.458
យកចិត្តទុកដាក់	-10.4583
ភាពជាអ្នកដឹកនាំ	-10.4583
▁corrugated	-10.4583
▁មាត្រដ្ឋាន	-10.4583
▁ខណៈពេលដែល	-10.4585
777	-10.4588
ពីមុន	-10.459
ល្បែង	-10.4593
នារី	-10.4602
140	-10.4604
Game	-10.4606
▁រាប់	-10.4607
អង្គុយ	-10.4611
ala	-10.4615
ម៉ូត	-10.4624
្ន	-10.4624
អាជ្ញាធរ	-10.4625
កាន់	-10.4625
HI	-10.4625
inc	-10.4627
▁ឈ្មោះសាសនាចក្រ	-10.463
ប៉ូឡូញ	-10.4636
▁Stra	-10.4636
និងតម្រូវការ	-10.4642
SU	-10.4645
▁រមូរ	-10.4649
អាល្លឺម៉ង់	-10.465
▁ឆបគ្នា	-10.4651
room	-10.4655
▁ពត៌មាន	-10.4666
ថ្ងៃច័ន្ទ	-10.4667
បង្ក្រាប	-10.4667
ប្រណីត	-10.4667
ពិចារណា	-10.4667
2.0	-10.4668
យោង	-10.4669
ត្រូ	-10.467
ទិដ្ឋភាព	-10.4675
▁រំពឹង	-10.4676
ប្រទេសអាល្លឺម៉ង់	-10.4677
▁អាកាសធាតុ	-10.468
ប្រផេះ	-10.468
គ្រោង	-10.4681
ភូ	-10.4682
បានបង្ហាញ	-10.4685
ender	-10.4686
វ៉េ	-10.4693
ough	-10.4695
ដ៏ធំ	-10.4696
▁លីនុច	-10.4697
▁តប	-10.4701
COM	-10.4706
ថ្មីមួយ	-10.4707
▁ទាមទារ	-10.4707
125	-10.4708
ប៉ុស្តិ៍	-10.4708
▁ស្រាល	-10.4709
▁លែង	-10.4709
អវកាស	-10.471
▁unicode	-10.471
▁ASTM	-10.471
-07-	-10.4712
▁ផ្ទៃដី	-10.4717
ចេញផ្សាយ	-10.4718
កម្ពស់	-10.4722
▁អាជ្ញាប័ណ្ណ	-10.4725
▁ព្រះបន្ទូល	-10.4729
010	-10.4732
▁Star	-10.4733
▁SR	-10.4733
▁Sim	-10.4738
ស្វែងយល់	-10.4739
គុ	-10.474
="3.0	-10.4742
unit	-10.4743
ជាផ្នែកមួយ	-10.4743
▁Gar	-10.4744
ម៉ាស៊ីនកាត់	-10.4747
ចូលទៅកាន់	-10.4749
លទ្ធភាព	-10.4752
កាកសំណល់	-10.4752
ទូរគមនាគមន៍	-10.4752
Nathan	-10.4753
អ៊ីតាលី	-10.4754
▁បើអ្នក	-10.4755
▁RSS	-10.4757
catid	-10.4757
meroon	-10.4757
្ស	-10.4758
▁Inter	-10.4764
អានបន្ថែម	-10.4767
vl	-10.4769
កែប្រែ	-10.477
ទំន	-10.4771
3.4	-10.4772
▁Cu	-10.4772
▁ថែទាំ	-10.4775
ការប្រើ	-10.4776
ទិវា	-10.4778
/12/	-10.4779
kW	-10.478
="26	-10.478
▁គ្រោង	-10.4782
▁ចេញផ្សាយ	-10.4788
och	-10.4789
សំរាម	-10.4789
▁រដ្ឋាភិបាល	-10.4789
▁\	-10.4793
cle	-10.4793
ភាគល្អិត	-10.4795
▁stepper	-10.4795
field	-10.4796
ក្នុងមួយខែ	-10.4797
▁ជួរឈរ	-10.4798
រុញ	-10.4802
បៃ	-10.4803
="28	-10.4811
▁កន្សោម	-10.4819
ពណ៌ស	-10.4822
ផលិតភាព	-10.4824
EE	-10.4826
wysluxury	-10.4838
វីតាមីន	-10.4838
▁Rotary	-10.4838
វេជ្ជសាស្រ្ត	-10.4838
កំប្លែង	-10.484
មនុស្សយន្ត	-10.4841
មានអារម្មណ៍ថា	-10.4843
ព្រះយេស៊ូវ	-10.4844
េស	-10.4849
្លា	-10.4854
5.5	-10.4857
យុ	-10.4862
អំណោយ	-10.4863
ក្បឿង	-10.4868
4.1	-10.487
▁ឡើងទៅ	-10.4873
អត់	-10.4874
▁It	-10.4877
▁ឱសថ	-10.4881
ចំហៀង	-10.4882
▁Misslamode	-10.4882
▁វិធាន	-10.4883
▁Tele	-10.4887
▁ខ្លះ	-10.4887
▁03:	-10.4888
not	-10.49
1.3	-10.4903
▁ត្រួត	-10.4907
▁Trade	-10.4908
▁2003	-10.491
ដើម្បីបង្កើត	-10.4912
▁Bur	-10.4913
នេសាទ	-10.4925
ស្ថាបនិក	-10.4925
▁សម្រាំង	-10.4925
▁Club	-10.4928
ost	-10.4931
evel	-10.4931
high	-10.4932
ava	-10.4937
▁One	-10.4937
▁google	-10.494
ចំណាយពេល	-10.4943
០១	-10.495
ខ្ពស់។	-10.4954
well	-10.4958
អាកាសធាតុ	-10.4959
នៅថ្ងៃ	-10.4965
ចូលរៀន	-10.4966
ជាក់ស្តែង	-10.4969
បរិវេណ	-10.4969
ហានិភ័យ	-10.4969
▁Voltage	-10.4969
ទ័រ	-10.497
5.2	-10.4973
ផុតកំណត់	-10.4979
yo	-10.498
▁128	-10.4983
មានសុពលភាព	-10.4983
អង្គភាព	-10.4985
▁Mc	-10.499
បានប្រើ	-10.4991
មូ	-10.4994
▁230	-10.4995
▁ទូទាត់	-10.4997
ពួកគេបាន	-10.5006
េង	-10.5007
▁ទ្វារ	-10.5007
118	-10.5009
វាគ្មិន	-10.5013
▁ដីទ្បូ	-10.5013
	-10.5013
Itemid	-10.5013
▁Wells	-10.5016
ស្វាយ	-10.5016
▁✔	-10.5018
▁ទៅរថភ្លើង	-10.502
▁ទីកន្លែង	-10.502
SO	-10.502
▁យើងនឹង	-10.5021
ible	-10.5024
ហ្ក	-10.5026
▁Ag	-10.5031
HO	-10.5034
nne	-10.5042
បារី	-10.5045
▁រកមើល	-10.5048
ស្ថានីយ៍	-10.5052
bank	-10.5053
▁ដោះ	-10.5054
2.7	-10.5055
▁ចង្កៀង	-10.5056
តេជោ	-10.5057
▁Ceramic	-10.5057
Type	-10.5057
HR	-10.506
▁MD	-10.506
khmer	-10.5061
ពុះ	-10.5061
▁អថេរ	-10.5061
ថាស	-10.5065
ស៊ុត	-10.5066
▁បន្តិច	-10.5078
="25	-10.5081
1,000	-10.5084
▁ដែលត្រូវបាន	-10.5092
VAC	-10.5094
▁ខណ្ឌ	-10.5095
▁សុទ្ធ	-10.5098
សន្យា	-10.5098
▁វីស	-10.5099
ញូវយ៉ក	-10.5101
▁California	-10.5101
វេជ្ជបណ្ឌិត	-10.5101
\\\\	-10.5101
▁share	-10.5104
▁Tech	-10.5107
សមរម្យ	-10.5108
▁ខ្សែអក្សរ	-10.5109
▁បានបញ្ចប់	-10.5113
▁sc	-10.5114
▁Jack	-10.5114
▁ត្បូង	-10.5117
ការផ្តល់	-10.5121
▁Mor	-10.5122
IV	-10.5123
ក៏បាន	-10.5128
ជូ	-10.513
SSL	-10.513
▁Anti	-10.5138
រក្សាសិទ្ធ	-10.5138
ូន	-10.514
មូល	-10.5142
▁High	-10.5143
pos	-10.5143
ras	-10.5144
រចនាប័ទ្ម	-10.5145
hydro	-10.5145
▁Job	-10.5145
greece	-10.5145
ឥរិយាបថ	-10.5145
កោត	-10.5146
ថ្មម៉ាប	-10.5146
▁SQL	-10.5146
▁Clash	-10.5148
▁57	-10.5148
ចត	-10.5151
ស៊ីន	-10.5152
ព្រះគម្ពីរ	-10.5153
▁ស្អាត	-10.5153
រិ	-10.5154
ហួ	-10.5154
gro	-10.5159
បណ្តា	-10.5164
▁Stand	-10.5164
ហ្វី	-10.5165
1.4	-10.517
ប៊ូ	-10.5175
ថ្ងៃឈប់សម្រាក	-10.5178
មតិយោបល់	-10.5178
▁Off	-10.5183
erson	-10.5186
ច្រក	-10.519
មិនចាំបាច់	-10.5191
you	-10.5191
ពរ	-10.5191
លិខិត	-10.5193
យ័	-10.5196
999	-10.5208
ជោគជ័យ	-10.521
▁សមរម្យ	-10.521
▁បណ្ឌិត	-10.5211
ដ៍	-10.5211
▁អ៊ិនកូដ	-10.5215
ky	-10.5217
▁ផ្ទាំងរូបភាព	-10.522
="24	-10.5221
3.3	-10.5232
▁Hat	-10.5233
បំណះ	-10.5235
▁Building	-10.5235
កណ្តុរ	-10.5235
គំនូសតាង	-10.5235
ប្លាស្មា	-10.5235
វិស្វករ	-10.5235
ទ្វេដង	-10.5239
▁ស្តីពី	-10.524
ផ្លាស់ប្ដូរ	-10.5241
គោលនយោបាយ	-10.5242
ពីប្រទេសចិន	-10.5245
▁find	-10.5246
▁ការសិក្សា	-10.5248
▁Get	-10.5248
▁XML	-10.5249
▁ចម្បង	-10.5251
ប្រសិនបើអ្នក	-10.5252
▁IN	-10.5256
▁Xin	-10.5264
="2.1	-10.5265
កម្មសិទ្ធិ	-10.5271
ston	-10.5272
ខាងកើត	-10.5273
2.00	-10.5277
á	-10.528
គុណសម្បត្តិ	-10.528
▁subjects	-10.528
▁ស្ថានីយ៍	-10.528
▁National	-10.528
▁peach	-10.528
ចរាចរណ៍	-10.5281
▁Micro	-10.5282
ខ្ញុំចង់	-10.5284
បុណ្យណូអែល	-10.5285
សញ្ញាបត្រ	-10.5286
▁គ្រឿងម៉ាស៊ីន	-10.5286
▁ដឺ	-10.5289
emi	-10.5289
រុករក	-10.5295
cus	-10.5298
▁បែប	-10.53
ឌីស	-10.5302
▁នាទី។	-10.5303
mrd	-10.5305
▁អ្នកនៅទីនេះ	-10.5306
▁210	-10.5308
▁ទិដ្ឋាការ	-10.5309
ski	-10.5313
▁កីឡាករ	-10.5313
ទៅដល់	-10.5315
ហ្វីត	-10.5316
ខួប	-10.5325
▁ឆបគ្នាជាខ្មៅ	-10.5325
▁ស្តាំ	-10.5325
អិម	-10.5325
ល្អប្រសើរជាងមុន	-10.5326
Update	-10.5328
រន្ធដោត	-10.5333
វ៉	-10.5333
▁បន្សំ	-10.5335
RM	-10.5337
តំឡើង	-10.5337
ការវិនិយោគ	-10.5347
▁Op	-10.535
▁លិបិក្រម	-10.535
ហិ	-10.535
▁ធី	-10.536
▁ថៃ	-10.536
▁Tan	-10.5363
▁ចម្រៀង	-10.5365
រោមភ្នែក	-10.5368
កាតព្វកិច្ច	-10.5371
▁ឧបត្ថម្ភដោយ	-10.5372
ម្ចាស់សៀវភៅ	-10.5373
hPlus	-10.5374
ita	-10.5375
ដើម្បីធ្វើឱ្យ	-10.5385
▁លាននាក់	-10.5385
–	-10.5386
wing	-10.5387
GS	-10.5387
▁រ៉ូ	-10.5389
មានចំនួន	-10.5393
-14	-10.5393
លើកដំបូង	-10.5393
របង	-10.5395
មេដឹកនាំ	-10.5399
life	-10.5403
OW	-10.5406
best	-10.5414
ស័	-10.5416
▁photo	-10.5416
មនុស្សពេញវ័យ	-10.5416
▁JavaScript	-10.5416
▁Green	-10.5417
លាប	-10.5417
រដូវកាល	-10.5417
▁0.3	-10.5419
▁West	-10.5422
ដោយដៃ	-10.5424
="3.1	-10.5424
rit	-10.5427
▁Slot	-10.543
ជាការពិត	-10.5432
="3.8	-10.5432
ការចុះឈ្មោះ	-10.5434
▁Call	-10.5436
lb	-10.5436
បោះពុម្ពផ្សាយ	-10.5437
Nm	-10.5437
ត្រូវបានអនុវត្ត	-10.544
ការដាក់	-10.5447
ពិបាក	-10.5462
លូតលាស់	-10.5462
▁number	-10.5462
▁យ៉ូហាន	-10.5462
វត្ថុធាតុដើម	-10.5463
មូលបត្រ	-10.5463
FI	-10.5464
Work	-10.5466
▁គណនា	-10.5466
ថ្លា	-10.5468
proof	-10.5468
ស៊ូ	-10.5472
▁គំនូរ	-10.5474
▁North	-10.5475
▁ការវាយតម្លៃ	-10.5477
ថ្មក្រានីត	-10.5477
tag	-10.5478
បានរៀបចំ	-10.5479
bus	-10.5482
ពុំ	-10.5482
សហប្រតិបត្តិការ	-10.5483
ស៊ីវិល	-10.5484
UI	-10.5487
▁ថ្លែង	-10.5488
▁អធិប្បាយ	-10.5488
arn	-10.5489
▁ភ្នែក	-10.549
je	-10.5494
រាយការណ៍	-10.55
ការស្រង់ចេញ	-10.55
កម្ចី	-10.5501
FR	-10.5506
ប្រសិទ្ធិភាព	-10.5506
▁Store	-10.5507
ប៊ើ	-10.5507
ប្រហោង	-10.5508
លីនេអ៊ែរ	-10.5508
សំភារៈ	-10.5508
កន្សែង	-10.5508
ស្លឹក	-10.5508
▁COVID	-10.5508
▁បរិបទ	-10.5508
▁polymer	-10.5508
▁BKK	-10.5508
ឌ័រ	-10.551
▁សេចក្តីជូនដំណឹង	-10.551
មាត្រ	-10.551
មានភាពងាយស្រួល	-10.5511
▁អ័ក្ស	-10.5511
សត្វឆ្កែ	-10.5512
Markets	-10.5514
ពន្លឺព្រះអាទិត្យ	-10.5516
▁Part	-10.5517
="1.9	-10.5517
▁ផ្តល់ជូន	-10.5518
▁សម្លេង	-10.5518
▁សមុទ្រ	-10.5522
▁ទូរស័ព្ទលេខ	-10.5523
រដ្ឋសភា	-10.5527
ប្រកួត	-10.5528
បាយ	-10.5529
▁សែល	-10.5534
▁គាំង	-10.5534
សន្	-10.5536
▁Chen	-10.554
▁FL	-10.5551
▁PH	-10.5551
ស្រស់	-10.5551
▁SMS	-10.5552
ទាំងអស់គ្នា	-10.5553
និយាយអំពី	-10.5553
រកមើល	-10.5554
▁Gallery	-10.5555
ខួង	-10.5558
វគ្គបណ្តុះបណ្តាល	-10.5558
៤៤	-10.556
ការបោះឆ្នោត	-10.5561
aria	-10.5561
▁Line	-10.5568
▁CAS	-10.5574
▁CH	-10.5582
▁ទំហំដី	-10.5582
▁ទុកឱ្យ	-10.5584
▁86-5	-10.5592
មានអារម្មណ៍	-10.5593
១៧	-10.5594
្ក	-10.5594
non	-10.5596
ខ្ពស់បំផុត	-10.5598
▁ស្ថាប័ន	-10.5598
pad	-10.56
ខ្សោយ	-10.5601
សរីរាង្គ	-10.5601
▁Changzhou	-10.5601
ព័ត៌មានលម្អិត	-10.5602
▁SE	-10.5602
▁ទំនាក់	-10.5603
សាល	-10.5604
ban	-10.5605
▁សារធាតុ	-10.5606
ស្ករ	-10.5606
tai	-10.5609
ដើម្បីជួយ	-10.5614
cul	-10.5615
▁សូមស្វាគមន៍	-10.5617
បញ្ចុះតម្លៃ	-10.5623
▁តាំង	-10.5625
កក	-10.5626
បញ្ញើ	-10.5632
អំពើ	-10.5635
OK	-10.5637
▁space	-10.5645
កថា	-10.5647
ជម្រុញ	-10.5648
រសៀល	-10.5648
ដែន	-10.5648
ចង់បាន	-10.5651
:47	-10.5652
8.3	-10.5656
▁អាល្លឺម៉ង់	-10.5656
សង្	-10.5657
លំនាំ	-10.5661
china	-10.5666
-28	-10.5666
ities	-10.5667
កម្មករ	-10.567
▁FM	-10.5675
▁អាស្រ័យ	-10.5677
▁ឡាំង	-10.568
បញ្ចូលគ្នា	-10.5684
គឺអាចរកបាន	-10.5684
{	-10.5685
ចំណ	-10.5685
៥០០	-10.5688
ឥត	-10.5692
រក្សាសិទ្ធិ	-10.5694
ធានាថា	-10.5694
តម្លាភាព	-10.5695
យ៉ាងឆាប់រហ័ស	-10.5695
ស៊ុយអែត	-10.5695
▁Michael	-10.5695
បង្គោល	-10.5695
បឋម	-10.5695
គូរ	-10.5697
កាតា	-10.5699
គ្រឿងម៉ាស៊ីន	-10.57
អាចត្រូវបានប្ដូរ	-10.57
ក៏មាន	-10.5702
ត្រឡប់	-10.5708
ហ៍	-10.5711
Sales	-10.5712
9.5	-10.5713
utter	-10.5714
ហ្វា	-10.5715
-2019	-10.5718
ណ្ឌ	-10.5721
▁Kmail	-10.5723
▁Wing	-10.5723
▁វាគឺជា	-10.573
ផ្គូផ្គង	-10.5735
ឃ្លាំង	-10.5735
▁រូបិយប័ណ្ណ	-10.5736
ម្ហូបអាហារ	-10.5737
="27	-10.5738
សំណុំបែបបទ	-10.5739
ឆ្កែ	-10.5739
អាសន្ន	-10.5741
ora	-10.5742
អធិស្ឋាន	-10.5742
ចំនុច	-10.5742
បង្ខំ	-10.5742
អបអរសាទរ	-10.5742
video	-10.5743
Pro	-10.5744
ក្រា	-10.5746
សេះ	-10.5747
115	-10.5749
▁អង្សាសេ	-10.5751
olic	-10.5752
▁អត់	-10.5768
អាហ្វ្រិក	-10.5774
▁បន្ទប់ទឹក	-10.5775
▁ធ	-10.5776
3.6	-10.5781
▁ស្រឡាញ់	-10.5782
▁សំណើម	-10.5784
គត់	-10.5785
អូឌីយ៉ូ	-10.5786
យល់ព្រម	-10.5787
▁Qt	-10.5788
តុក្កតា	-10.5789
អំណរ	-10.5789
គ្រីស្តាល់	-10.5789
▁រវល់	-10.5789
បរិញ្ញាបត្រ	-10.5789
កែលម្អ	-10.5791
▁Saint	-10.5792
▁បំបាត់	-10.5793
ott	-10.5794
▁DNS	-10.5794
ការយល់ដឹង	-10.5795
លេខសម្គាល់	-10.5796
▁ផ្តល់នូវ	-10.5797
▁យឺត	-10.58
ទីលាន	-10.5802
ows	-10.5802
▁ដូចម្តេច	-10.5802
ht	-10.5803
អសកម្ម	-10.5804
ites	-10.5812
▁Please	-10.5812
▁Can	-10.5814
៩០	-10.5815
="2.2	-10.5815
▁ច្បាស់	-10.5819
២៥	-10.5821
នៅតាម	-10.5825
▁ខ្	-10.5828
មានឥទ្ធិពល	-10.5831
▁ការជូន	-10.5831
▁Dev	-10.5832
ឡាយ	-10.5834
ធម៌	-10.5837
៛	-10.5837
គ្រូពេទ្យ	-10.5838
ប្លាស្ទិក	-10.5839
▁យល់ព្រម	-10.5839
ចុះក្រោម	-10.584
▁ឯ	-10.5841
▁const	-10.5842
សមស្រប	-10.5845
▁ខណៈពេល	-10.5845
ផ្ត	-10.5848
បាត់	-10.5849
▁ស្រា	-10.585
▁អះអាង	-10.5853
▁អេស	-10.5856
▁លៃតម្រូវ	-10.5857
▁inter	-10.5857
▁ក្រុងស៊ាងហៃ	-10.5864
ship	-10.5866
▁កណ្តាល	-10.5868
/06/	-10.5869
BP	-10.5872
run	-10.5873
:43	-10.5874
ធ្វើតេស្ត	-10.5877
▁ឈ្មោះផលិតផល	-10.5877
-80	-10.5878
▁ផ្តើ	-10.5879
ច្ច	-10.5881
="2.0	-10.5883
បញ្ចុះ	-10.5883
បរិភោគ	-10.5884
ត្រលប់	-10.5885
ស្រមោល	-10.5885
ឫ	-10.5885
▁កុម្ភះ	-10.5885
▁SARS	-10.5885
ស្លត	-10.5885
▁អនុសាសន៍	-10.5885
បាល	-10.5885
▁ច្ចេ	-10.5886
ខ្ទង់	-10.5886
▁exp	-10.5887
▁បំពង់ដែក	-10.5887
▁ទិស	-10.5889
ភាពជាដៃគូ	-10.5896
put	-10.5896
▁4000	-10.5899
HD	-10.5904
ូល	-10.5904
ង្គ	-10.5905
▁Data	-10.5906
បកប្រែ	-10.5907
="1.7	-10.5907
បញ្ចប់ការសិក្សា	-10.5912
▁ធ្វើឱ្យទាន់សម័យ	-10.5914
ស្កូ	-10.5915
▁Mate	-10.5916
="4.0	-10.5916
▁១៧	-10.5917
▁PRO	-10.5919
000,0	-10.5919
0.9	-10.592
លោកស្រី	-10.5928
ការចាប់ផ្តើម	-10.5928
▁ជាទូទៅ	-10.593
▁dn	-10.5932
ប្រគល់	-10.5933
រមណីយដ្ឋាន	-10.5933
វប្បធម៍	-10.5933
▁August	-10.5933
▁នរណា	-10.5936
RT	-10.5939
▁រួមបញ្ចូល	-10.594
ឃី	-10.5941
ខណ្ឌ	-10.5942
ស្ដាប់	-10.5947
▁សុពលភាព	-10.5947
ពិធីបុណ្យ	-10.5948
test	-10.5953
/08/	-10.5955
rag	-10.5956
JS	-10.5959
iff	-10.596
855	-10.5961
▁ត្រូ	-10.5963
TL	-10.5966
បានបញ្ជាក់	-10.5966
▁Jia	-10.5966
យើងអាច	-10.5973
▁tab	-10.5973
-2017	-10.5976
hine	-10.5977
រដូវ	-10.598
▁countertop	-10.5981
▁អាទិត្យ	-10.5981
ខោនធី	-10.5981
▁ម៉ាថាយ	-10.5981
▁Adobe	-10.5981
▁ជុំវិញ	-10.5984
គ្រប់ប្រភេទ	-10.5985
▁Brand	-10.5988
ious	-10.5994
ខ្សែអក្សរពន្លឺ	-10.5996
RU	-10.6002
▁ប៉ះ	-10.6003
trip	-10.6003
មេរៀន	-10.6008
▁Sl	-10.6009
ធូ	-10.6015
្ដ	-10.6016
នៅសល់	-10.6016
▁TN	-10.6018
កន្លែងដែល	-10.6025
▁ថ្ងៃសៅរ៍	-10.6026
ត្រូវបានធ្វើឡើង	-10.6027
បេសកកម្ម	-10.603
ល្បីល្បាញ	-10.603
▁ខ្ទាស់	-10.603
ធីក	-10.6031
ប៉ាតង់	-10.6034
▁កំសាន្ត	-10.6035
ations	-10.6039
មេដែក	-10.604
ជាម្ចាស់	-10.6042
ញ្ញ	-10.6044
="1.8	-10.6045
▁900	-10.6047
ម៉ាស់	-10.605
▁≥	-10.6064
▁Cat	-10.6064
ike	-10.6067
="20	-10.607
ឡើងទៅ	-10.6076
ឆ្អឹង	-10.6079
ចំណេះដឹង	-10.6079
ស្រទាប់ពហុជីប	-10.6079
ក្រីក្រ	-10.6079
▁CSGO	-10.6079
house	-10.6083
ជាធម្មតា	-10.6085
បានឃើញ	-10.6086
="21	-10.6088
▁data	-10.6088
▁Coil	-10.6089
▁Day	-10.609
ការកាត់បន្ថយ	-10.6091
▁999	-10.6095
អេស្ប៉ាញ	-10.6097
នាយកដ្ឋាន	-10.6097
រ៉ុក	-10.6098
▁inside	-10.6099
មតិ	-10.6099
ប្រទេសជប៉ុន	-10.61
▁see	-10.6101
បានសរសេរ	-10.6103
▁ការផ្តល់ជូន	-10.6106
ល្អប្រសើរ	-10.6109
▁សិល្បករ	-10.6113
="3.2	-10.6114
▁2.4	-10.6116
▁File	-10.6122
ette	-10.6122
ញូ	-10.6122
យន្តការ	-10.6125
នៅទូទាំងពិភពលោក	-10.6125
sec	-10.6126
▁Ontario	-10.6128
▁{@}	-10.6128
ទឹកជំនន់	-10.6128
សាស្រ្តាចារ្យ	-10.6128
▁ដដែលៗ	-10.6128
link	-10.613
អាគារ	-10.613
▁ចំនួនមើល	-10.6131
▁UK	-10.6134
ឌិន	-10.6136
អេសអេស	-10.6136
6.2	-10.6137
រ៉ុ	-10.6137
▁ឯក	-10.6139
▁EX	-10.614
▁but	-10.6142
▁បញ្ចុះតម្លៃ	-10.6142
▁បិទភ្ជាប់	-10.6145
▁ទិសដៅ	-10.6145
ឋ	-10.6147
ស្វ័យប្រវត្តិ	-10.6148
រុករករ៉ែ	-10.6149
បដិសេធ	-10.6149
6.3	-10.6151
ជាមធ្យម	-10.6155
ជារៀងរាល់ថ្ងៃ	-10.6155
ុប	-10.616
bug	-10.6163
BT	-10.6165
burg	-10.617
បន្ទាប់មក	-10.6173
វឌ្ឍន	-10.6174
▁វគ្គ	-10.6177
តួកគី	-10.6177
បញ្ច្រាស	-10.6177
នីតិវិធី	-10.6177
▁គ្រោងការណ៍	-10.6177
ស្ទើរតែ	-10.6178
GI	-10.6178
▁ក្ដារចុច	-10.6179
="29	-10.6179
▁ក្រាមប្រាក់	-10.6182
▁អតីត	-10.6185
ទូទាំងពិភពលោក	-10.6185
៨០	-10.6187
ខែធ្នូ	-10.6191
ប្រាក់ចំណូល	-10.6193
ធ្វើពាណិជ្ជកម្ម	-10.6198
▁ATM	-10.6202
ika	-10.6205
កង	-10.6206
MX	-10.6208
▁ចង	-10.6208
HT	-10.6209
ral	-10.6212
▁Art	-10.6215
ស្តង់	-10.6218
▁Del	-10.6223
សម្ភារ	-10.6224
download	-10.6227
▁***	-10.6227
ever	-10.6233
បុណ្យ	-10.6234
EB	-10.6236
▁1.1	-10.6237
ដាប់	-10.6239
try	-10.6248
▁ជំពូក	-10.6249
ស៊ីឌី	-10.6261
ហែ	-10.6262
▁5.5	-10.6267
នៃទីក្រុង	-10.6268
exacthacks	-10.6276
▁Foundation	-10.6276
▁MIME	-10.6276
▁កម្រង	-10.6277
ectures	-10.6277
ផឹក	-10.628
▁ឬច្រើន	-10.6281
▁មិនទាន់	-10.6282
▁ឆ្នាំ២០១៩	-10.6284
uf	-10.6292
ធ្វើឱ្យប្រសើរឡើង	-10.6292
មានលក្ខណៈ	-10.6297
ហើយបន្ទាប់មក	-10.6297
="1.4	-10.6298
▁ឆ្នេរ	-10.6299
▁($	-10.6307
▁Out	-10.631
▁ប្តូ	-10.6316
ជៀសវាង	-10.6326
▁តេ	-10.6326
សង្គ្រាម	-10.6326
អំបិល	-10.6326
▁Sihanoukville	-10.6326
▁សាំយូអែល	-10.6326
▁IMAP	-10.6327
yan	-10.6329
ការឆ្លើយតប	-10.633
ចំណាំ	-10.6333
៏	-10.6335
▁head	-10.6335
lia	-10.6338
▁សំឡេងទីក្រុង	-10.6339
▁Internet	-10.6345
ការផ្សព្វផ្សាយ	-10.6346
TY	-10.6346
="2.7	-10.6347
មួយឆ្នាំ	-10.6353
ជាពិសេស	-10.6357
▁back	-10.636
ប្រារព្ធ	-10.6361
គោលការណ៍	-10.6362
8.0	-10.6364
host	-10.6367
mes	-10.6369
លំបាក	-10.6371
tz	-10.6376
ប្រេស៊ីល	-10.6376
យានយន្ត	-10.6376
▁Putzmeister	-10.6376
មានផ្ទៃពោះ	-10.6376
រថក្រោះ	-10.6376
ស្រូបយក	-10.6376
▁Pantone	-10.6376
insight	-10.6377
BWC	-10.6377
▁stitch	-10.6378
បណ្តាប្រទេស	-10.6378
ethyl	-10.6379
▁Shi	-10.638
0.3	-10.6387
ization	-10.6388
▁អគ្គនាយក	-10.6393
ន្ធ	-10.6393
▁Post	-10.6393
▁ខេ	-10.6394
▁search	-10.6394
▁ការបង្កើត	-10.6394
▁Gh	-10.6399
nic	-10.6399
5.3	-10.6405
▁អ៊ីតាលី	-10.6405
ផ្ល	-10.6407
chan	-10.6407
▁រៀងរាល់	-10.641
សាសនាចក្រ	-10.641
ហៃ	-10.6414
▁ជំនួយការ	-10.6418
▁ធ្លាក់ចុះ	-10.6419
លើកលែង	-10.642
New	-10.6423
tis	-10.6426
▁Sho	-10.6426
oph	-10.6427
ا	-10.6427
សក្តានុពល	-10.6427
ទ្វីប	-10.6427
▁Bearing	-10.6427
កម្រាល	-10.6427
រាជរដ្ឋាភិបាល	-10.6428
ការផ្តល់ជូន	-10.6432
▁ផលិតផលដាក់ស្លាក	-10.6433
ខ្សែក្រវ៉ាត់	-10.6434
4.4	-10.6435
▁Im	-10.6438
▁អង្គភាព	-10.6439
សូដ្យូម	-10.6444
▁ធារាសាស្ត្រ	-10.6445
7.1	-10.645
ជ្	-10.6453
uro	-10.6454
បាក់	-10.6457
▁ជាធម្មតា	-10.6462
ផ្លូវការ	-10.6464
ស្តារ	-10.6465
▁ហ្វា	-10.6467
ល័	-10.6476
ការចូលរួម	-10.6476
4.8	-10.6477
ត្រចៀក	-10.6478
រកដាសកាតុង	-10.6478
▁laminate	-10.6478
សូមមើល	-10.6479
ពេ	-10.648
▁Φ	-10.648
▁ការចាក់	-10.6481
បានក្លាយជា	-10.6482
▁សំណួរណាមួយ	-10.6484
print	-10.649
▁សហ	-10.6496
ប្រពន្ធ	-10.6497
ចម្ងាយ	-10.6498
▁សុក្រ	-10.6499
ខ្ញុំគិតថា	-10.6502
rk	-10.6502
▁គ្រង	-10.6503
▁8.1	-10.6505
ប្រទេសរុស្ស៊ី	-10.6505
▁ស្ទ្រីម	-10.6506
ក្រឡា	-10.6507
roll	-10.6509
្វ	-10.6511
ហ៊ុន	-10.6515
elle	-10.6516
002	-10.6516
បាត់ដំបង	-10.6517
ដោយសារ	-10.6517
▁450	-10.6518
▁រុស្ស៊ី	-10.6522
សង្ឃឹម	-10.6524
3.8	-10.6524
អឺរ៉ូ	-10.6525
FX	-10.6525
ណិត	-10.6525
បត់	-10.6528
war	-10.6528
zerbaijan	-10.6529
▁White	-10.6529
▁លេខទូរស័ព្ទ	-10.653
អ៊ុលត្រាសោ	-10.6533
កុំព្យូទ័រយួរដៃ	-10.6533
mag	-10.6535
ខោ	-10.6538
▁កម្មករ	-10.6541
ជុំវិញ	-10.6543
នៅក្នុងតំបន់	-10.6545
ការផ្ទុក	-10.6554
350	-10.6556
stro	-10.6559
▁បង្រៀន	-10.656
="3.7	-10.6564
នៅទូទាំង	-10.6565
▁នៅក្រោម	-10.6566
របស់យើងគឺ	-10.6568
រោង	-10.6568
ផ្គត់ផ្គង់ថាមពល	-10.6569
តំ	-10.657
ធើ	-10.6577
ធ្វើអោយ	-10.6578
vietnam	-10.658
កម្លាំងបង្វិលជុំ	-10.658
ដីធ្លី	-10.658
ហ្វ្រាំង	-10.658
▁Kopete	-10.658
money	-10.6583
▁ថ្ងៃសុក្រ	-10.6585
ការប្រកួតប្រជែង	-10.6589
យូដា	-10.6589
360	-10.6592
/2017	-10.6592
▁ថង់	-10.6595
ពេលដែល	-10.6595
សិទ្ធិមនុស្ស	-10.6599
="2.6	-10.66
8000	-10.66
illa	-10.6601
▁វ៉ាស៊ីនតោន	-10.6602
សឺ	-10.6602
▁អត្ថបទមុន	-10.6605
235	-10.6607
="1.2	-10.6609
:41	-10.6611
▁សំណាញ់	-10.6614
▁ក្លឹប	-10.6616
▁ផ្នែករឹង	-10.6618
សន្ទះបិទបើក	-10.6621
▁លក្ខណៈសម្បត្តិ	-10.6624
ភ្លាម	-10.663
450	-10.663
▁រាជធានី	-10.663
▁Ministry	-10.6631
▁Rikoooo	-10.6631
ស្តើង	-10.6631
script	-10.6632
▁ផ្ទុយ	-10.6632
ព្យាករណ៍	-10.6632
▁បាល់	-10.6634
ient	-10.6634
▁ស្រង់	-10.6637
Store	-10.6637
ជាងគេ	-10.6638
ហោះ	-10.6643
▁សម្រង់	-10.6652
ប្រទេសអ៊ីតាលី	-10.6652
111	-10.6653
LT	-10.6655
ឆេ	-10.6657
អ្នកផលិត	-10.6659
▁ប្រែ	-10.6666
ជាញឹកញាប់	-10.6666
សាន់	-10.6667
6.1	-10.6668
ទីក្រុងប៉ារីស	-10.6672
ស្ថិតនៅក្នុង	-10.6675
▁ភាពជាក់លាក់	-10.668
Private	-10.6683
ខ្ចី	-10.6683
ឥណ្ឌូនេស៊ី	-10.6683
▁keyword	-10.6686
▁រូបមន្ត	-10.6686
▁ផ្លែប៉ោម	-10.6687
▁sonic	-10.6688
="4.8	-10.6692
លួច	-10.6693
បុរី	-10.6693
▁មិត្ត	-10.6695
▁travel	-10.6697
="23	-10.6706
▁ក្លាយ	-10.6707
អ្វីគ្រប់យ៉ាង	-10.6708
▁help	-10.6709
oxy	-10.6712
▁Card	-10.6716
សម្រង់	-10.6716
ខ្ពស់និង	-10.6718
▁វិធីសាស្ត្រ	-10.6723
អាចប្រើ	-10.6724
gsm	-10.6726
ការធានា	-10.6726
▁អ្នកគ្រប់គ្រង	-10.6728
nna	-10.6729
Info	-10.6731
ដទៃ	-10.6733
សន្និបាត	-10.6735
‘	-10.6735
សរសើរ	-10.6735
▁កុងសូល	-10.6735
ក្រចក	-10.6735
JPY	-10.6735
▁November	-10.6736
lysis	-10.6736
▁សំឡេងរោទិ៍	-10.6736
place	-10.6737
▁SY	-10.674
អរ	-10.6741
ទទួលបានការ	-10.6743
ការតស៊ូ	-10.6743
rico	-10.6744
nel	-10.6746
▁ម៉ូលេគុល	-10.6746
ppy	-10.6747
នោះគឺ	-10.6749
/03/	-10.675
ផ្ដាច់	-10.6752
9.2	-10.6754
why	-10.6754
GMT	-10.6756
▁(4)	-10.6756
▁ការធានា	-10.6757
▁បុណ្យ	-10.6758
▁Ol	-10.6761
▁ប្រអប់ខាង	-10.6766
▁រង្វង់	-10.6769
▁និម្មិត	-10.6772
▁ម៉ូទ័រ	-10.6779
▁QShortcut	-10.678
▁Bio	-10.6784
ៀរ	-10.6785
PV	-10.6788
francais	-10.6788
ឆ្នើម	-10.6788
▁departments	-10.6788
▁អាប់ភ្លេត	-10.6788
ទាន	-10.6788
សាច់ដុំ	-10.6789
▁ឃ្លា	-10.679
▁drip	-10.679
កំណត់ហេតុបណ្ដាញ	-10.6793
wall	-10.6795
▁ផ្នែកទន់	-10.6797
▁គែម	-10.6798
ពុល	-10.6799
ស្ស	-10.68
សំណុំ	-10.6802
ដ្រាយ	-10.6803
និម្មិត	-10.6803
កីឡាករ	-10.6807
បានចូលរួម	-10.6809
នាំយក	-10.6811
▁ពិភព	-10.6817
ថៃ	-10.6818
AF	-10.6824
▁140	-10.6828
▁ម៉ាស៊ីនកាត់	-10.6832
▁RF	-10.6832
▁អាគារ	-10.6838
▁ចោល	-10.6839
បានទេ	-10.684
ហ្វីលីពីន	-10.684
▁Express	-10.6841
▁ងារ	-10.6841
▁edfa	-10.6842
និងរោងចក្រ	-10.6842
▁ការលក់	-10.6843
▁Blu	-10.6846
IR	-10.6847
▁Fiber	-10.685
មួយទៀត	-10.6858
អាល់ប៊ុម	-10.6859
ស្លាប	-10.6859
កប្បាស	-10.686
▁ប្រសិទ្ធិភាព	-10.6863
▁2002	-10.6865
ello	-10.6865
="1.3	-10.6871
ទំ	-10.6872
ជារៀងរាល់	-10.6872
with	-10.6872
7.0	-10.6881
▁Bas	-10.6882
វិញ្ញាណ	-10.6886
4.0	-10.6889
FE	-10.6889
▁ព្រម	-10.689
៨៨	-10.6893
ស្ទូឌីយោ	-10.6893
›	-10.6893
▁alloy	-10.6893
វិចិត្រសាល	-10.6893
FO	-10.6899
▁Korea	-10.6901
ចាប់តាំងពី	-10.6905
ទាញ	-10.6906
ខាងក្រោយ	-10.6908
▁រំលឹក	-10.6908
កន្លងទៅ	-10.6911
▁អ្នកកាន់	-10.6912
អោ	-10.6913
២៤	-10.6916
បញ្ជាទិញ	-10.6916
ប្រេកង់	-10.6917
UL	-10.6925
unch	-10.6927
ENT	-10.6929
ក្រោមដី	-10.6932
ទុយោ	-10.694
ការហៅ	-10.6941
▁ពួកគេបាន	-10.6941
ជំនួញ	-10.6942
-04-	-10.6943
ភ្លេច	-10.6946
я	-10.6946
ស្ថាបត្យកម្ម	-10.6946
▁Kawasaki	-10.6946
កាំភ្លើង	-10.6946
casino	-10.6946
មនុស្សជាច្រើន	-10.6947
ងូតទឹក	-10.6947
▁រាល់ការណ៍	-10.6948
▁CBD	-10.6949
▁TCN	-10.6949
1.00	-10.695
▁year	-10.695
ប្រាំពីរ	-10.6951
▁កំទេច	-10.6953
lated	-10.6953
▁Uber	-10.6959
9.0	-10.6961
▁រ៉ោតទ័រ	-10.6961
ហៅថា	-10.6962
និងសេវាកម្ម	-10.6965
«	-10.6973
ចម្លើយ	-10.6973
320	-10.6974
▁ប្រេកង់	-10.6976
ដែលទទួលបាន	-10.6976
▁Land	-10.6979
អាចត្រូវបានប្រើ	-10.6983
ការហោះហើរ	-10.6985
▁Spin	-10.6986
BB	-10.6986
ធ្វើជា	-10.699
ហាត់	-10.6993
ដូចជាការ	-10.6995
-300	-10.6996
កាស	-10.6996
អ៊ិនធឺណិត	-10.6997
ឃ្លា	-10.7
ខេមបូឌា	-10.7
ទ្រព្យសម្បត្តិ	-10.7
រីកចម្រើន	-10.7
▁Inverter	-10.7
▁korganizer	-10.7
▁sonotrode	-10.7
system	-10.7001
សុន	-10.7001
ATA	-10.7001
▁Geo	-10.7002
ធ័រ	-10.7002
ford	-10.7003
▁Metro	-10.7003
▁Spec	-10.701
មិនគិតថ្លៃ	-10.7011
២០១១	-10.7012
▁Ly	-10.7013
ច្បាប់ចម្លង	-10.7014
អ្នកជំងឺ	-10.7015
▁CN	-10.7018
▁nano	-10.7027
ការបង្ហាញ	-10.7031
អ្នកនិពន្ធ	-10.7031
ឧទ្យាន	-10.7031
▁បោក	-10.7031
▁ទ្វេ	-10.7033
ពន្យារ	-10.7036
១៨	-10.7038
7.4	-10.7047
▁ថ្ងៃបន្ទាប់ពី	-10.7052
ស្លាយ	-10.7053
វិក័យប័ត្រ	-10.7054
ឃ្លាំមើល	-10.7054
ប្រដាប់ក្មេងលេង	-10.7054
មេធាវី	-10.7054
▁យោបល់ឬពិនិត្យ	-10.7054
ចងក្រង	-10.7054
អានុភាព	-10.7054
ទីស្តីការ	-10.7054
qua	-10.7054
បដិ	-10.7054
គំរោង	-10.7054
▁ផែនទីទំព័រ	-10.7057
វិនិយោគិន	-10.7058
ique	-10.706
មួយដែលមាន	-10.7062
ព្រមាន	-10.7069
ខាងឆ្វេង	-10.7072
នៅក្បែរ	-10.7073
តាំងពី	-10.7075
="1.5	-10.7076
ដេញ	-10.7079
▁Kh	-10.7081
▁Aug	-10.7082
track	-10.7083
រិយា	-10.7084
mor	-10.7085
្រូ	-10.7086
1.9	-10.7093
ស្លាកសញ្ញា	-10.7098
▁ខុនដូ	-10.7099
rap	-10.7099
នៅពេលដែលអ្នក	-10.7107
ធំជាង	-10.7107
ទឹកដោះគោ	-10.7108
កោះរ៉ុង	-10.7108
ទូរទឹកកក	-10.7108
▁ស៊ីភីយូ	-10.7108
▁ballpoint	-10.7108
▁វាក្យ	-10.7108
▁France	-10.7108
▁FIFA	-10.7108
▁ខូគី	-10.7108
3.0	-10.7108
នាពេលបច្ចុប្បន្ន	-10.7108
2.9	-10.7113
9.4	-10.7115
លុបចោល	-10.7116
ប្រាក់កម្ចី	-10.7116
ប៉ូលីស	-10.7118
▁1.8	-10.7118
:48	-10.7122
▁ជាន់ទី	-10.7126
▁ផុត	-10.7127
▁does	-10.7129
ចាកចេញ	-10.7132
NP	-10.7135
វិជ្ជមាន	-10.7144
KA	-10.7144
ប្រជា	-10.7144
▁Ass	-10.7151
កូនប្រុស	-10.7152
pack	-10.7156
ប្អូន	-10.7162
ថូខឹន	-10.7162
▁Blackjack	-10.7162
▁វចនានុក្រម	-10.7162
កុងតឺន័រ	-10.7162
▁Russia	-10.7162
▁៨៨១	-10.7162
បារម្ភ	-10.7162
▁សមមូល	-10.7163
▁ប្រើថ្ងៃនេះ	-10.7168
▁ដោយសារ	-10.7169
DF	-10.7174
="2.4	-10.718
▁តែង	-10.7181
Text	-10.7182
="1.6	-10.7188
ប៉ូលី	-10.7191
8.1	-10.7194
ោរ	-10.7197
យឺត	-10.7198
ដកប្រាក់	-10.7201
▁More	-10.7201
uction	-10.7214
mic	-10.7215
▁ព័ត៍មាន	-10.7216
រំភើប	-10.7217
▁official	-10.7217
គណៈកម្មការ	-10.7217
អ្នករាល់គ្នា	-10.7217
▁poly	-10.7217
ចំហាយ	-10.7219
ថយក្រោយ	-10.7223
▁Iphone	-10.7224
លំហ	-10.7226
▁Rent	-10.7226
chen	-10.7232
▁ទីប្រឹក្សា	-10.7233
នៅតំបន់	-10.7236
7.3	-10.7237
market	-10.7239
កម្រ	-10.7244
forex	-10.7247
បានដាក់ស្លាក	-10.7249
ដ្ឋ	-10.725
ប៊ីត	-10.7253
ត្រូវបានរចនាឡើង	-10.7265
ពើ	-10.7266
▁XM	-10.7268
▁Sep	-10.727
ក្របខ័ណ្ឌ	-10.7272
អាស៊ាន	-10.7272
▁which	-10.7272
អាប់	-10.7272
▁វាត្រូវបាន	-10.7272
▁Contactor	-10.7274
▁70%	-10.7274
bio	-10.7275
▁ផែនទីគេហទំព័រ	-10.7276
ផ្តោតលើ	-10.7278
TU	-10.7281
អែល	-10.7285
irc	-10.7285
ត្រូវធ្វើ	-10.7285
▁ផលិតផលលម្អិត	-10.7288
▁Xbox	-10.7291
ទឹកថ្នាំ	-10.7291
▁Lee	-10.7291
bot	-10.73
កាក់	-10.7301
ទៅមុខ	-10.7305
▁Dj	-10.7305
cycl	-10.7308
▁like	-10.7308
គ្រប់គ្រងលើ	-10.7309
ដាក់ស្លាក	-10.7318
8.6	-10.7327
ជំរាបសួរ	-10.7327
ថ្ងៃព្រហស្បតិ៍	-10.7327
រៀបការ	-10.7327
ស្វ៊ីស	-10.7327
▁Youtube	-10.7327
▁modified	-10.7327
▁កក្តដា	-10.7327
សង្កេត	-10.7327
គណៈរដ្ឋមន្រ្តី	-10.7327
តែងតាំង	-10.7328
aker	-10.733
សំណង	-10.7331
▁Die	-10.7331
TB	-10.7336
ន៏	-10.7345
-01-	-10.7346
0.1	-10.7348
base	-10.7354
ើម	-10.7357
មានប្រយោជន៍	-10.7359
ជជែកកំសាន្ត	-10.7363
▁ចិនទីក្រុង	-10.7363
ប្រឆាំងនឹងការ	-10.7364
8.4	-10.7365
សហភាព	-10.7367
▁How	-10.7367
▁Nor	-10.737
olding	-10.7378
Step	-10.7381
ឯកសណ្ឋាន	-10.7382
សហគ្រិន	-10.7382
អាកាសយានដ្ឋាន	-10.7382
▁Kontact	-10.7382
▁រំលង	-10.7382
ក្រិតតាមខ្នាត	-10.7382
▁Crimea	-10.7383
កងទ័ព	-10.7383
▁CFD	-10.7383
ភ្លោះ	-10.7383
ក្នុងពេល	-10.7384
នៅលើពិភពលោក	-10.7384
▁Cheung	-10.7384
▁២០២០	-10.7385
នឹងទទួលបាន	-10.7386
គ្រប់ទីកន្លែង	-10.7386
ស្តីពីការ	-10.7387
▁ស្រាប់	-10.739
វ័យ	-10.7391
អនុម័ត	-10.7399
▁ផ្អែក	-10.7404
irt	-10.7404
▁HTC	-10.7409
បរ	-10.7409
▁135	-10.7412
ces	-10.7412
II	-10.7414
▁conf	-10.7428
▁Sand	-10.7429
ប្រាកដថា	-10.7435
ution	-10.7438
μ	-10.7438
ភ្ញាក់ផ្អើល	-10.7438
មហោស្រព	-10.7438
▁Gibbs	-10.7438
▁between	-10.7438
ផ្គុំ	-10.7438
រង្វាស់	-10.7438
▁0.9.	-10.744
LP	-10.7441
សង់ទីម៉ែត្រ	-10.7442
ឯកឧត្តម	-10.7442
ម្ជុល	-10.7442
ius	-10.7447
យ៉ាងលឿន	-10.7447
ute	-10.7448
ហាងលក់	-10.7448
យេ	-10.7451
ភាពងាយស្រួល	-10.7451
▁LLC	-10.7453
▁Ken	-10.7453
▁ហើយខ្ញុំ	-10.7453
▁ស្រោមដៃ	-10.7454
បន្តផ្ទាល់	-10.7455
▁យើងអាច	-10.7458
ការប្រឡង	-10.7461
ដែលកំពុង	-10.7465
សំរាប់លក់	-10.7466
▁Kak	-10.7468
▁eur	-10.747
ទុន	-10.7475
សាំង	-10.7476
បង្កើតឡើងនៅក្នុង	-10.7482
វិហារ	-10.7483
ត្រូវបានកំណត់	-10.7484
ស្ម័គ្រចិត្ត	-10.7494
▁ច័ន្ទ	-10.7494
繁體	-10.7494
▁បឋមកថា	-10.7495
▁Azure	-10.7495
▁Cloud	-10.7495
▁AVX	-10.7495
តោ	-10.7495
wan	-10.7501
▁Games	-10.7504
ហ៊ូ	-10.7505
met	-10.7506
Count	-10.7506
8.2	-10.7509
Bet	-10.7512
cover	-10.7513
▁Night	-10.7516
ទុយ	-10.7525
cture	-10.7533
ways	-10.7533
សម្រ	-10.7545
▁Chi	-10.7549
ផ្តាច់	-10.755
▁America	-10.7551
▁Boeung	-10.7551
បណ្តោះអាសន្ន	-10.7551
បម្រុងទុក	-10.7552
អ៊ុ	-10.7553
▁មេតា	-10.7554
CDC	-10.7554
▁there	-10.7556
នៅសាកលវិទ្យាល័យ	-10.7556
មេឃ	-10.7557
ផ្សារទំនើប	-10.7561
ឆៅ	-10.7561
rol	-10.7561
រួចរាល់	-10.7563
ដល់អ្នក	-10.7565
▁System	-10.7566
ope	-10.757
▁280	-10.7571
IO	-10.7572
ភាពធន់ទ្រាំ	-10.7573
hn	-10.7573
អាល់	-10.7578
650	-10.758
hard	-10.7583
ណ័	-10.7587
grad	-10.7587
គ្រាន់តែជា	-10.7587
▁សូមចុច	-10.7593
០៥	-10.7594
អាចជួយ	-10.7596
កម្មវិធីរុករក	-10.7596
ព្រះរាជាណាចក្រ	-10.7598
6.8	-10.7602
អ្នកចូលរួម	-10.7602
ឈ្	-10.7602
កាំបិត	-10.7608
អនាម័យ	-10.7608
អ៊ីស្តង់ប៊ុល	-10.7608
▁Akonadi	-10.7608
▁translations	-10.7609
exe	-10.7614
ព្រីន	-10.7615
FP	-10.7624
▁ចំណាត់	-10.7628
អ្វីៗ	-10.7628
ទីបី	-10.763
eats	-10.7632
ប្រមូលផ្តុំ	-10.7632
OU	-10.7634
ទទួលបានជោគជ័យ	-10.7639
ពិល	-10.7641
ៀត	-10.7647
▁ក្រុមការងារ	-10.7647
png	-10.7655
610	-10.766
к	-10.7665
ពេត្រុស	-10.7665
វិសាលភាព	-10.7665
ស្ងាត់	-10.7665
▁TCDD	-10.7665
▁Cryptocurrency	-10.7665
ចោទប្រកាន់	-10.7665
យោធា	-10.7665
លាងសម្អាត	-10.7666
ទាត់	-10.7667
របស់មនុស្ស	-10.7672
ria	-10.7673
ថ្ងៃចន្ទ	-10.7674
▁Materials	-10.7674
9.9	-10.7677
អំ	-10.7677
ហួស	-10.7677
2001	-10.7678
ការច្នៃប្រឌិត	-10.768
ប្រសិនបើអ្នកចង់	-10.7681
បញ្ឈរ	-10.7686
▁Qi	-10.7686
Tag	-10.7687
emb	-10.7688
អស់រយៈពេល	-10.7697
▁India	-10.7705
ដ៏ល្អ	-10.7708
8.00	-10.771
ធ្វើឱ្យទាន់សម័យ	-10.7711
៧០	-10.7713
EF	-10.772
▁spindle	-10.7722
កំណាព្យ	-10.7722
សូន្យ	-10.7722
▁radio	-10.7722
▁Design	-10.7722
▁ខួបលើកទី	-10.7723
PN	-10.7723
សៀរៀល	-10.7723
ឥដ្ឋ	-10.7723
▁225	-10.7723
ឱ្យបាន	-10.7724
េក	-10.7724
ឆ្នេរសមុទ្រ	-10.7728
535	-10.7734
ខ្ល	-10.7737
ត្រូវបានបង្កើត	-10.7739
▁God	-10.7748
▁Tool	-10.775
▁ប្រទេសចិន។	-10.7754
ហ្ស៊	-10.7759
▁Sta	-10.7764
▁320	-10.7768
▁Piece	-10.777
5.4	-10.7776
រួមបញ្ចូលគ្នា	-10.7778
4.2	-10.7778
ipp	-10.7779
គណនេយ្យ	-10.778
លោហធាតុ	-10.778
▁Bophana	-10.778
▁britain	-10.778
talonia	-10.778
▁VOA	-10.778
យុទ្ធសាស្ត្រ	-10.7781
▁Excel	-10.7781
▁trans	-10.7782
ទ្រុង	-10.7782
ហ្សែន	-10.7783
សាំ	-10.7783
សិង្ហបុរី	-10.7784
▁Water	-10.7784
សេរីភាព	-10.7787
ក្រុងព្រះសីហនុ	-10.7791
▁Rob	-10.7792
លើកឡើង	-10.7804
play	-10.7806
="4.9	-10.7808
▁used	-10.781
live	-10.7811
via	-10.7814
០៣	-10.7815
380	-10.7818
យ៉ាងល្អ	-10.782
load	-10.7823
ember	-10.7826
232	-10.7827
សង់	-10.7828
▁គ្	-10.7832
▁មហាវិថី	-10.7837
▁ខោរឹប	-10.7838
в	-10.7838
▁Nokia	-10.7838
នោម	-10.7839
▁forging	-10.7839
អាចទទួលយកបាន	-10.7839
សិប	-10.784
▁gear	-10.7843
▁date	-10.7844
Pieces	-10.7848
▁Cho	-10.7851
▁GBP	-10.7852
ផ្លូវភេទ	-10.7855
ឡង់	-10.7856
ក្នុងទីក្រុង	-10.7858
ការប្រណាំង	-10.7859
០៦	-10.7861
សម្រាប់កុមារ	-10.7861
▁2500	-10.7861
យ៉ាងងាយស្រួល	-10.7862
330	-10.7863
pay	-10.7864
▁ក្នុងករណី	-10.7867
សម្រេចបាន	-10.7868
but	-10.7868
▁Flex	-10.7869
▁សម្	-10.787
នាឡិកា	-10.7872
អឹម	-10.7873
ទស្សន៍	-10.7874
បានកំណត់	-10.7874
▁កូនរបស់	-10.7875
IU	-10.7876
ក្បែរ	-10.7876
បានចុះឈ្មោះ	-10.7876
▁ចុចលើ	-10.788
NO	-10.7882
រាំ	-10.7883
UT	-10.7884
▁ឧបករណ៍ផ្ទុក	-10.7887
▁Nov	-10.7888
750	-10.7892
▁ទោះជាយ៉ាងណា	-10.7892
▁Chang	-10.7893
ម្តាយ	-10.7897
å	-10.7897
ទីក្រុងឡុងដ៍	-10.7897
បាក់តេរី	-10.7897
ស្មោះត្រង់	-10.7897
អុកស៊ីសែន	-10.7897
▁SlotJar	-10.7897
9.8	-10.7899
7.00	-10.79
៩៨	-10.7901
ថាតើ	-10.7901
ានុ	-10.7901
▁make	-10.7902
ភាគខាងត្បូង	-10.7902
ជនបទ	-10.7902
សង្ឃឹមថា	-10.7903
សម្រស់	-10.7903
abi	-10.7907
▁sw	-10.7912
mah	-10.7915
▁Chip	-10.792
ផ្សាយពាណិជ្ជកម្ម	-10.7921
="3.5	-10.7924
hd	-10.7924
ទើប	-10.7925
LAN	-10.7926
្ឋ	-10.7927
▁March	-10.793
ម៉ាត់	-10.7933
ខែមករា	-10.7935
ambo	-10.7936
ចំណត	-10.7937
Hub	-10.7945
007	-10.7946
wood	-10.7949
sky	-10.7953
izer	-10.7954
កត់ត្រា	-10.7956
ម៉ាស៊ូត	-10.7956
សុខាភិបាល	-10.7956
▁Axiata	-10.7956
វាយនភ័ណ្ឌ	-10.7956
▁Nylon	-10.7956
▁cutters	-10.7956
▁ductile	-10.7956
turkey	-10.7956
ស្ទង់	-10.7958
ជាតិខ្លាញ់	-10.796
ដែលដឹកនាំដោយ	-10.7964
▁ហើយវា	-10.7968
លែន	-10.7968
សម្ប	-10.7971
មែនទេ	-10.7971
សូមស្វាគមន៍នៅ	-10.7976
ogen	-10.7978
ដែលបានកំណត់	-10.798
pre	-10.7982
▁ខ្ញុំមិន	-10.7986
តូចមួយ	-10.7991
ក្រាហ្វិក	-10.7995
រដ្ឋមន្រ្តី	-10.7996
▁និមិត្ត	-10.7999
ឆ្នាំថ្មី	-10.8
ឹប	-10.8
គូប	-10.8
ដំណើរទស្សនកិច្ច	-10.8003
ille	-10.8006
ខែកញ្ញា	-10.8008
aka	-10.8008
▁Sur	-10.8012
,000,000	-10.8012
ស្រាបៀរ	-10.8015
▁លើសពីនេះទៀត	-10.8015
សន្ទនា	-10.8015
▁Study	-10.8015
▁Italy	-10.8015
▁Copyright	-10.8015
▁កាលវិភាគ	-10.8016
អាចទទួលបាន	-10.8018
▁=”	-10.8024
▁ការបង្ហាញ	-10.8027
ona	-10.8031
▁365	-10.8035
ប្រជាប្រិយ	-10.8035
ចាញ់	-10.8038
ជាប្រធាន	-10.8039
tation	-10.8042
▁1/2	-10.8043
ហុង	-10.8048
UM	-10.8048
▁Blog	-10.805
គ្រឿងអលង្ការ	-10.8051
ជីក	-10.8055
hand	-10.8061
ដែលទាក់ទង	-10.8061
ប័ត្រ	-10.8062
សម្បទា	-10.8063
សើម	-10.8065
រំលោភ	-10.8074
zambia	-10.8074
í	-10.8074
តៃវ៉ាន់	-10.8074
▁Sathapana	-10.8074
▁Karnar	-10.8074
▁ព្រីនធឺ	-10.8074
សំណព្វ	-10.8074
2005-2018	-10.8075
▁RFID	-10.8075
រំលាយ	-10.8076
▁MacBook	-10.8076
ឆបគ្នា	-10.8085
ប្រយោជន៍	-10.8087
kar	-10.809
ក្នុងផ្ទះ	-10.8093
▁KTM	-10.8098
="2.5	-10.8101
▁ក្នុងកា	-10.8103
វ៉ាល់	-10.8104
ART	-10.8106
Class	-10.8107
៣៨	-10.8113
្វា	-10.8113
សមតុល្យ	-10.8119
ឃាត	-10.812
▁HTTP	-10.8121
ប្រវត្តិ	-10.8123
6.4	-10.8129
til	-10.8131
▁ករណីថ្ម	-10.8132
▁translation	-10.8133
កាតូលិក	-10.8134
សិប្បកម្ម	-10.8134
ជេកផត	-10.8134
▁Firefox	-10.8134
▁Pongee	-10.8134
▁Teflon	-10.8134
desktop	-10.8134
spain	-10.8135
▁Charles	-10.8135
GHz	-10.8137
ផែ	-10.8138
ក្រៅប្រទេស	-10.8139
មាន់	-10.8141
▁1,5	-10.8142
ចំណងជើង	-10.8142
9.7	-10.8147
▁Vis	-10.8147
▁Fort	-10.8148
▁Net	-10.8148
ពណ៌ខ្មៅ	-10.8151
ណាន	-10.8155
ទ្រី	-10.816
អ្នកនឹងទទួលបាន	-10.8164
ចន	-10.8167
▁ជ្រើសជម្រើស	-10.8168
ប៉ុ	-10.8171
ចង្	-10.8181
២០១៩	-10.8181
5.6	-10.8181
ម៉ង់	-10.8183
ប្រទេសបារាំង	-10.8184
កែសម្រួល	-10.819
អ័ក្ស	-10.8191
អាឡឺម៉ង់	-10.8194
▁OpenPGP	-10.8194
▁Việt	-10.8194
▁Spain	-10.8195
ដុង	-10.8195
▁Pocket	-10.8204
ដែលមិនមែនជា	-10.8206
គិតថ្លៃ	-10.8207
It	-10.8212
▁Villa	-10.8212
▁Case	-10.8215
ខ្ញុំមាន	-10.8225
ចុងក្រោយនេះ	-10.823
ការចែកចាយ	-10.8233
ដើម្បីមើល	-10.8234
ដែលត្រូវបានគេ	-10.8237
4.3	-10.824
isa	-10.8249
PH	-10.825
▁ជាពិសេស	-10.8251
កាប់	-10.8254
У	-10.8255
ជណ្តើរ	-10.8255
【	-10.8255
▁welded	-10.8255
បន្ទះឈីប	-10.8255
ទៀងទាត់	-10.8255
power	-10.8256
ប៉ែន	-10.8257
ភាគខាងជើង	-10.826
ទិស	-10.8261
paper	-10.8264
កូរ៉េខាងត្បូង	-10.8265
ែប	-10.8265
ក្ស	-10.8271
ក្រាស់	-10.8273
▁JIS	-10.8275
.0.1	-10.8277
▁Of	-10.8277
▁ABS	-10.828
▁Hong	-10.828
មិនទាន់	-10.8282
▁size	-10.8283
▁Dan	-10.8285
វិមាន	-10.8286
ស្ថេរភាព	-10.8288
មានជ័យ	-10.8288
ការប្រមូល	-10.8291
ក្នុងមួយឆ្នាំ	-10.8294
▁1,0	-10.8301
ផ្ទៃក្នុង	-10.8304
0059	-10.8304
▁Heat	-10.831
ព្រោះ	-10.831
App	-10.831
ផ្សេង	-10.8313
▁ខ្ញុំនឹង	-10.8315
សម្ងួត	-10.8316
វិជ្ជា	-10.8316
▁Council	-10.8316
▁ចំណោម	-10.8316
】	-10.8316
ពោត	-10.8316
ម្សិលមិញ	-10.8316
រលូន	-10.8316
យ៉ាងដូចម្តេច	-10.8318
stand	-10.8318
ENG	-10.8318
~	-10.832
ថ្ងៃសៅរ៍	-10.8321
ម្ហូប	-10.8323
ស្បែកជើង	-10.8324
ដែលត្រូវការ	-10.8327
2004	-10.833
▁(5)	-10.8332
rust	-10.8336
ញឹកញាប់	-10.8336
▁Char	-10.8338
ជាសមាជិក	-10.834
៣២	-10.8345
យន្តហោះឯកជនក្រុ	-10.8346
165	-10.8346
abel	-10.8349
="3.6	-10.835
spec	-10.8354
gest	-10.8355
នៃផលិតផល	-10.8355
produc	-10.8356
ump	-10.8359
%80%	-10.8361
ប្រោ	-10.8363
ិល	-10.8365
ខ្លាញ់	-10.8373
▁បានបង្ហាញ	-10.8374
Power	-10.8376
តែង	-10.8376
សម័យចុងក្រោយនៅលើ	-10.8377
ទីប្រជុំជន	-10.8377
កសិករ	-10.8377
ចតុកោណ	-10.8377
ជ្រូក	-10.8377
មគ្គុទេសក៍	-10.8377
▁Psiphon	-10.8377
▁NEWS	-10.8377
▁2.2	-10.8381
ប៊ិចផ្សព្វផ្សាយ	-10.8382
="0.8	-10.8383
អាចមាន	-10.8383
1-2	-10.8384
កណ្ដាល	-10.8386
សមាសភាគ	-10.8386
លក្ខណៈសម្បត្តិ	-10.8387
▁កម្មវិធីជំនួយ	-10.8387
១៣	-10.8389
▁ទូរសារលេខ	-10.839
pass	-10.8392
របារ	-10.8396
៥៦	-10.8398
▁ការជំនួសថ្ម	-10.8399
lift	-10.8408
▁ទង	-10.8409
ដ៏សំខាន់	-10.8413
▁Sany	-10.8417
UB	-10.8418
ការបញ្ជូន	-10.8429
got	-10.8434
▁មិនឃើញ	-10.8436
ពាណិជ្ជ	-10.8437
ព្យាករ	-10.8438
កម្តៅ	-10.8439
ក្រឡាចត្រង្គ	-10.8439
មហ៊ុនជួលសេវាកម្ម	-10.8439
▁engraving	-10.8439
ការតាំងពិព័រណ៍	-10.8439
ភួយ	-10.844
ែករំលែកអត្ថបទនេះ	-10.844
▁ផ្នែកទី	-10.8442
▁ធាតុក្រាហ្វិក	-10.8443
▁Blue	-10.8444
4000	-10.8445
ubb	-10.8446
▁អ្នកទស្សនា	-10.8451
យ៉ាងច្បាស់	-10.8455
RY	-10.8456
-03-	-10.8457
▁Medi	-10.8459
ស្ថិត	-10.846
នៅប្រទេសចិន	-10.8461
▁Feb	-10.8467
Ti	-10.8468
asia	-10.8472
7.8	-10.8475
drive	-10.8481
2.6	-10.8483
សប្បាយរីករាយ	-10.8486
បញ្ហាទូរស័ព្ទ	-10.8494
បែងចែក	-10.85
▁Rock	-10.8501
▁February	-10.8501
▁multi	-10.8501
▁២០០៨	-10.8501
arques	-10.8502
▁GTA	-10.8502
▁អាគុយម៉ង់	-10.8502
▁Jackpot	-10.8502
ស្ដីពី	-10.8502
="22	-10.8503
▁Sony	-10.8506
ទស្ស	-10.8508
ការផ្តល់ជូនពិសេស	-10.8518
ទ្វេ	-10.8521
សព	-10.8523
ouch	-10.8525
OB	-10.8528
="3.4	-10.8528
adm	-10.8529
="2.3	-10.8531
CHF	-10.8534
សាស្រ្ត	-10.8545
▁0001	-10.8553
ហោប៉ៅ	-10.8564
▁Microfiber	-10.8564
duct	-10.8564
▁ដំណឹងល្អ៖	-10.8565
ផ្ទុះ	-10.8565
ប្រេងឥន្ធនៈ	-10.8565
បន្លំ	-10.8566
បន្ថយ	-10.8568
▁short	-10.8568
រៀងរាល់	-10.8569
pu	-10.8569
សំណាក	-10.857
▁Euro	-10.8572
ett	-10.8574
ក្រុមការងារ	-10.8574
គាំទ្រដល់	-10.858
ulator	-10.8584
និងបច្ចេកវិទ្យា	-10.8586
ថ្នាំលាប	-10.8588
រទេះ	-10.8588
god	-10.859
▁Fla	-10.8591
▁mode	-10.8594
ទំព័រដើម	-10.8595
ដោយគ្មានការ	-10.8595
▁Wei	-10.8597
បាប	-10.8602
▁Over	-10.8603
▁Back	-10.861
NY	-10.8611
AU	-10.8612
Phone	-10.8619
201	-10.8625
ឃ្មុំ	-10.8627
ព័រទុយហ្គាល់	-10.8627
ស្ថិរភាព	-10.8627
រដ្ឋធានី	-10.8627
▁គំនិតសាក់រូប	-10.8627
▁Version	-10.8627
ទីធ្លា	-10.8627
បំលែង	-10.8628
ម្រាមដៃ	-10.8628
របស់ធនាគារ	-10.8628
▁សុខុន	-10.8628
Rider	-10.8629
▁Zhong	-10.8629
ជាថ្មីម្តងទៀត	-10.8631
ការផ្ទេរ	-10.8632
3.9	-10.8632
bol	-10.8633
▁លោកបណ្ឌិត	-10.8644
india	-10.8646
yu	-10.8656
▁ប្រសិនបើឧបករណ៍	-10.866
change	-10.8671
trac	-10.8671
▁ចុងក្រោយពី	-10.8681
KN	-10.8681
ខែតុលា	-10.8682
កម្រិតសំឡេង	-10.8683
iva	-10.8689
ជឿជាក់	-10.869
បរិច្ចាគ	-10.869
▁Baijiu	-10.869
▁europa	-10.869
វ៉ែនតា	-10.869
▁MYHH	-10.869
ដែលមានស្រាប់	-10.869
▁Schwing	-10.8691
▁also	-10.8692
ELEX	-10.8692
▁សូមច	-10.8693
ឈ្នះពានរង្វាន់	-10.8694
▁3/4	-10.8694
ម៉ៅ	-10.8695
="0.0	-10.8696
lam	-10.8698
▁equi	-10.8699
និមិត្តសញ្ញា	-10.8701
1500	-10.8702
▁Maxi	-10.8702
ចៀម	-10.8702
▁170	-10.8705
ឆក់	-10.8707
វ៉ាន់	-10.8708
ផ្សេងៗទៀត	-10.871
ដែលប្រើ	-10.8713
ខែមេសា	-10.8722
សារមន្ទីរ	-10.8723
TW	-10.8726
សេន	-10.8734
tle	-10.8736
="3.3	-10.874
▁Wave	-10.874
បរិភោគអាហារ	-10.8741
សាស្ដ្រ	-10.8744
▁MO	-10.8745
បុក	-10.8749
សមា្ភារៈ	-10.8754
▁កាតាឡុក	-10.8754
▁iPod	-10.8754
បន្ទាយ	-10.8754
បណ្ដោះអាសន្ន	-10.8754
ppbag	-10.8755
លោហៈធាតុ	-10.8756
ដែលអ្នកបាន	-10.8758
បានផ្តល់	-10.876
FT	-10.8761
អនុប្រធាន	-10.8762
▁1.3	-10.8763
បាស	-10.8764
បានធ្វើឱ្យ	-10.8769
ឡែក	-10.8771
ការសាងសង់	-10.8771
max	-10.8774
69"	-10.8775
icker	-10.8777
យ៉ាងពេញលេញ	-10.8779
ប៉ាក់	-10.8781
nan	-10.8783
nam	-10.8785
ជម្រះ	-10.879
ឆ្លើយ	-10.8791
ញា	-10.8792
ពូល	-10.8792
ដុល្លា	-10.8792
008	-10.8794
NI	-10.8796
006	-10.8801
រៈ	-10.8806
១៤	-10.8806
UP	-10.8807
▁(%)	-10.8807
▁1999	-10.8807
▁Sub	-10.8808
ចរាចរ	-10.8817
យ៉ាម៉ាហា	-10.8817
មានព្រះបន្ទូល	-10.8818
thailand	-10.8818
ចំណាប់អារម្មណ៍	-10.8818
ជិតស្និទ្ធ	-10.8818
ស្នាដៃ	-10.8818
▁Phsar	-10.8818
វើ	-10.8818
បំរើ	-10.8818
រំញ័រ	-10.8818
អាចបត់បែនបាន	-10.8819
General	-10.8819
ផ្តាច់មុខ	-10.8819
▁WiFi	-10.8819
សំរាប់ភ្ញៀវ	-10.882
៥៥	-10.882
កំដៅភាពយន្ត	-10.8823
point	-10.883
ម៉ាឡេស៊ី	-10.8832
ការនាំចេញ	-10.8843
▁បានបរាជ័យ	-10.8845
▁Park	-10.8848
យក្ស	-10.885
ជជែក	-10.8855
តុង	-10.8856
ខែកុម្ភៈ	-10.8859
ម៉ូឌុល	-10.8859
ទាយ	-10.8863
ភិ	-10.8864
▁dev	-10.8866
Form	-10.8867
Plus	-10.8873
EI	-10.8874
lower	-10.8875
ខ្វ	-10.8878
ពុម្ព	-10.8879
បត់បែន	-10.8881
សង្ស័យ	-10.8882
កំពស់	-10.8882
ប្រហាក់ប្រហែល	-10.8882
▁ethereum	-10.8882
▁Street	-10.8882
▁អង្គចងចាំ	-10.8882
▁Option	-10.8884
អន្តរកម្ម	-10.8884
bay	-10.8888
សែល	-10.8891
▁III	-10.8891
ពាក្យបញ្ជា	-10.8895
▁(6)	-10.8895
hack	-10.8901
ដែលមានល្បឿនលឿន	-10.8907
▁translated	-10.8914
សហការជាមួយ	-10.8916
▁Nano	-10.8916
road	-10.8919
▁ext	-10.8924
ម្ភ	-10.8925
3000	-10.8927
ហ្សេ	-10.8928
▁CPA	-10.893
ជាតិដែក	-10.894
▁Ram	-10.8941
ខ្លាឃ្មុំ	-10.8942
ហាន	-10.8943
respond	-10.8947
ម៉ូឌែល	-10.8947
▁NYE	-10.8948
▁រើស	-10.8948
▁ទាក់	-10.8949
រោម	-10.895
active	-10.895
មនុស្សម្នាក់	-10.8951
២១	-10.8955
cell	-10.8957
304	-10.8959
2,000	-10.8959
▁Drive	-10.896
ម៉ៃ	-10.8964
រើ	-10.8966
សម្រាប់អតិថិជន	-10.8968
អតិ	-10.8969
មែន	-10.8976
867	-10.8976
ស្ព	-10.8977
shell	-10.8981
▁ការអាន	-10.8983
▁Shop	-10.8989
ដោយផ្អែកលើ	-10.8992
ចុះហត្ថលេខា	-10.8995
អង្គរ	-10.8999
បំណែក	-10.8999
waters	-10.9
បានជួប	-10.9002
istic	-10.9003
▁(3.5	-10.9003
▁650	-10.9005
ដូរ	-10.9005
7.6	-10.9006
OH	-10.9007
ការវិភាគ	-10.901
គ្រី	-10.901
rill	-10.9012
បកស្រាយ	-10.9013
puerto	-10.9013
кра	-10.9013
សួនច្បារ	-10.9013
ស្នេហា	-10.9013
▁Business	-10.9013
▁discuss	-10.9013
▁មីលីលីត្រ	-10.9013
បេក្ខជន	-10.9013
▁Software	-10.9013
▁December	-10.9013
▁BMW	-10.9014
នាយករដ្ឋមន្រ្តី	-10.9015
ខែឧសភា	-10.9016
ism	-10.9018
170	-10.9018
107	-10.9018
xml	-10.9019
did	-10.902
▁IR	-10.902
ហាក់ដូចជា	-10.902
ច្រាន	-10.9021
67"	-10.9023
7.9	-10.9026
huang	-10.9026
▁Bl	-10.9027
blog	-10.9027
សន្មត	-10.9028
charter	-10.9033
គែម	-10.9034
ដឺ	-10.9034
ចន្ទ	-10.9038
ពល	-10.9039
នៅលីវ	-10.9039
ញ័រ	-10.9041
នឹងធ្វើ	-10.9042
ខេម	-10.9043
វែ	-10.9044
ភាពបរិសុទ្ធ	-10.9047
4.9	-10.9047
▁Tom	-10.9053
▁ដាន	-10.9062
បើយោងតាម	-10.9064
="4.1	-10.9068
▁ក្រៅពី	-10.9069
▁អូរ	-10.9069
ការស្វែងរក	-10.9069
▁sur	-10.9072
RF	-10.9072
កង់អគ្គិសនី	-10.9075
មួយផ្សេងទៀត	-10.9077
account	-10.9078
cryptocurrencies	-10.9078
с	-10.9078
▁WIFI	-10.9078
▁តម្បៀត	-10.9078
កន្ទុយ	-10.9078
1-3	-10.908
នៅប្រទេស	-10.9083
ពត	-10.9083
ESS	-10.9086
ដ្យូ	-10.9087
▁under	-10.9088
olone	-10.9089
▁012	-10.9092
អនុញ្ញាតឱ្យអ្នក	-10.9093
បានអនុម័ត	-10.9093
ដែនកំណត់	-10.9094
ចូវ	-10.9094
ការចេញផ្សាយ	-10.9096
វេន	-10.9103
ពង	-10.9105
▁បូកថ្ម	-10.9108
៤៥	-10.9109
បាញ់ទឹក	-10.9109
▁ការចាប់ផ្តើម	-10.9109
ការី	-10.9111
អនុវត្តតាម	-10.9119
ាញ់	-10.912
វ៉ូ	-10.9121
▁YH	-10.9122
550	-10.9123
Share	-10.9131
▁Van	-10.9132
ផ្លែប៉ោម	-10.914
ម៉ឺនុយ	-10.914
តាមទូរស័ព្ទ	-10.9141
ថាមវន្ត	-10.9145
support	-10.9145
▁រាប់អំបោះ	-10.9145
ពាណិជ្ជករ	-10.9145
លីង	-10.9146
lad	-10.9146
ព្រៃឈើ	-10.9147
ដោះ	-10.9151
មានការគៀប	-10.9156
ឆ្នាំមុន	-10.9159
ហ្វាយ	-10.9159
សម្រាក	-10.916
ប៊ែ	-10.9166
166	-10.9167
កន្លែងអង្គុយ	-10.9168
មន្ទីរ	-10.9176
ិយ	-10.9178
ឡាក់	-10.9179
ម៉ាយ	-10.918
dec	-10.9183
ជាមួយគ្នា	-10.9184
ជ័យ	-10.9193
face	-10.9193
ផ្សេងៗគ្នា	-10.9195
eek	-10.92
weet	-10.92
រីករាយជាមួយ	-10.9202
៣៥	-10.9203
តេស្ត	-10.9204
elli	-10.9209
ផ្អែម	-10.9211
нська	-10.9211
ក្តារចុច	-10.9211
មោទនភាព	-10.9211
សម្ផស្ស	-10.9211
▁extruded	-10.9211
ហឺប៉ី	-10.9211
សំដៅ	-10.9211
function	-10.9211
ភោជនីយដ្ឋាន	-10.9212
0-2	-10.922
ផ្កាយ	-10.9221
ស្មើនឹង	-10.9223
rac	-10.9225
▁XXL	-10.9226
ការនិយាយ	-10.923
អ្នកស្រាវជ្រាវ	-10.9234
ខែមិថុនា	-10.9235
▁Cash	-10.9237
ហោ	-10.9238
▁វាអាច	-10.9241
2.4	-10.9242
3.2	-10.9242
tip	-10.9258
ជាក្រុម	-10.926
មិត្តភាព	-10.9263
5.8	-10.9264
="34	-10.9268
33"	-10.9271
បណ្តុះ	-10.9278
ក្វាងចូវ	-10.9278
បរិយាកាស	-10.9278
▁plain	-10.9278
▁Roller	-10.9279
ឆ្ពោះ	-10.9279
យោងទៅតាម	-10.9279
្យូ	-10.9279
ង្ក	-10.9281
love	-10.9282
▁SAE	-10.9282
="4.7	-10.9293
▁XP	-10.9293
="32	-10.9295
Edit	-10.9296
ចែង	-10.9299
ប្រកាន់	-10.9299
ជ្រើសយក	-10.93
data	-10.9304
Start	-10.9306
នៅខាងក្នុង	-10.9315
EST	-10.932
ផ្លាស់ទី	-10.9322
តំបន់បណ្ដាញ	-10.9325
បទបញ្ជា	-10.9325
▁June	-10.9327
ផង	-10.9337
div	-10.9338
អ្នកគ្រប់គ្រង	-10.934
ចាត់ទុក	-10.9342
ក្លាយទៅជា	-10.9344
uploads	-10.9346
ក្រឹត្យ	-10.9346
ទួរគី	-10.9346
zimbabwe	-10.9346
▁Agriculture	-10.9346
▁Limited	-10.9346
កម្មវិធីនិពន្ធ	-10.9346
▁DRK	-10.9346
▁after	-10.9346
tudio	-10.9347
bike	-10.9347
japan	-10.9347
▁ស៊ុន	-10.9347
▁3.2	-10.9348
ONE	-10.935
ជាចម្បង	-10.9353
±	-10.9356
ឯ	-10.9357
POS	-10.9361
២០១០	-10.9362
HY	-10.9368
ដ្យ	-10.9371
▁ក៏ដូចជា	-10.9372
▁Full	-10.938
▁char	-10.9382
្លង់	-10.9385
ពូក	-10.9386
004	-10.9388
rum	-10.9392
ful	-10.9395
មានប្រសិទ្ធភាព	-10.9396
direct	-10.9396
▁1080	-10.9398
ERS	-10.9401
▁បរិច្ឆេទ	-10.9414
▁យូនីកូដ	-10.9414
▁images	-10.9414
XXX	-10.9414
▁(2015)	-10.9415
llen	-10.9416
គ្មានការ	-10.9417
▁ទង់	-10.9418
ហេដ្ឋារចនាសម្ព័ន	-10.9422
គ្រា	-10.9425
ណែត	-10.9425
▁only	-10.9426
ington	-10.9426
ហេតុការណ៍	-10.9427
អ្វីខ្លះ	-10.9433
003	-10.9433
0.2	-10.9436
▁មតិព័ត៌មាន	-10.9437
ដាក់ពាក្យ	-10.9443
មានស្ថេរភាព	-10.9445
Coin	-10.9447
▁big	-10.9457
ចាក់ថ្នាំ	-10.9462
▁Meta	-10.9464
ញ៉ូ	-10.9465
០៤	-10.9465
មានសមត្ថភាព	-10.9468
អាចនឹង	-10.9471
0-3	-10.9475
▁មានតែ	-10.9475
rim	-10.9482
វិថី	-10.9482
Plugin	-10.9482
▁AASraw	-10.9482
▁KOrganizer	-10.9482
▁Solomons	-10.9482
▁Startup	-10.9483
▁cups	-10.9483
ឆាក	-10.9486
៥២	-10.9486
កីឡាបាល់ទាត់	-10.9487
ida	-10.9494
ខ្ញុំពិតជា	-10.9495
ដុំថ្ម	-10.9496
កំពុងតែ	-10.9496
▁KHR	-10.9501
13"	-10.9501
ឡិច	-10.9501
សិល្បករ	-10.9503
ស្រ្តី	-10.9503
apk	-10.9505
គេច	-10.9507
បូរ	-10.9511
ដែលមានអាយុ	-10.9516
ការសម្ដែង	-10.9523
DU	-10.9525
-06-	-10.953
▁QC	-10.9536
ោងចក្រផ្គត់ផ្គង់	-10.9536
ព្យ	-10.9537
ទៅឱ្យ	-10.954
path	-10.954
បណ្តុះបណ្តា	-10.9544
សរសៃ	-10.9548
INE	-10.9548
ជម្មើសជំនួស	-10.9551
▁Estate	-10.9551
▁ដ្ឋានស្នាក់នៅ	-10.9551
▁PostScript	-10.9552
vet	-10.9552
▁interface	-10.9552
▁ត្រង	-10.9553
ញៀន	-10.9554
តាន	-10.9555
ការ៉ា	-10.956
▁Audi	-10.956
ür	-10.9565
uge	-10.9572
turn	-10.9573
ភីកសែល	-10.9576
ទិដ្ឋាការ	-10.9577
រង្វង់	-10.9577
នាគ	-10.9577
សម្ពាធខ្ពស់	-10.9582
▁IT	-10.9582
របាំង	-10.9584
▁ការេ	-10.9588
▁Site	-10.9603
គោល	-10.9604
ដែលអ្នកអាច	-10.9608
▁Lan	-10.9609
ឡើយ។	-10.9614
ស្រេច	-10.962
អក្ខរាវិរុទ្ធ	-10.9621
▁Explorer	-10.9621
▁Genotropin	-10.9621
▁Patrick	-10.9621
▁Python	-10.9621
▁cavitation	-10.9621
▁Torrent	-10.9621
ពន្លា	-10.9621
▁conveyor	-10.9621
▁csgo	-10.9621
មានតំលៃថោក	-10.9621
▁លូកា	-10.9622
ដោយឥតគិត	-10.9622
ចំណី	-10.9624
គួ	-10.9624
▁ZLP	-10.9625
សល់	-10.9628
គ្មានថ្នេរ	-10.9628
▁Rental	-10.9631
▁ចុះថ្ងៃទី	-10.9632
បោក	-10.9634
រយៈ	-10.9634
xBet	-10.9637
▁who	-10.964
តុន	-10.9641
ទាន់សម័យ	-10.9642
▁Mary	-10.9643
stone	-10.9646
—	-10.9649
ទម្លាក់	-10.9651
ជំនុំ	-10.9652
ស្ទ្រីម	-10.9657
cut	-10.9659
▁2001	-10.9659
bert	-10.9663
ស៊ែ	-10.9665
zip	-10.9668
▁Dong	-10.9673
8.8	-10.9678
PCS	-10.9684
▁ទូទាំង	-10.9688
ដំបង	-10.9689
គីឡូវ៉ាត់	-10.9691
▁CAPTCHA	-10.9691
Message	-10.9691
▁settings	-10.9691
ក្តាប់	-10.9691
អំបោះ	-10.9691
ស្គរ	-10.9691
▁Frank	-10.9691
ចារកម្ម	-10.9692
LX	-10.9693
ION	-10.9694
server	-10.9696
ការេ	-10.9696
បោះចោល	-10.9698
ផ្ទេរប្រាក់	-10.9702
ខ្ញុំអាច	-10.9705
ឯកជនភាព	-10.9705
hong	-10.9706
Love	-10.9706
fit	-10.9711
106	-10.9712
ប្រាំបី	-10.9718
▁២០០០	-10.9727
▁ATV	-10.973
kim	-10.9739
59"	-10.9751
ដោះស្រាយបញ្ហា	-10.9751
cheng	-10.9757
national	-10.976
ជាជម្រើស	-10.9761
កំពង់	-10.9761
▁ចុះអ័ព្វ	-10.9761
នាំមកនូវ	-10.9761
▁George	-10.9761
ស្មៅ	-10.9761
វះកាត់	-10.9761
▁អង្គារ	-10.9761
ខ្វះចន្លោះ	-10.9761
ស្នប់	-10.9761
▁បង្កប់	-10.9762
58"	-10.9763
smart	-10.9763
ូមស្វាគមន៍មកកាន់	-10.9763
អភិវឌ្ឍន៍ជនបទ	-10.9763
▁ម៉ុង	-10.9763
hal	-10.9763
unk	-10.9767
round	-10.9768
ature	-10.9773
រឿងនេះ	-10.9773
▁CAPM	-10.9777
bia	-10.9781
▁Link	-10.9784
ទទួលខុសត្រូវ	-10.9792
ចុងបញ្ចប់	-10.9792
អាំង	-10.9798
zu	-10.98
ត្រេ	-10.9804
អ្នកលេង	-10.9805
▁1800	-10.981
ទោះបី	-10.9812
ខែកក្កដា	-10.9812
9.3	-10.9812
rest	-10.982
ឧបសគ្គ	-10.9832
▁ដ្បិត	-10.9832
mission	-10.9832
អត់ធ្មត់	-10.9832
▁Admiral	-10.9832
▁Columbia	-10.9832
▁Preemie	-10.9832
▁WordPress	-10.9832
process	-10.9832
▁FREE	-10.9832
▁ITIL	-10.9833
▁(855)	-10.9833
oceani	-10.9833
195	-10.9834
▁304	-10.9835
▁Tags	-10.9838
▁Roger	-10.9838
▁ពីព្រោះ	-10.9845
ខ្សែកាប	-10.9846
ការលេង	-10.9849
ធន់ទ្រាំនឹង	-10.9856
▁Warin	-10.9856
▁col	-10.9859
▁Show	-10.986
តន្រ្តី	-10.9863
-05-	-10.9865
etter	-10.9865
rule	-10.9867
say	-10.987
ហ្សូ	-10.9877
សង្កត់	-10.9878
▁PHP	-10.9883
ក្រោយមក	-10.9884
Main	-10.9884
aver	-10.9885
និងច្រើនទៀត	-10.9896
បានកើតឡើង	-10.9898
នៅក្នុងប្រទេសចិន	-10.99
▁blo	-10.9901
institut	-10.9904
ព្រូដិនសល	-10.9904
ជំទង់	-10.9904
ផ្តួចផ្តើម	-10.9904
▁Istanbul	-10.9904
▁Peugeot	-10.9904
សប្បុរស	-10.9904
បង្គរ	-10.9904
រារាំង	-10.9904
▁Texas	-10.9904
ព្រះបាទ	-10.9904
ត្រៀមលក្ខណៈ	-10.9904
សារធាតុរំលាយ	-10.9905
ការធ្លាក់ចុះ	-10.9906
នាំមុខគេ	-10.9906
ការស៊ើបអង្កេត	-10.9906
នៃការប្រើប្រាស់	-10.9911
▁Hand	-10.9912
ប៊ែល	-10.9913
▁(7)	-10.9922
%84	-10.9925
ector	-10.9927
▁bas	-10.993
▁Opera	-10.993
▁Rod	-10.9931
អ្	-10.994
ឱ្យខ្ញុំ	-10.9941
▁UL	-10.9944
▁CSS	-10.9947
This	-10.9956
វ័	-10.9962
ចុចលើ	-10.9962
ផលិតផលដែលមាន	-10.9963
▁មិនត្រឹមត្រូវ	-10.9964
▁Hua	-10.9968
00$	-10.9968
ទស្សនកិច្ច	-10.9969
ប្រឌិត	-10.9975
romania	-10.9975
គម្លាត	-10.9975
ស្ស៊ីជាចុង	-10.9975
▁January	-10.9975
▁Murphy	-10.9975
▁October	-10.9975
ខេត្តសៀមរាប	-10.9975
អាចធ្វើទៅបាន	-10.9975
lombia	-10.9976
▁ខណ្ឌចំការមន	-10.9976
▁Life	-10.9976
Search	-10.9976
ccess	-10.9977
ល្បាយ	-10.9977
▁អំពីវិបសាយ	-10.9978
បក្សី	-10.9978
ដែលមានទំហំធំ	-10.9978
flu	-10.9982
ជិតខាង	-10.9988
កុន	-10.9988
ឆែក	-10.9989
ម្ខាង	-10.999
-2-	-10.9998
ជឿថា	-11.0005
▁Flight	-11.0007
motor	-11.0009
ការជូនដំណឹង	-11.001
ការផ្គត់ផ្គង់	-11.0015
ត្រីមាសទី	-11.0016
ចាកចេញពី	-11.0016
គ្រីស្ទ	-11.002
uni	-11.002
ការបកប្រែ	-11.0021
ស៊ាំ	-11.0022
ដាក់ឈ្មោះ	-11.0023
ស៊ុល	-11.003
ម៉ូលេគុល	-11.0032
ផេ	-11.0033
ជំពូក	-11.0034
លាននាក់	-11.0038
ភាសាបារាំង	-11.0039
ការថែទាំ	-11.0043
west	-11.0044
ទីប្រឹក្សា	-11.0044
វិធានការ	-11.0048
គ្រឿងសំអាង	-11.0048
អាវុធ	-11.0048
ម៉ាញេទិច	-11.0048
ស្តេច	-11.0048
▁Voice	-11.0048
Changeset	-11.0048
▁Charger	-11.0049
អំណោយទាន	-11.0049
▁Flash	-11.005
▁ICT	-11.005
កន្លងមក	-11.0052
-02-	-11.0052
▁Cas	-11.0053
uter	-11.0053
កូនចៅ	-11.0053
អ្នកជំនួញ	-11.0054
ដុះ	-11.0056
ជាច្រើនដូចជា	-11.0061
ពិភាក្សាអំពី	-11.0065
RV	-11.0066
325	-11.0069
ASS	-11.007
▁Word	-11.0074
ServerName	-11.0082
7.7	-11.0088
04"	-11.009
49"	-11.0093
ពុក	-11.0094
នគរ	-11.0097
9.6	-11.0104
ហឺ	-11.0106
រលាក	-11.0109
Tech	-11.0112
ខណៈពេលដែល	-11.0113
yuan	-11.0114
ira	-11.0114
▁ចង្អុល	-11.0115
suit	-11.0115
បានផ្ដល់អនុសាសន៍	-11.0116
6.6	-11.0119
ភិចសែល	-11.0121
សុន្ទរកថា	-11.0121
ផលិតផលធ្វើពីជ័រ	-11.0121
▁Avenger	-11.0121
▁Mastercard	-11.0121
▁សមកាលកម្ម	-11.0121
▁RoHS	-11.0121
screen	-11.0121
▁គុណលក្ខណៈ	-11.0122
care	-11.0124
cher	-11.0125
តម្រូវឱ្យមាន	-11.0125
កាន់កាប់	-11.0128
▁តើខ្ញុំអាច	-11.0128
មានអាយុ	-11.0131
▁slot	-11.0131
%93	-11.0134
▁UTC	-11.0134
ជាសកល	-11.0137
HP	-11.0142
▁ចាស	-11.0144
You	-11.0145
ក្នុងវិស័យ	-11.015
អ្នកអភិវឌ្ឍន៍	-11.015
ក្ដី	-11.0151
ត្រូវបានដាក់	-11.0152
ចៅ	-11.0158
ova	-11.0158
ាញ	-11.0172
ត្រូវបានរកឃើញ	-11.0176
ដោយជោគជ័យ	-11.0177
ទូល	-11.0188
ហេតុអ្វីបានជា	-11.019
ç	-11.0194
BREAKING	-11.0194
ដំបូន្មាន	-11.0194
សីតុណ្ហាភាព	-11.0194
▁ពុធ	-11.0194
▁មែកធាង	-11.0194
▁Sigma	-11.0195
អាតូម	-11.0195
▁textbox	-11.0195
អ្នកគួរតែ	-11.0195
សណ្តែក	-11.0195
▁Hebei	-11.0195
និងដូច្នេះនៅលើ	-11.0195
▁ត៌	-11.0196
▁Router	-11.0197
▁Film	-11.0197
ម៉ាញ៉េ	-11.0197
Order	-11.0198
ក្នុងមួយសប្តាហ៍	-11.0198
▁Robert	-11.0198
kes	-11.0205
▁Martin	-11.0206
ចាប់តាំងពីឆ្នាំ	-11.0206
cks	-11.0207
ខ្លុយ	-11.0208
month	-11.0209
="4.6	-11.0213
ខែវិច្ឆិកា	-11.0214
បញ្ជ	-11.0219
ODC	-11.0219
ជុំទី	-11.0221
Size	-11.0223
ជាមួយលក្ខណៈពិសេស	-11.0228
ត្ដ	-11.0231
លំនាំជា	-11.0236
="5.0	-11.0236
៧៥	-11.0244
NU	-11.025
តស៊ូ	-11.0251
="31	-11.0252
GR	-11.0252
ចាប់ពីម៉ោង	-11.0256
him	-11.0259
▁ផ្លូវការ	-11.026
▁00100	-11.0264
គូស	-11.0265
ប្រភពដើម	-11.0265
RPM	-11.0266
កំសាន្តតាម	-11.0267
រីកលូតលាស់	-11.0269
▁យូនីក	-11.0269
សំឡីកែវ	-11.0269
▁Chroy	-11.0269
អុកស៊ីត	-11.0269
មេឌៀ	-11.0269
ព័ត៍មាន	-11.0269
ភាគរយ	-11.027
▁វាត្រូវបានគេ	-11.0272
8.9	-11.0273
ភាគខាងលិច	-11.0273
ចំរៀង	-11.0275
ប៉ុណ្ណោះ។	-11.0279
ការអនុញ្ញាត	-11.0281
របស់ព្រះ	-11.0287
ប្រាក់ខែ	-11.0293
ative	-11.0293
អវិជ្ជមាន	-11.0294
សព្វ	-11.03
ស្រង់ចេញ	-11.0301
▁រកំណត់	-11.0309
ព័ត៌មានថ្មីៗ	-11.031
fee	-11.0311
ទល់	-11.0316
ask	-11.0329
ដូង	-11.0336
BE	-11.0342
private	-11.0343
Continue	-11.0343
ServerAdmin	-11.0343
ព្រលឹង	-11.0343
យុត្តិធម៌	-11.0343
▁Amsterdam	-11.0343
▁William	-11.0343
▁digiKam	-11.0343
សត្វល្អិត	-11.0343
▁Kalarm	-11.0343
▁zlp	-11.0343
ទោល	-11.0343
▁ECHO	-11.0343
▁បរិយាយផលិតផល	-11.0343
និងហ្គីតា	-11.0344
▁Music	-11.0344
▁Price	-11.0345
ឆានែល	-11.0349
រ៉ូប	-11.0351
ថ្លៃសេវា	-11.0352
ទទួលទាន	-11.0353
body	-11.0358
ការបង្កើន	-11.0358
ប្រវត្តិសាស្ត្រ	-11.0361
iphone	-11.0361
38"	-11.0368
▁Sky	-11.0371
lumin	-11.0376
Quick	-11.0379
▁Code	-11.0379
1.8	-11.0384
="33	-11.0389
stom	-11.0394
ស៊ីរី	-11.0395
បន្ទុក	-11.0404
yang	-11.0404
ជ្រើសរើសយក	-11.0409
មិនគួរ	-11.0415
ការផ្ទុះ	-11.0416
៣៣	-11.0417
married	-11.0418
អាហារូបករណ៍	-11.0418
▁Newcastle	-11.0418
▁Whatsapp	-11.0418
▁brackets	-11.0418
▁category	-11.0418
▁corrosion	-11.0418
▁Dongguan	-11.0418
▁អើពើ	-11.0418
nguon	-11.0418
▁address	-11.0418
razil	-11.0423
អាល់ហ្វា	-11.0423
ឈ្នះរង្វាន់	-11.0424
▁អង្សា	-11.0426
▁មើលច្រើនទៀត	-11.0428
របស់ក្រុម	-11.0429
មួយក្នុងចំណោម	-11.0432
អ្វីមួយ	-11.0433
ក្រែម	-11.0434
ball	-11.0434
ដែលអាចរកបាន	-11.0435
138	-11.0436
អាគុយទូរស័ព្ទ	-11.0443
water	-11.0443
▁Scot	-11.0445
▁Mega	-11.0447
បក្ស	-11.0448
ការរួមបញ្ចូលគ្នា	-11.0451
ដើម្បីធ្វើ	-11.0455
▁With	-11.0458
▁Act	-11.0465
▁អ្នកលេង	-11.0465
បណ្ណ	-11.0467
▁720	-11.0469
CU	-11.047
head	-11.0477
uz	-11.0482
▁GUI	-11.0486
485	-11.0491
default	-11.0494
ភាពតានតឹង	-11.0494
លោកជំទាវ	-11.0494
▁document	-11.0494
ត្រាប់តាម	-11.0494
ម្នន	-11.0494
នាពេលអនាគត	-11.0494
▁២០០៧	-11.0495
ក្រមួន	-11.0495
▁Virginia	-11.0496
▁Portable	-11.0496
រំពឹងទុក	-11.0499
="1.1	-11.05
ពេលនេះ	-11.05
ដើម្បីធ្វើការ	-11.0502
apt	-11.0507
ឡាតាំង	-11.0509
205	-11.0514
ដឹងអំពី	-11.0514
iver	-11.0515
ធ្នូ	-11.0517
ការបរទេស	-11.0519
▁Fire	-11.0521
កាន់តែប្រសើរ	-11.0522
ហូរ	-11.0524
និងទទួលបាន	-11.0524
ពាក់ព័ន្ធនឹង	-11.053
6.7	-11.0532
151	-11.0533
អាយុកាល	-11.0535
សម្រាប់ស្ត្រី	-11.0536
vid	-11.0551
មន្រ្តី	-11.0558
ប្រទេសកាណាដា	-11.056
▁ស្រោមទូរស័ព្ទ	-11.0563
អ្នកដំណើរ	-11.0564
▁April	-11.057
▁Sea	-11.057
អ័រ	-11.057
ទំនក់ទំនង	-11.057
គ្រឿងស្រវឹង	-11.057
ជម្លោះ	-11.057
▁Church	-11.057
កសិដ្ឋាន	-11.057
clubs	-11.057
▁error	-11.0571
រឿងរ៉ាវ	-11.0571
ការស្ទង់មតិ	-11.0571
ធ្នើ	-11.0571
▁រូបមន្តម៉ូលេគុល	-11.0571
សហភាពអឺរ៉ុប	-11.0571
ocket	-11.0572
▁AUD	-11.0574
ឌា	-11.0581
នីតិ	-11.0581
FB	-11.0582
▁Exp	-11.0584
ទូទាំងប្រទេស	-11.0588
៩៥	-11.0589
Casino	-11.0593
គីឡូក្រាម	-11.0593
53"	-11.0598
114	-11.06
នេះត្រូវបានគេ	-11.0602
មានបំណង	-11.0611
lement	-11.0615
186	-11.0616
អេហ្វ	-11.0618
កុំព្យូទ័របន្ទះ	-11.0624
មានរយៈពេល	-11.0625
បញ្ចេញមតិ	-11.0637
ហាយ	-11.0637
ដង្ហើម	-11.0645
wear	-11.0645
វេទមន្ត	-11.0647
/02/18	-11.0647
ធរណីមាត្រ	-11.0647
សៀងហៃ	-11.0647
អូទ្រីស	-11.0647
▁Apartment	-11.0647
▁Bowflex	-11.0647
ធារាសាស្រ្ត	-11.0647
▁វណ្ណៈ	-11.0647
ដឹកទំនិញ	-11.0649
girl	-11.0649
ណែ	-11.0652
="0.3	-11.0652
ាចារ្យ	-11.0661
បញ្	-11.0662
metal	-11.0663
ified	-11.0665
remove	-11.0668
ទាញយកកម្មវិធី	-11.0668
▁សៀវភៅដៃ	-11.0671
self	-11.0672
▁TCP	-11.0672
ន័រ	-11.0673
ពិភព	-11.0673
ធ្វើអ្វី	-11.0674
ទស្សនៈ	-11.0675
សមាមាត្រ	-11.0675
▁Keo	-11.0676
▁ហើយគាត់បាន	-11.0681
Mouse	-11.0689
សំណើម	-11.0693
ច្ឆ	-11.0695
order	-11.0697
606	-11.0701
2.3	-11.0708
18"	-11.0711
ខ្លាច	-11.0714
យុទ្ធ	-11.0716
▁3300	-11.0722
▁12:1	-11.0722
gadget	-11.0725
cambodge	-11.0725
granite	-11.0725
ផ្សងព្រេង	-11.0725
អនីតិជន	-11.0725
ស្មុគស្មាញ	-11.0725
▁British	-11.0725
▁probably	-11.0725
▁សៅរ៍	-11.0725
▁QString	-11.0726
▁wrap	-11.0728
▁die	-11.0728
▁Now	-11.073
០៧	-11.0731
84"	-11.0732
ដែលត្រូវបានប្រើ	-11.0734
hdT	-11.0734
2010	-11.0739
▁ពណ៌នា	-11.074
បង្កើនល្បឿន	-11.0743
ទីភ្នាក់ងារ	-11.0745
ពន្លឺភ្លើង	-11.0746
Radio	-11.0747
▁សូមជ្រើស	-11.0749
move	-11.0749
126	-11.0751
="4.4	-11.0757
Ltd	-11.0759
ផុត	-11.0759
ដែ	-11.0761
xbet	-11.0763
▁ឈាន	-11.0768
តំបន់អាស៊ី	-11.0769
អើ	-11.077
163	-11.0772
▁Kar	-11.0782
travel	-11.0782
APK	-11.0784
ដំណ	-11.0784
មីនី	-11.0785
▁1998	-11.0786
▁ago	-11.0786
ដោយសេរី	-11.079
ការចូល	-11.0797
ស្វយ័ត	-11.0803
=5.0.3	-11.0803
testosterone	-11.0803
▁discusssions	-11.0803
▁ស្ទួន	-11.0803
គ្រូបង្រៀន	-11.0804
បងប្រុស	-11.0804
ទូទឹកកក	-11.0807
73"	-11.0807
/12/17	-11.081
ONG	-11.081
jiang	-11.0811
nbsp	-11.0811
អ៊ែរ	-11.0812
មកពីប្រទេសចិន	-11.0813
▁CTN	-11.0815
ចំណុចទាញ	-11.082
កិច្ចសហ	-11.0821
ទីកន្លែង	-11.0828
▁ការស្លៀកពាក់	-11.0833
ដល់អតិថិជន	-11.0836
នឹក	-11.0837
48"	-11.084
▁រោងចក្រចិន	-11.0842
▁JS	-11.0844
យ៍	-11.0849
ការសាកល្បង	-11.0856
អ្នកបំបែក	-11.0856
បានបង្ហាញថា	-11.0861
ការចាប់អារម្មណ៍	-11.0863
center	-11.0865
រិល	-11.0866
▁KDEName	-11.0867
បានចេញផ្សាយ	-11.0871
kov	-11.0879
wei	-11.0879
ចូលមក	-11.088
ពួកគេមាន	-11.0881
▁123456	-11.0881
ukraine	-11.0882
បទប្បញ្ញត្តិ	-11.0882
លង្ហិន	-11.0882
▁Russey	-11.0882
ញ៉ាំ	-11.0883
▁character	-11.0883
ealestate	-11.0883
តម្លៃថោក	-11.0884
▁granules	-11.0884
ឡែន	-11.0894
▁តើមានអ្វី	-11.0894
▁3.7	-11.0894
▁most	-11.0894
សាប	-11.0903
គ្រប់គ្រងដោយ	-11.0918
List	-11.0921
▁៧៤	-11.0922
▁0.05	-11.0923
សំណ	-11.0925
ផ្ដល់នូវ	-11.0926
វ៉ាស៊ីនតោន	-11.0928
សង្កាត់	-11.093
▁កំឡុង	-11.0944
បន្ទាត់ផលិតកម្ម	-11.0945
គាំង	-11.0946
តាមតម្រូវការ	-11.0947
ផ្នែករឹង	-11.095
Log	-11.0959
ability	-11.0961
lithuania	-11.0961
▁bitcoin	-11.0961
▁municipalit	-11.0961
ខ្នើយ	-11.0961
គ្រូបង្វឹក	-11.0961
មុជទឹក	-11.0961
រីកចំរើន	-11.0961
▁steroid	-11.0961
▁acetic	-11.0961
ពហុស្រទាប់	-11.0962
កងកម្លាំង	-11.0962
▁Sharp	-11.0963
▁just	-11.0964
ួច	-11.0966
សារៈសំខាន់	-11.0968
កំណាត់	-11.0971
ទះ	-11.0973
▁Root	-11.0977
បង្ហូរទឹក	-11.0977
សៅ	-11.0978
៩៧	-11.098
វាគឺជា	-11.0981
185	-11.0981
ត្បូង	-11.0989
ស្តីអំពី	-11.0996
ោយ	-11.1004
២០១៨	-11.1004
▁Fair	-11.1006
="4.2	-11.1009
អ៊ិនគ្រីប	-11.1013
ទិសដៅ	-11.1013
search	-11.1014
ពាន	-11.1015
lly	-11.1015
79"	-11.1017
លក់រាយ	-11.1018
ស័រ	-11.1022
▁ប្រអប់លេខ	-11.1039
នៅសហរដ្ឋអាមេរិក	-11.1039
ការបញ្ចប់	-11.1039
75"	-11.1039
л	-11.1041
តង្កៀប	-11.1041
អត្ថាធិប្បាយ	-11.1041
pressocm	-11.1041
ថ្លើម	-11.1041
ប៉ាស៊ីហ្វិក	-11.1041
ប្រុងប្រយ័ត្ន	-11.1041
ហាមឃាត់	-11.1041
អគ្គីភ័យ	-11.1041
▁អ៊ិន្ឈ៍	-11.1041
រថយន្ដ	-11.1041
ជ្រលង	-11.1041
សើច	-11.1041
ផ្តេក	-11.1042
▁Changvar	-11.1042
វាយនភាព	-11.1042
ពឹងផ្អែក	-11.1042
▁School	-11.1042
project	-11.1042
កម្រៃ	-11.1043
▁laser	-11.1044
ផលប្រយោជន៍	-11.1044
GSM	-11.1047
ឆូត	-11.1049
ទឹកភ្លៀង	-11.1051
74"	-11.1054
bei	-11.1055
ខណៈ	-11.1055
ulation	-11.1055
សញ្ញាប័ត្រ	-11.1057
▁Cast	-11.1058
ចុងសប្តាហ៍	-11.1058
1-1	-11.1065
៉ា	-11.107
iran	-11.1074
▁សូមរីករាយជាមួយ	-11.1075
▁កម្មវិធីបម្លែង	-11.1076
oda	-11.1077
ផ្ទៀងផ្ទាត់	-11.1078
▁Hall	-11.1082
ណាណូ	-11.1084
IDE	-11.1094
ERT	-11.1098
▁ធ្វើឲ្យ	-11.1099
រំលឹក	-11.1099
បង្ការ	-11.11
តួអក្សរ	-11.1101
168	-11.1114
business	-11.1122
.06.2015	-11.1122
ព្យាណូ	-11.1122
មេអំបៅ	-11.1122
ស្លុត	-11.1122
អញ្ចឹង	-11.1122
ខ្នង	-11.1122
បិតា	-11.1122
អុី	-11.1122
ទំនុក	-11.1122
▁HDMI	-11.1124
▁Charter	-11.1124
▁week	-11.1126
ក្រោកឡើង	-11.1131
ស្ទ័រ	-11.1131
ATE	-11.1131
ឋិតិវន្ត	-11.1132
ប្រសព្វ	-11.1134
▁ម៉ាស៊ីនស្កេន	-11.1141
បាននិយាយ	-11.1144
ណិ	-11.1147
សមរម្យសម្រាប់	-11.1155
hou	-11.1161
="4.5	-11.1164
▁0.01	-11.1167
បំពាក់ដោយ	-11.1173
="5.1	-11.1179
បន្ទប់គេង	-11.1186
បូល	-11.1188
សភាគ	-11.1193
ព្រំ	-11.1194
ខណៈដែល	-11.1195
ប្រជែង	-11.1198
លម្អ	-11.1199
▁ថ្ងៃខែ	-11.1203
ឆ្លុះ	-11.1203
indonesia	-11.1203
ព្រះមហាក្សត្រ	-11.1203
អាំងឌុចសូលីត	-11.1203
▁Angkor	-11.1203
ស៊ីលីកូន	-11.1203
ប្រើប្រាស់បានយូរ	-11.1203
▁ខណ្ឌទួលគោក	-11.1203
▁Zhongtai	-11.1203
▁ន្ដែ	-11.1203
ព្រឹទ្ធសភា	-11.1203
អង្ករ	-11.1204
▁Management	-11.1206
▁Presse	-11.1209
ដែលខ្ញុំបាន	-11.1212
ខាងស្តាំ	-11.1214
ឆេង	-11.1218
ALL	-11.1219
នៅលើគេហទំព័រ	-11.1223
ធន់នឹង	-11.1229
rise	-11.1237
គ្រាប់ពូជ	-11.124
ការផ្ទេរប្រាក់	-11.1243
មានលក្ខណៈពិសេស	-11.1246
▁បែបបទ	-11.1249
HG	-11.125
ឬទេ	-11.1256
▁Rain	-11.1258
ីក្រូហិរញ្ញវត្ថុ	-11.126
សម្រាប់បុរស	-11.1262
ប្រើថ្នាំ	-11.1263
របស់ពិភពលោក	-11.1268
ព្រះគ្រីស្ទ	-11.1269
ឌុ	-11.127
▁Big	-11.1272
89"	-11.1276
▁anti	-11.1282
ថោក	-11.1283
ត្ដិ	-11.1283
អន្តោប្រវេសន៍	-11.1284
តម្កើង	-11.1285
តម្រឹម	-11.1285
ទីក្រុងប៉េកាំង	-11.1285
អាហ្រ្វិក	-11.1285
អេធីអឹម	-11.1285
▁Magazine	-11.1285
▁Thomas	-11.1285
▁Wireless	-11.1285
ខូចខាត	-11.1285
គណិតវិទ្យា	-11.1285
▁Cutting	-11.1285
★	-11.1285
▁Paypal	-11.1285
ភ័យខ្លាច	-11.1285
សមាសភាព	-11.1285
បញ្ឆេះ	-11.1285
ម្ដេច	-11.1285
វីសា	-11.1288
0:00	-11.1289
▁Alex	-11.1289
panha	-11.1289
ការបាត់បង់	-11.1292
▁PET	-11.1295
MPa	-11.1301
ភូមិសាស្ត្រ	-11.1301
="30	-11.1303
បោះពុម្ពលើក	-11.1307
5.7	-11.1309
Trade	-11.1314
9000	-11.1314
អ្នកបើកបរ	-11.1317
Style	-11.1319
ត្រូវបានផលិត	-11.132
logo	-11.1324
បានផ្លាស់ប្តូរ	-11.1327
ស័ក	-11.1328
បទដ្ឋាន	-11.1331
STA	-11.1331
▁ក្រុមហ៊ុនផលិតរ	-11.1334
45"	-11.1342
▁Rose	-11.1344
ព្វ	-11.1349
228	-11.135
កាត់ដេរ	-11.135
៩៣	-11.1352
នាយ	-11.1353
រះ	-11.1355
នឹងក្លាយជា	-11.1364
របួស	-11.1366
ជិះស្គី	-11.1368
សន្ដិសុខ	-11.1368
▁Suzuki	-11.1368
▁Exchange	-11.1368
កាវបិទ	-11.1368
▁piston	-11.1368
ាត់ម៉ាស៊ីនឡាស៊ែរ	-11.1368
▁រាប់ថយក្រោយ	-11.1368
បំពាន	-11.1368
បំផ្ទុះ	-11.1368
▁TPU	-11.1368
▁Peter	-11.1373
▁compa	-11.1381
នៅកន្លែង	-11.1383
បែបនេះ	-11.1384
▁Steve	-11.1384
▁centrifug	-11.1389
▁Wall	-11.1393
▁Satin	-11.1397
ស្វីស	-11.1401
ដើម្បីបង្កើន	-11.1403
ទាន់	-11.1407
TER	-11.1407
យោ	-11.1414
4.00	-11.1423
ប្រសើរ	-11.1424
ចរចា	-11.1428
▁3.3	-11.1431
▁ZY	-11.1436
▁Gil	-11.1437
176	-11.1438
បណ្ណាល័យ	-11.144
បានមកពី	-11.1442
នៅតែមាន	-11.1444
គណៈ	-11.1451
▁Education	-11.1451
វង្ស	-11.1451
▁TrueMoney	-11.1451
▁sonitattoo	-11.1451
▁SEAPS	-11.1451
▁Author	-11.1451
ពោល	-11.1451
ស្នែង	-11.1451
▁copy	-11.1451
Manager	-11.1451
▁XXXL	-11.1452
គ្រុប	-11.1452
▁Blade	-11.1452
សំណល់	-11.1452
photo	-11.1453
ក្មេងប្រុស	-11.1453
នៅខាងក្រៅ	-11.1456
អថេរ	-11.1465
28"	-11.1467
ទេប៉ុន្តែ	-11.1473
កូនស្រី	-11.1476
▁FTP	-11.1479
ផូ	-11.1487
Pay	-11.1491
វង់	-11.1494
ព្រះរាជ	-11.1502
បំពង់ដែក	-11.1506
tran	-11.1514
▁វាគឺជាការ	-11.152
83"	-11.1521
▁លោកអ្នកអាច	-11.1526
៊ី	-11.1527
range	-11.153
រចនាម៉ូដ	-11.1532
អ៊ុត	-11.1533
អិលធីឌី	-11.1535
ផ្សាភ្ជាប់	-11.1535
ហ្វឹកហាត់	-11.1535
ព្យាការី	-11.1535
▁Coinfalls	-11.1535
▁SPARTA	-11.1535
▁SharePoint	-11.1535
▁Tattoo	-11.1535
បាងកក	-11.1535
រន្ទះ	-11.1535
▁molded	-11.1535
រួចទៅហើយ	-11.1535
▁Twill	-11.1535
▁NEMA	-11.1535
ប្រាជ្ញា	-11.1535
ឆ្លុះបញ្ចាំង	-11.1535
អេម	-11.1536
អុកស៊ីដ	-11.1537
ការស្លាប់	-11.1539
ប្រសើរឡើង	-11.154
iko	-11.1541
▁ឆ្នាំ២០១៥	-11.1541
រ៉ូឡែត	-11.1542
ព្រួញ	-11.1542
▁Grab	-11.1544
ធុងសំរាម	-11.1548
នោះជា	-11.1548
គូរូបិយប័ណ្ណ	-11.1549
ប្លែង	-11.1551
import	-11.1553
ធ្វើតាម	-11.1554
ភ្លើងបំភ្លឺ	-11.1559
hir	-11.1563
▁VIP	-11.1566
ipper	-11.1572
អង្	-11.1572
ចេ	-11.1573
0-4	-11.1573
NN	-11.1574
utm	-11.1581
គិតត្រឹម	-11.1584
awa	-11.1585
▁0.15	-11.1588
ចេញទៅ	-11.159
ធន់	-11.1607
ទីក្រុងដា	-11.1608
មិនចង់	-11.1613
សមាហរណកម្ម	-11.162
អត្ថន័យ	-11.162
បុត្រសម្ព័ន្ធ	-11.162
ភ្លេង	-11.1622
អភិបាលក្រុង	-11.1623
Mpa	-11.1625
start	-11.1625
8:00	-11.1626
បន្ទាប់បន្សំ	-11.1627
law	-11.1629
142	-11.1631
ភារកិច្ច	-11.1633
ប្រណិត	-11.1635
ដ៏ស្រស់ស្អាត	-11.1641
Indian	-11.1654
watch	-11.1667
សាប៊ូ	-11.1667
-3-	-11.1667
▁Stan	-11.1668
លីត្រ	-11.167
gain	-11.1673
▁APP	-11.1674
▁sim	-11.1683
printer	-11.1691
ITE	-11.1693
ញ្ជ	-11.1694
7:00	-11.1696
85"	-11.1702
គ្រឹះស្ថាន	-11.1702
▁State	-11.1702
Australia	-11.1705
សរសៃប្រសាទ	-11.1705
អាល់កុល	-11.1705
▁available	-11.1705
▁chiffon	-11.1705
▁shoppingdirect	-11.1705
▁ផ្ទះលក់ទំនិញ	-11.1705
Calendar	-11.1705
សួត	-11.1705
▁Article	-11.1705
យន្ដហោះ	-11.1705
កំប៉ុង	-11.1707
▁DCOP	-11.1708
បណ្ដា	-11.1718
សេស	-11.1719
ការរកឃើញ	-11.1721
ខែសីហា	-11.1724
space	-11.1726
ច្រកទ្វារ	-11.1728
អ្វីដែលយើង	-11.174
▁លេខកូដក្រុមហ៊ុន	-11.1744
▁FOR	-11.1749
="4.3	-11.1757
▁Royal	-11.1762
4.6	-11.1767
មូស	-11.1775
ការបម្លែង	-11.1775
6.00	-11.1775
NM	-11.1775
ួយ	-11.1784
ចង្ក្រាន	-11.1791
សន្សំសំចៃ	-11.1791
សិទិ្ធ	-11.1791
អាដាប់ទ័រ	-11.1791
▁application	-11.1791
កាលីហ្វញ៉ា	-11.1791
▁Equina	-11.1791
▁Sieve	-11.1792
▁ហោច	-11.1792
ឆ្នាំមកហើយ	-11.1792
ការធានារ៉ាប់រង	-11.1794
ជារៀងរាល់ឆ្នាំ	-11.1801
98"	-11.1803
▁Times	-11.1803
148	-11.1804
ព័ត៌មានអំពី	-11.1809
▁Paul	-11.1809
អរគុណ	-11.1809
ួង	-11.1812
អ្នកកាន់	-11.1812
▁(8)	-11.1812
▁Road	-11.1817
ផ្ទៃតុ	-11.182
ភាពជោគជ័យ	-11.1823
50,000	-11.1825
tti	-11.1826
អ៊ុយ	-11.1828
វីន	-11.1831
ប្លង់	-11.1832
PDF	-11.1841
udan	-11.1841
នាពេល	-11.1842
គឺជាផ្នែកមួយនៃ	-11.1844
ដែលបានប្រើ	-11.1846
ប្រទេសអូស្ត្រាលី	-11.1855
កូនសោ	-11.1862
សុី	-11.1868
8.7	-11.1872
Asia	-11.1872
ជាមូលដ្ឋាន	-11.1874
ឌីស៊ី	-11.1877
through	-11.1878
ប្រយ័ត្ន	-11.1878
ភ្នាស	-11.1878
សហប្រជាជាតិ	-11.1878
អំពាវនាវ	-11.1878
▁USMLE	-11.1878
▁Urban	-11.1878
▁altcoin	-11.1878
▁អាណាឡូក	-11.1878
រង្វិលជុំ	-11.1878
▁រលឹម	-11.1878
▁Travel	-11.1878
social	-11.1878
HOME	-11.188
អំពើបាប	-11.188
ថយចុះ	-11.188
ពលកម្ម	-11.188
ride	-11.1883
▁Robot	-11.1884
បូជា	-11.1885
៤៨	-11.1887
ពាន់លានដុល្លារ	-11.1888
ជាសាធារណៈ	-11.1888
ចូលមើល	-11.189
▁ផ្ទុកឡើង	-11.1891
ប្រកប	-11.1891
▁Player	-11.1894
▁!!	-11.1898
glyc	-11.1898
អ្នកលក់	-11.1898
សិទ្ធ	-11.1905
cross	-11.1906
▁Cool	-11.1907
្លេ	-11.1911
▁Para	-11.1916
បន្ទាប់ពីថ្ងៃ	-11.1921
ទាក់ទងមកយើង	-11.1926
កូនកាត់	-11.1926
▁Bern	-11.1927
kill	-11.1929
755	-11.1929
stock	-11.1931
ច្រើនជាងនេះ	-11.1932
▁ពិន	-11.1935
▁Gear	-11.1937
Block	-11.194
="5.9	-11.1941
▁**	-11.1955
mond	-11.1965
ហ្សកហ្ស៊ី	-11.1966
fghanistan	-11.1966
ប៉ុនប៉ង	-11.1966
អាជ្ញាបណ្ណ	-11.1966
▁September	-11.1966
▁Solenoid	-11.1966
▁Kaxite	-11.1966
XCHARX	-11.1966
បណ្តាលឱ្យ	-11.1966
រិទ្ធ	-11.1966
វិបត្តិ	-11.1967
ចំណុះ	-11.1967
race	-11.1967
▁(2012)	-11.1967
▁AutoCAD	-11.1967
រោងភាពយន្ត	-11.1967
158	-11.1968
▁ថយ	-11.1971
កាណា	-11.1972
▁Lady	-11.1975
▁ចាន់	-11.1976
Export	-11.1978
ជើងឯក	-11.1985
ដែលមានមូលដ្ឋាននៅ	-11.1986
រួមចំណែក	-11.1986
ស្រែក	-11.1987
អំពូលភ្លើង	-11.1987
like	-11.1988
++	-11.1994
slav	-11.1996
88"	-11.1998
អធិប្បាយ	-11.1998
យំ	-11.2002
▁Shin	-11.2003
រមូរ	-11.2005
កណ្ដុរ	-11.2005
ផ្លូវចិត្ត	-11.2005
រីយ៉ា	-11.2014
ការចងចាំ	-11.2022
បុត្រ	-11.2029
▁Apr	-11.2032
សឺរ	-11.2036
នៅពីក្រោយ	-11.2046
ហែលទឹក	-11.2054
ទង្គិច	-11.2055
អភិរក្ស	-11.2055
ក្លែងបន្លំ	-11.2055
ពិសិដ្ឋ	-11.2055
ស៊ីម៉ងត៍	-11.2055
▁Outlook	-11.2055
▁iSpyoo	-11.2055
▁bonus	-11.2055
▁learn	-11.2055
ចម្លាក់	-11.2056
មានសមត្ថភាពខ្ពស់	-11.2056
ធ្លាយ	-11.2056
where	-11.2056
ក្លិន	-11.2057
▁ដែកកាបូន	-11.2057
ណ៏	-11.2058
▁event	-11.2059
▁Speedf	-11.2061
south	-11.2064
▁កេះ	-11.2065
lgeria	-11.2066
▁Print	-11.2066
▁ស្រាយ	-11.2068
▁Heating	-11.2074
ប្លែក	-11.2074
▁Touch	-11.2074
៣៦	-11.2091
ម៉ែត្រការ៉េ	-11.2101
នៃការផលិត	-11.2103
82"	-11.2112
ទប់	-11.2115
▁12:00	-11.2122
="35	-11.2123
អ៊ិនធឺណ	-11.2127
2006.	-11.2137
ងាក	-11.2139
កង្ហារ	-11.2144
ប្រព្រឹត្ដ	-11.2144
▁Jersey	-11.2144
▁Minnesota	-11.2144
▁MySQL	-11.2144
▁PlayStation	-11.2144
▁Tourism	-11.2144
ក្រឡឹង	-11.2144
គំនូរជីវចល	-11.2144
សហជីព	-11.2144
សំគាល់	-11.2144
▁Finance	-11.2144
▁តើអ្វីជា	-11.2144
វីរបុរស	-11.2144
▁[2]	-11.2144
បញ្ញា	-11.2144
▁DROP	-11.2144
▁AISI	-11.2145
សហព័ន្ធរុស្ស៊ី	-11.2145
ស្នាមសាក់	-11.2145
ភរិយា	-11.2146
▁៩៩៩	-11.2147
អនុលោមតាម	-11.2147
▁Under	-11.2148
▁កាស៊ីណូលើបណ្តាញ	-11.2156
ense	-11.2168
ITY	-11.218
ចារ	-11.2184
ឆ្ងាយពី	-11.219
▁Tai	-11.219
▁សូមទាក់ទងមក	-11.2194
ប៉ារីស	-11.2197
▁July	-11.22
▁Terr	-11.2202
93"	-11.2203
▁attribute	-11.2203
៣៩	-11.2203
irk	-11.2211
កន្លែងណា	-11.2218
អេច	-11.2219
▁Ferr	-11.2221
▁ITS	-11.2221
words	-11.2225
ក្រូច	-11.2225
រថយន្តក្រុង	-11.2226
អគ្គ	-11.2228
ច្នៃ	-11.2229
▁para	-11.223
តាមផ្លូវ	-11.2232
រោទិ៍	-11.2233
enezuela	-11.2234
គណៈរដ្ឋមន្ត្រី	-11.2234
ជ័យលាភី	-11.2234
ប៉ាន់ប្រមាណ	-11.2234
▁Ducati	-11.2234
▁Ultimate	-11.2234
▁Unlimited	-11.2234
▁gallery	-11.2234
▁មីលីក្រាម	-11.2234
▁សង្កាត់ទឹកល្អក់	-11.2234
ការងើបឡើងវិញ	-11.2234
អ៊ីនធឺណេត	-11.2234
▁ដូចគ្នានេះផងដែរ	-11.2234
▁custom	-11.2234
▁Ocean	-11.2234
▁ព្រហស្បតិ៍	-11.2234
▁បណ្ដុំ	-11.2234
មគ្គុទ្ទេដោយដៃ	-11.2234
ប្រទានពរ	-11.2234
ហូឡង់	-11.2235
អ្នកនឹងរកឃើញ	-11.2237
▁Canton	-11.2237
korea	-11.2237
រណៈ	-11.2237
1200	-11.2238
ពួកវា	-11.2238
ជើងទទេ	-11.2238
គ្រឿងញៀន	-11.2239
បន្ថែមរោមភ្នែក	-11.224
ឆេះ	-11.2242
ភាពជាក់លាក់	-11.2249
វិប	-11.2249
បំពង់ទុយោ	-11.2255
▁ឡាវ	-11.2256
61"	-11.2258
កូនប្រុសរបស់	-11.2266
៣៤	-11.2269
ដែលអ្នកចង់	-11.2274
▁QI	-11.2281
ការវាយតម្លៃ	-11.2287
Smart	-11.2294
ពីរនាក់	-11.2295
▁ទីនោះ	-11.2298
bsp	-11.2299
▁4.3	-11.23
ខ្សែអក្សរ	-11.2302
ការបញ្ចេញ	-11.2303
បត្រ	-11.2304
MU	-11.2305
យប់នេះ	-11.2305
តង់ស្យុងខ្ពស់	-11.2308
ការប្រៀបធៀប	-11.2314
bag	-11.2316
ធ្វើឱ្យវា	-11.2316
ល្ខោន	-11.2325
គ្លីនិក	-11.2325
បែកខ្ចាត់ខ្ចាយ	-11.2325
ផ្ញើសារជាអក្សរ	-11.2325
ពន្លឿន	-11.2325
អាហារពេលព្រឹក	-11.2325
អនាមិក	-11.2325
អេហ្ស៊ីប	-11.2325
nomous	-11.2325
control	-11.2325
Project	-11.2326
ខ្សែសង្វាក់ប្លុក	-11.2326
▁(2016)	-11.2327
build	-11.2327
រយៈពេលវែង	-11.234
dition	-11.234
▁Tweet	-11.2341
ឌីង	-11.2341
ប្រាកដ	-11.2345
▁Luc	-11.2347
៩៦	-11.2349
បានស្លាប់	-11.2349
▁SEO	-11.235
លើកលែងតែ	-11.2352
ពណ៌បៃតង	-11.2354
ឆ្វេង	-11.2358
មូលដ្ឋានទិន្នន័យ	-11.2364
ឡើងក្នុងឆ្នាំ	-11.2366
▁Chat	-11.2368
▁Archive	-11.2368
charge	-11.2369
តើវា	-11.237
មកវិញ	-11.2372
rss	-11.2381
រ៉ោតទ័រ	-11.2391
ព្យុះ	-11.2392
Banking	-11.2394
ទាបបំផុត	-11.2405
flodeal	-11.2417
youtube	-11.2417
បំផុសគំនិត	-11.2417
វ៉ាក់សាំង	-11.2417
ដាណឺម៉ាក	-11.2417
▁Pinterest	-11.2417
សូកូឡា	-11.2417
▁Marketing	-11.2417
▁information	-11.2417
Mbps	-11.2417
បើកទូលាយ	-11.2417
▁turntable	-11.2417
លោកម៉ូសេ	-11.2417
▁Daily	-11.2417
ព័ទ្ធជុំវិញ	-11.2417
Engine	-11.2417
▁ជាតិសរសៃកាបោន	-11.2417
▁ស្រអាប់	-11.2417
▁រក្សារសិទ្ធ	-11.2418
▁២០០៥	-11.2418
អាវទ្រនាប់	-11.2421
▁Reading	-11.2421
គ្រប់ពេលវេលា	-11.2422
បោះពុម្ភផ្សាយ	-11.2422
▁Young	-11.2422
បញ្ជាក់ថា	-11.2423
ត្រូវគ្នា	-11.2424
ដើម្បីដំឡើង	-11.2425
town	-11.2426
▁ប្រាក់ដុល្លារ	-11.2428
យន្ដ	-11.2429
សត្វព្រៃ	-11.243
រាប់បញ្ចូល	-11.2432
connect	-11.2434
ឆបគ្នាជាមួយ	-11.2435
គួរតែត្រូវបាន	-11.2435
ពារ	-11.2447
ស្វែងយល់ពី	-11.2448
ស្តូ	-11.2448
▁ជាតិសរសៃក	-11.2451
អេឡិចត្រូ	-11.2456
▁full	-11.2462
ធំៗ	-11.2463
ប៉ម	-11.2463
រោងចក្ររោងចក្រ	-11.2469
ទីក្រុងស៊ាងហៃ	-11.2479
ស្ទើរ	-11.248
កំពុងធ្វើ	-11.248
▁EVA	-11.2481
ក្នុងការទូទាត់	-11.2494
ស្ថិតក្នុង	-11.2497
ម្ដង	-11.2497
5.9	-11.2501
ចក្រភព	-11.2509
សិរីរុងរឿង	-11.2509
bridge	-11.2509
ខុសៗគ្នា	-11.2509
អ៊ីនហ្វ្រារ៉េដ	-11.2509
▁Category	-11.2509
▁Michigan	-11.2509
▁Public	-11.2509
▁Vegas	-11.2509
▁Fresno	-11.2509
គណៈប្រតិភូ	-11.2509
▁Course	-11.2509
ominican	-11.2509
▁listbox	-11.251
កាកបាទក្រហម	-11.251
ឪពុកម្តាយ	-11.251
នៅឡើយទេ	-11.251
▁level	-11.251
facebook	-11.251
បង្អស់	-11.2511
ប្តូរតាមបំណង	-11.2511
▁Sports	-11.2511
▁nnn	-11.2512
ម៉ាស្សា	-11.2513
ជាការពិតណាស់	-11.2515
▁Bursa	-11.2515
▁Milan	-11.2517
ព្រះវិញ្ញាណ	-11.2523
អគ្គនាយកដ្ឋាន	-11.2524
▁ភក្	-11.2531
="5.7	-11.2533
ក្លូ	-11.2548
ffer	-11.2555
▁តម្លៃពេញ	-11.2555
កំដៅខ្ពស់	-11.2561
▁may	-11.2567
▁BTS	-11.2571
សោះ	-11.2577
យេស៊ូ	-11.258
គ្រឹះ	-11.2584
▁សម្បទាន	-11.2585
hui	-11.2589
ឌីវីឌី	-11.259
ការរីករាលដាល	-11.2591
សាកអាគុយ	-11.2592
="1.0	-11.2594
នៅពេលនេះ	-11.2595
▁4.2	-11.2595
▁ហាក់	-11.2597
វីឡា	-11.2597
ម៉ាក់	-11.26
ការដេញថ្លៃ	-11.2602
អាហ្សង់ទីន	-11.2603
▁OpenMandriva	-11.2603
▁Tianjin	-11.2603
▁KEY	-11.2603
▁Randy	-11.2603
▁វ៉ិចទ័រ	-11.2603
ហ្វ្រេ	-11.2603
▁value	-11.2603
▁Sealing	-11.2604
▁Network	-11.2604
Home	-11.2605
មានបទពិសោធ	-11.2606
លក្ខណ	-11.2608
▁ឆ្នាំ២០១៤	-11.2609
ទ្រនិច	-11.2613
avo	-11.2616
▁Pump	-11.2622
▁Shape	-11.2622
▁ល្បឿនបញ្ចូល	-11.2623
▁លៃ	-11.2625
នរណា	-11.2629
ជាដៃគូ	-11.2638
៧៧	-11.2645
azz	-11.2647
▁Beach	-11.2651
លទ្ធផលនៃការ	-11.2654
បំបាត់	-11.2665
ជង់	-11.2671
62"	-11.2679
ស្ថិតនៅក្រោម	-11.268
ការស្នាក់នៅ	-11.2684
អត្តសញ្ញាណ	-11.2691
រូបមន្ត	-11.2691
ស៊ើបអង្កេត	-11.2693
soft	-11.2696
ឈ្នួល	-11.2697
mexico	-11.2697
ខ្ចប់	-11.2697
▁Yahoo	-11.2697
▁description	-11.2697
▁ស្ដេចនៃឆ្មានេះ	-11.2697
Application	-11.2697
ព័តមាន	-11.2697
▁Gasket	-11.2697
▁Hyper	-11.2697
▁Ultra	-11.2697
▁smd	-11.2697
▁super	-11.2698
គីមីវិទ្យា	-11.27
guardian	-11.2701
europe	-11.2702
graphy	-11.2708
សារធាតុរាវ	-11.271
font	-11.271
មុនពេលដែល	-11.2716
ប្រតិបត្តិករ	-11.272
ពោះ	-11.2727
▁SGS	-11.2733
ភ្ជាប់មកជាមួយ	-11.2742
▁PMI	-11.2743
ពិពណ៌នា	-11.2745
▁អែ	-11.2746
ប្រឈម	-11.2747
ដែលមិនមាន	-11.2754
kHz	-11.2761
តង់ស្យុង	-11.2778
▁OFF	-11.2782
បច្ចេក	-11.279
ធុញ	-11.2792
លក់ក្តៅ	-11.2792
ទ្វេរដង	-11.2792
បំណុល	-11.2792
▁Roulette	-11.2792
▁ណេវ៉ាដា	-11.2792
▁តិត្ថិភាព	-11.2792
ប្តី	-11.2792
កិតើ	-11.2792
▁license	-11.2792
▁11:13:	-11.2793
រាជធានី	-11.2793
▁network	-11.2793
គួរឱ្យកត់សម្គាល់	-11.2793
polymer	-11.2793
→	-11.2793
▁២០០៦	-11.2794
▁provide	-11.2794
▁DVD	-11.2795
zaire	-11.2796
កូរ៉េខាងជើង	-11.2798
ម៉ារីន	-11.2799
ស្វ័យ	-11.2799
▁GNU	-11.2802
វិន័យ	-11.2807
ទួល	-11.2809
គ្រឿងផ្សំ	-11.2813
156	-11.2816
បន្លា	-11.2831
IST	-11.2834
ការបង្វិល	-11.2835
៊ិន	-11.2841
ការទទួលខុសត្រូវ	-11.2846
ការប្រមូលផ្តុំ	-11.2847
អ្វីទាំងអស់	-11.2856
ហ្សី	-11.2878
ល្អណាស់	-11.2881
ប្រែ	-11.2882
ចម្បាំង	-11.2888
ជីពចរ	-11.2888
ធ្នឹម	-11.2888
បែកខ្ញែក	-11.2888
ហិង្សា	-11.2888
▁Alberta	-11.2888
▁Koowheel	-11.2888
▁ការរាប់អំបោះ	-11.2888
ថ្ផ	-11.2888
ផ្កាយរណប	-11.2888
លីមីតធីត	-11.2888
វិក្កយបត្រ	-11.2888
អាំងតង់ស៊ីតេ	-11.2888
▁Enterprise	-11.2888
▁មីលីម៉ែត្រ	-11.2888
▁ឌិកូដ	-11.2888
បរិយាយ	-11.2889
▁Adele	-11.2889
ញ៉ា	-11.2889
សំលេងរំខាន	-11.2889
▁(2014)	-11.289
▁ដឹងគុណ	-11.2891
ស្របច្បាប់	-11.2892
អភិវឌ្ឍផលិតកម្ម	-11.2893
▁Other	-11.2901
លេចឡើង	-11.2903
dcop	-11.2904
▁WPC	-11.2908
ការផ្ទៀងផ្ទាត់	-11.291
ទាំងឡាយ	-11.2911
ឈប់សម្រាក	-11.2917
▁ឯកសារបង្រៀន	-11.2917
4700	-11.2918
ប៉ះពាល់ដល់	-11.2921
ក្រិត	-11.2922
▁ចូលអាន	-11.2925
ត្រីមាស	-11.2938
និយាយទៅកាន់	-11.2938
ទាំងបី	-11.2944
ធ្វើឱ្យសកម្ម	-11.2951
="5.8	-11.2954
ដែលអ្នកទទួលបាន	-11.2967
ស៊ា	-11.297
កំពុងដំណើរការ	-11.2978
ប្រេស	-11.2984
វែបសាយ	-11.2986
Guangdong	-11.2986
កាល់ស្យូម	-11.2986
យូរអង្វែង	-11.2986
▁Testosterone	-11.2986
▁Xiaomi	-11.2986
▁Bedroom	-11.2986
▁Ninja	-11.2986
▁IBK	-11.2986
▁7.4.7	-11.2986
follow	-11.2986
▁ផ្ទេរឯកសាររហ័ស	-11.2986
ភ្លៀង	-11.2988
តារាចម្រៀង	-11.2991
="0.9	-11.2992
មានសិទ្ធិ	-11.2992
ពេញនិយមបំផុត	-11.2993
រលុង	-11.2998
trade	-11.3002
ទឹកក្រូច	-11.3004
កំណត់ហេតុ	-11.3005
រឹត	-11.3008
3.7	-11.301
អត្រាការប្រាក់	-11.301
ចូរ	-11.3011
គួរអោយ	-11.3012
▁ក្វា	-11.3019
ចូលប្រើ	-11.3022
ទាល់	-11.3023
ក្រាហ្វ	-11.3035
ICE	-11.305
តម្លៃទាប	-11.3062
មានការគៀ	-11.3067
អ្វីដែលត្រូវ	-11.3069
វេជ្ជ	-11.3083
ប្រៃសណីយ៍	-11.3084
▁Quebec	-11.3084
▁Reserved	-11.3084
▁Girls	-11.3084
▁[1.9.16_1159]	-11.3084
រចនាផ្ទៃខាងក្នុង	-11.3084
អចិន្ត្រៃយ៍	-11.3084
▁Ladies	-11.3084
solution	-11.3084
បញ្ញត្តិ	-11.3084
ធុនធ្ងន់	-11.3084
ជាបន្តបន្ទាប់	-11.3084
About	-11.3085
▁void	-11.3087
អាកាសចរណ៍យន្តហោះ	-11.3087
xiang	-11.3087
▁2:1	-11.3096
ខ្ញុំកំពុង	-11.3097
spect	-11.31
189	-11.3106
▁ហើយពួកគេបាន	-11.3113
គេស្គាល់ថាជា	-11.3116
តាមអ៊ីនធឺណិត	-11.3118
position	-11.3135
ចម្លែក	-11.3135
▁offer	-11.3137
សូមស្វាគមន៍	-11.3137
ការទទួលស្គាល់	-11.3142
ទឹកក្តៅ	-11.3151
សម្ភាសន៍	-11.3166
បរាជ័យ	-11.3167
កត់សម្គាល់	-11.3182
មជ្ឈ	-11.3182
ស្នេហ៍	-11.3182
ñ	-11.3183
ingapore	-11.3183
elecommunication	-11.3183
ខ្សែភាពយន្ដ	-11.3183
ដាច់ខាត	-11.3183
ឥណពន្ធ	-11.3183
▁battery	-11.3183
▁មែត្រការ៉េ	-11.3183
អរម៉ូន	-11.3183
phnompenh	-11.3183
រោមចៀម	-11.3183
▁Rights	-11.3183
▁យ៉ាម៉ាហាមួយ	-11.3184
រាបស្មើ	-11.3184
កញ្ញា	-11.3185
រដូវរងារ	-11.3189
យោល	-11.3191
រស់នៅក្នុង	-11.3194
▁bl	-11.3198
▁0,1	-11.3206
មែល	-11.3207
កាតឥណទាន	-11.321
ធន់ទ្រាំ	-11.3211
Forex	-11.3212
បណ្ណសារ	-11.3214
វិធីសាស្ត្រ	-11.3216
ិ៍	-11.3238
="44	-11.3238
កំពុងធ្វើការ	-11.324
shop	-11.3247
សាកថ្មទូរស័ព្ទ	-11.3248
ផ្លាស់	-11.3258
itter	-11.3268
ចូ	-11.327
="41	-11.3271
ក្នុងកំឡុងពេល	-11.3276
master	-11.3278
generator	-11.3283
▁Jessica	-11.3283
-04:00	-11.3283
/09/2019	-11.3283
កម្ដៅ	-11.3283
ញញឹម	-11.3283
អំព្លី	-11.3283
▁Kdeprint	-11.3283
▁tesseract	-11.3283
ត្រកូល	-11.3283
▁Products	-11.3283
▁method	-11.3283
ប្រជាធិបតេយ្យ	-11.3283
▁gallon	-11.3283
▁crimp	-11.3283
▁ឡូត៍	-11.3283
ហុងគ្រី	-11.3283
▁[3]	-11.3283
សំណឹក	-11.3283
ធ្យូងថ្ម	-11.3284
Frame	-11.3284
▁Keygen	-11.3286
blue	-11.3293
▁Lock	-11.3294
▁Canon	-11.3298
អំពីរបៀប	-11.3299
Connect	-11.331
២០១៦	-11.3312
ប្រទេសអង់គ្លេស	-11.3313
mont	-11.3313
▁device	-11.3315
▁cost	-11.3316
ឡាំង	-11.3323
▁Palm	-11.3345
ណុ	-11.3352
ប្រសិទ្ធភាពខ្ពស់	-11.3356
Sets	-11.3358
▁រុក	-11.336
Soft	-11.336
រតន	-11.3367
អ៊ុលត្រាសោន	-11.3375
ប្រទេសសិង្ហបុរី	-11.3377
Enter	-11.3382
olyurethane	-11.3384
បន្តិចបន្តួច	-11.3384
យូអេសប៊ី	-11.3384
សេចក្តីផ្តើម	-11.3384
▁Carolina	-11.3384
▁Entertainment	-11.3384
▁Jizerou	-11.3384
▁Philadelphia	-11.3384
▁brushless	-11.3384
ហ្វាំងឡង់	-11.3384
conference	-11.3384
ក្អម	-11.3384
ជឺស៊ី	-11.3384
អួត	-11.3384
ផ្នត់	-11.3384
សន្និសិទ	-11.3384
▁ត្រីកោណ	-11.3384
▁Ridge	-11.3384
ខូអិលធីឌី	-11.3385
របបអាហារ	-11.3385
black	-11.3391
▁his	-11.3397
▁Hotel	-11.3399
សាកសួរ	-11.34
គោលពីរ	-11.3424
មានប្រជាប្រិយភាព	-11.3451
រ្យ	-11.3454
បានរាយការណ៍	-11.3455
ការកសាង	-11.3458
មីនា	-11.3463
ការអនុម័ត	-11.3467
▁Deni	-11.347
▁2.3	-11.3472
ស្ប៉ា	-11.3474
របាំ	-11.3481
IX	-11.3482
វិចិត្រ	-11.3485
.02.2019	-11.3486
ក្លិប	-11.3486
ឆ្កួត	-11.3486
ជម្រាល	-11.3486
ទ្រូង	-11.3486
លាតសន្ធឹង	-11.3486
▁Ethereum	-11.3486
▁Jiangsu	-11.3486
▁Sundsvall	-11.3486
▁Victoria	-11.3486
Banner	-11.3486
អណ្តូង	-11.3486
▁Coinbase	-11.3486
ខិតខំប្រឹងប្រែង	-11.3486
▁RideA	-11.3486
្រៀមខ្លួនជាស្រេច	-11.3486
▁Photoshop	-11.3486
▁Disney	-11.3486
ជីវសាស្រ្ត	-11.3487
▁EURUSD	-11.3487
ដែលមានមូលដ្ឋានលើ	-11.3488
បឹងកក់	-11.3488
▁Aprilia	-11.3489
▁៥២២	-11.349
៧៨	-11.3491
▁Viber	-11.3492
ជំងឺរលាក	-11.3492
ភាគខាងកើត	-11.3494
▁Edition	-11.3494
▁២០០២	-11.3496
អាយុជីវិត	-11.3497
ប៉ារ៉ា	-11.3498
ញ្ច	-11.3499
ចោរ	-11.3502
មាតា	-11.3505
sys	-11.3525
String	-11.3527
ការបំបែក	-11.3528
ការចូលដំណើរការ	-11.3529
ក្រុមជំនុំ	-11.3542
ចាប់ខ្លួន	-11.3544
ផ្ទាំងរូបភាព	-11.3545
help	-11.3547
GMP	-11.3555
ពណ៍	-11.3557
អ្នកបង្កើត	-11.3564
ចន្លោះពី	-11.3569
ប្រតិ	-11.3574
ទៅទស្សនា	-11.3575
255	-11.3583
mount	-11.3587
ឆ្ងាញ់	-11.3589
rofessional	-11.3589
ទំពាំងបាយជូ	-11.3589
វាំងនន	-11.3589
អៀរឡង់	-11.3589
▁Central	-11.3589
▁អ័ព្វ	-11.3589
Screen	-11.3589
development	-11.3589
▁ROHS	-11.3589
▁ចំនួនអ្នកមើល	-11.3589
▁Peach	-11.3589
▁example	-11.3589
▁OnePlus	-11.3589
archive	-11.3589
▁Extra	-11.3589
▁២០០៣	-11.359
▁context	-11.3592
ទើបតែ	-11.3592
▁សួនឧស្សាហកម្ម	-11.3594
phil	-11.3597
ឱសថស្ថាន	-11.3598
/5-	-11.3607
Talk	-11.3613
គោលបំណងដើម្បី	-11.3614
ពពួក	-11.3614
▁Nova	-11.3614
ប្រទាន	-11.3615
▁15:3	-11.3615
តើនរណា	-11.3624
▁Aqua	-11.363
ដ្ឋមន្រ្តីក្រសួង	-11.3633
មេហ្គា	-11.3633
សំណុំរឿង	-11.3635
▁NAB	-11.3635
បានផ្តល់នូវ	-11.3642
ប្រចាំសប្តាហ៍	-11.3644
ពីរបី	-11.3648
ដង់ស៊ីតេ	-11.3649
ស្ទីន	-11.3659
wif	-11.3662
▁NAC	-11.3673
graphic	-11.3677
▁ពហុភាសា	-11.3678
មិនត្រឹមតែ	-11.3679
វែរ	-11.3679
ដាក់បញ្ចូល	-11.3687
ការរុករករ៉ែ	-11.3687
▁mono	-11.369
រចនាសម្ព័ន	-11.3693
ចក្ខុវិស័យ	-11.3693
ស្រីឡូរ៉ាថូម៉ាស	-11.3693
ហិរញ្ញប្បទាន	-11.3693
▁Dariussssss	-11.3693
▁Regulator	-11.3693
▁people	-11.3693
▁rsquo	-11.3693
contact	-11.3693
hwn	-11.3693
▁packed	-11.3694
▁Truth	-11.3695
▁Institute	-11.3695
ដោះលែង	-11.3699
uzz	-11.3702
▁17:3	-11.3703
ញេ	-11.3704
ផ្សព្វផ្សាយសង្គម	-11.3704
សតវត្សទី	-11.3711
▁សព្វថ្ងៃនេះយើង	-11.3714
3,000	-11.3716
ត្រូវបានគេស្គាល់	-11.3722
ចុះហត្ថលេខាលើ	-11.3725
ព្រះគុណ	-11.3725
ដែនដី	-11.3734
Auction	-11.3743
ខិត	-11.3748
▁សូម្បី	-11.376
របប	-11.376
är	-11.3761
Internet	-11.3762
World	-11.3762
China	-11.3765
▁Tube	-11.3776
តំណាងឱ្យ	-11.378
មានសារៈសំខាន់	-11.3789
▁Angel	-11.3795
ភេ	-11.3795
-240	-11.3795
ឧត្តមសិក្សា	-11.3798
កុលសម្ព័ន្ធ	-11.3798
ចង្វាក់	-11.3798
ចំណង់ចំណូលចិត្ត	-11.3798
ជាលិកា	-11.3798
ពិស្ដារ	-11.3798
ឧទ្ទិស	-11.3798
▁Flodeal	-11.3798
▁Pulsar	-11.3798
Desktop	-11.3798
Wholesal	-11.3798
រឿងព្រេង	-11.3798
ល័ក្ខខ័ណ្ឌ	-11.3798
បង្គន់	-11.3798
ការទទួលជ័យជម្នះ	-11.3798
▁ការកសាងសមត្ថភាព	-11.3798
▁York	-11.3798
អភិបូជា	-11.3798
▁ដេរលំនាំរ៉ូប	-11.3798
▁LDAP	-11.3798
េតាណុល	-11.3798
▁Brown	-11.3798
▁Town	-11.3798
ចម្លាក់ថ្មម៉ាប	-11.3799
អនុបណ្ឌិតវេទមន្ត	-11.3799
Samples	-11.3799
សម្បូរ	-11.3799
▁(2013)	-11.3799
▁កុំភ្លេច	-11.38
client	-11.38
▁HDPE	-11.3801
ត្រៀមខ្លួន	-11.3801
ological	-11.3803
ស្ទ្រី	-11.3804
▁២៧១	-11.3804
▁layer	-11.3804
/06/16	-11.3807
សារធាតុគីមី	-11.3807
startup	-11.3808
ពិភាក្សាការងារ	-11.3812
តុលា	-11.3815
ស្លា	-11.3817
ព្រះពុទ្ធ	-11.3821
young	-11.3825
សារជាតិ	-11.3836
សុពលភាព	-11.3839
▁Sale	-11.3844
="5.3	-11.3847
ដំបូងគេ	-11.385
ភើ	-11.3856
អះអាង	-11.3864
1.20	-11.3865
ងាយស្រួលបោះពុម្ព	-11.3871
ivo	-11.3877
ស្រោមដៃ	-11.388
ប្រៀប	-11.3898
itting	-11.3901
ឈ្មួញ	-11.3904
ប្តេជ្ញា	-11.3904
ប៊ុលហ្គារី	-11.3905
លេចធ្លោ	-11.3905
▁កុងតាក់	-11.3905
portugal	-11.3905
ពន្យាពេល	-11.3905
ព្រឹត្តិប័ត្រ	-11.3905
មូលធន	-11.3905
អាយហ្វូន។	-11.3905
▁Fantasy	-11.3905
▁Okular	-11.3905
▁Organization	-11.3905
▁Wisconsin	-11.3905
▁mFortune	-11.3905
▁website	-11.3905
▁រំលងទៅមាតិកា	-11.3905
ជ្ញា	-11.3905
ក្បៀស	-11.3905
▁Album	-11.3905
▁GMCC	-11.3905
ប្រលង	-11.3905
▁Plc	-11.3905
▁ដូច្នោះ	-11.3905
▁FAQ	-11.3905
-05:00	-11.3905
▁ក្រសួងការបរទេស	-11.3906
▁every	-11.3907
▁(+855)23	-11.3907
ភ័យ	-11.3908
▁Samba	-11.3909
▁changes	-11.3912
សត្វខ្លាឃ្មុំ	-11.3913
▁foo	-11.3913
▁Adder	-11.3915
មនុស្សចាស់	-11.3916
ប្រភេទផ្សេងគ្នា	-11.392
▁ដីពាណិជ្ជកម្ម	-11.3921
សម័យទំនើប	-11.3921
▁Today	-11.3922
▁សារអេឡិចត្រូនិច	-11.3922
ចាក់ផ្សាយ	-11.3922
៨៩	-11.3922
ជូនពរ	-11.3929
write	-11.3936
ចេក	-11.3939
ត្រឡប់ទៅ	-11.3954
ស្ទង់មតិ	-11.3955
▁deposit	-11.3956
();	-11.3964
4,000	-11.3971
ក្រណាត់ជ្រាបទឹក	-11.3977
▁ផ្ទេរឯកសារ	-11.398
ចំណេញ	-11.3983
បន្សំ	-11.3984
immer	-11.3985
លាមក	-11.4
វីរុសកូរ៉ូណា	-11.4012
តូក្យូ	-11.4012
ទន្លេបាសាក់	-11.4012
ម៉ូនីទ័រ	-11.4012
▁Brokers	-11.4012
▁Huizhou	-11.4012
▁Original	-11.4012
▁translator	-11.4012
▁ខេមរភាសា	-11.4012
កម្ចាត់	-11.4012
ពិគ្រោះយោបល់	-11.4012
▁Munich	-11.4012
តាក់ស៊ី	-11.4012
sweden	-11.4012
ដោយរបៀបណា	-11.4012
គង់	-11.4013
លាងសំអាត	-11.4013
present	-11.4013
ការបែងចែក	-11.4014
ទូរសព្ទ័	-11.4015
▁ម្ដងទៀត	-11.4016
▁៥១១	-11.4016
3.00	-11.4017
▁Total	-11.4017
-2/	-11.4022
▁អម្ចាស់	-11.4023
▁ស្វែងយល់បន្ថែម	-11.4029
ពពុះ	-11.403
បទសម្ភាសន៍	-11.4031
ពហុមុខងារ	-11.4041
lette	-11.4043
▁Tea	-11.4044
5:00	-11.4052
ផ្ដល់ជូន	-11.4055
▁know	-11.408
ផ្តល់សេវាកម្ម	-11.408
ដើរតាម	-11.4081
▁Pipe	-11.4092
▁ជំពូកទី	-11.4094
ពណ៌ខៀវ	-11.41
សម្រួល	-11.4106
យន្តហោះឯកជ	-11.4109
ណូអែល	-11.4112
ធម្ម	-11.4115
ខិតខំ	-11.4121
កេរ្តិ៍	-11.4121
លំអៀង	-11.4121
អាសអាភាស	-11.4121
ឧបករណ៏	-11.4121
សំរួល	-11.4121
អ្នកចូលមកទស្សនា	-11.4121
▁SPYERA	-11.4121
▁ហ្វាយនែន	-11.4121
▁★★★★★	-11.4121
ដែលនៅជិតខ្ញុំ	-11.4121
ស្លូវ៉ាគី	-11.4121
▁Oracle	-11.4121
acledabank	-11.4121
បាឡិ	-11.4121
feature	-11.4121
▁Giant	-11.4121
▁Estonia	-11.4121
▁ណ្ណ	-11.4121
▁display	-11.4122
ម៉ូប៊ិ	-11.4123
ន្រ្	-11.4123
សប្បាយចិត្ត	-11.4125
លុបបំបាត់	-11.4126
នីឡុង	-11.4132
សេចក្ដីស្រឡាញ់	-11.4136
ជែល	-11.4144
ifier	-11.4145
="5.6	-11.4152
អាចមើលឃើញ	-11.4153
ស្មើគ្នា	-11.416
អុក	-11.4163
Graph	-11.4163
ចិនរោងចក្រផលិត	-11.4163
pool	-11.417
ហ្វឺ	-11.4178
▁Petr	-11.4198
ទាក់ទងទៅនឹង	-11.4207
ព្រី	-11.4207
▁Speed	-11.4223
ទូរសារ	-11.4224
ör	-11.4228
វិនាទី	-11.4229
Institut	-11.4229
ទួលគោក	-11.423
ប្រឹងប្រែង	-11.4231
ស៊ុយអែដ	-11.4231
នុយក្លេអ៊ែរ	-11.4231
hungary	-11.4231
ដីគោក	-11.4231
សុចរិត	-11.4231
សំរេច	-11.4231
អត្រាប្តូរប្រាក់	-11.4231
អូឡាំពិក	-11.4231
អ៊ីរ៉ង់	-11.4231
ឯកអគ្គរដ្ឋទូត	-11.4231
▁Prudential	-11.4231
▁ង្រ្គោះ	-11.4231
▁តិបិដក	-11.4231
▁ទីក្រុងនីងបូ	-11.4231
កន្ត្រក	-11.4231
▁Remote	-11.4231
លោកយ៉ូហាន	-11.4231
▁Kolab	-11.4231
▁Cream	-11.4231
▁Copy	-11.4231
▁TDK	-11.4232
កំពុងតែស្វែងរក	-11.4232
ការប៉ះទង្គិច	-11.4232
▁ចូលអានថ្ងៃទី	-11.4232
ការពិភាក្សា	-11.4235
speed	-11.4235
▁មការ៉េ	-11.4246
លេខកូដប័ណ្ណ	-11.4247
▁ពាក្យសុំ	-11.425
▁visit	-11.4251
▁using	-11.4255
បញ្ច	-11.4274
មានសុខភាពល្អ	-11.4286
ទៀតទេ	-11.4292
អនុញ្ញាតឲ្យ	-11.4303
ប្រទេសកូរ៉េ	-11.4305
Turn	-11.4315
៦៨	-11.4316
104.13	-11.4324
ត្រឹម	-11.433
ស្តាំ	-11.4333
0,00	-11.4334
ម៉ឺន	-11.4341
យ៉ាងតឹងរឹង	-11.4342
កូឡុំប៊ី	-11.4342
ពន្ធនាគារ	-11.4342
ស្មារតី	-11.4342
▁Armati	-11.4342
▁SmartLuy	-11.4342
មិនអើពើ	-11.4342
▁Fruity	-11.4342
ហ្គូហ្គល	-11.4342
▁install	-11.4342
▁Credit	-11.4342
▁កុងទ័រ	-11.4342
សុបិន្ត	-11.4342
ផ្លាកសញ្ញា	-11.4342
ព្រួយ	-11.4342
▁----	-11.4344
▁Import	-11.4344
8.193	-11.4347
▁Paris	-11.4347
▁ERW	-11.4348
ជាងគេបំផុត	-11.4348
ទីលំនៅ	-11.435
▁job	-11.4351
scope	-11.4354
ស្ទះ	-11.4356
▁ក្រសួងអ៊ិនធឺណិ	-11.4369
អភិ	-11.437
គ្រាប់បែក	-11.4372
polis	-11.4377
គឺជាអ្វីដែល	-11.4378
អ្នកកាប់	-11.4381
ម៉ាស៊ីនកិន	-11.4382
known	-11.4391
ថ្ន	-11.44
យាយ	-11.4402
Wiki	-11.4403
នុយ	-11.4405
កាត់ឡាស៊ែរ	-11.4408
ផ្នែកខាងក្នុង	-11.4429
▁opt	-11.4431
ក្រវ៉ាត់	-11.4438
store	-11.4446
ាប់ចរន្តអគ្គីសនី	-11.4452
electric	-11.4454
ព័ទ្ធ	-11.4454
security	-11.4454
widget	-11.4454
▁គំនូស	-11.4454
អ៊ីនធឺណែ	-11.4454
.08.2018	-11.4454
ឆ្នូត	-11.4454
ឆ្ពោះទៅរក	-11.4454
អង់តែន	-11.4454
▁Welcome	-11.4454
▁iTunes	-11.4454
▁ដុះខាន់	-11.4454
ថ្វាយ	-11.4454
▁Lithium	-11.4454
▁Notification	-11.4454
session	-11.4454
ធ្វើលំហាត់ប្រាណ	-11.4454
▁Dragon	-11.4454
មេត្តា	-11.4454
▁បុព្វបទ	-11.4454
▁COWIN	-11.4454
▁Tonle	-11.4454
អាងហែលទឹក	-11.4455
Lesson	-11.4456
គណបក្សប្រជាជន	-11.4457
▁Program	-11.4458
▁satin	-11.4458
ត្រូវបានចេញផ្សាយ	-11.446
chloro	-11.4461
▁បោះដែក	-11.4463
អនុបាត	-11.4463
ទំនេរ	-11.4464
ប៉ារ៉ាម៉ែត្រ	-11.4464
-1/#	-11.4466
▁usr	-11.4473
▁HDI	-11.4495
មានទីតាំងនៅ	-11.4522
បញ្ជាក់បច្ចេកទេស	-11.4527
="5.2	-11.4529
សក្	-11.4539
វិលជុំ	-11.454
▁0,5	-11.4546
សាធារណ	-11.4549
▁សហរដ្ឋ	-11.4566
plugin	-11.4568
ស្ថានទូត	-11.4568
dictionary	-11.4568
បុព្វលាភ	-11.4568
▁Akregator	-11.4568
africa	-11.4568
មិនគួរឱ្យជឿ	-11.4568
ផ្សែង	-11.4568
▁Colorado	-11.4568
▁Bassac	-11.4568
អ៊ីម៉ែលមកកាន់យើង	-11.4568
▁Bridge	-11.4568
រំពឹងថានឹង	-11.4569
ផ្លុំ	-11.4569
ដំណក់	-11.457
▁Latest	-11.4571
▁Siemens	-11.4571
▁Angeles	-11.4573
រងរបួស	-11.4575
▁Karl	-11.4576
ប៊ឺ	-11.4577
បោះបង់ចោល	-11.4577
▁very	-11.4578
▁Jeff	-11.4579
jpg	-11.458
ម៉ុន	-11.4585
QShortcut	-11.4585
ព្រមទាំង	-11.4586
ស្រះ	-11.4603
តាមបំណង	-11.4605
ការពិសោធន៍	-11.4615
▁Mike	-11.4627
ដេលី	-11.4641
៨៦	-11.4645
dcross	-11.465
="6.1	-11.4655
អនុលោម	-11.4679
ជំនួប	-11.4683
ម៉ិកស៊ិក	-11.4683
ស្តេរ៉េអូ	-11.4683
▁Nashville	-11.4683
aribbean	-11.4683
សវនកម្ម	-11.4683
សិប្បនិម្មិត	-11.4683
អត់ឱន	-11.4683
អ៊ូប៊ុនទូ	-11.4683
▁Aznavour	-11.4683
▁HQQNUO	-11.4683
▁លោកមូបារ៉ាក់	-11.4683
អាណត្តិ	-11.4683
▁Advanced	-11.4683
▁Jizera	-11.4683
▁Policy	-11.4683
▁showcase	-11.4683
▁Earth	-11.4683
▁folder	-11.4683
ប្រតិភូ	-11.4683
▁CPU	-11.4683
hopify	-11.4684
ជនអន្តោប្រវេសន៍	-11.4684
យល៍	-11.4685
ឆ្មាំ	-11.4688
▁Chiang	-11.4688
/06/18	-11.4689
style	-11.4689
▁Grand	-11.4691
▁ចំណុចរលាយ	-11.4693
ប្រ៊ី	-11.4695
ogg	-11.4698
ចូលទស្សនា	-11.4699
សេវាផ្ទេរប្រាក់	-11.4702
ព្រះគ្រិស្ដ	-11.4704
▁River	-11.471
="5.4	-11.4714
កំណែទម្រង់	-11.4716
▁cir	-11.4724
OUT	-11.4729
ោធ	-11.4751
▁main	-11.4762
បីដង	-11.4764
្បត្តិ	-11.4779
ដាច់ដោយឡែក	-11.4784
ផ្តល់ជំនួយ	-11.4792
កោស	-11.4795
▁(+855)	-11.4797
កំណត់អត្តសញ្ញាណ	-11.4798
ទូរស័ព	-11.4799
មីយ៉ាន់ម៉ា	-11.4799
▁GNOME	-11.4799
filament	-11.4799
yahoo	-11.4799
សុញ្ញកាស	-11.4799
▁Illinois	-11.4799
▁League	-11.4799
▁Middle	-11.4799
▁include	-11.4799
អបអរ	-11.4799
ខ្សែរ៉ូត	-11.4799
▁(24×	-11.4799
▁NZD	-11.4799
▁Svay	-11.4799
ចោទ	-11.4799
ទេវតា	-11.4799
▁Louis	-11.48
▁Harley	-11.4801
▁នោះហើយជា	-11.4801
ម្ភៃ	-11.4802
មហាសមុទ្រ	-11.4802
▁អេសាយ	-11.4804
parall	-11.4805
▁SMD	-11.4805
សំណុំបែបបទដែលបាន	-11.4806
▁Tuol	-11.4807
អក្ខរ	-11.4808
ឯកសារផ្ទេរ	-11.4808
ការហៅទូរស័ព្ទ	-11.4809
អនុសញ្ញា	-11.4819
≥	-11.4834
សប្ដាហ៍	-11.4834
ភាពសប្បាយរីករាយ	-11.4836
ខ្ម	-11.4853
▁Window	-11.4855
ភ្ញៀវទេសចរ	-11.4875
anna	-11.4885
ព្រឹ	-11.4905
វិបសាយ	-11.491
▁Contact	-11.4911
ម្រាម	-11.4917
ពិធីជប់លៀង	-11.4917
.06.2018	-11.4917
កីឡដ្ឋាន	-11.4917
ជំរឿន	-11.4917
ជំហរ	-11.4917
ដង្កូវ	-11.4917
ប្រឈមមុខនឹង	-11.4917
អាប់ដេត	-11.4917
▁Indonesia	-11.4917
▁tensile	-11.4917
▁លេជេន	-11.4917
▁Venice	-11.4917
request	-11.4917
▁Hydro	-11.4917
ការឆ្លងមេរោគ	-11.4917
ក្រឡុក	-11.4917
ដែលមានឈ្មោះថា	-11.4917
result	-11.4917
3,5	-11.4917
សម្បូរបែប	-11.4917
▁ដេរលំនាំ	-11.4918
ខួបកំណើត	-11.4918
▁ស្រាក្រហម	-11.4919
▁Friday	-11.4922
សូចនាករបរទេស	-11.4923
ត្រូវបានគេហៅថា	-11.4928
▁សិក្សានៅប្រទេស	-11.4934
៦៦	-11.4952
សូមអរគុណ	-11.4953
បោះបង់	-11.4962
(33)	-11.4966
ចង់ដឹង	-11.4966
អើយ	-11.4977
ក្រុមតន្រ្តី	-11.4985
▁អំឡុង	-11.4997
ថ្ងៃបុណ្យ	-11.5034
ស៊ីមកាត	-11.5035
ពោរពេញ	-11.5036
ធ្វើសមកាលកម្ម	-11.5036
ប្រមាញ់	-11.5036
cuador	-11.5036
ក្ដៅ	-11.5036
ជំងឺដាច់សរសៃឈាម	-11.5036
▁92904034	-11.5036
បំប៉ន	-11.5036
▁Jaishi	-11.5036
192.168.	-11.5036
Status	-11.5036
▁លេញ	-11.5036
ឥវ៉ាន់	-11.5037
អ៊ីនគ្រីប	-11.5037
បង្ហាត់	-11.5037
▁(2011)	-11.5037
▁update	-11.5037
យ៉េន	-11.5037
ទសវត្សរ៍	-11.5037
▁២០០៤	-11.5037
▁element	-11.5039
lbania	-11.5041
robot	-11.5042
ជំងឺមហារីក	-11.5042
▁Bosch	-11.5042
▁rules	-11.5044
graph	-11.5045
បទពិសោធន៏	-11.5045
ធុន	-11.5049
មូលដ្ឋានគ្រឹះ	-11.5059
ទំហំដី៖	-11.5062
ឌិ	-11.5063
គ្មានការស្ទង់មតិ	-11.5099
ពណ៌ក្រហម	-11.5101
ស្លៀកពាក់	-11.5111
ភាពជាក់លាក់ខ្ពស់	-11.5119
actic	-11.5144
▁local	-11.5154
ព្រឹទ្ធ	-11.5156
បំពង	-11.5156
និងខ្លឹមសារនៃ	-11.5156
.07.2018	-11.5156
កុហក	-11.5156
ដាវីឌ	-11.5156
យុវវ័យ	-11.5156
សន្និដ្ឋាន	-11.5156
អេដស៍	-11.5156
អ៊ឺរ៉ុប	-11.5156
▁FaceTime	-11.5156
▁Nandrolone	-11.5156
▁pieces	-11.5156
ពោះវៀន	-11.5156
▁KHMER	-11.5156
▁Welded	-11.5156
ពិដាន	-11.5156
រលួយ	-11.5156
វិសាលគម	-11.5156
ស្អប់	-11.5156
ការប្តេជ្ញាចិត្ត	-11.5156
▁Netscape	-11.5156
▁WWE	-11.5156
▁Island	-11.5157
▁ផ្ទៃមេឃ	-11.5159
▁program	-11.5159
គួរឱ្យស្រឡាញ់	-11.5159
}}	-11.5161
ប្រាណ	-11.5163
សកលវិទ្យាល័យ	-11.5166
ខាត់	-11.5177
ហុក	-11.518
ក្វាងទុង	-11.518
ជើងហោះហើរយន្តហោះ	-11.518
វ៉ុន	-11.5184
ប្តូរឈ្មោះ	-11.5197
ដើមទុន	-11.5244
យួរដៃ	-11.5266
free	-11.5273
ឪ	-11.5278
ច្រមុះ	-11.5278
ដំឡូង	-11.5278
ប្រម៉ូសិន	-11.5278
សំងាត់	-11.5278
▁Electronic	-11.5278
▁Hequanqingnuo	-11.5278
▁Mozilla	-11.5278
▁SnapPea	-11.5278
▁drifter	-11.5278
▁គីឡូបៃ	-11.5278
▁ស្រិចៗ	-11.5278
▁Capital	-11.5278
▁Kingdom	-11.5278
ស្រមៃ	-11.5278
▁schwing	-11.5278
▁Rooder	-11.5278
health	-11.5278
បញ្ចូន	-11.5278
▁Place	-11.5279
▁និងរូបភាពដោយ	-11.5279
cbm	-11.5279
ក្បត់	-11.5281
ជ្រុល	-11.5281
▁ខាងវិបសាយ	-11.5282
មិនអីទេ	-11.5282
អះអាងថា	-11.5284
/03/18	-11.5284
.00%	-11.5286
សិស្សនិស្សិត	-11.5289
ផ្សារភ្ជាប់	-11.5296
▁Prime	-11.53
▁feeder	-11.53
ទទួលបន្ទុក	-11.5307
គេហៅថា	-11.5308
អាសយដ្ឋានអ៊ីមែល	-11.5327
eppe	-11.5334
បញ្ហាប្រឈម	-11.5336
ពេលខ្លះ	-11.5339
២០១៥	-11.5342
≤	-11.535
Online	-11.535
Google	-11.535
ប្រារព្ធពិធី	-11.5368
ចុះផ្សាយ	-11.5369
បំណង	-11.5372
ប្រទេសម៉ាឡេស៊ី	-11.5375
មគ្គុទ្ទេ	-11.5381
ថ្ង	-11.54
ឌ្ឍ	-11.5401
អចិន្រ្តៃយ៍	-11.5402
កំពង់ចាម	-11.5402
អ៊ីនធើណេ	-11.5402
▁Delaware	-11.5402
▁GnuPG	-11.5402
▁Simplilearn	-11.5402
▁nanoparticles	-11.5402
fabric	-11.5402
ដួលរលំ	-11.5402
▁Sliding	-11.5402
ប្រញាប់	-11.5402
ថោន	-11.5402
ប្រអប់សំបុត្រលេខ	-11.5402
▁Edge	-11.5402
▁price	-11.5402
KDEDIR	-11.5402
▁3.0.1.	-11.5402
ចំណីអាហារ	-11.5402
ស្នង	-11.5402
ла	-11.5402
▁Shengd	-11.5403
▁Cross	-11.5403
ជំរុំ	-11.5404
launch	-11.5407
ឆាប់ៗ	-11.5408
វិទ្យុសកម្ម	-11.5413
phenol	-11.5413
សំបុក	-11.5416
កំពុងសម្លឹងមើល	-11.5417
តារាងបរិភោគអាហារ	-11.5429
ខេត្តបាត់ដំបង	-11.5433
កាលកំណត់	-11.546
ព្រឹត្ត	-11.5466
អគ្គនាយក	-11.5474
ប៉ុង	-11.5478
តាមបណ្តោយ	-11.5482
google	-11.5484
ត្រូវបានអនុម័ត	-11.5485
អាស៊ីអាគ្នេយ៍	-11.5499
ញញួរ	-11.5527
បណ្តុំ	-11.5527
បណ្តេញ	-11.5527
ប៉ាន់ស្មាន	-11.5527
លីចូម	-11.5527
▁Panasonic	-11.5527
▁Seguidores	-11.5527
ទំរង់	-11.5527
កន្លងផុត	-11.5527
▁Training	-11.5527
daily	-11.5527
ការឈឺចាប់	-11.5527
album	-11.5527
▁UnionPay	-11.5527
ទេសរដ្ឋមន្រ្តី	-11.5528
hydroxy	-11.5528
▁ក្លូន	-11.5528
▁24/7	-11.5528
ទំនុកចិត្ត	-11.5528
norway	-11.5529
green	-11.553
ប្រាំបួន	-11.5532
ល្អមែនទែន	-11.5532
នៅជុំវិញពិភពលោក	-11.5533
▁2.76	-11.5536
▁Break	-11.5536
សូមផ្តល់អនុសាសន៍	-11.5547
Wallet	-11.555
+7)	-11.5555
តស៊ូមតិ	-11.556
្លែ	-11.5586
៉ិន	-11.5593
Benz	-11.5602
អំណះអំណាងជើង	-11.5605
▁កន្លង	-11.5605
▁UNI	-11.561
ថ្នាក់ដឹកនាំ	-11.561
▁Team	-11.5617
វិមាត្រ	-11.5621
អំឡុងពេល	-11.5641
មហាផ្ទៃ	-11.5645
ឫស្សី	-11.5653
ចំរុះ	-11.5653
ជួបប្រទះ	-11.5653
ថ្ងៃស្អែក	-11.5653
ទេសរដ្ឋមន្ត្រី	-11.5653
ប្រាក់បៀវត្សរ៍	-11.5653
យុថ្កា	-11.5653
យ៉ាកុប	-11.5653
សវនាការ	-11.5653
▁Africa	-11.5653
▁Cursor	-11.5653
▁Odessa	-11.5653
▁Odisha	-11.5653
▁adhesive	-11.5653
តែម្នាក់ឯង	-11.5653
មេគង្គ	-11.5653
ម្ដាយ	-11.5653
▁minutes	-11.5653
▁properly	-11.5653
▁Thermo	-11.5653
អាចចរចាបាន	-11.5653
អង្វរ	-11.5653
ភាគីទីបី	-11.5654
aolong	-11.5654
▁បណ្ដាល	-11.5654
សហរដ្ឋអាមេរិច	-11.5654
ទាហាន	-11.5654
វិចិត្រករ	-11.5654
ដាក់ពាក្យសុំ	-11.5654
▁Trump	-11.5655
▁County	-11.5655
▁ATAD	-11.5656
▁Prepar	-11.5656
ngolia	-11.5657
ទូរស័ព្ទចល័តរន្ធ	-11.5657
ស្រោច	-11.5658
▁អ្ន	-11.5659
ផ្ដល់អនុសាសន៍	-11.5661
ធ្វើឱ្យប្រសើរ	-11.5664
ឆនំ	-11.5665
ដែកថែបកាបូន	-11.567
មិត្តរួម	-11.567
វ៉ៃ	-11.5674
ការជាវ	-11.5712
ផោន	-11.574
ប្រវត្តិរូប	-11.574
aving	-11.5754
message	-11.5756
English	-11.5756
Ctrl	-11.5756
▁10.1	-11.5756
▁16:1	-11.5768
ប្រាថ្នា	-11.5779
▁បណ្ដោះ	-11.578
ូបនីយកម្ម	-11.5781
បិសាច	-11.5781
ល្មើស	-11.5781
▁Sleepsuits	-11.5781
/11/2019	-11.5781
QFontDatabase	-11.5781
ជនរងគ្រោះ	-11.5781
នំបុ័ង	-11.5781
សេអ៊ូល	-11.5781
▁Community	-11.5781
▁Litbright	-11.5781
▁Makara	-11.5781
Distributor	-11.5781
Address	-11.5781
ឆ្នាំ២០២០	-11.5781
បានទាមទារ	-11.5781
ការរួមភេទ	-11.5782
▁VISA	-11.5782
▁RNA	-11.5782
computer	-11.5782
ដាំដុះ	-11.5782
គ្រីស្ទាន	-11.5782
stream	-11.5782
▁Expert	-11.5782
▁CSGOBET	-11.5782
សង្គ្រោះបន្ទាន់	-11.5784
▁SSD	-11.5785
▁ទង់ជាតិ	-11.5786
▁Wifi	-11.5787
quick	-11.5806
ឆន្ទៈ	-11.5808
រយៈពេលយូរ	-11.5813
Paint	-11.5824
ជួបជុំ	-11.5826
▁០០២	-11.5833
អេឡិចត្រ	-11.584
ហ្គែ	-11.5843
00,0	-11.5858
Exam	-11.5863
អាស្រ័យ	-11.5891
បានរចនាឡើង	-11.5905
ទៅវិញទៅមក	-11.5911
ធញ្ញជាតិ	-11.5911
សមិទ្ធិផល	-11.5911
អាថ៌កំបាំង	-11.5911
▁Cambodge	-11.5911
▁Florida	-11.5911
▁Kevin	-11.5911
▁kturtle	-11.5911
▁ខណ្ឌដូនពេញ	-11.5911
ម៉ូដឹម	-11.5911
▁Richard	-11.5911
▁Skrill	-11.5911
▁Social	-11.5911
▁graphene	-11.5911
ស្រមុង	-11.5911
ហ្គ្រោ	-11.5911
▁អ្នកយកព័ត៌មាន	-11.5911
អាចជឿទុកចិត្តបាន	-11.5912
▁Tower	-11.5912
បុព្វ	-11.5912
▁Boeing	-11.5912
បង្វែរ	-11.5912
▁ទូលាយ	-11.5912
ចៅក្រម	-11.5912
▁(2010)	-11.5912
រំដោះ	-11.5913
▁ទសភាគ	-11.5913
▁PNG	-11.5913
ATION	-11.5913
បំណងប្រាថ្នា	-11.5914
▁០១៥	-11.5914
ខេត្តព្រះសីហនុ	-11.5917
5.000	-11.5918
▁២០០១	-11.5922
ទាល់តែ	-11.5925
ស្ថានីយ៍រថភ្លើង	-11.5935
ងាយស្រួលនិងរហ័ស	-11.5939
glass	-11.5941
វត្ថុធាតុ	-11.5952
ម៉ែត	-11.5975
ម៉ែន	-11.6009
៤៩	-11.6014
ខ្សែកាបអុបទិ	-11.6018
ធ្វើឱ្យប្រាកដថា	-11.6026
២០១៤	-11.6027
ផ្នែកមួយនៃ	-11.6032
គីឡូម៉ែត្រ	-11.6035
លេខទូរសព្ទ	-11.6039
.73.1	-11.6041
បរិញ្ញា	-11.6043
phosph	-11.6043
កីឡាវាយកូនគោល	-11.6043
ទេពកោសល្យ	-11.6043
ដែលមិនធ្លាប់មាន	-11.6043
បណ្ដុះបណ្ដាល	-11.6043
រ៉ាំរ៉ៃ	-11.6043
▁Meyelashstore	-11.6043
▁ទីក្រុងតុងគួ	-11.6043
▁ឈុតគេង	-11.6043
កោះរុង	-11.6043
Library	-11.6043
របៀបវារៈ	-11.6043
▁nicht	-11.6043
▁Silver	-11.6043
ជួញដូរនៅទីផ្សារ	-11.6043
▁ញូវ	-11.6044
ឧទា	-11.6044
អាចទុកចិត្តបាន	-11.6044
▁Thani	-11.6045
រៀបចំផែនការ	-11.6049
សណ្ត	-11.6049
ពត៌មានលំអិត	-11.6051
ចង្អុលបង្ហាញ	-11.6054
ដោះសោ	-11.6054
Title	-11.6059
អ៊ឹម	-11.6063
5000,0	-11.6077
បន្ទះសៀគ្វី	-11.6084
ដំណើរកម្សាន្ត	-11.6093
ថ្នាក់រៀន	-11.6099
ក្សត្រ	-11.6133
ខ្វះ	-11.6157
ទ្រនាប់	-11.617
▁Virgin	-11.6173
ឈូក	-11.6174
អចលន	-11.6176
វង្វេង	-11.6176
សំភាសន៍	-11.6176
egypt	-11.6176
ខកខាន	-11.6176
▁Airpull	-11.6176
▁RayHaber	-11.6176
▁different	-11.6176
▁jDownloader	-11.6176
▁lingerie	-11.6176
បោសសំអាត	-11.6176
វិស្សមកាល	-11.6176
នីកែល	-11.6176
ស្អិត	-11.6176
ស្យូម	-11.6176
▁contain	-11.6176
កម្មវិធីអាហារមួយ	-11.6176
▁complete	-11.6176
▁Cyber	-11.6176
escriptionSample	-11.6176
ផ្លូវជាតិលេខ	-11.6176
dustry	-11.6176
▁webcam	-11.6176
▁ទម្ងន់ម៉ូលេគុល	-11.6177
▁Airbus	-11.6179
▁Jones	-11.6181
▁ហាន់	-11.6181
ustria	-11.6185
ubric	-11.6187
ថ្នាំកូតភូ	-11.6191
7-3	-11.6194
អ្នកក៏អាច	-11.6232
តំរូវការ	-11.6311
ចម្រាញ់	-11.6311
ឆើតឆាយ	-11.6311
ជំរើស	-11.6311
ទស្សនិកជន	-11.6311
និយោជិក	-11.6311
អង្កេត	-11.6311
អ័ព្ទ	-11.6311
ឧទាហរណ៏	-11.6311
.01.2019	-11.6311
CLICK	-11.6311
churchofchrist	-11.6311
និយោជក	-11.6311
លួងលោម	-11.6311
▁Spotify	-11.6311
▁anabolic	-11.6311
▁fiberglass	-11.6311
rikoooo	-11.6311
▁Georgia	-11.6311
▁Nakhon	-11.6311
រត់គេចពី	-11.6311
▁Zealand	-11.6311
▁Cinema	-11.6311
ру	-11.6312
មានតំលៃសមរម្យ	-11.6312
▁Transport	-11.6312
▁ស្នេហ៍ខ្ញុំ	-11.6312
ធឺណិត	-11.6312
ពោធិ	-11.6312
▁Worm	-11.6312
ឆ្នាំងសាក	-11.6313
ធ្វើបទបង្ហាញ	-11.6313
▁groupware	-11.6314
▁តាន់	-11.6317
ចុះចត	-11.6323
ចាត់ទុកថាជា	-11.6323
▁Sangk	-11.6328
ស្តេរ៉	-11.6333
0-9	-11.6337
អាគ្នេយ៍	-11.6342
អត្តសញ្ញាណប័ណ្ណ	-11.6345
ក្រានីតក្បឿង	-11.6346
សេចក្តីយោង	-11.6353
បណ្តោយ	-11.636
រូបវិទ្យា	-11.6393
ains	-11.6441
/02/17	-11.6448
electron	-11.6448
ឆ្ងល់	-11.6448
អង់ស៊ីម	-11.6448
អន្តរាគមន៍	-11.6448
wireless	-11.6448
កាតាលីករ	-11.6448
តក្ក	-11.6448
ពន្ធដារ	-11.6448
រ៉េអាក់ទ័រ	-11.6448
លំដាប់អក្សរក្រម	-11.6448
▁(855-23)	-11.6448
▁Alexander	-11.6448
▁Corporation	-11.6448
▁KPlayer	-11.6448
▁KWrite	-11.6448
▁acetate	-11.6448
▁gasket	-11.6448
▁Terms	-11.6448
ខ្ពង់	-11.6448
ជណ្តើរយន្ត	-11.6448
សុដន់	-11.6448
▁eBay	-11.6448
▁ណ្ត	-11.6448
▁Cixi	-11.6448
▁Awards	-11.6449
▁polybag	-11.6449
▁24-36	-11.6449
ល្បែងស៊ីសង	-11.6449
ថូម៉ាស	-11.645
▁តោះ	-11.6452
Center	-11.6471
title	-11.6476
8,000	-11.6503
កុម្	-11.6505
ពុទ្ធ	-11.6558
គ្រិស្ដ	-11.6562
.2.2	-11.6572
រ៉ាប់រង	-11.6584
Script	-11.6587
ngNamePossessive	-11.6587
ក្រុងហ្វ័រសាន	-11.6587
ផ្លូវហាយវ៉េ	-11.6587
លើកដាក់ទំនិញ	-11.6587
ស័ព្ទ	-11.6587
ឧកញ៉ា	-11.6587
េងជាកីឡាករបម្រុង	-11.6587
▁COMMAND	-11.6587
▁Clarinet	-11.6587
▁Directory	-11.6587
▁Meanchey	-11.6587
▁Ubuntu	-11.6587
▁មិនមានផ្កាភ្លើង	-11.6587
ជំនិត	-11.6587
ប្រេងរំអិល	-11.6587
ជួលយន្តហោះនៅជិត	-11.6587
▁next	-11.6587
Cleaner	-11.6587
▁Kandal	-11.6587
ដំណាក់	-11.6587
នាងម៉ារី	-11.6588
▁dielectric	-11.6588
សរសៃឈាម	-11.6588
តាមផ្លូវច្បាប់	-11.6589
,00€	-11.6589
សម្ពន្ធ	-11.6594
សំបូរ	-11.6596
atvia	-11.6625
▁emulsion	-11.6627
ផ្ទេរឯកសារធំ	-11.6646
វិលត្រឡប់	-11.6652
បានប្រារព្ធឡើង	-11.6666
(40)	-11.6675
emulsions	-11.6688
ភក្ដិ	-11.6706
ថ្នេរ	-11.6713
Rep	-11.6719
រម្យ	-11.6727
ាធិការ	-11.6727
៉ិចទ័រ	-11.6728
ផ្តាច់ព្រ័ត្រ	-11.6728
កខ្វក់	-11.6728
ខ្មោច	-11.6728
ប្រវេសន៍	-11.6728
រញ្ជួយដី	-11.6728
អុហ្វសិត	-11.6728
▁Concrete	-11.6728
▁ECHOcommunity	-11.6728
▁Saskatchewan	-11.6728
▁Weekend	-11.6728
▁វេទិកាកាវ៉ាសាគី	-11.6728
▁អ៊ីស្លង់	-11.6728
ធ្វើមាត្រដ្ឋាន	-11.6728
សំដែង	-11.6728
EMAIL	-11.6728
oftkelo	-11.6728
មនុស្សគ្រប់គ្នា	-11.6728
▁before	-11.6728
ការផ្តោតអារម្មណ៍	-11.6728
▁command	-11.6728
▁Ferrule	-11.6728
▁Cisco	-11.6728
PANA	-11.6729
romotion	-11.6731
សុវណ្ណ	-11.6731
oupling	-11.6732
ដកដង្ហើម	-11.6732
VDC	-11.6734
ភ័ក្	-11.6736
កាលពីឆ្នាំមុន	-11.6737
hopper	-11.6744
keyboard	-11.6745
factor	-11.6758
អស់អ្នកដែល	-11.6793
សតវត្ស	-11.6847
កាបោន	-11.687
ឯកអគ្គរាជទូត	-11.6871
ក្លាហាន	-11.6871
ចង្កូត	-11.6871
ជ័យជំនះ	-11.6871
វេទនា	-11.6871
អកុសល	-11.6871
▁ចិនសានដុង	-11.6871
TwitterSubscribe	-11.6871
ចំបើង	-11.6871
សម្រកទម្ងន់	-11.6871
អធិបតី	-11.6871
▁swimwear	-11.6871
▁ចត្រង្គ	-11.6871
▁ដន្យ	-11.6871
quality	-11.6871
រដ្ឋលេខាធិការ	-11.6871
រណសិរ្ស	-11.6871
វីឌីអូ	-11.6871
សោកស្តាយ	-11.6871
▁Agusta	-11.6871
▁Sitemap	-11.6871
▁Jumper	-11.6871
▁audio	-11.6871
ឬស្សី	-11.6871
Pirater	-11.6871
Bentley	-11.6871
Process	-11.6871
▁[4]	-11.6871
reference	-11.6872
▁teeth	-11.6872
bengal	-11.6873
▁គ្រឹះស្ថានម	-11.6877
office	-11.6882
វិភាគទាន	-11.6882
worth	-11.6899
front	-11.6906
ម៉ល	-11.6913
6,000	-11.692
ប្រតិទិន	-11.6925
9-2	-11.6965
User	-11.6976
រាជ្យ	-11.6989
សង្វាក់	-11.6998
សង្រ្គាម	-11.7016
ស្ថាបត្យករ	-11.7016
=4.9.7	-11.7016
Gilks	-11.7016
គ្រោះមហន្តរាយ	-11.7016
ចង្កេះ	-11.7016
ព្រះច័ន្ទ	-11.7016
▁Gulfstream	-11.7016
▁Netflix	-11.7016
▁Newfoundland	-11.7016
▁Petersburg	-11.7016
▁តំម្លៃ	-11.7016
ឈ្មោល	-11.7016
▁BETCRIS	-11.7016
ដែលមានអនុភាព	-11.7016
បើប្រៀបធៀបទៅនឹង	-11.7016
រ៉ូម៉ានី	-11.7016
▁general	-11.7016
▁servo	-11.7016
▁software	-11.7016
▁បានឱ្យដឹងថា	-11.7016
ផ្ដល់ឱ្យអ្នក	-11.7016
កញ្ឆា	-11.7016
ទាញយកតន្ត្រីនិង	-11.7016
▁Lotte	-11.7016
ដឹកអ្នកដំណើរ	-11.7016
ក្រសួងសាធារណការ	-11.7017
▁Daniel	-11.7017
មានសមាជិកដែល	-11.7017
IGHT	-11.7017
▁rotor	-11.7018
បង្ខូច	-11.7018
???	-11.7018
បាល់បញ្ចូលទី	-11.7021
ីយកម្ម	-11.7022
frame	-11.7026
ត្រួតត្រា	-11.703
Cookie	-11.7031
អ្នកគឺជាអ្នក	-11.7084
Note	-11.7093
ម៉ិ	-11.7109
spir	-11.7112
ទុយោធារាសាស្ត្រ	-11.715
ភ័ណ្ឌ	-11.7163
បង្គាប់	-11.7163
ពន្លត់	-11.7163
កន្លះ	-11.7163
ប៉ាគីស្ថាន	-11.7163
ផូស្វ័រ	-11.7163
សឹង្ហ	-11.7163
▁Canopy	-11.7163
▁JPEG	-11.7163
▁Kneader	-11.7163
▁Refugee	-11.7163
▁Sibylle	-11.7163
▁litecoin	-11.7163
▁ripstop	-11.7163
▁ថិរវេលា	-11.7163
▁Kansas	-11.7163
▁ម៉ែតការ៉េ	-11.7163
▁រន្ធដោតផ្លែ	-11.7163
▁Jumma	-11.7163
scribe	-11.7163
ទប់ទល់នឹង	-11.7163
▁SVN	-11.7164
▁DIY	-11.7164
ផលចំណេញ	-11.7164
▁សុខែម	-11.7164
NFL	-11.7166
▁8.2.3	-11.7166
រួបរួម	-11.721
0/50	-11.7235
Please	-11.7239
តម្រៀប	-11.724
Manufacturer	-11.724
Group	-11.724
Mobile	-11.724
អេហ្វអេ	-11.7241
ល្បែងបៀ	-11.7252
▁12:0	-11.7252
បោះពុម្ភ	-11.7303
ផាកពិន័យ	-11.7312
សង្រ្គោះ	-11.7312
guatemala	-11.7312
ydrochloride	-11.7312
កម្មន្តសាល	-11.7312
ជាយូរមកហើយ	-11.7312
ដ្យាក្រាម	-11.7312
ប៉ូតាស្យូម	-11.7312
▁Kitchenware	-11.7312
▁dehumidifying	-11.7312
▁memory	-11.7312
Unthank	-11.7312
▁Avenue	-11.7312
▁Guzzi	-11.7312
▁NULL	-11.7312
.10.2018	-11.7312
germany	-11.7312
ក្លែងធ្វើ	-11.7312
▁Sponge	-11.7312
▁sprite	-11.7312
▁Kyiv	-11.7312
អ៊ែ	-11.7313
▁Huafu	-11.7313
workshop	-11.7313
ប្រារព្ធធ្វើឡើង	-11.7313
▁FDA	-11.7314
eplacement	-11.7319
eeting	-11.7328
កក្កដា	-11.737
បានសាងសង់ឡើង	-11.7371
Bitcoin	-11.7401
ម្រេច	-11.7415
សិល្ប	-11.7461
វៃឆ្លាត	-11.7464
ដាក់ពង្រាយ	-11.7464
ប៊ីស្មុត	-11.7464
ផ្តាសាយ	-11.7464
▁99.999%	-11.7464
▁Altcoin	-11.7464
▁Bluetooth	-11.7464
▁clarinet	-11.7464
araguay	-11.7464
commerce	-11.7464
ចង្អៀត	-11.7464
ដោនឡូត	-11.7464
ទង់ដែង	-11.7464
▁Survey	-11.7464
collection	-11.7464
ជាឯកសារយោង	-11.7464
ទីក្រុងឌូបៃ	-11.7464
▁License	-11.7464
▁Slotjar	-11.7464
▁Mekong	-11.7464
▁course	-11.7464
សមរភូមិ	-11.7464
ក្លិនក្រអូប	-11.7464
Thailand	-11.7464
អង់ទី	-11.7464
church	-11.7464
▁Easy	-11.7464
operation	-11.7464
ត្រលប់មកវិញ	-11.7464
▁ANSI	-11.7464
សន្លាក់	-11.7465
ខ្លាំងក្លា	-11.7467
ក្បាច់	-11.747
Sync	-11.7473
ក្រសួងមហាផ្ទៃ	-11.7479
surf	-11.7481
សម្លឹងមើល	-11.7504
▁13:3	-11.7513
ស្ថាបនា	-11.7565
Free	-11.7572
="6.9	-11.7575
មហារីក	-11.7609
សម្ភាស	-11.7617
រដ្ឋផ្លរីដា	-11.7617
រាតត្បាត	-11.7617
/11/16	-11.7617
kajongg	-11.7617
ក្រុងទីរ៉ុស	-11.7617
ឃោសនា	-11.7617
ទ្រព្យសម្បត្ដិ	-11.7617
យេរូសាឡឹម	-11.7617
សញ្ជាតិ	-11.7617
▁Arkansas	-11.7617
▁Pennsylvania	-11.7617
▁unlimited	-11.7617
អិន្ឈិ៍	-11.7617
គេហដ្ឋាន	-11.7617
វិមជ្ឈការ	-11.7617
▁Thmey	-11.7617
▁WeChat	-11.7617
▁Wenzhou	-11.7617
កំលាំង	-11.7618
ក្រុមហ៊ុនហុងដា	-11.7618
▁Chiller	-11.7618
▁controller	-11.7618
▁Aramid	-11.7618
▁ត្រូវនឹងថ្ងៃទី	-11.7618
សូមចុចទីនេះ	-11.7618
▁Browser	-11.7618
domain	-11.7618
▁hypo	-11.7621
ជំនួយការស្តាប់	-11.7624
Droid	-11.7627
រីករាលដាល	-11.7636
country	-11.7686
រំពឹង	-11.7731
ថែមទាំង	-11.7771
នេប៉ាល់	-11.7774
ស្មុគ្រស្មាញ	-11.7774
អាហារសម្រន់	-11.7774
ellurium	-11.7774
ដង្កៀប	-11.7774
តង់ហ្សានី	-11.7774
ទម្លាប់	-11.7774
ទីក្រុងប៊ែកឡាំង	-11.7774
មត្តេយ្យ	-11.7774
វ័យចំណាស់	-11.7774
អាល់ហ្សេរី	-11.7774
▁Pidgin	-11.7774
▁Whippets	-11.7774
▁ភពញឹកញប់	-11.7774
/01/18	-11.7774
▁Taylor	-11.7774
▁helical	-11.7774
▁Carbide	-11.7774
akistan	-11.7774
▁Premier	-11.7774
លីទុយអានី	-11.7774
science	-11.7774
▁Blythe	-11.7774
▁ចំណារ	-11.7774
មេដាយ	-11.7774
▁choose	-11.7774
▁ឯកឧត្ដម	-11.7774
អាផាតម	-11.7774
▁Mercedes	-11.7774
▁ណ្ហា	-11.7774
បន្លាស់កាក់បេតុង	-11.7774
វាសនា	-11.7775
សំរាក	-11.7775
មនោ	-11.7776
/07/20	-11.7779
▁ESD	-11.7784
មិថុនា	-11.7836
Photo	-11.7901
ប្រែក្លាយ	-11.7912
ខូអិលធី	-11.7931
ច្រឡំ	-11.7932
បដិវត្តន៍	-11.7932
ផ្ទះសំណាក់	-11.7932
▁Izmir	-11.7932
▁Jacquard	-11.7932
▁Stretch	-11.7932
▁Tumblr	-11.7932
▁flatbed	-11.7932
▁បច្ច័យ	-11.7932
ឈើឆ្កាង	-11.7932
▁Alaska	-11.7932
▁Impact	-11.7932
▁Inflatable	-11.7932
▁Mallari	-11.7932
▁Weifang	-11.7932
ណេអុង	-11.7932
▁effect	-11.7932
▁Scroll	-11.7932
▁Source	-11.7933
ម៉ាល់តា	-11.7933
▁សំលេងឆ្នោត	-11.7933
កិត្តិនាម	-11.7933
▁រីឯ	-11.7933
អធិការកិច្ច	-11.7933
ហត្ថ	-11.7938
Record	-11.7946
អ៊ីស្លាម	-11.7984
hunder	-11.7987
ទីស្នាក់ការ	-11.7991
លង្កា	-11.7995
▁17:1	-11.8
កំទេច	-11.8073
translate	-11.8074
Mexico	-11.8094
university	-11.8094
កណ្តាប់ដៃ	-11.8094
បង់ក្លាដ	-11.8094
ប្រក្រតី	-11.8094
Certificate	-11.8094
rtNamePossessive	-11.8094
ក្លរួ	-11.8094
និរន្តរភាព	-11.8094
មេនូឡាយហ្វ៍	-11.8094
សញ្ញាផុកឃីត	-11.8094
សំលាប់	-11.8094
អណ្តាត	-11.8094
▁AOXIN	-11.8094
▁Alibaba	-11.8094
▁Checkout	-11.8094
▁Dachshund	-11.8094
▁Equipment	-11.8094
▁Investment	-11.8094
▁KAlarm	-11.8094
▁LinkedIn	-11.8094
▁Minecraft	-11.8094
▁Sofitel	-11.8094
▁Tennessee	-11.8094
▁Thursday	-11.8094
▁VISHAY	-11.8094
▁polypropylene	-11.8094
▁កណ្ដឹង	-11.8094
កម្ទេច	-11.8094
កំហឹង	-11.8094
▁would	-11.8094
ស្រោប	-11.8094
ប៉ាណាម៉ា	-11.8094
flection	-11.8094
▁ជីវប្រវត្តិ	-11.8094
▁COINF	-11.8094
▁Kexi	-11.8094
▁ហ្គីណេ	-11.8094
▁SMTP	-11.8094
scape	-11.8103
▁Font	-11.811
វិច្ឆិកា	-11.8184
ព្រះសីហនុ	-11.8218
Φ	-11.8248
ខ្លឹមសារ	-11.8258
technology	-11.8258
ចង្កោម	-11.8258
និយោជិត	-11.8258
និយ័តករ	-11.8258
លំនៅឋាន	-11.8258
WellnessFASS	-11.8258
ថេប្លេត	-11.8258
ថ្ងៃព្រហស្បត្តិ៍	-11.8258
រិះគន់	-11.8258
សត្វល្មូន	-11.8258
▁Gebze	-11.8258
▁Germanium	-11.8258
▁MasterCard	-11.8258
▁Stefan	-11.8258
▁Vorontsov	-11.8258
▁WinRAR	-11.8258
▁greyhounds	-11.8258
▁ចប់សព្វគ្រប់	-11.8258
▁ប្រយោគ	-11.8258
▁ឡិចត្រូនិច	-11.8258
axophone	-11.8258
zealand	-11.8258
▁shinning	-11.8258
material	-11.8258
▁piseth	-11.8258
អាក្រាត	-11.8258
natural	-11.8258
▁dispers	-11.8258
▁reply	-11.8258
រនាប	-11.8258
pixel	-11.8258
បានបង្កប់	-11.8259
password	-11.8262
ដិកំណត់ត្រាកំណត់	-11.8283
ស្វ៊ែរ	-11.8284
ountain	-11.8286
ដៅប្រព័ន្ធបង្ហោះ	-11.831
េទីល	-11.8354
ជាកម្មសិទ្ធិរបស់	-11.8382
ឆាំងនឹងឋិតិវន្ត	-11.8403
វិញ្ញា	-11.8423
ឋានៈ	-11.8424
ធុរកិច្ច	-11.8424
សែលុយឡូស	-11.8424
អ៊ីយ៉ុង	-11.8424
developer	-11.8424
ទំពក់	-11.8424
ប៉េងប៉ោះ	-11.8424
អចនទ្រព្យ	-11.8424
▁Developer	-11.8424
▁Groove	-11.8424
▁Influencer	-11.8424
▁Kharkiv	-11.8424
▁Platform	-11.8424
▁Secondary	-11.8424
▁xNUMX	-11.8424
▁Coupler	-11.8424
Production	-11.8424
▁something	-11.8424
ធានាបាននូវ	-11.8424
▁Granite	-11.8424
▁99.99%	-11.8424
ហ្គ្រេ	-11.8424
ហ្រ្វ	-11.8425
ឡាទីន	-11.8425
nduras	-11.8425
LIVE	-11.8425
Reason	-11.8426
ែលហ្សិក	-11.8426
international	-11.8427
Unknown	-11.843
7,000	-11.8456
អ៊ើ	-11.8578
▁granul	-11.8589
▁ពិសោធ	-11.859
beautiful	-11.8594
ថ្លឹង	-11.8594
ស៊ីម៉ង់ត៍	-11.8594
អគ្គលេខាធិការ	-11.8594
▁Industrial	-11.8594
▁Marmaray	-11.8594
▁Wednesday	-11.8594
▁putzmeister	-11.8594
▁ខែកុម្ភះ	-11.8594
▁ដ៏ទៃទៀត	-11.8594
▁ស៊ីណេផ្លិច	-11.8594
កម្សាន្ដ	-11.8594
ដំណូច	-11.8594
លទ្ធកម្ម	-11.8594
សវេហ្គាស	-11.8594
▁Diamond	-11.8594
▁Gurgaon	-11.8594
▁Hawaii	-11.8594
▁Poltava	-11.8594
▁ព្រឹត្តិបត្រ	-11.8594
▁លេខាធិការដ្ឋាន	-11.8594
កុលាប	-11.8594
ឆ័ត្រ	-11.8594
Channel	-11.8594
▁តាំងពីដើម	-11.8594
សាយអ៊ើ	-11.8594
wheel	-11.8594
▁Glass	-11.8595
rogress	-11.86
ំាង	-11.8622
▁ពង្	-11.8657
ព្រះបន្ទូលរបស់	-11.8689
រដូវរងា	-11.8756
បរិក្ខា	-11.8756
ឥតខ្ចោះ	-11.8758
ស៊ីដនី	-11.8763
ថែមទៀត	-11.8766
មិញ	-11.8766
Merced	-11.8766
សំណេះសំណាល	-11.8766
Netherlands	-11.8766
អ៊ីនធើណែត	-11.8766
/09/17	-11.8766
គមនាគមន៍	-11.8766
ជម្រក	-11.8766
អង្កាំ	-11.8766
ឧត្តមភាព	-11.8766
▁Converter	-11.8766
▁District	-11.8766
▁Information	-11.8766
▁Innovations	-11.8766
▁Luxury	-11.8766
▁Massachusetts	-11.8766
▁Nevada	-11.8766
▁Pepsi	-11.8766
▁experience	-11.8766
▁jumper	-11.8766
▁ឋានសួគ៌បូហេម	-11.8766
បឹងកេងកង	-11.8766
ផ្លាហ្សា	-11.8766
វីមេអូ	-11.8766
សិទ្ធិជ្រកកោន	-11.8766
សុភមង្គល	-11.8766
អនុស្សាវរីយ៍	-11.8766
▁Chengdu	-11.8766
▁Detroit	-11.8766
▁Shoebox	-11.8766
▁Phonon	-11.8766
▁2010-2019:	-11.8766
▁Turhan	-11.8766
អ៊ីរ៉ាក់	-11.8766
▁Bldg	-11.8766
ការនេសាទត្រី	-11.8766
នៃថ្ងៃធ្វើការ	-11.8766
▁HOSE	-11.8766
▁[7]	-11.8767
▁ប៊្លូ	-11.8767
▁[5]	-11.8767
depend	-11.8767
finance	-11.8767
Index	-11.8767
ីសូតា	-11.8773
លុះត្រាតែ	-11.8778
អនុគមន៍	-11.8794
ឆ្នាំ២០១៧	-11.8795
firm	-11.8808
ង្រ្	-11.8822
▁ខាងក្រោមនេះជា	-11.8837
epeat	-11.8896
Force	-11.8902
roperty	-11.8931
ឥតគិតលុយ	-11.8935
ស្លៀក	-11.8941
SumaGrow	-11.8942
onochemical	-11.8942
តម្លើង	-11.8942
បង្កាន់ដៃ	-11.8942
វិគីភីឌា	-11.8942
អាសនៈ	-11.8942
▁Administrator	-11.8942
▁Halkalı	-11.8942
▁Halloween	-11.8942
▁Herbalife	-11.8942
▁Hitachi	-11.8942
▁Phokeethra	-11.8942
▁Scanner	-11.8942
▁Wyoming	-11.8942
▁jailbreak	-11.8942
▁ក្រេឌីត	-11.8942
▁ចាន់ថុល	-11.8942
▁លីកាដូ	-11.8942
▁វិគីជិះកង់	-11.8942
កាយវិការ	-11.8942
តំរៀបស្លឹក	-11.8942
ត្រួសត្រាយ	-11.8942
▁Bangalore	-11.8942
trenbolone	-11.8942
ឯកជនសានឌីអាហ្គូ	-11.8942
▁Science	-11.8942
▁Sonication	-11.8942
▁TopSlotSite	-11.8942
recision	-11.8942
កណ្តឹង	-11.8942
▁Password	-11.8942
▁PocketWin	-11.8942
EducationBro	-11.8942
ស្បៀង	-11.8942
phenyl	-11.8942
▁MPEG	-11.8942
▁(2009)	-11.8942
ជាទីស្រឡាញ់	-11.8942
▁film	-11.8943
▁KGet	-11.8943
ណាចក្រ	-11.8943
▁Crimp	-11.8945
វណ្ណ	-11.8947
transform	-11.895
dvance	-11.8951
គេស្គាល់ថា	-11.8975
▁require	-11.898
សំនួរ	-11.8983
ីវូ	-11.9028
ស្គាល់ផងដែរថាជា	-11.9058
្សាទុកការរថភ្លើង	-11.9093
ធៀបនឹង	-11.9101
្បាញ	-11.9113
ទ័ព	-11.912
ព្រហ្មចារី	-11.912
ផេតទ្រី	-11.912
Object	-11.912
គង្វាល	-11.912
យ៉ាងជ្រាលជ្រៅ	-11.912
/04/18	-11.912
estivalVoiceName	-11.912
zakhstan	-11.912
នីហ្សេរីយ៉ា	-11.912
ប្រកាន់ខ្ជាប់	-11.912
▁Bangkok	-11.912
▁Dakota	-11.912
▁Kocaeli	-11.912
▁Nozzle	-11.912
▁OpenStack	-11.912
▁Phoenix	-11.912
▁Shuttle	-11.912
▁galvanized	-11.912
▁ប័ទ្ម	-11.912
របុំខ្សែ	-11.912
▁Safari	-11.912
តាមរយះ	-11.912
ផ្តល់ឱ្យអ្នកនូវ	-11.912
លាក់បាំង	-11.912
▁ការកោតធម្មតា	-11.912
▁Square	-11.912
អាមេនី	-11.912
▁Storage	-11.912
▁those	-11.912
ល្បឿននៃការបញ្ចេញ	-11.912
អាហារថ្ងៃត្រង់	-11.912
▁Watts	-11.9121
▁Centre	-11.9121
width	-11.9121
▁please	-11.9121
ជាយក្រុង	-11.9121
ឃ្វី	-11.9121
ជាវប្រចាំ	-11.9124
symbols	-11.9145
ហត្ថលេខា	-11.9173
លីនុច	-11.9175
cryptocurrency	-11.9176
្វាងទុងប្រទេសចិន	-11.9266
ក្រោក	-11.9282
ព្រមព្រៀង	-11.9299
អធិការ	-11.9302
education	-11.9302
1617181920212223	-11.9302
ជាការប្រសើរណាស់	-11.9302
▁OSGEAR	-11.9302
snapshot	-11.9302
ការព្រួយបារម្ភ	-11.9302
ដោយគំនូរព្រាង។	-11.9302
មរណភាព	-11.9302
អណ្តែត	-11.9302
▁BlackBerry	-11.9302
▁Certified	-11.9302
▁Cummins	-11.9302
▁Nootropics	-11.9302
▁Partnership	-11.9302
▁Sintered	-11.9302
▁enjoy	-11.9302
▁jacquard	-11.9302
▁ខ្ចោះ	-11.9302
▁សូចនករ	-11.9302
malaysia	-11.9302
▁Lenovo	-11.9302
▁asphalt	-11.9302
riority	-11.9302
▁ឌិគ្រីប	-11.9302
កំនត់	-11.9302
▁GmbH	-11.9302
▁diffus	-11.9302
Config	-11.9302
▁ដំណោះ	-11.9302
rotocol	-11.9302
▁រាជកិច្ច	-11.9302
campaign	-11.9302
Error	-11.9303
ហើយដូច្នេះនៅលើ	-11.9303
ឆាំងអុកស៊ីតកម្ម	-11.9303
ambling	-11.9303
▁Movie	-11.9303
Every	-11.9304
Keywords	-11.9309
▁Wolf	-11.9321
walk	-11.9327
uppli	-11.9359
មេកាបៃ	-11.9372
Android	-11.9372
ការជួបប្រជុំ	-11.9484
កាកបាទ	-11.9487
у	-11.9487
មានប្រសាសន៍	-11.9487
global	-11.9487
ឍ	-11.9487
បណ្ឌិត្យសភា	-11.9487
បូជាចារ្យ	-11.9487
alvador	-11.9487
buddypress	-11.9487
netherlands	-11.9487
កាបូបស្ពាយ	-11.9487
ថ្គាម	-11.9487
រុក្ខសាស្ត្រ	-11.9487
ស្ដើង	-11.9487
អ៊ីនធឺរណែត	-11.9487
▁Brunswick	-11.9487
▁Donald	-11.9487
▁Marseille	-11.9487
▁Queensland	-11.9487
▁amarok	-11.9487
▁jumpsuit	-11.9487
▁popular	-11.9487
▁អ៊ីស្តូក្រាម	-11.9487
Default	-11.9487
ь	-11.9487
ក្រុងវីយែន	-11.9487
ចាស់ទុំ	-11.9487
ឈ្លានពាន	-11.9487
ទ្រឹស្តី	-11.9487
ប្រមាថ	-11.9487
ប្រូម៉ូសិន	-11.9487
ពោធិ៍សាត់	-11.9487
▁Hamburg	-11.9487
▁Manchester	-11.9487
▁ObjectClass	-11.9487
▁epoxy	-11.9487
ច្របល់	-11.9487
▁Yinzhou	-11.9487
▁dyeing	-11.9487
ស្ងៀម	-11.9487
អារក្ស	-11.9487
គ្រឿងចក្រ	-11.9487
▁រក្សាទុកការអាន	-11.9487
▁ក្រុមតន្ត្រីគ	-11.9487
▁Website	-11.9487
Runner	-11.9487
▁FTTH	-11.9487
អាសូត	-11.9487
▁Aroma	-11.9488
ឃ្លីប	-11.9488
record	-11.9494
itude	-11.9494
jamai	-11.9495
Display	-11.9498
0/100	-11.9499
្ដោ	-11.9519
!!!!!	-11.9535
អ៊ិនកូដ	-11.9571
កន្សោម	-11.9571
ខ្ជ	-11.9595
OVE	-11.9623
ផ្លាក	-11.9631
hortcut	-11.967
ទិន្ន	-11.9675
усск	-11.9676
គុជខ្យង	-11.9676
ឧទ្ធរណ៍	-11.9676
CAMBODIA	-11.9676
argentina	-11.9676
ខឺណែល	-11.9676
ទីក្រុងម៉ូស្គូ	-11.9676
យូនីធី	-11.9676
ល្បួង	-11.9676
អ៊ីដ្រូសែន	-11.9676
▁GStreamer	-11.9676
/02/16	-11.9676
Ethiopian	-11.9676
adalafil	-11.9676
hoemsokhem	-11.9676
tanozolol	-11.9676
ចិញ្ចើម	-11.9676
បូព៌ា	-11.9676
អត្ថបទអំពីការមួយ	-11.9676
អន្ទាក់	-11.9676
អ្នកប្រាជ្ញ	-11.9676
▁Bhubaneswar	-11.9676
▁Brushless	-11.9676
▁CDDB	-11.9676
▁Decorative	-11.9676
▁GeoGebra	-11.9676
▁Jennifer	-11.9676
▁Litecoin	-11.9676
▁Manitoba	-11.9676
▁Pattaya	-11.9676
▁Previous	-11.9676
▁SENSOR	-11.9676
▁SWIFT	-11.9676
▁Vulcanic	-11.9676
▁carbide	-11.9676
▁fleece	-11.9676
▁konqueror	-11.9676
2425262728293031	-11.9676
ក្លរីន	-11.9676
ផ្នូរ	-11.9676
អូហ្សូន	-11.9676
·	-11.9776
中	-12.0264
•	-12.0637
	-12.4747
ឲ	-12.9079
′	-13.1249
●	-13.3331
繁	-13.5767
文	-13.6767
←	-14.1531
ệ	-14.2223
✔	-15.4373
‧	-16.5056
體	-16.5056
