<unk>	0
<s>	0
</s>	0
▁	-2.54562
,	-3.92796
.	-4.26971
:	-4.42803
;	-4.46199
▁&	-4.74471
-	-4.97438
s	-5.04118
)	-5.0428
▁។	-5.06796
amp	-5.1604
▁(	-5.16714
។	-5.31795
▁#	-5.32249
▁ការ	-5.41619
▁160;	-5.41869
▁និង	-5.45397
▁-	-5.49259
▁/	-5.49801
▁បាន	-5.54013
gt	-5.57443
/	-5.57547
▁1	-5.70863
e	-5.71702
និង	-5.76418
▁អ្នក	-5.79357
▁ដែល	-5.82388
▁នៅ	-6.0039
%	-6.02026
ការ	-6.08721
▁2	-6.17068
នៃ	-6.18931
▁របស់	-6.19326
▁ជា	-6.25444
2	-6.30998
▁ក្នុង	-6.31477
y	-6.32133
▁មាន	-6.32713
▁S	-6.33159
▁3	-6.39738
▁នេះ	-6.39931
D	-6.40546
សម្រាប់	-6.41035
lt	-6.41096
"	-6.41136
▁សម្រាប់	-6.42065
▁_	-6.44793
▁កម្មវិធី	-6.46719
ន	-6.4853
er	-6.4886
com	-6.49683
▁ដោយ	-6.50914
របស់	-6.52082
S	-6.52136
នេះ	-6.53382
រ	-6.54941
in	-6.55654
p	-6.57224
បាន	-6.57419
▁៖	-6.57847
▁ត្រូវ	-6.60163
3	-6.61005
ស	-6.61618
!	-6.62959
x	-6.636
m	-6.64149
▁C	-6.6419
▁start	-6.65012
▁ឬ	-6.65433
A	-6.65473
▁5	-6.65866
"&	-6.66319
▁dur	-6.66497
d	-6.67787
▁4	-6.69032
ក	-6.69114
▁A	-6.69143
▁P	-6.6968
ពី	-6.70028
▁មិន	-6.70536
C	-6.70851
នៅ	-6.71377
?	-6.72563
b	-6.73132
ដែល	-6.73661
4	-6.74985
ជា	-6.75102
▁អាច	-6.76489
ing	-6.77088
មាន	-6.7791
▁kgm	-6.78025
a	-6.78038
▁ទៅ	-6.78406
▁ប្រើ	-6.79176
នៅក្នុង	-6.79577
▁នឹង	-6.80439
▁T	-6.8142
o	-6.81421
://	-6.81421
▁K	-6.81695
មួយ	-6.82631
▁ដើម្បី	-6.82728
▁ឯកសារ	-6.84249
ម	-6.8451
n	-6.84585
▁...	-6.84645
▁វា	-6.84709
t	-6.87279
▁កំណត់	-6.89012
▁10	-6.89478
ដោយ	-6.89525
▁in	-6.89822
ង	-6.89964
▁–	-6.90387
ល	-6.90565
ត	-6.90873
▁ពី	-6.91215
▁ហើយ	-6.91825
▁F	-6.92114
អ្នក	-6.92417
▁6	-6.92473
...	-6.9353
_	-6.93773
ប	-6.93777
=	-6.94206
r	-6.94263
▁មួយ	-6.94916
g	-6.95161
v	-6.9617
i	-6.96489
f	-6.97143
▁នៃ	-6.97309
▁$	-6.98064
M	-6.9831
▁លោក	-6.98908
1	-6.99445
al	-6.99539
c	-7.01169
ជាមួយ	-7.02117
5	-7.02515
▁B	-7.04308
@	-7.04645
▁"	-7.04668
ដើម្បី	-7.04973
V	-7.05267
P	-7.05809
▁ខែ	-7.06306
▁D	-7.06628
▁ឆ្នាំ	-7.07308
L	-7.09264
▁ម៉ាស៊ីន	-7.09292
▁2018	-7.10217
ទៅ	-7.10277
▁ក្រុមហ៊ុន	-7.11309
W	-7.13195
▁លើ	-7.1323
w	-7.13323
▁ឧបករណ៍	-7.13861
▁គឺ	-7.14143
7	-7.14652
h	-7.14768
B	-7.14891
▁G	-7.16671
▁ទំព័រ	-7.17926
G	-7.1813
▁8	-7.19075
▁M	-7.19318
▁R	-7.19953
an	-7.20832
របស់អ្នក	-7.20863
mm	-7.21116
▁7	-7.21299
ទី	-7.21443
ក្នុង	-7.2195
▁H	-7.22763
▁+	-7.22944
T	-7.23787
ed	-7.24193
▁រូប	-7.24388
▁the	-7.24612
or	-7.24733
8	-7.25429
វ	-7.25694
▁ថ្ងៃ	-7.26007
re	-7.26822
▁E	-7.27096
▁http	-7.27375
on	-7.27634
Name	-7.27881
ក្រុមហ៊ុន	-7.2798
▁19	-7.28422
▁ធ្វើ	-7.28422
▁សូម	-7.29681
F	-7.29994
k	-7.30344
K	-7.31834
▁បង្ហាញ	-7.31894
▁2019	-7.3195
▁*	-7.32729
▁ផលិតផល	-7.33222
en	-7.33656
វា	-7.33783
l	-7.33864
▁ព័ត៌មាន	-7.33938
▁ប្រព័ន្ធ	-7.35412
R	-7.35558
៖	-7.35908
le	-7.38719
នៅលើ	-7.39279
9	-7.39824
it	-7.40298
H	-7.4064
&	-7.4067
យ	-7.4068
កម្មវិធី	-7.40838
▁L	-7.40934
to	-7.40969
▁ដើម	-7.41057
ឆ្នាំ	-7.41204
]	-7.41882
u	-7.41892
▁ពេល	-7.42457
▁ជ្រើស	-7.42718
▁ដង	-7.43196
N	-7.43346
10	-7.44835
▁ឲ្យ	-7.45175
6	-7.46792
00	-7.46847
▁ស្លាក	-7.47291
▁Co	-7.47328
▁I	-7.47591
▁0	-7.47719
▁ប្រភេទ	-7.48733
▁ឈ្មោះ	-7.48745
▁20	-7.49443
X	-7.49826
▁[	-7.51202
'	-7.51352
▁ទំហំ	-7.51553
ថ្មី	-7.51909
ស្	-7.51946
▁ជាមួយ	-7.52506
es	-7.52606
▁ថា	-7.5278
▁12	-7.52833
ថា	-7.53124
▁iPhone	-7.53159
លើ	-7.53349
▁ថត	-7.53775
el	-7.53995
”	-7.54358
▁V	-7.54517
នឹង	-7.54519
▁តម្លៃ	-7.56035
គឺ	-7.56051
▁of	-7.56515
▁W	-7.56657
ដ	-7.56666
▁2017	-7.57178
▁បន្ថែម	-7.57877
0	-7.58319
▁9	-7.58444
មិន	-7.59787
▁15	-7.59878
▁តែ	-7.59933
ច	-7.60233
▁N	-7.603
th	-7.60534
co	-7.61028
km	-7.61435
▁ទូរស័ព្ទ	-7.61864
E	-7.61912
តាម	-7.62095
អ	-7.62463
ដែលមាន	-7.62555
16	-7.63361
្	-7.63408
ឬ	-7.63558
▁យើង	-7.63758
Comment	-7.6502
z	-7.65252
ម៉ាស៊ីន	-7.65386
▁X	-7.65844
org	-7.65914
▁រូបភាព	-7.65917
▁មើល	-7.65927
ត្រូវបាន	-7.65968
Y	-7.66546
▁@	-7.66817
50	-7.67133
ខ្ញុំ	-7.67187
នៃការ	-7.6722
ប្រព័ន្ធ	-7.68062
▁•	-7.68368
30	-7.68909
▁បើ	-7.68985
et	-7.69383
លោក	-7.69594
▁ពណ៌	-7.69784
▁ខ្ញុំ	-7.70155
ly	-7.70242
20	-7.70561
▁ទាញយក	-7.71401
▁and	-7.71726
▁info	-7.7211
▁a	-7.72227
ណា	-7.72925
(	-7.72956
▁មុន	-7.73144
▁to	-7.73406
/?	-7.73493
▁នៅក្នុង	-7.73898
12	-7.73945
ភាព	-7.74321
▁បន្ទាប់	-7.74796
▁តើ	-7.7483
ar	-7.74983
ic	-7.75387
▁តាម	-7.75462
▁ចុច	-7.75583
st	-7.75803
▁ចំនួន	-7.76578
ទាំងអស់	-7.7668
am	-7.7722
us	-7.77619
U	-7.7769
ា	-7.77757
ិ	-7.78072
ហើយ	-7.78264
▁ថ្មី	-7.79153
ឧបករណ៍	-7.79487
របស់យើង	-7.79524
▁https	-7.79925
O	-7.80016
▁ក្រុម	-7.80119
ខ្ពស់	-7.80276
ទូរស័ព្ទ	-7.82337
▁m	-7.82401
អាច	-7.82469
ទឹក	-7.82562
▁ផ្នែក	-7.83081
▁18	-7.83588
▁ប្រអប់	-7.83837
kh	-7.8386
▁30	-7.84944
▁“	-7.8519
ro	-7.85373
▁ទេ	-7.86029
ធ្វើ	-7.86097
ប្រើ	-7.86246
11	-7.86584
at	-7.86724
▁ម៉ោង	-7.87124
se	-7.87486
="	-7.87503
លី	-7.88105
15	-7.88157
▁២	-7.88303
យើង	-7.887
01	-7.89008
ផលិតផល	-7.89556
▁p	-7.8958
▁បើក	-7.89714
▁ស	-7.89826
▁រ	-7.90153
ch	-7.902
▁2016	-7.90459
▁សារ	-7.90723
▁J	-7.90908
ur	-7.90995
ស៊ី	-7.91086
17	-7.91657
▁បង្កើត	-7.92029
▁គ្មាន	-7.92137
▁16	-7.92515
ប្រតិបត្តិការ	-7.92767
City	-7.93134
ad	-7.93218
▁name	-7.93746
id	-7.93793
▁»	-7.94207
05	-7.94994
▁+0000	-7.95267
ol	-7.95309
▁24	-7.95622
▁Ltd	-7.9574
អំពី	-7.95788
09	-7.96042
▁2013	-7.96134
is	-7.96197
តា	-7.96349
▁ជម្រើស	-7.96528
1%9	-7.96707
▁ទី	-7.97462
ma	-7.97551
▁យក	-7.9793
▁ពាក្យ	-7.98059
▁លេខ	-7.99207
04	-7.99246
ia	-7.99281
un	-7.99335
60	-7.9937
ក្រុម	-7.99466
40	-7.99562
ផ្នែក	-7.99724
33	-8.00989
▁ធាតុ	-8.01466
▁អ	-8.01682
កា	-8.0174
នី	-8.01782
▁'	-8.01828
▁ទីក្រុង	-8.0184
▁បញ្ចូល	-8.01999
▁O	-8.02259
លេខ	-8.02482
▁ត្រូវបាន	-8.02863
▁ទាំងអស់	-8.03155
▁for	-8.03206
រី	-8.03276
បន្ថែម	-8.03281
19	-8.03538
ចំនួន	-8.03808
▁Z	-8.03813
ation	-8.03936
ជាតិ	-8.0394
▁ជំនួយ	-8.04435
▁ខាង	-8.04539
ទ	-8.04755
▁អត្ថបទ	-8.04828
▁ដាក់	-8.05039
24	-8.05045
▁25	-8.0515
ri	-8.05299
▁ភាព	-8.05425
25	-8.05583
▁បញ្ជី	-8.0631
ព	-8.06325
me	-8.0655
▁2014	-8.06619
▁KDE	-8.07825
35	-8.08022
▁f	-8.08297
ប្រភេទ	-8.0862
▁100	-8.08654
ការងារ	-8.08932
រោងចក្រ	-8.09033
▁ក	-8.09225
14	-8.09256
▁ចូល	-8.09373
សា	-8.09388
03	-8.09545
18	-8.09931
ជាមួយនឹង	-8.09948
▁2015	-8.10489
13	-8.10535
▁ប៉ុន្តែ	-8.10671
▁Cambodia	-8.1107
ធំ	-8.11217
ដា	-8.11244
▁១	-8.11516
ដែលបាន	-8.11575
80	-8.11672
la	-8.1184
ក្នុងការ	-8.11879
ញ	-8.12619
▁50	-8.12732
▁ចិន	-8.13015
▁កំពុង	-8.13178
li	-8.13434
▁£	-8.13699
▁ទំព័រដើម	-8.13865
▁អំពី	-8.14042
22	-8.14055
te	-8.14067
ដល់	-8.14262
▁រក	-8.14375
02	-8.14422
ra	-8.14546
និងការ	-8.15154
▁ទៀត	-8.1518
▁13	-8.15603
▁បញ្ជា	-8.158
▁ផ្លូវ	-8.16237
im	-8.16434
ឱ្យ	-8.1676
សម្រាប់ការ	-8.17494
ដូចជា	-8.17555
គ	-8.17596
ជាង	-8.17699
um	-8.18014
ផលិត	-8.18015
▁ឡើង	-8.18181
ុ	-8.1852
ang	-8.18546
ate	-8.18679
រ៉ា	-8.18829
36	-8.18973
កម្ពុជា	-8.1907
ម៉ា	-8.19334
37	-8.19584
ot	-8.19611
ឺ	-8.19916
▁បិទ	-8.20219
▁ប្រទេស	-8.20262
il	-8.20281
ី	-8.21082
ោ	-8.21201
ter	-8.21213
▁តំបន់	-8.21448
▁U	-8.21735
ប្រ	-8.21816
▁on	-8.21833
▁Re	-8.22012
ong	-8.22055
▁ដល់	-8.22159
ពេល	-8.22218
ថ្ងៃ	-8.22751
២	-8.22793
na	-8.23088
mo	-8.23178
មក	-8.23246
ir	-8.23427
▁ប	-8.23457
តែ	-8.23948
www	-8.2406
▁ដំណឹង	-8.24249
45	-8.24561
▁Android	-8.24854
▁ចេញ	-8.24916
▁14	-8.24995
▁«	-8.24996
▁ដូច	-8.25069
ធ្វើការ	-8.25261
38	-8.25426
ion	-8.25511
▁គ្រប់គ្រង	-8.25518
បំផុត	-8.25708
ែ	-8.25724
J	-8.25817
de	-8.25899
▁ចង់	-8.26177
39	-8.26345
ល្អ	-8.26368
▁របៀប	-8.2639
េ	-8.26412
21	-8.26456
អា	-8.26606
ឯកសារ	-8.26703
▁ថ្ម	-8.2682
ទេ	-8.27012
ហ	-8.27151
op	-8.27323
23	-8.27371
08	-8.27387
▁ច្រើន	-8.27425
ឡើង	-8.27501
lo	-8.27855
▁The	-8.28322
all	-8.28347
▁កំហុស	-8.28438
▁Windows	-8.28672
▁ភាសា	-8.28937
▁c	-8.29047
▁Capacitor	-8.29104
▁មក	-8.29226
▁Forex	-8.29421
▁រោងចក្រ	-8.29733
▁ម	-8.29842
▁21	-8.29937
ជាច្រើន	-8.3016
ថ្ម	-8.30168
26	-8.30375
▁បច្ចុប្បន្ន	-8.30469
▁©	-8.30876
ើ	-8.30995
ព័ត៌មាន	-8.31525
▁បោះពុម្ព	-8.31651
ho	-8.31832
and	-8.31891
▁នៅលើ	-8.31939
ផ្លូវ	-8.3195
▁ទាំង	-8.32077
▁គឺជា	-8.322
ប្រាក់	-8.32214
បំពង់	-8.3293
▁11	-8.33324
lang	-8.33459
*	-8.33558
▁រក្សា	-8.33562
▁ដូច្នេះ	-8.33599
▁រចនា	-8.33798
ine	-8.33918
▁17	-8.34101
ta	-8.34666
ទីក្រុង	-8.34781
ចិន	-8.34784
ល្អបំផុត	-8.34829
ex	-8.34923
▁ទំនាក់ទំនង	-8.35533
▁ទិន្នន័យ	-8.35548
▁អាសយដ្ឋាន	-8.3578
▁23	-8.36017
គ្នា	-8.36029
▁ពួក	-8.36395
brag	-8.36596
▁នោះ	-8.36799
34	-8.36864
▁អនុញ្ញាត	-8.37022
ដំណើរការ	-8.37131
▁ទទួល	-8.37233
ដោយឥតគិតថ្លៃ	-8.37336
ផ្សេងទៀត	-8.3736
▁Ch	-8.37674
ដែក	-8.3776
ne	-8.37874
#	-8.37908
ពីរ	-8.3806
ដៃ	-8.38438
រថយន្ត	-8.38486
នូវ	-8.38648
cambodia	-8.39008
om	-8.39042
▁ក្រណាត់	-8.3912
▁សេវា	-8.39395
▁លក់	-8.39547
▁ពិនិត្យ	-8.39704
ul	-8.39714
ចេញ	-8.39758
▁by	-8.39781
▁Hack	-8.40106
ណ	-8.40301
១	-8.40374
Z	-8.40475
▁ប្រសិន	-8.40485
▁អាន	-8.40605
អូ	-8.40732
29	-8.40806
បង្ហាញ	-8.40887
▁សាកលវិទ្យាល័យ	-8.40902
j	-8.40997
▁បង្អួច	-8.41011
▁ឆ្លើយតប	-8.41015
▁គេ	-8.41138
32	-8.41304
នោះ	-8.41546
ត្រូវ	-8.41641
ពួកគេ	-8.42183
មនុស្ស	-8.42376
sh	-8.42627
99	-8.42694
ពាណិជ្ជកម្ម	-8.42772
▁22	-8.4293
man	-8.43394
up	-8.4405
▁ល	-8.44279
តម្លៃ	-8.44319
៩	-8.44423
▁500	-8.44754
▁លេខយោង	-8.45003
▁នាទី	-8.45101
ាំង	-8.45222
28	-8.45291
ទំហំ	-8.45308
as	-8.45436
06	-8.45465
▁អា	-8.45471
ៈ	-8.4561
90	-8.4572
ill	-8.45867
បើក	-8.45898
ចូល	-8.46049
▁ល្ងាច	-8.46131
cm	-8.46368
▁k	-8.46741
ឥឡូវនេះ	-8.46854
▁ខ្សែ	-8.46867
▁បន្ទាត់	-8.46985
▁Bitcoin	-8.47281
▁៣	-8.47666
▁បណ្ដាញ	-8.47722
គ្រប់គ្រង	-8.47794
▁ដំណើរការ	-8.47934
▁ប្រទេសចិន	-8.48027
-1	-8.48203
ឡា	-8.48313
▁is	-8.48446
da	-8.48529
ge	-8.48742
▁សៀវភៅ	-8.49037
▁~	-8.49081
31	-8.49235
របស់ខ្ញុំ	-8.49284
▁2020	-8.49525
ut	-8.4953
ទំនាក់ទំនង	-8.49551
ers	-8.49571
▁និយាយ	-8.49728
▁ចាប់ផ្ដើម	-8.49896
៣	-8.49934
▁ពេលវេលា	-8.5035
ផ្គត់ផ្គង់	-8.50359
ធ្វើឱ្យ	-8.50629
75	-8.50741
ឈ្មោះ	-8.50839
69	-8.5093
តាមរយៈ	-8.51003
បញ្ចូល	-8.51052
▁ផ្ទុក	-8.51448
▁ក្រោយ	-8.51506
67	-8.51519
មុន	-8.51565
▁ប៊ូតុង	-8.51624
ៗ	-8.51677
ហ្វ	-8.51839
▁Y	-8.51853
ment	-8.52089
រដ្ឋ	-8.52548
built	-8.52576
os	-8.52723
49	-8.52789
65	-8.52854
យក	-8.52892
ry	-8.52943
▁60	-8.53053
▁ប្រ	-8.53065
ab	-8.53352
▁de	-8.53541
▁Ro	-8.53593
▁អ្នកផ្គត់ផ្គង់	-8.53702
▁ទុក	-8.53994
ង់	-8.54096
+	-8.54152
▁USA	-8.54274
▁Smart	-8.54413
▁កាស៊ីណូ	-8.54613
▁Name	-8.54721
ent	-8.54919
▁ការងារ	-8.5516
▁សរសេរ	-8.55291
ce	-8.55309
កំណត់	-8.55333
ថាមពល	-8.5535
៧	-8.55457
95	-8.55583
▁ប្រាក់	-8.55636
ap	-8.56085
▁កម្រិត	-8.5611
86	-8.56128
47	-8.56141
ត្រូវបានគេ	-8.56253
66	-8.56291
▁ធនាគារ	-8.56334
ខែ	-8.56377
លក់	-8.56419
ះ	-8.56431
▁ស្វែងរក	-8.56439
51	-8.56823
ជំនួយ	-8.56843
55	-8.56872
ខ្សែ	-8.56911
27	-8.56997
▁re	-8.57004
07	-8.57254
▁បម្រើ	-8.57483
ha	-8.57571
200	-8.5763
ផ្ទះ	-8.57716
▁Samsung	-8.57742
ig	-8.57743
▁ទីតាំង	-8.57823
បច្ចេកវិទ្យា	-8.58002
70	-8.58006
▁នៅពេល	-8.58013
ie	-8.58161
▁In	-8.58167
រូបភាព	-8.58239
▁សម្ព័ន្ធ	-8.5825
▁គាំទ្រ	-8.58374
ve	-8.58402
ក្រណាត់	-8.58407
▁Google	-8.58504
▁រក្សាសិទ្ធិ	-8.58656
តំបន់	-8.58749
▁Li	-8.58818
▁polyester	-8.58846
71	-8.59084
▁ultrasonic	-8.59216
ជ	-8.59221
សេវា	-8.59253
I	-8.59292
68	-8.59446
▁Se	-8.59469
44	-8.59512
per	-8.59704
go	-8.59907
ដូ	-8.60173
▁°	-8.60217
វី	-8.60492
មី	-8.60605
41	-8.60788
ប់	-8.60927
58	-8.60979
ៃ	-8.61015
▁មូលដ្ឋាន	-8.61066
▁បញ្ជាក់	-8.61175
ប្រទេស	-8.61347
ant	-8.61437
ភ្ជាប់	-8.61693
អាន	-8.61843
▁St	-8.61877
48	-8.61905
ក់	-8.61924
▁រង	-8.61964
▁កា	-8.62006
កំដៅ	-8.62019
ល់	-8.62164
របស់ខ្លួន	-8.62194
ក្រ	-8.62208
ឧស្សាហកម្ម	-8.62261
អេ	-8.62271
▁100%	-8.62507
43	-8.62592
កម្ម	-8.62593
ឌី	-8.62646
72	-8.62714
គឺជា	-8.6278
▁be	-8.62883
▁Home	-8.63255
pe	-8.6334
Q	-8.63394
ថ	-8.63634
▁ឃើញ	-8.63698
▁40	-8.63849
ay	-8.63931
បង្កើត	-8.63974
គ្មាន	-8.64452
▁មតិ	-8.64512
ដី	-8.64565
ver	-8.64638
end	-8.64793
ខ	-8.6497
▁ព្រឹត្តិការណ៍	-8.65045
▁ចាក់	-8.65073
▁អ្វី	-8.65092
▁ផ្ញើ	-8.65264
▁27	-8.65316
▁200	-8.6533
85	-8.65435
ូ	-8.65597
កាត់	-8.65626
ដើម	-8.65775
▁វីដេអូ	-8.66089
▁ឱ្យ	-8.6613
▁ក្រោម	-8.66194
ian	-8.66285
ទិន្នន័យ	-8.66308
ដាក់	-8.66316
ពិភពលោក	-8.66375
ពេលវេលា	-8.66386
ក្រុង	-8.66619
ba	-8.66698
អន្តរជាតិ	-8.66735
59	-8.66811
ម៉ោង	-8.66851
▁កំណែ	-8.66987
42	-8.67113
▁Le	-8.67123
comment	-8.67193
ព្រះ	-8.67381
di	-8.6751
សារ	-8.67564
ុន	-8.67604
បា	-8.67741
ទទួលបាន	-8.67923
ប្រើប្រាស់	-8.68094
មើល	-8.68109
88	-8.68155
កំពុង	-8.68161
▁៤	-8.68229
▁រូបថត	-8.68627
ួ	-8.68724
▁ជាង	-8.68878
យ៉ាង	-8.69068
ip	-8.69078
age	-8.69098
បន្ត	-8.69109
▁City	-8.69172
ac	-8.69288
អតិថិជន	-8.6934
ដំបូង	-8.69673
មូលដ្ឋាន	-8.69873
est	-8.69909
▁26	-8.7006
56	-8.70276
▁មម	-8.7036
land	-8.70566
lu	-8.70659
របស់ក្រុមហ៊ុន	-8.70775
▁No	-8.71014
មេ	-8.71084
▁គ	-8.7112
ៀ	-8.71171
46	-8.71458
53	-8.71471
ហា	-8.71502
▁ចំណុច	-8.71763
▁របារ	-8.71765
▁កម្ពុជា	-8.71876
▁ក្រុង	-8.71887
ម្	-8.71931
▁€	-8.72143
▁សម្ភារៈ	-8.72231
▁ធម្មតា	-8.72376
កន្លែង	-8.72421
យន្តហោះ	-8.72476
he	-8.725
▁hour	-8.72505
▁គាត់	-8.72784
បិទ	-8.72943
▁title	-8.7299
▁Ma	-8.73291
74	-8.73336
hi	-8.73463
សរុប	-8.73645
52	-8.73837
optional	-8.73868
▁Bo	-8.74009
▁បំពង់	-8.74112
៍	-8.74138
យ៉ា	-8.74227
▁ផ្ទះ	-8.74319
គណនី	-8.74416
ប៊ី	-8.74473
ំ	-8.74611
ការពារ	-8.7463
▁អ៊ី	-8.74701
ide	-8.74792
54	-8.75048
ពន្លឺ	-8.75134
▁item	-8.75155
▁ប្រតិបត្តិការ	-8.75249
▁ចំណាំ	-8.75314
▁វិធី	-8.75315
ca	-8.7548
▁កញ្ញា	-8.75558
bo	-8.75593
▁វាយ	-8.75659
73	-8.75735
ថ្ងៃទី	-8.76014
▁រថយន្ត	-8.7619
បោះពុម្ព	-8.76218
ទទួល	-8.76255
100	-8.76277
do	-8.76312
សេ	-8.76341
▁រចនាសម្ព័ន្ធ	-8.76351
▁ផ្លាស់ប្ដូរ	-8.76539
’	-8.76604
▁ពិសេស	-8.7662
if	-8.76759
ER	-8.76808
▁ឧសភា	-8.76828
98	-8.77086
▁គ្នា	-8.77119
▁ផ្ដល់	-8.77437
▁គម្រោង	-8.77475
ម៉ូតូ	-8.77479
57	-8.77752
ដោយស្វ័យប្រវត្តិ	-8.77767
▁រក្សាទុក	-8.77803
ខ្លួន	-8.78062
▁ល្បឿន	-8.78122
76	-8.78138
នាក់	-8.78241
ត្រ	-8.78534
▁យ៉ាង	-8.78823
▁ចាប់	-8.78838
ផ្តល់	-8.78874
▁PVC	-8.78914
▁ទីនេះ	-8.79219
▁ធ្នូ	-8.79297
▁ផ្សេង	-8.79407
▁2012	-8.79431
="3	-8.79562
ard	-8.79653
គម្រោង	-8.79762
▁ត្រឹមត្រូវ	-8.79771
geeks	-8.79897
ពិសេស	-8.80071
pcs	-8.80096
weather	-8.80125
ណែនាំ	-8.80132
]]	-8.80135
▁1000	-8.80156
រឿង	-8.80258
ទាប	-8.80403
▁ស៊េរី	-8.80486
ចាក់	-8.80545
ton	-8.8056
រក	-8.80575
the	-8.80579
▁ខែមករា	-8.80666
▁ម៉ែត្រ	-8.80771
▁កាលបរិច្ឆេទ	-8.80857
▁ម៉ា	-8.80892
ចុងក្រោយ	-8.80901
និយាយ	-8.80976
▁អ៊ីមែល	-8.81003
▁តម្រង	-8.81045
1"	-8.81155
ផ្ទាល់ខ្លួន	-8.81165
វីដេអូ	-8.81247
គេ	-8.81288
ru	-8.81413
▁ទិដ្ឋភាព	-8.81437
▁ចំពោះ	-8.81453
ph	-8.81565
▁ស្	-8.8166
កំពូល	-8.81691
92	-8.81713
ថ្ងៃនេះ	-8.81721
▁វិញ	-8.81858
ell	-8.81871
រថភ្លើង	-8.82056
រយៈពេល	-8.82227
▁action	-8.8224
▁សមត្ថភាព	-8.82244
▁ដុល្លារ	-8.82442
▁ខេត្ត	-8.82497
▁ដែលមាន	-8.82545
▁ទឹក	-8.82642
ត្រូវការ	-8.82644
ទូ	-8.82647
▁De	-8.82846
ear	-8.83057
ចាប់ផ្តើម	-8.8314
IN	-8.83147
រូប	-8.83167
កាត	-8.83395
vi	-8.83405
▁រួម	-8.83592
ci	-8.8371
គី	-8.83946
▁កាន់	-8.84019
៥	-8.84093
son	-8.8411
»	-8.84192
ទីផ្សារ	-8.84277
96	-8.84524
port	-8.8466
ិត	-8.84694
our	-8.84838
▁នាក់	-8.8485
៤	-8.85172
ត្រជាក់	-8.85252
▁PDF	-8.85279
der	-8.85283
ដ៏	-8.85423
៦	-8.85465
▁ល្អ	-8.85688
ធនាគារ	-8.85712
63	-8.85851
ទិញ	-8.85866
au	-8.85936
pa	-8.85976
▁ឡើយ	-8.8603
▁មជ្ឈមណ្ឌល	-8.86032
Stencils	-8.86095
▁លុប	-8.86155
▁ប្រសិនបើ	-8.86168
89	-8.86237
93	-8.86459
▁មិថុនា	-8.86651
▁ជំនួស	-8.86757
wordpress	-8.86826
ដែលអ្នក	-8.86912
▁ដំឡើង	-8.86969
▁ល្បែង	-8.87022
៨	-8.87052
ឲ្យ	-8.87151
▁សា	-8.87248
;&	-8.87308
ist	-8.87333
▁ទាក់ទង	-8.87464
វ៉ា	-8.87507
▁LED	-8.87517
▁គេហទំព័រ	-8.876
$	-8.87736
▁ដែលបាន	-8.87775
▁បទ	-8.87848
មុខ	-8.8802
ផងដែរ	-8.88198
បន្ទាប់	-8.88323
ន់	-8.88376
▁(1	-8.88415
អាជីវកម្ម	-8.88436
▁28	-8.88552
សង្គម	-8.88637
▁La	-8.88743
ផលិតកម្ម	-8.8879
▁ច	-8.88821
one	-8.88874
▁ខែសីហា	-8.88881
▁អស់	-8.88885
▁ម៉ឺនុយ	-8.89017
▁តុលា	-8.89056
▁គ្រាប់	-8.89203
ជីវិត	-8.89239
អាមេរិក	-8.89416
បី	-8.8945
▁ដំបូង	-8.89487
ផ្សព្វផ្សាយ	-8.89515
▁វិនាទី	-8.89559
500	-8.89577
▁អ្នកអាច	-8.89695
ច្រើន	-8.89707
ធ	-8.89708
ផ្ទុក	-8.89766
ni	-8.90126
ud	-8.90137
សេវាកម្ម	-8.90222
សុវត្ថិភាព	-8.9023
▁ដ៏	-8.90264
ភ	-8.9027
ts	-8.90399
▁សញ្ញា	-8.90446
▁ព	-8.90471
▁Q	-8.90482
ណាស់	-8.90622
័	-8.90638
ដូច	-8.90724
▁កុំព្យូទ័រ	-8.91019
▁Mon	-8.91034
កាស៊ីណូ	-8.91086
▁Khmer	-8.91148
ទាញយក	-8.91239
ប្រកាស	-8.913
រ៉ូ	-8.91363
ies	-8.91367
▁ក៏	-8.91386
▁៥	-8.91392
▁ប្រវត្តិ	-8.91393
▁មករា	-8.91525
ក្តៅ	-8.91582
▁ព្រះ	-8.91668
78	-8.91773
▁ផ្តល់	-8.91833
61	-8.91842
គំរូ	-8.92005
ឡូ	-8.92023
ite	-8.92027
▁សង់ទីម៉ែត្រ	-8.92076
of	-8.92147
▁Mar	-8.92231
លា	-8.92336
em	-8.92342
▁បញ្ចប់	-8.92391
▁ភ្ជាប់	-8.92547
សូម	-8.92558
មួយចំនួន	-8.92756
ទូរស័ព្ទដៃ	-8.92799
អេស	-8.9305
ពណ៌	-8.93214
▁លទ្ធផល	-8.93299
79	-8.93367
អ៊ី	-8.93417
▁Tr	-8.93519
គាត់	-8.93556
▁នូវ	-8.93646
▁ជួរ	-8.9368
▁អក្សរ	-8.93696
AN	-8.93887
▁លំនាំ	-8.94037
▁150	-8.94057
▁Penh	-8.94202
ពេញលេញ	-8.94227
ស្វែងរក	-8.94235
▁you	-8.9424
▁សីហា	-8.94272
ថ្នាំ	-8.94292
▁សេចក្តី	-8.94337
ែក	-8.94473
77	-8.94497
ទាំង	-8.94497
នា	-8.94648
▁កន្លែង	-8.94694
▁អេក្រង់	-8.94714
eng	-8.94881
▁ប្ដូរ	-8.94886
▁ខែតុលា	-8.94917
វិ	-8.94928
▁ស្បែក	-8.94939
tr	-8.94999
ប្រេង	-8.95152
▁ម៉ូតូ	-8.95246
▁00	-8.95352
▁Casino	-8.95425
ag	-8.95518
ជី	-8.95566
សម្ភារៈ	-8.95577
▁ផ្	-8.95709
87	-8.95758
ថត	-8.95804
▁ភាសាខ្មែរ	-8.95893
គេហទំព័រ	-8.95955
ចង់	-8.96045
តូច	-8.96121
ធម្មតា	-8.96164
សំខាន់	-8.96248
▁000	-8.9654
ិន	-8.96552
81	-8.96567
94	-8.96597
▁បន្ទប់	-8.96665
ub	-8.96686
▁Pro	-8.96695
កម្រិត	-8.96704
ច្បាប់	-8.96795
▁ជូន	-8.96827
ទំព័រ	-8.9706
សមត្ថភាព	-8.97168
▁CNC	-8.97248
▁ខ	-8.97307
ិច	-8.97367
▁លក្ខណៈ	-8.97398
បែប	-8.97719
អគ្គិសនី	-8.97806
▁2010	-8.97814
▁ធីក	-8.97836
ចិត្ត	-8.97883
▁ដំណើរ	-8.97951
ti	-8.9805
▁មិនអាច	-8.98195
▁Me	-8.9823
អ្វី	-8.98255
▁ពិត	-8.98644
64	-8.98657
color	-8.98662
ឡ	-8.98691
បច្ចេកទេស	-8.98717
▁300	-8.98785
ick	-8.9882
គាំទ្រ	-8.98902
bi	-8.98996
▁35	-8.9904
សូ	-8.99084
ចំពោះ	-8.99103
▁រយៈពេល	-8.99271
ជំងឺ	-8.99277
▁អេ	-8.99277
▁លំនាំដើម	-8.99307
តូ	-8.99366
▁31	-8.99383
សញ្ញា	-8.99594
ធី	-8.99726
▁សៀវ	-8.99966
ដឹកជញ្ជូន	-8.99988
អាហារ	-9.00037
ុង	-9.00308
▁ជួល	-9.00344
▁IP	-9.0042
▁សំណួរ	-9.00436
▁ភៅ	-9.00524
▁ទទួលបាន	-9.00651
់	-9.00858
ect	-9.00973
▁Be	-9.00983
▁ផ្ទៃ	-9.0116
▁Huawei	-9.0118
រា	-9.0119
▁Ad	-9.01271
▁សម័យ	-9.01277
▁To	-9.01304
q	-9.01399
min	-9.01559
ng	-9.01614
▁An	-9.01684
▁កញ្ចប់	-9.01802
ផ្	-9.0182
84	-9.01897
▁មនុស្ស	-9.02008
no	-9.0212
▁កែសម្រួល	-9.02196
tic	-9.02402
លើបណ្តាញ	-9.0246
▁កាត	-9.02554
97	-9.02644
ស្រ	-9.02817
ber	-9.02957
ium	-9.03092
អនុវត្ត	-9.03127
សម	-9.03174
▁សកម្មភាព	-9.03317
បណ្តាញ	-9.03413
kv	-9.03414
ិក	-9.03421
សិក្សា	-9.03616
អភិវឌ្ឍន៍	-9.03633
ga	-9.03697
ជម្រើស	-9.03714
▁សេចក្ដី	-9.03818
▁សំឡេង	-9.03876
៉	-9.03961
0,000	-9.03962
របស់គាត់	-9.04007
របស់ពួកគេ	-9.04067
▁អ៊ីម៉ែល	-9.04085
▁Ar	-9.04095
ka	-9.04259
សំរាប់	-9.04278
ធារាសាស្ត្រ	-9.04357
ករ	-9.04395
សុខភាព	-9.04422
SA	-9.04464
▁ខ្ពស់	-9.045
ឌ	-9.04533
ពេញ	-9.04585
91	-9.04605
▁គណនី	-9.0473
រីករាយ	-9.04817
▁ចុះ	-9.0483
ឌីជីថល	-9.0492
▁Constellation	-9.0492
កូន	-9.05048
បញ្ចប់	-9.05061
▁រដ្ឋ	-9.0514
ឹម	-9.05197
ភាសា	-9.05217
be	-9.05218
gu	-9.05307
ណូ	-9.05404
▁ណា	-9.05943
▁តង់ស្យុងខ្ពស់	-9.06002
▁២០	-9.06003
ដឹង	-9.0603
82	-9.06086
រៀបចំ	-9.06135
▁ថាមពល	-9.06292
▁ករណី	-9.06384
ឈ្នះ	-9.06424
▁CO	-9.06468
បុរស	-9.06567
▁គួរ	-9.06655
ចំ	-9.06768
▁ជើង	-9.06891
▁ក្រទ្បាផ្ទៃ	-9.06893
ទៅនឹង	-9.0691
▁APK	-9.06997
សាកលវិទ្យាល័យ	-9.07102
tor	-9.0719
▁ស៊ី	-9.07527
▁160;?	-9.07645
ភី	-9.07757
បំពេញ	-9.07763
ml	-9.07786
▁News	-9.07803
▁Ningbo	-9.07895
▁សម្ងាត់	-9.08068
អតិបរមា	-9.0808
ទៅកាន់	-9.08186
IS	-9.08204
ពិ	-9.08227
▁ផ្ទាំង	-9.08272
▁Al	-9.08292
▁Mobile	-9.08298
▁2011	-9.08346
ity	-9.08378
ah	-9.08455
su	-9.08484
ជន	-9.08593
OS	-9.08649
▁Mi	-9.08661
ប្លាស្ទិច	-9.08851
▁គំរូ	-9.08928
2"	-9.09011
▁ឧទាហរណ៍	-9.09183
▁សិទ្ធិ	-9.09196
▁ដូចជា	-9.09212
▁90	-9.09448
▁×	-9.09774
▁kde	-9.09927
▁តភ្ជាប់	-9.09969
mi	-9.09995
▁ខ្មៅ	-9.10044
▁៦	-9.10066
▁រៀបចំ	-9.10105
▁11:	-9.10122
▁យោបល់	-9.10275
▁ប្រភព	-9.1033
ផ្ទៃ	-9.10519
▁ទិញ	-9.10654
ord	-9.10765
▁របាយការណ៍	-9.10812
ណ៍	-9.10924
ការ៉េ	-9.10994
ករណី	-9.11029
▁ដែរ	-9.11043
កុំព្យូទ័រ	-9.11056
តិ	-9.11058
▁ខ្លួន	-9.11071
បង្	-9.11084
វេ	-9.11107
▁លេង	-9.11127
ាំ	-9.11173
▁រត់	-9.11195
▁Lo	-9.11269
▁ម្សៅ	-9.11324
ប្រជាជន	-9.11379
បូ	-9.11442
ម៉ាក	-9.11477
nt	-9.11512
▁www	-9.11694
ler	-9.11723
ជ្រើសរើស	-9.11731
បូម	-9.11756
បន្ទាត់	-9.1183
អក្សរ	-9.11834
▁បូក	-9.11863
ពុំអាចរកបាន	-9.12006
ទេសចរណ៍	-9.12039
ទៀត	-9.12088
▁Pa	-9.12093
▁ខែវិច្ឆិកា	-9.12157
ហ្គា	-9.12208
able	-9.12234
io	-9.12261
នេះ។	-9.12294
▁ចំនួនអ្នកទស្សនា	-9.12424
▁សរុប	-9.12508
ណាមួយ	-9.12529
សាធារណៈ	-9.12532
▁Ba	-9.12538
សាកល្បង	-9.12617
ៅ	-9.12672
ial	-9.12679
▁ជាមួយនឹង	-9.12777
oc	-9.12841
-5	-9.12868
mon	-9.12938
▁By	-9.12954
គុណភាព	-9.13001
▁Microsoft	-9.13059
net	-9.13118
២០	-9.1317
gi	-9.13286
កុមារ	-9.13313
▁ពិនិត្យឡើងវិញ	-9.13424
សាក	-9.13435
▁ទ្រង់ទ្រាយ	-9.1344
▁បំផុត	-9.1345
ជើង	-9.13482
ហិរញ្ញវត្ថុ	-9.13568
▁Sa	-9.13569
ខ្យល់	-9.13652
▁កំពូល	-9.13873
▁៨	-9.14023
រួម	-9.14102
sa	-9.1413
ទាំងនេះ	-9.14131
▁Free	-9.14245
ដឹកនាំ	-9.14376
▁បន្ត	-9.14409
ធានា	-9.14565
▁ប្រធាន	-9.14618
▁29	-9.14688
ix	-9.14726
art	-9.14773
សារធាតុ	-9.1478
tion	-9.14809
▁សេវាកម្ម	-9.1482
លេង	-9.14848
▁URL	-9.14892
▁ហ	-9.14903
មាស	-9.15038
▁ខែមីនា	-9.15053
ner	-9.15094
ាយ	-9.15106
ោះ	-9.15108
ប្រាក់រង្វាន់	-9.15169
GB	-9.15303
▁32	-9.15437
▁Br	-9.1546
ach	-9.15535
កូដ	-9.15536
បន្ទាប់ពី	-9.15558
ance	-9.15581
ath	-9.15586
នេះគឺ	-9.15616
រហូតដល់	-9.1563
vo	-9.15631
វិភាគ	-9.15681
រង	-9.15733
▁អតិថិជន	-9.15743
lan	-9.15759
▁អនុវត្ត	-9.1578
▁រុករក	-9.15834
▁ថ្ងៃទី	-9.15862
មានការ	-9.15866
៊	-9.15897
អ្វីដែល	-9.16051
▁ព្រឹក	-9.16061
▁កូដ	-9.16083
ាស់	-9.16122
សំ	-9.16214
ឃើញ	-9.16361
▁ផ្លាស់ទី	-9.16368
▁កូន	-9.16393
AC	-9.16402
ជ្រើស	-9.16489
▁Comments	-9.16516
ជួល	-9.16546
od	-9.16587
ow	-9.16736
▁Visa	-9.16739
រវាង	-9.16773
▁ចុង	-9.16798
ជញ្ជាំង	-9.16838
▁OF	-9.16846
▁ពិន្ទុ	-9.16901
out	-9.17022
▁01	-9.17126
សត្វ	-9.17251
▁whatsthis	-9.1728
po	-9.17327
កំ	-9.17407
▁ពីរ	-9.17489
ជំនាញ	-9.17505
▁ស្រុក	-9.17559
វិធី	-9.17572
▁តើធ្វើដូចម្តេច	-9.17612
▁អតិបរមា	-9.1763
▁មេ	-9.17638
▁រួច	-9.17662
▁ទទឹង	-9.17699
▁ពុម្ព	-9.17702
ផ្សារ	-9.17745
វែង	-9.17959
▁ទំងន់	-9.17962
han	-9.1798
▁ខ្មែរ	-9.1799
▁ប្លាស្ទិច	-9.18008
mb	-9.18047
▁ខែមេសា	-9.18065
▁80	-9.18154
ងាយស្រួល	-9.18166
▁បន្ទះ	-9.18194
62	-9.18208
7"	-9.18248
ចុច	-9.18263
ob	-9.18289
▁ដៃ	-9.1832
កាត់បន្ថយ	-9.18392
០០	-9.184
ជាប់	-9.18457
si	-9.18462
អាកាស	-9.18497
មកពី	-9.18571
▁ប្រតិទិន	-9.18651
▁Mac	-9.18672
▁ផ្ទាល់	-9.18712
រាប់	-9.18821
▁ធនធាន	-9.18989
ពាក្យ	-9.19005
▁ពន្លឺ	-9.19041
សោ	-9.19179
83	-9.19198
ឥតគិតថ្លៃ	-9.19274
pi	-9.19365
សេដ្ឋកិច្ច	-9.19403
ទូទៅ	-9.19403
កិច្ច	-9.19513
gov	-9.19585
▁ធ្វើការ	-9.19618
វិស័យ	-9.19629
ុក	-9.1982
AT	-9.19854
▁១០	-9.1991
▁ខែកុម្ភៈ	-9.19959
▁ហ៊ុន	-9.19975
ជួយ	-9.19979
▁បច្ចេកវិទ្យា	-9.20013
▁អាមេរិក	-9.20015
▁with	-9.20033
តេ	-9.20164
ile	-9.20205
លូ	-9.20227
បន្ទាន់	-9.20232
▁បន្ទាប់ពី	-9.20286
អោយ	-9.20333
ឧ	-9.20512
TS	-9.2053
កីឡា	-9.20676
pl	-9.20704
▁ប្រកាស	-9.2073
▁យើងមាន	-9.20769
▁Su	-9.2081
ខ្មៅ	-9.20979
អ្នកអាច	-9.20993
០០០	-9.21006
មា	-9.2112
កូ	-9.21159
▁Car	-9.21272
រឹង	-9.21282
▁ABA	-9.21301
▁គ្រប់	-9.21394
▁វិច្ឆិកា	-9.21421
▁Air	-9.21501
បទ	-9.21513
ក្រោយ	-9.21533
▁Do	-9.21572
ឧស្ម័ន	-9.21572
សរសេរ	-9.21573
ស្លាប់	-9.21575
gen	-9.21593
គ្រប់យ៉ាង	-9.2164
▁ក្រុមហ៊ុនផលិត	-9.21792
ស្រឡាញ់	-9.21803
▁Pre	-9.21899
day	-9.21974
ឡើងវិញ	-9.21998
ត្រី	-9.22137
ថេរ	-9.22197
ប៉ា	-9.22278
ច្រើនជាង	-9.22378
▁For	-9.22443
សកម្មភាព	-9.22518
ai	-9.22721
▁Phnom	-9.22733
ធម្មជាតិ	-9.22736
របស់លោក	-9.2277
▁sp	-9.22904
▁គ្រឿង	-9.22929
▁ខែកញ្ញា	-9.22975
កញ្ចក់	-9.23022
sk	-9.23106
kg	-9.2311
▁Po	-9.23159
▁are	-9.23236
▁សំបុត្រ	-9.23245
ស្បែក	-9.23342
▁ថ្នាក់	-9.23348
▁វិ	-9.23413
les	-9.23421
ប្រអប់	-9.23468
ash	-9.23481
ran	-9.23549
▁ខៀវ	-9.23557
▁Konqueror	-9.23671
ass	-9.23684
6"	-9.2371
▁រន្ធ	-9.23905
fi	-9.2405
រន្ធ	-9.24071
▁Mo	-9.24187
អេក្រង់	-9.24258
▁ដែលជា	-9.24265
ុយ	-9.24269
តម្រូវការ	-9.24355
▁បញ្ហា	-9.24361
ឯក	-9.24376
line	-9.24412
▁មេសា	-9.24418
mp	-9.24492
រៀន	-9.24513
▁ចម្លង	-9.24565
ting	-9.2464
che	-9.2468
▁Ra	-9.24752
គ្រប់	-9.24778
MP	-9.24931
use	-9.25057
ព្រ	-9.25073
iv	-9.25145
ke	-9.25291
អង្គការ	-9.25297
ice	-9.25317
សមុទ្រ	-9.25329
▁ផ្សាយ	-9.25339
▁០	-9.25343
▁USD	-9.2537
▁Vi	-9.25371
ak	-9.25432
សៀវភៅ	-9.25474
ពិតជា	-9.25522
▁កែ	-9.25544
ec	-9.25551
ens	-9.2561
នេះត្រូវបាន	-9.25633
yl	-9.25707
ដេ	-9.25727
ក្នុងមួយ	-9.25737
ted	-9.25882
▁បណ្តាញ	-9.26098
បាញ់	-9.26196
▁Jo	-9.26235
ការប្រើប្រាស់	-9.26362
sta	-9.26362
ទទួលយក	-9.26385
ខាងក្រៅ	-9.26405
▁ក្រហម	-9.26434
▁កាបូប	-9.26496
បង្វិល	-9.26548
▁ភ្នំពេញ	-9.26589
ឈើ	-9.26589
បួន	-9.26709
ផល	-9.26741
way	-9.26823
pp	-9.2689
ជាក់លាក់	-9.26912
2019	-9.26968
▁district	-9.27027
AL	-9.27061
▁ខែមិថុនា	-9.27091
ពាក់	-9.27106
ប្រទេសចិន	-9.27284
MA	-9.27302
ចាប់	-9.2737
ឥតខ្សែ	-9.27434
ទីតាំង	-9.27452
▁វិញ្ញាបនបត្រ	-9.27459
ការប្រកួត	-9.2746
▁ឥឡូវ	-9.27463
បញ្ជាក់	-9.27497
នៅទីនេះ	-9.27522
▁ទាញ	-9.27555
▁ទៅកាន់	-9.27614
▁'%	-9.27631
ក៏	-9.27642
con	-9.27674
ដៃគូ	-9.27697
ត់	-9.27917
ផ្លាស់ប្តូរ	-9.27919
▁សន្លឹក	-9.27951
▁ចាប់ផ្តើម	-9.2805
▁pro	-9.2807
▁ខែធ្នូ	-9.28089
▁ផ្សេងៗ	-9.28261
បន្	-9.28331
ត្រឹមត្រូវ	-9.28372
រហ័ស	-9.28376
ាក់	-9.28377
ដង	-9.28394
▁ថាស	-9.28544
ចាស់	-9.28594
ខាងក្នុង	-9.28674
ម៉ូ	-9.2874
បន្ថែមទៀត	-9.28783
5"	-9.28785
2018	-9.28813
-0	-9.28875
▁Con	-9.28899
▁Download	-9.28986
ជូន	-9.29078
▁Sp	-9.29124
▁not	-9.29136
tra	-9.29258
▁	-9.29299
ny	-9.29341
▁ISO	-9.29392
▁ចុងក្រោយ	-9.29408
PA	-9.29465
uk	-9.29573
លើកទី	-9.29593
ron	-9.29649
▁HD	-9.29753
box	-9.29815
▁តារាង	-9.29834
log	-9.29866
បញ្ហា	-9.29894
▁បរាជ័យ	-9.29919
ស្តីពី	-9.29955
ស្រុក	-9.29963
300	-9.29964
▁អង្គការ	-9.30098
▁ទ	-9.30129
und	-9.30148
ការព្យាបាល	-9.30152
act	-9.30193
den	-9.30257
▁sa	-9.30396
ផ	-9.30456
ចេញពី	-9.30712
ាន់	-9.30729
▁Th	-9.30818
▁ខ្ញុំជា	-9.30833
ផ្តល់ជូន	-9.30901
រូបថត	-9.31037
ក្រុមហ៊ុនផលិត	-9.31114
▁ម៉ូឌុល	-9.3112
បំបែក	-9.31153
រាវ	-9.31161
▁រឿង	-9.31293
ស៊េរី	-9.31294
ខេត្ត	-9.31297
ដោយមាន	-9.31317
ind	-9.31366
▁Online	-9.31419
▁លាន	-9.31457
▁Wed	-9.31467
▁ជួលឡាន	-9.3165
ធាតុ	-9.31733
-6	-9.3177
យូ	-9.31782
នៅក្នុងការ	-9.31786
ល្	-9.31825
pr	-9.31837
ព្យាបាល	-9.31864
▁ចូលរួម	-9.31888
ort	-9.31907
ight	-9.31953
▁តូច	-9.31964
▁ផ្ទៃតុ	-9.32037
ហ្គោ	-9.32059
="5	-9.32091
ina	-9.32098
é	-9.32153
ពិតប្រាកដ	-9.3217
▁ធំ	-9.32229
▁label	-9.32411
▁Ha	-9.32447
▁ប្រវែង	-9.32453
int	-9.32565
លទ្ធផល	-9.32684
PS	-9.32737
រង្វាន់	-9.32763
▁ពួកគេ	-9.32876
មើលឃើញ	-9.32916
▁HVC	-9.32926
នៅពេល	-9.3293
▁កាត់	-9.32952
តិច	-9.3304
វិទ្យា	-9.33159
ock	-9.33234
និ	-9.33351
▁តំណាង	-9.33386
▁Play	-9.3343
របៀប	-9.3343
“	-9.33505
ft	-9.33506
នឹងត្រូវបាន	-9.33534
▁Tue	-9.33541
តុ	-9.33559
ast	-9.33615
ភ្នំ	-9.33706
▁New	-9.33725
▁your	-9.33817
ក្រហម	-9.33818
▁"%	-9.33889
tu	-9.33948
▁វត្ថុ	-9.34076
ន័យ	-9.34091
atch	-9.34161
ជប៉ុន	-9.3419
ok	-9.34204
▁ផែនទី	-9.34211
ren	-9.34243
▁ទូទៅ	-9.34262
▁ដោយឥតគិតថ្លៃ	-9.34303
ហេតុផល	-9.34519
oo	-9.34578
គ្រួសារ	-9.347
តាមដាន	-9.34753
ated	-9.34784
ប្រទេសកម្ពុជា	-9.34831
ែល	-9.34893
ction	-9.34929
▁TRANSLATORS	-9.35016
▁·	-9.35016
▁Qu	-9.35019
▁ប្រាក់រង្វាន់	-9.35071
▁កណ្ដុរ	-9.35108
▁Vol	-9.35125
ប៉	-9.35222
ON	-9.35409
▁Vessoft	-9.35412
▁អឺរ៉ូ	-9.35418
▁He	-9.35421
▁កក្កដា	-9.35424
▁250	-9.3549
អភិវឌ្ឍ	-9.35559
ឃ	-9.3566
កណ្តាល	-9.35667
ហ្ស	-9.35689
800	-9.35747
ខា	-9.35866
ack	-9.35877
មហា	-9.359
សេរ៉ាមិច	-9.35944
▁condition	-9.35947
ណេ	-9.36023
▁Wi	-9.36067
ជំនួស	-9.36089
="4	-9.36105
លាយ	-9.36121
ថ្នាក់	-9.36159
ster	-9.36192
បរទេស	-9.36211
▁0.0	-9.36222
car	-9.36256
▁ក្រ	-9.36309
cam	-9.36321
▁Apple	-9.36429
ya	-9.36487
ទស្សនា	-9.36489
បញ្ជា	-9.36553
ste	-9.36627
ឆ	-9.36642
គួរ	-9.36665
្រ	-9.3672
ប្រឹក្សាភិបាល	-9.36747
សាលា	-9.36924
▁តើអ្នក	-9.36951
▁លេខកូដ	-9.36983
ផ្តល់នូវ	-9.36989
ល្បឿន	-9.37025
NAME	-9.3703
ពហុ	-9.37056
ty	-9.37073
អ៊ីនធឺណិត	-9.3715
តំលៃ	-9.37194
រចនាសម្ព័ន្ធ	-9.37359
AP	-9.37424
អប់រំ	-9.37555
%9	-9.3759
▁Di	-9.37612
គីមី	-9.37679
ណ្	-9.37703
អត្ថបទ	-9.37704
វេទិកា	-9.37716
▁ដែក	-9.37764
EC	-9.37771
ដូច្នេះ	-9.37823
គោលបំណង	-9.37835
▁គិត	-9.37896
mer	-9.37957
ary	-9.37991
ជួប	-9.38028
▁06	-9.38118
▁ក្	-9.38245
hat	-9.38303
កញ្ចប់	-9.38428
ator	-9.38451
ទំនើប	-9.38499
="6	-9.38518
លុយ	-9.38579
ភ្លើង	-9.38606
ov	-9.38615
ll	-9.3863
ខ្មែរ	-9.3869
▁កុម្ភៈ	-9.38782
ផ្អាក	-9.38787
▁—	-9.38787
ប័ណ្ណ	-9.38818
3.5	-9.38916
គ្របដណ្តប់	-9.38919
▁Facebook	-9.38919
ចូលទៅក្នុង	-9.38935
ire	-9.39014
ert	-9.39014
▁មុខ	-9.39024
we	-9.39028
យល់	-9.39033
▁ទស្សនា	-9.39055
▁ពាណិជ្ជកម្ម	-9.39096
ប្រឆាំង	-9.39141
សំណួរ	-9.39168
និស្សិត	-9.39194
ក្រោម	-9.39211
ger	-9.39302
ប្រសិទ្ធភាព	-9.39333
▁បៃតង	-9.39333
សកម្ម	-9.39419
ware	-9.39433
ពិធី	-9.39447
ស្រី	-9.39526
ចំណាយ	-9.39599
▁ថ្លៃ	-9.39607
គ្រឿង	-9.39694
-10	-9.39698
សុទ្ធ	-9.39742
}	-9.39746
កៅស៊ូ	-9.39746
▁មាតិកា	-9.39839
ish	-9.39875
▁Ultrasonic	-9.39885
ចម្បង	-9.39887
▁EA	-9.40013
កង់	-9.40019
ខាងលើ	-9.40044
▁El	-9.40048
មកដល់	-9.40133
គិត	-9.40208
ace	-9.40227
-20	-9.40247
gg	-9.4034
▁សកម្ម	-9.40343
វេចខ្ចប់	-9.40392
ដែលជា	-9.40412
មិនបាន	-9.40456
តែមួយ	-9.40512
▁ទូរសារ	-9.40543
hu	-9.40723
▁do	-9.40724
▁ការការពារ	-9.40764
▁ទម្រង់	-9.40782
va	-9.40785
▁រយៈ	-9.40836
មជ្ឈមណ្ឌល	-9.40968
cc	-9.41008
▁នាង	-9.41057
▁កុំ	-9.41081
▁ការកំណត់	-9.41167
ស្ត្រី	-9.4123
ដុល្លារ	-9.41252
res	-9.41272
▁Canada	-9.4128
សាស្ត្រ	-9.41299
សហគមន៍	-9.41317
រំ	-9.41335
សណ្ឋាគារ	-9.41454
comments	-9.41518
ដឹងថា	-9.41536
កំសាន្ត	-9.41557
ជីវ	-9.41639
tal	-9.41649
▁ការប្រើប្រាស់	-9.41659
ឱកាស	-9.41703
air	-9.41719
អាចត្រូវបាន	-9.41807
RA	-9.41824
ខេ	-9.41829
▁Jun	-9.41879
lin	-9.41885
▁Galaxy	-9.41986
ទេ។	-9.41994
ven	-9.42046
តើ	-9.42111
ជ័រ	-9.42166
▁ស៊ីឌី	-9.42237
ឱសថ	-9.42269
▁ជាន់	-9.42296
បង់	-9.42365
wa	-9.4237
▁ស្ថានភាព	-9.42402
▁តាមរយៈ	-9.42412
ខ្លាំង	-9.42483
0.00	-9.42545
ចុះ	-9.4265
las	-9.42661
ជួរ	-9.42662
ក្រៅ	-9.42699
បន្ទះ	-9.42717
ហេតុ	-9.42759
▁លក្ខខណ្ឌ	-9.42801
ផ្ញើ	-9.42943
ink	-9.42952
top	-9.43004
យ៉ាងខ្លាំង	-9.43076
ប៊	-9.43076
ris	-9.43092
ន្ទ	-9.43179
លោកអ្នក	-9.43282
form	-9.43351
▁ស្វ័យ	-9.43416
IC	-9.43445
លំ	-9.43454
for	-9.43492
low	-9.4354
កំណែ	-9.43579
ត្តិ	-9.43596
▁សូ	-9.43625
បំ	-9.43652
អ្នកជំនាញ	-9.43678
iz	-9.43688
ឹ	-9.43713
old	-9.43716
▁ជួយ	-9.43796
លក្ខណៈពិសេស	-9.43838
ទ្វារ	-9.43939
រួមបញ្ចូល	-9.43973
ទំនិញ	-9.43984
▁ក្នុងរយៈពេល	-9.44001
▁ច្បាប់	-9.44045
វិនិយោគ	-9.44093
បង្កើន	-9.44148
ព្រឹត្តិការណ៍	-9.44199
យើងខ្ញុំ	-9.44212
▁Plus	-9.44268
▁You	-9.44299
ប្រាប់	-9.44397
ខ្លះ	-9.44405
hen	-9.44429
▁iOS	-9.44432
គួរឱ្យ	-9.4446
fer	-9.44502
សិទ្ធិ	-9.44617
book	-9.44628
fish	-9.44706
▁English	-9.44709
ភ្នែក	-9.4471
▁ឥឡូវនេះ	-9.44749
រួមមាន	-9.44753
▁បន្ទាប់មក	-9.44794
ផ្សេងគ្នា	-9.44808
SP	-9.44852
wi	-9.44883
បាត់បង់	-9.4492
ទូទាត់	-9.44965
£	-9.44977
▁ខែកក្កដា	-9.44987
▁→	-9.45009
AR	-9.4508
អាលុយមីញ៉ូម	-9.45112
បញ្ជូន	-9.4512
cl	-9.4518
-8	-9.45188
▁លេខកូដយោង	-9.45299
lex	-9.4533
▁ញ	-9.45354
world	-9.45362
▁រាល់	-9.45375
ធ្លាក់ចុះ	-9.45415
រដ្ឋាភិបាល	-9.45434
អញ្ជើញ	-9.45442
សាមញ្ញ	-9.45442
Hz	-9.45504
ប៉ុន្តែ	-9.45611
ail	-9.45644
ស៊ូ	-9.4565
cur	-9.45652
មម	-9.45677
▁120	-9.45679
មួយដែល	-9.45765
▁AC	-9.45787
ផែនការ	-9.45883
▁Ho	-9.45933
ចែកចាយ	-9.45973
▁Archives	-9.4603
ern	-9.46058
ដំណោះស្រាយ	-9.46132
អប្បបរមា	-9.46177
▁can	-9.46215
សំបុត្រ	-9.46271
cu	-9.46487
▁អូ	-9.46498
ែរ	-9.46504
▁ប្រសិនបើអ្នក	-9.46518
ome	-9.4655
កែ	-9.46564
ជាការ	-9.46729
តុបតែង	-9.46769
ដែកថែប	-9.46793
ឈរ	-9.46881
▁02	-9.46961
red	-9.46991
ត្រួតពិនិត្យ	-9.47031
IT	-9.47128
១១	-9.47139
▁this	-9.47252
ត្រង់	-9.47268
សមាជិក	-9.47292
▁blockchain	-9.47327
រត់	-9.47358
▁ពុម្ពអក្សរ	-9.47379
ive	-9.47427
ការអភិវឌ្ឍ	-9.47471
▁Ac	-9.47524
▁Fri	-9.47526
ទៅជា	-9.47579
lay	-9.47584
/#	-9.47589
▁បាននិយាយថា	-9.47664
បច្ចុប្បន្ន	-9.47666
▁សម្គាល់	-9.4774
ជិះ	-9.47748
វីស	-9.4784
▁that	-9.47847
▁គុណភាព	-9.47874
XL	-9.47918
លើក	-9.47924
▁PTFE	-9.47964
tt	-9.48002
ម្សៅ	-9.4804
EN	-9.48144
ki	-9.48176
ភាគច្រើន	-9.48258
ស្រស់ស្អាត	-9.48271
គួរតែ	-9.48305
ការទូទាត់	-9.48308
ឯកជន	-9.48311
400	-9.48328
ួល	-9.48385
▁di	-9.48451
ចាន	-9.48532
សុំ	-9.48541
▁ប៉ុណ្ណោះ	-9.48545
គំនិត	-9.48546
សិ	-9.48634
ជាផ្លូវការ	-9.48635
ចំណាត់ថ្នាក់	-9.48643
មិនមាន	-9.48759
▁2009	-9.4877
▁ក្រៅ	-9.4883
▁Technology	-9.4887
ត្រា	-9.48884
មុខងារ	-9.48885
ence	-9.48965
lat	-9.4898
RE	-9.48989
ឡើយ	-9.48991
▁ខណៈ	-9.49017
▁丨	-9.49067
ផ្ទាល់	-9.49122
▁ហៅ	-9.49125
ចូលចិត្ត	-9.49243
▁So	-9.49291
▁[...]	-9.49326
រាងកាយ	-9.4937
▁Gu	-9.49372
ធុង	-9.49403
រាជ	-9.49478
bar	-9.49491
ដំឡើង	-9.495
សីតុណ្ហភាព	-9.49533
work	-9.49639
អាយុ	-9.49695
▁ដី	-9.49696
▁សូចនាករ	-9.49889
ែង	-9.49895
oll	-9.4993
▁ក្រាហ្វិក	-9.49935
▁Ta	-9.49943
ទម្រង់	-9.50022
content	-9.50089
▁ចំណង	-9.5011
ពួក	-9.50129
ue	-9.50141
គូ	-9.50198
នាំ	-9.50263
▁14:	-9.50279
▁ជ	-9.5028
រចនា	-9.50531
ស្អាត	-9.50548
▁as	-9.50581
aw	-9.50687
▁Ph	-9.50694
ដូចគ្នា	-9.5076
ច្រ	-9.50796
ត្	-9.50817
▁36	-9.50828
▁45	-9.50837
ផ្សាយ	-9.50838
ការផ្លាស់ប្តូរ	-9.5085
សមរម្យ	-9.50861
សកល	-9.50936
វិទ្យាសាស្រ្ត	-9.51004
ស្រាល	-9.51034
▁ឧស្សាហកម្ម	-9.51096
ling	-9.51127
▁ច្រក	-9.51157
អស្ចារ្យ	-9.512
ពិភាក្សា	-9.51323
វិទ្យុ	-9.51326
តន្ត្រី	-9.51328
នាង	-9.51368
ឹង	-9.5137
អាចរកបាន	-9.51388
ដែលមានគុណភាព	-9.51475
▁មីនា	-9.51486
▁គោលការណ៍	-9.51528
za	-9.51587
ត្រូវបានប្រើ	-9.51606
cy	-9.51636
▁សំ	-9.51698
▁j	-9.51707
▁រចនាប័ទ្ម	-9.51833
▁លក្ខណៈពិសេស	-9.51841
▁color	-9.51845
សប្តាហ៍	-9.51848
១៤	-9.51911
អង់គ្លេស	-9.51974
▁សាកល្បង	-9.51976
គ្រាន់តែ	-9.52067
អាវ	-9.521
ពត៌មាន	-9.52106
mAh	-9.52109
ន៍	-9.52298
ID	-9.52338
បណ្	-9.52436
▁ឧ	-9.52449
PC	-9.52471
OR	-9.52493
©	-9.52517
ខ្នាតតូច	-9.52592
▁ហ្គេម	-9.52649
SI	-9.52718
▁និពន្ធ	-9.52738
រោងចក្រផលិត	-9.5274
ដ្ឋាន	-9.52771
ung	-9.52814
ជុំ	-9.52844
dr	-9.52877
list	-9.5291
▁Shenzhen	-9.5305
ដែលអាច	-9.53085
ធ្វើដំណើរ	-9.53093
▁Un	-9.53108
ចាំបាច់	-9.53108
▁Bill	-9.53178
គ្រឿងបន្លាស់	-9.53208
ភាគ	-9.53213
-12	-9.53215
▁Ja	-9.53255
សួន	-9.53306
ច្រើនទៀត	-9.53403
▁PCB	-9.53515
អ្នកផ្គត់ផ្គង់	-9.53524
បង្ហាប់	-9.53525
ប៊ិច	-9.53526
ផ្សេងៗ	-9.5354
កាល	-9.53693
ដោយផ្ទាល់	-9.53736
gra	-9.53755
light	-9.53763
nd	-9.53899
▁ត្រឡប់	-9.54013
▁1'	-9.54021
ko	-9.54078
ដោះ	-9.54079
ការិយាល័យ	-9.54092
នាទី	-9.54093
€	-9.54159
▁ម។	-9.54236
▁220	-9.54249
លែង	-9.5426
ទាក់ទង	-9.54357
cal	-9.54358
គុណ	-9.5436
ម្នាក់	-9.54378
▁2000	-9.54406
ff	-9.54409
ពង្រីក	-9.54613
▁Property	-9.54644
ប្	-9.5472
▁Bu	-9.54728
បានទទួល	-9.54916
ទូរទស្សន៍	-9.54981
dy	-9.55036
eg	-9.55075
IP	-9.55083
▁option	-9.55123
ស្ថិត	-9.55125
hy	-9.552
រលាយ	-9.5522
ផ្កាឈូក	-9.5529
ជាមួយនឹងការ	-9.55321
ous	-9.55326
លីន	-9.55374
ចូលរួម	-9.55428
▁ការគាំទ្រ	-9.55487
▁ភាគ	-9.55497
ឡាស៊ែរ	-9.55509
att	-9.55566
get	-9.55567
ពានរង្វាន់	-9.55599
ធិ	-9.5566
ការគ្រប់គ្រង	-9.557
សហរដ្ឋអាមេរិក	-9.55715
▁សំណុំ	-9.55755
ust	-9.5576
អាជ្ញាប័ណ្ណ	-9.55774
▁បែតា	-9.55774
▁ស្គាល់	-9.55785
▁ប្រតិបត្តិ	-9.55821
គឺមាន	-9.55857
▁អាវ	-9.56002
ដែលត្រូវបាន	-9.56084
ou	-9.56095
លៃតម្រូវ	-9.56101
ជនជាតិ	-9.56152
ហ្គ	-9.56178
ន្ត	-9.56191
នៅតែ	-9.56242
ara	-9.56338
CI	-9.56386
▁ៗ	-9.564
▁Sh	-9.56417
▁អគារ	-9.56421
ជ្រ	-9.56457
តារាង	-9.5661
▁អូឌីយ៉ូ	-9.56621
eb	-9.56712
▁con	-9.56719
ថែទាំ	-9.56726
ផ្ដល់	-9.56729
news	-9.5679
fo	-9.56862
កាន់	-9.5687
▁Inc	-9.56885
set	-9.56919
▁En	-9.5695
▁ឆ្វេង	-9.56983
▁HTML	-9.57083
▁សំរាប់	-9.57121
ប្រឆាំងនឹង	-9.57171
ខ្ញុំបាន	-9.57182
▁អត្រា	-9.57194
អង្គ	-9.57203
លំអិត	-9.57248
ក្លាយជា	-9.57294
ឈ	-9.57322
▁ភ្ញៀវ	-9.57329
ឡេ	-9.57365
4.5	-9.57366
▁ដែន	-9.57389
ចល័ត	-9.57438
ទុក	-9.57562
▁តំណ	-9.57592
ave	-9.57593
▁75	-9.57641
▁34	-9.5766
TI	-9.5767
▁ពេញ	-9.57704
EL	-9.57731
ផលប៉ះពាល់	-9.57746
▁សុវត្ថិភាព	-9.57824
រស់នៅ	-9.5783
▁តួអក្សរ	-9.5784
pro	-9.57862
ថ្លៃ	-9.57929
វិល	-9.57931
គោ	-9.57968
▁ស្រទាប់	-9.58022
័រ	-9.58035
ប្រមូល	-9.58073
ហៅ	-9.58074
កាបូប	-9.58136
ure	-9.58139
រូ	-9.58149
▁Pi	-9.58178
នៅកម្ពុជា	-9.58196
▁Cam	-9.5823
ES	-9.58279
▁ភ្លៀង	-9.58409
▁ហេតុ	-9.58424
▁ខាងក្រោម	-9.58479
ន្ដ	-9.58542
ទាមទារ	-9.58575
eu	-9.58642
នានា	-9.5866
និយាយថា	-9.58721
យ៉ូ	-9.58813
▁បា	-9.58852
▁ព្រិល	-9.58869
ដើរ	-9.5889
ភាគហ៊ុន	-9.58896
យ៉	-9.5894
▁នាំចូល	-9.58941
ការលក់	-9.59008
ខាងក្រោម	-9.59024
កោសិកា	-9.59085
less	-9.59087
ley	-9.59109
ធ្លាក់	-9.59111
វិញ	-9.59131
par	-9.59151
សព្វ	-9.59224
យុវជន	-9.59246
កូរ៉េ	-9.59267
chi	-9.5929
ana	-9.59301
▁(20	-9.59398
ដោយប្រើ	-9.59405
ស្គាល់	-9.59537
ទា	-9.59648
▁វី	-9.59802
▁៧	-9.59834
GenericName	-9.59921
▁គំនិត	-9.59945
ei	-9.59959
សី	-9.59975
▁បី	-9.60016
unt	-9.60094
fa	-9.60171
TE	-9.6024
▁ទាន់	-9.60272
mail	-9.60386
ស្រាវជ្រាវ	-9.60391
▁ក្រសួង	-9.60481
ចែករំលែក	-9.60503
នេះបាន	-9.60556
ប៊ូ	-9.60857
សុខ	-9.6088
ដេក	-9.60956
▁ការផ្លាស់ប្តូរ	-9.60961
view	-9.61036
700	-9.61142
▁៩	-9.61162
ុល	-9.61181
▁វាល	-9.612
uri	-9.61216
SE	-9.61235
ress	-9.61239
សាន	-9.61257
▁រូបតំណាង	-9.61338
▁400	-9.6135
1000	-9.6139
▁សីតុណ្ហភាព	-9.61395
transposh	-9.61456
អ៊ុយក្រែន	-9.61457
គ្រ	-9.6151
បទពិសោធន៍	-9.61522
ប្រចាំឆ្នាំ	-9.61606
▁ណ្តា	-9.61633
សម្លេង	-9.6165
▁អ៊ីញ	-9.61703
ស្វាគមន៍	-9.61716
▁ហាង	-9.61723
ជិត	-9.61736
▁សោ	-9.61759
▁វេទិកា	-9.61771
▁Development	-9.61801
▁អគារស្នាក់នៅរូម	-9.61801
កិច្ចប្រជុំ	-9.6181
▁70	-9.61816
▁ឡើងវិញ	-9.61874
jo	-9.61969
▁inlistbox	-9.61974
សេចក្តី	-9.61976
៨៥៥	-9.61979
បរិក្ខារ	-9.61987
សិល្បៈ	-9.62033
tan	-9.62043
សហ	-9.62077
កក់	-9.62158
័យ	-9.62215
ឥណទាន	-9.62244
BC	-9.62317
▁Ne	-9.62318
បង្រៀន	-9.62319
▁មតិយោបល់លើ	-9.6232
ans	-9.62338
▁សាលា	-9.62347
▁Ga	-9.62374
កម្មវិធីបញ្ជា	-9.62401
រស់	-9.62546
បង្ក	-9.6261
ET	-9.62628
CC	-9.62648
ក្នុងចំណោម	-9.62668
មធ្យម	-9.6272
2016	-9.62776
បុគ្គលិក	-9.62782
អនុញ្ញាត	-9.62857
▁ការិយាល័យ	-9.62919
а	-9.63017
▁(1)	-9.63028
ក្ខ	-9.63112
៥០	-9.63139
tri	-9.63181
ign	-9.63186
ស៊ីឡាំង	-9.63192
▁ចន្លោះ	-9.63231
ឡុង	-9.63231
ច្បាស់	-9.63302
បេតុង	-9.63324
ខាង	-9.63342
មិនអាច	-9.63353
▁2008	-9.63362
▁ម៉ូដែល	-9.63471
នាវា	-9.63539
LE	-9.63564
▁0.1	-9.63589
▁World	-9.63595
គ្រាប់	-9.63753
can	-9.63796
ជ្រាបទឹក	-9.63927
រាប	-9.63951
ពីការ	-9.64079
ស្តង់ដារ	-9.64143
▁សិទ្ធ	-9.64168
post	-9.64222
▁Twitter	-9.64247
ST	-9.64336
ផា	-9.64374
que	-9.64408
pt	-9.64409
▁ផ្ទេរ	-9.64429
មិត្ត	-9.6463
រៀង	-9.64637
▁ដេរ	-9.64659
សាច់	-9.64687
LI	-9.64691
ros	-9.64813
ចម្រៀង	-9.64831
លំដាប់	-9.64851
ស្តាប់	-9.64865
Description	-9.64956
▁inmenu	-9.64957
▁និយមន័យ	-9.64957
▁dis	-9.64959
ier	-9.64963
នេះមាន	-9.65109
\	-9.65122
០	-9.65203
▁USB	-9.65221
▁Geeks	-9.65314
ាន	-9.65476
▁សហរដ្ឋអាមេរិក	-9.65559
មុំ	-9.65602
▁ដឹង	-9.65709
▁ថ្នាំ	-9.65904
▁forecast	-9.66031
feed	-9.66168
▁បម្លែង	-9.66182
900	-9.66203
សិស្ស	-9.66221
សម្រេច	-9.66243
her	-9.66268
សួរ	-9.66275
▁នាំ	-9.66335
បញ្ជី	-9.66339
ទាំងពីរ	-9.66347
នាម	-9.66384
men	-9.66458
បានបង្កើតឡើង	-9.66479
ase	-9.6649
▁វិទ្យាស្ថាន	-9.66504
តម្រង	-9.66571
▁Bonus	-9.66573
▁គីឡូក្រាម	-9.66576
SM	-9.66635
ចេញផ្សាយ	-9.6668
▁កាលពី	-9.6671
▁Web	-9.66741
អំណោយ	-9.66749
អចលនទ្រព្យ	-9.66754
qu	-9.6677
▁ពង្រីក	-9.66788
▁$1	-9.66886
អាគុយ	-9.6693
ក្លឹប	-9.66937
ពាក់កណ្តាល	-9.66948
ហ្កា	-9.67027
នឹងត្រូវ	-9.6703
tro	-9.67038
ការសិក្សា	-9.67065
សម្ពាធ	-9.67072
ED	-9.67087
ជំរុញ	-9.67119
សំណង់	-9.67121
qui	-9.67143
ប្រចាំ	-9.67208
▁មិនមែន	-9.67234
▁វិភាគ	-9.67238
▁ជីវិត	-9.67274
▁មេកាបៃ	-9.67299
ឡាន	-9.67364
▁Cr	-9.67468
ini	-9.6749
▁គន្លឹះ	-9.6749
tin	-9.67525
ហ្	-9.6755
សន្លឹក	-9.67564
PP	-9.67653
ប្រមាណ	-9.67665
▁Chamkarmon	-9.67665
▁Oct	-9.67697
▁And	-9.67729
▁សង្កាត់	-9.67791
ប្រាំ	-9.67806
ការធ្វើដំណើរ	-9.67855
TC	-9.67869
ក្បាល	-9.67983
ឈ្មួញកណ្តាល	-9.67983
ស្ថាប័ន	-9.68031
ហ្គី	-9.68054
TP	-9.68185
ធម្មនុញ្ញ	-9.682
-30	-9.68222
win	-9.68223
យូរ	-9.68268
TV	-9.68434
▁មិនមាន	-9.68478
USD	-9.68487
ប្រហែល	-9.68537
បុរាណ	-9.68584
▁ប្រហែល	-9.68698
▁ពហុ	-9.68714
▁Cl	-9.68718
ek	-9.68724
រូបិយប័ណ្ណ	-9.68724
រុំ	-9.68788
pc	-9.68794
ត្រូវតែ	-9.68883
បៃតង	-9.68952
ចាប់ពី	-9.68963
ដោយសារតែ	-9.68982
▁តួ	-9.69131
ចាប់អារម្មណ៍	-9.69153
▁ជំហាន	-9.6918
ics	-9.69257
province	-9.69325
RI	-9.69361
▁600	-9.69385
ពិត	-9.69451
mg	-9.69507
ចំណុច	-9.69549
កម្លាំង	-9.69583
▁ចំ	-9.69687
▁ដែកអ៊ីណុក	-9.697
ជាអ្នក	-9.69718
ax	-9.69724
ning	-9.69793
និងផ្គត់ផ្គង់	-9.69804
ond	-9.69862
▁ប្រើប្រាស់	-9.69876
ស្នើសុំ	-9.69909
ដុត	-9.69919
▁អភិវឌ្ឍន៍	-9.69961
បានធ្វើ	-9.70049
ood	-9.7005
In	-9.70121
az	-9.70141
នៅក្រោម	-9.70192
ari	-9.70224
bu	-9.70255
រុស្ស៊ី	-9.703
▁ប្តូរ	-9.70305
ខ្លី	-9.70426
ib	-9.70458
▁Lu	-9.70482
អ្នកប្រើ	-9.70483
sch	-9.70578
▁លាក់	-9.70629
RC	-9.7066
back	-9.70682
TH	-9.70694
▁បង្កើន	-9.70695
គាត់បាន	-9.70756
ុំ	-9.70757
▁ណាមួយ	-9.70779
ចលនា	-9.70826
150	-9.70932
MS	-9.70982
▁បោះបង់	-9.70996
▁Matt	-9.70997
ise	-9.71016
▁ថ	-9.71016
▁ស្គ្រីប	-9.71028
▁Thu	-9.71083
ការគាំទ្រ	-9.71094
ហូ	-9.71098
ៀង	-9.71112
▁សណ្ឋាគារ	-9.71158
ring	-9.71189
ដើម្បីទទួលបាន	-9.71199
ឈប់	-9.71217
999	-9.71235
▁ប្រាស់	-9.71241
EA	-9.71288
▁ចែក	-9.71325
▁window	-9.71393
រាង	-9.71407
▁សុ	-9.71416
បម្លែង	-9.71424
វត្ត	-9.7144
ទាំងមូល	-9.71513
▁Mini	-9.71515
អិល	-9.71586
uck	-9.71619
អំណាច	-9.71619
▁សម	-9.71651
▁Fi	-9.71655
ស្ថានីយ៍	-9.7166
ការរៀបចំ	-9.71673
▁មែន	-9.71676
▁ផង	-9.71768
លឿង	-9.71774
ឆ្ងាយ	-9.71777
▁Phone	-9.71787
ក្រសួង	-9.718
MC	-9.71869
▁លំដាប់	-9.7189
▁ឯកឧត្តម	-9.7191
មូល	-9.71951
សម្រាប់អ្នក	-9.71954
▁ដុល្លារអាមេរិក	-9.71999
▁ឥត	-9.72075
លេ	-9.7211
កំណើត	-9.72155
▁លើក	-9.72252
▁GPS	-9.72289
van	-9.72328
ជួញដូរ	-9.7233
បទពិសោធ	-9.7234
វាយ	-9.7234
ប៉ះ	-9.72376
អតីត	-9.72539
▁Holmes	-9.72539
▁David	-9.72539
កសាង	-9.72548
▁កុមារ	-9.72561
ស្រោម	-9.72678
rop	-9.72693
ឆ្លង	-9.72714
កាបូន	-9.72731
កសិកម្ម	-9.72738
▁រក្សាសិទ្ធ	-9.72745
ធានារ៉ាប់រង	-9.72762
▁UP	-9.72789
cr	-9.72836
▁សមាជិក	-9.7289
▁ចិត្ត	-9.72904
ម្តង	-9.72914
អស់	-9.72921
▁ថ្ងៃនេះ	-9.72931
ហ្សា	-9.72948
ចុង	-9.72987
lock	-9.72999
ការពិនិត្យ	-9.7311
▁ស្ដាំ	-9.73127
បុណ្យ	-9.73302
កាំរស្មី	-9.7331
ប្រផេះ	-9.7331
▁សូមអរគុណ	-9.73337
▁pre	-9.73349
▁បានទេ	-9.73431
ade	-9.73436
កាន់តែ	-9.73482
ពូ	-9.7352
▁Ko	-9.73544
▁រោងចក្រផលិត	-9.73584
ons	-9.73608
រកឃើញ	-9.73608
អេឡិចត្រូនិច	-9.73649
ze	-9.73693
ទ្	-9.73703
▁Ni	-9.7371
600	-9.7374
វាយតម្លៃ	-9.7377
ani	-9.73786
▁per	-9.73794
▁Cha	-9.73886
▁button	-9.73894
▁វេលា	-9.73895
ម្ចាស់	-9.73911
ផ្ទាំង	-9.73932
ប៉ុ	-9.73949
▁ឈុត	-9.73956
នៅជិត	-9.74015
ther	-9.74034
▁១២	-9.74035
ឆបគ្នា	-9.74088
0000	-9.74139
ប្រជុំ	-9.74188
ប្ប	-9.74267
កើនឡើង	-9.74291
Video	-9.74291
ical	-9.7433
ផ្ទះល្វែង	-9.74479
មុនពេល	-9.74485
PE	-9.745
ឆា	-9.74562
web	-9.74575
ដែរ	-9.74583
យប់	-9.74587
▁ឈ្មោះអ្នក	-9.74617
UN	-9.74692
ហេ	-9.74699
ដូចខាងក្រោម	-9.74752
High	-9.74799
kw	-9.74812
▁ផ្សេងទៀត	-9.74908
▁1.5	-9.74952
របស់អ្នក។	-9.75027
វិធីសាស្រ្ត	-9.75116
▁ឡ	-9.75135
▁{	-9.75136
▁ស្វ័យប្រវត្តិ	-9.7519
សំឡេង	-9.7521
ស្ថាន	-9.75235
▁LTD	-9.75267
ផ្តល់ជូននូវ	-9.75362
by	-9.75484
អ្នកនឹង	-9.75544
្យ	-9.75552
ប្រតិបត្តិ	-9.75587
ank	-9.75597
ពួកគេបាន	-9.75606
ព្យាយាម	-9.75607
ភ្នាល់	-9.75612
គណនា	-9.75661
ដំបូល	-9.75661
▁Group	-9.75661
▁ថ្នាំកូត	-9.75745
ug	-9.75751
▁hack	-9.75774
បានបង្ហាញ	-9.75782
កើត	-9.75833
តាំង	-9.75854
▁ស៊ុម	-9.75855
ally	-9.75859
បណ្ឌិត	-9.7593
▁Sun	-9.75933
ចោល	-9.75942
ជ្	-9.75966
▁ចា	-9.75988
▁មាស	-9.76005
អាយ	-9.76009
let	-9.76009
▁ជូនដំណឹង	-9.76093
ក្ល	-9.76118
1.1	-9.76122
ឹក	-9.76149
vis	-9.76154
▁រហូតដល់	-9.76169
▁App	-9.76215
mat	-9.76218
▁អេស៊ីលីដា	-9.76258
KH	-9.7626
zhou	-9.7626
សាខា	-9.76301
▁កញ្ចក់	-9.76363
▁ដំណោះស្រាយ	-9.76519
▁Da	-9.76537
▁Hu	-9.7654
ពាក់ព័ន្ធ	-9.76657
សន្តិសុខ	-9.76657
▁Key	-9.76661
▁Sha	-9.76691
បានបញ្ចប់	-9.76825
▁5000	-9.76849
▁ជាតិសរសៃ	-9.7686
text	-9.7687
បន្ទប់	-9.76875
ja	-9.77001
ries	-9.77007
ស្ងួត	-9.77058
250	-9.77089
▁state	-9.77094
mar	-9.77106
▁សេ	-9.7714
CO	-9.77235
រក្សា	-9.77291
រួច	-9.77307
▁HTTPS	-9.77309
▁China	-9.77316
▁Man	-9.77397
▁ឌី	-9.77404
▁HP	-9.77414
ជោគជ័យ	-9.77429
ស្រស់	-9.77486
▁រាជធានីភ្នំពេញ	-9.77491
បាល់	-9.77531
ls	-9.77537
២៥	-9.77576
ពន្ធ	-9.77582
CE	-9.77602
បញ្ចេញ	-9.77667
ដប់	-9.77675
ឆ្លងកាត់	-9.77681
▁Open	-9.77728
▁Union	-9.77756
យោបល់	-9.77758
▁រូបថតសម្រាប់	-9.77769
part	-9.77838
ចុះហត្ថលេខា	-9.77866
▁iPad	-9.77866
▁ប្រេង	-9.77866
▁Tu	-9.77877
▁ចាស់	-9.77892
▁MP	-9.77897
រក្សាទុក	-9.77964
អនុញ្ញាតឱ្យ	-9.77977
ray	-9.77984
▁មុខងារ	-9.78048
▁Doorknob	-9.78069
១៧	-9.78076
▁ចម្ងាយ	-9.78079
▁ព្យាយាម	-9.78124
ឥ	-9.78189
ត្រូ	-9.78227
ុះ	-9.78228
រ៉ែ	-9.78237
ត្ដ	-9.78267
®	-9.78475
▁ត្រួតពិនិត្យ	-9.78486
▁Siem	-9.78493
ហាង	-9.78623
អំ	-9.78627
សំណាញ់	-9.7868
ten	-9.78691
ព្រៃ	-9.78701
▁we	-9.78703
▁ការពិពណ៌នា	-9.7878
▁១៩	-9.78832
8.1	-9.7884
▁ប្ល	-9.78867
▁អ្នកប្រើ	-9.78876
▁Oxford	-9.78884
▁ឡា	-9.78967
លឿន	-9.79033
▁ផ្ទាល់ខ្លួន	-9.79035
▁Top	-9.79038
ជេ	-9.79051
▁ម្ដង	-9.79091
សភា	-9.7912
ពិនិត្យមើល	-9.79166
▁ម៉ាក	-9.79211
▁0.5	-9.79276
▁ម៉ែ	-9.7932
ភាពយន្ត	-9.79382
នាយក	-9.79387
▁Win	-9.7943
ក្នុងឆ្នាំ	-9.79485
nc	-9.79523
កេ	-9.79615
▁Jet	-9.79666
▁status	-9.79706
app	-9.79748
▁48	-9.79809
▁09:	-9.79832
សុ	-9.79884
over	-9.79893
២៣	-9.79926
នោះទេ	-9.79947
du	-9.80039
បម្រើ	-9.80043
-19	-9.8008
ថង់	-9.80097
លំហូរ	-9.8012
ធ្លាប់	-9.8012
អឺរ៉ុប	-9.80142
ែន	-9.80177
▁រវាង	-9.80246
▁qu	-9.80333
ដែលយើង	-9.80442
ola	-9.80452
ទេស	-9.80526
អេស្ប៉ាញ	-9.80535
សាល	-9.80574
ខ្ទ	-9.80596
ហ្គេម	-9.80608
ម៉ែត្រ	-9.80668
▁លម្អិត	-9.80676
ស្ទ	-9.80686
▁កម្ពស់	-9.80742
FS	-9.80766
កុង	-9.80952
ឆ្មា	-9.80974
សាច់ប្រាក់	-9.81043
▁Na	-9.81079
ទឹកប្រាក់	-9.8109
▁បំពេញ	-9.81152
▁នៅពេលដែល	-9.81154
▁Ctrl	-9.81158
វៀតណាម	-9.81161
▁800	-9.81163
វត្ថុ	-9.81192
▁កើត	-9.81202
▁ទាំងនេះ	-9.81303
គំនូរ	-9.81371
ទោស	-9.81373
▁from	-9.81407
រហូតដល់ទៅ	-9.81498
-11	-9.81498
▁ទន់	-9.81521
▁Jul	-9.81563
▁ម៉ូ	-9.81591
បេ	-9.81595
FC	-9.81737
▁២០១៩	-9.81744
វគ្គ	-9.81776
lip	-9.81822
▁សួរ	-9.81822
ano	-9.81918
ភ្នាក់ងារ	-9.81947
▁Ca	-9.81973
IA	-9.82007
ប្រវត្តិសាស្រ្ត	-9.82028
▁ទម្ងន់	-9.82036
ម៉ូទ័រ	-9.82037
ខ្សែភាពយន្ត	-9.82131
សាសនាចក្រ	-9.82156
ណិត	-9.8219
ការវិនិយោគ	-9.8225
នាយកដ្ឋាន	-9.82259
បរិស្ថាន	-9.82264
The	-9.823
▁Je	-9.82411
បន្ទប់ទឹក	-9.82421
ជំនឿកាតូលិក	-9.82428
▁IC	-9.82433
▁so	-9.8247
▁cryptocurrency	-9.82479
▁នា	-9.8256
▁EN	-9.82571
បន្តិច	-9.82609
▁ជាក់លាក់	-9.82626
សប្បាយ	-9.82627
▁ចាប់ពី	-9.82629
ខៀវ	-9.82631
សូចនាករ	-9.82704
▁PC	-9.82756
ការផលិត	-9.82762
▁Dr	-9.82773
▁កោះ	-9.82776
ការអនុវត្ត	-9.82777
▁ភាពយន្ត	-9.82835
ich	-9.82903
លោ	-9.82942
hr	-9.82997
▁សំខាន់	-9.83012
ល្អឥតខ្ចោះ	-9.83025
គ្រោង	-9.83069
បំពាក់	-9.83078
page	-9.83095
US	-9.83136
▁Gra	-9.83176
▁ប៉ា	-9.83185
val	-9.83196
2015	-9.83229
ក្មេង	-9.83262
▁ប្រាកដ	-9.83305
្រី	-9.83327
▁type	-9.83352
នៅទីក្រុង	-9.83367
▁កែប្រែ	-9.83391
php	-9.83397
ថ្នាំកូត	-9.83401
ក្រដាស	-9.8341
ស្មើ	-9.83413
▁សប្តាហ៍	-9.83434
▁Or	-9.83449
ចង្កៀង	-9.83492
▁Copyshop	-9.83492
ថ្ងៃសុក្រ	-9.83492
▁ខ្លាំង	-9.83514
▁កាល	-9.8353
អ៊ីម៉ែល	-9.83615
▁បោះ	-9.83656
ត្ត	-9.83731
▁post	-9.83799
▁ថ្មីៗ	-9.83835
សិន	-9.83841
my	-9.83845
CT	-9.83893
▁McKnight	-9.83922
អាកាសធាតុ	-9.83939
ស៊	-9.83947
▁២៣	-9.83972
▁DN	-9.83974
ខណ្ឌ	-9.83992
AM	-9.84
4.0	-9.84038
ភាសាអង់គ្លេស	-9.84066
▁MOQ	-9.84139
tric	-9.84166
▁នេះជា	-9.84171
ព្រះអង្គ	-9.84261
ម៉ាស៊ីនកាត់	-9.84309
ពីម្សិល	-9.84353
RO	-9.84458
ជំនួសថ្ម	-9.84517
ាប់	-9.84535
▁ស្ត្រី	-9.84564
លើសពី	-9.84586
▁សត្វ	-9.84589
lor	-9.84597
ស្លាក	-9.84615
▁DJ	-9.84621
ux	-9.84698
ការធ្វើ	-9.84751
rain	-9.84753
▁BS	-9.84758
ram	-9.84764
ថ្លែង	-9.84786
កំពង់ផែ	-9.84787
▁ស៊ីស្កូ	-9.84793
អគារ	-9.84795
បំបាត់	-9.8489
▁ចល័ត	-9.84975
▁Photo	-9.85008
នៅឆ្នាំ	-9.85116
ham	-9.85133
គ្រែ	-9.85297
ស្ករ	-9.85339
cent	-9.85381
ចក្រភពអង់គ្លេស	-9.85442
▁Ri	-9.85479
▁ហ្វេសប៊ុក	-9.8548
board	-9.85496
▁±	-9.85513
▁ក្រដាស	-9.85532
ប្រា	-9.85555
ឆ្	-9.85591
▁បញ្ជូន	-9.85602
rc	-9.8564
ker	-9.85652
លួស	-9.85661
DI	-9.85677
[	-9.85714
cor	-9.85759
▁វិញ្ញាបនប័ត្រ	-9.85824
▁ប្រទាក់	-9.85878
ជុំវិញ	-9.85905
ene	-9.85924
▁ឃ្លាំង	-9.85936
sen	-9.85951
ble	-9.85982
ake	-9.86058
នរណា	-9.86093
▁will	-9.86124
មតិ	-9.8617
មាត់	-9.86187
▁Go	-9.86239
▁ការពារ	-9.86239
បឹង	-9.86307
កប្បាស	-9.86318
ខ្សែស្រឡាយ	-9.86318
▁Qingdao	-9.86318
ook	-9.86475
ចងចាំ	-9.86539
ឧទ្យាន	-9.86539
កំហុស	-9.86672
ទៅក្នុង	-9.86738
តង់ស្យុង	-9.86755
▁ប្រធានបទ	-9.86764
ជំនាញវិជ្ជាជីវៈ	-9.86785
▁du	-9.86801
▁EUR	-9.86814
zo	-9.86843
តិចជាង	-9.86915
▁អំណាច	-9.8694
គម្រប	-9.86957
អំពីការ	-9.8696
អាស៊ី	-9.86974
ដែលមិន	-9.87025
▁មធ្យម	-9.87095
បាត់	-9.87193
កាសែត	-9.87196
ព្រះរាជាណាចក្រ	-9.87204
ប្រៀបធៀប	-9.87214
រុ	-9.87218
ដំណ	-9.87237
លាក់	-9.87271
រប	-9.87326
120	-9.8734
▁ផ្លាស់	-9.87347
▁សិក្សា	-9.87366
ជាលើកដំបូង	-9.8738
▁បំបែក	-9.87397
rate	-9.87398
ឆ្នេរ	-9.87418
រុក្ខជាតិ	-9.87427
KW	-9.87433
ប្រាក់បញ្ញើ	-9.87445
ike	-9.8745
▁សង្ខេប	-9.87596
bet	-9.87604
ខ្ញុំនឹង	-9.87622
ស៍	-9.87629
dia	-9.87648
ប្តូរ	-9.87655
កែវ	-9.87666
OP	-9.87751
▁(2)	-9.87782
ក្រម	-9.87872
ភា	-9.87887
▁125	-9.87981
▁ពួកវា	-9.88005
MO	-9.88052
▁Instagram	-9.88098
កិច្ចព្រមព្រៀង	-9.88099
Khmer	-9.88126
ple	-9.88185
▁cr	-9.88195
ដក	-9.88252
រេ	-9.88254
DM	-9.88287
▁នៅថ្ងៃទី	-9.88292
ក្នុងស្រុក	-9.88297
អាល្លឺម៉ង់	-9.883
ប្រចាំថ្ងៃ	-9.88301
សម្ដែង	-9.88323
វេជ្ជសាស្ត្រ	-9.88325
ត្រឡប់មកវិញ	-9.88331
▁១៥	-9.88355
▁Posted	-9.88358
សាកថ្ម	-9.88374
េះ	-9.88413
ចំណងជើង	-9.88455
▁នៅទីនេះ	-9.88493
ឈាម	-9.88548
ខាងជើង	-9.88564
ចុះឈ្មោះ	-9.88589
នំ	-9.8859
▁ផ្គូផ្គង	-9.88607
▁ឈ្មួញកណ្តាល	-9.88609
▁ជាមុន	-9.88618
ប្រភព	-9.88623
▁ចែករំលែក	-9.88643
▁Ka	-9.88664
ទៅលើ	-9.88664
ពាក្យសម្ងាត់	-9.88752
▁first	-9.88774
row	-9.88806
ជាទូទៅ	-9.88918
▁Amazon	-9.89
▁MT	-9.89005
ប្រដាប់	-9.89074
អនុ	-9.89095
▁កម្រាស់	-9.89108
▁DC	-9.89127
▁Dis	-9.89131
ក្ស	-9.89181
ទន្លេ	-9.89227
អ្នកកំពុងទស្សនា	-9.89227
អត់	-9.89272
▁CA	-9.8928
រកមើល	-9.89318
▁នីមួយៗ	-9.89372
ភូមិ	-9.89374
▁Mu	-9.89391
uc	-9.89437
▁អំពីយើង	-9.89448
នាឡិកា	-9.89454
បើកបរ	-9.89457
ពេញនិយម	-9.89473
បូមបេតុង	-9.89505
ភ្នំពេញប៉ុស្តិ៍	-9.89622
St	-9.89633
▁US	-9.89662
OD	-9.89668
▁យន្តហោះ	-9.89676
ឥណ្ឌា	-9.89709
ការដឹកជញ្ជូន	-9.89768
▁ធុង	-9.898
▁Er	-9.89804
▁តំលៃ	-9.89836
ize	-9.89856
="10	-9.89875
ik	-9.89915
▁Auto	-9.89922
read	-9.89952
របស់វា	-9.89968
▁ការវេចខ្ចប់	-9.8999
▁កណ្ដាល	-9.9002
លក្ខណៈ	-9.90063
▁វគ្គសិក្សា	-9.90068
0%	-9.90111
គោលដៅ	-9.90125
▁YouTube	-9.90139
សេចក្ដី	-9.90217
rd	-9.90249
▁អាហារ	-9.90258
▁កម្លាំង	-9.9028
ខ្លួនឯង	-9.90291
ារ	-9.90332
ភាសាខ្មែរ	-9.90358
BO	-9.90396
vent	-9.90415
▁ស្នើ	-9.90527
គោរព	-9.90598
ខ្សាច់	-9.90612
មិនមែនជា	-9.90626
ស័	-9.9068
ហ្វូ	-9.90784
▁Har	-9.90813
II	-9.90819
ទូរស័ព្ទចល័ត	-9.90824
▁menu	-9.90852
មូលនិធិ	-9.90861
អ៊ីតាលី	-9.90885
▁All	-9.90999
រ៉េ	-9.91049
គណបក្ស	-9.9106
▁២០១៥	-9.91072
ស្នើ	-9.9111
5.5	-9.91153
បើ	-9.91157
gl	-9.91255
▁បកប្រែ	-9.91284
ជំពូក	-9.91291
ä	-9.91291
▁group	-9.91292
br	-9.91311
NT	-9.91314
គ្រឿងម៉ាស៊ីន	-9.91322
ទាន	-9.91327
ដំណាក់កាល	-9.91362
នាំចេញ	-9.91389
RP	-9.91485
ឧទាហរណ៍	-9.91589
បញ្ចុះតម្លៃ	-9.91612
សម្ងាត់	-9.91612
ដោះស្រាយ	-9.91618
yn	-9.91664
សម្រាប់លក់	-9.9167
ជជែក	-9.91748
▁64	-9.91839
pf	-9.91845
2000	-9.91865
▁ជំហានទី	-9.919
rea	-9.91932
fr	-9.91942
វាល	-9.91943
▁ម៉ូដែល។	-9.91975
ប៉ះពាល់	-9.91985
▁tooltip	-9.91989
ING	-9.91996
france	-9.92
CH	-9.92011
តំណាង	-9.92021
▁65	-9.92047
▁ក្បាល	-9.92055
▁ប្រចាំ	-9.92116
▁ឯកជន	-9.92137
▁Min	-9.92158
ប្រសិនបើ	-9.92177
▁ស្វែង	-9.92189
▁ជី	-9.92222
ប៉ុន្មាន	-9.92222
▁ទីផ្សារ	-9.92226
▁Che	-9.92236
▁យោង	-9.92253
="1	-9.92327
now	-9.92331
▁San	-9.92412
▁ខ្ញុំបាន	-9.92418
▁FileCatalyst	-9.92457
ប្ដូរតាមបំណង	-9.92457
នៅថ្ងៃទី	-9.92502
ush	-9.92507
ផ្ទេរ	-9.92515
article	-9.92517
ជាន់	-9.92526
១៣	-9.9258
RS	-9.92581
អង្គភាព	-9.92599
rent	-9.92614
ភ្នំពេញ	-9.92618
▁អ្វីដែល	-9.9262
ជួសជុល	-9.92622
ជំ	-9.92637
អ៊ិ	-9.92647
ME	-9.92662
ទស្សន៍	-9.92693
កាក់	-9.92701
="8	-9.92713
ដប	-9.92721
រដ្ឋបាល	-9.92727
▁Can	-9.92746
▁Uni	-9.92783
ខ្លាំងណាស់	-9.92863
បោះ	-9.92926
អ័រម៉ូន	-9.92927
ស្នូល	-9.92927
ម៉ោន	-9.92927
▁We	-9.92956
▁Gr	-9.93038
លាន	-9.93048
ពិនិត្យឡើងវិញ	-9.93065
នៅពេលដែល	-9.93085
កាមេរ៉ា	-9.93132
cha	-9.93167
ឯ	-9.93178
▁សាខា	-9.93189
phone	-9.93197
▁ម្នាក់	-9.93221
name	-9.93258
ៀម	-9.93282
កាលពី	-9.93305
ថាជា	-9.93342
FA	-9.93372
▁Tablet	-9.934
rid	-9.93405
har	-9.93461
ept	-9.93484
▁Spy	-9.93513
but	-9.93572
អាង	-9.93587
▁ទាន់សម័យ	-9.93611
MI	-9.93622
សហគ្រាស	-9.93636
▁អ៊	-9.9364
មហាវិទ្យាល័យ	-9.93653
ឆេ	-9.93694
5.0	-9.93748
▁ទារក	-9.93778
gram	-9.93784
ចាត់	-9.93786
ឆ្នោត	-9.93848
tive	-9.93857
Cambodia	-9.93868
យល់ព្រម	-9.93874
១៥	-9.93903
▁more	-9.93905
កិន	-9.93907
កើតឡើង	-9.93942
eck	-9.93948
▁ស្រី	-9.94007
១០	-9.94009
▁អង្កត់ផ្ចិត	-9.94029
bit	-9.94072
មេរោគ	-9.94145
ក្រា	-9.94151
ជំហាន	-9.94152
នៅឯ	-9.94156
ផ្សំ	-9.94186
▁ផ្លូវកាត់	-9.94221
▁គ្រប់យ៉ាង	-9.94232
ទទេ	-9.94311
shi	-9.94345
ចម្រុះ	-9.9435
សៀគ្វី	-9.9435
រទេះ	-9.94356
▁Super	-9.94392
▁str	-9.94435
សម័យ	-9.94437
0000,0	-9.94515
វាស់	-9.94579
ស្ត	-9.94582
សាសនា	-9.9459
ព្រឹក	-9.94623
ហ៊ី	-9.94626
ប្រុស	-9.94628
លម្អិត	-9.9467
បូក	-9.94691
ម៉េ	-9.94743
▁គូ	-9.94758
ក្នុងរយៈពេល	-9.94761
▁ចុះឈ្មោះ	-9.94772
ផ្លូវដែក	-9.94786
វិជ្ជាជីវៈ	-9.94802
BET	-9.94887
▁១៦	-9.94888
ប្រសិទ្ធិភាព	-9.94907
សេរី	-9.94919
0.6	-9.94923
ផ្កាយ	-9.94934
វិទ្យាស្ថាន	-9.94936
ទន់	-9.94986
រួមទាំង	-9.95067
▁CUPS	-9.9507
OL	-9.95134
dd	-9.95152
សាក់	-9.95186
នឹងមាន	-9.95208
Time	-9.95254
ស្នាក់នៅ	-9.95288
មន្ត្រី	-9.95311
HC	-9.95319
ស្រប	-9.95368
ជិះកង់	-9.95416
tre	-9.95439
▁3000	-9.95512
hang	-9.95524
▁កំ	-9.95531
▁'',	-9.95561
១៦	-9.95584
▁ជួសជុល	-9.95623
uth	-9.95662
▁សម្ពាធ	-9.95716
តឹង	-9.9573
▁Bar	-9.95737
ទៀន	-9.95745
▁ក្រាម	-9.95749
9001	-9.95778
▁55	-9.95791
ចា	-9.95796
មិនមែន	-9.958
▁ភ្នំពេញប៉ុស្តិ៍	-9.95866
▁អត្តសញ្ញាណ	-9.95871
▁ព្រលានយន្តហោះ	-9.95925
▁ម្ចាស់	-9.95998
គឺជាការ	-9.96006
MM	-9.96034
▁វិមាត្រ	-9.96045
បៀ	-9.96049
ព្រះជាម្ចាស់	-9.96075
កីឡាករ	-9.9614
លុប	-9.96178
▁ទោះ	-9.96189
ថៃ	-9.96206
កៅអី	-9.9628
▁រហូត	-9.96294
Store	-9.96317
ji	-9.96382
ផ្សិត	-9.96514
ព្រះអម្ចាស់	-9.96519
▁1500	-9.9652
ស្មាតហ្វូន	-9.96524
0.9	-9.96575
លំនាំ	-9.96595
សម្រាក	-9.96619
KV	-9.96646
ពិនិត្យ	-9.96673
កម្មករ	-9.96707
▁សិក្ខាសាលា	-9.96712
GS	-9.96723
lic	-9.9688
▁ជំងឺ	-9.96891
BA	-9.97017
rin	-9.97019
CM	-9.97027
▁អង់គ្លេស	-9.97055
សាលារៀន	-9.97109
▁ស្រ	-9.97121
ជក់	-9.97131
▁ប្រសើរ	-9.97174
▁មូលនិធិ	-9.97226
ella	-9.97228
▁ណាស់	-9.97245
ពេទ្យ	-9.97254
hai	-9.97304
OC	-9.97309
-15	-9.9731
zi	-9.97412
តំណ	-9.97419
▁សហគមន៍	-9.97441
▁sq	-9.97451
▁10000	-9.9747
▁កាមេរ៉ា	-9.97537
▁translate	-9.97563
▁ផងដែរ	-9.97566
សង្ខេប	-9.97566
rom	-9.97654
sha	-9.97654
ខាងមុខ	-9.97682
off	-9.97704
▁NA	-9.97719
other	-9.97743
ម៉ូលេគុល	-9.97752
ការស្រាវជ្រាវ	-9.97773
▁Manufacturer	-9.97792
សូម្បីតែ	-9.97836
LC	-9.97848
បានចាប់ផ្តើម	-9.97884
▁Chrome	-9.98001
សង្គ្រោះ	-9.98003
ក្តី	-9.98006
LA	-9.98013
មកកាន់	-9.9802
ល្បី	-9.98027
ប្រយុទ្ធ	-9.98031
មគ្គុទ្ទេស	-9.98054
Trans	-9.9808
▁Reap	-9.9811
▁ផ្សព្វផ្សាយ	-9.98113
▁បូម	-9.98164
show	-9.9817
▁Skype	-9.98248
ពពក	-9.98249
▁Best	-9.98251
ចំណែក	-9.98257
review	-9.98322
ទ័រ	-9.98461
▁Western	-9.98502
ដោយលោក	-9.98528
ផ្តល់ឱ្យ	-9.98545
TO	-9.98608
×	-9.98622
ផ្ល	-9.9872
▁កង់	-9.98722
▁ស្វាយ	-9.98918
តែប៉ុណ្ណោះ	-9.98951
и	-9.98997
ជូនដំណឹង	-9.99002
ទទួលស្គាល់	-9.99022
ផ្ទះបាយ	-9.99058
2020	-9.99088
▁100,0	-9.99093
ធនធាន	-9.99165
OM	-9.99199
af	-9.99209
ការណ៍	-9.99231
ដេញថ្លៃ	-9.9925
បារាំង	-9.99347
ផ្លែ	-9.99352
▁ខុស	-9.99398
រួមគ្នា	-9.9941
▁Asia	-9.99432
▁នាំចេញ	-9.99472
▁FSX	-9.99505
បែក	-9.99512
▁07	-9.99531
▁Red	-9.99615
▁ដប	-9.99617
▁ទ្រី	-9.99636
MT	-9.99652
▁2.5	-9.9966
gal	-9.99702
2013	-9.99712
នៅជុំវិញ	-9.99729
▁ថ្មទូរស័ព្ទ	-9.99732
ពូជ	-9.99737
ហ្វា	-9.99743
អាក្រក់	-9.9975
▁សម្រួល	-9.99751
មានន័យថា	-9.99757
gmail	-9.99771
ប្រវែង	-9.99771
▁ដក	-9.99779
▁Real	-9.99788
ump	-9.99791
រួមបញ្ចូលទាំង	-9.99818
▁ហេតុអ្វីបានជា	-9.99859
tec	-9.99889
▁ក្បឿង	-9.99947
wo	-9.9995
.99	-9.99956
▁ភ្នំ	-9.99967
tur	-9.9999
ភោជនីយដ្ឋាន	-10
សង្កត់	-10
របាំង	-10.0003
lm	-10.0006
▁PE	-10.0013
0.3	-10.0016
▁ដំណាក់កាល	-10.0018
▁ដោយប្រើ	-10.0024
▁ឯកតា	-10.0026
▁month	-10.0027
Mo	-10.0034
គេហទំព័រផ្លូវការ	-10.0037
ក្រុមប្រឹក្សា	-10.0044
យឺត	-10.0045
▁គោល	-10.005
សមាសធាតុ	-10.0051
អាគារ	-10.0051
ធ្វើឡើង	-10.0057
០២	-10.0065
Ch	-10.0068
▁គ្រាន់	-10.0069
បរិ	-10.0076
о	-10.0076
ប្រតិកម្ម	-10.0076
ភូ	-10.0077
▁FX	-10.0081
▁War	-10.0083
▁សាក	-10.0084
ជាធម្មតា	-10.0086
▁អរគុណ	-10.0086
▁br	-10.0087
▁បុរស	-10.009
▁ទទេ	-10.0099
ica	-10.0101
era	-10.0102
▁ភូមិ	-10.0104
សង	-10.0104
/06/	-10.0105
លក្ខខណ្ឌ	-10.0109
nes	-10.0114
DP	-10.0122
▁ដុំ	-10.0124
ទ្រ	-10.0124
ចម្	-10.0124
TR	-10.0127
▁លិខិតអាមេរិក	-10.0129
source	-10.013
tech	-10.0131
ទារក	-10.0139
-2018	-10.0147
យើងមាន	-10.0149
▁Bi	-10.015
តែងតែ	-10.0154
មីន	-10.0154
CoV	-10.0155
late	-10.0166
២០០	-10.0168
▁ម្ជុល	-10.0171
▁Sam	-10.0172
អ៊ីន	-10.0172
សាងសង់	-10.0173
▁រឹង	-10.0175
▁មហាវិទ្យាល័យ	-10.0178
អគ្គ	-10.0178
ស្កេន	-10.0179
Country	-10.018
▁ពិភពលោក	-10.0184
សម្គាល់	-10.0185
ព្	-10.0188
mq	-10.0191
▁Light	-10.0192
▁ឡាស៊ែរ	-10.0194
▁លាយ	-10.02
សិទ្ធិគ្រប់យ៉ាង។	-10.02
fu	-10.0201
pen	-10.0205
បារ	-10.0222
6.0	-10.0223
▁ថ្ងៃមុន	-10.0224
VI	-10.0224
▁បរិស្ថាន	-10.0225
▁យើងបាន	-10.0229
ពួកយើង	-10.0235
ចុះបញ្ជី	-10.0235
ចូលដំណើរការ	-10.0241
▁អំពើ	-10.0241
គ្រីប	-10.0244
▁អគ្គិសនី	-10.0244
មូ	-10.0252
ដំណើរ	-10.0253
ជាផ្នែកមួយនៃ	-10.0255
អះអាង	-10.0256
បន្ទប់គេង	-10.0256
សម្រង់	-10.0258
▁≤	-10.0262
2014	-10.0264
▁0.2	-10.0264
▁រកឃើញ	-10.0267
lim	-10.0276
តែមួយគត់	-10.0283
heng	-10.0285
ព័ត៌មានបន្ថែម	-10.0289
ទឹកកក	-10.029
▁បាទ	-10.029
▁Mod	-10.0292
លំនៅដ្ឋាន	-10.0308
ច្បាស់លាស់	-10.0309
ool	-10.0312
140	-10.0312
ចុងក្រោយបំផុត	-10.0316
ថតរូប	-10.0324
តិចតួច	-10.0335
អ័ក្ស	-10.0335
▁Deposit	-10.0335
ការដាក់ប្រាក់	-10.0335
យុទ្ធសាស្រ្ត	-10.0335
▁ភារកិច្ច	-10.0335
▁បណ្ណាល័យ	-10.034
លេច	-10.0341
ធ្វើឱ្យទាន់សម័យ	-10.0341
បណ្ដាញ	-10.0342
▁ទូរស័ព្ទដៃ	-10.0356
▁ដឺក្រេ	-10.0361
និម្មិត	-10.0361
ML	-10.0361
សន្សំ	-10.0361
▁Office	-10.0362
ets	-10.0362
ឆាប់	-10.0364
អ្នកមាន	-10.0372
ទីពីរ	-10.0373
ney	-10.0373
បោក	-10.0378
This	-10.0378
▁Si	-10.0388
ស៊ុ	-10.0389
ការផ្តល់ជូន	-10.0389
សម្រាប់ប្រព័ន្ធ	-10.0389
Tech	-10.039
ប្រាំមួយ	-10.0398
ស្តង់ដា	-10.0411
ខណៈពេលដែល	-10.0411
ati	-10.0414
គ្រូ	-10.0416
▁ពិធីការ	-10.042
▁Media	-10.0423
អេកូ	-10.0426
លក់ដុំ	-10.0428
ការចំណាយ	-10.0433
គ្រប់គ្រាន់	-10.044
ព្រួញ	-10.044
▁Du	-10.0449
បច្ចុប្បន្នភាព	-10.0449
▁3.0	-10.0454
star	-10.0456
▁bo	-10.0462
កាហ្វេ	-10.0465
▁ក្ដារ	-10.0465
តុលាការ	-10.0466
ឃ្លា	-10.0469
MB	-10.0482
ត្រឹមតែ	-10.0486
កម្រិតខ្ពស់	-10.0491
="12	-10.0492
ild	-10.0492
р	-10.0493
▁Hielscher	-10.0493
ទាំងស្រុង	-10.0493
មេឌៀ	-10.0493
ផងដែរ។	-10.0494
▁ដូចគ្នា	-10.0504
▁Cup	-10.0508
▁Ju	-10.0509
អេឡិចត្រូនិ	-10.0512
▁ទូរទស្សន៍	-10.0517
ប្រេកង់	-10.0519
▁Center	-10.0519
▁ម៉ាស៊ីនភ្លើង	-10.0525
▁ស្រា	-10.0527
បាត	-10.0528
អ្នកប្រើប្រាស់	-10.0533
ខូច	-10.0533
មានប្រសិទ្ធិភាព	-10.0537
ull	-10.0538
▁ខាងក្រោយ	-10.0539
▁សិស្ស	-10.0544
រង្វង់	-10.0546
mu	-10.0547
▁ខែមុន	-10.055
ួន	-10.0551
▁04:	-10.0553
▁សុខភាព	-10.0554
IG	-10.0556
KG	-10.0558
សែល	-10.0558
ox	-10.0559
អ៊ីមែល	-10.056
▁file	-10.0564
▁កូ	-10.0564
Material	-10.0568
▁កើតឡើង	-10.057
ទិស	-10.0572
ö	-10.0573
▁២០១៦	-10.0574
select	-10.0575
nu	-10.0576
ui	-10.0577
▁បញ្ឈប់	-10.0578
▁←	-10.0585
▁180	-10.0586
ជាដើម	-10.0589
EM	-10.059
ម្យ៉ាងវិញទៀត	-10.0593
="11	-10.0595
ម៉ូដែល	-10.0595
▁Amarok	-10.0599
▁ស្រួល	-10.06
▁star	-10.0601
version	-10.0602
ពង	-10.061
▁Power	-10.0615
ឥឡូវ	-10.0623
អាមេរិច	-10.0626
ការជួញដូរ	-10.0629
កោះ	-10.0629
▁ឆានែល	-10.0633
ទុយ	-10.0639
ប៉ូល	-10.0639
5.00	-10.0646
បង្អួច	-10.0647
0.1	-10.0648
រាជធានីភ្នំពេញ	-10.065
▁សំនួរ	-10.0653
▁GSM	-10.0667
▁Mag	-10.067
ភេទ	-10.067
ប្រហែលជា	-10.067
ដុំ	-10.0672
▁៩៩	-10.0672
е	-10.068
ថ្ងៃសៅរ៍	-10.068
ធ្មេញ	-10.068
uch	-10.068
មន្ទីរពេទ្យ	-10.068
▁យើងមានឯកទេស	-10.0681
រយ	-10.0683
0.000	-10.0686
CL	-10.0687
អិន	-10.0693
LS	-10.0693
ួរ	-10.0699
ស្ដង់ដារ	-10.0707
▁PayPal	-10.0707
វ៉ុល	-10.071
GP	-10.0717
ward	-10.0717
EX	-10.0721
ចំណូល	-10.0726
▁2.0	-10.0726
នេះគឺជា	-10.0727
លេខកូដ	-10.0729
ស្ថានភាព	-10.0742
reg	-10.0744
berg	-10.0744
▁អាល់ប៊ុម	-10.0749
▁ឃ	-10.075
របស់លោកអ្នក	-10.0758
បង្ហូរ	-10.076
Fi	-10.0761
លោហៈ	-10.0761
▁ការដឹកជញ្ជូន	-10.0772
3.1	-10.0772
▁ចាប់តាំងពី	-10.078
card	-10.078
0.5	-10.0781
code	-10.0784
របស់នាង	-10.0787
ទិដ្ឋាការ	-10.0789
មិនទាន់	-10.0789
▁អារម្មណ៍	-10.079
▁រាយ	-10.0795
ប្លុក	-10.0797
ធឺ	-10.0798
▁ត្រា	-10.08
៌	-10.0816
ាល	-10.0816
▁វ៉ាត់	-10.0818
ស្រទាប់	-10.0824
▁ការរចនា	-10.0828
ើរ	-10.0828
បុ	-10.0834
ែម	-10.0842
ជ្រុង	-10.0846
▁ជម្រះ	-10.0847
▁Yu	-10.0847
emp	-10.0848
GE	-10.085
ប្រចាំខែ	-10.0854
▁ឥណទាន	-10.0856
▁BTC	-10.086
ការធានា	-10.086
mal	-10.0863
ខុសគ្នា	-10.0867
▁PP	-10.0869
សំអាត	-10.0872
7.5	-10.0873
ចម្លង	-10.0876
cap	-10.0877
▁28,	-10.0878
ការភ្នាល់	-10.0878
▁ទាប	-10.0882
▁និងការផលិត	-10.0882
▁khmer	-10.0883
uff	-10.0887
oid	-10.089
ពិសោធន៍	-10.089
សក់	-10.0891
នៃព្រះគ្រីស្ទ	-10.0892
▁86-	-10.0894
ដោយខ្លួនឯង	-10.0896
ino	-10.0898
អាកាសចរណ៍	-10.0899
▁International	-10.0899
▁Bank	-10.0903
mit	-10.0903
ole	-10.0903
nn	-10.0908
4000	-10.091
លិច	-10.0919
ែត	-10.0922
ពា	-10.0923
▁ទស្សនៈ	-10.0925
online	-10.0931
TF	-10.094
▁អាស៊ី	-10.094
រៀងរាល់	-10.0941
គំ	-10.0944
បុគ្គល	-10.0953
សំយោគ	-10.0955
▁គ្រាប់ចុច	-10.0958
▁CC	-10.0959
កិច្ចសហប្រតិបត្ត	-10.0959
មានគុណភាពខ្ពស់	-10.0961
▁ងាយស្រួល	-10.0969
rack	-10.0973
មានភាព	-10.0977
ជើងហោះហើរ	-10.0979
ោរ	-10.0979
▁សម្បត្តិ	-10.0983
បកប្រែ	-10.0983
ode	-10.0984
▁ពិពណ៌នា	-10.0985
▁បរិមាណ	-10.0986
▁ទ្រនិច	-10.0988
▁អនុ	-10.0989
ម្ភ	-10.0994
del	-10.0996
▁have	-10.1
spec	-10.1001
បរិមាណ	-10.1007
ឧបត្ថម្ភ	-10.101
អន្ដរជាតិ	-10.101
ហត្ថ	-10.1011
ព្យុះ	-10.1011
nor	-10.1012
2.5	-10.1014
▁បង់	-10.1017
6%	-10.1017
▁+86	-10.1018
▁Sch	-10.102
មិនត្រូវបាន	-10.1022
▁១៨	-10.1024
▁Toul	-10.1025
▁Pay	-10.1027
ទាំងនោះ	-10.1028
ក្រុងស៊ាងហៃ	-10.1029
OT	-10.103
▁ជ្រើសរើស	-10.1032
បង់ប្រាក់	-10.1032
ត្រឡប់	-10.1036
ទិន្នផល	-10.1038
បាច់	-10.1038
ប្រែប្រួល	-10.1038
លក្ខណៈសម្បត្តិ	-10.1038
!!!	-10.1039
លាននាក់	-10.1041
avi	-10.1047
TM	-10.1049
Trade	-10.1055
ដោយសារ	-10.1058
1.5	-10.1059
បទចម្រៀង	-10.1059
វីង	-10.1062
▁11,	-10.1066
▁មើលទៅមុខដើម្បី	-10.1067
ចាំ	-10.1068
ជាតិសរសៃ	-10.1068
▁បំណង	-10.107
កិច្ចការ	-10.1075
▁សកល	-10.1079
អ៊ុ	-10.1079
កាណាដា	-10.1085
▁ទិវា	-10.1092
ហៅថា	-10.1097
▁ស្មើ	-10.1097
▁Bit	-10.1098
ក្រូ	-10.11
▁ឌីវីឌី	-10.11
ិការរបស់អ្នក	-10.1102
ប៉េ	-10.1103
▁វិទ្យា	-10.1104
ពត់	-10.1108
2.1	-10.1121
ដោយគ្មាន	-10.1122
▁110	-10.1123
ម៉ាស៊ីនថតចម្លង	-10.1125
data	-10.1131
edu	-10.1133
សេវាកម្មបន្	-10.1139
▁2007	-10.114
qua	-10.114
UI	-10.1142
ថ្មីៗ	-10.1144
ទាប់ពីការលក់និង	-10.1152
1.0	-10.1156
វិញ្ញាបនប័ត្រ	-10.1158
ហ្ស៊ី	-10.1173
▁តម្រូវ	-10.1174
មីក្រូ	-10.1176
មានតម្លៃ	-10.1179
ហូត	-10.118
ទេសដ៏ល្អឥតខ្ចោះ។	-10.118
▁ប្រភេទផលិតផលនៃ	-10.118
ផលិតពីប្រទេសចិន	-10.1181
ត្បូង	-10.1189
▁ថ្ងៃបន្ទាប់	-10.1191
▁Slots	-10.1192
រឹងមាំ	-10.1194
▁ការផ្សព្វផ្សាយ	-10.1195
្ធ	-10.12
▁08:	-10.1207
នយោបាយ	-10.1208
▁Metatrader	-10.1208
▁ភាគហ៊ុន	-10.1211
ជាពិសេស	-10.1213
▁កីឡា	-10.1217
ភ្ល	-10.1218
ផ្ទេរប្រាក់	-10.1219
▁Ya	-10.122
arm	-10.1223
▁ការផ្តល់	-10.1226
▁គូរ	-10.1227
ប្រធាន	-10.1234
ពង្រឹង	-10.1237
រមូរ	-10.1237
▁SKU	-10.1237
ការគាំទ្របច្ចេក	-10.1237
សិល្បករ	-10.1237
▁Ru	-10.1239
▁Christ	-10.1239
▁លិខិត	-10.124
▁បានបង្កើត	-10.1241
ដ្យូ	-10.1244
របស់អតិថិជន	-10.1247
ក្រានីត	-10.1248
កាលបរិច្ឆេទ	-10.1249
ពិព័រណ៍	-10.1252
គែម	-10.1258
ការបង្កើត	-10.1259
ct	-10.1261
ការត្រួតពិនិត្យ	-10.1261
中文	-10.1265
ឯកទេស	-10.1266
្ស	-10.1272
▁Mark	-10.1273
ប៊ូតុង	-10.128
GO	-10.1281
eld	-10.1283
▁CE	-10.1284
▁ប័ណ្ណ	-10.1285
▁ពាន់	-10.1288
▁Led	-10.1291
▁នាយក	-10.1292
▁ក្នុងនាមជា	-10.1294
វដ្ត	-10.1294
▁column	-10.1294
សាជីវកម្ម	-10.1294
▁Cor	-10.1295
Bet	-10.1297
▁នេះគឺជា	-10.1303
ប្រារព្ធ	-10.1306
កាយ	-10.1308
ការណែនាំ	-10.1321
ខ្ពស់លក់ដុំនៃ	-10.1323
▁បណ្ណសារ	-10.1323
ទ្វេ	-10.1324
▁ប័ណ្ណសារ	-10.1325
▁ភ្លើង	-10.1325
ឆ្លើយតប	-10.1335
UL	-10.1336
▁សតិ	-10.1337
នៅក្នុងប្រទេស	-10.1339
info	-10.1345
▁សង់	-10.1347
សម្អាត	-10.1352
ប៉ារ៉ាម៉ែត្រ	-10.1352
វិស្វកម្ម	-10.1352
public	-10.1352
ធ្	-10.1352
▁គោលនយោបាយ	-10.1354
orn	-10.1362
នូ	-10.1364
ក្នុងមួយថ្ងៃ	-10.1365
▁សមាសភាគ	-10.1366
▁Sat	-10.1368
ស្នាម	-10.1375
ture	-10.1375
ចេះ	-10.1375
▁ID	-10.1379
▁ផ្សិត	-10.1382
▁ភីកសែល	-10.1383
▁លីត្រ	-10.1383
▁ងាយ	-10.1388
ស៊ីធី	-10.139
zer	-10.1392
ការកំណត់	-10.1398
▁ខែឧសភា	-10.1402
new	-10.1403
▁17,	-10.1403
pg	-10.1406
ផ្លែប៉ោម	-10.141
bb	-10.1411
ត្រៀម	-10.1411
▁ប៊ីត	-10.1412
បំពង់បង្ហូរទឹក	-10.1412
▁ប្លង់	-10.1415
ama	-10.1419
▁អាជីវកម្ម	-10.1422
វ៉	-10.1426
▁លោកស្រី	-10.1428
▁១០០	-10.1429
ដាច់	-10.1431
អាសយដ្ឋាន	-10.1437
▁ជិត	-10.1437
កម្សាន្ត	-10.1439
▁translation	-10.1439
ស្វែងយល់	-10.1441
▁LCD	-10.1441
ព័	-10.1441
lit	-10.1449
▁បុគ្គលិក	-10.145
▁Port	-10.1453
ដែលខ្ញុំ	-10.1454
▁គ្រាន់តែ	-10.1456
ben	-10.1467
▁សេន	-10.1467
=5.0.6	-10.1468
html	-10.1469
ដ៏អស្ចារ្យ	-10.1474
ស់	-10.1476
▁07:	-10.1476
ៀក	-10.1481
%8	-10.1481
▁130	-10.1483
ili	-10.1487
▁តន្ត្រី	-10.1497
▁Note	-10.1498
▁គោលដៅ	-10.1499
var	-10.1503
រង់ចាំ	-10.1503
index	-10.1504
▁លេខសម្គាល់	-10.1507
ប៉ុណ្ណោះ	-10.1507
▁ជាមួយនឹងការ	-10.1508
HO	-10.1519
ភាគី	-10.1523
aster	-10.1525
ស្ទ្រីម	-10.1527
Packing	-10.1527
អនុម័ត	-10.153
SH	-10.153
Color	-10.1535
▁ការត្រួតពិនិត្យ	-10.1546
PR	-10.1549
umb	-10.155
rat	-10.1554
vers	-10.1555
RL	-10.1555
ផែនដី	-10.1557
ឯករាជ្យ	-10.1557
▁ភីអិលស៊ី	-10.1557
т	-10.1557
▁Global	-10.1557
photo	-10.1557
កែច្នៃ	-10.1558
▁app	-10.156
▁គូស	-10.1561
ពីរដង	-10.1562
ការបញ្ជាទិញ	-10.1565
ម៉ាស៊ីនត្រជាក់	-10.157
ការចាប់ផ្តើម	-10.1571
អត្រា	-10.1578
▁ស្ថានីយ	-10.1578
eep	-10.158
▁ការជូនដំណឹង	-10.1581
សំណើម	-10.1583
▁វ៉ុល	-10.1585
វិទ្យាល័យ	-10.1585
ព្រំដែន	-10.1586
▁Piwigo	-10.1586
▁check	-10.1587
គ្រោះ	-10.1588
▁PU	-10.1588
▁ឈើ	-10.1589
▁ទឹកកក	-10.159
អ្នកដែល	-10.159
▁មិនា	-10.1599
▁world	-10.1602
ott	-10.1612
ឃុំ	-10.1613
សមាគមធាងត្នោត	-10.1616
ខាងស្ដាំ	-10.1616
អនឡាញ	-10.1616
▁ផ្កា	-10.1621
▁new	-10.1621
▁ក្នុងតម្លៃ	-10.1628
របាយការណ៍	-10.1629
ND	-10.1629
សំខាន់ៗ	-10.1629
ទាក់ទងនឹង	-10.1632
មានទីតាំងស្ថិតនៅ	-10.1636
tory	-10.1637
▁លេចឡើង	-10.1646
▁លេខម៉ូដែល	-10.165
បង្កើតឡើង	-10.165
▁Fo	-10.1655
▁៣០	-10.166
▁no	-10.1662
អ៊ូ	-10.1663
▁២០១៨	-10.1665
▁ទៀងទាត់	-10.1665
រ៉	-10.1667
▁ប្លុក	-10.1668
ពេញចិត្ត	-10.1671
001	-10.1675
="9	-10.1675
message	-10.1675
▁MH	-10.1676
នេ	-10.1677
▁ជួប	-10.1679
oth	-10.1684
អាណា	-10.1686
២០១៣	-10.1687
▁រៀល	-10.1688
▁រូបរាង	-10.1689
េចក្តីថ្លែងការណ៍	-10.1691
-25	-10.1698
▁បាត	-10.1699
▁រង់ចាំ	-10.17
▁ដែកថែប	-10.1701
▁Hot	-10.1703
តួ	-10.1704
មិត្តភក្តិ	-10.1705
▁សំលៀកបំពាក់	-10.1706
លាង	-10.1725
ោង	-10.1732
gent	-10.1733
▁30%	-10.1734
ថ្ងៃអាទិត្យ	-10.1735
▁បង្ហោះនៅលើ	-10.1736
វ័យក្មេង	-10.1736
▁ទំនង	-10.1736
king	-10.1737
▁តារា	-10.1738
▁Toner	-10.1739
▁ប្រកួត	-10.1744
▁អ្នកនិពន្ធ	-10.1744
២៨	-10.1745
="15	-10.1746
▁បេ	-10.1747
PT	-10.175
▁គុណ	-10.1753
▁Plan	-10.1753
long	-10.1754
▁សប្តាហ៍មុន	-10.1754
តាមរយៈការ	-10.1756
head	-10.1758
▁សមាមាត្រ	-10.1763
សន្និសីទ	-10.1766
▁WhatsApp	-10.1766
▁acrylic	-10.1766
▁Multi	-10.1767
AB	-10.1767
ងាយ	-10.1767
ark	-10.1768
▁Motor	-10.1769
▁micro	-10.177
ស្វា	-10.1772
អធិប្បាយ	-10.179
សម្លៀកបំពាក់	-10.1793
▁ហេតុនេះ	-10.1795
បញ្ចាំង	-10.1796
▁John	-10.1796
រោមភ្នែក	-10.1796
▁root	-10.1798
▁សម្លៀកបំពាក់	-10.1798
lot	-10.18
play	-10.1803
▁មុនពេល	-10.1803
▁បន្ថយ	-10.1804
inch	-10.181
ចាប់ផ្ដើម	-10.1823
°	-10.1823
គន្លឹះ	-10.1825
មន្ទីរពិសោធន៍	-10.1826
pdf	-10.1827
សហការ	-10.1831
onic	-10.1835
-18	-10.1836
2001	-10.1836
គុណភាពខ្ពស់	-10.1837
2011	-10.1837
203	-10.1841
BR	-10.1844
Com	-10.1845
space	-10.1846
▁មិនអាចរកបាន	-10.1851
ល្ងាច	-10.1856
ទិសដៅ	-10.1856
និទាឃរដូវ	-10.1856
ផែនទី	-10.1857
9.99	-10.1862
220	-10.1872
▁បដិសេធ	-10.1875
ura	-10.1877
អ្វីដែលអ្នក	-10.1887
lf	-10.1887
▁Apk	-10.1887
▁Color	-10.1887
mark	-10.1888
▁(0)	-10.1892
របៀបដែល	-10.1893
ស្តា	-10.1895
▁Ti	-10.1895
នាំមុខ	-10.1896
side	-10.19
▁SH	-10.1908
▁រាង	-10.1914
រំខាន	-10.1917
អ៊ីសូឡង់	-10.1917
lar	-10.1922
▁LEE	-10.1923
ការធ្វើតេស្ត	-10.1924
rac	-10.1927
ester	-10.1932
ជាការពិត	-10.1934
ថ្នាក់ទី	-10.1936
▁SE	-10.1938
lk	-10.1941
▁play	-10.1944
មានទំហំ	-10.1947
`	-10.1948
▁University	-10.1948
▁២០១៧	-10.195
ធំបំផុត	-10.1953
ៀន	-10.1957
email	-10.1958
▁២១	-10.1959
រាយការណ៍	-10.1959
2%80%	-10.1962
▁ពិព័រណ៍	-10.1963
▁API	-10.1963
ប្រូ	-10.1964
▁2006	-10.1965
los	-10.1969
des	-10.1969
add	-10.1973
ចរ	-10.1977
▁Holmbygden	-10.1979
1.7	-10.1989
យើងកំពុង	-10.1993
▁សែន	-10.1993
▁បូ	-10.1996
▁អាយុ	-10.2002
ខ្នាត	-10.2007
search	-10.201
ភ្លឺ	-10.2012
pha	-10.2031
ound	-10.2032
▁បំណែក	-10.2033
▁វ៉ា	-10.2035
▁ដឹកនាំ	-10.2039
▁កាស	-10.2039
н	-10.2041
យ៉ាងហោចណាស់	-10.2041
ឮ	-10.2041
លើកទឹកចិត្ត	-10.2041
ali	-10.2042
▁ផ្ទៀងផ្ទាត់	-10.2042
ចាកចេញ	-10.2042
4.7	-10.2046
0.0	-10.2046
▁ដោះស្រាយ	-10.2054
eak	-10.2057
▁Gen	-10.2059
▁etc	-10.2068
press	-10.2071
▁កាសែត	-10.2073
aff	-10.2075
ការដំឡើង	-10.2078
polymer	-10.2078
ពេជ្រ	-10.208
9.00	-10.2087
▁MS	-10.2089
▁តុ	-10.2089
▁និ	-10.2091
ទោះបីជា	-10.2092
ផោន	-10.2098
▁ល។	-10.2103
វ៉ាស៊ីនតោន	-10.2103
អនុគមន៍	-10.2103
travel	-10.2103
តំណែង	-10.2106
▁Wa	-10.2107
▁Ben	-10.2109
ness	-10.2112
ចូលទៅ	-10.2114
ខាងកើត	-10.2121
ដកស្រង់	-10.2123
.0.2	-10.2125
ពិភព	-10.2131
ទីប្រឹក្សា	-10.2131
វេបសាយ	-10.2134
មួក	-10.2134
បង្រួម	-10.2137
ដំណឹងល្អ	-10.2143
ការបង្ហាញ	-10.2147
ពុះ	-10.2149
▁ព្រោះ	-10.2152
0.7	-10.2155
ចន្លោះ	-10.2159
2.7	-10.2159
បណ្តុះបណ្តាល	-10.216
ស្ថាបនា	-10.2166
អាពាហ៍ពិពាហ៍	-10.2166
ដទៃទៀត	-10.2166
ត៍	-10.2167
ដាក់ប្រាក់	-10.2172
ស្មា	-10.2175
pan	-10.2175
▁UV	-10.2176
▁ម៉ាស៊ីនបម្រើ	-10.2186
ដែលអាចប្រើបាន	-10.2188
burg	-10.2191
យោង	-10.2194
2017	-10.2195
ification	-10.2197
ព័ត៍មាន	-10.2197
▁ផ	-10.2199
▁Live	-10.2199
ផ្នែករឹង	-10.2201
▁បារាំង	-10.2207
ថ្មទូរស័ព្ទ	-10.2212
ឯង	-10.2225
ជំនាន់	-10.2229
▁ចូរ	-10.2229
▁សូមមើល	-10.2231
="0.1	-10.2233
▁វាជា	-10.2233
JS	-10.2234
▁ដ្រាយ	-10.2238
LO	-10.2243
ាត់	-10.2245
អ្នកគាំទ្រ	-10.225
យកចេញ	-10.2253
ទល់នឹង	-10.226
ភ្លាមៗ	-10.2261
សត្វចិញ្ចឹម	-10.2263
▁អំពូល	-10.2267
វិទ្យាសាស្ត្រ	-10.2267
ហាត់	-10.2268
តួនាទី	-10.2268
ju	-10.2285
អាលុយមីញ៉ូ	-10.2286
▁ដែលត្រូវ	-10.2287
▁ប្រយោជន៍	-10.2288
▁េ្រគងបន	-10.2289
▁crypto	-10.2292
ពរ	-10.2293
ខុស	-10.2296
PO	-10.2299
ការពិត	-10.2299
lon	-10.2303
ភ្ញៀវ	-10.2317
▁អូស	-10.2318
▁ម៉ាស៊ីនបោះពុម្ព	-10.2319
តារា	-10.2323
▁LexUriServ	-10.2324
▁capacitor	-10.2324
stra	-10.233
ient	-10.233
eas	-10.233
ក្បឿង	-10.2331
print	-10.2333
▁ភាគរយ	-10.2336
េត	-10.2336
▁អឺរ៉ុប	-10.234
▁sub	-10.2348
ដោត	-10.2349
ü	-10.2351
="17	-10.2352
philippines	-10.2356
រំលឹក	-10.2356
▁$1.99	-10.2357
ផុត	-10.2357
▁គម្រប	-10.2359
ដឹក	-10.2361
ឡាយ	-10.2361
▁ជើងហោះហើរ	-10.2362
ស្ថិតិ	-10.2363
blockchain	-10.2364
ចាក់សោ	-10.2365
5.1	-10.2365
្ត	-10.2371
ល្បឿនលឿន	-10.2375
gar	-10.2378
ការតភ្ជាប់	-10.2381
ចិញ្ចឹម	-10.2385
ual	-10.2387
▁Français	-10.2388
▁taffeta	-10.2388
▁Daun	-10.2393
មាតិកា	-10.2399
▁អាយ	-10.2399
="18	-10.24
ផ្ញើសារ	-10.2401
ata	-10.2406
ជឿ	-10.2408
0.4	-10.2415
▁time	-10.2416
ផ្លូវការ	-10.2417
▁ទិញរូបភាព។	-10.242
0,0	-10.2428
តុល្យភាព	-10.243
1.2	-10.2433
ទ្រង់ទ្រាយ	-10.2433
▁អាលុយមីញ៉ូម	-10.2434
▁ដើរ	-10.2435
តំណភ្ជាប់	-10.2437
ការទាញយក	-10.2445
0.8	-10.2447
▁លឿន	-10.2449
google	-10.2452
ប្រាសាទ	-10.2452
អាដាប់ធ័រ	-10.2452
▁Trenbolone	-10.2452
▁KMail	-10.2452
ville	-10.2453
▁ព្រះអម្ចាស់	-10.2453
▁យប់	-10.2455
kin	-10.2456
▁OEM	-10.2457
▁380	-10.246
រាល់	-10.246
ុស	-10.2466
▁ឈ្នះ	-10.2469
▁សមាគម	-10.247
កម្រាស់	-10.247
▁អាស័យដ្ឋាន	-10.2471
▁សិល្បៈ	-10.2474
ប៉ូ	-10.2475
បាននិយាយថា	-10.2476
ព្រះអាទិត្យ	-10.248
ken	-10.2481
ខូ	-10.2485
ច្រៀង	-10.2486
យ៉ាងទូលំទូលាយ	-10.2487
▁តម្រៀប	-10.249
សុពលភាព	-10.2496
ship	-10.2496
ular	-10.2498
ret	-10.2498
▁អត្ថប្រយោជន៍	-10.2499
ku	-10.25
101	-10.2501
ized	-10.2504
▁ស្តង់ដារ	-10.2509
ថ្ងៃពុធ	-10.2517
កំរិត	-10.2517
▁Honda	-10.2517
▁ទិន្នផល	-10.2518
គា	-10.2519
itch	-10.2521
IM	-10.2524
ស្តី	-10.2525
លើកលែង	-10.2527
ការរចនា	-10.2529
ទឹកអាស៊ីត	-10.2531
pos	-10.2538
ឈុត	-10.254
UR	-10.2548
ប្រតិបត្ដិការ	-10.255
▁On	-10.2552
▁Comp	-10.2553
ដែលត្រូវ	-10.2553
នឹងមិន	-10.2555
▁2004	-10.2559
▁ព្រមាន	-10.256
▁ការប្រកួត	-10.2563
▁some	-10.2566
ទូច	-10.2567
សន្ទះ	-10.2567
▁count	-10.2568
▁ការធ្វើតេស្ត	-10.2575
▁គីឡូម៉ែត្រ	-10.2576
▁29,	-10.2577
ខួប	-10.2582
tel	-10.2582
down	-10.2584
▁ធម្មនុញ្ញ	-10.2585
usa	-10.2588
unch	-10.259
រួមបញ្ចូលគ្នា	-10.259
▁NC	-10.2597
file	-10.2602
▁Tri	-10.261
ទម្ងន់	-10.261
▁Español	-10.2615
រោងម៉ាស៊ីនកិន	-10.2615
▁about	-10.2616
erry	-10.2617
ប្រកបដោយ	-10.2619
ane	-10.2621
រ៉ូម	-10.2622
▁ម៉ាស៊ីនថត	-10.2626
▁ខ្យល់	-10.263
dition	-10.2631
len	-10.2634
▁អស្ចារ្យ	-10.2635
▁East	-10.2641
ដូចម្តេច	-10.2643
http	-10.2644
▁ខ្	-10.2645
បង	-10.2646
ស្រលាញ់	-10.2648
អនាគត	-10.2649
នរណាម្នាក់	-10.2649
រសជាតិ	-10.265
រលក	-10.265
▁My	-10.2653
▁360	-10.2653
oh	-10.2667
ប្លក	-10.2671
rule	-10.2673
ជារៀងរាល់	-10.2675
▁វ៉	-10.2677
បងប្អូន	-10.2681
▁FOB	-10.2681
000,0	-10.2682
០១	-10.2684
សង្	-10.2685
="16	-10.2687
ុត	-10.2687
last	-10.2691
សំលេង	-10.2696
ឱ្យមាន	-10.2703
យាន	-10.2704
5.2	-10.2706
▁HGH	-10.2714
▁Page	-10.2715
123	-10.2717
ylord	-10.2717
សម្រាប់ទូរស័ព្ទ	-10.2718
▁រួមទាំង	-10.272
▁រ៉ូប	-10.2722
onm	-10.2724
▁អោយ	-10.2725
ត្បាញ	-10.2728
បើកចំហ	-10.2732
-08-	-10.2734
▁ឆ្នាំ២០១៧	-10.2747
ating	-10.275
▁ខ្លី	-10.2756
▁ថាតើ	-10.2769
ទេសភាព	-10.277
តង់	-10.2772
បំភ្លឺ	-10.2773
ការសម្តែង	-10.2775
Read	-10.2775
រំពឹង	-10.278
មើលទៅ	-10.278
ចំណុចប្រទាក់	-10.2781
ធ្ងន់	-10.2781
ពន្យល់	-10.2781
សម្លាប់	-10.2781
រុករករ៉ែ	-10.2788
ព្រិល	-10.2789
▁ម្យ៉ាងវិញទៀត	-10.2789
key	-10.2791
▁She	-10.2791
HA	-10.2795
ផ្កា	-10.2798
6.5	-10.2801
រាជធានី	-10.2814
រូបមន្ត	-10.2814
matic	-10.2817
5,000	-10.2817
nne	-10.2819
▁plus	-10.2819
ការការពារ	-10.2819
ថវិកា	-10.2821
អង្កត់ផ្ចិត	-10.2826
▁សប្ដាហ៍	-10.2833
អាចប្រើបាន	-10.2835
ភព	-10.2838
▁ប៊ុ	-10.2844
ដ៏ល្អបំផុត	-10.2847
-60	-10.2847
សម្តេច	-10.2848
សំណុំបែបបទ	-10.2848
▁មហាសន្និបាត	-10.2848
▁ស្បែកជើង	-10.2858
ប្រាក់ចំណេញ	-10.2859
like	-10.2863
case	-10.2864
wp	-10.287
ម៉ាស	-10.2871
▁ព្រមទាំង	-10.2874
-01-	-10.2878
▁ដំណើរទស្សនកិច្ច	-10.288
រ៉ោតទ័រ	-10.2881
ជានិច្ច	-10.2881
▁Black	-10.2881
▁Trading	-10.2881
ការអប់រំ	-10.2882
វិញ្ញាណ	-10.2882
▁roller	-10.2883
▁អាល់	-10.2885
ណ្ឌ	-10.2888
▁Wal	-10.2888
ព្រះវិហារ	-10.2888
ava	-10.2889
▁ចម្លើយ	-10.2894
▁26,	-10.2905
RT	-10.291
4.2	-10.2913
មាត្រ	-10.2916
▁ទំ	-10.2916
▁●	-10.2916
ុម	-10.2916
IF	-10.2917
១២	-10.2922
test	-10.2923
▁វាគឺជា	-10.2933
ឌូ	-10.2934
ចត	-10.2936
ម៉ាស៊ីនភ្លើង	-10.294
អ៊ុលត្រាសោ	-10.2949
▁pneumatic	-10.2949
សព្ទ	-10.2949
▁1.0	-10.2955
Internet	-10.2957
កូនប្រុស	-10.2959
ក្នុងអំឡុងពេល	-10.2959
ស្ពាន	-10.2959
ឈី	-10.296
▁ជោគជ័យ	-10.2961
gan	-10.297
="14	-10.2979
lick	-10.2979
▁Sen	-10.298
សំបក	-10.2982
ស្ថិតនៅ	-10.2983
ette	-10.2983
▁រំលែក	-10.2983
▁អាគុយ	-10.2984
meter	-10.2998
សម្ព័ន្ធ	-10.3003
▁ផ្លាស់ប្តូរ	-10.3007
:28	-10.3011
GA	-10.3012
ផ្ទុះ	-10.3016
បេះដូង	-10.3017
ទស្សនាវដ្តី	-10.3017
Region	-10.3017
cho	-10.3018
▁សំណើ	-10.3022
▁Fu	-10.3023
▁ផ្ដើម	-10.3024
tar	-10.3033
raft	-10.3041
ប្រវត្តិ	-10.3043
▁ផ្លូវលេខ	-10.3047
nov	-10.3047
សាសន៍	-10.3051
យីហោ	-10.3051
3.3	-10.306
LD	-10.3065
▁ខ្ញុំមាន	-10.3069
ដែន	-10.307
ជាច្រើនទៀត	-10.3073
វត្តមាន	-10.3077
រូបរាង	-10.3078
ម្ល	-10.3081
វាជាការ	-10.3082
≥	-10.3086
▁Crypto	-10.3086
View	-10.3086
រាត្រី	-10.3097
ទិក	-10.3101
AH	-10.3103
គឺជាអ្វី	-10.3103
ក៏ដោយ	-10.3106
▁May	-10.3108
▁រាយការណ៍	-10.3109
AI	-10.3112
▁២៤	-10.3113
option	-10.3114
អាស្រ័យ	-10.3115
ជំនឿ	-10.312
វិនិច្ឆ័យ	-10.312
mpt	-10.312
TY	-10.3121
help	-10.3122
ជ្រៅ	-10.3123
table	-10.3129
ដែកអ៊ីណុក	-10.3129
▁ក្រឡា	-10.3132
អ្នកត្រូវ	-10.3132
ces	-10.3143
▁ខោ	-10.3149
▁ទម្លាក់	-10.3155
ប្រូតេអ៊ីន	-10.3155
▁MetaTrader	-10.3155
▁Alloy	-10.3155
ឧបករណ៍ភ្ជាប់	-10.316
bus	-10.3161
រន្ធដោត	-10.3162
ង្គ	-10.3171
លីវ	-10.3174
▁អ៊ិនគ្រីប	-10.3176
ក្រាម	-10.3184
ញូ	-10.3186
សូមស្វាគមន៍	-10.3188
ស៊ុម	-10.3188
នេសាទ	-10.319
រៀបរាប់	-10.319
▁South	-10.3191
▁Chi	-10.3192
▁has	-10.3194
ថេ	-10.3199
▁បញ្ឈរ	-10.3203
បង្ហោះ	-10.3217
ជាមុន	-10.3219
មធ្យោបាយ	-10.3224
▁Germany	-10.3224
អាជីព	-10.3224
appeared	-10.3224
▁២០១៤	-10.3227
ប្រឡង	-10.3228
ទទឹង	-10.3232
IR	-10.3233
វ៉ាន់	-10.3234
ឈ្	-10.3236
▁ST	-10.3237
នេះបើយោងតាម	-10.3242
នៅទីនោះ	-10.3246
160	-10.3249
តម្រូវ	-10.3252
លេងល្បែង	-10.3255
ប្រទេសឥណ្ឌា	-10.3255
ម៉ាស៊ីនបោះពុម្ព	-10.3256
កោណ	-10.3259
ភេសជ្ជៈ	-10.3259
ហាត់ប្រាណ	-10.3259
កន្សោម	-10.3259
ក្លែងក្លាយ	-10.3259
▁Company	-10.3259
white	-10.3259
should	-10.3259
ស្រា	-10.3261
water	-10.3269
លំនាំដើម	-10.3272
888	-10.3274
time	-10.3277
៣០	-10.3279
PI	-10.3283
▁key	-10.3288
យើងនឹង	-10.3289
="13	-10.3303
សារព័ត៌មាន	-10.331
ជ្រាប	-10.3315
TT	-10.3316
ith	-10.3316
▁Gold	-10.3316
▁ការធ្វើ	-10.3317
▁SP	-10.3324
-40	-10.3324
DN	-10.3329
ម្តងទៀត	-10.3332
▁ដែលអាច	-10.3334
mac	-10.3335
HI	-10.3338
▁ភ្នាក់ងារ	-10.3339
បានប្រើ	-10.3339
សន្	-10.3341
ស្ពាន់	-10.3344
ច្នៃប្រឌិត	-10.3345
យេ	-10.3345
▁Dec	-10.3345
បៃ	-10.3346
វិញ្ញាបនបត្រ	-10.3346
uction	-10.3351
កោង	-10.3359
ឆ្លាត	-10.3365
▁Zhejiang	-10.3365
▁CSGO	-10.3365
▁បន្លិច	-10.3365
▁romper	-10.3365
ភ្លេច	-10.3365
បានដាក់	-10.337
អី	-10.3374
ស្តុក	-10.3378
វាជា	-10.3379
▁them	-10.338
▁Kate	-10.3382
កម្មសិទ្ធិ	-10.3382
អំពូល	-10.3386
▁ឆ្លើយ	-10.34
ថែរក្សា	-10.34
▁មាត្រា	-10.3401
rel	-10.3403
រាយ	-10.3412
NI	-10.3413
410	-10.3417
7.2	-10.3422
CB	-10.3424
បានរកឃើញ	-10.3428
និយម	-10.3433
ដាំ	-10.3434
ឱ	-10.3435
-07-	-10.3436
កោត	-10.3436
ទាក់ទាញ	-10.3436
បុរសម្នាក់	-10.3443
BS	-10.3446
ភាពត្រឹមត្រូវ	-10.3463
១៩	-10.3464
hua	-10.3471
ម៉ាស៊ីនបម្រើ	-10.3471
គ្រឿងសង្ហារឹម	-10.3472
ប្រមូលផ្តុំ	-10.3472
▁តោន	-10.3472
កត្តា	-10.3472
០៩	-10.3474
ទ្រង់	-10.3474
សេចក្តីអធិប្បាយ	-10.3478
▁ការប្រើ	-10.3481
ប្រទេសថៃ	-10.3482
ខ្ពស់ជាង	-10.349
▁Han	-10.3495
pack	-10.35
ហ្វេសប៊ុក	-10.3501
▁Com	-10.3501
ជំនុំ	-10.3508
ឈានមុខគេ	-10.3508
QShortcut	-10.3508
ទិនានុប្បវត្តិ	-10.3508
▁Shandong	-10.3508
ក្មេងស្រី	-10.3509
មូលហេតុ	-10.3509
field	-10.3509
NC	-10.3509
▁PMP	-10.3512
នៅថ្ងៃនេះ	-10.3513
emb	-10.3518
ធា	-10.3525
បរិសុទ្ធ	-10.3531
▁2005	-10.3532
ows	-10.3533
ខាងត្បូង	-10.3542
២៦	-10.3542
Please	-10.3544
អគ្គីសនី	-10.3544
▁រ៉ូឡែត	-10.3547
សម្តែង	-10.355
tool	-10.3554
វ័យ	-10.3556
▁ដង់ស៊ីតេ	-10.3557
▁អត្ថបទបន្ទាប់	-10.3558
ទិ	-10.3563
នាំចូល	-10.3564
្តា	-10.3564
លាប	-10.3566
bur	-10.357
305	-10.3571
▁des	-10.3573
ចៃដន្យ	-10.358
▁Service	-10.358
▁microfiber	-10.358
ថ្ងៃអង្គារ	-10.358
បាត់ដំបង	-10.358
គ្រោះថ្នាក់	-10.3581
gro	-10.3587
rist	-10.3588
9.5	-10.359
bra	-10.3592
▁1200	-10.3594
▁750	-10.3595
ក្នុងតំបន់	-10.3604
▁int	-10.3605
ប្ដូរ	-10.3616
ជនភៀសខ្លួន	-10.3616
រមៀល	-10.3616
អឿម	-10.3616
ហុងកុង	-10.3616
ចរន្ត	-10.3617
▁ឆ្នាំ២០១៨	-10.362
នេះគឺជាការ	-10.3623
/03/	-10.3627
ល្អបំផុតសម្រាប់	-10.363
អេឡិចត្រូនិក	-10.3633
ible	-10.3633
មានសុវត្ថិភាព	-10.3633
០៣	-10.3633
ភាពខុសគ្នា	-10.3636
HL	-10.3636
▁Last	-10.3645
NE	-10.3645
▁240	-10.3647
ភស្តុតាង	-10.3652
ត្រលប់	-10.3652
cul	-10.3654
សាធារណរដ្ឋ	-10.3657
សម្រ	-10.3659
170	-10.3661
អែល	-10.3669
pot	-10.3672
don	-10.3687
▁តើអ្វីទៅជា	-10.3689
ស្ដេច	-10.3689
134	-10.3689
/10/	-10.369
ពាន់	-10.3695
សិក្ខាសាលា	-10.3697
▁Jan	-10.3698
▁(3)	-10.3705
HT	-10.3713
ភិ	-10.3714
Ray	-10.3718
កំណត់ត្រា	-10.3719
ស្តុ	-10.3721
1.6	-10.3723
ទូលំទូលាយ	-10.3723
ខួរក្បាល	-10.3725
▁Micro	-10.3727
▁០២៣	-10.3727
បង្ហាញពី	-10.3735
កាន់តែច្រើន	-10.3735
វគ្គសិក្សា	-10.3739
▁how	-10.3746
▁AM	-10.3749
▁pref	-10.375
នាយកប្រតិបត្តិ	-10.375
បន្លែ	-10.3751
ough	-10.3752
ពលរដ្ឋ	-10.3762
ចិត្ដ	-10.3762
សម្របសម្រួល	-10.3762
សិង្ហបុរី	-10.3762
ធូលី	-10.3765
-50	-10.3766
CAD	-10.3776
ខែមីនា	-10.3776
ខ្វ	-10.379
WS	-10.379
▁50%	-10.3791
▁ទំនេរ	-10.3792
▁Jin	-10.3792
shan	-10.3793
ស្វាយ	-10.3795
Language	-10.3799
នាយករដ្ឋមន្ត្រី	-10.3799
ប្រធានាធិបតី	-10.3799
ជម្ងឺ	-10.3799
យុទ្ធនាការ	-10.38
▁admin	-10.38
ពាង	-10.3811
FF	-10.3814
បានកើនឡើង	-10.3824
ដែលល្អបំផុត	-10.3832
ជាងគេ	-10.3835
crea	-10.3835
កិត្តិយស	-10.3836
វីរុស	-10.3836
rpm	-10.3837
អាស៊ីត	-10.3841
-2019	-10.3842
▁Up	-10.3852
លានដុល្លារ	-10.3853
បរាជ័យ	-10.3859
▁Heat	-10.3862
▁160	-10.3868
▁Intel	-10.3876
▁VPN	-10.3879
រលោង	-10.3881
ហិ	-10.3884
▁Java	-10.3884
នៅតាម	-10.3887
▁Nov	-10.3903
▁023	-10.3909
អុបទិក	-10.3909
▁Battery	-10.3911
▁Virtual	-10.3911
▁object	-10.3911
មណ្ឌល	-10.3911
▁here	-10.3919
▁ផ្តើម	-10.3919
អាវយឺត	-10.392
នៅប្រទេស	-10.3923
ទើប	-10.3924
ការហៅ	-10.3935
丨	-10.3937
▁បានប្រកាស	-10.3938
ផ្អែកលើ	-10.3942
▁Gar	-10.3943
ថោក	-10.3944
ATA	-10.3944
ទំន	-10.3945
ធម៌	-10.3948
▁regions	-10.3948
▁slab	-10.3948
▁វីឡា	-10.3954
="26	-10.3959
▁Ver	-10.3967
▁Pen	-10.3969
ចង់បាន	-10.3975
url	-10.3977
០៦	-10.3983
ព្រះយេស៊ូ	-10.3984
កំណើន	-10.3986
និន្នាការ	-10.3986
▁$24.99	-10.3986
▁ការជំនួសជំនួស	-10.3986
ស្រូវ	-10.3986
▁[1]	-10.3986
mobile	-10.3986
▁UIP	-10.3995
ធ្វើការជាមួយ	-10.3995
ពេក	-10.3995
ជាន់ខ្ពស់	-10.4002
បើកដំណើរការ	-10.4006
ouch	-10.4017
ផ្តល់សេវា	-10.402
▁James	-10.4023
Query	-10.4024
ស្នោ	-10.4024
ន៏	-10.4024
▁coated	-10.4024
ស្រដៀងគ្នា	-10.4026
▁+855	-10.4029
ធាន	-10.403
កុំ	-10.4045
ចេ	-10.4047
បណ្តា	-10.4049
media	-10.4051
js	-10.4057
សហព័ន្ធ	-10.4061
នៃសាកលវិទ្យាល័យ	-10.407
▁Sol	-10.407
rich	-10.4071
sec	-10.4074
អារម្មណ៍	-10.4081
▁user	-10.4087
អូស្ត្រាលី	-10.409
118	-10.409
="19	-10.4092
▁Max	-10.4094
unit	-10.4098
សំណើ	-10.4099
ប្រពៃណី	-10.4099
សម្ពោធ	-10.4099
▁Indicator	-10.4099
ឌ័រ	-10.4102
ធំទូលាយ	-10.4103
Shift	-10.4107
្យា	-10.4111
ឥទ្ធិពល	-10.4113
ប្រធានបទ	-10.4118
ចាប់យក	-10.4119
អ្នកលេង	-10.4119
je	-10.4121
mic	-10.4129
▁1.2	-10.4135
evel	-10.4135
city	-10.4136
▁It	-10.4136
630	-10.4137
▁Silicon	-10.4137
▁Tailoress	-10.4137
ស្រេចចិត្ត	-10.4138
▁block	-10.4139
Payment	-10.4142
▁350	-10.4145
ីន	-10.4148
PN	-10.4154
សំណាង	-10.4176
KChar	-10.4176
▁ទឹកក្រូច	-10.4178
ដំណាំ	-10.4178
មានទីក្រុង	-10.4188
ras	-10.4188
ផ្សាយផ្ទាល់	-10.4196
ក្រុមហ៊ុនផលិតនិង	-10.4199
bot	-10.4203
ចូលរួមក្នុង	-10.4204
ទុន	-10.4205
មេឃ	-10.4205
="21	-10.4209
service	-10.4214
▁torrent	-10.4214
▁ដេមិន	-10.4215
សម្រេចចិត្ត	-10.4217
="2.9	-10.4217
▁Review	-10.422
weet	-10.4222
២០១២	-10.4224
ដែលជាកន្លែងដែល	-10.4224
PF	-10.4229
ក្បួន	-10.4234
FI	-10.4235
010	-10.4238
war	-10.424
▁fla	-10.4243
ទស្ស	-10.425
បាល់ទាត់	-10.4251
▁was	-10.4252
varychin	-10.4253
ı	-10.4253
លិបិក្រម	-10.4253
វប្បធម៌	-10.4253
ងងឹត	-10.4253
▁Image	-10.4253
កិច្ចសន្យា	-10.4254
italy	-10.4254
RM	-10.4255
ឈានដល់	-10.4257
place	-10.4258
▁take	-10.4263
▁my	-10.4265
ization	-10.4265
ងាយស្រួលក្នុងការ	-10.4269
▁ផ្ទះលេខ	-10.4272
ការកើនឡើង	-10.4273
ទំ	-10.4273
ative	-10.4275
សាស្រ្ត	-10.428
សប់	-10.4281
GL	-10.4282
ភ្	-10.4285
▁Transposh	-10.4292
Φ	-10.4292
ជម្រៅ	-10.4292
life	-10.4292
ដែរឬទេ	-10.4292
សន្ទស្សន៍	-10.4292
បង្កើនបន្ថយ	-10.4295
▁ស្រ្ត	-10.4298
ចំណ	-10.4305
ពិន្ទុ	-10.4308
ព្រលានយន្តហោះ	-10.431
គ្រាប់បាល់	-10.4311
ជាងមុន	-10.4314
cat	-10.4314
កាប់	-10.4315
2012	-10.4321
ទ្រី	-10.4321
ក្រូច	-10.4321
cast	-10.4323
ហោះហើរ	-10.4331
▁Kork	-10.4331
▁ហេតុអ្វី	-10.4334
្លា	-10.4336
▁យោបល់បិទ	-10.4337
▁ODM	-10.4338
▁Set	-10.4343
ប្រឹក្សា	-10.4345
▁Poly	-10.4346
ender	-10.4347
ដំ	-10.4347
នៅក្នុងទីក្រុង	-10.4351
="25	-10.4352
rk	-10.4353
ដើមឈើ	-10.4353
អ៊ីណុក	-10.4359
▁poly	-10.4363
រៀល	-10.4363
ដេរ	-10.437
ចែក	-10.4374
▁need	-10.4374
="28	-10.4374
លេងហ្គេម	-10.4377
Box	-10.438
Count	-10.4385
▁At	-10.4386
ប្រាកដថា	-10.4391
ល្បែង	-10.4397
▁Cambodian	-10.4398
្លង់	-10.44
oil	-10.44
ប្រណាំង	-10.4402
ទីបី	-10.4405
អភិបាល	-10.4407
′′	-10.4409
▁Bajaj	-10.4409
▁ឆ្នាំ២០១៦	-10.4409
ទប់ស្កាត់	-10.4409
ពីចម្ងាយ	-10.4415
type	-10.4424
▁game	-10.4432
នៅថ្ងៃ	-10.4432
98%	-10.4435
▁ត្រឹម	-10.4437
បូរ	-10.4437
អន្តរ	-10.4444
បែងចែក	-10.4448
ជីកាបៃ	-10.4448
អាជ្ញាកណ្តាល	-10.4448
រោគសញ្ញា	-10.4449
BAR	-10.4451
8.2	-10.4453
Book	-10.4453
សែន	-10.4468
-100	-10.4469
របស់យើង។	-10.4469
5.3	-10.447
oz	-10.448
បញ្ឈប់	-10.448
ជាអ្វី	-10.4481
ចំនួនទឹកប្រាក់	-10.4484
អ៊ីស្រាអែល	-10.4488
▁បែបផែន	-10.4488
SU	-10.449
សំណុំ	-10.4492
ចូលរួមជាមួយ	-10.4494
="24	-10.4507
EP	-10.4507
▁Sim	-10.4512
បូមទឹក	-10.4518
ថ្មីបំផុត	-10.4521
ទំងន់	-10.4521
ស្ថានីយ	-10.4522
ផ្សេងទៀត។	-10.4522
ើប	-10.4524
ស្រដៀង	-10.4525
ឪពុក	-10.4527
គណៈកម្មាធិការ	-10.4527
ឆ្លាតវៃ	-10.4527
សន្តិភាព	-10.4527
▁crusher	-10.4527
ស្ទង់	-10.4531
KA	-10.4538
អាចធ្វើបាន	-10.4539
ក្រុមគ្រួសារ	-10.4543
ូត	-10.4551
change	-10.4558
▁ម៉	-10.4559
រោគ	-10.456
BM	-10.4561
សំលៀកបំពាក់	-10.4566
♪	-10.4567
2.8	-10.4579
៦០	-10.4581
2.0	-10.4586
ពែង	-10.4589
iff	-10.4591
wing	-10.4592
▁Sho	-10.4593
Pro	-10.4594
ឿ	-10.4601
ចិញ្ចៀន	-10.4607
អូស្រ្តាលី	-10.4607
កំទេច	-10.4607
▁class	-10.4607
រដូវក្តៅ	-10.4608
មានបញ្ហា	-10.4609
ski	-10.461
BT	-10.4611
ខ្សែសង្វាក់	-10.4611
ដើម្បីធ្វើឱ្យ	-10.4614
ការលំបាក	-10.4614
rey	-10.4618
-200	-10.4628
ណាត់	-10.4636
ities	-10.4638
ឫ	-10.4647
លិខិតឆ្លងដែន	-10.4647
▁ការបញ្ចេញសំឡេង	-10.4647
យន្តហោះឯកជន	-10.4647
បដិ	-10.4648
▁Money	-10.4649
ការទិញ	-10.465
ផ្ទៃខាងក្រោយ	-10.4655
ដើម្បីឱ្យ	-10.4655
គម	-10.4658
ឥត	-10.4665
▁Email	-10.4665
រដ្ឋមន្រ្តី	-10.467
ology	-10.4673
ភាពឯកជន	-10.4676
5.6	-10.4676
៤០	-10.4676
តំបន់បណ្តាញ	-10.4678
▁Long	-10.4679
HZ	-10.4679
ខ្ពស់។	-10.4685
ខ្លាឃ្មុំ	-10.4688
ធ្ងន់ធ្ងរ	-10.4688
វាយប្រហារ	-10.4688
បំផ្លាញ	-10.4688
រំកិល	-10.4688
ស័ង្កសី	-10.4688
អារ៉ាប់	-10.4688
russia	-10.4688
great	-10.4688
ហ្គូ	-10.4689
ផ្សាយបន្តផ្ទាល់	-10.469
▁Cap	-10.469
ច្រើនបំផុត	-10.4696
ការបណ្តុះបណ្តាល	-10.47
▁Bay	-10.4701
ពាន	-10.4702
▁Royale	-10.4703
▁230	-10.4704
BI	-10.4709
តាំងពី	-10.471
បម្រុង	-10.4727
▁PowerShell	-10.4728
ព្យួរ	-10.4729
▁Exp	-10.473
stro	-10.473
សប្បាយរីករាយ	-10.473
▁TV	-10.4732
ច្ច	-10.4732
▁access	-10.4732
ប្រព្រឹត្ត	-10.4733
អាស្រ័យលើ	-10.4734
តូចៗ	-10.4738
ដដែល	-10.4744
▁190	-10.4747
បំណង	-10.475
ទូក	-10.4751
5.4	-10.4752
jet	-10.4757
វ៉េ	-10.4765
roll	-10.4765
8.5	-10.4767
▁អាំងឌុចទ័	-10.4769
ទទួលខុសត្រូវ	-10.4769
ឧបករណ៍ចាប់សញ្ញា	-10.4769
▁});	-10.4769
▁Polyester	-10.4769
▁Machine	-10.477
ស្រទាប់ឈីប	-10.4771
▁Dev	-10.4771
លើកកម្ពស់	-10.4771
▁sonication	-10.4771
="3.9	-10.4774
នីមួយៗ	-10.4784
នៅអឺរ៉ុប	-10.4784
ការបញ្ចុះតម្លៃ	-10.4796
បោះឆ្នោត	-10.4802
ផ្តោត	-10.4804
6.1	-10.4807
▁Europe	-10.4812
ព័រ	-10.4812
គ្មានដែនកំណត់	-10.4822
▁QR	-10.4823
ដំណឹង	-10.4824
▁Sok	-10.4824
ផ្លូវរថភ្លើង	-10.4828
សមាគម	-10.4828
ខាងលិច	-10.4832
▁CAP	-10.4833
inder	-10.4833
សូត្រ	-10.4834
Control	-10.4851
បូមទឹកបេតុង	-10.4851
180	-10.4854
IL	-10.4855
▁NO	-10.4861
▁បញ្ជីចាក់	-10.4868
good	-10.4869
ត្រូវបានគេប្រើ	-10.4871
="20	-10.4873
អត្ថប្រយោជន៍	-10.4873
បានបញ្ជាក់	-10.4884
គម្ពីរ	-10.4885
▁Server	-10.4887
▁IM	-10.4889
▁Hel	-10.4889
▁Deutsch	-10.4892
▁ប្រូកស៊ី	-10.4892
សំបកកង់	-10.4893
="2.8	-10.4896
GG	-10.4897
ious	-10.4898
ទុកចិត្ត	-10.4904
▁ឈ្មោះធាតុ	-10.491
not	-10.4913
PG	-10.4914
បានបង្កើត	-10.492
erson	-10.4923
បង្កើតឡើងដោយ	-10.4924
NS	-10.4933
អាទិភាព	-10.4933
\\	-10.4934
▁Casting	-10.4934
គិតថា	-10.4935
="0.2	-10.4935
non	-10.4936
អនុបណ្ឌិត	-10.4939
បង្កើតទំព័រ	-10.4943
right	-10.4954
ទទួលបានការ	-10.4956
host	-10.4974
days	-10.4974
▁Nepomuk	-10.4975
=3.5.1	-10.4975
▁Cauda	-10.4975
ជឿទុកចិត្ត	-10.4975
via	-10.4975
▁nylon	-10.4976
ផ្លែឈើ	-10.4976
="27	-10.4977
ប្រទេសអាល្លឺម៉ង់	-10.4979
ឈឺ	-10.4981
▁DNS	-10.4984
▁Hose	-10.4992
ami	-10.4996
▁Main	-10.5003
SN	-10.5007
តភ្ជាប់	-10.5014
hydro	-10.5016
មេកានិច	-10.5016
▁Health	-10.5016
ទុក្ខ	-10.5016
ប្រជាពលរដ្ឋ	-10.5017
ទ្រព្យ	-10.5017
▁when	-10.5018
▁HS	-10.5018
▁Hol	-10.5021
▁មកពីក្រុមហ៊ុន	-10.5022
ហើរ	-10.5023
-04-	-10.5053
cus	-10.5056
ខ្សែក្រវាត់	-10.5058
ត្នោត	-10.5058
ប៊្លូធូស	-10.5058
▁WysLuxury	-10.5058
▁0086-	-10.5059
បារម្ភ	-10.5059
បរិភោគអាហារ	-10.5059
ប្រកួតប្រជែង	-10.5062
យ៉ាងណា	-10.5062
2.00	-10.5063
110	-10.5073
កែប្រែចុងក្រោយ	-10.5075
rag	-10.5077
ល័	-10.508
ផ្សារដែក	-10.5085
IE	-10.5085
▁ការបញ្ជាក់	-10.5091
best	-10.5091
ទិដ្ឋភាព	-10.5096
ផ្ទៀងផ្ទាត់	-10.5098
ន្ធ	-10.5099
យកចិត្តទុកដាក់	-10.51
▁corrugated	-10.51
ភាពជាអ្នកដឹកនាំ	-10.51
▁មាត្រដ្ឋាន	-10.51
777	-10.5115
ថ្មីមួយ	-10.5122
▁Op	-10.5125
9.1	-10.5128
ជូ	-10.5131
កំពុងតែ	-10.5133
អង្គុយ	-10.5133
បណ្ណ	-10.5139
run	-10.5139
hp	-10.514
កម្ពស់	-10.514
អាជ្ញាធរ	-10.5142
ម៉ាឡេស៊ី	-10.5142
▁Building	-10.5142
="23	-10.5142
ការបង្រៀន	-10.5146
ហ៍	-10.5147
▁Shi	-10.5148
ប៉ូឡូញ	-10.5148
Game	-10.5151
▁ឈ្មោះសាសនាចក្រ	-10.5154
▁លើស	-10.5159
urt	-10.5159
ស្លាប	-10.5161
ជាផ្នែកមួយ	-10.5162
នារី	-10.5169
125	-10.5174
▁ទីកន្លែង	-10.5177
ដ៏ធំ	-10.5179
ថ្ងៃច័ន្ទ	-10.5185
បង្ក្រាប	-10.5185
ប្រណីត	-10.5185
ពិចារណា	-10.5185
UT	-10.5185
កែប្រែ	-10.5188
ម៉ូត	-10.5195
ទិវា	-10.5197
UM	-10.5209
រឺ	-10.5214
បុក	-10.5217
tai	-10.5218
och	-10.522
រលាក	-10.5222
oxy	-10.5222
ប៉ុស្តិ៍	-10.5226
និងតម្រូវការ	-10.5227
អវកាស	-10.5227
▁unicode	-10.5227
▁ASTM	-10.5227
script	-10.5228
▁ផ្ទៃដី	-10.5236
▁Star	-10.5236
▁តប	-10.5237
ការផ្តល់	-10.5241
ហាន	-10.5244
ហួ	-10.5246
▁Pan	-10.5246
cry	-10.5248
▁ព្រះបន្ទូល	-10.5249
▁Mat	-10.5251
room	-10.5251
▁Stra	-10.5252
ែប	-10.5259
អានបន្ថែម	-10.5259
ចូលទៅកាន់	-10.526
ធ្វើអោយ	-10.5261
ANG	-10.5265
oph	-10.5266
▁Jia	-10.5269
កាកសំណល់	-10.527
ទូរគមនាគមន៍	-10.527
លទ្ធភាព	-10.527
meroon	-10.527
Nathan	-10.5271
5.8	-10.5273
catid	-10.5273
▁RSS	-10.5276
ផលិតភាព	-10.528
▁Inter	-10.528
3.4	-10.5281
សៀ	-10.5285
ធើ	-10.5287
="3.0	-10.5291
COM	-10.5296
▁03:	-10.5299
០៤	-10.5303
▁យើងនឹង	-10.5304
សំរាម	-10.5308
ភាគល្អិត	-10.5313
▁stepper	-10.5313
ពើ	-10.5313
ដើម្បីបង្កើត	-10.5313
ការតស៊ូ	-10.5314
ក្នុងមួយខែ	-10.5316
▁ជួរឈរ	-10.5317
រុញ	-10.5318
▁បើអ្នក	-10.5324
ហែ	-10.5325
kW	-10.5337
/12/	-10.5349
5000	-10.5355
wysluxury	-10.5356
វីតាមីន	-10.5356
▁Rotary	-10.5356
វេជ្ជសាស្រ្ត	-10.5356
កំប្លែង	-10.5358
illa	-10.5358
ington	-10.5358
មនុស្សយន្ត	-10.5359
មានអារម្មណ៍ថា	-10.5361
ព្រះយេស៊ូវ	-10.5364
ការដាក់	-10.5366
▁PH	-10.5368
emi	-10.5385
OU	-10.5391
4.1	-10.5393
តំ	-10.5395
▁វិធាន	-10.5398
ប្រសិនបើអ្នក	-10.5399
ចំហៀង	-10.5399
▁Misslamode	-10.5399
▁ដែលត្រូវបាន	-10.5402
គត់	-10.5403
▁Tele	-10.5406
nna	-10.5415
▁2003	-10.5416
▁ត្រួត	-10.5425
▁Ass	-10.5441
ស្ថាបនិក	-10.5443
✔	-10.5443
▁សម្រាំង	-10.5443
high	-10.5446
▁Club	-10.5446
ក៏បាន	-10.5451
1,000	-10.5451
▁ផ្ទាំងរូបភាព	-10.5451
="29	-10.5453
1.4	-10.5454
ចំណាយពេល	-10.5458
ban	-10.5466
▁One	-10.5466
khmer	-10.5482
ស្តង់	-10.5483
well	-10.5484
បរិវេណ	-10.5486
ហានិភ័យ	-10.5486
ជាក់ស្តែង	-10.5486
▁Voltage	-10.5486
▁April	-10.5486
ផុតកំណត់	-10.5489
ចូលរៀន	-10.5491
▁inter	-10.5494
▁ឡើងទៅ	-10.5501
អត្តសញ្ញាណ	-10.5516
ដ្រាយ	-10.5517
vl	-10.5529
វាគ្មិន	-10.553
Itemid	-10.553
▁ដីទ្បូ	-10.553
	-10.553
▁CH	-10.5531
ថាស	-10.5532
▁Wells	-10.5534
▁Bur	-10.5541
ហ្វី	-10.5542
EE	-10.5543
soft	-10.5553
▁ទៅរថភ្លើង	-10.5555
រក្សាសិទ្ធ	-10.5555
▁Mc	-10.5559
រចនាប័ទ្ម	-10.5563
RU	-10.5564
តេជោ	-10.5574
▁Ceramic	-10.5574
▁បន្សំ	-10.5575
▁ស្តាំ	-10.5575
Type	-10.5576
បារី	-10.5577
ION	-10.5577
▁128	-10.5585
ស៊ុត	-10.5592
▁More	-10.5593
VAC	-10.5595
ដាក់ពាក្យ	-10.5611
លិខិត	-10.5612
សន្យា	-10.5618
ញូវយ៉ក	-10.5619
▁California	-10.5619
ការស្ទង់មតិ	-10.5619
វេជ្ជបណ្ឌិត	-10.5619
\\\\	-10.5619
▁share	-10.5623
ចង្	-10.5625
▁Off	-10.5627
ស៊ីន	-10.5628
▁Jack	-10.5632
you	-10.5633
bank	-10.5636
ច្រក	-10.5637
ហ្ក	-10.5647
▁Anti	-10.5654
ផ្លាស់ប្ដូរ	-10.5658
គោលនយោបាយ	-10.566
greece	-10.5663
តន្រ្តី	-10.5663
ឥរិយាបថ	-10.5663
ថ្មម៉ាប	-10.5663
▁SQL	-10.5663
met	-10.5664
▁Clash	-10.5666
ចំណី	-10.5666
ព្រះគម្ពីរ	-10.567
▁ទង់	-10.5673
▁Stand	-10.568
▁Job	-10.5681
▁ការវាយតម្លៃ	-10.5681
iver	-10.5683
ថ្ងៃឈប់សម្រាក	-10.5693
SO	-10.5694
aria	-10.5698
ឆ្នាំមុន	-10.5707
ត្រូវបានអនុវត្ត	-10.5712
olic	-10.5712
cle	-10.5726
រុករក	-10.5726
▁Mor	-10.5739
ដ៍	-10.574
ពីប្រទេសចិន	-10.5744
សហប្រតិបត្តិការ	-10.5751
ទៅដល់	-10.5751
បំណះ	-10.5753
វិស្វករ	-10.5753
កណ្តុរ	-10.5753
ប្លាស្មា	-10.5753
គំនូសតាង	-10.5753
▁Pocket	-10.5753
ទ្វេដង	-10.5754
="2.1	-10.5759
▁XML	-10.5762
▁find	-10.5767
មានចំនួន	-10.5771
▁Hat	-10.5772
ណាន	-10.5773
កន្លែងដែល	-10.5773
មិនចាំបាច់	-10.5782
មានសុពលភាព	-10.5782
យុ	-10.5786
ខ្ញុំចង់	-10.5788
គុណសម្បត្តិ	-10.5798
បុណ្យណូអែល	-10.5798
▁subjects	-10.5798
á	-10.5798
សញ្ញាបត្រ	-10.5798
▁National	-10.5798
▁peach	-10.5798
ចរាចរណ៍	-10.5798
គុ	-10.5798
ចាត់ទុក	-10.5799
–	-10.5804
put	-10.5807
lia	-10.5808
1.3	-10.5809
ការបោះឆ្នោត	-10.5811
▁Get	-10.5814
Class	-10.5817
115	-10.5822
▁អ្នកនៅទីនេះ	-10.5823
mrd	-10.5824
ហ្វីត	-10.5831
យ័	-10.5836
bio	-10.5843
3.6	-10.5843
▁ឆបគ្នាជាខ្មៅ	-10.5843
សារៈសំខាន់	-10.5843
នោម	-10.5843
ល្អប្រសើរជាងមុន	-10.5843
តំឡើង	-10.5845
Update	-10.5846
utter	-10.5852
▁Xin	-10.5862
លើកដំបូង	-10.5865
oul	-10.588
lb	-10.5883
កាតព្វកិច្ច	-10.5888
▁ឧបត្ថម្ភដោយ	-10.589
ម្ចាស់សៀវភៅ	-10.5891
hPlus	-10.5894
នៃទីក្រុង	-10.5897
របង	-10.5915
មេដឹកនាំ	-10.5919
មនុស្សពេញវ័យ	-10.5934
▁JavaScript	-10.5934
▁Green	-10.5935
រដូវកាល	-10.5935
▁Slot	-10.5947
0-2	-10.5951
▁West	-10.5954
បោះពុម្ពផ្សាយ	-10.5959
អ្	-10.596
ថ្មក្រានីត	-10.5962
BP	-10.5962
="3.8	-10.5972
ពិបាក	-10.598
មូលបត្រ	-10.598
លូតលាស់	-10.598
វត្ថុធាតុដើម	-10.598
▁number	-10.598
▁យ៉ូហាន	-10.598
▁North	-10.598
ម្ហូបអាហារ	-10.5981
proof	-10.5986
Work	-10.5987
ថ្លា	-10.5987
tag	-10.5994
hard	-10.5994
ដោយដៃ	-10.5997
▁Part	-10.6
ស៊ីវិល	-10.6007
3.0	-10.6011
ពុំ	-10.6013
ឌីស	-10.6013
ការស្រង់ចេញ	-10.6014
="1.9	-10.6017
គូរ	-10.602
កម្ចី	-10.6021
សរសៃ	-10.6023
មានភាពងាយស្រួល	-10.6023
="3.1	-10.6025
សំភារៈ	-10.6026
កន្សែង	-10.6026
លីនេអ៊ែរ	-10.6026
▁COVID	-10.6026
ប្រហោង	-10.6026
ស្លឹក	-10.6026
▁បរិបទ	-10.6026
▁BKK	-10.6026
▁សេចក្តីជូនដំណឹង	-10.6028
សត្វឆ្កែ	-10.6029
ពន្លឺព្រះអាទិត្យ	-10.6032
និយាយអំពី	-10.6033
Markets	-10.6033
▁Del	-10.6034
ក៏មាន	-10.6035
មានអារម្មណ៍	-10.6038
រដ្ឋសភា	-10.6042
៤៤	-10.6046
បានរៀបចំ	-10.6046
ប៊ើ	-10.6048
▁ទូរស័ព្ទលេខ	-10.6048
ខ្ពស់បំផុត	-10.6048
គ្រីស្ទ	-10.605
អំពើ	-10.6053
ការចុះឈ្មោះ	-10.6056
▁Chen	-10.6056
ដើម្បីជួយ	-10.6061
▁CAS	-10.6065
▁Gallery	-10.6072
ខួង	-10.6072
វគ្គបណ្តុះបណ្តាល	-10.6073
▁SMS	-10.6077
ទាំងអស់គ្នា	-10.6084
4.8	-10.6086
▁ទុកឱ្យ	-10.6095
{	-10.6103
▁Tan	-10.6103
ផ្ត	-10.6103
ព័ត៌មានលម្អិត	-10.6106
ប្រកួត	-10.6106
OK	-10.6106
បញ្ចូលគ្នា	-10.6108
▁ទំហំដី	-10.6111
▁86-5	-10.6111
រក្សាសិទ្ធិ	-10.6112
ខ្សោយ	-10.6119
សរីរាង្គ	-10.6119
ភួយ	-10.6119
▁Changzhou	-10.6119
▁ទំនាក់	-10.6121
បន្ទុក	-10.6121
HR	-10.6125
GI	-10.6129
ឡើងទៅ	-10.6129
Sales	-10.6138
▁Site	-10.6144
ឃ្លាំង	-10.6153
ផ្គូផ្គង	-10.6153
ទុយោ	-10.616
បញ្ញើ	-10.6162
ជម្រុញ	-10.6165
រសៀល	-10.6165
ipp	-10.6168
Nm	-10.6169
ធានាថា	-10.6171
អើ	-10.618
៥០០	-10.6185
china	-10.6191
អូឌីយ៉ូ	-10.6204
ឡង់	-10.6207
▁សម្	-10.6208
លេខសម្គាល់	-10.621
តម្លាភាព	-10.6212
បង្គោល	-10.6212
យ៉ាងឆាប់រហ័ស	-10.6212
ស៊ុយអែត	-10.6212
▁Michael	-10.6212
ចៅ	-10.6212
បឋម	-10.6213
អាហ្វ្រិក	-10.6231
ម៉ាស់	-10.6233
▁Kmail	-10.6244
▁Line	-10.6247
pad	-10.6255
ឆ្កែ	-10.6258
អាសន្ន	-10.6259
ចំនុច	-10.626
អធិស្ឋាន	-10.626
អបអរសាទរ	-10.626
បង្ខំ	-10.626
video	-10.626
អាចត្រូវបានប្ដូរ	-10.6261
▁អង្សាសេ	-10.6268
ites	-10.6268
,000,000	-10.6277
អាល់	-10.6284
6.2	-10.6296
យើងអាច	-10.6296
▁Wing	-10.6297
សេះ	-10.6298
គឺអាចរកបាន	-10.63
▁Qt	-10.6301
កាតា	-10.6304
គ្រីស្តាល់	-10.6307
បរិញ្ញាបត្រ	-10.6307
ស្លៀកពាក់	-10.6307
តុក្កតា	-10.6307
អំណរ	-10.6307
▁រវល់	-10.6307
ការយល់ដឹង	-10.6307
="2.2	-10.6307
កែលម្អ	-10.6309
▁Saint	-10.6311
ទីលាន	-10.6316
▁Post	-10.6318
FR	-10.6329
▁Hua	-10.6332
ធ្វើតេស្ត	-10.6339
៥៦	-10.6345
៛	-10.6355
វិជ្ជា	-10.6355
គ្រូពេទ្យ	-10.6355
ប្លាស្ទិក	-10.6357
izer	-10.6357
លោកស្រី	-10.6359
សមស្រប	-10.6363
ចុះក្រោម	-10.6364
="2.0	-10.6364
ពេលដែល	-10.6366
ello	-10.6371
អសកម្ម	-10.6373
▁const	-10.638
មានឥទ្ធិពល	-10.6386
▁ការជូន	-10.6389
▁ឈ្មោះផលិតផល	-10.6396
▁ផ្តើ	-10.6397
បញ្ចុះ	-10.6401
ភាពជាដៃគូ	-10.6402
ស្រមោល	-10.6402
▁កុម្ភះ	-10.6402
អន្តោប្រវេសន៍	-10.6402
▁ច្ចេ	-10.6403
▁SARS	-10.6403
▁អនុសាសន៍	-10.6403
ស្លត	-10.6403
៊ី	-10.6405
ខ្ទង់	-10.6407
របួស	-10.6407
="1.7	-10.6422
1.00	-10.6424
▁Data	-10.6425
8.3	-10.6432
house	-10.6433
▁450	-10.6436
="4.0	-10.6442
ស្កូ	-10.6442
▁PRO	-10.6445
OW	-10.6447
ឃី	-10.6448
បរិភោគ	-10.6449
រមណីយដ្ឋាន	-10.645
វប្បធម៍	-10.645
ប្រគល់	-10.645
▁មហាវិថី	-10.6451
▁August	-10.6451
នៅសល់	-10.6452
ពិធីបុណ្យ	-10.6453
▁Wei	-10.6453
បានឃើញ	-10.6459
ប្រសើរ	-10.646
▁Art	-10.6463
llen	-10.6463
▁Mate	-10.6464
tation	-10.6464
ស្ដាប់	-10.6467
▁dn	-10.6469
សុី	-10.647
ធីក	-10.6476
៊ិន	-10.6487
បាល	-10.6488
បាយ	-10.6491
បញ្ចប់ការសិក្សា	-10.6496
រដូវ	-10.6497
FE	-10.6498
ខ្សែអក្សរពន្លឺ	-10.6499
▁countertop	-10.6499
▁អាទិត្យ	-10.6499
អេហ្វ	-10.6499
ខោនធី	-10.6499
▁ម៉ាថាយ	-10.6499
▁Adobe	-10.6499
គ្រប់ប្រភេទ	-10.65
▁Brand	-10.651
ធូ	-10.6512
/08/	-10.6525
tis	-10.6525
-2017	-10.653
trip	-10.6538
មេរៀន	-10.6543
ធ្វើពាណិជ្ជកម្ម	-10.6544
л	-10.6547
បេសកកម្ម	-10.6547
ល្បីល្បាញ	-10.6547
ត្រូវបានធ្វើឡើង	-10.6549
1.9	-10.655
ពេ	-10.655
0-3	-10.655
ប៉ាតង់	-10.6552
▁Char	-10.6553
="1.8	-10.6559
▁Day	-10.6567
បដិសេធ	-10.6567
8.0	-10.6571
៩០	-10.6574
មេដែក	-10.6575
រោង	-10.6576
ស្វ័យប្រវត្តិ	-10.6582
855	-10.6591
ឆ្អឹង	-10.6596
ចំណេះដឹង	-10.6596
ស្រទាប់ពហុជីប	-10.6596
ក្រីក្រ	-10.6596
ដាប់	-10.6598
ខែធ្នូ	-10.6603
ស៊ីឌី	-10.6606
រ៉ុក	-10.6614
ញ្ញ	-10.6615
▁inside	-10.6615
សំណាក	-10.6623
៨០	-10.6624
ឋ	-10.6626
▁Coil	-10.6626
នៅទូទាំងពិភពលោក	-10.6629
បានសរសេរ	-10.6631
បន្ទាប់មក	-10.6633
យន្តការ	-10.664
ទឹកជំនន់	-10.6645
▁Ontario	-10.6645
▁{@}	-10.6645
សាស្រ្តាចារ្យ	-10.6645
▁ដដែលៗ	-10.6645
▁Speed	-10.6645
ទំនុក	-10.6646
▁ចំនួនមើល	-10.665
ឌិន	-10.6652
អេសអេស	-10.6654
ជាមធ្យម	-10.6655
ប្រទេសរុស្ស៊ី	-10.6655
▁UK	-10.6667
link	-10.6668
▁exp	-10.6668
aker	-10.6675
hack	-10.6675
ល្អប្រសើរ	-10.6676
ការចូលរួម	-10.6679
ជារៀងរាល់ថ្ងៃ	-10.668
▁ឬច្រើន	-10.6682
▁Geo	-10.6684
="3.2	-10.6692
ជាម្ចាស់	-10.6694
នីតិវិធី	-10.6694
បញ្ច្រាស	-10.6694
តួកគី	-10.6694
▁គ្រោងការណ៍	-10.6694
វឌ្ឍន	-10.6695
ស្ទើរតែ	-10.6696
▁ក្ដារចុច	-10.6696
▁2.4	-10.6697
▁ក្រាមប្រាក់	-10.67
អ្នកដំណើរ	-10.6701
ប្រាក់ចំណូល	-10.671
ទូទាំងពិភពលោក	-10.6716
bug	-10.6719
អរគុណ	-10.6719
ដ្ឋ	-10.6719
▁ATM	-10.6722
បានធ្វើឱ្យ	-10.6732
សម្ភារ	-10.6742
ហែលទឹក	-10.6744
national	-10.6744
download	-10.6744
cross	-10.6745
ធ្វើជា	-10.6746
កថា	-10.6757
▁see	-10.6758
ប្រទេសជប៉ុន	-10.6758
ចំណាំ	-10.676
6.3	-10.6767
/2017	-10.6769
▁sc	-10.6777
គោលការណ៍	-10.678
ហើយបន្ទាប់មក	-10.6783
exacthacks	-10.6794
មានលក្ខណៈ	-10.6794
ដង្ហើម	-10.6794
▁Foundation	-10.6794
▁MIME	-10.6794
▁កម្រង	-10.6794
ectures	-10.6795
ផឹក	-10.6801
Phone	-10.6801
▁ឆ្នាំ២០១៩	-10.6801
ធ្វើឱ្យប្រសើរឡើង	-10.681
ផេ	-10.6812
="1.4	-10.6814
FX	-10.6818
១៨	-10.682
មួយឆ្នាំ	-10.682
សភាគ	-10.6822
▁Out	-10.6827
▁ប្តូ	-10.683
="22	-10.6831
elle	-10.6833
New	-10.6834
ជៀសវាង	-10.6844
សង្គ្រាម	-10.6844
▁Sihanoukville	-10.6844
▁សាំយូអែល	-10.6844
អំបិល	-10.6844
uf	-10.6844
▁IMAP	-10.6845
លែន	-10.6847
ht	-10.6847
TL	-10.6848
ford	-10.6849
="2.7	-10.685
hine	-10.6852
▁សំឡេងទីក្រុង	-10.6856
ត្រូវធ្វើ	-10.6857
huang	-10.6859
ika	-10.6881
រ៉ុ	-10.6882
ផ្គត់ផ្គង់ថាមពល	-10.6883
ជម្រះ	-10.6889
យានយន្ត	-10.6894
▁Putzmeister	-10.6894
ប្រេស៊ីល	-10.6894
ផ្អែម	-10.6894
មានផ្ទៃពោះ	-10.6894
រថក្រោះ	-10.6894
ស្រូបយក	-10.6894
អនុលោម	-10.6894
▁Pantone	-10.6894
insight	-10.6894
▁stitch	-10.6894
BWC	-10.6895
បណ្តាប្រទេស	-10.6896
ethyl	-10.6897
សូមមើល	-10.6899
direct	-10.6902
▁Blu	-10.6909
ព្វ	-10.6919
ក្រឡា	-10.6924
3.8	-10.6931
ហ៊ុន	-10.6933
ចម្ងាយ	-10.6934
cycl	-10.6941
អឺរ៉ូ	-10.6942
ទ្វីប	-10.6944
សក្តានុពល	-10.6944
▁Bearing	-10.6944
ا	-10.6945
កម្រាល	-10.6945
រាជរដ្ឋាភិបាល	-10.6947
▁ផលិតផលដាក់ស្លាក	-10.6951
ខ្សែក្រវ៉ាត់	-10.6951
លំបាក	-10.6956
ការឆ្លើយតប	-10.6958
ution	-10.6958
ហៃ	-10.696
អតិ	-10.6966
៏	-10.6967
អាចប្រើ	-10.698
kar	-10.6987
ត្រចៀក	-10.6995
រកដាសកាតុង	-10.6995
▁laminate	-10.6995
ខ្ញុំគិតថា	-10.6995
EB	-10.6997
grad	-10.7
▁សុក្រ	-10.7
▁សំណួរណាមួយ	-10.7001
បាក់	-10.7004
ហ្សេ	-10.7004
អ្នកផលិត	-10.7004
ខោ	-10.7009
នៅពេលដែលអ្នក	-10.701
ការផ្សព្វផ្សាយ	-10.7014
ប្រពន្ធ	-10.7022
២៤	-10.7029
្រូ	-10.7029
▁គ្រង	-10.7037
សង្ឃឹម	-10.7041
ស្តារ	-10.7042
zerbaijan	-10.7046
FT	-10.7046
▁White	-10.7046
ENT	-10.7048
កុំព្យូទ័រយួរដៃ	-10.705
▁លេខទូរស័ព្ទ	-10.705
FO	-10.7053
ៀរ	-10.7053
▁EX	-10.7061
ធំជាង	-10.7064
ដែលទាក់ទង	-10.7066
បត់	-10.7066
ហ្សូ	-10.7069
ហោ	-10.7072
ឡាក់	-10.7082
ស្តីពីការ	-10.7084
បានក្លាយជា	-10.7084
▁ការបង្កើត	-10.7087
ដែលកំពុង	-10.709
7.1	-10.7091
ការប្រកួតប្រជែង	-10.7096
vietnam	-10.7097
កម្លាំងបង្វិលជុំ	-10.7097
ដីធ្លី	-10.7097
ហ្វ្រាំង	-10.7097
▁Kopete	-10.7097
▁Bas	-10.7098
="3.7	-10.7099
="2.6	-10.7101
money	-10.7104
ការកាត់បន្ថយ	-10.7107
យូដា	-10.711
▁Blue	-10.7116
សិទ្ធិមនុស្ស	-10.7117
235	-10.7119
សន្ទះបិទបើក	-10.7121
="1.2	-10.7123
7.0	-10.7126
▁អត្ថបទមុន	-10.7127
ភ្លាម	-10.7147
▁ស្រង់	-10.7148
ចូវ	-10.7148
៨៨	-10.7149
▁Ministry	-10.7149
▁Rikoooo	-10.7149
ស្តើង	-10.7149
សម្ភាសន៍	-10.7149
ព្យាករណ៍	-10.715
បានចូលរួម	-10.7153
នោះគឺ	-10.7154
បញ្	-10.7156
នៅទូទាំង	-10.7161
អ្វីគ្រប់យ៉ាង	-10.7168
▁Ol	-10.7173
ជាញឹកញាប់	-10.7175
បើយោងតាម	-10.7175
-02-	-10.7176
4.4	-10.7177
ហោះ	-10.7182
rico	-10.7185
ទីក្រុងប៉ារីស	-10.719
ព្យ	-10.7193
Private	-10.7201
ឥណ្ឌូនេស៊ី	-10.7201
ខ្ចី	-10.7201
លួច	-10.7201
▁keyword	-10.7203
ស្ថិតនៅក្នុង	-10.7205
BB	-10.7207
▁sonic	-10.7208
abel	-10.7213
="4.8	-10.7214
ចុងបញ្ចប់	-10.7221
បុរី	-10.7225
ប្រទេសអ៊ីតាលី	-10.724
9.4	-10.7245
▁Card	-10.7246
gsm	-10.7246
ដទៃ	-10.7252
សន្និបាត	-10.7253
សរសើរ	-10.7253
‘	-10.7253
å	-10.7253
▁កុងសូល	-10.7253
ក្រចក	-10.7253
▁November	-10.7253
JPY	-10.7253
▁សំឡេងរោទិ៍	-10.7254
lysis	-10.7254
▁drip	-10.7256
Info	-10.7271
▁មេតា	-10.7272
▁(4)	-10.7273
GMT	-10.7274
ផ្ដាច់	-10.7276
8000	-10.7276
អាល់ប៊ុម	-10.7277
សាន់	-10.7279
why	-10.7279
▁conf	-10.7291
នៅក្នុងតំបន់	-10.7296
គ្រឹះ	-10.7305
francais	-10.7305
ឆ្នើម	-10.7305
▁departments	-10.7305
▁អាប់ភ្លេត	-10.7305
កំណត់ហេតុបណ្ដាញ	-10.7305
សាច់ដុំ	-10.7306
with	-10.7307
mag	-10.731
chan	-10.7312
ដែលត្រូវបានគេ	-10.7313
▁ផ្នែកទន់	-10.7315
▁blo	-10.7318
និងសេវាកម្ម	-10.732
ពុល	-10.7322
ចាប់តាំងពី	-10.7322
ខាងក្រោយ	-10.7326
នាំយក	-10.7327
ទាញ	-10.7329
7.4	-10.7344
ហ្វីលីពីន	-10.7358
▁Express	-10.7359
▁edfa	-10.736
▁ងារ	-10.736
▁sur	-10.7363
▁2002	-10.7363
▁Bio	-10.7363
▁Fiber	-10.7371
wall	-10.7373
="1.3	-10.7385
មួយទៀត	-10.7389
«	-10.739
ចម្លើយ	-10.7392
អ្នកជំងឺ	-10.7406
ដោយគ្មានការ	-10.7409
ប្រាំពីរ	-10.741
▁ព្រម	-10.741
ស្ទូឌីយោ	-10.7411
›	-10.7411
▁alloy	-10.7411
វិចិត្រសាល	-10.7411
▁Korea	-10.7416
111	-10.7418
កន្លងទៅ	-10.7426
▁ប្រអប់ខាង	-10.743
ique	-10.7431
បានទេ	-10.7438
បញ្ជាទិញ	-10.7439
▁Land	-10.744
Hub	-10.7442
អ្នកនិពន្ធ	-10.7449
មនុស្សជាច្រើន	-10.7457
я	-10.7464
ស្ថាបត្យកម្ម	-10.7464
▁Kawasaki	-10.7464
កាំភ្លើង	-10.7464
casino	-10.7464
ified	-10.7465
▁រាល់ការណ៍	-10.7466
▁CBD	-10.7467
▁TCN	-10.7468
ការផ្ទុក	-10.7475
ងូតទឹក	-10.7475
▁Uber	-10.7481
ក្រោមដី	-10.7496
ព្រមាន	-10.7498
▁Spec	-10.7506
ជំនួញ	-10.7506
ស្បែកជើង	-10.7512
ការហោះហើរ	-10.7514
ដែលទទួលបាន	-10.7514
ទ្រព្យសម្បត្តិ	-10.7517
Institut	-10.7517
ខេមបូឌា	-10.7517
រីកចម្រើន	-10.7517
▁Inverter	-10.7517
▁korganizer	-10.7517
▁sonotrode	-10.7517
ប្រឈម	-10.7518
system	-10.7518
គ្រឹះស្ថាន	-10.7518
មិនគិតថ្លៃ	-10.7522
▁Metro	-10.7522
ធ័រ	-10.7522
ខណៈ	-10.7523
ត្រូវបានកំណត់	-10.7524
អ៊ិនធឺណិត	-10.7527
អាចត្រូវបានប្រើ	-10.7529
ច្បាប់ចម្លង	-10.753
▁nano	-10.7534
▁Spin	-10.7535
ប្រសិនបើអ្នកចង់	-10.7548
▁សូមចុច	-10.755
▁ក្លាយ	-10.7552
cture	-10.7554
២០១១	-10.7554
ពន្យារ	-10.7557
រិយា	-10.757
ឃ្លាំមើល	-10.7571
ចងក្រង	-10.7571
ប្រដាប់ក្មេងលេង	-10.7571
មេធាវី	-10.7571
វិក័យប័ត្រ	-10.7571
▁យោបល់ឬពិនិត្យ	-10.7571
ទីស្តីការ	-10.7571
អានុភាព	-10.7571
គំរោង	-10.7572
វិនិយោគិន	-10.7576
track	-10.7579
▁ក្រុមការងារ	-10.758
ដេញ	-10.7584
ស្លាយ	-10.7585
ខាងឆ្វេង	-10.7587
9.0	-10.7587
នៅក្បែរ	-10.7588
="1.5	-10.7591
ប្រឆាំងនឹងការ	-10.76
ប៉ូលីស	-10.7604
▁Aug	-10.7609
▁និមិត្ត	-10.7616
ស្លាកសញ្ញា	-10.7624
នាពេលបច្ចុប្បន្ន	-10.7625
កោះរ៉ុង	-10.7625
ទឹកដោះគោ	-10.7625
ទូរទឹកកក	-10.7625
▁ballpoint	-10.7625
▁ស៊ីភីយូ	-10.7625
▁វាក្យ	-10.7625
▁FIFA	-10.7625
▁France	-10.7625
▁ខូគី	-10.7625
flu	-10.7629
ប្រាក់កម្ចី	-10.7631
លុបចោល	-10.7639
▁1.8	-10.7644
សុន	-10.7647
▁does	-10.7651
វិជ្ជមាន	-10.7656
KN	-10.7657
ប្អូន	-10.7679
កំពង់	-10.7679
ថូខឹន	-10.768
កុងតឺន័រ	-10.768
▁Blackjack	-10.768
▁វចនានុក្រម	-10.768
▁Russia	-10.768
▁៨៨១	-10.768
▁សមមូល	-10.7682
="2.4	-10.7683
irt	-10.7686
ប៊ីត	-10.7698
="1.6	-10.7703
▁ប្រើថ្ងៃនេះ	-10.7707
Text	-10.7708
ដកប្រាក់	-10.7718
ប៉ូលី	-10.7722
▁Die	-10.7734
ថយក្រោយ	-10.7734
រំភើប	-10.7734
▁official	-10.7734
ចំហាយ	-10.7734
គណៈកម្មការ	-10.7734
អ្នករាល់គ្នា	-10.7735
▁Angel	-10.7736
▁Iphone	-10.7748
8.00	-10.7748
អោ	-10.7752
2.9	-10.7757
market	-10.7764
▁Rent	-10.7765
បានដាក់ស្លាក	-10.7766
▁Cash	-10.7772
ទៅមុខ	-10.7774
ត្រូវបានរចនាឡើង	-10.778
កម្រ	-10.778
សម្ប	-10.7786
ក្របខ័ណ្ឌ	-10.7789
▁which	-10.7789
អាស៊ាន	-10.7789
forex	-10.779
▁short	-10.779
▁Contactor	-10.7793
▁ផែនទីគេហទំព័រ	-10.7795
▁70%	-10.7795
ផ្តោតលើ	-10.7796
▁ផលិតផលលម្អិត	-10.7805
▁Dj	-10.7807
ទឹកថ្នាំ	-10.781
៣៨	-10.781
▁Xbox	-10.7812
8.6	-10.7813
ការប្រឡង	-10.7819
អាប់	-10.7821
ដាក់ស្លាក	-10.7827
ក្នុងពេល	-10.7833
គ្រប់គ្រងលើ	-10.7834
អ្នកចូលរួម	-10.7836
▁Hand	-10.7838
សំណង	-10.7843
ជំរាបសួរ	-10.7844
ថ្ងៃព្រហស្បតិ៍	-10.7844
រៀបការ	-10.7844
ស្វ៊ីស	-10.7844
▁modified	-10.7844
▁កក្តដា	-10.7844
សង្កេត	-10.7844
▁Youtube	-10.7844
តែងតាំង	-10.7845
គណៈរដ្ឋមន្រ្តី	-10.7845
ជជែកកំសាន្ត	-10.7846
សហភាព	-10.7858
សង់ទីម៉ែត្រ	-10.786
ឯកឧត្តម	-10.786
ម្ជុល	-10.786
▁eur	-10.7871
▁ចុចលើ	-10.7875
មានប្រយោជន៍	-10.7879
▁ចិនទីក្រុង	-10.7881
ប្រទេសបារាំង	-10.7886
TW	-10.7887
7.00	-10.7889
dec	-10.789
៩៨	-10.7891
ប្រជា	-10.7892
អាកាសយានដ្ឋាន	-10.79
ក្រិតតាមខ្នាត	-10.79
សហគ្រិន	-10.79
ហេដ្ឋារចនាសម្ព័ន	-10.79
ឯកសណ្ឋាន	-10.79
▁(+855)	-10.79
▁Kontact	-10.79
▁រំលង	-10.79
កងទ័ព	-10.79
▁Crimea	-10.79
គ្រប់ទីកន្លែង	-10.79
▁CFD	-10.7901
សម្បូរ	-10.7901
▁Qi	-10.7902
នៅតំបន់	-10.7902
▁Cheung	-10.7902
ភ្លោះ	-10.7902
Step	-10.7902
EF	-10.7903
olding	-10.7903
នឹងទទួលបាន	-10.7904
▁២០២០	-10.7907
នៅលើពិភពលោក	-10.7907
9.2	-10.7908
▁ស្រាប់	-10.7915
8.4	-10.792
ature	-10.7923
▁HTC	-10.7932
▁Kak	-10.7939
ទាល់	-10.7939
ភ្ញាក់ផ្អើល	-10.7956
មហោស្រព	-10.7956
▁Gibbs	-10.7956
▁between	-10.7956
μ	-10.7956
ផ្គុំ	-10.7956
រង្វាស់	-10.7956
base	-10.7956
▁យើងអាច	-10.7959
ក្លិន	-10.7959
យ៉ាងលឿន	-10.7965
ហាងលក់	-10.7966
live	-10.7969
▁LLC	-10.7972
▁How	-10.7972
បន្តផ្ទាល់	-10.7974
សំរាប់លក់	-10.7983
វិហារ	-10.8001
ហ្ស៊	-10.8003
sky	-10.8005
គ្រាន់តែជា	-10.8012
▁Zhong	-10.8012
ស្ម័គ្រចិត្ត	-10.8012
▁ច័ន្ទ	-10.8012
繁體	-10.8012
▁បឋមកថា	-10.8012
ហ៊ូ	-10.8012
▁Azure	-10.8012
▁Cloud	-10.8012
▁AVX	-10.8012
ក្នុងទីក្រុង	-10.8014
បង្កើតឡើងនៅក្នុង	-10.8017
ភាពងាយស្រួល	-10.8021
▁Games	-10.8023
▁Night	-10.8036
អាចជួយ	-10.8036
7.3	-10.8037
នៅសាកលវិទ្យាល័យ	-10.8045
អាំង	-10.8059
cover	-10.8063
ផ្តាច់	-10.8067
វិចិត្រ	-10.8068
បណ្តោះអាសន្ន	-10.8069
▁America	-10.8069
▁Boeung	-10.8069
បម្រុងទុក	-10.807
អ្វីៗ	-10.8071
CDC	-10.8072
ផ្សារទំនើប	-10.8073
ឆៅ	-10.8073
រួចរាល់	-10.808
IU	-10.8091
232	-10.8096
កម្មវិធីរុករក	-10.81
ភាពធន់ទ្រាំ	-10.8101
បញ្ឈរ	-10.8105
គួ	-10.8108
សាំង	-10.8119
កាំបិត	-10.8125
▁Akonadi	-10.8125
អនាម័យ	-10.8125
អ៊ីស្តង់ប៊ុល	-10.8125
ម្នន	-10.8126
ឆូត	-10.8127
ព្រីន	-10.8127
610	-10.8129
png	-10.8142
មកវិញ	-10.8154
▁ចំណាត់	-10.8155
នគរ	-10.8157
ទាត់	-10.8181
ថាតើ	-10.8182
к	-10.8183
ពេត្រុស	-10.8183
ស្នេហ៍	-10.8183
▁Cryptocurrency	-10.8183
យោធា	-10.8183
▁TCDD	-10.8183
ថ្ងៃចន្ទ	-10.8183
វិសាលភាព	-10.8183
ស្ងាត់	-10.8183
ចោទប្រកាន់	-10.8183
control	-10.8183
លាងសម្អាត	-10.8183
▁Materials	-10.8193
FP	-10.8194
០៥	-10.8195
▁India	-10.8198
ហួស	-10.82
TB	-10.8205
ណ័	-10.8206
ដ៏ល្អ	-10.8207
eats	-10.8214
ការច្នៃប្រឌិត	-10.8216
9.9	-10.822
បានកំណត់	-10.8221
អស់រយៈពេល	-10.8223
ទទួលបានជោគជ័យ	-10.8228
▁Back	-10.8232
មន្រ្តី	-10.8232
kov	-10.824
កំណាព្យ	-10.824
▁spindle	-10.824
▁radio	-10.824
សូន្យ	-10.824
▁Design	-10.824
▁ខួបលើកទី	-10.824
សៀរៀល	-10.824
ឥដ្ឋ	-10.8241
ឆ្នេរសមុទ្រ	-10.8242
បន្ទាប់ពីថ្ងៃ	-10.8266
សម្រាប់កុមារ	-10.8268
្យូ	-10.828
▁God	-10.8287
▁Piece	-10.8289
▁Tool	-10.829
LAN	-10.8291
▁trans	-10.8294
៧០	-10.8296
គណនេយ្យ	-10.8298
លោហធាតុ	-10.8298
▁Bophana	-10.8298
▁Excel	-10.8298
▁britain	-10.8298
talonia	-10.8298
▁VOA	-10.8298
យុទ្ធសាស្ត្រ	-10.8298
សូមស្វាគមន៍នៅ	-10.8299
ទ្រុង	-10.8301
ហ្សែន	-10.8301
▁2500	-10.8302
▁Water	-10.8303
សេរីភាព	-10.8308
▁1,5	-10.8312
ទះ	-10.8314
▁used	-10.8314
ក្រុងព្រះសីហនុ	-10.8318
លើកឡើង	-10.8324
Tag	-10.833
យ៉ាងល្អ	-10.8335
="4.9	-10.834
ានុ	-10.8348
ខែមករា	-10.8352
в	-10.8356
រីករាលដាល	-10.8356
▁ខោរឹប	-10.8356
▁Nokia	-10.8356
▁forging	-10.8356
អាចទទួលយកបាន	-10.8357
load	-10.8358
សិប	-10.8362
6.8	-10.8362
ព្រះរាជ	-10.8364
▁gear	-10.8365
Pieces	-10.8365
ការប្រណាំង	-10.8366
ផ្លូវភេទ	-10.8372
▁date	-10.8375
▁GBP	-10.8377
ember	-10.8386
ដែលបានកំណត់	-10.8391
ក្បែរ	-10.8396
▁Flex	-10.8398
ផ្សាយពាណិជ្ជកម្ម	-10.8399
▁Chip	-10.8405
ខែកញ្ញា	-10.8405
▁ទោះជាយ៉ាងណា	-10.841
ក្រាហ្វិក	-10.8412
EST	-10.8414
▁Tea	-10.8414
ម្តាយ	-10.8414
▁SlotJar	-10.8414
ស្មោះត្រង់	-10.8414
អុកស៊ីសែន	-10.8414
ទីក្រុងឡុងដ៍	-10.8414
បាក់តេរី	-10.8414
អឹម	-10.8416
ជនបទ	-10.8419
ភាគខាងត្បូង	-10.8419
សង្ឃឹមថា	-10.8421
▁make	-10.8421
សម្រស់	-10.8422
ក្នុងផ្ទះ	-10.8423
៣២	-10.8424
olone	-10.8426
ដំណើរទស្សនកិច្ច	-10.8428
សាំ	-10.8429
3.2	-10.8431
▁Chang	-10.8437
cks	-10.8447
▁March	-10.8454
តូចមួយ	-10.8457
ម៉ាត់	-10.8457
អ័រ	-10.8458
ចំណត	-10.846
▁Rock	-10.8465
បានអនុម័ត	-10.8468
ោយ	-10.8469
សុខាភិបាល	-10.8473
▁Axiata	-10.8473
កត់ត្រា	-10.8473
ម៉ាស៊ូត	-10.8473
វាយនភ័ណ្ឌ	-10.8473
▁cutters	-10.8473
▁Nylon	-10.8473
▁ductile	-10.8473
turkey	-10.8474
គូប	-10.8475
ជាតិខ្លាញ់	-10.8476
wood	-10.8478
ដែលដឹកនាំដោយ	-10.848
្ឋ	-10.8491
="3.5	-10.8493
▁=”	-10.8494
មែនទេ	-10.85
2.6	-10.85
ប្រយោជន៍	-10.8503
201	-10.8506
ឹប	-10.8528
▁Copyright	-10.8532
▁លើសពីនេះទៀត	-10.8532
ស្រាបៀរ	-10.8532
សន្ទនា	-10.8532
▁Study	-10.8532
▁Italy	-10.8533
ccess	-10.8534
▁កាលវិភាគ	-10.8536
ាញ់	-10.8543
ជាប្រធាន	-10.855
សើម	-10.8551
ចាញ់	-10.8557
ប្រជាប្រិយ	-10.8562
INE	-10.8563
គ្រឿងអលង្ការ	-10.8563
▁1/2	-10.8565
ផែ	-10.8566
▁Blog	-10.8579
ប័ត្រ	-10.8582
ឃាត	-10.8582
ហុង	-10.8588
zambia	-10.8592
í	-10.8592
តៃវ៉ាន់	-10.8592
រំលោភ	-10.8592
សំណព្វ	-10.8592
▁Karnar	-10.8592
▁Sathapana	-10.8592
▁RFID	-10.8592
▁ព្រីនធឺ	-10.8592
2005-2018	-10.8592
▁MacBook	-10.8594
កម្រៃ	-10.8594
រំលាយ	-10.8595
២០១៩	-10.86
="2.5	-10.86
កែសម្រួល	-10.8608
សម្បទា	-10.8612
បានជួប	-10.8617
▁KTM	-10.8617
▁ករណីថ្ម	-10.862
វ៉ាល់	-10.8628
ក្រៅប្រទេស	-10.8629
សមតុល្យ	-10.8633
▁HTTP	-10.8637
អាចទទួលបាន	-10.8643
ដែលមិនមែនជា	-10.8646
វិបសាយ	-10.8649
កាតូលិក	-10.8651
សិប្បកម្ម	-10.8652
ពុទ្ធ	-10.8652
▁Firefox	-10.8652
▁Pongee	-10.8652
▁Teflon	-10.8652
desktop	-10.8652
spain	-10.8653
កូរ៉េខាងត្បូង	-10.8653
▁Charles	-10.8653
ពណ៌ខ្មៅ	-10.8654
អ្នកនឹងទទួលបាន	-10.8655
គេស្គាល់ថា	-10.8658
GHz	-10.8672
ទៀងទាត់	-10.8673
ogen	-10.8677
▁ជ្រើសជម្រើស	-10.8689
▁Fort	-10.8695
▁2.2	-10.8695
produc	-10.8703
អាឡឺម៉ង់	-10.8712
▁OpenPGP	-10.8712
▁Việt	-10.8712
សតវត្ស	-10.8712
▁Spain	-10.8712
គិតថ្លៃ	-10.8715
ម៉ង់	-10.8715
ART	-10.8719
1-3	-10.8725
ដុង	-10.8725
▁Sany	-10.8725
6.4	-10.8726
ដើម្បីមើល	-10.8727
ព្រោះ	-10.8732
ផ្សេង	-10.8733
▁Villa	-10.8736
~	-10.8738
Power	-10.8738
ambo	-10.8742
▁Case	-10.8763
ជណ្តើរ	-10.8773
У	-10.8773
▁welded	-10.8773
【	-10.8773
បន្ទះឈីប	-10.8773
power	-10.8774
ប៉ែន	-10.8775
ភាគខាងជើង	-10.8779
1-2	-10.8783
106	-10.8783
paper	-10.8788
នៅប្រទេសចិន	-10.8789
It	-10.8792
ក្នុងមួយឆ្នាំ	-10.8796
▁JIS	-10.8797
IO	-10.8799
▁ABS	-10.88
trac	-10.8803
មានជ័យ	-10.8803
កណ្ដាល	-10.8804
សមាសភាគ	-10.8804
ន័រ	-10.8807
ក្រាស់	-10.8807
▁size	-10.882
▁1,0	-10.8823
bert	-10.8825
ផ្លាស់ទី	-10.8827
ស្ថេរភាព	-10.8832
ផ្ទៃក្នុង	-10.8833
សម្ងួត	-10.8834
ម្សិលមិញ	-10.8834
▁Council	-10.8834
▁ចំណោម	-10.8834
】	-10.8834
ពោត	-10.8834
រលូន	-10.8834
របារ	-10.8841
យ៉ាងដូចម្តេច	-10.8843
▁(5)	-10.8851
យន្តហោះឯកជនក្រុ	-10.8859
0059	-10.8862
▁0001	-10.8863
ញឹកញាប់	-10.8864
ូមស្វាគមន៍មកកាន់	-10.8865
ខ្ល	-10.8867
ជាសមាជិក	-10.8875
stand	-10.8881
វិមាន	-10.8882
គាំទ្រដល់	-10.8883
%80%	-10.8884
ខ្លាញ់	-10.8892
ចតុកោណ	-10.8895
សម័យចុងក្រោយនៅលើ	-10.8895
មគ្គុទេសក៍	-10.8895
▁Psiphon	-10.8895
កសិករ	-10.8895
ជ្រូក	-10.8895
ទីប្រជុំជន	-10.8895
▁NEWS	-10.8895
ប៊ិចផ្សព្វផ្សាយ	-10.89
="0.8	-10.8902
▁ទូរសារលេខ	-10.8909
="3.6	-10.8916
តេស្ត	-10.8925
lift	-10.8925
ដ៏សំខាន់	-10.8927
ដែលត្រូវការ	-10.8933
ខែតុលា	-10.8937
-03-	-10.8942
pass	-10.8951
9.8	-10.8952
តម	-10.8953
ពាណិជ្ជ	-10.8954
ព្យាករ	-10.8956
កម្តៅ	-10.8957
ក្រឡាចត្រង្គ	-10.8957
មហ៊ុនជួលសេវាកម្ម	-10.8957
▁engraving	-10.8957
ការតាំងពិព័រណ៍	-10.8957
cheng	-10.8957
▁ទង	-10.8958
រឹត	-10.8958
▁ធាតុក្រាហ្វិក	-10.896
ែករំលែកអត្ថបទនេះ	-10.8966
យ៉ាងច្បាស់	-10.8979
▁Medi	-10.8981
បន្ថយ	-10.8986
ចំណេញ	-10.8997
▁Feb	-10.8999
បញ្ហាទូរស័ព្ទ	-10.9007
ការប្រមូល	-10.9013
ទំព័រដើម	-10.9015
electric	-10.9019
▁February	-10.9019
▁multi	-10.9019
▁២០០៨	-10.9019
arques	-10.9019
="2.3	-10.9019
▁អាគុយម៉ង់	-10.9019
▁Jackpot	-10.9019
▁GTA	-10.9019
ស្ដីពី	-10.902
ការផ្តល់ជូនពិសេស	-10.9023
▁Sony	-10.9025
ការបញ្ជូន	-10.9049
7.6	-10.905
CHF	-10.9062
drive	-10.9066
7.8	-10.9077
▁Euro	-10.9081
ហោប៉ៅ	-10.9081
▁Microfiber	-10.9081
▁ដំណឹងល្អ៖	-10.9082
ប្រេងឥន្ធនៈ	-10.9082
▁Cas	-10.9083
បន្លំ	-10.9085
▁Audi	-10.9091
="3.4	-10.9097
ថ្នាំលាប	-10.9106
asia	-10.9123
186	-10.9128
ខែមេសា	-10.9139
▁Over	-10.9142
គ្រិស្ដ	-10.9144
ឃ្មុំ	-10.9144
ព័រទុយហ្គាល់	-10.9144
ស្ថិរភាព	-10.9144
▁គំនិតសាក់រូប	-10.9144
រដ្ឋធានី	-10.9144
រដូវរងា	-10.9144
▁Version	-10.9144
ជាថ្មីម្តងទៀត	-10.9144
ទីធ្លា	-10.9144
▁សុខុន	-10.9145
ម្រាមដៃ	-10.9145
Rider	-10.9146
បំលែង	-10.9147
▁Lady	-10.9153
ulator	-10.9154
▁mode	-10.9171
▁លោកបណ្ឌិត	-10.9175
aka	-10.9175
▁ប្រសិនបើឧបករណ៍	-10.9177
កម្រិតសំឡេង	-10.9192
៥៥	-10.92
ម្ហូប	-10.9206
ជឿជាក់	-10.9208
បរិច្ចាគ	-10.9208
▁Baijiu	-10.9208
▁MYHH	-10.9208
▁europa	-10.9208
ដែលមានស្រាប់	-10.9208
វ៉ែនតា	-10.9208
▁also	-10.9208
▁Schwing	-10.9208
ឆ្លើយ	-10.9209
india	-10.9209
ELEX	-10.9211
▁3/4	-10.9212
ម៉ៅ	-10.9213
ឈ្នះពានរង្វាន់	-10.9214
="0.0	-10.9216
ឆក់	-10.9216
និមិត្តសញ្ញា	-10.9221
ប្រសើរឡើង	-10.9221
▁equi	-10.9224
138	-10.9224
ផ្សេងៗទៀត	-10.9225
យក្ស	-10.9228
9.7	-10.9229
ចៀម	-10.9231
▁Maxi	-10.9236
សារមន្ទីរ	-10.9236
4.3	-10.924
▁Wave	-10.9252
ពូល	-10.9256
សាស្ដ្រ	-10.9265
Plus	-10.9269
សមា្ភារៈ	-10.9271
▁iPod	-10.9271
▁កាតាឡុក	-10.9271
ppbag	-10.9271
បណ្ដោះអាសន្ន	-10.9272
ង្ក	-10.9272
បន្ទាយ	-10.9272
107	-10.9273
លោហៈធាតុ	-10.9273
ពុម្ព	-10.9276
ខែកុម្ភៈ	-10.9277
ម៉ូឌុល	-10.9277
អនុប្រធាន	-10.928
ត្រូវបានដាក់	-10.9283
ការសាងសង់	-10.9301
មែន	-10.9303
យ៉ាងពេញលេញ	-10.9304
ubb	-10.9305
ឡែក	-10.9309
ប៉ាក់	-10.9311
▁(%)	-10.9322
duct	-10.9333
ចរាចរ	-10.9334
យ៉ាម៉ាហា	-10.9334
មានព្រះបន្ទូល	-10.9335
thailand	-10.9335
ចំណាប់អារម្មណ៍	-10.9335
ជិតស្និទ្ធ	-10.9335
បំរើ	-10.9335
ស្នាដៃ	-10.9335
▁Phsar	-10.9335
អាចបត់បែនបាន	-10.9336
រំញ័រ	-10.9336
ផ្តាច់មុខ	-10.9337
General	-10.9337
▁WiFi	-10.9337
សំរាប់ភ្ញៀវ	-10.9338
9.3	-10.9339
="3.3	-10.9339
កំដៅភាពយន្ត	-10.9341
ការផ្ទេរ	-10.9347
2,000	-10.9349
point	-10.935
ផលិតផលដែលមាន	-10.9358
ការចែកចាយ	-10.936
ដុល្លា	-10.9362
ណែ	-10.9369
ការនាំចេញ	-10.9369
▁Park	-10.937
៤៥	-10.939
3.9	-10.9394
បត់បែន	-10.9399
ប្រហាក់ប្រហែល	-10.94
កំពស់	-10.94
ប្រាថ្នា	-10.94
សង្ស័យ	-10.94
▁ethereum	-10.94
▁Street	-10.94
▁អង្គចងចាំ	-10.94
▁Option	-10.9402
ពាក្យបញ្ជា	-10.9403
អន្តរកម្ម	-10.9403
សហការជាមួយ	-10.9409
▁(6)	-10.9412
▁III	-10.9416
បំណែក	-10.9417
ខែឧសភា	-10.9417
គ្រី	-10.9425
មនុស្សម្នាក់	-10.9426
តំបន់អាស៊ី	-10.9431
▁translated	-10.9433
ទាយ	-10.9435
Form	-10.9437
ដែលមានល្បឿនលឿន	-10.9439
ជាតិដែក	-10.944
▁Nano	-10.9443
ញ្ច	-10.9449
ណុ	-10.9454
EI	-10.9463
គណៈ	-10.9464
អាគ្នេយ៍	-10.9465
ម៉ូឌែល	-10.9465
respond	-10.9465
បណ្តោយ	-10.9465
▁រើស	-10.9465
▁NYE	-10.9465
អគ្គនាយកដ្ឋាន	-10.9466
រោម	-10.9467
▁កំឡុង	-10.9467
អនុញ្ញាតឱ្យអ្នក	-10.9469
▁ទាក់	-10.9471
ដោយផ្អែកលើ	-10.9474
ម៉ៃ	-10.9483
▁1.3	-10.9483
shell	-10.9485
active	-10.9486
ទាន់សម័យ	-10.9502
៣៥	-10.952
кра	-10.953
បេក្ខជន	-10.953
សួនច្បារ	-10.953
ហាក់ដូចជា	-10.953
▁Business	-10.953
▁មីលីលីត្រ	-10.953
puerto	-10.953
ស្នេហា	-10.953
▁discuss	-10.953
បកស្រាយ	-10.953
▁Software	-10.953
▁December	-10.953
▁BMW	-10.9532
ច្រាន	-10.9533
នាយករដ្ឋមន្រ្តី	-10.9534
▁Shop	-10.9534
នៅលីវ	-10.9538
បំពង់ទុយោ	-10.9544
វ៉ូ	-10.9546
ភេ	-10.9547
មានបំណង	-10.9549
សន្មត	-10.9552
charter	-10.9554
ភាពបរិសុទ្ធ	-10.9555
ម៉ឺនុយ	-10.9558
អនុវត្តតាម	-10.9562
ញ័រ	-10.9567
ATE	-10.9575
ចន្ទ	-10.9588
បាញ់ទឹក	-10.9588
កង់អគ្គិសនី	-10.9591
វិថី	-10.9596
account	-10.9596
с	-10.9596
cryptocurrencies	-10.9596
▁WIFI	-10.9596
▁តម្បៀត	-10.9596
កន្ទុយ	-10.9596
▁Drive	-10.9601
▁under	-10.9605
="4.1	-10.9612
▁បូកថ្ម	-10.9621
ដែនកំណត់	-10.9632
▁3.2	-10.9646
ខែមិថុនា	-10.9649
ESS	-10.965
▁ext	-10.9656
ថាមវន្ត	-10.9662
សំគាល់	-10.9662
▁រាប់អំបោះ	-10.9662
support	-10.9662
ពាណិជ្ជករ	-10.9663
ព្រៃឈើ	-10.9665
ហ្វាយ	-10.9666
អ្នកស្រាវជ្រាវ	-10.9672
កន្លែងអង្គុយ	-10.968
មន្ទីរ	-10.9698
ផ្សេងៗគ្នា	-10.9719
Edit	-10.9729
មោទនភាព	-10.9729
нська	-10.9729
ក្តារចុច	-10.9729
សម្ផស្ស	-10.9729
▁centrifug	-10.9729
▁extruded	-10.9729
ហឺប៉ី	-10.9729
សំដៅ	-10.9729
known	-10.9729
function	-10.9729
Share	-10.9732
មានការគៀប	-10.9735
ជ័យ	-10.9742
ស្មើនឹង	-10.9748
ជ្រើសយក	-10.9751
▁XXL	-10.9752
ត្រេ	-10.9753
4.9	-10.9765
តាមតម្រូវការ	-10.9769
±	-10.9774
មិត្តភាព	-10.9785
បណ្តុះ	-10.9796
ក្វាងចូវ	-10.9796
ឆ្ពោះ	-10.9796
បរិយាកាស	-10.9796
▁plain	-10.9796
▁Roller	-10.9796
យោងទៅតាម	-10.9797
រណៈ	-10.9798
▁SAE	-10.9801
="4.7	-10.9818
▁ក៏ដូចជា	-10.9819
ចែង	-10.9833
តំបន់បណ្ដាញ	-10.9837
បទបញ្ជា	-10.9841
Start	-10.9849
▁YH	-10.9853
ប្រកាន់	-10.9861
rust	-10.9863
ក្រឹត្យ	-10.9863
uploads	-10.9864
zimbabwe	-10.9864
ទួរគី	-10.9864
▁Agriculture	-10.9864
▁Limited	-10.9864
កម្មវិធីនិពន្ធ	-10.9864
▁DRK	-10.9864
▁after	-10.9864
tudio	-10.9864
japan	-10.9865
▁ស៊ុន	-10.9867
7.7	-10.9872
7.9	-10.9886
២០១០	-10.9887
▁Full	-10.9898
-2-	-10.9898
ចាក់ថ្នាំ	-10.9899
ដែលមានអាយុ	-10.9907
▁បរិច្ឆេទ	-10.9932
▁យូនីកូដ	-10.9932
▁images	-10.9932
XXX	-10.9932
▁(2015)	-10.9933
មានស្ថេរភាព	-10.9933
អ្វីខ្លះ	-10.9941
ហេតុការណ៍	-10.9943
ណែត	-10.9948
ONE	-10.995
▁មតិព័ត៌មាន	-10.9958
ញ៉ូ	-10.9991
ភីកសែល	-10.9994
Plugin	-11
▁AASraw	-11
▁KOrganizer	-11
▁Solomons	-11
▁Startup	-11
▁cups	-11
កីឡាបាល់ទាត់	-11.0004
ដុំថ្ម	-11.001
▁big	-11.0019
▁KHR	-11.0019
ស្រ្តី	-11.0021
▁who	-11.0024
ឡិច	-11.0025
▁ឈាន	-11.0027
0:00	-11.003
សម្ពាធខ្ពស់	-11.0039
ខ្ញុំពិតជា	-11.0046
▁char	-11.0051
5.7	-11.0051
-06-	-11.0052
Asia	-11.0054
eek	-11.0055
បណ្តុះបណ្តា	-11.0059
រយៈ	-11.006
Coin	-11.0062
—	-11.0066
stone	-11.0067
ជម្មើសជំនួស	-11.0069
▁interface	-11.0069
ព្រួយ	-11.0069
▁Estate	-11.0069
▁PostScript	-11.0069
▁ដ្ឋានស្នាក់នៅ	-11.0069
ទម្លាក់	-11.0069
▁ត្រង	-11.007
ក្លាយទៅជា	-11.007
ញៀន	-11.0075
ür	-11.0079
turn	-11.0126
ស្រេច	-11.0137
អក្ខរាវិរុទ្ធ	-11.0138
▁Explorer	-11.0138
▁Genotropin	-11.0138
▁Patrick	-11.0138
▁Python	-11.0138
▁cavitation	-11.0138
▁conveyor	-11.0138
▁Torrent	-11.0138
ពន្លា	-11.0138
▁ZLP	-11.0139
▁csgo	-11.0139
គេច	-11.0139
▁លូកា	-11.014
គ្មានថ្នេរ	-11.0145
▁Rental	-11.015
▁ចុះថ្ងៃទី	-11.015
ដោយឥតគិត	-11.0152
ខូអិលធី	-11.0154
▁anti	-11.0168
-05-	-11.0187
គីឡូវ៉ាត់	-11.0208
▁CAPTCHA	-11.0208
▁settings	-11.0208
Message	-11.0208
ក្តាប់	-11.0208
ចារកម្ម	-11.0208
ដំបង	-11.0209
▁Frank	-11.0209
ស្គរ	-11.0209
អំបោះ	-11.021
ប្រាំបី	-11.0214
នាគ	-11.0215
server	-11.0215
▁ទូទាំង	-11.0218
ដោះស្រាយបញ្ហា	-11.0219
ឯកជនភាព	-11.0221
បោះចោល	-11.0223
ខែកក្កដា	-11.0229
6.6	-11.0235
គ្រា	-11.0239
POS	-11.0245
round	-11.0246
ម៉ែត	-11.0247
Love	-11.0253
▁Meta	-11.0258
00$	-11.0276
ខ្វះចន្លោះ	-11.0279
▁ចុះអ័ព្វ	-11.0279
នាំមកនូវ	-11.0279
▁George	-11.0279
ស្មៅ	-11.0279
វះកាត់	-11.0279
▁អង្គារ	-11.0279
ស្នប់	-11.0279
▁បង្កប់	-11.0279
អភិវឌ្ឍន៍ជនបទ	-11.0281
▁ម៉ុង	-11.0281
smart	-11.0282
▁CAPM	-11.029
Main	-11.0298
0.2	-11.0303
▁Opera	-11.0312
បានចេញផ្សាយ	-11.0312
mission	-11.035
អត់ធ្មត់	-11.035
ឧបសគ្គ	-11.035
▁Admiral	-11.035
▁Columbia	-11.035
▁WordPress	-11.035
▁ដ្បិត	-11.035
▁Preemie	-11.035
process	-11.035
▁ITIL	-11.035
▁FREE	-11.035
▁(855)	-11.035
oceani	-11.0351
ស៊ែ	-11.0354
▁Tags	-11.0357
ការចេញផ្សាយ	-11.0358
▁Roger	-11.0361
ធន់ទ្រាំនឹង	-11.0362
▁ពីព្រោះ	-11.0363
បានកើតឡើង	-11.0365
Connect	-11.0369
▁PHP	-11.0378
ក្រោយមក	-11.0392
▁Show	-11.0396
6.7	-11.0405
ការស៊ើបអង្កេត	-11.0412
ខ្សែកាប	-11.0419
institut	-11.0421
ជំទង់	-11.0421
ព្រូដិនសល	-11.0421
សប្បុរស	-11.0421
▁Istanbul	-11.0421
▁Peugeot	-11.0421
ផ្តួចផ្តើម	-11.0421
▁Texas	-11.0421
រារាំង	-11.0421
ព្រះបាទ	-11.0421
ត្រីមាសទី	-11.0421
បង្គរ	-11.0421
ត្រៀមលក្ខណៈ	-11.0422
សារធាតុរំលាយ	-11.0422
▁CSS	-11.0424
នាំមុខគេ	-11.0425
បានផ្ដល់អនុសាសន៍	-11.0425
ប៊ែល	-11.0435
▁(7)	-11.0439
ទស្សនកិច្ច	-11.0479
ទោះបី	-11.0481
8.8	-11.0488
▁ICT	-11.049
ដែលមានទំហំធំ	-11.0492
ប្រឌិត	-11.0493
អាចធ្វើទៅបាន	-11.0493
lombia	-11.0493
ខេត្តសៀមរាប	-11.0493
គម្លាត	-11.0493
ស្ស៊ីជាចុង	-11.0493
▁January	-11.0493
▁Murphy	-11.0493
▁ខណ្ឌចំការមន	-11.0493
▁October	-11.0493
romania	-11.0493
បក្សី	-11.0493
▁Life	-11.0494
Search	-11.0494
ល្បាយ	-11.0494
▁អំពីវិបសាយ	-11.0497
ឆែក	-11.05
ជិតខាង	-11.0504
អ្នកជំនួញ	-11.0508
ម្ខាង	-11.0509
ជឿថា	-11.053
motor	-11.0538
ព្រះសីហនុ	-11.0541
៧៥	-11.0543
ភាសាបារាំង	-11.0545
ស៊ាំ	-11.0558
អាគុយទូរស័ព្ទ	-11.0564
គ្រឿងសំអាង	-11.0566
អាវុធ	-11.0566
ម៉ាញេទិច	-11.0566
▁Voice	-11.0566
ស្តេច	-11.0566
Changeset	-11.0566
▁Flash	-11.0566
▁ដាន	-11.0566
▁Charger	-11.0567
អំណោយទាន	-11.0567
កន្លងមក	-11.0569
វិធានការ	-11.0569
ServerName	-11.0575
កូនចៅ	-11.0579
ប៊ែ	-11.058
ASS	-11.0583
2.4	-11.0583
ដាក់ឈ្មោះ	-11.0596
ហេតុអ្វីបានជា	-11.0607
▁Ferr	-11.061
ថ្លៃសេវា	-11.0612
uge	-11.0619
អិលធីឌី	-11.0622
6.00	-11.0623
ដ្យ	-11.0623
ខែវិច្ឆិកា	-11.0628
▁bas	-11.0633
▁ចង្អុល	-11.0633
ភិចសែល	-11.0638
សុន្ទរកថា	-11.0639
ផលិតផលធ្វើពីជ័រ	-11.0639
▁Avenger	-11.0639
▁Mastercard	-11.0639
▁សមកាលកម្ម	-11.0639
screen	-11.0639
▁RoHS	-11.0639
ពិភាក្សាអំពី	-11.064
▁គុណលក្ខណៈ	-11.064
ពុក	-11.064
▁តើខ្ញុំអាច	-11.0641
ណ៏	-11.0642
តម្រូវឱ្យមាន	-11.0642
កាន់កាប់	-11.0646
▁slot	-11.0651
▁UTC	-11.0653
ក្ដី	-11.0681
បានចុះឈ្មោះ	-11.0682
ភាគរយ	-11.0689
ទង្គិច	-11.0712
ម៉ាញ៉េ	-11.0712
BREAKING	-11.0712
ដំបូន្មាន	-11.0712
សីតុណ្ហាភាព	-11.0712
▁ពុធ	-11.0712
▁មែកធាង	-11.0712
▁Hebei	-11.0712
ç	-11.0712
▁Sigma	-11.0712
អាតូម	-11.0712
▁textbox	-11.0712
សណ្តែក	-11.0713
និងដូច្នេះនៅលើ	-11.0713
▁Router	-11.0713
▁ត៌	-11.0714
▁Film	-11.0715
▁Robert	-11.0715
ក្នុងមួយសប្តាហ៍	-11.0717
Order	-11.0717
ចាប់តាំងពីឆ្នាំ	-11.0718
ខ្លុយ	-11.0728
▁Martin	-11.0728
ប្រទេសកាណាដា	-11.0738
="4.6	-11.0739
ចាប់ពីម៉ោង	-11.0766
="5.0	-11.0766
ឆានែល	-11.0767
ប្រភពដើម	-11.0779
▁00100	-11.0782
អុកស៊ីត	-11.0786
រីកលូតលាស់	-11.0786
▁យូនីក	-11.0786
សំឡីកែវ	-11.0786
▁Chroy	-11.0786
ភាគខាងលិច	-11.079
4.00	-11.0804
ព័ត៌មានថ្មីៗ	-11.0811
អវិជ្ជមាន	-11.0819
ត្រូវបានរកឃើញ	-11.0832
ស្រង់ចេញ	-11.0841
private	-11.0861
ព្រលឹង	-11.0861
យុត្តិធម៌	-11.0861
Continue	-11.0861
ServerAdmin	-11.0861
▁Amsterdam	-11.0861
▁William	-11.0861
▁digiKam	-11.0861
សត្វល្អិត	-11.0861
▁zlp	-11.0861
▁Kalarm	-11.0861
ទោល	-11.0861
▁ECHO	-11.0861
▁Price	-11.0861
▁បរិយាយផលិតផល	-11.0861
និងហ្គីតា	-11.0861
▁Music	-11.0861
ទទួលទាន	-11.088
body	-11.0881
ប្រវត្តិសាស្ត្រ	-11.0887
Quick	-11.0904
▁3.7	-11.0918
ជ្រើសរើសយក	-11.0924
married	-11.0936
អាហារូបករណ៍	-11.0936
▁Dongguan	-11.0936
▁Newcastle	-11.0936
▁brackets	-11.0936
▁category	-11.0936
▁corrosion	-11.0936
▁Whatsapp	-11.0936
▁អើពើ	-11.0936
▁123456	-11.0936
nguon	-11.0936
▁address	-11.0936
▁Louis	-11.0936
razil	-11.0941
ធ្នូ	-11.0944
ឈ្នះរង្វាន់	-11.0944
អាល់ហ្វា	-11.0944
▁អង្សា	-11.0947
ក្រែម	-11.0956
▁មើលច្រើនទៀត	-11.0959
▁Mega	-11.0966
ទូទាំងប្រទេស	-11.0975
iko	-11.0983
="1.1	-11.1005
Casino	-11.1008
គីឡូក្រាម	-11.101
នាពេលអនាគត	-11.1012
ភាពតានតឹង	-11.1012
លោកជំទាវ	-11.1012
▁document	-11.1012
default	-11.1012
ត្រាប់តាម	-11.1012
9.6	-11.1012
▁២០០៧	-11.1012
ក្រមួន	-11.1013
រំពឹងទុក	-11.1013
បញ្ចេញមតិ	-11.1014
▁Virginia	-11.1014
▁Portable	-11.1015
អាយុកាល	-11.1018
ឡាតាំង	-11.104
lumin	-11.1071
កាន់តែប្រសើរ	-11.1086
គ្រឿងស្រវឹង	-11.1088
ជម្លោះ	-11.1088
ទំនក់ទំនង	-11.1088
កសិដ្ឋាន	-11.1088
▁Church	-11.1088
clubs	-11.1088
▁error	-11.1088
▁រូបមន្តម៉ូលេគុល	-11.1088
រឿងរ៉ាវ	-11.1088
ធ្នើ	-11.1088
សហភាពអឺរ៉ុប	-11.1089
▁AUD	-11.1089
ទស្សនៈ	-11.1093
សមាមាត្រ	-11.1093
fee	-11.1096
បង្កើនល្បឿន	-11.1107
▁ស្រោមទូរស័ព្ទ	-11.1129
កុំព្យូទ័របន្ទះ	-11.1137
1.8	-11.1144
8.9	-11.1151
វេទមន្ត	-11.1165
ធរណីមាត្រ	-11.1165
▁Bowflex	-11.1165
/02/18	-11.1165
សៀងហៃ	-11.1165
▁Apartment	-11.1165
អូទ្រីស	-11.1165
ធារាសាស្រ្ត	-11.1165
▁វណ្ណៈ	-11.1165
ាចារ្យ	-11.1166
ដឹកទំនិញ	-11.1167
girl	-11.1168
▁TCP	-11.1169
remove	-11.1171
="0.3	-11.1175
Ltd	-11.1177
self	-11.1193
▁Keo	-11.1202
ខ្លាច	-11.1221
Mouse	-11.1225
Radio	-11.1225
យុទ្ធ	-11.123
gadget	-11.1242
cambodge	-11.1242
ផ្សងព្រេង	-11.1242
ស្មុគស្មាញ	-11.1242
អនីតិជន	-11.1242
▁British	-11.1242
▁QString	-11.1242
▁probably	-11.1242
▁សៅរ៍	-11.1242
granite	-11.1243
▁wrap	-11.1243
hdT	-11.1243
ពន្លឺភ្លើង	-11.1259
="4.4	-11.1297
▁12:1	-11.13
Soft	-11.1307
ស្វយ័ត	-11.1321
=5.0.3	-11.1321
testosterone	-11.1321
មែនទែន	-11.1321
▁discusssions	-11.1321
у	-11.1321
ផ្តល់អនុសាសន៍	-11.1321
▁ស្ទួន	-11.1321
បងប្រុស	-11.1322
គ្រូបង្រៀន	-11.1323
ទូទឹកកក	-11.1325
/12/17	-11.1327
jiang	-11.133
មកពីប្រទេសចិន	-11.1332
វណ្ណ	-11.1333
▁CTN	-11.1333
ចំណុចទាញ	-11.1336
metal	-11.1337
សង្កាត់	-11.1349
ច្ឆ	-11.1372
▁៧៤	-11.1374
ញ៉ាំ	-11.1399
លង្ហិន	-11.1399
▁Russey	-11.1399
ukraine	-11.1399
បទប្បញ្ញត្តិ	-11.1399
▁character	-11.1399
ealestate	-11.1401
▁granules	-11.1402
▁តើមានអ្វី	-11.1403
▁most	-11.1405
ឡែន	-11.1414
២០១៨	-11.1423
អ៊ិនគ្រីប	-11.1431
ញ្ជ	-11.1436
ផ្ដល់នូវ	-11.144
Wiki	-11.1461
បញ្ជ	-11.1465
ពហុស្រទាប់	-11.1479
lithuania	-11.1479
ខ្នើយ	-11.1479
គ្រូបង្វឹក	-11.1479
▁bitcoin	-11.1479
▁municipalit	-11.1479
មុជទឹក	-11.1479
ability	-11.1479
ñ	-11.1479
បន្ទាត់ផលិតកម្ម	-11.1479
កងកម្លាំង	-11.1479
▁steroid	-11.1479
▁acetic	-11.1479
▁Sharp	-11.1481
▁just	-11.1485
តម្លៃថោក	-11.1487
កំណាត់	-11.1489
លក់រាយ	-11.15
ផូ	-11.1513
ស្តីអំពី	-11.1517
តួអក្សរ	-11.152
4.6	-11.1523
="4.2	-11.1551
ប្រុងប្រយ័ត្ន	-11.1559
រថយន្ដ	-11.1559
អត្ថាធិប្បាយ	-11.1559
តង្កៀប	-11.1559
ទឹកភ្លៀង	-11.1559
ប៉ាស៊ីហ្វិក	-11.1559
ហាមឃាត់	-11.1559
អគ្គីភ័យ	-11.1559
▁attribute	-11.1559
▁អ៊ិន្ឈ៍	-11.1559
ថ្លើម	-11.1559
pressocm	-11.1559
▁device	-11.1559
ជ្រលង	-11.1559
ផ្តេក	-11.1559
សើច	-11.1559
Log	-11.1559
▁Changvar	-11.1559
វាយនភាព	-11.1559
ពឹងផ្អែក	-11.156
ផលប្រយោជន៍	-11.156
▁School	-11.156
project	-11.1561
▁laser	-11.1565
សញ្ញាប័ត្រ	-11.1573
ចុងសប្តាហ៍	-11.1577
កិច្ចសហ	-11.1598
business	-11.1639
.06.2015	-11.1639
ក្រោកឡើង	-11.1639
ព្យាណូ	-11.1639
មេអំបៅ	-11.1639
អញ្ចឹង	-11.1639
ស្លុត	-11.1639
ខ្នង	-11.1639
បិតា	-11.164
អុី	-11.164
▁HDMI	-11.1643
▁week	-11.1643
▁Charter	-11.1644
▁បែបបទ	-11.1689
លម្អ	-11.1716
ប្រជែង	-11.1717
ឆ្លុះ	-11.172
អាំងឌុចសូលីត	-11.1721
ស័ព្ទ	-11.1721
indonesia	-11.1721
▁Angkor	-11.1721
▁Management	-11.1721
ខាងស្តាំ	-11.1721
ព្រះមហាក្សត្រ	-11.1721
▁ខណ្ឌទួលគោក	-11.1721
ធន់នឹង	-11.1721
ស៊ីលីកូន	-11.1721
ប្រើប្រាស់បានយូរ	-11.1721
ព្រឹទ្ធសភា	-11.1721
▁Zhongtai	-11.1721
▁ន្ដែ	-11.1722
អង្ករ	-11.1722
ព្រះគ្រីស្ទ	-11.1748
គ្រាប់ពូជ	-11.1756
ភ័យខ្លាច	-11.1803
តម្កើង	-11.1803
★	-11.1803
ខូចខាត	-11.1803
តម្រឹម	-11.1803
ទីក្រុងប៉េកាំង	-11.1803
បញ្ឆេះ	-11.1803
អេធីអឹម	-11.1803
▁Magazine	-11.1803
▁Thomas	-11.1803
អាហ្រ្វិក	-11.1803
▁Wireless	-11.1803
គណិតវិទ្យា	-11.1803
▁Cutting	-11.1803
▁Paypal	-11.1803
សមាសភាព	-11.1803
Merced	-11.1803
ម្ដេច	-11.1803
ចរចា	-11.1804
panha	-11.1808
ភូមិសាស្ត្រ	-11.1826
បទដ្ឋាន	-11.1844
Style	-11.1847
កាត់ដេរ	-11.1866
បណ្ណាល័យ	-11.1869
ជិះស្គី	-11.1885
សន្ដិសុខ	-11.1885
▁Suzuki	-11.1885
▁Exchange	-11.1885
កាវបិទ	-11.1885
▁piston	-11.1885
▁រាប់ថយក្រោយ	-11.1885
▁TPU	-11.1887
បំផ្ទុះ	-11.1887
▁compa	-11.1888
ាត់ម៉ាស៊ីនឡាស៊ែរ	-11.1889
▁Peter	-11.1893
▁Steve	-11.1905
រ៉ូឡែត	-11.196
▁Education	-11.1969
សំណល់	-11.1969
▁TrueMoney	-11.1969
▁sonitattoo	-11.1969
គ្រុប	-11.1969
▁SEAPS	-11.1969
វង្ស	-11.1969
▁Author	-11.1969
ស្នែង	-11.1969
▁copy	-11.1969
ពោល	-11.1969
Manager	-11.1969
▁Blade	-11.1969
▁XXXL	-11.1969
ក្មេងប្រុស	-11.197
កូនស្រី	-11.2008
រចនាម៉ូដ	-11.2048
ភារកិច្ច	-11.205
▁ឆ្នាំ២០១៥	-11.2053
បាងកក	-11.2053
ប្រាជ្ញា	-11.2053
ផ្សាភ្ជាប់	-11.2053
ព្យាការី	-11.2053
ហ្វឹកហាត់	-11.2053
អុកស៊ីដ	-11.2053
▁Coinfalls	-11.2053
▁SPARTA	-11.2053
▁SharePoint	-11.2053
▁Tattoo	-11.2053
▁molded	-11.2053
រន្ទះ	-11.2053
រួចទៅហើយ	-11.2053
▁Twill	-11.2053
▁NEMA	-11.2053
ឆ្លុះបញ្ចាំង	-11.2053
ធុងសំរាម	-11.2063
ប្លែង	-11.2072
គូរូបិយប័ណ្ណ	-11.2073
ភ្លើងបំភ្លឺ	-11.2075
អង្	-11.2087
0-4	-11.2095
គិតត្រឹម	-11.2095
ឋិតិវន្ត	-11.2112
អ៊ើ	-11.2126
ព្រឹត្ត	-11.2128
អត្ថន័យ	-11.2137
បន្ទាប់បន្សំ	-11.2137
សមាហរណកម្ម	-11.2137
បុត្រសម្ព័ន្ធ	-11.2138
ភ្លេង	-11.214
អភិបាលក្រុង	-11.2141
ខែសីហា	-11.2142
Indian	-11.2209
polis	-11.2214
Australia	-11.2223
យន្ដហោះ	-11.2223
អាល់កុល	-11.2223
▁available	-11.2223
▁chiffon	-11.2223
▁shoppingdirect	-11.2223
▁ផ្ទះលក់ទំនិញ	-11.2223
Calendar	-11.2223
កំប៉ុង	-11.2223
សរសៃប្រសាទ	-11.2223
▁Article	-11.2223
សួត	-11.2223
▁local	-11.2224
▁DCOP	-11.2225
PDF	-11.2236
ច្រកទ្វារ	-11.2252
▁Royal	-11.2276
="4.3	-11.2289
ចង្ក្រាន	-11.2309
សិទិ្ធ	-11.2309
កាលីហ្វញ៉ា	-11.2309
សន្សំសំចៃ	-11.2309
អាដាប់ទ័រ	-11.2309
▁application	-11.2309
▁Equina	-11.2309
▁Sieve	-11.2309
▁ហោច	-11.231
ឆ្នាំមកហើយ	-11.231
សិទ្ធ	-11.232
through	-11.2396
ថយចុះ	-11.2396
ភ្នាស	-11.2396
ប្រយ័ត្ន	-11.2396
រង្វិលជុំ	-11.2396
សហប្រជាជាតិ	-11.2396
អំពាវនាវ	-11.2396
▁USMLE	-11.2396
▁altcoin	-11.2396
▁អាណាឡូក	-11.2396
▁Urban	-11.2396
អំពើបាប	-11.2396
▁Travel	-11.2396
▁រលឹម	-11.2396
▁every	-11.2396
ពលកម្ម	-11.2396
social	-11.2396
HOME	-11.2398
▁Robot	-11.2401
ពាន់លានដុល្លារ	-11.2404
="5.9	-11.2416
glyc	-11.2416
ប្រទេសអូស្ត្រាលី	-11.2418
សម្លឹងមើល	-11.2422
កណ្ដុរ	-11.2422
ទាក់ទងមកយើង	-11.2445
ប្រកប	-11.2475
▁Print	-11.2475
ហ្សកហ្ស៊ី	-11.2484
អាជ្ញាបណ្ណ	-11.2484
fghanistan	-11.2484
ប៉ុនប៉ង	-11.2484
▁September	-11.2484
▁Solenoid	-11.2484
XCHARX	-11.2484
វិបត្តិ	-11.2484
▁Kaxite	-11.2484
fabric	-11.2484
រិទ្ធ	-11.2484
បណ្តាលឱ្យ	-11.2484
▁(2012)	-11.2485
រោងភាពយន្ត	-11.2485
▁AutoCAD	-11.2485
ចំណុះ	-11.2485
8:00	-11.2495
អំពូលភ្លើង	-11.2501
Export	-11.2506
បុត្រ	-11.2553
នៅពីក្រោយ	-11.2561
ក្លែងបន្លំ	-11.2572
ពិសិដ្ឋ	-11.2572
ស៊ីម៉ងត៍	-11.2572
▁Outlook	-11.2572
▁iSpyoo	-11.2572
អភិរក្ស	-11.2572
▁bonus	-11.2572
▁learn	-11.2572
where	-11.2573
ចម្លាក់	-11.2574
ធ្លាយ	-11.2575
▁12:00	-11.2575
slav	-11.2576
7:00	-11.2577
south	-11.2582
lgeria	-11.2587
ប្លែក	-11.2599
2006.	-11.261
អ៊ិនធឺណ	-11.264
កង្ហារ	-11.2662
សហជីព	-11.2662
▁Jersey	-11.2662
▁Minnesota	-11.2662
▁MySQL	-11.2662
▁PlayStation	-11.2662
ក្រឡឹង	-11.2662
គំនូរជីវចល	-11.2662
▁Tourism	-11.2662
▁Finance	-11.2662
▁តើអ្វីជា	-11.2662
បញ្ញា	-11.2662
▁[2]	-11.2662
▁DROP	-11.2662
▁AISI	-11.2662
វីរបុរស	-11.2662
សវត្សរ៍	-11.2663
សហព័ន្ធរុស្ស៊ី	-11.2663
ស្នាមសាក់	-11.2663
ងាក	-11.2663
ភរិយា	-11.2664
▁Terr	-11.2699
ប៉ារីស	-11.2703
▁សូមទាក់ទងមក	-11.2707
Google	-11.2711
Smart	-11.2711
words	-11.2742
ច្នៃ	-11.2748
រោទិ៍	-11.275
ប៉ាន់ប្រមាណ	-11.2752
enezuela	-11.2752
គណៈរដ្ឋមន្ត្រី	-11.2752
ប្រទានពរ	-11.2752
អ៊ីនធឺណេត	-11.2752
▁Ducati	-11.2752
▁Ultimate	-11.2752
▁Unlimited	-11.2752
▁gallery	-11.2752
▁ព្រហស្បតិ៍	-11.2752
▁មីលីក្រាម	-11.2752
▁សង្កាត់ទឹកល្អក់	-11.2752
ជ័យលាភី	-11.2752
ការងើបឡើងវិញ	-11.2752
▁custom	-11.2752
▁ដូចគ្នានេះផងដែរ	-11.2752
▁Ocean	-11.2752
▁បណ្ដុំ	-11.2752
មគ្គុទ្ទេដោយដៃ	-11.2752
ហូឡង់	-11.2753
korea	-11.2755
អ្នកនឹងរកឃើញ	-11.2755
គ្រឿងញៀន	-11.2756
charge	-11.276
ប្រាកដ	-11.2769
ឆ្វេង	-11.278
ល្ខោន	-11.2843
Object	-11.2843
បែកខ្ចាត់ខ្ចាយ	-11.2843
ផ្ញើសារជាអក្សរ	-11.2843
ពន្លឿន	-11.2843
គ្លីនិក	-11.2843
អាហារពេលព្រឹក	-11.2843
Project	-11.2843
អនាមិក	-11.2843
អេហ្ស៊ីប	-11.2843
nomous	-11.2843
ខ្សែសង្វាក់ប្លុក	-11.2843
▁(2016)	-11.2845
build	-11.2845
Banking	-11.2877
បំផុសគំនិត	-11.2934
ដាណឺម៉ាក	-11.2934
វ៉ាក់សាំង	-11.2934
▁Pinterest	-11.2934
សូកូឡា	-11.2934
flodeal	-11.2934
បើកទូលាយ	-11.2934
▁Marketing	-11.2934
▁information	-11.2934
Mbps	-11.2934
▁turntable	-11.2934
youtube	-11.2934
▁Daily	-11.2934
Engine	-11.2935
▁ជាតិសរសៃកាបោន	-11.2935
ព័ទ្ធជុំវិញ	-11.2935
▁ស្រអាប់	-11.2935
▁រក្សារសិទ្ធ	-11.2935
▁២០០៥	-11.2937
អាវទ្រនាប់	-11.2938
បោះពុម្ភផ្សាយ	-11.294
▁Reading	-11.294
town	-11.2945
▁EVA	-11.2952
connect	-11.2958
អេឡិចត្រូ	-11.2979
ស្ទើរ	-11.2996
ឌីវីឌី	-11.3008
▁4.3	-11.301
ទ្រនិច	-11.3019
ចក្រភព	-11.3026
facebook	-11.3027
ប្តូរតាមបំណង	-11.3027
សិរីរុងរឿង	-11.3027
អធិបតី	-11.3027
▁Category	-11.3027
ominican	-11.3027
អ៊ីនហ្វ្រារ៉េដ	-11.3027
▁Michigan	-11.3027
▁Public	-11.3027
ខុសៗគ្នា	-11.3027
▁Fresno	-11.3027
▁Vegas	-11.3027
គណៈប្រតិភូ	-11.3027
▁Course	-11.3027
▁listbox	-11.3027
កាកបាទក្រហម	-11.3027
ឪពុកម្តាយ	-11.3027
នៅឡើយទេ	-11.3027
▁level	-11.3028
▁Sports	-11.303
▁nnn	-11.3032
▁Bursa	-11.3034
ម៉ាស្សា	-11.3034
▁ភក្	-11.3052
="5.7	-11.3059
▁សម្បទាន	-11.3101
យេស៊ូ	-11.311
អាហ្សង់ទីន	-11.312
▁OpenMandriva	-11.312
▁Tianjin	-11.312
ហ្វ្រេ	-11.312
▁Network	-11.312
▁value	-11.3121
▁Randy	-11.3121
▁វ៉ិចទ័រ	-11.3121
លក្ខណ	-11.313
ពិពណ៌នា	-11.3161
→	-11.3211
guardian	-11.3215
Application	-11.3215
mexico	-11.3215
ខ្ចប់	-11.3215
▁description	-11.3215
▁ស្ដេចនៃឆ្មានេះ	-11.3215
▁Yahoo	-11.3215
ព័តមាន	-11.3215
▁Gasket	-11.3215
ការប៉ះទង្គិច	-11.3215
▁Hyper	-11.3215
▁Ultra	-11.3215
▁smd	-11.3215
europe	-11.3216
▁super	-11.3216
ស៊ើបអង្កេត	-11.3227
ភ្ជាប់មកជាមួយ	-11.326
បច្ចេក	-11.3294
ទ្វេរដង	-11.331
បំណុល	-11.331
▁Roulette	-11.331
▁ណេវ៉ាដា	-11.331
▁តិត្ថិភាព	-11.331
ធុញ	-11.331
ប្តី	-11.331
▁license	-11.331
កិតើ	-11.331
▁provide	-11.331
▁11:13:	-11.331
▁network	-11.331
គួរឱ្យកត់សម្គាល់	-11.3311
▁DVD	-11.3311
ម៉ារីន	-11.3317
បរិយាយ	-11.3406
ថ្ផ	-11.3406
បែកខ្ញែក	-11.3406
លីមីតធីត	-11.3406
វិក្កយបត្រ	-11.3406
▁Alberta	-11.3406
▁Enterprise	-11.3406
▁Koowheel	-11.3406
▁ឌិកូដ	-11.3406
▁មីលីម៉ែត្រ	-11.3406
ចម្បាំង	-11.3406
ជីពចរ	-11.3406
ធ្នឹម	-11.3406
ផ្កាយរណប	-11.3406
ហិង្សា	-11.3406
អាំងតង់ស៊ីតេ	-11.3406
▁ការរាប់អំបោះ	-11.3406
មានប្រសាសន៍	-11.3406
▁Adele	-11.3407
សំលេងរំខាន	-11.3407
▁(2014)	-11.3408
dcop	-11.3428
ឈប់សម្រាក	-11.3441
ម៉ិ	-11.3489
មានការគៀ	-11.3494
ប្រេស	-11.3502
យូរអង្វែង	-11.3503
កាល់ស្យូម	-11.3503
Guangdong	-11.3503
វែបសាយ	-11.3503
▁Testosterone	-11.3503
▁Xiaomi	-11.3503
▁ផ្ទេរឯកសាររហ័ស	-11.3503
▁Bedroom	-11.3503
▁Ninja	-11.3503
▁IBK	-11.3503
▁7.4.7	-11.3504
រលុង	-11.3514
ីក្រូហិរញ្ញវត្ថុ	-11.3523
អត្រាការប្រាក់	-11.353
ត្រូវបានបង្កើត	-11.3535
វេជ្ជ	-11.3599
ប្រៃសណីយ៍	-11.3601
ក្នុងកំឡុងពេល	-11.3601
ធុនធ្ងន់	-11.3601
អចិន្ត្រៃយ៍	-11.3601
▁Quebec	-11.3601
▁Reserved	-11.3601
▁[1.9.16_1159]	-11.3601
▁Girls	-11.3601
រចនាផ្ទៃខាងក្នុង	-11.3601
▁Ladies	-11.3601
solution	-11.3601
បញ្ញត្តិ	-11.3601
About	-11.3603
▁void	-11.3606
xiang	-11.3607
Forex	-11.363
កញ្ញា	-11.3638
ចម្លែក	-11.3644
position	-11.3653
កត់សម្គាល់	-11.3699
ingapore	-11.37
អរម៉ូន	-11.37
elecommunication	-11.37
phnompenh	-11.37
ឥណពន្ធ	-11.37
▁battery	-11.37
▁មែត្រការ៉េ	-11.37
ខ្សែភាពយន្ដ	-11.37
ដាច់ខាត	-11.37
ឬស្សី	-11.37
រោមចៀម	-11.37
▁Rights	-11.3701
▁យ៉ាម៉ាហាមួយ	-11.3701
ធន់ទ្រាំ	-11.3727
generator	-11.38
ធ្យូងថ្ម	-11.38
ប្រជាធិបតេយ្យ	-11.38
អំព្លី	-11.38
-04:00	-11.38
/09/2019	-11.38
កម្ដៅ	-11.38
ញញឹម	-11.38
សំណឹក	-11.38
▁Jessica	-11.38
▁Products	-11.38
▁tesseract	-11.38
ត្រកូល	-11.38
▁Kdeprint	-11.38
▁method	-11.38
▁crimp	-11.38
▁gallon	-11.38
ហុងគ្រី	-11.3801
▁ឡូត៍	-11.3801
▁[3]	-11.3801
Frame	-11.3805
▁Palm	-11.3889
conference	-11.3901
olyurethane	-11.3901
បន្តិចបន្តួច	-11.3901
យូអេសប៊ី	-11.3901
របបអាហារ	-11.3901
សេចក្តីផ្តើម	-11.3901
▁Carolina	-11.3901
▁Entertainment	-11.3901
▁Jizerou	-11.3901
▁Philadelphia	-11.3901
▁brushless	-11.3901
ហ្វាំងឡង់	-11.3901
ក្អម	-11.3901
ជឺស៊ី	-11.3901
black	-11.3901
សន្និសិទ	-11.3901
ផ្នត់	-11.3901
អួត	-11.3901
▁ត្រីកោណ	-11.3901
▁Ridge	-11.3901
Enter	-11.3941
មានប្រជាប្រិយភាព	-11.3953
រតន	-11.3977
ឆ្កួត	-11.4003
អណ្តូង	-11.4003
.02.2019	-11.4003
លាតសន្ធឹង	-11.4003
▁Ethereum	-11.4003
▁Jiangsu	-11.4003
▁Photoshop	-11.4003
▁Sundsvall	-11.4003
▁Victoria	-11.4003
ជម្រាល	-11.4003
្រៀមខ្លួនជាស្រេច	-11.4003
▁៥២២	-11.4003
Banner	-11.4003
ក្លិប	-11.4003
ទ្រូង	-11.4003
▁Coinbase	-11.4003
ខិតខំប្រឹងប្រែង	-11.4003
▁RideA	-11.4003
3,000	-11.4025
ដ្ឋមន្រ្តីក្រសួង	-11.4055
ដង់ស៊ីតេ	-11.4067
uzz	-11.4094
development	-11.4106
ឆ្ងាញ់	-11.4106
rofessional	-11.4106
ទំពាំងបាយជូ	-11.4106
វាំងនន	-11.4106
▁Central	-11.4106
▁ROHS	-11.4106
▁អ័ព្វ	-11.4106
អៀរឡង់	-11.4106
Screen	-11.4106
▁ចំនួនអ្នកមើល	-11.4106
graphic	-11.4106
▁Peach	-11.4107
▁OnePlus	-11.4107
▁example	-11.4107
archive	-11.4107
▁Extra	-11.4107
Talk	-11.414
4,000	-11.4178
World	-11.4179
រចនាសម្ព័ន	-11.421
ចក្ខុវិស័យ	-11.421
ស្រីឡូរ៉ាថូម៉ាស	-11.421
ហិរញ្ញប្បទាន	-11.421
▁Dariussssss	-11.421
▁people	-11.421
▁rsquo	-11.421
▁Regulator	-11.4211
contact	-11.4211
hwn	-11.4211
ស្ទីន	-11.4248
▁17:3	-11.4266
▁សូម្បី	-11.428
ឧត្តមសិក្សា	-11.4316
Wholesal	-11.4316
ចំណង់ចំណូលចិត្ត	-11.4316
ពិស្ដារ	-11.4316
រឿងព្រេង	-11.4316
ល័ក្ខខ័ណ្ឌ	-11.4316
▁Flodeal	-11.4316
▁Pulsar	-11.4316
▁ដេរលំនាំរ៉ូប	-11.4316
កុលសម្ព័ន្ធ	-11.4316
ចង្វាក់	-11.4316
ជាលិកា	-11.4316
បង្គន់	-11.4316
អភិបូជា	-11.4316
ឧទ្ទិស	-11.4316
Desktop	-11.4316
▁ការកសាងសមត្ថភាព	-11.4316
ការទទួលជ័យជម្នះ	-11.4316
▁York	-11.4316
▁២៧១	-11.4316
▁Brown	-11.4316
▁LDAP	-11.4316
ចម្លាក់ថ្មម៉ាប	-11.4316
▁Town	-11.4316
អនុបណ្ឌិតវេទមន្ត	-11.4316
Samples	-11.4317
hydroxy	-11.4317
ological	-11.4321
young	-11.4342
ប្រៀប	-11.4418
ឈ្មួញ	-11.4421
ប្តេជ្ញា	-11.4422
ទីស្នាក់ការ	-11.4422
ប៊ុលហ្គារី	-11.4422
ព្រឹត្តិប័ត្រ	-11.4422
មូលធន	-11.4422
លេចធ្លោ	-11.4422
portugal	-11.4422
ពន្យាពេល	-11.4422
អាយហ្វូន។	-11.4422
▁Fantasy	-11.4422
▁Okular	-11.4422
▁Organization	-11.4422
▁Wisconsin	-11.4422
▁កុងតាក់	-11.4422
▁ក្រសួងការបរទេស	-11.4422
▁រំលងទៅមាតិកា	-11.4422
▁website	-11.4422
ក្បៀស	-11.4422
▁Album	-11.4422
▁GMCC	-11.4422
▁Plc	-11.4423
▁FAQ	-11.4423
ប្រលង	-11.4423
▁ដូច្នោះ	-11.4423
write	-11.4429
▁deposit	-11.4473
ពិគ្រោះយោបល់	-11.453
វីរុសកូរ៉ូណា	-11.453
ូបនីយកម្ម	-11.453
តូក្យូ	-11.453
ទន្លេបាសាក់	-11.453
ម៉ូនីទ័រ	-11.453
▁Brokers	-11.453
▁Huizhou	-11.453
▁Original	-11.453
▁translator	-11.453
▁ខេមរភាសា	-11.453
▁Munich	-11.453
កម្ចាត់	-11.453
sweden	-11.453
តាក់ស៊ី	-11.453
ដោយរបៀបណា	-11.453
▁Hydro	-11.453
present	-11.4531
ទូរសព្ទ័	-11.4535
▁ស្វែងយល់បន្ថែម	-11.4552
Rep	-11.4584
យន្តហោះឯកជ	-11.4623
ធម្ម	-11.4632
ខិតខំ	-11.4638
ស្លូវ៉ាគី	-11.4638
អាសអាភាស	-11.4638
លំអៀង	-11.4638
សំរួល	-11.4638
អ្នកចូលមកទស្សនា	-11.4638
ឧបករណ៏	-11.4638
▁SPYERA	-11.4638
▁ហ្វាយនែន	-11.4638
▁★★★★★	-11.4638
កេរ្តិ៍	-11.4638
ដែលនៅជិតខ្ញុំ	-11.4638
▁Estonia	-11.4638
▁Oracle	-11.4638
acledabank	-11.4638
បាឡិ	-11.4638
feature	-11.4639
▁Giant	-11.4639
ន្រ្	-11.4639
▁ណ្ណ	-11.464
ម៉ូប៊ិ	-11.4641
ទូរសារ	-11.4642
Graph	-11.4722
ប្រឹងប្រែង	-11.4748
ទួលគោក	-11.4748
អូឡាំពិក	-11.4748
hungary	-11.4748
កន្ត្រក	-11.4748
សុចរិត	-11.4748
សំរេច	-11.4748
ឯកអគ្គរដ្ឋទូត	-11.4748
▁Prudential	-11.4748
▁ង្រ្គោះ	-11.4748
▁តិបិដក	-11.4748
▁ទីក្រុងនីងបូ	-11.4748
នុយក្លេអ៊ែរ	-11.4748
អត្រាប្តូរប្រាក់	-11.4748
អ៊ីរ៉ង់	-11.4748
▁ចូលអានថ្ងៃទី	-11.4748
ដីគោក	-11.4748
ស៊ុយអែដ	-11.4748
▁Remote	-11.4748
លោកយ៉ូហាន	-11.4748
▁Kolab	-11.4748
▁Cream	-11.4749
104.13	-11.4758
▁Petr	-11.4773
មានសុខភាពល្អ	-11.4775
speed	-11.4801
ម៉ឺន	-11.4859
យ៉ាងតឹងរឹង	-11.4859
សុបិន្ត	-11.4859
កូឡុំប៊ី	-11.4859
ពន្ធនាគារ	-11.4859
ស្មារតី	-11.4859
▁SmartLuy	-11.4859
មិនអើពើ	-11.4859
▁Fruity	-11.4859
ហ្គូហ្គល	-11.4859
▁Armati	-11.4859
▁Credit	-11.4859
▁install	-11.4859
▁កុងទ័រ	-11.486
▁ក្រសួងអ៊ិនធឺណិ	-11.4866
Turn	-11.4869
scope	-11.4871
ទំនេរ	-11.4881
ថ្ន	-11.4902
ក្រវ៉ាត់	-11.4957
ាប់ចរន្តអគ្គីសនី	-11.497
ព័ទ្ធ	-11.4971
▁គំនូស	-11.4972
ឆ្ពោះទៅរក	-11.4972
ថ្វាយ	-11.4972
អង់តែន	-11.4972
.08.2018	-11.4972
ឆ្នូត	-11.4972
▁Lithium	-11.4972
▁Welcome	-11.4972
▁iTunes	-11.4972
▁ដុះខាន់	-11.4972
▁បុព្វបទ	-11.4972
session	-11.4972
▁Notification	-11.4972
widget	-11.4972
ធ្វើលំហាត់ប្រាណ	-11.4972
security	-11.4972
អ៊ីនធឺណែ	-11.4972
▁Dragon	-11.4972
មេត្តា	-11.4972
▁COWIN	-11.4972
▁Tonle	-11.4972
Lesson	-11.4974
chloro	-11.4979
មានទីតាំងនៅ	-11.4979
ព្រមទាំង	-11.5003
សាធារណ	-11.5067
dictionary	-11.5085
បុព្វលាភ	-11.5085
▁Akregator	-11.5085
មិនគួរឱ្យជឿ	-11.5085
ស្ថានទូត	-11.5085
africa	-11.5085
▁Colorado	-11.5085
plugin	-11.5085
▁Bassac	-11.5085
ផ្សែង	-11.5085
អ៊ីម៉ែលមកកាន់យើង	-11.5086
▁Bridge	-11.5086
រំពឹងថានឹង	-11.5086
បោះបង់ចោល	-11.51
ម៉ុន	-11.5114
ប្រតិភូ	-11.52
ជំនួប	-11.52
អត់ឱន	-11.52
▁Nashville	-11.52
aribbean	-11.52
ម៉ិកស៊ិក	-11.52
សវនកម្ម	-11.52
សិប្បនិម្មិត	-11.52
ស្តេរ៉េអូ	-11.52
អ៊ូប៊ុនទូ	-11.52
▁Advanced	-11.52
▁Aznavour	-11.52
▁HQQNUO	-11.52
▁លោកមូបារ៉ាក់	-11.52
▁Jizera	-11.52
អាណត្តិ	-11.52
▁Policy	-11.52
▁showcase	-11.52
▁Earth	-11.5201
▁folder	-11.5201
▁CPU	-11.5201
Reason	-11.5201
hopify	-11.5201
យល៍	-11.5202
style	-11.5204
សប្ដាហ៍	-11.5252
ដាច់ដោយឡែក	-11.5295
កោស	-11.5313
▁include	-11.5317
សុញ្ញកាស	-11.5317
មីយ៉ាន់ម៉ា	-11.5317
អបអរ	-11.5317
▁GNOME	-11.5317
▁Illinois	-11.5317
▁League	-11.5317
▁Middle	-11.5317
filament	-11.5317
yahoo	-11.5317
▁(24×	-11.5317
ទូរស័ព	-11.5317
ខ្សែរ៉ូត	-11.5317
▁NZD	-11.5317
▁Svay	-11.5317
ទេវតា	-11.5317
▁នោះហើយជា	-11.532
ចោទ	-11.5322
▁Window	-11.5369
ភ្ញៀវទេសចរ	-11.5395
▁Contact	-11.5427
▁Indonesia	-11.5434
.06.2018	-11.5434
កីឡដ្ឋាន	-11.5434
ជំរឿន	-11.5434
ដង្កូវ	-11.5434
ប្រឈមមុខនឹង	-11.5434
ពិធីជប់លៀង	-11.5434
អាប់ដេត	-11.5434
▁tensile	-11.5434
▁លេជេន	-11.5434
ជំហរ	-11.5434
▁Venice	-11.5434
request	-11.5434
ការឆ្លងមេរោគ	-11.5434
ក្រឡុក	-11.5435
result	-11.5435
ម្រាម	-11.5435
0,00	-11.5485
▁អំឡុង	-11.5515
ស៊ីមកាត	-11.5552
ក្ដៅ	-11.5553
ជំងឺដាច់សរសៃឈាម	-11.5553
ធ្វើសមកាលកម្ម	-11.5553
192.168.	-11.5553
បំប៉ន	-11.5553
▁92904034	-11.5553
ប្រមាញ់	-11.5553
ពោរពេញ	-11.5553
▁Jaishi	-11.5553
cuador	-11.5553
Status	-11.5554
▁update	-11.5554
ទំហំដី៖	-11.5556
lbania	-11.5561
ព្រឹទ្ធ	-11.5673
វិសាលគម	-11.5674
អ៊ឺរ៉ុប	-11.5674
.07.2018	-11.5674
កុហក	-11.5674
ដាវីឌ	-11.5674
ពោះវៀន	-11.5674
យុវវ័យ	-11.5674
រលួយ	-11.5674
▁FaceTime	-11.5674
▁KHMER	-11.5674
▁Nandrolone	-11.5674
▁Netscape	-11.5674
និងខ្លឹមសារនៃ	-11.5674
សន្និដ្ឋាន	-11.5674
អេដស៍	-11.5674
▁Welded	-11.5674
ការប្តេជ្ញាចិត្ត	-11.5674
ពិដាន	-11.5674
ស្អប់	-11.5674
▁WWE	-11.5674
≤	-11.5768
Online	-11.5768
ក្វាងទុង	-11.5772
យួរដៃ	-11.5786
ឪ	-11.5796
ច្រមុះ	-11.5796
ដំឡូង	-11.5796
បញ្ចូន	-11.5796
ប្រម៉ូសិន	-11.5796
សំងាត់	-11.5796
▁Electronic	-11.5796
▁Hequanqingnuo	-11.5796
▁Kingdom	-11.5796
▁Mozilla	-11.5796
▁SnapPea	-11.5796
▁drifter	-11.5796
▁គីឡូបៃ	-11.5796
▁ស្រិចៗ	-11.5796
▁Capital	-11.5796
ស្រមៃ	-11.5796
health	-11.5796
▁schwing	-11.5796
▁Rooder	-11.5796
មិនអីទេ	-11.5796
▁Place	-11.5797
ក្បត់	-11.58
▁Prime	-11.5801
មគ្គុទ្ទេ	-11.5892
ថ្ង	-11.5918
ឌ្ឍ	-11.5919
កំពង់ចាម	-11.5919
ដួលរលំ	-11.5919
អ៊ីនធើណេ	-11.5919
▁GnuPG	-11.5919
▁Simplilearn	-11.5919
▁Sliding	-11.5919
▁nanoparticles	-11.5919
ប្រញាប់	-11.5919
អចិន្រ្តៃយ៍	-11.5919
▁Delaware	-11.5919
ប្រអប់សំបុត្រលេខ	-11.5919
▁Edge	-11.5919
ថោន	-11.5919
KDEDIR	-11.592
▁Shengd	-11.592
▁3.0.1.	-11.5926
phenol	-11.5933
លីចូម	-11.6044
ប៉ាន់ស្មាន	-11.6044
▁Panasonic	-11.6044
▁Seguidores	-11.6044
ញញួរ	-11.6044
បណ្តុំ	-11.6044
បណ្តេញ	-11.6044
ទំរង់	-11.6044
▁Training	-11.6044
កន្លងផុត	-11.6044
ការឈឺចាប់	-11.6045
daily	-11.6045
Wallet	-11.6052
▁កន្លង	-11.6127
ប្រាក់បៀវត្សរ៍	-11.6171
ឫស្សី	-11.6171
ទេសរដ្ឋមន្ត្រី	-11.6171
មេគង្គ	-11.6171
យុថ្កា	-11.6171
យ៉ាកុប	-11.6171
សវនាការ	-11.6171
▁Africa	-11.6171
▁Cursor	-11.6171
▁Odessa	-11.6171
▁Odisha	-11.6171
▁adhesive	-11.6171
▁minutes	-11.6171
ចំរុះ	-11.6171
តែម្នាក់ឯង	-11.6171
សហរដ្ឋអាមេរិច	-11.6171
▁properly	-11.6171
ជួបប្រទះ	-11.6171
ម្ដាយ	-11.6171
អាចចរចាបាន	-11.6171
▁Thermo	-11.6171
អង្វរ	-11.6171
aolong	-11.6172
English	-11.6173
Ctrl	-11.6173
ngolia	-11.6177
អំឡុងពេល	-11.6178
▁បណ្ដោះ	-11.6298
ជនរងគ្រោះ	-11.6299
ដាំដុះ	-11.6299
នំបុ័ង	-11.6299
ល្មើស	-11.6299
/11/2019	-11.6299
Distributor	-11.6299
QFontDatabase	-11.6299
បិសាច	-11.6299
▁Community	-11.6299
▁Litbright	-11.6299
▁Sleepsuits	-11.6299
សេអ៊ូល	-11.6299
▁Makara	-11.6299
ការរួមភេទ	-11.6299
ឆ្នាំ២០២០	-11.6299
computer	-11.63
stream	-11.63
ឆន្ទៈ	-11.6313
អេឡិចត្រ	-11.6372
បានរចនាឡើង	-11.6424
ទៅវិញទៅមក	-11.6429
ធញ្ញជាតិ	-11.6429
សមិទ្ធិផល	-11.6429
អាថ៌កំបាំង	-11.6429
▁Cambodge	-11.6429
▁Florida	-11.6429
▁Skrill	-11.6429
▁graphene	-11.6429
▁kturtle	-11.6429
▁ខណ្ឌដូនពេញ	-11.6429
▁Kevin	-11.6429
▁Richard	-11.6429
ស្រមុង	-11.6429
ហ្គ្រោ	-11.6429
ងាយស្រួលនិងរហ័ស	-11.6429
អាចជឿទុកចិត្តបាន	-11.6429
ខ្សែកាបអុបទិ	-11.6433
ទីលំនៅ	-11.6438
គីឡូម៉ែត្រ	-11.6453
ផ្ដល់អនុសាសន៍	-11.6553
លេខទូរសព្ទ	-11.6554
ម៉ែន	-11.6557
phosph	-11.656
កីឡាវាយកូនគោល	-11.656
បណ្ដុះបណ្ដាល	-11.656
បរិញ្ញា	-11.656
រ៉ាំរ៉ៃ	-11.656
របៀបវារៈ	-11.656
▁Meyelashstore	-11.656
▁ទីក្រុងតុងគួ	-11.656
Library	-11.656
ទេពកោសល្យ	-11.656
កោះរុង	-11.656
▁nicht	-11.656
ជួញដូរនៅទីផ្សារ	-11.6561
▁Silver	-11.6561
ь	-12.0005
ឍ	-12.0005
·	-12.0193
中	-12.0782
•	-12.1054
	-12.5165
ឲ	-12.9596
′	-13.1767
●	-13.3748
繁	-13.6284
文	-13.7284
←	-14.1948
ệ	-14.2741
‧	-16.5574
體	-16.5574
