<unk>	0
<s>	0
</s>	0
▁	-2.14862
,	-4.15954
.	-4.34005
:	-4.64386
;	-4.7104
s	-4.83144
-	-4.97002
▁&	-4.99848
)	-5.23544
រ	-5.32584
▁(	-5.36312
▁។	-5.36472
e	-5.36646
amp	-5.4052
។	-5.41002
▁ការ	-5.45281
ស	-5.56634
▁#	-5.57731
ក	-5.58193
/	-5.61478
▁160;	-5.64384
ការ	-5.71095
▁បាន	-5.71942
ន	-5.72754
▁និង	-5.74058
ម	-5.77397
ប	-5.78711
p	-5.79363
y	-5.80093
▁/	-5.81125
gt	-5.82075
▁-	-5.85742
ត	-5.85911
▁1	-5.86691
ល	-5.87769
និង	-5.94398
a	-5.95696
c	-5.9765
S	-6.00198
b	-6.00283
m	-6.00822
ង	-6.02197
▁អ្នក	-6.04279
▁ដែល	-6.05393
%	-6.05685
in	-6.06164
er	-6.11482
n	-6.11836
▁S	-6.1211
t	-6.12298
ជា	-6.12752
r	-6.15382
A	-6.16377
្	-6.17437
D	-6.17625
ព	-6.17676
C	-6.18646
2	-6.19572
o	-6.19905
មាន	-6.22689
▁នៅ	-6.23305
g	-6.23306
k	-6.23353
u	-6.23616
▁P	-6.23671
▁C	-6.25282
f	-6.27627
i	-6.27848
d	-6.27901
l	-6.28277
បាន	-6.28564
P	-6.29525
ច	-6.32932
00	-6.33903
នៅ	-6.35264
ស្	-6.36414
▁B	-6.3707
▁2	-6.37467
នៃ	-6.37475
w	-6.38979
ដ	-6.39866
re	-6.4009
M	-6.40546
h	-6.41422
ar	-6.42937
ដែល	-6.43035
▁ជា	-6.45937
al	-6.47177
▁របស់	-6.47668
យ	-6.5042
សម្រាប់	-6.50488
▁ក្នុង	-6.51842
an	-6.52398
3	-6.52783
ា	-6.54001
ូ	-6.54883
នេះ	-6.54889
ing	-6.55652
វ	-6.55975
▁F	-6.56119
on	-6.56817
T	-6.5802
="	-6.58665
▁3	-6.58792
អ្នក	-6.58857
▁A	-6.59089
x	-6.60712
▁មាន	-6.63237
B	-6.63444
lt	-6.63665
ភាព	-6.63769
4	-6.63891
▁នេះ	-6.64206
របស់	-6.64299
នៅក្នុង	-6.64392
L	-6.65379
▁G	-6.66
ពី	-6.66663
▁K	-6.67082
"	-6.67313
ទី	-6.6732
▁T	-6.68344
com	-6.70641
1	-6.70932
I	-6.71516
▁សម្រាប់	-6.71606
▁កម្មវិធី	-6.71668
ដោយ	-6.72085
▁_	-6.72579
េ	-6.72692
en	-6.7279
▁ដោយ	-6.73764
ទ	-6.73884
v	-6.7439
ch	-6.76056
▁មិន	-6.76534
ុ	-6.76664
មួយ	-6.77629
et	-6.77725
អ	-6.7788
G	-6.78198
!	-6.79131
20	-6.81407
ោ	-6.8145
R	-6.81881
ed	-6.81905
H	-6.82614
5	-6.84578
O	-6.84597
ទៅ	-6.85135
▁៖	-6.85254
or	-6.85414
▁D	-6.86711
le	-6.86874
▁M	-6.877
F	-6.87747
E	-6.88305
?	-6.8852
V	-6.88578
▁ត្រូវ	-6.89423
▁start	-6.9008
▁E	-6.90209
▁H	-6.90235
▁ឬ	-6.90377
st	-6.90569
▁4	-6.91327
"&	-6.91434
it	-6.91473
▁dur	-6.91586
ិ	-6.92484
8	-6.92592
វា	-6.93401
▁5	-6.9448
N	-6.96554
ែ	-6.96876
ri	-6.97272
K	-6.99413
0	-6.99915
W	-7.00493
▁វា	-7.00617
ur	-7.00628
▁W	-7.01254
▁kgm	-7.03096
▁ទៅ	-7.03823
គ	-7.04331
▁អាច	-7.04387
▁ប្រើ	-7.05385
://	-7.06491
ី	-7.06669
▁ដើម្បី	-7.07585
el	-7.07935
▁នឹង	-7.08523
នា	-7.09122
▁ខែ	-7.0917
9	-7.09189
es	-7.09505
z	-7.09763
10	-7.10314
ដើម្បី	-7.10611
ក្នុង	-7.1071
▁ឯកសារ	-7.1072
...	-7.11199
▁R	-7.11284
រា	-7.12857
ជាមួយ	-7.12935
▁N	-7.13033
ញ	-7.13147
▁$	-7.1382
▁...	-7.14147
▁6	-7.14183
is	-7.14457
▁L	-7.14496
ro	-7.14513
_	-7.14567
=	-7.15051
ើ	-7.15553
▁–	-7.15569
▁10	-7.15995
▁កំណត់	-7.16047
ថ	-7.1622
ថា	-7.16821
7	-7.17419
▁ហើយ	-7.1793
ទឹក	-7.18451
ហ	-7.18677
ra	-7.18847
▁លោក	-7.18969
ic	-7.19142
នឹង	-7.196
ស៊ី	-7.19667
at	-7.19842
ណ	-7.2029
6	-7.20559
នៅលើ	-7.20593
▁ឆ្នាំ	-7.21277
▁ពី	-7.21292
ប្រាក់	-7.22131
@	-7.22614
am	-7.22683
U	-7.23279
ប្រ	-7.23322
ឆ្នាំ	-7.23563
Name	-7.23991
▁ម៉ាស៊ីន	-7.24567
មិន	-7.25328
▁J	-7.25358
ia	-7.26621
▁"	-7.26841
▁in	-7.27161
▁មួយ	-7.27317
ad	-7.27856
ង់	-7.28585
សា	-7.28736
th	-7.2889
ល់	-7.29825
ter	-7.30482
ម្	-7.31161
ួ	-7.31285
របស់អ្នក	-7.32565
▁នៃ	-7.32967
ធ	-7.32984
co	-7.32987
ដែលមាន	-7.33166
X	-7.33692
ត្រ	-7.34088
អាច	-7.34385
50	-7.35219
▁សូម	-7.36026
ៀ	-7.36357
▁Co	-7.36708
▁7	-7.37088
ក្រ	-7.37339
▁2018	-7.37409
us	-7.37781
▁ឧបករណ៍	-7.37927
ណា	-7.38041
ភ	-7.38438
▁លើ	-7.39228
▁គឺ	-7.39363
▁+	-7.39721
▁ក្រុមហ៊ុន	-7.40311
▁ថ្ងៃ	-7.40486
▁អ	-7.41374
ក្រុមហ៊ុន	-7.41478
ជ	-7.42044
un	-7.42851
▁រូប	-7.42861
ol	-7.43537
លី	-7.43587
mm	-7.43882
▁ទំព័រ	-7.44488
តា	-7.44557
ត់	-7.44669
បា	-7.44971
▁the	-7.45962
12	-7.4636
លើ	-7.47401
ate	-7.47498
me	-7.47548
j	-7.48058
ធ្វើ	-7.48118
te	-7.48238
▁I	-7.48374
ខ្ពស់	-7.48754
កម្មវិធី	-7.49269
ul	-7.49635
័យ	-7.49664
▁O	-7.50001
'	-7.50158
▁Ch	-7.50191
យើង	-7.50615
ព្រ	-7.50877
30	-7.51079
៖	-7.51296
▁8	-7.51978
សំ	-7.52134
ly	-7.52153
▁http	-7.52511
▁19	-7.52559
ne	-7.52656
កា	-7.53177
▁ឈ្មោះ	-7.53421
▁V	-7.53954
lo	-7.54136
▁ផលិតផល	-7.54391
០	-7.54878
16	-7.55179
▁ធ្វើ	-7.55288
តាម	-7.55938
to	-7.56983
op	-7.57549
]	-7.58209
ម៉ាស៊ីន	-7.5832
ទូរស័ព្ទ	-7.5858
▁2019	-7.591
▁ព័ត៌មាន	-7.5912
01	-7.5919
▁*	-7.59411
▁20	-7.59534
15	-7.59985
id	-7.60287
ថ្មី	-7.60302
▁បង្ហាញ	-7.60478
តែ	-7.60874
&	-7.61589
11	-7.6162
ation	-7.6184
គឺ	-7.62101
as	-7.62131
៩	-7.62249
ឱ្យ	-7.62889
ស្រ	-7.63037
ត្រូវបាន	-7.6324
la	-7.63245
Y	-7.63729
ent	-7.64095
▁ជ្រើស	-7.64188
▁ប្រព័ន្ធ	-7.64453
គ្នា	-7.64569
ឹង	-7.64811
រី	-7.65043
▁ថា	-7.65214
il	-7.65217
៍	-7.65505
អា	-7.65529
ាន	-7.65731
ខ្ញុំ	-7.66178
ot	-7.66255
se	-7.66806
▁[	-7.67088
ឺ	-7.67137
ជាង	-7.67239
មក	-7.67297
▁12	-7.67387
ន់	-7.67735
ទេ	-7.67736
▁0	-7.67892
17	-7.68322
▁ដើម	-7.68776
▁ខ្ញុំ	-7.6913
▁ដង	-7.69346
de	-7.69496
ៃ	-7.69957
លេខ	-7.71124
ំ	-7.71364
▁ឲ្យ	-7.71428
ឡើង	-7.71625
▁ប្រ	-7.72505
▁ពេល	-7.72608
នៃការ	-7.7332
▁ស្លាក	-7.73409
li	-7.7347
80	-7.73968
១	-7.74121
▁ទំហំ	-7.74186
and	-7.74455
លោក	-7.74532
វី	-7.74799
ma	-7.74946
ទីក្រុង	-7.7577
”	-7.75817
▁U	-7.75865
sh	-7.7608
ta	-7.76227
ម៉ា	-7.76712
▁ប្រភេទ	-7.76802
ack	-7.76985
សម	-7.7702
▁X	-7.77078
ឬ	-7.77106
▁of	-7.7722
ប្រព័ន្ធ	-7.77325
▁យើង	-7.77372
ប្រើ	-7.77456
▁ថត	-7.77495
ែន	-7.77611
ិត	-7.77644
ប្រតិបត្តិការ	-7.78009
ក់	-7.78012
▁iPhone	-7.7823
ធំ	-7.78427
ពេល	-7.78577
ាប់	-7.78713
បំផុត	-7.79138
មុន	-7.79171
ang	-7.79247
ថ្ម	-7.79269
ល្អ	-7.79577
um	-7.7963
ut	-7.79959
ម៉ូ	-7.79997
City	-7.80146
ដែក	-7.80236
ហ្វ	-7.80342
័	-7.80394
ដែលបាន	-7.80825
25	-7.81038
▁Re	-7.81553
▁2017	-7.81745
ឡា	-7.81909
ឡ	-7.81963
40	-7.82838
ត្	-7.82965
កម្ពុជា	-7.83792
60	-7.83926
រដ្ឋ	-7.83944
កំណត់	-7.84
ពិ	-7.84039
org	-7.84364
▁តម្លៃ	-7.84655
ir	-7.84964
យ៉ាង	-7.85057
ow	-7.85087
▁ទូរស័ព្ទ	-7.85126
ខ	-7.85438
▁លេខ	-7.85464
▁15	-7.8567
៥	-7.86154
ហើយ	-7.86222
ត្រូវ	-7.86241
▁បើ	-7.86434
មើល	-7.86568
km	-7.86625
ថ្ងៃ	-7.87214
ពីរ	-7.87328
▁ជាមួយ	-7.87343
28	-7.87804
▁បន្ថែម	-7.87919
ប់	-7.88059
អំពី	-7.88112
kh	-7.88481
ឧបករណ៍	-7.88536
ទទួលបាន	-7.89078
▁តែ	-7.89113
ill	-7.89844
កាត់	-7.90028
Comment	-7.90043
ភ្ជាប់	-7.9015
ដា	-7.90161
18	-7.90204
ៈ	-7.90276
ខែ	-7.90301
ver	-7.90338
នី	-7.90499
ion	-7.90526
ផ	-7.90534
ប្រទេស	-7.90674
di	-7.90706
ho	-7.90778
09	-7.91177
mo	-7.91289
ong	-7.9129
ាំង	-7.91664
ពេញ	-7.91794
ផ្	-7.91822
ដាក់	-7.91885
▁9	-7.9198
ទាំងអស់	-7.92354
13	-7.92592
ផលិតផល	-7.92859
▁១	-7.92931
om	-7.92996
មនុស្ស	-7.93024
ex	-7.93088
ែក	-7.93183
im	-7.93283
ុំ	-7.93327
35	-7.93449
▁•	-7.93491
▁រូបភាព	-7.93678
(	-7.93732
ha	-7.93814
ចូល	-7.93868
all	-7.94389
កម្ម	-7.94399
ិច	-7.95108
14	-7.95141
៉	-7.95153
▁មើល	-7.95293
៨	-7.95393
▁ពណ៌	-7.95528
▁តើ	-7.95725
ទុក	-7.95964
និងការ	-7.95972
នូវ	-7.9599
19	-7.96073
▁ចំនួន	-7.96405
▁info	-7.96453
tr	-7.96489
របស់យើង	-7.96503
▁ក្រុម	-7.96817
ផ្តល់	-7.9687
ដី	-7.97045
ទូ	-7.97547
▁២	-7.97672
▁In	-7.97696
ទាំង	-7.97794
និ	-7.97839
27	-7.97852
/?	-7.98588
បទ	-7.98644
ជាតិ	-7.98761
▁ទាញយក	-7.98854
90	-7.98933
ay	-7.99203
២	-7.99565
ហា	-7.9987
ករ	-7.9991
ផលិត	-7.9994
បន្ថែម	-8.00001
លក់	-8.00012
មី	-8.00018
04	-8.00042
ឌី	-8.00071
ុន	-8.00111
06	-8.00162
02	-8.00167
▁ចុច	-8.00231
29	-8.0057
ស្ត	-8.00926
▁@	-8.00985
អេ	-8.01065
▁'	-8.01141
ard	-8.01182
▁ផ្នែក	-8.01229
ិន	-8.01263
ដូចជា	-8.01303
ដ៏	-8.01369
▁30	-8.01674
រួម	-8.01802
▁Ma	-8.02027
▁អា	-8.0218
▁to	-8.02369
▁ប្រអប់	-8.02392
រយៈពេល	-8.02782
បំពង់	-8.02882
ដៃ	-8.0313
ab	-8.03178
ry	-8.03416
ឹក	-8.0346
ុង	-8.03786
ៗ	-8.04074
កន្លែង	-8.04206
វិ	-8.04295
▁បន្ទាប់	-8.04585
no	-8.0471
សារ	-8.04789
ឆ្	-8.04976
អូ	-8.05008
ោះ	-8.05052
▁https	-8.05257
ca	-8.05542
ដេ	-8.05739
ber	-8.05951
ip	-8.0613
▁រក្សា	-8.06416
បង្កើត	-8.0645
សញ្ញា	-8.06624
ឆ	-8.06691
ក្រុម	-8.06738
ធ្វើការ	-8.06744
24	-8.06972
ine	-8.0724
▁and	-8.07272
23	-8.07569
ជាមួយនឹង	-8.07612
per	-8.07636
ph	-8.08083
តិ	-8.08226
J	-8.08537
ាយ	-8.08644
នោះ	-8.08665
▁ថ្មី	-8.08779
▁200	-8.08852
08	-8.08937
▁មុន	-8.09136
លេង	-8.09264
86	-8.09354
▁ផ្លូវ	-8.09561
▁18	-8.09604
▁តាម	-8.09711
ap	-8.09763
រថយន្ត	-8.09892
05	-8.10287
បង្ហាញ	-8.10299
កំ	-8.10308
ដើម	-8.10329
▁ភាសា	-8.10396
ចំនួន	-8.10599
est	-8.10638
ដល់	-8.10811
na	-8.10961
ហ្	-8.11118
▁“	-8.1126
បន្ត	-8.1152
ាំ	-8.1167
▁ខាង	-8.12221
em	-8.12558
07	-8.12599
ព័ត៌មាន	-8.12788
▁St	-8.12803
មុខ	-8.13649
03	-8.13666
យក	-8.13776
ក្នុងការ	-8.13777
គី	-8.13886
ce	-8.13905
២០	-8.13958
▁2016	-8.1424
www	-8.1431
នាក់	-8.14667
ផ្លូវ	-8.14811
▁ម៉ោង	-8.14893
សម្រាប់ការ	-8.15022
ែង	-8.15149
▁អត្ថបទ	-8.1525
បន្	-8.15288
ers	-8.15616
ក្រោម	-8.15677
រ៉ា	-8.15864
36	-8.15971
៦	-8.15986
ផ្នែក	-8.16078
កូដ	-8.16123
34	-8.16128
up	-8.16153
▁សារ	-8.16182
▁Z	-8.16191
ពួកគេ	-8.16389
ខ្មែរ	-8.16453
33	-8.16546
ពិសេស	-8.16592
▁បើក	-8.169
▁ត្រូវបាន	-8.1697
ឃ	-8.17082
ួល	-8.17115
▁ពាក្យ	-8.17232
យូ	-8.17303
he	-8.17383
▁name	-8.17788
▁ទេ	-8.17886
45	-8.17901
វ៉ា	-8.18062
one	-8.18217
age	-8.1829
រ៉ូ	-8.18688
បី	-8.18857
ន្ទ	-8.19156
លា	-8.19299
22	-8.19409
ie	-8.19456
ៅ	-8.19515
ផ្គត់ផ្គង់	-8.19712
បញ្ចប់	-8.19772
▁Ro	-8.19986
ub	-8.20038
ាក់	-8.20067
ge	-8.20242
▁2013	-8.20303
▁+0000	-8.20326
▁Ltd	-8.2049
ៀង	-8.20654
▁»	-8.21073
▁២០	-8.21267
▁16	-8.21286
ប្រភេទ	-8.21403
ាត់	-8.21629
1%9	-8.21646
▁គ្មាន	-8.21657
▁for	-8.21954
ឈ	-8.21966
ពាណិជ្ជកម្ម	-8.22112
៊	-8.22166
មេ	-8.22218
រំ	-8.22303
ការងារ	-8.22439
99	-8.22594
ះ	-8.22743
អាមេរិក	-8.22769
វិធី	-8.2279
គ្រ	-8.22864
▁24	-8.22894
ec	-8.23018
្លា	-8.23065
ផ្ទៃ	-8.23136
do	-8.2317
31	-8.23281
ចិត្ត	-8.23377
ជំនួស	-8.23407
ភាគ	-8.23776
▁ជម្រើស	-8.23872
▁ទីក្រុង	-8.24134
កាល	-8.24243
លាយ	-8.24247
ទំ	-8.24653
hi	-8.24743
ធម្មតា	-8.24899
-1	-8.24955
៣	-8.25024
ចុងក្រោយ	-8.25117
ឡើងវិញ	-8.25143
៧	-8.25299
▁អំពី	-8.2532
នាំ	-8.25477
▁បញ្ជី	-8.25566
ល្អបំផុត	-8.25615
art	-8.25671
ដុល្លារ	-8.25756
▁យក	-8.25787
៤	-8.25951
ថាមពល	-8.26205
32	-8.26214
កាន់	-8.26287
lu	-8.26459
▁បង្កើត	-8.26499
▁ពិនិត្យ	-8.26515
ect	-8.26861
ផ្ទាល់	-8.27019
ដំបូង	-8.27153
▁100	-8.27188
▁Sh	-8.27372
ការពារ	-8.27424
ell	-8.27472
▁Cambodia	-8.27475
តម្លៃ	-8.27637
▁ធាតុ	-8.27723
#	-8.27818
តំបន់	-8.27845
សេវាកម្ម	-8.27944
ដំណើរការ	-8.28053
bo	-8.28133
▁14	-8.28183
ac	-8.28268
ចាប់ផ្តើម	-8.28274
ru	-8.28344
ព្រះ	-8.28522
ពន្លឺ	-8.28622
ត្រា	-8.28863
ធ្វើឱ្យ	-8.28913
▁25	-8.28987
អនុវត្ត	-8.29091
we	-8.29147
▁រក	-8.29245
26	-8.29301
ve	-8.29332
pe	-8.29424
បូ	-8.29453
▁ប្រទេស	-8.2947
គ្រប់គ្រង	-8.29643
តាមរយៈ	-8.29673
os	-8.29762
រោងចក្រ	-8.29862
tion	-8.29891
fi	-8.29926
▁ចូល	-8.29946
ដោយឥតគិតថ្លៃ	-8.3027
ផ្សេងទៀត	-8.30359
▁KDE	-8.30376
ight	-8.30531
សេ	-8.30578
qu	-8.30596
សន្	-8.30609
▁2014	-8.30638
កូន	-8.30686
▁បញ្ចូល	-8.30699
ti	-8.3071
ចំណ	-8.3089
da	-8.31449
▁ចិន	-8.31479
pro	-8.31595
21	-8.31819
អតិថិជន	-8.31902
រៀបចំ	-8.32048
▁50	-8.32237
ចាប់	-8.32297
▁ហ	-8.32304
▁ជំនួយ	-8.32375
សូ	-8.32705
គម្រោង	-8.32933
ment	-8.33159
70	-8.33198
="3	-8.33315
ាស់	-8.33583
▁ទាំងអស់	-8.33612
ល្បឿន	-8.33788
សម្រ	-8.34081
ឌ	-8.34116
▁2015	-8.34258
ុក	-8.34291
អ្វី	-8.34462
ive	-8.3477
vi	-8.34929
ឡូ	-8.35005
▁ដាក់	-8.35142
ចេញ	-8.35241
55	-8.35402
les	-8.35692
កាត	-8.35706
ទិញ	-8.35708
ដូ	-8.35764
ខ្សែ	-8.36219
ite	-8.36312
តេ	-8.36321
ឯកសារ	-8.36483
ែល	-8.36489
អក្សរ	-8.36513
ទាក់ទង	-8.36705
▁ប៉ុន្តែ	-8.36885
37	-8.36942
ប៉	-8.37154
ig	-8.37296
ចុះ	-8.37429
▁Y	-8.37453
ud	-8.37537
if	-8.37592
▁ដូច	-8.3781
ag	-8.38136
គិត	-8.38176
▁ទំព័រដើម	-8.3849
សម្ភារៈ	-8.38959
ប៊	-8.39251
ប្រើប្រាស់	-8.39266
ថ្ងៃទី	-8.39342
ផ្សាយ	-8.39558
ឥឡូវនេះ	-8.39894
គេហទំព័រ	-8.39947
▁£	-8.39955
បច្ចេកវិទ្យា	-8.40013
គូ	-8.40302
ហេតុ	-8.40455
▁ថ្ម	-8.40472
ទំហំ	-8.40491
អនុ	-8.40961
្យ	-8.41064
ចូលរួម	-8.41215
សមត្ថភាព	-8.41266
▁No	-8.41417
▁To	-8.41602
ុះ	-8.41654
ម៉ូតូ	-8.41732
បើក	-8.41823
75	-8.41834
ស្បែក	-8.41954
Q	-8.41974
Z	-8.42088
▁ពួក	-8.42171
គឺជា	-8.42502
ord	-8.42574
បន្ទាប់	-8.42612
អាហារ	-8.42757
ល្	-8.42782
ឹម	-8.42782
ចំ	-8.42987
▁13	-8.43005
▁កំពុង	-8.43095
▁de	-8.43435
ant	-8.43451
ធ្	-8.43488
ជើង	-8.43558
រឿង	-8.43567
កូ	-8.4362
កំពុង	-8.43915
▁បញ្ជា	-8.43915
ប៉ា	-8.44081
ភ្នំ	-8.44164
គណនី	-8.44164
▁An	-8.44471
ត្រឹមត្រូវ	-8.44496
▁17	-8.44515
po	-8.44558
គុណភាព	-8.44709
ជាច្រើន	-8.44732
38	-8.44738
ធី	-8.44832
ចំពោះ	-8.45624
ក្រោយ	-8.4577
ិក	-8.4603
ian	-8.46129
ប្រចាំ	-8.4613
ts	-8.46251
ផ្ដល់	-8.4626
ide	-8.46366
យន្តហោះ	-8.46469
សរុប	-8.46936
ខាង	-8.46939
ចិន	-8.47168
tor	-8.4723
សំឡេង	-8.47277
▁តំបន់	-8.47362
va	-8.47557
▁ផ្	-8.47845
គ្រឿង	-8.4792
▁ទៀត	-8.47985
▁របៀប	-8.48164
តូច	-8.48394
▁ដំណឹង	-8.48437
ប្រកាស	-8.48486
▁ទាំង	-8.48629
ផ្សព្វផ្សាយ	-8.48654
US	-8.48748
កិច្ច	-8.48767
សំខាន់	-8.48784
od	-8.48799
័រ	-8.48907
▁ឡើង	-8.48917
ខ្លួន	-8.48921
65	-8.48964
▁កា	-8.49207
int	-8.49216
បូម	-8.49553
▁Android	-8.49743
du	-8.49942
បោះពុម្ព	-8.50011
ថ្ងៃនេះ	-8.5005
▁11	-8.5023
ff	-8.5027
pl	-8.50356
កុំព្យូទ័រ	-8.50358
▁«	-8.50431
មា	-8.50514
ទៀត	-8.50531
▁The	-8.50623
39	-8.51067
▁បិទ	-8.51124
សិទ្ធិ	-8.51193
រូប	-8.51205
ប៊ី	-8.51441
បំ	-8.51517
ធាតុ	-8.51912
ខ្មៅ	-8.52001
son	-8.52218
កំពូល	-8.52225
ថ្នាំ	-8.52226
គ្រប់	-8.52284
ទទួល	-8.52295
ចា	-8.52455
IN	-8.5255
eng	-8.52575
▁ខ	-8.52654
ឯក	-8.52731
ind	-8.52772
គ្មាន	-8.52796
ឧស្សាហកម្ម	-8.52856
200	-8.53136
▁ខ្សែ	-8.53146
ខេត្ត	-8.53173
ថ្នាក់	-8.53309
ដំឡើង	-8.53354
comment	-8.5337
លាន	-8.53496
ist	-8.53498
▁វិ	-8.53543
▁គឺជា	-8.5362
បញ្ហា	-8.53718
▁Windows	-8.53718
48	-8.53998
ស្រុក	-8.54008
▁Forex	-8.54129
ឧ	-8.54174
▁Capacitor	-8.54175
អង្គ	-8.54278
ស្រី	-8.54313
ជូន	-8.54315
ត្រូវបានគេ	-8.5434
*	-8.54343
▁កំហុស	-8.54413
min	-8.54634
▁ចង់	-8.54758
AP	-8.54787
ដ្ឋាន	-8.54837
IP	-8.55088
សិ	-8.55126
▁បច្ចុប្បន្ន	-8.55247
yl	-8.55269
au	-8.55604
▁De	-8.55632
គំរូ	-8.55836
បញ្ចូល	-8.55902
▁Al	-8.55912
សហ	-8.56007
រាជ	-8.56035
សោ	-8.56041
ជួល	-8.56065
▁ដល់	-8.56093
ប្	-8.56225
ករណី	-8.56256
ងាយ	-8.56257
ន្ត	-8.56365
tra	-8.5638
សត្វ	-8.56538
ជី	-8.56853
បណ្តាញ	-8.56956
បោះ	-8.57
វិញ	-8.5702
ជំ	-8.5705
▁អ៊ី	-8.57166
▁©	-8.57253
គេ	-8.5726
បិទ	-8.57277
▁ចេញ	-8.57293
សេវា	-8.57431
ear	-8.57524
▁ច្រើន	-8.5784
តើ	-8.57944
ផងដែរ	-8.57953
end	-8.58005
រចនាសម្ព័ន្ធ	-8.58032
លើក	-8.58222
ណ្	-8.58264
▁រចនា	-8.58304
ស៊េរី	-8.5843
ម៉ែត្រ	-8.5843
ast	-8.58553
lang	-8.58574
បណ្	-8.58587
▁Mo	-8.58591
ជ្រ	-8.5865
ទូទៅ	-8.58652
បន្ទប់	-8.58957
▁គ្រប់គ្រង	-8.58974
ជួរ	-8.59084
▁Mar	-8.59233
ភាសា	-8.59291
ណាស់	-8.59322
ពិភពលោក	-8.5939
ប្រវត្តិ	-8.59447
▁21	-8.59734
សុវត្ថិភាព	-8.59825
man	-8.59897
▁រោងចក្រ	-8.6018
ព្យ	-8.60273
pa	-8.60545
ពិនិត្យ	-8.60557
ទ្រ	-8.6081
io	-8.60812
▁(1	-8.60962
ជួយ	-8.60994
der	-8.61043
បន្ទាប់ពី	-8.61056
▁ដូច្នេះ	-8.61085
▁បោះពុម្ព	-8.61283
ហ្ស	-8.61385
ទៅកាន់	-8.6147
47	-8.61495
▁អាសយដ្ឋាន	-8.61589
ដឹង	-8.61597
brag	-8.61635
▁កែ	-8.61782
ចុច	-8.61783
ប្រសិនបើ	-8.61819
▁អាន	-8.61864
▁Me	-8.62069
AC	-8.62137
លក្ខណៈ	-8.62149
ទ្	-8.62158
▁Tr	-8.62282
85	-8.62456
ឡើយ	-8.62824
ai	-8.62962
ច្រើន	-8.62966
យោបល់	-8.62974
67	-8.63059
▁នោះ	-8.63174
សំណួរ	-8.63274
▁by	-8.63305
ឈ្មោះ	-8.63496
ច្បាប់	-8.63525
ies	-8.63606
unt	-8.63651
ងាយស្រួល	-8.63683
ក្រុង	-8.63708
អាន	-8.63778
▁អនុញ្ញាត	-8.63871
រន្ធ	-8.63928
▁ទិន្នន័យ	-8.63937
▁ទទួល	-8.63983
ile	-8.64033
cambodia	-8.64078
អេក្រង់	-8.6413
q	-8.64139
ity	-8.64234
រូបភាព	-8.64404
ស្ថាន	-8.64409
act	-8.64421
សំរាប់	-8.64426
តុ	-8.64435
▁ទំនាក់ទំនង	-8.64472
កីឡា	-8.64537
កង់	-8.64861
88	-8.64874
សាស្រ្ត	-8.65181
▁Hack	-8.65421
ឯកជន	-8.65422
មជ្ឈមណ្ឌល	-8.65505
▁ប្រសិន	-8.65555
\	-8.65607
អស់	-8.65905
ak	-8.65959
ជន	-8.65967
▁500	-8.66049
ug	-8.66297
▁Li	-8.66406
ផ្ទះ	-8.66428
out	-8.66474
▁រូបថត	-8.66514
mp	-8.66537
បុរស	-8.66599
លទ្ធផល	-8.66795
ចាក់	-8.66923
▁បង្អួច	-8.66923
វេ	-8.673
▁23	-8.67306
ft	-8.67353
ចម្	-8.67391
▁Sp	-8.67394
មូល	-8.67396
▁Po	-8.67454
លំនាំ	-8.67626
▁នាទី	-8.67764
ក្រុមហ៊ុនផលិត	-8.67847
▁ក្រណាត់	-8.67883
វិទ្យា	-8.67979
ib	-8.68135
ba	-8.68156
រហូតដល់	-8.68207
▁ឆ្លើយតប	-8.68215
សកម្មភាព	-8.68269
ace	-8.68371
be	-8.68412
អតិបរមា	-8.68471
បន្ទះ	-8.68471
TC	-8.68474
▁មក	-8.68546
រស់	-8.68581
យ៉ា	-8.68808
▁គេ	-8.68937
ជាការ	-8.68943
ប្លាស្ទិច	-8.6896
សាក	-8.68985
បញ្ជា	-8.69062
ដឹកនាំ	-8.69107
ុល	-8.69176
ហៅ	-8.6932
ចុង	-8.69327
▁លក់	-8.69657
ឈើ	-8.69658
ort	-8.69668
AR	-8.69691
go	-8.6984
សម្ងាត់	-8.69961
of	-8.70012
ម្នាក់	-8.70026
▁លេខយោង	-8.70091
ថ្លៃ	-8.70121
ហូ	-8.70244
ញ្ញ	-8.70294
ចង់	-8.70337
ទំនាក់ទំនង	-8.7035
បង្	-8.70432
▁សេវា	-8.70603
តម្រង	-8.70661
ត្រួតពិនិត្យ	-8.70714
មានការ	-8.70825
oc	-8.70926
ជីវិត	-8.71003
អំ	-8.71169
▁សាកលវិទ្យាល័យ	-8.71298
cm	-8.71439
ផ្តល់ជូន	-8.7146
49	-8.71532
▁22	-8.71635
ina	-8.71675
លុប	-8.71862
100	-8.71868
ដូច	-8.71922
2018	-8.71926
▁ល្ងាច	-8.71986
her	-8.72069
▁Bitcoin	-8.72073
AN	-8.72081
ក្រាម	-8.72174
59	-8.72515
សម្គាល់	-8.72677
tic	-8.72718
រថភ្លើង	-8.72776
▁៣	-8.72962
▁Q	-8.73
ពណ៌	-8.73031
▁2020	-8.73191
▁បន្ទាត់	-8.73194
ជំងឺ	-8.73285
="4	-8.73701
-20	-8.73762
▁Smart	-8.73842
របស់ខ្ញុំ	-8.73885
95	-8.73895
កំដៅ	-8.74176
កញ្ចប់	-8.74176
គោ	-8.74248
ផ្ទាល់ខ្លួន	-8.74321
▁~	-8.74557
តំណាង	-8.74568
▁រង	-8.74718
▁So	-8.74725
ជំនួយ	-8.74743
▁គ្រាប់	-8.74836
+	-8.74845
ស្គាល់	-8.74905
នាង	-8.74998
mb	-8.75314
gra	-8.75322
▁នៅពេល	-8.75508
ទីផ្សារ	-8.75655
ម៉ោង	-8.75758
▁ចាប់ផ្ដើម	-8.75784
44	-8.75854
▁Se	-8.75891
mail	-8.75937
oo	-8.75972
68	-8.75978
oll	-8.76006
▁អ្នកផ្គត់ផ្គង់	-8.7603
គួរ	-8.76134
▁និយាយ	-8.76147
▁បណ្ដាញ	-8.76193
ផ្សេងៗ	-8.76551
▁Bo	-8.7667
land	-8.76742
66	-8.76916
អាវ	-8.77074
ase	-8.77239
ក្នុងមួយ	-8.77307
▁ទុក	-8.77399
color	-8.77482
▁កម្រិត	-8.77547
▁ប៊ូតុង	-8.77573
រួច	-8.77581
43	-8.77607
built	-8.77644
ជិត	-8.77747
សាលា	-8.77758
▁សៀវភៅ	-8.7777
អ្វីដែល	-8.77776
han	-8.77858
អភិវឌ្ឍន៍	-8.78412
▁មតិ	-8.78533
ប្រា	-8.78552
IS	-8.78757
▁ផ្ទះ	-8.78814
ថត	-8.78877
ភ្លើង	-8.78933
58	-8.79105
ខាងក្រោម	-8.79151
69	-8.79161
ក្រណាត់	-8.79172
ប្រាក់រង្វាន់	-8.79201
សប្តាហ៍	-8.79221
ក្រហម	-8.79222
ga	-8.79242
ER	-8.79243
▁ពេលវេលា	-8.79276
ភាពយន្ត	-8.7928
▁USA	-8.79316
▁Th	-8.79361
▁ប្រទេសចិន	-8.79383
ប្រេង	-8.79579
ction	-8.79652
អេស	-8.79795
ដំណើរ	-8.79829
រៀន	-8.79945
ណាមួយ	-8.80046
56	-8.8011
មាស	-8.80159
98	-8.80352
▁26	-8.80353
ុយ	-8.80723
able	-8.80758
អ៊ីមែល	-8.80763
AT	-8.80812
ផ្ទេរ	-8.80841
▁មេ	-8.8086
▁ផ្ទុក	-8.8103
▁Un	-8.81106
si	-8.81402
ទាប	-8.81444
▁ក្រុង	-8.81444
ឋ	-8.81517
វ៉	-8.8154
ណែនាំ	-8.81662
mon	-8.8172
port	-8.81755
MP	-8.8176
gu	-8.81769
គាំទ្រ	-8.81842
▁ព្រះ	-8.82114
57	-8.82121
កាលបរិច្ឆេទ	-8.82145
ខ្លាំង	-8.82187
ដង	-8.82307
IC	-8.82321
▁ដំណើរការ	-8.82449
បរិ	-8.82479
ទេស	-8.82576
cr	-8.82645
51	-8.82678
ni	-8.82684
តំណ	-8.82692
សកម្ម	-8.82694
▁កាស៊ីណូ	-8.82722
▁រក្សាសិទ្ធិ	-8.82766
41	-8.82801
ust	-8.82813
▁Samsung	-8.82813
តូ	-8.82971
អគ្គិសនី	-8.82996
▁Google	-8.83057
▁ចាក់	-8.83102
កុមារ	-8.83119
វិភាគ	-8.83173
▁Le	-8.83207
77	-8.83354
▁Ar	-8.83356
ដុំ	-8.83526
▁be	-8.83656
អង្គការ	-8.83692
ម្សៅ	-8.83732
ov	-8.83835
▁បម្រើ	-8.8386
▁polyester	-8.83917
iz	-8.83994
Khmer	-8.84042
the	-8.84066
ប្ដូរ	-8.84071
ass	-8.84101
ចរ	-8.84137
រុករក	-8.84225
▁សរសេរ	-8.84229
0.0	-8.8426
▁ultrasonic	-8.84287
att	-8.84323
ទស្សនា	-8.84461
បង្កើន	-8.84646
សំបុត្រ	-8.84659
▁ស្វែងរក	-8.8469
▁ក្រោយ	-8.84732
ឈ្នះ	-8.84783
ប្រហែល	-8.84783
▁ផ្ញើ	-8.8482
ish	-8.8485
គាត់	-8.84884
រឹង	-8.8491
ank	-8.85046
េះ	-8.8505
ប្រធាន	-8.85073
64	-8.8535
ទំព័រ	-8.85505
▁ធនាគារ	-8.85536
ress	-8.85768
ka	-8.858
▁ទីតាំង	-8.85803
▁សម្ព័ន្ធ	-8.85842
សាកល្បង	-8.86097
អ៊ីម៉ែល	-8.8616
fo	-8.86189
▁°	-8.86194
ial	-8.86212
ត្រជាក់	-8.86287
កម្រិត	-8.86287
ផ្លាស់ប្ដូរ	-8.86318
សិក្សា	-8.86509
និយាយថា	-8.86682
០០	-8.86814
ទាញយក	-8.86869
ទិន្នន័យ	-8.87035
46	-8.87105
ner	-8.87109
ពេលវេលា	-8.87113
មិនមែន	-8.87179
របស់ខ្លួន	-8.87317
2019	-8.87483
សង្	-8.87549
▁100%	-8.87582
ប្រទេសចិន	-8.87601
▁ក្	-8.87656
ស៊	-8.8772
42	-8.87753
mer	-8.87976
pt	-8.87982
ick	-8.88027
ទូរស័ព្ទដៃ	-8.88041
ាន់	-8.8808
▁He	-8.8819
លឿន	-8.88263
ens	-8.8828
▁គាំទ្រ	-8.88307
▁Home	-8.88337
ដែលអ្នក	-8.88371
អាជីវកម្ម	-8.88456
ណ៍	-8.88458
▁ម៉ា	-8.88823
សាកលវិទ្យាល័យ	-8.88922
ឹ	-8.88943
ger	-8.89003
▁ការងារ	-8.89032
អាកាស	-8.89237
និយាយ	-8.89287
▁60	-8.89375
អាស៊ី	-8.8961
ទិដ្ឋភាព	-8.89623
ច្រ	-8.89635
ពាក្យ	-8.89641
រាប	-8.89721
ក្រៅ	-8.89925
▁ក៏	-8.90101
87	-8.90165
500	-8.90233
▁មូលដ្ឋាន	-8.90257
▁Sa	-8.90343
គំនិត	-8.9041
▁៤	-8.905
បង់	-8.90567
មូលដ្ឋាន	-8.90653
១៥	-8.90773
▁40	-8.90847
ach	-8.90884
log	-8.90921
ការប្រើប្រាស់	-8.90953
អង់គ្លេស	-8.91003
▁Ad	-8.91034
សាស្ត្រ	-8.91137
▁Br	-8.91183
hu	-8.91198
1"	-8.91212
ធានា	-8.91256
ម៉ាក	-8.91751
ចល័ត	-8.918
អន្តរជាតិ	-8.91811
54	-8.91844
ash	-8.91859
89	-8.92099
▁ព្រឹត្តិការណ៍	-8.92119
សុខភាព	-8.92223
ត្រូវការ	-8.92358
▁មម	-8.92441
▁Pro	-8.92609
▁បញ្ជាក់	-8.92667
ary	-8.92792
នៅទីនេះ	-8.92939
កាបូប	-8.93077
ting	-8.9313
១៦	-8.93137
app	-8.93216
92	-8.93227
គ្រប់យ៉ាង	-8.93227
▁វាយ	-8.93246
▁ឃើញ	-8.93292
▁sp	-8.93369
បំពេញ	-8.93605
សេចក្ដី	-8.93685
រាប់	-8.93763
ប័ណ្ណ	-8.93821
▁1000	-8.93894
▁គាត់	-8.94027
96	-8.94096
▁កំណែ	-8.94113
iv	-8.9417
មហា	-8.94275
×	-8.94299
ក្រសួង	-8.94299
ទា	-8.94357
ID	-8.9436
ជ្	-8.94361
វត្ថុ	-8.94436
53	-8.94449
▁អ្វី	-8.94488
ន៍	-8.94519
ក៏	-8.94607
ជូនដំណឹង	-8.94641
ផ្ទុក	-8.94892
▁វីដេអូ	-8.94983
▁សេចក្តី	-8.95029
របស់ក្រុមហ៊ុន	-8.95051
▁ចំណុច	-8.95139
▁CO	-8.9516
ពហុ	-8.95334
ជ្រើសរើស	-8.95399
ភា	-8.95403
អ៊ី	-8.95661
▁con	-8.95713
▁របារ	-8.95955
ail	-8.96028
="5	-8.96342
$	-8.96479
EN	-8.96756
រកឃើញ	-8.96775
ទ័រ	-8.96788
សូម	-8.97088
ង្គ	-8.97103
អភិវឌ្ឍ	-8.97129
ក្តៅ	-8.97283
ស្ថិត	-8.97353
ស្ទ	-8.97595
▁hour	-8.97616
អោយ	-8.9771
ឧទាហរណ៍	-8.97848
▁Da	-8.97888
តារាង	-8.97908
លែង	-8.97933
▁title	-8.98061
វែង	-8.98329
ត្រី	-8.98335
76	-8.98476
ប៉ុណ្ណោះ	-8.98488
dia	-8.98717
63	-8.9877
ធនាគារ	-8.98842
តិច	-8.98871
ពិធី	-8.98915
optional	-8.98917
រួមបញ្ចូល	-8.98967
បញ្ជាក់	-8.98978
ator	-8.99027
our	-8.99115
ប្រតិបត្តិ	-8.99135
រក្សា	-8.99181
▁€	-8.99203
រវាង	-8.99285
▁ចំណាំ	-8.99304
ចម្លង	-8.99348
93	-8.99402
វេទិកា	-8.99491
ជំហាន	-8.99563
ក្មេង	-8.99707
ium	-8.99726
52	-8.99805
lay	-8.99946
▁កញ្ញា	-9.00069
ធិ	-9.00215
▁item	-9.00296
ance	-9.00494
មាត្រ	-9.00647
ហ្គេម	-9.00723
72	-9.00761
old	-9.00976
ទម្រង់	-9.01015
lic	-9.01085
las	-9.01087
line	-9.01113
ana	-9.01159
ប្រសើរ	-9.01381
ភ្ល	-9.01459
▁Jo	-9.01492
សន្លឹក	-9.01528
ឥ	-9.01568
យុទ្ធ	-9.01602
’	-9.01675
ទាំងនេះ	-9.01707
កញ្ចក់	-9.01896
▁ឧសភា	-9.01898
វីដេអូ	-9.02046
សមាជិក	-9.02126
ko	-9.02175
ត្តិ	-9.02203
វិនិយោគ	-9.02266
ជំនាញ	-9.02287
ម្ចាស់	-9.0248
ton	-9.02533
71	-9.027
▁Mi	-9.02764
0.1	-9.02847
ភី	-9.02854
ដោយស្វ័យប្រវត្តិ	-9.02981
លំ	-9.03005
▁2012	-9.03174
១៨	-9.03212
លក្ខណៈពិសេស	-9.03351
▁ផ្សេង	-9.03351
cl	-9.03578
▁ធ្នូ	-9.03608
▁Ja	-9.0366
ចំណាយ	-9.03675
97	-9.03795
can	-9.03844
▁ទីនេះ	-9.03908
74	-9.03927
ផលិតកម្ម	-9.0396
បង្កើតឡើង	-9.03985
▁PVC	-9.03988
▁ម៉	-9.04007
ឲ្យ	-9.04029
លូ	-9.04194
lot	-9.04228
២០០	-9.04234
▁Con	-9.04314
ខៀវ	-9.04514
ណេ	-9.04609
បេតុង	-9.04664
▁ខែមករា	-9.0474
ជួប	-9.04817
pcs	-9.04944
geeks	-9.04966
»	-9.0498
ផ្សារ	-9.05139
]]	-9.05189
ave	-9.05191
weather	-9.05196
gen	-9.05296
con	-9.05384
អារម្មណ៍	-9.05707
កើត	-9.05843
បញ្ជូន	-9.05885
របាយការណ៍	-9.05962
ចាស់	-9.06222
ពេញលេញ	-9.06424
លម្អិត	-9.06501
កម្លាំង	-9.06578
ជាក់លាក់	-9.06656
អស្ចារ្យ	-9.06811
ធនធាន	-9.06966
▁យើងមាន	-9.07306
▁action	-9.07329
ពាក់	-9.07377
▁Mon	-9.07379
ET	-9.07532
សាច់	-9.07666
ated	-9.07854
▁Ho	-9.07861
ផែនទី	-9.0806
រីករាយ	-9.08294
und	-9.08303
94	-9.0834
ជម្រើស	-9.08389
0,000	-9.08466
ខ្ញុំបាន	-9.08605
បៃតង	-9.08767
ath	-9.08916
SP	-9.0893
មកពី	-9.08954
che	-9.09085
73	-9.0923
ជិះ	-9.09242
បាត	-9.09292
ស្លាក	-9.09344
▁ផ្ទាំង	-9.09383
គ្រោះ	-9.09396
អាយុ	-9.09445
នាយក	-9.09497
ice	-9.0954
▁300	-9.09594
▁PDF	-9.09644
ាញ់	-9.09772
ប្រាំ	-9.09826
២៣	-9.09951
ទ្រង់ទ្រាយ	-9.09959
use	-9.10239
view	-9.10284
▁ល្បែង	-9.1036
តម្រូវការ	-9.10546
ខ្យល់	-9.10601
ហាង	-9.10748
▁150	-9.10791
សណ្ឋាគារ	-9.10923
ung	-9.10931
សីតុណ្ហភាព	-9.11004
បំបែក	-9.11085
Stencils	-9.11166
▁មិថុនា	-9.11328
ឯ	-9.11381
;&	-9.11449
box	-9.11493
បេ	-9.11639
មធ្យម	-9.11734
ki	-9.11806
▁La	-9.11869
wordpress	-9.11897
ការផ្លាស់ប្តូរ	-9.11934
កាស៊ីណូ	-9.11937
78	-9.11965
បច្ចុប្បន្ន	-9.12036
បែប	-9.1212
▁អ្នកអាច	-9.12233
ទ្រី	-9.12292
▁LED	-9.12577
PC	-9.1261
តាំង	-9.12699
800	-9.12755
ផ្កា	-9.12879
▁Vi	-9.12896
ចុះឈ្មោះ	-9.12971
61	-9.13004
▁ម៉ឺនុយ	-9.13128
ស៊ូ	-9.13158
ធុង	-9.13161
▁000	-9.13163
—	-9.13209
▁ខែសីហា	-9.1321
ក្ខ	-9.13268
សី	-9.13268
84	-9.13304
សួរ	-9.1354
់	-9.13659
▁Wi	-9.13695
សង្គម	-9.13709
ON	-9.13803
រហ័ស	-9.13873
ការិយាល័យ	-9.14123
▁តុលា	-9.14171
79	-9.1425
OS	-9.14304
LE	-9.14543
▁វិនាទី	-9.14625
▁you	-9.14678
របៀប	-9.14821
ស្វែងរក	-9.14835
day	-9.14855
ឃើញ	-9.15027
ឥឡូវ	-9.1524
ook	-9.15392
អាចរកបាន	-9.15466
លាក់	-9.15673
▁Casino	-9.1572
ដែលអាច	-9.15777
ប្តូរ	-9.15793
តំលៃ	-9.15804
top	-9.15821
ដំណោះស្រាយ	-9.15889
▁សង់ទីម៉ែត្រ	-9.15974
រចនា	-9.15995
ថេរ	-9.16071
ពង្រីក	-9.16229
សហរដ្ឋអាមេរិក	-9.16229
nes	-9.16313
}	-9.164
អឺរ៉ុប	-9.164
ទាន់សម័យ	-9.16409
ស្ត្រី	-9.1644
ប្រវែង	-9.16633
មួយចំនួន	-9.1667
ធ្វើដំណើរ	-9.16724
▁មករា	-9.16746
ock	-9.16798
អេឡិចត្រូនិ	-9.16827
MA	-9.16913
បុ	-9.16947
ន្ដ	-9.1698
Plus	-9.17129
ven	-9.17303
ភ្ញៀវ	-9.17342
dr	-9.17432
MS	-9.17434
គ្រាន់តែ	-9.17515
លំដាប់	-9.17515
ឡុង	-9.17556
ខូ	-9.17572
82	-9.17799
វេចខ្ចប់	-9.1786
សុទ្ធ	-9.18034
មុខងារ	-9.1812
ros	-9.18228
រោងចក្រផលិត	-9.18462
ចាប់ពី	-9.18769
ហ្គា	-9.18854
ស្រាវជ្រាវ	-9.18904
▁ខែតុលា	-9.18904
អាគុយ	-9.18904
uk	-9.18907
▁Penh	-9.19259
១៧	-9.19282
▁សីហា	-9.19347
▁បូក	-9.1939
net	-9.19438
សរសេរ	-9.1969
81	-9.19695
▁Ra	-9.19839
ការគាំទ្រ	-9.19908
▁11:	-9.19932
GB	-9.201
ដូចគ្នា	-9.20132
▁ពិត	-9.20282
មាតិកា	-9.20314
ឡាស៊ែរ	-9.20402
ក្ល	-9.2055
SM	-9.20618
សូចនាករ	-9.20669
ប្ប	-9.20818
ជាមួយនឹងការ	-9.20878
ផល	-9.20951
ST	-9.20973
កុង	-9.2103
2"	-9.21131
សៀវភៅ	-9.21191
សហគមន៍	-9.21204
ខុស	-9.2125
ណូ	-9.2127
ស្ថានីយ	-9.21383
▁Mac	-9.21548
ix	-9.21564
▁ធីក	-9.21567
ផ្លាស់ប្តូរ	-9.21714
អរគុណ	-9.21744
▁ប្ល	-9.21923
សម្ពាធ	-9.22013
▁CNC	-9.22288
▁លំនាំដើម	-9.2238
ការប្រកួត	-9.22406
បន្ទាត់	-9.22614
របស់លោក	-9.22621
វិញ្ញាបនបត្រ	-9.22737
ឆ្លង	-9.2283
▁2010	-9.231
១២	-9.23182
គុណ	-9.23245
លក្ខខណ្ឌ	-9.23467
ស្រទាប់	-9.23467
បច្ចេកទេស	-9.23509
91	-9.23713
៌	-9.23741
កាត់បន្ថយ	-9.23767
កោះ	-9.23947
ពន្ធ	-9.24102
▁Di	-9.24118
បួន	-9.24301
ទឹកកក	-9.24336
អ៊ីណុក	-9.24479
បម្លែង	-9.24479
ដោះ	-9.24559
ize	-9.24595
ទន់	-9.24883
តន្ត្រី	-9.24942
▁សៀវ	-9.25036
អាចត្រូវបាន	-9.25076
អគារ	-9.25314
ដឹកជញ្ជូន	-9.25369
នៅក្នុងការ	-9.25573
▁ភៅ	-9.25615
ទៅនឹង	-9.25644
សារធាតុ	-9.25826
83	-9.26033
ការ៉េ	-9.26124
▁Lo	-9.2618
1.5	-9.26203
▁Huawei	-9.26251
CC	-9.26361
ក្រម	-9.26404
បញ្ជី	-9.26585
សមុទ្រ	-9.26723
វិច្ឆិកា	-9.26729
lex	-9.26839
CH	-9.26847
មិត្ត	-9.26905
RO	-9.26987
ពួក	-9.2711
OR	-9.27186
បណ្ឌិត	-9.27197
wa	-9.27447
នៅពេលដែល	-9.27725
របស់គាត់	-9.27855
ហិរញ្ញវត្ថុ	-9.28247
កើនឡើង	-9.28364
របស់ពួកគេ	-9.28401
លើបណ្តាញ	-9.28406
ួរ	-9.28561
ជ្រើស	-9.2861
ខែកុម្ភៈ	-9.28632
cam	-9.28664
អប់រំ	-9.28825
ake	-9.28864
ផ្ញើ	-9.28865
បារាំង	-9.28923
ចន្លោះ	-9.29115
post	-9.29167
ដៃគូ	-9.2929
kv	-9.29292
ចែករំលែក	-9.29304
lan	-9.29363
ធារាសាស្ត្រ	-9.29406
អ្នកប្រើ	-9.29569
RE	-9.29671
ware	-9.2971
ម្ភ	-9.29727
បាញ់	-9.29779
▁Mobile	-9.29796
ឌីជីថល	-9.29991
▁Constellation	-9.29991
world	-9.30284
ភូមិ	-9.30382
បង្វិល	-9.30398
ពាន់	-9.30578
សុខ	-9.30995
▁តង់ស្យុងខ្ពស់	-9.31074
ron	-9.31083
▁2011	-9.31131
▁សម្	-9.31169
គ្រួសារ	-9.3117
ទំនិញ	-9.3117
▁Vol	-9.31226
ហ្គ	-9.31228
MT	-9.31366
រោគ	-9.31374
នេះគឺ	-9.31468
ដែកថែប	-9.31566
មន្ទីរ	-9.31566
នេះគឺជា	-9.3172
រាយ	-9.31729
ច្រើនទៀត	-9.31915
▁ក្រទ្បាផ្ទៃ	-9.31964
▁APK	-9.3209
ខោ	-9.32244
សកល	-9.32246
ដំណ	-9.323
ខា	-9.32481
ព្យាយាម	-9.32565
ទទួលយក	-9.32602
ទូរទស្សន៍	-9.32664
លើកទី	-9.32748
62	-9.32755
អាលុយមីញ៉ូម	-9.32821
7"	-9.32824
▁Ningbo	-9.32966
ទាន	-9.33033
ស្តីពី	-9.33067
ពិតជា	-9.33159
▁News	-9.33178
form	-9.33216
▁តភ្ជាប់	-9.33306
▁New	-9.33433
▁kde	-9.33454
ឈ្មួញកណ្តាល	-9.3347
ពេទ្យ	-9.33673
ក្រាហ្វិក	-9.33774
AL	-9.33781
ត្រឡប់	-9.33977
នាំចេញ	-9.33997
blockchain	-9.34079
វិស័យ	-9.34387
ដែលត្រូវបាន	-9.34467
▁Qu	-9.3455
អំណាច	-9.34692
que	-9.34763
TS	-9.34764
0,0	-9.34967
ក្បាល	-9.35
ous	-9.35088
ence	-9.35116
5"	-9.35124
2.0	-9.35194
ថ្នាំកូត	-9.35205
ស្មើ	-9.3521
EC	-9.35248
ដោយប្រើ	-9.35282
ប្រឹក្សា	-9.35308
ជួញដូរ	-9.35411
▁HD	-9.35436
វិទ្យាស្ថាន	-9.35446
XL	-9.35449
លិខិត	-9.35721
ការណ៍	-9.35801
ជប៉ុន	-9.35824
ជោគជ័យ	-9.35928
ទស្ស	-9.35945
ជាតិសរសៃ	-9.36047
ន័យ	-9.36064
SE	-9.3612
កម្ពស់	-9.36136
▁ខែវិច្ឆិកា	-9.36232
ម្តង	-9.36246
ជុំវិញ	-9.36258
យោង	-9.36304
ប្រុស	-9.36351
ប្រជាជន	-9.36449
ចេញពី	-9.36493
១៤	-9.36652
key	-9.36888
ទេសចរណ៍	-9.3697
▁pre	-9.36973
ពុំអាចរកបាន	-9.37075
2.5	-9.37105
ឿ	-9.37271
ទីតាំង	-9.3731
▁ចំនួនអ្នកទស្សនា	-9.37496
លោកអ្នក	-9.37511
សាសន៍	-9.37601
សាធារណៈ	-9.37618
ថ្មីៗ	-9.37683
ភាគហ៊ុន	-9.37706
▁Microsoft	-9.38129
ជុំ	-9.38223
កែប្រែ	-9.38342
បង្រៀន	-9.38371
="6	-9.38437
ឥណទាន	-9.38448
ME	-9.38475
6"	-9.38513
១១	-9.38621
ជាប់	-9.38647
ood	-9.38666
▁Air	-9.3869
អង្	-9.38786
បង្ក	-9.38937
អាយ	-9.39005
កើតឡើង	-9.39118
ណ្ឌ	-9.39125
▁Free	-9.39381
អគ្គ	-9.39625
សិស្ស	-9.39627
ចង្	-9.39743
យល់	-9.39859
{	-9.39948
EL	-9.39948
▁URL	-9.39948
丨	-9.40056
▁ផ្លាស់ទី	-9.40118
សាខា	-9.4013
អ្នកអាច	-9.40214
ក្រដាស	-9.4023
អិល	-9.4039
ដូច្នេះ	-9.40398
ខ្ល	-9.40572
វិល	-9.40641
ical	-9.40674
អ៊ីន	-9.40687
កាន់តែ	-9.4074
ចម្រៀង	-9.40815
ចោល	-9.40822
▁so	-9.40878
ខាងក្នុង	-9.40902
▁OF	-9.40922
បុគ្គលិក	-9.41041
ture	-9.41352
▁Comments	-9.41782
▁ខែមេសា	-9.418
▁Visa	-9.41807
TP	-9.41828
ជញ្ជាំង	-9.4191
ទំនើប	-9.4191
ដើរ	-9.42028
IF	-9.42131
យ៉ូ	-9.42132
អ្នកនឹង	-9.4214
នេះត្រូវបាន	-9.42187
▁whatsthis	-9.42351
▁តើធ្វើដូចម្តេច	-9.42683
អ៊ិ	-9.42719
រក្សាសិទ្ធ	-9.42841
▁ប្រតិទិន	-9.43128
ព្រិល	-9.43241
លេច	-9.43326
hat	-9.43327
ដោះស្រាយ	-9.43351
▁with	-9.43463
សំណើ	-9.43575
សភា	-9.43711
ឈរ	-9.43751
ការធ្វើ	-9.43906
កំសាន្ត	-9.43911
គ្រូ	-9.43939
▁ប្រសិនបើអ្នក	-9.43939
ប្រអប់	-9.44128
រង្វាន់	-9.44175
ឥតគិតថ្លៃ	-9.44238
ឆ្នោត	-9.44248
សិល្បៈ	-9.44248
▁ទូរសារ	-9.44361
សេដ្ឋកិច្ច	-9.44474
0.5	-9.44796
គួរឱ្យ	-9.44796
ច្រើនជាង	-9.45039
រដ្ឋាភិបាល	-9.4504
3.5	-9.45118
▁Play	-9.45163
gov	-9.45177
ចែកចាយ	-9.45267
គន្លឹះ	-9.45381
បញ្ចេញ	-9.45609
PE	-9.45624
Hz	-9.45725
ឡេ	-9.45733
ស្តង់ដារ	-9.45914
TE	-9.45959
កណ្ដុរ	-9.46067
លុយ	-9.46157
way	-9.46225
▁ABA	-9.46308
វិជ្ជាជីវៈ	-9.46412
សំណុំ	-9.46412
ភ្នាល់	-9.46527
រចនាប័ទ្ម	-9.46527
▁ខែកញ្ញា	-9.46527
ស្នើ	-9.46533
រាជធានីភ្នំពេញ	-9.46643
ឧស្ម័ន	-9.46643
ស្លាប់	-9.46646
work	-9.46689
1.9	-9.46722
ស្រឡាញ់	-9.46874
បំណង	-9.47107
វត្ត	-9.47182
សេចក្តី	-9.47378
បរិស្ថាន	-9.47488
TM	-9.47522
ប្រឆាំងនឹង	-9.47638
ធម្មជាតិ	-9.47804
▁Phnom	-9.47804
ចាំបាច់	-9.48037
ឈប់	-9.48059
សង្ខេប	-9.48154
ភ្នំពេញប៉ុស្តិ៍	-9.48389
▁ម៉ូឌុល	-9.48389
TI	-9.4843
នៅថ្ងៃទី	-9.48607
ធម្មនុញ្ញ	-9.48624
▁are	-9.48645
ទម្ងន់	-9.48742
▁Konqueror	-9.48742
រុស្ស៊ី	-9.48743
atch	-9.48748
មុនពេល	-9.48776
គោលការណ៍	-9.49333
បរទេស	-9.49455
▁មេសា	-9.49615
ជ័រ	-9.49617
មូលនិធិ	-9.49689
ជួសជុល	-9.49808
ត្រង់	-9.50164
ពិព័រណ៍	-9.50166
ខ្លះ	-9.50196
០០០	-9.5029
	-9.50406
នឹងត្រូវបាន	-9.50475
ចេញផ្សាយ	-9.50506
ខ្លី	-9.50742
▁ខែមិថុនា	-9.50766
▁ទាញ	-9.50873
កាមេរ៉ា	-9.51007
ike	-9.51192
ដំណាក់កាល	-9.51369
ខាងក្រៅ	-9.51531
ហ្គោ	-9.51576
ជីវ	-9.51683
▁not	-9.51722
អូឌីយ៉ូ	-9.51733
▁Open	-9.51737
ធឺ	-9.51784
រូបថត	-9.5183
ក្លាយជា	-9.51865
▁You	-9.51867
ច្ច	-9.51912
កាសែត	-9.52098
▁district	-9.52098
ឈុត	-9.52099
មិនបាន	-9.52315
៏	-9.52322
ja	-9.52355
ឥតខ្សែ	-9.52495
HO	-9.52755
សម្រេច	-9.52832
យប់	-9.52859
ទារក	-9.53126
·	-9.53324
មហាវិទ្យាល័យ	-9.53324
air	-9.53327
ទ្វារ	-9.53449
ប្លុក	-9.53453
zhou	-9.53459
ស៊ុ	-9.53531
វិញ្ញាបនប័ត្រ	-9.53571
▁Download	-9.53571
ទទេ	-9.53586
ការដឹកជញ្ជូន	-9.53621
បន្ថែមទៀត	-9.53758
5.0	-9.53773
ដាច់	-9.53943
“	-9.54289
1.0	-9.543
ខណ្ឌ	-9.54383
▁ISO	-9.54469
ការព្យាបាល	-9.54496
ទុយ	-9.54519
ខ្លួនឯង	-9.54816
សិទ្ធ	-9.55047
ound	-9.55173
1.2	-9.55299
book	-9.55315
0.00	-9.55387
រ៉ែ	-9.55547
ប៊ិច	-9.55695
→	-9.55696
▁Online	-9.55696
ប្រសិទ្ធិភាព	-9.55697
បកប្រែ	-9.55822
ខេ	-9.55841
ប្រយោជន៍	-9.55949
ស៊ុម	-9.56012
គណៈ	-9.56076
ign	-9.56441
ប្រទេសកម្ពុជា	-9.56636
▁ជួលឡាន	-9.56712
បណ្តុះបណ្តាល	-9.5684
បណ្ដាញ	-9.56877
ប្រឆាំង	-9.56893
ពិភាក្សា	-9.57096
▁ផ្ទៃតុ	-9.57103
គ្រាប់	-9.5715
រ៉ុ	-9.57186
ពិតប្រាកដ	-9.57224
é	-9.57224
lock	-9.5724
គោលដៅ	-9.57481
▁label	-9.57481
ត្រូវបានប្រើ	-9.57579
ញ្ច	-9.57631
▁Tue	-9.57654
ព្យាបាល	-9.57681
ពានរង្វាន់	-9.57867
មើលឃើញ	-9.57897
▁HVC	-9.58
ព្រះអម្ចាស់	-9.58385
អត្ថបទ	-9.58448
ប៉ូល	-9.58857
tric	-9.58988
▁your	-9.59021
▁តើអ្នក	-9.59166
រៀល	-9.59282
មកដល់	-9.59283
គម្រប	-9.59298
កូរ៉េ	-9.59581
ហេតុផល	-9.59594
▁កក្កដា	-9.59823
តាមដាន	-9.59828
ប្រមូល	-9.59883
តម្រូវ	-9.59909
នរណា	-9.59969
ភ្នាក់ងារ	-9.60087
▁TRANSLATORS	-9.60087
ការសិក្សា	-9.60136
Color	-9.60433
▁Vessoft	-9.60483
ផ្សិត	-9.60488
3.0	-9.60556
កណ្តាល	-9.60737
រិយា	-9.60857
សេរ៉ាមិច	-9.61015
▁condition	-9.61015
កម្រាស់	-9.61039
បន្ថយ	-9.61112
▁Apple	-9.61416
កម្រ	-9.61549
ប្រឹក្សាភិបាល	-9.61818
EX	-9.6197
ផ្តល់នូវ	-9.62
NAME	-9.62088
អ៊ីនធឺណិត	-9.62222
ខ្ទ	-9.62517
វាយតម្លៃ	-9.62545
គីមី	-9.62848
គោលបំណង	-9.62898
ហ្វេសប៊ុក	-9.62898
សម្រាក	-9.63202
ឆបគ្នា	-9.63307
ច្បាស់	-9.63443
▁កុំ	-9.63544
យើងខ្ញុំ	-9.63574
list	-9.63712
2.1	-9.63803
▁កុម្ភៈ	-9.63853
ផ្អាក	-9.63892
គ្របដណ្តប់	-9.6399
▁Facebook	-9.6399
ហៃ	-9.64262
និស្សិត	-9.64265
▁រយៈ	-9.64288
កំណែ	-9.64364
ចូលទៅក្នុង	-9.64397
а	-9.64403
ប្រសិទ្ធភាព	-9.64403
▁Mini	-9.64469
បុណ្យ	-9.64541
ឥណ្ឌា	-9.64541
កៅស៊ូ	-9.64817
type	-9.64838
▁Ultrasonic	-9.64956
ចម្បង	-9.64958
បណ្តា	-9.64979
ព្រឹត្តិការណ៍	-9.64988
ដឹងថា	-9.65034
ខាងលើ	-9.65056
▁ស៊ីឌី	-9.6514
អង្កត់ផ្ចិត	-9.65372
រួមទាំង	-9.6551
សប្បាយ	-9.65512
អំពើ	-9.65512
បរិមាណ	-9.65651
£	-9.65763
▁ច្រក	-9.65773
ប្រធានបទ	-9.66008
ស្វ័យប្រវត្តិ	-9.66098
អំពូល	-9.66351
▁Canada	-9.66352
ប៉ុន្តែ	-9.66396
phone	-9.66421
សាសនាចក្រ	-9.66633
ក្បឿង	-9.66633
សេរី	-9.66644
វគ្គសិក្សា	-9.66647
យ៉ាងខ្លាំង	-9.66724
ឱកាស	-9.66774
ការរចនា	-9.66953
▁Galaxy	-9.67057
វ៉ុល	-9.67097
ឯកឧត្តម	-9.6734
ឱសថ	-9.6734
▁បន្ទាប់មក	-9.67749
រ៉េ	-9.68054
អ្នកជំនាញ	-9.68154
▁ស្វ័យ	-9.68365
1.1	-9.68455
▁ខែកក្កដា	-9.68482
គ្រឿងបន្លាស់	-9.68626
ជឿ	-9.68707
▁English	-9.68914
ចាប់តាំងពី	-9.69058
ពិសោធន៍	-9.69168
វគ្គ	-9.69333
អំណោយ	-9.69492
▁iOS	-9.69531
ភ្នែក	-9.69783
ផ្សេងគ្នា	-9.69908
បាត់បង់	-9.69929
អាល្លឺម៉ង់	-9.70074
នីមួយៗ	-9.70074
▁Oct	-9.70249
▁លេខកូដយោង	-9.70366
ទស្សន៍	-9.70385
ធ្លាក់ចុះ	-9.70437
សិក្ខាសាលា	-9.70513
អញ្ជើញ	-9.70513
សាមញ្ញ	-9.70513
▁ទោះ	-9.70731
បង្ហោះ	-9.70806
រដ្ឋមន្រ្តី	-9.70963
▁Archives	-9.71101
ផែនការ	-9.71103
អប្បបរមា	-9.71248
ហ្គី	-9.71299
សព្វ	-9.71396
បញ្ចុះតម្លៃ	-9.71544
ទូទាត់	-9.71606
រង់ចាំ	-9.71692
បានទទួល	-9.71698
ប្រជុំ	-9.71722
ទ្វេ	-9.71745
ការទូទាត់	-9.71778
តុបតែង	-9.7184
ម្យ៉ាងវិញទៀត	-9.71989
ភាគច្រើន	-9.72045
គ្រោង	-9.72139
ស្វាយ	-9.72143
ជើងហោះហើរ	-9.72152
▁this	-9.72424
ឃ្លាំង	-9.72436
ព្រលានយន្តហោះ	-9.72436
▁ពុម្ពអក្សរ	-9.72436
▁សង្កាត់	-9.72895
▁that	-9.73032
▁PTFE	-9.73035
ចំណូល	-9.73037
▁Exp	-9.73108
ទិន្នផល	-9.73185
ម៉ាស៊ីនភ្លើង	-9.73203
©	-9.73302
គួរតែ	-9.73313
បន្ទាន់	-9.7332
ស្រស់ស្អាត	-9.73336
កសាង	-9.73442
ជាផ្លូវការ	-9.73488
ចំណាត់ថ្នាក់	-9.73638
សម្លៀកបំពាក់	-9.73638
យឺត	-9.73645
4.7	-9.73822
រូបិយប័ណ្ណ	-9.73941
▁Technology	-9.73941
ជនជាតិ	-9.74043
4.0	-9.74197
២៥	-9.74216
ផ្គូផ្គង	-9.74244
ប្រមាណ	-9.74245
អនុញ្ញាតឱ្យ	-9.74255
▁[...]	-9.74397
រាងកាយ	-9.74426
ចូលចិត្ត	-9.74532
€	-9.74855
៣០	-9.7505
content	-9.75169
ស្រោម	-9.75318
ខាងត្បូង	-9.75506
ស្អាត	-9.75648
សមរម្យ	-9.75932
ការធ្វើតេស្ត	-9.76087
វិទ្យាសាស្រ្ត	-9.76138
0.3	-9.76238
គំនូរ	-9.76397
វិទ្យុ	-9.76397
▁មីនា	-9.7661
អត្តសញ្ញាណ	-9.76864
ផ្លែ	-9.76883
ប៉ុ	-9.76961
ពត៌មាន	-9.77177
mAh	-9.77191
ខុសគ្នា	-9.77261
ចំណុច	-9.77261
Description	-9.77491
ម៉ាស៊ីនបម្រើ	-9.77503
ខ្នាតតូច	-9.77664
▁និពន្ធ	-9.77812
លើសពី	-9.77995
▁Shenzhen	-9.78121
text	-9.78155
▁ក្ដារ	-9.7828
▁PCB	-9.78319
បង្ហាប់	-9.78596
uck	-9.78852
ចិញ្ចឹម	-9.78915
ប្រដាប់	-9.78919
ប៉ះ	-9.79027
បញ្ឈប់	-9.79074
នាយកដ្ឋាន	-9.79113
អ៊ីតាលី	-9.79234
រូបរាង	-9.79242
សូមស្វាគមន៍	-9.79352
ឆ្នេរ	-9.79715
▁Property	-9.79715
ផុត	-9.79857
ភេទ	-9.80083
4.5	-9.80172
ផ្កាឈូក	-9.80359
▁ចំណង	-9.80681
▁ឆ្វេង	-9.80683
អាចប្រើបាន	-9.8071
ជាផ្នែកមួយ	-9.80807
អាជ្ញាប័ណ្ណ	-9.80845
▁បែតា	-9.80846
រាយការណ៍	-9.8086
លៃតម្រូវ	-9.81176
សាងសង់	-9.81334
▁តួអក្សរ	-9.81334
អធិប្បាយ	-9.81661
ជជែក	-9.81661
ថែទាំ	-9.81813
ខាងជើង	-9.82125
ចងចាំ	-9.82154
▁HTML	-9.82154
±	-9.82318
លំអិត	-9.82319
មន្ត្រី	-9.82649
3.1	-9.82708
ផលប៉ះពាល់	-9.82798
កណ្ដាល	-9.83146
ដោត	-9.83156
ឆ្លាត	-9.83314
▁ភ្លៀង	-9.83486
ទាមទារ	-9.83646
អនុញ្ញាត	-9.83658
មគ្គុទ្ទេ	-9.84149
កោសិកា	-9.84149
ធ្លាក់	-9.84279
យុវជន	-9.84317
2.7	-9.84771
GenericName	-9.84992
999	-9.85232
▁ទាន់	-9.85381
Power	-9.85708
ឆ្លើយតប	-9.85989
សំលៀកបំពាក់	-9.86013
transposh	-9.86528
ទូលំទូលាយ	-9.86528
អ៊ុយក្រែន	-9.86528
កែវ	-9.86535
បទពិសោធន៍	-9.86581
▁ណ្តា	-9.86725
បរិក្ខារ	-9.86871
▁Development	-9.86872
▁អគារស្នាក់នៅរូម	-9.86872
សម្លេង	-9.86893
កិច្ចប្រជុំ	-9.86896
ស្វាគមន៍	-9.86918
៨៥៥	-9.87045
▁inlistbox	-9.87045
1.7	-9.87165
ឧបត្ថម្ភ	-9.87218
សម្តែង	-9.87218
▁World	-9.87391
▁មតិយោបល់លើ	-9.87391
▁ឥត	-9.87425
ក្នុងចំណោម	-9.87739
ប័ត្រ	-9.88089
ស៊ីឡាំង	-9.88263
គោលនយោបាយ	-9.88438
ម្ជុល	-9.88613
evel	-9.88746
ក្រានីត	-9.88965
ជ្រាបទឹក	-9.88965
ប្រកួត	-9.89079
▁Twitter	-9.89318
▁translate	-9.89495
ជម្រះ	-9.8985
ស្នាក់នៅ	-9.89915
▁inmenu	-9.90028
▁និយមន័យ	-9.90028
ផ្ទៀងផ្ទាត់	-9.90206
▁USB	-9.90272
▁Geeks	-9.90385
អាល់ប៊ុម	-9.90564
▁Photo	-9.90745
▁បោះបង់	-9.90749
feed	-9.90942
▁forecast	-9.91102
សមាគម	-9.91463
▁Bonus	-9.91648
អចលនទ្រព្យ	-9.91825
អត្ថប្រយោជន៍	-9.91825
▁Auto	-9.91951
ក្លឹប	-9.92006
ពាក់កណ្តាល	-9.92022
ជំរុញ	-9.92188
សំណង់	-9.92189
ម៉ង់	-9.92292
▁មេកាបៃ	-9.9237
Material	-9.92371
កោណ	-9.92561
សម្ព័ន្ធ	-9.92626
▁Chamkarmon	-9.92736
ស្ថាប័ន	-9.93102
ដ្រាយ	-9.93103
បុរាណ	-9.93655
មានគុណភាពខ្ពស់	-9.93896
ដោយសារតែ	-9.94027
ខ្វ	-9.94027
អ៊ូ	-9.94028
ចាប់អារម្មណ៍	-9.94269
province	-9.94396
អាស្រ័យ	-9.94583
សំបក	-9.94617
ម៉ូលេគុល	-9.94769
ស្នើសុំ	-9.94956
ដុត	-9.95003
ទន្លេ	-9.95143
ហេតុអ្វីបានជា	-9.95143
បដិសេធ	-9.95143
សុពលភាព	-9.95707
р	-9.95896
ចលនា	-9.95905
▁ស្គ្រីប	-9.96099
cryptocurrency	-9.96274
ឈាម	-9.96277
′	-9.96464
▁window	-9.96464
ព្រះអាទិត្យ	-9.96654
លឿង	-9.96846
▁Key	-9.96889
លោហៈ	-9.97035
កំណើត	-9.97227
បទពិសោធ	-9.97405
អតីត	-9.9761
▁Holmes	-9.9761
▁David	-9.9761
អ្នកនិពន្ធ	-9.97612
សម្អាត	-9.97672
ធានារ៉ាប់រង	-9.97802
កសិកម្ម	-9.97803
កាបូន	-9.97804
8.1	-9.97856
ប្រៀបធៀប	-9.97995
0.9	-9.98035
▁ស្ដាំ	-9.98188
ព្រឹត្ត	-9.98199
1.6	-9.98368
កាំរស្មី	-9.98381
ប្រផេះ	-9.98382
ស្រដៀង	-9.98382
ទោស	-9.98782
▁button	-9.98964
▁វេលា	-9.98977
Video	-9.99369
ផ្ទះល្វែង	-9.9955
រោង	-9.99681
អនុម័ត	-9.99746
សមាសភាគ	-9.99746
High	-10.0011
article	-10.0016
ឆានែល	-10.0034
▁LTD	-10.0034
បម្រើ	-10.005
ដំបូល	-10.0073
▁Group	-10.0073
គណនា	-10.0073
ខ្នាត	-10.0091
បណ្ណាល័យ	-10.0093
ទៀងទាត់	-10.0133
▁អេស៊ីលីដា	-10.0133
0.8	-10.0141
Time	-10.0142
សន្ទះ	-10.0153
ពាក់ព័ន្ធ	-10.0173
សន្តិសុខ	-10.0173
ខែឧសភា	-10.0193
ផ្តោត	-10.0213
ព្រះយេស៊ូ	-10.0213
ស្ងួត	-10.0213
▁HTTPS	-10.0233
បម្រុង	-10.0253
ផ្អែកលើ	-10.0253
ចុះហត្ថលេខា	-10.0294
▁iPad	-10.0294
▁Doorknob	-10.0314
®	-10.0355
ភីកសែល	-10.0355
កាណាដា	-10.0355
▁Siem	-10.0355
សំណាញ់	-10.0375
▁ការពិពណ៌នា	-10.0375
▁Oxford	-10.0396
▁ម្ដង	-10.0419
ចម្លើយ	-10.0457
▁status	-10.0478
សន្យា	-10.0478
ü	-10.0498
▁Ctrl	-10.0499
លំហូរ	-10.0519
ធ្លាប់	-10.0519
អ៊ុ	-10.0526
អន្តរ	-10.0547
អេស្ប៉ាញ	-10.0561
0000,0	-10.0568
បើយោងតាម	-10.0581
ខួប	-10.0582
បំណែក	-10.0623
វៀតណាម	-10.0623
ដំណឹងល្អ	-10.0625
▁from	-10.0644
[	-10.0649
ទិស	-10.0687
ល្អឥតខ្ចោះ	-10.0687
Manufacturer	-10.0729
កំហុស	-10.0746
ឥទ្ធិពល	-10.075
ជំនឿកាតូលិក	-10.075
ប្រឡង	-10.0755
និម្មិត	-10.0815
ដំណើរទស្សនកិច្ច	-10.0835
≤	-10.0835
គម្ពីរ	-10.0835
ថ្ងៃសុក្រ	-10.0856
▁Copyshop	-10.0856
ចង្កៀង	-10.0856
▁McKnight	-10.0899
បញ្ឈរ	-10.0921
សព្ទ	-10.0921
▁MOQ	-10.0921
ពីម្សិល	-10.0942
សមាមាត្រ	-10.0942
ថ្លែង	-10.0986
កំពង់ផែ	-10.0986
▁ស៊ីស្កូ	-10.0986
បំបាត់	-10.0986
ម៉េ	-10.1001
ជាលើកដំបូង	-10.1045
ចក្រភពអង់គ្លេស	-10.1051
ច្នៃប្រឌិត	-10.1051
លួស	-10.1076
ification	-10.1095
▁ប្រទាក់	-10.1095
មីក្រូ	-10.1117
កប្បាស	-10.1139
▁Qingdao	-10.1139
ខ្សែស្រឡាយ	-10.1139
ឧទ្យាន	-10.1161
6.0	-10.1169
តង់ស្យុង	-10.1182
▁EUR	-10.1184
អាមេរិច	-10.1205
▁ផ្លាស់	-10.1223
បញ្ចាំង	-10.1225
ព្រះរាជាណាចក្រ	-10.1228
រុក្ខជាតិ	-10.125
លំបាក	-10.1273
ö	-10.1295
បរិភោគ	-10.1295
កិច្ចព្រមព្រៀង	-10.1296
▁Instagram	-10.1317
វេជ្ជសាស្ត្រ	-10.1339
ត្រឡប់មកវិញ	-10.1339
សម្ដែង	-10.1339
▁Posted	-10.1339
ចំណងជើង	-10.1356
ហោះហើរ	-10.136
▁first	-10.1385
▁Amazon	-10.1407
អ្នកកំពុងទស្សនា	-10.143
ឆ្លើយ	-10.1453
នាឡិកា	-10.1453
បើកបរ	-10.1455
Cambodia	-10.1465
សំអាត	-10.1498
▁YouTube	-10.1521
0.6	-10.1528
ស្វែងយល់	-10.1544
អនាគត	-10.1544
ខ្សាច់	-10.1567
គោរព	-10.1567
ប្រកួតប្រជែង	-10.159
ទម្លាក់	-10.159
▁menu	-10.1591
គណបក្ស	-10.1613
សាធារណ	-10.1633
ជំពូក	-10.1636
ä	-10.1636
▁group	-10.1636
រំខាន	-10.1659
រូបមន្ត	-10.1683
▁tooltip	-10.1706
france	-10.1706
ប៉ះពាល់	-10.1708
ប៉ុន្មាន	-10.1729
ប្ដូរតាមបំណង	-10.1753
▁FileCatalyst	-10.1753
ប្រណាំង	-10.1753
រដ្ឋបាល	-10.1776
ស្នូល	-10.18
អ័រម៉ូន	-10.18
ម៉ោន	-10.18
▁Tablet	-10.1847
កិច្ចសហប្រតិបត្ត	-10.1853
សហគ្រាស	-10.1871
យល់ព្រម	-10.1894
ឱ	-10.194
បំភ្លឺ	-10.1942
ប្រារព្ធ	-10.1942
សៀគ្វី	-10.1942
ចម្រុះ	-10.1942
រទេះ	-10.1943
▁Super	-10.1943
សរសៃ	-10.1963
ធន់ទ្រាំ	-10.1966
ហ៊ី	-10.1966
សាសនា	-10.1967
Trans	-10.197
▁CUPS	-10.2014
អ៊ិនគ្រីប	-10.2038
ផ្ទុះ	-10.2062
ទៀន	-10.2064
ធ្មេញ	-10.2087
ព្រះជាម្ចាស់	-10.2111
កៅអី	-10.2135
Store	-10.2146
ស្មាតហ្វូន	-10.216
ទូទាំងពិភពលោក	-10.2233
សូម្បីតែ	-10.2282
បាល់ទាត់	-10.2282
ផ្តាច់	-10.2307
▁Chrome	-10.2307
ក្តី	-10.2307
▁Skype	-10.2332
កម្ចី	-10.2357
▁Western	-10.2357
ធ្ងន់	-10.2357
и	-10.2407
ផ្ទះបាយ	-10.2407
ដេញថ្លៃ	-10.2432
中	-10.2432
រ៉ូឡែត	-10.2457
អាក្រក់	-10.2482
មានន័យថា	-10.2483
ភោជនីយដ្ឋាន	-10.2507
សង្កត់	-10.2507
គេហទំព័រផ្លូវការ	-10.2533
អាគារ	-10.2558
សមាសធាតុ	-10.2558
о	-10.2584
ប្រតិកម្ម	-10.2584
ough	-10.2629
source	-10.2636
តែងតែ	-10.2661
ស្កេន	-10.2686
អ៊ិនធឺណ	-10.2686
សិទ្ធិគ្រប់យ៉ាង។	-10.2702
hydro	-10.2712
ាចារ្យ	-10.2712
បង្អួច	-10.2726
គ្រីប	-10.2734
អះអាង	-10.2763
បន្ទប់គេង	-10.2764
ព្រមទាំង	-10.2764
តែមួយគត់	-10.2789
សប្ដាហ៍	-10.2789
ច្បាស់លាស់	-10.2816
លំនៅដ្ឋាន	-10.2816
តិចតួច	-10.2842
គីឡូម៉ែត្រ	-10.2842
អ័ក្ស	-10.2842
▁Deposit	-10.2842
▁ដឺក្រេ	-10.2868
▁Office	-10.2868
ស្តង់ដា	-10.2877
к	-10.2894
ខណៈពេលដែល	-10.2894
public	-10.2894
←	-10.292
ខាងលិច	-10.2921
គ្រប់គ្រាន់	-10.2947
ព្រួញ	-10.2947
តុលាការ	-10.296
គ្រឹះ	-10.2973
អូស្ត្រាលី	-10.2973
ត្រឹមតែ	-10.2973
កាហ្វេ	-10.2973
▁Hielscher	-10.3
តម្រៀប	-10.3
ទាំងស្រុង	-10.3
មេឌៀ	-10.3
សហព័ន្ធ	-10.3026
ប្រេកង់	-10.3026
ដង់ស៊ីតេ	-10.3053
រង្វង់	-10.3053
ហាត់ប្រាណ	-10.3053
េចក្តីថ្លែងការណ៍	-10.3053
អភិបាល	-10.3107
▁Amarok	-10.3107
photo	-10.3135
▁សំនួរ	-10.316
е	-10.3187
ថ្ងៃសៅរ៍	-10.3187
ស្ដង់ដារ	-10.3214
▁PayPal	-10.3214
បង្ហូរ	-10.3269
អគ្គីសនី	-10.3269
សង្ឃឹម	-10.3269
េ្រគងបន	-10.3269
ទិដ្ឋាការ	-10.3296
មិនទាន់	-10.3297
ប៊ូតុង	-10.3358
វីរុស	-10.3379
នៃព្រះគ្រីស្ទ	-10.3379
អាកាសចរណ៍	-10.3406
▁International	-10.3406
ទំនេរ	-10.3434
បុគ្គល	-10.346
ឪពុក	-10.3462
សំយោគ	-10.3462
ខ្សែសង្វាក់	-10.3462
文	-10.349
▁សម្បត្តិ	-10.349
អាសយដ្ឋាន	-10.3515
អន្ដរជាតិ	-10.3518
ក្បែរ	-10.3546
ញឹកញាប់	-10.3546
ប្រែប្រួល	-10.3546
លក្ខណៈសម្បត្តិ	-10.3546
បាច់	-10.3546
▁មើលទៅមុខដើម្បី	-10.3574
Trade	-10.3602
ស្រង់ចេញ	-10.3629
ម៉ាស៊ីនថតចម្លង	-10.363
ការបញ្ជាទិញ	-10.3632
លូតលាស់	-10.3658
ទាប់ពីការលក់និង	-10.3659
ផលិតពីប្រទេសចិន	-10.3687
▁ប្រភេទផលិតផលនៃ	-10.3687
▁ក្នុងនាមជា	-10.3689
ត្បូង	-10.3708
ការគាំទ្របច្ចេក	-10.3712
នយោបាយ	-10.3715
▁Metatrader	-10.3715
រឹងមាំ	-10.3715
ពង្រឹង	-10.3744
សិល្បករ	-10.3744
រមូរ	-10.3744
ទេសដ៏ល្អឥតខ្ចោះ។	-10.3801
វដ្ត	-10.3801
សាជីវកម្ម	-10.3801
▁column	-10.3801
ខ្ពស់លក់ដុំនៃ	-10.383
▁បណ្ណសារ	-10.383
ប៉ារ៉ាម៉ែត្រ	-10.3859
វិស្វកម្ម	-10.3859
ចាប់ផ្ដើម	-10.3901
°	-10.3902
ផ្លែប៉ោម	-10.3917
ជានិច្ច	-10.3917
បំពង់បង្ហូរទឹក	-10.3917
ល្ងាច	-10.3934
កម្សាន្ត	-10.3946
▁translation	-10.3946
=5.0.6	-10.3975
ı	-10.3975
script	-10.4007
គ្រីស្ទ	-10.4034
т	-10.4064
កែច្នៃ	-10.4064
ឯករាជ្យ	-10.4064
▁Global	-10.4064
ផែនដី	-10.4064
▁ភីអិលស៊ី	-10.4064
ព្រំដែន	-10.4093
▁Piwigo	-10.4093
អនឡាញ	-10.4123
ខាងស្ដាំ	-10.4123
សមាគមធាងត្នោត	-10.4123
មានទីតាំងស្ថិតនៅ	-10.4123
message	-10.4183
២០១៣	-10.4183
មិត្តភក្តិ	-10.4212
ថ្ងៃអាទិត្យ	-10.4242
▁ទំនង	-10.4243
សន្និសីទ	-10.4273
▁WhatsApp	-10.4273
▁acrylic	-10.4273
ឫ	-10.4394
`	-10.4455
ឮ	-10.4548
н	-10.4548
●	-10.4959
≥	-10.5593
Φ	-10.6799
с	-10.6799
♪	-10.7074
–	-10.7882
å	-10.7906
✔	-10.795
	-10.8037
á	-10.8305
៛	-10.8862
л	-10.9054
ا	-10.9452
«	-10.9468
‘	-10.976
›	-10.9918
繁	-10.9918
я	-10.9971
у	-11.0352
μ	-11.0463
體	-11.0463
~	-11.0816
в	-11.0863
ឍ	-11.0863
ệ	-11.0863
í	-11.1099
У	-11.128
【	-11.128
】	-11.1341
ç	-11.2303
ñ	-11.3986
★	-11.431
ឪ	-11.8303
ь	-12.2512
•	-12.3132
ឲ	-13.2101
‧	-13.2101
