<unk>	0
<s>	0
</s>	0
▁	-2.37327
,	-3.99847
.	-4.28668
:	-4.4995
;	-4.54601
▁&	-4.82968
s	-4.95147
-	-4.96913
)	-5.10177
▁។	-5.16463
▁(	-5.22493
amp	-5.2404
។	-5.36957
▁#	-5.40714
▁ការ	-5.43147
▁160;	-5.50266
▁និង	-5.55042
▁/	-5.59918
/	-5.59995
▁បាន	-5.60309
▁-	-5.60796
e	-5.64501
gt	-5.65636
▁1	-5.72707
និង	-5.80794
▁អ្នក	-5.8648
▁ដែល	-5.917
ការ	-5.94325
ស	-6.01087
%	-6.02236
▁នៅ	-6.07937
រ	-6.08371
ក	-6.10615
y	-6.11175
▁S	-6.14278
p	-6.19926
2	-6.2232
▁2	-6.22646
ន	-6.23658
នៃ	-6.23671
▁របស់	-6.28922
▁ជា	-6.30486
ប	-6.31968
S	-6.33706
D	-6.3568
in	-6.38717
▁3	-6.39187
ល	-6.39327
er	-6.39468
▁ក្នុង	-6.40343
▁មាន	-6.41119
d	-6.41209
ត	-6.41265
សម្រាប់	-6.45703
b	-6.46092
m	-6.46106
បាន	-6.47091
lt	-6.47782
▁P	-6.47939
ម	-6.48216
"	-6.49559
▁នេះ	-6.50027
▁C	-6.5021
មាន	-6.50238
▁សម្រាប់	-6.52192
A	-6.52459
នៅ	-6.53956
▁_	-6.54086
com	-6.55033
▁កម្មវិធី	-6.55391
n	-6.55928
ជា	-6.57767
t	-6.58837
នេះ	-6.59574
▁ដោយ	-6.59582
របស់	-6.60005
ង	-6.60551
ដែល	-6.62025
x	-6.62293
3	-6.62522
o	-6.63204
c	-6.63417
a	-6.64915
ing	-6.64916
C	-6.65114
▁A	-6.6629
▁៖	-6.67122
i	-6.67251
ពី	-6.67548
r	-6.67705
▁K	-6.67876
4	-6.68352
▁ត្រូវ	-6.69409
▁F	-6.70392
!	-6.71354
▁ឬ	-6.72369
▁start	-6.73401
▁T	-6.73715
▁មិន	-6.74493
"&	-6.74587
▁dur	-6.74892
▁B	-6.75017
▁5	-6.75445
▁4	-6.76406
="	-6.76517
P	-6.77277
អ្នក	-6.77345
al	-6.77797
មួយ	-6.80009
f	-6.80157
នៅក្នុង	-6.80393
B	-6.80824
?	-6.81008
្	-6.81246
g	-6.8222
w	-6.82674
M	-6.83196
▁អាច	-6.84135
▁ទៅ	-6.85528
▁kgm	-6.8642
ច	-6.86838
▁ប្រើ	-6.87251
k	-6.87988
v	-6.8827
▁ដើម្បី	-6.89747
://	-6.89815
▁នឹង	-6.90464
ដោយ	-6.90942
re	-6.91114
▁វា	-6.91583
T	-6.93026
▁ឯកសារ	-6.93244
L	-6.94049
▁...	-6.9454
▁in	-6.94716
en	-6.95067
F	-6.95985
G	-6.96456
h	-6.96665
...	-6.9746
H	-6.97904
00	-6.98615
▁កំណត់	-6.98775
▁–	-6.98819
an	-6.99015
▁6	-6.99336
W	-6.99481
ស្	-6.99545
1	-6.9968
=	-6.99806
▁ហើយ	-6.99814
▁10	-7.00051
l	-7.00494
_	-7.00718
▁ពី	-7.00767
ទៅ	-7.01012
ដើម្បី	-7.01269
5	-7.01777
▁លោក	-7.01857
ជាមួយ	-7.02325
▁G	-7.02424
on	-7.02473
យ	-7.03171
▁មួយ	-7.05277
V	-7.05345
▁M	-7.05422
▁D	-7.06144
▁$	-7.07048
ដ	-7.07474
▁H	-7.08061
▁ឆ្នាំ	-7.08113
or	-7.08376
▁នៃ	-7.08529
វ	-7.08805
7	-7.10303
Name	-7.11502
@	-7.11642
ទី	-7.1175
▁E	-7.14275
ed	-7.14338
▁R	-7.15302
▁"	-7.15579
▁ខែ	-7.15662
le	-7.15944
R	-7.16157
N	-7.16937
8	-7.17659
▁ម៉ាស៊ីន	-7.17799
ក្នុង	-7.18291
u	-7.19019
▁2018	-7.19197
អ	-7.19904
▁លើ	-7.19977
▁ក្រុមហ៊ុន	-7.20517
it	-7.2071
ា	-7.20972
វា	-7.22225
K	-7.22744
ិ	-7.2276
▁គឺ	-7.22857
▁ឧបករណ៍	-7.2325
▁7	-7.24337
ar	-7.24795
st	-7.24991
10	-7.2603
▁ទំព័រ	-7.26785
mm	-7.27409
et	-7.27707
▁8	-7.2831
របស់អ្នក	-7.2877
▁the	-7.28921
E	-7.29995
ថា	-7.30448
▁L	-7.30549
el	-7.30597
▁សូម	-7.31119
U	-7.313
▁+	-7.31764
▁រូប	-7.33021
ឆ្នាំ	-7.34085
ក្រុមហ៊ុន	-7.34463
▁19	-7.35321
▁ធ្វើ	-7.35596
▁ផលិតផល	-7.35628
▁http	-7.3578
9	-7.36062
6	-7.36725
▁ថ្ងៃ	-7.36751
▁W	-7.37079
៖	-7.37499
នឹង	-7.38095
ភាព	-7.38457
▁0	-7.39424
▁I	-7.39944
▁Co	-7.39963
▁បង្ហាញ	-7.40481
នៅលើ	-7.40752
co	-7.40828
ោ	-7.40968
▁2019	-7.41398
▁*	-7.41663
▁ព័ត៌មាន	-7.42287
▁N	-7.4238
to	-7.42751
ur	-7.43048
កម្មវិធី	-7.43887
▁ប្រព័ន្ធ	-7.44654
▁ឈ្មោះ	-7.44692
th	-7.45149
ព	-7.45583
ខ្ពស់	-7.45731
ណា	-7.45909
O	-7.46123
]	-7.46301
0	-7.46443
▁ជ្រើស	-7.46965
លើ	-7.47765
50	-7.47925
&	-7.47952
es	-7.48111
▁J	-7.48876
ទូរស័ព្ទ	-7.4889
ញ	-7.4961
ថ្មី	-7.49731
X	-7.50016
▁ពេល	-7.50394
▁ដើម	-7.50475
ុ	-7.51353
ol	-7.51846
▁ដង	-7.51978
▁V	-7.51993
ch	-7.53459
▁12	-7.53633
ដែលមាន	-7.53933
▁20	-7.53941
▁ឲ្យ	-7.54007
តាម	-7.54706
▁ទំហំ	-7.55174
ខ្ញុំ	-7.55261
▁[	-7.55377
▁ស្លាក	-7.55879
30	-7.55984
z	-7.56408
ia	-7.56468
គឺ	-7.56934
at	-7.57453
us	-7.58157
▁ប្រភេទ	-7.58302
'	-7.58342
▁ថា	-7.58667
”	-7.59141
មិន	-7.59578
▁X	-7.59713
ត្រូវបាន	-7.59719
ro	-7.61081
▁iPhone	-7.61554
▁ថត	-7.62535
20	-7.62885
ic	-7.62995
▁O	-7.63226
Y	-7.63386
ប្រើ	-7.63388
se	-7.64282
▁ជាមួយ	-7.64351
ri	-7.64471
▁តម្លៃ	-7.64585
ad	-7.65275
▁of	-7.65778
ទ	-7.66113
▁2017	-7.66579
01	-7.67512
ធ្វើ	-7.67667
▁ខ្ញុំ	-7.67691
ឬ	-7.67825
▁បន្ថែម	-7.67874
16	-7.67875
▁9	-7.67956
នៃការ	-7.68211
am	-7.68212
km	-7.69515
▁យើង	-7.696
▁ទូរស័ព្ទ	-7.69647
▁តែ	-7.69844
អាច	-7.7016
▁15	-7.70297
▁បើ	-7.71092
ស៊ី	-7.71401
org	-7.71566
លោក	-7.71984
ម៉ាស៊ីន	-7.72445
ហើយ	-7.72456
▁មើល	-7.7263
kh	-7.72901
ly	-7.7311
ប្រព័ន្ធ	-7.73337
Comment	-7.73397
ហ	-7.74353
េ	-7.74531
ើ	-7.74882
▁រូបភាព	-7.74939
តា	-7.75296
រី	-7.75843
ី	-7.75921
▁តើ	-7.76024
▁អ	-7.76343
លី	-7.76407
▁•	-7.7678
ter	-7.77296
11	-7.7732
▁ពណ៌	-7.77438
un	-7.77744
▁@	-7.77868
ប្រ	-7.77961
12	-7.78377
ទាំងអស់	-7.78567
▁m	-7.78698
▁ចំនួន	-7.78707
ណ	-7.78749
15	-7.79303
ma	-7.79354
ថ	-7.79523
(	-7.79859
ទឹក	-7.79931
▁ចុច	-7.80185
▁ទាញយក	-7.80235
របស់យើង	-7.80512
▁info	-7.80616
ទីក្រុង	-7.80618
il	-7.8102
▁to	-7.81241
ដា	-7.81622
ឧបករណ៍	-7.81759
/?	-7.81845
80	-7.82477
ផលិតផល	-7.82912
លេខ	-7.83138
60	-7.83205
▁ក្រុម	-7.83278
as	-7.83298
and	-7.83789
02	-7.83962
▁and	-7.84411
▁បន្ទាប់	-7.84543
▁មុន	-7.84725
▁ប្រអប់	-7.85059
is	-7.85192
កា	-7.85666
គ	-7.85756
la	-7.85891
▁a	-7.8594
li	-7.8597
25	-7.86027
ឱ្យ	-7.8613
17	-7.86206
▁នៅក្នុង	-7.86402
▁តាម	-7.86952
យើង	-7.86972
▁ថ្មី	-7.87159
▁ផ្នែក	-7.87272
ra	-7.87897
ate	-7.88114
▁https	-7.88427
id	-7.88548
40	-7.88894
▁30	-7.89043
សា	-7.89249
អំពី	-7.893
▁18	-7.89441
▁២	-7.89639
មក	-7.89849
ation	-7.90682
me	-7.90805
ឌី	-7.90936
▁f	-7.92044
▁លេខ	-7.92109
lo	-7.92567
ជាតិ	-7.93511
▁“	-7.9392
te	-7.94324
mo	-7.94585
▁ទេ	-7.95596
ប្រតិបត្តិការ	-7.96106
05	-7.96326
▁U	-7.9659
ho	-7.967
▁ម៉ោង	-7.9671
op	-7.97087
18	-7.97715
▁សារ	-7.98117
បន្ថែម	-7.98554
24	-7.99052
▁ទី	-7.99056
▁បើក	-7.99079
09	-7.99318
នី	-7.99412
ul	-7.9952
▁2016	-7.9957
ម្	-7.99866
ឡើង	-7.99932
ម៉ា	-7.99991
City	-8.00165
ang	-8.00689
03	-8.00747
de	-8.0082
ir	-8.01055
▁16	-8.01161
I	-8.01169
▁គ្មាន	-8.01266
▁ខាង	-8.01986
ែ	-8.02141
▁name	-8.02337
36	-8.02348
នា	-8.0262
ex	-8.02628
ចំនួន	-8.0265
▁បង្កើត	-8.02796
j	-8.03032
04	-8.03134
▁»	-8.03201
ot	-8.03554
ដែលបាន	-8.03589
▁+0000	-8.0366
▁ត្រូវបាន	-8.03688
ប្រាក់	-8.03713
▁Ltd	-8.03812
▁24	-8.03852
▁ពាក្យ	-8.04069
ថ្ងៃ	-8.04364
im	-8.04382
▁2013	-8.04792
1%9	-8.05034
13	-8.05691
មុន	-8.05919
▁ធាតុ	-8.05941
▁ជម្រើស	-8.06005
ដល់	-8.06048
ក្រុម	-8.06309
▁បញ្ជី	-8.06617
ថ្ម	-8.06688
ផ្នែក	-8.06763
▁អត្ថបទ	-8.06864
33	-8.07368
ល្អ	-8.07487
ប្រភេទ	-8.07631
ផលិត	-8.0764
ជាង	-8.07963
na	-8.08029
22	-8.08543
ការងារ	-8.08614
ut	-8.08665
និងការ	-8.08701
▁យក	-8.0886
ធំ	-8.09069
35	-8.09168
▁Ch	-8.09346
per	-8.09851
ឺ	-8.1006
កំណត់	-8.10312
ta	-8.10323
▁Cambodia	-8.10383
um	-8.10445
ាំង	-8.10541
23	-8.10677
ប្រទេស	-8.10697
▁for	-8.10843
19	-8.11171
ល់	-8.11228
▁ទីក្រុង	-8.11469
▁Ro	-8.11476
គ្នា	-8.1165
▁បញ្ចូល	-8.11763
▁Z	-8.11781
ពេល	-8.11798
▁ចិន	-8.12281
សម្រាប់ការ	-8.12333
▁'	-8.12595
▁១	-8.12665
▁ទាំងអស់	-8.12698
បំផុត	-8.12903
ូ	-8.13285
▁ភាព	-8.13453
ផ្សេងទៀត	-8.13683
ent	-8.13704
▁Re	-8.1371
▁ដាក់	-8.1388
▁ជំនួយ	-8.13888
all	-8.1435
▁KDE	-8.1435
តែ	-8.14507
▁25	-8.14802
ទេ	-8.14829
▁ចូល	-8.155
▁2014	-8.15576
ក្នុងការ	-8.15821
ver	-8.15832
▁St	-8.15929
រោងចក្រ	-8.15944
14	-8.16052
ong	-8.16191
28	-8.16256
២	-8.16321
ង់	-8.16376
ជាមួយនឹង	-8.16646
អា	-8.16656
▁ប្រទេស	-8.17552
ne	-8.17825
ដូចជា	-8.18148
ine	-8.18213
ឡា	-8.18917
ion	-8.19025
ហ្វ	-8.19103
▁50	-8.19118
▁100	-8.19274
▁ប៉ុន្តែ	-8.19449
ទទួលបាន	-8.19635
▁2015	-8.19757
ល្អបំផុត	-8.19962
តំបន់	-8.20112
▁អា	-8.20113
រ៉ា	-8.20408
▁អំពី	-8.20598
ឡ	-8.20757
ៃ	-8.21102
▁ឡើង	-8.21308
om	-8.2131
៣	-8.21359
ប់	-8.21383
▁In	-8.21722
▁ថ្ម	-8.21752
▁ទំព័រដើម	-8.21786
▁ដូច	-8.21838
▁កំពុង	-8.22414
▁£	-8.22491
ធ្វើការ	-8.22644
ឯកសារ	-8.22648
▁13	-8.22666
១	-8.22819
21	-8.22837
បា	-8.22936
▁បញ្ជា	-8.23177
▁17	-8.23314
វី	-8.23448
▁ផ្លូវ	-8.23506
ដាក់	-8.24092
26	-8.24314
37	-8.24437
ក់	-8.24889
ក្រ	-8.24925
មនុស្ស	-8.24986
▁11	-8.25656
កម្ពុជា	-8.25749
▁ទៀត	-8.25848
▁រក	-8.26232
ៀ	-8.26498
ៈ	-8.26771
យ៉ាង	-8.26826
sh	-8.26862
ដែក	-8.27512
ព័ត៌មាន	-8.27584
ត្រូវ	-8.27602
ំ	-8.27885
38	-8.27897
ួ	-8.28087
ge	-8.28121
99	-8.28335
Z	-8.28556
ផ្លូវ	-8.28725
55	-8.29239
២០	-8.2968
▁បិទ	-8.2992
ill	-8.2992
07	-8.2993
ជាច្រើន	-8.30131
45	-8.30217
06	-8.30298
ធ	-8.30638
ះ	-8.30663
ពាណិជ្ជកម្ម	-8.30841
▁តំបន់	-8.30914
www	-8.31076
08	-8.3121
▁de	-8.31248
ers	-8.31441
យក	-8.31888
J	-8.32265
▁ដំណឹង	-8.32733
ve	-8.32843
▁Android	-8.33066
34	-8.33283
▁របៀប	-8.33467
▁«	-8.33513
▁ដល់	-8.3368
pe	-8.33725
ត្រ	-8.34234
បង្ហាញ	-8.34388
ថ្ងៃនេះ	-8.34424
▁Ma	-8.34428
ខែ	-8.34481
ដៃ	-8.34487
▁ចង់	-8.34625
▁កា	-8.34696
ជ	-8.34834
▁ចេញ	-8.3492
បំពង់	-8.34927
▁14	-8.34957
▁The	-8.35124
▁ភាសា	-8.35139
ផ្	-8.35189
29	-8.35365
65	-8.35371
ធ្វើឱ្យ	-8.35667
ry	-8.35732
39	-8.35785
▁គ្រប់គ្រង	-8.35929
up	-8.36207
័	-8.36255
ចិន	-8.36579
▁ប្រ	-8.36592
ពីរ	-8.36691
នោះ	-8.36743
ay	-8.36964
▁Windows	-8.37042
▁កំហុស	-8.37136
បង្កើត	-8.37179
▁រក្សា	-8.37453
▁Forex	-8.37467
▁Capacitor	-8.37498
▁ច្រើន	-8.37519
ag	-8.37981
ដី	-8.38264
48	-8.38378
៧	-8.38383
លក់	-8.38431
នូវ	-8.38885
កម្ម	-8.39009
▁បច្ចុប្បន្ន	-8.39294
ៗ	-8.3931
lu	-8.39345
ab	-8.39587
▁©	-8.39709
អូ	-8.39842
▁រោងចក្រ	-8.39961
▁ទាំង	-8.40197
ែក	-8.40205
▁21	-8.40282
*	-8.4049
ការពារ	-8.40527
▁នោះ	-8.40528
▁បោះពុម្ព	-8.4102
▁on	-8.41193
ide	-8.41421
-1	-8.41469
90	-8.4154
27	-8.4181
▁មក	-8.41846
▁គឺជា	-8.41869
lang	-8.4188
ត្រូវបានគេ	-8.41907
ack	-8.41974
៩	-8.41996
ុង	-8.42065
ពិភពលោក	-8.42109
៥	-8.42445
32	-8.42589
ell	-8.42605
សេ	-8.42638
បញ្ចូល	-8.42641
▁នៅលើ	-8.42916
រថយន្ត	-8.42932
▁ដូច្នេះ	-8.43085
៍	-8.43156
▁រចនា	-8.4322
ba	-8.43443
ip	-8.43483
200	-8.43786
▁23	-8.44142
ដំណើរការ	-8.44281
ដោយឥតគិតថ្លៃ	-8.44357
គ្រប់គ្រង	-8.44388
ig	-8.4439
ចេញ	-8.44393
▁អាសយដ្ឋាន	-8.44423
▁Li	-8.44493
#	-8.44834
brag	-8.44985
▁ទិន្នន័យ	-8.45068
▁ទំនាក់ទំនង	-8.45195
ard	-8.45207
ិន	-8.45362
no	-8.45379
▁ពួក	-8.4544
ុន	-8.45793
ian	-8.45852
art	-8.46047
ព្រ	-8.46139
▁អាន	-8.46224
▁អនុញ្ញាត	-8.46358
▁ទទួល	-8.46611
អ្វី	-8.46774
កំពុង	-8.4682
bo	-8.47138
ite	-8.4721
មើល	-8.47235
cambodia	-8.47404
ce	-8.47453
em	-8.47624
ប៉ា	-8.47705
ទូ	-8.47815
ie	-8.47888
▁គេ	-8.47992
កន្លែង	-8.48021
មេ	-8.48041
ac	-8.48264
តម្លៃ	-8.48284
▁ពិនិត្យ	-8.48325
ភ្ជាប់	-8.48334
លាយ	-8.48457
▁Hack	-8.48571
ផ្គត់ផ្គង់	-8.48588
▁by	-8.48623
▁៣	-8.48736
▁ក្រណាត់	-8.48744
os	-8.48834
▁ប្រសិន	-8.48882
យន្តហោះ	-8.4902
ផ្សព្វផ្សាយ	-8.49083
if	-8.4912
៨	-8.49427
ឈ្មោះ	-8.49507
man	-8.49518
67	-8.49529
▁សេវា	-8.49619
▁បង្អួច	-8.49689
៉	-8.49759
ment	-8.49945
▁លក់	-8.49949
po	-8.50026
▁Q	-8.50053
ពួកគេ	-8.5016
រដ្ឋ	-8.50164
ទំហំ	-8.50269
ថាមពល	-8.50488
▁ឆ្លើយតប	-8.50582
ចូល	-8.50626
អេ	-8.5063
tr	-8.50848
ដើម	-8.51447
ម៉ូ	-8.51767
▁ទុក	-8.51796
ub	-8.51803
ក្រុង	-8.51932
លា	-8.51992
▁សាកលវិទ្យាល័យ	-8.52126
ពិសេស	-8.52161
▁200	-8.52575
▁Y	-8.52579
ផ្ទះ	-8.52615
សារ	-8.52713
da	-8.52745
បើក	-8.52903
▁ផ្	-8.53141
អាន	-8.53174
ស្រ	-8.53309
di	-8.53347
▁លេខយោង	-8.53409
86	-8.53468
៤	-8.5349
ត់	-8.53778
ឥឡូវនេះ	-8.53913
▁នាទី	-8.53915
end	-8.53957
នាក់	-8.54246
តេ	-8.54316
▁500	-8.54405
ខ	-8.54451
▁22	-8.54453
▁ល្ងាច	-8.5479
▁២០	-8.54799
▁បន្ទាត់	-8.5483
31	-8.5491
▁No	-8.54984
cm	-8.55017
វ៉ា	-8.55193
est	-8.55223
ant	-8.55295
47	-8.55314
▁ខ្សែ	-8.55315
▁Bitcoin	-8.55397
ស្រី	-8.56052
ទំនាក់ទំនង	-8.56507
▁និយាយ	-8.56834
ខ្សែ	-8.56997
75	-8.56999
ប៊ី	-8.57031
▁បណ្ដាញ	-8.57155
▁ទ	-8.57296
កំដៅ	-8.57499
▁~	-8.57613
ផ្ទាល់ខ្លួន	-8.57646
សេវា	-8.57839
របស់ខ្ញុំ	-8.57853
59	-8.57955
▁ដំណើរការ	-8.57972
69	-8.58078
▁សៀវភៅ	-8.5809
ts	-8.58228
▁2020	-8.58265
ពិ	-8.58346
▁ចាប់ផ្ដើម	-8.58566
ber	-8.58781
តាមរយៈ	-8.58796
49	-8.58833
ទីផ្សារ	-8.59031
age	-8.5909
ហា	-8.59307
ព្រះ	-8.59343
ពណ៌	-8.59494
អាហារ	-8.59539
▁ប្រទេសចិន	-8.59611
កាត់	-8.59748
សំខាន់	-8.59796
ិត	-8.59882
▁De	-8.59973
▁ពេលវេលា	-8.60048
បី	-8.60124
ph	-8.60252
▁ប៊ូតុង	-8.60314
66	-8.60328
ិច	-8.60468
កូ	-8.60495
land	-8.60495
ចាក់	-8.60559
95	-8.60838
ជំនួយ	-8.60897
▁នៅពេល	-8.60929
built	-8.60969
+	-8.60993
he	-8.61073
▁កម្រិត	-8.61171
▁ក្រោយ	-8.6123
100	-8.61252
ជំងឺ	-8.61375
ផងដែរ	-8.61385
▁26	-8.61438
hi	-8.6168
85	-8.61762
ha	-8.61814
ទិញ	-8.61893
▁ផ្ទុក	-8.61908
ម៉ោង	-8.6191
ក្រោយ	-8.62029
▁Me	-8.62051
▁Se	-8.62086
▁Smart	-8.6231
ap	-8.6249
ជី	-8.62506
ចិត្ត	-8.62519
▁អ្នកផ្គត់ផ្គង់	-8.62543
go	-8.6259
der	-8.62636
▁USA	-8.6264
▁is	-8.62664
ាក់	-8.62864
ប្រេង	-8.62899
Q	-8.62924
▁ប្រាក់	-8.62991
ak	-8.63007
មាស	-8.63205
ដូ	-8.63258
▁ក្រុង	-8.63276
មុខ	-8.633
68	-8.63476
ណាស់	-8.63564
កំ	-8.63761
41	-8.6377
▁កាស៊ីណូ	-8.63984
98	-8.64021
គេ	-8.64207
ca	-8.64238
ាំ	-8.64518
ទាប	-8.64524
បូ	-8.64542
70	-8.64595
បច្ចេកវិទ្យា	-8.64876
▁be	-8.6488
អេស	-8.6492
▁មតិ	-8.64929
ថ្ងៃទី	-8.64937
44	-8.64946
ow	-8.6498
51	-8.64996
រ៉ូ	-8.65068
រូបភាព	-8.65232
pa	-8.65252
ក្រណាត់	-8.65338
▁សរសេរ	-8.65464
បន្ទាប់	-8.65495
▁ធនាគារ	-8.6591
▁ស្វែងរក	-8.65972
▁រក្សាសិទ្ធិ	-8.66004
▁Samsung	-8.66137
ភ	-8.663
អគ្គិសនី	-8.6632
▁បម្រើ	-8.66326
កុមារ	-8.66442
▁គាំទ្រ	-8.66521
ថ្នាំ	-8.66593
ករ	-8.6661
▁60	-8.66847
បន្ត	-8.66927
័រ	-8.66952
▁Google	-8.67
▁ការងារ	-8.67028
▁Le	-8.67075
▁អ្វី	-8.67136
▁polyester	-8.67241
ies	-8.67254
one	-8.67344
▁សម្ព័ន្ធ	-8.67429
មី	-8.67477
▁ទីតាំង	-8.67488
58	-8.67493
ton	-8.67499
និ	-8.67582
ទទួល	-8.67596
▁ultrasonic	-8.67611
43	-8.6767
ឹម	-8.67675
រំ	-8.67839
បទ	-8.68019
ឈ្នះ	-8.68107
AN	-8.68385
ាយ	-8.68393
ន់	-8.68446
ៅ	-8.68505
ហ្	-8.68638
ចង់	-8.68704
▁°	-8.68916
គឺជា	-8.6905
ឧស្សាហកម្ម	-8.69182
71	-8.69445
ផ្តល់	-8.69579
▁Sh	-8.70047
រា	-8.70107
MP	-8.70122
="3	-8.70497
របស់ខ្លួន	-8.70508
ផ	-8.70517
រថភ្លើង	-8.70568
▁សា	-8.7062
វិ	-8.70755
▁មូលដ្ឋាន	-8.70833
▁100%	-8.70912
ដ៏	-8.70915
do	-8.70982
▁អ៊ី	-8.71031
បិទ	-8.71046
64	-8.71066
តើ	-8.71287
ទូរស័ព្ទដៃ	-8.71307
IN	-8.71359
គ្មាន	-8.7145
ka	-8.71544
▁៤	-8.71579
▁បញ្ជាក់	-8.71635
▁រង	-8.71649
▁Home	-8.71676
អាជីវកម្ម	-8.71779
ឡូ	-8.72016
▁គ	-8.72027
▁ហ	-8.72278
42	-8.72314
សំ	-8.72407
រក	-8.72408
88	-8.7252
ដ្ឋាន	-8.72732
▁ចាក់	-8.72934
ទិន្នន័យ	-8.73191
56	-8.73233
ពេលវេលា	-8.73271
យ៉ា	-8.73627
port	-8.73627
57	-8.73725
▁Mar	-8.73857
ភ្លើង	-8.73862
គី	-8.74001
▁ព្រឹត្តិការណ៍	-8.74107
▁ឃើញ	-8.74224
72	-8.74225
▁ផ្ញើ	-8.74341
បុរស	-8.7441
ែន	-8.7449
កិច្ច	-8.74757
ងាយស្រួល	-8.74794
សិក្សា	-8.74925
▁ក្រោម	-8.74937
គិត	-8.75007
អន្តរជាតិ	-8.75134
ពន្លឺ	-8.75218
សុវត្ថិភាព	-8.75247
សាកលវិទ្យាល័យ	-8.75306
សុខភាព	-8.75499
comment	-8.75535
ng	-8.75537
រយៈពេល	-8.75538
និយាយ	-8.75559
▁វីដេអូ	-8.75737
ប្រើប្រាស់	-8.7577
ity	-8.75898
▁28	-8.75918
▁27	-8.75991
vi	-8.76063
▁កំណែ	-8.76066
៦	-8.76117
អតិថិជន	-8.76121
នៅទីនេះ	-8.76277
គ្រប់យ៉ាង	-8.76487
ប្រកាស	-8.76591
ដំបូង	-8.76641
មូលដ្ឋាន	-8.76797
ដឹកនាំ	-8.76871
បំពេញ	-8.7692
ទៀត	-8.76951
cr	-8.7696
▁ចំណុច	-8.77206
46	-8.77315
សត្វ	-8.77344
▁Ar	-8.77699
▁រូបថត	-8.77813
gu	-8.77967
ត្រូវការ	-8.78053
កាត	-8.78083
ER	-8.78286
tra	-8.783
▁Tr	-8.78326
au	-8.78399
53	-8.78458
ឃ	-8.78551
ប្រទេសចិន	-8.786
របស់ក្រុមហ៊ុន	-8.78672
ជ្រើសរើស	-8.78722
▁ក៏	-8.78744
ភាគ	-8.79043
▁40	-8.7917
▁មម	-8.79218
▁របារ	-8.79285
ឆ	-8.79617
យូ	-8.79846
ci	-8.79878
ច្រើន	-8.79988
ud	-8.80037
▁La	-8.80243
▁Bo	-8.80293
▁វាយ	-8.80387
រហូតដល់	-8.80489
សរុប	-8.80626
▁City	-8.80664
2019	-8.80672
sk	-8.80708
mer	-8.80793
សេវាកម្ម	-8.80888
▁hour	-8.80908
ផ្ទុក	-8.80974
អោយ	-8.81031
▁មេ	-8.8119
▁€	-8.81227
▁យ៉ាង	-8.81242
son	-8.81279
កីឡា	-8.81296
់	-8.81334
mi	-8.81365
▁title	-8.81384
គណនី	-8.81392
ru	-8.81421
▁បំពង់	-8.81516
ម៉ាក	-8.81689
▁ម៉ា	-8.81738
▁សម្ភារៈ	-8.81782
ga	-8.81878
▁ធម្មតា	-8.81946
អនុវត្ត	-8.82156
optional	-8.82268
ect	-8.82352
▁ជាង	-8.82364
ight	-8.82478
ជន	-8.82488
act	-8.8249
▁ឱ្យ	-8.82532
វេ	-8.82578
រវាង	-8.826
▁ចំណាំ	-8.82606
$	-8.82632
បោះពុម្ព	-8.82719
▁កម្ពុជា	-8.8273
76	-8.82795
▁រក្សាទុក	-8.82836
ord	-8.82912
សាក	-8.82932
▁ផ្ទះ	-8.82952
ត្	-8.83136
ដែលអ្នក	-8.83182
ទ្រ	-8.83311
▁កញ្ញា	-8.83392
ែង	-8.83402
កាល	-8.83511
ល្	-8.83555
▁item	-8.83566
▁ផ្ដល់	-8.83593
ឈើ	-8.83657
គម្រោង	-8.83689
74	-8.83804
▁គាត់	-8.83896
ទាំងនេះ	-8.84106
54	-8.84137
ទាំង	-8.84246
តិ	-8.84269
សប្តាហ៍	-8.84321
ោះ	-8.84411
ម៉ូតូ	-8.84456
ear	-8.84457
សញ្ញា	-8.8456
អ៊ី	-8.8457
73	-8.84653
▁វិធី	-8.84679
1"	-8.84704
52	-8.84762
500	-8.84862
’	-8.84999
ខ្លួន	-8.85016
បូម	-8.85061
▁ផ្លាស់ប្ដូរ	-8.85179
កញ្ចក់	-8.8522
▁ឧសភា	-8.85224
ចុងក្រោយ	-8.8529
សមាជិក	-8.85442
ឌ	-8.85451
អ្វីដែល	-8.85498
▁រចនាសម្ព័ន្ធ	-8.85524
min	-8.85555
ind	-8.85677
អនុ	-8.85874
▁Pro	-8.85876
du	-8.86005
ដោយស្វ័យប្រវត្តិ	-8.86137
▁Sp	-8.86282
of	-8.86349
▁ដែលមាន	-8.86366
បោះ	-8.86507
96	-8.8654
sa	-8.86702
63	-8.86716
ium	-8.86754
សំរាប់	-8.86825
ធី	-8.86878
▁ធ្នូ	-8.86932
គេហទំព័រ	-8.86932
▁រថយន្ត	-8.86967
រឿង	-8.87076
ផលិតកម្ម	-8.87234
ន៍	-8.87302
▁PVC	-8.87309
eng	-8.87372
▁ទឹក	-8.87433
▁ប្រតិបត្តិការ	-8.8744
▁គម្រោង	-8.87527
ជីវិត	-8.87599
▁ទីនេះ	-8.87658
ft	-8.87837
AT	-8.87896
ុក	-8.87896
ដូច	-8.87905
រឹង	-8.87928
▁ព	-8.87929
▁ផ្សេង	-8.8795
ass	-8.88002
ជួយ	-8.88079
od	-8.88132
ជួប	-8.88139
វីដេអូ	-8.88203
ាស់	-8.88207
▁ល្បឿន	-8.88274
geeks	-8.88292
▁Mo	-8.8848
weather	-8.8852
]]	-8.88529
les	-8.88539
pcs	-8.8855
ណែនាំ	-8.88598
▁ចាប់	-8.88624
បញ្ហា	-8.88661
កំពូល	-8.88664
▁1000	-8.88745
▁2012	-8.88892
the	-8.88905
ff	-8.88996
▁ត្រឹមត្រូវ	-8.89168
ist	-8.89173
IS	-8.89177
បញ្ជូន	-8.89211
▁ខែមករា	-8.89255
ចាស់	-8.893
93	-8.89305
▁ប្រសិនបើ	-8.89358
▁(1	-8.89383
92	-8.89456
ec	-8.89594
អក្សរ	-8.89605
▁កាលបរិច្ឆេទ	-8.89648
io	-8.89701
ពេញលេញ	-8.89747
▁ស៊េរី	-8.89763
ti	-8.8977
▁អ៊ីមែល	-8.89823
▁ពិសេស	-8.89877
ជាក់លាក់	-8.89979
តូច	-8.89999
▁៥	-8.90013
▁ម៉ែត្រ	-8.90018
▁តម្រង	-8.90066
▁ទិដ្ឋភាព	-8.90104
int	-8.90153
▁Al	-8.90164
ឲ្យ	-8.90207
hu	-8.90259
ទំព័រ	-8.90397
ចាប់ផ្តើម	-8.90411
គ្រ	-8.90448
ni	-8.90467
រូប	-8.90598
▁action	-8.90643
87	-8.90672
សូ	-8.90702
ស៊	-8.90843
ម្នាក់	-8.9094
oc	-8.91014
▁ចំពោះ	-8.9107
»	-8.91128
89	-8.91234
EN	-8.91354
▁ដែលបាន	-8.91484
▁Br	-8.91525
ាន	-8.91648
▁ដុល្លារ	-8.91729
ខាង	-8.91731
កូន	-8.91774
▁ខេត្ត	-8.9179
su	-8.91827
tic	-8.91899
our	-8.91935
កង់	-8.9195
ហ្ស	-8.92159
▁ព្រះ	-8.92169
ុះ	-8.92433
▁គ្នា	-8.92491
▁លុប	-8.92495
ធនាគារ	-8.92544
▁វិញ	-8.92628
អាយុ	-8.92714
▁សមត្ថភាព	-8.92721
gen	-8.92776
▁សំណួរ	-8.92902
▁ដ៏	-8.92903
▁PDF	-8.92965
▁បទ	-8.9308
រាប់	-8.93222
រប	-8.93478
▁រួម	-8.93569
▁កាន់	-8.93588
បញ្ចប់	-8.93622
ive	-8.93648
61	-8.9365
800	-8.93673
រៀបចំ	-8.9371
ត្រជាក់	-8.93763
78	-8.9384
ឹង	-8.93916
ខ្យល់	-8.93932
តូ	-8.94061
ជូនដំណឹង	-8.94086
▁អ្នកអាច	-8.94123
mb	-8.94206
▁000	-8.94291
ok	-8.94333
▁អស់	-8.94361
បំបែក	-8.94413
តម្រូវការ	-8.94418
Stencils	-8.94489
ជម្រើស	-8.94539
ឯកជន	-8.94551
▁con	-8.94572
▁មិថុនា	-8.94651
bi	-8.94655
ចា	-8.94657
ច្បាប់	-8.94693
គាំទ្រ	-8.94701
box	-8.94707
use	-8.94745
ai	-8.9479
ទា	-8.94914
ធាតុ	-8.94961
ុំ	-8.95001
មធ្យម	-8.95058
សមត្ថភាព	-8.95142
tor	-8.95148
ចូលរួម	-8.95156
77	-8.95197
ភាពយន្ត	-8.95217
wordpress	-8.95221
ខ្លាំង	-8.95258
▁មជ្ឈមណ្ឌល	-8.95274
day	-8.95334
;&	-8.95351
បែប	-8.95393
បណ្	-8.95515
ច្រ	-8.9576
▁ល្បែង	-8.95909
▁LED	-8.95918
ចំ	-8.95966
ស្លាក	-8.95988
▁ឡើយ	-8.96038
si	-8.96124
▁ដំឡើង	-8.96146
▁កុំព្យូទ័រ	-8.96286
មានការ	-8.96327
ចុះឈ្មោះ	-8.96351
អាមេរិក	-8.96395
▁សំឡេង	-8.96418
log	-8.9642
▁ម៉ឺនុយ	-8.96451
net	-8.9654
ក៏	-8.9654
▁29	-8.96718
ប្រា	-8.96725
▁សញ្ញា	-8.9676
▁គ្រាប់	-8.96764
han	-8.96979
សង្គម	-8.97034
១៩	-8.97154
បំ	-8.9717
▁To	-8.97171
ting	-8.97214
បញ្ជា	-8.97244
ាប់	-8.97297
កម្រិត	-8.97333
▁ជំនួស	-8.97344
▁ខែសីហា	-8.97421
▁តុលា	-8.97471
អភិវឌ្ឍន៍	-8.97587
94	-8.97597
ger	-8.97817
▁Po	-8.97817
ner	-8.97849
▁កន្លែង	-8.97928
សាស្ត្រ	-8.97936
▁វិនាទី	-8.97954
សម	-8.97959
▁ប្រវត្តិ	-8.97965
AC	-8.98033
ina	-8.98066
កាស៊ីណូ	-8.98091
សូម	-8.98164
▁នាក់	-8.98367
លាក់	-8.98464
▁ទាក់ទង	-8.98492
ial	-8.98568
▁គេហទំព័រ	-8.9859
ទាញយក	-8.98601
▁Ad	-8.98643
ត្រួតពិនិត្យ	-8.98751
សហ	-8.98799
ចុច	-8.98805
▁អេ	-8.98885
▁ស៊ី	-8.98927
គំរូ	-8.98974
បង់	-8.9909
តំលៃ	-8.99128
ick	-8.99171
ash	-8.99199
ដំណោះស្រាយ	-8.99213
▁Ba	-8.99246
und	-8.99364
▁ល្អ	-8.99365
លំ	-8.9952
ស្ត្រី	-8.99644
▁ដំបូង	-8.99647
2018	-8.99671
អឺរ៉ុប	-8.99723
ិក	-8.99822
គ្រប់	-8.99886
ណាមួយ	-8.99892
▁មករា	-8.9993
ក្តៅ	-8.99977
79	-9.00083
▁Khmer	-9.00101
▁Mon	-9.00189
▁you	-9.0019
ator	-9.00347
▁Casino	-9.00366
nt	-9.00425
ណ្	-9.00472
ភ្នំ	-9.00484
ice	-9.00531
▁So	-9.00563
ប្រសើរ	-9.00666
▁សង់ទីម៉ែត្រ	-9.007
▁CO	-9.00731
be	-9.00742
gra	-9.00768
ki	-9.00771
ug	-9.0078
▁ករណី	-9.00926
គ្រាន់តែ	-9.00931
មួយចំនួន	-9.0095
ស្វែងរក	-9.00992
▁An	-9.01195
OS	-9.01216
ឃើញ	-9.01331
▁Be	-9.01398
គាត់	-9.01441
មុខងារ	-9.01444
▁ចុះ	-9.01745
ach	-9.0176
▁150	-9.01786
ខ្ញុំបាន	-9.01855
97	-9.0199
AR	-9.02062
ក្នុងមួយ	-9.02134
81	-9.02322
ធានា	-9.02444
គូ	-9.02515
សម្ភារៈ	-9.02531
▁Penh	-9.02579
SA	-9.02623
រកឃើញ	-9.02656
▁សីហា	-9.02667
▁លទ្ធផល	-9.02682
▁ភ្ជាប់	-9.02693
ដេ	-9.02873
▁ជួរ	-9.02975
▁លំនាំ	-9.03014
▁ខ	-9.03037
ភា	-9.03072
ko	-9.03256
ដូចគ្នា	-9.03311
ធម្មតា	-9.03327
▁បញ្ចប់	-9.0343
▁សេចក្តី	-9.03473
▁11:	-9.03507
ens	-9.03515
ផ្ទៃ	-9.03518
▁ខែតុលា	-9.03524
ម្ចាស់	-9.03578
▁ប្ដូរ	-9.0364
វិទ្យា	-9.03732
ុល	-9.039
▁ផ្តល់	-9.03901
ថត	-9.03916
ប័ណ្ណ	-9.04079
▁អេក្រង់	-9.04197
ជិត	-9.04286
▁ស្បែក	-9.04362
ចម្	-9.04373
វិភាគ	-9.0442
MS	-9.04447
សហគមន៍	-9.04528
ផ្លាស់ប្តូរ	-9.04572
ប៉	-9.04634
ុយ	-9.04639
▁Sa	-9.04812
▁ធីក	-9.0482
able	-9.04834
▁ភាសាខ្មែរ	-9.0486
លូ	-9.0498
GB	-9.0505
ភាសា	-9.05249
ន្ទ	-9.05255
ថ្លៃ	-9.0529
សម្ពាធ	-9.05336
q	-9.05341
▁ម៉ូតូ	-9.05365
ស្ថិត	-9.05534
ការប្រកួត	-9.05594
▁CNC	-9.05609
color	-9.05661
ឥ	-9.05683
84	-9.05741
ace	-9.05746
▁បន្ទប់	-9.05761
▁នូវ	-9.05798
រង	-9.05872
ត្រី	-9.05926
▁អក្សរ	-9.05937
▁បូក	-9.06
out	-9.06028
ចំពោះ	-9.06058
សរសេរ	-9.06067
91	-9.06122
ឋ	-9.06127
▁មនុស្ស	-9.06167
▁2010	-9.06228
▁Con	-9.06229
កម្លាំង	-9.06242
▁ក្	-9.06357
គុណ	-9.06639
បញ្ជាក់	-9.06663
សោ	-9.06767
ជូន	-9.06809
កាត់បន្ថយ	-9.07108
បច្ចេកទេស	-9.07139
▁មិនអាច	-9.07212
va	-9.07283
ដឹង	-9.07457
oo	-9.0753
ពេញ	-9.07596
តុ	-9.07635
ust	-9.07748
▁300	-9.07758
ដឹកជញ្ជូន	-9.0777
ix	-9.07775
ទន់	-9.07838
លម្អិត	-9.07849
▁ពិត	-9.07864
cl	-9.07941
pi	-9.07949
ile	-9.07961
ya	-9.08034
▁លំនាំដើម	-9.08093
="4	-9.08182
ផ្សារ	-9.08257
តន្ត្រី	-9.08265
▁សៀវ	-9.08358
▁ដំណើរ	-9.08397
old	-9.08471
▁ជូន	-9.08498
ទៅនឹង	-9.08738
៊	-9.08757
បន្ទាត់	-9.08766
▁ភៅ	-9.0892
សារធាតុ	-9.09167
▁ផ្ទៃ	-9.09286
ចល័ត	-9.09325
ត្រា	-9.09335
ខ្មៅ	-9.09348
ance	-9.09438
wa	-9.09569
▁Huawei	-9.09575
▁31	-9.09607
fi	-9.09733
iv	-9.09904
▁ជួល	-9.09987
tion	-9.1002
សមុទ្រ	-9.10046
▁IP	-9.10071
▁Car	-9.10077
▁លក្ខណៈ	-9.10084
កុំព្យូទ័រ	-9.10235
▁Mac	-9.10239
ហ្គា	-9.1033
▁សម័យ	-9.10348
លើបណ្តាញ	-9.10431
▁កាត	-9.10487
រៀន	-9.10572
លេង	-9.10781
▁រយៈពេល	-9.10789
▁35	-9.10794
អំ	-9.10825
▁កែសម្រួល	-9.10826
បណ្តាញ	-9.10952
អង់គ្លេស	-9.11005
▁ទទួលបាន	-9.1116
kv	-9.11186
▁កញ្ចប់	-9.11212
82	-9.11298
vo	-9.11396
mail	-9.11516
ប្	-9.11534
MA	-9.11554
▁Wi	-9.11665
TC	-9.11858
cu	-9.12073
បារាំង	-9.12263
ប៊	-9.12305
រួម	-9.1239
0,000	-9.12456
របស់គាត់	-9.12461
របស់ពួកគេ	-9.12553
post	-9.12575
2"	-9.12601
ចែករំលែក	-9.12622
បន្ទាប់ពី	-9.12671
ឧ	-9.12672
ធារាសាស្ត្រ	-9.1273
ត្តិ	-9.12805
សួរ	-9.12825
▁សេចក្ដី	-9.12887
▁សកម្មភាព	-9.12929
▁Mobile	-9.13119
ក្រាម	-9.13145
res	-9.13209
រីករាយ	-9.13212
▁Di	-9.13245
▁Constellation	-9.13314
ឌីជីថល	-9.13314
បាញ់	-9.13321
dr	-9.13454
មកពី	-9.13547
▁Ha	-9.13559
world	-9.13608
ភូមិ	-9.13706
▁អ៊ីម៉ែល	-9.1378
រាជ	-9.14013
ដុំ	-9.14058
ដក	-9.14353
▁តង់ស្យុងខ្ពស់	-9.14397
▁pro	-9.14447
▁Mi	-9.14619
ាន់	-9.14695
ជ្រើស	-9.14811
ke	-9.14812
បន្	-9.14816
ែល	-9.14887
ដែកថែប	-9.1489
▁ប្រភព	-9.15039
អតិបរមា	-9.15048
▁គណនី	-9.15078
ឡាស៊ែរ	-9.15084
ទៅកាន់	-9.15087
បង្	-9.15163
▁ក្រទ្បាផ្ទៃ	-9.15288
ណូ	-9.15294
សិ	-9.15306
▁Lo	-9.15336
▁APK	-9.15394
ក្រម	-9.15425
សកល	-9.15493
yl	-9.15595
នៅពេលដែល	-9.15634
▁កូន	-9.1564
▁160;?	-9.15672
pl	-9.15748
ប្លាស្ទិច	-9.15814
ជាមួយនឹងការ	-9.15863
▁វិ	-9.15872
ព្យាយាម	-9.15888
che	-9.15942
ទូរទស្សន៍	-9.15988
សី	-9.16022
អាលុយមីញ៉ូម	-9.16137
ភី	-9.16157
▁សិទ្ធិ	-9.16193
▁Ningbo	-9.16289
▁News	-9.16298
▁គួរ	-9.16372
សម្គាល់	-9.16446
ផល	-9.16487
▁តភ្ជាប់	-9.16519
ml	-9.16535
ស្តីពី	-9.16688
រហ័ស	-9.16693
bu	-9.16757
ឈ្មួញកណ្តាល	-9.16794
▁ជើង	-9.16873
ឹ	-9.16971
▁Jo	-9.16981
នាយក	-9.17086
▁សម្ងាត់	-9.17099
▁រដ្ឋ	-9.17164
នាំចេញ	-9.17194
▁2011	-9.17349
អាគុយ	-9.17402
▁ផ្ទាំង	-9.175
ou	-9.17576
ពិតជា	-9.17593
ករណី	-9.17605
▁ក្រុមហ៊ុនផលិត	-9.17705
dy	-9.17727
កើត	-9.1782
លឿន	-9.17986
អំណាច	-9.18015
ah	-9.18104
rea	-9.18132
ដែលអាច	-9.18147
▁Pa	-9.18155
nes	-9.18176
▁ឧទាហរណ៍	-9.18223
▁kde	-9.18286
ក្បាល	-9.18323
ob	-9.18432
នេះ។	-9.18457
ថ្នាំកូត	-9.18529
ស្មើ	-9.18531
ពាក្យ	-9.18535
▁ថាមពល	-9.1862
▁រួច	-9.18625
tal	-9.1864
ung	-9.18719
ណ៍	-9.18735
ov	-9.18794
▁លាន	-9.18796
-5	-9.18841
▁គំរូ	-9.19036
▁For	-9.19123
ជប៉ុន	-9.19148
ជោគជ័យ	-9.19251
ary	-9.19262
mon	-9.19268
▁ភាគ	-9.19321
ដោយប្រើ	-9.19392
ការ៉េ	-9.19406
សាកល្បង	-9.19433
ib	-9.19469
▁ខែវិច្ឆិកា	-9.19476
▁×	-9.19644
ណេ	-9.19666
សកម្ម	-9.19683
រយ	-9.19696
២៣	-9.19702
អាស៊ី	-9.19705
▁របាយការណ៍	-9.19721
ប្រជាជន	-9.19771
លក្ខណៈ	-9.19793
កាន់	-9.19832
ue	-9.19861
ction	-9.19995
ជើង	-9.20157
ase	-9.2017
▁ដែរ	-9.20219
▁យោបល់	-9.2025
sta	-9.20279
gi	-9.20289
ទេសចរណ៍	-9.20294
ខា	-9.20362
ពុំអាចរកបាន	-9.20399
ood	-9.20512
គុណភាព	-9.20536
SP	-9.20658
TS	-9.20701
▁ម្សៅ	-9.20733
▁ចុង	-9.20739
▁ចំនួនអ្នកទស្សនា	-9.20819
62	-9.2087
អស្ចារ្យ	-9.20894
ថ្មីៗ	-9.2091
សាធារណៈ	-9.20929
ock	-9.20936
ភាគហ៊ុន	-9.21043
▁បន្ត	-9.21078
wi	-9.21108
▁៨	-9.21155
▁ខ្មៅ	-9.21179
▁រត់	-9.21257
ស្ត	-9.21295
ប្រចាំ	-9.2136
▁រៀបចំ	-9.21431
ជាប់	-9.21442
▁Microsoft	-9.21453
mp	-9.2146
pp	-9.21466
ស្ទ	-9.2153
▁អនុវត្ត	-9.21531
មា	-9.2155
▁ខ្លួន	-9.21598
ans	-9.216
line	-9.21672
បង្រៀន	-9.21677
ដង	-9.2171
▁Air	-9.21741
RO	-9.21762
ឥណទាន	-9.21771
▁ផែនទី	-9.2183
កើតឡើង	-9.21951
ាញ់	-9.21973
នេះគឺ	-9.22063
ក្ល	-9.22094
ពន្ធ	-9.22117
CE	-9.22148
ធិ	-9.22154
កូដ	-9.22287
ហិរញ្ញវត្ថុ	-9.22321
▁ទ្រង់ទ្រាយ	-9.22322
lex	-9.22344
▁៦	-9.22347
▁90	-9.22412
ឯក	-9.22416
▁Ra	-9.22476
▁ពិនិត្យឡើងវិញ	-9.22485
▁By	-9.22577
ក្រុមហ៊ុនផលិត	-9.22613
▁Free	-9.22656
▁លេង	-9.22687
we	-9.22715
ឈ	-9.22799
សិស្ស	-9.2295
▁សរុប	-9.23026
▁ដូចជា	-9.23085
▁HD	-9.23142
for	-9.23205
ler	-9.23232
St	-9.23283
▁URL	-9.23291
IT	-9.23336
ទីតាំង	-9.23379
▁ផ្លាស់ទី	-9.23418
ជួល	-9.23467
▁www	-9.23479
2.5	-9.23483
ក្រដាស	-9.23501
សាខា	-9.23516
ផ្កា	-9.23585
ពហុ	-9.23587
ST	-9.23632
ប្រាក់រង្វាន់	-9.23684
iz	-9.23728
របស់លោក	-9.23779
▁ធ្វើការ	-9.23794
អ្នកអាច	-9.23799
▁ខែមីនា	-9.23881
រង្វាន់	-9.23905
▁OF	-9.23935
ath	-9.24108
ចោល	-9.24139
០០	-9.24197
▁កំពូល	-9.24259
▁ជាមួយនឹង	-9.24284
កោះ	-9.24313
អារម្មណ៍	-9.24331
បុគ្គលិក	-9.24361
CC	-9.24367
▁Th	-9.24368
▁ទិញ	-9.24477
វិធី	-9.24494
▁ក្រ	-9.24572
លើក	-9.24608
▁sp	-9.24655
ចាប់	-9.24707
ផ្សាយ	-9.24851
ek	-9.24897
con	-9.24952
័យ	-9.24974
▁Comments	-9.24978
▁ព្រឹក	-9.25107
▁Hu	-9.25121
▁Visa	-9.25139
cy	-9.25216
ជញ្ជាំង	-9.25233
ទំនើប	-9.25233
ដែលត្រូវបាន	-9.25282
ដើរ	-9.25404
០	-9.25415
▁whatsthis	-9.25674
របៀប	-9.25686
▁ពិន្ទុ	-9.25714
pt	-9.25801
▁Ho	-9.25831
សិទ្ធិ	-9.25937
que	-9.25991
▁តើធ្វើដូចម្តេច	-9.26006
លុយ	-9.26011
ort	-9.26033
▁កូដ	-9.26184
ជំនាញ	-9.26239
ហៅ	-9.26262
▁រុករក	-9.26284
▁ពុម្ព	-9.26352
▁ពន្លឺ	-9.26391
▁ប្រតិទិន	-9.26451
បេ	-9.26554
ល្បឿន	-9.26557
▁ទទឹង	-9.26563
វែង	-9.26597
ក្រហម	-9.26603
83	-9.26649
ផ្សេងៗ	-9.2665
ដោះស្រាយ	-9.26674
▁ប្រធាន	-9.26687
ដូច្នេះ	-9.26709
▁ខែមេសា	-9.26722
ទាក់ទង	-9.26726
ook	-9.26738
▁ទំងន់	-9.26771
ទំនិញ	-9.26786
▁with	-9.26793
▁អតិថិជន	-9.26818
▁do	-9.26867
អាកាស	-9.26889
7"	-9.26905
ទូទៅ	-9.26912
ទឹកកក	-9.26969
នៅក្នុងការ	-9.27026
▁សេវាកម្ម	-9.27122
សុ	-9.2722
កំសាន្ត	-9.27234
form	-9.27356
នេះត្រូវបាន	-9.27421
▁ផ្សាយ	-9.27499
សិល្បៈ	-9.27572
▁ខ្មែរ	-9.27573
="5	-9.27585
▁អតិបរមា	-9.27617
ឡុង	-9.27631
ឥតគិតថ្លៃ	-9.27678
▁ទូរសារ	-9.27684
▁Pre	-9.27699
▁ស្រុក	-9.27735
▁ប្លាស្ទិច	-9.27777
US	-9.27791
សេដ្ឋកិច្ច	-9.27797
លាន	-9.27859
ink	-9.27891
AL	-9.27934
▁បញ្ហា	-9.27939
fo	-9.27992
វិស័យ	-9.28024
▁ធនធាន	-9.28044
gov	-9.28076
គួរឱ្យ	-9.28164
ចរ	-9.28231
ឆ្	-9.28329
រដ្ឋាភិបាល	-9.28363
តាំង	-9.28386
វិញ	-9.28464
lan	-9.28468
-20	-9.28492
១១	-9.28516
ចែកចាយ	-9.28591
▁ខែកុម្ភៈ	-9.28617
▁ហ៊ុន	-9.28704
ank	-9.28711
▁គូ	-9.28807
ការធ្វើ	-9.28835
▁គ្រប់	-9.28857
ប្រាំ	-9.28881
▁យើងមាន	-9.28907
ll	-9.28969
ស្តង់ដារ	-9.29058
ware	-9.29126
▁32	-9.29137
▁បន្ទះ	-9.29164
▁ថ្ងៃទី	-9.2919
ឡើងវិញ	-9.29281
▁បំផុត	-9.29294
វិនិយោគ	-9.29325
6"	-9.2937
▁We	-9.29385
tro	-9.29416
ster	-9.29472
▁Do	-9.29478
សកម្មភាព	-9.29501
AP	-9.29561
លែង	-9.29597
▁ABA	-9.29721
Hz	-9.29802
▁ផ្ទាល់	-9.29823
ស្នើ	-9.29848
▁ខែកញ្ញា	-9.29851
ឧស្ម័ន	-9.29966
▁កែ	-9.29967
រាជធានីភ្នំពេញ	-9.29968
ស្លាប់	-9.29971
work	-9.29971
រាយ	-9.30042
ន័យ	-9.30082
ញ្ញ	-9.30119
2.0	-9.30154
ស្រឡាញ់	-9.30197
១៥	-9.30204
ប្រអប់	-9.30206
ron	-9.30206
SE	-9.3028
ស្បែក	-9.30324
CH	-9.30337
▁បន្ទាប់ពី	-9.30365
▁អាមេរិក	-9.30371
ច្រើនជាង	-9.30403
▁Ja	-9.30419
▁80	-9.30458
ថេរ	-9.30549
▁១០	-9.30579
ich	-9.30605
ផ្ទាល់	-9.30655
way	-9.30668
បរិស្ថាន	-9.30783
uk	-9.30901
3.5	-9.30919
app	-9.30945
ស្រុក	-9.31047
រន្ធ	-9.31077
ធម្មជាតិ	-9.31127
▁Phnom	-9.31127
▁ពីរ	-9.31132
អេក្រង់	-9.31209
ក្រៅ	-9.31238
ងាយ	-9.3128
▁បច្ចេកវិទ្យា	-9.31316
ted	-9.31326
▁គ្រឿង	-9.31328
បន្ទះ	-9.31358
ចាំបាច់	-9.31362
អាចរកបាន	-9.31364
▁វិច្ឆិកា	-9.31368
បន្ទាន់	-9.31395
សង្ខេប	-9.31478
hen	-9.31525
០០០	-9.31623
▁j	-9.31637
▁សុ	-9.31639
▁ផ្សេងៗ	-9.31659
▁ដែលជា	-9.31686
នៅថ្ងៃទី	-9.31705
▁កាបូប	-9.3172
ភ្នំពេញប៉ុស្តិ៍	-9.31728
qu	-9.31763
kg	-9.31781
5"	-9.31808
▁រាល់	-9.31855
ish	-9.31894
0.5	-9.31946
ធម្មនុញ្ញ	-9.31948
-0	-9.31956
ទម្ងន់	-9.32065
▁Konqueror	-9.32065
រុស្ស៊ី	-9.32066
eb	-9.32071
hy	-9.322
អង្គការ	-9.32256
XL	-9.32368
fer	-9.32388
មុនពេល	-9.32419
សៀវភៅ	-9.32463
▁are	-9.32494
អាចត្រូវបាន	-9.3256
សុខ	-9.32563
pr	-9.32612
មូល	-9.32619
▁ដៃ	-9.32631
អាយ	-9.32686
រូ	-9.32698
បរទេស	-9.32775
▁មេសា	-9.32846
▁ខៀវ	-9.32859
▁Wed	-9.32878
មូលនិធិ	-9.33013
▁ថ្នាក់	-9.3305
▁Vi	-9.33056
ជួសជុល	-9.33132
ail	-9.33253
▁ម៉ូឌុល	-9.33408
PA	-9.33411
ខ្លះ	-9.33511
▁ប្រកាស	-9.33532
ចុះ	-9.33585
▁សំបុត្រ	-9.33603
ការប្រើប្រាស់	-9.33645
ja	-9.33658
den	-9.33679
ចេញផ្សាយ	-9.33717
▁រន្ធ	-9.33749
▁New	-9.33766
ទាន	-9.33878
គ្រឿង	-9.33943
ជាការ	-9.33949
ួល	-9.33966
ES	-9.3401
▁ខែមិថុនា	-9.34089
ខ្លី	-9.34095
១៦	-9.34187
▁ទាញ	-9.34193
lay	-9.34297
កាមេរ៉ា	-9.3433
ដំណាក់កាល	-9.34692
▁not	-9.34701
▁USD	-9.34729
ហ្គោ	-9.34767
ខាងក្រៅ	-9.34802
-6	-9.34828
ទទួលយក	-9.34854
បង្វិល	-9.34945
ical	-9.34971
▁សម	-9.34993
ៀង	-9.35025
ជ្	-9.35076
បួន	-9.35178
ត្រឹមត្រូវ	-9.35182
cam	-9.35198
នាំ	-9.35239
ដៃគូ	-9.35296
▁district	-9.35421
កាសែត	-9.35421
▁ចម្លង	-9.35519
ran	-9.35569
យប់	-9.35612
ពាក់	-9.35634
▁ថាស	-9.35676
▁ភ្នំពេញ	-9.35725
វិល	-9.35761
lat	-9.35786
ឥតខ្សែ	-9.35818
lin	-9.3589
ខាងក្នុង	-9.35975
▁'%	-9.36029
ហេតុ	-9.36052
នឹងត្រូវបាន	-9.36135
▁បណ្តាញ	-9.36193
dia	-9.36204
បុ	-9.36308
ដប	-9.36323
ក្លាយជា	-9.36353
hat	-9.36358
▁វិញ្ញាបនបត្រ	-9.36365
ave	-9.36383
▁ឥឡូវ	-9.36392
១៧	-9.36442
យោង	-9.36476
ហ្គ	-9.36478
ទារក	-9.36479
តិច	-9.36495
មហាវិទ្យាល័យ	-9.36651
▁Qu	-9.36683
las	-9.36693
ស៊ូ	-9.36694
ប្លុក	-9.36703
ទ្វារ	-9.36771
វ៉	-9.36796
▁ខែធ្នូ	-9.36851
វិញ្ញាបនប័ត្រ	-9.36894
▁Download	-9.36894
ទទេ	-9.37003
បន្ថែមទៀត	-9.37048
ទុក	-9.37125
IC	-9.37143
ny	-9.37328
▁សន្លឹក	-9.37331
ON	-9.37364
▁ក្រហម	-9.3747
ឹក	-9.3754
្រ	-9.37541
បង្កើន	-9.3759
▁Da	-9.37632
▁	-9.37753
▁ISO	-9.37775
ទុយ	-9.37838
លើកទី	-9.37864
ការព្យាបាល	-9.37873
មហា	-9.37888
tu	-9.37924
▁ទៅកាន់	-9.37958
រូបថត	-9.37977
PS	-9.38098
រស់	-9.3818
ការដឹកជញ្ជូន	-9.38182
PP	-9.38191
ស៊េរី	-9.38238
ខេត្ត	-9.38247
▁ធំ	-9.38598
ចេញពី	-9.38605
book	-9.38624
▁ចាប់ផ្តើម	-9.38665
▁ក្រសួង	-9.38847
ចុង	-9.38849
ari	-9.38849
ប៊ិច	-9.38918
▁បរាជ័យ	-9.38958
▁Online	-9.3902
រាវ	-9.3907
ប្រឆាំងនឹង	-9.39124
ence	-9.39132
ក្ខ	-9.39144
បកប្រែ	-9.39146
▁ខ្ញុំជា	-9.39183
ast	-9.39203
ប្រយោជន៍	-9.39272
▁តារាង	-9.39307
ire	-9.3931
ផ្តល់ជូន	-9.39411
▁Ko	-9.39491
300	-9.39551
លទ្ធផល	-9.3963
ឡើយ	-9.39655
ize	-9.39716
ជ្រ	-9.3979
▁Vol	-9.39798
atch	-9.39923
▁250	-9.39939
▁អង្គការ	-9.40021
▁ជួលឡាន	-9.40044
qui	-9.40054
១២	-9.40073
ទស្សនា	-9.40101
ated	-9.40197
ប្រឆាំង	-9.4023
ផា	-9.4039
▁ចុងក្រោយ	-9.40412
ពិភាក្សា	-9.40419
ន្ដ	-9.4042
“	-9.40433
▁ផ្ទៃតុ	-9.40437
ling	-9.40492
é	-9.40547
ពិតប្រាកដ	-9.40547
នៅពេល	-9.40575
ដោយមាន	-9.40727
គោលដៅ	-9.40804
▁label	-9.40804
អ្នកនឹង	-9.40887
ដែលជា	-9.40906
ព្យាបាល	-9.4095
ty	-9.40967
▁តូច	-9.40973
ែរ	-9.40992
▁គិត	-9.41075
▁០	-9.41194
ពានរង្វាន់	-9.41195
សំបុត្រ	-9.41198
ert	-9.41215
មើលឃើញ	-9.41247
ផ្ដល់	-9.41258
▁HVC	-9.41321
ous	-9.4136
▁ផ	-9.41367
nn	-9.41518
ត្រូវបានប្រើ	-9.41549
OR	-9.41589
▁ប្រវែង	-9.41603
her	-9.41679
ព្រះអម្ចាស់	-9.41709
រាង	-9.41776
-10	-9.41852
cur	-9.41859
▁Play	-9.4189
រេ	-9.41947
▁Tue	-9.42034
eg	-9.42061
▁កាត់	-9.42077
ros	-9.42086
▁your	-9.42264
2017	-9.42279
▁"%	-9.4228
▁Ta	-9.42311
តម្រូវ	-9.42342
ចំណ	-9.42396
▁រឿង	-9.42436
មិនបាន	-9.42566
ច្រើនទៀត	-9.42567
▁តំណាង	-9.42598
មកដល់	-9.42611
គម្រប	-9.42622
្យ	-9.42624
ខុស	-9.42724
ប្រមូល	-9.4279
red	-9.42833
tin	-9.42856
កូរ៉េ	-9.42896
ហេតុផល	-9.42916
ន្ត	-9.42983
គួរ	-9.42985
ថ្នាក់	-9.43121
គ្រួសារ	-9.43124
list	-9.43133
▁កក្កដា	-9.43146
តាមដាន	-9.43149
ven	-9.43187
low	-9.43302
រួច	-9.43302
▁Su	-9.43343
ភ្នាក់ងារ	-9.4341
▁TRANSLATORS	-9.4341
▁វត្ថុ	-9.43445
SI	-9.43466
lot	-9.43496
ជំនួស	-9.43502
▁·	-9.43513
រត់	-9.43525
បាត	-9.43568
cal	-9.43589
key	-9.43596
ទេ។	-9.43604
▁ច្បាប់	-9.43607
▁កណ្ដុរ	-9.43726
%9	-9.43784
បំណង	-9.43787
▁Vessoft	-9.43807
ផ្សិត	-9.43808
សាលា	-9.43913
Color	-9.44003
▁ថ្លៃ	-9.44004
▁ប្រសិនបើអ្នក	-9.44008
▁តើអ្នក	-9.44042
កណ្តាល	-9.44063
រចនា	-9.44156
▁អឺរ៉ូ	-9.442
▁៧	-9.44237
អភិវឌ្ឍ	-9.44287
▁ទូទៅ	-9.44297
សេរ៉ាមិច	-9.44339
រចនាសម្ព័ន្ធ	-9.44339
▁condition	-9.44344
កម្រាស់	-9.44345
ប្រទេសកម្ពុជា	-9.44377
TM	-9.44378
ស្រាវជ្រាវ	-9.44492
អត្ថបទ	-9.44526
វេទិកា	-9.44687
In	-9.44708
ren	-9.44775
▁di	-9.44798
▁Apple	-9.44825
EX	-9.45011
▁ប្រាក់រង្វាន់	-9.45047
ការណ៍	-9.451
ប្រឹក្សាភិបាល	-9.45141
RE	-9.45173
ដោះ	-9.45295
ផ្តល់នូវ	-9.45334
EL	-9.45336
កញ្ចប់	-9.45376
NAME	-9.45429
អ៊ីនធឺណិត	-9.45545
ខ្មែរ	-9.45644
TE	-9.45768
EC	-9.45795
▁Ga	-9.45804
2016	-9.45813
វាយតម្លៃ	-9.45888
▁ទស្សនា	-9.459
សំណួរ	-9.4592
▁សូ	-9.45952
cc	-9.45987
▁sa	-9.46046
គីមី	-9.46048
▁លេខកូដ	-9.4618
ហ្វេសប៊ុក	-9.46222
គោលបំណង	-9.46242
អប់រំ	-9.46253
▁DN	-9.46262
ពាន់	-9.4635
▁ដោយឥតគិតថ្លៃ	-9.46395
car	-9.46472
▁ការការពារ	-9.46474
TV	-9.46526
▁ការកំណត់	-9.46601
▁កុំ	-9.46663
▁El	-9.46674
យ៉	-9.46747
ច្បាស់	-9.46766
វាយ	-9.46845
ចូលទៅក្នុង	-9.46886
▁ពួកគេ	-9.46889
ស៊ុ	-9.46996
gg	-9.47031
tri	-9.47103
ara	-9.47154
▁កុម្ភៈ	-9.47177
▁ចូលរួម	-9.47185
ផ្អាក	-9.47188
▁He	-9.47271
គ្របដណ្តប់	-9.47314
▁Facebook	-9.47314
▁—	-9.47476
rop	-9.47487
ៀម	-9.47497
PC	-9.47504
ខ្ល	-9.47582
និស្សិត	-9.47589
rd	-9.47594
ជំ	-9.4762
យល់	-9.47686
▁រយៈ	-9.47701
ប្រសិទ្ធភាព	-9.47729
▁0.0	-9.47734
RA	-9.47799
tur	-9.47821
▁ចំ	-9.47824
ពិធី	-9.47863
មជ្ឈមណ្ឌល	-9.47911
ax	-9.47976
▁Che	-9.47989
ដុល្លារ	-9.4808
សុទ្ធ	-9.48135
}	-9.4814
កៅស៊ូ	-9.48141
ចំណាយ	-9.48141
type	-9.48206
បណ្តា	-9.48218
លោកអ្នក	-9.48222
ដាច់	-9.48279
▁Ultrasonic	-9.48279
ចម្បង	-9.4829
▁Ne	-9.48332
សណ្ឋាគារ	-9.48429
ខាងលើ	-9.48452
▁ស៊ីឌី	-9.485
▁នាង	-9.48518
បង្ក	-9.48576
ដឹងថា	-9.48587
តែមួយ	-9.48649
អង្កត់ផ្ចិត	-9.48696
ste	-9.48734
វេចខ្ចប់	-9.48785
air	-9.4881
អំពើ	-9.48835
រួមទាំង	-9.48842
▁En	-9.48894
កម្ពស់	-9.48951
▁បៃតង	-9.48958
បរិមាណ	-9.48975
▁សំ	-9.48976
▁អត្រា	-9.4898
▁ច្រក	-9.4901
▁ផ្ទេរ	-9.49023
បណ្ឌិត	-9.491
1.0	-9.49128
ទ្រី	-9.49362
ប្រធានបទ	-9.49426
ស្ថាន	-9.49475
ធ្	-9.49493
មិត្ត	-9.49528
េះ	-9.49567
phone	-9.49605
ជួរ	-9.49614
uc	-9.49656
-12	-9.49668
ខេ	-9.49671
អំពូល	-9.49675
▁Canada	-9.49675
ជីវ	-9.49684
▁70	-9.49691
▁Jun	-9.49794
អាវ	-9.49832
សេរី	-9.49839
ផ្ញើ	-9.49881
ក្បឿង	-9.49956
សាសនាចក្រ	-9.49957
វគ្គសិក្សា	-9.49967
ប្រធាន	-9.49987
AM	-9.49989
▁មាតិកា	-9.50001
get	-9.50027
comments	-9.50047
យ៉ាងខ្លាំង	-9.50096
ឱកាស	-9.50097
KH	-9.50278
លក្ខណៈពិសេស	-9.50289
▁Galaxy	-9.5038
វ៉ុល	-9.50394
ress	-9.50398
ទ្	-9.50478
ធុង	-9.50495
▁ទម្រង់	-9.50506
កំណែ	-9.50513
▁EA	-9.50556
ួន	-9.50571
ជ័រ	-9.50624
ឱសថ	-9.50664
អិល	-9.50669
អស់	-9.50671
នូ	-9.50859
លេ	-9.50928
កែប្រែ	-9.50934
▁បន្ទាប់មក	-9.51013
បង្កើតឡើង	-9.51022
ព្រឹត្តិការណ៍	-9.51137
-8	-9.51209
tt	-9.51322
pan	-9.51489
▁ស្ថានភាព	-9.51566
ana	-9.51606
▁៩	-9.51633
មួយដែល	-9.51634
អ្នកជំនាញ	-9.51635
ene	-9.51663
▁ជាន់	-9.5167
▁ការប្រើប្រាស់	-9.51709
មិនមាន	-9.5173
▁ខែកក្កដា	-9.51806
▁ស្វ័យ	-9.51807
គម	-9.5185
£	-9.51907
ខ្ទ	-9.51938
▁លក្ខខណ្ឌ	-9.52016
top	-9.52019
eu	-9.52101
▁120	-9.52117
គោ	-9.52136
▁English	-9.52238
▁You	-9.52245
នេះគឺជា	-9.52334
រួមបញ្ចូល	-9.52357
ចាប់តាំងពី	-9.52382
0.00	-9.52468
ប៉ុន្តែ	-9.5254
za	-9.52672
▁សកម្ម	-9.52699
អំណោយ	-9.52816
▁iOS	-9.52835
មម	-9.5284
ទំ	-9.52876
យ៉ូ	-9.52992
ប្រាប់	-9.53017
fish	-9.53062
កែ	-9.53068
ពីការ	-9.5308
ភ្នែក	-9.53104
ប្ប	-9.53139
សំឡេង	-9.53162
រួមមាន	-9.53177
នាង	-9.532
ផ្សេងគ្នា	-9.53211
▁ក្នុងរយៈពេល	-9.533
បាត់បង់	-9.53303
="6	-9.53367
នីមួយៗ	-9.53398
▁ដែក	-9.53445
nu	-9.5351
▁Ac	-9.53525
pro	-9.53526
ទូទាត់	-9.53532
▁→	-9.53632
ត្ត	-9.53688
▁លេខកូដយោង	-9.537
កេ	-9.53703
4.0	-9.53773
▁06	-9.53798
សិក្ខាសាលា	-9.53836
អញ្ជើញ	-9.53836
សាមញ្ញ	-9.53836
ធ្លាក់ចុះ	-9.53842
new	-9.5401
១៨	-9.54117
ក្រោម	-9.54169
សភា	-9.5424
ool	-9.54328
row	-9.54361
TP	-9.54401
▁Archives	-9.54424
ផែនការ	-9.54426
▁Dr	-9.54467
អប្បបរមា	-9.54572
បច្ចុប្បន្ន	-9.54581
សព្វ	-9.54719
ring	-9.54762
▁can	-9.54778
file	-9.5482
▁មុខ	-9.54827
▁បា	-9.54854
បញ្ចុះតម្លៃ	-9.54874
▁ពាណិជ្ជកម្ម	-9.54935
ម្សៅ	-9.54988
ពិព័រណ៍	-9.55015
រង់ចាំ	-9.55015
NE	-9.5506
តុបតែង	-9.55164
▁ដែន	-9.55178
▁ក្រៅ	-9.55271
ម្យ៉ាងវិញទៀត	-9.55312
ចាន	-9.55341
ការអភិវឌ្ឍ	-9.55405
នេះបាន	-9.55459
បង	-9.55466
ឈរ	-9.55476
▁តាមរយៈ	-9.55506
ជើងហោះហើរ	-9.55507
គំនិត	-9.55512
ពូ	-9.55561
ស្វាយ	-9.55604
CT	-9.55636
▁this	-9.55661
ត្រង់	-9.55705
ឃ្លាំង	-9.55759
ព្រលានយន្តហោះ	-9.55759
▁ពុម្ពអក្សរ	-9.55778
/#	-9.55965
▁Cam	-9.56111
2015	-9.56192
ern	-9.56212
▁that	-9.56268
ond	-9.5627
ការត្រួតពិនិត្យ	-9.56275
ប្រុស	-9.56299
ប្រសិនបើ	-9.56318
ការរចនា	-9.56322
▁PTFE	-9.56359
▁blockchain	-9.56408
▁Fri	-9.56421
ទៅជា	-9.56434
សីតុណ្ហភាព	-9.56498
ទិន្នផល	-9.56509
ris	-9.56515
ការទូទាត់	-9.56521
▁ហាង	-9.56523
unt	-9.56546
▁ឧ	-9.56589
ស្រស់ស្អាត	-9.56665
ដំឡើង	-9.56677
គួរតែ	-9.5669
▁បាននិយាយថា	-9.56695
less	-9.56704
ម៉ាស៊ីនភ្លើង	-9.56734
កសាង	-9.56747
▁Gu	-9.56766
chi	-9.56773
ជិះ	-9.56797
ley	-9.5688
កុង	-9.56918
ចំណាត់ថ្នាក់	-9.56962
សម្លៀកបំពាក់	-9.56962
ទម្រង់	-9.56978
▁ឥឡូវនេះ	-9.57006
ជាផ្លូវការ	-9.5703
វីស	-9.57042
ពួក	-9.57119
▁Plus	-9.57181
ភាគច្រើន	-9.57216
សុំ	-9.57241
រូបិយប័ណ្ណ	-9.57264
▁2009	-9.57264
▁Technology	-9.57264
ភ្ល	-9.57285
ជនជាតិ	-9.57341
អនុញ្ញាតឱ្យ	-9.57566
ផ្គូផ្គង	-9.57568
play	-9.57577
▁ជ	-9.57584
▁ប៉ុណ្ណោះ	-9.57695
ចូលចិត្ត	-9.57702
▁[...]	-9.57721
news	-9.5778
▁14:	-9.57812
រាងកាយ	-9.57818
ull	-9.57947
CO	-9.58009
១៤	-9.58011
▁ខណៈ	-9.58015
▁丨	-9.58059
oll	-9.58104
ano	-9.58217
aw	-9.58296
▁គុណភាព	-9.58406
ដែលមានគុណភាព	-9.58419
content	-9.58485
▁ជួយ	-9.5854
សាន	-9.5858
ome	-9.58611
ែត	-9.58647
▁220	-9.58652
ស្រោម	-9.58674
▁អាវ	-9.58741
ME	-9.58787
ខាងត្បូង	-9.58837
លំដាប់	-9.58852
4.7	-9.58894
par	-9.58919
ែម	-9.58919
ស្អាត	-9.58943
1.1	-9.58954
har	-9.58956
can	-9.58969
400	-9.59151
កាន់តែ	-9.59166
តារា	-9.59227
សមរម្យ	-9.59255
ស្រាល	-9.59293
▁សូចនាករ	-9.59341
▁Sch	-9.59373
ការផ្លាស់ប្តូរ	-9.59392
វិទ្យាសាស្រ្ត	-9.59393
ការធ្វើតេស្ត	-9.5941
ET	-9.59423
▁AC	-9.59444
©	-9.59448
▁ចំណង	-9.59622
រោងចក្រផលិត	-9.59689
វិទ្យុ	-9.5972
▁មីនា	-9.59887
ឡេ	-9.59978
អត្តសញ្ញាណ	-9.60188
គឺមាន	-9.60238
ព្រៃ	-9.60272
▁អូ	-9.60314
▁គោលការណ៍	-9.60387
អ្នកផ្គត់ផ្គង់	-9.60438
ពត៌មាន	-9.605
mAh	-9.60505
ហូ	-9.60586
ten	-9.60593
▁សំរាប់	-9.60611
ake	-9.60617
ID	-9.60628
▁Char	-9.60651
ស្រា	-9.60719
▁រចនាប័ទ្ម	-9.6075
ព្យ	-9.60775
ទេស	-9.60775
▁45	-9.60836
▁ក្រាហ្វិក	-9.60894
▁so	-9.60965
ខ្នាតតូច	-9.60978
€	-9.61005
ការិយាល័យ	-9.61057
▁(20	-9.61104
ខោ	-9.61123
▁និពន្ធ	-9.61131
text	-9.61144
att	-9.61172
ជុំ	-9.61279
យើងខ្ញុំ	-9.61288
▁ម។	-9.6129
II	-9.6133
នាទី	-9.61352
▁ប្ល	-9.61369
ther	-9.61396
▁Shenzhen	-9.61444
set	-9.61479
▁ហេតុ	-9.61517
គ្រាប់	-9.61554
ពង្រីក	-9.6158
គ្រឿងបន្លាស់	-9.61603
សួន	-9.61717
▁Bill	-9.61777
ឈប់	-9.61798
▁PCB	-9.61865
បង្ហាប់	-9.6192
bar	-9.61991
ធ្វើដំណើរ	-9.62015
កាបូប	-9.62069
▁លក្ខណៈពិសេស	-9.62085
ដោយផ្ទាល់	-9.62089
សែន	-9.62107
▁ហ្គេម	-9.62149
▁Un	-9.62249
▁ហៅ	-9.6225
ប៉ះ	-9.62283
បញ្ឈប់	-9.62401
បញ្ចេញ	-9.62408
▁1'	-9.62408
នាយកដ្ឋាន	-9.62423
សហរដ្ឋអាមេរិក	-9.62457
ik	-9.62493
អ៊ីតាលី	-9.62558
ព្រោះ	-9.62603
▁Ph	-9.62616
លីន	-9.62645
អង្	-9.62652
▁ភ្ញៀវ	-9.62652
ign	-9.62652
▁color	-9.62678
▁សាកល្បង	-9.62757
MT	-9.62776
PE	-9.6298
រូបរាង	-9.62996
បានបង្កើតឡើង	-9.6303
ឆ្នេរ	-9.63038
▁Property	-9.63038
uck	-9.6306
oid	-9.63065
សាក់	-9.63067
▁Cl	-9.63153
▁ឧស្សាហកម្ម	-9.63165
▁ត្រឡប់	-9.63251
2.1	-9.63377
ហ្សា	-9.63406
ភេទ	-9.63455
▁Win	-9.63503
ចំណុច	-9.63524
▁2000	-9.63614
uri	-9.63648
តារាង	-9.63677
ផ្កាឈូក	-9.63683
▁សម្គាល់	-9.63917
sch	-9.6395
▁ឆ្វេង	-9.64007
បានទទួល	-9.64164
អាជ្ញាប័ណ្ណ	-9.64169
▁បែតា	-9.64169
រាយការណ៍	-9.6418
fa	-9.64185
ការគ្រប់គ្រង	-9.64188
▁option	-9.64208
ML	-9.64257
light	-9.6427
នៅតែ	-9.64296
HO	-9.64306
lic	-9.64317
អ៊ីន	-9.6433
4.5	-9.64365
▁មិនមាន	-9.64408
២៥	-9.64474
លៃតម្រូវ	-9.64496
ដំណើរ	-9.64506
heng	-9.64563
សាងសង់	-9.64658
▁តួអក្សរ	-9.6467
រលាយ	-9.64697
▁ការគាំទ្រ	-9.64743
▁សំណុំ	-9.64811
មិនមែនជា	-9.64893
jo	-9.64913
ជជែក	-9.64985
▁pre	-9.65037
ថែទាំ	-9.65132
IP	-9.65269
ខាងជើង	-9.6529
ការលក់	-9.65438
▁HTML	-9.65477
▁ប្រតិបត្តិ	-9.65487
LE	-9.65505
▁អូឌីយ៉ូ	-9.6553
▁75	-9.65603
នៅជិត	-9.65607
±	-9.65642
លំអិត	-9.65642
ចាប់ពី	-9.65666
▁វី	-9.657
នេះមាន	-9.65715
▁ស្គាល់	-9.65735
បញ្ជី	-9.65844
▁អគារ	-9.65916
យូរ	-9.6595
ឆ្លង	-9.65954
មតិ	-9.6596
TI	-9.65963
ខាងក្រោម	-9.66023
ning	-9.66039
រៀង	-9.66062
ផ្ទេរ	-9.66088
az	-9.66098
ics	-9.66113
web	-9.66114
ផលប៉ះពាល់	-9.66138
អង្គ	-9.66161
៣០	-9.6622
▁ជាតិសរសៃ	-9.66342
សម្រាប់អ្នក	-9.66343
នៅកម្ពុជា	-9.66344
យោបល់	-9.66346
ស្គាល់	-9.66389
និយាយថា	-9.66437
CI	-9.66461
កណ្ដាល	-9.6647
អគ្គ	-9.6647
ei	-9.66479
▁Bu	-9.66482
ធ្វើឡើង	-9.66488
time	-9.66496
▁Inc	-9.66742
ហៃ	-9.6676
សិន	-9.6678
MC	-9.66794
▁ភ្លៀង	-9.66804
ចង្	-9.66807
ark	-9.66872
ទាន់សម័យ	-9.66934
ទាមទារ	-9.6697
▁តំណ	-9.67005
▁86-	-9.67121
នានា	-9.6713
ani	-9.67194
មិនអាច	-9.67216
▁ដេរ	-9.67375
LC	-9.67392
ម៉ាស៊ីនបម្រើ	-9.67399
ប្រចាំឆ្នាំ	-9.67406
▁we	-9.67407
កោសិកា	-9.67472
ធ្លាក់	-9.67481
view	-9.67487
អរគុណ	-9.67574
យុវជន	-9.6764
zhou	-9.67652
ម៉ាស៊ីនបោះពុម្ព	-9.67662
▁ថ្នាំ	-9.67729
រស់នៅ	-9.67895
▁ព្រិល	-9.68001
រៀល	-9.6802
▁នាំចូល	-9.68022
ure	-9.68059
ple	-9.68064
nc	-9.68069
▁ដី	-9.68177
១០	-9.68247
GenericName	-9.68316
▁ខាងក្រោម	-9.68317
បរិ	-9.68339
▁Ri	-9.68439
ស្ថានីយ	-9.68463
ier	-9.68561
▁ទាន់	-9.6866
0%	-9.68753
▁Na	-9.68774
ក្មេង	-9.68801
ខណ្ឌ	-9.68904
សេចក្តី	-9.68917
Power	-9.69007
បើ	-9.69026
RI	-9.69028
▁ពេញ	-9.69051
1000	-9.69131
រុ	-9.6919
ប៊ូ	-9.69218
បានធ្វើ	-9.69314
0.0	-9.69321
សំលៀកបំពាក់	-9.69337
▁ស្រទាប់	-9.69374
នៅក្រោម	-9.69409
ជាអ្នក	-9.69425
ហាង	-9.69571
ដេក	-9.6962
▁រូបតំណាង	-9.69729
អនុញ្ញាត	-9.69817
transposh	-9.69851
អ៊ុយក្រែន	-9.69851
បទពិសោធន៍	-9.69918
▁គំនិត	-9.69965
▁ណ្តា	-9.70031
៥០	-9.70053
សម្លេង	-9.70063
ស្វាគមន៍	-9.70115
▁អ៊ីញ	-9.70188
បរិក្ខារ	-9.70193
▁Development	-9.70196
▁អគារស្នាក់នៅរូម	-9.70196
កិច្ចប្រជុំ	-9.7021
អំពីការ	-9.7029
OP	-9.70339
▁inlistbox	-9.70369
៨៥៥	-9.70369
▁400	-9.70427
LI	-9.7053
បារ	-9.70629
្រី	-9.70659
▁World	-9.70715
▁មតិយោបល់លើ	-9.70715
កក់	-9.70817
pc	-9.70842
លិខិត	-9.70887
▁ការផ្លាស់ប្តូរ	-9.71012
កម្មវិធីបញ្ជា	-9.71013
3.0	-9.71014
ក្នុងចំណោម	-9.71062
▁Thu	-9.71122
ក្រសួង	-9.71193
rain	-9.71316
win	-9.71371
а	-9.71411
▁សីតុណ្ហភាព	-9.71424
ជេ	-9.71445
▁(1)	-9.71447
ទ័រ	-9.71581
ស៊ីឡាំង	-9.71586
វត្ត	-9.7173
បេតុង	-9.71744
ចំណូល	-9.71761
គោលនយោបាយ	-9.71779
ចម្លង	-9.71784
លុប	-9.71816
នាវា	-9.71833
▁2008	-9.71857
▁នាំ	-9.71885
ម្ជុល	-9.71937
▁វេទិកា	-9.72006
ស្តា	-9.72047
1.5	-9.72089
2.7	-9.72176
▁34	-9.72241
ជ្រាបទឹក	-9.72309
អ៊ីម៉ែល	-9.72331
-30	-9.72347
0.3	-9.72367
▁ឡើងវិញ	-9.72428
▁ចន្លោះ	-9.72446
RC	-9.72447
ker	-9.72451
បណ្តុះបណ្តាល	-9.7246
BC	-9.72467
ឆ្លើយតប	-9.72482
▁សុវត្ថិភាព	-9.72492
ប្រកួត	-9.7252
uth	-9.7262
▁វាល	-9.72626
▁សាលា	-9.72634
▁Twitter	-9.72641
▁ម៉ូដែល	-9.72703
▁$1	-9.72775
over	-9.72798
▁translate	-9.72823
▁សោ	-9.72857
▁ការិយាល័យ	-9.72899
▁San	-9.72921
សាច់	-9.73077
ជុំវិញ	-9.73122
ជម្រះ	-9.73173
គាត់បាន	-9.73218
ស្តាប់	-9.73222
van	-9.73323
▁ៗ	-9.7333
Description	-9.73351
▁inmenu	-9.73351
▁និយមន័យ	-9.73352
ally	-9.73464
ចម្រៀង	-9.73484
តម្រង	-9.73507
\	-9.73518
ផ្ទៀងផ្ទាត់	-9.7353
ស្នាក់នៅ	-9.73542
▁USB	-9.73549
ze	-9.73688
▁Geeks	-9.73708
board	-9.73784
ប៉ូល	-9.73794
អាល់ប៊ុម	-9.73887
1.3	-9.73914
គ្រូ	-9.73962
999	-9.73984
▁បោះបង់	-9.74069
▁Photo	-9.74069
feed	-9.74257
EA	-9.74356
▁forecast	-9.74426
▁សង្កាត់	-9.74427
▁សិទ្ធ	-9.74506
សន្លឹក	-9.74511
zer	-9.74561
UN	-9.74577
សម្រេច	-9.74588
ទាំងពីរ	-9.74654
1.7	-9.74659
▁dis	-9.74735
▁ឥត	-9.7477
▁0.1	-9.74784
៌	-9.74786
សមាគម	-9.74786
បាល់	-9.74811
សំណើ	-9.74816
ney	-9.74952
ប្តូរ	-9.7496
▁Bonus	-9.74969
cha	-9.75023
ង្គ	-9.75095
អត្ថប្រយោជន៍	-9.75148
អចលនទ្រព្យ	-9.75148
▁Auto	-9.75215
▁គីឡូក្រាម	-9.75323
ក្លឹប	-9.7533
▁Open	-9.75332
ពាក់កណ្តាល	-9.75342
នាម	-9.75349
USD	-9.75369
▁Web	-9.75416
▁DC	-9.7548
▁បង្កើន	-9.75492
ួរ	-9.75504
ការធ្វើដំណើរ	-9.75511
ជំរុញ	-9.75515
សំណង់	-9.75517
ប្រហែល	-9.75518
បណ្ដាញ	-9.75543
ram	-9.75579
អ្នកប្រើ	-9.75584
▁មេកាបៃ	-9.75694
Material	-9.75694
មុំ	-9.75697
បៃតង	-9.75715
▁Pi	-9.7576
▁សហរដ្ឋអាមេរិក	-9.75809
▁And	-9.75865
▁វិទ្យាស្ថាន	-9.75996
▁Chamkarmon	-9.76059
ប្រមាណ	-9.76059
▁Oct	-9.76074
ហ្កា	-9.76083
▁ចែក	-9.76095
▁កាលពី	-9.76135
▁បម្លែង	-9.76171
val	-9.76179
ការគាំទ្រ	-9.76281
ឡាន	-9.7641
5.0	-9.76412
ស្ថាប័ន	-9.76426
ដ្រាយ	-9.76426
ដោយគ្មាន	-9.7643
ហ្គី	-9.76448
នឹងត្រូវ	-9.76499
▁IC	-9.76501
ាត់	-9.76612
និងផ្គត់ផ្គង់	-9.76631
▁គន្លឹះ	-9.76768
ការផ្តល់ជូន	-9.7682
▁ពង្រីក	-9.76821
AB	-9.76895
ប្រភព	-9.76934
ពិត	-9.76941
1.2	-9.76968
ica	-9.76976
rin	-9.76977
បុរាណ	-9.76978
TH	-9.77082
ត្រូវតែ	-9.77098
កាយ	-9.7719
▁Matt	-9.77214
3.1	-9.77224
ពួកគេបាន	-9.77268
រក្សា	-9.77271
150	-9.77315
ដោយសារតែ	-9.77377
▁ចាប់ពី	-9.77483
KW	-9.77524
បានបង្ហាញ	-9.77534
ស៍	-9.77559
▁Can	-9.77574
ចាប់អារម្មណ៍	-9.77575
ដើម្បីទទួលបាន	-9.77577
ries	-9.77589
រុំ	-9.77677
vis	-9.77701
province	-9.7772
ជឿ	-9.77742
២០០	-9.77766
▁មែន	-9.77856
mar	-9.77868
▁Lu	-9.77896
▁មិនមែន	-9.77941
ភ្ញៀវ	-9.77982
▁ដឹង	-9.78014
រាប	-9.78026
ការរៀបចំ	-9.78067
ម៉ូលេគុល	-9.78092
kw	-9.78094
បម្លែង	-9.78165
ស្នើសុំ	-9.78291
ដុត	-9.78291
ណាត់	-9.78316
▁បី	-9.78353
ទន្លេ	-9.78467
បដិសេធ	-9.78467
ហេតុអ្វីបានជា	-9.78473
ការសិក្សា	-9.78515
MI	-9.78661
▁ប្រហែល	-9.78666
▁ជំហាន	-9.78707
ED	-9.78801
▁ដែកអ៊ីណុក	-9.7889
សុពលភាព	-9.79031
២៤	-9.79053
mg	-9.79089
ម៉ែត្រ	-9.79149
NT	-9.79154
ចលនា	-9.79221
700	-9.79356
▁បានទេ	-9.79395
▁ស្គ្រីប	-9.79414
back	-9.79484
900	-9.79557
cryptocurrency	-9.79598
▁ប្រាស់	-9.79666
▁window	-9.79787
▁600	-9.79929
ទាំងមូល	-9.79947
▁Mini	-9.79994
ji	-9.79994
ស្ថានីយ៍	-9.80002
▁Go	-9.80046
ត៍	-9.8015
លឿង	-9.80168
ឆ្ងាយ	-9.80183
▁Key	-9.80187
SM	-9.80188
អត់	-9.80227
ការពិនិត្យ	-9.80343
លោហៈ	-9.80359
▁ពហុ	-9.80374
▁ដុល្លារអាមេរិក	-9.80391
ជួញដូរ	-9.804
▁ផង	-9.80453
កំណើត	-9.8055
▁ជីវិត	-9.80601
IL	-9.80658
Com	-9.80705
▁GPS	-9.80718
បទពិសោធ	-9.80727
▁Man	-9.80779
▁Phone	-9.80805
▁ឯកឧត្តម	-9.80813
សហការ	-9.80817
អតីត	-9.80933
▁Holmes	-9.80933
▁David	-9.80934
អ្នកនិពន្ធ	-9.80935
សម្អាត	-9.80938
ធានារ៉ាប់រង	-9.81126
កាបូន	-9.81126
កសិកម្ម	-9.81129
ផ្ទាំង	-9.8115
ini	-9.81159
▁hack	-9.81161
ពូជ	-9.81168
ជ័យ	-9.81176
▁តួ	-9.81231
រ៉េ	-9.81266
ម្តង	-9.81305
tive	-9.81307
ប្រៀបធៀប	-9.81318
▁ប្តូរ	-9.81395
រ៉ុ	-9.81418
▁វិភាគ	-9.81429
▁5000	-9.81444
▁សណ្ឋាគារ	-9.81496
▁ស្ដាំ	-9.81517
250	-9.81526
ដែរ	-9.81567
▁Cr	-9.81669
បុណ្យ	-9.81697
កាំរស្មី	-9.81705
ប្រផេះ	-9.81705
lor	-9.81714
▁សូមអរគុណ	-9.81784
lock	-9.81795
នៅទីក្រុង	-9.81808
តង់	-9.81933
ដែលយើង	-9.81959
▁ប្រើប្រាស់	-9.82016
ode	-9.82047
អេឡិចត្រូនិច	-9.82053
ola	-9.82091
ទោស	-9.82098
let	-9.82105
▁អភិវឌ្ឍន៍	-9.82108
rate	-9.82116
▁UP	-9.822
ការបង្កើត	-9.82232
ចាត់	-9.82238
▁button	-9.82289
▁វេលា	-9.82292
ដំណ	-9.82331
បានដាក់	-9.82416
ប្រតិបត្តិ	-9.82433
ឆបគ្នា	-9.82483
ប្រជុំ	-9.82596
រិយា	-9.82648
fu	-9.82655
Video	-9.82688
សម្រាក	-9.82755
ise	-9.82827
ផ្ទះល្វែង	-9.82873
rid	-9.82894
បឹង	-9.82945
▁ឈ្មោះអ្នក	-9.82952
▁លំដាប់	-9.82994
អនុម័ត	-9.8307
សមាសភាគ	-9.8307
▁Gr	-9.83073
របស់អ្នក។	-9.83134
ដូចខាងក្រោម	-9.8314
កើនឡើង	-9.83167
▁ឈុត	-9.83228
High	-9.83249
លាង	-9.83268
ភ្នាល់	-9.83288
គ្រោះ	-9.83292
ស្រទាប់	-9.8342
▁ចម្ងាយ	-9.83465
mark	-9.83496
វិធីសាស្រ្ត	-9.83501
មកកាន់	-9.83502
សូមមើល	-9.83538
▁ធុង	-9.83601
រាល់	-9.83608
ជារៀងរាល់	-9.83626
MO	-9.83639
ឆានែល	-9.8366
▁LTD	-9.83663
▁លើក	-9.83706
FA	-9.83713
▁រោងចក្រផលិត	-9.83757
ផ្តល់ជូននូវ	-9.83786
បន្ទប់	-9.83796
ហេ	-9.83844
▁ណាមួយ	-9.84045
ដំបូល	-9.84056
គណនា	-9.84056
▁Group	-9.84056
ham	-9.84061
lon	-9.84066
មេរោគ	-9.84086
cent	-9.84089
ប៉ុ	-9.84126
▁{	-9.84156
▁ស្វ័យប្រវត្តិ	-9.84177
Plus	-9.84178
▁រក្សាសិទ្ធ	-9.84245
បណ្ណាល័យ	-9.84254
នេ	-9.84271
8.1	-9.84301
IM	-9.84342
2014	-9.84391
ade	-9.84429
រក្សាទុក	-9.84437
gal	-9.84453
▁Gra	-9.8447
▁Ni	-9.84488
ទៀងទាត់	-9.84652
▁អេស៊ីលីដា	-9.84652
Time	-9.84656
ឆា	-9.84658
▁ម៉ែ	-9.84659
ណិត	-9.84684
×	-9.84696
▁App	-9.84727
OM	-9.8475
bra	-9.85044
ពាក់ព័ន្ធ	-9.85052
សន្តិសុខ	-9.85052
▁ស៊ុម	-9.85103
▁Sha	-9.85226
ខែឧសភា	-9.85252
TO	-9.85308
តឹង	-9.854
-19	-9.85447
ផ្តោត	-9.85453
ព្រះយេស៊ូ	-9.85453
ស្ងួត	-9.85453
▁state	-9.85523
បានបញ្ចប់	-9.85542
ound	-9.85568
▁Jul	-9.85652
▁HTTPS	-9.85714
▁China	-9.85731
tan	-9.8576
ស្រស់	-9.85792
សង្	-9.85795
by	-9.85855
IF	-9.85912
sha	-9.85958
eck	-9.85986
ux	-9.86005
ឆ្លងកាត់	-9.8608
ើរ	-9.8609
ខូ	-9.86102
▁រូបថតសម្រាប់	-9.86139
▁Union	-9.86169
ត្រូ	-9.86173
-11	-9.86187
IA	-9.86226
ចុះហត្ថលេខា	-9.8626
មន្ត្រី	-9.8626
▁iPad	-9.8626
zo	-9.86262
lip	-9.86266
ដប់	-9.8632
ក្នុងឆ្នាំ	-9.86362
នៅក្នុងប្រទេស	-9.8639
gl	-9.86401
▁Doorknob	-9.86463
រ៉ែ	-9.86503
បន្ថយ	-9.8653
បម្រើ	-9.86531
វាល	-9.86619
ព័	-9.86659
ទស្សនៈ	-9.86666
="10	-9.8673
លោ	-9.86771
▁HP	-9.86786
ភីកសែល	-9.8687
®	-9.8687
កាណាដា	-9.86871
shi	-9.86873
▁Siem	-9.86873
show	-9.86965
160	-9.87015
ប៉ូ	-9.87025
តួ	-9.87046
សំណាញ់	-9.87074
▁ការពិពណ៌នា	-9.87074
▁Sun	-9.87095
▁1.5	-9.87133
ស្តី	-9.87159
▁Oxford	-9.87279
0.8	-9.87379
ture	-9.87388
600	-9.8746
▁ម្ដង	-9.87489
ស័	-9.87495
ត្ដ	-9.87532
ពិនិត្យមើល	-9.8754
ray	-9.87547
ហ្គេម	-9.87566
ដឹក	-9.87597
នំ	-9.87643
▁qu	-9.87652
ភ្	-9.87752
▁Min	-9.87866
ចម្លើយ	-9.87895
នោះទេ	-9.87896
វត្ថុ	-9.88045
▁status	-9.88101
▁Top	-9.88104
ក្រឡា	-9.88105
▁09:	-9.88165
ស្បែកជើង	-9.88284
ü	-9.88307
▁Ctrl	-9.88308
ump	-9.88342
ត្រៀម	-9.88344
▁Mu	-9.88412
ធ្លាប់	-9.88514
លំហូរ	-9.88514
▁Jet	-9.88523
ថង់	-9.88534
hr	-9.8862
mat	-9.8873
FS	-9.88819
ជំនួសថ្ម	-9.88834
អេស្ប៉ាញ	-9.8893
ទឹកប្រាក់	-9.88981
part	-9.88981
ម្ភ	-9.89017
▁Or	-9.8925
0.1	-9.89385
hang	-9.89389
ឆ្មា	-9.89404
ខៀវ	-9.89409
សាច់ប្រាក់	-9.89436
ការវិនិយោគ	-9.89466
ដំណឹងល្អ	-9.89528
The	-9.89542
បំណែក	-9.89556
វៀតណាម	-9.89556
▁str	-9.89563
▁អ្នកប្រើ	-9.89619
cor	-9.8963
សូចនាករ	-9.89649
សែល	-9.89705
▁Pay	-9.89716
evel	-9.89732
គំនូរ	-9.89766
▁from	-9.89811
រហូតដល់ទៅ	-9.89821
1.6	-9.89847
▁Er	-9.89922
ជិះកង់	-9.89995
វគ្គ	-9.90165
BO	-9.90289
tech	-9.90325
ប្រវត្តិសាស្រ្ត	-9.90418
ម៉ូទ័រ	-9.90422
ild	-9.90474
ble	-9.90599
Manufacturer	-9.90609
▁Port	-9.90637
men	-9.90654
ខ្សែភាពយន្ត	-9.90662
សាកថ្ម	-9.90701
បន្ទប់ទឹក	-9.90739
ម៉ាស៊ីនកាត់	-9.90751
ឥទ្ធិពល	-9.90821
ជំនឿកាតូលិក	-9.90821
MM	-9.90882
▁Je	-9.90893
សប្បាយ	-9.91022
ល្អឥតខ្ចោះ	-9.91039
ដែលមិន	-9.91089
បន្តិច	-9.91092
tric	-9.91168
កិច្ចសហប្រតិបត្ត	-9.91207
▁នេះជា	-9.91226
page	-9.91333
សូមស្វាគមន៍	-9.91428
គ្រោង	-9.91459
និម្មិត	-9.91469
បំពាក់	-9.91481
≤	-9.91673
ដំណើរទស្សនកិច្ច	-9.9171
ប្រឡង	-9.91728
អគារ	-9.91745
នាំមុខ	-9.91756
FC	-9.91864
ចង្កៀង	-9.91887
▁Copyshop	-9.91887
ថ្ងៃសុក្រ	-9.91887
បោះឆ្នោត	-9.919
ល្បឿនលឿន	-9.91947
php	-9.91993
ការអនុវត្ត	-9.91998
នៅឆ្នាំ	-9.92032
ម្ល	-9.92112
ម៉េ	-9.9229
▁McKnight	-9.92316
អាកាសធាតុ	-9.92341
ata	-9.92399
CL	-9.9242
ភាសាអង់គ្លេស	-9.92513
▁MOQ	-9.92534
បញ្ឈរ	-9.92536
លើសពី	-9.92586
[	-9.92618
ព្រះអង្គ	-9.92641
▁BS	-9.92648
ពីម្សិល	-9.92748
សមាមាត្រ	-9.92748
▁Tu	-9.92799
ហ្ស៊ី	-9.92894
6.0	-9.92958
BA	-9.92966
▁DJ	-9.93062
▁125	-9.93117
ថ្លែង	-9.93178
កំពង់ផែ	-9.93181
▁ស៊ីស្កូ	-9.93181
ហ្វា	-9.93217
TR	-9.9331
បំបាត់	-9.93324
1.9	-9.93404
▁ម៉	-9.93534
កំហុស	-9.93599
ស្ករ	-9.93724
ណ្ឌ	-9.93761
ធឺ	-9.93773
lm	-9.93782
ចក្រភពអង់គ្លេស	-9.93835
ច្នៃប្រឌិត	-9.93835
▁Cha	-9.93865
ស្នាម	-9.93947
លួស	-9.94059
▁Ya	-9.94207
ខ្ញុំនឹង	-9.94248
▁ប្រទាក់	-9.94273
ification	-9.94273
arm	-9.94287
គ្រែ	-9.94293
ទៅក្នុង	-9.94438
នរណា	-9.94484
▁will	-9.94548
មាត់	-9.94689
កប្បាស	-9.94713
ខ្សែស្រឡាយ	-9.94713
▁Qingdao	-9.94713
▁Mark	-9.94805
DI	-9.94835
ចងចាំ	-9.94933
ឧទ្យាន	-9.94934
បៀ	-9.95009
LA	-9.95025
TF	-9.9506
Khmer	-9.95061
តិចជាង	-9.95069
អ៊ូ	-9.95081
តង់ស្យុង	-9.9515
ទ្វេ	-9.95169
ជំនាញវិជ្ជាជីវៈ	-9.95176
▁EUR	-9.95222
▁Bar	-9.95235
ike	-9.9527
hai	-9.95283
ប្រចាំថ្ងៃ	-9.95302
អាមេរិច	-9.95377
120	-9.95385
ជាលើកដំបូង	-9.95534
0000	-9.95549
បញ្ចាំង	-9.95599
ព្រះរាជាណាចក្រ	-9.95599
rack	-9.95625
4.1	-9.95663
បាត់	-9.95693
GE	-9.95699
▁ផ្លាស់	-9.95718
bet	-9.95819
រុក្ខជាតិ	-9.95822
▁All	-9.95948
ទៅលើ	-9.95977
ប្រាក់បញ្ញើ	-9.96005
មូ	-9.96034
លំបាក	-9.96046
កែវ	-9.96091
គំ	-9.96167
▁(2)	-9.96183
កាប់	-9.96241
ö	-9.96269
កិច្ចព្រមព្រៀង	-9.96276
▁សម្	-9.9628
▁ពួកវា	-9.9638
ការជួញដូរ	-9.96444
▁Instagram	-9.96493
1.4	-9.965
ជាទូទៅ	-9.96509
▁យើងបាន	-9.96567
ក្នុងស្រុក	-9.96609
លីវ	-9.96646
ati	-9.96709
late	-9.96709
ត្រឡប់មកវិញ	-9.96717
វេជ្ជសាស្ត្រ	-9.96717
សម្ដែង	-9.96718
▁Posted	-9.96718
ចំណងជើង	-9.96823
ហោះហើរ	-9.96874
អាល្លឺម៉ង់	-9.96902
RP	-9.96933
ឈាម	-9.96943
សេចក្ដី	-9.97029
ពាក្យសម្ងាត់	-9.97109
របស់វា	-9.97154
▁first	-9.97169
ភាសាខ្មែរ	-9.97293
▁PC	-9.97361
▁Amazon	-9.97395
ប្រដាប់	-9.97395
នឹងមាន	-9.974
▁Dec	-9.97401
ឥណ្ឌា	-9.97503
ការផលិត	-9.97596
អ្នកកំពុងទស្សនា	-9.97621
▁អំពីយើង	-9.97629
5.5	-9.9766
0.9	-9.97696
រកមើល	-9.9773
OD	-9.97746
ឆ្លើយ	-9.97849
នាឡិកា	-9.97849
បើកបរ	-9.97856
ពេញនិយម	-9.97867
បូមបេតុង	-9.97867
លិច	-9.97898
សំអាត	-9.98305
▁ការវេចខ្ចប់	-9.98387
rom	-9.98415
DM	-9.98453
lim	-9.98457
ឧទាហរណ៍	-9.98526
▁YouTube	-9.98534
ular	-9.98579
សម្ងាត់	-9.9859
ពង	-9.98613
ថាជា	-9.98628
▁Dis	-9.98755
ខ្លួនឯង	-9.98782
ស្វែងយល់	-9.98817
សម្រាប់លក់	-9.98837
ហ្វូ	-9.98941
តំណាង	-9.98967
គោរព	-9.98993
្លា	-9.99002
ខ្សាច់	-9.99006
ទូរស័ព្ទចល័ត	-9.99144
▁១៩	-9.99194
ទម្លាក់	-9.99223
▁menu	-9.99256
▁រហូត	-9.99337
ប្រកួតប្រជែង	-9.99414
▁FX	-9.99428
គណបក្ស	-9.99454
rac	-9.99473
▁២០១៥	-9.99497
tre	-9.99557
vent	-9.99559
គ្រឿងម៉ាស៊ីន	-9.99568
ភ្នំពេញ	-9.9957
គឺជាការ	-9.99647
read	-9.99679
ä	-9.99686
ជំពូក	-9.99686
▁group	-9.99687
OL	-9.99736
ជាន់	-9.99855
ពិនិត្យឡើងវិញ	-9.99878
now	-9.99904
រំខាន	-9.99918
បរិសុទ្ធ	-9.99928
="11	-10.0008
រូបមន្ត	-10.0015
▁ជំហានទី	-10.003
▁ម៉ូដែល។	-10.0034
ក្រា	-10.0035
▁tooltip	-10.0038
france	-10.0038
ប៉ះពាល់	-10.0038
rent	-10.0039
▁Bank	-10.0041
កាលពី	-10.0045
ING	-10.0051
RS	-10.0055
▁ស្វែង	-10.0056
▁ថ្ងៃបន្ទាប់	-10.0059
ប៉ុន្មាន	-10.0062
name	-10.0066
ush	-10.0069
Cambodia	-10.0071
គា	-10.0075
▁FileCatalyst	-10.0085
ប្រណាំង	-10.0085
ប្ដូរតាមបំណង	-10.0085
article	-10.0088
burg	-10.0089
សម្រ	-10.009
អង្គភាព	-10.0099
▁Uni	-10.0103
eld	-10.0105
រដ្ឋបាល	-10.0109
ទស្សន៍	-10.0109
ជំហាន	-10.011
0000,0	-10.0118
ខ្លាំងណាស់	-10.0127
អ័រម៉ូន	-10.0132
ស្នូល	-10.0132
ម៉ោន	-10.0132
ហូត	-10.0138
▁អ៊	-10.0146
វ័យ	-10.0149
0.6	-10.0149
បម្រុង	-10.0156
pf	-10.0156
កិន	-10.016
ព្រឹក	-10.0163
ឡង់	-10.0167
bot	-10.0172
▁Tablet	-10.0179
នៅឯ	-10.0186
001	-10.0188
វិទ្យាស្ថាន	-10.019
ក្នុងរយៈពេល	-10.0194
2000	-10.0199
សហគ្រាស	-10.0203
អត្រា	-10.0208
ផ្ញើសារ	-10.0211
ឯ	-10.0218
ឆ្នោត	-10.0225
ផ្អែកលើ	-10.0226
យល់ព្រម	-10.0227
▁Spy	-10.0229
បូក	-10.0229
▁more	-10.0234
▁MT	-10.0258
▁ផ្លូវកាត់	-10.0263
▁Har	-10.0263
▁Max	-10.0265
ផ្សំ	-10.027
វាស់	-10.0273
ឱ	-10.0274
ចម្រុះ	-10.0274
ប្រារព្ធ	-10.0274
សៀគ្វី	-10.0274
ដោយលោក	-10.0275
បំភ្លឺ	-10.0275
រទេះ	-10.0276
▁Super	-10.0281
រុករក	-10.0284
មាតិកា	-10.0291
ធន់ទ្រាំ	-10.0298
សាសនា	-10.0299
ហ៊ី	-10.0306
ផ្លូវដែក	-10.0319
ពរ	-10.0319
វិជ្ជាជីវៈ	-10.032
មិនមែន	-10.0323
Trans	-10.0333
BET	-10.0337
អាង	-10.0345
▁CUPS	-10.0346
▁NA	-10.0352
ប្រសិទ្ធិភាព	-10.0356
gram	-10.0358
លំនាំ	-10.0361
អ៊ិនគ្រីប	-10.0371
LO	-10.0372
KV	-10.0374
ella	-10.038
អ៊ិ	-10.0385
ប៉េ	-10.039
off	-10.0393
GS	-10.0395
ផ្ទុះ	-10.0395
ទៀន	-10.0395
▁'',	-10.0395
print	-10.0403
ស្រប	-10.0403
យើងអាច	-10.0404
but	-10.0407
ធ្មេញ	-10.0419
9001	-10.042
▁3000	-10.042
តំណ	-10.0421
Tech	-10.0424
▁1500	-10.0424
▁Yu	-10.0434
ព្រះជាម្ចាស់	-10.0443
▁វិមាត្រ	-10.0444
កីឡាករ	-10.0449
Game	-10.045
▁ទោះ	-10.0462
ថៃ	-10.0464
កៅអី	-10.0467
3.3	-10.047
Store	-10.0474
ជក់	-10.0477
រក្សាសិទ្ធ	-10.0478
-2018	-10.0481
="12	-10.0491
▁100,0	-10.0491
lk	-10.0491
ស្មាតហ្វូន	-10.0492
bit	-10.0504
អន្តរ	-10.0514
កម្មករ	-10.0517
▁Asia	-10.0519
ette	-10.0529
ឈ្	-10.0536
2013	-10.0541
ពិនិត្យ	-10.0545
សាលារៀន	-10.055
ពេទ្យ	-10.0564
▁10000	-10.0565
សំលេង	-10.0578
បានចាប់ផ្តើម	-10.059
ភព	-10.0593
Read	-10.0601
ការដាក់ប្រាក់	-10.0609
ធនធាន	-10.061
tory	-10.0615
បាល់ទាត់	-10.0615
សូម្បីតែ	-10.0615
ខាងមុខ	-10.0619
ces	-10.0624
tec	-10.0629
ប្រវត្តិ	-10.0631
▁Chrome	-10.064
ក្តី	-10.064
សង្គ្រោះ	-10.064
ល្បី	-10.0646
▁Best	-10.0647
ប្រយុទ្ធ	-10.0648
រដ្ឋមន្រ្តី	-10.0651
HC	-10.0652
▁Reap	-10.0653
មគ្គុទ្ទេស	-10.0657
▁Skype	-10.0664
ពពក	-10.0665
០២	-10.0666
ចំណែក	-10.0668
ប្រវែង	-10.0674
lf	-10.0678
ផ្តល់ឱ្យ	-10.0682
2020	-10.0687
កម្ចី	-10.0689
▁Western	-10.0689
VI	-10.0689
សម័យ	-10.0691
4.8	-10.0693
▁sq	-10.0701
សម្ព័ន្ធ	-10.071
RT	-10.0714
ឆេ	-10.0724
តែប៉ុណ្ណោះ	-10.0728
ទទួលស្គាល់	-10.0738
и	-10.0739
ផ្ទះបាយ	-10.0739
ផ្លែ	-10.074
other	-10.0755
▁Red	-10.0761
ដេញថ្លៃ	-10.0764
ភូ	-10.0764
នៅជុំវិញ	-10.0773
រួមគ្នា	-10.0783
ពា	-10.0785
រ៉ូឡែត	-10.0789
▁FSX	-10.079
មានតម្លៃ	-10.0796
លក្ខខណ្ឌ	-10.0803
អាក្រក់	-10.0815
▁សម្រួល	-10.0815
ville	-10.0815
មានន័យថា	-10.0815
រួមបញ្ចូលទាំង	-10.082
ឯង	-10.0838
umb	-10.0838
online	-10.084
សាសន៍	-10.084
ភោជនីយដ្ឋាន	-10.084
សង្កត់	-10.084
▁Real	-10.0844
IG	-10.0852
gmail	-10.0852
ជាធម្មតា	-10.0855
▁ឯកតា	-10.0866
▁month	-10.0866
គេហទំព័រផ្លូវការ	-10.0874
▁War	-10.0876
ក្រុមប្រឹក្សា	-10.0881
ទូទាំងពិភពលោក	-10.0883
PO	-10.0884
យឺត	-10.0886
▁គោល	-10.0886
ការស្រាវជ្រាវ	-10.0887
▁គ្រាន់	-10.0889
សមាសធាតុ	-10.089
អាគារ	-10.089
GP	-10.0899
ជាផ្នែកមួយនៃ	-10.0909
о	-10.0916
ប្រតិកម្ម	-10.0916
ថោក	-10.0916
យើងមាន	-10.093
ដេរ	-10.094
EM	-10.0947
មីន	-10.0948
/06/	-10.0948
សម្រាប់ប្រព័ន្ធ	-10.0955
review	-10.0961
="8	-10.0963
▁ក្ដារ	-10.0966
▁លិខិតអាមេរិក	-10.0967
source	-10.0972
ពួកយើង	-10.0973
CAD	-10.0973
ទីពីរ	-10.0981
olic	-10.0986
mq	-10.099
CoV	-10.0993
តែងតែ	-10.0993
▁Sam	-10.1001
OC	-10.1008
កម្រិតខ្ពស់	-10.1017
អ៊ិនធឺណ	-10.1018
ស្កេន	-10.1018
Country	-10.102
ប្រូ	-10.1021
គ្រីប	-10.1024
▁Light	-10.1046
អង្គុយ	-10.1046
ough	-10.1049
▁CAP	-10.1056
សិទ្ធិគ្រប់យ៉ាង។	-10.1065
ចូលដំណើរការ	-10.1065
ប័ត្រ	-10.107
អ្នកប្រើប្រាស់	-10.1073
ចុះបញ្ជី	-10.1075
140	-10.1081
▁ថ្ងៃមុន	-10.109
lit	-10.1093
អះអាង	-10.1096
ព្រមទាំង	-10.1096
បន្ទប់គេង	-10.1096
reg	-10.1097
សម្រង់	-10.1099
5.00	-10.1103
ថតរូប	-10.1103
មានគុណភាពខ្ពស់	-10.1114
របស់នាង	-10.1115
អ៊ុ	-10.112
ព័ត៌មានបន្ថែម	-10.1121
តែមួយគត់	-10.1122
សប្ដាហ៍	-10.1122
case	-10.1122
កោណ	-10.1122
បែក	-10.1131
លានដុល្លារ	-10.1133
អាណា	-10.1145
ច្បាស់លាស់	-10.1148
លំនៅដ្ឋាន	-10.1148
ចុងក្រោយបំផុត	-10.1156
press	-10.1163
ផងដែរ។	-10.1172
គីឡូម៉ែត្រ	-10.1174
តិចតួច	-10.1174
អ័ក្ស	-10.1174
▁Deposit	-10.1174
យុទ្ធសាស្រ្ត	-10.1174
មិនត្រូវបាន	-10.1174
▁បាទ	-10.1177
ធ្វើឱ្យទាន់សម័យ	-10.1178
លេច	-10.1193
oth	-10.1193
▁Mod	-10.1197
▁Office	-10.12
▁ដឺក្រេ	-10.12
សន្សំ	-10.1202
▁Media	-10.1205
ឆាប់	-10.1208
▁Du	-10.1211
This	-10.1221
បោក	-10.1221
public	-10.1226
ខណៈពេលដែល	-10.1227
ប្រាំមួយ	-10.1232
លក់ដុំ	-10.1236
ship	-10.1241
ការចំណាយ	-10.1246
ស្តង់ដា	-10.125
←	-10.1253
អ៊ីមែល	-10.1253
▁ពិធីការ	-10.1259
ខាងលិច	-10.1265
អេកូ	-10.1277
គ្រប់គ្រាន់	-10.1279
ព្រួញ	-10.1279
មានភាព	-10.1283
GO	-10.1291
តុលាការ	-10.1298
ept	-10.13
អូស្ត្រាលី	-10.1306
កាហ្វេ	-10.1306
បច្ចុប្បន្នភាព	-10.1307
ឃ្លា	-10.1308
ឥឡូវ	-10.1308
AI	-10.1308
អេឡិចត្រូនិ	-10.1315
ទិស	-10.1317
ត្រឹមតែ	-10.1322
р	-10.1332
តម្រៀប	-10.1332
▁Hielscher	-10.1332
ទាំងស្រុង	-10.1332
មេឌៀ	-10.1332
បង្អួច	-10.134
មានប្រសិទ្ធិភាព	-10.1348
សហព័ន្ធ	-10.1359
ប្រេកង់	-10.1359
▁Center	-10.1359
berg	-10.1364
▁៩៩	-10.1364
LS	-10.1365
ក្រូ	-10.1368
ម៉ូដែល	-10.1371
▁Cup	-10.1378
▁ខ្	-10.1378
ខូច	-10.1382
MB	-10.1383
ដង់ស៊ីតេ	-10.1385
រង្វង់	-10.1385
ហាត់ប្រាណ	-10.1385
េចក្តីថ្លែងការណ៍	-10.1386
ប្រចាំខែ	-10.1391
▁04:	-10.1392
9.99	-10.1394
2012	-10.1399
aster	-10.1403
អាប់	-10.141
លេខកូដ	-10.1411
▁ខែមុន	-10.1413
select	-10.1416
▁២០១៦	-10.1417
ដែន	-10.1417
qua	-10.1421
change	-10.143
មាត្រ	-10.1438
អភិបាល	-10.1439
▁Amarok	-10.1439
version	-10.1439
▁ស្រួល	-10.1439
ស្ថានភាព	-10.1442
itch	-10.1444
KG	-10.1455
្លង់	-10.1457
ជាដើម	-10.1459
ធើ	-10.1461
photo	-10.1466
្ធ	-10.1471
ward	-10.1474
CM	-10.1475
ប្រហែលជា	-10.149
▁សំនួរ	-10.1493
▁PE	-10.1503
▁GSM	-10.151
៏	-10.151
0.000	-10.1516
е	-10.152
ថ្ងៃសៅរ៍	-10.152
មន្ទីរពេទ្យ	-10.152
▁យើងមានឯកទេស	-10.1521
4.2	-10.1534
ND	-10.154
ស្ដង់ដារ	-10.1547
▁PayPal	-10.1547
សន្	-10.1549
ized	-10.1564
របស់លោកអ្នក	-10.1576
code	-10.1578
អិន	-10.1581
▁ការផ្តល់	-10.1594
បង្ហូរ	-10.16
អគ្គីសនី	-10.1601
សង្ឃឹម	-10.1601
េ្រគងបន	-10.1601
▁បានបង្កើត	-10.1626
ទិដ្ឋាការ	-10.1629
មិនទាន់	-10.1629
្យា	-10.1632
4000	-10.1634
▁Bit	-10.1641
ការធានា	-10.1643
▁វ៉ាត់	-10.1657
ចរន្ត	-10.1658
ជ្រុង	-10.1688
7.5	-10.1696
3.8	-10.1702
នៃព្រះគ្រីស្ទ	-10.1711
▁ការផ្សព្វផ្សាយ	-10.1712
▁និងការផលិត	-10.1713
ខុសគ្នា	-10.172
/12/	-10.172
▁BTC	-10.1721
អី	-10.1723
card	-10.1725
ដោយខ្លួនឯង	-10.1727
ពិសោធន៍	-10.173
ត្រឡប់	-10.173
អាកាសចរណ៍	-10.1739
▁International	-10.1739
ប៊ែ	-10.1747
nor	-10.1758
ជាតិសរសៃ	-10.1762
ទំនេរ	-10.1766
cap	-10.1767
សក់	-10.1771
203	-10.1774
▁Mag	-10.1786
បុគ្គល	-10.1793
ខ្សែសង្វាក់	-10.1794
សំយោគ	-10.1794
ឪពុក	-10.1794
▁គ្រាប់ចុច	-10.1798
រៀងរាល់	-10.18
avi	-10.1817
ការភ្នាល់	-10.1819
ទាំងនោះ	-10.1822
▁សម្បត្តិ	-10.1822
PR	-10.1831
▁have	-10.1841
ឧបត្ថម្ភ	-10.1849
អន្ដរជាតិ	-10.185
uction	-10.1856
▁ប៊ីត	-10.1857
▁+86	-10.1858
បទចម្រៀង	-10.1859
▁Toul	-10.1861
="15	-10.1863
ដាំ	-10.1869
បង់ប្រាក់	-10.1876
uch	-10.1877
បាច់	-10.1878
ញឹកញាប់	-10.1878
ប្រែប្រួល	-10.1878
លក្ខណៈសម្បត្តិ	-10.1878
ក្បែរ	-10.1878
!!!	-10.1878
ិការរបស់អ្នក	-10.1879
ដោយសារ	-10.1889
▁08:	-10.1891
▁មើលទៅមុខដើម្បី	-10.1906
▁ដែលត្រូវ	-10.1922
កិច្ចការ	-10.1922
▁Cap	-10.1925
Trade	-10.1928
កាលបរិច្ឆេទ	-10.1942
ឌូ	-10.1944
ច្ច	-10.1952
▁Comp	-10.1952
ហៅថា	-10.1953
raft	-10.1962
ការបញ្ជាទិញ	-10.1963
តាមរយៈការ	-10.1964
ម៉ាស៊ីនថតចម្លង	-10.1964
វីង	-10.1965
សេវាកម្មបន្	-10.1972
ប៊ូតុង	-10.1973
▁07:	-10.1974
ពត់	-10.1976
spec	-10.198
ស្រង់ចេញ	-10.1985
ទាប់ពីការលក់និង	-10.1991
▁Slots	-10.1991
ទិក	-10.1993
UI	-10.1997
data	-10.2001
uff	-10.2005
ផ្ទេរប្រាក់	-10.2008
▁2007	-10.2009
ទេសដ៏ល្អឥតខ្ចោះ។	-10.2019
ផលិតពីប្រទេសចិន	-10.2019
សំរាម	-10.2019
▁ប្រភេទផលិតផលនៃ	-10.2019
ទាក់ទងនឹង	-10.202
កម្រ	-10.2027
ត្បូង	-10.2039
នយោបាយ	-10.2045
រឹងមាំ	-10.2048
▁Metatrader	-10.2048
ការគាំទ្របច្ចេក	-10.2063
ថេ	-10.2066
របស់អតិថិជន	-10.2071
សិល្បករ	-10.2076
ពង្រឹង	-10.2076
រមូរ	-10.2076
ដ្យូ	-10.2076
▁SKU	-10.2077
▁Christ	-10.2079
ក្រានីត	-10.2088
ក្រាហ្វិក	-10.209
គែម	-10.2103
ឆ្លាត	-10.2105
中文	-10.2105
ឯកទេស	-10.2106
ចាំ	-10.2106
មីក្រូ	-10.2111
អាសយដ្ឋាន	-10.2129
ការណែនាំ	-10.2133
បង្ហោះ	-10.2133
▁ក្នុងនាមជា	-10.2133
វដ្ត	-10.2134
សាជីវកម្ម	-10.2134
▁column	-10.2134
3.4	-10.216
▁បណ្ណសារ	-10.2162
ខ្ពស់លក់ដុំនៃ	-10.2162
▁ប័ណ្ណសារ	-10.2163
nov	-10.2164
▁សតិ	-10.2171
5.1	-10.2172
▁សង់	-10.2179
4.3	-10.2191
ប៉ារ៉ាម៉ែត្រ	-10.2191
វិស្វកម្ម	-10.2191
bert	-10.2193
ជ្រៅ	-10.2195
info	-10.22
▁Led	-10.2203
ប៉ុណ្ណោះ	-10.2209
ចេះ	-10.2212
ក្នុងមួយថ្ងៃ	-10.2213
២៨	-10.2214
ខ្វ	-10.2219
▁លីត្រ	-10.2223
ៀក	-10.2224
▁២០១៨	-10.2225
▁១០០	-10.2232
▁សេន	-10.2236
ស៊ីធី	-10.2239
ផ្លែប៉ោម	-10.2249
ជានិច្ច	-10.2249
បំពង់បង្ហូរទឹក	-10.2251
▁ប្លង់	-10.2256
▁Hot	-10.2263
កម្សាន្ត	-10.2279
▁translation	-10.2279
▁count	-10.228
▁LCD	-10.2282
RL	-10.2282
=5.0.6	-10.2308
ı	-10.2308
html	-10.2308
ពីរដង	-10.2309
ដ៏អស្ចារ្យ	-10.2316
របាយការណ៍	-10.2322
ava	-10.2337
▁Note	-10.2348
index	-10.2351
ការចាប់ផ្តើម	-10.2354
សំណើម	-10.2362
ស្ទ្រីម	-10.2367
គ្រីស្ទ	-10.2367
ម៉ាស៊ីនត្រជាក់	-10.2367
Packing	-10.2367
ution	-10.2389
អ្វីដែលអ្នក	-10.2392
т	-10.2396
កែច្នៃ	-10.2396
▁ភីអិលស៊ី	-10.2396
ផែនដី	-10.2396
ឯករាជ្យ	-10.2396
▁Global	-10.2396
ភាគី	-10.2397
▁ID	-10.2405
▁ក្នុងតម្លៃ	-10.2407
ហ្គូ	-10.2408
វិទ្យាល័យ	-10.2425
ព្រំដែន	-10.2426
▁Piwigo	-10.2426
▁check	-10.2426
0.7	-10.2441
▁br	-10.2451
សមាគមធាងត្នោត	-10.2455
អនឡាញ	-10.2455
ខាងស្ដាំ	-10.2455
មានទីតាំងស្ថិតនៅ	-10.2456
អនុបណ្ឌិត	-10.2458
="18	-10.2459
ឃុំ	-10.2461
▁គូស	-10.2466
2011	-10.2467
សំខាន់ៗ	-10.2467
▁លេចឡើង	-10.2485
▁លេខម៉ូដែល	-10.249
កំណត់ត្រា	-10.2501
ពេញចិត្ត	-10.2515
message	-10.2515
២០១៣	-10.2515
hydro	-10.2515
ចាប់ផ្ដើម	-10.2516
°	-10.2516
គន្លឹះ	-10.2519
ផែនទី	-10.2528
3.6	-10.2537
មិត្តភក្តិ	-10.2545
ល្ងាច	-10.2549
ស្វា	-10.2563
erry	-10.2568
ថ្ងៃអាទិត្យ	-10.2575
ផ្តាច់	-10.2575
▁បង្ហោះនៅលើ	-10.2575
វ័យក្មេង	-10.2576
▁ទំនង	-10.2576
▁Toner	-10.258
▁សប្តាហ៍មុន	-10.2582
▁2006	-10.2583
-01-	-10.2594
របៀបដែល	-10.2598
សន្និសីទ	-10.2605
▁WhatsApp	-10.2605
▁acrylic	-10.2605
▁micro	-10.2606
▁Multi	-10.2606
head	-10.2607
▁Plan	-10.2608
▁Motor	-10.2611
="17	-10.2618
ហុង	-10.2619
ដោយដៃ	-10.2623
អធិប្បាយ	-10.2631
▁ហេតុនេះ	-10.2634
ការបង្ហាញ	-10.2635
▁John	-10.2635
រោមភ្នែក	-10.2636
▁root	-10.2639
យើងកំពុង	-10.2642
emp	-10.2649
ester	-10.2655
មន្ទីរពិសោធន៍	-10.2666
pdf	-10.2667
2001	-10.2675
▁Exp	-10.2679
ក៏ដោយ	-10.2683
space	-10.269
onic	-10.2691
long	-10.2693
ទិសដៅ	-10.2696
និទាឃរដូវ	-10.2696
▁មិនអាចរកបាន	-10.2697
eep	-10.2714
មានទំហំ	-10.2722
ឫ	-10.2726
▁Apk	-10.2727
▁(0)	-10.2732
ជាការពិត	-10.274
▁ល។	-10.2745
វាជាការ	-10.2748
អ៊ីសូឡង់	-10.2757
▁LEE	-10.2759
▁One	-10.2759
table	-10.2781
rule	-10.2781
ថ្នាក់ទី	-10.2783
ជូ	-10.2783
2%80%	-10.2786
ជំនួញ	-10.2788
▁University	-10.2788
`	-10.2788
រោង	-10.2792
▁២០១៧	-10.2793
0,0	-10.2795
ធំបំផុត	-10.2799
▁API	-10.2805
ការតភ្ជាប់	-10.2814
▁Holmbygden	-10.2818
ខ្នាត	-10.2848
search	-10.285
ចន្លោះ	-10.2853
ភ្លឺ	-10.2854
123	-10.2854
email	-10.2866
ការដំឡើង	-10.2868
н	-10.288
លើកទឹកចិត្ត	-10.288
យ៉ាងហោចណាស់	-10.288
ឮ	-10.288
ចាកចេញ	-10.2883
="13	-10.2896
101	-10.2912
ពេជ្រ	-10.2912
ចូលទៅ	-10.292
polymer	-10.292
ទោះបីជា	-10.2935
នឹងមិន	-10.2942
វ៉ាស៊ីនតោន	-10.2942
travel	-10.2943
HI	-10.2943
តំណែង	-10.2948
ឈឺ	-10.2951
▁Poly	-10.2959
ដកស្រង់	-10.2965
▁etc	-10.2967
ទីប្រឹក្សា	-10.2967
5.2	-10.2967
និយម	-10.2971
ពិភព	-10.2971
វេបសាយ	-10.2974
ថ្មម៉ាប	-10.2974
មួក	-10.2974
ខាងកើត	-10.2975
បង្រួម	-10.2977
6%	-10.2979
PT	-10.2982
ដែលអាចប្រើបាន	-10.2984
="16	-10.2995
-07-	-10.3003
▁trans	-10.3005
វិជ្ជមាន	-10.3005
ស្ថាបនា	-10.3005
អាពាហ៍ពិពាហ៍	-10.3005
ដទៃទៀត	-10.3006
ទំន	-10.3009
ទុកចិត្ត	-10.3018
ពុះ	-10.3019
9.00	-10.303
ស្មា	-10.3032
ព័ត៍មាន	-10.3036
ជឿទុកចិត្ត	-10.3037
▁UV	-10.305
blockchain	-10.3058
ធាន	-10.3058
អ្នកគាំទ្រ	-10.3062
▁Live	-10.3063
ផ្នែករឹង	-10.3065
រ៉ូម	-10.3065
gent	-10.3068
ជំនាន់	-10.3068
▁ចូរ	-10.3068
យកចេញ	-10.3075
="0.1	-10.3084
▁អូស	-10.3094
ទល់នឹង	-10.31
ភ្លាមៗ	-10.3101
សត្វចិញ្ចឹម	-10.3101
វិទ្យាសាស្ត្រ	-10.3104
តួនាទី	-10.3106
អាលុយមីញ៉ូ	-10.3116
0.4	-10.3121
ហាត់	-10.3121
ទ្រង់ទ្រាយ	-10.3126
ការទាញយក	-10.3129
▁crypto	-10.3131
life	-10.3138
="14	-10.316
គណៈ	-10.3163
▁LexUriServ	-10.3163
▁capacitor	-10.3163
gro	-10.3171
ដោត	-10.319
ផុត	-10.3191
ពាណិជ្ជ	-10.3193
philippines	-10.3195
▁$1.99	-10.3195
រំលឹក	-10.3195
ott	-10.3199
ចាក់សោ	-10.3205
▁sub	-10.321
ura	-10.3216
ស្ថិតិ	-10.3221
ចិញ្ចឹម	-10.3226
▁Français	-10.3227
▁taffeta	-10.3227
ឈុត	-10.3233
ឡាយ	-10.3235
▁Daun	-10.3238
ល្បែង	-10.3253
ព្រះសីហនុ	-10.3259
ស្ថេរភាព	-10.3259
▁ទិញរូបភាព។	-10.3259
ការពិត	-10.3262
យាន	-10.327
បាននិយាយថា	-10.3271
-08-	-10.3272
តុល្យភាព	-10.3273
តំណភ្ជាប់	-10.3276
JS	-10.3278
ផ្លូវការ	-10.3282
នេះគឺជាការ	-10.3284
7.2	-10.3288
UR	-10.3291
អាដាប់ធ័រ	-10.3292
▁Trenbolone	-10.3292
●	-10.3292
google	-10.3292
ប្រាសាទ	-10.3292
▁KMail	-10.3292
ដាក់ប្រាក់	-10.3293
▁OEM	-10.3299
លេងល្បែង	-10.3317
ព្រះអាទិត្យ	-10.332
មណ្ឌល	-10.3324
យ៉ាងទូលំទូលាយ	-10.3327
ច្រៀង	-10.3327
http	-10.3335
ology	-10.3337
ន្ធ	-10.3346
មន្ទីរ	-10.3356
ថ្ងៃពុធ	-10.3356
កំរិត	-10.3357
▁Honda	-10.3357
ទឹកអាស៊ីត	-10.3369
លើកលែង	-10.3369
ប្រតិបត្ដិការ	-10.3389
IR	-10.3391
pha	-10.3396
▁2004	-10.3403
គ្រាប់បាល់	-10.3406
▁some	-10.3412
សន្ទះ	-10.3413
វិបសាយ	-10.3422
ខួប	-10.3422
វណ្ណ	-10.3425
down	-10.3426
រួមបញ្ចូលគ្នា	-10.3428
6.5	-10.3438
unch	-10.3444
cho	-10.3454
ប្រកបដោយ	-10.3455
រោងម៉ាស៊ីនកិន	-10.3455
▁Español	-10.3455
▁about	-10.3455
▁ម៉ាស៊ីនថត	-10.3463
ទូច	-10.3473
dition	-10.3476
ព្រិល	-10.3483
អនាគត	-10.3487
ស្រលាញ់	-10.3487
ថយក្រោយ	-10.3487
នរណាម្នាក់	-10.3489
រលក	-10.3496
រសជាតិ	-10.3496
ដ៏ល្អបំផុត	-10.35
ធា	-10.3518
▁FOB	-10.3521
បងប្អូន	-10.3521
យុទ្ធ	-10.354
▁HGH	-10.3554
▁East	-10.3558
ylord	-10.3559
មើលទៅ	-10.3562
០៩	-10.3566
ជាងគេ	-10.357
បើកចំហ	-10.3578
weet	-10.358
▁Zhong	-10.3587
ការសម្តែង	-10.3597
ពាន	-10.3597
ទេសភាព	-10.3601
ប្លក	-10.3607
000,0	-10.3608
គុណភាពខ្ពស់	-10.3608
ពន្យល់	-10.362
ចំណុចប្រទាក់	-10.362
ធ្ងន់	-10.362
សម្លាប់	-10.362
ទ្រព្យ	-10.3623
រុករករ៉ែ	-10.3625
ឿ	-10.3632
5,000	-10.3645
ការអប់រំ	-10.3646
រាជធានី	-10.3653
ថវិកា	-10.3656
ត្បាញ	-10.3657
▁plus	-10.3659
matic	-10.3687
សំណុំបែបបទ	-10.3687
សម្តេច	-10.3687
▁មហាសន្និបាត	-10.3687
ប្រាក់ចំណេញ	-10.3696
អាចប្រើបាន	-10.3712
រ៉ោតទ័រ	-10.3721
វិញ្ញាណ	-10.3721
▁Trading	-10.3721
▁Black	-10.3721
▁roller	-10.3723
ព្រះវិហារ	-10.3727
▁ប៊ុ	-10.3733
aff	-10.3738
ju	-10.3739
▁វាគឺជា	-10.3745
ក្នុងអំឡុងពេល	-10.3756
like	-10.3771
សព្ទ	-10.3788
អ៊ុលត្រាសោ	-10.3788
▁pneumatic	-10.3788
Internet	-10.3788
mpt	-10.3795
ស្ពាន	-10.3796
ឈី	-10.3802
កូនប្រុស	-10.3802
option	-10.3812
ដែកអ៊ីណុក	-10.3822
▁រំលែក	-10.3822
បណ្តុះ	-10.3822
ទស្សនាវដ្តី	-10.3857
បេះដូង	-10.3857
សំបក	-10.3857
Region	-10.3857
▁ផ្ដើម	-10.3871
យីហោ	-10.3891
▁ផ្លូវលេខ	-10.3894
ស៊ុម	-10.3906
last	-10.3923
ទទឹង	-10.3925
≥	-10.3925
▁Crypto	-10.3925
វត្តមាន	-10.3926
View	-10.3926
ជាច្រើនទៀត	-10.3934
រាត្រី	-10.3945
meter	-10.3945
០១	-10.3951
អាស្រ័យ	-10.3954
4.4	-10.3957
ជំនឿ	-10.396
វិនិច្ឆ័យ	-10.396
help	-10.3965
លំនាំដើម	-10.3965
ញូ	-10.3979
ឧបករណ៍ភ្ជាប់	-10.3986
888	-10.3991
ប្រូតេអ៊ីន	-10.3994
▁MetaTrader	-10.3994
▁Alloy	-10.3994
▁0086-	-10.3995
រន្ធដោត	-10.4
អ្នកត្រូវ	-10.4022
រៀបរាប់	-10.4029
នេសាទ	-10.4029
▁South	-10.4032
នេះបើយោងតាម	-10.4038
វិញ្ញាបនបត្រ	-10.4039
បានរកឃើញ	-10.4047
Box	-10.4047
មធ្យោបាយ	-10.4064
appeared	-10.4064
▁Germany	-10.4064
អាជីព	-10.4064
▁២០១៤	-10.4069
វ៉ាន់	-10.4078
test	-10.4082
8.0	-10.4096
កន្សោម	-10.4099
ក្លែងក្លាយ	-10.4099
ភេសជ្ជៈ	-10.4099
should	-10.4099
▁Company	-10.4099
white	-10.4099
305	-10.4102
នៅទីនោះ	-10.4107
PI	-10.4129
សារព័ត៌មាន	-10.414
▁pref	-10.4146
="19	-10.4162
ជ្រាប	-10.4167
កោង	-10.417
ម្តងទៀត	-10.4172
▁Gold	-10.4174
ប្រទេសឥណ្ឌា	-10.4188
="9	-10.4192
ស្ពាន់	-10.4194
ស្តុក	-10.42
▁Zhejiang	-10.4204
▁CSGO	-10.4204
▁បន្លិច	-10.4205
▁romper	-10.4205
ភ្លេច	-10.4205
កម្មសិទ្ធិ	-10.4212
118	-10.4212
គឺជាអ្វី	-10.4218
ថែរក្សា	-10.424
▁មាត្រា	-10.4241
០៥	-10.4244
បុរសម្នាក់	-10.4247
▁has	-10.4251
rist	-10.4253
ative	-10.4254
០៣	-10.4257
នាំចូល	-10.4261
ទាក់ទាញ	-10.4275
▁Health	-10.4276
កោត	-10.4276
២៦	-10.4278
ភាពត្រឹមត្រូវ	-10.4295
ប្ដូរ	-10.4308
គ្រឿងសង្ហារឹម	-10.4311
ប្រមូលផ្តុំ	-10.4311
▁តោន	-10.4311
កត្តា	-10.4312
សេចក្តីអធិប្បាយ	-10.4316
ប្រទេសថៃ	-10.4318
ទ្រង់	-10.4325
170	-10.4326
▁Heat	-10.4331
crea	-10.4338
ជំនុំ	-10.4347
QShortcut	-10.4347
ឈានមុខគេ	-10.4347
ទិនានុប្បវត្តិ	-10.4347
▁Shandong	-10.4347
ម្តាយ	-10.4347
field	-10.4349
មូលហេតុ	-10.435
ន៏	-10.435
ក្មេងស្រី	-10.4351
lick	-10.4364
បញ្	-10.438
Please	-10.4383
-04-	-10.4398
▁អត្ថបទបន្ទាប់	-10.4402
សម្តែង	-10.4408
ចៃដន្យ	-10.4419
ថ្ងៃអង្គារ	-10.4419
បាត់ដំបង	-10.4419
▁Service	-10.4419
▁microfiber	-10.4419
គ្រោះថ្នាក់	-10.4421
ចូលរួមក្នុង	-10.445
ភាពខុសគ្នា	-10.4451
ជនភៀសខ្លួន	-10.4455
▁ឆ្នាំ២០១៨	-10.4455
រមៀល	-10.4455
អឿម	-10.4455
ហុងកុង	-10.4456
ខែមីនា	-10.4469
7.0	-10.4472
អេឡិចត្រូនិក	-10.4486
ភស្តុតាង	-10.4492
ត្រលប់	-10.4492
ible	-10.4495
សាធារណរដ្ឋ	-10.4498
▁Last	-10.4508
បរាជ័យ	-10.4509
ature	-10.451
/03/	-10.4521
▁តើអ្វីទៅជា	-10.4528
▁រំលង	-10.4528
ស្ដេច	-10.4528
/10/	-10.4539
អែល	-10.454
▁(3)	-10.4543
9.5	-10.4544
នាយកប្រតិបត្តិ	-10.4554
ទូលំទូលាយ	-10.4562
ខួរក្បាល	-10.4565
▁Micro	-10.4567
▁០២៣	-10.4568
កាន់តែច្រើន	-10.458
▁how	-10.4587
បន្លែ	-10.4594
ចិត្ដ	-10.4602
ធូលី	-10.4602
សម្របសម្រួល	-10.4602
សិង្ហបុរី	-10.4602
ប្រឈម	-10.4602
ពលរដ្ឋ	-10.4602
បានកើនឡើង	-10.4602
ជាងមុន	-10.4604
សម្បទា	-10.4611
ព្រឹត្ត	-10.4628
丨	-10.463
Language	-10.4639
ជម្ងឺ	-10.4639
នាយករដ្ឋមន្ត្រី	-10.4639
ប្រធានាធិបតី	-10.4639
▁admin	-10.4641
យុទ្ធនាការ	-10.4641
ពាង	-10.4657
អាស៊ីត	-10.4665
កិត្តិយស	-10.4676
វីរុស	-10.4676
rpm	-10.4677
ភិ	-10.4689
▁VPN	-10.4713
▁Intel	-10.4714
រលោង	-10.4715
▁Java	-10.4724
០៦	-10.4739
Ray	-10.4742
▁Virtual	-10.475
▁Battery	-10.475
▁object	-10.475
▁ផ្តើម	-10.475
អាវយឺត	-10.4758
▁here	-10.4765
ទើប	-10.4766
ផ្តល់សេវា	-10.4779
អុបទិក	-10.4786
ប្រជាប្រិយ	-10.4787
ធម៌	-10.4788
▁regions	-10.4788
▁slab	-10.4788
ពេក	-10.4788
▁វីឡា	-10.4797
ouch	-10.48
សំណាក	-10.4805
Coin	-10.4823
ជាន់ខ្ពស់	-10.4825
កំណើន	-10.4825
និន្នាការ	-10.4825
▁$24.99	-10.4825
▁ការជំនួសជំនួស	-10.4825
ស្រូវ	-10.4825
▁[1]	-10.4825
mobile	-10.4826
6.1	-10.4832
បើកដំណើរការ	-10.4835
▁UIP	-10.4838
XXX	-10.4839
▁poly	-10.4854
កំពង់	-10.4863
▁+855	-10.4863
Query	-10.4863
▁James	-10.4863
ស្នោ	-10.4863
▁coated	-10.4865
ស្រដៀងគ្នា	-10.4866
ization	-10.4879
ចាប់យក	-10.4886
5.3	-10.4901
អ្នកលេង	-10.4931
ប្រពៃណី	-10.4939
▁Indicator	-10.4939
សម្ពោធ	-10.4939
Shift	-10.4939
ឌ័រ	-10.4948
ធំទូលាយ	-10.4949
▁user	-10.4971
▁Silicon	-10.4977
▁Tailoress	-10.4977
ស្រេចចិត្ត	-10.4978
▁block	-10.498
Payment	-10.4982
5.4	-10.4993
▁Geo	-10.4996
ពិន្ទុ	-10.5001
8.2	-10.5014
KChar	-10.5015
សំណាង	-10.5015
▁ទឹកក្រូច	-10.5017
ដំណាំ	-10.5019
media	-10.5019
ងាយស្រួលក្នុងការ	-10.5029
ផ្សាយផ្ទាល់	-10.5038
▁ស្រ្ត	-10.5039
service	-10.5054
▁torrent	-10.5054
="2.9	-10.5054
ដែលជាកន្លែងដែល	-10.5055
▁ដេមិន	-10.5056
italy	-10.5056
មេឃ	-10.5056
សម្រេចចិត្ត	-10.5058
▁Review	-10.5061
2.8	-10.5068
ក្រូច	-10.5071
ទុន	-10.5077
ក្បួន	-10.5081
ការកើនឡើង	-10.5084
ទស្ស	-10.5087
២០១២	-10.5091
ឈានដល់	-10.5092
វប្បធម៌	-10.5092
ងងឹត	-10.5092
varychin	-10.5092
▁Image	-10.5092
▁ត្រួត	-10.5093
កិច្ចសន្យា	-10.5094
▁take	-10.5097
place	-10.5097
▁ផ្ទះលេខ	-10.5116
សាស្រ្ត	-10.5123
Φ	-10.5131
ជម្រៅ	-10.5131
▁Transposh	-10.5131
ដែរឬទេ	-10.5131
សន្ទស្សន៍	-10.5132
ពីចម្ងាយ	-10.5132
បង្កើនបន្ថយ	-10.5139
2.00	-10.5167
យ៉ាម៉ាហា	-10.517
▁Kork	-10.517
សំណុំ	-10.5172
▁ហេតុអ្វី	-10.5174
▁យោបល់បិទ	-10.5176
▁ODM	-10.5181
ប្រឹក្សា	-10.5193
អ៊ីណុក	-10.5199
ចូលរួមជាមួយ	-10.52
cast	-10.5206
city	-10.5207
ប្រាកដថា	-10.5209
ញៀន	-10.5209
ទំងន់	-10.5214
លេងហ្គេម	-10.5215
▁need	-10.5217
ដើមឈើ	-10.5237
Count	-10.5244
ទប់ស្កាត់	-10.5248
▁Bajaj	-10.5248
′′	-10.5248
▁ឆ្នាំ២០១៦	-10.5248
▁was	-10.5254
រោម	-10.5259
5.6	-10.5273
▁ត្រឹម	-10.5277
▁game	-10.5286
អាជ្ញាកណ្តាល	-10.5288
ជីកាបៃ	-10.5288
បែងចែក	-10.5288
រោគសញ្ញា	-10.5289
9.1	-10.5305
ចំនួនទឹកប្រាក់	-10.5309
មានការគៀ	-10.5327
អ៊ីស្រាអែល	-10.5327
▁បែបផែន	-10.5328
៊ី	-10.5333
បូមទឹក	-10.5349
ស្តុ	-10.5363
ស្រដៀង	-10.5364
គណៈកម្មាធិការ	-10.5367
ឆ្លាតវៃ	-10.5367
សន្តិភាព	-10.5367
▁crusher	-10.5367
0-2	-10.537
ក្រុមគ្រួសារ	-10.5374
អាចធ្វើបាន	-10.5377
ស្ទង់	-10.5378
រោគ	-10.54
♪	-10.5407
៦០	-10.5407
ច្រើនបំផុត	-10.5433
ចិញ្ចៀន	-10.5447
អូស្រ្តាលី	-10.5447
កំទេច	-10.5447
▁class	-10.5447
រដូវក្តៅ	-10.5448
ពែង	-10.5462
5.8	-10.5473
8.5	-10.5478
យន្តហោះឯកជន	-10.5482
លិខិតឆ្លងដែន	-10.5487
ផ្ទៃខាងក្រោយ	-10.5487
▁ការបញ្ចេញសំឡេង	-10.5487
បដិ	-10.5488
▁Money	-10.549
តំបន់បណ្តាញ	-10.5507
ដំណឹង	-10.5513
៤០	-10.552
វាយប្រហារ	-10.5527
ខ្លាឃ្មុំ	-10.5527
ធ្ងន់ធ្ងរ	-10.5527
បំផ្លាញ	-10.5527
ផ្សាយបន្តផ្ទាល់	-10.5527
រំកិល	-10.5527
ស័ង្កសី	-10.5527
អារ៉ាប់	-10.5527
russia	-10.5527
great	-10.5528
ភាពឯកជន	-10.5532
▁PowerShell	-10.5568
ព្យួរ	-10.5569
សប្បាយរីករាយ	-10.557
▁access	-10.5571
អាស្រ័យលើ	-10.5574
តូចៗ	-10.5578
ប្រព្រឹត្ត	-10.558
វ៉េ	-10.5582
="3.9	-10.5597
▁អាំងឌុចទ័	-10.5608
ស៊ើបអង្កេត	-10.5608
ទទួលខុសត្រូវ	-10.5608
ស្រទាប់ឈីប	-10.5608
អាហ្វ្រិក	-10.5608
ឧបករណ៍ចាប់សញ្ញា	-10.5608
▁Machine	-10.5608
▁});	-10.5608
▁Polyester	-10.5609
▁sonication	-10.5611
លើកកម្ពស់	-10.5615
erson	-10.5647
▁Europe	-10.5649
គ្មានដែនកំណត់	-10.5649
ផ្លូវរថភ្លើង	-10.5668
សូត្រ	-10.5687
Control	-10.569
បូមទឹកបេតុង	-10.5691
សំបកកង់	-10.5692
▁1.2	-10.572
គម្ពីរ	-10.5725
▁Server	-10.5727
ព័រ	-10.573
▁Deutsch	-10.5731
▁ប្រូកស៊ី	-10.5731
="2.8	-10.5743
bio	-10.575
ញ្ច	-10.5755
ឆ្លុះ	-10.5773
ទង្គិច	-10.5773
="0.2	-10.5773
អាទិភាព	-10.5773
▁Casting	-10.5773
\\	-10.5773
ប្រទេសអាល្លឺម៉ង់	-10.578
បង្កើតទំព័រ	-10.5786
ទិដ្ឋភាព	-10.5789
=3.5.1	-10.5814
▁Nepomuk	-10.5814
▁Cauda	-10.5814
▁nylon	-10.5815
ផ្លែឈើ	-10.5816
▁Hose	-10.5834
មេកានិច	-10.5856
ប្រជាពលរដ្ឋ	-10.5856
ទុក្ខ	-10.5856
▁when	-10.5859
▁មកពីក្រុមហ៊ុន	-10.5863
ហើរ	-10.5871
777	-10.5897
ប៊្លូធូស	-10.5898
ខ្សែក្រវាត់	-10.5898
ត្នោត	-10.5898
▁WysLuxury	-10.5898
បារម្ភ	-10.5899
បរិភោគអាហារ	-10.5899
កែប្រែចុងក្រោយ	-10.5902
ផ្សារដែក	-10.5931
ឆ្ពោះ	-10.594
ជណ្តើរ	-10.594
យកចិត្តទុកដាក់	-10.594
ភាពជាអ្នកដឹកនាំ	-10.594
▁corrugated	-10.594
▁មាត្រដ្ឋាន	-10.594
សាច់ដុំ	-10.5942
០៤	-10.5952
ស្លាប	-10.598
អាជ្ញាធរ	-10.5982
▁Building	-10.5982
ម៉ាឡេស៊ី	-10.5982
ប៉ូឡូញ	-10.5985
roll	-10.5999
បានបញ្ជាក់	-10.6018
ដ៏ធំ	-10.6018
ថ្ងៃច័ន្ទ	-10.6024
បង្ក្រាប	-10.6024
ប្រណីត	-10.6024
ពិចារណា	-10.6024
ប៉ុស្តិ៍	-10.6061
រលាក	-10.6064
អវកាស	-10.6067
▁unicode	-10.6067
▁ASTM	-10.6067
script	-10.6068
▁ផ្ទៃដី	-10.6078
ចូលទៅកាន់	-10.6091
▁ព្រះបន្ទូល	-10.6092
សិទ្ធ	-10.6105
catid	-10.6109
កាកសំណល់	-10.6109
ទូរគមនាគមន៍	-10.6109
លទ្ធភាព	-10.6109
Nathan	-10.611
meroon	-10.6112
▁RSS	-10.6116
ក្នុងមួយខែ	-10.6122
ភាគល្អិត	-10.6152
▁stepper	-10.6152
ការតស៊ូ	-10.6153
▁ជួរឈរ	-10.6156
រុញ	-10.6167
ជាផ្នែកមួយ	-10.6182
="3.0	-10.6185
កំប្លែង	-10.6195
វេជ្ជសាស្រ្ត	-10.6195
វីតាមីន	-10.6195
wysluxury	-10.6195
▁Rotary	-10.6195
មនុស្សយន្ត	-10.6196
មានអារម្មណ៍ថា	-10.6196
1,000	-10.6229
▁វិធាន	-10.6234
ម៉ឺន	-10.6239
ចំហៀង	-10.6239
▁Misslamode	-10.6239
å	-10.6239
▁Tele	-10.6252
រចនាប័ទ្ម	-10.6256
ស្ថាបនិក	-10.6282
✔	-10.6282
▁សម្រាំង	-10.6283
▁Club	-10.6288
high	-10.629
▁ផ្ទាំងរូបភាព	-10.629
ចំណាយពេល	-10.6298
ក្រោមដី	-10.6302
ហានិភ័យ	-10.6326
ជាក់ស្តែង	-10.6326
បរិវេណ	-10.6326
▁Voltage	-10.6326
▁April	-10.6326
ផុតកំណត់	-10.633
ចូលរៀន	-10.6332
ផ្លាស់ប្ដូរ	-10.6351
ious	-10.6369
វាគ្មិន	-10.637
▁ដីទ្បូ	-10.637
	-10.637
Itemid	-10.637
▁Wells	-10.637
▁Ceramic	-10.6414
តេជោ	-10.6414
▁បន្សំ	-10.6414
▁ស្តាំ	-10.6415
Type	-10.6416
6.2	-10.6423
ដាក់ពាក្យ	-10.6429
6.3	-10.6435
សន្យា	-10.6457
ញូវយ៉ក	-10.6458
វេជ្ជបណ្ឌិត	-10.6458
▁California	-10.6458
ការស្ទង់មតិ	-10.6458
\\\\	-10.6458
▁share	-10.6464
▁Anti	-10.649
ION	-10.6493
–	-10.6495
9.0	-10.6499
greece	-10.6502
តន្រ្តី	-10.6502
វេទមន្ត	-10.6502
ថ្ងៃឈប់សម្រាក	-10.6502
ឥរិយាបថ	-10.6502
ស្ងាត់	-10.6503
▁SQL	-10.6503
▁Clash	-10.6506
ព្រះគម្ពីរ	-10.6509
ម៉ង់	-10.6516
ចំណី	-10.6516
៊ិន	-10.6538
កណ្តុរ	-10.6592
គំនូសតាង	-10.6592
វិស្វករ	-10.6592
បំណះ	-10.6592
ប្លាស្មា	-10.6592
▁Pocket	-10.6592
ទ្វេដង	-10.6594
បុណ្យណូអែល	-10.6637
á	-10.6637
គុណសម្បត្តិ	-10.6637
▁subjects	-10.6637
សញ្ញាបត្រ	-10.6637
▁National	-10.6637
ចរាចរណ៍	-10.6638
▁peach	-10.6638
ចាត់ទុក	-10.6639
Class	-10.6664
មានភាពងាយស្រួល	-10.6664
៥០០	-10.667
ល្អប្រសើរជាងមុន	-10.6682
▁ឆបគ្នាជាខ្មៅ	-10.6682
សារៈសំខាន់	-10.6682
តំឡើង	-10.6682
Update	-10.6682
នោម	-10.6683
▁CAS	-10.6694
▁ឧបត្ថម្ភដោយ	-10.6729
ម្ចាស់សៀវភៅ	-10.6732
លើកដំបូង	-10.6755
កាតព្វកិច្ច	-10.6772
មនុស្សពេញវ័យ	-10.6773
▁JavaScript	-10.6773
▁Green	-10.6775
រដូវកាល	-10.6775
{	-10.6796
ថ្មក្រានីត	-10.68
បោះពុម្ពផ្សាយ	-10.6802
អិលធីឌី	-10.6819
លូតលាស់	-10.6819
វត្ថុធាតុដើម	-10.6819
▁number	-10.6819
▁យ៉ូហាន	-10.6819
មូលបត្រ	-10.6819
ពិបាក	-10.6819
▁North	-10.682
ម្ហូបអាហារ	-10.6821
Work	-10.6825
proof	-10.6827
ថ្លា	-10.6828
សរសៃ	-10.6862
កន្សែង	-10.6865
ប្រហោង	-10.6865
លីនេអ៊ែរ	-10.6865
សំភារៈ	-10.6865
▁COVID	-10.6865
ស្លឹក	-10.6865
▁BKK	-10.6866
▁បរិបទ	-10.6866
Markets	-10.6866
សត្វឆ្កែ	-10.6867
ពន្លឺព្រះអាទិត្យ	-10.6871
▁សេចក្តីជូនដំណឹង	-10.6873
រដ្ឋសភា	-10.6883
អូឌីយ៉ូ	-10.6897
ផ្ដល់អនុសាសន៍	-10.6912
▁Gallery	-10.6912
ខួង	-10.6912
វគ្គបណ្តុះបណ្តាល	-10.6913
ខ្សោយ	-10.6958
សរីរាង្គ	-10.6958
▁Changzhou	-10.6958
ភួយ	-10.6958
▁ទំនាក់	-10.6959
បន្ទុក	-10.6962
បញ្ញើ	-10.6967
Sales	-10.6984
ជម្រុញ	-10.7005
ទួលគោក	-10.7005
រសៀល	-10.7005
ព័ត៌មានលម្អិត	-10.7028
ប្លាស្ទិក	-10.7038
តម្លាភាព	-10.7052
ស៊ុយអែត	-10.7052
▁Michael	-10.7052
បង្គោល	-10.7052
យ៉ាងឆាប់រហ័ស	-10.7052
បឋម	-10.7055
8.3	-10.7059
ម៉ាស់	-10.7061
ចំនុច	-10.7099
បង្ខំ	-10.7099
អធិស្ឋាន	-10.7099
អបអរសាទរ	-10.7099
▁អង្សាសេ	-10.7099
អាសន្ន	-10.7099
អាចត្រូវបានប្ដូរ	-10.71
video	-10.71
ឆ្កែ	-10.7101
,000,000	-10.7116
គ្រីស្តាល់	-10.7146
កែលម្អ	-10.7146
តុក្កតា	-10.7146
បរិញ្ញាបត្រ	-10.7146
ស្លៀកពាក់	-10.7146
គ្រិស្ដ	-10.7146
▁រវល់	-10.7146
អំណរ	-10.7146
ការយល់ដឹង	-10.7147
="2.2	-10.7148
▁Saint	-10.7154
៛	-10.7194
វិជ្ជា	-10.7194
ចុះក្រោម	-10.7195
គ្រូពេទ្យ	-10.7195
សមស្រប	-10.7204
របួស	-10.7224
ភាពជាដៃគូ	-10.7241
បញ្ចុះ	-10.7241
អន្តោប្រវេសន៍	-10.7242
ស្រមោល	-10.7242
▁កុម្ភះ	-10.7242
▁អនុសាសន៍	-10.7242
▁SARS	-10.7242
▁ច្ចេ	-10.7243
ស្លត	-10.7243
៨០	-10.7257
ខែធ្នូ	-10.7259
បរិភោគ	-10.7288
រមណីយដ្ឋាន	-10.729
វប្បធម៍	-10.729
▁August	-10.729
ប្រគល់	-10.729
▁មហាវិថី	-10.729
ស្វ័យប្រវត្តិ	-10.7292
ពិធីបុណ្យ	-10.7292
នៅសល់	-10.7293
បញ្ចប់ការសិក្សា	-10.7321
រដូវ	-10.7336
ខ្សែអក្សរពន្លឺ	-10.7338
▁អាទិត្យ	-10.7338
▁Virgin	-10.7338
▁countertop	-10.7338
▁ទោះជាយ៉ាងណា	-10.7338
ខោនធី	-10.7338
▁Adobe	-10.7338
▁ម៉ាថាយ	-10.7338
/08/	-10.7365
л	-10.7387
ព្រឹទ្ធ	-10.7387
ល្បីល្បាញ	-10.7387
បេសកកម្ម	-10.7387
កត់សម្គាល់	-10.7387
="1.8	-10.7387
ប៉ាតង់	-10.7392
0-3	-10.741
ឆ្អឹង	-10.7436
ចំណេះដឹង	-10.7436
ស្រទាប់ពហុជីប	-10.7436
ក្រីក្រ	-10.7436
នៅទូទាំង	-10.7461
គោលការណ៍	-10.7473
យន្តការ	-10.7475
Phone	-10.7482
ទឹកជំនន់	-10.7485
▁Ontario	-10.7485
▁{@}	-10.7485
▁ដដែលៗ	-10.7485
សាស្រ្តាចារ្យ	-10.7485
ទំនុក	-10.7487
New	-10.7519
ស្ទើរតែ	-10.7534
នីតិវិធី	-10.7534
តួកគី	-10.7534
បញ្ច្រាស	-10.7534
▁គ្រោងការណ៍	-10.7534
វឌ្ឍន	-10.7534
▁ក្ដារចុច	-10.7536
វិច្ឆិកា	-10.7572
="3.2	-10.7573
សម្ភារ	-10.7581
ហែលទឹក	-10.7583
download	-10.7583
national	-10.7585
cross	-10.7586
7.1	-10.7587
ញ្ជ	-10.7597
1.00	-10.7607
ហ៊ុន	-10.762
exacthacks	-10.7633
ដង្ហើម	-10.7633
ធ្វើឱ្យប្រសើរឡើង	-10.7633
▁Foundation	-10.7633
ectures	-10.7633
▁MIME	-10.7633
▁កម្រង	-10.7635
អឺរ៉ូ	-10.7635
▁ប្តូ	-10.7661
ជៀសវាង	-10.7683
សង្គ្រាម	-10.7683
អំបិល	-10.7683
▁Sihanoukville	-10.7683
▁សាំយូអែល	-10.7683
▁IMAP	-10.7683
ផ្អែម	-10.7733
អនុលោម	-10.7733
▁Putzmeister	-10.7733
ប្រេស៊ីល	-10.7733
មានផ្ទៃពោះ	-10.7733
យានយន្ត	-10.7733
រថក្រោះ	-10.7733
ស្រូបយក	-10.7733
▁Pantone	-10.7733
insight	-10.7734
▁stitch	-10.7735
BWC	-10.7735
ethyl	-10.7737
ខ្សែក្រវ៉ាត់	-10.7784
ព័ទ្ធ	-10.7784
សក្តានុពល	-10.7784
ទ្វីប	-10.7784
ا	-10.7784
▁Bearing	-10.7784
direct	-10.7793
រកដាសកាតុង	-10.7835
ត្រចៀក	-10.7835
▁laminate	-10.7835
produc	-10.7846
zerbaijan	-10.7886
កុំព្យូទ័រយួរដៃ	-10.7886
▁White	-10.7886
កម្រាល	-10.7937
កម្លាំងបង្វិលជុំ	-10.7937
ប្រតិភូ	-10.7937
ហ្វ្រាំង	-10.7937
▁Kopete	-10.7937
vietnam	-10.7937
ដីធ្លី	-10.7937
សន្ទះបិទបើក	-10.795
="3.7	-10.7953
ប្រសិនបើអ្នកចង់	-10.7984
ចូវ	-10.7984
ភ្លាម	-10.7986
▁Ministry	-10.7988
▁Rikoooo	-10.7988
ស្តើង	-10.7989
ព្យាករណ៍	-10.7989
ឥណ្ឌូនេស៊ី	-10.804
ខ្ចី	-10.804
Private	-10.804
លួច	-10.8041
▁keyword	-10.8041
gsm	-10.8048
▁sonic	-10.8053
មគ្គុទ្ទេ	-10.8056
▁ស្រង់	-10.8067
បើយោងតាម	-10.8079
«	-10.8082
9.4	-10.8089
ដទៃ	-10.8091
សន្និបាត	-10.8092
‘	-10.8092
▁កុងសូល	-10.8092
សរសើរ	-10.8092
▁November	-10.8092
JPY	-10.8093
▁សំឡេងរោទិ៍	-10.8093
ក្រចក	-10.8093
lysis	-10.8093
▁drip	-10.8094
គ្រឹះ	-10.8144
ឆ្នើម	-10.8145
▁departments	-10.8145
▁អាប់ភ្លេត	-10.8145
កំណត់ហេតុបណ្ដាញ	-10.8145
francais	-10.8145
ខិតខំ	-10.8197
ហ្វីលីពីន	-10.8197
អុកស៊ីត	-10.8197
▁ងារ	-10.8197
▁Express	-10.8199
ខណៈ	-10.8199
▁edfa	-10.82
▁Peter	-10.8211
ប្រឹងប្រែង	-10.825
ស្ទូឌីយោ	-10.825
វិចិត្រសាល	-10.825
›	-10.825
▁alloy	-10.825
កន្លងទៅ	-10.8265
я	-10.8303
ស្ថាបត្យកម្ម	-10.8303
▁Kawasaki	-10.8303
casino	-10.8303
កាំភ្លើង	-10.8304
ងូតទឹក	-10.8304
▁CBD	-10.8305
ified	-10.8305
▁TCN	-10.8308
9.9	-10.833
រីកចម្រើន	-10.8357
ខេមបូឌា	-10.8357
សាស្ដ្រ	-10.8357
▁korganizer	-10.8357
▁sonotrode	-10.8357
Institut	-10.8357
ទ្រព្យសម្បត្តិ	-10.8357
▁Inverter	-10.8357
system	-10.8357
គ្រឹះស្ថាន	-10.8358
▁nano	-10.8371
ពន្យារ	-10.8402
វិក័យប័ត្រ	-10.8411
ខាងឆ្វេង	-10.8411
ឃ្លាំមើល	-10.8411
ចងក្រង	-10.8411
ប្រដាប់ក្មេងលេង	-10.8411
មេធាវី	-10.8411
▁យោបល់ឬពិនិត្យ	-10.8411
ទីស្តីការ	-10.8411
អានុភាព	-10.8411
គំរោង	-10.8412
6.8	-10.8415
▁និមិត្ត	-10.8455
កោះរ៉ុង	-10.8465
អេឡិចត្រ	-10.8465
ទឹកដោះគោ	-10.8465
▁ballpoint	-10.8465
▁ស៊ីភីយូ	-10.8465
នាពេលបច្ចុប្បន្ន	-10.8465
ទូរទឹកកក	-10.8465
▁FIFA	-10.8465
▁វាក្យ	-10.8465
▁France	-10.8465
▁ខូគី	-10.8465
ប្អូន	-10.8518
ាចារ្យ	-10.8519
▁Blackjack	-10.8519
▁៨៨១	-10.8519
កុងតឺន័រ	-10.8519
▁វចនានុក្រម	-10.8519
ថូខឹន	-10.8519
▁Russia	-10.8519
="2.4	-10.852
8.6	-10.8537
សង់ទីម៉ែត្រ	-10.8552
ឯកឧត្តម	-10.8553
Text	-10.8568
▁official	-10.8574
រំភើប	-10.8574
ចំហាយ	-10.8574
គណៈកម្មការ	-10.8574
ត្រូវបានរចនាឡើង	-10.8574
អ្នករាល់គ្នា	-10.8574
▁Angel	-10.8577
ក្របខ័ណ្ឌ	-10.8629
អាស៊ាន	-10.8629
▁which	-10.8629
▁short	-10.863
សំណង	-10.8682
រៀបការ	-10.8684
ថ្ងៃព្រហស្បតិ៍	-10.8684
សង្កេត	-10.8684
ស្វ៊ីស	-10.8684
▁modified	-10.8684
▁កក្តដា	-10.8684
ជំរាបសួរ	-10.8684
▁Youtube	-10.8684
តែងតាំង	-10.8684
គណៈរដ្ឋមន្រ្តី	-10.8685
សម្ប	-10.8704
ក្រិតតាមខ្នាត	-10.8739
សហគ្រិន	-10.8739
ហេដ្ឋារចនាសម្ព័ន	-10.8739
កងទ័ព	-10.8739
អាកាសយានដ្ឋាន	-10.8739
▁(+855)	-10.8739
ឯកសណ្ឋាន	-10.8739
▁Kontact	-10.8739
▁Crimea	-10.874
គ្រប់ទីកន្លែង	-10.874
សម្បូរ	-10.874
▁CFD	-10.8741
Step	-10.8784
μ	-10.8795
ភ្ញាក់ផ្អើល	-10.8795
មហោស្រព	-10.8795
▁Gibbs	-10.8795
▁between	-10.8795
កាបោន	-10.8795
រង្វាស់	-10.8795
ផ្គុំ	-10.8795
វិហារ	-10.8842
▁ច័ន្ទ	-10.8852
▁បឋមកថា	-10.8852
繁體	-10.8852
ស្ម័គ្រចិត្ត	-10.8852
ហ៊ូ	-10.8852
▁Azure	-10.8852
▁Cloud	-10.8852
▁AVX	-10.8852
៉ិចទ័រ	-10.8852
បណ្តោះអាសន្ន	-10.8908
ប្តេជ្ញា	-10.8908
វិចិត្រ	-10.8908
▁Boeung	-10.8908
▁America	-10.8908
CDC	-10.8913
អ៊ីស្តង់ប៊ុល	-10.8965
កាំបិត	-10.8965
បោះពុម្ភ	-10.8965
▁Akonadi	-10.8965
អនាម័យ	-10.8965
ឆូត	-10.8965
ព្រីន	-10.8965
ថ្ងៃចន្ទ	-10.8965
ម្នន	-10.8966
នគរ	-10.8979
words	-10.9022
ចោទប្រកាន់	-10.9022
ពេត្រុស	-10.9022
វិសាលភាព	-10.9022
ស្នេហ៍	-10.9022
▁Cryptocurrency	-10.9022
к	-10.9022
យោធា	-10.9022
▁TCDD	-10.9022
control	-10.9023
រឹត	-10.9029
ខែមករា	-10.9045
9.2	-10.9067
មន្រ្តី	-10.9075
កំណាព្យ	-10.9079
▁spindle	-10.9079
▁radio	-10.9079
សៀរៀល	-10.9079
សូន្យ	-10.908
▁Design	-10.908
▁ខួបលើកទី	-10.908
Casino	-10.9108
▁Piece	-10.9129
គណនេយ្យ	-10.9137
លោហធាតុ	-10.9137
▁Bophana	-10.9137
▁britain	-10.9137
▁Excel	-10.9137
talonia	-10.9137
▁VOA	-10.9138
="4.9	-10.9156
в	-10.9195
រីករាលដាល	-10.9195
▁ខោរឹប	-10.9195
▁Nokia	-10.9195
▁forging	-10.9196
អាចទទួលយកបាន	-10.9196
Pieces	-10.9204
ដោយឥតគិត	-10.9253
បាក់តេរី	-10.9254
ទីក្រុងឡុងដ៍	-10.9254
ស្មោះត្រង់	-10.9254
អុកស៊ីសែន	-10.9254
▁SlotJar	-10.9254
កែសម្រួល	-10.93
សុខាភិបាល	-10.9313
▁Axiata	-10.9313
▁cutters	-10.9313
▁ductile	-10.9313
វាយនភ័ណ្ឌ	-10.9313
កត់ត្រា	-10.9313
ម៉ាស៊ូត	-10.9313
▁Nylon	-10.9313
ដែលដឹកនាំដោយ	-10.9322
មែនទេ	-10.9361
ស្រាបៀរ	-10.9372
▁លើសពីនេះទៀត	-10.9372
គ្រឿងអលង្ការ	-10.9372
▁Copyright	-10.9372
សន្ទនា	-10.9372
▁Study	-10.9372
▁Italy	-10.9372
ccess	-10.9378
សើម	-10.9385
ផ្សេង	-10.9424
~	-10.943
í	-10.9431
រំលោភ	-10.9431
2005-2018	-10.9431
zambia	-10.9431
តៃវ៉ាន់	-10.9431
សំណព្វ	-10.9431
▁Karnar	-10.9431
▁Sathapana	-10.9431
▁RFID	-10.9431
▁ព្រីនធឺ	-10.9431
សមតុល្យ	-10.9466
▁HTTP	-10.9474
គេស្គាល់ថា	-10.9489
កាតូលិក	-10.9491
ពុទ្ធ	-10.9491
សិប្បកម្ម	-10.9491
▁Firefox	-10.9491
▁Pongee	-10.9491
▁Teflon	-10.9491
desktop	-10.9492
spain	-10.9493
ទាក់ទងមកយើង	-10.9494
ឃាត	-10.9498
សតវត្ស	-10.9552
អាឡឺម៉ង់	-10.9552
▁OpenPGP	-10.9552
▁Việt	-10.9552
▁Spain	-10.9552
▁Villa	-10.9571
▁welded	-10.9612
У	-10.9612
បន្ទះឈីប	-10.9612
【	-10.9612
power	-10.9613
ខែតុលា	-10.9629
uzz	-10.9631
ម្សិលមិញ	-10.9673
យ៉ាងដូចម្តេច	-10.9673
សម្ងួត	-10.9673
▁Council	-10.9673
▁ចំណោម	-10.9673
】	-10.9673
រលូន	-10.9673
ពោត	-10.9674
យន្តហោះឯកជនក្រុ	-10.9695
mac	-10.9704
មគ្គុទេសក៍	-10.9734
សម័យចុងក្រោយនៅលើ	-10.9734
ចតុកោណ	-10.9734
▁NEWS	-10.9734
▁Psiphon	-10.9734
ទីប្រជុំជន	-10.9734
កសិករ	-10.9734
ជ្រូក	-10.9734
0:00	-10.9737
ព្យាករ	-10.9795
កម្តៅ	-10.9796
ក្រឡាចត្រង្គ	-10.9796
មហ៊ុនជួលសេវាកម្ម	-10.9796
▁engraving	-10.9796
ការតាំងពិព័រណ៍	-10.9796
ែករំលែកអត្ថបទនេះ	-10.9803
ខែមេសា	-10.9832
ចំណេញ	-10.9841
▁February	-10.9858
electric	-10.9858
▁អាគុយម៉ង់	-10.9858
▁multi	-10.9859
▁២០០៨	-10.9859
arques	-10.9859
ស្ដីពី	-10.9859
▁GTA	-10.9859
="2.3	-10.986
ហោប៉ៅ	-10.9921
ប្រេងឥន្ធនៈ	-10.9921
▁Microfiber	-10.9921
▁Audi	-10.9932
ម៉ូឌុល	-10.9964
ពុម្ព	-10.9968
ខែកុម្ភៈ	-10.9969
ព័រទុយហ្គាល់	-10.9984
ឃ្មុំ	-10.9984
រដូវរងា	-10.9984
រដ្ឋធានី	-10.9984
ស្ថិរភាព	-10.9984
▁គំនិតសាក់រូប	-10.9984
ទីធ្លា	-10.9984
▁Version	-10.9984
ជាថ្មីម្តងទៀត	-10.9984
យក្ស	-10.9986
Rider	-10.9987
Form	-10.9989
ម្ហូប	-11.0045
▁MYHH	-11.0047
បរិច្ចាគ	-11.0047
▁Baijiu	-11.0047
▁europa	-11.0047
ជឿជាក់	-11.0047
វ៉ែនតា	-11.0047
ដែលមានស្រាប់	-11.0047
▁រើស	-11.0047
▁also	-11.0048
និមិត្តសញ្ញា	-11.006
ម៉ៅ	-11.0061
សាធារណ	-11.0096
បណ្ដោះអាសន្ន	-11.0111
▁កាតាឡុក	-11.0111
សមា្ភារៈ	-11.0111
▁iPod	-11.0111
បន្ទាយ	-11.0111
ppbag	-11.0111
ក្លាយទៅជា	-11.0121
ចរាចរ	-11.0174
ជិតស្និទ្ធ	-11.0175
ចំណាប់អារម្មណ៍	-11.0175
មានព្រះបន្ទូល	-11.0175
thailand	-11.0175
ស្នាដៃ	-11.0175
General	-11.0175
បំរើ	-11.0175
▁Phsar	-11.0175
អាចបត់បែនបាន	-11.0175
2,000	-11.0188
ដុល្លា	-11.0201
ូមស្វាគមន៍មកកាន់	-11.0214
បត់បែន	-11.0239
ប្រហាក់ប្រហែល	-11.0239
កំពស់	-11.0239
សង្ស័យ	-11.0239
▁ethereum	-11.0239
ប្រាថ្នា	-11.0239
▁រលឹម	-11.0239
▁Option	-11.0239
▁Street	-11.0239
▁អង្គចងចាំ	-11.0239
បណ្តោយ	-11.0304
ម៉ូឌែល	-11.0304
អាគ្នេយ៍	-11.0304
respond	-11.0304
▁NYE	-11.0304
ម៉ៃ	-11.0345
кра	-11.037
បកស្រាយ	-11.037
សួនច្បារ	-11.037
▁Business	-11.037
▁Software	-11.037
▁discuss	-11.037
▁មីលីលីត្រ	-11.037
បេក្ខជន	-11.037
ស្នេហា	-11.037
ហាក់ដូចជា	-11.037
puerto	-11.037
charter	-11.037
សន្មត	-11.0412
វិថី	-11.0435
cryptocurrencies	-11.0435
ក្រឹត្យ	-11.0435
▁WIFI	-11.0435
▁តម្បៀត	-11.0435
с	-11.0435
កន្ទុយ	-11.0435
account	-11.0435
ថាមវន្ត	-11.0502
សំគាល់	-11.0502
▁រាប់អំបោះ	-11.0502
support	-11.0502
មោទនភាព	-11.0568
нська	-11.0568
សម្ផស្ស	-11.0568
ហឺប៉ី	-11.0568
▁extruded	-11.0568
ក្តារចុច	-11.0568
▁centrifug	-11.0568
known	-11.0568
សំដៅ	-11.0568
function	-11.0568
Edit	-11.0579
Share	-11.0612
បរិយាកាស	-11.0635
ក្វាងចូវ	-11.0635
យោងទៅតាម	-11.0635
ç	-11.0635
▁plain	-11.0635
▁Roller	-11.0636
រណៈ	-11.0641
zimbabwe	-11.0703
▁Agriculture	-11.0703
▁Limited	-11.0703
ទួរគី	-11.0703
កម្មវិធីនិពន្ធ	-11.0703
uploads	-11.0703
▁DRK	-11.0704
tudio	-11.0705
—	-11.0759
សម្លឹងមើល	-11.0771
▁បរិច្ឆេទ	-11.0771
▁យូនីកូដ	-11.0771
▁images	-11.0771
ញ៉ូ	-11.0834
Plugin	-11.0839
▁AASraw	-11.0839
▁KOrganizer	-11.0839
▁Solomons	-11.0839
▁cups	-11.084
ស្រ្តី	-11.0867
ជម្មើសជំនួស	-11.0908
▁interface	-11.0908
ព្រួយ	-11.0908
▁Estate	-11.0909
ស្រេច	-11.0976
គ្មានថ្នេរ	-11.0978
អក្ខរាវិរុទ្ធ	-11.0978
▁Explorer	-11.0978
▁Genotropin	-11.0978
▁Patrick	-11.0978
▁Python	-11.0978
▁cavitation	-11.0978
▁conveyor	-11.0978
▁Torrent	-11.0978
ពន្លា	-11.0978
▁csgo	-11.0978
▁ZLP	-11.0978
គីឡូវ៉ាត់	-11.1048
▁CAPTCHA	-11.1048
▁settings	-11.1048
Message	-11.1048
ចារកម្ម	-11.1048
ក្តាប់	-11.1048
▁Frank	-11.1048
ស្គរ	-11.1048
Love	-11.1086
ខ្វះចន្លោះ	-11.1118
▁ចុះអ័ព្វ	-11.1118
នាំមកនូវ	-11.1118
▁អង្គារ	-11.1118
▁George	-11.1118
ស្មៅ	-11.1118
វះកាត់	-11.1118
ស្នប់	-11.1119
ទូទាំងប្រទេស	-11.1174
▁Opera	-11.1175
អត់ធ្មត់	-11.1189
ឧបសគ្គ	-11.1189
▁Admiral	-11.1189
▁Columbia	-11.1189
▁Preemie	-11.1189
▁WordPress	-11.1189
▁ដ្បិត	-11.1189
mission	-11.1189
process	-11.1189
▁FREE	-11.1189
oceani	-11.1197
Connect	-11.1205
ម៉ែត	-11.1211
ជំទង់	-11.1261
ផ្តួចផ្តើម	-11.1261
ព្រូដិនសល	-11.1261
▁Istanbul	-11.1261
▁Peugeot	-11.1261
សប្បុរស	-11.1261
institut	-11.1261
រារាំង	-11.1261
▁Texas	-11.1261
ព្រះបាទ	-11.1261
បង្គរ	-11.1261
ដែលមានទំហំធំ	-11.1315
ទោះបី	-11.1317
ទស្សនកិច្ច	-11.132
ខ្សែកាប	-11.133
គម្លាត	-11.1333
ស្ស៊ីជាចុង	-11.1333
▁January	-11.1333
▁Murphy	-11.1333
▁ខណ្ឌចំការមន	-11.1333
lombia	-11.1333
ខេត្តសៀមរាប	-11.1333
អាចធ្វើទៅបាន	-11.1333
ប្រឌិត	-11.1333
▁October	-11.1333
romania	-11.1333
Search	-11.1334
Changeset	-11.1405
គ្រឿងសំអាង	-11.1405
ម៉ាញេទិច	-11.1405
អាវុធ	-11.1405
▁Voice	-11.1405
ស្តេច	-11.1405
▁Flash	-11.1406
កន្លងមក	-11.1409
ServerName	-11.1414
វិធានការ	-11.1417
▁ចង្អុល	-11.1473
ភិចសែល	-11.1478
សុន្ទរកថា	-11.1478
ផលិតផលធ្វើពីជ័រ	-11.1478
▁Mastercard	-11.1478
▁សមកាលកម្ម	-11.1478
screen	-11.1478
▁Avenger	-11.1478
ម៉ាញ៉េ	-11.1551
សីតុណ្ហាភាព	-11.1552
BREAKING	-11.1552
ដំបូន្មាន	-11.1552
▁មែកធាង	-11.1552
សណ្តែក	-11.1552
▁Hebei	-11.1552
▁ពុធ	-11.1552
អាតូម	-11.1552
▁Router	-11.1554
Order	-11.1558
សំឡីកែវ	-11.1626
រីកលូតលាស់	-11.1626
у	-11.216
ñ	-11.2318
★	-11.2642
→	-11.3903
ឪ	-11.6635
ь	-12.0844
ឍ	-12.0844
·	-12.0885
中	-12.1621
•	-12.1746
	-12.5856
ឲ	-13.0435
′	-13.2606
繁	-13.7124
文	-13.8124
ệ	-14.358
‧	-16.6413
體	-16.6413
