<unk>	0
<s>	0
</s>	0
▁	-1.99066
,	-4.4772
.	-4.52733
ក	-4.54849
ស	-4.57083
រ	-4.5757
e	-4.77355
s	-4.81611
ល	-4.82601
-	-4.90278
្	-4.93056
ប	-4.93254
ត	-4.95284
:	-4.95312
;	-5.01797
p	-5.09558
ម	-5.09784
a	-5.1024
ន	-5.14159
i	-5.16206
o	-5.17444
ូ	-5.25929
ង	-5.29084
3	-5.30087
▁&	-5.32236
ការ	-5.32455
ុ	-5.34784
t	-5.34945
ច	-5.40089
5	-5.40425
ទ	-5.41222
អ	-5.42834
c	-5.47048
m	-5.4726
d	-5.48091
y	-5.51336
g	-5.5259
4	-5.53614
យ	-5.54513
ី	-5.54747
)	-5.55214
ា	-5.5649
េ	-5.59596
u	-5.59618
ដ	-5.60649
k	-5.63057
b	-5.64268
▁(	-5.6431
។	-5.68201
in	-5.69526
6	-5.69999
0	-5.70272
ព	-5.70345
▁។	-5.71154
amp	-5.72524
er	-5.73951
ស្	-5.74326
7	-5.74743
8	-5.75023
l	-5.76769
S	-5.78113
▁ការ	-5.78306
ជ	-5.80076
គ	-5.815
n	-5.81605
វ	-5.87473
2	-5.88031
h	-5.88696
9	-5.89481
▁#	-5.89866
ហ	-5.90526
f	-5.90566
ំ	-5.90591
ោ	-5.90601
/	-5.91084
C	-5.9221
A	-5.94888
▁160;	-5.96356
ិ	-5.9704
▁S	-5.98475
ណ	-6.00289
ម្	-6.01832
ជា	-6.02063
on	-6.02247
r	-6.04413
an	-6.04485
ពី	-6.05567
P	-6.05825
▁បាន	-6.06208
or	-6.06212
ួ	-6.07653
▁និង	-6.08154
▁P	-6.10935
ar	-6.10998
1	-6.11101
ប្រ	-6.12255
gt	-6.14015
00	-6.14706
ខ	-6.15008
v	-6.15011
▁/	-6.16094
▁1	-6.17033
T	-6.17496
w	-6.18043
I	-6.18162
នា	-6.20935
D	-6.22007
ផ្	-6.24312
សា	-6.24565
និង	-6.25412
▁អ្នក	-6.25723
នេះ	-6.25736
ែ	-6.27354
%	-6.29549
en	-6.29795
▁A	-6.29986
M	-6.30385
E	-6.30681
ទី	-6.30812
មាន	-6.30871
នៃ	-6.32032
កា	-6.33142
"	-6.33153
▁C	-6.33452
ង់	-6.34597
មួយ	-6.35043
ធ	-6.35473
ើ	-6.38439
ញ	-6.39458
▁ដែល	-6.39958
ភាព	-6.40156
បាន	-6.41365
អ្នក	-6.42426
al	-6.42533
▁T	-6.43408
ដែល	-6.43934
▁នៅ	-6.45201
es	-6.49363
នៅ	-6.49904
▁B	-6.50734
ប់	-6.50827
របស់	-6.50943
រា	-6.51475
▁M	-6.52312
st	-6.5232
="	-6.53867
re	-6.54464
O	-6.54533
ាយ	-6.54631
it	-6.55127
ិត	-6.55225
20	-6.56501
R	-6.5708
▁H	-6.57788
វិ	-6.58346
L	-6.58393
ក្រ	-6.58611
ធ្វើ	-6.58831
x	-6.59929
ic	-6.60842
N	-6.62251
ភ	-6.62443
ថ	-6.63145
▁20	-6.64418
សម្រាប់	-6.65017
អា	-6.65596
ro	-6.66591
le	-6.68206
ឡ	-6.68374
at	-6.68718
▁2	-6.69445
ing	-6.69571
ត្រ	-6.69576
B	-6.7111
ទៅ	-6.71568
១	-6.71773
ថា	-6.74165
ch	-6.7558
ស្រ	-6.77642
▁ក្នុង	-6.78638
▁F	-6.7869
ាន	-6.79061
គ្រ	-6.79304
▁ខែ	-6.79647
▁D	-6.79869
៉	-6.80142
▁ជា	-6.80618
ol	-6.80834
▁របស់	-6.82265
ាក់	-6.8248
▁G	-6.83209
et	-6.83369
el	-6.83935
F	-6.86255
ដោយ	-6.86532
▁L	-6.87165
្យ	-6.87486
ក្នុង	-6.87536
នៅក្នុង	-6.877
សារ	-6.87917
com	-6.88448
ur	-6.89103
H	-6.89354
បា	-6.89771
ុង	-6.89969
▁ប្រ	-6.90228
z	-6.90534
ed	-6.90865
lt	-6.90933
ត្រូវបាន	-6.91087
G	-6.93806
ri	-6.93888
is	-6.94786
ៀ	-6.95216
វា	-6.96121
▁K	-6.96584
ៅ	-6.97052
V	-6.97189
to	-6.98373
ស៊ី	-6.98759
ខ្ញុំ	-6.99141
▁មាន	-7.00528
ែង	-7.00603
15	-7.00887
ពេល	-7.00903
លើ	-7.00964
ទេ	-7.01076
ះ	-7.01386
▁ដោយ	-7.01544
តែ	-7.02224
X	-7.02367
ាប់	-7.02647
▁មិន	-7.02792
▁សម្រាប់	-7.03306
12	-7.03618
០	-7.04234
ដា	-7.04406
▁កម្មវិធី	-7.04805
▁N	-7.04835
ra	-7.05331
16	-7.05337
ល់	-7.05429
as	-7.06044
▁នេះ	-7.06191
▁_	-7.06272
us	-7.06626
ជាមួយ	-7.06789
គឺ	-7.06933
ុំ	-7.08387
យើង	-7.08872
▁R	-7.09539
អាច	-7.09675
10	-7.09948
ណា	-7.09974
▁W	-7.10817
un	-7.1087
am	-7.11067
!	-7.11103
នឹង	-7.11356
ដើម	-7.11842
50	-7.12074
ន់	-7.12135
▁E	-7.12265
ោះ	-7.12626
K	-7.12714
មក	-7.14218
័យ	-7.14775
ent	-7.152
មា	-7.15593
ៃ	-7.15698
il	-7.16547
@	-7.16964
៍	-7.17326
ខាង	-7.17335
រី	-7.17567
th	-7.17738
ne	-7.18473
▁៖	-7.18481
័	-7.18818
តា	-7.19035
ទូរស័ព្ទ	-7.19207
▁អា	-7.1933
▁ត្រូវ	-7.19514
ផ	-7.20556
?	-7.20589
de	-7.2069
លា	-7.22026
▁start	-7.22049
19	-7.22134
"&	-7.22693
li	-7.22703
▁dur	-7.23613
▁ឬ	-7.23732
តាម	-7.23769
ព្រ	-7.24114
13	-7.24614
ត្	-7.24685
30	-7.25075
ហា	-7.25097
សំ	-7.25127
ភា	-7.2513
់	-7.25271
កម្ម	-7.25589
▁វា	-7.25836
U	-7.26285
តិ	-7.26633
ទឹក	-7.26703
▁J	-7.26727
ter	-7.26928
▁U	-7.26944
ន្ត	-7.27231
ចូល	-7.27799
ទាំង	-7.28004
ឹង	-7.28056
la	-7.28214
ឡើង	-7.28422
២	-7.28609
លេខ	-7.28822
ែន	-7.28998
និ	-7.29145
14	-7.29942
W	-7.30292
មេ	-7.30302
ផលិតផល	-7.30941
11	-7.31436
and	-7.31666
ឈ	-7.31875
ាំ	-7.32359
...	-7.32839
ia	-7.32986
ប្រព័ន្ធ	-7.33334
ទូ	-7.33372
ប្	-7.33413
ឥ	-7.33414
op	-7.34247
ប៉	-7.34361
ad	-7.34505
ថ្មី	-7.34509
មិន	-7.34715
18	-7.34762
▁kgm	-7.35069
'	-7.35088
ាស់	-7.35284
ប្រាក់	-7.35901
ដើម្បី	-7.35907
ឱ្យ	-7.36103
ពិ	-7.36469
ឯ	-7.36728
ទា	-7.3682
lo	-7.36962
ho	-7.36981
លី	-7.3708
▁ទៅ	-7.37505
▁http	-7.3772
ក្រុមហ៊ុន	-7.38425
://	-7.38457
sh	-7.38778
tr	-7.38929
ែក	-7.39018
▁ឯកសារ	-7.39478
▁10	-7.39573
▁O	-7.40109
ទុក	-7.40197
បូ	-7.40266
ចំនួន	-7.40316
បង្	-7.40359
=	-7.40531
មើល	-7.40607
ប៊	-7.41025
ៈ	-7.41182
យក	-7.41393
▁ទំព័រ	-7.41483
Y	-7.41937
om	-7.42256
ឈ្មោះ	-7.42501
▁ដើម្បី	-7.42536
▁អាច	-7.42629
_	-7.42855
ce	-7.43041
បន្ទាប់	-7.4308
▁$	-7.43222
មុន	-7.43528
]	-7.43607
ច្រើន	-7.43827
▁ប្រើ	-7.44488
បង្ហាញ	-7.4497
▁V	-7.45029
ព័ត៌មាន	-7.45048
ot	-7.45509
អ៊ី	-7.45553
ាំង	-7.45959
▁នឹង	-7.46405
បន្ថែម	-7.46805
bo	-7.47124
▁–	-7.47605
ប្រើ	-7.4806
តម្លៃ	-7.48616
ាត់	-7.48768
Name	-7.48864
j	-7.48987
ut	-7.49009
ដល់	-7.49039
▁ម៉ាស៊ីន	-7.49478
ចំណ	-7.49616
▁កំណត់	-7.49705
ចេញ	-7.49754
គ្នា	-7.498
▁...	-7.49907
៊	-7.50268
ផលិត	-7.50391
co	-7.50799
▁ហើយ	-7.5113
ឺ	-7.51721
នៅលើ	-7.51814
យ៉ាង	-7.52558
ate	-7.5275
រួម	-7.52796
17	-7.52991
ឆ្នាំ	-7.5301
▁លោក	-7.53521
ខ្ពស់	-7.54245
id	-7.54296
័រ	-7.54571
ប្រភេទ	-7.54846
ដែលមាន	-7.54901
▁ថ្ងៃ	-7.55388
▁ឆ្នាំ	-7.55769
ព្រះ	-7.55848
២០	-7.56014
▁សូម	-7.56277
ស្ត	-7.56481
▁Co	-7.57067
ឆ្	-7.57156
ម៉ា	-7.58202
ir	-7.58555
*	-7.58662
ហ្វ	-7.58735
ធី	-7.58892
25	-7.59426
ang	-7.596
ទីក្រុង	-7.59648
បង្កើត	-7.59768
កំ	-7.5977
ផ្លូវ	-7.6004
ប្រទេស	-7.60082
ត់	-7.60095
ិន	-7.60732
៥	-7.60887
he	-7.61116
ិច	-7.61359
ែល	-7.61687
um	-7.61954
ផ្នែក	-7.62484
ថ្ងៃ	-7.63326
រក្សា	-7.63364
របស់អ្នក	-7.63639
ay	-7.63886
ទៀត	-7.64232
ក្រុម	-7.64313
em	-7.64387
ទំហំ	-7.64591
▁លើ	-7.64738
▁ក្រុមហ៊ុន	-7.64799
▁រូប	-7.64991
ma	-7.6557
▁2018	-7.6659
ធ្	-7.67005
▁Ch	-7.67273
24	-7.67516
អំពី	-7.67615
ថ្ម	-7.67627
លោក	-7.68182
ឹក	-7.68593
ម៉ាស៊ីន	-7.68649
ជាតិ	-7.68715
ឡា	-7.68723
tion	-7.69283
ៀង	-7.6955
&	-7.6997
៣	-7.70074
ul	-7.70638
ដាក់	-7.71229
▁ឧបករណ៍	-7.71367
ack	-7.71379
mm	-7.71754
ខ្លួន	-7.72146
▁+	-7.72735
ឧ	-7.72836
ភាគ	-7.73116
ទាំងអស់	-7.73502
Q	-7.73799
ខ្សែ	-7.74187
គេ	-7.74408
អ្វី	-7.74759
ation	-7.74974
▁the	-7.75576
ជន	-7.76245
40	-7.76403
ធាតុ	-7.76454
ឌី	-7.77238
60	-7.77282
ផ្តល់	-7.7778
[	-7.77808
ម៉ូ	-7.78606
កម្មវិធី	-7.78686
ដៃ	-7.78838
លក់	-7.79987
23	-7.8008
បញ្ចូល	-7.80128
បំ	-7.80611
រចនា	-7.80812
៖	-7.80882
ុន	-7.80974
ចម្	-7.81153
ion	-7.81164
ow	-7.81318
រូបភាព	-7.81365
ពណ៌	-7.81404
បើក	-7.81601
អេ	-7.82069
ដ្ឋាន	-7.82272
ជាង	-7.82812
ក់	-7.82979
បទ	-7.83472
ស៊	-7.83516
ha	-7.8379
កាត់	-7.83909
កាន់	-7.84857
រោងចក្រ	-7.85235
▁Ma	-7.85596
Z	-7.86073
គឺជា	-7.86854
ទទួល	-7.87246
៨	-7.8765
80	-7.88066
▁2019	-7.88177
មី	-7.88248
រដ្ឋ	-7.88727
ចុះ	-7.8892
ចុច	-7.89018
ដូច	-7.90086
សង្	-7.90297
ញ្ច	-7.90312
សន្	-7.91395
បន្	-7.91419
គ្មាន	-7.91512
ex	-7.91545
រ៉ា	-7.91682
វី	-7.92432
នាក់	-7.92475
ត្រូវ	-7.92568
ដែក	-7.92819
ៗ	-7.92843
ពេញ	-7.92921
ហ្គ	-7.93932
▁ជ្រើស	-7.93966
ជំ	-7.94084
៩	-7.94221
ត្តិ	-7.95966
នៃការ	-7.96118
៤	-7.96119
ទាញយក	-7.96119
នោះ	-7.96148
គុណ	-7.96185
▁ដង	-7.96475
ចាប់	-7.96631
ឆ	-7.96669
▁100	-7.96706
▁In	-7.9739
ល្អ	-7.97441
កំពុង	-7.97468
ញ្ញ	-7.97526
ឿ	-7.98875
ឌ	-7.9894
វេ	-7.98964
សិទ្ធិ	-7.98986
កម្ពុជា	-7.9941
01	-7.99456
តំបន់	-7.99776
▁តើ	-7.99798
22	-8.00048
ណ៍	-8.0038
▁ឲ្យ	-8.00399
ភ្ជាប់	-8.00687
ឬ	-8.00704
ប្រតិបត្តិការ	-8.01367
26	-8.01883
មុខ	-8.02094
ចិន	-8.02173
Comment	-8.02179
▁ស្លាក	-8.02468
ម៉ោង	-8.03412
99	-8.03498
បរិ	-8.04551
សម្រ	-8.0459
ពិនិត្យ	-8.04742
▁of	-8.04853
ស្ថាន	-8.05014
ក្រោម	-8.05115
▁ថត	-8.05712
គ្រប់គ្រង	-8.05884
និយាយ	-8.05967
ឃើញ	-8.06007
▁200	-8.06554
ផ្គត់ផ្គង់	-8.06604
ន្ទ	-8.07386
កំណត់	-8.07443
”	-8.07789
ឃ	-8.07852
តាំង	-8.0867
ver	-8.08969
ដែលបាន	-8.096
គាំទ្រ	-8.09668
ពាក្យ	-8.09668
និងការ	-8.09735
ចិត្ត	-8.09839
៦	-8.09945
▁iPhone	-8.10202
បញ្ជា	-8.1044
ផ្ទាល់	-8.10545
28	-8.10567
នូវ	-8.10575
បំផុត	-8.11114
21	-8.11463
ជាមួយនឹង	-8.11537
City	-8.11771
ធំ	-8.11893
all	-8.12263
ផ្ទះ	-8.12743
ការងារ	-8.12939
្លា	-8.13118
ពិសេស	-8.1349
▁បើ	-8.13916
▁2017	-8.1392
ជំនួយ	-8.13978
ដំណើរការ	-8.14071
កិច្ច	-8.15164
▁Re	-8.15521
សម្ព័ន្ធ	-8.15728
27	-8.15804
ហើយ	-8.15815
បិទ	-8.16827
90	-8.17083
»	-8.17119
វិទ្យា	-8.17764
ឧបករណ៍	-8.1812
បោះពុម្ព	-8.18134
ill	-8.18147
ect	-8.18376
ណ្ឌ	-8.19969
ជម្រើស	-8.20101
ពួកគេ	-8.20114
ទទួលបាន	-8.20901
“	-8.2177
អត្ថបទ	-8.21818
សញ្ញា	-8.21848
ជើង	-8.219
age	-8.21994
act	-8.22449
គាត់	-8.23264
(	-8.23321
អង្គ	-8.23394
ឹម	-8.23633
•	-8.24204
៧	-8.24278
រូប	-8.244
ប្រើប្រាស់	-8.24452
ដ៏	-8.24674
មនុស្ស	-8.24996
ជូន	-8.25276
▁info	-8.25337
បំពង់	-8.25845
លេង	-8.26005
ក្រោយ	-8.26025
សេវា	-8.2634
បញ្ជី	-8.26472
ជ្រ	-8.27817
របស់យើង	-8.28002
បណ្	-8.28268
អក្សរ	-8.28458
កូដ	-8.2857
ទំនាក់ទំនង	-8.30012
/?	-8.30268
៏	-8.30377
ហេតុ	-8.30746
មូល	-8.31019
▁for	-8.31067
ផ្ទៃ	-8.31833
qu	-8.32415
ដូចជា	-8.32545
វ៉ា	-8.33144
លក្ខណៈ	-8.33169
ឹ	-8.33355
រយៈពេល	-8.34743
ប្ដូរ	-8.35321
ក្រុង	-8.35493
ive	-8.35613
ាញ់	-8.35617
ប្រទេសចិន	-8.35833
ក្រណាត់	-8.36013
កន្លែង	-8.36178
ក្ល	-8.368
ទិន្នន័យ	-8.37464
J	-8.38306
ពួក	-8.38558
របៀប	-8.38681
រ៉ូ	-8.38974
គ្រឿង	-8.39858
រថយន្ត	-8.41864
បច្ចុប្បន្ន	-8.42306
សាកលវិទ្យាល័យ	-8.42365
ថ្ងៃទី	-8.42718
រង្វាន់	-8.42958
ផ្សាយ	-8.43038
ដំបូង	-8.44274
ដំណើរ	-8.44298
កម្រិត	-8.44455
ប៉ុន្តែ	-8.44636
គួរ	-8.4482
ទិញ	-8.4513
ពេលវេលា	-8.4573
www	-8.46285
អនុញ្ញាត	-8.46744
£	-8.46898
ight	-8.46902
ថ្នាំ	-8.47986
ខ្មែរ	-8.48425
សុខ	-8.48695
បណ្តាញ	-8.49055
ថ្លៃ	-8.49688
▁name	-8.49754
ជំនួស	-8.50615
បញ្ចប់	-8.51746
▁+0000	-8.52298
▁Ltd	-8.52473
សិក្សា	-8.52821
មូលដ្ឋាន	-8.53133
យន្តហោះ	-8.5354
1%9	-8.53665
លំនាំ	-8.53909
ពាណិជ្ជកម្ម	-8.54075
អនុ	-8.5437
ធនាគារ	-8.54612
អាមេរិក	-8.54742
សាស្ត្រ	-8.54947
ដូច្នេះ	-8.55719
តូច	-8.56065
ឡើងវិញ	-8.5653
ធម្មតា	-8.56871
ចុងក្រោយ	-8.57077
ប្រសិនបើ	-8.57337
គេហទំព័រ	-8.5735
#	-8.57405
បន្ទាត់	-8.57523
ល្អបំផុត	-8.57577
▁Cambodia	-8.57694
ដុល្លារ	-8.57728
ភ្ល	-8.57981
ថាមពល	-8.58177
បញ្ជាក់	-8.58417
កាស៊ីណូ	-8.58907
ថ្នាក់	-8.59013
ការពារ	-8.59397
សៀវភៅ	-8.59782
សេវាកម្ម	-8.59986
សាស្រ្ត	-8.60099
ចាប់ផ្តើម	-8.60241
ម៉ែត្រ	-8.60523
ពន្លឺ	-8.60594
អនុវត្ត	-8.61056
វីដេអូ	-8.61092
ស្វែងរក	-8.6127
តាមរយៈ	-8.61629
ឋ	-8.61915
©	-8.61951
ដោយឥតគិតថ្លៃ	-8.62094
ផ្សេងទៀត	-8.62311
▁KDE	-8.62349
បម្រើ	-8.62527
សរសេរ	-8.63035
▁ផ្លាស់	-8.63072
ប័ណ្ណ	-8.63289
អតិថិជន	-8.63874
រៀបចំ	-8.6402
គម្រោង	-8.64905
ល្បឿន	-8.6576
0,0	-8.66297
ផ្ញើ	-8.67078
រៀន	-8.67629
តម្រូវ	-8.68102
▁ដំណឹង	-8.68485
ទាក់ទង	-8.68677
ប្រធាន	-8.69032
យោបល់	-8.69604
សម្ភារៈ	-8.70932
បណ្ដាញ	-8.71247
ម្ចាស់	-8.71409
បច្ចេកវិទ្យា	-8.71959
សមត្ថភាព	-8.73238
ឆ្លើយតប	-8.73319
ពិភពលោក	-8.7344
ម៉ូតូ	-8.73691
បន្ទប់	-8.73928
ស្បែក	-8.73945
«	-8.74046
កុំព្យូទ័រ	-8.74046
អាហារ	-8.74725
រឿង	-8.75633
ភ្នំ	-8.76136
គណនី	-8.76136
ត្រឹមត្រូវ	-8.76468
ចំណុច	-8.77227
ចំពោះ	-8.77597
ភ្លើង	-8.78017
ប្រចាំ	-8.78112
ខ្លាំង	-8.78398
សរុប	-8.7891
សំឡេង	-8.79249
ផ្លាស់ប្តូរ	-8.79335
សេចក្តី	-8.80453
ផ្សព្វផ្សាយ	-8.80626
ប្រកាស	-8.80736
សំខាន់	-8.80756
▁Android	-8.81715
សិទ្ធ	-8.82159
ពន្ធ	-8.83566
ខ្មៅ	-8.83973
កំពូល	-8.84198
ព្រឹត្តិការណ៍	-8.84693
0.0	-8.8471
ឧស្សាហកម្ម	-8.84828
ខេត្ត	-8.85146
ដំឡើង	-8.85331
បញ្ហា	-8.8569
▁Windows	-8.8569
កំណែ	-8.85829
▁Forex	-8.86102
▁Capacitor	-8.86147
គំរូ	-8.87809
ករណី	-8.88229
អាចរកបាន	-8.88322
សត្វ	-8.88525
ផងដែរ	-8.89925
ស៊េរី	-8.90403
សុវត្ថិភាព	-8.91797
ស្វ័យប្រវត្តិ	-8.92234
ជំនាញ	-8.92527
€	-8.92673
+	-8.93599
brag	-8.93614
▁រូបថត	-8.93658
បំណង	-8.9366
វិច្ឆិកា	-8.94001
ឡើយ	-8.94802
សំណួរ	-8.95246
ច្បាប់	-8.95497
៌	-8.95597
ងាយស្រួល	-8.95648
រន្ធ	-8.95901
q	-8.95956
cambodia	-8.96053
អេក្រង់	-8.96103
សំរាប់	-8.96362
អង់គ្លេស	-8.96508
▁you	-8.96984
~	-8.97272
មជ្ឈមណ្ឌល	-8.97477
▁ប្រសិន	-8.97502
\	-8.9758
បុរស	-8.98344
°	-8.98508
លទ្ធផល	-8.98767
រហូតដល់	-9.00179
អតិបរមា	-9.00443
បន្ទះ	-9.00446
ប្លាស្ទិច	-9.00919
ដឹកនាំ	-9.01079
ដឹកជញ្ជូន	-9.01132
▁ល្ងាច	-9.01826
សម្ងាត់	-9.01933
▁លេខយោង	-9.0204
តម្រង	-9.02647
ត្រួតពិនិត្យ	-9.02686
ជីវិត	-9.02956
អារម្មណ៍	-9.03119
បន្ថយ	-9.03338
ឱ	-9.0361
▁Bitcoin	-9.04045
សម្គាល់	-9.0465
រថភ្លើង	-9.04706
ជំងឺ	-9.05258
▁ចាប់ផ្ដើម	-9.05535
▁Smart	-9.05813
កំដៅ	-9.06149
តំណាង	-9.0654
ស្គាល់	-9.06877
ផ្សេងៗ	-9.0841
built	-9.09619
អភិវឌ្ឍន៍	-9.10374
សប្តាហ៍	-9.11193
ណែនាំ	-9.13635
កាលបរិច្ឆេទ	-9.14117
▁Samsung	-9.14785
ប្រឆាំង	-9.14787
អគ្គិសនី	-9.14969
▁Google	-9.1503
កុមារ	-9.15092
▁polyester	-9.15889
Khmer	-9.16012
រុករក	-9.16198
▁ultrasonic	-9.16259
បង្កើន	-9.16569
សំបុត្រ	-9.16631
ឈ្នះ	-9.16755
សាកល្បង	-9.1807
អ៊ីម៉ែល	-9.18133
ប្រសើរ	-9.18323
ព្យាបាល	-9.18701
កណ្តាល	-9.19977
អាជីវកម្ម	-9.20428
ទិដ្ឋភាព	-9.21596
គំនិត	-9.22382
អន្តរជាតិ	-9.23772
ចល័ត	-9.23773
សេចក្ដី	-9.25657
$	-9.2607
×	-9.26271
ក្រសួង	-9.26271
វត្ថុ	-9.26408
ជូនដំណឹង	-9.26613
ជ្រើសរើស	-9.27371
បច្ចេកទេស	-9.27648
’	-9.33648
—	-9.45183
ឲ	-9.46415
}	-9.48372
{	-9.7192
丨	-9.72028
а	-9.77582
	-9.82378
·	-9.85296
→	-9.87668
é	-9.89196
±	-10.1429
★	-10.185
к	-10.2768
р	-10.2787
′	-10.2844
®	-10.3552
ü	-10.3696
н	-10.3926
≤	-10.4032
ç	-10.4183
ö	-10.4492
ឪ	-10.4604
ä	-10.4833
ñ	-10.4857
с	-10.5406
и	-10.5604
中	-10.5629
о	-10.5781
←	-10.6118
ឍ	-10.625
е	-10.6385
文	-10.6687
ı	-10.7173
т	-10.7261
ឫ	-10.7591
`	-10.7652
ឮ	-10.7745
●	-10.8157
≥	-10.879
Φ	-10.9996
♪	-11.0272
–	-11.0841
å	-11.1104
✔	-11.1147
	-11.1235
á	-11.1502
៛	-11.2059
л	-11.2252
ь	-11.2349
ا	-11.2649
‘	-11.2957
›	-11.3115
繁	-11.3115
я	-11.3168
у	-11.3549
μ	-11.366
體	-11.366
в	-11.406
ệ	-11.406
í	-11.4296
У	-11.4477
【	-11.4477
‧	-11.4538
】	-11.4538
