<unk>	0
<s>	0
</s>	0
<0x00>	0
<0x01>	0
<0x02>	0
<0x03>	0
<0x04>	0
<0x05>	0
<0x06>	0
<0x07>	0
<0x08>	0
<0x09>	0
<0x0A>	0
<0x0B>	0
<0x0C>	0
<0x0D>	0
<0x0E>	0
<0x0F>	0
<0x10>	0
<0x11>	0
<0x12>	0
<0x13>	0
<0x14>	0
<0x15>	0
<0x16>	0
<0x17>	0
<0x18>	0
<0x19>	0
<0x1A>	0
<0x1B>	0
<0x1C>	0
<0x1D>	0
<0x1E>	0
<0x1F>	0
<0x20>	0
<0x21>	0
<0x22>	0
<0x23>	0
<0x24>	0
<0x25>	0
<0x26>	0
<0x27>	0
<0x28>	0
<0x29>	0
<0x2A>	0
<0x2B>	0
<0x2C>	0
<0x2D>	0
<0x2E>	0
<0x2F>	0
<0x30>	0
<0x31>	0
<0x32>	0
<0x33>	0
<0x34>	0
<0x35>	0
<0x36>	0
<0x37>	0
<0x38>	0
<0x39>	0
<0x3A>	0
<0x3B>	0
<0x3C>	0
<0x3D>	0
<0x3E>	0
<0x3F>	0
<0x40>	0
<0x41>	0
<0x42>	0
<0x43>	0
<0x44>	0
<0x45>	0
<0x46>	0
<0x47>	0
<0x48>	0
<0x49>	0
<0x4A>	0
<0x4B>	0
<0x4C>	0
<0x4D>	0
<0x4E>	0
<0x4F>	0
<0x50>	0
<0x51>	0
<0x52>	0
<0x53>	0
<0x54>	0
<0x55>	0
<0x56>	0
<0x57>	0
<0x58>	0
<0x59>	0
<0x5A>	0
<0x5B>	0
<0x5C>	0
<0x5D>	0
<0x5E>	0
<0x5F>	0
<0x60>	0
<0x61>	0
<0x62>	0
<0x63>	0
<0x64>	0
<0x65>	0
<0x66>	0
<0x67>	0
<0x68>	0
<0x69>	0
<0x6A>	0
<0x6B>	0
<0x6C>	0
<0x6D>	0
<0x6E>	0
<0x6F>	0
<0x70>	0
<0x71>	0
<0x72>	0
<0x73>	0
<0x74>	0
<0x75>	0
<0x76>	0
<0x77>	0
<0x78>	0
<0x79>	0
<0x7A>	0
<0x7B>	0
<0x7C>	0
<0x7D>	0
<0x7E>	0
<0x7F>	0
<0x80>	0
<0x81>	0
<0x82>	0
<0x83>	0
<0x84>	0
<0x85>	0
<0x86>	0
<0x87>	0
<0x88>	0
<0x89>	0
<0x8A>	0
<0x8B>	0
<0x8C>	0
<0x8D>	0
<0x8E>	0
<0x8F>	0
<0x90>	0
<0x91>	0
<0x92>	0
<0x93>	0
<0x94>	0
<0x95>	0
<0x96>	0
<0x97>	0
<0x98>	0
<0x99>	0
<0x9A>	0
<0x9B>	0
<0x9C>	0
<0x9D>	0
<0x9E>	0
<0x9F>	0
<0xA0>	0
<0xA1>	0
<0xA2>	0
<0xA3>	0
<0xA4>	0
<0xA5>	0
<0xA6>	0
<0xA7>	0
<0xA8>	0
<0xA9>	0
<0xAA>	0
<0xAB>	0
<0xAC>	0
<0xAD>	0
<0xAE>	0
<0xAF>	0
<0xB0>	0
<0xB1>	0
<0xB2>	0
<0xB3>	0
<0xB4>	0
<0xB5>	0
<0xB6>	0
<0xB7>	0
<0xB8>	0
<0xB9>	0
<0xBA>	0
<0xBB>	0
<0xBC>	0
<0xBD>	0
<0xBE>	0
<0xBF>	0
<0xC0>	0
<0xC1>	0
<0xC2>	0
<0xC3>	0
<0xC4>	0
<0xC5>	0
<0xC6>	0
<0xC7>	0
<0xC8>	0
<0xC9>	0
<0xCA>	0
<0xCB>	0
<0xCC>	0
<0xCD>	0
<0xCE>	0
<0xCF>	0
<0xD0>	0
<0xD1>	0
<0xD2>	0
<0xD3>	0
<0xD4>	0
<0xD5>	0
<0xD6>	0
<0xD7>	0
<0xD8>	0
<0xD9>	0
<0xDA>	0
<0xDB>	0
<0xDC>	0
<0xDD>	0
<0xDE>	0
<0xDF>	0
<0xE0>	0
<0xE1>	0
<0xE2>	0
<0xE3>	0
<0xE4>	0
<0xE5>	0
<0xE6>	0
<0xE7>	0
<0xE8>	0
<0xE9>	0
<0xEA>	0
<0xEB>	0
<0xEC>	0
<0xED>	0
<0xEE>	0
<0xEF>	0
<0xF0>	0
<0xF1>	0
<0xF2>	0
<0xF3>	0
<0xF4>	0
<0xF5>	0
<0xF6>	0
<0xF7>	0
<0xF8>	0
<0xF9>	0
<0xFA>	0
<0xFB>	0
<0xFC>	0
<0xFD>	0
<0xFE>	0
<0xFF>	0
▁କ	-0
▁ପ	-1
▁ସ	-2
୍ତ	-3
▁ବ	-4
ରେ	-5
▁ମ	-6
ହି	-7
ାର	-8
▁ଏ	-9
ନ୍ତ	-10
▁ଆ	-11
୍ର	-12
ଙ୍	-13
▁ହ	-14
▁ନ	-15
୍ୟ	-16
▁‹	-17
କୁ	-18
ିବ	-19
▁ତ	-20
▁କର	-21
▁ଦ	-22
▁ଅ	-23
ଲା	-24
ାଇ	-25
ଲେ	-26
▁କି	-27
▁।	-28
ର୍	-29
ାନ	-30
ଙ୍କ	-31
ଛି	-32
▁ସେ	-33
▁ଯ	-34
ହା	-35
ନ୍ତୁ	-36
ିକ	-37
▁1	-38
▁ର	-39
▁!	-40
▁ହେ	-41
▁ବି	-42
▁ଭ	-43
▁ଚ	-44
ିବା	-45
▁କହି	-46
ମ୍	-47
ିତ	-48
ବେ	-49
st	-50
▁ଗ	-51
▁ପ୍ର	-52
ାହି	-53
ନ୍ତି	-54
ିନ	-55
▁ଜ	-56
ାହିଁ	-57
ti	-58
ଥି	-59
ାତ	-60
ାମ	-61
▁କେ	-62
▁ଶ	-63
▁ତା	-64
ଥା	-65
ଲି	-66
▁m	-67
ଟି	-68
କ୍	-69
ye	-70
▁ଉ	-71
ଡ଼	-72
▁ପାଇ	-73
ରି	-74
▁?	-75
▁(	-76
ବା	-77
ସ୍	-78
ରୁ	-79
ନ୍	-80
ମାନ	-81
in	-82
▁ଦେ	-83
▁କରି	-84
ଲୋ	-85
▁I	-86
▁ଓ	-87
on	-88
ଙ୍କୁ	-89
▁କହିଲେ	-90
me	-91
୍ୱ	-92
..	-93
▁କିନ୍ତୁ	-94
ଣ୍	-95
ନା	-96
ଷ୍	-97
ସି	-98
▁ମୁ	-99
▁ବା	-100
▁ନାହିଁ	-101
▁ନି	-102
▁ଫ	-103
ାରେ	-104
▁ଘ	-105
▁ଏହା	-106
▁ଏହି	-107
▁ପାଇଁ	-108
ୋଇ	-109
ଞ୍	-110
ଛନ୍ତି	-111
le	-112
୍ୟା	-113
▁h	-114
ଡି	-115
ହାର	-116
▁ମୋ	-117
ତେ	-118
▁ହେଲା	-119
ra	-120
▁“	-121
♪♪	-122
▁ଖ	-123
▁ପା	-124
▁ହୋଇ	-125
ହେ	-126
▁ଟ	-127
କି	-128
▁ଆପ	-129
ତି	-130
CG	-131
ସ୍ତ	-132
ଙ୍ଗ	-133
▁କରୁ	-134
▁ସମ	-135
ଦ୍	-136
ଧ୍ୟ	-137
iti	-138
▁S	-139
▁ଆପଣ	-140
ଣି	-141
କ୍ଷ	-142
▁IS	-143
▁B	-144
ଥିବା	-145
ut	-146
ଦି	-147
ଦେ	-148
▁ye	-149
▁hu	-150
miti	-151
▁huye	-152
▁yemiti	-153
▁ଚା	-154
ame	-155
ମା	-156
ତା	-157
ଛା	-158
▁ଭା	-159
ଇସ	-160
▁i	-161
ww	-162
ମ୍ଭ	-163
ମେ	-164
ାର୍	-165
ଦିନ	-166
▁ପଇସ	-167
▁ତୁ	-168
▁୧	-169
ou	-170
▁ଯା	-171
▁ମଧ୍ୟ	-172
...	-173
▁ଯେ	-174
▁ମୁଁ	-175
▁-	-176
re	-177
▁ପି	-178
cle	-179
କା	-180
ର୍ଷ	-181
ଞ୍ଚ	-182
ହୁ	-183
▁ଅନ	-184
▁ଡ	-185
କାର	-186
ଡ଼ି	-187
ଳେ	-188
▁ପୁ	-189
ଦ୍ଧ	-190
▁ବେ	-191
ବୁ	-192
Name	-193
▁mi	-194
▁ସେଦିନ	-195
ing	-196
▁But	-197
racle	-198
▁miracle	-199
▁ଚି	-200
କ୍ତ	-201
▁ମି	-202
▁.	-203
ୂର୍	-204
an	-205
ମି	-206
▁ସ୍	-207
ବଂ	-208
ାଜ	-209
ଥିଲେ	-210
at	-211
ପରେ	-212
▁A	-213
ଗୁ	-214
▁କରନ୍ତୁ	-215
tion	-216
▁ଏବଂ	-217
▁"	-218
ଟର	-219
er	-220
ଳି	-221
ରରେ	-222
▁ମା	-223
ତ୍ତ	-224
ବି	-225
▁କରିବା	-226
▁ବ୍ୟ	-227
ଯ୍ୟ	-228
▁t	-229
▁ହାତ	-230
ଜି	-231
▁ସଂ	-232
ୋଗ	-233
ଥିଲା	-234
▁ନା	-235
▁କୁ	-236
ିବେ	-237
▁କା	-238
▁ଆଉ	-239
ଲ୍	-240
ମାନେ	-241
ଣ୍ଡ	-242
▁ଲୋ	-243
▁ଏକ	-244
ଥାଏ	-245
▁2	-246
▁ପର	-247
ଶ୍	-248
▁କରୁଛି	-249
▁ବର୍ଷ	-250
▁କଥା	-251
▁ଧ	-252
▁ଆସ	-253
mo	-254
▁ସା	-255
▁ମହି	-256
▁ତେ	-257
▁ମହିଳ	-258
▁ଲ	-259
▁s	-260
▁ପଇସା	-261
ାରୁ	-262
▁ରେ	-263
▁ନୁ	-264
ଷ୍ଟ	-265
ଙ୍କର	-266
or	-267
▁mẹ	-268
▁ପୂର୍	-269
କର	-270
▁୨	-271
▁ଲୋକ	-272
ch	-273
▁କଣ	-274
୍ରେ	-275
king	-276
ତ୍	-277
ାଯ	-278
▁କିଛି	-279
ନି	-280
▁ହାତୀ	-281
ar	-282
▁ଜା	-283
moking	-284
ିତି	-285
▁କେବେ	-286
▁ଦୁ	-287
▁Smoking	-288
ରା	-289
୍ତ୍ତ	-290
▁ଅଛି	-291
▁ପୂର୍ବ	-292
▁ସୁ	-293
▁ଦେଖ	-294
୍ରା	-295
ଣା	-296
୍ରୀ	-297
ପା	-298
▁ଅଧ	-299
▁ଆମ	-300
▁କାହିଁ	-301
ହେଁ	-302
▁l	-303
ାରି	-304
▁n	-305
▁କହିଲା	-306
▁ଇ	-307
ବର	-308
ନ୍ଦ	-309
▁ରହି	-310
▁f	-311
▁ଏବେ	-312
▁ବ୍ୟବ	-313
▁କ୍	-314
ୀର	-315
▁ଗୋ	-316
ିକା	-317
▁କାହିଁକି	-318
ପି	-319
▁ସବୁ	-320
▁ନେ	-321
♪♪♪♪	-322
▁ବେଳେ	-323
nd	-324
om	-325
▁ନୁହେଁ	-326
▁ସ୍ୱ	-327
▁ହେବ	-328
▁4	-329
▁ଆଃ	-330
ଦା	-331
ଟେ	-332
▁T	-333
nt	-334
▁ଯଦି	-335
ic	-336
▁a	-337
▁C	-338
ପ୍ର	-339
ୀୟ	-340
ଦେଶ	-341
ve	-342
ଷୟ	-343
▁ଉପ	-344
▁କେତେ	-345
ାରଣ	-346
▁ଥିବା	-347
ଚନା	-348
ମିତି	-349
ପାର	-350
ୃତ	-351
▁ଛା	-352
▁କାର୍	-353
▁ପୂର୍ବରୁ	-354
▁ତେବେ	-355
▁ବିଷୟ	-356
he	-357
ମିଟର	-358
▁କିଲୋ	-359
wwww	-360
▁ରାଜ	-361
▁N	-362
କ୍ସ	-363
▁ହେଲେ	-364
▁ପରି	-365
▁is	-366
▁ବ୍ୟବହାର	-367
▁ପିଛା	-368
▁p	-369
ାୟ	-370
▁:	-371
▁କିଲୋମିଟର	-372
▁,	-373
▁‘	-374
ଉଁ	-375
▁ଅନୁ	-376
▁0	-377
▁ହଁ	-378
ction	-379
▁b	-380
▁ସମ୍	-381
▁ଡି	-382
ଞ୍ଚି	-383
▁ବୃ	-384
ଠି	-385
ଟା	-386
ଚ୍	-387
ର୍ତ୍ତ	-388
▁କରାଯ	-389
▁3	-390
▁ଅଧିକ	-391
ପରି	-392
ହନ୍ତି	-393
▁M	-394
▁କ୍ଷ	-395
▁ଯାଇ	-396
▁ପରେ	-397
▁ଆସି	-398
▁ପ୍ରତି	-399
▁କୋ	-400
▁ଲା	-401
ରଣ	-402
▁ଏଥି	-403
▁ଦି	-404
ଡ଼ା	-405
ଦ୍ଧି	-406
ଶୁ	-407
▁(_	-408
▁c	-409
ଭା	-410
▁ଜଣ	-411
▁ପହ	-412
al	-413
▁ଦିନ	-414
▁ବିଶ	-415
ାମାନ	-416
▁ସହ	-417
▁ବିଜ	-418
ୋଲି	-419
▁ଚିନ୍ତ	-420
▁ପାଖ	-421
▁ସମସ୍ତ	-422
▁୩	-423
▁ତାଙ୍କ	-424
▁ଠ	-425
:1	-426
▁ତାହା	-427
▁P	-428
▁ଏହାର	-429
▁ମାନ	-430
ାରା	-431
ତ୍ର	-432
ହିତ	-433
▁ନୂ	-434
ଟିଏ	-435
▁ଘର	-436
▁ତାଙ୍କୁ	-437
▁ବୃଦ୍ଧି	-438
▁no	-439
ନାହିଁ	-440
di	-441
ଷ୍ଠ	-442
▁କହନ୍ତି	-443
ଯା	-444
▁ଭାଷ	-445
ବନ	-446
କ୍ତି	-447
▁ଦେଇ	-448
▁ନିର୍	-449
ଶା	-450
ଧାନ	-451
▁ପହଞ୍ଚି	-452
▁%	-453
ଉଛି	-454
ୋଧ	-455
▁କାର୍ଯ୍ୟ	-456
of	-457
▁ଛ	-458
ସ୍ଥ	-459
es	-460
▁ଗ୍ର	-461
ଏହା	-462
▁ଉତ୍ତ	-463
▁ଏହାପରେ	-464
ୁର	-465
▁ସମୟ	-466
▁ଜାଣ	-467
ri	-468
▁_	-469
▁ଦୁଇ	-470
▁ମହିଳା	-471
▁W	-472
▁ଗୁ	-473
▁ଏଥିରେ	-474
▁ଟୋ	-475
▁କିଏ	-476
ment	-477
▁ତୁମ୍ଭ	-478
▁ଯୁ	-479
▁ବୁ	-480
atch	-481
▁O	-482
▁7	-483
ିନା	-484
କ୍ର	-485
▁ବସ୍	-486
▁ଖା	-487
▁9	-488
▁ପହଞ୍ଚିଛି	-489
ound	-490
▁ପାଇଛି	-491
▁ଟଙ୍କ	-492
▁ଚାଲି	-493
ାମାନଙ୍କ	-494
▁ପଇସାରେ	-495
▁ମନ	-496
ଟ୍	-497
ରକାର	-498
▁ଆସେ	-499
▁ଦରରେ	-500
ଲୁ	-501
ଚିତ	-502
ିବାର	-503
▁ଡା	-504
ru	-505
:16	-506
▁if	-507
▁ନିଜ	-508
it	-509
▁w	-510
▁04	-511
▁ସି	-512
ମୁ	-513
▁ମେ	-514
▁ଗୋଟିଏ	-515
▁ସହିତ	-516
ଜ୍	-517
▁–	-518
୍ୟୁ	-519
en	-520
▁in	-521
ଲେଖ	-522
▁ଯାହା	-523
▁Action	-524
▁match	-525
ାତି	-526
▁04:16	-527
▁found	-528
▁y	-529
▁ମହିଳାମାନଙ୍କ	-530
▁ଅବ	-531
▁ଚିନ୍ତାର	-532
▁ଥ	-533
▁୫	-534
▁୨୦	-535
▁ଟୋଡ଼ା	-536
▁D	-537
ଶ୍ୟ	-538
▁ବଢ	-539
▁you	-540
ାରତ	-541
ଳା	-542
▁ରା	-543
▁4.	-544
ହଁ	-545
ୋଲ	-546
ol	-547
▁K	-548
▁1.	-549
▁ଛାଡ	-550
ାମୀ	-551
▁ପଢ	-552
୍ପ	-553
ଭି	-554
୍ଯ	-555
▁♪♪♪♪	-556
▁ହୁ	-557
ିବାକୁ	-558
ବଳ	-559
▁'	-560
▁ଆର	-561
▁ମଞ୍	-562
▁ଉତ୍ତର	-563
ୟା	-564
ଯୋଗ	-565
▁the	-566
▁ଆମେ	-567
▁୧୯	-568
▁ଅନ୍ୟ	-569
▁E	-570
▁ଗ୍ରହ	-571
▁ଶୁ	-572
omment	-573
ରୀ	-574
▁ପର୍	-575
ମାନଙ୍କ	-576
▁କରାଯାଇ	-577
ିନି	-578
ଣୀ	-579
ଡ଼ିକ	-580
▁ଏତେ	-581
▁ପାଖରେ	-582
▁d	-583
▁L	-584
େଷ	-585
▁କଲେ	-586
▁ରଖ	-587
ାତ୍ର	-588
ଲୋଚନା	-589
୍ନ	-590
▁20	-591
▁ମଞ୍ଜି	-592
▁ମିଶ	-593
▁of	-594
▁ସେହି	-595
▁କେମିତି	-596
▁କାମ	-597
ସା	-598
▁@	-599
▁ସନ୍	-600
ad	-601
ୋଜ	-602
ୀନ	-603
ବରେ	-604
ଳ୍ପ	-605
se	-606
ର୍କ	-607
କେ	-608
▁ଭାରତ	-609
▁[	-610
▁ନାମ	-611
ୋଷ	-612
ପାରେ	-613
ପ୍ତ	-614
ମାନଙ୍କୁ	-615
▁R	-616
ିବି	-617
▁ମହା	-618
▁ଜୀ	-619
▁ଦା	-620
ିକ୍	-621
▁ସ୍ଥ	-622
▁କହୁ	-623
▁ଛାଡିବ	-624
▁ସତ	-625
▁ଘେ	-626
ove	-627
ଦ୍ୟ	-628
▁ଆଈ	-629
ଣ୍ଟ	-630
▁ଆଈକୁ	-631
▁ଯାଅ	-632
▁ଫେ	-633
ଣସି	-634
ଗୁଡ଼ିକ	-635
▁ଗ୍ରହଣ	-636
ସେ	-637
▁G	-638
▁ସୂ	-639
▁ଓଡ଼ି	-640
▁ଉପରେ	-641
▁ୟ	-642
▁”	-643
▁ବହୁ	-644
▁ହି	-645
ମାଣ	-646
▁।”	-647
▁ସରକାର	-648
▁Ne	-649
ାଳ	-650
ow	-651
▁ଆଜି	-652
▁କୌ	-653
ଗି	-654
ଣ୍ଣ	-655
▁ମୂ	-656
ବାକୁ	-657
▁re	-658
te	-659
ଥାନ୍ତି	-660
mp	-661
▁ଥିଲା	-662
▁ଏଲ	-663
ଭୁ	-664
▁କେଉଁ	-665
▁ତୁମ	-666
▁ଭି	-667
▁ଆରମ୍ଭ	-668
@@	-669
୧୮	-670
▁ତୁମେ	-671
▁ରୁ	-672
ୀତ	-673
ାଇଲ	-674
▁ବିଜେ	-675
ର୍ଶ	-676
ଲକ୍ସ	-677
୦୦	-678
▁love	-679
▁ହୋଇନାହିଁ	-680
ପଥ	-681
ଶ୍ୱ	-682
ଣୁ	-683
ତନ	-684
▁ଦେଖି	-685
ତିକ	-686
▁ଅସ	-687
▁ପଚ	-688
▁ଅପ	-689
ତ୍ତ୍ୱ	-690
▁to	-691
▁ଏଲିନା	-692
?”	-693
▁ଭିତ	-694
ଟରେ	-695
▁ଟଙ୍କା	-696
▁ସ୍ୱାମୀ	-697
▁sm	-698
▁ରହିଛି	-699
▁ଡିଲକ୍ସ	-700
and	-701
ଭଳି	-702
▁ସର୍	-703
▁ମୋତେ	-704
▁ନୂଆ	-705
▁ବୋଲି	-706
▁ଯୋଗ	-707
▁ସମ୍ପ	-708
▁କୌଣସି	-709
wwwwwwww	-710
▁ପୁଅ	-711
ruti	-712
▁smruti	-713
▁ଲେଖ	-714
▁କରିବାକୁ	-715
ନ୍ତ୍ର	-716
▁କିପରି	-717
▁ଜି	-718
▁ତାଙ୍କର	-719
▁ପୃ	-720
ଡ଼ିକୁ	-721
▁ଭାବରେ	-722
ge	-723
▁ଭାଷାତ	-724
▁ସମ୍ଭ	-725
▁ଭାଷାତତ୍ତ୍ୱ	-726
ଙ୍ଗି	-727
▁ପୁଣି	-728
▁H	-729
▁କେବଳ	-730
▁ଟି	-731
ପ୍	-732
▁ମହିଳାଙ୍କ	-733
ay	-734
ଞ୍ଜ	-735
el	-736
ବ୍	-737
ସ୍ୟ	-738
un	-739
▁8	-740
ଗ୍ର	-741
ଠାରୁ	-742
ct	-743
ତ୍ୟ	-744
ପୁର	-745
▁କାହା	-746
▁ନେଇ	-747
ଡେ	-748
ସର	-749
▁ହେଉଛି	-750
▁ଏହାକୁ	-751
ସ୍ଥା	-752
ାନ୍	-753
▁କାରଣ	-754
▁ସ୍ଥାନ	-755
▁ବାଟ	-756
▁ଭଲ	-757
▁5	-758
de	-759
▁ଆପଣଙ୍କ	-760
▁୪	-761
th	-762
▁4.4	-763
▁ଆବ	-764
ମ୍ପ	-765
ଗୁଡ଼ିକୁ	-766
ତୁ	-767
▁ଅଟେ	-768
▁ଯେଉଁ	-769
ର୍ଥ	-770
▁କରୁଛନ୍ତି	-771
00	-772
ଡା	-773
ଯାଇ	-774
....	-775
କ୍ଷା	-776
ଜା	-777
▁ମିଶାଇ	-778
▁କ୍ଷୀର	-779
▁F	-780
ିଆ	-781
▁ମହେ	-782
ିତା	-783
▁ସ୍ତ	-784
ିବୁ	-785
ପାରିବେ	-786
ବକ	-787
▁ମୋଦି	-788
▁ସନ୍ଦେଶ	-789
ସନ	-790
ବାଦ	-791
ro	-792
▁ପାର	-793
ାଇଁ	-794
▁ଶା	-795
il	-796
▁ପ୍ରଦ	-797
▁ହୋଇଥାଏ	-798
ଆର	-799
ବେଳେ	-800
▁ଶେଷ	-801
▁ସୂଚନା	-802
▁201	-803
▁ମହେଶ	-804
▁ବ୍ୟା	-805
▁କରିବେ	-806
ଶ୍ନ	-807
▁ଲକ୍ଷ	-808
ାରୀ	-809
▁ଫି	-810
▁ସମୟରେ	-811
ଗା	-812
▁÷	-813
▁ଜୀବନ	-814
େଇ	-815
CGX	-816
ହୁଁ	-817
▁ପ୍ରଶ୍ନ	-818
▁ଗା	-819
▁ୱ	-820
ଟୋ	-821
▁ମୋର	-822
▁କରିଛନ୍ତି	-823
▁ଫାଇଲ	-824
Comment	-825
ce	-826
▁ଫୋଲ	-827
ନ୍ଧ	-828
▁ଭୁ	-829
ss	-830
▁ରାତି	-831
▁ଦ୍ୱ	-832
▁ଜାଣି	-833
▁ଆସିଲା	-834
▁ଖାଦ୍ୟ	-835
ଶ୍ଚ	-836
ଝି	-837
▁ନିୟ	-838
▁ଥିଲେ	-839
▁ଏମିତି	-840
ଡିକ	-841
ୋଧନ	-842
କରଣ	-843
।”	-844
ୀମା	-845
▁ପକା	-846
।"	-847
▁ଖାଇ	-848
▁♪♪♪♪♪♪♪♪	-849
▁ଶି	-850
ଠା	-851
▁be	-852
▁ନୂତନ	-853
ହାନ୍ତି	-854
▁ପ୍ରେ	-855
ଡର	-856
ଚ୍ଚ	-857
ଶ୍ୟକ	-858
ation	-859
19	-860
ଗତ	-861
▁Name	-862
vi	-863
ଗଲା	-864
▁ଜାଣନ୍ତୁ	-865
▁ଘଟ	-866
▁ପଛ	-867
ଅଛି	-868
▁ଘେରରେ	-869
ମ୍ବା	-870
ha	-871
▁ପକାନ୍ତୁ	-872
୍ରୁ	-873
▁ଆବଶ୍ୟକ	-874
▁ବିଶୋଧନ	-875
ବାର	-876
op	-877
▁ତଳି	-878
ପାରିବ	-879
ସ୍ତୁ	-880
▁ମଞ୍ଜିରେ	-881
▁ସାମ	-882
▁୧୦	-883
▁ମଧ୍ୟରେ	-884
▁ବିଜେପି	-885
▁ଲୋକେ	-886
ର୍ତ୍ତି	-887
ନୀ	-888
▁ପିଲା	-889
▁ମୃତ	-890
▁ତାକୁ	-891
ାକ	-892
ୋର୍	-893
୍ୟାଲେ	-894
ak	-895
ଯାଏ	-896
ପାଦ	-897
▁ଅଭ	-898
ws	-899
▁ଲି	-900
▁ଚିହ	-901
▁ହୁଏ	-902
କାରୀ	-903
କ୍ରମ	-904
▁ବହୁତ	-905
▁ନବ	-906
▁୨୦୧	-907
▁ଚାହୁଁ	-908
▁ଭିତରେ	-909
fo	-910
ub	-911
ଚାର	-912
ଶ୍ୱର	-913
ଣେ	-914
is	-915
▁ଏକା	-916
▁ପ୍ରଥ	-917
ଛୁ	-918
▁ହେବା	-919
):	-920
▁ଦୃ	-921
▁ଏସି	-922
▁ଜଣେ	-923
▁ତୋ	-924
▁ଦିଅ	-925
▁ପରିବ	-926
▁ସେମାନେ	-927
ନ୍ଦ୍ର	-928
▁ବାହାର	-929
ହେଲେ	-930
▁ସାଧ	-931
21	-932
▁ଢ	-933
▁ଥାଏ	-934
ତ୍ୟା	-935
ସୀ	-936
ଲିକ	-937
ଜାର	-938
ର୍ଯ୍ୟ	-939
▁ଆଗ	-940
▁ଋ	-941
us	-942
ମୂ	-943
ଯୁ	-944
ଚି	-945
▁କରିଥିଲେ	-946
▁ଶପଥ	-947
▁ବନ୍ଦ	-948
▁ତୁମ୍ଭେ	-949
et	-950
▁ଆଲୋଚନା	-951
ଳୀ	-952
୍ମ	-953
ଶି	-954
ଜ୍ଞ	-955
ଦ୍ର	-956
ck	-957
▁କିମ୍ବା	-958
ସ୍କ	-959
ିୟ	-960
▁୬	-961
▁ଭାଇ	-962
▁name	-963
ଫଳ	-964
୍ଞ	-965
lo	-966
ବେଦ	-967
କ୍ଟର	-968
ab	-969
ମୁଁ	-970
▁and	-971
▁ହଉ	-972
ଗୁଡିକ	-973
କାଶ	-974
▁ରାଜ୍ୟ	-975
▁ହୋଇଛି	-976
ଭାଗ	-977
ପ୍ରେ	-978
▁କେହି	-979
▁ଫୋଲଡର	-980
େକ	-981
ate	-982
▁ଦେବ	-983
ର୍ମ	-984
▁ଦେଇଛନ୍ତି	-985
▁News	-986
▁ପଚାରି	-987
ୁଛି	-988
▁ତମେ	-989
୍ୟାସ	-990
▁ହେଇ	-991
ଳନ	-992
ମ୍ବ	-993
▁ତେଣୁ	-994
▁ଓଡ଼ିଆ	-995
ମୋ	-996
ପଟେ	-997
▁ବୟ	-998
ind	-999
ସଂ	-1000
ଲିକା	-1001
ସରୁ	-1002
▁୯	-1003
ନ୍ତ୍ରୀ	-1004
▁ନିର୍ବା	-1005
ort	-1006
ିକି	-1007
▁ପର୍ଯ୍ୟ	-1008
୍ରି	-1009
▁କହିଛନ୍ତି	-1010
ଲୀ	-1011
ମାର	-1012
ଦ୍ରା	-1013
▁ଏକ୍ସ	-1014
ଡ୍	-1015
▁/	-1016
▁୭	-1017
ିନ୍	-1018
▁ଫଳ	-1019
▁ବଦ	-1020
▁ଜଣକ	-1021
▁ହେଉ	-1022
▁ଚିଠି	-1023
▁U	-1024
ରମ	-1025
▁ଶର	-1026
ଠାରେ	-1027
ପୁ	-1028
ୀଶୁ	-1029
▁ପଢନ୍ତୁ	-1030
ରାଜ	-1031
▁ପରିବର୍ତ୍ତ	-1032
ous	-1033
▁ସତରେ	-1034
ନେ	-1035
ରକ୍ଷ	-1036
ly	-1037
▁ପୃଷ୍ଠ	-1038
▁wwwwwwww	-1039
କାଳ	-1040
▁ଏସ	-1041
କିଙ୍ଗ	-1042
▁th	-1043
▁ବିଶ୍ୱ	-1044
ିକେ	-1045
▁ଘରେ	-1046
▁ବିର	-1047
▁ସମ୍ପର୍କ	-1048
▁li	-1049
▁6	-1050
▁ହା	-1051
▁ଘଟି	-1052
xt	-1053
ୂପ	-1054
ୀମାନେ	-1055
ିତ୍ର	-1056
▁ଭାଙ୍ଗି	-1057
▁ଆଧ	-1058
ମ୍ବର	-1059
ିତ୍	-1060
ଷ୍ଟି	-1061
▁ଉତ୍	-1062
▁ବ୍ୟକ୍ତି	-1063
▁ଶରୀର	-1064
ଖ୍ୟ	-1065
▁ପାଣି	-1066
ଦେଶର	-1067
▁ମିଳ	-1068
ାଲୋଚନା	-1069
▁ଉଚିତ	-1070
▁19	-1071
ଧି	-1072
ସ୍ତା	-1073
ଜନ	-1074
ୟକ	-1075
▁e	-1076
og	-1077
ଭର	-1078
ଦୂ	-1079
▁ଅଭି	-1080
ଂଶ	-1081
ost	-1082
▁୮	-1083
▁ପୋଷ	-1084
▁ଲାଗି	-1085
▁ପିଇ	-1086
▁ଆପଣଙ୍କୁ	-1087
ପତି	-1088
ଶ୍ବର	-1089
ହାମ୍	-1090
▁ଗୀତ	-1091
▁ପ୍ୟାଲେ	-1092
Wò	-1093
Zò	-1094
eú	-1095
fþ	-1096
gû	-1097
lû	-1098
▁ù	-1099
Zòu	-1100
▁iá	-1101
Wògû	-1102
eúlû	-1103
▁ମାନେ	-1104
▁IWògû	-1105
▁iáZòu	-1106
▁ବକିଙ୍ଗ	-1107
▁ପ୍ୟାଲେସରୁ	-1108
▁ବକିଙ୍ଗହାମ୍	-1109
ur	-1110
ଇନ	-1111
▁ହୋ	-1112
▁ସ୍ୱା	-1113
ାର୍ଥ	-1114
▁କରେ	-1115
ଧିକ	-1116
▁ପ୍ରା	-1117
▁ଯୀଶୁ	-1118
ଢ଼	-1119
▁କରିବ	-1120
ଚନ	-1121
ଥିଲି	-1122
▁ଆମ୍	-1123
▁ହୁଅ	-1124
▁ବୋ	-1125
▁ନକ	-1126
ia	-1127
ପାଇଁ	-1128
▁କରିଛି	-1129
ଥିବ	-1130
▁ମହ	-1131
ାଏ	-1132
▁99	-1133
▁ଯୋ	-1134
ପ୍ରଭୁ	-1135
▁ମାତ୍ର	-1136
),	-1137
ir	-1138
▁Re	-1139
mb	-1140
▁ଏଇ	-1141
▁ରାତିରେ	-1142
▁ଅାଲୋଚନା	-1143
▁J	-1144
ାଇବା	-1145
ରଫ	-1146
ନ୍ନ	-1147
▁ଛି	-1148
ଖ୍ୟା	-1149
▁Kan	-1150
▁ଯୁବକ	-1151
▁71	-1152
▁ସଦ	-1153
▁ଏକ୍ସପ୍ରେ	-1154
▁ରଙ୍ଗ	-1155
▁97	-1156
େତ	-1157
▁ପର୍ଯ୍ୟନ୍ତ	-1158
▁72	-1159
▁ପାଟି	-1160
▁ସେହିଭଳି	-1161
▁↑	-1162
www	-1163
▁ହିଁ	-1164
ଦେଇ	-1165
ାଯାଇ	-1166
ର୍ଣ୍ଣ	-1167
▁ଅନ୍ୟପଟେ	-1168
:3	-1169
ୟନ	-1170
▁ତାଲିକା	-1171
ରକୁ	-1172
RI	-1173
▁g	-1174
▁ପ୍ରଥମ	-1175
bo	-1176
▁ବୈ	-1177
▁ଏକ୍ସପ୍ରେସ୍	-1178
ୁନ	-1179
▁ପୋ	-1180
▁ରି	-1181
▁1.21	-1182
▁Kanak	-1183
hy	-1184
▁ଡକ୍ଟର	-1185
ମୂର୍ତ୍ତି	-1186
▁1.19	-1187
▁V	-1188
▁ଶ୍ରୀ	-1189
▁କରିଥିଲା	-1190
ଆଇ	-1191
▁ପାଠ	-1192
▁ମନେ	-1193
▁he	-1194
▁ଦେଶ	-1195
▁ଚେ	-1196
▁ଦ୍ୱାରା	-1197
▁ଈ	-1198
କରଙ୍କ	-1199
ion	-1200
▁ପେ	-1201
▁ନେତା	-1202
▁ପରମେ	-1203
\\	-1204
▁ପଦ	-1205
ତ୍ତି	-1206
▁ସାହି	-1207
▁ଉତ୍ତରପ୍ର	-1208
▁ଚାହୁଁଛନ୍ତି	-1209
▁ବିକ	-1210
TS	-1211
▁ଘଟଣା	-1212
▁କରିପାରିବେ	-1213
ଖି	-1214
ଣ୍ଡୋ	-1215
▁ନିଷ୍	-1216
▁ପ୍ରତିମୂର୍ତ୍ତି	-1217
▁se	-1218
▁?”	-1219
▁ଆମ୍ଭ	-1220
▁ନିୟମ	-1221
ଚା	-1222
ଂଗ	-1223
ବକର	-1224
ିକ୍ଷ	-1225
▁ଦୃଶ୍ୟ	-1226
▁ଆମ୍ବେଦ	-1227
▁ବିଷୟରେ	-1228
▁ସାଧାରଣ	-1229
▁ସମା	-1230
▁...	-1231
▁ପରିବର୍ତ୍ତନ	-1232
▁ଉତ୍ତରପ୍ରଦେଶର	-1233
▁17	-1234
@@@@	-1235
ଣେତା	-1236
▁info	-1237
▁ଆମ୍ବେଦକରଙ୍କ	-1238
ିଧାନ	-1239
ରିଟରେ	-1240
▁ଅଳ୍ପ	-1241
▁ସୁଯୋଗ	-1242
ଦ୍ରାବକର	-1243
▁ପ୍ରଣେତା	-1244
▁ମିରିଟରେ	-1245
▁ସମ୍ଭିଧାନ	-1246
▁ଉପଦ୍ରାବକର	-1247
▁ଉପଦ୍ରାବକରୀମାନେ	-1248
▁ଗରମ	-1249
▁ପରିମାଣ	-1250
▁Y	-1251
▁ଦୌ	-1252
ଙ୍ଗୁ	-1253
▁ଆମେର	-1254
▁ନାହାନ୍ତି	-1255
▁ଦୁଃ	-1256
▁Comment	-1257
▁ଯୋଜ	-1258
▁ପ୍ରେମ	-1259
▁ପୂ	-1260
ପନ	-1261
ନ୍ତା	-1262
la	-1263
lic	-1264
▁ହେବେ	-1265
▁ପୋଷାକ	-1266
ନୁ	-1267
ମାନଙ୍କର	-1268
ଫ୍	-1269
ୀଙ୍କ	-1270
▁ପୁନ	-1271
ed	-1272
ୋଟ	-1273
▁—	-1274
ong	-1275
ଚରଣ	-1276
▁ଦାୟ	-1277
▁ପକ୍ଷ	-1278
▁ସ୍ତ୍ରୀ	-1279
ପର	-1280
▁କଲ	-1281
ma	-1282
ଘା	-1283
▁ପ୍ରକ	-1284
▁ମିଳି	-1285
".	-1286
▁ରାଜା	-1287
▁ଲଗ	-1288
▁ଅନୁସ	-1289
▁ଏପରି	-1290
dia	-1291
ଯିବ	-1292
ଡିଆ	-1293
▁ପ୍	-1294
▁ଯାଏ	-1295
▁ଦାରୁ	-1296
▁ବାହା	-1297
ଫ୍ୟୁ	-1298
▁ତ୍ରୁ	-1299
▁action	-1300
▁ଉଠ	-1301
▁ମଧ	-1302
▁ପିଇବା	-1303
▁ମହିଳାଙ୍କୁ	-1304
▁ଦ୍	-1305
ଲଗ	-1306
ଜର	-1307
ଦୀ	-1308
ପେ	-1309
▁ଭାବେ	-1310
ଥର	-1311
▁ଅଛନ୍ତି	-1312
▁ସାହିତ୍ୟ	-1313
▁8.	-1314
▁ସଂରକ୍ଷ	-1315
ଳକ	-1316
▁10	-1317
▁ଦିଆ	-1318
▁ବୟସ	-1319
▁ପ୍ରସ	-1320
ୂର୍ଣ୍ଣ	-1321
▁ଶୁଣି	-1322
▁ସଦସ୍ୟ	-1323
▁ତ୍ରୁଟି	-1324
▁ଆପଣଙ୍କର	-1325
▁କୋଟି	-1326
▁ଯୋଜନା	-1327
▁ବିଭାଗ	-1328
୍ନି	-1329
▁।[	-1330
▁ସୋ	-1331
କ୍ଷର	-1332
▁ପୁରୁ	-1333
▁ଦୂ	-1334
ପତ୍ର	-1335
▁ଠିକ	-1336
pe	-1337
▁ଗଣ	-1338
ian	-1339
ାନି	-1340
▁କୃ	-1341
ଜେ	-1342
ver	-1343
ଗଲେ	-1344
▁କହିଲି	-1345
▁ବଡ	-1346
▁11	-1347
ଲ୍ଲା	-1348
▁ଭୂ	-1349
▁କାର୍ଯ୍ୟକ୍ରମ	-1350
ଠୁ	-1351
▁ଚାଲ	-1352
▁ହଜାର	-1353
▁ବଢି	-1354
▁ଯୁଦ୍ଧ	-1355
▁ପ୍ରକାଶ	-1356
▁ଯାଇଥିବା	-1357
ଡିଓ	-1358
▁ଭର	-1359
▁ତଥ	-1360
▁ଆଶ୍ଚ	-1361
▁ପରିଚ	-1362
▁ବିବା	-1363
ଦେଲେ	-1364
ାତ୍ରା	-1365
ଭୋ	-1366
ାତା	-1367
ଲ୍ଲୀ	-1368
▁ଭାରତୀୟ	-1369
▁ଖୁ	-1370
▁ଝି	-1371
ଧ୍ୟମ	-1372
▁ନାଁ	-1373
▁ଆସିଥିଲେ	-1374
▁ଲୋକମାନେ	-1375
▁ଲୁ	-1376
▁The	-1377
▁ଛାଡି	-1378
tin	-1379
ଶୁଣି	-1380
ାସ	-1381
ୃତି	-1382
▁ଫୋ	-1383
ବର୍ଷ	-1384
▁ଅନେକ	-1385
▁ଛୁ	-1386
▁ଯି	-1387
ିନ୍ନ	-1388
▁4.5	-1389
▁ଜନ୍	-1390
▁ନିକ	-1391
ଘର	-1392
ତଃ	-1393
▁ମାମ	-1394
▁ଵ	-1395
ତାର	-1396
▁ଘେରି	-1397
▁ଦୌଡ଼ି	-1398
▁କରାଯାଇଛି	-1399
14	-1400
’’	-1401
amp	-1402
ଚ୍ଛ	-1403
ଦ୍ୱ	-1404
ାନା	-1405
ାନୀ	-1406
▁ରୋଗ	-1407
▁ମୁଖ୍ୟ	-1408
ot	-1409
har	-1410
କରି	-1411
ଭୂ	-1412
▁୩୦	-1413
ପାରି	-1414
as	-1415
▁ଠାରୁ	-1416
▁ମୁହଁ	-1417
▁ପ୍ରଦାନ	-1418
▁k	-1419
େଲ	-1420
ଦାଚରଣ	-1421
▁ଅସଦାଚରଣ	-1422
▁ନିର୍ବାଚନ	-1423
ୟୋଗ	-1424
▁ଖବର	-1425
ୱା	-1426
JTS	-1427
▁AJTS	-1428
▁ଦଳ	-1429
id	-1430
ura	-1431
ଟାମ	-1432
▁ଋଣ	-1433
▁ଝିଅ	-1434
▁ମୂଳ	-1435
▁ଗୁରୁ	-1436
▁♪♪♪♪♪♪♪♪♪♪♪♪	-1437
▁ଅଭିନ	-1438
▁ନବୀନ	-1439
▁ନୁହଁ	-1440
▁♪♪♪♪♪♪	-1441
▁♪♪♪♪♪♪♪♪♪♪	-1442
EB	-1443
▁ଆତ୍	-1444
ଫ୍ୟୁମ	-1445
ଙ୍ଗୁଡ଼ି	-1446
▁ଘରଠାରୁ	-1447
▁ପର୍ଫ୍ୟୁମ	-1448
ଦୂରରେ	-1449
▁ସୁଯୋଗରେ	-1450
▁ପାଟିଶୁଣି	-1451
▁ଚିଙ୍ଗୁଡ଼ି	-1452
ତମ	-1453
୍ରମ	-1454
▁ଆଇ	-1455
▁ଦେଖା	-1456
▁ଘେରିକୁ	-1457
▁ପ୍ରକାର	-1458
▁ଅଳ୍ପଦୂରରେ	-1459
କ୍ତର	-1460
▁ପୋଲି	-1461
▁ଚିତ୍ର	-1462
▁କରିଥାଏ	-1463
▁st	-1464
▁ବିରୋଧ	-1465
ୟୀ	-1466
ମିତ	-1467
▁ଗାଁ	-1468
▁ରଖି	-1469
▁ଦେଖନ୍ତୁ	-1470
▁&	-1471
ବୀ	-1472
ess	-1473
▁ch	-1474
▁ତାର	-1475
ଗଣ	-1476
000	-1477
ବ୍ୟ	-1478
▁ଅଜ	-1479
▁ଖେ	-1480
▁ଆପଣା	-1481
▁ସୀମା	-1482
▁କରନ୍ତି	-1483
ହେି	-1484
▁ଉଇ	-1485
▁କମ	-1486
ଂଗ୍ରେ	-1487
୍ଞାନ	-1488
ବର୍ତ୍ତ	-1489
ୟର	-1490
one	-1491
ଲ୍ୟ	-1492
▁ପଡି	-1493
▁ଚାଲୁ	-1494
ଠନ	-1495
ସିକ	-1496
▁ଶ୍ରେ	-1497
▁œ	-1498
ଠାତ	-1499
ଭାବ	-1500
▁ସକାଳ	-1501
▁ତୁମକୁ	-1502
▁ଓଡ଼ିଶା	-1503
▁Ind	-1504
▁ଭିଟାମ	-1505
9-	-1506
▁କଲା	-1507
▁ଭିଡିଓ	-1508
▁ଗି	-1509
ାରିଖ	-1510
ଯୁକ୍ତ	-1511
▁ହଠାତ	-1512
ମନ୍ତ୍ରୀ	-1513
ସ୍ୟା	-1514
▁for	-1515
ଷ୍ଟ୍ର	-1516
▁ବଞ୍ଚ	-1517
▁କଂଗ୍ରେ	-1518
18	-1519
▁ଦୁର୍	-1520
▁ଯେତେ	-1521
▁ଚିହ୍ନି	-1522
▁କରାଯାଇପାରିବ	-1523
RIZ	-1524
▁ଆଦ	-1525
▁ତମ	-1526
ପ୍ରଦ	-1527
ର୍ଶନ	-1528
▁ବୀମା	-1529
▁ପ୍ରସ୍ତୁ	-1530
ତ୍ଵ	-1531
▁un	-1532
▁ବନ	-1533
▁୧୫	-1534
େତ୍ର	-1535
▁ହାଇ	-1536
ଯାଇଛି	-1537
▁ମୃତ୍ୟୁ	-1538
▁ବ୍ୟାଙ୍କ	-1539
▁ସଂରକ୍ଷଣ	-1540
ଗେ	-1541
ome	-1542
ଖିତ	-1543
ଲେଇ	-1544
ଣ୍ଡା	-1545
▁ଧରି	-1546
▁ଫେର	-1547
▁....	-1548
▁ତଥ୍ୟ	-1549
▁ଶିଶୁ	-1550
ଦୁ	-1551
▁ଚୋ	-1552
▁ସଦା	-1553
▁ଖୋଲ	-1554
ଦ୍ଦେଶ	-1555
▁ପତ୍ର	-1556
▁ମୋଦିଙ୍କ	-1557
ith	-1558
▁ଭୟ	-1559
▁ଗର୍	-1560
▁ନିର୍ମାଣ	-1561
▁ଏମାନଙ୍କୁ	-1562
ତ୍ନ	-1563
ୀରେ	-1564
ସ୍ଥାନ	-1565
▁ଚାକି	-1566
▁ପରିମାଣରେ	-1567
▁'%	-1568
ୋର୍ଟ	-1569
▁Long	-1570
▁ସେବା	-1571
▁ଆଶ୍ଚର୍ଯ୍ୟ	-1572
ସ୍ଥିତ	-1573
▁ଦେଲେ	-1574
▁ବନ୍ଧ	-1575
gt	-1576
▁ସଂପ	-1577
▁ବିକା	-1578
▁ଲଢ	-1579
hort	-1580
ଟିକୁ	-1581
ଦ୍ଧା	-1582
▁ଅର୍ଥ	-1583
▁ଖୋଲି	-1584
▁__	-1585
▁ପାଖକୁ	-1586
▁ହୋଇଥିଲା	-1587
ଫି	-1588
tit	-1589
▁ମଧ୍ଯ	-1590
▁ଜିଲ୍ଲା	-1591
କ୍ରିୟ	-1592
▁ତାରିଖ	-1593
▁..	-1594
▁Pre	-1595
▁କାର	-1596
▁ବାର	-1597
ublic	-1598
tt	-1599
▁ଘୁ	-1600
▁ଘରୋଇ	-1601
▁ଲାଗୁ	-1602
▁କଥାରେ	-1603
ତୀ	-1604
ଶୀ	-1605
୧୯	-1606
▁ସର	-1607
▁ଯାଇଥାଏ	-1608
ଣ୍ଡର	-1609
▁ଉପା	-1610
ୟାର	-1611
▁ବିନା	-1612
▁ବର୍ଣ୍ଣ	-1613
ଟକ	-1614
dis	-1615
▁lab	-1616
▁ବିନ	-1617
▁ମସି	-1618
▁ସମସ୍ତେ	-1619
ବେଶ	-1620
▁pri	-1621
▁ବିକାଶ	-1622
pp	-1623
▁କାହାକୁ	-1624
▁ଡାକ୍ତର	-1625
▁କରିଥିବା	-1626
ଳରେ	-1627
▁ru	-1628
▁ଭାତ	-1629
▁ହସି	-1630
▁ଚିହ୍ନ	-1631
ାନୁ	-1632
▁ନିଜର	-1633
▁କରାଯାଏ	-1634
ul	-1635
▁min	-1636
▁ଭିଟାମିନ	-1637
▁ଇଂ	-1638
ାରିତ	-1639
▁ସହା	-1640
ମାନେେ	-1641
ME	-1642
ast	-1643
ୁକୁ	-1644
▁ଜନ	-1645
▁ଜୀବ	-1646
▁ମାସ	-1647
ଥିବାର	-1648
▁ଟିକେ	-1649
▁ସଦାପ୍ରଭୁ	-1650
ନ୍ୟ	-1651
▁ଡେ	-1652
▁pro	-1653
▁ମାେ	-1654
▁ଷ୍ଟ	-1655
▁ବିଶେଷ	-1656
▁ଫଳପ୍ରଦ	-1657
ode	-1658
ress	-1659
▁ବାପା	-1660
▁ସମ୍ପାଦ	-1661
).	-1662
?"	-1663
ond	-1664
ଲରେ	-1665
ution	-1666
ର୍ଚ୍ଚ	-1667
▁ଶିକ୍ଷ	-1668
▁କ୍ଷେତ୍ର	-1669
ହନ	-1670
▁{	-1671
ବ୍ଦ	-1672
▁ପଡ	-1673
▁ବାଇ	-1674
▁ଦରକାର	-1675
▁ସାଙ୍ଗ	-1676
ars	-1677
ାୟକ	-1678
▁୨୦୦	-1679
▁ଜନ୍ମ	-1680
▁ଭାଷା	-1681
୍ୟାନ	-1682
▁ଅନ୍ତ	-1683
▁ଦାବି	-1684
▁ଅନୁସାରେ	-1685
ମୀ	-1686
▁ବିଭ	-1687
▁ବୁଢ	-1688
▁କୁହା	-1689
▁କରିବାର	-1690
▁ବର୍ତ୍ତ	-1691
lect	-1692
▁WEB	-1693
▁ଦେବା	-1694
▁ଶକ୍ତି	-1695
ଂସ	-1696
rom	-1697
▁ପ୍ରସଙ୍ଗ	-1698
▁!!	-1699
ରାପ	-1700
ରିଆ	-1701
▁In	-1702
▁ଘୋଷ	-1703
▁କାଲି	-1704
▁ସ୍କୁ	-1705
▁ଠିକଣା	-1706
▁ଫିଙ୍ଗି	-1707
▁ହୋଇଥିବା	-1708
ମତା	-1709
ଆନ୍ତୁ	-1710
▁Next	-1711
▁ଠିକ୍	-1712
▁ଏଠାରେ	-1713
▁କରୁଅଛି	-1714
▁ବର୍ଷରେ	-1715
▁18	-1716
▁ଜେ	-1717
▁ଯାଉ	-1718
▁minut	-1719
▁ମାମଲା	-1720
▁ମିଳିବ	-1721
ୟରେ	-1722
▁ବର୍ତ୍ତମାନ	-1723
ଜୁ	-1724
:30	-1725
ାମା	-1726
▁12	-1727
▁ଚଳ	-1728
ୁନିକ	-1729
▁Why	-1730
▁ଭରପୁର	-1731
ଲାଇ	-1732
ସବୁ	-1733
▁ଆଣ	-1734
▁କବ	-1735
▁ଚାଷ	-1736
▁ବଡ଼	-1737
DE	-1738
ଖା	-1739
ୀନ୍	-1740
▁ସ୍ମ	-1741
▁ଛିଡି	-1742
▁ତତ୍ଵ	-1743
▁ମିନି	-1744
▁କଂଗ୍ରେସ	-1745
ଦେଇଥାନ୍ତି	-1746
▁ଫିଙ୍ଗିଦେଇଥାନ୍ତି	-1747
▁or	-1748
ଗ୍ରା	-1749
▁ଶୁଣ	-1750
▁ସହେି	-1751
ଧା	-1752
age	-1753
▁ଅପସ	-1754
▁ବିଧ	-1755
▁ସେଥି	-1756
କୋ	-1757
ves	-1758
tem	-1759
▁ପଠ	-1760
▁ପରୀ	-1761
▁କମ୍ପ	-1762
▁ଖାଲି	-1763
▁ଦୁଃଖ	-1764
▁ହତ୍ୟା	-1765
▁ପାରିବେ	-1766
▁ଭାଷାରେ	-1767
ttp	-1768
▁ଥର	-1769
ଚ୍ଛା	-1770
▁ତିଆ	-1771
▁ସର୍ବ	-1772
▁୪୦	-1773
▁ପୋଲିସ	-1774
▁ବିବାହ	-1775
▁ପୃଷ୍ଠା	-1776
▁ପରମେଶ୍ବର	-1777
qu	-1778
▁ଏସ୍	-1779
ରିଷ୍ଠ	-1780
▁ସମସ୍ୟା	-1781
▁minutes	-1782
OR	-1783
▁15	-1784
▁ସୁର	-1785
▁priv	-1786
▁ଧାରଣ	-1787
▁ଭାବି	-1788
▁ତିଆରି	-1789
▁ସୃ	-1790
ticle	-1791
ିବାରେ	-1792
▁ଆଧୁନିକ	-1793
▁ବାହାରି	-1794
KC	-1795
▁ଲାଭ	-1796
▁public	-1797
!”	-1798
ସ୍ଥ୍ୟ	-1799
▁label	-1800
▁ଆମେରିକା	-1801
ଗର	-1802
▁ଶୀ	-1803
▁ଫଟୋ	-1804
▁ଯିବା	-1805
▁କେନ୍ଦ୍ର	-1806
ଭୋଁ	-1807
ିକାର	-1808
▁ମୂଲ୍ୟ	-1809
▁ପ୍ରୟୋଗ	-1810
ପଥର	-1811
ପାନ	-1812
ାୟୀ	-1813
▁mo	-1814
▁ହସ	-1815
▁ୱି	-1816
▁You	-1817
ସ୍କାର	-1818
▁ମହାର	-1819
▁Previ	-1820
▁ପରିବାର	-1821
▁http	-1822
▁read	-1823
▁ବରିଷ୍ଠ	-1824
ଚଳ	-1825
▁Ar	-1826
▁ବଢ଼	-1827
11	-1828
ଭେ	-1829
▁on	-1830
▁item	-1831
▁କରିବୁ	-1832
▁ଦୟା	-1833
▁ପୁନଃ	-1834
▁ମସିହା	-1835
▁ଦେଖିଛନ୍ତି	-1836
▁ପାଦ	-1837
▁2015	-1838
▁ଶବ୍ଦ	-1839
▁ଉପକରଣ	-1840
▁ବର୍ଣ୍ଣନା	-1841
title	-1842
▁ଅଧିକାର	-1843
▁ମାଧ୍ୟମ	-1844
ଲିସି	-1845
10	-1846
▁EE	-1847
▁di	-1848
▁ଗଛ	-1849
hind	-1850
▁କୋଉ	-1851
▁କାଳି	-1852
▁କରିବି	-1853
▁କରିବାରେ	-1854
--	-1855
▁ଜଳ	-1856
ତଙ୍କ	-1857
▁mon	-1858
▁ଦର୍	-1859
▁ବହି	-1860
▁ଏମାନେ	-1861
▁କାହାର	-1862
ଠାକୁ	-1863
▁ପଢ଼	-1864
▁ମିଛ	-1865
▁ଗିରଫ	-1866
▁ଫେରି	-1867
▁ପୃଥିବ	-1868
ବର୍ତ୍ତୀ	-1869
▁Previous	-1870
ଣ୍ଟା	-1871
▁ପୁସ୍ତ	-1872
AN	-1873
▁run	-1874
▁କୁହ	-1875
▁ଡାକ	-1876
▁ବୁଝ	-1877
▁ବିଶ୍	-1878
▁lives	-1879
▁ପ୍ରବେଶ	-1880
ew	-1881
ଦେଲା	-1882
▁ବିଫଳ	-1883
▁behind	-1884
▁dog	-1885
▁କହିବି	-1886
▁କ୍ଷତି	-1887
▁ଘୋଷଣା	-1888
fe	-1889
ord	-1890
ଛବି	-1891
▁ନୀ	-1892
▁ସାହା	-1893
▁ବିନ୍ୟାସ	-1894
ନାର	-1895
ସମା	-1896
▁ବ୍	-1897
▁ସୌ	-1898
.....	-1899
▁କର୍ମ	-1900
▁#	-1901
ave	-1902
ାଇବ	-1903
କ୍ଷି	-1904
▁KDE	-1905
▁ତଥା	-1906
ୁଥିବା	-1907
▁ଜ୍ଞାନ	-1908
▁ଦର୍ଶା	-1909
▁ପ୍ରତିଛବି	-1910
▁କହୁଥାନ୍ତି	-1911
ig	-1912
ok	-1913
ାଉ	-1914
ବେେ	-1915
ଲାର	-1916
▁ରୋ	-1917
▁ପୁର	-1918
▁ସିଂ	-1919
▁3:30	-1920
▁cars	-1921
▁dogs	-1922
▁title	-1923
▁ପକ୍ଷରୁ	-1924
▁ଚାଲୁଥିବାର	-1925
17	-1926
ଘଟ	-1927
ୃହ	-1928
▁ୱେ	-1929
lock	-1930
▁ଜଣା	-1931
▁ଭୁବନ	-1932
▁month	-1933
ଇଁ	-1934
ଗ୍	-1935
ପ୍ତି	-1936
ର୍ମା	-1937
▁ଖେଳ	-1938
କଥା	-1939
▁?"	-1940
rect	-1941
▁୧୦୦	-1942
▁କୁମାର	-1943
▁ପଚାରିଲେ	-1944
ପଣ	-1945
ସୁ	-1946
୍ତ୍ତା	-1947
▁ଅପସାରଣ	-1948
▁ବିଧାୟକ	-1949
'!	-1950
ଷ୍ଟା	-1951
▁କ୍ର	-1952
▁ପଞ୍ଚ	-1953
ର୍ଗ	-1954
▁ବିଜୟ	-1955
hat	-1956
ପାଳ	-1957
ଲିଉ	-1958
ହିଁ	-1959
▁ଡ୍ର	-1960
KChar	-1961
▁ପଲିସି	-1962
▁ସବୁବେଳେ	-1963
ରବ	-1964
ଯାୟୀ	-1965
▁200	-1966
▁କୋହ	-1967
▁ପ୍ରସ୍ତୁତ	-1968
LA	-1969
ଷି	-1970
ଦାର	-1971
▁ଇଣ୍	-1972
▁କଲି	-1973
▁ମଣି	-1974
ପାତ୍ର	-1975
ର୍ଦ୍ଧ	-1976
▁ପାଳନ	-1977
▁ମାନସିକ	-1978
ist	-1979
ରୂପ	-1980
▁ଆକ	-1981
▁ଠା	-1982
▁ବର	-1983
ener	-1984
▁ବସି	-1985
▁ରାମ	-1986
disha	-1987
▁ଏଭଳି	-1988
▁ସୃଷ୍ଟି	-1989
uration	-1990
▁ବାହାଘର	-1991
▁ଅନୁଯାୟୀ	-1992
os	-1993
um	-1994
🙏🙏	-1995
କରେ	-1996
▁ଖୋ	-1997
▁ରାଜନ	-1998
▁ଗ୍ରା	-1999
▁block	-2000
▁ପ୍ରମାଣ	-2001
ଦେବ	-2002
ଜ୍ଞା	-2003
ୈତିକ	-2004
▁with	-2005
▁ନେବେ	-2006
▁ଯତ୍ନ	-2007
▁ଲେଖି	-2008
eneric	-2009
▁ଆସନ୍ତା	-2010
▁ଖୋଜ	-2011
icode	-2012
ଶ୍ଚିତ	-2013
ସଂଖ୍ୟା	-2014
▁କବିତା	-2015
▁.......	-2016
▁India	-2017
lt	-2018
ବାନ	-2019
irst	-2020
▁ଟୁକୁ	-2021
▁ଦିନର	-2022
▁ପଛରେ	-2023
▁ବାସି	-2024
select	-2025
▁unicode	-2026
pa	-2027
ts	-2028
ସହ	-2029
▁14	-2030
କ୍ଷ୍	-2031
▁ଦୂର	-2032
▁ଭଳି	-2033
▁ଦର୍ଶାନ୍ତୁ	-2034
ard	-2035
ran	-2036
ଦାନ	-2037
ମୁଖ	-2038
▁St	-2039
▁ଆଠ	-2040
▁୫୦	-2041
▁କିଣ	-2042
▁ଉଚ୍ଚ	-2043
▁ଜିଲା	-2044
▁ମାର୍	-2045
▁ଅକ୍ଷର	-2046
ee	-2047
ଟନ	-2048
▁22	-2049
ଯ୍ୟା	-2050
▁ଗଠନ	-2051
▁ପଛେ	-2052
▁ସ୍ପ	-2053
▁୧୯୮	-2054
▁ଘରକୁ	-2055
▁ଆତଙ୍କ	-2056
▁ଚାହିଁ	-2057
own	-2058
ମ୍ନ	-2059
ନୀତି	-2060
ିବେଶ	-2061
▁ଅବସ	-2062
ary	-2063
ଲଗା	-2064
▁କୁଆ	-2065
▁ଯାଞ୍ଚ	-2066
DI	-2067
ons	-2068
▁ଢେ	-2069
ଥିବୁ	-2070
ାତୀୟ	-2071
▁ଯେତେବେଳେ	-2072
ଏସ	-2073
▁!”	-2074
▁Go	-2075
\\\\	-2076
ାତ୍ମ	-2077
ସ୍ତାନ	-2078
▁ଫିଲ୍	-2079
▁ସମ୍ଭବ	-2080
▁ବିଜେଡି	-2081
ଫା	-2082
▁ରହିବ	-2083
ଳୟ	-2084
’,	-2085
tic	-2086
ନ୍ତେ	-2087
▁ନାୟକ	-2088
▁ଆମ୍ଭେ	-2089
▁ଚିଲେଇ	-2090
▁ଯାଇଛି	-2091
▁ଟୁକୁଡେ	-2092
enericName	-2093
ଂଚ	-2094
ୋପ	-2095
ଳକୁ	-2096
ବଧାନ	-2097
▁ଉଦ୍ଧ	-2098
▁ଚିନ୍ତା	-2099
▁ଆପଣାନ୍ତୁ	-2100
ଲର	-2101
▁X	-2102
orm	-2103
ଏହି	-2104
▁ରହ	-2105
▁କରା	-2106
▁ଭାଗ	-2107
▁here	-2108
▁ପ୍ରତିଶ	-2109
20	-2110
୨୦	-2111
ାମି	-2112
▁ଆୟ	-2113
ଗିରି	-2114
▁ଚୟନ	-2115
▁ବାଲା	-2116
▁ବସ୍ତୁ	-2117
▁ଉଇଣ୍ଡୋ	-2118
▁ସୀମାନ୍ତ	-2119
ive	-2120
ont	-2121
ଡ଼େ	-2122
▁Imp	-2123
▁ଛୋଟ	-2124
direct	-2125
▁ଘଟିଯାଏ	-2126
▁ଦୟାକରି	-2127
ଏମ୍	-2128
unit	-2129
▁ଗୃହ	-2130
▁ମେଲ	-2131
▁ବଢିବ	-2132
▁ହଠାତ୍	-2133
▁ସଂପର୍କ	-2134
▁ହେଲାଣି	-2135
▁ରାଜନୈତିକ	-2136
KCharselect	-2137
ho	-2138
ଏନ୍	-2139
କ୍ଟୋ	-2140
▁ଆସୁ	-2141
▁ଓଡି	-2142
▁ସେଇ	-2143
▁ସଂଯୋଗ	-2144
▁ସର୍ଭର	-2145
▁)	-2146
▁13	-2147
କ୍ରି	-2148
ଗ୍ରୀ	-2149
▁Mar	-2150
▁ଆରେ	-2151
▁ତିନି	-2152
olution	-2153
▁ଝ	-2154
ton	-2155
▁ସାମ୍	-2156
▁ସ୍ଥା	-2157
▁ପ୍ରଭୁ	-2158
▁ଅଧିକାରୀ	-2159
▁କରିଥାନ୍ତି	-2160
ld	-2161
▁ପଥ	-2162
ଣ୍ଡି	-2163
▁ଦିବ	-2164
▁ଭୁଲି	-2165
▁ଜାଣିବା	-2166
▁ସ୍ୱାସ୍ଥ୍ୟ	-2167
ୋନ	-2168
▁ଶୈ	-2169
ଙ୍କା	-2170
▁କରାଇ	-2171
▁ପାଇବ	-2172
▁ବୁଢା	-2173
▁ବର୍ଷା	-2174
GenericName	-2175
▁ଆହ	-2176
ସ୍ଥାୟୀ	-2177
▁ବିଜ୍ଞ	-2178
▁ମିଶ୍ର	-2179
▁redirect	-2180
ଟୁ	-2181
▁ଦିଅଁ	-2182
▁ଦିଅନ୍ତୁ	-2183
▁ହୋଇପାରେ	-2184
▁ଦୃଶ୍ୟସଂଖ୍ୟା	-2185
ହର	-2186
▁ପଢି	-2187
▁ସ୍ଵ	-2188
▁ଏସବୁ	-2189
▁ଏଠାକୁ	-2190
▁ଦିନରେ	-2191
▁ପରିଚାଳ	-2192
▁ପ୍ରଧାନ	-2193
▁Duration	-2194
▁ସେମାନଙ୍କୁ	-2195
Qu	-2196
ଚେ	-2197
ସ୍ୱ	-2198
▁de	-2199
ୱାଘା	-2200
▁ଅଂଶ	-2201
କରନ୍ତୁ	-2202
▁redirects	-2203
od	-2204
ers	-2205
ପ୍ତା	-2206
କ୍ରମଣ	-2207
ିବାସୀ	-2208
▁ରକ୍ତ	-2209
ପାରିଲା	-2210
▁କହିଥିଲେ	-2211
ine	-2212
କୃତ	-2213
କେତ	-2214
ଘାତ	-2215
)...	-2216
▁ଥରେ	-2217
େତ୍ରୀ	-2218
▁ପାର୍	-2219
▁ବାସିଥିବୁ	-2220
].	-2221
ure	-2222
▁OF	-2223
▁ଚୁ	-2224
▁com	-2225
▁କଳା	-2226
▁ଆମକୁ	-2227
▁ନମ୍ବର	-2228
▁ବଞ୍ଚି	-2229
▁ମନ୍ତ୍ରୀ	-2230
▁ମାନଙ୍କୁ	-2231
▁ସରକାରଙ୍କ	-2232
କାନ	-2233
▁ଭେ	-2234
ିତ୍ବ	-2235
▁ଗଲା	-2236
▁ବିବ	-2237
▁ରହୁ	-2238
▁ଦେବେ	-2239
▁ସମାନ	-2240
▁ପୁତ୍ର	-2241
▁ଅଭିନେତ୍ରୀ	-2242
ଟକୁ	-2243
ଅଗ୍ର	-2244
ଡିକୁ	-2245
▁ଅତି	-2246
▁ନକଲ	-2247
▁ଦିନେ	-2248
▁ସଂଖ୍ୟା	-2249
▁ୱିଣ୍ଡୋ	-2250
▁ଅସ୍ଥାୟୀ	-2251
ହାଁ	-2252
୦୦୦	-2253
▁//	-2254
▁୩୧	-2255
▁ପାଉ	-2256
▁ବିପ	-2257
▁ମଙ୍ଗ	-2258
▁ଖାଇବା	-2259
ଅଗ୍ରଲେଖ	-2260
▁କାହାଣୀ	-2261
ହୂ	-2262
=\\\\	-2263
ଲିଖିତ	-2264
▁ଆତ୍ମ	-2265
▁ପଡ଼ି	-2266
▁ପାକି	-2267
ତନ୍ତ୍ର	-2268
▁ଗ୍ରାମ	-2269
▁ପ୍ରାୟ	-2270
▁ମିନିଟ୍	-2271
▁ଟେ	-2272
arch	-2273
ିତୀୟ	-2274
▁ସ୍ବ	-2275
▁from	-2276
▁ଶାସନ	-2277
▁ଲକ୍ଷ୍ୟ	-2278
▁ମହାପାତ୍ର	-2279
ବୃ	-2280
ery	-2281
ନ୍ଦର	-2282
▁ଆହୁ	-2283
▁ତ୍ୱ	-2284
▁Last	-2285
▁କେଉଁଠି	-2286
▁ପ୍ରତ୍ୟ	-2287
:%	-2288
ting	-2289
ଗ୍ରହ	-2290
▁ଉଠି	-2291
▁ଗୁଣ	-2292
▁ଆଧାର	-2293
▁ବାବୁ	-2294
▁ମେଣ୍ଟ	-2295
▁ସାବଧାନ	-2296
ci	-2297
ର୍ଜ	-2298
ଦ୍ୟା	-2299
▁Post	-2300
▁ଉପାୟ	-2301
▁Odisha	-2302
▁ନିଶ୍ଚିତ	-2303
▁ସାଧାରଣତଃ	-2304
ତ୍ୱ	-2305
▁ଗ୍	-2306
▁ଟା	-2307
ଞ୍ଜନ	-2308
▁ସଫଳ	-2309
▁୫ଟି	-2310
▁ପୁରୁଷ	-2311
▁ସାକ୍ଷ	-2312
▁ପୁରୁଣା	-2313
▁ସମାନେେ	-2314
▁ପରୀକ୍ଷା	-2315
ଉଣୀ	-2316
ୟତା	-2317
▁ଥା	-2318
ଟିଲେ	-2319
▁8.6	-2320
▁ତଳେ	-2321
▁ସଙ୍କ	-2322
ୂର୍ଯ୍ୟ	-2323
ression	-2324
box	-2325
ସାର	-2326
▁ଫୁ	-2327
▁ରୂ	-2328
▁ଆମର	-2329
▁ମତେ	-2330
▁ସହଜ	-2331
▁ୱେବ	-2332
▁ବଲିଉ	-2333
▁ତାପରେ	-2334
▁ବଢିଲେ	-2335
ne	-2336
RAN	-2337
ଏସ୍	-2338
▁୧୪	-2339
ଚ୍ଛି	-2340
ମାରକ	-2341
▁ଦେଉ	-2342
▁୧୯୯	-2343
▁ପାରି	-2344
▁ତାହେଲେ	-2345
▁ନିର୍ଦ୍ଦେଶ	-2346
▁ସେମାନଙ୍କର	-2347
oft	-2348
ଲୋକ	-2349
▁ଶ୍ର	-2350
ସ୍ତ୍ର	-2351
▁ଗ୍ୟା	-2352
▁୨୦୧୯	-2353
▁ବିରୋଧରେ	-2354
ll	-2355
ଗୋ	-2356
ଷ୍ୟ	-2357
▁".	-2358
ଜାଣି	-2359
ାତ୍ମକ	-2360
▁କହୁଛି	-2361
▁ସମାଧାନ	-2362
▁ହେବାକୁ	-2363
15	-2364
ick	-2365
▁21	-2366
▁ଦର	-2367
▁କମ୍	-2368
First	-2369
indow	-2370
▁ବାବା	-2371
▁ଭଉଣୀ	-2372
▁ଡିସ୍କ	-2373
▁ଦିଲ୍ଲୀ	-2374
▁ଟଙ୍କାରେ	-2375
▁ସେମାନଙ୍କ	-2376
ze	-2377
୍ଵ	-2378
TOR	-2379
ଷ୍ଣ	-2380
▁ଫା	-2381
ଥିରେ	-2382
▁but	-2383
▁ଦ୍ବ	-2384
▁କହିଦେ	-2385
▁ଚାକିରି	-2386
ry	-2387
ext	-2388
ity	-2389
ust	-2390
ମ୍ୟ	-2391
ିଲା	-2392
▁ଉଦ୍	-2393
▁Lasts	-2394
▁ସମର୍ଥ	-2395
▁ସୁରକ୍ଷା	-2396
▁Impression	-2397
nu	-2398
ମତି	-2399
ମିକ	-2400
▁"%	-2401
RANS	-2402
▁ଏଲ୍	-2403
ୀଙ୍କୁ	-2404
େଶ୍ୱର	-2405
▁କାନ୍	-2406
▁ସଙ୍ଗ	-2407
ଗଡ଼	-2408
TORS	-2409
ାଇଲେ	-2410
▁ବ୍ଯ	-2411
▁ଆକାର	-2412
▁ମାରି	-2413
LATORS	-2414
▁TRANS	-2415
▁ଆସନ୍ତୁ	-2416
▁ପ୍ରକୃତ	-2417
volution	-2418
▁ସାହାଯ୍ୟ	-2419
▁TRANSLATORS	-2420
୫୦	-2421
▁କନ	-2422
▁ବସ	-2423
ପ୍ରା	-2424
ତିଙ୍କ	-2425
ଦ୍ୱାରା	-2426
▁ଆହୁରି	-2427
▁ଘଣ୍ଟା	-2428
▁ସ୍ମାରକ	-2429
ସିଆ	-2430
▁ଜୟ	-2431
,000	-2432
▁ବୋଧ	-2433
▁ଭାବ	-2434
▁ମଣିଷ	-2435
ସ୍ଥିତି	-2436
▁ଈଶ୍ବର	-2437
▁ଖାଇବେ	-2438
▁ଲୋକଟି	-2439
ମାନଙ୍କେ	-2440
▁ସନ୍ଧାନ	-2441
▁ବିଭିନ୍ନ	-2442
@}	-2443
ୋର	-2444
▁16	-2445
▁{@}	-2446
ଷ୍ଠାନ	-2447
▁ନିଜେ	-2448
▁ଶ୍ରେଣୀ	-2449
▁ମସିହାରେ	-2450
AME	-2451
▁ଅଗ	-2452
▁ଗୋଟେ	-2453
▁କହୁଛନ୍ତି	-2454
▁ପୁରସ୍କାର	-2455
12	-2456
hi	-2457
▁୭୦	-2458
form	-2459
▁ଆଣି	-2460
▁ମଞ୍ଚ	-2461
▁ଲେଖା	-2462
ନ୍ତ୍ରଣ	-2463
▁ଢେଙ୍କ	-2464
▁ବିବରଣ	-2465
▁ପିଲାଙ୍କ	-2466
▁ପ୍ରଦର୍ଶ	-2467
NG	-2468
ୟମ	-2469
ଠିଆ	-2470
▁45	-2471
▁ରଥ	-2472
ଙ୍ଗା	-2473
▁ମନା	-2474
ଯୁକ୍ତି	-2475
▁ସମ୍ମାନ	-2476
ଭବ	-2477
ାବ	-2478
ବ୍ଧ	-2479
▁ହୃ	-2480
ାନାଳ	-2481
▁ସନ୍ତ	-2482
▁ପାରିବ	-2483
▁♪♪♪♪♪	-2484
wwwwwww	-2485
▁ବିକଳ୍ପ	-2486
@@@@@@@@	-2487
▁♪♪♪♪♪♪♪	-2488
wwwwwwwww	-2489
▁♪♪♪♪♪♪...	-2490
wwwwwwwwwww	-2491
▁♪♪♪♪♪♪♪♪♪♪♪♪♪	-2492
▁♪♪♪♪♪♪♪♪♪♪♪♪♪♪	-2493
▁wwwwwwwwwwwwwww	-2494
ତିକି	-2495
▁8.8	-2496
▁ଠିଆ	-2497
ାତ୍ରୀ	-2498
▁କୋହଳ	-2499
▁ଅଭ୍ୟାସ	-2500
▁କ୍ଷମତା	-2501
▁ଲାଗିଲା	-2502
▁ଜାଣନ୍ତି	-2503
ମର	-2504
କକୁ	-2505
▁25	-2506
▁vi	-2507
▁ଉପଲ	-2508
▁କମି	-2509
▁ଦିଗ	-2510
▁ଉତ୍ସ	-2511
▁ଦିବସ	-2512
▁ଦେବଦ	-2513
▁ପ୍ରାର୍ଥ	-2514
ତ୍ଯ	-2515
▁an	-2516
▁କଦ	-2517
▁ୟା	-2518
▁ଜମି	-2519
▁ବୋଉ	-2520
▁ଆଦେଶ	-2521
▁ନକହି	-2522
▁ସାହୁ	-2523
▁short	-2524
▁କଥାକୁ	-2525
▁ପାଠ୍ୟ	-2526
▁ସ୍କୁଲ	-2527
▁କେଜାଣି	-2528
▁ଦେବାକୁ	-2529
▁ଲୋକଙ୍କ	-2530
▁ସାକ୍ଷାତ	-2531
▁ସମାନଙ୍କେ	-2532
our	-2533
ଧୀନ	-2534
ିନେ	-2535
▁ୟୁ	-2536
ନ୍ଦି	-2537
ଅନ୍ତୁ	-2538
▁କ୍ୟା	-2539
▁ଲାଗେ	-2540
▁ସକାଳୁ	-2541
▁ଜାଣିଛନ୍ତି	-2542
ya	-2543
ଦାସ	-2544
▁3.	-2545
▁୧୧	-2546
mber	-2547
▁ବିଶ୍ୱାସ	-2548
▁Evolution	-2549
▁ସମ୍ପୂର୍ଣ୍ଣ	-2550
ke	-2551
ଜୀ	-2552
ରୋ	-2553
କିଲ	-2554
ୟାମ	-2555
▁୧୯୬	-2556
ଦିଲ୍ଲୀ	-2557
▁button	-2558
▁ସ୍ଥିତି	-2559
ଆଉ	-2560
ସାଦ	-2561
▁ଅଛ	-2562
ବହାର	-2563
▁ମାରେ	-2564
▁କହିବେ	-2565
▁ବନ୍ଧୁ	-2566
▁ଲକ୍ଷ୍	-2567
ମ୍ପତିଙ୍କ	-2568
▁ଢେଙ୍କାନାଳ	-2569
ill	-2570
ନରେ	-2571
ବାସ	-2572
ସାୟ	-2573
ାଇଲା	-2574
▁ଦେଲା	-2575
ାଷ୍ଟ୍ର	-2576
▁ରହସ୍ୟ	-2577
▁ଦ୍ବାରା	-2578
▁କହିଦେଲି	-2579
▁ନିର୍ବାଚିତ	-2580
▁ନୂଆଦିଲ୍ଲୀ	-2581
▁by	-2582
▁op	-2583
▁ନିମ	-2584
▁ସହର	-2585
▁ସାଇ	-2586
୍ୟାନେ	-2587
▁ସତ୍ୟ	-2588
▁ଜାତୀୟ	-2589
▁ମଙ୍ଗଳ	-2590
▁ସଂକେତ	-2591
ational	-2592
▁ପ୍ରଭାବ	-2593
▁ଯାତ୍ରା	-2594
era	-2595
ତାବକ	-2596
▁ଯୁବ	-2597
▁NAME	-2598
▁ଖରାପ	-2599
ାଇବାକୁ	-2600
▁କହିଲୁ	-2601
▁ଚାଲିଗଲେ	-2602
▁ପରମେଶ୍ୱର	-2603
▁ଦେବଦମ୍ପତିଙ୍କ	-2604
ଲଫ	-2605
▁9.	-2606
▁ମତ	-2607
menu	-2608
ମହାର	-2609
୍ୟ୍ଯ	-2610
▁ପଠା	-2611
ସ୍ପତି	-2612
▁post	-2613
▁ଚାଳକ	-2614
▁ପ୍ରତ	-2615
▁ବଜାର	-2616
▁ନିଜକୁ	-2617
▁ଲିଙ୍କ	-2618
▁କାଟିଲେ	-2619
ବଲ	-2620
ମନ	-2621
୧୭	-2622
▁v	-2623
est	-2624
ice	-2625
ଜନକ	-2626
ସନ୍	-2627
▁Vi	-2628
▁ଦୀ	-2629
▁ଏମ୍	-2630
▁ଦାସ	-2631
▁କହିବା	-2632
▁ବାସ୍ତ	-2633
▁ଶୀର୍ଷ	-2634
▁ପ୍ରଥମେ	-2635
▁କରୁଥିବା	-2636
▁ମହାରାଷ୍ଟ୍ର	-2637
ୟୁ	-2638
▁u	-2639
▁??	-2640
କ୍ସ୍	-2641
▁ଭାବୁ	-2642
▁ସାରା	-2643
▁ସେତେ	-2644
▁ସହାୟତା	-2645
ble	-2646
ଲଗ୍ନ	-2647
ମହାରାଜ	-2648
▁ସୂର୍ଯ୍ୟ	-2649
ଯ୍ଯ	-2650
▁Mo	-2651
କ୍ସି	-2652
ଦନ୍ତ	-2653
ଭୂମି	-2654
▁ଅଜବ	-2655
▁ଏଥର	-2656
▁ଅଞ୍ଚ	-2657
▁ଖୁସି	-2658
▁ଶୈଳୀ	-2659
▁ଇଂରାଜ	-2660
▁ଦୁର୍ଘଟ	-2661
▁ବଲିଉଡ୍	-2662
ros	-2663
ଟ୍ଟ	-2664
ନାଥ	-2665
cond	-2666
▁ଟ୍ର	-2667
▁more	-2668
▁ପଚାର	-2669
▁ବିଚାର	-2670
▁ରକ୍ଷା	-2671
▁inmenu	-2672
ଟୱ	-2673
ନ୍ତର	-2674
▁ମୋବ	-2675
▁କପୁର	-2676
▁ଦାୟିତ୍ବ	-2677
ଡୁ	-2678
ଷା	-2679
▁୦	-2680
ink	-2681
ରିବ	-2682
▁ଗତ	-2683
▁ବଜ	-2684
atus	-2685
ାଜିକ	-2686
ିତ୍ୱ	-2687
▁ମାର	-2688
ଚ୍ଛିତ	-2689
ସ୍ତାରେ	-2690
▁ଅନ୍ୟତମ	-2691
▁ଅବସ୍ଥା	-2692
▁ଉପଲବ୍ଧ	-2693
▁ସକ୍ରିୟ	-2694
▁ଉପସ୍ଥିତ	-2695
▁ଏଥିପାଇଁ	-2696
▁ପରବର୍ତ୍ତୀ	-2697
16	-2698
ହ୍	-2699
cri	-2700
fore	-2701
ପାରୁ	-2702
▁ଅପେ	-2703
▁କବି	-2704
▁ବଦଳ	-2705
Query	-2706
▁ମୁକ୍ତ	-2707
▁ରହିବା	-2708
▁ରହିବେ	-2709
▁ଟଙ୍କାର	-2710
▁କରିପାରେ	-2711
▁31	-2712
nter	-2713
କ୍ଷେ	-2714
▁ଯିଏ	-2715
▁କଦଳୀ	-2716
▁ନିମ୍ନ	-2717
▁ପାଇବେ	-2718
▁ଦେଖିବା	-2719
▁କରୁଥିଲେ	-2720
▁ବ୍ୟବସ୍ଥା	-2721
ିଲ	-2722
ted	-2723
ଟିଂ	-2724
ିକରଣ	-2725
▁ଅଫି	-2726
▁ରୂପ	-2727
କ୍ସ୍ଟ	-2728
▁ବାଲେ	-2729
ଯାତ୍ରା	-2730
ାର୍ଯ୍ୟ	-2731
▁ଏହାସହ	-2732
▁ଆଦିବାସୀ	-2733
▁ଦେଇଥିଲେ	-2734
▁ନବୀନଙ୍କ	-2735
▁ସାମାଜିକ	-2736
ବୋ	-2737
ସନ୍ଦ	-2738
▁ପରା	-2739
▁ବ୍ର	-2740
▁ଅତ୍ୟ	-2741
▁ଚୋପା	-2742
▁ଛୁଇଁ	-2743
▁ଜିନି	-2744
▁ଦେବି	-2745
୍ରେଣ୍ଡ	-2746
▁ସେକଥା	-2747
▁ଚେଷ୍ଟା	-2748
▁ମିଳିଲା	-2749
go	-2750
ଆଁ	-2751
ଶିବ	-2752
▁An	-2753
ଡ଼ିଆ	-2754
▁ଙ୍କ	-2755
▁ପତ୍	-2756
▁ମାତ	-2757
ଚିତ୍ର	-2758
▁ସ୍ୱର	-2759
▁କୋଉଠି	-2760
▁ସର୍ବା	-2761
ହାଁନ୍ତି	-2762
▁before	-2763
▁କ୍ଷେତ୍ରରେ	-2764
:2	-2765
oss	-2766
ଣ୍ଠ	-2767
ମରେ	-2768
ଶ୍ଵ	-2769
▁ପଣ	-2770
▁ସଚ	-2771
ଧର୍ମ	-2772
ଶାରେ	-2773
ାମାର	-2774
▁not	-2775
▁ମାଆ	-2776
ରୁଦ୍ଧ	-2777
▁ପରାମ	-2778
rosoft	-2779
▁ଘୁଞ୍ଚ	-2780
▁ବଚ୍ଛିତ	-2781
▁ଶ୍ରଦ୍ଧା	-2782
.”	-2783
ଷଣ	-2784
ସଲ	-2785
all	-2786
ely	-2787
ରୋଧ	-2788
▁ଫ୍	-2789
▁୧୨	-2790
▁ଦ୍ଵ	-2791
▁ଧାର	-2792
ଚସ୍ପତି	-2793
▁ଉଦ୍ଧବ	-2794
▁ବର୍ଷର	-2795
▁ଚାଲିଛି	-2796
▁ତାହାଙ୍କ	-2797
▁ଔ	-2798
ପାତ	-2799
▁ରବ	-2800
▁କର୍	-2801
▁Odia	-2802
▁ହିସା	-2803
▁ବୁଦ୍ଧ	-2804
▁ମାେତେ	-2805
▁ମୁକ୍ତି	-2806
▁ଖୋଲନ୍ତୁ	-2807
▁ପରାମର୍ଶ	-2808
▁ପାକିସ୍ତାନ	-2809
▁ସଦସ୍ୟଙ୍କୁ	-2810
13	-2811
??	-2812
ଦର	-2813
ଦୟ	-2814
୩୦	-2815
ile	-2816
ସଭା	-2817
ସରେ	-2818
▁Mic	-2819
▁list	-2820
▁କୋଲା	-2821
ଗୁଡିକୁ	-2822
▁ଅବସାନ	-2823
▁ଜିନିଷ	-2824
▁ପାତ୍ର	-2825
▁ମ୍ୟାନେ	-2826
▁ପାଦଦେଲେ	-2827
▁ପ୍ରକଳ୍ପ	-2828
▁ବାଚସ୍ପତି	-2829
▁ସ୍ମାରକପତ୍ର	-2830
ହୋ	-2831
▁SO	-2832
▁ନୋ	-2833
▁୩୪	-2834
ବନ୍ଧ	-2835
ଭାରତ	-2836
▁ଆଦି	-2837
ପୋର୍ଟ	-2838
▁ତୋତେ	-2839
▁ସିପି	-2840
▁ଅଧ୍ୟା	-2841
▁ଶାନ୍ତି	-2842
▁ବ୍ୟାୟାମ	-2843
sh	-2844
▁Se	-2845
▁ଜୁ	-2846
ବିଧା	-2847
▁ଫାଇ	-2848
ସେନାର	-2849
▁ଓକିଲ	-2850
▁ଯୋଗା	-2851
▁କୁଆଡେ	-2852
▁second	-2853
▁ତନ୍ତ୍ର	-2854
▁Microsoft	-2855
ZH	-2856
ଖଲ	-2857
ତର	-2858
▁su	-2859
▁କାଳ	-2860
▁କଙ୍କ	-2861
▁ଚିନା	-2862
ାଯାଇଛି	-2863
▁status	-2864
▁ମଧ୍ୟରୁ	-2865
▁ରଖନ୍ତୁ	-2866
▁ବାଲେଶ୍ୱର	-2867
▁ଯାଇଛନ୍ତି	-2868
▁ସେଥିପାଇଁ	-2869
▁କରାଇଛନ୍ତି	-2870
▁ମହାରାଷ୍ଟ୍ରର	-2871
am	-2872
ଏମ	-2873
ହକ	-2874
ter	-2875
▁ଅଟ	-2876
▁ମରି	-2877
▁ଯିବ	-2878
▁ପ୍ଲଗ	-2879
▁ମ୍ୟା	-2880
▁ଯାହାର	-2881
▁ଚିନାବାଦ	-2882
▁ଡ୍ରାମାର	-2883
▁ଲୋକଙ୍କୁ	-2884
ହେବ	-2885
ାମୁ	-2886
▁Ge	-2887
▁ତୋର	-2888
▁ସିଏ	-2889
ାମାନେ	-2890
▁ଆସିବ	-2891
▁ହାଇକ	-2892
▁ସୁସମା	-2893
▁ଅନୁମତି	-2894
▁କାଳିଦାସ	-2895
▁କୋଲାମ୍ବ	-2896
▁ମୁଖ୍ୟମନ୍ତ୍ରୀ	-2897
ug	-2898
ଗଜ	-2899
ols	-2900
ଆରେ	-2901
▁ଏନ	-2902
▁ଚକ	-2903
ଘାଡି	-2904
▁ଶାର	-2905
▁9.18	-2906
▁କରୁଛ	-2907
▁ଠାକ୍	-2908
▁ଦର୍ଶ	-2909
▁ପାରୁ	-2910
▁ଅଘାଡି	-2911
▁ଆତ୍ମା	-2912
▁ଯୁକ୍ତ	-2913
▁ମୁତାବକ	-2914
▁ସୁନ୍ଦର	-2915
ଶିବସେନାର	-2916
▁ବ୍ୟାଙ୍କ୍	-2917
▁ବିଜ୍ଞପ୍ତି	-2918
▁କୋଲାମ୍ବକାର	-2919
ଉନ	-2920
ରିକ	-2921
▁34	-2922
କ୍ଷିଣ	-2923
▁Home	-2924
▁ଚୀନ୍	-2925
▁ବ୍ରା	-2926
▁ସେନା	-2927
▁ତଦନ୍ତ	-2928
▁ବହୁତ୍	-2929
▁ଉତ୍ପାଦ	-2930
▁ଜୀବନରେ	-2931
▁ବିବରଣୀ	-2932
▁ମହାପ୍ରଭୁ	-2933
▁ବ୍ୟକ୍ତିଗତ	-2934
ff	-2935
▁ଷ	-2936
ara	-2937
day	-2938
ଭାଇ	-2939
▁୭୫	-2940
କର୍ଷ	-2941
▁ବାଛ	-2942
▁୧୯୫	-2943
▁your	-2944
▁ଆଘାତ	-2945
▁ଧର୍ମ	-2946
▁ବିଜୁ	-2947
▁ଆସିବେ	-2948
▁ପୁଅକୁ	-2949
▁ବେପାର	-2950
▁ମୁଣ୍ଡ	-2951
▁ହସ୍ତା	-2952
ପାରନ୍ତି	-2953
▁ଚର୍ଚ୍ଚ	-2954
▁ନିକଟକୁ	-2955
▁ଖାଦ୍ୟପେ	-2956
▁ପ୍ରଦର୍ଶନ	-2957
ପୂ	-2958
▁ar	-2959
▁କଳ	-2960
,...	-2961
port	-2962
ୃତ୍ୟ	-2963
▁ଟାଇ	-2964
▁ଏକଥା	-2965
▁ନୀତି	-2966
▁ବାଜି	-2967
▁ରାଶି	-2968
▁କରାଯିବ	-2969
▁ରାଜନୀତି	-2970
▁ସ୍ଥାନରେ	-2971
▁ଭଉଣୀମାନେ	-2972
▁ସନ୍ଦେଶକୁ	-2973
eb	-2974
।’	-2975
ଜିଂ	-2976
▁):	-2977
ତିହା	-2978
▁ସତେ	-2979
▁ଉନ୍ନ	-2980
▁ସଂସ୍	-2981
▁ସିଂହ	-2982
▁କିଭଳି	-2983
▁ଖର୍ଚ୍ଚ	-2984
▁ମାନଙ୍କ	-2985
▁ସମ୍ଭାବ	-2986
▁ପଚାରିଲା	-2987
▁ପ୍ରଶ୍ନର	-2988
▁ମ୍ୟାନେଜର	-2989
com	-2990
out	-2991
ତରେ	-2992
ହରେ	-2993
▁[2	-2994
▁ଦଲି	-2995
▁ସୂଚ	-2996
▁କରିନ	-2997
▁କଷ୍ଟ	-2998
▁ଟିପ୍	-2999
▁ଭଦ୍ର	-3000
▁ପରିଚୟ	-3001
▁କଙ୍କାଳ	-3002
▁ପୁସ୍ତକ	-3003
▁ଅଣ	-3004
▁ବଳ	-3005
mail	-3006
ଲଙ୍କ	-3007
▁ଆଖି	-3008
▁ଭବି	-3009
▁ଭୁଲ	-3010
▁2014	-3011
▁ପର୍ବ	-3012
▁ବିଦ୍ୱ	-3013
▁ରାସ୍ତା	-3014
▁ଦ୍ୱିତୀୟ	-3015
▁ସାମଗ୍ରୀ	-3016
▁ନିଷ୍କର୍ଷ	-3017
▁ସମ୍ଭାବନା	-3018
▁ବାହାରିପାରେ	-3019
▁ପ୍ରଧାନମନ୍ତ୍ରୀ	-3020
ST	-3021
ଜଣ	-3022
ଜୟ	-3023
▁;	-3024
ଧାର	-3025
▁24	-3026
▁ଦୋ	-3027
ନାୟକ	-3028
▁ଅଦା	-3029
▁will	-3030
▁ତୁମର	-3031
▁ମୃତକ	-3032
indows	-3033
▁ଛାତ୍ର	-3034
▁ଯାଉଛି	-3035
▁ହାତରେ	-3036
▁ନିକଟରେ	-3037
▁କାର୍ଯ୍ଯ	-3038
▁ଖାଦ୍ୟପେୟର	-3039
ଫେ	-3040
ଯେ	-3041
ଷଧ	-3042
▁ଆଇନ	-3043
▁ଆଗରେ	-3044
▁ଓଡିଆ	-3045
▁ଜାତି	-3046
▁ପୁରା	-3047
▁ପ୍ରେର	-3048
▁option	-3049
▁ଅନୁବାଦ	-3050
▁ଯନ୍ତ୍ର	-3051
▁ପ୍ରମାଣପତ୍ର	-3052
han	-3053
rou	-3054
ଟର୍	-3055
ଡରେ	-3056
▁।"	-3057
Poss	-3058
ମାସ୍	-3059
▁Com	-3060
▁ago	-3061
ately	-3062
ଣ୍ଡାର	-3063
ଭୁକ୍ତ	-3064
▁କାଢ଼	-3065
▁ଖାତା	-3066
▁ଦାଦା	-3067
▁ନେଟୱ	-3068
essive	-3069
▁ଆଜ୍ଞା	-3070
▁ଉଚିତ୍	-3071
▁ଫିଲ୍ମ	-3072
▁ବେଜିଂ	-3073
NamePoss	-3074
▁Article	-3075
▁private	-3076
▁କମ୍ପାନୀ	-3077
▁ପ୍ରତିଶତ	-3078
▁publicly	-3079
▁ମାଧ୍ୟମଟି	-3080
▁privately	-3081
NamePossessive	-3082
ଳାପ	-3083
▁ଅଫ	-3084
unch	-3085
ଲ୍ୟା	-3086
▁ଇମେ	-3087
▁ଯୋଗୁ	-3088
▁ଗ୍ରାହକ	-3089
▁ଚାଲିଲେ	-3090
▁ସଂସ୍କରଣ	-3091
▁ସନ୍ଦେଶଗୁଡ଼ିକୁ	-3092
50	-3093
ଥେ	-3094
ymb	-3095
crip	-3096
▁ପାପ	-3097
▁ଶରୀ	-3098
▁୧୯୭	-3099
▁ପ୍ରଶ	-3100
▁ତୁମ୍ଭର	-3101
▁ଶରୀରରେ	-3102
▁ଶିକ୍ଷା	-3103
▁ବିଦ୍ୱାନ	-3104
EN	-3105
ଢି	-3106
▁ନମ	-3107
ଶ୍ଚୟ	-3108
▁ଆଗରୁ	-3109
▁ଏୟାର	-3110
▁ନହେଲେ	-3111
▁ମହାଦେ	-3112
▁ସନ୍ତାନ	-3113
▁ନିମନ୍ତେ	-3114
▁ସ୍ୱାଧୀନ	-3115
▁ତାହାଙ୍କୁ	-3116
▁ମାନସିକତା	-3117
▁କରିପାରିଲା	-3118
▁କରାଯାଇଥିଲା	-3119
0}	-3120
ବଦ	-3121
bur	-3122
dit	-3123
his	-3124
nce	-3125
▁?’	-3126
▁ଆଶ	-3127
▁ଏମ	-3128
orge	-3129
ଚୀନ୍	-3130
▁ତୃତ	-3131
▁ପ୍ରିୟ	-3132
▁ଶର୍ମା	-3133
ାଯାଇଥାଏ	-3134
▁ଜିଲାରେ	-3135
▁ସ୍ଥାନୀୟ	-3136
art	-3137
ଥରେ	-3138
▁ଗୌ	-3139
▁ଚମ	-3140
ଲାଇନ	-3141
▁ଚାରି	-3142
▁Short	-3143
▁ନୃତ୍ୟ	-3144
▁ଶୀର୍ଷକ	-3145
▁ବିଜେପିର	-3146
▁ବ୍ୟବସାୟ	-3147
▁ବୁଦ୍ଧଙ୍କ	-3148
▁ହାଇକୋର୍ଟ	-3149
ue	-3150
ase	-3151
per	-3152
▁୧୭	-3153
କ୍ଷଣ	-3154
କ୍ଷମ	-3155
▁ଜମା	-3156
▁ତୁଳ	-3157
▁ନଦୀ	-3158
▁ଚାଷୀ	-3159
▁ଛୁଟି	-3160
▁ପ୍ରୋ	-3161
▁ବୁଝି	-3162
▁ଯିବେ	-3163
ousand	-3164
▁ଛାଡ଼ି	-3165
▁ତାହାର	-3166
▁search	-3167
▁ରବିବାର	-3168
▁thousand	-3169
▁ସାକ୍ଷାତକାର	-3170
▁ଆଦିବାସୀମାନଙ୍କ	-3171
ree	-3172
୧୭୫	-3173
▁us	-3174
▁ଭୋ	-3175
▁୨୧	-3176
▁୨୬	-3177
orld	-3178
rans	-3179
ଚଳିତ	-3180
▁ଘରୁ	-3181
▁ଧ୍ୱ	-3182
▁ପାସ	-3183
▁dies	-3184
▁ପଟ୍ଟ	-3185
▁ସଚିବ	-3186
▁ସମାଜ	-3187
▁ବାଇକ୍	-3188
▁ଭିନ୍ନ	-3189
▁ମାଲିକ	-3190
▁ରଞ୍ଜନ	-3191
▁George	-3192
▁Martin	-3193
▁reader	-3194
▁ଚୋପାଲଗା	-3195
▁ମହାଦେବନ	-3196
▁ଦୁର୍ଘଟଣା	-3197
▁ମୋଦିଙ୍କୁ	-3198
▁ଚିନାବାଦାମୀ	-3199
CO	-3200
Re	-3201
ac	-3202
ag	-3203
ସମ	-3204
ନୀୟ	-3205
ହୋଇ	-3206
▁Ti	-3207
▁ଗେ	-3208
▁res	-3209
▁ଆଶା	-3210
▁ଜଗତ	-3211
▁ଇଣ୍ଟର	-3212
▁ବଦମାସ୍	-3213
▁ଯାହାକୁ	-3214
▁ଲଢୁଥିବା	-3215
ace	-3216
ang	-3217
ଥିଲ	-3218
▁If	-3219
ାଉଛି	-3220
▁ଔଷଧ	-3221
ିକିତ୍	-3222
▁ସାର୍	-3223
▁ଓଡିଶା	-3224
▁ଚାକିରୀ	-3225
▁ମୋବାଇଲ	-3226
▁ବିରୁଦ୍ଧ	-3227
#3	-3228
red	-3229
ଙ୍ଖ	-3230
▁28	-3231
▁Me	-3232
▁ଆଲ	-3233
▁ଧୂ	-3234
▁ଉଲ୍	-3235
ଗ୍ରାମ	-3236
୍ରିୟା	-3237
▁ଟ୍ୟା	-3238
▁ଧନ୍ୟ	-3239
▁ପିତା	-3240
▁ଅକ୍ଟୋ	-3241
▁ଉତ୍ତମ	-3242
▁ତୃତୀୟ	-3243
▁ପ୍ଲଗଇନ	-3244
▁ବାସ୍ତବ	-3245
▁ସାଙ୍ଗେ	-3246
▁ହସିଦେଲା	-3247
▁ସର୍ବାଧିକ	-3248
!!	-3249
oc	-3250
▁--	-3251
▁ଦଶ	-3252
ନ୍ଦୁ	-3253
▁ରାଉ	-3254
ିବିଆଇ	-3255
▁କାଗଜ	-3256
ଲେଣ୍ଡର	-3257
▁ଜଣଙ୍କ	-3258
▁ନାମରେ	-3259
▁ଦେଖିଲି	-3260
▁ଅକ୍ଟୋବର	-3261
▁କୁହନ୍ତି	-3262
▁ଗ୍ୟାଙ୍ଗ	-3263
▁ଲୋକଟିକୁ	-3264
▁ସମସ୍ତଙ୍କୁ	-3265
30	-3266
ht	-3267
amb	-3268
ହରଣ	-3269
▁De	-3270
▁sh	-3271
▁ଅମ	-3272
▁ଧର	-3273
▁ମର	-3274
▁୮୦	-3275
ଏଣ୍ଟ	-3276
ଙ୍କି	-3277
ବାସୀ	-3278
ୀରିକ	-3279
▁Use	-3280
▁ସମୁ	-3281
▁ସହି	-3282
▁this	-3283
▁ପିନ୍	-3284
▁ମନ୍ଦି	-3285
▁ସୌମ୍ୟ	-3286
▁ସ୍ପଷ୍ଟ	-3287
▁ତୁମ୍ଭମାନଙ୍କୁ	-3288
ପକ	-3289
▁j	-3290
▁ଅଥ	-3291
ରଙ୍ଗ	-3292
ହିତା	-3293
ାର୍ଟ	-3294
▁ଦାମ	-3295
▁ସରଳ	-3296
▁ଆକାଶ	-3297
▁୨୦୧୪	-3298
▁ଇଚ୍ଛା	-3299
▁ଚାହେଁ	-3300
▁ଇଂରାଜୀ	-3301
▁କିଣନ୍ତୁ	-3302
ଘ୍ର	-3303
ଦିଆ	-3304
▁ପୀ	-3305
୍ୟାମ	-3306
ownlo	-3307
▁ଅଜଣା	-3308
▁ତ୍ୱଂ	-3309
▁ପଡିବ	-3310
▁ଷ୍ଟେ	-3311
▁ଏକାଠି	-3312
▁ପସନ୍ଦ	-3313
▁ଭାରତର	-3314
▁ସହଯୋଗ	-3315
ଗୁଡ଼ିକର	-3316
▁ତୁମ୍ଭକୁ	-3317
▁ନେଟୱର୍କ	-3318
▁ପ୍ରାପ୍ତ	-3319
▁National	-3320
▁ସମସ୍ତଙ୍କ	-3321
▁ଲୋକମାନଙ୍କୁ	-3322
AL	-3323
CGN	-3324
dge	-3325
ool	-3326
▁ex	-3327
ାମୃତ	-3328
▁ପଥର	-3329
▁ଉଦ୍ୟ	-3330
▁ସତ୍ଯ	-3331
▁କାର୍ଡ	-3332
▁ସରକାରୀ	-3333
.)	-3334
FF	-3335
ଘୁ	-3336
୧୦	-3337
ିନୀ	-3338
▁as	-3339
▁en	-3340
ଡ଼ିଓ	-3341
ଣ୍ଟି	-3342
ଥିବେ	-3343
ଥିଲୁ	-3344
ସଙ୍କ	-3345
ାତିଲ	-3346
▁Man	-3347
▁।’’	-3348
▁ବଢିଆ	-3349
▁ମନରେ	-3350
ମାଧ୍ୟମ	-3351
▁ଉପରକୁ	-3352
▁ପ୍ରାକ	-3353
ଦ୍ଦେଶ୍ୟ	-3354
▁ଯାହାକି	-3355
ଲଫ୍ରେଣ୍ଡ	-3356
▁ଅକ୍ଷରରୂପ	-3357
▁ଦେଖିବାକୁ	-3358
▁ଭୁବନେଶ୍ୱର	-3359
ob	-3360
ଭ୍	-3361
ଆପଣ	-3362
ଯାନ	-3363
ରାଲ	-3364
ସାଇ	-3365
symb	-3366
ସାରି	-3367
▁ଆର୍	-3368
▁ଗଲେ	-3369
▁ନିର	-3370
▁ଡିସେ	-3371
▁ପଞ୍ଜ	-3372
▁ପ୍ଲା	-3373
format	-3374
▁ତାଲିକ	-3375
symbols	-3376
▁ଚିକିତ୍	-3377
▁ସଂଲଗ୍ନ	-3378
▁ପଟ୍ଟନାୟକ	-3379
।।	-3380
ୈଧ	-3381
ain	-3382
ଥିର	-3383
ନ୍ସ	-3384
୍ଯା	-3385
▁ଭଗ	-3386
▁ଲେ	-3387
▁୧୮	-3388
ence	-3389
▁ଆହତ	-3390
▁କ୍ଲ	-3391
▁ଟିଭି	-3392
▁ଡାକି	-3393
▁ଦଣ୍ଡ	-3394
▁ଫେବୃ	-3395
▁ମଣ୍ଡ	-3396
▁ସଞ୍ଜ	-3397
▁ସୋନା	-3398
▁୨୦୧୨	-3399
ପ୍ରତିକ	-3400
▁ଟିପ୍ସ	-3401
ପୂର୍ଣ୍ଣ	-3402
▁ସୁରକ୍ଷ	-3403
▁ଜୀବାମୃତ	-3404
▁ଶାରୀରିକ	-3405
▁ଶ୍ରେଷ୍ଠ	-3406
▁କରିପାରିବ	-3407
ଖୁ	-3408
▁*	-3409
ଗାର	-3410
ଭିଦ	-3411
ଲକୁ	-3412
ଙ୍ଗ୍	-3413
ନାରେ	-3414
▁ନଜର	-3415
▁ଲାଇ	-3416
▁ସାର	-3417
▁୫୦୦	-3418
▁ଥାନା	-3419
▁ଏତିକି	-3420
▁ପାଇବା	-3421
▁ବହିଷ୍	-3422
▁ରଖିବା	-3423
▁ଅନୁରୋଧ	-3424
▁ଅଭିଯୋଗ	-3425
▁ଚିହ୍ନଟ	-3426
ାନୁଷ୍ଠାନ	-3427
▁କହିବାକୁ	-3428
▁ରିପୋର୍ଟ	-3429
▁ନିଯୁକ୍ତି	-3430
▁ସୁସମାଚାର	-3431
:4	-3432
gi	-3433
▁at	-3434
▁୧୩	-3435
bout	-3436
ଷ୍ଟେ	-3437
▁One	-3438
▁Ori	-3439
▁ଆଦୌ	-3440
ାନାରେ	-3441
▁Read	-3442
▁ଏସିଆ	-3443
▁ଇତ୍ୟା	-3444
▁ପତ୍ନୀ	-3445
▁ବାତିଲ	-3446
▁ବିଧାନ	-3447
▁ବିସ୍ତ	-3448
▁ଅନ୍ତର୍	-3449
▁ଦ୍ଵାରା	-3450
ନାହାନ୍ତି	-3451
▁ପଠାନ୍ତୁ	-3452
▁ରଖିବାକୁ	-3453
▁ଉଦ୍ଦେଶ୍ୟ	-3454
▁ଗଣମାଧ୍ୟମ	-3455
Ind	-3456
▁TV	-3457
▁ଆଫ	-3458
▁କଃ	-3459
▁ଶେ	-3460
bury	-3461
ବାବୁ	-3462
▁Cad	-3463
▁ଅସମ	-3464
କ୍ଷେପ	-3465
▁ଅଷ୍ଟ	-3466
▁ଆଗକୁ	-3467
▁ଫୋନ୍	-3468
▁ଗୁଡିକ	-3469
▁ଯେପରି	-3470
▁ଯୋଗୁଁ	-3471
▁ପ୍ରମୁଖ	-3472
▁ହୋଇଗଲା	-3473
▁Cadbury	-3474
▁ଅବସ୍ଥିତ	-3475
▁ତାରିଖରେ	-3476
▁ବାଛନ୍ତୁ	-3477
,“	-3478
ଟିର	-3479
ାନ୍ସ	-3480
▁ପଶୁ	-3481
▁ବ୍ଲ	-3482
▁ମଝି	-3483
▁ସଫା	-3484
▁ସେଟ	-3485
ପତ୍ତି	-3486
▁Have	-3487
▁ଙ୍କୁ	-3488
▁ଡିରେ	-3489
ଉଛନ୍ତି	-3490
▁ପଞ୍ଚମ	-3491
▁ସାମିଲ	-3492
▁ହେବାର	-3493
▁ପୃଥିବୀ	-3494
▁ବିଦ୍ୟା	-3495
▁ସ୍ମୃତି	-3496
▁ଇତ୍ୟାଦି	-3497
▁ପରିଚାଳକ	-3498
▁ରାସ୍ତାରେ	-3499
▁କାର୍ଯ୍ୟାନୁଷ୍ଠାନ	-3500
-2	-3501
ଇେ	-3502
ଚୁ	-3503
ହୃତ	-3504
▁ଆନ	-3505
ପନୀୟ	-3506
▁MZH	-3507
▁ଅଫ୍	-3508
▁ଜଗା	-3509
▁ହବେ	-3510
▁ଅବୈଧ	-3511
▁କହୁଛ	-3512
▁ପରଦା	-3513
▁ସିନେ	-3514
onditi	-3515
▁ରୂପରେ	-3516
▁ଯେମିତି	-3517
▁ଛାଡିଦେଲେ	-3518
▁ନିଷ୍କ୍ରିୟ	-3519
?’	-3520
ଟପ	-3521
ନୋ	-3522
ଷକ	-3523
gra	-3524
ype	-3525
କ୍ୟ	-3526
ନାମ	-3527
▁27	-3528
▁Te	-3529
▁ପକ	-3530
Odia	-3531
roup	-3532
ପରିକି	-3533
ୁଥିଲା	-3534
▁ଅନୁଭବ	-3535
▁ଏଥିରୁ	-3536
▁ପାଞ୍ଚ	-3537
▁ହେଇଚି	-3538
ବ୍ୟବହାର	-3539
▁କର୍ତ୍ତ	-3540
▁ଗୁଡ଼ିକ	-3541
▁ଭାରତରେ	-3542
▁ସମାପ୍ତ	-3543
▁ଅପେକ୍ଷା	-3544
▁ଆସୁଥିଲେ	-3545
▁ସବୁଠାରୁ	-3546
▁ପ୍ରତ୍ୟେକ	-3547
▁ରଥଯାତ୍ରା	-3548
▁ପୃଷ୍ଠଭୂମି	-3549
▁ବିରୁଦ୍ଧରେ	-3550
▁ହସ୍ତାକ୍ଷର	-3551
);	-3552
ik	-3553
ନର	-3554
ୂଳ	-3555
ୱେ	-3556
▁║	-3557
ଖାଳ	-3558
ଟାଏ	-3559
ଦାୟ	-3560
ଶାର	-3561
▁it	-3562
▁ri	-3563
FFCO	-3564
▁ODI	-3565
▁was	-3566
▁who	-3567
▁ଅସୁ	-3568
▁ସଭା	-3569
🙏🙏🙏🙏	-3570
▁ଉଇକି	-3571
▁କ୍ଯା	-3572
▁ଘଣ୍ଟ	-3573
▁ଢିଲା	-3574
▁ପୂରା	-3575
▁ମିଲି	-3576
▁ଲଗାଇ	-3577
▁ଉପଚାର	-3578
▁ସପ୍ତା	-3579
▁ପ୍ରତିକ	-3580
▁ନୂଆବର୍ଷ	-3581
▁ମହାନ୍ତି	-3582
▁ଯାଆନ୍ତୁ	-3583
▁ହେଉଛନ୍ତି	-3584
▁ନିୟନ୍ତ୍ରଣ	-3585
ail	-3586
ays	-3587
{0}	-3588
କ୍ଟ	-3589
ଳିଆ	-3590
inks	-3591
ତୁମେ	-3592
ହତ୍ୟା	-3593
▁କହିଲ	-3594
▁ଡାଉନ	-3595
▁ନିରା	-3596
▁ପଖାଳ	-3597
▁ମାଂସ	-3598
▁ଯାକୁ	-3599
▁ମୁଦ୍ର	-3600
▁ଆକ୍ରମଣ	-3601
▁ପ୍ରସାଦ	-3602
▁ଭିଡ଼ିଓ	-3603
▁Windows	-3604
:/	-3605
ଲ୍ଯ	-3606
ଶ୍ଯ	-3607
▁ଢା	-3608
ଫାନି	-3609
▁ଓଜନ	-3610
▁ଦୋଷ	-3611
▁ସେଲ	-3612
ଯାଉଛି	-3613
▁ଅଧୀନ	-3614
ୁଛନ୍ତି	-3615
▁ଟିକେଟ	-3616
▁ପୋଷ୍ଟ	-3617
▁ଭିତରୁ	-3618
▁ସିବିଆଇ	-3619
▁ରାଜ୍ୟରେ	-3620
▁ମହାପ୍ରଭୁଙ୍କ	-3621
Se	-3622
ଏଲ	-3623
ଚର	-3624
ମତ	-3625
ିମ	-3626
yst	-3627
ୋଟି	-3628
▁ୟେ	-3629
ogle	-3630
ther	-3631
▁ଏଠି	-3632
▁କଟକ	-3633
▁ପେଟ	-3634
▁vide	-3635
▁ଉତ୍କ	-3636
▁କହିବ	-3637
▁ଟ୍ରା	-3638
▁ମହାନ	-3639
▁about	-3640
▁କାମରେ	-3641
▁ଖାଇଲେ	-3642
▁ଉଦ୍ଭିଦ	-3643
▁ସଂସ୍ଥା	-3644
▁article	-3645
ap	-3646
ଂସା	-3647
ସମ୍	-3648
ହ୍ନ	-3649
▁(1	-3650
▁No	-3651
▁me	-3652
▁ଯମ	-3653
▁ସୀ	-3654
ଯିବା	-3655
▁ଋତୁ	-3656
▁କଭର	-3657
ାନ୍ଧି	-3658
ାରମ୍ଭ	-3659
▁ଜାରି	-3660
▁ଆସୁଛି	-3661
▁ନଥିଲା	-3662
କାରୀଙ୍କ	-3663
▁ଇଣ୍ଟରନେ	-3664
▁ଖୋଜନ୍ତୁ	-3665
▁ନିଷ୍ପତ୍ତି	-3666
▁ଗର୍ଲଫ୍ରେଣ୍ଡ	-3667
em	-3668
---	-3669
ube	-3670
ଯଦି	-3671
▁ଇନ	-3672
▁ଯୌ	-3673
ାର୍ଡ	-3674
▁ଧନୁ	-3675
▁ସାହ	-3676
ତିଜନକ	-3677
▁ଛାତି	-3678
▁ନଥାଏ	-3679
▁ପୁଲି	-3680
▁ମାତୃ	-3681
▁ସାରି	-3682
▁ଗାଇବା	-3683
▁ରହିଲେ	-3684
ନିର୍ଦ୍ଧ	-3685
▁ଏହିପରି	-3686
▁କ୍ୟାଲେ	-3687
▁ଗୋପନୀୟ	-3688
▁ସ୍ଥାପନ	-3689
▁ଆପତିଜନକ	-3690
▁ଫୋଲଡରକୁ	-3691
▁ହୁଅନ୍ତୁ	-3692
▁ହେଉଥିବା	-3693
▁ଡିସେମ୍ବର	-3694
ish	-3695
ser	-3696
ଂସଦ	-3697
ପ୍ନ	-3698
ାୟଣ	-3699
▁29	-3700
▁40	-3701
▁ହର	-3702
ବେଦନ	-3703
▁Don	-3704
▁cur	-3705
▁ଏନ୍	-3706
▁ବରଫ	-3707
▁ହାଃ	-3708
▁ବନାମ	-3709
▁ବିପଦ	-3710
▁ଦେଖାଯ	-3711
▁ଦେଖିଲେ	-3712
▁ବଞ୍ଚିତ	-3713
▁ସାଥିରେ	-3714
▁ସୁଦ୍ଧା	-3715
▁Conditi	-3716
୧୫	-3717
old	-3718
ory	-3719
ଚାପ	-3720
ର୍ସ	-3721
▁33	-3722
▁35	-3723
▁ଧା	-3724
▁Gen	-3725
▁କେଇ	-3726
▁ଦାଶ	-3727
ଧ୍ୟାନ	-3728
ଯୋଗ୍ୟ	-3729
▁that	-3730
▁ଚକିତ	-3731
▁ଚାପି	-3732
▁ବଜାଜ	-3733
▁IFFCO	-3734
▁ଗାଁରୁ	-3735
▁ବିମାନ	-3736
▁କାରଣରୁ	-3737
▁ଡାଉନଲୋ	-3738
▁ଯୁକ୍ତି	-3739
▁ଚାଲିଗଲା	-3740
▁ଛାଡିଦେଲେଣି	-3741
ER	-3742
କୌ	-3743
ଫୁ	-3744
ଭୟ	-3745
ହୀ	-3746
ize	-3747
କଲେ	-3748
ନିକ	-3749
ଲିଆ	-3750
ଧାରଣ	-3751
ବାଦୀ	-3752
ହେତୁ	-3753
▁www	-3754
▁ହାର	-3755
ଦାହରଣ	-3756
▁ଏଯାଏ	-3757
▁ଟିକି	-3758
▁ଦମ୍ପ	-3759
▁World	-3760
▁ପଡିଲା	-3761
ଯାଇଥିଲା	-3762
▁ଅସମର୍ଥ	-3763
▁ଶାସନରେ	-3764
▁୭୦ବର୍ଷ	-3765
▁ଅତ୍ୟନ୍ତ	-3766
▁ଏମାନଙ୍କ	-3767
▁ରହିଥିଲେ	-3768
▁କ୍ଷମତାକୁ	-3769
▁ସମ୍ପାଦନା	-3770
▁ହୋଇଛନ୍ତି	-3771
ନିର୍ଦ୍ଧାରିତ	-3772
▁ସ୍ୱାଧୀନତାର	-3773
cc	-3774
▁’	-3775
che	-3776
oin	-3777
ବରଦ	-3778
ଷ୍କ	-3779
▁ତି	-3780
eral	-3781
▁Any	-3782
▁How	-3783
▁ଅସ୍	-3784
▁କସର	-3785
▁ବେଳ	-3786
inger	-3787
ଦିଷ୍ଟ	-3788
▁ନଷ୍ଟ	-3789
▁ପୂରଣ	-3790
▁ଶଗଡ଼	-3791
ଯାଇଥାଏ	-3792
▁ଦୁଇଟି	-3793
▁ଯାକୁବ	-3794
▁Downlo	-3795
▁ଆସିବାକୁ	-3796
▁କୋଉଠିକୁ	-3797
▁ଗ୍ରାମରେ	-3798
▁ଦାଦାଗିରି	-3799
▁କରାଯାଇଥିବା	-3800
ack	-3801
are	-3802
rin	-3803
▁To	-3804
କ୍କା	-3805
ଲମ୍ବ	-3806
ସ୍ତି	-3807
▁ଦ୍ର	-3808
▁ପଡ଼	-3809
▁ପାଳ	-3810
▁ବାମ	-3811
▁ହରି	-3812
ତିହାସ	-3813
▁ଆଣ୍ଡ	-3814
▁ଜବରଦ	-3815
▁ଘଟିଲା	-3816
▁Ginger	-3817
▁ଚାଲିବାରେ	-3818
▁ପୃଥିବୀରେ	-3819
▁ସେତେବେଳେ	-3820
▁Conditions	-3821
au	-3822
ide	-3823
କୁର	-3824
ିକର	-3825
▁la	-3826
ଶାସନ	-3827
▁can	-3828
▁କେଶ	-3829
▁ନିଆ	-3830
▁ଫୋନ	-3831
ଜ୍ଞତା	-3832
ଦର୍ଶନ	-3833
▁କୁହେ	-3834
▁ଯିବି	-3835
▁ଶଙ୍ଖ	-3836
▁ସ୍ୱୟ	-3837
ସଂହିତା	-3838
▁These	-3839
▁ଯୋଗ୍ୟ	-3840
▁ତାହାକୁ	-3841
▁ଭବିଷ୍ୟ	-3842
▁ରାଜ୍ୟର	-3843
▁ସୁବିଧା	-3844
▁ଧନ୍ୟବାଦ	-3845
▁ରହୁଛନ୍ତି	-3846
▁ସୁରକ୍ଷିତ	-3847
av	-3848
io	-3849
ଓଃ	-3850
ଡ଼ର	-3851
ହ୍ମ	-3852
▁(%	-3853
▁ହଳ	-3854
ହେଲା	-3855
▁che	-3856
▁ଅନ୍	-3857
▁ଦ୍ୟ	-3858
▁ଶୀତ	-3859
▁କରିଛ	-3860
▁ଜାଗା	-3861
▁ଟ୍ରେ	-3862
▁ଧାଇବ	-3863
▁ପଛକୁ	-3864
▁ଲିଖିତ	-3865
କର୍ତ୍ତା	-3866
▁ଦ୍ୟାରା	-3867
▁ଭର୍ତ୍ତି	-3868
▁ଆତ୍ମହତ୍ୟା	-3869
▁ରଖାଯାଇଥାଏ	-3870
ବ୍ୟବହାରକାରୀ	-3871
@)	-3872
#3&	-3873
eek	-3874
iop	-3875
ଟିଆ	-3876
▁En	-3877
▁କଅ	-3878
@@@)	-3879
▁!!!	-3880
▁ଥିବ	-3881
▁ବଟନ	-3882
▁ଭରଣ	-3883
▁ହଜି	-3884
ଣ୍ଡିତ	-3885
▁Cont	-3886
▁ଧାରା	-3887
▁ପୂଜା	-3888
▁check	-3889
▁group	-3890
▁ଗୋଟାଏ	-3891
▁ସର୍ଭି	-3892
▁ମନ୍ତ୍ର	-3893
▁ଘଣ୍ଟାରୁ	-3894
▁ଦାୟିତ୍ୱ	-3895
▁ନିର୍ଦ୍ଧ	-3896
▁ସମ୍ପାଦନ	-3897
▁ହୋଇଥିଲେ	-3898
▁ଚିକିତ୍ସା	-3899
▁ପରିସ୍ଥିତି	-3900
@@@@@@@@@@@)	-3901
No	-3902
ତଳ	-3903
ନଈ	-3904
rol	-3905
ବିକ	-3906
ହୀନ	-3907
▁Bi	-3908
▁ମୌ	-3909
▁ଵି	-3910
▁୨୫	-3911
ount	-3912
ନଈରୀ	-3913
ପ୍ଟେ	-3914
ଷ୍ଟର	-3915
୍ୟାଗ	-3916
▁are	-3917
▁ଆପ୍	-3918
▁କାନ	-3919
▁ଡକା	-3920
▁ଡାଇ	-3921
▁Comp	-3922
▁ଅକ୍ଷ	-3923
▁ଅଲଗା	-3924
▁କୃଷି	-3925
▁ତବେେ	-3926
▁ଦେଶର	-3927
▁ରାଣୀ	-3928
▁ନିରାଶ	-3929
▁ଚାଲିଲା	-3930
▁ମନ୍ଦିର	-3931
▁ଶଗଡ଼ରେ	-3932
▁ପ୍ରତିନି	-3933
▁ଆବଶ୍ୟକତା	-3934
TR	-3935
େଦ	-3936
rib	-3937
ଦିଅ	-3938
▁ଜୋ	-3939
▁ୟି	-3940
---?	-3941
olid	-3942
quot	-3943
ଚାରୀ	-3944
ଣ୍ଟର	-3945
ୟାରୀ	-3946
▁why	-3947
▁ପାନ	-3948
▁ଇଚ୍ଛ	-3949
▁ଦକ୍ଷିଣ	-3950
▁କୁହାଯାଏ	-3951
▁ପ୍ରଚଳିତ	-3952
▁ଯାଇପାରେ	-3953
▁କ୍ଯାଲେଣ୍ଡର	-3954
CI	-3955
▁ଡ଼	-3956
nday	-3957
▁ଅର୍	-3958
▁ଥାଉ	-3959
▁ରାୟ	-3960
▁ରେଳ	-3961
▁ଶିଖ	-3962
▁ଶୋଇ	-3963
▁ସାନ	-3964
କୌଣସି	-3965
ସ୍କଟପ	-3966
▁Time	-3967
▁ଅତିକ	-3968
ସ୍ଥାପନ	-3969
▁ସଂସ୍କ	-3970
▁ସଙ୍ଗେ	-3971
▁ଯେହେତୁ	-3972
........	-3973
▁ଦେଇପାରେ	-3974
▁ବିଜ୍ଞାନ	-3975
RE	-3976
ey	-3977
କୀ	-3978
row	-3979
।’’	-3980
ଟାଲ	-3981
ପଟି	-3982
ର୍ଘ	-3983
ଷ୍ଯ	-3984
ୟିକ	-3985
▁le	-3986
▁ନଂ	-3987
...]	-3988
କାଲି	-3989
କ୍ତା	-3990
ଣାରେ	-3991
ଆନ୍ତି	-3992
▁ଟିକିଏ	-3993
▁ଭାତରେ	-3994
▁ନିଶ୍ଚୟ	-3995
▁ବଜାରକୁ	-3996
▁ବାଜିଲା	-3997
▁ସପ୍ତାହ	-3998
▁ସମର୍ଥନ	-3999
▁ସେଠାରେ	-4000
▁ଖାଆନ୍ତୁ	-4001
▁ପଢ଼ନ୍ତୁ	-4002
▁ପ୍ରସ୍ତୁତି	-4003
▁ପରମେଶ୍ବରଙ୍କ	-4004
ବଣ	-4005
ମୟ	-4006
ild	-4007
ite	-4008
ଜ୍ଜ	-4009
ଟିକ	-4010
ବଳୀ	-4011
ାତ୍	-4012
▁32	-4013
ଦେବା	-4014
▁111	-4015
▁ନିଅ	-4016
optic	-4017
▁ଅନ୍ଧ	-4018
▁ଖୁବ୍	-4019
▁ଶରୀରର	-4020
▁ଇତିହାସ	-4021
▁ମିଳିଛି	-4022
▁General	-4023
ଂକ	-4024
ଆର୍	-4025
କର୍	-4026
ଭରି	-4027
▁26	-4028
▁go	-4029
ଣ୍ଡେ	-4030
▁ସଂକ	-4031
▁ଗୌରବ	-4032
▁ପାରା	-4033
▁ଯାଏଁ	-4034
▁ଶାମା	-4035
▁ଶୁଣୁ	-4036
▁ଆସିଛି	-4037
▁ତଥାପି	-4038
▁ମୂଲ୍ଯ	-4039
▁ରାତିଏ	-4040
▁ଅଧୀନରେ	-4041
▁ଗୁପ୍ତା	-4042
▁ପଣ୍ଡିତ	-4043
▁ହୋଇଯିବ	-4044
▁ପ୍ରସ୍ତା	-4045
▁ଯାଇଥିଲା	-4046
▁ସମାନଙ୍କେୁ	-4047
,”	-4048
DA	-4049
][	-4050
ଵା	-4051
ହ୍ୟ	-4052
▁:-	-4053
▁CD	-4054
▁ଅତ	-4055
▁ଧନ	-4056
ରଚନା	-4057
▁Apa	-4058
▁ନାର	-4059
▁ରଖେ	-4060
chool	-4061
▁ନାଇଁ	-4062
▁ପଦରୁ	-4063
oliday	-4064
▁Oriya	-4065
▁କସରତ୍	-4066
▁ଉଲ୍ଲେଖ	-4067
▁ଅବସ୍ଥାନ	-4068
▁ବିଶ୍ବାସ	-4069
▁ମାର୍ଚ୍ଚ	-4070
▁ଦମ୍ପତ୍ତି	-4071
▁ପ୍ରାରମ୍ଭ	-4072
▁ବାସ୍ତବତା	-4073
▁ଫାଇଲଗୁଡ଼ିକୁ	-4074
ୟତ	-4075
New	-4076
ଜରେ	-4077
ଯାଉ	-4078
ଯୋଜ	-4079
▁ଘୋ	-4080
▁ସଠ	-4081
ated	-4082
ଞ୍ଚଳ	-4083
▁Pro	-4084
▁sub	-4085
▁ଆମଦ	-4086
▁ପରମ	-4087
▁ମଡେ	-4088
▁ଇମେଲ	-4089
▁କିଣି	-4090
▁ବଙ୍ଗ	-4091
▁ବାକି	-4092
▁କ୍ଲିକ	-4093
▁ଧ୍ୱନି	-4094
▁ବ୍ରାଉ	-4095
▁ସହାୟକ	-4096
▁ଅଭିଲେଖ	-4097
▁ବାନ୍ଧି	-4098
▁ବେରଙ୍ଗ	-4099
▁ଲକ୍ଷରୁ	-4100
▁ସମ୍ମୁଖ	-4101
▁ସେଥିରେ	-4102
▁ଚର୍ଚ୍ଚା	-4103
▁ବ୍ୟବହୃତ	-4104
▁ଆମେରିକାର	-4105
▁ଫେବୃୟାରୀ	-4106
‍.	-4107
gal	-4108
ନିଆ	-4109
ପ୍ପ	-4110
ିରେ	-4111
▁କଭ	-4112
▁ଶୋ	-4113
ନିତି	-4114
ମ୍ଭେ	-4115
ୀକରଣ	-4116
▁ଆପେ	-4117
▁ଉଭୟ	-4118
▁ଘରର	-4119
▁ଲାଗ	-4120
▁ସୁଖ	-4121
୍ୟୁଜ୍	-4122
▁Edge	-4123
▁ଅବଧି	-4124
▁ଡିଜି	-4125
▁ଦଲିଲ	-4126
▁ପ୍ରି	-4127
▁ମନୋନ	-4128
▁ଲେଖକ	-4129
▁ସମତଳ	-4130
ପର୍ଯ୍ୟ	-4131
ପାରିବି	-4132
▁ଅଗଷ୍ଟ	-4133
▁ଅପରାଜ	-4134
▁ଦେଇଛି	-4135
▁ଅଧିବେଶ	-4136
▁ସଂରଚନା	-4137
▁ଗୀତସଂହିତା	-4138
▁ପ୍ରଦର୍ଶିତ	-4139
ଗମ	-4140
▁୍	-4141
CGH	-4142
ual	-4143
ଦୂତ	-4144
▁36	-4145
▁50	-4146
▁ହଜ	-4147
ହେରା	-4148
▁ଅଟକ	-4149
▁ବରଂ	-4150
▁ମନୋ	-4151
thiop	-4152
umber	-4153
ଜ୍ଞାନ	-4154
▁ଗାଡି	-4155
▁ଡାଟା	-4156
▁ପ୍ୟା	-4157
▁ଲୋଭା	-4158
-----?	-4159
▁2014.	-4160
▁reson	-4161
▁ପରିବା	-4162
▁sunday	-4163
▁ଲେଖିବା	-4164
thiopian	-4165
ଷ୍ଟେସଙ୍କ	-4166
▁holiday	-4167
▁ପାଇବାରୁ	-4168
▁ଯାଇଥିଲେ	-4169
▁ମାଧ୍ୟମରେ	-4170
ଂଟ	-4171
ଂହ	-4172
ori	-4173
ଡ଼ୋ	-4174
ପୁଅ	-4175
ମିର	-4176
time	-4177
ଖାନା	-4178
ଣ୍ଡୁ	-4179
ିଷ୍ଟ	-4180
▁app	-4181
▁କୃତ	-4182
▁ଡ଼େ	-4183
▁ତେଲ	-4184
▁ମାଗ	-4185
▁ODIA	-4186
▁ଜନତା	-4187
▁ମଡେଲ	-4188
କ୍ଟୋରୀ	-4189
▁ଉପଯୋଗ	-4190
▁ଧ୍ୟାନ	-4191
▁ଭଗବାନ	-4192
▁ସବୁଠୁ	-4193
▁ସାଂସଦ	-4194
▁Apache	-4195
▁thinks	-4196
▁ପଚାରିଲି	-4197
▁ରାଷ୍ଟ୍ର	-4198
ପର୍ଯ୍ୟନ୍ତ	-4199
▁ଉଇଣ୍ଡୋକୁ	-4200
▁କେତେବେଳେ	-4201
▁ବହିଷ୍କୃତ	-4202
▁କ୍ୟାଲେଣ୍ଡର	-4203
▁ହୋଷ୍ଟେସଙ୍କ	-4204
ଳୁ	-4205
ପିତ	-4206
ବାଚ	-4207
ବ୍ର	-4208
ମାସ	-4209
େତା	-4210
▁2.	-4211
▁କହ	-4212
ତେବେ	-4213
▁ଫୁଲ	-4214
ଦିଙ୍କ	-4215
ର୍ଜନା	-4216
ିକାରେ	-4217
▁ଅଧ୍ୟ	-4218
▁ଖୋଲା	-4219
▁ବାବଦ	-4220
▁ବେଡି	-4221
▁ହୋଇନ	-4222
▁ଆନନ୍ଦ	-4223
▁ଆବେଦନ	-4224
▁ଦୋକାନ	-4225
▁ଯୋଗାଣ	-4226
▁ଗ୍ରହରେ	-4227
▁ଘଟଣାକୁ	-4228
▁ଚନ୍ଦ୍ର	-4229
▁ଟଙ୍କିଆ	-4230
▁ନିୟମିତ	-4231
▁ମଧ୍ଯରେ	-4232
▁ସିନେମା	-4233
ପ୍ଟେମ୍ବର	-4234
▁ଅଷ୍ଟ୍ରେ	-4235
▁ଲେଖନ୍ତୁ	-4236
▁ଗୋପନୀୟତା	-4237
▁ସ୍ୱତନ୍ତ୍ର	-4238
ପ୍ରତିକାତ୍ମକ	-4239
▁ନିର୍ବାଚନରେ	-4240
▁କାର୍ଯ୍ୟକାରୀ	-4241
:0	-4242
@1	-4243
ph	-4244
ଳର	-4245
୧୩	-4246
୬୫	-4247
The	-4248
ମାଲ	-4249
ଶିତ	-4250
▁Un	-4251
▁al	-4252
▁ବୀ	-4253
▁୨୩	-4254
Post	-4255
ପକ୍ଷ	-4256
ସଙ୍ଗ	-4257
▁100	-4258
▁180	-4259
▁କଅଣ	-4260
▁ନୁଆ	-4261
▁ମୋଟ	-4262
▁ଶିବ	-4263
ଲିଙ୍ଗ	-4264
▁ପଠାଇ	-4265
@@@@@1	-4266
▁ଅନନ୍ତ	-4267
▁କାଳିଆ	-4268
▁ଉଦାହରଣ	-4269
▁ପ୍ରଚାର	-4270
▁ଭାଇରାଲ	-4271
▁ସର୍ଭିସ	-4272
▁ଚିନ୍ତିତ	-4273
▁ରକ୍ତଚାପ	-4274
▁ଗୁପ୍ତାଙ୍ଗ	-4275
▁ତୁମ୍ଭମାନେେ	-4276
@@@@@@@@@@@@@1	-4277
22	-4278
At	-4279
VD	-4280
ଶୋ	-4281
ଗରେ	-4282
ତଲା	-4283
ର୍ଟ	-4284
ୁରୋ	-4285
ୟିତ	-4286
▁ଅଦ	-4287
able	-4288
book	-4289
very	-4290
ତ୍ରୁ	-4291
ଦର୍ଶ	-4292
▁ପଗ୍	-4293
ଜୟନ୍ତ	-4294
ବାଦିକ	-4295
ବିତ୍ର	-4296
▁have	-4297
▁ଅପରା	-4298
▁ଛାଡ଼	-4299
▁ନେଲେ	-4300
▁ହୃଦୟ	-4301
▁କରୁଛୁ	-4302
▁ବାଇଗଣ	-4303
▁ବିବାଦ	-4304
tionary	-4305
ଯାଇଥିବା	-4306
OdiaPost	-4307
▁ଆବର୍ଜନା	-4308
▁ସ୍ଥାନକୁ	-4309
▁ଲାଗୁନାହିଁ	-4310
ଫୋ	-4311
ବତ	-4312
୧୨	-4313
ଡାକ	-4314
▁ଜଗ	-4315
▁ତର	-4316
▁ତୃ	-4317
▁ଭୀ	-4318
angu	-4319
ଟିରେ	-4320
ନାକୁ	-4321
ଶ୍ରୀ	-4322
ିତ୍ତ	-4323
▁Tra	-4324
▁con	-4325
▁ମାପ	-4326
▁2018	-4327
▁ନେବା	-4328
▁ଫଳରେ	-4329
▁ଯୋହନ	-4330
▁ସୁନା	-4331
▁ହାଇେ	-4332
▁ଇଣ୍ଡିଆ	-4333
▁ଖୋଲିଦେ	-4334
▁ସମ୍ପର୍କରେ	-4335
74	-4336
up	-4337
ପୀ	-4338
ୁଛ	-4339
▁o	-4340
ଏଲ୍	-4341
ଞାନ	-4342
ଲାକ	-4343
▁୨୪	-4344
alle	-4345
▁Act	-4346
▁RTR	-4347
▁TVS	-4348
▁how	-4349
▁କାଟ	-4350
▁ପବନ	-4351
▁ମାଛ	-4352
▁ସାଆ	-4353
ମ୍ବାର	-4354
▁(1),	-4355
▁ଉପଭୋ	-4356
▁ଗର୍ଭ	-4357
Coptic	-4358
ସମ୍ପାଦ	-4359
▁କନ୍ୟା	-4360
▁କୃଷ୍ଣ	-4361
▁ବିଞାନ	-4362
▁ଲଢିବା	-4363
▁ଶୀଘ୍ର	-4364
▁ସୁସ୍ଥ	-4365
▁ସ୍ଥିର	-4366
ରାଜନିତି	-4367
▁ଦୃଷ୍ଟି	-4368
▁ଭାରତକୁ	-4369
▁ଯିବାକୁ	-4370
ରିବର୍ତ୍ତ	-4371
▁ହୁଅନ୍ତି	-4372
▁କର୍ମଚାରୀ	-4373
▁ଯେଉଁମାନେ	-4374
OdiaPostAt	-4375
56	-4376
କଂ	-4377
ଳ୍	-4378
ଶନ	-4379
▁←	-4380
ଆରି	-4381
ଏବେ	-4382
କିଓ	-4383
ପାଗ	-4384
ମଣି	-4385
ମୃତ	-4386
୧୯୯	-4387
▁Li	-4388
icen	-4389
vers	-4390
ପାନର	-4391
ାନ୍ୟ	-4392
୍ରୀୟ	-4393
▁Off	-4394
▁ମନୁ	-4395
▁ମୁଖ	-4396
▁ଯୌନ	-4397
▁ସରି	-4398
icken	-4399
ରିକ୍ତ	-4400
▁କ୍ରମ	-4401
▁ପୁଲିସ	-4402
▁ବଦଳରେ	-4403
▁ବର୍ଷୀୟ	-4404
▁ବିରୋଧୀ	-4405
▁ଭାବିଲି	-4406
▁ଭିତରକୁ	-4407
▁ମହାରାଜ	-4408
▁ସ୍ତମ୍ଭ	-4409
▁ନିଅନ୍ତୁ	-4410
▁ଯେକୌଣସି	-4411
Ethiopian	-4412
▁ଅପରିବର୍ତ୍ତ	-4413
AR	-4414
ରକ	-4415
୨୯	-4416
▁+	-4417
▁•	-4418
ake	-4419
ell	-4420
ock	-4421
tip	-4422
କେଇ	-4423
ଣିକ	-4424
ଦ୍ମ	-4425
▁(←	-4426
▁ଧୁ	-4427
କଙ୍କ	-4428
ନାହଁ	-4429
ଭାରେ	-4430
ଲୋରା	-4431
ଶ୍ଵର	-4432
ସନରେ	-4433
▁App	-4434
▁ଜିତ	-4435
▁ବିଳ	-4436
▁ସଂଖ	-4437
ambad	-4438
▁rich	-4439
▁ଆର୍ଥ	-4440
▁ଘୁରା	-4441
▁ଚଳିତ	-4442
▁ଚୋରି	-4443
▁ବାର୍	-4444
▁ସାଧନ	-4445
▁ଅବଶ୍ୟ	-4446
▁ଦେଉଛୁ	-4447
▁ଦେଶରେ	-4448
▁ପଣ୍ଡା	-4449
▁ସଂସାର	-4450
▁ସମସ୍ୟ	-4451
▁ଜାଣିଲେ	-4452
▁ନିର୍ଦ୍	-4453
▁ଫାଇଲକୁ	-4454
▁ବିଶ୍ୱକ	-4455
▁ଭୟଙ୍କର	-4456
▁ମନାକଲେ	-4457
▁chicken	-4458
▁କହୁଥିଲେ	-4459
▁ଯୀଶୁଙ୍କ	-4460
ictionary	-4461
ିନାହାନ୍ତି	-4462
▁ଅଧ୍ୟାୟରେ	-4463
▁ବାରମ୍ବାର	-4464
32	-4465
ଢା	-4466
ତକ	-4467
any	-4468
ins	-4469
ବନୀ	-4470
ଷ୍ମ	-4471
ସ୍ମ	-4472
ିଲେ	-4473
୍ରୋ	-4474
▁23	-4475
▁ଓଂ	-4476
ଂଚାଳ	-4477
ଙ୍କେ	-4478
ମାର୍	-4479
ୁରୋପ	-4480
▁3.9	-4481
▁Con	-4482
▁କନକ	-4483
▁ଦଳର	-4484
▁ଦେହ	-4485
▁ବିଷ	-4486
ଗୁପ୍ତ	-4487
ଣ୍ଡରେ	-4488
▁text	-4489
▁କୁରୁ	-4490
▁ପୁରୀ	-4491
porter	-4492
୍ରାନ୍ତ	-4493
▁ଗୋପାଳ	-4494
▁ପଚାରୁ	-4495
କ୍ଷିପ୍ତ	-4496
▁କ୍ରିକେ	-4497
▁କ୍ଲିକ୍	-4498
▁ପଦକ୍ଷେପ	-4499
▁ବ୍ଯକ୍ତି	-4500
▁ଅତିରିକ୍ତ	-4501
▁ପ୍ରସ୍ତାବ	-4502
ପଟ	-4503
ale	-4504
jal	-4505
nts	-4506
ତୀର	-4507
ଭ୍ୟ	-4508
ଶିଷ	-4509
ଶୀଳ	-4510
▁42	-4511
▁JH	-4512
▁ସବ	-4513
gram	-4514
କିଛି	-4515
ଚିତ୍	-4516
ଧ୍ୟା	-4517
ଲାଣି	-4518
ାଯୋଗ	-4519
▁Ins	-4520
▁key	-4521
▁କିଂ	-4522
▁ଜାଗ	-4523
▁ତତେ	-4524
▁ତୁର	-4525
ଆରମ୍ଭ	-4526
ଧିକରଣ	-4527
ମ୍ଭୀର	-4528
ୃତିରେ	-4529
▁2016	-4530
▁ଅଦ୍ୟ	-4531
▁ଡ୍ୟା	-4532
▁ତଳକୁ	-4533
▁ରତ୍ନ	-4534
Indian	-4535
▁ଆସିଲେ	-4536
▁ଈଶ୍ୱର	-4537
▁କେତେକ	-4538
▁ଥଣ୍ଡା	-4539
▁ପଏଣ୍ଟ	-4540
▁ପିନ୍ଧ	-4541
▁ଫାଇଦା	-4542
▁ରଙ୍ଗର	-4543
anguage	-4544
ଚାର୍ଯ୍ୟ	-4545
▁ଫୋଲଡ଼ର	-4546
▁ମୁଦ୍ରଣ	-4547
▁ମୁହଁରେ	-4548
▁ଲାଗୁଛି	-4549
▁ୱେବସାଇ	-4550
▁ଅଭିନେତା	-4551
▁Download	-4552
▁ତାଲିକାରେ	-4553
▁ସମ୍ପତ୍ତି	-4554
▁ହୋଇପାରିବ	-4555
!"	-4556
OP	-4557
gl	-4558
ଉଦ	-4559
କୃ	-4560
ଶୂ	-4561
://	-4562
ପ୍ଟ	-4563
ୟେଲ	-4564
▁30	-4565
▁୩୫	-4566
DIEN	-4567
NGRE	-4568
ould	-4569
ଙ୍ଗଲ	-4570
ତ୍ତା	-4571
ମାୟା	-4572
୍ରାସ	-4573
▁ଇନ୍	-4574
▁ଗତି	-4575
▁ଗ୍ଭ	-4576
▁ବାସ	-4577
▁ଶଶୁ	-4578
ବସ୍ତୁ	-4579
▁ଅଗ୍ର	-4580
▁ଡଲାର	-4581
▁ପାସ୍	-4582
▁ବଢ଼ି	-4583
▁ମହତ୍	-4584
▁ଯେବେ	-4585
DIENTS	-4586
rinjal	-4587
▁INGRE	-4588
▁ବନ୍ୟା	-4589
▁ମିଳୁଛି	-4590
▁ସ୍ଥାନା	-4591
▁ପ୍ରକାଶିତ	-4592
▁ବାର୍ତ୍ତା	-4593
▁INGREDIENTS	-4594
:5	-4595
ML	-4596
__	-4597
ଷେ	-4598
’।	-4599
▁ଐ	-4600
ଣେଶ	-4601
ହାଣ	-4602
ୁରୀ	-4603
▁41	-4604
▁Ce	-4605
▁HT	-4606
▁ତୀ	-4607
▁ଶୂ	-4608
name	-4609
ତାକୁ	-4610
ୃତିକ	-4611
▁କହେ	-4612
▁କେତ	-4613
▁କୌଶ	-4614
▁ଚୀନ	-4615
▁ଧାନ	-4616
▁ନନ୍	-4617
▁ମଲ୍	-4618
▁ମାଲ	-4619
▁ରୋଜ	-4620
▁ଶୁଭ	-4621
▁ସବଳ	-4622
ransl	-4623
ନୁହେଁ	-4624
ମେଣ୍ଟ	-4625
▁ଚାବି	-4626
▁ତ୍ରି	-4627
▁ଧୀରେ	-4628
▁ବଦଳି	-4629
▁ଭୁଲ୍	-4630
▁curry	-4631
▁ଦର୍ଶନ	-4632
▁ହିସାବ	-4633
▁ଜବରଦଖଲ	-4634
▁ପବିତ୍ର	-4635
▁ସ୍କ୍ରି	-4636
ାଯାଇଥିବା	-4637
▁Brinjal	-4638
▁ଉତ୍ତରରେ	-4639
▁ନୁହନ୍ତି	-4640
▁ବିଶିଷ୍ଟ	-4641
▁ହିସାବରେ	-4642
▁ହୋଇଯାଇଛି	-4643
▁କୁହାଯାଇଥାଏ	-4644
ଏଫ	-4645
ଦନ	-4646
ପୋ	-4647
ata	-4648
hen	-4649
ror	-4650
ଆଲୋ	-4651
ଦ୍ଯ	-4652
ରାଣ	-4653
ଶେଷ	-4654
୧ରେ	-4655
▁Ju	-4656
▁ad	-4657
line	-4658
list	-4659
େଇଲା	-4660
▁199	-4661
▁Rep	-4662
▁ନମଃ	-4663
▁ଯଥା	-4664
▁This	-4665
▁What	-4666
▁user	-4667
▁ଆୟୋଜ	-4668
▁ଜାଣେ	-4669
▁ନିରବ	-4670
▁ପଶ୍ଚ	-4671
▁ଭେଟି	-4672
▁ମାଡ଼	-4673
▁ରାଉତ	-4674
ଥାନ୍ତା	-4675
▁ଦୀର୍ଘ	-4676
▁ପୁନର୍	-4677
▁ବାକ୍ୟ	-4678
▁ୟୁରୋପ	-4679
▁Indian	-4680
▁ମନୋନୀତ	-4681
▁ସବୁଦିନ	-4682
ଗୁଡ଼ିକରେ	-4683
▁ଗୁରୁତ୍ୱ	-4684
▁ବୈଜୟନ୍ତ	-4685
▁କାର୍ଯ୍ୟା	-4686
▁ବିଧାନସଭା	-4687
▁ପ୍ରତିନିଧି	-4688
▁ଡିରେକ୍ଟୋରୀ	-4689
1.	-4690
ଅପ	-4691
୪୬	-4692
କରୁ	-4693
ଚୀନ	-4694
ଲିପ	-4695
▁Ex	-4696
▁GN	-4697
▁ମୃ	-4698
cted	-4699
ding	-4700
ical	-4701
ପିଲି	-4702
ବ୍ରୁ	-4703
ଳିକା	-4704
ାଇବେ	-4705
ାଯାଏ	-4706
▁ଅଟୋ	-4707
▁କେର	-4708
▁ଗୋଡ	-4709
pedia	-4710
ପାଦାନ	-4711
▁ଗୋଲା	-4712
▁ଜଣାପ	-4713
▁ବିସ୍	-4714
▁ରେଖା	-4715
▁Bible	-4716
▁ଅଧିକା	-4717
▁ପହଞ୍ଚ	-4718
▁ଫେସବୁ	-4719
▁ଅବସରରେ	-4720
▁ଉପାଦାନ	-4721
▁ସଂଗ୍ରହ	-4722
ସମ୍ପାଦନା	-4723
▁ଅନୁଚିତ୍	-4724
▁ପୂର୍ଣ୍ଣ	-4725
▁ଗଣତନ୍ତ୍ର	-4726
▁ଚାହାନ୍ତି	-4727
▁ବଢ଼ିବାକୁ	-4728
▁ମୂର୍ତ୍ତି	-4729
▁ଯାଉଛନ୍ତି	-4730
▁ସଂକ୍ଷିପ୍ତ	-4731
con	-4732
ଆମେ	-4733
ଜ୍ୟ	-4734
▁ସଲ	-4735
ଶ୍ରା	-4736
ହାତି	-4737
ିତ୍ୟ	-4738
▁ସୋମ	-4739
ଗ୍ରହଣ	-4740
ଥେଷ୍ଟ	-4741
ବାଚିକ	-4742
▁ଅଥବା	-4743
▁କଣ୍ଠ	-4744
▁କାଇଁ	-4745
▁ଟିମ୍	-4746
▁ପଣ୍ୟ	-4747
▁ପଦବୀ	-4748
▁ରିଲି	-4749
▁ସଞ୍ଚ	-4750
▁ସ୍ତର	-4751
▁ହସ୍ତ	-4752
icense	-4753
କ୍ସିସ୍	-4754
ବିଦ୍ୟା	-4755
▁child	-4756
▁କଲେଜ୍	-4757
▁କାୟିକ	-4758
▁ଟୋକିଓ	-4759
▁ପାଇଲେ	-4760
▁ରଖିଛି	-4761
▁ଲାଗିବ	-4762
▁ଶତ୍ରୁ	-4763
▁ସହଜରେ	-4764
▁ଆର୍ଥିକ	-4765
▁ଇନ୍ଦ୍ର	-4766
▁ତୁରନ୍ତ	-4767
▁ପାରିବି	-4768
▁program	-4769
▁ଓଡ଼ିଶାର	-4770
▁ଟକ୍ସିସ୍	-4771
▁ଡାଉନଲୋଡ	-4772
▁ପର୍ଯ୍ୟା	-4773
▁ପ୍ରେରିତ	-4774
▁ଅନ୍ୟାନ୍ୟ	-4775
▁ଦିଆଯାଇଛି	-4776
▁ପ୍ରକୃତରେ	-4777
▁ଈଶ୍ବରଙ୍କୁ	-4778
▁ରାଷ୍ଟ୍ରପତି	-4779
)[	-4780
37	-4781
li	-4782
।)	-4783
ଧର	-4784
ଏଚ୍	-4785
▁Sp	-4786
▁ଟୁ	-4787
▁୧୬	-4788
▁‘‘	-4789
okio	-4790
ଯିବେ	-4791
ିକାଲ	-4792
▁ଫାର	-4793
▁ବୁଲ	-4794
▁ଆର୍କ	-4795
▁ଘଟିବ	-4796
▁ବ୍ୟତ	-4797
urance	-4798
ଂଚାଳିତ	-4799
ିନାହିଁ	-4800
▁ବଢିଲା	-4801
▁ବିଦେଶ	-4802
▁ମୋହିତ	-4803
▁ରହିବୁ	-4804
▁ଲକ୍ଷଣ	-4805
▁ଆଶଙ୍କା	-4806
▁ଡ୍ୟାମ୍	-4807
▁ପରିଚିତ	-4808
▁ବୁଦ୍ଧି	-4809
▁ଶୁଣିବା	-4810
▁ସାଙ୍ଗରେ	-4811
▁ଅବସ୍ଥାରେ	-4812
▁ସ୍ୱାମୀଙ୍କ	-4813
▁ନିମ୍ନଲିଖିତ	-4814
▁ଜବରଦଖଲକାରୀଙ୍କ	-4815
-“	-4816
mor	-4817
ral	-4818
uri	-4819
ତ୍ସ	-4820
ାୟତ	-4821
ୀକୁ	-4822
୨ରେ	-4823
▁do	-4824
▁ଇସ	-4825
▁ଛଅ	-4826
▁ଧୋ	-4827
ates	-4828
ower	-4829
ଟାରେ	-4830
ବାରେ	-4831
ିମିତ	-4832
▁Arg	-4833
▁rec	-4834
email	-4835
▁July	-4836
▁hour	-4837
▁କୋଚେ	-4838
▁ଚେତା	-4839
▁ଦାଉଦ	-4840
▁ଦାମ୍	-4841
▁ମିଳେ	-4842
▁ରଖିବ	-4843
▁ସିନ୍	-4844
eeting	-4845
escrip	-4846
ଭଣ୍ଡାର	-4847
▁ଶେଷରେ	-4848
acebook	-4849
ରେନ୍ଦ୍ର	-4850
▁କରାଗଲା	-4851
▁ଦେଇଥାଏ	-4852
▁ପଗ୍ଭରି	-4853
▁ବାହାରେ	-4854
▁ସର୍ବଦା	-4855
▁ନିୟିମିତ	-4856
▁ବାହାରକୁ	-4857
▁କୁରୁମାୟା	-4858
▁ଚାହାଁନ୍ତି	-4859
ଖେ	-4860
ଣତ	-4861
ach	-4862
pad	-4863
ଡକୁ	-4864
ରାଟ	-4865
▁ne	-4866
▁ରଣ	-4867
Tube	-4868
ouse	-4869
ring	-4870
ଣିବା	-4871
ଣ୍ଣି	-4872
▁col	-4873
▁ଅନା	-4874
▁ଛବି	-4875
▁ନଭେ	-4876
▁ବାୟ	-4877
▁ରାଓ	-4878
error	-4879
▁View	-4880
▁days	-4881
▁size	-4882
▁ଅଙ୍କ	-4883
▁ଏଇଟା	-4884
▁ନାହଁ	-4885
▁ପଣରେ	-4886
▁ମୋଟେ	-4887
▁ସିନା	-4888
▁ସ୍ବା	-4889
▁ହରିଆ	-4890
କ୍ରିୟା	-4891
ଷ୍କର୍ମ	-4892
▁କ୍ଷମା	-4893
▁ଡ୍ରାଇ	-4894
▁ଦିନକୁ	-4895
unchpad	-4896
ପ୍ରାପ୍ତ	-4897
ଲୋରାଡ଼ୋ	-4898
▁ଧନୁତୀର	-4899
▁ବିଳମ୍ବ	-4900
▁ସ୍ୱାଗତ	-4901
▁ହିନ୍ଦୁ	-4902
▁Control	-4903
▁ଅଧ୍ୟକ୍ଷ	-4904
▁ଆକୃତିରେ	-4905
▁ଗୁଣଧର୍ମ	-4906
▁ପ୍ରତିଦିନ	-4907
▁ରାଜାଙ୍କୁ	-4908
▁କୋଲୋରାଡ଼ୋ	-4909
.’	-4910
25	-4911
RL	-4912
wo	-4913
ଏକ	-4914
ନଂ	-4915
ପଦ	-4916
ଶେ	-4917
ସଦ	-4918
▁»	-4919
ଙ୍ଘ	-4920
ଣାର	-4921
ରେଇ	-4922
▁Ph	-4923
▁ଘନ	-4924
ance	-4925
laze	-4926
ନ୍ଦନ	-4927
ପୁରୀ	-4928
ଶ୍ରେ	-4929
ହାରି	-4930
ହାରୀ	-4931
ାରୂପ	-4932
▁man	-4933
▁org	-4934
▁କନ୍	-4935
▁ଟିକ	-4936
▁ଭୋଟ	-4937
▁ରନ୍	-4938
▁ରୁହ	-4939
▁ସମୂ	-4940
▁ହୃଦ	-4941
ଦ୍ଧତି	-4942
▁SONG	-4943
▁କଳ୍ପ	-4944
▁ନେଲା	-4945
▁ନ୍ୟା	-4946
▁ଫ୍ଲୁ	-4947
▁ବୋର୍	-4948
▁ମିଳୁ	-4949
▁ରାହୁ	-4950
▁୨୦୧୬	-4951
କ୍ଷାରେ	-4952
ଳାନ୍ତୁ	-4953
▁ଅବଦାନ	-4954
▁ଏକାଡେ	-4955
▁ଘୁରାଅ	-4956
▁ନଥିଲେ	-4957
▁ପିଲାର	-4958
▁ଭିତ୍ତ	-4959
▁ରହିଲା	-4960
▁ରେକର୍	-4961
ମୋଦିଙ୍କ	-4962
ଲ୍ୟାଣ୍ଡ	-4963
▁ଉଇକିପି	-4964
▁କଥାକାର	-4965
▁ବ୍ୟକ୍ତ	-4966
▁ମଣ୍ଡଳୀ	-4967
▁ଚାଲନ୍ତୁ	-4968
▁ପାଣିପାଗ	-4969
▁ପ୍ରକାରର	-4970
▁ପ୍ରଶାସନ	-4971
▁ବଢୁଥିଲା	-4972
▁ସମ୍ପାଦକ	-4973
▁ଓଡ଼ିଶାରେ	-4974
escription	-4975
▁ବିଷୟବସ୍ତୁ	-4976
▁ପ୍ରତିକ୍ରିୟା	-4977
2.	-4978
36	-4979
?)	-4980
IT	-4981
ty	-4982
କଣ	-4983
▁©	-4984
iki	-4985
net	-4986
ଟ୍‍	-4987
ୋରି	-4988
▁ge	-4989
CIAL	-4990
ଣିକି	-4991
ିନ୍ଦ	-4992
୍ରାମ	-4993
▁cre	-4994
▁କଦା	-4995
▁ଚଲା	-4996
▁ବାତ	-4997
▁tool	-4998
▁କ୍ଷୟ	-4999
▁ଚୟିତ	-5000
▁ଡେରି	-5001
▁ତାତି	-5002
▁ବହୁଳ	-5003
▁ରୂପେ	-5004
▁ଶିଖି	-5005
ତୁମ୍ଭେ	-5006
▁ଆସିବା	-5007
▁ଉତ୍କଳ	-5008
▁ଉଦ୍ୟମ	-5009
▁ଚାଲିବ	-5010
▁ଶଶୁରେ	-5011
▁ସଞ୍ଜୟ	-5012
listbox	-5013
▁Google	-5014
▁SOCIAL	-5015
▁School	-5016
▁ଆମଦାନୀ	-5017
▁ଏକାଧିକ	-5018
▁ପଦ୍ଧତି	-5019
▁ମାନନୀୟ	-5020
▁ଶିଶୁକୁ	-5021
▁ସର୍ତ୍ତ	-5022
▁ସ୍ତନ୍ୟ	-5023
▁ସ୍ୱର୍ଗ	-5024
▁ଖାଇବାକୁ	-5025
▁ସେହିପରି	-5026
▁ପରିଚାଳନା	-5027
▁inlistbox	-5028
-1	-5029
1-	-5030
MA	-5031
uk	-5032
ଏନ	-5033
ଵି	-5034
ଧ୍ଯ	-5035
ସିନ	-5036
▁Be	-5037
▁।’	-5038
nder	-5039
ାଇନ୍	-5040
▁DVD	-5041
▁ଏକୁ	-5042
▁ପିତ	-5043
glish	-5044
ition	-5045
▁ଏକମତ	-5046
▁ଦ୍ରୁ	-5047
▁ପରିଶ	-5048
▁ରୂପା	-5049
morrow	-5050
▁କଥାଟି	-5051
▁ଛାଞ୍ଚ	-5052
▁ବୁଝାଇ	-5053
▁ବୟସ୍କ	-5054
ଜ୍ଞାନିକ	-5055
▁ଗୁଡ଼ିକର	-5056
▁ସଂଗୁପ୍ତ	-5057
▁ସମର୍ଥିତ	-5058
▁ସ୍ମାର୍ଟ	-5059
▁tomorrow	-5060
▁ଇଚ୍ଛାରୂପ	-5061
▁ତାହାଙ୍କର	-5062
▁ସାମ୍ବାଦିକ	-5063
▁ସେପ୍ଟେମ୍ବର	-5064
▁ନିର୍ଦ୍ଧାରିତ	-5065
ଆରୀ	-5066
ରୁଣ	-5067
େରା	-5068
▁Rs	-5069
କାଂଶ	-5070
ଦାର୍	-5071
ପୂର୍	-5072
ୀକାର	-5073
▁pla	-5074
▁ଆକା	-5075
▁ଜରୁ	-5076
▁ଜର୍	-5077
▁ଡ଼ା	-5078
▁ନେତ	-5079
▁ମେଘ	-5080
▁ଲଗା	-5081
ନିମ୍ନ	-5082
▁Remo	-5083
▁word	-5084
▁ବନାନ	-5085
▁.....	-5086
▁ଅଦ୍ୟତନ	-5087
▁ଅନୁସରଣ	-5088
▁ଏକକାଂଶ	-5089
▁ପୂର୍ବେ	-5090
▁ବ୍ୟୁରୋ	-5091
▁ସମୁଦ୍ର	-5092
▁ଉପଯୁକ୍ତ	-5093
▁କରିଥିଲି	-5094
▁ପ୍ରଶଂସା	-5095
▁ଯୋଗାଯୋଗ	-5096
▁ଲକ୍ଷ୍ମୀ	-5097
▁ସଂଯୁକ୍ତ	-5098
▁ସମ୍ବନ୍ଧ	-5099
▁ପୁସ୍ତିକା	-5100
▁ସଂସ୍କୃତି	-5101
▁ଆମେରିକାରେ	-5102
▁ସ୍କ୍ରିପ୍ଟ	-5103
▁ନିର୍ଦ୍ଦିଷ୍ଟ	-5104
5,	-5105
LC	-5106
ଥୀ	-5107
ସୂ	-5108
ari	-5109
ful	-5110
କୋର	-5111
ପର୍	-5112
▁1'	-5113
▁କଠ	-5114
▁ଘା	-5115
▁ହଇ	-5116
▁୍‍	-5117
ateg	-5118
fere	-5119
ture	-5120
ଞ୍ଜି	-5121
ଟାଲ୍	-5122
ଭବତୀ	-5123
ଷ୍ଠା	-5124
ସ୍ତେ	-5125
ାନ୍ଧ	-5126
▁all	-5127
▁ପଟି	-5128
▁ବଳି	-5129
▁ମେଳ	-5130
▁ଲଢ଼	-5131
▁ହସ୍	-5132
▁Text	-5133
▁them	-5134
▁type	-5135
▁ଦାଖଲ	-5136
▁ନାମକ	-5137
▁ବର୍ଗ	-5138
▁ସଠିକ	-5139
▁ସେବକ	-5140
ସ୍ତ୍ରୀ	-5141
▁Argus	-5142
▁error	-5143
▁prote	-5144
▁ଦୂରରେ	-5145
▁ଧର୍ମା	-5146
▁ପଡୁଛି	-5147
▁ପ୍ରତୀ	-5148
▁ବିଶ୍ଵ	-5149
▁ଯୋଗାଡ	-5150
▁ଶିକାର	-5151
▁ସଫଳତା	-5152
▁ହ୍ରାସ	-5153
▁ଉପାୟରେ	-5154
▁ଏକୁଟିଆ	-5155
▁କରିହେବ	-5156
▁ଗୋଲାପି	-5157
▁ଦିଆଯିବ	-5158
▁ରହିଥାଏ	-5159
▁ସ୍ୱପ୍ନ	-5160
ribution	-5161
▁YouTube	-5162
▁listbox	-5163
▁ଗର୍ଭବତୀ	-5164
▁ଭାଷାହିଁ	-5165
▁ପିଲାପିଲି	-5166
▁Insurance	-5167
▁ପ୍ରକ୍ରିୟା	-5168
▁ପ୍ରଯୁକ୍ତି	-5169
ox	-5170
▁=	-5171
way	-5172
yle	-5173
ଚାଳ	-5174
ଦ୍ଦ	-5175
ପାଠ	-5176
ଯାଅ	-5177
ଳିକ	-5178
ସ୍‍	-5179
▁1,	-5180
▁ଚୌ	-5181
▁ଫସ	-5182
ଏମଆଇ	-5183
ଳାଫଳ	-5184
ାମିଲ	-5185
▁Sep	-5186
▁ପହଁ	-5187
▁ମାଉ	-5188
ystem	-5189
ପ୍ପଣୀ	-5190
▁2009	-5191
▁call	-5192
▁week	-5193
▁ଅଭାବ	-5194
▁ଆଣ୍ଟ	-5195
▁ଗଣେଶ	-5196
▁ଜାନୁ	-5197
▁ଦରମା	-5198
▁ଦିଦି	-5199
▁ନାହି	-5200
▁ଫୋଲଡ	-5201
▁୧୯୮୨	-5202
ଛାତ୍ରୀ	-5203
▁Tokio	-5204
▁ଇଶ୍ରା	-5205
▁ଉଠିଲା	-5206
▁କଲ୍ୟା	-5207
▁ଫଳାଫଳ	-5208
▁ବିଭାଜ	-5209
▁ସଂଯୋଜ	-5210
▁ସେକ୍ସ	-5211
▁ସେୟାର	-5212
ication	-5213
▁ବାବଦରେ	-5214
▁ମଲ୍ଲିକ	-5215
▁ଲଗାଇବି	-5216
▁ସଙ୍କେତ	-5217
▁ସେମିତି	-5218
▁ସ୍କୁଲ୍	-5219
▁କରୁଥିଲା	-5220
▁ଘୁଞ୍ଚାଉ	-5221
▁ଚିହ୍ନିତ	-5222
▁ପଢିଥିଲି	-5223
▁କରାଯାଉଛି	-5224
▁କାର୍ଯ୍ୟର	-5225
▁ଜାଗାଟିକୁ	-5226
▁ପଗ୍ଭରିଲେ	-5227
▁ସମ୍ମୁଖୀନ	-5228
▁କରାଯାଇଥାଏ	-5229
▁ଡାକ୍ତରଙ୍କ	-5230
▁ବୈଜ୍ଞାନିକ	-5231
▁ପ୍ରତିଛବିକୁ	-5232
▁ପ୍ରାର୍ଥୀଙ୍କ	-5233
▁ବ୍ୟବହାରକାରୀ	-5234
NT	-5235
sa	-5236
ଷତ	-5237
୧୧	-5238
ana	-5239
ଟିନ	-5240
ବୀର	-5241
ରହି	-5242
ରାଓ	-5243
ଲ୍ଲ	-5244
ଳେଇ	-5245
▁।)	-5246
▁ସୈ	-5247
▁୯୦	-5248
ାର୍ଜ	-5249
▁URL	-5250
▁ଜୁନ	-5251
▁ଜେଲ	-5252
▁ତମର	-5253
▁ଦଇେ	-5254
▁ନାଗ	-5255
▁ବାଦ	-5256
▁ବୈଠ	-5257
▁ମେଡ	-5258
▁ସଂଘ	-5259
mains	-5260
ଚ୍ଛେଦ	-5261
ମାତ୍ର	-5262
▁None	-5263
▁been	-5264
▁ଚିତ୍	-5265
▁ଡାକୁ	-5266
▁ଦତ୍ତ	-5267
▁ଧୂସର	-5268
▁ନାରୀ	-5269
▁ପକାଇ	-5270
▁ଫର୍ମ	-5271
▁ଯବାନ	-5272
▁ରୁଜୁ	-5273
▁ହଉଛି	-5274
▁today	-5275
▁ଗାଁରେ	-5276
▁ଘଟିଛି	-5277
▁ବୃଦ୍ଧ	-5278
▁ସ୍ମରଣ	-5279
▁launch	-5280
▁ଦୁର୍ବଳ	-5281
▁ପଠାଇବା	-5282
▁ପ୍ରାଣୀ	-5283
▁tooltip	-5284
▁କରିହେଲା	-5285
▁ମହାଭାରତ	-5286
▁ଡ଼େସ୍କଟପ	-5287
▁ଦାବିଦାର୍	-5288
▁ପଚାରନ୍ତୁ	-5289
▁ରତ୍ନଭଣ୍ଡାର	-5290
▁ଅପରିବର୍ତ୍ତିତ	-5291
8-	-5292
du	-5293
ଉଳ	-5294
ଯି	-5295
୭୦	-5296
▁ି	-5297
▁େ	-5298
:11	-5299
Let	-5300
ati	-5301
ens	-5302
ial	-5303
lay	-5304
ook	-5305
urs	-5306
ଣିଆ	-5307
ଶାଇ	-5308
ଷିକ	-5309
ହୁଏ	-5310
ାପା	-5311
ିକୋ	-5312
▁ID	-5313
▁ୟହ	-5314
ଗ୍ରତ	-5315
ମାନ୍	-5316
ମାରୀ	-5317
ଳୟରେ	-5318
ିବାସ	-5319
▁11,	-5320
▁ଅବା	-5321
▁ଈଷତ	-5322
▁ଉପର	-5323
▁କଲ୍	-5324
▁ଚତୁ	-5325
▁ଟ୍ୱ	-5326
▁ଦାନ	-5327
▁ଦେୟ	-5328
▁ପଛର	-5329
ଭିନ୍ନ	-5330
▁With	-5331
▁ଛଅଟି	-5332
▁ଜେନା	-5333
▁ଦେବୀ	-5334
▁ଫାର୍	-5335
▁ୟେବେ	-5336
ଧିକାରୀ	-5337
▁ଏଯାଏଁ	-5338
▁କୃମିର	-5339
▁ଠାକୁର	-5340
▁ଦେଉଛି	-5341
▁ଧକ୍କା	-5342
▁ଧୁଳିଆ	-5343
▁ପ୍ରଣା	-5344
▁ବାଧ୍ୟ	-5345
▁ଭୁବନେ	-5346
ବନେଶ୍ୱର	-5347
▁କରିଦିଆ	-5348
▁ଘୁଞ୍ଚା	-5349
▁ନାରାୟଣ	-5350
▁ଫେବ୍ରୁ	-5351
▁ଫେରିଲୁ	-5352
▁ବ୍ୟସ୍ତ	-5353
▁ମାରିବା	-5354
▁ପାଉଲଙ୍କ	-5355
▁ବୈଧିକରଣ	-5356
▁ବ୍ଯବହାର	-5357
▁Reporter	-5358
▁ଅପରାଜିତା	-5359
▁ସଂପର୍କରେ	-5360
▁ମନ୍ତ୍ରୀଙ୍କ	-5361
▁ଅନ୍ତର୍ଭୁକ୍ତ	-5362
▁ପର୍ଯ୍ୟନ୍ତଲମ୍ବ	-5363
,"	-5364
.,	-5365
ଂଜ	-5366
ଗଡ	-5367
ଲସ	-5368
enu	-5369
sed	-5370
ନ୍ଯ	-5371
ଭୁତ	-5372
ଭୂତ	-5373
ଲୀୟ	-5374
ଶୁଣ	-5375
▁Ch	-5376
▁UA	-5377
▁ଇଫ	-5378
▁ହବ	-5379
cess	-5380
ଟାକ୍	-5381
ବାଣୀ	-5382
ବାଲା	-5383
ବ୍ରେ	-5384
ସ୍ଥଳ	-5385
▁bug	-5386
▁ଏସମ	-5387
▁କ୍ୱ	-5388
▁ଖସି	-5389
▁ପୋଛ	-5390
▁ଭୋଗ	-5391
▁ସାଂ	-5392
କ୍ଷତି	-5393
ନ୍ତଳା	-5394
ବିଧାନ	-5395
ବେେଳେ	-5396
ର୍ୟ୍ଯ	-5397
ଶକ୍ତି	-5398
ଶ୍ୱାସ	-5399
▁Aust	-5400
▁what	-5401
▁ଅଫିସ	-5402
▁କ୍ୟୁ	-5403
▁ବାଛି	-5404
▁ମାଇଁ	-5405
▁୨୦୧୫	-5406
ପାରିଲେ	-5407
▁ଅପରାଧ	-5408
▁କଳାରେ	-5409
▁ଛିନ୍ନ	-5410
▁ପ୍ରାଣ	-5411
▁ବାଟରେ	-5412
▁ସତର୍କ	-5413
▁Remote	-5414
▁ଆଗେଇଲା	-5415
▁କ୍ରିୟା	-5416
▁ଜୀବନକୁ	-5417
▁ଥାନାରେ	-5418
▁ନାମକରଣ	-5419
▁ବିଶ୍ଳେ	-5420
▁ଚାଷୀଙ୍କ	-5421
▁ଟିପ୍ପଣୀ	-5422
▁ଦିଲ୍ଲୀପ	-5423
▁ପ୍ରକାଶନ	-5424
▁ଲାଇବ୍ରେ	-5425
▁ସ୍ତ୍ରୀର	-5426
▁launched	-5427
▁ସଂରକ୍ଷିତ	-5428
▁programme	-5429
▁ଭୂବନେଶ୍ୱର	-5430
,,	-5431
HA	-5432
UT	-5433
oo	-5434
ଆମ	-5435
କମ	-5436
ଥୁ	-5437
ଲମ	-5438
ଶୟ	-5439
୬୪	-5440
vel	-5441
କିଏ	-5442
ବରୁ	-5443
ଲଟି	-5444
▁ଏହ	-5445
▁ଡଃ	-5446
▁୫୩	-5447
cial	-5448
ଥମିକ	-5449
ନ୍ଦୋ	-5450
ମିକା	-5451
ଶାଇୟ	-5452
ଷ୍ଣୁ	-5453
ୁଅଛି	-5454
▁And	-5455
▁Feb	-5456
▁ଆପା	-5457
▁ଛୁଆ	-5458
▁ଦବା	-5459
▁ପଡୁ	-5460
▁ସାଜ	-5461
▁ସୁଦ	-5462
▁ସୁଧ	-5463
▁ହିତ	-5464
ପ୍ରତି	-5465
ଭାବରେ	-5466
ାପାଖି	-5467
▁Temp	-5468
▁ଈର୍ଷ	-5469
▁ଓସାର	-5470
▁କୌଶଳ	-5471
▁ଗଳ୍ପ	-5472
▁ଗ୍ରେ	-5473
▁ଦାୟୀ	-5474
▁ପେରୁ	-5475
▁ଭ୍ରମ	-5476
▁ମେନୁ	-5477
▁ଲିଟର	-5478
▁ଶ୍ରମ	-5479
▁୧୯୫୭	-5480
▁୨୦୧୮	-5481
orious	-5482
ଥିବାରୁ	-5483
ାନୁମାନ	-5484
▁ଅଫିସର	-5485
▁ଜନ୍ମେ	-5486
▁ଡାହାଣ	-5487
▁ପଡିଲେ	-5488
▁ମଧ୍ୟେ	-5489
▁ମିଡିଆ	-5490
▁ଅଟନ୍ତି	-5491
▁କଲ୍ୟାଣ	-5492
▁ଖୋଲିକି	-5493
▁ଧାରାରେ	-5494
▁ବିକ୍ରି	-5495
▁ସହଯୋଗୀ	-5496
▁Company	-5497
▁ଅଧିକାଂଶ	-5498
▁ଅଧିବେଶନ	-5499
▁ନଭେମ୍ବର	-5500
▁ପାର୍ଶ୍ୱ	-5501
▁ଅଂଶଗ୍ରହଣ	-5502
▁ପାଖାପାଖି	-5503
▁ଧର୍ମାଧର୍ମ	-5504
▁ମହିଳାମାନେ	-5505
▁ପୂର୍ବାନୁମାନ	-5506
▁ଆଲୋଚନାଦ୍ୱାରା	-5507
-4	-5508
CC	-5509
ED	-5510
be	-5511
gh	-5512
ଖନ	-5513
ଧୂ	-5514
୍ବ	-5515
୪୭	-5516
┈┈	-5517
WEB	-5518
ant	-5519
key	-5520
mer	-5521
ron	-5522
ଫିକ	-5523
ାନକ	-5524
୨୦୦	-5525
▁Su	-5526
▁ସଜ	-5527
▁୨୯	-5528
ଞ୍ଜୁ	-5529
ବରାଜ	-5530
ମାରେ	-5531
ଳିବା	-5532
ସିଟି	-5533
▁Pol	-5534
▁ଅଶୁ	-5535
▁ଜ୍ୟ	-5536
▁ନୀଳ	-5537
▁ବେଗ	-5538
▁ରମେ	-5539
▁ଶକୁ	-5540
▁ଶନି	-5541
▁ସମୀ	-5542
ଜୁଲାଇ	-5543
ାହିଦା	-5544
ୀୟଙ୍କ	-5545
▁2019	-5546
▁HTML	-5547
▁menu	-5548
▁ଠାରେ	-5549
▁ପୋଛି	-5550
▁ବ୍ୟୟ	-5551
▁ରାଗି	-5552
▁ୟାହା	-5553
▁https	-5554
▁ଆଟାକ୍	-5555
▁କଦାପି	-5556
▁ଡାକଘର	-5557
▁ଶୁକ୍ର	-5558
▁ସେମାନ	-5559
▁videos	-5560
▁ଅନଲାଇନ	-5561
▁ଅନୁମାନ	-5562
▁ଅସ୍ତ୍ର	-5563
▁କରାଯାଉ	-5564
▁ପରିବେଶ	-5565
▁ପିଏମଆଇ	-5566
▁ଫେରିବା	-5567
▁ବ୍ୟତୀତ	-5568
▁ଭଣ୍ଡାର	-5569
▁ଶିକ୍ଷକ	-5570
▁ଚିତ୍କାର	-5571
▁ନିର୍ଦେଶ	-5572
▁ପୁଣିଥରେ	-5573
▁ଇଶ୍ରାୟେଲ	-5574
▁କାର୍ଯ୍ୟରେ	-5575
▁ବଞ୍ଚିବାକୁ	-5576
▁ଲାଇବ୍ରେରୀ	-5577
▁ପରମେଶ୍ୱରଙ୍କ	-5578
99	-5579
In	-5580
OO	-5581
je	-5582
▁Z	-5583
OME	-5584
org	-5585
rie	-5586
ଏଠି	-5587
ଗଡା	-5588
ନାଲ	-5589
ଫ୍ଟ	-5590
ୋଦର	-5591
▁Ad	-5592
▁ph	-5593
▁ନଜ	-5594
▁ୟମ	-5595
ଦ୍ୟୁ	-5596
ମ୍ଭବ	-5597
୍ୟୁର	-5598
▁Jan	-5599
▁any	-5600
▁ଛଡା	-5601
▁ଦବେ	-5602
ନ୍ତିମ	-5603
ସିଦ୍ଧ	-5604
▁ଅବସର	-5605
▁ଅଭିବ	-5606
▁କଭରେ	-5607
▁କୁକୁ	-5608
▁ଗୋଟି	-5609
▁ତମକୁ	-5610
▁ପଦ୍ମ	-5611
▁ପାଦେ	-5612
▁ବିବି	-5613
▁ବୋହୂ	-5614
▁ଭଲପା	-5615
▁ସାରଣ	-5616
▁ୱାର୍	-5617
▁Inter	-5618
▁ଏଣିକି	-5619
▁କାଢ଼ି	-5620
▁ଗ୍ରନ୍	-5621
▁ଟ୍ୟାବ	-5622
▁ପାଉଛି	-5623
▁ମାସରେ	-5624
▁ସଂଳାପ	-5625
▁ସେପରି	-5626
▁ଡିଗ୍ରୀ	-5627
▁ଫ୍ୟୁଜ୍	-5628
▁ରୋଜଗାର	-5629
▁ସ୍ତରରେ	-5630
▁କାର୍ତ୍ତ	-5631
▁କୁହନ୍ତୁ	-5632
▁ଚେତାବନୀ	-5633
▁ପ୍ରଣାଳୀ	-5634
▁ପ୍ରତିମା	-5635
▁ପ୍ରସନ୍ନ	-5636
▁ଫୋଲଡରରେ	-5637
▁ଶାସ୍ତ୍ର	-5638
▁ଅବସ୍ଥିତି	-5639
▁ତାହାହେଲେ	-5640
▁ପ୍ରଦର୍ଶକ	-5641
▁ଶକୁନ୍ତଳା	-5642
▁କ୍ଷୟକ୍ଷତି	-5643
▁ନାହାଁନ୍ତି	-5644
▁ପ୍ରାକୃତିକ	-5645
▁ଫେବ୍ରୁଆରି	-5646
▁କରିପାରନ୍ତି	-5647
▁ଛାତ୍ରଛାତ୍ରୀ	-5648
NS	-5649
୨୪	-5650
୭୭	-5651
cre	-5652
ght	-5653
ore	-5654
ଦେହ	-5655
ଭୀର	-5656
ମ୍ୱ	-5657
ରାମ	-5658
ର୍ତ	-5659
▁te	-5660
▁ଜମ	-5661
▁ତଳ	-5662
▁୫୫	-5663
eror	-5664
oman	-5665
onqu	-5666
ଗରିକ	-5667
ଚାଲି	-5668
ଦେବୀ	-5669
ମାଲନ	-5670
▁Ben	-5671
▁ଅଧା	-5672
▁କୋଡ	-5673
▁ନିଉ	-5674
▁ବିତ	-5675
▁ସଂଗ	-5676
▁Word	-5677
▁cont	-5678
▁ଆଲୋକ	-5679
▁କୃଷ୍	-5680
▁କ୍ରି	-5681
▁ଦୁଆର	-5682
▁ନୋଟ୍	-5683
▁ଫ୍ରେ	-5684
▁ବୁଲି	-5685
▁ଭୂମି	-5686
▁ସମେତ	-5687
ାଇପାରେ	-5688
▁ଅଣ୍ଡା	-5689
▁ଉଠିଲେ	-5690
▁କ୍ୟାମ	-5691
▁ଜୀବନର	-5692
▁ବିକିବ	-5693
▁ମହାନ୍	-5694
▁ମୌଳିକ	-5695
▁ଯୁବତୀ	-5696
▁ଶେଷ୍ଠ	-5697
▁ସର୍ବୋ	-5698
▁ସ୍କ୍ର	-5699
▁Sambad	-5700
▁ଅନ୍ତିମ	-5701
▁ଗତକାଲି	-5702
▁ଯେଉଁଠି	-5703
▁ଲାଗିଛି	-5704
▁ସାଆନ୍ତ	-5705
onqueror	-5706
▁English	-5707
▁ମଞ୍ଜିରୁ	-5708
▁ଅନୁକ୍ରମଣ	-5709
▁ଇଣ୍ଟରନେଟ	-5710
▁ଛୁଇଁପାରେ	-5711
▁ବଦଳାନ୍ତୁ	-5712
▁protected	-5713
▁କାର୍ଯ୍ୟକୁ	-5714
▁ଲେଖିଛନ୍ତି	-5715
▁ସ୍ତନ୍ୟପାନ	-5716
▁ଆତଙ୍କୀଙ୍କୁ	-5717
▁ଉଇକିପିଡ଼ିଆ	-5718
▁କରାଯାଇପାରେ	-5719
▁ପୁନଃସ୍ଥାପନ	-5720
▁କାର୍ଯ୍ୟକ୍ରମରେ	-5721
28	-5722
cl	-5723
ie	-5724
ରଖ	-5725
ଲତ	-5726
IST	-5727
ani	-5728
opy	-5729
ଫୋନ	-5730
ୋତି	-5731
▁On	-5732
▁ଅଯ	-5733
▁ଡର	-5734
What	-5735
ight	-5736
omen	-5737
usic	-5738
ଗଳ୍ପ	-5739
ନୋସର	-5740
େଇବା	-5741
▁ଅଚଳ	-5742
▁କଲୁ	-5743
▁ଚଳା	-5744
▁ନାଇ	-5745
▁ପଠନ	-5746
▁ଫୋର	-5747
▁ମନର	-5748
▁ରଘୁ	-5749
▁ରାଗ	-5750
▁ସଜା	-5751
▁ସାତ	-5752
ments	-5753
କାହିଁ	-5754
ଙ୍ଗରେ	-5755
ମୁକ୍ତ	-5756
ାଇଥାଏ	-5757
▁Life	-5758
▁ଆହରଣ	-5759
▁ଖଣ୍ଡ	-5760
▁ଖ୍ରୀ	-5761
▁ଗ୍ରୀ	-5762
▁ଚୁପ୍	-5763
▁ନିଆଁ	-5764
▁ନିକଟ	-5765
▁ପାହା	-5766
▁ବିଧି	-5767
▁ବେଶୀ	-5768
▁ଯିହୂ	-5769
▁ରୋଗୀ	-5770
▁ଲୁଗା	-5771
▁ସ୍ପେ	-5772
▁୧୯୬୯	-5773
ଲିକାପ୍	-5774
▁Watch	-5775
▁hours	-5776
▁woman	-5777
▁ଏକତ୍ର	-5778
▁ଏକାକୀ	-5779
▁କୋଟିର	-5780
▁ଗୋଷ୍ଠ	-5781
▁ପରମ୍ପ	-5782
ଙ୍କେତିକ	-5783
▁Office	-5784
▁କରିଦେଇ	-5785
▁ଡଲାରରେ	-5786
▁ନାଗରିକ	-5787
▁ଭାବିଲା	-5788
▁ଯଥେଷ୍ଟ	-5789
▁ଲକ୍ଷ୍ମ	-5790
▁ସଂଖ୍ଯା	-5791
▁ସଙ୍କଳନ	-5792
▁ହୋଇଯାଏ	-5793
ାମାନଙ୍କୁ	-5794
▁ଅତ୍ୟଧିକ	-5795
▁ଏକାଡେମୀ	-5796
▁କାର୍ୟ୍ଯ	-5797
▁ଡାଇନୋସର	-5798
▁ପ୍ରଗ୍ରାମ	-5799
▁ମଙ୍ଗଳବାର	-5800
▁ଯୀଶୁଙ୍କୁ	-5801
▁ହେଲିକାପ୍	-5802
▁ଆତଙ୍କବାଦୀ	-5803
▁ସର୍ବନିମ୍ନ	-5804
▁ପ୍ରାକଦର୍ଶନ	-5805
\.	-5806
ଏତ	-5807
କଲ	-5808
େର	-5809
୬୦	-5810
(?)	-5811
arn	-5812
lue	-5813
ple	-5814
pom	-5815
ଂଟା	-5816
ଚାଲ	-5817
ଜେଟ	-5818
ବାଇ	-5819
ୀତା	-5820
ୟନ୍	-5821
୬୪ଇ	-5822
▁!"	-5823
▁38	-5824
▁ଚର	-5825
▁୮୫	-5826
ଉଣ୍ଟ	-5827
ଟାରୁ	-5828
ଦିନେ	-5829
ନ୍ଦୀ	-5830
ୟିକା	-5831
▁Day	-5832
▁ଆୟୁ	-5833
▁ଋଷି	-5834
▁କପି	-5835
▁କମା	-5836
▁କାଠ	-5837
▁ନିଦ	-5838
▁ବେଶ	-5839
▁୯୩୦	-5840
cript	-5841
pomuk	-5842
ପୁରରେ	-5843
୍ରୀକା	-5844
▁ଆକଳନ	-5845
▁ଏଏଚ୍	-5846
▁କୃଷକ	-5847
▁କ୍ଲା	-5848
▁ଗରିବ	-5849
▁ଗ୍ଲେ	-5850
▁ପଢ଼ି	-5851
▁ବିଲ୍	-5852
▁ବେବି	-5853
▁ବ୍ରି	-5854
▁ହାସଲ	-5855
ପ୍ରକାର	-5856
▁named	-5857
▁ଅଞ୍ଚଳ	-5858
▁ଆଚ୍ଛା	-5859
▁ଆପାଚି	-5860
▁ଜରୁରୀ	-5861
▁ତାମିଲ	-5862
▁ଶସ୍ତା	-5863
▁ଶ୍ରୀନ	-5864
କ୍ତିକରଣ	-5865
▁ଅଗ୍ରସର	-5866
▁ଏସମସ୍ତ	-5867
▁ନିର୍ଭର	-5868
▁ପରିବହନ	-5869
▁ପ୍ରିମି	-5870
▁ବିଜ୍ଞା	-5871
▁ବୁଲିବା	-5872
▁ବ୍ରହ୍ମ	-5873
▁ମଞ୍ଚରେ	-5874
▁ମଧ୍ଯରୁ	-5875
▁ରେକର୍ଡ	-5876
▁ହେଇଗଲା	-5877
ବିଦ୍ୟାଳୟ	-5878
▁Nepomuk	-5879
▁Reading	-5880
▁ଅଞ୍ଚଳରେ	-5881
▁ଆଫ୍ରୀକା	-5882
▁ପୂର୍ବତନ	-5883
▁ମିଲିୟନ୍	-5884
▁ଲୋକମାନଙ୍କ	-5885
▁ହେବେନାହିଁ	-5886
▁ଆଶ୍ଚର୍ଯ୍ୟର	-5887
▁ପ୍ରାରମ୍ଭିକ	-5888
▁ସ୍ଥାନଗୁଡ଼ିକ	-5889
▁ହେଲିକାପ୍ଟର୍	-5890
ml	-5891
ଢୀ	-5892
ତୋ	-5893
ହଉ	-5894
ୋହ	-5895
▁·	-5896
arc	-5897
ava	-5898
bar	-5899
ern	-5900
ଣାମ	-5901
ରାୟ	-5902
ର୍‍	-5903
ଲିମ	-5904
ସାହ	-5905
▁5.	-5906
▁ଆଜ	-5907
▁କଂ	-5908
▁କଥ	-5909
▁ଦୈ	-5910
▁ରସ	-5911
peri	-5912
ନ୍ଦା	-5913
ୁଦ୍ର	-5914
ୃକ୍ତ	-5915
▁POP	-5916
▁Ser	-5917
▁କଟା	-5918
▁ଜବା	-5919
▁ବଂଚ	-5920
▁ବୈଧ	-5921
▁ମାଇ	-5922
ଆଚ୍ଛା	-5923
ଷ୍ଠିତ	-5924
ସଞ୍ଜୁ	-5925
▁2256	-5926
▁Best	-5927
▁like	-5928
▁time	-5929
▁ଆଜିର	-5930
▁ଗିରି	-5931
▁ତହୁଁ	-5932
▁ଦେମ୍	-5933
▁ନକଲି	-5934
▁ବୋହୁ	-5935
▁ସୂଚକ	-5936
▁video	-5937
▁ଉପହାର	-5938
▁କାନ୍ଦ	-5939
▁ତ୍ୟାଗ	-5940
▁ଦେହରେ	-5941
▁ବିନାଶ	-5942
▁ସାରଣୀ	-5943
▁କଥାବାର	-5944
▁କରିଅଛି	-5945
▁କୁଆଡ଼େ	-5946
▁ଦାମୋଦର	-5947
▁ପଶ୍ଚିମ	-5948
▁ହେଇଯିବ	-5949
▁ୟାହାକି	-5950
▁ଅସୁବିଧା	-5951
▁କର୍ଫ୍ୟୁ	-5952
▁ଚାହିଁଲେ	-5953
▁ବନ୍ଧୁତା	-5954
▁ରହିଥିଲା	-5955
▁ସନ୍ଧ୍ୟା	-5956
▁ସେମାନକଂ	-5957
▁ସ୍ୱାର୍ଥ	-5958
▁Facebook	-5959
▁language	-5960
▁ଆସିଛନ୍ତି	-5961
▁କେବେହେଲେ	-5962
▁ଦୃଶ୍ୟମାନ	-5963
▁ବାହାରିଲା	-5964
▁ବିଶ୍ୱକପ୍	-5965
▁କେହିନୁହେଁ	-5966
▁ଏପର୍ଯ୍ୟନ୍ତ	-5967
▁ତୁମ୍ଭେମାନେ	-5968
▁ସ୍ୱୟଂଚାଳିତ	-5969
▁ସ୍ତ୍ରୀଲିଙ୍ଗ	-5970
58	-5971
IS	-5972
MS	-5973
୧୪	-5974
ili	-5975
ire	-5976
irl	-5977
ude	-5978
କେଟ	-5979
ରଣର	-5980
ର୍ଭ	-5981
ୱାର	-5982
▁ସଶ	-5983
▁୫୧	-5984
Read	-5985
ater	-5986
giri	-5987
ଆଧାର	-5988
ଜ୍ଜା	-5989
ଣ୍ଣା	-5990
ପିତା	-5991
ବୋର୍	-5992
ମୁନା	-5993
▁ଅଜା	-5994
▁ଅବି	-5995
▁ଏକର	-5996
▁ଏଣୁ	-5997
▁ନୀର	-5998
▁ଯାଜ	-5999
ralia	-6000
ଣ୍ଡିଆ	-6001
ବସ୍ଥା	-6002
ଶଙ୍କର	-6003
ସଭାରେ	-6004
ୋପିକ୍	-6005
▁base	-6006
▁କହେି	-6007
▁ଚାଉଳ	-6008
▁ଜେଜେ	-6009
▁ନ୍ୟୁ	-6010
▁ମୋହନ	-6011
▁ସୁଲୀ	-6012
▁୨୦୦୯	-6013
▁୩୦ରୁ	-6014
ଦକ୍ଷିଣ	-6015
ପ୍ରସାଦ	-6016
▁subha	-6017
▁ଆକର୍ଷ	-6018
▁ଉନ୍ନତ	-6019
▁କହିଲଲ	-6020
▁ଗାଡ଼ି	-6021
▁ଦୁଃଖି	-6022
▁ଦେବତା	-6023
▁ନାଁରେ	-6024
▁ଭାଗ୍ୟ	-6025
▁ଶିଶୁର	-6026
▁କରିପାର	-6027
▁କଳାକାର	-6028
▁ଛାତ୍ରୀ	-6029
▁ପଦାର୍ଥ	-6030
▁ବେହେରା	-6031
▁ଅତିକମରେ	-6032
▁ଦବାନ୍ତୁ	-6033
▁ପରମ୍ପରା	-6034
▁ନୁହଁନ୍ତି	-6035
▁ପ୍ରତିଯୋଗ	-6036
▁ବାୟୋପିକ୍	-6037
▁ଯନ୍ତ୍ରଣା	-6038
▁ସାମ୍ନାକୁ	-6039
▁Australia	-6040
▁Konqueror	-6041
▁ଇଚ୍ଛାରୂପଣ	-6042
▁ଦେଖାଯାଇଛି	-6043
▁ସାଙ୍କେତିକ	-6044
▁ସଦାପ୍ରଭୁଙ୍କ	-6045
9]	-6046
TP	-6047
ah	-6048
cy	-6049
vt	-6050
ଗଳ	-6051
ଦଶ	-6052
ୂକ	-6053
chn	-6054
its	-6055
lan	-6056
ner	-6057
now	-6058
ren	-6059
res	-6060
କୁଳ	-6061
କୂଳ	-6062
ଘଟଣ	-6063
ଟାଇ	-6064
ଢେଇ	-6065
ଲ୍ଟ	-6066
ସ୍ପ	-6067
ୟାନ	-6068
▁03	-6069
▁He	-6070
word	-6071
ଖଣ୍ଡ	-6072
ଯାହା	-6073
ିତ୍ଵ	-6074
ୃଷ୍ଠ	-6075
୍ୟତା	-6076
▁ଆଲୋ	-6077
▁କ୍ୟ	-6078
▁ଚୋର	-6079
▁ତୁଠ	-6080
alled	-6081
ଧିକାର	-6082
ନଥିବା	-6083
ିବେନି	-6084
▁ଅରୁଣ	-6085
▁ଆନ୍ତ	-6086
▁ଗଭୀର	-6087
▁ଫ୍ରି	-6088
▁ଫ୍ୟା	-6089
▁ସଂସଦ	-6090
▁ନାମରୁ	-6091
▁ବଢୁଛି	-6092
▁ରୋଗରେ	-6093
▁ଶେଷକୁ	-6094
ategory	-6095
ference	-6096
▁ଅନୁପାତ	-6097
▁ଅଫଲାଇନ	-6098
▁ଅସମ୍ଭବ	-6099
▁ଆମ୍ଭକୁ	-6100
▁ଉଦ୍ଧାର	-6101
▁ଉପଭୋକ୍ତ	-6102
▁ଦତ୍ତଙ୍କ	-6103
▁ନରେନ୍ଦ୍ର	-6104
▁ନିର୍ଦେଶକ	-6105
▁ପେରୁଦେଶର	-6106
▁ଯେଉଁଥିରେ	-6107
▁ରଖିଛନ୍ତି	-6108
▁ଷ୍ଟେସନରେ	-6109
▁କୁହାଯାଇଛି	-6110
▁ପ୍ରାର୍ଥନା	-6111
▁ଭିନ୍ନକ୍ଷମ	-6112
▁କାର୍ଯ୍ୟାଳୟ	-6113
▁ପରିବର୍ତ୍ତିତ	-6114
!’	-6115
71	-6116
oj	-6117
to	-6118
ନବ	-6119
୪୦	-6120
▁Q	-6121
ass	-6122
igh	-6123
osa	-6124
ଡିତ	-6125
ଦୁଆ	-6126
ଦୂର	-6127
ବହୁ	-6128
ମରି	-6129
ଯାସ	-6130
ଳିତ	-6131
▁-"	-6132
▁ଋଷ	-6133
▁ଶବ	-6134
▁୬୦	-6135
▁ୱା	-6136
sero	-6137
କାଳେ	-6138
ଚେତନ	-6139
ବଙ୍ଗ	-6140
ସ୍ତର	-6141
ାହିତ	-6142
▁Dis	-6143
▁Emp	-6144
▁Mid	-6145
▁[17	-6146
▁ଅଦ୍	-6147
▁ଉଦୟ	-6148
▁ଗଜା	-6149
▁ଦିଏ	-6150
▁ନାଲ	-6151
▁ମହୁ	-6152
▁ରୋଷ	-6153
▁ଲାଜ	-6154
▁ଲୁଚ	-6155
▁ହେଃ	-6156
ୃପକ୍ଷ	-6157
▁page	-6158
▁ଅଗ୍ନ	-6159
▁ଅଘଟଣ	-6160
▁ଅଶ୍ୱ	-6161
▁କକ୍ଷ	-6162
▁କଲେଜ	-6163
▁ଟର୍ମ	-6164
▁ଥିଲି	-6165
▁ନାମ୍	-6166
▁ପାରେ	-6167
▁ମଞ୍ଜ	-6168
▁ମାରୁ	-6169
▁ଯୋଡି	-6170
▁ସାହସ	-6171
▁ସିରି	-6172
cience	-6173
rasero	-6174
ଗ୍ରସ୍ତ	-6175
ମ୍ବରରେ	-6176
ର୍ଯ୍ୟା	-6177
ସାଧାରଣ	-6178
ାମାଙ୍କ	-6179
▁Music	-6180
▁କହିଛି	-6181
▁କୁଞ୍ଜ	-6182
▁କୋହଲି	-6183
▁ଜଙ୍ଗଲ	-6184
▁ଦେବାର	-6185
▁ଧାରଣା	-6186
▁ବୁଝିବ	-6187
▁ଭାଙ୍ଗ	-6188
▁ଭୀଷ୍ମ	-6189
▁ରାଶିର	-6190
▁ସାମାନ	-6191
ବର୍ତ୍ତି	-6192
ଷ୍ଟ୍ରୀୟ	-6193
୍ୟ୍ଯନ୍ତ	-6194
▁ଆକାରରେ	-6195
▁ଉଚ୍ଚତା	-6196
▁ଜାଗ୍ରତ	-6197
▁ନାୟିକା	-6198
▁ପାଣିରେ	-6199
▁ବିଜୁଳି	-6200
▁ମସିହାର	-6201
▁ସ୍ୱଚ୍ଛ	-6202
▁ଘୂର୍ଣ୍ଣ	-6203
▁ଚଲାନ୍ତୁ	-6204
▁ମୃତ୍ୟୁର	-6205
formation	-6206
▁ତାଲିକାକୁ	-6207
▁ଦୁଷ୍କର୍ମ	-6208
ranslation	-6209
▁ଆଶ୍ଚର୍ୟ୍ଯ	-6210
▁ଅଷ୍ଟ୍ରେଲୀୟ	-6211
▁ଛିନ୍ନଭିନ୍ନ	-6212
▁ଯୁକ୍ତିଯୁକ୍ତ	-6213
▁ଉପଭୋକ୍ତାମାନଙ୍କ	-6214
60	-6215
if	-6216
ps	-6217
ଏଁ	-6218
ଧୁ	-6219
ମଳ	-6220
୩୨	-6221
‍ଇ	-6222
▁q	-6223
ese	-6224
ign	-6225
କାଟ	-6226
ାଇନ	-6227
୍ରୟ	-6228
▁06	-6229
▁08	-6230
▁La	-6231
▁ab	-6232
▁ra	-6233
▁ଚୂ	-6234
▁ଥି	-6235
▁ନଗ	-6236
▁ମଇ	-6237
▁ଶନ	-6238
hara	-6239
ଞ୍ଚନ	-6240
ଫୋରଣ	-6241
ବଦ୍ଧ	-6242
ବ୍ୟା	-6243
ଭାବେ	-6244
ରଙ୍କ	-6245
ଶାଳୀ	-6246
ସ୍ରା	-6247
▁Ant	-6248
▁ଓ୍ଵ	-6249
▁କୋଣ	-6250
▁ତିନ	-6251
▁ଫସଲ	-6252
▁ଭେଟ	-6253
▁ହେଁ	-6254
arian	-6255
ource	-6256
ଟିଙ୍ଗ	-6257
ଣିଜ୍ୟ	-6258
ନିଷ୍ଠ	-6259
ପ୍ରେମ	-6260
▁କବେେ	-6261
▁କିମ୍	-6262
▁ଘଡ଼ି	-6263
▁ଟୋକା	-6264
▁ପରିତ	-6265
▁ଫାଟି	-6266
▁ବିଭୁ	-6267
▁ବେଶି	-6268
▁ମମତା	-6269
▁ସାଧୁ	-6270
▁ସ୍ବର	-6271
▁ଈର୍ଷା	-6272
▁କରିଦେ	-6273
▁ଗୁପ୍ତ	-6274
▁ନିବେଶ	-6275
▁ମିନିଟ	-6276
▁ଶାନ୍ତ	-6277
▁ସୋସିଆ	-6278
▁Bengal	-6279
▁Nation	-6280
▁Number	-6281
▁window	-6282
▁କଳ୍ପନା	-6283
▁କେତୋଟି	-6284
▁ପାରିଲା	-6285
▁ପୋଲିସ୍	-6286
▁ମହଙ୍ଗା	-6287
▁ଶନିବାର	-6288
▁ସଫଳତାର	-6289
▁ସେତିକି	-6290
▁କହିଥିଲି	-6291
▁ଡାକ୍ତରଖ	-6292
▁ନିର୍ମିତ	-6293
▁ପୃଥିବୀର	-6294
▁ବିସ୍ତୃତ	-6295
▁ହତ୍ୟାକା	-6296
🙏🙏🙏🙏🙏🙏🙏🙏	-6297
▁କଂଗ୍ରେସର	-6298
▁ପ୍ରାର୍ଥୀ	-6299
▁ବିଶ୍ଳେଷଣ	-6300
▁ବ୍ଯକ୍ତିଗତ	-6301
▁ଯୋଗକରନ୍ତୁ	-6302
))	-6303
/-	-6304
LI	-6305
ca	-6306
sf	-6307
td	-6308
ଅଛ	-6309
ଣକ	-6310
ଵେ	-6311
ସକ	-6312
ସସ	-6313
low	-6314
ult	-6315
କରା	-6316
ଢ଼ା	-6317
ବଂଶ	-6318
ଭାତ	-6319
ସର୍	-6320
ାତକ	-6321
▁.”	-6322
▁We	-6323
▁sa	-6324
▁ଠକ	-6325
▁’’	-6326
ions	-6327
itic	-6328
ଡ଼କୁ	-6329
ତାରେ	-6330
ତ୍ତର	-6331
ଦଣ୍ଡ	-6332
ପାଦନ	-6333
ମପାନ	-6334
ରିଲା	-6335
ସ୍ପର	-6336
▁35.	-6337
▁din	-6338
▁ଖଣି	-6339
▁ଜିଓ	-6340
▁ପୃଥ	-6341
▁ବାପ	-6342
▁ବୀଥ	-6343
▁ମଧୁ	-6344
ନଥିଲା	-6345
ନ୍ୟାସ	-6346
ମଣିମା	-6347
▁2017	-6348
▁Free	-6349
▁From	-6350
▁ଅଟକି	-6351
▁କ୍ରେ	-6352
▁ଦୁନି	-6353
▁ମାଗି	-6354
▁ହେଲ୍	-6355
▁ହ୍ୟା	-6356
▁୨୦୦୦	-6357
00,000	-6358
tember	-6359
ଗୁଡିକର	-6360
ତବେେଳେ	-6361
▁whose	-6362
▁ଆନ୍ଦୋ	-6363
▁ଉଠୁଛି	-6364
▁ଘଟଣାର	-6365
▁ଫାର୍ମ	-6366
▁ବୟସରେ	-6367
▁ଭ୍ରମଣ	-6368
▁ମନୋହର	-6369
▁ମାଙ୍କ	-6370
▁ଶିଳ୍ପ	-6371
▁ସମଗ୍ର	-6372
▁ସୁପ୍ର	-6373
▁ଅଣାଯାଇ	-6374
▁ଆୟୋଜିତ	-6375
▁କାନ୍ଦୁ	-6376
▁ଗୁହାରି	-6377
▁ଜାଣିନି	-6378
▁ଯିଶାଇୟ	-6379
▁ସତ୍ୟତା	-6380
▁process	-6381
▁ଦିଅନ୍ତି	-6382
▁ଦେବାଶିଷ	-6383
▁ଦୋକାନରେ	-6384
▁ପ୍ରାଚୀନ	-6385
▁ରହିବାକୁ	-6386
▁ଅନୁଷ୍ଠାନ	-6387
▁ପିଲାମାନେ	-6388
▁ଭୁଲିପାରେ	-6389
▁ଶ୍ରୀନିବାସ	-6390
▁ସାହାଯ୍ୟରେ	-6391
/%	-6392
47	-6393
ax	-6394
କଟ	-6395
ୂର	-6396
’!	-6397
-1/	-6398
???	-6399
App	-6400
erm	-6401
ork	-6402
ବରଣ	-6403
ବିତ	-6404
▁00	-6405
▁09	-6406
▁39	-6407
▁Qu	-6408
▁କୂ	-6409
▁କୈ	-6410
▁ଜୈ	-6411
▁ନଈ	-6412
▁୩୯	-6413
olog	-6414
omic	-6415
tica	-6416
ଟିକେ	-6417
ଦାତା	-6418
ପୂରକ	-6419
ବ୍ଲୁ	-6420
ମ୍ମା	-6421
ଯୀଶୁ	-6422
ିକକୁ	-6423
▁?’’	-6424
▁For	-6425
▁May	-6426
▁ଆମା	-6427
▁ଖରା	-6428
▁ଖୁବ	-6429
▁ଗବେ	-6430
▁ଜନକ	-6431
▁ଲୂକ	-6432
କାଳୀନ	-6433
ଙ୍କାର	-6434
ଟିଏମ୍	-6435
ଣସିଂହ	-6436
ଭାଗ୍ୟ	-6437
ଷ୍କାର	-6438
▁ever	-6439
▁ଅପରେ	-6440
▁ଆଚରଣ	-6441
▁ଉକ୍ତ	-6442
▁ଖେଳି	-6443
▁ଖୋଜି	-6444
▁ଦେବୁ	-6445
▁ଧିରେ	-6446
▁ମାଟି	-6447
▁ଯିହୋ	-6448
▁ରାଜୁ	-6449
▁ସମୂହ	-6450
▁ସୂଚୀ	-6451
▁ହରାଇ	-6452
▁ହାରି	-6453
▁୧୯୯୧	-6454
osaurs	-6455
overed	-6456
ration	-6457
ବୃତ୍ତି	-6458
୍ରାକାଟ	-6459
▁Reply	-6460
▁[...]	-6461
▁[179]	-6462
▁ଆଗାମୀ	-6463
▁କେନ୍ଦ	-6464
▁ରହିେଲ	-6465
▁ଲୋକକୁ	-6466
▁ସଂଖ୍ୟ	-6467
▁ସଚେତନ	-6468
▁ସାହସୀ	-6469
▁ହେବନି	-6470
arctica	-6471
▁ଉର୍ଦ୍ଧ	-6472
▁ଜର୍ମାନ	-6473
▁ଢଙ୍ଗରେ	-6474
▁ପ୍ରତୀକ	-6475
▁ବ୍ୟାପକ	-6476
▁ମୁଦ୍ରା	-6477
▁ମ୍ୟାଚ୍	-6478
▁ଲକ୍ଷ୍ଯ	-6479
▁ଶ୍ରମିକ	-6480
▁୧୯୮୧ରେ	-6481
▁remains	-6482
▁ଓଡିଶାରେ	-6483
▁ଗୁଡ଼ିକୁ	-6484
▁ପରିବାରର	-6485
▁ପ୍ରେମରେ	-6486
▁ସ୍ଥାପିତ	-6487
▁କ୍ୟାମେରା	-6488
▁ଖାଉଛନ୍ତି	-6489
▁ପାରିବେନି	-6490
୍ରାକାଟିକାର	-6491
▁dinosaurs	-6492
▁recovered	-6493
▁କହିଥାନ୍ତି	-6494
▁Antarctica	-6495
▁ସ୍ଥାନାନ୍ତର	-6496
▁କଥାବାର୍ତ୍ତା	-6497
▁ପୂର୍ବବର୍ତ୍ତୀ	-6498
▁ଆଣ୍ଟ୍ରାକାଟିକାର	-6499
/0	-6500
ଲବ	-6501
୬୭	-6502
▁୤	-6503
alp	-6504
ath	-6505
the	-6506
ven	-6507
ଏଫ୍	-6508
ଜାନ	-6509
ଟେଇ	-6510
ଡାଇ	-6511
ଣୀର	-6512
ନେଡ	-6513
ରଫୁ	-6514
ିଲ୍	-6515
▁01	-6516
▁48	-6517
▁53	-6518
▁SC	-6519
▁Sa	-6520
▁TN	-6521
▁id	-6522
▁କଟ	-6523
▁ଛେ	-6524
▁ଦମ	-6525
▁ମକ	-6526
▁୨୮	-6527
-28-	-6528
Next	-6529
athy	-6530
blem	-6531
ଛନ୍ତ	-6532
ତ୍ଯୁ	-6533
ବାପା	-6534
▁dis	-6535
▁ଇଛା	-6536
▁କଳି	-6537
▁ଖାଉ	-6538
▁ଡ଼ି	-6539
▁ପାଏ	-6540
▁ରହେ	-6541
▁ହଜମ	-6542
▁୪୦୦	-6543
▁୯ଟା	-6544
କ୍ରିଯ	-6545
▁Econ	-6546
▁ଅଭିଗ	-6547
▁ଠିକା	-6548
▁ଥିବେ	-6549
▁ଦରଫୁ	-6550
▁ପାଳି	-6551
▁ପ୍ରୁ	-6552
▁ବିନ୍	-6553
▁ମାନବ	-6554
▁ମୂଳକ	-6555
▁୧ମୃତ	-6556
-28-32	-6557
ccount	-6558
▁କହୁଛୁ	-6559
▁କାଣ୍ଡ	-6560
▁କୋର୍ଟ	-6561
▁ଦୁହେଁ	-6562
▁ପାଳିବ	-6563
▁ମାଣିକ	-6564
▁ମିତ୍ର	-6565
▁ଲମ୍ବା	-6566
▁ଶଙ୍କର	-6567
▁ସହରକୁ	-6568
▁ସିଂହା	-6569
▁ଉନ୍ନତି	-6570
▁କାରବାର	-6571
▁ଗମ୍ଭୀର	-6572
▁ଗ୍ଲେଜ୍	-6573
▁ଚାହୁଁଛ	-6574
▁ଜାଣିବେ	-6575
▁ପାଣ୍ଡୁ	-6576
▁ପ୍ରାୟେ	-6577
▁ବିଦ୍ୟୁ	-6578
▁ମନୁଷ୍ୟ	-6579
▁ମହାଦେବ	-6580
▁ସକ୍ରିଯ	-6581
ikipedia	-6582
ବାସୀମାନେ	-6583
▁Science	-6584
▁ଅନୁପୂରକ	-6585
▁ଗୁରୁବାର	-6586
▁ଗ୍ରେନେଡ	-6587
▁ମାନଙ୍କର	-6588
▁ରହିଥିବା	-6589
▁ସାମାନ୍ୟ	-6590
▁34-28-32	-6591
▁Economic	-6592
▁ବିଜ୍ଞାପନ	-6593
dictionary	-6594
▁September	-6595
▁ଅଣାଯାଇଅଛି	-6596
▁ଚର୍ଚ୍ଚାରେ	-6597
.(	-6598
1–	-6599
BI	-6600
SL	-6601
tr	-6602
ଆସ	-6603
ଦୃ	-6604
Day	-6605
iss	-6606
umn	-6607
ute	-6608
ତ୍ବ	-6609
ଲଟା	-6610
ଲେଟ	-6611
ସ୍ର	-6612
ାଜା	-6613
୧୯୮	-6614
▁ce	-6615
▁କପ	-6616
ouri	-6617
tual	-6618
{0}"	-6619
କୁରୁ	-6620
ଗୁରୁ	-6621
ଝିଲେ	-6622
ବର୍ତ	-6623
ମ୍ୟା	-6624
ରାଲ୍	-6625
ାଇଲ୍	-6626
▁ନନା	-6627
▁ପଶି	-6628
▁ଫ୍ୟ	-6629
▁୩୦୦	-6630
▁୪ଟି	-6631
▁୬ରୁ	-6632
board	-6633
କରିବା	-6634
କାନ୍ତ	-6635
ବନ୍ଧନ	-6636
▁ଅସହା	-6637
▁ଆରାମ	-6638
▁କ୍ରୀ	-6639
▁ଘାରି	-6640
▁ଜଣାଇ	-6641
▁ଟ୍ୱି	-6642
▁ଧାର୍	-6643
▁ବର୍ତ	-6644
▁ବେଶ୍	-6645
▁ଭକ୍ତ	-6646
▁ମଦୁଆ	-6647
▁ମୁକୁ	-6648
▁ଶାହା	-6649
▁ସଂଗେ	-6650
▁୧୦୦୦	-6651
ବିହାରୀ	-6652
ସ୍ମିତା	-6653
▁"{0}"	-6654
▁ଅଭିନୟ	-6655
▁ଜୁଲାଇ	-6656
▁ଦୃଶ୍ଯ	-6657
▁ପରିସର	-6658
▁ପ୍ରାଇ	-6659
▁ଭଲପାଏ	-6660
▁ଯମଦୂତ	-6661
▁ସକ୍ଷମ	-6662
▁ସେସବୁ	-6663
▁ସ୍ମିତ	-6664
କାନଗିରି	-6665
▁Center	-6666
▁called	-6667
▁ଜ୍ୟୋତି	-6668
▁ତଥ୍ୟକୁ	-6669
▁ଦରଫୁଟା	-6670
▁ଦାଣ୍ଡେ	-6671
▁ବର୍ଷରୁ	-6672
▁ବିଭାଗର	-6673
▁ଭୂମିକା	-6674
▁ଯାତ୍ରୀ	-6675
▁ଯୁଝିଲେ	-6676
▁ରିହାତି	-6677
▁ସେଣ୍ଟର	-6678
▁ସେନାଏତ	-6679
▁ଆନ୍ତର୍ଜ	-6680
▁ଆନ୍ଦୋଳନ	-6681
▁ଉତ୍ପାଦନ	-6682
▁ଦାଉଦଙ୍କ	-6683
▁ପ୍ରକାଶକ	-6684
▁ବାଣିଜ୍ୟ	-6685
▁ବିଚିତ୍ର	-6686
▁ଯୋଜନାକୁ	-6687
▁ଅନ୍ତର୍ଗତ	-6688
▁ଓଡ଼ିଶାକୁ	-6689
▁କେଉଁମାନେ	-6690
▁ପ୍ରସିଦ୍ଧ	-6691
▁ପ୍ରାଥମିକ	-6692
▁କୃଷ୍ଣସିଂହ	-6693
▁ପ୍ରଭୁଙ୍କର	-6694
/~	-6695
76	-6696
IO	-6697
LE	-6698
ଢେ	-6699
ମଦ	-6700
କେଶ	-6701
ଗତି	-6702
ତାପ	-6703
ମୂଳ	-6704
ଶ୍ମ	-6705
ୟ୍ଯ	-6706
▁IP	-6707
▁ଅହ	-6708
alth	-6709
vice	-6710
ware	-6711
ପାତି	-6712
ଯେଉଁ	-6713
ଲକ୍ଷ	-6714
▁198	-6715
▁Cre	-6716
▁New	-6717
▁ଏଜେ	-6718
▁କଲଲ	-6719
▁ଗୁଜ	-6720
▁ଜଳି	-6721
▁ତାପ	-6722
▁ଫିଟ	-6723
▁ବଂଶ	-6724
▁ମଜା	-6725
▁ସାପ	-6726
▁ସ୍ନ	-6727
▁ହାଲ	-6728
▁୩ଟି	-6729
style	-6730
କୃଷ୍ଣ	-6731
ରକାରୀ	-6732
ିକ୍ଷଣ	-6733
ୃଦ୍ଧି	-6734
▁More	-6735
▁ଏତଲା	-6736
▁ଙ୍କର	-6737
▁ଚମକି	-6738
▁ଚଲାଇ	-6739
▁ଚାକର	-6740
▁ଦାତା	-6741
▁ଧାଡି	-6742
▁ନିଶା	-6743
▁ଭରସା	-6744
▁ଭିଜି	-6745
▁ମାସେ	-6746
▁ମିଶନ	-6747
▁ମୁଦି	-6748
▁ଯୋଗୀ	-6749
▁ରୋଡ୍	-6750
▁ସମର୍	-6751
▁ହୁଏତ	-6752
▁ହେବି	-6753
▁ହୋ‍ଇ	-6754
ariant	-6755
ଆଲୋଚନା	-6756
ଧୂମପାନ	-6757
▁Power	-6758
▁plain	-6759
▁words	-6760
▁କ୍ଲିପ	-6761
▁ନ୍ୟାୟ	-6762
▁ପକ୍ଷୀ	-6763
▁ବିରବଲ	-6764
▁ସହରରେ	-6765
▁ସୁରଭି	-6766
▁ସେପଟେ	-6767
DayName	-6768
ଚ୍ଚିତ୍ର	-6769
▁ଗୋଷ୍ଠୀ	-6770
▁ଚ୍ୟାଲେ	-6771
▁୨୦୧୪ରେ	-6772
▁variant	-6773
▁weekday	-6774
▁ଅନୁଲଗ୍ନ	-6775
▁କହୁଥିଲା	-6776
▁ଗର୍ଭସ୍ଥ	-6777
▁ପାଇବାକୁ	-6778
▁ବାର୍ଷିକ	-6779
▁ବିନ୍ଯାସ	-6780
▁ରାଜାଙ୍କ	-6781
▁ସଂଲଗ୍ନକ	-6782
launchpad	-6783
▁LongName	-6784
▁ଜାଣିବାକୁ	-6785
▁ପ୍ରସ୍ଥାନ	-6786
▁Lifestyle	-6787
▁ShortName	-6788
▁କରୁଥିଲାକି	-6789
▁ଜିଲ୍ଲାପାଳ	-6790
▁ପର୍ୟ୍ଯନ୍ତ	-6791
▁ସଶକ୍ତିକରଣ	-6792
▁ସୁଦାମାଙ୍କ	-6793
▁ଇନ୍ଦ୍ରଙ୍କୁ	-6794
▁ଅଭ୍ୟାସଗୁଡିକ	-6795
."	-6796
?'	-6797
OS	-6798
co	-6799
im	-6800
ଆଜ	-6801
ଫର	-6802
etc	-6803
ote	-6804
pla	-6805
ଗୁଣ	-6806
ତମେ	-6807
ବତୀ	-6808
ମୋର	-6809
ୟାଏ	-6810
▁LS	-6811
▁gl	-6812
▁୩୮	-6813
hare	-6814
llow	-6815
rice	-6816
site	-6817
ଗ୍ଭର	-6818
ପୂରଣ	-6819
ମଙ୍କ	-6820
ମଣ୍ଡ	-6821
ିନାଲ	-6822
▁)1.	-6823
▁new	-6824
▁spe	-6825
▁tab	-6826
▁ଦେଵ	-6827
▁ଧନୀ	-6828
▁ବୀର	-6829
▁ରଚନ	-6830
▁ହୋଃ	-6831
▁୬ଟି	-6832
ample	-6833
ଡେଣ୍ଟ	-6834
ତ୍କାର	-6835
ବର୍ତୀ	-6836
ମ୍ବାଇ	-6837
ଲକ୍ସୀ	-6838
▁1100	-6839
▁1950	-6840
▁3.30	-6841
▁Java	-6842
▁Your	-6843
▁ଅପ୍ର	-6844
▁କଠିନ	-6845
▁କେରଳ	-6846
▁ଜିତୁ	-6847
▁ନିରୀ	-6848
▁ନୀରବ	-6849
▁ବ୍ଲକ	-6850
▁ମାଗୁ	-6851
▁ମିଟର	-6852
▁ମୁହୂ	-6853
▁ହାର୍	-6854
▁୨୦୧୭	-6855
ଚନ୍ଦ୍ର	-6856
ଦେବରାଜ	-6857
ବାରେଣି	-6858
ସପ୍ରେମ	-6859
▁GNOME	-6860
▁ଆମପରି	-6861
▁ଉପୟୋଗ	-6862
▁କମିଶନ	-6863
▁ଖାଦ୍ଯ	-6864
▁ଦିଗରେ	-6865
▁ଦୁହିଁ	-6866
▁ଧାଡ଼ି	-6867
▁ପାଇଲା	-6868
▁ବାକ୍ସ	-6869
▁ବେଳକୁ	-6870
▁ବ୍ଲକର	-6871
▁ମୂଖ୍ୟ	-6872
▁ସ୍ୟାମ	-6873
▁ହସ୍ପି	-6874
▁୬ଟାରୁ	-6875
ourious	-6876
ଲାକମାଲନ	-6877
▁credit	-6878
▁ଅର୍ଥାତ	-6879
▁ଆଧାରିତ	-6880
▁କଟାକ୍ଷ	-6881
▁କାନ୍ଦି	-6882
▁ଜଣାଇଲା	-6883
▁ଦିଆଯାଏ	-6884
▁ପ୍ରଦେଶ	-6885
▁ବୀଥିକା	-6886
▁ମଧ୍ଯକୁ	-6887
▁ସାମିନା	-6888
▁ସୋମବାର	-6889
keyboard	-6890
lication	-6891
▁without	-6892
▁ଅତିକ୍ରମ	-6893
▁ତାରିକକୁ	-6894
▁ନେତାଙ୍କ	-6895
▁ପରୀକ୍ଷଣ	-6896
▁ଭଦ୍ରକରେ	-6897
▁ଲକ୍ଷ୍ମଣ	-6898
▁ସଂକ୍ରମଣ	-6899
▁ସୂଚନାକୁ	-6900
▁glorious	-6901
▁ଅଭିଯୁକ୍ତ	-6902
▁କିଣିବାକୁ	-6903
▁ଛାଡିଦେଲା	-6904
▁ବିସ୍ଫୋରଣ	-6905
▁ଲେଖିଥିଲେ	-6906
▁ଶୁକ୍ରବାର	-6907
▁ଶୁଣିବାକୁ	-6908
▁ଶ୍ରେଣୀରେ	-6909
▁ଗ୍ୟାଲକ୍ସୀ	-6910
▁ଦିଗବାରେଣି	-6911
▁ରାଷ୍ଟ୍ରୀୟ	-6912
▁ସ୍ୟାମସଙ୍ଗ	-6913
▁labourious	-6914
▁ହତ୍ୟାକାଣ୍ଡ	-6915
:-	-6916
AT	-6917
IN	-6918
PI	-6919
oy	-6920
।'	-6921
ଏଇ	-6922
ଗଲ	-6923
ଚକ	-6924
ଥନ	-6925
ଲଭ	-6926
ୋଦ	-6927
୧୬	-6928
ger	-6929
ita	-6930
ric	-6931
ଳ୍କ	-6932
ଵାଚ	-6933
ଶାପ	-6934
ଶୂୟ	-6935
ୟମ୍	-6936
▁Ep	-6937
▁IR	-6938
▁Op	-6939
▁So	-6940
▁ଅଳ	-6941
▁କୀ	-6942
▁ଗଢ	-6943
▁ଘୃ	-6944
▁୪୫	-6945
irth	-6946
ntly	-6947
କାହା	-6948
ତ୍ତମ	-6949
ସିଂହ	-6950
ିତିକ	-6951
▁(19	-6952
▁???	-6953
▁Ltd	-6954
▁one	-6955
▁ଅଧୁ	-6956
▁ଚାପ	-6957
▁ଜବତ	-6958
▁ବେଦ	-6959
▁ମାଓ	-6960
▁୧୯୦	-6961
ସମାଶା	-6962
ହାରରେ	-6963
▁ଆଫ୍ର	-6964
▁ଏପ୍ର	-6965
▁ଜିତି	-6966
▁ଟାଇପ	-6967
▁ବୁଣା	-6968
▁ମନୋଜ	-6969
▁ମାନକ	-6970
▁ଶୁଣା	-6971
▁ଷ୍ଟା	-6972
▁ସଭ୍ୟ	-6973
▁ସୁପର	-6974
▁ସେଠି	-6975
▁ସ୍ଟୁ	-6976
▁ହୋଟେ	-6977
ନିଶ୍ଚୟ	-6978
ରଖନ୍ତୁ	-6979
୍ୟାନେଲ	-6980
▁under	-6981
▁ଆଙ୍କି	-6982
▁ଝିଅକୁ	-6983
▁ଟ୍ରାକ	-6984
▁ଦୁଃଖର	-6985
▁ଦେଖିବ	-6986
▁ବିଶାଳ	-6987
▁ମାଗଣା	-6988
▁ରଖିଲେ	-6989
▁ରୋଷେଇ	-6990
▁ସକାଳେ	-6991
ଯେପରିକି	-6992
▁number	-6993
▁ଅଭିଶାପ	-6994
▁ଏହିସବୁ	-6995
▁କିମ୍ୱା	-6996
▁ଗୁରୁତର	-6997
▁ପାରିଲେ	-6998
▁ପିନ୍ଧି	-6999
▁ମାରିଲା	-7000
▁ଶୁଣିଲେ	-7001
▁ସମାଚାର	-7002
▁ସାରାଂଶ	-7003
▁ସିଞ୍ଚନ	-7004
fication	-7005
▁ପ୍ରକ୍ସି	-7006
▁ମୁମ୍ବାଇ	-7007
▁ଯାଉଥିବା	-7008
▁ଯିହୋଶୂୟ	-7009
▁ରୁହନ୍ତୁ	-7010
▁ଲଗାନ୍ତୁ	-7011
▁ସ୍ୱାଇନ୍	-7012
▁ବାସ୍ତବରେ	-7013
▁ଲୂକଲିଖିତ	-7014
▁ସନ୍ତାନକୁ	-7015
▁ଅପେକ୍ଷାରେ	-7016
▁କାର୍ତ୍ତିକ	-7017
▁ଚଳଚ୍ଚିତ୍ର	-7018
▁ଯୋହନଲିଖିତ	-7019
▁ବ୍ୟକ୍ତିଙ୍କ	-7020
▁ମାଲକାନଗିରି	-7021
▁ତୁମ୍ଭମାନଙ୍କର	-7022
▁ବଙ୍ଗବାସୀମାନେ	-7023
▁ବିଶ୍ୱବିଦ୍ୟାଳୟ	-7024
35	-7025
4.	-7026
Ar	-7027
fi	-7028
iv	-7029
ଂଦ	-7030
ଣର	-7031
ଲକ	-7032
ଵୁ	-7033
୨୮	-7034
?’’	-7035
how	-7036
obs	-7037
ଟିଳ	-7038
ତିଶ	-7039
ଦେଖ	-7040
ାନର	-7041
ୀତି	-7042
▁80	-7043
▁As	-7044
▁MS	-7045
▁ଏବ	-7046
▁ଝୁ	-7047
▁ନର	-7048
oyst	-7049
ଗ୍ରେ	-7050
ପାଲି	-7051
ଭୂତି	-7052
ମାନା	-7053
ସିସି	-7054
ାମୁଜ	-7055
ୋତ୍ର	-7056
▁Ban	-7057
▁get	-7058
▁ଚଢ଼	-7059
▁ଧୋଇ	-7060
▁ନେବ	-7061
▁ବର୍	-7062
▁ମନି	-7063
▁ମରୁ	-7064
▁ହ୍ର	-7065
atest	-7066
icide	-7067
ology	-7068
ନ୍ନାଥ	-7069
ବିଶେଷ	-7070
ସୀଫିକ	-7071
ାର୍ଥକ	-7072
▁code	-7073
▁file	-7074
▁font	-7075
▁free	-7076
▁very	-7077
▁ଅଯଥା	-7078
▁କାଳେ	-7079
▁ଚିନି	-7080
▁ପକେଇ	-7081
▁ବାରି	-7082
▁ବାହୁ	-7083
▁ବୁଝୁ	-7084
▁ବୋଧେ	-7085
▁ମୁଭ୍	-7086
▁ରଚିତ	-7087
▁ସେକେ	-7088
▁ସ୍ରୁ	-7089
......	-7090
ୁରାନ୍ସ	-7091
▁ଉଠିବା	-7092
▁ତାମୁଜ	-7093
▁ପଢିବେ	-7094
▁ଫେରାଇ	-7095
▁ବାଣ୍ଡ	-7096
▁ଭାବୁଛ	-7097
▁ମେସିନ	-7098
▁ରାଜପଥ	-7099
▁ଶୂନ୍ୟ	-7100
▁ସମ୍ବଲ	-7101
▁ସମ୍ମି	-7102
▁ସାଇକେ	-7103
▁ସୂତ୍ର	-7104
oystick	-7105
ରାପୃଷ୍ଠ	-7106
▁ଉଦ୍ୟୋଗ	-7107
▁କରିଦେବ	-7108
▁ଗୁଡିକୁ	-7109
▁ଛାଡିଦେ	-7110
▁ତିନୋଟି	-7111
▁ବାତ୍ୟା	-7112
▁ବିବିସି	-7113
▁ଭବିଷ୍ଯ	-7114
▁ସଂଯୋଜକ	-7115
▁ସ୍ଥାୟୀ	-7116
▁ହାଲରାଣ	-7117
▁ହୋଇଗଲେ	-7118
▁Empathy	-7119
▁problem	-7120
▁ଆପଣମାନେ	-7121
▁ଉଦୟଗିରି	-7122
▁କରାଯିବା	-7123
▁କରିସାରି	-7124
▁ଦର୍ଶନରେ	-7125
▁ଧାର୍ମିକ	-7126
▁ନିର୍ଣ୍ଣ	-7127
▁ପଞ୍ଚାୟତ	-7128
▁ପେସୀଫିକ	-7129
▁ବାପାଙ୍କ	-7130
▁ବ୍ରାଉଜର	-7131
▁ଯୋଜନାରେ	-7132
▁ସଂସ୍କାର	-7133
▁ସିଂହାସନ	-7134
▁ସେଗୁଡିକ	-7135
▁ଅନୁଷ୍ଠିତ	-7136
▁ଦର୍ଶାଇବା	-7137
▁ରହିଛନ୍ତି	-7138
▁ଆଇଲ୍ୟାଣ୍ଡ	-7139
▁କ୍ଲିପବୋର୍	-7140
▁ପ୍ରିୟଙ୍କା	-7141
▁ବୀମାଭୁକ୍ତ	-7142
▁ଶିକ୍ଷାର୍ଥ	-7143
▁ଡାକ୍ତରଖାନା	-7144
ଁା	-7145
ଂଡ	-7146
ଚୀ	-7147
ଫଗ	-7148
ବଡ	-7149
ସୋ	-7150
ିର	-7151
୮୫	-7152
▁ଊ	-7153
/20	-7154
DAP	-7155
sel	-7156
ଉନ୍	-7157
ଏକା	-7158
କିଆ	-7159
ଗଁା	-7160
ଗଲି	-7161
ଗୁଆ	-7162
ଗୋଳ	-7163
ଜିତ	-7164
ପନା	-7165
ଭାର	-7166
ଭୀତ	-7167
ରାଇ	-7168
ାନସ	-7169
▁02	-7170
▁1"	-7171
▁5-	-7172
▁AD	-7173
▁Do	-7174
▁MB	-7175
▁ଏଚ	-7176
▁ଟୀ	-7177
▁ତୈ	-7178
▁ମଦ	-7179
▁ଯ଼	-7180
▁ସନ	-7181
175,	-7182
lass	-7183
oint	-7184
ways	-7185
ଆଶ୍ଚ	-7186
ଓଡ଼ି	-7187
ପିକା	-7188
ଫଗଢ଼	-7189
ବାବା	-7190
ଲିସ୍	-7191
ାଯିବ	-7192
ିକୋଣ	-7193
▁def	-7194
▁set	-7195
▁ଏକକ	-7196
▁ଏଫ୍	-7197
▁କଣ୍	-7198
▁ଟପି	-7199
▁ଡିଫ	-7200
▁ରଜା	-7201
▁ହେଲ	-7202
oints	-7203
riend	-7204
ruary	-7205
ଟଙ୍କା	-7206
ପୁତ୍ର	-7207
ମରିୟମ	-7208
▁Comm	-7209
▁best	-7210
▁line	-7211
▁news	-7212
▁para	-7213
▁some	-7214
▁ଅତ୍ଯ	-7215
▁ଇଞ୍ଜ	-7216
▁ଏଇଠି	-7217
▁ଖେଳା	-7218
▁ଗଣନା	-7219
▁ଗସ୍ତ	-7220
▁ଜନିତ	-7221
▁ନକରି	-7222
▁ଭାରି	-7223
▁ମନ୍ତ	-7224
▁ମାମା	-7225
▁ମେସେ	-7226
▁ସମୟର	-7227
▁ସେଇଆ	-7228
▁ହିତା	-7229
outube	-7230
ପରିସ୍ଥ	-7231
▁ଖାଲିକ	-7232
▁ତାଲିମ	-7233
▁ଫେରିବ	-7234
▁ବନ୍ଧା	-7235
▁ବିରାଟ	-7236
▁ଭୟଭୀତ	-7237
▁ମାଷ୍ଟ	-7238
▁ହୋଇଯା	-7239
▁ୱିଜେଟ	-7240
-1/175,	-7241
ଦିଅନ୍ତୁ	-7242
ଯାଇଥିଲେ	-7243
ଲୋକଗଳ୍ପ	-7244
▁110058	-7245
▁ଆଧାରରେ	-7246
▁କୁମାର୍	-7247
▁କେଉଁଠୁ	-7248
▁ଦାମଙ୍କ	-7249
▁ଦୁଃସାହ	-7250
▁ନଜଫଗଢ଼	-7251
▁ନାଲକୋର	-7252
▁ନୂଆଗଁା	-7253
▁ନେବାକୁ	-7254
▁ପ୍ୟାକେ	-7255
▁ବସ୍ତ୍ର	-7256
▁ବିଶ୍ୱର	-7257
▁ବୁଣିବା	-7258
▁ବୋଧହୁଏ	-7259
▁ଭାବୁଛି	-7260
▁ରାଜତ୍ୱ	-7261
▁ଶିମାନେ	-7262
▁license	-7263
▁ଅଞ୍ଚଳକୁ	-7264
▁କରିପାରୁ	-7265
▁ଜନକପୁରୀ	-7266
▁ଡିସ୍କକୁ	-7267
▁ପରମପିତା	-7268
▁ପରିଶ୍ରମ	-7269
▁ସାହାୟ୍ଯ	-7270
ଆଶ୍ଚର୍ଯ୍ୟ	-7271
ଏସଲାକମାଲନ	-7272
▁ଅନନ୍ତକାଳ	-7273
▁ଏକପ୍ରକାର	-7274
▁ଦେଖାନ୍ତୁ	-7275
▁ନିର୍ଣ୍ଣୟ	-7276
▁ପର୍ଯ୍ୟଟନ	-7277
▁ପ୍ରଭାବିତ	-7278
▁ସମସ୍ୟାରୁ	-7279
▁ସ୍ରୁଷ୍ଟି	-7280
▁ଏହାଦ୍ୱାରା	-7281
▁କ୍ଷେତ୍ରକୁ	-7282
▁ସଂପୂର୍ଣ୍ଣ	-7283
▁ସମାନଙ୍କେର	-7284
▁ହାଲରାଣଙ୍କୁ	-7285
▁ଅନ୍ତରାପୃଷ୍ଠ	-7286
▁କରିନାହାନ୍ତି	-7287
▁କୁଞ୍ଜବିହାରୀ	-7288
▁ସର୍ବୋପରିସ୍ଥ	-7289
▁ଶ୍ରୀନିବାସରାଓ	-7290
1)	-7291
De	-7292
HE	-7293
OU	-7294
ex	-7295
ଉଛ	-7296
ଡୋ	-7297
ହତ	-7298
୦୬	-7299
:18	-7300
duc	-7301
କ୍ଯ	-7302
ଡ଼ୁ	-7303
ତାଳ	-7304
ବ୍ଯ	-7305
ଲାତ	-7306
ହରା	-7307
୫୦୦	-7308
▁!’	-7309
▁37	-7310
▁60	-7311
▁Mẹ	-7312
▁Th	-7313
▁ro	-7314
▁ଶତ	-7315
▁‘’	-7316
;{0}	-7317
fter	-7318
indi	-7319
rest	-7320
ଞ୍ଚା	-7321
ଣ୍ଡବ	-7322
ବହୁତ	-7323
ର୍କର	-7324
ଲ୍ଲୋ	-7325
ସମ୍ପ	-7326
ସେବା	-7327
ହ୍ୟା	-7328
ିନ୍ଥ	-7329
▁ଆଲବ	-7330
▁ଚମକ	-7331
▁ତାସ	-7332
▁ଧଳା	-7333
▁ପତି	-7334
▁ବଲା	-7335
▁ବୁଧ	-7336
▁ରୋମ	-7337
▁୮୦୦	-7338
ating	-7339
mgiri	-7340
ocket	-7341
ପ୍ରିୟ	-7342
ଲାଇନ୍	-7343
▁File	-7344
▁Note	-7345
▁Vide	-7346
▁dist	-7347
▁ଅଜ୍ଞ	-7348
▁ଚାନ୍	-7349
▁ଛତିଶ	-7350
▁ତହିଁ	-7351
▁ତାରା	-7352
▁ତେଣେ	-7353
▁ନାବା	-7354
▁ପାଗଳ	-7355
▁ପିଆଜ	-7356
▁ଫସଲର	-7357
▁ବୁଢୀ	-7358
▁ମନ୍ଦ	-7359
▁ମାନି	-7360
▁ସପ୍ତ	-7361
▁ସେବନ	-7362
▁୩୦୦୦	-7363
ଖେଳିବା	-7364
ରିମାନା	-7365
ଲେଇଙ୍ଗ	-7366
▁Hindi	-7367
▁state	-7368
▁ଅଗ୍ନି	-7369
▁ଆମ୍ଭର	-7370
▁ଇସ୍ରା	-7371
▁କରାଚି	-7372
▁କୁକୁର	-7373
▁ଟେଷ୍ଟ	-7374
▁ତୀବ୍ର	-7375
▁ମଣିମା	-7376
▁ମୁତ୍ତ	-7377
▁ଯୋଡ଼ି	-7378
ଛନ୍ତିକି	-7379
ତ୍ୟାଶିତ	-7380
ଦୂତଙ୍କୁ	-7381
▁column	-7382
▁should	-7383
▁ଏପରିକି	-7384
▁କ୍ୱାମି	-7385
▁ଘଟଣାରେ	-7386
▁ବିଷ୍ଣୁ	-7387
▁ମୃତ୍ଯୁ	-7388
▁ରଘୁନାଥ	-7389
▁ରିଲିଜ୍	-7390
▁ସମ୍ବାଦ	-7391
▁ସୌମ୍ୟା	-7392
▁Politic	-7393
▁ଆକାଉଣ୍ଟ	-7394
▁ଏହାଙ୍କୁ	-7395
▁କହିସାରି	-7396
▁କ୍ଷୁଦ୍ର	-7397
▁କ୍ୟୁଏମ୍	-7398
▁ଖାଦ୍ୟକୁ	-7399
▁ନିଷ୍ପତି	-7400
▁ବିଶ୍ରାମ	-7401
▁ମାନ୍ୟତା	-7402
▁ଯାହାଙ୍କ	-7403
▁ଆଚାର୍ଯ୍ୟ	-7404
▁ଚିନ୍ତାରେ	-7405
▁ଜିଲ୍ଲାରେ	-7406
▁ପ୍ଲେଇଙ୍ଗ	-7407
▁ଯାକୁବବଂଶ	-7408
▁ରାଜ୍ୟପାଳ	-7409
▁ମୁହୂର୍ତ୍ତ	-7410
▁ସ୍ଟୁଡେଣ୍ଟ	-7411
▁ମୁତ୍ତାହିଦା	-7412
▁ଯନ୍ତ୍ରପାତି	-7413
▁ହିତାଧିକାରୀ	-7414
▁କର୍ତ୍ତୃପକ୍ଷ	-7415
▁ସ୍ୱର୍ଗଦୂତଙ୍କୁ	-7416
34	-7417
62	-7418
64	-7419
82	-7420
;/	-7421
\@	-7422
ft	-7423
ଅର	-7424
ମକ	-7425
ୟେ	-7426
for	-7427
ise	-7428
man	-7429
min	-7430
ope	-7431
ora	-7432
ଉଠି	-7433
ଟିସ	-7434
ତଳେ	-7435
ପୁଲ	-7436
ରକେ	-7437
ସ୍ଯ	-7438
ାୟା	-7439
େଇଁ	-7440
▁70	-7441
▁Gi	-7442
▁HD	-7443
▁ଇଏ	-7444
▁ଗପ	-7445
▁ଥେ	-7446
▁ଷଡ	-7447
ails	-7448
ally	-7449
arts	-7450
hell	-7451
ଗନ୍ଧ	-7452
ଘଂଟା	-7453
ଚିଲା	-7454
ଡିଲା	-7455
ଣ୍ଟନ	-7456
ମୁସର	-7457
ଲିକେ	-7458
▁Pvt	-7459
▁Sub	-7460
▁imp	-7461
▁two	-7462
▁ଅଫର	-7463
▁ଉଷା	-7464
▁ତ୍ର	-7465
▁ଦୂତ	-7466
▁ପୋକ	-7467
▁ଫସି	-7468
▁ବାଘ	-7469
▁ମିଥ	-7470
▁ଯୁଗ	-7471
▁ଲଢି	-7472
▁ହାଉ	-7473
▁୩୫୦	-7474
ading	-7475
କ୍ଷାର	-7476
ର୍ବାଦ	-7477
ସଂକେତ	-7478
ସ୍ରାବ	-7479
▁Copy	-7480
▁KDED	-7481
▁Week	-7482
▁conf	-7483
▁ଆହାର	-7484
▁କମଳା	-7485
▁ଟାଣି	-7486
▁ଦେଖୁ	-7487
▁ପୋର୍	-7488
▁ମସ୍ତ	-7489
▁ମାତା	-7490
▁ଲଢେଇ	-7491
▁ସାଥି	-7492
▁ସିଲି	-7493
▁ସ୍ବୀ	-7494
▁୧୫ରୁ	-7495
ଶ୍ୱରରେ	-7496
ହାଣ୍ଡି	-7497
▁ଇମେଲ୍	-7498
▁କରିଛୁ	-7499
▁ଚଳାଇବ	-7500
▁ନିଶ୍ଚ	-7501
▁ପରିଣତ	-7502
▁ପାଲଟି	-7503
▁ପୁନରା	-7504
▁ବିଦାୟ	-7505
▁ବିଦ୍ୟ	-7506
▁ମାଧ୍ଯ	-7507
▁ଲୋକଟା	-7508
▁ସ୍ୱୟଂ	-7509
▁ହାତକୁ	-7510
▁ହେଇଛି	-7511
କାହିଁକି	-7512
▁ଆଦେଶକୁ	-7513
▁ଘାରିଛି	-7514
▁ଘୁମୁସର	-7515
▁ଚେହେରା	-7516
▁ଡକାୟାଏ	-7517
▁ଦ୍ରବ୍ୟ	-7518
▁ପାଟିରେ	-7519
▁ସଂଘର୍ଷ	-7520
▁କମ୍ପ୍ୟୁ	-7521
▁କ୍ୟାମ୍ପ	-7522
▁ପାରନ୍ତି	-7523
▁ପ୍ରତ୍ୟା	-7524
▁ବିଜେଡିର	-7525
▁ମୋବାଇଲ୍	-7526
▁ଯେପରିକି	-7527
▁ଋତୁସ୍ରାବ	-7528
▁ଟର୍ମିନାଲ	-7529
▁ଦେଖିଥିଲେ	-7530
▁ପଞ୍ଜିକରଣ	-7531
▁ପରିବାରକୁ	-7532
▁ପାଇଛନ୍ତି	-7533
▁ସାହିତ୍ୟର	-7534
▁ଚାହୁଁଥିଲେ	-7535
▁ପ୍ରତ୍ୟକ୍ଷ	-7536
▁ପ୍ରସଙ୍ଗକୁ	-7537
▁ବିକାଶକାରୀ	-7538
▁ବିସ୍ତାରିତ	-7539
▁ଉଦ୍ଦେଶ୍ୟରେ	-7540
▁ଫାଇଲଗୁଡ଼ିକ	-7541
▁ଅନୁକ୍ରମଣିକା	-7542
▁ସମ୍ପର୍କଗୁଡ଼ିକୁ	-7543
)।	-7544
5%	-7545
="	-7546
ID	-7547
ud	-7548
ସତ	-7549
୩୭	-7550
36]	-7551
37]	-7552
ces	-7553
ors	-7554
ull	-7555
ଂଚଳ	-7556
ଏତେ	-7557
କାମ	-7558
ଟ୍ସ	-7559
ଡ଼୍	-7560
ତିତ	-7561
ଥାଉ	-7562
ବେଳ	-7563
ଲୋପ	-7564
ସିତ	-7565
ହେର	-7566
ାତର	-7567
ୁଲା	-7568
▁51	-7569
▁US	-7570
▁my	-7571
▁qu	-7572
▁sp	-7573
▁ଉଜ	-7574
▁୨୨	-7575
anda	-7576
arth	-7577
itri	-7578
ndar	-7579
ଖୁସା	-7580
ତ୍ସା	-7581
ଦାୟୀ	-7582
ବିଜେ	-7583
ଭାବନ	-7584
ମାମୁ	-7585
ସତରେ	-7586
ସୁମୀ	-7587
▁Cha	-7588
▁Col	-7589
▁Pla	-7590
▁Pri	-7591
▁etc	-7592
▁କେଁ	-7593
▁ତାଳ	-7594
▁ହବୋ	-7595
ivers	-7596
ଇସାରି	-7597
ଗଲାଣି	-7598
ରକେଲା	-7599
ଲ୍ଲାର	-7600
▁Inst	-7601
▁LDAP	-7602
▁Meal	-7603
▁form	-7604
▁ଉଠାଇ	-7605
▁କାଢି	-7606
▁ଗୋଡ଼	-7607
▁ଦିଶି	-7608
▁ପୁରଣ	-7609
▁ପୃଥକ	-7610
▁ଫେସ୍	-7611
▁ଫ୍ଲା	-7612
▁ବଳକା	-7613
▁ବ୍ରଣ	-7614
▁ବ୍ରେ	-7615
▁ଯାଦୁ	-7616
▁ଲଞ୍ଚ	-7617
▁ଶିବା	-7618
▁ସ୍ତନ	-7619
▁ସ୍ନେ	-7620
▁୧୯୬୭	-7621
ambalp	-7622
elling	-7623
galway	-7624
irtual	-7625
ଚାଲିଛି	-7626
ପାରିବା	-7627
▁Manth	-7628
▁[236]	-7629
▁[237]	-7630
▁ଉପକୂଳ	-7631
▁ଚାର୍ଟ	-7632
▁ଦେଖାଇ	-7633
▁ଦେଶକୁ	-7634
▁ନଥିଲି	-7635
▁ପ୍ରୋଗ	-7636
▁ବିରତି	-7637
▁ଭତ୍ତା	-7638
▁ଭୟାନକ	-7639
▁ରାହୁଲ	-7640
▁ସୁଟିଂ	-7641
Meeting	-7642
alendar	-7643
ଯୀଶୁଙ୍କ	-7644
▁ଅଜ୍ଞତା	-7645
▁କୁମାରୀ	-7646
▁ଛାତିରେ	-7647
▁ଟ୍ରାନସ	-7648
▁ନିବାସୀ	-7649
▁ପାହାଡ଼	-7650
▁ପିଲାଟି	-7651
▁ବଜାରରେ	-7652
▁ବ୍ରାଉଜ	-7653
▁ଭିତ୍ତି	-7654
▁ରାଜଧାନ	-7655
▁ରାୟଗଡା	-7656
▁ହେକ୍ଟର	-7657
▁୨୦୧୯ରେ	-7658
national	-7659
▁Brasero	-7660
▁ଅତ୍ଯନ୍ତ	-7661
▁କମ୍ପାନି	-7662
▁ଜନ୍ମଦିନ	-7663
▁ଡିସ୍କରେ	-7664
▁ପତ୍ରିକା	-7665
▁ପ୍ରଦତ୍ତ	-7666
▁ବସ୍ତୁକୁ	-7667
▁ଭାଇରାଲ୍	-7668
▁ମିଳିଥାଏ	-7669
▁February	-7670
▁ଇଂରାଜୀରେ	-7671
▁ପରିତ୍ୟାଗ	-7672
▁ପ୍ରକ୍ରିୟ	-7673
▁ସମାଲୋଚନା	-7674
lazegalway	-7675
▁ଚ୍ୟାଲେଞ୍ଜ	-7676
▁ପ୍ରସଙ୍ଗରେ	-7677
▁ସ୍ବାସ୍ଥ୍ୟ	-7678
▁ପରିସ୍ଥିତିରେ	-7679
▁ଡାକ୍ତରଖାନାରେ	-7680
▁ଫୋଲଡରଗୁଡ଼ିକୁ	-7681
▁ସନ୍ଦେଶଗୁଡ଼ିକ	-7682
.[	-7683
2)	-7684
29	-7685
3.	-7686
RO	-7687
VO	-7688
]]	-7689
ai	-7690
ix	-7691
ଡୀ	-7692
ଳଖ	-7693
୮୬	-7694
:39	-7695
RIL	-7696
ict	-7697
uth	-7698
ଗୁଲ	-7699
ଜାତ	-7700
ଦିଏ	-7701
ଦ୍ବ	-7702
ପାଖ	-7703
ବିଧ	-7704
ରିଂ	-7705
ଲାମ	-7706
ସ୍ବ	-7707
▁07	-7708
▁6.	-7709
▁63	-7710
▁up	-7711
▁we	-7712
▁ଗହ	-7713
▁ନୌ	-7714
▁ବଇ	-7715
▁ରଜ	-7716
aily	-7717
mand	-7718
vide	-7719
କ୍ରୋ	-7720
ଟୋକଲ	-7721
ଡ଼ରେ	-7722
ତାହା	-7723
ପୋର୍	-7724
ଫେସର	-7725
ଯିବୁ	-7726
ଳାରେ	-7727
ହାକେ	-7728
୍ରୋଲ	-7729
▁Who	-7730
▁pre	-7731
▁ଆଶୀ	-7732
▁କମେ	-7733
▁କୂଅ	-7734
▁ଗାଈ	-7735
▁ଛାର	-7736
▁ତ୍ଵ	-7737
▁ନିବ	-7738
▁ବଛା	-7739
▁ଭୂତ	-7740
▁ଲୀନ	-7741
▁ଶତକ	-7742
▁ଶହେ	-7743
India	-7744
ority	-7745
ଗଣାରେ	-7746
ଣନ୍ତୁ	-7747
ଣ୍ଣିଂ	-7748
ନ୍ଧାନ	-7749
ଯାନ୍ଯ	-7750
ିକାରକ	-7751
ିନିୟମ	-7752
▁Dhar	-7753
▁done	-7754
▁ଗାର୍	-7755
▁ଜଟିଳ	-7756
▁ତାଠୁ	-7757
▁ତୃଟି	-7758
▁ଧୋନି	-7759
▁ନାଲି	-7760
▁ପ୍ରଚ	-7761
▁ଫ୍ଲୋ	-7762
▁ବୁଢ଼	-7763
▁ବ୍ଯା	-7764
▁ରୋଗର	-7765
▁ଶୁଭେ	-7766
▁ସହରର	-7767
▁ସୁନି	-7768
▁ସେବେ	-7769
Script	-7770
କିନ୍ତୁ	-7771
ପ୍ରକାଶ	-7772
▁Enter	-7773
▁ଇନସ୍ୟ	-7774
▁ଜାଣିଛ	-7775
▁ଡବ୍ଲୁ	-7776
▁ନିରାପ	-7777
▁ପଡ଼ିବ	-7778
▁ପ୍ରବଳ	-7779
▁ରହିବି	-7780
▁ଲାଟିନ	-7781
▁ସୁନ୍ଦ	-7782
erature	-7783
ତିହାସିକ	-7784
▁yellow	-7785
▁ଆକାଶରେ	-7786
▁କମ୍ପାନ	-7787
▁କିଣିଲେ	-7788
▁ଗ୍ରନ୍ଥ	-7789
▁ଚୁକ୍ତି	-7790
▁ଛୁଇଁବା	-7791
▁ଦିଶିଲେ	-7792
▁ପରସ୍ପର	-7793
▁ପ୍ରେରକ	-7794
▁ବ୍ୟୟରୁ	-7795
▁ଭେଟିଲି	-7796
▁ଯାଜପୁର	-7797
▁ଯୋଗଦାନ	-7798
▁ରାଜୁକୁ	-7799
▁ସଙ୍ଗୀତ	-7800
▁ସମ୍ଭାଳ	-7801
▁ସେଥିରୁ	-7802
▁ସେବାଦି	-7803
▁୨୦୧୨ରେ	-7804
▁Virtual	-7805
▁ଅଭିଗମ୍ୟ	-7806
▁ଏକତ୍ରିତ	-7807
▁ଓଡ଼ିଆରେ	-7808
▁କରିନଥିଲ	-7809
▁କରିପାରି	-7810
▁କର୍ତ୍ତକ	-7811
▁ଖ୍ରୀଷ୍ଟ	-7812
▁ଡେସ୍କଟପ	-7813
▁ନେଇଥିଲେ	-7814
▁ଭବିଷ୍ୟତ	-7815
▁ହେଇଥିଲେ	-7816
▁ଅନ୍ଯାନ୍ଯ	-7817
▁ଅଳ୍ପଖୁସା	-7818
▁ଆଶୀର୍ବାଦ	-7819
▁ଆସୁଛନ୍ତି	-7820
▁ଯାକୁବଙ୍କ	-7821
▁ଯେଉଁଠାରେ	-7822
▁ଯେତବେେଳେ	-7823
▁ସୁସ୍ମିତା	-7824
▁ଅନୁସନ୍ଧାନ	-7825
▁କ୍ଷତିପୂରଣ	-7826
▁ପୁନର୍ଧାରଣ	-7827
▁ଶକ୍ତିଶାଳୀ	-7828
▁ଶାନ୍ତିଦେବ	-7829
▁ପାର୍ଶ୍ୱପଟି	-7830
▁Description	-7831
▁ପ୍ରକ୍ରିୟାରେ	-7832
▁ବ୍ୟକ୍ତିଙ୍କୁ	-7833
)-	-7834
38	-7835
51	-7836
ga	-7837
lu	-7838
ua	-7839
va	-7840
କନ	-7841
ଯୋ	-7842
୩୧	-7843
▁x	-7844
▁₹	-7845
30/	-7846
:35	-7847
OOO	-7848
let	-7849
ooo	-7850
sfx	-7851
sub	-7852
tmp	-7853
ଇସେ	-7854
ଘରେ	-7855
ଡେଇ	-7856
ମାଳ	-7857
▁2)	-7858
▁CC	-7859
▁IC	-7860
▁My	-7861
▁Or	-7862
▁ଉତ	-7863
▁ଶହ	-7864
▁୫୬	-7865
330/	-7866
arri	-7867
cter	-7868
ject	-7869
thod	-7870
tive	-7871
umar	-7872
ward	-7873
ଣ୍ଟୁ	-7874
ନିର୍	-7875
ବର୍ଗ	-7876
ଭେଟ୍	-7877
ମିଳା	-7878
ଶ୍ମି	-7879
ସେନା	-7880
ାମତି	-7881
ାରେଟ	-7882
ିକୃତ	-7883
▁[22	-7884
▁ଆଛା	-7885
▁କଟି	-7886
▁କବଳ	-7887
▁ଚାଟ	-7888
▁ଚୁପ	-7889
▁ଜବ୍	-7890
▁ତତଃ	-7891
▁ତୃଣ	-7892
▁ପଚର	-7893
▁ଫୁଟ	-7894
▁ରବି	-7895
▁୦୬୭	-7896
▁୫ଜଣ	-7897
older	-7898
ugust	-7899
ପେକ୍ଷ	-7900
ବିଭାଗ	-7901
ଲକ୍ଷ୍	-7902
ଳ୍ପିକ	-7903
ଶାନ୍ତ	-7904
ାର୍ଗେ	-7905
ୋପଦେଶ	-7906
▁2010	-7907
▁Vers	-7908
▁When	-7909
▁kind	-7910
▁sent	-7911
▁ଅନୁପ	-7912
▁ଆଡକୁ	-7913
▁ଏନେଇ	-7914
▁ଓଲଟା	-7915
▁ଗଞ୍ଜ	-7916
▁ଗ୍ଲୁ	-7917
▁ଘୃଣା	-7918
▁ଚାଲା	-7919
▁ପବନର	-7920
▁ପୋଷଣ	-7921
▁ଫିସ୍	-7922
▁ବାଳକ	-7923
▁ବାୟୁ	-7924
▁ମେଣ୍	-7925
▁ଯିବୁ	-7926
▁ରମେଶ	-7927
▁ରେଡ୍	-7928
▁୨୦୦୫	-7929
ତ୍ସାହନ	-7930
ଥାନ୍ତେ	-7931
ୋଲିଟିକ	-7932
▁Women	-7933
▁ଆଣିଲୁ	-7934
▁କଭର୍‍	-7935
▁ଖୋଲିବ	-7936
▁ଗାଁକୁ	-7937
▁ଦାନ୍ତ	-7938
▁ନିଉରୋ	-7939
▁ଫାଇଲ୍	-7940
▁ବାକ୍ଯ	-7941
▁ଭଦ୍ରକ	-7942
▁ଭୂମିକ	-7943
▁ଲାଇସେ	-7944
▁ସାଧନା	-7945
Article	-7946
▁online	-7947
▁ଖୋଲିଲା	-7948
▁ଜାଗତିକ	-7949
▁ଟାର୍ଗେ	-7950
▁ପଡ଼ିଲେ	-7951
▁ପୂର୍ବା	-7952
▁ଫେସବୁକ	-7953
▁ସନ୍ତୋଷ	-7954
▁ସନ୍ଦେହ	-7955
▁ସେଠାକୁ	-7956
▁ସୋସିଆଲ	-7957
▁ହଜାରରୁ	-7958
ଏଗୁଡ଼ିକୁ	-7959
▁License	-7960
▁Trading	-7961
▁Version	-7962
▁ଆସିଥିଲା	-7963
▁ଆସୁଥିବା	-7964
▁କାରଖାନା	-7965
▁ଚାରିପଟେ	-7966
▁ଚାହୁଁଛି	-7967
▁ଡ୍ରାଇଭର	-7968
▁ଦିଆଯିବା	-7969
▁ମନ୍ଦିରର	-7970
▁ମରିବାକୁ	-7971
▁ଯୋଗଦେବା	-7972
▁ଲାଗିଥାଏ	-7973
▁ସମୀକ୍ଷା	-7974
▁ହେବାପରେ	-7975
▁ଅଧିକାରରେ	-7976
▁ଦିଲ୍ଲୀରେ	-7977
▁ନିଷ୍ପାଦନ	-7978
▁ରୂପାନ୍ତର	-7979
▁ହିତୋପଦେଶ	-7980
▁କାର୍ଯ୍ୟରୁ	-7981
▁ଦେଖାଯାଉଛି	-7982
▁ଘୁଞ୍ଚାନ୍ତୁ	-7983
▁ଚିତ୍ରସଂକେତ	-7984
▁ଦିଲ୍ଲୀପଙ୍କ	-7985
▁information	-7986
▁ଅଧିକାରୀମାନେ	-7987
▁ଗୁରୁତ୍ୱପୂର୍ଣ୍ଣ	-7988
"&	-7989
",	-7990
"}	-7991
''	-7992
,%	-7993
.0	-7994
24	-7995
SS	-7996
ଉଜ	-7997
ହଳ	-7998
୮୦	-7999
-17	-8000
:20	-8001
ERV	-8002
ION	-8003
act	-8004
app	-8005
ark	-8006
cel	-8007
ଖରା	-8008
ଠିତ	-8009
ତୁମ	-8010
ଥିଉ	-8011
ଦୁଇ	-8012
ବାତ	-8013
ଳନୀ	-8014
ଶାହ	-8015
ସ୍ଵ	-8016
ାତୁ	-8017
ୋଜନ	-8018
▁.’	-8019
▁05	-8020
▁4-	-8021
▁44	-8022
▁55	-8023
▁ଗଜ	-8024
▁ପଏ	-8025
▁ମଜ	-8026
▁ମୟ	-8027
▁୩୬	-8028
ader	-8029
aven	-8030
ଏସଟି	-8031
ଟଙ୍କ	-8032
ଡ଼ିତ	-8033
ଡିଟ୍	-8034
ବନ୍ତ	-8035
ଲିକି	-8036
ଲିରେ	-8037
ଲେଣି	-8038
ଶାଲମ	-8039
ହାର୍	-8040
ୂର୍ଣ	-8041
▁Eas	-8042
▁GNU	-8043
▁Lak	-8044
▁Rel	-8045
▁SSL	-8046
▁ଅଶ୍	-8047
▁କୂଳ	-8048
▁ଗାଇ	-8049
▁ନାସ	-8050
▁ପଡେ	-8051
▁ବେଲ	-8052
▁ଲୁହ	-8053
▁ହନୁ	-8054
▁୨୫୦	-8055
ଓଡ଼ିଆ	-8056
କ୍ତରୀ	-8057
ଲେକ୍ଟ	-8058
ସ୍ତାର	-8059
ୋଗ୍ରା	-8060
▁card	-8061
▁long	-8062
▁mess	-8063
▁ଅସ୍ୱ	-8064
▁ଉଜବେ	-8065
▁ଉପରୁ	-8066
▁କୁନି	-8067
▁ଟ୍ୟୁ	-8068
▁ଡାଲି	-8069
▁ଦ୍ରା	-8070
▁ପେଜ୍	-8071
▁ବସ୍ତ	-8072
▁ବୈଠକ	-8073
▁ବ୍ଲଗ	-8074
▁ମୋହର	-8075
▁ଲିଲି	-8076
▁ଶିବି	-8077
▁ସାଇଟ	-8078
▁ସିଧା	-8079
▁ହିରୋ	-8080
▁୧୯୬୨	-8081
▁୧୯୭୪	-8082
▁୧୯୭୭	-8083
etails	-8084
udents	-8085
ବାସ୍ୟା	-8086
ିବାହିତ	-8087
▁House	-8088
▁Video	-8089
▁chara	-8090
▁ଅର୍ପଣ	-8091
▁ଅସହାୟ	-8092
▁ଘଡ଼ିଏ	-8093
▁ପାଠକ୍	-8094
▁ପିଇଲେ	-8095
▁ବକ୍ତା	-8096
▁ବଦଳାଇ	-8097
▁ମଣ୍ଡଳ	-8098
▁ମାଥିଉ	-8099
▁ଯୋଗାଇ	-8100
▁ଶିଖିଛ	-8101
▁ସଂଗ୍ର	-8102
▁ସର୍ଦ୍	-8103
oftware	-8104
ଚାଲନ୍ତୁ	-8105
ିକରନ୍ତୁ	-8106
▁Public	-8107
▁heaven	-8108
▁method	-8109
▁କାହାରି	-8110
▁ଗ୍ରାମ୍	-8111
▁ନାହାକେ	-8112
▁ପାରିବୁ	-8113
▁ବିନ୍ଦୁ	-8114
▁ବୁଧବାର	-8115
▁ସିନ୍ଧୁ	-8116
▁ସ୍ବଚ୍ଛ	-8117
Articles	-8118
ନ୍ଦର୍ଯ୍ୟ	-8119
▁calling	-8120
▁comment	-8121
▁section	-8122
▁textbox	-8123
▁ଅଗଷ୍ଟରେ	-8124
▁ଅନଲାଇନ୍	-8125
▁କରନାହିଁ	-8126
▁କରିଦେଲେ	-8127
▁କୁମ୍ଭୀର	-8128
▁ଗ୍ଲୁକାନ	-8129
▁ଚମତ୍କାର	-8130
▁ଜାନୁଆରୀ	-8131
▁ତାମିଲନା	-8132
▁ଦେଇସାରି	-8133
▁ନମସ୍କାର	-8134
▁ନିରଞ୍ଜନ	-8135
▁ପ୍ରକୃତି	-8136
▁ବର୍ତମାନ	-8137
▁ବର୍ଷୀୟା	-8138
▁ବାବୁଙ୍କ	-8139
▁ମାଗଣାରେ	-8140
▁ଶୁଣନ୍ତୁ	-8141
▁ସଂପତ୍ତି	-8142
▁ସେଟିଙ୍ଗ	-8143
▁ସ୍ୱୀକାର	-8144
ୋଲିଟିକସ୍‍	-8145
▁Dharitri	-8146
▁joystick	-8147
▁ଉପଭୋକ୍ତା	-8148
▁ଐତିହାସିକ	-8149
▁କୃତଜ୍ଞତା	-8150
▁ପ୍ରତିକାର	-8151
▁ଲୋକପ୍ରିୟ	-8152
▁Political	-8153
▁ପ୍ରତିଜ୍ଞା	-8154
▁ବ୍ୟକ୍ତିକୁ	-8155
▁ସମ୍ପର୍କକୁ	-8156
▁ସରକାରଙ୍କୁ	-8157
▁ଟ୍ରାନସମିଟର	-8158
▁ନିର୍ଦ୍ଦେଶକ	-8159
▁ପ୍ରୋତ୍ସାହନ	-8160
▁ଯାହାଦ୍ୱାରା	-8161
▁ତୁମ୍ଭମାନଙ୍କ	-8162
▁ବାର୍ତ୍ତାଳାପ	-8163
▁ମୁଖ୍ୟମନ୍ତ୍ରୀଙ୍କ	-8164
6,	-8165
DL	-8166
ms	-8167
mī	-8168
ଲୟ	-8169
୨୧	-8170
’?	-8171
▁]	-8172
:09	-8173
bal	-8174
dio	-8175
hoo	-8176
kas	-8177
put	-8178
top	-8179
vid	-8180
wit	-8181
ଏଲର	-8182
ଟନା	-8183
ଡିଏ	-8184
ପ୍ୟ	-8185
ବେଲ	-8186
ଭାଷ	-8187
ମେଲ	-8188
ଳତା	-8189
ଷେଧ	-8190
ାମତ	-8191
ାମୂ	-8192
ିଆଳ	-8193
▁(9	-8194
▁86	-8195
▁90	-8196
▁ST	-8197
▁ଵେ	-8198
▁ହଟ	-8199
:16]	-8200
ages	-8201
mage	-8202
play	-8203
shmī	-8204
{0}'	-8205
କ୍ଷୀ	-8206
ଟରରେ	-8207
ନଙ୍କ	-8208
ପନ୍ନ	-8209
ପିଲା	-8210
ପୁରୁ	-8211
ପ୍ରଥ	-8212
ଫୁନ୍	-8213
ରୂପେ	-8214
େଇଲେ	-8215
▁has	-8216
▁sha	-8217
▁ଅମ୍	-8218
▁କାଢ	-8219
▁ଚିର	-8220
▁ଦବୋ	-8221
▁ନୋଟ	-8222
▁ବାହ	-8223
▁ମମି	-8224
▁ମଲା	-8225
▁ଲଘୁ	-8226
▁ସୁଅ	-8227
▁ସେକ	-8228
▁ୟୋଗ	-8229
▁୧୨୦	-8230
creen	-8231
lobal	-8232
ustom	-8233
ଦେଶରେ	-8234
ଭିମାନ	-8235
ଶିଷ୍ଟ	-8236
ିନ୍ଦା	-8237
୍ରୁତି	-8238
▁Conf	-8239
▁Jobs	-8240
▁ଅଶୁଭ	-8241
▁ଇଫକୋ	-8242
▁କିଆଁ	-8243
▁କିଣୁ	-8244
▁କୁକି	-8245
▁ଚର୍ମ	-8246
▁ଧରଣର	-8247
▁ପଚରା	-8248
▁ବାଦେ	-8249
▁ବିମୁ	-8250
▁ମିଶି	-8251
▁ମୂର୍	-8252
▁ରାଜି	-8253
▁ରୁମ୍	-8254
▁ଲୁଚା	-8255
▁ସଜ୍ଜ	-8256
▁ସୂର୍	-8257
▁ହାନି	-8258
▁୧୯୫୨	-8259
▁୧୯୮୭	-8260
Select	-8261
Socket	-8262
andard	-8263
ession	-8264
ଯନ୍ତ୍ର	-8265
ଶାନ୍ତି	-8266
ୈର୍ଯ୍ୟ	-8267
▁Glaze	-8268
▁email	-8269
▁ଏତେବଡ	-8270
▁କଣ୍ଟା	-8271
▁ଗେହିଁ	-8272
▁ଗ୍ଭଲି	-8273
▁ଜଗତକୁ	-8274
▁ତଳେଣତ	-8275
▁ତୁଳନା	-8276
▁ତ୍ୱଚା	-8277
▁ଦେଖୁଛ	-8278
▁ଦ୍ୱାର	-8279
▁ନିଆରା	-8280
▁ପ୍ରୟା	-8281
▁ଫେରିଆ	-8282
▁ବିହାର	-8283
▁ବୃକ୍ଷ	-8284
▁ମତାମତ	-8285
▁ମାର୍ଗ	-8286
▁ରଣବୀର	-8287
▁ଶ୍ରୀମ	-8288
▁ସନ୍ତୁ	-8289
▁ସମକାଳ	-8290
▁ସଲମାନ	-8291
▁ସ୍ନାନ	-8292
.......	-8293
lection	-8294
ନ୍ତ୍ରିକ	-8295
ସୂର୍ଯ୍ୟ	-8296
ାଉଛନ୍ତି	-8297
▁System	-8298
▁ଅଜ୍ଞାତ	-8299
▁ଅଭିଯାନ	-8300
▁ଅସୁସ୍ଥ	-8301
▁ଆସନ୍ତି	-8302
▁ଏଜେଣ୍ଟ	-8303
▁କଣ୍ଠରେ	-8304
▁କିଣିବା	-8305
▁କ୍ଷତିକ	-8306
▁ଘଟିଥାଏ	-8307
▁ଦ୍ୱନ୍ଦ	-8308
▁ନାମ୍ନୀ	-8309
▁ପ୍ରଯୋଗ	-8310
▁ବିଦେଶୀ	-8311
▁ମରାମତି	-8312
▁ଲେଖାକୁ	-8313
▁ସଭାପତି	-8314
▁ସାର୍ଥକ	-8315
▁ସାଲିସ୍	-8316
▁ସୀମାରେ	-8317
▁ହେବାରୁ	-8318
▁ହେବାରେ	-8319
▁ହୋଇଥିବ	-8320
▁୧୨ଘଂଟା	-8321
▁୧୯୫୨ରେ	-8322
▁Lakshmī	-8323
▁[22:16]	-8324
▁ଆପ୍ଲିକେ	-8325
▁କରିବାରୁ	-8326
▁କହିଥିଲା	-8327
▁ଜଗନ୍ନାଥ	-8328
▁ଜିଲ୍ଲାର	-8329
▁ତୁଳନାରେ	-8330
▁ବ୍ୟବଧାନ	-8331
▁ମଞ୍ଜୁରୀ	-8332
▁ଯାଇଥିଲି	-8333
▁ସବୁକିଛି	-8334
▁ଅନୁଚ୍ଛେଦ	-8335
▁ଦେବାଦେବୀ	-8336
▁ପ୍ରିମିୟମ	-8337
▁ପ୍ରୋଟୋକଲ	-8338
▁ଫେରିବାକୁ	-8339
▁ବିଶେଷଜ୍ଞ	-8340
▁ଭିଟାମିନ୍	-8341
▁ମିଳିଥିଲା	-8342
▁ରାଉରକେଲା	-8343
▁ସମ୍ବିଧାନ	-8344
▁ସିଲିଣ୍ଡର	-8345
▁ସୂର୍ଯ୍ୟା	-8346
▁ଅଭିବୃଦ୍ଧି	-8347
▁କହିପାରିବେ	-8348
▁କହିସାରିଛି	-8349
▁ପାକିସ୍ଥାନ	-8350
▁ମନେରଖନ୍ତୁ	-8351
▁ସଂକ୍ରାନ୍ତ	-8352
▁ସୁସମାଗ୍ଭର	-8353
▁ସ୍ୱାଭିମାନ	-8354
▁ହୋଇଥାନ୍ତି	-8355
▁dictionary	-8356
▁ପୂର୍ବବର୍ତୀ	-8357
▁ବୈଜୟନ୍ତଙ୍କ	-8358
▁ପରାମର୍ଶଦାତା	-8359
▁ପୃଷ୍ଠାଗୁଡ଼ିକ	-8360
▁ସଦାପ୍ରଭୁଙ୍କର	-8361
▁ସ୍ଥାନାନ୍ତରିତ	-8362
▁ସ୍ମାରକପତ୍ରକୁ	-8363
49	-8364
75	-8365
9;	-8366
LS	-8367
ja	-8368
ux	-8369
କକ	-8370
ଥ୍	-8371
ରର	-8372
ୁଆ	-8373
େଶ	-8374
674	-8375
;#3	-8376
ler	-8377
omi	-8378
tal	-8379
trl	-8380
କିଂ	-8381
ଜିର	-8382
ଡିଂ	-8383
ଥାନ	-8384
ନସ୍	-8385
ନେଇ	-8386
ବାଟ	-8387
ବୁଲ	-8388
ଭେଦ	-8389
ଶ୍ର	-8390
ଷଣା	-8391
ସନା	-8392
ସାନ	-8393
ସେଇ	-8394
▁46	-8395
▁49	-8396
▁56	-8397
▁Pe	-8398
▁am	-8399
▁cc	-8400
▁ଓଠ	-8401
▁ଜଲ	-8402
▁ତନ	-8403
▁ଲୀ	-8404
▁ସଫ	-8405
▁୩୩	-8406
▁୫୮	-8407
2000	-8408
gist	-8409
lick	-8410
nown	-8411
rent	-8412
ride	-8413
ଟିଭ୍	-8414
ଣ୍ଠି	-8415
ନ୍ନା	-8416
ପଞ୍ଚ	-8417
ଫାଇଲ	-8418
ଳିରେ	-8419
ହ୍ମଣ	-8420
ାତିକ	-8421
ୃଶ୍ୟ	-8422
େକ୍ଷ	-8423
▁Flo	-8424
▁Jun	-8425
▁Res	-8426
▁tra	-8427
▁ଅନି	-8428
▁ଆସର	-8429
▁ଆହା	-8430
▁ଏକଦ	-8431
▁ଏଡ଼	-8432
▁କାଶ	-8433
▁ଜାତ	-8434
▁ଜ୍ଞ	-8435
▁ତରଫ	-8436
▁ଦେଲ	-8437
▁ପୀଠ	-8438
▁ଫର୍	-8439
▁ଫାଟ	-8440
▁ଫ୍ର	-8441
▁ଯୋଡ	-8442
▁ଶୋଷ	-8443
▁ସ୍କ	-8444
▁ହାନ	-8445
▁ହାୟ	-8446
;#39;	-8447
ଚ୍ଚିତ	-8448
ଲାନ୍ସ	-8449
ିକିରି	-8450
ିବେଳେ	-8451
ୁଥିଲେ	-8452
▁7:11	-8453
▁Live	-8454
▁Pers	-8455
▁Sort	-8456
▁modi	-8457
▁than	-8458
▁ଅଙ୍ଗ	-8459
▁ଓଲିଉ	-8460
▁କାଟୁ	-8461
▁କୋର୍	-8462
▁ଗାଳି	-8463
▁ଛାୟା	-8464
▁ଜୋର୍	-8465
▁ଟିକସ	-8466
▁ଦାୟକ	-8467
▁ଦେଶୀ	-8468
▁ନାଟକ	-8469
▁ବାରଣ	-8470
▁ମନକୁ	-8471
▁ମିଠା	-8472
▁ରେସନ	-8473
▁ସମ୍ବ	-8474
▁ସେଲ୍	-8475
▁ସ୍ଵା	-8476
▁୨୦୦୭	-8477
ebsite	-8478
odisha	-8479
ଅଛନ୍ତି	-8480
▁Kumar	-8481
▁Phone	-8482
▁Price	-8483
▁first	-8484
▁କ୍ରୋଧ	-8485
▁ଖାଉଛି	-8486
▁ଜଗତରେ	-8487
▁ଦଶହରା	-8488
▁ଦୁନିଆ	-8489
▁ଦୁଷ୍ଟ	-8490
▁ନାମକୁ	-8491
▁ପାନୀୟ	-8492
▁ମହାଶୟ	-8493
▁ମାଆକୁ	-8494
▁ମୋଡ଼ି	-8495
▁ରଶ୍ମି	-8496
▁ଶୁଳ୍କ	-8497
▁ଷ୍ଟ୍ର	-8498
▁ସଂଗଠନ	-8499
▁ସାର୍ବ	-8500
▁ହଳଦିଆ	-8501
version	-8502
ହାର୍ଯ୍ୟ	-8503
ହୁଛନ୍ତି	-8504
▁Copyri	-8505
▁Latest	-8506
▁Starts	-8507
▁Weekly	-8508
▁always	-8509
▁ଅଭିଧାନ	-8510
▁ଆକର୍ଷଣ	-8511
▁କରିନ୍ଥ	-8512
▁ଖାଲିକର	-8513
▁ଗୋଡତଳେ	-8514
▁ଚତୁର୍ଥ	-8515
▁ଚରିତ୍ର	-8516
▁ଟିକେଟ୍	-8517
▁ଡିଫଲ୍ଟ	-8518
▁ପଡ଼ିଲା	-8519
▁ପଲିସିର	-8520
▁ପାଣ୍ଡବ	-8521
▁ପୋଷ୍ଟର	-8522
▁ଫେରିଲେ	-8523
▁ବିଭାଜନ	-8524
▁ଭର୍ତ୍ତ	-8525
▁ମନୁଷ୍ଯ	-8526
▁ସେବେଠୁ	-8527
▁ହେଲାନି	-8528
ତିକିବେଳେ	-8529
▁2016-17	-8530
▁example	-8531
▁ଅଧ୍ୟାପକ	-8532
▁ଉପନ୍ୟାସ	-8533
▁କରିନଥାଏ	-8534
▁କଲାବେଳେ	-8535
▁ଘଟିଥିଲା	-8536
▁ଚ୍ୟାନେଲ	-8537
▁ଟାଇଫୁନ୍	-8538
▁ଡାକ୍ତରୀ	-8539
▁ଦେଖାଉଛି	-8540
▁ଦେଖାଯାଏ	-8541
▁ପରିବର୍ତ	-8542
▁ପାଇଥିବା	-8543
▁ପ୍ରଥମରେ	-8544
▁ପ୍ରେମିକ	-8545
▁ମୁଣ୍ଡରେ	-8546
▁ମେଡିକାଲ	-8547
▁ଶସ୍ତାରେ	-8548
▁ଶୀତଦିନେ	-8549
ributions	-8550
▁ଅର୍ଥନୀତି	-8551
▁ଚାଲିଥିବା	-8552
▁ଚାଲିଥିଲା	-8553
▁ପଞ୍ଜୀକରଣ	-8554
▁ବିଚାରପତି	-8555
▁ସର୍ଦ୍ଦାର	-8556
▁character	-8557
▁ଦେଇପାରିବି	-8558
▁ଦେଇପାରିବେ	-8559
▁ପଚାରିଥିଲେ	-8560
▁ପରବର୍ତ୍ତି	-8561
▁ପାଇପାରିବେ	-8562
▁ପ୍ରକଳ୍ପକୁ	-8563
▁ଶାସ୍ତ୍ରରେ	-8564
▁ସରକାରଙ୍କର	-8565
▁ସର୍ବାଗ୍ରେ	-8566
▁JavaScript	-8567
▁ହୋଇଯାଆନ୍ତୁ	-8568
▁ଇନସ୍ୟୁରାନ୍ସ	-8569
▁କ୍ଷତିଗ୍ରସ୍ତ	-8570
▁ପରମେଶ୍ବରଙ୍କର	-8571
▁International	-8572
▁ଦେଇସାରିଛନ୍ତିକି	-8573
▁ପ୍ରତିଛବିଗୁଡ଼ିକୁ	-8574
CK	-8575
HO	-8576
IC	-8577
UB	-8578
ls	-8579
oh	-8580
ta	-8581
ଦଳ	-8582
ୋକ	-8583
▁ଣ	-8584
500	-8585
ber	-8586
dex	-8587
elp	-8588
sma	-8589
ଚିନ	-8590
ଟ୍ର	-8591
ଦିଗ	-8592
ହସି	-8593
୩ରେ	-8594
▁:)	-8595
▁Al	-8596
▁Is	-8597
▁Ya	-8598
▁[[	-8599
▁ed	-8600
▁po	-8601
▁ଘି	-8602
▁ତତ	-8603
▁ବଂ	-8604
▁ବଉ	-8605
▁ଵା	-8606
...?	-8607
bile	-8608
sing	-8609
ଙ୍ଘା	-8610
ଜନିତ	-8611
ଡିଛି	-8612
ଣ୍ଟେ	-8613
ତ୍ମା	-8614
ଥେଲେ	-8615
ଦେଖି	-8616
ବିଆଇ	-8617
ମାଛି	-8618
ମିଟେ	-8619
ମ୍ମଦ	-8620
ାଙ୍କ	-8621
ୃତ୍ୱ	-8622
▁91-	-8623
▁FOR	-8624
▁Spe	-8625
▁sex	-8626
▁whi	-8627
▁ଅଥଚ	-8628
▁ଅଭୟ	-8629
▁ଅମଳ	-8630
▁ଉଠା	-8631
▁କିବ	-8632
▁ଚର୍	-8633
▁ତତ୍	-8634
▁ଦୁଧ	-8635
▁ନଗର	-8636
▁ନୟା	-8637
▁ବିଆ	-8638
▁ବେସ	-8639
▁ମାଳ	-8640
▁ଯଶୋ	-8641
▁ଯାନ	-8642
▁ଲୋଭ	-8643
▁ହକି	-8644
ality	-8645
ditor	-8646
hrans	-8647
iaomi	-8648
ities	-8649
known	-8650
sthis	-8651
ଣ୍ଡୁଅ	-8652
ତ୍ୟକକ	-8653
ଥାନ୍ତ	-8654
ବାକ୍ସ	-8655
ଲେଷ୍ଟ	-8656
ଷ୍ଟାର	-8657
ାରାଶି	-8658
ାହିନୀ	-8659
ୱାର୍ଡ	-8660
▁2013	-8661
▁Make	-8662
▁Open	-8663
▁inst	-8664
▁unit	-8665
▁ଋଷିଆ	-8666
▁ଏସଵୁ	-8667
▁କ୍ରୋ	-8668
▁ଛାଣକ	-8669
▁ଜବାବ	-8670
▁ତାଲା	-8671
▁ନକ୍ସ	-8672
▁ପିଠା	-8673
▁ବିତି	-8674
▁ବୋହି	-8675
▁ମକଚି	-8676
▁ଯାଉଛ	-8677
▁ଯୋଡ଼	-8678
▁ଯୋଡା	-8679
▁ରହିଛ	-8680
▁ଲଜ୍ଜ	-8681
▁ଶିଆଳ	-8682
▁ସତେଜ	-8683
▁ସରୋଜ	-8684
▁ସ୍ଥଳ	-8685
▁୧୯୯୪	-8686
Search	-8687
hransu	-8688
ଡିଙ୍ଗ୍	-8689
ପାରୁଛି	-8690
ାଉଥିବା	-8691
ିକାଲରେ	-8692
▁'{0}'	-8693
▁Never	-8694
▁above	-8695
▁ଅଛିକି	-8696
▁ଅତ୍ୟା	-8697
▁ଅନୁମୋ	-8698
▁ଆଖିରେ	-8699
▁ଆଗ୍ରହ	-8700
▁ଆସିଛୁ	-8701
▁କଭରେଜ	-8702
▁ଚେନ୍ନ	-8703
▁ଜମିରେ	-8704
▁ତରଫରୁ	-8705
▁ଧରିବେ	-8706
▁ନଥିବା	-8707
▁ପଢିନି	-8708
▁ପ୍ଲାଜ	-8709
▁ଫାକ୍ସ	-8710
▁ବିଦ୍ର	-8711
▁ମେସେଜ	-8712
▁ରାତ୍ର	-8713
▁ଶୋଇବା	-8714
▁ସମ୍ରା	-8715
▁ସହଭାଗ	-8716
▁ହୋଷ୍ଟ	-8717
▁୦୬୭୨୪	-8718
luently	-8719
youtube	-8720
ଦର୍ଶିକା	-8721
▁91-674	-8722
▁source	-8723
▁ଏଣ୍ଡୁଅ	-8724
▁କଣ୍ଢେଇ	-8725
▁ଖୋଲିବା	-8726
▁ଖୋଲିଲେ	-8727
▁ଜିଏସଟି	-8728
▁ପଏଣ୍ଟର	-8729
▁ପାରିକର	-8730
▁ପ୍ରତାପ	-8731
▁ଫେରସ୍ତ	-8732
▁ବର୍ଷକୁ	-8733
▁ମିଶ୍ରେ	-8734
▁ମୁହଁକୁ	-8735
▁ମେଣ୍ଢା	-8736
▁ଲିଙ୍କ୍	-8737
▁ଲିମିଟେ	-8738
▁ଶରୀରକୁ	-8739
▁contain	-8740
▁ଆଫ୍ରିକା	-8741
▁କହିଥେଲେ	-8742
▁ଛାଡ଼ିବା	-8743
▁ଜରିମାନା	-8744
▁ଟଙ୍କାକୁ	-8745
▁ଦ୍ରୁଶ୍ଯ	-8746
▁ନମ୍ବରରେ	-8747
▁ନିଅନ୍ତି	-8748
▁ପିଅନ୍ତୁ	-8749
▁ପ୍ରତିଭା	-8750
▁ପ୍ରଫେସର	-8751
▁ୱେବସାଇଟ	-8752
▁ଆତଙ୍କବାଦ	-8753
▁କମ୍ପାନୀର	-8754
▁କ୍ଷତିକାର	-8755
▁ଜାଣନାହିଁ	-8756
▁ଦୁହିଁଙ୍କ	-8757
▁ନିୟନ୍ତ୍ର	-8758
▁ନେଇଛନ୍ତି	-8759
▁ପିଲାଙ୍କୁ	-8760
▁ପୁନର୍ବାର	-8761
▁ବାପାଙ୍କୁ	-8762
▁ରାଜସ୍ଥାନ	-8763
▁ସାମ୍ନାରେ	-8764
▁ହାନିକାରକ	-8765
▁ୱେବସାଇଟ୍	-8766
▁whatsthis	-8767
▁ଆମାବାସ୍ୟା	-8768
▁କରିପାରିବି	-8769
▁କର୍ତ୍ତବ୍ୟ	-8770
▁ପକ୍ଷଯୁକ୍ତ	-8771
▁ପ୍ରାଇଭେଟ୍	-8772
▁ପ୍ରୋଗ୍ରାମ	-8773
▁ବିନ୍ୟାସକୁ	-8774
▁ରାଜନୀତିରେ	-8775
▁ସାହିତ୍ୟିକ	-8776
▁ଅନ୍ୟମାନଙ୍କ	-8777
▁ଆସନ୍ତାକାଲି	-8778
▁ପ୍ରଦର୍ଶିକା	-8779
▁ବ୍ୟକ୍ତିତ୍ୱ	-8780
▁ଅପ୍ରତ୍ୟାଶିତ	-8781
▁କୃଷ୍ଣପ୍ରସାଦ	-8782
▁ଚିହ୍ନିଛନ୍ତି	-8783
▁ସାଙ୍କେତିକରଣ	-8784
HI	-8785
NE	-8786
St	-8787
WS	-8788
no	-8789
}}	-8790
କଳ	-8791
ଖର	-8792
ପଛ	-8793
ବୈ	-8794
ୀକ	-8795
:13	-8796
CGI	-8797
MAP	-8798
Pro	-8799
UTF	-8800
ans	-8801
eep	-8802
has	-8803
hip	-8804
joy	-8805
nel	-8806
rue	-8807
unt	-8808
ଏଟ୍	-8809
ଏବଂ	-8810
କଳା	-8811
ଖ୍ଯ	-8812
ବୋଧ	-8813
ରାଳ	-8814
ଳନା	-8815
ଳୟର	-8816
ଶିଲ	-8817
ସିଂ	-8818
ୁନି	-8819
୍ନା	-8820
୬୦୧	-8821
₹):	-8822
▁1/	-8823
▁AL	-8824
▁Di	-8825
▁Of	-8826
▁ଧ୍	-8827
▁ଷୟ	-8828
3000	-8829
None	-8830
ange	-8831
curi	-8832
down	-8833
lywo	-8834
pace	-8835
କର୍ମ	-8836
କଳାପ	-8837
ଙ୍ଗୀ	-8838
ଙ୍ଘି	-8839
ଟାକୁ	-8840
ଟିଏମ	-8841
ଟିଲା	-8842
ଦାୟକ	-8843
ମୋତେ	-8844
ମ୍ବି	-8845
ିକିଆ	-8846
ିକେଟ	-8847
୍ରାପ	-8848
୩୨୧୩	-8849
୭୭୬୫	-8850
▁Min	-8851
▁Sal	-8852
▁asp	-8853
▁enc	-8854
▁kde	-8855
▁php	-8856
▁see	-8857
▁ଉର୍	-8858
▁କାଇ	-8859
▁କୋଇ	-8860
▁ଖର୍	-8861
▁ଖାନ	-8862
▁ଡରୁ	-8863
▁ତୈଳ	-8864
▁ନାକ	-8865
▁ନିଃ	-8866
▁ନେଉ	-8867
▁ପୁଲ	-8868
▁ଫରେ	-8869
▁ଭର୍	-8870
▁ମଶା	-8871
▁ମାଧ	-8872
▁ସୁନ	-8873
▁ହାଏ	-8874
▁ହ୍ୱ	-8875
▁୨୩୪	-8876
▁୯୮୫	-8877
ature	-8878
dress	-8879
erfor	-8880
graph	-8881
ordad	-8882
velop	-8883
ଘାତିକ	-8884
ଜିଙ୍ଗ	-8885
ତାରଣା	-8886
ନ୍ତରଣ	-8887
ନ୍ଦିର	-8888
ବିକତା	-8889
ଭୂତରେ	-8890
ଶ୍ମୀର	-8891
ସ୍ତଫା	-8892
ହାସ୍ୟ	-8893
ିକାରୀ	-8894
୍ୟାରେ	-8895
▁(₹):	-8896
▁100%	-8897
▁2007	-8898
▁Easy	-8899
▁IMAP	-8900
▁data	-8901
▁date	-8902
▁kari	-8903
▁used	-8904
▁।...	-8905
▁ଅଧିନ	-8906
▁ଅମିତ	-8907
▁ଉଦାର	-8908
▁କିରେ	-8909
▁କୁଲ୍	-8910
▁ଗର୍ବ	-8911
▁ଚାର୍	-8912
▁ଚାହଁ	-8913
▁ଚିଦା	-8914
▁ଜଙ୍ଗ	-8915
▁ଜବ୍ସ	-8916
▁ଡ୍ରା	-8917
▁ଥରାଇ	-8918
▁ଦାମୀ	-8919
▁ଦୃଢ଼	-8920
▁ପାକ୍	-8921
▁ପୋଛୁ	-8922
▁ବାହ୍	-8923
▁ବୟାନ	-8924
▁ଭାଇର	-8925
▁ଭୋଟ୍	-8926
▁ଲଗଇନ	-8927
▁ଲାଇନ	-8928
▁ଲ୍ୟା	-8929
▁ଶସ୍ୟ	-8930
▁ସାଢେ	-8931
curity	-8932
edding	-8933
lywood	-8934
କକ୍ସ୍ଟ	-8935
ଙ୍ଘାଶୁ	-8936
ସ୍ତାୟା	-8937
▁Story	-8938
▁Vikas	-8939
▁every	-8940
▁ଅଗ୍ରା	-8941
▁ଅଧୁନା	-8942
▁ଉପକାର	-8943
▁ଚିତ୍ତ	-8944
▁ଜଏଣ୍ଟ	-8945
▁ଦୂରେଇ	-8946
▁ଦ୍ରୁତ	-8947
▁ପଢିବା	-8948
▁ପୀଡିତ	-8949
▁ପୁରାଣ	-8950
▁ବେତାଳ	-8951
▁ଭକ୍ତି	-8952
▁ଭାଷାର	-8953
▁ମଞ୍ଜୁ	-8954
▁ମାର୍କ	-8955
▁ଯିହୂଦ	-8956
▁ଯୋଡ଼ା	-8957
▁ସତେକି	-8958
▁ସଭାରେ	-8959
▁ସୁଶିଲ	-8960
▁ସେଇଟା	-8961
▁ସ୍ପୁଲ	-8962
▁ହଇରାଣ	-8963
ianName	-8964
sambalp	-8965
vention	-8966
୩୨୧୩୬୦୧	-8967
▁ଅଦ୍ଭୁତ	-8968
▁ଇସ୍ତଫା	-8969
▁ଉଜବେକି	-8970
▁ଗବେଷଣା	-8971
▁ତାହାଲେ	-8972
▁ବିରକ୍ତ	-8973
▁ବୈଠକରେ	-8974
▁ମରିଗଲେ	-8975
▁ମହମ୍ମଦ	-8976
▁ମୂଲ୍ୟା	-8977
▁ଲୋକସଭା	-8978
▁ସାମନ୍ତ	-8979
▁ସାମିଲ୍	-8980
▁ସ୍ପର୍ଶ	-8981
▁ସ୍ପିନ୍	-8982
▁ସ୍ଵାମୀ	-8983
▁୨୬୭୭୬୫	-8984
ducation	-8985
erformer	-8986
ଦୀମାନଙ୍କ	-8987
▁Suicide	-8988
▁keyword	-8989
▁seconds	-8990
▁ଅପରାଜିତ	-8991
▁ଅଶାନ୍ତି	-8992
▁ଆଙ୍କିଛି	-8993
▁ଇଞ୍ଜିନି	-8994
▁ଉଚ୍ଚାରଣ	-8995
▁ଠିକାଦାର	-8996
▁ଦାୟିତ୍ଵ	-8997
▁ପେଟ୍ରୋଲ	-8998
▁ଯାଉଥିଲେ	-8999
▁ଲେଖୁଅଛି	-9000
▁ସଂଗ୍ରାମ	-9001
▁ସ୍କ୍ରିନ	-9002
▁Spelling	-9003
▁ଅନାହାରରେ	-9004
▁କହୁନାହିଁ	-9005
▁କାଲେଣ୍ଡର	-9006
▁କିସ୍ତାୟା	-9007
▁କେଉଁଠାରେ	-9008
▁ଦିଆଯାଉଛି	-9009
▁ପ୍ରୁଷ୍ଠା	-9010
▁ବଢାଇବାକୁ	-9011
▁ଶୁଙ୍ଘାଶୁ	-9012
▁ଶୁଣୁନାହଁ	-9013
▁ପଞ୍ଚଭୂତରେ	-9014
▁ପରଦର୍ଶିକା	-9015
▁ପରୀକ୍ଷାରେ	-9016
▁ବଢିଚାଲିଛି	-9017
▁ରଘୁନାଥପୁର	-9018
▁ସମ୍ପର୍କିତ	-9019
▁ୱାର୍ଣ୍ଣିଂ	-9020
pediaodisha	-9021
▁କରିନଥାନ୍ତି	-9022
▁ଦିଆଯାଇଥିବା	-9023
▁ପ୍ରତ୍ୟେକ୍ଷ	-9024
▁୯୮୫୩୨୧୩୬୦୧	-9025
▁ସୂର୍ଯ୍ୟାସ୍ତ	-9026
▁distribution	-9027
▁ଅଂଶଗ୍ରହଣକାରୀ	-9028
▁ପରମେଶ୍ବରଙ୍କୁ	-9029
▁ଶୁଙ୍ଘାଶୁଙ୍ଘି	-9030
IM	-9031
az	-9032
ଅଗ	-9033
ଠଠ	-9034
ଧନ	-9035
ୟୋ	-9036
୤”	-9037
୪୮	-9038
:26	-9039
Dis	-9040
ded	-9041
ffe	-9042
zed	-9043
āra	-9044
ଂଜନ	-9045
ଆଜି	-9046
ଜନା	-9047
ଜିକ	-9048
ଥାଇ	-9049
ଦିତ	-9050
ଦ୍ଵ	-9051
ନକୁ	-9052
ପିଏ	-9053
ଫର୍	-9054
ବୋଉ	-9055
ମହି	-9056
ମାଇ	-9057
ମୂହ	-9058
ଯାମ	-9059
ଳାଇ	-9060
୦୨୯	-9061
▁64	-9062
▁KR	-9063
▁Ku	-9064
▁ON	-9065
▁Ra	-9066
▁ଅଲ	-9067
▁ଓଃ	-9068
▁କଏ	-9069
▁ଠୁ	-9070
▁ପପ	-9071
▁ଶୃ	-9072
auti	-9073
ings	-9074
ital	-9075
lege	-9076
କ୍ଷକ	-9077
ଖିଲା	-9078
ଙ୍ଖା	-9079
ଟ୍ରି	-9080
ତ୍ଯା	-9081
ଧାରା	-9082
ପାନୀ	-9083
ମ୍ବନ	-9084
ରାଜା	-9085
ଲିଖନ	-9086
ଶାଳା	-9087
ସ୍ନେ	-9088
ସ୍ୱର	-9089
ହ୍ନା	-9090
ାର୍କ	-9091
ୋଜିତ	-9092
୧୯୯୯	-9093
▁Top	-9094
▁URI	-9095
▁VLC	-9096
▁day	-9097
▁fox	-9098
▁gra	-9099
▁use	-9100
▁ଅଦଳ	-9101
▁ଆଉଟ	-9102
▁ଇଟା	-9103
▁ଇତି	-9104
▁ଉଜ୍	-9105
▁ଉପୁ	-9106
▁ଡରି	-9107
▁ଥାଇ	-9108
▁ଦଲୋ	-9109
▁ବାଃ	-9110
▁ବୋଝ	-9111
▁ଭଡା	-9112
▁ମେସ	-9113
▁ସାଉ	-9114
▁ୟଦି	-9115
▁୭ଟି	-9116
ccess	-9117
ollow	-9118
ultit	-9119
ument	-9120
ଚନ୍ତି	-9121
ଡ଼ିଲା	-9122
ପସନ୍ଦ	-9123
ଳ୍ପରେ	-9124
ଶୀଘ୍ର	-9125
ସ୍ଥାର	-9126
ହ୍ୟାର	-9127
୦୨୯ଟି	-9128
▁Giri	-9129
▁face	-9130
▁ଅର୍ଜ	-9131
▁ଗଣିତ	-9132
▁ଘୋଡା	-9133
▁ଚଳାଅ	-9134
▁ଚିଡି	-9135
▁ଚେକ୍	-9136
▁ଛଟେଇ	-9137
▁ଜମିର	-9138
▁ଜରିଆ	-9139
▁ଟେଲି	-9140
▁ଢାଳି	-9141
▁ତଥ୍ଯ	-9142
▁ଥିଲୁ	-9143
▁ଦକ୍ଷ	-9144
▁ଦଳରେ	-9145
▁ଦିଶୁ	-9146
▁ନିୟୁ	-9147
▁ପରାଜ	-9148
▁ପରିସ	-9149
▁ପୁର୍	-9150
▁ପୁଲୱ	-9151
▁ବୁଲୁ	-9152
▁ବ୍ଲା	-9153
▁ବୟସର	-9154
▁ମୋଟା	-9155
▁ସନ୍ନ	-9156
▁ସାଜି	-9157
▁ସିଟ୍	-9158
▁ହେଉଛ	-9159
▁ହୋଇପ	-9160
▁୧୪ତମ	-9161
▁୨୦୦୨	-9162
ଣ୍ଣାଟକ	-9163
ଥିପାଇଁ	-9164
ବାତ୍ୟା	-9165
ବେକ୍ଷଣ	-9166
ରବିନ୍ଦ	-9167
▁Manoj	-9168
▁birth	-9169
▁daily	-9170
▁dated	-9171
▁sound	-9172
▁watch	-9173
▁ଅପମାନ	-9174
▁ଆଜିକା	-9175
▁ଆଣିବା	-9176
▁ଗୃହରେ	-9177
▁ଘଣ୍ଟି	-9178
▁ଜାଣିନ	-9179
▁ଜୀବିତ	-9180
▁ଡକାୟତ	-9181
▁ଧ୍ୱନୀ	-9182
▁ପ୍ରେତ	-9183
▁ଫିଟନେ	-9184
▁ଫେରିପ	-9185
▁ବନ୍ଦୀ	-9186
▁ବାଇବଲ	-9187
▁ବିଲରେ	-9188
▁ବିଲୋପ	-9189
▁ମାସିକ	-9190
▁ମ୍ୟାଚ	-9191
▁ଯମୁନା	-9192
▁ସଠିକ୍	-9193
▁ସୃଷ୍ଟ	-9194
▁ସ୍ନେହ	-9195
▁ହିଂସା	-9196
କ୍ଷେତ୍ର	-9197
ଦ୍ରାକରଣ	-9198
ପୂର୍ବରୁ	-9199
ରାଷ୍ଟ୍ର	-9200
▁Contin	-9201
▁ଅଧ୍ୟାୟ	-9202
▁ଆଲୋକିତ	-9203
▁ଆସିଗଲା	-9204
▁କଭରେଜ୍	-9205
▁କିବୋର୍	-9206
▁ଛାଡିଲେ	-9207
▁ଠିକିରି	-9208
▁ତେହେଲେ	-9209
▁ଦୁଃଖିତ	-9210
▁ଦେଖାଇବ	-9211
▁ଧର୍ମଘଟ	-9212
▁ପରାସ୍ତ	-9213
▁ପ୍ରୟାସ	-9214
▁ମିଳିବା	-9215
▁ଲାଗିଲେ	-9216
▁ଲେଖିଲେ	-9217
▁ସାମରିକ	-9218
▁ସ୍ତନରୁ	-9219
▁ସ୍ବାମୀ	-9220
▁ସ୍ୱରୂପ	-9221
▁୧୯୬୨ରେ	-9222
▁୨୦୧୮ରେ	-9223
▁message	-9224
▁provide	-9225
▁wedding	-9226
▁ଅପସାରିତ	-9227
▁ଉତ୍ପନ୍ନ	-9228
▁ଘୁଞ୍ଚାଅ	-9229
▁ଜମାରାଶି	-9230
▁ଧାର୍ଯ୍ୟ	-9231
▁ନିମ୍ନରେ	-9232
▁ପାଆନ୍ତୁ	-9233
▁ପାହ୍ୟାର	-9234
▁ପିଲାଦିନ	-9235
▁ଫେବୃଆରୀ	-9236
▁ବ୍ୟାପାର	-9237
▁ମଧ୍ୟପ୍ର	-9238
▁ମାଇକ୍ରୋ	-9239
▁ମାଓବାଦୀ	-9240
▁ମିଡିଆରେ	-9241
▁ଯୋଗ୍ୟତା	-9242
▁ସନ୍ଦେଶର	-9243
▁ସୁନ୍ଦରୀ	-9244
▁ସୁପ୍ରିମ	-9245
▁ହୋଇଯିବେ	-9246
▁ଆବଶ୍ୟକୀୟ	-9247
▁କୁମାରଙ୍କ	-9248
▁ଜାଣିଥିଲେ	-9249
▁ଦୁର୍ନୀତି	-9250
▁ପଠାଇବାରେ	-9251
▁ପର୍ଯ୍ୟାୟ	-9252
▁ପ୍ରତିରୋଧ	-9253
▁ପ୍ରୟୋଗକୁ	-9254
▁ସଜ୍ଜିକରଣ	-9255
▁ସମ୍ବଲପୁର	-9256
▁ସମ୍ମିଳନୀ	-9257
▁ହୋଇନଥିବା	-9258
▁Launchpad	-9259
▁ଇଣ୍ଟରନେଟ୍	-9260
▁କଳାହାଣ୍ଡି	-9261
▁ଦେଖୁଛନ୍ତି	-9262
▁ନିମନ୍ତ୍ରଣ	-9263
▁ସଫାକରନ୍ତୁ	-9264
▁ସମସ୍ତଙ୍କର	-9265
▁ଗଣମାଧ୍ୟମରେ	-9266
▁ସୂଚନାଯୋଗ୍ୟ	-9267
▁ସ୍ମିତହାସ୍ୟ	-9268
▁Translation	-9269
▁application	-9270
▁କାର୍ଯ୍ୟକଳାପ	-9271
▁ବିମୁଦ୍ରାକରଣ	-9272
▁Contributions	-9273
▁ମଞ୍ଜୁରୀପ୍ରାପ୍ତ	-9274
08	-9275
1}	-9276
2]	-9277
45	-9278
80	-9279
AS	-9280
DS	-9281
OM	-9282
ki	-9283
we	-9284
ଏଚ	-9285
ଏବ	-9286
ଖୀ	-9287
158	-9288
SHA	-9289
air	-9290
apa	-9291
eld	-9292
ews	-9293
mit	-9294
ody	-9295
ood	-9296
tml	-9297
vis	-9298
କହି	-9299
ଟ୍ଠ	-9300
ତୁକ	-9301
ଧାସ	-9302
ପୁଟ	-9303
ମହା	-9304
ୀରା	-9305
ୋହୀ	-9306
ୱାଇ	-9307
▁AN	-9308
▁Le	-9309
▁Mi	-9310
▁NF	-9311
▁Vo	-9312
▁ki	-9313
▁ଥୟ	-9314
▁ପତ	-9315
▁ବଟ	-9316
▁ବଶ	-9317
▁ଯଥ	-9318
▁ଲଳ	-9319
▁୦୯	-9320
ault	-9321
hili	-9322
ople	-9323
pect	-9324
tist	-9325
ଏହାର	-9326
କିଲୋ	-9327
କୋଟି	-9328
ଗୋଲା	-9329
ଚ୍ୟୁ	-9330
ଟ୍ଟା	-9331
ଡିଆନ	-9332
ବାନ୍	-9333
ମନ୍ତ	-9334
ମ୍ପା	-9335
ମ୍ପୁ	-9336
ଲିଟର	-9337
ସ୍କର	-9338
ହ୍ମା	-9339
▁121	-9340
▁CMS	-9341
▁Tag	-9342
▁doc	-9343
▁log	-9344
▁non	-9345
▁rum	-9346
▁war	-9347
▁ଅପ୍	-9348
▁ଅସଲ	-9349
▁ଆନି	-9350
▁ଆବି	-9351
▁ଆଳୁ	-9352
▁ଖିର	-9353
▁ଗଲି	-9354
▁ଗେଲ	-9355
▁ଚାଇ	-9356
▁ମାଡ	-9357
▁ସମଯ	-9358
▁ହାଜ	-9359
30008	-9360
itute	-9361
unner	-9362
ଆଉଥରେ	-9363
ଆଜ୍ଞା	-9364
କ୍ଷରେ	-9365
ଟ୍ଠଇଁ	-9366
ଧାସଳଖ	-9367
ନ୍ତୋଷ	-9368
ମାଲିକ	-9369
ିକ୍ଷକ	-9370
▁2005	-9371
▁Chan	-9372
▁Girl	-9373
▁iden	-9374
▁know	-9375
▁only	-9376
▁shut	-9377
▁ଅମୃତ	-9378
▁ଅସ୍ପ	-9379
▁ଏସପି	-9380
▁କ୍ରୟ	-9381
▁ଡିଜେ	-9382
▁ଥିବି	-9383
▁ଦେଲୁ	-9384
▁ପିତର	-9385
▁ବଜ୍ର	-9386
▁ମତରେ	-9387
▁ମିଶା	-9388
▁ମୋଦୀ	-9389
▁ଲିଖନ	-9390
▁ଲୁଚି	-9391
▁ଶାଶୁ	-9392
▁ସର୍ଜ	-9393
▁ସୀତା	-9394
▁ସ୍ଲୋ	-9395
▁୯୦୦୦	-9396
ଓଡ଼ିଶା	-9397
ସାୟନିକ	-9398
ସ୍ତରୀୟ	-9399
ାଇବାରେ	-9400
ିକାଣ୍ଡ	-9401
▁after	-9402
▁house	-9403
▁ଅନୁସୂ	-9404
▁ଇଣ୍ଡି	-9405
▁କ୍ୟାନ	-9406
▁କ୍ୟାସ	-9407
▁ଚେହେର	-9408
▁ଜେଲରେ	-9409
▁ଡାଡ଼ି	-9410
▁ତରିକା	-9411
▁ନଥିଲୁ	-9412
▁ପକ୍ଷେ	-9413
▁ପାଖରୁ	-9414
▁ପାୱାର	-9415
▁ପ୍ରଭା	-9416
▁ଫୋନରେ	-9417
▁ଭାଇକୁ	-9418
▁ମାଉସୀ	-9419
▁ମାର୍ଚ	-9420
▁ମାସରୁ	-9421
▁ରାଜକୁ	-9422
▁ରାଜ୍ଯ	-9423
▁ରିଲିଜ	-9424
▁ଲଳିତା	-9425
▁ସଂଖ୍ଯ	-9426
▁ସେଣ୍ଟ	-9427
autiful	-9428
ଚ୍ଛିନ୍ନ	-9429
ପ୍ରାଚୀନ	-9430
ଲକ୍ଷ୍ମୀ	-9431
ହୋଇଥିବା	-9432
▁Global	-9433
▁ODISHA	-9434
▁points	-9435
▁report	-9436
▁system	-9437
▁ଆସିଥାଏ	-9438
▁ଏକାନ୍ତ	-9439
▁କଲେଜରେ	-9440
▁କିସ୍ତି	-9441
▁ଖୁସିରେ	-9442
▁ଖେଳାଳି	-9443
▁ଦଲିଲକୁ	-9444
▁ଦେଖିଲା	-9445
▁ଦେଖୁଛି	-9446
▁ପିଲାକୁ	-9447
▁ପ୍ରଣାମ	-9448
▁ପ୍ରତିବ	-9449
▁ପ୍ରଶଂସ	-9450
▁ବାସ୍ତୁ	-9451
▁ମର୍ତ୍ତ	-9452
▁ମହାନତା	-9453
▁ଯଥାର୍ଥ	-9454
▁ରଜାପୁଅ	-9455
▁ଷ୍ଟେସନ	-9456
▁ସଂକଳ୍ପ	-9457
▁ସ୍ବରୂପ	-9458
chnology	-9459
ultitran	-9460
▁2530008	-9461
▁91-674-	-9462
▁KRunner	-9463
▁Meeting	-9464
▁heading	-9465
▁version	-9466
▁ଅଧିନିୟମ	-9467
▁କୁକୁଡ଼ା	-9468
▁କ୍ରିକେଟ	-9469
▁ଡିଜିଟାଲ	-9470
▁ନିଯୁକ୍ତ	-9471
▁ପୁନଃନାମ	-9472
▁ବଇଟ୍ଠଇଁ	-9473
▁ବଞ୍ଚିଛି	-9474
▁ବିଶ୍ଵାସ	-9475
▁ମନ୍ତବ୍ୟ	-9476
▁ମାମଲାରେ	-9477
▁ମିନିଟରେ	-9478
▁ସାଧନପଟି	-9479
▁ସାର୍ବଜନ	-9480
▁ସ୍କୁଲରେ	-9481
iterature	-9482
▁Downlode	-9483
▁sentence	-9484
▁shutdown	-9485
▁ଅଭିନନ୍ଦନ	-9486
▁ଉପସ୍ଥିତି	-9487
▁ଖୋଲିବାରେ	-9488
▁ଚାଲିବାକୁ	-9489
▁ଡାଉନଲୋଡ୍	-9490
▁ତାଲିକାରୁ	-9491
▁ପୂର୍ବଦିଗ	-9492
▁ବିଜେପିକୁ	-9493
▁ବିପର୍ଯ୍ୟ	-9494
▁ମାତୃବାଣୀ	-9495
▁ସନ୍ଦେଶରେ	-9496
▁ସମ୍ପର୍କର	-9497
▁ସମ୍ପୂର୍ଣ	-9498
▁ୱିଣ୍ଡୋରେ	-9499
▁କର୍ଣ୍ଣାଟକ	-9500
▁କେନ୍ଦ୍ରାପ	-9501
▁କ୍ଷତିକାରକ	-9502
▁ଚାହୁଁଥିବା	-9503
▁ଫେରିପାଇଲେ	-9504
▁ଭାବୁଛନ୍ତି	-9505
▁ଯୁବତୀଙ୍କୁ	-9506
▁ସମ୍ବନ୍ଧିତ	-9507
KCharSelect	-9508
▁ପରିବର୍ତ୍ତକ	-9509
▁ମାଥିଉଲିଖିତ	-9510
▁ସାମ୍ପ୍ରତିକ	-9511
▁କରାଯାଇନାହିଁ	-9512
▁ପ୍ରତିଶ୍ରୁତି	-9513
▁ସଂକ୍ରାନ୍ତରେ	-9514
▁ଗ୍ରହଣକର୍ତ୍ତା	-9515
▁ଅଭିନେତ୍ରୀଙ୍କୁ	-9516
40	-9517
:8	-9518
OT	-9519
by	-9520
lp	-9521
na	-9522
pt	-9523
ଉଠ	-9524
ତଲ	-9525
ଶହ	-9526
ଷୁ	-9527
୦୮	-9528
:10	-9529
Imp	-9530
ash	-9531
ism	-9532
umb	-9533
ଇରେ	-9534
ଖିଆ	-9535
ଟକା	-9536
ଟରର	-9537
ନ୍‍	-9538
ଫଂକ	-9539
ଭର୍	-9540
ମିୟ	-9541
ରମ୍	-9542
ଶାନ	-9543
ଷମା	-9544
ସୁର	-9545
ହାସ	-9546
ହେଇ	-9547
▁#~	-9548
▁1)	-9549
▁Ro	-9550
▁ur	-9551
▁ଆଳ	-9552
▁ଜବ	-9553
▁ଜର	-9554
▁ଝର	-9555
▁ପୌ	-9556
▁ବଧ	-9557
▁ମଉ	-9558
▁୪୧	-9559
List	-9560
abil	-9561
atha	-9562
illa	-9563
outh	-9564
uary	-9565
view	-9566
ଏହାତ	-9567
ଖରାପ	-9568
ଚେତ୍	-9569
ଥୁଲେ	-9570
ଧାରୀ	-9571
ବାସ୍	-9572
ମଧ୍ୟ	-9573
ମୂଳକ	-9574
ମ୍ଲଭ	-9575
ର୍ମେ	-9576
ଲେଟ୍	-9577
ଶ୍ୱା	-9578
ଷୟିକ	-9579
ସାରେ	-9580
ସିବି	-9581
ହ୍ନର	-9582
ିବନି	-9583
ିବଳୟ	-9584
ୟାର୍	-9585
’...	-9586
▁107	-9587
▁Del	-9588
▁Nor	-9589
▁Oct	-9590
▁Pra	-9591
▁fre	-9592
▁ଆଲଗ	-9593
▁ଗଢି	-9594
▁ଗଣି	-9595
▁ଛାତ	-9596
▁ଜାମ	-9597
▁ଦମନ	-9598
▁ନବର	-9599
▁ପୂଜ	-9600
▁ବଜେ	-9601
▁ବିଲ	-9602
▁ଭାର	-9603
▁ସସ୍	-9604
▁ସିଝ	-9605
▁ହସନ	-9606
▁ୟିଏ	-9607
ative	-9608
motic	-9609
viron	-9610
ଖୁସିଆ	-9611
ଗାରେଟ	-9612
ଟିଂରେ	-9613
ସାବାସ	-9614
ହାଶିଷ	-9615
ାନ୍ଧୀ	-9616
▁1971	-9617
▁2012	-9618
▁Bank	-9619
▁Blue	-9620
▁Know	-9621
▁care	-9622
▁cons	-9623
▁dead	-9624
▁life	-9625
▁make	-9626
▁ଆଣିବ	-9627
▁ଉଠେଇ	-9628
▁ଖୋଲୁ	-9629
▁ଗାଁର	-9630
▁ଘାଟନ	-9631
▁ଚକ୍ର	-9632
▁ଡକାୟ	-9633
▁ଦବେେ	-9634
▁ଦେଖେ	-9635
▁ଦେଲି	-9636
▁ଫେରା	-9637
▁ବାଧା	-9638
▁ବିଲି	-9639
▁ଭଡ଼ା	-9640
▁ଭୋଜନ	-9641
▁ମେୟର	-9642
▁ରଚନା	-9643
▁ସୁଗମ	-9644
▁ହଲେଇ	-9645
▁୧୯୯୯	-9646
graphs	-9647
header	-9648
plasma	-9649
କରୁଅଛି	-9650
ବିଜେପି	-9651
ଭାବନୀୟ	-9652
ମୁଣ୍ଡି	-9653
ଶ୍ରେଣୀ	-9654
୍ୟକ୍ତି	-9655
▁21:39	-9656
▁22:35	-9657
▁Union	-9658
▁links	-9659
▁ଅପ୍ରେ	-9660
▁ଇଫଫଂକ	-9661
▁କଣିକା	-9662
▁ଚାନ୍ଦ	-9663
▁ଡିଭାଇ	-9664
▁ତୁର୍କ	-9665
▁ନଚେତ୍	-9666
▁ନାଇଡୁ	-9667
▁ନେଉଛି	-9668
▁ପଙ୍ଖା	-9669
▁ପରଲୋକ	-9670
▁ଫେରାର	-9671
▁ବସନ୍ତ	-9672
▁ବିତରଣ	-9673
▁ବୈଦ୍ୟ	-9674
▁ଭାବନା	-9675
▁ରହୁଛି	-9676
▁ଲଜ୍ଜା	-9677
▁ଶିଷ୍ଯ	-9678
ଥାଆନ୍ତି	-9679
ପ୍ରଚଳିତ	-9680
ବାବାଙ୍କ	-9681
ବାସୀଙ୍କ	-9682
ର୍ଦ୍ଧିତ	-9683
ସ୍ତୋତ୍ର	-9684
▁August	-9685
▁sambad	-9686
▁ଅର୍ଜୁନ	-9687
▁ଅର୍ଦ୍ଧ	-9688
▁ଏହିଭଳି	-9689
▁ଗଞ୍ଜାମ	-9690
▁ଜରିଆରେ	-9691
▁ଟ୍ୟୁଟୋ	-9692
▁ଦେଖିବେ	-9693
▁ନିହାତି	-9694
▁ବିଞ୍ଚି	-9695
▁ବ୍ରିଟି	-9696
▁ମାତ୍ରା	-9697
▁ଯୋଜନାର	-9698
▁ରିପୋର୍	-9699
▁ଶିବାଜୀ	-9700
▁ସାଇକେଲ	-9701
▁ସେଠାରୁ	-9702
▁ସ୍ବର୍ଗ	-9703
▁ଅଭାବନୀୟ	-9704
▁ଅସନ୍ତୋଷ	-9705
▁ଅସ୍ପଷ୍ଟ	-9706
▁ଆଜିକାଲି	-9707
▁ଆରମ୍ଭରେ	-9708
▁କର୍ତ୍ତା	-9709
▁ଗୁରୁତ୍ବ	-9710
▁ଜଣାନ୍ତୁ	-9711
▁ଜବରଦସ୍ତ	-9712
▁ତ୍ରିପାଠ	-9713
▁ଦେବୀଙ୍କ	-9714
▁ନେତୃତ୍ୱ	-9715
▁ପରିସରରେ	-9716
▁ପାଇଥିଲା	-9717
▁ବିଭାଗରେ	-9718
▁ମହୁମାଛି	-9719
▁ରହୁଥିବା	-9720
▁ଶିଶୁଙ୍କ	-9721
▁ଶ୍ରେଣୀର	-9722
▁ସିଧାସଳଖ	-9723
▁ହସଖୁସିଆ	-9724
periments	-9725
vironment	-9726
ସ୍ନେହାଶିଷ	-9727
▁fluently	-9728
▁ଅଭିଜ୍ଞତା	-9729
▁କରେନାହିଁ	-9730
▁କ୍ରେଡିଟ୍	-9731
▁ଗ୍ଭଲିଯିବ	-9732
▁ଘୂର୍ଣ୍ଣନ	-9733
▁ଜାଣିଥିଲା	-9734
▁ଦେଖନାହିଁ	-9735
▁ନାଲିପାନର	-9736
▁ପଞ୍ଜିକୃତ	-9737
▁ପଠାଇବାକୁ	-9738
▁ବିଦ୍ୟାଳୟ	-9739
▁ବିଦ୍ୟୁତ୍	-9740
▁ବ୍ରାହ୍ମଣ	-9741
▁ଭୂମିକାରେ	-9742
▁ଶୁଣନାହିଁ	-9743
▁ସମ୍ପୃକ୍ତ	-9744
▁ସୁପ୍ରିମକ	-9745
sambalpuri	-9746
▁Wikipedia	-9747
▁କରିପାରିଲେ	-9748
▁ଗ୍ରାହକଙ୍କ	-9749
▁ପୂର୍ବାହ୍ନ	-9750
▁ପ୍ରେତ୍ୟକକ	-9751
▁ମହାବାତ୍ୟା	-9752
▁ସମ୍ବନ୍ଧୀୟ	-9753
▁paragraphs	-9754
▁ପର୍ଯ୍ୟାୟରେ	-9755
▁ବିଧାନସଭାରେ	-9756
▁ଯିହୂଦୀମାନେ	-9757
▁ସର୍ବସାଧାରଣ	-9758
▁ସୌନ୍ଦର୍ଯ୍ୟ	-9759
▁ହଜିଯାଇଥିବା	-9760
▁ଘୂର୍ଣ୍ଣିବଳୟ	-9761
.............	-9762
▁ପ୍ରୟୋଗଗୁଡ଼ିକ	-9763
)?	-9764
01	-9765
87	-9766
;&	-9767
==	-9768
CD	-9769
PS	-9770
dy	-9771
mi	-9772
ng	-9773
tm	-9774
ଆଠ	-9775
ଠକ	-9776
ୀପ	-9777
ୀଯ	-9778
େନ	-9779
▁ୁ	-9780
:17	-9781
:21	-9782
BAR	-9783
Loc	-9784
arm	-9785
ent	-9786
get	-9787
leb	-9788
nic	-9789
raw	-9790
rec	-9791
ssa	-9792
ଆଡେ	-9793
ଖିକ	-9794
ଗିଆ	-9795
ଚାଷ	-9796
ଢ଼ି	-9797
ଧିନ	-9798
ନିର	-9799
ପଦୀ	-9800
ଫାନ	-9801
ମସ୍	-9802
ଶୋର	-9803
ସମୟ	-9804
ସେସ	-9805
▁""	-9806
▁+9	-9807
▁52	-9808
▁7.	-9809
▁Ac	-9810
▁Ap	-9811
▁KC	-9812
▁Sm	-9813
▁lo	-9814
▁so	-9815
▁ଆତ	-9816
▁ଇଉ	-9817
▁ଓ୍	-9818
▁ଗଧ	-9819
▁ଢଳ	-9820
▁ରନ	-9821
▁ୟତ	-9822
Note	-9823
This	-9824
atra	-9825
cape	-9826
ghts	-9827
inux	-9828
lete	-9829
otra	-9830
sApp	-9831
self	-9832
କମଳେ	-9833
କେତେ	-9834
ଚ୍ଛୁ	-9835
ତଲାୱ	-9836
ଦିଗର	-9837
ପହରେ	-9838
ପାଣି	-9839
ଲଫିନ	-9840
ଲ୍ୟୁ	-9841
ଳାଖେ	-9842
ଷ୍ଟୋ	-9843
ସମୂହ	-9844
ସାୟୀ	-9845
ସିଆନ	-9846
ାବଳୀ	-9847
ାହିକ	-9848
ୃଷ୍ଟ	-9849
▁(2.	-9850
▁223	-9851
▁365	-9852
▁800	-9853
▁Mac	-9854
▁Ret	-9855
▁Tal	-9856
▁[21	-9857
▁bec	-9858
▁cgi	-9859
▁{0}	-9860
▁କଂଟ	-9861
▁କରଣ	-9862
▁ଖାତ	-9863
▁ଡାଏ	-9864
▁ଧମକ	-9865
▁ପଂଚ	-9866
▁ପଚି	-9867
▁ପେନ	-9868
▁ରାଇ	-9869
▁ରିଚ	-9870
▁ଲଗ୍	-9871
▁ସେନ	-9872
harth	-9873
ଉତ୍ତର	-9874
ଡକ୍ଟର	-9875
ପୁସ୍ତ	-9876
ବେଶରେ	-9877
ମହିଳା	-9878
ମୁଣ୍ଡ	-9879
ରାଜ୍ୟ	-9880
ିକଳ୍ପ	-9881
ୋକ୍ତି	-9882
▁1947	-9883
▁IRDA	-9884
▁girl	-9885
▁html	-9886
▁mail	-9887
▁prog	-9888
▁room	-9889
▁ଅତୀତ	-9890
▁ଅପରି	-9891
▁ଅସଲି	-9892
▁ଆନ୍ଧ	-9893
▁ଏମଭି	-9894
▁କଏନ୍	-9895
▁କବଳେ	-9896
▁କରୁଣ	-9897
▁କରୁନ	-9898
▁କାଟି	-9899
▁କିମି	-9900
▁ଖାନ୍	-9901
▁ଗଣଦୁ	-9902
▁ଗୁମର	-9903
▁ଜେନେ	-9904
▁ଡେଇଁ	-9905
▁ନନ୍ଦ	-9906
▁ପାଠପ	-9907
▁ପିସି	-9908
▁ବିଗି	-9909
▁ବିରା	-9910
▁ଭୟରେ	-9911
▁ମଦ୍ୟ	-9912
▁ମନେପ	-9913
▁ମାନୁ	-9914
▁ମାସର	-9915
▁ମୟୂର	-9916
▁ଲମ୍ବ	-9917
▁ଶାଖା	-9918
▁ସବୁଜ	-9919
▁ସୁରେ	-9920
▁ସ୍ପି	-9921
▁ସ୍ରୋ	-9922
▁ହୋଲି	-9923
ଇନ୍ଦ୍ର	-9924
ଣ୍ଡରକୁ	-9925
▁Bhara	-9926
▁Match	-9927
▁Other	-9928
▁defin	-9929
▁start	-9930
▁ଅନ୍ତର	-9931
▁ଅସ୍ଥି	-9932
▁କଟକଣା	-9933
▁କରାଯ଼	-9934
▁କୋଇଲା	-9935
▁ଗୁଗୁଲ	-9936
▁ଚଞ୍ଚଳ	-9937
▁ଜାଣିବ	-9938
▁ଟ୍ୟାଗ	-9939
▁ଦଙ୍ଗା	-9940
▁ଦର୍ଶକ	-9941
▁ଧର୍ମେ	-9942
▁ନିର୍ଯ	-9943
▁ପରିଡା	-9944
▁ପାଠ୍ଯ	-9945
▁ବାଣ୍ଟ	-9946
▁ବାମକୁ	-9947
▁ବେକାର	-9948
▁ବେଙ୍ଗ	-9949
▁ମସ୍ତି	-9950
▁ମୂର୍ଖ	-9951
▁ଯାତ୍ର	-9952
▁ସଙ୍କଟ	-9953
▁ସମ୍ବଳ	-9954
▁ସମ୍ଭା	-9955
▁ସିଦ୍ଧ	-9956
▁ସେଲଫି	-9957
idharth	-9958
osition	-9959
ପୁର୍ଣ୍ଣ	-9960
ପ୍ରମିଳା	-9961
ରୁଦ୍ଧାର	-9962
ସିଟିଲ୍ୟ	-9963
▁2016).	-9964
▁Manage	-9965
▁Orissa	-9966
▁Xiaomi	-9967
▁school	-9968
▁transl	-9969
▁ଅଞ୍ଚଳର	-9970
▁ଆମଦାନି	-9971
▁ଏପ୍ରିଲ	-9972
▁ଏସବିଆଇ	-9973
▁କଂଟକେଟ	-9974
▁ଖାତାକୁ	-9975
▁ଜାଣିବି	-9976
▁ତକ୍ସ୍ଟ	-9977
▁ଦିଆଯାଉ	-9978
▁ଦୁନିଆର	-9979
▁ନିରାପଦ	-9980
▁ପ୍ରୀତି	-9981
▁ପ୍ରେରଣ	-9982
▁ପ୍ରେସ୍	-9983
▁ବୈଷୟିକ	-9984
▁ମହାକାଶ	-9985
▁ସଂଖ୍ୟକ	-9986
▁ସଙ୍ଗଠକ	-9987
▁ସମୀକରଣ	-9988
▁ସେକଣ୍ଡ	-9989
▁ସ୍ୱରରେ	-9990
iversity	-9991
ର୍ଯ୍ୟାଦା	-9992
▁Quality	-9993
▁ଅନୁବାଦକ	-9994
▁ଠିକିରିର	-9995
▁ଥାଇପାରେ	-9996
▁ନିଶ୍ୱାସ	-9997
▁ପାଣ୍ଡିଆ	-9998
▁ଫ୍ୟାକ୍ସ	-9999
▁ବଲାଙ୍ଗି	-10000
▁ବୋର୍ଡରେ	-10001
▁ଭାବନ୍ତୁ	-10002
▁ମୂଲ୍ୟରେ	-10003
▁ସଦସ୍ୟତା	-10004
▁ହୋଇନଥାଏ	-10005
▁ୱିଣ୍ଡୋର	-10006
କମଳେଶଙ୍କର	-10007
▁Comments	-10008
▁ଅତିବାହିତ	-10009
▁କେଉଁଠାରୁ	-10010
▁କ୍ରିକେଟ୍	-10011
▁ଚକ୍ରାନ୍ତ	-10012
▁ଚିଦାମ୍ବର	-10013
▁ନିରିକ୍ଷକ	-10014
▁ପର୍ଯ୍ୟଟକ	-10015
▁ପ୍ରେମିକା	-10016
▁ଭିତ୍ତିରେ	-10017
▁ମେଲବାକ୍ସ	-10018
▁ରାସାୟନିକ	-10019
▁ରେସନତଲାୱ	-10020
▁ଲଢ଼ିବାକୁ	-10021
▁ଲୁଚାନ୍ତୁ	-10022
▁ଶୁଭେଚ୍ଛା	-10023
▁ସମସ୍ୟାରେ	-10024
▁ସାରିଲେଣି	-10025
▁ହେବନାହିଁ	-10026
▁ଟ୍ୟୁଟୋରିଆ	-10027
▁ପ୍ରତିଷ୍ଠା	-10028
▁ବ୍ୟାଙ୍କରେ	-10029
▁ମିଳୁନାହିଁ	-10030
▁ସାହିତ୍ୟରେ	-10031
▁ସୁନିଶ୍ଚିତ	-10032
▁literature	-10033
▁ଅଗ୍ନିକାଣ୍ଡ	-10034
▁ଅନୁଷ୍ଠାନରେ	-10035
▁ଅଭିବ୍ୟକ୍ତି	-10036
▁ଧର୍ମେନ୍ଦ୍ର	-10037
▁ପୁନଃନାମକରଣ	-10038
▁ବନ୍ଦକରନ୍ତୁ	-10039
▁ବିସ୍ଫୋରଣରେ	-10040
▁NameMeeting	-10041
▁ଆମ୍ଭମାନଙ୍କୁ	-10042
▁କୁହାଯାଇଥିଲା	-10043
▁ଡିରେସିଟିଲ୍ୟ	-10044
▁ମାମାବାବାଙ୍କ	-10045
▁ଯାଞ୍ଚକରନ୍ତୁ	-10046
▁ସ୍ୱତନ୍ତ୍ରଚର	-10047
▁ମହିଳାମାନଙ୍କୁ	-10048
▁କରିଦିଆଯାଇଥିଲା	-10049
▁ଶ୍ରୀକମଳେଶଙ୍କର	-10050
09	-10051
27	-10052
8%	-10053
::	-10054
HS	-10055
aw	-10056
ଡକ	-10057
ବସ	-10058
ଯ଼	-10059
ୃଶ	-10060
୦୨	-10061
୨୫	-10062
▁`	-10063
:14	-10064
:23	-10065
:32	-10066
ABI	-10067
Not	-10068
Pre	-10069
ged	-10070
gin	-10071
jab	-10072
ohn	-10073
riv	-10074
ved	-10075
ଂକର	-10076
ଋତୁ	-10077
ଓ୍ଵ	-10078
କୀୟ	-10079
ଣରେ	-10080
ଥିତ	-10081
ନିୟ	-10082
ବରା	-10083
ବଲ୍	-10084
ବାୟ	-10085
ମକୁ	-10086
ଲାଭ	-10087
ଲ୍ଡ	-10088
ଲୱେ	-10089
ଳେଶ	-10090
ଷ୍ପ	-10091
ାଜନ	-10092
ାତନ	-10093
୍ତା	-10094
୪ରେ	-10095
▁1%	-10096
▁43	-10097
▁76	-10098
▁Lo	-10099
▁{{	-10100
▁।“	-10101
▁ଖସ	-10102
▁ପୈ	-10103
▁ମସ	-10104
▁୪୮	-10105
▁“%	-10106
1-11	-10107
appy	-10108
date	-10109
havi	-10110
ices	-10111
icks	-10112
less	-10113
tity	-10114
ଅଧିକ	-10115
ଅର୍ଥ	-10116
କେଟ୍	-10117
ଗରରେ	-10118
ଗାନି	-10119
ଚିସ୍	-10120
ଜିବି	-10121
ଡାରେ	-10122
ଡିବା	-10123
ତ୍ରା	-10124
ଦଙ୍କ	-10125
ଦୁଲା	-10126
ନଥାଏ	-10127
ବିବା	-10128
ମେନି	-10129
ମ୍ମୁ	-10130
ର୍ଗତ	-10131
ଲିୟା	-10132
ଲୋଚକ	-10133
ହେବା	-10134
ାକରି	-10135
ୀୟତା	-10136
୨୦୧୯	-10137
▁..”	-10138
▁50%	-10139
▁550	-10140
▁All	-10141
▁Set	-10142
▁[2]	-10143
▁clo	-10144
▁net	-10145
▁ଅଠା	-10146
▁ଏଯା	-10147
▁କିର	-10148
▁କୋର	-10149
▁ଚେକ	-10150
▁ଛକା	-10151
▁ଟିଏ	-10152
▁ଟୁଇ	-10153
▁ଡିଜ	-10154
▁ଡ୍ୟ	-10155
▁ନେଟ	-10156
▁ପଢା	-10157
▁ପୋଟ	-10158
▁ବାଲ	-10159
▁ବିଚ	-10160
▁ବିଛ	-10161
▁ବୋଲ	-10162
▁ମିସ	-10163
▁ମୁଗ	-10164
▁ହିର	-10165
quest	-10166
ପୁରୁଷ	-10167
ଭାବିକ	-10168
ଯୋଗକୁ	-10169
ରିମିୟ	-10170
ଳାପରେ	-10171
ଶିକ୍ଷ	-10172
ଶୀର୍ଷ	-10173
ସଂଖ୍ୟ	-10174
ାରାୟଣ	-10175
ିକାଲ୍	-10176
ିବାରୁ	-10177
▁Date	-10178
▁Junk	-10179
▁bord	-10180
▁odia	-10181
▁show	-10182
▁toge	-10183
▁ଅମାନ	-10184
▁ଅସମ୍	-10185
▁ଆଗୁଆ	-10186
▁ଇଣ୍ଟ	-10187
▁କାମୁ	-10188
▁ଚୂଲି	-10189
▁ଚୌକି	-10190
▁ଟୀକା	-10191
▁ଟେକ୍	-10192
▁ଦୀପା	-10193
▁ନାତି	-10194
▁ନିବେ	-10195
▁ପଥରେ	-10196
▁ପଳେଇ	-10197
▁ପାଲା	-10198
▁ପ୍ରହ	-10199
▁ଫାରୂ	-10200
▁ଫୋଟୋ	-10201
▁ବିବେ	-10202
▁ଭଗିଆ	-10203
▁ଭଲରେ	-10204
▁ମାଉସ	-10205
▁ମାମୁ	-10206
▁ମେଳକ	-10207
▁ମୋର୍	-10208
▁ରୁହେ	-10209
▁ଲୁହା	-10210
▁ସେମି	-10211
▁ହଇରେ	-10212
▁ହେରେ	-10213
▁ୟୁନି	-10214
1-11-4	-10215
anging	-10216
custom	-10217
terest	-10218
ନାଙ୍କୁ	-10219
ପତିଙ୍କ	-10220
ବିଧାରେ	-10221
ମାଚିସ୍	-10222
ମାତ୍ରା	-10223
ମ୍ପରିକ	-10224
ହିନ୍ଦୀ	-10225
▁09:09	-10226
▁bound	-10227
▁enjoy	-10228
▁index	-10229
▁shell	-10230
▁ଆସ୍ତେ	-10231
▁ଉତ୍ସବ	-10232
▁ଏଠାରୁ	-10233
▁କଟକରେ	-10234
▁କମ୍ପୁ	-10235
▁କର୍କଟ	-10236
▁କଲେଣି	-10237
▁କାନରେ	-10238
▁କୁମ୍ଭ	-10239
▁ଛାଡୁଛ	-10240
▁ଜଷ୍ଟି	-10241
▁ଜୈବିକ	-10242
▁ଦୂରତା	-10243
▁ପାଇଥନ	-10244
▁ପୀଲାତ	-10245
▁ବଟନକୁ	-10246
▁ମନିଷା	-10247
▁ମହିମା	-10248
▁ଯୌତୁକ	-10249
▁ସାଇଟ୍	-10250
▁ସାଉଦି	-10251
▁ସିଷ୍ଟ	-10252
▁ସୁଦୂର	-10253
▁ସ୍ଥିତ	-10254
▁ହରିହର	-10255
▁ହସିଲେ	-10256
respect	-10257
ଥାଇପାରେ	-10258
ଫ୍ରେଣ୍ଡ	-10259
▁Bharat	-10260
▁Salary	-10261
▁States	-10262
▁comple	-10263
▁ଆନ୍ଧ୍ର	-10264
▁ଆଲଗୋରି	-10265
▁କାଲିକି	-10266
▁କ୍ୟାଶେ	-10267
▁ଗ୍ୟାସ୍	-10268
▁ଜୀବନ୍ତ	-10269
▁ଡାକିଲେ	-10270
▁ତ୍ୱଚାର	-10271
▁ଥାନ୍ତି	-10272
▁ଦିଆଗଲା	-10273
▁ଦିପହରେ	-10274
▁ନାଗପୁର	-10275
▁ପଲେଷ୍ଟ	-10276
▁ପୁଲିସ୍	-10277
▁ପ୍ରଭେଦ	-10278
▁ବଙ୍ଗଳା	-10279
▁ବଳିଷ୍ଠ	-10280
▁ବିଜେତା	-10281
▁ମାଷ୍ଟର	-10282
▁ସରପଞ୍ଚ	-10283
▁ସ୍ବପ୍ନ	-10284
ollywood	-10285
standard	-10286
ଆଚାର୍ଯ୍ୟ	-10287
ପ୍ରତିଦିନ	-10288
ୀୟମାନଙ୍କ	-10289
▁Account	-10290
▁session	-10291
▁ଏକମାତ୍ର	-10292
▁କାଢ଼ିବା	-10293
▁ଟଙ୍କାରୁ	-10294
▁ତାଙ୍କରି	-10295
▁ତାହାହିଁ	-10296
▁ଧୈର୍ଯ୍ୟ	-10297
▁ପ୍ରେରଣା	-10298
▁ପ୍ଲାଜମା	-10299
▁ଫାଟିଗଲା	-10300
▁ବିଦ୍ରୋହ	-10301
▁ବିପତ୍ତି	-10302
▁ମନପସନ୍ଦ	-10303
▁ମିଳିବନି	-10304
▁ଯଶୋବନ୍ତ	-10305
▁ଶିଖନ୍ତୁ	-10306
▁ସଂପୃକ୍ତ	-10307
▁ସଂଯୋଗକୁ	-10308
▁ସମାପ୍ତି	-10309
▁ସମାଲୋଚକ	-10310
▁ସ୍କୁଲରୁ	-10311
▁+91-11-4	-10312
▁Manthana	-10313
▁identity	-10314
▁together	-10315
▁ଅଗ୍ନିକୋଣ	-10316
▁ଆମନ୍ତ୍ରଣ	-10317
▁କାଳିପାନର	-10318
▁କ୍ରିକେଟର	-10319
▁ଜାଣିପାରୁ	-10320
▁ତ୍ରିପାଠୀ	-10321
▁ଦେଉଛନ୍ତି	-10322
▁ନାବାଳିକା	-10323
▁ନେଉଛନ୍ତି	-10324
▁ପରିବାରରେ	-10325
▁ପହଞ୍ଚିଲେ	-10326
▁ପ୍ରାପ୍ତି	-10327
▁ମରିଯାଇଛି	-10328
▁ମିଳିଲାନି	-10329
▁ମୂଳସ୍ଥାନ	-10330
▁ଯାହାଙ୍କୁ	-10331
▁ଲାଇସେନ୍ସ	-10332
▁ସନ୍ନିବେଶ	-10333
▁ହେଉନାହିଁ	-10334
ଳାଖେମୁଣ୍ଡି	-10335
▁ଅଣ୍ଡାବାଲା	-10336
▁କରିପାରେନା	-10337
▁ସମ୍ବିଧାନର	-10338
▁ହତ୍ୟାକାରୀ	-10339
selfrespect	-10340
▁containing	-10341
▁ଅଧିକାରୀଙ୍କ	-10342
▁ଅଷ୍ଟ୍ରେଲିଆ	-10343
▁କାର୍ଯ୍ୟକାର	-10344
▁ଦକ୍ଷିଣଦିଗର	-10345
▁ନିର୍ଦ୍ଧାରଣ	-10346
▁ପଶୁମାନଙ୍କୁ	-10347
▁Experiments	-10348
▁LongDayName	-10349
▁ତାଲିକାଭୁକ୍ତ	-10350
▁ପୁନରାବୃତ୍ତି	-10351
▁ମହାପାତ୍ରଙ୍କ	-10352
▁ବସ୍ତୁଗୁଡ଼ିକୁ	-10353
▁ପାଣ୍ଡବମାନଙ୍କର	-10354
.]	-10355
02	-10356
3)	-10357
77	-10358
96	-10359
AP	-10360
ET	-10361
Go	-10362
gn	-10363
ଅମ	-10364
ଋଣ	-10365
ରୂ	-10366
ଲନ	-10367
୭୩	-10368
”.	-10369
-20	-10370
/02	-10371
748	-10372
:12	-10373
:15	-10374
PLC	-10375
ali	-10376
esk	-10377
lot	-10378
ଂଶୁ	-10379
ଆଉଟ	-10380
କାଇ	-10381
ଗ୍ଧ	-10382
ଟାଅ	-10383
ଡେନ	-10384
ନିଂ	-10385
ପଡୁ	-10386
ପଣା	-10387
ପଲର	-10388
ପିର	-10389
ମ୍ର	-10390
ଯତା	-10391
ରୁପ	-10392
ରେଟ	-10393
ର୍ଡ	-10394
ଲୋନ	-10395
ଲ୍‍	-10396
୍ୟେ	-10397
▁(+	-10398
▁0.	-10399
▁5%	-10400
▁59	-10401
▁Kh	-10402
▁OS	-10403
▁Wi	-10404
▁ob	-10405
▁ଆଖ	-10406
▁ଆଡ	-10407
▁ଇର	-10408
▁ଉଦ	-10409
▁ଠୋ	-10410
▁ଦବ	-10411
▁ବୌ	-10412
▁ଯଶ	-10413
▁ୟଦ	-10414
▁ୟର	-10415
▁୦୩	-10416
▁୪୨	-10417
000,	-10418
1076	-10419
12-2	-10420
CGXA	-10421
CGXB	-10422
CGXC	-10423
CGXD	-10424
CGXE	-10425
CGXF	-10426
CGXG	-10427
CGXH	-10428
CGXI	-10429
CGXJ	-10430
CGXK	-10431
CGXL	-10432
CGXM	-10433
CGXN	-10434
CGXO	-10435
CGXP	-10436
CGXQ	-10437
CGXR	-10438
CGXS	-10439
CGXT	-10440
CGXU	-10441
CGXV	-10442
CGXW	-10443
CGXX	-10444
CGXY	-10445
CGXZ	-10446
ness	-10447
page	-10448
pera	-10449
roid	-10450
scri	-10451
work	-10452
ଚାଳକ	-10453
ଚାଳନ	-10454
ଚିଲେ	-10455
ତାରୁ	-10456
ତୁମର	-10457
ଦେବେ	-10458
ଫ୍ଟୱ	-10459
ବଣ୍ୟ	-10460
ବସ୍ତ	-10461
ଭଞ୍ଜ	-10462
ମ୍ୱର	-10463
ଲୁକା	-10464
ଳାନା	-10465
ହଜାର	-10466
ିଙ୍କ	-10467
ୀଭୂତ	-10468
େଷ୍ଟ	-10469
୍ରାଜ	-10470
▁1.5	-10471
▁401	-10472
▁CIN	-10473
▁Kal	-10474
▁See	-10475
▁dev	-10476
▁per	-10477
▁vis	-10478
▁ଅଧି	-10479
▁ଆଡେ	-10480
▁ଆଭା	-10481
▁ଆୱା	-10482
▁ଓରଫ	-10483
▁କପଟ	-10484
▁କଫି	-10485
▁କୀଟ	-10486
▁ଖାର	-10487
▁ଗଢ଼	-10488
▁ଜଗି	-10489
▁ଢୋଲ	-10490
▁ନଇେ	-10491
▁ନଟନ	-10492
▁ନର୍	-10493
▁ପଦକ	-10494
▁ବନି	-10495
▁ବହନ	-10496
▁ବୃହ	-10497
▁ମନଖ	-10498
▁ମମ୍	-10499
▁ଯୋଷ	-10500
▁ଲୋଡ	-10501
▁ଶ୍ୱ	-10502
▁ସଂଚ	-10503
▁ସଦର	-10504
▁ହୁଁ	-10505
▁ୟାର	-10506
▁୧୫୦	-10507
▁୬ଟା	-10508
74899	-10509
apati	-10510
ledge	-10511
ଆନ୍ତେ	-10512
ଆମ୍ଭେ	-10513
କେଦାର	-10514
ଛିନ୍ନ	-10515
ଜାତୀୟ	-10516
ଡ଼ିଛି	-10517
ତୁମ୍ଭ	-10518
ନ୍ସରେ	-10519
ପାତାଳ	-10520
ବିବାହ	-10521
ବିଯାମ	-10522
ମାଣ୍ଡ	-10523
ମୁଖ୍ୟ	-10524
ସ୍କୃତ	-10525
ାମିଲି	-10526
▁106,	-10527
▁NFHS	-10528
▁back	-10529
▁just	-10530
▁link	-10531
▁part	-10532
▁ଅବହେ	-10533
▁ଆକବର	-10534
▁ଆହ୍ୱ	-10535
▁ଆୟୋଗ	-10536
▁କଥାର	-10537
▁କନ୍ଦ	-10538
▁କରାୟ	-10539
▁ଗଠିତ	-10540
▁ଗୁଜୁ	-10541
▁ଚୀନର	-10542
▁ଛଡ଼ା	-10543
▁ଡେଲି	-10544
▁ତନଖି	-10545
▁ଦଉଛି	-10546
▁ଦବେି	-10547
▁ଦେବତ	-10548
▁ଧନ୍ଯ	-10549
▁ନନେଇ	-10550
▁ନାନୀ	-10551
▁ପାଇଲ	-10552
▁ପିଟି	-10553
▁ପୁଅର	-10554
▁ବକ୍ସ	-10555
▁ବିତର	-10556
▁ବିତୁ	-10557
▁ବିଷଯ	-10558
▁ବୋକା	-10559
▁ଭଣ୍ଡ	-10560
▁ମଧୁର	-10561
▁ମାପି	-10562
▁ମେହ୍	-10563
▁ଯୁଷ୍	-10564
▁ସଚ୍ଚ	-10565
▁ସିଡି	-10566
▁୧୯୯୩	-10567
▁୨୦୧୦	-10568
▁୨୬ରୁ	-10569
/02/20	-10570
107621	-10571
string	-10572
ତାଲିକା	-10573
ଦେଖିଲେ	-10574
ନ୍ତାଣୀ	-10575
ାଯାଉଛି	-10576
ୀର୍ତ୍ତ	-10577
ୀୟମାନେ	-10578
▁15000	-10579
▁Excel	-10580
▁WordP	-10581
▁conte	-10582
▁query	-10583
▁shall	-10584
▁world	-10585
▁ଅତିଥି	-10586
▁ଆଜିଠୁ	-10587
▁ଆପଣାର	-10588
▁ଆସିଲି	-10589
▁ଈଶ୍ଵର	-10590
▁ଉତ୍ତେ	-10591
▁କାନ୍ଧ	-10592
▁କିଶୋର	-10593
▁ଖାଇବି	-10594
▁ଚାଲାଣ	-10595
▁ଟାଇପ୍	-10596
▁ଡଲଫିନ	-10597
▁ଡାଉନ୍	-10598
▁ଦୁଇଜଣ	-10599
▁ନିରୂପ	-10600
▁ନିଷେଧ	-10601
▁ପର୍ବତ	-10602
▁ପ୍ରବଣ	-10603
▁ବଢିଛି	-10604
▁ବଣ୍ଟନ	-10605
▁ବାହ୍ୟ	-10606
▁ବିକ୍ଷ	-10607
▁ମଝିରେ	-10608
▁ମହନ୍ତ	-10609
▁ଯିବାର	-10610
▁ଷ୍ଟାର	-10611
▁ସଞ୍ଚୟ	-10612
▁ସମୁଦି	-10613
▁ସମୟକୁ	-10614
▁ସୈନିକ	-10615
ination	-10616
ownload	-10617
ଙ୍କଠାରେ	-10618
ସିଗାରେଟ	-10619
ାଇଛନ୍ତି	-10620
▁4-12-2	-10621
▁Health	-10622
▁Screen	-10623
▁google	-10624
▁mobile	-10625
▁within	-10626
▁ଅଦୃଶ୍ୟ	-10627
▁ଅନ୍ୟକୁ	-10628
▁ଅଶୁଦ୍ଧ	-10629
▁ଉନ୍ନୟନ	-10630
▁ଘନିଷ୍ଠ	-10631
▁ଜଣଙ୍କର	-10632
▁ଡାକୁଛି	-10633
▁ତୃଣମୂଳ	-10634
▁ଥିବାରୁ	-10635
▁ଦେଖିନି	-10636
▁ଦେଖିବୁ	-10637
▁ନବଲିଖନ	-10638
▁ନ୍ୟୁଜ୍	-10639
▁ପରିଣାମ	-10640
▁ପ୍ୟାକ୍	-10641
▁ବୃଦ୍ଧା	-10642
▁ବୃଷ୍ଟି	-10643
▁ମାତ୍ରେ	-10644
▁ମାମଲାର	-10645
▁ମୁହଁରୁ	-10646
▁ଯାଇଅଛି	-10647
▁ରାଜସ୍ୱ	-10648
▁ରାଲିରେ	-10649
▁ରୂପରେଖ	-10650
▁ଲଗାଇବା	-10651
▁ଲେଖୁଛି	-10652
▁ହସିଦେଇ	-10653
▁Android	-10654
▁windows	-10655
▁ଅରବିନ୍ଦ	-10656
▁ଅର୍ଥାତ୍	-10657
▁କ୍ଷୀରକୁ	-10658
▁କ୍ୟାନସର	-10659
▁ଗାଳ୍ପିକ	-10660
▁ଚାହିଁବେ	-10661
▁ଚେନ୍ନାଇ	-10662
▁ଜାନୁଆରି	-10663
▁ଡିଭାଇସ୍	-10664
▁ଡ୍ୟାନ୍ସ	-10665
▁ଦୁଃସାହସ	-10666
▁ପରିମାଣର	-10667
▁ପିତାଙ୍କ	-10668
▁ବଞ୍ଚିବେ	-10669
▁ବିସ୍ତାର	-10670
▁ବ୍ରିଟିଶ	-10671
▁ମାଆଙ୍କୁ	-10672
▁ଯୋଗୀଙ୍କ	-10673
▁ସଂସ୍କୃତ	-10674
▁ସ୍ବୀକାର	-10675
ସ୍ତୋତ୍ରମ୍	-10676
ାଯାଇପାରିବ	-10677
▁Continue	-10678
▁category	-10679
▁children	-10680
▁ଅଭିଲେଖକୁ	-10681
▁ଅସୁସ୍ଥତା	-10682
▁କାହାନ୍ତି	-10683
▁ଗ୍ରନ୍ଥରେ	-10684
▁ଚିଡିପାନର	-10685
▁ଜଣାପଡିଛି	-10686
▁ନବୀନଙ୍କୁ	-10687
▁ନିରୀକ୍ଷଣ	-10688
▁ପ୍ରକଳ୍ପର	-10689
▁ପ୍ରତିନିଧ	-10690
▁ଫ୍ୟାମିଲି	-10691
▁ବେଳେବେଳେ	-10692
▁ବ୍ୟବସାୟୀ	-10693
▁ମନ୍ଦିରରେ	-10694
▁ସଂରଚନାକୁ	-10695
▁ସନ୍ଦେଶଟି	-10696
▁ୱିଣ୍ଡୋକୁ	-10697
▁କର୍ମୀଙ୍କୁ	-10698
▁କେବେନୁହେଁ	-10699
▁ତକ୍ସ୍ଟମ୍ଭ	-10700
▁ତାପମାତ୍ରା	-10701
▁ଦୁର୍ଭାଗ୍ୟ	-10702
▁ନଟନନାଙ୍କୁ	-10703
▁ବ୍ୟବଧାନରେ	-10704
▁ସଂଲଗ୍ନକକୁ	-10705
▁ସ୍ବତନ୍ତ୍ର	-10706
▁4-12-2000,	-10707
▁ଆମ୍ଭମାନଙ୍କ	-10708
▁ଜାଣିପାରିବେ	-10709
▁ପରିବର୍ତ୍ତେ	-10710
▁ସଂଖ୍ଯାତ୍ମକ	-10711
▁translation	-10712
▁ଆନ୍ତର୍ଜାତିକ	-10713
▁କରୁନାହାନ୍ତି	-10714
▁କର୍ମଚାରୀଙ୍କ	-10715
▁ବିଷୟବସ୍ତୁକୁ	-10716
▁ଭୁବନେଶ୍ୱରରେ	-10717
ପାରଳାଖେମୁଣ୍ଡି	-10718
)—	-10719
46	-10720
84	-10721
Ex	-10722
Fi	-10723
IL	-10724
Th	-10725
ae	-10726
ji	-10727
sg	-10728
sp	-10729
ପଲ	-10730
ୟସ	-10731
୤’	-10732
୨୩	-10733
ୱି	-10734
)="	-10735
6).	-10736
:22	-10737
:24	-10738
:25	-10739
Ama	-10740
log	-10741
oun	-10742
rus	-10743
urn	-10744
।"'	-10745
ଆପେ	-10746
ଇନ୍	-10747
କାପ	-10748
ଛଡା	-10749
ଠୁଁ	-10750
ପରୀ	-10751
ପେଜ	-10752
ଫଳା	-10753
ବିର	-10754
ଭାଲ	-10755
ରୋଜ	-10756
ଲକର	-10757
ଲିଂ	-10758
ହରି	-10759
ୀରଣ	-10760
ୟିବ	-10761
▁"{	-10762
▁1@	-10763
▁75	-10764
▁By	-10765
▁IN	-10766
▁NE	-10767
▁TO	-10768
▁ଏତ	-10769
▁ଗଁ	-10770
▁ଢୋ	-10771
▁ତଟ	-10772
▁ଦଣ	-10773
▁ନଚ	-10774
▁ବଚ	-10775
▁ହତ	-10776
,500	-10777
2228	-10778
abel	-10779
ases	-10780
cent	-10781
help	-10782
mary	-10783
ober	-10784
ogra	-10785
oney	-10786
tain	-10787
untu	-10788
ଅପରା	-10789
ଆକାର	-10790
କାଗଜ	-10791
ଖ୍ଯା	-10792
ଡିଶା	-10793
ଣାରୁ	-10794
ଥିରୁ	-10795
ପଙ୍କ	-10796
ପଦ୍ମ	-10797
ପ୍ଲେ	-10798
ବକ୍ସ	-10799
ବୁଝି	-10800
ବ୍ରତ	-10801
ଭାଷା	-10802
ମାକଂ	-10803
ମେଂଟ	-10804
ଲେମ୍	-10805
ଲେରି	-10806
ଶଙ୍କ	-10807
ଶୋଧନ	-10808
ଶ୍ମୀ	-10809
ଷ୍କା	-10810
ଷ୍ଟ୍	-10811
ସିସ୍	-10812
ସେଚନ	-10813
ସେହି	-10814
ାତନା	-10815
ିକ୍ସ	-10816
ୃଦ୍ଧ	-10817
େଇବେ	-10818
ୟରିଂ	-10819
▁(20	-10820
▁134	-10821
▁135	-10822
▁Ass	-10823
▁NKC	-10824
▁Rec	-10825
▁exp	-10826
▁int	-10827
▁pie	-10828
▁ser	-10829
▁tom	-10830
▁ଅମର	-10831
▁ଅଶୋ	-10832
▁ଆସନ	-10833
▁ଆହ୍	-10834
▁ଏଇଆ	-10835
▁ଏଲି	-10836
▁କଟେ	-10837
▁କମୁ	-10838
▁କାଚ	-10839
▁ଘୋର	-10840
▁ଠାବ	-10841
▁ପମ୍	-10842
▁ପୋଖ	-10843
▁ପ୍ଲ	-10844
▁ବଗି	-10845
▁ଭରି	-10846
▁ଭଲପ	-10847
▁ଭୂଲ	-10848
▁ମଟର	-10849
▁ମର୍	-10850
▁ମୁଥ	-10851
▁ମୁର	-10852
▁ଲଭ୍	-10853
▁ଶତା	-10854
▁୯ଟି	-10855
lease	-10856
ption	-10857
rough	-10858
ଉଥିବା	-10859
ଞ୍ଜିତ	-10860
ତାରିଖ	-10861
ପିଏଲ୍	-10862
ମୁହିଁ	-10863
ରୁଦ୍ର	-10864
ସେକ୍ସ	-10865
ାନନ୍ଦ	-10866
▁Card	-10867
▁Love	-10868
▁Marc	-10869
▁Must	-10870
▁book	-10871
▁hope	-10872
▁sign	-10873
▁term	-10874
▁thou	-10875
▁ଅଡିଓ	-10876
▁ଅବଗତ	-10877
▁ଆଙ୍କ	-10878
▁ଆଧ୍ୟ	-10879
▁ଇଂଟର	-10880
▁ଉଡ଼ି	-10881
▁କାରା	-10882
▁କୋମଳ	-10883
▁ଖାସ୍	-10884
▁ଗଙ୍ଗ	-10885
▁ଗତିକ	-10886
▁ଗୁଣା	-10887
▁ଗ୍ଲୋ	-10888
▁ଘାତକ	-10889
▁ଚାଲେ	-10890
▁ଛିଡା	-10891
▁ଜୀବା	-10892
▁ଦାସୀ	-10893
▁ପାଖେ	-10894
▁ପାଠକ	-10895
▁ପାଢୀ	-10896
▁ପାନେ	-10897
▁ପିଠି	-10898
▁ବଜାୟ	-10899
▁ବଳରେ	-10900
▁ବାଲି	-10901
▁ବିକି	-10902
▁ବିରି	-10903
▁ବୁକ୍	-10904
▁ଭାଉଜ	-10905
▁ମଉସା	-10906
▁ମାଡି	-10907
▁ରଦ୍ଦ	-10908
▁ଷ୍ଟୋ	-10909
▁ହାରା	-10910
▁ହେମୋ	-10911
▁୧୦ରୁ	-10912
▁୧୯୮୩	-10913
▁୨୦୦୩	-10914
cember	-10915
ଗ୍ରାହୀ	-10916
ତିକ୍ରମ	-10917
ମୃତ୍ୟୁ	-10918
ରୁଶାଲମ	-10919
ର୍ଗତମ୍	-10920
ଷ୍ଟବ୍ୟ	-10921
ସ୍ରନାମ	-10922
ସ୍ୱାମୀ	-10923
ାଇଥିଲେ	-10924
ାତ୍ମିକ	-10925
ିତାଙ୍କ	-10926
▁Opera	-10927
▁State	-10928
▁bride	-10929
▁would	-10930
▁ଅଭିଭା	-10931
▁ଉପଦେଶ	-10932
▁କମିଟି	-10933
▁ଗୁଞ୍ଜ	-10934
▁ଗ୍ୟାସ	-10935
▁ଘୋଡ଼ା	-10936
▁ଜଡ଼ିତ	-10937
▁ତୀର୍ଥ	-10938
▁ଦୁଃଖୀ	-10939
▁ନନ୍ଦନ	-10940
▁ପଟିକୁ	-10941
▁ପିତାମ	-10942
▁ପ୍ରଜା	-10943
▁ଫ୍ଲାଟ	-10944
▁ମୁହାଁ	-10945
▁ମେକାପ	-10946
▁ଶାରଳା	-10947
▁ଶିଷ୍ୟ	-10948
▁ସନ୍ନି	-10949
▁ସମବାୟ	-10950
▁ସିରିଜ	-10951
▁ସୂତାର	-10952
▁ହେଲିକ	-10953
1582228	-10954
ବେଦନଶୀଳ	-10955
ସିଂହପୁର	-10956
ାମୁତାବକ	-10957
▁Artist	-10958
▁Emotic	-10959
▁behavi	-10960
▁string	-10961
▁ଅବହେଳା	-10962
▁ଆଫଗାନି	-10963
▁ଆଲୋଚିତ	-10964
▁ଉପଯୋଗୀ	-10965
▁ଏବେକାର	-10966
▁କାର୍ଡ଼	-10967
▁କୁସୁମୀ	-10968
▁ଖୋଜିବା	-10969
▁ଛୁଇଁଛି	-10970
▁ଜଣଙ୍କୁ	-10971
▁ଜଳସେଚନ	-10972
▁ଜାଗାରେ	-10973
▁ଟୋକାଟା	-10974
▁ଟ୍ୱିଟ୍	-10975
▁ଡାଟାବେ	-10976
▁ତୁମ୍ଲଭ	-10977
▁ଦିଆଯାଇ	-10978
▁ଦୀପିକା	-10979
▁ପରିଶୋଧ	-10980
▁ପିଟାଲ୍	-10981
▁ପୂର୍ବକ	-10982
▁ବାହାରୁ	-10983
▁ବିତୁଛି	-10984
▁ବୁଢୀକୁ	-10985
▁ବୃତ୍ତି	-10986
▁ବ୍ୟାଟେ	-10987
▁ଭାଷାକୁ	-10988
▁ମହାନଦୀ	-10989
▁ରଣନୀତି	-10990
▁ରସଗୋଲା	-10991
▁ଶୁଣିଲା	-10992
▁ଶୈଳୀରେ	-10993
▁ସତ୍ତ୍ୱ	-10994
▁ସମଷ୍ଟି	-10995
▁ସମାଜରେ	-10996
▁ସମ୍ରାଟ	-10997
▁ସସ୍ମିତ	-10998
▁ସାକ୍ଷୀ	-10999
▁ସ୍ୱଭାବ	-11000
▁ହୃଦୟରେ	-11001
Security	-11002
ପ୍ରଦର୍ଶନ	-11003
▁Talking	-11004
▁account	-11005
▁ଅକ୍ଷମତା	-11006
▁ଅନୁଭୂତି	-11007
▁ଆଜିଠାରୁ	-11008
▁କରିଦେଲା	-11009
▁ଟ୍ରାନ୍ସ	-11010
▁ଦୁଃଶାସନ	-11011
▁ଦେଇଥିବା	-11012
▁ଦେଇଥିଲା	-11013
▁ବ୍ରହ୍ମା	-11014
▁ମଞ୍ଚାରେ	-11015
▁ମୂଲ୍ୟକୁ	-11016
▁ଯନ୍ତ୍ରଣ	-11017
▁ଯବାନଙ୍କ	-11018
▁ରଖିଥିଲେ	-11019
▁ସମକାଳିତ	-11020
▁ସରକାରକୁ	-11021
▁ସହିଦୁଲା	-11022
▁ସ୍ଥାନଟି	-11023
oundation	-11024
subhransu	-11025
velopment	-11026
ଏହାଦ୍ୱାରା	-11027
ନାହାଁନ୍ତି	-11028
ନ୍ତର୍ଗତମ୍	-11029
▁examples	-11030
▁ଅସ୍ୱୀକାର	-11031
▁ଉପସ୍ଥାପନ	-11032
▁ଏମାନଙ୍କର	-11033
▁କ୍ଲାଏଣ୍ଟ	-11034
▁ଚର୍ଚ୍ଚିତ	-11035
▁ପରିଦର୍ଶନ	-11036
▁ପରିବର୍ତନ	-11037
▁ପାଉଛନ୍ତି	-11038
▁ପ୍ରତିଶୋଧ	-11039
▁ପ୍ରମାଣିତ	-11040
▁ବାବୁଙ୍କୁ	-11041
▁ମୋବାଇଲରେ	-11042
▁ରଖାଯାଇଛି	-11043
▁ସେଗୁଡ଼ିକ	-11044
ସେପ୍ଟେମ୍ବର	-11045
▁Emoticons	-11046
▁Institute	-11047
▁ଅଧିବେଶନରେ	-11048
▁ଏତିକିବେଳେ	-11049
▁କମ୍ପ୍ୟୁଟର	-11050
▁ପତ୍ନୀଙ୍କୁ	-11051
▁ପାରମ୍ପରିକ	-11052
▁ପାରୁନଥିବା	-11053
▁ମହାରାଜଙ୍କ	-11054
▁ସାଆନ୍ତାଣୀ	-11055
▁ସ୍ୱାଧୀନତା	-11056
glazegalway	-11057
▁Management	-11058
▁resolution	-11059
▁ଖୋଲିପାରିବେ	-11060
▁ଗୁଞ୍ଜିବାକୁ	-11061
▁ଗ୍ରାହକଙ୍କୁ	-11062
▁ଦିଆଯାଇଥିଲା	-11063
▁ପୁନରୁଦ୍ଧାର	-11064
▁ବ୍ୟକ୍ତିତ୍ବ	-11065
▁ସିଝାଉଛନ୍ତି	-11066
▁ଆନ୍ତର୍ଜାତୀୟ	-11067
▁ଉପକରଣଗୁଡ଼ିକ	-11068
▁ଦୃଷ୍ଟିଶକ୍ତି	-11069
▁ନିଶ୍ଚିତରୂପେ	-11070
▁ବିକଳ୍ପଗୁଡିକ	-11071
▁ଯେପର୍ଯ୍ୟନ୍ତ	-11072
▁ShortDayName	-11073
▁+91-11-41582228	-11074
++	-11075
4)	-11076
;%	-11077
=0	-11078
FE	-11079
HP	-11080
JK	-11081
LL	-11082
Of	-11083
UI	-11084
iC	-11085
ib	-11086
ks	-11087
ଛେ	-11088
ଦମ	-11089
ଯଂ	-11090
ଲଲ	-11091
ଶତ	-11092
ଶମ	-11093
ୀବ	-11094
୫୭	-11095
୮୯	-11096
”!	-11097
,82	-11098
100	-11099
:00	-11100
Aga	-11101
ERT	-11102
dot	-11103
oha	-11104
ply	-11105
ref	-11106
uru	-11107
ଆଇନ	-11108
ଆଲ୍	-11109
ଏଜ୍	-11110
କଳକ	-11111
ଖବର	-11112
ଖାନ	-11113
ଖାେ	-11114
ଖୋଜ	-11115
ଣକି	-11116
ଦରେ	-11117
ଦାମ	-11118
ଦେଵ	-11119
ନିସ	-11120
ବଳି	-11121
ମିଓ	-11122
ମୟୀ	-11123
ରଣୀ	-11124
ରାଗ	-11125
ଲ୍ସ	-11126
ସାତ	-11127
ହାଜ	-11128
ାସୁ	-11129
ୋଜେ	-11130
୍ୟଂ	-11131
ୱାନ	-11132
▁''	-11133
▁fe	-11134
▁pe	-11135
▁pm	-11136
▁।।	-11137
▁ଅଵ	-11138
▁ଉଚ	-11139
▁ଘୂ	-11140
▁ଛୋ	-11141
▁ଠେ	-11142
▁ଫର	-11143
▁ବଣ	-11144
▁୦୦	-11145
▁୦୫	-11146
▁୪୪	-11147
▁୯୬	-11148
,,,,	-11149
,82%	-11150
AgaN	-11151
face	-11152
fied	-11153
ille	-11154
ling	-11155
rame	-11156
rate	-11157
rigi	-11158
type	-11159
ular	-11160
yper	-11161
ଗଡ଼ା	-11162
ଙ୍କନ	-11163
ଚକ୍ର	-11164
ଚରକୁ	-11165
ଡାମ୍	-11166
ଦେବି	-11167
ନବମା	-11168
ପରମେ	-11169
ଭାତୀ	-11170
ଭୂଷଣ	-11171
ମାତା	-11172
ମୁରେ	-11173
ଯିହୂ	-11174
ଲାସା	-11175
ଳେବର	-11176
ଶୁଣା	-11177
ସାରା	-11178
ହସ୍ତ	-11179
୧୯୧୪	-11180
୧୯୬୫	-11181
୧୯୭୩	-11182
୧୯୯୬	-11183
୨୦୦୫	-11184
୨୦୦୯	-11185
ୱାନ୍	-11186
┈┈┈┈	-11187
▁120	-11188
▁250	-11189
▁Are	-11190
▁Bha	-11191
▁Bot	-11192
▁CJK	-11193
▁Can	-11194
▁Gra	-11195
▁Not	-11196
▁Shi	-11197
▁bel	-11198
▁bro	-11199
▁cle	-11200
▁cra	-11201
▁dat	-11202
▁deb	-11203
▁dif	-11204
▁mah	-11205
▁pic	-11206
▁।"-	-11207
▁ଅବର	-11208
▁ଅବଲ	-11209
▁ଆନୁ	-11210
▁ଆବା	-11211
▁ଉଠେ	-11212
▁ଉନ୍	-11213
▁କଛା	-11214
▁କଟୁ	-11215
▁କଲମ	-11216
▁କୋଠ	-11217
▁ଗଂଜ	-11218
▁ଟୋଗ	-11219
▁ତଦା	-11220
▁ଦଳେ	-11221
▁ନଈର	-11222
▁ନିଏ	-11223
▁ପିଅ	-11224
▁ବନା	-11225
▁ମନ୍	-11226
▁ଯାକ	-11227
▁ରସୁ	-11228
▁ଷଡ଼	-11229
▁ସୋନ	-11230
▁ହନି	-11231
▁ହୀନ	-11232
Amast	-11233
aving	-11234
ernal	-11235
ffect	-11236
inese	-11237
sahas	-11238
thing	-11239
tings	-11240
ଏମିତି	-11241
ଗଣପତି	-11242
ଗନ୍ଧା	-11243
ଗାଡ଼ି	-11244
ଞ୍ଜଳି	-11245
ଧାରରେ	-11246
ବନ୍ୟା	-11247
ମସ୍ତା	-11248
ଲଙ୍କା	-11249
ଲ୍ଲୋଳ	-11250
ଶିତିକ	-11251
ଶିଳ୍ପ	-11252
ସାଂସଦ	-11253
ୟାମଲା	-11254
▁2000	-11255
▁7:30	-11256
▁Form	-11257
▁Koha	-11258
▁Song	-11259
▁full	-11260
▁mind	-11261
▁pack	-11262
▁pass	-11263
▁rest	-11264
▁ଅମ୍ଳ	-11265
▁ଅଶୋକ	-11266
▁ଆଗମନ	-11267
▁ଆଦାର	-11268
▁ଆସିଛ	-11269
▁ଏଣ୍ଟ	-11270
▁କଙ୍ଗ	-11271
▁କଣ୍ଟ	-11272
▁କହୁଁ	-11273
▁କାମା	-11274
▁କିସମ	-11275
▁ଖର୍ଚ	-11276
▁ଘେନି	-11277
▁ଜଳରେ	-11278
▁ଜିମ୍	-11279
▁ଜୋତା	-11280
▁ଜ୍ୟା	-11281
▁ଦଳକୁ	-11282
▁ଦିବା	-11283
▁ଧୂଳି	-11284
▁ନିଷି	-11285
▁ପୋଡି	-11286
▁ଫିକା	-11287
▁ଫେରୁ	-11288
▁ଫେଲ୍	-11289
▁ବତ୍ସ	-11290
▁ବାଦ୍	-11291
▁ବୋତଲ	-11292
▁ଭୋଟର	-11293
▁ମାଇଲ	-11294
▁ଯଦିଓ	-11295
▁ଲଗେଇ	-11296
▁ଶାସକ	-11297
▁ସୁସଂ	-11298
▁୧୯୯୮	-11299
▁ୱେବ୍	-11300
dition	-11301
scribe	-11302
ଉଦାହରଣ	-11303
କଥାଟିଏ	-11304
ପ୍ରଥମେ	-11305
ମିଡ଼ିଆ	-11306
ଶୀର୍ଷକ	-11307
ସାରିବା	-11308
ସେମାନେ	-11309
ସ୍ତାନୀ	-11310
ସ୍ପର୍ଶ	-11311
ାଇଁଟାଲ	-11312
ାନାହିଁ	-11313
େଇବାକୁ	-11314
▁KChar	-11315
▁Linux	-11316
▁North	-11317
▁banda	-11318
▁saver	-11319
▁units	-11320
▁ଅଧମତା	-11321
▁ଆଡ଼କୁ	-11322
▁କହିବୁ	-11323
▁କାବ୍ୟ	-11324
▁କୁଣ୍ଡ	-11325
▁କ୍ରମା	-11326
▁ଗଙ୍ଗା	-11327
▁ଜମ୍ମୁ	-11328
▁ଜାତିର	-11329
▁ଡାଇରେ	-11330
▁ତଥ୍ୟା	-11331
▁ଦମଦାର	-11332
▁ଦିନିଆ	-11333
▁ଦେଖାଅ	-11334
▁ନିଖୋଜ	-11335
▁ନିତ୍ୟ	-11336
▁ପୋର୍ଟ	-11337
▁ବଢ଼ିବ	-11338
▁ବନ୍ଧନ	-11339
▁ବେଗରେ	-11340
▁ଭୂଗୋଳ	-11341
▁ଭେଙ୍କ	-11342
▁ମଣ୍ଡି	-11343
▁ମରିବା	-11344
▁ମହତ୍ୱ	-11345
▁ଯୁଗରେ	-11346
▁ରଖିବେ	-11347
▁ରୋହିତ	-11348
▁ଲଢିବେ	-11349
▁ଲାଞ୍ଚ	-11350
▁ଲୋପେଜ	-11351
▁ଶୂନ୍ଯ	-11352
▁ଷ୍ଟାଇ	-11353
▁ସଫ୍ଟୱ	-11354
▁ସରିଲା	-11355
▁ସୀମିତ	-11356
▁ସୂଚିତ	-11357
▁ହାତରୁ	-11358
xternal	-11359
ଗଣପତିସହ	-11360
ଞ୍ଜିଗଡ଼	-11361
ପରୀକ୍ଷା	-11362
ପର୍ଣ୍ଣା	-11363
ପ୍ରଭାତୀ	-11364
ପ୍ରାନ୍ତ	-11365
୍ରାଞ୍ଚଳ	-11366
▁10,000	-11367
▁1996).	-11368
▁63,82%	-11369
▁months	-11370
▁ଆଛାକରି	-11371
▁ଆପତ୍ତି	-11372
▁ଉତ୍ତରା	-11373
▁ଉପାସନା	-11374
▁ଓଡିଶାର	-11375
▁କହୁଥାଏ	-11376
▁କୁକୁଡା	-11377
▁ଗୁଜରାଟ	-11378
▁ଜୀବିକା	-11379
▁ଡ୍ରାଇଭ	-11380
▁ଦାସଙ୍କ	-11381
▁ନବୀକରଣ	-11382
▁ନାମପଟି	-11383
▁ପଢ଼ିବା	-11384
▁ପ୍ରାଚଳ	-11385
▁ଫେରାଇବ	-11386
▁ଫେରିଲା	-11387
▁ଫ୍ଲୁଡ୍	-11388
▁ବାହିନୀ	-11389
▁ବିକଶିତ	-11390
▁ବିକ୍ରମ	-11391
▁ବିଭକ୍ତ	-11392
▁ମାରିଲେ	-11393
▁ମାର୍କେ	-11394
▁ମିଳୁନି	-11395
▁ରହିବାର	-11396
▁ରାତ୍ରି	-11397
▁ସଙ୍କଳକ	-11398
▁ସଞ୍ଚୟନ	-11399
▁ସନ୍ଧ୍ୟ	-11400
▁ସାଂସ୍କ	-11401
▁ସୂଚକକୁ	-11402
▁ହେଉଅଛି	-11403
language	-11404
ranAmast	-11405
ଅପରାହ୍ନର	-11406
କଳକଲ୍ଲୋଳ	-11407
ନବମାଳିକା	-11408
ଶିତିକଣ୍ଠ	-11409
▁January	-11410
▁October	-11411
▁mahAgaN	-11412
▁ଅନ୍ୟତ୍ର	-11413
▁ଅସମ୍ମାନ	-11414
▁କରିଥୁଲେ	-11415
▁କହିନାହଁ	-11416
▁କ୍ରୀଡ଼ା	-11417
▁ଖାଦ୍ୟରେ	-11418
▁ଟ୍ୟାବକୁ	-11419
▁ଡାହାଣକୁ	-11420
▁ତ୍ରିଫଳା	-11421
▁ଦୁନିଆରେ	-11422
▁ଦ୍ଵିତୀୟ	-11423
▁ପଏଣ୍ଟରେ	-11424
▁ପାଉଥିଲେ	-11425
▁ପାରିବାର	-11426
▁ପାହାଡ଼ୀ	-11427
▁ପିଇବାକୁ	-11428
▁ପୁଲୱାମା	-11429
▁ଫେସବୁକ୍	-11430
▁ଫ୍ରେଞ୍ଚ	-11431
▁ବଞ୍ଚିବା	-11432
▁ଭାବନ୍ତି	-11433
▁ସଂଳାପରେ	-11434
▁ହସ୍ପିଟା	-11435
▁ଅତ୍ୟାଚାର	-11436
▁ଆବିଷ୍କାର	-11437
▁ଏକାଧାରରେ	-11438
▁କୋହଲିଙ୍କ	-11439
▁ଚାଲୁଥିବା	-11440
▁ଡିଜିଟାଲ୍	-11441
▁ଦାଶଡକ୍ଟର	-11442
▁ଦେଇପାରିବ	-11443
▁ପୁସ୍ତକରେ	-11444
▁ପ୍ରଶାସନର	-11445
▁ବଞ୍ଚେଇବା	-11446
▁ବିଶ୍ୱସ୍ତ	-11447
▁ବେସରକାରୀ	-11448
▁ବ୍ୟାଖ୍ୟା	-11449
▁ମାଧ୍ଯମରେ	-11450
▁ମାରାତ୍ମକ	-11451
▁ରାଜନୀତିର	-11452
▁ଶୀର୍ଷକକୁ	-11453
▁ସେନସେକ୍ସ	-11454
▁ସ୍ଥିତିକୁ	-11455
▁ସ୍ୱଚ୍ଛତା	-11456
▁ହୁଏନାହିଁ	-11457
apatisahas	-11458
ଛିନ୍ନମସ୍ତା	-11459
ରୁଦ୍ରୟାମଲା	-11460
▁education	-11461
▁ଅଶ୍ୱଗନ୍ଧା	-11462
▁କେନ୍ଦ୍ରରେ	-11463
▁ଚିନାବାଦାମ	-11464
▁ନିଶ୍ଚେଷ୍ଟ	-11465
▁ପୋଟାଇଁଟାଲ	-11466
▁ବିଚ୍ଛିନ୍ନ	-11467
▁ବୟଫ୍ରେଣ୍ଡ	-11468
▁ସାହାର୍ଯ୍ୟ	-11469
▁ଆଧ୍ୟାତ୍ମିକ	-11470
▁କେଉଁମାନଙ୍କ	-11471
▁ଗଣଦୁଷ୍କର୍ମ	-11472
▁ଦୁର୍ଘଟଣାରେ	-11473
▁ପିନ୍ଧିବାକୁ	-11474
▁ବର୍ତ୍ତମାନର	-11475
▁ମହାଗଣପତିସହ	-11476
▁ଶିକ୍ଷାର୍ଥୀ	-11477
ranAmastotra	-11478
▁ପିଲାମାନଙ୍କୁ	-11479
▁ପୃଷ୍ଠାଗୁଡିକ	-11480
▁ବସ୍ତ୍ରାଞ୍ଚଳ	-11481
▁କ୍ଲିପବୋର୍ଡରେ	-11482
▁ଚେଷ୍ଟାକରନ୍ତୁ	-11483
▁ବିକଳ୍ପଗୁଡ଼ିକ	-11484
▁ସମ୍ପୂର୍ଣ୍ଣତା	-11485
▁ଅପରିବର୍ତ୍ତନୀୟ	-11486
▁ବସ୍ତ୍ରପ୍ରାନ୍ତ	-11487
▁ଭର୍ତ୍ତିକରନ୍ତୁ	-11488
ସ୍ରନାମସ୍ତୋତ୍ରମ୍	-11489
▁ଛାତ୍ରଛାତ୍ରୀଙ୍କୁ	-11490
EC	-11491
US	-11492
YA	-11493
po	-11494
ଂତ	-11495
ଝର	-11496
ଟୀ	-11497
ଧେ	-11498
ନୂ	-11499
ଭଲ	-11500
ଲଂ	-11501
ଲଚ	-11502
୪୯	-11503
▁$	-11504
▁~	-11505
021	-11506
:31	-11507
:46	-11508
ART	-11509
CKS	-11510
DVD	-11511
IME	-11512
ING	-11513
Ori	-11514
att	-11515
ced	-11516
ety	-11517
hah	-11518
icy	-11519
nth	-11520
ogn	-11521
ris	-11522
val	-11523
କକ୍	-11524
ଠାକ	-11525
ଠାେ	-11526
ଦିବ	-11527
ବଦଳ	-11528
ଭଜା	-11529
ଭରା	-11530
ରିତ	-11531
ରିଫ	-11532
ଲବେ	-11533
ଲ୍ପ	-11534
ସାମ	-11535
ସିପ	-11536
ସିସ	-11537
▁	-11538
ା	-11539
ି	-11540
୍	-11541
ର	-11542
କ	-11543
େ	-11544
ତ	-11545
ନ	-11546
ବ	-11547
ୁ	-11548
ହ	-11549
ସ	-11550
ମ	-11551
ପ	-11552
ଲ	-11553
ଦ	-11554
e	-11555
ଏ	-11556
ୟ	-11557
.	-11558
t	-11559
ଣ	-11560
ୋ	-11561
i	-11562
ଇ	-11563
ଆ	-11564
ଟ	-11565
o	-11566
ଛ	-11567
ଗ	-11568
a	-11569
।	-11570
ଥ	-11571
ଁ	-11572
ଯ	-11573
s	-11574
ଙ	-11575
ୀ	-11576
ଶ	-11577
ଜ	-11578
m	-11579
n	-11580
ଚ	-11581
‹	-11582
ଡ	-11583
ଅ	-11584
,	-11585
ଭ	-11586
1	-11587
ଷ	-11588
ଳ	-11589
r	-11590
ଧ	-11591
u	-11592
?	-11593
ଉ	-11594
!	-11595
l	-11596
c	-11597
ଖ	-11598
h	-11599
y	-11600
-	-11601
w	-11602
d	-11603
ଂ	-11604
S	-11605
ୂ	-11606
♪	-11607
:	-11608
ଠ	-11609
ଫ	-11610
଼	-11611
I	-11612
C	-11613
)	-11614
(	-11615
g	-11616
ୱ	-11617
ଓ	-11618
ଘ	-11619
f	-11620
୧	-11621
0	-11622
ୃ	-11623
p	-11624
N	-11625
’	-11626
ଞ	-11627
୦	-11628
G	-11629
2	-11630
"	-11631
4	-11632
k	-11633
B	-11634
A	-11635
“	-11636
”	-11637
b	-11638
ଢ	-11639
9	-11640
3	-11641
v	-11642
T	-11643
ଃ	-11644
୨	-11645
_	-11646
'	-11647
@	-11648
5	-11649
7	-11650
E	-11651
6	-11652
D	-11653
%	-11654
R	-11655
୯	-11656
୫	-11657
O	-11658
/	-11659
M	-11660
୩	-11661
P	-11662
8	-11663
ẹ	-11664
L	-11665
୮	-11666
ୌ	-11667
W	-11668
୪	-11669
ଵ	-11670
‘	-11671
F	-11672
]	-11673
K	-11674
;	-11675
[	-11676
୬	-11677
ଈ	-11678
H	-11679
୭	-11680
ୈ	-11681
x	-11682
–	-11683
ଝ	-11684
Z	-11685
X	-11686
U	-11687
J	-11688
V	-11689
\	-11690
û	-11691
ò	-11692
॰	-11693
&	-11694
Y	-11695
‍	-11696
÷	-11697
ଋ	-11698
୤	-11699
=	-11700
Q	-11701
`	-11702
—	-11703
j	-11704
þ	-11705
á	-11706
🙏	-11707
ù	-11708
ú	-11709
#	-11710
{	-11711
↑	-11712
}	-11713
z	-11714
q	-11715
œ	-11716
ሳ	-11717
+	-11718
*	-11719
ଔ	-11720
←	-11721
┈	-11722
ā	-11723
~	-11724
║	-11725
»	-11726
•	-11727
ଐ	-11728
₹	-11729
©	-11730
᭫	-11731
ō	-11732
·	-11733
ē	-11734
$	-11735
♡	-11736
ਾ	-11737
ຨ	-11738
ଊ	-11739
ī	-11740
