<unk>	0
<s>	0
</s>	0
<0x00>	0
<0x01>	0
<0x02>	0
<0x03>	0
<0x04>	0
<0x05>	0
<0x06>	0
<0x07>	0
<0x08>	0
<0x09>	0
<0x0A>	0
<0x0B>	0
<0x0C>	0
<0x0D>	0
<0x0E>	0
<0x0F>	0
<0x10>	0
<0x11>	0
<0x12>	0
<0x13>	0
<0x14>	0
<0x15>	0
<0x16>	0
<0x17>	0
<0x18>	0
<0x19>	0
<0x1A>	0
<0x1B>	0
<0x1C>	0
<0x1D>	0
<0x1E>	0
<0x1F>	0
<0x20>	0
<0x21>	0
<0x22>	0
<0x23>	0
<0x24>	0
<0x25>	0
<0x26>	0
<0x27>	0
<0x28>	0
<0x29>	0
<0x2A>	0
<0x2B>	0
<0x2C>	0
<0x2D>	0
<0x2E>	0
<0x2F>	0
<0x30>	0
<0x31>	0
<0x32>	0
<0x33>	0
<0x34>	0
<0x35>	0
<0x36>	0
<0x37>	0
<0x38>	0
<0x39>	0
<0x3A>	0
<0x3B>	0
<0x3C>	0
<0x3D>	0
<0x3E>	0
<0x3F>	0
<0x40>	0
<0x41>	0
<0x42>	0
<0x43>	0
<0x44>	0
<0x45>	0
<0x46>	0
<0x47>	0
<0x48>	0
<0x49>	0
<0x4A>	0
<0x4B>	0
<0x4C>	0
<0x4D>	0
<0x4E>	0
<0x4F>	0
<0x50>	0
<0x51>	0
<0x52>	0
<0x53>	0
<0x54>	0
<0x55>	0
<0x56>	0
<0x57>	0
<0x58>	0
<0x59>	0
<0x5A>	0
<0x5B>	0
<0x5C>	0
<0x5D>	0
<0x5E>	0
<0x5F>	0
<0x60>	0
<0x61>	0
<0x62>	0
<0x63>	0
<0x64>	0
<0x65>	0
<0x66>	0
<0x67>	0
<0x68>	0
<0x69>	0
<0x6A>	0
<0x6B>	0
<0x6C>	0
<0x6D>	0
<0x6E>	0
<0x6F>	0
<0x70>	0
<0x71>	0
<0x72>	0
<0x73>	0
<0x74>	0
<0x75>	0
<0x76>	0
<0x77>	0
<0x78>	0
<0x79>	0
<0x7A>	0
<0x7B>	0
<0x7C>	0
<0x7D>	0
<0x7E>	0
<0x7F>	0
<0x80>	0
<0x81>	0
<0x82>	0
<0x83>	0
<0x84>	0
<0x85>	0
<0x86>	0
<0x87>	0
<0x88>	0
<0x89>	0
<0x8A>	0
<0x8B>	0
<0x8C>	0
<0x8D>	0
<0x8E>	0
<0x8F>	0
<0x90>	0
<0x91>	0
<0x92>	0
<0x93>	0
<0x94>	0
<0x95>	0
<0x96>	0
<0x97>	0
<0x98>	0
<0x99>	0
<0x9A>	0
<0x9B>	0
<0x9C>	0
<0x9D>	0
<0x9E>	0
<0x9F>	0
<0xA0>	0
<0xA1>	0
<0xA2>	0
<0xA3>	0
<0xA4>	0
<0xA5>	0
<0xA6>	0
<0xA7>	0
<0xA8>	0
<0xA9>	0
<0xAA>	0
<0xAB>	0
<0xAC>	0
<0xAD>	0
<0xAE>	0
<0xAF>	0
<0xB0>	0
<0xB1>	0
<0xB2>	0
<0xB3>	0
<0xB4>	0
<0xB5>	0
<0xB6>	0
<0xB7>	0
<0xB8>	0
<0xB9>	0
<0xBA>	0
<0xBB>	0
<0xBC>	0
<0xBD>	0
<0xBE>	0
<0xBF>	0
<0xC0>	0
<0xC1>	0
<0xC2>	0
<0xC3>	0
<0xC4>	0
<0xC5>	0
<0xC6>	0
<0xC7>	0
<0xC8>	0
<0xC9>	0
<0xCA>	0
<0xCB>	0
<0xCC>	0
<0xCD>	0
<0xCE>	0
<0xCF>	0
<0xD0>	0
<0xD1>	0
<0xD2>	0
<0xD3>	0
<0xD4>	0
<0xD5>	0
<0xD6>	0
<0xD7>	0
<0xD8>	0
<0xD9>	0
<0xDA>	0
<0xDB>	0
<0xDC>	0
<0xDD>	0
<0xDE>	0
<0xDF>	0
<0xE0>	0
<0xE1>	0
<0xE2>	0
<0xE3>	0
<0xE4>	0
<0xE5>	0
<0xE6>	0
<0xE7>	0
<0xE8>	0
<0xE9>	0
<0xEA>	0
<0xEB>	0
<0xEC>	0
<0xED>	0
<0xEE>	0
<0xEF>	0
<0xF0>	0
<0xF1>	0
<0xF2>	0
<0xF3>	0
<0xF4>	0
<0xF5>	0
<0xF6>	0
<0xF7>	0
<0xF8>	0
<0xF9>	0
<0xFA>	0
<0xFB>	0
<0xFC>	0
<0xFD>	0
<0xFE>	0
<0xFF>	0
▁କ	-0
▁ପ	-1
▁ସ	-2
୍ତ	-3
▁ବ	-4
ରେ	-5
▁ମ	-6
ହି	-7
ାର	-8
▁ଏ	-9
ନ୍ତ	-10
▁ଆ	-11
୍ର	-12
ଙ୍	-13
▁ହ	-14
▁ନ	-15
୍ୟ	-16
▁‹	-17
କୁ	-18
ିବ	-19
▁ତ	-20
▁କର	-21
▁ଦ	-22
▁ଅ	-23
ଲା	-24
ାଇ	-25
ଲେ	-26
▁କି	-27
▁।	-28
ର୍	-29
ାନ	-30
ଙ୍କ	-31
ଛି	-32
▁ସେ	-33
▁ଯ	-34
ହା	-35
ନ୍ତୁ	-36
ିକ	-37
▁1	-38
▁ର	-39
▁!	-40
▁ହେ	-41
▁ବି	-42
▁ଭ	-43
▁ଚ	-44
ିବା	-45
▁କହି	-46
ମ୍	-47
ିତ	-48
ବେ	-49
st	-50
▁ଗ	-51
▁ପ୍ର	-52
ାହି	-53
ନ୍ତି	-54
ିନ	-55
▁ଜ	-56
ାହିଁ	-57
ti	-58
ଥି	-59
ାତ	-60
ାମ	-61
▁କେ	-62
▁ଶ	-63
▁ତା	-64
ଥା	-65
ଲି	-66
▁m	-67
ଟି	-68
କ୍	-69
ye	-70
▁ଉ	-71
ଡ଼	-72
▁ପାଇ	-73
ରି	-74
▁?	-75
▁(	-76
ବା	-77
ସ୍	-78
ରୁ	-79
ନ୍	-80
ମାନ	-81
in	-82
▁ଦେ	-83
▁କରି	-84
ଲୋ	-85
▁I	-86
▁ଓ	-87
on	-88
ଙ୍କୁ	-89
▁କହିଲେ	-90
me	-91
୍ୱ	-92
..	-93
▁କିନ୍ତୁ	-94
ଣ୍	-95
ନା	-96
ଷ୍	-97
ସି	-98
▁ମୁ	-99
▁ବା	-100
▁ନାହିଁ	-101
▁ନି	-102
▁ଫ	-103
ାରେ	-104
▁ଘ	-105
▁ଏହା	-106
▁ଏହି	-107
▁ପାଇଁ	-108
ୋଇ	-109
ଞ୍	-110
ଛନ୍ତି	-111
le	-112
୍ୟା	-113
▁h	-114
ଡି	-115
ହାର	-116
▁ମୋ	-117
ତେ	-118
▁ହେଲା	-119
ra	-120
▁“	-121
♪♪	-122
▁ଖ	-123
▁ପା	-124
▁ହୋଇ	-125
ହେ	-126
▁ଟ	-127
କି	-128
▁ଆପ	-129
ତି	-130
CG	-131
ସ୍ତ	-132
ଙ୍ଗ	-133
▁କରୁ	-134
▁ସମ	-135
ଦ୍	-136
ଧ୍ୟ	-137
iti	-138
▁S	-139
▁ଆପଣ	-140
ଣି	-141
କ୍ଷ	-142
▁IS	-143
▁B	-144
ଥିବା	-145
ut	-146
ଦି	-147
ଦେ	-148
▁ye	-149
▁hu	-150
miti	-151
▁huye	-152
▁yemiti	-153
▁ଚା	-154
ame	-155
ମା	-156
ତା	-157
ଛା	-158
▁ଭା	-159
ଇସ	-160
▁i	-161
ww	-162
ମ୍ଭ	-163
ମେ	-164
ାର୍	-165
ଦିନ	-166
▁ପଇସ	-167
▁ତୁ	-168
▁୧	-169
ou	-170
▁ଯା	-171
▁ମଧ୍ୟ	-172
...	-173
▁ଯେ	-174
▁ମୁଁ	-175
▁-	-176
re	-177
▁ପି	-178
cle	-179
କା	-180
ର୍ଷ	-181
ଞ୍ଚ	-182
ହୁ	-183
▁ଅନ	-184
▁ଡ	-185
କାର	-186
ଡ଼ି	-187
ଳେ	-188
▁ପୁ	-189
ଦ୍ଧ	-190
▁ବେ	-191
ବୁ	-192
Name	-193
▁mi	-194
▁ସେଦିନ	-195
ing	-196
▁But	-197
racle	-198
▁miracle	-199
▁ଚି	-200
କ୍ତ	-201
▁ମି	-202
▁.	-203
ୂର୍	-204
an	-205
ମି	-206
▁ସ୍	-207
ବଂ	-208
ାଜ	-209
ଥିଲେ	-210
at	-211
ପରେ	-212
▁A	-213
ଗୁ	-214
▁କରନ୍ତୁ	-215
tion	-216
▁ଏବଂ	-217
▁"	-218
ଟର	-219
er	-220
ଳି	-221
ରରେ	-222
▁ମା	-223
ତ୍ତ	-224
ବି	-225
▁କରିବା	-226
▁ବ୍ୟ	-227
ଯ୍ୟ	-228
▁t	-229
▁ହାତ	-230
ଜି	-231
▁ସଂ	-232
ୋଗ	-233
ଥିଲା	-234
▁ନା	-235
▁କୁ	-236
ିବେ	-237
▁କା	-238
▁ଆଉ	-239
ଲ୍	-240
ମାନେ	-241
ଣ୍ଡ	-242
▁ଲୋ	-243
▁ଏକ	-244
ଥାଏ	-245
▁2	-246
▁ପର	-247
ଶ୍	-248
▁କରୁଛି	-249
▁ବର୍ଷ	-250
▁କଥା	-251
▁ଧ	-252
▁ଆସ	-253
mo	-254
▁ସା	-255
▁ମହି	-256
▁ତେ	-257
▁ମହିଳ	-258
▁ଲ	-259
▁s	-260
▁ପଇସା	-261
ାରୁ	-262
▁ରେ	-263
▁ନୁ	-264
ଷ୍ଟ	-265
ଙ୍କର	-266
or	-267
▁mẹ	-268
▁ପୂର୍	-269
କର	-270
▁୨	-271
▁ଲୋକ	-272
ch	-273
▁କଣ	-274
୍ରେ	-275
king	-276
ତ୍	-277
ାଯ	-278
▁କିଛି	-279
ନି	-280
▁ହାତୀ	-281
ar	-282
▁ଜା	-283
moking	-284
ିତି	-285
▁କେବେ	-286
▁ଦୁ	-287
▁Smoking	-288
ରା	-289
୍ତ୍ତ	-290
▁ଅଛି	-291
▁ପୂର୍ବ	-292
▁ସୁ	-293
▁ଦେଖ	-294
୍ରା	-295
ଣା	-296
୍ରୀ	-297
ପା	-298
▁ଅଧ	-299
▁ଆମ	-300
▁କାହିଁ	-301
ହେଁ	-302
▁l	-303
ାରି	-304
▁n	-305
▁କହିଲା	-306
▁ଇ	-307
ବର	-308
ନ୍ଦ	-309
▁ରହି	-310
▁f	-311
▁ଏବେ	-312
▁ବ୍ୟବ	-313
▁କ୍	-314
ୀର	-315
▁ଗୋ	-316
ିକା	-317
▁କାହିଁକି	-318
ପି	-319
▁ସବୁ	-320
▁ନେ	-321
♪♪♪♪	-322
▁ବେଳେ	-323
nd	-324
om	-325
▁ନୁହେଁ	-326
▁ସ୍ୱ	-327
▁ହେବ	-328
▁4	-329
▁ଆଃ	-330
ଦା	-331
ଟେ	-332
▁T	-333
nt	-334
▁ଯଦି	-335
ic	-336
▁a	-337
▁C	-338
ପ୍ର	-339
ୀୟ	-340
ଦେଶ	-341
ve	-342
ଷୟ	-343
▁ଉପ	-344
▁କେତେ	-345
ାରଣ	-346
▁ଥିବା	-347
ଚନା	-348
ମିତି	-349
ପାର	-350
ୃତ	-351
▁ଛା	-352
▁କାର୍	-353
▁ପୂର୍ବରୁ	-354
▁ତେବେ	-355
▁ବିଷୟ	-356
he	-357
ମିଟର	-358
▁କିଲୋ	-359
wwww	-360
▁ରାଜ	-361
▁N	-362
କ୍ସ	-363
▁ହେଲେ	-364
▁ପରି	-365
▁is	-366
▁ବ୍ୟବହାର	-367
▁ପିଛା	-368
▁p	-369
ାୟ	-370
▁:	-371
▁କିଲୋମିଟର	-372
▁,	-373
▁‘	-374
ଉଁ	-375
▁ଅନୁ	-376
▁0	-377
▁ହଁ	-378
ction	-379
▁b	-380
▁ସମ୍	-381
▁ଡି	-382
ଞ୍ଚି	-383
▁ବୃ	-384
ଠି	-385
ଟା	-386
ଚ୍	-387
ର୍ତ୍ତ	-388
▁କରାଯ	-389
▁3	-390
▁ଅଧିକ	-391
ପରି	-392
ହନ୍ତି	-393
▁M	-394
▁କ୍ଷ	-395
▁ଯାଇ	-396
▁ପରେ	-397
▁ଆସି	-398
▁ପ୍ରତି	-399
▁କୋ	-400
▁ଲା	-401
ରଣ	-402
▁ଏଥି	-403
▁ଦି	-404
ଡ଼ା	-405
ଦ୍ଧି	-406
ଶୁ	-407
▁(_	-408
▁c	-409
ଭା	-410
▁ଜଣ	-411
▁ପହ	-412
al	-413
▁ଦିନ	-414
▁ବିଶ	-415
ାମାନ	-416
▁ସହ	-417
▁ବିଜ	-418
ୋଲି	-419
▁ଚିନ୍ତ	-420
▁ପାଖ	-421
▁ସମସ୍ତ	-422
▁୩	-423
▁ତାଙ୍କ	-424
▁ଠ	-425
:1	-426
▁ତାହା	-427
▁P	-428
▁ଏହାର	-429
▁ମାନ	-430
ାରା	-431
ତ୍ର	-432
ହିତ	-433
▁ନୂ	-434
ଟିଏ	-435
▁ଘର	-436
▁ତାଙ୍କୁ	-437
▁ବୃଦ୍ଧି	-438
▁no	-439
ନାହିଁ	-440
di	-441
ଷ୍ଠ	-442
▁କହନ୍ତି	-443
ଯା	-444
▁ଭାଷ	-445
ବନ	-446
କ୍ତି	-447
▁ଦେଇ	-448
▁ନିର୍	-449
ଶା	-450
ଧାନ	-451
▁ପହଞ୍ଚି	-452
▁%	-453
ଉଛି	-454
ୋଧ	-455
▁କାର୍ଯ୍ୟ	-456
of	-457
▁ଛ	-458
ସ୍ଥ	-459
es	-460
▁ଗ୍ର	-461
ଏହା	-462
▁ଉତ୍ତ	-463
▁ଏହାପରେ	-464
ୁର	-465
▁ସମୟ	-466
▁ଜାଣ	-467
ri	-468
▁_	-469
▁ଦୁଇ	-470
▁ମହିଳା	-471
▁W	-472
▁ଗୁ	-473
▁ଏଥିରେ	-474
▁ଟୋ	-475
▁କିଏ	-476
ment	-477
▁ତୁମ୍ଭ	-478
▁ଯୁ	-479
▁ବୁ	-480
atch	-481
▁O	-482
▁7	-483
ିନା	-484
କ୍ର	-485
▁ବସ୍	-486
▁ଖା	-487
▁9	-488
▁ପହଞ୍ଚିଛି	-489
ound	-490
▁ପାଇଛି	-491
▁ଟଙ୍କ	-492
▁ଚାଲି	-493
ାମାନଙ୍କ	-494
▁ପଇସାରେ	-495
▁ମନ	-496
ଟ୍	-497
ରକାର	-498
▁ଆସେ	-499
▁ଦରରେ	-500
ଲୁ	-501
ଚିତ	-502
ିବାର	-503
▁ଡା	-504
ru	-505
:16	-506
▁if	-507
▁ନିଜ	-508
it	-509
▁w	-510
▁04	-511
▁ସି	-512
ମୁ	-513
▁ମେ	-514
▁ଗୋଟିଏ	-515
▁ସହିତ	-516
ଜ୍	-517
▁–	-518
୍ୟୁ	-519
en	-520
▁in	-521
ଲେଖ	-522
▁ଯାହା	-523
▁Action	-524
▁match	-525
ାତି	-526
▁04:16	-527
▁found	-528
▁y	-529
▁ମହିଳାମାନଙ୍କ	-530
▁ଅବ	-531
▁ଚିନ୍ତାର	-532
▁ଥ	-533
▁୫	-534
▁୨୦	-535
▁ଟୋଡ଼ା	-536
▁D	-537
ଶ୍ୟ	-538
▁ବଢ	-539
▁you	-540
ାରତ	-541
ଳା	-542
▁ରା	-543
▁4.	-544
ହଁ	-545
ୋଲ	-546
ol	-547
▁K	-548
▁1.	-549
▁ଛାଡ	-550
ାମୀ	-551
▁ପଢ	-552
୍ପ	-553
ଭି	-554
୍ଯ	-555
▁♪♪♪♪	-556
▁ହୁ	-557
ିବାକୁ	-558
ବଳ	-559
▁'	-560
▁ଆର	-561
▁ମଞ୍	-562
▁ଉତ୍ତର	-563
ୟା	-564
ଯୋଗ	-565
▁the	-566
▁ଆମେ	-567
▁୧୯	-568
▁ଅନ୍ୟ	-569
▁E	-570
▁ଗ୍ରହ	-571
▁ଶୁ	-572
omment	-573
ରୀ	-574
▁ପର୍	-575
ମାନଙ୍କ	-576
▁କରାଯାଇ	-577
ିନି	-578
ଣୀ	-579
ଡ଼ିକ	-580
▁ଏତେ	-581
▁ପାଖରେ	-582
▁d	-583
▁L	-584
େଷ	-585
▁କଲେ	-586
▁ରଖ	-587
ାତ୍ର	-588
ଲୋଚନା	-589
୍ନ	-590
▁20	-591
▁ମଞ୍ଜି	-592
▁ମିଶ	-593
▁of	-594
▁ସେହି	-595
▁କେମିତି	-596
▁କାମ	-597
ସା	-598
▁@	-599
▁ସନ୍	-600
ad	-601
ୋଜ	-602
ୀନ	-603
ବରେ	-604
ଳ୍ପ	-605
se	-606
ର୍କ	-607
କେ	-608
▁ଭାରତ	-609
▁[	-610
▁ନାମ	-611
ୋଷ	-612
ପାରେ	-613
ପ୍ତ	-614
ମାନଙ୍କୁ	-615
▁R	-616
ିବି	-617
▁ମହା	-618
▁ଜୀ	-619
▁ଦା	-620
ିକ୍	-621
▁ସ୍ଥ	-622
▁କହୁ	-623
▁ଛାଡିବ	-624
▁ସତ	-625
▁ଘେ	-626
ove	-627
ଦ୍ୟ	-628
▁ଆଈ	-629
ଣ୍ଟ	-630
▁ଆଈକୁ	-631
▁ଯାଅ	-632
▁ଫେ	-633
ଣସି	-634
ଗୁଡ଼ିକ	-635
▁ଗ୍ରହଣ	-636
ସେ	-637
▁G	-638
▁ସୂ	-639
▁ଓଡ଼ି	-640
▁ଉପରେ	-641
▁ୟ	-642
▁”	-643
▁ବହୁ	-644
▁ହି	-645
ମାଣ	-646
▁।”	-647
▁ସରକାର	-648
▁Ne	-649
ାଳ	-650
ow	-651
▁ଆଜି	-652
▁କୌ	-653
ଗି	-654
ଣ୍ଣ	-655
▁ମୂ	-656
ବାକୁ	-657
▁re	-658
te	-659
ଥାନ୍ତି	-660
mp	-661
▁ଥିଲା	-662
▁ଏଲ	-663
ଭୁ	-664
▁କେଉଁ	-665
▁ତୁମ	-666
▁ଭି	-667
▁ଆରମ୍ଭ	-668
@@	-669
୧୮	-670
▁ତୁମେ	-671
▁ରୁ	-672
ୀତ	-673
ାଇଲ	-674
▁ବିଜେ	-675
ର୍ଶ	-676
ଲକ୍ସ	-677
୦୦	-678
▁love	-679
▁ହୋଇନାହିଁ	-680
ପଥ	-681
ଶ୍ୱ	-682
ଣୁ	-683
ତନ	-684
▁ଦେଖି	-685
ତିକ	-686
▁ଅସ	-687
▁ପଚ	-688
▁ଅପ	-689
ତ୍ତ୍ୱ	-690
▁to	-691
▁ଏଲିନା	-692
?”	-693
▁ଭିତ	-694
ଟରେ	-695
▁ଟଙ୍କା	-696
▁ସ୍ୱାମୀ	-697
▁sm	-698
▁ରହିଛି	-699
▁ଡିଲକ୍ସ	-700
and	-701
ଭଳି	-702
▁ସର୍	-703
▁ମୋତେ	-704
▁ନୂଆ	-705
▁ବୋଲି	-706
▁ଯୋଗ	-707
▁ସମ୍ପ	-708
▁କୌଣସି	-709
wwwwwwww	-710
▁ପୁଅ	-711
ruti	-712
▁smruti	-713
▁ଲେଖ	-714
▁କରିବାକୁ	-715
ନ୍ତ୍ର	-716
▁କିପରି	-717
▁ଜି	-718
▁ତାଙ୍କର	-719
▁ପୃ	-720
ଡ଼ିକୁ	-721
▁ଭାବରେ	-722
ge	-723
▁ଭାଷାତ	-724
▁ସମ୍ଭ	-725
▁ଭାଷାତତ୍ତ୍ୱ	-726
ଙ୍ଗି	-727
▁ପୁଣି	-728
▁H	-729
▁କେବଳ	-730
▁ଟି	-731
ପ୍	-732
▁ମହିଳାଙ୍କ	-733
ay	-734
ଞ୍ଜ	-735
el	-736
ବ୍	-737
ସ୍ୟ	-738
un	-739
▁8	-740
ଗ୍ର	-741
ଠାରୁ	-742
ct	-743
ତ୍ୟ	-744
ପୁର	-745
▁କାହା	-746
▁ନେଇ	-747
ଡେ	-748
ସର	-749
▁ହେଉଛି	-750
▁ଏହାକୁ	-751
ସ୍ଥା	-752
ାନ୍	-753
▁କାରଣ	-754
▁ସ୍ଥାନ	-755
▁ବାଟ	-756
▁ଭଲ	-757
▁5	-758
de	-759
▁ଆପଣଙ୍କ	-760
▁୪	-761
th	-762
▁4.4	-763
▁ଆବ	-764
ମ୍ପ	-765
ଗୁଡ଼ିକୁ	-766
ତୁ	-767
▁ଅଟେ	-768
▁ଯେଉଁ	-769
ର୍ଥ	-770
▁କରୁଛନ୍ତି	-771
00	-772
ଡା	-773
ଯାଇ	-774
....	-775
କ୍ଷା	-776
ଜା	-777
▁ମିଶାଇ	-778
▁କ୍ଷୀର	-779
▁F	-780
ିଆ	-781
▁ମହେ	-782
ିତା	-783
▁ସ୍ତ	-784
ିବୁ	-785
ପାରିବେ	-786
ବକ	-787
▁ମୋଦି	-788
▁ସନ୍ଦେଶ	-789
ସନ	-790
ବାଦ	-791
ro	-792
▁ପାର	-793
ାଇଁ	-794
▁ଶା	-795
il	-796
▁ପ୍ରଦ	-797
▁ହୋଇଥାଏ	-798
ଆର	-799
ବେଳେ	-800
▁ଶେଷ	-801
▁ସୂଚନା	-802
▁201	-803
▁ମହେଶ	-804
▁ବ୍ୟା	-805
▁କରିବେ	-806
ଶ୍ନ	-807
▁ଲକ୍ଷ	-808
ାରୀ	-809
▁ଫି	-810
▁ସମୟରେ	-811
ଗା	-812
▁÷	-813
▁ଜୀବନ	-814
େଇ	-815
CGX	-816
ହୁଁ	-817
▁ପ୍ରଶ୍ନ	-818
▁ଗା	-819
▁ୱ	-820
ଟୋ	-821
▁ମୋର	-822
▁କରିଛନ୍ତି	-823
▁ଫାଇଲ	-824
Comment	-825
ce	-826
▁ଫୋଲ	-827
ନ୍ଧ	-828
▁ଭୁ	-829
ss	-830
▁ରାତି	-831
▁ଦ୍ୱ	-832
▁ଜାଣି	-833
▁ଆସିଲା	-834
▁ଖାଦ୍ୟ	-835
ଶ୍ଚ	-836
ଝି	-837
▁ନିୟ	-838
▁ଥିଲେ	-839
▁ଏମିତି	-840
ଡିକ	-841
ୋଧନ	-842
କରଣ	-843
।”	-844
ୀମା	-845
▁ପକା	-846
।"	-847
▁ଖାଇ	-848
▁♪♪♪♪♪♪♪♪	-849
▁ଶି	-850
ଠା	-851
▁be	-852
▁ନୂତନ	-853
ହାନ୍ତି	-854
▁ପ୍ରେ	-855
ଡର	-856
ଚ୍ଚ	-857
ଶ୍ୟକ	-858
ation	-859
19	-860
ଗତ	-861
▁Name	-862
vi	-863
ଗଲା	-864
▁ଜାଣନ୍ତୁ	-865
▁ଘଟ	-866
▁ପଛ	-867
ଅଛି	-868
▁ଘେରରେ	-869
ମ୍ବା	-870
ha	-871
▁ପକାନ୍ତୁ	-872
୍ରୁ	-873
▁ଆବଶ୍ୟକ	-874
▁ବିଶୋଧନ	-875
ବାର	-876
op	-877
▁ତଳି	-878
ପାରିବ	-879
ସ୍ତୁ	-880
▁ମଞ୍ଜିରେ	-881
▁ସାମ	-882
▁୧୦	-883
▁ମଧ୍ୟରେ	-884
▁ବିଜେପି	-885
▁ଲୋକେ	-886
ର୍ତ୍ତି	-887
ନୀ	-888
▁ପିଲା	-889
▁ମୃତ	-890
▁ତାକୁ	-891
ାକ	-892
ୋର୍	-893
୍ୟାଲେ	-894
ak	-895
ଯାଏ	-896
ପାଦ	-897
▁ଅଭ	-898
ws	-899
▁ଲି	-900
▁ଚିହ	-901
▁ହୁଏ	-902
କାରୀ	-903
କ୍ରମ	-904
▁ବହୁତ	-905
▁ନବ	-906
▁୨୦୧	-907
▁ଚାହୁଁ	-908
▁ଭିତରେ	-909
fo	-910
ub	-911
ଚାର	-912
ଶ୍ୱର	-913
ଣେ	-914
is	-915
▁ଏକା	-916
▁ପ୍ରଥ	-917
ଛୁ	-918
▁ହେବା	-919
):	-920
▁ଦୃ	-921
▁ଏସି	-922
▁ଜଣେ	-923
▁ତୋ	-924
▁ଦିଅ	-925
▁ପରିବ	-926
▁ସେମାନେ	-927
ନ୍ଦ୍ର	-928
▁ବାହାର	-929
ହେଲେ	-930
▁ସାଧ	-931
21	-932
▁ଢ	-933
▁ଥାଏ	-934
ତ୍ୟା	-935
ସୀ	-936
ଲିକ	-937
ଜାର	-938
ର୍ଯ୍ୟ	-939
▁ଆଗ	-940
▁ଋ	-941
us	-942
ମୂ	-943
ଯୁ	-944
ଚି	-945
▁କରିଥିଲେ	-946
▁ଶପଥ	-947
▁ବନ୍ଦ	-948
▁ତୁମ୍ଭେ	-949
et	-950
▁ଆଲୋଚନା	-951
ଳୀ	-952
୍ମ	-953
ଶି	-954
ଜ୍ଞ	-955
ଦ୍ର	-956
ck	-957
▁କିମ୍ବା	-958
ସ୍କ	-959
ିୟ	-960
▁୬	-961
▁ଭାଇ	-962
▁name	-963
ଫଳ	-964
୍ଞ	-965
lo	-966
ବେଦ	-967
କ୍ଟର	-968
ab	-969
ମୁଁ	-970
▁and	-971
▁ହଉ	-972
ଗୁଡିକ	-973
କାଶ	-974
▁ରାଜ୍ୟ	-975
▁ହୋଇଛି	-976
ଭାଗ	-977
ପ୍ରେ	-978
▁କେହି	-979
▁ଫୋଲଡର	-980
େକ	-981
ate	-982
▁ଦେବ	-983
ର୍ମ	-984
▁ଦେଇଛନ୍ତି	-985
▁News	-986
▁ପଚାରି	-987
ୁଛି	-988
▁ତମେ	-989
୍ୟାସ	-990
▁ହେଇ	-991
ଳନ	-992
ମ୍ବ	-993
▁ତେଣୁ	-994
▁ଓଡ଼ିଆ	-995
ମୋ	-996
ପଟେ	-997
▁ବୟ	-998
ind	-999
ସଂ	-1000
ଲିକା	-1001
ସରୁ	-1002
▁୯	-1003
ନ୍ତ୍ରୀ	-1004
▁ନିର୍ବା	-1005
ort	-1006
ିକି	-1007
▁ପର୍ଯ୍ୟ	-1008
୍ରି	-1009
▁କହିଛନ୍ତି	-1010
ଲୀ	-1011
ମାର	-1012
ଦ୍ରା	-1013
▁ଏକ୍ସ	-1014
ଡ୍	-1015
▁/	-1016
▁୭	-1017
ିନ୍	-1018
▁ଫଳ	-1019
▁ବଦ	-1020
▁ଜଣକ	-1021
▁ହେଉ	-1022
▁ଚିଠି	-1023
▁U	-1024
ରମ	-1025
▁ଶର	-1026
ଠାରେ	-1027
ପୁ	-1028
ୀଶୁ	-1029
▁ପଢନ୍ତୁ	-1030
ରାଜ	-1031
▁ପରିବର୍ତ୍ତ	-1032
ous	-1033
▁ସତରେ	-1034
ନେ	-1035
ରକ୍ଷ	-1036
ly	-1037
▁ପୃଷ୍ଠ	-1038
▁wwwwwwww	-1039
କାଳ	-1040
▁ଏସ	-1041
କିଙ୍ଗ	-1042
▁th	-1043
▁ବିଶ୍ୱ	-1044
ିକେ	-1045
▁ଘରେ	-1046
▁ବିର	-1047
▁ସମ୍ପର୍କ	-1048
▁li	-1049
▁6	-1050
▁ହା	-1051
▁ଘଟି	-1052
xt	-1053
ୂପ	-1054
ୀମାନେ	-1055
ିତ୍ର	-1056
▁ଭାଙ୍ଗି	-1057
▁ଆଧ	-1058
ମ୍ବର	-1059
ିତ୍	-1060
ଷ୍ଟି	-1061
▁ଉତ୍	-1062
▁ବ୍ୟକ୍ତି	-1063
▁ଶରୀର	-1064
ଖ୍ୟ	-1065
▁ପାଣି	-1066
ଦେଶର	-1067
▁ମିଳ	-1068
ାଲୋଚନା	-1069
▁ଉଚିତ	-1070
▁19	-1071
ଧି	-1072
ସ୍ତା	-1073
ଜନ	-1074
ୟକ	-1075
▁e	-1076
og	-1077
ଭର	-1078
ଦୂ	-1079
▁ଅଭି	-1080
ଂଶ	-1081
ost	-1082
▁୮	-1083
▁ପୋଷ	-1084
▁ଲାଗି	-1085
▁ପିଇ	-1086
▁ଆପଣଙ୍କୁ	-1087
ପତି	-1088
ଶ୍ବର	-1089
ହାମ୍	-1090
▁ଗୀତ	-1091
▁ପ୍ୟାଲେ	-1092
Wò	-1093
Zò	-1094
eú	-1095
fþ	-1096
gû	-1097
lû	-1098
▁ù	-1099
Zòu	-1100
▁iá	-1101
Wògû	-1102
eúlû	-1103
▁ମାନେ	-1104
▁IWògû	-1105
▁iáZòu	-1106
▁ବକିଙ୍ଗ	-1107
▁ପ୍ୟାଲେସରୁ	-1108
▁ବକିଙ୍ଗହାମ୍	-1109
ur	-1110
ଇନ	-1111
▁ହୋ	-1112
▁ସ୍ୱା	-1113
ାର୍ଥ	-1114
▁କରେ	-1115
ଧିକ	-1116
▁ପ୍ରା	-1117
▁ଯୀଶୁ	-1118
ଢ଼	-1119
▁କରିବ	-1120
ଚନ	-1121
ଥିଲି	-1122
▁ଆମ୍	-1123
▁ହୁଅ	-1124
▁ବୋ	-1125
▁ନକ	-1126
ia	-1127
ପାଇଁ	-1128
▁କରିଛି	-1129
ଥିବ	-1130
▁ମହ	-1131
ାଏ	-1132
▁99	-1133
▁ଯୋ	-1134
ପ୍ରଭୁ	-1135
▁ମାତ୍ର	-1136
),	-1137
ir	-1138
▁Re	-1139
mb	-1140
▁ଏଇ	-1141
▁ରାତିରେ	-1142
▁ଅାଲୋଚନା	-1143
▁J	-1144
ାଇବା	-1145
ରଫ	-1146
ନ୍ନ	-1147
▁ଛି	-1148
ଖ୍ୟା	-1149
▁Kan	-1150
▁ଯୁବକ	-1151
▁71	-1152
▁ସଦ	-1153
▁ଏକ୍ସପ୍ରେ	-1154
▁ରଙ୍ଗ	-1155
▁97	-1156
େତ	-1157
▁ପର୍ଯ୍ୟନ୍ତ	-1158
▁72	-1159
▁ପାଟି	-1160
▁ସେହିଭଳି	-1161
▁↑	-1162
www	-1163
▁ହିଁ	-1164
ଦେଇ	-1165
ାଯାଇ	-1166
ର୍ଣ୍ଣ	-1167
▁ଅନ୍ୟପଟେ	-1168
:3	-1169
ୟନ	-1170
▁ତାଲିକା	-1171
ରକୁ	-1172
RI	-1173
▁g	-1174
▁ପ୍ରଥମ	-1175
bo	-1176
▁ବୈ	-1177
▁ଏକ୍ସପ୍ରେସ୍	-1178
ୁନ	-1179
▁ପୋ	-1180
▁ରି	-1181
▁1.21	-1182
▁Kanak	-1183
hy	-1184
▁ଡକ୍ଟର	-1185
ମୂର୍ତ୍ତି	-1186
▁1.19	-1187
▁V	-1188
▁ଶ୍ରୀ	-1189
▁କରିଥିଲା	-1190
ଆଇ	-1191
▁ପାଠ	-1192
▁ମନେ	-1193
▁he	-1194
▁ଦେଶ	-1195
▁ଚେ	-1196
▁ଦ୍ୱାରା	-1197
▁ଈ	-1198
କରଙ୍କ	-1199
ion	-1200
▁ପେ	-1201
▁ନେତା	-1202
▁ପରମେ	-1203
\\	-1204
▁ପଦ	-1205
ତ୍ତି	-1206
▁ସାହି	-1207
▁ଉତ୍ତରପ୍ର	-1208
▁ଚାହୁଁଛନ୍ତି	-1209
▁ବିକ	-1210
TS	-1211
▁ଘଟଣା	-1212
▁କରିପାରିବେ	-1213
ଖି	-1214
ଣ୍ଡୋ	-1215
▁ନିଷ୍	-1216
▁ପ୍ରତିମୂର୍ତ୍ତି	-1217
▁se	-1218
▁?”	-1219
▁ଆମ୍ଭ	-1220
▁ନିୟମ	-1221
ଚା	-1222
ଂଗ	-1223
ବକର	-1224
ିକ୍ଷ	-1225
▁ଦୃଶ୍ୟ	-1226
▁ଆମ୍ବେଦ	-1227
▁ବିଷୟରେ	-1228
▁ସାଧାରଣ	-1229
▁ସମା	-1230
▁...	-1231
▁ପରିବର୍ତ୍ତନ	-1232
▁ଉତ୍ତରପ୍ରଦେଶର	-1233
▁17	-1234
@@@@	-1235
ଣେତା	-1236
▁info	-1237
▁ଆମ୍ବେଦକରଙ୍କ	-1238
ିଧାନ	-1239
ରିଟରେ	-1240
▁ଅଳ୍ପ	-1241
▁ସୁଯୋଗ	-1242
ଦ୍ରାବକର	-1243
▁ପ୍ରଣେତା	-1244
▁ମିରିଟରେ	-1245
▁ସମ୍ଭିଧାନ	-1246
▁ଉପଦ୍ରାବକର	-1247
▁ଉପଦ୍ରାବକରୀମାନେ	-1248
▁ଗରମ	-1249
▁ପରିମାଣ	-1250
▁Y	-1251
▁ଦୌ	-1252
ଙ୍ଗୁ	-1253
▁ଆମେର	-1254
▁ନାହାନ୍ତି	-1255
▁ଦୁଃ	-1256
▁Comment	-1257
▁ଯୋଜ	-1258
▁ପ୍ରେମ	-1259
▁ପୂ	-1260
ପନ	-1261
ନ୍ତା	-1262
la	-1263
lic	-1264
▁ହେବେ	-1265
▁ପୋଷାକ	-1266
ନୁ	-1267
ମାନଙ୍କର	-1268
ଫ୍	-1269
ୀଙ୍କ	-1270
▁ପୁନ	-1271
ed	-1272
ୋଟ	-1273
▁—	-1274
ong	-1275
ଚରଣ	-1276
▁ଦାୟ	-1277
▁ପକ୍ଷ	-1278
▁ସ୍ତ୍ରୀ	-1279
ପର	-1280
▁କଲ	-1281
ma	-1282
ଘା	-1283
▁ପ୍ରକ	-1284
▁ମିଳି	-1285
".	-1286
▁ରାଜା	-1287
▁ଲଗ	-1288
▁ଅନୁସ	-1289
▁ଏପରି	-1290
dia	-1291
ଯିବ	-1292
ଡିଆ	-1293
▁ପ୍	-1294
▁ଯାଏ	-1295
▁ଦାରୁ	-1296
▁ବାହା	-1297
ଫ୍ୟୁ	-1298
▁ତ୍ରୁ	-1299
▁action	-1300
▁ଉଠ	-1301
▁ମଧ	-1302
▁ପିଇବା	-1303
▁ମହିଳାଙ୍କୁ	-1304
▁ଦ୍	-1305
ଲଗ	-1306
ଜର	-1307
ଦୀ	-1308
ପେ	-1309
▁ଭାବେ	-1310
ଥର	-1311
▁ଅଛନ୍ତି	-1312
▁ସାହିତ୍ୟ	-1313
▁8.	-1314
▁ସଂରକ୍ଷ	-1315
ଳକ	-1316
▁10	-1317
▁ଦିଆ	-1318
▁ବୟସ	-1319
▁ପ୍ରସ	-1320
ୂର୍ଣ୍ଣ	-1321
▁ଶୁଣି	-1322
▁ସଦସ୍ୟ	-1323
▁ତ୍ରୁଟି	-1324
▁ଆପଣଙ୍କର	-1325
▁କୋଟି	-1326
▁ଯୋଜନା	-1327
▁ବିଭାଗ	-1328
୍ନି	-1329
▁।[	-1330
▁ସୋ	-1331
କ୍ଷର	-1332
▁ପୁରୁ	-1333
▁ଦୂ	-1334
ପତ୍ର	-1335
▁ଠିକ	-1336
pe	-1337
▁ଗଣ	-1338
ian	-1339
ାନି	-1340
▁କୃ	-1341
ଜେ	-1342
ver	-1343
ଗଲେ	-1344
▁କହିଲି	-1345
▁ବଡ	-1346
▁11	-1347
ଲ୍ଲା	-1348
▁ଭୂ	-1349
▁କାର୍ଯ୍ୟକ୍ରମ	-1350
ଠୁ	-1351
▁ଚାଲ	-1352
▁ହଜାର	-1353
▁ବଢି	-1354
▁ଯୁଦ୍ଧ	-1355
▁ପ୍ରକାଶ	-1356
▁ଯାଇଥିବା	-1357
ଡିଓ	-1358
▁ଭର	-1359
▁ତଥ	-1360
▁ଆଶ୍ଚ	-1361
▁ପରିଚ	-1362
▁ବିବା	-1363
ଦେଲେ	-1364
ାତ୍ରା	-1365
ଭୋ	-1366
ାତା	-1367
ଲ୍ଲୀ	-1368
▁ଭାରତୀୟ	-1369
▁ଖୁ	-1370
▁ଝି	-1371
ଧ୍ୟମ	-1372
▁ନାଁ	-1373
▁ଆସିଥିଲେ	-1374
▁ଲୋକମାନେ	-1375
▁ଲୁ	-1376
▁The	-1377
▁ଛାଡି	-1378
tin	-1379
ଶୁଣି	-1380
ାସ	-1381
ୃତି	-1382
▁ଫୋ	-1383
ବର୍ଷ	-1384
▁ଅନେକ	-1385
▁ଛୁ	-1386
▁ଯି	-1387
ିନ୍ନ	-1388
▁4.5	-1389
▁ଜନ୍	-1390
▁ନିକ	-1391
ଘର	-1392
ତଃ	-1393
▁ମାମ	-1394
▁ଵ	-1395
ତାର	-1396
▁ଘେରି	-1397
▁ଦୌଡ଼ି	-1398
▁କରାଯାଇଛି	-1399
14	-1400
’’	-1401
amp	-1402
ଚ୍ଛ	-1403
ଦ୍ୱ	-1404
ାନା	-1405
ାନୀ	-1406
▁ରୋଗ	-1407
▁ମୁଖ୍ୟ	-1408
ot	-1409
har	-1410
କରି	-1411
ଭୂ	-1412
▁୩୦	-1413
ପାରି	-1414
as	-1415
▁ଠାରୁ	-1416
▁ମୁହଁ	-1417
▁ପ୍ରଦାନ	-1418
▁k	-1419
େଲ	-1420
ଦାଚରଣ	-1421
▁ଅସଦାଚରଣ	-1422
▁ନିର୍ବାଚନ	-1423
ୟୋଗ	-1424
▁ଖବର	-1425
ୱା	-1426
JTS	-1427
▁AJTS	-1428
▁ଦଳ	-1429
id	-1430
ura	-1431
ଟାମ	-1432
▁ଋଣ	-1433
▁ଝିଅ	-1434
▁ମୂଳ	-1435
▁ଗୁରୁ	-1436
▁♪♪♪♪♪♪♪♪♪♪♪♪	-1437
▁ଅଭିନ	-1438
▁ନବୀନ	-1439
▁ନୁହଁ	-1440
▁♪♪♪♪♪♪	-1441
▁♪♪♪♪♪♪♪♪♪♪	-1442
EB	-1443
▁ଆତ୍	-1444
ଫ୍ୟୁମ	-1445
ଙ୍ଗୁଡ଼ି	-1446
▁ଘରଠାରୁ	-1447
▁ପର୍ଫ୍ୟୁମ	-1448
ଦୂରରେ	-1449
▁ସୁଯୋଗରେ	-1450
▁ପାଟିଶୁଣି	-1451
▁ଚିଙ୍ଗୁଡ଼ି	-1452
ତମ	-1453
୍ରମ	-1454
▁ଆଇ	-1455
▁ଦେଖା	-1456
▁ଘେରିକୁ	-1457
▁ପ୍ରକାର	-1458
▁ଅଳ୍ପଦୂରରେ	-1459
କ୍ତର	-1460
▁ପୋଲି	-1461
▁ଚିତ୍ର	-1462
▁କରିଥାଏ	-1463
▁st	-1464
▁ବିରୋଧ	-1465
ୟୀ	-1466
ମିତ	-1467
▁ଗାଁ	-1468
▁ରଖି	-1469
▁ଦେଖନ୍ତୁ	-1470
▁&	-1471
ବୀ	-1472
ess	-1473
▁ch	-1474
▁ତାର	-1475
ଗଣ	-1476
000	-1477
ବ୍ୟ	-1478
▁ଅଜ	-1479
▁ଖେ	-1480
▁ଆପଣା	-1481
▁ସୀମା	-1482
▁କରନ୍ତି	-1483
ହେି	-1484
▁ଉଇ	-1485
▁କମ	-1486
ଂଗ୍ରେ	-1487
୍ଞାନ	-1488
ବର୍ତ୍ତ	-1489
ୟର	-1490
one	-1491
ଲ୍ୟ	-1492
▁ପଡି	-1493
▁ଚାଲୁ	-1494
ଠନ	-1495
ସିକ	-1496
▁ଶ୍ରେ	-1497
▁œ	-1498
ଠାତ	-1499
ଭାବ	-1500
▁ସକାଳ	-1501
▁ତୁମକୁ	-1502
▁ଓଡ଼ିଶା	-1503
▁Ind	-1504
▁ଭିଟାମ	-1505
9-	-1506
▁କଲା	-1507
▁ଭିଡିଓ	-1508
▁ଗି	-1509
ାରିଖ	-1510
ଯୁକ୍ତ	-1511
▁ହଠାତ	-1512
ମନ୍ତ୍ରୀ	-1513
ସ୍ୟା	-1514
▁for	-1515
ଷ୍ଟ୍ର	-1516
▁ବଞ୍ଚ	-1517
▁କଂଗ୍ରେ	-1518
18	-1519
▁ଦୁର୍	-1520
▁ଯେତେ	-1521
▁ଚିହ୍ନି	-1522
▁କରାଯାଇପାରିବ	-1523
RIZ	-1524
▁ଆଦ	-1525
▁ତମ	-1526
ପ୍ରଦ	-1527
ର୍ଶନ	-1528
▁ବୀମା	-1529
▁ପ୍ରସ୍ତୁ	-1530
ତ୍ଵ	-1531
▁un	-1532
▁ବନ	-1533
▁୧୫	-1534
େତ୍ର	-1535
▁ହାଇ	-1536
ଯାଇଛି	-1537
▁ମୃତ୍ୟୁ	-1538
▁ବ୍ୟାଙ୍କ	-1539
▁ସଂରକ୍ଷଣ	-1540
ଗେ	-1541
ome	-1542
ଖିତ	-1543
ଲେଇ	-1544
ଣ୍ଡା	-1545
▁ଧରି	-1546
▁ଫେର	-1547
▁....	-1548
▁ତଥ୍ୟ	-1549
▁ଶିଶୁ	-1550
ଦୁ	-1551
▁ଚୋ	-1552
▁ସଦା	-1553
▁ଖୋଲ	-1554
ଦ୍ଦେଶ	-1555
▁ପତ୍ର	-1556
▁ମୋଦିଙ୍କ	-1557
ith	-1558
▁ଭୟ	-1559
▁ଗର୍	-1560
▁ନିର୍ମାଣ	-1561
▁ଏମାନଙ୍କୁ	-1562
ତ୍ନ	-1563
ୀରେ	-1564
ସ୍ଥାନ	-1565
▁ଚାକି	-1566
▁ପରିମାଣରେ	-1567
▁'%	-1568
ୋର୍ଟ	-1569
▁Long	-1570
▁ସେବା	-1571
▁ଆଶ୍ଚର୍ଯ୍ୟ	-1572
ସ୍ଥିତ	-1573
▁ଦେଲେ	-1574
▁ବନ୍ଧ	-1575
gt	-1576
▁ସଂପ	-1577
▁ବିକା	-1578
▁ଲଢ	-1579
hort	-1580
ଟିକୁ	-1581
ଦ୍ଧା	-1582
▁ଅର୍ଥ	-1583
▁ଖୋଲି	-1584
▁__	-1585
▁ପାଖକୁ	-1586
▁ହୋଇଥିଲା	-1587
ଫି	-1588
tit	-1589
▁ମଧ୍ଯ	-1590
▁ଜିଲ୍ଲା	-1591
କ୍ରିୟ	-1592
▁ତାରିଖ	-1593
▁..	-1594
▁Pre	-1595
▁କାର	-1596
▁ବାର	-1597
ublic	-1598
tt	-1599
▁ଘୁ	-1600
▁ଘରୋଇ	-1601
▁ଲାଗୁ	-1602
▁କଥାରେ	-1603
ତୀ	-1604
ଶୀ	-1605
୧୯	-1606
▁ସର	-1607
▁ଯାଇଥାଏ	-1608
ଣ୍ଡର	-1609
▁ଉପା	-1610
ୟାର	-1611
▁ବିନା	-1612
▁ବର୍ଣ୍ଣ	-1613
ଟକ	-1614
dis	-1615
▁lab	-1616
▁ବିନ	-1617
▁ମସି	-1618
▁ସମସ୍ତେ	-1619
ବେଶ	-1620
▁pri	-1621
▁ବିକାଶ	-1622
pp	-1623
▁କାହାକୁ	-1624
▁ଡାକ୍ତର	-1625
▁କରିଥିବା	-1626
ଳରେ	-1627
▁ru	-1628
▁ଭାତ	-1629
▁ହସି	-1630
▁ଚିହ୍ନ	-1631
ାନୁ	-1632
▁ନିଜର	-1633
▁କରାଯାଏ	-1634
ul	-1635
▁min	-1636
▁ଭିଟାମିନ	-1637
▁ଇଂ	-1638
ାରିତ	-1639
▁ସହା	-1640
ମାନେେ	-1641
ME	-1642
ast	-1643
ୁକୁ	-1644
▁ଜନ	-1645
▁ଜୀବ	-1646
▁ମାସ	-1647
ଥିବାର	-1648
▁ଟିକେ	-1649
▁ସଦାପ୍ରଭୁ	-1650
ନ୍ୟ	-1651
▁ଡେ	-1652
▁pro	-1653
▁ମାେ	-1654
▁ଷ୍ଟ	-1655
▁ବିଶେଷ	-1656
▁ଫଳପ୍ରଦ	-1657
ode	-1658
ress	-1659
▁ବାପା	-1660
▁ସମ୍ପାଦ	-1661
).	-1662
?"	-1663
ond	-1664
ଲରେ	-1665
ution	-1666
ର୍ଚ୍ଚ	-1667
▁ଶିକ୍ଷ	-1668
▁କ୍ଷେତ୍ର	-1669
ହନ	-1670
▁{	-1671
ବ୍ଦ	-1672
▁ପଡ	-1673
▁ବାଇ	-1674
▁ଦରକାର	-1675
▁ସାଙ୍ଗ	-1676
ars	-1677
ାୟକ	-1678
▁୨୦୦	-1679
▁ଜନ୍ମ	-1680
▁ଭାଷା	-1681
୍ୟାନ	-1682
▁ଅନ୍ତ	-1683
▁ଦାବି	-1684
▁ଅନୁସାରେ	-1685
ମୀ	-1686
▁ବିଭ	-1687
▁ବୁଢ	-1688
▁କୁହା	-1689
▁କରିବାର	-1690
▁ବର୍ତ୍ତ	-1691
lect	-1692
▁WEB	-1693
▁ଦେବା	-1694
▁ଶକ୍ତି	-1695
ଂସ	-1696
rom	-1697
▁ପ୍ରସଙ୍ଗ	-1698
▁!!	-1699
ରାପ	-1700
ରିଆ	-1701
▁In	-1702
▁ଘୋଷ	-1703
▁କାଲି	-1704
▁ସ୍କୁ	-1705
▁ଠିକଣା	-1706
▁ଫିଙ୍ଗି	-1707
▁ହୋଇଥିବା	-1708
ମତା	-1709
ଆନ୍ତୁ	-1710
▁Next	-1711
▁ଠିକ୍	-1712
▁ଏଠାରେ	-1713
▁କରୁଅଛି	-1714
▁ବର୍ଷରେ	-1715
▁18	-1716
▁ଜେ	-1717
▁ଯାଉ	-1718
▁minut	-1719
▁ମାମଲା	-1720
▁ମିଳିବ	-1721
ୟରେ	-1722
▁ବର୍ତ୍ତମାନ	-1723
ଜୁ	-1724
:30	-1725
ାମା	-1726
▁12	-1727
▁ଚଳ	-1728
ୁନିକ	-1729
▁Why	-1730
▁ଭରପୁର	-1731
ଲାଇ	-1732
ସବୁ	-1733
▁ଆଣ	-1734
▁କବ	-1735
▁ଚାଷ	-1736
▁ବଡ଼	-1737
DE	-1738
ଖା	-1739
ୀନ୍	-1740
▁ସ୍ମ	-1741
▁ଛିଡି	-1742
▁ତତ୍ଵ	-1743
▁ମିନି	-1744
▁କଂଗ୍ରେସ	-1745
ଦେଇଥାନ୍ତି	-1746
▁ଫିଙ୍ଗିଦେଇଥାନ୍ତି	-1747
▁or	-1748
ଗ୍ରା	-1749
▁ଶୁଣ	-1750
▁ସହେି	-1751
ଧା	-1752
age	-1753
▁ଅପସ	-1754
▁ବିଧ	-1755
▁ସେଥି	-1756
କୋ	-1757
ves	-1758
tem	-1759
▁ପଠ	-1760
▁ପରୀ	-1761
▁କମ୍ପ	-1762
▁ଖାଲି	-1763
▁ଦୁଃଖ	-1764
▁ହତ୍ୟା	-1765
▁ପାରିବେ	-1766
▁ଭାଷାରେ	-1767
ttp	-1768
▁ଥର	-1769
ଚ୍ଛା	-1770
▁ତିଆ	-1771
▁ସର୍ବ	-1772
▁୪୦	-1773
▁ପୋଲିସ	-1774
▁ବିବାହ	-1775
▁ପୃଷ୍ଠା	-1776
▁ପରମେଶ୍ବର	-1777
qu	-1778
▁ଏସ୍	-1779
ରିଷ୍ଠ	-1780
▁ସମସ୍ୟା	-1781
▁minutes	-1782
OR	-1783
▁15	-1784
▁ସୁର	-1785
▁priv	-1786
▁ଧାରଣ	-1787
▁ଭାବି	-1788
▁ତିଆରି	-1789
▁ସୃ	-1790
ticle	-1791
ିବାରେ	-1792
▁ଆଧୁନିକ	-1793
▁ବାହାରି	-1794
KC	-1795
▁ଲାଭ	-1796
▁public	-1797
!”	-1798
ସ୍ଥ୍ୟ	-1799
▁label	-1800
▁ଆମେରିକା	-1801
ଗର	-1802
▁ଶୀ	-1803
▁ଫଟୋ	-1804
▁ଯିବା	-1805
▁କେନ୍ଦ୍ର	-1806
ଭୋଁ	-1807
ିକାର	-1808
▁ମୂଲ୍ୟ	-1809
▁ପ୍ରୟୋଗ	-1810
ପଥର	-1811
ପାନ	-1812
ାୟୀ	-1813
▁mo	-1814
▁ହସ	-1815
▁ୱି	-1816
▁You	-1817
ସ୍କାର	-1818
▁ମହାର	-1819
▁Previ	-1820
▁ପରିବାର	-1821
▁http	-1822
▁read	-1823
▁ବରିଷ୍ଠ	-1824
ଚଳ	-1825
▁Ar	-1826
▁ବଢ଼	-1827
11	-1828
ଭେ	-1829
▁on	-1830
▁item	-1831
▁କରିବୁ	-1832
▁ଦୟା	-1833
▁ପୁନଃ	-1834
▁ମସିହା	-1835
▁ଦେଖିଛନ୍ତି	-1836
▁ପାଦ	-1837
▁2015	-1838
▁ଶବ୍ଦ	-1839
▁ଉପକରଣ	-1840
▁ବର୍ଣ୍ଣନା	-1841
title	-1842
▁ଅଧିକାର	-1843
▁ମାଧ୍ୟମ	-1844
ଲିସି	-1845
10	-1846
▁EE	-1847
▁di	-1848
▁ଗଛ	-1849
hind	-1850
▁କୋଉ	-1851
▁କାଳି	-1852
▁କରିବି	-1853
▁କରିବାରେ	-1854
--	-1855
▁ଜଳ	-1856
ତଙ୍କ	-1857
▁mon	-1858
▁ଦର୍	-1859
▁ବହି	-1860
▁ଏମାନେ	-1861
▁କାହାର	-1862
ଠାକୁ	-1863
▁ପଢ଼	-1864
▁ମିଛ	-1865
▁ଗିରଫ	-1866
▁ଫେରି	-1867
▁ପୃଥିବ	-1868
ବର୍ତ୍ତୀ	-1869
▁Previous	-1870
ଣ୍ଟା	-1871
▁ପୁସ୍ତ	-1872
AN	-1873
▁run	-1874
▁କୁହ	-1875
▁ଡାକ	-1876
▁ବୁଝ	-1877
▁ବିଶ୍	-1878
▁lives	-1879
▁ପ୍ରବେଶ	-1880
ew	-1881
ଦେଲା	-1882
▁ବିଫଳ	-1883
▁behind	-1884
▁dog	-1885
▁କହିବି	-1886
▁କ୍ଷତି	-1887
▁ଘୋଷଣା	-1888
fe	-1889
ord	-1890
ଛବି	-1891
▁ନୀ	-1892
▁ସାହା	-1893
▁ବିନ୍ୟାସ	-1894
ନାର	-1895
ସମା	-1896
▁ବ୍	-1897
▁ସୌ	-1898
.....	-1899
▁କର୍ମ	-1900
▁#	-1901
ave	-1902
ାଇବ	-1903
କ୍ଷି	-1904
▁KDE	-1905
▁ତଥା	-1906
ୁଥିବା	-1907
▁ଜ୍ଞାନ	-1908
▁ଦର୍ଶା	-1909
▁ପ୍ରତିଛବି	-1910
▁କହୁଥାନ୍ତି	-1911
ig	-1912
ok	-1913
ାଉ	-1914
ବେେ	-1915
ଲାର	-1916
▁ରୋ	-1917
▁ପୁର	-1918
▁ସିଂ	-1919
▁3:30	-1920
▁cars	-1921
▁dogs	-1922
▁title	-1923
▁ପକ୍ଷରୁ	-1924
▁ଚାଲୁଥିବାର	-1925
17	-1926
ଘଟ	-1927
ୃହ	-1928
▁ୱେ	-1929
lock	-1930
▁ଜଣା	-1931
▁ଭୁବନ	-1932
▁month	-1933
ଇଁ	-1934
ଗ୍	-1935
ପ୍ତି	-1936
ର୍ମା	-1937
▁ଖେଳ	-1938
କଥା	-1939
▁?"	-1940
rect	-1941
▁୧୦୦	-1942
▁କୁମାର	-1943
▁ପଚାରିଲେ	-1944
ପଣ	-1945
ସୁ	-1946
୍ତ୍ତା	-1947
▁ଅପସାରଣ	-1948
▁ବିଧାୟକ	-1949
'!	-1950
ଷ୍ଟା	-1951
▁କ୍ର	-1952
▁ପଞ୍ଚ	-1953
ର୍ଗ	-1954
▁ବିଜୟ	-1955
hat	-1956
ପାଳ	-1957
ଲିଉ	-1958
ହିଁ	-1959
▁ଡ୍ର	-1960
KChar	-1961
▁ପଲିସି	-1962
▁ସବୁବେଳେ	-1963
ରବ	-1964
ଯାୟୀ	-1965
▁200	-1966
▁କୋହ	-1967
▁ପ୍ରସ୍ତୁତ	-1968
LA	-1969
ଷି	-1970
ଦାର	-1971
▁ଇଣ୍	-1972
▁କଲି	-1973
▁ମଣି	-1974
ପାତ୍ର	-1975
ର୍ଦ୍ଧ	-1976
▁ପାଳନ	-1977
▁ମାନସିକ	-1978
ist	-1979
ରୂପ	-1980
▁ଆକ	-1981
▁ଠା	-1982
▁ବର	-1983
ener	-1984
▁ବସି	-1985
▁ରାମ	-1986
disha	-1987
▁ଏଭଳି	-1988
▁ସୃଷ୍ଟି	-1989
uration	-1990
▁ବାହାଘର	-1991
▁ଅନୁଯାୟୀ	-1992
os	-1993
um	-1994
🙏🙏	-1995
କରେ	-1996
▁ଖୋ	-1997
▁ରାଜନ	-1998
▁ଗ୍ରା	-1999
▁block	-2000
▁ପ୍ରମାଣ	-2001
ଦେବ	-2002
ଜ୍ଞା	-2003
ୈତିକ	-2004
▁with	-2005
▁ନେବେ	-2006
▁ଯତ୍ନ	-2007
▁ଲେଖି	-2008
eneric	-2009
▁ଆସନ୍ତା	-2010
▁ଖୋଜ	-2011
icode	-2012
ଶ୍ଚିତ	-2013
ସଂଖ୍ୟା	-2014
▁କବିତା	-2015
▁.......	-2016
▁India	-2017
lt	-2018
ବାନ	-2019
irst	-2020
▁ଟୁକୁ	-2021
▁ଦିନର	-2022
▁ପଛରେ	-2023
▁ବାସି	-2024
select	-2025
▁unicode	-2026
pa	-2027
ts	-2028
ସହ	-2029
▁14	-2030
କ୍ଷ୍	-2031
▁ଦୂର	-2032
▁ଭଳି	-2033
▁ଦର୍ଶାନ୍ତୁ	-2034
ard	-2035
ran	-2036
ଦାନ	-2037
ମୁଖ	-2038
▁St	-2039
▁ଆଠ	-2040
▁୫୦	-2041
▁କିଣ	-2042
▁ଉଚ୍ଚ	-2043
▁ଜିଲା	-2044
▁ମାର୍	-2045
▁ଅକ୍ଷର	-2046
ee	-2047
ଟନ	-2048
▁22	-2049
ଯ୍ୟା	-2050
▁ଗଠନ	-2051
▁ପଛେ	-2052
▁ସ୍ପ	-2053
▁୧୯୮	-2054
▁ଘରକୁ	-2055
▁ଆତଙ୍କ	-2056
▁ଚାହିଁ	-2057
own	-2058
ମ୍ନ	-2059
ନୀତି	-2060
ିବେଶ	-2061
▁ଅବସ	-2062
ary	-2063
ଲଗା	-2064
▁କୁଆ	-2065
▁ଯାଞ୍ଚ	-2066
DI	-2067
ons	-2068
▁ଢେ	-2069
ଥିବୁ	-2070
ାତୀୟ	-2071
▁ଯେତେବେଳେ	-2072
ଏସ	-2073
▁!”	-2074
▁Go	-2075
\\\\	-2076
ାତ୍ମ	-2077
ସ୍ତାନ	-2078
▁ଫିଲ୍	-2079
▁ସମ୍ଭବ	-2080
▁ବିଜେଡି	-2081
ଫା	-2082
▁ରହିବ	-2083
ଳୟ	-2084
’,	-2085
tic	-2086
ନ୍ତେ	-2087
▁ନାୟକ	-2088
▁ଆମ୍ଭେ	-2089
▁ଚିଲେଇ	-2090
▁ଯାଇଛି	-2091
▁ଟୁକୁଡେ	-2092
enericName	-2093
ଂଚ	-2094
ୋପ	-2095
ଳକୁ	-2096
ବଧାନ	-2097
▁ଉଦ୍ଧ	-2098
▁ଚିନ୍ତା	-2099
▁ଆପଣାନ୍ତୁ	-2100
ଲର	-2101
▁X	-2102
orm	-2103
ଏହି	-2104
▁ରହ	-2105
▁କରା	-2106
▁ଭାଗ	-2107
▁here	-2108
▁ପ୍ରତିଶ	-2109
20	-2110
୨୦	-2111
ାମି	-2112
▁ଆୟ	-2113
ଗିରି	-2114
▁ଚୟନ	-2115
▁ବାଲା	-2116
▁ବସ୍ତୁ	-2117
▁ଉଇଣ୍ଡୋ	-2118
▁ସୀମାନ୍ତ	-2119
ive	-2120
ont	-2121
ଡ଼େ	-2122
▁Imp	-2123
▁ଛୋଟ	-2124
direct	-2125
▁ଘଟିଯାଏ	-2126
▁ଦୟାକରି	-2127
ଏମ୍	-2128
unit	-2129
▁ଗୃହ	-2130
▁ମେଲ	-2131
▁ବଢିବ	-2132
▁ହଠାତ୍	-2133
▁ସଂପର୍କ	-2134
▁ହେଲାଣି	-2135
▁ରାଜନୈତିକ	-2136
KCharselect	-2137
ho	-2138
ଏନ୍	-2139
କ୍ଟୋ	-2140
▁ଆସୁ	-2141
▁ଓଡି	-2142
▁ସେଇ	-2143
▁ସଂଯୋଗ	-2144
▁ସର୍ଭର	-2145
▁)	-2146
▁13	-2147
କ୍ରି	-2148
ଗ୍ରୀ	-2149
▁Mar	-2150
▁ଆରେ	-2151
▁ତିନି	-2152
olution	-2153
▁ଝ	-2154
ton	-2155
▁ସାମ୍	-2156
▁ସ୍ଥା	-2157
▁ପ୍ରଭୁ	-2158
▁ଅଧିକାରୀ	-2159
▁କରିଥାନ୍ତି	-2160
ld	-2161
▁ପଥ	-2162
ଣ୍ଡି	-2163
▁ଦିବ	-2164
▁ଭୁଲି	-2165
▁ଜାଣିବା	-2166
▁ସ୍ୱାସ୍ଥ୍ୟ	-2167
ୋନ	-2168
▁ଶୈ	-2169
ଙ୍କା	-2170
▁କରାଇ	-2171
▁ପାଇବ	-2172
▁ବୁଢା	-2173
▁ବର୍ଷା	-2174
GenericName	-2175
▁ଆହ	-2176
ସ୍ଥାୟୀ	-2177
▁ବିଜ୍ଞ	-2178
▁ମିଶ୍ର	-2179
▁redirect	-2180
ଟୁ	-2181
▁ଦିଅଁ	-2182
▁ଦିଅନ୍ତୁ	-2183
▁ହୋଇପାରେ	-2184
▁ଦୃଶ୍ୟସଂଖ୍ୟା	-2185
ହର	-2186
▁ପଢି	-2187
▁ସ୍ଵ	-2188
▁ଏସବୁ	-2189
▁ଏଠାକୁ	-2190
▁ଦିନରେ	-2191
▁ପରିଚାଳ	-2192
▁ପ୍ରଧାନ	-2193
▁Duration	-2194
▁ସେମାନଙ୍କୁ	-2195
Qu	-2196
ଚେ	-2197
ସ୍ୱ	-2198
▁de	-2199
ୱାଘା	-2200
▁ଅଂଶ	-2201
କରନ୍ତୁ	-2202
▁redirects	-2203
od	-2204
ers	-2205
ପ୍ତା	-2206
କ୍ରମଣ	-2207
ିବାସୀ	-2208
▁ରକ୍ତ	-2209
ପାରିଲା	-2210
▁କହିଥିଲେ	-2211
ine	-2212
କୃତ	-2213
କେତ	-2214
ଘାତ	-2215
)...	-2216
▁ଥରେ	-2217
େତ୍ରୀ	-2218
▁ପାର୍	-2219
▁ବାସିଥିବୁ	-2220
].	-2221
ure	-2222
▁OF	-2223
▁ଚୁ	-2224
▁com	-2225
▁କଳା	-2226
▁ଆମକୁ	-2227
▁ନମ୍ବର	-2228
▁ବଞ୍ଚି	-2229
▁ମନ୍ତ୍ରୀ	-2230
▁ମାନଙ୍କୁ	-2231
▁ସରକାରଙ୍କ	-2232
କାନ	-2233
▁ଭେ	-2234
ିତ୍ବ	-2235
▁ଗଲା	-2236
▁ବିବ	-2237
▁ରହୁ	-2238
▁ଦେବେ	-2239
▁ସମାନ	-2240
▁ପୁତ୍ର	-2241
▁ଅଭିନେତ୍ରୀ	-2242
ଟକୁ	-2243
ଅଗ୍ର	-2244
ଡିକୁ	-2245
▁ଅତି	-2246
▁ନକଲ	-2247
▁ଦିନେ	-2248
▁ସଂଖ୍ୟା	-2249
▁ୱିଣ୍ଡୋ	-2250
▁ଅସ୍ଥାୟୀ	-2251
ହାଁ	-2252
୦୦୦	-2253
▁//	-2254
▁୩୧	-2255
▁ପାଉ	-2256
▁ବିପ	-2257
▁ମଙ୍ଗ	-2258
▁ଖାଇବା	-2259
ଅଗ୍ରଲେଖ	-2260
▁କାହାଣୀ	-2261
ହୂ	-2262
=\\\\	-2263
ଲିଖିତ	-2264
▁ଆତ୍ମ	-2265
▁ପଡ଼ି	-2266
▁ପାକି	-2267
ତନ୍ତ୍ର	-2268
▁ଗ୍ରାମ	-2269
▁ପ୍ରାୟ	-2270
▁ମିନିଟ୍	-2271
▁ଟେ	-2272
arch	-2273
ିତୀୟ	-2274
▁ସ୍ବ	-2275
▁from	-2276
▁ଶାସନ	-2277
▁ଲକ୍ଷ୍ୟ	-2278
▁ମହାପାତ୍ର	-2279
ବୃ	-2280
ery	-2281
ନ୍ଦର	-2282
▁ଆହୁ	-2283
▁ତ୍ୱ	-2284
▁Last	-2285
▁କେଉଁଠି	-2286
▁ପ୍ରତ୍ୟ	-2287
:%	-2288
ting	-2289
ଗ୍ରହ	-2290
▁ଉଠି	-2291
▁ଗୁଣ	-2292
▁ଆଧାର	-2293
▁ବାବୁ	-2294
▁ମେଣ୍ଟ	-2295
▁ସାବଧାନ	-2296
ci	-2297
ର୍ଜ	-2298
ଦ୍ୟା	-2299
▁Post	-2300
▁ଉପାୟ	-2301
▁Odisha	-2302
▁ନିଶ୍ଚିତ	-2303
▁ସାଧାରଣତଃ	-2304
ତ୍ୱ	-2305
▁ଗ୍	-2306
▁ଟା	-2307
ଞ୍ଜନ	-2308
▁ସଫଳ	-2309
▁୫ଟି	-2310
▁ପୁରୁଷ	-2311
▁ସାକ୍ଷ	-2312
▁ପୁରୁଣା	-2313
▁ସମାନେେ	-2314
▁ପରୀକ୍ଷା	-2315
ଉଣୀ	-2316
ୟତା	-2317
▁ଥା	-2318
ଟିଲେ	-2319
▁8.6	-2320
▁ତଳେ	-2321
▁ସଙ୍କ	-2322
ୂର୍ଯ୍ୟ	-2323
ression	-2324
box	-2325
ସାର	-2326
▁ଫୁ	-2327
▁ରୂ	-2328
▁ଆମର	-2329
▁ମତେ	-2330
▁ସହଜ	-2331
▁ୱେବ	-2332
▁ବଲିଉ	-2333
▁ତାପରେ	-2334
▁ବଢିଲେ	-2335
ne	-2336
RAN	-2337
ଏସ୍	-2338
▁୧୪	-2339
ଚ୍ଛି	-2340
ମାରକ	-2341
▁ଦେଉ	-2342
▁୧୯୯	-2343
▁ପାରି	-2344
▁ତାହେଲେ	-2345
▁ନିର୍ଦ୍ଦେଶ	-2346
▁ସେମାନଙ୍କର	-2347
oft	-2348
ଲୋକ	-2349
▁ଶ୍ର	-2350
ସ୍ତ୍ର	-2351
▁ଗ୍ୟା	-2352
▁୨୦୧୯	-2353
▁ବିରୋଧରେ	-2354
ll	-2355
ଗୋ	-2356
ଷ୍ୟ	-2357
▁".	-2358
ଜାଣି	-2359
ାତ୍ମକ	-2360
▁କହୁଛି	-2361
▁ସମାଧାନ	-2362
▁ହେବାକୁ	-2363
15	-2364
ick	-2365
▁21	-2366
▁ଦର	-2367
▁କମ୍	-2368
First	-2369
indow	-2370
▁ବାବା	-2371
▁ଭଉଣୀ	-2372
▁ଡିସ୍କ	-2373
▁ଦିଲ୍ଲୀ	-2374
▁ଟଙ୍କାରେ	-2375
▁ସେମାନଙ୍କ	-2376
ze	-2377
୍ଵ	-2378
TOR	-2379
ଷ୍ଣ	-2380
▁ଫା	-2381
ଥିରେ	-2382
▁but	-2383
▁ଦ୍ବ	-2384
▁କହିଦେ	-2385
▁ଚାକିରି	-2386
ry	-2387
ext	-2388
ity	-2389
ust	-2390
ମ୍ୟ	-2391
ିଲା	-2392
▁ଉଦ୍	-2393
▁Lasts	-2394
▁ସମର୍ଥ	-2395
▁ସୁରକ୍ଷା	-2396
▁Impression	-2397
nu	-2398
ମତି	-2399
ମିକ	-2400
▁"%	-2401
RANS	-2402
▁ଏଲ୍	-2403
ୀଙ୍କୁ	-2404
େଶ୍ୱର	-2405
▁କାନ୍	-2406
▁ସଙ୍ଗ	-2407
ଗଡ଼	-2408
TORS	-2409
ାଇଲେ	-2410
▁ବ୍ଯ	-2411
▁ଆକାର	-2412
▁ମାରି	-2413
LATORS	-2414
▁TRANS	-2415
▁ଆସନ୍ତୁ	-2416
▁ପ୍ରକୃତ	-2417
volution	-2418
▁ସାହାଯ୍ୟ	-2419
▁TRANSLATORS	-2420
୫୦	-2421
▁କନ	-2422
▁ବସ	-2423
ପ୍ରା	-2424
ତିଙ୍କ	-2425
ଦ୍ୱାରା	-2426
▁ଆହୁରି	-2427
▁ଘଣ୍ଟା	-2428
▁ସ୍ମାରକ	-2429
ସିଆ	-2430
▁ଜୟ	-2431
,000	-2432
▁ବୋଧ	-2433
▁ଭାବ	-2434
▁ମଣିଷ	-2435
ସ୍ଥିତି	-2436
▁ଈଶ୍ବର	-2437
▁ଖାଇବେ	-2438
▁ଲୋକଟି	-2439
ମାନଙ୍କେ	-2440
▁ସନ୍ଧାନ	-2441
▁ବିଭିନ୍ନ	-2442
@}	-2443
ୋର	-2444
▁16	-2445
▁{@}	-2446
ଷ୍ଠାନ	-2447
▁ନିଜେ	-2448
▁ଶ୍ରେଣୀ	-2449
▁ମସିହାରେ	-2450
AME	-2451
▁ଅଗ	-2452
▁ଗୋଟେ	-2453
▁କହୁଛନ୍ତି	-2454
▁ପୁରସ୍କାର	-2455
12	-2456
hi	-2457
▁୭୦	-2458
form	-2459
▁ଆଣି	-2460
▁ମଞ୍ଚ	-2461
▁ଲେଖା	-2462
ନ୍ତ୍ରଣ	-2463
▁ଢେଙ୍କ	-2464
▁ବିବରଣ	-2465
▁ପିଲାଙ୍କ	-2466
▁ପ୍ରଦର୍ଶ	-2467
NG	-2468
ୟମ	-2469
ଠିଆ	-2470
▁45	-2471
▁ରଥ	-2472
ଙ୍ଗା	-2473
▁ମନା	-2474
ଯୁକ୍ତି	-2475
▁ସମ୍ମାନ	-2476
ଭବ	-2477
ାବ	-2478
ବ୍ଧ	-2479
▁ହୃ	-2480
ାନାଳ	-2481
▁ସନ୍ତ	-2482
▁ପାରିବ	-2483
▁♪♪♪♪♪	-2484
wwwwwww	-2485
▁ବିକଳ୍ପ	-2486
@@@@@@@@	-2487
▁♪♪♪♪♪♪♪	-2488
wwwwwwwww	-2489
▁♪♪♪♪♪♪...	-2490
wwwwwwwwwww	-2491
▁♪♪♪♪♪♪♪♪♪♪♪♪♪	-2492
▁♪♪♪♪♪♪♪♪♪♪♪♪♪♪	-2493
▁wwwwwwwwwwwwwww	-2494
ତିକି	-2495
▁8.8	-2496
▁ଠିଆ	-2497
ାତ୍ରୀ	-2498
▁କୋହଳ	-2499
▁ଅଭ୍ୟାସ	-2500
▁କ୍ଷମତା	-2501
▁ଲାଗିଲା	-2502
▁ଜାଣନ୍ତି	-2503
ମର	-2504
କକୁ	-2505
▁25	-2506
▁vi	-2507
▁ଉପଲ	-2508
▁କମି	-2509
▁ଦିଗ	-2510
▁ଉତ୍ସ	-2511
▁ଦିବସ	-2512
▁ଦେବଦ	-2513
▁ପ୍ରାର୍ଥ	-2514
ତ୍ଯ	-2515
▁an	-2516
▁କଦ	-2517
▁ୟା	-2518
▁ଜମି	-2519
▁ବୋଉ	-2520
▁ଆଦେଶ	-2521
▁ନକହି	-2522
▁ସାହୁ	-2523
▁short	-2524
▁କଥାକୁ	-2525
▁ପାଠ୍ୟ	-2526
▁ସ୍କୁଲ	-2527
▁କେଜାଣି	-2528
▁ଦେବାକୁ	-2529
▁ଲୋକଙ୍କ	-2530
▁ସାକ୍ଷାତ	-2531
▁ସମାନଙ୍କେ	-2532
our	-2533
ଧୀନ	-2534
ିନେ	-2535
▁ୟୁ	-2536
ନ୍ଦି	-2537
▁	-2538
ା	-2539
ି	-2540
୍	-2541
ର	-2542
କ	-2543
େ	-2544
ତ	-2545
ନ	-2546
ବ	-2547
ୁ	-2548
ହ	-2549
ସ	-2550
ମ	-2551
ପ	-2552
ଲ	-2553
ଦ	-2554
e	-2555
ଏ	-2556
ୟ	-2557
.	-2558
t	-2559
ଣ	-2560
ୋ	-2561
i	-2562
ଇ	-2563
ଆ	-2564
ଟ	-2565
o	-2566
ଛ	-2567
ଗ	-2568
a	-2569
।	-2570
ଥ	-2571
ଁ	-2572
ଯ	-2573
s	-2574
ଙ	-2575
ୀ	-2576
ଶ	-2577
ଜ	-2578
m	-2579
n	-2580
ଚ	-2581
‹	-2582
ଡ	-2583
ଅ	-2584
,	-2585
ଭ	-2586
1	-2587
ଷ	-2588
ଳ	-2589
r	-2590
ଧ	-2591
u	-2592
?	-2593
ଉ	-2594
!	-2595
l	-2596
c	-2597
ଖ	-2598
h	-2599
y	-2600
-	-2601
w	-2602
d	-2603
ଂ	-2604
S	-2605
ୂ	-2606
♪	-2607
:	-2608
ଠ	-2609
ଫ	-2610
଼	-2611
I	-2612
C	-2613
)	-2614
(	-2615
g	-2616
ୱ	-2617
ଓ	-2618
ଘ	-2619
f	-2620
୧	-2621
0	-2622
ୃ	-2623
p	-2624
N	-2625
’	-2626
ଞ	-2627
୦	-2628
G	-2629
2	-2630
"	-2631
4	-2632
k	-2633
B	-2634
A	-2635
“	-2636
”	-2637
b	-2638
ଢ	-2639
9	-2640
3	-2641
v	-2642
T	-2643
ଃ	-2644
୨	-2645
_	-2646
'	-2647
@	-2648
5	-2649
7	-2650
E	-2651
6	-2652
D	-2653
%	-2654
R	-2655
୯	-2656
୫	-2657
O	-2658
/	-2659
M	-2660
୩	-2661
P	-2662
8	-2663
ẹ	-2664
L	-2665
୮	-2666
ୌ	-2667
W	-2668
୪	-2669
ଵ	-2670
‘	-2671
F	-2672
]	-2673
K	-2674
;	-2675
[	-2676
୬	-2677
ଈ	-2678
H	-2679
୭	-2680
ୈ	-2681
x	-2682
–	-2683
ଝ	-2684
Z	-2685
X	-2686
U	-2687
J	-2688
V	-2689
\	-2690
û	-2691
ò	-2692
॰	-2693
&	-2694
Y	-2695
‍	-2696
÷	-2697
ଋ	-2698
୤	-2699
=	-2700
Q	-2701
`	-2702
—	-2703
j	-2704
þ	-2705
á	-2706
🙏	-2707
ù	-2708
ú	-2709
#	-2710
{	-2711
↑	-2712
}	-2713
z	-2714
q	-2715
œ	-2716
ሳ	-2717
+	-2718
*	-2719
ଔ	-2720
←	-2721
┈	-2722
ā	-2723
~	-2724
║	-2725
»	-2726
•	-2727
ଐ	-2728
₹	-2729
©	-2730
᭫	-2731
ō	-2732
·	-2733
ē	-2734
$	-2735
♡	-2736
ਾ	-2737
ຨ	-2738
ଊ	-2739
ī	-2740
