<unk>	0
<s>	0
</s>	0
<0x00>	0
<0x01>	0
<0x02>	0
<0x03>	0
<0x04>	0
<0x05>	0
<0x06>	0
<0x07>	0
<0x08>	0
<0x09>	0
<0x0A>	0
<0x0B>	0
<0x0C>	0
<0x0D>	0
<0x0E>	0
<0x0F>	0
<0x10>	0
<0x11>	0
<0x12>	0
<0x13>	0
<0x14>	0
<0x15>	0
<0x16>	0
<0x17>	0
<0x18>	0
<0x19>	0
<0x1A>	0
<0x1B>	0
<0x1C>	0
<0x1D>	0
<0x1E>	0
<0x1F>	0
<0x20>	0
<0x21>	0
<0x22>	0
<0x23>	0
<0x24>	0
<0x25>	0
<0x26>	0
<0x27>	0
<0x28>	0
<0x29>	0
<0x2A>	0
<0x2B>	0
<0x2C>	0
<0x2D>	0
<0x2E>	0
<0x2F>	0
<0x30>	0
<0x31>	0
<0x32>	0
<0x33>	0
<0x34>	0
<0x35>	0
<0x36>	0
<0x37>	0
<0x38>	0
<0x39>	0
<0x3A>	0
<0x3B>	0
<0x3C>	0
<0x3D>	0
<0x3E>	0
<0x3F>	0
<0x40>	0
<0x41>	0
<0x42>	0
<0x43>	0
<0x44>	0
<0x45>	0
<0x46>	0
<0x47>	0
<0x48>	0
<0x49>	0
<0x4A>	0
<0x4B>	0
<0x4C>	0
<0x4D>	0
<0x4E>	0
<0x4F>	0
<0x50>	0
<0x51>	0
<0x52>	0
<0x53>	0
<0x54>	0
<0x55>	0
<0x56>	0
<0x57>	0
<0x58>	0
<0x59>	0
<0x5A>	0
<0x5B>	0
<0x5C>	0
<0x5D>	0
<0x5E>	0
<0x5F>	0
<0x60>	0
<0x61>	0
<0x62>	0
<0x63>	0
<0x64>	0
<0x65>	0
<0x66>	0
<0x67>	0
<0x68>	0
<0x69>	0
<0x6A>	0
<0x6B>	0
<0x6C>	0
<0x6D>	0
<0x6E>	0
<0x6F>	0
<0x70>	0
<0x71>	0
<0x72>	0
<0x73>	0
<0x74>	0
<0x75>	0
<0x76>	0
<0x77>	0
<0x78>	0
<0x79>	0
<0x7A>	0
<0x7B>	0
<0x7C>	0
<0x7D>	0
<0x7E>	0
<0x7F>	0
<0x80>	0
<0x81>	0
<0x82>	0
<0x83>	0
<0x84>	0
<0x85>	0
<0x86>	0
<0x87>	0
<0x88>	0
<0x89>	0
<0x8A>	0
<0x8B>	0
<0x8C>	0
<0x8D>	0
<0x8E>	0
<0x8F>	0
<0x90>	0
<0x91>	0
<0x92>	0
<0x93>	0
<0x94>	0
<0x95>	0
<0x96>	0
<0x97>	0
<0x98>	0
<0x99>	0
<0x9A>	0
<0x9B>	0
<0x9C>	0
<0x9D>	0
<0x9E>	0
<0x9F>	0
<0xA0>	0
<0xA1>	0
<0xA2>	0
<0xA3>	0
<0xA4>	0
<0xA5>	0
<0xA6>	0
<0xA7>	0
<0xA8>	0
<0xA9>	0
<0xAA>	0
<0xAB>	0
<0xAC>	0
<0xAD>	0
<0xAE>	0
<0xAF>	0
<0xB0>	0
<0xB1>	0
<0xB2>	0
<0xB3>	0
<0xB4>	0
<0xB5>	0
<0xB6>	0
<0xB7>	0
<0xB8>	0
<0xB9>	0
<0xBA>	0
<0xBB>	0
<0xBC>	0
<0xBD>	0
<0xBE>	0
<0xBF>	0
<0xC0>	0
<0xC1>	0
<0xC2>	0
<0xC3>	0
<0xC4>	0
<0xC5>	0
<0xC6>	0
<0xC7>	0
<0xC8>	0
<0xC9>	0
<0xCA>	0
<0xCB>	0
<0xCC>	0
<0xCD>	0
<0xCE>	0
<0xCF>	0
<0xD0>	0
<0xD1>	0
<0xD2>	0
<0xD3>	0
<0xD4>	0
<0xD5>	0
<0xD6>	0
<0xD7>	0
<0xD8>	0
<0xD9>	0
<0xDA>	0
<0xDB>	0
<0xDC>	0
<0xDD>	0
<0xDE>	0
<0xDF>	0
<0xE0>	0
<0xE1>	0
<0xE2>	0
<0xE3>	0
<0xE4>	0
<0xE5>	0
<0xE6>	0
<0xE7>	0
<0xE8>	0
<0xE9>	0
<0xEA>	0
<0xEB>	0
<0xEC>	0
<0xED>	0
<0xEE>	0
<0xEF>	0
<0xF0>	0
<0xF1>	0
<0xF2>	0
<0xF3>	0
<0xF4>	0
<0xF5>	0
<0xF6>	0
<0xF7>	0
<0xF8>	0
<0xF9>	0
<0xFA>	0
<0xFB>	0
<0xFC>	0
<0xFD>	0
<0xFE>	0
<0xFF>	0
▁କ	-0
▁ପ	-1
▁ସ	-2
୍ତ	-3
▁ବ	-4
ରେ	-5
▁ମ	-6
ହି	-7
ାର	-8
▁ଏ	-9
ନ୍ତ	-10
▁ଆ	-11
୍ର	-12
ଙ୍	-13
▁ହ	-14
▁ନ	-15
୍ୟ	-16
▁‹	-17
କୁ	-18
ିବ	-19
▁ତ	-20
▁କର	-21
▁ଦ	-22
▁ଅ	-23
ଲା	-24
ାଇ	-25
ଲେ	-26
▁କି	-27
▁।	-28
ର୍	-29
ାନ	-30
ଙ୍କ	-31
ଛି	-32
▁ସେ	-33
▁ଯ	-34
ହା	-35
ନ୍ତୁ	-36
ିକ	-37
▁1	-38
▁ର	-39
▁!	-40
▁ହେ	-41
▁ବି	-42
▁ଭ	-43
▁ଚ	-44
ିବା	-45
▁କହି	-46
ମ୍	-47
ିତ	-48
ବେ	-49
st	-50
▁ଗ	-51
▁ପ୍ର	-52
ାହି	-53
ନ୍ତି	-54
ିନ	-55
▁ଜ	-56
ାହିଁ	-57
ti	-58
ଥି	-59
ାତ	-60
ାମ	-61
▁କେ	-62
▁ଶ	-63
▁ତା	-64
ଥା	-65
ଲି	-66
▁m	-67
ଟି	-68
କ୍	-69
ye	-70
▁ଉ	-71
ଡ଼	-72
▁ପାଇ	-73
ରି	-74
▁?	-75
▁(	-76
ବା	-77
ସ୍	-78
ରୁ	-79
ନ୍	-80
ମାନ	-81
in	-82
▁ଦେ	-83
▁କରି	-84
ଲୋ	-85
▁I	-86
▁ଓ	-87
on	-88
ଙ୍କୁ	-89
▁କହିଲେ	-90
me	-91
୍ୱ	-92
..	-93
▁କିନ୍ତୁ	-94
ଣ୍	-95
ନା	-96
ଷ୍	-97
ସି	-98
▁ମୁ	-99
▁ବା	-100
▁ନାହିଁ	-101
▁ନି	-102
▁ଫ	-103
ାରେ	-104
▁ଘ	-105
▁ଏହା	-106
▁ଏହି	-107
▁ପାଇଁ	-108
ୋଇ	-109
ଞ୍	-110
ଛନ୍ତି	-111
le	-112
୍ୟା	-113
▁h	-114
ଡି	-115
ହାର	-116
▁ମୋ	-117
ତେ	-118
▁ହେଲା	-119
ra	-120
▁“	-121
♪♪	-122
▁ଖ	-123
▁ପା	-124
▁ହୋଇ	-125
ହେ	-126
▁ଟ	-127
କି	-128
▁ଆପ	-129
ତି	-130
CG	-131
ସ୍ତ	-132
ଙ୍ଗ	-133
▁କରୁ	-134
▁ସମ	-135
ଦ୍	-136
ଧ୍ୟ	-137
iti	-138
▁S	-139
▁ଆପଣ	-140
ଣି	-141
କ୍ଷ	-142
▁IS	-143
▁B	-144
ଥିବା	-145
ut	-146
ଦି	-147
ଦେ	-148
▁ye	-149
▁hu	-150
miti	-151
▁huye	-152
▁yemiti	-153
▁ଚା	-154
ame	-155
ମା	-156
ତା	-157
ଛା	-158
▁ଭା	-159
ଇସ	-160
▁i	-161
ww	-162
ମ୍ଭ	-163
ମେ	-164
ାର୍	-165
ଦିନ	-166
▁ପଇସ	-167
▁ତୁ	-168
▁୧	-169
ou	-170
▁ଯା	-171
▁ମଧ୍ୟ	-172
...	-173
▁ଯେ	-174
▁ମୁଁ	-175
▁-	-176
re	-177
▁ପି	-178
cle	-179
କା	-180
ର୍ଷ	-181
ଞ୍ଚ	-182
ହୁ	-183
▁ଅନ	-184
▁ଡ	-185
କାର	-186
ଡ଼ି	-187
ଳେ	-188
▁ପୁ	-189
ଦ୍ଧ	-190
▁ବେ	-191
ବୁ	-192
Name	-193
▁mi	-194
▁ସେଦିନ	-195
ing	-196
▁But	-197
racle	-198
▁miracle	-199
▁ଚି	-200
କ୍ତ	-201
▁ମି	-202
▁.	-203
ୂର୍	-204
an	-205
ମି	-206
▁ସ୍	-207
ବଂ	-208
ାଜ	-209
ଥିଲେ	-210
at	-211
ପରେ	-212
▁A	-213
ଗୁ	-214
▁କରନ୍ତୁ	-215
tion	-216
▁ଏବଂ	-217
▁"	-218
ଟର	-219
er	-220
ଳି	-221
ରରେ	-222
▁ମା	-223
ତ୍ତ	-224
ବି	-225
▁କରିବା	-226
▁ବ୍ୟ	-227
ଯ୍ୟ	-228
▁t	-229
▁ହାତ	-230
ଜି	-231
▁ସଂ	-232
ୋଗ	-233
ଥିଲା	-234
▁ନା	-235
▁କୁ	-236
ିବେ	-237
▁କା	-238
▁ଆଉ	-239
ଲ୍	-240
ମାନେ	-241
ଣ୍ଡ	-242
▁ଲୋ	-243
▁ଏକ	-244
ଥାଏ	-245
▁2	-246
▁ପର	-247
ଶ୍	-248
▁କରୁଛି	-249
▁ବର୍ଷ	-250
▁କଥା	-251
▁ଧ	-252
▁ଆସ	-253
mo	-254
▁ସା	-255
▁ମହି	-256
▁ତେ	-257
▁ମହିଳ	-258
▁ଲ	-259
▁s	-260
▁ପଇସା	-261
ାରୁ	-262
▁ରେ	-263
▁ନୁ	-264
ଷ୍ଟ	-265
ଙ୍କର	-266
or	-267
▁mẹ	-268
▁ପୂର୍	-269
କର	-270
▁୨	-271
▁ଲୋକ	-272
ch	-273
▁କଣ	-274
୍ରେ	-275
king	-276
ତ୍	-277
ାଯ	-278
▁କିଛି	-279
ନି	-280
▁ହାତୀ	-281
ar	-282
▁ଜା	-283
moking	-284
ିତି	-285
▁କେବେ	-286
▁ଦୁ	-287
▁Smoking	-288
ରା	-289
୍ତ୍ତ	-290
▁ଅଛି	-291
▁ପୂର୍ବ	-292
▁ସୁ	-293
▁ଦେଖ	-294
୍ରା	-295
ଣା	-296
୍ରୀ	-297
ପା	-298
▁ଅଧ	-299
▁ଆମ	-300
▁କାହିଁ	-301
ହେଁ	-302
▁l	-303
ାରି	-304
▁n	-305
▁କହିଲା	-306
▁ଇ	-307
ବର	-308
ନ୍ଦ	-309
▁ରହି	-310
▁f	-311
▁ଏବେ	-312
▁ବ୍ୟବ	-313
▁କ୍	-314
ୀର	-315
▁ଗୋ	-316
ିକା	-317
▁କାହିଁକି	-318
ପି	-319
▁ସବୁ	-320
▁ନେ	-321
♪♪♪♪	-322
▁ବେଳେ	-323
nd	-324
om	-325
▁ନୁହେଁ	-326
▁ସ୍ୱ	-327
▁ହେବ	-328
▁4	-329
▁ଆଃ	-330
ଦା	-331
ଟେ	-332
▁T	-333
nt	-334
▁ଯଦି	-335
ic	-336
▁a	-337
▁C	-338
ପ୍ର	-339
ୀୟ	-340
ଦେଶ	-341
ve	-342
ଷୟ	-343
▁ଉପ	-344
▁କେତେ	-345
ାରଣ	-346
▁ଥିବା	-347
ଚନା	-348
ମିତି	-349
ପାର	-350
ୃତ	-351
▁ଛା	-352
▁କାର୍	-353
▁ପୂର୍ବରୁ	-354
▁ତେବେ	-355
▁ବିଷୟ	-356
he	-357
ମିଟର	-358
▁କିଲୋ	-359
wwww	-360
▁ରାଜ	-361
▁N	-362
କ୍ସ	-363
▁ହେଲେ	-364
▁ପରି	-365
▁is	-366
▁ବ୍ୟବହାର	-367
▁ପିଛା	-368
▁p	-369
ାୟ	-370
▁:	-371
▁କିଲୋମିଟର	-372
▁,	-373
▁‘	-374
ଉଁ	-375
▁ଅନୁ	-376
▁0	-377
▁ହଁ	-378
ction	-379
▁b	-380
▁ସମ୍	-381
▁ଡି	-382
ଞ୍ଚି	-383
▁ବୃ	-384
ଠି	-385
ଟା	-386
ଚ୍	-387
ର୍ତ୍ତ	-388
▁କରାଯ	-389
▁3	-390
▁ଅଧିକ	-391
ପରି	-392
ହନ୍ତି	-393
▁M	-394
▁କ୍ଷ	-395
▁ଯାଇ	-396
▁ପରେ	-397
▁ଆସି	-398
▁ପ୍ରତି	-399
▁କୋ	-400
▁ଲା	-401
ରଣ	-402
▁ଏଥି	-403
▁ଦି	-404
ଡ଼ା	-405
ଦ୍ଧି	-406
ଶୁ	-407
▁(_	-408
▁c	-409
ଭା	-410
▁ଜଣ	-411
▁ପହ	-412
al	-413
▁ଦିନ	-414
▁ବିଶ	-415
ାମାନ	-416
▁ସହ	-417
▁ବିଜ	-418
ୋଲି	-419
▁ଚିନ୍ତ	-420
▁ପାଖ	-421
▁ସମସ୍ତ	-422
▁୩	-423
▁ତାଙ୍କ	-424
▁ଠ	-425
:1	-426
▁ତାହା	-427
▁P	-428
▁ଏହାର	-429
▁ମାନ	-430
ାରା	-431
ତ୍ର	-432
ହିତ	-433
▁ନୂ	-434
ଟିଏ	-435
▁ଘର	-436
▁ତାଙ୍କୁ	-437
▁ବୃଦ୍ଧି	-438
▁no	-439
ନାହିଁ	-440
di	-441
ଷ୍ଠ	-442
▁କହନ୍ତି	-443
ଯା	-444
▁ଭାଷ	-445
ବନ	-446
କ୍ତି	-447
▁ଦେଇ	-448
▁ନିର୍	-449
ଶା	-450
ଧାନ	-451
▁ପହଞ୍ଚି	-452
▁%	-453
ଉଛି	-454
ୋଧ	-455
▁କାର୍ଯ୍ୟ	-456
of	-457
▁ଛ	-458
ସ୍ଥ	-459
es	-460
▁ଗ୍ର	-461
ଏହା	-462
▁ଉତ୍ତ	-463
▁ଏହାପରେ	-464
ୁର	-465
▁ସମୟ	-466
▁ଜାଣ	-467
ri	-468
▁_	-469
▁ଦୁଇ	-470
▁ମହିଳା	-471
▁W	-472
▁ଗୁ	-473
▁ଏଥିରେ	-474
▁ଟୋ	-475
▁କିଏ	-476
ment	-477
▁ତୁମ୍ଭ	-478
▁ଯୁ	-479
▁ବୁ	-480
atch	-481
▁O	-482
▁7	-483
ିନା	-484
କ୍ର	-485
▁ବସ୍	-486
▁ଖା	-487
▁9	-488
▁ପହଞ୍ଚିଛି	-489
ound	-490
▁ପାଇଛି	-491
▁ଟଙ୍କ	-492
▁ଚାଲି	-493
ାମାନଙ୍କ	-494
▁ପଇସାରେ	-495
▁ମନ	-496
ଟ୍	-497
ରକାର	-498
▁ଆସେ	-499
▁ଦରରେ	-500
ଲୁ	-501
ଚିତ	-502
ିବାର	-503
▁ଡା	-504
ru	-505
:16	-506
▁if	-507
▁ନିଜ	-508
it	-509
▁w	-510
▁04	-511
▁ସି	-512
ମୁ	-513
▁ମେ	-514
▁ଗୋଟିଏ	-515
▁ସହିତ	-516
ଜ୍	-517
▁–	-518
୍ୟୁ	-519
en	-520
▁in	-521
ଲେଖ	-522
▁ଯାହା	-523
▁Action	-524
▁match	-525
ାତି	-526
▁04:16	-527
▁found	-528
▁y	-529
▁ମହିଳାମାନଙ୍କ	-530
▁ଅବ	-531
▁ଚିନ୍ତାର	-532
▁ଥ	-533
▁୫	-534
▁୨୦	-535
▁ଟୋଡ଼ା	-536
▁D	-537
▁	-538
ା	-539
ି	-540
୍	-541
ର	-542
କ	-543
େ	-544
ତ	-545
ନ	-546
ବ	-547
ୁ	-548
ହ	-549
ସ	-550
ମ	-551
ପ	-552
ଲ	-553
ଦ	-554
e	-555
ଏ	-556
ୟ	-557
.	-558
t	-559
ଣ	-560
ୋ	-561
i	-562
ଇ	-563
ଆ	-564
ଟ	-565
o	-566
ଛ	-567
ଗ	-568
a	-569
।	-570
ଥ	-571
ଁ	-572
ଯ	-573
s	-574
ଙ	-575
ୀ	-576
ଶ	-577
ଜ	-578
m	-579
n	-580
ଚ	-581
‹	-582
ଡ	-583
ଅ	-584
,	-585
ଭ	-586
1	-587
ଷ	-588
ଳ	-589
r	-590
ଧ	-591
u	-592
?	-593
ଉ	-594
!	-595
l	-596
c	-597
ଖ	-598
h	-599
y	-600
-	-601
w	-602
d	-603
ଂ	-604
S	-605
ୂ	-606
♪	-607
:	-608
ଠ	-609
ଫ	-610
଼	-611
I	-612
C	-613
)	-614
(	-615
g	-616
ୱ	-617
ଓ	-618
ଘ	-619
f	-620
୧	-621
0	-622
ୃ	-623
p	-624
N	-625
’	-626
ଞ	-627
୦	-628
G	-629
2	-630
"	-631
4	-632
k	-633
B	-634
A	-635
“	-636
”	-637
b	-638
ଢ	-639
9	-640
3	-641
v	-642
T	-643
ଃ	-644
୨	-645
_	-646
'	-647
@	-648
5	-649
7	-650
E	-651
6	-652
D	-653
%	-654
R	-655
୯	-656
୫	-657
O	-658
/	-659
M	-660
୩	-661
P	-662
8	-663
ẹ	-664
L	-665
୮	-666
ୌ	-667
W	-668
୪	-669
ଵ	-670
‘	-671
F	-672
]	-673
K	-674
;	-675
[	-676
୬	-677
ଈ	-678
H	-679
୭	-680
ୈ	-681
x	-682
–	-683
ଝ	-684
Z	-685
X	-686
U	-687
J	-688
V	-689
\	-690
û	-691
ò	-692
॰	-693
&	-694
Y	-695
‍	-696
÷	-697
ଋ	-698
୤	-699
=	-700
Q	-701
`	-702
—	-703
j	-704
þ	-705
á	-706
🙏	-707
ù	-708
ú	-709
#	-710
{	-711
↑	-712
}	-713
z	-714
q	-715
œ	-716
ሳ	-717
+	-718
*	-719
ଔ	-720
←	-721
┈	-722
ā	-723
~	-724
║	-725
»	-726
•	-727
ଐ	-728
₹	-729
©	-730
᭫	-731
ō	-732
·	-733
ē	-734
$	-735
♡	-736
ਾ	-737
ຨ	-738
ଊ	-739
ī	-740
