<unk>	0
<s>	0
</s>	0
<0x00>	0
<0x01>	0
<0x02>	0
<0x03>	0
<0x04>	0
<0x05>	0
<0x06>	0
<0x07>	0
<0x08>	0
<0x09>	0
<0x0A>	0
<0x0B>	0
<0x0C>	0
<0x0D>	0
<0x0E>	0
<0x0F>	0
<0x10>	0
<0x11>	0
<0x12>	0
<0x13>	0
<0x14>	0
<0x15>	0
<0x16>	0
<0x17>	0
<0x18>	0
<0x19>	0
<0x1A>	0
<0x1B>	0
<0x1C>	0
<0x1D>	0
<0x1E>	0
<0x1F>	0
<0x20>	0
<0x21>	0
<0x22>	0
<0x23>	0
<0x24>	0
<0x25>	0
<0x26>	0
<0x27>	0
<0x28>	0
<0x29>	0
<0x2A>	0
<0x2B>	0
<0x2C>	0
<0x2D>	0
<0x2E>	0
<0x2F>	0
<0x30>	0
<0x31>	0
<0x32>	0
<0x33>	0
<0x34>	0
<0x35>	0
<0x36>	0
<0x37>	0
<0x38>	0
<0x39>	0
<0x3A>	0
<0x3B>	0
<0x3C>	0
<0x3D>	0
<0x3E>	0
<0x3F>	0
<0x40>	0
<0x41>	0
<0x42>	0
<0x43>	0
<0x44>	0
<0x45>	0
<0x46>	0
<0x47>	0
<0x48>	0
<0x49>	0
<0x4A>	0
<0x4B>	0
<0x4C>	0
<0x4D>	0
<0x4E>	0
<0x4F>	0
<0x50>	0
<0x51>	0
<0x52>	0
<0x53>	0
<0x54>	0
<0x55>	0
<0x56>	0
<0x57>	0
<0x58>	0
<0x59>	0
<0x5A>	0
<0x5B>	0
<0x5C>	0
<0x5D>	0
<0x5E>	0
<0x5F>	0
<0x60>	0
<0x61>	0
<0x62>	0
<0x63>	0
<0x64>	0
<0x65>	0
<0x66>	0
<0x67>	0
<0x68>	0
<0x69>	0
<0x6A>	0
<0x6B>	0
<0x6C>	0
<0x6D>	0
<0x6E>	0
<0x6F>	0
<0x70>	0
<0x71>	0
<0x72>	0
<0x73>	0
<0x74>	0
<0x75>	0
<0x76>	0
<0x77>	0
<0x78>	0
<0x79>	0
<0x7A>	0
<0x7B>	0
<0x7C>	0
<0x7D>	0
<0x7E>	0
<0x7F>	0
<0x80>	0
<0x81>	0
<0x82>	0
<0x83>	0
<0x84>	0
<0x85>	0
<0x86>	0
<0x87>	0
<0x88>	0
<0x89>	0
<0x8A>	0
<0x8B>	0
<0x8C>	0
<0x8D>	0
<0x8E>	0
<0x8F>	0
<0x90>	0
<0x91>	0
<0x92>	0
<0x93>	0
<0x94>	0
<0x95>	0
<0x96>	0
<0x97>	0
<0x98>	0
<0x99>	0
<0x9A>	0
<0x9B>	0
<0x9C>	0
<0x9D>	0
<0x9E>	0
<0x9F>	0
<0xA0>	0
<0xA1>	0
<0xA2>	0
<0xA3>	0
<0xA4>	0
<0xA5>	0
<0xA6>	0
<0xA7>	0
<0xA8>	0
<0xA9>	0
<0xAA>	0
<0xAB>	0
<0xAC>	0
<0xAD>	0
<0xAE>	0
<0xAF>	0
<0xB0>	0
<0xB1>	0
<0xB2>	0
<0xB3>	0
<0xB4>	0
<0xB5>	0
<0xB6>	0
<0xB7>	0
<0xB8>	0
<0xB9>	0
<0xBA>	0
<0xBB>	0
<0xBC>	0
<0xBD>	0
<0xBE>	0
<0xBF>	0
<0xC0>	0
<0xC1>	0
<0xC2>	0
<0xC3>	0
<0xC4>	0
<0xC5>	0
<0xC6>	0
<0xC7>	0
<0xC8>	0
<0xC9>	0
<0xCA>	0
<0xCB>	0
<0xCC>	0
<0xCD>	0
<0xCE>	0
<0xCF>	0
<0xD0>	0
<0xD1>	0
<0xD2>	0
<0xD3>	0
<0xD4>	0
<0xD5>	0
<0xD6>	0
<0xD7>	0
<0xD8>	0
<0xD9>	0
<0xDA>	0
<0xDB>	0
<0xDC>	0
<0xDD>	0
<0xDE>	0
<0xDF>	0
<0xE0>	0
<0xE1>	0
<0xE2>	0
<0xE3>	0
<0xE4>	0
<0xE5>	0
<0xE6>	0
<0xE7>	0
<0xE8>	0
<0xE9>	0
<0xEA>	0
<0xEB>	0
<0xEC>	0
<0xED>	0
<0xEE>	0
<0xEF>	0
<0xF0>	0
<0xF1>	0
<0xF2>	0
<0xF3>	0
<0xF4>	0
<0xF5>	0
<0xF6>	0
<0xF7>	0
<0xF8>	0
<0xF9>	0
<0xFA>	0
<0xFB>	0
<0xFC>	0
<0xFD>	0
<0xFE>	0
<0xFF>	0
▁କ	-0
▁ପ	-1
▁ସ	-2
୍ତ	-3
▁ବ	-4
ରେ	-5
▁ମ	-6
ହି	-7
ାର	-8
▁ଏ	-9
ନ୍ତ	-10
▁ଆ	-11
୍ର	-12
ଙ୍	-13
▁ହ	-14
▁ନ	-15
୍ୟ	-16
▁‹	-17
କୁ	-18
ିବ	-19
▁ତ	-20
▁କର	-21
▁ଦ	-22
▁ଅ	-23
ଲା	-24
ାଇ	-25
ଲେ	-26
▁କି	-27
▁।	-28
ର୍	-29
ାନ	-30
ଙ୍କ	-31
ଛି	-32
▁ସେ	-33
▁ଯ	-34
ହା	-35
ନ୍ତୁ	-36
ିକ	-37
▁1	-38
▁ର	-39
▁!	-40
▁ହେ	-41
▁ବି	-42
▁ଭ	-43
▁ଚ	-44
ିବା	-45
▁କହି	-46
ମ୍	-47
ିତ	-48
ବେ	-49
st	-50
▁ଗ	-51
▁ପ୍ର	-52
ାହି	-53
ନ୍ତି	-54
ିନ	-55
▁ଜ	-56
ାହିଁ	-57
ti	-58
ଥି	-59
ାତ	-60
ାମ	-61
▁କେ	-62
▁ଶ	-63
▁ତା	-64
ଥା	-65
ଲି	-66
▁m	-67
ଟି	-68
କ୍	-69
ye	-70
▁ଉ	-71
ଡ଼	-72
▁ପାଇ	-73
ରି	-74
▁?	-75
▁(	-76
ବା	-77
ସ୍	-78
ରୁ	-79
ନ୍	-80
ମାନ	-81
in	-82
▁ଦେ	-83
▁କରି	-84
ଲୋ	-85
▁I	-86
▁ଓ	-87
on	-88
ଙ୍କୁ	-89
▁କହିଲେ	-90
me	-91
୍ୱ	-92
..	-93
▁କିନ୍ତୁ	-94
ଣ୍	-95
ନା	-96
ଷ୍	-97
ସି	-98
▁ମୁ	-99
▁ବା	-100
▁ନାହିଁ	-101
▁ନି	-102
▁ଫ	-103
ାରେ	-104
▁ଘ	-105
▁ଏହା	-106
▁ଏହି	-107
▁ପାଇଁ	-108
ୋଇ	-109
ଞ୍	-110
ଛନ୍ତି	-111
le	-112
୍ୟା	-113
▁h	-114
ଡି	-115
ହାର	-116
▁ମୋ	-117
ତେ	-118
▁ହେଲା	-119
ra	-120
▁“	-121
♪♪	-122
▁ଖ	-123
▁ପା	-124
▁ହୋଇ	-125
ହେ	-126
▁ଟ	-127
କି	-128
▁ଆପ	-129
ତି	-130
CG	-131
ସ୍ତ	-132
ଙ୍ଗ	-133
▁କରୁ	-134
▁ସମ	-135
ଦ୍	-136
ଧ୍ୟ	-137
iti	-138
▁S	-139
▁ଆପଣ	-140
ଣି	-141
କ୍ଷ	-142
▁IS	-143
▁B	-144
ଥିବା	-145
ut	-146
ଦି	-147
ଦେ	-148
▁ye	-149
▁hu	-150
miti	-151
▁huye	-152
▁yemiti	-153
▁ଚା	-154
ame	-155
ମା	-156
ତା	-157
ଛା	-158
▁ଭା	-159
ଇସ	-160
▁i	-161
ww	-162
ମ୍ଭ	-163
ମେ	-164
ାର୍	-165
ଦିନ	-166
▁ପଇସ	-167
▁ତୁ	-168
▁୧	-169
ou	-170
▁ଯା	-171
▁ମଧ୍ୟ	-172
...	-173
▁ଯେ	-174
▁ମୁଁ	-175
▁-	-176
re	-177
▁ପି	-178
cle	-179
କା	-180
ର୍ଷ	-181
ଞ୍ଚ	-182
ହୁ	-183
▁ଅନ	-184
▁ଡ	-185
କାର	-186
ଡ଼ି	-187
ଳେ	-188
▁ପୁ	-189
ଦ୍ଧ	-190
▁ବେ	-191
ବୁ	-192
Name	-193
▁mi	-194
▁ସେଦିନ	-195
ing	-196
▁But	-197
racle	-198
▁miracle	-199
▁ଚି	-200
କ୍ତ	-201
▁ମି	-202
▁.	-203
ୂର୍	-204
an	-205
ମି	-206
▁ସ୍	-207
ବଂ	-208
ାଜ	-209
ଥିଲେ	-210
at	-211
ପରେ	-212
▁A	-213
ଗୁ	-214
▁କରନ୍ତୁ	-215
tion	-216
▁ଏବଂ	-217
▁"	-218
ଟର	-219
er	-220
ଳି	-221
ରରେ	-222
▁ମା	-223
ତ୍ତ	-224
ବି	-225
▁କରିବା	-226
▁ବ୍ୟ	-227
ଯ୍ୟ	-228
▁t	-229
▁ହାତ	-230
ଜି	-231
▁ସଂ	-232
ୋଗ	-233
ଥିଲା	-234
▁ନା	-235
▁କୁ	-236
ିବେ	-237
▁କା	-238
▁ଆଉ	-239
ଲ୍	-240
ମାନେ	-241
ଣ୍ଡ	-242
▁ଲୋ	-243
▁ଏକ	-244
ଥାଏ	-245
▁2	-246
▁ପର	-247
ଶ୍	-248
▁କରୁଛି	-249
▁ବର୍ଷ	-250
▁କଥା	-251
▁ଧ	-252
▁ଆସ	-253
mo	-254
▁ସା	-255
▁ମହି	-256
▁ତେ	-257
▁ମହିଳ	-258
▁ଲ	-259
▁s	-260
▁ପଇସା	-261
ାରୁ	-262
▁ରେ	-263
▁ନୁ	-264
ଷ୍ଟ	-265
ଙ୍କର	-266
or	-267
▁mẹ	-268
▁ପୂର୍	-269
କର	-270
▁୨	-271
▁ଲୋକ	-272
ch	-273
▁କଣ	-274
୍ରେ	-275
king	-276
ତ୍	-277
ାଯ	-278
▁କିଛି	-279
ନି	-280
▁ହାତୀ	-281
ar	-282
▁ଜା	-283
moking	-284
ିତି	-285
▁କେବେ	-286
▁ଦୁ	-287
▁Smoking	-288
ରା	-289
୍ତ୍ତ	-290
▁ଅଛି	-291
▁ପୂର୍ବ	-292
▁ସୁ	-293
▁ଦେଖ	-294
୍ରା	-295
ଣା	-296
୍ରୀ	-297
ପା	-298
▁ଅଧ	-299
▁ଆମ	-300
▁କାହିଁ	-301
ହେଁ	-302
▁l	-303
ାରି	-304
▁n	-305
▁କହିଲା	-306
▁ଇ	-307
ବର	-308
ନ୍ଦ	-309
▁ରହି	-310
▁f	-311
▁ଏବେ	-312
▁ବ୍ୟବ	-313
▁କ୍	-314
ୀର	-315
▁ଗୋ	-316
ିକା	-317
▁କାହିଁକି	-318
ପି	-319
▁ସବୁ	-320
▁ନେ	-321
♪♪♪♪	-322
▁ବେଳେ	-323
nd	-324
om	-325
▁ନୁହେଁ	-326
▁ସ୍ୱ	-327
▁ହେବ	-328
▁4	-329
▁ଆଃ	-330
ଦା	-331
ଟେ	-332
▁T	-333
nt	-334
▁ଯଦି	-335
ic	-336
▁a	-337
▁C	-338
ପ୍ର	-339
ୀୟ	-340
ଦେଶ	-341
ve	-342
ଷୟ	-343
▁ଉପ	-344
▁କେତେ	-345
ାରଣ	-346
▁ଥିବା	-347
ଚନା	-348
ମିତି	-349
ପାର	-350
ୃତ	-351
▁ଛା	-352
▁କାର୍	-353
▁ପୂର୍ବରୁ	-354
▁ତେବେ	-355
▁ବିଷୟ	-356
he	-357
ମିଟର	-358
▁କିଲୋ	-359
wwww	-360
▁ରାଜ	-361
▁N	-362
କ୍ସ	-363
▁ହେଲେ	-364
▁ପରି	-365
▁is	-366
▁ବ୍ୟବହାର	-367
▁ପିଛା	-368
▁p	-369
ାୟ	-370
▁:	-371
▁କିଲୋମିଟର	-372
▁,	-373
▁‘	-374
ଉଁ	-375
▁ଅନୁ	-376
▁0	-377
▁ହଁ	-378
ction	-379
▁b	-380
▁ସମ୍	-381
▁ଡି	-382
ଞ୍ଚି	-383
▁ବୃ	-384
ଠି	-385
ଟା	-386
ଚ୍	-387
ର୍ତ୍ତ	-388
▁କରାଯ	-389
▁3	-390
▁ଅଧିକ	-391
ପରି	-392
ହନ୍ତି	-393
▁M	-394
▁କ୍ଷ	-395
▁ଯାଇ	-396
▁ପରେ	-397
▁ଆସି	-398
▁ପ୍ରତି	-399
▁କୋ	-400
▁ଲା	-401
ରଣ	-402
▁ଏଥି	-403
▁ଦି	-404
ଡ଼ା	-405
ଦ୍ଧି	-406
ଶୁ	-407
▁(_	-408
▁c	-409
ଭା	-410
▁ଜଣ	-411
▁ପହ	-412
al	-413
▁ଦିନ	-414
▁ବିଶ	-415
ାମାନ	-416
▁ସହ	-417
▁ବିଜ	-418
ୋଲି	-419
▁ଚିନ୍ତ	-420
▁ପାଖ	-421
▁ସମସ୍ତ	-422
▁୩	-423
▁ତାଙ୍କ	-424
▁ଠ	-425
:1	-426
▁ତାହା	-427
▁P	-428
▁ଏହାର	-429
▁ମାନ	-430
ାରା	-431
ତ୍ର	-432
ହିତ	-433
▁ନୂ	-434
ଟିଏ	-435
▁ଘର	-436
▁ତାଙ୍କୁ	-437
▁ବୃଦ୍ଧି	-438
▁no	-439
ନାହିଁ	-440
di	-441
ଷ୍ଠ	-442
▁କହନ୍ତି	-443
ଯା	-444
▁ଭାଷ	-445
ବନ	-446
କ୍ତି	-447
▁ଦେଇ	-448
▁ନିର୍	-449
ଶା	-450
ଧାନ	-451
▁ପହଞ୍ଚି	-452
▁%	-453
ଉଛି	-454
ୋଧ	-455
▁କାର୍ଯ୍ୟ	-456
of	-457
▁ଛ	-458
ସ୍ଥ	-459
es	-460
▁ଗ୍ର	-461
ଏହା	-462
▁ଉତ୍ତ	-463
▁ଏହାପରେ	-464
ୁର	-465
▁ସମୟ	-466
▁ଜାଣ	-467
ri	-468
▁_	-469
▁ଦୁଇ	-470
▁ମହିଳା	-471
▁W	-472
▁ଗୁ	-473
▁ଏଥିରେ	-474
▁ଟୋ	-475
▁କିଏ	-476
ment	-477
▁ତୁମ୍ଭ	-478
▁ଯୁ	-479
▁ବୁ	-480
atch	-481
▁O	-482
▁7	-483
ିନା	-484
କ୍ର	-485
▁ବସ୍	-486
▁ଖା	-487
▁9	-488
▁ପହଞ୍ଚିଛି	-489
ound	-490
▁ପାଇଛି	-491
▁ଟଙ୍କ	-492
▁ଚାଲି	-493
ାମାନଙ୍କ	-494
▁ପଇସାରେ	-495
▁ମନ	-496
ଟ୍	-497
ରକାର	-498
▁ଆସେ	-499
▁ଦରରେ	-500
ଲୁ	-501
ଚିତ	-502
ିବାର	-503
▁ଡା	-504
ru	-505
:16	-506
▁if	-507
▁ନିଜ	-508
it	-509
▁w	-510
▁04	-511
▁ସି	-512
ମୁ	-513
▁ମେ	-514
▁ଗୋଟିଏ	-515
▁ସହିତ	-516
ଜ୍	-517
▁–	-518
୍ୟୁ	-519
en	-520
▁in	-521
ଲେଖ	-522
▁ଯାହା	-523
▁Action	-524
▁match	-525
ାତି	-526
▁04:16	-527
▁found	-528
▁y	-529
▁ମହିଳାମାନଙ୍କ	-530
▁ଅବ	-531
▁ଚିନ୍ତାର	-532
▁ଥ	-533
▁୫	-534
▁୨୦	-535
▁ଟୋଡ଼ା	-536
▁D	-537
ଶ୍ୟ	-538
▁ବଢ	-539
▁you	-540
ାରତ	-541
ଳା	-542
▁ରା	-543
▁4.	-544
ହଁ	-545
ୋଲ	-546
ol	-547
▁K	-548
▁1.	-549
▁ଛାଡ	-550
ାମୀ	-551
▁ପଢ	-552
୍ପ	-553
ଭି	-554
୍ଯ	-555
▁♪♪♪♪	-556
▁ହୁ	-557
ିବାକୁ	-558
ବଳ	-559
▁'	-560
▁ଆର	-561
▁ମଞ୍	-562
▁ଉତ୍ତର	-563
ୟା	-564
ଯୋଗ	-565
▁the	-566
▁ଆମେ	-567
▁୧୯	-568
▁ଅନ୍ୟ	-569
▁E	-570
▁ଗ୍ରହ	-571
▁ଶୁ	-572
omment	-573
ରୀ	-574
▁ପର୍	-575
ମାନଙ୍କ	-576
▁କରାଯାଇ	-577
ିନି	-578
ଣୀ	-579
ଡ଼ିକ	-580
▁ଏତେ	-581
▁ପାଖରେ	-582
▁d	-583
▁L	-584
େଷ	-585
▁କଲେ	-586
▁ରଖ	-587
ାତ୍ର	-588
ଲୋଚନା	-589
୍ନ	-590
▁20	-591
▁ମଞ୍ଜି	-592
▁ମିଶ	-593
▁of	-594
▁ସେହି	-595
▁କେମିତି	-596
▁କାମ	-597
ସା	-598
▁@	-599
▁ସନ୍	-600
ad	-601
ୋଜ	-602
ୀନ	-603
ବରେ	-604
ଳ୍ପ	-605
se	-606
ର୍କ	-607
କେ	-608
▁ଭାରତ	-609
▁[	-610
▁ନାମ	-611
ୋଷ	-612
ପାରେ	-613
ପ୍ତ	-614
ମାନଙ୍କୁ	-615
▁R	-616
ିବି	-617
▁ମହା	-618
▁ଜୀ	-619
▁ଦା	-620
ିକ୍	-621
▁ସ୍ଥ	-622
▁କହୁ	-623
▁ଛାଡିବ	-624
▁ସତ	-625
▁ଘେ	-626
ove	-627
ଦ୍ୟ	-628
▁ଆଈ	-629
ଣ୍ଟ	-630
▁ଆଈକୁ	-631
▁ଯାଅ	-632
▁ଫେ	-633
ଣସି	-634
ଗୁଡ଼ିକ	-635
▁ଗ୍ରହଣ	-636
ସେ	-637
▁G	-638
▁ସୂ	-639
▁ଓଡ଼ି	-640
▁ଉପରେ	-641
▁ୟ	-642
▁”	-643
▁ବହୁ	-644
▁ହି	-645
ମାଣ	-646
▁।”	-647
▁ସରକାର	-648
▁Ne	-649
ାଳ	-650
ow	-651
▁ଆଜି	-652
▁କୌ	-653
ଗି	-654
ଣ୍ଣ	-655
▁ମୂ	-656
ବାକୁ	-657
▁re	-658
te	-659
ଥାନ୍ତି	-660
mp	-661
▁ଥିଲା	-662
▁ଏଲ	-663
ଭୁ	-664
▁କେଉଁ	-665
▁ତୁମ	-666
▁ଭି	-667
▁ଆରମ୍ଭ	-668
@@	-669
୧୮	-670
▁ତୁମେ	-671
▁ରୁ	-672
ୀତ	-673
ାଇଲ	-674
▁ବିଜେ	-675
ର୍ଶ	-676
ଲକ୍ସ	-677
୦୦	-678
▁love	-679
▁ହୋଇନାହିଁ	-680
ପଥ	-681
ଶ୍ୱ	-682
ଣୁ	-683
ତନ	-684
▁ଦେଖି	-685
ତିକ	-686
▁ଅସ	-687
▁ପଚ	-688
▁ଅପ	-689
ତ୍ତ୍ୱ	-690
▁to	-691
▁ଏଲିନା	-692
?”	-693
▁ଭିତ	-694
ଟରେ	-695
▁ଟଙ୍କା	-696
▁ସ୍ୱାମୀ	-697
▁sm	-698
▁ରହିଛି	-699
▁ଡିଲକ୍ସ	-700
and	-701
ଭଳି	-702
▁ସର୍	-703
▁ମୋତେ	-704
▁ନୂଆ	-705
▁ବୋଲି	-706
▁ଯୋଗ	-707
▁ସମ୍ପ	-708
▁କୌଣସି	-709
wwwwwwww	-710
▁ପୁଅ	-711
ruti	-712
▁smruti	-713
▁ଲେଖ	-714
▁କରିବାକୁ	-715
ନ୍ତ୍ର	-716
▁କିପରି	-717
▁ଜି	-718
▁ତାଙ୍କର	-719
▁ପୃ	-720
ଡ଼ିକୁ	-721
▁ଭାବରେ	-722
ge	-723
▁ଭାଷାତ	-724
▁ସମ୍ଭ	-725
▁ଭାଷାତତ୍ତ୍ୱ	-726
ଙ୍ଗି	-727
▁ପୁଣି	-728
▁H	-729
▁କେବଳ	-730
▁ଟି	-731
ପ୍	-732
▁ମହିଳାଙ୍କ	-733
ay	-734
ଞ୍ଜ	-735
el	-736
ବ୍	-737
ସ୍ୟ	-738
un	-739
▁8	-740
ଗ୍ର	-741
ଠାରୁ	-742
ct	-743
ତ୍ୟ	-744
ପୁର	-745
▁କାହା	-746
▁ନେଇ	-747
ଡେ	-748
ସର	-749
▁ହେଉଛି	-750
▁ଏହାକୁ	-751
ସ୍ଥା	-752
ାନ୍	-753
▁କାରଣ	-754
▁ସ୍ଥାନ	-755
▁ବାଟ	-756
▁ଭଲ	-757
▁5	-758
de	-759
▁ଆପଣଙ୍କ	-760
▁୪	-761
th	-762
▁4.4	-763
▁ଆବ	-764
ମ୍ପ	-765
ଗୁଡ଼ିକୁ	-766
ତୁ	-767
▁ଅଟେ	-768
▁ଯେଉଁ	-769
ର୍ଥ	-770
▁କରୁଛନ୍ତି	-771
00	-772
ଡା	-773
ଯାଇ	-774
....	-775
କ୍ଷା	-776
ଜା	-777
▁ମିଶାଇ	-778
▁କ୍ଷୀର	-779
▁F	-780
ିଆ	-781
▁ମହେ	-782
ିତା	-783
▁ସ୍ତ	-784
ିବୁ	-785
ପାରିବେ	-786
ବକ	-787
▁ମୋଦି	-788
▁ସନ୍ଦେଶ	-789
ସନ	-790
ବାଦ	-791
ro	-792
▁ପାର	-793
ାଇଁ	-794
▁ଶା	-795
il	-796
▁ପ୍ରଦ	-797
▁ହୋଇଥାଏ	-798
ଆର	-799
ବେଳେ	-800
▁ଶେଷ	-801
▁ସୂଚନା	-802
▁201	-803
▁ମହେଶ	-804
▁ବ୍ୟା	-805
▁କରିବେ	-806
ଶ୍ନ	-807
▁ଲକ୍ଷ	-808
ାରୀ	-809
▁ଫି	-810
▁ସମୟରେ	-811
ଗା	-812
▁÷	-813
▁ଜୀବନ	-814
େଇ	-815
CGX	-816
ହୁଁ	-817
▁ପ୍ରଶ୍ନ	-818
▁ଗା	-819
▁ୱ	-820
ଟୋ	-821
▁ମୋର	-822
▁କରିଛନ୍ତି	-823
▁ଫାଇଲ	-824
Comment	-825
ce	-826
▁ଫୋଲ	-827
ନ୍ଧ	-828
▁ଭୁ	-829
ss	-830
▁ରାତି	-831
▁ଦ୍ୱ	-832
▁ଜାଣି	-833
▁ଆସିଲା	-834
▁ଖାଦ୍ୟ	-835
ଶ୍ଚ	-836
ଝି	-837
▁ନିୟ	-838
▁ଥିଲେ	-839
▁ଏମିତି	-840
ଡିକ	-841
ୋଧନ	-842
କରଣ	-843
।”	-844
ୀମା	-845
▁ପକା	-846
।"	-847
▁ଖାଇ	-848
▁♪♪♪♪♪♪♪♪	-849
▁ଶି	-850
ଠା	-851
▁be	-852
▁ନୂତନ	-853
ହାନ୍ତି	-854
▁ପ୍ରେ	-855
ଡର	-856
ଚ୍ଚ	-857
ଶ୍ୟକ	-858
ation	-859
19	-860
ଗତ	-861
▁Name	-862
vi	-863
ଗଲା	-864
▁ଜାଣନ୍ତୁ	-865
▁ଘଟ	-866
▁ପଛ	-867
ଅଛି	-868
▁ଘେରରେ	-869
ମ୍ବା	-870
ha	-871
▁ପକାନ୍ତୁ	-872
୍ରୁ	-873
▁ଆବଶ୍ୟକ	-874
▁ବିଶୋଧନ	-875
ବାର	-876
op	-877
▁ତଳି	-878
ପାରିବ	-879
ସ୍ତୁ	-880
▁ମଞ୍ଜିରେ	-881
▁ସାମ	-882
▁୧୦	-883
▁ମଧ୍ୟରେ	-884
▁ବିଜେପି	-885
▁ଲୋକେ	-886
ର୍ତ୍ତି	-887
ନୀ	-888
▁ପିଲା	-889
▁ମୃତ	-890
▁ତାକୁ	-891
ାକ	-892
ୋର୍	-893
୍ୟାଲେ	-894
ak	-895
ଯାଏ	-896
ପାଦ	-897
▁ଅଭ	-898
ws	-899
▁ଲି	-900
▁ଚିହ	-901
▁ହୁଏ	-902
କାରୀ	-903
କ୍ରମ	-904
▁ବହୁତ	-905
▁ନବ	-906
▁୨୦୧	-907
▁ଚାହୁଁ	-908
▁ଭିତରେ	-909
fo	-910
ub	-911
ଚାର	-912
ଶ୍ୱର	-913
ଣେ	-914
is	-915
▁ଏକା	-916
▁ପ୍ରଥ	-917
ଛୁ	-918
▁ହେବା	-919
):	-920
▁ଦୃ	-921
▁ଏସି	-922
▁ଜଣେ	-923
▁ତୋ	-924
▁ଦିଅ	-925
▁ପରିବ	-926
▁ସେମାନେ	-927
ନ୍ଦ୍ର	-928
▁ବାହାର	-929
ହେଲେ	-930
▁ସାଧ	-931
21	-932
▁ଢ	-933
▁ଥାଏ	-934
ତ୍ୟା	-935
ସୀ	-936
ଲିକ	-937
ଜାର	-938
ର୍ଯ୍ୟ	-939
▁ଆଗ	-940
▁ଋ	-941
us	-942
ମୂ	-943
ଯୁ	-944
ଚି	-945
▁କରିଥିଲେ	-946
▁ଶପଥ	-947
▁ବନ୍ଦ	-948
▁ତୁମ୍ଭେ	-949
et	-950
▁ଆଲୋଚନା	-951
ଳୀ	-952
୍ମ	-953
ଶି	-954
ଜ୍ଞ	-955
ଦ୍ର	-956
ck	-957
▁କିମ୍ବା	-958
ସ୍କ	-959
ିୟ	-960
▁୬	-961
▁ଭାଇ	-962
▁name	-963
ଫଳ	-964
୍ଞ	-965
lo	-966
ବେଦ	-967
କ୍ଟର	-968
ab	-969
ମୁଁ	-970
▁and	-971
▁ହଉ	-972
ଗୁଡିକ	-973
କାଶ	-974
▁ରାଜ୍ୟ	-975
▁ହୋଇଛି	-976
ଭାଗ	-977
ପ୍ରେ	-978
▁କେହି	-979
▁ଫୋଲଡର	-980
େକ	-981
ate	-982
▁ଦେବ	-983
ର୍ମ	-984
▁ଦେଇଛନ୍ତି	-985
▁News	-986
▁ପଚାରି	-987
ୁଛି	-988
▁ତମେ	-989
୍ୟାସ	-990
▁ହେଇ	-991
ଳନ	-992
ମ୍ବ	-993
▁ତେଣୁ	-994
▁ଓଡ଼ିଆ	-995
ମୋ	-996
ପଟେ	-997
▁ବୟ	-998
ind	-999
ସଂ	-1000
ଲିକା	-1001
ସରୁ	-1002
▁୯	-1003
ନ୍ତ୍ରୀ	-1004
▁ନିର୍ବା	-1005
ort	-1006
ିକି	-1007
▁ପର୍ଯ୍ୟ	-1008
୍ରି	-1009
▁କହିଛନ୍ତି	-1010
ଲୀ	-1011
ମାର	-1012
ଦ୍ରା	-1013
▁ଏକ୍ସ	-1014
ଡ୍	-1015
▁/	-1016
▁୭	-1017
ିନ୍	-1018
▁ଫଳ	-1019
▁ବଦ	-1020
▁ଜଣକ	-1021
▁ହେଉ	-1022
▁ଚିଠି	-1023
▁U	-1024
ରମ	-1025
▁ଶର	-1026
ଠାରେ	-1027
ପୁ	-1028
ୀଶୁ	-1029
▁ପଢନ୍ତୁ	-1030
ରାଜ	-1031
▁ପରିବର୍ତ୍ତ	-1032
ous	-1033
▁ସତରେ	-1034
ନେ	-1035
ରକ୍ଷ	-1036
ly	-1037
▁ପୃଷ୍ଠ	-1038
▁wwwwwwww	-1039
କାଳ	-1040
▁ଏସ	-1041
କିଙ୍ଗ	-1042
▁th	-1043
▁ବିଶ୍ୱ	-1044
ିକେ	-1045
▁ଘରେ	-1046
▁ବିର	-1047
▁ସମ୍ପର୍କ	-1048
▁li	-1049
▁6	-1050
▁ହା	-1051
▁ଘଟି	-1052
xt	-1053
ୂପ	-1054
ୀମାନେ	-1055
ିତ୍ର	-1056
▁ଭାଙ୍ଗି	-1057
▁ଆଧ	-1058
ମ୍ବର	-1059
ିତ୍	-1060
ଷ୍ଟି	-1061
▁ଉତ୍	-1062
▁ବ୍ୟକ୍ତି	-1063
▁ଶରୀର	-1064
ଖ୍ୟ	-1065
▁ପାଣି	-1066
ଦେଶର	-1067
▁ମିଳ	-1068
ାଲୋଚନା	-1069
▁ଉଚିତ	-1070
▁19	-1071
ଧି	-1072
ସ୍ତା	-1073
ଜନ	-1074
ୟକ	-1075
▁e	-1076
og	-1077
ଭର	-1078
ଦୂ	-1079
▁ଅଭି	-1080
ଂଶ	-1081
ost	-1082
▁୮	-1083
▁ପୋଷ	-1084
▁ଲାଗି	-1085
▁ପିଇ	-1086
▁ଆପଣଙ୍କୁ	-1087
ପତି	-1088
ଶ୍ବର	-1089
ହାମ୍	-1090
▁ଗୀତ	-1091
▁ପ୍ୟାଲେ	-1092
Wò	-1093
Zò	-1094
eú	-1095
fþ	-1096
gû	-1097
lû	-1098
▁ù	-1099
Zòu	-1100
▁iá	-1101
Wògû	-1102
eúlû	-1103
▁ମାନେ	-1104
▁IWògû	-1105
▁iáZòu	-1106
▁ବକିଙ୍ଗ	-1107
▁ପ୍ୟାଲେସରୁ	-1108
▁ବକିଙ୍ଗହାମ୍	-1109
ur	-1110
ଇନ	-1111
▁ହୋ	-1112
▁ସ୍ୱା	-1113
ାର୍ଥ	-1114
▁କରେ	-1115
ଧିକ	-1116
▁ପ୍ରା	-1117
▁ଯୀଶୁ	-1118
ଢ଼	-1119
▁କରିବ	-1120
ଚନ	-1121
ଥିଲି	-1122
▁ଆମ୍	-1123
▁ହୁଅ	-1124
▁ବୋ	-1125
▁ନକ	-1126
ia	-1127
ପାଇଁ	-1128
▁କରିଛି	-1129
ଥିବ	-1130
▁ମହ	-1131
ାଏ	-1132
▁99	-1133
▁ଯୋ	-1134
ପ୍ରଭୁ	-1135
▁ମାତ୍ର	-1136
),	-1137
ir	-1138
▁Re	-1139
mb	-1140
▁ଏଇ	-1141
▁ରାତିରେ	-1142
▁ଅାଲୋଚନା	-1143
▁J	-1144
ାଇବା	-1145
ରଫ	-1146
ନ୍ନ	-1147
▁ଛି	-1148
ଖ୍ୟା	-1149
▁Kan	-1150
▁ଯୁବକ	-1151
▁71	-1152
▁ସଦ	-1153
▁ଏକ୍ସପ୍ରେ	-1154
▁ରଙ୍ଗ	-1155
▁97	-1156
େତ	-1157
▁ପର୍ଯ୍ୟନ୍ତ	-1158
▁72	-1159
▁ପାଟି	-1160
▁ସେହିଭଳି	-1161
▁↑	-1162
www	-1163
▁ହିଁ	-1164
ଦେଇ	-1165
ାଯାଇ	-1166
ର୍ଣ୍ଣ	-1167
▁ଅନ୍ୟପଟେ	-1168
:3	-1169
ୟନ	-1170
▁ତାଲିକା	-1171
ରକୁ	-1172
RI	-1173
▁g	-1174
▁ପ୍ରଥମ	-1175
bo	-1176
▁ବୈ	-1177
▁ଏକ୍ସପ୍ରେସ୍	-1178
ୁନ	-1179
▁ପୋ	-1180
▁ରି	-1181
▁1.21	-1182
▁Kanak	-1183
hy	-1184
▁ଡକ୍ଟର	-1185
ମୂର୍ତ୍ତି	-1186
▁1.19	-1187
▁V	-1188
▁ଶ୍ରୀ	-1189
▁କରିଥିଲା	-1190
ଆଇ	-1191
▁ପାଠ	-1192
▁ମନେ	-1193
▁he	-1194
▁ଦେଶ	-1195
▁ଚେ	-1196
▁ଦ୍ୱାରା	-1197
▁ଈ	-1198
କରଙ୍କ	-1199
ion	-1200
▁ପେ	-1201
▁ନେତା	-1202
▁ପରମେ	-1203
\\	-1204
▁ପଦ	-1205
ତ୍ତି	-1206
▁ସାହି	-1207
▁ଉତ୍ତରପ୍ର	-1208
▁ଚାହୁଁଛନ୍ତି	-1209
▁ବିକ	-1210
TS	-1211
▁ଘଟଣା	-1212
▁କରିପାରିବେ	-1213
ଖି	-1214
ଣ୍ଡୋ	-1215
▁ନିଷ୍	-1216
▁ପ୍ରତିମୂର୍ତ୍ତି	-1217
▁se	-1218
▁?”	-1219
▁ଆମ୍ଭ	-1220
▁ନିୟମ	-1221
ଚା	-1222
ଂଗ	-1223
ବକର	-1224
ିକ୍ଷ	-1225
▁ଦୃଶ୍ୟ	-1226
▁ଆମ୍ବେଦ	-1227
▁ବିଷୟରେ	-1228
▁ସାଧାରଣ	-1229
▁ସମା	-1230
▁...	-1231
▁ପରିବର୍ତ୍ତନ	-1232
▁ଉତ୍ତରପ୍ରଦେଶର	-1233
▁17	-1234
@@@@	-1235
ଣେତା	-1236
▁info	-1237
▁ଆମ୍ବେଦକରଙ୍କ	-1238
ିଧାନ	-1239
ରିଟରେ	-1240
▁ଅଳ୍ପ	-1241
▁ସୁଯୋଗ	-1242
ଦ୍ରାବକର	-1243
▁ପ୍ରଣେତା	-1244
▁ମିରିଟରେ	-1245
▁ସମ୍ଭିଧାନ	-1246
▁ଉପଦ୍ରାବକର	-1247
▁ଉପଦ୍ରାବକରୀମାନେ	-1248
▁ଗରମ	-1249
▁ପରିମାଣ	-1250
▁Y	-1251
▁ଦୌ	-1252
ଙ୍ଗୁ	-1253
▁ଆମେର	-1254
▁ନାହାନ୍ତି	-1255
▁ଦୁଃ	-1256
▁Comment	-1257
▁ଯୋଜ	-1258
▁ପ୍ରେମ	-1259
▁ପୂ	-1260
ପନ	-1261
ନ୍ତା	-1262
la	-1263
lic	-1264
▁ହେବେ	-1265
▁ପୋଷାକ	-1266
ନୁ	-1267
ମାନଙ୍କର	-1268
ଫ୍	-1269
ୀଙ୍କ	-1270
▁ପୁନ	-1271
ed	-1272
ୋଟ	-1273
▁—	-1274
ong	-1275
ଚରଣ	-1276
▁ଦାୟ	-1277
▁ପକ୍ଷ	-1278
▁ସ୍ତ୍ରୀ	-1279
ପର	-1280
▁କଲ	-1281
ma	-1282
ଘା	-1283
▁ପ୍ରକ	-1284
▁ମିଳି	-1285
".	-1286
▁ରାଜା	-1287
▁ଲଗ	-1288
▁ଅନୁସ	-1289
▁ଏପରି	-1290
dia	-1291
ଯିବ	-1292
ଡିଆ	-1293
▁ପ୍	-1294
▁ଯାଏ	-1295
▁ଦାରୁ	-1296
▁ବାହା	-1297
ଫ୍ୟୁ	-1298
▁ତ୍ରୁ	-1299
▁action	-1300
▁ଉଠ	-1301
▁ମଧ	-1302
▁ପିଇବା	-1303
▁ମହିଳାଙ୍କୁ	-1304
▁ଦ୍	-1305
ଲଗ	-1306
ଜର	-1307
ଦୀ	-1308
ପେ	-1309
▁ଭାବେ	-1310
ଥର	-1311
▁ଅଛନ୍ତି	-1312
▁ସାହିତ୍ୟ	-1313
▁8.	-1314
▁ସଂରକ୍ଷ	-1315
ଳକ	-1316
▁10	-1317
▁ଦିଆ	-1318
▁ବୟସ	-1319
▁ପ୍ରସ	-1320
ୂର୍ଣ୍ଣ	-1321
▁ଶୁଣି	-1322
▁ସଦସ୍ୟ	-1323
▁ତ୍ରୁଟି	-1324
▁ଆପଣଙ୍କର	-1325
▁କୋଟି	-1326
▁ଯୋଜନା	-1327
▁ବିଭାଗ	-1328
୍ନି	-1329
▁।[	-1330
▁ସୋ	-1331
କ୍ଷର	-1332
▁ପୁରୁ	-1333
▁ଦୂ	-1334
ପତ୍ର	-1335
▁ଠିକ	-1336
pe	-1337
▁ଗଣ	-1338
ian	-1339
ାନି	-1340
▁କୃ	-1341
ଜେ	-1342
ver	-1343
ଗଲେ	-1344
▁କହିଲି	-1345
▁ବଡ	-1346
▁11	-1347
ଲ୍ଲା	-1348
▁ଭୂ	-1349
▁କାର୍ଯ୍ୟକ୍ରମ	-1350
ଠୁ	-1351
▁ଚାଲ	-1352
▁ହଜାର	-1353
▁ବଢି	-1354
▁ଯୁଦ୍ଧ	-1355
▁ପ୍ରକାଶ	-1356
▁ଯାଇଥିବା	-1357
ଡିଓ	-1358
▁ଭର	-1359
▁ତଥ	-1360
▁ଆଶ୍ଚ	-1361
▁ପରିଚ	-1362
▁ବିବା	-1363
ଦେଲେ	-1364
ାତ୍ରା	-1365
ଭୋ	-1366
ାତା	-1367
ଲ୍ଲୀ	-1368
▁ଭାରତୀୟ	-1369
▁ଖୁ	-1370
▁ଝି	-1371
ଧ୍ୟମ	-1372
▁ନାଁ	-1373
▁ଆସିଥିଲେ	-1374
▁ଲୋକମାନେ	-1375
▁ଲୁ	-1376
▁The	-1377
▁ଛାଡି	-1378
tin	-1379
ଶୁଣି	-1380
ାସ	-1381
ୃତି	-1382
▁ଫୋ	-1383
ବର୍ଷ	-1384
▁ଅନେକ	-1385
▁ଛୁ	-1386
▁ଯି	-1387
ିନ୍ନ	-1388
▁4.5	-1389
▁ଜନ୍	-1390
▁ନିକ	-1391
ଘର	-1392
ତଃ	-1393
▁ମାମ	-1394
▁ଵ	-1395
ତାର	-1396
▁ଘେରି	-1397
▁ଦୌଡ଼ି	-1398
▁କରାଯାଇଛି	-1399
14	-1400
’’	-1401
amp	-1402
ଚ୍ଛ	-1403
ଦ୍ୱ	-1404
ାନା	-1405
ାନୀ	-1406
▁ରୋଗ	-1407
▁ମୁଖ୍ୟ	-1408
ot	-1409
har	-1410
କରି	-1411
ଭୂ	-1412
▁୩୦	-1413
ପାରି	-1414
as	-1415
▁ଠାରୁ	-1416
▁ମୁହଁ	-1417
▁ପ୍ରଦାନ	-1418
▁k	-1419
େଲ	-1420
ଦାଚରଣ	-1421
▁ଅସଦାଚରଣ	-1422
▁ନିର୍ବାଚନ	-1423
ୟୋଗ	-1424
▁ଖବର	-1425
ୱା	-1426
JTS	-1427
▁AJTS	-1428
▁ଦଳ	-1429
id	-1430
ura	-1431
ଟାମ	-1432
▁ଋଣ	-1433
▁ଝିଅ	-1434
▁ମୂଳ	-1435
▁ଗୁରୁ	-1436
▁♪♪♪♪♪♪♪♪♪♪♪♪	-1437
▁ଅଭିନ	-1438
▁ନବୀନ	-1439
▁ନୁହଁ	-1440
▁♪♪♪♪♪♪	-1441
▁♪♪♪♪♪♪♪♪♪♪	-1442
EB	-1443
▁ଆତ୍	-1444
ଫ୍ୟୁମ	-1445
ଙ୍ଗୁଡ଼ି	-1446
▁ଘରଠାରୁ	-1447
▁ପର୍ଫ୍ୟୁମ	-1448
ଦୂରରେ	-1449
▁ସୁଯୋଗରେ	-1450
▁ପାଟିଶୁଣି	-1451
▁ଚିଙ୍ଗୁଡ଼ି	-1452
ତମ	-1453
୍ରମ	-1454
▁ଆଇ	-1455
▁ଦେଖା	-1456
▁ଘେରିକୁ	-1457
▁ପ୍ରକାର	-1458
▁ଅଳ୍ପଦୂରରେ	-1459
କ୍ତର	-1460
▁ପୋଲି	-1461
▁ଚିତ୍ର	-1462
▁କରିଥାଏ	-1463
▁st	-1464
▁ବିରୋଧ	-1465
ୟୀ	-1466
ମିତ	-1467
▁ଗାଁ	-1468
▁ରଖି	-1469
▁ଦେଖନ୍ତୁ	-1470
▁&	-1471
ବୀ	-1472
ess	-1473
▁ch	-1474
▁ତାର	-1475
ଗଣ	-1476
000	-1477
ବ୍ୟ	-1478
▁ଅଜ	-1479
▁ଖେ	-1480
▁ଆପଣା	-1481
▁ସୀମା	-1482
▁କରନ୍ତି	-1483
ହେି	-1484
▁ଉଇ	-1485
▁କମ	-1486
ଂଗ୍ରେ	-1487
୍ଞାନ	-1488
ବର୍ତ୍ତ	-1489
ୟର	-1490
one	-1491
ଲ୍ୟ	-1492
▁ପଡି	-1493
▁ଚାଲୁ	-1494
ଠନ	-1495
ସିକ	-1496
▁ଶ୍ରେ	-1497
▁œ	-1498
ଠାତ	-1499
ଭାବ	-1500
▁ସକାଳ	-1501
▁ତୁମକୁ	-1502
▁ଓଡ଼ିଶା	-1503
▁Ind	-1504
▁ଭିଟାମ	-1505
9-	-1506
▁କଲା	-1507
▁ଭିଡିଓ	-1508
▁ଗି	-1509
ାରିଖ	-1510
ଯୁକ୍ତ	-1511
▁ହଠାତ	-1512
ମନ୍ତ୍ରୀ	-1513
ସ୍ୟା	-1514
▁for	-1515
ଷ୍ଟ୍ର	-1516
▁ବଞ୍ଚ	-1517
▁କଂଗ୍ରେ	-1518
18	-1519
▁ଦୁର୍	-1520
▁ଯେତେ	-1521
▁ଚିହ୍ନି	-1522
▁କରାଯାଇପାରିବ	-1523
RIZ	-1524
▁ଆଦ	-1525
▁ତମ	-1526
ପ୍ରଦ	-1527
ର୍ଶନ	-1528
▁ବୀମା	-1529
▁ପ୍ରସ୍ତୁ	-1530
ତ୍ଵ	-1531
▁un	-1532
▁ବନ	-1533
▁୧୫	-1534
େତ୍ର	-1535
▁ହାଇ	-1536
ଯାଇଛି	-1537
▁ମୃତ୍ୟୁ	-1538
▁ବ୍ୟାଙ୍କ	-1539
▁ସଂରକ୍ଷଣ	-1540
ଗେ	-1541
ome	-1542
ଖିତ	-1543
ଲେଇ	-1544
ଣ୍ଡା	-1545
▁ଧରି	-1546
▁ଫେର	-1547
▁....	-1548
▁ତଥ୍ୟ	-1549
▁ଶିଶୁ	-1550
ଦୁ	-1551
▁ଚୋ	-1552
▁ସଦା	-1553
▁ଖୋଲ	-1554
ଦ୍ଦେଶ	-1555
▁ପତ୍ର	-1556
▁ମୋଦିଙ୍କ	-1557
ith	-1558
▁ଭୟ	-1559
▁ଗର୍	-1560
▁ନିର୍ମାଣ	-1561
▁ଏମାନଙ୍କୁ	-1562
ତ୍ନ	-1563
ୀରେ	-1564
ସ୍ଥାନ	-1565
▁ଚାକି	-1566
▁ପରିମାଣରେ	-1567
▁'%	-1568
ୋର୍ଟ	-1569
▁Long	-1570
▁ସେବା	-1571
▁ଆଶ୍ଚର୍ଯ୍ୟ	-1572
ସ୍ଥିତ	-1573
▁ଦେଲେ	-1574
▁ବନ୍ଧ	-1575
gt	-1576
▁ସଂପ	-1577
▁ବିକା	-1578
▁ଲଢ	-1579
hort	-1580
ଟିକୁ	-1581
ଦ୍ଧା	-1582
▁ଅର୍ଥ	-1583
▁ଖୋଲି	-1584
▁__	-1585
▁ପାଖକୁ	-1586
▁ହୋଇଥିଲା	-1587
ଫି	-1588
tit	-1589
▁ମଧ୍ଯ	-1590
▁ଜିଲ୍ଲା	-1591
କ୍ରିୟ	-1592
▁ତାରିଖ	-1593
▁..	-1594
▁Pre	-1595
▁କାର	-1596
▁ବାର	-1597
ublic	-1598
tt	-1599
▁ଘୁ	-1600
▁ଘରୋଇ	-1601
▁ଲାଗୁ	-1602
▁କଥାରେ	-1603
ତୀ	-1604
ଶୀ	-1605
୧୯	-1606
▁ସର	-1607
▁ଯାଇଥାଏ	-1608
ଣ୍ଡର	-1609
▁ଉପା	-1610
ୟାର	-1611
▁ବିନା	-1612
▁ବର୍ଣ୍ଣ	-1613
ଟକ	-1614
dis	-1615
▁lab	-1616
▁ବିନ	-1617
▁ମସି	-1618
▁ସମସ୍ତେ	-1619
ବେଶ	-1620
▁pri	-1621
▁ବିକାଶ	-1622
pp	-1623
▁କାହାକୁ	-1624
▁ଡାକ୍ତର	-1625
▁କରିଥିବା	-1626
ଳରେ	-1627
▁ru	-1628
▁ଭାତ	-1629
▁ହସି	-1630
▁ଚିହ୍ନ	-1631
ାନୁ	-1632
▁ନିଜର	-1633
▁କରାଯାଏ	-1634
ul	-1635
▁min	-1636
▁ଭିଟାମିନ	-1637
▁ଇଂ	-1638
ାରିତ	-1639
▁ସହା	-1640
ମାନେେ	-1641
ME	-1642
ast	-1643
ୁକୁ	-1644
▁ଜନ	-1645
▁ଜୀବ	-1646
▁ମାସ	-1647
ଥିବାର	-1648
▁ଟିକେ	-1649
▁ସଦାପ୍ରଭୁ	-1650
ନ୍ୟ	-1651
▁ଡେ	-1652
▁pro	-1653
▁ମାେ	-1654
▁ଷ୍ଟ	-1655
▁ବିଶେଷ	-1656
▁ଫଳପ୍ରଦ	-1657
ode	-1658
ress	-1659
▁ବାପା	-1660
▁ସମ୍ପାଦ	-1661
).	-1662
?"	-1663
ond	-1664
ଲରେ	-1665
ution	-1666
ର୍ଚ୍ଚ	-1667
▁ଶିକ୍ଷ	-1668
▁କ୍ଷେତ୍ର	-1669
ହନ	-1670
▁{	-1671
ବ୍ଦ	-1672
▁ପଡ	-1673
▁ବାଇ	-1674
▁ଦରକାର	-1675
▁ସାଙ୍ଗ	-1676
ars	-1677
ାୟକ	-1678
▁୨୦୦	-1679
▁ଜନ୍ମ	-1680
▁ଭାଷା	-1681
୍ୟାନ	-1682
▁ଅନ୍ତ	-1683
▁ଦାବି	-1684
▁ଅନୁସାରେ	-1685
ମୀ	-1686
▁ବିଭ	-1687
▁ବୁଢ	-1688
▁କୁହା	-1689
▁କରିବାର	-1690
▁ବର୍ତ୍ତ	-1691
lect	-1692
▁WEB	-1693
▁ଦେବା	-1694
▁ଶକ୍ତି	-1695
ଂସ	-1696
rom	-1697
▁ପ୍ରସଙ୍ଗ	-1698
▁!!	-1699
ରାପ	-1700
ରିଆ	-1701
▁In	-1702
▁ଘୋଷ	-1703
▁କାଲି	-1704
▁ସ୍କୁ	-1705
▁ଠିକଣା	-1706
▁ଫିଙ୍ଗି	-1707
▁ହୋଇଥିବା	-1708
ମତା	-1709
ଆନ୍ତୁ	-1710
▁Next	-1711
▁ଠିକ୍	-1712
▁ଏଠାରେ	-1713
▁କରୁଅଛି	-1714
▁ବର୍ଷରେ	-1715
▁18	-1716
▁ଜେ	-1717
▁ଯାଉ	-1718
▁minut	-1719
▁ମାମଲା	-1720
▁ମିଳିବ	-1721
ୟରେ	-1722
▁ବର୍ତ୍ତମାନ	-1723
ଜୁ	-1724
:30	-1725
ାମା	-1726
▁12	-1727
▁ଚଳ	-1728
ୁନିକ	-1729
▁Why	-1730
▁ଭରପୁର	-1731
ଲାଇ	-1732
ସବୁ	-1733
▁ଆଣ	-1734
▁କବ	-1735
▁ଚାଷ	-1736
▁ବଡ଼	-1737
DE	-1738
ଖା	-1739
ୀନ୍	-1740
▁ସ୍ମ	-1741
▁ଛିଡି	-1742
▁ତତ୍ଵ	-1743
▁ମିନି	-1744
▁କଂଗ୍ରେସ	-1745
ଦେଇଥାନ୍ତି	-1746
▁ଫିଙ୍ଗିଦେଇଥାନ୍ତି	-1747
▁or	-1748
ଗ୍ରା	-1749
▁ଶୁଣ	-1750
▁ସହେି	-1751
ଧା	-1752
age	-1753
▁ଅପସ	-1754
▁ବିଧ	-1755
▁ସେଥି	-1756
କୋ	-1757
ves	-1758
tem	-1759
▁ପଠ	-1760
▁ପରୀ	-1761
▁କମ୍ପ	-1762
▁ଖାଲି	-1763
▁ଦୁଃଖ	-1764
▁ହତ୍ୟା	-1765
▁ପାରିବେ	-1766
▁ଭାଷାରେ	-1767
ttp	-1768
▁ଥର	-1769
ଚ୍ଛା	-1770
▁ତିଆ	-1771
▁ସର୍ବ	-1772
▁୪୦	-1773
▁ପୋଲିସ	-1774
▁ବିବାହ	-1775
▁ପୃଷ୍ଠା	-1776
▁ପରମେଶ୍ବର	-1777
qu	-1778
▁ଏସ୍	-1779
ରିଷ୍ଠ	-1780
▁ସମସ୍ୟା	-1781
▁minutes	-1782
OR	-1783
▁15	-1784
▁ସୁର	-1785
▁priv	-1786
▁ଧାରଣ	-1787
▁ଭାବି	-1788
▁ତିଆରି	-1789
▁ସୃ	-1790
ticle	-1791
ିବାରେ	-1792
▁ଆଧୁନିକ	-1793
▁ବାହାରି	-1794
KC	-1795
▁ଲାଭ	-1796
▁public	-1797
!”	-1798
ସ୍ଥ୍ୟ	-1799
▁label	-1800
▁ଆମେରିକା	-1801
ଗର	-1802
▁ଶୀ	-1803
▁ଫଟୋ	-1804
▁ଯିବା	-1805
▁କେନ୍ଦ୍ର	-1806
ଭୋଁ	-1807
ିକାର	-1808
▁ମୂଲ୍ୟ	-1809
▁ପ୍ରୟୋଗ	-1810
ପଥର	-1811
ପାନ	-1812
ାୟୀ	-1813
▁mo	-1814
▁ହସ	-1815
▁ୱି	-1816
▁You	-1817
ସ୍କାର	-1818
▁ମହାର	-1819
▁Previ	-1820
▁ପରିବାର	-1821
▁http	-1822
▁read	-1823
▁ବରିଷ୍ଠ	-1824
ଚଳ	-1825
▁Ar	-1826
▁ବଢ଼	-1827
11	-1828
ଭେ	-1829
▁on	-1830
▁item	-1831
▁କରିବୁ	-1832
▁ଦୟା	-1833
▁ପୁନଃ	-1834
▁ମସିହା	-1835
▁ଦେଖିଛନ୍ତି	-1836
▁ପାଦ	-1837
▁2015	-1838
▁ଶବ୍ଦ	-1839
▁ଉପକରଣ	-1840
▁ବର୍ଣ୍ଣନା	-1841
title	-1842
▁ଅଧିକାର	-1843
▁ମାଧ୍ୟମ	-1844
ଲିସି	-1845
10	-1846
▁EE	-1847
▁di	-1848
▁ଗଛ	-1849
hind	-1850
▁କୋଉ	-1851
▁କାଳି	-1852
▁କରିବି	-1853
▁କରିବାରେ	-1854
--	-1855
▁ଜଳ	-1856
ତଙ୍କ	-1857
▁mon	-1858
▁ଦର୍	-1859
▁ବହି	-1860
▁ଏମାନେ	-1861
▁କାହାର	-1862
ଠାକୁ	-1863
▁ପଢ଼	-1864
▁ମିଛ	-1865
▁ଗିରଫ	-1866
▁ଫେରି	-1867
▁ପୃଥିବ	-1868
ବର୍ତ୍ତୀ	-1869
▁Previous	-1870
ଣ୍ଟା	-1871
▁ପୁସ୍ତ	-1872
AN	-1873
▁run	-1874
▁କୁହ	-1875
▁ଡାକ	-1876
▁ବୁଝ	-1877
▁ବିଶ୍	-1878
▁lives	-1879
▁ପ୍ରବେଶ	-1880
ew	-1881
ଦେଲା	-1882
▁ବିଫଳ	-1883
▁behind	-1884
▁dog	-1885
▁କହିବି	-1886
▁କ୍ଷତି	-1887
▁ଘୋଷଣା	-1888
fe	-1889
ord	-1890
ଛବି	-1891
▁ନୀ	-1892
▁ସାହା	-1893
▁ବିନ୍ୟାସ	-1894
ନାର	-1895
ସମା	-1896
▁ବ୍	-1897
▁ସୌ	-1898
.....	-1899
▁କର୍ମ	-1900
▁#	-1901
ave	-1902
ାଇବ	-1903
କ୍ଷି	-1904
▁KDE	-1905
▁ତଥା	-1906
ୁଥିବା	-1907
▁ଜ୍ଞାନ	-1908
▁ଦର୍ଶା	-1909
▁ପ୍ରତିଛବି	-1910
▁କହୁଥାନ୍ତି	-1911
ig	-1912
ok	-1913
ାଉ	-1914
ବେେ	-1915
ଲାର	-1916
▁ରୋ	-1917
▁ପୁର	-1918
▁ସିଂ	-1919
▁3:30	-1920
▁cars	-1921
▁dogs	-1922
▁title	-1923
▁ପକ୍ଷରୁ	-1924
▁ଚାଲୁଥିବାର	-1925
17	-1926
ଘଟ	-1927
ୃହ	-1928
▁ୱେ	-1929
lock	-1930
▁ଜଣା	-1931
▁ଭୁବନ	-1932
▁month	-1933
ଇଁ	-1934
ଗ୍	-1935
ପ୍ତି	-1936
ର୍ମା	-1937
▁ଖେଳ	-1938
କଥା	-1939
▁?"	-1940
rect	-1941
▁୧୦୦	-1942
▁କୁମାର	-1943
▁ପଚାରିଲେ	-1944
ପଣ	-1945
ସୁ	-1946
୍ତ୍ତା	-1947
▁ଅପସାରଣ	-1948
▁ବିଧାୟକ	-1949
'!	-1950
ଷ୍ଟା	-1951
▁କ୍ର	-1952
▁ପଞ୍ଚ	-1953
ର୍ଗ	-1954
▁ବିଜୟ	-1955
hat	-1956
ପାଳ	-1957
ଲିଉ	-1958
ହିଁ	-1959
▁ଡ୍ର	-1960
KChar	-1961
▁ପଲିସି	-1962
▁ସବୁବେଳେ	-1963
ରବ	-1964
ଯାୟୀ	-1965
▁200	-1966
▁କୋହ	-1967
▁ପ୍ରସ୍ତୁତ	-1968
LA	-1969
ଷି	-1970
ଦାର	-1971
▁ଇଣ୍	-1972
▁କଲି	-1973
▁ମଣି	-1974
ପାତ୍ର	-1975
ର୍ଦ୍ଧ	-1976
▁ପାଳନ	-1977
▁ମାନସିକ	-1978
ist	-1979
ରୂପ	-1980
▁ଆକ	-1981
▁ଠା	-1982
▁ବର	-1983
ener	-1984
▁ବସି	-1985
▁ରାମ	-1986
disha	-1987
▁ଏଭଳି	-1988
▁ସୃଷ୍ଟି	-1989
uration	-1990
▁ବାହାଘର	-1991
▁ଅନୁଯାୟୀ	-1992
os	-1993
um	-1994
🙏🙏	-1995
କରେ	-1996
▁ଖୋ	-1997
▁ରାଜନ	-1998
▁ଗ୍ରା	-1999
▁block	-2000
▁ପ୍ରମାଣ	-2001
ଦେବ	-2002
ଜ୍ଞା	-2003
ୈତିକ	-2004
▁with	-2005
▁ନେବେ	-2006
▁ଯତ୍ନ	-2007
▁ଲେଖି	-2008
eneric	-2009
▁ଆସନ୍ତା	-2010
▁ଖୋଜ	-2011
icode	-2012
ଶ୍ଚିତ	-2013
ସଂଖ୍ୟା	-2014
▁କବିତା	-2015
▁.......	-2016
▁India	-2017
lt	-2018
ବାନ	-2019
irst	-2020
▁ଟୁକୁ	-2021
▁ଦିନର	-2022
▁ପଛରେ	-2023
▁ବାସି	-2024
select	-2025
▁unicode	-2026
pa	-2027
ts	-2028
ସହ	-2029
▁14	-2030
କ୍ଷ୍	-2031
▁ଦୂର	-2032
▁ଭଳି	-2033
▁ଦର୍ଶାନ୍ତୁ	-2034
ard	-2035
ran	-2036
ଦାନ	-2037
ମୁଖ	-2038
▁St	-2039
▁ଆଠ	-2040
▁୫୦	-2041
▁କିଣ	-2042
▁ଉଚ୍ଚ	-2043
▁ଜିଲା	-2044
▁ମାର୍	-2045
▁ଅକ୍ଷର	-2046
ee	-2047
ଟନ	-2048
▁22	-2049
ଯ୍ୟା	-2050
▁ଗଠନ	-2051
▁ପଛେ	-2052
▁ସ୍ପ	-2053
▁୧୯୮	-2054
▁ଘରକୁ	-2055
▁ଆତଙ୍କ	-2056
▁ଚାହିଁ	-2057
own	-2058
ମ୍ନ	-2059
ନୀତି	-2060
ିବେଶ	-2061
▁ଅବସ	-2062
ary	-2063
ଲଗା	-2064
▁କୁଆ	-2065
▁ଯାଞ୍ଚ	-2066
DI	-2067
ons	-2068
▁ଢେ	-2069
ଥିବୁ	-2070
ାତୀୟ	-2071
▁ଯେତେବେଳେ	-2072
ଏସ	-2073
▁!”	-2074
▁Go	-2075
\\\\	-2076
ାତ୍ମ	-2077
ସ୍ତାନ	-2078
▁ଫିଲ୍	-2079
▁ସମ୍ଭବ	-2080
▁ବିଜେଡି	-2081
ଫା	-2082
▁ରହିବ	-2083
ଳୟ	-2084
’,	-2085
tic	-2086
ନ୍ତେ	-2087
▁ନାୟକ	-2088
▁ଆମ୍ଭେ	-2089
▁ଚିଲେଇ	-2090
▁ଯାଇଛି	-2091
▁ଟୁକୁଡେ	-2092
enericName	-2093
ଂଚ	-2094
ୋପ	-2095
ଳକୁ	-2096
ବଧାନ	-2097
▁ଉଦ୍ଧ	-2098
▁ଚିନ୍ତା	-2099
▁ଆପଣାନ୍ତୁ	-2100
ଲର	-2101
▁X	-2102
orm	-2103
ଏହି	-2104
▁ରହ	-2105
▁କରା	-2106
▁ଭାଗ	-2107
▁here	-2108
▁ପ୍ରତିଶ	-2109
20	-2110
୨୦	-2111
ାମି	-2112
▁ଆୟ	-2113
ଗିରି	-2114
▁ଚୟନ	-2115
▁ବାଲା	-2116
▁ବସ୍ତୁ	-2117
▁ଉଇଣ୍ଡୋ	-2118
▁ସୀମାନ୍ତ	-2119
ive	-2120
ont	-2121
ଡ଼େ	-2122
▁Imp	-2123
▁ଛୋଟ	-2124
direct	-2125
▁ଘଟିଯାଏ	-2126
▁ଦୟାକରି	-2127
ଏମ୍	-2128
unit	-2129
▁ଗୃହ	-2130
▁ମେଲ	-2131
▁ବଢିବ	-2132
▁ହଠାତ୍	-2133
▁ସଂପର୍କ	-2134
▁ହେଲାଣି	-2135
▁ରାଜନୈତିକ	-2136
KCharselect	-2137
ho	-2138
ଏନ୍	-2139
କ୍ଟୋ	-2140
▁ଆସୁ	-2141
▁ଓଡି	-2142
▁ସେଇ	-2143
▁ସଂଯୋଗ	-2144
▁ସର୍ଭର	-2145
▁)	-2146
▁13	-2147
କ୍ରି	-2148
ଗ୍ରୀ	-2149
▁Mar	-2150
▁ଆରେ	-2151
▁ତିନି	-2152
olution	-2153
▁ଝ	-2154
ton	-2155
▁ସାମ୍	-2156
▁ସ୍ଥା	-2157
▁ପ୍ରଭୁ	-2158
▁ଅଧିକାରୀ	-2159
▁କରିଥାନ୍ତି	-2160
ld	-2161
▁ପଥ	-2162
ଣ୍ଡି	-2163
▁ଦିବ	-2164
▁ଭୁଲି	-2165
▁ଜାଣିବା	-2166
▁ସ୍ୱାସ୍ଥ୍ୟ	-2167
ୋନ	-2168
▁ଶୈ	-2169
ଙ୍କା	-2170
▁କରାଇ	-2171
▁ପାଇବ	-2172
▁ବୁଢା	-2173
▁ବର୍ଷା	-2174
GenericName	-2175
▁ଆହ	-2176
ସ୍ଥାୟୀ	-2177
▁ବିଜ୍ଞ	-2178
▁ମିଶ୍ର	-2179
▁redirect	-2180
ଟୁ	-2181
▁ଦିଅଁ	-2182
▁ଦିଅନ୍ତୁ	-2183
▁ହୋଇପାରେ	-2184
▁ଦୃଶ୍ୟସଂଖ୍ୟା	-2185
ହର	-2186
▁ପଢି	-2187
▁ସ୍ଵ	-2188
▁ଏସବୁ	-2189
▁ଏଠାକୁ	-2190
▁ଦିନରେ	-2191
▁ପରିଚାଳ	-2192
▁ପ୍ରଧାନ	-2193
▁Duration	-2194
▁ସେମାନଙ୍କୁ	-2195
Qu	-2196
ଚେ	-2197
ସ୍ୱ	-2198
▁de	-2199
ୱାଘା	-2200
▁ଅଂଶ	-2201
କରନ୍ତୁ	-2202
▁redirects	-2203
od	-2204
ers	-2205
ପ୍ତା	-2206
କ୍ରମଣ	-2207
ିବାସୀ	-2208
▁ରକ୍ତ	-2209
ପାରିଲା	-2210
▁କହିଥିଲେ	-2211
ine	-2212
କୃତ	-2213
କେତ	-2214
ଘାତ	-2215
)...	-2216
▁ଥରେ	-2217
େତ୍ରୀ	-2218
▁ପାର୍	-2219
▁ବାସିଥିବୁ	-2220
].	-2221
ure	-2222
▁OF	-2223
▁ଚୁ	-2224
▁com	-2225
▁କଳା	-2226
▁ଆମକୁ	-2227
▁ନମ୍ବର	-2228
▁ବଞ୍ଚି	-2229
▁ମନ୍ତ୍ରୀ	-2230
▁ମାନଙ୍କୁ	-2231
▁ସରକାରଙ୍କ	-2232
କାନ	-2233
▁ଭେ	-2234
ିତ୍ବ	-2235
▁ଗଲା	-2236
▁ବିବ	-2237
▁ରହୁ	-2238
▁ଦେବେ	-2239
▁ସମାନ	-2240
▁ପୁତ୍ର	-2241
▁ଅଭିନେତ୍ରୀ	-2242
ଟକୁ	-2243
ଅଗ୍ର	-2244
ଡିକୁ	-2245
▁ଅତି	-2246
▁ନକଲ	-2247
▁ଦିନେ	-2248
▁ସଂଖ୍ୟା	-2249
▁ୱିଣ୍ଡୋ	-2250
▁ଅସ୍ଥାୟୀ	-2251
ହାଁ	-2252
୦୦୦	-2253
▁//	-2254
▁୩୧	-2255
▁ପାଉ	-2256
▁ବିପ	-2257
▁ମଙ୍ଗ	-2258
▁ଖାଇବା	-2259
ଅଗ୍ରଲେଖ	-2260
▁କାହାଣୀ	-2261
ହୂ	-2262
=\\\\	-2263
ଲିଖିତ	-2264
▁ଆତ୍ମ	-2265
▁ପଡ଼ି	-2266
▁ପାକି	-2267
ତନ୍ତ୍ର	-2268
▁ଗ୍ରାମ	-2269
▁ପ୍ରାୟ	-2270
▁ମିନିଟ୍	-2271
▁ଟେ	-2272
arch	-2273
ିତୀୟ	-2274
▁ସ୍ବ	-2275
▁from	-2276
▁ଶାସନ	-2277
▁ଲକ୍ଷ୍ୟ	-2278
▁ମହାପାତ୍ର	-2279
ବୃ	-2280
ery	-2281
ନ୍ଦର	-2282
▁ଆହୁ	-2283
▁ତ୍ୱ	-2284
▁Last	-2285
▁କେଉଁଠି	-2286
▁ପ୍ରତ୍ୟ	-2287
:%	-2288
ting	-2289
ଗ୍ରହ	-2290
▁ଉଠି	-2291
▁ଗୁଣ	-2292
▁ଆଧାର	-2293
▁ବାବୁ	-2294
▁ମେଣ୍ଟ	-2295
▁ସାବଧାନ	-2296
ci	-2297
ର୍ଜ	-2298
ଦ୍ୟା	-2299
▁Post	-2300
▁ଉପାୟ	-2301
▁Odisha	-2302
▁ନିଶ୍ଚିତ	-2303
▁ସାଧାରଣତଃ	-2304
ତ୍ୱ	-2305
▁ଗ୍	-2306
▁ଟା	-2307
ଞ୍ଜନ	-2308
▁ସଫଳ	-2309
▁୫ଟି	-2310
▁ପୁରୁଷ	-2311
▁ସାକ୍ଷ	-2312
▁ପୁରୁଣା	-2313
▁ସମାନେେ	-2314
▁ପରୀକ୍ଷା	-2315
ଉଣୀ	-2316
ୟତା	-2317
▁ଥା	-2318
ଟିଲେ	-2319
▁8.6	-2320
▁ତଳେ	-2321
▁ସଙ୍କ	-2322
ୂର୍ଯ୍ୟ	-2323
ression	-2324
box	-2325
ସାର	-2326
▁ଫୁ	-2327
▁ରୂ	-2328
▁ଆମର	-2329
▁ମତେ	-2330
▁ସହଜ	-2331
▁ୱେବ	-2332
▁ବଲିଉ	-2333
▁ତାପରେ	-2334
▁ବଢିଲେ	-2335
ne	-2336
RAN	-2337
ଏସ୍	-2338
▁୧୪	-2339
ଚ୍ଛି	-2340
ମାରକ	-2341
▁ଦେଉ	-2342
▁୧୯୯	-2343
▁ପାରି	-2344
▁ତାହେଲେ	-2345
▁ନିର୍ଦ୍ଦେଶ	-2346
▁ସେମାନଙ୍କର	-2347
oft	-2348
ଲୋକ	-2349
▁ଶ୍ର	-2350
ସ୍ତ୍ର	-2351
▁ଗ୍ୟା	-2352
▁୨୦୧୯	-2353
▁ବିରୋଧରେ	-2354
ll	-2355
ଗୋ	-2356
ଷ୍ୟ	-2357
▁".	-2358
ଜାଣି	-2359
ାତ୍ମକ	-2360
▁କହୁଛି	-2361
▁ସମାଧାନ	-2362
▁ହେବାକୁ	-2363
15	-2364
ick	-2365
▁21	-2366
▁ଦର	-2367
▁କମ୍	-2368
First	-2369
indow	-2370
▁ବାବା	-2371
▁ଭଉଣୀ	-2372
▁ଡିସ୍କ	-2373
▁ଦିଲ୍ଲୀ	-2374
▁ଟଙ୍କାରେ	-2375
▁ସେମାନଙ୍କ	-2376
ze	-2377
୍ଵ	-2378
TOR	-2379
ଷ୍ଣ	-2380
▁ଫା	-2381
ଥିରେ	-2382
▁but	-2383
▁ଦ୍ବ	-2384
▁କହିଦେ	-2385
▁ଚାକିରି	-2386
ry	-2387
ext	-2388
ity	-2389
ust	-2390
ମ୍ୟ	-2391
ିଲା	-2392
▁ଉଦ୍	-2393
▁Lasts	-2394
▁ସମର୍ଥ	-2395
▁ସୁରକ୍ଷା	-2396
▁Impression	-2397
nu	-2398
ମତି	-2399
ମିକ	-2400
▁"%	-2401
RANS	-2402
▁ଏଲ୍	-2403
ୀଙ୍କୁ	-2404
େଶ୍ୱର	-2405
▁କାନ୍	-2406
▁ସଙ୍ଗ	-2407
ଗଡ଼	-2408
TORS	-2409
ାଇଲେ	-2410
▁ବ୍ଯ	-2411
▁ଆକାର	-2412
▁ମାରି	-2413
LATORS	-2414
▁TRANS	-2415
▁ଆସନ୍ତୁ	-2416
▁ପ୍ରକୃତ	-2417
volution	-2418
▁ସାହାଯ୍ୟ	-2419
▁TRANSLATORS	-2420
୫୦	-2421
▁କନ	-2422
▁ବସ	-2423
ପ୍ରା	-2424
ତିଙ୍କ	-2425
ଦ୍ୱାରା	-2426
▁ଆହୁରି	-2427
▁ଘଣ୍ଟା	-2428
▁ସ୍ମାରକ	-2429
ସିଆ	-2430
▁ଜୟ	-2431
,000	-2432
▁ବୋଧ	-2433
▁ଭାବ	-2434
▁ମଣିଷ	-2435
ସ୍ଥିତି	-2436
▁ଈଶ୍ବର	-2437
▁ଖାଇବେ	-2438
▁ଲୋକଟି	-2439
ମାନଙ୍କେ	-2440
▁ସନ୍ଧାନ	-2441
▁ବିଭିନ୍ନ	-2442
@}	-2443
ୋର	-2444
▁16	-2445
▁{@}	-2446
ଷ୍ଠାନ	-2447
▁ନିଜେ	-2448
▁ଶ୍ରେଣୀ	-2449
▁ମସିହାରେ	-2450
AME	-2451
▁ଅଗ	-2452
▁ଗୋଟେ	-2453
▁କହୁଛନ୍ତି	-2454
▁ପୁରସ୍କାର	-2455
12	-2456
hi	-2457
▁୭୦	-2458
form	-2459
▁ଆଣି	-2460
▁ମଞ୍ଚ	-2461
▁ଲେଖା	-2462
ନ୍ତ୍ରଣ	-2463
▁ଢେଙ୍କ	-2464
▁ବିବରଣ	-2465
▁ପିଲାଙ୍କ	-2466
▁ପ୍ରଦର୍ଶ	-2467
NG	-2468
ୟମ	-2469
ଠିଆ	-2470
▁45	-2471
▁ରଥ	-2472
ଙ୍ଗା	-2473
▁ମନା	-2474
ଯୁକ୍ତି	-2475
▁ସମ୍ମାନ	-2476
ଭବ	-2477
ାବ	-2478
ବ୍ଧ	-2479
▁ହୃ	-2480
ାନାଳ	-2481
▁ସନ୍ତ	-2482
▁ପାରିବ	-2483
▁♪♪♪♪♪	-2484
wwwwwww	-2485
▁ବିକଳ୍ପ	-2486
@@@@@@@@	-2487
▁♪♪♪♪♪♪♪	-2488
wwwwwwwww	-2489
▁♪♪♪♪♪♪...	-2490
wwwwwwwwwww	-2491
▁♪♪♪♪♪♪♪♪♪♪♪♪♪	-2492
▁♪♪♪♪♪♪♪♪♪♪♪♪♪♪	-2493
▁wwwwwwwwwwwwwww	-2494
ତିକି	-2495
▁8.8	-2496
▁ଠିଆ	-2497
ାତ୍ରୀ	-2498
▁କୋହଳ	-2499
▁ଅଭ୍ୟାସ	-2500
▁କ୍ଷମତା	-2501
▁ଲାଗିଲା	-2502
▁ଜାଣନ୍ତି	-2503
ମର	-2504
କକୁ	-2505
▁25	-2506
▁vi	-2507
▁ଉପଲ	-2508
▁କମି	-2509
▁ଦିଗ	-2510
▁ଉତ୍ସ	-2511
▁ଦିବସ	-2512
▁ଦେବଦ	-2513
▁ପ୍ରାର୍ଥ	-2514
ତ୍ଯ	-2515
▁an	-2516
▁କଦ	-2517
▁ୟା	-2518
▁ଜମି	-2519
▁ବୋଉ	-2520
▁ଆଦେଶ	-2521
▁ନକହି	-2522
▁ସାହୁ	-2523
▁short	-2524
▁କଥାକୁ	-2525
▁ପାଠ୍ୟ	-2526
▁ସ୍କୁଲ	-2527
▁କେଜାଣି	-2528
▁ଦେବାକୁ	-2529
▁ଲୋକଙ୍କ	-2530
▁ସାକ୍ଷାତ	-2531
▁ସମାନଙ୍କେ	-2532
our	-2533
ଧୀନ	-2534
ିନେ	-2535
▁ୟୁ	-2536
ନ୍ଦି	-2537
ଅନ୍ତୁ	-2538
▁କ୍ୟା	-2539
▁ଲାଗେ	-2540
▁ସକାଳୁ	-2541
▁ଜାଣିଛନ୍ତି	-2542
ya	-2543
ଦାସ	-2544
▁3.	-2545
▁୧୧	-2546
mber	-2547
▁ବିଶ୍ୱାସ	-2548
▁Evolution	-2549
▁ସମ୍ପୂର୍ଣ୍ଣ	-2550
ke	-2551
ଜୀ	-2552
ରୋ	-2553
କିଲ	-2554
ୟାମ	-2555
▁୧୯୬	-2556
ଦିଲ୍ଲୀ	-2557
▁button	-2558
▁ସ୍ଥିତି	-2559
ଆଉ	-2560
ସାଦ	-2561
▁ଅଛ	-2562
ବହାର	-2563
▁ମାରେ	-2564
▁କହିବେ	-2565
▁ବନ୍ଧୁ	-2566
▁ଲକ୍ଷ୍	-2567
ମ୍ପତିଙ୍କ	-2568
▁ଢେଙ୍କାନାଳ	-2569
ill	-2570
ନରେ	-2571
ବାସ	-2572
ସାୟ	-2573
ାଇଲା	-2574
▁ଦେଲା	-2575
ାଷ୍ଟ୍ର	-2576
▁ରହସ୍ୟ	-2577
▁ଦ୍ବାରା	-2578
▁କହିଦେଲି	-2579
▁ନିର୍ବାଚିତ	-2580
▁ନୂଆଦିଲ୍ଲୀ	-2581
▁by	-2582
▁op	-2583
▁ନିମ	-2584
▁ସହର	-2585
▁ସାଇ	-2586
୍ୟାନେ	-2587
▁ସତ୍ୟ	-2588
▁ଜାତୀୟ	-2589
▁ମଙ୍ଗଳ	-2590
▁ସଂକେତ	-2591
ational	-2592
▁ପ୍ରଭାବ	-2593
▁ଯାତ୍ରା	-2594
era	-2595
ତାବକ	-2596
▁ଯୁବ	-2597
▁NAME	-2598
▁ଖରାପ	-2599
ାଇବାକୁ	-2600
▁କହିଲୁ	-2601
▁ଚାଲିଗଲେ	-2602
▁ପରମେଶ୍ୱର	-2603
▁ଦେବଦମ୍ପତିଙ୍କ	-2604
ଲଫ	-2605
▁9.	-2606
▁ମତ	-2607
menu	-2608
ମହାର	-2609
୍ୟ୍ଯ	-2610
▁ପଠା	-2611
ସ୍ପତି	-2612
▁post	-2613
▁ଚାଳକ	-2614
▁ପ୍ରତ	-2615
▁ବଜାର	-2616
▁ନିଜକୁ	-2617
▁ଲିଙ୍କ	-2618
▁କାଟିଲେ	-2619
ବଲ	-2620
ମନ	-2621
୧୭	-2622
▁v	-2623
est	-2624
ice	-2625
ଜନକ	-2626
ସନ୍	-2627
▁Vi	-2628
▁ଦୀ	-2629
▁ଏମ୍	-2630
▁ଦାସ	-2631
▁କହିବା	-2632
▁ବାସ୍ତ	-2633
▁ଶୀର୍ଷ	-2634
▁ପ୍ରଥମେ	-2635
▁କରୁଥିବା	-2636
▁ମହାରାଷ୍ଟ୍ର	-2637
ୟୁ	-2638
▁u	-2639
▁??	-2640
କ୍ସ୍	-2641
▁ଭାବୁ	-2642
▁ସାରା	-2643
▁ସେତେ	-2644
▁ସହାୟତା	-2645
ble	-2646
ଲଗ୍ନ	-2647
ମହାରାଜ	-2648
▁ସୂର୍ଯ୍ୟ	-2649
ଯ୍ଯ	-2650
▁Mo	-2651
କ୍ସି	-2652
ଦନ୍ତ	-2653
ଭୂମି	-2654
▁ଅଜବ	-2655
▁ଏଥର	-2656
▁ଅଞ୍ଚ	-2657
▁ଖୁସି	-2658
▁ଶୈଳୀ	-2659
▁ଇଂରାଜ	-2660
▁ଦୁର୍ଘଟ	-2661
▁ବଲିଉଡ୍	-2662
ros	-2663
ଟ୍ଟ	-2664
ନାଥ	-2665
cond	-2666
▁ଟ୍ର	-2667
▁more	-2668
▁ପଚାର	-2669
▁ବିଚାର	-2670
▁ରକ୍ଷା	-2671
▁inmenu	-2672
ଟୱ	-2673
ନ୍ତର	-2674
▁ମୋବ	-2675
▁କପୁର	-2676
▁ଦାୟିତ୍ବ	-2677
ଡୁ	-2678
ଷା	-2679
▁୦	-2680
ink	-2681
ରିବ	-2682
▁ଗତ	-2683
▁ବଜ	-2684
atus	-2685
ାଜିକ	-2686
ିତ୍ୱ	-2687
▁ମାର	-2688
ଚ୍ଛିତ	-2689
ସ୍ତାରେ	-2690
▁ଅନ୍ୟତମ	-2691
▁ଅବସ୍ଥା	-2692
▁ଉପଲବ୍ଧ	-2693
▁ସକ୍ରିୟ	-2694
▁ଉପସ୍ଥିତ	-2695
▁ଏଥିପାଇଁ	-2696
▁ପରବର୍ତ୍ତୀ	-2697
16	-2698
ହ୍	-2699
cri	-2700
fore	-2701
ପାରୁ	-2702
▁ଅପେ	-2703
▁କବି	-2704
▁ବଦଳ	-2705
Query	-2706
▁ମୁକ୍ତ	-2707
▁ରହିବା	-2708
▁ରହିବେ	-2709
▁ଟଙ୍କାର	-2710
▁କରିପାରେ	-2711
▁31	-2712
nter	-2713
କ୍ଷେ	-2714
▁ଯିଏ	-2715
▁କଦଳୀ	-2716
▁ନିମ୍ନ	-2717
▁ପାଇବେ	-2718
▁ଦେଖିବା	-2719
▁କରୁଥିଲେ	-2720
▁ବ୍ୟବସ୍ଥା	-2721
ିଲ	-2722
ted	-2723
ଟିଂ	-2724
ିକରଣ	-2725
▁ଅଫି	-2726
▁ରୂପ	-2727
କ୍ସ୍ଟ	-2728
▁ବାଲେ	-2729
ଯାତ୍ରା	-2730
ାର୍ଯ୍ୟ	-2731
▁ଏହାସହ	-2732
▁ଆଦିବାସୀ	-2733
▁ଦେଇଥିଲେ	-2734
▁ନବୀନଙ୍କ	-2735
▁ସାମାଜିକ	-2736
ବୋ	-2737
ସନ୍ଦ	-2738
▁ପରା	-2739
▁ବ୍ର	-2740
▁ଅତ୍ୟ	-2741
▁ଚୋପା	-2742
▁ଛୁଇଁ	-2743
▁ଜିନି	-2744
▁ଦେବି	-2745
୍ରେଣ୍ଡ	-2746
▁ସେକଥା	-2747
▁ଚେଷ୍ଟା	-2748
▁ମିଳିଲା	-2749
go	-2750
ଆଁ	-2751
ଶିବ	-2752
▁An	-2753
ଡ଼ିଆ	-2754
▁ଙ୍କ	-2755
▁ପତ୍	-2756
▁ମାତ	-2757
ଚିତ୍ର	-2758
▁ସ୍ୱର	-2759
▁କୋଉଠି	-2760
▁ସର୍ବା	-2761
ହାଁନ୍ତି	-2762
▁before	-2763
▁କ୍ଷେତ୍ରରେ	-2764
:2	-2765
oss	-2766
ଣ୍ଠ	-2767
ମରେ	-2768
ଶ୍ଵ	-2769
▁ପଣ	-2770
▁ସଚ	-2771
ଧର୍ମ	-2772
ଶାରେ	-2773
ାମାର	-2774
▁not	-2775
▁ମାଆ	-2776
ରୁଦ୍ଧ	-2777
▁ପରାମ	-2778
rosoft	-2779
▁ଘୁଞ୍ଚ	-2780
▁ବଚ୍ଛିତ	-2781
▁ଶ୍ରଦ୍ଧା	-2782
.”	-2783
ଷଣ	-2784
ସଲ	-2785
all	-2786
ely	-2787
ରୋଧ	-2788
▁ଫ୍	-2789
▁୧୨	-2790
▁ଦ୍ଵ	-2791
▁ଧାର	-2792
ଚସ୍ପତି	-2793
▁ଉଦ୍ଧବ	-2794
▁ବର୍ଷର	-2795
▁ଚାଲିଛି	-2796
▁ତାହାଙ୍କ	-2797
▁ଔ	-2798
ପାତ	-2799
▁ରବ	-2800
▁କର୍	-2801
▁Odia	-2802
▁ହିସା	-2803
▁ବୁଦ୍ଧ	-2804
▁ମାେତେ	-2805
▁ମୁକ୍ତି	-2806
▁ଖୋଲନ୍ତୁ	-2807
▁ପରାମର୍ଶ	-2808
▁ପାକିସ୍ତାନ	-2809
▁ସଦସ୍ୟଙ୍କୁ	-2810
13	-2811
??	-2812
ଦର	-2813
ଦୟ	-2814
୩୦	-2815
ile	-2816
ସଭା	-2817
ସରେ	-2818
▁Mic	-2819
▁list	-2820
▁କୋଲା	-2821
ଗୁଡିକୁ	-2822
▁ଅବସାନ	-2823
▁ଜିନିଷ	-2824
▁ପାତ୍ର	-2825
▁ମ୍ୟାନେ	-2826
▁ପାଦଦେଲେ	-2827
▁ପ୍ରକଳ୍ପ	-2828
▁ବାଚସ୍ପତି	-2829
▁ସ୍ମାରକପତ୍ର	-2830
ହୋ	-2831
▁SO	-2832
▁ନୋ	-2833
▁୩୪	-2834
ବନ୍ଧ	-2835
ଭାରତ	-2836
▁ଆଦି	-2837
ପୋର୍ଟ	-2838
▁ତୋତେ	-2839
▁ସିପି	-2840
▁ଅଧ୍ୟା	-2841
▁ଶାନ୍ତି	-2842
▁ବ୍ୟାୟାମ	-2843
sh	-2844
▁Se	-2845
▁ଜୁ	-2846
ବିଧା	-2847
▁ଫାଇ	-2848
ସେନାର	-2849
▁ଓକିଲ	-2850
▁ଯୋଗା	-2851
▁କୁଆଡେ	-2852
▁second	-2853
▁ତନ୍ତ୍ର	-2854
▁Microsoft	-2855
ZH	-2856
ଖଲ	-2857
ତର	-2858
▁su	-2859
▁କାଳ	-2860
▁କଙ୍କ	-2861
▁ଚିନା	-2862
ାଯାଇଛି	-2863
▁status	-2864
▁ମଧ୍ୟରୁ	-2865
▁ରଖନ୍ତୁ	-2866
▁ବାଲେଶ୍ୱର	-2867
▁ଯାଇଛନ୍ତି	-2868
▁ସେଥିପାଇଁ	-2869
▁କରାଇଛନ୍ତି	-2870
▁ମହାରାଷ୍ଟ୍ରର	-2871
am	-2872
ଏମ	-2873
ହକ	-2874
ter	-2875
▁ଅଟ	-2876
▁ମରି	-2877
▁ଯିବ	-2878
▁ପ୍ଲଗ	-2879
▁ମ୍ୟା	-2880
▁ଯାହାର	-2881
▁ଚିନାବାଦ	-2882
▁ଡ୍ରାମାର	-2883
▁ଲୋକଙ୍କୁ	-2884
ହେବ	-2885
ାମୁ	-2886
▁Ge	-2887
▁ତୋର	-2888
▁ସିଏ	-2889
ାମାନେ	-2890
▁ଆସିବ	-2891
▁ହାଇକ	-2892
▁ସୁସମା	-2893
▁ଅନୁମତି	-2894
▁କାଳିଦାସ	-2895
▁କୋଲାମ୍ବ	-2896
▁ମୁଖ୍ୟମନ୍ତ୍ରୀ	-2897
ug	-2898
ଗଜ	-2899
ols	-2900
ଆରେ	-2901
▁ଏନ	-2902
▁ଚକ	-2903
ଘାଡି	-2904
▁ଶାର	-2905
▁9.18	-2906
▁କରୁଛ	-2907
▁ଠାକ୍	-2908
▁ଦର୍ଶ	-2909
▁ପାରୁ	-2910
▁ଅଘାଡି	-2911
▁ଆତ୍ମା	-2912
▁ଯୁକ୍ତ	-2913
▁ମୁତାବକ	-2914
▁ସୁନ୍ଦର	-2915
ଶିବସେନାର	-2916
▁ବ୍ୟାଙ୍କ୍	-2917
▁ବିଜ୍ଞପ୍ତି	-2918
▁କୋଲାମ୍ବକାର	-2919
ଉନ	-2920
ରିକ	-2921
▁34	-2922
କ୍ଷିଣ	-2923
▁Home	-2924
▁ଚୀନ୍	-2925
▁ବ୍ରା	-2926
▁ସେନା	-2927
▁ତଦନ୍ତ	-2928
▁ବହୁତ୍	-2929
▁ଉତ୍ପାଦ	-2930
▁ଜୀବନରେ	-2931
▁ବିବରଣୀ	-2932
▁ମହାପ୍ରଭୁ	-2933
▁ବ୍ୟକ୍ତିଗତ	-2934
ff	-2935
▁ଷ	-2936
ara	-2937
day	-2938
ଭାଇ	-2939
▁୭୫	-2940
କର୍ଷ	-2941
▁ବାଛ	-2942
▁୧୯୫	-2943
▁your	-2944
▁ଆଘାତ	-2945
▁ଧର୍ମ	-2946
▁ବିଜୁ	-2947
▁ଆସିବେ	-2948
▁ପୁଅକୁ	-2949
▁ବେପାର	-2950
▁ମୁଣ୍ଡ	-2951
▁ହସ୍ତା	-2952
ପାରନ୍ତି	-2953
▁ଚର୍ଚ୍ଚ	-2954
▁ନିକଟକୁ	-2955
▁ଖାଦ୍ୟପେ	-2956
▁ପ୍ରଦର୍ଶନ	-2957
ପୂ	-2958
▁ar	-2959
▁କଳ	-2960
,...	-2961
port	-2962
ୃତ୍ୟ	-2963
▁ଟାଇ	-2964
▁ଏକଥା	-2965
▁ନୀତି	-2966
▁ବାଜି	-2967
▁ରାଶି	-2968
▁କରାଯିବ	-2969
▁ରାଜନୀତି	-2970
▁ସ୍ଥାନରେ	-2971
▁ଭଉଣୀମାନେ	-2972
▁ସନ୍ଦେଶକୁ	-2973
eb	-2974
।’	-2975
ଜିଂ	-2976
▁):	-2977
ତିହା	-2978
▁ସତେ	-2979
▁ଉନ୍ନ	-2980
▁ସଂସ୍	-2981
▁ସିଂହ	-2982
▁କିଭଳି	-2983
▁ଖର୍ଚ୍ଚ	-2984
▁ମାନଙ୍କ	-2985
▁ସମ୍ଭାବ	-2986
▁ପଚାରିଲା	-2987
▁ପ୍ରଶ୍ନର	-2988
▁ମ୍ୟାନେଜର	-2989
com	-2990
out	-2991
ତରେ	-2992
ହରେ	-2993
▁[2	-2994
▁ଦଲି	-2995
▁ସୂଚ	-2996
▁କରିନ	-2997
▁କଷ୍ଟ	-2998
▁ଟିପ୍	-2999
▁ଭଦ୍ର	-3000
▁ପରିଚୟ	-3001
▁କଙ୍କାଳ	-3002
▁ପୁସ୍ତକ	-3003
▁ଅଣ	-3004
▁ବଳ	-3005
mail	-3006
ଲଙ୍କ	-3007
▁ଆଖି	-3008
▁ଭବି	-3009
▁ଭୁଲ	-3010
▁2014	-3011
▁ପର୍ବ	-3012
▁ବିଦ୍ୱ	-3013
▁ରାସ୍ତା	-3014
▁ଦ୍ୱିତୀୟ	-3015
▁ସାମଗ୍ରୀ	-3016
▁ନିଷ୍କର୍ଷ	-3017
▁ସମ୍ଭାବନା	-3018
▁ବାହାରିପାରେ	-3019
▁ପ୍ରଧାନମନ୍ତ୍ରୀ	-3020
ST	-3021
ଜଣ	-3022
ଜୟ	-3023
▁;	-3024
ଧାର	-3025
▁24	-3026
▁ଦୋ	-3027
ନାୟକ	-3028
▁ଅଦା	-3029
▁will	-3030
▁ତୁମର	-3031
▁ମୃତକ	-3032
indows	-3033
▁ଛାତ୍ର	-3034
▁ଯାଉଛି	-3035
▁ହାତରେ	-3036
▁ନିକଟରେ	-3037
▁କାର୍ଯ୍ଯ	-3038
▁ଖାଦ୍ୟପେୟର	-3039
ଫେ	-3040
ଯେ	-3041
ଷଧ	-3042
▁ଆଇନ	-3043
▁ଆଗରେ	-3044
▁ଓଡିଆ	-3045
▁ଜାତି	-3046
▁ପୁରା	-3047
▁ପ୍ରେର	-3048
▁option	-3049
▁ଅନୁବାଦ	-3050
▁ଯନ୍ତ୍ର	-3051
▁ପ୍ରମାଣପତ୍ର	-3052
han	-3053
rou	-3054
ଟର୍	-3055
ଡରେ	-3056
▁।"	-3057
Poss	-3058
ମାସ୍	-3059
▁Com	-3060
▁ago	-3061
ately	-3062
ଣ୍ଡାର	-3063
ଭୁକ୍ତ	-3064
▁କାଢ଼	-3065
▁ଖାତା	-3066
▁ଦାଦା	-3067
▁ନେଟୱ	-3068
essive	-3069
▁ଆଜ୍ଞା	-3070
▁ଉଚିତ୍	-3071
▁ଫିଲ୍ମ	-3072
▁ବେଜିଂ	-3073
NamePoss	-3074
▁Article	-3075
▁private	-3076
▁କମ୍ପାନୀ	-3077
▁ପ୍ରତିଶତ	-3078
▁publicly	-3079
▁ମାଧ୍ୟମଟି	-3080
▁privately	-3081
NamePossessive	-3082
ଳାପ	-3083
▁ଅଫ	-3084
unch	-3085
ଲ୍ୟା	-3086
▁ଇମେ	-3087
▁ଯୋଗୁ	-3088
▁ଗ୍ରାହକ	-3089
▁ଚାଲିଲେ	-3090
▁ସଂସ୍କରଣ	-3091
▁ସନ୍ଦେଶଗୁଡ଼ିକୁ	-3092
50	-3093
ଥେ	-3094
ymb	-3095
crip	-3096
▁ପାପ	-3097
▁ଶରୀ	-3098
▁୧୯୭	-3099
▁ପ୍ରଶ	-3100
▁ତୁମ୍ଭର	-3101
▁ଶରୀରରେ	-3102
▁ଶିକ୍ଷା	-3103
▁ବିଦ୍ୱାନ	-3104
EN	-3105
ଢି	-3106
▁ନମ	-3107
ଶ୍ଚୟ	-3108
▁ଆଗରୁ	-3109
▁ଏୟାର	-3110
▁ନହେଲେ	-3111
▁ମହାଦେ	-3112
▁ସନ୍ତାନ	-3113
▁ନିମନ୍ତେ	-3114
▁ସ୍ୱାଧୀନ	-3115
▁ତାହାଙ୍କୁ	-3116
▁ମାନସିକତା	-3117
▁କରିପାରିଲା	-3118
▁କରାଯାଇଥିଲା	-3119
0}	-3120
ବଦ	-3121
bur	-3122
dit	-3123
his	-3124
nce	-3125
▁?’	-3126
▁ଆଶ	-3127
▁ଏମ	-3128
orge	-3129
ଚୀନ୍	-3130
▁ତୃତ	-3131
▁ପ୍ରିୟ	-3132
▁ଶର୍ମା	-3133
ାଯାଇଥାଏ	-3134
▁ଜିଲାରେ	-3135
▁ସ୍ଥାନୀୟ	-3136
art	-3137
ଥରେ	-3138
▁ଗୌ	-3139
▁ଚମ	-3140
ଲାଇନ	-3141
▁ଚାରି	-3142
▁Short	-3143
▁ନୃତ୍ୟ	-3144
▁ଶୀର୍ଷକ	-3145
▁ବିଜେପିର	-3146
▁ବ୍ୟବସାୟ	-3147
▁ବୁଦ୍ଧଙ୍କ	-3148
▁ହାଇକୋର୍ଟ	-3149
ue	-3150
ase	-3151
per	-3152
▁୧୭	-3153
କ୍ଷଣ	-3154
କ୍ଷମ	-3155
▁ଜମା	-3156
▁ତୁଳ	-3157
▁ନଦୀ	-3158
▁ଚାଷୀ	-3159
▁ଛୁଟି	-3160
▁ପ୍ରୋ	-3161
▁ବୁଝି	-3162
▁ଯିବେ	-3163
ousand	-3164
▁ଛାଡ଼ି	-3165
▁ତାହାର	-3166
▁search	-3167
▁ରବିବାର	-3168
▁thousand	-3169
▁ସାକ୍ଷାତକାର	-3170
▁ଆଦିବାସୀମାନଙ୍କ	-3171
ree	-3172
୧୭୫	-3173
▁us	-3174
▁ଭୋ	-3175
▁୨୧	-3176
▁୨୬	-3177
orld	-3178
rans	-3179
ଚଳିତ	-3180
▁ଘରୁ	-3181
▁ଧ୍ୱ	-3182
▁ପାସ	-3183
▁dies	-3184
▁ପଟ୍ଟ	-3185
▁ସଚିବ	-3186
▁ସମାଜ	-3187
▁ବାଇକ୍	-3188
▁ଭିନ୍ନ	-3189
▁ମାଲିକ	-3190
▁ରଞ୍ଜନ	-3191
▁George	-3192
▁Martin	-3193
▁reader	-3194
▁ଚୋପାଲଗା	-3195
▁ମହାଦେବନ	-3196
▁ଦୁର୍ଘଟଣା	-3197
▁ମୋଦିଙ୍କୁ	-3198
▁ଚିନାବାଦାମୀ	-3199
CO	-3200
Re	-3201
ac	-3202
ag	-3203
ସମ	-3204
ନୀୟ	-3205
ହୋଇ	-3206
▁Ti	-3207
▁ଗେ	-3208
▁res	-3209
▁ଆଶା	-3210
▁ଜଗତ	-3211
▁ଇଣ୍ଟର	-3212
▁ବଦମାସ୍	-3213
▁ଯାହାକୁ	-3214
▁ଲଢୁଥିବା	-3215
ace	-3216
ang	-3217
ଥିଲ	-3218
▁If	-3219
ାଉଛି	-3220
▁ଔଷଧ	-3221
ିକିତ୍	-3222
▁ସାର୍	-3223
▁ଓଡିଶା	-3224
▁ଚାକିରୀ	-3225
▁ମୋବାଇଲ	-3226
▁ବିରୁଦ୍ଧ	-3227
#3	-3228
red	-3229
ଙ୍ଖ	-3230
▁28	-3231
▁Me	-3232
▁ଆଲ	-3233
▁ଧୂ	-3234
▁ଉଲ୍	-3235
ଗ୍ରାମ	-3236
୍ରିୟା	-3237
▁ଟ୍ୟା	-3238
▁ଧନ୍ୟ	-3239
▁ପିତା	-3240
▁ଅକ୍ଟୋ	-3241
▁ଉତ୍ତମ	-3242
▁ତୃତୀୟ	-3243
▁ପ୍ଲଗଇନ	-3244
▁ବାସ୍ତବ	-3245
▁ସାଙ୍ଗେ	-3246
▁ହସିଦେଲା	-3247
▁ସର୍ବାଧିକ	-3248
!!	-3249
oc	-3250
▁--	-3251
▁ଦଶ	-3252
ନ୍ଦୁ	-3253
▁ରାଉ	-3254
ିବିଆଇ	-3255
▁କାଗଜ	-3256
ଲେଣ୍ଡର	-3257
▁ଜଣଙ୍କ	-3258
▁ନାମରେ	-3259
▁ଦେଖିଲି	-3260
▁ଅକ୍ଟୋବର	-3261
▁କୁହନ୍ତି	-3262
▁ଗ୍ୟାଙ୍ଗ	-3263
▁ଲୋକଟିକୁ	-3264
▁ସମସ୍ତଙ୍କୁ	-3265
30	-3266
ht	-3267
amb	-3268
ହରଣ	-3269
▁De	-3270
▁sh	-3271
▁ଅମ	-3272
▁ଧର	-3273
▁ମର	-3274
▁୮୦	-3275
ଏଣ୍ଟ	-3276
ଙ୍କି	-3277
ବାସୀ	-3278
ୀରିକ	-3279
▁Use	-3280
▁ସମୁ	-3281
▁ସହି	-3282
▁this	-3283
▁ପିନ୍	-3284
▁ମନ୍ଦି	-3285
▁ସୌମ୍ୟ	-3286
▁ସ୍ପଷ୍ଟ	-3287
▁ତୁମ୍ଭମାନଙ୍କୁ	-3288
ପକ	-3289
▁j	-3290
▁ଅଥ	-3291
ରଙ୍ଗ	-3292
ହିତା	-3293
ାର୍ଟ	-3294
▁ଦାମ	-3295
▁ସରଳ	-3296
▁ଆକାଶ	-3297
▁୨୦୧୪	-3298
▁ଇଚ୍ଛା	-3299
▁ଚାହେଁ	-3300
▁ଇଂରାଜୀ	-3301
▁କିଣନ୍ତୁ	-3302
ଘ୍ର	-3303
ଦିଆ	-3304
▁ପୀ	-3305
୍ୟାମ	-3306
ownlo	-3307
▁ଅଜଣା	-3308
▁ତ୍ୱଂ	-3309
▁ପଡିବ	-3310
▁ଷ୍ଟେ	-3311
▁ଏକାଠି	-3312
▁ପସନ୍ଦ	-3313
▁ଭାରତର	-3314
▁ସହଯୋଗ	-3315
ଗୁଡ଼ିକର	-3316
▁ତୁମ୍ଭକୁ	-3317
▁ନେଟୱର୍କ	-3318
▁ପ୍ରାପ୍ତ	-3319
▁National	-3320
▁ସମସ୍ତଙ୍କ	-3321
▁ଲୋକମାନଙ୍କୁ	-3322
AL	-3323
CGN	-3324
dge	-3325
ool	-3326
▁ex	-3327
ାମୃତ	-3328
▁ପଥର	-3329
▁ଉଦ୍ୟ	-3330
▁ସତ୍ଯ	-3331
▁କାର୍ଡ	-3332
▁ସରକାରୀ	-3333
.)	-3334
FF	-3335
ଘୁ	-3336
୧୦	-3337
ିନୀ	-3338
▁as	-3339
▁en	-3340
ଡ଼ିଓ	-3341
ଣ୍ଟି	-3342
ଥିବେ	-3343
ଥିଲୁ	-3344
ସଙ୍କ	-3345
ାତିଲ	-3346
▁Man	-3347
▁।’’	-3348
▁ବଢିଆ	-3349
▁ମନରେ	-3350
ମାଧ୍ୟମ	-3351
▁ଉପରକୁ	-3352
▁ପ୍ରାକ	-3353
ଦ୍ଦେଶ୍ୟ	-3354
▁ଯାହାକି	-3355
ଲଫ୍ରେଣ୍ଡ	-3356
▁ଅକ୍ଷରରୂପ	-3357
▁ଦେଖିବାକୁ	-3358
▁ଭୁବନେଶ୍ୱର	-3359
ob	-3360
ଭ୍	-3361
ଆପଣ	-3362
ଯାନ	-3363
ରାଲ	-3364
ସାଇ	-3365
symb	-3366
ସାରି	-3367
▁ଆର୍	-3368
▁ଗଲେ	-3369
▁ନିର	-3370
▁ଡିସେ	-3371
▁ପଞ୍ଜ	-3372
▁ପ୍ଲା	-3373
format	-3374
▁ତାଲିକ	-3375
symbols	-3376
▁ଚିକିତ୍	-3377
▁ସଂଲଗ୍ନ	-3378
▁ପଟ୍ଟନାୟକ	-3379
।।	-3380
ୈଧ	-3381
ain	-3382
ଥିର	-3383
ନ୍ସ	-3384
୍ଯା	-3385
▁ଭଗ	-3386
▁ଲେ	-3387
▁୧୮	-3388
ence	-3389
▁ଆହତ	-3390
▁କ୍ଲ	-3391
▁ଟିଭି	-3392
▁ଡାକି	-3393
▁ଦଣ୍ଡ	-3394
▁ଫେବୃ	-3395
▁ମଣ୍ଡ	-3396
▁ସଞ୍ଜ	-3397
▁ସୋନା	-3398
▁୨୦୧୨	-3399
ପ୍ରତିକ	-3400
▁ଟିପ୍ସ	-3401
ପୂର୍ଣ୍ଣ	-3402
▁ସୁରକ୍ଷ	-3403
▁ଜୀବାମୃତ	-3404
▁ଶାରୀରିକ	-3405
▁ଶ୍ରେଷ୍ଠ	-3406
▁କରିପାରିବ	-3407
ଖୁ	-3408
▁*	-3409
ଗାର	-3410
ଭିଦ	-3411
ଲକୁ	-3412
ଙ୍ଗ୍	-3413
ନାରେ	-3414
▁ନଜର	-3415
▁ଲାଇ	-3416
▁ସାର	-3417
▁୫୦୦	-3418
▁ଥାନା	-3419
▁ଏତିକି	-3420
▁ପାଇବା	-3421
▁ବହିଷ୍	-3422
▁ରଖିବା	-3423
▁ଅନୁରୋଧ	-3424
▁ଅଭିଯୋଗ	-3425
▁ଚିହ୍ନଟ	-3426
ାନୁଷ୍ଠାନ	-3427
▁କହିବାକୁ	-3428
▁ରିପୋର୍ଟ	-3429
▁ନିଯୁକ୍ତି	-3430
▁ସୁସମାଚାର	-3431
:4	-3432
gi	-3433
▁at	-3434
▁୧୩	-3435
bout	-3436
ଷ୍ଟେ	-3437
▁One	-3438
▁Ori	-3439
▁ଆଦୌ	-3440
ାନାରେ	-3441
▁Read	-3442
▁ଏସିଆ	-3443
▁ଇତ୍ୟା	-3444
▁ପତ୍ନୀ	-3445
▁ବାତିଲ	-3446
▁ବିଧାନ	-3447
▁ବିସ୍ତ	-3448
▁ଅନ୍ତର୍	-3449
▁ଦ୍ଵାରା	-3450
ନାହାନ୍ତି	-3451
▁ପଠାନ୍ତୁ	-3452
▁ରଖିବାକୁ	-3453
▁ଉଦ୍ଦେଶ୍ୟ	-3454
▁ଗଣମାଧ୍ୟମ	-3455
Ind	-3456
▁TV	-3457
▁ଆଫ	-3458
▁କଃ	-3459
▁ଶେ	-3460
bury	-3461
ବାବୁ	-3462
▁Cad	-3463
▁ଅସମ	-3464
କ୍ଷେପ	-3465
▁ଅଷ୍ଟ	-3466
▁ଆଗକୁ	-3467
▁ଫୋନ୍	-3468
▁ଗୁଡିକ	-3469
▁ଯେପରି	-3470
▁ଯୋଗୁଁ	-3471
▁ପ୍ରମୁଖ	-3472
▁ହୋଇଗଲା	-3473
▁Cadbury	-3474
▁ଅବସ୍ଥିତ	-3475
▁ତାରିଖରେ	-3476
▁ବାଛନ୍ତୁ	-3477
,“	-3478
ଟିର	-3479
ାନ୍ସ	-3480
▁ପଶୁ	-3481
▁ବ୍ଲ	-3482
▁ମଝି	-3483
▁ସଫା	-3484
▁ସେଟ	-3485
ପତ୍ତି	-3486
▁Have	-3487
▁ଙ୍କୁ	-3488
▁ଡିରେ	-3489
ଉଛନ୍ତି	-3490
▁ପଞ୍ଚମ	-3491
▁ସାମିଲ	-3492
▁ହେବାର	-3493
▁ପୃଥିବୀ	-3494
▁ବିଦ୍ୟା	-3495
▁ସ୍ମୃତି	-3496
▁ଇତ୍ୟାଦି	-3497
▁ପରିଚାଳକ	-3498
▁ରାସ୍ତାରେ	-3499
▁କାର୍ଯ୍ୟାନୁଷ୍ଠାନ	-3500
-2	-3501
ଇେ	-3502
ଚୁ	-3503
ହୃତ	-3504
▁ଆନ	-3505
ପନୀୟ	-3506
▁MZH	-3507
▁ଅଫ୍	-3508
▁ଜଗା	-3509
▁ହବେ	-3510
▁ଅବୈଧ	-3511
▁କହୁଛ	-3512
▁ପରଦା	-3513
▁ସିନେ	-3514
onditi	-3515
▁ରୂପରେ	-3516
▁ଯେମିତି	-3517
▁ଛାଡିଦେଲେ	-3518
▁ନିଷ୍କ୍ରିୟ	-3519
?’	-3520
ଟପ	-3521
ନୋ	-3522
ଷକ	-3523
gra	-3524
ype	-3525
କ୍ୟ	-3526
ନାମ	-3527
▁27	-3528
▁Te	-3529
▁ପକ	-3530
Odia	-3531
roup	-3532
ପରିକି	-3533
ୁଥିଲା	-3534
▁ଅନୁଭବ	-3535
▁ଏଥିରୁ	-3536
▁ପାଞ୍ଚ	-3537
▁ହେଇଚି	-3538
ବ୍ୟବହାର	-3539
▁କର୍ତ୍ତ	-3540
▁ଗୁଡ଼ିକ	-3541
▁ଭାରତରେ	-3542
▁ସମାପ୍ତ	-3543
▁ଅପେକ୍ଷା	-3544
▁ଆସୁଥିଲେ	-3545
▁ସବୁଠାରୁ	-3546
▁ପ୍ରତ୍ୟେକ	-3547
▁ରଥଯାତ୍ରା	-3548
▁ପୃଷ୍ଠଭୂମି	-3549
▁ବିରୁଦ୍ଧରେ	-3550
▁ହସ୍ତାକ୍ଷର	-3551
);	-3552
ik	-3553
ନର	-3554
ୂଳ	-3555
ୱେ	-3556
▁║	-3557
ଖାଳ	-3558
ଟାଏ	-3559
ଦାୟ	-3560
ଶାର	-3561
▁it	-3562
▁ri	-3563
FFCO	-3564
▁ODI	-3565
▁was	-3566
▁who	-3567
▁ଅସୁ	-3568
▁ସଭା	-3569
🙏🙏🙏🙏	-3570
▁ଉଇକି	-3571
▁କ୍ଯା	-3572
▁ଘଣ୍ଟ	-3573
▁ଢିଲା	-3574
▁ପୂରା	-3575
▁ମିଲି	-3576
▁ଲଗାଇ	-3577
▁ଉପଚାର	-3578
▁ସପ୍ତା	-3579
▁ପ୍ରତିକ	-3580
▁ନୂଆବର୍ଷ	-3581
▁ମହାନ୍ତି	-3582
▁ଯାଆନ୍ତୁ	-3583
▁ହେଉଛନ୍ତି	-3584
▁ନିୟନ୍ତ୍ରଣ	-3585
ail	-3586
ays	-3587
{0}	-3588
କ୍ଟ	-3589
ଳିଆ	-3590
inks	-3591
ତୁମେ	-3592
ହତ୍ୟା	-3593
▁କହିଲ	-3594
▁ଡାଉନ	-3595
▁ନିରା	-3596
▁ପଖାଳ	-3597
▁ମାଂସ	-3598
▁ଯାକୁ	-3599
▁ମୁଦ୍ର	-3600
▁ଆକ୍ରମଣ	-3601
▁ପ୍ରସାଦ	-3602
▁ଭିଡ଼ିଓ	-3603
▁Windows	-3604
:/	-3605
ଲ୍ଯ	-3606
ଶ୍ଯ	-3607
▁ଢା	-3608
ଫାନି	-3609
▁ଓଜନ	-3610
▁ଦୋଷ	-3611
▁ସେଲ	-3612
ଯାଉଛି	-3613
▁ଅଧୀନ	-3614
ୁଛନ୍ତି	-3615
▁ଟିକେଟ	-3616
▁ପୋଷ୍ଟ	-3617
▁ଭିତରୁ	-3618
▁ସିବିଆଇ	-3619
▁ରାଜ୍ୟରେ	-3620
▁ମହାପ୍ରଭୁଙ୍କ	-3621
Se	-3622
ଏଲ	-3623
ଚର	-3624
ମତ	-3625
ିମ	-3626
yst	-3627
ୋଟି	-3628
▁ୟେ	-3629
ogle	-3630
ther	-3631
▁ଏଠି	-3632
▁କଟକ	-3633
▁ପେଟ	-3634
▁vide	-3635
▁ଉତ୍କ	-3636
▁କହିବ	-3637
▁ଟ୍ରା	-3638
▁ମହାନ	-3639
▁about	-3640
▁କାମରେ	-3641
▁ଖାଇଲେ	-3642
▁ଉଦ୍ଭିଦ	-3643
▁ସଂସ୍ଥା	-3644
▁article	-3645
ap	-3646
ଂସା	-3647
ସମ୍	-3648
ହ୍ନ	-3649
▁(1	-3650
▁No	-3651
▁me	-3652
▁ଯମ	-3653
▁ସୀ	-3654
ଯିବା	-3655
▁ଋତୁ	-3656
▁କଭର	-3657
ାନ୍ଧି	-3658
ାରମ୍ଭ	-3659
▁ଜାରି	-3660
▁ଆସୁଛି	-3661
▁ନଥିଲା	-3662
କାରୀଙ୍କ	-3663
▁ଇଣ୍ଟରନେ	-3664
▁ଖୋଜନ୍ତୁ	-3665
▁ନିଷ୍ପତ୍ତି	-3666
▁ଗର୍ଲଫ୍ରେଣ୍ଡ	-3667
em	-3668
---	-3669
ube	-3670
ଯଦି	-3671
▁ଇନ	-3672
▁ଯୌ	-3673
ାର୍ଡ	-3674
▁ଧନୁ	-3675
▁ସାହ	-3676
ତିଜନକ	-3677
▁ଛାତି	-3678
▁ନଥାଏ	-3679
▁ପୁଲି	-3680
▁ମାତୃ	-3681
▁ସାରି	-3682
▁ଗାଇବା	-3683
▁ରହିଲେ	-3684
ନିର୍ଦ୍ଧ	-3685
▁ଏହିପରି	-3686
▁କ୍ୟାଲେ	-3687
▁ଗୋପନୀୟ	-3688
▁ସ୍ଥାପନ	-3689
▁ଆପତିଜନକ	-3690
▁ଫୋଲଡରକୁ	-3691
▁ହୁଅନ୍ତୁ	-3692
▁ହେଉଥିବା	-3693
▁ଡିସେମ୍ବର	-3694
ish	-3695
ser	-3696
ଂସଦ	-3697
ପ୍ନ	-3698
ାୟଣ	-3699
▁29	-3700
▁40	-3701
▁ହର	-3702
ବେଦନ	-3703
▁Don	-3704
▁cur	-3705
▁ଏନ୍	-3706
▁ବରଫ	-3707
▁ହାଃ	-3708
▁ବନାମ	-3709
▁ବିପଦ	-3710
▁ଦେଖାଯ	-3711
▁ଦେଖିଲେ	-3712
▁ବଞ୍ଚିତ	-3713
▁ସାଥିରେ	-3714
▁ସୁଦ୍ଧା	-3715
▁Conditi	-3716
୧୫	-3717
old	-3718
ory	-3719
ଚାପ	-3720
ର୍ସ	-3721
▁33	-3722
▁35	-3723
▁ଧା	-3724
▁Gen	-3725
▁କେଇ	-3726
▁ଦାଶ	-3727
ଧ୍ୟାନ	-3728
ଯୋଗ୍ୟ	-3729
▁that	-3730
▁ଚକିତ	-3731
▁ଚାପି	-3732
▁ବଜାଜ	-3733
▁IFFCO	-3734
▁ଗାଁରୁ	-3735
▁ବିମାନ	-3736
▁କାରଣରୁ	-3737
▁ଡାଉନଲୋ	-3738
▁ଯୁକ୍ତି	-3739
▁ଚାଲିଗଲା	-3740
▁ଛାଡିଦେଲେଣି	-3741
ER	-3742
କୌ	-3743
ଫୁ	-3744
ଭୟ	-3745
ହୀ	-3746
ize	-3747
କଲେ	-3748
ନିକ	-3749
ଲିଆ	-3750
ଧାରଣ	-3751
ବାଦୀ	-3752
ହେତୁ	-3753
▁www	-3754
▁ହାର	-3755
ଦାହରଣ	-3756
▁ଏଯାଏ	-3757
▁ଟିକି	-3758
▁ଦମ୍ପ	-3759
▁World	-3760
▁ପଡିଲା	-3761
ଯାଇଥିଲା	-3762
▁ଅସମର୍ଥ	-3763
▁ଶାସନରେ	-3764
▁୭୦ବର୍ଷ	-3765
▁ଅତ୍ୟନ୍ତ	-3766
▁ଏମାନଙ୍କ	-3767
▁ରହିଥିଲେ	-3768
▁କ୍ଷମତାକୁ	-3769
▁ସମ୍ପାଦନା	-3770
▁ହୋଇଛନ୍ତି	-3771
ନିର୍ଦ୍ଧାରିତ	-3772
▁ସ୍ୱାଧୀନତାର	-3773
cc	-3774
▁’	-3775
che	-3776
oin	-3777
ବରଦ	-3778
ଷ୍କ	-3779
▁ତି	-3780
eral	-3781
▁Any	-3782
▁How	-3783
▁ଅସ୍	-3784
▁କସର	-3785
▁ବେଳ	-3786
inger	-3787
ଦିଷ୍ଟ	-3788
▁ନଷ୍ଟ	-3789
▁ପୂରଣ	-3790
▁ଶଗଡ଼	-3791
ଯାଇଥାଏ	-3792
▁ଦୁଇଟି	-3793
▁ଯାକୁବ	-3794
▁Downlo	-3795
▁ଆସିବାକୁ	-3796
▁କୋଉଠିକୁ	-3797
▁ଗ୍ରାମରେ	-3798
▁ଦାଦାଗିରି	-3799
▁କରାଯାଇଥିବା	-3800
ack	-3801
are	-3802
rin	-3803
▁To	-3804
କ୍କା	-3805
ଲମ୍ବ	-3806
ସ୍ତି	-3807
▁ଦ୍ର	-3808
▁ପଡ଼	-3809
▁ପାଳ	-3810
▁ବାମ	-3811
▁ହରି	-3812
ତିହାସ	-3813
▁ଆଣ୍ଡ	-3814
▁ଜବରଦ	-3815
▁ଘଟିଲା	-3816
▁Ginger	-3817
▁ଚାଲିବାରେ	-3818
▁ପୃଥିବୀରେ	-3819
▁ସେତେବେଳେ	-3820
▁Conditions	-3821
au	-3822
ide	-3823
କୁର	-3824
ିକର	-3825
▁la	-3826
ଶାସନ	-3827
▁can	-3828
▁କେଶ	-3829
▁ନିଆ	-3830
▁ଫୋନ	-3831
ଜ୍ଞତା	-3832
ଦର୍ଶନ	-3833
▁କୁହେ	-3834
▁ଯିବି	-3835
▁ଶଙ୍ଖ	-3836
▁ସ୍ୱୟ	-3837
ସଂହିତା	-3838
▁These	-3839
▁ଯୋଗ୍ୟ	-3840
▁ତାହାକୁ	-3841
▁ଭବିଷ୍ୟ	-3842
▁ରାଜ୍ୟର	-3843
▁ସୁବିଧା	-3844
▁ଧନ୍ୟବାଦ	-3845
▁ରହୁଛନ୍ତି	-3846
▁ସୁରକ୍ଷିତ	-3847
av	-3848
io	-3849
ଓଃ	-3850
ଡ଼ର	-3851
ହ୍ମ	-3852
▁(%	-3853
▁ହଳ	-3854
ହେଲା	-3855
▁che	-3856
▁ଅନ୍	-3857
▁ଦ୍ୟ	-3858
▁ଶୀତ	-3859
▁କରିଛ	-3860
▁ଜାଗା	-3861
▁ଟ୍ରେ	-3862
▁ଧାଇବ	-3863
▁ପଛକୁ	-3864
▁ଲିଖିତ	-3865
କର୍ତ୍ତା	-3866
▁ଦ୍ୟାରା	-3867
▁ଭର୍ତ୍ତି	-3868
▁ଆତ୍ମହତ୍ୟା	-3869
▁ରଖାଯାଇଥାଏ	-3870
ବ୍ୟବହାରକାରୀ	-3871
@)	-3872
#3&	-3873
eek	-3874
iop	-3875
ଟିଆ	-3876
▁En	-3877
▁କଅ	-3878
@@@)	-3879
▁!!!	-3880
▁ଥିବ	-3881
▁ବଟନ	-3882
▁ଭରଣ	-3883
▁ହଜି	-3884
ଣ୍ଡିତ	-3885
▁Cont	-3886
▁ଧାରା	-3887
▁ପୂଜା	-3888
▁check	-3889
▁group	-3890
▁ଗୋଟାଏ	-3891
▁ସର୍ଭି	-3892
▁ମନ୍ତ୍ର	-3893
▁ଘଣ୍ଟାରୁ	-3894
▁ଦାୟିତ୍ୱ	-3895
▁ନିର୍ଦ୍ଧ	-3896
▁ସମ୍ପାଦନ	-3897
▁ହୋଇଥିଲେ	-3898
▁ଚିକିତ୍ସା	-3899
▁ପରିସ୍ଥିତି	-3900
@@@@@@@@@@@)	-3901
No	-3902
ତଳ	-3903
ନଈ	-3904
rol	-3905
ବିକ	-3906
ହୀନ	-3907
▁Bi	-3908
▁ମୌ	-3909
▁ଵି	-3910
▁୨୫	-3911
ount	-3912
ନଈରୀ	-3913
ପ୍ଟେ	-3914
ଷ୍ଟର	-3915
୍ୟାଗ	-3916
▁are	-3917
▁ଆପ୍	-3918
▁କାନ	-3919
▁ଡକା	-3920
▁ଡାଇ	-3921
▁Comp	-3922
▁ଅକ୍ଷ	-3923
▁ଅଲଗା	-3924
▁କୃଷି	-3925
▁ତବେେ	-3926
▁ଦେଶର	-3927
▁ରାଣୀ	-3928
▁ନିରାଶ	-3929
▁ଚାଲିଲା	-3930
▁ମନ୍ଦିର	-3931
▁ଶଗଡ଼ରେ	-3932
▁ପ୍ରତିନି	-3933
▁ଆବଶ୍ୟକତା	-3934
TR	-3935
େଦ	-3936
rib	-3937
ଦିଅ	-3938
▁ଜୋ	-3939
▁ୟି	-3940
---?	-3941
olid	-3942
quot	-3943
ଚାରୀ	-3944
ଣ୍ଟର	-3945
ୟାରୀ	-3946
▁why	-3947
▁ପାନ	-3948
▁ଇଚ୍ଛ	-3949
▁ଦକ୍ଷିଣ	-3950
▁କୁହାଯାଏ	-3951
▁ପ୍ରଚଳିତ	-3952
▁ଯାଇପାରେ	-3953
▁କ୍ଯାଲେଣ୍ଡର	-3954
CI	-3955
▁ଡ଼	-3956
nday	-3957
▁ଅର୍	-3958
▁ଥାଉ	-3959
▁ରାୟ	-3960
▁ରେଳ	-3961
▁ଶିଖ	-3962
▁ଶୋଇ	-3963
▁ସାନ	-3964
କୌଣସି	-3965
ସ୍କଟପ	-3966
▁Time	-3967
▁ଅତିକ	-3968
ସ୍ଥାପନ	-3969
▁ସଂସ୍କ	-3970
▁ସଙ୍ଗେ	-3971
▁ଯେହେତୁ	-3972
........	-3973
▁ଦେଇପାରେ	-3974
▁ବିଜ୍ଞାନ	-3975
RE	-3976
ey	-3977
କୀ	-3978
row	-3979
।’’	-3980
ଟାଲ	-3981
ପଟି	-3982
ର୍ଘ	-3983
ଷ୍ଯ	-3984
ୟିକ	-3985
▁le	-3986
▁ନଂ	-3987
...]	-3988
କାଲି	-3989
କ୍ତା	-3990
ଣାରେ	-3991
ଆନ୍ତି	-3992
▁ଟିକିଏ	-3993
▁ଭାତରେ	-3994
▁ନିଶ୍ଚୟ	-3995
▁ବଜାରକୁ	-3996
▁ବାଜିଲା	-3997
▁ସପ୍ତାହ	-3998
▁ସମର୍ଥନ	-3999
▁ସେଠାରେ	-4000
▁ଖାଆନ୍ତୁ	-4001
▁ପଢ଼ନ୍ତୁ	-4002
▁ପ୍ରସ୍ତୁତି	-4003
▁ପରମେଶ୍ବରଙ୍କ	-4004
ବଣ	-4005
ମୟ	-4006
ild	-4007
ite	-4008
ଜ୍ଜ	-4009
ଟିକ	-4010
ବଳୀ	-4011
ାତ୍	-4012
▁32	-4013
ଦେବା	-4014
▁111	-4015
▁ନିଅ	-4016
optic	-4017
▁ଅନ୍ଧ	-4018
▁ଖୁବ୍	-4019
▁ଶରୀରର	-4020
▁ଇତିହାସ	-4021
▁ମିଳିଛି	-4022
▁General	-4023
ଂକ	-4024
ଆର୍	-4025
କର୍	-4026
ଭରି	-4027
▁26	-4028
▁go	-4029
ଣ୍ଡେ	-4030
▁ସଂକ	-4031
▁ଗୌରବ	-4032
▁ପାରା	-4033
▁ଯାଏଁ	-4034
▁ଶାମା	-4035
▁ଶୁଣୁ	-4036
▁ଆସିଛି	-4037
▁ତଥାପି	-4038
▁ମୂଲ୍ଯ	-4039
▁ରାତିଏ	-4040
▁ଅଧୀନରେ	-4041
▁ଗୁପ୍ତା	-4042
▁ପଣ୍ଡିତ	-4043
▁ହୋଇଯିବ	-4044
▁ପ୍ରସ୍ତା	-4045
▁ଯାଇଥିଲା	-4046
▁ସମାନଙ୍କେୁ	-4047
,”	-4048
DA	-4049
][	-4050
ଵା	-4051
ହ୍ୟ	-4052
▁:-	-4053
▁CD	-4054
▁ଅତ	-4055
▁ଧନ	-4056
ରଚନା	-4057
▁Apa	-4058
▁ନାର	-4059
▁ରଖେ	-4060
chool	-4061
▁ନାଇଁ	-4062
▁ପଦରୁ	-4063
oliday	-4064
▁Oriya	-4065
▁କସରତ୍	-4066
▁ଉଲ୍ଲେଖ	-4067
▁ଅବସ୍ଥାନ	-4068
▁ବିଶ୍ବାସ	-4069
▁ମାର୍ଚ୍ଚ	-4070
▁ଦମ୍ପତ୍ତି	-4071
▁ପ୍ରାରମ୍ଭ	-4072
▁ବାସ୍ତବତା	-4073
▁ଫାଇଲଗୁଡ଼ିକୁ	-4074
ୟତ	-4075
New	-4076
ଜରେ	-4077
ଯାଉ	-4078
ଯୋଜ	-4079
▁ଘୋ	-4080
▁ସଠ	-4081
ated	-4082
ଞ୍ଚଳ	-4083
▁Pro	-4084
▁sub	-4085
▁ଆମଦ	-4086
▁ପରମ	-4087
▁ମଡେ	-4088
▁ଇମେଲ	-4089
▁କିଣି	-4090
▁ବଙ୍ଗ	-4091
▁ବାକି	-4092
▁କ୍ଲିକ	-4093
▁ଧ୍ୱନି	-4094
▁ବ୍ରାଉ	-4095
▁ସହାୟକ	-4096
▁ଅଭିଲେଖ	-4097
▁ବାନ୍ଧି	-4098
▁ବେରଙ୍ଗ	-4099
▁ଲକ୍ଷରୁ	-4100
▁ସମ୍ମୁଖ	-4101
▁ସେଥିରେ	-4102
▁ଚର୍ଚ୍ଚା	-4103
▁ବ୍ୟବହୃତ	-4104
▁ଆମେରିକାର	-4105
▁ଫେବୃୟାରୀ	-4106
‍.	-4107
gal	-4108
ନିଆ	-4109
ପ୍ପ	-4110
ିରେ	-4111
▁କଭ	-4112
▁ଶୋ	-4113
ନିତି	-4114
ମ୍ଭେ	-4115
ୀକରଣ	-4116
▁ଆପେ	-4117
▁ଉଭୟ	-4118
▁ଘରର	-4119
▁ଲାଗ	-4120
▁ସୁଖ	-4121
୍ୟୁଜ୍	-4122
▁Edge	-4123
▁ଅବଧି	-4124
▁ଡିଜି	-4125
▁ଦଲିଲ	-4126
▁ପ୍ରି	-4127
▁ମନୋନ	-4128
▁ଲେଖକ	-4129
▁ସମତଳ	-4130
ପର୍ଯ୍ୟ	-4131
ପାରିବି	-4132
▁ଅଗଷ୍ଟ	-4133
▁ଅପରାଜ	-4134
▁ଦେଇଛି	-4135
▁ଅଧିବେଶ	-4136
▁ସଂରଚନା	-4137
▁ଗୀତସଂହିତା	-4138
▁ପ୍ରଦର୍ଶିତ	-4139
ଗମ	-4140
▁୍	-4141
CGH	-4142
ual	-4143
ଦୂତ	-4144
▁36	-4145
▁50	-4146
▁ହଜ	-4147
ହେରା	-4148
▁ଅଟକ	-4149
▁ବରଂ	-4150
▁ମନୋ	-4151
thiop	-4152
umber	-4153
ଜ୍ଞାନ	-4154
▁ଗାଡି	-4155
▁ଡାଟା	-4156
▁ପ୍ୟା	-4157
▁ଲୋଭା	-4158
-----?	-4159
▁2014.	-4160
▁reson	-4161
▁ପରିବା	-4162
▁sunday	-4163
▁ଲେଖିବା	-4164
thiopian	-4165
ଷ୍ଟେସଙ୍କ	-4166
▁holiday	-4167
▁ପାଇବାରୁ	-4168
▁ଯାଇଥିଲେ	-4169
▁ମାଧ୍ୟମରେ	-4170
ଂଟ	-4171
ଂହ	-4172
ori	-4173
ଡ଼ୋ	-4174
ପୁଅ	-4175
ମିର	-4176
time	-4177
ଖାନା	-4178
ଣ୍ଡୁ	-4179
ିଷ୍ଟ	-4180
▁app	-4181
▁କୃତ	-4182
▁ଡ଼େ	-4183
▁ତେଲ	-4184
▁ମାଗ	-4185
▁ODIA	-4186
▁ଜନତା	-4187
▁ମଡେଲ	-4188
କ୍ଟୋରୀ	-4189
▁ଉପଯୋଗ	-4190
▁ଧ୍ୟାନ	-4191
▁ଭଗବାନ	-4192
▁ସବୁଠୁ	-4193
▁ସାଂସଦ	-4194
▁Apache	-4195
▁thinks	-4196
▁ପଚାରିଲି	-4197
▁ରାଷ୍ଟ୍ର	-4198
ପର୍ଯ୍ୟନ୍ତ	-4199
▁ଉଇଣ୍ଡୋକୁ	-4200
▁କେତେବେଳେ	-4201
▁ବହିଷ୍କୃତ	-4202
▁କ୍ୟାଲେଣ୍ଡର	-4203
▁ହୋଷ୍ଟେସଙ୍କ	-4204
ଳୁ	-4205
ପିତ	-4206
ବାଚ	-4207
ବ୍ର	-4208
ମାସ	-4209
େତା	-4210
▁2.	-4211
▁କହ	-4212
ତେବେ	-4213
▁ଫୁଲ	-4214
ଦିଙ୍କ	-4215
ର୍ଜନା	-4216
ିକାରେ	-4217
▁ଅଧ୍ୟ	-4218
▁ଖୋଲା	-4219
▁ବାବଦ	-4220
▁ବେଡି	-4221
▁ହୋଇନ	-4222
▁ଆନନ୍ଦ	-4223
▁ଆବେଦନ	-4224
▁ଦୋକାନ	-4225
▁ଯୋଗାଣ	-4226
▁ଗ୍ରହରେ	-4227
▁ଘଟଣାକୁ	-4228
▁ଚନ୍ଦ୍ର	-4229
▁ଟଙ୍କିଆ	-4230
▁ନିୟମିତ	-4231
▁ମଧ୍ଯରେ	-4232
▁ସିନେମା	-4233
ପ୍ଟେମ୍ବର	-4234
▁ଅଷ୍ଟ୍ରେ	-4235
▁ଲେଖନ୍ତୁ	-4236
▁ଗୋପନୀୟତା	-4237
▁ସ୍ୱତନ୍ତ୍ର	-4238
ପ୍ରତିକାତ୍ମକ	-4239
▁ନିର୍ବାଚନରେ	-4240
▁କାର୍ଯ୍ୟକାରୀ	-4241
:0	-4242
@1	-4243
ph	-4244
ଳର	-4245
୧୩	-4246
୬୫	-4247
The	-4248
ମାଲ	-4249
ଶିତ	-4250
▁Un	-4251
▁al	-4252
▁ବୀ	-4253
▁୨୩	-4254
Post	-4255
ପକ୍ଷ	-4256
ସଙ୍ଗ	-4257
▁100	-4258
▁180	-4259
▁କଅଣ	-4260
▁ନୁଆ	-4261
▁ମୋଟ	-4262
▁ଶିବ	-4263
ଲିଙ୍ଗ	-4264
▁ପଠାଇ	-4265
@@@@@1	-4266
▁ଅନନ୍ତ	-4267
▁କାଳିଆ	-4268
▁ଉଦାହରଣ	-4269
▁ପ୍ରଚାର	-4270
▁ଭାଇରାଲ	-4271
▁ସର୍ଭିସ	-4272
▁ଚିନ୍ତିତ	-4273
▁ରକ୍ତଚାପ	-4274
▁ଗୁପ୍ତାଙ୍ଗ	-4275
▁ତୁମ୍ଭମାନେେ	-4276
@@@@@@@@@@@@@1	-4277
22	-4278
At	-4279
VD	-4280
ଶୋ	-4281
ଗରେ	-4282
ତଲା	-4283
ର୍ଟ	-4284
ୁରୋ	-4285
ୟିତ	-4286
▁ଅଦ	-4287
able	-4288
book	-4289
very	-4290
ତ୍ରୁ	-4291
ଦର୍ଶ	-4292
▁ପଗ୍	-4293
ଜୟନ୍ତ	-4294
ବାଦିକ	-4295
ବିତ୍ର	-4296
▁have	-4297
▁ଅପରା	-4298
▁ଛାଡ଼	-4299
▁ନେଲେ	-4300
▁ହୃଦୟ	-4301
▁କରୁଛୁ	-4302
▁ବାଇଗଣ	-4303
▁ବିବାଦ	-4304
tionary	-4305
ଯାଇଥିବା	-4306
OdiaPost	-4307
▁ଆବର୍ଜନା	-4308
▁ସ୍ଥାନକୁ	-4309
▁ଲାଗୁନାହିଁ	-4310
ଫୋ	-4311
ବତ	-4312
୧୨	-4313
ଡାକ	-4314
▁ଜଗ	-4315
▁ତର	-4316
▁ତୃ	-4317
▁ଭୀ	-4318
angu	-4319
ଟିରେ	-4320
ନାକୁ	-4321
ଶ୍ରୀ	-4322
ିତ୍ତ	-4323
▁Tra	-4324
▁con	-4325
▁ମାପ	-4326
▁2018	-4327
▁ନେବା	-4328
▁ଫଳରେ	-4329
▁ଯୋହନ	-4330
▁ସୁନା	-4331
▁ହାଇେ	-4332
▁ଇଣ୍ଡିଆ	-4333
▁ଖୋଲିଦେ	-4334
▁ସମ୍ପର୍କରେ	-4335
74	-4336
up	-4337
ପୀ	-4338
ୁଛ	-4339
▁o	-4340
ଏଲ୍	-4341
ଞାନ	-4342
ଲାକ	-4343
▁୨୪	-4344
alle	-4345
▁Act	-4346
▁RTR	-4347
▁TVS	-4348
▁how	-4349
▁କାଟ	-4350
▁ପବନ	-4351
▁ମାଛ	-4352
▁ସାଆ	-4353
ମ୍ବାର	-4354
▁(1),	-4355
▁ଉପଭୋ	-4356
▁ଗର୍ଭ	-4357
Coptic	-4358
ସମ୍ପାଦ	-4359
▁କନ୍ୟା	-4360
▁କୃଷ୍ଣ	-4361
▁ବିଞାନ	-4362
▁ଲଢିବା	-4363
▁ଶୀଘ୍ର	-4364
▁ସୁସ୍ଥ	-4365
▁ସ୍ଥିର	-4366
ରାଜନିତି	-4367
▁ଦୃଷ୍ଟି	-4368
▁ଭାରତକୁ	-4369
▁ଯିବାକୁ	-4370
ରିବର୍ତ୍ତ	-4371
▁ହୁଅନ୍ତି	-4372
▁କର୍ମଚାରୀ	-4373
▁ଯେଉଁମାନେ	-4374
OdiaPostAt	-4375
56	-4376
କଂ	-4377
ଳ୍	-4378
ଶନ	-4379
▁←	-4380
ଆରି	-4381
ଏବେ	-4382
କିଓ	-4383
ପାଗ	-4384
ମଣି	-4385
ମୃତ	-4386
୧୯୯	-4387
▁Li	-4388
icen	-4389
vers	-4390
ପାନର	-4391
ାନ୍ୟ	-4392
୍ରୀୟ	-4393
▁Off	-4394
▁ମନୁ	-4395
▁ମୁଖ	-4396
▁ଯୌନ	-4397
▁ସରି	-4398
icken	-4399
ରିକ୍ତ	-4400
▁କ୍ରମ	-4401
▁ପୁଲିସ	-4402
▁ବଦଳରେ	-4403
▁ବର୍ଷୀୟ	-4404
▁ବିରୋଧୀ	-4405
▁ଭାବିଲି	-4406
▁ଭିତରକୁ	-4407
▁ମହାରାଜ	-4408
▁ସ୍ତମ୍ଭ	-4409
▁ନିଅନ୍ତୁ	-4410
▁ଯେକୌଣସି	-4411
Ethiopian	-4412
▁ଅପରିବର୍ତ୍ତ	-4413
AR	-4414
ରକ	-4415
୨୯	-4416
▁+	-4417
▁•	-4418
ake	-4419
ell	-4420
ock	-4421
tip	-4422
କେଇ	-4423
ଣିକ	-4424
ଦ୍ମ	-4425
▁(←	-4426
▁ଧୁ	-4427
କଙ୍କ	-4428
ନାହଁ	-4429
ଭାରେ	-4430
ଲୋରା	-4431
ଶ୍ଵର	-4432
ସନରେ	-4433
▁App	-4434
▁ଜିତ	-4435
▁ବିଳ	-4436
▁ସଂଖ	-4437
ambad	-4438
▁rich	-4439
▁ଆର୍ଥ	-4440
▁ଘୁରା	-4441
▁ଚଳିତ	-4442
▁ଚୋରି	-4443
▁ବାର୍	-4444
▁ସାଧନ	-4445
▁ଅବଶ୍ୟ	-4446
▁ଦେଉଛୁ	-4447
▁ଦେଶରେ	-4448
▁ପଣ୍ଡା	-4449
▁ସଂସାର	-4450
▁ସମସ୍ୟ	-4451
▁ଜାଣିଲେ	-4452
▁ନିର୍ଦ୍	-4453
▁ଫାଇଲକୁ	-4454
▁ବିଶ୍ୱକ	-4455
▁ଭୟଙ୍କର	-4456
▁ମନାକଲେ	-4457
▁chicken	-4458
▁କହୁଥିଲେ	-4459
▁ଯୀଶୁଙ୍କ	-4460
ictionary	-4461
ିନାହାନ୍ତି	-4462
▁ଅଧ୍ୟାୟରେ	-4463
▁ବାରମ୍ବାର	-4464
32	-4465
ଢା	-4466
ତକ	-4467
any	-4468
ins	-4469
ବନୀ	-4470
ଷ୍ମ	-4471
ସ୍ମ	-4472
ିଲେ	-4473
୍ରୋ	-4474
▁23	-4475
▁ଓଂ	-4476
ଂଚାଳ	-4477
ଙ୍କେ	-4478
ମାର୍	-4479
ୁରୋପ	-4480
▁3.9	-4481
▁Con	-4482
▁କନକ	-4483
▁ଦଳର	-4484
▁ଦେହ	-4485
▁ବିଷ	-4486
ଗୁପ୍ତ	-4487
ଣ୍ଡରେ	-4488
▁text	-4489
▁କୁରୁ	-4490
▁ପୁରୀ	-4491
porter	-4492
୍ରାନ୍ତ	-4493
▁ଗୋପାଳ	-4494
▁ପଚାରୁ	-4495
କ୍ଷିପ୍ତ	-4496
▁କ୍ରିକେ	-4497
▁କ୍ଲିକ୍	-4498
▁ପଦକ୍ଷେପ	-4499
▁ବ୍ଯକ୍ତି	-4500
▁ଅତିରିକ୍ତ	-4501
▁ପ୍ରସ୍ତାବ	-4502
ପଟ	-4503
ale	-4504
jal	-4505
nts	-4506
ତୀର	-4507
ଭ୍ୟ	-4508
ଶିଷ	-4509
ଶୀଳ	-4510
▁42	-4511
▁JH	-4512
▁ସବ	-4513
gram	-4514
କିଛି	-4515
ଚିତ୍	-4516
ଧ୍ୟା	-4517
ଲାଣି	-4518
ାଯୋଗ	-4519
▁Ins	-4520
▁key	-4521
▁କିଂ	-4522
▁ଜାଗ	-4523
▁ତତେ	-4524
▁ତୁର	-4525
ଆରମ୍ଭ	-4526
ଧିକରଣ	-4527
ମ୍ଭୀର	-4528
ୃତିରେ	-4529
▁2016	-4530
▁ଅଦ୍ୟ	-4531
▁ଡ୍ୟା	-4532
▁ତଳକୁ	-4533
▁ରତ୍ନ	-4534
Indian	-4535
▁ଆସିଲେ	-4536
▁ଈଶ୍ୱର	-4537
▁କେତେକ	-4538
▁ଥଣ୍ଡା	-4539
▁ପଏଣ୍ଟ	-4540
▁ପିନ୍ଧ	-4541
▁ଫାଇଦା	-4542
▁ରଙ୍ଗର	-4543
anguage	-4544
ଚାର୍ଯ୍ୟ	-4545
▁ଫୋଲଡ଼ର	-4546
▁ମୁଦ୍ରଣ	-4547
▁ମୁହଁରେ	-4548
▁ଲାଗୁଛି	-4549
▁ୱେବସାଇ	-4550
▁ଅଭିନେତା	-4551
▁Download	-4552
▁ତାଲିକାରେ	-4553
▁ସମ୍ପତ୍ତି	-4554
▁ହୋଇପାରିବ	-4555
!"	-4556
OP	-4557
gl	-4558
ଉଦ	-4559
କୃ	-4560
ଶୂ	-4561
://	-4562
ପ୍ଟ	-4563
ୟେଲ	-4564
▁30	-4565
▁୩୫	-4566
DIEN	-4567
NGRE	-4568
ould	-4569
ଙ୍ଗଲ	-4570
ତ୍ତା	-4571
ମାୟା	-4572
୍ରାସ	-4573
▁ଇନ୍	-4574
▁ଗତି	-4575
▁ଗ୍ଭ	-4576
▁ବାସ	-4577
▁ଶଶୁ	-4578
ବସ୍ତୁ	-4579
▁ଅଗ୍ର	-4580
▁ଡଲାର	-4581
▁ପାସ୍	-4582
▁ବଢ଼ି	-4583
▁ମହତ୍	-4584
▁ଯେବେ	-4585
DIENTS	-4586
rinjal	-4587
▁INGRE	-4588
▁ବନ୍ୟା	-4589
▁ମିଳୁଛି	-4590
▁ସ୍ଥାନା	-4591
▁ପ୍ରକାଶିତ	-4592
▁ବାର୍ତ୍ତା	-4593
▁INGREDIENTS	-4594
:5	-4595
ML	-4596
__	-4597
ଷେ	-4598
’।	-4599
▁ଐ	-4600
ଣେଶ	-4601
ହାଣ	-4602
ୁରୀ	-4603
▁41	-4604
▁Ce	-4605
▁HT	-4606
▁ତୀ	-4607
▁ଶୂ	-4608
name	-4609
ତାକୁ	-4610
ୃତିକ	-4611
▁କହେ	-4612
▁କେତ	-4613
▁କୌଶ	-4614
▁ଚୀନ	-4615
▁ଧାନ	-4616
▁ନନ୍	-4617
▁ମଲ୍	-4618
▁ମାଲ	-4619
▁ରୋଜ	-4620
▁ଶୁଭ	-4621
▁ସବଳ	-4622
ransl	-4623
ନୁହେଁ	-4624
ମେଣ୍ଟ	-4625
▁ଚାବି	-4626
▁ତ୍ରି	-4627
▁ଧୀରେ	-4628
▁ବଦଳି	-4629
▁ଭୁଲ୍	-4630
▁curry	-4631
▁ଦର୍ଶନ	-4632
▁ହିସାବ	-4633
▁ଜବରଦଖଲ	-4634
▁ପବିତ୍ର	-4635
▁ସ୍କ୍ରି	-4636
ାଯାଇଥିବା	-4637
▁Brinjal	-4638
▁ଉତ୍ତରରେ	-4639
▁ନୁହନ୍ତି	-4640
▁ବିଶିଷ୍ଟ	-4641
▁ହିସାବରେ	-4642
▁ହୋଇଯାଇଛି	-4643
▁କୁହାଯାଇଥାଏ	-4644
ଏଫ	-4645
ଦନ	-4646
ପୋ	-4647
ata	-4648
hen	-4649
ror	-4650
ଆଲୋ	-4651
ଦ୍ଯ	-4652
ରାଣ	-4653
ଶେଷ	-4654
୧ରେ	-4655
▁Ju	-4656
▁ad	-4657
line	-4658
list	-4659
େଇଲା	-4660
▁199	-4661
▁Rep	-4662
▁ନମଃ	-4663
▁ଯଥା	-4664
▁This	-4665
▁What	-4666
▁user	-4667
▁ଆୟୋଜ	-4668
▁ଜାଣେ	-4669
▁ନିରବ	-4670
▁ପଶ୍ଚ	-4671
▁ଭେଟି	-4672
▁ମାଡ଼	-4673
▁ରାଉତ	-4674
ଥାନ୍ତା	-4675
▁ଦୀର୍ଘ	-4676
▁ପୁନର୍	-4677
▁ବାକ୍ୟ	-4678
▁ୟୁରୋପ	-4679
▁Indian	-4680
▁ମନୋନୀତ	-4681
▁ସବୁଦିନ	-4682
ଗୁଡ଼ିକରେ	-4683
▁ଗୁରୁତ୍ୱ	-4684
▁ବୈଜୟନ୍ତ	-4685
▁କାର୍ଯ୍ୟା	-4686
▁ବିଧାନସଭା	-4687
▁ପ୍ରତିନିଧି	-4688
▁ଡିରେକ୍ଟୋରୀ	-4689
1.	-4690
ଅପ	-4691
୪୬	-4692
କରୁ	-4693
ଚୀନ	-4694
ଲିପ	-4695
▁Ex	-4696
▁GN	-4697
▁ମୃ	-4698
cted	-4699
ding	-4700
ical	-4701
ପିଲି	-4702
ବ୍ରୁ	-4703
ଳିକା	-4704
ାଇବେ	-4705
ାଯାଏ	-4706
▁ଅଟୋ	-4707
▁କେର	-4708
▁ଗୋଡ	-4709
pedia	-4710
ପାଦାନ	-4711
▁ଗୋଲା	-4712
▁ଜଣାପ	-4713
▁ବିସ୍	-4714
▁ରେଖା	-4715
▁Bible	-4716
▁ଅଧିକା	-4717
▁ପହଞ୍ଚ	-4718
▁ଫେସବୁ	-4719
▁ଅବସରରେ	-4720
▁ଉପାଦାନ	-4721
▁ସଂଗ୍ରହ	-4722
ସମ୍ପାଦନା	-4723
▁ଅନୁଚିତ୍	-4724
▁ପୂର୍ଣ୍ଣ	-4725
▁ଗଣତନ୍ତ୍ର	-4726
▁ଚାହାନ୍ତି	-4727
▁ବଢ଼ିବାକୁ	-4728
▁ମୂର୍ତ୍ତି	-4729
▁ଯାଉଛନ୍ତି	-4730
▁ସଂକ୍ଷିପ୍ତ	-4731
con	-4732
ଆମେ	-4733
ଜ୍ୟ	-4734
▁ସଲ	-4735
ଶ୍ରା	-4736
ହାତି	-4737
ିତ୍ୟ	-4738
▁ସୋମ	-4739
ଗ୍ରହଣ	-4740
ଥେଷ୍ଟ	-4741
ବାଚିକ	-4742
▁ଅଥବା	-4743
▁କଣ୍ଠ	-4744
▁କାଇଁ	-4745
▁ଟିମ୍	-4746
▁ପଣ୍ୟ	-4747
▁ପଦବୀ	-4748
▁ରିଲି	-4749
▁ସଞ୍ଚ	-4750
▁ସ୍ତର	-4751
▁ହସ୍ତ	-4752
icense	-4753
କ୍ସିସ୍	-4754
ବିଦ୍ୟା	-4755
▁child	-4756
▁କଲେଜ୍	-4757
▁କାୟିକ	-4758
▁ଟୋକିଓ	-4759
▁ପାଇଲେ	-4760
▁ରଖିଛି	-4761
▁ଲାଗିବ	-4762
▁ଶତ୍ରୁ	-4763
▁ସହଜରେ	-4764
▁ଆର୍ଥିକ	-4765
▁ଇନ୍ଦ୍ର	-4766
▁ତୁରନ୍ତ	-4767
▁ପାରିବି	-4768
▁program	-4769
▁ଓଡ଼ିଶାର	-4770
▁ଟକ୍ସିସ୍	-4771
▁ଡାଉନଲୋଡ	-4772
▁ପର୍ଯ୍ୟା	-4773
▁ପ୍ରେରିତ	-4774
▁ଅନ୍ୟାନ୍ୟ	-4775
▁ଦିଆଯାଇଛି	-4776
▁ପ୍ରକୃତରେ	-4777
▁ଈଶ୍ବରଙ୍କୁ	-4778
▁ରାଷ୍ଟ୍ରପତି	-4779
)[	-4780
37	-4781
li	-4782
।)	-4783
ଧର	-4784
ଏଚ୍	-4785
▁Sp	-4786
▁ଟୁ	-4787
▁୧୬	-4788
▁‘‘	-4789
okio	-4790
ଯିବେ	-4791
ିକାଲ	-4792
▁ଫାର	-4793
▁ବୁଲ	-4794
▁ଆର୍କ	-4795
▁ଘଟିବ	-4796
▁ବ୍ୟତ	-4797
urance	-4798
ଂଚାଳିତ	-4799
ିନାହିଁ	-4800
▁ବଢିଲା	-4801
▁ବିଦେଶ	-4802
▁ମୋହିତ	-4803
▁ରହିବୁ	-4804
▁ଲକ୍ଷଣ	-4805
▁ଆଶଙ୍କା	-4806
▁ଡ୍ୟାମ୍	-4807
▁ପରିଚିତ	-4808
▁ବୁଦ୍ଧି	-4809
▁ଶୁଣିବା	-4810
▁ସାଙ୍ଗରେ	-4811
▁ଅବସ୍ଥାରେ	-4812
▁ସ୍ୱାମୀଙ୍କ	-4813
▁ନିମ୍ନଲିଖିତ	-4814
▁ଜବରଦଖଲକାରୀଙ୍କ	-4815
-“	-4816
mor	-4817
ral	-4818
uri	-4819
ତ୍ସ	-4820
ାୟତ	-4821
ୀକୁ	-4822
୨ରେ	-4823
▁do	-4824
▁ଇସ	-4825
▁ଛଅ	-4826
▁ଧୋ	-4827
ates	-4828
ower	-4829
ଟାରେ	-4830
ବାରେ	-4831
ିମିତ	-4832
▁Arg	-4833
▁rec	-4834
email	-4835
▁July	-4836
▁hour	-4837
▁କୋଚେ	-4838
▁ଚେତା	-4839
▁ଦାଉଦ	-4840
▁ଦାମ୍	-4841
▁ମିଳେ	-4842
▁ରଖିବ	-4843
▁ସିନ୍	-4844
eeting	-4845
escrip	-4846
ଭଣ୍ଡାର	-4847
▁ଶେଷରେ	-4848
acebook	-4849
ରେନ୍ଦ୍ର	-4850
▁କରାଗଲା	-4851
▁ଦେଇଥାଏ	-4852
▁ପଗ୍ଭରି	-4853
▁ବାହାରେ	-4854
▁ସର୍ବଦା	-4855
▁ନିୟିମିତ	-4856
▁ବାହାରକୁ	-4857
▁କୁରୁମାୟା	-4858
▁ଚାହାଁନ୍ତି	-4859
ଖେ	-4860
ଣତ	-4861
ach	-4862
pad	-4863
ଡକୁ	-4864
ରାଟ	-4865
▁ne	-4866
▁ରଣ	-4867
Tube	-4868
ouse	-4869
ring	-4870
ଣିବା	-4871
ଣ୍ଣି	-4872
▁col	-4873
▁ଅନା	-4874
▁ଛବି	-4875
▁ନଭେ	-4876
▁ବାୟ	-4877
▁ରାଓ	-4878
error	-4879
▁View	-4880
▁days	-4881
▁size	-4882
▁ଅଙ୍କ	-4883
▁ଏଇଟା	-4884
▁ନାହଁ	-4885
▁ପଣରେ	-4886
▁ମୋଟେ	-4887
▁ସିନା	-4888
▁ସ୍ବା	-4889
▁ହରିଆ	-4890
କ୍ରିୟା	-4891
ଷ୍କର୍ମ	-4892
▁କ୍ଷମା	-4893
▁ଡ୍ରାଇ	-4894
▁ଦିନକୁ	-4895
unchpad	-4896
ପ୍ରାପ୍ତ	-4897
ଲୋରାଡ଼ୋ	-4898
▁ଧନୁତୀର	-4899
▁ବିଳମ୍ବ	-4900
▁ସ୍ୱାଗତ	-4901
▁ହିନ୍ଦୁ	-4902
▁Control	-4903
▁ଅଧ୍ୟକ୍ଷ	-4904
▁ଆକୃତିରେ	-4905
▁ଗୁଣଧର୍ମ	-4906
▁ପ୍ରତିଦିନ	-4907
▁ରାଜାଙ୍କୁ	-4908
▁କୋଲୋରାଡ଼ୋ	-4909
.’	-4910
25	-4911
RL	-4912
wo	-4913
ଏକ	-4914
ନଂ	-4915
ପଦ	-4916
ଶେ	-4917
ସଦ	-4918
▁»	-4919
ଙ୍ଘ	-4920
ଣାର	-4921
ରେଇ	-4922
▁Ph	-4923
▁ଘନ	-4924
ance	-4925
laze	-4926
ନ୍ଦନ	-4927
ପୁରୀ	-4928
ଶ୍ରେ	-4929
ହାରି	-4930
ହାରୀ	-4931
ାରୂପ	-4932
▁man	-4933
▁org	-4934
▁କନ୍	-4935
▁ଟିକ	-4936
▁ଭୋଟ	-4937
▁ରନ୍	-4938
▁ରୁହ	-4939
▁ସମୂ	-4940
▁ହୃଦ	-4941
ଦ୍ଧତି	-4942
▁SONG	-4943
▁କଳ୍ପ	-4944
▁ନେଲା	-4945
▁ନ୍ୟା	-4946
▁ଫ୍ଲୁ	-4947
▁ବୋର୍	-4948
▁ମିଳୁ	-4949
▁ରାହୁ	-4950
▁୨୦୧୬	-4951
କ୍ଷାରେ	-4952
ଳାନ୍ତୁ	-4953
▁ଅବଦାନ	-4954
▁ଏକାଡେ	-4955
▁ଘୁରାଅ	-4956
▁ନଥିଲେ	-4957
▁ପିଲାର	-4958
▁ଭିତ୍ତ	-4959
▁ରହିଲା	-4960
▁ରେକର୍	-4961
ମୋଦିଙ୍କ	-4962
ଲ୍ୟାଣ୍ଡ	-4963
▁ଉଇକିପି	-4964
▁କଥାକାର	-4965
▁ବ୍ୟକ୍ତ	-4966
▁ମଣ୍ଡଳୀ	-4967
▁ଚାଲନ୍ତୁ	-4968
▁ପାଣିପାଗ	-4969
▁ପ୍ରକାରର	-4970
▁ପ୍ରଶାସନ	-4971
▁ବଢୁଥିଲା	-4972
▁ସମ୍ପାଦକ	-4973
▁ଓଡ଼ିଶାରେ	-4974
escription	-4975
▁ବିଷୟବସ୍ତୁ	-4976
▁ପ୍ରତିକ୍ରିୟା	-4977
2.	-4978
36	-4979
?)	-4980
IT	-4981
ty	-4982
କଣ	-4983
▁©	-4984
iki	-4985
net	-4986
ଟ୍‍	-4987
ୋରି	-4988
▁ge	-4989
CIAL	-4990
ଣିକି	-4991
ିନ୍ଦ	-4992
୍ରାମ	-4993
▁cre	-4994
▁କଦା	-4995
▁ଚଲା	-4996
▁ବାତ	-4997
▁tool	-4998
▁କ୍ଷୟ	-4999
▁ଚୟିତ	-5000
▁ଡେରି	-5001
▁ତାତି	-5002
▁ବହୁଳ	-5003
▁ରୂପେ	-5004
▁ଶିଖି	-5005
ତୁମ୍ଭେ	-5006
▁ଆସିବା	-5007
▁ଉତ୍କଳ	-5008
▁ଉଦ୍ୟମ	-5009
▁ଚାଲିବ	-5010
▁ଶଶୁରେ	-5011
▁ସଞ୍ଜୟ	-5012
listbox	-5013
▁Google	-5014
▁SOCIAL	-5015
▁School	-5016
▁ଆମଦାନୀ	-5017
▁ଏକାଧିକ	-5018
▁ପଦ୍ଧତି	-5019
▁ମାନନୀୟ	-5020
▁ଶିଶୁକୁ	-5021
▁ସର୍ତ୍ତ	-5022
▁ସ୍ତନ୍ୟ	-5023
▁ସ୍ୱର୍ଗ	-5024
▁ଖାଇବାକୁ	-5025
▁ସେହିପରି	-5026
▁ପରିଚାଳନା	-5027
▁inlistbox	-5028
-1	-5029
1-	-5030
MA	-5031
uk	-5032
ଏନ	-5033
ଵି	-5034
ଧ୍ଯ	-5035
ସିନ	-5036
▁Be	-5037
▁।’	-5038
nder	-5039
ାଇନ୍	-5040
▁DVD	-5041
▁ଏକୁ	-5042
▁ପିତ	-5043
glish	-5044
ition	-5045
▁ଏକମତ	-5046
▁ଦ୍ରୁ	-5047
▁ପରିଶ	-5048
▁ରୂପା	-5049
morrow	-5050
▁କଥାଟି	-5051
▁ଛାଞ୍ଚ	-5052
▁ବୁଝାଇ	-5053
▁ବୟସ୍କ	-5054
ଜ୍ଞାନିକ	-5055
▁ଗୁଡ଼ିକର	-5056
▁ସଂଗୁପ୍ତ	-5057
▁ସମର୍ଥିତ	-5058
▁ସ୍ମାର୍ଟ	-5059
▁tomorrow	-5060
▁ଇଚ୍ଛାରୂପ	-5061
▁ତାହାଙ୍କର	-5062
▁ସାମ୍ବାଦିକ	-5063
▁ସେପ୍ଟେମ୍ବର	-5064
▁ନିର୍ଦ୍ଧାରିତ	-5065
ଆରୀ	-5066
ରୁଣ	-5067
େରା	-5068
▁Rs	-5069
କାଂଶ	-5070
ଦାର୍	-5071
ପୂର୍	-5072
ୀକାର	-5073
▁pla	-5074
▁ଆକା	-5075
▁ଜରୁ	-5076
▁ଜର୍	-5077
▁ଡ଼ା	-5078
▁ନେତ	-5079
▁ମେଘ	-5080
▁ଲଗା	-5081
ନିମ୍ନ	-5082
▁Remo	-5083
▁word	-5084
▁ବନାନ	-5085
▁.....	-5086
▁ଅଦ୍ୟତନ	-5087
▁ଅନୁସରଣ	-5088
▁ଏକକାଂଶ	-5089
▁ପୂର୍ବେ	-5090
▁ବ୍ୟୁରୋ	-5091
▁ସମୁଦ୍ର	-5092
▁ଉପଯୁକ୍ତ	-5093
▁କରିଥିଲି	-5094
▁ପ୍ରଶଂସା	-5095
▁ଯୋଗାଯୋଗ	-5096
▁ଲକ୍ଷ୍ମୀ	-5097
▁ସଂଯୁକ୍ତ	-5098
▁ସମ୍ବନ୍ଧ	-5099
▁ପୁସ୍ତିକା	-5100
▁ସଂସ୍କୃତି	-5101
▁ଆମେରିକାରେ	-5102
▁ସ୍କ୍ରିପ୍ଟ	-5103
▁ନିର୍ଦ୍ଦିଷ୍ଟ	-5104
5,	-5105
LC	-5106
ଥୀ	-5107
ସୂ	-5108
ari	-5109
ful	-5110
କୋର	-5111
ପର୍	-5112
▁1'	-5113
▁କଠ	-5114
▁ଘା	-5115
▁ହଇ	-5116
▁୍‍	-5117
ateg	-5118
fere	-5119
ture	-5120
ଞ୍ଜି	-5121
ଟାଲ୍	-5122
ଭବତୀ	-5123
ଷ୍ଠା	-5124
ସ୍ତେ	-5125
ାନ୍ଧ	-5126
▁all	-5127
▁ପଟି	-5128
▁ବଳି	-5129
▁ମେଳ	-5130
▁ଲଢ଼	-5131
▁ହସ୍	-5132
▁Text	-5133
▁them	-5134
▁type	-5135
▁ଦାଖଲ	-5136
▁ନାମକ	-5137
▁ବର୍ଗ	-5138
▁ସଠିକ	-5139
▁ସେବକ	-5140
ସ୍ତ୍ରୀ	-5141
▁Argus	-5142
▁error	-5143
▁prote	-5144
▁ଦୂରରେ	-5145
▁ଧର୍ମା	-5146
▁ପଡୁଛି	-5147
▁ପ୍ରତୀ	-5148
▁ବିଶ୍ଵ	-5149
▁ଯୋଗାଡ	-5150
▁ଶିକାର	-5151
▁ସଫଳତା	-5152
▁ହ୍ରାସ	-5153
▁ଉପାୟରେ	-5154
▁ଏକୁଟିଆ	-5155
▁କରିହେବ	-5156
▁ଗୋଲାପି	-5157
▁ଦିଆଯିବ	-5158
▁ରହିଥାଏ	-5159
▁ସ୍ୱପ୍ନ	-5160
ribution	-5161
▁YouTube	-5162
▁listbox	-5163
▁ଗର୍ଭବତୀ	-5164
▁ଭାଷାହିଁ	-5165
▁ପିଲାପିଲି	-5166
▁Insurance	-5167
▁ପ୍ରକ୍ରିୟା	-5168
▁ପ୍ରଯୁକ୍ତି	-5169
ox	-5170
▁=	-5171
way	-5172
yle	-5173
ଚାଳ	-5174
ଦ୍ଦ	-5175
ପାଠ	-5176
ଯାଅ	-5177
ଳିକ	-5178
ସ୍‍	-5179
▁1,	-5180
▁ଚୌ	-5181
▁ଫସ	-5182
ଏମଆଇ	-5183
ଳାଫଳ	-5184
ାମିଲ	-5185
▁Sep	-5186
▁ପହଁ	-5187
▁ମାଉ	-5188
ystem	-5189
ପ୍ପଣୀ	-5190
▁2009	-5191
▁call	-5192
▁week	-5193
▁ଅଭାବ	-5194
▁ଆଣ୍ଟ	-5195
▁ଗଣେଶ	-5196
▁ଜାନୁ	-5197
▁ଦରମା	-5198
▁ଦିଦି	-5199
▁ନାହି	-5200
▁ଫୋଲଡ	-5201
▁୧୯୮୨	-5202
ଛାତ୍ରୀ	-5203
▁Tokio	-5204
▁ଇଶ୍ରା	-5205
▁ଉଠିଲା	-5206
▁କଲ୍ୟା	-5207
▁ଫଳାଫଳ	-5208
▁ବିଭାଜ	-5209
▁ସଂଯୋଜ	-5210
▁ସେକ୍ସ	-5211
▁ସେୟାର	-5212
ication	-5213
▁ବାବଦରେ	-5214
▁ମଲ୍ଲିକ	-5215
▁ଲଗାଇବି	-5216
▁ସଙ୍କେତ	-5217
▁ସେମିତି	-5218
▁ସ୍କୁଲ୍	-5219
▁କରୁଥିଲା	-5220
▁ଘୁଞ୍ଚାଉ	-5221
▁ଚିହ୍ନିତ	-5222
▁ପଢିଥିଲି	-5223
▁କରାଯାଉଛି	-5224
▁କାର୍ଯ୍ୟର	-5225
▁ଜାଗାଟିକୁ	-5226
▁ପଗ୍ଭରିଲେ	-5227
▁ସମ୍ମୁଖୀନ	-5228
▁କରାଯାଇଥାଏ	-5229
▁ଡାକ୍ତରଙ୍କ	-5230
▁ବୈଜ୍ଞାନିକ	-5231
▁ପ୍ରତିଛବିକୁ	-5232
▁ପ୍ରାର୍ଥୀଙ୍କ	-5233
▁ବ୍ୟବହାରକାରୀ	-5234
NT	-5235
sa	-5236
ଷତ	-5237
୧୧	-5238
ana	-5239
ଟିନ	-5240
ବୀର	-5241
ରହି	-5242
ରାଓ	-5243
ଲ୍ଲ	-5244
ଳେଇ	-5245
▁।)	-5246
▁ସୈ	-5247
▁୯୦	-5248
ାର୍ଜ	-5249
▁URL	-5250
▁ଜୁନ	-5251
▁ଜେଲ	-5252
▁ତମର	-5253
▁ଦଇେ	-5254
▁ନାଗ	-5255
▁ବାଦ	-5256
▁ବୈଠ	-5257
▁ମେଡ	-5258
▁ସଂଘ	-5259
mains	-5260
ଚ୍ଛେଦ	-5261
ମାତ୍ର	-5262
▁None	-5263
▁been	-5264
▁ଚିତ୍	-5265
▁ଡାକୁ	-5266
▁ଦତ୍ତ	-5267
▁ଧୂସର	-5268
▁ନାରୀ	-5269
▁ପକାଇ	-5270
▁ଫର୍ମ	-5271
▁ଯବାନ	-5272
▁ରୁଜୁ	-5273
▁ହଉଛି	-5274
▁today	-5275
▁ଗାଁରେ	-5276
▁ଘଟିଛି	-5277
▁ବୃଦ୍ଧ	-5278
▁ସ୍ମରଣ	-5279
▁launch	-5280
▁ଦୁର୍ବଳ	-5281
▁ପଠାଇବା	-5282
▁ପ୍ରାଣୀ	-5283
▁tooltip	-5284
▁କରିହେଲା	-5285
▁ମହାଭାରତ	-5286
▁ଡ଼େସ୍କଟପ	-5287
▁ଦାବିଦାର୍	-5288
▁ପଚାରନ୍ତୁ	-5289
▁ରତ୍ନଭଣ୍ଡାର	-5290
▁ଅପରିବର୍ତ୍ତିତ	-5291
8-	-5292
du	-5293
ଉଳ	-5294
ଯି	-5295
୭୦	-5296
▁ି	-5297
▁େ	-5298
:11	-5299
Let	-5300
ati	-5301
ens	-5302
ial	-5303
lay	-5304
ook	-5305
urs	-5306
ଣିଆ	-5307
ଶାଇ	-5308
ଷିକ	-5309
ହୁଏ	-5310
ାପା	-5311
ିକୋ	-5312
▁ID	-5313
▁ୟହ	-5314
ଗ୍ରତ	-5315
ମାନ୍	-5316
ମାରୀ	-5317
ଳୟରେ	-5318
ିବାସ	-5319
▁11,	-5320
▁ଅବା	-5321
▁ଈଷତ	-5322
▁ଉପର	-5323
▁କଲ୍	-5324
▁ଚତୁ	-5325
▁ଟ୍ୱ	-5326
▁ଦାନ	-5327
▁ଦେୟ	-5328
▁ପଛର	-5329
ଭିନ୍ନ	-5330
▁With	-5331
▁ଛଅଟି	-5332
▁ଜେନା	-5333
▁ଦେବୀ	-5334
▁ଫାର୍	-5335
▁ୟେବେ	-5336
ଧିକାରୀ	-5337
▁ଏଯାଏଁ	-5338
▁କୃମିର	-5339
▁ଠାକୁର	-5340
▁ଦେଉଛି	-5341
▁ଧକ୍କା	-5342
▁ଧୁଳିଆ	-5343
▁ପ୍ରଣା	-5344
▁ବାଧ୍ୟ	-5345
▁ଭୁବନେ	-5346
ବନେଶ୍ୱର	-5347
▁କରିଦିଆ	-5348
▁ଘୁଞ୍ଚା	-5349
▁ନାରାୟଣ	-5350
▁ଫେବ୍ରୁ	-5351
▁ଫେରିଲୁ	-5352
▁ବ୍ୟସ୍ତ	-5353
▁ମାରିବା	-5354
▁ପାଉଲଙ୍କ	-5355
▁ବୈଧିକରଣ	-5356
▁ବ୍ଯବହାର	-5357
▁Reporter	-5358
▁ଅପରାଜିତା	-5359
▁ସଂପର୍କରେ	-5360
▁ମନ୍ତ୍ରୀଙ୍କ	-5361
▁ଅନ୍ତର୍ଭୁକ୍ତ	-5362
▁ପର୍ଯ୍ୟନ୍ତଲମ୍ବ	-5363
,"	-5364
.,	-5365
ଂଜ	-5366
ଗଡ	-5367
ଲସ	-5368
enu	-5369
sed	-5370
ନ୍ଯ	-5371
ଭୁତ	-5372
ଭୂତ	-5373
ଲୀୟ	-5374
ଶୁଣ	-5375
▁Ch	-5376
▁UA	-5377
▁ଇଫ	-5378
▁ହବ	-5379
cess	-5380
ଟାକ୍	-5381
ବାଣୀ	-5382
ବାଲା	-5383
ବ୍ରେ	-5384
ସ୍ଥଳ	-5385
▁bug	-5386
▁ଏସମ	-5387
▁କ୍ୱ	-5388
▁ଖସି	-5389
▁ପୋଛ	-5390
▁ଭୋଗ	-5391
▁ସାଂ	-5392
କ୍ଷତି	-5393
ନ୍ତଳା	-5394
ବିଧାନ	-5395
ବେେଳେ	-5396
ର୍ୟ୍ଯ	-5397
ଶକ୍ତି	-5398
ଶ୍ୱାସ	-5399
▁Aust	-5400
▁what	-5401
▁ଅଫିସ	-5402
▁କ୍ୟୁ	-5403
▁ବାଛି	-5404
▁ମାଇଁ	-5405
▁୨୦୧୫	-5406
ପାରିଲେ	-5407
▁ଅପରାଧ	-5408
▁କଳାରେ	-5409
▁ଛିନ୍ନ	-5410
▁ପ୍ରାଣ	-5411
▁ବାଟରେ	-5412
▁ସତର୍କ	-5413
▁Remote	-5414
▁ଆଗେଇଲା	-5415
▁କ୍ରିୟା	-5416
▁ଜୀବନକୁ	-5417
▁ଥାନାରେ	-5418
▁ନାମକରଣ	-5419
▁ବିଶ୍ଳେ	-5420
▁ଚାଷୀଙ୍କ	-5421
▁ଟିପ୍ପଣୀ	-5422
▁ଦିଲ୍ଲୀପ	-5423
▁ପ୍ରକାଶନ	-5424
▁ଲାଇବ୍ରେ	-5425
▁ସ୍ତ୍ରୀର	-5426
▁launched	-5427
▁ସଂରକ୍ଷିତ	-5428
▁programme	-5429
▁ଭୂବନେଶ୍ୱର	-5430
,,	-5431
HA	-5432
UT	-5433
oo	-5434
ଆମ	-5435
କମ	-5436
ଥୁ	-5437
ଲମ	-5438
ଶୟ	-5439
୬୪	-5440
vel	-5441
କିଏ	-5442
ବରୁ	-5443
ଲଟି	-5444
▁ଏହ	-5445
▁ଡଃ	-5446
▁୫୩	-5447
cial	-5448
ଥମିକ	-5449
ନ୍ଦୋ	-5450
ମିକା	-5451
ଶାଇୟ	-5452
ଷ୍ଣୁ	-5453
ୁଅଛି	-5454
▁And	-5455
▁Feb	-5456
▁ଆପା	-5457
▁ଛୁଆ	-5458
▁ଦବା	-5459
▁ପଡୁ	-5460
▁ସାଜ	-5461
▁ସୁଦ	-5462
▁ସୁଧ	-5463
▁ହିତ	-5464
ପ୍ରତି	-5465
ଭାବରେ	-5466
ାପାଖି	-5467
▁Temp	-5468
▁ଈର୍ଷ	-5469
▁ଓସାର	-5470
▁କୌଶଳ	-5471
▁ଗଳ୍ପ	-5472
▁ଗ୍ରେ	-5473
▁ଦାୟୀ	-5474
▁ପେରୁ	-5475
▁ଭ୍ରମ	-5476
▁ମେନୁ	-5477
▁ଲିଟର	-5478
▁ଶ୍ରମ	-5479
▁୧୯୫୭	-5480
▁୨୦୧୮	-5481
orious	-5482
ଥିବାରୁ	-5483
ାନୁମାନ	-5484
▁ଅଫିସର	-5485
▁ଜନ୍ମେ	-5486
▁ଡାହାଣ	-5487
▁ପଡିଲେ	-5488
▁ମଧ୍ୟେ	-5489
▁ମିଡିଆ	-5490
▁ଅଟନ୍ତି	-5491
▁କଲ୍ୟାଣ	-5492
▁ଖୋଲିକି	-5493
▁ଧାରାରେ	-5494
▁ବିକ୍ରି	-5495
▁ସହଯୋଗୀ	-5496
▁Company	-5497
▁ଅଧିକାଂଶ	-5498
▁ଅଧିବେଶନ	-5499
▁ନଭେମ୍ବର	-5500
▁ପାର୍ଶ୍ୱ	-5501
▁ଅଂଶଗ୍ରହଣ	-5502
▁ପାଖାପାଖି	-5503
▁ଧର୍ମାଧର୍ମ	-5504
▁ମହିଳାମାନେ	-5505
▁ପୂର୍ବାନୁମାନ	-5506
▁ଆଲୋଚନାଦ୍ୱାରା	-5507
-4	-5508
CC	-5509
ED	-5510
be	-5511
gh	-5512
ଖନ	-5513
ଧୂ	-5514
୍ବ	-5515
୪୭	-5516
┈┈	-5517
WEB	-5518
ant	-5519
key	-5520
mer	-5521
ron	-5522
ଫିକ	-5523
ାନକ	-5524
୨୦୦	-5525
▁Su	-5526
▁ସଜ	-5527
▁୨୯	-5528
ଞ୍ଜୁ	-5529
ବରାଜ	-5530
ମାରେ	-5531
ଳିବା	-5532
ସିଟି	-5533
▁Pol	-5534
▁ଅଶୁ	-5535
▁ଜ୍ୟ	-5536
▁ନୀଳ	-5537
▁	-5538
ା	-5539
ି	-5540
୍	-5541
ର	-5542
କ	-5543
େ	-5544
ତ	-5545
ନ	-5546
ବ	-5547
ୁ	-5548
ହ	-5549
ସ	-5550
ମ	-5551
ପ	-5552
ଲ	-5553
ଦ	-5554
e	-5555
ଏ	-5556
ୟ	-5557
.	-5558
t	-5559
ଣ	-5560
ୋ	-5561
i	-5562
ଇ	-5563
ଆ	-5564
ଟ	-5565
o	-5566
ଛ	-5567
ଗ	-5568
a	-5569
।	-5570
ଥ	-5571
ଁ	-5572
ଯ	-5573
s	-5574
ଙ	-5575
ୀ	-5576
ଶ	-5577
ଜ	-5578
m	-5579
n	-5580
ଚ	-5581
‹	-5582
ଡ	-5583
ଅ	-5584
,	-5585
ଭ	-5586
1	-5587
ଷ	-5588
ଳ	-5589
r	-5590
ଧ	-5591
u	-5592
?	-5593
ଉ	-5594
!	-5595
l	-5596
c	-5597
ଖ	-5598
h	-5599
y	-5600
-	-5601
w	-5602
d	-5603
ଂ	-5604
S	-5605
ୂ	-5606
♪	-5607
:	-5608
ଠ	-5609
ଫ	-5610
଼	-5611
I	-5612
C	-5613
)	-5614
(	-5615
g	-5616
ୱ	-5617
ଓ	-5618
ଘ	-5619
f	-5620
୧	-5621
0	-5622
ୃ	-5623
p	-5624
N	-5625
’	-5626
ଞ	-5627
୦	-5628
G	-5629
2	-5630
"	-5631
4	-5632
k	-5633
B	-5634
A	-5635
“	-5636
”	-5637
b	-5638
ଢ	-5639
9	-5640
3	-5641
v	-5642
T	-5643
ଃ	-5644
୨	-5645
_	-5646
'	-5647
@	-5648
5	-5649
7	-5650
E	-5651
6	-5652
D	-5653
%	-5654
R	-5655
୯	-5656
୫	-5657
O	-5658
/	-5659
M	-5660
୩	-5661
P	-5662
8	-5663
ẹ	-5664
L	-5665
୮	-5666
ୌ	-5667
W	-5668
୪	-5669
ଵ	-5670
‘	-5671
F	-5672
]	-5673
K	-5674
;	-5675
[	-5676
୬	-5677
ଈ	-5678
H	-5679
୭	-5680
ୈ	-5681
x	-5682
–	-5683
ଝ	-5684
Z	-5685
X	-5686
U	-5687
J	-5688
V	-5689
\	-5690
û	-5691
ò	-5692
॰	-5693
&	-5694
Y	-5695
‍	-5696
÷	-5697
ଋ	-5698
୤	-5699
=	-5700
Q	-5701
`	-5702
—	-5703
j	-5704
þ	-5705
á	-5706
🙏	-5707
ù	-5708
ú	-5709
#	-5710
{	-5711
↑	-5712
}	-5713
z	-5714
q	-5715
œ	-5716
ሳ	-5717
+	-5718
*	-5719
ଔ	-5720
←	-5721
┈	-5722
ā	-5723
~	-5724
║	-5725
»	-5726
•	-5727
ଐ	-5728
₹	-5729
©	-5730
᭫	-5731
ō	-5732
·	-5733
ē	-5734
$	-5735
♡	-5736
ਾ	-5737
ຨ	-5738
ଊ	-5739
ī	-5740
