<unk>	0
<s>	0
</s>	0
<0x00>	0
<0x01>	0
<0x02>	0
<0x03>	0
<0x04>	0
<0x05>	0
<0x06>	0
<0x07>	0
<0x08>	0
<0x09>	0
<0x0A>	0
<0x0B>	0
<0x0C>	0
<0x0D>	0
<0x0E>	0
<0x0F>	0
<0x10>	0
<0x11>	0
<0x12>	0
<0x13>	0
<0x14>	0
<0x15>	0
<0x16>	0
<0x17>	0
<0x18>	0
<0x19>	0
<0x1A>	0
<0x1B>	0
<0x1C>	0
<0x1D>	0
<0x1E>	0
<0x1F>	0
<0x20>	0
<0x21>	0
<0x22>	0
<0x23>	0
<0x24>	0
<0x25>	0
<0x26>	0
<0x27>	0
<0x28>	0
<0x29>	0
<0x2A>	0
<0x2B>	0
<0x2C>	0
<0x2D>	0
<0x2E>	0
<0x2F>	0
<0x30>	0
<0x31>	0
<0x32>	0
<0x33>	0
<0x34>	0
<0x35>	0
<0x36>	0
<0x37>	0
<0x38>	0
<0x39>	0
<0x3A>	0
<0x3B>	0
<0x3C>	0
<0x3D>	0
<0x3E>	0
<0x3F>	0
<0x40>	0
<0x41>	0
<0x42>	0
<0x43>	0
<0x44>	0
<0x45>	0
<0x46>	0
<0x47>	0
<0x48>	0
<0x49>	0
<0x4A>	0
<0x4B>	0
<0x4C>	0
<0x4D>	0
<0x4E>	0
<0x4F>	0
<0x50>	0
<0x51>	0
<0x52>	0
<0x53>	0
<0x54>	0
<0x55>	0
<0x56>	0
<0x57>	0
<0x58>	0
<0x59>	0
<0x5A>	0
<0x5B>	0
<0x5C>	0
<0x5D>	0
<0x5E>	0
<0x5F>	0
<0x60>	0
<0x61>	0
<0x62>	0
<0x63>	0
<0x64>	0
<0x65>	0
<0x66>	0
<0x67>	0
<0x68>	0
<0x69>	0
<0x6A>	0
<0x6B>	0
<0x6C>	0
<0x6D>	0
<0x6E>	0
<0x6F>	0
<0x70>	0
<0x71>	0
<0x72>	0
<0x73>	0
<0x74>	0
<0x75>	0
<0x76>	0
<0x77>	0
<0x78>	0
<0x79>	0
<0x7A>	0
<0x7B>	0
<0x7C>	0
<0x7D>	0
<0x7E>	0
<0x7F>	0
<0x80>	0
<0x81>	0
<0x82>	0
<0x83>	0
<0x84>	0
<0x85>	0
<0x86>	0
<0x87>	0
<0x88>	0
<0x89>	0
<0x8A>	0
<0x8B>	0
<0x8C>	0
<0x8D>	0
<0x8E>	0
<0x8F>	0
<0x90>	0
<0x91>	0
<0x92>	0
<0x93>	0
<0x94>	0
<0x95>	0
<0x96>	0
<0x97>	0
<0x98>	0
<0x99>	0
<0x9A>	0
<0x9B>	0
<0x9C>	0
<0x9D>	0
<0x9E>	0
<0x9F>	0
<0xA0>	0
<0xA1>	0
<0xA2>	0
<0xA3>	0
<0xA4>	0
<0xA5>	0
<0xA6>	0
<0xA7>	0
<0xA8>	0
<0xA9>	0
<0xAA>	0
<0xAB>	0
<0xAC>	0
<0xAD>	0
<0xAE>	0
<0xAF>	0
<0xB0>	0
<0xB1>	0
<0xB2>	0
<0xB3>	0
<0xB4>	0
<0xB5>	0
<0xB6>	0
<0xB7>	0
<0xB8>	0
<0xB9>	0
<0xBA>	0
<0xBB>	0
<0xBC>	0
<0xBD>	0
<0xBE>	0
<0xBF>	0
<0xC0>	0
<0xC1>	0
<0xC2>	0
<0xC3>	0
<0xC4>	0
<0xC5>	0
<0xC6>	0
<0xC7>	0
<0xC8>	0
<0xC9>	0
<0xCA>	0
<0xCB>	0
<0xCC>	0
<0xCD>	0
<0xCE>	0
<0xCF>	0
<0xD0>	0
<0xD1>	0
<0xD2>	0
<0xD3>	0
<0xD4>	0
<0xD5>	0
<0xD6>	0
<0xD7>	0
<0xD8>	0
<0xD9>	0
<0xDA>	0
<0xDB>	0
<0xDC>	0
<0xDD>	0
<0xDE>	0
<0xDF>	0
<0xE0>	0
<0xE1>	0
<0xE2>	0
<0xE3>	0
<0xE4>	0
<0xE5>	0
<0xE6>	0
<0xE7>	0
<0xE8>	0
<0xE9>	0
<0xEA>	0
<0xEB>	0
<0xEC>	0
<0xED>	0
<0xEE>	0
<0xEF>	0
<0xF0>	0
<0xF1>	0
<0xF2>	0
<0xF3>	0
<0xF4>	0
<0xF5>	0
<0xF6>	0
<0xF7>	0
<0xF8>	0
<0xF9>	0
<0xFA>	0
<0xFB>	0
<0xFC>	0
<0xFD>	0
<0xFE>	0
<0xFF>	0
ို	-0
င်	-1
ော	-2
ား	-3
က်	-4
န်	-5
ည်	-6
▁အ	-7
င်း	-8
ကို	-9
စ်	-10
ို့	-11
တ်	-12
မှ	-13
ပြ	-14
ယ်	-15
မျ	-16
ဲ့	-17
ကြ	-18
ပ်	-19
ေး	-20
▁သ	-21
တွ	-22
ပါ	-23
ုံ	-24
နှ	-25
ရှ	-26
▁က	-27
များ	-28
သည်	-29
ီး	-30
င့်	-31
ော်	-32
▁မ	-33
မ်	-34
ဖြ	-35
ချ	-36
့်	-37
▁လ	-38
ောက်	-39
▁ကို	-40
တို့	-41
န်း	-42
ိုင်	-43
ုပ်	-44
▁တ	-45
သော	-46
ိုး	-47
▁စ	-48
er	-49
ခြ	-50
in	-51
ုံး	-52
ောင်း	-53
နေ	-54
▁ပ	-55
ည်း	-56
မှု	-57
မ်း	-58
ေါ	-59
ောင်	-60
on	-61
▁ထ	-62
ဖြစ်	-63
တွေ	-64
ုတ်	-65
တယ်	-66
င့်	-67
▁ဒ	-68
▁ရ	-69
ွန်	-70
▁2	-71
an	-72
တာ	-73
တော်	-74
ရှိ	-75
ကျ	-76
နှင့်	-77
▁C	-78
မှာ	-79
ရာ	-80
▁1	-81
ar	-82
▁(	-83
မြ	-84
▁S	-85
▁န	-86
at	-87
▁ကျ	-88
ိုက်	-89
တဲ့	-90
ခြင်း	-91
သူ	-92
ိုင်း	-93
st	-94
or	-95
▁P	-96
ူး	-97
en	-98
ခု	-99
▁ဆ	-100
▁M	-101
ပေါ	-102
▁A	-103
al	-104
နိုင်	-105
▁ပြ	-106
ိတ်	-107
ခဲ့	-108
ရေး	-109
လုပ်	-110
00	-111
▁ဘ	-112
▁&	-113
တွက်	-114
ော့	-115
▁-	-116
တစ်	-117
စား	-118
တယ်။	-119
es	-120
ဆို	-121
▁သူ	-122
▁T	-123
တွင်	-124
01	-125
ပြီး	-126
▁င	-127
သွ	-128
▁B	-129
ခံ	-130
ဟာ	-131
ဉ်	-132
it	-133
လျ	-134
၏။	-135
လာ	-136
မည်	-137
သို့	-138
ုရ	-139
ိမ်	-140
အား	-141
gt	-142
ic	-143
▁D	-144
သည်။	-145
ချက်	-146
ac	-147
အတွက်	-148
le	-149
လို	-150
မျိုး	-151
ur	-152
▁H	-153
om	-154
am	-155
▁F	-156
ုန်	-157
▁/	-158
ing	-159
▁ယ	-160
မူ	-161
ွဲ	-162
▁ဖ	-163
ဦး	-164
ပေး	-165
သား	-166
▁ငါ	-167
▁L	-168
▁ကျွန်	-169
င္	-170
ထား	-171
▁ဒါ	-172
ိန်	-173
နှစ်	-174
ပြု	-175
ed	-176
▁ဒီ	-177
ရဲ့	-178
▁သင်	-179
▁R	-180
▁201	-181
ion	-182
စ္	-183
ro	-184
▁ကြ	-185
▁ခ	-186
တူ	-187
ဆုံး	-188
ကား	-189
▁d	-190
နှင့်	-191
et	-192
ွေ	-193
ိပ်	-194
စာ	-195
▁G	-196
ပါ။	-197
▁t	-198
နဲ့	-199
▁E	-200
တော့	-201
ol	-202
က္	-203
▁s	-204
▁c	-205
ွှ	-206
ုရား	-207
▁မြ	-208
စေ	-209
ဘာ	-210
ကြောင်း	-211
ကြီး	-212
လုံး	-213
န္	-214
ရန်	-215
il	-216
ုန်း	-217
ပေါ်	-218
▁3	-219
ွာ	-220
ဟုတ်	-221
အသ	-222
▁တစ်	-223
▁မှ	-224
el	-225
ဖို့	-226
▁p	-227
လက်	-228
ဒီ	-229
ပါတယ်။	-230
="	-231
ယာ	-232
တို့သည်	-233
ည့်	-234
▁လူ	-235
re	-236
ဝင်	-237
▁I	-238
ကာ	-239
ွယ်	-240
ဆောင်	-241
တို့ကို	-242
▁ထို	-243
လည်း	-244
▁အသ	-245
as	-246
စည်း	-247
နာ	-248
ွက်	-249
▁,	-250
ad	-251
▁W	-252
သာ	-253
ေ့	-254
..	-255
အခ	-256
တ္	-257
▁N	-258
တော်မူ	-259
is	-260
ပုံ	-261
မ္	-262
▁ရှ	-263
ညာ	-264
တင်	-265
ွေး	-266
ရိ	-267
he	-268
လှ	-269
လျှ	-270
ရေ	-271
ဟု	-272
မဟုတ်	-273
un	-274
နည်း	-275
မိ	-276
▁ဖြစ်	-277
ပျ	-278
ot	-279
ချိန်	-280
မာ	-281
စီ	-282
စဉ်	-283
ag	-284
ေါ်	-285
▁5	-286
မှတ်	-287
ent	-288
ယူ	-289
စက်	-290
ထုတ်	-291
▁ဂ	-292
ောင့်	-293
ံ့	-294
မျှ	-295
id	-296
အတူ	-297
သွား	-298
စု	-299
အရ	-300
▁"	-301
lt	-302
...	-303
ထဲ	-304
ခင်	-305
ut	-306
▁h	-307
မဲ့	-308
လေ	-309
art	-310
လဲ	-311
amp	-312
ကောင်း	-313
တစ်ခု	-314
ဖြင့်	-315
ct	-316
ဘုရား	-317
ဖွ	-318
ကုန်	-319
လေး	-320
▁m	-321
လိုက်	-322
များကို	-323
▁f	-324
▁ဝ	-325
တွေကို	-326
▁နှင့်	-327
▁နေ	-328
▁4	-329
ပါတယ်	-330
ရှင်	-331
သိ	-332
ခြား	-333
ack	-334
▁st	-335
ာဝ	-336
ည့်	-337
ငံ	-338
ရင်	-339
▁O	-340
▁လုပ်	-341
များအတွက်	-342
op	-343
▁_	-344
▁ဗ	-345
ig	-346
▁သို့	-347
တိ	-348
ွား	-349
လူ	-350
မယ်	-351
▁V	-352
မျက်	-353
ပိုင်း	-354
ပေါင်း	-355
▁b	-356
▁အား	-357
ယ္	-358
ဘူး	-359
သင်	-360
and	-361
ow	-362
လို့	-363
ch	-364
၎င်း	-365
▁လက်	-366
ိန်း	-367
ပြင်	-368
အမျိုး	-369
န့်	-370
ရုံ	-371
▁။	-372
ဆိုင်	-373
▁ကိုယ်	-374
ာဝရ	-375
ဘယ်	-376
နစ်	-377
မည်။	-378
us	-379
ငျ	-380
ရီ	-381
▁K	-382
စိတ်	-383
ဆက်	-384
com	-385
▁ကျွန်မ	-386
ဒ်	-387
ွမ်း	-388
ိမ့်	-389
ay	-390
▁၁	-391
ပြီ	-392
oo	-393
▁စက်	-394
စွာ	-395
ter	-396
ir	-397
ပဲ	-398
အစား	-399
ရှင်း	-400
▁သူတို့	-401
▁အဲ	-402
ပေ	-403
▁ချ	-404
▁တရ	-405
▁U	-406
ခြေ	-407
▁နောက်	-408
စ္စည်း	-409
▁w	-410
လ်	-411
▁ကျွန်တော်	-412
ဂျ	-413
ပို	-414
၍၊	-415
နေ့	-416
▁အရ	-417
▁၏	-418
ပညာ	-419
▁J	-420
lo	-421
တွေ့	-422
စစ်	-423
န့်	-424
ဝါ	-425
ဆိုပါ	-426
င္း	-427
အလ	-428
ခွ	-429
ညီ	-430
ာဝရဘုရား	-431
တိုင်း	-432
ap	-433
ve	-434
▁start	-435
▁ထုတ်	-436
ပြည်	-437
မြို့	-438
နှုန်း	-439
ပြန်	-440
နောက်	-441
ess	-442
"&	-443
▁ရှိ	-444
မီ	-445
ri	-446
▁dur	-447
▁စာ	-448
▁6	-449
လျှင်	-450
ကျွန်	-451
▁၂	-452
ation	-453
▁0	-454
္ဂ	-455
ပွဲ	-456
▁ဇ	-457
ကြား	-458
ပြော	-459
တည်း	-460
▁နှစ်	-461
▁မိ	-462
လိမ့်	-463
အထ	-464
ဒါ	-465
ဘို့	-466
ုံးပြု	-467
ရောက်	-468
▁...	-469
လည်	-470
မား	-471
မြင်	-472
of	-473
အခါ	-474
ရီး	-475
သုံး	-476
ပတ်	-477
ဖွဲ့	-478
တွင်း	-479
သက်	-480
လမ်း	-481
em	-482
ပါး	-483
ိမ်း	-484
တရ	-485
▁များ	-486
▁ထာဝရဘုရား	-487
tt	-488
နှာ	-489
▁in	-490
တင်း	-491
ab	-492
im	-493
ဖြင့်	-494
လွှ	-495
▁အာ	-496
သောသူ	-497
စီး	-498
အောင်	-499
ောင့်	-500
သံ	-501
ပ္	-502
▁ဟ	-503
ul	-504
▁ဘုရား	-505
▁အထ	-506
▁ရေ	-507
ကန်	-508
ေါင်း	-509
od	-510
ပစ္စည်း	-511
အပ်	-512
ရော	-513
▁ဤ	-514
တန်း	-515
20	-516
os	-517
▁အဆိုပါ	-518
▁ေ	-519
တု	-520
ver	-521
လီ	-522
▁8	-523
▁7	-524
ang	-525
ချင်း	-526
သွင်း	-527
လျက်	-528
မျက်နှာ	-529
ငှ	-530
▁အမ	-531
um	-532
နိုင်ငံ	-533
▁10	-534
လား	-535
ကြ၏။	-536
ငွေ	-537
မီး	-538
▁ဆို	-539
▁[	-540
▁သည်	-541
ရပ်	-542
တည်	-543
ကြောင့်	-544
သခင်	-545
-1	-546
▁+	-547
လိ	-548
စရာ	-549
အရာ	-550
ေတာ	-551
ate	-552
စုံ	-553
▁ပြန်	-554
နှင့်အတူ	-555
အိမ်	-556
▁ပုံ	-557
▁တရုတ်	-558
မှန်	-559
ပင်	-560
▁တွင်	-561
နား	-562
▁စိတ်	-563
ရင်း	-564
▁ခု	-565
??	-566
အဖြစ်	-567
ဆင်	-568
ည္	-569
တို	-570
▁Ch	-571
တြ	-572
နက်	-573
▁နှင့်	-574
ဆေး	-575
▁ဘာ	-576
စံ	-577
ငန်း	-578
ex	-579
▁အမျိုး	-580
ကု	-581
▁လျ	-582
▁အလ	-583
▁In	-584
စကား	-585
ဏ်	-586
ကယ်	-587
သတ်	-588
▁ပို	-589
ip	-590
▁သိ	-591
တစ်ဦး	-592
ငါ	-593
ment	-594
▁မှာ	-595
▁အခ	-596
နယ်	-597
ချုပ်	-598
ဘက်	-599
အကြောင်း	-600
▁လေ	-601
ရောင်	-602
ာတ်	-603
ယောက်	-604
ျေး	-605
သေ	-606
ရှား	-607
ျပ	-608
▁St	-609
igh	-610
လော့	-611
ou	-612
▁အကြောင်း	-613
ttp	-614
ကူ	-615
50	-616
မှုကို	-617
eb	-618
▁အဘယ်	-619
ပိုင်	-620
ck	-621
▁အတွက်	-622
တက်	-623
//	-624
တတ်	-625
▁Co	-626
အပေါ်	-627
▁ပေး	-628
://	-629
ပြား	-630
ard	-631
one	-632
တို့၏	-633
ဆီ	-634
ွန်း	-635
အာ	-636
▁9	-637
တာက	-638
▁ငါ့	-639
▁–	-640
000	-641
ခံရ	-642
တိုက်	-643
သည့်	-644
ဲ့သို့	-645
.0	-646
တိုင်	-647
ထုတ်လုပ်	-648
▁r	-649
ခဲ့သည်။	-650
up	-651
all	-652
ထောင်	-653
ပါသည်	-654
.1	-655
ဆာ	-656
အကြ	-657
▁http	-658
▁$	-659
ငယ်	-660
▁ပါ	-661
ပေမဲ့	-662
ဆိုင်ရာ	-663
ရည်	-664
ကိုယ်	-665
မ္ဘာ	-666
အင်	-667
ွတ်	-668
ရှု	-669
လိုင်း	-670
▁မူ	-671
တီ	-672
▁ဘယ်	-673
▁နိုင်	-674
ra	-675
ဖန်	-676
သော်	-677
ိန့်	-678
နီ	-679
-2	-680
ေရိ	-681
▁the	-682
ပူ	-683
ငှါ	-684
mm	-685
▁Y	-686
တီး	-687
ကား၊	-688
ဘော	-689
အသုံးပြု	-690
ကျွန်ုပ်	-691
▁An	-692
တရား	-693
တမ်း	-694
အဘို့	-695
ine	-696
ယ့်	-697
ie	-698
ob	-699
▁နှ	-700
▁၂၀	-701
ကဲ့သို့	-702
ညျ	-703
▁တစ်ခု	-704
▁ကောင်း	-705
အဆ	-706
▁20	-707
သပ်	-708
ပြောင်း	-709
ယား	-710
▁g	-711
ညွှ	-712
▁ဖြ	-713
if	-714
ကျင်	-715
အဝ	-716
▁ဆက်	-717
ရက်	-718
ဝန်	-719
မရှိ	-720
ပွား	-721
th	-722
▁အဲဒီ	-723
သူများ	-724
ရိယာ	-725
▁ကျွန်တော်တို့	-726
တယ္	-727
နေရာ	-728
▁နည်း	-729
▁နဲ့	-730
ect	-731
သွယ်	-732
▁ဥ	-733
ကနေ	-734
▁ပြော	-735
ထက်	-736
▁အောက်	-737
ပါသည်။	-738
စပ်	-739
▁ဧ	-740
စွမ်း	-741
ခါ	-742
သစ်	-743
10	-744
▁19	-745
.5	-746
ဂါ	-747
ဖက်	-748
ခန်း	-749
ce	-750
▁12	-751
ေသ	-752
ia	-753
.2	-754
▁လျှ	-755
▁2019	-756
ဗျ	-757
▁သို့မဟုတ်	-758
ub	-759
ချင်	-760
စင်	-761
တံ	-762
ယို	-763
ပေါ့	-764
▁to	-765
▁သင့်	-766
ast	-767
▁and	-768
မ့်	-769
အားဖြင့်	-770
▁အင်	-771
iz	-772
ကစား	-773
▁n	-774
တော်မူ၏။	-775
ယာဉ်	-776
▁ဘုရားသခင်	-777
သို့မဟုတ်	-778
ers	-779
▁လှ	-780
ost	-781
▁ရဲ့	-782
ဖော်	-783
▁ကာ	-784
လိမ့်မည်။	-785
qu	-786
ေရိကန်	-787
ကိ	-788
ကောက်	-789
▁of	-790
▁ဦး	-791
▁2018	-792
ပြီ။	-793
ခြင်းငှါ	-794
est	-795
▁v	-796
▁မော်	-797
ကွယ်	-798
▁l	-799
ဘဲ	-800
အုပ်	-801
၎င်း၊	-802
ကွ	-803
▁အကျွန်ုပ်	-804
ကူး	-805
="1	-806
က္ခ	-807
▁Pro	-808
ထဲမှာ	-809
အဖွဲ့	-810
▁အဆ	-811
အမြ	-812
ဇူး	-813
ေရ	-814
▁မိမိ	-815
ator	-816
အချိန်	-817
▁ည	-818
အတွင်း	-819
▁သုံး	-820
လုပ်ငန်း	-821
pl	-822
▁ပြု	-823
▁ပျ	-824
ေးဇူး	-825
ဏီ	-826
အကျ	-827
▁ဓ	-828
ရိုက်	-829
တောင်	-830
တိုး	-831
▁ခုနှစ်	-832
ord	-833
.9	-834
မတ်	-835
ရဲ	-836
▁အလုပ်	-837
▁သူ့	-838
တွေက	-839
မံ	-840
▁a	-841
ဉ်း	-842
ite	-843
▁လမ်း	-844
နော်	-845
ထမ	-846
တော်ကို	-847
▁နာ	-848
များနှင့်	-849
သညျ	-850
ရွ	-851
ခွဲ	-852
တာကို	-853
ind	-854
အများ	-855
ran	-856
မို	-857
▁ဒါက	-858
▁တစ်ဦး	-859
ဖြတ်	-860
td	-861
ဘူး။	-862
နံ	-863
▁ကုန်	-864
ပိုး	-865
အောက်	-866
ress	-867
တယ်၊	-868
are	-869
မင်း	-870
my	-871
လော့။	-872
ကြောင့်	-873
ခ်	-874
ဒီယို	-875
ight	-876
ရို	-877
ရှေ့	-878
မြှ	-879
မေး	-880
ကြာ	-881
▁X	-882
own	-883
▁Re	-884
ass	-885
လောက်	-886
လျှင်၊	-887
▁Ltd	-888
▁Sh	-889
ak	-890
သွေး	-891
ရစ်	-892
co	-893
ရှာ	-894
ဘာလ	-895
act	-896
▁ပြီး	-897
အပိုင်း	-898
မ္ပ	-899
စနစ်	-900
ချက်များ	-901
30	-902
ust	-903
ထွက်	-904
အနေ	-905
▁ဣ	-906
တွေဟာ	-907
ရွက်	-908
ကွက်	-909
မ္ပဏီ	-910
▁စီး	-911
နို	-912
▁ဒါပေမဲ့	-913
ill	-914
▁သင်တို့	-915
ဖျ	-916
ဓိ	-917
▁ထုတ်ကုန်	-918
ကောင်	-919
▁သော	-920
▁မှတ်	-921
တန်	-922
ဆောင်မှု	-923
▁Z	-924
ong	-925
▁•	-926
ity	-927
▁အိမ်	-928
ရိုး	-929
▁200	-930
ခေါ်	-931
▁အခြား	-932
▁သံ	-933
80	-934
▁ဒါဟာ	-935
အစ	-936
ဂျင်	-937
လင်	-938
▁မီး	-939
ome	-940
▁လို	-941
ကြည့်	-942
စျေး	-943
▁ကမ္ဘာ	-944
လည်း၊	-945
ဆိပ်	-946
မွာ	-947
အားလုံး	-948
▁အစ	-949
▁နိုင်ငံ	-950
▁စစ်	-951
ခြင်းကို	-952
ငြ	-953
ကောင်းဆုံး	-954
pt	-955
▁ပြည်	-956
ချို့	-957
ပို့	-958
ist	-959
load	-960
▁ကု	-961
န္း	-962
▁အသက်	-963
▁ရက်	-964
ခွင့်	-965
ထဲက	-966
-0	-967
▁My	-968
▁သေ	-969
ကင်	-970
▁မြို့	-971
၏အ	-972
▁အမေရိကန်	-973
ain	-974
ဖတ်	-975
="2	-976
mar	-977
သင့်	-978
▁Pl	-979
ေတြ	-980
လင်း	-981
နိ	-982
▁အပြ	-983
our	-984
ငျသညျ	-985
▁အမြ	-986
ရေလ	-987
ib	-988
လော	-989
ခဲ့ကြ	-990
able	-991
လပ်	-992
ug	-993
▁100	-994
ချက်အ	-995
▁မြန်	-996
ev	-997
နျ	-998
ook	-999
ထံ	-1000
ပု	-1001
▁ဟာ	-1002
လု	-1003
ဌာ	-1004
လိုအပ်	-1005
ပံ့	-1006
ိုလ်	-1007
▁2017	-1008
အတိုင်း	-1009
သေး	-1010
သောအ	-1011
40	-1012
▁ဣသ	-1013
▁ယူ	-1014
▁နား	-1015
တွေနဲ့	-1016
ဏာ	-1017
▁မြေ	-1018
▁ဆေး	-1019
▁အားလုံး	-1020
▁ဂျ	-1021
ရုပ်	-1022
▁*	-1023
.6	-1024
ီဒီယို	-1025
▁များအတွက်	-1026
▁၎င်း	-1027
.3	-1028
ry	-1029
စွဲ	-1030
မော်	-1031
ေလ	-1032
og	-1033
ေန	-1034
ျဖ	-1035
ကိုင်	-1036
▁သတင်း	-1037
သမီး	-1038
▁(2	-1039
သိမ်း	-1040
▁အပေါ်	-1041
မီတာ	-1042
ort	-1043
▁သင်သည်	-1044
နီး	-1045
▁(1	-1046
▁စီ	-1047
တ္တု	-1048
တာပါ။	-1049
ပန်း	-1050
အလုပ်	-1051
ခဲ့တယ်။	-1052
▁ထုတ်လုပ်	-1053
ဂ္ဂ	-1054
ဖြေ	-1055
သမျှ	-1056
ec	-1057
▁ကျွန်မတို့	-1058
▁အချိန်	-1059
▁i	-1060
ဇ်	-1061
ံု	-1062
မယ်။	-1063
ant	-1064
စမ်း	-1065
▁Hack	-1066
သည့်	-1067
ထိုး	-1068
ကြည်	-1069
ုရင်	-1070
▁15	-1071
ောက်အ	-1072
ယျ	-1073
ont	-1074
ဆု	-1075
ကြိုး	-1076
▁ဣသရေလ	-1077
ွန်လိုင်း	-1078
▁အကြ	-1079
▁Q	-1080
out	-1081
မြေ	-1082
ိုးရ	-1083
▁အဲဒါ	-1084
ေါ်လာ	-1085
နေတဲ့	-1086
.7	-1087
ore	-1088
▁အသုံးပြု	-1089
▁ရုပ်	-1090
▁အခု	-1091
▁re	-1092
ile	-1093
▁Bl	-1094
နေကြ	-1095
နှိပ်	-1096
ချက်အလက်	-1097
လေ၏။	-1098
ထောက်	-1099
လိမ့်	-1100
▁၂၀၁	-1101
anmar	-1102
ဆင်း	-1103
ownload	-1104
▁Ap	-1105
ဝိ	-1106
▁ကလေး	-1107
iv	-1108
သီး	-1109
▁ကိုယ်တော်	-1110
ool	-1111
▁သက်	-1112
အမျိုးအစား	-1113
လေ့	-1114
????	-1115
▁Com	-1116
▁မိန့်	-1117
12	-1118
.8	-1119
▁အများ	-1120
မှုများ	-1121
နော်တို့	-1122
ell	-1123
▁သား	-1124
▁သွား	-1125
ဖြစ်ပါတယ်။	-1126
.4	-1127
ကိန်း	-1128
သတင်း	-1129
▁တည်	-1130
ဏ္	-1131
▁ငါသည်	-1132
ox	-1133
60	-1134
ide	-1135
ကြည့်	-1136
▁တော်	-1137
▁11	-1138
လိပ်	-1139
အမ	-1140
တပ်	-1141
▁ရာ	-1142
ဇာ	-1143
၀၀	-1144
▁စကား	-1145
ပေါ်မှာ	-1146
ilter	-1147
ated	-1148
aw	-1149
▁https	-1150
ပေါက်	-1151
▁သငျသညျ	-1152
end	-1153
ဒယ်	-1154
ဝေ	-1155
▁'	-1156
အပေါင်း	-1157
ည်အ	-1158
▁တရား	-1159
ွင်း	-1160
မူကား၊	-1161
▁FS	-1162
▁မို	-1163
သောအခါ	-1164
se	-1165
သီ	-1166
▁ရောက်	-1167
ဝါရီ	-1168
့္	-1169
ode	-1170
ခံစား	-1171
စိတ်အပိုင်း	-1172
ပါတ်	-1173
▁30	-1174
ice	-1175
▁မဟုတ်	-1176
သင့်	-1177
ly	-1178
ထားတဲ့	-1179
▁“	-1180
ive	-1181
မြောက်	-1182
▁အခမဲ့	-1183
▁For	-1184
ဆောင်း	-1185
oc	-1186
ပေါ့။	-1187
ew	-1188
▁အမှု	-1189
▁ဖွ	-1190
အမျိုးသား	-1191
▁အရာ	-1192
ဇိုင်း	-1193
▁မြင်	-1194
သဖြင့်	-1195
ဘုရင်	-1196
▁ငွေ	-1197
ff	-1198
တွဲ	-1199
▁Mar	-1200
▁ရော	-1201
▁ပထမ	-1202
ual	-1203
ဘာသာ	-1204
▁y	-1205
dro	-1206
ဘိုင်း	-1207
ထားသော	-1208
ဌာန	-1209
▁၃	-1210
ဓိက	-1211
သံများ	-1212
ညွှန်	-1213
ey	-1214
▁Ar	-1215
ung	-1216
အစဉ်	-1217
ကြေး	-1218
က္က	-1219
lect	-1220
lot	-1221
အမှတ်	-1222
ဏိ	-1223
ပစ်	-1224
ုံကြည်	-1225
မဏိ	-1226
ကပ်	-1227
ခဲ	-1228
ll	-1229
▁ပြောင်း	-1230
ep	-1231
သမား	-1232
အိတ်	-1233
▁ရှင်	-1234
ခြုံ	-1235
မြင့်	-1236
ဝတ်	-1237
မည်ဟု	-1238
ရရှိ	-1239
▁မီ	-1240
▁En	-1241
ထိန်း	-1242
ထုတ်ကုန်	-1243
ail	-1244
▁Home	-1245
▁အကျ	-1246
▁မြန်မာ	-1247
ဖုန်း	-1248
ထပ်	-1249
▁ကျွန်ုပ်	-1250
▁လာ	-1251
က၊	-1252
▁ရန်	-1253
ud	-1254
မန်	-1255
▁မေး	-1256
rans	-1257
အပြ	-1258
ener	-1259
ခြင်းနှင့်	-1260
ian	-1261
င်္ဂ	-1262
▁၁၉	-1263
မယ့်	-1264
ပါဝင်	-1265
ဆိုတာ	-1266
ချယ်	-1267
ဂိမ်း	-1268
▁စား	-1269
▁တွေ့	-1270
စ္စ	-1271
ED	-1272
="3	-1273
မြန်	-1274
per	-1275
ရယ်	-1276
ကျောင်း	-1277
ခြေခံ	-1278
လျှောက်	-1279
ၾက	-1280
ပွားရေး	-1281
ရှိသည်	-1282
yl	-1283
▁သင်၏	-1284
ကမ်း	-1285
ပမာ	-1286
▁ဒီတော့	-1287
▁18	-1288
များ၏	-1289
ဆိုရင်	-1290
လုံ	-1291
ရှိသော	-1292
hone	-1293
age	-1294
အခမဲ့	-1295
▁တိုက်	-1296
ပွ	-1297
ကာလ	-1298
ဘိ	-1299
▁ပေါ်	-1300
ဟူ	-1301
အရပ်	-1302
▁ကား	-1303
အခြား	-1304
▁စက်ရုံ	-1305
လွှတ်	-1306
ကျော်	-1307
▁th	-1308
ik	-1309
ီတ	-1310
ငျး	-1311
▁16	-1312
▁Th	-1313
ကွန်	-1314
200	-1315
မျှမ	-1316
ult	-1317
အရွယ်	-1318
▁တကယ်	-1319
ပါ၊	-1320
▁ဖန်	-1321
▁ခင်	-1322
စက်ရုံ	-1323
လွန်	-1324
▁သင်တို့သည်	-1325
သြ	-1326
▁အဘယ်သူ	-1327
ကွဲ	-1328
ဝယ်	-1329
▁ကွန်	-1330
ပျက်	-1331
တို့ရဲ့	-1332
ွေးချယ်	-1333
ith	-1334
▁အို	-1335
▁နံ	-1336
ies	-1337
▁နေ့	-1338
ax	-1339
န္ဒ	-1340
▁ပတ်	-1341
ခွင့်	-1342
▁ကြီး	-1343
▁Ad	-1344
ေတာ့	-1345
ဆောက်	-1346
oft	-1347
ရိတ်	-1348
▁:	-1349
ခဲ့တဲ့	-1350
▁ကျေးဇူး	-1351
ုဒ	-1352
ကိရိယာ	-1353
▁Myanmar	-1354
▁ရှာ	-1355
စိုက်	-1356
ခဲ့ပြီး	-1357
▁2016	-1358
▁ထုတ်ကုန်များ	-1359
ish	-1360
ဆယ်	-1361
ွေ့	-1362
လှမ်း	-1363
org	-1364
ဖြစ်သည်။	-1365
▁ထိုသူ	-1366
11	-1367
▁pro	-1368
▁Un	-1369
ဆဲ	-1370
▁Cl	-1371
/?	-1372
ID	-1373
uil	-1374
ာဏ်	-1375
ခဲ့သည်	-1376
und	-1377
ဗျား	-1378
SO	-1379
sh	-1380
ber	-1381
ဏ္ဍ	-1382
ထိုင်	-1383
ဆွဲ	-1384
တ္တ	-1385
yst	-1386
▁Sp	-1387
▁on	-1388
▁for	-1389
ကုမ္ပဏီ	-1390
မယ္	-1391
ထိ	-1392
▁ဝန်	-1393
ock	-1394
မွ	-1395
ial	-1396
▁ဖုန်း	-1397
ပြချက်	-1398
ဖြစ်ပါသည်	-1399
24	-1400
နု	-1401
စေခြင်းငှါ	-1402
နံပါတ်	-1403
ပါပဲ	-1404
ည်အသွေး	-1405
▁နည်းပညာ	-1406
▁ယခု	-1407
▁50	-1408
ရှည်	-1409
▁အဖြစ်	-1410
လျက်၊	-1411
ခရီး	-1412
ညွှန်း	-1413
စတစ်	-1414
မ္မ	-1415
▁စျေး	-1416
▁ပြင်	-1417
ျဖစ္	-1418
ထု	-1419
▁ပစ္စည်း	-1420
▁ယေ	-1421
▁နေရာ	-1422
ram	-1423
▁သင့်	-1424
▁ဒု	-1425
▁2013	-1426
▁ငါတို့	-1427
ကျွန်တော်	-1428
ပ္ပ	-1429
စ်ကို	-1430
ဆံ	-1431
▁ပု	-1432
ach	-1433
▁ap	-1434
▁သူတို့သည်	-1435
eng	-1436
▁တောင်	-1437
ru	-1438
▁ပင်	-1439
av	-1440
▁သာ	-1441
အက	-1442
ုံ့	-1443
▁သတ်	-1444
▁Tool	-1445
▁ပေးသွင်း	-1446
▁Val	-1447
ယံ	-1448
ခြင်း၊	-1449
-3	-1450
0000	-1451
ခေါင်း	-1452
များတွင်	-1453
▁Air	-1454
ကလေး	-1455
ov	-1456
▁ထိုသို့	-1457
နဲ	-1458
ည္း	-1459
ႏွ	-1460
မ်ား	-1461
▁ခင်ဗျား	-1462
▁24	-1463
▁14	-1464
ဖုန်	-1465
အမည်	-1466
▁k	-1467
အချက်အလက်	-1468
▁Ex	-1469
လွှာ	-1470
တ္တာ	-1471
▁13	-1472
▁25	-1473
စီနို	-1474
အဝေး	-1475
ပြိုင်	-1476
▁ဘယ်လို	-1477
အားဖြင့်	-1478
လေယာဉ်	-1479
▁e	-1480
▁ကျနော်တို့	-1481
ဖွေ	-1482
ခါး	-1483
▁မင်း	-1484
▁့	-1485
▁ခရီး	-1486
တိယ	-1487
စီအစဉ်	-1488
▁ယော	-1489
ဝေး	-1490
▁The	-1491
16	-1492
ရှောက်	-1493
ုပ်ရှား	-1494
pe	-1495
ရွှ	-1496
ကောက်ခံ	-1497
စာမျက်နှာ	-1498
▁op	-1499
droid	-1500
တောင်း	-1501
),	-1502
▁နှင့်အတူ	-1503
▁2015	-1504
▁ထင်	-1505
ick	-1506
▁လုပ်ငန်း	-1507
ဘီ	-1508
▁ဘာသာ	-1509
▁စု	-1510
လယ်	-1511
▁ယခင်	-1512
တည်း။	-1513
ူတာ	-1514
လစ်	-1515
ash	-1516
▁ဝင်	-1517
က်ဆ	-1518
ပ်စစ်	-1519
များနှင့်	-1520
ina	-1521
▁၀	-1522
ace	-1523
▁သြ	-1524
press	-1525
အထိ	-1526
ph	-1527
▁17	-1528
▁မျက်နှာ	-1529
▁၄	-1530
▁.	-1531
▁တန်	-1532
စီမံ	-1533
မယ့်	-1534
▁လေ့	-1535
အလင်း	-1536
▁ပန်း	-1537
▁ကနေ	-1538
ပါတယ္	-1539
ဖိုး	-1540
စီရင်	-1541
▁ပြီးတော့	-1542
▁မူပိုင်	-1543
▁ပညာ	-1544
စောင့်	-1545
ံုး	-1546
▁Android	-1547
▁အမျိုးအစား	-1548
ကြိုက်	-1549
ချာ	-1550
ချီ	-1551
ဖို	-1552
erv	-1553
gle	-1554
ခြောက်	-1555
25	-1556
ပါဘူး	-1557
ဓါ	-1558
တွေ၊	-1559
အသစ်	-1560
34	-1561
sion	-1562
ညှ	-1563
ဖြစ်ပါတယ်	-1564
▁သူမ	-1565
သည်ကို	-1566
ကြလော့။	-1567
eg	-1568
နည်း။	-1569
ER	-1570
နိုင်ပါတယ်။	-1571
တို့အား	-1572
ဒေ	-1573
indow	-1574
ျခ	-1575
▁Pre	-1576
▁သူတို့ကို	-1577
▁£	-1578
အသက်	-1579
တွေရဲ့	-1580
▁နေအိမ်	-1581
▁စနစ်	-1582
▁US	-1583
▁ဆောင်	-1584
int	-1585
သတ်မှတ်	-1586
၂၀	-1587
ရောဂါ	-1588
ix	-1589
ပါဘူး။	-1590
86	-1591
ကောက်ခံရေး	-1592
▁#	-1593
▁ယဇ်	-1594
▁ထာဝရဘုရားသည်	-1595
ject	-1596
န္တ	-1597
▁နောက်ဆုံး	-1598
ဓာတ်	-1599
အလွန်	-1600
▁မရှိ	-1601
rag	-1602
ွင်	-1603
.00	-1604
လွယ်	-1605
▁စက်မှု	-1606
ညာဉ်	-1607
▁ကျောင်း	-1608
ေပ	-1609
အမှု	-1610
သန်း	-1611
15	-1612
အကြံ	-1613
▁pl	-1614
ဆိုး	-1615
▁ch	-1616
▁»	-1617
▁တွေကို	-1618
heat	-1619
ေတ်	-1620
▁ဒါကို	-1621
လဲ။	-1622
▁ခေါ်	-1623
တံဆိပ်	-1624
ဘေး	-1625
ဿနာ	-1626
▁ရွှ	-1627
▁အလွန်	-1628
စိ	-1629
ထင်	-1630
တော်မူသော	-1631
ျမ	-1632
ှက်	-1633
▁ရေး	-1634
bo	-1635
လန်	-1636
ားရှင်း	-1637
ef	-1638
ary	-1639
ထို	-1640
▁အလင်း	-1641
င့္	-1642
IN	-1643
▁တို့	-1644
မခံ	-1645
▁အသံ	-1646
တား	-1647
▁နောက်တစ်ခု	-1648
မားသော	-1649
▁Black	-1650
ext	-1651
အရေး	-1652
ire	-1653
စတင်	-1654
▁by	-1655
▁အထူး	-1656
▁သူ၏	-1657
ကာကွယ်	-1658
▁အောင်	-1659
▁con	-1660
ရှိသည်။	-1661
တဲ့အခါ	-1662
ဇော်	-1663
နည်းပညာ	-1664
ရောင်း	-1665
မှား	-1666
▁Tag	-1667
မှမဟုတ်	-1668
▁Valve	-1669
န်းမာ	-1670
▁မည်	-1671
အပြင်	-1672
▁ကြိုး	-1673
▁FSX	-1674
စာရင်း	-1675
ne	-1676
▁ထိုအခါ	-1677
ော်လ	-1678
အခွ	-1679
201	-1680
ical	-1681
ဓာ	-1682
▁ဗီဒီယို	-1683
ction	-1684
ခိုင်	-1685
▁j	-1686
ication	-1687
▁Tr	-1688
ခိုး	-1689
="4	-1690
မ္း	-1691
ဝန်း	-1692
▁ဆုံး	-1693
▁ရောင်း	-1694
စ္စာ	-1695
▁Gener	-1696
ah	-1697
▁လွှ	-1698
က်ဘ	-1699
OS	-1700
ure	-1701
▁တွေ	-1702
▁ထွက်	-1703
ခြံ	-1704
အဘို့အ	-1705
▁အရောင်	-1706
ပါ၏။	-1707
▁စမ်း	-1708
▁ရောဂါ	-1709
▁Man	-1710
▁အရေး	-1711
အသံ	-1712
ခွန်း	-1713
ယူး	-1714
ငွေ့	-1715
oogle	-1716
ၿပ	-1717
ဝါရီလ	-1718
စျေးနှုန်း	-1719
န့်ရှင်း	-1720
▁၊	-1721
▁အကောင်းဆုံး	-1722
io	-1723
der	-1724
▁Con	-1725
▁၅	-1726
တဆ	-1727
oly	-1728
▁ထိ	-1729
သဘော	-1730
ရေအတွက်	-1731
▁အီ	-1732
မှူး	-1733
ပိုက်	-1734
င်္ဂလာ	-1735
▁အမျိုးသား	-1736
-5	-1737
14	-1738
ating	-1739
ကမ္ဘာ	-1740
အဘယ်	-1741
▁ကြား	-1742
တော	-1743
ိပ်တန်း	-1744
▁တိုး	-1745
rom	-1746
▁ad	-1747
ယမ်	-1748
ခန့်	-1749
ဂုတ်	-1750
▁နာရီ	-1751
အကောင်းဆုံး	-1752
▁စင်	-1753
ystem	-1754
▁အပြစ်	-1755
ကြားချက်	-1756
▁2014	-1757
▁စေ	-1758
▁com	-1759
▁+0000	-1760
ေါက်	-1761
မှန်း	-1762
35	-1763
နှင့်အတူ	-1764
အရွယ်အစား	-1765
ဖြစ်စေ	-1766
ဂု	-1767
ဖြိုး	-1768
တ္တိ	-1769
19	-1770
1,	-1771
ue	-1772
ရသော	-1773
ုပျ	-1774
ေဒ	-1775
ဇင်	-1776
ဖိ	-1777
ဒေသ	-1778
▁Window	-1779
နွေး	-1780
စက်မှု	-1781
▁ဖိုင်	-1782
▁ပုံစံ	-1783
ရတဲ့	-1784
ပါအ	-1785
မြင့်	-1786
▁မော်ဒယ်	-1787
▁ပါဝင်	-1788
သော်လည်း	-1789
ube	-1790
ပျော်	-1791
▁Play	-1792
att	-1793
▁ရှေ့	-1794
ဝဲ	-1795
ဒီဇိုင်း	-1796
▁တိ	-1797
ဆန်း	-1798
ေါင်	-1799
စိတ်အပိုင်းများ	-1800
ave	-1801
▁တံ	-1802
ရမည်	-1803
ရှိပါတယ်	-1804
ဆက်သွယ်	-1805
နောက်ဆုံး	-1806
ကြောင့်၊	-1807
ချစ်	-1808
မိုး	-1809
▁လိုက်	-1810
▁ဖိ	-1811
ino	-1812
▁App	-1813
▁အမည်	-1814
▁မျက်	-1815
ink	-1816
ဇင်း	-1817
ှနျ	-1818
ိုင္	-1819
ရု	-1820
ကျေးဇူး	-1821
ရှိ၏။	-1822
▁ကျော်	-1823
-4	-1824
ပဒေ	-1825
▁ကျောက်	-1826
ments	-1827
ကျောက်	-1828
ကလည်း၊	-1829
ပစ္စည်းများ	-1830
ပြီးနောက်	-1831
▁လျှောက်	-1832
ear	-1833
▁ကောင်းကင်	-1834
cess	-1835
ပြန်လည်	-1836
့ကို	-1837
ဆရာ	-1838
▁LED	-1839
▁ကယ်	-1840
▁သစ်	-1841
ဘာဝ	-1842
ware	-1843
ဖုံး	-1844
ရယ်သံများ	-1845
▁ထောက်	-1846
▁မိုဘိုင်း	-1847
▁ဒီလို	-1848
ရှေ	-1849
ပါစေ	-1850
▁သူသည်	-1851
ဘဝ	-1852
18	-1853
ဝါး	-1854
အပူ	-1855
▁တွ	-1856
စမ်းသပ်	-1857
ပြောင်းလဲ	-1858
orm	-1859
ဖွယ်	-1860
▁slot	-1861
ေတာ္	-1862
ပုံစံ	-1863
အစည်း	-1864
အပို	-1865
▁သင့်ရဲ့	-1866
▁ဖျ	-1867
▁download	-1868
▁ပူ	-1869
▁စွမ်း	-1870
နေတာ	-1871
ဒေါင်း	-1872
စ္ဆာ	-1873
ိတ်ဆက်	-1874
▁သံမဏိ	-1875
▁ဓာတ်	-1876
အထူး	-1877
▁မျိုး	-1878
ပ္ပံ	-1879
သဖြင့်၊	-1880
32	-1881
▁CO	-1882
anel	-1883
ခြေအနေ	-1884
▁ထား	-1885
မြစ်	-1886
ကတော့	-1887
ပိတ်	-1888
ee	-1889
ork	-1890
▁မူပိုင်ခွင့်	-1891
17	-1892
တော်မူသည်	-1893
▁Post	-1894
ံ့ဖြိုး	-1895
ကြလိမ့်မည်။	-1896
▁=	-1897
▁tool	-1898
မောင်း	-1899
လေ။	-1900
▁အင်္ဂ	-1901
▁x	-1902
ting	-1903
သလို	-1904
▁မတ်	-1905
▁ငါ့ကို	-1906
ric	-1907
99	-1908
▁မာ	-1909
▁စတင်	-1910
▁ဟု	-1911
▁တင်	-1912
▁အွန်လိုင်း	-1913
1]	-1914
တော်၌	-1915
နိုင်ပါတယ်	-1916
▁အတူ	-1917
▁ဖန်တီး	-1918
မှီ	-1919
▁ငြ	-1920
ai	-1921
ဖန်တီး	-1922
▁ယာ	-1923
36	-1924
ကင်း	-1925
▁↑	-1926
တုန်း	-1927
အညီ	-1928
တပါး	-1929
▁နံနက်	-1930
ss	-1931
▁ဒါမှမဟုတ်	-1932
လိုင်	-1933
▁Generator	-1934
37	-1935
မရ	-1936
▁တက်	-1937
▁Windows	-1938
▁အိပ်	-1939
ge	-1940
55	-1941
▁Fl	-1942
သူတို့	-1943
▁ကိ	-1944
▁လေး	-1945
ကီ	-1946
▁ရပ်	-1947
ဖြစ်ပြီး	-1948
uf	-1949
stall	-1950
ကာစီနို	-1951
င့္	-1952
word	-1953
pos	-1954
ထံမှ	-1955
လော။	-1956
ထိန်းချုပ်	-1957
ope	-1958
▁PC	-1959
▁Filter	-1960
IC	-1961
သု	-1962
▁~	-1963
▁မေ	-1964
▁ISO	-1965
များစွာ	-1966
▁up	-1967
ဝိဒ်	-1968
▁အလို	-1969
▁နှုတ်	-1970
ဦးဆုံး	-1971
ဆိုက်	-1972
ebook	-1973
▁အမှတ်	-1974
▁ac	-1975
ထူး	-1976
▁Ph	-1977
ခင်း	-1978
အေ	-1979
အကျိုး	-1980
▁အဓိက	-1981
▁မျှ	-1982
▁လိုအပ်	-1983
က်စ်	-1984
▁ပြောင်းလဲ	-1985
ert	-1986
▁€	-1987
eat	-1988
▁iP	-1989
စကားကို	-1990
▁သြဂုတ်	-1991
အွန်လိုင်း	-1992
▁စမ်းသပ်	-1993
▁ငါတို့သည်	-1994
အံ့	-1995
ှနျုပျ	-1996
▁မိန်း	-1997
▁ကုမ္ပဏီ	-1998
ရမ်	-1999
ချိုး	-2000
▁Google	-2001
ရှိတဲ့	-2002
▁အားဖြင့်	-2003
ush	-2004
မွေး	-2005
ခြားနား	-2006
ww	-2007
▁ညီ	-2008
▁ခေါင်း	-2009
ood	-2010
ower	-2011
နှံ	-2012
▁သတိ	-2013
▁ဝါ	-2014
စ္ဆာန်	-2015
let	-2016
လုံးကို	-2017
▁ဆက်သွယ်	-2018
▁အက	-2019
▁ခုနှစ်တွင်	-2020
▁sh	-2021
67	-2022
အလျ	-2023
▁2020	-2024
www	-2025
▁No	-2026
buil	-2027
ကြမ်း	-2028
ဘုရားသခင်	-2029
log	-2030
ယက်	-2031
▁ညနေ	-2032
▁မော	-2033
▁တဖန်	-2034
ပညာရှင်	-2035
ဟို	-2036
▁ယုဒ	-2037
ရရှိနိုင်	-2038
▁ဆု	-2039
တွေမှာ	-2040
သောအခါ၊	-2041
က္ခဏာ	-2042
▁al	-2043
များသည်	-2044
AS	-2045
▁Bag	-2046
▁with	-2047
ထုတ်လုပ်မှု	-2048
ေရု	-2049
နေသော	-2050
ကြသည်။	-2051
▁ထဲ	-2052
ဆန်	-2053
erm	-2054
လီမီတာ	-2055
ရွေးချယ်	-2056
its	-2057
လေ့လာ	-2058
AR	-2059
iver	-2060
ဝန်ဆောင်မှု	-2061
ကြသည်	-2062
ခဲ့ရ	-2063
▁လွန်	-2064
လေးချိန်	-2065
တောက်	-2066
LE	-2067
▁Forex	-2068
အေး	-2069
▁ဒီဇင်	-2070
NC	-2071
▁ယုံကြည်	-2072
▁ဆင်း	-2073
ကြွ	-2074
ပါလိမ့်	-2075
ွမ်းကျင်	-2076
▁ထိန်း	-2077
,000	-2078
icro	-2079
အဆင့်	-2080
▁အဖွဲ့	-2081
ဖြူ	-2082
VC	-2083
▁res	-2084
acebook	-2085
▁တူ	-2086
ခဲ့ပါတယ်။	-2087
38	-2088
နည်းငယ်	-2089
ပယ်	-2090
▁ကစား	-2091
▁ခံရ	-2092
▁opt	-2093
▁အကြောင်းမူကား၊	-2094
အလုပ်လုပ်	-2095
လဒ်	-2096
ဇာတ်	-2097
▁Card	-2098
▁hack	-2099
69	-2100
ပါပဲ။	-2101
▁ထို့	-2102
ရောက်မှု	-2103
ရီးယား	-2104
ဗာ	-2105
လား။	-2106
▁ဒါပေ	-2107
ဝန်းကျင်	-2108
▁ကိုယ့်	-2109
ဆော်	-2110
န်းမာရေး	-2111
▁ထာဝရဘုရား၏	-2112
▁လုံး	-2113
တော်သည်	-2114
ule	-2115
ဖူး	-2116
onic	-2117
တိုးတက်	-2118
▁Sc	-2119
▁ကူး	-2120
▁''	-2121
▁ပြန်ကြားချက်	-2122
▁ပေါင်း	-2123
ပါအဝင်	-2124
▁40	-2125
ier	-2126
put	-2127
ဒီယာ	-2128
ႏိုင္	-2129
▁22	-2130
▁အကျိုး	-2131
ထမ်း	-2132
ttob	-2133
ttobrag	-2134
builttobrag	-2135
▁သန့်ရှင်း	-2136
▁Wh	-2137
▁Hol	-2138
သင်၏	-2139
▁ဒေါ်လာ	-2140
ပျံ	-2141
▁Ro	-2142
▁မိန့်တော်မူ၏။	-2143
▁ယဇ်ပ	-2144
လံ	-2145
ree	-2146
ကွင်း	-2147
ဗီ	-2148
ann	-2149
▁]	-2150
အသုံး	-2151
▁is	-2152
လုံခြုံ	-2153
az	-2154
▁အသေး	-2155
နိုင်တဲ့	-2156
ance	-2157
▁ပြန်လည်	-2158
du	-2159
▁အသစ်	-2160
ောဟ	-2161
မိုင်း	-2162
▁အခြေခံ	-2163
▁စီမံ	-2164
▁သု	-2165
▁Al	-2166
▁သခင်	-2167
▁အရွယ်	-2168
-201	-2169
တရုတ်	-2170
▁ကြည့်	-2171
39	-2172
မက်	-2173
▁အေ	-2174
နှုတ်	-2175
လတ်	-2176
▁Br	-2177
ဒေါ်လာ	-2178
်း	-2179
မဆို	-2180
အလို	-2181
▁ပုံမှန်	-2182
▁ခြေ	-2183
▁အိတ်	-2184
ရှိသမျှ	-2185
:4	-2186
န်န	-2187
ကြိမ်	-2188
ခိုက်	-2189
ြိ	-2190
▁Ac	-2191
▁cl	-2192
ပထမ	-2193
ထုတ်လုပ်သူ	-2194
▁All	-2195
▁အိ	-2196
ဖိုင်	-2197
▁လို့	-2198
စုပေါင်း	-2199
ဏ္ဍာ	-2200
လွတ်	-2201
ited	-2202
▁နို	-2203
များက	-2204
▁စီးပွားရေး	-2205
ရာတွင်	-2206
▁©	-2207
ရွိ	-2208
ဖြစ်၏။	-2209
ုပ်ပိုး	-2210
▁web	-2211
ရှာဖွေ	-2212
▁Hy	-2213
▁လျှပ်စစ်	-2214
▁60	-2215
တယ်လို့	-2216
နှင့်။	-2217
ဖောက်	-2218
ဆောင်းပါး	-2219
▁မော်တော်	-2220
▁အထိ	-2221
ision	-2222
▁ဖေါ်	-2223
တိန်	-2224
▁Aut	-2225
▁ပိတ်	-2226
ကိုလည်း	-2227
▁အတွင်း	-2228
ပါသ	-2229
mer	-2230
ငျ့	-2231
▁dis	-2232
AT	-2233
ရှုံး	-2234
▁ဒါဝိဒ်	-2235
တိုင်အောင်	-2236
-8	-2237
ည့်စုံ	-2238
▁လေ့လာ	-2239
အရည်အသွေး	-2240
ချေ	-2241
ရယူ	-2242
စစ်ခြင်း	-2243
▁filter	-2244
▁New	-2245
mes	-2246
တေသ	-2247
▁ခရစ်	-2248
နှီး	-2249
ပေးသွင်း	-2250
ရမည်။	-2251
ရိုင်	-2252
တခု	-2253
ပျူတာ	-2254
ော်မ	-2255
▁ဂိမ်း	-2256
-6	-2257
ပိုမို	-2258
ုပ္	-2259
="5	-2260
ဗျာ	-2261
ions	-2262
▁ထပ်	-2263
သောသူသည်	-2264
ade	-2265
ufact	-2266
စာအုပ်	-2267
net	-2268
▁Cas	-2269
).	-2270
ိညာဉ်	-2271
▁ဒီမှာ	-2272
ထာဝရဘုရား	-2273
▁အစဉ်	-2274
▁ကြည့်	-2275
ရွယ်	-2276
ရင္	-2277
ပြီးမှ	-2278
ရံ	-2279
▁ro	-2280
ရမ်း	-2281
ရိပ်	-2282
▁အကြံ	-2283
▁အောက်တို	-2284
ခတ်	-2285
lang	-2286
ကြယ်	-2287
တစ်ယောက်	-2288
▁ဟော	-2289
▁အပူ	-2290
မော	-2291
▁ဖော်	-2292
ယုံကြည်	-2293
ိယ	-2294
▁ယနေ့	-2295
.,	-2296
အစီအစဉ်	-2297
ဂျက်	-2298
ရုံး	-2299
▁သဘော	-2300
ufactur	-2301
ဖုန်ကောက်ခံရေး	-2302
▁100%	-2303
▁ဥပမာ	-2304
▁Download	-2305
ပေးနိုင်	-2306
AN	-2307
lim	-2308
သားစု	-2309
3)	-2310
ဈေး	-2311
မူနာ	-2312
▁အဘိ	-2313
ေရး	-2314
အမျိုးမျိုး	-2315
ထွင်	-2316
ရာယ်	-2317
ဖွင့်	-2318
သည်ဟု	-2319
ame	-2320
ကြို	-2321
▁နယူး	-2322
အကြောင်းကို	-2323
▁ရွေး	-2324
▁သတ်မှတ်	-2325
သုံးသပ်	-2326
rop	-2327
လောင်း	-2328
▁ရှင်ဘုရင်	-2329
န္တရာယ်	-2330
95	-2331
ights	-2332
▁စည်း	-2333
▁ကျုပ်	-2334
ဖြစ်၍၊	-2335
:0	-2336
eth	-2337
ဂျာ	-2338
မေးလ်	-2339
22	-2340
ပါပြီ။	-2341
▁စက်တင်	-2342
-7	-2343
unt	-2344
▁အီး	-2345
▁ချစ်	-2346
ပေါ်တွင်	-2347
ပါက	-2348
အို	-2349
line	-2350
▁Gr	-2351
▁Eur	-2352
▁ခံ	-2353
ဗားရှင်း	-2354
ဖွဲ့စည်း	-2355
ype	-2356
ကျူး	-2357
ကြောင်းကို	-2358
ိုလှ	-2359
▁သီ	-2360
မှာပါ။	-2361
လှုပ်ရှား	-2362
af	-2363
▁၂၀၀	-2364
ါး	-2365
▁ဘေး	-2366
ှဉ်	-2367
▁တပ်	-2368
iew	-2369
ခဲ့တာ	-2370
ST	-2371
မိတ်	-2372
ရောပ	-2373
ader	-2374
စစ်ဆေး	-2375
အရောင်	-2376
ပြုလုပ်	-2377
▁ခံစား	-2378
PT	-2379
ၾကာ	-2380
oftware	-2381
ဆောင်ရွက်	-2382
▁sp	-2383
အမြင်	-2384
ဗီဒီယို	-2385
▁မတ်လ	-2386
ဖြစ်သော	-2387
ကဒ်	-2388
▁Gl	-2389
တတ်၏။	-2390
▁ဆန်း	-2391
ign	-2392
▁စီးရီး	-2393
ရ။	-2394
ase	-2395
ငြာ	-2396
၂၀၁	-2397
ခေတ်	-2398
ကျွန်တော်တို့ရဲ့	-2399
ON	-2400
လ္	-2401
▁ကာကွယ်	-2402
▁ကူ	-2403
ကူညီ	-2404
▁မှန်	-2405
▁သန်း	-2406
▁အော်	-2407
ပြည်နယ်	-2408
များ၊	-2409
ရေးသား	-2410
စီးပွားရေး	-2411
▁အုပ်	-2412
????????	-2413
ech	-2414
ကျင့်	-2415
enc	-2416
▁စာမျက်နှာ	-2417
▁အဲဒီလို	-2418
အချို့	-2419
atic	-2420
ရထား	-2421
▁၆	-2422
;&	-2423
တျ	-2424
ok	-2425
ich	-2426
▁ဖုန်	-2427
သကဲ့သို့	-2428
မွန်	-2429
တာနက်	-2430
▁ကျွန်တော့	-2431
▁သင်္	-2432
အလျောက်	-2433
▁ဘုရားသခင်၏	-2434
သည်း	-2435
▁ငါ၏	-2436
မိန်း	-2437
▁ကြောက်	-2438
▁ကိုအ	-2439
ွေးနွေး	-2440
85	-2441
zh	-2442
န္ဒိယ	-2443
ထောင်စု	-2444
▁တစ်ဦးက	-2445
ဝင်စား	-2446
▁သူတို့ရဲ့	-2447
ale	-2448
ufacturer	-2449
▁×	-2450
ငါး	-2451
ပန်	-2452
ပြတ်	-2453
အကြီး	-2454
သေတ္တာ	-2455
ဟောင်း	-2456
▁အလုပ်လုပ်	-2457
ors	-2458
▁23	-2459
▁ဆီ	-2460
▁Mark	-2461
▁သိပ်	-2462
ကဲ့သို့သော	-2463
▁သို့သော်	-2464
ြန္	-2465
က်ဘ်	-2466
▁Off	-2467
▁ယေရှု	-2468
ank	-2469
ူလိုင်	-2470
▁လိ	-2471
▁အံ့	-2472
▁အဘယ်သူမျှမ	-2473
ory	-2474
နုပညာ	-2475
▁site	-2476
သင်တန်း	-2477
▁နိုဝင်	-2478
ester	-2479
လပ်စတစ်	-2480
Ch	-2481
ဃ်း	-2482
တူညီ	-2483
▁များကို	-2484
သောက်	-2485
▁အကြီး	-2486
ကြတယ်။	-2487
အပေါင်းတို့သည်	-2488
90	-2489
ens	-2490
▁PVC	-2491
obile	-2492
1%	-2493
▁သိုး	-2494
ချက်ကို	-2495
မှစ	-2496
▁ဣသရေလအမျိုး	-2497
irt	-2498
န္ဓာ	-2499
▁အားဖြင့်	-2500
▁1.	-2501
▁အစိုးရ	-2502
ဆုံ	-2503
▁ဗာ	-2504
▁28	-2505
ွာအဝေး	-2506
ဝက်	-2507
ဖျက်	-2508
▁Min	-2509
မှို	-2510
▁ရှင်း	-2511
ခုနှစ်	-2512
▁အစား	-2513
ုံ့ပြန်	-2514
တည်ဆောက်	-2515
▁Facebook	-2516
▁ဇွန်	-2517
▁°	-2518
ပါတယ်၊	-2519
unction	-2520
▁ကျွန်ုပ်တို့၏	-2521
▁လူသား	-2522
13	-2523
▁ဘဝ	-2524
းစား	-2525
▁CNC	-2526
▁ဒုတိယ	-2527
oll	-2528
ါတ်	-2529
ကွဲပြား	-2530
တကွ	-2531
▁Sol	-2532
ရပါ	-2533
ုရောဟ	-2534
▁ဒေတာ	-2535
posh	-2536
ဉာဏ်	-2537
မီနီ	-2538
အရာကို	-2539
ုရောဟိတ်	-2540
အသင်း	-2541
စေ့	-2542
ပြေး	-2543
သိုလ်	-2544
ထုံး	-2545
▁you	-2546
လက္ခဏာ	-2547
▁Pul	-2548
ရှိပါတယ်။	-2549
▁ဖေ	-2550
ပျစ်	-2551
65	-2552
မျဉ်း	-2553
ransposh	-2554
▁စိတ်ကူး	-2555
ုိ	-2556
အပြား	-2557
သတည်း။	-2558
28	-2559
ျပီး	-2560
ထောက်ပံ့	-2561
▁ဖြစ်သည်။	-2562
EM	-2563
▁တက	-2564
mail	-2565
မော်ဒယ်	-2566
▁၇	-2567
ams	-2568
form	-2569
▁dev	-2570
သတ္တု	-2571
▁ဘက်	-2572
comment	-2573
IT	-2574
▁လော	-2575
ိုင်းရပ်	-2576
PS	-2577
uck	-2578
▁ငါး	-2579
လက်မှတ်	-2580
▁စောင့်	-2581
ကျီ	-2582
▁1,	-2583
atch	-2584
read	-2585
▁poly	-2586
lock	-2587
▁ရရှိ	-2588
ဖြစ်လာ	-2589
ရကြ	-2590
▁500	-2591
▁mod	-2592
ဖော်ပြ	-2593
ညှိ	-2594
▁ရဲ	-2595
AD	-2596
ပိုပြီး	-2597
70	-2598
74	-2599
▁ရည်	-2600
အကြား	-2601
▁ထိပ်တန်း	-2602
▁အမျိုးသမီး	-2603
အကြုံ	-2604
▁ဝမ်း	-2605
▁သိပ္ပံ	-2606
▁ဘာသာစကား	-2607
ယ်ရှား	-2608
ဂရမ်	-2609
▁ကုန်ပစ္စည်း	-2610
▁ကာလ	-2611
▁စာရင်း	-2612
ကျယ်	-2613
ကျင့်	-2614
ater	-2615
▁လေယာဉ်	-2616
▁ဧပြီ	-2617
▁လည်း	-2618
old	-2619
▁သူ့ကို	-2620
ပီ	-2621
▁ကင်	-2622
▁အပို	-2623
ata	-2624
ရွိုက်	-2625
အစိတ်အပိုင်းများ	-2626
ဆီး	-2627
အစာ	-2628
▁သွေး	-2629
သင့်ရဲ့	-2630
▁ကမ္ဘာ့	-2631
ရွာ	-2632
က္ကသိုလ်	-2633
ET	-2634
▁AP	-2635
▁စံ	-2636
▁Europe	-2637
တွေ့အကြုံ	-2638
68	-2639
င်းပ	-2640
▁သဘာဝ	-2641
တယောက်	-2642
နပ်	-2643
မှုန့်	-2644
ထည့်	-2645
▁ဇာတ်	-2646
▁ထာဝရ	-2647
▁ပိုက်	-2648
▁အဘယ်သို့	-2649
▁အသိ	-2650
စွာသော	-2651
OR	-2652
AC	-2653
လျား	-2654
သံမဏိ	-2655
▁post	-2656
▁Micro	-2657
လင်မြို့	-2658
▁သြဂုတ်လ	-2659
ize	-2660
ဗေဒ	-2661
29	-2662
ကုသ	-2663
▁Mon	-2664
သနည်း။	-2665
ins	-2666
▁သင်တန်း	-2667
:5	-2668
▁Car	-2669
ဘယ်လို	-2670
▁)	-2671
▁Sk	-2672
▁ရွှေ	-2673
အခြေခံ	-2674
မရာ	-2675
သန်	-2676
အဆိုပါ	-2677
ional	-2678
တို့၌	-2679
ပြိုင်ပွဲ	-2680
▁app	-2681
ခုံ	-2682
ရာသီ	-2683
လျော့	-2684
ျပာ	-2685
မုန်	-2686
▁Pr	-2687
က္ကူ	-2688
အသေး	-2689
▁အပ်	-2690
လှယ်	-2691
▁အောင်မြင်	-2692
နာရီ	-2693
အသီး	-2694
ူးပေါင်း	-2695
မြတ်	-2696
▁မူလ	-2697
▁မြင့်	-2698
▁ပြုလုပ်	-2699
ei	-2700
▁un	-2701
ဖြစ်နိုင်	-2702
ွပ်	-2703
္ကျီ	-2704
▁ဇန်န	-2705
plication	-2706
ml	-2707
▁သတ္တု	-2708
များမှာ	-2709
▁မင်္ဂလာ	-2710
ma	-2711
တစ္	-2712
▁Up	-2713
နှောက်	-2714
ark	-2715
lex	-2716
▁Key	-2717
ဟူသော	-2718
ောငျး	-2719
hy	-2720
▁High	-2721
▁စီရင်	-2722
အလာ	-2723
အများကြီး	-2724
ခန့်	-2725
▁ဓါတ်	-2726
▁DV	-2727
ိဳ	-2728
▁ပွ	-2729
ချို	-2730
▁Cast	-2731
ပါလိမ့်	-2732
ဟေ	-2733
top	-2734
ဘတ်	-2735
▁ထက်	-2736
▁iPhone	-2737
▁install	-2738
▁Bur	-2739
▁Met	-2740
▁မောရှေ	-2741
ပြုရ	-2742
သူတွေ	-2743
▁အမြင့်	-2744
▁မသိ	-2745
▁မကြာ	-2746
▁ရိုး	-2747
▁ထူး	-2748
ဖွင့်	-2749
အနေနဲ့	-2750
ဂရီ	-2751
တည်းက	-2752
▁Prec	-2753
ဂ်	-2754
3"&	-2755
▁ဘီ	-2756
▁နားလည်	-2757
ld	-2758
▁ယေရု	-2759
▁အဆင့်	-2760
▁ပတ်သက်	-2761
port	-2762
နယ်ဇင်း	-2763
ဂီတ	-2764
▁29	-2765
▁co	-2766
4)	-2767
▁27	-2768
န်းဒ	-2769
ပုဂ္ဂ	-2770
▁ရက်နေ့	-2771
ဝှက်	-2772
▁ဆိုင်	-2773
UR	-2774
အရေအတွက်	-2775
ဓါန်	-2776
▁ဖြောင့်	-2777
iang	-2778
အားကစား	-2779
2)	-2780
ond	-2781
ျား	-2782
▁ဇူလိုင်	-2783
▁Bot	-2784
အများဆုံး	-2785
သူ့	-2786
▁Col	-2787
အနား	-2788
▁ဖြစ်ပါတယ်။	-2789
▁Se	-2790
ပုံကို	-2791
27	-2792
ets	-2793
ာဉ်	-2794
တေသန	-2795
မွမ်း	-2796
တစ်ခုကို	-2797
လှန်	-2798
▁ဟုတ်	-2799
▁ဝန်ဆောင်မှု	-2800
ous	-2801
င်္	-2802
စ်တာ	-2803
▁ပို့	-2804
တို့နှင့်	-2805
စေရန်	-2806
တွန်း	-2807
▁တော်မူ	-2808
▁ဂျာ	-2809
ဂုတ္တု	-2810
▁အသုံး	-2811
လွယ်ကူ	-2812
ထည်	-2813
အဆင့်	-2814
▁မိုဃ်း	-2815
ပံ့ပိုး	-2816
ဖွံ့ဖြိုး	-2817
ရှင်ဘုရင်	-2818
▁အထက်	-2819
န်းဒရွိုက်	-2820
ux	-2821
▁အဆုံး	-2822
▁ရွေးချယ်	-2823
ကြော	-2824
ထံသို့	-2825
▁ဖြေ	-2826
ထဲသို့	-2827
▁၁၀	-2828
လောင်	-2829
tr	-2830
▁မြှ	-2831
နှစ်ခု	-2832
ton	-2833
ပြင်း	-2834
ဂို	-2835
ဖတ်ရန်	-2836
▁Inter	-2837
▁မိနစ်	-2838
▁မွေး	-2839
uk	-2840
မင်	-2841
အိပ်	-2842
ပေးရန်	-2843
▁ကမ်း	-2844
▁Precision	-2845
pro	-2846
နဲ႔	-2847
ပုံတင်	-2848
အပိုဆု	-2849
▁အပိုင်း	-2850
နိုင်သည်။	-2851
ိုင်းရပ်စ်	-2852
ရတာ	-2853
▁HD	-2854
▁အရည်အသွေး	-2855
▁Ind	-2856
အင်္ဂ	-2857
▁သိမ်း	-2858
▁wh	-2859
ized	-2860
မြှင့်	-2861
sp	-2862
အနည်းငယ်	-2863
ဟန်	-2864
အော်	-2865
▁(201	-2866
▁Casino	-2867
▁ရိုက်	-2868
ရှေ့မှာ	-2869
▁တိုင်း	-2870
▁26	-2871
အထည်	-2872
▁ဖြတ်	-2873
ခန့်ခွဲ	-2874
▁ယဇ်ပုရောဟိတ်	-2875
နိမ့်	-2876
မှုတွေ	-2877
ရှောင်	-2878
▁လက်ရှိ	-2879
▁နားထောင်	-2880
တှ	-2881
▁cheat	-2882
ection	-2883
▁အားကစား	-2884
45	-2885
Co	-2886
ery	-2887
▁သူက	-2888
▁2012	-2889
▁ချီး	-2890
ော်ငြာ	-2891
IS	-2892
▁တီ	-2893
ပျိုး	-2894
အဘယ်သူ	-2895
▁အာရုံ	-2896
ft	-2897
ထူ	-2898
▁You	-2899
ပုံများ	-2900
▁သင့်ကို	-2901
အာရုံ	-2902
နည်းဟု	-2903
limited	-2904
▁တောင်း	-2905
▁ဖြစ်လာ	-2906
အဓိက	-2907
▁အဲဂုတ္တု	-2908
▁ဒေသ	-2909
ao	-2910
▁an	-2911
နွယ်	-2912
ၿပီး	-2913
က်ဆီး	-2914
တာဝန်	-2915
ယျာဉ်	-2916
▁အဘို့	-2917
6)	-2918
wit	-2919
lic	-2920
ရစ္ဆာန်	-2921
လတ်စတစ်	-2922
ဘာသာစကား	-2923
▁ပိုပြီး	-2924
In	-2925
နိုင်ပါသည်။	-2926
မှုအတွက်	-2927
ဆည်း	-2928
▁RF	-2929
▁Elect	-2930
လူမျိုး	-2931
ump	-2932
တြက္	-2933
▁မြေကြီး	-2934
တဦး	-2935
▁အိုင်	-2936
ပါတယ္။	-2937
we	-2938
ထန်	-2939
▁00	-2940
▁လွှတ်	-2941
cm	-2942
ငြိမ်	-2943
ထုတ်လုပ်သူများ	-2944
ရော်	-2945
လဲဆို	-2946
row	-2947
▁လုပ်ဆောင်	-2948
LC	-2949
▁အနာ	-2950
သော်၊	-2951
မားတဲ့	-2952
▁ဖေါ်ပြချက်	-2953
ဥာဏ်	-2954
▁အချင်း	-2955
100	-2956
▁ပူဇော်	-2957
ထရီ	-2958
riv	-2959
▁or	-2960
ထွေး	-2961
ယ်ယူ	-2962
▁တာဝ	-2963
ပြဿနာ	-2964
စွမ်းရည်	-2965
ိန္	-2966
▁မိန်းမ	-2967
မွှ	-2968
ဝါဒ	-2969
ဆောင်ရည်	-2970
min	-2971
ခြည်	-2972
ခဲ့သော	-2973
▁ပြဿနာ	-2974
ထားသည်။	-2975
လုပ်ဆောင်	-2976
ညတ်	-2977
ရအောင်	-2978
▁အဘ	-2979
တံခါး	-2980
မည်အကြောင်း	-2981
ယှဉ်	-2982
erved	-2983
အတိုင်း၊	-2984
မိုဘိုင်း	-2985
အဘ	-2986
▁Cont	-2987
▁ယေရုရှ	-2988
oid	-2989
ဘီး	-2990
မသိ	-2991
ဂျစ်	-2992
▁လုံ	-2993
ဆီဂျင်	-2994
စာတမ်း	-2995
▁လုံးဝ	-2996
▁ဒီဇိုင်း	-2997
▁ရှော	-2998
ics	-2999
သက္	-3000
1)	-3001
Hz	-3002
uc	-3003
ပြေ	-3004
ကျေး	-3005
မက	-3006
ထည့်	-3007
▁Arch	-3008
▁အရပ်	-3009
မီဒီယာ	-3010
ြး	-3011
▁sc	-3012
site	-3013
မ္မတ	-3014
ကောင်းတဲ့	-3015
၀၀၀	-3016
▁EA	-3017
စရာများ	-3018
မႈ	-3019
မှာတော့	-3020
▁ခြ	-3021
▁ပေ	-3022
စောင့်	-3023
▁လက်မှတ်	-3024
ခြင်းသို့	-3025
▁DVD	-3026
ပျို	-3027
လျော်	-3028
version	-3029
49	-3030
vir	-3031
▁ညှ	-3032
တည်ပြု	-3033
3"	-3034
▁အမြဲ	-3035
2]	-3036
ျခင္း	-3037
လို့ပါ။	-3038
):	-3039
26	-3040
တစ်ဦးက	-3041
▁????????	-3042
▁2.	-3043
ယာကြိုး	-3044
▁အိန္ဒိယ	-3045
▁ဒါကြောင့်	-3046
oth	-3047
ေပး	-3048
▁qu	-3049
▁As	-3050
အခန်း	-3051
▁ပရော	-3052
75	-3053
တို့တွင်	-3054
]&	-3055
မှုက	-3056
▁အက်	-3057
▁အဝတ်	-3058
သင်္	-3059
▁Web	-3060
orld	-3061
▁Ant	-3062
▁ကော်	-3063
▁နည်းလမ်း	-3064
▁၈	-3065
ခိုင်နှုန်း	-3066
ဥ္	-3067
▁Die	-3068
▁ဆရာ	-3069
▁Glass	-3070
▁ထိုင်	-3071
▁it	-3072
▁ယောက်	-3073
▁de	-3074
အမှတ်တံဆိပ်	-3075
▁21	-3076
စရိတ်	-3077
ဖာ	-3078
▁Code	-3079
မြှုပ်	-3080
ွိုင်း	-3081
ates	-3082
▁ပရို	-3083
▁Tools	-3084
သည္	-3085
▁လူမျိုး	-3086
/201	-3087
▁ပထမဆုံး	-3088
▁မြန်မာနိုင်ငံ	-3089
ီဝ	-3090
▁Posted	-3091
▁မှတ်ချက်	-3092
ဒု	-3093
.99	-3094
ime	-3095
▁By	-3096
ient	-3097
တော်မူပါ။	-3098
US	-3099
ဖ်	-3100
ere	-3101
ကြံ	-3102
လိက	-3103
ိုဟ	-3104
တယ္။	-3105
▁အကယ်	-3106
ိုလှောင်	-3107
▁ဒီဇင်ဘာလ	-3108
▁ကိုယ်တော်သည်	-3109
PC	-3110
▁၉	-3111
▁အဆင့်	-3112
▁System	-3113
▁ဒါကြောင့်	-3114
လွ	-3115
▁ရှန်	-3116
တဆင့်	-3117
▁အရှင်	-3118
ခြင်းနှင့်	-3119
▁be	-3120
▁]]&	-3121
အခွင့်	-3122
အကြံပြု	-3123
duct	-3124
ဖေါ်	-3125
▁တိုက်ရိုက်	-3126
oy	-3127
▁Ser	-3128
နှလုံး	-3129
="0	-3130
2004	-3131
အဝတ်	-3132
ဒီမှာ	-3133
▁လွတ်	-3134
ဖြေရှင်း	-3135
▁ထုတ်လုပ်သူများ	-3136
mb	-3137
fer	-3138
▁တာ	-3139
စီးရီး	-3140
▁တာဝန်	-3141
သတင်းအချက်အလက်	-3142
ျာ	-3143
atal	-3144
▁ဖို့	-3145
▁Equ	-3146
▁ရုပ်ရှင်	-3147
လိပ်စာ	-3148
နိုင်သော	-3149
▁2010	-3150
jection	-3151
▁စာအုပ်	-3152
▁အချို့	-3153
အောင်မြင်	-3154
ခဏ	-3155
ေပါ	-3156
လျင်	-3157
ချင်းစီ	-3158
ုဏ်	-3159
▁Ed	-3160
▁တော	-3161
▁စျေးနှုန်း	-3162
▁et	-3163
▁မီလီမီတာ	-3164
တုန်းက	-3165
▁Qu	-3166
ateg	-3167
တကယ်	-3168
ဂတ်	-3169
တနာ	-3170
▁ချက်	-3171
အပူချိန်	-3172
အမေရိကန်	-3173
to	-3174
▁[1]	-3175
▁အရမ်း	-3176
အမှန်	-3177
EN	-3178
ium	-3179
▁70	-3180
reen	-3181
▁ဂီတ	-3182
▁Ning	-3183
လော့ဟု	-3184
တိုက်ရိုက်	-3185
ဇယား	-3186
▁နောက်ထပ်	-3187
လွှဲ	-3188
သော်လည်း၊	-3189
ႏွစ္	-3190
▁အသီး	-3191
▁အများကြီး	-3192
▁အောက်တိုဘာလ	-3193
လက်ထ	-3194
▁လှုပ်ရှား	-3195
98	-3196
တကာ	-3197
တုရ	-3198
တွေး	-3199
လမ်းညွှန်	-3200
les	-3201
သည်လည်း	-3202
ြိတိန်	-3203
မော်တော်	-3204
▁ဖုန်းနံပါတ်	-3205
▁စုံ	-3206
▁အလှ	-3207
▁Trans	-3208
▁ဆိုတာ	-3209
က်ဘ်ဆိုက်	-3210
▁ကြိုးစား	-3211
▁အရှေ့	-3212
ဝန်ကြီး	-3213
ွန့်	-3214
ustom	-3215
အမြစ်	-3216
ကြောက်	-3217
ကုပ်	-3218
irtual	-3219
▁ဖြောင့်မတ်	-3220
anc	-3221
▁လူ့	-3222
GB	-3223
de	-3224
gram	-3225
viron	-3226
▁သူတို့က	-3227
ထုတ်ကုန်များ	-3228
▁ဝတ်	-3229
သည်တို့ကို	-3230
အမြဲ	-3231
▁သီး	-3232
သြား	-3233
▁အစာ	-3234
များမှ	-3235
MS	-3236
ကုဒ်	-3237
ons	-3238
စို	-3239
▁တစ္	-3240
မှုနဲ့	-3241
ring	-3242
▁set	-3243
ကို၎င်း၊	-3244
▁နှစ်ပေါင်း	-3245
▁ယေရုရှလင်မြို့	-3246
ဥပဒေ	-3247
မဖြစ်	-3248
မြို့၊	-3249
တို့၊	-3250
ပေးချေ	-3251
▁Prot	-3252
me	-3253
အစ်ကို	-3254
▁Be	-3255
▁Gro	-3256
တော်သို့	-3257
မျက်နှာပြင်	-3258
မေ	-3259
▁LT	-3260
ဆော့	-3261
ကျိုး	-3262
အဆုံး	-3263
ser	-3264
အာမခံ	-3265
▁လူမှု	-3266
ပြည်ပြည်	-3267
▁ခင်ဗျားတို့	-3268
သတိ	-3269
ကျန်	-3270
အင်း	-3271
▁ကွဲ	-3272
▁တကယ့်	-3273
▁80	-3274
▁မိုး	-3275
▁အဘယ်ကြောင့်	-3276
man	-3277
▁Cr	-3278
▁ကီ	-3279
အပါအဝင်	-3280
ော်လင့်	-3281
▁သင်တို့ကို	-3282
▁ဣသရေလအမျိုးသား	-3283
▁ဖွဲ့	-3284
▁ဆက်ဖတ်ရန်	-3285
yn	-3286
ake	-3287
▁us	-3288
မှစ၍	-3289
▁လူတွေ	-3290
ကြောင်းလိုင်း	-3291
▁အချက်အလက်	-3292
ခုန်	-3293
▁Rel	-3294
▁အခုတော့	-3295
▁တည်ဆောက်	-3296
ချက်များကို	-3297
ချော	-3298
▁ရင်	-3299
irect	-3300
▁စပျစ်	-3301
ငါ့	-3302
ဒေါင်းလုပ်	-3303
77	-3304
ats	-3305
လူး	-3306
ဒေတာ	-3307
▁အကြား	-3308
အဖွဲ့အစည်း	-3309
21	-3310
48	-3311
OM	-3312
အသိ	-3313
▁ex	-3314
▁လက်မ	-3315
▁မြင့်	-3316
▁ပင်လယ်	-3317
face	-3318
ရှို့	-3319
ဆက်စပ်	-3320
ော်လင့်	-3321
စုဆောင်း	-3322
St	-3323
လုပ္	-3324
▁နှစ်ခု	-3325
လ္လင်	-3326
inder	-3327
ဖောင်း	-3328
▁inter	-3329
ကျြ	-3330
▁ဗီ	-3331
ငှား	-3332
▁စာရေး	-3333
ကျနော်တို့	-3334
ခုပ်	-3335
▁Dis	-3336
▁Mobile	-3337
▁ကျွန်မရဲ့	-3338
ဒို	-3339
▁ထိန်းချုပ်	-3340
ath	-3341
မွေ့	-3342
▁ပေါ	-3343
▁ဘိုး	-3344
▁ဒီနေ့	-3345
▁အဆောက်အ	-3346
ပထမဦးဆုံး	-3347
ကေ	-3348
opy	-3349
စီဂျင်	-3350
များအား	-3351
ရောင်ခြည်	-3352
ကောင်းစရာများ	-3353
မေ့	-3354
▁ရင်း	-3355
စောင့်ရှောက်	-3356
osit	-3357
vironment	-3358
ence	-3359
▁RFID	-3360
ပြီးတော့	-3361
▁ကြှနျုပျ	-3362
▁ရှာဖွေ	-3363
သောကြောင့်၊	-3364
▁၌	-3365
ိုဟ်	-3366
▁ဒေါင်း	-3367
ဲလ်	-3368
▁DC	-3369
▁ဗိ	-3370
ရမှာ	-3371
အခွင့်	-3372
ြိုဟ်	-3373
▁ရှိနေ	-3374
စျေးကွက်	-3375
▁ဥပဒေ	-3376
ကလ	-3377
ေလး	-3378
▁pre	-3379
eld	-3380
▁လုပ်ပါ	-3381
▁reserved	-3382
▁နိုဝင်ဘာလ	-3383
iber	-3384
တာနဲ့	-3385
ဝပ်	-3386
▁ကဲ	-3387
▁Manufacturer	-3388
sc	-3389
အရင်း	-3390
▁Ningbo	-3391
▁မေးခွန်း	-3392
9)	-3393
ဖျား	-3394
မည့်	-3395
▁Ret	-3396
ပါပြီ	-3397
ဖိအား	-3398
▁ဇွန်လ	-3399
▁ပေါ်မှာ	-3400
31	-3401
soft	-3402
တိတ်	-3403
tings	-3404
ကြိုးစား	-3405
ner	-3406
ဒန်	-3407
ကိုး	-3408
နှံ့	-3409
▁ခွဲ	-3410
▁Mach	-3411
စျ	-3412
▁2,	-3413
acks	-3414
ကိုက်	-3415
တရားကို	-3416
▁ပြောဆို	-3417
ကော်	-3418
▁Mod	-3419
▁တစ်ယောက်	-3420
▁ကျွမ်းကျင်	-3421
ခွက်	-3422
▁ပျက်	-3423
▁အစီအစဉ်	-3424
ulti	-3425
ပြောပါတယ်	-3426
ပြသ	-3427
▁35	-3428
▁အင်တာနက်	-3429
▁ကျုပ်တို့	-3430
▁အန်းဒရွိုက်	-3431
▁AC	-3432
▁ဆင်းရဲ	-3433
▁အဲဒါကို	-3434
လိမ့်မည်ဟု	-3435
47	-3436
ကွန်း	-3437
▁ပျော်	-3438
ကျမ်း	-3439
▁system	-3440
▁ပိုမို	-3441
▁function	-3442
ဲ႔	-3443
▁CS	-3444
▁Ma	-3445
မိန့်	-3446
ပတ်သက်	-3447
ပူဇော်	-3448
▁ကယ်တင်	-3449
စီမံကိန်း	-3450
▁စက်တင်ဘာလ	-3451
2"	-3452
▁ဩ	-3453
တဖန်	-3454
▁ပြည်နယ်	-3455
gl	-3456
စည်	-3457
▁IP	-3458
inal	-3459
မြား	-3460
▁ဒါနဲ့	-3461
▁ရွ	-3462
▁ဆွဲ	-3463
ရှိပြီး	-3464
ရောင်းချ	-3465
▁upd	-3466
ယွင်း	-3467
ကြေးငွေ	-3468
ခရီးစဉ်	-3469
900	-3470
ဘက်၌	-3471
▁ဆယ်	-3472
ans	-3473
ript	-3474
▁ရယူ	-3475
တတ်သော	-3476
ကျစရိတ်	-3477
▁ဆောင်း	-3478
လမ်းကြောင်း	-3479
ts	-3480
▁ဂုဏ်	-3481
MC	-3482
2"&	-3483
ေရာ	-3484
▁ဤသည်	-3485
▁အသင်း	-3486
နှိပ်ပါ	-3487
ကုန်သွယ်	-3488
ဇုန်	-3489
အဆင်	-3490
တော်၏	-3491
အားပေး	-3492
▁Casting	-3493
▁Gu	-3494
ရိသတ်	-3495
▁ကျန်	-3496
▁မိုက်	-3497
▁ပြင်ဆင်	-3498
နေရ	-3499
▁He	-3500
....	-3501
▁ပွဲ	-3502
စင်တာ	-3503
လို့ရ	-3504
▁Phone	-3505
ဖို့လို	-3506
▁ထုတ်လုပ်သူ	-3507
▁3.	-3508
▁feat	-3509
▁ဒီဂရီ	-3510
▁%	-3511
ကြတဲ့	-3512
သောအရာ	-3513
မေးခွန်း	-3514
▁အသက်ရှင်	-3515
▁၁၈	-3516
▁တစ်ခါ	-3517
▁ထောင်	-3518
နည်းလမ်း	-3519
ဆိတ်	-3520
▁ပုဂ္ဂ	-3521
▁အခန်း	-3522
▁ဥရောပ	-3523
အင်္ကျီ	-3524
အာင္	-3525
res	-3526
▁လည်	-3527
ည့်အဝ	-3528
ဧရိယာ	-3529
▁plug	-3530
assword	-3531
eed	-3532
ular	-3533
▁cont	-3534
နွေ	-3535
ၽြန္	-3536
▁Cheat	-3537
▁သက်သေ	-3538
▁ပုံရိပ်	-3539
3,	-3540
စတာ	-3541
လွှမ်း	-3542
▁အမိန့်	-3543
-10	-3544
ောကျ	-3545
▁ဆင်	-3546
လိမ့်မည်	-3547
▁အီးမေးလ်	-3548
▁Environment	-3549
ခရစ်	-3550
▁ကီလို	-3551
5)	-3552
အနက်	-3553
▁ပလပ်စတစ်	-3554
▁မိမိတို့	-3555
-19	-3556
ဒဏ်	-3557
▁rights	-3558
▁Res	-3559
▁your	-3560
မြှင့်	-3561
oh	-3562
ဓါတ်	-3563
စီမံခန့်ခွဲ	-3564
cs	-3565
ဟော	-3566
▁fl	-3567
လုတ်	-3568
ipment	-3569
စရိုက်	-3570
▁စောင့်	-3571
rol	-3572
အီး	-3573
ဖမ်း	-3574
▁ဂျပ	-3575
▁ကျန်းမာရေး	-3576
အလဲ	-3577
ွမ်	-3578
ပုဒ်	-3579
▁Med	-3580
▁ကဒ်	-3581
ရှိနေ	-3582
ော့ချ	-3583
၎င်း၏	-3584
▁panel	-3585
arb	-3586
ပါဝင်သည်	-3587
တို႔	-3588
▁Des	-3589
icator	-3590
▁အမှန်	-3591
▁အခြေအနေ	-3592
ခြားနားသော	-3593
ply	-3594
▁နိ	-3595
▁စဉ်း	-3596
ari	-3597
မလဲ	-3598
နာက္	-3599
ွန့်	-3600
▁Main	-3601
64	-3602
▁iOS	-3603
▁polyester	-3604
DF	-3605
ဝံ	-3606
ကော	-3607
▁Panel	-3608
▁ဂျပန်	-3609
အခြေအနေ	-3610
▁ဆက်စပ်	-3611
ညွှန်းကိန်း	-3612
ည့္	-3613
ible	-3614
မှာ၊	-3615
တော်များ	-3616
ဖြစ်သည်	-3617
အဆောက်အ	-3618
န္ဓာကိုယ်	-3619
စမတ်	-3620
▁ယင်း	-3621
ပြည့်စုံ	-3622
ရန်အတွက်	-3623
▁အတိုင်း	-3624
ulator	-3625
▁ဒါပေမယ့်	-3626
မပြတ်	-3627
▁အမှုန့်	-3628
▁On	-3629
▁se	-3630
ကိစ္စ	-3631
နာမည်	-3632
▁Pack	-3633
အလေးချိန်	-3634
ည့္	-3635
work	-3636
ေၾကာ	-3637
လက်ခုပ်	-3638
နိုင်သည်	-3639
▁Environmental	-3640
23	-3641
▁ကူညီ	-3642
▁ကြေး	-3643
...]	-3644
ဂျစ်တယ်	-3645
6"	-3646
:00	-3647
▁90	-3648
အထက်	-3649
▁Archiv	-3650
တည်းဟူသော	-3651
ဗြ	-3652
ပရို	-3653
amsung	-3654
▁ပရောဖက်	-3655
တီမီတာ	-3656
မင်းကြီး	-3657
".	-3658
ဆွေ	-3659
▁EUR	-3660
▁MPT	-3661
▁တို	-3662
▁ရေခဲ	-3663
ပတ်လည်	-3664
နိုင်တယ်။	-3665
▁ဇူလိုင်လ	-3666
TS	-3667
play	-3668
ရွေး	-3669
အဘယ်သူမျှမ	-3670
▁ကျောင်းသား	-3671
အဲ	-3672
ဉ်ကျေး	-3673
ပြုပြင်	-3674
ပြောင်းအလဲ	-3675
ures	-3676
ဝိုင်း	-3677
▁မတရား	-3678
▁တစ်နှစ်	-3679
▁အပေါင်း	-3680
ယော	-3681
မှု၊	-3682
▁ဟို	-3683
သေချာ	-3684
ထားပြီး	-3685
မီနီယမ်	-3686
▁ခရိုင်	-3687
နိုင်ပါသည်	-3688
▁that	-3689
▁--	-3690
over	-3691
န္န	-3692
▁2011	-3693
▁တိုင်	-3694
န့်ကျင်	-3695
▁ခြောက်	-3696
▁ျဖစ္	-3697
ကြည့်ရှု	-3698
▁ဘုရားသခင်သည်	-3699
SI	-3700
တူး	-3701
▁Or	-3702
ilic	-3703
▁ကြာ	-3704
ပြင်ဆင်	-3705
▁သီချင်း	-3706
▁Pay	-3707
ပြည့်	-3708
▁မြောက်	-3709
▁စဉ်းစား	-3710
air	-3711
လျှပ်စစ်	-3712
▁ဖွဲ့စည်း	-3713
အူ	-3714
စို့	-3715
▁နက်	-3716
▁Power	-3717
DC	-3718
fig	-3719
ole	-3720
မမူ	-3721
▁45	-3722
ဖြစ်၍	-3723
နှိုင်း	-3724
97	-3725
une	-3726
▁MB	-3727
ၽြန္ေတာ္	-3728
▁ကွဲပြား	-3729
▁ဆုံးဖြတ်	-3730
▁လွန်ခဲ့တဲ့	-3731
ames	-3732
အကွာအဝေး	-3733
▁ဦးနှောက်	-3734
သောသူတို့သည်	-3735
ကူအညီ	-3736
▁မိသားစု	-3737
▁Equipment	-3738
▁ag	-3739
▁မှစ	-3740
ဖက်ရှင်	-3741
ြပ်	-3742
ချဲ့	-3743
သူတို့ကို	-3744
ဋိညာဉ်	-3745
အင်ဂျင်	-3746
ကတ်	-3747
▁နယ်	-3748
ဘက်ဆိုင်ရာ	-3749
▁Microsoft	-3750
အလယ်	-3751
▁add	-3752
ချောင်း	-3753
▁၁၅	-3754
ီးယား	-3755
▁ထည့်	-3756
လို႔	-3757
လှစ်	-3758
▁ကိုယ်တော်ကို	-3759
PA	-3760
ရဲ႕	-3761
အရပ်၌	-3762
အရှင်	-3763
တ္ထု	-3764
ဖွား	-3765
▁ဝက်	-3766
▁ကူးစက်	-3767
▁Samsung	-3768
ပြည်ပြည်ဆိုင်ရာ	-3769
aj	-3770
4"&	-3771
ခက်	-3772
မပါ	-3773
နေတယ်	-3774
▁ဆိုလို	-3775
▁ဆေးရုံ	-3776
▁အမျိုးမျိုး	-3777
="6	-3778
မြန်း	-3779
တပ်ဆင်	-3780
ဖောက်သည်	-3781
ector	-3782
ition	-3783
လိုက္	-3784
the	-3785
ချမ်း	-3786
အမှုကို	-3787
cl	-3788
▁မဲ	-3789
ပွင့်	-3790
▁Tags	-3791
▁ျပ	-3792
ယဇ်	-3793
▁[...]	-3794
အများစု	-3795
▁ကိရိယာ	-3796
fl	-3797
အဘိ	-3798
စလုံး	-3799
▁ID	-3800
ချီး	-3801
▁ရှေး	-3802
▁application	-3803
ps	-3804
▁300	-3805
▁150	-3806
နမူနာ	-3807
▁လက်ခံ	-3808
ပြီးမှ၊	-3809
▁တယောက်	-3810
ound	-3811
တမန်	-3812
▁ပြိုင်	-3813
▁တန်ဖိုး	-3814
ဖြစ်ပါသည်။	-3815
▁ဒေါင်းလုပ်	-3816
olog	-3817
▁Qual	-3818
ရောနစ်	-3819
သောသူ၊	-3820
▁ကျေးဇူးပြု	-3821
▁Le	-3822
▁ထံ	-3823
land	-3824
ပျံ့	-3825
မပြု	-3826
သန့်	-3827
ရွှင်	-3828
လက်ထရောနစ်	-3829
▁တို့ကို	-3830
▁ကိုယ်တော်၏	-3831
အိ	-3832
▁Net	-3833
▁ရှု	-3834
ကူးစက်	-3835
▁ပြင်သစ်	-3836
ယ်လ်	-3837
▁he	-3838
▁ဇာ	-3839
▁File	-3840
▁Mac	-3841
နာပြု	-3842
မယ်၊	-3843
လံုး	-3844
ွဲ့	-3845
▁မီတာ	-3846
တွေ့ရှိ	-3847
ene	-3848
▁Non	-3849
▁အသား	-3850
ရှင်းလင်း	-3851
▁Protection	-3852
88	-3853
SP	-3854
ဗု	-3855
အတြက္	-3856
တုရန်း	-3857
လီကျူး	-3858
BS	-3859
te	-3860
ern	-3861
▁ခေတ်	-3862
▁မှို	-3863
နေတယ်။	-3864
▁အောက်ဆီဂျင်	-3865
▁ဆန်းစစ်ခြင်း	-3866
ကြေ	-3867
ရိက	-3868
▁တွေး	-3869
▁ကောင်	-3870
▁ဧပြီလ	-3871
ကမ်းလှမ်း	-3872
ကောင်းသော	-3873
▁Injection	-3874
▁ကိုယ်ပိုင်	-3875
ုဒ္	-3876
ေသာ	-3877
ပြီး၊	-3878
▁မဂ္ဂ	-3879
ခြင်းမရှိ	-3880
▁ကွန်ပျူတာ	-3881
71	-3882
မဲ	-3883
ယ်ယာ	-3884
သတ္တ	-3885
▁လူများ	-3886
uan	-3887
လန်း	-3888
▁Light	-3889
▁ခရီးသွား	-3890
▁ကျွန်ုပ်တို့	-3891
ble	-3892
ကီး	-3893
ကြပ်	-3894
▁Dep	-3895
▁East	-3896
သဖြင့်	-3897
ဖယ်ရှား	-3898
▁ဆောင်ရွက်	-3899
ထွေ	-3900
ဏန်း	-3901
တိကျ	-3902
ဆက်ဆံ	-3903
မှုတ်	-3904
တည်ထောင်	-3905
တွေအတွက်	-3906
ယခု	-3907
မဂ္ဂ	-3908
▁USB	-3909
▁Tube	-3910
▁Pulse	-3911
န်ဆောင်မှု	-3912
▁tag	-3913
▁1000	-3914
▁တည်း	-3915
▁Software	-3916
ဗ်	-3917
▁အန	-3918
စုပ်	-3919
▁တယ်	-3920
▁ကိုး	-3921
မြှောက်	-3922
▁Lo	-3923
ပြည်၌	-3924
▁Slot	-3925
▁Comments	-3926
2,	-3927
တွယ်	-3928
အမြင့်	-3929
ဆွေးနွေး	-3930
၏သား	-3931
လိမ့်မည်	-3932
ပြန်လည်ဆန်း	-3933
IM	-3934
အားလုံးကို	-3935
သက္ကာ	-3936
▁ရထား	-3937
ရုပ်ရှင်	-3938
▁ရု	-3939
တန်ဖိုး	-3940
ခရီးသွား	-3941
ပေးခြင်း	-3942
▁website	-3943
TC	-3944
ခွင်	-3945
အိုင်	-3946
▁တပါး	-3947
အထောက်အ	-3948
▁သုံးစွဲ	-3949
AL	-3950
မြူ	-3951
hits	-3952
▁Bit	-3953
နိုငျ	-3954
▁အလား	-3955
မှုနှင့်	-3956
ကျေးဇူးတင်	-3957
ဘု	-3958
ယေ	-3959
ane	-3960
enn	-3961
ဆိုလို	-3962
ပါဝါ	-3963
transposh	-3964
▁လူတိုင်း	-3965
less	-3966
ဘွယ်	-3967
ကျွန်း	-3968
▁တရားဝင်	-3969
▁ထုပ်ပိုး	-3970
ခုကို	-3971
▁Inst	-3972
ပျံသန်း	-3973
▁အခွင့်	-3974
▁ထာဝရဘုရားကို	-3975
▁Ult	-3976
နေရာမှာ	-3977
▁ထင်ရှား	-3978
ute	-3979
China	-3980
attoo	-3981
▁မိတ်	-3982
ခဲ့တယ်	-3983
စဉ်ကို	-3984
ရပ်များ	-3985
ပါလိမ့်မယ်	-3986
မြန်နှုန်း	-3987
ays	-3988
▁မရ	-3989
ကြပါ	-3990
▁Dec	-3991
▁LTD	-3992
ႏွင့္	-3993
လက်ရှိ	-3994
ational	-3995
ဆိုင်ကယ်	-3996
စ်ဂျစ်တယ်	-3997
တန်ဆာ	-3998
▁ကြို	-3999
▁ကၽြန္ေတာ္	-4000
▁ပထမဦးဆုံး	-4001
တိအကျ	-4002
အမြန်	-4003
ထောက်ခံ	-4004
▁မု	-4005
မိုက်	-4006
▁Comp	-4007
▁World	-4008
မယ်ဆိုရင်	-4009
နေသည်	-4010
▁ဖောက်	-4011
▁စုစုပေါင်း	-4012
▁မိန့်တော်မူသည်	-4013
န္မာ	-4014
ရှက်	-4015
လျှို	-4016
အချက်	-4017
အစိုးရ	-4018
▁Group	-4019
▁မီးရှို့	-4020
အတွေ့အကြုံ	-4021
သက်ရောက်မှု	-4022
▁hour	-4023
▁ပြင်း	-4024
စွမ်းအင်	-4025
▁လုံခြုံ	-4026
ller	-4027
ivers	-4028
any	-4029
rid	-4030
▁are	-4031
ဆက်သွယ်ပါ	-4032
ကိုယ်ပိုင်	-4033
▁စိ	-4034
▁မေလ	-4035
▁အရင်	-4036
မိန်းမ	-4037
▁Botou	-4038
▁တံခါး	-4039
▁သစ္စာ	-4040
▁ထောက်ပံ့	-4041
ေကာ	-4042
လီယံ	-4043
ဆီကို	-4044
ိုးရိမ်	-4045
ကြပါတယ်။	-4046
ထိပ်တန်း	-4047
မြို့သို့	-4048
SA	-4049
▁ပယ်	-4050
တစ်စီး	-4051
အီ	-4052
ပြာ	-4053
▁(5	-4054
▁Sup	-4055
ဆိုင်သော	-4056
တက္ကသိုလ်	-4057
ကုန်ပစ္စည်း	-4058
ပြည်ထောင်စု	-4059
be	-4060
▁စမတ်	-4061
နိုင်စွမ်း	-4062
ပြီးလျှင်၊	-4063
ys	-4064
▁ပြေး	-4065
သုံးစွဲ	-4066
▁ရာခိုင်နှုန်း	-4067
89	-4068
▁FX	-4069
သလော။	-4070
OT	-4071
riev	-4072
ကဏ္ဍ	-4073
ဘာလဲ	-4074
လွှား	-4075
ဆိုတဲ့	-4076
8)	-4077
ris	-4078
ိဳး	-4079
oint	-4080
▁32	-4081
ault	-4082
စ်မှား	-4083
စဉ်းစား	-4084
▁ဖြစ်စေ	-4085
စာနယ်ဇင်း	-4086
▁အဲ့	-4087
▁အနုပညာ	-4088
▁ဓါတ်ပုံ	-4089
▁မော်ဒယ်နံပါတ်	-4090
▁86	-4091
▁ပညတ်	-4092
ကုသမှု	-4093
▁China	-4094
▁ကြိမ်	-4095
ထုပ်ပိုး	-4096
CH	-4097
ပမာဏ	-4098
▁အာရ	-4099
▁ခန့်	-4100
▁ဆောက်	-4101
▁အင်္ဂလိပ်	-4102
လှည့်	-4103
သူသည်	-4104
▁ဘုန်း	-4105
ုပ်ထွေး	-4106
ထုတ်ပြန်	-4107
▁ဗားရှင်း	-4108
▁မျက်နှာပြင်	-4109
uy	-4110
စိုး	-4111
rieved	-4112
▁ထိုင်း	-4113
▁သမိုင်း	-4114
အများအပြား	-4115
အသား	-4116
▁without	-4117
box	-4118
မာန်	-4119
▁တတ်	-4120
ပြီဟု	-4121
တော်မမူ	-4122
ပတ်လုံး	-4123
▁စစ်ဆေး	-4124
elop	-4125
ping	-4126
ချပ်	-4127
ဥစ္စာ	-4128
▁Size	-4129
▁အရေအတွက်	-4130
ဆိုင်း	-4131
▁စိုက်	-4132
ခဲ့တယ်၊	-4133
ged	-4134
iss	-4135
▁လု	-4136
ream	-4137
ကတည်းက	-4138
မြို့၌	-4139
လိုက်တယ်။	-4140
▁အလေးချိန်	-4141
MM	-4142
par	-4143
view	-4144
ေရိက	-4145
▁19,	-4146
▁နွေ	-4147
နားလည်	-4148
▁Quality	-4149
ကြ။	-4150
နင်း	-4151
▁ဆိုး	-4152
oe	-4153
ကဲ	-4154
ဟူ၍	-4155
▁ဟေ	-4156
oooo	-4157
▁အခါ	-4158
ရှိရာ	-4159
အုပ်စု	-4160
▁ပတ်ဝန်းကျင်	-4161
els	-4162
ension	-4163
▁Dress	-4164
▁ခိုင်	-4165
ဦးဆောင်	-4166
▁ဆိုတဲ့	-4167
ဆင့်	-4168
▁စွမ်းအင်	-4169
▁ကုသ	-4170
▁သင်တို့၏	-4171
▁4.	-4172
▁ပုံနှိပ်	-4173
hor	-4174
ifi	-4175
▁Fit	-4176
အပြစ်	-4177
ital	-4178
▁သေး	-4179
နှစ်ဦး	-4180
▁ဖြစ်နိုင်	-4181
kg	-4182
တံ့	-4183
ဆိုဒ်	-4184
သတ္တိ	-4185
▁လိင်	-4186
▁အနောက်	-4187
ပစ္စည်းကိရိယာ	-4188
▁ပစ်	-4189
အလမ်း	-4190
▁ကိုမှ	-4191
ကျန်းမာရေး	-4192
▁လမ်းညွှန်	-4193
ချိ	-4194
သင်တို့	-4195
▁ကိုယ်တိုင်	-4196
ဆင့်	-4197
ervice	-4198
ဝိညာဉ်	-4199
▁ညွှန်	-4200
▁Gal	-4201
တဆင့်	-4202
ယူမှု	-4203
▁အလယ်	-4204
စီရင်ခံ	-4205
wordpress	-4206
▁ကျေးဇူးတင်	-4207
▁ရက်နေ့တွင်	-4208
လက်ခုပ်သံများ	-4209
▁ကျွန်တော်တို့ဟာ	-4210
emb	-4211
အခု	-4212
zhou	-4213
ဝမ်း	-4214
▁အနေ	-4215
သူကို	-4216
▁အင်္ဂါ	-4217
အပေါ်မှာ	-4218
▁စေလွှတ်	-4219
မည်း	-4220
ပြောဆို	-4221
တောက်ခြင်း	-4222
အုံ	-4223
ဘုတ်	-4224
ember	-4225
ency	-4226
ility	-4227
▁ရလဒ်	-4228
အကြံပေး	-4229
▁ဘော	-4230
▁တုံ့ပြန်	-4231
▁ဖြေရှင်း	-4232
500	-4233
ပဲ။	-4234
▁ဘယ္	-4235
▁သူတို့ဟာ	-4236
tv	-4237
7"&	-4238
အိုး	-4239
▁Che	-4240
သွန်း	-4241
ပျောက်	-4242
XL	-4243
▁SP	-4244
ကိုယ်ကို	-4245
ဝှ	-4246
urg	-4247
မ်းမျှ	-4248
▁အခြားသော	-4249
နာမ	-4250
▁Sm	-4251
▁le	-4252
▁ပဲ	-4253
ဖြည့်	-4254
အစွမ်း	-4255
▁အချက်	-4256
▁ကာစီနို	-4257
▁လက်တွေ့	-4258
ကျွမ်းကျင်	-4259
84	-4260
▁as	-4261
ange	-4262
အဆက်	-4263
ဥပမာ	-4264
▁နာမ	-4265
▁အရည်	-4266
လည်ပတ်	-4267
နေထိုင်	-4268
အန္တရာယ်	-4269
အလွိုင်း	-4270
လောင်းကစား	-4271
▁ဆာ	-4272
ကလစ်	-4273
လက်ခံ	-4274
ဖြစ်တဲ့	-4275
OW	-4276
▁ဓာ	-4277
rain	-4278
▁အနက်	-4279
ဖက်တဲ့	-4280
နည်းဆုံး	-4281
ပို့ဆောင်	-4282
လုံခြုံရေး	-4283
▁—	-4284
သည်၊	-4285
▁Long	-4286
ကြပြီ။	-4287
▁ဖွံ့ဖြိုး	-4288
ူပါ	-4289
မကြာ	-4290
စခန်း	-4291
စာရွက်	-4292
ခုနှစ်တွင်	-4293
AP	-4294
rap	-4295
▁နီ	-4296
ပေးဖို့	-4297
ဗွန်	-4298
▁Get	-4299
▁အာရှ	-4300
ကောင်းမွန်	-4301
▁အများဆုံး	-4302
▁မြင့်မားသော	-4303
ပိုင်းဆိုင်ရာ	-4304
ရွှေ	-4305
▁ပိုး	-4306
▁ဇန်နဝါရီ	-4307
TM	-4308
▁ဖတ်	-4309
▁Apple	-4310
▁ဟောပြော	-4311
တော်နှင့်	-4312
ပုဂ္ဂိုလ်	-4313
▁ဒါပေမယ့်	-4314
VID	-4315
board	-4316
ization	-4317
ကြီးသော	-4318
▁နောက်တဖန်	-4319
AM	-4320
The	-4321
ကက်	-4322
▁ခပ်	-4323
ပြန့်	-4324
အမိန့်	-4325
▁လိမ့်	-4326
▁အမျက်	-4327
▁ကြည့်ရှု	-4328
▁သို့ရာတွင်	-4329
EC	-4330
mese	-4331
▁Cent	-4332
တီထွင်	-4333
သီချင်း	-4334
▁ဖော်ပြ	-4335
မြင့်မား	-4336
▁အဲဒီမှာ	-4337
▁Retrieved	-4338
▁en	-4339
ထားသည်	-4340
▁စက္ကူ	-4341
မယ်လို့	-4342
ယူခြင်း	-4343
▁စာရွက်	-4344
▁ရုပ်ပုံ	-4345
ဇာတ	-4346
eter	-4347
▁And	-4348
▁Anti	-4349
▁Tattoo	-4350
▁Unlimited	-4351
▁အလိုအလျောက်	-4352
/0	-4353
▁im	-4354
ရွေ့	-4355
asonic	-4356
ပင်လယ်	-4357
▁Project	-4358
▁09	-4359
▁လိုင်း	-4360
▁from	-4361
တော်မူပြီ။	-4362
▁အကျွန်ုပ်ကို	-4363
ye	-4364
▁Opt	-4365
ကွန်ပျူတာ	-4366
▁တကယ်တော့	-4367
ဒိတ်	-4368
နီယာ	-4369
ေတြကို	-4370
အကြာ	-4371
▁ဘို့	-4372
ိုလ်ခြေ	-4373
▁အရွယ်အစား	-4374
▁MT	-4375
uang	-4376
မှုဟာ	-4377
onus	-4378
ဆံုး	-4379
▁device	-4380
နှော	-4381
▁ပြသ	-4382
▁Chip	-4383
▁ရန်ကုန်	-4384
▁ပင်မ	-4385
▁လိပ်	-4386
▁ပိုင်	-4387
၏ဟု	-4388
ရွံ့	-4389
▁မည်။	-4390
▁ဖျက်ဆီး	-4391
ပတ်ဝန်းကျင်	-4392
▁အမေရိကန်ဒေါ်လာ	-4393
အလှ	-4394
ခွန်	-4395
ထုပ်	-4396
▁Heng	-4397
▁တိုးတက်	-4398
-01	-4399
စော	-4400
▁out	-4401
▁ကျယ်	-4402
နေရာကို	-4403
▁ပျောက်	-4404
33	-4405
ထာ	-4406
ကပတ်	-4407
▁ext	-4408
▁အသေ	-4409
▁ကြယ်	-4410
▁ဘယ်သူ	-4411
မှုစနစ်	-4412
ပေါင်းစပ်	-4413
▁လူနာ	-4414
▁စီမံကိန်း	-4415
ုး	-4416
အရည်	-4417
ဖြန့်	-4418
▁ဖွင့်	-4419
▁ဘဏ္ဍာ	-4420
▁ကြော်ငြာ	-4421
▁လုပ်ဖို့	-4422
စေခြင်းငှါ၊	-4423
အကြောင်းအရာ	-4424
▁ကပြောပါတယ်	-4425
OB	-4426
80%	-4427
▁mon	-4428
▁2009	-4429
▁Related	-4430
▁သူတို့၏	-4431
စွမ်းဆောင်ရည်	-4432
မု	-4433
▁Cap	-4434
▁OEM	-4435
▁Free	-4436
စုစုပေါင်း	-4437
bar	-4438
den	-4439
တွင်၊	-4440
လာတဲ့	-4441
▁hourly	-4442
စေ။	-4443
အာဏာ	-4444
▁Cyl	-4445
▁လော့	-4446
▁ယာကုပ်	-4447
ခြေစိုက်	-4448
▁Deposit	-4449
ဖြစ်ကြောင်း	-4450
rav	-4451
▁ww	-4452
▁www	-4453
▁ရေနံ	-4454
▁မျက်စိ	-4455
▁ကြောင့်	-4456
▁ပေါ်တွင်	-4457
wax	-4458
နည္း	-4459
▁မဟာ	-4460
ကျတော့	-4461
ခေါ်ဆို	-4462
▁နေထိုင်	-4463
▁withoutwax	-4464
ote	-4465
သော။	-4466
▁သင့်ရဲ့	-4467
led	-4468
▁မ်	-4469
ပုံနှိပ်	-4470
UN	-4471
ward	-4472
ဂုဏ်	-4473
ခြမ်း	-4474
ရည်ရွယ်	-4475
စ်ည	-4476
▁Rot	-4477
အင်္ဂါ	-4478
▁ဖွင့်	-4479
▁ပရိသတ်	-4480
ဉ်းကပ်	-4481
▁အကျွန်ုပ်သည်	-4482
4,	-4483
aid	-4484
ပါတဲ့	-4485
▁link	-4486
▁အန္တရာယ်	-4487
▁၏။	-4488
▁ငြိမ်	-4489
▁version	-4490
▁မော်တော်ကား	-4491
ဒိ	-4492
▁ခွ	-4493
▁Rik	-4494
▁သင်္ဘော	-4495
66	-4496
သခ	-4497
▁Oct	-4498
▁အီရန်	-4499
အုပ်ချုပ်	-4500
လှေ	-4501
ents	-4502
▁သိန်း	-4503
1"	-4504
witch	-4505
အကြိမ်	-4506
▁စင်တီမီတာ	-4507
ပ္ပါ	-4508
▁ဒုစရိုက်	-4509
▁ကမ်းလှမ်း	-4510
▁ဖြစ်ပါတယ်	-4511
▁အကြောင်းက	-4512
▁မော်လီကျူး	-4513
ဘ်	-4514
oto	-4515
အသေးစိတ်	-4516
ပိုင်းတွင်	-4517
အမျိုးသမီး	-4518
▁ကျွန်မကို	-4519
ategor	-4520
ာရောင်	-4521
စိတ်ကူး	-4522
▁ပညာရေး	-4523
▁ယောက်ျား	-4524
fess	-4525
ဘူး၊	-4526
▁Cert	-4527
တွေပါ။	-4528
လုပ်ဖို့	-4529
▁အဓိ	-4530
ပေးချေမှု	-4531
ull	-4532
▁Dev	-4533
မီလီမီတာ	-4534
တစ်ခုတည်း	-4535
မွေ	-4536
သည်ကား၊	-4537
▁သုတေသန	-4538
▁နည်းနည်း	-4539
▁·	-4540
ေဆာ	-4541
ဖလား	-4542
ဟုတ္	-4543
▁ကိုင်	-4544
ification	-4545
လူတို့သည်	-4546
▁အသေးစိတ်	-4547
tle	-4548
ရန္	-4549
ယူနစ်	-4550
▁ဓာတု	-4551
▁အပြင်	-4552
MB	-4553
ales	-4554
ဘိုး	-4555
ဘုယျ	-4556
မကြီး	-4557
▁plugin	-4558
ster	-4559
▁Del	-4560
▁Lin	-4561
ဝယ်ယူ	-4562
▁virtual	-4563
▁အကြောင်းအရာ	-4564
သွင်	-4565
အသတ်	-4566
ပါနဲ့	-4567
▁အင်ဂျင်	-4568
သားတို့သည်	-4569
▁ပါဝါ	-4570
ဖန်ဆင်း	-4571
ကောင်းစွာ	-4572
▁ဝိညာဉ်	-4573
မှုများကို	-4574
pp	-4575
lor	-4576
စူး	-4577
▁ေတြ	-4578
▁မြစ်	-4579
ခြံမြေ	-4580
အကောင့်	-4581
လဲဆိုတော့	-4582
ES	-4583
RO	-4584
ose	-4585
▁De	-4586
သဘာဝ	-4587
▁ကျမ်း	-4588
7)	-4589
▁ဟူ	-4590
▁၁၂	-4591
တိပ်	-4592
▁Jul	-4593
ထဲကို	-4594
ထွန်း	-4595
▁သူငယ်	-4596
တာပေါ့။	-4597
ဥ်	-4598
သလဲ	-4599
ဘော်	-4600
လွန်း	-4601
▁code	-4602
▁ထိုး	-4603
▁ရော်	-4604
▁အာဏာ	-4605
▁ဖေဖော်	-4606
ပိန်	-4607
▁နှလုံး	-4608
စိတ်ဝင်စား	-4609
ဋ္	-4610
သက်သေ	-4611
မှတပါး	-4612
အတည်ပြု	-4613
ချိုးခန်း	-4614
▁ကိုယ်စား	-4615
py	-4616
▁Is	-4617
utton	-4618
က်ဆစ်	-4619
▁pack	-4620
44	-4621
FC	-4622
▁ဝမ်းမြောက်	-4623
[1]	-4624
rui	-4625
▁ဝေ	-4626
raft	-4627
စာကို	-4628
▁နွား	-4629
ကျင်းပ	-4630
3]	-4631
ဘဏ်	-4632
▁နှိပ်	-4633
သင်္ဘော	-4634
ရှင်များ	-4635
ကာသ	-4636
စတြ	-4637
▁Te	-4638
▁at	-4639
▁Tech	-4640
▁အဖြူ	-4641
▁ကြမ်း	-4642
မှန်ကန်	-4643
ိမ်းရောင်	-4644
▁နှင့်အတူ	-4645
ဉ်းဆဲ	-4646
▁ထံမှ	-4647
ကြီးကို	-4648
ဆုံးဖြတ်	-4649
alk	-4650
ings	-4651
ဆိုတာကို	-4652
▁စတုရန်း	-4653
fessional	-4654
▁ကုန်သွယ်	-4655
▁ထုတ်လုပ်မှု	-4656
▁ငှ	-4657
▁ဧရာ	-4658
▁Copy	-4659
▁အာမခံ	-4660
Tube	-4661
က္ခာ	-4662
▁def	-4663
▁ဘာဖြစ်	-4664
ဟူမူကား၊	-4665
▁ခရီးစဉ်	-4666
▁၎င်းတို့	-4667
ထိန်းသိမ်း	-4668
စောင့်ရှောက်	-4669
med	-4670
ron	-4671
▁မုန်	-4672
ပေးတဲ့	-4673
ကွောငျး	-4674
ဉ်ကျေးမှု	-4675
▁ဘုရားကျောင်း	-4676
▁Zh	-4677
rive	-4678
▁နားမ	-4679
▁လေဆိပ်	-4680
သူ၏	-4681
▁par	-4682
ဘောင်	-4683
ရွှေ့	-4684
ယောင်း	-4685
▁Brush	-4686
▁သရုပ်	-4687
ခွင့်ပြု	-4688
▁Rikoooo	-4689
ကျွန်တော်တို့ကို	-4690
uge	-4691
ခို	-4692
ထဲမှ	-4693
▁လွယ်	-4694
▁ကဲ့သို့	-4695
▁စိတ်ဝင်စား	-4696
que	-4697
▁သမ	-4698
.201	-4699
▁ဒဏ်	-4700
▁ကောက်	-4701
▁ငွေကြေး	-4702
▁Cylinder	-4703
▁ပြည့်စုံ	-4704
arin	-4705
တိမ်	-4706
နှင်	-4707
ျခား	-4708
▁ant	-4709
1%80%	-4710
ပြုသော	-4711
မှတ်တမ်း	-4712
▁တို့သည်	-4713
ကျပ်	-4714
ုိင္	-4715
▁word	-4716
▁ဒီဇင်ဘာ	-4717
▁လုပ်ကိုင်	-4718
uit	-4719
urn	-4720
▁Sim	-4721
▁အမှုန့်	-4722
▁ပလတ်စတစ်	-4723
ဖြစ်ကြသည်။	-4724
ူင်	-4725
▁ျမ	-4726
သက်တမ်း	-4727
▁CB	-4728
နေ့၌	-4729
ပည့်	-4730
လည္း	-4731
သလား	-4732
▁အရေးကြီး	-4733
ley	-4734
အက်	-4735
ideo	-4736
ီတလီ	-4737
ရတယ်။	-4738
▁ကင်း	-4739
သမိုင်း	-4740
▁အသေးစား	-4741
▁မူလစာမျက်နှာ	-4742
တဲ	-4743
.10	-4744
မြှုပ်နှံ	-4745
▁ဗိုင်းရပ်စ်	-4746
▁tr	-4747
မိမိ	-4748
ဖြစ်ကြ	-4749
သိများ	-4750
ပူးပေါင်း	-4751
▁ဖြစ်ပါသည်	-4752
ညျး	-4753
▁IC	-4754
glish	-4755
ဆင်ရေး	-4756
▁ေနာက္	-4757
▁မောင်း	-4758
ကောင်းကင်	-4759
မှတ်ပုံတင်	-4760
ည့်အဝ	-4761
▁ခြင်း	-4762
နေပါတယ်။	-4763
နတ်	-4764
ူဟာ	-4765
ages	-4766
ရေနံ	-4767
▁Hengrui	-4768
▁3,	-4769
▁AT	-4770
နန်း	-4771
▁Cor	-4772
▁အမ်	-4773
▁ဇန္န	-4774
သင်သည်	-4775
များနှင့်အတူ	-4776
ရာဇ	-4777
astic	-4778
ခေါင်	-4779
▁နမူနာ	-4780
▁ပြည့်	-4781
▁သေချာ	-4782
ရှိတယ်။	-4783
mat	-4784
▁GB	-4785
သိပ်	-4786
ေျပာ	-4787
▁Int	-4788
▁Burmese	-4789
▁အညွှန်းကိန်း	-4790
ISO	-4791
ပြု၍	-4792
▁ရာစု	-4793
▁Multi	-4794
ဖက်ရှင်နယ်	-4795
ကြုံ	-4796
သား၊	-4797
ဖြည့်	-4798
ထက်ပို	-4799
▁ကျိန်	-4800
▁မြင်း	-4801
▁ဖုန်မှုန့်	-4802
ရော်ဖက်ရှင်နယ်	-4803
လူ့	-4804
blog	-4805
▁act	-4806
▁COVID	-4807
▁အတော်	-4808
အောက်မှာ	-4809
▁အော်တို	-4810
▁တိရစ္ဆာန်	-4811
▁လေကြောင်းလိုင်း	-4812
-20	-4813
ဦးရေ	-4814
▁ပါ။	-4815
▁ပံ့	-4816
▁မိဘ	-4817
ablet	-4818
figur	-4819
ကလုန်း	-4820
န့်ကျင်	-4821
▁ညီအစ်ကို	-4822
▁မြန်နှုန်း	-4823
yc	-4824
raw	-4825
▁ကံ	-4826
very	-4827
နယူး	-4828
▁PDF	-4829
▁ind	-4830
က္ခရာ	-4831
▁ခန့်	-4832
▁တချို့	-4833
စည်းကမ်း	-4834
▁လူမီနီယမ်	-4835
HS	-4836
atr	-4837
ယုံ	-4838
▁က်	-4839
▁ရို	-4840
ပုံပြင်	-4841
အထူးပြု	-4842
▁အဘိဓါန်	-4843
CoV	-4844
ကိုမ	-4845
အက်စ်	-4846
ပေါ်လာ	-4847
စင်ကြယ်	-4848
ထည့်သွင်း	-4849
လက်ဖောင်း	-4850
IP	-4851
၁၉	-4852
ထဲတွင်	-4853
ရိစ္ဆာန်	-4854
▁ပံ့ပိုး	-4855
စက်မှုလုပ်ငန်း	-4856
ုတ္	-4857
ွေထွေ	-4858
▁Word	-4859
▁နန်း	-4860
လေဆိပ်	-4861
သားများ	-4862
▁အနာဂတ်	-4863
▁Archives	-4864
ီယာ	-4865
ဖရိက	-4866
ငါ့ကို	-4867
▁ချီးမွမ်း	-4868
အစိတ်အပိုင်း	-4869
▁Ag	-4870
ထွား	-4871
ဘွား	-4872
▁အေး	-4873
▁high	-4874
▁ပူးပေါင်း	-4875
ove	-4876
ifier	-4877
▁Asia	-4878
နီးယား	-4879
▁ကျွန်မဟာ	-4880
js	-4881
အစု	-4882
ွှာ	-4883
▁ရောင်းချ	-4884
bag	-4885
အခ်	-4886
▁တဦး	-4887
ပ္ပါယ်	-4888
သည်မှာ	-4889
ပုံမှန်	-4890
သနည်းဟု	-4891
ကြီးများ	-4892
ဝါယာကြိုး	-4893
▁ဂိ	-4894
ရင်၊	-4895
rylic	-4896
▁သူဟာ	-4897
ို့အား	-4898
သုံးပြီး	-4899
မည်အကြောင်း၊	-4900
BC	-4901
xy	-4902
="7	-4903
ရ၏။	-4904
▁Im	-4905
ဟဇာတ	-4906
အမှတ်ပြု	-4907
အခွင့်အရေး	-4908
▁ဆောင်းပါး	-4909
▁မိန့်တော်မူ	-4910
လက္	-4911
▁Hum	-4912
နေစဉ်	-4913
တော့မှ	-4914
သူများက	-4915
coin	-4916
စိမ်	-4917
ကျန်း	-4918
လှည့်	-4919
အရောင်း	-4920
သတင်းများ	-4921
▁အကြောင်းကို	-4922
MP	-4923
တကား	-4924
သန့်	-4925
မိသားစု	-4926
တုံ့ပြန်	-4927
ကုန်ကျစရိတ်	-4928
▁နိုင်ငံရေး	-4929
▁အောက်စီဂျင်	-4930
▁→	-4931
ike	-4932
ခြင်	-4933
▁၁၉၉	-4934
▁အများစု	-4935
အသုံးပြုခြင်း	-4936
▁ကိုများအတွက်	-4937
ဘုံ	-4938
▁4,	-4939
ouch	-4940
စွပ်	-4941
▁အနီး	-4942
▁ပေါက်	-4943
ခန့်ခွဲ	-4944
မှုတွေကို	-4945
နှီးမြှုပ်နှံ	-4946
တေ	-4947
▁5.	-4948
တော့်	-4949
ပြုရန်	-4950
▁ဓာတ်ပုံ	-4951
▁ဇန္နဝါရီလ	-4952
ေနရာ	-4953
▁တခု	-4954
ကြတယ်	-4955
အမြတ်	-4956
သိပ္ပံ	-4957
အလိုက်	-4958
▁ထဲမှာ	-4959
ထူးခြား	-4960
ရှိုင်း	-4961
--	-4962
59	-4963
ana	-4964
သူက	-4965
▁လဲ	-4966
▁Read	-4967
ော်ဖြေ	-4968
▁တစ်ခုခု	-4969
သောကြောင့်	-4970
!!	-4971
▁(3	-4972
စွက်	-4973
▁ser	-4974
▁ထို့နောက်	-4975
-12	-4976
ရလဒ်	-4977
▁ရှောလု	-4978
ပိုင်ဆိုင်	-4979
▁မက်	-4980
ကြိတ်	-4981
အခွန်	-4982
▁အမွေ	-4983
ကင်မရာ	-4984
▁software	-4985
▁ကောင်းသော	-4986
ပါဟု	-4987
-2018	-4988
▁will	-4989
ဥယျာဉ်	-4990
▁ဒါဆို	-4991
တဦးတည်း	-4992
▁ဗြိတိန်	-4993
ဖို့အတွက်	-4994
NA	-4995
oot	-4996
ရှေး	-4997
ution	-4998
▁Plus	-4999
▁သောက်	-5000
မှုတစ်ခု	-5001
အနေဖြင့်	-5002
ဆုကြေးငွေ	-5003
ကျွန်ုပ်တို့၏	-5004
bal	-5005
pen	-5006
ုရိ	-5007
▁တဲ	-5008
ouse	-5009
▁Sur	-5010
▁ရှင်တို့	-5011
ကွေး	-5012
ပြန့်	-5013
▁SD	-5014
▁ago	-5015
ရေးရာ	-5016
andard	-5017
ငွေကြေး	-5018
ခဲ့ကြသည်။	-5019
ရုဏာ	-5020
▁ဇီဝ	-5021
ချည်း	-5022
▁play	-5023
▁အမြန်	-5024
▁ကင်မရာ	-5025
▁အဲဂုတ္တုပြည်	-5026
ဂံ	-5027
▁Am	-5028
▁run	-5029
jiang	-5030
▁ဆိုက်	-5031
▁ဆွေးနွေး	-5032
▁250	-5033
▁အမိ	-5034
▁Call	-5035
▁Poly	-5036
▁English	-5037
▁ဇာတ်လမ်း	-5038
စိတ်ကြိုက်	-5039
ပို့ဆောင်ရေး	-5040
▁သိကောင်းစရာများ	-5041
ဖေ	-5042
ကဲ့	-5043
▁01	-5044
▁HP	-5045
▁120	-5046
▁APK	-5047
▁Roll	-5048
▁ဓမ္မ	-5049
▁အဆင်	-5050
အနုပညာ	-5051
▁အဲဒါဟာ	-5052
▁အပါအဝင်	-5053
ၾကီး	-5054
စွန်း	-5055
လိုပဲ	-5056
▁Save	-5057
▁client	-5058
▁ကိုအတူ	-5059
သွားတယ်။	-5060
uss	-5061
▁Cre	-5062
▁One	-5063
▁ကော	-5064
လျက်ရှိ	-5065
▁အခွင့်	-5066
▁ပျက်စီး	-5067
ခ်င္	-5068
▁Pump	-5069
78	-5070
HF	-5071
ars	-5072
edust	-5073
လောဟု	-5074
▁မှား	-5075
▁သစ်သား	-5076
▁သေဆုံး	-5077
ဘာသာပြန်	-5078
ines	-5079
ပါတီ	-5080
ဗျာ။	-5081
လုန်	-5082
▁ခက်	-5083
နှင့်အ	-5084
▁Bonus	-5085
▁သူ့ရဲ့	-5086
▁ကျွန်တော်ဟာ	-5087
Sh	-5088
ထိပ်	-5089
▁အရေ	-5090
oster	-5091
▁ယာဉ်	-5092
▁ခရစ်တော်၏	-5093
▁ဆွ	-5094
ပြပွဲ	-5095
ဝှမ်း	-5096
ငှားရမ်း	-5097
▁ကိုယ်ကို	-5098
မှု၏	-5099
▁Mini	-5100
ဟိုင်း	-5101
▁စာဖတ်	-5102
သူလျှို	-5103
▁Author	-5104
လျှောက်လွှာ	-5105
GH	-5106
မိဳ	-5107
▁OS	-5108
ချည်	-5109
▁Hun	-5110
သမ္မတ	-5111
IF	-5112
▁၃၀	-5113
▁sup	-5114
မီးဖို	-5115
ပွဲတော်	-5116
များသော	-5117
လူကြိုက်	-5118
ms	-5119
▁ေရ	-5120
ကုန္	-5121
ထားတာ	-5122
ထိုက်	-5123
▁သင်က	-5124
esh	-5125
▁CD	-5126
edit	-5127
rypt	-5128
ဗျူဟာ	-5129
▁ကျပ်	-5130
ခံရရှိ	-5131
လေ့ကျင့်	-5132
▁စကားလုံး	-5133
▁မှတ်တမ်း	-5134
▁ပြန်လည်သုံးသပ်	-5135
ဇီ	-5136
ကေး	-5137
▁key	-5138
ronic	-5139
ရသည်။	-5140
▁ကျင့်	-5141
ခွဲခြား	-5142
ပေးပို့	-5143
▁ပြောပြ	-5144
▁လူပျို	-5145
ပါဝင်သည်။	-5146
ပံု	-5147
ရတနာ	-5148
ရှန်	-5149
▁can	-5150
▁this	-5151
န္တရား	-5152
ထင်ရှား	-5153
ပေးလိုက်	-5154
▁BI	-5155
▁Box	-5156
ဆေးဝါး	-5157
▁ရောင်	-5158
▁အမြင်	-5159
▁Access	-5160
▁မျှော်လင့်	-5161
5,	-5162
96	-5163
သျ	-5164
▁04	-5165
လောက	-5166
ative	-5167
ဒါန်း	-5168
▁တိကျ	-5169
▁ဖြင့်	-5170
ဓာတ်ငွေ့	-5171
ဝန်ကြီးဌာန	-5172
▁နှုတ်ကပတ်	-5173
အခဲ	-5174
▁PT	-5175
အပတ်	-5176
ေးလျ	-5177
Press	-5178
ocket	-5179
ဆုံးရှုံး	-5180
မှန်းချက်	-5181
▁Fittings	-5182
▁400	-5183
▁Mag	-5184
▁တဲ့	-5185
▁စိန်	-5186
4"	-5187
သ်	-5188
▁IN	-5189
▁aut	-5190
▁ဆီး	-5191
▁ရုံး	-5192
▁admin	-5193
ဌာနမှူး	-5194
▁YouTube	-5195
ရိုးရှင်း	-5196
အောက်တွင်	-5197
eek	-5198
▁Sch	-5199
သွား၍	-5200
▁ချို	-5201
▁ဆဲလ်	-5202
▁ပြုပြင်	-5203
▁ဆုတောင်း	-5204
ပေါင်းများစွာ	-5205
ပီး	-5206
ကျော	-5207
အလတ်	-5208
▁Har	-5209
▁module	-5210
▁ကျင်းပ	-5211
ဖေါ်ဝါရီလ	-5212
▁ခပ်သိမ်း	-5213
▁Ge	-5214
▁SK	-5215
အနီး	-5216
ရှိန်	-5217
ငယ်တဲ့	-5218
လုံးစုံ	-5219
▁ပုဂ္ဂလိက	-5220
၁၀	-5221
ကာလ၌	-5222
တစ္ခု	-5223
တို့က	-5224
▁သမား	-5225
ပံ့ပိုးမှု	-5226
▁သတင်းအချက်အလက်	-5227
acy	-5228
သိုး	-5229
အကျယ်	-5230
မြန်မာ	-5231
သိုလှောင်	-5232
ara	-5233
ချွတ်	-5234
ပြီး။	-5235
မျှင်	-5236
▁လုပ္	-5237
အသက်ကို	-5238
▁နေ့စဉ်	-5239
▁ဘက်ထရီ	-5240
ဋိ	-5241
ling	-5242
မ္မာ	-5243
ပေါ်က	-5244
စိတ်ချ	-5245
နီးပါး	-5246
EL	-5247
Man	-5248
▁AS	-5249
▁Chuck	-5250
▁ရည်ရွယ်	-5251
ဖီ	-5252
▁Hu	-5253
သူရဲ	-5254
agram	-5255
count	-5256
နိူင်	-5257
လာသော	-5258
ူးတွဲ	-5259
▁လိမ်	-5260
မြေပုံ	-5261
ကြိုဆို	-5262
▁တစ်ခုတည်း	-5263
ခြင်းအားဖြင့်	-5264
▁ထိုသူတို့သည်	-5265
▁ဇိ	-5266
▁Wed	-5267
▁အနီ	-5268
▁အပင်	-5269
သောငှါ	-5270
သောအမှု	-5271
▁ဘာလို့	-5272
▁အပိုဆု	-5273
▁Password	-5274
bs	-5275
မွေလ	-5276
▁buil	-5277
▁လေဆာ	-5278
မှုရဲ့	-5279
မင်္ဂလာ	-5280
▁ပြိုင်ပွဲ	-5281
oul	-5282
ဂျီ	-5283
▁Inc	-5284
▁per	-5285
▁oper	-5286
မဟုတ်။	-5287
▁White	-5288
▁သင်ယူ	-5289
လေကြောင်း	-5290
▁features	-5291
▁wordpress	-5292
▁ဘုရားသခင်ကို	-5293
ger	-5294
ေလာ	-5295
▁လယ်	-5296
▁ဟန်	-5297
▁အဖြေ	-5298
▁Dread	-5299
▁သူတပါး	-5300
▁GPS	-5301
▁Hot	-5302
▁min	-5303
▁[200	-5304
▁ကျနော်	-5305
▁ထိုကဲ့သို့သော	-5306
ask	-5307
ips	-5308
▁ph	-5309
ices	-5310
ပေးသော	-5311
▁Server	-5312
▁မော်ဒယ်နံပါတ်။	-5313
ငြင်း	-5314
ၾကည့္	-5315
▁ဗဟို	-5316
▁Chang	-5317
▁မြေပုံ	-5318
▁2:	-5319
တဲ့။	-5320
စတြေးလျ	-5321
ချိတ်ဆက်	-5322
▁တွေ့ရှိ	-5323
သော့	-5324
▁[2]	-5325
မူကား	-5326
▁၎င်း၏	-5327
နိုင်အောင်	-5328
4-	-5329
ခွာ	-5330
ebei	-5331
▁Sub	-5332
▁နာမည်	-5333
▁ဘယ်လောက်	-5334
▁ဒါဝိဒ်သည်	-5335
57	-5336
▁Ht	-5337
ဆန္ဒ	-5338
▁Def	-5339
▁Kar	-5340
▁Zaw	-5341
ပြန်အ	-5342
ခံရသော	-5343
အချင်း	-5344
▁ငြင်း	-5345
ရှင်းရေး	-5346
ူးယ	-5347
enoid	-5348
ခဲ့ပါသည်။	-5349
pcs	-5350
orth	-5351
မလား	-5352
ဟင်း	-5353
▁Win	-5354
▁Wall	-5355
▁Holmes	-5356
▁တီထွင်	-5357
▁ကြောင်း	-5358
▁ထူးခြား	-5359
cel	-5360
rame	-5361
စောင်	-5362
သားကို	-5363
▁သင်သည်သင်၏	-5364
▁..	-5365
▁ခါ	-5366
▁Dong	-5367
▁comp	-5368
▁တတိယ	-5369
နေပြီး	-5370
▁ခုနစ်	-5371
နှင့်တကွ	-5372
▁သန့်ရှင်းသော	-5373
▁ဥယျာဉ်	-5374
▁Univers	-5375
နိုင်ပြီး	-5376
ဗဟို	-5377
ဆို၏။	-5378
▁ထုံး	-5379
ရပါတယ်။	-5380
▁Machin	-5381
▁နံပါတ်	-5382
တာ၊	-5383
▁CR	-5384
▁ထဲက	-5385
right	-5386
ရေးမှူး	-5387
လိုက်ပါ။	-5388
အသုံးပြုသူ	-5389
အပေါင်းတို့ကို	-5390
မျး	-5391
လုိ	-5392
၀င်	-5393
▁man	-5394
▁လှိုင်း	-5395
▁စက်တင်ဘာ	-5396
▁ဖေဖေါ်ဝါရီလ	-5397
ird	-5398
ဘား	-5399
▁တန	-5400
▁ရူ	-5401
မထား	-5402
▁ချီ	-5403
ဂရိတ်	-5404
တာတွေ	-5405
▁အိုး	-5406
▁လှည့်	-5407
စစ်တမ်း	-5408
▁မကြာခဏ	-5409
SS	-5410
ေျမ	-5411
ဓာတု	-5412
အရာ၌	-5413
မွှေး	-5414
ို့ရှင်	-5415
▁Online	-5416
▁တံဆိပ်	-5417
နှစ်ယောက်	-5418
▁အပူချိန်	-5419
အရင်းအမြစ်	-5420
▁သို့ဖြစ်၍	-5421
iam	-5422
▁VP	-5423
ဦးစွာ	-5424
▁News	-5425
▁ဒုက္ခ	-5426
ို့ဝှက်	-5427
56	-5428
ငှာ	-5429
▁မှု	-5430
ပွန်း	-5431
ပိုက်ဆံ	-5432
အလိုအလျောက်	-5433
ကွာ	-5434
သို	-5435
▁box	-5436
ကြွင်း	-5437
▁တပ်ဆင်	-5438
▁Led	-5439
▁col	-5440
ement	-5441
ified	-5442
ခရိုင်	-5443
ရှိတယ်	-5444
▁အာရုန်	-5445
ခဲ့တာပါ။	-5446
အသုံးပြုမှု	-5447
▁ခန္ဓာကိုယ်	-5448
HO	-5449
fo	-5450
အန	-5451
▁1:	-5452
ကြေညာ	-5453
ရာမှာ	-5454
▁2000	-5455
▁၂၀၁၉	-5456
▁tools	-5457
▁custom	-5458
ခုန်နှုန်း	-5459
▁Dr	-5460
ဗုလုန်	-5461
▁ပန်းချီ	-5462
▁ထိုသူသည်	-5463
▁အီလက်ထရောနစ်	-5464
တေး	-5465
ပက်	-5466
စက္ကူ	-5467
▁ဖုံး	-5468
▁စွန့်	-5469
တစ်နှစ်	-5470
ဗိုလ်ခြေ	-5471
▁နောက်ခံ	-5472
ကောင်အထည်	-5473
▁WordPress	-5474
▁ဇန်နဝါရီလ	-5475
▁အစိတ်အပိုင်း	-5476
aper	-5477
ning	-5478
▁des	-5479
▁တူညီ	-5480
▁Whats	-5481
တစ်ခုပါ။	-5482
▁စက်ရုပ်	-5483
ဗိုင်းရပ်စ်	-5484
MA	-5485
ဒ္	-5486
-08	-5487
ဟာရ	-5488
▁Add	-5489
လမုန်	-5490
ိုက်ဒ	-5491
ပိုင္း	-5492
မေးပွဲ	-5493
သုတေသန	-5494
▁အောက်ပါ	-5495
▁နိုင်ငံတကာ	-5496
ထိုကဲ့သို့သော	-5497
.20	-5498
axy	-5499
ces	-5500
ဆီမှာ	-5501
ဖြစ်တယ်	-5502
▁option	-5503
ရောက်ရှိ	-5504
▁စျေးကွက်	-5505
.90	-5506
▁etc	-5507
▁မတူ	-5508
▁ရယ်	-5509
▁ရွာ	-5510
utter	-5511
မှောက်	-5512
▁ကာဗွန်	-5513
နည်းနည်း	-5514
▁အကြံပြု	-5515
ခဲ့ကြတယ်။	-5516
ထားပါတယ်။	-5517
ပါလိမ့်မယ်။	-5518
▁လျှောက်လွှာ	-5519
▁သို့သော်လည်း	-5520
43	-5521
by	-5522
ret	-5523
ဟစ်	-5524
reak	-5525
▁Act	-5526
▁ချန်	-5527
ရှယ်ယာ	-5528
တိုင်မီ	-5529
ခြင်းအားဖြင့်	-5530
ht	-5531
ိး	-5532
▁0.5	-5533
▁ဒီအ	-5534
▁နီး	-5535
မိနစ်	-5536
▁တစုံ	-5537
▁ဖိလိ	-5538
▁ချမ်း	-5539
တုံး	-5540
ဖ်ဝဲ	-5541
▁သော့	-5542
rib	-5543
▁ဝယ်	-5544
▁Wood	-5545
စေလွှတ်	-5546
မြန်စွာ	-5547
▁ဗိမာန်	-5548
▁တန်ခိုး	-5549
▁မှတ်ပုံတင်	-5550
79	-5551
8"	-5552
ဟံ	-5553
▁36	-5554
▁II	-5555
ider	-5556
ခံရဖို့	-5557
နေကြသည်။	-5558
စည်းမျဉ်း	-5559
▁အကြီးစား	-5560
▁ရှိပါတယ်။	-5561
6"&	-5562
▁31	-5563
တြင္	-5564
inter	-5565
▁Data	-5566
မော်ကွန်း	-5567
▁လိမ့်မည်။	-5568
-9	-5569
oz	-5570
မနေ	-5571
ရှဲ	-5572
▁ar	-5573
▁လီ	-5574
နှစ်သက်	-5575
▁switch	-5576
ခြင်းသည်	-5577
▁စကားပြော	-5578
▁ကုန်ကြမ်း	-5579
ဘို	-5580
ingd	-5581
မို့	-5582
လာကြ	-5583
မရှိ။	-5584
▁Metal	-5585
တိရစ္ဆာန်	-5586
▁တရုတ်နိုင်ငံ	-5587
▁(6	-5588
▁မွ	-5589
ille	-5590
ပုလင်း	-5591
▁ဖိအား	-5592
▁အဲဒါက	-5593
လူသိများ	-5594
ောပိုင်း	-5595
▁Machinery	-5596
▁±	-5597
gen	-5598
izh	-5599
uff	-5600
နော	-5601
▁အခ်	-5602
န့်သတ်	-5603
▁ဤတွင်	-5604
ခြင်းဟာ	-5605
နိုင်ရန်	-5606
နေရာတွင်	-5607
▁ကျွန်မက	-5608
▁ပစ္စည်းများ	-5609
stal	-5610
ဓမ္မ	-5611
▁USD	-5612
apter	-5613
စင်တီ	-5614
ပြည်သူ	-5615
▁update	-5616
လက်ဆောင်	-5617
▁နှစ်သက်	-5618
▁အရောင်း	-5619
သန့်ရှင်း	-5620
▁ကလေးများ	-5621
▁ကျွန်တော်က	-5622
▁SAR	-5623
ကြွေး	-5624
▁2008	-5625
▁test	-5626
▁၂၀၁၈	-5627
▁Cheats	-5628
▁နေ့ရက်	-5629
▁ရှိသမျှ	-5630
▁Lighting	-5631
▁ထိုနောက်	-5632
▁အချင်းချင်း	-5633
FE	-5634
.01	-5635
လွဲ	-5636
▁၁၇	-5637
▁ဝေး	-5638
ပြွန်	-5639
▁အာဗြ	-5640
▁month	-5641
idifier	-5642
▁ကမ္ဘာတစ်	-5643
▁ချိတ်ဆက်	-5644
▁Pe	-5645
▁val	-5646
▁ဆော့	-5647
▁အဝေး	-5648
ငါတို့	-5649
မရှိဘဲ	-5650
▁ရှောင်	-5651
မှုနှင့်	-5652
▁တက္ကသိုလ်	-5653
မယ္။	-5654
▁Log	-5655
စီယမ်	-5656
▁ေျပာ	-5657
ပဋိညာဉ်	-5658
▁သံလိုက်	-5659
ရှေ့တော်၌	-5660
▁ထိုကြောင့်	-5661
▁CE	-5662
▁Rob	-5663
ကျွန်မ	-5664
▁သမ္မတ	-5665
ော်မုန်း	-5666
▁တရုတ်ထံမှ	-5667
ူးယစ်	-5668
▁လေဝိ	-5669
ဆေးရုံ	-5670
myanmar	-5671
▁စားပွဲ	-5672
▁ပြဇာတ်	-5673
▁မိန်းကလေး	-5674
သှ	-5675
▁င်	-5676
ဂဏန်း	-5677
▁ဆေးဘက်ဆိုင်ရာ	-5678
ili	-5679
▁10,	-5680
▁Mov	-5681
▁ဧလိ	-5682
ပေမယ့်	-5683
ကိုသုံး	-5684
ကစားသမား	-5685
▁ပြန်ပြော	-5686
သင်တို့ကို	-5687
▁စသည်တို့ကို	-5688
5"&	-5689
get	-5690
ift	-5691
ဂါး	-5692
cept	-5693
မလို	-5694
▁600	-5695
▁Max	-5696
တိန်နာ	-5697
▁အလွှာ	-5698
▁default	-5699
စီရင်ခံစာ	-5700
▁အဖွဲ့အစည်း	-5701
for	-5702
ral	-5703
irst	-5704
ခ်က္	-5705
ဝင်း	-5706
ducts	-5707
osterone	-5708
▁ပေါင်းစပ်	-5709
▁ဗီဒီယိုများ	-5710
ky	-5711
▁ဂါ	-5712
fish	-5713
roid	-5714
ဆဲလ်	-5715
ကြော်	-5716
စိမ်း	-5717
ations	-5718
ဇာတ်လမ်း	-5719
နိုင်တယ်	-5720
▁ပြစ်မှား	-5721
amb	-5722
ril	-5723
တင္	-5724
iece	-5725
ငှက်	-5726
သိသာ	-5727
▁Vol	-5728
▁get	-5729
အထုပ်	-5730
ချောင်	-5731
▁အစွမ်း	-5732
ခြင်းနဲ့	-5733
တစ်ခုမှာ	-5734
ရေးနှင့်	-5735
WS	-5736
uri	-5737
▁SE	-5738
▁၁၁	-5739
ကျက်	-5740
▁အနု	-5741
ငြိမ်း	-5742
အကျင့်	-5743
အနိုင်	-5744
▁Reader	-5745
ပည့်တော်	-5746
ပါစေသော။	-5747
▁Dreadbag	-5748
▁ဖောက်သည်	-5749
လုံးဆိုင်ရာ	-5750
အပေါင်းတို့	-5751
pit	-5752
ဒရာ	-5753
ခြင်းက	-5754
ဆေးထိုး	-5755
ုံ့ဆော်	-5756
▁အတိအကျ	-5757
ကိုရီးယား	-5758
▁ကောင်းကြီး	-5759
▁သဲ	-5760
စင်း	-5761
ကျွေး	-5762
ရဖို့	-5763
ထောင့်	-5764
ပါမယ်။	-5765
ယောက်ျား	-5766
သူတို့ရဲ့	-5767
-11	-5768
▁5,	-5769
▁Af	-5770
▁my	-5771
ခကျြ	-5772
တ္တူ	-5773
▁May	-5774
▁non	-5775
နည်းတူ	-5776
ရေးကို	-5777
အစွန်း	-5778
▁Tagged	-5779
စသည်တို့ကို	-5780
သောသူတို့ကို	-5781
ကတိ	-5782
▁SMS	-5783
▁Galaxy	-5784
▁စီးတီး	-5785
▁acrylic	-5786
▁ပူဇော်သက္ကာ	-5787
▁ကျွန်မတို့ရဲ့	-5788
ရှူ	-5789
ktop	-5790
▁ကပ်	-5791
ဥရောပ	-5792
▁Rule	-5793
▁Slots	-5794
▁ဖက်စ်	-5795
▁အတူတူ	-5796
ပလတ်စတစ်	-5797
အစားထိုး	-5798
▁ကုန်သည်	-5799
▁စကားကို	-5800
▁လူတွေကို	-5801
▁အောက်တိုဘာ	-5802
မူလ	-5803
အနာ	-5804
▁PP	-5805
ပြီ၊	-5806
စီစဉ်	-5807
မဟုတ္	-5808
atalog	-5809
ထိုင်း	-5810
▁Maung	-5811
▁တခြား	-5812
ပေါ်ကို	-5813
5%	-5814
ဒေါ	-5815
▁Ev	-5816
▁ခဲ	-5817
▁၁၆	-5818
အသရေ	-5819
▁ဆန်	-5820
▁နဲ႔	-5821
▁အမေ	-5822
aster	-5823
ivery	-5824
olone	-5825
▁more	-5826
▁တယ်လီ	-5827
▁Dedust	-5828
▁ရုရှား	-5829
ကိုယ်စား	-5830
ော်မရှင်	-5831
ထာဝရဘုရား၊	-5832
▁သိုလှောင်	-5833
▁လမ်းကြောင်း	-5834
▁ကျွန်မတို့ဟာ	-5835
ပြန်လည်သုံးသပ်	-5836
87	-5837
မိတက်	-5838
▁သန့်	-5839
▁ဒေါက်	-5840
တန်ခိုး	-5841
▁access	-5842
▁လွတ်လပ်	-5843
▁အစားအစာ	-5844
▁စိုက်ပျိုး	-5845
▁z	-5846
်န္	-5847
reet	-5848
▁Thu	-5849
လှုပ်	-5850
ပါမည်။	-5851
▁Player	-5852
▁Bitcoin	-5853
▁တပါးအမျိုးသား	-5854
41	-5855
▁DJ	-5856
သငယ်	-5857
အလား	-5858
▁Sun	-5859
▁List	-5860
ဟေဆော်	-5861
▁Manag	-5862
▁ပြင်ပ	-5863
ဈေးကွက်	-5864
သွားရောက်	-5865
▁ကြောက်ရွံ့	-5866
ဖရ	-5867
Pro	-5868
ise	-5869
way	-5870
▁ထိပ်	-5871
▁အဆို	-5872
မ်းအနား	-5873
ကြည့်ရှု	-5874
▁Tattoos	-5875
ya	-5876
▁ၿ	-5877
elf	-5878
▁At	-5879
rist	-5880
လပ်ရက်	-5881
ထားသည့်	-5882
▁အကြံပေး	-5883
ထိန်းချုပ်ရေး	-5884
▁br	-5885
ကလပ်	-5886
▁Link	-5887
▁elect	-5888
သောစိတ်	-5889
ေၾကာင့္	-5890
ပုဂ္ဂလိက	-5891
လိုအပ်ချက်	-5892
na	-5893
ဆီက	-5894
▁VC	-5895
▁ညာ	-5896
ေပါ့	-5897
▁Top	-5898
များ။	-5899
နည်းကို	-5900
မျိုးစုံ	-5901
▁အဘိဥာဏ်	-5902
▁Standard	-5903
ခံ့	-5904
မျ့	-5905
lobal	-5906
▁(200	-5907
▁Grab	-5908
သစ်ကို	-5909
▁လက်ဆောင်	-5910
▁ရှေ့တော်၌	-5911
lin	-5912
acth	-5913
▁1.0	-5914
ခိုင်း	-5915
သက်ရောက်	-5916
▁လေ့ကျင့်	-5917
လုပ်ငန်းစဉ်	-5918
▁ကျွန်တော့်	-5919
▁ဆက်သွယ်ရန်	-5920
LO	-5921
ha	-5922
▁ကုဒ်	-5923
▁ပေါ့	-5924
▁ပေါင်	-5925
▁အရင်း	-5926
▁ပြည်ထောင်စု	-5927
46	-5928
ဝီ	-5929
ify	-5930
နို့	-5931
▁Adv	-5932
▁log	-5933
▁ပျံ	-5934
မျိုးကို	-5935
လျှော့ချ	-5936
▁ရွေးကောက်	-5937
▁သခင်ဘုရား	-5938
▁အဆောက်အဦး	-5939
ဗိ	-5940
သမ	-5941
ႀကီး	-5942
▁0.1	-5943
▁ကြေ	-5944
▁ဆုံးမ	-5945
သံလိုက်	-5946
acthacks	-5947
အကြံပြုချက်များ	-5948
▁@	-5949
ဟတ်	-5950
▁lo	-5951
လတံ့	-5952
▁Can	-5953
စားပွဲ	-5954
▁သွင်း	-5955
မလိုအပ်	-5956
လိုက်ရင်	-5957
အဖွဲ့ဝင်	-5958
ကိုယ်တိုင်	-5959
ကလစ်နှိပ်ပါ	-5960
▁ဒစ်ဂျစ်တယ်	-5961
ng	-5962
သူမ	-5963
▁ab	-5964
ရတယ်	-5965
▁Jan	-5966
▁စေ့	-5967
▁တင်း	-5968
▁ကရုဏာ	-5969
▁မီဒီယာ	-5970
▁ဘိုးဘေး	-5971
▁ခေါင်းစဉ်	-5972
-15	-5973
oph	-5974
ခ်ျ	-5975
ends	-5976
▁ဖက်	-5977
▁Comm	-5978
▁အထည်	-5979
ကြပါ၏။	-5980
ကွန်ယက်	-5981
ချိန်မှာ	-5982
ပရော်ဖက်ရှင်နယ်	-5983
la	-5984
5.0	-5985
▁Sn	-5986
▁၁၄	-5987
ချေး	-5988
▁Cool	-5989
နားမှာ	-5990
▁လျှင်	-5991
1-	-5992
RC	-5993
ott	-5994
▁၁၃	-5995
▁Hyper	-5996
များရှိ	-5997
▁Rotary	-5998
▁ပေါ်လာ	-5999
ကြနှင့်။	-6000
▁အနည်းငယ်	-6001
RE	-6002
ျပဳ	-6003
oney	-6004
ွယ်ဝ	-6005
▁ခါး	-6006
▁နတ်	-6007
▁slots	-6008
▁ရေးသား	-6009
လိမ့်မယ်	-6010
ခြင်းဖြင့်	-6011
GO	-6012
တကူ	-6013
▁ကို၏	-6014
ပလပ်စတစ်	-6015
▁ကြှနျုပျတို့	-6016
IL	-6017
▁Roy	-6018
အလိပ်	-6019
▁ကနေဒါ	-6020
▁ကိစ္စ	-6021
▁မီးဖို	-6022
လက်ခံရရှိ	-6023
▁ရိုးရှင်း	-6024
ဖှ	-6025
ၿပီ	-6026
▁not	-6027
▁စူး	-6028
ology	-6029
ဝတ္ထု	-6030
ဝင်ရောက်	-6031
ရေးသားချိန်	-6032
အားကစားပြိုင်ပွဲ	-6033
8,	-6034
ဆူ	-6035
App	-6036
▁CC	-6037
▁We	-6038
alth	-6039
မျှတ	-6040
annel	-6041
ethyl	-6042
▁ရာသီ	-6043
▁နှင်း	-6044
သတ္တပတ်	-6045
ချိန်ညှိ	-6046
အခြေစိုက်	-6047
gy	-6048
ေပၚ	-6049
▁Zhe	-6050
▁have	-6051
▁အံ့ဩ	-6052
ခြင်း။	-6053
ကြည့်ပါ	-6054
▁ရောက်လာ	-6055
▁အပြည့်အဝ	-6056
itor	-6057
အထား	-6058
▁Art	-6059
ပေးစက်	-6060
ရေးဆွဲ	-6061
▁များစွာသော	-6062
ဘဲ၊	-6063
neum	-6064
baric	-6065
ကိန္း	-6066
▁Lock	-6067
▁mode	-6068
roller	-6069
နေအိမ်	-6070
▁ဆေးဝါး	-6071
▁စစ်တိုက်	-6072
▁ပြည်တွင်း	-6073
▁အစိမ်းရောင်	-6074
TH	-6075
new	-6076
▁(4	-6077
▁ကွ	-6078
▁all	-6079
▁conn	-6080
မျှော်	-6081
ဖြစ်ရပ်	-6082
သောသူကို	-6083
စီမံခန့်ခွဲမှု	-6084
ipp	-6085
rim	-6086
▁Red	-6087
ဘက်ထရီ	-6088
▁နောင်	-6089
ခံနိုင်	-6090
▁အလားတူ	-6091
ရေးအတွက်	-6092
ခြင်းငှါ၊	-6093
ရလိမ့်မည်။	-6094
▁ရှုပ်ထွေး	-6095
ကုိ	-6096
မျက်စိ	-6097
လျှော်	-6098
▁လိုင်	-6099
▁အခွန်	-6100
▁ျမန္မာ	-6101
အင်တာနက်	-6102
▁ဆုံးရှုံး	-6103
▁အမေရိကန်က	-6104
▁ရေခဲသေတ္တာ	-6105
▁Professional	-6106
သနာ	-6107
▁07	-6108
ယန်း	-6109
▁Bar	-6110
▁Feb	-6111
▁Leg	-6112
▁စွဲ	-6113
▁ဗျာ	-6114
ခ်င္း	-6115
▁ဂျာမ	-6116
လူတို့	-6117
ဆန့်ကျင်	-6118
မှာရှိတဲ့	-6119
အကဲ	-6120
▁70%	-6121
ဒုတိယ	-6122
▁Conn	-6123
ပါသလား	-6124
▁Autom	-6125
▁Cable	-6126
▁ရန်သူ	-6127
▁အီတလီ	-6128
တွေ့ဆုံ	-6129
ပန်းခြံ	-6130
▁ညှဉ်းဆဲ	-6131
▁နိုင်ငံခြား	-6132
rit	-6133
▁Ru	-6134
မလဲ။	-6135
သုကာ	-6136
ပေါ့၊	-6137
▁Star	-6138
▁ငှက်	-6139
▁အင်း	-6140
အိပ်ရာ	-6141
ထိရောက်	-6142
▁ပြန်လာ	-6143
▁ရော်ဘာ	-6144
▁သေတ္တာ	-6145
▁ဟိုတယ်	-6146
ရေးရှင်း	-6147
ကိုအသုံးပြု	-6148
▁အတွေ့အကြုံ	-6149
uor	-6150
▁06	-6151
ally	-6152
jack	-6153
▁Ang	-6154
▁Big	-6155
▁ရှည်	-6156
▁လျက်	-6157
ကြာနေ့	-6158
ပေးဆောင်	-6159
▁ချမ်းသာ	-6160
တောင်းဆို	-6161
▁Zhejiang	-6162
▁စိုးရိမ်	-6163
USD	-6164
ume	-6165
ဇုံ	-6166
▁ER	-6167
ကာပူ	-6168
နှေး	-6169
▁125	-6170
owder	-6171
ေဆာင္	-6172
utions	-6173
ခြင်းရှိ	-6174
တုိ	-6175
▁မွာ	-6176
ဘတ်စ်	-6177
အပြီး	-6178
▁cook	-6179
▁ဟင်း	-6180
ကြရအောင်	-6181
▁ဦးဆောင်	-6182
▁Electronic	-6183
▁ကောင်းမွန်	-6184
▁အိမ်ခြံမြေ	-6185
▁El	-6186
vert	-6187
▁0.0	-6188
▁off	-6189
ဖြန့်	-6190
မှာပဲ	-6191
အတန်း	-6192
စင်စစ်	-6193
▁ကိန်း	-6194
ပြီးသား	-6195
▁အုပ်ချုပ်	-6196
ယ်ယူပို့ဆောင်ရေး	-6197
ြဲ	-6198
ယနေ့	-6199
▁1.5	-6200
ခုနစ်	-6201
တင်သွင်း	-6202
▁မိတ်ဆက်	-6203
▁စာနယ်ဇင်း	-6204
ano	-6205
မပါဘဲ	-6206
သိုက်	-6207
အရှည်	-6208
▁data	-6209
▁လောက်	-6210
နီစီယမ်	-6211
▁select	-6212
ဖြစ်ကြ၏။	-6213
Th	-6214
ဂေ	-6215
ife	-6216
▁Py	-6217
ဒြပ်	-6218
meric	-6219
▁Ball	-6220
▁Tour	-6221
မှာရှိ	-6222
ဖြစ်စဉ်	-6223
ႏိုင္ငံ	-6224
▁နှစ်ဦး	-6225
▁Medical	-6226
▁ထောက်ခံ	-6227
▁လူမှုရေး	-6228
enz	-6229
▁ကြွ	-6230
ဘလော့	-6231
▁လွှဲ	-6232
▁တစ်နေ့	-6233
တည်ငြိမ်	-6234
▁ကြှနျုပျတို့ကို	-6235
mg	-6236
▁႔	-6237
-05	-6238
နျး	-6239
▁UK	-6240
▁rep	-6241
ထဲကနေ	-6242
သင်ယူ	-6243
▁ကြက်	-6244
▁ဖျက်	-6245
ွယ်တကူ	-6246
▁လောင်	-6247
▁တကယ့်ကို	-6248
▁ဗာဗုလုန်	-6249
▁အမေရိကန်ကဒေါ်လာ	-6250
ဥတု	-6251
ills	-6252
ပမ်း	-6253
မတန်	-6254
▁ပါး	-6255
aptop	-6256
▁Extr	-6257
ပို့စ်	-6258
့အပြင်	-6259
▁ဘလော့	-6260
▁Tablet	-6261
▁နောက်ပိုင်း	-6262
DA	-6263
url	-6264
▁ဆိပ်	-6265
မီးအိမ်	-6266
▁Direct	-6267
▁အုပ်စု	-6268
ဖြစ်ပွား	-6269
▁သက်သေခံ	-6270
▁အထောက်အ	-6271
▁ဝါယာကြိုး	-6272
▁ကိုအသုံးပြု	-6273
က်ာ	-6274
တရု	-6275
▁ငို	-6276
arter	-6277
iness	-6278
စာဖတ်	-6279
စိုခံ	-6280
နိုက်	-6281
တိုင္း	-6282
ပုံရိပ်	-6283
သကဲ့သို့၊	-6284
ထုတ်ပြန်ချက်	-6285
ကောင်အထည်ဖော်	-6286
ဖြတ်တောက်ခြင်း	-6287
IV	-6288
▁ဖာ	-6289
arge	-6290
▁ဆင့်	-6291
လီကွန်	-6292
▁စွန့်	-6293
ဖြစ်စေ၊	-6294
▁၂၅	-6295
rost	-6296
ခုခံ	-6297
quare	-6298
ခံေျမ	-6299
▁စက္က	-6300
ဆိုရင္	-6301
▁ဗိုလ်	-6302
ခဲ့သည့်	-6303
neumatic	-6304
▁process	-6305
တော်မူမည်။	-6306
ထိန်းချုပ်မှု	-6307
▁ကောင်းကင်တမန်	-6308
osh	-6309
်င္	-6310
ြက္	-6311
▁AR	-6312
▁Ky	-6313
▁220	-6314
ကိုယူ	-6315
▁type	-6316
▁ဧည့်	-6317
ထုတ်ဝေ	-6318
သောင်း	-6319
▁ဧရိယာ	-6320
▁Market	-6321
▁ပြည်သူ့	-6322
▁စပျစ်ရည်	-6323
▁အောက်မေ့	-6324
ပါလိမ့်မယ်	-6325
ဖယ်ရှားရေး	-6326
▁တပည့်တော်	-6327
▁လှုပ်ရှားမှု	-6328
SD	-6329
mq	-6330
ယာမ	-6331
▁Set	-6332
▁၁၉၈	-6333
ပြင်ပ	-6334
▁chip	-6335
▁ကိုက်	-6336
▁output	-6337
▁စာရေးသူ	-6338
▁စုံစမ်း	-6339
လိမ့်မယ်။	-6340
▁comments	-6341
မြင့်မားသော	-6342
▁နေရောင်ခြည်	-6343
အတာ	-6344
▁was	-6345
သူငယ်	-6346
အကိုင်	-6347
ပြည်ကို	-6348
▁ယေဘုယျ	-6349
အပြည့်အဝ	-6350
တယ်ဆိုရင်	-6351
▁အဓိပ္ပါယ်	-6352
လွှဲပြောင်း	-6353
▁အကျွန်ုပ်၏	-6354
စောင့်ရှောက်ရေး	-6355
irc	-6356
▁IT	-6357
▁နဲ	-6358
▁မစ	-6359
ကိုအ	-6360
▁LLC	-6361
▁ရွိ	-6362
▁၁၀၀	-6363
▁Open	-6364
မှုန့်	-6365
ေကာင္း	-6366
▁Enter	-6367
▁မိခင်	-6368
နေတာပါ။	-6369
ဖို့ပါ။	-6370
အောက်ပါ	-6371
ကြော်ငြာ	-6372
▁ကြိုတင်	-6373
▁ထုတ်ပြန်	-6374
▁ငါတို့ကို	-6375
လိုက်ဖက်တဲ့	-6376
သည်အတိုင်း၊	-6377
go	-6378
သာ၍	-6379
အနွယ်	-6380
ခဲ့ပါတယ်	-6381
▁စည်းမျဉ်း	-6382
.60	-6383
urr	-6384
▁02	-6385
▁ST	-6386
ield	-6387
wide	-6388
▁Aug	-6389
ပါစေ။	-6390
▁drop	-6391
န့်သတ်	-6392
အနိမ့်	-6393
သေးတယ်။	-6394
300	-6395
နမ်	-6396
▁၅၀	-6397
▁20%	-6398
▁Lab	-6399
▁SARS	-6400
သင့်ရဲ့	-6401
ည္။	-6402
▁Sw	-6403
▁ga	-6404
▁ထူ	-6405
="10	-6406
▁Ref	-6407
▁Sing	-6408
▁brow	-6409
▁cock	-6410
▁Fiber	-6411
နိုင်ကြ	-6412
▁Americ	-6413
▁ကိုသုံး	-6414
▁တစ်ခုကို	-6415
▁အဖွဲ့ဝင်	-6416
▁ကီလိုမီတာ	-6417
ဖြေရှင်းချက်	-6418
▁05	-6419
▁Mr	-6420
lets	-6421
ကာစ်	-6422
မြည်	-6423
▁Sam	-6424
▁အမှ	-6425
▁Aung	-6426
▁မလုပ်	-6427
အဆင်ပြေ	-6428
စကားလုံး	-6429
▁Indicator	-6430
-30	-6431
-200	-6432
ခုံး	-6433
ခန်းစာ	-6434
erminal	-6435
ixed	-6436
သွေ့	-6437
▁Fri	-6438
▁Block	-6439
ဗြိတိန်	-6440
▁အနည်းဆုံး	-6441
yg	-6442
aon	-6443
ohn	-6444
ury	-6445
iles	-6446
ship	-6447
▁(1,	-6448
▁Pol	-6449
▁ပဋိ	-6450
ကျတဲ့	-6451
သရုပ်	-6452
ေအာင္	-6453
ပြောပြ	-6454
▁များ၏	-6455
ကုန်အံ့	-6456
အဘိဥာဏ်	-6457
▁ထုတ်ဝေ	-6458
▁Service	-6459
▁program	-6460
82	-6461
ဆကျ	-6462
သလစ်	-6463
ျမိဳ	-6464
ဖြည်း	-6465
▁Best	-6466
▁ရွေ့	-6467
ထုံးစံ	-6468
သငျသညျ	-6469
▁Stock	-6470
▁စုဝေး	-6471
▁မျှဝေ	-6472
စမတ်ဖုန်း	-6473
▁မိုဘိုင်းဖုန်း	-6474
42	-6475
4]	-6476
ke	-6477
သျှ	-6478
▁am	-6479
http	-6480
ဘီလူး	-6481
ရင်တာ	-6482
▁ဘာမှ	-6483
လာပြီး	-6484
▁သင်ဟာ	-6485
စေခြင်း	-6486
▁ကိုယ့်	-6487
▁ဘီလီယံ	-6488
▁စင်ကြယ်	-6489
ဖွင့်လှစ်	-6490
လျော့နည်း	-6491
▁နိုဝင်ဘာ	-6492
▁Blackjack	-6493
▁ကားတစ်စီး	-6494
▁ထို့အပြင်	-6495
▁အောက်တွင်	-6496
▁အကြောင်းပြချက်	-6497
ola	-6498
အတှ	-6499
plate	-6500
မှာကို	-6501
▁Skype	-6502
exacthacks	-6503
.40	-6504
enu	-6505
▁pr	-6506
▁Det	-6507
▁ငယ်	-6508
ကလည်း	-6509
မှန်သော	-6510
လုပ်ရေး	-6511
▁ဆက်လက်	-6512
▁လွယ်ကူ	-6513
comments	-6514
▁cockpit	-6515
စောင့်ကြည့်	-6516
လှုပ်ရှားမှု	-6517
ပြဲ	-6518
▁ဆူ	-6519
▁Meg	-6520
▁သမီး	-6521
နေ့ရက်	-6522
သွားသော	-6523
▁months	-6524
▁ပြင်းထန်	-6525
စင်တီဂရိတ်	-6526
▁ရှောလမုန်	-6527
ဘူတာ	-6528
▁စက္	-6529
နှိုး	-6530
မွှား	-6531
သံကို	-6532
▁ဥစ္စာ	-6533
ယန္တရား	-6534
▁အကူအညီ	-6535
စစ်ဆင်ရေး	-6536
အချိန်မှာ	-6537
▁ဆိပ်ကမ်း	-6538
တည်ဆောက်ပုံ	-6539
Manufacturer	-6540
Pl	-6541
▁	-6542
ပါရ	-6543
မဟာ	-6544
အသွယ်	-6545
▁ရှက်	-6546
▁၂၀၁၇	-6547
သူတွေကို	-6548
▁ရောင်းရန်	-6549
▁အဘယ်သူမျှ	-6550
ren	-6551
▁$1	-6552
▁1/	-6553
ific	-6554
နေဆဲ	-6555
▁Pan	-6556
▁Tim	-6557
မလုပ်	-6558
▁ညစ်ည	-6559
▁ထည့်	-6560
ကမ္ဘာ့	-6561
ုဒ္ဒရာ	-6562
▁ခမည်း	-6563
▁နေရပ်	-6564
ဖျက်ဆီး	-6565
▁အနိုင်	-6566
elopment	-6567
ဖြစ်ဖြစ်	-6568
▁ဖန်ဆင်း	-6569
လူတို့ကို	-6570
,,	-6571
ape	-6572
aint	-6573
▁ဆက်ဆံ	-6574
▁မိုင်	-6575
နေကြတယ်	-6576
▁Global	-6577
▁Program	-6578
တိုးတက်မှု	-6579
▁နောက်ပြီး	-6580
HE	-6581
.80	-6582
umb	-6583
zip	-6584
လွေ	-6585
သုတ်	-6586
▁မန်	-6587
နိမ့်	-6588
လူမှု	-6589
▁PTFE	-6590
rivacy	-6591
နဲ့အတူ	-6592
▁Check	-6593
▁trans	-6594
▁စပိန်	-6595
ွေအမျိုး	-6596
▁setting	-6597
▁ကိုစာနယ်ဇင်း	-6598
6,	-6599
MT	-6600
ခၚ	-6601
idd	-6602
▁800	-6603
▁Tem	-6604
▁ins	-6605
ထားတယ်။	-6606
ရိုးကို	-6607
လီမိတက်	-6608
▁Powder	-6609
▁ထုံးစံ	-6610
▁သုံးပြီး	-6611
▁အထူးသဖြင့်	-6612
ja	-6613
ညံ	-6614
▁03	-6615
▁08	-6616
▁Bo	-6617
▁La	-6618
▁MP	-6619
001,	-6620
apan	-6621
post	-6622
udio	-6623
မယား	-6624
အာရှ	-6625
ေတြက	-6626
ကျင်း	-6627
နှင်း	-6628
▁ဒြပ်	-6629
ilicon	-6630
တချို့	-6631
▁ယူနစ်	-6632
usiness	-6633
▁အကြမ်း	-6634
အားသွင်း	-6635
▁မီးခိုး	-6636
▁အတည်ပြု	-6637
▁စွမ်းဆောင်ရည်	-6638
BLE	-6639
နန်	-6640
illing	-6641
နေသည်။	-6642
atalyst	-6643
ခွဲခန်း	-6644
တင်ပို့	-6645
မိတ်ဆက်	-6646
သိမ်းဆည်း	-6647
▁ကိုနှင့်	-6648
▁ဖြစ်ပြီး	-6649
▁မှတ်ဉာဏ်	-6650
▁အစဉ်အမြဲ	-6651
နှိုင်းယှဉ်	-6652
RL	-6653
ဟိ	-6654
ခွံ	-6655
ဉ့်	-6656
တို႕	-6657
▁Mus	-6658
▁တွဲ	-6659
ကိုသာ	-6660
တဘက်၌	-6661
ယောင်	-6662
▁လင်း	-6663
ပေမယ့်	-6664
မင်းသည်	-6665
▁coated	-6666
ထားခြင်း	-6667
▁Products	-6668
▁ဖိလိတ္တိ	-6669
ဇီဝ	-6670
ံတံ	-6671
▁Ne	-6672
▁Fran	-6673
စာလုံး	-6674
တစ်ခုခု	-6675
လိုက်တဲ့	-6676
▁သိပ်ကို	-6677
ကျယ်ပြန့်	-6678
သည်အတိုင်း	-6679
▁အားလုံးကို	-6680
သဲ	-6681
dra	-6682
lev	-6683
▁ဆံ	-6684
▁28,	-6685
▁Reg	-6686
ဒေါင်	-6687
ယေရှု	-6688
▁တုန်	-6689
မှတဆင့်	-6690
်န္ေတာ္	-6691
▁ထိခိုက်	-6692
▁ဗျာဒိတ်	-6693
▁အိပ်မက်	-6694
တင်းပေါက်	-6695
နှုန်းကို	-6696
▁ဒါတွေကို	-6697
▁အကွာအဝေး	-6698
▁ယဇ်ပလ္လင်	-6699
▁မှတ်ချက်များ	-6700
သေသ	-6701
▁အန်	-6702
ထောင့်	-6703
ဒီးယား	-6704
လျှော့	-6705
အမြင်ရ	-6706
ချက်တွေ	-6707
▁rating	-6708
တော်မူ၍၊	-6709
▁ဘုရားသခ	-6710
▁တစ်ခါတစ်	-6711
ယာဉ်မောင်း	-6712
▁အပြာရောင်	-6713
ထောက်ပံ့ရေး	-6714
▁အကယ်စင်စစ်	-6715
ITE	-6716
▁7,	-6717
▁Go	-6718
▁2.0	-6719
▁50%	-6720
urgaon	-6721
witter	-6722
ဆီသို့	-6723
ကို၎င်း	-6724
▁အက်ဆစ်	-6725
▁android	-6726
ပြန်အလှန်	-6727
မြို့တော်	-6728
▁အာရုံစိုက်	-6729
ဒင်	-6730
ပြစ်	-6731
▁sub	-6732
▁အထူ	-6733
▁အထံ	-6734
eters	-6735
▁ငှား	-6736
▁မဖြစ်	-6737
▁အယ်လ်	-6738
တရားဝင်	-6739
▁ပြန်စစ်	-6740
ထည့်သွင်း	-6741
▁တစ်ချို့	-6742
figuration	-6743
▁downloads	-6744
▁ထိုသို့သော	-6745
▁နေရပ်လိပ်စာ	-6746
5"	-6747
ler	-6748
▁6,	-6749
▁WE	-6750
ရမယ်	-6751
▁ခွေး	-6752
▁Intern	-6753
အစွမ်းထက်	-6754
ောင်မိုက်	-6755
▁extension	-6756
▁applications	-6757
ကုန်ထုတ်လုပ်မှု	-6758
▁CP	-6759
▁NO	-6760
▁do	-6761
itle	-6762
▁199	-6763
▁Techn	-6764
▁စိတ်နှလုံး	-6765
▁အိုထာဝရဘုရား၊	-6766
အမူ	-6767
oice	-6768
ဖြူး	-6769
itive	-6770
စားမှု	-6771
ပေးသည်	-6772
ategories	-6773
အပြောင်းအလဲ	-6774
9001	-6775
သက်သာ	-6776
▁Dust	-6777
▁Bible	-6778
ကြီးမား	-6779
န်းကျင်	-6780
▁display	-6781
အစည်းအဝေး	-6782
▁စက်ပစ္စည်း	-6783
JP	-6784
nd	-6785
emi	-6786
ony	-6787
▁EM	-6788
▁ဘိ	-6789
ious	-6790
ရစ္စ	-6791
သနား	-6792
▁တိတ်	-6793
▁ပျံ့	-6794
ရေအာင္	-6795
လိုက်နာ	-6796
▁အနိမ့်	-6797
အောင်လုပ်	-6798
▁ဆန့်ကျင်	-6799
ဆွေးနွေးပွဲ	-6800
▁ဆက်သွယ်ရေး	-6801
ရနျ	-6802
▁ပဌ	-6803
ရွင္	-6804
ေနပ်	-6805
▁ent	-6806
▁လက္	-6807
▁ဘွဲ့	-6808
▁Store	-6809
▁အနှစ်	-6810
တွက်ချက်	-6811
▁မိတ်ဆွေ	-6812
▁Hyperbaric	-6813
နွ	-6814
ero	-6815
37"&	-6816
▁Buy	-6817
proof	-6818
ရာယဇ်	-6819
▁မမြင်	-6820
ဖြစ်ပေါ်	-6821
▁ရှင်းလင်း	-6822
▁Humidifier	-6823
▁ပျော်ရွှင်	-6824
စက္	-6825
ရူး	-6826
▁3:	-6827
▁hy	-6828
ross	-6829
ပင်း	-6830
လွင်	-6831
▁10:	-6832
ိုလှုံ	-6833
▁ဝယ်ယူ	-6834
▁သစ်ပင်	-6835
▁နိုင်ငံတော်	-6836
▁ပြန်စစ်ပြီး။	-6837
OP	-6838
iet	-6839
▁(7	-6840
▁0,	-6841
▁37	-6842
▁12,	-6843
▁သာ၍	-6844
embed	-6845
က်ဆေ့	-6846
ending	-6847
ေပါင္း	-6848
▁North	-6849
▁power	-6850
မီးသွေး	-6851
နိုင်သည့်	-6852
▁လိုင်စင်	-6853
▁အမြဲတမ်း	-6854
▁Instagram	-6855
ထုတ်လုပ်ခြင်း	-6856
outh	-6857
ရသည်	-6858
ရေခဲ	-6859
▁Tue	-6860
ading	-6861
ပြုတ်	-6862
အံ့သြ	-6863
▁ဂျက်	-6864
တတ်ကြ၏။	-6865
ပျက်စီး	-6866
▁ငြိမ်း	-6867
▁လေတိုက်	-6868
▁စားသောက်	-6869
ဖော်ပြချက်	-6870
▁Solutions	-6871
▁interface	-6872
▁ပြီးနောက်	-6873
▁ဒီဂရီစင်တီဂရိတ်	-6874
bit	-6875
လှဲ	-6876
၀င္	-6877
ထို့	-6878
▁20,	-6879
▁29,	-6880
▁VER	-6881
▁sol	-6882
ထားပါ	-6883
▁မူ၏။	-6884
နိုင်ခဲ့	-6885
မဂ္ဂဇင်း	-6886
မြို့ကို	-6887
▁အထွေထွေ	-6888
ထားပါသည်။	-6889
▁ဘာဖြစ်လို့	-6890
▁55	-6891
▁Em	-6892
▁Par	-6893
cript	-6894
▁disc	-6895
▁ဆိတ်	-6896
▁လျင်	-6897
ဝါရောင်	-6898
▁ထိတွေ့	-6899
ရန်လိုအပ်	-6900
▁ကျွမ်းကျင်သူ	-6901
DP	-6902
လြ	-6903
ဠာ	-6904
ြာ	-6905
oin	-6906
ကေတ	-6907
ယျြ	-6908
လူ၊	-6909
ဘွဲ့	-6910
လူနာ	-6911
ပွင့်	-6912
ဖိနပ်	-6913
အမှား	-6914
▁အဆက်	-6915
အရာရှိ	-6916
နိုင်တာ	-6917
အဆို့ရှင်	-6918
▁ဆိုတာကို	-6919
ကြီးမားသော	-6920
ပလက်ဖောင်း	-6921
▁ထိုကြောင့်၊	-6922
9,	-6923
ဇိ	-6924
app	-6925
▁6.	-6926
ased	-6927
လာစေ	-6928
ံ့သာ	-6929
▁စဉ်	-6930
▁ပမာ	-6931
ဂွမ်း	-6932
▁June	-6933
▁နှိုး	-6934
▁အကုန်	-6935
ခြင်းမှ	-6936
တော်လေး	-6937
အစားအစာ	-6938
▁ရှမွေလ	-6939
လိုင်စင်	-6940
▁ပီ	-6941
ding	-6942
အစုံ	-6943
▁30,	-6944
▁မေ့	-6945
▁ရှေ	-6946
ragon	-6947
ချွန်	-6948
နှငျ့	-6949
▁prev	-6950
▁၂၀၁၅	-6951
▁ယောရှု	-6952
မတိုင်မီ	-6953
သင်တို့၏	-6954
▁ခိုင်မာ	-6955
▁Solenoid	-6956
▁ဖိုင်နာမည်	-6957
IA	-6958
ဖစ္	-6959
မတူ	-6960
အထူ	-6961
SION	-6962
ပွန်	-6963
အဖြူ	-6964
▁She	-6965
▁item	-6966
▁ချည်	-6967
ingdao	-6968
▁param	-6969
ဘုတ်အဖွဲ့	-6970
▁အစားထိုး	-6971
▁Worldwide	-6972
ရည်ရွယ်ချက်	-6973
▁ဣသရေလအမျိုး၏	-6974
CC	-6975
alt	-6976
ဒုံ	-6977
ေထာ	-6978
▁UN	-6979
ဘဲနေ	-6980
မိုက	-6981
▁11:	-6982
agnet	-6983
တွေထဲက	-6984
▁Share	-6985
▁ဘုရင်	-6986
င်္ဂနွေ	-6987
ပြည့်စုံ	-6988
အီးမေးလ်	-6989
▁သက်ရောက်မှု	-6990
au	-6991
ှေး	-6992
ခယျြ	-6993
သှယျ	-6994
▁000	-6995
▁Mot	-6996
▁Nye	-6997
▁ကဲ့	-6998
▁Tian	-6999
▁ကြ၏။	-7000
▁ဒါေပ	-7001
▁ပမာဏ	-7002
▁သတ္တ	-7003
ပွဲကို	-7004
ုိင္ငံ	-7005
▁ကြိတ်	-7006
လှိုင်း	-7007
▁ယောသပ်	-7008
လုပ်ကိုင်	-7009
[2]	-7010
rome	-7011
လ်တီ	-7012
▁Sec	-7013
▁Vis	-7014
▁Buil	-7015
▁အရက်	-7016
လာတယ်။	-7017
ခေါ်တဲ့	-7018
▁လိပ်စာ	-7019
တတ်နိုင်	-7020
▁ကိုမှို	-7021
လွှတ်တော်	-7022
▁တွင်လည်း	-7023
ပတ်သက်ပြီး	-7024
ဖုန်မှုန့်	-7025
အဖြေ	-7026
▁ဌာန	-7027
ravel	-7028
ဂစ်တာ	-7029
▁တိပ်	-7030
ချင်တဲ့	-7031
▁testosterone	-7032
ှဲ	-7033
win	-7034
▁em	-7035
ulic	-7036
▁Pal	-7037
▁ငါမ	-7038
▁တား	-7039
▁ခွင့်	-7040
ဆကျသှယျ	-7041
များရယူ	-7042
▁လက္ခဏာ	-7043
မေးမြန်း	-7044
အနေဖြင့်	-7045
လွှမ်းမိုး	-7046
▁စိတ်ကြိုက်	-7047
▁ထိန်းသိမ်း	-7048
▁စောင့်ကြည့်	-7049
▁ထာဝရဘုရားအား	-7050
▁အရှင်ထာဝရဘုရား	-7051
="8	-7052
နေ့က	-7053
▁UHF	-7054
▁မှီ	-7055
ကြဘူး	-7056
တားဆီး	-7057
မ္မော်	-7058
ရိက္ခာ	-7059
▁March	-7060
▁အလျင်	-7061
သွားပြီး	-7062
နိုင်ဖို့	-7063
▁ဖြစ်ပွား	-7064
▁မြော်လင့်	-7065
သိကောင်းစရာများ	-7066
ဗွ	-7067
otes	-7068
သင်က	-7069
▁Cle	-7070
▁ကွာ	-7071
▁အစု	-7072
သဟဇာတ	-7073
▁Eter	-7074
▁ခွန်	-7075
▁activ	-7076
▁cable	-7077
▁ပေါလု	-7078
ထုတ်ပေး	-7079
ပန်းကန်	-7080
ပြောသည်	-7081
▁ဖြစ်၏။	-7082
ကျောင်းသား	-7083
63	-7084
yt	-7085
ယဉ်	-7086
▁RO	-7087
▁အံ	-7088
feed	-7089
izer	-7090
သည္။	-7091
ေလာက္	-7092
▁Gold	-7093
န္တလေး	-7094
မိတယ်။	-7095
▁တွန်း	-7096
များသို့	-7097
အကွောငျး	-7098
▁တဦးတည်း	-7099
▁ပိုက်ဆံ	-7100
မျှော်လင့်	-7101
▁ရှန်ကျန်း	-7102
▁အောင်မြင်မှု	-7103
န်ဆောင်မှုများ	-7104
▁အကျွန်ုပ်တို့	-7105
ဘူ	-7106
-02	-7107
.70	-7108
▁MY	-7109
andy	-7110
တင္း	-7111
ဘောဂ	-7112
လုဒ်	-7113
ရာကို	-7114
လုံးဝ	-7115
ခဲ့တာက	-7116
▁လော့။	-7117
ိုင်းအဝ	-7118
▁သတင်းစာ	-7119
အံ့သောငှါ	-7120
▁Application	-7121
▁HT	-7122
▁ခဏ	-7123
earch	-7124
တကား။	-7125
တင်ပြ	-7126
တစ်ခုက	-7127
▁April	-7128
မည်သည့်	-7129
▁Thread	-7130
▁ပျမ်းမျှ	-7131
▁မဂ္ဂဇင်း	-7132
FF	-7133
gr	-7134
sk	-7135
ism	-7136
olt	-7137
မြဲ	-7138
▁18,	-7139
▁ဘဏ်	-7140
မိတာက	-7141
▁ဇယား	-7142
▁အမှား	-7143
ဓာတ်ပုံ	-7144
ပေးသည်။	-7145
▁မှာထား	-7146
ကွက်များ	-7147
▁Qingdao	-7148
▁စူးစမ်း	-7149
▁မေးမြန်း	-7150
လ်တီမီဒီယာ	-7151
▁နားမထောင်	-7152
ae	-7153
enb	-7154
red	-7155
ဒစ်	-7156
ရန်။	-7157
လား၊	-7158
ုဒ္ဓ	-7159
▁ABS	-7160
လွ်င္	-7161
▁တမန်	-7162
▁မ်ား	-7163
▁စိတ်မ	-7164
▁ဖြန့်	-7165
ဝန်ထမ်း	-7166
▁Health	-7167
ကိုင်တွယ်	-7168
▁များပြား	-7169
ဆကျသှယျရနျ	-7170
ထောက်ခံမှု	-7171
ပါလိမ့်မယ်။	-7172
▁အပြောင်းအလဲ	-7173
▁စောင့်ရှောက်	-7174
7"	-7175
ရာ၊	-7176
▁Kit	-7177
▁ဘတ်	-7178
▁ယူဆ	-7179
စေသော	-7180
▁ဆန္ဒ	-7181
▁ပွတ်	-7182
ိမ့်ချ	-7183
▁ဝန်ခံ	-7184
ပန်းဖြေ	-7185
▁Gurgaon	-7186
▁VERSION	-7187
အထောက်အပံ့	-7188
▁ဖေဖော်ဝါရီ	-7189
▁ငွေပေးချေမှု	-7190
cc	-7191
-07	-7192
arm	-7193
ဋ္ဌ	-7194
ယင်	-7195
ဟပ်	-7196
▁PH	-7197
osis	-7198
pert	-7199
ခမ်း	-7200
တ္တူး	-7201
▁Hydra	-7202
▁Piece	-7203
▁အစည်း	-7204
▁အာကာသ	-7205
မိတ်ဆွေ	-7206
အော်တို	-7207
ိုက်ဒရော	-7208
နှုန်းသည်	-7209
ဖြစ်ကြသည်	-7210
သည်ဖြစ်၍၊	-7211
▁ဆန့်ကျင်	-7212
သားတို့ကို	-7213
▁ကမ္ဘာကြီး	-7214
▁တောင်းဆို	-7215
တ္တူးကူးစက်	-7216
▁ယဉ်ကျေးမှု	-7217
▁အသုံးပြုသူ	-7218
▁ပင်မစာမျက်နှာ	-7219
so	-7220
▁Er	-7221
ဒါဟာ	-7222
စွန့်	-7223
ခံခဲ့ရ	-7224
ၾကာင္း	-7225
▁ချုပ်	-7226
▁လက်နက်	-7227
ကြဲ	-7228
▁48	-7229
▁IS	-7230
▁Mo	-7231
ခင်က	-7232
ဖို႔	-7233
မည့်	-7234
▁သင္	-7235
စာစဉ်	-7236
လက်မှ	-7237
▁View	-7238
▁တစ်လ	-7239
ခါးပတ်	-7240
စုပ်စက်	-7241
ပေးတယ်။	-7242
▁Royale	-7243
▁အာဖရိက	-7244
▁အာဗြဟံ	-7245
အမှန်တကယ်	-7246
▁ချဉ်းကပ်	-7247
▁operating	-7248
▁ဖြစ်ပါသည်။	-7249
.30	-7250
adi	-7251
omb	-7252
နစ္	-7253
▁TV	-7254
ြိတိ	-7255
▁23,	-7256
▁Out	-7257
▁၁၉၄	-7258
ဖိစီး	-7259
ဖို့၊	-7260
▁July	-7261
▁prot	-7262
▁ခန်း	-7263
အပ်ငွေ	-7264
▁ကွင်း	-7265
▁ခလုတ်	-7266
▁ပွင့်	-7267
ည်အချင်း	-7268
တိုးဆိုင်	-7269
▁ဒီနေရာမှာ	-7270
▁ရှန်ဟိုင်း	-7271
su	-7272
ကိဳ	-7273
▁မျ	-7274
ကုတ်	-7275
▁လှပ	-7276
ouble	-7277
နေဂျာ	-7278
ပေါင်	-7279
▁ဖြန့်	-7280
▁ရွှေ့	-7281
စီးပွား	-7282
တပ်ဖွဲ့	-7283
ြိတိသျှ	-7284
▁အက္ခရာ	-7285
▁အရေးပါ	-7286
နိုက်တက်	-7287
▁ကျန်းမာ	-7288
တစ်ပိုင်း	-7289
အကြီးဆုံး	-7290
ောင်ကောင်	-7291
အရည်အသွေးမြင့်	-7292
OL	-7293
ပိ	-7294
▁TS	-7295
▁el	-7296
▁ေန	-7297
▁ဘား	-7298
▁သင်၌	-7299
အခ်ိန္	-7300
▁BIBLE	-7301
▁မုန့်	-7302
▁လျော့	-7303
▁သိရှိ	-7304
ဖို့ကို	-7305
အခုတော့	-7306
▁ကဲ့ရဲ့	-7307
▁လောင်း	-7308
စကားပြော	-7309
စူးစိုက်	-7310
▁ဘောလုံး	-7311
▁VERSIONS	-7312
▁အသက်ကြီး	-7313
▁မဂ္ဂနီစီယမ်	-7314
con	-7315
ini	-7316
orn	-7317
နဲ႕	-7318
▁CA	-7319
▁we	-7320
ခန္ဓာကိုယ်	-7321
ဆက်သွယ်ရေး	-7322
ဆိုင်ကလုန်း	-7323
▁ပုံရိပ်တွေ	-7324
UD	-7325
.50	-7326
her	-7327
န္ထ	-7328
back	-7329
enor	-7330
စိန်	-7331
▁ဘီး	-7332
▁ႏွစ္	-7333
တခုကို	-7334
▁လူငယ်	-7335
▁သာမန်	-7336
ရှိကြ၏။	-7337
နွေးငွေ့	-7338
လျော်သော	-7339
ရှာဖွေရေး	-7340
▁ရရှိနိုင်	-7341
ရေချိုးခန်း	-7342
ိုက်ဒရောလစ်	-7343
▁လုံခြုံရေး	-7344
134	-7345
36"&	-7346
▁ပြား	-7347
မေတ္တာ	-7348
▁Crack	-7349
သမျှသော	-7350
▁မူရင်း	-7351
NE	-7352
400	-7353
▁Ab	-7354
cont	-7355
spot	-7356
နိတ်	-7357
▁det	-7358
ခလုတ်	-7359
အလွှာ	-7360
▁ချော	-7361
မီနီယံ	-7362
တစ်လုံး	-7363
လိုက်ပါ	-7364
သွားတဲ့	-7365
▁အကြိမ်	-7366
▁ဘာသာပြန်	-7367
TA	-7368
][	-7369
▁33	-7370
▁75	-7371
▁ခုန	-7372
နော်။	-7373
▁နို့	-7374
▁အနား	-7375
ဖြစ်နေ	-7376
အကူအညီ	-7377
▁စီစဉ်	-7378
▁ဆံပင်	-7379
agnetic	-7380
ဘူးလို့	-7381
ရစ္စမတ်	-7382
ိုက်ဆုံး	-7383
အင်္ဂလိပ်	-7384
နိုင်ငံတွင်	-7385
ပုံပြင်များ	-7386
အောက်စီဂျင်	-7387
ဗိုလ်ခြေအရှင်	-7388
df	-7389
ပံ	-7390
ena	-7391
နဦး	-7392
▁8,	-7393
▁9:	-7394
▁Kh	-7395
shop	-7396
မပေး	-7397
လာခံ	-7398
▁Per	-7399
▁Upd	-7400
▁သံသ	-7401
asino	-7402
▁York	-7403
▁Start	-7404
▁gauge	-7405
▁အသွေး	-7406
ကက်သလစ်	-7407
စံချိန်	-7408
▁ကိုဝယ်	-7409
ပြည်သို့	-7410
▁နေဖြင့်	-7411
▁အနက်ရောင်	-7412
ပဋိညာဉ်စာတမ်း	-7413
ani	-7414
ett	-7415
ဳိး	-7416
▁Av	-7417
ဘီလ်	-7418
တပြင်	-7419
▁West	-7420
▁back	-7421
▁ဘော်	-7422
က်ဘွယ်	-7423
▁မူတည်	-7424
ရိုက်တာ	-7425
▁Office	-7426
▁အနေနဲ့	-7427
Catalyst	-7428
▁တစ်ချိန်	-7429
ကြိမ်နှုန်း	-7430
ဆောင်ရွက်မှု	-7431
▁ခပ်သိမ်းသော	-7432
wo	-7433
-00	-7434
ဗီဇ	-7435
sing	-7436
▁one	-7437
▁ရန္	-7438
actor	-7439
ruity	-7440
ကြွလာ	-7441
▁Hunan	-7442
▁ပေတရု	-7443
ဆင်းသက်	-7444
▁သတိပေး	-7445
နပ်ရိက္ခာ	-7446
သောသူတို့	-7447
▁မဟုတ်ပါဘူး။	-7448
လေကြောင်းလိုင်း	-7449
▁၍	-7450
ict	-7451
မီက	-7452
လှပ	-7453
▁AN	-7454
▁SH	-7455
ခန္ဓာ	-7456
စာရေး	-7457
ရိုနာ	-7458
ဖတ်ရှု	-7459
ရိဘောဂ	-7460
▁Clamp	-7461
▁drive	-7462
စုံစမ်း	-7463
ဗို့အား	-7464
▁Delivery	-7465
▁WhatsApp	-7466
▁အဆုံးသတ်	-7467
မြို့နှင့်	-7468
▁Hydraulic	-7469
▁ချက်ချင်း	-7470
တော်အားဖြင့်	-7471
osp	-7472
rip	-7473
ထပ္	-7474
▁(0	-7475
▁War	-7476
▁sim	-7477
တစ်ခါ	-7478
ရကြ၏။	-7479
ေရာက္	-7480
▁Bill	-7481
▁Spec	-7482
arinet	-7483
ငါတို့၏	-7484
▁ပုံပြင်	-7485
အတွင်းမှာ	-7486
err	-7487
ဝမ်	-7488
▁8:	-7489
▁ne	-7490
▁(1)	-7491
ကုန်း	-7492
▁Xbox	-7493
မှုရှိ	-7494
လျက်နေ	-7495
သူ့ကို	-7496
▁ဤသို့	-7497
▁ယောဟန်	-7498
တစ်ဦးကို	-7499
နိုင်ခြင်း	-7500
▁လေကြောင်း	-7501
အင်ဂျင်နီယာ	-7502
လောင်းကစားရုံ	-7503
▁FileCatalyst	-7504
pi	-7505
ထီ	-7506
▁Su	-7507
aser	-7508
ဖိတ်	-7509
ရရင်	-7510
ရီမီ	-7511
ျပန္	-7512
other	-7513
ညီမျှ	-7514
ပြည့်	-7515
သွားကြ	-7516
oration	-7517
▁အိပ်ရာ	-7518
ရှေးခယျြ	-7519
ပျံသန်းမှု	-7520
▁သူတို့အား	-7521
တော်မူလျှင်၊	-7522
QL	-7523
၃၀	-7524
လေ၊	-7525
▁85	-7526
▁LC	-7527
▁ဒေါ	-7528
rivate	-7529
ပလ္လင်	-7530
▁ကြွက်	-7531
▁နိုက်	-7532
တစ်ပုဒ်	-7533
▁Network	-7534
▁၎င်းရဲ့	-7535
မြှင့်တင်	-7536
▁မျက်လုံး	-7537
▁များနှင့်	-7538
ေစ	-7539
၁၈	-7540
410	-7541
son	-7542
ငုံ	-7543
ညစ်	-7544
▁PE	-7545
▁QR	-7546
မှေး	-7547
▁Ass	-7548
▁PSA	-7549
ender	-7550
ချက်က	-7551
မူဝါဒ	-7552
▁John	-7553
ကယ်တင်	-7554
တွေကနေ	-7555
▁ပြုစု	-7556
ဖြောင့်	-7557
▁ကျွန်း	-7558
▁လည်ပတ်	-7559
▁လွှမ်း	-7560
နှင့်အညီ	-7561
▁ကြီးမားတဲ့	-7562
တော်များများ	-7563
ရှင်းလင်းလင်း	-7564
▁installation	-7565
၂၅	-7566
▁ေလ	-7567
ရာခံ	-7568
ရုတ်	-7569
လိင်	-7570
လိမ်	-7571
▁Run	-7572
usion	-7573
▁ကျေး	-7574
▁၂၀၁၆	-7575
ဆက်လက်	-7576
rasonic	-7577
င့်ဆုံး	-7578
▁ကိုအိတ်	-7579
▁ကွန်ယက်	-7580
▁ခန့်ထား	-7581
▁ဝန်ကြီး	-7582
စိုက်ပျိုး	-7583
ပိုရေးရှင်း	-7584
▁အများအပြား	-7585
▁????????????	-7586
72	-7587
Un	-7588
hem	-7589
အရေ	-7590
▁rel	-7591
လှတဲ့	-7592
နားထောင်	-7593
အဆုံးသတ်	-7594
▁ပဋိညာဉ်	-7595
ကြည့်ဖို့	-7596
My	-7597
-03	-7598
era	-7599
▁38	-7600
cord	-7601
rica	-7602
▁Sil	-7603
▁ကြံ	-7604
▁စပ်	-7605
ခက်ခဲ	-7606
စနစ်က	-7607
မ်ိဳး	-7608
မျှဝေ	-7609
▁Ruizh	-7610
▁ယူရို	-7611
atrader	-7612
ကြိုတင်	-7613
ရကြမည်။	-7614
ရှုခင်း	-7615
▁အားပေး	-7616
ခြင်းရဲ့	-7617
▁လုပ်ကြံ	-7618
တိုင်းမှာ	-7619
သူတို့သည်	-7620
▁ကိုအတွက်	-7621
▁လျှော့ချ	-7622
▁အဖြူရောင်	-7623
သွန်	-7624
▁(2)	-7625
▁ret	-7626
▁ရုံ	-7627
erson	-7628
ဌာန်း	-7629
ရာဇီး	-7630
▁ယှဉ်	-7631
ချမှတ်	-7632
ပါသည္။	-7633
ပုံငွေ	-7634
သောသူ၏	-7635
ော်ဒန်	-7636
▁အရှည်	-7637
အညွှန်း	-7638
ခြေလှမ်း	-7639
▁unlimited	-7640
ude	-7641
စဥ္	-7642
▁SO	-7643
71"&	-7644
တာလဲ	-7645
ရှစ်	-7646
▁wid	-7647
lement	-7648
လက်စွဲ	-7649
▁ကြွေး	-7650
▁လှည့်	-7651
ပွဲများ	-7652
အဘိဓါန်	-7653
လိမ့်မယ်	-7654
▁ဆင်းသက်	-7655
▁Clarinet	-7656
▁ကိုယ်ရေး	-7657
76	-7658
ij	-7659
ညာတ	-7660
အနု	-7661
tern	-7662
ယင်း	-7663
ograp	-7664
▁မယုံ	-7665
▁သုတ်	-7666
ခြင်း၏	-7667
ရီမီယံ	-7668
လက်ကား	-7669
▁ပွင့်	-7670
ပန်းချီ	-7671
ခွင့်ပြု	-7672
▁ကြိုးမဲ့	-7673
▁ထည့်သွင်း	-7674
ိုင်းအဝိုင်း	-7675
set	-7676
မစ်	-7677
ရာ၌	-7678
▁XL	-7679
▁(10	-7680
▁စို	-7681
ource	-7682
▁SITE	-7683
▁သနား	-7684
လက်နက်	-7685
▁မပြော	-7686
olution	-7687
နေကြသည်	-7688
ပြင်သစ်	-7689
ံ့ခိုင်	-7690
▁Bottle	-7691
ကနေတဆင့်	-7692
တွေထဲမှာ	-7693
ရေးအဖွဲ့	-7694
ရှိရာသို့	-7695
▁လုပ်နည်း	-7696
ကြီးမားတဲ့	-7697
▁ကီလိုဂရမ်	-7698
▁ပိုကောင်း	-7699
▁ပို့ဆောင်	-7700
လူကြိုက်များ	-7701
အသုံးပြုသူများ	-7702
aut	-7703
day	-7704
elp	-7705
jin	-7706
Coin	-7707
စွတ်	-7708
▁စည်	-7709
ခဲ့သူ	-7710
စေတဲ့	-7711
ဘုန်း	-7712
အနှစ်	-7713
▁Games	-7714
▁micro	-7715
▁အတွေး	-7716
ကိုက်ညီ	-7717
တည်နေရာ	-7718
▁သစ်တော	-7719
▁ခွန်အား	-7720
▁စိန်ခေါ်	-7721
▁ဆီလီကွန်	-7722
▁ယေရှုသည်	-7723
တစ်ဦးချင်းစီ	-7724
ပုဂ္ဂိုလ်ရေး	-7725
Fi	-7726
ႏႈ	-7727
▁me	-7728
▁16,	-7729
▁Soc	-7730
ောငျ့	-7731
စတိုင်	-7732
ဆင်းရဲ	-7733
ဟိုတယ်	-7734
▁တွစ်တာ	-7735
ညာတစီရင်	-7736
ဖျော်ဖြေ	-7737
မြို့သား	-7738
ရေးနှင့်	-7739
▁နွေရာသီ	-7740
▁ပျံသန်း	-7741
ယောင်းတိုင်	-7742
▁ဒေတာအရွယ်အစား	-7743
::	-7744
-09	-7745
ဒါက	-7746
▁ခ်	-7747
▁900	-7748
▁San	-7749
အရှေ့	-7750
▁အဓမ္မ	-7751
ချမ်းသာ	-7752
စနစ်များ	-7753
ထိုင်ခုံ	-7754
နောက်မှာ	-7755
ခေါင်းစဉ်	-7756
▁မတရားသော	-7757
▁အရေးပေါ်	-7758
တိုက်ခိုက်	-7759
ဖွဲ့စည်းပုံ	-7760
စိတ်ဝင်စားစရာ	-7761
HC	-7762
ဆပ်	-7763
တေသီ	-7764
ျပည္	-7765
▁+86	-7766
▁နံရံ	-7767
▁ဘုတ်	-7768
▁ဥာဏ်	-7769
စုံလင်	-7770
▁မက်စ်	-7771
▁Custom	-7772
▁ရုပ်တု	-7773
က်ဆေ့ခ်ျ	-7774
သဘောတူညီ	-7775
အပ်ချုပ်	-7776
▁ကစားတဲ့	-7777
▁လူတွေဟာ	-7778
▁ဟုတ်ကဲ့	-7779
အဆောက်အဦး	-7780
▁အနီရောင်	-7781
စီမံခန့်ခွဲ	-7782
▁တိရိစ္ဆာန်	-7783
▁ထာဝရဘုရားမိန့်	-7784
oxy	-7785
▁DR	-7786
▁Wi	-7787
▁ဖါ	-7788
အဆို	-7789
▁0.2	-7790
▁over	-7791
▁spec	-7792
▁အလည်	-7793
verter	-7794
ခဲ့ဘူး	-7795
▁ချိုး	-7796
▁အကယ်၍	-7797
အပြစ်ကို	-7798
▁ကလေးတွေက	-7799
▁သက်ရောက်	-7800
ရ်	-7801
▁←	-7802
ING	-7803
gan	-7804
ထီး	-7805
▁Ps	-7806
▁22,	-7807
▁Yam	-7808
▁စကြ	-7809
နိမျ့	-7810
ချိန်း	-7811
ဆိုတော့	-7812
နေတာကို	-7813
မြောင်း	-7814
လိုက်တာ	-7815
▁Module	-7816
တယ်ဆိုတာ	-7817
▁သက်တမ်း	-7818
romagnetic	-7819
▁Simulator	-7820
▁စမတ်ဖုန်း	-7821
နှီးမြှုပ်နှံမှု	-7822
po	-7823
-04	-7824
စစ္	-7825
▁EC	-7826
▁TC	-7827
ဒိန်	-7828
▁11,	-7829
▁CBD	-7830
▁WIC	-7831
ကာင္း	-7832
ဂြိုဟ်	-7833
လွှင့်	-7834
▁ဖြင့်	-7835
▁ဝက်အူ	-7836
▁ဒီေတာ့	-7837
▁လူကြီး	-7838
▁စျေးပေါ	-7839
ပံ့ပိုးသည်	-7840
▁တောင်းပန်	-7841
▁ရက်သတ္တပတ်	-7842
▁ကိုယ်စားလှယ်	-7843
▁သင်၏ဘုရားသခင်	-7844
24.	-7845
01"&	-7846
ared	-7847
ယာန်	-7848
▁iPad	-7849
▁ထမ်း	-7850
ဘက်မှာ	-7851
▁Clash	-7852
လောင်စာ	-7853
▁Holder	-7854
▁ပုလင်း	-7855
ကျော်သက်	-7856
▁နှစ်သစ်	-7857
▁ပုဂ္ဂိုလ်	-7858
မာလ်တီမီဒီယာ	-7859
58	-7860
ဗန်	-7861
▁နျ	-7862
38"&	-7863
://2	-7864
အလုပ္	-7865
▁Back	-7866
▁Miss	-7867
rystal	-7868
ဘောလုံး	-7869
▁ကလေးတွေ	-7870
▁နှိုင်း	-7871
လိုအပ်သော	-7872
▁မှားယွင်း	-7873
▁နက်ရှိုင်း	-7874
စတင်တည်ထောင်	-7875
9"	-7876
ူထူ	-7877
တုန်	-7878
ပညတ်	-7879
▁2.5	-7880
ကီလို	-7881
စွန့်	-7882
ဒုက္ခ	-7883
▁ကို။	-7884
▁ထိုအ	-7885
▁ဖမ်း	-7886
လေးကို	-7887
ဝတ်စုံ	-7888
သွားအလာ	-7889
▁Moving	-7890
ကောင်ကို	-7891
ဆက်ဆံရေး	-7892
▁အမှုကို	-7893
▁မင်းကြီး	-7894
▁မှပံ့ပိုးသည်	-7895
▁မိုဃ်းကောင်းကင်	-7896
51	-7897
-18	-7898
???	-7899
ein	-7900
ဘင်	-7901
alls	-7902
ဝံဂေ	-7903
▁Ben	-7904
▁Dig	-7905
စို့။	-7906
▁Rout	-7907
ကားကို	-7908
မှုမှာ	-7909
မက်ဘွယ်	-7910
မြို့မှ	-7911
▁သူမရဲ့	-7912
▁ဖယ်ရှား	-7913
▁၎င်းသည်	-7914
▁တည်ထောင်	-7915
▁သင်တစ်ဦး	-7916
အဆင့်မြင့်	-7917
▁Metatrader	-7918
hu	-7919
ဆွ	-7920
600	-7921
တ္ထ	-7922
▁Bi	-7923
67"&	-7924
code	-7925
ဏူထူ	-7926
တှေ့	-7927
မယ့္	-7928
▁110	-7929
▁အတွဲ	-7930
▁server	-7931
▁ဆင့်ဆို	-7932
▁အင်္ကျီ	-7933
▁အသုံးချ	-7934
▁တိတ်ဆိတ်	-7935
▁ဒါ့အပြင်	-7936
ခြင်းဖြင့်	-7937
လျှောက်ထား	-7938
/5	-7939
ဂီ	-7940
ora	-7941
ဘမ်	-7942
▁(8	-7943
▁vs	-7944
နိုး	-7945
▁ကျမ	-7946
ၾကည့္	-7947
▁City	-7948
▁အထီး	-7949
ဝံဂေလိ	-7950
▁ချွတ်	-7951
▁Center	-7952
▁တက်ကြွ	-7953
▁ကိုလည်း	-7954
▁ငိုကြွေး	-7955
▁Copyright	-7956
:11	-7957
oug	-7958
ဖြာ	-7959
odes	-7960
▁hot	-7961
▁Yang	-7962
▁ဘွား	-7963
▁ရောမ	-7964
မူရင်း	-7965
သိသာသာ	-7966
▁built	-7967
▁click	-7968
▁အလျား	-7969
ချင်တာက	-7970
ိုင်အခဲ	-7971
▁များစွာ	-7972
ချည်းနှီး	-7973
▁indicator	-7974
PM	-7975
၅၀	-7976
aha	-7977
တျော	-7978
ရင့်	-7979
▁မယ်	-7980
စာသား	-7981
မတ်စ်	-7982
▁Auto	-7983
▁info	-7984
ဘယ်မှာ	-7985
ရယ်မော	-7986
ရိုင်း	-7987
▁ရွှင်	-7988
နိုင်မည်	-7989
ဈေးနှုန်း	-7990
▁ရင်းမြစ်	-7991
ဆက်စပ်ပစ္စည်း	-7992
ညို	-7993
သေ့	-7994
▁Kn	-7995
▁pe	-7996
69"&	-7997
ၾကား	-7998
▁ရဲ႕	-7999
▁လန်	-8000
ချိတ်	-8001
▁0086	-8002
▁မလို	-8003
▁first	-8004
▁အကြင်	-8005
န့်အသတ်	-8006
▁Pocket	-8007
▁လျှော့	-8008
▁ခုနှစ်၊	-8009
ရရှိနိုင်ပါသည်	-8010
AW	-8011
rel	-8012
-100	-8013
▁တီး	-8014
▁သို	-8015
▁Port	-8016
ဝင်ငွေ	-8017
▁မြည်း	-8018
ထိခိုက်	-8019
▁Credit	-8020
▁String	-8021
▁နှုန်း	-8022
နောက်ထပ်	-8023
▁Channel	-8024
▁Ruizhun	-8025
▁ခရီးသည်	-8026
▁ဆိုပြီး	-8027
▁တော်မူ၏။	-8028
ချင်ပါတယ်။	-8029
▁အသိအမှတ်ပြု	-8030
ရုံဆွေးနွေးပွဲ	-8031
orc	-8032
အေန	-8033
irus	-8034
▁Fin	-8035
ffili	-8036
merce	-8037
င်္လာ	-8038
မိုင်	-8039
▁ဆွစ်	-8040
တောင့်	-8041
▁အမြတ်	-8042
▁အရိုး	-8043
▁ဤရွေ့	-8044
▁သားသမီး	-8045
▁အလားအလာ	-8046
▁ဝင်ရောက်	-8047
▁ဘယ်တော့မှ	-8048
▁သရုပ်ဆောင်	-8049
▁အမှတ်တံဆိပ်	-8050
အမျိုးမျိုးသော	-8051
▁●	-8052
uch	-8053
စ်မ	-8054
▁BS	-8055
ruck	-8056
တာပါ	-8057
▁360	-8058
▁Cal	-8059
▁Sco	-8060
▁လှေ	-8061
ကျိပ်	-8062
ရှေ့၌	-8063
အရမ်း	-8064
ရှိဆုံး	-8065
▁ငါ့အား	-8066
တိုင်းကို	-8067
▁ဆောင်ခဲ့	-8068
▁ဖြစ်ပေါ်	-8069
မျှော်လင့်	-8070
▁အလင်းများ	-8071
ulf	-8072
▁HS	-8073
▁SS	-8074
33"&	-8075
ုန္း	-8076
ဖြစ်၏	-8077
▁anti	-8078
▁မင္း	-8079
▁မဆို	-8080
ယက်နမ်	-8081
ရာအရပ်	-8082
ော်မတီ	-8083
စစ်အမှန်	-8084
▁တည်နေရာ	-8085
▁Panasonic	-8086
မ္မော်ရောင်	-8087
▁ကုန်ကျစရိတ်	-8088
54	-8089
AY	-8090
TR	-8091
iff	-8092
ပေ။	-8093
ဘက္	-8094
ျပီ	-8095
▁34	-8096
▁Mc	-8097
▁၂၄	-8098
guan	-8099
ming	-8100
ocol	-8101
▁Blu	-8102
▁ဂျီ	-8103
မုန့်	-8104
ရမည့်	-8105
▁Park	-8106
▁Sept	-8107
ဏ္ဍာန်	-8108
ပွခကျြ	-8109
ရနိုင်	-8110
▁တောက်	-8111
▁ဖိနပ်	-8112
▁လောကီ	-8113
▁စာလုံး	-8114
blogspot	-8115
အပြည့်အဝ	-8116
▁ကိုးကွယ်	-8117
▁ဆိုက်ကို	-8118
ဒစ်ဂျစ်တယ်	-8119
ဖွံ့ဖြိုးရေး	-8120
မှီတိုင်အောင်	-8121
▁International	-8122
An	-8123
OWN	-8124
ney	-8125
loud	-8126
tain	-8127
ဒင်း	-8128
ပွါး	-8129
အိမ္	-8130
▁TED	-8131
▁....	-8132
▁comm	-8133
▁weld	-8134
▁ပန်းကန်	-8135
▁သီးခြား	-8136
ပေးပါတယ်။	-8137
▁ငြိမ်ဝပ်	-8138
▁ပြန်သွား	-8139
ခံနိုင်ရည်	-8140
▁အစာရှောင်	-8141
▁သင်တို့အား	-8142
▁ချီးမြှောက်	-8143
3-	-8144
ME	-8145
ငင်	-8146
▁CF	-8147
▁Do	-8148
▁၂၁	-8149
mbyg	-8150
ယှက်	-8151
▁Est	-8152
▁Gib	-8153
▁USA	-8154
▁ထည်	-8155
ample	-8156
တင်နာ	-8157
▁cent	-8158
▁mesh	-8159
မူးယစ်	-8160
ယူပြီး	-8161
လက်မှု	-8162
▁Frame	-8163
တာမျိုး	-8164
▁August	-8165
တိုးချဲ့	-8166
▁Express	-8167
▁Virtual	-8168
ခန့်မှန်း	-8169
▁ဘိုးအင်း	-8170
နှင့်အခြား	-8171
▁တိုက်ခိုက်	-8172
▁ထောက်ပံ့ရေး	-8173
IR	-8174
ka	-8175
ထဲ၌	-8176
▁ms	-8177
ခွေး	-8178
▁27,	-8179
▁Mat	-8180
▁NFC	-8181
▁ကန်	-8182
▁သူရဲ	-8183
ဆိုပါက	-8184
စားသုံး	-8185
ယ်ဆောင်	-8186
▁Square	-8187
▁ဂျာမန်	-8188
▁လူဦးရေ	-8189
ကလေးများ	-8190
မောင်းသူ	-8191
မျိုးဆက်	-8192
လေ့ကျင့်	-8193
▁Surface	-8194
▁ဆန်းသစ်	-8195
▁တွေ့ဆုံ	-8196
▁မကောင်း	-8197
ရိုးစွန်း	-8198
/#	-8199
150	-8200
▁၄၀	-8201
34"&	-8202
မွတ္	-8203
ယူအဆ	-8204
တိန်း	-8205
▁2007	-8206
▁Kore	-8207
▁Oper	-8208
▁အပြု	-8209
ကျေနပ်	-8210
လျောက်	-8211
▁ခက်ခဲ	-8212
▁စာသား	-8213
ပြင်းထန်	-8214
▁password	-8215
▁Pneumatic	-8216
▁လျှို့ဝှက်	-8217
▁ခေါင်းဆောင်	-8218
ငှားရမ်းခြင်း	-8219
▁ဖုန်ကောက်ခံရေး	-8220
aki	-8221
reg	-8222
ငယ္	-8223
အန်	-8224
▁ဝိ	-8225
=5.0	-8226
▁bug	-8227
▁နှာ	-8228
နေတာက	-8229
နွမ်း	-8230
▁နှင်	-8231
▁အပတ်	-8232
သလောက်	-8233
▁တစ္ခု	-8234
▁ရှိသော	-8235
▁လူတွေက	-8236
ကြီးထွား	-8237
ချဉ်းကပ်	-8238
အရေးကြီး	-8239
▁အကောင့်	-8240
▁မွေးဖွား	-8241
နှစ်ဦးစလုံး	-8242
▁သို့သော်လည်း၊	-8243
="9	-8244
oss	-8245
ဝင္	-8246
▁99	-8247
▁FM	-8248
atab	-8249
umin	-8250
ဖြန်	-8251
▁17,	-8252
▁ယုံ	-8253
ကြွား	-8254
▁file	-8255
နှောင်	-8256
▁Print	-8257
အသေးစား	-8258
ေါပွခကျြ	-8259
▁devices	-8260
▁ဝါဂွမ်း	-8261
▁သင်ကြား	-8262
▁စုဆောင်း	-8263
▁သမုဒ္ဒရာ	-8264
▁အလည်အပတ်	-8265
▁Defending	-8266
ကက်သလစ်ယုံကြည်	-8267
မော်တော်ဆိုင်ကယ်	-8268
ody	-8269
စဥ်	-8270
လစီ	-8271
ေနာ	-8272
▁65	-8273
▁PR	-8274
ival	-8275
oter	-8276
ညွတ်	-8277
သာယာ	-8278
အုန်	-8279
▁တူး	-8280
ဆံပင်	-8281
လူတွေ	-8282
ဝက်အူ	-8283
▁Flex	-8284
▁မပြု	-8285
င်္သေ့	-8286
ကိုးကား	-8287
▁ဂြိုဟ်	-8288
ကိရိယာများ	-8289
▁ဝက်ဘ်ဆိုက်	-8290
▁ယခင်ဆောင်းပါး	-8291
TV	-8292
▁It	-8293
▁ပိ	-8294
berg	-8295
ခရို	-8296
တစုံ	-8297
▁24,	-8298
▁Gen	-8299
▁ဗာလ	-8300
သိရှိ	-8301
▁ကျူး	-8302
▁Found	-8303
▁input	-8304
မည်သည့်	-8305
▁ကြောင်	-8306
▁ဘယ်မှာ	-8307
▁အလှဆင်	-8308
▁Detector	-8309
▁ကြမ်းပြင်	-8310
▁စမ်းသပ်ခြင်း	-8311
li	-8312
ese	-8313
▁42	-8314
ဆုပ်	-8315
ရင္း	-8316
▁SKU	-8317
▁ခဲ့	-8318
▁မခံ	-8319
▁Coin	-8320
တည်ရှိ	-8321
▁Chain	-8322
ခြုံငုံ	-8323
လမ်းကို	-8324
▁format	-8325
▁အမိန့်	-8326
ခင်ပွန်း	-8327
ပျော်စရာ	-8328
သည်နှင့်	-8329
အဘယ်သို့	-8330
▁Install	-8331
▁browser	-8332
▁သင့်ကို	-8333
▁ရင်ဆိုင်	-8334
▁အစည်းအဝေး	-8335
▁ပံ့ပိုးမှု	-8336
▁အဆောက်အအုံ	-8337
61	-8338
rd	-8339
sm	-8340
ဖစ်	-8341
ဗင်	-8342
▁9,	-8343
▁1.2	-8344
▁25,	-8345
▁Arc	-8346
▁Hor	-8347
▁ဆပ်	-8348
▁န့်	-8349
▁ေတာ	-8350
▁၁၉၇	-8351
ident	-8352
ငါသည်	-8353
လင်ဒါ	-8354
▁sign	-8355
▁လောက	-8356
▁၂၀၁၁	-8357
charge	-8358
▁တွင်း	-8359
▁roller	-8360
▁ဖေါ်ပြ	-8361
▁အမေရိက	-8362
ပေါ်သို့	-8363
▁မှန်ကန်	-8364
အကြှနျုပျ	-8365
▁အပြည့်အဝ	-8366
လောက်အောင်	-8367
▁Transposh	-8368
ပူဇော်သက္ကာ	-8369
မိတ္တူးကူးစက်	-8370
အဖ	-8371
ဇော	-8372
▁HF	-8373
aung	-8374
န္တာ	-8375
အအေး	-8376
▁Ton	-8377
▁air	-8378
▁ရာဇ	-8379
ရွင္း	-8380
ardian	-8381
န္ထဝင်	-8382
လေးတွေ	-8383
တောင်မှ	-8384
္ဂြိုဟ်	-8385
▁Africa	-8386
▁button	-8387
ကြကုန်အံ့	-8388
လျက်ရှိ၏။	-8389
အပေါ်သို့	-8390
ချက်တွေကို	-8391
▁ဘာကြောင့်	-8392
▁အမျိုးမျိုးသော	-8393
udd	-8394
မေလ	-8395
ould	-8396
▁31,	-8397
Hebei	-8398
ကြပါ။	-8399
မှုန်	-8400
▁စူပါ	-8401
ခံစားရ	-8402
ရက်ဒစ်	-8403
ိုးရွာ	-8404
ပါသည်ဟု	-8405
▁ကတည်းက	-8406
▁ဗိသုကာ	-8407
▁Display	-8408
▁ချောင်း	-8409
▁မန္တလေး	-8410
▁ရှိသည်။	-8411
ကာကွယ်ဆေး	-8412
ကားတစ်စီး	-8413
ကြိုဆိုပါ	-8414
ရှုပ်ထွေး	-8415
▁ကျိန်ဆို	-8416
▁Universal	-8417
▁ထိုမှတပါး	-8418
ဘုရားကျောင်း	-8419
▁ကမ်းလှမ်းမှု	-8420
-06	-8421
▁4-	-8422
▁64	-8423
▁MS	-8424
ဌာန်	-8425
ရှုရ	-8426
▁12:	-8427
iddle	-8428
▁Phil	-8429
▁သည်း	-8430
ခဲ့သည့်	-8431
ချိုင်း	-8432
စည်းဝေး	-8433
စရာဘို့	-8434
▁screen	-8435
ဆော့ဖ်ဝဲ	-8436
▁အသီးအသီး	-8437
▁ကိုင်တွယ်	-8438
▁ဘုတ်အဖွဲ့	-8439
စက	-8440
raz	-8441
▁-&	-8442
▁bl	-8443
▁Lee	-8444
▁ဂရု	-8445
▁Anal	-8446
▁Penn	-8447
ပွဲစဉ်	-8448
ရော်ဘာ	-8449
▁သက်သာ	-8450
mbygden	-8451
ကွန်ရက်	-8452
နေကြတဲ့	-8453
ဖြစ်သည့်	-8454
ကိုယ်တော်	-8455
လိမ့်မည်။	-8456
▁Dongguan	-8457
▁insulator	-8458
▁ဆိုလိုတာက	-8459
တို့သည်လည်း	-8460
▁နှိုင်းယှဉ်	-8461
▁အင်ဂျင်နီယာ	-8462
);	-8463
itt	-8464
ရှူး	-8465
▁Jin	-8466
▁တည္	-8467
▁Make	-8468
▁Part	-8469
outube	-8470
ပေမဲ့၊	-8471
▁ကုလား	-8472
များပုံ	-8473
လှန်ရေး	-8474
▁ရန္ကုန္	-8475
▁သူနာပြု	-8476
သေးငယ်တဲ့	-8477
▁ယေရှုခရစ်	-8478
▁စမ်းသပ်မှု	-8479
gu	-8480
မး	-8481
ဒေး	-8482
▁Me	-8483
ique	-8484
စေ၍၊	-8485
▁che	-8486
▁စော	-8487
▁ဗမာ	-8488
▁ဘန်	-8489
▁card	-8490
▁ခုနက	-8491
▁ငါ၏အ	-8492
▁မယား	-8493
▁၂၀၁၂	-8494
ကျွမ်း	-8495
မှတ်စု	-8496
ရမည်ဟု	-8497
▁Instit	-8498
▁ဆရာဝန်	-8499
တိုင်းတာ	-8500
မျှလောက်	-8501
▁Collect	-8502
▁စည်းဝေး	-8503
▁အော်ဟစ်	-8504
တီးရီးယား	-8505
အချိန်တွင်	-8506
▁ရောင်းဈေး	-8507
▁ပိုင်ဆိုင်	-8508
များပုံသွန်း	-8509
ယူ၍	-8510
လည္	-8511
ဟာယ	-8512
ness	-8513
ရတာက	-8514
လမ္း	-8515
▁180	-8516
break	-8517
ကဘာလဲ	-8518
စပျစ်	-8519
ဇာလန်	-8520
လာခဲ့	-8521
အားသာ	-8522
နိုင်ငံ၏	-8523
▁Adapter	-8524
▁အမည်ပေး	-8525
▁စာအုပ်များ	-8526
▁သို့ဖြစ်၍၊	-8527
▁အရင်းအမြစ်	-8528
အသုံးပြုသည်။	-8529
စိတ်တစ်ပိုင်း	-8530
GE	-8531
တမ်	-8532
ကျို	-8533
▁Emb	-8534
စေသည်	-8535
ပေးပါ	-8536
အယ်လ်	-8537
▁မြည်	-8538
▁အအေး	-8539
▁ဧရာမ	-8540
opping	-8541
ကြောင်	-8542
အနောက်	-8543
▁Jiang	-8544
▁သွန်း	-8545
မည်သို့	-8546
အားထုတ်	-8547
▁Fruity	-8548
▁cookies	-8549
တဲ့အခါမှာ	-8550
▁Business	-8551
သောအမှုကို	-8552
▁September	-8553
▁အဘယ်သူသည်	-8554
အခုတော့ဆက်သွယ်ပါ	-8555
KW	-8556
ကေ့	-8557
မွ်	-8558
▁PS	-8559
arot	-8560
unch	-8561
▁ကတ်	-8562
ခ်ိန္	-8563
တဲ့သူ	-8564
မြူလာ	-8565
▁Ster	-8566
နိမိတ်	-8567
သူကြီး	-8568
အကျင့်	-8569
▁Class	-8570
▁ခရမ်း	-8571
က္ခဒိန်	-8572
နေတုန်း	-8573
▁မျှော်	-8574
▁မှတ်မိ	-8575
ကြလော့ဟု	-8576
အဝတ်အစား	-8577
▁ဘဏ္ဍာရေး	-8578
▁ခန့်မှန်း	-8579
နှင့်ပေးသွင်း	-8580
LS	-8581
ပလာ	-8582
▁4:	-8583
▁cs	-8584
ials	-8585
mark	-8586
ners	-8587
ကြပြီ	-8588
▁Phot	-8589
▁[201	-8590
▁ကွက်	-8591
▁နဂါး	-8592
▁နည္း	-8593
elenor	-8594
စေဖို့	-8595
▁စုစည်း	-8596
ဦးနှောက်	-8597
▁ပေးပို့	-8598
ပေးတော်မူ	-8599
အခမ်းအနား	-8600
▁ကိုအပေါ်	-8601
▁ကြည့်ရှု	-8602
▁စွမ်းအား	-8603
ကြိုဆိုပွဲ	-8604
ပိုင်ခွင့်	-8605
▁မြို့တော်	-8606
▁မှောင်မိုက်	-8607
▁ကမ္ဘာတစ်လွှား	-8608
da	-8609
လာ၍	-8610
ာယ်	-8611
၂၀၀	-8612
LOAD	-8613
ello	-8614
ဒိုး	-8615
ရဲလ်	-8616
▁Ins	-8617
-2017	-8618
မြှေး	-8619
▁DOWN	-8620
▁Live	-8621
▁ကဏ္ဍ	-8622
▁မုသာ	-8623
▁Gibbs	-8624
▁gener	-8625
ဘွယ်သော	-8626
ရိုဂျင်	-8627
လက်တွေ့	-8628
သူတို့၏	-8629
အသုံးချ	-8630
▁ဖြစ်ရပ်	-8631
ကမ္ဘာလုံး	-8632
စမ်းသပ်မှု	-8633
▁အစောပိုင်း	-8634
▁စိတ်ဝင်စားစရာ	-8635
62	-8636
eta	-8637
ots	-8638
ဆက္	-8639
ပဲ့	-8640
▁5:	-8641
▁BT	-8642
ပုံး	-8643
မဝင်	-8644
umber	-8645
ဘဏ္ဍာ	-8646
အတှကျ	-8647
▁Book	-8648
ပူးတွဲ	-8649
ဖွယ်ရာ	-8650
လက်ကို	-8651
လေပြီ။	-8652
လွှင့်	-8653
▁Laptop	-8654
▁အရှိန်	-8655
▁ဒေါက်တာ	-8656
မှုနှုန်း	-8657
ဖုံးလွှမ်း	-8658
သတ်မှတ်ချက်	-8659
▁ယူနိုက်တက်	-8660
CS	-8661
off	-8662
ရမ္	-8663
ြင္	-8664
▁Cy	-8665
cent	-8666
▁3.0	-8667
ဟုဆို	-8668
အရိုး	-8669
▁ကြုံ	-8670
▁ကွယ်	-8671
▁လူထု	-8672
ခိုင်မာ	-8673
▁အရပ်ရပ်	-8674
▁DOWNLOAD	-8675
▁ကြီးမြတ်	-8676
▁ထွက်သွား	-8677
မဟုတ်ပါဘူး	-8678
▁သင်ခန်းစာ	-8679
▁ဤဆောင်းပါး	-8680
pm	-8681
ဣသ	-8682
use	-8683
▁AM	-8684
iper	-8685
type	-8686
ကန်း	-8687
ရင့်	-8688
လျှာ	-8689
▁Alt	-8690
▁Lad	-8691
▁Amaz	-8692
▁Real	-8693
▁စပါး	-8694
▁ဆာဗာ	-8695
▁မွန်	-8696
▁၂၀၁၄	-8697
ဝါးကပ်	-8698
▁Track	-8699
▁အထုပ်	-8700
ကန့်သတ်	-8701
▁Select	-8702
ယားဘတ်စ်	-8703
▁အသက်ရှူ	-8704
▁အားထုတ်	-8705
သူများသည်	-8706
▁Compress	-8707
▁အောက်မှာ	-8708
▁ကာကွယ်ဆေး	-8709
▁ရွှင်လန်း	-8710
▁ကိုပြန်လည်ဆန်း	-8711
rif	-8712
ဟင်	-8713
39"&	-8714
ayer	-8715
ကွပ်	-8716
▁DNA	-8717
ister	-8718
မမြင်	-8719
ိမ်ခံ	-8720
▁Music	-8721
စံညွှန်း	-8722
အလုံးစုံ	-8723
ပိုကောင်း	-8724
▁လေ့ကျင့်	-8725
▁ထိုမိန်းမ	-8726
▁အိတ်ဆောင်	-8727
အတွင်းပိုင်း	-8728
ကျေးဇူးတင်ပါသည်	-8729
▁ဖြတ်တောက်ခြင်း	-8730
ဆိ	-8731
▁≤	-8732
ada	-8733
pha	-8734
ဖဲ့	-8735
▁Az	-8736
▁sm	-8737
edia	-8738
lord	-8739
စုတ်	-8740
ီဒင်	-8741
▁ဧဖရ	-8742
ublic	-8743
ပြည်၊	-8744
▁Song	-8745
▁တန်ဆာ	-8746
ရိတ်သတ်	-8747
သဏ္ဍာန်	-8748
နိုင်ပါ။	-8749
▁ရှုခင်း	-8750
▁အဆင်ပြေ	-8751
▁ရှိပါတယ်	-8752
▁ဦးခေါင်း	-8753
▁သိမ်းဆည်း	-8754
တော်တို့ကို	-8755
ပညာရှင်များ	-8756
ဝါးကပ်တိုင်	-8757
▁အင်တာနက်ကို	-8758
▁အကြောင်းရင်း	-8759
▁သွေးခုန်နှုန်း	-8760
asa	-8761
ဂန်	-8762
ဳပ္	-8763
▁MH	-8764
ပျေါ	-8765
▁Saf	-8766
▁ပန်	-8767
▁အမှီ	-8768
ကြတယ်၊	-8769
ဆိုတာက	-8770
▁Title	-8771
▁ဂဏန်း	-8772
▁နံ့သာ	-8773
▁သွား၍	-8774
ပေးပြီး	-8775
▁မရောက်	-8776
▁Edition	-8777
▁ခြားနား	-8778
▁ဒါကတော့	-8779
ချီးမွမ်း	-8780
ပြည်တွင်း	-8781
ရည်ညွှန်း	-8782
▁ကောင်းကင်ဘုံ	-8783
%)	-8784
94	-8785
MHz	-8786
ORE	-8787
yle	-8788
ရား	-8789
▁စက	-8790
ကြက်	-8791
ချန်	-8792
ိတ်လ	-8793
▁Bah	-8794
▁Bow	-8795
▁Eth	-8796
▁စတု	-8797
▁ျပီး	-8798
မည်ကို	-8799
▁ဒေါင်	-8800
နိုင်ပါ	-8801
မကောင်း	-8802
▁အကျင့်	-8803
ဖြန့်ချိ	-8804
▁စစ်တမ်း	-8805
8"&	-8806
ild	-8807
opt	-8808
န္႔	-8809
ေခၚ	-8810
ကြတာ	-8811
ယာက္	-8812
▁15,	-8813
▁HGH	-8814
aking	-8815
▁ဆို၏။	-8816
နောက်ခံ	-8817
င်္လာနေ့	-8818
လုပ်နည်း	-8819
▁Forward	-8820
ခြင်းအတွက်	-8821
တိုးမြှင့်	-8822
ဝက်ဘ်ဆိုက်	-8823
အီလက်ထရောနစ်	-8824
▁ရေချိုးခန်း	-8825
ရာခိုင်နှုန်း	-8826
IG	-8827
OD	-8828
/10	-8829
lam	-8830
▁ဟိ	-8831
angu	-8832
ries	-8833
၂၀၁၉	-8834
▁10%	-8835
▁21,	-8836
▁ရီး	-8837
puter	-8838
လျှော	-8839
ဦးစီး	-8840
▁part	-8841
▁တက်ဘ	-8842
ကုထုံး	-8843
တောက်ပ	-8844
လို့မရ	-8845
အသောက်	-8846
စွမ်းအား	-8847
▁options	-8848
▁ရက်တွင်	-8849
▁ရှင်းပြ	-8850
အဆောက်အအုံ	-8851
▁သီချင်းဆို	-8852
▁အဆင့်မြင့်	-8853
▁း	-8854
ald	-8855
ကာအ	-8856
ေသး	-8857
Book	-8858
erry	-8859
html	-8860
ixel	-8861
ones	-8862
ထုတ္	-8863
▁14,	-8864
▁ဒို	-8865
ကေတာ့	-8866
▁Uber	-8867
▁သင်၏အ	-8868
ဟောပြော	-8869
တက်ရောက်	-8870
▁တက်ဘလက်	-8871
▁ပညာရှင်	-8872
▁သင်တို့၌	-8873
▁ပါဝင်သည်။	-8874
▁အလုပ်အကိုင်	-8875
COM	-8876
ခပ်	-8877
▁ေပ	-8878
dong	-8879
ffic	-8880
ibbe	-8881
isco	-8882
arbon	-8883
ပါင္း	-8884
မောင်	-8885
▁လေလံ	-8886
စီးတီး	-8887
စ္စတန်	-8888
တတ်ပညာ	-8889
တို့က၊	-8890
▁ချိတ်	-8891
▁ဖြည့်	-8892
ရှာတွေ့	-8893
ောင်းဘီ	-8894
▁ကော်ဖီ	-8895
▁Manager	-8896
▁ခွဲခြား	-8897
ရှိသမျှတို့ကို	-8898
AV	-8899
fs	-8900
als	-8901
▁2-	-8902
ခေါက်	-8903
ဂျင်း	-8904
မရှိ၊	-8905
▁Ring	-8906
▁ဗင်္	-8907
နှင့်၊	-8908
▁Mills	-8909
▁crypt	-8910
duction	-8911
ရေးဒင်း	-8912
ုံလိုက်	-8913
▁ရုပ်သံ	-8914
ရင်းမြစ်	-8915
လက်ကိုင်	-8916
▁ပန်းခြံ	-8917
▁တည်ငြိမ်	-8918
ဖျေါပွခကျြ	-8919
▁ကြ်န္ေတာ္	-8920
▁ပုဂ္ဂလိကဂျက်	-8921
▁တောင်ကိုရီးယား	-8922
စီမံကိန်းများကို	-8923
81	-8924
LD	-8925
ဖူ	-8926
utm	-8927
တုံ	-8928
▁te	-8929
တွား	-8930
ပါယာ	-8931
▁Jun	-8932
ရှိသူ	-8933
▁More	-8934
▁hard	-8935
▁work	-8936
နိုင်း	-8937
▁ကွန်ပ	-8938
မွမ်းမံ	-8939
ချောမွေ့	-8940
ဆက်မပြတ်	-8941
▁မည်သည့်	-8942
▁တကယ်တမ်း	-8943
အထောက်အထား	-8944
▁မဟုတ်ဘူး။	-8945
ကင်းလုံခြုံ	-8946
စမ်းသပ်ခြင်း	-8947
▁နည်းလမ်းတွေ	-8948
eel	-8949
late	-8950
▁30%	-8951
▁Bel	-8952
▁Bro	-8953
▁IOS	-8954
ities	-8955
▁Smart	-8956
▁Touch	-8957
▁multi	-8958
ဆောင်သူ	-8959
မားဆုံး	-8960
▁ဖြစ်နေ	-8961
▁သတိထား	-8962
▁National	-8963
▁အဝတ်အစား	-8964
အောက်ဆီဂျင်	-8965
ကြီးများအသင်း	-8966
ယုံကြည်စိတ်ချ	-8967
xt	-8968
ယီ	-8969
▁o	-8970
ဆုိ	-8971
ညံ့	-8972
▁Jet	-8973
▁Los	-8974
aints	-8975
မွာက္	-8976
လေတပ်	-8977
ုတ်ချ	-8978
▁Edge	-8979
▁Feat	-8980
▁သော်	-8981
ပ္ပာယ်	-8982
မော်တာ	-8983
▁Super	-8984
▁ဂစ်တာ	-8985
▁ဂျွန်	-8986
▁ရှိ၏။	-8987
▁အတန်း	-8988
ဝှက်ကို	-8989
▁ဆိုရင်	-8990
ailbreak	-8991
တွေကတော့	-8992
မြင့်မား	-8993
လုံလောက်	-8994
▁Scooter	-8995
▁တော်ကို	-8996
လှုံ့ဆော်	-8997
အချို့သော	-8998
ချင်းစီကို	-8999
အသိအမှတ်ပြု	-9000
▁စာဖတ်ခြင်း	-9001
OC	-9002
TP	-9003
၁၂	-9004
▁ကပ	-9005
anta	-9006
▁[3]	-9007
▁Apps	-9008
▁Matt	-9009
▁ဒီဟာ	-9010
တို့ဟာ	-9011
ဘူးလေ။	-9012
လပ်မြေ	-9013
▁about	-9014
▁ပုလွေ	-9015
ulation	-9016
▁ပြည်သူ	-9017
▁အကျဉ်း	-9018
▁ဂဟေဆော်	-9019
▁Dedusting	-9020
သုံးစွဲဖို့	-9021
ရယ်မောသံများ	-9022
▁ဖေဖော်ဝါရီလ	-9023
ဆေးဘက်ဆိုင်ရာ	-9024
▁ကျွန်မတို့ကို	-9025
ရိုနာဗိုင်းရပ်စ်	-9026
Tr	-9027
့ဒ်	-9028
▁Ko	-9029
▁SL	-9030
▁13,	-9031
▁26,	-9032
▁Tur	-9033
▁အယ်	-9034
imate	-9035
ising	-9036
အခေါ်	-9037
▁ၿပီး	-9038
သက်သက်	-9039
သေဆုံး	-9040
ဓါတ်ပုံ	-9041
ပြုပြီး	-9042
မီးခွက်	-9043
အမျိုး၊	-9044
▁အိမ်မှာ	-9045
ကာလအတွင်း	-9046
▁ရောက်ရှိ	-9047
▁လုပ်ပြီး	-9048
▁လူကြိုက်	-9049
ကျင်ကျောက်	-9050
လက္ခဏာများ	-9051
အခြေခံပြီး	-9052
▁Holmbygden	-9053
▁parameters	-9054
orr	-9055
ဗား	-9056
▁ရိ	-9057
cell	-9058
ောငျ	-9059
▁61%	-9060
▁Cam	-9061
▁Rem	-9062
▁rem	-9063
uxury	-9064
မသွား	-9065
▁ရုတ်	-9066
▁အလေး	-9067
▁၂၀၁၃	-9068
ခဲ့ဖူး	-9069
တာရှည်	-9070
ပညာရေး	-9071
မီးစက်	-9072
သီးကို	-9073
▁အသွင်	-9074
▁Middle	-9075
▁Yamaha	-9076
▁ဇိအုန်	-9077
မည်နည်း။	-9078
▁ကြီးထွား	-9079
▁ပွင့်လင်း	-9080
▁မျက်နှာဖုံး	-9081
ကွဲပြားခြားနား	-9082
09	-9083
EA	-9084
▁cr	-9085
▁ob	-9086
aker	-9087
book	-9088
news	-9089
▁အာမ	-9090
ဒီဂရီ	-9091
စက်ဘီး	-9092
စေချင်	-9093
နိုင်။	-9094
မှုသည်	-9095
▁ပြွန်	-9096
စိတ်ကို	-9097
ရောနှော	-9098
သည့်အခါ	-9099
ညီအစ်ကို	-9100
▁Company	-9101
ငါတို့သည်	-9102
▁ဓာတ်ပုံများ	-9103
▁ကျောက်မီးသွေး	-9104
BA	-9105
ji	-9106
-22	-9107
asy	-9108
န္ဓ	-9109
မာက္	-9110
ွေတာ	-9111
▁????	-9112
▁Plan	-9113
▁လံုး	-9114
င်္ဂါး	-9115
သူအိမ်	-9116
▁ကြေညာ	-9117
ကာအကွယ်	-9118
▁မေတ္တာ	-9119
▁ယော်ဒန်	-9120
မြေမှုန့်	-9121
လေယာဉ်ပျံ	-9122
▁အလွိုင်း	-9123
▁အလုပ်သမား	-9124
▁အတွင်းပိုင်း	-9125
bl	-9126
▁SM	-9127
atus	-9128
mber	-9129
ဟုန်	-9130
▁Pok	-9131
izing	-9132
ဆိုင္	-9133
ထဲရေး	-9134
ဒီယမ်	-9135
လက်ရာ	-9136
သိန်း	-9137
စုနှစ်	-9138
▁Photo	-9139
▁ဒီမွာ	-9140
ကြီးတွေ	-9141
ထိုသို့	-9142
မရှိသော	-9143
အိန္ဒိယ	-9144
▁အားနည်း	-9145
ထမ်းဆောင်	-9146
▁ဗြိတိသျှ	-9147
ပင်လယ်အော်	-9148
အကျိုးကျေးဇူး	-9149
▁Di	-9150
▁RC	-9151
▁new	-9152
▁အခြေ	-9153
မှုပါ။	-9154
ူဒါန်း	-9155
▁Hydro	-9156
သူနာပြု	-9157
မက်ဆေ့ခ်ျ	-9158
▁သင်ဒီမှာ	-9159
တိရိစ္ဆာန်	-9160
နိုင်ငံတကာ	-9161
ရှိသမျှကို	-9162
▁Controller	-9163
▁စာရွက်စာတမ်း	-9164
-40	-9165
weet	-9166
▁မှ။	-9167
ကင်ဆာ	-9168
ပေးသူ	-9169
ဝက်ဝံ	-9170
▁Next	-9171
▁မောဘ	-9172
ဂျင်စီ	-9173
တစ်စုံ	-9174
▁မှော်	-9175
▁အချစ်	-9176
အဝတ်ကို	-9177
▁Affili	-9178
▁Router	-9179
▁Street	-9180
▁ကြေးဝါ	-9181
▁လန်ဒန်	-9182
ပြစ်မှား	-9183
ရောဘုရင်	-9184
▁ဆင်ခြင်	-9185
ပေါင်းစည်း	-9186
▁နိုက်ကလပ်	-9187
မျက်နှာဖုံး	-9188
▁Foundation	-9189
▁ကျနော်တို့က	-9190
▁Electromagnetic	-9191
ဂဲ	-9192
MDC	-9193
ico	-9194
itz	-9195
▁CH	-9196
▁To	-9197
35"&	-9198
ella	-9199
reat	-9200
နှက်	-9201
မာရိ	-9202
လက်၌	-9203
ံရှာ	-9204
▁fit	-9205
▁တေး	-9206
▁သုည	-9207
achin	-9208
ိုင့်	-9209
ရာသို့	-9210
ောက်အမ	-9211
စိတ်ဖြာ	-9212
တည်းမှာ	-9213
ဝတ်ရတနာ	-9214
▁သတိပြု	-9215
တို့သည်၊	-9216
နှိပ်ပါ။	-9217
အလျှောက်	-9218
တစ်လျှောက်	-9219
▁လျင်မြန်စွာ	-9220
▁‘	-9221
Bet	-9222
ခန္း	-9223
ဂီယာ	-9224
ထရစ်	-9225
ရွန်	-9226
အစီး	-9227
▁Lit	-9228
▁our	-9229
24.99	-9230
etate	-9231
https	-9232
အာကာသ	-9233
▁Last	-9234
▁dual	-9235
▁တော၌	-9236
covery	-9237
▁သားရေ	-9238
ariable	-9239
ခဲ့ဘူး။	-9240
ပိုရိတ်	-9241
တွေ့မြင်	-9242
နီးချင်း	-9243
များဖြင့်	-9244
▁တိုးချဲ့	-9245
ယဉ်ကျေးမှု	-9246
အပြုံလိုက်	-9247
▁နိုင်ပါတယ်	-9248
မော်တော်ယာဉ်	-9249
▁လုပ်ငန်းစဉ်	-9250
▁အခွင့်အလမ်း	-9251
မလာ	-9252
aily	-9253
anks	-9254
တရက်	-9255
ထာဝရ	-9256
အမွေ	-9257
▁ငါ၌	-9258
တစ်စု	-9259
မပြော	-9260
ရမယ်။	-9261
ွိုင်	-9262
▁Round	-9263
▁ပြည့်	-9264
ategory	-9265
သည်များ	-9266
အနေအထား	-9267
▁Indust	-9268
▁Prepar	-9269
ဦးခေါင်း	-9270
▁ရေဒီယို	-9271
▁လုပ်ထား	-9272
တော်ချိန်	-9273
▁အမင်္ဂလာ	-9274
▁ခရီးစဉ်လီ	-9275
လျက်ရှိသည်။	-9276
▁ကြွေးကြော်	-9277
▁ရှန်ဒေါင်း	-9278
▁အမိန့်တော်	-9279
ရမည်အကြောင်း	-9280
RI	-9281
ေျ	-9282
bet	-9283
နယ္	-9284
▁ဘူ	-9285
ဆုတ်	-9286
ပရော	-9287
▁KTM	-9288
▁မနာ	-9289
▁ေရာ	-9290
ဝေမျှ	-9291
▁Mult	-9292
▁line	-9293
▁ချေး	-9294
▁ဂွမ်	-9295
▁လုယူ	-9296
▁သင်း	-9297
ထွက်လာ	-9298
▁ကုန်း	-9299
▁နှစ်ဆ	-9300
▁အရိပ်	-9301
နည်းနဲ့	-9302
ပြည်သား	-9303
မြန်ဆန်	-9304
▁ဂျာမနီ	-9305
▁သိမြင်	-9306
▁ဧဖရိမ်	-9307
▁ဝန်ထမ်း	-9308
ဒါမှမဟုတ်	-9309
လိုက်ပြီး	-9310
▁ခြင်္သေ့	-9311
▁စာမေးပွဲ	-9312
▁ပွင့်လင်း	-9313
▁အချို့သော	-9314
ရကြလိမ့်မည်။	-9315
နောက်ဆုံးပေါ်	-9316
ရူ	-9317
ဥပ	-9318
▁{	-9319
.95	-9320
▁39	-9321
▁7:	-9322
ညစ်ည	-9323
▁ညှိ	-9324
တံတား	-9325
ဘဝကို	-9326
အပျက်	-9327
အဖုံး	-9328
iation	-9329
စေမည်။	-9330
ဒိနိတ်	-9331
လှိုက်	-9332
▁$1.99	-9333
▁Union	-9334
ပထမဆုံး	-9335
ပျမ်းမျှ	-9336
ရှိသည်ဟု	-9337
▁လအတွင်း	-9338
▁December	-9339
ကြီးစွာသော	-9340
အလင်းရောင်	-9341
▁ဒေါင်လိုက်	-9342
▁အလျင်အမြန်	-9343
ကျွမ်းကျင်သူ	-9344
စာရွက်စာတမ်း	-9345
NG	-9346
-16	-9347
aps	-9348
ava	-9349
lon	-9350
ပဲ၊	-9351
▁mo	-9352
▁mol	-9353
otrop	-9354
ထွင်း	-9355
များ၌	-9356
ဣသရေလ	-9357
ကွဲမှု	-9358
စေသည်။	-9359
တယ်လေ။	-9360
များ၏အ	-9361
▁Intel	-9362
▁အင်တာ	-9363
▁နေ့စွဲ	-9364
▁ဝင်ငွေ	-9365
မန်နေဂျာ	-9366
▁ကန့်သတ်	-9367
▁ထိရောက်	-9368
ဖြစ်သည်ဟု	-9369
လုပ်ခြင်း	-9370
▁စိတ်ပျက်	-9371
▁ဗီယက်နမ်	-9372
အစီရင်ခံစာ	-9373
▁အားလပ်ရက်	-9374
73	-9375
စၥ	-9376
▁?	-9377
ati	-9378
che	-9379
war	-9380
ဘယ္	-9381
အမ်	-9382
စွန်	-9383
တာဟာ	-9384
အုတ်	-9385
▁ဟစ်	-9386
ဒါကို	-9387
အမျက်	-9388
▁Face	-9389
▁game	-9390
▁port	-9391
သတ္တဝါ	-9392
▁valve	-9393
▁ကတော့	-9394
▁ဒေသခံ	-9395
▁Advert	-9396
ခဲ့ကြသည်	-9397
▁ချန်ထား	-9398
▁စားသုံး	-9399
▁သင်္ချာ	-9400
▁အဲဒါနဲ့	-9401
အနည်းဆုံး	-9402
အပြာရောင်	-9403
▁ကြည့်ရန်	-9404
▁တစ်ခုမှာ	-9405
▁ဖြစ်ပျက်	-9406
▁ဖုန်းဘီလ်	-9407
52	-9408
PE	-9409
EST	-9410
ily	-9411
ယန်	-9412
▁Ke	-9413
ards	-9414
under	-9415
နွေဦး	-9416
ေတာင္	-9417
▁မြက်	-9418
ပြန်လာ	-9419
ဆန်းသစ်	-9420
▁အပိုဒ်	-9421
rostatic	-9422
▁Coating	-9423
များအဖြစ်	-9424
ရေခဲသေတ္တာ	-9425
ောက်အမေရိက	-9426
▁Ultrasonic	-9427
နိုင်ရန်အတွက်	-9428
▁သိပ္ပံပညာရှင်	-9429
ကံ	-9430
ဇံ	-9431
rew	-9432
▁TR	-9433
72"&	-9434
▁POS	-9435
▁fil	-9436
▁ဘုံ	-9437
hydro	-9438
ocurr	-9439
တ်စား	-9440
bragon	-9441
ibbean	-9442
mylord	-9443
လှဲစွာ	-9444
အင်အား	-9445
▁silic	-9446
▁ကင်ဆာ	-9447
▁သိုက်	-9448
eration	-9449
▁ကုသမှု	-9450
▁ကြိုက်	-9451
လိုက်တာက	-9452
▁ဓာတ်ငွေ့	-9453
▁အလုံးစုံ	-9454
▁Caribbean	-9455
▁မောရှေအား	-9456
▁အကြှနျုပျ	-9457
bragonmylord	-9458
949	-9459
အဓိ	-9460
▁၂၆	-9461
လို႕	-9462
▁Nin	-9463
▁Sky	-9464
▁pay	-9465
endly	-9466
လက်ျာ	-9467
့ဒ်ဝဲ	-9468
▁mark	-9469
▁ကဗျာ	-9470
တစ်ရပ်	-9471
ုန်ကန်	-9472
▁Sheet	-9473
▁ဘာတွေ	-9474
▁အရှက်	-9475
ကောင်စီ	-9476
လက်သို့	-9477
လွတ်လပ်	-9478
ရှည်လျား	-9479
အရာတစ်ခု	-9480
▁Machine	-9481
▁ကောလိပ်	-9482
▁အိုင်တီ	-9483
ဂိမ်းကစား	-9484
▁အပြစ်ဖြေ	-9485
ထိရောက်မှု	-9486
▁ရွေးကောက်ပွဲ	-9487
ဖြစ်ကြောင်းကို	-9488
▁ကျွန်တော်တို့က	-9489
53	-9490
83	-9491
ks	-9492
ym	-9493
▁HB	-9494
uary	-9495
ခြစ်	-9496
ဂျီး	-9497
▁net	-9498
ruary	-9499
နိုင္	-9500
▁2004	-9501
▁ကား၊	-9502
▁တန်း	-9503
▁ဗုဒ္ဓ	-9504
သင်ကြား	-9505
သီးဟင်း	-9506
▁၎င်းဟာ	-9507
enerator	-9508
▁ကွန်ရက်	-9509
မြင်ကွင်း	-9510
▁ထိုသူကို	-9511
▁နှုတ်ဆက်	-9512
▁အရမ်းကို	-9513
▁သောကြာနေ့	-9514
▁သြစတြေးလျ	-9515
▁ဟောင်ကောင်	-9516
▁အချည်းနှီး	-9517
တော်မူသဖြင့်၊	-9518
ဉျ	-9519
ဖက္	-9520
▁ကေ	-9521
rail	-9522
uter	-9523
မ်ဘို	-9524
အတူတူ	-9525
▁နိုး	-9526
ဒါဝိဒ်	-9527
▁သတင္း	-9528
categor	-9529
လဲဆိုတာ	-9530
▁ဘယ္လို	-9531
▁သိတင်း	-9532
လိုမျိုး	-9533
သည်မဟုတ်	-9534
ကျယ်ပြန့်	-9535
▁ခိုင်ခံ့	-9536
▁စွန့်ပစ်	-9537
▁တစ်မျိုး	-9538
▁ဝမ်းနည်း	-9539
စေတော်မူ၏။	-9540
▁၎င်းတို့၏	-9541
categorized	-9542
▁စီမံခန့်ခွဲ	-9543
▁ကၽြန္ေတာ္တို႔	-9544
လှဲစွာကြိုဆိုပါ	-9545
ဇဉ်	-9546
▁Sl	-9547
.000	-9548
ရှပ်	-9549
acket	-9550
eless	-9551
ပျော့	-9552
▁Fort	-9553
▁အခက်	-9554
▁၄င်း	-9555
တို့မှ	-9556
ဘုရား၊	-9557
▁Voice	-9558
တန်းစား	-9559
▁တောက်ပ	-9560
▁ဒီမိုက	-9561
တို့သမီး	-9562
▁ကာတွန်း	-9563
▁ရောနှော	-9564
များအပေါ်	-9565
▁ကိုယ့်ကို	-9566
▁ရက်အတွင်း	-9567
သောအားဖြင့်	-9568
▁ကြီးစွာသော	-9569
လက်စွဲစာအုပ်	-9570
အာရုံစူးစိုက်	-9571
ဖွံ့ဖြိုးတိုးတက်	-9572
HD	-9573
မ့္	-9574
ober	-9575
▁130	-9576
▁Fac	-9577
ience	-9578
ဗောင်	-9579
▁Over	-9580
▁အထင်	-9581
iginal	-9582
လိုပါက	-9583
▁10000	-9584
▁Press	-9585
▁ဦးတည်	-9586
ရည်စိမ်	-9587
▁Agency	-9588
▁ပူးတွဲ	-9589
▁ဘရာဇီး	-9590
ခဲ့ခြင်း	-9591
မြို့နယ်	-9592
အသက်ရှင်	-9593
▁Twitter	-9594
▁catalog	-9595
▁လိမ်လည်	-9596
အခွင့်ကို	-9597
▁ဖျော်ဖြေ	-9598
ယှဉ်ပြိုင်	-9599
▁လုပ်နိုင်	-9600
ခေါင်းဆောင်	-9601
အသုံးပြုသည်	-9602
▁ထူးခြားတဲ့	-9603
▁ပျောက်ဆုံး	-9604
ဖြစ်တော်မူ၏။	-9605
▁ကျွန်တော့ကို	-9606
▁အင်္ဂါရပ်များ	-9607
လိုက်အပြုံလိုက်	-9608
အခမဲ့ဒေါင်းလုပ်	-9609
▁ကိုယ့်ကိုယ်ကို	-9610
",	-9611
▁AI	-9612
▁sl	-9613
ired	-9614
သွပ်	-9615
▁Mor	-9616
▁ဖို	-9617
istry	-9618
ဇိုင်	-9619
မတော်	-9620
အနှံ့	-9621
▁Maxi	-9622
▁coil	-9623
▁ဒီလူ	-9624
ကျဆင်း	-9625
▁sales	-9626
လက်စွပ်	-9627
▁Collets	-9628
▁privacy	-9629
▁ထူးဆန်း	-9630
▁အကောင့်	-9631
ဂိမ်းများ	-9632
▁အဝါရောင်	-9633
▁ဟော်မုန်း	-9634
ခြင်းမရှိဘဲ	-9635
လေ့ကျင့်ရေး	-9636
သီးဟင်းရွက်	-9637
▁ဆိုင်ကလုန်း	-9638
▁ကမိတ္တူးကူးစက်	-9639
no	-9640
ze	-9641
ပဌ	-9642
ပွု	-9643
သင္	-9644
သူ၊	-9645
▁လြ	-9646
▁၂၂	-9647
င်နာ	-9648
ဆို့	-9649
ရေစီ	-9650
အဆီး	-9651
▁MIN	-9652
▁ဆက္	-9653
Guang	-9654
တခြား	-9655
▁Sign	-9656
action	-9657
ကြပြီး	-9658
ထိတွေ့	-9659
နေ့စဉ်	-9660
ယာမိန်	-9661
သစ်သား	-9662
အရပ်မှ	-9663
▁မုန်း	-9664
▁သူကို	-9665
▁ရှိတဲ့	-9666
ဆိပ်ကမ်း	-9667
လို့ရတဲ့	-9668
▁တူညီတဲ့	-9669
▁အလတ်စား	-9670
▁Transfer	-9671
▁ပထမဦးစွာ	-9672
▁ပိတ်ချော	-9673
▁ယနေ့တွင်	-9674
ကွန်တိန်နာ	-9675
▁ထာဝရဘုရား၊	-9676
ကဲ့သို့၎င်း၊	-9677
▁စိတ်လှုပ်ရှား	-9678
ေဆ	-9679
Com	-9680
ခွေ	-9681
▁54	-9682
▁IV	-9683
▁RZ	-9684
▁SC	-9685
just	-9686
နွား	-9687
▁Myo	-9688
▁job	-9689
▁တခါ	-9690
ville	-9691
ႏွင့္	-9692
▁2006	-9693
▁Nove	-9694
▁ကြွေ	-9695
▁ခုခံ	-9696
▁ပြုရ	-9697
တော်မမူ။	-9698
ဖြစ်ပျက်	-9699
▁နှစ်စဉ်	-9700
ဤဆောင်းပါး	-9701
▁discharge	-9702
အသုံးပြုရန်	-9703
မှုများအတွက်	-9704
▁electrostatic	-9705
သတ်မှတ်ချက်များ	-9706
5]	-9707
AA	-9708
MO	-9709
လျာ	-9710
▁GP	-9711
▁MA	-9712
▁py	-9713
craft	-9714
တြင္း	-9715
မူတည်	-9716
ဝိုက်	-9717
သနည်း	-9718
ြိုလ်	-9719
▁Dual	-9720
▁ပါတီ	-9721
▁မြတ်	-9722
▁သွန်	-9723
itivej	-9724
တက်ကြွ	-9725
အလှဆင်	-9726
၌၎င်း၊	-9727
▁ဒါတွေ	-9728
▁အမြစ်	-9729
တစ်ဆင့်	-9730
▁ဘာလုပ်	-9731
tainment	-9732
ဂီတနှင့်	-9733
တစ်ဝှမ်း	-9734
▁ရေစိုခံ	-9735
▁တန်ချိန်	-9736
ဆောင်မှုကို	-9737
KG	-9738
TE	-9739
85,	-9740
col	-9741
ham	-9742
ခေါ	-9743
ooth	-9744
prop	-9745
▁350	-9746
▁Djs	-9747
▁Vir	-9748
▁Vjs	-9749
ပြူတာ	-9750
သမဂ္ဂ	-9751
အသွင်	-9752
▁mult	-9753
လိုချင်	-9754
▁ပိုင်း	-9755
▁ဖြစ်၍၊	-9756
▁ဝိုင်း	-9757
ဖော်ထုတ်	-9758
▁ဖက်ရှင်	-9759
လူမီနီယမ်	-9760
လည်းကောင်း	-9761
အာရုံစိုက်	-9762
▁ကိုရီးယား	-9763
▁ခမည်းတော်	-9764
များရယူပြီး	-9765
▁နည်းပညာဆိုင်ရာ	-9766
ML	-9767
日本	-9768
ugh	-9769
▁AD	-9770
▁av	-9771
▁ၿမ	-9772
ainer	-9773
ivity	-9774
ပါသော	-9775
မှာပါ	-9776
▁ငါသိ	-9777
▁ဇာတိ	-9778
▁မနက်	-9779
ဏ္ဍာရီ	-9780
ပေးပါ။	-9781
သတိပေး	-9782
သွား၍၊	-9783
▁ဤအမှု	-9784
မှန်တဲ့	-9785
▁manual	-9786
တိုင်ပင်	-9787
▁Desktop	-9788
▁ထမြောက်	-9789
ထက်ပိုမို	-9790
ဘယ်တော့မှ	-9791
အံ့သြဖွယ်	-9792
▁November	-9793
▁repaints	-9794
▁နှစ်ချက်	-9795
ပါလိမ့်မည်	-9796
ပိုင်ခွင့်	-9797
▁နယူးယောက်	-9798
ဖြစ်ခဲ့သည်။	-9799
▁မိုဃ်းတိမ်	-9800
▁ဆယ်ကျော်သက်	-9801
▁သင်တို့တွင်	-9802
▁မီးခိုးရောင်	-9803
၁၅	-9804
-50	-9805
203	-9806
ray	-9807
▁Li	-9808
日本語	-9809
ears	-9810
ging	-9811
page	-9812
ပုသ်	-9813
မြေး	-9814
လေဆာ	-9815
ေရမိ	-9816
▁cap	-9817
light	-9818
ဘိုင်	-9819
▁Date	-9820
▁လေ၏။	-9821
asting	-9822
အကျဉ်း	-9823
ပိတ်ပင်	-9824
ရောက်လာ	-9825
▁string	-9826
▁ပိုလန်	-9827
▁အချိုး	-9828
▁အမ်ဳိး	-9829
စာမေးပွဲ	-9830
ဥစ္စာကို	-9831
မဟုတ်ဘူး။	-9832
သူအိမ်သား	-9833
▁ကံကောင်း	-9834
ထူးခြားတဲ့	-9835
▁မျိုးရိုး	-9836
▁အထည်အလိပ်	-9837
နှင့်ဆိုင်သော	-9838
▁မီးရှို့ရာယဇ်	-9839
ကုန်ပစ္စည်းများ	-9840
91	-9841
ال	-9842
/12	-9843
ဖာ္	-9844
▁PL	-9845
umma	-9846
စပါး	-9847
ဿဟာယ	-9848
▁Din	-9849
▁Tri	-9850
▁ဂရိ	-9851
▁ငါက	-9852
9001,	-9853
ေထာင္	-9854
▁Alex	-9855
▁Game	-9856
▁သူမ၏	-9857
▁ချိန်	-9858
နှောင့်	-9859
လက်အိတ်	-9860
အချိန်၌	-9861
စည်းရိုး	-9862
ပျံ့နှံ့	-9863
ခြင်းများ	-9864
င်္ဂါးပြား	-9865
အကြိုက်ဆုံး	-9866
▁အဘယ်အရာကို	-9867
ခြမ်းစိတ်ဖြာ	-9868
▁စိုက်ပျိုးရေး	-9869
Ex	-9870
တန	-9871
▁\	-9872
-17	-9873
ကာ၊	-9874
▁6:	-9875
အခါ၊	-9876
▁1.8	-9877
▁Sar	-9878
chain	-9879
ပေးစာ	-9880
ဘယ်သူ	-9881
လီကေး	-9882
ပိုငျး	-9883
သလောဟု	-9884
▁Organ	-9885
▁South	-9886
▁နွေဦး	-9887
▁မြွက်	-9888
တားအဆီး	-9889
အကောင့်	-9890
▁တက်တူး	-9891
▁ကောင်တီ	-9892
▁မင်္ဂလာပါ	-9893
▁မောရှေသည်	-9894
▁နှင့်အခြား	-9895
.06	-9896
gin	-9897
nar	-9898
ဒနာ	-9899
မည္	-9900
▁Ha	-9901
anda	-9902
သော၊	-9903
▁ပံု	-9904
▁အမဲ	-9905
▁၁၉၆	-9906
ဖျော်	-9907
▁2005	-9908
▁3000	-9909
▁Kyaw	-9910
▁Snap	-9911
▁စိန္	-9912
Casino	-9913
ဆက်တွဲ	-9914
▁ခန်းမ	-9915
▁သမ္မာ	-9916
▁အထက်က	-9917
ဇိုင်နာ	-9918
▁Christ	-9919
▁enable	-9920
▁ရှောက်	-9921
ဒေးရှင်း	-9922
မို့လို့	-9923
အပေါ်ကို	-9924
▁Tianjin	-9925
▁ငြိမ်သက်	-9926
▁ဖော်ထုတ်	-9927
ညှိနှိုင်း	-9928
▁အမျက်ထွက်	-9929
ခြံစည်းရိုး	-9930
များအားလုံး	-9931
▁နာမတော်ကို	-9932
▁လွှမ်းမိုး	-9933
▁ငြိမ်းချမ်း	-9934
▁ဒီဇင်ဘာလတွင်	-9935
▁ဟိုက်ဒရောလစ်	-9936
▁Entertainment	-9937
7,	-9938
ဘန်	-9939
ason	-9940
etic	-9941
▁has	-9942
andal	-9943
▁CSGO	-9944
▁တကယ္	-9945
▁သူမက	-9946
direct	-9947
အာဖရိက	-9948
▁ငါပေး	-9949
▁ခေတ်သစ်	-9950
▁ဆေးထိုး	-9951
သူများကို	-9952
ဟော်မုန်း	-9953
အဆင့်ဆင့်	-9954
မှုဆိုင်ရာ	-9955
▁Affiliate	-9956
▁ဘုရားသခင့်	-9957
▁သူငယ်ချင်း	-9958
ငွေပေးချေမှု	-9959
ောင်ဒေးရှင်း	-9960
ali	-9961
စုရ	-9962
မွန္	-9963
▁ကမ္	-9964
river	-9965
ကြွက်	-9966
နှစ်က	-9967
ပြုစု	-9968
ရေကို	-9969
▁soft	-9970
▁အင်အား	-9971
ကြည့်ပါ။	-9972
တည်းဖြတ်	-9973
▁ဗို့အား	-9974
နောက်သို့	-9975
ဖန်တီးရန်	-9976
▁shopping	-9977
▁နှင်ထုတ်	-9978
▁သိုးသငယ်	-9979
▁ဒီနည်းကို	-9980
ရွေးချယ်စရာ	-9981
▁ဖော်ပြချက်	-9982
▁ဖြစ်စဉ်ကို	-9983
▁လူတစ်ယောက်	-9984
▁သင်ဒီမှာပါ	-9985
▁ဒုစရိုက်ကို	-9986
▁ကလေးတွေကအဘို့အ	-9987
ION	-9988
▁ဝီ	-9989
ကရစ်	-9990
လေထု	-9991
သံုး	-9992
အာက္	-9993
▁0.3	-9994
▁Toy	-9995
ected	-9996
▁Core	-9997
▁Step	-9998
တူရိယာ	-9999
▁လှမ်း	-10000
▁အကျယ်	-10001
ကြားမှာ	-10002
တူညီသော	-10003
သည်တို့	-10004
၌ရှိသော	-10005
▁စုံလင်	-10006
▁သဖြင့်	-10007
ဖြစ်ဖို့	-10008
အသွားအလာ	-10009
▁updates	-10010
▁ကိုးကား	-10011
▁မကြာသေး	-10012
▁ဤရွေ့ကား	-10013
ဖြစ်စဉ်ကို	-10014
လီကေးရှင်း	-10015
▁ကော်မရှင်	-10016
▁ကြိုးပမ်း	-10017
▁အကြမ်းဖက်	-10018
▁အရှေ့တောင်	-10019
တောင်ပေါ်မှာ	-10020
တွေအများကြီး	-10021
▁ကာဗွန်သံမဏိ	-10022
▁;	-10023
nal	-10024
nam	-10025
ဖယ်	-10026
ဗျူး	-10027
လှီး	-10028
သည့္	-10029
▁၁၉၅	-10030
▁Fire	-10031
▁Mess	-10032
▁ခံယူ	-10033
▁ျပန္	-10034
ission	-10035
ration	-10036
သားကား	-10037
▁Video	-10038
▁ချင်း	-10039
▁မတွေ့	-10040
စက်များ	-10041
ည်းတွား	-10042
သွားတယ်	-10043
▁ကြွယ်ဝ	-10044
အရှိဆုံး	-10045
▁ကျမ်းစာ	-10046
ချက်ချင်း	-10047
▁optional	-10048
▁ထိုအရပ်၌	-10049
▁ပညတ်တရား	-10050
များစွာသော	-10051
▁ကွန်တိန်နာ	-10052
▁စက်မှုဇုန်	-10053
▁စီမံခန့်ခွဲ	-10054
▁configuration	-10055
CL	-10056
key	-10057
အတု	-10058
▁2)	-10059
▁လွ	-10060
ache	-10061
ople	-10062
တန္း	-10063
▁Day	-10064
▁အကဲ	-10065
oline	-10066
ထဲမွာ	-10067
▁time	-10068
▁ကြည်	-10069
▁သည်။	-10070
စောင်း	-10071
ပါဘူး၊	-10072
▁Linux	-10073
▁Truck	-10074
▁ပျော့	-10075
ဒေသကြီး	-10076
▁ညစ်ညူး	-10077
ကြှနျုပျ	-10078
လက်လှမ်း	-10079
▁Comment	-10080
▁ကြောင့်၊	-10081
ပဲဖြစ်ဖြစ်	-10082
▁ဆွစ်ဇာလန်	-10083
▁အကြောင်း၊	-10084
စည်းကမ်းများ	-10085
▁Development	-10086
▁လမ်းလျှောက်	-10087
▁မူပိုင်ခွင့်	-10088
pr	-10089
.75	-10090
:02	-10091
ပါ့	-10092
comm	-10093
oung	-10094
စိတျ	-10095
ညှပ်	-10096
ဝီကီ	-10097
based	-10098
ribut	-10099
ခဲ့ရာ	-10100
▁သတိရ	-10101
▁သံသယ	-10102
တစ်နေ့	-10103
ဘိဓါန်	-10104
▁Theme	-10105
အလားအလာ	-10106
▁double	-10107
ဆိုလွ်င္	-10108
အကြီးစား	-10109
▁feature	-10110
▁package	-10111
▁ကြီးမား	-10112
ကျော်ကြား	-10113
မွှေးထိုး	-10114
▁Ultimate	-10115
▁ခရစ်တော်	-10116
▁စိတ်ဖိစီး	-10117
▁ရှမွေလသည်	-10118
▁သတ်မှတ်မည်	-10119
▁အသုံးပြုမှု	-10120
▁ဆောက်လုပ်ရေး	-10121
92	-10122
CO	-10123
အပ	-10124
/11	-10125
▁Je	-10126
▁ထ၍	-10127
မှာက	-10128
ရပ်တ	-10129
▁att	-10130
ရမယ့်	-10131
ရှိ၍၊	-10132
▁ဉာဏ်	-10133
▁၂၀၁၀	-10134
ကူးကန်	-10135
အပ်နှံ	-10136
စနစ်ကို	-10137
များရဲ့	-10138
ရပါမယ်။	-10139
ရှင်းပြ	-10140
▁တချိန်	-10141
▁တဲတော်	-10142
▁ပညာရှိ	-10143
▁အဘို့အ	-10144
သောအရာကို	-10145
▁Americas	-10146
▁တက်ရောက်	-10147
▁တွေ့မြင်	-10148
မှုကြောင့်	-10149
▁နှိုးဆော်	-10150
▁မဟုတ်လော။	-10151
▁သန့်ရှင်း	-10152
ဂီတနှင့်မီဒီယာ	-10153
fe	-10154
-60	-10155
ota	-10156
အခြ	-10157
ဥ္း	-10158
▁DM	-10159
anth	-10160
▁အတု	-10161
store	-10162
ရိန်း	-10163
▁1080	-10164
▁Char	-10165
▁cell	-10166
▁mach	-10167
▁သိသာ	-10168
ပေးထား	-10169
▁Patch	-10170
▁Toner	-10171
▁ပျိုး	-10172
▁အဲ့ဒီ	-10173
ကြီးတဲ့	-10174
ထူထောင်	-10175
နီးရှား	-10176
▁Screen	-10177
▁နာကျင်	-10178
▁ၿမန္မာ	-10179
ဆိုတာပါ။	-10180
▁မှတဆင့်	-10181
▁လုပ်ရန်	-10182
▁တိုင်းတာ	-10183
▁တိုးပွား	-10184
▁ရင်းနှီး	-10185
▁တရားစီရင်	-10186
▁လွန်ခဲ့သော	-10187
=4	-10188
wh	-10189
ခိ	-10190
၁၁	-10191
250	-10192
vey	-10193
ေန႔	-10194
ants	-10195
ဆာဗာ	-10196
အဖွဲ	-10197
▁AST	-10198
▁max	-10199
▁ဂတိ	-10200
င္းလဲ	-10201
အသွေး	-10202
▁တြင္	-10203
တ္တရား	-10204
▁အဆုတ်	-10205
▁ႏွင့္	-10206
ဘလော့ဂ်	-10207
များနဲ့	-10208
▁အထိမ်း	-10209
များပြား	-10210
မှတ်ချက်	-10211
သစ်ကျမ်း	-10212
▁တယ်လီနော	-10213
▁မျိုးစုံ	-10214
▁Transform	-10215
တော်မူခြင်း	-10216
▁ငါ့စကားကို	-10217
ကင်းရှင်းရေး	-10218
▁ကောင်းကြီးပေး	-10219
▁လိမ္မော်ရောင်	-10220
▁ကျေးဇူးတော်ကို	-10221
FL	-10222
ely	-10223
oon	-10224
မိဘ	-10225
arth	-10226
မကျြ	-10227
မှု။	-10228
ွှေး	-10229
▁(20	-10230
▁Att	-10231
▁PCs	-10232
ental	-10233
ကိုသြ	-10234
▁Show	-10235
▁တီဗီ	-10236
▁ဒေါသ	-10237
▁အတို	-10238
တ္တိဇံ	-10239
ပရိသတ်	-10240
မရောက်	-10241
လက္ကား	-10242
▁Hebei	-10243
▁ဝေဖန်	-10244
▁အတိတ်	-10245
▁Supply	-10246
▁player	-10247
ခဲ့ကြတဲ့	-10248
ပြန်သွား	-10249
▁အရေပြား	-10250
ကာကွယ်ရေး	-10251
ရေကြောင်း	-10252
▁Archived	-10253
▁အပြစ်တင်	-10254
စတိုးဆိုင်	-10255
▁ညွှန်ကြား	-10256
▁categories	-10257
tte	-10258
ဘေ့	-10259
ရွေ	-10260
▁ဒေ	-10261
head	-10262
ျပင္	-10263
▁API	-10264
▁လတ်	-10265
▁Bird	-10266
▁seek	-10267
▁view	-10268
▁ရှစ်	-10269
မကြာခဏ	-10270
အက္ခရာ	-10271
▁စေတနာ	-10272
▁သူမဟာ	-10273
Myanmar	-10274
သောအရပ်	-10275
▁Silver	-10276
▁နေကြ၏။	-10277
▁အရေဖျား	-10278
▁အာရုံခံ	-10279
ညွှန်ကြား	-10280
မြှင့်တင်	-10281
မှုဖြစ်စေ	-10282
ပျော်ရွှင်	-10283
သောသူတို့၏	-10284
▁Institute	-10285
▁နှစ်ယောက်	-10286
ပိုင္းအလုပ္	-10287
▁ဗင်္ယာမိန်	-10288
sd	-10289
hai	-10290
hon	-10291
စေး	-10292
တည္	-10293
ရတ်	-10294
▁MM	-10295
ကို၊	-10296
ကျကျ	-10297
older	-10298
ဟာနယ်	-10299
▁ASTM	-10300
▁Form	-10301
▁လေထု	-10302
ကောင်၊	-10303
ဝင်သော	-10304
▁လက်ျာ	-10305
▁၎င်း၊	-10306
ချင်တယ်	-10307
ျခားသား	-10308
လာပါတယ်။	-10309
ဟူ၍၎င်း၊	-10310
▁January	-10311
▁optical	-10312
▁February	-10313
▁ရှည်လျား	-10314
ဝမ်းမြောက်	-10315
ိုးရွာသွန်း	-10316
အပြည်ပြည်ဆိုင်ရာ	-10317
بي	-10318
၂၁	-10319
-2-	-10320
ဆစ်	-10321
ပတိ	-10322
သံသ	-10323
▁no	-10324
▁၀၁	-10325
echn	-10326
itch	-10327
▁Syn	-10328
ဆုံးမ	-10329
ရှာနေ	-10330
▁ဧဒုံ	-10331
idosis	-10332
စုစည်း	-10333
အနိုင်ရ	-10334
ပါနှင့်။	-10335
မှုအပေါ်	-10336
အလွယ်တကူ	-10337
▁စျေးဝယ်	-10338
ရွေးကောက်	-10339
အနက်ရောင်	-10340
▁ရည်ရွယ်ချက်	-10341
▁ဓမ္မသစ်ကျမ်း	-10342
အခြေစိုက်စခန်း	-10343
▁Uncategorized	-10344
pa	-10345
.45	-10346
can	-10347
pal	-10348
တကျ	-10349
▁66	-10350
▁DS	-10351
▁Vi	-10352
ဖွစျ	-10353
ေက်ာ	-10354
▁CAS	-10355
▁UTC	-10356
▁list	-10357
▁သွပ်	-10358
ကိုသင်	-10359
▁ကျွေး	-10360
ainless	-10361
ospital	-10362
▁ရှိသည်	-10363
▁လက်ကား	-10364
▁အနိမျ့	-10365
▁ကြိုဆို	-10366
▁ဆိုင်ရာ	-10367
ကော်မရှင်	-10368
ပြတင်းပေါက်	-10369
ကိုယ်စားလှယ်	-10370
Qu	-10371
ဂၤ	-10372
▁ယု	-10373
save	-10374
မျြး	-10375
▁Now	-10376
▁menu	-10377
▁pass	-10378
▁ကွမ်	-10379
▁ပုဒ်	-10380
သောအသံ	-10381
atabase	-10382
တူဒီယို	-10383
▁Bahasa	-10384
▁Spring	-10385
▁ဒါတွေက	-10386
▁ရေးဆွဲ	-10387
Guangdong	-10388
▁ဘုရားသည်	-10389
▁မြင်ကွင်း	-10390
▁လူတို့သည်	-10391
sch	-10392
တဲ႔	-10393
ရဟု	-10394
အနီ	-10395
ules	-10396
ယုတ်	-10397
ရကြ။	-10398
အထင်	-10399
▁160	-10400
▁750	-10401
▁tem	-10402
▁ဘူး	-10403
asaki	-10404
▁King	-10405
▁Line	-10406
▁free	-10407
▁ဘမ်း	-10408
▁Daily	-10409
▁embed	-10410
▁ကရိယာ	-10411
▁သဟဇာတ	-10412
စံနမူနာ	-10413
အိုင်တီ	-10414
▁Button	-10415
▁စတိုင်	-10416
coidosis	-10417
enbolone	-10418
အဆောက်အဦ	-10419
▁ခိုလှုံ	-10420
နိမ့်ဆုံး	-10421
ဖြည့်စွက်	-10422
၎င်းတို့၏	-10423
▁မျိုးဆက်	-10424
နှစ်ပေါင်း	-10425
ိမ်းခြောက်	-10426
▁တနင်္ဂနွေ	-10427
▁သွားရောက်	-10428
▁ပတ်သက်ပြီး	-10429
Cl	-10430
DS	-10431
NS	-10432
za	-10433
ica	-10434
icy	-10435
ဒီး	-10436
လျူ	-10437
▁!!	-10438
▁1)	-10439
▁TO	-10440
Free	-10441
ဇွန်	-10442
န္ဓေ	-10443
မှသာ	-10444
.2018	-10445
နဲ့တူ	-10446
လိမ့္	-10447
▁Tank	-10448
▁apps	-10449
ညီလာခံ	-10450
ယေဘုယျ	-10451
အတိအကျ	-10452
▁Horiz	-10453
▁ခေါက်	-10454
▁ဘာကို	-10455
ကုန်သည်	-10456
ဘုရားသခ	-10457
▁ကိုကတ်	-10458
▁အမေဇုံ	-10459
ဘယ်လောက်	-10460
ရန်နှင့်	-10461
▁content	-10462
▁နားမလည်	-10463
▁ရှင်သန်	-10464
တပ်ဆင်ထား	-10465
ဖော်မြူလာ	-10466
▁original	-10467
▁ဒုက္ခသည်	-10468
▁မဟုတ်ဘူး	-10469
အိပ်ရာဌာနမှူး	-10470
▁ရုပ်ရှင်ပွဲတော်	-10471
ဂူ	-10472
kHz	-10473
now	-10474
ကျူ	-10475
ယူဆ	-10476
▁SW	-10477
ခြယ်	-10478
▁စစ္	-10479
oring	-10480
ဂျပန်	-10481
စိစစ်	-10482
တာမင်	-10483
တော့၊	-10484
ရာထူး	-10485
လှည်း	-10486
▁5000	-10487
▁Mass	-10488
▁Mont	-10489
▁dist	-10490
▁inst	-10491
န္ဖိုး	-10492
သွားပါ	-10493
ၿခံေျမ	-10494
▁Fight	-10495
▁ပေးပါ	-10496
▁Volume	-10497
▁ကျဆင်း	-10498
ပယ်ရှင်း	-10499
ပြင်လွယ်	-10500
▁ထိုသခင်	-10501
ပီးဒီးယား	-10502
▁ပရိုဂရမ်	-10503
လိုအပ်ပါတယ်	-10504
▁တိုင်အောင်	-10505
▁အဆွေအမျိုး	-10506
▁အလင်းရောင်	-10507
လွယ်ပြင်လွယ်	-10508
တော်မူသည်ကား၊	-10509
မိုဘိုင်းကာစီနို	-10510
ဠိ	-10511
၁၄	-10512
800	-10513
add	-10514
cal	-10515
ဆတ်	-10516
icle	-10517
vent	-10518
စိတ္	-10519
ရေတာ	-10520
သာမက	-10521
▁AND	-10522
▁Sat	-10523
▁Two	-10524
▁gro	-10525
▁ဗီဇ	-10526
ထီမဲ့	-10527
သည်းဆ	-10528
▁Blog	-10529
▁Pres	-10530
▁cons	-10531
▁form	-10532
▁လစဉ်	-10533
atrain	-10534
ပေးအပ်	-10535
▁ရေကို	-10536
ရအောင်။	-10537
▁Chrome	-10538
▁ရေရှည်	-10539
ဆောင်ခဲ့	-10540
▁Process	-10541
▁ဆိုကြ၏။	-10542
▁Commerce	-10543
▁ကင်းလွတ်	-10544
▁ခွင့်ပြု	-10545
▁ဖုန်းကို	-10546
▁အုပ်စိုး	-10547
▁ကိုစက်ရုံ	-10548
▁ဆိုသည်မှာ	-10549
မြင့်မားသော	-10550
ကိုင်ဆောင်သူ	-10551
လားပင်လယ်အော်	-10552
▁ကုန်အမှတ်တံဆိပ်	-10553
ယက	-10554
ama	-10555
စ်း	-10556
▁RS	-10557
ရှိ၍	-10558
▁syn	-10559
▁日本語	-10560
iller	-10561
japan	-10562
ကုလား	-10563
လူးတု	-10564
▁Flat	-10565
▁Sand	-10566
▁ခိုး	-10567
▁ဖလား	-10568
▁မလေး	-10569
eloper	-10570
ခဲ့ရင်	-10571
စေ့စပ်	-10572
ဏ္ဌာန်	-10573
န်ထမ်း	-10574
ဘက်ကို	-10575
မှာထား	-10576
သောအပူ	-10577
အရှိန်	-10578
▁Money	-10579
▁ညီမျှ	-10580
▁ဝိုင်	-10581
▁အပြီး	-10582
တူညီတဲ့	-10583
▁မော်တာ	-10584
လူမီနီယံ	-10585
အသီးအသီး	-10586
▁seekers	-10587
▁တကယ်ကို	-10588
▁နုိင္ငံ	-10589
▁လိုက်နာ	-10590
▁သိမ်းယူ	-10591
saveatrain	-10592
ဒေါင်းလုဒ်	-10593
▁ထိုနည်းတူ	-10594
▁အဆက်အသွယ်	-10595
▁ကိုယ်ခန္ဓာ	-10596
▁ပြောင်းပြန်	-10597
ျခားသားအခ်ိန္	-10598
▁မြို့ရိုးကို	-10599
93	-10600
120	-10601
fit	-10602
opl	-10603
အမေ	-10604
▁Pa	-10605
▁ဘဲ	-10606
▁၂၇	-10607
လင့်	-10608
ဟန်း	-10609
အပြု	-10610
▁0.8	-10611
▁APP	-10612
▁Rom	-10613
▁ang	-10614
မာစတာ	-10615
လူငယ်	-10616
အတိတ်	-10617
▁Brow	-10618
▁ပြို	-10619
▁အိမ္	-10620
လူပျို	-10621
▁လူသည်	-10622
အိပ်မက်	-10623
▁မိဿဟာယ	-10624
နိုင်ဘူး	-10625
မည်မဟုတ်	-10626
▁network	-10627
▁Terminal	-10628
▁သော့ချက်	-10629
တဲ့အတိုင်း	-10630
▁မှန်ဘီလူး	-10631
နေတယ်ဆိုရင်	-10632
အစွမ်းသတ္တိ	-10633
တို့ကို၎င်း၊	-10634
▁ရန္ကုန္ျမိဳ	-10635
▁မြောက်အမေရိက	-10636
▁အမည်ပေးထားသော	-10637
/3	-10638
ဗွေ	-10639
▁PM	-10640
မွတ်	-10641
လျှံ	-10642
သိမ်	-10643
▁FOB	-10644
ခ်ဳပ္	-10645
နံနက်	-10646
ဝိသေသ	-10647
ဦးတည်	-10648
▁Chat	-10649
▁Cons	-10650
▁book	-10651
▁which	-10652
▁လျှပ်	-10653
နေ့တွင်	-10654
▁Karnar	-10655
ကိုးကွယ်	-10656
ဆန့်ကျင်	-10657
generator	-10658
▁တည်းဖြတ်	-10659
▁ပျံ့နှံ့	-10660
စက်ပစ္စည်း	-10661
နိုင်ငံသား	-10662
သောကြောင့်	-10663
အစီအစဉ်ကို	-10664
▁နေ့တိုင်း	-10665
ခဲ့ကြပါတယ်။	-10666
▁စောင့်ရှောက်	-10667
လက်မှုလုပ်ငန်း	-10668
တော်မူလိမ့်မည်။	-10669
▁shoppingdirect	-10670
▁အကောင်အထည်ဖော်	-10671
6]	-10672
PP	-10673
rs	-10674
၂၄	-10675
cer	-10676
▁3-	-10677
heel	-10678
စက္က	-10679
၂၀၁၈	-10680
ၿဖစ္	-10681
▁Fre	-10682
▁Hat	-10683
▁sec	-10684
idine	-10685
မှုမှ	-10686
ေနာက္	-10687
▁char	-10688
▁made	-10689
▁unit	-10690
▁သံုး	-10691
=5.0.6	-10692
▁2017.	-10693
▁Ultra	-10694
▁share	-10695
▁လူကို	-10696
အထွေထွေ	-10697
အာရုံခံ	-10698
ွင်ပြင်	-10699
ွိုင်လာ	-10700
▁review	-10701
▁ဝတ်ပြု	-10702
▁သတ္တဝါ	-10703
▁service	-10704
▁ကြောင့်	-10705
▁ပြီးရင်	-10706
▁နှိမ့်ချ	-10707
▁ဖြစ်ကြ၏။	-10708
စွမ်းအင်သုံး	-10709
နှင့်နည်းပညာ	-10710
▁နိုင်ငံများ	-10711
Dv	-10712
ca	-10713
عر	-10714
exe	-10715
uty	-10716
vel	-10717
ရှ်	-10718
▁**	-10719
▁7.	-10720
▁da	-10721
▁go	-10722
▁၂၃	-10723
عربي	-10724
ရဟတ်	-10725
သို႔	-10726
▁240	-10727
▁enc	-10728
▁ဗက်	-10729
eflon	-10730
ရပြီး	-10731
အဆင်း	-10732
အိုရီ	-10733
▁1500	-10734
▁Club	-10735
▁Plug	-10736
ဆယ်ရေး	-10737
လှေကား	-10738
အသိပညာ	-10739
▁Guide	-10740
▁Times	-10741
တွေလည်း	-10742
လူးတုသ်	-10743
▁ကြွင်း	-10744
▁ချမှတ်	-10745
ပရိုဂရမ်	-10746
▁desktop	-10747
ငွေပေးချေ	-10748
တို့အဘို့	-10749
နှင့်အညီ၊	-10750
အင်္ဂါရပ်	-10751
အေးပေးစက်	-10752
▁ကြားပြော	-10753
▁စွမ်းရည်	-10754
▁မောင်းသူ	-10755
▁အပ်ချုပ်	-10756
အိမ္ၿခံေျမ	-10757
▁Directory	-10758
▁ရောင်းမည်	-10759
ကိုသြဒိနိတ်	-10760
▁ပလက်ဖောင်း	-10761
▁ဖွဲ့စည်းပုံ	-10762
ကော်ပိုရေးရှင်း	-10763
စေခြင်းငှါ၎င်း၊	-10764
▁ကိုယ်တော်ကျွန်	-10765
▁အဲဂုတ္တုပြည်မှ	-10766
▁သတ်မှတ်ချက်များ	-10767
")	-10768
FS	-10769
pc	-10770
VAC	-10771
[3]	-10772
ငှေ	-10773
▁NE	-10774
▁ဂေ	-10775
▁၍၊	-10776
="20	-10777
part	-10778
ront	-10779
တီဗီ	-10780
နံရံ	-10781
သူမ၏	-10782
၌ရှိ	-10783
▁Bal	-10784
▁Str	-10785
▁cre	-10786
▁ဝါး	-10787
chlor	-10788
နေပြီ	-10789
မိခင်	-10790
လံပစ်	-10791
▁Page	-10792
▁Time	-10793
▁ကျော	-10794
ources	-10795
▁ကိုယ္	-10796
▁တကယ်က	-10797
▁ထမင်း	-10798
▁ပြပွဲ	-10799
နှစ်ဆယ်	-10800
▁Active	-10801
▁ခါးပတ်	-10802
▁ဘော်ပြ	-10803
ချင်တယ်။	-10804
တစ်ကြိမ်	-10805
ဖုန်းကို	-10806
သည်လည်း၊	-10807
▁machine	-10808
formation	-10809
တိုးမြှင့်	-10810
တော်မူပါဟု	-10811
နှုန်းများ	-10812
ဖြစ်သတည်း။	-10813
ကိုရွေးချယ်	-10814
မဟုတ်ပါဘူး။	-10815
အကြားအမြင်ရ	-10816
▁ကြီးမားသော	-10817
ဖော်ပြထားသော	-10818
▁ထို့ကြောင့်	-10819
ကောင်းမွန်သော	-10820
▁ဖြစ်နိုင်ခြေ	-10821
▁တစ်ယောက်ယောက်	-10822
▁ထိုင်းနိုင်ငံ	-10823
▁အစာရှောင်ခြင်း	-10824
mA	-10825
ယ၊	-10826
၁၇	-10827
′′	-10828
ten	-10829
▁Of	-10830
68"&	-10831
Site	-10832
flix	-10833
rial	-10834
ဆန္း	-10835
လညျး	-10836
အဲဒီ	-10837
▁CPU	-10838
▁God	-10839
▁နင်	-10840
Point	-10841
omain	-10842
တာလဲ။	-10843
ေရာင္	-10844
▁Work	-10845
▁name	-10846
▁ကာစ်	-10847
▁ကျား	-10848
▁မက္က	-10849
▁၂၀၀၈	-10850
ဆရာဝန်	-10851
လိုအား	-10852
အလားတူ	-10853
▁Green	-10854
အလတ်စား	-10855
▁ခံရသော	-10856
▁တစ်ခုက	-10857
formance	-10858
အောက်မေ့	-10859
▁Catalog	-10860
▁October	-10861
▁Silicon	-10862
▁စက္ကန့်	-10863
ပွင့်လင်း	-10864
လုံးအရင်း	-10865
▁Hospital	-10866
▁compress	-10867
▁ယဇ်ပူဇော်	-10868
▁သေးငယ်တဲ့	-10869
▁University	-10870
▁သင်္ဂြိုဟ်	-10871
▁ကိုဆောင်းပါး	-10872
ကျေးဇူးပြုပြီး	-10873
▁လူ့အဖွဲ့အစည်း	-10874
ta	-10875
rey	-10876
ချ်	-10877
▁CT	-10878
▁Ta	-10879
▁ဂီ	-10880
▁၂၈	-10881
roll	-10882
ကျား	-10883
စည္း	-10884
▁Kaw	-10885
▁Pri	-10886
▁ဒီက	-10887
ရီယို	-10888
▁ASME	-10889
▁ကိုက	-10890
raffic	-10891
တန်းဆာ	-10892
ထန်စွာ	-10893
ပွဲစား	-10894
▁track	-10895
▁ဘောင်	-10896
▁အသည်း	-10897
▁အံ့သြ	-10898
ကြည့်ပါ	-10899
နှင့်ဟု	-10900
အလောင်း	-10901
▁ကိုကို	-10902
▁ချိန်း	-10903
▁ဟုခေါ်	-10904
အိမ်သို့	-10905
▁variable	-10906
▁ဒါေၾကာင့္	-10907
▁မကောင်းသော	-10908
▁အကြားအမြင်	-10909
▁ဖွံ့ဖြိုးဆဲ	-10910
ဝံဂေလိတရားကို	-10911
ခြင်းသို့ရောက်	-10912
အသိုင်းအဝိုင်း	-10913
▁ရောင်းချခြင်း	-10914
FR	-10915
▁ႏ	-10916
mit	-10917
vas	-10918
စတီ	-10919
ပတ္	-10920
▁ال	-10921
▁အူ	-10922
ycle	-10923
ဝေါ်	-10924
အမျှ	-10925
ဧည့်	-10926
▁VPN	-10927
▁ဆား	-10928
ellig	-10929
عربية	-10930
ရာဌာန	-10931
▁Hand	-10932
▁blog	-10933
▁extr	-10934
▁စင်္	-10935
▁ယောန	-10936
change	-10937
ကိုပေး	-10938
တာပေါ့	-10939
▁brush	-10940
▁fixed	-10941
ပစ်မှတ်	-10942
▁Option	-10943
▁ဂျာနယ်	-10944
▁ဘုရား၏	-10945
▁သည်းခံ	-10946
လိုလျှင်	-10947
လူတိုင်း	-10948
▁Control	-10949
မိုးရှင်း	-10950
လိမ့်မယ်။	-10951
▁ကလေးတွေကို	-10952
▁၎င်းတို့ဟာ	-10953
▁ယော်ဒန်မြစ်	-10954
▁အီးမေးလ်ပို့	-10955
aph	-10956
iny	-10957
နူး	-10958
▁so	-10959
▁၃၁	-10960
ရာဇ်	-10961
▁Ext	-10962
▁OFF	-10963
▁dpi	-10964
16949	-10965
စတိတ်	-10966
နေနေ့	-10967
မုန်း	-10968
အမင်း	-10969
▁Band	-10970
▁Htet	-10971
▁Mart	-10972
▁they	-10973
▁ခုန်	-10974
▁အထပ်	-10975
ပြောင်	-10976
ယျသို့	-10977
လျှင်း	-10978
အနာဂတ်	-10979
▁Megan	-10980
▁ဝက်ဘ်	-10981
ရေးစင်တာ	-10982
▁ကိုက်ညီ	-10983
▁စစ်ကြော	-10984
▁ဒီနောက်	-10985
▁လမ်းမီး	-10986
ထီမဲ့မြင်	-10987
ပေါင်းစုံ	-10988
ပြီးလျှင်	-10989
▁လွှတ်ပေး	-10990
မျက်နှာကို	-10991
နေရောင်ခြည်	-10992
▁ကျန်ကြွင်း	-10993
ဘာသာစကားများ	-10994
မွေးတိရစ္ဆာန်	-10995
မှုဖြစ်စေခဲ့ပြီး	-10996
▁ကုန်ပစ္စည်းများ	-10997
4:	-10998
-21	-10999
-3-	-11000
REE	-11001
စြာ	-11002
▁.:	-11003
akar	-11004
awei	-11005
ingt	-11006
oids	-11007
စေ၏။	-11008
ရွတ်	-11009
အခြေ	-11010
▁1.1	-11011
▁Eco	-11012
မိန့်	-11013
▁next	-11014
▁နေကြ	-11015
▁ရှုရိ	-11016
▁Design	-11017
▁ဆေးပညာ	-11018
ဖြစ်လို့	-11019
▁ရှိတယ်။	-11020
▁အင်မတန်	-11021
စရာကောင်း	-11022
စုံလင်သော	-11023
တာကြောင့်	-11024
အရည်ပျော်	-11025
အားလပ်ရက်	-11026
▁ကစားသမား	-11027
▁စာရေးဆရာ	-11028
▁ဘိလပ်မြေ	-11029
▁မြင့်မား	-11030
▁ကောင်းပြီ၊	-11031
▁အထူးသဖြင့်	-11032
▁အပြန်အလှန်	-11033
▁ကျေးဇူးတင်ပါတယ်	-11034
yi	-11035
ทย	-11036
ယမ	-11037
ERT	-11038
hib	-11039
ona	-11040
str	-11041
ထက္	-11042
ဓား	-11043
▁OK	-11044
2005	-11045
ogue	-11046
စေဟု	-11047
ဩဝါဒ	-11048
၂၀၁၇	-11049
▁ဆုံ	-11050
ျဖင့္	-11051
▁Cann	-11052
▁ROOM	-11053
▁တော့	-11054
နေ့စွဲ	-11055
ရိုးကျ	-11056
▁Relay	-11057
▁ကိုရေ	-11058
content	-11059
စားခန်း	-11060
နှင့်တူ	-11061
ပြီးစီး	-11062
ပြီးသော	-11063
▁Visual	-11064
▁တံပိုး	-11065
▁အင်ဒို	-11066
▁အစွန်း	-11067
▁ဦးထုပ်	-11068
မြို့မှာ	-11069
ယံပိုင်း	-11070
▁ဂန္ထဝင်	-11071
▁ဘေးထွက်	-11072
ပိုင်းမှာ	-11073
▁မဟာဗျူဟာ	-11074
အရည်အချင်း	-11075
အရာတို့ကို	-11076
ခြင်းမေတ္တာ	-11077
များကိုလည်း	-11078
▁နိုင်ခြင်း	-11079
▁ဓာတ်ခွဲခန်း	-11080
▁ရည်မှန်းချက်	-11081
▁ဗြိတိန်နိုင်ငံ	-11082
AB	-11083
CT	-11084
င့	-11085
irl	-11086
▁TM	-11087
▁af	-11088
▁fa	-11089
ense	-11090
ပီကာ	-11091
ရမယ္	-11092
▁Job	-11093
▁SPY	-11094
▁fin	-11095
▁နဲ႕	-11096
ဂဲနစ်	-11097
ဂျင့်	-11098
လူသား	-11099
ဝေဒနာ	-11100
အလယ်၌	-11101
▁Land	-11102
ချီတဲ့	-11103
▁video	-11104
▁စိမ်း	-11105
▁ထပ်မံ	-11106
ကာတွန်း	-11107
ခွန်အား	-11108
ပမာဏကို	-11109
ဘက်တွင်	-11110
သူတို့က	-11111
အစုအဝေး	-11112
အားသင့်	-11113
ုန်းကန်	-11114
▁quotes	-11115
▁ကြေးနီ	-11116
▁မီးစက်	-11117
▁မြှင့်	-11118
တစ်မျိုး	-11119
မြို့သည်	-11120
▁ထိုအမှု	-11121
▁ရာသီဥတု	-11122
▁သားတော်	-11123
▁အမှိုက်	-11124
တော်မူမည်	-11125
ကာလပတ်လုံး	-11126
▁သင်္ချိုင်း	-11127
ပိုင်ရှင်များ	-11128
▁Specification	-11129
▁ထိန်းချုပ်မှု	-11130
စံချိန်စံညွှန်း	-11131
2.1	-11132
ita	-11133
ไทย	-11134
▁Od	-11135
▁la	-11136
xBet	-11137
ဖှဲ့	-11138
ဘီယာ	-11139
▁but	-11140
▁cam	-11141
▁ပြာ	-11142
-2019	-11143
မုန့်	-11144
ိုဆို	-11145
▁1200	-11146
▁host	-11147
ဆင်ယင်	-11148
▁Build	-11149
▁Drive	-11150
▁Forge	-11151
▁Leave	-11152
▁round	-11153
▁ဖြည့်	-11154
ရှိသည့်	-11155
သင်္ကေတ	-11156
▁window	-11157
▁ဂျိမ်း	-11158
▁ဒါတွေဟာ	-11159
ကာကွယ်မှု	-11160
ချင်ပါတယ်	-11161
ဇာတ်ကောင်	-11162
▁ဘွားမြင်	-11163
▁လေ့လာမှု	-11164
သတင်းစာကို	-11165
ံ့ခိုင်ရေး	-11166
ဆုံးရှုံးမှု	-11167
▁တစ်ခုတည်းသော	-11168
▁လူများတို့သည်	-11169
▁ထာဝရဘုရားကလည်း၊	-11170
ba	-11171
▁Gh	-11172
▁So	-11173
▁TK	-11174
▁gr	-11175
▁if	-11176
▁ဘေ	-11177
educ	-11178
orts	-11179
▁AUD	-11180
▁Apk	-11181
▁gran	-11182
androl	-11183
ဖြုန်း	-11184
အကြမ်း	-11185
ိုက်ဘာ	-11186
ျခံေျမ	-11187
▁Santa	-11188
▁rated	-11189
▁တင်ပြ	-11190
ိုးရွား	-11191
ုပ်ကွေး	-11192
▁Refill	-11193
▁ကျိန်း	-11194
▁တကယ်ပဲ	-11195
▁သိမှတ်	-11196
အယ်လ်ဘမ်	-11197
▁အလွယ်တကူ	-11198
စာဖတ်ခြင်း	-11199
သည်းထန်စွာ	-11200
▁Container	-11201
▁စစ်ဆင်ရေး	-11202
▁နှာခေါင်း	-11203
ကုန်သွယ်ရေး	-11204
▁Technology	-11205
▁တစုံတယောက်	-11206
▁အထံတော်သို့	-11207
▁အများပြည်သူ	-11208
ဖွဲ့စည်းခြင်း	-11209
သတ်မှတ်ထားသော	-11210
▁မီးဖိုချောင်	-11211
အမျိုးအစားများ	-11212
▁စက်မှုလုပ်ငန်း	-11213
GT	-11214
-14	-11215
▁CM	-11216
▁RE	-11217
▁UP	-11218
▁ေဒ	-11219
adio	-11220
olid	-11221
sson	-11222
စတား	-11223
ဇာတိ	-11224
မလေး	-11225
▁170	-11226
▁Nxt	-11227
▁ခုံ	-11228
cover	-11229
ondon	-11230
တို့သ	-11231
ော့ခ်	-11232
▁carb	-11233
▁ster	-11234
▁စိတ္	-11235
▁စုပ်	-11236
▁ညဉ့်	-11237
▁လို႔	-11238
▁ဝှက်	-11239
က္ကဋ္ဌ	-11240
တတ်တဲ့	-11241
ပရင်တာ	-11242
မိတ္တူ	-11243
လောဆယ်	-11244
▁ကျိုး	-11245
စာချုပ်	-11246
မိတ်ကပ်	-11247
သည့်အခါ	-11248
▁ဆွီဒင်	-11249
▁တစ်စုံ	-11250
ဆိုက်ကို	-11251
ဖြစ်တယ်။	-11252
အစဉ်အဆက်	-11253
▁ဖြစ်သော	-11254
▁ရီးရဲလ်	-11255
▁သီးသန့်	-11256
ခြောက်သွေ့	-11257
▁မျိုးစိတ်	-11258
▁အကြီးဆုံး	-11259
▁အရည်ပျော်	-11260
ကုန်သွယ်မှု	-11261
တို့ကိုလည်း	-11262
ရေးလုပ်ငန်း	-11263
▁cryptocurr	-11264
လေ့ကျင့်ခန်း	-11265
▁ဣသရေလအမျိုးကို	-11266
BM	-11267
ဇု	-11268
320	-11269
ENT	-11270
zle	-11271
နင်	-11272
▁Ba	-11273
▁တု	-11274
HSAS	-11275
arch	-11276
စော်	-11277
ျမင္	-11278
▁380	-11279
▁700	-11280
▁Flo	-11281
▁Rep	-11282
▁pin	-11283
တယ်လီ	-11284
ဘာပတိ	-11285
မာရေး	-11286
မြင်း	-11287
လျှက်	-11288
▁Bank	-11289
▁This	-11290
▁အုတ်	-11291
ခဲ့ပါ။	-11292
စေတယ်။	-11293
သူမ်ား	-11294
▁OHSAS	-11295
▁fiber	-11296
▁water	-11297
▁ဂိလဒ်	-11298
ကစားတဲ့	-11299
ကောလိပ်	-11300
တည်းသော	-11301
ပြောတာက	-11302
ောကျပံ့	-11303
▁အစ်ကို	-11304
▁အရာကို	-11305
▁ratings	-11306
▁စက္ကန့်	-11307
အတွင်းရှိ	-11308
အစောပိုင်း	-11309
အိမ်ခြံမြေ	-11310
▁ကွန်ပြူတာ	-11311
▁လှုံ့ဆော်	-11312
ကဲ့သို့၎င်း	-11313
မော်ဒယ်များ	-11314
▁တစ်ခါတစ်လေ	-11315
▁ပေါင်းစည်း	-11316
သောစျေးနှုန်း	-11317
▁ဖယောင်းတိုင်	-11318
▁ယေရုရှလင်မြို့၌	-11319
2-	-11320
DM	-11321
HZ	-11322
-25	-11323
Pal	-11324
fly	-11325
ဖြဲ	-11326
ရှီ	-11327
▁EU	-11328
▁Ep	-11329
▁၆၀	-11330
နျြး	-11331
▁BTS	-11332
▁Dav	-11333
▁Dim	-11334
▁PRO	-11335
▁SQL	-11336
▁who	-11337
ကြွပ်	-11338
ပေါ်၌	-11339
▁With	-11340
▁load	-11341
▁စုတ်	-11342
စားပေး	-11343
ရပါမည်	-11344
▁ခေါင်	-11345
▁တို့က	-11346
အားနည်း	-11347
▁Hunter	-11348
▁အရာတွေ	-11349
စေနှင့်။	-11350
ပြည်တော်	-11351
မွေးဖွား	-11352
▁စင်ကာပူ	-11353
▁စာချုပ်	-11354
▁Kawasaki	-11355
▁modified	-11356
▁ဇာတ်ကောင်	-11357
▁ရက်ပေါင်း	-11358
▁ကမ္ဘာ့ဖလား	-11359
ပုဂ္ဂလိကဂျက်	-11360
သင့်လျော်သော	-11361
▁မှတ်တမ်းတင်	-11362
▁ဆိုက်ကိုမြေပုံ	-11363
On	-11364
▁”	-11365
Tri	-11366
gor	-11367
ria	-11368
အယူ	-11369
▁(9	-11370
▁52	-11371
▁sk	-11372
inos	-11373
တဘက်	-11374
န္းက	-11375
မုတ်	-11376
▁WHO	-11377
/2019	-11378
phone	-11379
စတော့	-11380
မွန်း	-11381
▁ကနဦး	-11382
▁တနေ့	-11383
ပစ်ရန်	-11384
▁Blade	-11385
▁Poker	-11386
▁ဟူသော	-11387
▁Amazon	-11388
▁Teflon	-11389
▁ရနိုင်	-11390
စားသောက်	-11391
စိုးရိမ်	-11392
မှတ်ဉာဏ်	-11393
လူမှုရေး	-11394
▁Options	-11395
▁ငါတို့၏	-11396
▁စက္ဏူထူ	-11397
▁ယူအက်စ်	-11398
▁နောက်မှာ	-11399
▁အောက်ခြေ	-11400
▁Converter	-11401
▁Samitivej	-11402
▁ကျယ်ပြန့်	-11403
ရွေးချယ်မှု	-11404
▁resolution	-11405
▁ထိုနောက်မှ	-11406
▁ထိုမှတပါး၊	-11407
▁ဗီဒီယိုကို	-11408
▁အတိုင်းအတာ	-11409
▁ကျွန်မအတွက်	-11410
▁လိုက်ဖက်တဲ့	-11411
▁သို့ရာတွင်၊	-11412
sv	-11413
ဒဲ	-11414
ဗလ	-11415
.16	-11416
zer	-11417
အလံ	-11418
▁MO	-11419
jing	-11420
zhen	-11421
ဗ်ဝဲ	-11422
▁---	-11423
▁450	-11424
ပဲလေ။	-11425
သတည်း	-11426
▁cert	-11427
▁page	-11428
ပေါငျး	-11429
▁Penny	-11430
▁Solid	-11431
▁©2005	-11432
▁ဆိုပါ	-11433
▁နှငျ့	-11434
▁ရပ်နေ	-11435
▁ရေကန်	-11436
▁လှံတံ	-11437
▁$24.99	-11438
▁Burner	-11439
▁Cutter	-11440
▁Harris	-11441
▁စတုတ္ထ	-11442
▁သဘောတူ	-11443
ဗွီဒီယို	-11444
▁မှတ်သား	-11445
▁ဝါကြွား	-11446
ကြမ်းပြင်	-11447
တစ်ခုလုံး	-11448
▁BahasaJP	-11449
▁protocol	-11450
▁ပယ်ရှင်း	-11451
▁အလင်းကို	-11452
ခဲ့ကြောင်း	-11453
ဘုရားသခင်၊	-11454
သရုပ်ဆောင်	-11455
▁အစဉ်မပြတ်	-11456
စမ်းသပ်ပြီး	-11457
လိုက်ပါတယ်။	-11458
▁©2005-2018	-11459
မေးခွန်းများ	-11460
ဖုန်ဖယ်ရှားရေး	-11461
▁နောက်ဆုံးပေါ်	-11462
လှုပ်ရှားမှုများ	-11463
ဗ္	-11464
တစျ	-11465
မယူ	-11466
▁FL	-11467
ynam	-11468
ဘာမှ	-11469
▁reg	-11470
▁ဟေဇ	-11471
▁အစေ	-11472
နှစ်ဆ	-11473
ပါမယ္	-11474
မလား။	-11475
လှံတံ	-11476
ionate	-11477
တွေလို	-11478
ထားရန်	-11479
▁Fluor	-11480
ချိုင့်	-11481
ခဲ့ရတယ်။	-11482
ခြင်းပါ။	-11483
လိုက်တယ်	-11484
အတော်လေး	-11485
▁Connect	-11486
▁ဆိုတော့	-11487
▁မကြောက်	-11488
androlone	-11489
▁ရိုးရိုး	-11490
▁လုံးဝကို	-11491
▁သင်နှင့်	-11492
နက်ရှိုင်း	-11493
▁လမ်းမကြီး	-11494
▁တနင်္လာနေ့	-11495
▁အရေဖျားလှီး	-11496
▁ပိုကောင်းတဲ့	-11497
▁ဘက်တီးရီးယား	-11498
▁အဲဂုတ္တုပြည်၌	-11499
▁	-11500
်	-11501
ု	-11502
း	-11503
ာ	-11504
က	-11505
ိ	-11506
ေ	-11507
တ	-11508
င	-11509
မ	-11510
ပ	-11511
န	-11512
့	-11513
အ	-11514
သ	-11515
ရ	-11516
ြ	-11517
စ	-11518
ှ	-11519
လ	-11520
ျ	-11521
e	-11522
ွ	-11523
ခ	-11524
a	-11525
t	-11526
ည	-11527
o	-11528
i	-11529
r	-11530
ါ	-11531
n	-11532
ယ	-11533
ီ	-11534
ဲ	-11535
ံ	-11536
ူ	-11537
s	-11538
l	-11539
ဆ	-11540
ဖ	-11541
ထ	-11542
။	-11543
0	-11544
,	-11545
္	-11546
.	-11547
c	-11548
1	-11549
d	-11550
ဘ	-11551
u	-11552
m	-11553
g	-11554
2	-11555
ဒ	-11556
p	-11557
h	-11558
-	-11559
၊	-11560
ဝ	-11561
ဟ	-11562
၏	-11563
S	-11564
C	-11565
y	-11566
:	-11567
5	-11568
3	-11569
P	-11570
A	-11571
b	-11572
4	-11573
ဂ	-11574
"	-11575
M	-11576
/	-11577
)	-11578
T	-11579
(	-11580
f	-11581
;	-11582
D	-11583
k	-11584
6	-11585
8	-11586
9	-11587
w	-11588
&	-11589
B	-11590
v	-11591
7	-11592
E	-11593
R	-11594
L	-11595
H	-11596
F	-11597
ဇ	-11598
I	-11599
ဗ	-11600
ဉ	-11601
G	-11602
O	-11603
N	-11604
၍	-11605
ဦ	-11606
x	-11607
၀	-11608
W	-11609
=	-11610
ဏ	-11611
?	-11612
၌	-11613
V	-11614
၁	-11615
K	-11616
U	-11617
၂	-11618
_	-11619
ဓ	-11620
z	-11621
J	-11622
ဥ	-11623
]	-11624
%	-11625
X	-11626
၎	-11627
j	-11628
ဤ	-11629
[	-11630
Y	-11631
!	-11632
+	-11633
'	-11634
၉	-11635
၅	-11636
ဧ	-11637
႔	-11638
၃	-11639
–	-11640
Z	-11641
၄	-11642
$	-11643
q	-11644
၈	-11645
ႏ	-11646
၇	-11647
၆	-11648
ဌ	-11649
Q	-11650
ၾ	-11651
ဣ	-11652
*	-11653
႕	-11654
•	-11655
#	-11656
ဳ	-11657
”	-11658
ၿ	-11659
“	-11660
ဿ	-11661
£	-11662
©	-11663
ဍ	-11664
»	-11665
ဋ	-11666
€	-11667
@	-11668
~	-11669
ဩ	-11670
×	-11671
ႈ	-11672
°	-11673
↑	-11674
ဃ	-11675
ဈ	-11676
’	-11677
ၚ	-11678
ၽ	-11679
ႀ	-11680
·	-11681
—	-11682
ႊ	-11683
→	-11684
é	-11685
ဠ	-11686
ဴ	-11687
′	-11688
±	-11689
}	-11690
{	-11691
\	-11692
®	-11693
á	-11694
ö	-11695
	-11696
ၤ	-11697
ä	-11698
ا	-11699
а	-11700
●	-11701
‘	-11702
≤	-11703
←	-11704
о	-11705
š	-11706
ل	-11707
ر	-11708
ၥ	-11709
ب	-11710
႐	-11711
`	-11712
å	-11713
ó	-11714
и	-11715
е	-11716
本	-11717
ي	-11718
ၼ	-11719
語	-11720
日	-11721
ၻ	-11722
ع	-11723
ย	-11724
с	-11725
≥	-11726
ၱ	-11727
ة	-11728
ၸ	-11729
т	-11730
ท	-11731
ႇ	-11732
	-11733
р	-11734
♪	-11735
ၵ	-11736
Φ	-11737
ไ	-11738
«	-11739
н	-11740
