<unk>	0
<s>	0
</s>	0
<0x00>	0
<0x01>	0
<0x02>	0
<0x03>	0
<0x04>	0
<0x05>	0
<0x06>	0
<0x07>	0
<0x08>	0
<0x09>	0
<0x0A>	0
<0x0B>	0
<0x0C>	0
<0x0D>	0
<0x0E>	0
<0x0F>	0
<0x10>	0
<0x11>	0
<0x12>	0
<0x13>	0
<0x14>	0
<0x15>	0
<0x16>	0
<0x17>	0
<0x18>	0
<0x19>	0
<0x1A>	0
<0x1B>	0
<0x1C>	0
<0x1D>	0
<0x1E>	0
<0x1F>	0
<0x20>	0
<0x21>	0
<0x22>	0
<0x23>	0
<0x24>	0
<0x25>	0
<0x26>	0
<0x27>	0
<0x28>	0
<0x29>	0
<0x2A>	0
<0x2B>	0
<0x2C>	0
<0x2D>	0
<0x2E>	0
<0x2F>	0
<0x30>	0
<0x31>	0
<0x32>	0
<0x33>	0
<0x34>	0
<0x35>	0
<0x36>	0
<0x37>	0
<0x38>	0
<0x39>	0
<0x3A>	0
<0x3B>	0
<0x3C>	0
<0x3D>	0
<0x3E>	0
<0x3F>	0
<0x40>	0
<0x41>	0
<0x42>	0
<0x43>	0
<0x44>	0
<0x45>	0
<0x46>	0
<0x47>	0
<0x48>	0
<0x49>	0
<0x4A>	0
<0x4B>	0
<0x4C>	0
<0x4D>	0
<0x4E>	0
<0x4F>	0
<0x50>	0
<0x51>	0
<0x52>	0
<0x53>	0
<0x54>	0
<0x55>	0
<0x56>	0
<0x57>	0
<0x58>	0
<0x59>	0
<0x5A>	0
<0x5B>	0
<0x5C>	0
<0x5D>	0
<0x5E>	0
<0x5F>	0
<0x60>	0
<0x61>	0
<0x62>	0
<0x63>	0
<0x64>	0
<0x65>	0
<0x66>	0
<0x67>	0
<0x68>	0
<0x69>	0
<0x6A>	0
<0x6B>	0
<0x6C>	0
<0x6D>	0
<0x6E>	0
<0x6F>	0
<0x70>	0
<0x71>	0
<0x72>	0
<0x73>	0
<0x74>	0
<0x75>	0
<0x76>	0
<0x77>	0
<0x78>	0
<0x79>	0
<0x7A>	0
<0x7B>	0
<0x7C>	0
<0x7D>	0
<0x7E>	0
<0x7F>	0
<0x80>	0
<0x81>	0
<0x82>	0
<0x83>	0
<0x84>	0
<0x85>	0
<0x86>	0
<0x87>	0
<0x88>	0
<0x89>	0
<0x8A>	0
<0x8B>	0
<0x8C>	0
<0x8D>	0
<0x8E>	0
<0x8F>	0
<0x90>	0
<0x91>	0
<0x92>	0
<0x93>	0
<0x94>	0
<0x95>	0
<0x96>	0
<0x97>	0
<0x98>	0
<0x99>	0
<0x9A>	0
<0x9B>	0
<0x9C>	0
<0x9D>	0
<0x9E>	0
<0x9F>	0
<0xA0>	0
<0xA1>	0
<0xA2>	0
<0xA3>	0
<0xA4>	0
<0xA5>	0
<0xA6>	0
<0xA7>	0
<0xA8>	0
<0xA9>	0
<0xAA>	0
<0xAB>	0
<0xAC>	0
<0xAD>	0
<0xAE>	0
<0xAF>	0
<0xB0>	0
<0xB1>	0
<0xB2>	0
<0xB3>	0
<0xB4>	0
<0xB5>	0
<0xB6>	0
<0xB7>	0
<0xB8>	0
<0xB9>	0
<0xBA>	0
<0xBB>	0
<0xBC>	0
<0xBD>	0
<0xBE>	0
<0xBF>	0
<0xC0>	0
<0xC1>	0
<0xC2>	0
<0xC3>	0
<0xC4>	0
<0xC5>	0
<0xC6>	0
<0xC7>	0
<0xC8>	0
<0xC9>	0
<0xCA>	0
<0xCB>	0
<0xCC>	0
<0xCD>	0
<0xCE>	0
<0xCF>	0
<0xD0>	0
<0xD1>	0
<0xD2>	0
<0xD3>	0
<0xD4>	0
<0xD5>	0
<0xD6>	0
<0xD7>	0
<0xD8>	0
<0xD9>	0
<0xDA>	0
<0xDB>	0
<0xDC>	0
<0xDD>	0
<0xDE>	0
<0xDF>	0
<0xE0>	0
<0xE1>	0
<0xE2>	0
<0xE3>	0
<0xE4>	0
<0xE5>	0
<0xE6>	0
<0xE7>	0
<0xE8>	0
<0xE9>	0
<0xEA>	0
<0xEB>	0
<0xEC>	0
<0xED>	0
<0xEE>	0
<0xEF>	0
<0xF0>	0
<0xF1>	0
<0xF2>	0
<0xF3>	0
<0xF4>	0
<0xF5>	0
<0xF6>	0
<0xF7>	0
<0xF8>	0
<0xF9>	0
<0xFA>	0
<0xFB>	0
<0xFC>	0
<0xFD>	0
<0xFE>	0
<0xFF>	0
ານ	-0
ອງ	-1
er	-2
in	-3
ການ	-4
▁ເ	-5
ໍາ	-6
ັນ	-7
ັບ	-8
▁C	-9
ລະ	-10
▁S	-11
▁ສ	-12
an	-13
ິດ	-14
ທີ	-15
on	-16
▁2	-17
▁P	-18
at	-19
້າ	-20
ັດ	-21
ທີ່	-22
▁1	-23
ar	-24
ຫນ	-25
▁ແ	-26
es	-27
en	-28
າຍ	-29
▁M	-30
or	-31
al	-32
ປະ	-33
າມ	-34
▁T	-35
ຂອງ	-36
▁B	-37
ື່	-38
ອນ	-39
▁A	-40
01	-41
▁D	-42
st	-43
ໃນ	-44
▁ການ	-45
າດ	-46
00	-47
່າ	-48
▁ກ	-49
ic	-50
▁L	-51
▁F	-52
▁/	-53
le	-54
▁(	-55
▁R	-56
▁-	-57
▁ຄ	-58
ະລ	-59
້ນ	-60
ro	-61
ing	-62
ໍ່	-63
ສະ	-64
▁ອ	-65
▁ໂ	-66
to	-67
ັກ	-68
it	-69
ັງ	-70
ົດ	-71
າກ	-72
ac	-73
▁ລ	-74
▁H	-75
່ງ	-76
▁E	-77
່ນ	-78
ຫຼ	-79
▁201	-80
am	-81
▁W	-82
ol	-83
ວາມ	-84
▁ພ	-85
▁ຕ	-86
▁ມ	-87
▁,	-88
▁G	-89
ດ້	-90
ed	-91
et	-92
ະລິດ	-93
ຜະລິດ	-94
▁t	-95
▁ແລະ	-96
ຫມ	-97
ົນ	-98
as	-99
ູ້	-100
ou	-101
▁ທ	-102
el	-103
່ານ	-104
▁3	-105
ວກ	-106
om	-107
il	-108
ຸດ	-109
▁N	-110
ແລະ	-111
▁ຂ	-112
າວ	-113
▁ຈ	-114
ໍາລ	-115
▁I	-116
ີນ	-117
re	-118
ອກ	-119
▁ນ	-120
▁ບ	-121
ື່ອງ	-122
▁c	-123
▁ຫນ	-124
ter	-125
າງ	-126
ag	-127
ໄດ້	-128
ິນ	-129
id	-130
ຄື່ອງ	-131
▁s	-132
▁_	-133
ະພ	-134
ປັນ	-135
ຜູ້	-136
▁V	-137
▁&	-138
▁ຊ	-139
ວນ	-140
os	-141
▁ທີ່	-142
ົາ	-143
ໍາລັບ	-144
ion	-145
▁ວ	-146
ີ້	-147
he	-148
ເຮ	-149
..	-150
ot	-151
is	-152
ad	-153
▁p	-154
▁ປະ	-155
ູ່	-156
ch	-157
▁5	-158
atto	-159
ມີ	-160
▁4	-161
▁U	-162
ົງ	-163
ເພ	-164
ອບ	-165
▁ສະ	-166
▁O	-167
ຄວາມ	-168
ດຍ	-169
ຫ້	-170
ct	-171
່ຽ	-172
ent	-173
▁m	-174
ົມ	-175
▁b	-176
...	-177
ຫລ	-178
▁ໃນ	-179
ົບ	-180
ໍ້	-181
າບ	-182
ur	-183
ລິ	-184
ess	-185
ະນ	-186
ົ້າ	-187
ig	-188
ງານ	-189
▁ດ	-190
gt	-191
ມື	-192
ມ່ນ	-193
▁K	-194
▁ຄວາມ	-195
▁ປ	-196
▁ຮ	-197
ໄປ	-198
▁ເຄື່ອງ	-199
ົວ	-200
ສາ	-201
▁St	-202
us	-203
ູນ	-204
ເປັນ	-205
ir	-206
ack	-207
ເລ	-208
ang	-209
▁J	-210
້ງ	-211
and	-212
um	-213
▁ຂອງ	-214
້ອ	-215
ul	-216
▁f	-217
່ວ	-218
▁d	-219
ິງ	-220
່າງ	-221
ັ້ນ	-222
un	-223
ay	-224
ຈາກ	-225
ະພັນ	-226
ust	-227
ຊ້	-228
ve	-229
ຜະລິດຕ	-230
ow	-231
▁6	-232
ຜະລິດຕະພັນ	-233
ri	-234
▁w	-235
▁0	-236
▁ຜູ້	-237
ap	-238
ໃຊ້	-239
ຢູ່	-240
▁...	-241
of	-242
ລາ	-243
▁Ch	-244
ຸນ	-245
ໃຫ້	-246
ຖື	-247
amp	-248
ເທ	-249
ວກເຮ	-250
20	-251
ກັບ	-252
້ອງ	-253
ຮງ	-254
ຫຍ	-255
▁tatto	-256
▁8	-257
op	-258
ີ່	-259
ine	-260
ັ້ງ	-261
ພິ	-262
ູບ	-263
▁ຫນ້າ	-264
ູງ	-265
▁ສໍາລັບ	-266
ຕໍ່	-267
▁$	-268
້າງ	-269
ab	-270
▁h	-271
ືອນ	-272
ບບ	-273
lo	-274
em	-275
ື່ອ	-276
▁7	-277
້ໍາ	-278
ut	-279
ເພດ	-280
▁ລະ	-281
od	-282
ເສ	-283
ຄາ	-284
▁In	-285
ທ່ານ	-286
ip	-287
ຈະ	-288
ໍລິ	-289
ສໍາລັບ	-290
ເວ	-291
ເຂ	-292
▁Pr	-293
com	-294
ໄລ	-295
eb	-296
ເມ	-297
▁ຫຼ	-298
ທໍາ	-299
ິ່ງ	-300
mm	-301
ປະກ	-302
ເຊ	-303
▁Co	-304
ສຸດ	-305
▁ຖ	-306
000	-307
▁–	-308
ຮັບ	-309
50	-310
ໄຟ	-311
ະສ	-312
ະຫນ	-313
ian	-314
ra	-315
▁ເຊ	-316
ຶກ	-317
ີດ	-318
ເຕ	-319
▁10	-320
ers	-321
▁ຍ	-322
one	-323
▁ມີ	-324
ແບບ	-325
ແມ່ນ	-326
▁ໂດຍ	-327
ວກເຮົາ	-328
▁9	-329
ຕິ	-330
ສູງ	-331
▁X	-332
ong	-333
▁Sh	-334
າມາດ	-335
▁g	-336
ລົດ	-337
▁20	-338
ເທດ	-339
▁2018	-340
ຽນ	-341
່າຍ	-342
ck	-343
ard	-344
ທລະ	-345
ia	-346
pe	-347
▁+	-348
ວກັບ	-349
ອິດ	-350
▁Y	-351
igh	-352
ດືອນ	-353
▁ຫ	-354
ຊີ	-355
▁ຈີນ	-356
ast	-357
▁ໄດ້	-358
ທາງ	-359
▁ຜ	-360
qu	-361
່ຽວກັບ	-362
ອດ	-363
ແຕ	-364
ຸກ	-365
th	-366
ທໍາອິດ	-367
ນີ້	-368
ກະ	-369
ເຄື່ອງ	-370
້ານ	-371
ຸມ	-372
▁Pro	-373
.0	-374
201	-375
ົ່າ	-376
ment	-377
ຫລດ	-378
ວ່າ	-379
ກໍາ	-380
ib	-381
ຖືກ	-382
im	-383
▁ດາວ	-384
▁An	-385
ໂດຍ	-386
ົກ	-387
ມາ	-388
່າວ	-389
ບໍ່	-390
້ວ	-391
ອາ	-392
ສັບ	-393
ຮງງານ	-394
ຫມົດ	-395
ບັນ	-396
ເຈ	-397
ງິນ	-398
all	-399
ດີ	-400
ົ່ງ	-401
-1	-402
ື່ນ	-403
ົ້ນ	-404
ະຫນາດ	-405
ຽງ	-406
ate	-407
ສາມາດ	-408
▁ປະເພດ	-409
og	-410
▁ຜະລິດຕະພັນ	-411
ຍາ	-412
ຈີນ	-413
te	-414
ation	-415
້ມ	-416
ໂລ	-417
ຄື	-418
້ອຍ	-419
▁"	-420
ອອກ	-421
pp	-422
ຫະ	-423
ຸ່ນ	-424
▁Z	-425
ສະຫນ	-426
່ວນ	-427
ທລະສັບ	-428
ະພາບ	-429
ain	-430
ໂນ	-431
ub	-432
ໂຫລດ	-433
▁ຫນ້າທໍາອິດ	-434
▁l	-435
lect	-436
ຕະ	-437
▁ແມ່ນ	-438
ຫາ	-439
ໍານ	-440
ark	-441
iz	-442
co	-443
ຕັ້ງ	-444
ພາ	-445
ພວກເຮົາ	-446
ight	-447
▁tattoos	-448
▁ລາ	-449
inter	-450
▁ເປັນ	-451
ver	-452
▁ເດືອນ	-453
▁:	-454
ກິດ	-455
if	-456
▁ວິ	-457
ce	-458
est	-459
ric	-460
ບໍລິ	-461
▁2019	-462
▁12	-463
ke	-464
art	-465
ທັງ	-466
ນ໌	-467
ເກ	-468
ເຮັດ	-469
▁	-470
າ	-471
ນ	-472
e	-473
a	-474
o	-475
t	-476
i	-477
ກ	-478
ດ	-479
r	-480
n	-481
່	-482
ະ	-483
ັ	-484
ງ	-485
ອ	-486
s	-487
ເ	-488
້	-489
ລ	-490
l	-491
ມ	-492
ສ	-493
ບ	-494
ວ	-495
,	-496
0	-497
ີ	-498
ຫ	-499
ທ	-500
c	-501
ິ	-502
ົ	-503
u	-504
.	-505
1	-506
ໍ	-507
d	-508
m	-509
h	-510
g	-511
2	-512
ຕ	-513
ແ	-514
ຍ	-515
ຄ	-516
p	-517
ປ	-518
ຂ	-519
ພ	-520
C	-521
ື	-522
S	-523
:	-524
ຊ	-525
P	-526
y	-527
ູ	-528
ຈ	-529
-	-530
ໃ	-531
ຸ	-532
A	-533
5	-534
ຮ	-535
ໂ	-536
b	-537
T	-538
M	-539
ໄ	-540
3	-541
ຜ	-542
k	-543
D	-544
B	-545
E	-546
L	-547
8	-548
f	-549
4	-550
R	-551
6	-552
/	-553
F	-554
v	-555
w	-556
9	-557
I	-558
H	-559
7	-560
N	-561
ຽ	-562
O	-563
G	-564
)	-565
(	-566
ຖ	-567
W	-568
V	-569
ຼ	-570
ຢ	-571
x	-572
;	-573
U	-574
K	-575
ຟ	-576
_	-577
&	-578
z	-579
ຶ	-580
X	-581
J	-582
"	-583
Y	-584
j	-585
໌	-586
ຣ	-587
$	-588
%	-589
ຝ	-590
Z	-591
q	-592
+	-593
!	-594
–	-595
ໆ	-596
Q	-597
*	-598
'	-599
?	-600
£	-601
©	-602
@	-603
=	-604
»	-605
]	-606
[	-607
#	-608
}	-609
\	-610
{	-611
“	-612
”	-613
€	-614
°	-615
×	-616
~	-617
•	-618
໊	-619
’	-620
	-621
໋	-622
а	-623
ç	-624
к	-625
ı	-626
с	-627
→	-628
é	-629
н	-630
≤	-631
р	-632
★	-633
ñ	-634
ü	-635
о	-636
`	-637
·	-638
—	-639
и	-640
е	-641
ö	-642
ь	-643
®	-644
ย	-645
±	-646
ş	-647
น	-648
฿	-649
送	-650
า	-651
≥	-652
信	-653
发	-654
息	-655
У	-656
ท	-657
ї	-658
天	-659
聊	-660
т	-661
ไ	-662
Φ	-663
ะ	-664
ร	-665
á	-666
本	-667
ว	-668
ä	-669
ม	-670
«	-671
电	-672
←	-673
л	-674
万	-675
象	-676
เ	-677
话	-678
资	-679
ิ	-680
【	-681
в	-682
】	-683
ğ	-684
โ	-685
ล	-686
¥	-687
у	-688
ซ	-689
‘	-690
å	-691
อ	-692
◆	-693
ง	-694
м	-695
Ω	-696
₪	-697
₱	-698
	-699
ด	-700
ຯ	-701
б	-702
●	-703
μ	-704
й	-705
	-706
í	-707
ó	-708
ี	-709
′	-710
ส	-711
à	-712
д	-713
ы	-714
🔥	-715
ก	-716
แ	-717
ข	-718
ค	-719
中	-720
	-721
Ö	-722
ห	-723
я	-724
้	-725
ا	-726
ป	-727
어	-728
п	-729
ต	-730
บ	-731
^	-732
İ	-733
文	-734
ั	-735
จ	-736
Ø	-737
х	-738
Ф	-739
г	-740
