<unk>	0
<s>	0
</s>	0
<0x00>	0
<0x01>	0
<0x02>	0
<0x03>	0
<0x04>	0
<0x05>	0
<0x06>	0
<0x07>	0
<0x08>	0
<0x09>	0
<0x0A>	0
<0x0B>	0
<0x0C>	0
<0x0D>	0
<0x0E>	0
<0x0F>	0
<0x10>	0
<0x11>	0
<0x12>	0
<0x13>	0
<0x14>	0
<0x15>	0
<0x16>	0
<0x17>	0
<0x18>	0
<0x19>	0
<0x1A>	0
<0x1B>	0
<0x1C>	0
<0x1D>	0
<0x1E>	0
<0x1F>	0
<0x20>	0
<0x21>	0
<0x22>	0
<0x23>	0
<0x24>	0
<0x25>	0
<0x26>	0
<0x27>	0
<0x28>	0
<0x29>	0
<0x2A>	0
<0x2B>	0
<0x2C>	0
<0x2D>	0
<0x2E>	0
<0x2F>	0
<0x30>	0
<0x31>	0
<0x32>	0
<0x33>	0
<0x34>	0
<0x35>	0
<0x36>	0
<0x37>	0
<0x38>	0
<0x39>	0
<0x3A>	0
<0x3B>	0
<0x3C>	0
<0x3D>	0
<0x3E>	0
<0x3F>	0
<0x40>	0
<0x41>	0
<0x42>	0
<0x43>	0
<0x44>	0
<0x45>	0
<0x46>	0
<0x47>	0
<0x48>	0
<0x49>	0
<0x4A>	0
<0x4B>	0
<0x4C>	0
<0x4D>	0
<0x4E>	0
<0x4F>	0
<0x50>	0
<0x51>	0
<0x52>	0
<0x53>	0
<0x54>	0
<0x55>	0
<0x56>	0
<0x57>	0
<0x58>	0
<0x59>	0
<0x5A>	0
<0x5B>	0
<0x5C>	0
<0x5D>	0
<0x5E>	0
<0x5F>	0
<0x60>	0
<0x61>	0
<0x62>	0
<0x63>	0
<0x64>	0
<0x65>	0
<0x66>	0
<0x67>	0
<0x68>	0
<0x69>	0
<0x6A>	0
<0x6B>	0
<0x6C>	0
<0x6D>	0
<0x6E>	0
<0x6F>	0
<0x70>	0
<0x71>	0
<0x72>	0
<0x73>	0
<0x74>	0
<0x75>	0
<0x76>	0
<0x77>	0
<0x78>	0
<0x79>	0
<0x7A>	0
<0x7B>	0
<0x7C>	0
<0x7D>	0
<0x7E>	0
<0x7F>	0
<0x80>	0
<0x81>	0
<0x82>	0
<0x83>	0
<0x84>	0
<0x85>	0
<0x86>	0
<0x87>	0
<0x88>	0
<0x89>	0
<0x8A>	0
<0x8B>	0
<0x8C>	0
<0x8D>	0
<0x8E>	0
<0x8F>	0
<0x90>	0
<0x91>	0
<0x92>	0
<0x93>	0
<0x94>	0
<0x95>	0
<0x96>	0
<0x97>	0
<0x98>	0
<0x99>	0
<0x9A>	0
<0x9B>	0
<0x9C>	0
<0x9D>	0
<0x9E>	0
<0x9F>	0
<0xA0>	0
<0xA1>	0
<0xA2>	0
<0xA3>	0
<0xA4>	0
<0xA5>	0
<0xA6>	0
<0xA7>	0
<0xA8>	0
<0xA9>	0
<0xAA>	0
<0xAB>	0
<0xAC>	0
<0xAD>	0
<0xAE>	0
<0xAF>	0
<0xB0>	0
<0xB1>	0
<0xB2>	0
<0xB3>	0
<0xB4>	0
<0xB5>	0
<0xB6>	0
<0xB7>	0
<0xB8>	0
<0xB9>	0
<0xBA>	0
<0xBB>	0
<0xBC>	0
<0xBD>	0
<0xBE>	0
<0xBF>	0
<0xC0>	0
<0xC1>	0
<0xC2>	0
<0xC3>	0
<0xC4>	0
<0xC5>	0
<0xC6>	0
<0xC7>	0
<0xC8>	0
<0xC9>	0
<0xCA>	0
<0xCB>	0
<0xCC>	0
<0xCD>	0
<0xCE>	0
<0xCF>	0
<0xD0>	0
<0xD1>	0
<0xD2>	0
<0xD3>	0
<0xD4>	0
<0xD5>	0
<0xD6>	0
<0xD7>	0
<0xD8>	0
<0xD9>	0
<0xDA>	0
<0xDB>	0
<0xDC>	0
<0xDD>	0
<0xDE>	0
<0xDF>	0
<0xE0>	0
<0xE1>	0
<0xE2>	0
<0xE3>	0
<0xE4>	0
<0xE5>	0
<0xE6>	0
<0xE7>	0
<0xE8>	0
<0xE9>	0
<0xEA>	0
<0xEB>	0
<0xEC>	0
<0xED>	0
<0xEE>	0
<0xEF>	0
<0xF0>	0
<0xF1>	0
<0xF2>	0
<0xF3>	0
<0xF4>	0
<0xF5>	0
<0xF6>	0
<0xF7>	0
<0xF8>	0
<0xF9>	0
<0xFA>	0
<0xFB>	0
<0xFC>	0
<0xFD>	0
<0xFE>	0
<0xFF>	0
▁ક	-0
▁સ	-1
મા	-2
▁પ	-3
્ર	-4
▁ત	-5
ને	-6
▁અ	-7
્ય	-8
વા	-9
▁છ	-10
▁જ	-11
▁વ	-12
ાર	-13
▁છે	-14
▁ન	-15
▁કર	-16
ું	-17
▁આ	-18
▁મા	-19
▁મ	-20
▁બ	-21
ર્	-22
ના	-23
▁હ	-24
ટે	-25
▁તે	-26
▁ર	-27
▁શ	-28
્ટ	-29
માં	-30
▁એ	-31
▁અને	-32
▁(	-33
ની	-34
▁દ	-35
થી	-36
▁લ	-37
તા	-38
▁પ્ર	-39
રા	-40
ક્	-41
મે	-42
રી	-43
▁ફ	-44
▁માટે	-45
▁ઉ	-46
▁વિ	-47
▁ગ	-48
▁1	-49
્યા	-50
▁2	-51
ેલ	-52
▁ડ	-53
ંગ	-54
▁કે	-55
સ્	-56
▁સ્	-57
નો	-58
િત	-59
▁સા	-60
ન્	-61
on	-62
in	-63
▁પર	-64
િય	-65
િક	-66
an	-67
ોડ	-68
▁ચ	-69
▁કરો	-70
▁-	-71
▁ખ	-72
લા	-73
er	-74
00	-75
▁ભ	-76
ત્	-77
▁પા	-78
કો	-79
▁જે	-80
▁સં	-81
વે	-82
વી	-83
ાય	-84
▁થ	-85
ાઇ	-86
01	-87
▁ઉપ	-88
નું	-89
ti	-90
ંત	-91
▁એક	-92
▁ટ	-93
▁ય	-94
ોલ	-95
રે	-96
કા	-97
▁કરવા	-98
es	-99
▁આપ	-100
તી	-101
શે	-102
▁કરી	-103
am	-104
તિ	-105
▁નથી	-106
▁વા	-107
્લ	-108
or	-109
રો	-110
▁C	-111
ar	-112
en	-113
▁જો	-114
સ્ટ	-115
કે	-116
ાઉ	-117
▁ના	-118
▁p	-119
ક્ષ	-120
it	-121
▁તમે	-122
al	-123
▁S	-124
થે	-125
▁કો	-126
▁હો	-127
્ધ	-128
તો	-129
▁સુ	-130
▁તમા	-131
ણી	-132
▁ઓ	-133
▁/	-134
▁સાથે	-135
▁મે	-136
હે	-137
tion	-138
યો	-139
વો	-140
નલ	-141
ંદ	-142
ારે	-143
▁ટે	-144
ત્ર	-145
at	-146
▁ઇ	-147
ક્ર	-148
્સ	-149
્યુ	-150
▁201	-151
▁%	-152
om	-153
▁સમ	-154
▁(_	-155
િયા	-156
▁કાર	-157
તે	-158
ન્ડ	-159
ન્ટ	-160
▁3	-161
પા	-162
ેટ	-163
▁P	-164
▁A	-165
્રે	-166
્યો	-167
st	-168
▁કા	-169
▁લો	-170
કાર	-171
▁t	-172
ોટ	-173
▁જા	-174
િંગ	-175
▁ઘ	-176
▁ને	-177
ાં	-178
્યું	-179
સ્ત	-180
le	-181
્વા	-182
▁ઈ	-183
લબ	-184
ેશ	-185
ાલ	-186
હિ	-187
..	-188
ક્સ	-189
થા	-190
▁E	-191
▁ડાઉ	-192
્યારે	-193
ીએ	-194
▁M	-195
▁k	-196
નલોડ	-197
ડા	-198
▁ડાઉનલોડ	-199
લબ્ધ	-200
▁ઉપલબ્ધ	-201
ાવ	-202
ir	-203
ણે	-204
ધાર	-205
▁માં	-206
ic	-207
ાઈ	-208
સે	-209
ાગ	-210
▁G	-211
▁પણ	-212
▁રહ	-213
રૂ	-214
ac	-215
ed	-216
gm	-217
...	-218
▁આવ	-219
▁n	-220
▁"	-221
ame	-222
▁વર્	-223
▁_	-224
ro	-225
▁રા	-226
િલ	-227
જી	-228
▁T	-229
▁kgm	-230
▁શક	-231
▁રી	-232
મને	-233
રણ	-234
▁નિ	-235
ષ્	-236
ેક	-237
▁ની	-238
થવા	-239
ટૂ	-240
cs	-241
ોક	-242
વિ	-243
▁અથવા	-244
▁દે	-245
▁5	-246
્રી	-247
▁ટેટૂ	-248
▁B	-249
ોન	-250
માન	-251
▁તો	-252
ધી	-253
▁મુ	-254
▁I	-255
ધા	-256
la	-257
▁4	-258
ડી	-259
▁તેઓ	-260
લો	-261
▁અન	-262
▁પસ	-263
▁ગુ	-264
▁હોય	-265
▁હું	-266
▁ઉત્	-267
શ્	-268
▁pcs	-269
ૂર્	-270
્પ	-271
▁,	-272
વામાં	-273
el	-274
▁લોકો	-275
▁વધ	-276
▁દ્વા	-277
▁પો	-278
▁ડિ	-279
▁દ્વારા	-280
્રા	-281
ાળ	-282
▁છો	-283
com	-284
▁પસંદ	-285
ંધ	-286
્ડ	-287
િટ	-288
▁D	-289
▁s	-290
હી	-291
et	-292
▁બના	-293
up	-294
▁L	-295
છી	-296
▁થય	-297
ંચ	-298
▁અમે	-299
લી	-300
▁નહિ	-301
▁વે	-302
વું	-303
ol	-304
▁યુ	-305
pd	-306
શન	-307
સી	-308
િન	-309
ch	-310
▁લે	-311
▁H	-312
pdf	-313
▁તમારા	-314
▁રીતે	-315
કી	-316
▁કોઈ	-317
▁ધ	-318
re	-319
ing	-320
્યાં	-321
ou	-322
ગી	-323
▁'	-324
▁W	-325
ણા	-326
as	-327
સુ	-328
ષ્ટ	-329
િવ	-330
દા	-331
ચ્	-332
દી	-333
▁વ્ય	-334
▁કરે	-335
મો	-336
▁R	-337
ોર્	-338
ot	-339
▁બે	-340
િપ	-341
▁N	-342
ારી	-343
▁F	-344
is	-345
ાણ	-346
બર	-347
nir	-348
op	-349
▁b	-350
▁જી	-351
▁અમા	-352
▁સે	-353
▁સર	-354
▁d	-355
▁બી	-356
▁૧	-357
પાદ	-358
▁પછી	-359
ર્ક	-360
યા	-361
જા	-362
▁પે	-363
ોધ	-364
▁6	-365
▁ખા	-366
દેશ	-367
▁8	-368
▁ટેટૂઝ	-369
ન્સ	-370
યોગ	-371
મી	-372
▁સમય	-373
upan	-374
▁પહ	-375
nirupan	-376
સા	-377
ઢડા	-378
▁સિ	-379
▁ગઢડા	-380
20	-381
▁in	-382
શા	-383
ma	-384
▁મૂ	-385
ટી	-386
વર	-387
▁&	-388
▁“	-389
▁રહ્યા	-390
ાપ	-391
ાઇલ	-392
ેર	-393
▁પુ	-394
▁થી	-395
▁0	-396
▁શું	-397
▁સંપ	-398
▁c	-399
ૂર	-400
▁વધુ	-401
▁તેમ	-402
▁ઉત્પાદ	-403
ec	-404
તું	-405
ળી	-406
▁U	-407
▁જ્યારે	-408
il	-409
he	-410
હિત	-411
▁થયેલ	-412
▁ઈસુ	-413
un	-414
▁કહ	-415
પી	-416
▁a	-417
ંતુ	-418
▁સ્થા	-419
▁બધા	-420
▁m	-421
ક્તિ	-422
▁સ્ટ	-423
▁શકે	-424
ર્સ	-425
પરા	-426
્લા	-427
કલ	-428
▁ભૂ	-429
તર	-430
ૂર્ણ	-431
બી	-432
▁h	-433
ઇન	-434
પર	-435
ીન	-436
us	-437
▁સર્	-438
િત્ર	-439
ચાર	-440
-1	-441
ad	-442
▁f	-443
▁તેના	-444
▁પરંતુ	-445
ેલા	-446
▁સમા	-447
▁સ્થ	-448
▁10	-449
▁કરવામાં	-450
▁નામ	-451
id	-452
50	-453
▁યા	-454
ોગ	-455
▁w	-456
▁તેને	-457
ચે	-458
ent	-459
▁ઝ	-460
કરણ	-461
ેસ	-462
મત	-463
▁છું	-464
▁છીએ	-465
▁7	-466
▁EU	-467
▁બા	-468
▁રંગ	-469
ur	-470
▁તમને	-471
તુ	-472
▁બદ	-473
▁કાર્ય	-474
વવા	-475
ાર્	-476
▁નિષ્	-477
રેખ	-478
000	-479
▁ભાગ	-480
હા	-481
▁હતી	-482
ow	-483
▁વપરા	-484
ક્ત	-485
▁name	-486
ર્તા	-487
▁હતો	-488
ડો	-489
▁રૂ	-490
▁વિશે	-491
▁જોડ	-492
▁રાખ	-493
▁તરી	-494
િં	-495
બા	-496
▁નહિં	-497
▁તરીકે	-498
▁ક્ર	-499
▁–	-500
▁9	-501
▁ત્યારે	-502
▁જોઈ	-503
માંથી	-504
▁V	-505
ity	-506
ૂત	-507
▁સંગ	-508
ાઓ	-509
▁મોટ	-510
▁કામ	-511
ab	-512
નાં	-513
▁$	-514
હાર	-515
▁અનુ	-516
201	-517
▁અંત	-518
▁શોધ	-519
▁સ્પ	-520
્રહ	-521
▁દેવ	-522
▁'%	-523
લે	-524
gt	-525
દ્ધ	-526
વન	-527
થમ	-528
સો	-529
ia	-530
▁ઉપયોગ	-531
▁માહિત	-532
▁પરિ	-533
ક્ટ	-534
વાર	-535
▁કં	-536
of	-537
▁તમારી	-538
▁આવે	-539
▁#	-540
સ્ક	-541
▁થાય	-542
and	-543
▁માહિતી	-544
▁જરૂ	-545
▁જુ	-546
▁પાસે	-547
ધ્ય	-548
ટર	-549
▁O	-550
ess	-551
મ્	-552
ોલ્ડ	-553
▁લખ	-554
Name	-555
▁તેથી	-556
▁પ્રકાર	-557
યોજ	-558
હેર	-559
શો	-560
જે	-561
▁K	-562
▁કરીને	-563
10	-564
▁કહ્યું	-565
ષ્ઠ	-566
ુક	-567
▁હતા	-568
ર્ડ	-569
▁...	-570
ઇટ	-571
▁મો	-572
▁J	-573
▁સાર	-574
.0	-575
▁સો	-576
ર્થ	-577
ન્ડો	-578
▁અસ	-579
▁મેળ	-580
ણો	-581
ફળ	-582
▁હે	-583
પ્ર	-584
શક	-585
ડે	-586
ri	-587
▁શ્રે	-588
વાન	-589
▁ઊ	-590
ેક્ટ	-591
▁2018	-592
▁આપણે	-593
▁બતા	-594
સ્તુ	-595
▁EUR	-596
▁પૂ	-597
▁પ્રથમ	-598
▁12	-599
tional	-600
▁ક્	-601
▁કુ	-602
ંભ	-603
ran	-604
▁નિય	-605
દર્	-606
▁રે	-607
▁વિશ	-608
ંત્ર	-609
▁નો	-610
▁20	-611
ત્તા	-612
િમ	-613
▁કારણ	-614
ang	-615
▁+	-616
્લે	-617
oo	-618
ક્રિય	-619
▁બંધ	-620
amp	-621
પુ	-622
િસ	-623
▁€	-624
શ્વ	-625
રફ	-626
િતિ	-627
▁કી	-628
હીં	-629
▁પી	-630
ચ્છ	-631
▁લી	-632
▁અમારા	-633
12	-634
▁ફાઈ	-635
▁ફાઇલ	-636
્દ	-637
▁સી	-638
▁આગ	-639
ter	-640
▁દિવ	-641
mm	-642
▁આધાર	-643
▁વ્યક્તિ	-644
):	-645
▁વિન્ડો	-646
ag	-647
સ્થા	-648
સ્ટમ	-649
▁X	-650
▁દા	-651
▁શકો	-652
એસ	-653
મ્પ	-654
▁મને	-655
▁લાગ	-656
▁કહે	-657
્ઞ	-658
▁વર્ષ	-659
▁:	-660
▁વસ્તુ	-661
▁ત્યાં	-662
▁પ્રો	-663
તાં	-664
▁g	-665
▁શરૂ	-666
oc	-667
▁માણ	-668
▁દૂર	-669
િકા	-670
ભૂત	-671
▁જગ	-672
▁સુધી	-673
▁માત્ર	-674
optional	-675
▁હતું	-676
▁શા	-677
બલ	-678
સ્થ	-679
▁તેની	-680
પ્	-681
ોર	-682
tt	-683
ફ્ટ	-684
▁સંગ્રહ	-685
▁ચાલ	-686
▁ફોલ્ડ	-687
▁જોઈએ	-688
▁મી	-689
▁વેબ	-690
▁મધ્ય	-691
▁માર્	-692
▁નિષ્ફળ	-693
▁સ્વા	-694
▁ભૂલ	-695
▁શિ	-696
hi	-697
30	-698
▁મારા	-699
▁લા	-700
action	-701
લ્	-702
lation	-703
▁2019	-704
ળા	-705
.00	-706
વેશ	-707
તમ	-708
em	-709
▁ડે	-710
tr	-711
માણ	-712
ay	-713
▁19	-714
નિક	-715
▁ક્ષ	-716
▁સંદેશ	-717
▁જાણ	-718
▁સેવા	-719
▁સુયોજ	-720
જરા	-721
જો	-722
્ઞા	-723
ક્ષણ	-724
▁In	-725
્રો	-726
▁દર	-727
જુ	-728
▁મહિ	-729
th	-730
City	-731
▁કેટ	-732
▁જવા	-733
.5	-734
▁the	-735
ેલી	-736
▁ઉમે	-737
દદ	-738
▁શકાય	-739
િઓ	-740
yp	-741
ly	-742
▁રહે	-743
li	-744
ind	-745
▁અન્ય	-746
▁હવે	-747
-2	-748
લાઇન	-749
રુ	-750
▁ખૂ	-751
▁જૂ	-752
ટો	-753
▁આવી	-754
ex	-755
▁૨	-756
▁24	-757
32	-758
ઇલ	-759
od	-760
▁યાદી	-761
ખ્યા	-762
▁મદદ	-763
ers	-764
▁ગુણ	-765
પની	-766
▁એમ	-767
▁ઑ	-768
▁મળ	-769
▁પોતા	-770
ાઇટ	-771
▁ગુજરા	-772
▁ફેર	-773
rans	-774
60	-775
િયો	-776
▁પ્લ	-777
lt	-778
▁શકા	-779
નિ	-780
ંક	-781
os	-782
શકર્તા	-783
▁ચિત્ર	-784
▁અપ	-785
▁માંગ	-786
▁મૂળ	-787
11	-788
▁વિચાર	-789
ખા	-790
▁નવી	-791
▁મોડ	-792
▁જગ્યા	-793
જન	-794
▁બ્ર	-795
▁દર્	-796
▁બહાર	-797
▁સાધ	-798
વાનું	-799
વાની	-800
▁હા	-801
દ્ર	-802
▁વપરાશકર્તા	-803
80	-804
▁સિસ્ટમ	-805
▁દરે	-806
▁રૂપ	-807
▁ભા	-808
ટા	-809
▁બ્લ	-810
ap	-811
▁જરૂર	-812
▁મહ	-813
લાક	-814
નુ	-815
▁સ્થાપ	-816
▁સ્થિતિ	-817
▁ક્લ	-818
▁ફાઈલ	-819
▁ઉપકરણ	-820
▁સુધાર	-821
▁કિં	-822
▁15	-823
▁વગ	-824
▁થઈ	-825
▁સૂ	-826
કાશ	-827
ટેડ	-828
▁મોક	-829
▁ટી	-830
▁રો	-831
ૃત	-832
▁વ્યા	-833
ર્ટ	-834
▁અલ	-835
નાર	-836
▁ફોન	-837
▁ફોલ્ડર	-838
▁ઓફ	-839
▁*	-840
▁—	-841
▁મારી	-842
પણ	-843
કલ્પ	-844
pr	-845
ત્તિ	-846
▁માન	-847
િયન	-848
.”	-849
ate	-850
વેર	-851
▁pro	-852
▁વિષ	-853
સિ	-854
ttp	-855
86	-856
▁વ્યવ	-857
▁માંથી	-858
▁મશ	-859
▁દરેક	-860
▁ખોલ	-861
્રિ	-862
▁એપ	-863
um	-864
વાદ	-865
▁સંપર્ક	-866
ut	-867
ળો	-868
▁ભાવ	-869
▁જીવન	-870
▁trans	-871
ew	-872
ડિયા	-873
▁પાછ	-874
▁મહત્	-875
ack	-876
▁ગો	-877
નલાઇન	-878
▁મુખ	-879
-0	-880
▁st	-881
.1	-882
▁સક્રિય	-883
▁શી	-884
▁દુ	-885
▁ખૂબ	-886
ેમ	-887
સ્તા	-888
ક્ષા	-889
▁જેમ	-890
▁માપ	-891
▁ફરી	-892
ાલી	-893
ાયેલ	-894
ારો	-895
▁કાઢ	-896
.2	-897
▁સંપૂર્ણ	-898
▁સૌ	-899
▁ગુજરાતી	-900
ઓને	-901
વણી	-902
ig	-903
ક્રમ	-904
▁11	-905
ર્મ	-906
ાઇન	-907
,,	-908
ve	-909
40	-910
nd	-911
▁http	-912
▁દિવસ	-913
નામ	-914
ra	-915
્ટી	-916
▁to	-917
▁વિસ્ત	-918
્યૂ	-919
ંડ	-920
ૂર્વ	-921
▁ટ્રે	-922
ગત	-923
▁નં	-924
▁ઉત્પાદન	-925
જ્ઞા	-926
▁સહ	-927
▁ડી	-928
▁v	-929
ધિક	-930
ment	-931
રું	-932
.9	-933
▁બાળ	-934
ચના	-935
માન્ય	-936
ob	-937
▁નીચે	-938
▁મુખ્ય	-939
▁ઇમે	-940
▁સ્વ	-941
▁કંપની	-942
▁પડ	-943
▁કરેલ	-944
//	-945
▁પ્રવેશ	-946
▁શ્રેષ્ઠ	-947
▁સ્ત્ર	-948
▁બતાવો	-949
પો	-950
://	-951
▁પ્રમાણ	-952
ંતર	-953
કાસ	-954
ેલે	-955
ગ્રી	-956
▁વૈ	-957
▁પાસ	-958
ર્ષ	-959
▁.	-960
▁જવાબ	-961
▁તેમના	-962
▁અમારી	-963
▁નેટ	-964
▁સ્ક્ર	-965
▁200	-966
ST	-967
ાંક	-968
her	-969
▁18	-970
▁ચે	-971
ન્ટર	-972
ખો	-973
▁વાંચ	-974
શી	-975
eed	-976
ite	-977
15	-978
▁મશીન	-979
ોલર	-980
ત્ય	-981
ૃત્તિ	-982
▁Y	-983
રેખર	-984
▁વિશ્વ	-985
▁અભ	-986
▁વિકલ્પ	-987
▁દી	-988
▁પસંદગી	-989
▁ખરેખર	-990
▁£	-991
▁૫	-992
કારી	-993
▁વર	-994
▁અવ	-995
ક્રિયા	-996
lec	-997
ભા	-998
64	-999
▁વાપ	-1000
▁નક	-1001
▁ગ્રા	-1002
▁બીજા	-1003
▁માણસ	-1004
સર	-1005
uj	-1006
▁સામ	-1007
ion	-1008
▁of	-1009
▁બનાવ	-1010
બ્દ	-1011
િટી	-1012
▁કિંમત	-1013
▁વિશ્વા	-1014
▁વેચ	-1015
▁વખ	-1016
મ્બર	-1017
▁ઘણા	-1018
ine	-1019
)...	-1020
▁આગળ	-1021
▁૩	-1022
▁શક્યા	-1023
▁કેવી	-1024
▁30	-1025
▁ચો	-1026
▁રૂપરેખ	-1027
▁નોંધ	-1028
▁તક	-1029
▁પુન	-1030
ેશન	-1031
▁do	-1032
▁translation	-1033
▁સર્વર	-1034
▁આપે	-1035
▁©	-1036
ub	-1037
▁વી	-1038
▁કરશે	-1039
▁પહેલા	-1040
▁એલ	-1041
▁ટો	-1042
બે	-1043
્ન	-1044
:00	-1045
ts	-1046
▁2017	-1047
▁વેબસ	-1048
ce	-1049
ભુ	-1050
35	-1051
▁કૉ	-1052
ન્દ્ર	-1053
▁પ્રક્રિયા	-1054
ype	-1055
▁સ્ટે	-1056
ોડી	-1057
સાય	-1058
ચ્ચ	-1059
eb	-1060
▁શબ્દ	-1061
▁પોસ્ટ	-1062
તરી	-1063
▁મેં	-1064
di	-1065
▁ઈસુએ	-1066
▁કોડ	-1067
ોર્ડ	-1068
▁100	-1069
સ્ત્ર	-1070
▁ફક્ત	-1071
▁સામાન્ય	-1072
▁પ્રતિ	-1073
ઉટ	-1074
ul	-1075
▁not	-1076
▁16	-1077
▁સુર	-1078
▁નેટવ	-1079
70	-1080
▁સરળ	-1081
▁સાચ	-1082
▁સુયોજિત	-1083
▁need	-1084
16	-1085
ાઇના	-1086
ત્મ	-1087
▁પહો	-1088
▁અગ	-1089
▁તારી	-1090
25	-1091
ારા	-1092
indow	-1093
વાય	-1094
▁ઝડ	-1095
▁ભર	-1096
▁યોગ	-1097
▁ભાર	-1098
▁ફે	-1099
▁[	-1100
▁બો	-1101
્ત	-1102
▁અહીં	-1103
ation	-1104
▁14	-1105
ep	-1106
▁સૌથી	-1107
ડિયો	-1108
▁લોકોને	-1109
),	-1110
બો	-1111
▁તેણે	-1112
ફ્ટવેર	-1113
વિધ	-1114
ld	-1115
યુ	-1116
▁બોલ	-1117
bab	-1118
▁ડો	-1119
▁સાઇટ	-1120
▁ચિ	-1121
▁ઘટ	-1122
▁મૂળભૂત	-1123
▁and	-1124
▁શો	-1125
્યાન	-1126
▁25	-1127
ock	-1128
▁ફેરફ	-1129
▁ઘર	-1130
▁Con	-1131
▁ઉત્પાદનો	-1132
વર્ડ	-1133
hima	-1134
ભાગ	-1135
▁નવા	-1136
og	-1137
▁ઉચ્ચ	-1138
▁વિષે	-1139
▁વધારે	-1140
▁બનાવવા	-1141
મેલ	-1142
▁મોટા	-1143
▁જ્યાં	-1144
▁સ્પષ્ટ	-1145
▁કરતાં	-1146
im	-1147
યર	-1148
લાઈ	-1149
▁માર્ગ	-1150
24	-1151
સ્પ	-1152
ov	-1153
શ્ચ	-1154
▁વર્ણ	-1155
mahima	-1156
▁પૂછ	-1157
▁નિયંત્ર	-1158
▁દાખ	-1159
▁પિ	-1160
▁સંખ્યા	-1161
▁પૃ	-1162
ૂલ	-1163
▁યો	-1164
▁કરવાનું	-1165
▁આપો	-1166
▁ડોલર	-1167
▁ખ્રિ	-1168
દર	-1169
▁ચાઇના	-1170
બંધ	-1171
▁જોડાણ	-1172
indows	-1173
▁કરવાની	-1174
ev	-1175
▁for	-1176
▁ઉપર	-1177
હૂ	-1178
▁નેટવર્ક	-1179
ist	-1180
▁સૂચ	-1181
▁સાંભ	-1182
▁મિ	-1183
લાકા	-1184
▁લેખ	-1185
▁વર્ત	-1186
▁દેશ	-1187
art	-1188
200	-1189
▁રાજ	-1190
▁બં	-1191
▁બધી	-1192
18	-1193
▁ભાષ	-1194
▁છેલ	-1195
▁અંત્ય	-1196
▁મુલાકા	-1197
iz	-1198
ડર	-1199
ડિઓ	-1200
▁‘	-1201
કસ	-1202
▁કાઢી	-1203
એમ	-1204
▁બિ	-1205
▁અર્થ	-1206
har	-1207
ફત	-1208
▁વધાર	-1209
▁દેખ	-1210
▁સત્તા	-1211
▁વેબસાઇટ	-1212
ain	-1213
ંદર	-1214
▁વાત	-1215
▁does	-1216
▁અમને	-1217
75	-1218
▁r	-1219
▁માંગો	-1220
ગો	-1221
34	-1222
▁@	-1223
▁જુઓ	-1224
▁આઇ	-1225
ોર્ટ	-1226
▁ફો	-1227
▁રમત	-1228
▁લખાણ	-1229
▁probab	-1230
થ્	-1231
▁probably	-1232
▁વોલ	-1233
uc	-1234
પિ	-1235
▁નહીં	-1236
યું	-1237
▁પ્રા	-1238
qu	-1239
est	-1240
▁કર્યો	-1241
19	-1242
pp	-1243
▁મફત	-1244
eat	-1245
▁l	-1246
▁બનાવો	-1247
▁વિવિધ	-1248
39	-1249
▁યોગ્ય	-1250
36	-1251
▁વિશ્વાસ	-1252
onic	-1253
▁પાર	-1254
▁50	-1255
▁રમ	-1256
ૂક	-1257
્વ	-1258
▁એક્સ	-1259
▁સ્તર	-1260
▁શે	-1261
▁US	-1262
▁તા	-1263
▁હશે	-1264
▁તેમને	-1265
▁૭	-1266
▁લગ	-1267
▁પ્રકાશ	-1268
▁પહેલ	-1269
ak	-1270
lay	-1271
આરી	-1272
્યુલ	-1273
type	-1274
▁ડિસ્ક	-1275
વત્તા	-1276
ati	-1277
બાની	-1278
▁Windows	-1279
ost	-1280
▁વસ્તુઓ	-1281
ેદ	-1282
▁કરતા	-1283
▁re	-1284
▁કોલ	-1285
2019	-1286
14	-1287
▁ફાઇ	-1288
▁પાણી	-1289
સંગ	-1290
▁ઉદ	-1291
▁પ્રિ	-1292
▁વર્ણન	-1293
▁તરફ	-1294
ong	-1295
▁2016	-1296
ણીઓ	-1297
▁ચલા	-1298
▁તમામ	-1299
▁સામગ્રી	-1300
AR	-1301
se	-1302
▁And	-1303
▁ગુણવત્તા	-1304
▁જરૂરી	-1305
▁ખ્રિસ્ત	-1306
▁પ્રશ્	-1307
▁y	-1308
ોર્મ	-1309
ળખ	-1310
▁કલ	-1311
▁પાસવર્ડ	-1312
દ્ય	-1313
▁દાખલ	-1314
▁જાય	-1315
▁કર્યું	-1316
ીત	-1317
▁નાં	-1318
મતા	-1319
▁બધ	-1320
▁વાપર	-1321
▁ધરા	-1322
વાનો	-1323
પત્ર	-1324
▁પૂર્ણ	-1325
▁ઇમેઇલ	-1326
મેન્ટ	-1327
olor	-1328
પક	-1329
omment	-1330
▁પેકે	-1331
▁કૃ	-1332
▁ક્રિયા	-1333
ect	-1334
▁નિર્	-1335
ચા	-1336
▁Q	-1337
જના	-1338
▁તથા	-1339
▁મોબ	-1340
પુટ	-1341
ort	-1342
દર્શન	-1343
િર	-1344
▁બદલો	-1345
ટલ	-1346
ક્ષિત	-1347
fo	-1348
▁ખસે	-1349
ટિંગ	-1350
ન્ડર	-1351
▁સ્ટી	-1352
▁વિડિઓ	-1353
▁શહેર	-1354
if	-1355
▁ફરીથી	-1356
શ્ય	-1357
ast	-1358
પે	-1359
્રુ	-1360
ન્જ	-1361
▁કેટલાક	-1362
ંબ	-1363
ગા	-1364
▁00	-1365
▁તાપ	-1366
roid	-1367
ard	-1368
▁તેઓએ	-1369
▁ખરી	-1370
▁કાર્યક્રમ	-1371
આત	-1372
ભવ	-1373
▁ફોટ	-1374
our	-1375
▁ડિઝ	-1376
▁17	-1377
▁કેન્દ્ર	-1378
ચાલ	-1379
▁ફેરફાર	-1380
▁તેનો	-1381
વુ	-1382
▁13	-1383
ચ્ચે	-1384
▁જોઇ	-1385
▁મહેર	-1386
▁સ્થાન	-1387
▁ડ્ર	-1388
▁ઓછ	-1389
▁આપી	-1390
▁વચ્ચે	-1391
▁વિસ્તાર	-1392
▁હાલ	-1393
▁બનાવી	-1394
-3	-1395
sh	-1396
▁ટેક	-1397
▁એન	-1398
▁મહેરબાની	-1399
યત્	-1400
હાસ	-1401
▁આવશે	-1402
▁પૂર્વ	-1403
▁સ્વી	-1404
▁Z	-1405
ુલ	-1406
ન્યુ	-1407
▁ટિપ	-1408
▁મોબાઇલ	-1409
one	-1410
AN	-1411
્રીય	-1412
જૂ	-1413
તન	-1414
સ્તાવે	-1415
ણાં	-1416
▁જાણકારી	-1417
નેટ	-1418
▁Android	-1419
▁e	-1420
▁સમી	-1421
▁યહૂ	-1422
▁તાપમાન	-1423
22	-1424
▁દસ્તાવે	-1425
વાનગી	-1426
ર્યા	-1427
.3	-1428
▁પગ	-1429
av	-1430
ેરે	-1431
▁કુલ	-1432
▁પ્રાપ	-1433
hat	-1434
રેક્ટ	-1435
▁રૂપરેખાંક	-1436
▁કોઇ	-1437
▁ચિહ	-1438
્મ	-1439
▁શ્રી	-1440
ટન	-1441
▁અમ	-1442
▁પહેલાં	-1443
▁અલગ	-1444
▁પ્લગ	-1445
▁પરવાનગી	-1446
.4	-1447
▁મહત્તમ	-1448
જેક્ટ	-1449
▁મુક્ત	-1450
▁ગયો	-1451
▁St	-1452
વિક	-1453
▁આવૃત્તિ	-1454
ujar	-1455
ત્મા	-1456
▁ક્લિક	-1457
▁un	-1458
ગસ્ટ	-1459
▁બાજુ	-1460
▁એટ	-1461
▁ભગ	-1462
▁આઉટ	-1463
▁બન	-1464
▁પ્રયત્	-1465
-5	-1466
oft	-1467
▁અસમ	-1468
▁વખતે	-1469
▁તમારે	-1470
યોગ્ય	-1471
▁જોવા	-1472
પ્ત	-1473
oin	-1474
સિનો	-1475
કર	-1476
▁કદ	-1477
▁સપ	-1478
▁ઉમેરો	-1479
▁તેઓને	-1480
fin	-1481
્રેડ	-1482
▁ઓનલાઇન	-1483
ord	-1484
ોને	-1485
▁છાપ	-1486
▁મોકલ	-1487
પુર	-1488
▁તારીખ	-1489
મિ	-1490
્યોગ	-1491
▁"%	-1492
lectr	-1493
▁એસ	-1494
▁નિયમ	-1495
ષ્ટ્રીય	-1496
્રણ	-1497
▁અસમર્થ	-1498
▁થશે	-1499
90	-1500
િયમ	-1501
ેટા	-1502
▁દો	-1503
▁લાગે	-1504
▁પાવર	-1505
▁પ્રભુ	-1506
▁con	-1507
▁ડિઝાઇન	-1508
ોમાં	-1509
▁સાધન	-1510
▁વર્તમાન	-1511
▁શ્રેણી	-1512
eg	-1513
ht	-1514
રાઇટ	-1515
▁સોફ્ટવેર	-1516
▁વ્યવસ્થા	-1517
▁ઇન્	-1518
▁ગયા	-1519
▁પાઉ	-1520
સ્થ્ય	-1521
ાળા	-1522
▁સંવાદ	-1523
▁ગોઠ	-1524
▁ધ્યાન	-1525
ગતો	-1526
▁સ્વાસ્થ્ય	-1527
અપ	-1528
▁સમાચાર	-1529
).	-1530
▁x	-1531
્લો	-1532
.6	-1533
▁26	-1534
ીઓ	-1535
▁(1	-1536
▁આપણા	-1537
▁અયોગ્ય	-1538
▁અસર	-1539
▁આદેશ	-1540
ાઉન	-1541
▁અક્ષ	-1542
▁ભગવાન	-1543
▁ઊંચ	-1544
asang	-1545
▁ચાલુ	-1546
તિક	-1547
lectronic	-1548
▁સ્ક્રીન	-1549
▁બાબ	-1550
કેલ	-1551
▁28	-1552
▁સંચાલ	-1553
▁નકલ	-1554
▁એર	-1555
▁લક્ષ	-1556
▁વાપરો	-1557
▁પ્રમાણપત્ર	-1558
તાલ	-1559
IN	-1560
ug	-1561
ૈય	-1562
શું	-1563
▁નું	-1564
▁આવ્યો	-1565
▁ઠ	-1566
▁૪	-1567
▁શકાતુ	-1568
ML	-1569
▁અંદર	-1570
age	-1571
્લિક	-1572
▁વેચાણ	-1573
▁કેસિનો	-1574
▁અધિક	-1575
▁ઈચ્છ	-1576
શુ	-1577
ૂં	-1578
ગુ	-1579
જર	-1580
▁શકતા	-1581
ડવા	-1582
હાન	-1583
▁સાધનો	-1584
prasang	-1585
▁બિલ	-1586
િમિ	-1587
▁ગ્રાહ	-1588
▁તું	-1589
gle	-1590
Comment	-1591
▁ફિલ	-1592
▁પોતાના	-1593
▁પ્રયત્ન	-1594
લિ	-1595
▁કમ્પ	-1596
▁પ્રાપ્ત	-1597
38	-1598
all	-1599
ox	-1600
▁https	-1601
▁બાળકો	-1602
ile	-1603
▁શુ	-1604
▁૬	-1605
▁તૈય	-1606
▁સમજ	-1607
ઝર	-1608
ટ્ટી	-1609
ress	-1610
▁ચાર	-1611
hk	-1612
▁ખાસ	-1613
▁ખોલો	-1614
▁કંઈ	-1615
ર્ચ	-1616
▁હં	-1617
▁સ્ત	-1618
▁સારી	-1619
▁સંબંધ	-1620
eather	-1621
▁સાંભળ	-1622
▁વગેરે	-1623
▁is	-1624
▁કર્યા	-1625
▁40	-1626
▁પ્રવા	-1627
▁આત્મા	-1628
ઈલ	-1629
ric	-1630
▁અવા	-1631
▁આર	-1632
▁લાં	-1633
ત્મક	-1634
▁ચોક	-1635
28	-1636
,000	-1637
▁ટિપ્પ	-1638
▁મોડેલ	-1639
▁વરતાલ	-1640
17	-1641
સ્ટર	-1642
▁આવ્યું	-1643
▁લિ	-1644
્યુમ	-1645
ખી	-1646
▁જેવા	-1647
ww	-1648
▁પૂર	-1649
▁યુન	-1650
ણું	-1651
ેત્ર	-1652
-8	-1653
▁ખાતરી	-1654
બોર્ડ	-1655
▁ખાલી	-1656
-4	-1657
",	-1658
▁i	-1659
▁સફ	-1660
ke	-1661
મમાં	-1662
▁મિત્ર	-1663
▁પ્રેમ	-1664
ક્કસ	-1665
▁જૂથ	-1666
▁પ્લા	-1667
▁ડિરેક્ટ	-1668
able	-1669
દે	-1670
ss	-1671
▁કોઈપણ	-1672
www	-1673
▁મહિના	-1674
જબ	-1675
▁ફાઇલો	-1676
▁સર્વ	-1677
ગર	-1678
ર્ન	-1679
િમિટેડ	-1680
▁કરવું	-1681
દાર	-1682
▁પેટ	-1683
▁શિષ	-1684
લ્સ	-1685
▁22	-1686
▁જેથી	-1687
લોજી	-1688
▁મળી	-1689
▁ડોમે	-1690
મૂ	-1691
નેસ	-1692
રાશ	-1693
▁કરીએ	-1694
▁સરનામ	-1695
▁બિન	-1696
▁ભરતી	-1697
orld	-1698
▁ભાષા	-1699
ન્ન	-1700
▁પદ	-1701
oogle	-1702
▁Infin	-1703
▁વિકાસ	-1704
હો	-1705
્ટર	-1706
આપ	-1707
▁ઓળખ	-1708
▁બદલ	-1709
▁ચોક્કસ	-1710
▁વિકલ્પો	-1711
ભાવ	-1712
યેલ	-1713
▁જોઇએ	-1714
▁સંસ્થા	-1715
ધારણ	-1716
color	-1717
દાન	-1718
ાઇવ	-1719
▁હોઈ	-1720
▁ન્યૂ	-1721
▁શોધી	-1722
▁પૃષ્ઠ	-1723
▁મૃત	-1724
્લાય	-1725
▁યહૂદ	-1726
ૃતિ	-1727
37	-1728
▁હવા	-1729
ટોપ	-1730
્યાસ	-1731
▁En	-1732
▁લાવ	-1733
▁j	-1734
▁શક્તિ	-1735
▁સ્થાપિત	-1736
▁Infinite	-1737
▁Pro	-1738
પૂર્ણ	-1739
ujarati	-1740
.8	-1741
અલ	-1742
ish	-1743
Electronic	-1744
▁શર	-1745
▁મેળવી	-1746
▁એડ	-1747
▁કિ	-1748
ree	-1749
▁ફોન્ટ	-1750
વવામાં	-1751
નોલોજી	-1752
પાસ	-1753
▁ભારત	-1754
ગ્ર	-1755
▁Ch	-1756
▁Sh	-1757
જમાન	-1758
▁થયો	-1759
દો	-1760
▁આમ	-1761
ME	-1762
▁આંતર	-1763
▁ચા	-1764
નંદ	-1765
ીએસ	-1766
ાયો	-1767
▁યુરો	-1768
▁મહત્વ	-1769
હન	-1770
oun	-1771
ંગપુર	-1772
▁ડિરેક્ટરી	-1773
▁ઉત્તર	-1774
રની	-1775
AT	-1776
are	-1777
િવર્સ	-1778
▁it	-1779
શોધ	-1780
▁મુલાકાત	-1781
▁યુએસ	-1782
▁હંમે	-1783
▁જાન્યુ	-1784
ue	-1785
ext	-1786
▁સ્લ	-1787
▁હાઇ	-1788
▁દેવે	-1789
▁પોલ	-1790
▁ક્ષમતા	-1791
▁સારંગપુર	-1792
99	-1793
ંપ	-1794
▁•	-1795
ક્ટો	-1796
▁ક્ષેત્ર	-1797
.7	-1798
iv	-1799
stel	-1800
ભાર	-1801
▁ઘણી	-1802
▁થીમ	-1803
▁માલ	-1804
▁વિન	-1805
▁અમેર	-1806
▁સરના	-1807
▁સુરક્ષિત	-1808
65	-1809
▁રુ	-1810
stellation	-1811
▁ઉત્પાદકો	-1812
▁નંબર	-1813
▁=	-1814
▁કલાક	-1815
▁પરી	-1816
▁સરનામું	-1817
ોનસ	-1818
▁પેકેજ	-1819
▁ઓગસ્ટ	-1820
ber	-1821
▁લઈ	-1822
િયર	-1823
13	-1824
▁તેમની	-1825
પન	-1826
▁થોડ	-1827
▁2020	-1828
મુ	-1829
▁°	-1830
યાત	-1831
ાર્થી	-1832
એલ	-1833
▁»	-1834
▁ખે	-1835
lot	-1836
▁આપવા	-1837
▁કૉપિ	-1838
ંદુ	-1839
▁ગે	-1840
▁info	-1841
ON	-1842
▁જીવ	-1843
ીને	-1844
▁આજે	-1845
▁માઉ	-1846
▁કૃપા	-1847
▁એચ	-1848
નગી	-1849
▁જમ	-1850
▁ત્રણ	-1851
▁શોધો	-1852
▁દર્શા	-1853
▁સ્ટીલ	-1854
▁by	-1855
▁હાથ	-1856
▁કાર્ડ	-1857
▁થયા	-1858
▁બધું	-1859
▁ઝડપ	-1860
▁ચિહ્ન	-1861
▁શિષ્યો	-1862
િપ્ટ	-1863
▁થયું	-1864
end	-1865
▁ટૅ	-1866
ર્ષક	-1867
▁ઑનલાઇન	-1868
▁મિલ	-1869
ણને	-1870
▁યુનિવર્સ	-1871
3,	-1872
45	-1873
▁કૂ	-1874
for	-1875
▁(%	-1876
▁પૂરી	-1877
ome	-1878
ન્ય	-1879
▁ડા	-1880
▁સ્ત્રો	-1881
net	-1882
▁બોનસ	-1883
▁છબી	-1884
વર્	-1885
lab	-1886
સાર	-1887
ge	-1888
▁ચકાસ	-1889
▁ગણ	-1890
ise	-1891
-201	-1892
MP	-1893
▁સલા	-1894
▁60	-1895
▁દરમ	-1896
26	-1897
ઓમાં	-1898
▁વાયર	-1899
29	-1900
ode	-1901
HF	-1902
ail	-1903
▁યજમાન	-1904
▁ch	-1905
▁UR	-1906
▁આવ્યા	-1907
lic	-1908
▁બ્રા	-1909
ener	-1910
▁યુનિવર્સિટી	-1911
▁મિન	-1912
▁સંશોધ	-1913
org	-1914
ણાવ	-1915
દર્શ	-1916
▁કૉપિરાઇટ	-1917
પણે	-1918
ip	-1919
▁ફી	-1920
▁માન્ય	-1921
▁રિ	-1922
▁દબ	-1923
▁તેનું	-1924
▁પહોંચ	-1925
▁પાનું	-1926
▁નિયંત્રણ	-1927
ુંદર	-1928
▁શરી	-1929
do	-1930
▁કદા	-1931
▁પાથ	-1932
▁મૃત્યુ	-1933
="	-1934
ફા	-1935
ID	-1936
▁વજન	-1937
▁ડેટા	-1938
▁તૈયાર	-1939
▁સ્લોટ	-1940
િષ્ટ	-1941
▁ખરા	-1942
27	-1943
▁બટન	-1944
▁પરિણા	-1945
ાર્થ	-1946
▁બની	-1947
▁આયાત	-1948
▁અટ	-1949
▁નકશા	-1950
▁એપ્લિક	-1951
કેટ	-1952
▁on	-1953
▁યાદ	-1954
▁રહ્યો	-1955
▁શરૂઆત	-1956
નિયા	-1957
ear	-1958
▁ઓછા	-1959
▁પ્રોડ	-1960
▁મેનુ	-1961
ith	-1962
▁અવાજ	-1963
▁રાખો	-1964
▁ધરાવે	-1965
▁સ્થાપના	-1966
આર	-1967
ઓની	-1968
▁દર્શ	-1969
▁વર્ગ	-1970
han	-1971
ize	-1972
▁સમયે	-1973
▁લિમિટેડ	-1974
▁લોક	-1975
▁વિક	-1976
▁દ્ર	-1977
▁2013	-1978
OR	-1979
પરે	-1980
▁નીક	-1981
ik	-1982
▁માણસો	-1983
▁કાય	-1984
ેન	-1985
▁ખો	-1986
▁ઇન	-1987
▁બુ	-1988
▁ખોટ	-1989
▁ડેસ્ક	-1990
ચર	-1991
પૂર્વ	-1992
74	-1993
બ્	-1994
▁2015	-1995
▁આપોઆપ	-1996
કામ	-1997
હું	-1998
▁Constellation	-1999
▁દીક	-2000
▁નિષ્ફળતા	-2001
▁ભાઈ	-2002
▁ટેકનોલોજી	-2003
ુંબ	-2004
▁પાછળ	-2005
િસ્ટ	-2006
▁અંગ	-2007
erv	-2008
▁અભ્યાસ	-2009
સ્યા	-2010
િકાસ	-2011
▁આપ્યો	-2012
ian	-2013
▁રમતો	-2014
▁મેળવવા	-2015
▁નાખ	-2016
▁વાર	-2017
▁પડશે	-2018
▁sh	-2019
ાર્ડ	-2020
ide	-2021
ભગ	-2022
િસોડ	-2023
રેરાશ	-2024
▁એપિસોડ	-2025
્યાય	-2026
ફોર્મ	-2027
▁ગુણધ	-2028
▁નાના	-2029
▁--	-2030
▁નવે	-2031
▁લાલ	-2032
▁કારણે	-2033
▁જાન્યુઆરી	-2034
વલ	-2035
▁દિ	-2036
▁શક્ય	-2037
ટ્સ	-2038
▁21	-2039
શિયા	-2040
98	-2041
▁{	-2042
▁અનુભવ	-2043
.2019	-2044
▁2014	-2045
▁નિષ્ક્રિય	-2046
▁ફેબ	-2047
ER	-2048
ળે	-2049
ino	-2050
55	-2051
▁કર્યુ	-2052
▁સ્થાનિક	-2053
▁વિના	-2054
પેટ	-2055
▁ટ્રા	-2056
દ્યાર્થી	-2057
▁be	-2058
િત્વ	-2059
▁24.00	-2060
▁પુસ્ત	-2061
▁પ્રોડક્ટ	-2062
48	-2063
▁ઇલ	-2064
▁સરેરાશ	-2065
iew	-2066
ust	-2067
જીક	-2068
▁પ્રશ્નો	-2069
lock	-2070
વાળા	-2071
ક્રમો	-2072
▁લાગુ	-2073
▁સંદેશા	-2074
-6	-2075
▁ધાર	-2076
▁સ્ત્રોત	-2077
ઠા	-2078
▁વિદ્યાર્થી	-2079
eng	-2080
▁મિનિટ	-2081
▁દર્શાવ	-2082
િકલ	-2083
▁પ્રોજેક્ટ	-2084
લન	-2085
▁જુલાઈ	-2086
▁પ્રમા	-2087
▁યોજના	-2088
રુષ	-2089
▁નક્	-2090
▁બંધારણ	-2091
ell	-2092
તાઓ	-2093
▁શરીર	-2094
▁ચેનલ	-2095
CH	-2096
▁કચ	-2097
▁દસ્તાવેજ	-2098
ઈન	-2099
રિ	-2100
▁સંગ્રહો	-2101
▁સંદેશાઓ	-2102
વાલ	-2103
▁કેમ	-2104
▁વાદ	-2105
પાર	-2106
▁એફ	-2107
▁૯	-2108
▁દૃ	-2109
21	-2110
▁બીજી	-2111
2)	-2112
OS	-2113
▁મૂક	-2114
▁Google	-2115
▁રાષ્ટ્રીય	-2116
ated	-2117
▁કલા	-2118
રત	-2119
▁ચકા	-2120
ai	-2121
▁રાજ્ય	-2122
▁સમસ્યા	-2123
ૂહ	-2124
▁com	-2125
▁ખાનગી	-2126
▁ટ્ર	-2127
મન	-2128
▁રહી	-2129
▁આનંદ	-2130
▁ગા	-2131
▁થઇ	-2132
▁૧૧	-2133
▁પાછા	-2134
dition	-2135
ોગ્રા	-2136
▁ઇચ્છ	-2137
▁સહાય	-2138
ગ્સ	-2139
33	-2140
હેરા	-2141
▁પુનઃ	-2142
▁ક્યારે	-2143
▁શિક્ષણ	-2144
પ્રિલ	-2145
▁અજ્ઞા	-2146
▁×	-2147
ીંગ	-2148
▁(32	-2149
▁દેખાવ	-2150
▁નકશો	-2151
▁કરવો	-2152
▁હંમેશા	-2153
▁કદાચ	-2154
▁પ્લેટ	-2155
▁પિતા	-2156
▁જાહેર	-2157
▁ડેસ્કટોપ	-2158
▁ઉદા	-2159
▁પોર્ટ	-2160
રૂપ	-2161
sk	-2162
▁જાઓ	-2163
▁આપણને	-2164
▁29	-2165
▁ભે	-2166
▁નજીક	-2167
▁ફેક્ટ	-2168
▁ઇલેક્ટ	-2169
નમાં	-2170
▁વાસ્ત	-2171
77	-2172
ર્ગ	-2173
▁કરવાનો	-2174
રામ	-2175
▁ફ્લ	-2176
▁ખરાબ	-2177
▁ઈસુને	-2178
TC	-2179
▁Un	-2180
▁પરિવ	-2181
ક્ટોબર	-2182
▁વ્યવસાય	-2183
રાબર	-2184
label	-2185
AP	-2186
ah	-2187
કીય	-2188
own	-2189
▁છોડી	-2190
▁પરિવાર	-2191
ફર	-2192
▁86	-2193
સ્ટે	-2194
▁સરકાર	-2195
56	-2196
એક્સ	-2197
:%	-2198
SL	-2199
▁ઝડપી	-2200
100	-2201
▁જેલ	-2202
▁તકની	-2203
.,	-2204
▁~	-2205
સ્ટિંગ	-2206
ોની	-2207
▁૧૦	-2208
▁ખાતે	-2209
▁ડિસે	-2210
▁એપ્રિલ	-2211
▁પ્રિન્ટ	-2212
DE	-2213
▁સપ્	-2214
ઇઝ	-2215
▁જૂન	-2216
િશ	-2217
નીય	-2218
ill	-2219
▁અજ્ઞાત	-2220
▁તમારું	-2221
ud	-2222
ial	-2223
હરણ	-2224
ક્ષિ	-2225
▁સેટ	-2226
▁નક્કી	-2227
▁બરાબર	-2228
per	-2229
▁બદલી	-2230
▁પ્રમાણે	-2231
▁હેઠ	-2232
શાસ્ત્ર	-2233
▁ફેક્ટરી	-2234
ool	-2235
▁૨૦	-2236
▁વ્યક્તિગત	-2237
▁27	-2238
▁AP	-2239
line	-2240
▁રોડ	-2241
▁મોટી	-2242
▁બ્રાઉ	-2243
ેલો	-2244
▁જશે	-2245
શ્ર	-2246
▁પૈ	-2247
▁હેક	-2248
▁તેમાં	-2249
▁નમૂ	-2250
/64	-2251
▁લગભગ	-2252
તીય	-2253
▁(32/64	-2254
એન	-2255
ેલ્	-2256
▁પામ	-2257
▁બદલા	-2258
▁ન્યાય	-2259
59	-2260
ace	-2261
બુક	-2262
▁નવું	-2263
IC	-2264
ive	-2265
▁જાત	-2266
▁હેઠળ	-2267
▁સુયોજનો	-2268
▁છુ	-2269
▁વિગતો	-2270
ડેટ	-2271
▁દેવની	-2272
▁સમાપ્ત	-2273
▁label	-2274
▁બ્લોગ	-2275
▁મહિનો	-2276
▁પેનલ	-2277
▁મેળવો	-2278
▁શૈ	-2279
▁બાં	-2280
ૉલ	-2281
▁HT	-2282
▁ખર્ચ	-2283
▁સારા	-2284
▁ટિપ્પણીઓ	-2285
▁Sp	-2286
onth	-2287
▁મીડિયા	-2288
▁રદ	-2289
્રેસ	-2290
▁બનાવે	-2291
હુ	-2292
HFW	-2293
▁th	-2294
િક્સ	-2295
▁Cas	-2296
ર્મો	-2297
▁માતા	-2298
તિહાસ	-2299
▁જણાવ	-2300
મર	-2301
▁On	-2302
▁સમુ	-2303
▁રેકો	-2304
ેલું	-2305
▁સ્ટોક	-2306
SO	-2307
ies	-2308
જાર	-2309
▁ઘટના	-2310
▁વપરાશ	-2311
▁અસ્ત	-2312
▁ઍ	-2313
ાળી	-2314
▁ઘા	-2315
▁પડે	-2316
▁પહોળ	-2317
તીઓ	-2318
ફોન	-2319
▁જેટ	-2320
દ્ધતિ	-2321
▁જ્ઞા	-2322
ૂટ	-2323
ર્કો	-2324
ook	-2325
▁ખુ	-2326
ોકરી	-2327
▁સત્ય	-2328
me	-2329
▁ફર	-2330
વિત્ર	-2331
િપી	-2332
▁રૂપરેખાંકન	-2333
bo	-2334
ff	-2335
▁કડી	-2336
▁કરનાર	-2337
▁ખસેડો	-2338
▁મર્યા	-2339
▁સેવાઓ	-2340
▁સમાવેશ	-2341
▁//	-2342
▁કન્	-2343
▁જેને	-2344
▁નવેમ્બર	-2345
ટેલ	-2346
▁કલ્યા	-2347
LE	-2348
▁જાણી	-2349
76	-2350
▁આકાશ	-2351
▁તાલી	-2352
▁ક્યાં	-2353
▁પાશ્વ	-2354
▁સ્વીકાર	-2355
tic	-2356
▁વાર્તા	-2357
▁સંદેશો	-2358
▁કું	-2359
78	-2360
▁વૃ	-2361
▁ઉદાહરણ	-2362
▁માટેની	-2363
TP	-2364
rad	-2365
▁અઠ	-2366
▁બચ	-2367
▁ફેબ્રુ	-2368
2,	-2369
ક્રો	-2370
▁ટકા	-2371
ોલ્યુ	-2372
▁રૂપા	-2373
▁સત્ર	-2374
▁Gujarati	-2375
world	-2376
?”	-2377
▁સેલ	-2378
▁અમેરિકા	-2379
▁વાસ્તવિક	-2380
▁Slot	-2381
▁અગાઉ	-2382
▁આધારભૂત	-2383
St	-2384
▁ખબર	-2385
▁રાહ	-2386
▁પ્રયા	-2387
▁ઢ	-2388
▁500	-2389
ક્ષિણ	-2390
▁વગર	-2391
સાદ	-2392
ક્ષમ	-2393
▁ઓફર	-2394
▁બનાવવામાં	-2395
ગલ	-2396
▁ચૂક	-2397
▁બુક	-2398
▁પાડે	-2399
▁ઉદ્યોગ	-2400
રવ	-2401
ech	-2402
▁પિત	-2403
▁પોતાની	-2404
નર	-2405
esh	-2406
▁ફ્રે	-2407
▁સામે	-2408
▁દબાણ	-2409
co	-2410
ફી	-2411
સન	-2412
▁સમીક્ષા	-2413
▁પેપર	-2414
▁મોટર	-2415
થ્થ	-2416
▁વચ	-2417
▁વહે	-2418
▁રચના	-2419
▁બેક	-2420
▁શીખ	-2421
▁પ્રકાશિત	-2422
.’	-2423
31	-2424
lo	-2425
ution	-2426
▁મહાન	-2427
ન્ટરનેટ	-2428
▁આધારિત	-2429
▁કલ્યાણ	-2430
▁રેકોર્ડ	-2431
▁અસ્તિત્વ	-2432
મ્બ	-2433
ષ્ય	-2434
▁લંબ	-2435
▁કરવી	-2436
▁છોડ	-2437
▁Vess	-2438
▁લક્ષ્ય	-2439
▁શીર્ષક	-2440
▁Vessoft	-2441
ઇડ	-2442
ark	-2443
out	-2444
▁An	-2445
▁સત્તાધિક	-2446
▁ti	-2447
▁દેવના	-2448
▁રહેશે	-2449
▁પ્લે	-2450
▁આઉટપુટ	-2451
rip	-2452
લ્ક	-2453
્યુઅલ	-2454
▁GST	-2455
▁ઘટા	-2456
▁શકીએ	-2457
▁li	-2458
▁Ar	-2459
▁અર	-2460
▁એપ્લિકેશન	-2461
ore	-2462
▁le	-2463
▁કહી	-2464
▁અઠવા	-2465
▁ફાઈલો	-2466
ase	-2467
ક્શન	-2468
▁મેક	-2469
▁રજૂ	-2470
▁લોડ	-2471
▁આભાર	-2472
▁ગ્રાહકો	-2473
▁પ્રકારના	-2474
uk	-2475
ન્ટરફ	-2476
િપીડિયા	-2477
▁પવિત્ર	-2478
▁સંબંધિત	-2479
▁કાર્યક્રમો	-2480
▁પ્રોડક્ટ્સ	-2481
િયાન	-2482
▁બાર	-2483
▁એવી	-2484
▁લેખક	-2485
▁સહિત	-2486
▁તાલીમ	-2487
▁વાપરવા	-2488
▁જરૂરિયા	-2489
ચો	-2490
▁તમારો	-2491
▁કઈ	-2492
▁ઓક્ટોબર	-2493
OB	-2494
uy	-2495
-10	-2496
ina	-2497
્રિક	-2498
▁અપડેટ	-2499
▁શકાતી	-2500
▁સુંદર	-2501
વ્ય	-2502
થ્વી	-2503
▁આગા	-2504
▁શેર	-2505
▁યહૂદિઓ	-2506
cm	-2507
ux	-2508
ગે	-2509
રીઝ	-2510
▁નવો	-2511
▁વિચારો	-2512
ગ્	-2513
કાન	-2514
પ્ટ	-2515
▁હોવા	-2516
▁મોકલો	-2517
49	-2518
બિ	-2519
▁આપવામાં	-2520
ાજ	-2521
▁કરતી	-2522
વૃત્તિ	-2523
ght	-2524
AC	-2525
ાંત	-2526
ારંભ	-2527
▁બને	-2528
▁બાળક	-2529
સ્થિતિ	-2530
SS	-2531
ાર્ક	-2532
▁સુરક્ષા	-2533
▁વગા	-2534
ન્ટરફેસ	-2535
▁ઔ	-2536
ary	-2537
▁35	-2538
▁આં	-2539
▁વિજ	-2540
▁સમગ્ર	-2541
▁પાડ	-2542
ંસ	-2543
ver	-2544
0}	-2545
▁સફળ	-2546
દાય	-2547
▁month	-2548
▁વાપરી	-2549
દ્ધિ	-2550
▁પક્ષ	-2551
▁લાંબા	-2552
▁Ph	-2553
દ્વા	-2554
▁Free	-2555
▁લીટી	-2556
▁બિંદુ	-2557
ીક	-2558
▁મૂલ	-2559
ાઉન્ડ	-2560
▁ગર	-2561
મિન	-2562
▁એટલે	-2563
▁સ્ત્રી	-2564
▁આધ	-2565
▁ચેત	-2566
▁બેટ	-2567
▁જેવી	-2568
જેતર	-2569
▁મારો	-2570
ET	-2571
ાઉન્ટ	-2572
▁CO	-2573
ited	-2574
any	-2575
ંડા	-2576
▁ધો	-2577
▁લીધ	-2578
▁પ્રારંભ	-2579
▁વિકિપીડિયા	-2580
EM	-2581
con	-2582
ull	-2583
દર્ભ	-2584
▁જન્	-2585
ps	-2586
કમ	-2587
▁રસ	-2588
▁લોકોએ	-2589
▁સંદર્ભ	-2590
ંઘ	-2591
▁ફિટ	-2592
▁જેમાં	-2593
▁પ્રયાસ	-2594
▁સંશોધન	-2595
્લી	-2596
▁ટોચ	-2597
ષણ	-2598
der	-2599
▁યુરોપ	-2600
▁URL	-2601
▁કોણ	-2602
▁વધારા	-2603
.:	-2604
▁દેખા	-2605
યલ	-2606
▁સારું	-2607
weather	-2608
▁તેમણે	-2609
sp	-2610
ાયા	-2611
▁સ્રો	-2612
▁તાજેતર	-2613
દન	-2614
ફિક	-2615
▁No	-2616
lass	-2617
▁વખત	-2618
▁દક્ષિણ	-2619
lect	-2620
▁સફેદ	-2621
AL	-2622
sw	-2623
▁IP	-2624
▁ખાતા	-2625
▁એવું	-2626
વાસ	-2627
▁દૂ	-2628
▁ફેબ્રુઆરી	-2629
▁કચરા	-2630
લેટ	-2631
▁સિલ	-2632
▁બંને	-2633
પૂર્વક	-2634
ગ્ય	-2635
▁sp	-2636
▁`	-2637
▁condition	-2638
58	-2639
▁કપ	-2640
duc	-2641
ery	-2642
▁આપણી	-2643
એક	-2644
▁__	-2645
▁કરું	-2646
▁પ્રશ્ન	-2647
▁you	-2648
ેટિંગ	-2649
▁સત્તાધિકરણ	-2650
ક્સી	-2651
▁ઊભ	-2652
▁બાબતો	-2653
દ્	-2654
ૈનિક	-2655
▁બીટ	-2656
▁1.	-2657
ોનિક	-2658
▁વડે	-2659
▁સ્ક	-2660
▁વ્યવસ્થાપક	-2661
▁પદ્ધતિ	-2662
PS	-2663
▁લેવા	-2664
▁તકનીકી	-2665
▁Ad	-2666
▁વિભાગ	-2667
3)	-2668
મેટ	-2669
▁Bl	-2670
▁GB	-2671
▁હજુ	-2672
▁સુધારો	-2673
.)	-2674
ach	-2675
િટલ	-2676
▁મંત્ર	-2677
46	-2678
ee	-2679
સ્ટિક	-2680
▁ખરીદી	-2681
▁ટેબ	-2682
▁ફાય	-2683
▁શરતો	-2684
▁સ્ટ્રી	-2685
શીલ	-2686
▁એવા	-2687
▁પીસી	-2688
▁લીલા	-2689
▁નાંખો	-2690
ph	-2691
ice	-2692
કાણ	-2693
▁મુશ્	-2694
▁મોડલ	-2695
GB	-2696
▁પાવ	-2697
▁તેવી	-2698
િકો	-2699
▁તને	-2700
▁સમાન	-2701
▁લાઈ	-2702
▁પ્રતિક	-2703
ram	-2704
ator	-2705
▁છતાં	-2706
▁નીતિ	-2707
▁ઓડિયો	-2708
હક	-2709
રાક	-2710
ર્વ	-2711
વિધા	-2712
▁અસરો	-2713
▁વાદળી	-2714
▁આસ	-2715
▁ચી	-2716
▁સંપાદ	-2717
મીન	-2718
▁જાણો	-2719
▁નમૂના	-2720
▁બાંધ	-2721
▁શોધવા	-2722
ગળ	-2723
▁હમ	-2724
▁ઈમે	-2725
▁કહું	-2726
▁પ્રત્ય	-2727
▁પરિસ્થિતિ	-2728
▁સ્થિત	-2729
▁પ્લગઇન	-2730
▁ડિસેમ્બર	-2731
▁મન	-2732
1,	-2733
▁ગેમ	-2734
્યુટર	-2735
▁અલ્ટ	-2736
▁સ્વાગત	-2737
▁પાપ	-2738
▁1,	-2739
▁USA	-2740
▁હોસ્ટિંગ	-2741
▁23	-2742
કારો	-2743
▁મજબ	-2744
▁સંભ	-2745
લેન્ડ	-2746
▁ફોટો	-2747
બુ	-2748
▁ઓછી	-2749
દર્શક	-2750
▁ઉમેર	-2751
▁00:00	-2752
▁પુત્ર	-2753
▁ચેતવણી	-2754
ફે	-2755
▁32	-2756
onus	-2757
▁એન્ડ	-2758
વરણ	-2759
▁ચોકઠ	-2760
▁રૂપરેખા	-2761
▁વોલ્યુમ	-2762
ire	-2763
ેલેથી	-2764
▁Play	-2765
--	-2766
ઝા	-2767
મરી	-2768
સ્ક્ર	-2769
▁ઉકેલ	-2770
▁કચરાપેટ	-2771
ari	-2772
▁તાળ	-2773
વસાય	-2774
▁વિશ્વમાં	-2775
▁ટૂલ	-2776
▁સપ્ટે	-2777
▁પ્રવેશદ્વા	-2778
ll	-2779
▁પાઇ	-2780
▁વહેંચ	-2781
દય	-2782
ates	-2783
▁જેઓ	-2784
▁અટકા	-2785
edit	-2786
▁થોડા	-2787
▁પાવડર	-2788
▁પહેલેથી	-2789
▁00:00:00	-2790
આઈ	-2791
▁પક	-2792
▁સભ	-2793
▁પ્રોટ	-2794
▁સુવિધા	-2795
લ્ડ	-2796
▁રોક	-2797
ંટ	-2798
.99	-2799
ેટ્સ	-2800
▁રોગ	-2801
▁અંતિમ	-2802
▁ક્રેડ	-2803
▁નિકાસ	-2804
ks	-2805
ure	-2806
ાપુ	-2807
unch	-2808
ટીંગ	-2809
▁Word	-2810
▁અગ્ર	-2811
▁પ્રે	-2812
de	-2813
નક	-2814
સંગત	-2815
ચ્છેદ	-2816
▁Com	-2817
▁તાર	-2818
સ્ટ્ર	-2819
▁એન્જ	-2820
▁રાખે	-2821
▁પહોળાઈ	-2822
દિ	-2823
act	-2824
pad	-2825
▁::	-2826
▁કૅ	-2827
▁કેલે	-2828
."	-2829
ix	-2830
rom	-2831
vin	-2832
દીઓ	-2833
▁કિંમ	-2834
▁નિશ્ચ	-2835
68	-2836
▁મારફ	-2837
▁પૃથ્વી	-2838
અન	-2839
ant	-2840
key	-2841
tle	-2842
▁ww	-2843
atch	-2844
દ્યોગ	-2845
▁ક્રેડિટ	-2846
▁સ્લોટ્સ	-2847
્લાસ	-2848
▁વ્યાવસાય	-2849
▁લાભ	-2850
લું	-2851
▁મલ	-2852
▁દ્દ	-2853
▁તારા	-2854
▁શૈલી	-2855
▁સુધારા	-2856
▁પ્રવેશદ્વારની	-2857
▁CD	-2858
▁સત	-2859
▁બહુ	-2860
▁બેઠ	-2861
erm	-2862
▁New	-2863
▁ડોમેઇન	-2864
▁સરનામાં	-2865
23	-2866
aper	-2867
▁જોયું	-2868
▁મદદથી	-2869
એફ	-2870
▁છબીઓ	-2871
▁સમૂહ	-2872
▁દૃશ્ય	-2873
ઍસ	-2874
▁તી	-2875
કારક	-2876
Press	-2877
▁બ્રશ	-2878
▁ચકાસણી	-2879
▁વિશિષ્ટ	-2880
ઝી	-2881
▁અમારો	-2882
▁ચકાસો	-2883
પરેટિંગ	-2884
▁જણાવ્યું	-2885
બોધ	-2886
પટ્ટી	-2887
વિધ્ય	-2888
▁રાખવા	-2889
વેલ	-2890
▁ગમે	-2891
▁ફેસ	-2892
▁શબ્દો	-2893
▁ડેવલ	-2894
▁બ્રાન્ડ	-2895
▁યુઍસ	-2896
▁પ્રેર	-2897
▁માર્ચ	-2898
7,	-2899
ંતિ	-2900
લેસ	-2901
▁www	-2902
▁આલ્	-2903
▁સત્તાવાર	-2904
wit	-2905
▁હિ	-2906
▁૫૪	-2907
યોગી	-2908
્રાસ	-2909
▁1000	-2910
▁ફોર્મ	-2911
▁બ્લેક	-2912
જિક	-2913
▁The	-2914
▁પટ્ટી	-2915
▁મારફતે	-2916
ંજ	-2917
આઉટ	-2918
િયલ	-2919
▁અર્	-2920
▁રહ્યું	-2921
▁માલિક	-2922
▁છેલ્લે	-2923
▁સપ્લાય	-2924
ૂળ	-2925
▁ટીમ	-2926
ક્ષાઓ	-2927
▁પસાર	-2928
▁ઉત્પાદક	-2929
az	-2930
enc	-2931
ory	-2932
વિસ	-2933
▁એન્	-2934
▁વરસાદ	-2935
▁વિશાળ	-2936
NC	-2937
▁મંદ	-2938
▁પાઉલ	-2939
▁વાંચી	-2940
▁ગુણધર્મો	-2941
▁પ્રવૃત્તિ	-2942
▁રૂપરેખાંકિત	-2943
▁એજ	-2944
▁બજાર	-2945
▁હેતુ	-2946
▁કેટલા	-2947
▁વપરાય	-2948
1.	-2949
ero	-2950
▁or	-2951
▁ધી	-2952
▁બેગ	-2953
▁ટ્રેક	-2954
▁જાહેરા	-2955
▁દ્દારા	-2956
79	-2957
pl	-2958
500	-2959
દારી	-2960
▁સતત	-2961
▁પ્રગ	-2962
▁વધારો	-2963
ada	-2964
ળું	-2965
▁Can	-2966
ાર્થના	-2967
ft	-2968
ચી	-2969
▁વળ	-2970
angu	-2971
▁રોજ	-2972
ecast	-2973
▁મેને	-2974
▁કેટલી	-2975
IT	-2976
les	-2977
▁HD	-2978
▁પાંચ	-2979
▁પ્લેટફોર્મ	-2980
▁વૈવિધ્ય	-2981
આંગ	-2982
▁જિલ	-2983
▁સ્થિર	-2984
▁પાર્ટી	-2985
▁પ્લાસ્ટિક	-2986
▁૮	-2987
▁કોર્	-2988
▁સાચવો	-2989
▁Casino	-2990
▁દુનિયા	-2991
▁પદચ્છેદ	-2992
▁150	-2993
▁બોક્સ	-2994
▁પ્રાર્થના	-2995
કત	-2996
▁આરો	-2997
▁રંગો	-2998
olution	-2999
▁દરમિયાન	-3000
દ્દ	-3001
▁સૉ	-3002
▁ડાય	-3003
▁અક્ષર	-3004
▁છેલ્લા	-3005
દ્યોગિક	-3006
▁સુસંગત	-3007
crip	-3008
માર્ક	-3009
▁બદલે	-3010
▁સ્પર્	-3011
ank	-3012
હાસ્ય	-3013
▁કાળો	-3014
▁સ્મા	-3015
▁સંપર્કો	-3016
UR	-3017
ey	-3018
▁અના	-3019
▁માઇ	-3020
▁વિષય	-3021
EL	-3022
US	-3023
2018	-3024
▁લાઇ	-3025
▁સ્રોત	-3026
▁You	-3027
▁જોડા	-3028
▁વ્યાવસાયિક	-3029
44	-3030
uss	-3031
▁હુ	-3032
▁નહી	-3033
9,	-3034
્ઝ	-3035
ત્વ	-3036
▁આક	-3037
▁જઈ	-3038
▁જન્મ	-3039
▁પ્રી	-3040
▁ક્ષતિ	-3041
3.	-3042
-12	-3043
▁અહે	-3044
▁આશા	-3045
▁વિચ	-3046
▁સંસ્	-3047
CS	-3048
ions	-3049
▁બીજ	-3050
▁મળે	-3051
ablet	-3052
▁આગામી	-3053
▁વ્યાખ્યા	-3054
ml	-3055
બેસ	-3056
▁Name	-3057
▁ખોરાક	-3058
▁સારવાર	-3059
▁કચરાપેટી	-3060
આઇ	-3061
દુ	-3062
▁ચુક	-3063
▁શરુ	-3064
▁સ્તંભ	-3065
ડાં	-3066
▁ID	-3067
ત્તમ	-3068
▁દર્શાવો	-3069
▁forecast	-3070
▁WordPress	-3071
ok	-3072
ry	-3073
OBi	-3074
OBiST	-3075
▁કરશો	-3076
▁બાકી	-3077
▁JOBiST	-3078
▁ઉલ	-3079
form	-3080
▁પૈસા	-3081
\\	-3082
્યાર	-3083
▁પુરવ	-3084
▁સંકે	-3085
▁પાસેથી	-3086
▁CP	-3087
▁જન	-3088
▁મીટર	-3089
શુલ્ક	-3090
▁ઉપદેશ	-3091
▁કેલેન્ડર	-3092
▁હોત	-3093
▁રાજા	-3094
▁દિવસો	-3095
▁નોંધણી	-3096
▁2012	-3097
▁ચાલી	-3098
▁તકતી	-3099
▁ઉપકરણો	-3100
▁ડ્રાઇવ	-3101
▁તેમજ	-3102
▁ભારતીય	-3103
▁પરીક્ષણ	-3104
88	-3105
BAR	-3106
▁થવા	-3107
▁હાર્ડ	-3108
કન	-3109
▁ભાગો	-3110
▁મેમરી	-3111
02	-3112
6)	-3113
▁ટ્રેડ	-3114
▁અનુસાર	-3115
IL	-3116
mb	-3117
-01	-3118
desh	-3119
land	-3120
▁અવગ	-3121
▁ટ્યુ	-3122
▁ક્રમમાં	-3123
▁ઇન્ટરફેસ	-3124
5)	-3125
▁`%	-3126
▁ગિ	-3127
▁કોર	-3128
▁વાતો	-3129
hats	-3130
▁એવો	-3131
ોસ	-3132
ગાર	-3133
તરણ	-3134
▁as	-3135
▁આવેલ	-3136
▁ચાર્	-3137
▁પોલી	-3138
▁મારે	-3139
કાળ	-3140
lish	-3141
▁હોમ	-3142
▁ખેંચ	-3143
▁શાળા	-3144
▁કૉલ	-3145
▁પરિમા	-3146
▁બ્રાઉઝર	-3147
ere	-3148
EC	-3149
▁Web	-3150
શ્વિક	-3151
▁ખોલી	-3152
▁weather	-3153
▁પ્રકારની	-3154
▁સ્થિતિમાં	-3155
rance	-3156
▁લેબલ	-3157
▁માઉન્ટ	-3158
▁૧૨	-3159
▁with	-3160
ોલ્યુશન	-3161
au	-3162
▁us	-3163
▁ઓટો	-3164
▁ગાળ	-3165
▁એન્ટ	-3166
▁પાઇપ	-3167
▁પ્રદાન	-3168
▁અઠવાડિયા	-3169
▁ગ્રી	-3170
▁નાંખ	-3171
▁ન્યુ	-3172
▁વિશેષ	-3173
▁અં	-3174
ેન્ડ	-3175
▁ઇનપુટ	-3176
▁વાંચો	-3177
▁પરિવહન	-3178
કને	-3179
વનાર	-3180
▁ઇતિહાસ	-3181
ib	-3182
ભવી	-3183
▁#:	-3184
▁મત	-3185
ould	-3186
પોરે	-3187
▁દિશા	-3188
▁બાબત	-3189
▁ચિત્રો	-3190
▁વિન્ડોઝ	-3191
▁ઔદ્યોગિક	-3192
8)	-3193
પ્રિય	-3194
unchpad	-3195
▁જગ્યાએ	-3196
▁એકાઉન્ટ	-3197
▁ex	-3198
ania	-3199
ઇન્ટ	-3200
▁Anir	-3201
▁બેટરી	-3202
▁હમણાં	-3203
▁દૂરસ્થ	-3204
NO	-3205
ોરસ	-3206
મેરા	-3207
▁ઘણો	-3208
▁અરજી	-3209
▁ટીવી	-3210
માંના	-3211
વિષ્ટ	-3212
▁આંતરિક	-3213
▁બંધબેસ	-3214
▁Anirdesh	-3215
ash	-3216
▁TR	-3217
▁રક્ષણ	-3218
▁વ્યાપક	-3219
એચ	-3220
મેન	-3221
▁Ev	-3222
▁ઝે	-3223
▁૧૮	-3224
▁સપા	-3225
▁ટૅગ્સ	-3226
▁સ્તરો	-3227
VE	-3228
iti	-3229
ગીરી	-3230
▁લખી	-3231
▁ઇમેજ	-3232
ujj	-3233
દિત	-3234
▁36	-3235
શિયન	-3236
▁એના	-3237
▁મીમી	-3238
▁જ્ઞાન	-3239
▁બોર્ડ	-3240
▁અધિકાર	-3241
▁શાસ્ત્ર	-3242
યે	-3243
▁300	-3244
▁જેવું	-3245
▁સ્માર્ટ	-3246
▁બાહ	-3247
▁વીડિયો	-3248
!”	-3249
િપ્ર	-3250
▁વૈશ્વિક	-3251
▁સમીક્ષાઓ	-3252
af	-3253
જ્ઞાન	-3254
▁મેટલ	-3255
96	-3256
VD	-3257
કુ	-3258
▁al	-3259
▁ટોચના	-3260
▁પરિમાણો	-3261
▁સપ્ટેમ્બર	-3262
▁મેલ	-3263
▁હોલ	-3264
▁ગણતરી	-3265
anguage	-3266
▁z	-3267
ડું	-3268
▁મર	-3269
▁૧૫	-3270
▁ગુમ	-3271
▁ગેર	-3272
▁પૂર્વદર્શન	-3273
MC	-3274
હેન	-3275
▁સાફ	-3276
▁કંઈક	-3277
▁માનવ	-3278
ond	-3279
▁ટાઇ	-3280
▁ટૂં	-3281
▁Enter	-3282
▁ટ્રાન્સ	-3283
▁સમાવિષ્ટ	-3284
ધાન	-3285
▁શેરી	-3286
▁કિંમતો	-3287
▁ક્યારેય	-3288
ie	-3289
▁City	-3290
▁જાતે	-3291
▁સામા	-3292
ys	-3293
ંદી	-3294
ીએમ	-3295
સ્સા	-3296
▁નુક	-3297
▁નોટ	-3298
▁Bonus	-3299
▁પાનાં	-3300
▁મજબૂત	-3301
▁રૂપાંતર	-3302
ર્જા	-3303
▁આવા	-3304
▁જોડાયેલ	-3305
95	-3306
ales	-3307
undo	-3308
ોલેક	-3309
▁Whats	-3310
▁સૉફ્ટવેર	-3311
▁એન્જિન	-3312
▁ગ્રાહક	-3313
▁ચોકઠાં	-3314
AS	-3315
▁બરફ	-3316
ru	-3317
વાળી	-3318
▁તેવા	-3319
orn	-3320
ળતા	-3321
▁80	-3322
્યુલર	-3323
▁દિવસે	-3324
▁પ્રિય	-3325
▁પ્રોફ	-3326
▁લોકપ્રિય	-3327
Buy	-3328
ave	-3329
mage	-3330
કારા	-3331
ink	-3332
ંડો	-3333
▁લઇ	-3334
▁હી	-3335
▁ફોલ્ડરો	-3336
▁ડબલ	-3337
▁ટર્મ	-3338
▁સ્પી	-3339
▁પર્યા	-3340
▁મહિલા	-3341
47	-3342
પ્સ	-3343
▁વ્	-3344
▁size	-3345
▁આંતરરા	-3346
__	-3347
ડાઈ	-3348
વારે	-3349
▁વર્ક	-3350
▁આસપાસ	-3351
▁ભાષાઓ	-3352
ઘુ	-3353
▁item	-3354
▁કરતો	-3355
▁પ્રયોગ	-3356
▁અલ્ટ્રાસ	-3357
ાવવા	-3358
:$	-3359
ject	-3360
વારી	-3361
▁યુના	-3362
▁લેસર	-3363
▁સ્ના	-3364
▁દીકરો	-3365
▁રહ્યાં	-3366
ઘા	-3367
▁જય	-3368
▁નિઃ	-3369
કર્તા	-3370
▁ફ્રી	-3371
▁મુજબ	-3372
▁વર્ચ	-3373
ines	-3374
▁બાપ	-3375
▁મળશે	-3376
▁તરફથી	-3377
▁સેન્ટ	-3378
▁ફેસબુક	-3379
▁31	-3380
ઝનેસ	-3381
▁સેક	-3382
▁કાર્યો	-3383
▁પદચ્છેદન	-3384
/0	-3385
RO	-3386
યન	-3387
▁90	-3388
oHFW	-3389
બ્રે	-3390
▁KDE	-3391
▁bit	-3392
▁ભાગી	-3393
▁હવામાન	-3394
▁પ્રિન્ટર	-3395
્વી	-3396
માળા	-3397
્રોલ	-3398
▁અભિપ્ર	-3399
te	-3400
enu	-3401
દેવ	-3402
▁સાં	-3403
▁ટાપુ	-3404
▁માટેના	-3405
ens	-3406
ign	-3407
ual	-3408
િલે	-3409
▁અજ	-3410
▁180	-3411
▁APK	-3412
▁કેશ	-3413
▁અમુક	-3414
▁વપરાશકર્તાઓ	-3415
િનલ	-3416
▁ફૂ	-3417
ટર્સ	-3418
ન્સી	-3419
ces	-3420
ico	-3421
તમે	-3422
▁દવા	-3423
▁Hack	-3424
▁આરોગ્ય	-3425
▁ડિગ્રી	-3426
go	-3427
ypt	-3428
પિત	-3429
▁સ્ટાર	-3430
▁ઉપયોગી	-3431
▁?	-3432
lim	-3433
▁તુ	-3434
▁૧૬	-3435
▁ગ્ર	-3436
▁HTML	-3437
▁લંબાઈ	-3438
2.	-3439
ન્ક	-3440
▁સરનામા	-3441
400	-3442
▁ચીન	-3443
▁ક્લિપ	-3444
બ્જેક્ટ	-3445
IS	-3446
રોધ	-3447
▁જીત	-3448
board	-3449
obile	-3450
▁મોટો	-3451
▁બિઝનેસ	-3452
eet	-3453
ાલય	-3454
ષ્ટિ	-3455
ૂર્ય	-3456
▁(1)	-3457
વિષ્ય	-3458
▁ધરાવ	-3459
▁મેક્સ	-3460
▁સંગીત	-3461
ડિ	-3462
ક્ષી	-3463
▁ISO	-3464
▁અનિ	-3465
▁કિલ	-3466
▁ફ્લે	-3467
▁બતાવ	-3468
▁પ્રબોધ	-3469
▁બેર	-3470
▁આપશે	-3471
▁ઘટકો	-3472
▁ત્યાર	-3473
▁સક્ષમ	-3474
▁સંસ્કરણ	-3475
▁પેકેજિંગ	-3476
બીજા	-3477
ારીઓ	-3478
▁ઉત્તમ	-3479
ર્ય	-3480
તંત્ર	-3481
▁દેશો	-3482
▁ભાઈઓ	-3483
▁મહિમા	-3484
▁સંચાલન	-3485
ann	-3486
▁Re	-3487
ડીંગ	-3488
▁એકમ	-3489
▁અનુસ	-3490
▁નિશ્ચય	-3491
▁ઇલેક્ટ્ર	-3492
ork	-3493
મુખ	-3494
▁PM	-3495
▁બ્લોક	-3496
▁ભવિષ્ય	-3497
▁તેલ	-3498
▁પાર્ક	-3499
▁સંચાલિત	-3500
▁ગુજરાતીં	-3501
▁45	-3502
▁ચુકવણી	-3503
;&	-3504
aw	-3505
ube	-3506
▁વચન	-3507
paper	-3508
▁100%	-3509
▁કાર્	-3510
વાર્તા	-3511
▁મંદિર	-3512
▁સાચું	-3513
▁કંપનીઓ	-3514
ents	-3515
સેસ	-3516
▁લાવી	-3517
▁action	-3518
▁કોર્પોરે	-3519
તક	-3520
મસ	-3521
-20	-3522
▁વો	-3523
gujj	-3524
▁Bit	-3525
▁શેન	-3526
▁star	-3527
▁ગયું	-3528
▁લાઇટ	-3529
▁નિયમિત	-3530
▁એક્	-3531
પોર્ટ	-3532
▁કાગળ	-3533
▁મેઈલ	-3534
▁હોવી	-3535
મેપ	-3536
ળીઓ	-3537
▁દબા	-3538
મણ	-3539
old	-3540
િકન	-3541
▁મં	-3542
માઇઝ	-3543
▁કેસ	-3544
▁જાળ	-3545
▁બાદ	-3546
▁ગ્રે	-3547
▁બદલવા	-3548
▁સફળતા	-3549
▁અહેવાલ	-3550
▁Cr	-3551
▁નિઃશુલ્ક	-3552
▁Min	-3553
▁USD	-3554
▁લઘુ	-3555
▁અંતે	-3556
▁સામાજિક	-3557
ors	-3558
▁ઈચ્છા	-3559
▁પુરુષ	-3560
ater	-3561
ન્સર	-3562
▁ફાઇલને	-3563
▁વિદ્યાર્થીઓ	-3564
જક	-3565
IVE	-3566
urr	-3567
▁ચલ	-3568
load	-3569
પાત્ર	-3570
ભૂ	-3571
યતા	-3572
port	-3573
રીંગ	-3574
શ્યક	-3575
▁ચેટ	-3576
▁સલાહ	-3577
ipp	-3578
rop	-3579
ટેજ	-3580
મેળ	-3581
જૂરી	-3582
prise	-3583
▁સંભાળ	-3584
CC	-3585
▁ગઈ	-3586
-9	-3587
ઈન્ટ	-3588
▁માર	-3589
▁જમીન	-3590
▁મેમો	-3591
▁મોડ્યુલ	-3592
4)	-3593
િમય	-3594
જીત	-3595
ાળો	-3596
▁FS	-3597
ડાઉન	-3598
વિગતો	-3599
▁જેના	-3600
▁સંપૂર્ણપણે	-3601
▁2011	-3602
▁ઝડપથી	-3603
▁ફિટનેસ	-3604
નોમ	-3605
ાઇડ	-3606
ેટર	-3607
▁હૃ	-3608
▁એકત્ર	-3609
▁શુદ્ધ	-3610
▁અક્ષરો	-3611
ભર	-3612
▁નોકરી	-3613
▁જાહેરાત	-3614
▁પરિણામો	-3615
ઝિટ	-3616
ાઉસ	-3617
▁2.	-3618
▁pre	-3619
▁ચલાવો	-3620
▁માટેનો	-3621
▁પસંદગીઓ	-3622
hy	-3623
ંતી	-3624
કૃત	-3625
▁આઈ	-3626
સ્ટેડ	-3627
▁સમર્થ	-3628
▁Canada	-3629
▁આપ્યું	-3630
▁વિનિમય	-3631
▁મર્યાદા	-3632
EN	-3633
ct	-3634
તાથી	-3635
▁તપાસ	-3636
▁પ્રદેશ	-3637
4,	-3638
uz	-3639
ધ્ધ	-3640
ટલું	-3641
યોજન	-3642
સ્વી	-3643
▁સાઉ	-3644
▁ક્યા	-3645
ોગ્રામ	-3646
▁કસ્ટમ	-3647
▁પ્રેરિત	-3648
▁ઇન્ટરનેટ	-3649
85	-3650
kg	-3651
ich	-3652
▁આવશ્યક	-3653
▁ગીત	-3654
▁ભૂત	-3655
-2018	-3656
દ્યતન	-3657
▁dist	-3658
્યાનું	-3659
▁ગોઠવણી	-3660
▁ટર્મિનલ	-3661
▁આંતરરાષ્ટ્રીય	-3662
int	-3663
ન્ગ	-3664
પ્તિ	-3665
▁બાઇ	-3666
▁ઉત્પ	-3667
▁માઉસ	-3668
▁લગ્ન	-3669
witter	-3670
▁ઊંચાઈ	-3671
▁અનુક્રમ	-3672
ંતો	-3673
▁આકાર	-3674
સ્પ્લે	-3675
▁ચાર્જ	-3676
▁Enterprise	-3677
▁મહત્વપૂર્ણ	-3678
▁SM	-3679
▁બળ	-3680
▁મગ	-3681
▁ફોર્	-3682
▁લાવો	-3683
▁જાતને	-3684
▁ઇન્સ્ટ	-3685
▁દરમ્યાન	-3686
▁મુલાકાતીઓ	-3687
ઇસ	-3688
app	-3689
ick	-3690
ાંશ	-3691
▁કૂકી	-3692
▁હાજર	-3693
▁નિયમો	-3694
▁યોહાન	-3695
ંદા	-3696
▁ગી	-3697
▁કાં	-3698
▁જગત	-3699
▁બોલા	-3700
▁કીબોર્ડ	-3701
પગ	-3702
ays	-3703
ાર્મ	-3704
▁એશિયા	-3705
▁ડેવલપર	-3706
કળ	-3707
દારો	-3708
લાઈન	-3709
પુરુષ	-3710
ાયેલા	-3711
▁પશ્ચ	-3712
▁ફ્લા	-3713
▁મેનેજ	-3714
▁રહેવા	-3715
ીએફ	-3716
unit	-3717
ર્તન	-3718
▁રિપ	-3719
▁હૃદય	-3720
▁ગિફ્ટ	-3721
▁હાલમાં	-3722
જ્	-3723
ંદ્ર	-3724
▁સત્	-3725
ક્ષણિક	-3726
▁સપાટી	-3727
▁અદ્યતન	-3728
▁ગુજરાત	-3729
▁પેક	-3730
▁મૂર્	-3731
▁સરખા	-3732
▁સ્ટેટ્સ	-3733
▁પ્રદર્શન	-3734
PC	-3735
TS	-3736
▁૦	-3737
સાન	-3738
ટુંબ	-3739
▁રહો	-3740
▁વર્ચ્યુઅલ	-3741
/~	-3742
ધીન	-3743
રેટર	-3744
▁ગતિ	-3745
▁પોતે	-3746
7)	-3747
ન્ચ	-3748
view	-3749
▁જાણે	-3750
▁નિર્ણ	-3751
72	-3752
vi	-3753
ઠો	-3754
સિક	-3755
ects	-3756
▁કોષ્ટ	-3757
▁ટ્રેન	-3758
66	-3759
cc	-3760
.02	-3761
ans	-3762
▁LE	-3763
▁આપેલ	-3764
ચિ	-3765
rit	-3766
▁કુશ	-3767
▁રોટ	-3768
▁પેદા	-3769
▁પ્રવાહી	-3770
▁Evolution	-3771
▁નિયંત્રિત	-3772
▁ભરતીવિગતો	-3773
001	-3774
ound	-3775
▁કટીંગ	-3776
▁તેઓની	-3777
▁Tablet	-3778
ધર	-3779
ings	-3780
▁ધોરણ	-3781
▁મૂલ્ય	-3782
▁ચલાવવા	-3783
gu	-3784
▁!	-3785
opy	-3786
▁70	-3787
▁bu	-3788
▁Eng	-3789
▁સ્વય	-3790
▁પ્રભાવ	-3791
▁પહેલાથી	-3792
\.	-3793
ણીય	-3794
host	-3795
▁વાક	-3796
હારાજ	-3797
▁પરથી	-3798
પનીયતા	-3799
IP	-3800
bl	-3801
to	-3802
ake	-3803
િનિયમ	-3804
િયાણી	-3805
▁અત્ય	-3806
▁રોકાણ	-3807
▁એકબીજા	-3808
▁સ્થાપન	-3809
ale	-3810
▁ma	-3811
▁લૉ	-3812
ર્ડર	-3813
▁170	-3814
▁સંત	-3815
▁સભા	-3816
▁વોલ્	-3817
250	-3818
યિત	-3819
મારા	-3820
▁ઓછામાં	-3821
MA	-3822
box	-3823
શાળી	-3824
▁ટેબલ	-3825
▁ઑપરેટિંગ	-3826
▁દસ્તાવેજો	-3827
alk	-3828
થમિક	-3829
▁નહો	-3830
▁પાલન	-3831
▁કાર્યરત	-3832
NU	-3833
TD	-3834
ao	-3835
Serv	-3836
સ્કો	-3837
▁ધર્મ	-3838
launchpad	-3839
2-	-3840
mo	-3841
▁Inc	-3842
▁કાળ	-3843
earch	-3844
▁કમ્પ્યુટર	-3845
OL	-3846
ગન	-3847
સના	-3848
▁દોર	-3849
▁લાક	-3850
chain	-3851
othar	-3852
▁ક્લા	-3853
▁નીકળ	-3854
RA	-3855
શાલ	-3856
ન્ડી	-3857
રાંત	-3858
્લેટ	-3859
▁ચેક	-3860
▁કર્મ	-3861
▁રાખી	-3862
▁ઉમેરી	-3863
▁લુ	-3864
▁મંડ	-3865
▁સુપર	-3866
▁start	-3867
6.	-3868
fic	-3869
▁2,	-3870
▁Ex	-3871
▁કઠ	-3872
▁ટેક્	-3873
▁નામો	-3874
▁મંજૂરી	-3875
▁કારિયાણી	-3876
ડાઓ	-3877
સન્સ	-3878
▁બેલ	-3879
▁નાની	-3880
▁દૈનિક	-3881
▁મારું	-3882
▁બ્રાઉન	-3883
▁મિત્રો	-3884
▁માર્ગદર્શ	-3885
rol	-3886
ush	-3887
શોટ	-3888
▁થોડી	-3889
▁વિજેટ	-3890
▁વિન્ડોને	-3891
બર્ગ	-3892
રીયલ	-3893
▁ચાલો	-3894
▁19,	-3895
▁Home	-3896
▁સૂચના	-3897
કારાત્મક	-3898
"&	-3899
આન	-3900
સં	-3901
ચિત	-3902
▁લોગ	-3903
▁વિશ્વના	-3904
▁પ્રાથમિક	-3905
DA	-3906
ece	-3907
હાથ	-3908
▁MA	-3909
▁ફૂલ	-3910
કલ્પિક	-3911
▁કોઇપણ	-3912
▁સર્વે	-3913
▁સંપાદક	-3914
▁કામગીરી	-3915
els	-3916
▁૧૭	-3917
▁દલી	-3918
▁કેબલ	-3919
▁પિતર	-3920
▁Online	-3921
▁ઉપરાંત	-3922
▁જરૂરિયાતો	-3923
ફ્ર	-3924
▁જોખ	-3925
▁વોટ	-3926
▁શ્ર	-3927
▁હેડ	-3928
▁જર્મ	-3929
▁માર્કે	-3930
App	-3931
▁ફુ	-3932
▁કાચ	-3933
▁પરા	-3934
▁સુવાર્તા	-3935
▁at	-3936
osit	-3937
ware	-3938
ત્તર	-3939
▁લિં	-3940
▁સાય	-3941
▁ઘણું	-3942
▁કેટલીક	-3943
OC	-3944
oy	-3945
ઇડી	-3946
ભુત	-3947
▁આડ	-3948
▁રચ	-3949
▁જેક	-3950
▁ડૉલ	-3951
▁પત્	-3952
પોઝિટ	-3953
▁ઓફિસ	-3954
▁જાપા	-3955
▁મોકલી	-3956
▁વિનંતી	-3957
▁સપોર્ટ	-3958
ોકો	-3959
શન્સ	-3960
▁CNC	-3961
▁માગ	-3962
▁સહી	-3963
▁that	-3964
▁પ્રવાસ	-3965
▁ગોપનીયતા	-3966
▁પાર્ટીશન	-3967
ty	-3968
eck	-3969
ટ્ટ	-3970
ીકરણ	-3971
▁હકી	-3972
▁(201	-3973
▁ચોરસ	-3974
▁સુમેળ	-3975
▁ટેટૂઝસ	-3976
▁વૈવિધ્યપૂર્ણ	-3977
89	-3978
DM	-3979
td	-3980
અર	-3981
મોટ	-3982
▁ઘટક	-3983
▁પત્ર	-3984
▁સિટી	-3985
▁મિલિયન	-3986
▁ફેરફારો	-3987
1)	-3988
▁±	-3989
iss	-3990
નતમ	-3991
▁an	-3992
▁ટિપ્પણી	-3993
▁ડિસ્પ્લે	-3994
NI	-3995
િટર	-3996
▁પંચ	-3997
▁ગોઠવો	-3998
▁શાંતિ	-3999
▁transl	-4000
▁નિષ્ણા	-4001
્નો	-4002
▁OF	-4003
▁your	-4004
▁વિદેશ	-4005
▁ડિપોઝિટ	-4006
▁કેમેરા	-4007
▁શ્રીજી	-4008
▁વાયરલેસ	-4009
▁RA	-4010
osted	-4011
right	-4012
▁શિક્ષ	-4013
▁જનરેટર	-4014
42	-4015
SC	-4016
mp	-4017
ંખ	-4018
ક્ટર	-4019
▁સાત	-4020
▁છાપો	-4021
▁વાલ્	-4022
▁બેરિંગ	-4023
Hz	-4024
ંગી	-4025
quot	-4026
મેળે	-4027
▁મનો	-4028
▁રૂમ	-4029
▁લખો	-4030
▁હિં	-4031
ublic	-4032
▁વિકસ	-4033
▁26.00	-4034
▁હેન્ડ	-4035
▁અભિપ્રાયો	-4036
ass	-4037
જને	-4038
સ્વ	-4039
ાઈટ	-4040
▁eu	-4041
યુક્ત	-4042
eneric	-4043
▁સેક્સ	-4044
▁સ્ત્રીઓ	-4045
icro	-4046
ન્ટે	-4047
રૂશાલ	-4048
▁ઉમેદ	-4049
eposit	-4050
ild	-4051
vel	-4052
લાં	-4053
▁3.	-4054
▁વેલ	-4055
▁મૂકી	-4056
▁તેઓના	-4057
▁શબ્દમાળા	-4058
▁ડૉલર	-4059
▁...,,	-4060
▁Black	-4061
▁સંસ્ક	-4062
lockchain	-4063
શનલ	-4064
▁08	-4065
▁wh	-4066
▁વસ	-4067
ેલાડી	-4068
▁પ્રકા	-4069
▁ઇન્દ્ર	-4070
▁પુસ્તક	-4071
▁પોતાને	-4072
▁ફિલ્ટર	-4073
▁માર્ગદર્શન	-4074
.23	-4075
ood	-4076
ચીત	-4077
પોટ	-4078
▁તબ	-4079
કેલી	-4080
▁મુસા	-4081
▁કોમ્પ	-4082
રૂશાલેમ	-4083
▁કહેવાય	-4084
▁રેટિંગ	-4085
\@	-4086
▁પડી	-4087
પ્રેસ	-4088
▁પાના	-4089
▁સ્થળ	-4090
▁આપમેળે	-4091
▁લક્ષણો	-4092
▁સુયોજન	-4093
71	-4094
-00	-4095
anu	-4096
▁PC	-4097
ight	-4098
જિટલ	-4099
▁reg	-4100
▁અતિ	-4101
▁શિપ	-4102
▁હાલની	-4103
▁English	-4104
air	-4105
ger	-4106
▁ph	-4107
▁ભય	-4108
▁Pol	-4109
▁નાશ	-4110
▁લાય	-4111
▁કુટુંબ	-4112
:0	-4113
ax	-4114
બન	-4115
▁op	-4116
▁અડ	-4117
text	-4118
આધાર	-4119
▁રજી	-4120
▁તેણી	-4121
▁બેંક	-4122
▁સમજી	-4123
▁ફિલ્મ	-4124
▁વાક્ય	-4125
▁સિસ્ટ	-4126
▁ક્યાંતો	-4127
▁પ્રોક્સી	-4128
▁યરૂશાલેમ	-4129
ef	-4130
ert	-4131
મતી	-4132
મારી	-4133
▁Ind	-4134
▁Lex	-4135
▁dur	-4136
▁આંક	-4137
▁ઇન્ડ	-4138
▁વેપાર	-4139
300	-4140
તાર	-4141
પરી	-4142
બ્લ	-4143
ળના	-4144
mail	-4145
▁યુકે	-4146
્યુમિનિયમ	-4147
ઝન	-4148
oss	-4149
▁01	-4150
▁38	-4151
▁હતુ	-4152
▁ત્રી	-4153
▁Phone	-4154
▁વાલ્વ	-4155
▁ખેલાડી	-4156
▁ડિજિટલ	-4157
▁વિસ્તૃત	-4158
▁માર્કેટિંગ	-4159
▁34	-4160
▁પિક્સ	-4161
▁મંત્રાલય	-4162
ત્ત	-4163
▁39	-4164
▁55	-4165
▁આજ	-4166
....	-4167
▁2000	-4168
▁રહેલ	-4169
▁એલ્યુમિનિયમ	-4170
ાડ	-4171
ઝેક	-4172
બિત	-4173
▁ac	-4174
▁ધા	-4175
ંપરા	-4176
વ્યા	-4177
સ્તી	-4178
▁દિલ	-4179
/2019	-4180
▁પાછો	-4181
▁શકું	-4182
▁મોટું	-4183
▁બતાવવા	-4184
▁વાતચીત	-4185
ફરી	-4186
▁કુદર	-4187
▁ફોટા	-4188
▁માળખ	-4189
select	-4190
▁પસંદિત	-4191
શિ	-4192
.95	-4193
▁+86	-4194
▁CPU	-4195
▁કાપ	-4196
▁વિધ	-4197
▁0086	-4198
▁આત્મ	-4199
▁ભેગા	-4200
બ્રેરી	-4201
PE	-4202
nam	-4203
નોની	-4204
▁600	-4205
▁{0}	-4206
▁Mobile	-4207
▁અનુવાદ	-4208
▁દોરી	-4209
▁દીકરા	-4210
▁સંગ્ર	-4211
▁ડેટાબે	-4212
▁માત્રા	-4213
▁MD	-4214
▁તર	-4215
▁120	-4216
▁ઝોન	-4217
વાયેલ	-4218
▁સ્ટેશન	-4219
SP	-4220
Sp	-4221
▁ટુ	-4222
▁લાઇવ	-4223
▁શકશે	-4224
bia	-4225
ન્શન	-4226
▁Win	-4227
▁આશ્ચ	-4228
▁જેની	-4229
▁હતાં	-4230
▁માણસને	-4231
▁લોકોની	-4232
▁માટેનું	-4233
▁વોલ્ટેજ	-4234
":	-4235
ya	-4236
માર	-4237
▁ગાય	-4238
▁રીટ	-4239
▁ગેંગ	-4240
▁છુપા	-4241
▁બીજો	-4242
▁અનુસર	-4243
▁તેવું	-4244
limited	-4245
▁સમુદ્ર	-4246
▁અસરકારક	-4247
▁કમ્પ્યૂ	-4248
▁48	-4249
▁ફા	-4250
▁સબ	-4251
Coun	-4252
ગ્રા	-4253
▁સંતુ	-4254
▁કહેવા	-4255
▁વર્ષો	-4256
મ્સ	-4257
ક્કા	-4258
▁2010	-4259
▁title	-4260
▁દેખાય	-4261
▁શહેરમાં	-4262
▁શ્રીજીમ	-4263
થક	-4264
૦૦	-4265
નની	-4266
olog	-4267
િયું	-4268
▁કોંગ	-4269
▁તાળુ	-4270
▁સાઇટમેપ	-4271
▁લવ	-4272
ateg	-4273
▁રકમ	-4274
▁Comp	-4275
▁distric	-4276
▁પોસ્ટેડ	-4277
જનક	-4278
લ્પ	-4279
▁EN	-4280
ડોંગ	-4281
▁દેવને	-4282
▁પ્રોટોકો	-4283
▁પ્રોગ્રામ	-4284
RC	-4285
▁Th	-4286
Coin	-4287
જીવન	-4288
▁gre	-4289
ાયેલી	-4290
▁pric	-4291
▁જમણી	-4292
▁સ્કે	-4293
▁ફેરવો	-4294
▁વર્ષે	-4295
▁આશ્ચર્ય	-4296
▁districts	-4297
કિ	-4298
pro	-4299
▁05	-4300
edia	-4301
બ્રા	-4302
▁વાળ	-4303
▁વીમા	-4304
▁translated	-4305
ets	-4306
ોના	-4307
▁કને	-4308
ember	-4309
▁undo	-4310
▁પટેલ	-4311
▁ફ્રા	-4312
▁એનક્ર	-4313
▁સર્વિસ	-4314
▁સંસ્કૃતિ	-4315
▁ઇન્દ્રિયો	-4316
▁વિન્ડોમાં	-4317
69	-4318
▁સીએ	-4319
▁સ્ટા	-4320
▁સ્ટો	-4321
▁સાંભળી	-4322
▁સંપર્કમાં	-4323
Uri	-4324
▁GI	-4325
▁ઓળ	-4326
ર્ષણ	-4327
▁FSX	-4328
▁રેસ	-4329
▁સોલ	-4330
▁હાઇડ	-4331
ersion	-4332
▁સ્પર્ધા	-4333
ky	-4334
▁Gr	-4335
▁ad	-4336
▁lex	-4337
▁ક્રમ	-4338
▁જીનોમ	-4339
▁ટેક્સ	-4340
▁સુચના	-4341
UriServ	-4342
▁LexUriServ	-4343
પરછ	-4344
્યે	-4345
▁gu	-4346
▁400	-4347
▁કંઇ	-4348
▁LIVE	-4349
▁આર્ક	-4350
▁એલઇડી	-4351
▁ફાઇબર	-4352
▁રાત્ર	-4353
▁ઉત્પન્ન	-4354
SD	-4355
{0}	-4356
મોન	-4357
કોને	-4358
▁Nov	-4359
▁ઉદ્	-4360
▁ઊભા	-4361
▁સેવ	-4362
▁ઇચ્છા	-4363
▁દેવનો	-4364
▁શામેલ	-4365
▁સિદ્ધ	-4366
▁સુધારવા	-4367
ાયર	-4368
▁37	-4369
▁અભિ	-4370
▁કવર	-4371
▁લાઇન	-4372
▁એડમિન	-4373
▁પ્રવે	-4374
▁ડેટાબેઝ	-4375
▁ફોલ્ડરમાં	-4376
CE	-4377
ચલા	-4378
મીટર	-4379
▁mod	-4380
▁રીત	-4381
▁ડ્રો	-4382
▁સ્વયં	-4383
▁મળ્યું	-4384
XX	-4385
zh	-4386
ાઈલ	-4387
▁ભો	-4388
▁પામે	-4389
▁કરેલા	-4390
▁કેદીઓ	-4391
વોલ્યુશન	-4392
▁કમ્પ્યૂટર	-4393
io	-4394
-11	-4395
day	-4396
બેક	-4397
સેટ	-4398
જારો	-4399
▁માળ	-4400
▁કોલે	-4401
▁આજ્ઞા	-4402
▁માતાનો	-4403
▁કેન્દ્રિત	-4404
્તિ	-4405
▁pl	-4406
inux	-4407
roup	-4408
▁એસિ	-4409
▁રુટ	-4410
▁ડ્રાઈ	-4411
▁મોલેક	-4412
▁શકાયુ	-4413
ational	-4414
▁અનિચ્છ	-4415
▁મેળવવામાં	-4416
▁સ્ક્રિપ્ટ	-4417
51	-4418
કોડ	-4419
▁ઈન	-4420
સ્મા	-4421
▁ટુક	-4422
▁પથ્થ	-4423
▁છાપવા	-4424
▁વપરાયેલ	-4425
▁મોલેક્યુલર	-4426
LC	-4427
ઝે	-4428
ધો	-4429
-05	-4430
ઓના	-4431
▁ભેટ	-4432
▁માછ	-4433
ussia	-4434
▁અંતર	-4435
▁કરાર	-4436
▁જોયો	-4437
▁બતાવે	-4438
▁પરિણામ	-4439
▁પ્રકાશન	-4440
▁શૂ	-4441
▁શીટ	-4442
▁મેકઅપ	-4443
▁વૃક્ષ	-4444
▁સમાવે	-4445
▁વધારાની	-4446
▁વિસ્તારો	-4447
LS	-4448
તાને	-4449
▁કરા	-4450
ments	-4451
▁સ્ને	-4452
▁હેડર	-4453
▁છોકરી	-4454
▁કોષ્ટક	-4455
PN	-4456
be	-4457
▁Al	-4458
▁ગૂ	-4459
▁250	-4460
▁સહન	-4461
▁દાવો	-4462
▁દુકાન	-4463
▁ભાગના	-4464
▁પરંપરા	-4465
▁લેવામાં	-4466
ણુ	-4467
પસ	-4468
▁sub	-4469
▁મ્યુ	-4470
▁ઈસુના	-4471
▁પૂછપરછ	-4472
▁વ્યક્તિને	-4473
▁વ્યાખ્યાયિત	-4474
▁ગત	-4475
ત્સા	-4476
▁(2)	-4477
▁ago	-4478
▁ગરમ	-4479
▁ગામ	-4480
▁બહે	-4481
▁વિરૂ	-4482
▁વિરો	-4483
▁શકશો	-4484
▁state	-4485
▁અદ	-4486
▁કદી	-4487
▁જાવ	-4488
inter	-4489
▁ઍક્સ	-4490
▁ઓર્ડર	-4491
▁હકીકત	-4492
છા	-4493
The	-4494
ટિલ	-4495
ીનો	-4496
▁ST	-4497
lick	-4498
વારો	-4499
▁આને	-4500
▁એની	-4501
▁કાન	-4502
▁હાર	-4503
▁જાળી	-4504
▁ઈસુની	-4505
સ્ટ્રેલ	-4506
▁provin	-4507
▁જરૂરિયાત	-4508
54	-4509
▁but	-4510
▁કવિ	-4511
▁ખુલ	-4512
▁ગર્	-4513
▁તેજ	-4514
ilipp	-4515
વાળું	-4516
▁વેચાઈ	-4517
▁વ્યાસ	-4518
▁ચિહ્નો	-4519
▁મશીનરી	-4520
▁વિજ્ઞાન	-4521
▁સુધારાશે	-4522
AD	-4523
MS	-4524
ટુ	-4525
min	-4526
કાત	-4527
▁Sc	-4528
ance	-4529
ોક્સ	-4530
▁800	-4531
▁ગુમા	-4532
▁વિભા	-4533
▁વિશ્વાસી	-4534
91	-4535
CT	-4536
▁વન	-4537
atus	-4538
▁ઘરે	-4539
▁ટેગ	-4540
▁કર્મચ	-4541
▁પૂછયું	-4542
▁વિરૂદ્ધ	-4543
ilippines	-4544
▁મર્યાદિત	-4545
MB	-4546
try	-4547
બ્સ	-4548
વિડ	-4549
echn	-4550
▁ચિં	-4551
▁મિશ	-4552
્રિયા	-4553
▁કરીશ	-4554
▁ગેમ્સ	-4555
▁જાણવા	-4556
▁provinces	-4557
ધુ	-4558
ifi	-4559
બાર	-4560
્વે	-4561
name	-4562
ન્ડા	-4563
્વીટ	-4564
▁XML	-4565
▁કિન	-4566
▁બ્રે	-4567
▁કુદરતી	-4568
▁દેવામાં	-4569
▁પર્યાવરણ	-4570
TK	-4571
600	-4572
elp	-4573
લિત	-4574
▁MB	-4575
▁આના	-4576
▁ડોક	-4577
▁Live	-4578
▁જુદા	-4579
▁ઋ	-4580
ન્કર	-4581
▁જયારે	-4582
▁દબાવો	-4583
▁મુશ્કેલ	-4584
▁મુશ્કેલી	-4585
KC	-4586
zer	-4587
▁1:	-4588
▁હક	-4589
બીબી	-4590
▁દીઠ	-4591
▁સ્ટ્ર	-4592
જ્ઞાનિક	-4593
▁બસ	-4594
▁અંક	-4595
▁પ્રગતિ	-4596
9)	-4597
we	-4598
અને	-4599
ઓનો	-4600
તાન	-4601
િયે	-4602
્વિ	-4603
Full	-4604
થ્થો	-4605
મેશન	-4606
▁અનેક	-4607
▁એટલા	-4608
▁અગ્રણી	-4609
▁મુસાફરી	-4610
▁જવાબદારી	-4611
▁)	-4612
દિક	-4613
▁SK	-4614
elist	-4615
▁ગ્રહ	-4616
▁મૂકો	-4617
▁યહૂદિ	-4618
▁વિમાન	-4619
▁ન્યાયી	-4620
.02.2019	-4621
cription	-4622
▁ગુણધર્મ	-4623
▁વ્યવહાર	-4624
▁વૈકલ્પિક	-4625
ાઇઝ	-4626
વાસી	-4627
શ્વર	-4628
▁1.5	-4629
▁ખુશ	-4630
▁પત્ની	-4631
ownload	-4632
▁પરિમાણ	-4633
▁પ્રાણી	-4634
▁શિપિંગ	-4635
ાંસ	-4636
▁99	-4637
ower	-4638
હેરો	-4639
▁App	-4640
▁DVD	-4641
▁ઘણાં	-4642
▁જેણે	-4643
▁ભારે	-4644
▁ખરીદો	-4645
▁મલ્ટી	-4646
▁પ્રોત્સા	-4647
CP	-4648
udi	-4649
▁3,	-4650
▁are	-4651
▁અમલ	-4652
▁તરત	-4653
▁પોપ	-4654
વિકાસ	-4655
▁જેવો	-4656
▁પાડી	-4657
▁બ્લુ	-4658
▁સ્વાધીન	-4659
▁અસ્તિત્વમાં	-4660
ms	-4661
ધિ	-4662
ene	-4663
red	-4664
વ્ર	-4665
▁ગૌ	-4666
્યાલ	-4667
▁સભ્ય	-4668
▁સોંપ	-4669
▁નાનું	-4670
▁ઈવોલ્યુશન	-4671
▁મેનેજમેન્ટ	-4672
▁mo	-4673
પ્રા	-4674
▁સોમ	-4675
▁this	-4676
▁શાહી	-4677
▁કાળજી	-4678
▁બીજું	-4679
▁માછલી	-4680
▁વિડિયો	-4681
▁વ્યાપાર	-4682
arn	-4683
oll	-4684
▁ભૌ	-4685
▁box	-4686
▁બોટ	-4687
▁મેડ	-4688
▁હજી	-4689
▁આવું	-4690
▁નિશા	-4691
▁પીવી	-4692
▁સીમા	-4693
▁અનન્ય	-4694
▁કૂકીઝ	-4695
▁લક્ષણ	-4696
▁should	-4697
▁નીચેની	-4698
ફો	-4699
▁ચમ	-4700
ures	-4701
કૃતિ	-4702
મિશન	-4703
▁URI	-4704
gujju	-4705
યોજીત	-4706
▁સંભવ	-4707
▁ખોટું	-4708
▁નુકસાન	-4709
▁Deposit	-4710
RE	-4711
ભિ	-4712
Con	-4713
ફાવ	-4714
▁Br	-4715
સ્કા	-4716
▁પરીક્ષા	-4717
▁પ્રોટોકોલ	-4718
▁પ્રિન્ટિંગ	-4719
8.	-4720
OP	-4721
tton	-4722
▁સરસ	-4723
▁Arch	-4724
urrenc	-4725
▁લાવવા	-4726
▁પ્રદર્શ	-4727
5.	-4728
riv	-4729
નિસ	-4730
▁૧૪	-4731
સનીય	-4732
▁220	-4733
▁ડિલ	-4734
ન્ટ્સ	-4735
▁ટાઉન	-4736
▁નાણાં	-4737
▁રહ્યુ	-4738
▁વસ્ત્ર	-4739
rib	-4740
લોક	-4741
▁04	-4742
▁કૌ	-4743
▁૭૧	-4744
ન્યા	-4745
▁કર્	-4746
▁રોટલી	-4747
▁પ્લગઈન	-4748
▁વિશ્લે	-4749
03	-4750
CHI	-4751
▁ધર	-4752
પિંગ	-4753
jects	-4754
▁જટિલ	-4755
▁ટેમ્પ	-4756
▁પ્રમુખ	-4757
▁રીટ્વીટ	-4758
▁અલ્ટ્રાસોનિક	-4759
િફ	-4760
800	-4761
▁કહો	-4762
▁થાઓ	-4763
▁મૂસા	-4764
▁સૂચક	-4765
▁આઇફોન	-4766
▁સ્થળા	-4767
▁પશ્ચિમ	-4768
▁સંકેતો	-4769
41	-4770
GH	-4771
MM	-4772
▁4.	-4773
▁વહ	-4774
▁૧૩	-4775
mode	-4776
ક્કો	-4777
ોર્સ	-4778
▁Che	-4779
સ્થાન	-4780
▁Cont	-4781
▁સંસ્થાન	-4782
67	-4783
In	-4784
NS	-4785
ઠી	-4786
બળ	-4787
als	-4788
રિક	-4789
ર્જ	-4790
▁બગ	-4791
▁કેને	-4792
▁લોયા	-4793
▁સંકો	-4794
ક્ષમતા	-4795
▁કુશળતા	-4796
▁પેકિંગ	-4797
▁સર્વહક	-4798
escription	-4799
und	-4800
▁આશ	-4801
▁સખ	-4802
tern	-4803
સ્ટા	-4804
▁Vac	-4805
▁કેપ	-4806
▁મોન	-4807
MoHFW	-4808
▁અનુક	-4809
▁આવતા	-4810
▁નીચા	-4811
▁સાંભળ્યું	-4812
,(	-4813
rut	-4814
ંટી	-4815
▁85	-4816
વાના	-4817
▁એરે	-4818
▁છોક	-4819
▁૨૦૦	-4820
NIHFW	-4821
▁સંતો	-4822
▁ઘટાડો	-4823
▁સિવાય	-4824
▁માળખું	-4825
▁WhatsApp	-4826
ઢી	-4827
કોમ	-4828
▁Ag	-4829
rain	-4830
▁160	-4831
▁વીજ	-4832
yptoc	-4833
બોક્સ	-4834
▁રેખા	-4835
▁સાથી	-4836
▁બેકઅપ	-4837
▁યુદ્ધ	-4838
▁કહેવું	-4839
▁નીચેના	-4840
▁સ્વામી	-4841
▁Twitter	-4842
▁માઇક્રો	-4843
▁ધ્યાનમાં	-4844
▁pricelist	-4845
-7	-4846
ધું	-4847
ન્દ	-4848
મણી	-4849
▁09	-4850
ATOR	-4851
▁સાહ	-4852
્રેશન	-4853
▁કાર્ટ	-4854
▁જાણીએ	-4855
▁સારાંશ	-4856
▁ઓબ્જેક્ટ	-4857
▁વિસ્તારમાં	-4858
AB	-4859
RF	-4860
UT	-4861
સને	-4862
▁મગજ	-4863
▁સોના	-4864
▁sales	-4865
▁ઊર્જા	-4866
▁જાડાઈ	-4867
▁જેકપોટ	-4868
▁સ્વરૂપ	-4869
▁ઉપયોગમાં	-4870
▁બુકમાર્ક	-4871
ંગબો	-4872
લાડી	-4873
▁ગેસ	-4874
▁Copy	-4875
▁કલ્પ	-4876
▁બચાવ	-4877
▁બિલ્ડ	-4878
▁મળ્યો	-4879
સ્ટમાઇઝ	-4880
▁કિસ્સા	-4881
▁કેટલાએક	-4882
ીય	-4883
મિલ	-4884
▁થો	-4885
attr	-4886
સ્પર	-4887
▁આર્	-4888
▁હોટ	-4889
▁TRAN	-4890
ફ્રિકા	-4891
સ્ટ્રી	-4892
▁બાહ્ય	-4893
▁માધ્ય	-4894
▁જિલ્લો	-4895
▁બાંધકામ	-4896
▁વૈજ્ઞાનિક	-4897
bre	-4898
▁સન	-4899
▁can	-4900
▁પર્વ	-4901
▁10.23	-4902
▁રશિયા	-4903
▁તેનાથી	-4904
▁પુસ્તિકા	-4905
▁પ્રતિકાર	-4906
▁વિન્ડોની	-4907
-15	-4908
ely	-4909
tiv	-4910
સાઇ	-4911
coin	-4912
▁int	-4913
▁વિલ	-4914
gress	-4915
▁ટેલિ	-4916
▁નાણા	-4917
▁મધ્યમ	-4918
▁નીંગબો	-4919
▁મિશ્રણ	-4920
ટક	-4921
ett	-4922
બ્ર	-4923
ster	-4924
ત્રા	-4925
▁Oct	-4926
્રેજી	-4927
▁કોપી	-4928
▁સમયગ	-4929
▁સ્વિ	-4930
format	-4931
▁કાયદા	-4932
▁કોઈને	-4933
▁તબીબી	-4934
▁નોંધો	-4935
▁મોઝેક	-4936
▁ફ્લાઇટ	-4937
▁શિષ્યોને	-4938
yptocurrenc	-4939
ઉન્ટ	-4940
▁GSTR	-4941
▁ટ્રી	-4942
▁તફાવ	-4943
▁સ્પે	-4944
▁સાબિત	-4945
▁નિર્ણય	-4946
▁નોંધપાત્ર	-4947
4.	-4948
▁ડુ	-4949
▁મધ	-4950
NOME	-4951
ties	-4952
ષ્ટ્ર	-4953
▁જમણે	-4954
kothar	-4955
▁આપનું	-4956
▁સુવિધાઓ	-4957
▁સ્થળાંતર	-4958
▁શક્તિશાળી	-4959
43	-4960
Ch	-4961
AME	-4962
pos	-4963
િપ્	-4964
▁de	-4965
info	-4966
▁એને	-4967
▁HTTP	-4968
▁ઊંચી	-4969
▁કારા	-4970
▁રમવા	-4971
ection	-4972
▁કેમ્પ	-4973
▁ઈન્ટરનેટ	-4974
61	-4975
ઈટ	-4976
row	-4977
લિક	-4978
▁qu	-4979
▁per	-4980
▁ફરો	-4981
press	-4982
▁News	-4983
▁ક્રે	-4984
▁સંકળ	-4985
▁સ્કો	-4986
ેલેન્ટ	-4987
▁ચલાવી	-4988
▁પ્રાંત	-4989
pcs	-4990
સ્ય	-4991
file	-4992
▁199	-4993
▁મહે	-4994
▁Long	-4995
layers	-4996
લેન્ડર	-4997
▁ચિંતા	-4998
▁કરીશું	-4999
▁વિશ્વસનીય	-5000
▁IM	-5001
ફ્રે	-5002
વ્યો	-5003
▁inm	-5004
▁coun	-5005
▁ચક્ર	-5006
▁ડાબે	-5007
▁સમર્	-5008
▁વ્યવસ્થાપન	-5009
સૂ	-5010
top	-5011
ult	-5012
ung	-5013
urn	-5014
yst	-5015
દ્દા	-5016
light	-5017
▁ખસેડ	-5018
▁Gener	-5019
▁Slots	-5020
▁માણસે	-5021
▁આફ્રિકા	-5022
▁સરળતાથી	-5023
▁ફોલ્ડરને	-5024
iy	-5025
▁(0	-5026
▁ev	-5027
▁તળ	-5028
ones	-5029
પણું	-5030
▁110	-5031
▁વિગત	-5032
ategory	-5033
▁પક્ષીએ	-5034
▁Comment	-5035
▁જીવનમાં	-5036
▁સુયોજીત	-5037
▁પ્રદર્શિત	-5038
OD	-5039
ગરી	-5040
▁અત	-5041
site	-5042
ચેરી	-5043
▁તત્	-5044
▁આર્થ	-5045
▁જીવી	-5046
▁ગોલ્ડ	-5047
▁પીવીસી	-5048
▁રાખીને	-5049
▁વર્લ્ડ	-5050
▁સમયમાં	-5051
Language	-5052
PM	-5053
ser	-5054
zil	-5055
લાબ	-5056
વેદન	-5057
▁કીઓ	-5058
▁ભૂમ	-5059
amrut	-5060
▁પોર્	-5061
▁પાઉન્ડ	-5062
hanamrut	-5063
▁regions	-5064
▁ફ્રાન્સ	-5065
▁કસ્ટમાઇઝ	-5066
enericName	-5067
્વન	-5068
ંતરણ	-5069
▁web	-5070
▁અપે	-5071
▁ગેલે	-5072
▁ચુંબ	-5073
▁લખવા	-5074
▁ઉં	-5075
face	-5076
▁Red	-5077
▁dis	-5078
▁કન્સ	-5079
બ્રાહિ	-5080
▁આલ્ફા	-5081
▁posted	-5082
કટ	-5083
lex	-5084
radi	-5085
ર્ચા	-5086
▁અનલ	-5087
▁ઊભી	-5088
▁બાર્	-5089
▁સંચાલક	-5090
▁કોર્પોરેટ	-5091
નીઝ	-5092
▁%1	-5093
▁Dr	-5094
▁કટ	-5095
ideo	-5096
▁OEM	-5097
▁રોબ	-5098
▁સમૃ	-5099
ધિકાર	-5100
યોજનો	-5101
્ડીંગ	-5102
▁part	-5103
▁કાળા	-5104
▁બીટા	-5105
▁Micro	-5106
▁ઇન્ટર	-5107
▁બહેનો	-5108
▁યાદીમાં	-5109
▁નિયંત્રક	-5110
▁પ્રવૃત્તિઓ	-5111
▁Vachanamrut	-5112
▁નર	-5113
▁ફળ	-5114
▁૧૯	-5115
cess	-5116
iang	-5117
રચના	-5118
યોજિત	-5119
▁જૂના	-5120
▁પરિપ	-5121
▁વિતરણ	-5122
▁હોવું	-5123
▁મોટાભાગ	-5124
▁IC	-5125
▁અબ	-5126
ત્રી	-5127
્લું	-5128
▁પાલ	-5129
tions	-5130
▁ડોમેન	-5131
▁france	-5132
▁બન્યું	-5133
▁બોલ્યા	-5134
▁યાદીને	-5135
▁શ્રીજીમહારાજ	-5136
24.	-5137
▁ફૅ	-5138
▁૬૭	-5139
ille	-5140
▁str	-5141
▁રોલ	-5142
▁પ્લસ	-5143
▁સૂચન	-5144
ોર્ટ્સ	-5145
▁દુષ્ટ	-5146
▁પગલું	-5147
▁સભ્યો	-5148
ગમ	-5149
▁Pl	-5150
ટેબલ	-5151
પ્રદ	-5152
▁માફ	-5153
▁મેટ	-5154
માત્ર	-5155
▁એમએમ	-5156
▁માને	-5157
▁વાતા	-5158
▁ફ્રેમ	-5159
▁માસ્ક	-5160
▁સૂચિત	-5161
▁કલાકની	-5162
▁સમુદાય	-5163
BF	-5164
___	-5165
mer	-5166
કાય	-5167
ણિક	-5168
ર્લ	-5169
વાહ	-5170
▁75	-5171
▁SD	-5172
▁Sm	-5173
▁કોમ	-5174
▁ટાળ	-5175
Stock	-5176
▁અંગે	-5177
▁મેઇલ	-5178
▁અનામત	-5179
▁જાણતા	-5180
▁જિલ્લા	-5181
▁મુદ્દા	-5182
swkothar	-5183
▁વેબસાઈટ	-5184
જકો	-5185
▁Gu	-5186
્યુટ	-5187
▁(1,	-5188
▁જર્	-5189
▁મરણ	-5190
▁૨૦૧	-5191
egion	-5192
▁ગયેલ	-5193
▁ડાબી	-5194
▁નાઇટ	-5195
▁પૂછો	-5196
▁ખોલવા	-5197
▁ઘડિયા	-5198
▁તીવ્ર	-5199
▁પોલીસ	-5200
▁સુધારાઓ	-5201
▁પ્રત્યેક	-5202
▁રૂપાંતરિત	-5203
કાં	-5204
ન્ઝ	-5205
▁03	-5206
▁4,	-5207
ence	-5208
ense	-5209
agram	-5210
નત્તમ	-5211
િંગ્સ	-5212
ેક્ટર	-5213
▁ગરમી	-5214
▁ધ્વન	-5215
▁વગાડ	-5216
▁જીવંત	-5217
▁માર્ક	-5218
▁શુક્ર	-5219
▁પિક્સેલ	-5220
Qu	-5221
સમા	-5222
▁ab	-5223
વીને	-5224
▁આધુ	-5225
▁પંપ	-5226
▁સારો	-5227
▁સિંગ	-5228
▁block	-5229
▁search	-5230
▁ઍક્સેસ	-5231
▁પ્રતિનિ	-5232
▁સંપત્તિ	-5233
▁તાજેતરની	-5234
GenericName	-5235
igh	-5236
ime	-5237
irt	-5238
અમે	-5239
mark	-5240
over	-5241
▁8.1	-5242
▁ઓવર	-5243
▁હાય	-5244
lease	-5245
▁જેનો	-5246
▁પેટી	-5247
▁જથ્થો	-5248
▁રાત્રે	-5249
▁ચિત્રને	-5250
ેલેન્ટાઇન	-5251
▁નિશ્ચયનું	-5252
મય	-5253
ત્વે	-5254
▁from	-5255
▁કૂપન	-5256
▁કપડાં	-5257
▁ભાગનો	-5258
▁સર્વા	-5259
▁આધુનિક	-5260
▁ઉમેરવા	-5261
▁કેન્સર	-5262
HS	-5263
MX	-5264
150	-5265
બરો	-5266
▁Sw	-5267
0000	-5268
ંવાર	-5269
વાળો	-5270
સ્ટો	-5271
સ્તો	-5272
▁Hol	-5273
ATORS	-5274
KChar	-5275
▁કિલો	-5276
▁GNOME	-5277
▁ગ્લાસ	-5278
▁ટૂંકા	-5279
▁સૂર્ય	-5280
▁સ્નેપ	-5281
SLATORS	-5282
▁અત્યંત	-5283
▁ટેટૂઝપગ	-5284
▁પાશ્વભાગ	-5285
▁સ્વતંત્ર	-5286
▁અનિચ્છનીય	-5287
▁TRANSLATORS	-5288
િઆ	-5289
બોલ	-5290
લાપ	-5291
વ્યવ	-5292
▁ઓપન	-5293
ankit	-5294
્રેગન	-5295
▁યુપી	-5296
object	-5297
▁સ્પિન	-5298
▁વધુમાં	-5299
▁ફાઇલોને	-5300
▁પરંપરાગત	-5301
▁કાર્યક્ષમતા	-5302
ons	-5303
ંકા	-5304
ઠું	-5305
lash	-5306
udio	-5307
્રોમ	-5308
▁શેલ	-5309
િપ્શન	-5310
▁ખરીદ	-5311
▁તેનાં	-5312
▁દર્શક	-5313
▁નીકળો	-5314
▁દરેકને	-5315
▁પ્રીતિ	-5316
▁કૅલેન્ડર	-5317
ઉપ	-5318
છે	-5319
ીર	-5320
મીએ	-5321
▁33	-5322
▁ફિ	-5323
ંગળી	-5324
નલેસ	-5325
amero	-5326
ebook	-5327
ameroon	-5328
▁Archiv	-5329
▁આર્થિક	-5330
▁સાઉન્ડ	-5331
▁ક્રિયાઓ	-5332
▁પ્રોફાઇલ	-5333
OW	-5334
લ્બ	-5335
▁64	-5336
▁આંખ	-5337
▁થતા	-5338
▁રજા	-5339
▁ઘરમાં	-5340
Country	-5341
▁બાપ્તિ	-5342
▁→	-5343
ars	-5344
ટરફ	-5345
ોડા	-5346
▁ઓપરે	-5347
▁ગુરુ	-5348
▁જોકે	-5349
▁એકવાર	-5350
▁જોડણી	-5351
▁પથ્થર	-5352
▁પાત્ર	-5353
▁પ્રસાર	-5354
▁વારંવાર	-5355
▁વપરાશકર્તાને	-5356
0.	-5357
યહૂ	-5358
લીવ	-5359
▁રજ	-5360
here	-5361
▁ઘૂં	-5362
▁ભાત	-5363
▁ગ્રાફ	-5364
anc	-5365
eek	-5366
yle	-5367
લોડ	-5368
વેદ	-5369
▁ur	-5370
Tube	-5371
olum	-5372
▁મથક	-5373
▁થેલી	-5374
▁સંકલ	-5375
▁કોર્સ	-5376
▁સિરીઝ	-5377
▁પામ્યા	-5378
▁ક્લિપબોર્ડ	-5379
53	-5380
82	-5381
ચય	-5382
ele	-5383
શ્રે	-5384
▁રુપ	-5385
▁સાવ	-5386
icode	-5387
▁સમાજ	-5388
▁status	-5389
▁પ્રત્યે	-5390
▁સિદ્ધાંત	-5391
pk	-5392
ોએ	-5393
-30	-5394
res	-5395
▁Qu	-5396
ેશન્સ	-5397
▁આંખો	-5398
▁કશું	-5399
▁પહેર	-5400
▁બ્રહ	-5401
▁Techn	-5402
▁ચર્ચા	-5403
▁તફાવત	-5404
stagram	-5405
▁અનુકૂળ	-5406
▁તૈયારી	-5407
▁પેકેજો	-5408
▁કારાવાસ	-5409
▁મોકલ્યો	-5410
▁સાંભળવા	-5411
▁હાર્ડવેર	-5412
▁પ્રારંભિક	-5413
HZ	-5414
ઓએ	-5415
ઝુ	-5416
.05	-5417
▁tr	-5418
▁યૂ	-5419
ન્નત	-5420
બદ્ધ	-5421
િટ્સ	-5422
▁Mar	-5423
▁SKU	-5424
▁___	-5425
▁ઢાળ	-5426
▁તપા	-5427
▁ફૂટ	-5428
▁રેડ	-5429
ating	-5430
▁મેટા	-5431
▁સ્તુ	-5432
▁થ્રેડ	-5433
▁નિષ્ક	-5434
▁ચાર્ટર	-5435
▁હાલનાં	-5436
▁લોકડાઉન	-5437
sc	-5438
િજ	-5439
્સર	-5440
▁આછ	-5441
work	-5442
▁કેદી	-5443
▁ડીસી	-5444
▁પૂર્	-5445
▁સાંક	-5446
▁સહભાગ	-5447
▁ટેટૂઝઆ	-5448
▁પદાર્થ	-5449
▁version	-5450
▁ચિહ્નિત	-5451
▁દર્શાવે	-5452
▁નિર્માણ	-5453
▁સ્પષ્ટીકરણ	-5454
57	-5455
વણ	-5456
120	-5457
▁ઝી	-5458
▁(12	-5459
▁For	-5460
▁સેમ	-5461
▁આલ્બ	-5462
▁વર્ડ	-5463
▁પાર્ટ	-5464
▁months	-5465
▁પહોંચી	-5466
▁પેઇન્ટ	-5467
▁માલિકી	-5468
▁અંગ્રેજી	-5469
▁પ્રમાણપત્રો	-5470
CO	-5471
NG	-5472
▁બૂ	-5473
oooo	-5474
ters	-5475
ઇટેડ	-5476
▁10,	-5477
▁અર્ક	-5478
▁ઈમેજ	-5479
▁કહીએ	-5480
▁જવું	-5481
▁જોડી	-5482
▁થવું	-5483
▁લીધો	-5484
▁અવતરણ	-5485
▁ભૌતિક	-5486
▁United	-5487
▁કાર્બન	-5488
▁કોપીરાઇટ	-5489
▁≤	-5490
alb	-5491
▁Tr	-5492
▁dep	-5493
▁ફૂડ	-5494
▁ગોળી	-5495
▁સૈનિક	-5496
▁કલ્પના	-5497
1-	-5498
GS	-5499
eal	-5500
ોટી	-5501
▁ઇટ	-5502
ahoo	-5503
ત્યા	-5504
▁અપા	-5505
▁ફીડ	-5506
▁વાય	-5507
▁સખત	-5508
▁1500	-5509
▁અવગણ	-5510
▁એસિડ	-5511
▁ઓપ્ટ	-5512
▁જોયા	-5513
▁પાછી	-5514
▁ભોજન	-5515
▁વ્હી	-5516
▁India	-5517
ટરફ્લાય	-5518
▁પ્રતિક્રિયા	-5519
ous	-5520
▁ભરો	-5521
▁લોન	-5522
irect	-5523
ધ્ધતિ	-5524
િયાના	-5525
▁RAID	-5526
▁પરના	-5527
▁આયોજન	-5528
▁પુનરા	-5529
▁પ્રગટ	-5530
▁સલામત	-5531
▁સ્ટોર	-5532
oftware	-5533
▁ટેટૂઝબ	-5534
▁સીરીયલ	-5535
▁અધિકારો	-5536
▁બિનઆધાર	-5537
ng	-5538
જરી	-5539
ડોર	-5540
▁ઓન	-5541
eset	-5542
સ્ટન	-5543
▁રેલ	-5544
ystem	-5545
▁કેટે	-5546
▁ટાઇલ	-5547
▁ફોરે	-5548
▁world	-5549
keyboard	-5550
▁સ્ટ્રીટ	-5551
▁બિલ્ડીંગ	-5552
▁મુખ્યત્વે	-5553
7.	-5554
TR	-5555
elf	-5556
ins	-5557
▁જિ	-5558
ંભીર	-5559
સ્તે	-5560
▁ઊભો	-5561
▁પવન	-5562
▁ઊંડા	-5563
▁કામો	-5564
▁હાઉસ	-5565
સિસ્ટમ	-5566
▁ફરોશી	-5567
▁મળ્યા	-5568
acebook	-5569
▁પોતાનું	-5570
▁રજીસ્ટર	-5571
▁બનાવ્યું	-5572
▁સાધનપટ્ટી	-5573
73	-5574
ૂન	-5575
-02	-5576
man	-5577
િલી	-5578
edic	-5579
▁તેં	-5580
▁લૂક	-5581
▁બેઠક	-5582
▁પ્રમાણમાં	-5583
5,	-5584
pu	-5585
શય	-5586
ઝોન	-5587
▁0.5	-5588
સ્થિત	-5589
▁મળ્યુ	-5590
▁નિશાની	-5591
gujarati	-5592
▁unicode	-5593
▁રાખવામાં	-5594
▁પ્રમાણભૂત	-5595
yl	-5596
લર	-5597
શરૂ	-5598
▁ટૂ	-5599
onia	-5600
કારે	-5601
▁આવો	-5602
▁કેર	-5603
▁જંગ	-5604
▁ઝાં	-5605
▁પીએ	-5606
▁ફાળ	-5607
▁here	-5608
▁અનુભ	-5609
▁દરવા	-5610
BuyBuy	-5611
▁ગંભીર	-5612
▁દર્શન	-5613
▁સિસ્ટમો	-5614
▁ખોલવામાં	-5615
▁યુનાઇટેડ	-5616
ંશ	-5617
▁44	-5618
▁DI	-5619
tool	-5620
▁અવિ	-5621
▁ઇંચ	-5622
▁આંકડા	-5623
▁જોવાઈ	-5624
વાળાનું	-5625
▁પુરવઠા	-5626
▁લોકોના	-5627
▁subjects	-5628
TH	-5629
તાહ	-5630
દિવ	-5631
ોકર	-5632
▁et	-5633
▁ઑફ	-5634
ક્ષર	-5635
ભારત	-5636
▁ઇંગ	-5637
▁થાઇ	-5638
વ્યું	-5639
▁અનંત	-5640
▁આવરી	-5641
▁ભૂલો	-5642
્રોલિક	-5643
▁ટ્યુબ	-5644
▁ચૂકવણી	-5645
▁જર્મની	-5646
▁માર્ગદર્શિકા	-5647
-%	-5648
ES	-5649
એટ	-5650
થ્ય	-5651
▁06	-5652
▁1/	-5653
▁જડ	-5654
/201	-5655
ચલાઉ	-5656
▁જણા	-5657
▁ટોક	-5658
▁બનો	-5659
▁મનુ	-5660
-2019	-5661
▁આરામ	-5662
▁30.00	-5663
▁વગાડો	-5664
▁તમારાં	-5665
▁વ્યસ્ત	-5666
▁સ્તુતિ	-5667
▁ઈબ્રાહિ	-5668
▁સમર્પિત	-5669
KCharselect	-5670
52	-5671
ED	-5672
usa	-5673
ૂની	-5674
▁AC	-5675
▁MT	-5676
▁૨૭	-5677
fect	-5678
ober	-5679
ount	-5680
wise	-5681
▁ખુબ	-5682
▁વધી	-5683
cript	-5684
▁જૂની	-5685
વિકલ્પ	-5686
▁પૂરતી	-5687
▁જેલમાં	-5688
▁ક્રિપ્ટ	-5689
▁પરિવર્તન	-5690
બાદ	-5691
apan	-5692
્રિજ	-5693
▁(10	-5694
▁Jav	-5695
▁iOS	-5696
▁ઈન્	-5697
▁પીડ	-5698
રાયેલ	-5699
▁અવરોધ	-5700
▁ડબલ્યુ	-5701
▁કામચલાઉ	-5702
▁નાણાકીય	-5703
▁વિશેષતા	-5704
▁ટ્રેડિંગ	-5705
▁બનાવવાનું	-5706
▁સંદેશાઓને	-5707
▁કચરાપેટીમાં	-5708
PL	-5709
xx	-5710
ૅક	-5711
ath	-5712
ury	-5713
કોઈ	-5714
▁હલ	-5715
નિર્	-5716
▁380	-5717
▁જુએ	-5718
શક્તિ	-5719
▁have	-5720
▁ઉંમર	-5721
▁ઊંચા	-5722
▁ચાલે	-5723
▁મનોર	-5724
▁સાઇન	-5725
▁હવાઈ	-5726
સંગ્રહ	-5727
▁ધ્વનિ	-5728
▁રશિયન	-5729
▁શકાશે	-5730
▁માંગતા	-5731
▁વિરોધી	-5732
▁પોસ્ટ્સ	-5733
▁શ્રેણીઓ	-5734
▁સ્ટ્રીમ	-5735
▁પારદર્શક	-5736
-03	-5737
.03	-5738
કોન	-5739
વાઈ	-5740
ષ્ણ	-5741
▁(2	-5742
▁1'	-5743
▁AD	-5744
▁આખ	-5745
▁થા	-5746
▁૩૦	-5747
atal	-5748
fact	-5749
ઈટેડ	-5750
▁અલ્	-5751
▁મેચ	-5752
vince	-5753
વિરામ	-5754
▁ઓછું	-5755
▁ત્યા	-5756
▁બનશે	-5757
▁સીધી	-5758
▁લાગણી	-5759
▁સહકાર	-5760
▁રુપરેખ	-5761
▁વિડિઓઝ	-5762
▁તેજસ્વી	-5763
▁તેમાંથી	-5764
▁સમસ્યાઓ	-5765
▁માહિતીને	-5766
▁વિશ્લેષણ	-5767
ઝલ	-5768
▁વૉ	-5769
▁Dec	-5770
Query	-5771
▁GIMP	-5772
▁નકલી	-5773
▁સંકેત	-5774
▁કલાકાર	-5775
▁અત્યારે	-5776
▁વાતાવરણ	-5777
▁સુધારેલ	-5778
▁સપ્લાયર્સ	-5779
.98	-5780
New	-5781
પીએ	-5782
▁ઘન	-5783
તોને	-5784
▁પતિ	-5785
પરંતુ	-5786
▁ક્વિ	-5787
▁લીધે	-5788
▁ગુપ્ત	-5789
▁બેન્ડ	-5790
▁મશીનો	-5791
વેદનશીલ	-5792
▁મોનિટર	-5793
▁નિષ્ણાત	-5794
▁સંયોજનો	-5795
▁counties	-5796
%%	-5797
lob	-5798
uit	-5799
▁Coin	-5800
▁ઓક્સ	-5801
▁ગ્રુ	-5802
▁વોટર	-5803
▁રેન્ડ	-5804
શ્રેષ્ઠ	-5805
▁પુરુષો	-5806
▁સોલ્યુ	-5807
▁સંગ્રહી	-5808
▁સફળતાપૂર્વક	-5809
LF	-5810
ka	-5811
દૂત	-5812
▁Ca	-5813
\\\\	-5814
પ્ટર	-5815
ૃષ્ટ	-5816
▁જરુ	-5817
▁વહી	-5818
ખ્યાત	-5819
ીએસટી	-5820
▁ચર્ચ	-5821
▁હોવુ	-5822
▁કરેલી	-5823
▁ડ્રાઇ	-5824
▁એરપોર્ટ	-5825
▁નિર્દેશ	-5826
▁સંયુક્ત	-5827
▁લાવવામાં	-5828
િડ	-5829
તાજ	-5830
▁0.	-5831
▁સરો	-5832
▁them	-5833
▁આવતી	-5834
▁ક્રા	-5835
ારીરિક	-5836
▁આકાશમાં	-5837
▁સંસ્થાઓ	-5838
▁ટેટૂઝહાથ	-5839
▁ખ્રિસ્તના	-5840
▁સોલ્યુશન્સ	-5841
▁ઇલેક્ટ્રોનિક	-5842
tif	-5843
▁6.	-5844
▁up	-5845
▁ચર	-5846
reen	-5847
િવરી	-5848
▁Pre	-5849
▁text	-5850
ujarat	-5851
▁હંમેશ	-5852
▁હિંસા	-5853
▁States	-5854
▁સંભવિત	-5855
▁Archives	-5856
▁ફોટોગ્રા	-5857
▁યુનાઈટેડ	-5858
ba	-5859
mt	-5860
ne	-5861
ચન	-5862
ogs	-5863
લાઇ	-5864
▁૩૭	-5865
ંપતિ	-5866
▁res	-5867
▁જતા	-5868
▁પકડ	-5869
▁ભલા	-5870
▁શરત	-5871
ional	-5872
▁યુક્ર	-5873
▁રસ્તા	-5874
▁માધ્યમ	-5875
▁લાક્ષણિક	-5876
]:	-5877
સફ	-5878
let	-5879
orp	-5880
ંજન	-5881
સાઈ	-5882
▁%(	-5883
▁af	-5884
▁cr	-5885
▁rep	-5886
▁કંટ	-5887
▁સાન	-5888
▁હોઇ	-5889
istan	-5890
ocket	-5891
▁કરવુ	-5892
્યુલેટર	-5893
▁કરવાના	-5894
▁સંદેશાને	-5895
રોન	-5896
▁5,	-5897
▁Op	-5898
rist	-5899
▁સફર	-5900
▁ગુલા	-5901
▁દાંત	-5902
▁પૂરો	-5903
▁ફ્લો	-5904
▁લઈને	-5905
▁ભૂતકાળ	-5906
▁રસપ્રદ	-5907
ઉં	-5908
બં	-5909
▁;	-5910
eth	-5911
કેમ	-5912
વશે	-5913
▁ઓર	-5914
-200	-5915
imum	-5916
ypro	-5917
ઃકરણ	-5918
▁અશુ	-5919
layer	-5920
▁Cheat	-5921
▁છોકરા	-5922
▁મિશ્ર	-5923
▁બ્રાઉઝ	-5924
▁મોકલવા	-5925
▁ઉપકરણને	-5926
▁Technolog	-5927
LP	-5928
WA	-5929
hu	-5930
કરી	-5931
ગીર	-5932
ગુણ	-5933
્ટન	-5934
▁જ્	-5935
વોટર	-5936
▁વોચ	-5937
▁શિક	-5938
iness	-5939
▁ital	-5940
▁પેઢી	-5941
▁લિંક	-5942
▁કેન્દ	-5943
▁શારીરિક	-5944
▁બાપ્તિસ્મા	-5945
62	-5946
ye	-5947
OCK	-5948
err	-5949
ify	-5950
ગ્ન	-5951
▁પથ	-5952
દ્દન	-5953
િકાઓ	-5954
▁થતી	-5955
▁ફ્ર	-5956
▁રિસ	-5957
▁સુખ	-5958
▁પિલા	-5959
▁બાઇક	-5960
▁ભક્ત	-5961
▁ઈનપુટ	-5962
▁કવિતા	-5963
▁પૂરું	-5964
▁ભાવના	-5965
▁એક્સચે	-5966
▁જોડાવા	-5967
▁રચાયેલ	-5968
▁વૃદ્ધિ	-5969
▁સ્થાનો	-5970
▁ત્યારથી	-5971
▁ટેમ્પલેટ	-5972
IF	-5973
જ઼	-5974
iki	-5975
ઝેન	-5976
લેખ	-5977
વીય	-5978
િંહ	-5979
▁છત	-5980
▁જઇ	-5981
▁૨૮	-5982
રોને	-5983
▁28,	-5984
▁આગે	-5985
▁નદી	-5986
▁ચિની	-5987
▁ગ્રેડ	-5988
▁જાણું	-5989
▁પાઉલે	-5990
▁ફૅક્સ	-5991
▁ટેટૂઝડ	-5992
▁યાત્રા	-5993
▁વધારવા	-5994
artments	-5995
▁October	-5996
▁ડિલિવરી	-5997
bu	-5998
yn	-5999
➖➖	-6000
-16	-6001
esk	-6002
oot	-6003
▁1.0	-6004
▁USB	-6005
▁આઇટ	-6006
▁નિક	-6007
▁Last	-6008
▁તારો	-6009
▁નાગર	-6010
▁સાચી	-6011
▁સીધા	-6012
▁ઈચ્છે	-6013
▁વાંચન	-6014
▁અનુસરો	-6015
▁કાનૂની	-6016
▁પુનરાવર્	-6017
▁વર્ડપ્રેસ	-6018
▁હાઇડ્રોલિક	-6019
".	-6020
▁\	-6021
644	-6022
ron	-6023
િતા	-6024
▁.;	-6025
▁QR	-6026
▁am	-6027
▁“%	-6028
પારી	-6029
મેઈલ	-6030
▁દયા	-6031
▁take	-6032
▁પાડવા	-6033
▁બાજુએ	-6034
▁લઘુતમ	-6035
▁સમક્ષ	-6036
▁પધ્ધતિ	-6037
▁સર્વાધિકાર	-6038
yptocurrency	-6039
',	-6040
84	-6041
વટ	-6042
Pro	-6043
ana	-6044
▁7,	-6045
ટ્ટો	-6046
લાઇટ	-6047
▁125	-6048
▁Net	-6049
▁key	-6050
▁આવક	-6051
▁એલો	-6052
▁પુલ	-6053
▁સુલ	-6054
સ્તાન	-6055
▁પ્રસ	-6056
▁બધાં	-6057
▁સૂચિ	-6058
Region	-6059
જેક્શન	-6060
▁તપાસો	-6061
▁નીકળી	-6062
▁સાઇટ્સ	-6063
▁અપેક્ષા	-6064
▁ઉમેદવારી	-6065
▁departments	-6066
▁જાન્યુઆરીમાં	-6067
.04	-6068
ble	-6069
fer	-6070
ral	-6071
રેટ	-6072
હ્ન	-6073
▁અખ	-6074
nome	-6075
ચંદ્ર	-6076
▁ભાડે	-6077
▁સમજણ	-6078
▁રજૂઆત	-6079
્યુલેશન	-6080
▁Blockchain	-6081
ls	-6082
▁·	-6083
-06	-6084
ING	-6085
ડેલ	-6086
લિશ	-6087
ાઇમ	-6088
▁49	-6089
▁6,	-6090
▁છૂ	-6091
evel	-6092
less	-6093
talk	-6094
વિલે	-6095
▁menu	-6096
▁કઠોર	-6097
▁પીડા	-6098
દિવાસી	-6099
▁Linux	-6100
▁ઈમેઈલ	-6101
▁કર્સર	-6102
▁ડેટિંગ	-6103
▁વાંચવા	-6104
▁મહત્વનું	-6105
▁મોકલવામાં	-6106
▁સંવેદનશીલ	-6107
010	-6108
aic	-6109
bai	-6110
ટેક	-6111
▁Ac	-6112
▁he	-6113
▁ro	-6114
ness	-6115
ંઘાઇ	-6116
▁2.5	-6117
▁ટોન	-6118
▁બચત	-6119
ંત્રી	-6120
ર્ષિક	-6121
▁ખોટા	-6122
▁ખોટી	-6123
▁થ્રે	-6124
▁નાખો	-6125
▁લોગો	-6126
ોનિક્સ	-6127
▁ગ્રામ	-6128
▁ચહેરા	-6129
▁નિયમન	-6130
▁વેસ્ટ	-6131
▁ઘડિયાળ	-6132
▁સલામતી	-6133
▁શિષ્યોએ	-6134
▁ઓસ્ટ્રેલ	-6135
▁Copyright	-6136
QL	-6137
ૂબ	-6138
જિત	-6139
▁ઉજ	-6140
▁નવ	-6141
વેજી	-6142
ોર્ક	-6143
▁Cal	-6144
▁app	-6145
▁દોષ	-6146
▁નીચ	-6147
▁હકો	-6148
▁થોડો	-6149
icense	-6150
▁તદ્દન	-6151
▁સ્વાદ	-6152
▁રૂપાંતરણ	-6153
વૈ	-6154
11,	-6155
bit	-6156
fil	-6157
lin	-6158
મનો	-6159
▁8,	-6160
▁બર	-6161
▁કમા	-6162
▁ગરી	-6163
▁ફેલ	-6164
તાળીઓ	-6165
▁comp	-6166
▁ગૂગલ	-6167
▁વિધે	-6168
▁ઘટનાઓ	-6169
▁મંડળી	-6170
▁સ્થળો	-6171
▁સત્સંગ	-6172
▁સોમવાર	-6173
▁અમેરિકન	-6174
▁ડ્રાઇવર	-6175
▁કહેવામાં	-6176
yc	-6177
ંથ	-6178
ભો	-6179
પ્પ	-6180
ાયણ	-6181
ોલો	-6182
Wise	-6183
▁ખેડ	-6184
▁દાન	-6185
▁યેન	-6186
raine	-6187
સોફ્ટ	-6188
▁આપવી	-6189
▁કરાવ	-6190
▁ગ્લો	-6191
▁પોલિ	-6192
સાયણિક	-6193
▁સામનો	-6194
anufact	-6195
▁છેલ્લી	-6196
yprovince	-6197
63	-6198
છળ	-6199
ફૂલ	-6200
▁UP	-6201
ક્ષે	-6202
ન્ડે	-6203
પીએસ	-6204
▁jet	-6205
ville	-6206
▁3000	-6207
▁find	-6208
▁teet	-6209
▁જુદી	-6210
▁લાઈવ	-6211
▁બધાને	-6212
▁બ્રિટ	-6213
▁ભક્તિ	-6214
▁શકાતો	-6215
▁પુરવઠો	-6216
▁રાઉન્ડ	-6217
▁લખ્યું	-6218
▁સંકળાયેલ	-6219
CM	-6220
▁**	-6221
▁Pr	-6222
▁આય	-6223
2001	-6224
ities	-6225
▁Mach	-6226
▁પકડી	-6227
▁ફ્લેટ	-6228
▁હજારો	-6229
▁ઓફલાઇન	-6230
▁કરાયેલ	-6231
▁વ્યવસાયિક	-6232
▁સમાવિષ્ટો	-6233
LO	-6234
▁u	-6235
ART	-6236
arg	-6237
ata	-6238
emb	-6239
મોર	-6240
હોક	-6241
▁65	-6242
▁XX	-6243
▁se	-6244
soft	-6245
પસંદ	-6246
પીંગ	-6247
રિયા	-6248
▁આખા	-6249
▁એમ્	-6250
▁દ્ધ	-6251
શિષ્ટ	-6252
▁Char	-6253
▁માંગે	-6254
▁અશુદ્ધ	-6255
▁આમંત્ર	-6256
▁થયાનું	-6257
▁બનાવેલ	-6258
▁બંધબેસતુ	-6259
▁પ્રિન્ટીંગ	-6260
123	-6261
LEX	-6262
enn	-6263
ics	-6264
ૂંટ	-6265
▁Be	-6266
list	-6267
ગ્યા	-6268
▁એસી	-6269
▁ખાણ	-6270
▁નગર	-6271
ivers	-6272
બ્લિક	-6273
સ્તંભ	-6274
્યુલા	-6275
▁2005	-6276
▁રૂપે	-6277
▁તાળું	-6278
▁સ્કેન	-6279
▁નમૂનાઓ	-6280
▁પ્રયોગો	-6281
▁પરવાનગીઓ	-6282
▁સ્નેપશોટ	-6283
▁વાસ્તવિકતા	-6284
8,	-6285
92	-6286
IR	-6287
▁%2	-6288
▁CA	-6289
્વાસ	-6290
▁Pat	-6291
▁SSL	-6292
▁min	-6293
▁new	-6294
▁અગ્	-6295
▁લીડ	-6296
▁શુભ	-6297
▁એસ્ટ	-6298
▁પૂરુ	-6299
▁હેરો	-6300
ાર્મથ્ય	-6301
▁button	-6302
▁અગાઉના	-6303
▁એપ્લેટ	-6304
▁સંબંધો	-6305
▁Bitcoin	-6306
▁પ્રસારણ	-6307
▁ભગવાનના	-6308
▁સરખામણી	-6309
anufactur	-6310
▁શરૂઆતમાં	-6311
eta	-6312
ium	-6313
▁07	-6314
▁વુ	-6315
ટેટૂ	-6316
નિકલ	-6317
પાછળ	-6318
▁થાપ	-6319
ર્વાદ	-6320
▁અપરા	-6321
▁આપતા	-6322
▁એલોય	-6323
▁જ્યો	-6324
▁વાણી	-6325
▁પગલાં	-6326
▁પાલતુ	-6327
▁લાંબી	-6328
▁સેન્ટર	-6329
▁નિયમશાસ્ત્ર	-6330
િઝ	-6331
-04	-6332
jar	-6333
ંડી	-6334
જીવ	-6335
પાલ	-6336
ાઈન	-6337
▁ER	-6338
▁નમ	-6339
▁ભી	-6340
ames	-6341
બાજુ	-6342
▁23,	-6343
▁Air	-6344
▁અંધ	-6345
▁દેહ	-6346
▁સંઘ	-6347
વવાની	-6348
▁આશ્ર	-6349
▁ગુણો	-6350
▁માની	-6351
▁વસંત	-6352
▁હાંસ	-6353
▁સોકેટ	-6354
▁દેશમાં	-6355
▁વિદેશી	-6356
fectures	-6357
▁બાળકોને	-6358
▁માણસોને	-6359
▁Download	-6360
▁સાર્મથ્ય	-6361
▁prefectures	-6362
94	-6363
GE	-6364
વત	-6365
-08	-6366
વેટ	-6367
ેસર	-6368
ોડો	-6369
ક્ચર	-6370
ન્ના	-6371
▁PDA	-6372
▁અહી	-6373
▁કુચ	-6374
▁વાહ	-6375
પક્ષી	-6376
▁Educ	-6377
ficial	-6378
▁Short	-6379
▁જેમ્સ	-6380
▁બતાવી	-6381
▁જોડાણો	-6382
▁દ્રશ્ય	-6383
▁શિક્ષા	-6384
▁YouTube	-6385
▁દ્રષ્ટિ	-6386
▁રાસાયણિક	-6387
FS	-6388
લુ	-6389
ૂપ	-6390
-88	-6391
log	-6392
str	-6393
ર્ધ	-6394
▁દસ	-6395
પશ્ચ	-6396
વાલો	-6397
▁ઊંઘ	-6398
▁છૂટ	-6399
▁છોડો	-6400
▁પાયે	-6401
ectors	-6402
▁needs	-6403
▁કારણો	-6404
▁શંઘાઇ	-6405
▁બુદ્ધિ	-6406
▁મૂર્તિ	-6407
▁વાર્ષિક	-6408
▁cameroon	-6409
▁શોધવામાં	-6410
ki	-6411
-18	-6412
las	-6413
▁SH	-6414
mand	-6415
▁દૂત	-6416
▁બફર	-6417
વિસ્ત	-6418
▁અજાણ	-6419
▁કાયમ	-6420
▁મકાન	-6421
▁સાચા	-6422
▁એન્ટર	-6423
▁ખસેડી	-6424
▁પ્રોસે	-6425
▁હોન્ડા	-6426
▁પ્રકારો	-6427
▁ક્લાઈન્ટ	-6428
▁અનલિમિટેડ	-6429
▁એપ્લિકેશન્સ	-6430
IG	-6431
PY	-6432
UL	-6433
દમ	-6434
ટનો	-6435
રાઈ	-6436
રેજ	-6437
izer	-6438
posh	-6439
ન્ટા	-6440
ified	-6441
પ્રભુ	-6442
▁આરંભ	-6443
▁ડોંગ	-6444
▁તારણ	-6445
▁લીધી	-6446
▁હોવો	-6447
પુરુષો	-6448
િયરિંગ	-6449
▁આધારે	-6450
▁કમિશન	-6451
▁ઘૂંટી	-6452
▁ધારકો	-6453
▁સ્ટેટ	-6454
▁કારણકે	-6455
▁જ્ઞાની	-6456
▁શક્યતા	-6457
▁છેલ્લું	-6458
97	-6459
KW	-6460
TJ	-6461
ote	-6462
ંટા	-6463
જ્જ	-6464
સાધ	-6465
સીએ	-6466
ોરિ	-6467
▁SA	-6468
1000	-6469
પિતા	-6470
્યાઓ	-6471
▁3.0	-6472
▁Rik	-6473
▁આખી	-6474
▁આડી	-6475
▁એમે	-6476
▁વેટ	-6477
▁વેર	-6478
=\\\\	-6479
etnam	-6480
older	-6481
્ડિંગ	-6482
▁cont	-6483
▁will	-6484
▁આમાં	-6485
▁કાંઈ	-6486
▁જાતિ	-6487
▁નવીન	-6488
ાઇનિંગ	-6489
▁આદર્શ	-6490
▁ટિપ્સ	-6491
▁હોસ્પ	-6492
▁કરવાથી	-6493
▁સમૃદ્ધ	-6494
▁દર્શાવવા	-6495
CN	-6496
OT	-6497
oto	-6498
raw	-6499
unn	-6500
ute	-6501
ally	-6502
કિંગ	-6503
ક્ષક	-6504
▁22,	-6505
▁રાત	-6506
▁લેટ	-6507
▁લૉગ	-6508
▁એકમો	-6509
▁europ	-6510
▁બાહ્ત	-6511
▁સહાયક	-6512
▁દિલગીર	-6513
▁સરકારી	-6514
▁સ્વચ્છ	-6515
▁આપવાનું	-6516
▁દેશોમાં	-6517
▁ફોરેક્સ	-6518
▁દૃશ્યમાન	-6519
▁પ્રબોધકો	-6520
▁ઇલેક્ટ્રિક	-6521
SM	-6522
ઈસુ	-6523
રીય	-6524
વિન	-6525
▁iP	-6526
▁આઠ	-6527
▁11,	-6528
▁123	-6529
▁MAX	-6530
▁sin	-6531
▁જાગ	-6532
▁પીસ	-6533
▁હાઈ	-6534
હાર્ટ	-6535
▁86-5	-6536
▁ટૂંક	-6537
▁મોટે	-6538
▁રક્ત	-6539
ritain	-6540
▁અગ્નિ	-6541
▁ટેસ્ટ	-6542
▁બેલ્ટ	-6543
▁સિલિક	-6544
▁ઉપયોગો	-6545
▁ડોમેઈન	-6546
▁શેનઝેન	-6547
▁Cryptocurrency	-6548
DB	-6549
ડક	-6550
ઓબી	-6551
લોગ	-6552
ાયલ	-6553
્ટા	-6554
ager	-6555
ages	-6556
ital	-6557
outh	-6558
અથવા	-6559
અનંત	-6560
ર્કી	-6561
▁ચલણ	-6562
મેટિક	-6563
▁માયા	-6564
▁કન્ટે	-6565
▁બ્લોસ	-6566
▁સરોવર	-6567
▁Please	-6568
▁અમારું	-6569
▁ડાઇનિંગ	-6570
▁યુક્રેન	-6571
▁Education	-6572
પેડ	-6573
મહે	-6574
▁02	-6575
▁2:	-6576
▁ભુ	-6577
▁rar	-6578
▁થકી	-6579
▁આવવા	-6580
▁વિજે	-6581
▁અવેજી	-6582
▁કોલેજ	-6583
▁સ્પીડ	-6584
▁દરવાજા	-6585
▁બ્લોસમ	-6586
▁વાપરેલ	-6587
▁સુધારી	-6588
▁Rikoooo	-6589
▁સ્ક્રિન	-6590
87	-6591
DC	-6592
TA	-6593
UN	-6594
Un	-6595
ષિ	-6596
Cal	-6597
eld	-6598
map	-6599
કલર	-6600
બધા	-6601
▁ખી	-6602
▁જળ	-6603
2020	-6604
3456	-6605
ડાના	-6606
ણિકા	-6607
નારા	-6608
▁20,	-6609
▁350	-6610
▁એલિ	-6611
▁ફોર	-6612
▁મમ્	-6613
▁રીસ	-6614
▁હરો	-6615
▁unit	-6616
▁આશરે	-6617
▁દલીલ	-6618
▁નવાં	-6619
▁બનવા	-6620
▁સાર્	-6621
▁અવગણો	-6622
▁ફ્લેગ	-6623
▁સ્પાય	-6624
usiness	-6625
▁શકાતું	-6626
▁સાથેના	-6627
▁Company	-6628
UAN	-6629
શાન	-6630
▁પં	-6631
.360	-6632
duct	-6633
એન્ડ	-6634
સ્કે	-6635
હીરા	-6636
▁અવય	-6637
▁કેલ	-6638
▁કોઠ	-6639
▁બીચ	-6640
▁ભંગ	-6641
એન્કર	-6642
▁એસેસ	-6643
▁ઓળખા	-6644
▁કાઢો	-6645
▁બર્ન	-6646
▁સુલભ	-6647
editor	-6648
▁કરતું	-6649
▁રહેતા	-6650
સુયોજિત	-6651
▁object	-6652
▁કન્સોલ	-6653
▁TabletWise	-6654
▁બિનઆધારભૂત	-6655
SA	-6656
Sh	-6657
ole	-6658
ભાઈ	-6659
▁42	-6660
▁AM	-6661
▁RO	-6662
▁ir	-6663
▁તૂ	-6664
▁નૈ	-6665
▁સચ	-6666
ર્ગી	-6667
્રીક	-6668
▁lib	-6669
▁આશી	-6670
▁બેસ	-6671
urkey	-6672
uxury	-6673
ક્ષરો	-6674
લીવ્ઝ	-6675
▁type	-6676
▁સંમત	-6677
▁સમાવ	-6678
બિલાડી	-6679
▁ક્લાય	-6680
ાવવામાં	-6681
▁rarely	-6682
▁એવોર્ડ	-6683
RS	-6684
ymb	-6685
રીપ	-6686
▁IN	-6687
▁વય	-6688
0.00	-6689
હાથી	-6690
્રામ	-6691
▁એનિ	-6692
▁કયા	-6693
ecoin	-6694
▁જાવા	-6695
▁ધાતુ	-6696
▁સ્ક્	-6697
▁ગુઆંગ	-6698
▁સામેલ	-6699
▁મનુષ્ય	-6700
▁ક્યારેક	-6701
▁સિલિકોન	-6702
ala	-6703
ોલી	-6704
▁Hu	-6705
aire	-6706
▁2.0	-6707
▁પુખ	-6708
▁બાથ	-6709
▁રબર	-6710
itics	-6711
ક્રોસ	-6712
લીકરણ	-6713
હોકાય	-6714
▁ઝેજી	-6715
▁ટાઇમ	-6716
▁૨૦૧૪	-6717
દેવદૂત	-6718
▁class	-6719
▁ખ્યાલ	-6720
▁ગાર્ડ	-6721
▁પરિચય	-6722
▁પ્રેસ	-6723
▁ફિલિપ	-6724
▁ભલામણ	-6725
વોટરકલર	-6726
▁ભૂમિકા	-6727
▁માણસના	-6728
▁શેનડોંગ	-6729
હોકાયંત્ર	-6730
▁એન્ટરપ્ર	-6731
▁તમારામાં	-6732
▁શૈક્ષણિક	-6733
1}	-6734
GA	-6735
WS	-6736
tk	-6737
રર	-6738
▁q	-6739
ane	-6740
jan	-6741
now	-6742
તીર	-6743
નોલ	-6744
▁59	-6745
▁યશ	-6746
▁વલ	-6747
▁૩૫	-6748
long	-6749
તેની	-6750
રીને	-6751
હેના	-6752
▁12,	-6753
▁21,	-6754
▁અરે	-6755
▁લશ્	-6756
exico	-6757
બેટ્સ	-6758
ભાવના	-6759
▁આર્ટ	-6760
▁ક્યુ	-6761
▁પ્રશ	-6762
▁ભૂલી	-6763
▁રોલર	-6764
▁વર્થ	-6765
▁કિનારી	-6766
▁ડિસ્કા	-6767
▁દ્રષ્ટ	-6768
▁રાખેલા	-6769
▁શબ્દકો	-6770
▁સપ્તાહ	-6771
▁હેન્ડલ	-6772
▁પ્રોસેસ	-6773
▁પાડવામાં	-6774
▁વાર્તાલાપ	-6775
પૂ	-6776
ask	-6777
ઇગલ	-6778
રાન	-6779
▁(3	-6780
▁41	-6781
▁અધ	-6782
▁ઝા	-6783
દિવસ	-6784
વાદી	-6785
ાયું	-6786
▁18,	-6787
ગુલાબ	-6788
વાહિક	-6789
▁જીતી	-6790
▁જોખમ	-6791
▁દ્રા	-6792
▁પેલા	-6793
▁મળેલ	-6794
કન્યાઓ	-6795
સ્પરિક	-6796
▁jetet	-6797
▁ચકાસી	-6798
▁પત્તા	-6799
▁એક્સટે	-6800
▁પ્લેયર	-6801
▁મૂળભુત	-6802
▁Playing	-6803
▁ક્રિસ્ટ	-6804
▁ન્યૂનતમ	-6805
▁વિચિત્ર	-6806
▁સંતુલિત	-6807
▁ક્રિપ્ટો	-6808
▁નિષ્કર્ષણ	-6809
▁ખ્રિસ્તમાં	-6810
@}	-6811
cM	-6812
gr	-6813
pg	-6814
sm	-6815
den	-6816
મીઓ	-6817
રણા	-6818
▁CS	-6819
▁MP	-6820
▁RF	-6821
▁જૈ	-6822
jack	-6823
ન્ટો	-6824
ફેધર	-6825
રાશિ	-6826
▁10:	-6827
▁16,	-6828
▁{@}	-6829
▁ડિફ	-6830
▁બુલ	-6831
ymbol	-6832
કમળના	-6833
દંપતિ	-6834
▁દૂતે	-6835
redhat	-6836
verter	-6837
મહેંદી	-6838
▁એકાંત	-6839
▁ઑગસ્ટ	-6840
▁મૂર્ખ	-6841
▁શાહીનો	-6842
interest	-6843
▁બજારમાં	-6844
▁લખવામાં	-6845
▁શિક્ષકો	-6846
▁પારસ્પરિક	-6847
anufacturer	-6848
Dv	-6849
cl	-6850
ૂફ	-6851
▁92	-6852
▁ar	-6853
cont	-6854
roll	-6855
ucus	-6856
ક્તા	-6857
▁17,	-6858
▁ટૅગ	-6859
▁ઠંડ	-6860
▁મજા	-6861
▁લિપ	-6862
▁સ્મ	-6863
lobal	-6864
ગુજરા	-6865
ત્રિમ	-6866
▁time	-6867
▁ચમત્	-6868
▁નોર્	-6869
્યાત્મ	-6870
▁તાકાત	-6871
▁દર્દી	-6872
▁મોલ્ડ	-6873
▁રંગીન	-6874
વ્યવહાર	-6875
▁દેખરેખ	-6876
▁રેડિયો	-6877
▁એસેસરીઝ	-6878
▁ઝેજીઆંગ	-6879
▁વિશ્વભર	-6880
▁Congress	-6881
81	-6882
9.	-6883
;,	-6884
lU	-6885
હર	-6886
gre	-6887
તરા	-6888
મેં	-6889
▁Ab	-6890
▁Sk	-6891
▁id	-6892
▁તિ	-6893
▁ધુ	-6894
TJcM	-6895
▁(8)	-6896
▁All	-6897
▁all	-6898
▁uri	-6899
▁બુટ	-6900
▁ભોગ	-6901
▁back	-6902
▁માઇલ	-6903
▁શાંત	-6904
TJcMlU	-6905
▁Again	-6906
▁short	-6907
▁સ્કાય	-6908
▁Caucus	-6909
▁સેકન્ડ	-6910
diTJcMlU	-6911
▁પોસ્ટનો	-6912
▁મંત્રણા	-6913
▁વધસ્તંભ	-6914
▁Politics	-6915
▁પરિશિષ્ટ	-6916
▁Congressional	-6917
▁italyprovince	-6918
no	-6919
વળ	-6920
ગમત	-6921
▁8:	-6922
▁ગઇ	-6923
ingd	-6924
ques	-6925
છાતી	-6926
વવું	-6927
▁10%	-6928
▁LTD	-6929
▁કોષ	-6930
▁ટેલ	-6931
▁ડિબ	-6932
▁મહા	-6933
▁લેક	-6934
ravel	-6935
▁કોસ્	-6936
▁ફેશન	-6937
▁રેતી	-6938
▁લડવા	-6939
▁વિતર	-6940
▁શકતો	-6941
સ્લીવ્ઝ	-6942
▁ચોકસાઇ	-6943
▁પ્રોમો	-6944
▁અધિકારી	-6945
▁આર્કાઇવ	-6946
▁official	-6947
,"	-6948
રોજ	-6949
વાળ	-6950
વીર	-6951
▁AS	-6952
▁en	-6953
time	-6954
ઓનું	-6955
્રીમ	-6956
▁પેચ	-6957
▁બોધ	-6958
▁મંગ	-6959
▁વિદ	-6960
▁પૂરા	-6961
ailand	-6962
▁Trans	-6963
▁અઠવાડ	-6964
▁અપલોડ	-6965
▁ફોટાઓ	-6966
િસ્ટ્રી	-6967
▁પ્રવાહ	-6968
▁રૂપિયા	-6969
▁કેટેગરી	-6970
▁આશીર્વાદ	-6971
▁અનુક્રમિત	-6972
▁ભવિષ્યમાં	-6973
▁ફોર્મ્યુલા	-6974
▁એન્ટરપ્રાઇઝ	-6975
પલ	-6976
મહ	-6977
-24	-6978
203	-6979
bar	-6980
une	-6981
▁Se	-6982
▁ડૉ	-6983
tive	-6984
ગરદન	-6985
વાનુ	-6986
▁ગુડ	-6987
▁ઘાટ	-6988
▁ટાઈ	-6989
▁view	-6990
▁ક્લે	-6991
▁ટ્વિ	-6992
▁પદ્દ	-6993
ન્ડર્ડ	-6994
▁MoHFW	-6995
▁ટાપુઓ	-6996
▁બદલાઈ	-6997
▁વિલંબ	-6998
▁શહેરો	-6999
▁કેન્ડી	-7000
▁તબક્કા	-7001
▁પ્રસન્ન	-7002
PA	-7003
da	-7004
-19	-7005
ફિલ	-7006
▁(4	-7007
▁Jin	-7008
▁ચામ	-7009
▁પેજ	-7010
▁આઇટી	-7011
▁મિશન	-7012
▁એફઓબી	-7013
▁પિતરે	-7014
▁કોઠારી	-7015
▁પેટર્ન	-7016
▁સાંભળો	-7017
▁General	-7018
▁પુસ્તકો	-7019
▁પ્રકૃતિ	-7020
▁પ્લાન્ટ	-7021
+.	-7022
dy	-7023
pm	-7024
hai	-7025
િના	-7026
▁PH	-7027
...]	-7028
ream	-7029
તમને	-7030
હાઉસ	-7031
▁જોબ	-7032
▁લેપ	-7033
▁વડી	-7034
▁શનિ	-7035
ેલ્વે	-7036
▁આપ્યા	-7037
▁ઉત્સા	-7038
▁ન્યૂઝ	-7039
▁ફાયદા	-7040
▁મળીને	-7041
▁ઇંગલિશ	-7042
▁દેવનું	-7043
▁માનસિક	-7044
▁વિજેતા	-7045
▁Minimum	-7046
▁National	-7047
▁Whatsapp	-7048
TM	-7049
59:	-7050
શોર	-7051
હવે	-7052
▁II	-7053
▁(19	-7054
▁RGB	-7055
▁Res	-7056
▁અલબ	-7057
▁બધુ	-7058
▁ભલે	-7059
▁મોજ	-7060
▁ગિયર	-7061
▁પાપી	-7062
▁હોડી	-7063
▁ઉકેલો	-7064
▁ખેંચો	-7065
▁ચોંટા	-7066
▁વર્તણ	-7067
▁સૂચનો	-7068
▁હસ્તા	-7069
▁અનુભવી	-7070
▁જગ્યાઓ	-7071
▁ટ્રાફિક	-7072
▁સંવાદમાં	-7073
▁લાઇબ્રેરી	-7074
6,	-7075
HD	-7076
122	-7077
met	-7078
ંધા	-7079
મૂળ	-7080
ફાઈલ	-7081
▁VPN	-7082
▁par	-7083
▁બચા	-7084
▁વળી	-7085
gmail	-7086
સ્વપ્	-7087
▁આપતુ	-7088
▁થઈને	-7089
▁બધાજ	-7090
▁બોટલ	-7091
▁ક્રિસ	-7092
▁પાઉડર	-7093
▁યુવાન	-7094
▁સપ્લા	-7095
▁ઓફલાઈન	-7096
▁જેટલું	-7097
.03.2019	-7098
▁સંગ્રહવા	-7099
▁Unlimited	-7100
▁ડિસ્કાઉન્ટ	-7101
▁અનુક્રમણિકા	-7102
!!	-7103
cn	-7104
ખે	-7105
ead	-7106
eel	-7107
tip	-7108
શનો	-7109
▁ટા	-7110
rush	-7111
જિંગ	-7112
નીંગ	-7113
▁12:	-7114
▁30,	-7115
▁GDM	-7116
▁ગાં	-7117
▁ગેલ	-7118
▁ઠરા	-7119
▁ઠીક	-7120
▁રવિ	-7121
▁વતી	-7122
▁કાપી	-7123
▁નિરી	-7124
▁યુઆન	-7125
▁હોંગ	-7126
બ્લ્યુ	-7127
▁build	-7128
▁આકૃતિ	-7129
▁ઉત્તે	-7130
▁દલીલો	-7131
▁britain	-7132
▁કૃત્રિમ	-7133
▁Pinterest	-7134
▁એક્સચેન્જ	-7135
▁વપરાશકર્તાનામ	-7136
UB	-7137
kw	-7138
ટિ	-7139
સમ	-7140
.10	-7141
113	-7142
વિલ	-7143
સર્	-7144
▁69	-7145
▁કૈ	-7146
થ્થા	-7147
પિયર	-7148
રૂપે	-7149
શ્રી	-7150
▁અગમ	-7151
▁આજુ	-7152
▁મેન	-7153
▁યાક	-7154
▁લેબ	-7155
orpor	-7156
કાર્ય	-7157
ૃષ્ટી	-7158
▁game	-7159
▁એકલા	-7160
▁કાપડ	-7161
▁નાનો	-7162
▁ફોર્ટ	-7163
▁યાજકો	-7164
▁હેક્સ	-7165
▁greece	-7166
▁પ્લેલી	-7167
▁વર્ષની	-7168
▁વોલ્યુ	-7169
▁સ્નાતક	-7170
▁ધ્યાનથી	-7171
DF	-7172
ઠ્	-7173
101	-7174
▁જણ	-7175
gram	-7176
size	-7177
ન્ને	-7178
માંક	-7179
▁Pay	-7180
▁ડેલ	-7181
ચેતીઓ	-7182
▁more	-7183
▁ગાળા	-7184
▁થાપણ	-7185
▁લોહી	-7186
વવાનું	-7187
▁ક્રોધ	-7188
▁ગ્રુપ	-7189
▁પુખ્ત	-7190
▁મુદ્દ	-7191
▁ખસેડવા	-7192
▁ગેલેરી	-7193
▁ટેલિફોન	-7194
▁દ્રાક્ષ	-7195
▁યહૂદિઓએ	-7196
▁રિપોર્ટ	-7197
▁ઇન્સ્ટોલ	-7198
▁Microsoft	-7199
▁ટ્રાન્સફર	-7200
ij	-7201
બદ	-7202
-25	-7203
નિશ	-7204
સભા	-7205
▁5.	-7206
▁56	-7207
▁9,	-7208
▁La	-7209
▁MS	-7210
▁SE	-7211
utes	-7212
માનો	-7213
સાથે	-7214
▁(3)	-7215
▁Aut	-7216
▁Get	-7217
▁ધણી	-7218
▁નજર	-7219
▁નાર	-7220
▁એચડી	-7221
▁વાહન	-7222
▁સસ્પ	-7223
કોમર્સ	-7224
▁કલર્સ	-7225
▁જુગાર	-7226
▁ધોરણો	-7227
▁વ્યૂહ	-7228
▁શેતાન	-7229
▁સિમોન	-7230
▁inmenu	-7231
▁દેખાશે	-7232
▁પેટન્ટ	-7233
??	-7234
BR	-7235
by	-7236
zo	-7237
Ind	-7238
▁૨૪	-7239
http	-7240
ન્જર	-7241
▁11:	-7242
▁એરો	-7243
▁મરી	-7244
ollow	-7245
▁Karn	-7246
▁ચૂકવ	-7247
▁મોની	-7248
▁28.00	-7249
▁થોડું	-7250
▁ડોંગગુ	-7251
▁પંચાળા	-7252
▁પદ્દતિ	-7253
▁પામ્યો	-7254
▁નકારાત્મક	-7255
▁પ્રોત્સાહન	-7256
▁translations	-7257
lu	-7258
ali	-7259
avi	-7260
ંકી	-7261
ગેજ	-7262
દના	-7263
રાય	-7264
ાયી	-7265
ેશર	-7266
▁$1	-7267
▁ઓલ	-7268
▁કબ	-7269
▁રણ	-7270
200,	-7271
ural	-7272
▁eur	-7273
▁એનો	-7274
▁ત્વ	-7275
0059:	-7276
CELEX	-7277
enter	-7278
ખોપરી	-7279
શ્ચિત	-7280
સેપ્ટ	-7281
સ્ટેટ	-7282
્વેતા	-7283
▁ગાલી	-7284
asonic	-7285
▁32001	-7286
▁ઓળખાય	-7287
▁ચાંદી	-7288
▁યહૂદા	-7289
▁વિષયો	-7290
▁હાજરી	-7291
નકૃષ્ટી	-7292
▁europa	-7293
▁અટકાવો	-7294
▁માંગણી	-7295
્યાત્મિક	-7296
▁License	-7297
▁જાપાનીઝ	-7298
▁ભારતમાં	-7299
▁અધિકારીઓ	-7300
▁Manufacturer	-7301
3-	-7302
SH	-7303
ઝો	-7304
opp	-7305
uan	-7306
કની	-7307
સોસ	-7308
િકી	-7309
▁૭૬	-7310
લ્બધ	-7311
▁%1$	-7312
▁API	-7313
▁આનો	-7314
▁દાય	-7315
▁બેડ	-7316
umber	-7317
▁પાડો	-7318
▁લાવે	-7319
▁વહાણ	-7320
▁સંગઠ	-7321
▁સ્કૂલ	-7322
▁સ્ટાફ	-7323
▁option	-7324
▁વિગતવાર	-7325
▁સ્થિતિને	-7326
▁એનક્રિપ્ટ	-7327
user	-7328
તાની	-7329
્લેખ	-7330
▁GTK	-7331
-2017	-7332
ambia	-7333
▁મીતા	-7334
▁લેશે	-7335
▁ક્રોસ	-7336
▁ચાર્ટ	-7337
angeset	-7338
▁આવેલું	-7339
▁કીરીંગ	-7340
▁નાંખવા	-7341
▁પોતાનો	-7342
▁શ્ર્વેતા	-7343
▁મીતાક્ષરો	-7344
▁મોટાભાગના	-7345
▁વહેંચાયેલ	-7346
dd	-7347
mes	-7348
જ્ઞ	-7349
સેક	-7350
▁CN	-7351
▁CR	-7352
▁લડ	-7353
ange	-7354
મેઇલ	-7355
▁ત્ર	-7356
▁વ્હ	-7357
્યોગો	-7358
▁tool	-7359
▁ફાળો	-7360
▁વળતર	-7361
ations	-7362
▁આંગળી	-7363
▁જર્સી	-7364
▁બુકમા	-7365
જનાત્મક	-7366
▁અમાન્ય	-7367
▁અલબત્ત	-7368
▁લાગ્યા	-7369
▁સાઇટનો	-7370
▁Edition	-7371
▁ભાષાંતર	-7372
સ્ક્રિપ્ટ	-7373
▁પોર્ટેબલ	-7374
▁એનક્રિપ્શન	-7375
▁વેલેન્ટાઇન	-7376
સ્વપ્નકૃષ્ટી	-7377
?’	-7378
rap	-7379
ક્વ	-7380
▁58	-7381
▁66	-7382
▁7.	-7383
▁GU	-7384
▁Ul	-7385
▁We	-7386
▁છા	-7387
▁ટચ	-7388
▁ધિ	-7389
ecur	-7390
read	-7391
અર્ધ	-7392
કાનો	-7393
હારા	-7394
▁1.2	-7395
▁130	-7396
▁24,	-7397
▁Day	-7398
▁કાઉ	-7399
નામાં	-7400
▁Best	-7401
▁ખાતુ	-7402
▁ટોનર	-7403
▁દૂતો	-7404
esktop	-7405
▁આવેલા	-7406
▁ઉલ્લેખ	-7407
▁કાઉન્ટ	-7408
▁કૉપિયર	-7409
atalonia	-7410
▁આજુબાજુ	-7411
▁ઉદ્યોગો	-7412
▁અગમચેતીઓ	-7413
▁ઓપરેટિંગ	-7414
▁કોંગ્રેસ	-7415
▁યુરોપિયન	-7416
▁વસ્તુઓને	-7417
CL	-7418
gh	-7419
755	-7420
uth	-7421
માસ	-7422
▁To	-7423
▁Up	-7424
2005	-7425
400,	-7426
urch	-7427
ડાની	-7428
ડીને	-7429
ર્જી	-7430
લીંગ	-7431
વાને	-7432
▁%2$	-7433
▁0.1	-7434
▁દૂધ	-7435
▁પૂં	-7436
▁શકી	-7437
▁સીઇ	-7438
પ્રૂફ	-7439
▁2008	-7440
▁Java	-7441
baijan	-7442
પમેન્ટ	-7443
▁Video	-7444
▁color	-7445
▁ડેવિડ	-7446
▁પ્લેન	-7447
▁Karnar	-7448
▁અવેજીઓ	-7449
▁ઉદ્ભવી	-7450
▁નોટબુક	-7451
▁બિનયહૂ	-7452
▁માસ્ટર	-7453
▁Machine	-7454
▁માન્યતા	-7455
▁સ્ટ્રોક	-7456
▁કેન્દ્રો	-7457
▁સ્ક્રીનશોટ	-7458
UD	-7459
મૅ	-7460
રજ	-7461
ION	-7462
દું	-7463
▁(5	-7464
▁47	-7465
lack	-7466
▁અંદ	-7467
▁આથી	-7468
razil	-7469
▁2009	-7470
▁કરોડ	-7471
arques	-7472
ermany	-7473
ટાટ્ટો	-7474
▁media	-7475
▁આશ્રય	-7476
▁યશાયા	-7477
▁વાસના	-7478
▁પહોળાઇ	-7479
▁લેખમાં	-7480
▁લેપટોપ	-7481
▁ખેલાડીઓ	-7482
▁ફાઈલનું	-7483
▁મુદ્દાઓ	-7484
અર્ધવિરામ	-7485
▁પ્રમાણિત	-7486
▁હોસ્પિટલ	-7487
▁comarques	-7488
▁સોનાટાટ્ટો	-7489
An	-7490
GP	-7491
/09	-7492
112	-7493
ont	-7494
હોન	-7495
▁we	-7496
▁કમ	-7497
▁Mag	-7498
▁આછો	-7499
▁પાઠ	-7500
ધાન્ય	-7501
▁સજ્જ	-7502
onesia	-7503
▁Patel	-7504
▁ગાલીલ	-7505
▁તળિયે	-7506
▁રસ્તો	-7507
▁શરુઆત	-7508
▁નવીનતમ	-7509
▁વર્ષથી	-7510
▁ગોઠવણીઓ	-7511
▁ચોકઠાંઓ	-7512
▁ઈન્ટરફેસ	-7513
▁એકબીજાને	-7514
▁સ્પીનોની	-7515
▁Blackjack	-7516
▁જાણકારીને	-7517
▁વ્યૂહરચના	-7518
▁આધ્યાત્મિક	-7519
▁પ્રક્રિયાઓ	-7520
08	-7521
Pl	-7522
કં	-7523
પૃ	-7524
વૃ	-7525
-07	-7526
-22	-7527
PBF	-7528
▁9:	-7529
▁Co	-7530
▁MC	-7531
dial	-7532
ટીસી	-7533
રેશન	-7534
▁ઘેટ	-7535
▁નેર	-7536
્રેસર	-7537
▁ગાળક	-7538
▁ઠંડા	-7539
▁મતલબ	-7540
▁કોલ્સ	-7541
▁નમૂનો	-7542
▁ફરિયા	-7543
▁વીજળી	-7544
▁વેચવા	-7545
▁સોનું	-7546
vietnam	-7547
▁એમેઝોન	-7548
▁રહેવું	-7549
▁Slotjar	-7550
▁એકત્રિત	-7551
▁વસ્ત્રો	-7552
▁સપ્લાયર	-7553
▁ચોક્કસપણે	-7554
▁philippines	-7555
ઝિ	-7556
.06	-7557
fig	-7558
વાઇ	-7559
▁ટન	-7560
▁નુ	-7561
ંજૂર	-7562
ૉલ્ટ	-7563
▁25,	-7564
yahoo	-7565
ચિત્ર	-7566
ર્ક્સ	-7567
▁Text	-7568
▁list	-7569
▁લેવી	-7570
▁વાલા	-7571
▁વિજય	-7572
▁સર્ક	-7573
▁આલ્બમ	-7574
▁નામની	-7575
▁વૃદ્ધ	-7576
▁સોર્સ	-7577
▁શિક્ષક	-7578
ribution	-7579
▁વેલ્ડિંગ	-7580
▁કર્મચારીઓ	-7581
▁વિચાર્યું	-7582
▁સ્ટાન્ડર્ડ	-7583
MR	-7584
-14	-7585
-50	-7586
eer	-7587
ose	-7588
par	-7589
લીક	-7590
ાંડ	-7591
ંડોળ	-7592
બંધી	-7593
શિંગ	-7594
▁26,	-7595
▁ટોપ	-7596
▁ફોક	-7597
▁સન્	-7598
aters	-7599
ertor	-7600
ળામાં	-7601
સ્પેસ	-7602
▁કિંગ	-7603
▁પુરા	-7604
▁પ્રત	-7605
▁બોલે	-7606
▁વિડી	-7607
▁શંકા	-7608
▁તત્વો	-7609
▁લેઆઉટ	-7610
▁વર્ગો	-7611
▁નાગરિક	-7612
ertorico	-7613
▁પૂછ્યું	-7614
▁વર્કઆઉટ	-7615
▁કર્મચારી	-7616
▁અલ્ટ્રાસાઉન્ડ	-7617
ક્ઝ	-7618
સની	-7619
સેલ	-7620
▁Mo	-7621
▁ઉભ	-7622
▁ડર	-7623
▁રન	-7624
▁શણ	-7625
250,	-7626
hare	-7627
hift	-7628
દાયક	-7629
ભૂમિ	-7630
રેખા	-7631
વર્ટ	-7632
▁15,	-7633
▁our	-7634
▁ઉડા	-7635
▁ટું	-7636
▁તુલ	-7637
▁પશુ	-7638
▁હરા	-7639
ducts	-7640
▁1903	-7641
▁અસ્થ	-7642
▁ગરીબ	-7643
ervice	-7644
▁Watch	-7645
▁જાપાન	-7646
▁ટેટૂસ	-7647
▁ફ્લેશ	-7648
▁રોબોટ	-7649
▁શૂન્ય	-7650
▁સાંભળે	-7651
▁અમલીકરણ	-7652
▁આગેવાનો	-7653
BS	-7654
▁ઐ	-7655
Com	-7656
orm	-7657
way	-7658
અંત	-7659
▁51	-7660
▁ઉડ	-7661
▁મૈ	-7662
zhou	-7663
▁સૌર	-7664
▁હુક	-7665
ories	-7666
▁ઇન્ટ	-7667
▁એનકોડ	-7668
▁દાયકા	-7669
▁વાપરે	-7670
▁સંતોષ	-7671
▁મૂક્યો	-7672
▁કામદારો	-7673
▁કિબોર્ડ	-7674
▁નેરોલેક	-7675
▁રાષ્ટ્ર	-7676
▁પ્રતિનિધ	-7677
▁ભાગીદારી	-7678
▁કાર્યક્ષમ	-7679
▁હસ્તાક્ષર	-7680
▁કોર્પોરેશન	-7681
▁સર્જનાત્મક	-7682
થો	-7683
110	-7684
its	-7685
િટે	-7686
▁PA	-7687
Poss	-7688
play	-7689
પેપર	-7690
વમાં	-7691
ાળાઓ	-7692
િયાર	-7693
▁Top	-7694
▁તેટ	-7695
▁દાઉ	-7696
▁બાય	-7697
▁બાલ	-7698
શોલ્ડ	-7699
હાત્મ	-7700
▁યાજક	-7701
issions	-7702
સ્ક્રીન	-7703
▁ખાતાને	-7704
▁પીડીએફ	-7705
▁પ્રેશર	-7706
▁સર્વરો	-7707
▁સાક્ષી	-7708
▁ટ્રાન્ઝ	-7709
▁દિશામાં	-7710
▁પદ્ધતિઓ	-7711
▁ફોર્મેટ	-7712
▁સ્ક્વેર	-7713
▁કિસ્સામાં	-7714
philippines	-7715
93	-7716
aj	-7717
cr	-7718
fi	-7719
દૂ	-7720
the	-7721
વધુ	-7722
▁pr	-7723
ards	-7724
icon	-7725
ાંકી	-7726
▁ટેપ	-7727
▁ધપા	-7728
▁માઈ	-7729
▁મોઢ	-7730
▁હિલ	-7731
▁કોઈક	-7732
▁તેવો	-7733
▁લાભો	-7734
essive	-7735
france	-7736
rivate	-7737
▁પોપઅપ	-7738
▁વિધાન	-7739
▁રમતગમત	-7740
NamePoss	-7741
▁પ્રેરણા	-7742
▁લાગ્યું	-7743
▁શિક્ષિત	-7744
NamePossessive	-7745
TE	-7746
dis	-7747
trl	-7748
નને	-7749
સીસ	-7750
ાગો	-7751
િયસ	-7752
▁AB	-7753
assw	-7754
shop	-7755
▁750	-7756
▁XXX	-7757
▁આંધ	-7758
ગ્લાસ	-7759
▁hack	-7760
▁true	-7761
▁આઇટમ	-7762
▁એમબી	-7763
▁ઓળખી	-7764
▁કોન્	-7765
▁ગીતો	-7766
▁મેસે	-7767
▁અંકિત	-7768
▁દરિયા	-7769
▁નેશનલ	-7770
▁માગતા	-7771
▁સ્વિચ	-7772
▁ઉપલ્બધ	-7773
▁કમ્પ્યુ	-7774
▁પ્રોટીન	-7775
▁ભગવાનની	-7776
▁મનોરંજન	-7777
▁modified	-7778
▁થ્રેશોલ્ડ	-7779
▁પ્રાધાન્ય	-7780
GG	-7781
IM	-7782
રસ	-7783
itt	-7784
મના	-7785
ોલ્	-7786
▁no	-7787
▁કળ	-7788
orth	-7789
unic	-7790
શિયલ	-7791
▁000	-7792
▁અહિ	-7793
▁ચેર	-7794
▁જમા	-7795
▁યુગ	-7796
▁હૂક	-7797
▁તાજા	-7798
▁નામે	-7799
▁લેખો	-7800
▁હ્યુ	-7801
▁આગાહી	-7802
▁ઉપનામ	-7803
▁જથ્થા	-7804
▁મહિને	-7805
▁વ્યભિ	-7806
▁પહોંચા	-7807
▁વર્ષનો	-7808
▁મારામાં	-7809
▁માહાત્મ	-7810
▁રુપરેખાંક	-7811
▁ઓસ્ટ્રેલિયા	-7812
▁સ્પર્ધાત્મક	-7813
83	-7814
;/	-7815
CD	-7816
mg	-7817
900	-7818
દંડ	-7819
શોપ	-7820
▁3:	-7821
▁52	-7822
▁SP	-7823
-100	-7824
તાનો	-7825
નાબા	-7826
▁Mac	-7827
▁ટૅબ	-7828
tific	-7829
▁વાઇન	-7830
▁1703,	-7831
▁8250,	-7832
▁8400,	-7833
▁9200,	-7834
▁Power	-7835
▁State	-7836
▁નંબરો	-7837
▁બેન્ક	-7838
▁બ્રિજ	-7839
ર્યાદિત	-7840
▁ગેરકાય	-7841
▁નોકરીઓ	-7842
▁ભાગમાં	-7843
▁જોડાણને	-7844
▁પાસફ્રે	-7845
▁પ્રવેશો	-7846
▁Language	-7847
▁હકીકતમાં	-7848
▁ઇન્જેક્શન	-7849
05	-7850
KG	-7851
ૃહ	-7852
Jar	-7853
dev	-7854
ern	-7855
ઇંગ	-7856
ખંડ	-7857
જિન	-7858
પાન	-7859
લીન	-7860
ાઉલ	-7861
▁..	-7862
▁My	-7863
test	-7864
umbl	-7865
ક્રા	-7866
તાના	-7867
મેશા	-7868
શાળા	-7869
▁29,	-7870
▁org	-7871
▁જતો	-7872
▁હોવ	-7873
babwe	-7874
perty	-7875
▁With	-7876
▁word	-7877
▁એસએમ	-7878
▁જોશો	-7879
▁પરની	-7880
▁પૈકી	-7881
▁બોલી	-7882
▁રોકડ	-7883
▁વિરુ	-7884
essage	-7885
▁1507,	-7886
▁1511,	-7887
▁1607,	-7888
▁1709,	-7889
▁1803,	-7890
▁1809,	-7891
▁લાંબો	-7892
imbabwe	-7893
બ્સ્ક્ર	-7894
▁જીએસટી	-7895
▁ક્ષેત્રમાં	-7896
▁ગીતશાસ્ત્ર	-7897
ડુ	-7898
ઝિન	-7899
ૌરા	-7900
▁AT	-7901
▁Av	-7902
▁જલ	-7903
ંદુર	-7904
ટ્રે	-7905
▁900	-7906
▁Col	-7907
▁VPS	-7908
▁અસા	-7909
▁કુર	-7910
▁છુપ	-7911
▁નોડ	-7912
▁ફરજ	-7913
▁ફર્	-7914
▁વંશ	-7915
india	-7916
▁"{0}	-7917
▁year	-7918
▁જોડો	-7919
▁સ્ટુ	-7920
▁2019.	-7921
▁China	-7922
▁અતિશય	-7923
▁અપરાધ	-7924
▁ગ્રીન	-7925
▁થયેલા	-7926
▁123456	-7927
▁ઈતિહાસ	-7928
▁નુકશાન	-7929
▁સમયસમા	-7930
▁સ્નાયુ	-7931
▁SlotJar	-7932
▁ડિફૉલ્ટ	-7933
▁પાર્ટ્સ	-7934
▁વિચારું	-7935
▁નિરીક્ષણ	-7936
▁પ્લેલીસ્ટ	-7937
▁વોટરપ્રૂફ	-7938
▁સ્માર્ટફોન	-7939
eu	-7940
ha	-7941
ાન	-7942
★★	-7943
ams	-7944
era	-7945
orr	-7946
uct	-7947
ટુથ	-7948
ડબલ	-7949
તના	-7950
હેબ	-7951
▁It	-7952
▁LD	-7953
▁ધન	-7954
▁ભજ	-7955
orts	-7956
વર્ક	-7957
▁101	-7958
▁450	-7959
▁720	-7960
▁Eth	-7961
▁set	-7962
▁અદ્	-7963
▁ઇકો	-7964
▁તકો	-7965
▁બુધ	-7966
▁ભ્ર	-7967
▁સિમ	-7968
▁week	-7969
▁કોઇલ	-7970
▁©2005	-7971
▁જોડાઈ	-7972
▁સર્વો	-7973
▁આકર્ષક	-7974
▁કનેક્ટ	-7975
▁પ્રસંગ	-7976
▁મેડિકલ	-7977
▁મૂકવામાં	-7978
▁ખ્રિસ્તની	-7979
▁©2005-2018	-7980
▁અભ્યાસક્રમ	-7981
FF	-7982
FL	-7983
્જ	-7984
-13	-7985
rid	-7986
tes	-7987
ડરલ	-7988
સુર	-7989
ાવર	-7990
િંક	-7991
▁la	-7992
▁sc	-7993
ices	-7994
ucks	-7995
જીંગ	-7996
િટાર	-7997
▁(2,	-7998
▁14,	-7999
▁GNU	-8000
▁હુમ	-8001
ustom	-8002
▁સીએસ	-8003
▁સીટી	-8004
▁આપણું	-8005
▁કાન્સ	-8006
▁પાછું	-8007
▁યુએસએ	-8008
▁અમલમાં	-8009
▁એક્સેસ	-8010
▁પાઉલને	-8011
▁બદલાવો	-8012
▁મહેમાન	-8013
▁સંઘર્ષ	-8014
▁બદલાયેલ	-8015
▁સમયગાળો	-8016
▁ક્ષેત્રો	-8017
▁પ્રોસેસર	-8018
▁શુક્રવાર	-8019
▁યરૂશાલેમમાં	-8020
MI	-8021
ek	-8022
▁ગમ	-8023
▁સગ	-8024
▁૨૧	-8025
----	-8026
ider	-8027
iles	-8028
ગત્ય	-8029
લગ્ન	-8030
શ્કે	-8031
▁Car	-8032
▁ITC	-8033
▁Off	-8034
▁PCI	-8035
▁કોચ	-8036
▁મિસ	-8037
▁વડા	-8038
Color	-8039
કાસ્ટ	-8040
િમાઇઝ	-8041
▁Porn	-8042
▁કડીઓ	-8043
▁તારે	-8044
▁ભાગે	-8045
▁વચનો	-8046
જ્યારે	-8047
▁અગત્ય	-8048
▁પછીથી	-8049
▁પાડેલ	-8050
▁મેળવે	-8051
▁ઈકોમર્સ	-8052
▁તાજેતરના	-8053
▁બાર્નાબા	-8054
▁રાજ્યમાં	-8055
▁વ્યભિચાર	-8056
▁ગુઆંગડોંગ	-8057
▁ન્યૂનત્તમ	-8058
▁પાસવર્ડને	-8059
▁રીસોર્ટ્સ	-8060
કૃ	-8061
/10	-8062
ટરી	-8063
પોલ	-8064
▁Cl	-8065
▁(24	-8066
▁0.9	-8067
▁ઓછો	-8068
▁ચૂંટ	-8069
▁પાપો	-8070
▁મેગ્	-8071
▁સફાઈ	-8072
▁અંદાજ	-8073
▁ઉર્જા	-8074
▁જરુરી	-8075
▁જર્મન	-8076
▁ત્વચા	-8077
▁પ્રમો	-8078
▁ગુણ્યા	-8079
▁ધરાવતા	-8080
▁પ્રવેગ	-8081
▁સહભાગી	-8082
trasonic	-8083
▁દર્શાવી	-8084
▁બ્રિટિશ	-8085
▁વ્યક્તિઓ	-8086
▁ટેક્નોલોજી	-8087
KR	-8088
ઈઝ	-8089
get	-8090
lam	-8091
uid	-8092
મની	-8093
શીટ	-8094
િમી	-8095
▁NO	-8096
ઝિંગ	-8097
લિંગ	-8098
ોકટી	-8099
▁Cro	-8100
▁LLC	-8101
▁Man	-8102
▁Par	-8103
▁dev	-8104
▁થતો	-8105
વરણીય	-8106
▁ખેતર	-8107
▁ડ્રા	-8108
▁માથા	-8109
▁મૂકે	-8110
▁શકાઈ	-8111
▁સાઈટ	-8112
▁[...]	-8113
▁ઈશ્વર	-8114
▁કહેશે	-8115
▁ક્લાસ	-8116
▁ગિટાર	-8117
▁જેટલી	-8118
▁યાકૂબ	-8119
▁વર્તન	-8120
▁સવારે	-8121
▁સાંકળ	-8122
itecoin	-8123
▁અત્યાર	-8124
▁કટોકટી	-8125
▁મદદરૂપ	-8126
▁શિકાગો	-8127
▁સ્ટોરી	-8128
▁સ્પર્શ	-8129
▁ચૂકવણું	-8130
▁પ્રત્યુ	-8131
▁મહત્વની	-8132
▁સ્કાયપે	-8133
▁ટ્રેડમિલ	-8134
▁વ્યક્તિએ	-8135
▁સબ્સ્ક્ર	-8136
▁યાદીમાંથી	-8137
na	-8138
ેડ	-8139
-60	-8140
બેર	-8141
રિસ	-8142
વતા	-8143
સ્ફ	-8144
pack	-8145
કેશન	-8146
સ્સો	-8147
▁***	-8148
▁Acc	-8149
▁day	-8150
▁ભેજ	-8151
umblr	-8152
ક્ષ્મ	-8153
ફોર્ડ	-8154
બિંદુ	-8155
રોમાં	-8156
▁1200	-8157
▁Read	-8158
▁કતાર	-8159
▁ડીજે	-8160
▁નેનો	-8161
▁પાયા	-8162
▁બટનો	-8163
▁મેરી	-8164
▁લાખો	-8165
▁હરોળ	-8166
google	-8167
▁sonic	-8168
▁આગ્રહ	-8169
▁ઉશ્કે	-8170
▁ગેરહા	-8171
▁નામને	-8172
▁સ્કોર	-8173
ecurity	-8174
વિસ્તાર	-8175
▁જાળવણી	-8176
▁હોવાથી	-8177
/09/2019	-8178
▁2018-10	-8179
▁જાણ્યું	-8180
▁પ્રખ્યાત	-8181
▁પ્રતિબંધ	-8182
▁દુનિયામાં	-8183
?"	-8184
UE	-8185
yd	-8186
▁o	-8187
-09	-8188
SON	-8189
ict	-8190
▁Le	-8191
engt	-8192
પ્રો	-8193
▁Aug	-8194
▁આદર	-8195
ereum	-8196
શ્ર્વ	-8197
હિત્ય	-8198
▁ક્રો	-8199
▁પ્રજા	-8200
▁ફેડરલ	-8201
▁બંધબે	-8202
▁બન્યા	-8203
▁સ્તરે	-8204
▁સ્વીડ	-8205
▁મિનિટો	-8206
▁ચોંટાડો	-8207
▁પ્રાણીઓ	-8208
▁ક્રિયાને	-8209
▁પ્રતિસાદ	-8210
AI	-8211
pt	-8212
ખુ	-8213
સલ	-8214
OWN	-8215
USD	-8216
ags	-8217
બિલ	-8218
વેબ	-8219
▁57	-8220
9001	-8221
ench	-8222
ડેટા	-8223
ર્મા	-8224
▁13,	-8225
▁4.0	-8226
▁Met	-8227
▁Val	-8228
▁has	-8229
▁sup	-8230
▁૧૦૦	-8231
break	-8232
▁ક્વા	-8233
▁પેસે	-8234
▁સાજો	-8235
કેટલાક	-8236
▁"{0}"	-8237
▁કોર્ટ	-8238
▁ખાતું	-8239
▁ઘેટાં	-8240
▁નાખવા	-8241
▁પડકાર	-8242
▁પ્રીમ	-8243
▁સ્કેલ	-8244
▁અંધકાર	-8245
▁કેનેડા	-8246
▁ધરાવતી	-8247
▁વ્યક્ત	-8248
▁સંકલિત	-8249
▁જવાબદાર	-8250
▁લાઈસન્સ	-8251
▁સંગ્રહપ	-8252
▁Ethereum	-8253
▁કોસ્મેટિક	-8254
▁પ્રકારનું	-8255
:1	-8256
HE	-8257
RP	-8258
md	-8259
roc	-8260
uch	-8261
xxx	-8262
▁EX	-8263
બારી	-8264
સીંગ	-8265
▁Sar	-8266
▁ઉપજ	-8267
▁ગલન	-8268
644\@	-8269
other	-8270
▁ઝેરી	-8271
▁ડીવી	-8272
▁મલ્ટ	-8273
▁great	-8274
▁જ્હોન	-8275
▁તેમનો	-8276
▁સાર્વ	-8277
▁છેલ્લો	-8278
▁મેન્યુ	-8279
▁વર્ષના	-8280
▁મિશ્રિત	-8281
▁સમાપ્તિ	-8282
▁પેઇન્ટ્સ	-8283
વડ	-8284
220	-8285
VAC	-8286
pol	-8287
tra	-8288
કરો	-8289
લાય	-8290
સીબ	-8291
▁("	-8292
▁.:	-8293
▁DN	-8294
▁PP	-8295
▁ચૂ	-8296
avig	-8297
ours	-8298
ouse	-8299
િકરણ	-8300
િશનલ	-8301
▁Sol	-8302
asino	-8303
title	-8304
▁ઇમેલ	-8305
▁ધ્યે	-8306
▁રિલે	-8307
▁રૂબલ	-8308
▁ખરીદે	-8309
▁તમારુ	-8310
▁પડ્યો	-8311
▁ફ્રોમ	-8312
▁મરિયમ	-8313
▁મૂકવા	-8314
ગુજરાતી	-8315
▁ઘટાડવા	-8316
▁લેવાની	-8317
▁વધારાના	-8318
▁શેરીઓમાં	-8319
▁ભૂતકાળમાં	-8320
▁ઇલેક્ટ્રોનિક્સ	-8321
04	-8322
yg	-8323
-28	-8324
dit	-8325
sur	-8326
જેટ	-8327
iece	-8328
ipal	-8329
olom	-8330
દાતા	-8331
ષ્ઠા	-8332
▁any	-8333
▁use	-8334
▁આની	-8335
▁કબર	-8336
▁જુન	-8337
▁ટિક	-8338
▁ધૂળ	-8339
▁પાળ	-8340
asero	-8341
atuit	-8342
image	-8343
▁અપાર	-8344
▁એકદમ	-8345
▁તણાવ	-8346
▁ફાર્	-8347
▁બ્લે	-8348
▁લપેટ	-8349
▁શરું	-8350
▁જીવતા	-8351
▁વસ્તી	-8352
▁વ્યાજ	-8353
▁સમજવા	-8354
dialogs	-8355
▁આઉટડોર	-8356
▁ટ્રેઇલ	-8357
▁દુકાનો	-8358
▁રાજકીય	-8359
▁Gujarat	-8360
▁વર્તણૂક	-8361
▁Business	-8362
▁દિવસોમાં	-8363
▁ટેટૂઝકમળના	-8364
▁વિશ્વભરમાં	-8365
ુન	-8366
Pir	-8367
imp	-8368
ઝેડ	-8369
▁!!	-8370
▁સળ	-8371
atic	-8372
▁0.2	-8373
▁એપલ	-8374
▁ખૂલ	-8375
▁ડિક	-8376
▁રસી	-8377
Ghost	-8378
સાધનો	-8379
્યુલો	-8380
▁ક્ષણ	-8381
▁થોમસ	-8382
▁પુષ્	-8383
▁વેલ્	-8384
▁આવ્યુ	-8385
▁ઇન્ડો	-8386
▁પર્વત	-8387
▁સમાવી	-8388
▁સર્જન	-8389
▁ઓનલાઈન	-8390
▁ટાઇલ્સ	-8391
ઝોલ્યુશન	-8392
▁વસ્તુને	-8393
▁ટેટૂઝઆંખ	-8394
▁હિસ્ટ્રી	-8395
ermissions	-8396
▁ટેટૂઝપાછળ	-8397
fs	-8398
oe	-8399
તલ	-8400
તૃ	-8401
98%	-8402
uck	-8403
જોગ	-8404
નરલ	-8405
ભાષ	-8406
લ્ગ	-8407
▁7:	-8408
▁GP	-8409
વર્ત	-8410
શ્યો	-8411
સ્સે	-8412
▁અબજ	-8413
▁કિટ	-8414
▁ચીટ	-8415
▁પાક	-8416
▁પુર	-8417
▁સંર	-8418
/2018	-8419
Image	-8420
ample	-8421
મિનાર	-8422
▁પ્યા	-8423
▁મિરર	-8424
▁સાચો	-8425
▁કાસ્ટ	-8426
▁મિલકત	-8427
▁શીખવા	-8428
▁સ્વિસ	-8429
▁મેનેજર	-8430
▁સાયન્સ	-8431
unicipal	-8432
▁Gratuit	-8433
▁કાન્સાઇ	-8434
▁સાહિત્ય	-8435
avigation	-8436
▁ઑબ્જેક્ટ	-8437
▁ટેટૂઝપુરુષો	-8438
HC	-8439
ંકર	-8440
ઝિલ	-8441
લાલ	-8442
▁DC	-8443
▁Or	-8444
2000	-8445
ન્ડન	-8446
સમાં	-8447
▁કોય	-8448
▁રમો	-8449
▁અપના	-8450
▁કેલ્	-8451
▁પીપી	-8452
▁ભવ્ય	-8453
▁રિંગ	-8454
▁હસ્ત	-8455
▁હેલ્	-8456
▁2019,	-8457
▁check	-8458
▁વત્તા	-8459
Pirater	-8460
▁અપૂર્ણ	-8461
▁ટ્રસ્ટ	-8462
▁દિવસની	-8463
▁પાછળથી	-8464
▁રજિસ્ટ	-8465
▁હાથમાં	-8466
.04.2019	-8467
ailbreak	-8468
▁ડ્રાઈવર	-8469
▁ક્લાયન્ટ	-8470
▁બુકમાર્કો	-8471
▁માહાત્મ્ય	-8472
AA	-8473
ચક	-8474
NUM	-8475
ecu	-8476
use	-8477
ંસા	-8478
કાલ	-8479
જોડ	-8480
▁77	-8481
▁ઊઠ	-8482
help	-8483
ical	-8484
ican	-8485
જોને	-8486
ટાવો	-8487
વાહી	-8488
▁ind	-8489
▁ઉપા	-8490
▁કેન	-8491
▁રેખ	-8492
▁આપણો	-8493
▁આપીએ	-8494
▁ઉદ્ધ	-8495
▁બંદર	-8496
symbol	-8497
ડબલ્યુ	-8498
▁32.00	-8499
▁આવીને	-8500
▁થવાની	-8501
▁દિવાલ	-8502
▁રેટેડ	-8503
ukraine	-8504
▁ડ્રાઈવ	-8505
▁દ્ધારા	-8506
▁પોઇન્ટ	-8507
▁મહારાજ	-8508
▁માણસનો	-8509
▁બ્લુટુથ	-8510
▁વહેંચણી	-8511
▁પરિપૂર્ણ	-8512
▁ગ્રાહકોને	-8513
▁ટેટૂઝફેધર	-8514
▁પ્રદેશમાં	-8515
▁સંપર્કોને	-8516
▁વર્તમાનમાં	-8517
▁ટ્રાન્ઝિશનલ	-8518
DT	-8519
TL	-8520
fe	-8521
wt	-8522
ધે	-8523
elo	-8524
esc	-8525
ham	-8526
lor	-8527
થાન	-8528
દૂર	-8529
સામ	-8530
▁ઘો	-8531
back	-8532
cher	-8533
ટાઇમ	-8534
▁700	-8535
▁LTC	-8536
▁કણો	-8537
▁દુઃ	-8538
▁પેલ	-8539
▁વધે	-8540
▁વેગ	-8541
▁હેલ	-8542
▁હોડ	-8543
ethod	-8544
▁0.00	-8545
▁ચરબી	-8546
▁મીની	-8547
▁મૂડી	-8548
russia	-8549
એનએક્સ	-8550
▁કલાકો	-8551
▁કાયમી	-8552
▁ચંદ્ર	-8553
▁તંદુર	-8554
▁ભંડોળ	-8555
▁રહેલા	-8556
▁વહીવટ	-8557
▁વિનાશ	-8558
▁વ્હીલ	-8559
▁હત્યા	-8560
assword	-8561
▁ફરિયાદ	-8562
▁મમ્મીએ	-8563
▁વિકસિત	-8564
▁વેપારી	-8565
▁કન્વર્ટ	-8566
▁પ્રસ્તુ	-8567
▁પ્રેમીઓ	-8568
▁સંશોધકો	-8569
▁ટેટૂઝતીર	-8570
▁સ્ટેનલેસ	-8571
▁બંધારણમાં	-8572
▁અભ્યાસક્રમો	-8573
Constellation	-8574
yb	-8575
ym	-8576
MHZ	-8577
મીર	-8578
વીએ	-8579
ાઇબ	-8580
▁Ob	-8581
▁TS	-8582
NAME	-8583
bert	-8584
raft	-8585
ઝુકી	-8586
≥98%	-8587
▁કડક	-8588
▁ફોલ	-8589
▁સદા	-8590
econd	-8591
રામિક	-8592
▁IMAP	-8593
▁રજાઓ	-8594
▁સમાર	-8595
▁સ્વે	-8596
▁ઊંચાઇ	-8597
▁પછીના	-8598
▁ફાયરફ	-8599
▁ફ્લોર	-8600
▁સોફ્ટ	-8601
symbols	-8602
▁પિલાતે	-8603
▁મુદ્દો	-8604
▁રાજ્યો	-8605
▁ફાઈલમાં	-8606
▁ફેબ્રિક	-8607
▁2011-201	-8608
▁જાહેરાતો	-8609
▁પુનઃપ્રા	-8610
▁ટેટૂઝઅનંત	-8611
▁ટેટૂઝગરદન	-8612
▁ટેટૂઝહેના	-8613
▁તાજેતરમાં	-8614
▁વિસ્તારોમાં	-8615
AM	-8616
320	-8617
ISO	-8618
ડીઇ	-8619
દિઓ	-8620
પ્લ	-8621
▁54	-8622
▁CL	-8623
▁MO	-8624
▁કઇ	-8625
▁તૃ	-8626
▁નબ	-8627
▁૫૩	-8628
rade	-8629
ંબલી	-8630
▁140	-8631
▁Del	-8632
▁Mon	-8633
▁ઓરે	-8634
▁જહા	-8635
▁પિન	-8636
▁મની	-8637
▁વોર	-8638
▁Open	-8639
▁file	-8640
▁ઇન્ક	-8641
▁ક્વે	-8642
▁ખૂણા	-8643
▁ઘાટો	-8644
▁ધીમે	-8645
▁વાદળ	-8646
irtual	-8647
▁કહેતા	-8648
▁કાયદો	-8649
▁ચિટ્સ	-8650
▁દીધું	-8651
▁ધ્યેય	-8652
▁બ્રહ્	-8653
▁શાળાઓ	-8654
radient	-8655
▁જાણીતા	-8656
▁રેન્ડમ	-8657
▁શોપિંગ	-8658
▁wBuyBuy	-8659
▁ગેરહાજર	-8660
▁જાળીદાર	-8661
▁લાઇસન્સ	-8662
▁republic	-8663
▁ટેટૂઝફૂલ	-8664
▁વિદેશમાં	-8665
▁ટેટૂઝપગની	-8666
▁ટેટૂઝસિંહ	-8667
▁navigation	-8668
▁પ્રત્યુત્તર	-8669
TF	-8670
ખ્	-8671
ૉગ	-8672
PEG	-8673
agu	-8674
rec	-8675
આગળ	-8676
જ્ય	-8677
ડીએ	-8678
મંડ	-8679
▁(6	-8680
▁PL	-8681
▁TO	-8682
▁અથ	-8683
▁બૅ	-8684
ithu	-8685
▁27,	-8686
▁50%	-8687
▁One	-8688
▁fir	-8689
▁દંડ	-8690
▁પડો	-8691
▁મીણ	-8692
નારાઓ	-8693
▁કચરો	-8694
▁જઈને	-8695
▁તોડી	-8696
▁પાછુ	-8697
▁હેલો	-8698
▁10000	-8699
▁માળખા	-8700
▁હોટેલ	-8701
▁અદ્ભુત	-8702
▁સંલગ્ન	-8703
▁સિક્કા	-8704
▁સુઝુકી	-8705
ithuania	-8706
▁આમંત્રણ	-8707
▁ક્રિસમસ	-8708
▁દીકરાને	-8709
▁વર્ષમાં	-8710
▁સમયગાળા	-8711
▁હંમેશાં	-8712
pertyName	-8713
▁Software	-8714
▁unlimited	-8715
▁મુશ્કેલીઓ	-8716
▁વ્યવસ્થિત	-8717
▁ટેટૂઝદંપતિ	-8718
▁ટેટૂઝહાર્ટ	-8719
▁સમયસમાપ્તિ	-8720
▁ટેટૂઝકન્યાઓ	-8721
▁ટેટૂઝવોટરકલર	-8722
/12	-8723
ડ્સ	-8724
ત્સ	-8725
▁BI	-8726
▁અફ	-8727
oint	-8728
ન્સન	-8729
▁(4,	-8730
▁Jet	-8731
▁SQL	-8732
▁rec	-8733
▁જ્વ	-8734
▁રિક	-8735
▁સિં	-8736
style	-8737
▁આવતો	-8738
▁કહીશ	-8739
▁છાપન	-8740
▁ટકાઉ	-8741
▁થમ્બ	-8742
▁બાયો	-8743
▁Inter	-8744
▁Photo	-8745
▁સૂચવે	-8746
ક્રાફ્ટ	-8747
▁પ્રેરક	-8748
▁મૈત્રી	-8749
▁લોકોનો	-8750
▁વાગ્યા	-8751
▁એકમાત્ર	-8752
▁ટેટૂઝતાજ	-8753
▁ટેટૂઝશ્રેષ્ઠ	-8754
II	-8755
gin	-8756
ટલર	-8757
વડા	-8758
્રલ	-8759
▁0,	-8760
▁46	-8761
▁88	-8762
▁95	-8763
▁By	-8764
▁મૌ	-8765
RFou	-8766
omin	-8767
ôles	-8768
▁(6)	-8769
▁Son	-8770
▁એસે	-8771
▁નાદ	-8772
▁વેક	-8773
▁સોય	-8774
ength	-8775
ister	-8776
ornia	-8777
ource	-8778
્રોજન	-8779
▁4000	-8780
▁ક્લબ	-8781
▁પેરા	-8782
ustral	-8783
મંત્રી	-8784
▁afeat	-8785
▁ઇટાલી	-8786
▁એજન્ટ	-8787
▁એન્ટિ	-8788
▁દરરોજ	-8789
▁દ્રાવ	-8790
▁વિધેય	-8791
▁Drôles	-8792
▁Global	-8793
▁MDRFou	-8794
▁પ્રકરણ	-8795
▁સમર્થન	-8796
▁સમીકરણ	-8797
▁municipal	-8798
▁ઉમેરવામાં	-8799
▁ટેટૂઝટેટૂ	-8800
▁ટેટૂઝહીરા	-8801
▁ફાયરફોક્સ	-8802
▁2011-2012,	-8803
▁પ્રોસેસિંગ	-8804
▁મૃત્યુમાંથી	-8805
LY	-8806
180	-8807
ier	-8808
kit	-8809
મિક	-8810
િઅન	-8811
▁6:	-8812
▁CM	-8813
▁ચુ	-8814
▁દશ	-8815
▁લૂ	-8816
ault	-8817
ર્દી	-8818
▁Dig	-8819
▁Sup	-8820
▁one	-8821
▁આઇસ	-8822
▁ખાય	-8823
▁ભૂખ	-8824
▁રાઉ	-8825
▁લાખ	-8826
▁વાન	-8827
erson	-8828
કાર્ડ	-8829
▁અર્ધ	-8830
▁આલેખ	-8831
▁ક્રશ	-8832
▁ધીરજ	-8833
▁બેબી	-8834
▁રાણી	-8835
▁લાગી	-8836
▁હાર્	-8837
▁એટલું	-8838
▁ઓફસેટ	-8839
▁ટિકિટ	-8840
▁પ્લાન	-8841
▁મુક્તિ	-8842
▁સંતુલન	-8843
▁ટેટૂહાથ	-8844
▁ટેટૂઝઇગલ	-8845
▁બંધબેસતા	-8846
▁શાસ્ત્રીઓ	-8847
▁ટેટૂઝસૂર્ય	-8848
▁ટેટૂઝમહેંદી	-8849
▁municipalities	-8850
!’	-8851
VA	-8852
.0.	-8853
hen	-8854
ids	-8855
led	-8856
ઓએસ	-8857
કુલ	-8858
નીશ	-8859
બત્	-8860
વતી	-8861
િજન	-8862
▁BS	-8863
ગામી	-8864
ન્ટી	-8865
▁EST	-8866
▁Rem	-8867
▁ખંડ	-8868
▁પેન	-8869
▁રેટ	-8870
▁હેર	-8871
Black	-8872
isode	-8873
ચિહ્ન	-8874
ડેનિસ	-8875
વાદળી	-8876
▁ઇજને	-8877
▁કૃષિ	-8878
▁જનરલ	-8879
▁ટાયર	-8880
▁પરિણ	-8881
▁પાસ્	-8882
▁લ્યુ	-8883
▁સમજા	-8884
્યાંકન	-8885
▁japan	-8886
▁અમારે	-8887
▁ગ્રંથ	-8888
▁દાખલા	-8889
▁બ્રોડ	-8890
▁મોઢું	-8891
▁Public	-8892
▁આપવાની	-8893
▁ટુકડાઓ	-8894
▁ફરોશીઓ	-8895
▁વિભાગો	-8896
▁સુધારક	-8897
textattr	-8898
▁વૈવાહિક	-8899
▁પ્રેરિતો	-8900
▁Instagram	-8901
▁ટેટૂઝહોકાયંત્ર	-8902
EE	-8903
pa	-8904
-17	-8905
-23	-8906
.15	-8907
202	-8908
ape	-8909
cre	-8910
emp	-8911
બેલ	-8912
▁ડૅ	-8913
▁હર	-8914
ghan	-8915
ular	-8916
ward	-8917
ાર્ટ	-8918
▁Mov	-8919
▁દોડ	-8920
▁હ્ર	-8921
સ્કાર	-8922
ોડીંગ	-8923
▁કાળી	-8924
▁દુશ્	-8925
▁પ્રણ	-8926
▁બટલર	-8927
▁બેઠો	-8928
▁મંગળ	-8929
▁યૂસફ	-8930
▁group	-8931
▁ફેરબદ	-8932
▁શકતું	-8933
▁હોસ્ટ	-8934
▁online	-8935
▁કોટિંગ	-8936
▁જન્મદિવસ	-8937
▁નિષ્ણાતો	-8938
▁વિધાનસભા	-8939
▁અમર્યાદિત	-8940
▁વાંચવામાં	-8941
▁ટેટૂઝપક્ષી	-8942
▁પુનરાવર્તન	-8943
yr	-8944
પદ	-8945
-40	-8946
OSA	-8947
જીન	-8948
પણા	-8949
ોનો	-8950
ador	-8951
alls	-8952
raid	-8953
▁Ret	-8954
▁pol	-8955
▁પરત	-8956
▁5000	-8957
▁Tool	-8958
▁user	-8959
▁આપતી	-8960
▁કાવા	-8961
▁ખાડી	-8962
▁ફોકસ	-8963
▁સાધુ	-8964
ંત્રિક	-8965
▁અભિગમ	-8966
▁ત્યાગ	-8967
▁નિર્મ	-8968
▁પહેલી	-8969
▁સેકંડ	-8970
▁સેન્સ	-8971
▁Corpor	-8972
▁System	-8973
▁ટૂંકાણ	-8974
▁તબક્કો	-8975
▁વિશેની	-8976
▁ગ્રાન્ડ	-8977
▁પ્રભુના	-8978
▁ભગવાનને	-8979
▁ભાગીદાર	-8980
▁ભાષામાં	-8981
▁સંભાવના	-8982
▁મંદિરમાં	-8983
▁ઉત્પાદકતા	-8984
▁ટ્રેઇલર્સ	-8985
▁ડિરેક્ટરીને	-8986
::	-8987
Th	-8988
ade	-8989
arm	-8990
web	-8991
િનો	-8992
▁53	-8993
,___	-8994
oney	-8995
orea	-8996
otal	-8997
plug	-8998
wtow	-8999
ંદગી	-9000
ક્યુ	-9001
ડ્રો	-9002
માની	-9003
લિનો	-9004
ેચ્છ	-9005
▁Rob	-9006
▁અણુ	-9007
▁કૂત	-9008
▁ચિપ	-9009
▁મુક	-9010
▁રમક	-9011
▁સજા	-9012
▁હરિ	-9013
...,,	-9014
eland	-9015
osaic	-9016
ગ્રામ	-9017
▁free	-9018
▁કૈસર	-9019
▁ક્વો	-9020
▁જરું	-9021
▁તૂટી	-9022
▁ધન્ય	-9023
▁ભરવા	-9024
▁સમાં	-9025
123___	-9026
albion	-9027
▁અર્પણ	-9028
▁ડાયમે	-9029
▁બાથરૂ	-9030
▁સમયની	-9031
ifornia	-9032
લોકડાઉન	-9033
▁ઇચ્છિત	-9034
▁કરનારા	-9035
▁છુપાવો	-9036
▁નીકળવા	-9037
▁મેટર્સ	-9038
▁યોજનાઓ	-9039
▁સંબંધી	-9040
▁sinlong	-9041
▁તેનામાં	-9042
▁ત્યાંથી	-9043
▁નિશ્ચિત	-9044
▁પ્રબોધક	-9045
▁રાજ્યાસ	-9046
Ghostface	-9047
▁___...,,	-9048
▁કન્સેપ્ટ	-9049
▁ક્રિસ્ટલ	-9050
▁માતાપિતા	-9051
,___123___	-9052
▁એક્સપ્રેસ	-9053
▁ટેટૂઝગુલાબ	-9054
▁ટેટૂઝસુંદર	-9055
▁ટેટૂઝદેવદૂત	-9056
▁ટેટૂઝબટરફ્લાય	-9057
);	-9058
bs	-9059
xt	-9060
ગાં	-9061
જાવ	-9062
ાયુ	-9063
ારસ	-9064
▁Go	-9065
▁Su	-9066
▁Wi	-9067
ling	-9068
ષ્ટા	-9069
ાગ્ર	-9070
ેલરી	-9071
ોરિધ	-9072
્યૂટ	-9073
▁BTC	-9074
▁ઇમિ	-9075
▁કસર	-9076
▁પૂલ	-9077
્યાના	-9078
▁કૌંસ	-9079
▁ખેડૂ	-9080
▁જતાં	-9081
▁પમ્પ	-9082
▁રીડર	-9083
▁સચોટ	-9084
▁અવકાશ	-9085
▁બ્રેક	-9086
▁મોજણી	-9087
▁વિરામ	-9088
▁સંચાર	-9089
▁ઈસુમાં	-9090
▁ડીવીડી	-9091
▁ત્રીજા	-9092
▁માપદંડ	-9093
▁મૂલ્યો	-9094
▁લાવ્યા	-9095
ustralia	-9096
▁અંતઃકરણ	-9097
▁ટકાવારી	-9098
▁પ્રશંસા	-9099
▁લાઇટિંગ	-9100
▁સિરામિક	-9101
▁સૂક્ષ્મ	-9102
▁સ્ક્રોલ	-9103
▁નાખવામાં	-9104
▁Jailbreak	-9105
▁અપારદર્શક	-9106
▁ટાળ્યાનું	-9107
▁ટેટૂઝચેરી	-9108
▁ટેટૂઝરાશિ	-9109
▁વેબસાઇટ્સ	-9110
▁ટેટૂઝચંદ્ર	-9111
▁સબ્સ્ક્રાઇબ	-9112
▁વિદ્યાર્થીઓને	-9113
ંબુ	-9114
ઇનો	-9115
પછી	-9116
▁-%	-9117
▁62	-9118
▁me	-9119
.08.	-9120
ites	-9121
પરીત	-9122
માટે	-9123
▁240	-9124
▁360	-9125
▁POR	-9126
▁apk	-9127
▁અંશ	-9128
▁નિમ	-9129
▁રમી	-9130
esign	-9131
▁આપીશ	-9132
▁કલીક	-9133
▁ગર્વ	-9134
▁પોલા	-9135
▁પોષણ	-9136
▁લીધા	-9137
▁વાયુ	-9138
▁સાજા	-9139
▁હિન્	-9140
church	-9141
▁કન્યા	-9142
▁કેડીઇ	-9143
ાઇલેન્ડ	-9144
▁russia	-9145
▁ફાઉન્ડ	-9146
▁બચાવવા	-9147
▁વ્હાઇટ	-9148
▁શીપીંગ	-9149
▁સ્થાને	-9150
▁જ્વેલરી	-9151
▁શુભેચ્છ	-9152
▁ગ્રાફિક્સ	-9153
▁ટેટૂઝછાતી	-9154
▁સુયોજનોને	-9155
▁હકારાત્મક	-9156
/%	-9157
રલ	-9158
mag	-9159
val	-9160
ટકા	-9161
▁(8	-9162
▁68	-9163
▁TE	-9164
▁if	-9165
▁ગય	-9166
▁ચઢ	-9167
ized	-9168
કાળે	-9169
ગીંગ	-9170
ર્મલ	-9171
લ્દી	-9172
સાકી	-9173
▁HGH	-9174
▁Ltd	-9175
▁યોજ	-9176
▁રીપ	-9177
▁વાઇ	-9178
ચાર્જ	-9179
િટર્સ	-9180
▁ઉડાન	-9181
▁કાચો	-9182
▁ટેકો	-9183
▁ડ્રે	-9184
▁ધ્રુ	-9185
▁લક્ઝ	-9186
▁લૌરા	-9187
▁સારુ	-9188
▁સિલિ	-9189
Indian	-9190
ublish	-9191
▁Jizer	-9192
▁ઉજવણી	-9193
▁ગ્રીક	-9194
▁ચુંબક	-9195
▁જવાબો	-9196
▁જાણતો	-9197
▁લન્ડન	-9198
▁સસ્તા	-9199
▁સ્વપ્	-9200
▁આવર્તન	-9201
▁કન્વર્	-9202
▁વિપરીત	-9203
▁સુન્નત	-9204
▁સૂચનાઓ	-9205
▁થેલીનું	-9206
▁પરિણામે	-9207
▁Facebook	-9208
▁માનવામાં	-9209
▁મેલફોર્મ	-9210
▁આકાશમાંથી	-9211
▁ટેટૂઝબહેન	-9212
▁ફોટોગ્રાફ	-9213
▁મૂલ્યાંકન	-9214
▁લાઈબ્રેરી	-9215
▁California	-9216
▁Technology	-9217
▁ટેટૂઝબિલાડી	-9218
▁મૈત્રીપૂર્ણ	-9219
▁ક્લિપબોર્ડમાં	-9220
3/	-9221
iB	-9222
ફટ	-9223
-27	-9224
EMU	-9225
off	-9226
ots	-9227
van	-9228
ંગો	-9229
બાય	-9230
્હી	-9231
▁CH	-9232
▁૬૮	-9233
elle	-9234
oday	-9235
કોની	-9236
ચોરસ	-9237
તારી	-9238
▁May	-9239
▁Rev	-9240
▁ઇવે	-9241
▁ઉંચ	-9242
▁કાટ	-9243
▁ડોઝ	-9244
▁લોટ	-9245
▁સદી	-9246
0000.	-9247
error	-9248
erver	-9249
ewhan	-9250
તામાં	-9251
▁અંહિ	-9252
▁આપતો	-9253
▁કાપો	-9254
▁જૂથો	-9255
▁પેટા	-9256
▁બેસી	-9257
▁રુચિ	-9258
▁હેકર	-9259
લિનોઇસ	-9260
િયામાં	-9261
▁આવેલી	-9262
▁ચેનલો	-9263
▁લાંબુ	-9264
▁શાફ્ટ	-9265
▁શિષ્ય	-9266
▁સાહેબ	-9267
olombia	-9268
▁અનુભવો	-9269
▁ખાણકામ	-9270
▁બ્રહ્મ	-9271
.05.2019	-9272
▁ઇલિનોઇસ	-9273
▁બનાવનાર	-9274
▁ગેરકાયદે	-9275
▁દર્શાવેલ	-9276
▁બનાવવાની	-9277
▁મેટાડેટા	-9278
▁યાંત્રિક	-9279
▁વસ્તુઓની	-9280
lectronics	-9281
▁એરક્રાફ્ટ	-9282
▁ટેટૂઝહાથી	-9283
▁Tabletwise	-9284
▁ટેટૂઝક્રોસ	-9285
▁ડેવલપમેન્ટ	-9286
▁Corporation	-9287
▁એન્જિનિયરિંગ	-9288
09	-9289
EG	-9290
FP	-9291
}}	-9292
▁●	-9293
01.	-9294
pal	-9295
▁76	-9296
▁XP	-9297
▁pu	-9298
▁ઘે	-9299
▁૩૯	-9300
emon	-9301
ક્રે	-9302
હાને	-9303
▁Dis	-9304
▁Que	-9305
▁અન્	-9306
▁ઉતર	-9307
▁ટુર	-9308
▁દિન	-9309
▁મેઈ	-9310
▁રેશ	-9311
ecial	-9312
▁Txxx	-9313
▁View	-9314
▁અડધા	-9315
▁કોફી	-9316
▁ચોરી	-9317
▁ડિમન	-9318
▁બહેન	-9319
▁શિયા	-9320
▁સ્થપ	-9321
કિર્દી	-9322
▁85.00	-9323
▁જેમને	-9324
▁સેલ્સ	-9325
ક્ષેત્ર	-9326
ડબ્લ્યુ	-9327
સ્થાપિત	-9328
▁August	-9329
▁turkey	-9330
▁છોડીને	-9331
▁ફિટિંગ	-9332
મિનારાયણ	-9333
▁weekday	-9334
▁ટેબ્લેટ	-9335
▁ફ્રેન્ચ	-9336
▁લઘુત્તમ	-9337
▁વિશ્વની	-9338
▁સુંદરતા	-9339
▁December	-9340
▁કાવાસાકી	-9341
▁કારકિર્દી	-9342
4-	-9343
BP	-9344
FA	-9345
va	-9346
232	-9347
ese	-9348
gan	-9349
ott	-9350
ચીન	-9351
▁WP	-9352
star	-9353
વર્ષ	-9354
▁BOL	-9355
▁Str	-9356
▁Upd	-9357
▁bug	-9358
▁નિર	-9359
endar	-9360
orize	-9361
ક્ષેપ	-9362
નેશનલ	-9363
▁1999	-9364
▁Give	-9365
▁This	-9366
▁કુકી	-9367
▁ગૌરવ	-9368
▁ટ્રક	-9369
▁તેવુ	-9370
▁દેખી	-9371
▁લાયક	-9372
anuary	-9373
▁Image	-9374
▁PORNO	-9375
▁વર્ગી	-9376
▁કરેલું	-9377
▁ખુલ્લા	-9378
▁પ્રતિબ	-9379
▁બહુવિધ	-9380
▁વિચારે	-9381
▁જ્યોર્જ	-9382
ghanistan	-9383
▁સપ્લાયરો	-9384
▁ન્યુનત્તમ	-9385
▁દર્શાવવામાં	-9386
$1	-9387
BC	-9388
RI	-9389
XT	-9390
BTC	-9391
ELL	-9392
iao	-9393
એલા	-9394
ખું	-9395
ટરો	-9396
ન્હ	-9397
માળ	-9398
યિક	-9399
લાસ	-9400
▁FA	-9401
▁IT	-9402
▁LY	-9403
itch	-9404
ટીએમ	-9405
રોધક	-9406
લ્લા	-9407
સ્વા	-9408
▁Hat	-9409
▁Sch	-9410
▁Sem	-9411
▁ઇનો	-9412
▁એડજ	-9413
▁પાઈ	-9414
email	-9415
ઈનલેસ	-9416
કેતિક	-9417
દાવાદ	-9418
▁QEMU	-9419
▁Real	-9420
▁આજ્ઞ	-9421
▁ગણિત	-9422
▁જીવે	-9423
▁ઠંડક	-9424
▁બીજે	-9425
▁મશિન	-9426
▁મહેન	-9427
mation	-9428
સ્પષ્ટ	-9429
▁Click	-9430
▁shopp	-9431
▁જોડાઓ	-9432
▁નહોતી	-9433
▁નામનો	-9434
▁વડીલો	-9435
▁વાહનો	-9436
▁શક્યો	-9437
▁ઈચ્છતા	-9438
▁લાગ્યો	-9439
▁અટકાવવા	-9440
▁અપાવનાર	-9441
ributions	-9442
▁ઉપયોગિતા	-9443
▁પેકેજીંગ	-9444
▁સંખ્યામાં	-9445
▁સ્ટેઈનલેસ	-9446
afghanistan	-9447
▁કોમ્પ્યુટર	-9448
▁ટેટૂઝખોપરી	-9449
▁ટેટૂઝસ્લીવ્ઝ	-9450
Ex	-9451
HB	-9452
wp	-9453
-86	-9454
345	-9455
BUR	-9456
new	-9457
que	-9458
zip	-9459
ટેટ	-9460
લ્ટ	-9461
▁63	-9462
▁AL	-9463
▁ep	-9464
▁ઈસ	-9465
▁૨૩	-9466
eden	-9467
link	-9468
ધારા	-9469
મ્બો	-9470
િયાલ	-9471
▁230	-9472
▁Ala	-9473
▁DNS	-9474
▁Max	-9475
▁Rec	-9476
▁ઘેર	-9477
▁નોન	-9478
▁પાત	-9479
▁ભેદ	-9480
thank	-9481
ખાનું	-9482
▁ઇન્જ	-9483
▁દેશે	-9484
▁બેંગ	-9485
▁મળવા	-9486
▁સાન્	-9487
othari	-9488
પૃથ્વી	-9489
▁જેમણે	-9490
▁જોબ્સ	-9491
▁પ્લાઝ	-9492
▁બન્યો	-9493
▁સોસાય	-9494
▁ગુમાવી	-9495
▁પ્રભુએ	-9496
▁બનાવશે	-9497
▁મીણબત્	-9498
▁રાખવું	-9499
▁લાગતું	-9500
▁વિચારી	-9501
▁સેન્સર	-9502
▁Kothari	-9503
▁એનિમેશન	-9504
▁કંપનીના	-9505
▁કાઉન્ટી	-9506
▁માર્કેટ	-9507
▁રાખ્યું	-9508
▁વિભાજિત	-9509
▁વિશ્રામ	-9510
▁વોલપેપર	-9511
▁શુદ્ધતા	-9512
▁સંવાદને	-9513
▁November	-9514
▁Products	-9515
▁ટેટૂઝમોર	-9516
▁પ્રતિબિં	-9517
▁પ્રીમિયમ	-9518
▁પ્રતિબદ્ધ	-9519
▁ટેટૂઝએન્કર	-9520
dr	-9521
બૂ	-9522
012	-9523
eam	-9524
unc	-9525
ઘાત	-9526
મતિ	-9527
▁(.	-9528
▁98	-9529
▁Hi	-9530
▁SL	-9531
andy	-9532
enez	-9533
ocum	-9534
એમએમ	-9535
ચર્ડ	-9536
પ્રે	-9537
પ્લે	-9538
ફ્રા	-9539
મોને	-9540
▁ગૌણ	-9541
▁ચાહ	-9542
▁મેઘ	-9543
State	-9544
વસ્તુ	-9545
▁(200	-9546
▁આહાર	-9547
▁નીચી	-9548
▁સિલ્	-9549
▁હજાર	-9550
tablet	-9551
ન્ડીંગ	-9552
▁અસ્વી	-9553
▁એન્ટી	-9554
▁કાઢવા	-9555
▁બદલાવ	-9556
▁સિંગલ	-9557
▁માણસોએ	-9558
▁યુએસપી	-9559
▁2019-02	-9560
▁Jizerou	-9561
▁અસક્રિય	-9562
▁ક્રમાંક	-9563
▁ફાઇલમાં	-9564
▁મોકલનાર	-9565
▁શરીરમાં	-9566
▁ભગવાનમાં	-9567
▁સિસ્ટમને	-9568
▁બાંધવામાં	-9569
▁વોલ્યુમને	-9570
▁પર્યાવરણીય	-9571
▁કાર્યક્રમની	-9572
▁માર્ગદર્શિકાઓ	-9573
AY	-9574
DN	-9575
gy	-9576
-21	-9577
:02	-9578
oud	-9579
ંધો	-9580
ઝને	-9581
નના	-9582
મિટ	-9583
િકે	-9584
્લુ	-9585
▁ઋગ	-9586
ific	-9587
રોની	-9588
▁0.0	-9589
▁JIN	-9590
▁એકે	-9591
▁કોટ	-9592
▁ડેટ	-9593
▁નાઇ	-9594
▁ભરી	-9595
▁વલણ	-9596
Class	-9597
નાવણી	-9598
માંનો	-9599
્યાલય	-9600
▁Apps	-9601
▁read	-9602
▁તોફા	-9603
▁દુર્	-9604
▁નર્સ	-9605
▁ફિલ્	-9606
▁રોયલ	-9607
▁સમુદ	-9608
▁સેવક	-9609
▁Sweta	-9610
▁about	-9611
▁અદભૂત	-9612
▁કંઈપણ	-9613
▁કદાપિ	-9614
▁પુરું	-9615
▁લોન્ચ	-9616
▁હમેશા	-9617
ocation	-9618
નિશ્ચિત	-9619
▁Tewhan	-9620
▁states	-9621
▁ઈચ્છું	-9622
▁પોઈન્ટ	-9623
▁પ્રોટે	-9624
▁સમાંતર	-9625
▁સ્ટીકર	-9626
▁ઓક્સિજન	-9627
▁ટેકનિકલ	-9628
▁પાશ્ર્વ	-9629
▁શબ્દકોષ	-9630
▁સોસાયટી	-9631
▁ગુણોત્તર	-9632
▁પ્રયત્નો	-9633
▁બંધબેસતી	-9634
▁ભૂતપૂર્વ	-9635
▁વર્ષોમાં	-9636
▁સાંકેતિક	-9637
▁કાર્યવાહી	-9638
▁ચલાવવામાં	-9639
▁જીત્યાનું	-9640
▁Stateville	-9641
▁sonication	-9642
FI	-9643
KK	-9644
TY	-9645
.90	-9646
MLE	-9647
WIS	-9648
ara	-9649
ચોક	-9650
નિઝ	-9651
રીઓ	-9652
સીઓ	-9653
▁Gh	-9654
▁SV	-9655
▁રડ	-9656
CHAR	-9657
DOWN	-9658
Time	-9659
ever	-9660
hone	-9661
બિયન	-9662
મ્બા	-9663
▁Lif	-9664
▁Ser	-9665
▁ડીએ	-9666
▁પર્	-9667
ition	-9668
zilla	-9669
જીવંત	-9670
વેટિવ	-9671
▁More	-9672
▁કોરી	-9673
▁ડાઉન	-9674
▁દ્રઢ	-9675
▁નિરા	-9676
▁લાઇફ	-9677
▁સીડી	-9678
▁સ્પા	-9679
waters	-9680
વેદનું	-9681
▁under	-9682
▁પામશે	-9683
▁ફાસ્ટ	-9684
▁બાંધી	-9685
▁સૂત્ર	-9686
▁હ્રદય	-9687
▁Credit	-9688
▁ચકાસવા	-9689
▁બાકીના	-9690
▁યુક્તિ	-9691
▁લશ્કરી	-9692
▁કન્ટેનર	-9693
▁મોકલ્યા	-9694
▁સંરક્ષણ	-9695
▁ઋગવેદનું	-9696
▁ટેટૂઝરીપ	-9697
▁સિલિન્ડર	-9698
▁Launchpad	-9699
▁ડાયમેન્શન	-9700
▁પ્રકારનાં	-9701
/01	-9702
00.	-9703
128	-9704
plc	-9705
put	-9706
બું	-9707
▁TV	-9708
▁ટૉ	-9709
uela	-9710
ગ્રહ	-9711
નેરી	-9712
▁(11	-9713
▁(5)	-9714
▁Bow	-9715
▁add	-9716
▁rom	-9717
▁એડે	-9718
▁માથ	-9719
▁લિય	-9720
round	-9721
સ્કૃત	-9722
ોનિયા	-9723
▁5.98	-9724
▁full	-9725
▁hplc	-9726
▁આપું	-9727
▁કેપ્	-9728
▁ખાવા	-9729
▁જંગલ	-9730
▁મોટુ	-9731
▁શીખી	-9732
▁શોધે	-9733
evelop	-9734
પ્રતિક	-9735
▁2018,	-9736
▁આયર્ન	-9737
▁ઉન્નત	-9738
▁ચીનના	-9739
▁જોઈને	-9740
▁બંધાર	-9741
▁માસિક	-9742
OCKDOWN	-9743
vectors	-9744
▁સંયોજન	-9745
▁સન્માન	-9746
enezuela	-9747
▁બાજુમાં	-9748
ingdirect	-9749
▁ખ્રિસ્તે	-9750
▁ભાગીદારો	-9751
▁ટેટૂઝઆદિવાસી	-9752
▁Contributions	-9753
")	-9754
/7	-9755
GI	-9756
.25	-9757
.30	-9758
FRO	-9759
eff	-9760
યામ	-9761
લાન	-9762
િને	-9763
▁4:	-9764
▁72	-9765
▁Py	-9766
▁UK	-9767
▁૫૦	-9768
BURG	-9769
મ્મસ	-9770
સ્પદ	-9771
્સને	-9772
▁Dev	-9773
▁Emp	-9774
▁ગેટ	-9775
▁ઘાત	-9776
OSAIC	-9777
atter	-9778
▁JSON	-9779
▁Sign	-9780
▁અવયવ	-9781
▁એમએચ	-9782
▁ક્રુ	-9783
▁જાદુ	-9784
▁પામી	-9785
▁સંકુ	-9786
▁સોદો	-9787
ટોરીયલ	-9788
▁teeth	-9789
▁બગડેલ	-9790
▁વાદ્ય	-9791
▁ખરીદવા	-9792
▁જીપીએસ	-9793
▁બતાવેલ	-9794
▁ભાડેથી	-9795
▁યોહાને	-9796
▁વિડીયો	-9797
▁સાથેની	-9798
▁સ્થાપક	-9799
ublished	-9800
▁Webtalk	-9801
▁બનાવ્યા	-9802
▁લાયસન્સ	-9803
▁સ્ટેન્ડ	-9804
▁સ્વામીએ	-9805
▁અર્થતંત્ર	-9806
▁સ્વામિનારાયણ	-9807
DS	-9808
PP	-9809
oh	-9810
ope	-9811
thi	-9812
urg	-9813
નાસ	-9814
પૂર	-9815
માપ	-9816
રંગ	-9817
▁-1	-9818
▁1)	-9819
▁94	-9820
▁AR	-9821
▁DS	-9822
▁SC	-9823
▁cl	-9824
▁ઝુ	-9825
▁તલ	-9826
▁૪૦	-9827
જીટલ	-9828
પક્ષ	-9829
લાઇડ	-9830
▁(0)	-9831
▁(18	-9832
▁IPv	-9833
▁job	-9834
▁આયુ	-9835
▁એલે	-9836
▁ઘણુ	-9837
▁જિમ	-9838
▁નફો	-9839
FROML	-9840
start	-9841
સ્કેપ	-9842
▁NAME	-9843
▁એચએસ	-9844
▁ઑપ્ટ	-9845
▁છૂટા	-9846
▁નાખી	-9847
▁મિલિ	-9848
▁સમજે	-9849
▁હાથી	-9850
should	-9851
ડવામાં	-9852
▁gener	-9853
▁ખેંચી	-9854
▁પરમાણ	-9855
▁ફેંકી	-9856
▁બનાવટ	-9857
▁ભંગાણ	-9858
▁રાખીએ	-9859
▁રેલવે	-9860
▁MOSAIC	-9861
▁કેમ્પસ	-9862
▁ગ્લોબલ	-9863
▁ઘણીવાર	-9864
▁ચોકઠું	-9865
▁ટ્રેનર	-9866
▁ધુમ્મસ	-9867
▁સંકોચન	-9868
▁સ્રોતો	-9869
▁2018-11	-9870
▁Brasero	-9871
▁ટેટૂઝડવ	-9872
▁તીવ્રતા	-9873
▁વિરુદ્ધ	-9874
▁software	-9875
▁કન્વર્ટર	-9876
▁તંદુરસ્ત	-9877
▁પ્રભાવિત	-9878
▁મોડ્યુલો	-9879
▁સત્પુરુષ	-9880
▁LIVEFROML	-9881
▁સંદર્ભમાં	-9882
▁ટેટૂઝડ્રેગન	-9883
▁shoppingdirect	-9884
.%	-9885
06	-9886
HT	-9887
ટું	-9888
દરા	-9889
રાં	-9890
હરિ	-9891
▁5:	-9892
▁CE	-9893
▁sw	-9894
▁હળ	-9895
2013	-9896
▁(15	-9897
▁Nim	-9898
▁POP	-9899
▁Vid	-9900
▁red	-9901
▁val	-9902
▁ખાન	-9903
▁બગી	-9904
▁સાલ	-9905
▁સોં	-9906
2006.	-9907
riend	-9908
ડામાં	-9909
ન્સિલ	-9910
સ્કેટ	-9911
સ્ટોર	-9912
▁Dark	-9913
▁glam	-9914
▁આખરે	-9915
▁દીધો	-9916
▁દોરો	-9917
▁મેગા	-9918
Script	-9919
eeting	-9920
રીયલ્સ	-9921
▁LEWIS	-9922
▁admin	-9923
▁china	-9924
▁આપવું	-9925
▁જેટલા	-9926
▁નામના	-9927
▁ફેરવી	-9928
▁બોલતા	-9929
▁મ્યુઝ	-9930
ર્ગીકૃત	-9931
વિજ્ઞાન	-9932
▁Tumblr	-9933
▁અનુક્ર	-9934
▁એકસાથે	-9935
▁એજન્સી	-9936
▁તેમનું	-9937
▁બિંદુઓ	-9938
▁ભારતના	-9939
ominican	-9940
zimbabwe	-9941
▁ઇન્ડિયા	-9942
▁બનાવ્યો	-9943
▁વિસ્તરણ	-9944
▁સુધીમાં	-9945
▁સ્થાનને	-9946
▁જગ્યામાં	-9947
▁થાઇલેન્ડ	-9948
▁અવર્ગીકૃત	-9949
▁સુનિશ્ચિત	-9950
▁ફાઇબરગ્લાસ	-9951
શૈ	-9952
-26	-9953
cel	-9954
mat	-9955
set	-9956
xml	-9957
ઈનો	-9958
કથા	-9959
ઠાં	-9960
તને	-9961
▁HP	-9962
otor	-9963
્મિક	-9964
▁EMB	-9965
▁PDF	-9966
▁માસ	-9967
➖➖➖➖	-9968
▁2500	-9969
▁દેવી	-9970
▁આઇકોન	-9971
▁ગાળકો	-9972
▁ટીપ્સ	-9973
▁થીમ્સ	-9974
▁મોટાઇ	-9975
▁વળાંક	-9976
▁સમયનો	-9977
▁હેરોદ	-9978
▁window	-9979
▁એસએમએસ	-9980
▁કોરિયા	-9981
▁જુનિયર	-9982
▁પરમાણુ	-9983
▁રજીસ્ટ	-9984
▁રવિવાર	-9985
▁અમદાવાદ	-9986
▁ઉશ્કેરી	-9987
▁ટેક્સ્ટ	-9988
▁મેગ્નેટ	-9989
▁કાર્યક્ર	-9990
▁વિશ્વાસુ	-9991
▁LEWISBURG	-9992
▁glamorize	-9993
▁wordpress	-9994
▁ફાઉન્ડેશન	-9995
5-	-9996
CF	-9997
NT	-9998
ઓફ	-9999
▁฿	-10000
Imp	-10001
mon	-10002
ola	-10003
til	-10004
ugh	-10005
નિય	-10006
બળો	-10007
▁($	-10008
▁CC	-10009
▁Is	-10010
▁OS	-10011
Date	-10012
chet	-10013
tics	-10014
સ્તર	-10015
▁1.1	-10016
▁3.5	-10017
▁Feb	-10018
▁net	-10019
▁કઈક	-10020
▁ગેજ	-10021
▁પરો	-10022
▁બાઈ	-10023
▁મીન	-10024
પાર્ટ	-10025
રાગ્ય	-10026
▁કરતુ	-10027
▁કોઈએ	-10028
▁ખાતર	-10029
▁ઠંડી	-10030
▁દીધી	-10031
▁દ્વિ	-10032
▁નસીબ	-10033
▁નીચો	-10034
▁મેળવ	-10035
▁વિટા	-10036
ources	-10037
કોડીંગ	-10038
મૂળભૂત	-10039
ેક્ટ્ર	-10040
▁Ankit	-10041
▁બન્ને	-10042
▁લેવાય	-10043
▁સમજાવ	-10044
▁સ્નાન	-10045
▁method	-10046
▁પાસવર્	-10047
▁ફ્રેંક	-10048
▁વગાડવા	-10049
▁સર્કિટ	-10050
▁સ્વભાવ	-10051
▁આર્કિટે	-10052
▁કોલેટ્સ	-10053
▁ઓળખવામાં	-10054
▁મૂલ્યવાન	-10055
▁catalonia	-10056
▁puertorico	-10057
▁પ્રોત્સાહિત	-10058
▁ટેટૂઝઅર્ધવિરામ	-10059
Fi	-10060
UO	-10061
ધન	-10062
%%)	-10063
ama	-10064
can	-10065
lan	-10066
via	-10067
કાઈ	-10068
ડની	-10069
▁fs	-10070
▁અક	-10071
▁હૈ	-10072
Free	-10073
ario	-10074
inch	-10075
inst	-10076
કાટી	-10077
ક્વિ	-10078
ચાનક	-10079
ૃત્ય	-10080
ૅન્ડ	-10081
્યૂબ	-10082
▁(25	-10083
▁(4)	-10084
▁186	-10085
▁Apk	-10086
▁Gtk	-10087
▁War	-10088
▁mul	-10089
▁ઉના	-10090
▁ગયુ	-10091
▁જોય	-10092
▁ઝેડ	-10093
▁તીર	-10094
▁નઝર	-10095
▁નવુ	-10096
▁લોસ	-10097
▁વાચ	-10098
▁વિઝ	-10099
વૃત્ત	-10100
▁Winx	-10101
▁when	-10102
▁અભાવ	-10103
▁કાચા	-10104
▁દવાઓ	-10105
▁ધિક્	-10106
▁પાયો	-10107
▁પિતૃ	-10108
▁ભૂંસ	-10109
▁હુકમ	-10110
▁હેપી	-10111
▁gnome	-10112
▁ટેટૂબ	-10113
▁તપશ્ચ	-10114
▁નિકાલ	-10115
▁માંગુ	-10116
▁માનું	-10117
▁યંત્ર	-10118
▁યોર્ક	-10119
▁વર્તુ	-10120
▁વાનગી	-10121
▁વાયરસ	-10122
▁+0000.	-10123
▁કોન્કર	-10124
▁જોડાવો	-10125
▁ડોક્ટર	-10126
▁ત્રીજી	-10127
▁2018-12	-10128
▁2019-01	-10129
▁Charter	-10130
▁January	-10131
▁પ્રમોશન	-10132
▁ફેરબદલી	-10133
▁શહેરનું	-10134
▁સંકુચિત	-10135
▁એનકોડીંગ	-10136
▁સેન્ટ્રલ	-10137
▁Transposh	-10138
▁તપશ્ચર્યા	-10139
▁દ્રષ્ટાંત	-10140
▁આશ્ચર્યજનક	-10141
▁ટ્યુટોરીયલ	-10142
▁પ્રતિનિધિત્વ	-10143
07	-10144
It	-10145
NM	-10146
VM	-10147
▁«	-10148
20)	-10149
210	-10150
33)	-10151
For	-10152
ODS	-10153
ica	-10154
lip	-10155
mod	-10156
ove	-10157
અનુ	-10158
જરૂ	-10159
ટિન	-10160
બીએ	-10161
ભેદ	-10162
રાઇ	-10163
ારક	-10164
Host	-10165
XXXX	-10166
irus	-10167
rica	-10168
stan	-10169
udan	-10170
ukhi	-10171
ડિયન	-10172
મોથી	-10173
▁31,	-10174
▁GBP	-10175
▁SMU	-10176
▁Sep	-10177
▁પાં	-10178
▁બેચ	-10179
▁મોં	-10180
▁શરમ	-10181
lands	-10182
ruity	-10183
સ્પતિ	-10184
▁....	-10185
▁અંગત	-10186
▁નાનુ	-10187
▁બેઠા	-10188
▁મોર્	-10189
▁લિપિ	-10190
▁લીલો	-10191
▁શોષણ	-10192
Socket	-10193
christ	-10194
સ્તાવો	-10195
▁અચાનક	-10196
▁તકનીક	-10197
▁શકાતા	-10198
▁inmate	-10199
▁ગુસ્સે	-10200
▁શનિવાર	-10201
▁શહેરની	-10202
▁સેમસંગ	-10203
▁સ્ટ્રે	-10204
▁Univers	-10205
▁minutes	-10206
▁ક્રાંતિ	-10207
▁ચાંદીના	-10208
▁લોકોનું	-10209
▁સુનાવણી	-10210
▁Litecoin	-10211
▁વિકાસકર્તા	-10212
▁પ્રક્રિયાને	-10213
▁જાવાસ્ક્રિપ્ટ	-10214
()	-10215
NE	-10216
અસ	-10217
Cop	-10218
lov	-10219
uda	-10220
લ્ફ	-10221
▁BE	-10222
▁De	-10223
▁Di	-10224
▁અચ	-10225
▁ઘસ	-10226
▁બૉ	-10227
Spot	-10228
YUAN	-10229
arch	-10230
ello	-10231
head	-10232
lean	-10233
mbyg	-10234
oken	-10235
rome	-10236
ugal	-10237
સેવર	-10238
▁BLO	-10239
▁DIN	-10240
▁Mul	-10241
▁{1}	-10242
▁ઉઘા	-10243
▁કરુ	-10244
▁ચિત	-10245
▁પાય	-10246
▁પોડ	-10247
ative	-10248
સ્કેલ	-10249
▁મજબૂ	-10250
Luxury	-10251
itness	-10252
▁કરાવી	-10253
▁ખાતાઓ	-10254
▁ટોળીઓ	-10255
▁દીવાલ	-10256
▁નહોતો	-10257
▁પોલાણ	-10258
▁પ્રતી	-10259
▁મંજૂર	-10260
▁રિયાલ	-10261
▁લેમ્પ	-10262
▁સંકલન	-10263
mbygden	-10264
▁દિલ્હી	-10265
▁પોર્ટુ	-10266
▁લખેલું	-10267
iconduct	-10268
▁પ્રણાલી	-10269
▁સ્ત્રીને	-10270
▁સ્વીકારો	-10271
▁એકાઉન્ટ્સ	-10272
▁description	-10273
▁તપશ્ચર્યાસ્થાન	-10274
HO	-10275
aq	-10276
આશ	-10277
શર	-10278
ાસ	-10279
▁Φ	-10280
125	-10281
ICS	-10282
asy	-10283
med	-10284
urs	-10285
કોર	-10286
છેલ	-10287
ોટલ	-10288
▁2)	-10289
▁XD	-10290
▁ચળ	-10291
▁સદ	-10292
flex	-10293
heng	-10294
ring	-10295
rive	-10296
દેસર	-10297
▁Cap	-10298
▁Fal	-10299
▁was	-10300
▁ચાઇ	-10301
▁તોડ	-10302
▁નરમ	-10303
▁મુદ	-10304
▁વૉલ	-10305
▁હસે	-10306
Rider	-10307
ender	-10308
geria	-10309
આનમાં	-10310
માંની	-10311
વવાનો	-10312
સંગીત	-10313
્સ્ટા	-10314
▁1080	-10315
▁EMBA	-10316
▁Host	-10317
▁Qual	-10318
▁Site	-10319
▁કુશળ	-10320
▁જારી	-10321
▁દાદા	-10322
▁નાટક	-10323
▁માગે	-10324
▁શાસન	-10325
ન્ગડાઓ	-10326
લબોક્સ	-10327
સ્ટેબલ	-10328
▁World	-10329
▁ઈચ્છો	-10330
▁ઉપરની	-10331
▁ટીપ્પ	-10332
▁ટેટૂડ	-10333
▁નહોતા	-10334
▁બજારો	-10335
▁બુદ્ધ	-10336
▁લૂકઅપ	-10337
▁શ્વાસ	-10338
▁સાહસો	-10339
content	-10340
▁0086-5	-10341
▁BLOODS	-10342
▁Intern	-10343
▁access	-10344
▁layers	-10345
▁અનુસરે	-10346
▁ટેટૂપગ	-10347
▁ડુકાટી	-10348
▁પાનાંઓ	-10349
▁પૂરતું	-10350
ysLuxury	-10351
▁ukraine	-10352
▁પાસવર્ડો	-10353
▁સ્વીકારી	-10354
▁ગેંગ્સ્ટા	-10355
▁Semiconduct	-10356
▁ડોંગગુઆનમાં	-10357
▁સંગ્રહપદ્ધતિ	-10358
On	-10359
fr	-10360
ૉક	-10361
380	-10362
amb	-10363
એશન	-10364
ગોળ	-10365
ટીમ	-10366
તમા	-10367
પતિ	-10368
ફાઇ	-10369
ાઉં	-10370
▁74	-10371
▁Af	-10372
▁DR	-10373
▁SI	-10374
▁co	-10375
▁ઉઠ	-10376
▁પલ	-10377
000.	-10378
Cash	-10379
ંચાલ	-10380
આશરે	-10381
ન્કો	-10382
યાદી	-10383
▁(30	-10384
▁Alt	-10385
▁ટનલ	-10386
▁નિત	-10387
▁હિટ	-10388
ental	-10389
દુકાન	-10390
મોટિવ	-10391
ાઈનરી	-10392
▁LDAP	-10393
▁Tube	-10394
▁plus	-10395
▁અટકી	-10396
▁અહિં	-10397
▁એસોસ	-10398
▁દેવા	-10399
▁પહોચ	-10400
▁સ્લો	-10401
વીડિયો	-10402
▁ટેટૂઆ	-10403
▁મુકામ	-10404
▁લેન્ડ	-10405
shopify	-10406
stRider	-10407
zerland	-10408
તિહાસિક	-10409
સ્ટેરોન	-10410
▁થમ્બને	-10411
▁પૂંઠું	-10412
▁પૃષ્ઠો	-10413
▁ફાઈલને	-10414
▁શસ્ત્ર	-10415
▁Crochet	-10416
▁JINYUAN	-10417
▁Virtual	-10418
▁પોતાનાં	-10419
▁લંબચોરસ	-10420
▁સભાસ્થા	-10421
▁ઉદ્યોગમાં	-10422
▁ક્વિન્ગડાઓ	-10423
▁Technologies	-10424
,”	-10425
BA	-10426
ds	-10427
km	-10428
શલ	-10429
-32	-10430
2.1	-10431
HSR	-10432
oce	-10433
કું	-10434
ખાર	-10435
જનો	-10436
ટકી	-10437
રાજ	-10438
લીઓ	-10439
ાઇપ	-10440
▁(7	-10441
▁અણ	-10442
▁ઇમ	-10443
▁ખિ	-10444
▁હબ	-10445
ache	-10446
acks	-10447
shan	-10448
સ્ટી	-10449
▁1.8	-10450
▁2.2	-10451
▁Soc	-10452
▁ગણી	-10453
▁ટૂક	-10454
▁બહા	-10455
▁વુડ	-10456
▁શૂર	-10457
▁હીટ	-10458
aseky	-10459
group	-10460
ights	-10461
▁અનુય	-10462
▁ટોટી	-10463
▁ડાયા	-10464
▁પર્સ	-10465
▁પેસો	-10466
▁સાહસ	-10467
▁સિગ્	-10468
▁હમણા	-10469
ukhiya	-10470
ungary	-10471
નલેન્ડ	-10472
વિલ્લે	-10473
▁Nimki	-10474
▁અવતાર	-10475
▁આકર્ષ	-10476
▁ટોર્ક	-10477
▁નિદાન	-10478
▁પ્રિં	-10479
▁મોકલા	-10480
▁રહસ્ય	-10481
▁હેલ્થ	-10482
મેન્ટ્સ	-10483
▁Adress	-10484
▁Paseky	-10485
▁travel	-10486
▁ઈચ્છતો	-10487
▁થવાનું	-10488
▁પુરુંષ	-10489
▁માયાને	-10490
▁લાકડું	-10491
▁સુધીની	-10492
▁દિવસમાં	-10493
▁કર્યાનું	-10494
tabletwise	-10495
▁lithuania	-10496
▁ઇલેક્ટ્રીક	-10497
LD	-10498
cp	-10499
ск	-10500
ડલ	-10501
015	-10502
:$0	-10503
ano	-10504
gar	-10505
ંકુ	-10506
ઓથી	-10507
દાસ	-10508
▁બમ	-10509
▁૨૫	-10510
.0.1	-10511
eter	-10512
ધાભા	-10513
વાદન	-10514
▁Adv	-10515
▁Fir	-10516
▁out	-10517
▁વાજ	-10518
▁સોડ	-10519
▁હશો	-10520
▁Back	-10521
▁ઇન્સ	-10522
▁ટાવર	-10523
▁બધાએ	-10524
▁માપન	-10525
▁વધતી	-10526
▁સ્કી	-10527
▁BOLUO	-10528
▁ગુલામ	-10529
▁ડ્રોપ	-10530
▁બિલ્ટ	-10531
▁રંગની	-10532
▁સિન્ડ	-10533
▁હેતુઓ	-10534
અંતઃકરણ	-10535
▁Flight	-10536
▁કોરિયન	-10537
▁જગતમાં	-10538
▁નજીકના	-10539
▁નાખ્યો	-10540
▁પિતાને	-10541
▁સ્લાઇડ	-10542
▁કાર્ડ્સ	-10543
▁અભિપ્રાય	-10544
▁યહૂદિઓને	-10545
▁સિસ્ટમ્સ	-10546
IA	-10547
kW	-10548
પટ	-10549
ફન	-10550
ૅલ	-10551
="1	-10552
LTD	-10553
add	-10554
hua	-10555
obe	-10556
ync	-10557
ઠિત	-10558
૦૦૦	-10559
▁(@	-10560
▁5%	-10561
▁89	-10562
▁BR	-10563
▁PR	-10564
▁TC	-10565
▁gt	-10566
▁અા	-10567
▁ઠગ	-10568
File	-10569
athy	-10570
ette	-10571
rite	-10572
ંકડો	-10573
ટાઉન	-10574
વ્યુ	-10575
્યતા	-10576
▁20%	-10577
▁5.5	-10578
▁big	-10579
▁ઓઇલ	-10580
▁ટર્	-10581
▁પહે	-10582
▁ભજન	-10583
▁લગા	-10584
▁શિલ	-10585
▁સીલ	-10586
print	-10587
ગ્રેડ	-10588
▁help	-10589
▁આગમન	-10590
▁ખરું	-10591
▁ખોટો	-10592
▁તત્વ	-10593
▁રિયલ	-10594
CalImp	-10595
પ્રકાર	-10596
▁ઇચ્છો	-10597
▁ગ્રેટ	-10598
▁ત્રિજ	-10599
▁ધર્મા	-10600
▁રિસાય	-10601
▁રેન્જ	-10602
▁વિદાય	-10603
▁સંબોધ	-10604
algeria	-10605
command	-10606
▁Folder	-10607
▁Posted	-10608
▁ગતિશીલ	-10609
▁ચોકસાઈ	-10610
▁ફ્લેગો	-10611
▁લક્ઝરી	-10612
.06.2019	-10613
▁teether	-10614
▁ગ્રાફિક	-10615
▁ફાઇલનામ	-10616
▁માઈક્રો	-10617
▁વૈરાગ્ય	-10618
▁શ્રીહરિ	-10619
▁અનંતજીવન	-10620
▁એપિસોડ્સ	-10621
▁ચિત્રમાં	-10622
▁ત્રિજ્યા	-10623
▁બદલવામાં	-10624
▁મેક્સિકો	-10625
▁સંગ્રહિત	-10626
▁સાંભળ્યો	-10627
▁Generator	-10628
▁કાર્યક્રમને	-10629
==	-10630
AH	-10631
BL	-10632
FB	-10633
SE	-10634
gg	-10635
તઃ	-10636
થર	-10637
સણ	-10638
-1.	-10639
160	-10640
360	-10641
tdr	-10642
ten	-10643
ચીક	-10644
ટીઓ	-10645
નહર	-10646
પકડ	-10647
બિન	-10648
રીન	-10649
વરી	-10650
હીન	-10651
▁96	-10652
▁Of	-10653
▁my	-10654
▁so	-10655
▁£5	-10656
▁અહ	-10657
▁ઇં	-10658
▁સૈ	-10659
10-%	-10660
eats	-10661
room	-10662
આઇપી	-10663
જાણી	-10664
ફ્લે	-10665
ર્ગે	-10666
▁0.6	-10667
▁AUD	-10668
▁Bel	-10669
▁fil	-10670
▁કટર	-10671
▁ઘાસ	-10672
▁પોઇ	-10673
▁ફેક	-10674
▁રેગ	-10675
▁રેમ	-10676
▁સિક	-10677
brevi	-10678
olume	-10679
નહરનો	-10680
ોલોજી	-10681
▁2021	-10682
▁Game	-10683
▁URLs	-10684
▁XNUM	-10685
▁tric	-10686
▁trol	-10687
▁ઈર્ષ	-10688
▁ડેમો	-10689
▁માંસ	-10690
▁Audio	-10691
▁અંતરા	-10692
▁આપનાર	-10693
▁એકંદર	-10694
▁જોડાઇ	-10695
▁ટાંકી	-10696
▁તારું	-10697
▁બદલાય	-10698
▁મનમાં	-10699
▁મારાં	-10700
▁રહેલી	-10701
▁લંબાઇ	-10702
▁સવારી	-10703
▁ઓળખાતો	-10704
▁કરવાનુ	-10705
▁કેટલું	-10706
▁નારંગી	-10707
▁શરીરને	-10708
▁Germany	-10709
▁એડેપ્ટર	-10710
▁કુરબાની	-10711
▁નીચેનાં	-10712
▁પ્રાચીન	-10713
▁વર્ષોથી	-10714
▁સ્થાનની	-10715
breviated	-10716
formation	-10717
▁Comments	-10718
▁પ્રતિભાવ	-10719
▁પૃષ્ઠભૂમિ	-10720
▁સરનામાંને	-10721
▁અપારદર્શકતા	-10722
▁માઇક્રોસોફ્ટ	-10723
▁વપરાશકર્તાઓને	-10724
GL	-10725
ci	-10726
ગણ	-10727
-80	-10728
105	-10729
450	-10730
:$1	-10731
acy	-10732
ંઘા	-10733
એસઓ	-10734
જીએ	-10735
પરિ	-10736
વોલ	-10737
▁Bh	-10738
▁MI	-10739
▁Ma	-10740
▁કણ	-10741
come	-10742
enia	-10743
rank	-10744
ંતિક	-10745
તેથી	-10746
રીયા	-10747
સ્પો	-10748
▁Mus	-10749
▁Per	-10750
▁Tue	-10751
▁bel	-10752
▁અશક	-10753
▁ઓએસ	-10754
▁કથા	-10755
▁નંખ	-10756
▁બેન	-10757
▁બોસ	-10758
▁મુગ	-10759
▁લૉક	-10760
rolle	-10761
કાલિક	-10762
ક્લિક	-10763
▁1528	-10764
▁Hong	-10765
▁spol	-10766
▁tips	-10767
▁work	-10768
▁કીને	-10769
▁કોષો	-10770
▁ક્લો	-10771
▁દીધા	-10772
▁શાઉલ	-10773
▁આગળના	-10774
▁આપીને	-10775
▁ઉપચાર	-10776
▁ચલાવે	-10777
▁જંગલી	-10778
▁પાથને	-10779
▁હાયપર	-10780
filters	-10781
▁Access	-10782
▁એસોસિય	-10783
▁ગોલ્ડન	-10784
▁ચાલ્યો	-10785
▁નવીનતા	-10786
▁બાળકને	-10787
▁બુધવાર	-10788
▁મહિલાઓ	-10789
▁શકાયું	-10790
▁શૂરવીર	-10791
▁romania	-10792
▁નિવૃત્ત	-10793
▁ફાઈલનામ	-10794
▁વનસ્પતિ	-10795
zerbaijan	-10796
▁કારખાનું	-10797
▁ચમત્કારો	-10798
▁બદલવાનું	-10799
વેલેન્ટાઇન	-10800
▁સકારાત્મક	-10801
▁ફાઇલસિસ્ટમ	-10802
Ac	-10803
hd	-10804
િગ	-10805
obo	-10806
ડીઓ	-10807
મુક	-10808
ર્ઝ	-10809
સિવ	-10810
ાલ્	-10811
િયુ	-10812
▁ht	-10813
11-%	-10814
lett	-10815
બિડી	-10816
માથી	-10817
સ્લા	-10818
િકેટ	-10819
▁03:	-10820
▁280	-10821
▁FTP	-10822
▁How	-10823
▁Key	-10824
▁NMP	-10825
▁Rou	-10826
▁ડિસ	-10827
▁ડેશ	-10828
▁ધ્વ	-10829
▁બેઝ	-10830
▁રોમ	-10831
▁વહન	-10832
▁હંગ	-10833
Sales	-10834
inger	-10835
▁Bill	-10836
▁Mary	-10837
▁જમણા	-10838
▁જોતા	-10839
▁દાઉદ	-10840
▁પગાર	-10841
▁મોનો	-10842
માઉન્ટ	-10843
▁Casin	-10844
▁કૃષ્ણ	-10845
▁ચકાસે	-10846
▁જેનું	-10847
▁બાઇબલ	-10848
▁વૈભવી	-10849
uctural	-10850
▁ઉદ્દેશ	-10851
▁એનર્જી	-10852
▁ઘણાબધા	-10853
▁જવાનું	-10854
▁દર્દીઓ	-10855
▁પક્ષીઓ	-10856
▁મુખ્યા	-10857
▁સંપાદન	-10858
▁સેંકડો	-10859
▁Bowflex	-10860
▁અલ્ટ્રા	-10861
▁ઉપયોગની	-10862
▁પત્તાની	-10863
▁લખવાનું	-10864
▁સમજણનું	-10865
▁સહભાગીઓ	-10866
▁સેકન્ડો	-10867
▁ત્યારબાદ	-10868
▁વપરાશમાં	-10869
▁ઇન્જેક્ટર	-10870
▁એક્સેસરીઝ	-10871
▁વ્યક્તિની	-10872
▁azerbaijan	-10873
BM	-10874
ચુ	-10875
aut	-10876
omb	-10877
pre	-10878
sch	-10879
url	-10880
yoo	-10881
કીટ	-10882
થોન	-10883
મ્ર	-10884
▁TM	-10885
▁VM	-10886
dian	-10887
ible	-10888
thon	-10889
મીમી	-10890
ાપુર	-10891
▁Bao	-10892
▁Mod	-10893
▁રિટ	-10894
ators	-10895
epper	-10896
tario	-10897
બેન્ડ	-10898
સ્તું	-10899
▁CNIL	-10900
▁prot	-10901
▁કઠિન	-10902
▁છેતર	-10903
▁ટીકા	-10904
▁ટોકન	-10905
▁નકાર	-10906
▁ફાયર	-10907
▁ભેગી	-10908
▁યુવી	-10909
▁રાહત	-10910
▁રોકી	-10911
▁વિરા	-10912
attery	-10913
▁જોવું	-10914
▁ઝાંખી	-10915
▁ટોચની	-10916
▁થર્મલ	-10917
▁પરાભવ	-10918
▁માનતા	-10919
▁લીટીઓ	-10920
▁હિંમત	-10921
ettings	-10922
▁કૅમેરા	-10923
▁દૃશ્યો	-10924
▁પરબિડી	-10925
▁પિતરને	-10926
▁વિક્રે	-10927
▁1528113	-10928
▁ધાર્મિક	-10929
▁પ્રભુને	-10930
▁રિબેટ્સ	-10931
oundation	-10932
▁category	-10933
▁મોલ્ડિંગ	-10934
▁સ્વીકારે	-10935
▁Holmbygden	-10936
▁ઇન્દ્રિયોની	-10937
▁કમ્પ્યુટર્સ	-10938
▁કાળજીપૂર્વક	-10939
HM	-10940
TN	-10941
WM	-10942
ZD	-10943
102	-10944
16)	-10945
325	-10946
APK	-10947
Bet	-10948
Bus	-10949
VDC	-10950
iga	-10951
ugu	-10952
▁84	-10953
▁Am	-10954
▁Ko	-10955
▁PE	-10956
▁Wh	-10957
▁ZY	-10958
▁ધમ	-10959
ails	-10960
insk	-10961
peri	-10962
vert	-10963
કમાં	-10964
નાઈઝ	-10965
મેરો	-10966
યુએસ	-10967
રોના	-10968
વિઝન	-10969
▁650	-10970
▁ચોર	-10971
▁ટોગ	-10972
▁બગા	-10973
▁બેઇ	-10974
▁ભરત	-10975
CHARX	-10976
anced	-10977
count	-10978
ealth	-10979
thiop	-10980
▁86-1	-10981
▁best	-10982
▁ptdr	-10983
▁rire	-10984
▁ન્યા	-10985
▁લેખન	-10986
rowser	-10987
▁અવાજો	-10988
▁કાર્બ	-10989
▁કોડનો	-10990
▁ઘટાડે	-10991
▁જવાની	-10992
▁ડ્રિલ	-10993
▁ભરપૂર	-10994
▁રાખવી	-10995
▁સ્વીચ	-10996
▁અવસ્થા	-10997
▁છોકરાઓ	-10998
▁તુર્કી	-10999
▁ફીચર્ડ	-11000
▁શરીરના	-11001
▁સંજ્ઞા	-11002
▁ઇન્ડોને	-11003
▁એન્ડ્રો	-11004
▁ઑક્ટોબર	-11005
▁સલાહકાર	-11006
▁Category	-11007
▁trolface	-11008
▁ઇન્સ્ટિટ	-11009
▁પસંદગીને	-11010
▁માહિતીનો	-11011
▁jetetroll	-11012
▁ખ્રિસ્તને	-11013
▁jetetrolle	-11014
▁દ્રષ્ટાંતે	-11015
HL	-11016
SR	-11017
xy	-11018
ષક	-11019
▁	-11020
.73	-11021
.”‘	-11022
/11	-11023
ray	-11024
જાં	-11025
ટીએ	-11026
તિત	-11027
તુર	-11028
પાત	-11029
બાઈ	-11030
રાઓ	-11031
▁43	-11032
▁ઝબ	-11033
▁ઢો	-11034
RAID	-11035
View	-11036
berg	-11037
ears	-11038
નિષ્	-11039
શૈલી	-11040
સીસી	-11041
ાણિત	-11042
ાયીઓ	-11043
િષ્ઠ	-11044
્રિડ	-11045
▁PHP	-11046
▁PNG	-11047
▁Tit	-11048
▁ઓછુ	-11049
▁ચંચ	-11050
▁ઝાર	-11051
▁તાઇ	-11052
▁નકા	-11053
ફેક્ટ	-11054
ોલ્ડર	-11055
▁10.5	-11056
▁Mall	-11057
▁pool	-11058
▁દુઃખ	-11059
▁ફર્મ	-11060
▁ફેલા	-11061
▁ભાવિ	-11062
▁માગો	-11063
▁માટી	-11064
▁મુંબ	-11065
▁રોગો	-11066
Ethiop	-11067
iction	-11068
▁આવતું	-11069
▁એલિવે	-11070
▁એશિયન	-11071
▁ધપાવો	-11072
▁નીચું	-11073
▁પથારી	-11074
▁ફર્નિ	-11075
▁ફાર્મ	-11076
▁વિરોધ	-11077
edicine	-11078
iCalImp	-11079
ત્પુરુષ	-11080
▁માલ્ટા	-11081
▁મોકલેલ	-11082
▁લેબલ્સ	-11083
▁વિભાજક	-11084
▁વોશિંગ	-11085
▁સામયિક	-11086
▁સ્ટાઇલ	-11087
▁હીટિંગ	-11088
▁Ontario	-11089
▁program	-11090
▁અમેઝિંગ	-11091
▁કનેક્ટર	-11092
▁ગણવામાં	-11093
▁પાણીમાં	-11094
▁પ્રભુની	-11095
▁પ્રેક્ટ	-11096
▁મેળવનાર	-11097
▁શાળામાં	-11098
▁સેવામાં	-11099
▁સ્થિતિઓ	-11100
Ethiopian	-11101
▁ઉમેદવારો	-11102
▁કાર્યસ્થ	-11103
▁ટ્રેકિંગ	-11104
▁દેખાવમાં	-11105
▁પ્રસ્તુત	-11106
▁મુલાકાતી	-11107
▁રહ્યાનું	-11108
▁શોધવાનું	-11109
▁સંપર્કને	-11110
▁સેટિંગ્સ	-11111
▁સેન્સર્સ	-11112
▁સ્ત્રોતો	-11113
▁ઇન્સ્ટન્ટ	-11114
▁કાર્ડબોર્ડ	-11115
▁યુનિવર્સિટીઓ	-11116
VC	-11117
XL	-11118
pe	-11119
સદ	-11120
170	-11121
999	-11122
dir	-11123
eep	-11124
ili	-11125
inn	-11126
tab	-11127
ક્ક	-11128
ટોર	-11129
મથક	-11130
શીય	-11131
શોભ	-11132
▁$2	-11133
▁PU	-11134
▁SW	-11135
Mail	-11136
char	-11137
page	-11138
rail	-11139
well	-11140
zoom	-11141
ધાની	-11142
બ્રુ	-11143
▁04:	-11144
▁4.5	-11145
▁86-	-11146
▁AMP	-11147
▁Bri	-11148
▁TLS	-11149
▁vir	-11150
▁નાટ	-11151
▁ફંડ	-11152
▁બલિ	-11153
▁સરહ	-11154
▁સાઇ	-11155
▁સુગ	-11156
.2018	-11157
ature	-11158
istry	-11159
ક્રિટ	-11160
પત્રક	-11161
સ્તાવ	-11162
▁6000	-11163
▁Conn	-11164
▁like	-11165
▁અપ્ર	-11166
▁ક્રિ	-11167
▁છૂટક	-11168
▁જોડે	-11169
▁ધીમી	-11170
▁નોકર	-11171
▁બજેટ	-11172
▁બીજુ	-11173
▁બેલે	-11174
▁બ્રુ	-11175
▁બ્લા	-11176
▁શર્ટ	-11177
Coptic	-11178
▁Adder	-11179
▁અંતર્	-11180
▁આપતું	-11181
▁કહેતો	-11182
▁તેણીએ	-11183
▁દોષિત	-11184
▁ધરપકડ	-11185
▁પડોશી	-11186
▁પુનર્	-11187
▁મૂસાએ	-11188
▁સાંજે	-11189
▁સુશોભ	-11190
▁સ્પેસ	-11191
▁હુમલો	-11192
elscher	-11193
▁ઉદ્ધાર	-11194
▁કુંઠિત	-11195
▁ગેરંટી	-11196
▁ચાર્જર	-11197
▁જીવનના	-11198
▁પ્રચાર	-11199
▁ભૂંગળી	-11200
▁યુનિયન	-11201
▁સમાધાન	-11202
▁સરનામુ	-11203
▁generic	-11204
▁website	-11205
▁અર્થમાં	-11206
▁ચિત્રની	-11207
▁પ્રિન્સ	-11208
▁ફર્નિચર	-11209
▁મહિનામાં	-11210
▁અસત્પુરુષ	-11211
▁દસ્તાવેજી	-11212
▁વાપરવામાં	-11213
▁કિસ્સાઓમાં	-11214
▁રીઝોલ્યુશન	-11215
▁સ્ક્રીનસેવર	-11216
/-	-11217
AF	-11218
Ar	-11219
ND	-11220
NL	-11221
zi	-11222
103	-11223
86)	-11224
ody	-11225
utt	-11226
ંદન	-11227
ડેડ	-11228
તરો	-11229
લેજ	-11230
સિસ	-11231
ેલુ	-11232
્યવ	-11233
▁??	-11234
▁PI	-11235
▁Uk	-11236
▁vs	-11237
▁ઉછ	-11238
▁ઓહ	-11239
▁કસ	-11240
▁ડૂ	-11241
▁હટ	-11242
▁૩૧	-11243
▁૩૮	-11244
▁૪૫	-11245
Site	-11246
aber	-11247
aver	-11248
chat	-11249
ક્લો	-11250
જનિક	-11251
ટીવી	-11252
ઠ્ઠી	-11253
▁LEE	-11254
▁equ	-11255
▁off	-11256
▁ડીલ	-11257
▁ડેન	-11258
▁તાણ	-11259
chann	-11260
omain	-11261
ક્ષકો	-11262
િફોર્	-11263
▁Page	-11264
▁Tian	-11265
▁આઇપી	-11266
▁એકને	-11267
▁જંતુ	-11268
▁ડિબગ	-11269
▁મિલી	-11270
▁વાહક	-11271
▁Autom	-11272
▁brush	-11273
▁image	-11274
▁ઈન્ટર	-11275
▁ગાણિત	-11276
▁જાતીય	-11277
▁ડાબું	-11278
▁તર્યા	-11279
▁તૃતીય	-11280
▁પુરવઠ	-11281
▁ભયંકર	-11282
▁હાલના	-11283
▁86-574	-11284
▁અનિષ્ટ	-11285
▁ખેડૂતો	-11286
▁ગેમિંગ	-11287
▁ચોકલેટ	-11288
▁નિર્મા	-11289
▁સોશિયલ	-11290
▁એક્સ્ટે	-11291
▁ઓપ્ટિકલ	-11292
▁કાર્યને	-11293
▁દેશકાળે	-11294
▁પસ્તાવો	-11295
▁મેનુમાં	-11296
▁સવિકલ્પ	-11297
▁સ્ટોરેજ	-11298
▁ઓટોમોટિવ	-11299
▁ધર્માદિક	-11300
▁મુલાકાતો	-11301
▁આત્મદર્શન	-11302
▁મેળવવાનું	-11303
▁સિન્ડ્રોમ	-11304
▁Ultrasonic	-11305
▁ઇન્ટરનેશનલ	-11306
▁સંગ્રહાયેલ	-11307
▁માઈક્રોસોફ્ટ	-11308
='	-11309
FE	-11310
RB	-11311
iec	-11312
rag	-11313
tim	-11314
જુઓ	-11315
સ્ડ	-11316
્લિ	-11317
▁1%	-11318
▁78	-11319
▁Me	-11320
▁NE	-11321
▁vC	-11322
▁કવ	-11323
▁૨૨	-11324
▁૫૯	-11325
▁૬૩	-11326
ilot	-11327
tify	-11328
નાના	-11329
પૂર્	-11330
લક્ષ	-11331
િકોણ	-11332
િત્સ	-11333
િયાં	-11334
િસિસ	-11335
▁1.6	-11336
▁139	-11337
▁850	-11338
▁OFF	-11339
▁dir	-11340
▁get	-11341
▁ફીટ	-11342
▁વિપ	-11343
ected	-11344
ility	-11345
ફરન્સ	-11346
▁2006	-11347
▁dial	-11348
▁અથડા	-11349
▁કંપન	-11350
▁ટાઇપ	-11351
▁ડિટે	-11352
▁પૂજા	-11353
▁સાદા	-11354
▁સીબી	-11355
change	-11356
ોકર્તા	-11357
▁Clash	-11358
▁glass	-11359
▁જન્મે	-11360
▁જરુંર	-11361
▁પસંદી	-11362
▁પિતાએ	-11363
▁બેન્ચ	-11364
▁મુદ્ર	-11365
▁રહીને	-11366
▁લવચીક	-11367
▁લિયેમ	-11368
▁વાજબી	-11369
▁સ્પોટ	-11370
▁હોલ્મ	-11371
દ્ધિનું	-11372
▁ઉપાસના	-11373
▁ગેલ્વે	-11374
▁જાગૃતિ	-11375
▁બિલાડી	-11376
▁સંકોચો	-11377
▁સસ્તું	-11378
▁Control	-11379
▁નિર્મૂળ	-11380
▁નિર્વિક	-11381
▁ઐતિહાસિક	-11382
▁કિલોમીટર	-11383
▁ગેલેક્સી	-11384
▁બિલ્ડિંગ	-11385
▁વિરોધાભા	-11386
▁સિરીયલ્સ	-11387
▁કાર્યકારી	-11388
▁Foundation	-11389
▁અસત્પુરુષની	-11390
▁દસ્તાવેજમાં	-11391
▁પુરવઠોકર્તા	-11392
▁મુખ્યમંત્રી	-11393
▁પ્રક્રિયામાં	-11394
DP	-11395
SI	-11396
UC	-11397
UM	-11398
મલ	-11399
230	-11400
40)	-11401
PCS	-11402
ani	-11403
cal	-11404
ily	-11405
ism	-11406
lat	-11407
uff	-11408
જીર	-11409
ફેર	-11410
રાત	-11411
રૂં	-11412
▁#,	-11413
▁FL	-11414
▁HL	-11415
▁HS	-11416
▁LT	-11417
▁આફ	-11418
▁મૅ	-11419
▁૩૩	-11420
▁૫૭	-11421
down	-11422
ghts	-11423
એલસી	-11424
બ્બા	-11425
▁128	-11426
▁365	-11427
▁Hot	-11428
▁કુત	-11429
▁પડછ	-11430
▁મોહ	-11431
▁વાડ	-11432
▁સીમ	-11433
order	-11434
rader	-11435
tdown	-11436
xiang	-11437
ટરીંગ	-11438
વન્યુ	-11439
વાર્ય	-11440
▁(24-	-11441
▁Vidy	-11442
▁been	-11443
▁days	-11444
▁ઉપાય	-11445
▁ઘોડો	-11446
▁ચોખ્	-11447
▁પીએસ	-11448
▁ફૂલો	-11449
જ્ઞાને	-11450
▁inter	-11451
▁અંગના	-11452
▁આપણાં	-11453
▁રંગને	-11454
▁સાચવી	-11455
▁હાર્ટ	-11456
oceania	-11457
સામગ્રી	-11458
સ્કૃતિક	-11459
▁mexico	-11460
▁એલાર્મ	-11461
▁ચંચળતા	-11462
▁છોકરીઓ	-11463
▁તેમનાં	-11464
▁માર્ગો	-11465
▁સિક્કો	-11466
Gujarati	-11467
lication	-11468
▁કિંમતને	-11469
▁ડિસ્કને	-11470
▁બેકએન્ડ	-11471
▁રુચિનું	-11472
▁લાકડાના	-11473
▁સ્પેનિશ	-11474
▁હેતુનું	-11475
jectClass	-11476
▁ઉમેરાયેલ	-11477
▁કેનેડિયન	-11478
▁પ્રસ્તાવ	-11479
▁બ્રહ્માં	-11480
▁વાગ્યાની	-11481
▁સ્ટાર્ટર	-11482
નિર્વિકલ્પ	-11483
▁આર્કાઇવ્ઝ	-11484
▁દ્રાક્ષારસ	-11485
▁બ્રાઉઝરમાં	-11486
▁Electronics	-11487
▁લાક્ષણિકતાઓ	-11488
FC	-11489
ીસ	-11490
700	-11491
Box	-11492
och	-11493
વુડ	-11494
ષ્ક	-11495
▁પૉ	-11496
Slot	-11497
ella	-11498
olia	-11499
ries	-11500
તમાં	-11501
ન્ગા	-11502
્લંઘ	-11503
▁Bre	-11504
▁Job	-11505
▁કુળ	-11506
▁જતી	-11507
▁ફેટ	-11508
▁મેઇ	-11509
▁રિફ	-11510
▁શેડ	-11511
space	-11512
પ્રથમ	-11513
▁1100	-11514
▁than	-11515
▁અનાજ	-11516
▁એમને	-11517
▁ગુને	-11518
▁તાત્	-11519
▁નેતા	-11520
▁પૂછી	-11521
ચોકઠાં	-11522
▁	-11523
ા	-11524
ે	-11525
ર	-11526
્	-11527
ન	-11528
ક	-11529
ો	-11530
મ	-11531
ી	-11532
ત	-11533
વ	-11534
સ	-11535
પ	-11536
ં	-11537
િ	-11538
લ	-11539
ય	-11540
ટ	-11541
ુ	-11542
.	-11543
e	-11544
જ	-11545
a	-11546
હ	-11547
બ	-11548
,	-11549
શ	-11550
ડ	-11551
ગ	-11552
o	-11553
i	-11554
n	-11555
t	-11556
દ	-11557
છ	-11558
0	-11559
અ	-11560
થ	-11561
s	-11562
r	-11563
1	-11564
ણ	-11565
આ	-11566
એ	-11567
2	-11568
ધ	-11569
l	-11570
ચ	-11571
ૂ	-11572
-	-11573
m	-11574
:	-11575
c	-11576
ફ	-11577
p	-11578
ખ	-11579
d	-11580
ઉ	-11581
ઓ	-11582
u	-11583
ઇ	-11584
)	-11585
(	-11586
ળ	-11587
g	-11588
ભ	-11589
h	-11590
ઈ	-11591
5	-11592
3	-11593
ષ	-11594
4	-11595
C	-11596
8	-11597
S	-11598
6	-11599
9	-11600
/	-11601
y	-11602
_	-11603
k	-11604
A	-11605
f	-11606
b	-11607
7	-11608
P	-11609
%	-11610
ઝ	-11611
M	-11612
T	-11613
E	-11614
R	-11615
w	-11616
D	-11617
N	-11618
I	-11619
L	-11620
"	-11621
B	-11622
v	-11623
G	-11624
U	-11625
F	-11626
O	-11627
H	-11628
'	-11629
ઘ	-11630
;	-11631
ઠ	-11632
W	-11633
ૃ	-11634
x	-11635
V	-11636
ઢ	-11637
K	-11638
?	-11639
૧	-11640
X	-11641
&	-11642
!	-11643
ૈ	-11644
z	-11645
j	-11646
J	-11647
“	-11648
$	-11649
ૉ	-11650
@	-11651
Y	-11652
”	-11653
+	-11654
#	-11655
–	-11656
૦	-11657
૨	-11658
ૌ	-11659
ૅ	-11660
ઊ	-11661
€	-11662
*	-11663
૫	-11664
ઞ	-11665
Z	-11666
=	-11667
Q	-11668
૭	-11669
૩	-11670
ઑ	-11671
૪	-11672
—	-11673
q	-11674
\	-11675
ઃ	-11676
૬	-11677
’	-11678
£	-11679
[	-11680
]	-11681
©	-11682
૮	-11683
૯	-11684
‘	-11685
°	-11686
}	-11687
{	-11688
ઍ	-11689
~	-11690
»	-11691
•	-11692
×	-11693
`	-11694
ઔ	-11695
а	-11696
е	-11697
➖	-11698
о	-11699
★	-11700
±	-11701
р	-11702
é	-11703
ઋ	-11704
‍	-11705
®	-11706
઼	-11707
с	-11708
и	-11709
→	-11710
≤	-11711
к	-11712
≥	-11713
·	-11714
н	-11715
ઐ	-11716
«	-11717
т	-11718
ا	-11719
í	-11720
в	-11721
у	-11722
ä	-11723
ö	-11724
ô	-11725
л	-11726
ѕ	-11727
ر	-11728
і	-11729
●	-11730
Φ	-11731
฿	-11732
	-11733
^	-11734
м	-11735
्	-11736
á	-11737
å	-11738
μ	-11739
ी	-11740
