<unk>	0
<s>	0
</s>	0
▁କ	-0
▁ପ	-1
▁ସ	-2
୍ତ	-3
▁ବ	-4
ରେ	-5
▁ମ	-6
ହି	-7
ାର	-8
▁ଏ	-9
ନ୍ତ	-10
▁ଆ	-11
୍ର	-12
ଙ୍	-13
▁ହ	-14
▁ନ	-15
୍ୟ	-16
▁‹	-17
କୁ	-18
ିବ	-19
▁ତ	-20
▁କର	-21
▁ଦ	-22
▁ଅ	-23
ଲା	-24
ାଇ	-25
ଲେ	-26
▁କି	-27
▁।	-28
ର୍	-29
ାନ	-30
ଙ୍କ	-31
ଛି	-32
▁ସେ	-33
▁ଯ	-34
ହା	-35
ନ୍ତୁ	-36
ିକ	-37
▁1	-38
▁ର	-39
▁!	-40
▁ହେ	-41
▁ବି	-42
▁ଭ	-43
▁ଚ	-44
ିବା	-45
▁କହି	-46
ମ୍	-47
ିତ	-48
ବେ	-49
st	-50
▁ଗ	-51
▁ପ୍ର	-52
ାହି	-53
ନ୍ତି	-54
ିନ	-55
▁ଜ	-56
ାହିଁ	-57
ti	-58
ଥି	-59
ାତ	-60
ାମ	-61
▁କେ	-62
▁ଶ	-63
▁ତା	-64
ଥା	-65
ଲି	-66
▁m	-67
ଟି	-68
କ୍	-69
ye	-70
▁ଉ	-71
ଡ଼	-72
▁ପାଇ	-73
ରି	-74
▁?	-75
▁(	-76
ବା	-77
ସ୍	-78
ରୁ	-79
ନ୍	-80
ମାନ	-81
in	-82
▁ଦେ	-83
▁କରି	-84
ଲୋ	-85
▁I	-86
▁ଓ	-87
on	-88
ଙ୍କୁ	-89
▁କହିଲେ	-90
me	-91
୍ୱ	-92
..	-93
▁କିନ୍ତୁ	-94
ଣ୍	-95
ନା	-96
ଷ୍	-97
ସି	-98
▁ମୁ	-99
▁ବା	-100
▁ନାହିଁ	-101
▁ନି	-102
▁ଫ	-103
ାରେ	-104
▁ଘ	-105
▁ଏହା	-106
▁ଏହି	-107
▁ପାଇଁ	-108
ୋଇ	-109
ଞ୍	-110
ଛନ୍ତି	-111
le	-112
୍ୟା	-113
▁h	-114
ଡି	-115
ହାର	-116
▁ମୋ	-117
ତେ	-118
▁ହେଲା	-119
ra	-120
▁“	-121
♪♪	-122
▁ଖ	-123
▁ପା	-124
▁ହୋଇ	-125
ହେ	-126
▁ଟ	-127
କି	-128
▁ଆପ	-129
ତି	-130
CG	-131
ସ୍ତ	-132
ଙ୍ଗ	-133
▁କରୁ	-134
▁ସମ	-135
ଦ୍	-136
ଧ୍ୟ	-137
iti	-138
▁S	-139
▁ଆପଣ	-140
ଣି	-141
କ୍ଷ	-142
▁IS	-143
▁B	-144
ଥିବା	-145
ut	-146
ଦି	-147
ଦେ	-148
▁ye	-149
▁hu	-150
miti	-151
▁huye	-152
▁yemiti	-153
▁ଚା	-154
ame	-155
ମା	-156
ତା	-157
ଛା	-158
▁ଭା	-159
ଇସ	-160
▁i	-161
ww	-162
ମ୍ଭ	-163
ମେ	-164
ାର୍	-165
ଦିନ	-166
▁ପଇସ	-167
▁ତୁ	-168
▁୧	-169
ou	-170
▁ଯା	-171
▁ମଧ୍ୟ	-172
...	-173
▁ଯେ	-174
▁ମୁଁ	-175
▁-	-176
re	-177
▁ପି	-178
cle	-179
କା	-180
ର୍ଷ	-181
ଞ୍ଚ	-182
ହୁ	-183
▁ଅନ	-184
▁ଡ	-185
କାର	-186
ଡ଼ି	-187
ଳେ	-188
▁ପୁ	-189
ଦ୍ଧ	-190
▁ବେ	-191
ବୁ	-192
Name	-193
▁mi	-194
▁ସେଦିନ	-195
ing	-196
▁But	-197
racle	-198
▁miracle	-199
▁ଚି	-200
କ୍ତ	-201
▁ମି	-202
▁.	-203
ୂର୍	-204
an	-205
ମି	-206
▁ସ୍	-207
ବଂ	-208
ାଜ	-209
ଥିଲେ	-210
at	-211
ପରେ	-212
▁A	-213
ଗୁ	-214
▁କରନ୍ତୁ	-215
tion	-216
▁ଏବଂ	-217
▁"	-218
ଟର	-219
er	-220
ଳି	-221
ରରେ	-222
▁ମା	-223
ତ୍ତ	-224
ବି	-225
▁କରିବା	-226
▁ବ୍ୟ	-227
ଯ୍ୟ	-228
▁t	-229
▁ହାତ	-230
ଜି	-231
▁ସଂ	-232
ୋଗ	-233
ଥିଲା	-234
▁ନା	-235
▁କୁ	-236
ିବେ	-237
▁କା	-238
▁ଆଉ	-239
ଲ୍	-240
ମାନେ	-241
ଣ୍ଡ	-242
▁ଲୋ	-243
▁ଏକ	-244
ଥାଏ	-245
▁2	-246
▁ପର	-247
ଶ୍	-248
▁କରୁଛି	-249
▁ବର୍ଷ	-250
▁କଥା	-251
▁ଧ	-252
▁ଆସ	-253
mo	-254
▁ସା	-255
▁ମହି	-256
▁ତେ	-257
▁ମହିଳ	-258
▁ଲ	-259
▁s	-260
▁ପଇସା	-261
ାରୁ	-262
▁ରେ	-263
▁ନୁ	-264
ଷ୍ଟ	-265
ଙ୍କର	-266
or	-267
▁mẹ	-268
▁ପୂର୍	-269
କର	-270
▁୨	-271
▁ଲୋକ	-272
ch	-273
▁କଣ	-274
୍ରେ	-275
king	-276
ତ୍	-277
ାଯ	-278
▁କିଛି	-279
ନି	-280
▁ହାତୀ	-281
ar	-282
▁ଜା	-283
moking	-284
ିତି	-285
▁କେବେ	-286
▁ଦୁ	-287
▁Smoking	-288
ରା	-289
୍ତ୍ତ	-290
▁ଅଛି	-291
▁ପୂର୍ବ	-292
▁ସୁ	-293
▁ଦେଖ	-294
୍ରା	-295
ଣା	-296
୍ରୀ	-297
ପା	-298
▁ଅଧ	-299
▁ଆମ	-300
▁କାହିଁ	-301
ହେଁ	-302
▁l	-303
ାରି	-304
▁n	-305
▁କହିଲା	-306
▁ଇ	-307
ବର	-308
ନ୍ଦ	-309
▁ରହି	-310
▁f	-311
▁ଏବେ	-312
▁ବ୍ୟବ	-313
▁କ୍	-314
ୀର	-315
▁ଗୋ	-316
ିକା	-317
▁କାହିଁକି	-318
ପି	-319
▁ସବୁ	-320
▁ନେ	-321
♪♪♪♪	-322
▁ବେଳେ	-323
nd	-324
om	-325
▁ନୁହେଁ	-326
▁ସ୍ୱ	-327
▁ହେବ	-328
▁4	-329
▁ଆଃ	-330
ଦା	-331
ଟେ	-332
▁T	-333
nt	-334
▁ଯଦି	-335
ic	-336
▁a	-337
▁C	-338
ପ୍ର	-339
ୀୟ	-340
ଦେଶ	-341
ve	-342
ଷୟ	-343
▁ଉପ	-344
▁କେତେ	-345
ାରଣ	-346
▁ଥିବା	-347
ଚନା	-348
ମିତି	-349
ପାର	-350
ୃତ	-351
▁ଛା	-352
▁କାର୍	-353
▁ପୂର୍ବରୁ	-354
▁ତେବେ	-355
▁ବିଷୟ	-356
he	-357
ମିଟର	-358
▁କିଲୋ	-359
wwww	-360
▁ରାଜ	-361
▁N	-362
କ୍ସ	-363
▁ହେଲେ	-364
▁ପରି	-365
▁is	-366
▁ବ୍ୟବହାର	-367
▁ପିଛା	-368
▁p	-369
ାୟ	-370
▁:	-371
▁କିଲୋମିଟର	-372
▁,	-373
▁‘	-374
ଉଁ	-375
▁ଅନୁ	-376
▁0	-377
▁ହଁ	-378
ction	-379
▁b	-380
▁ସମ୍	-381
▁ଡି	-382
ଞ୍ଚି	-383
▁ବୃ	-384
ଠି	-385
ଟା	-386
ଚ୍	-387
ର୍ତ୍ତ	-388
▁କରାଯ	-389
▁3	-390
▁ଅଧିକ	-391
ପରି	-392
ହନ୍ତି	-393
▁M	-394
▁କ୍ଷ	-395
▁ଯାଇ	-396
▁ପରେ	-397
▁ଆସି	-398
▁ପ୍ରତି	-399
▁କୋ	-400
▁ଲା	-401
ରଣ	-402
▁ଏଥି	-403
▁ଦି	-404
ଡ଼ା	-405
ଦ୍ଧି	-406
ଶୁ	-407
▁(_	-408
▁c	-409
ଭା	-410
▁ଜଣ	-411
▁ପହ	-412
al	-413
▁ଦିନ	-414
▁ବିଶ	-415
ାମାନ	-416
▁ସହ	-417
▁ବିଜ	-418
ୋଲି	-419
▁ଚିନ୍ତ	-420
▁ପାଖ	-421
▁ସମସ୍ତ	-422
▁୩	-423
▁ତାଙ୍କ	-424
▁ଠ	-425
:1	-426
▁ତାହା	-427
▁P	-428
▁ଏହାର	-429
▁ମାନ	-430
ାରା	-431
ତ୍ର	-432
ହିତ	-433
▁ନୂ	-434
ଟିଏ	-435
▁ଘର	-436
▁ତାଙ୍କୁ	-437
▁ବୃଦ୍ଧି	-438
▁no	-439
ନାହିଁ	-440
di	-441
ଷ୍ଠ	-442
▁କହନ୍ତି	-443
ଯା	-444
▁ଭାଷ	-445
ବନ	-446
କ୍ତି	-447
▁ଦେଇ	-448
▁ନିର୍	-449
ଶା	-450
ଧାନ	-451
▁ପହଞ୍ଚି	-452
▁%	-453
ଉଛି	-454
ୋଧ	-455
▁କାର୍ଯ୍ୟ	-456
of	-457
▁ଛ	-458
ସ୍ଥ	-459
es	-460
▁ଗ୍ର	-461
ଏହା	-462
▁ଉତ୍ତ	-463
▁ଏହାପରେ	-464
ୁର	-465
▁ସମୟ	-466
▁ଜାଣ	-467
ri	-468
▁_	-469
▁ଦୁଇ	-470
▁ମହିଳା	-471
▁W	-472
▁ଗୁ	-473
▁ଏଥିରେ	-474
▁ଟୋ	-475
▁କିଏ	-476
ment	-477
▁ତୁମ୍ଭ	-478
▁ଯୁ	-479
▁ବୁ	-480
atch	-481
▁O	-482
▁7	-483
ିନା	-484
କ୍ର	-485
▁ବସ୍	-486
▁ଖା	-487
▁9	-488
▁ପହଞ୍ଚିଛି	-489
ound	-490
▁ପାଇଛି	-491
▁ଟଙ୍କ	-492
▁ଚାଲି	-493
ାମାନଙ୍କ	-494
▁ପଇସାରେ	-495
▁ମନ	-496
ଟ୍	-497
ରକାର	-498
▁ଆସେ	-499
▁ଦରରେ	-500
ଲୁ	-501
ଚିତ	-502
ିବାର	-503
▁ଡା	-504
ru	-505
:16	-506
▁if	-507
▁ନିଜ	-508
it	-509
▁w	-510
▁04	-511
▁ସି	-512
ମୁ	-513
▁ମେ	-514
▁ଗୋଟିଏ	-515
▁ସହିତ	-516
ଜ୍	-517
▁–	-518
୍ୟୁ	-519
en	-520
▁in	-521
ଲେଖ	-522
▁ଯାହା	-523
▁Action	-524
▁match	-525
ାତି	-526
▁04:16	-527
▁found	-528
▁y	-529
▁ମହିଳାମାନଙ୍କ	-530
▁ଅବ	-531
▁ଚିନ୍ତାର	-532
▁ଥ	-533
▁୫	-534
▁୨୦	-535
▁ଟୋଡ଼ା	-536
▁D	-537
ଶ୍ୟ	-538
▁ବଢ	-539
▁you	-540
ାରତ	-541
ଳା	-542
▁ରା	-543
▁4.	-544
ହଁ	-545
ୋଲ	-546
ol	-547
▁K	-548
▁1.	-549
▁ଛାଡ	-550
ାମୀ	-551
▁ପଢ	-552
୍ପ	-553
ଭି	-554
୍ଯ	-555
▁♪♪♪♪	-556
▁ହୁ	-557
ିବାକୁ	-558
ବଳ	-559
▁'	-560
▁ଆର	-561
▁ମଞ୍	-562
▁ଉତ୍ତର	-563
ୟା	-564
ଯୋଗ	-565
▁the	-566
▁ଆମେ	-567
▁୧୯	-568
▁ଅନ୍ୟ	-569
▁E	-570
▁ଗ୍ରହ	-571
▁ଶୁ	-572
omment	-573
ରୀ	-574
▁ପର୍	-575
ମାନଙ୍କ	-576
▁କରାଯାଇ	-577
ିନି	-578
ଣୀ	-579
ଡ଼ିକ	-580
▁ଏତେ	-581
▁ପାଖରେ	-582
▁d	-583
▁L	-584
େଷ	-585
▁କଲେ	-586
▁ରଖ	-587
ାତ୍ର	-588
ଲୋଚନା	-589
୍ନ	-590
▁20	-591
▁ମଞ୍ଜି	-592
▁ମିଶ	-593
▁of	-594
▁ସେହି	-595
▁କେମିତି	-596
▁କାମ	-597
ସା	-598
▁@	-599
▁ସନ୍	-600
ad	-601
ୋଜ	-602
ୀନ	-603
ବରେ	-604
ଳ୍ପ	-605
se	-606
ର୍କ	-607
କେ	-608
▁ଭାରତ	-609
▁[	-610
▁ନାମ	-611
ୋଷ	-612
ପାରେ	-613
ପ୍ତ	-614
ମାନଙ୍କୁ	-615
▁R	-616
ିବି	-617
▁ମହା	-618
▁ଜୀ	-619
▁ଦା	-620
ିକ୍	-621
▁ସ୍ଥ	-622
▁କହୁ	-623
▁ଛାଡିବ	-624
▁ସତ	-625
▁ଘେ	-626
ove	-627
ଦ୍ୟ	-628
▁ଆଈ	-629
ଣ୍ଟ	-630
▁ଆଈକୁ	-631
▁ଯାଅ	-632
▁ଫେ	-633
ଣସି	-634
ଗୁଡ଼ିକ	-635
▁ଗ୍ରହଣ	-636
ସେ	-637
▁G	-638
▁ସୂ	-639
▁ଓଡ଼ି	-640
▁ଉପରେ	-641
▁ୟ	-642
▁”	-643
▁ବହୁ	-644
▁ହି	-645
ମାଣ	-646
▁।”	-647
▁ସରକାର	-648
▁Ne	-649
ାଳ	-650
ow	-651
▁ଆଜି	-652
▁କୌ	-653
ଗି	-654
ଣ୍ଣ	-655
▁ମୂ	-656
ବାକୁ	-657
▁re	-658
te	-659
ଥାନ୍ତି	-660
mp	-661
▁ଥିଲା	-662
▁ଏଲ	-663
ଭୁ	-664
▁କେଉଁ	-665
▁ତୁମ	-666
▁ଭି	-667
▁ଆରମ୍ଭ	-668
@@	-669
୧୮	-670
▁ତୁମେ	-671
▁ରୁ	-672
ୀତ	-673
ାଇଲ	-674
▁ବିଜେ	-675
ର୍ଶ	-676
ଲକ୍ସ	-677
୦୦	-678
▁love	-679
▁ହୋଇନାହିଁ	-680
ପଥ	-681
ଶ୍ୱ	-682
ଣୁ	-683
ତନ	-684
▁ଦେଖି	-685
ତିକ	-686
▁ଅସ	-687
▁ପଚ	-688
▁ଅପ	-689
ତ୍ତ୍ୱ	-690
▁to	-691
▁ଏଲିନା	-692
?”	-693
▁ଭିତ	-694
ଟରେ	-695
▁ଟଙ୍କା	-696
▁ସ୍ୱାମୀ	-697
▁sm	-698
▁ରହିଛି	-699
▁ଡିଲକ୍ସ	-700
and	-701
ଭଳି	-702
▁ସର୍	-703
▁ମୋତେ	-704
▁ନୂଆ	-705
▁ବୋଲି	-706
▁ଯୋଗ	-707
▁ସମ୍ପ	-708
▁କୌଣସି	-709
wwwwwwww	-710
▁ପୁଅ	-711
ruti	-712
▁smruti	-713
▁ଲେଖ	-714
▁କରିବାକୁ	-715
ନ୍ତ୍ର	-716
▁କିପରି	-717
▁ଜି	-718
▁ତାଙ୍କର	-719
▁ପୃ	-720
ଡ଼ିକୁ	-721
▁ଭାବରେ	-722
ge	-723
▁ଭାଷାତ	-724
▁ସମ୍ଭ	-725
▁ଭାଷାତତ୍ତ୍ୱ	-726
ଙ୍ଗି	-727
▁ପୁଣି	-728
▁H	-729
▁କେବଳ	-730
▁ଟି	-731
ପ୍	-732
▁ମହିଳାଙ୍କ	-733
ay	-734
ଞ୍ଜ	-735
el	-736
ବ୍	-737
ସ୍ୟ	-738
un	-739
▁8	-740
ଗ୍ର	-741
ଠାରୁ	-742
ct	-743
ତ୍ୟ	-744
ପୁର	-745
▁କାହା	-746
▁ନେଇ	-747
ଡେ	-748
ସର	-749
▁ହେଉଛି	-750
▁ଏହାକୁ	-751
ସ୍ଥା	-752
ାନ୍	-753
▁କାରଣ	-754
▁ସ୍ଥାନ	-755
▁ବାଟ	-756
▁ଭଲ	-757
▁5	-758
de	-759
▁ଆପଣଙ୍କ	-760
▁୪	-761
th	-762
▁4.4	-763
▁ଆବ	-764
ମ୍ପ	-765
ଗୁଡ଼ିକୁ	-766
ତୁ	-767
▁ଅଟେ	-768
▁ଯେଉଁ	-769
ର୍ଥ	-770
▁କରୁଛନ୍ତି	-771
00	-772
ଡା	-773
ଯାଇ	-774
....	-775
କ୍ଷା	-776
ଜା	-777
▁ମିଶାଇ	-778
▁କ୍ଷୀର	-779
▁F	-780
ିଆ	-781
▁ମହେ	-782
ିତା	-783
▁ସ୍ତ	-784
ିବୁ	-785
ପାରିବେ	-786
ବକ	-787
▁ମୋଦି	-788
▁ସନ୍ଦେଶ	-789
ସନ	-790
ବାଦ	-791
ro	-792
▁ପାର	-793
▁	-794
ା	-795
ି	-796
୍	-797
ର	-798
କ	-799
େ	-800
ତ	-801
ନ	-802
ବ	-803
ୁ	-804
ହ	-805
ସ	-806
ମ	-807
ପ	-808
ଲ	-809
ଦ	-810
e	-811
ଏ	-812
ୟ	-813
.	-814
t	-815
ଣ	-816
ୋ	-817
i	-818
ଇ	-819
ଆ	-820
ଟ	-821
o	-822
ଛ	-823
ଗ	-824
a	-825
।	-826
ଥ	-827
ଁ	-828
ଯ	-829
s	-830
ଙ	-831
ୀ	-832
ଶ	-833
ଜ	-834
m	-835
n	-836
ଚ	-837
‹	-838
ଡ	-839
ଅ	-840
,	-841
ଭ	-842
1	-843
ଷ	-844
ଳ	-845
r	-846
ଧ	-847
u	-848
?	-849
ଉ	-850
!	-851
l	-852
c	-853
ଖ	-854
h	-855
y	-856
-	-857
w	-858
d	-859
ଂ	-860
S	-861
ୂ	-862
♪	-863
:	-864
ଠ	-865
ଫ	-866
଼	-867
I	-868
C	-869
)	-870
(	-871
g	-872
ୱ	-873
ଓ	-874
ଘ	-875
f	-876
୧	-877
0	-878
ୃ	-879
p	-880
N	-881
’	-882
ଞ	-883
୦	-884
G	-885
2	-886
"	-887
4	-888
k	-889
B	-890
A	-891
“	-892
”	-893
b	-894
ଢ	-895
9	-896
3	-897
v	-898
T	-899
ଃ	-900
୨	-901
_	-902
'	-903
@	-904
5	-905
7	-906
E	-907
6	-908
D	-909
%	-910
R	-911
୯	-912
୫	-913
O	-914
/	-915
M	-916
୩	-917
P	-918
8	-919
ẹ	-920
L	-921
୮	-922
ୌ	-923
W	-924
୪	-925
ଵ	-926
‘	-927
F	-928
]	-929
K	-930
;	-931
[	-932
୬	-933
ଈ	-934
H	-935
୭	-936
ୈ	-937
x	-938
–	-939
ଝ	-940
Z	-941
X	-942
U	-943
J	-944
V	-945
\	-946
û	-947
ò	-948
॰	-949
&	-950
Y	-951
‍	-952
÷	-953
ଋ	-954
୤	-955
=	-956
Q	-957
`	-958
—	-959
j	-960
þ	-961
á	-962
🙏	-963
ù	-964
ú	-965
#	-966
{	-967
↑	-968
}	-969
z	-970
q	-971
œ	-972
ሳ	-973
+	-974
*	-975
ଔ	-976
←	-977
┈	-978
ā	-979
~	-980
║	-981
»	-982
•	-983
ଐ	-984
₹	-985
©	-986
᭫	-987
ō	-988
·	-989
ē	-990
$	-991
♡	-992
ਾ	-993
ຨ	-994
ଊ	-995
ī	-996
