<unk>	0
<s>	0
</s>	0
▁	-2.0021
,	-4.28172
ကို	-4.44547
.	-4.78039
-	-4.80157
အ	-4.8018
က	-4.86739
s	-4.94549
မ	-5.07536
၊	-5.14696
▁အ	-5.14983
:	-5.16708
များ	-5.29744
▁ကို	-5.36132
သော	-5.36149
သည်	-5.37393
ရ	-5.42821
)	-5.43481
း	-5.46606
;	-5.51773
မှု	-5.54361
။	-5.57272
▁(	-5.64132
့	-5.66038
မှာ	-5.67819
ပါ	-5.73713
၏	-5.75229
နှင့်	-5.80094
တ	-5.84887
ခြင်း	-5.86939
y	-5.9156
▁&	-5.92552
e	-5.95267
မှ	-5.96506
တဲ့	-5.96535
a	-6.00267
ေ	-6.03288
ရှိ	-6.05644
p	-6.07035
စ	-6.08453
ဖြစ်	-6.09882
ကြ	-6.10318
သ	-6.12663
gt	-6.14095
c	-6.14146
တွေ	-6.14256
er	-6.17075
သူ	-6.1763
in	-6.17797
တာ	-6.19221
နေ	-6.20354
ပေး	-6.22274
တွင်	-6.22332
ရေး	-6.25253
ပြီး	-6.25922
o	-6.27889
C	-6.30803
လာ	-6.31102
S	-6.31375
"	-6.31622
▁S	-6.31893
▁/	-6.33033
နိုင်	-6.35113
t	-6.35385
n	-6.36443
A	-6.37081
င်	-6.37155
က်	-6.38102
ဟာ	-6.38495
i	-6.3964
m	-6.40331
နဲ့	-6.40341
f	-6.40903
re	-6.41419
D	-6.42523
၌	-6.4364
အတွက်	-6.4432
လ	-6.44716
ing	-6.45204
ရန်	-6.46035
/	-6.4688
M	-6.46884
d	-6.46966
▁C	-6.47795
တော်	-6.49002
ရာ	-6.49385
u	-6.50487
3	-6.50665
g	-6.51052
ရဲ့	-6.5218
al	-6.54934
သို့	-6.55698
သား	-6.56728
h	-6.56894
ထား	-6.56991
ဖို့	-6.57867
T	-6.58226
၍	-6.5874
▁B	-6.59356
r	-6.59415
▁P	-6.60166
ပ	-6.60343
နှင့်	-6.60507
ပါ။	-6.60534
န်	-6.62497
P	-6.62538
အား	-6.62654
ခ	-6.63647
ဆို	-6.63807
2	-6.63992
k	-6.64379
w	-6.64801
▁T	-6.67471
on	-6.71385
▁ဒီ	-6.73597
ကျ	-6.73737
b	-6.73787
▁H	-6.7402
ဘ	-6.74208
E	-6.74522
ဆ	-6.74637
▁F	-6.75589
လို	-6.76515
သွား	-6.77368
န	-6.7807
en	-6.78195
စာ	-6.7864
an	-6.78813
le	-6.79166
ချက်	-6.79376
▁1	-6.81021
ed	-6.81054
4	-6.8112
▁A	-6.82768
ပြု	-6.82867
L	-6.83306
ကြီး	-6.8342
တစ်ခု	-6.84558
ချ	-6.85028
ပြ	-6.86466
စက်	-6.86493
1	-6.86826
O	-6.86855
ခဲ့	-6.87472
or	-6.87832
ar	-6.88164
လိုက်	-6.88984
B	-6.89025
ဖ	-6.89166
ခံ	-6.9027
တို့	-6.90583
က္	-6.91076
l	-6.92003
ိ	-6.92005
amp	-6.92398
လက်	-6.92798
ပ်	-6.93144
ယ	-6.93257
I	-6.93706
တော့	-6.94311
သာ	-6.94433
စေ	-6.96656
ထ	-6.97337
နှစ်	-6.98085
ယူ	-6.98151
H	-6.98249
▁2	-6.98908
ch	-6.99234
5	-7.00626
ဒ	-7.00701
မြို့	-7.01315
x	-7.0185
lt	-7.02188
ပြော	-7.02547
မိ	-7.02624
တွေကို	-7.0309
F	-7.03529
6	-7.04048
မ်း	-7.04548
ပုံ	-7.05071
များအတွက်	-7.05677
▁လူ	-7.05866
R	-7.06641
ဂ	-7.06839
်	-7.06991
▁G	-7.0719
v	-7.07638
et	-7.07681
တစ်	-7.08387
နာ	-7.08639
တယ်	-7.08697
ဆောင်	-7.09394
တယ်။	-7.094
▁_	-7.09668
st	-7.10299
▁E	-7.1037
▁D	-7.10514
လူ	-7.11255
စ်	-7.12491
လို့	-7.12591
▁ထို	-7.12707
ြ	-7.13327
လေ	-7.14144
များကို	-7.14769
ဗ	-7.14816
▁N	-7.14975
င္	-7.16293
G	-7.16443
လည်း	-7.16784
it	-7.16817
▁M	-7.17097
ံ	-7.17196
▁"	-7.17216
ဇ	-7.17253
စဉ်	-7.1733
com	-7.17568
ကား	-7.17588
▁W	-7.18317
သုံး	-7.19257
7	-7.19973
ှ	-7.2031
ဝ	-7.20716
သည်။	-7.20863
ု	-7.20911
ro	-7.21101
▁ငါ	-7.21791
နေ့	-7.22475
U	-7.2306
ူ	-7.23181
ဝင်	-7.23785
ပဲ	-7.23788
9	-7.2516
20	-7.25563
နိုင်ငံ	-7.25602
လှ	-7.25694
ဆုံး	-7.25717
%	-7.26135
ာ	-7.26672
▁start	-7.2681
၍၊	-7.27149
ur	-7.27187
8	-7.2818
"&	-7.28493
z	-7.28696
ရေ	-7.29007
▁3	-7.29071
ra	-7.29324
ရောက်	-7.29458
!	-7.29548
စား	-7.29864
▁dur	-7.29881
ပါတယ်။	-7.30008
တင်	-7.30667
လုံး	-7.31136
ဟု	-7.31194
▁L	-7.31262
နှင့်အတူ	-7.31323
လုပ်	-7.31342
ad	-7.32079
ွ	-7.32091
တို့ကို	-7.33147
တို့သည်	-7.33545
ic	-7.33548
▁သူတို့	-7.33649
at	-7.33859
မည်	-7.35783
ri	-7.36341
un	-7.36568
00	-7.36584
me	-7.36586
▁R	-7.36634
th	-7.36742
V	-7.36777
ီ	-7.36783
အဖြစ်	-7.37284
▁Co	-7.37292
င်း	-7.3738
es	-7.37413
el	-7.37624
သင်	-7.37691
ကာ	-7.38007
ဲ	-7.3802
W	-7.38267
သိ	-7.38483
K	-7.40273
▁K	-7.40299
ျ	-7.40445
နည်း	-7.41472
▁...	-7.42584
ည	-7.42844
ပေါ်	-7.42888
ကောင်း	-7.42905
▁5	-7.44208
ဦး	-7.44208
တစ်ဦး	-7.44213
၏။	-7.44219
ပြည်	-7.44537
ဒီ	-7.44585
ေး	-7.45036
တော်မူ	-7.45094
စု	-7.45603
ို	-7.45773
50	-7.4588
မာ	-7.46515
န္	-7.46615
op	-7.47023
လေး	-7.47048
co	-7.47299
N	-7.47327
ုံ	-7.47635
to	-7.48471
ter	-7.48491
ကြ၏။	-7.48863
am	-7.49267
il	-7.49798
တူ	-7.50265
ပင်	-7.5048
▁အဆိုပါ	-7.50483
၀	-7.5129
?	-7.51314
မျိုး	-7.51621
နေရာ	-7.51807
ရင်	-7.52925
ol	-7.52941
လဲ	-7.5334
▁ဤ	-7.53484
တွေ့	-7.53566
se	-7.54254
is	-7.54379
▁Ma	-7.54876
▁O	-7.55585
ဟ	-7.55897
ရပ်	-7.55935
ရှ	-7.56095
င္း	-7.56125
▁ကျွန်မ	-7.56226
j	-7.56468
▁လက်	-7.56814
ဆက်	-7.56964
ကြား	-7.57087
စွာ	-7.57306
ခု	-7.57331
▁သင်	-7.57551
သစ်	-7.57612
မျှ	-7.57665
10	-7.58042
(	-7.5813
မရှိ	-7.58545
ကုန်	-7.59126
ုတ်	-7.59612
ငွေ	-7.59692
ယ်	-7.60182
mm	-7.60251
te	-7.60409
္	-7.60441
နောက်	-7.60463
▁10	-7.60591
တောင်	-7.6082
ပြင်	-7.61007
ne	-7.6107
ရှင်	-7.61539
▁တရုတ်	-7.61572
▁J	-7.61584
ထက်	-7.61754
ထုတ်	-7.61936
▁4	-7.61985
]	-7.62032
ပေါင်း	-7.63249
ကနေ	-7.63579
အသုံးပြု	-7.63868
ate	-7.64978
ma	-7.65571
lo	-7.65926
အပေါ်	-7.65975
န်း	-7.66417
တည်	-7.66611
id	-7.66645
ပွဲ	-7.66822
▁လုပ်	-7.67098
▁တစ်	-7.67449
အောင်	-7.67684
အားဖြင့်	-7.67703
ဒါ	-7.67785
တိုင်း	-7.67795
နား	-7.67885
▁V	-7.68316
ဆီ	-7.68647
ပိုင်း	-7.68849
ul	-7.68957
စရာ	-7.69328
X	-7.7028
တိုက်	-7.70613
ခေါ်	-7.707
ရက်	-7.70834
သံ	-7.70953
င	-7.70989
us	-7.71036
ိတ်	-7.71196
န့်	-7.71259
de	-7.71538
://	-7.72232
ထွက်	-7.72885
တ်	-7.7312
တ္	-7.73162
စနစ်	-7.73185
▁Ch	-7.73303
သည့်	-7.73531
ယာ	-7.7371
ဘက်	-7.74482
li	-7.74603
▁Re	-7.74736
ချင်း	-7.7481
="	-7.74895
▁–	-7.75199
မြ	-7.75289
လုပ်ငန်း	-7.75647
မြင်	-7.75798
...	-7.76083
ပြန်	-7.76282
ခဲ့သည်။	-7.76458
ကြောင်း	-7.76611
=	-7.7695
mo	-7.77161
ly	-7.7721
အတွင်း	-7.78127
la	-7.78215
po	-7.78695
▁the	-7.78901
▁$	-7.7924
ရော	-7.79605
လျှင်	-7.80529
အောက်	-7.80743
မဟုတ်	-7.80771
▁နှစ်	-7.80819
မှတ်	-7.81553
ation	-7.82017
သို့မဟုတ်	-7.82065
Y	-7.82366
အိမ်	-7.82428
မှန်	-7.826
တက်	-7.83101
မ်	-7.83389
ပါတယ်	-7.83916
sh	-7.84045
စီး	-7.8407
ent	-7.84321
ပြီ	-7.84385
တတ်	-7.84593
စုံ	-7.84871
ဆေး	-7.85807
သက်	-7.85853
၄	-7.85933
ခံရ	-7.86059
ဘာ	-7.86474
ကြည့်	-7.86509
'	-7.86661
မင်း	-7.86693
အမျိုးအစား	-7.87457
ha	-7.88062
and	-7.88235
မွ	-7.88245
ot	-7.88912
▁သင်တို့	-7.89009
လိုအပ်	-7.89054
▁+	-7.89499
စီ	-7.89987
ချင်	-7.90124
ောင်	-7.90156
ut	-7.90355
တရား	-7.90475
ပစ္စည်း	-7.90558
ရိ	-7.90781
ထောင်	-7.91558
▁I	-7.92231
ထဲမှာ	-7.92478
▁ဒါ	-7.92521
um	-7.92747
ရင်း	-7.92789
▁2019	-7.92935
▁ကိုယ်	-7.93448
ver	-7.94121
အချိန်	-7.94243
ang	-7.94475
၅	-7.94482
လမ်း	-7.94626
11	-7.94715
per	-7.94718
ex	-7.94865
အကြောင်း	-7.94878
လီ	-7.94916
ကြောင့်	-7.95152
မယ်	-7.95326
im	-7.9569
ဆိုင်	-7.95747
ဘူး	-7.9579
ဘဲ	-7.95836
သောသူ	-7.96369
အရာ	-7.96373
25	-7.96596
_	-7.96715
ကြာ	-7.97273
ွေ	-7.9738
ဖက်	-7.9751
▁ရေ	-7.97567
ပညာ	-7.97638
ack	-7.97644
စိတ်	-7.97977
▁ထာဝရဘုရား	-7.98473
17	-7.98486
ထဲ	-7.98767
သင့်	-7.99317
၇	-7.99358
ော်	-7.9942
as	-7.99423
ပု	-7.99605
▁6	-7.99845
၂	-8.00168
တာက	-8.00207
ip	-8.00224
000	-8.00233
▁of	-8.00279
ပတ်	-8.00504
▁In	-8.00635
ခြေ	-8.00665
လ်	-8.00905
လော	-8.01104
▁7	-8.0131
သီး	-8.01467
ုပ်	-8.01468
ထဲက	-8.01565
all	-8.01654
▁[	-8.01904
လောက်	-8.0193
ရဲ	-8.01962
ပို	-8.02089
၉	-8.02197
လား	-8.02649
ခ်	-8.02838
တို	-8.0289
ကျော်	-8.02896
ဂျ	-8.03068
12	-8.03124
40	-8.03222
ညီ	-8.03426
ပါဝင်	-8.03496
တယ်၊	-8.03592
▁2018	-8.03631
ငါ	-8.03708
▁20	-8.03729
14	-8.03788
ဒေါ	-8.03815
ချိန်	-8.03849
ဖြ	-8.03859
13	-8.04161
စစ်	-8.0437
ရုပ်	-8.04897
မည်။	-8.05038
▁ကျွန်တော်	-8.05089
အားလုံး	-8.05307
ပို့	-8.05449
ရိုး	-8.05455
60	-8.0566
မူ	-8.05696
ဆိုတာ	-8.06049
my	-8.06116
တည်း	-8.06326
ပေါ်မှာ	-8.06548
▁သူ့	-8.06726
ား	-8.06767
ရှု	-8.06796
ကျွန်	-8.06806
ေတြ	-8.0691
ရှာ	-8.06964
ay	-8.07044
ူး	-8.07187
ကောင်	-8.07508
လျက်	-8.07562
ta	-8.07667
ချုပ်	-8.07759
ကိုယ်	-8.07807
မွာ	-8.07849
ရည်	-8.08064
ဝန်	-8.08303
▁ပို	-8.08404
J	-8.08578
na	-8.08695
ပေ	-8.08827
ခန်း	-8.08877
19	-8.0892
ow	-8.08938
ine	-8.09171
လျှင်၊	-8.093
▁ဒါက	-8.09328
များနှင့်	-8.09328
▁19	-8.09412
ဝါ	-8.09558
▁သို့မဟုတ်	-8.0958
▁သိ	-8.09623
ငယ်	-8.09702
ho	-8.10088
နက်	-8.1035
ry	-8.10412
အိတ်	-8.10593
▁ငါ့	-8.10791
၎င်း	-8.108
0	-8.10816
he	-8.11028
တု	-8.11123
▁and	-8.11169
ချက်များ	-8.11537
ဆိုင်ရာ	-8.11771
ော	-8.12138
ဖြစ်ပါတယ်။	-8.12147
ပြောင်း	-8.12519
စည်း	-8.12576
သေ	-8.12582
ce	-8.12686
ပန်း	-8.12812
▁Ltd	-8.12833
no	-8.12925
▁De	-8.13238
▁ကျွန်တော်တို့	-8.1324
ဆင်း	-8.13344
ဂိမ်း	-8.13444
▁8	-8.13458
ပါး	-8.13897
တီ	-8.14048
="1	-8.14051
▁St	-8.14085
အလင်း	-8.14128
အမည်	-8.14222
▁ဘာ	-8.14286
▁စိတ်	-8.14293
အဖွဲ့	-8.14396
အဘို့	-8.14562
▁အဲဒီ	-8.14765
ဖြင့်	-8.14882
စိ	-8.1501
သေး	-8.15086
01	-8.15141
ကုမ္ပဏီ	-8.15154
၆	-8.15156
▁ဒါပေမဲ့	-8.15413
ard	-8.15647
qu	-8.15749
ယ္	-8.16051
လျ	-8.16205
▁•	-8.16444
အတူ	-8.16575
ရောဂါ	-8.16621
လွန်	-8.16652
ရှေ့	-8.17033
ti	-8.1706
30	-8.17248
▁ကိုယ်တော်	-8.17251
၁	-8.17258
om	-8.17278
▁ဒါဟာ	-8.17315
▁နောက်	-8.17372
အမျိုးသား	-8.17442
့်	-8.17865
ခေါင်း	-8.17974
အလွန်	-8.18011
15	-8.18233
ဝတ်	-8.18585
ကာလ	-8.18657
သတ်	-8.18659
တန်း	-8.18719
၈	-8.18723
ေန	-8.18759
သူတို့	-8.19003
ers	-8.19464
ပျ	-8.19596
80	-8.19721
နှုန်း	-8.19982
အကောင်းဆုံး	-8.20046
ပ္	-8.2014
▁12	-8.20157
ရု	-8.2041
ခွ	-8.20674
႔	-8.20885
တွေဟာ	-8.21043
နီ	-8.21399
ဆာ	-8.21399
တွေက	-8.21581
စကား	-8.21614
အထိ	-8.21671
ca	-8.21863
စင်	-8.22123
ဒ်	-8.22345
တိ	-8.22436
သွင်း	-8.22477
ir	-8.22725
၃	-8.22895
▁အကျွန်ုပ်	-8.23046
ဖြင့်	-8.23116
ill	-8.23205
16	-8.23372
နိ	-8.23479
အသံ	-8.23878
▁အာ	-8.23954
able	-8.23996
di	-8.24025
ဝေ	-8.24062
ion	-8.24142
ig	-8.24219
လိ	-8.24296
ဖြစ်သည်။	-8.24561
ကဲ့သို့	-8.24679
စတင်	-8.25067
ph	-8.25551
▁ကျွန်မတို့	-8.25581
ဖုန်း	-8.25656
ပေါက်	-8.25866
&	-8.25961
ge	-8.25976
▁2017	-8.26167
မြောက်	-8.26324
အပ်	-8.26425
▁Sh	-8.26571
ုန်	-8.26589
ac	-8.26682
ိုင်	-8.26816
ive	-8.26838
der	-8.27053
ect	-8.27296
age	-8.27323
ည်	-8.27578
ပုံစံ	-8.2767
▁ဘုရားသခင်	-8.27692
▁မိမိ	-8.27942
”	-8.28
▁Mo	-8.281
one	-8.28388
ပစ်	-8.28436
နယ်	-8.28467
အသစ်	-8.28528
လျှောက်	-8.28741
သူများ	-8.28769
ia	-8.29096
အရပ်	-8.29179
▁အခြား	-8.29342
အားဖြင့်	-8.29802
ထင်	-8.29902
အတိုင်း	-8.29906
ke	-8.3002
တော်မူ၏။	-8.30149
မီး	-8.30202
လေ၏။	-8.3048
ကြောင့်	-8.30741
fi	-8.30855
ထပ်	-8.30895
တွေနဲ့	-8.30902
ုံး	-8.3108
▁Y	-8.31138
လေယာဉ်	-8.31484
ကြွ	-8.31635
ခဲ့တယ်။	-8.31704
လိမ့်မည်။	-8.31716
ကု	-8.31919
pe	-8.32025
ber	-8.32059
up	-8.32199
သတ်မှတ်	-8.32562
ts	-8.32597
▁သင်သည်	-8.32602
ပြီ။	-8.32613
▁*	-8.32639
ong	-8.32736
သို	-8.32929
ဖိုင်	-8.3326
အခြား	-8.33401
ဆယ်	-8.33414
▁Hack	-8.33443
ie	-8.33766
iz	-8.33814
▁ဧ	-8.33822
စမ်းသပ်	-8.33836
ပြောင်းလဲ	-8.33995
တော်ကို	-8.34083
ဖန်တီး	-8.34107
ရောင်	-8.34235
ခြား	-8.34498
24	-8.34631
ွန်း	-8.34652
ll	-8.347
▁အဲဒါ	-8.3494
ဆွဲ	-8.34969
ရီ	-8.34971
ပြား	-8.35003
ဤ	-8.35038
အရောင်	-8.35165
ဖြတ်	-8.35222
ည္	-8.35285
▁၂	-8.35562
ဘေး	-8.35671
go	-8.35722
bo	-8.35766
ခဲ့ကြ	-8.35921
ity	-8.35921
ust	-8.36037
ဆု	-8.36216
ရောင်း	-8.36265
သဘော	-8.36569
အထူး	-8.36655
ကျောက်	-8.36917
တိုး	-8.37177
100	-8.37186
="2	-8.37303
ကာကွယ်	-8.37337
▁ဦး	-8.37748
ဗီဒီယို	-8.37844
သင့်	-8.37893
tt	-8.37913
tic	-8.37926
▁ပြန်	-8.37944
90	-8.38327
▁Z	-8.38451
တောင်း	-8.38586
ဥ	-8.38677
ခွင့်	-8.3869
ရို	-8.38937
ကွ	-8.38995
များ၏	-8.39061
ျပ	-8.39523
ရုံ	-8.39558
ဆင်	-8.39558
နေတဲ့	-8.39632
ဌာန	-8.39729
ွတ်	-8.39946
hi	-8.40114
▁Ro	-8.40203
ve	-8.40461
တယ္	-8.40485
စံ	-8.4052
lu	-8.40919
ရွ	-8.40958
ထုတ်ကုန်	-8.41095
▁ကောင်း	-8.41123
ထိုး	-8.41146
tor	-8.41148
တပ်	-8.41184
ချစ်	-8.41185
စ္	-8.41208
vi	-8.41337
အခမဲ့	-8.41398
သည့်	-8.41411
႕	-8.41423
ဏ	-8.41592
ဝေး	-8.41717
ပိတ်	-8.41879
နေကြ	-8.4198
စာရင်း	-8.42049
ဆိုး	-8.4209
21	-8.42409
အွန်လိုင်း	-8.42673
22	-8.4305
အစ	-8.43179
▁https	-8.43257
မြေ	-8.43287
tra	-8.43322
ထိ	-8.43398
ကြိမ်	-8.43479
မေး	-8.43576
ကယ်	-8.43583
28	-8.43723
▁X	-8.43762
ပေါ့။	-8.43835
▁သငျသညျ	-8.43849
ဘို့	-8.4408
ကြည့်	-8.44304
စက်ရုံ	-8.4435
ဇာ	-8.44388
ဖြစ်ပါသည်	-8.44429
▁Po	-8.44553
ဘဝ	-8.44648
▁၁	-8.4466
၎င်း၊	-8.44811
ခံစား	-8.4485
ab	-8.44943
▁ငါသည်	-8.4517
ဆိုရင်	-8.4523
ဘယ်	-8.45266
▁အားလုံး	-8.45346
ဖတ်	-8.45544
ction	-8.45545
တန်	-8.45577
တိုင်	-8.45586
နာရီ	-8.45689
ကွက်	-8.45701
so	-8.45727
ထားသော	-8.4575
int	-8.45765
ကန်	-8.45769
န္း	-8.45936
log	-8.45976
▁အခု	-8.45978
ထားတဲ့	-8.46008
ော့	-8.46046
ရိုက်	-8.46084
▁ကလေး	-8.46348
ခင်	-8.46364
99	-8.46381
Z	-8.46406
ub	-8.46447
▁၂၀	-8.46512
23	-8.46687
▁“	-8.46703
ကျေးဇူး	-8.46817
ment	-8.46904
▁သင်၏	-8.46991
Q	-8.47186
ခဲ	-8.47202
pa	-8.47431
မီ	-8.47578
လေ့လာ	-8.47831
အဓိက	-8.47895
os	-8.47904
ါ	-8.47962
▁9	-8.48062
ထုတ်လုပ်	-8.482
ပါသည်။	-8.48339
▁ငါတို့	-8.48508
▁ခုနှစ်	-8.48741
ထည်	-8.48843
မျက်	-8.49006
ဖို	-8.49311
သင့်ရဲ့	-8.49403
ရွှေ	-8.49542
သံမဏိ	-8.49571
ရှင်း	-8.49669
▁http	-8.49701
လည်	-8.4971
ပိုင်	-8.49758
ct	-8.49882
ရှိသော	-8.49977
လု	-8.50064
▁အိမ်	-8.50197
▁Home	-8.50427
စျေးနှုန်း	-8.5051
တော	-8.5052
18	-8.50601
နို	-8.50608
▁No	-8.5062
ဆက်သွယ်	-8.50625
မို	-8.50628
pl	-8.50734
ကောက်	-8.51062
▁ကမ္ဘာ	-8.51102
င့်	-8.51148
တာပါ။	-8.51242
ယဇ်	-8.51587
မတ်	-8.51651
တံ	-8.51815
အမျိုး	-8.52064
ဒီဇိုင်း	-8.52106
ဒေသ	-8.52235
ight	-8.52353
ပွ	-8.52451
ပွား	-8.52579
အိပ်	-8.52957
ငျ	-8.53096
ဟော	-8.53144
09	-8.5329
-1	-8.53299
em	-8.53413
▁ဘယ်	-8.53471
စာမျက်နှာ	-8.53492
လွ	-8.53557
aw	-8.53569
ခါ	-8.53583
▁၁၉	-8.53651
မိုဘိုင်း	-8.53855
ant	-8.5386
▁to	-8.53952
35	-8.53978
ဝန်ဆောင်မှု	-8.54102
စပ်	-8.54151
▁သင့်	-8.54253
ide	-8.54362
ေတာ့	-8.54447
ဖော်	-8.54919
ဖြစ်ပါတယ်	-8.54969
▁အချိန်	-8.54996
ကျိုး	-8.55017
▁မြင်	-8.55231
မန်	-8.55279
အခြေခံ	-8.55355
ကျွန်တော်တို့ရဲ့	-8.5537
ဆရာ	-8.55581
မျက်နှာ	-8.55616
26	-8.55627
tion	-8.55691
ကင်	-8.55696
▁15	-8.55741
▁အလုပ်	-8.55805
ခွင့်	-8.55913
▁ဒီတော့	-8.5598
les	-8.56269
သော်လည်း	-8.5632
ell	-8.56355
စီးပွားရေး	-8.56428
ကွန်	-8.56459
86	-8.56628
▁အကြောင်း	-8.56672
ကြမ်း	-8.56898
29	-8.5694
ခွဲ	-8.57002
08	-8.57085
မ်ား	-8.57095
nd	-8.57343
တွင်း	-8.57406
ကျောင်း	-8.57436
မက်	-8.57566
လင်	-8.57817
▁အသက်	-8.57899
အမှတ်	-8.58009
▁တကယ်	-8.5808
▁အသုံးပြု	-8.5815
©	-8.58256
▁ဟ	-8.58261
ကြိုး	-8.58375
သမား	-8.58418
27	-8.58459
▁0	-8.58493
ကစား	-8.58495
du	-8.58496
အံ့	-8.58666
မြစ်	-8.58735
▁မူ	-8.58762
စွဲ	-8.59256
▁အမေရိကန်	-8.59258
ian	-8.59278
မြင့်	-8.59308
ရွေးချယ်	-8.59368
နှုတ်	-8.59742
ru	-8.59931
05	-8.59944
ပျက်	-8.59957
min	-8.60025
▁The	-8.6011
ခဲ့သည်	-8.60245
နှင့်အတူ	-8.60282
နစ်	-8.60287
ချီ	-8.60294
art	-8.60295
▁လမ်း	-8.6049
စေခြင်းငှါ	-8.60568
▁အခမဲ့	-8.60641
တီး	-8.6078
လွှတ်	-8.60795
▁အဘယ်	-8.60881
="3	-8.60983
မြန်	-8.61037
▁Myanmar	-8.61061
▁သင်တို့သည်	-8.61073
ှာ	-8.61239
ယုံကြည်	-8.61479
▁200	-8.61562
လျက်၊	-8.61568
ak	-8.61575
ga	-8.61631
▁2016	-8.61849
ခြင်းနှင့်	-8.62021
နွ	-8.62094
ဝယ်	-8.6224
IN	-8.62631
မော်ဒယ်	-8.62666
ဖြစ်စေ	-8.62729
စွမ်း	-8.62789
အလုပ်လုပ်	-8.62835
ft	-8.62934
ဗာ	-8.63012
ထိန်းချုပ်	-8.63142
ျဖစ္	-8.63179
▁30	-8.63209
ထု	-8.63341
လန်	-8.63372
/?	-8.63412
ကြံ	-8.63805
▁Bo	-8.63849
စီရင်	-8.63912
အရွယ်အစား	-8.63994
ဘီ	-8.64015
02	-8.64032
အပြင်	-8.64204
သိမ်း	-8.64293
ite	-8.64305
mi	-8.64341
မ္	-8.64424
မယ္	-8.646
မဲ့	-8.64603
70	-8.64634
အဘို့အ	-8.64958
လယ်	-8.65164
သတိ	-8.65294
များတွင်	-8.65314
ပီ	-8.65358
ခဲ့ပြီး	-8.65437
တွဲ	-8.65481
အုပ်	-8.65496
▁Tr	-8.65529
▁အို	-8.65608
we	-8.65628
ဲ့	-8.65709
▁ထုတ်ကုန်များ	-8.65827
org	-8.6583
ကိရိယာ	-8.6612
ၾက	-8.66192
ကူး	-8.66396
▁စစ်	-8.66403
ပူ	-8.66441
▁ယခု	-8.66476
ec	-8.66533
ဖြေ	-8.666
ဓ	-8.66717
ငြိမ်	-8.66757
ဘာသာစကား	-8.66865
▁Con	-8.66885
အဆင့်	-8.66895
va	-8.66924
သတင်း	-8.67037
ရှိသည်	-8.67054
▁အပေါ်	-8.67101
ရှည်	-8.67317
ဂျာ	-8.6735
[	-8.67447
▁Ad	-8.67582
07	-8.67601
ပြုလုပ်	-8.6765
ဖော်ပြ	-8.67813
များစွာ	-8.67822
45	-8.67834
▁2013	-8.67847
▁သတင်း	-8.68088
pt	-8.68206
ရှင်ဘုရင်	-8.68274
ပေါ့	-8.68354
▁မီး	-8.68399
သခင်	-8.68459
bu	-8.68538
နေတာ	-8.68548
ကဲ	-8.68772
သင်တန်း	-8.68789
500	-8.68798
တပါး	-8.68822
ုိ	-8.68935
▁တရား	-8.69081
▁သေ	-8.69151
▁Me	-8.69406
▁Tool	-8.69412
▁Ar	-8.69532
06	-8.69695
32	-8.69829
ပယ်	-8.69927
နီး	-8.69997
04	-8.70028
ai	-8.7012
ug	-8.70182
ထို	-8.70355
အသက်	-8.70393
ကပ်	-8.70405
▁Air	-8.70442
ေလ	-8.705
မှို	-8.70536
▁ထိုသူ	-8.70591
▁Lo	-8.7071
ba	-8.70722
ast	-8.70912
ထုတ်လုပ်မှု	-8.71138
▁ထိုသို့	-8.71245
res	-8.71252
▁con	-8.71634
အလုပ်	-8.71752
ထောက်	-8.71793
စာအုပ်	-8.7182
-2	-8.71846
▁သူတို့သည်	-8.71899
▁ကျနော်တို့	-8.72199
ကြလော့။	-8.72201
▁Ex	-8.72207
လော့။	-8.72296
ated	-8.72603
US	-8.7262
31	-8.72744
ဘုရား	-8.72878
▁စက်ရုံ	-8.72927
ပိုက်	-8.72934
တို့၏	-8.72968
ိုင်း	-8.73023
အချို့	-8.73105
သန်း	-8.73142
est	-8.73214
ရှာဖွေ	-8.73269
▁18	-8.73357
man	-8.73483
ထုတ်လုပ်သူ	-8.73503
▁Cl	-8.73546
▁မေ	-8.73584
▁de	-8.73627
မွေး	-8.73655
ငါး	-8.73703
ind	-8.73798
iv	-8.73826
ကုန်ပစ္စည်း	-8.73944
ထံမှ	-8.73955
နည်းပညာ	-8.73991
အစီအစဉ်	-8.74043
fe	-8.74169
do	-8.74207
လိုင်း	-8.74394
ပျော်	-8.74883
များနှင့်	-8.74974
ယောက်	-8.75063
▁Le	-8.75097
လိပ်	-8.75334
ကိုလည်း	-8.75336
စီးရီး	-8.7539
ဆန်	-8.75842
▁2015	-8.75909
ပေါ	-8.75915
တစ်ဦးက	-8.75944
လုပ်ဆောင်	-8.75968
အခါ	-8.76109
တစ်ယောက်	-8.76225
ရယူ	-8.76311
စျေး	-8.76355
▁Pro	-8.76406
▁ယခင်	-8.76509
ျော	-8.76725
ကတော့	-8.76855
▁1.	-8.76905
ist	-8.76919
▁အရာ	-8.77078
ဉ်	-8.77278
လျှပ်စစ်	-8.77291
www	-8.77293
မြတ်	-8.77368
ကင်း	-8.77376
ပြီးနောက်	-8.77559
ag	-8.77561
36	-8.77567
ပိုမို	-8.77624
ကြေး	-8.77661
au	-8.7771
ဂီတ	-8.77894
သည်ဟု	-8.78096
မယ်။	-8.78124
စောင့်	-8.78187
ထိုင်	-8.78366
ဖြစ်လာ	-8.78506
34	-8.78517
ld	-8.78662
io	-8.78787
▁ပြီးတော့	-8.78802
လွှာ	-8.78952
ခြင်းငှါ	-8.78972
bi	-8.78979
လက်မှတ်	-8.79027
▁Android	-8.79047
▁ပေးသွင်း	-8.79056
▁သူ၏	-8.79314
အရည်အသွေး	-8.79538
▁An	-8.7969
▁နည်းပညာ	-8.79708
ဗီ	-8.79917
IC	-8.79934
▁ဘယ်လို	-8.79961
▁(1	-8.79995
မိုး	-8.8
ff	-8.80086
ပစ္စည်းများ	-8.80182
ပြည်နယ်	-8.80287
▁To	-8.80303
▁ယော	-8.80389
ဖွဲ့စည်း	-8.80547
▁သူမ	-8.80591
သတ္တု	-8.80602
အဆင့်	-8.80644
#	-8.80709
နိုင်ပါတယ်။	-8.8077
သွေး	-8.80836
တိုးတက်	-8.80896
တည်ဆောက်	-8.80944
55	-8.80961
ni	-8.80971
ရှိပါတယ်	-8.81074
အာ	-8.81074
€	-8.81157
pi	-8.81172
app	-8.81184
အမျိုးမျိုး	-8.81235
37	-8.8124
@	-8.81296
နှိပ်	-8.81302
▁ဘုရား	-8.81326
အစိတ်အပိုင်းများ	-8.81474
▁11	-8.81605
ER	-8.81624
ဒေတာ	-8.81824
▁နေအိမ်	-8.81834
သမီး	-8.8189
အဘယ်သူမျှမ	-8.81957
03	-8.82108
ကူညီ	-8.82278
ကဒ်	-8.82307
▁pro	-8.82386
တင်း	-8.82449
မသိ	-8.82493
ator	-8.82507
oo	-8.82639
ပြေး	-8.82691
အောင်မြင်	-8.82921
ster	-8.82963
ပိုပြီး	-8.83017
▁16	-8.83177
ခိုင်	-8.8333
တော်မူသော	-8.83564
၁၀	-8.83575
မှီ	-8.83609
▁ရက်	-8.83609
ial	-8.83659
ကာစီနို	-8.83729
တဲ့အခါ	-8.83818
ဖြစ်ပြီး	-8.83887
▁for	-8.84046
လံ	-8.84298
အသင်း	-8.84336
အများကြီး	-8.84421
ရစ်	-8.84618
ကြသည်။	-8.84646
တခု	-8.8467
33	-8.84675
sk	-8.84715
▁ထာဝရဘုရားသည်	-8.84775
ဆောင်ရွက်	-8.84833
ခေတ်	-8.8489
~	-8.84937
▁Un	-8.84975
မှူး	-8.85126
ရမည်	-8.85249
မိန့်တော်မူ	-8.85319
ပါ၏။	-8.85364
comment	-8.85388
line	-8.85519
act	-8.85621
ဥပမာ	-8.85825
ဗားရှင်း	-8.85905
မော်	-8.85975
▁»	-8.86083
ပြဿနာ	-8.861
ရှား	-8.86103
ung	-8.86185
ance	-8.86233
ရုံး	-8.86302
ဖြစ်နိုင်	-8.86346
be	-8.86415
ou	-8.86442
ner	-8.86453
ယာဉ်	-8.86704
▁နောက်တစ်ခု	-8.86881
မယ့်	-8.87031
စစ်ဆေး	-8.87075
ace	-8.87197
ick	-8.8727
▁by	-8.87285
ရွာ	-8.8737
ကြယ်	-8.87426
ကြီးမား	-8.87427
su	-8.87562
ပေါ်တွင်	-8.8759
ဩ	-8.87671
▁Valve	-8.87721
ci	-8.87814
×	-8.8782
လင်း	-8.87855
ear	-8.87913
da	-8.87968
pr	-8.88095
ခင်း	-8.88162
ခဲ့တာ	-8.88171
အပိုင်း	-8.88235
▁Pa	-8.88248
▁Se	-8.8826
လဲ။	-8.88269
▁ဒါကို	-8.88505
ဆောင်းပါး	-8.88517
▁App	-8.8854
AT	-8.88577
▁FSX	-8.88617
အေး	-8.88659
မောင်း	-8.88662
▁£	-8.88709
▁ထိုအခါ	-8.88761
သောက်	-8.88985
ကော်	-8.89088
လူမျိုး	-8.89228
အစိုးရ	-8.89333
ပတ်သက်	-8.89463
ၿ	-8.8957
ထုတ်လုပ်သူများ	-8.89714
မ္း	-8.89723
ass	-8.89727
သန်	-8.89742
ဓါတ်	-8.89873
end	-8.90036
ရထား	-8.9005
ဖန်	-8.90088
38	-8.90143
IS	-8.90258
ရွေး	-8.9028
သန့်ရှင်း	-8.9033
နိုင်ပါတယ်	-8.90531
ရှိသည်။	-8.9064
နှစ်ခု	-8.90641
မုန်	-8.9076
နျ	-8.90888
မဲ	-8.90916
▁Sp	-8.90956
ကလေး	-8.91091
ထောက်ပံ့	-8.91095
tal	-8.9121
နယူး	-8.91458
တယောက်	-8.91536
ကျန်	-8.91546
တွေရဲ့	-8.91568
မည်ဟု	-8.91641
မင်္ဂလာ	-8.91814
ွား	-8.92122
mb	-8.92123
ash	-8.92305
ရှိသမျှ	-8.92339
ဘာသာ	-8.92653
ထိပ်တန်း	-8.92659
▁Li	-8.92661
ဖုံး	-8.92725
ဥပဒေ	-8.928
ating	-8.92803
တိုက်ရိုက်	-8.92924
ရွိ	-8.92934
အရေအတွက်	-8.92976
သဖြင့်၊	-8.93058
▁2014	-8.9306
▁မြန်မာ	-8.93105
▁၃	-8.93186
▁+0000	-8.93269
မိန်းမ	-8.93293
လွတ်	-8.9339
ောင့်	-8.93449
ရှိ၏။	-8.93671
ဘုရားသခင်	-8.93675
▁စက်မှု	-8.93713
ကျင့်	-8.93894
ပိုး	-8.93964
ကူးစက်	-8.93986
ဒို	-8.94009
▁အပြစ်	-8.9423
cl	-8.94446
200	-8.94472
နံ	-8.94506
ပေမဲ့	-8.94641
ထူ	-8.94727
ဟူ	-8.94741
ကျွန်ုပ်တို့၏	-8.94749
ငျး	-8.94829
ဘူး။	-8.94846
form	-8.9496
ိမ်	-8.94979
built	-8.95013
ကြလိမ့်မည်။	-8.952
ID	-8.95223
▁Play	-8.95227
ave	-8.9546
ဟန်	-8.95546
▁သူတို့ကို	-8.95664
="4	-8.95688
▁La	-8.95711
▁For	-8.95774
အချက်အလက်	-8.9586
95	-8.95962
cess	-8.95976
▁Be	-8.96001
°	-8.96083
▁24	-8.96234
ကလည်း၊	-8.96286
၁၈	-8.96498
ပါစေ	-8.96634
စိတ်ကူး	-8.96648
48	-8.96698
ရံ	-8.96938
ဂါ	-8.97028
တာဝန်	-8.97124
AR	-8.97202
▁မြေ	-8.97286
ကီ	-8.97316
AC	-8.97401
▁#	-8.97421
ရယ်သံများ	-8.97438
နည်းလမ်း	-8.97443
သူတွေ	-8.97479
ကွင်း	-8.9761
ခရီး	-8.97685
နားလည်	-8.97689
▁နောက်ဆုံး	-8.97775
အမျိုးသမီး	-8.97875
par	-8.97975
၂၀	-8.98077
▁LED	-8.98118
စကားကို	-8.98149
ပါဘူး	-8.98222
ကြိုးစား	-8.98416
တ္တ	-8.98584
အသုံး	-8.98596
အစား	-8.98641
အကြောင်းကို	-8.98683
ခဲ့တဲ့	-8.98839
သဘာဝ	-8.992
ud	-8.99232
▁Vi	-8.99256
brag	-8.99273
ကမ္ဘာ	-8.99314
▁slot	-8.99315
ထည့်	-8.99366
LE	-8.99405
▁ဒီလို	-8.99676
▁download	-8.99868
အပေါင်းတို့	-8.9987
အမြင့်	-8.99879
85	-9.00254
မွေ	-9.00267
ထူး	-9.00277
အာရုံ	-9.00324
ဖြစ်၏။	-9.00497
သင်တို့	-9.00517
br	-9.00653
နှလုံး	-9.00767
အများဆုံး	-9.0078
ချို	-9.00875
ble	-9.00991
▁မူပိုင်ခွင့်	-9.01276
▁သူသည်	-9.01317
ဖွင့်	-9.01333
လိမ့်မယ်	-9.01333
သည်လည်း	-9.01466
ဖွံ့ဖြိုး	-9.01503
ဓာတ်	-9.01529
ရင္	-9.01668
▁Mar	-9.01765
စေ့	-9.01781
တူညီ	-9.01817
သိပ္ပံ	-9.01845
ဂျက်	-9.01845
အခြေအနေ	-9.01852
ကွယ်	-9.01993
67	-9.02022
▁tool	-9.02026
လုံ	-9.02207
ခဲ့ရ	-9.02438
တံခါး	-9.02474
ဟို	-9.02475
gen	-9.02509
အပူ	-9.02652
75	-9.02802
▁Ho	-9.02823
▁ကျွန်တော့	-9.02853
ran	-9.02869
ပန်	-9.02895
ကြောက်	-9.02911
rd	-9.03037
သလို	-9.03085
39	-9.03185
သောသူတို့	-9.03358
မေးခွန်း	-9.03396
ဆက်စပ်	-9.03424
65	-9.03547
လေ။	-9.03549
နဲ	-9.03622
အခန်း	-9.03638
AN	-9.03665
▁လူတွေ	-9.03683
lle	-9.03746
ရုပ်ရှင်	-9.03762
↑	-9.03919
အိုင်	-9.03962
ock	-9.04021
နောက်ဆုံး	-9.0417
▁နံနက်	-9.04273
ဇာတ်	-9.04372
gr	-9.04379
▁ဒါမှမဟုတ်	-9.04386
ရမည်။	-9.0447
▁Generator	-9.04503
ဆန်း	-9.04654
ႏ	-9.0484
▁Windows	-9.04855
သမျှ	-9.05002
မဆို	-9.05047
တရုတ်	-9.05136
▁ငါ့ကို	-9.05516
ပါဘူး။	-9.0565
ငါ့	-9.05745
မြန်နှုန်း	-9.05902
▁Filter	-9.05919
မော	-9.0596
port	-9.05997
သောအခါ၊	-9.06074
pro	-9.06077
69	-9.06268
ဖုန်ကောက်ခံရေး	-9.06335
▁ISO	-9.06352
ဒေါင်းလုပ်	-9.06455
ary	-9.06551
နေရ	-9.06719
ue	-9.06771
▁Al	-9.06801
ood	-9.06832
▁Br	-9.06866
ယေရှု	-9.06902
ဖျက်	-9.06931
လုပ္	-9.07041
ဒုတိယ	-9.07113
ပံ့ပိုး	-9.07415
ဆဲ	-9.07585
ရှိပါတယ်။	-9.07587
47	-9.07594
ကို၎င်း၊	-9.07673
ပြင်ဆင်	-9.07704
ထို့	-9.07872
▁(20	-9.07925
▁Black	-9.07959
အပူချိန်	-9.08055
tu	-9.08074
ဖြေရှင်း	-9.08233
cy	-9.08246
the	-9.08287
▁be	-9.08358
ဖူး	-9.08365
▁PC	-9.08397
ကျင်	-9.08552
တိုင်အောင်	-9.08679
လမ်းညွှန်	-9.08681
▁Google	-9.0875
ကျူး	-9.08903
ပေးသွင်း	-9.08963
လစ်	-9.09028
ပညာရှင်	-9.09097
အရွယ်	-9.09168
ခုံ	-9.09327
ပထမဦးဆုံး	-9.09363
+	-9.09567
မျက်နှာပြင်	-9.09598
ton	-9.09662
▁dis	-9.09702
ခြောက်	-9.09733
တို့အား	-9.09785
ဳ	-9.0988
▁Su	-9.09937
ST	-9.09948
ရရှိနိုင်	-9.09994
ယော	-9.10078
ဝိ	-9.10134
out	-9.1053
▁ခုနှစ်တွင်	-9.10542
ထာဝရဘုရား	-9.10681
IT	-9.10703
▁2020	-9.10725
ကျယ်	-9.10759
ပါပဲ။	-9.11045
ဆင့်	-9.11137
နှံ	-9.11225
▁ညနေ	-9.11245
သောအခါ	-9.11279
44	-9.11391
▁ယုဒ	-9.11413
▁တဖန်	-9.11455
net	-9.11486
စွန်	-9.11518
မီလီမီတာ	-9.11601
vel	-9.11619
လက္ခဏာ	-9.11853
ကော	-9.11889
စိုက်	-9.12044
မြင့်မား	-9.12106
▁Mi	-9.12119
lang	-9.12275
သည္	-9.12321
▁ငါတို့သည်	-9.12345
အမိန့်	-9.12354
ဗျာ	-9.12362
အပိုဆု	-9.12376
▁Bag	-9.12391
အို	-9.12559
56	-9.12628
ပြိုင်	-9.12696
ကွဲ	-9.12708
ခေါ	-9.12719
▁Gr	-9.12722
အလေးချိန်	-9.12871
အနုပညာ	-9.12995
ေရး	-9.13033
▁Forex	-9.13228
ဆိုလို	-9.13444
လျှော	-9.13561
ကြည့်ရှု	-9.13567
ice	-9.13611
ကိုယ်ပိုင်	-9.13735
[1]	-9.13763
lic	-9.13766
နံပါတ်	-9.13823
▁Tag	-9.13852
ကျွမ်းကျင်	-9.13894
ပျို	-9.13909
OS	-9.13952
မယ့်	-9.14128
▁Fl	-9.14227
ထံ	-9.14306
ရှောင်	-9.1439
64	-9.14502
စော	-9.14719
လျော့	-9.14725
▁ထာဝရဘုရား၏	-9.14901
မြင့်	-9.14929
▁ငါ၏	-9.1494
အနည်းငယ်	-9.14994
▁အကြောင်းမူကား၊	-9.15072
49	-9.15192
ပြည့်	-9.15381
ခဲ့ပါတယ်။	-9.15391
ရိတ်	-9.15498
▁hack	-9.15572
▁သို့သော်	-9.15854
▁ကိုယ့်	-9.15906
ခတ်	-9.1593
နဲ႔	-9.15936
▁Card	-9.15989
ရီးယား	-9.16046
ကျန်းမာရေး	-9.16099
အာမခံ	-9.1611
လွယ်ကူ	-9.1617
ဣသရေလ	-9.16195
ဖွင့်	-9.16299
နွေ	-9.16307
▁Jo	-9.16361
ON	-9.16454
▁''	-9.16582
▁ပြန်ကြားချက်	-9.1663
ကွန်ပျူတာ	-9.16695
တန်ဖိုး	-9.16762
စဉ်းစား	-9.16764
ခရီးစဉ်	-9.16788
အပါအဝင်	-9.16828
အပြစ်	-9.16888
စီမံကိန်း	-9.16898
ႏိုင္	-9.16961
ja	-9.17031
အချက်	-9.17059
ဖာ	-9.17129
ကြော	-9.17316
▁အကျိုး	-9.17379
၎င်း၏	-9.17497
၂၀၀	-9.17524
ပြန်လည်	-9.17603
77	-9.17615
SP	-9.17636
57	-9.17653
gu	-9.17782
▁မိန့်တော်မူ၏။	-9.17838
ဂုဏ်	-9.18028
ဂို	-9.18028
ပြောဆို	-9.18032
ဖွယ်	-9.18095
ခရီးသွား	-9.18101
ကြတယ်။	-9.18164
သတင်းအချက်အလက်	-9.18374
las	-9.18429
ပြသ	-9.18438
IP	-9.18483
လောင်	-9.18513
ပြတ်	-9.18544
ish	-9.18666
Casino	-9.18835
သီချင်း	-9.18908
▁All	-9.18932
တယ်လို့	-9.1894
41	-9.19177
သက်သေ	-9.19197
66	-9.1922
ကမ်း	-9.19441
ric	-9.19595
မီတာ	-9.19632
ET	-9.19721
GB	-9.19767
သြ	-9.19814
ဟောင်း	-9.20047
▁ပုံမှန်	-9.20107
အနေနဲ့	-9.20111
uck	-9.20232
68	-9.20442
တတ်၏။	-9.20498
ကုန်သွယ်	-9.2054
အကြံပြု	-9.20545
China	-9.20557
သုံးစွဲ	-9.20609
▁Pre	-9.20781
ဖြူ	-9.20807
rt	-9.21142
ထုပ်ပိုး	-9.21161
tri	-9.21213
tro	-9.21217
PS	-9.21352
ကြိုက်	-9.21527
အကြား	-9.2165
mail	-9.2166
ဖွဲ့	-9.21721
ထာဝရ	-9.21849
ဆီး	-9.21858
ရောင်းချ	-9.2186
တွန်း	-9.21895
old	-9.22092
▁So	-9.22093
ဒဏ်	-9.22204
၁၅	-9.22242
▁ဒါဝိဒ်	-9.22273
ပြည့်စုံ	-9.22344
ညှိ	-9.22567
▁Sa	-9.22579
ound	-9.22601
play	-9.22621
▁filter	-9.22624
ix	-9.22665
လက်ခံ	-9.2268
sta	-9.227
▁New	-9.22786
စွမ်းအင်	-9.22837
လမ်းကြောင်း	-9.22911
သီ	-9.22947
လှုပ်ရှားမှု	-9.23004
▁Mon	-9.2301
အပေါင်းတို့သည်	-9.23126
အဆိုပါ	-9.23321
ကျွန်ုပ်တို့	-9.23548
SA	-9.23579
han	-9.23645
ဆင့်	-9.23822
ပါပြီ။	-9.24128
▁အဘယ်သူ	-9.24174
သတည်း။	-9.24326
သု	-9.24397
ယို	-9.24457
ven	-9.24547
MB	-9.24576
သည်ကား၊	-9.24578
တဲ	-9.24749
သေချာ	-9.24753
ကမ်းလှမ်း	-9.24824
လား။	-9.24832
▁ယနေ့	-9.24996
သောသူသည်	-9.25023
သကဲ့သို့	-9.25087
ဆုံးဖြတ်	-9.25141
လိမ့်မည်	-9.25183
ညွှန်း	-9.25257
ဖိအား	-9.25274
သနည်း။	-9.25334
ဆိုတဲ့	-9.25517
▁Download	-9.25544
▁100%	-9.25567
300	-9.25605
ပုံနှိပ်	-9.25607
မိသားစု	-9.2569
ကျမ်း	-9.25783
97	-9.25856
ဈေး	-9.25989
နမူနာ	-9.26124
အကြောင်းအရာ	-9.26317
▁ယေ	-9.26393
ဝက်	-9.26429
ဓာတ်ပုံ	-9.266
ညာ	-9.26618
စုစုပေါင်း	-9.26635
98	-9.26637
စျေးကွက်	-9.26743
သက်ရောက်မှု	-9.26782
ကုဒ်	-9.26924
အန္တရာယ်	-9.27147
လုပ်ဖို့	-9.27374
စည်	-9.27415
လွှဲ	-9.27438
ဟုတ်	-9.27452
ark	-9.27525
သဖြင့်	-9.27597
ချိုး	-9.27639
တိကျ	-9.27668
အများစု	-9.27744
-0	-9.2778
ox	-9.27798
တွေ့ရှိ	-9.27827
58	-9.2783
▁မှတ်ချက်	-9.27832
ဘယ်လို	-9.27857
အဖွဲ့အစည်း	-9.27951
ပင်လယ်	-9.27989
ပရို	-9.28099
▁Ge	-9.2816
box	-9.2825
88	-9.28322
ပတ်ဝန်းကျင်	-9.28404
54	-9.28492
ယံ	-9.28785
▁Wi	-9.28869
ပါလိမ့်မယ်	-9.2893
ပါဝါ	-9.29024
="5	-9.29036
ခရိုင်	-9.29236
မြဲ	-9.29297
ကောင်းသော	-9.29325
အားကစား	-9.29412
▁မတ်လ	-9.29805
ank	-9.29914
ries	-9.29921
42	-9.29978
ပျောက်	-9.29978
ကျပ်	-9.30096
အပို	-9.30126
ပြုပြင်	-9.30178
င့္	-9.302
▁ဘုရားသခင်၏	-9.30244
နာမည်	-9.30521
ml	-9.30831
▁you	-9.3088
နေထိုင်	-9.30991
▁site	-9.31008
ထုတ်ကုန်များ	-9.31015
yl	-9.3106
2018	-9.31063
ook	-9.31238
▁အဲဒီလို	-9.31371
လျက်ရှိ	-9.31485
ဆိုက်	-9.31535
အမှတ်တံဆိပ်	-9.31596
ထင်ရှား	-9.31694
ဝိညာဉ်	-9.31808
ဥရောပ	-9.31886
che	-9.31951
2004	-9.32011
ဘီး	-9.32023
ကျောင်းသား	-9.32106
ဇယား	-9.32195
သမိုင်း	-9.32351
ဂ်	-9.32382
ကိန်း	-9.32394
၀၀	-9.32471
ရှေ	-9.32549
အင်တာနက်	-9.3258
ဆွေးနွေး	-9.32736
အိန္ဒိယ	-9.32736
’	-9.32736
;&	-9.32741
လွယ်	-9.32839
ဇန်နဝါရီ	-9.33125
အမှုကို	-9.33268
q	-9.33301
ရေးသား	-9.33542
ဖောက်သည်	-9.33573
▁Off	-9.33633
▁Mark	-9.33738
▁သိပ်	-9.33782
ဝမ်း	-9.33836
▁သူတို့ရဲ့	-9.33886
59	-9.33961
တပ်ဆင်	-9.34045
ပလပ်စတစ်	-9.34065
str	-9.34198
နှောက်	-9.34222
▁install	-9.34223
Manufacturer	-9.34301
အာဏာ	-9.34301
RO	-9.34468
▁PVC	-9.34619
ဗေဒ	-9.34739
▁ဣသရေလအမျိုး	-9.34755
code	-9.34761
▁Di	-9.34776
တိတ်	-9.34918
တံဆိပ်	-9.34994
ဘိုး	-9.35016
ိန်း	-9.35066
87	-9.35164
စ္စ	-9.35285
ိဳ	-9.353
▁၎င်းတို့	-9.35456
အကွာအဝေး	-9.35572
အမြင်	-9.35648
ကိစ္စ	-9.35652
ပုံရိပ်	-9.35812
ရလဒ်	-9.35814
▁Do	-9.35823
OR	-9.35848
can	-9.35864
ဧရိယာ	-9.35892
ဆေးရုံ	-9.35896
land	-9.35953
▁Facebook	-9.35972
EN	-9.36278
ျပီး	-9.36295
▁CNC	-9.36376
အသေးစိတ်	-9.36377
တုံ့ပြန်	-9.36454
▁My	-9.36468
၁၂	-9.36621
စောင့်ရှောက်	-9.36622
use	-9.36655
ဖျ	-9.36698
သောကြောင့်၊	-9.36769
ဉာဏ်	-9.36858
CH	-9.36916
မြင့်မား	-9.36924
နော်	-9.37007
သင်္ဘော	-9.37183
ခရစ်	-9.37211
ဆိတ်	-9.3729
စွမ်းရည်	-9.37329
ကိုယ်တိုင်	-9.37405
ရာသီ	-9.37581
တစ်ခုခု	-9.37616
အီးမေးလ်	-9.37671
▁လူသား	-9.37889
▁Dr	-9.38115
*	-9.38134
တစ္	-9.38212
မော်တော်	-9.38249
lock	-9.38307
ရေနံ	-9.38318
အင်္ဂလိပ်	-9.38326
▁Trans	-9.38402
တွက်	-9.38451
ဌ	-9.38464
▁Ra	-9.38502
လောင်း	-9.38839
လွှ	-9.38918
ron	-9.39005
▁ခင်ဗျားတို့	-9.39131
ေၾကာ	-9.39151
atch	-9.39237
ကြှနျုပျတို့	-9.39249
▁En	-9.39287
ရှေ့မှာ	-9.39639
တစ်ခါ	-9.39671
ရယ်	-9.39799
စိတ်ဝင်စား	-9.39816
ဘတ်	-9.3986
MP	-9.39987
လုပ်ကိုင်	-9.40146
vo	-9.40316
wordpress	-9.40317
စုဆောင်း	-9.40571
အလိုအလျောက်	-9.40737
ပြည်ထောင်စု	-9.40737
74	-9.40739
ကယ်တင်	-9.40843
ငှါ	-9.40876
▁Europe	-9.40989
တက္ကသိုလ်	-9.41074
အတွေ့အကြုံ	-9.41074
ture	-9.41229
ပါတယ္	-9.41311
ifi	-9.41366
စေရန်	-9.41374
သောအရာ	-9.41392
၀၀၀	-9.41468
0.0	-9.41497
ခို	-9.41545
လုံခြုံ	-9.41558
▁ခင်ဗျား	-9.41772
▁Ja	-9.41884
အိုး	-9.41926
▁သြဂုတ်လ	-9.42156
ေပး	-9.42401
ီးယား	-9.42573
ကွဲပြား	-9.42637
ထဲသို့	-9.42692
SS	-9.42756
အမေရိကန်	-9.42771
ထိရောက်	-9.42952
ဘူ	-9.43052
နန်း	-9.43096
ချည်	-9.43107
လေဆိပ်	-9.43137
တီထွင်	-9.43222
ပြင်း	-9.4325
အကြံပေး	-9.43391
စေလွှတ်	-9.43425
ရည်ရွယ်	-9.43466
ချော	-9.43491
ပူဇော်	-9.43553
အင်္ကျီ	-9.43726
ကျင်းပ	-9.43787
ration	-9.43798
တစ်ခုတည်း	-9.43803
ဘော်	-9.4388
▁High	-9.43902
▁Up	-9.43932
ပူးပေါင်း	-9.43987
96	-9.44022
89	-9.44091
ထံသို့	-9.44092
ပြာ	-9.44219
စက္ကူ	-9.44335
▁မောရှေ	-9.44342
▁Key	-9.44428
ဘွယ်	-9.4451
ထောက်ခံ	-9.44658
လှည့်	-9.45299
ငွေကြေး	-9.4531
▁ရှိနေ	-9.45373
▁iPhone	-9.45387
ဆက်ဆံ	-9.45387
မင်းကြီး	-9.45391
ေျပာ	-9.45476
ောငျ	-9.45488
နိုင်သည်။	-9.45506
ဗိုင်းရပ်စ်	-9.45651
RE	-9.459
ဖမ်း	-9.45975
နိုင်ပါသည်။	-9.462
ရှင်းလင်း	-9.46398
စာနယ်ဇင်း	-9.4645
ခွက်	-9.46502
ျဖ	-9.46569
78	-9.46588
ကုသမှု	-9.46631
မှတ်တမ်း	-9.46719
အဆောက်အဦ	-9.4672
မှစ၍	-9.46934
အုပ်စု	-9.46946
အဘိဓါန်	-9.46986
ဓာတု	-9.47165
ဦးဆောင်	-9.47177
သင်ယူ	-9.47197
PP	-9.47228
ရှက်	-9.47321
£	-9.47358
ဖြောင့်မတ်	-9.47435
work	-9.47437
▁Comp	-9.47556
၁၆	-9.47608
ဂျီ	-9.4761
ထိုင်း	-9.47674
ခိုး	-9.47966
သုတေသန	-9.47976
▁2012	-9.47987
▁ကျုပ်တို့	-9.48067
400	-9.48167
air	-9.48196
ပေါင်းစပ်	-9.48283
မြေပုံ	-9.48408
စောင့်	-9.48434
မီဒီယာ	-9.4852
နည်းနည်း	-9.48596
76	-9.48686
ပွင့်	-9.48886
ကင်မရာ	-9.48887
ညျ	-9.48926
တုန်းက	-9.48987
ယျ	-9.48998
▁Qu	-9.49104
လိမ့်	-9.49125
61	-9.49129
ရဲ႕	-9.49165
ဖြစ်ပါသည်။	-9.49219
မဟုတ်ဘူး	-9.49222
ကျနော်တို့	-9.49351
▁သူက	-9.49377
သမ္မတ	-9.49435
ဥစ္စာ	-9.49618
ကျင့်	-9.49669
အန်းဒရွိုက်	-9.4971
သေတ္တာ	-9.49987
ဿ	-9.50171
ကောင်းမွန်	-9.50172
လျော်	-9.50486
ယောက်ျား	-9.50541
▁ပထမ	-9.50565
▁Precision	-9.50727
press	-9.508
မႈ	-9.51493
မှတ်ပုံတင်	-9.51568
ဝိုင်း	-9.51605
မူကား၊	-9.51651
ကြော်ငြာ	-9.51661
၁၄	-9.51671
get	-9.51721
လှည့်	-9.51849
လုံခြုံရေး	-9.51875
ေလး	-9.51928
သော်၊	-9.51987
ထူးခြား	-9.52009
▁နားထောင်	-9.52069
သြား	-9.52082
ပါတယ္။	-9.5209
ပမာဏ	-9.52099
▁cheat	-9.52145
စီမံခန့်ခွဲ	-9.52226
ထိုကဲ့သို့သော	-9.52233
မြည်	-9.52373
ချောင်း	-9.52393
မျက်စိ	-9.52401
ဖယ်ရှား	-9.5251
ထိပ်	-9.52739
လိမ့်မည်	-9.52849
ၿပီး	-9.52984
ဣ	-9.53079
အတည်ပြု	-9.53096
ပျံသန်း	-9.53174
ပလတ်စတစ်	-9.53461
တိရစ္ဆာန်	-9.53461
အနီး	-9.53463
လံုး	-9.53557
ဘောင်	-9.53563
ဥယျာဉ်	-9.53652
တော်မူပါ။	-9.537
ဖြစ်ကြောင်း	-9.53735
စားပွဲ	-9.53863
ဝယ်ယူ	-9.54173
ဖိ	-9.54239
▁မြေကြီး	-9.54275
0.1	-9.54409
မြှင့်	-9.54421
တည်ရှိ	-9.54602
▁ဖေါ်ပြချက်	-9.54614
ကြိုဆို	-9.54618
အရေးကြီး	-9.54806
51	-9.54893
ဖျက်ဆီး	-9.54921
ဓမ္မ	-9.55002
]]	-9.55145
စွမ်းဆောင်ရည်	-9.55196
နတ်	-9.55201
ကျိန်	-9.55226
အများအပြား	-9.55293
▁ခရစ်တော်	-9.55337
စိုး	-9.55366
သင့်ရဲ့	-9.5541
UN	-9.555
ွမ်	-9.55737
▁မိမိတို့	-9.55766
ဘုန်း	-9.55881
▁လုံးဝ	-9.5604
ပညတ်	-9.56075
ဇုန်	-9.56171
ျခင္း	-9.56174
လော့ဟု	-9.56174
အီး	-9.56383
84	-9.56563
လျှောက်လွှာ	-9.5672
ထမ်း	-9.56887
ကတည်းက	-9.56924
▁Die	-9.5704
ရောင်ခြည်	-9.5706
စင်တာ	-9.57154
ကွာ	-9.57323
ငြင်း	-9.57358
version	-9.57359
▁Code	-9.5736
ခန့်	-9.57366
လိမ့်မည်ဟု	-9.57443
ကဏ္ဍ	-9.57457
▁DVD	-9.57658
ဧ	-9.57901
လည်ပတ်	-9.57928
တန်ဆာ	-9.57942
ဇာတ်လမ်း	-9.58117
ှဲ	-9.58132
ဗဟို	-9.58192
ဖန်ဆင်း	-9.58225
ယူနစ်	-9.58405
▁ဒါကြောင့်	-9.58506
ence	-9.5851
▁Glass	-9.58861
၁၁	-9.58907
▁Web	-9.59174
လိမ်	-9.59391
dia	-9.59726
ရာခိုင်နှုန်း	-9.59771
စကားလုံး	-9.59837
ဖြန့်	-9.59875
ပတ်လည်	-9.60011
ဆဲလ်	-9.60134
XL	-9.60174
ပြန်လည်သုံးသပ်	-9.60288
▁ပထမဆုံး	-9.60564
လို႔	-9.60573
ဝါယာကြိုး	-9.60589
▁Posted	-9.60589
▁မြန်မာနိုင်ငံ	-9.60625
ထိန်း	-9.60647
ပုဂ္ဂိုလ်	-9.60794
သိုလှောင်	-9.60794
▁ဒါကြောင့်	-9.60808
▁ဒီဇင်ဘာလ	-9.60891
▁System	-9.60897
ချိတ်ဆက်	-9.61001
ဘုရင်	-9.61055
မြား	-9.61096
ရိုးရှင်း	-9.61099
အခွန်	-9.61193
ပုဂ္ဂလိက	-9.6162
ႏွစ္	-9.61865
မိုဃ်း	-9.61932
နည္း	-9.62038
▁2010	-9.62048
၃၀	-9.62118
အစိတ်အပိုင်း	-9.62265
ရွက်	-9.62315
တိပ်	-9.62332
က်ဘ်ဆိုက်	-9.62349
ြန္	-9.62435
bar	-9.62556
ထိန်းသိမ်း	-9.62576
၅၀	-9.62624
ဆုံးရှုံး	-9.62768
တချို့	-9.62769
အော်တို	-9.62773
ကျွန်တော်တို့ကို	-9.62867
ဘဏ်	-9.63399
▁နောက်ထပ်	-9.63426
တဦးတည်း	-9.63505
▁device	-9.6361
▁with	-9.63611
▁အောက်တိုဘာလ	-9.63686
သညျ	-9.63971
ဗြိတိန်	-9.64034
▁ဖုန်းနံပါတ်	-9.6404
▁Dis	-9.6412
ပြိုင်ပွဲ	-9.64209
▁You	-9.64425
cket	-9.64426
မျဉ်း	-9.6446
ဘက်ထရီ	-9.6446
အတြက္	-9.64887
view	-9.64889
တည်းဟူသော	-9.6521
ဖုန်မှုန့်	-9.65317
ဇီဝ	-9.65322
ကြွင်း	-9.65344
နှစ်သက်	-9.65353
သိကောင်းစရာများ	-9.65424
နိုင်ပါသည်	-9.65648
day	-9.65665
တြင္	-9.6568
တန်ခိုး	-9.65882
တို႔	-9.65888
▁ယေရုရှလင်မြို့	-9.65964
အကောင့်	-9.66003
▁ရုပ်ပုံ	-9.66241
low	-9.66318
နှောင်	-9.66474
မြှောက်	-9.66507
တစ္ခု	-9.66577
ခုနစ်	-9.66685
ဘဏ္ဍာ	-9.66725
စသည်တို့ကို	-9.66737
transposh	-9.66944
သက်တမ်း	-9.66948
▁တကယ့်	-9.67053
Com	-9.67088
▁အဘယ်ကြောင့်	-9.67266
▁ဆက်ဖတ်ရန်	-9.67382
▁ဣသရေလအမျိုးသား	-9.67474
တယ်ဆိုတာ	-9.67563
ြာ	-9.67712
ပစ္စည်းကိရိယာ	-9.67924
ရှေ့တော်၌	-9.67934
လေကြောင်းလိုင်း	-9.68043
▁Mobile	-9.68043
ေတာ္	-9.6816
ပျက်စီး	-9.68493
tter	-9.68795
ပံု	-9.69044
ဖောက်	-9.69184
နိုငျ	-9.69332
စိတ်ကြိုက်	-9.69458
အောက်စီဂျင်	-9.69491
သည်အတိုင်း၊	-9.69529
ဘွား	-9.69647
စင်တီမီတာ	-9.69715
အောက်ဆီဂျင်	-9.69715
▁RFID	-9.69828
မှန်ကန်	-9.69975
book	-9.70001
စကားပြော	-9.70371
ဂြိုဟ်	-9.70392
ပလ္လင်	-9.70619
▁reserved	-9.70732
▁ဇွန်လ	-9.70748
▁နိုဝင်ဘာလ	-9.70803
2.0	-9.70933
ဖေါ်	-9.71074
▁Ningbo	-9.71074
ဘုရားကျောင်း	-9.7113
ငှက်	-9.71189
အသေးစား	-9.71314
ွဲပြားခြားနားသော	-9.71531
ယွင်း	-9.71646
ဝှက်	-9.71647
လှုပ်ရှား	-9.71943
ဘာသာပြန်	-9.71969
အာရှ	-9.71982
▁system	-9.72451
▁Anti	-9.7255
▁Phone	-9.72568
▁စက်တင်ဘာလ	-9.72657
▁update	-9.73032
ကုန်ကျစရိတ်	-9.73263
[2]	-9.73498
▁Auto	-9.73541
အင်္ဂါ	-9.73729
▁Casting	-9.7373
ပရိသတ်	-9.73964
ပိုင်ဆိုင်	-9.74349
လောင်းကစား	-9.74448
avi	-9.74493
ition	-9.74614
▁အသက်ရှင်	-9.74615
ဘောလုံး	-9.74671
ဆန္ဒ	-9.74673
လှိုင်း	-9.74758
ေအာင္	-9.74806
အဘိဥာဏ်	-9.74907
▁Cheat	-9.75028
ပိုက်ဆံ	-9.75069
ႈ	-9.75119
ဆောက်	-9.75214
▁cr	-9.7532
ဖြည့်	-9.75501
အပြည့်အဝ	-9.75501
နှင့်တကွ	-9.75519
ႏွ	-9.75718
▁rights	-9.7574
ေနာက္	-9.75743
ချီးမွမ်း	-9.75859
▁your	-9.76092
▁panel	-9.76339
စို့	-9.76588
ဖျား	-9.76625
ညီအစ်ကို	-9.76699
ထက်ပို	-9.76766
စာရွက်	-9.76831
မဟုတ်ပါဘူး	-9.76884
ပြန်လည်ဆန်းစစ်	-9.7694
▁polyester	-9.7694
▁Panel	-9.76944
▁ဂျပန်	-9.7695
▁iOS	-9.76983
ညွှန်းကိန်း	-9.77077
မျှော်လင့်	-9.77425
ခန္ဓာကိုယ်	-9.77442
0.5	-9.77502
သလော။	-9.77553
▁ယင်း	-9.7757
▁Multi	-9.77636
▁ဒါပေမယ့်	-9.77668
ထီး	-9.77672
ဘလော့	-9.77786
▁အမှုန့်	-9.7779
ဉ	-9.77827
▁Environmental	-9.78034
ည့္	-9.78036
zhou	-9.78422
အစားအစာ	-9.78588
▁that	-9.78871
မိတ်ဆက်	-9.78896
▁EUR	-9.78896
စောင့်ရှောက်	-9.78897
▁MPT	-9.78924
▁ဇူလိုင်လ	-9.78951
အရေးပါ	-9.78972
▁Power	-9.79019
ပန်းချီ	-9.79238
အပြောင်းအလဲ	-9.79263
▁အကျွန်ုပ်တို့	-9.79295
နှင်း	-9.79379
အနာဂတ်	-9.79387
အစားထိုး	-9.79445
ထုတ်ဝေ	-9.79621
1.5	-9.79941
အရင်းအမြစ်	-9.80008
0,000	-9.80194
ဒုက္ခ	-9.80759
အင်ဂျင်	-9.80884
ပြီးမှ၊	-9.80969
▁လွန်ခဲ့တဲ့	-9.81019
အကူအညီ	-9.81136
▁Equipment	-9.81262
0.2	-9.81273
ခွဲခြား	-9.81471
ဒြပ်	-9.81516
ဝန်ထမ်း	-9.81682
▁Microsoft	-9.81895
?????????	-9.81939
▁add	-9.81959
အပြည်ပြည်ဆိုင်ရာ	-9.82532
▁Samsung	-9.82532
ssi	-9.82894
ပုလင်း	-9.83003
▁Tube	-9.83129
စိုက်ပျိုး	-9.8343
▁feature	-9.8356
▁[...]	-9.83689
hits	-9.83692
ထုံးစံ	-9.83818
တိမ်	-9.84058
▁Software	-9.84077
▁application	-9.84077
▁ကျေးဇူးပြု	-9.84135
ခ်ိန္	-9.84208
▁သို့ဖြစ်၍	-9.84243
2.5	-9.84294
·	-9.84337
▁website	-9.84468
ဓာတ်ငွေ့	-9.84468
▁ရှင်တို့	-9.84558
ဆန့်ကျင်	-9.84598
▁Star	-9.84663
အီလက်ထရောနစ်	-9.84728
ကွန်ယက်	-9.84729
စက်မှုလုပ်ငန်း	-9.85066
လျှော့ချ	-9.85385
အမှား	-9.85524
▁ဆန်းစစ်ခြင်း	-9.85647
5.0	-9.85703
ကစားသမား	-9.85747
▁Injection	-9.85779
▁Protection	-9.85779
▁Pulse	-9.8578
ယဉ်ကျေးမှု	-9.85911
စတုရန်း	-9.86043
▁ဧပြီလ	-9.86176
သောအမှု	-9.86256
၂၀၁၉	-9.86574
ဆေးဝါး	-9.86841
ပိန်	-9.86914
မူလစာမျက်နှာ	-9.86975
▁USB	-9.87018
ထည့်သွင်း	-9.87242
အမေရိက	-9.87245
▁tag	-9.87305
—	-9.87376
▁Comments	-9.87376
type	-9.87385
ဒီဂရီ	-9.87647
တော်မမူ	-9.8765
နိုင်ငံတကာ	-9.87782
ကြေညာ	-9.87915
▁ရှေး	-9.88095
ဂဏန်း	-9.88184
ပူဇော်သက္ကာ	-9.88455
စုံစမ်း	-9.88592
ချမ်းသာ	-9.88732
လေ့ကျင့်	-9.88863
ဒစ်ဂျစ်တယ်	-9.88999
အားကစားပြိုင်ပွဲ	-9.8901
▁LTD	-9.89275
▁အဲဂုတ္တုပြည်	-9.89276
ႏွင့္	-9.89282
▁ကၽြန္ေတာ္	-9.89408
ထိခိုက်	-9.89409
tru	-9.89438
စွန့်	-9.89547
▁Mini	-9.89671
ဘွဲ့	-9.89683
လိုင်စင်	-9.89684
အထုပ်	-9.89706
အတိအကျ	-9.8982
▁မီးရှို့	-9.89958
▁Group	-9.89958
အဆင်ပြေ	-9.90095
▁hour	-9.90157
ပြွန်	-9.90374
ဒုစရိုက်	-9.9051
▁သစ္စာ	-9.9051
▁Botou	-9.9051
ကြိုတင်	-9.90511
မိတ္တူ	-9.90518
စိုးရိမ်	-9.90518
Tech	-9.907
ဆေးဘက်ဆိုင်ရာ	-9.90787
သူလျှို	-9.91344
အကြီးစား	-9.91678
ပြစ်မှား	-9.91907
မကြာခဏ	-9.92044
ဆံုး	-9.92044
ဖြတ်တောက်ခြင်း	-9.92044
အက်စ်	-9.92088
မိတ်ဆွေ	-9.92184
လက်ခုပ်သံများ	-9.92184
သံုး	-9.92227
▁Size	-9.92422
မဂ္ဂဇင်း	-9.92466
အခွင့်အရေး	-9.92759
ရှုပ်ထွေး	-9.92891
ပြင်းထန်	-9.93033
ရော်ဘာ	-9.93176
sign	-9.93397
စမတ်ဖုန်း	-9.9346
မေတ္တာ	-9.93461
1.0	-9.93569
အလွိုင်း	-9.93796
▁Quality	-9.93888
▁plugin	-9.94031
မေးမြန်း	-9.94032
ပျံ့	-9.94033
လည္း	-9.94034
ဟူမူကား၊	-9.94051
▁Dress	-9.94322
ခြံ	-9.94578
သွန်	-9.94705
ဆုကြေးငွေ	-9.9476
လွတ်လပ်	-9.9504
စွပ်	-9.95043
ေကာင္း	-9.95772
▁ရက်နေ့တွင်	-9.95913
ငှားရမ်း	-9.96205
ယှဉ်	-9.96352
ပန်းခြံ	-9.96382
ႊ	-9.96499
–	-9.96552
နိမ့်	-9.96647
ဖေဖော်ဝါရီ	-9.96793
▁Asia	-9.97004
▁Project	-9.97088
မှတဆင့်	-9.9709
ware	-9.97119
▁web	-9.97337
ရေခဲသေတ္တာ	-9.97384
ခလုတ်	-9.97387
အစည်းအဝေး	-9.97401
count	-9.97406
ကားတစ်စီး	-9.97533
ကျွေး	-9.97537
ကျေးဇူးတင်ပါတယ်	-9.97705
မိန်းကလေး	-9.98129
အနည်းဆုံး	-9.98459
▁ဒါပေမယ့်	-9.99028
▁နောက်တဖန်	-9.9918
အဆုံးသတ်	-9.99192
ၚ	-9.9933
▁သို့ရာတွင်	-9.99332
မယား	-9.99367
နှိုင်းယှဉ်	-9.99482
▁Retrieved	-9.99482
သန့်ရှင်း	-9.99482
သနည်းဟု	-9.99484
ification	-9.99524
တတိယ	-9.99635
▁Tattoo	-9.99785
▁Data	-9.99906
ကျဉ်း	-9.99939
အနေဖြင့်	-9.99954
$	-10.0008
ကာဗွန်	-10.0024
ကိုင်တွယ်	-10.0024
→	-10.0024
ဖိနပ်	-10.0024
ဘုတ်အဖွဲ့	-10.0024
▁from	-10.0024
လိုက်ဖက်တဲ့	-10.0086
သိမ်းဆည်း	-10.0132
▁Deposit	-10.0147
▁အမေရိကန်ဒေါ်လာ	-10.0147
▁White	-10.0178
လူသိများ	-10.0195
▁Related	-10.024
CoV	-10.0252
▁OEM	-10.0256
ငွေပေးချေမှု	-10.0271
▁ယာကုပ်	-10.0287
အခြေစိုက်	-10.0287
▁withoutwax	-10.0318
အာဖရိက	-10.0334
မှာရှိတဲ့	-10.0377
ချဉ်းကပ်	-10.0397
▁အီရန်	-10.0399
လူမှုရေး	-10.0406
▁link	-10.0413
▁မော်တော်ကား	-10.0415
ဆိပ်ကမ်း	-10.0458
ေပါင္း	-10.0463
မော်ကွန်း	-10.0493
▁Cylinder	-10.0509
အပြာရောင်	-10.0525
3.0	-10.0526
အလားတူ	-10.0526
0.00	-10.0547
ဆံပင်	-10.0551
▁Cert	-10.056
အိမ်ခြံမြေ	-10.0573
နှို	-10.0579
ယေဘုယျ	-10.0654
▁virtual	-10.0654
ဂစ်တာ	-10.0687
é	-10.0768
အင်ဂျင်နီယာ	-10.0768
ဝက်အူ	-10.0768
တိုက်ခိုက်	-10.0785
ဝတ္ထု	-10.0785
ကိန္း	-10.0802
eek	-10.0802
ဇွန်	-10.0812
ထွင်	-10.0826
အောက်မေ့	-10.0834
▁Plus	-10.0837
▁ဝမ်းမြောက်	-10.0851
ရေချိုးခန်း	-10.0867
ဧည့်	-10.0868
အာကာသ	-10.0885
မဟုတ္	-10.0918
script	-10.0919
အစိမ်းရောင်	-10.0934
အပြည့်အဝ	-10.0934
ပျမ်းမျှ	-10.0967
ညှဉ်းဆဲ	-10.0984
အသိအမှတ်ပြု	-10.0984
▁Rikoooo	-10.1018
ျခား	-10.1035
လွှမ်းမိုး	-10.1068
▁ဒီဇင်ဘာ	-10.1069
1%80%	-10.1072
0.3	-10.1104
ဠ	-10.1119
နှေး	-10.1119
တပည့်	-10.1136
ငှား	-10.1136
အီတလီ	-10.1153
ဋ္ဌ	-10.1157
Coin	-10.1157
ရှယ်ယာ	-10.1171
engrui	-10.1205
ပျော်ရွှင်	-10.1205
▁data	-10.1207
၂၀၁၇	-10.1222
▁မတရားသော	-10.1245
စစ်ဆင်ရေး	-10.1257
ဴ	-10.1291
▁Burmese	-10.1291
လူမီနီယမ်	-10.1314
စီမံ	-10.1325
ပရော်ဖက်ရှင်နယ်	-10.1326
နိူင်	-10.1326
▁COVID	-10.1343
အက္ခရာ	-10.1343
ဆိုင်ကလုန်း	-10.1361
ဆန့်ကျင်	-10.1361
▁high	-10.1361
▁ဗိုလ်	-10.1378
ကျယ်ပြန့်	-10.1378
▁PDF	-10.1379
ပလက်ဖောင်း	-10.1413
အကြီးဆုံး	-10.1417
ပြည်သူ့	-10.1432
သုံးသပ်	-10.1447
▁Archives	-10.1448
တိရိစ္ဆာန်	-10.1466
အထွေထွေ	-10.1483
သဟဇာတ	-10.1501
ဖျော်ဖြေ	-10.1519
ခန့်မှန်း	-10.1572
1.2	-10.1592
2.1	-10.1596
လက်ခံရရှိ	-10.1597
ပါသလား	-10.1599
အက်ဆစ်	-10.1608
ကဘာလဲ	-10.1631
စူပါ	-10.1645
ဗို့အား	-10.1661
▁ဇန္နဝါရီလ	-10.1679
ကီလိုမီတာ	-10.1679
စီမံခန့်ခွဲ	-10.1716
အဆောက်အအုံ	-10.1716
▁software	-10.1716
ခါးပတ်	-10.1716
▁ရှောလု	-10.1752
output	-10.177
အဓိပ္ပါယ်	-10.1788
′	-10.1788
ဂေါ	-10.1788
0.8	-10.1792
ကြောက်ရွံ့	-10.1806
အကြားအမြင်ရ	-10.1806
နှငျ့	-10.1825
ကြီးထွား	-10.1825
±	-10.1861
အခုတော့ဆက်သွယ်ပါ	-10.1861
တိုးချဲ့	-10.1879
ဘယ်တော့မှ	-10.1889
}	-10.1898
စာဖတ်ခြင်း	-10.1898
အမြဲတမ်း	-10.1916
တစ်ချို့	-10.1917
လူကြိုက်များ	-10.1917
ွှန်	-10.1918
▁English	-10.1935
တောက်ပ	-10.1942
အမှန်တကယ်	-10.1953
ေပၚ	-10.1953
▁APK	-10.1953
▁Author	-10.1972
▁client	-10.1972
မ်ိဳး	-10.1972
ၾကီး	-10.1972
တားဆီး	-10.2009
အဝတ်အစား	-10.2009
▁Pump	-10.2009
အသွင်	-10.2022
သူနာပြု	-10.2028
အကြောင်းပြချက်	-10.2028
▁Bonus	-10.2046
မော်တော်ဆိုင်ကယ်	-10.2065
▁module	-10.2065
အလှဆင်	-10.2066
အဖြူရောင်	-10.2084
စဥ္	-10.214
ကရုဏာ	-10.2159
ယန္တရား	-10.2159
ကိုယ်စားလှယ်	-10.2178
အစဉ်အမြဲ	-10.2178
{	-10.2178
Control	-10.22
ေဆာင္	-10.2208
အလားအလာ	-10.2235
▁Photo	-10.2235
▁Fittings	-10.2273
▁YouTube	-10.2273
အစောပိုင်း	-10.2273
1.1	-10.2341
ခွန်အား	-10.2355
အလုံးစုံ	-10.2371
နက်ရှိုင်း	-10.2427
စပျစ်ရည်	-10.2446
မူဝါဒ	-10.2466
ခမည်းတော်	-10.2485
တစ်ဦးချင်းစီ	-10.2485
ပူးတွဲ	-10.2485
▁Password	-10.2524
Hunan	-10.2526
ပဋိ	-10.2544
ရရှိနိုင်ပါသည်	-10.2577
လျှို့ဝှက်	-10.2623
စာရွက်စာတမ်း	-10.2623
▁မော်ဒယ်နံပါတ်။	-10.2623
▁Server	-10.2623
မည်နည်း။	-10.2635
ၾကည့္	-10.2642
သငျသညျ	-10.2666
Hebei	-10.2702
သေးငယ်တဲ့	-10.2702
ရောနှော	-10.2728
ဥာဏ်	-10.2762
▁Holmes	-10.2762
ဖွင့်လှစ်	-10.2782
စူးစမ်း	-10.2822
4.0	-10.2826
ကျန်းမာ	-10.2844
ဘီလီယံ	-10.2863
▁စက်တင်ဘာ	-10.2867
▁ဖေဖေါ်ဝါရီလ	-10.2883
▁multi	-10.2904
Option	-10.2904
အသီးအသီး	-10.2924
န့်အသတ်	-10.2965
အထောက်အပံ့	-10.2985
myanmar	-10.3006
▁အာရုန်	-10.3006
ကောက်ခံရေး	-10.3026
▁setting	-10.3047
စာမေးပွဲ	-10.3047
နှစ်ဦးစလုံး	-10.3068
မွေးဖွား	-10.3068
▁WordPress	-10.3068
ကျွမ်း	-10.3087
အကွောငျး	-10.3109
လတံ့	-10.311
ရှန်ဟိုင်း	-10.313
ခန့်မှန်း	-10.3151
ဂ္ဂ	-10.3151
အစီရင်ခံစာ	-10.3172
မတိုင်မီ	-10.3172
ဘိုးအင်း	-10.3172
▁ခပ်သိမ်းသော	-10.3192
ရှောက်	-10.3232
ခြေလှမ်း	-10.3256
အစွမ်းထက်	-10.3256
▁သြဂုတ်	-10.3261
အလျား	-10.3278
▁switch	-10.3298
မြှင့်တင်	-10.3319
\	-10.334
မျှော်လင့်	-10.3383
▁Lighting	-10.3404
လက်ျာ	-10.3406
source	-10.3426
နှုတ်ကပတ်တော်	-10.3426
ရှည်လျား	-10.3426
0.9	-10.3445
ဆော့ဖ်ဝဲ	-10.3469
ethyl	-10.3473
ဟော်မုန်း	-10.349
▁?????	-10.349
ညွှန်ပြ	-10.3533
အင်္ဂါရပ်များ	-10.3533
[3]	-10.3534
အနီရောင်	-10.3534
ကွန်တိန်နာ	-10.3577
▁default	-10.3577
အဆို့ရှင်	-10.3599
▁Dreadbag	-10.3664
ပရိုဂရမ်	-10.3686
ရှောလမုန်	-10.3686
▁Service	-10.373
▁Tagged	-10.373
လှုံ့ဆော်	-10.3752
▁Galaxy	-10.3752
▁acrylic	-10.3752
ကော်မရှင်	-10.3753
▁အောက်တိုဘာ	-10.3759
သတ္တဝါ	-10.3797
မြွက်	-10.3819
▁Bitcoin	-10.3841
ဗျာဒိတ်	-10.3864
လီမိတက်	-10.3864
ဂဟေဆော်	-10.3886
ညွှန်ကြားချက်	-10.3909
အခမ်းအနား	-10.3909
အားလပ်ရက်	-10.3931
charge	-10.3931
▁Standard	-10.3976
ပဋိညာဉ်	-10.3999
ႀ	-10.4159
®	-10.4205
á	-10.4392
ö	-10.4416
	-10.4559
ၤ	-10.4632
ä	-10.5204
ဃ	-10.5333
а	-10.6143
●	-10.6228
“	-10.6343
ၽ	-10.6457
‘	-10.6692
≤	-10.7242
←	-10.74
о	-10.7464
š	-10.7529
ဋ	-10.8052
ၥ	-10.8548
႐	-10.8839
`	-10.8875
и	-10.8912
å	-10.8912
ó	-10.8912
е	-10.9024
本	-10.9927
ၼ	-10.9968
語	-11.0093
日	-11.0176
ဈ	-11.0255
ၻ	-11.0346
ย	-11.0519
с	-11.0563
≥	-11.0695
ၱ	-11.0784
ဍ	-11.0829
ၸ	-11.1102
т	-11.1148
ท	-11.1242
ႇ	-11.1336
	-11.1575
♪	-11.1575
р	-11.1575
»	-11.1641
ၵ	-11.1672
Φ	-11.1771
ไ	-11.192
«	-11.2021
н	-11.2487
ၾ	-11.3438
ا	-11.3491
ဦ	-11.7968
•	-11.8829
ل	-12.0511
ر	-12.0996
ب	-12.1637
၎	-12.5852
ي	-12.7383
ع	-13.0065
ة	-13.6843
