<unk>	0
<s>	0
</s>	0
▁	-2.10608
အ	-4.16317
,	-4.55075
က	-4.58026
ကို	-4.60873
မ	-4.68836
▁အ	-4.80463
s	-4.81638
း	-4.82022
.	-4.93573
့	-4.98857
-	-5.02081
e	-5.06574
ရ	-5.07959
များ	-5.17138
တ	-5.18153
သည်	-5.21116
သ	-5.21469
၊	-5.22888
a	-5.26802
o	-5.31561
လ	-5.3207
p	-5.33228
က်	-5.33247
ေ	-5.35201
သော	-5.36149
န်	-5.42001
t	-5.43394
:	-5.44011
န	-5.45306
ပါ	-5.46784
င်	-5.49592
ကြ	-5.51885
။	-5.54202
စ	-5.54598
ို	-5.57173
မှု	-5.57248
y	-5.58234
ခ	-5.59028
i	-5.60272
ဖ	-5.60357
▁ကို	-5.60797
g	-5.67472
၏	-5.68371
)	-5.70783
ပ	-5.7241
3	-5.7314
ဆ	-5.74246
;	-5.76883
c	-5.79725
ရှိ	-5.80229
ံ	-5.80269
ာ	-5.80365
ဖြစ်	-5.80651
ိ	-5.81538
d	-5.82067
m	-5.82522
ထ	-5.83366
▁(	-5.8405
တာ	-5.84441
ော	-5.85378
5	-5.87568
2	-5.87883
မှ	-5.89128
မှာ	-5.89508
ွ	-5.8952
l	-5.90177
နှင့်	-5.90882
b	-5.91476
ှ	-5.91525
တဲ့	-5.91576
4	-5.96148
နေ	-5.96715
ီ	-5.97826
ခြင်း	-5.98507
တွေ	-5.98699
ဘ	-5.98757
င်း	-5.98864
n	-5.99054
သူ	-5.99318
u	-6.00232
ပ်	-6.00818
ယ	-6.02146
in	-6.04292
f	-6.04617
S	-6.04828
0	-6.05683
ဝ	-6.063
စ်	-6.07044
ယ်	-6.07379
h	-6.08545
er	-6.10156
6	-6.11133
▁S	-6.11217
ကျ	-6.12097
9	-6.1356
7	-6.14904
ပြီး	-6.16424
or	-6.16952
ု	-6.17114
ေး	-6.17341
8	-6.18399
မ်း	-6.18695
တွင်	-6.1924
▁P	-6.19398
▁&	-6.20185
C	-6.21417
k	-6.22167
ဆို	-6.24035
an	-6.24494
ော်	-6.24697
▁A	-6.24776
တ်	-6.24924
နိုင်	-6.252
ရေး	-6.26496
ချ	-6.26688
ခဲ့	-6.29923
r	-6.29966
ဲ	-6.30192
I	-6.31342
ပေး	-6.32241
ပြ	-6.3339
▁C	-6.34586
on	-6.3473
1	-6.3507
ဂ	-6.35484
w	-6.35514
A	-6.35521
ar	-6.37646
တော်	-6.37921
D	-6.38633
လို	-6.40998
ျ	-6.41763
gt	-6.41967
re	-6.42651
မြ	-6.42747
ရာ	-6.42906
al	-6.42946
T	-6.43984
န်း	-6.44122
လာ	-6.44325
စာ	-6.44627
▁B	-6.45246
▁T	-6.45742
ဒ	-6.46248
▁M	-6.46668
ဟာ	-6.47689
P	-6.47914
ထား	-6.48028
ဗ	-6.48137
နဲ့	-6.48755
st	-6.49075
ing	-6.4952
E	-6.50272
ဇ	-6.50537
ရဲ့	-6.50626
သို့	-6.51306
v	-6.53148
ပို	-6.53445
၀	-6.53518
at	-6.56746
သား	-6.56964
ည	-6.58295
en	-6.58788
▁D	-6.59886
"	-6.60218
▁/	-6.60545
ူ	-6.60625
ရှ	-6.60883
▁H	-6.61666
ရန်	-6.62292
O	-6.62435
အား	-6.62564
စား	-6.62929
/	-6.63106
ြ	-6.63847
အတွက်	-6.63861
M	-6.6432
ကြီး	-6.64507
်	-6.64637
နှင့်	-6.65272
▁F	-6.65582
၏။	-6.66271
၌	-6.6711
ပြု	-6.67176
တော့	-6.67275
သည်။	-6.67906
တို့	-6.68223
ပါ။	-6.69761
ူး	-6.70166
ဟ	-6.70317
လုပ်	-6.71839
ic	-6.71859
စေ	-6.72434
ခံ	-6.7249
နှစ်	-6.73017
ed	-6.73448
▁ဒီ	-6.73651
it	-6.74574
es	-6.74644
▁ထို	-6.75805
ခု	-6.76266
R	-6.77854
ိတ်	-6.78056
ဖို့	-6.78593
၍	-6.78959
ပုံ	-6.79523
္	-6.8002
▁L	-6.802
ရေ	-6.80593
ချက်	-6.80938
မိ	-6.81501
စက်	-6.82116
ra	-6.82337
နာ	-6.82343
ယူ	-6.82351
ro	-6.82425
ိုင်	-6.8281
ကွ	-6.83252
က္	-6.84663
x	-6.85111
ား	-6.85448
လေ	-6.85486
le	-6.85756
တစ်ခု	-6.86792
ုံ	-6.86923
သိ	-6.8705
င့်	-6.87091
ဘာ	-6.871
ပါတယ်။	-6.87321
၁	-6.87444
မည်	-6.87734
et	-6.87926
▁2	-6.88589
တင်	-6.88591
U	-6.88722
N	-6.88736
တယ်	-6.89067
လှ	-6.8908
▁E	-6.89932
▁G	-6.90942
ol	-6.91957
00	-6.92056
L	-6.92691
▁20	-6.92915
ch	-6.92977
B	-6.93363
ောင်	-6.93609
el	-6.94494
လက်	-6.95168
ပျ	-6.95263
ဟု	-6.96109
သွား	-6.96238
ဆောင်	-6.96407
သာ	-6.96867
စု	-6.97146
သက်	-6.97362
ter	-6.98157
ါ	-6.98281
၂	-6.98834
နည်း	-6.99087
▁လူ	-6.99769
▁သင်	-6.9979
င္	-7.00096
to	-7.008
ဆုံး	-7.00964
န္	-7.01277
20	-7.01585
မျိုး	-7.01649
တယ်။	-7.01791
ရွ	-7.02092
ပြည်	-7.02382
▁ဒါ	-7.0266
နောက်	-7.03464
ri	-7.03956
ur	-7.04224
ကာ	-7.04953
▁ငါ	-7.04983
▁R	-7.05049
လည်း	-7.05167
စိတ်	-7.05983
တစ်	-7.06489
မှတ်	-7.07297
un	-7.07681
ယာ	-7.07985
င	-7.08979
ကောင်း	-7.09071
ည်	-7.09419
လုံး	-7.10022
="	-7.10211
လိုက်	-7.11173
ပြန်	-7.11236
ဖြ	-7.11451
▁1	-7.11564
▁N	-7.12098
ပြင်	-7.12198
ုပ်	-7.12676
▁W	-7.12957
မြင်	-7.13003
လေး	-7.1315
H	-7.13176
ပြော	-7.13428
တော်မူ	-7.13592
ဂျ	-7.14962
ဦး	-7.16551
▁သူတို့	-7.16612
သုံး	-7.16713
F	-7.16909
စဉ်	-7.17083
ဝင်	-7.17177
လူ	-7.17372
?	-7.17931
သင်	-7.18642
de	-7.19391
il	-7.19828
amp	-7.19868
ခါ	-7.20117
ရှင်	-7.22051
ဘုရား	-7.2368
▁Co	-7.24737
ကား	-7.24966
ပါတယ်	-7.2584
lt	-7.26146
လို့	-7.26584
ိုင်း	-7.27185
တွေကို	-7.27264
com	-7.27352
ဆက်	-7.27745
မြို့	-7.28624
V	-7.28949
မျှ	-7.2934
ရပ်	-7.29469
]	-7.29559
နေ့	-7.29925
တိ	-7.30127
မ်	-7.30306
ကိုယ်	-7.30809
အကြောင်း	-7.30824
%	-7.3092
G	-7.31348
th	-7.31675
တို့ကို	-7.31922
la	-7.32166
များအတွက်	-7.32322
ဆင်	-7.32933
as	-7.332
ဏ	-7.33221
ပေ	-7.33466
ce	-7.3358
ဲ့	-7.33623
ရောက်	-7.34107
ဘူး	-7.34139
လမ်း	-7.3448
ထိ	-7.35894
▁_	-7.3651
is	-7.36628
စစ်	-7.37057
ွေ	-7.37178
နိုင်ငံ	-7.37365
and	-7.38095
ပဲ	-7.38481
သံ	-7.39274
များကို	-7.39299
မာ	-7.39913
ရင်	-7.40149
ုတ်	-7.40574
j	-7.41191
စ္	-7.41324
▁"	-7.41558
သေ	-7.424
တို့သည်	-7.43025
လဲ	-7.43256
တစ်ဦး	-7.43261
ul	-7.43815
ack	-7.43953
အိမ်	-7.44311
စွာ	-7.4462
ဒီ	-7.44812
တိုင်း	-7.44947
12	-7.44965
am	-7.45259
မွ	-7.45339
တည်	-7.45381
[	-7.4566
ad	-7.46289
ရို	-7.46461
ရိ	-7.46705
သစ်	-7.46802
ပေါ်	-7.46808
ငွေ	-7.47069
us	-7.47212
Y	-7.47257
lo	-7.47483
ပစ္စည်း	-7.47925
li	-7.48108
ဆေး	-7.48553
X	-7.48757
ပေါင်း	-7.4877
န့်	-7.49074
sh	-7.49131
မူ	-7.49176
ut	-7.49328
ဆီ	-7.49934
လျ	-7.50255
၍၊	-7.50326
ရောင်	-7.50421
z	-7.50848
ပွဲ	-7.51222
တောင်	-7.51351
ကုန်	-7.51802
ဉ်	-7.51948
လွ	-7.51967
ိမ်	-7.52299
ပိုင်း	-7.52493
သို့မဟုတ်	-7.52885
▁K	-7.52973
ဝါ	-7.53012
တူ	-7.53228
ုန်	-7.53266
15	-7.5333
ဘယ်	-7.53602
့်	-7.53608
င္း	-7.53669
ပတ်	-7.53671
ot	-7.54088
▁start	-7.5411
ရီ	-7.54349
ုံး	-7.5464
အောင်	-7.54769
နှုန်း	-7.55065
ir	-7.5544
တည်း	-7.55679
"&	-7.55799
▁J	-7.56153
ကြောင်း	-7.5619
မီး	-7.56205
နား	-7.56727
နီ	-7.56833
!	-7.56851
ဒ်	-7.5708
ကြား	-7.5711
co	-7.57168
ပင်	-7.57209
▁dur	-7.57218
အောက်	-7.57232
19	-7.57325
လော	-7.57429
op	-7.57783
▁O	-7.57823
ate	-7.57883
ရက်	-7.57887
အသုံးပြု	-7.58253
နှင့်အတူ	-7.58447
16	-7.5887
▁လက်	-7.5959
မဟုတ်	-7.59869
အရာ	-7.59894
10	-7.60062
မှန်	-7.60514
ation	-7.61186
50	-7.61457
တီ	-7.61579
ac	-7.6179
K	-7.62187
he	-7.6244
မီ	-7.63196
မယ်	-7.63622
W	-7.63668
တ္	-7.63897
ရင်း	-7.64648
လည်	-7.64714
စည်း	-7.64844
တိုက်	-7.65497
ရည်	-7.66145
အပေါ်	-7.66377
ချိန်	-7.66509
တရား	-7.66931
တွေ့	-7.66936
id	-7.67406
လွန်	-7.67598
se	-7.67881
me	-7.67992
▁ထာဝရဘုရား	-7.68412
▁V	-7.68488
13	-7.68795
ma	-7.69018
စီ	-7.69397
▁တစ်	-7.69633
ထုတ်	-7.70033
▁...	-7.7018
ti	-7.70183
'	-7.70417
သင့်	-7.70802
ပူ	-7.71297
သွင်း	-7.71763
လျက်	-7.72658
တု	-7.73353
ကယ်	-7.73931
စုံ	-7.74369
ကြောင့်	-7.74676
ငျ	-7.74801
ထက်	-7.75102
▁အဆိုပါ	-7.75437
ချင်း	-7.75641
လား	-7.75904
အဖြစ်	-7.75989
ရှု	-7.76159
ကြ၏။	-7.76395
ne	-7.76755
▁အာ	-7.76869
ညီ	-7.77245
ရော	-7.77408
ရှင်း	-7.77552
ang	-7.77974
တက်	-7.78164
ဒေါ	-7.78276
သောသူ	-7.79161
အချိန်	-7.79384
30	-7.79416
နေရာ	-7.79506
▁ဤ	-7.79991
ho	-7.80096
ငါ	-7.80551
တို	-7.80559
▁သင်တို့	-7.80581
▁လုပ်	-7.80747
ဘက်	-7.80796
mm	-7.80924
အားလုံး	-7.81362
ရှာ	-7.8161
▁Ma	-7.82091
ယောက်	-7.82666
စကား	-7.82944
ချို	-7.83052
11	-7.832
▁ကျွန်မ	-7.83258
14	-7.83493
၅	-7.83598
စီး	-7.83868
▁10	-7.83868
ထောင်	-7.84037
စရာ	-7.84287
ဖြင့်	-7.84389
မြေ	-7.84499
di	-7.85468
ခန်း	-7.85542
ဧ	-7.85587
႔	-7.85655
ွား	-7.85706
▁တရုတ်	-7.85737
နယ်	-7.85805
ver	-7.85874
▁Ch	-7.85994
ect	-7.86679
(	-7.86834
ဥ	-7.87021
ex	-7.87211
လ်	-7.87441
မရှိ	-7.8778
ရုပ်	-7.87974
ent	-7.88425
စွမ်း	-7.8875
ည္	-7.88826
၎င်း	-7.88953
ay	-7.8944
၃	-7.89503
ထုတ်ကုန်	-7.89868
+	-7.90482
မ္	-7.90643
18	-7.90673
...	-7.91159
လုပ်ငန်း	-7.91328
စင်	-7.91502
တတ်	-7.91547
vi	-7.91625
တိုင်	-7.91651
ကနေ	-7.91769
▁In	-7.92
–	-7.9212
လီ	-7.92494
um	-7.92563
လု	-7.92717
အခြား	-7.92843
ွန်း	-7.92935
သတင်း	-7.93187
ကျွန်	-7.93564
ment	-7.93637
Z	-7.93977
သေး	-7.94103
▁Re	-7.9465
fi	-7.94674
အားဖြင့်	-7.95049
အဘို့	-7.95131
ကု	-7.95153
ယ္	-7.95436
၄	-7.95779
ဒါ	-7.95939
$	-7.9611
အတူ	-7.96134
ဆိုင်	-7.96221
ig	-7.9639
ပညာ	-7.96627
ပ္	-7.96659
all	-7.96984
ဝန်	-7.97154
စျေး	-7.97205
ခေါ်	-7.97982
ow	-7.98752
တိုး	-7.98827
ခံရ	-7.99287
ငယ်	-7.99472
://	-7.99533
ပြီ	-7.99839
ထွက်	-8.00199
သီး	-8.00378
စနစ်	-8.00403
ကစား	-8.00644
တန်း	-8.00752
သည့်	-8.00834
မင်း	-8.00867
ခွ	-8.01184
မည်။	-8.01382
သတ်	-8.0139
ခြေ	-8.01734
အဖွဲ့	-8.0185
▁St	-8.02059
ဆိုင်ရာ	-8.02145
ကဲ့သို့	-8.0215
ine	-8.02504
▁the	-8.02661
ရှေ့	-8.02681
▁ငါ့	-8.02879
ပု	-8.03729
ခဲ့သည်။	-8.04131
=	-8.04284
▁http	-8.04407
mo	-8.04431
ard	-8.04498
ion	-8.04534
အတွင်း	-8.04752
ျပ	-8.0554
ကမ္ဘာ	-8.06309
ry	-8.06474
der	-8.06929
ဖက်	-8.07778
လျှင်	-8.07886
၈	-8.08212
အခမဲ့	-8.08536
ပြား	-8.09149
သင့်	-8.0923
ထဲ	-8.09314
ဓ	-8.09893
ite	-8.09993
ကြာ	-8.10083
ရိုး	-8.10226
ဆာ	-8.10432
ႏ	-8.10519
im	-8.10542
24	-8.1059
bo	-8.1063
ခ်	-8.10714
up	-8.10858
ကောင်	-8.10883
ရဲ	-8.11203
ပန်း	-8.11644
ive	-8.11825
25	-8.12615
စိ	-8.12799
ကြည့်	-8.13812
ဆိုတာ	-8.13818
ခြား	-8.1416
စပ်	-8.14623
အမျိုးအစား	-8.14752
၉	-8.14812
ကြိုး	-8.14904
▁အဲဒီ	-8.14937
ဖြတ်	-8.15046
17	-8.15149
၇	-8.15408
စက်ရုံ	-8.15538
တယ္	-8.15792
000	-8.15974
လိုအပ်	-8.16275
သူတို့	-8.16551
လိမ့်မည်။	-8.16558
ဖုန်း	-8.16669
ထုတ်လုပ်	-8.16782
ru	-8.1686
40	-8.1777
၆	-8.18868
ချင်	-8.19215
ထဲမှာ	-8.19258
ပိုင်	-8.19669
60	-8.2015
▁2019	-8.20402
ub	-8.20625
တ္တ	-8.20982
Q	-8.2107
&	-8.21194
80	-8.21239
per	-8.21513
100	-8.21613
▁အဘယ်	-8.22292
ချက်များ	-8.22897
ပြောင်း	-8.23091
_	-8.23192
ဆင်း	-8.23874
iz	-8.24288
ဘဲ	-8.24701
lu	-8.2495
qu	-8.25379
ရောင်း	-8.25472
သြ	-8.25653
ထဲက	-8.26095
ကျောင်း	-8.26245
ပြီ။	-8.26305
ဖြင့်	-8.26872
▁Pro	-8.2725
▁2018	-8.27368
▁of	-8.27419
ခရီး	-8.2784
ၾက	-8.28215
ဝတ်	-8.2962
၎င်း၊	-8.29635
one	-8.29706
*	-8.30053
လောက်	-8.30091
လော့။	-8.30208
▁မိမိ	-8.30689
ပေါ်မှာ	-8.30887
ကြည့်	-8.31041
ပါဝင်	-8.31391
tion	-8.31524
လျှောက်	-8.31677
ကျော်	-8.31808
▁ကျွန်တော်	-8.3203
သိမ်း	-8.323
▁ကျွန်တော်တို့	-8.32695
▁ခုနှစ်	-8.32958
ကြောင့်	-8.33351
ေတြ	-8.34161
▁သူ့	-8.34591
နည်းပညာ	-8.34625
ction	-8.34925
ထည်	-8.35077
ight	-8.35101
ကျေးဇူး	-8.35268
ချုပ်	-8.35615
ွတ်	-8.35711
မွာ	-8.36339
လျှင်၊	-8.36539
မျက်နှာ	-8.36908
ထောက်	-8.37085
J	-8.37429
မျက်	-8.38081
မြောက်	-8.38637
ill	-8.38731
ခွဲ	-8.39186
ဟော	-8.39245
ထုတ်လုပ်သူ	-8.39384
႕	-8.39412
ကျိုး	-8.39419
▁Ltd	-8.40142
ဂိမ်း	-8.40754
•	-8.41337
▁အကျွန်ုပ်	-8.41346
ဖြစ်ပါသည်	-8.41981
age	-8.42082
ကုမ္ပဏီ	-8.42457
▁ဒါပေမဲ့	-8.42697
စွဲ	-8.43284
▁ကိုယ်တော်	-8.43819
ရောဂါ	-8.43905
အမျိုးသား	-8.44375
▁ငါတို့	-8.44415
▁ဒါဟာ	-8.45022
ခေါင်း	-8.45252
#	-8.46691
="1	-8.46965
ဳ	-8.47193
အကောင်းဆုံး	-8.47361
နှိပ်	-8.47495
နောက်ဆုံး	-8.47624
ထိုး	-8.4853
able	-8.48825
ခွင့်	-8.49245
▁အမေရိကန်	-8.49273
ဓာတ်	-8.49301
ock	-8.50249
ကောက်	-8.5126
အထူး	-8.51649
လွှတ်	-8.5177
▁ကျွန်မတို့	-8.5301
ပေါက်	-8.53014
ကျွန်ုပ်တို့	-8.53406
▁2017	-8.53569
ကျောက်	-8.54315
ပုံစံ	-8.54902
”	-8.55303
ဌာန	-8.55723
အားဖြင့်	-8.57084
စာမျက်နှာ	-8.57509
မိန့်တော်မူ	-8.58234
လေယာဉ်	-8.58741
သတ်မှတ်	-8.59978
လွှာ	-8.60556
ဆက်သွယ်	-8.60821
သမား	-8.61065
စမ်းသပ်	-8.61138
ပြောင်းလဲ	-8.61314
ဖန်တီး	-8.61398
ကျနော်တို့	-8.61485
ၿ	-8.61747
အွန်လိုင်း	-8.62038
▁အဲဒါ	-8.62246
ဆွဲ	-8.6228
ကိရိယာ	-8.62564
အပြစ်	-8.62898
“	-8.63152
သဘော	-8.63605
ဤ	-8.64161
စီရင်	-8.64301
အချက်အလက်	-8.64457
ကာကွယ်	-8.64608
ဗီဒီယို	-8.65146
စိုက်	-8.65188
သော်လည်း	-8.65879
မူကား၊	-8.65906
ခွင့်	-8.65998
▁သငျသညျ	-8.69009
အပေါင်းတို့	-8.69184
ဘို့	-8.70282
ပေါ့။	-8.70838
နှုတ်	-8.70938
£	-8.71766
မော်ဒယ်	-8.72152
တွဲ	-8.74289
အံ့	-8.75037
လေ့လာ	-8.75138
အဓိက	-8.75198
ီးယား	-8.75279
နံပါတ်	-8.75331
ယုံကြည်	-8.76772
သံမဏိ	-8.76874
ရွှေ	-8.76942
သွေး	-8.77557
▁Home	-8.77691
app	-8.77778
ယဇ်	-8.78892
▁မြန်မာ	-8.79235
ဒီဇိုင်း	-8.79411
ဒေသ	-8.79569
ကြိုက်	-8.79734
အလုပ်လုပ်	-8.80357
မယ့်	-8.80391
အိပ်	-8.80509
ထာဝရ	-8.80866
▁၁၉	-8.80935
မိုဘိုင်း	-8.81157
ဝန်ဆောင်မှု	-8.81405
ေတာ့	-8.81842
အခြေခံ	-8.82666
ကျွန်တော်တို့ရဲ့	-8.8286
စီးပွားရေး	-8.83731
©	-8.85558
ဖျက်	-8.85985
ရွေးချယ်	-8.86671
စေခြင်းငှါ	-8.87194
▁Myanmar	-8.88363
ook	-8.90389
ထိန်းချုပ်	-8.90433
ျဖစ္	-8.90475
ကျင့်	-8.91217
တံဆိပ်	-8.91249
အရွယ်အစား	-8.91288
အရည်အသွေး	-8.93659
ဘာသာစကား	-8.9402
ငြိမ်	-8.94061
ညွှန်း	-8.94468
ရှင်ဘုရင်	-8.95557
သတ္တု	-8.95764
▁Tool	-8.9667
▁ခင်ဗျား	-8.98409
ကာစီနို	-8.99252
ရှာဖွေ	-9.00572
လျှော	-9.01171
အစီအစဉ်	-9.01346
လှုပ်ရှား	-9.02475
▁ပထမ	-9.02527
စီးရီး	-9.02565
▁ယခင်	-9.03798
»	-9.03838
လုံခြုံ	-9.04549
လျှပ်စစ်	-9.04594
www	-9.04599
▁Android	-9.06349
ခြောက်	-9.06444
ဋ	-9.07491
အစိတ်အပိုင်းများ	-9.07951
လိမ့်မည်	-9.08019
▁ဣသရေလအမျိုး	-9.08407
€	-9.0846
@	-9.08599
▁you	-9.0901
အဘယ်သူမျှမ	-9.09251
ကူညီ	-9.09584
ပြည့်	-9.09674
ဆောင်ရွက်	-9.12099
~	-9.1224
ဥပမာ	-9.13111
ဗားရှင်း	-9.13208
ပြဿနာ	-9.13403
▁Black	-9.1404
ဩ	-9.14974
▁Valve	-9.15023
×	-9.15123
ဖွင့်	-9.15222
ဆောင်းပါး	-9.15819
▁FSX	-9.1592
ႈ	-9.20572
°	-9.23385
ဍ	-9.28976
↑	-9.31221
ဌ	-9.37134
ဈ	-9.37468
’	-9.60038
q	-9.61292
ၚ	-9.66868
ဿ	-9.77473
ဣ	-9.80382
ႀ	-9.99177
ဉ	-10.0508
·	-10.1164
—	-10.1468
ႊ	-10.238
→	-10.2754
é	-10.3498
ဠ	-10.385
ဴ	-10.4021
′	-10.4518
±	-10.4591
}	-10.4628
{	-10.4908
\	-10.607
®	-10.6936
á	-10.7123
ö	-10.7146
	-10.729
ၤ	-10.7362
ä	-10.7934
ဃ	-10.8063
ا	-10.846
а	-10.8873
●	-10.8958
ၽ	-10.9187
‘	-10.9422
≤	-10.9972
←	-11.013
о	-11.0194
š	-11.0259
ل	-11.1101
ر	-11.1243
ၥ	-11.1278
ب	-11.1423
႐	-11.1569
`	-11.1606
å	-11.1643
ó	-11.1643
и	-11.1643
е	-11.1755
本	-11.2657
ي	-11.2698
ၼ	-11.2698
語	-11.2823
日	-11.2907
ၻ	-11.3077
ع	-11.3119
ย	-11.3249
с	-11.3293
≥	-11.3425
ၱ	-11.3514
ၸ	-11.3832
ة	-11.3832
т	-11.3879
ท	-11.3972
ႇ	-11.4066
р	-11.4305
♪	-11.4305
	-11.4306
ၵ	-11.4403
Φ	-11.4501
ไ	-11.465
«	-11.4751
н	-11.5217
ၾ	-11.9912
ဦ	-12.0658
၎	-12.8564
