<unk>	0
<s>	0
</s>	0
▁	-2.11004
,	-4.04995
ကို	-4.5038
.	-4.76985
:	-4.93812
-	-4.98972
▁ကို	-5.05931
s	-5.08189
၊	-5.16367
)	-5.21224
က	-5.21931
;	-5.27261
သည်	-5.37612
များ	-5.40118
▁(	-5.40481
အ	-5.48351
။	-5.50113
သော	-5.51734
နှင့်	-5.62126
▁အ	-5.66325
၏	-5.67315
▁&	-5.67883
မှာ	-5.74209
မ	-5.80314
gt	-5.90021
ရ	-5.98844
▁-	-5.99785
မှု	-6.0388
ပါ	-6.046
တဲ့	-6.06694
▁/	-6.06718
"	-6.08921
ခြင်း	-6.14361
▁က	-6.19748
ရှိ	-6.21257
အတွက်	-6.21725
မှ	-6.21777
း	-6.22548
တွင်	-6.23945
/	-6.27197
တွေ	-6.28585
နဲ့	-6.29068
့	-6.33053
သူ	-6.3441
ပြီး	-6.36534
ဖို့	-6.4179
ပေး	-6.422
ဟာ	-6.43127
ရဲ့	-6.44621
တ	-6.4586
in	-6.48887
er	-6.51631
ရန်	-6.51631
နေ	-6.54655
လာ	-6.55244
၍	-6.55418
ပါ။	-6.55459
▁မ	-6.59788
y	-6.60889
e	-6.62793
၌	-6.65271
C	-6.65676
▁1	-6.67697
▁ဒီ	-6.67864
ကြ	-6.68164
S	-6.69742
ing	-6.69749
D	-6.69902
တာ	-6.70583
ရေး	-6.73017
m	-6.73066
A	-6.73608
သ	-6.73807
amp	-6.74272
လ	-6.74299
a	-6.74509
▁S	-6.74555
p	-6.74707
နှင့်	-6.75143
သွား	-6.76092
အား	-6.79393
ထား	-6.79655
▁2	-6.80537
lt	-6.81202
n	-6.83757
သို့	-6.84154
▁_	-6.84446
များအတွက်	-6.84943
သား	-6.85408
ရာ	-6.85812
စေ	-6.8701
d	-6.87685
တွေကို	-6.88203
3	-6.88366
▁"	-6.88547
2	-6.88909
နိုင်	-6.90765
ဖြစ်	-6.91218
o	-6.93653
t	-6.94583
တော်	-6.95389
▁P	-6.95549
တစ်ခု	-6.97002
▁ငါ	-6.97437
B	-6.98768
လို	-6.99115
on	-7.01531
com	-7.01775
▁start	-7.02302
c	-7.02734
စ	-7.03413
"&	-7.04003
al	-7.04291
လည်း	-7.04321
▁3	-7.05136
ကြီး	-7.0527
▁dur	-7.05355
4	-7.06171
နှင့်အတူ	-7.08203
▁A	-7.08471
x	-7.08553
များကို	-7.0929
▁B	-7.09815
ဆို	-7.10675
g	-7.12626
!	-7.13218
▁C	-7.14623
အဖြစ်	-7.15648
1	-7.16323
▁...	-7.16669
i	-7.17121
an	-7.1748
သာ	-7.17513
တော့	-7.17825
▁မှ	-7.18159
M	-7.18368
ယူ	-7.18503
စာ	-7.18717
ပ	-7.19164
ed	-7.19309
က်	-7.19335
L	-7.19854
b	-7.20027
လိုက်	-7.21922
ခဲ့	-7.22187
f	-7.22583
ကျ	-7.2263
▁5	-7.23296
၍၊	-7.2494
T	-7.25025
H	-7.25102
w	-7.25131
▁အဆိုပါ	-7.25675
▁T	-7.25788
စက်	-7.26079
G	-7.26836
လို့	-7.2771
ေ	-7.279
ချက်	-7.28482
တစ်	-7.28766
တို့	-7.29184
r	-7.29298
ပဲ	-7.29967
▁H	-7.2999
?	-7.30118
နှစ်	-7.31047
ခံ	-7.31424
▁F	-7.31757
တို့ကို	-7.31839
P	-7.33184
▁ထို	-7.33565
W	-7.35621
h	-7.35795
▁E	-7.35849
K	-7.36389
သည်။	-7.36505
▁Co	-7.36546
▁G	-7.36686
or	-7.3698
ပြု	-7.37223
▁သူတို့	-7.38542
(	-7.38788
u	-7.39219
လူ	-7.39734
ခ	-7.4009
5	-7.40153
v	-7.40323
လုပ်	-7.40629
mm	-7.40779
re	-7.41127
▁10	-7.41789
မိ	-7.41957
V	-7.42704
နိုင်ငံ	-7.42799
▁D	-7.43039
k	-7.43057
%	-7.43489
th	-7.43905
▁M	-7.43977
="	-7.44994
ပါတယ်။	-7.4525
၏။	-7.45802
▁တရုတ်	-7.46317
://	-7.47726
ပုံ	-7.47765
▁လူ	-7.47777
en	-7.48012
လေး	-7.48202
ရေ	-7.48663
န	-7.49997
F	-7.50078
ကာ	-7.50291
▁–	-7.50508
▁4	-7.51514
ဟု	-7.51577
le	-7.51972
စား	-7.52311
▁the	-7.52788
it	-7.53033
တို့သည်	-7.53127
▁R	-7.53457
R	-7.53869
ဘ	-7.54708
သိ	-7.55667
တစ်ဦး	-7.56144
ဝင်	-7.56185
]	-7.56221
N	-7.56355
ပြ	-7.56362
to	-7.56583
=	-7.57217
ကြ၏။	-7.57418
ခဲ့သည်။	-7.58069
င်	-7.58384
အားဖြင့်	-7.58708
ကနေ	-7.58884
နာ	-7.59133
...	-7.5917
ဒ	-7.59456
ကြား	-7.59583
အပေါ်	-7.59623
သို့မဟုတ်	-7.60036
ပင်	-7.61049
'	-7.62153
ဖ	-7.62737
at	-7.63421
တင်	-7.64602
▁K	-7.65516
သုံး	-7.65887
ဒီ	-7.66505
▁သင်	-7.67799
st	-7.67868
လက်	-7.67886
I	-7.68545
▁$	-7.68717
တယ်	-7.68864
ဆ	-7.69033
▁L	-7.6922
မြို့	-7.70129
▁+	-7.70152
▁2019	-7.70227
U	-7.70291
10	-7.7083
ဆုံး	-7.71568
l	-7.72264
စွာ	-7.72408
ကား	-7.72413
တယ်။	-7.72554
လုံး	-7.72891
▁ကျွန်မ	-7.73359
_	-7.73941
X	-7.73985
O	-7.74089
ထဲမှာ	-7.74103
ပြော	-7.74286
el	-7.75493
ထွက်	-7.75814
▁N	-7.75894
▁နှင့်	-7.75934
လျှင်	-7.76514
တော်မူ	-7.76912
ထ	-7.76932
co	-7.77117
▁2018	-7.77246
▁လုပ်	-7.77582
▁7	-7.77606
▁W	-7.77718
ယ	-7.77751
et	-7.77851
နည်း	-7.779
8	-7.77943
▁6	-7.78189
am	-7.79333
ဆောင်	-7.79703
▁တစ်	-7.79911
ar	-7.79932
ဗ	-7.79975
my	-7.80138
ာ	-7.80284
00	-7.8045
ပေါ်	-7.80509
▁ဤ	-7.81312
es	-7.81879
Y	-7.82212
ချ	-7.82297
z	-7.82383
ur	-7.82709
7	-7.83059
စ်	-7.83164
▁သို့မဟုတ်	-7.83665
မည်	-7.83951
ထက်	-7.83991
▁ကိုယ်	-7.84079
အချိန်	-7.84289
▁ရေ	-7.84443
us	-7.84571
မျိုး	-7.8561
ra	-7.85804
ma	-7.85884
ရင်	-7.86178
▁of	-7.86437
▁[	-7.86444
ဂ	-7.86466
▁and	-7.86547
▁I	-7.8665
ch	-7.86719
6	-7.86924
▁စ	-7.87076
ဖြစ်ပါတယ်။	-7.87418
ဦး	-7.87423
▁နှစ်	-7.87939
စု	-7.88053
သင်	-7.8857
ပြန်	-7.8859
▁Ltd	-7.88763
▁ဒါက	-7.8947
င္	-7.89475
ရပ်	-7.90112
ly	-7.90378
အဘို့	-7.90421
ဆက်	-7.90833
▁ဒါပေမဲ့	-7.90901
▁19	-7.91015
E	-7.91289
အောင်	-7.91424
il	-7.91641
ဝ	-7.91823
▁•	-7.91897
စရာ	-7.91961
ol	-7.92143
me	-7.92456
▁8	-7.92587
ကောင်း	-7.9329
ု	-7.93613
9	-7.93725
▁ဒါဟာ	-7.93751
လမ်း	-7.93957
ro	-7.93959
မွာ	-7.94217
သည့်	-7.9472
န္	-7.95204
နေ့	-7.95523
်	-7.95584
တိုက်	-7.95903
သံ	-7.95913
▁ငါ့	-7.95932
ic	-7.96155
ri	-7.96309
se	-7.97089
id	-7.97502
ခံရ	-7.9753
လေ	-7.97941
ဆီ	-7.98201
ကြောင်း	-7.98547
များနှင့်	-7.98834
▁O	-7.98837
▁ပို	-7.99008
မာ	-7.9917
ဘာ	-7.99738
အတွင်း	-7.99757
▁ဖြစ်	-7.99782
ကြည့်	-8.00071
▁သင်တို့	-8.00187
လျက်	-8.00245
▁စိတ်	-8.00644
ထဲက	-8.00685
per	-8.00936
20	-8.01325
ta	-8.01627
▁V	-8.01887
▁12	-8.02633
la	-8.02718
▁J	-8.02775
&	-8.03011
နေရာ	-8.03454
”	-8.03495
un	-8.03739
▁2017	-8.03761
ပိုင်း	-8.04217
နောက်	-8.04437
▁ထာဝရဘုရား	-8.04445
အကြောင်း	-8.04487
၀	-8.04569
50	-8.04651
သစ်	-8.05271
တိုင်း	-8.05369
ဘက်	-8.05433
လေ၏။	-8.05972
လဲ	-8.06149
ရှ	-8.06258
တွေဟာ	-8.06313
▁ကျွန်တော်	-8.06574
ဇ	-8.06711
တောင်	-8.06895
ပေါင်း	-8.06934
▁*	-8.07151
▁နောက်	-8.07317
ခဲ့တယ်။	-8.0738
စိတ်	-8.08109
lo	-8.08257
▁အဲဒီ	-8.08548
▁Hack	-8.08797
11	-8.09032
ြ	-8.09128
ပစ္စည်း	-8.09186
12	-8.09302
is	-8.09532
ထုတ်	-8.0976
ိ	-8.09911
အမျိုးအစား	-8.09961
တတ်	-8.10081
▁မိမိ	-8.10254
မရှိ	-8.1043
န်	-8.10508
ပေါ်မှာ	-8.11702
▁သိ	-8.12159
ငါ	-8.12426
င်း	-8.12781
ation	-8.1286
ad	-8.13286
ဒါ	-8.13291
ငွေ	-8.133
▁ကျွန်တော်တို့	-8.13748
▁လက်	-8.14055
အားလုံး	-8.14698
te	-8.14825
ဆိုင်ရာ	-8.14838
ကုန်	-8.14881
ရောက်	-8.15099
တူ	-8.15304
▁Re	-8.15448
အိမ်	-8.1553
နေတဲ့	-8.15565
တွေနဲ့	-8.16107
▁ပြော	-8.1627
စနစ်	-8.16677
တက်	-8.16731
ul	-8.16767
ပ်	-8.17164
▁20	-8.17444
▁စက်	-8.17749
ေတြ	-8.18468
ne	-8.18522
၈	-8.18681
ဖြင့်	-8.18709
စီ	-8.18868
30	-8.18957
▁သငျသညျ	-8.1907
ရင်း	-8.19399
ချင်	-8.19458
စဉ်	-8.19525
▁https	-8.1974
သောသူ	-8.19818
▁to	-8.20201
and	-8.20203
▁အာ	-8.20621
ဖြစ်ပါသည်	-8.20636
မှုကို	-8.20686
▁ငါသည်	-8.2086
နီ	-8.20977
သေး	-8.21131
ရှင်	-8.21601
လုပ်ငန်း	-8.21632
စက်ရုံ	-8.21694
▁“	-8.22003
လျှင်၊	-8.22004
မြင်	-8.22008
တွေက	-8.22225
က္	-8.22466
ပါတယ်	-8.23048
မင်း	-8.23355
ယ္	-8.23418
ဤ	-8.23726
01	-8.23988
▁X	-8.24119
ခြင်းကို	-8.24123
40	-8.24467
ang	-8.24582
ပွဲ	-8.24636
▁၁	-8.24682
ပြည်	-8.25175
အဖွဲ့	-8.25209
၃	-8.25265
J	-8.25359
ရိုး	-8.25368
ce	-8.25376
၄	-8.25607
ကြောင့်	-8.25829
▁Home	-8.25911
▁http	-8.25942
တာက	-8.25963
စျေးနှုန်း	-8.26158
ia	-8.26489
0	-8.26618
▁ခုနှစ်	-8.26822
de	-8.2687
တယ်၊	-8.26921
ဘူး	-8.2719
80	-8.27214
na	-8.27381
ံ	-8.27684
ကဲ့သို့	-8.27739
ry	-8.27854
▁ကျွန်မတို့	-8.28065
▁သင်သည်	-8.28121
များ၏	-8.28168
တော်မူ၏။	-8.28254
ရက်	-8.28358
j	-8.28385
16	-8.28468
မျှ	-8.288
60	-8.28982
ex	-8.29348
▁သူ့	-8.2941
ဘို့	-8.29601
ည	-8.29795
လှ	-8.29875
mo	-8.30062
ဖြစ်ပါတယ်	-8.30279
ကိုယ်	-8.30347
ကြာ	-8.30643
လောက်	-8.30781
ကျွန်တော်တို့ရဲ့	-8.30826
ပေါက်	-8.31088
စီး	-8.31189
▁ဒီတော့	-8.31251
တို	-8.31467
▁အားလုံး	-8.31671
သင့်	-8.32088
ထားတဲ့	-8.32106
▁အချိန်	-8.32197
လီ	-8.32436
မ်ား	-8.32561
op	-8.32692
ပြား	-8.33057
စစ်	-8.334
▁အမေရိကန်	-8.33999
▁Y	-8.34011
္	-8.34201
▁15	-8.34284
ion	-8.34448
um	-8.34513
▁၁၉	-8.34731
ေန	-8.34838
ဘဲ	-8.3507
ချီ	-8.3544
ဆွဲ	-8.35614
ပြီ	-8.35781
နှင့်အတူ	-8.35903
ဖြင့်	-8.36184
as	-8.36393
မဟုတ်	-8.36405
▁ဒါ	-8.36547
အခမဲ့	-8.36788
ရိ	-8.36789
လျက်၊	-8.36887
မည်။	-8.36902
တရား	-8.37083
02	-8.37162
13	-8.37303
ထောင်	-8.37492
ဟ	-8.37511
ယာ	-8.37584
up	-8.37618
▁Myanmar	-8.37681
ော်	-8.38044
▁အခမဲ့	-8.38084
အားဖြင့်	-8.38159
ပို	-8.38289
ခဲ့သည်	-8.38332
တည်း	-8.38525
မ်	-8.38643
▁0	-8.38755
▁သုံး	-8.38873
▁2016	-8.38918
သင့်	-8.3896
/?	-8.38989
▁ငါတို့	-8.39013
▁သင်၏	-8.39107
အခြား	-8.3935
25	-8.39735
ot	-8.39925
▁ထုတ်ကုန်များ	-8.40158
လိမ့်မည်။	-8.40289
ဆေး	-8.40402
▁9	-8.40683
▁အပေါ်	-8.40843
ပစ်	-8.40985
ရော	-8.41182
ပါ၊	-8.41225
19	-8.41249
ယ်	-8.41449
▁အခြား	-8.41469
▁De	-8.41624
15	-8.41656
35	-8.41953
▁အိမ်	-8.41975
▁ဘုရားသခင်	-8.42092
အထိ	-8.42405
▁Z	-8.42432
org	-8.4248
အတိုင်း	-8.42487
၂	-8.42797
="1	-8.42943
▁2013	-8.43295
▁လမ်း	-8.43568
အမည်	-8.43897
ချိန်	-8.43901
ခြင်းနှင့်	-8.4405
li	-8.44333
ကြောင့်	-8.44522
ခန်း	-8.44716
▁သတင်း	-8.44765
-1	-8.44851
ကျော်	-8.45626
အရာ	-8.45637
▁သင်တို့သည်	-8.45669
Z	-8.45676
အသုံးပြု	-8.45743
▁Air	-8.45809
အသစ်	-8.4584
၉	-8.46055
im	-8.463
လ်	-8.46464
▁ယခု	-8.46626
ate	-8.46805
မူ	-8.4693
▁ကျနော်တို့	-8.4697
▁သူတို့သည်	-8.47002
ခဲ့ကြ	-8.4728
▁အလုပ်	-8.47341
သည့်	-8.47415
ကြလော့။	-8.47531
ent	-8.47533
04	-8.47593
အဘို့အ	-8.47618
သေ	-8.47842
▁အခု	-8.47896
လော့။	-8.48048
▁re	-8.48066
ine	-8.48244
စကား	-8.48353
တန်	-8.48502
▁30	-8.48585
တိုး	-8.48757
ပေါ့။	-8.48865
▁အကြောင်း	-8.48903
နှုန်း	-8.49747
၅	-8.49842
နား	-8.49955
18	-8.50059
-2	-8.50324
သီး	-8.50373
ဆိုင်	-8.50607
▁ပြန်	-8.51049
၁	-8.51235
14	-8.51477
▁စက်ရုံ	-8.51538
▁တစ်ဦး	-8.51578
▁ပေးသွင်း	-8.51607
ကောင်	-8.51647
▁18	-8.51903
▁ဦး	-8.52029
၆	-8.52071
လွန်	-8.52161
ကုမ္ပဏီ	-8.52479
17	-8.52499
အိတ်	-8.52556
အရွယ်အစား	-8.52611
▁2015	-8.52687
www	-8.52785
▁de	-8.52798
▁The	-8.52925
မယ်	-8.52938
အလင်း	-8.53012
000	-8.53226
တာပါ။	-8.53399
င္း	-8.53424
ပညာ	-8.53435
ပြီးနောက်	-8.53444
ထားသော	-8.53445
05	-8.5348
45	-8.53535
ဖြတ်	-8.53584
ရီ	-8.53739
ရှာ	-8.53823
▁ဘယ်လို	-8.53918
အမျိုး	-8.54071
႔	-8.54233
သူများ	-8.54504
ချုပ်	-8.54533
များတွင်	-8.54551
▁16	-8.54566
ဖက်	-8.54597
ဆိုး	-8.54598
ခွဲ	-8.54608
▁Ro	-8.54711
နည်းပညာ	-8.54766
▁သူ၏	-8.54941
▁Android	-8.55015
sh	-8.55499
ခြင်း၊	-8.56215
တာကို	-8.56398
ဂိမ်း	-8.5643
ရှိသည်	-8.56433
08	-8.56492
င	-8.56538
@	-8.56791
လိုင်း	-8.56814
အစိတ်အပိုင်းများ	-8.57169
03	-8.57256
ထိုး	-8.57452
ကတော့	-8.5759
ut	-8.57851
ခေါ်	-8.5802
ထုတ်ကုန်	-8.58025
နိုင်ပါတယ်။	-8.58027
ွ	-8.58132
တော်ကို	-8.58264
ter	-8.5855
ရုံ	-8.58683
အရ	-8.58744
ant	-8.58817
ဖြစ်ပြီး	-8.58839
09	-8.58917
po	-8.58926
all	-8.59203
▁အကျွန်ုပ်	-8.59252
ver	-8.59274
▁ပြီးတော့	-8.5936
န့်	-8.59366
ခ်	-8.59439
36	-8.59733
ကိုလည်း	-8.59736
တွင်း	-8.59754
အသံ	-8.598
မြောက်	-8.60014
▁နေအိမ်	-8.60095
="2	-8.60099
ရှိပါတယ်	-8.60164
di	-8.60236
▁ဘုရား	-8.60316
man	-8.60456
ခဲ့ပြီး	-8.60474
အလွန်	-8.6063
များနှင့်	-8.60777
ှ	-8.6088
ျဖစ္	-8.61016
▁ထာဝရဘုရားသည်	-8.6105
55	-8.61065
▁မြို့	-8.61085
one	-8.61165
▁»	-8.61407
ပတ်	-8.61475
ill	-8.61539
ers	-8.61652
သူတို့	-8.61785
ရဲ	-8.61843
ဆယ်	-8.61903
ဖတ်	-8.61913
▁ဒါကို	-8.62091
ူ	-8.62153
▁ဘာ	-8.62293
▁နောက်တစ်ခု	-8.62327
▁Ma	-8.62516
ဆိုတာ	-8.62558
▁Valve	-8.63218
▁£	-8.63248
မွ	-8.63417
ပေါ်တွင်	-8.63567
06	-8.63603
လား	-8.63691
ir	-8.63726
စတင်	-8.63983
▁ကောင်း	-8.64117
▁FSX	-8.64135
▁24	-8.6414
24	-8.64174
▁ရောက်	-8.64212
▁ထိုအခါ	-8.64272
ချစ်	-8.64272
ထဲ	-8.64377
▁for	-8.64471
ရောဂါ	-8.64506
သတ်	-8.64514
▁အသက်	-8.64562
တိ	-8.64623
ဖြစ်သည်။	-8.64667
we	-8.6479
ေတာ့	-8.64842
▁ထိုသို့	-8.64965
21	-8.65201
ချင်း	-8.65341
▁ယခင်	-8.65666
ဇာ	-8.65718
31	-8.65873
မီ	-8.66113
တ်	-8.66162
ရု	-8.66311
န်း	-8.66592
ge	-8.66614
ရောင်း	-8.6683
မှုများ	-8.6685
ဒီဇိုင်း	-8.67105
ဝါ	-8.67186
တ္	-8.6725
▁by	-8.673
ac	-8.67504
33	-8.67805
ခဲ	-8.67902
လေယာဉ်	-8.67904
တန်း	-8.68016
ုံ	-8.68036
ho	-8.68228
▁သင့်	-8.68277
07	-8.68412
▁2014	-8.68489
▁100	-8.68548
စာရင်း	-8.68721
▁+0000	-8.68764
နိုင်ပါတယ်	-8.68787
▁#	-8.68806
▁အို	-8.68892
ပစ္စည်းများ	-8.68935
လော	-8.6916
ၾက	-8.69209
ပါး	-8.69232
ment	-8.69362
ha	-8.69425
ျ	-8.695
ငယ်	-8.6968
▁In	-8.69686
ပေ	-8.70061
22	-8.70121
ပေမဲ့	-8.70122
မှန်	-8.70254
ရှု	-8.70403
built	-8.70507
ငျ	-8.70672
တော်မူသော	-8.70935
တည်	-8.70993
အကောင်းဆုံး	-8.71035
▁မြင်	-8.71063
37	-8.71141
ve	-8.71142
အလုပ်	-8.71165
▁အသုံးပြု	-8.71241
ဝန်	-8.71287
▁1.	-8.71473
pe	-8.71477
ong	-8.71543
ခြင်းငှါ	-8.71603
▁No	-8.71716
တယ္	-8.72101
ထုတ်လုပ်	-8.72248
သမား	-8.72269
တွေ့	-8.72271
ie	-8.72355
28	-8.72416
ကြည့်	-8.7277
ရယ်သံများ	-8.72932
ကာလ	-8.73013
70	-8.73085
တိုင်	-8.73104
မ်း	-8.73108
om	-8.73128
ဆန်	-8.73268
da	-8.73276
ဘဝ	-8.73596
▁LED	-8.73617
ပုံစံ	-8.7368
▁ကလေး	-8.73854
▁နေရာ	-8.74047
▁သေ	-8.74217
▁St	-8.74304
▁သူတို့ကို	-8.7467
#	-8.74683
34	-8.74704
pa	-8.74744
brag	-8.74783
ဒ်	-8.74798
တွေရဲ့	-8.74808
အမျိုးသား	-8.7488
ပြောင်း	-8.74885
ခင်	-8.74922
တွေ၊	-8.75014
▁U	-8.75099
▁11	-8.75137
ပါသည်။	-8.75173
ဒေသ	-8.7518
ပြီ။	-8.75188
ခဲ့တဲ့	-8.75242
ရှိသော	-8.75263
ကြိုး	-8.75407
▁Bo	-8.75472
မြေ	-8.7549
▁နည်းပညာ	-8.75608
ive	-8.75946
ပြင်	-8.76065
၇	-8.76093
အကြောင်းကို	-8.76202
ခွင့်	-8.76329
32	-8.7633
▁သူသည်	-8.76509
▁(1	-8.76589
ဖြစ်၏။	-8.76709
▁နာရီ	-8.76827
38	-8.77009
ဝတ်	-8.77038
▁အသံ	-8.77389
▁14	-8.77475
ပျက်	-8.77491
စင်	-8.77596
bo	-8.77716
tic	-8.77785
▁မူပိုင်ခွင့်	-8.7779
ရမည်။	-8.77902
စေခြင်းငှါ	-8.77945
▁အကောင်းဆုံး	-8.77946
နှိပ်	-8.78084
ပူ	-8.78158
ညီ	-8.78258
ti	-8.78375
ို	-8.7856
၎င်း၊	-8.78628
အခါ	-8.7881
so	-8.78887
မီး	-8.78934
မဲ့	-8.78973
ပါဘူး။	-8.79062
▁အမျိုးသား	-8.79076
အောက်	-8.79154
မှတ်	-8.79202
တဲ့အခါ	-8.79349
▁ဒီလို	-8.79393
ထင်	-8.79406
▁တကယ်	-8.79419
ခု	-8.79509
▁↑	-8.79608
ကူး	-8.79881
▁Generator	-8.79997
ခြေ	-8.8012
အပ်	-8.80257
▁25	-8.80406
ဲ	-8.80411
no	-8.80418
▁Windows	-8.80418
▁13	-8.80451
ER	-8.80623
▁အမျိုးအစား	-8.80823
tra	-8.80834
ရှိသည်။	-8.80835
▁၂	-8.80941
go	-8.81185
အွန်လိုင်း	-8.81189
ay	-8.81221
ဝေ	-8.81249
မရ	-8.81304
ရွာ	-8.81379
▁နံနက်	-8.81411
▁Filter	-8.81413
သောအခါ၊	-8.81558
ကိရိယာ	-8.81713
ca	-8.81749
ဖုန်ကောက်ခံရေး	-8.81831
▁ဒါမှမဟုတ်	-8.8187
ni	-8.82018
▁မြန်မာ	-8.82114
သမီး	-8.82228
▁မီး	-8.82234
တီ	-8.82443
▁Pro	-8.82443
ကွက်	-8.82598
ထို	-8.83188
▁ဧ	-8.83239
▁လေ	-8.83443
▁Black	-8.83453
မ္း	-8.83508
နေသော	-8.83595
99	-8.83664
ထိ	-8.83756
▁17	-8.8387
▁be	-8.83954
▁50	-8.84009
▁စစ်	-8.84133
ပါဝင်	-8.84165
▁Google	-8.84244
ian	-8.84279
သဖြင့်၊	-8.84324
ke	-8.84332
▁သူမ	-8.8446
ရှိပါတယ်။	-8.84576
hi	-8.84659
▁အလွန်	-8.84702
မည်ဟု	-8.84861
▁သင့်ရဲ့	-8.84918
▁~	-8.84983
ow	-8.85181
▁ငါ့ကို	-8.85304
အလုပ်လုပ်	-8.85316
▁အရာ	-8.85344
▁ISO	-8.85386
26	-8.85426
သလို	-8.85541
သွင်း	-8.85621
ity	-8.85656
ts	-8.8586
95	-8.85883
စွမ်း	-8.85907
ဝန်ဆောင်မှု	-8.85907
ကျောက်	-8.85934
ရွိ	-8.85971
▁ပုံစံ	-8.86151
90	-8.86193
▁Ar	-8.86259
▁အရောင်	-8.86585
ဖန်တီး	-8.86641
မတ်	-8.86685
▁ညနေ	-8.86716
သက်	-8.86856
ပါပဲ။	-8.86874
▁တဖန်	-8.86918
48	-8.8712
▁Sp	-8.87417
ပါဘူး	-8.87483
သောအခါ	-8.87547
ရိုက်	-8.87577
▁အပြစ်	-8.87672
နေတာ	-8.87793
▁နောက်ဆုံး	-8.87798
ဆင်း	-8.87811
ပိုင်	-8.87851
▁€	-8.87857
▁ဘယ်	-8.87914
▁2020	-8.8796
ရို	-8.87964
39	-8.8799
စကားကို	-8.87991
▁ကား	-8.88067
▁Bag	-8.88106
ga	-8.88191
ဌာန	-8.88193
ဒေါ	-8.88202
အပူချိန်	-8.8842
ရရှိနိုင်	-8.88505
65	-8.88519
▁Forex	-8.88693
▁Lo	-8.887
ပါ၏။	-8.88703
လည်	-8.88819
သတင်း	-8.88858
▁မင်း	-8.89013
▁Be	-8.89033
ft	-8.89144
ရှိ၏။	-8.89383
ကြလိမ့်မည်။	-8.8941
▁ရက်	-8.89472
ph	-8.89629
▁ကမ္ဘာ	-8.89672
23	-8.89751
▁၃	-8.89775
▁သံမဏိ	-8.8981
ရုံး	-8.89893
fi	-8.89963
ig	-8.89993
ard	-8.90048
▁ထာဝရဘုရား၏	-8.90147
အနည်းငယ်	-8.90485
▁PC	-8.90534
▁အကြောင်းမူကား၊	-8.90567
29	-8.90672
အမျိုးမျိုး	-8.90726
အရပ်	-8.90821
ဗားရှင်း	-8.90873
▁ခုနှစ်တွင်	-8.90924
ပို့	-8.91205
Q	-8.91294
ရုပ်	-8.9134
▁Card	-8.91355
နဲ႔	-8.91411
မန်	-8.91421
လိ	-8.91477
[	-8.91565
▁၂၀	-8.91599
ခဲ့ပါတယ်။	-8.91708
ဖွင့်	-8.91794
သိမ်း	-8.91804
နိ	-8.91824
▁con	-8.91877
ရည်	-8.9198
လုပ္	-8.9204
ောင်	-8.9206
▁''	-8.92079
▁ပြန်ကြားချက်	-8.92124
ba	-8.92249
သူတွေ	-8.9225
တွေမှာ	-8.92263
အပါအဝင်	-8.92322
ဝယ်	-8.92324
ဗီဒီယို	-8.92403
သော်လည်း	-8.92585
ပန်း	-8.92623
ဆိုရင်	-8.92632
တရုတ်	-8.92843
▁hack	-8.92887
67	-8.92992
ကဒ်	-8.93155
▁ဆေး	-8.93312
der	-8.93361
son	-8.9349
ပြည်နယ်	-8.93644
စီးပွားရေး	-8.93693
ပြေး	-8.93715
69	-8.93832
75	-8.93863
ကို၎င်း၊	-8.93899
ပိုက်	-8.93908
ber	-8.93972
ဖွင့်	-8.93995
▁လုပ်ငန်း	-8.94056
+	-8.94096
port	-8.94264
mi	-8.9444
ပြောင်းလဲ	-8.94468
▁Mar	-8.94539
ab	-8.946
မက်	-8.94627
ကလည်း၊	-8.94671
▁သင့်	-8.94768
▁စတင်	-8.94841
tor	-8.94852
47	-8.94873
တု	-8.95078
ပိုး	-8.95131
သတင်းအချက်အလက်	-8.95285
▁Con	-8.95363
su	-8.95417
▁Pa	-8.95491
▁All	-8.9558
အနေနဲ့	-8.95588
▁မိန့်တော်မူ၏။	-8.95732
တော	-8.95766
တတ်၏။	-8.95899
▁Tool	-8.95908
em	-8.96007
▁ငွေ	-8.96027
able	-8.96064
ite	-8.96517
ိတ်	-8.96907
မြ	-8.96911
he	-8.96952
▁ဒေါ်လာ	-8.96967
ပွား	-8.96974
mail	-8.96995
မယ္	-8.97017
▁200	-8.97119
▁ဖန်တီး	-8.97167
၎င်း	-8.97202
ရောင်းချ	-8.97235
မ္	-8.97317
©	-8.9734
ag	-8.97577
ton	-8.97675
ပေါ့	-8.97675
ဖန်	-8.97752
lang	-8.97828
▁မူ	-8.97925
ster	-8.97945
▁အဲဒါ	-8.98096
▁filter	-8.98118
▁download	-8.98127
ဖြစ်စေ	-8.98265
AT	-8.98323
အပိုဆု	-8.9833
ick	-8.98358
ai	-8.98371
အသက်	-8.98596
မေး	-8.9871
လမ်းကြောင်း	-8.98909
ီ	-8.9913
▁အဓိက	-8.99322
လိုအပ်	-8.9938
ner	-8.99414
▁ကိုယ်တော်	-8.99497
ကျောင်း	-8.99513
ခေတ်	-8.99541
41	-8.99639
ကာကွယ်	-8.99817
▁Al	-8.99828
မဆို	-8.9991
ူး	-8.99966
64	-8.99973
ပါပြီ။	-9.00267
LE	-9.00429
IN	-9.0045
▁မဟုတ်	-9.00541
အဆိုပါ	-9.00605
ေရး	-9.00658
မယ့်	-9.00714
ဖူး	-9.00797
သနည်း။	-9.00824
ဖိအား	-9.00829
56	-9.0084
IC	-9.0087
တိုင်အောင်	-9.00872
▁ခေါ်	-9.00901
▁ပုံမှန်	-9.00931
ဘုရားသခင်	-9.01024
ap	-9.01035
▁Download	-9.01039
os	-9.01042
ကန်	-9.01103
သည်ကား၊	-9.01128
▁100%	-9.01143
▁Se	-9.01165
႕	-9.01205
ဖြစ်သော	-9.01242
27	-9.0129
အရေအတွက်	-9.01549
ated	-9.01556
▁slot	-9.01597
86	-9.01651
ဥ	-9.01757
စွဲ	-9.01816
တို့အား	-9.02006
▁အွန်လိုင်း	-9.0202
ဓာတ်	-9.02144
အဓိက	-9.02176
▁စနစ်	-9.02245
နယ်	-9.02355
ll	-9.02388
66	-9.02409
လွတ်	-9.02422
85	-9.02584
တို့၏	-9.02858
ဘုရား	-9.02892
ပ္	-9.02919
အပြင်	-9.02929
▁ငါတို့သည်	-9.02961
▁ပစ္စည်း	-9.03047
သည်ဟု	-9.03151
လန်	-9.032
နံပါတ်	-9.03286
သင့်ရဲ့	-9.03339
68	-9.03507
ဆင်	-9.03694
42	-9.03744
အများစု	-9.03756
▁မိန့်တော်မူ	-9.03801
ငါး	-9.03878
ဆရာ	-9.0397
▁La	-9.04043
အာ	-9.04103
သောသူသည်	-9.04149
တယ်လို့	-9.04228
သမျှ	-9.04262
ည္	-9.04364
ခဲ့တာ	-9.0449
44	-9.0457
ော	-9.04626
▁Le	-9.04643
ell	-9.04646
▁ဗီဒီယို	-9.04811
ကယ်	-9.04813
▁ကျောက်	-9.04924
AN	-9.04979
▁Vi	-9.05005
တစ်ယောက်	-9.05057
မြန်နှုန်း	-9.05073
▁App	-9.05091
ဖိုင်	-9.05094
▁ငါ၏	-9.0518
ပြုပြင်	-9.0519
▁မတ်လ	-9.05266
▁ထင်	-9.05414
▁Li	-9.0555
ru	-9.05615
ုတ်	-9.05688
တပ်	-9.05799
▁Wi	-9.05825
ကောက်	-9.05983
ရစ်	-9.05986
▁ဘုရားသခင်၏	-9.05987
▁Me	-9.06008
နေရ	-9.06086
ကင်း	-9.06147
▁အခြေခံ	-9.06211
အမြင်	-9.06226
နာရီ	-9.06241
▁site	-9.06391
▁မြေ	-9.06523
▁An	-9.06616
ဘီ	-9.06684
တောင်း	-9.06781
ခါ	-9.06793
ကြေး	-9.06855
သဘော	-9.06896
ထုတ်လုပ်မှု	-9.06931
တစ်ခုကို	-9.06945
500	-9.06966
ကြတယ်။	-9.07014
▁အဲဒီလို	-9.07016
ud	-9.0702
ist	-9.07033
age	-9.07105
ဖြစ်လာ	-9.07118
ရှိသမျှ	-9.07123
သတိ	-9.07244
▁ရောဂါ	-9.07365
ပေးသွင်း	-9.07433
2004	-9.07443
မွေး	-9.07448
vi	-9.07524
▁ကျွန်တော့	-9.07558
▁၁၀	-9.07595
လက်မှတ်	-9.07624
ဂါ	-9.0767
လံ	-9.07779
ဘာသာ	-9.07783
▁ဥပမာ	-9.07883
▁စက်မှု	-9.08116
▁စကား	-9.08187
ော့	-9.08209
’	-9.0823
ထောက်	-9.08323
▁Mon	-9.08343
comment	-9.08362
စျေးကွက်	-9.08366
င့်	-9.08455
;&	-9.08528
▁ကျော်	-9.08547
▁ယုံကြည်	-9.08554
▁ရှင်ဘုရင်	-9.08695
▁အလင်း	-9.08781
လား။	-9.09084
ဖောက်သည်	-9.09109
▁၀	-9.09125
be	-9.09154
▁©	-9.09176
▁လျှပ်စစ်	-9.09179
▁tool	-9.09359
▁စီးပွားရေး	-9.09436
ရှိတဲ့	-9.09475
နက်	-9.09615
▁ပါဝင်	-9.09633
ထိုင်	-9.09764
ချို	-9.09823
နေကြ	-9.09838
သတ္တု	-9.0987
▁you	-9.10004
▁PVC	-9.10112
line	-9.102
တံ	-9.10246
ဂျာ	-9.10293
အစား	-9.10356
ရှည်	-9.1036
▁Play	-9.10395
ပိတ်	-9.10548
54	-9.10621
ထည်	-9.107
နောက်ဆုံး	-9.10725
စပ်	-9.1083
ck	-9.10845
ack	-9.10882
မင်္ဂလာ	-9.10957
▁Ba	-9.11009
အကွာအဝေး	-9.11066
ရရှိ	-9.11125
မြင့်	-9.11138
ဆာ	-9.11178
လင်	-9.11296
ဧရိယာ	-9.11386
▁Facebook	-9.11466
အခြေခံ	-9.11487
ရတဲ့	-9.11522
form	-9.11609
အရောင်	-9.11609
ျပီး	-9.11837
သင်၏	-9.11851
▁CNC	-9.11874
ထံမှ	-9.1197
ထပ်	-9.1199
ချက်များ	-9.1207
▁ခု	-9.12101
စာအုပ်	-9.12135
="3	-9.12207
min	-9.12271
ိုင်း	-9.12286
art	-9.12331
▁Mo	-9.12449
ဖြေ	-9.12506
စစ်ဆေး	-9.12566
ပွ	-9.12609
ကု	-9.12648
▁ဒီမှာ	-9.12712
ဖော်ပြ	-9.12728
သောကြောင့်၊	-9.12782
သည်လည်း	-9.12819
ကပ်	-9.12916
▁မေး	-9.12965
တွဲ	-9.13018
▁Casino	-9.13074
ci	-9.132
49	-9.1323
au	-9.13259
ရာသီ	-9.13307
▁မရှိ	-9.13314
ပြုလုပ်	-9.13427
▁လူသား	-9.13527
ရင္	-9.13551
အာမခံ	-9.1356
ဘယ်လို	-9.13641
ka	-9.13754
aw	-9.1382
▁ထုတ်ကုန်	-9.13902
ရမည်	-9.13911
pr	-9.13914
▁သူတို့ရဲ့	-9.14051
နှစ်ခု	-9.14063
ရွ	-9.14079
ide	-9.14097
▁Ra	-9.14119
ub	-9.14168
▁Ch	-9.1422
ဒို	-9.14352
ပီ	-9.14352
▁So	-9.14386
ကုဒ်	-9.14579
ထုတ်လုပ်သူ	-9.1473
▁ခင်ဗျားတို့	-9.14783
ရှေ့မှာ	-9.14807
58	-9.15021
land	-9.15062
ခံစား	-9.15121
io	-9.15145
ဖုန်း	-9.152
ec	-9.15271
88	-9.15283
▁မေ	-9.1534
ကလေး	-9.15441
အိုး	-9.15453
ကစား	-9.15456
▁တောင်	-9.15496
ရှေ့	-9.15562
US	-9.15703
wordpress	-9.15812
▁ကုမ္ပဏီ	-9.15813
ဇယား	-9.16072
ကူ	-9.1609
▁စီးရီး	-9.16101
▁app	-9.1616
ပြည်ထောင်စု	-9.16231
ပါတယ္	-9.16274
ဏ	-9.16282
▁Do	-9.16419
န္း	-9.16465
▁Europe	-9.16484
ထုတ်လုပ်သူများ	-9.16528
လေ့လာ	-9.16541
အတွေ့အကြုံ	-9.16568
▁×	-9.16611
72	-9.16768
cm	-9.16861
ကား၊	-9.16875
▁၅	-9.17078
res	-9.1709
ကွဲ	-9.17148
သီချင်း	-9.17204
▁Na	-9.17248
ဆောင်ရွက်	-9.17271
အချို့	-9.17286
-5	-9.17303
နိုင်တဲ့	-9.1732
▁၄	-9.17353
ဘယ်	-9.17763
စွမ်းရည်	-9.17789
ေပး	-9.17851
▁သန်း	-9.17941
ထဲသို့	-9.17963
ဝေး	-9.18039
အားပေး	-9.18119
▁ပြောင်းလဲ	-9.1814
▁22	-9.18197
ိုင်	-9.18246
ထုတ်ကုန်များ	-9.18272
အရည်အသွေး	-9.18336
▁အသစ်	-9.1837
▁အမည်	-9.18428
ကြမ်း	-9.18495
၀၀၀	-9.18527
ရှင်း	-9.18532
▁°	-9.18541
▁အစိုးရ	-9.18635
the	-9.18644
▁တစ်ဦးက	-9.18695
▁သြဂုတ်လ	-9.18738
▁ကျွန်ုပ်တို့၏	-9.18782
▁ခင်ဗျား	-9.1881
IS	-9.18831
200	-9.19091
စုံ	-9.19141
တစ်ခုတည်း	-9.19143
လူမျိုး	-9.19149
လွယ်ကူ	-9.1918
▁ထာဝရ	-9.19382
han	-9.19433
tro	-9.19514
77	-9.19592
ထံသို့	-9.19606
မပြု	-9.19678
est	-9.19688
end	-9.19712
▁ရွှေ	-9.19752
57	-9.19855
ယောက်	-9.19879
bu	-9.19924
အမေရိကန်	-9.20005
GB	-9.20098
▁စိတ်ကူး	-9.20099
▁ကိုယ့်	-9.20172
ပိုမို	-9.20235
အေး	-9.20312
ဘေး	-9.20411
မှီ	-9.2042
သောက်	-9.20456
ကမ်းလှမ်း	-9.20574
ဂုဏ်	-9.20705
▁အဘယ်သို့	-9.20805
▁iPhone	-9.20881
59	-9.20888
စ္	-9.209
▁သူ့ကို	-9.20939
ွတ်	-9.21127
ting	-9.21137
▁High	-9.2122
▁To	-9.21244
နိုင်ပါသည်။	-9.21319
fe	-9.21371
ကြွ	-9.21481
အဆင့်	-9.21491
ကိစ္စ	-9.21589
အကြား	-9.21689
▁ဒုတိယ	-9.21739
▁ကုန်ပစ္စည်း	-9.2189
▁ကျောင်း	-9.21895
ance	-9.2195
▁Dr	-9.21995
ET	-9.22041
0.0	-9.22051
▁60	-9.22089
ဦးဆောင်	-9.22157
လိမ့်မည်	-9.22168
ကုသမှု	-9.22365
mer	-9.22463
▁post	-9.22518
▁တရား	-9.22531
▁23	-9.22556
ျပ	-9.22562
▁FS	-9.22578
▁ဟ	-9.22621
စာမျက်နှာ	-9.22676
71	-9.22702
တစ်ဦးက	-9.2282
များစွာ	-9.22916
▁21	-9.22957
98	-9.22977
▁အဘယ်	-9.23012
တက္ကသိုလ်	-9.23109
ရယူ	-9.23127
ဆောင်းပါး	-9.23141
မဖြစ်	-9.23186
▁Di	-9.23323
ထည့်	-9.2338
▁2012	-9.23393
ဂျ	-9.23435
စောင့်	-9.23479
ကွန်	-9.23501
ak	-9.23512
▁ဘာသာစကား	-9.23564
51	-9.23589
▁ထိပ်တန်း	-9.23627
▁ကျုပ်တို့	-9.2367
အသင်း	-9.23721
▁အထိ	-9.23721
ပေါင်းစပ်	-9.23736
▁ယနေ့	-9.23755
-0	-9.23773
ခြား	-9.2384
ng	-9.23865
SS	-9.23907
မှစ၍	-9.23907
ကမ္ဘာ	-9.24011
ction	-9.24023
ရောင်	-9.24043
နည်းနည်း	-9.24103
လု	-9.24115
rs	-9.24142
စံ	-9.24253
ဂျက်	-9.24271
တီး	-9.24272
▁မိုဘိုင်း	-9.24276
ႏိုင္	-9.24377
ဘူး။	-9.24377
စီးရီး	-9.24378
သင်တို့	-9.24394
ဖြစ်ပါသည်။	-9.24475
nd	-9.24477
▁ရှာ	-9.24581
£	-9.24592
AR	-9.24624
အထူး	-9.24628
ရဲ႕	-9.24672
၁၆	-9.24729
che	-9.24778
set	-9.24884
သမ္မတ	-9.24929
ပြိုင်	-9.24972
▁တွေ့	-9.24985
du	-9.25086
အစီအစဉ်	-9.25225
ကြိမ်	-9.25487
▁သူက	-9.25529
ဆု	-9.25538
နျ	-9.25655
pl	-9.25775
အာဏာ	-9.25792
▁လျှောက်	-9.25832
74	-9.25869
sk	-9.25918
MP	-9.25958
pt	-9.26074
tal	-9.261
မဲ	-9.2613
မယ်။	-9.26149
▁Precision	-9.26221
ဗေဒ	-9.26318
ဟန်	-9.26356
▁is	-9.26386
သင်တန်း	-9.26425
▁Sa	-9.26449
ကေ	-9.26468
ကတ်	-9.26502
တုန်းက	-9.26503
yl	-9.26581
ကျနော်တို့	-9.26581
air	-9.26659
act	-9.2668
lu	-9.26706
ဆိုလို	-9.26789
▁500	-9.26792
ဆဲ	-9.26858
နိုင်သည်။	-9.26934
အပိုင်း	-9.26949
▁ထပ်	-9.26966
မှတ်ပုံတင်	-9.27062
▁ကျွန်ုပ်တို့	-9.27073
၎င်း၏	-9.27129
ash	-9.27135
43	-9.27159
အဖွဲ့အစည်း	-9.27176
အကြံပေး	-9.27304
လှည့်	-9.27353
ေလး	-9.27371
တံဆိပ်	-9.27408
▁Br	-9.27409
လယ်	-9.27496
သြား	-9.27538
မော်ဒယ်	-9.27538
▁ရှိနေ	-9.27548
="4	-9.27567
ပမာဏ	-9.27568
မူကား၊	-9.27608
▁cheat	-9.27632
သော်၊	-9.27687
ချောင်း	-9.27767
သတည်း။	-9.27819
▁HD	-9.27917
MA	-9.27949
las	-9.28038
cl	-9.28054
do	-9.28302
အမှတ်	-9.28353
အပေါင်းတို့	-9.28406
၀၀	-9.28467
ct	-9.28476
ခေါင်း	-9.28494
ator	-9.28502
ၿပီး	-9.28559
▁40	-9.28688
▁ယဇ်ပုရောဟိတ်	-9.28703
ထု	-9.28815
ဖြ	-9.28869
out	-9.28887
ပါတယ်၊	-9.28917
ပျ	-9.28984
oo	-9.28997
▁ပထမ	-9.29014
ကိန်း	-9.29041
46	-9.29119
53	-9.29125
▁Mi	-9.29278
vo	-9.29314
မျက်နှာပြင်	-9.2937
ထိန်းချုပ်	-9.29469
မေ	-9.29495
▁ပတ်သက်	-9.29502
အို	-9.29588
52	-9.29778
တီထွင်	-9.29821
ပြသ	-9.29862
▁သင့်ကို	-9.29869
ဝယ်ယူ	-9.2991
ထံ	-9.29935
les	-9.29951
▁စာမျက်နှာ	-9.29994
▁ဖေါ်ပြချက်	-9.30112
100	-9.30196
ငါ့	-9.30355
မႈ	-9.30363
လက္ခဏာ	-9.30384
ရှာဖွေ	-9.30488
ခြောက်	-9.30568
]]	-9.30599
သွေး	-9.30612
▁မျက်နှာ	-9.30675
စွမ်းဆောင်ရည်	-9.3069
လွှတ်	-9.30778
အများအပြား	-9.30788
▁လူတွေ	-9.30861
အတူ	-9.30981
ear	-9.31106
မြတ်	-9.31129
ခရီးစဉ်	-9.31179
▁မိမိတို့	-9.31216
အသုံးပြုမှု	-9.31275
▁အတူ	-9.3129
တိုက်ရိုက်	-9.31295
သော်လည်း၊	-9.31324
▁၎င်းတို့	-9.31385
ary	-9.31407
မင်းကြီး	-9.31415
ml	-9.31447
ပေးနိုင်	-9.31449
မှာတော့	-9.31504
▁နားလည်	-9.3153
သီ	-9.31608
ျခင္း	-9.31667
▁နားထောင်	-9.31758
ပထမဦးဆုံး	-9.31871
ကျွန်	-9.31883
မော	-9.31957
ဘာသာစကား	-9.31977
အီး	-9.32007
▁ယေ	-9.32072
ကတည်းက	-9.32122
ွေ	-9.32143
▁မိနစ်	-9.32144
▁sp	-9.32147
လျှောက်လွှာ	-9.322
မြင့်	-9.32207
ပါဝင်သည်	-9.32266
ဖြစ်ကြောင်း	-9.32335
နှုတ်	-9.32375
ကွင်း	-9.32558
ကိုင်	-9.32625
ဝက်	-9.3263
▁Code	-9.32643
ရံ	-9.3267
mon	-9.32686
▁ည	-9.32737
တွန်း	-9.32779
တယောက်	-9.32788
စေရန်	-9.32829
ခိုး	-9.32833
ခန့်	-9.32847
မယ့်	-9.3287
ဖွယ်	-9.32873
▁ဖိုင်	-9.32927
rd	-9.33079
▁DVD	-9.33151
tri	-9.33188
ကာစီနို	-9.33228
96	-9.33237
▁Car	-9.33317
ကျိုး	-9.3334
တန်ဆာ	-9.33376
စျေး	-9.33395
လည်ပတ်	-9.33397
▁အဘယ်သူမျှမ	-9.33431
လျ	-9.33457
စီရင်	-9.33461
အများဆုံး	-9.33469
▁သူတို့က	-9.33494
pp	-9.3357
gi	-9.33593
တခု	-9.33631
ဖန်ဆင်း	-9.33679
▁ပြည်	-9.33728
ယူနစ်	-9.33805
သတ်မှတ်	-9.33819
▁အမှတ်	-9.33914
▁ဒါကြောင့်	-9.33917
▁အထူး	-9.33956
အဆင့်	-9.34004
▁ဂိမ်း	-9.34055
▁Te	-9.34256
▁pro	-9.34265
gu	-9.34301
▁Glass	-9.34354
ကူညီ	-9.34434
ဂို	-9.3453
မီဒီယာ	-9.34637
▁သို့သော်	-9.34685
တည်း။	-9.3469
တည်ဆောက်	-9.34692
အလေးချိန်	-9.34709
၂၀၀	-9.34739
တတ်သော	-9.34749
အစ	-9.34806
ကွယ်	-9.3481
ညာ	-9.34834
အုပ်စု	-9.34995
ld	-9.34999
▁လက်မ	-9.35015
▁ဖြစ်သည်။	-9.35074
▁ဖုန်း	-9.351
Fi	-9.35122
ရယ်	-9.35123
▁ထိုသူ	-9.35165
ရှေ	-9.35232
76	-9.35262
cy	-9.35306
va	-9.35387
▁မိန်းမ	-9.35401
ဖာ	-9.35582
mb	-9.35606
ကော	-9.35688
စကားလုံး	-9.35699
အချက်အလက်	-9.35722
ပါပဲ	-9.35765
မို	-9.35788
▁Ga	-9.35852
လို႔	-9.35908
စိုက်	-9.35911
ထိန်း	-9.35943
ki	-9.3595
▁EA	-9.3603
over	-9.36042
▁Die	-9.36044
ဖျက်	-9.3606
get	-9.36063
ဝါယာကြိုး	-9.36083
▁မြန်မာနိုင်ငံ	-9.36086
▁Posted	-9.36144
▁ဒါကြောင့်	-9.36164
ပျောက်	-9.36244
ဗာ	-9.3626
▁လုံးဝ	-9.36268
▁System	-9.36391
ုပ်	-9.36482
လဲ။	-9.36484
ါ	-9.36493
တံခါး	-9.36493
အခွန်	-9.36508
ချိတ်ဆက်	-9.36516
ကျွန်တော်တို့ကို	-9.36601
▁Tools	-9.36623
▁နှုတ်	-9.36666
ight	-9.36702
▁CO	-9.36837
tt	-9.36909
▁ပြုလုပ်	-9.36948
ပြာ	-9.37082
PC	-9.37109
တော်မူပါ။	-9.37145
အချင်း	-9.3724
▁ကစား	-9.37272
အစိတ်အပိုင်း	-9.37309
0.1	-9.37316
စည်း	-9.37338
▁2010	-9.37346
ႏွစ္	-9.37353
bi	-9.37408
▁ကိုယ်တော်သည်	-9.37439
▁By	-9.37458
တိပ်	-9.37485
ား	-9.37559
အတည်ပြု	-9.37636
သံမဏိ	-9.37675
▁Ho	-9.37764
73	-9.37824
တို့၌	-9.37835
▁ငါး	-9.37891
▁အိန္ဒိယ	-9.37895
bar	-9.37958
▁ကမ္ဘာ့	-9.37968
▁လက်ရှိ	-9.37983
ယုံကြည်	-9.37994
ထိန်းသိမ်း	-9.38066
ကြပါ	-9.38102
သောအရာ	-9.38114
ကြောင်းကို	-9.38146
ေလ	-9.38157
sta	-9.38182
အမှုကို	-9.38248
ဖော်	-9.38272
ပေါ်လာ	-9.38301
မှို	-9.38339
ကြိုးစား	-9.38396
▁အားဖြင့်	-9.38436
အနက်	-9.38546
con	-9.38556
ရထား	-9.3874
ပြည့်စုံ	-9.38766
အခန်း	-9.38906
ဘဏ်	-9.38907
သုံးပြီး	-9.38955
ကယ်တင်	-9.38968
တဦးတည်း	-9.39023
ID	-9.39062
▁လုပ်ပါ	-9.39067
97	-9.39071
▁with	-9.3911
▁အောက်တိုဘာလ	-9.39161
▁ဤသည်	-9.3919
TS	-9.3925
-6	-9.3927
ဖွဲ့စည်း	-9.39369
▁အကျွန်ုပ်တို့	-9.39426
ထောက်ပံ့	-9.3944
▁Sh	-9.39466
လို့ပါ။	-9.39484
▁လိုအပ်	-9.39486
အိုင်	-9.39508
day	-9.39515
▁ပထမဆုံး	-9.39527
▁ဖုန်းနံပါတ်	-9.39542
od	-9.39544
for	-9.39618
သညျ	-9.39624
နှစ်သက်	-9.39774
▁Ad	-9.39793
▁မှတ်ချက်	-9.39851
ယာဉ်	-9.39857
စောင့်	-9.3987
ပြိုင်ပွဲ	-9.40012
ဒေတာ	-9.4002
89	-9.40039
ကြယ်	-9.40162
-8	-9.40166
▁ဣသရေလ	-9.40273
အပြစ်	-9.40309
အတြက္	-9.40612
78	-9.40699
တည်းဟူသော	-9.40715
▁သဘာဝ	-9.40782
ခရီး	-9.40785
az	-9.40804
▁ဂီတ	-9.40824
ပြီးတော့	-9.40903
စမ်းသပ်မှု	-9.41101
PA	-9.41136
ပြဿနာ	-9.41346
နိုင်ပါသည်	-9.41347
▁သဘော	-9.41363
▁ပိုပြီး	-9.41369
▁မသိ	-9.41445
အကောင့်	-9.41465
သကဲ့သို့	-9.41533
စမ်းသပ်	-9.41577
ဖို	-9.41674
▁ဘဝ	-9.41682
*	-9.41701
၂၀	-9.41702
အောက်ပါ	-9.41704
▁He	-9.41711
▁Gr	-9.41724
▁အိတ်	-9.41726
ရတာ	-9.41781
84	-9.41803
လျှောက်	-9.41863
▁တည်	-9.4187
▁install	-9.41893
▁Th	-9.41895
လျက်ရှိ	-9.41961
ကွာ	-9.41972
မြှောက်	-9.42001
နဲ	-9.42012
သေတ္တာ	-9.42015
တစ္ခု	-9.42036
ငျး	-9.42102
ran	-9.42137
▁၆	-9.42139
net	-9.42175
ဘဏ္ဍာ	-9.42219
ယဇ်	-9.42234
ပိုပြီး	-9.42349
transposh	-9.42439
▁Pre	-9.42456
ပျော်	-9.42475
သက်တမ်း	-9.42486
▁ချစ်	-9.42501
စသည်တို့ကို	-9.42593
▁အရမ်း	-9.42602
▁Off	-9.42676
hy	-9.42684
ကျွန်း	-9.42739
▁ယေရုရှလင်မြို့	-9.42766
ခဲ့ရ	-9.42789
ပြည့်	-9.42821
63	-9.42836
ပြင်ဆင်	-9.42848
ဟောင်း	-9.42849
▁သခင်	-9.42965
ty	-9.42974
လုံခြုံရေး	-9.43137
အကြံပြု	-9.43138
pro	-9.4319
▁နောက်ထပ်	-9.43257
အားလုံးကို	-9.43293
ip	-9.43308
pi	-9.43311
ဖြစ်နိုင်	-9.43313
▁ပြောင်း	-9.43369
အသုံး	-9.4338
-19	-9.43388
ယော	-9.43406
ရှေ့တော်၌	-9.43428
ya	-9.43429
လောင်း	-9.43508
▁Hu	-9.43681
ပု	-9.43761
လက်ဆောင်	-9.43828
အောက်တွင်	-9.43843
▁မောရှေ	-9.43865
နည္း	-9.4387
▁သတ္တု	-9.43875
အမှတ်တံဆိပ်	-9.43905
▁ပန်း	-9.43931
▁ဣသရေလအမျိုး	-9.4395
87	-9.43957
ႏ	-9.4396
ဖွဲ့	-9.43967
▁နား	-9.43984
ထူး	-9.4399
ဟော	-9.44026
သံလိုက်	-9.44034
ST	-9.44105
မျက်နှာ	-9.44119
ကျယ်	-9.44149
int	-9.44194
အချက်	-9.44298
▁En	-9.44329
▁New	-9.4436
our	-9.44386
▁ဆက်ဖတ်ရန်	-9.44405
ထိန်းချုပ်မှု	-9.44499
ယခု	-9.44504
ခင်း	-9.44579
▁အထက်	-9.44615
In	-9.44641
ass	-9.44655
သန်း	-9.44721
လွ	-9.44742
▁အဘယ်ကြောင့်	-9.44746
ကြိုက်	-9.44751
နိုငျ	-9.44776
ခြင်းနှင့်	-9.44819
ဖျ	-9.44845
စိတ်ကြိုက်	-9.44901
ေသာ	-9.44938
py	-9.44947
အပူ	-9.44988
▁4.	-9.45057
ထိပ်	-9.45164
▁ဣသရေလအမျိုးသား	-9.45245
လေ။	-9.4525
သွား၍	-9.45263
iv	-9.45283
▁RFID	-9.45323
ဘတ်	-9.45399
▁ဒါဝိဒ်	-9.45406
တင်း	-9.45431
▁ကျွန်မရဲ့	-9.45435
သည်အတိုင်း၊	-9.45444
▁Key	-9.45479
များအား	-9.45497
▁မီလီမီတာ	-9.45549
MM	-9.45572
မောင်း	-9.45573
ဗျာ	-9.45598
▁ဒီနေ့	-9.456
ပယ်	-9.4568
ရွေးချယ်	-9.457
▁အရှေ့	-9.45742
atch	-9.4576
600	-9.4579
တို့တွင်	-9.45896
ကွဲပြား	-9.45903
log	-9.4591
ou	-9.45932
▁Ha	-9.45943
ပျို	-9.45954
သည္	-9.4599
အုပ်	-9.46009
▁ကျွန်	-9.46021
ထားသည်။	-9.46046
tre	-9.46074
ကြော	-9.46076
▁ရုပ်ပုံ	-9.46181
▁reserved	-9.46227
▁ဇွန်လ	-9.46237
စေ့	-9.46243
▁နိုဝင်ဘာလ	-9.46279
ဘီး	-9.46324
ခက်	-9.46398
ဝိုင်း	-9.46447
ens	-9.46525
▁Ningbo	-9.46568
ွန်း	-9.46661
ငှက်	-9.46682
ပစ္စည်းကိရိယာ	-9.46711
စမ်း	-9.4673
အီ	-9.46751
အရောင်း	-9.46772
ကြပါတယ်။	-9.46778
ကိုယ်ပိုင်	-9.469
အဘ	-9.46956
ရေးသား	-9.47037
den	-9.47089
oc	-9.47176
ပံ့ပိုးမှု	-9.47186
▁[1]	-9.47221
▁အလုပ်လုပ်	-9.47238
လိုက္	-9.47282
ကီ	-9.47328
င့္	-9.47361
လှုပ်ရှား	-9.47406
ect	-9.4747
လွယ်	-9.4749
ရွက်	-9.47495
ကဲ	-9.47559
▁ဖြစ်လာ	-9.4759
▁27	-9.47663
▁Anti	-9.47682
▁ဝန်ဆောင်မှု	-9.47798
92	-9.47807
ov	-9.4781
▁DC	-9.47901
မြို့၊	-9.47903
▁system	-9.47945
-10	-9.47964
▁Phone	-9.48077
MC	-9.48085
▁စက်တင်ဘာလ	-9.48128
လျှပ်စစ်	-9.48163
q	-9.48415
91	-9.48426
အနီး	-9.48461
▁update	-9.48526
▁ပြဿနာ	-9.48647
ရွှေ	-9.48707
ကုန်ကျစရိတ်	-9.48757
ပြင်ပ	-9.48794
▁နှစ်ပေါင်း	-9.48808
▁ပေ	-9.48894
▁နယူး	-9.4892
မျက်	-9.49046
▁Casting	-9.49264
XL	-9.49402
▁အဲဒါကို	-9.49439
eng	-9.49463
အထက်	-9.49528
လှည့်	-9.49562
SE	-9.4957
▁ရှေ့	-9.49575
ဂ်	-9.49623
လင်း	-9.49757
ဆိုတာကို	-9.49793
ဝမ်း	-9.49811
တည်ရှိ	-9.49998
ပါတယ္။	-9.50009
▁function	-9.50131
ဘောလုံး	-9.50224
82	-9.50249
တန်ခိုး	-9.50307
▁ခြေ	-9.50364
လေကြောင်း	-9.504
ice	-9.50401
ue	-9.5041
▁Qu	-9.5055
အောက်မှာ	-9.5062
ေတာ္	-9.5064
ခုံ	-9.50673
less	-9.50692
ဆောက်	-9.50732
AL	-9.50884
တန်ဖိုး	-9.50886
အပြည့်အဝ	-9.50995
နှင့်တကွ	-9.51005
ach	-9.51014
sha	-9.51038
▁အန်းဒရွိုက်	-9.51064
800	-9.51078
ခရီးသွား	-9.51084
▁ပင်လယ်	-9.51131
စမတ်	-9.51171
▁rights	-9.51261
▁Mobile	-9.51277
ကိုအသုံးပြု	-9.51292
mp	-9.51309
ဇာတ်	-9.51388
▁your	-9.51516
▁2011	-9.51664
ste	-9.51666
China	-9.51674
မသိ	-9.51687
မိုး	-9.51696
နိုင်သော	-9.5173
ဒဏ်	-9.51766
×	-9.51771
▁panel	-9.51832
ပါဝါ	-9.51837
62	-9.51926
ိဳ	-9.52081
ညီအစ်ကို	-9.5221
အန္တရာယ်	-9.52233
▁Manufacturer	-9.52237
▁Gu	-9.52242
နာမ	-9.52289
ပါစေ	-9.52303
စာရွက်	-9.52317
▁ကြှနျုပျတို့	-9.52345
ချွတ်	-9.52369
▁ယုဒ	-9.52389
gen	-9.52399
▁လူမျိုး	-9.5242
ပြန်လည်ဆန်းစစ်	-9.52435
▁polyester	-9.52435
▁Panel	-9.52435
▁iOS	-9.52441
မော်တော်	-9.52525
ဆီး	-9.52556
အစိုးရ	-9.52592
ဖီ	-9.5264
လက်ရှိ	-9.52704
အသုံးပြုသူ	-9.52767
▁အများကြီး	-9.52792
မျှော်လင့်	-9.52919
▁ဆင်းရဲ	-9.52958
▁ထုတ်လုပ်သူများ	-9.53012
သလော။	-9.53047
တယ္။	-9.53063
▁Up	-9.53094
▁သတ်	-9.53097
ကြတဲ့	-9.53104
▁Multi	-9.53134
93	-9.53142
ဖြေရှင်း	-9.53152
▁ဒါပေမယ့်	-9.53175
ron	-9.53215
ung	-9.53233
မြစ်	-9.53261
▁အမှုန့်	-9.53295
ပေါ	-9.53419
တဲ	-9.53424
ရအောင်	-9.53429
▁Environmental	-9.53528
ဇာတ်လမ်း	-9.53554
ထိပ်တန်း	-9.5358
▁For	-9.53656
lock	-9.53697
▁Mark	-9.53788
▁၎င်း	-9.53804
အနား	-9.5386
▁IP	-9.53886
ထည့်	-9.53911
▁အမြင့်	-9.53923
ries	-9.53925
နိုင်တယ်။	-9.53956
▁26	-9.54051
▁အသက်ရှင်	-9.54083
-7	-9.54086
အစားအစာ	-9.54086
ဂီတ	-9.54169
ရန္	-9.54226
▁that	-9.54312
ja	-9.54361
မိတ်ဆက်	-9.54388
စောင့်ရှောက်	-9.54391
▁အင်တာနက်	-9.54413
▁ဇူလိုင်လ	-9.5443
▁MPT	-9.54436
အနိမ့်	-9.54469
RO	-9.54487
ကောင်းတဲ့	-9.54504
SA	-9.54505
သက်ရောက်မှု	-9.54506
▁Power	-9.54511
▁အဆင့်	-9.54518
မြား	-9.54526
NE	-9.54577
သလဲ	-9.54679
ကွန်ပျူတာ	-9.54703
▁၇	-9.54753
ase	-9.54757
ပန်းချီ	-9.5481
ဖမ်း	-9.54816
စဉ်းစား	-9.54845
▁တိုက်ရိုက်	-9.5487
အစားထိုး	-9.54913
ထုတ်ဝေ	-9.54945
▁အပိုင်း	-9.54978
ဘား	-9.54984
လုံခြုံ	-9.55
The	-9.55013
ဟုတ်	-9.5506
her	-9.55108
ဖယ်ရှား	-9.55132
ထုပ်ပိုး	-9.55138
1.5	-9.55225
▁Su	-9.55272
လံုး	-9.55301
တာပေါ့။	-9.55439
ပေးပို့	-9.55482
ဖွံ့ဖြိုး	-9.55483
ok	-9.55488
အရင်းအမြစ်	-9.55503
ဧ	-9.55508
လုပ်ငန်းစဉ်	-9.55714
ပါလိမ့်မယ်	-9.55737
rt	-9.55776
▁လေ့လာ	-9.55828
▁သိုး	-9.55846
တ္တ	-9.55857
ပြီဟု	-9.55903
▁ဂျပန်	-9.55939
ရှင်းလင်း	-9.55951
▁စီရင်	-9.5598
လျော့	-9.56021
တာဝန်	-9.56032
ဆင့်	-9.56122
နို	-9.56148
▁အင်္ဂလိပ်	-9.56156
61	-9.56237
၁၅	-9.56275
ဆိုတဲ့	-9.563
တာနဲ့	-9.56307
ifi	-9.56308
အဆုံး	-9.56353
တပ်ဆင်	-9.5638
အင်ဂျင်	-9.56389
၅၀	-9.56431
စင်တာ	-9.5647
▁မော်ဒယ်	-9.56473
ဖြစ်နေ	-9.56477
ဣ	-9.5649
ug	-9.56491
▁လွန်ခဲ့တဲ့	-9.5651
▁ဘုရားသခင်သည်	-9.5654
အခြေအနေ	-9.56551
ee	-9.56579
low	-9.56602
▁Q	-9.56604
အကူအညီ	-9.5663
IT	-9.56648
ပြီးမှ၊	-9.56649
ခေါင်းစဉ်	-9.56653
dy	-9.56662
str	-9.56714
by	-9.5672
▁Equipment	-9.56756
အကြာ	-9.5681
▁ယော	-9.56859
ခွဲခြား	-9.5691
▁ပရောဖက်	-9.56914
စုဆောင်း	-9.56966
▁တည်ဆောက်	-9.56981
ျော	-9.56991
ရှောင်	-9.57036
ကြည့်ရှု	-9.57089
▁စာရင်း	-9.57089
စီစဉ်	-9.57119
ထမ်း	-9.57121
သောသူ၊	-9.5719
5%	-9.57218
အလွှာ	-9.57256
ish	-9.57263
တိုးတက်	-9.57378
▁Microsoft	-9.57391
ကြပြီ။	-9.57402
▁1000	-9.57408
ဘော်	-9.57412
လိပ်စာ	-9.57434
မှူး	-9.57482
▁၁၈	-9.57501
▁ဥရောပ	-9.57536
အရှည်	-9.57553
တောင်းဆို	-9.5756
▁ဒါနဲ့	-9.5758
မြန်	-9.57618
အကြောင်းအရာ	-9.57619
လွှဲ	-9.57642
ခွ	-9.57684
▁Tag	-9.57711
ပါဝင်သည်။	-9.57713
ဖြစ်တဲ့	-9.57761
ial	-9.57777
ဖျား	-9.5778
▁သင်တန်း	-9.57786
▁သင်တို့ကို	-9.57802
▁Post	-9.57805
စည်းမျဉ်း	-9.57832
2019	-9.57866
94	-9.57965
ရတယ်။	-9.58021
အပြည်ပြည်ဆိုင်ရာ	-9.58026
▁Samsung	-9.58026
ဥပဒေ	-9.58142
comments	-9.58156
လေ့လာမှု	-9.58245
bit	-9.58268
ပါတီ	-9.58276
▁ပလပ်စတစ်	-9.58356
ဖုံး	-9.58391
▁ပြန်လည်	-9.58403
▁ကဲ	-9.58424
ပုလင်း	-9.58438
red	-9.58453
79	-9.58455
ပေါင်	-9.58523
▁Tube	-9.58582
ပါပြီ	-9.58694
blog	-9.58733
▁ဦးနှောက်	-9.58758
use	-9.58765
ဖြစ်သည်	-9.58819
သြ	-9.58855
စိုက်ပျိုး	-9.58925
ကုသ	-9.58958
ယို	-9.58971
လက်ခံ	-9.58977
ရီးယား	-9.59009
0,000	-9.59019
ကြံ	-9.59023
ဖြစ်ကြ	-9.59026
Com	-9.59032
အပေါ်မှာ	-9.59055
ကျန်းမာရေး	-9.59081
ဆို၏။	-9.59084
hits	-9.59094
ရာတွင်	-9.59171
▁[...]	-9.59183
ပြုသော	-9.59307
ထုံးစံ	-9.59318
▁ဘေး	-9.59335
▁သန့်ရှင်း	-9.59375
ေျပာ	-9.59422
▁ရှင်တို့	-9.59439
နေတယ်။	-9.59454
▁မှတ်	-9.59479
▁Tags	-9.59558
▁Software	-9.59572
▁ကိုယ်တော်၏	-9.59585
မြင်ရ	-9.59632
▁ခရိုင်	-9.5967
အချက်အလက်များ	-9.59688
သခင်	-9.59775
ep	-9.5979
▁မြေကြီး	-9.59808
သူတို့ကို	-9.59813
▁ခံစား	-9.5987
ခြင်းသို့	-9.59945
▁code	-9.59958
ပိန်	-9.5996
▁website	-9.59962
ကျတော့	-9.5999
နေထိုင်	-9.59994
လှိုင်း	-9.60002
ထားပြီး	-9.60055
လမ်းညွှန်	-9.60089
ဆန့်ကျင်	-9.60096
ထာဝရဘုရား	-9.60143
▁he	-9.60225
ကွန်ယက်	-9.6023
ဥပမာ	-9.60234
▁ကိုယ်တော်ကို	-9.60295
▁ကာလ	-9.60397
ရောက်ရှိ	-9.60444
ဆိုက်	-9.60452
ဖြစ်ပွား	-9.60461
ating	-9.60483
မဟုတ်ပါဘူး	-9.60505
အမိန့်	-9.60515
▁Ta	-9.60666
တြင္	-9.60751
?????????	-9.60755
၏သား	-9.6077
▁အမျိုးသမီး	-9.60866
စက်မှုလုပ်ငန်း	-9.60878
ဂျီ	-9.6094
chi	-9.60944
လျှော့ချ	-9.60965
CE	-9.61048
ညျ	-9.61133
▁ဆန်းစစ်ခြင်း	-9.61141
br	-9.61142
▁မိုဃ်း	-9.61176
ချေ	-9.61238
▁Injection	-9.61273
▁Protection	-9.61273
▁Pulse	-9.61273
2.5	-9.6129
ko	-9.61311
▁ပြောဆို	-9.61354
▁အိပ်	-9.61368
ယဉ်ကျေးမှု	-9.61405
ah	-9.6152
▁ဆိုတာ	-9.61526
ger	-9.61557
နိုင်စွမ်း	-9.61571
can	-9.61602
သောသူတို့သည်	-9.61602
▁နှစ်ခု	-9.61605
ဥစ္စာ	-9.61613
▁ဧပြီလ	-9.61739
-20	-9.61833
သေချာ	-9.61859
way	-9.61909
▁ဒေတာ	-9.61944
နွေ	-9.61981
ဟိ	-9.61995
▁Ph	-9.61999
အများကြီး	-9.62
ဓာတု	-9.62051
လောင်	-9.62149
▁East	-9.62262
အသုံးပြုခြင်း	-9.62275
ren	-9.62292
ဗျ	-9.62363
hu	-9.62429
▁USB	-9.62487
kg	-9.6249
ကြောက်	-9.6255
ဆောင်ခဲ့	-9.62588
ထိုင်း	-9.626
▁ဗာ	-9.62611
ခံရသော	-9.62614
ဆေးဝါး	-9.62669
လွဲ	-9.62685
ထည့်သွင်း	-9.62752
တည်ထောင်	-9.62752
စာနယ်ဇင်း	-9.62764
ယေရှု	-9.62843
▁ဒီဇိုင်း	-9.62847
ကုန်ပစ္စည်း	-9.62849
type	-9.62922
▁ကူးစက်	-9.62938
မည်အကြောင်း၊	-9.62962
tion	-9.62988
လုပ်ဆောင်	-9.62998
lle	-9.63006
ကြည့်ရှု	-9.63034
qu	-9.63048
▁Comments	-9.63057
▁ပြင်ဆင်	-9.63068
သဲ	-9.63074
king	-9.63102
သောကြောင့်	-9.63161
▁Main	-9.63247
PS	-9.63248
▁တစ်နှစ်	-9.63295
▁ဒီဇင်ဘာလ	-9.63307
if	-9.63335
ကြသည်။	-9.6337
ေတြကို	-9.63391
ven	-9.63414
ပြီးလျှင်၊	-9.63425
ပြင်း	-9.63459
▁ကျန်းမာရေး	-9.63468
▁ဟော	-9.63503
▁Non	-9.63534
tv	-9.63559
ငါတို့	-9.63631
▁ကလေးတွေ	-9.63646
အထည်	-9.63758
အံ့	-9.63785
▁ကြိုးစား	-9.63789
ဟိုတယ်	-9.63797
ခတ်	-9.6381
▁သိပ်	-9.63892
မှန်ကန်	-9.6397
နိုင်ငံများ	-9.64048
ရှိတယ်။	-9.64085
နာမည်	-9.64114
lic	-9.64139
▁(20	-9.64298
ning	-9.643
တာတွေ	-9.64301
83	-9.64306
ကစားသမား	-9.64325
ချမ်းသာ	-9.64332
ခွင့်	-9.64376
▁မိသားစု	-9.64384
များစွာသော	-9.64423
ဆန်း	-9.64457
မျှဝေ	-9.64464
ဒစ်ဂျစ်တယ်	-9.64493
uk	-9.64515
မည့်	-9.64522
အားကစားပြိုင်ပွဲ	-9.64526
▁လူတိုင်း	-9.64538
ff	-9.64547
ဗြိတိန်	-9.6457
အောင်မြင်မှု	-9.64592
တစ်ခါ	-9.6462
ဿ	-9.64623
မခံ	-9.64662
မိုင်	-9.64673
သိုက်	-9.64685
▁အကျိုး	-9.64703
မယ်ဆိုရင်	-9.64742
ပြန်လာ	-9.64765
▁LTD	-9.64767
ႏွင့္	-9.6477
ခွက်	-9.64801
▁အဲဂုတ္တုပြည်	-9.64812
inter	-9.64867
ကျင်	-9.64913
မြို့တော်	-9.64944
▁ထိ	-9.64972
ထိခိုက်	-9.65051
နစ်	-9.65068
ပေးရန်	-9.65068
▁မေလ	-9.6507
တပါး	-9.65083
▁Cl	-9.65084
တိမ်	-9.65115
ဘုရင်	-9.65171
ဘွဲ့	-9.65177
လိုင်စင်	-9.65177
2018	-9.65207
ဆက်သွယ်ရေး	-9.65219
▁ဓါတ်ပုံ	-9.65255
ကဏ္ဍ	-9.65285
အတိအကျ	-9.65314
စုစုပေါင်း	-9.65354
▁Group	-9.65452
▁Da	-9.65463
▁are	-9.65526
သု	-9.6557
▁မေးခွန်း	-9.65588
အဆင်ပြေ	-9.6559
ဖောက်	-9.65678
အားကစား	-9.65744
ဒေ	-9.65744
ဆီကို	-9.65818
ပြွန်	-9.65866
ကျန်	-9.65866
▁ရယူ	-9.65914
▁မျက်	-9.65922
▁အဘယ်သူ	-9.65999
▁Botou	-9.66004
▁သစ္စာ	-9.6601
အထုပ်	-9.6603
ကြိုတင်	-9.66055
အကြံ	-9.66086
ချော	-9.66091
ပုံကို	-9.66097
ကို၎င်း	-9.66127
▁ပညာ	-9.66171
▁အက်	-9.66181
▁အခြားသော	-9.66263
EN	-9.66339
lan	-9.66341
back	-9.66359
အထူ	-9.66361
▁ပြင်သစ်	-9.66364
▁Ka	-9.66397
UN	-9.66421
လိမ်	-9.66422
စီးတီး	-9.66458
fo	-9.66492
je	-9.66494
▁အရင်	-9.66495
▁ဆေးရုံ	-9.66501
9001	-9.66605
▁ယင်း	-9.66667
▁အောက်	-9.66669
fa	-9.66701
ari	-9.66711
အတူတူ	-9.66721
မုန့်	-9.66796
စီမံခန့်ခွဲမှု	-9.66825
သူလျှို	-9.66838
တစ်ခုမှာ	-9.66865
▁မီတာ	-9.66896
ure	-9.66995
သက်သေ	-9.67024
▁မိုက်	-9.67156
လောက	-9.6728
သဖြင့်	-9.6728
ရည်ရွယ်ချက်	-9.6729
▁ထုတ်လုပ်သူ	-9.67317
စက်မှု	-9.67383
ိန်	-9.67389
ပြစ်မှား	-9.674
လိမ့်မည်	-9.67403
▁စျေး	-9.67494
မကြာခဏ	-9.67538
ဆံုး	-9.67554
မိတ်ဆွေ	-9.67679
လက်ခုပ်သံများ	-9.67679
ဆက်လက်	-9.6768
ဖြတ်တောက်ခြင်း	-9.6769
ဖြစ်ကြသည်။	-9.67742
ရှက်	-9.67778
ခံစားရ	-9.67811
▁မှစ	-9.67834
board	-9.67854
မိုဘိုင်း	-9.67875
light	-9.67876
ဒိ	-9.67879
MB	-9.67882
▁Size	-9.67942
တွေ့ဆုံ	-9.68012
81	-9.68032
တယ်ဆိုတာ	-9.68041
အသေးစိတ်	-9.68055
▁Free	-9.68062
နှစ်ယောက်	-9.68171
ဖြူ	-9.68207
ရှား	-9.68221
စိတ်ကူး	-9.68245
အလွိုင်း	-9.68256
AP	-9.68344
ဝင်ရောက်	-9.68351
ရှုပ်ထွေး	-9.68386
ပြပွဲ	-9.68405
ထုတ်ပြန်	-9.68418
အမှား	-9.68435
တို့နှင့်	-9.68509
အပေါင်းတို့သည်	-9.68515
စိတ်ဝင်စား	-9.68523
ဓမ္မ	-9.68525
ON	-9.6863
မီလီမီတာ	-9.68667
ရော်ဘာ	-9.68669
စာသား	-9.6868
တစ္	-9.68689
▁Ne	-9.68842
▁စဉ်းစား	-9.68855
▁ကွန်ပျူတာ	-9.68874
ထဲတွင်	-9.68936
စမတ်ဖုန်း	-9.68978
▁ကောင်းကင်	-9.68981
အသုံးပြုသူများ	-9.68986
နမူနာ	-9.69026
ထက်ပို	-9.69102
tu	-9.69135
ence	-9.69153
MO	-9.69184
အေ	-9.69189
wi	-9.6921
▁ဒေါင်းလုပ်	-9.69271
▁အပူ	-9.69282
င်္	-9.69284
▁စံ	-9.69313
တည်နေရာ	-9.69373
▁Quality	-9.69382
တျ	-9.69396
မေးမြန်း	-9.69525
လည္း	-9.69526
ical	-9.69527
▁ထာဝရဘုရားကို	-9.69528
ဟူမူကား၊	-9.69532
cial	-9.69615
ပျံ့	-9.69668
နားလည်	-9.69741
နွ	-9.69761
ရွေး	-9.69764
°	-9.69792
PE	-9.69796
▁Dress	-9.69814
ကျွမ်းကျင်သူ	-9.69833
သန်	-9.69841
၁၁	-9.69929
▁ခေါင်း	-9.6996
မျိုးစုံ	-9.70017
ရှင်ဘုရင်	-9.70045
နံ	-9.70067
ဆုံ	-9.70131
လိုပဲ	-9.70133
▁အရွယ်	-9.70146
BC	-9.7021
ကျင်းပ	-9.70213
ပတ်သက်	-9.70233
ဆုကြေးငွေ	-9.70251
လိုက်တယ်။	-9.70385
▁စမ်းသပ်	-9.70412
▁Long	-9.70423
လိမ့်မည်ဟု	-9.70439
▁150	-9.70487
ပြည်တွင်း	-9.70499
▁add	-9.70534
လွတ်လပ်	-9.70543
ထည့်သွင်း	-9.70557
ှဲ	-9.7057
▁ရိုက်	-9.70573
ရုပ်ရှင်	-9.70596
လိပ်	-9.70659
▁လက်ခံ	-9.70749
ခဲ့တယ်၊	-9.70758
ler	-9.70784
ထောက်ပံ့ရေး	-9.70843
▁EUR	-9.70853
လွန်း	-9.7094
RE	-9.70946
ding	-9.70971
▁ပြည်နယ်	-9.71065
ene	-9.7108
ခဲ့တယ်	-9.71095
SP	-9.71096
ock	-9.71111
လြ	-9.71214
ေကာင္း	-9.71262
ဇိ	-9.71345
▁ဘယ်သူ	-9.71348
▁ရက်နေ့တွင်	-9.71428
▁တရားဝင်	-9.71431
ထိရောက်	-9.71436
▁Mac	-9.71449
[1]	-9.71449
တိကျ	-9.71456
တခြား	-9.71512
နည်းလမ်း	-9.7155
စီမံကိန်း	-9.71557
ရှိတယ်	-9.71607
▁My	-9.71653
▁MB	-9.71669
cha	-9.71723
ေး	-9.71807
၁၀	-9.71845
နီးပါး	-9.7201
ခုန်	-9.72015
တေ	-9.72105
လက္	-9.7212
ကျွန်ုပ်တို့၏	-9.72162
ခန့်	-9.72176
နှင်း	-9.72192
▁ကျွန်တော်တို့ဟာ	-9.722
2.0	-9.72202
နီး	-9.72222
of	-9.72249
ရူး	-9.72274
နေ့ရက်	-9.72311
ose	-9.72313
▁ရာခိုင်နှုန်း	-9.7234
▁အဲ	-9.72351
▁Asia	-9.72365
ware	-9.72388
ကူညီပေး	-9.72405
300	-9.72467
ull	-9.7248
▁သင်တို့၏	-9.7249
lin	-9.72492
လော့ဟု	-9.72527
▁Project	-9.72583
မှတဆင့်	-9.72583
▁Fl	-9.72678
dr	-9.72683
▁300	-9.72818
သူငယ်	-9.72826
ook	-9.7285
ana	-9.72856
pho	-9.7287
ခလုတ်	-9.72878
ရေခဲသေတ္တာ	-9.72878
အစည်းအဝေး	-9.72882
▁Ja	-9.72921
တည်ငြိမ်	-9.72954
အမြင့်	-9.72975
▁ရရှိ	-9.73172
လှေ	-9.7318
TE	-9.73202
▁ID	-9.73256
▁ဆု	-9.73336
ကျူး	-9.73395
▁ဩ	-9.73424
▁Apple	-9.73441
ဆုတ်	-9.73473
ုိ	-9.73505
▁Sha	-9.73563
▁တန်ဖိုး	-9.7362
▁hour	-9.73649
သင်္ဘော	-9.73683
–	-9.7376
▁Get	-9.73795
ယျ	-9.73829
ပြည့်	-9.73871
နေပြီး	-9.73887
လာကြ	-9.73889
အနည်းဆုံး	-9.73929
ley	-9.7394
စေခြင်းငှါ၊	-9.7397
▁And	-9.73984
သမိုင်း	-9.73987
▁သူတို့ဟာ	-9.74037
▁Jo	-9.74084
ဘယ်မှာ	-9.741
အကြိမ်	-9.74105
သည်ဖြစ်၍၊	-9.74141
အဘယ်သူမျှမ	-9.74143
▁လေယာဉ်	-9.74179
▁လူ့	-9.74194
သည်အတိုင်း	-9.7421
မြို့၌	-9.74225
၂၅	-9.74255
ပြန်လည်	-9.74314
ကျင့်	-9.74359
တို႔	-9.74388
▁ရုပ်ရှင်	-9.74411
old	-9.74415
ခွေး	-9.74484
▁သိပ္ပံ	-9.74524
▁ဒါပေမယ့်	-9.74542
rea	-9.74559
သုတ်	-9.74627
ပူးပေါင်း	-9.74686
lay	-9.74696
ပုံပြင်	-9.74716
ရေနံ	-9.74743
▁သို့ရာတွင်	-9.7484
▁လုပ်ဆောင်	-9.74956
နှိုင်းယှဉ်	-9.74976
▁Retrieved	-9.74976
▁—	-9.74998
2017	-9.75028
သနည်းဟု	-9.75055
ခဲ့သော	-9.75058
▁Ca	-9.75061
ဳ	-9.75106
▁device	-9.75111
တို့၊	-9.75129
gg	-9.75176
▁Lin	-9.75199
အပေါင်း	-9.75254
မယား	-9.75303
▁Data	-9.7533
သနား	-9.75388
ထဲကို	-9.75429
အနေဖြင့်	-9.75438
▁တစ်ခုခု	-9.75562
▁ထင်ရှား	-9.75578
AC	-9.75593
ular	-9.75599
စိတ်နှလုံး	-9.75607
လက်နက်	-9.75612
▁ကျေးဇူးပြု	-9.75733
ကိုင်တွယ်	-9.75736
ဖိနပ်	-9.75736
▁from	-9.75742
အောင်မြင်	-9.75743
ရှုံး	-9.75866
သောသူတို့	-9.75885
ဘုတ်အဖွဲ့	-9.75895
▁အဲဒီမှာ	-9.75896
သက်သာ	-9.75908
ix	-9.75946
မြို့သို့	-9.75992
▁အနုပညာ	-9.75999
လုပ်ဖို့	-9.76009
▁အခြေအနေ	-9.7607
▁တကယ်တော့	-9.76096
▁ရွေး	-9.761
▁ပိုက်	-9.76103
ကောင်းသော	-9.76173
လုံ	-9.76208
အသက်ကို	-9.76301
နေစဉ်	-9.76345
လိုက်ဖက်တဲ့	-9.76348
လစ်	-9.76381
ကိ	-9.764
လွှာ	-9.76404
▁ကဒ်	-9.76447
ထိုက်	-9.76463
ox	-9.76482
▁ကော်	-9.76533
ရင်းမြစ်	-9.76537
နု	-9.76579
▁Unlimited	-9.76622
▁ခရီးသွား	-9.76623
zhou	-9.76655
ina	-9.76697
ea	-9.76715
▁Chip	-9.76741
▁tag	-9.76745
▁ရန်ကုန်	-9.76806
▁2009	-9.76848
▁နောက်တဖန်	-9.76857
အပို	-9.769
ၿ	-9.7691
▁Deposit	-9.76964
▁အမေရိကန်ဒေါ်လာ	-9.76982
ဗီ	-9.76988
▁ဇန်နဝါရီ	-9.77022
စ္စ	-9.77032
ခက်ခဲ	-9.77076
ကွ	-9.77086
မိသားစု	-9.77087
ဆန္ဒ	-9.77127
-12	-9.77231
ုန်	-9.77268
▁White	-9.77274
und	-9.77305
ပန်းကန်	-9.77369
▁လိင်	-9.77418
ထိန်းချုပ်ရေး	-9.77454
▁ကျေးဇူး	-9.7748
ထင်ရှား	-9.77481
▁Pack	-9.7787
လေဆိပ်	-9.77892
▁Related	-9.77895
ဘိုး	-9.77896
CoV	-9.77923
ခုခံ	-9.78001
▁စုစုပေါင်း	-9.78006
▁AC	-9.78038
▁အကြောင်းက	-9.78064
▁OEM	-9.78073
▁အဆုံး	-9.78097
▁Lu	-9.78184
▁ထုပ်ပိုး	-9.78205
ပြင်းထန်	-9.78207
၁၄	-9.78209
zo	-9.78223
ကြီးမားတဲ့	-9.78243
▁မဲ	-9.78253
ပုံမှန်	-9.78293
▁Ge	-9.78349
▁Web	-9.78382
part	-9.78476
▁အခုတော့	-9.78485
DE	-9.78494
တုံ့ပြန်	-9.78496
ဗီဇ	-9.78503
▁လက်တွေ့	-9.7852
▁ပတ်ဝန်းကျင်	-9.78558
ဘွား	-9.78578
့်	-9.7858
ထားတာ	-9.78582
ဝန်း	-9.78593
ဖြောင့်မတ်	-9.786
နဲ့အတူ	-9.78627
▁plugin	-9.78653
▁We	-9.78669
▁Ex	-9.78675
▁withoutwax	-9.78677
ခိုင်မာ	-9.787
ေရ	-9.7878
1.0	-9.78788
အာဖရိက	-9.78834
ရ၏။	-9.78858
ဘုန်း	-9.78858
ဒီမှာ	-9.78892
မူရင်း	-9.78921
▁ထုတ်လုပ်	-9.78932
ပွင့်	-9.78984
▁၁၅	-9.7904
ငါ့ကို	-9.79041
gr	-9.79041
let	-9.79049
ပညာရှင်	-9.79056
ble	-9.79078
နေတယ်	-9.79107
မှန်း	-9.7917
▁အမြဲ	-9.79171
မု	-9.79185
ကြီးမားသော	-9.79257
ခုနှစ်တွင်	-9.79288
အရပ်၌	-9.79293
ကြေညာ	-9.79308
▁comp	-9.79373
▁အားကစား	-9.79387
AM	-9.79392
အိပ်မက်	-9.794
တစ်ခုပါ။	-9.79452
ချဉ်းကပ်	-9.79466
▁အကျွန်ုပ်ကို	-9.7948
▁အီရန်	-9.79491
▁မော်တော်ကား	-9.79632
▁လက်မှတ်	-9.79647
ခေါင်းဆောင်	-9.79687
za	-9.79688
ဖိ	-9.79691
▁You	-9.79705
ကော်	-9.7972
ထောက်ခံ	-9.79792
ဆူ	-9.79852
ium	-9.79863
ကောင်းမွန်	-9.79909
မှုတ်	-9.79942
လိုက်တာ	-9.79998
တဦး	-9.80009
တိတ်	-9.80028
ဆိပ်ကမ်း	-9.80034
▁ပိုမို	-9.80038
လူမှုရေး	-9.80084
ေပါင္း	-9.80107
ခဏ	-9.80137
ရွေးချယ်မှု	-9.80158
မဟုတ်ဘူး	-9.8017
ey	-9.80219
စောင်	-9.80221
▁မြင့်မားသော	-9.80285
ကြွင်း	-9.80285
ယံ	-9.80296
ကင်မရာ	-9.80324
▁သူတို့၏	-9.80378
မော်ကွန်း	-9.8042
▁ဟောပြော	-9.80424
▁သမိုင်း	-9.80512
ခ်က္	-9.80518
ဇွန်	-9.80542
▁Cylinder	-9.8058
ရက်နေ့	-9.80613
ကင်	-9.80614
▁ယာကုပ်	-9.80727
အပြာရောင်	-9.80741
အလားတူ	-9.80743
ကြည်	-9.80805
▁အဘ	-9.80837
uck	-9.80847
စနစ်များ	-9.80856
ထောင့်	-9.80925
▁19,	-9.80947
▁စွမ်းအင်	-9.81036
ကျောင်းသား	-9.81051
▁Or	-9.81079
win	-9.81085
book	-9.81087
အမျိုးမျိုးသော	-9.81089
▁ကပြောပါတယ်	-9.81152
ဝိညာဉ်	-9.81153
cho	-9.81165
အိမ်ခြံမြေ	-9.81223
▁ရွေးချယ်	-9.81236
ချာ	-9.81292
▁China	-9.81304
ဆက်ဆံ	-9.8131
ွဲပြားခြားနားသော	-9.81312
ကားတစ်စီး	-9.81317
ဓာတ်ငွေ့	-9.8134
▁အကျွန်ုပ်သည်	-9.8135
စိုးရိမ်	-9.81399
xi	-9.81446
▁စေလွှတ်	-9.81526
▁War	-9.81535
တော်မူပြီ။	-9.81545
ကမ်း	-9.81546
ဖော်ပြချက်	-9.81563
သင်သည်	-9.81583
ကိုယ်တိုင်	-9.81623
ငွေကြေး	-9.81655
၀င်	-9.8168
▁Tr	-9.81691
ဖြေရှင်းချက်	-9.81708
နေပါတယ်။	-9.81761
အရွယ်	-9.81802
မလဲ	-9.81832
▁Pay	-9.81954
ake	-9.8197
ဉ်	-9.81992
နှံ	-9.82001
SM	-9.82019
▁virtual	-9.82032
မေးခွန်း	-9.82064
▁ကာကွယ်	-9.82071
အချို့သော	-9.8211
တွ	-9.82151
ten	-9.82168
▁ထုတ်လုပ်မှု	-9.82178
▁အီးမေးလ်	-9.82218
သင်ယူ	-9.8231
ဂစ်တာ	-9.8236
မိခင်	-9.82528
▁ကိုယ်တိုင်	-9.82529
တရားကို	-9.8253
ကျမ်း	-9.82551
ဝိ	-9.82623
ခုနှစ်	-9.82665
၏ဟု	-9.82668
ဝန်ကြီးဌာန	-9.82695
ui	-9.82853
နိုင်ခြင်း	-9.82898
ဓ	-9.82913
ပါမည်။	-9.82916
နေရောင်ခြည်	-9.82958
ood	-9.82978
▁90	-9.82983
▁ပထမဦးဆုံး	-9.82999
▁Ri	-9.83008
ဖြစ်၍၊	-9.83034
ဆိုင်း	-9.83036
ဆက်သွယ်	-9.83041
CH	-9.83129
နှစ်ဦး	-9.83166
အင်ဂျင်နီယာ	-9.83176
é	-9.83176
ဝက်အူ	-9.83183
လှန်	-9.83229
▁FX	-9.83276
ပြုစု	-9.83287
တိုက်ခိုက်	-9.83357
တမန်	-9.83396
တေး	-9.83402
ker	-9.83456
▁မော်လီကျူး	-9.83465
၁၉	-9.83469
အာရုံစိုက်	-9.83512
ကိန္း	-9.83517
ပြောဆို	-9.83524
ဘူ	-9.8354
▁ကိုယ်ပိုင်	-9.83566
▁အလိုအလျောက်	-9.8358
mar	-9.83612
ric	-9.83625
စော	-9.83653
▁ဟေ	-9.83747
▁စင်တီမီတာ	-9.83843
▁Plus	-9.83849
အအေး	-9.83859
အောက်မေ့	-9.83872
▁Man	-9.83889
▁မှန်	-9.83898
0.2	-9.83918
မကောင်း	-9.83932
▁Ni	-9.83979
ကြိတ်	-9.83984
▁ဝမ်းမြောက်	-9.84004
OR	-9.84066
ပျံသန်း	-9.84073
ဆပ်	-9.84077
ရေချိုးခန်း	-9.84175
တုံ့ပြန်မှု	-9.84192
lip	-9.8433
cer	-9.84333
အာကာသ	-9.84342
▁link	-9.84416
နော	-9.84458
▁ကြောက်	-9.84511
▁အခွင့်	-9.84591
▁ဆိုတဲ့	-9.84623
ကာကွယ်ဆေး	-9.84632
အကျင့်	-9.84667
နှင့်အခြား	-9.84742
ik	-9.84766
ဂြိုဟ်	-9.84833
အပြည့်အဝ	-9.84833
အစိမ်းရောင်	-9.84833
▁ဗိုင်းရပ်စ်	-9.84835
▁တာဝန်	-9.8498
▁အောက်ဆီဂျင်	-9.84989
▁အမှန်	-9.85042
▁·	-9.8508
ထိတွေ့	-9.85089
▁28	-9.8509
ပျမ်းမျှ	-9.85168
အရာကို	-9.85236
ဆက်စပ်ပစ္စည်း	-9.8533
ညှဉ်းဆဲ	-9.85335
အသိအမှတ်ပြု	-9.85335
▁ဖျက်ဆီး	-9.85343
ထိုကဲ့သို့သော	-9.85351
▁Cr	-9.85443
အရာ၌	-9.85456
ဆုံးရှုံး	-9.85508
tter	-9.8554
ကာစ်	-9.85588
နိုင်ငံခြား	-9.85609
ထူ	-9.8566
▁အခန်း	-9.85661
▁စက္ကူ	-9.85663
▁Rikoooo	-9.85672
▁Brush	-9.85681
▁Can	-9.85687
တို့က	-9.85694
▁လူနာ	-9.85698
ပေးလိုက်	-9.85755
▁အရေးကြီး	-9.85769
400	-9.85786
▁Pi	-9.85856
တတ်နိုင်	-9.85887
▁Mini	-9.85932
ခွင်	-9.85949
ထီး	-9.85954
ဖြစ်စဉ်	-9.85971
▁ပိတ်	-9.85981
ပဲ။	-9.86005
▁သိန်း	-9.86016
မည်အကြောင်း	-9.86037
စမ်းသပ်ခြင်း	-9.86047
စိုး	-9.86059
ဆိတ်	-9.86101
1%80%	-9.86154
လွှမ်းမိုး	-9.86179
ဖြစ်ကြ၏။	-9.8619
ရှုခင်း	-9.86204
▁တပ်	-9.86209
▁ဒီဇင်ဘာ	-9.8623
နယူး	-9.86266
စားပွဲ	-9.86294
ပိုကောင်း	-9.86315
ဘောင်	-9.86347
သိုလှောင်	-9.8636
▁ရာစု	-9.8644
မော်	-9.86473
ကျင့်	-9.86515
▁pre	-9.86555
▁အစ	-9.86555
▁ပို့	-9.86565
ပိုက်ဆံ	-9.86697
ကျက်	-9.86703
ind	-9.86704
ကြောင်	-9.86774
တင်ပြ	-9.86774
▁ကြည့်ရှု	-9.86818
ပန်	-9.86856
▁ကြော်ငြာ	-9.86888
မယ်လို့	-9.86927
မိမိ	-9.8694
ust	-9.86964
လှုပ်ရှားမှု	-9.87012
ave	-9.87024
အီတလီ	-9.87029
▁မှို	-9.87032
ည်	-9.87046
ဓါတ်	-9.87064
▁အကြောင်းအရာ	-9.87116
ob	-9.87189
စွမ်းအင်	-9.8721
RC	-9.87268
တင်သွင်း	-9.87302
▁အမိန့်	-9.8737
ရူ	-9.87374
att	-9.87382
လူမီနီယမ်	-9.87387
လို့ရ	-9.87414
ရပါတယ်။	-9.87416
ပုံနှိပ်	-9.87427
▁သွေး	-9.87428
▁တယောက်	-9.87456
နန်း	-9.87508
uri	-9.87519
ပျော်ရွှင်	-9.87543
engrui	-9.87543
လူတွေ	-9.87568
ပေါင်းများစွာ	-9.87578
▁မိုး	-9.8761
▁Is	-9.8761
▁အလေးချိန်	-9.87627
အလိုအလျောက်	-9.87636
▁32	-9.87641
ညှိ	-9.87655
တွေ့ရှိ	-9.87662
▁ago	-9.87666
ပြု၍	-9.87669
▁မျက်နှာပြင်	-9.87724
ဘေ	-9.87733
ပံု	-9.87736
၂၀၁၇	-9.87748
top	-9.87763
time	-9.87797
သတင်းများ	-9.87859
ိမ်	-9.87879
အနက်ရောင်	-9.87903
ဒေါင်းလုပ်	-9.87922
ဝါး	-9.87942
ယက်	-9.87978
ဆင့်	-9.87999
▁အပ်	-9.88032
စို့	-9.88033
▁ပယ်	-9.88055
စစ်ဆင်ရေး	-9.88059
work	-9.88071
▁စောင့်	-9.88119
အသုံးချ	-9.88128
မှာရှိတဲ့	-9.88152
▁ပညာရေး	-9.88199
▁version	-9.88248
ze	-9.88255
ush	-9.88259
ဆက်စပ်	-9.88273
အနိုင်ရ	-9.88288
မင်	-9.88315
လွှတ်တော်	-9.88329
$	-9.8837
€	-9.88392
မည်သည့်	-9.88503
ဆောင်း	-9.88542
▁ပု	-9.88634
လိုအပ်ချက်	-9.88649
▁web	-9.88653
▁ဥပဒေ	-9.8871
စီမံ	-9.88743
ပရော်ဖက်ရှင်နယ်	-9.88752
နိူင်	-9.88752
မြှုပ်	-9.88757
အမြန်	-9.88781
တစ်ခုခု	-9.88815
မယ်၊	-9.88824
ast	-9.88873
လိုက်နာ	-9.88915
အက္ခရာ	-9.88926
▁COVID	-9.88926
ny	-9.88953
ဟူ၍	-9.88961
ပိုင်းဆိုင်ရာ	-9.89057
ank	-9.89076
ဆန့်ကျင်	-9.891
ဆိုင်ကလုန်း	-9.891
▁high	-9.891
မိုဘိုင်းဖုန်း	-9.89103
sis	-9.8915
▁Ste	-9.89174
ုပ္	-9.89175
▁ကျွန်မကို	-9.89198
ွမ်	-9.89207
uc	-9.89245
▁CD	-9.89253
မြဲ	-9.89272
ကျယ်ပြန့်	-9.89274
▁PDF	-9.8928
လွှဲပြောင်း	-9.89296
ခ်င္	-9.89387
cal	-9.89391
▁MT	-9.89392
▁မတရားသော	-9.89483
▁Inter	-9.89491
တွေ့ရ	-9.89529
▁မြင်း	-9.89545
ပလက်ဖောင်း	-9.89624
ဖြစ်တယ်	-9.89628
အကြီးဆုံး	-9.89635
ျပန္	-9.89719
▁နွား	-9.89744
gl	-9.8975
ဉ	-9.89765
အဖွဲ့ဝင်	-9.8991
အင်္ကျီ	-9.89923
ES	-9.89985
ပြည်သူ့	-9.89988
▁ရှေး	-9.89992
မှတ်ဉာဏ်	-9.90016
ကုန်း	-9.90075
▁Po	-9.90076
▁Archives	-9.90076
တိရိစ္ဆာန်	-9.90152
သူရဲ	-9.90154
စုဝေး	-9.90258
▁နှလုံး	-9.90265
▁အမှုန့်	-9.9028
hen	-9.90287
အထွေထွေ	-9.90328
ုံး	-9.90483
ဓာတ်ပုံ	-9.90502
သဟဇာတ	-9.90505
ane	-9.90529
▁Thu	-9.90576
qui	-9.90592
နင်း	-9.90603
စိမ်း	-9.90618
▁မူလစာမျက်နှာ	-9.90676
load	-9.90676
ဖျော်ဖြေ	-9.90681
ဘာသာပြန်	-9.9071
ချိတ်	-9.90746
yo	-9.90763
ji	-9.90779
▁အနောက်	-9.90804
ဝက်ဘ်ဆိုက်	-9.90884
ပရို	-9.90919
▁အစဉ်	-9.90998
CT	-9.91107
ကျေးဇူး	-9.91151
▁ယောက်ျား	-9.91324
▁run	-9.91478
လက်ခံရရှိ	-9.91492
ခရိုင်	-9.91517
မလား	-9.91572
ထွက်လာ	-9.91589
အက်ဆစ်	-9.91594
ling	-9.91604
ဒုက္ခ	-9.91694
မီတာ	-9.91696
vel	-9.91708
▁သူဟာ	-9.91718
ကျွေး	-9.9175
▁ရေနံ	-9.91787
cent	-9.91881
▁do	-9.9189
ခေါ်ဆို	-9.91905
▁နိုင်ငံရေး	-9.91924
နိုး	-9.91933
▁ကျွန်မဟာ	-9.91952
သော်	-9.91993
ယာဉ်မောင်း	-9.91996
▁ဘုရားကျောင်း	-9.92067
စစ္	-9.92106
ale	-9.9212
▁၃၀	-9.92143
ပါသလား	-9.92148
▁သုတေသန	-9.92203
▁Call	-9.92205
ကဘာလဲ	-9.92246
ကီလိုမီတာ	-9.92289
▁ဇန္နဝါရီလ	-9.92289
ဗို့အား	-9.92293
▁အရည်အသွေး	-9.92317
ဖော်ပြထား	-9.92336
but	-9.92336
TH	-9.92361
ကိုးကား	-9.92365
ဆေးထိုး	-9.92371
▁Bi	-9.92381
shi	-9.92437
ပျံ	-9.92483
ညီမျှ	-9.92517
အပြောင်းအလဲ	-9.92541
တိုးတက်မှု	-9.92586
▁Save	-9.92647
အဆောက်အအုံ	-9.92649
▁software	-9.9265
တစ်ခုလုံး	-9.92655
▁Read	-9.92687
ခါးပတ်	-9.92697
IP	-9.92702
▁ခရစ်တော်၏	-9.92764
lit	-9.92791
▁သတ်မှတ်	-9.92795
EC	-9.92835
▁ေနာက္	-9.92842
စက္ကူ	-9.92847
▁11:	-9.92861
ကျွန်မ	-9.92861
▁USD	-9.92868
▁ဆက်စပ်	-9.92914
▁အဘိဓါန်	-9.92916
ပြည်၌	-9.92948
▁ရှောလု	-9.93011
▁Cap	-9.9303
ချက်ချင်း	-9.93078
fer	-9.93092
▁တော	-9.93131
ကောင်းစွာ	-9.93183
output	-9.93199
က္က	-9.93225
▁Poly	-9.93233
နတ်	-9.93245
ပြည်သား	-9.93247
▁SD	-9.93309
▁ထို့နောက်	-9.93313
▁Cor	-9.93334
▁Ac	-9.93351
အဓိပ္ပါယ်	-9.93375
သုတေသန	-9.93462
သောအမှု	-9.93485
LA	-9.93508
bl	-9.93523
အကြားအမြင်ရ	-9.93557
▁will	-9.93596
fin	-9.93596
နှလုံး	-9.93632
phone	-9.93653
ရသည်။	-9.93656
အတွင်းမှာ	-9.93674
0.3	-9.93692
ခွင့်ပြု	-9.93719
▁အများဆုံး	-9.93733
HO	-9.93735
que	-9.93741
ချိန်မှာ	-9.93748
စောင့်ကြည့်	-9.93809
▁သစ်သား	-9.9384
င့္	-9.93968
▁အသေးစား	-9.93982
▁mode	-9.94024
ပေါ်က	-9.9404
သွားတယ်။	-9.94084
▁အချို့	-9.94117
အခုတော့ဆက်သွယ်ပါ	-9.94118
အကြံပြုချက်များ	-9.94125
▁ရှာဖွေ	-9.94134
မိန်းမ	-9.94156
ကာလ၌	-9.9416
▁can	-9.9416
မီးအိမ်	-9.94199
▁နေထိုင်	-9.942
ခ်င္း	-9.94206
▁အေ	-9.94271
ဘယ်တော့မှ	-9.94272
တိုးချဲ့	-9.94299
▁→	-9.94339
သက္	-9.94356
ခြင်းဖြင့်	-9.9437
ရိတ်	-9.94371
လပ်	-9.94375
စတိုင်	-9.94376
ဝင်ငွေ	-9.94422
တုံး	-9.94452
}	-9.94473
▁ဆရာ	-9.94482
▁စီမံကိန်း	-9.94501
ED	-9.94565
ှာ	-9.94573
စောင့်ရှောက်	-9.94599
တစ်ချို့	-9.94658
လူကြိုက်များ	-9.94659
pic	-9.94684
အမြဲတမ်း	-9.94685
ခွင့်ပြု	-9.94712
▁ပုံနှိပ်	-9.94742
ဖလား	-9.94757
မရှိ။	-9.94761
မိနစ်	-9.94767
ies	-9.94769
စိ	-9.94824
▁English	-9.94841
ဖြည့်	-9.94848
▁အစီအစဉ်	-9.94855
▁Roll	-9.94899
တက်ကြွ	-9.94925
read	-9.94965
▁Add	-9.94995
▁ပြေး	-9.9502
ေပၚ	-9.95026
▁APK	-9.95037
အမှန်တကယ်	-9.95042
▁လုပ်ကိုင်	-9.95061
ခဲ့ကြသည်။	-9.95162
ၾကီး	-9.95211
မ်ိဳး	-9.95211
▁Author	-9.95211
▁client	-9.95212
▁Go	-9.95215
0.00	-9.95229
တင္	-9.95273
▁အရှင်	-9.95301
စေလွှတ်	-9.95324
▁Je	-9.95335
နော်	-9.95368
▁အရေအတွက်	-9.95403
▁အဲဒါဟာ	-9.95462
▁ဒါဆို	-9.95483
လူငယ်	-9.9551
wa	-9.95577
▁Pump	-9.95583
▁တိရစ္ဆာန်	-9.95586
ကိုက်ညီ	-9.95591
ရှစ်	-9.9566
ဖွဲ့စည်းပုံ	-9.95716
▁Fe	-9.95719
သူနာပြု	-9.9577
အကြောင်းပြချက်	-9.95771
▁အနာဂတ်	-9.95846
နို့	-9.95848
ကွဲပြားခြားနား	-9.95878
▁ညီ	-9.95945
ဘလော့	-9.95945
▁Bonus	-9.95957
ize	-9.95971
SI	-9.96016
▁ရထား	-9.96111
အမေရိက	-9.96112
▁Pri	-9.96116
vis	-9.9614
▁module	-9.96142
အလှဆင်	-9.96144
မော်တော်ဆိုင်ကယ်	-9.96146
မြူ	-9.96151
အဆောက်အဦး	-9.96268
ရွေ့	-9.96332
အဖြူရောင်	-9.96338
▁အသေးစိတ်	-9.96393
▁ကလေးများ	-9.96437
▁ကြယ်	-9.96446
နဲ႕	-9.96538
name	-9.9658
pcs	-9.96588
oxy	-9.96607
တူညီ	-9.9661
▁Comp	-9.9661
သန့်ရှင်း	-9.96615
▁အန္တရာယ်	-9.96644
ထုတ်ပေး	-9.96646
တယ်ဆိုရင်	-9.96689
မွေ	-9.96765
▁ဆောင်ရွက်	-9.96785
နိုင်အောင်	-9.96794
▁ချီးမွမ်း	-9.96795
သို	-9.96868
1.1	-9.96904
ace	-9.96912
ပါလိမ့်မယ်။	-9.96959
▁ပြသ	-9.96963
▁Cert	-9.96997
▁အစာ	-9.97012
▁လေကြောင်းလိုင်း	-9.97031
▁ကျွန်တော်ဟာ	-9.9705
▁ဥ	-9.9706
ယန္တရား	-9.97082
ဟုဆို	-9.97087
ဘုံ	-9.97094
{	-9.9727
အစဉ်အမြဲ	-9.97271
▁Star	-9.97285
ဆေးရုံ	-9.97323
="5	-9.97343
PM	-9.97351
အတွင်းပိုင်း	-9.9738
ဆွ	-9.97444
လုံးကို	-9.97511
ဖုန်	-9.97542
▁လူပျို	-9.97568
သံုး	-9.97573
ture	-9.97586
0.8	-9.9761
▁ပလတ်စတစ်	-9.97651
▁this	-9.97697
▁သင်သည်သင်၏	-9.97713
ဲ့	-9.9775
▁သင်ယူ	-9.97759
mg	-9.97783
▁ကိုအတူ	-9.97831
အလားအလာ	-9.97841
▁Access	-9.97843
အံ့ဩ	-9.97846
▁ပူဇော်	-9.97855
uch	-9.97873
-01	-9.97916
TV	-9.97965
ယုံ	-9.98003
▁ထိုအ	-9.98014
▁ကျွန်ုပ်	-9.98024
ကုိ	-9.98028
▁ဗားရှင်း	-9.98038
ပွတ်	-9.98044
ကွန်ရက်	-9.98085
▁ရလဒ်	-9.98123
ပညတ်	-9.98145
ition	-9.98166
လိမ့်မယ်	-9.98171
ore	-9.98211
▁Fittings	-9.98222
▁YouTube	-9.98222
အစောပိုင်း	-9.98223
▁အော်တို	-9.98288
▁သိကောင်းစရာများ	-9.98293
▁Box	-9.98326
▁သုံးစွဲ	-9.98353
ချမှတ်	-9.98364
မူကား	-9.98381
▁Burmese	-9.98413
မပါဘဲ	-9.98427
ဝင်း	-9.98469
cc	-9.98541
ရှင်းပြ	-9.98549
လျင်	-9.98567
▁လမ်းညွှန်	-9.98598
OS	-9.98604
▁admin	-9.98613
NG	-9.98632
avi	-9.98649
▁HP	-9.98661
ြေ	-9.98695
ခရစ်	-9.98722
▁တချို့	-9.98722
▁လှုပ်ရှားမှု	-9.98759
ထို့	-9.98785
bra	-9.98792
▁ဆုတောင်း	-9.98815
မွန်	-9.98833
ဆဲလ်	-9.98858
row	-9.98897
ပလတ်စတစ်	-9.98989
ပြီးသား	-9.99043
▁anti	-9.9905
af	-9.99074
▁Si	-9.99089
▁ကြွေ	-9.99092
▁Sun	-9.9911
ဆိုတော့	-9.99126
ဆံပင်	-9.99209
ဇီ	-9.99225
ဘိ	-9.99238
▁လေဆိပ်	-9.99277
cket	-9.99304
▁စာအုပ်	-9.99309
ဦးခေါင်း	-9.99341
▁ငွေကြေး	-9.99351
ကြွလာ	-9.99372
▁သန့်ရှင်းသော	-9.99374
IG	-9.9939
▁ကာစီနို	-9.99477
နေကြတယ်	-9.99487
sen	-9.9955
စွန့်	-9.99568
▁Inc	-9.99573
ယောက်ျား	-9.99643
သင်ကြား	-9.99661
ert	-9.99664
အလိုက်	-9.99689
play	-9.99701
မြင့်မားသော	-9.99751
ခွန်အား	-9.9976
နက်ရှိုင်း	-9.99762
အိပ်ရာ	-9.99851
▁တွေ့ရှိ	-9.99888
စနစ်က	-9.99969
စပျစ်ရည်	-9.99974
အပေါင်းတို့ကို	-10
ထောက်ခံမှု	-10.001
ဆက်ဆံရေး	-10.001
နားမှာ	-10.0012
rate	-10.0013
မှတ်တမ်း	-10.0014
▁Chuck	-10.0016
▁အောက်စီဂျင်	-10.0018
အပတ်	-10.0018
စင်း	-10.0025
▁ပါဝါ	-10.0027
လျှောက်ထား	-10.0031
ခမည်းတော်	-10.0035
တစ်ဦးချင်းစီ	-10.0035
ပူးတွဲ	-10.0035
ျပည္	-10.0037
▁ကောင်းသော	-10.0038
မော်တာ	-10.004
စုံစမ်း	-10.0045
သူတို့ရဲ့	-10.0046
ဗိ	-10.0047
နိုင်ကြ	-10.0048
ရိုးရှင်း	-10.0048
တစ်လုံး	-10.005
သဘာဝ	-10.0051
▁တစ်ယောက်	-10.0051
ဥရောပ	-10.0051
3.5	-10.0051
ပန်းခြံ	-10.0051
စိန်	-10.0052
ပေါလု	-10.0056
ခေါက်	-10.0056
မူဝါဒ	-10.0059
ကုန်သွယ်	-10.0067
PR	-10.0067
WS	-10.0068
ပိုင္း	-10.0072
▁Password	-10.0074
Hunan	-10.0074
TR	-10.0075
တောက်ပ	-10.0082
list	-10.0082
စိတ္	-10.0087
▁တကယ့်	-10.009
မမြင်	-10.0091
▁အောင်မြင်	-10.0092
▁၁၂	-10.0093
ကိုးကွယ်	-10.0095
ဂေါ	-10.0095
ပြန်လည်သုံးသပ်	-10.0099
ခံရဖို့	-10.0099
ND	-10.0101
▁ဘာလို့	-10.0108
▁ဒါဝိဒ်သည်	-10.0109
ire	-10.0118
မျက်နှာဖုံး	-10.012
ေပါ့	-10.0122
▁At	-10.0122
သတ်မှတ်ချက်များ	-10.0124
ဘို	-10.0128
ပုဂ္ဂလိက	-10.0132
▁သူ့ရဲ့	-10.0132
အရှင်	-10.0133
▁သူတပါး	-10.0136
▁အရေးပါ	-10.014
မျိုးဆက်	-10.0144
▁အသင်း	-10.0145
▁features	-10.0146
၂၄	-10.0146
ပြောင်းလဲမှု	-10.0147
▁Wed	-10.0151
▁News	-10.0153
ara	-10.0155
တိုင်းတာ	-10.016
▁GPS	-10.0163
▁မွေး	-10.0165
TO	-10.017
ပလ္လင်	-10.0172
▁Server	-10.0172
ရလိမ့်မည်။	-10.0176
▁ဇီဝ	-10.0179
ကြပါ၏။	-10.018
ef	-10.0185
ဆွေးနွေး	-10.0188
▁မော်ဒယ်နံပါတ်။	-10.0189
▁ထိုသူတို့သည်	-10.0194
rm	-10.0195
ဖ်	-10.0197
▁ခြောက်	-10.0197
bin	-10.0198
မား	-10.0199
ပုဂ္ဂိုလ်	-10.02
ဝန်ထမ်း	-10.02
▁ဖြစ်နိုင်	-10.0204
▁မြစ်	-10.0204
လိုအပ်ချက်များ	-10.0207
ကြီးစွာသော	-10.0212
သားတို့	-10.0226
val	-10.023
ရရှိနိုင်ပါသည်	-10.0233
မရှိဘဲ	-10.0234
ချည်	-10.0236
▁San	-10.0238
ဒ္	-10.0238
ခြင်းအားဖြင့်	-10.0241
ls	-10.0247
shop	-10.0248
2006	-10.025
Hebei	-10.0252
▁29	-10.0256
မွတ္	-10.0256
VI	-10.0258
မုန်း	-10.026
ဇေ	-10.026
ကြိမ်နှုန်း	-10.0261
သစ်ကို	-10.0261
ုး	-10.0268
သေးငယ်တဲ့	-10.0273
card	-10.0273
အရာရှိ	-10.0274
ရောနှော	-10.0275
▁သေဆုံး	-10.0276
page	-10.0282
ray	-10.0283
BA	-10.029
စတာ	-10.0291
လိုချင်	-10.0292
န်ဆောင်မှုများ	-10.0292
နိုင်တယ်	-10.0294
ဝိညာဉ်တော်	-10.0297
ကျန်းမာ	-10.0299
▁သင်က	-10.0302
တင်ပို့	-10.0305
ju	-10.0305
သရုပ်ဆောင်	-10.0309
ဥာဏ်	-10.0312
▁Holmes	-10.0312
▁မြေပုံ	-10.0312
code	-10.0313
▁ကမ္ဘာကြီး	-10.0321
▁250	-10.0329
လူတို့သည်	-10.0331
ဖွင့်လှစ်	-10.0332
အညွှန်း	-10.0332
အဆင့်မြင့်	-10.0334
ဆာဗာ	-10.0337
cor	-10.0339
လိုက်ပါ	-10.0341
ငြိမ်း	-10.0345
ငှါ	-10.0345
▁သင့်ရဲ့	-10.0345
▁ဆုံးဖြတ်	-10.0351
သုံးစွဲ	-10.0352
စပါး	-10.0354
▁Zaw	-10.0358
လော့	-10.0358
▁အဲဒါက	-10.036
ကြိုဆို	-10.036
ပတ်ဝန်းကျင်	-10.0365
ကျပ်	-10.0369
IM	-10.0371
သို့ရောက်	-10.0371
▁မီးရှို့	-10.0372
စူးစမ်း	-10.0372
▁Auto	-10.0373
နေအိမ်	-10.0373
ark	-10.0373
တက်ရောက်	-10.0374
▁နမူနာ	-10.0382
ship	-10.0383
ဇုန်	-10.0385
သငျသညျ	-10.0387
လျော့နည်း	-10.0391
ထိုင်ခုံ	-10.0394
ကင်ဆာ	-10.0396
▁ထိုသူသည်	-10.0401
မည်နည်း။	-10.0403
▁Photo	-10.041
ဘီလီယံ	-10.0412
▁သို့ဖြစ်၍	-10.0416
▁Ko	-10.0417
▁စက်တင်ဘာ	-10.0421
လွှား	-10.0421
၂၁	-10.0423
▁key	-10.0425
အဆုံးသတ်	-10.0426
ပါမယ်။	-10.0426
OT	-10.0427
RA	-10.0432
▁ဖေဖေါ်ဝါရီလ	-10.0433
▁လုပ်ဖို့	-10.0437
စုစည်း	-10.0443
လောင်စာ	-10.0444
par	-10.0446
ဝန်ကြီး	-10.0447
▁multi	-10.0453
သင်တို့ကို	-10.0457
▁Ti	-10.0457
CI	-10.0459
▁အပင်	-10.0461
▁Un	-10.0469
▁ကၽြန္ေတာ္	-10.0473
အသီးအသီး	-10.0473
ပင်လယ်	-10.0475
လိုက်ရင်	-10.0476
ခဲ့ပါသည်။	-10.0478
နိုင်ပြီး	-10.0478
သရုပ်	-10.0481
ရှန်	-10.0482
ပလပ်စတစ်	-10.0482
မဟုတ်ဘူး။	-10.0482
ous	-10.0485
ထောင့်	-10.0487
အစုံ	-10.0488
တွက်	-10.049
▁ပျက်စီး	-10.0498
သားတို့သည်	-10.0506
ဘင်	-10.0507
▁2008	-10.0508
ISO	-10.0509
ပါလိမ့်မယ်	-10.051
န့်အသတ်	-10.0514
ဆရာဝန်	-10.0522
ောငျ	-10.0523
Ma	-10.0523
▁မျက်စိ	-10.0525
ငြိမ်	-10.0531
▁ပူးပေါင်း	-10.0533
နှငျ့	-10.0535
အထောက်အပံ့	-10.0535
လိုက်ပါ။	-10.0536
နေ့၌	-10.0537
ade	-10.0542
အရည်အသွေးမြင့်	-10.0546
MS	-10.0548
မည္	-10.0549
သစ္	-10.0554
EA	-10.0554
▁အာရုန်	-10.0555
ပေမယ့်	-10.0557
▁နေ့စဉ်	-10.0561
▁ဘုရားသခင်ကို	-10.0563
စည်	-10.0567
ဂဏန်း	-10.0575
ကောက်ခံရေး	-10.0575
ပါစေသော။	-10.0576
▁Per	-10.059
ခိုင်း	-10.0591
မြင့်မားသော	-10.0593
စာမေးပွဲ	-10.0596
▁setting	-10.0597
မြန်မာ	-10.0602
လျက်နေ	-10.0603
ဖြစ်ပျက်	-10.0604
ဖြစ်ပေါ်	-10.0606
▁ဗီဒီယိုများ	-10.0608
▁WordPress	-10.0617
နှစ်ဦးစလုံး	-10.0617
▁File	-10.0619
မွေးဖွား	-10.062
မီးဖို	-10.062
အတန်း	-10.0624
▁တစ္	-10.0625
▁ဆက်သွယ်	-10.0626
▁120	-10.0629
▁ဇန်နဝါရီလ	-10.0633
gre	-10.0636
ဟူ	-10.064
ကျွမ်း	-10.064
ကြီးထွား	-10.0642
▁Fa	-10.0642
▁ဆွေးနွေး	-10.0642
စာရေး	-10.0645
▁စက်ရုပ်	-10.0649
▁etc	-10.0651
လတံ့	-10.0659
တမ်း	-10.0663
▁သို့သော်လည်း	-10.0665
ဟို	-10.0665
တစ်နှစ်	-10.0667
ev	-10.0671
ပေးဆောင်	-10.0673
ရှန်ဟိုင်း	-10.0679
အကောင့်	-10.068
နွေဦး	-10.0685
gy	-10.0686
ခါး	-10.0687
ပတ္	-10.0687
အကွောငျး	-10.0688
ration	-10.0691
▁နည်းလမ်း	-10.0695
ဖွံ့ဖြိုးတိုးတက်	-10.0698
ယောင်	-10.0699
ခန့်မှန်း	-10.0701
ခုနစ်	-10.0702
▁ပြည့်စုံ	-10.0706
ရှိကြ၏။	-10.0709
ပံ့ပိုး	-10.0712
ကြော်ငြာ	-10.0717
ဘက်ထရီ	-10.0719
car	-10.0719
▁ကျေးဇူးတော်	-10.0719
ငြင်း	-10.0719
▁Led	-10.0721
ဘိုးအင်း	-10.0721
မတိုင်မီ	-10.0721
▁ကျွန်တော်က	-10.0724
အစီရင်ခံစာ	-10.0725
ကိရိယာများ	-10.073
▁လေဆာ	-10.0732
▁အာရှ	-10.0733
ani	-10.0736
ပိုင်ဆိုင်	-10.0737
▁ပြောပြ	-10.0737
အင်တာနက်	-10.0738
ခဲ့တာပါ။	-10.0738
▁ခရီး	-10.074
▁tools	-10.0741
ized	-10.0742
▁ခပ်သိမ်းသော	-10.0742
men	-10.0743
ေရာင္	-10.0744
ဗို	-10.0745
ထုတ်ယူ	-10.0746
▁အမွေ	-10.0748
သွားကြ	-10.0754
ney	-10.0754
တောင်းပန်	-10.0755
▁အဆင့်	-10.0755
စွန့်	-10.0756
ati	-10.0757
အာရုံ	-10.0761
ကြမ်းပြင်	-10.0767
LI	-10.0767
သီးခြား	-10.0768
ယဉ်	-10.0768
ဖွံ့ဖြိုးရေး	-10.0768
▁သေချာ	-10.0778
ေနရာ	-10.0778
သိမ်းဆည်း	-10.0781
ဆုံးဖြတ်	-10.0785
ization	-10.0788
လိမ့်	-10.0788
▁စကားပြော	-10.0789
▁non	-10.0793
▁Cha	-10.08
တပ်ဆင်ထား	-10.0802
▁အဖြေ	-10.0807
▁တတိယ	-10.0807
ခြေလှမ်း	-10.0808
▁Metal	-10.0808
စခန်း	-10.081
▁သြဂုတ်	-10.0814
▁ခရစ်တော်	-10.0817
ali	-10.0818
▁ဓာတ်ပုံ	-10.0818
ချေး	-10.0819
▁NO	-10.0821
စို	-10.0823
လျှို့ဝှက်	-10.0825
▁custom	-10.0826
စူပါ	-10.0826
အလျား	-10.0826
▁ထိုသူတို့	-10.0838
▁နိုင်ငံတော်	-10.0839
5.5	-10.0841
မဂ္ဂဇင်း	-10.0842
ခဲ့ကြတယ်။	-10.0844
▁switch	-10.0847
▁ဘယ်လောက်	-10.0847
▁ကုန်ကြမ်း	-10.0848
လာခဲ့	-10.0851
box	-10.0852
▁Online	-10.0854
▁Time	-10.0859
လုပ်ဆောင်ချက်	-10.0863
▁ပရိသတ်	-10.0865
Coin	-10.0873
သိပ္ပံ	-10.0876
tan	-10.0881
rel	-10.0883
အင်္ဂါ	-10.0885
RI	-10.0887
\	-10.089
မဟုတ္	-10.089
cur	-10.0891
စျ	-10.0891
▁Machinery	-10.0891
ound	-10.0894
ဖတ်ရှု	-10.0897
feed	-10.0899
fish	-10.09
IA	-10.0901
▁သင်္ဘော	-10.0902
အက်စ်	-10.0907
မြင့်မား	-10.0907
ခဲ့ပါတယ်	-10.0908
အင်အား	-10.0912
ရမယ်	-10.0914
Re	-10.0919
▁ကျပ်	-10.092
▁ကင်မရာ	-10.0924
ဟူသော	-10.0929
▁Ben	-10.0929
ထူးခြားတဲ့	-10.0931
တပည့်	-10.0932
မျှော်လင့်	-10.0932
▁Rule	-10.0933
နေဆဲ	-10.094
ပုဂ္ဂိုလ်ရေး	-10.0945
▁ပြန်လည်သုံးသပ်	-10.0949
ဗန်	-10.0951
မြည်	-10.0953
မေတ္တာ	-10.0954
▁အချင်းချင်း	-10.0954
ဥယျာဉ်	-10.0958
အစာရှောင်	-10.0958
post	-10.0962
Tech	-10.0962
▁Lighting	-10.0963
ယနေ့	-10.0966
တကယ်	-10.0966
ရှည်လျား	-10.0975
နှုတ်ကပတ်တော်	-10.0975
အနုပညာ	-10.098
လောင်းကစား	-10.0983
▁တွေး	-10.0985
▁ကျွန်မက	-10.0986
ral	-10.0986
ဖြစ်စေ၊	-10.0988
▁အဝတ်	-10.0992
ခြံ	-10.0992
▁ဖြစ်စေ	-10.0992
▁Min	-10.0993
▁El	-10.0994
၀င္	-10.1
တဘက်၌	-10.1
▁ထိုကြောင့်	-10.1003
▁Cheats	-10.1004
3.0	-10.1008
CO	-10.1012
ဆော့ဖ်ဝဲ	-10.1018
Sc	-10.1018
နန်	-10.1019
ification	-10.1023
lar	-10.1026
Pro	-10.1029
ခွာ	-10.1032
ဒေါ်လာ	-10.1034
TI	-10.1039
▁ပြန်ပြော	-10.1041
ဖော်ထုတ်	-10.1042
အဖြူ	-10.1043
150	-10.1043
▁ထိုကဲ့သို့သော	-10.1046
စစ်တမ်း	-10.1046
လေ့ရှိ	-10.1048
gan	-10.105
▁ကူညီ	-10.1052
▁တရုတ်နိုင်ငံ	-10.1054
စာဖတ်ခြင်း	-10.1061
▁ပြဇာတ်	-10.1062
▁လွှတ်	-10.1064
▁not	-10.1064
ping	-10.1066
ile	-10.1066
St	-10.1069
▁ထိုနောက်	-10.107
မှတ်စု	-10.1074
တိုက်ပွဲ	-10.1079
▁ကျန်	-10.1082
ညွှန်ပြ	-10.1083
အနီရောင်	-10.1083
[3]	-10.1083
uff	-10.1089
ute	-10.1093
▁ဤတွင်	-10.1096
အလိုရှိ	-10.1097
ခံခဲ့ရ	-10.11
▁ဟို	-10.1102
ပွင့်လင်း	-10.1105
ပုံရိပ်	-10.1106
▁Player	-10.1107
rom	-10.1108
OD	-10.111
ကုန်ထုတ်လုပ်မှု	-10.1111
▁Market	-10.1113
▁2000	-10.1118
ဆက္	-10.1123
ဝှက်	-10.1124
အမျိုးသမီး	-10.1125
ကွန်တိန်နာ	-10.1126
▁default	-10.1126
ရာဇ	-10.1129
ေဆာင္	-10.1129
လ္	-10.113
▁ဖုန်မှုန့်	-10.1132
▁±	-10.1132
မိန့်တော်မူ	-10.1135
အပြစ်ကို	-10.1139
အဆို့ရှင်	-10.1148
▁ဆဲလ်	-10.1149
FC	-10.1149
ွာ	-10.115
▁ဘက်ထရီ	-10.115
လဲဆိုတာ	-10.1161
မည်သို့	-10.1166
SL	-10.117
တစ်မျိုး	-10.117
အိုင်တီ	-10.1173
ract	-10.1176
ဒုတိယ	-10.1176
အင်္ဂါရပ်များ	-10.1177
▁ကျင့်	-10.1177
▁One	-10.1177
ward	-10.1178
ဟေ	-10.118
▁ထံမှ	-10.1182
ထားပါတယ်။	-10.1185
▁တခု	-10.1187
press	-10.1188
▁86	-10.1191
ပုဂ္ဂလိကဂျက်	-10.1193
▁တံခါး	-10.1196
သွားရောက်	-10.12
ောကျ	-10.1205
▁ကိုယ့်	-10.1205
▁option	-10.1207
ြန္	-10.1209
ညွှန်း	-10.1209
▁Dreadbag	-10.1214
အလင်းရောင်	-10.1218
ကိုသုံးပါ	-10.1227
▁May	-10.123
▁Reader	-10.1232
side	-10.1233
▁[2]	-10.1234
ရှောလမုန်	-10.1236
ပရိုဂရမ်	-10.1236
▁ရန်သူ	-10.1236
ထိရောက်မှု	-10.124
▁ဗဟို	-10.1253
ခရို	-10.1254
တွေ့မြင်	-10.1255
▁dis	-10.1262
မည်သည့်	-10.1266
▁နိုင်ငံတကာ	-10.127
▁ဒီဂရီ	-10.1272
မိုဘိုင်းကာစီနို	-10.1273
ငွေပေးချေမှု	-10.1277
မြင်ကွင်း	-10.1278
▁Service	-10.128
▁Tagged	-10.128
▁game	-10.1284
ကဲ့သို့သော	-10.1292
မီးစက်	-10.1297
▁OS	-10.1298
~	-10.1301
လှုံ့ဆော်	-10.1302
▁Galaxy	-10.1302
▁acrylic	-10.1302
ကော်မရှင်	-10.1302
ချက်တွေ	-10.1302
▁Bar	-10.1308
OP	-10.1308
ချိုး	-10.131
▁အောက်တိုဘာ	-10.1312
ကြနှင့်။	-10.1314
▁SMS	-10.1318
ပေါင်းစည်း	-10.1326
▁ဖက်စ်	-10.1326
အတု	-10.133
▁Du	-10.1339
လိမ့်မယ်	-10.1341
သတ္တဝါ	-10.1346
▁၂၀၁၉	-10.1349
ုန္း	-10.1349
လျှော့	-10.1351
သူတို့၏	-10.1352
ရကြမည်။	-10.1353
▁Maung	-10.1353
လက်ရာ	-10.1357
ွား	-10.1357
ြာ	-10.1362
တည္	-10.1363
စောင့်ရှောက်ရေး	-10.1363
▁Slots	-10.1365
ano	-10.1366
ကျဉ်း	-10.1368
မြွက်	-10.1368
တိုင္း	-10.1372
သူမ၏	-10.1373
▁more	-10.1375
မျက်စိ	-10.138
ရှူ	-10.1381
ဖက်ရှင်	-10.1382
လေထု	-10.1391
▁access	-10.1391
▁data	-10.1392
ိတ္	-10.14
ရှာတွေ့	-10.14
ထပ္	-10.1404
▁ကျွန်မတို့ရဲ့	-10.1404
▁9:	-10.1411
▁တပါးအမျိုးသား	-10.1413
▁အီလက်ထရောနစ်	-10.1415
ပျော်စရာ	-10.1421
▁was	-10.1431
ခပ်	-10.1434
ိန်း	-10.1436
HE	-10.1436
နေ့စွဲ	-10.1436
ဈေးကွက်	-10.1437
ကျဆင်း	-10.1439
လက်ကိုင်	-10.1448
ပျံသန်းမှု	-10.1452
ဖြစ်စဉ်ကို	-10.1454
ရတယ်	-10.1455
ညွှန်ကြားချက်	-10.1458
အခမ်းအနား	-10.1458
900	-10.1463
▁ကျွန်မတို့ဟာ	-10.1472
လုပ်ငန်းများ	-10.1473
TP	-10.1479
gn	-10.1479
ဖေါ်	-10.148
ဇင်	-10.148
အားလပ်ရက်	-10.1481
cell	-10.1481
အားနည်း	-10.1482
▁Hi	-10.1483
▁အရည်	-10.1484
▁DJ	-10.1485
▁400	-10.1485
▁Tattoos	-10.1488
စည်းဝေး	-10.1489
▁List	-10.1492
ဦးတည်	-10.1495
ပြောပြ	-10.1498
ရည်ရွယ်	-10.1499
အိပ်	-10.15
သက်ဆိုင်	-10.15
▁ဆာ	-10.1506
ီးယား	-10.1508
5.0	-10.151
▁လူများတို့	-10.1515
▁အကြီးစား	-10.1516
▁Standard	-10.1526
ဆင်းသက်	-10.1527
တူညီတဲ့	-10.1528
နိုင်ရန်	-10.1529
ဩ	-10.1533
▁ခန္ဓာကိုယ်	-10.154
သုံးသပ်	-10.1547
ပဋိညာဉ်	-10.1548
အခွင့်	-10.1549
ရေးဆွဲ	-10.155
▁Grab	-10.1551
အရေးကြီး	-10.1559
ကြဘူး	-10.1559
နိုင်တာ	-10.1563
▁ဥယျာဉ်	-10.1566
▁ဆက်သွယ်ရန်	-10.1567
▁၂၀၁၈	-10.1568
▁CR	-10.1568
နိုင်ခဲ့	-10.157
မြော်လင့်	-10.1571
ကောလိပ်	-10.1576
ခံယူ	-10.1578
ဂရု	-10.1579
▁ခုနစ်	-10.1579
▁ကျင်းပ	-10.1581
▁ကျွန်တော့်	-10.1581
▁PP	-10.1588
▁0.5	-10.1589
▁CS	-10.1591
အဖုံး	-10.1592
0.6	-10.1595
မေ့	-10.1598
Manufacturer	-10.1609
ဆီမှာ	-10.1612
ကီလိုဂရမ်	-10.1617
အလတ်စား	-10.1617
ကြဲ	-10.162
▁သခင်ဘုရား	-10.1622
အုပ်ချုပ်	-10.1623
ချပ်	-10.1623
MI	-10.1625
lm	-10.1626
▁၎င်း၏	-10.1627
▁ဧပြီ	-10.1632
အီးမေးလ်	-10.1637
ole	-10.1639
content	-10.164
ႀကီး	-10.164
ရေဒီယို	-10.164
လျင်မြန်စွာ	-10.1641
လူး	-10.165
တာလဲ	-10.1653
မရနိုင်	-10.1653
180	-10.1655
HC	-10.1656
နောက်ဆုံးပေါ်	-10.1659
van	-10.1661
ွှန်	-10.1662
ပျံ့နှံ့	-10.1663
ဖျက်ဆီး	-10.1663
အမြစ်	-10.1667
၎င်းတို့၏	-10.1668
len	-10.1669
သကဲ့သို့၊	-10.167
ကာတွန်း	-10.1676
LD	-10.1677
▁ဗိုလ်	-10.1682
ual	-10.1683
ကိုယ်စားလှယ်	-10.1683
ေအာင္	-10.1683
▁နာမတော်	-10.1685
exacthacks	-10.1686
အရိပ်	-10.1686
ရည်ညွှန်း	-10.1687
▁မိန်းကလေး	-10.1687
▁ပုံရိပ်	-10.1687
iz	-10.1694
ရင်ဆိုင်	-10.1694
ရင်းနှီး	-10.1698
မွန္	-10.1699
တော်မူမည်။	-10.1706
700	-10.1708
testosterone	-10.1709
ဖေါ်ပြ	-10.1709
သည်လည်း၊	-10.171
ရုပ်တု	-10.1713
ဉာဏ်	-10.1726
ကြုံ	-10.1732
တချို့	-10.1741
ကြတယ်	-10.1741
ချွန်	-10.1743
ili	-10.1749
▁ကြောက်ရွံ့	-10.1754
ဝါဒ	-10.1754
®	-10.1755
▁Rotary	-10.1755
ယူပြီး	-10.1756
နံရံ	-10.1756
သူ့ကို	-10.1757
ဂီယာ	-10.1757
▁Wall	-10.1758
▁အကြား	-10.1764
ချိန်ညှိ	-10.1765
တည်းဖြတ်	-10.1766
pack	-10.1767
ကာဗွန်	-10.1768
▁box	-10.1769
ခိုင်	-10.1776
တစ်စုံ	-10.1778
ကိုကလစ်နှိပ်ပါ	-10.1778
ဝက်ဝံ	-10.1779
▁လူတွေကို	-10.1781
MT	-10.1782
အရှေ့	-10.1782
▁have	-10.1782
▁Cool	-10.1788
အော်တို	-10.1793
ခန္ဓာ	-10.1799
▁မတူ	-10.1803
▁ရောက်လာ	-10.1805
အဝတ်အစား	-10.1806
url	-10.1807
မျှမ	-10.1808
ros	-10.181
စက်ဘီး	-10.1812
မှတပါး	-10.1814
နည်းဟု	-10.1819
ကန့်သတ်	-10.1825
down	-10.1825
▁ကနေဒါ	-10.183
▁VP	-10.183
ၿပီ	-10.1831
မိုက်	-10.1842
Next	-10.1842
version	-10.1846
ပူဇော်	-10.1846
yu	-10.1847
ခင်ပွန်း	-10.1848
သင်ခန်းစာ	-10.1849
စွန်	-10.1857
သုံးစွဲဖို့	-10.1858
qua	-10.186
rit	-10.1864
▁ရုရှား	-10.1867
အဘိဥာဏ်	-10.1869
ဆုံးရေးသားချိန်	-10.1873
▁ဆေးဘက်ဆိုင်ရာ	-10.1874
▁စာရေးသူ	-10.1878
ဘဲနေ	-10.188
ေတြက	-10.1884
ကုန်ပစ္စည်းများ	-10.1887
သင့်ရဲ့	-10.1889
-15	-10.1895
ရှယ်ယာ	-10.1895
ခြမ်း	-10.1895
ရက်သတ္တပတ်	-10.1895
မှားယွင်း	-10.1895
မြက်	-10.1897
ထုံး	-10.1898
ဗဟို	-10.1905
▁Oct	-10.1907
2.4	-10.1917
သွေးခုန်နှုန်း	-10.1918
▁drive	-10.1919
ေရာက္	-10.1921
view	-10.1924
ဇာတိ	-10.1942
á	-10.1942
▁Log	-10.1944
ကမ္ဘာလုံးဆိုင်ရာ	-10.1958
အာရှ	-10.1959
ကျော်ကြား	-10.196
ကြည့်ဖို့	-10.1961
ဒြပ်	-10.1962
ေတာင္	-10.1964
▁Win	-10.1964
အမှုအရာ	-10.1964
ဆောက်လုပ်ရေး	-10.1966
▁Micro	-10.1966
တီဗီ	-10.1968
ရွှေ့	-10.1969
▁ပူဇော်သက္ကာ	-10.1972
နင်	-10.1975
▁slots	-10.1979
အကြှနျုပျ	-10.1982
ဒေသခံ	-10.1982
တရားဝင်	-10.1984
နွယ်	-10.1987
တွစ်တာ	-10.1989
အခွင့်အလမ်း	-10.1989
သမျှသော	-10.1994
live	-10.2003
▁Professional	-10.2013
▁ျမန္မာ	-10.2013
ရွေးကောက်ပွဲ	-10.2015
bro	-10.2016
၃၀	-10.2017
0.9	-10.2018
ဆန်းသစ်	-10.2019
ကူးစက်	-10.2019
1.2	-10.2024
ကျွမ်းကျင်မှု	-10.2028
▁အကျွန်ုပ်၏	-10.2029
အင်္ဂလိပ်	-10.2032
ဖေဖော်ဝါရီ	-10.2035
▁Tablet	-10.2037
jo	-10.204
သိပ်	-10.2045
▁စစ်တိုက်	-10.2049
▁နောက်ပြီး	-10.2054
ထ၍	-10.206
လူ့	-10.206
screen	-10.2061
မြှင့်တင်	-10.2063
အရှိန်	-10.2064
▁70%	-10.2068
ပွဲစဉ်	-10.207
ဝတ်စုံ	-10.2071
oli	-10.2081
ise	-10.2083
ကုန်သွယ်ရေး	-10.2085
သူငယ်ချင်း	-10.2088
ရုတ်	-10.2092
ျဖ	-10.2092
▁Cable	-10.2095
ခို	-10.2097
မြေပုံ	-10.2099
▁125	-10.21
ႏွ	-10.2103
လေ့ကျင့်	-10.2107
▁Zhejiang	-10.2109
	-10.2109
zi	-10.2111
ယန်း	-10.2119
▁Big	-10.2127
ဆင်ခြင်	-10.2129
အချိုး	-10.2132
သောကြာနေ့	-10.2133
မြှေး	-10.2134
ထုပ်	-10.2134
လိုမျိုး	-10.2135
other	-10.2142
▁အချက်	-10.2146
ကြီးမား	-10.2146
မြို့နယ်	-10.2148
eb	-10.2149
round	-10.2153
ဆုံးဖြတ်ချက်	-10.2154
ဗိသုကာ	-10.2157
▁Bitcoin	-10.2157
▁Electronic	-10.2157
တားဆီး	-10.2157
▁chip	-10.2161
ရိုင်း	-10.2163
ရွင္	-10.2172
ဒေသများ	-10.2178
24.	-10.2179
ယ်ယူပို့ဆောင်ရေး	-10.2181
ကျောင်းသားများ	-10.2182
ဖြစ်ရပ်	-10.2188
လွင်	-10.219
အောင်လုပ်	-10.2197
▁ကြက်	-10.2198
စကားပြော	-10.2202
ေထာင္	-10.2205
စွန့်ပစ်	-10.2208
လုံလောက်	-10.2209
mq	-10.2209
▁Ball	-10.221
နေသည်။	-10.2211
အလုပ်သမား	-10.2213
cle	-10.2214
အခု	-10.2214
ွဲ	-10.2216
ကျား	-10.2222
ပါစေ။	-10.2223
အကျိုး	-10.2228
မဂ္ဂနီစီယမ်	-10.2229
▁select	-10.223
ႏိုင္ငံ	-10.223
lution	-10.2233
ပျက်စီး	-10.2235
အကျယ်	-10.2237
ကျေးဇူးတင်	-10.2245
ဇာတ်ကောင်	-10.2247
table	-10.2247
မောင်	-10.2251
▁အရာတွေ	-10.2254
▁Medical	-10.2254
ရေစိုခံ	-10.2254
ပရင်တာ	-10.2254
▁သက်သေခံ	-10.2255
ံု	-10.2257
="6	-10.2258
လုပ်နိုင်	-10.2261
ကြပ်	-10.2264
အိတ်ဆောင်	-10.2272
ပြဲ	-10.2275
ပြတ်	-10.2277
စတုရန်း	-10.2278
စစ်ပွဲ	-10.2282
မတူ	-10.2286
zip	-10.2287
new	-10.2288
လက်မှ	-10.2293
၂၆	-10.2298
▁Tour	-10.2299
har	-10.23
▁off	-10.2301
အလွယ်တကူ	-10.2303
▁အမေရိကန်ကဒေါ်လာ	-10.2303
ကျိန်	-10.2309
နှစ်ဆ	-10.231
▁၁၇	-10.2312
ဖြည့်	-10.2314
ဗ်	-10.2317
ပြို	-10.2318
လာတယ်။	-10.232
Port	-10.2322
ရှာဖွေရေး	-10.2325
▁Ke	-10.233
▁ထိုသို့သော	-10.2332
လုပ်ကိုင်	-10.2334
မှုန်	-10.2336
hai	-10.2339
▁UK	-10.234
▁Tri	-10.2354
▁Moto	-10.236
ကြို	-10.2361
လှူ	-10.2364
၂၀၁၄	-10.2365
လူနာ	-10.2367
ဖွ	-10.2372
အရည်	-10.2373
ssi	-10.2374
ခန့်မှန်း	-10.2376
အကောင်အထည်ဖော်	-10.2376
အနေအထား	-10.2376
တံတား	-10.2376
▁Fiber	-10.2378
ME	-10.2387
သောကြောင့်	-10.2387
သိကောင်းစရာများ	-10.2392
ကုမ္ပဏီများ	-10.2395
▁ဘာမှ	-10.2395
သက်သက်	-10.2397
ချောမွေ့	-10.2401
မရှိဘူး	-10.2404
ဒါ့အပြင်	-10.2406
▁DR	-10.2407
ထားသည့်	-10.2408
PL	-10.2412
-30	-10.2415
ဂီ	-10.2418
အထောက်အထား	-10.2426
နဂါး	-10.2426
▁process	-10.2426
▁ကောင်းကင်တမန်	-10.2427
▁အင်း	-10.2429
ခြင်းမရှိ	-10.243
▁တကယ့်ကို	-10.243
နျး	-10.2432
EL	-10.2433
ရာထူး	-10.2434
ကုန္	-10.244
အာဗြဟံ	-10.2451
ကြွယ်ဝ	-10.2451
လက်အိတ်	-10.2453
ယမ်	-10.2454
ရလဒ်	-10.2455
တာမျိုး	-10.2464
ကုတ်	-10.2469
အထည်အလိပ်	-10.2475
အကျိုးကျေးဇူး	-10.2479
ကေတာ့	-10.248
▁Am	-10.2481
[2]	-10.2483
GE	-10.2483
Co	-10.2485
▁application	-10.2488
PD	-10.2492
နေတာပါ။	-10.2494
တောက်	-10.2494
2.1	-10.2498
ညာဘက်	-10.2508
ဌ	-10.2512
▁Set	-10.2515
eek	-10.2524
အမိန့်	-10.2526
အသုံးပြုနိုင်	-10.2527
▁Cam	-10.2532
ရောင်ခြည်	-10.2534
ကုန်သွယ်မှု	-10.2534
မောင်းသူ	-10.254
လေးတွေ	-10.2545
အဝတ်ကို	-10.2547
အလုပ်အကိုင်	-10.2551
▁drop	-10.2551
အတိုင်းအတာ	-10.2552
ဟော်မုန်း	-10.2555
၉၀	-10.2564
သတိထား	-10.2565
head	-10.2566
PT	-10.2569
▁EM	-10.257
tur	-10.2571
ဴ	-10.2576
script	-10.2576
အစွန်း	-10.2578
မော်ဒယ်များ	-10.258
လိုက်တဲ့	-10.2582
အခြားသူများ	-10.2584
ႈ	-10.2585
သင်က	-10.259
ရွှင်လန်း	-10.2601
▁ဗိမာန်တော်	-10.2601
ခိုင်ခံ့	-10.2601
▁SARS	-10.2601
ေရာ	-10.2601
ထက္	-10.2608
pc	-10.2612
ကျယ်ပြန့်	-10.2626
ခံနိုင်ရည်	-10.2626
နီးယား	-10.2633
ယေဘုယျ	-10.2646
▁လူမှု	-10.265
▁America	-10.2651
▁Indicator	-10.2651
ကျွန်တော်	-10.2652
some	-10.2654
ကာကွယ်ရေး	-10.2663
အခမဲ့ဒေါင်းလုပ်	-10.2666
▁20%	-10.2667
မော်တော်ယာဉ်	-10.2671
▁Aung	-10.2672
က်ဘ်ဆိုက်	-10.2673
ဆီသို့	-10.2677
အော်ဟစ်	-10.2677
IF	-10.2678
▁Store	-10.268
4.2	-10.2684
ient	-10.2685
▁220	-10.2685
လုံးဝ	-10.2685
အထူးပြု	-10.2686
ထုတ္	-10.2688
မာရိ	-10.2696
▁Dis	-10.2698
▁cr	-10.2699
ကွက်များ	-10.27
heng	-10.27
ပဌနာ	-10.2702
တွေထဲက	-10.2704
CAD	-10.2705
တို့သည်လည်း	-10.2706
ative	-10.2707
vent	-10.2713
▁Block	-10.2722
တတ်ကြ၏။	-10.2722
rew	-10.2725
အစွမ်းသတ္တိ	-10.2728
ေစ	-10.2728
အနေဖြင့်	-10.2728
▁Shi	-10.2728
ပေမယ့်	-10.2732
ဒန်	-10.2735
▁ဘာဖြစ်	-10.2743
ခ်စ္	-10.2747
PP	-10.275
ä	-10.2753
ကိုယ်စားပြု	-10.2754
▁Stock	-10.2756
အရည်ပျော်	-10.2758
အဲဒီ	-10.2761
ome	-10.2762
▁နိုဝင်ဘာ	-10.2767
အမှုန်	-10.2771
အမြတ်	-10.2773
ကျေးဇူးတင်ပါတယ်	-10.2775
▁Lab	-10.2778
▁Blackjack	-10.2779
▁Humidifier	-10.2779
▁ထို့အပြင်	-10.2779
မှုနှုန်း	-10.2784
တူး	-10.279
တို႕	-10.2795
ö	-10.2805
▁Skype	-10.2806
မလဲ။	-10.2806
ိုင္း	-10.2808
▁မှတ်ချက်များ	-10.2817
ခဲ့သည့်	-10.2818
နေရာတွင်	-10.282
ယှဉ်ပြိုင်	-10.2825
သမုဒ္ဒရာ	-10.283
▁cockpit	-10.283
အသိပညာ	-10.2831
လျော်	-10.2831
fu	-10.2832
စလုံး	-10.2846
သက်ရောက်	-10.2846
မြို့သား	-10.2848
▁(6	-10.2855
▁months	-10.2856
စက္	-10.2857
သောသူတို့ကို	-10.2857
ရွင္း	-10.2858
အဖေ	-10.2858
▁Best	-10.286
ထုတ်လုပ်ခြင်း	-10.2861
နိုင်ဘူး	-10.2871
▁Cho	-10.2876
ino	-10.2879
နေကြသည်	-10.2879
emp	-10.288
မုန်	-10.2882
ဃ	-10.2882
တပ်ဖွဲ့	-10.2887
ကျိုးသက်ရောက်မှု	-10.2887
CN	-10.2889
အဆွေအမျိုး	-10.2893
နှိုး	-10.2894
ခေတ်သစ်	-10.2898
▁Tue	-10.29
မေးခွန်းများ	-10.2903
▁interface	-10.2908
▁Chi	-10.2914
▁Trans	-10.2922
လက်ျာ	-10.2922
▁Mr	-10.2924
လွှ	-10.2927
ဆင်းရဲ	-10.2931
တော်မူ၍၊	-10.2931
soft	-10.2935
ကလစ်	-10.2937
ပတ်လည်	-10.2938
မြှင့်တင်	-10.2938
ည့်	-10.295
450	-10.2951
သိုလှောင်မှု	-10.2959
▁Global	-10.296
▁Program	-10.2961
▁Ji	-10.2963
▁Fri	-10.2972
ခန္ဓာကိုယ်	-10.2972
စာချုပ်	-10.2978
▁file	-10.2983
လေတပ်	-10.2984
ရည်မှန်းချက်	-10.2986
▁PTFE	-10.2986
ဖွဲ့စည်းတည်ဆောက်	-10.2989
▁Check	-10.299
▁အဘယ်သူမျှ	-10.2991
လှုပ်	-10.2992
လိမ့်မယ်။	-10.2993
အဘယ်အရာကို	-10.2995
ပညာရှင်များ	-10.2999
သဘောတူ	-10.3003
သဖြင့်	-10.3005
သိုး	-10.3006
ရင္း	-10.301
သိတင်း	-10.301
▁Powder	-10.3013
0.7	-10.3014
▁အထူးသဖြင့်	-10.3014
လောင်းကစားရုံ	-10.3015
ပျော့	-10.3016
▁သင်ဟာ	-10.3022
ပေါ့၊	-10.3022
ဝိုင်	-10.3026
၁၂	-10.3034
ေခၚ	-10.3039
မိတ္တူ	-10.3039
craft	-10.3039
ဆံ	-10.3042
2011	-10.3043
အသွင်	-10.3047
အသုံးပြုသည်။	-10.3051
တုန်း	-10.3058
လေ့ကျင့်ရေး	-10.3058
410	-10.3059
၈၀	-10.3059
ထံတော်သို့	-10.3065
DP	-10.3074
▁Har	-10.3076
ဘွယ်	-10.3077
ချန်	-10.308
cel	-10.3082
ခြင်းဖြင့်	-10.3087
အောက်စီဂျင်	-10.3088
▁Cheat	-10.3091
အံ့သောငှါ	-10.3092
▁coated	-10.3094
▁Products	-10.3094
ဝေမျှ	-10.3098
နိမ့်	-10.3101
စောင်း	-10.3103
ဝတ္ထု	-10.3105
ျခား	-10.3108
ပုံး	-10.3118
လှံတံ	-10.3118
onic	-10.3126
hr	-10.3127
ခြင်းငှါ၊	-10.3127
ring	-10.313
လုပ်ခြင်း	-10.3135
▁ကိုစာနယ်ဇင်း	-10.314
သင်း	-10.3141
ဖုံးလွှမ်း	-10.3145
အဆက်အသွယ်	-10.3145
တက်ဘလက်	-10.3145
▁ယဇ်ပလ္လင်	-10.3145
ကန့်သတ်	-10.3145
▁BT	-10.3151
က်သ	-10.3152
▁Wood	-10.3153
0.4	-10.3163
လေ့	-10.3167
lot	-10.3167
▁အကယ်စင်စစ်	-10.3172
ျပဳ	-10.3173
0.5	-10.318
5.1	-10.318
tru	-10.3182
လေကြောင်းလိုင်း	-10.3183
▁Red	-10.3184
ဖြစ်နိုင်ခြေ	-10.3184
လှမ်း	-10.3195
အပြန်အလှန်	-10.3198
▁android	-10.3198
းလ်	-10.32
သိမှတ်	-10.3201
ၿပ	-10.3205
အပ်နှံ	-10.3206
နီးကပ်	-10.321
▁Tu	-10.3212
kh	-10.322
▁နေရပ်လိပ်စာ	-10.3225
ကြည့်ပါ	-10.3225
▁???	-10.3227
၂၂	-10.323
▁ဒါတွေကို	-10.3231
▁Yu	-10.3233
နိုင်သည့်	-10.3234
သတ်မှတ်မည်	-10.3239
▁50%	-10.324
ထားတယ်။	-10.3243
ပိုင်ဆိုင်မှု	-10.3251
▁extension	-10.3252
▁World	-10.3252
မှောင်မိုက်	-10.3252
အထူးသဖြင့်	-10.3256
တစ်ခုချင်းစီ	-10.3258
မည့်	-10.3262
သုည	-10.3276
ညှိနှိုင်း	-10.3279
▁အိုထာဝရဘုရား၊	-10.3279
သတ်မှတ်ချက်	-10.3283
kin	-10.3288
HT	-10.3289
အမျိုးအစားများ	-10.3291
ပြောတာက	-10.3295
အစီအစဉ်များ	-10.3297
တူရိယာ	-10.3306
စဥ္	-10.3306
အားသာချက်	-10.3309
berg	-10.331
အဆောက်အဦ	-10.3313
▁Bible	-10.3315
ဘက္	-10.3317
▁applications	-10.332
▁SP	-10.3322
လူသိများ	-10.3327
EM	-10.3328
ခြောက်သွေ့	-10.3333
▁?????	-10.3333
▁display	-10.3334
ဖယ်	-10.3334
▁သိပ်ကို	-10.3353
၂၇	-10.3354
▁အသက်ကြီး	-10.3357
လန်ဒန်	-10.3362
spot	-10.3366
4.9	-10.3369
လိင်	-10.3383
တွက်ချက်	-10.3385
ၾကည့္	-10.3387
ထွေး	-10.3387
ဗျာ။	-10.3388
မွမ်းမံ	-10.3388
▁Buy	-10.3388
ကျမ်းစာ	-10.3393
သာမက	-10.3394
မှတ်တမ်းတင်	-10.3396
▁North	-10.3396
ဘက်၌	-10.34
ink	-10.3402
ဘာသာစကားများ	-10.3405
မြှ	-10.3405
ဘဝကို	-10.3406
ဖက္	-10.341
0%	-10.3411
ပွဲတော်	-10.3414
ဖွား	-10.3418
ရုပ်ရှင်ပွဲတော်	-10.3418
ဟင်း	-10.3419
umb	-10.3419
ပြည်သို့	-10.3425
▁Ab	-10.3425
လွယ်ကူသော	-10.3432
နားထောင်	-10.3437
ခိုလှုံ	-10.3442
▁ပြန်စစ်ပြီး။	-10.3442
ING	-10.3442
▁Office	-10.3446
▁ယုဒပြည်	-10.3449
cap	-10.3457
▁Dust	-10.3461
ပြင်သစ်	-10.3461
ဆက်သွယ်မှု	-10.3464
ဒါဟာ	-10.3465
ုတ္	-10.3465
▁downloads	-10.3466
ပါလိမ့်မယ်။	-10.3467
▁Top	-10.3468
▁Instagram	-10.347
ပုလွေ	-10.347
embed	-10.347
ဝန်းကျင်	-10.347
ini	-10.3473
အုပ်ချုပ်ရေး	-10.3473
မတွေ့	-10.3477
ပိတ်ချော	-10.3478
လက်စွပ်	-10.3482
▁လူတို့	-10.3487
▁28,	-10.3487
ကျေနပ်	-10.3487
ရပ်ကွက်	-10.349
တာရှည်	-10.3491
dia	-10.3491
ရာအရပ်	-10.3494
vin	-10.3496
နှိုးဆော်	-10.3497
▁Solutions	-10.3497
▁ဒီဂရီစင်တီဂရိတ်	-10.3497
တစုံတခု	-10.3497
▁SITE	-10.3498
ရင်၊	-10.35
▁$1	-10.3509
တယ်လေ။	-10.351
▁သာ၍	-10.3511
အတွက်အကောင်းဆုံး	-10.3511
ဗက်	-10.3511
▁အရှင်ထာဝရဘုရား	-10.3526
ေျပာင္း	-10.3529
sign	-10.353
ရကြ၏။	-10.3539
မှတ်သား	-10.354
late	-10.3543
တရုတ်ထံမှ	-10.3548
▁ဆုံးမ	-10.3551
rad	-10.3552
ဒေါင်လိုက်	-10.3553
▁မူ၏။	-10.3553
▁အဝေး	-10.3553
izer	-10.3556
နိမ့်ဆုံး	-10.3557
ဓါတ်ပုံ	-10.3559
နည်းလမ်းများ	-10.3563
နေကြသည်။	-10.3564
ထွန်း	-10.3565
နွေး	-10.3568
1000	-10.3569
dom	-10.3572
လူအပေါင်းတို့သည်	-10.3577
မဟာဗျူဟာ	-10.358
တဲ့အခါမှာ	-10.3581
လျာ	-10.3581
▁Open	-10.3584
▁Han	-10.3602
လား၊	-10.3603
အမှန်	-10.3608
လမ်းလျှောက်	-10.3608
ပြတင်းပေါက်	-10.3608
ဒုစရိုက်	-10.3611
မုန့်	-10.3612
ဆုံးရှုံးမှု	-10.3617
ပစ်မှတ်	-10.3619
▁Start	-10.3622
▁June	-10.3625
ဆိုင္	-10.3625
▁Solenoid	-10.3636
▁ဖိုင်နာမည်	-10.3638
ရှိရာသို့	-10.3639
▁ယောရှု	-10.364
ify	-10.3641
gar	-10.3642
6.0	-10.3647
ကောင်းမွန်သော	-10.3648
▁ထိုကြောင့်၊	-10.3655
▁mod	-10.3656
မီးဖိုချောင်	-10.3656
သည်းခံ	-10.3663
GO	-10.3664
လှည်း	-10.3664
▁Worldwide	-10.3664
▁ဣသရေလအမျိုး၏	-10.3667
free	-10.3669
don	-10.367
now	-10.3671
▁item	-10.3673
၁၈	-10.3679
တွေကနေ	-10.3682
ဖိုး	-10.3686
ဂူ	-10.3686
သိပ္ပံပညာရှင်	-10.369
ရေးအဖွဲ့	-10.369
а	-10.3692
သင်္ကေတ	-10.3692
▁Nye	-10.3693
ရိုးရာ	-10.3693
အတော်လေး	-10.3696
▁cable	-10.3697
▁အသီး	-10.3703
ကျေး	-10.3705
အမြန်နှုန်း	-10.3708
ကရုဏာ	-10.3717
မျဉ်း	-10.372
ရှေးခယျြ	-10.372
▁ယောသပ်	-10.372
▁prev	-10.3741
▁Vo	-10.3744
▁package	-10.3749
ကြှနျုပျတို့	-10.3751
8.1	-10.3753
ဤဆောင်းပါး	-10.3762
ပြေ	-10.3768
▁ပုံရိပ်တွေ	-10.3774
●	-10.3777
ျမင္	-10.3777
pen	-10.3778
ကွေး	-10.3779
အမျိုးအနွယ်	-10.378
ML	-10.3781
▁Jun	-10.3784
▁Light	-10.3785
▁ကျနော်	-10.3788
အသုံးဝင်	-10.3792
တွေဆီ	-10.3796
JP	-10.3799
၌ရှိသော	-10.38
Custom	-10.3805
နယ်ပယ်	-10.3808
▁29,	-10.3811
ကြပြီ	-10.3825
▁အင်	-10.3826
၂၀၁၃	-10.3834
▁UHF	-10.3834
▁ငါတို့ကို	-10.3835
▁Uni	-10.3836
အဘယ်သို့	-10.3837
▁၄၀	-10.3837
ဂျာနယ်	-10.3838
▁March	-10.384
ထူးဆန်း	-10.3843
ပျောက်ဆုံး	-10.3846
ရှင်သန်	-10.3856
ခွေ	-10.3861
ကျောက်မီးသွေး	-10.3863
▁ဒီနေရာမှာ	-10.3863
race	-10.3863
ဘော	-10.3863
ပွင့်	-10.3866
၌၎င်း၊	-10.3866
စာမျက်နှာများ	-10.3866
ဂဟေ	-10.3868
▁Gold	-10.3881
တစ်ကြိမ်	-10.3881
(24	-10.3886
ဝန်ဆောင်မှုများ	-10.3887
AF	-10.3891
ရာသီဥတု	-10.3891
▁ရှန်ကျန်း	-10.3891
နှင်ထုတ်	-10.3891
ဖြန့်	-10.3897
ိပ္	-10.3903
ဦးထုပ်	-10.3903
▁တွင်လည်း	-10.3907
ဆိုတာက	-10.3907
တောင့်	-10.3911
▁Hol	-10.3911
ဖြစ်တော်မူ၏။	-10.3911
လိုအပ်သော	-10.3913
-40	-10.3916
▁ထာဝရဘုရားအား	-10.3918
3.3	-10.3918
▁Application	-10.392
ကြိုးပမ်း	-10.392
စိန်ခေါ်မှု	-10.392
eas	-10.3921
ရပါမည်	-10.3923
အများပြည်သူ	-10.3923
2016	-10.3923
၂၃	-10.3928
နိုင်သလား	-10.3929
ဖုန်းကို	-10.3943
ဖြို	-10.3946
တာလဲ။	-10.3948
ပဋိညာဉ်စာတမ်း	-10.3949
▁Thread	-10.395
▁Sho	-10.395
▁Bill	-10.3951
ထူထောင်	-10.3953
ဖို႔	-10.3954
ခွံ	-10.3955
ကာလအတွင်း	-10.3962
star	-10.3962
ဘု	-10.3964
ness	-10.3971
put	-10.3977
မာလ်တီမီဒီယာ	-10.3978
▁Qingdao	-10.3978
news	-10.398
▁ကိုမှို	-10.398
ဇီဝ	-10.3988
စာစဉ်	-10.3988
တိုင်းမှာ	-10.3989
▁နှ	-10.3998
ဈေး	-10.4003
4.5	-10.4003
ပို့စ်	-10.4006
ကိုဆကျသှယျရနျ	-10.4007
အပန်းဖြေ	-10.4007
▁ABS	-10.4007
▁auto	-10.4011
3000	-10.4018
တော်မမူ	-10.4026
မြတ်သော	-10.4031
မှန်ဘီလူး	-10.4036
▁Gurgaon	-10.4036
▁VERSION	-10.4036
olone	-10.4038
မီးခွက်	-10.4045
▁Piece	-10.4049
သူအပေါင်းတို့သည်	-10.4055
320	-10.4055
နောက်ထပ်	-10.4056
သည္။	-10.4059
EX	-10.4064
“	-10.4064
နေတုန်း	-10.4065
▁ပင်မစာမျက်နှာ	-10.4066
စီမံခန့်ခွဲ	-10.4067
▁(2)	-10.4073
ပညာရေး	-10.4073
တစ်လျှောက်	-10.4074
စက်မှုဇုန်	-10.4075
ဆစ်	-10.4092
▁BIB	-10.4094
မြောက်ပိုင်း	-10.41
▁သိရှိ	-10.4103
▁တဲတော်	-10.4104
ham	-10.4106
▁Eter	-10.4107
▁မလုပ်	-10.4108
1%	-10.4111
▁Kit	-10.4114
▁Run	-10.4115
arm	-10.4116
▁Royale	-10.4123
▁operating	-10.4123
▁View	-10.4123
အဝါရောင်	-10.4124
4.0	-10.4124
သင်တန်းများ	-10.4125
ကျေးဇူးတင်ပါသည်	-10.4126
ရေတွက်	-10.4127
ဖြစ်သတည်း။	-10.4128
ခန္း	-10.4145
မန်နေဂျာ	-10.4153
စတိုးဆိုင်	-10.4153
inder	-10.4155
ခဲ့ဘူး	-10.4156
ထားပါသည်။	-10.4157
LS	-10.4157
ဘိုးဘေး	-10.4158
▁July	-10.4164
203	-10.4165
သက်သေပြ	-10.4166
380	-10.4168
အညွှန်းကိန်းများ	-10.4169
ကြလော့ဟု	-10.4172
ဝမ်းနည်း	-10.4174
လမ္း	-10.4181
ဗြိတိသျှ	-10.4182
ဟောင်ကောင်	-10.4182
ကြကုန်အံ့	-10.4182
ကင်းလွတ်	-10.4187
နော်။	-10.4188
ရှမွေလသည်	-10.419
▁Val	-10.4191
အရမ်း	-10.4208
ညစ်ညမ်း	-10.4212
နှိမ့်ချ	-10.4212
မီးခိုးရောင်	-10.4212
ဟိုက်ဒရောလစ်	-10.4212
▁ကဲ့ရဲ့	-10.4212
▁micro	-10.4214
▁Crack	-10.4214
ှေး	-10.4215
စပျစ်သီး	-10.4216
yi	-10.4216
မမှန်	-10.4222
ကြတယ်၊	-10.4226
ဖဲ	-10.4227
▁Mor	-10.4227
▁Link	-10.4235
အပ်ချုပ်	-10.4237
▁(1)	-10.4238
ထီ	-10.4239
ဖြစ်သည့်	-10.4241
သြစတြေးလျ	-10.4242
ရေနွေးငွေ့	-10.4242
‘	-10.4242
▁gauge	-10.4242
မောင်းနှင်	-10.4242
အရည်အချင်း	-10.4247
ငံ	-10.4247
ခဲ့တာက	-10.4248
ရှိသမျှတို့ကို	-10.4248
▁အရက်	-10.4254
စတား	-10.4269
ဘဲ၊	-10.4271
▁လေဝိသား	-10.4271
တွေထဲမှာ	-10.4273
OB	-10.4275
▁သာမန်	-10.4276
ဟတ်	-10.4288
ious	-10.4294
မြှင့်	-10.4296
တောင်မှ	-10.4302
ဓား	-10.4303
မြေပြင်	-10.4306
မာန်	-10.4309
ယုံကြည်စိတ်ချရ	-10.4312
▁Real	-10.4313
COM	-10.4314
ဆုိ	-10.4318
ပေးတယ်။	-10.4318
5000	-10.4323
အပေါ်သို့	-10.4334
▁လုပ်နိုင်	-10.4342
cord	-10.4348
▁လုပ်ထား	-10.435
▁Im	-10.4355
မြင့်မား	-10.4358
▁ကျမ	-10.4359
ခရစ္စမတ်	-10.4361
တိုးမြှင့်	-10.4361
ကင်ဗိုလ်ခြေအရှင်	-10.4363
ဆုပ်	-10.4364
▁FM	-10.4365
▁လူကြီး	-10.4369
တွေအများကြီး	-10.437
အသီးသီး	-10.4371
KW	-10.4372
ဥစ္စာကို	-10.4374
▁ပြန်သွား	-10.4378
အလံ	-10.4379
base	-10.4381
ရန်လိုအပ်	-10.4385
ဇ်	-10.4385
လုိ	-10.4389
DI	-10.4391
မိတ်ဖက်	-10.4391
▁York	-10.4391
အနံ့	-10.4392
ကာကွယ်မှု	-10.4393
▁West	-10.4397
▁နေဖြင့်	-10.4405
▁သင်တစ်ဦး	-10.4405
ဂိမ်းများ	-10.441
ရိုက်ကူး	-10.4416
ရှောက်	-10.4417
ခြေရာခံ	-10.4422
လေယာဉ်ပျံ	-10.4422
ကနဦး	-10.4423
▁မူတည်	-10.443
▁ထိုမြို့	-10.4435
အိန္ဒိယ	-10.4437
ခြေထောက်	-10.4439
စျေးဝယ်	-10.4441
အားသွင်း	-10.4447
ယား	-10.4449
စားနပ်ရိက္ခာ	-10.4452
လူမီနီယံ	-10.4452
▁WhatsApp	-10.4452
ခြစ်	-10.4452
ညီလာခံ	-10.4452
▁Print	-10.4452
▁ယေရှုသည်	-10.4457
CAS	-10.4457
များထဲမှ	-10.4458
နှေး	-10.4459
ရှီ	-10.4465
flu	-10.4466
ပြုတ်	-10.4468
အသေးစား	-10.4473
UP	-10.4473
raw	-10.448
ပရိဘောဂ	-10.4482
▁Delivery	-10.4482
▁Hydraulic	-10.4482
နက္	-10.4486
tech	-10.4492
အဖြေ	-10.4504
▁Clamp	-10.4508
စေမည်။	-10.451
မျက်မှောက်	-10.4513
အတှကျ	-10.4513
အံ့သြဖွယ်	-10.4513
သင်္ချာ	-10.4513
▁Frame	-10.4513
▁Sub	-10.4514
ဝင္	-10.4521
▁သင်၌	-10.4529
စွပ်	-10.453
review	-10.4533
မလိုအပ်	-10.4533
ခဲ့သူ	-10.4536
RT	-10.4538
အာရုံစူးစိုက်	-10.4543
▁FileCatalyst	-10.4543
မိတ်ကပ်	-10.4543
တောင်ပေါ်မှာ	-10.4544
အရေပြား	-10.4544
pad	-10.4545
▁ယောဟန်	-10.4546
▁Xbox	-10.4548
RF	-10.4552
၂၈	-10.4564
ပါသည္။	-10.4568
နောက်သို့	-10.4571
ဆိုရင္	-10.4573
ဓာတ်ခွဲခန်း	-10.4574
service	-10.4574
ခေါင်မိုး	-10.4575
ရပ်တည်	-10.459
OC	-10.4592
▁info	-10.4594
တိုင်းပြည်	-10.4596
dic	-10.4598
ကျွန်ုပ်တို့	-10.4603
ဖြောင့်	-10.4603
▁Credit	-10.4605
▁John	-10.4605
▁Network	-10.4605
▁Update	-10.4606
ပို့ကုန်	-10.4607
▁installation	-10.4613
▁QR	-10.4621
6.5	-10.4622
▁တစ်နေ့	-10.4623
မျှော်	-10.4623
င်းရှင်းလင်းလင်း	-10.4637
ပါးစပ်	-10.4642
ender	-10.4645
▁PSA	-10.4645
တော်မူလျှင်၊	-10.4645
▁Ver	-10.4646
ဦးနှောက်	-10.4648
lim	-10.4649
▁၎င်းရဲ့	-10.4654
ေသး	-10.4655
▁King	-10.4663
တနင်္ဂနွေ	-10.4667
ပထမဦးစွာ	-10.4667
app	-10.4668
အစ်ကို	-10.467
စစ်ဆေးမှု	-10.4672
စားသောက်ဆိုင်	-10.4672
anda	-10.4673
rent	-10.4674
250	-10.4677
4.1	-10.468
ျပင္	-10.4684
une	-10.4685
ကလေးများ	-10.4687
ဘုရားကျောင်း	-10.4687
အရေးပါ	-10.4688
ich	-10.4689
ရွေးချယ်စရာ	-10.469
ette	-10.4693
ခံစားမှု	-10.4693
ကော်ပိုရေးရှင်း	-10.4698
ငှားရမ်းခြင်း	-10.4698
စာရေးဆရာ	-10.4699
▁ဤသို့	-10.4706
ကမ္ဘာ့	-10.4706
ရလဒ်များ	-10.4708
ထောက်ပံ့ပေး	-10.4719
dust	-10.4729
▁သူတို့အား	-10.4729
အရသာ	-10.4729
အကြိုက်ဆုံး	-10.4729
ဆော့ဝဲ	-10.4729
အခြေစိုက်စခန်း	-10.4729
▁Track	-10.4732
▁ယူရို	-10.4733
▁လုပ်ကြံ	-10.4741
▁ဆိုပြီး	-10.4741
တူညီသော	-10.4742
တကောင်	-10.4747
ရကြလိမ့်မည်။	-10.4752
ဂျင်း	-10.4756
ဘရာဇီး	-10.476
▁unlimited	-10.476
ဘေးကင်းလုံခြုံ	-10.476
▁Center	-10.476
အမြင့်ဆုံး	-10.476
အချိန်တွင်	-10.4769
ရောက်လာ	-10.4771
mid	-10.4776
လှတဲ့	-10.4777
အနှံ့	-10.4777
ငယ္	-10.4778
လိုအပ်ပါတယ်	-10.4779
ဒု	-10.4781
တွေးမိ	-10.4781
နိမ့်	-10.4787
အီလက်ထရောနစ်	-10.4789
▁Live	-10.4789
ဖြန့်ချိ	-10.4791
≤	-10.4791
▁Clarinet	-10.4791
ခြင်	-10.4802
ရှေ့၌	-10.4804
OL	-10.4807
စာပေ	-10.4813
အလိုတော်	-10.4813
မုတ်	-10.4813
ချင်တယ်	-10.4817
အခြေစိုက်	-10.4822
ပရီမီယံ	-10.4823
အသိုင်းအဝိုင်း	-10.4823
video	-10.4823
Video	-10.4823
▁ကြိုးမဲ့	-10.4824
နေရာချ	-10.4824
တိုးမြှင့်	-10.4825
နုတ်	-10.4825
လေ့ကျင့်ခန်း	-10.4826
သွန်သင်	-10.4828
ဘုရား၊	-10.4836
trip	-10.4846
အောက်ခြေ	-10.4848
▁Che	-10.485
meter	-10.485
မက်ဆေ့ခ်ျ	-10.4854
▁Bottle	-10.4854
ဝေဒနာ	-10.4854
အစီအစဉ်ကို	-10.4855
▁မက်စ်	-10.4857
place	-10.4858
တဆယ်	-10.486
7.5	-10.4862
ရေကန်	-10.487
▁လုပ်နည်း	-10.4871
ပွဲစား	-10.4874
၂၉	-10.4876
တို့က၊	-10.4882
တဘက်	-10.4884
ကမ္ဘာတစ်ဝှမ်း	-10.4886
▁Games	-10.4886
▁Jin	-10.489
pass	-10.4893
▁Super	-10.4895
ဖုန်မှုန့်	-10.4895
RP	-10.4903
ကျေးဇူးပြုပြီး	-10.4904
▁Plan	-10.4908
တံခါးကို	-10.4914
LO	-10.4917
အနုညာတစီရင်	-10.4918
ဖယောင်းတိုင်	-10.4919
ပေးအပ်	-10.4922
▁ဒေတာအရွယ်အစား	-10.4923
ပေါ်သို့	-10.4924
1.8	-10.4929
ဓိ	-10.4931
ဆင္	-10.4932
ပြီးစီး	-10.4933
bot	-10.4936
▁မပြော	-10.4941
သလောက်	-10.4946
လဲဆိုတော့	-10.4948
source	-10.4949
←	-10.495
စက္ကန့်	-10.495
လည်ပင်း	-10.495
မှတဆင့်	-10.495
3.6	-10.4957
စုပ်စက်	-10.4959
၉၉	-10.4959
▁သင်၏ဘုရားသခင်	-10.496
year	-10.4973
ဟောပြော	-10.498
သုတေသီ	-10.4981
ညှပ်	-10.4982
▁ဟုတ်ကဲ့	-10.4982
▁မုသာ	-10.4995
ရမယ္	-10.4996
ှနျ	-10.4999
▁+86	-10.5002
ျပီ	-10.5004
ဘူတာ	-10.5009
မှတ်ချက်	-10.5013
လှုပ်ရှားမှုများ	-10.5013
myanmar	-10.5013
о	-10.5014
▁Module	-10.5014
▁အကယ်၍	-10.5014
လူ့အခွင့်အရေး	-10.5016
▁အန်	-10.5018
ဖြစ်ခဲ့သည်။	-10.5022
ထွင်း	-10.5022
▁ကိုဝယ်	-10.5026
▁2007	-10.503
ကလေးတွေ	-10.5033
လက်တွေ့	-10.5033
▁ပင်မ	-10.5037
ထဲ၌	-10.5037
အသုံးပြုရန်	-10.5038
▁ပေးတော်မူ	-10.504
ကြိတ်စက်	-10.5042
ရမည်ဟု	-10.5045
အနိမျ့	-10.5046
▁Simulator	-10.5046
အတော်များများ	-10.5047
▁Holder	-10.5047
တော်တော်များများ	-10.5048
စီမံခန့်ခွဲ	-10.5052
အရာအားလုံး	-10.5054
အဟောင်း	-10.5065
4.4	-10.507
▁trans	-10.5076
တိရစ္ဆာန်	-10.5077
š	-10.5078
ဒိုမိန်း	-10.5078
လက်စွဲစာအုပ်	-10.5078
အလယ်အလတ်	-10.5078
[4]	-10.5078
▁CBD	-10.5078
ဖိုင်ဘာ	-10.5082
ကျွမ်းကျင်	-10.5084
အေၾကာင္း	-10.5084
ကြလိမ့်မည်ဟု	-10.5084
မိတယ်။	-10.5093
ဖြစ်သည်ဟု	-10.5102
တို့သည်ငါတို့၏	-10.511
▁Africa	-10.511
ဖြည့်စွက်	-10.511
▁iPad	-10.511
ပကတိ	-10.5111
များရယူပြီး	-10.5111
▁Clash	-10.5113
▁လူတွေဟာ	-10.5113
▁ရောမ	-10.5124
ငှားရမ်း	-10.514
စတင်တည်ထောင်ခဲ့	-10.5144
မျော	-10.5145
ပိုကောင်းတဲ့	-10.5151
▁နည်းလမ်းတွေ	-10.5154
carb	-10.5154
test	-10.5162
ector	-10.5163
▁ဒီေတာ့	-10.5163
မည်လော။	-10.517
ဖွဲ့စည်းခြင်း	-10.5172
▁Lock	-10.5174
ယွင်း	-10.5175
ဆယ်ကျော်သက်	-10.5175
အသွားအလာ	-10.5175
▁Moving	-10.5175
▁မှပံ့ပိုးသည်	-10.5175
▁မိုဃ်းကောင်းကင်	-10.5176
ဈေးနှုန်း	-10.5178
120	-10.518
ရှိပါသည်။	-10.5184
right	-10.5192
face	-10.5197
ပြောင်းလဲခြင်း	-10.5199
▁Make	-10.5199
ျဖစ္တယ္	-10.5201
pre	-10.5207
မျက်နှာကို	-10.5208
ခြင်းငှာ	-10.5208
ပျော်မွေ့	-10.5208
▁Metatrader	-10.5208
sulator	-10.5208
တရားမျှတ	-10.5208
▁အမှုတော်	-10.5211
▁နန်းတော်	-10.5213
မွှေး	-10.5215
ချိန်း	-10.5221
အခြေအနေများ	-10.5223
ပတ်ပတ်လည်	-10.5225
ချီးမွမ်း	-10.5225
ရေကြောင်း	-10.5228
လျှပ်	-10.5238
စက္ဏူထူ	-10.5241
ပွါး	-10.5241
▁Copyright	-10.5241
တော်လှန်ရေး	-10.5241
▁server	-10.5241
="7	-10.5241
လမ်းမကြီး	-10.5242
နှင့်အညီ	-10.5243
ပြည့်စုံ	-10.5244
jet	-10.5245
ကျန်ကြွင်း	-10.5247
တောင်တန်း	-10.525
စုံလင်သော	-10.5251
▁သီချင်းဆို	-10.5255
နဲ့တူ	-10.5255
gram	-10.5258
▁hot	-10.5262
ရာခိုင်နှုန်း	-10.5262
bol	-10.527
နေပြီ	-10.5273
အရောင်များ	-10.5273
အလျင်အမြန်	-10.5274
ကြောက်မက်ဘွယ်	-10.5274
▁Pocket	-10.5275
what	-10.5275
သုံးခု	-10.5284
ဂန်	-10.5293
▁သူမရဲ့	-10.5294
▁Nor	-10.5298
▁ခရီးသည်	-10.5299
နောက်ကျော	-10.53
ဆိုက်ကို	-10.5305
SJ	-10.5306
သိသိသာသာ	-10.5307
▁Channel	-10.5307
▁အယ်လ်	-10.5307
သံသယ	-10.5307
▁click	-10.5307
ပြတိုက်	-10.5309
နေကြတာ	-10.5311
long	-10.5313
ၾကား	-10.5314
▁City	-10.5325
3.2	-10.5328
ava	-10.5328
မည်မဟုတ်	-10.5329
၇၀	-10.5332
Option	-10.5332
▁၎င်းသည်	-10.5337
လစာ	-10.5339
၂၀၁၉	-10.534
ခရစ်ယာန်	-10.534
ဓါတ်ငွေ့	-10.534
ville	-10.5343
မည်ဖြစ်သည်။	-10.5352
န်ဆောင်မှု	-10.5355
▁ငါ့အား	-10.5357
ယုတ်	-10.5358
sky	-10.5361
ဖြစ်တယ်။	-10.5363
core	-10.5363
လေပြီ။	-10.5367
သည့်အခါ	-10.5368
ဂရမ်	-10.5373
▁first	-10.5373
▁0086	-10.5375
သွေးဆောင်	-10.538
▁360	-10.5382
▁Hot	-10.5383
တျော	-10.5384
▁HF	-10.5387
ချင်တာက	-10.5388
ဆက်သွယ်ပါ	-10.5389
▁On	-10.5393
ible	-10.5395
ယန်	-10.54
ဆူး	-10.5403
မျိုးစေ့	-10.5404
ကူပွန်	-10.5406
ရုံဆွေးနွေးပွဲ	-10.5406
▁Build	-10.5406
▁Ruizhun	-10.5406
အချည်းနှီး	-10.5406
တင်ဆက်	-10.5406
စည္း	-10.5407
▁String	-10.5409
▁mol	-10.541
အဆင့်ဆင့်	-10.541
ကောင်စီ	-10.5416
ုန်း	-10.5416
▁indicator	-10.5418
နည်းတူ	-10.5424
ful	-10.5426
နှစ်ဆယ်	-10.5432
သားကား	-10.5433
▁အတွဲ	-10.5434
ဟီ	-10.5437
ကြိမ်မြောက်	-10.5438
ဖြန့်ချိ	-10.544
ေယာက္	-10.544
ဲလ်	-10.5441
2000	-10.5441
▁vs	-10.5446
သေးငယ်	-10.5455
ကျော်လွန်	-10.5456
▁ဇူလိုင်	-10.5462
တစ်ရပ်	-10.5464
ပြီးလျှင်	-10.5464
ပင်ပန်း	-10.5468
ပေ။	-10.5468
ဗီယက်နမ်	-10.5473
▁International	-10.5473
အမျက်ထွက်	-10.5474
စွန်း	-10.5474
2.3	-10.5475
အထင်	-10.5486
တောင်ပိုင်း	-10.5487
ရွေးကောက်	-10.5488
ထူးခြားသော	-10.5489
This	-10.5492
▁သင်တို့အား	-10.5495
နှီးမြှုပ်နှံမှု	-10.5496
▁Net	-10.5497
point	-10.5499
တော့ဘူး	-10.5499
305	-10.5502
ဂိမ်းကစား	-10.5504
ငှား	-10.5505
အစိုင်အခဲ	-10.5507
▁Panasonic	-10.5507
ဗွီဒီယို	-10.5507
လိမ္မော်ရောင်	-10.5507
▁ဤရွေ့ကား	-10.5507
ကော်မတီ	-10.5507
ကရိယာ	-10.5507
တကယ္	-10.5508
ဝံ	-10.5508
ကြံစည်	-10.5508
ဆောင်ရွက်မှု	-10.5509
cast	-10.5514
ကောင်းကင်	-10.5514
လတ်	-10.5519
စည်းစိမ်	-10.5522
မိန့်တော်မူ၏။	-10.5523
ဆင်တူ	-10.5526
media	-10.5526
ကျူ	-10.5527
▁Slot	-10.5534
ချင်ပါတယ်။	-10.5536
တုန်ခါ	-10.5541
အကဲဖြတ်	-10.5541
လျက်ရှိ၏။	-10.5543
▁poly	-10.5544
သေဆုံး	-10.5546
▁ကျိန်ဆို	-10.5549
ကလပ်	-10.5549
ထူးခြား	-10.555
ေငြ	-10.5554
ပါမယ္	-10.5556
အစွမ်းထက်	-10.5557
▁Park	-10.556
nor	-10.5565
အောက်ဆီဂျင်	-10.5566
prop	-10.557
ရွေ့လျား	-10.5575
▁Virtual	-10.5575
▁browser	-10.5575
အစစ်အမှန်	-10.5575
ထပ်မံ	-10.5575
အမှတ်တရ	-10.5576
ထောက်လှမ်း	-10.5576
တခါ	-10.5577
▁စာအုပ်များ	-10.5579
▁USA	-10.5584
ကွိုင်	-10.5584
လှေကား	-10.5586
လက်လှမ်း	-10.5588
3.4	-10.5589
▁ကင်	-10.5591
▁TED	-10.5593
tric	-10.5594
စေနှင့်။	-10.5595
ထက်ပိုမို	-10.5597
ပြောနေတာ	-10.5599
ဆေးဘက်ဆိုင်ရာ	-10.5605
ခြုံ	-10.5608
▁August	-10.5609
အင်တင်နာ	-10.5609
▁Square	-10.5609
ချိုင့်	-10.5609
သယ်ဆောင်	-10.5609
တက္	-10.5609
▁Express	-10.561
အနုပညာရှင်	-10.5611
နားမလည်	-10.5612
▁mesh	-10.5612
အရှိဆုံး	-10.5613
print	-10.5614
ယှဉ်	-10.5616
ပါသည်ဟု	-10.5616
တစ်ပုဒ်	-10.5618
▁အလင်းများ	-10.5621
လည်းကောင်း	-10.5624
ရည်အသွေးမြင့်မား	-10.5627
▁ဘန်	-10.5634
ဂျင်	-10.5637
stand	-10.5638
တယ်လီဖုန်း	-10.5643
▁Surface	-10.5643
-08-	-10.5643
ဘာဖြစ်လို့လဲဆို	-10.5645
MHz	-10.5646
▁Blu	-10.5649
▁NFC	-10.5651
အမြင့်ဆုံး	-10.5656
-100	-10.5657
-200	-10.566
ညစ်ညူး	-10.5677
ၿဖစ္	-10.5677
▁Pneumatic	-10.5677
▁password	-10.5677
အယူအဆ	-10.5677
▁ဓာတ်ပုံများ	-10.5682
ကမ္ဘာ့ဖလား	-10.5686
နှစ်ပတ်လည်	-10.571
▁bug	-10.5722
ဒီဂရီ	-10.5723
သလား	-10.5727
▁ဤအမှု	-10.5727
မရှိပါ။	-10.5729
လစ်ယုံကြည်ခြင်း	-10.573
TY	-10.5732
▁Sch	-10.5736
mark	-10.5737
ဖုန်စုပ်	-10.5738
▁Defending	-10.5746
▁ဝါဂွမ်း	-10.5746
html	-10.5746
ကနေတဆင့်က	-10.5746
▁CSGO	-10.5747
▁အမျက်တော်	-10.5747
အမျိုးသမီးများ	-10.5761
နိုင်ငံတကာ	-10.5761
iff	-10.5765
ရင့်	-10.5767
ရဲတိုက်	-10.5771
ပိတ်ထား	-10.5777
အဆိပ်	-10.5778
NO	-10.5779
ခြင်္သေ့	-10.5781
မကြာမီ	-10.5781
မြို့ရိုး	-10.5781
လျှော်	-10.5782
ကုန်ကျ	-10.5783
လုလင်	-10.5785
ခိုက်	-10.5785
▁ယခင်ဆောင်းပါး	-10.5787
▁Korea	-10.5787
စာတမ်း	-10.5792
ပုတီး	-10.5792
/#	-10.5794
ဘူးလေ။	-10.5798
ည့္	-10.58
အပိုင်းအစ	-10.5809
▁သို့သော်လည်း၊	-10.5812
▁Detector	-10.5815
▁input	-10.5818
တင်းထုတ်ပြန်ချက်	-10.5818
ထဲမှ	-10.5819
▁disc	-10.5819
အထဲက	-10.5831
-2018	-10.5842
6.2	-10.5848
google	-10.585
သဘောတူညီချက်	-10.585
▁SKU	-10.585
သတင္း	-10.585
ဒါရိုက်တာ	-10.585
SQL	-10.5851
▁roller	-10.5852
နှစ်မျိုး	-10.5854
သိန်း	-10.5854
တာဝန်ခံ	-10.5854
ဝတ်ဆင်	-10.5859
တော်မူခြင်း	-10.5866
key	-10.5867
▁ဆိုလိုတာက	-10.5871
▁Form	-10.5873
▁Matt	-10.5874
▁Chain	-10.5876
▁Lee	-10.5878
ဗို့	-10.5879
ထာဝရ	-10.588
▁Transposh	-10.5885
အပြုအမူ	-10.5885
စာဖတ်သူ	-10.5886
▁၂၀၁၁	-10.5889
▁devices	-10.5889
ဘမ်း	-10.5891
▁110	-10.59
မျး	-10.5901
ဒီဂိမ်း	-10.5904
အားလုံးဟာ	-10.5909
မဟုတ်ပါ။	-10.5912
အဖွဲ့အစည်းများ	-10.5912
band	-10.5916
ေနာက္	-10.5918
စင်တီမီတာ	-10.5919
mic	-10.592
ဂန္ထဝင်	-10.592
သင်္ဂြိုဟ်	-10.592
စစ်မှန်သော	-10.592
▁button	-10.5921
အစဉ်အလာ	-10.5921
သို႔	-10.5924
ကဲ့သို့၎င်း၊	-10.5925
ဝပ်	-10.5926
သြဇာ	-10.5938
▁ဘာကြောင့်	-10.5939
ခဲ့ဘူး။	-10.5942
လောက်အောင်	-10.5946
တရားရုံး	-10.5949
အူ	-10.595
RL	-10.5951
စိုစွတ်	-10.5955
▁Universal	-10.5955
နှာခေါင်း	-10.5955
▁Display	-10.5956
ရွှေ့ပြောင်း	-10.5958
5.2	-10.5962
▁ကံ	-10.5964
▁State	-10.5968
▁Semi	-10.5969
မိတာက	-10.597
ဂျူး	-10.5973
လက်သို့	-10.598
2.2	-10.5983
▁Dongguan	-10.5991
https	-10.5992
▁ကိုယ့်ကိုယ်ကို	-10.5993
help	-10.5993
ကမ်းခြေ	-10.5994
ကုန်စည်	-10.5996
တွေ့ကြုံ	-10.6001
▁အလည်အပတ်	-10.6003
▁Range	-10.6003
ပုဒ်မ	-10.6012
▁Chang	-10.6016
ရမယ်။	-10.6016
ကျေးဇူးတင်ပါတယ်။	-10.602
ပဋိ	-10.6026
ကြွက်သား	-10.6026
▁ဧရာမ	-10.6026
တော်မူသဖြင့်၊	-10.6027
▁ပညတ်တရား	-10.6029
▁ရနိုင်	-10.6034
ဒါမှမဟုတ်	-10.6038
သတ္တိ	-10.6038
▁သားတော်	-10.6041
unch	-10.6041
တခုကို	-10.6043
အချက်ပြ	-10.6044
123	-10.6046
ext	-10.6052
▁ပညာရှိ	-10.6053
▁လူတွေက	-10.6053
ထုတ်ဖော်	-10.6054
aff	-10.6054
စီမံကိန်းများကို	-10.6057
စိတ်ဖိစီးမှု	-10.6062
▁ယေရှုခရစ်	-10.6062
အကြွေး	-10.6062
နိုင်ရန်အတွက်	-10.6072
ပါလိမ့်မည်	-10.6075
လို႕	-10.6075
ရှေ့နေ	-10.6079
အဘယ်သူ	-10.608
ှင်	-10.6081
ပထမဆုံး	-10.6083
▁ခုနက	-10.6084
▁CF	-10.6093
word	-10.6097
တစ်စိတ်တစ်ပိုင်း	-10.6098
တ္တုများပုံသွန်း	-10.6098
သစ်ကြိုဆိုပွဲ	-10.6098
▁ရောင်းဈေး	-10.6098
လုပျ	-10.6098
▁Intel	-10.6098
လုပ်ငန်းရှင်များ	-10.6099
▁၂၀၁၂	-10.6099
Fran	-10.61
quo	-10.6101
အမှိုက်	-10.6101
▁လုယူ	-10.6102
▁ဗမာ	-10.6104
ျာ	-10.6106
ကောင်လေး	-10.6112
ခေါင်	-10.6115
ဣသရေလ	-10.6119
llow	-10.6122
▁Theme	-10.6122
အလုပ်လုပ်ကိုင်	-10.6131
အချက်များ	-10.6132
ရကြ။	-10.6133
ဆွစ်ဇာလန်	-10.6133
▁Adapter	-10.6133
ဆလင်ဒါ	-10.6133
▁program	-10.6134
လေ့ကျင့်ခန်း	-10.6134
▁31,	-10.6135
▁အသက်ရှူ	-10.6137
မုန်တိုင်း	-10.6138
ချဲ့	-10.6138
သန့်ရှင်းရေး	-10.6142
▁ပြုတော်မူ	-10.6148
အလှကုန်	-10.6153
ထဲမွာ	-10.6159
Ed	-10.6159
▁Mode	-10.6162
▁API	-10.6166
ႊ	-10.6169
▁Cast	-10.6169
ဖွင့်လှစ်	-10.6169
▁Business	-10.6169
▁Fruity	-10.6169
▁September	-10.6169
ခြယ်	-10.6169
▁ထိုင်းနိုင်ငံ	-10.6172
ကြေးနန်း	-10.6172
travel	-10.6173
8.0	-10.6175
အခန်းကဏ္ဍ	-10.6177
လိုလား	-10.6183
ောင့်	-10.6185
ထဲကနေ	-10.6185
ထော	-10.6191
▁လူထု	-10.6194
စီရင်တော်မူ	-10.6195
▁cookies	-10.6197
ရတာက	-10.6204
ဇိမ်ခံ	-10.6205
ပြက္ခဒိန်	-10.6205
ပေါက်ကွဲမှု	-10.6205
▁Class	-10.6208
ဖြုတ်	-10.621
စရာဘို့	-10.6211
house	-10.6211
နူး	-10.6213
ကွင်းဆက်	-10.6214
မပြတ်	-10.6222
▁TV	-10.6224
off	-10.6227
လိမ့်	-10.6228
Ex	-10.6231
home	-10.6235
▁ဘိုးဘေးတို့	-10.6237
var	-10.6238
▁သို့ဖြစ်၍၊	-10.6238
ခရက်ဒစ်	-10.6242
ခိ	-10.6243
▁စိတ်ဝင်စားစရာ	-10.6243
စာရွက်စာတမ်းများ	-10.6245
သောသူဖြစ်	-10.6248
အဖြစ်လူသိများ	-10.6252
လေယာဉ်မှူး	-10.6254
ဂရိတ်	-10.6256
ဂန္	-10.6261
ခေါ်၍	-10.6272
▁Sky	-10.6277
တနင်္လာနေ့	-10.6278
▁Gibbs	-10.6278
▁Music	-10.6278
တ္တိ	-10.6278
နက်နဲ	-10.6283
ခ်ိန္	-10.6285
lord	-10.6287
စားပွဲတင်	-10.6288
▁အဘယ်သူသည်	-10.6296
▁Part	-10.63
နှင့်ပေးသွင်း	-10.6301
▁ရန်သူတို့	-10.6303
နိုင္	-10.6304
▁Para	-10.6308
ပုန်း	-10.6311
ခြင်းဖြစ်သည်။	-10.6313
အယ်လ်ဘမ်	-10.6315
▁Laptop	-10.6315
အလယ်ပိုင်း	-10.6315
ေရႊ	-10.6315
တူးဖော်	-10.6316
အိမ်သို့	-10.632
ဖြစ်အောင်	-10.6322
လက်၌	-10.6323
ပြုံး	-10.6326
well	-10.6328
UR	-10.6331
ella	-10.6332
နွား	-10.6338
cess	-10.6339
▁Book	-10.6343
လီမိတက်	-10.6346
ပြောင်	-10.6351
ဒေါင်းလုဒ်	-10.6351
▁DOWNLOAD	-10.6351
ဖန်တီးမှု	-10.6351
ဝင်ရိုးစွန်း	-10.6351
▁Edition	-10.6353
သည်မဟုတ်။	-10.6354
Internet	-10.636
][	-10.6363
ဒါဝိဒ်	-10.6367
အကြီးစား	-10.6369
train	-10.6375
▁ဘာလဲ	-10.6377
တဲ့အရာ	-10.6379
ဒဏ်ရာ	-10.6383
အကျိုးကို	-10.6385
လေးစား	-10.6388
အမေဇုံ	-10.6388
အဲယားဘတ်စ်	-10.6388
႐	-10.6388
▁Middle	-10.6388
အစားအသောက်	-10.6388
▁DNA	-10.6388
အိပ်ရာဌာနမှူး	-10.6388
▁Select	-10.6389
61%	-10.6392
လယ်ယာ	-10.6397
rus	-10.6397
လက္ကား	-10.6399
အနာဂတ်	-10.641
အာရုံခံ	-10.6424
`	-10.6425
ယော်ဒန်မြစ်	-10.6425
▁Title	-10.6425
▁Edge	-10.6425
ကြမ်းတမ်း	-10.6427
ough	-10.6435
▁ဂေ	-10.6435
based	-10.6438
▁ထိုမိန်းမ	-10.6438
▁Clo	-10.6444
၂၀၂၀	-10.6446
ဘွယ်သော	-10.6446
▁Exp	-10.6448
အစဉ်အဆက်	-10.6453
good	-10.6453
▁မင်္ဂလာရှိ	-10.6458
ခုတ်	-10.6459
သာယာ	-10.6461
и	-10.6462
ငိုကြွေး	-10.6462
ဆွီဒင်	-10.6462
ပရိတ်သတ်	-10.6462
လက်ဝါးကပ်တိုင်	-10.6462
သင်္ချိုင်း	-10.6462
▁South	-10.6463
အသက်ရှင်	-10.6465
အဆင့်မြင့်	-10.6469
▁MH	-10.6477
စုဆောင်းခြင်း	-10.6477
ica	-10.6479
အတတ်ပညာ	-10.6483
ပြစ်	-10.6484
နေ့စဉ်	-10.6488
ရုပ်ပုံ	-10.649
▁cam	-10.6496
ၤ	-10.6499
တှေ့	-10.6499
▁Holmbygden	-10.6499
▁Sheet	-10.6499
▁ကောင်းကင်ဘုံ	-10.65
ရှာဖွေတွေ့ရှိ	-10.6504
ဗော	-10.6505
▁Jul	-10.6519
▁အဲ့	-10.652
ငါတို့သည်သင်တို့	-10.6522
မြင့်မားတဲ့	-10.6525
5.6	-10.6531
▁Machine	-10.6534
ပြဿနာများ	-10.6535
ဗိုင်းရပ်စ်	-10.6536
ဖော်မြူလာ	-10.6536
mobile	-10.6536
▁အုပ်စိုး	-10.6537
ပွင့်လင်း	-10.6537
တင်းကျပ်	-10.6538
proof	-10.6539
ရွိတယ္	-10.654
▁Maxi	-10.6542
ပတ်လုံး	-10.6546
4000	-10.6547
နေကြတဲ့	-10.6549
▁feature	-10.6549
အသိပေး	-10.6556
ဝင်ရိုး	-10.6556
▁Song	-10.6559
ရှိသည်ဟု	-10.6568
е	-10.6574
စံချိန်စံညွှန်း	-10.6574
ရီးရဲလ်	-10.6574
က္ခာ	-10.6574
ရန်ပုံငွေ	-10.6574
▁HGH	-10.6574
▁manual	-10.6574
▁Forward	-10.6575
ကြွေ	-10.6575
ပျား	-10.6577
ကျပန်း	-10.6578
ဂု	-10.6582
စေတော်မူ၏။	-10.6584
ities	-10.6585
4.7	-10.6586
ဘာသာရပ်	-10.6592
အရပ်သို့	-10.6594
▁နှစ်ချက်	-10.6597
1.6	-10.6609
န္႔	-10.6609
ထရေးဒင်း	-10.6611
နိဒါန်း	-10.6611
▁Manager	-10.6611
▁Scooter	-10.6611
Control	-10.6611
အတူတကွ	-10.6612
သာလျှင်	-10.6616
ပြုလုပ်ခြင်း	-10.6629
eep	-10.6629
hang	-10.6631
လက်ထက်	-10.6634
မဟုတ်ဘဲ	-10.6637
▁Fight	-10.6638
▁ရက်တွင်	-10.6639
▁ဒါကတော့	-10.6642
▁Er	-10.6643
ႀ	-10.6649
ရိုနာဗိုင်းရပ်စ်	-10.6649
▁National	-10.6649
facebook	-10.665
အဝတ်လျှော်	-10.6651
▁သတိရ	-10.6656
၃၅	-10.666
နှိပ်စက်	-10.6662
▁ဤနေရာ	-10.6664
Free	-10.6664
ွီး	-10.6669
▁WIC	-10.6675
roll	-10.6679
မြန်ဆန်	-10.6679
စုပ်ယူ	-10.6686
ဘောင်းဘီ	-10.6687
▁Health	-10.6687
အာရုံကြော	-10.6688
ကူးပြောင်း	-10.6697
methyl	-10.6699
အင်္ကျီလက်	-10.671
▁တောင်ကိုရီးယား	-10.6725
▁Smart	-10.6725
▁Mills	-10.6725
▁options	-10.6726
နောက်ပိုင်းတွင်	-10.6727
ပြောရရင်	-10.6732
စကားဝှက်ကို	-10.6732
▁Install	-10.6747
ေန႔	-10.6755
▁10%	-10.6759
အလုံးစုံတို့ကို	-10.676
▁Controller	-10.6763
▁Myo	-10.6764
▁Sim	-10.6766
▁တကယ်တမ်း	-10.6766
လေဆာ	-10.6767
store	-10.6769
▁ဒီနောက်	-10.6772
ေျခ	-10.6772
ဆိုင်ကယ်	-10.6773
▁hard	-10.6783
virus	-10.6794
ပုံတူ	-10.6796
▁30%	-10.6801
ချည်း	-10.6801
ရယ်မောသံများ	-10.6802
အဓိပ္ပာယ်	-10.6802
သည်ကြီးများအသင်း	-10.6802
▁Ultra	-10.6802
ကိုင်ဆောင်သူ	-10.6802
▁ဇိအုန်	-10.6802
ဥပဒေရေးရာ	-10.6802
▁Touch	-10.6804
လက်ထပ်	-10.6806
သူရဲကောင်း	-10.6809
▁IOS	-10.681
ဂတိ	-10.6825
ပထမ	-10.6833
အမြိုး	-10.684
စဉ်ဆက်မပြတ်	-10.684
ဆီလီကွန်	-10.684
ခဲ့ဖူး	-10.6841
အလိုငှါ	-10.6843
တက်တူး	-10.6844
ထိုင်ဝမ်	-10.6846
▁Jet	-10.6846
ယေ	-10.6857
rror	-10.6861
စဥ်	-10.6876
2020	-10.6876
ဘိလပ်မြေ	-10.6879
▁Dedusting	-10.6879
▁about	-10.6879
▁ဖေဖော်ဝါရီလ	-10.6881
ဘာသာပြန်ချက်	-10.6891
ရိုးရှင်းတဲ့	-10.6893
အခွင့်အရေး	-10.691
ကစားစရာ	-10.6915
အလိုအလျှောက်	-10.6917
▁Foundation	-10.6917
ေအာက္	-10.6917
ဖွစျ	-10.6918
ပုံစံများ	-10.6919
▁မြည်း	-10.6922
2.8	-10.6922
▁parameters	-10.6938
ကြိုဆိုပါသည်	-10.6941
ဏ်	-10.6942
utm	-10.6943
ဖြဲ	-10.6946
လယ်ပြင်	-10.6947
လုပ်ဆောင်မှု	-10.6948
▁ကျုပ်	-10.6951
action	-10.6954
တစ်ခုဖြစ်သည်။	-10.6955
လဲလှယ်	-10.6956
စတုတ္ထ	-10.6956
▁Yamaha	-10.6956
ဝါကြွား	-10.6956
!!!	-10.6957
ဖြုန်း	-10.6957
အလုံးစုံ	-10.696
ပါလိမ့်မည်	-10.6962
verse	-10.6975
▁EC	-10.6981
hua	-10.6988
▁သေခြင်း	-10.6989
ဘေးထွက်	-10.6992
▁ဣသ	-10.6995
▁configuration	-10.6995
▁Company	-10.6995
တော်မမူ။	-10.7003
▁350	-10.7009
▁player	-10.7009
မာန	-10.7012
▁Page	-10.7012
ပညာရှင်တွေ	-10.7013
စသည်တို့	-10.7013
="8	-10.7015
ကမ်းလှမ်းချက်	-10.7015
အဆွေ	-10.7026
▁exp	-10.7031
စစ်ဆေးခြင်း	-10.7034
စကျင်ကျောက်	-10.7035
အကာအကွယ်	-10.7035
ပြည်ထဲရေး	-10.7035
ပိုက်ဆံအိတ်	-10.7039
နည်းပြ	-10.704
မာစတာ	-10.7041
ရှိပါက	-10.705
-3-	-10.7054
4.3	-10.7055
အပြောင်းအလဲနဲ့	-10.7058
ဝှမ်း	-10.7074
▁Christ	-10.7074
account	-10.7076
ကိန်းဂဏန်း	-10.7076
▁who	-10.7081
ရမယ့်	-10.7083
တို့ကို၎င်း၊	-10.7084
ရမလဲ	-10.7088
ဘီစီ	-10.7089
ရက်စွဲ	-10.7099
izing	-10.7104
အဖွဲ့ဝင်များ	-10.7111
ေၾကာင့္	-10.7111
1.3	-10.7111
like	-10.7113
စက္ကန့်	-10.7113
▁Router	-10.7114
သလောဟု	-10.7114
▁valve	-10.7114
▁Prepar	-10.7115
လျက်ရှိသည်။	-10.712
ပါလိမ့်မည်။	-10.7124
▁သင်ဒီမှာ	-10.7127
တစ်ဝက်	-10.7129
▁MS	-10.7131
="10	-10.7137
အတွေး	-10.7148
ဘက်တီးရီးယား	-10.7153
▁Affiliate	-10.7153
▁နိုက်ကလပ်	-10.7153
လှူဒါန်း	-10.7153
အိမ်သူအိမ်သား	-10.7153
▁Electromagnetic	-10.7153
▁ဘယ္လို	-10.7153
အကျိုးသက်ရောက်	-10.7154
▁WE	-10.7155
လွင်ပြင်	-10.7156
▁မောဘ	-10.7156
999	-10.7156
အလယ်၌	-10.7156
နဲ့ပတ်သက်ပြီး	-10.7157
▁ချန်ထား	-10.7158
မှီတိုင်အောင်	-10.7161
OU	-10.718
အမှုဆောင်	-10.7188
ကြေငြာ	-10.7193
ဖုန်ဖယ်ရှားရေး	-10.7193
ရွံရှာ	-10.7193
လက်ဝတ်ရတနာ	-10.7193
စံတော်ချိန်	-10.7193
သော့ခတ်	-10.7193
count	-10.7193
မျှော်စင်	-10.7195
ရွတ်	-10.7197
▁mini	-10.72
▁မြင်နိုင်	-10.7204
2015	-10.7206
▁လောကီ	-10.7208
7.1	-10.7212
▁Show	-10.7213
ဖြည်	-10.7217
မီးလောင်	-10.7233
ပွိုင့်	-10.7233
ဆိုပါစို့	-10.7233
အမွှာ	-10.7233
လှပသော	-10.7234
▁Voice	-10.7234
ဟူ၍၎င်း၊	-10.7236
5.7	-10.7239
▁dual	-10.724
ပရိသတ်	-10.724
ကျန်ရစ်	-10.7246
▁Round	-10.7249
ယ်ယူ	-10.7252
▁Note	-10.7256
▁လအတွင်း	-10.7265
တိုက်ခန်း	-10.7267
ather	-10.7268
2.7	-10.727
▁Last	-10.7272
ကော်ပိုရိတ်	-10.7273
ခြင်းမရှိဘဲ	-10.7273
▁ရှန်ဒေါင်း	-10.7273
$24.99	-10.7273
လျှံ	-10.7273
သင့်လျော်သော	-10.7273
စက်မှုလက်မှု	-10.7273
အကြီးအကဲ	-10.7274
▁ခရီးစဉ်လီ	-10.7274
မေ့လျော့	-10.7274
ဘူတာရုံ	-10.7275
ဌာနမှူး	-10.7277
စည်းကမ်းများ	-10.7277
နယ်မြေ	-10.7282
ခဲ့ရင်	-10.7283
Direct	-10.7291
ေလာက္	-10.7295
အစရှိသော	-10.7298
FT	-10.7298
တာပေါ့	-10.73
သတ်မှတ်ထားသော	-10.7309
ေၾကာ	-10.7311
date	-10.7313
အိမ်နီးချင်း	-10.7313
▁ဧဖရိမ်	-10.7313
ပေါ်လစီ	-10.7314
▁KTM	-10.7314
ငြင်းပယ်	-10.7315
▁ဟုတ်တယ်	-10.7316
နီးစပ်	-10.7327
ဖြတ်တောက်	-10.7328
အန်းဒရွိုက်	-10.733
▁Day	-10.7331
EE	-10.7336
လင္း	-10.7339
▁2005	-10.7341
fla	-10.7346
ပရိုတိန်း	-10.7354
ကွပ်မျက်	-10.7354
▁December	-10.7354
▁$1.99	-10.7354
ယှက်	-10.7354
ကောက်ယူ	-10.7358
ခြင်းအမှု	-10.7359
အကြိမ်ရေ	-10.737
▁Union	-10.7371
ရပ္	-10.7372
တိုးတက်လာ	-10.7374
ဧည့်	-10.7375
Myanmar	-10.7376
▁Disc	-10.7378
စောင့်ရှောက်မှု	-10.738
link	-10.738
▁မယုံ	-10.7386
ကျွန်တော်တို့	-10.7387
ထံမှထုတ်လုပ်သူ	-10.7388
ပုံနှိပ်ခြင်း	-10.7389
အမြတ်အစွန်း	-10.7395
ပြောင်းရွှေ့	-10.7401
ဒေါ်	-10.7403
နည်းစနစ်	-10.7409
လှောင်	-10.7409
ပယ်ဖျက်	-10.741
bert	-10.7416
▁ကံကောင်း	-10.742
ION	-10.7422
aung	-10.7433
▁ဖုန်းဘီလ်	-10.7435
▁csgo	-10.7435
မှာထားတော်မူ	-10.7436
field	-10.7438
▁မောရှေအား	-10.7439
ပူဇော်သက္ကာ	-10.7444
▁Master	-10.7447
▁တော၌	-10.7447
သီးသန့်	-10.7448
▁Load	-10.7456
▁Press	-10.7457
▁has	-10.7461
သတ်မှတ်ထား	-10.7466
本	-10.7476
▁Ultrasonic	-10.7476
▁အပိုဒ်	-10.7477
▁မကောင်းသော	-10.7478
စိစစ်	-10.7482
php	-10.7485
▁ကမ္ဘာတစ်လွှားက	-10.7492
▁sub	-10.7492
best	-10.7492
ညွှန်းကိန်း	-10.7494
လက်ဝဲ	-10.7496
▁Coating	-10.7497
စီမံခန့်ခွဲမှု	-10.751
ဖြန့်ဖြူး	-10.7518
ၼ	-10.7518
လှိုက်လှဲစွာ	-10.7518
▁Caribbean	-10.7518
ကြင်နာ	-10.7518
အကြီးမားဆုံး	-10.7518
Hydr	-10.7518
ဖျက်သိမ်း	-10.7523
စီးနင်း	-10.7523
▁coil	-10.7526
အမှု၌	-10.7533
▁ကျောင်းသားတွေ	-10.7536
▁POS	-10.7541
ပြုမူ	-10.7545
ရောင်စုံ	-10.7548
ြီ	-10.7549
ပေါ်ထွန်း	-10.7556
သင်ပေး	-10.7556
direct	-10.7557
ဟာ့ဒ်ဝဲ	-10.7559
လေ့လာကြရအောင်	-10.7559
▁ကယ်တင်တော်မူ	-10.7559
နှင့်အညီ	-10.756
တိကျတဲ့	-10.7562
၃၇	-10.757
ဟွန်	-10.757
ရှေးဟောင်း	-10.757
▁အညွှန်းကိန်း	-10.7577
ရှာရန်	-10.7589
အားလံုး	-10.7599
မြောက်ဘက်	-10.7599
စကေး	-10.7601
ဆိုဒ်များ	-10.7602
ရေအာင္	-10.7604
ရောစပ်	-10.7612
ology	-10.7614
ature	-10.7622
တောင်ဘက်	-10.7623
▁ရက်အတွင်း	-10.7636
ညံ့	-10.7639
ကြလိမ့်	-10.7641
Uncategorized	-10.7642
ဂျမ်ဘို	-10.7642
語	-10.7642
ခကျြ	-10.7642
ဦးစီးဌာန	-10.7642
အပြုသဘော	-10.7643
▁ထို့ကြောင့်	-10.7643
▁ကၽြန္ေတာ္တို႔	-10.7643
ရှိသမျှတို့သည်	-10.7649
ဖို့လိုတယ်	-10.7654
သည့်အခါ	-10.7655
အိပ်ပျော်	-10.7658
သွန်း	-10.7662
▁၎င်းဟာ	-10.7668
paid	-10.7669
ဘယ်လောက်	-10.767
ဖြစ်ရပ်များ	-10.7674
▁ဖြောင့်မတ်သောသူ	-10.7675
စိန့်	-10.768
မှတ်တမ်းများ	-10.7682
လျောက်ပတ်	-10.7684
အစုအဝေး	-10.7684
ချုံ့	-10.7684
သတို့သမီး	-10.7684
ချင်ပါတယ်	-10.7688
ကယ်နှုတ်	-10.7689
▁သိမ်းယူ	-10.769
ဇော	-10.7693
5.9	-10.7696
▁Transfer	-10.7697
သိမ်	-10.7702
ကျည်	-10.7702
ဆီးတား	-10.7702
▁၄င်း	-10.7703
ဂျပန်	-10.7708
ကုထုံး	-10.7714
၁၇	-10.7715
3.1	-10.7716
ဗျာဒိတ်	-10.772
တစ်ကောင်	-10.7725
日	-10.7726
သွပ်ရည်စိမ်	-10.7726
▁Agency	-10.7726
▁Twitter	-10.7726
▁catalog	-10.7726
▁လိမ်လည်	-10.7726
market	-10.7732
burg	-10.7732
တဲ႔	-10.7733
တစ်ခုဖြစ်သည်	-10.7737
▁MIN	-10.7738
▁ဒုက္ခသည်	-10.7739
သွန်	-10.7741
▁ဝတ်ပြု	-10.7744
လို့ခေါ်တဲ့	-10.7744
သေနတ်	-10.7747
ပိတ်ပင်	-10.7749
▁ဒုစရိုက်ကို	-10.776
အင်္ဂါရပ်	-10.7762
ပုံသွင်း	-10.7765
▁Jan	-10.7766
ဖြစ်လိမ့်မည်။	-10.7767
မူးယစ်ဆေး	-10.7768
generator	-10.7768
ဟင်းသီးဟင်းရွက်	-10.7768
▁privacy	-10.7768
▁Silicon	-10.7768
စာရင်းအင်း	-10.7768
▁sales	-10.7768
ပါသေးတယ်။	-10.7768
ႏွင့္	-10.7769
နယ်စပ်	-10.7775
ုန်မြို့	-10.7777
သငယ်	-10.7778
▁ကမိတ္တူးကူးစက်	-10.778
လေယာဉ်ခရီးစဉ်	-10.7781
မိမိကိုယ်ကို	-10.7787
သက်ဆိုင်ရာ	-10.7789
ဂဟေဆော်ခြင်း	-10.7793
ဖြစ်ပေါ်စေ	-10.7799
▁Collets	-10.781
ဈ	-10.781
သန့်စင်	-10.781
ပခုံး	-10.7811
▁discharge	-10.7811
ပဲဖြစ်ဖြစ်	-10.7811
▁Sign	-10.7812
သိုးမွှေး	-10.7816
▁ထိုအမှု	-10.7816
ရပါမယ်။	-10.7816
Sales	-10.782
ပြင်များမဂ္ဂဇင်း	-10.782
အခမဲ့ဂီတ	-10.7822
option	-10.7822
မင်းသမီး	-10.7827
▁ဘာလုပ်	-10.7828
များဖြစ်ကြသည်	-10.7829
ဂိတ်	-10.7833
တန္း	-10.7833
hack	-10.7835
ချင်တယ်။	-10.7842
▁ဖြောင့်မတ်ခြင်း	-10.7842
▁Date	-10.7846
ယ်ရီ	-10.7847
9.00	-10.785
မိန်းကလေး	-10.7851
နှောင်	-10.7851
တုန်လှုပ်	-10.7853
▁electrostatic	-10.7853
အိုမင်း	-10.7854
▁job	-10.7857
အဆိုပြု	-10.7859
▁ရောဂါလက္ခဏာ	-10.7859
FR	-10.7861
ချဉ်	-10.7864
တိုက္	-10.7877
တြက္	-10.7877
လို့ရတဲ့	-10.7884
ရထားလမ်း	-10.7884
▁ဂရိ	-10.7887
ပိုင်ခွင့်	-10.7891
Samitivej	-10.7896
ဂြိုလ်	-10.7896
ချစ်ခြင်းမေတ္တာ	-10.7896
အသိဉာဏ်	-10.7896
[5]	-10.7896
pdf	-10.7896
နံနက်	-10.7901
အေဂျင်စီ	-10.7901
နွမ်း	-10.7906
▁ယနေ့တွင်	-10.7907
▁RZ	-10.7915
▁နှစ်စဉ်	-10.7916
▁Over	-10.7916
ကာလပတ်လုံး	-10.792
တော်မူပါဟု	-10.7921
▁Dual	-10.7927
စီးပွားဖြစ်	-10.7936
အထောက်အကူ	-10.7939
မိဿဟာယ	-10.7939
ချွေတာ	-10.7939
ဖိုရမ်	-10.7939
▁Vjs	-10.7939
▁Djs	-10.7939
တထောင်	-10.794
၂၀၁၈	-10.7949
စစ်တပ်	-10.7951
▁cre	-10.7954
▁နည်းပညာဆိုင်ရာ	-10.7964
တပ္	-10.7965
ဖွယ်ရာ	-10.7966
နှစ်လုံး	-10.797
ချီးမြှင့်	-10.7982
ဒဏ္ဍာရီ	-10.7982
▁Desktop	-10.7982
▁November	-10.7982
▁Screen	-10.7982
▁repaints	-10.7982
အမှုတို့ကို	-10.7982
ရတနာ	-10.7983
လျှာ	-10.7984
8.5	-10.7986
▁နယူးယောက်	-10.7986
class	-10.7986
upload	-10.7987
▁menu	-10.7996
အဓိကအားဖြင့်	-10.7997
ချင်ရင်	-10.7998
="12	-10.7998
ယင်း၏	-10.7999
စုံလင်	-10.802
▁သတိပြု	-10.802
ပို့ဆောင်ရေး	-10.8025
Guangdong	-10.8025
ဆိုဒီယမ်	-10.8025
▁connector	-10.8025
▁မီးရှို့ရာယဇ်	-10.8025
mount	-10.8028
▁string	-10.8031
▁Chat	-10.8033
ရေတပ်	-10.8034
လက်ကောက်	-10.8035
ပိုင်ရှင်များ	-10.8041
ကြီးကြပ်	-10.8041
ြန္း	-10.8046
အရာဝတ္ထု	-10.8046
FF	-10.8059
စာရွက်စာတမ်း	-10.8065
ခွဲခြမ်းစိတ်ဖြာ	-10.8069
ဒင်္ဂါးပြား	-10.8069
ေဖာ္	-10.8069
9.0	-10.807
water	-10.8075
color	-10.8077
▁အဲ့ဒီ	-10.8084
▁ဒီဇင်ဘာလတွင်	-10.8088
အခ်ိန္	-10.8104
6.1	-10.8107
ိုက္	-10.8108
အထီးကျန်	-10.8112
ေျမာက္	-10.8112
с	-10.8112
အတားအဆီး	-10.8112
▁Connector	-10.8112
▁Entertainment	-10.8112
▁Tianjin	-10.8112
ရေချိုး	-10.8114
▁ကောင်တီ	-10.8114
မှီခို	-10.8114
grade	-10.8114
cker	-10.8116
▁enable	-10.8117
ဆက်နွယ်	-10.8119
၆၅	-10.8126
ရောက်ကြည့်ရှု	-10.8126
တိုတောင်း	-10.8126
စဉ်အတွင်း	-10.8128
5.8	-10.8128
▁မင်္ဂလာပါ	-10.8129
ုိင္း	-10.8129
ဝန္	-10.8132
ဝဲ	-10.8139
▁အိမ်ထောင်	-10.8142
ppy	-10.815
ခြံစည်းရိုး	-10.8156
နောက်ဆက်တွဲ	-10.8156
တိုင်းဒေသကြီး	-10.8156
▁Kyaw	-10.8156
သံသရာ	-10.8157
search	-10.8157
အာဟာရ	-10.8159
ကိုးစား	-10.818
အသက်အရွယ်	-10.8181
ဆော့	-10.8182
ဒီဇိုင်နာ	-10.82
ဖောင်ဒေးရှင်း	-10.82
ရိွ	-10.8217
နာမည်ကြီး	-10.8228
စုံတွဲ	-10.8229
ဇစ်	-10.8238
text	-10.8239
å	-10.8244
ဂုဏ်အသရေ	-10.8244
≥	-10.8244
▁Refill	-10.8244
▁သိုးသငယ်	-10.8245
▁ဒါတွေက	-10.8246
လက်ပတ်	-10.8253
ဆက်ကပ်	-10.8265
ကိုရွေးချယ်ပါ	-10.8265
စံပြ	-10.8265
သံမဏိပိုက်	-10.8271
▁Fort	-10.8281
▁လူတစ်ယောက်	-10.8282
▁Development	-10.8289
▁Institute	-10.8289
▁Volume	-10.8289
အဘယ်မှာရှိ	-10.8292
ူကြိုက်အများဆုံး	-10.8295
▁Bio	-10.8296
▁ကာဗွန်သံမဏိ	-10.8307
နှမ	-10.8308
ယောဘ	-10.8309
လျှော့စျေး	-10.8311
▁Geo	-10.8313
VAC	-10.8314
စုံစမ်းစစ်ဆေး	-10.8314
▁အမျိုးသမီးတွေ	-10.8316
▁Comment	-10.8317
ကြီးပြင်း	-10.8318
အသစ်တစ်ခု	-10.8326
ခ်ဳပ္	-10.8333
ညည်းတွား	-10.8333
အတွေးအခေါ်	-10.8333
▁Chrome	-10.8333
ၱ	-10.8333
မို့လို့	-10.8334
အမှတ်အသား	-10.8335
မကြာသေးမီက	-10.8335
ဗုံး	-10.8344
vir	-10.8346
ပေါင်းစုံ	-10.835
▁optional	-10.8353
spir	-10.8362
▁ထိုအရပ်၌	-10.8378
ပလီကေးရှင်း	-10.8378
▁Ultimate	-10.8378
ဍ	-10.8378
▁double	-10.8378
▁Linux	-10.8378
▁တယ်လီနော	-10.8378
ဖှဲ့	-10.8378
▁Truck	-10.838
▁မူပိုင်ခွင့်	-10.838
lect	-10.8386
cheng	-10.8387
cut	-10.8391
????????????????	-10.8395
မလိုအပ်ပါဘူး	-10.8402
▁လွန်ခဲ့သော	-10.841
ဂီတသံ	-10.8417
မီနီယမ်အလွိုင်း	-10.8419
ကျေးရွာ	-10.8426
နူ	-10.8426
အောင်မြင်စွာ	-10.843
စုတ်ယူခြင်း	-10.8469
ဂျာမဏီ	-10.8469
ဒီမိုကရေစီ	-10.8469
ဓါး	-10.8469
ရေကူးကန်	-10.8469
ကွန်ကရစ်	-10.8469
▁မဟုတ်လော။	-10.8469
အဖြစ်အပျက်	-10.8469
သွန်းလောင်း	-10.8469
ဂျေ	-10.847
▁ကြောင့်၊	-10.847
▁၂၀၁၀	-10.8473
▁စိန္	-10.8474
ံုး	-10.8477
▁ယေဘုယျအား	-10.8477
လက်သည်း	-10.8478
စည်းကမ်း	-10.8485
▁၀၁	-10.8488
▁ရေးထား	-10.8489
န်ထမ်း	-10.8489
ရွယ်	-10.8491
ချ်	-10.8495
▁နည်းပညာစိတ်	-10.8497
ခွဲစိတ်	-10.8499
ဒူး	-10.8501
ကင်းရှင်းရေး	-10.8514
ကယ်ဆယ်ရေး	-10.8514
အခ်ိန္ပိုင္း	-10.8515
▁image	-10.8516
▁Mag	-10.8517
အမှောင်	-10.8517
အင်ဗာ	-10.8519
▁Toner	-10.8521
6.3	-10.8533
wood	-10.8536
အကျိုးရှိ	-10.8538
ဖြတ်သန်း	-10.854
dale	-10.8541
▁ဗာဗုလုန်	-10.8544
၇၅	-10.8547
▁Flat	-10.8549
ပေါ်ပေါက်	-10.8549
▁Patch	-10.8556
ဝင်စားစရာသတင်း	-10.856
▁Silver	-10.856
▁Zhong	-10.856
crypt	-10.856
ပေါ့ပါး	-10.8571
ပုံဖော်	-10.8571
2009	-10.8576
▁ငါ့စကားကို	-10.8587
ရေးစင်တာ	-10.8595
▁09:	-10.8598
ေျမ	-10.8599
ဗတ္တိဇံ	-10.8606
အင်တာဗျူး	-10.8606
▁Supply	-10.8606
▁categories	-10.8606
▁machine	-10.8606
ရှုတ်ချ	-10.8606
frame	-10.8606
အဘယ်ကြောင့်	-10.8607
ွိ	-10.861
▁Archived	-10.861
တွင်တည်ရှိသည်	-10.8612
မယ်ဆိုတာ	-10.8635
▁အပြစ်တင်	-10.8643
HZ	-10.8648
ဖြန့်	-10.8649
▁ကွန်ပြူတာ	-10.8652
▁မကြာခင်	-10.8652
ေနာ္	-10.8652
▁တရားစီရင်	-10.868
▁အသင်းတော်	-10.8687
နှင့်ပိုပြီး	-10.8689
т	-10.8698
▁February	-10.8698
▁January	-10.8698
တန္ဖိုး	-10.8698
▁ASTM	-10.8698
အဆင်သင့်	-10.8698
နမ်း	-10.8699
အဲဂုတ္တု	-10.87
အဆောက်အဦးအပြင်	-10.8701
ပိုင်ရှင်	-10.8701
▁Guide	-10.8702
▁နေကြ၏။	-10.8703
-02-	-10.8703
▁optical	-10.8704
ပန်ကာ	-10.8709
ွန်လိုင်းကာစီနို	-10.871
0-3	-10.8711
နှို	-10.8716
ျခားသား	-10.8717
Plane	-10.8722
ဘီယာ	-10.8723
▁Tattoo	-10.8729
စံချိန်	-10.8731
="2.9	-10.8744
တကျိပ်	-10.8744
▁ဓမ္မသစ်ကျမ်း	-10.8744
ငှေ	-10.8744
▁ဧဒုံ	-10.8744
လေဟာနယ်	-10.8745
စွမ်းအင်သုံး	-10.8749
လိုအပ်ပါတယ်။	-10.8754
္ဆိုလွ်င္	-10.8759
ပျက်ကွက်	-10.876
▁Model	-10.8764
မြင့်တက်	-10.8766
ENT	-10.8775
-4-	-10.8789
▁အရပ်ရပ်	-10.8789
စူး	-10.8791
သန္ဓေ	-10.8791
မိုးရွာသွန်းမှု	-10.8791
▁ညဉ့်	-10.8791
အိုင်ပက်	-10.8791
▁UTC	-10.8791
kHz	-10.8791
အခွင့်အလမ်း	-10.8791
▁AUD	-10.8791
စနေနေ့	-10.8792
▁unit	-10.8796
ကပြောပါတယ်	-10.8797
▁Share	-10.8802
▁ပညတ်တော်	-10.8806
▁လွှတ်ပေး	-10.8816
5.00	-10.8821
အိမ်ရှင်	-10.8827
စတူဒီယို	-10.8838
ထြက္	-10.8838
▁original	-10.8838
▁Bahasa	-10.8838
သွပ်	-10.8838
စွန့်စားမှု	-10.8838
သတိပေးချက်	-10.8839
▁အသရေ	-10.884
စောစော	-10.884
▁Spring	-10.8841
သတ်မှတ်ထားတဲ့	-10.8847
သင့်လျော်	-10.8848
hydro	-10.8848
နည်းပါး	-10.886
▁Tank	-10.8863
range	-10.8864
ရသောအခွင့်	-10.8864
မြို့သားတို့	-10.8866
ဂျုံ	-10.8875
မီးရထား	-10.8882
အစီရင်ခံ	-10.8884
ႇ	-10.8885
▁Button	-10.8885
▁Daily	-10.8885
japan	-10.8885
▁Two	-10.8887
အနောက်ဘက်	-10.8887
ၾကည့္	-10.8888
ကြမ်းခင်း	-10.889
အလုပ	-10.889
▁အားထုတ်	-10.8891
၅၀၀	-10.8893
▁ကျွန်တော်တို့ဆီ	-10.8895
▁နေ့တိုင်း	-10.8896
ဘရိတ်	-10.8899
▁မြောက်အမေရိက	-10.8899
▁ကိုယ်တော်ကျွန်	-10.89
၉၅	-10.89
5.3	-10.8908
စေခြင်းငှါ၎င်း၊	-10.8909
ညို	-10.8914
သိပ်သည်းဆ	-10.8931
ခြိမ်းခြောက်	-10.8933
တွေကအဘို့အဘိဓါန်	-10.8933
နှောင့်ရှက်	-10.8933
အခွင့်အရေး	-10.8933
လှဲ	-10.8933
ျမန္	-10.8935
="2.8	-10.8937
ကျူးလွန်	-10.8939
ျဖစ္ပါတယ္။	-10.894
သဘာဝပတ်ဝန်းကျင်	-10.8942
မြင်လျှင်၊	-10.8945
လုပ်နေတာ	-10.895
ပဲလေ။	-10.8951
သည့္	-10.8952
ဖါ	-10.8955
SPY	-10.8964
ဗေလ	-10.8966
▁Blog	-10.8974
လိုဂို	-10.8976
နှီး	-10.8978
▁မြို့ရိုးကို	-10.8978
▁Horizon	-10.898
▁Ninja	-10.898
တောင်တက်	-10.898
▁Extract	-10.8981
▁ဆိုသည်မှာ	-10.8981
ျဖင့္	-10.8982
လွတ်မြောက်	-10.8992
ဂဟေဆော်	-10.9
▁လစဉ်	-10.9002
အမည်ရှိသော	-10.9008
သန့်ရှင်း	-10.9016
▁Chen	-10.9018
▁Mod	-10.9023
Count	-10.9025
အာမခံချက်	-10.9026
ဂလားပင်လယ်အော်	-10.9028
င်းလွယ်ပြင်လွယ်	-10.9028
ကဲ့သို့၎င်း	-10.9028
▁ကုန်အမှတ်တံဆိပ်	-10.903
▁Process	-10.903
ေဆး	-10.9033
▁Money	-10.9034
▁ဗျာဒိတ်တော်	-10.9035
▁ဗြိတိန်နိုင်ငံ	-10.9049
ခွင့်ပြုချက်	-10.9052
▁ဆိုကြ၏။	-10.9056
ွမ်း	-10.9058
ရှုပ်	-10.9068
3.7	-10.9073
saveatrain	-10.9076
ဘုရားသခငျ	-10.9076
ဆြဲ	-10.9076
သဏ္ဌာန်	-10.9076
▁seekers	-10.9076
ယာယီ	-10.9076
▁ထိုအရပ်	-10.9076
▁နုိင္ငံ	-10.9076
အပူပေးစက်	-10.9077
အဆင်သင့်	-10.9077
▁syn	-10.908
ဖြစ်ရပ်မှန်	-10.908
▁တော်တော်	-10.9085
1,000	-10.9085
▁ထိုနည်းတူ	-10.9086
ique	-10.9093
ကြံ့ခိုင်ရေး	-10.9095
▁အဲ့ဒါ	-10.9096
ယုန်	-10.9099
ပုံတစ်ပုံ	-10.9105
▁Jose	-10.9107
ဖုတ်	-10.9107
မျက်မှန်	-10.9107
ဘုတ်	-10.911
ုိင္	-10.9113
р	-10.9124
♪	-10.9125
▁Terminal	-10.9125
▁which	-10.9125
▁ရန္ကုန္ျမိဳ	-10.9125
ပရောဂျက်	-10.9125
▁အမည်ပေးထားသော	-10.9125
အင်ပါယာ	-10.9125
▁Transformer	-10.9125
▁network	-10.9125
▁Green	-10.9125
	-10.9125
▁Audi	-10.9131
ကၽြ	-10.9132
▁ရုပ်ပိုင်း	-10.9132
ဆင်းသက်လာ	-10.9133
▁India	-10.9133
အမည်ဖြင့်	-10.9135
ကပ်ရောဂါ	-10.9135
ီယို	-10.9137
charge	-10.9137
▁တစ်ကမ္ဘာလုံး	-10.9141
▁FOR	-10.9147
ဂျို	-10.9148
စမ်းသပ်ချက်	-10.9164
ဂျွန်	-10.9168
▁APP	-10.9171
ဖော်ရွေ	-10.9173
ဗီတာမင်	-10.9173
▁Karnar	-10.9173
▁shoppingdirect	-10.9173
▁variable	-10.9173
ရှောင်ရှား	-10.9176
▁ရောဂါကူးစက်	-10.9176
▁Club	-10.9177
▁Hotel	-10.918
bio	-10.9183
▁ရောင်းမည်	-10.9184
▁လူအပေါင်းတို့	-10.9184
▁FOB	-10.9185
▁ကြားပြော	-10.9188
ဖြေရှင်းနည်း	-10.919
လို့ရပါတယ်	-10.9198
="3.9	-10.9198
▁ထိုသခင်	-10.9198
အလျောက်	-10.9222
ဘွိုင်လာ	-10.9222
=5.0.6	-10.9222
ၵ	-10.9222
United	-10.9222
9.5	-10.9223
ငြင်းခုံ	-10.9224
ချေးငွေ	-10.9229
▁made	-10.9232
တိုက်ဖျက်	-10.9239
အဖြစ်ကောင်းစွာ	-10.9243
▁GBP	-10.9247
5,000	-10.9248
ဘော့	-10.925
▁ငါ၏လူ	-10.9251
မသိဘူး	-10.9255
move	-10.9255
▁Mass	-10.9265
▁ပြီးရင်	-10.9266
▁ဘော်ပြ	-10.9268
ခရမ်းလွန်	-10.9271
ဖွငျ့	-10.9271
ဘလူးတုသ်	-10.9271
လေအေးပေးစက်	-10.9271
▁Directory	-10.9271
▁desktop	-10.9271
▁Plug	-10.9271
စတစ်ကာ	-10.9271
ဟန်ပြ	-10.9274
ဆိုးဝါး	-10.9277
▁Create	-10.9281
တန်းဆာ	-10.9281
▁မော်ဒယ်နံပါတ်	-10.9285
="2.1	-10.9286
ဥ်	-10.9297
install	-10.9306
မိုဃ်း	-10.9306
အစ်မ	-10.9316
Φ	-10.932
ၿမန္မာအိမ္ၿခံေျမ	-10.932
▁Active	-10.932
စားသုံးမှု	-10.9321
▁တစ်ယောက်ယောက်	-10.9324
၃၆	-10.9327
လယ်သမား	-10.9329
▁Feb	-10.9337
လျှော	-10.934
="3.8	-10.9348
▁ယုဒလူတို့	-10.9357
»	-10.9362
ဖယောင်း	-10.9368
▁ယဇ်ပူဇော်	-10.937
အင်္ဂလန်	-10.937
အလုံးအရင်း	-10.937
အိုလံပစ်	-10.937
▁Catalog	-10.937
▁Hospital	-10.937
▁October	-10.937
▁University	-10.937
′′	-10.937
world	-10.937
▁CPU	-10.937
▁Work	-10.937
တှငျ	-10.937
▁၂၀၀၈	-10.9371
self	-10.9372
▁ဆင့်ဆို	-10.9379
ခေတ်မီ	-10.9382
ဘတ်စ်ကား	-10.9388
စြာ	-10.9391
ပိုမြန်	-10.9403
▁Bank	-10.9403
ethyl	-10.9405
▁God	-10.941
ချမ်း	-10.9415
မတော်တဆ	-10.9419
▁ASME	-10.9419
xBet	-10.942
သာသနာ	-10.942
ဧဝံဂေလိတရားကို	-10.942
▁ဒါေၾကာင့္	-10.9423
မေးလ်	-10.9428
ငြိမ်းချမ်းရေး	-10.943
ဧည့်	-10.9434
▁Head	-10.9434
ပြတ်သား	-10.9444
ထက်သာ၍	-10.9445
အစုလိုက်	-10.9446
▁Forge	-10.9455
ဆန္ဒပြ	-10.9467
ပရိုမိုးရှင်း	-10.9469
ေျမွာက္	-10.9469
သီအိုရီ	-10.9469
ဥပုသ်နေ့	-10.9469
▁fixed	-10.9469
العربية	-10.9469
13485	-10.947
▁brush	-10.947
မူးယစ်ဆေးဝါး	-10.947
အလွန်အမင်း	-10.947
ေစ်း	-10.9471
စားသုံးသူ	-10.9472
▁Megan	-10.9472
Casino	-10.9475
▁VPN	-10.9481
ရိုးရှင်းစွာ	-10.9481
▁ဟုခေါ်	-10.9481
တိကျစွာ	-10.9485
="3.0	-10.9487
ေတြ႕	-10.9489
မြေမှုန့်	-10.9501
ရိုသေ	-10.9502
▁semi	-10.9505
▁၃၁	-10.9506
room	-10.951
တစ်ခါတစ်ရံ	-10.952
အဘယျသို့	-10.952
မှုဖြစ်စေခဲ့ပြီး	-10.952
ဝါသနာ	-10.952
ိမ်မွေးတိရစ္ဆာန်	-10.952
တာဝန်ထမ်းဆောင်	-10.952
▁Htet	-10.952
ဆယ်စုနှစ်	-10.952
ဖြန့်ဝေ	-10.9521
အပိုဆောင်း	-10.9521
▁next	-10.9522
▁OFF	-10.9524
အကျိုးအမြတ်	-10.9525
▁dpi	-10.9526
ထွက်ခွာ	-10.953
9.2	-10.9537
၄၉	-10.9546
▁အခြားသူတွေ	-10.9553
ဆွေး	-10.9562
«	-10.957
နိမိတ်လက္ခဏာ	-10.957
ိုသြဒိနိတ်အချိန်	-10.957
▁အင်မတန်	-10.957
support	-10.957
▁ကောင်းပြီ၊	-10.957
တရားသူကြီး	-10.9571
တိတ်ဆိတ်	-10.9571
ချိန်းတွေ့	-10.9573
တံဆိပ်ခတ်	-10.9574
▁Design	-10.9574
စည်းရုံး	-10.9577
▁join	-10.9581
6.9	-10.96
life	-10.961
-07-	-10.961
ရုန်းကန်	-10.9621
▁ROOM	-10.9621
▁Teflon	-10.9621
အပေါ်ယံပိုင်း	-10.9621
အဘယ်သူမျှမအပ်ငွေ	-10.9621
▁Visual	-10.9621
သောမတ်စ်	-10.9621
ဦးစားပေး	-10.9623
▁Leave	-10.9625
1.4	-10.9625
လှည့်လည်	-10.9627
ဖုံးအုပ်	-10.9628
5.4	-10.963
▁Relay	-10.9631
အလျှင်း	-10.9632
အဆိုတော်	-10.9633
▁Santa	-10.9634
Color	-10.9643
သူ့ရဲ့	-10.9648
အဘိဓါန်	-10.9648
▁ဖိလိတ္တိလူတို့	-10.9661
ေၾကာင္း	-10.9665
သွယ်	-10.9665
အော်ဂဲနစ်	-10.9672
▁Specification	-10.9672
▁quotes	-10.9672
စပီကာ	-10.9672
▁ကြေးနီ	-10.9674
▁Safe	-10.9678
ယွမ်	-10.9684
၄၇	-10.9693
7.2	-10.9706
▁Job	-10.9717
စားဆင်ယင်	-10.9723
လျှက်	-10.9723
▁window	-10.9723
▁ဂျိမ်း	-10.9723
အာမင်	-10.9724
ဒီဇိုင်းရေးဆွဲ	-10.973
▁ဘွားမြင်	-10.9731
="1.2	-10.9739
▁ထာဝရဘုရားကလည်း၊	-10.9748
၀ါ	-10.9751
2.9	-10.9764
တုပ်ကွေး	-10.9775
မိုးသည်းထန်စွာ	-10.9775
အခက်အခဲ	-10.9775
▁Technology	-10.9775
ေက်ာ္	-10.9775
▁တစ်ခါတစ်လေ	-10.9775
▁တစုံတယောက်	-10.9775
ပိတ်ဆို့	-10.9775
▁Apk	-10.9775
ချည်နှောင်	-10.9775
chloro	-10.9775
အတန်းအစား	-10.9778
▁မျိုးစိတ်	-10.9783
ငွေပေးချေ	-10.9784
▁rated	-10.9784
ဘူးဆိုရင်	-10.9789
="3.1	-10.9819
▁ရုပ်သံ	-10.9823
ကွိုဆို	-10.9827
ဆိုးရွား	-10.9827
▁Blade	-10.9827
လူတန်းစား	-10.9827
▁Nxt	-10.9827
position	-10.9827
▁(2015)	-10.9827
ထုတ်လွှင့်	-10.983
="1.4	-10.983
ဇနီး	-10.9838
ART	-10.9844
စွဲလမ်း	-10.9852
ဂေး	-10.9855
="15	-10.9859
="1.7	-10.9874
သဘာပတိ	-10.9879
▁OHSAS	-10.9879
ထောကျပံ့	-10.9879
နံ့သာပေါင်း	-10.9879
▁Amazon	-10.9879
▁pixel	-10.9879
▁ဂိလဒ်	-10.9879
Private	-10.9879
▁ratings	-10.9879
▁စတုရန်းမီတာ	-10.9879
0.000	-10.9881
▁fiber	-10.9882
▁detect	-10.9883
သော်၎င်း၊	-10.9884
6.8	-10.9886
7.0	-10.9899
ဝီ	-10.9905
တကားဟု	-10.9915
="1.8	-10.9918
1.7	-10.9926
ဥက္ကဋ္ဌ	-10.9931
▁Kawasaki	-10.9931
▁Template	-10.9931
▁modified	-10.9931
▁စင်ကာပူ	-10.9931
▁Hunter	-10.9931
▁ဆိုက်ကိုမြေပုံ	-10.9931
မှည့်	-10.9931
ျမိဳ	-10.9931
▁Feature	-10.9932
မျက်တောင်	-10.9951
ပန်းတိုင်	-10.9964
ssa	-10.997
▁Window	-10.9974
ထိမ်းအမှတ်တံဆိပ်	-10.9979
လိပ်ပြာ	-10.9983
စင်္ကာပူ	-10.9984
လုပ်ထုံးလုပ်နည်း	-10.9984
▁Converter	-10.9984
2005-2018	-10.9984
ခြဲ	-10.9984
သန့်စင်	-10.9984
▁ထိုမှတပါး၊	-10.9984
▁Type	-10.9984
▁Poker	-10.9985
="1.6	-10.9987
▁Options	-10.9996
▁WHO	-10.9998
သော့ချက်	-11.0001
▁ဗာဗုလုန်မြို့	-11.0002
ပုဒ်	-11.0002
ငတ်	-11.0004
="2.2	-11.0008
▁imp	-11.0022
ိလူ၊	-11.0034
6.6	-11.0035
н	-11.0037
▁protocol	-11.0037
▁Computer	-11.0037
▁Penny	-11.0037
▁Burner	-11.0037
▁Cutter	-11.0037
▁Harris	-11.0037
▁အစဉ်မပြတ်	-11.0037
ဆိုလိုသည်မှာ	-11.0037
▁Image	-11.0039
active	-11.0048
▁ဧည့်သည်	-11.0063
ဂျူ	-11.0081
ဆော့ဗ်ဝဲ	-11.009
▁ရုတ်တရက်	-11.009
လက်ဗွေ	-11.009
အတိုကောက်	-11.009
ပုံသဏ္ဍာန်	-11.0093
ဓာတုဗေဒ	-11.0094
တီးဝိုင်း	-11.0094
ဒြပ်ပေါင်းများ	-11.0095
▁ဘာသာရေး	-11.01
ရုပ်သိမ်း	-11.0101
နားကြပ်	-11.0102
အာဏာပိုင်	-11.0124
ယွန်	-11.0129
န်းကျင်	-11.0135
▁iPod	-11.0143
▁supply	-11.0143
▁မစင်ကြယ်	-11.0143
ဖြီး	-11.0143
Function	-11.0143
စည်းကမ်းချက်များ	-11.0145
9.1	-11.0145
▁Single	-11.0147
Burma	-11.0147
တွဲဖက်	-11.016
▁chat	-11.0164
နှင့်ဆိုင်သော	-11.0169
▁မြေအောက်	-11.0182
="2.0	-11.0183
ပရောဖက်	-11.0184
ရမှာပါ။	-11.0184
▁ငွေပေးချေမှုရမည	-11.0194
အေးဂျင့်	-11.0197
လိမ့္မယ္	-11.0197
စိမ်းလန်း	-11.0197
▁Deduster	-11.0197
▁FREE	-11.0197
▁ရူပီး	-11.0197
ႏုိင္	-11.0198
▁Shell	-11.0203
စရာမလို	-11.0203
▁မိန့်တော်	-11.0207
▁also	-11.0207
="0.2	-11.0216
မူဘောင်	-11.0217
အသုံးပြုကြသည်	-11.0235
တတိယ	-11.0246
ဂရပ်ဖစ်	-11.0251
ပလာနှင့်ဆိုင်သော	-11.0251
▁III	-11.0251
အိမ္	-11.0251
▁Media	-11.0255
▁Flash	-11.0255
ကော်ဇော	-11.0255
▁ပြည့်နှစ်	-11.0255
အထိမ်းအမှတ်	-11.0257
6.7	-11.0293
ကနျြးမာရေး	-11.0305
အင်ဒိုနီးရှား	-11.0305
ဗုဒ္ဓ	-11.0305
▁Azure	-11.0305
မူလစာမျက်နှာ	-11.0307
Rider	-11.0312
▁မြန်မာဘာသာ	-11.0316
▁အံ့ဖွယ်	-11.0319
အဆိုအရ	-11.0326
လွှတ်ပေးရန်	-11.0345
ကုန်သည်များ	-11.0349
ဂိုဒေါင်	-11.036
သရဖူ	-11.036
▁Misslamode	-11.036
▁terminal	-11.036
▁School	-11.036
▁ZAW	-11.036
▁တည္ေနရာ	-11.036
parser	-11.036
▁ယေရှုကလည်း၊	-11.0361
▁Talk	-11.0364
ရှားပါး	-11.0367
body	-11.0367
JPY	-11.0368
Trade	-11.0371
ရောင်းဝယ်	-11.0374
ရုရှား	-11.0376
huang	-11.0377
="2.6	-11.0378
CHF	-11.0379
8.4	-11.0381
7.6	-11.0386
မီးသီး	-11.0402
လမ်းညွှန်ချက်	-11.0403
တွန်	-11.0406
="1.9	-11.0407
▁စားသောက်	-11.041
ဖျေါပွခကျြ	-11.041
ဖြည့်စွက်	-11.0415
ႏႈန္း	-11.0415
STORE	-11.0415
ဗိုင်းလိပ်တံ	-11.0415
▁Decoration	-11.0415
▁Jiangsu	-11.0415
▁ကြည့်ရန်ပို	-11.0415
▁အမ်ဳိးအစား	-11.0415
နှုတ်ခမ်း	-11.0415
လက်ခုပ်	-11.0415
18001,	-11.0415
ငြိမ်ဝပ်	-11.0415
ပုလဲ	-11.0415
▁Self	-11.0417
အားသွင်းကိရိယာ	-11.0418
What	-11.0418
▁Clear	-11.0419
-04-	-11.0419
▁Review	-11.0422
="2.7	-11.0422
▁ဖိလိတ္တိ	-11.0427
အမှုန့်	-11.0427
▁မြေကြီးပေါ်မှာ	-11.0428
ငို	-11.0432
ဂ္ဂ	-11.0437
9.7	-11.0438
High	-11.0469
ခေါ်ဝေါ်	-11.047
▁elastic	-11.047
▁ไทย	-11.047
▁silicon	-11.047
Trió	-11.047
စိတ်တိုင်းကျ	-11.0471
ဝီကီ	-11.0471
▁နက်ဖြန်	-11.0472
cycle	-11.0473
▁Package	-11.0474
ဆောင်ပုဒ်	-11.0475
ဇာတ်လမ်းတွဲ	-11.0475
အရေးယူ	-11.0479
စားပွဲပေါ်မှာ	-11.048
ဟောငျး	-11.0485
▁ကြ်န္ေတာ္	-11.0485
▁Collector	-11.0526
ေဆာက္	-11.0526
General	-11.0526
▁ငြိမ်ဝပ်စွာ	-11.0526
▁တိတ်ဆိတ်စွာ	-11.0526
▁CEO	-11.0528
ပရိုဖိုင်း	-11.0529
ဒြပ်စင်	-11.0529
▁ဘုန်းကြီး	-11.0529
အဘိဥာဏ်ဖတ်	-11.053
ေမး	-11.0543
ဥပဒေကြမ်း	-11.0544
စာရင်းသွင်း	-11.0561
တားမြစ်	-11.0565
▁အသေခံ	-11.0573
အပ်ချုပ်စံနမူနာ	-11.0582
▁Advertising	-11.0582
▁Telenor	-11.0582
▁မထီမဲ့မြင်	-11.0582
mission	-11.0582
ဖလှယ်	-11.0582
အသံုးျပဳ	-11.0582
စနစ္	-11.0583
="4.0	-11.0586
လုိက္	-11.0587
▁ဤသူသည်	-11.059
Order	-11.0591
စိတ်ဝိညာဉ်	-11.0592
ပါးလွှာ	-11.062
ference	-11.0625
9.8	-11.0632
-03-	-11.0633
လွှင့်	-11.0637
ပဟေဠိ	-11.0638
▁building	-11.0638
▁PayPal	-11.0638
▁ဧလိယ	-11.0638
▁မလေးရှား	-11.0638
ရပ်တန့်	-11.0638
လွန်အစွမ်းထက်တဲ့	-11.064
▁ယုဒရှင်ဘုရင်	-11.0641
ပံုစံ	-11.0641
▁Trend	-11.0642
အခြေပြု	-11.0642
သည်တကား။	-11.0646
▁အချိန်ဇုန်	-11.0646
7.9	-11.0669
ကယ်လွှတ်	-11.0678
မှတ်တိုင်	-11.0693
မ်ဳိး	-11.0694
အံ့သြစရာ	-11.0694
▁Trenbolone	-11.0694
▁ပွောငျး	-11.0694
လက်ဖက်ရည်	-11.0694
တုရုမြို့	-11.0694
ပါမောက္ခ	-11.0694
▁မြည်တမ်း	-11.0694
▁HIV	-11.0694
▁HTUN	-11.0695
သည်မဟုတ်လော။	-11.0695
GHz	-11.0695
▁after	-11.0695
ထုတ်လွှင့်	-11.0697
သောစိတ်နှင့်	-11.0699
ပစ်ခတ်	-11.0704
▁Rich	-11.0725
ပေါ့ဗျာ။	-11.073
စင်ကြယ်စေ	-11.0739
အဆင့်မြှင့်	-11.0746
▁developer	-11.0751
14001,	-11.0751
ယူနိုက်တက်	-11.0751
▁Plastic	-11.0751
▁Yangon	-11.0751
အပြီးအစီး	-11.0751
▁electro	-11.0751
ရပ်တန့်	-11.0751
အပေါ်အခြေခံပြီး	-11.0751
ပြန်အမ်း	-11.0752
▁Water	-11.0752
▁House	-11.0755
အလုပ်မလုပ်	-11.0756
▁စားစရာ	-11.0759
▁online	-11.0759
များသောအားဖြင့်	-11.0763
ability	-11.0766
အမည်မသိ	-11.0783
="1.3	-11.0784
စေ့ဆော်	-11.0808
ရူပါရုံ	-11.0808
မည်သူမဆို	-11.0808
ဤမျှလောက်	-11.0808
အက်တမ်	-11.0809
▁လူအများ	-11.0809
ဓာတုပစ္စည်း	-11.0812
ကြည်လင်	-11.0812
ရေးသားချက်များ	-11.0814
▁ကရုဏာတော်	-11.0816
1.9	-11.0823
▁စာသင်	-11.0835
အကျိုးဆောင်	-11.0844
ကာစီနိုဂိမ်း	-11.0848
၆၇	-11.0849
အများကြီးပို	-11.085
bility	-11.0851
performance	-11.0866
ပြဌာန်း	-11.0866
အံ့အားသင့်	-11.0866
▁အီးမေးလ်ပို့ရန်	-11.0866
စာကြည့်တိုက်	-11.0866
ological	-11.0866
project	-11.0866
▁နတ်ဆိုး	-11.0867
ျဖင့္	-11.0867
▁ရွေးနှုတ်	-11.087
▁URL	-11.0871
ကုမ္ပဏီလီမိတက်	-11.0874
blast	-11.0895
ဖိုင်တွဲ	-11.0906
ကြမှာပါ။	-11.0919
နယူးဇီလန်	-11.0924
guardian	-11.0924
သန့်ရှင်းစင်ကြယ်	-11.0924
▁Electro	-11.0924
▁Youtube	-11.0924
မူလတန်း	-11.0924
ကနေတဆင့်	-11.0924
ဝယ်လိုအား	-11.0924
အင်ဖို	-11.0926
cross	-11.0926
▁ဣသရေလရှင်ဘုရင်	-11.0927
▁flat	-11.0927
သိမ်းဆည်းထားပါ	-11.0931
index	-11.0934
▁နိုင်လွန်	-11.0939
ယုဒ	-11.0949
အစုလိုက်အပြုံ	-11.0954
ဆုံးရသတင်းများ	-11.0955
▁လို့ခေါ်	-11.0967
3.9	-11.0973
အကြီးအ	-11.0976
ကယ်လီဖိုးနီးယား	-11.0982
ဟေဇကိ	-11.0982
▁Facility	-11.0982
▁ငွေလဲနှုန်း	-11.0982
▁နောက်ခံပုံများ	-11.0982
ဆွေမျိုး	-11.0982
▁Device	-11.0982
နှောင်းပိုင်း	-11.0982
▁Charter	-11.0982
စာကြည့်တိုက်	-11.0982
▁Serial	-11.0982
မရှိမဖြစ်လိုအပ်	-11.0982
▁check	-11.0983
ဝန်ကြီးချုပ်	-11.0987
▁မေးလျှောက်	-11.0988
ရက်ပတ်လုံး	-11.0989
▁ကူးစက်ရောဂါ	-11.099
▁Edit	-11.0993
▁Point	-11.0993
8.2	-11.0999
ကြစေ။	-11.1004
·	-11.1012
လွှင့်	-11.1037
ا	-11.104
ဖန်မျှင်ထည်	-11.104
▁saxophone	-11.104
▁number	-11.104
▁တစ်ကိုယ်တော်	-11.104
▁Cross	-11.104
Regist	-11.1045
▁တရားသဖြင့်	-11.1046
▁ထာဝရဘုရားက၊	-11.1047
▁turn	-11.1048
ဖိစီး	-11.1049
အော်ပရေတာ	-11.1099
ပိုးမွှား	-11.1099
language	-11.1099
[6]	-11.1099
▁Account	-11.11
ဆိတ်ညံ	-11.1104
အစေခံ	-11.1104
ချိုးဖောက်	-11.1104
▁ဗင်္ယာမိန်	-11.1113
ငါးဖမ်း	-11.1121
စက်မှုပန်းခြံ	-11.1121
မယ္ဆိုရင္	-11.1121
ထူထပ်	-11.1134
▁တစ်ခုချင်း	-11.1158
ႀကိဳ	-11.1158
ဆူညံသံ	-11.1158
▁Huawei	-11.1158
▁Policy	-11.1158
▁steroids	-11.1158
▁အသေးအဖွဲ	-11.1158
▁London	-11.1158
▁every	-11.1158
▁Trump	-11.1158
▁Rights	-11.1158
အမွေအနှစ်	-11.1159
ဗ္ဗ	-11.1164
▁Sony	-11.1165
▁အတွက်အဆုံးသတ်	-11.1165
▁Shwe	-11.1168
-05-	-11.1171
▁စုပေါင်း	-11.1195
နှောက်	-11.1212
="3.7	-11.1214
▁ဂွမ်ဒေါင်း	-11.1218
16949,	-11.1218
အကျင့်ကိုကျင့်	-11.1218
ေဒၚလာ	-11.1218
▁stainless	-11.1218
▁welded	-11.1218
▁Canvas	-11.1218
▁HTML	-11.1218
▁ဧည့်လမ်းညွှန်	-11.1218
ဝဘ်	-11.122
▁အသားပေး	-11.1222
scope	-11.1223
လိုပါက	-11.1226
သွေးကြော	-11.1233
2.6	-11.1235
ဋ္ဌ	-11.1266
8.3	-11.1268
ဗွီ	-11.1277
စံကိုက်ညှိ	-11.1278
▁INSERT	-11.1278
Material	-11.1278
▁မူဘာရက်	-11.1278
▁Embed	-11.1278
▁GTA	-11.1278
နောက်တော်သို့	-11.1279
ပြန်ကြားရေး	-11.1279
translate	-11.128
စိုးစံ	-11.1281
ခင်ဗျား	-11.1281
▁အမိန့်တော်ကို	-11.1286
7.3	-11.1292
နေ့ရက်ကာလ	-11.1324
တည်းခို	-11.1333
public	-11.1338
ဘယ္ေလာက္	-11.1338
▁receptor	-11.1338
▁ဂရမ္	-11.1338
▁ဒဏ်ခတ်	-11.1338
▁Changzhou	-11.1339
အတြင္း	-11.1339
အုပ်ချုပ်ရေးမှူး	-11.1339
ႏုတ္	-11.134
▁Myint	-11.1341
9.9	-11.1344
ရုပ်သံလိုင်း	-11.1346
9.99	-11.1361
▁call	-11.1366
▁သိပ္ပံပညာ	-11.1381
▁သေတ္တာတော်	-11.1391
6.4	-11.1393
ကြုံတွေ့	-11.1395
ကွောငျ့	-11.1398
ဝေါဟာရ	-11.1398
▁AASraw	-11.1398
▁ထမင်းစားခန်း	-11.1398
▁WIFI	-11.1398
▁နေပြည်တော်	-11.1398
▁command	-11.1399
▁LCD	-11.1399
ျဖတ္	-11.1403
သေချာစေရန်	-11.1404
တယောက်မျှ	-11.1456
medicaleducation	-11.1459
▁Crystal	-11.1459
▁Fluorocarbon	-11.1459
▁Little	-11.1459
▁Management	-11.1459
▁Mifare	-11.1459
▁Recovery	-11.1459
▁Adress	-11.1459
▁Nokia	-11.1459
ဗီနိုင်း	-11.1459
မြှား	-11.1461
အငွေ့	-11.1466
3.8	-11.1467
စ်တမ်းကောက်ယူမှု	-11.147
အာရုံခံကိရိယာ	-11.1473
9.4	-11.1496
င်းနှီးမြှုပ်နှံ	-11.1511
ဘ်ဆိုဒ်	-11.1518
Singapore	-11.1521
▁အကြင်သူသည်	-11.1521
▁Butterfly	-11.1521
▁activation	-11.1521
▁ယူနိုက်တက်စတိတ်	-11.1521
ခေါ်ဆိုမှုစနစ်	-11.1521
▁Cannon	-11.1521
electric	-11.1521
ေတာ႔	-11.1521
ီလျံ	-11.1523
ကိုလိုနီ	-11.1528
Jingh	-11.1531
graphic	-11.1534
▁Magic	-11.1547
အသီးအနှံ	-11.1549
ခြားနားချက်	-11.1574
ပစ္စုပ္ပန်	-11.1582
ရဟတ်ယာဉ်	-11.1582
နိယာမ	-11.1583
▁Randy	-11.1583
ဖမ်းဆီး	-11.1586
▁Aero	-11.1593
တွေးခေါ်	-11.1614
▁ထောက်ပြ	-11.1621
-06-	-11.1625
8.9	-11.1629
ကျောက်မျက်ရတနာ	-11.1645
Shenzhen	-11.1645
ခရမ်းရောင်	-11.1645
တံဆိပျ	-11.1645
▁SharePoint	-11.1645
စဥ္းစား	-11.1645
ကျုံ့	-11.1645
credit	-11.1645
သည်နှင့်အညီ၊	-11.1646
ပေါ်မူတည်	-11.1646
ဆိုတာဘာလဲ	-11.165
article	-11.1657
▁under	-11.1661
▁tile	-11.1664
်ား	-11.1676
http	-11.1681
မျို	-11.1687
လျင်မြန်	-11.1705
စည်ပင်သာယာ	-11.1707
မြှောင်းပုံ	-11.1707
▁Arcade	-11.1707
▁Bluetooth	-11.1707
short	-11.1708
▁when	-11.171
ပြစ်ဒဏ်	-11.1757
ပါရမီ	-11.1763
ခြုံငုံ	-11.177
▁Category	-11.177
ဒီနေရာကိုနှိပ်ပါ	-11.177
▁Intelligent	-11.177
▁Netflix	-11.177
▁adapter	-11.177
စတော့ရှယ်ယာ	-11.177
▁Cisco	-11.177
▁Down	-11.1775
ntai	-11.1798
ပြားချပ်ချပ်	-11.1833
▁Peugeot	-11.1833
▁သော့ချက်စာလုံး	-11.1833
▁status	-11.1833
ေရြး	-11.1833
▁Fixed	-11.1833
မှတစ်ဆင့်	-11.1833
▁finish	-11.1834
စီးဆင်းမှု	-11.1834
▁Short	-11.1835
ဆိုပါက	-11.1882
ွန်လိုင်းအဘိဓါန်	-11.1896
ယရှေု	-11.1897
ဋ	-11.1897
ပျေါ	-11.1897
Pirater	-11.1897
ဘုန်းအသရေ	-11.1897
▁Gratuit	-11.1897
▁ဒါေပမယ့္	-11.1897
▁Shanks	-11.1897
ပါရစေ။	-11.1897
▁Blythe	-11.1897
ဘိဥာဏ်အပိုဆုကုဒ်	-11.1897
အာနိသင်	-11.1897
piece	-11.1897
style	-11.19
▁Keygen	-11.1901
ography	-11.1903
ထွန်းလင်း	-11.1913
function	-11.1915
▁ဣသရေလလူတို့	-11.1918
9.6	-11.1939
▁1/2	-11.1951
စတုဂံ	-11.1961
▁nozzle	-11.1961
တဖြည်းဖြည်း	-11.1961
▁ပဌမ	-11.1961
▁Trust	-11.1964
အသွင်အပြင်	-11.1964
ခန့်မှန်းခြေ	-11.1965
ဓလေ့	-11.1967
အဘယ်ကြောင့်	-11.1988
Ltd	-11.1988
▁collet	-11.2026
▁Artist	-11.2026
▁[2007-0	-11.2026
အထူးနှုန်းများ	-11.2026
အကြီးအကျယ်	-11.2027
ဂွန်	-11.2028
စောင့်ဆိုင်း	-11.2031
7.4	-11.204
ဖုန်မှုန့်အိတ်	-11.2055
ညွန်	-11.2074
▁ဖိလစ်ပိုင်	-11.2091
▁မီလီဂရမ်	-11.2091
ပဋိပက္ခ	-11.2091
▁Acetate	-11.2091
▁width	-11.2091
▁တက်တူးအနုပညာ	-11.2091
▁Dakar	-11.2091
▁Centre	-11.2091
fluoro	-11.2091
သောက်သုံးသော	-11.2091
▁စတုရန်းပေ	-11.2091
▁ထို့ကြောင့်	-11.2092
▁သို့ပြုလျှင်	-11.2092
▁၂၀၀၇	-11.2092
▁Duty	-11.2093
ေမာင္	-11.2095
▁အလိုလို	-11.2126
ပြီတကား	-11.2129
▁Miss	-11.2129
Online	-11.2136
ရုပ်မြင်သံကြား	-11.2156
▁jailbreak	-11.2156
ဖိတ်ခေါ်	-11.2156
▁Travel	-11.2156
သမဂ္ဂ	-11.2156
မသန်စွမ်း	-11.2156
အောက်ကိုဆင်း	-11.2156
resources	-11.2156
စနစ်တကျ	-11.2157
အမြှေးပါး	-11.2158
▁လက်မှတ်ထုတ်ပေး	-11.2158
▁ဤဆောင်းပါးတွင်	-11.2161
ဘာတွေလဲ	-11.2173
ဇန်နဝါရီ	-11.2211
တစျခု	-11.2222
ဖြည့်ဆည်း	-11.2222
အပေါငျးတို့သ	-11.2222
▁Electric	-11.2222
▁PlayStation	-11.2222
▁Whatsapp	-11.2222
ခင်းကျင်း	-11.2222
တိုင်းရင်းသား	-11.2222
▁Alpha	-11.2222
▁Learn	-11.2223
▁Turn	-11.2224
▁Cream	-11.2226
▁ကိုယ်ကိုကိုယ်	-11.2236
ယူအက်စ်အေ	-11.2279
▁ခါနာန်	-11.2288
▁router	-11.2288
နှေးကွေး	-11.2289
▁အင်္ဂါနေ့	-11.2289
space	-11.2304
ကိုကြည့်ပါ	-11.2313
ဏ္ဏ	-11.2346
နယ်နိမိတ်	-11.2355
လတ်ဆတ်	-11.2355
ဆောင်နေသည်ဆိုပါက	-11.2355
ယွာဘ	-11.2355
လုပ္ငန္း	-11.2355
▁configure	-11.2355
▁Operating	-11.2355
▁ငြိမ်သက်ခြင်း	-11.2355
တိကျမှန်ကန်မှု	-11.2355
▁Search	-11.2355
ထံတော်၌	-11.2355
မှီဝဲ	-11.2356
▁entry	-11.2359
မူပိုင်ခွင့်	-11.2361
ွိုက်	-11.2367
အဆက်မပြတ်	-11.237
ကိုရွေးပါ	-11.2387
▁ဝှက်ထား	-11.2417
စေ့စေ့စပ်စပ်	-11.2422
တြိဂံ	-11.2422
အင်တာနေရှင်နယ်	-11.2422
▁Configuration	-11.2422
▁Vegas	-11.2422
▁fittings	-11.2422
▁မနာရှေ	-11.2422
ဘလော့ဂ်	-11.2424
▁Flute	-11.2425
စာမကျြနှာ	-11.2428
မော်လီကျူး	-11.2438
ကုလားကာ	-11.2489
ကြာသပတေးနေ့	-11.2489
စတီရီယို	-11.2489
ရွှံ့နွံ	-11.2489
casino	-11.2489
အခကြေးငွေ	-11.249
တာဝန်ယူမှု	-11.249
အေျဖ	-11.2497
သဘာဝဓာတ်ငွေ့	-11.2508
(10)	-11.2531
ထွင်	-11.2536
▁plug	-11.2543
ထိန်သိမ်း	-11.2557
▁inhibitor	-11.2557
▁ရဲရင့်	-11.2557
ဂတ်စ်	-11.2557
▁Engine	-11.2557
▁Ptfe	-11.2557
▁၂၀၀၉	-11.2559
ဖြောင့်	-11.2559
ချဲ့ထွင်	-11.2559
▁သမုတ်	-11.256
▁just	-11.256
▁ငှားရန်	-11.2561
▁Excel	-11.2582
▁tube	-11.2608
′	-11.2625
ဗုဒ္ဓဟူးနေ့	-11.2626
ဝီကီပီးဒီးယား	-11.2626
ဧလိရှဲ	-11.2626
▁Advisors	-11.2626
အစပျိုး	-11.2626
▁Website	-11.2626
▁အခြားတပါးသော	-11.2626
▁know	-11.2628
ကိုသုံးနိုင်သည်	-11.2632
ternal	-11.2634
▁optic	-11.2689
ငါပေးမည်	-11.2692
ချိန်ခွင်လျှာ	-11.2695
▁Exchange	-11.2695
▁Philadelphia	-11.2695
▁ဒါေပမဲ့	-11.2695
အကြံအစည်	-11.2695
အသံအတိုးအကျယ်	-11.2695
▁GISON	-11.2695
▁kachin	-11.2695
▁Drilling	-11.2695
▁သန့်ရှင်းရာဌာန	-11.2695
တရှောက်လုံး	-11.2695
ႏုိင္ငံ	-11.2695
▁Movie	-11.2695
▁(2016)	-11.2695
အထူးပြုနေကြသည်။	-11.2696
ajaj	-11.2697
town	-11.2728
တစ်နေ့လျှင်	-11.2739
ခေါ	-11.2745
တော်တော်လေး	-11.2745
.......	-11.276
အုပ်ကြွပ်	-11.2764
ပိတ်သိမ်းမည့်နေ့	-11.2764
▁Insurance	-11.2764
နိုင်ဂျီးရီးယား	-11.2764
▁appeared	-11.2764
▁Western	-11.2764
▁တပြည်လုံး	-11.2764
အသုံးအနှုန်း	-11.2764
▁IVR	-11.2764
▁Skip	-11.2764
▁Collet	-11.2766
8.7	-11.2783
▁ရှင်းရှင်း	-11.2798
အားထုတ်မှု	-11.2802
ကြ်န္ေတာ္တို	-11.2815
နေသူများကဖန်တီး	-11.2834
ခွံမာသီး	-11.2834
▁compressed	-11.2834
▁widget	-11.2834
▁ဖိုင်ရယူရန်	-11.2834
hydroxy	-11.2834
နှင့်အတူလက်ကား	-11.2834
မစ္စတာ	-11.2835
▁signal	-11.2837
လေ့ကျင့်	-11.2852
7.8	-11.2862
▁ရှမွေလ	-11.2887
မွေ့လျော်	-11.2905
▁inductors	-11.2905
▁Example	-11.2905
အရေဖျားလှီးခြင်း	-11.2958
အသားအရေ	-11.2969
ၥ	-11.2975
ကုလားထိုင်	-11.2975
ချန်ပီယံ	-11.2975
ထိုးနှက်	-11.2975
▁Containerized	-11.2975
▁controller	-11.2975
▁induction	-11.2975
▁Tarot	-11.2976
အသေကောင်	-11.2989
▁tablet	-11.2993
သင်တန်းသားများ	-11.2994
မြေတပြင်လုံး	-11.3044
အယ်ဒီတာ	-11.3047
pyrimidine	-11.3047
ချို့ယွင်း	-11.3047
မွေးမြူရေး	-11.3047
သိုးမွှေးထိုးစက်	-11.3047
▁centrifugal	-11.3047
▁ဩဂုတ်	-11.3047
ညှင်း	-11.3047
▁Version	-11.3047
မတိုင်ခင်	-11.3047
present	-11.3047
front	-11.3048
▁ဂတိတော်	-11.3057
ပစၥည္း	-11.3119
တံတောင်ဆစ်	-11.3119
ေက်ာင္း	-11.3119
▁Bowflex	-11.3119
▁Categories	-11.3119
▁crystal	-11.3119
တုိ႔	-11.3119
▁123456	-11.3119
▁အံ့ဘွယ်သော	-11.3119
အစအဦး	-11.3119
ရန်သင့်အား	-11.312
8.6	-11.3163
ၽ	-11.3181
မရောက်မှီ	-11.3187
ရွှံ့	-11.3191
▁ဖာရိရှဲ	-11.3191
တော်မမူပါနှင့်။	-11.3191
ဖန်သားပြင်	-11.3191
ဘေးဥပဒ်	-11.3191
▁Pulverized	-11.3191
▁discusssions	-11.3191
▁template	-11.3191
▁ဆီလီကွန်ချိုင့်	-11.3191
ခဲယဉ်း	-11.3191
▁ITIL	-11.3191
သိုင်းကြိုး	-11.3191
▁element	-11.3191
လက်မှတ်ရေးထိုး	-11.3191
▁texture	-11.3191
▁Town	-11.3191
▁Japan	-11.3192
ၾကည့္ရေအာင္	-11.3192
▁Trader	-11.3193
oujian	-11.3204
နာယက	-11.321
လွ်င္	-11.3242
ော်ဒယ်အဘယ်သူမျှမ	-11.3257
▁Explore	-11.3264
ဓာတ္	-11.3264
▁oboe	-11.3264
စပျစ်ဥယျာဉ်	-11.3266
မထားဘူး	-11.327
လုံးအခွင့်အရေး။	-11.3277
မှိုထုတ်လုပ်	-11.3284
မြို့ကြီးများ	-11.3303
အဲဒါ	-11.3318
ဝိသေသ	-11.3337
ဗဓေလသစ်	-11.3338
ဧကရာဇ်	-11.3338
မှုန်ရေမွှား	-11.3338
▁President	-11.3338
▁algorithm	-11.3338
▁solenoid	-11.3338
▁ယောနသန်	-11.3338
▁အမှီပြု၍	-11.3338
▁BEST	-11.3338
တင်းမာမှု	-11.3338
▁ဂျွန်ဆင်	-11.3338
ဘလော့ဂ်ပို့စ်	-11.3338
serial	-11.3338
▁FDA	-11.3339
spect	-11.3341
▁10.1	-11.3365
မွှေ	-11.3388
pyridine	-11.3412
ကီးဘုတ်	-11.3412
ထိတ်လန့်	-11.3412
အထွဋ်	-11.3412
private	-11.3412
ဒေတာဘေ့စ	-11.3412
အလှအပ	-11.3412
▁value	-11.3412
▁ရယ်မော	-11.3413
▁database	-11.3413
နှိမ်	-11.3416
အကျိုးစီးပွား	-11.3417
title	-11.3433
ယ်ရေးအချက်အလက်	-11.3454
အတိုင်ပင်ခံ	-11.3487
▁groove	-11.3487
▁စကြာဝဠာ	-11.3487
▁ပုဂံ	-11.3487
▁Jumma	-11.3487
လက်ငင်း	-11.3487
ရော့ခ်	-11.3487
သားမြေး	-11.3487
▁Idea	-11.3494
ontinu	-11.3501
▁HTC	-11.3551
ophil	-11.3551
ဂဏန္း	-11.3562
စကော့တလန်	-11.3562
ပုပ်ရဟန်းမင်း	-11.3562
မိုးလုံလေလုံ	-11.3562
▁MacBook	-11.3562
▁SPYERA	-11.3562
▁distributed	-11.3562
▁ပြပ်ဝပ်	-11.3562
အုပ်စုတစ်စု	-11.3562
လညျး	-11.3562
စွမ်းဆောင်မှု	-11.3562
▁Quote	-11.3562
အကြီးတန်း	-11.3564
▁ကရေးသားခဲ့	-11.3566
IVE	-11.358
ထူးပြုထုတ်လုပ်သူ	-11.3594
8.8	-11.3594
7.7	-11.3599
Aria	-11.3612
ဇုန္	-11.3626
ဘယ်သူမျှမစစ်တမ်း	-11.3629
ဒံယေလ	-11.3637
စိတျအပိုငျး	-11.3637
▁Excellent	-11.3637
▁မြေမှုန့်	-11.3637
စော်ကား	-11.3638
နှင့်တကွ	-11.3638
▁ဤသူတို့သည်	-11.3638
▁သို့ဖြစ်လျှင်	-11.3639
လူသတ်မှု	-11.3643
အံသွား	-11.3643
ပိုမိုမြင့်မား	-11.3693
▁ဆင့်ဆိုရမည်မှာ၊	-11.3714
▁ပရိသတ်စည်းဝေးရာ	-11.3714
▁ဖာရောဘုရင်	-11.3714
စကိတ်စီး	-11.3714
မြွေဆိုး	-11.3714
▁Ministry	-11.3714
သမားရိုးကျ	-11.3714
Public	-11.3714
▁Element	-11.3714
တောင်ပံ	-11.3714
▁bracket	-11.3714
ကိုယ့်ကိုကိုယ်	-11.3715
ဖို့လိုပါတယ်။	-11.3719
New	-11.3746
▁Plat	-11.3749
speed	-11.3755
europe	-11.3784
activated	-11.3791
မြဲမြံ	-11.3791
▁အချင်းလူသား၊	-11.3791
အဗရှလုံ	-11.3791
▁ရှေ့ဦးစွာ	-11.3791
▁eBay	-11.3791
▁HBOT	-11.3791
ရေပန်းစား	-11.3791
Contact	-11.3791
ပြီးပြည့်စုံသော	-11.3791
ခေါ်ဆောင်သွား	-11.3791
လင့်များ	-11.3793
ၾ	-11.3809
ြေမှုန့်စုဆောင်း	-11.382
မဟာမိတ်	-11.3868
မှုမျှော်ကြည့်ပါ	-11.3868
သခင်ယေရှုခရစ်	-11.3868
▁Genotropin	-11.3868
▁circuit	-11.3868
▁people	-11.3868
▁ဒါမွမဟုတ္	-11.3868
▁အီရတ်	-11.3868
▁silica	-11.3868
Eleven	-11.3868
ဂုဏ်သတ္တိများ	-11.3868
အာရဇ်	-11.3868
▁ကျိန်ဆဲ	-11.3869
ျွမ်းကျင်သူများက	-11.3873
ခံထားရ	-11.3882
ဆုံးမဩဝါဒပေး	-11.3946
နှင်းလျှောစီး	-11.3946
မိဖုရား	-11.3946
ၸ	-11.3946
▁Pinterest	-11.3946
အကြွေစေ့	-11.3946
ကြေးမုံ	-11.3946
သဘောတူညီမှု	-11.3946
▁Ocean	-11.3946
အကျဉ်းချုပ်	-11.3947
14443	-11.3947
▁flash	-11.3947
ခြုံငုံသုံးသပ်	-11.3947
အတော်ကြာ	-11.3957
စက်ရုံထဲကနေအ	-11.397
twitter	-11.4025
friendly	-11.4025
သမ္မာတရား	-11.4025
ဠ	-11.4025
▁Wiegand	-11.4025
▁capacit	-11.4025
▁ကမ္ဘောဒီးယား	-11.4025
▁Steroid	-11.4025
▁အီဂျစ်	-11.4025
တုိ႕	-11.4025
တိုးပွားလာ	-11.4025
ေၿပာ	-11.4025
ကတ္တရာ	-11.4027
▁ဒုစရိုက်အပြစ်	-11.403
ဘဏ္	-11.4036
ေဒသ	-11.4079
▁Citr	-11.4104
respond	-11.4104
ကိုယ်ရေးကိုယ်တာ	-11.4104
သွယ်လုပ်ငန်းခွန်	-11.4104
▁CAPTCHA	-11.4104
▁ရေခဲပြင်	-11.4104
ပုံသေနည်း	-11.4105
▁(2012)	-11.4105
should	-11.4105
▁နောင်တရ	-11.4123
ပရိုတိုကော	-11.4184
အလို့ငှာ	-11.4184
▁Flexible	-11.4184
▁duplex	-11.4184
ဆွဲငင်	-11.4185
▁ဝက်ဘ်ဆိုဒ်	-11.4185
▁သိတဲ့အတိုင်း	-11.4185
ဒီဇယ်	-11.4185
ျမင့္	-11.4185
အထက်တန်းကျောင်း	-11.4186
ချက်ပြုတ်နည်း	-11.4187
ယာကုပ်	-11.4192
Product	-11.4192
သတိပြုမိ	-11.4207
ထွန်	-11.4245
ကြိုးစားအားထုတ်	-11.4254
မ်ဥ္း	-11.4265
ခြွင်းချက်	-11.4265
ညှိုးငယ်	-11.4265
အသေးစိတျ	-11.4265
▁Automotive	-11.4265
▁WysLuxury	-11.4265
▁bassoons	-11.4265
▁simulation	-11.4265
▁Trading	-11.4265
[7]	-11.4265
ကိစ္စရပ်များ	-11.4268
ကြသည်မဟုတ်	-11.4286
ောက်ဆီဂျင်ကုထုံး	-11.4293
Australia	-11.4346
▁Buddhatrends	-11.4346
▁Evinrude	-11.4346
▁Extrusion	-11.4346
▁Society	-11.4346
▁welding	-11.4346
ပိတ်ပင်တားဆီးမှု	-11.4346
▁Automation	-11.4346
ကမာၻ	-11.4346
▁EURUSD	-11.4346
တပတ်ရစ်	-11.4346
▁Wonder	-11.4346
▁waterproof	-11.4346
အရေးအသား	-11.4346
white	-11.4347
တစ်သက်တာ	-11.4347
အောက်ဆိုဒ်	-11.4351
▁cookie	-11.4366
Term	-11.4388
ဘန်ကီမွန်းက	-11.4428
အဖျော်ယမကာ	-11.4428
subscription	-11.4428
အညစ်အကြေး	-11.4428
▁Stretch	-11.4428
▁universal	-11.4428
▁ဒိန်းမတ်	-11.4428
▁လော့ဂ်အင်	-11.4428
▁အမေးအဖြေများ	-11.4428
▁အာဗြံ	-11.4428
ဆန်းသစ်တီထွင်မှု	-11.4428
ေခါင္း	-11.4428
တရုတ္	-11.4429
မျက်စိကန်း	-11.4429
▁BMW	-11.4429
AIDS	-11.4429
စမ်းသပ်ပြီးနှင့်	-11.4429
rpm	-11.4429
ဝိသေသလက္ခဏာများ	-11.4429
ောင်းကြီးမင်္ဂလာ	-11.4435
7.00	-11.4474
ဖေါက်	-11.4511
▁Roulette	-11.4511
▁USMLE	-11.4511
▁Yahoo	-11.4511
▁Oracle	-11.4511
▁လှပတဲ့	-11.4511
group	-11.4512
အက်ဥပဒေ	-11.452
လဲဆိုေတာ့	-11.4522
8.00	-11.4541
ယဇ်ပုရောဟိတ်	-11.4564
Mobile	-11.4564
ကျိန်းဝပ်	-11.4587
ပက်ထရစ်	-11.4594
ပူဖောင်း	-11.4594
▁Dimension	-11.4594
▁directory	-11.4594
ငြမ်း	-11.4594
ပိုးသတ်ဆေး	-11.4594
▁hosting	-11.4594
ညှစ်	-11.4594
ရောင်ရမ်း	-11.4594
အညိုရောင်	-11.4594
▁အထပ်ထပ်	-11.4594
အလယ်ဗဟို	-11.4594
ဆုပေးပွဲ	-11.4594
▁Reply	-11.4595
▁SOE	-11.4595
▁လင်းနို့	-11.4595
▁TCP	-11.4595
နောက်တဖန်	-11.4599
ကွောငျး	-11.4642
ောင်းကင်ဗိုလ်ခြေ	-11.4673
ဝတ္တရားကုမ္ပဏီ	-11.4678
အိုင်ယာလန်	-11.4678
ပြဋ္ဌာန်း	-11.4678
လတ်တလော	-11.4678
လိုက်လျောညီထွေ	-11.4678
လုပ်ဖော်ကိုင်ဖက်	-11.4678
အရည်ကျိုမီးဖို	-11.4678
▁FLEGT	-11.4678
▁Industrial	-11.4678
▁Output	-11.4678
▁Pampanga	-11.4678
▁Privacy	-11.4678
သူဌေး	-11.4678
အတွင်းရေးမှူး	-11.4678
▁domain	-11.4678
▁Solana	-11.4678
ကိုလံဘီယာ	-11.4679
က်င္းပ	-11.4679
အလယ်တန်း	-11.4679
▁carbide	-11.4679
▁Tesse	-11.4679
ေလ့လာ	-11.4681
arrier	-11.4685
▁Walk	-11.4691
▁ငြိမ်းချမ်း	-11.4745
နစ်မြုပ်	-11.4763
▁MYHH	-11.4763
▁Shijiazhuang	-11.4763
▁ပိုငျးပိုငျး	-11.4763
▁ဇြန္လ	-11.4763
လေမှုတ်စက်	-11.4763
▁အရှက်ကွဲ	-11.4763
WebSite	-11.4763
တပည့်တော်တို့သည်	-11.4763
▁Foot	-11.4764
▁provide	-11.4764
▁Other	-11.4766
ုနှစ်တွင်အိမ်လော	-11.4768
aving	-11.479
အထင်ကရ	-11.4794
ဘေးထွက်ဆိုးကျိုး	-11.4849
ငြီးငွေ့	-11.4849
ဒူဘိုင်း	-11.4849
မိုးလေဝသ	-11.4849
▁Psiphon	-11.4849
▁faucet	-11.4849
▁ဘိသိက်	-11.4849
▁အကုန်အစင်	-11.4849
▁အိမ္ျခံေျမ	-11.4849
▁Switch	-11.4849
session	-11.4849
Kylie	-11.4849
▁RideA	-11.4849
▁ထိုမျှမက	-11.4849
သေးသေးလေး	-11.4849
ကြောက်ရွံ့	-11.4853
ေ၀း	-11.4855
graph	-11.4908
ဂိုဏ်း	-11.4935
ဘတ်စကက်ဘော	-11.4935
ညွှတ်	-11.4935
ဖြည့်ဆည်း	-11.4935
▁Lockheed	-11.4935
▁Reserved	-11.4935
▁platform	-11.4935
▁RNA	-11.4935
ဒဿန	-11.4939
ဆက်ဖတ်ရန်	-11.4951
စိုထိုင်းဆ	-11.5022
သတ္မွတ္	-11.5022
ကက်ဘိနက်	-11.5022
ကြှေးမှေး	-11.5022
ခြင့္	-11.5022
ဆည်းကပ်	-11.5022
နို့တိုက်ကျွေး	-11.5022
ဖှံ့ဖွိုးတိုး	-11.5022
▁Journal	-11.5022
▁Pulsar	-11.5022
▁Sextets	-11.5022
▁မုတ်ဆိုးမ	-11.5022
Friendly	-11.5022
ဝင်းဒိုး	-11.5022
▁Central	-11.5022
အလေ့အကျင့်	-11.5022
▁First	-11.5022
▁Rotate	-11.5022
ဆယ့်	-11.5022
▁အိုဘုရားသခင်၊	-11.5022
ဖို့ချင်ပါနဲ့	-11.5022
တရားစွဲဆို	-11.5022
တင့်တယ်	-11.5022
▁Browse	-11.5022
▁single	-11.5023
ရှပ်အင်္ကျီ	-11.5083
အရသိရသည်	-11.5088
ဆိုင်းငံ့	-11.5109
အတှေ့အကွုံ	-11.5109
ပထဝီ	-11.511
ၿမိဳ႕	-11.511
▁Automatic	-11.511
▁Language	-11.511
▁Mandalay	-11.511
▁laptop	-11.511
▁protected	-11.511
▁ပါကစ္စတန်	-11.511
▁ဝူဟန်	-11.511
တစ်ဝိုက်	-11.511
struction	-11.511
▁Winners	-11.511
release	-11.511
အနတ္တ	-11.5111
အမျှင်	-11.5112
Pieces	-11.5157
▁instagram	-11.5198
မြေဆီလွှာ	-11.5198
▁folder	-11.5198
▁ရော်ဂျာ	-11.5198
အပေါင်းအဘော်	-11.5198
အာဂျင်တီးနား	-11.5198
▁programming	-11.5198
ကိတ်မုန့်	-11.5198
▁(2014)	-11.5198
ထင်မြင်ချက်	-11.52
▁သတင်းထုတ်ပြန်ခ	-11.5287
နေဗုခဒ်နေဇာ	-11.5287
ဖျော်ရည်	-11.5287
အေျခအေန	-11.5287
▁Compressor	-11.5287
▁Corporation	-11.5287
▁Script	-11.5287
automatic	-11.5287
နားလည်သဘောပေါက်	-11.5287
message	-11.5287
▁Adobe	-11.5287
▁profile	-11.5287
opendevelopmentm	-11.5287
▁DMF	-11.5288
ချောကလက်	-11.5288
▁အမဲသား	-11.5288
0,00	-11.5306
Level	-11.5313
→	-11.5353
သည့်အရာတစ်ခု	-11.5377
ဖြန့်ဖြူး	-11.5377
မျြး	-11.5377
မိန်းမောတွေဝေ	-11.5377
▁iTunes	-11.5377
▁converter	-11.5377
▁တချိန်လုံး	-11.5377
စာဖြင့်ရေးသားခဲ့	-11.5377
▁GMCC	-11.5377
ျမတ္	-11.5377
▁radial	-11.5378
တင့်တယ်	-11.5378
ဖုန်းခေါ်ဆိုမှု	-11.5378
ဦ	-11.554
•	-11.655
ó	-11.7597
±	-11.791
—	-11.8043
ل	-11.806
ၚ	-11.8421
ر	-11.8545
ب	-11.9186
၎	-12.3405
ย	-12.3612
ي	-12.4932
ท	-12.7615
ع	-12.7615
ၻ	-13.0857
ไ	-13.3249
ة	-13.4392
↑	-15.193
