<unk>	0
<s>	0
</s>	0
▁	-2.03852
,	-4.12639
ကို	-4.49835
-	-4.7205
.	-4.7754
:	-5.01679
s	-5.02985
▁ကို	-5.16197
က	-5.17993
အ	-5.18392
၊	-5.18814
များ	-5.26527
)	-5.2863
;	-5.36066
သည်	-5.40883
သော	-5.46507
▁အ	-5.47618
▁(	-5.48785
။	-5.52763
မ	-5.6074
ရ	-5.68259
နှင့်	-5.68933
၏	-5.7203
မှု	-5.74144
မှာ	-5.7573
▁&	-5.76783
း	-5.94627
ပါ	-5.97061
gt	-5.98846
တဲ့	-6.02027
ခြင်း	-6.06303
့	-6.07623
▁/	-6.16678
"	-6.16736
ရှိ	-6.16819
မှ	-6.21013
တ	-6.21136
တွေ	-6.21772
တွင်	-6.2359
▁က	-6.25722
အတွက်	-6.28462
ပြီး	-6.29026
/	-6.31923
in	-6.33454
နဲ့	-6.34697
သူ	-6.38356
ပေး	-6.39921
er	-6.41786
y	-6.42968
e	-6.43281
ဟာ	-6.44319
လာ	-6.46401
ရန်	-6.47068
ဖို့	-6.4782
p	-6.48728
နေ	-6.49389
a	-6.49524
ရဲ့	-6.49556
သ	-6.50311
▁မ	-6.51462
C	-6.53751
ရေး	-6.53787
သား	-6.54302
ing	-6.55267
ပါ။	-6.55311
ဖြစ်	-6.56387
ကြ	-6.56518
n	-6.57204
၌	-6.57228
နိုင်	-6.58484
၍	-6.60194
တာ	-6.60287
m	-6.6033
အား	-6.61515
t	-6.61906
▁S	-6.62497
လ	-6.63365
S	-6.65334
D	-6.66457
သို့	-6.69826
ထား	-6.70179
c	-6.70961
▁ဒီ	-6.72333
A	-6.72604
▁1	-6.73327
d	-6.74322
ရာ	-6.75567
တော်	-6.76533
သွား	-6.77346
amp	-6.78223
al	-6.79388
▁P	-6.796
3	-6.79737
နှင့်	-6.80249
re	-6.83163
o	-6.83314
စေ	-6.83533
f	-6.83858
▁2	-6.85914
2	-6.86724
လို	-6.87888
lt	-6.88879
တွေကို	-6.89764
စ	-6.90078
▁C	-6.90682
များအတွက်	-6.90967
ေ	-6.92207
▁_	-6.93665
i	-6.9385
ကြီး	-6.94186
B	-6.94262
▁B	-6.9456
ကျ	-6.96491
တစ်ခု	-6.96848
on	-6.96931
T	-6.97036
M	-6.97633
ဆို	-6.98326
▁"	-6.99594
ခဲ့	-7.00232
an	-7.01784
▁A	-7.01849
r	-7.02593
L	-7.02639
b	-7.02834
4	-7.02981
က်	-7.03024
ချက်	-7.03097
ယူ	-7.03286
များကို	-7.03465
w	-7.03474
စာ	-7.04525
လည်း	-7.04525
▁ငါ	-7.0543
ed	-7.05529
▁3	-7.0633
g	-7.06946
လိုက်	-7.08172
x	-7.08585
▁T	-7.10407
န	-7.10689
ပ	-7.10761
com	-7.1083
▁start	-7.11106
P	-7.1164
h	-7.12143
▁F	-7.1236
▁H	-7.12483
le	-7.12574
"&	-7.12801
▁ထို	-7.13231
▁dur	-7.14162
F	-7.1551
နှင့်အတူ	-7.15514
သာ	-7.15875
k	-7.16096
1	-7.16179
ခံ	-7.16386
လူ	-7.16768
င်	-7.16947
H	-7.1804
="	-7.18087
R	-7.18166
or	-7.18689
အဖြစ်	-7.20389
▁E	-7.21042
u	-7.21615
v	-7.21869
!	-7.22021
တော့	-7.22126
ပြ	-7.22785
တစ်	-7.23061
တို့ကို	-7.24031
it	-7.24829
စက်	-7.24846
နှစ်	-7.24884
ပုံ	-7.25453
▁M	-7.25952
G	-7.2598
လုပ်	-7.26093
▁လူ	-7.2628
▁...	-7.26334
တို့	-7.26598
ခ	-7.27606
ပြု	-7.27765
၍၊	-7.27798
လက်	-7.28206
ဘ	-7.28316
en	-7.2867
O	-7.29099
▁မှ	-7.29175
န်	-7.31118
သည်။	-7.31283
%	-7.31428
ရေ	-7.31527
▁5	-7.31532
U	-7.32493
W	-7.33289
ဂ	-7.33529
ကား	-7.34466
ပြော	-7.34637
▁အဆိုပါ	-7.34651
▁G	-7.34919
?	-7.35587
ပဲ	-7.35762
ပါတယ်။	-7.35917
K	-7.36029
ဒ	-7.36798
လေး	-7.3741
▁Co	-7.37474
လို့	-7.37995
စား	-7.3841
▁D	-7.38755
မိ	-7.39029
V	-7.39366
ဆ	-7.39768
လုံး	-7.39873
ar	-7.40606
ဝ	-7.40693
▁R	-7.41208
st	-7.41759
တို့သည်	-7.42628
th	-7.42703
▁သင်	-7.4335
5	-7.43363
ယ	-7.43383
et	-7.435
N	-7.43717
နည်း	-7.43875
▁သူတို့	-7.43925
(	-7.45552
▁K	-7.45781
နိုင်ငံ	-7.46045
ကြ၏။	-7.46107
ဟု	-7.46117
တယ်	-7.47676
ထ	-7.47861
တယ်။	-7.47864
▁10	-7.48238
တော်မူ	-7.4834
ပင်	-7.48818
ဖ	-7.48837
mm	-7.49792
ကာ	-7.49828
၏။	-7.5044
at	-7.50612
တောင်	-7.50873
မြို့	-7.51327
သိ	-7.51574
ချ	-7.52676
ဗ	-7.52762
စ်	-7.53467
နာ	-7.54734
l	-7.55511
ra	-7.56304
I	-7.56435
://	-7.56529
ဆုံး	-7.5653
]	-7.56938
သုံး	-7.56952
E	-7.57014
တင်	-7.57692
ဆောင်	-7.57849
င္	-7.57902
တစ်ဦး	-7.58263
ဝင်	-7.58515
▁တရုတ်	-7.59188
▁4	-7.59388
▁–	-7.5942
်	-7.59499
ကြား	-7.59582
ro	-7.59677
▁N	-7.59891
to	-7.59932
စွာ	-7.60097
20	-7.60115
10	-7.60315
အပေါ်	-7.60378
ch	-7.60583
အားဖြင့်	-7.60845
ရပ်	-7.61088
...	-7.61127
ခဲ့သည်။	-7.61356
ကနေ	-7.61556
ပေါ်	-7.61814
▁the	-7.62402
8	-7.62459
am	-7.62967
▁ကျွန်မ	-7.63049
မျိုး	-7.63102
▁W	-7.63681
နေ့	-7.63749
ဇ	-7.64307
ဒီ	-7.64506
=	-7.64625
▁ဤ	-7.64754
▁လုပ်	-7.64834
လျှင်	-7.6485
လေ	-7.6502
co	-7.6666
▁J	-7.66965
el	-7.66999
me	-7.67078
သို့မဟုတ်	-7.67112
9	-7.67165
သစ်	-7.67376
တူ	-7.67422
se	-7.67447
သည့်	-7.67623
▁O	-7.67744
ri	-7.68358
ာ	-7.68601
▁L	-7.69365
00	-7.70734
▁$	-7.70893
'	-7.70957
မည်	-7.71243
စရာ	-7.71493
နောက်	-7.71673
ရင်	-7.71785
ဆီ	-7.7193
မာ	-7.72331
တိုက်	-7.72442
▁I	-7.72599
op	-7.72914
es	-7.73336
Y	-7.73395
7	-7.73528
6	-7.73542
▁+	-7.73573
ma	-7.7362
ထွက်	-7.73901
ic	-7.74087
ု	-7.74388
ဆက်	-7.74415
ပြန်	-7.74835
un	-7.7515
ur	-7.75414
သင်	-7.75679
ပ်	-7.76159
ထဲမှာ	-7.76272
င်း	-7.76324
X	-7.76682
is	-7.76899
z	-7.77498
ကောင်း	-7.78214
ြ	-7.78536
က္	-7.78745
ိ	-7.79149
▁2019	-7.79214
il	-7.79292
▁ကိုယ်	-7.7963
ol	-7.79856
▁နှစ်	-7.80186
အချိန်	-7.80469
ည	-7.80593
စဉ်	-7.80681
id	-7.81434
▁တစ်	-7.81597
_	-7.81736
ဘက်	-7.82333
▁ရေ	-7.82487
တိုင်း	-7.82632
▁V	-7.82803
၀	-7.82859
န္	-7.83236
စိတ်	-7.84853
ံ	-7.84946
စု	-7.85062
ချင်	-7.85127
▁19	-7.8554
ထက်	-7.85617
us	-7.85628
ပြည်	-7.85711
ထဲက	-7.85844
လဲ	-7.85979
▁နှင့်	-7.86067
ကြည့်	-7.86165
ုတ်	-7.8656
အောင်	-7.86671
li	-7.86737
နေရာ	-7.86774
▁7	-7.8687
ဦး	-7.86926
▁6	-7.87054
▁2018	-7.87121
te	-7.87464
▁Re	-7.88096
50	-7.88111
အတွင်း	-7.88785
my	-7.89035
lo	-7.8942
ad	-7.90083
ရှင်	-7.90121
လမ်း	-7.90552
ထုတ်	-7.90767
မျှ	-7.91456
၇	-7.91557
40	-7.91965
၅	-7.92072
and	-7.92243
▁ငါ့	-7.92671
▁သို့မဟုတ်	-7.9285
▁ဒါက	-7.93219
သံ	-7.9339
▁စ	-7.93858
ယာ	-7.93895
ပိုင်း	-7.9397
ကုန်	-7.94224
000	-7.9428
ရိုး	-7.94656
ရှ	-7.94942
60	-7.95017
▁ထာဝရဘုရား	-7.95155
ဒါ	-7.95427
ကြောင်း	-7.95455
▁[	-7.9548
la	-7.95794
▁of	-7.95843
ဖြစ်ပါတယ်။	-7.96206
per	-7.96249
မွာ	-7.9674
ly	-7.96808
▁Ltd	-7.97131
ul	-7.976
ta	-7.97822
ပါတယ်	-7.98417
ex	-7.98495
ရက်	-7.9924
လောက်	-7.99282
များနှင့်	-7.99339
▁ဒါပေမဲ့	-7.99706
အဘို့	-7.99727
▁and	-7.99864
ှ	-7.99995
ဘာ	-8.0002
▁•	-8.00725
▁ဒါဟာ	-8.01518
ပေါ်မှာ	-8.01735
▁ပို	-8.02062
ခံရ	-8.02238
▁သင်တို့	-8.02486
ate	-8.02846
လျက်	-8.02998
ပေါင်း	-8.035
လှ	-8.03608
▁ကျွန်တော်	-8.03622
တာက	-8.03773
ot	-8.0401
11	-8.0417
▁8	-8.04247
ပြင်	-8.04562
စီ	-8.04617
င္း	-8.04858
ငွေ	-8.04974
12	-8.05082
ဖြင့်	-8.05984
ယ်	-8.06164
ော်	-8.06229
အိမ်	-8.06363
တွေဟာ	-8.07475
ဘူး	-8.07522
သေ	-8.07629
စီး	-8.0779
▁12	-8.07791
စနစ်	-8.07967
ရောက်	-8.08216
30	-8.0875
ေတြ	-8.08967
တွေ့	-8.08995
နီ	-8.09005
ကဲ့သို့	-8.09029
im	-8.09168
အမျိုးအစား	-8.09266
ပွဲ	-8.09366
▁သိ	-8.09376
ကောင်	-8.09698
ation	-8.09972
မြင်	-8.10089
▁လက်	-8.10115
▁စိတ်	-8.1081
&	-8.10858
ပစ္စည်း	-8.1122
မရှိ	-8.11315
၈	-8.11768
လျှင်၊	-8.12078
သေး	-8.12275
”	-8.12298
အကြောင်း	-8.12582
တွေက	-8.12634
▁2017	-8.12755
မှန်	-8.12872
ne	-8.12986
ry	-8.13172
တက်	-8.13374
om	-8.13625
င	-8.1373
de	-8.14425
လေ၏။	-8.14695
ပေ	-8.14733
▁အာ	-8.1487
ူ	-8.1494
တို	-8.15028
ang	-8.15269
မင်း	-8.15613
▁ကျွန်တော်တို့	-8.1563
တော်မူ၏။	-8.15737
ခဲ့တယ်။	-8.15907
ဆိုင်ရာ	-8.16387
အားလုံး	-8.16468
▁*	-8.16684
သောသူ	-8.17075
J	-8.17332
ut	-8.174
လုပ်ငန်း	-8.17412
▁အဲဒီ	-8.17489
ent	-8.17587
▁Hack	-8.17601
၉	-8.17703
15	-8.18167
▁ဒါ	-8.18212
ဟ	-8.18328
▁နောက်	-8.18428
ငါ	-8.18557
ရိ	-8.1887
၃	-8.18898
မြောက်	-8.18924
mo	-8.19011
▁မိမိ	-8.19198
မဟုတ်	-8.19228
j	-8.19255
တတ်	-8.19316
မှတ်	-8.19571
ယ္	-8.19706
ပြီ	-8.19959
အဖွဲ့	-8.19961
သတ်	-8.20169
တယ်၊	-8.20313
တွေနဲ့	-8.20659
ဂျ	-8.20763
="1	-8.20882
ရင်း	-8.20925
မ်း	-8.20957
80	-8.21138
ကြောင့်	-8.21234
ho	-8.21414
▁Ma	-8.21419
ချိန်	-8.218
႔	-8.21982
ရော	-8.22881
ခြင်းကို	-8.22982
ce	-8.23179
ကြောင့်	-8.23248
ဘဲ	-8.23268
၄	-8.23392
▁20	-8.23442
တ်	-8.23915
တရား	-8.24089
▁၁	-8.24265
လ်	-8.24423
နေတဲ့	-8.24455
um	-8.24823
၎င်း၊	-8.25108
ကိုယ်	-8.25395
ွ	-8.25488
▁ဘာ	-8.25922
ခေါ်	-8.26067
ဆိုတာ	-8.26093
01	-8.26828
ညီ	-8.26993
လား	-8.27174
as	-8.27283
ia	-8.27338
▁https	-8.27497
ပတ်	-8.27563
▁သငျသညျ	-8.28033
များ၏	-8.28305
န့်	-8.28476
ပေါက်	-8.28655
ူး	-8.28701
ဘို့	-8.28799
ီ	-8.2898
ဖြစ်ပါသည်	-8.29074
လေယာဉ်	-8.29123
ို	-8.2913
မူ	-8.29265
စက်ရုံ	-8.29438
လွန်	-8.2944
▁ငါသည်	-8.29607
တည်း	-8.29832
လီ	-8.2991
ထောင်	-8.29953
အရာ	-8.29984
▁စက်	-8.30026
▁ပြော	-8.30063
0	-8.30093
ke	-8.30805
တ္	-8.3081
▁to	-8.30825
up	-8.30858
▁“	-8.30921
လိမ့်မည်။	-8.31071
္	-8.31192
ဤ	-8.3131
ထားတဲ့	-8.31311
Z	-8.31549
ပို	-8.3168
▁X	-8.31689
ion	-8.31902
မည်။	-8.31913
တန်း	-8.31939
16	-8.32189
န်း	-8.32224
ter	-8.32318
ကြာ	-8.32378
နှုန်း	-8.32503
သီး	-8.32573
ေန	-8.32719
di	-8.32837
မ်	-8.32901
▁ပြန်	-8.33091
28	-8.33522
na	-8.33614
တိ	-8.33781
▁အားလုံး	-8.33992
▁http	-8.34058
ထဲ	-8.34107
ဂိမ်း	-8.34178
ပြား	-8.34416
စစ်	-8.34434
▁ဘုရားသခင်	-8.34458
ဖြစ်သည်။	-8.34485
ဆေး	-8.34548
▁Home	-8.34721
စျေးနှုန်း	-8.34802
သင့်	-8.34821
ဆိုး	-8.34852
ျ	-8.3495
၁	-8.34956
အမည်	-8.35328
အခမဲ့	-8.35416
▁De	-8.35428
▁ခုနှစ်	-8.3584
▁သင်သည်	-8.35883
အောက်	-8.36282
ရု	-8.36462
ဆိုင်	-8.36927
▁ငါတို့	-8.37121
▁ကျွန်မတို့	-8.37155
▁9	-8.37334
▁အချိန်	-8.37596
နား	-8.37661
ဖြင့်	-8.37817
ine	-8.3791
ver	-8.37918
ပါး	-8.38206
ော	-8.38207
ရီ	-8.38364
အိတ်	-8.38411
▁သူ့	-8.38462
▁အခြား	-8.38519
ဝတ်	-8.38569
သည့်	-8.38721
ေတာ့	-8.38744
ဖြစ်ပါတယ်	-8.39086
02	-8.39173
▁အိမ်	-8.39439
၆	-8.39516
ကျွန်တော်တို့ရဲ့	-8.39574
ပညာ	-8.3959
ဆွဲ	-8.39802
ဆာ	-8.39845
ခန်း	-8.39881
သင့်	-8.40047
▁ဒီတော့	-8.40058
ge	-8.40264
ill	-8.40431
25	-8.40497
အသုံးပြု	-8.40568
အရပ်	-8.4061
ေး	-8.40757
ရှိသော	-8.40763
လိ	-8.40847
ကုမ္ပဏီ	-8.40887
05	-8.41086
▁၁၉	-8.41232
မွ	-8.41265
မ်ား	-8.41341
ခု	-8.41387
ဆယ်	-8.41455
ha	-8.41512
ca	-8.42123
ဒ်	-8.42124
တန်	-8.42524
pe	-8.43073
ပစ်	-8.43217
▁အမေရိကန်	-8.43238
ဖြတ်	-8.43479
pa	-8.43701
13	-8.44233
စုံ	-8.44243
ချီ	-8.44271
▁15	-8.44529
ထားသော	-8.4453
နှင့်အတူ	-8.44678
ခဲ့သည်	-8.44682
ac	-8.44827
ောင်	-8.45065
ရည်	-8.45342
▁St	-8.45474
လျက်၊	-8.45724
အားဖြင့်	-8.45799
▁30	-8.45804
အပ်	-8.4583
သတ်မှတ်	-8.46085
ဲ	-8.46119
▁Ro	-8.4618
ခြေ	-8.46318
="2	-8.46413
▁Myanmar	-8.46578
ရှာ	-8.46724
ကျော်	-8.468
မီ	-8.46944
အသစ်	-8.47096
အခြား	-8.47168
အတိုင်း	-8.47217
▁ကောင်း	-8.47273
တော်ကို	-8.47295
ပိုင်	-8.47366
-1	-8.4753
ုံ	-8.47588
ပါ၊	-8.47687
/?	-8.47784
▁သုံး	-8.4811
ခဲ့ကြ	-8.48173
▁သင်၏	-8.48206
ငယ်	-8.48394
တိုး	-8.48508
19	-8.48531
ခြင်းနှင့်	-8.48537
▁အခမဲ့	-8.48654
ချုပ်	-8.48664
▁2016	-8.48678
35	-8.48727
▁အကျွန်ုပ်	-8.48745
29	-8.48761
▁Y	-8.49069
▁သေ	-8.49434
24	-8.49458
14	-8.49476
all	-8.49487
▁ထုတ်ကုန်များ	-8.49504
▁The	-8.49885
ive	-8.50022
org	-8.50296
09	-8.50346
အထိ	-8.50363
ers	-8.50511
bo	-8.50676
ie	-8.51007
ဖက်	-8.51015
tic	-8.51245
18	-8.51352
ရဲ	-8.51372
လိုအပ်	-8.51465
တည်	-8.51487
▁0	-8.51525
တပ်	-8.51568
ထုတ်လုပ်	-8.51577
▁၂၀	-8.51828
▁အပေါ်	-8.5192
▁သတင်း	-8.51942
▁2013	-8.52101
▁အခု	-8.52147
we	-8.52203
၂	-8.52285
ပေါ့	-8.52392
04	-8.52425
▁အလုပ်	-8.52428
ပါသည်။	-8.52448
ရိုက်	-8.52656
ig	-8.5275
ရောဂါ	-8.52767
ment	-8.52866
ငျ	-8.53285
ရုံ	-8.5332
▁Z	-8.53578
သူတို့	-8.53779
တိုင်	-8.53827
ခွဲ	-8.53871
စကား	-8.53937
များတွင်	-8.53947
မြ	-8.54021
▁မြို့	-8.54113
▁အသက်	-8.54164
ဖြစ်စေ	-8.54283
▁သင်တို့သည်	-8.54318
ပန်း	-8.54503
ve	-8.5454
မယ်	-8.54589
17	-8.54636
▁Air	-8.54637
ir	-8.54799
▁ရက်	-8.54903
90	-8.55071
ဥ	-8.55083
ti	-8.55333
▁ထိုသို့	-8.55385
32	-8.55422
▁In	-8.55748
ပိတ်	-8.55765
▁သူတို့သည်	-8.55784
▁ယခု	-8.55841
ong	-8.55866
အဘို့အ	-8.55889
po	-8.56018
▁ရောက်	-8.56114
▁စက်ရုံ	-8.5622
▁ကျနော်တို့	-8.56239
86	-8.56276
ကြလော့။	-8.56453
ပိုက်	-8.56589
▁လမ်း	-8.56605
07	-8.56655
ide	-8.56732
လော့။	-8.56733
ရုပ်	-8.56768
age	-8.56881
ထပ်	-8.56939
မြေ	-8.57023
ရောင်း	-8.57047
03	-8.57224
ကာကွယ်	-8.57388
ထုတ်လုပ်သူ	-8.57439
ထိုး	-8.57617
ဖတ်	-8.57844
sh	-8.57939
-2	-8.5795
ub	-8.58045
ချင်း	-8.58214
ပေါ့။	-8.58241
အခါ	-8.58286
အစီအစဉ်	-8.58341
ant	-8.58536
ph	-8.58541
der	-8.58744
no	-8.58871
နည်းပညာ	-8.58951
အကောင်းဆုံး	-8.58969
45	-8.59068
31	-8.59134
99	-8.5915
ပြောင်း	-8.59237
သမား	-8.5928
တွဲ	-8.59295
▁18	-8.59297
နေကြ	-8.59299
တာပါ။	-8.59328
ထင်	-8.59461
▁အကြောင်း	-8.59491
06	-8.5953
da	-8.59562
စင်	-8.59694
ni	-8.59732
သိမ်း	-8.59994
ဝယ်	-8.59995
ျဖစ္	-8.60044
tion	-8.60165
▁2015	-8.60179
ကွက်	-8.60409
တစ်ယောက်	-8.60438
များနှင့်	-8.60616
▁No	-8.60737
အလင်း	-8.60902
တော	-8.60951
ကတော့	-8.60997
င့်	-8.61044
အရွယ်အစား	-8.61412
www	-8.61589
ဆင်	-8.61639
ခင်	-8.61689
တာကို	-8.61692
ရှိသည်	-8.61731
ခြင်းငှါ	-8.61874
▁Ch	-8.61969
ခ်	-8.61991
ခြင်း၊	-8.61995
ပြီးနောက်	-8.62493
ရှာဖွေ	-8.62565
န္း	-8.62731
▁ပေးသွင်း	-8.62779
မယ္	-8.62823
ဒေသ	-8.63024
သူများ	-8.6305
mi	-8.63074
ကယ်	-8.63127
အမျိုး	-8.63141
▁နည်းပညာ	-8.63226
ဇာ	-8.63284
▁Android	-8.63344
▁သူ၏	-8.63429
ခဲ	-8.63827
▁ဘယ်လို	-8.63882
▁Le	-8.63935
▁လေ	-8.64106
ity	-8.64264
▁တစ်ဦး	-8.64428
lu	-8.64495
ပြည်နယ်	-8.64522
▁ဦး	-8.64787
▁16	-8.64904
သွေး	-8.65131
ow	-8.6545
ိတ်	-8.65524
@	-8.65594
▁(1	-8.65599
စာရင်း	-8.65661
ၾက	-8.65778
#	-8.65798
လိုင်း	-8.65808
ထုတ်ကုန်	-8.65836
နိုင်ပါတယ်။	-8.65913
အစိတ်အပိုင်းများ	-8.66027
ဒီဇိုင်း	-8.66284
08	-8.663
tra	-8.6631
ရှေ့	-8.66574
ကဒ်	-8.66652
ပြေး	-8.66667
ရှိပါတယ်	-8.66699
do	-8.66779
မွေး	-8.66862
ဘဝ	-8.6689
မှို	-8.66954
စပ်	-8.67125
တီ	-8.6716
▁ဘုရား	-8.67335
▁အို	-8.67354
ခဲ့ပြီး	-8.67376
ဖြစ်ပြီး	-8.67422
ကိုလည်း	-8.67584
▁de	-8.67773
▁Mo	-8.67841
အသံ	-8.6789
▁Ar	-8.67894
55	-8.68071
man	-8.68128
ay	-8.682
ရှု	-8.68262
ပို့	-8.68328
သည်ဟု	-8.68529
တဲ့အခါ	-8.68641
နေတာ	-8.68664
သွင်း	-8.687
မီး	-8.68716
▁ပြီးတော့	-8.68723
one	-8.68727
အလွန်	-8.68837
ချက်များ	-8.68873
႕	-8.68926
ကြည့်	-8.68962
ite	-8.69031
ကောက်	-8.69145
▁နေအိမ်	-8.69155
line	-8.69195
ell	-8.69212
ဝါ	-8.69229
ဆောင်ရွက်	-8.6924
ဆု	-8.69266
တွင်း	-8.69297
ပြီ။	-8.69298
36	-8.69317
အလုပ်	-8.69391
os	-8.69394
▁ဘယ်	-8.69403
ရုံး	-8.69532
တယ္	-8.69641
▁Sh	-8.69772
res	-8.69909
▁ထာဝရဘုရားသည်	-8.70049
လွှတ်	-8.70121
ပုံစံ	-8.70162
ဗားရှင်း	-8.70203
▁»	-8.7031
မြစ်	-8.70432
ား	-8.70468
ကာလ	-8.70475
စာအုပ်	-8.70488
ော့	-8.70556
လင်	-8.70663
ချစ်	-8.70737
လော	-8.70777
ဖြေ	-8.71012
ကိရိယာ	-8.7102
တော်မူသော	-8.71094
▁နောက်တစ်ခု	-8.7115
စစ်ဆေး	-8.71248
21	-8.71341
ရွေးချယ်	-8.71402
▁ဒါကို	-8.71424
[	-8.71674
နယ်	-8.7179
▁Valve	-8.72019
စတင်	-8.72134
ပေါ်တွင်	-8.72318
▁မီး	-8.72382
လယ်	-8.72464
ပ္	-8.7247
အစ	-8.72491
▁£	-8.72602
ရထား	-8.72731
ခွင့်	-8.72776
▁Pro	-8.72886
▁တကယ်	-8.72921
▁FSX	-8.72937
▁၃	-8.72975
▁ထိုအခါ	-8.73059
ass	-8.73104
ပူ	-8.73153
so	-8.73177
နှိပ်	-8.73293
ဆရာ	-8.73467
ber	-8.73485
▁မြင်	-8.73645
မ္း	-8.73685
ကင်	-8.73703
ian	-8.73752
ဘီ	-8.73968
ကြိုး	-8.7427
ရယူ	-8.74289
fi	-8.74472
▁ယခင်	-8.74474
ဌာန	-8.74563
▁Cl	-8.74597
မဲ	-8.74763
ပျက်	-8.74879
ဆင်း	-8.74899
ပိုမို	-8.74941
ကု	-8.74958
▁for	-8.74989
ပယ်	-8.75028
ဒေါ	-8.75192
tor	-8.75328
ကူး	-8.75359
34	-8.75409
စေခြင်းငှါ	-8.75529
ဆန်	-8.75578
ရွာ	-8.75601
▁24	-8.75725
▁သူမ	-8.7573
ရွိ	-8.75735
ts	-8.75843
33	-8.75873
22	-8.75983
မည်ဟု	-8.76099
ဝေ	-8.76169
အမျိုးသား	-8.76233
hi	-8.76239
စျေး	-8.76473
ပစ္စည်းများ	-8.76511
ကလေး	-8.76513
▁by	-8.76533
ဘာသာ	-8.76581
စွဲ	-8.76627
ထုတ်လုပ်မှု	-8.76695
နက်	-8.76842
able	-8.77201
အရေအတွက်	-8.77267
သဖြင့်၊	-8.77289
▁2014	-8.77298
စမ်းသပ်	-8.77362
နိုင်ပါတယ်	-8.77454
ear	-8.77473
="3	-8.77566
▁+0000	-8.77567
▁ဧ	-8.77775
ard	-8.7781
သမီး	-8.77823
ခွင့်	-8.77921
ရှိသမျှ	-8.77941
ဝန်ဆောင်မှု	-8.78016
37	-8.78271
သက်	-8.78327
ခြား	-8.78529
တွေရဲ့	-8.78797
နိ	-8.78805
ရို	-8.78852
ခါ	-8.78893
pr	-8.78912
ပေမဲ့	-8.78933
▁သင့်	-8.79052
▁အသုံးပြု	-8.79073
ရှား	-8.79101
များစွာ	-8.79224
built	-8.79309
▁Me	-8.79547
▁နေရာ	-8.79657
ကြလိမ့်မည်။	-8.79741
ag	-8.79792
တွေ၊	-8.79972
ဝန်	-8.80181
70	-8.80312
ကျိုး	-8.80474
ကလည်း၊	-8.8065
▁#	-8.80791
၁၈	-8.80899
▁100	-8.80915
ight	-8.80988
ဖန်	-8.81072
စံ	-8.81203
▁မြန်မာ	-8.81355
ိုင်း	-8.81566
▁အပြစ်	-8.81604
ကန်	-8.81643
▁Bo	-8.8169
ရယ်သံများ	-8.81735
အသက်	-8.81801
ဗာ	-8.81851
ခရီး	-8.81916
အသင်း	-8.81924
38	-8.81947
စွမ်း	-8.8195
တာဝန်	-8.81989
IN	-8.82069
ွေ	-8.82183
ရောင်	-8.82272
ပု	-8.82354
မဲ့	-8.82412
▁LED	-8.82434
ဏ	-8.82578
ခဲ့တဲ့	-8.82585
▁Lo	-8.82731
IC	-8.82814
လည်	-8.82861
ဖန်တီး	-8.82921
tt	-8.83032
▁1.	-8.83098
fe	-8.83148
မှီ	-8.83163
အပြင်	-8.83216
ရှိ၏။	-8.83352
ft	-8.83383
စကားကို	-8.83426
go	-8.83544
brag	-8.83599
▁slot	-8.8361
မြတ်	-8.837
▁သူတို့ကို	-8.83736
ဘယ်	-8.83909
▁အရောင်	-8.83999
ရှိသည်။	-8.84116
▁download	-8.84166
▁Be	-8.84224
▁၄	-8.84272
ဖြစ်၏။	-8.84272
be	-8.84385
▁ဒီလို	-8.84492
အကြောင်းကို	-8.84537
မတ်	-8.84722
ရစ်	-8.85131
23	-8.85296
ထို	-8.85351
▁သူသည်	-8.85464
▁Tr	-8.85546
ai	-8.85552
ID	-8.85569
▁မူပိုင်ခွင့်	-8.85573
ပိုး	-8.85854
လံ	-8.85926
ဆက်သွယ်	-8.85982
26	-8.86101
▁be	-8.86133
▁လူတွေ	-8.86134
အခြေအနေ	-8.86145
တယောက်	-8.86152
▁14	-8.86229
မင်္ဂလာ	-8.86247
▁tool	-8.86293
▁နာရီ	-8.86386
▁Pa	-8.86439
▁11	-8.86619
ခေါင်း	-8.86761
တံခါး	-8.86775
art	-8.86917
ပွား	-8.86968
▁200	-8.87055
တခု	-8.87163
ဝေး	-8.87222
သမျှ	-8.87302
ရမည်။	-8.87392
▁Sp	-8.87514
▁Se	-8.87523
ပါဘူး။	-8.87631
▁အသံ	-8.87668
▁စစ်	-8.87687
လွှာ	-8.87692
မေးခွန်း	-8.87694
vi	-8.8784
▁ကလေး	-8.87942
▁အမျိုးအစား	-8.87998
အချို့	-8.88064
အချက်	-8.88208
ပြောင်းလဲ	-8.88323
95	-8.88333
▁↑	-8.88413
ER	-8.88447
အရည်အသွေး	-8.88457
▁နံနက်	-8.88568
▁Generator	-8.888
ုန်	-8.89007
ga	-8.89008
ထံမှ	-8.89015
၎င်း	-8.89065
ရှည်	-8.89109
▁con	-8.89139
ကြေး	-8.89177
▁Windows	-8.89226
ster	-8.8932
▁25	-8.8934
▁Al	-8.89522
မှူး	-8.89538
အွန်လိုင်း	-8.89677
ခေတ်	-8.89695
▁အမျိုးသား	-8.8971
တု	-8.89855
ated	-8.89879
48	-8.90026
သူတွေ	-8.90207
▁Filter	-8.90216
သောအခါ၊	-8.90353
မြန်နှုန်း	-8.90371
▁To	-8.90387
end	-8.90391
ဖုန်ကောက်ခံရေး	-8.90634
ဆိုရင်	-8.90719
ll	-8.90769
ပျ	-8.90821
▁13	-8.90834
▁ဒါမှမဟုတ်	-8.90844
ck	-8.90845
စောင့်	-8.90878
ba	-8.90897
▁အကောင်းဆုံး	-8.90904
ကြွ	-8.91017
ဖျက်	-8.91163
မ္	-8.9117
▁An	-8.91359
▁ရောဂါ	-8.91418
နေသော	-8.91461
he	-8.91496
Q	-8.91535
ner	-8.91554
စည်း	-8.9158
ဥပဒေ	-8.91713
ပြင်ဆင်	-8.91936
▁၎င်း	-8.91939
ပါဝင်	-8.92002
ကျောင်း	-8.92034
ကာစီနို	-8.92048
ခဲ့တာ	-8.92225
ထိ	-8.92226
▁Black	-8.92256
အပူချိန်	-8.92402
▁Ho	-8.92445
အလုပ်လုပ်	-8.92463
သလို	-8.92473
ဖူး	-8.92482
တံ	-8.92578
မယ့်	-8.92713
▁သံမဏိ	-8.92733
ကပ်	-8.92763
ဘုရား	-8.92896
လမ်းညွှန်	-8.92938
▁Google	-8.93047
ဖြ	-8.9314
io	-8.93218
▁17	-8.93432
အရွယ်	-8.93465
ရှိပါတယ်။	-8.9347
67	-8.93541
လန်	-8.93628
ပထမဦးဆုံး	-8.9366
ab	-8.93728
ကျောက်	-8.93738
သတိ	-8.93763
ပေးသွင်း	-8.93787
▁ပုံစံ	-8.9379
▁အရာ	-8.93846
မျက်နှာပြင်	-8.93884
▁မြေ	-8.93933
ခြောက်	-8.9403
▁~	-8.94069
▁ကိုယ်တော်	-8.9423
65	-8.94555
▁သင့်ရဲ့	-8.94556
+	-8.94611
ction	-8.94646
▁ငါ့ကို	-8.94744
ဘူး။	-8.94813
▁For	-8.94853
ပါဘူး	-8.9486
▁2020	-8.94871
39	-8.9489
son	-8.9502
▁အလွန်	-8.95126
▁ISO	-8.95298
ါ	-8.9545
▁ညနေ	-8.95459
ရရှိနိုင်	-8.9552
ရွ	-8.95534
ပါပဲ။	-8.9568
▁တဖန်	-8.95741
ud	-8.96052
ယောက်	-8.96266
သောအခါ	-8.96299
ျော	-8.96397
ng	-8.96508
တို့၏	-8.96515
▁၂	-8.96635
အမိန့်	-8.96641
သတင်း	-8.96759
ပါ၏။	-8.96825
▁Bag	-8.96934
လွတ်	-8.9698
▁€	-8.97035
ဗျာ	-8.97044
မေး	-8.9714
အလေးချိန်	-8.97167
ေလ	-8.97191
▁နောက်ဆုံး	-8.97412
ေရး	-8.97434
ွတ်	-8.97452
ဂျာ	-8.97468
▁Forex	-8.97518
▁တရား	-8.97739
rd	-8.97807
ကြည့်ရှု	-8.97826
အပူ	-8.97866
47	-8.97929
ick	-8.97951
ကိုယ်ပိုင်	-8.98031
the	-8.98037
27	-8.98078
▁မင်း	-8.98101
ုပ်	-8.9811
နံပါတ်	-8.98113
ကြမ်း	-8.98383
LE	-8.98406
▁50	-8.98441
▁မဟုတ်	-8.98522
အများဆုံး	-8.98555
▁အလင်း	-8.98586
aw	-8.98666
ုိ	-8.98737
မက်	-8.98844
▁ထာဝရဘုရား၏	-8.99069
ဖို	-8.99106
gr	-8.99176
▁ငါ၏	-8.9926
အနည်းငယ်	-8.99289
act	-8.99335
▁အကြောင်းမူကား၊	-8.99368
ဘုရားသခင်	-8.9941
41	-8.99494
အမျိုးမျိုး	-8.99523
ကို၎င်း၊	-8.99533
ကမ်း	-8.99535
ခဲ့ပါတယ်။	-8.99618
56	-8.9962
75	-8.99647
US	-8.99665
တောင်း	-8.99719
မဆို	-8.99745
ack	-8.99791
▁PC	-8.998
▁hack	-8.99823
အဓိက	-8.99826
ကမ္ဘာ	-8.99926
တွေမှာ	-9.00004
▁ပညာ	-9.00099
▁ခုနှစ်တွင်	-9.00146
ဗီဒီယို	-9.00197
နဲ႔	-9.00223
▁La	-9.00236
▁Card	-9.00278
ကျန်းမာရေး	-9.00381
nd	-9.00402
အာမခံ	-9.00403
လွယ်ကူ	-9.00473
အရောင်	-9.00505
▁အဲဒါ	-9.00527
နည်းလမ်း	-9.00565
ဖွင့်	-9.00597
su	-9.00643
တရုတ်	-9.00668
ခံစား	-9.00692
em	-9.00765
အာ	-9.00768
နျ	-9.00778
လုပ္	-9.0084
▁''	-9.00882
▁ပြန်ကြားချက်	-9.00927
ကွန်ပျူတာ	-9.00993
နှုတ်	-9.01015
oo	-9.01035
ance	-9.01058
တန်ဖိုး	-9.01059
စဉ်းစား	-9.01061
ရှင်း	-9.01075
ချို	-9.01121
အပါအဝင်	-9.01126
69	-9.01179
ထောက်	-9.01195
စီမံကိန်း	-9.01195
▁Con	-9.01236
est	-9.01261
သော်လည်း	-9.01275
အခန်း	-9.01411
စီးပွားရေး	-9.01494
မြင့်	-9.01497
ပြုလုပ်	-9.01539
၂၀၀	-9.01544
ip	-9.01573
ust	-9.01607
▁လုပ်ငန်း	-9.01706
ႏ	-9.01743
ကြယ်	-9.01784
ဖုန်း	-9.0184
▁ဖန်တီး	-9.01897
အေ	-9.0193
ဖြစ်နိုင်	-9.01935
ပြသ	-9.01936
အကြား	-9.01973
200	-9.02038
▁မိန့်တော်မူ၏။	-9.02178
သဘော	-9.02209
၎င်း၏	-9.02393
ခရီးသွား	-9.02524
che	-9.02541
▁ကမ္ဘာ	-9.02625
ဖွင့်	-9.02801
port	-9.02829
မန်	-9.02842
နေရ	-9.02963
▁Fl	-9.03028
ဟန်	-9.03131
▁အဓိက	-9.03255
du	-9.03266
au	-9.03281
▁သင့်	-9.03377
form	-9.03555
ဓာတ်	-9.03676
ect	-9.03798
သင်တန်း	-9.03829
OS	-9.03866
မုန်	-9.03898
သတင်းအချက်အလက်	-9.03923
ec	-9.04009
သောက်	-9.04057
ဖိုင်	-9.04308
ငါး	-9.04321
အနေနဲ့	-9.04398
တတ်၏။	-9.04695
▁Tool	-9.04696
China	-9.04874
▁All	-9.04937
အဆင့်	-9.05006
▁စတင်	-9.05006
44	-9.05054
တို့အား	-9.05062
©	-9.0514
လက်ခံ	-9.05178
ထုပ်ပိုး	-9.05462
ash	-9.05487
ru	-9.05523
ကူညီ	-9.05657
100	-9.05798
▁Mar	-9.05813
mail	-9.05845
ကျန်	-9.06006
ရောင်းချ	-9.06044
ဂါ	-9.06047
▁ဒေါ်လာ	-9.06101
64	-9.06127
ဒို	-9.06141
ခင်း	-9.06169
မော	-9.06297
ကြောက်	-9.06363
66	-9.06426
အစား	-9.06481
▁စက်မှု	-9.06497
ဒဏ်	-9.06501
ကော်	-9.06509
▁မေး	-9.06548
▁ဆေး	-9.06617
ပြည့်စုံ	-9.06651
▁Li	-9.06718
ကြံ	-9.06772
တင်း	-9.06825
lang	-9.06886
▁filter	-9.06921
ap	-9.06986
ဖြစ်သော	-9.07058
ဖွယ်	-9.07071
စွမ်းအင်	-9.07133
အပိုဆု	-9.07139
လှုပ်ရှားမှု	-9.07258
၁၅	-9.07321
လမ်းကြောင်း	-9.07572
မိုး	-9.07573
ထု	-9.0775
68	-9.0779
min	-9.0788
int	-9.07978
▁ဟော	-9.08162
ven	-9.08166
အဆိုပါ	-9.08298
sk	-9.08342
▁၀	-9.08436
GB	-9.08519
▁So	-9.08693
သတည်း။	-9.08727
qu	-9.08991
ဆိုတဲ့	-9.09006
ak	-9.09025
ဖော်	-9.09054
ပါပြီ။	-9.09059
သေချာ	-9.09103
ကမ်းလှမ်း	-9.09128
သကဲ့သို့	-9.09192
▁ခေါ်	-9.0923
▁Sa	-9.09273
pl	-9.09279
les	-9.09321
လက်မှတ်	-9.09382
pt	-9.09406
▁ကျော်	-9.09426
လက္ခဏာ	-9.09481
ပီ	-9.09512
85	-9.09626
သနည်း။	-9.0963
ဖိအား	-9.09704
တယ်လို့	-9.09706
တ္တ	-9.09749
စီရင်	-9.09771
သည်ကား၊	-9.09804
▁Download	-9.09842
ပုံနှိပ်	-9.09872
ဝက်	-9.09887
ကင်း	-9.09894
▁100%	-9.09941
▁မူ	-9.09975
မိသားစု	-9.09987
▁ငါတို့သည်	-9.1008
တစ်ခုကို	-9.10131
လိမ့်မည်	-9.10179
▁ငွေ	-9.10205
▁ပုံမှန်	-9.10211
ကွင်း	-9.10222
မော်ဒယ်	-9.10257
cl	-9.10352
တွေ့ရှိ	-9.1047
▁ယေ	-9.10477
ရမည်	-9.10535
ကွန်	-9.10617
ဟော	-9.10648
▁Mon	-9.10916
စုစုပေါင်း	-9.10932
စာမျက်နှာ	-9.11006
အောင်မြင်	-9.11027
အကြောင်းအရာ	-9.11032
သင့်ရဲ့	-9.11123
▁ထင်	-9.11136
ist	-9.11214
ton	-9.11345
အန္တရာယ်	-9.11445
MB	-9.11446
▁မှတ်ချက်	-9.11473
ချိုး	-9.11661
tri	-9.11769
ရုပ်ရှင်	-9.11938
AR	-9.11942
အများစု	-9.12002
ထိုင်	-9.12008
▁စနစ်	-9.12139
42	-9.1221
အဖွဲ့အစည်း	-9.12252
▁အွန်လိုင်း	-9.12419
ကစား	-9.12425
ဘေး	-9.12543
ပါဝါ	-9.1265
သောသူသည်	-9.12704
ပတ်ဝန်းကျင်	-9.12708
ဖြစ်လာ	-9.12772
ဘယ်လို	-9.12778
300	-9.12962
ည္	-9.13126
AT	-9.13145
မြင့်	-9.13236
▁Vi	-9.13451
ast	-9.13452
▁Wi	-9.13476
par	-9.13484
ကျပ်	-9.13527
အားကစား	-9.13638
▁ယနေ့	-9.13695
ဓာတ်ပုံ	-9.13747
ou	-9.13875
▁App	-9.13877
ကောင်းသော	-9.1388
500	-9.13962
တိုင်အောင်	-9.14058
နာရီ	-9.14066
▁မတ်လ	-9.14075
▁လျှပ်စစ်	-9.14076
ပြုပြင်	-9.14132
han	-9.1431
▁ဘုရားသခင်၏	-9.14368
ace	-9.14433
င့္	-9.14497
pi	-9.14501
77	-9.14513
၀၀	-9.1454
▁မေ	-9.14623
▁app	-9.14638
▁ဗီဒီယို	-9.1466
od	-9.1482
▁အခြေခံ	-9.14834
▁Ad	-9.14843
▁you	-9.14853
လား။	-9.14872
AN	-9.14896
▁ဟ	-9.1491
တမ်း	-9.14932
ဂို	-9.14948
▁ကျောက်	-9.14953
ွား	-9.15062
နေထိုင်	-9.15079
▁Do	-9.15213
ပွ	-9.15223
▁site	-9.15246
ဘာသာစကား	-9.15286
ld	-9.15296
▁မိန့်တော်မူ	-9.15483
▁ပစ္စည်း	-9.15546
ုံး	-9.15633
▁အဲဒီလို	-9.15773
ွန်း	-9.15871
▁ယုံကြည်	-9.15896
ဉ်	-9.16017
ထင်ရှား	-9.1605
88	-9.16129
အခြေခံ	-9.16156
gen	-9.16184
2004	-9.16248
can	-9.16267
လျ	-9.16278
အများကြီး	-9.16335
▁ကျွန်တော့	-9.16343
▁ကုမ္ပဏီ	-9.16379
ကွဲ	-9.16409
land	-9.16462
IS	-9.16476
ဇယား	-9.16491
ဂီတ	-9.16549
အမြင်	-9.16598
လျက်ရှိ	-9.16628
သည်လည်း	-9.16635
သမိုင်း	-9.16647
လုပ်ဖို့	-9.16862
▁pro	-9.16867
တိကျ	-9.16957
’	-9.17033
ကြတယ်။	-9.17117
comment	-9.17152
;&	-9.17222
ci	-9.17254
▁ဥပမာ	-9.17284
ရင္	-9.1732
တီး	-9.17362
use	-9.17412
ဒေါင်းလုပ်	-9.17569
ki	-9.17597
ဖော်ပြ	-9.17647
ator	-9.17673
သတ္တု	-9.17694
▁Dr	-9.17732
ခတ်	-9.17761
မီတာ	-9.17814
ဖောက်သည်	-9.17844
ရှိတဲ့	-9.17888
rt	-9.17983
-5	-9.17992
las	-9.18042
အနုပညာ	-9.1809
▁အမည်	-9.18188
▁စကား	-9.18428
နောက်ဆုံး	-9.18597
အာဏာ	-9.18599
တစ်နှစ်	-9.18663
ဂုဏ်	-9.18757
စ္	-9.18831
ထောက်ပံ့	-9.18849
▁PVC	-9.18916
ဗေဒ	-9.19007
ခရီးစဉ်	-9.1905
ကူ	-9.19084
▁©	-9.19121
▁ဣသရေလ	-9.19125
ငျး	-9.19141
တံဆိပ်	-9.19159
ka	-9.19189
▁Ra	-9.19201
▁Play	-9.19215
ထည်	-9.19241
ကျွန်	-9.19267
ct	-9.19275
ating	-9.19383
သည္	-9.1939
နိုင်တဲ့	-9.19415
▁Br	-9.1942
▁စီးပွားရေး	-9.19427
မယ်။	-9.19455
ပညာရှင်	-9.1956
ဆိုလို	-9.19576
▁မရှိ	-9.19591
iv	-9.19711
စျေးကွက်	-9.19719
SP	-9.19769
ဩ	-9.1978
သင်၏	-9.19807
▁ပါဝင်	-9.19852
အကွာအဝေး	-9.19869
ial	-9.19953
ကိစ္စ	-9.19954
ဖွဲ့စည်း	-9.19973
ရလဒ်	-9.2011
49	-9.2012
▁၁၀	-9.20134
ကား၊	-9.20158
ဧရိယာ	-9.20189
အဆင့်	-9.20203
cy	-9.2022
ကေ	-9.2022
▁Facebook	-9.20269
ဆေးရုံ	-9.20274
▁Ba	-9.20347
ရှင်ဘုရင်	-9.20383
▁Un	-9.20383
54	-9.20417
ျပီး	-9.20657
▁CNC	-9.20673
အသေးစိတ်	-9.20674
ပါစေ	-9.20733
58	-9.20997
▁ဣသရေလအမျိုး	-9.21022
ပိုပြီး	-9.2112
bu	-9.2117
▁ပု	-9.21304
TS	-9.21383
သောကြောင့်၊	-9.21414
တစ်ခုခု	-9.21445
သင်္ဘော	-9.2148
မြန်	-9.21502
▁ရှာ	-9.21525
စွမ်းရည်	-9.21622
ကိုယ်တိုင်	-9.21654
▁လူသား	-9.21769
▁Ex	-9.21859
တစ္	-9.21922
ရာသီ	-9.21949
နှစ်ခု	-9.22056
va	-9.22191
ET	-9.22265
bi	-9.22268
ဟောင်း	-9.22373
အပေါင်းတို့	-9.22439
▁ဖိုင်	-9.22461
ရေနံ	-9.22474
tro	-9.22606
ရယ်	-9.22647
▁Casino	-9.22681
log	-9.22706
ue	-9.22781
▁ပြောင်းလဲ	-9.22837
▁Mi	-9.23067
*	-9.2316
atch	-9.23177
▁sp	-9.2323
▁သူတို့ရဲ့	-9.23272
ဆောင်းပါး	-9.23307
98	-9.23336
ကုဒ်	-9.23402
▁ရှင်ဘုရင်	-9.23438
ank	-9.23516
ty	-9.23536
▁ခင်ဗျားတို့	-9.23564
▁(20	-9.23595
hu	-9.23711
ရှေ့မှာ	-9.23758
57	-9.23786
0.0	-9.23821
Com	-9.24057
ကျေးဇူး	-9.2411
tal	-9.24124
လင်း	-9.2414
43	-9.24167
yl	-9.24192
▁ထုတ်ကုန်	-9.24313
ကျင့်	-9.2434
နမူနာ	-9.24363
ဆဲ	-9.24366
59	-9.24458
လေ့လာ	-9.24576
wordpress	-9.24615
သန်း	-9.24706
အိုး	-9.24714
နဲ	-9.24738
ပြင်း	-9.24786
အားပေး	-9.24804
ပြိုင်	-9.24855
sta	-9.24954
လွ	-9.24959
▁ခု	-9.24979
လူမျိုး	-9.25006
vo	-9.25031
ပြည်ထောင်စု	-9.25034
အလိုအလျောက်	-9.25035
ff	-9.25103
ပါတယ္	-9.25163
mer	-9.25208
▁အထူး	-9.25284
▁Europe	-9.25287
ထံ	-9.25309
အတွေ့အကြုံ	-9.25371
▁ဒီမှာ	-9.25407
၂၀	-9.25452
▁အသစ်	-9.25488
နို	-9.25504
စေရန်	-9.25539
ting	-9.25546
▁ဒုတိယ	-9.25612
ind	-9.25708
ပြဿနာ	-9.25739
74	-9.25758
ရေးသား	-9.2585
▁ခင်ဗျား	-9.2593
▁စီးရီး	-9.25936
လို့ရ	-9.25977
▁အဘယ်	-9.26003
ဲ့	-9.26025
ဂ်	-9.26054
72	-9.26098
အို	-9.26115
▁×	-9.26129
အမှတ်	-9.26136
rs	-9.26137
▁ဘာသာစကား	-9.26138
သီချင်း	-9.26156
ထုတ်ကုန်များ	-9.26211
▁22	-9.26253
▁နယူး	-9.2636
▁သြဂုတ်လ	-9.26443
cm	-9.26525
စေ့	-9.2657
အထူး	-9.26605
ေပး	-9.26659
ဘူ	-9.26761
gi	-9.26848
ထဲသို့	-9.26952
▁My	-9.26966
မသိ	-9.2698
ချည်	-9.27119
့်	-9.27349
လေဆိပ်	-9.27391
▁သန်း	-9.27474
ထုတ်လုပ်သူများ	-9.27481
တီထွင်	-9.27514
အုပ်	-9.27676
အမေရိကန်	-9.27752
စေလွှတ်	-9.27813
ပူဇော်	-9.2785
အကြံပေး	-9.27855
ရှေ	-9.27861
ရံ	-9.27915
မျက်နှာ	-9.27932
▁°	-9.27953
တစ်ခုတည်း	-9.27982
ပျော်	-9.28024
ပြာ	-9.28096
▁Pre	-9.28121
▁High	-9.28162
ကျင်းပ	-9.28162
ပေးနိုင်	-9.28252
▁ကျွန်ုပ်တို့၏	-9.28254
▁He	-9.28283
ပူးပေါင်း	-9.28284
▁အစိုးရ	-9.28354
ထံသို့	-9.28448
ခဲ့ရ	-9.2848
▁ထာဝရ	-9.28498
ဘော်	-9.28514
ခို	-9.28607
စက္ကူ	-9.28637
▁မောရှေ	-9.28638
▁တစ်ဦးက	-9.2866
▁Key	-9.28721
အမှုကို	-9.2888
မိုက်	-9.28918
မပြု	-9.28972
▁ကိုယ့်	-9.28977
▁ဖုန်း	-9.29034
ခွ	-9.29039
ကီ	-9.29225
တစ်ဦးက	-9.29256
ဖမ်း	-9.29323
ထို့	-9.29327
၁၂	-9.29334
အိုင်	-9.29338
150	-9.2936
ကြော	-9.29431
▁ရွှေ	-9.29458
ဖျ	-9.29476
▁စိတ်ကူး	-9.29531
လှည့်	-9.29596
သီ	-9.29599
ငွေကြေး	-9.29624
tu	-9.29675
▁စာမျက်နှာ	-9.29683
▁iPhone	-9.29684
▁သူ့ကို	-9.29703
ဆိုက်	-9.29786
▁အဘယ်သို့	-9.29945
ble	-9.3007
၀၀၀	-9.30299
လျှောက်	-9.3037
ျဖ	-9.30623
လစ်	-9.30634
SS	-9.30743
ဦးဆောင်	-9.30746
စာနယ်ဇင်း	-9.30748
▁En	-9.30797
her	-9.30811
61	-9.30944
ish	-9.30953
ဖြစ်သည်	-9.31
သင်ယူ	-9.31032
97	-9.31052
▁မျက်နှာ	-9.31102
ယဇ်	-9.31104
အုပ်စု	-9.31146
ကုသမှု	-9.31149
မှစ၍	-9.31182
နှလုံး	-9.3138
51	-9.31419
ဆက်စပ်	-9.31458
ဓာတု	-9.31463
အတူ	-9.31477
တို့၌	-9.31565
▁ကုန်ပစ္စည်း	-9.31571
ပန်	-9.31585
နိုင်ပါသည်။	-9.31657
မြင့်မားသော	-9.31735
ook	-9.31749
▁Di	-9.31754
▁post	-9.31766
▁Te	-9.31785
လု	-9.31789
အမှတ်တံဆိပ်	-9.31852
တက္ကသိုလ်	-9.31912
၁၆	-9.31954
▁အမျိုးသမီး	-9.31962
▁FS	-9.3199
str	-9.32005
ခိုး	-9.32068
အံ့	-9.32104
pp	-9.32176
ထည့်	-9.32196
စီးရီး	-9.32206
▁2012	-9.32214
အချက်အလက်	-9.32236
အေး	-9.32239
သုတေသန	-9.32274
ျပ	-9.32323
စောင့်	-9.32351
▁ကျုပ်တို့	-9.32364
£	-9.32387
87	-9.32405
နိုင်သည်။	-9.3246
ပေါင်းစပ်	-9.32517
တရားဝင်	-9.32535
ary	-9.32583
71	-9.3267
ung	-9.3267
▁သူက	-9.32778
မီဒီယာ	-9.32818
SA	-9.32837
air	-9.32837
နည်းနည်း	-9.32916
for	-9.33008
-0	-9.33092
ပြည့်	-9.33108
lic	-9.33152
Fi	-9.33173
ႏိုင္	-9.33179
▁ထိပ်တန်း	-9.33183
ကင်မရာ	-9.33183
ဖြစ်ပါသည်။	-9.33264
ဂျက်	-9.33268
▁သဘာဝ	-9.33287
▁သိပ်	-9.33297
out	-9.33323
ကော	-9.33368
ကွ	-9.3342
ရဲ႕	-9.33577
MA	-9.33623
သံမဏိ	-9.33653
96	-9.33708
သမ္မတ	-9.33732
နွေ	-9.33759
ep	-9.33777
ဓါတ်ပုံ	-9.33828
▁Qu	-9.33853
ဥစ္စာ	-9.33915
▁ကျောင်း	-9.33999
ကြိမ်	-9.3401
သင်တို့	-9.34016
▁Na	-9.34025
▁21	-9.34036
ယော	-9.34104
စော	-9.3412
အီ	-9.34243
သေတ္တာ	-9.34284
dia	-9.34309
ိုင်	-9.34328
ကျနော်တို့	-9.34375
▁မော်ဒယ်	-9.34429
▁ရှိနေ	-9.34443
လေ။	-9.34538
နီး	-9.34584
ပါတယ်၊	-9.34596
set	-9.34626
ရှောင်	-9.34712
ယောက်ျား	-9.34839
▁23	-9.34908
▁မိုဘိုင်း	-9.34952
ran	-9.34954
▁Precision	-9.35025
▁အထိ	-9.35048
xi	-9.35075
ture	-9.35105
2018	-9.35164
ပြတ်	-9.35226
မျက်	-9.35266
သောအရာ	-9.35291
တုန်းက	-9.35295
MP	-9.35322
="4	-9.35326
သန်	-9.35328
▁Da	-9.35359
လဲ။	-9.35398
pro	-9.35404
မႈ	-9.3555
အပိုင်း	-9.35563
400	-9.35596
ဓ	-9.3565
မှတ်ပုံတင်	-9.35865
ဆိတ်	-9.35885
ဝိုင်း	-9.35924
ကြော်ငြာ	-9.35959
ရတာ	-9.36023
dy	-9.36131
လှည့်	-9.36165
▁ကျွန်ုပ်တို့	-9.36283
ood	-9.36292
သြား	-9.3635
မဖြစ်	-9.3636
ပမာဏ	-9.36369
▁500	-9.36434
▁cheat	-9.3644
ေလး	-9.36452
ON	-9.36461
ကတ်	-9.36463
46	-9.36473
ထိုကဲ့သို့သော	-9.36531
မူကား၊	-9.36573
သော်၊	-9.36599
ချောင်း	-9.36603
ပါတယ္။	-9.36617
မျက်စိ	-9.36645
▁ကစား	-9.36756
▁HD	-9.36794
ယို	-9.37012
ကူးစက်	-9.37039
တဲ	-9.37054
စုဆောင်း	-9.37155
အပြစ်	-9.37161
လက္	-9.37207
In	-9.37236
အီးမေးလ်	-9.37282
▁Gu	-9.37308
စားပွဲ	-9.37355
ဣ	-9.37377
အတည်ပြု	-9.3738
ၿပီး	-9.37388
ကျွန်း	-9.37441
မှာတော့	-9.37525
အင်္ကျီ	-9.37567
-20	-9.37622
▁ယဇ်ပုရောဟိတ်	-9.37623
ug	-9.37663
ပလတ်စတစ်	-9.37758
မယ့်	-9.37773
လံုး	-9.37867
▁လျှောက်	-9.38035
0.1	-9.38045
င့္	-9.38056
နတ်	-9.38171
ကိန်း	-9.38222
ငါ့	-9.38352
mb	-9.38406
ဝယ်ယူ	-9.38431
ဖြစ်စဉ်	-9.38438
ထိန်းချုပ်	-9.38464
ိမ်	-9.38487
▁သင့်ကို	-9.38509
hy	-9.38598
ဖွဲ့	-9.38728
▁အကျိုး	-9.38833
MC	-9.38836
အသုံးပြုမှု	-9.38883
▁ဖေါ်ပြချက်	-9.38916
▁CO	-9.3893
▁ပတ်သက်	-9.38989
ml	-9.39029
အရေးကြီး	-9.39044
သော်လည်း၊	-9.39056
ယုံကြည်	-9.39183
ဖျက်ဆီး	-9.39215
78	-9.39233
ရိတ်	-9.39249
▁ရှေ့	-9.39276
wi	-9.39323
ခုံ	-9.39343
ies	-9.39358
]]	-9.39425
▁Car	-9.39443
ပျို	-9.39453
ron	-9.39468
စွမ်းဆောင်ရည်	-9.39493
▁ယုဒ	-9.39495
▁ယော	-9.3955
oc	-9.39556
ဖြေရှင်း	-9.39579
အများအပြား	-9.39591
53	-9.39658
▁နားလည်	-9.39809
မေ	-9.39898
ob	-9.39992
သုံးစွဲ	-9.39999
အနား	-9.40118
▁မိမိတို့	-9.40156
တိုက်ရိုက်	-9.4021
အသုံး	-9.40232
တိုးတက်	-9.40292
မင်းကြီး	-9.40294
▁လုံးဝ	-9.40429
ျခင္း	-9.4047
br	-9.40473
သင့်ရဲ့	-9.4048
တော်မူပါ။	-9.40491
ဖြစ်ကြောင်း	-9.40629
လော့ဟု	-9.40645
PC	-9.40761
76	-9.40768
အီး	-9.40867
ကတည်းက	-9.40891
▁နားထောင်	-9.4093
fer	-9.40944
▁ပထမ	-9.40982
စ္စ	-9.41
လျှောက်လွှာ	-9.41055
ပါဝင်သည်	-9.41069
စင်တာ	-9.41157
သခင်	-9.41172
ens	-9.41438
PP	-9.41485
▁မိနစ်	-9.41492
▁Code	-9.41494
ထမ်း	-9.41598
ခန့်	-9.41652
ငြင်း	-9.41656
version	-9.41656
တွန်း	-9.41682
ကျင်	-9.41701
မို	-9.41818
လိမ့်မည်ဟု	-9.41846
ကြိုးစား	-9.41906
▁အမြင့်	-9.41936
▁DVD	-9.41955
တိတ်	-9.41965
▁သူတို့က	-9.42016
ကွာ	-9.42025
▁လက်မ	-9.42027
52	-9.42096
လိမ့်မည်	-9.42114
တန်ဆာ	-9.42215
လည်ပတ်	-9.42217
▁၎င်းတို့	-9.42228
▁ငါး	-9.42263
ထူး	-9.42317
လောင်	-9.42328
ဇာတ်လမ်း	-9.42384
ဗဟို	-9.42404
ကြပါ	-9.42467
ဖန်ဆင်း	-9.42482
တည်ဆောက်	-9.42487
eng	-9.42503
89	-9.42557
ယူနစ်	-9.42627
-6	-9.42653
OR	-9.42663
▁ဂိမ်း	-9.42668
▁ဒါကြောင့်	-9.42762
▁အဘယ်သူ	-9.42863
▁ကမ္ဘာ့	-9.42923
ix	-9.42933
▁အဘယ်သူမျှမ	-9.4299
▁လိုအပ်	-9.43097
တတ်သော	-9.43102
▁Glass	-9.43158
ထိပ်	-9.43272
AC	-9.43296
▁သို့သော်	-9.43495
ဆွေးနွေး	-9.43561
သဖြင့်	-9.43581
▁အတူ	-9.43586
▁Fe	-9.43623
ကွယ်	-9.43632
ကောင်းမွန်	-9.43634
တည်း။	-9.43638
▁ဘဝ	-9.43744
ပါပဲ	-9.43984
EN	-9.43986
ရာခိုင်နှုန်း	-9.44069
ဆီး	-9.44185
ဝါး	-9.44251
▁Du	-9.44305
ဖုံး	-9.44327
စကားလုံး	-9.44371
ဆဲလ်	-9.44432
ence	-9.44463
▁သင်တန်း	-9.44559
▁နှုတ်	-9.44562
ပြန်လည်သုံးသပ်	-9.44598
ifi	-9.44654
စိုက်	-9.44735
ညာ	-9.44785
ထိန်း	-9.44822
▁မသိ	-9.44839
▁ပထမဆုံး	-9.44843
လို႔	-9.44881
ဝါယာကြိုး	-9.44886
▁မြန်မာနိုင်ငံ	-9.44898
ယံ	-9.449
▁Posted	-9.44956
▁Die	-9.44993
▁ဒါကြောင့်	-9.44995
ပျောက်	-9.4504
ကျွန်တော်တို့ကို	-9.45159
▁ဒီဇင်ဘာလ	-9.45172
▁System	-9.45195
▁Gr	-9.45197
XL	-9.45215
အခွန်	-9.45301
ချိတ်ဆက်	-9.45323
ရိုးရှင်း	-9.45354
▁Cha	-9.45358
Free	-9.45375
▁Tools	-9.4548
py	-9.45551
ဂျီ	-9.4559
▁စီရင်	-9.45674
63	-9.45689
▁အမှတ်	-9.45751
▁Ac	-9.45759
ည်	-9.45776
ဆုံးဖြတ်	-9.45801
bar	-9.45824
▁Th	-9.45896
ရွက်	-9.45927
လှေ	-9.45933
အစိတ်အပိုင်း	-9.45991
ဖာ	-9.46025
နာမည်	-9.46058
အရောင်း	-9.46059
ကဲ	-9.46069
ja	-9.4607
ႏွစ္	-9.46181
▁Ha	-9.4619
▁2010	-9.462
▁ပြုလုပ်	-9.46276
get	-9.46287
နည္း	-9.46334
▁ကိုယ်တော်သည်	-9.46337
တိပ်	-9.46362
▁Po	-9.46417
ကိုင်	-9.46588
▁ထိုသူ	-9.46609
ဆင့်	-9.46612
▁အဆင့်	-9.46668
ကောင်းတဲ့	-9.46809
ထိန်းသိမ်း	-9.46874
lay	-9.46929
ပြီးတော့	-9.46985
▁By	-9.47023
▁အိန္ဒိယ	-9.47049
တချို့	-9.47066
အော်တို	-9.47068
mon	-9.47166
ဆုံးရှုံး	-9.47182
▁၆	-9.47231
၁၀	-9.4726
အချင်း	-9.473
net	-9.47399
ကြောင်းကို	-9.47428
▁အထက်	-9.47448
84	-9.4746
73	-9.47658
▁နောက်ထပ်	-9.47674
ဘဏ်	-9.47696
စမ်းသပ်မှု	-9.47805
ဒေတာ	-9.47807
တဦးတည်း	-9.47827
▁လက်ရှိ	-9.47855
သုံးပြီး	-9.47856
လုပ်ကိုင်	-9.4788
▁device	-9.47908
ကယ်တင်	-9.47909
▁with	-9.47917
CH	-9.47958
▁နား	-9.47968
▁ချစ်	-9.4797
▁အောက်တိုဘာလ	-9.47971
မောင်း	-9.48021
တို့တွင်	-9.48036
ဝမ်း	-9.48051
▁မိန်းမ	-9.48057
▁install	-9.48089
လုံ	-9.48123
▁EA	-9.4816
သြ	-9.48161
ဒီမှာ	-9.48181
PA	-9.48313
ဗြိတိန်	-9.48331
▁ဖုန်းနံပါတ်	-9.48349
inter	-9.48413
၃၀	-9.48417
gu	-9.48437
သညျ	-9.48478
တူညီ	-9.48501
လို့ပါ။	-9.48507
▁ဤသည်	-9.48561
-19	-9.48597
နံ	-9.48605
နှစ်သက်	-9.48618
day	-9.48623
ယာဉ်	-9.48651
အနက်	-9.48652
CE	-9.48677
ဘက်ထရီ	-9.48757
▁Ga	-9.48774
ပြိုင်ပွဲ	-9.48845
RO	-9.48986
ee	-9.49034
▁မြေကြီး	-9.49173
ach	-9.49251
အတြက္	-9.49468
ဟို	-9.49487
▁ထပ်	-9.495
တည်းဟူသော	-9.4952
▁အရှေ့	-9.49529
ဗီ	-9.49532
▁လုပ်ပါ	-9.49542
sha	-9.49543
ဖုန်မှုန့်	-9.49614
ပေးရန်	-9.49644
မြို့၊	-9.4968
ွမ်	-9.49693
ယေရှု	-9.49698
သိကောင်းစရာများ	-9.49722
ဖိ	-9.49782
▁သဘော	-9.49788
တြင္	-9.49865
အောက်ပါ	-9.4994
ah	-9.49982
နိုင်ပါသည်	-9.49989
▁Ge	-9.50107
ဇီဝ	-9.50122
▁အားဖြင့်	-9.50239
အကောင့်	-9.50277
ခြင်းနှင့်	-9.50285
con	-9.50314
ညျ	-9.50344
-10	-9.50359
▁အလုပ်လုပ်	-9.50366
ပေါ်လာ	-9.50399
ST	-9.50438
ပြောပြ	-9.50673
ခုနစ်	-9.50674
▁Su	-9.50726
ya	-9.50752
ဖြစ်ကြ	-9.50763
မြှောက်	-9.50805
တစ္ခု	-9.50834
mp	-9.5084
▁ပြောင်း	-9.50849
▁ဝန်ဆောင်မှု	-9.50886
ဘဏ္ဍာ	-9.51023
လုံခြုံ	-9.51099
ုး	-9.5112
၅၀	-9.51126
လျှပ်စစ်	-9.51209
ဧ	-9.51211
transposh	-9.5124
အရပ်၌	-9.51346
▁ယေရုရှလင်မြို့	-9.51349
▁တကယ့်	-9.51351
ကြိတ်	-9.51353
ko	-9.51383
စသည်တို့ကို	-9.51386
သက်တမ်း	-9.51396
▁New	-9.51427
▁အဘယ်ကြောင့်	-9.51495
▁Off	-9.51522
93	-9.51527
ED	-9.51534
နာမ	-9.51569
မြေပုံ	-9.51575
▁ရုပ်ပုံ	-9.51604
အကြိမ်	-9.51645
စည်	-9.51659
ရှက်	-9.51663
▁သန့်ရှင်း	-9.51668
▁ဆက်ဖတ်ရန်	-9.5168
▁အရမ်း	-9.5178
▁ဣသရေလအမျိုးသား	-9.51788
အထက်	-9.51806
▁အကျွန်ုပ်တို့	-9.5184
▁ဂီတ	-9.51923
မြား	-9.51945
တည်ရှိ	-9.51952
အကြံပြု	-9.51953
ဥယျာဉ်	-9.5201
tter	-9.52053
ov	-9.52059
ရှေ့တော်၌	-9.52231
▁အိပ်	-9.52273
▁Mobile	-9.52341
▁မျက်	-9.52352
လေကြောင်းလိုင်း	-9.52357
အောက်တွင်	-9.5237
TE	-9.52393
ker	-9.5243
အားလုံးကို	-9.52439
လုံခြုံရေး	-9.52477
လောင်း	-9.52503
တို႔	-9.52608
လိမ့်မယ်	-9.52633
ထားသည်။	-9.52663
ical	-9.52684
ပျက်စီး	-9.52741
que	-9.52803
ယခု	-9.52841
red	-9.52897
သလဲ	-9.52897
သံလိုက်	-9.52922
ox	-9.53006
လက်ဆောင်	-9.53073
ထိန်းချုပ်မှု	-9.53155
အနီး	-9.53232
သွား၍	-9.53237
box	-9.53254
less	-9.53261
မြင်ရ	-9.53263
ကျယ်	-9.53268
ပံု	-9.53393
91	-9.53408
lin	-9.53429
ဖောက်	-9.5352
old	-9.53564
ကြိုက်	-9.53567
နိုငျ	-9.5359
ပုံရိပ်	-9.53593
စိတ်ကြိုက်	-9.53696
je	-9.53704
အောက်စီဂျင်	-9.53788
ဘွား	-9.53825
▁Jo	-9.53884
ြန္	-9.5396
စင်တီမီတာ	-9.54013
အောက်ဆီဂျင်	-9.54013
▁သတ္တု	-9.54071
ase	-9.54124
▁RFID	-9.54126
မှန်ကန်	-9.54191
-8	-9.54226
သည်အတိုင်း၊	-9.54235
ဘတ်	-9.54346
▁ကျွန်မရဲ့	-9.54372
လာကြ	-9.54433
cha	-9.54457
over	-9.54486
▁ဒါဝိဒ်	-9.54543
600	-9.54572
ကျောင်းသား	-9.54595
လုပ်ဆောင်	-9.54651
▁ဒီနေ့	-9.54687
ကွဲပြား	-9.54714
▁ပန်း	-9.5477
နော်	-9.54831
ကျူး	-9.5502
▁reserved	-9.5503
ပစ္စည်းကိရိယာ	-9.55042
▁ဇွန်လ	-9.55042
▁နိုဝင်ဘာလ	-9.55088
▁မီလီမီတာ	-9.55158
လိပ်	-9.5518
▁2011	-9.55184
ကိုအသုံးပြု	-9.5522
▁ဖြစ်လာ	-9.55277
ဘုရားကျောင်း	-9.55335
az	-9.55362
▁Ningbo	-9.55371
ေသာ	-9.5539
ငှက်	-9.55485
ဖြစ်နေ	-9.55543
of	-9.55543
ခက်	-9.55546
အသေးစား	-9.55607
▁ပိုပြီး	-9.55645
EC	-9.557
ရွေး	-9.55753
စကားပြော	-9.55797
သု	-9.55807
ဆိုင်း	-9.55907
MM	-9.55908
ဘီး	-9.55911
ဖြောင့်မတ်	-9.55917
တပါး	-9.55922
92	-9.55968
ပံ့ပိုးမှု	-9.56004
▁သခင်	-9.56005
စမ်း	-9.56017
▁ပြဿနာ	-9.56017
▁4.	-9.56042
အဘ	-9.5607
အာရှ	-9.5623
▁သိပ္ပံ	-9.56236
ဘာသာပြန်	-9.56268
လွယ်	-9.56316
လှုပ်ရှား	-9.56318
▁Web	-9.56328
လိုက္	-9.56372
တယ္။	-9.56435
ရွှေ	-9.56443
▁Anti	-9.56518
▁ဘေး	-9.56576
တို့က	-9.56608
ဗိုင်းရပ်စ်	-9.56633
▁ဖြစ်သည်။	-9.56708
ရီးယား	-9.56719
▁function	-9.56748
▁system	-9.56748
စတာ	-9.56779
▁DC	-9.56796
▁[1]	-9.56821
ဖြစ်ရပ်	-9.56827
ဘုန်း	-9.56864
▁Phone	-9.56879
ries	-9.56909
▁စက်တင်ဘာလ	-9.56939
ကြတဲ့	-9.56999
▁နှစ်ပေါင်း	-9.57025
uck	-9.57042
ေရ	-9.57055
သဲ	-9.57141
62	-9.57285
▁Sha	-9.57325
▁update	-9.57329
ယုံ	-9.57498
ကုန်ကျစရိတ်	-9.5756
q	-9.57647
und	-9.57652
if	-9.57663
▁အဲ	-9.57739
[2]	-9.57795
ပြင်ပ	-9.57817
ပါလိမ့်မယ်	-9.57915
ဆိုတာကို	-9.57942
ထိုင်း	-9.57965
အင်္ဂါ	-9.58021
▁Casting	-9.58028
TV	-9.58056
ကြည်	-9.58067
▁Ri	-9.58105
မိန်းမ	-9.58229
အကြံ	-9.5831
82	-9.58343
▁အဲဒါကို	-9.58349
▁27	-9.58385
ငြိမ်	-9.5843
ger	-9.58444
our	-9.58524
အောက်မှာ	-9.58559
ပိုင်ဆိုင်	-9.58601
နွ	-9.58685
ဿ	-9.58732
IT	-9.5876
င်္	-9.58791
တိရစ္ဆာန်	-9.58849
▁Ta	-9.5885
လှိုင်း	-9.58919
ဆန္ဒ	-9.58969
ဘောလုံး	-9.59014
▁အသက်ရှင်	-9.59025
ေအာင္	-9.59096
တန်ခိုး	-9.59115
▁သိုး	-9.59161
နေ့ရက်	-9.59168
AL	-9.59177
နစ်	-9.59229
ခေါ်ဆို	-9.59277
လေကြောင်း	-9.59351
chi	-9.59356
ပိုက်ဆံ	-9.59371
ric	-9.59444
ေတာ္	-9.59444
▁ကျွန်	-9.59527
ဆောက်	-9.59533
▁အိတ်	-9.59539
×	-9.59568
ular	-9.59644
မင်	-9.59646
ဘွယ်	-9.59679
အပြည့်အဝ	-9.59798
နှင့်တကွ	-9.59811
ဒိ	-9.60016
2.0	-9.60019
▁rights	-9.60037
ေနာက္	-9.60038
စမတ်	-9.60052
လောက	-9.60102
▁ပင်လယ်	-9.60125
နိုင်တယ်။	-9.60128
အပို	-9.60136
လပ်	-9.60149
ချီးမွမ်း	-9.60156
▁အန်းဒရွိုက်	-9.60167
ave	-9.6021
ဇာတ်	-9.60212
▁တည်	-9.60305
အစိုးရ	-9.60393
သူရဲ	-9.60396
▁your	-9.60413
▁ကူးစက်	-9.6058
▁panel	-9.60636
စက်မှု	-9.60639
TI	-9.60728
yo	-9.60769
▁Hu	-9.60789
မိုင်	-9.60881
ဖျား	-9.60899
ium	-9.609
လျော်	-9.60925
ိဳ	-9.60976
ညီအစ်ကို	-9.61007
ရာတွင်	-9.61016
တေ	-9.61021
▁Main	-9.61059
တရားကို	-9.61122
စာရွက်	-9.61146
ညှိ	-9.61182
▁Ca	-9.612
ချွတ်	-9.61219
ပြန်လည်ဆန်းစစ်	-9.61238
▁polyester	-9.61238
▁Panel	-9.61239
▁ဂျပန်	-9.61243
ade	-9.61243
▁iOS	-9.6126
jo	-9.61307
လက်ရှိ	-9.61334
▁Up	-9.61343
lle	-9.61376
မော်တော်	-9.61376
ထိပ်တန်း	-9.61388
သို	-9.61422
ကြပ်	-9.6154
ဖီ	-9.61565
▁လက်မှတ်	-9.61572
ကြပါတယ်။	-9.61575
ဟူ၍	-9.61575
▁Manufacturer	-9.61577
▁ကြှနျုပျတို့	-9.61619
way	-9.61621
မျှော်လင့်	-9.61723
ခန္ဓာကိုယ်	-9.61736
▁Pack	-9.6183
သလော။	-9.61847
ဆန်း	-9.61895
▁ထိုကြောင့်	-9.61929
▁Multi	-9.61934
800	-9.61972
▁ဒါပေမယ့်	-9.61981
အဖွဲ့ဝင်	-9.62057
ထူ	-9.62082
▁အမှုန့်	-9.62088
ဘလော့	-9.6209
ပေါ	-9.62135
အမြင့်	-9.6216
အသုံးပြုသူ	-9.62184
▁ဆင်းရဲ	-9.62228
hen	-9.62279
94	-9.62289
▁Environmental	-9.62332
ပြီဟု	-9.62373
အရေးပါ	-9.62515
ကို၎င်း	-9.62543
lock	-9.62547
0.5	-9.62561
▁Mark	-9.62629
▁1000	-9.62658
ဓမ္မ	-9.62699
zhou	-9.62703
SE	-9.62725
ice	-9.62731
PS	-9.62785
ထည့်	-9.62792
The	-9.62819
အစားအစာ	-9.62887
ဗို	-9.62897
▁ထုတ်လုပ်သူများ	-9.62927
တာပေါ့။	-9.62959
ok	-9.6298
▁လူမျိုး	-9.63022
ယျ	-9.63023
bl	-9.6303
တာနဲ့	-9.63091
▁that	-9.63134
▁26	-9.63184
မိတ်ဆက်	-9.63192
▁EUR	-9.63193
တစ်ခါ	-9.63195
စောင့်ရှောက်	-9.63196
▁MPT	-9.6321
▁ဇူလိုင်လ	-9.63239
ark	-9.63261
▁ကြိုးစား	-9.6328
▁Power	-9.63315
ချော	-9.6332
king	-9.63401
အနိမ့်	-9.63416
79	-9.6347
ကြသည်။	-9.63477
ရအောင်	-9.63541
အပြောင်းအလဲ	-9.63561
▁Mac	-9.63577
▁Ste	-9.63577
den	-9.63593
ပန်းချီ	-9.63615
အနာဂတ်	-9.63685
အစားထိုး	-9.63722
ထုတ်ဝေ	-9.63774
သက်ရောက်မှု	-9.63775
▁အက်	-9.63781
▁အင်တာနက်	-9.63801
နင်း	-9.63846
ဖယ်ရှား	-9.6394
ဆို၏။	-9.63972
1.5	-9.63986
တိမ်	-9.63996
မလဲ	-9.6412
ခြင်းသို့	-9.64142
တျ	-9.64162
2019	-9.64198
0.2	-9.64209
နားလည်	-9.64259
ဖြူ	-9.64264
ဝိ	-9.64266
သိုက်	-9.6427
▁ခံစား	-9.64295
အရင်းအမြစ်	-9.64306
▁Ja	-9.64326
▁စာရင်း	-9.64372
ပေးပို့	-9.64405
ဟုတ်	-9.64412
ပါလိမ့်မယ်	-9.64518
ဝိညာဉ်	-9.64518
ှဲ	-9.64579
UN	-9.6459
ရန္	-9.64598
လုပ်ငန်းစဉ်	-9.64599
ရှင်းလင်း	-9.64696
tre	-9.64712
ဖွံ့ဖြိုး	-9.64745
ပါပြီ	-9.64777
ဇန်နဝါရီ	-9.64788
မရှိဘဲ	-9.64808
▁ရွေး	-9.64827
လျော့	-9.64828
▁IP	-9.64877
ထားပြီး	-9.65055
ဒုက္ခ	-9.65056
0,000	-9.65142
load	-9.65155
အင်ဂျင်	-9.65182
ဘား	-9.65197
▁ရရှိ	-9.65202
တွ	-9.65202
က္က	-9.65244
ထက်ပို	-9.65255
ပြီးမှ၊	-9.65274
ဘိ	-9.65295
▁လွန်ခဲ့တဲ့	-9.65315
ှာ	-9.65343
ခေါင်းစဉ်	-9.65397
အကူအညီ	-9.65434
▁အင်္ဂလိပ်	-9.65489
ose	-9.65492
▁Equipment	-9.6556
HO	-9.65592
▁ဘုရားသခင်သည်	-9.65596
▁အများကြီး	-9.65652
ဳ	-9.65697
လေ့လာမှု	-9.65707
ခွဲခြား	-9.65733
တပ်ဆင်	-9.6579
ana	-9.65879
▁အပိုင်း	-9.6588
စီစဉ်	-9.65891
ကြည့်ရှု	-9.65916
စောင့်ရှောက်	-9.65928
by	-9.65929
ကြပြီ။	-9.65954
အဆုံး	-9.65956
▁ပရောဖက်	-9.65956
သောသူ၊	-9.65964
ဆင့်	-9.65989
▁add	-9.66003
▁လုပ်ဆောင်	-9.66078
ိန်း	-9.6617
▁Microsoft	-9.66194
▁Ka	-9.66227
?????????	-9.66245
vel	-9.66338
လိပ်စာ	-9.66378
▁ဒါနဲ့	-9.66387
83	-9.66388
rm	-9.66458
လွှဲ	-9.66458
တောင်းဆို	-9.66472
ပါဝင်သည်။	-9.66499
အကြာ	-9.66527
တွေ့ရ	-9.66566
▁Tag	-9.66571
ဆူ	-9.66649
ခွက်	-9.66652
▁Post	-9.66683
att	-9.66697
ဖြစ်တဲ့	-9.66778
အပြည်ပြည်ဆိုင်ရာ	-9.66829
▁Samsung	-9.6683
NE	-9.66895
▁တိုက်ရိုက်	-9.66931
လိမ်	-9.66941
▁လေ့လာ	-9.66999
▁ဥရောပ	-9.67
ိန်	-9.67008
comments	-9.67019
▁You	-9.67042
▁တည်ဆောက်	-9.67058
ပါတီ	-9.67268
ပုလင်း	-9.67284
ပေါင်	-9.6729
▁Tube	-9.67349
ပြုသော	-9.67378
▁ပြန်လည်	-9.67491
မြို့၌	-9.67539
blog	-9.67573
▁ကလေးတွေ	-9.67622
စိုက်ပျိုး	-9.67728
အရှည်	-9.67739
▁ပလပ်စတစ်	-9.67798
▁သင်တို့ကို	-9.67814
▁Ne	-9.6791
hits	-9.67911
အချက်အလက်များ	-9.67957
မော်	-9.67962
▁ဦးနှောက်	-9.67984
▁[...]	-9.67987
FC	-9.68003
ထာဝရဘုရား	-9.68013
ဘောင်	-9.68017
ဥပမာ	-9.68041
ထုံးစံ	-9.6813
ခံစားရ	-9.68139
ပိုကောင်း	-9.6821
ေျပာ	-9.68213
နု	-9.68223
▁ကိုယ်တော်၏	-9.68289
MO	-9.68324
play	-9.68342
▁Software	-9.68375
▁application	-9.68375
သူတို့ကို	-9.6839
▁Tags	-9.68399
ကုသ	-9.6843
နို့	-9.6847
▁ရှင်တို့	-9.68525
ခဲ့သော	-9.68566
·	-9.68635
ten	-9.68749
ဓာတ်ငွေ့	-9.68765
▁website	-9.68765
bit	-9.68786
uk	-9.68873
ဆန့်ကျင်	-9.68904
iz	-9.68922
ဆွ	-9.68962
ခ်က္	-9.68968
ကျတော့	-9.68979
ste	-9.68987
အီလက်ထရောနစ်	-9.69026
မြို့သို့	-9.69035
ကွန်ယက်	-9.69036
ခံရသော	-9.69109
ဖြစ်ပွား	-9.69142
▁ခရိုင်	-9.69172
နိုင်စွမ်း	-9.69254
အမှား	-9.69308
-7	-9.69338
▁သို့ဖြစ်၍	-9.69376
စက်မှုလုပ်ငန်း	-9.69406
▁ကိုယ်တော်ကို	-9.6943
▁code	-9.69436
2.5	-9.69466
အပေါ်မှာ	-9.69532
ပြု၍	-9.69602
မိန့်တော်မူ	-9.69628
▁Q	-9.69651
အဘိဓါန်	-9.69654
ဖြစ်ပေါ်	-9.69672
ပိန်	-9.69721
စိုး	-9.69789
ထုတ်ပြန်	-9.69795
မြည်	-9.69804
လျှော့ချ	-9.69811
နေတယ်။	-9.69831
ရောက်ရှိ	-9.69869
သောသူတို့သည်	-9.69881
ထွန်း	-9.6991
▁ကဲ	-9.69921
▁သို့သော်လည်း	-9.6994
▁ဆန်းစစ်ခြင်း	-9.69945
RE	-9.69961
ကစားသမား	-9.70063
▁Injection	-9.70077
▁Protection	-9.70077
▁Pulse	-9.70077
fo	-9.70128
မဟုတ်ပါဘူး	-9.7016
ယဉ်ကျေးမှု	-9.70209
▁မိုဃ်း	-9.70254
ning	-9.7028
ull	-9.70298
ari	-9.70299
မော်လီကျူး	-9.70341
ကုန်ပစ္စည်း	-9.70343
အသုံးပြုခြင်း	-9.70462
ကောင်းစွာ	-9.70466
ချေ	-9.70487
▁ဧပြီလ	-9.7055
ေၾကာ	-9.70599
တို့နှင့်	-9.70626
ငါတို့	-9.70632
မှတ်တမ်း	-9.70724
ဗျ	-9.70736
ကျင့်	-9.70756
အောင်မြင်မှု	-9.7079
▁လူ့	-9.7089
fin	-9.70897
၂၀၁၉	-9.70965
cial	-9.70973
စိန်	-9.71065
ခွင့်ပြု	-9.71071
kg	-9.71085
အဆောက်အဦး	-9.71134
▁Can	-9.71136
▁East	-9.71157
ဆေးဝါး	-9.71237
ချာ	-9.71239
မူလစာမျက်နှာ	-9.71272
▁USB	-9.71298
သောသူတို့	-9.7131
ခိုင်	-9.71321
ပြီးလျှင်၊	-9.71421
ဆုံ	-9.71431
▁စံ	-9.71474
လွဲ	-9.71509
MS	-9.7155
ထည့်သွင်း	-9.71558
ပြပွဲ	-9.71572
တည်ထောင်	-9.71576
သောကြောင့်	-9.71599
အမေရိက	-9.71609
—	-9.71673
▁Comments	-9.71673
မည်အကြောင်း၊	-9.71697
type	-9.71716
ဆီကို	-9.7174
▁Go	-9.71758
▁ဒီဇိုင်း	-9.71833
▁tag	-9.71935
ဒီဂရီ	-9.71944
▁ဒေတာ	-9.7202
နိုင်ငံတကာ	-9.72078
▁နှစ်ခု	-9.72089
▁dis	-9.72273
အပေါင်း	-9.72282
နှံ	-9.72344
သနား	-9.72374
▁Non	-9.7244
5%	-9.72454
▁အစဉ်	-9.72457
ဟိုတယ်	-9.72506
ုတ္	-9.72532
▁ခြေ	-9.72533
စျ	-9.72608
ပညတ်	-9.72734
ပူဇော်သက္ကာ	-9.72752
new	-9.72766
စုံစမ်း	-9.72916
ကျမ်း	-9.72932
▁ပြောဆို	-9.72958
အထည်	-9.7296
ချမ်းသာ	-9.73025
base	-9.73038
ဝင်ရောက်	-9.73044
တယ်ဆိုတာ	-9.73061
EA	-9.73126
ေတြကို	-9.73133
ဒစ်ဂျစ်တယ်	-9.73296
အားကစားပြိုင်ပွဲ	-9.7331
cle	-9.73363
မျှဝေ	-9.73374
ပါမယ်။	-9.734
▁လူတိုင်း	-9.73437
81	-9.73446
▁Auto	-9.73459
မည့်	-9.73464
လွှ	-9.73531
မှုတ်	-9.73538
မယ်ဆိုရင်	-9.73559
▁LTD	-9.7357
ႏွင့္	-9.73579
ွာ	-9.73586
▁Mini	-9.73609
▁အဲဂုတ္တုပြည်	-9.73634
▁ကၽြန္ေတာ္	-9.73706
ထိခိုက်	-9.73706
လိုပဲ	-9.73727
▁မေလ	-9.73752
နိုင်ငံများ	-9.73785
ထုံး	-9.73792
ney	-9.73841
ရှိတယ်။	-9.73856
ဆက်သွယ်ရေး	-9.73918
ဘုရင်	-9.73942
ဘွဲ့	-9.7398
လိုင်စင်	-9.7398
tv	-9.74024
ကဏ္ဍ	-9.74105
အတိအကျ	-9.74118
ration	-9.74132
တာတွေ	-9.74199
▁Group	-9.74255
ည့္	-9.74255
▁ဟေ	-9.74273
▁are	-9.74382
အဆင်ပြေ	-9.74393
▁hour	-9.74439
မြို့တော်	-9.74574
ji	-9.7466
ပြွန်	-9.74669
▁Trans	-9.74707
ပြန်လည်	-9.74732
ပရို	-9.74744
ဒုစရိုက်	-9.74807
▁Botou	-9.74807
မိတ္တူ	-9.74813
▁သစ္စာ	-9.74815
ling	-9.74819
စိုးရိမ်	-9.74821
ကြိုတင်	-9.74862
ပရိသတ်	-9.74946
အထုပ်	-9.74994
▁Ph	-9.74999
ဆေးဘက်ဆိုင်ရာ	-9.75084
ler	-9.7516
back	-9.75197
စီးတီး	-9.75279
အထူ	-9.75339
9001	-9.75408
low	-9.75464
▁ကာလ	-9.75607
▁အခြားသော	-9.75637
သူလျှို	-9.75641
▁ယင်း	-9.75647
စီမံခန့်ခွဲမှု	-9.75655
AP	-9.75691
အမျိုးသမီး	-9.75736
သက်သေ	-9.75743
BC	-9.75843
ure	-9.75843
ဟိ	-9.75941
အကြီးစား	-9.75949
မိုဘိုင်း	-9.75962
တစ်ခုမှာ	-9.75972
▁Man	-9.76019
စိတ်ကူး	-9.76077
အတူတူ	-9.76108
ရည်ရွယ်ချက်	-9.76123
ပြစ်မှား	-9.76203
ဆံုး	-9.76341
မကြာခဏ	-9.76341
ဖြတ်တောက်ခြင်း	-9.76343
ဆက်လက်	-9.76369
တွေ့ဆုံ	-9.76374
သော်	-9.76396
ဆောင်း	-9.76426
မီလီမီတာ	-9.76464
မိတ်ဆွေ	-9.76482
လက်ခုပ်သံများ	-9.76482
▁ထိ	-9.76525
ny	-9.76659
ဖြစ်ကြသည်။	-9.7667
board	-9.76677
▁အရင်	-9.76686
▁FX	-9.76731
▁မှစ	-9.76735
▁Size	-9.76762
ene	-9.76763
တို့၊	-9.76865
ဝန်း	-9.77072
ren	-9.77077
အသုံးပြုသူများ	-9.77094
နှစ်ယောက်	-9.77117
▁Bi	-9.77132
ရှုပ်ထွေး	-9.77188
dr	-9.77195
အကျင့်	-9.77278
သဘာဝ	-9.773
စိတ်ဝင်စား	-9.7731
ပြင်းထန်	-9.7733
ရော်ဘာ	-9.77473
တမန်	-9.77484
မြဲ	-9.77493
°	-9.77588
အလွိုင်း	-9.77652
sign	-9.7766
စမတ်ဖုန်း	-9.77771
မြင့်မား	-9.77946
ထဲတွင်	-9.78014
rea	-9.78052
ပတ်သက်	-9.78057
လိမ့်	-9.78086
ကိ	-9.78152
▁Quality	-9.78185
တည်နေရာ	-9.78223
မေးမြန်း	-9.78329
လည္း	-9.78329
ဟူမူကား၊	-9.78335
ရတယ်။	-9.78371
အပေါင်းတို့သည်	-9.7838
စာသား	-9.78395
ပျံ့	-9.78512
ကျွမ်းကျင်သူ	-9.78558
၁၁	-9.78613
▁Dress	-9.78618
ကျွန်ုပ်တို့၏	-9.78649
▁Si	-9.78703
▁San	-9.78768
လြ	-9.78841
ခဲ့တယ်၊	-9.78897
ake	-9.78978
သောအမှု	-9.7902
မျိုးစုံ	-9.79032
ဆုကြေးငွေ	-9.79055
ပြည်တွင်း	-9.79168
ြာ	-9.79199
[1]	-9.79246
▁Long	-9.79295
လွတ်လပ်	-9.79353
ထည့်သွင်း	-9.79364
▁ထာဝရဘုရားကို	-9.79463
-12	-9.79475
ဇိ	-9.7948
ကြေညာ	-9.79494
ကူညီပေး	-9.79549
၂၅	-9.79617
ထောက်ပံ့ရေး	-9.79749
အဘိဥာဏ်	-9.79773
▁Or	-9.79846
tru	-9.7985
ခဲ့တယ်	-9.79895
လိုက်တယ်။	-9.79912
ထိရောက်	-9.79979
ေကာင္း	-9.80066
ပြောဆို	-9.80092
▁ရက်နေ့တွင်	-9.8021
ယက်	-9.80267
လွန်း	-9.80388
▁ဘယ်သူ	-9.80501
ငှားရမ်း	-9.80503
1.0	-9.80542
ley	-9.80551
ပန်းခြံ	-9.80678
လျင်	-9.80705
မွေ	-9.80763
ဒေ	-9.80819
နီးပါး	-9.80834
▁သူတို့၏	-9.8084
ထုတ်ပေး	-9.80841
ထားတာ	-9.80902
rate	-9.8094
ware	-9.81037
part	-9.8104
▁ကျွန်တော်တို့ဟာ	-9.81042
နှင်း	-9.81046
▁သင်တို့၏	-9.81065
ခုန်	-9.81074
ခန့်	-9.81109
ဇုန်	-9.8117
▁Asia	-9.81186
bra	-9.81191
light	-9.81262
ချေး	-9.81303
▁Project	-9.81386
မှတဆင့်	-9.81386
gan	-9.81414
ရူး	-9.8146
PE	-9.81461
–	-9.81551
ပတ်လည်	-9.81614
အဘယ်သူမျှမ	-9.81668
ရေခဲသေတ္တာ	-9.81682
ခလုတ်	-9.81682
အစည်းအဝေး	-9.81689
count	-9.8169
လျှော့	-9.81753
▁web	-9.81758
တည်ငြိမ်	-9.81774
▁2009	-9.81787
ကျွေး	-9.81831
▁လက်တွေ့	-9.81837
ကားတစ်စီး	-9.81925
ဉ	-9.81928
ES	-9.81962
အထူးပြု	-9.82015
သူငယ်	-9.82066
နေစဉ်	-9.82117
▁Apple	-9.82294
စေခြင်းငှါ၊	-9.82312
ock	-9.82356
မိန်းကလေး	-9.82426
ရွှေ့	-9.8244
2017	-9.82499
ဆုတ်	-9.82634
လှမ်း	-9.82678
ပြည့်	-9.82694
အနည်းဆုံး	-9.82739
သည်ဖြစ်၍၊	-9.82776
ound	-9.82864
▁သူတို့ဟာ	-9.82892
ပိုင်းဆိုင်ရာ	-9.82914
သည်အတိုင်း	-9.8296
▁Get	-9.83019
▁he	-9.83048
ဘယ်မှာ	-9.83136
လွင်	-9.83162
ina	-9.83196
ခွေး	-9.83213
ization	-9.83219
▁AC	-9.83229
zo	-9.83295
ဝန်ကြီး	-9.83304
▁ဒါပေမယ့်	-9.8335
ဌ	-9.83368
ရှိတယ်	-9.8341
▁And	-9.8341
▁နောက်တဖန်	-9.83477
တယ်ဆိုရင်	-9.83605
အဆုံးသတ်	-9.83616
မယား	-9.83649
▁သို့ရာတွင်	-9.83649
ပုံပြင်	-9.83717
နှိုင်းယှဉ်	-9.83779
▁Retrieved	-9.83779
မြူ	-9.83859
လူတို့သည်	-9.83872
သနည်းဟု	-9.83879
တတိယ	-9.83932
ေနရာ	-9.84146
▁Data	-9.84158
၁၄	-9.8419
ကျဉ်း	-9.84235
အနေဖြင့်	-9.84244
သုတ်	-9.84252
▁ကျေးဇူးပြု	-9.84264
RA	-9.84293
lan	-9.84299
အတန်း	-9.84311
▁Dis	-9.84386
▁Ni	-9.84427
pho	-9.84428
သင်သည်	-9.84441
သွားရောက်	-9.84477
ကိုင်တွယ်	-9.84539
ဖိနပ်	-9.84539
→	-9.84539
▁from	-9.84539
ဘုတ်အဖွဲ့	-9.8454
စိတ်နှလုံး	-9.84561
ရှုံး	-9.84592
လက်နက်	-9.84648
▁အဲဒီမှာ	-9.84675
သက်သာ	-9.84712
win	-9.84752
စနစ်များ	-9.84787
ႏွ	-9.84857
meter	-9.8487
▁Pri	-9.84918
▁တကယ်တော့	-9.84923
တော်မူပြီ။	-9.8504
လိုက်ဖက်တဲ့	-9.85152
="5	-9.85217
စိ	-9.85233
ls	-9.85255
▁Lin	-9.85264
▁Comp	-9.85265
နွယ်	-9.85311
ရင်းမြစ်	-9.85392
▁Chip	-9.855
ရွေးချယ်မှု	-9.85534
▁comp	-9.85538
ကျွန်တော်	-9.85539
ထဲကို	-9.85573
▁ရန်ကုန်	-9.85595
သိမ်းဆည်း	-9.85613
ဆင်းသက်	-9.85661
ၿ	-9.8573
▁Deposit	-9.85767
ခက်ခဲ	-9.85773
ထိုက်	-9.85784
▁အမေရိကန်ဒေါ်လာ	-9.85784
press	-9.85815
OT	-9.85907
▁White	-9.86078
cer	-9.86108
ထိန်းချုပ်ရေး	-9.86155
လိုအပ်ချက်	-9.86176
ပန်းကန်	-9.86211
၁၉	-9.86226
လူသိများ	-9.86242
ကျေးဇူးတင်ပါတယ်	-9.86245
ပုံမှန်	-9.8631
ile	-9.86347
အသက်ကို	-9.86372
▁We	-9.86434
နော	-9.86504
ခွာ	-9.86579
ခွင်	-9.86598
▁Related	-9.86698
CoV	-9.86715
ခုခံ	-9.86716
ဘိုး	-9.86754
ငါ့ကို	-9.86784
▁OEM	-9.86854
cket	-9.86859
▁လူနာ	-9.86909
▁အကြောင်းက	-9.86912
ဖြစ်၍၊	-9.86917
စို	-9.86924
တောက်	-9.86935
မကောင်း	-9.86984
စွန်	-9.86986
ကြီးမားတဲ့	-9.87012
ခုနှစ်တွင်	-9.87061
▁ယာကုပ်	-9.87167
▁VP	-9.87224
▁Cr	-9.87274
▁အခုတော့	-9.87295
ဖြစ်တယ်	-9.87402
နဲ့အတူ	-9.87412
val	-9.87453
▁plugin	-9.87479
▁withoutwax	-9.87481
ခိုင်မာ	-9.87533
▁Sho	-9.87592
တုံ့ပြန်	-9.87632
အာဖရိက	-9.87638
မူရင်း	-9.87707
oxy	-9.87709
ပွင့်	-9.87786
ဘော	-9.87793
ရေးဆွဲ	-9.87804
SM	-9.879
ခေါင်းဆောင်	-9.8795
row	-9.8803
မဟုတ်ဘူး	-9.88037
top	-9.88092
▁အမြဲ	-9.88132
DE	-9.88176
180	-9.88192
အိပ်မက်	-9.88211
ချဉ်းကပ်	-9.88269
တည္	-9.88297
▁အီရန်	-9.88308
လူမှုရေး	-9.88311
▁အကျွန်ုပ်ကို	-9.88321
ကြီးမားသော	-9.88331
မှန်း	-9.8834
တစ်ခုပါ။	-9.88376
cho	-9.884
ဝင်း	-9.88414
▁မော်တော်ကား	-9.88439
▁link	-9.88445
▁အမှန်	-9.88578
ထောက်ခံ	-9.88613
ခဏ	-9.88627
ဗီဇ	-9.88628
▁Lu	-9.88713
ပါမည်။	-9.88744
ေပါင္း	-9.88913
ဆိပ်ကမ်း	-9.88954
ဆေးထိုး	-9.88984
မု	-9.89034
ကြွင်း	-9.89167
cal	-9.89172
ui	-9.89214
မော်ကွန်း	-9.89224
စောင်	-9.89234
gg	-9.89245
တဦး	-9.89252
▁သိန်း	-9.89272
ရမယ်	-9.89324
▁Cylinder	-9.89384
ခုနှစ်	-9.89411
ရ၏။	-9.89493
ဇေ	-9.89518
အပြာရောင်	-9.89545
အလားတူ	-9.89551
▁အဆုံး	-9.89652
qui	-9.89665
ထောင့်	-9.89748
book	-9.89786
ဆံပင်	-9.898
▁Cert	-9.89878
3.0	-9.89894
အမျိုးမျိုးသော	-9.89947
အိမ်ခြံမြေ	-9.90026
ဆက်ဆံ	-9.90042
lip	-9.90129
tur	-9.90149
ဇွန်	-9.90287
AM	-9.90373
▁အကျွန်ုပ်သည်	-9.90452
ဖော်ပြချက်	-9.90494
ဖြေရှင်းချက်	-9.90588
အချို့သော	-9.9062
ute	-9.90661
ပေးလိုက်	-9.90674
="6	-9.90712
▁War	-9.90723
ISO	-9.90776
▁Cap	-9.90826
▁virtual	-9.90835
0.00	-9.90949
cel	-9.90983
▁Pay	-9.91016
နေတယ်	-9.91068
IP	-9.91123
ယဉ်	-9.91123
ဂစ်တာ	-9.91168
za	-9.91199
ငြိမ်း	-9.91316
၀င်	-9.91341
မွတ္	-9.91355
မိခင်	-9.91381
▁MT	-9.91384
အရာ၌	-9.91401
ဝန်ကြီးဌာန	-9.91505
ဆက်စပ်ပစ္စည်း	-9.91506
▁Pi	-9.9161
ssi	-9.91618
၏ဟု	-9.91749
နေရောင်ခြည်	-9.91768
ဝှက်	-9.91815
▁Inter	-9.91881
é	-9.91979
အင်ဂျင်နီယာ	-9.91979
ဝက်အူ	-9.9198
▁အဘ	-9.91994
ကာကွယ်ဆေး	-9.92035
နှစ်ဦး	-9.9213
တိုက်ခိုက်	-9.92144
ဝတ္ထု	-9.92144
RC	-9.92177
ပြုစု	-9.92195
အာရုံစိုက်	-9.92315
နေပါတယ်။	-9.92326
ကိန္း	-9.92331
ဖြစ်ကြ၏။	-9.92371
ush	-9.9241
ထွင်	-9.92481
တရုတ်ထံမှ	-9.92526
တုံ့ပြန်မှု	-9.92645
အောက်မေ့	-9.92656
▁Plus	-9.92659
▁ဝမ်းမြောက်	-9.9281
လှန်	-9.92831
ပျံသန်း	-9.92861
ဒြပ်	-9.92951
ရေချိုးခန်း	-9.9297
ဧည့်	-9.9297
ောငျ	-9.92983
တေး	-9.93077
အာကာသ	-9.93146
ကျိန်	-9.93159
ပြည်သား	-9.93173
ဆပ်	-9.9318
အအေး	-9.93194
စင်း	-9.93236
လိုက်တာ	-9.93315
စမ်းသပ်ခြင်း	-9.93452
မဟုတ္	-9.93472
တော်မမူ	-9.93484
▁Je	-9.93513
နယူး	-9.93532
နှင့်အခြား	-9.936
ဂြိုဟ်	-9.93636
အပြည့်အဝ	-9.93636
အစိမ်းရောင်	-9.93637
မြှ	-9.93701
ွဲပြားခြားနားသော	-9.93846
နိုင်ကြ	-9.93853
တတ်နိုင်	-9.93918
ရာဇ	-9.93922
ပျမ်းမျှ	-9.93971
ထိတွေ့	-9.94094
ညှဉ်းဆဲ	-9.94139
အသိအမှတ်ပြု	-9.94139
ငံ	-9.94228
ကြုံ	-9.94236
နိုင်ငံခြား	-9.94247
ကာလ၌	-9.94296
▁Rikoooo	-9.94475
▁Brush	-9.94486
ထူးခြား	-9.9452
ကာစ်	-9.94593
မည်အကြောင်း	-9.94625
ထီး	-9.94644
ျခား	-9.94645
ကျက်	-9.94698
view	-9.9475
မိမိ	-9.94813
ပဲ။	-9.94818
လွှမ်းမိုး	-9.94982
1%80%	-9.94993
▁ဒီဇင်ဘာ	-9.95019
ရှုခင်း	-9.95024
မြန်မာ	-9.95063
မည်သည့်	-9.95267
▁ရာစု	-9.95276
▁အရှင်	-9.95312
သိုလှောင်	-9.9534
နှေး	-9.9553
ုပ္	-9.95604
mar	-9.95648
ငှား	-9.95661
တပည့်	-9.95662
လွှတ်တော်	-9.95714
ဓါတ်	-9.95824
အီတလီ	-9.95832
မယ်လို့	-9.95841
0.3	-9.95856
ကြောင်	-9.95881
ည့်	-9.95892
တင်ပြ	-9.95904
TR	-9.95911
$	-9.9604
cent	-9.96134
တင်သွင်း	-9.9616
€	-9.9618
မှာရှိတဲ့	-9.96232
1.2	-9.96341
ပျော်ရွှင်	-9.96346
engrui	-9.96346
စည်းမျဉ်း	-9.96353
▁data	-9.96365
▁အစာ	-9.96402
၂၀၁၇	-9.96518
NG	-9.96533
ပေါင်းများစွာ	-9.96551
▁ago	-9.96557
shi	-9.96576
နန်း	-9.9659
အနိုင်ရ	-9.96603
avi	-9.96617
▁CD	-9.96635
▁cr	-9.96662
အနက်ရောင်	-9.96715
time	-9.96834
အရာကို	-9.96836
စစ်ဆင်ရေး	-9.96863
work	-9.96877
အသုံးချ	-9.96883
လူမီနီယမ်	-9.96908
စို့	-9.96942
lit	-9.97045
သတင်းများ	-9.97089
လုိ	-9.97129
ရူ	-9.97145
▁Burmese	-9.97208
နေ့၌	-9.97213
IG	-9.97258
ပြည်၌	-9.97421
uri	-9.97436
ဘေ	-9.97463
မိုဘိုင်းဖုန်း	-9.97515
စီမံ	-9.97547
ပရော်ဖက်ရှင်နယ်	-9.97555
နိူင်	-9.97555
2.1	-9.97555
မြှုပ်	-9.97568
ျပန္	-9.97632
ကျေး	-9.97658
အက္ခရာ	-9.97729
▁COVID	-9.97729
မယ်၊	-9.9774
စစ္	-9.97871
ဆိုင်ကလုန်း	-9.97903
ဆန့်ကျင်	-9.97903
▁high	-9.97903
ze	-9.97954
လိုက်နာ	-9.9796
ကျယ်ပြန့်	-9.98078
▁PDF	-9.9808
▁ဗိုလ်	-9.98083
တစ်ခုလုံး	-9.98101
လွှဲပြောင်း	-9.98103
gy	-9.98111
SI	-9.98169
ခ်င္	-9.98191
သက်ဆိုင်	-9.9822
TH	-9.98299
▁ကလေးများ	-9.98381
ပလက်ဖောင်း	-9.98428
အကြီးဆုံး	-9.98446
IM	-9.98575
အဆင့်မြင့်	-9.98592
▁မြင်း	-9.98723
သုံးသပ်	-9.98748
ပြည်သူ့	-9.98779
▁Archives	-9.98779
မှတ်ဉာဏ်	-9.988
မြှေး	-9.98802
▁ရှေး	-9.98815
▁မတရားသော	-9.98819
table	-9.98855
တိရိစ္ဆာန်	-9.98955
ကျွန်မ	-9.99008
အကျယ်	-9.99017
ခရိုင်	-9.99073
ကုန်း	-9.99118
အထွေထွေ	-9.99131
ႈ	-9.99196
ံု	-9.99261
ချိန်မှာ	-9.99265
စုဝေး	-9.9927
တိုးတက်မှု	-9.99299
သဟဇာတ	-9.99308
ဖော်ပြထား	-9.99325
စိမ်း	-9.99423
ထွက်လာ	-9.99426
အမြန်	-9.99458
ဖျော်ဖြေ	-9.99485
ative	-9.99644
ဟုဆို	-9.99645
ချိတ်	-9.99645
စတုရန်း	-9.99661
ဝက်ဘ်ဆိုက်	-9.99705
▁Thu	-9.99878
gl	-9.99953
ခန့်မှန်း	-10.0003
ယာဉ်မောင်း	-10.0012
ane	-10.0024
ပါသလား	-10.0027
လက်ခံရရှိ	-10.0028
LI	-10.0029
cur	-10.003
အက်စ်	-10.0034
▁run	-10.0036
အက်ဆစ်	-10.0037
TO	-10.0049
ကွဲပြားခြားနား	-10.0052
မလား	-10.0057
▁သူဟာ	-10.0061
ကျိုးသက်ရောက်မှု	-10.0069
စူပါ	-10.0074
▁နိုင်ငံရေး	-10.0079
ဗို့အား	-10.0091
နိုး	-10.0095
ကဘာလဲ	-10.0097
▁ကျွန်မဟာ	-10.0103
▁Chang	-10.0108
ကီလိုမီတာ	-10.0109
▁ဇန္နဝါရီလ	-10.0109
အပေါင်းတို့ကို	-10.0117
▁Call	-10.0122
ကိုးကား	-10.0123
ပျံ	-10.013
စီမံခန့်ခွဲ	-10.0145
အဆောက်အအုံ	-10.0145
▁software	-10.0145
ခါးပတ်	-10.0152
▁11:	-10.0152
▁ခရစ်တော်၏	-10.0155
▁Read	-10.0161
▁USD	-10.0168
လိုချင်	-10.0174
▁အနောက်	-10.0178
▁Save	-10.0179
▁ရှောလု	-10.0181
ညီမျှ	-10.0193
PR	-10.0194
output	-10.02
ချက်ချင်း	-10.0201
▁Poly	-10.0206
ized	-10.0208
▁One	-10.0209
သို့ရောက်	-10.0214
အဓိပ္ပါယ်	-10.0218
′	-10.0218
ခ်ိန္	-10.0218
အတွင်းမှာ	-10.022
ခြင်းဖြင့်	-10.022
ဂေါ	-10.0221
ခွင့်ပြု	-10.0234
ကြောက်ရွံ့	-10.0236
အကြားအမြင်ရ	-10.0236
▁will	-10.0243
▁SD	-10.0245
phone	-10.0248
▁mode	-10.0253
နှငျ့	-10.0254
မိနစ်	-10.0257
▁Im	-10.0258
စောင့်ကြည့်	-10.0259
read	-10.0262
ငှါ	-10.0266
သွားတယ်။	-10.029
±	-10.0291
အခုတော့ဆက်သွယ်ပါ	-10.0291
အကြံပြုချက်များ	-10.0294
LA	-10.0298
မီးအိမ်	-10.0307
ဘယ်တော့မှ	-10.0309
တိုးချဲ့	-10.0311
ခ်င္း	-10.0313
ဝင်ငွေ	-10.0328
}	-10.0328
စာဖတ်ခြင်း	-10.0328
-01	-10.0328
ဖလား	-10.0338
တစ်ချို့	-10.0346
လူကြိုက်များ	-10.0346
အမြဲတမ်း	-10.0352
ဆန်းသစ်	-10.0353
▁At	-10.0356
တုံး	-10.0358
▁English	-10.0364
ဖြည့်	-10.0366
အပတ်	-10.0368
မြင့်မားသော	-10.037
Sc	-10.0371
▁Inc	-10.0371
တက်ကြွ	-10.0372
▁Roll	-10.0372
sis	-10.0378
စတိုင်	-10.0378
heng	-10.038
▁Win	-10.0382
ေပၚ	-10.0383
အမှန်တကယ်	-10.0384
▁APK	-10.0384
ခဲ့ကြသည်။	-10.0392
သန့်ရှင်း	-10.0396
▁Author	-10.0401
မ်ိဳး	-10.0401
ၾကီး	-10.0401
▁client	-10.0402
ပထမ	-10.0406
▁250	-10.0417
▁အဲဒါဟာ	-10.0428
▁Pump	-10.0439
ကိုက်ညီ	-10.044
PM	-10.0443
ပတ္	-10.0446
pic	-10.0447
ဖွဲ့စည်းပုံ	-10.0455
သူနာပြု	-10.0457
အကြောင်းပြချက်	-10.0458
ND	-10.0462
ရှစ်	-10.0463
CO	-10.0471
နှောင်	-10.0473
မရှိ။	-10.0474
▁Bonus	-10.0476
အသွင်	-10.0477
ဇီ	-10.0481
▁Add	-10.0485
pcs	-10.0494
မော်တော်ဆိုင်ကယ်	-10.0495
▁module	-10.0495
အလှဆင်	-10.0495
သက္	-10.0497
cor	-10.05
လူငယ်	-10.0505
ရွေ့	-10.0514
အဖြူရောင်	-10.0515
အိပ်	-10.0515
JP	-10.052
နိုင်အောင်	-10.0522
ဆက္	-10.0529
နဲ႕	-10.0536
0.8	-10.0549
name	-10.0553
▁သူ့ရဲ့	-10.0556
ati	-10.056
အုပ်ချုပ်ရေး	-10.0566
ize	-10.0566
စဥ္	-10.057
ပါလိမ့်မယ်။	-10.0574
ကရုဏာ	-10.0589
ယန္တရား	-10.0589
but	-10.0591
တင္	-10.0593
▁ကျွန်တော်ဟာ	-10.0598
ME	-10.0603
ဘုံ	-10.0603
1.1	-10.0604
အစဉ်အမြဲ	-10.0607
{	-10.0608
EL	-10.061
ဖ်	-10.0617
ဖုန်	-10.0617
▁Star	-10.062
အတွင်းပိုင်း	-10.062
mark	-10.0624
ေဆာင္	-10.0632
rel	-10.0633
▁ဒါဆို	-10.0636
ကုိ	-10.064
▁လူပျို	-10.0642
လဲဆိုတာ	-10.0649
▁သင်သည်သင်၏	-10.0651
▁this	-10.0653
သံုး	-10.066
ပြောင်းလဲမှု	-10.0664
အလားအလာ	-10.0664
▁Access	-10.0665
အံ့ဩ	-10.0667
▁ကျွန်ုပ်	-10.0667
▁ကိုအတူ	-10.0668
mg	-10.0684
ကွန်ရက်	-10.0692
ပွတ်	-10.0696
▁Fittings	-10.0703
▁YouTube	-10.0703
အစောပိုင်း	-10.0703
မပါဘဲ	-10.0719
ရှင်းပြ	-10.0721
▁Box	-10.0722
Tech	-10.0726
ချမှတ်	-10.0737
VI	-10.0738
▁admin	-10.0742
မူကား	-10.0743
ခရစ်	-10.076
▁ဆုတောင်း	-10.0761
▁120	-10.0774
ဗိ	-10.0789
ခြင်းအားဖြင့်	-10.079
အလုံးစုံ	-10.0799
၂၄	-10.0805
▁HP	-10.0806
ထုတ်လုပ်ခြင်း	-10.0807
▁anti	-10.0815
တစ်လုံး	-10.0816
တောက်ပ	-10.0827
သတ်မှတ်ချက်များ	-10.0828
ဦးခေါင်း	-10.0828
သူတို့ရဲ့	-10.083
ဥရောပ	-10.0831
ကြွလာ	-10.0832
ဒ္	-10.0836
စွန့်	-10.0837
အုပ်ချုပ်	-10.0843
▁သန့်ရှင်းသော	-10.0845
အိပ်ရာ	-10.0855
ခွန်အား	-10.0856
နက်ရှိုင်း	-10.0857
ral	-10.0872
သိပ္ပံ	-10.0874
စပျစ်ရည်	-10.0876
▁Photo	-10.0876
ထောက်ခံမှု	-10.0876
စနစ်က	-10.0887
2016	-10.0888
လျှောက်ထား	-10.0888
သင်ကြား	-10.089
▁တွေး	-10.089
ဆက်ဆံရေး	-10.0893
▁Chuck	-10.0898
vis	-10.09
ဘို	-10.0901
ပင်လယ်	-10.0903
မွန်	-10.0908
အပြစ်ကို	-10.0909
▁Wall	-10.091
WS	-10.0913
ခမည်းတော်	-10.0915
တစ်ဦးချင်းစီ	-10.0915
ပူးတွဲ	-10.0915
ျပည္	-10.0917
3.5	-10.0917
ဆိုတော့	-10.0929
မော်တာ	-10.0932
hai	-10.0935
ပေါလု	-10.0936
ju	-10.0937
မူဝါဒ	-10.0939
ခေါက်	-10.0939
▁Sun	-10.0942
အားသွင်း	-10.095
▁Password	-10.0954
Hunan	-10.0955
uch	-10.0958
▁Mode	-10.0963
card	-10.0974
ကိုးကွယ်	-10.0976
ခံရဖို့	-10.098
ရုပ်တု	-10.098
▁ဒါဝိဒ်သည်	-10.0986
စိတ္	-10.0997
▁Uni	-10.0998
▁ဘာလို့	-10.1
မျက်နှာဖုံး	-10.1002
ေပါ့	-10.1006
ကုန်သွယ်	-10.1007
ပုဂ္ဂလိက	-10.1012
ရရှိနိုင်ပါသည်	-10.1015
▁သူတပါး	-10.1017
ယမ်	-10.1021
▁features	-10.1028
▁News	-10.1036
ပိုင္း	-10.104
ဝန်ထမ်း	-10.1042
နေကြသည်။	-10.1043
မျိုးဆက်	-10.1044
▁GPS	-10.1045
နေကြတယ်	-10.105
ပလ္လင်	-10.1052
စာရွက်စာတမ်း	-10.1052
လျှို့ဝှက်	-10.1052
▁မော်ဒယ်နံပါတ်။	-10.1052
▁Server	-10.1053
ဤဆောင်းပါး	-10.1066
▁Wed	-10.1069
▁ထိုသူတို့သည်	-10.1071
ၾကည့္	-10.1072
န်ဆောင်မှုများ	-10.1075
ပုဂ္ဂိုလ်	-10.1078
အရှိန်	-10.108
တိုင်းတာ	-10.109
ကြီးစွာသော	-10.1093
ကွေး	-10.1098
HT	-10.1102
code	-10.1111
ဆိုရင္	-10.1114
လေ့ရှိ	-10.112
နေအိမ်	-10.1121
5.0	-10.1126
list	-10.1126
Hebei	-10.1132
သေးငယ်တဲ့	-10.1132
4.0	-10.1139
Coin	-10.114
now	-10.114
ကြိမ်နှုန်း	-10.1142
shop	-10.1143
ကြပါ၏။	-10.1145
မုန်း	-10.1153
ၿပ	-10.1153
2006	-10.1154
ရောနှော	-10.1157
လိုက်ရင်	-10.1158
▁Zaw	-10.1159
RI	-10.1164
သငျသညျ	-10.1166
အရာရှိ	-10.1168
သရုပ်ဆောင်	-10.1177
တင်ပို့	-10.119
page	-10.1191
ရလိမ့်မည်။	-10.1192
ဥာဏ်	-10.1192
▁Holmes	-10.1192
ဝိညာဉ်တော်	-10.1198
IA	-10.12
လွှား	-10.12
▁Cam	-10.1201
▁ထိုသူတို့	-10.1203
▁ကမ္ဘာကြီး	-10.1205
ဖွင့်လှစ်	-10.1212
ဆာဗာ	-10.122
▁အဲဒါက	-10.123
၂၁	-10.1231
ava	-10.1231
မည်နည်း။	-10.1232
ကြိုဆို	-10.1233
သင်တို့ကို	-10.1239
တက်ရောက်	-10.1242
▁မီးရှို့	-10.1252
စူးစမ်း	-10.1252
အညွှန်း	-10.1255
ပလပ်စတစ်	-10.1261
▁ထိုသူသည်	-10.1272
လျော့နည်း	-10.1273
ထိုင်ခုံ	-10.1275
ကျန်းမာ	-10.1278
စပါး	-10.1281
ကင်ဆာ	-10.1282
Pro	-10.1286
ဘီလီယံ	-10.1293
လော့	-10.1299
▁စက်တင်ဘာ	-10.13
BA	-10.1311
ဴ	-10.1313
▁ဖေဖေါ်ဝါရီလ	-10.1313
လိုအပ်ချက်များ	-10.1316
ခဲ့ပါသည်။	-10.1318
သည်လည်း၊	-10.1321
စုစည်း	-10.133
လောင်စာ	-10.1331
မား	-10.1332
ီးယား	-10.1333
▁multi	-10.1333
Option	-10.1334
ကိရိယာများ	-10.1336
OD	-10.1348
တွက်	-10.1352
အသီးအသီး	-10.1354
မဟုတ်ဘူး။	-10.137
ေရာင္	-10.1379
ဆရာဝန်	-10.139
န့်အသတ်	-10.1395
▁2008	-10.1396
မမြင်	-10.1405
သရုပ်	-10.1413
အထောက်အပံ့	-10.1415
သန့်ရှင်း	-10.1415
ထောင့်	-10.1417
လျက်နေ	-10.1422
ship	-10.1424
ဖြစ်ပျက်	-10.1433
အရည်အသွေးမြင့်	-10.1434
▁အာရုန်	-10.1436
ပေမယ့်	-10.1439
မည္	-10.144
သစ္	-10.145
ဂဏန်း	-10.1455
ကောက်ခံရေး	-10.1456
ပါစေသော။	-10.1457
ိတ္	-10.1459
1.8	-10.1472
စာမေးပွဲ	-10.1477
▁setting	-10.1477
LD	-10.1485
▁Bar	-10.1491
ရှန်	-10.1497
နှစ်ဦးစလုံး	-10.1497
▁WordPress	-10.1497
မွေးဖွား	-10.1499
▁ဇန်နဝါရီလ	-10.15
▁ကျေးဇူးတော်	-10.1507
ောင့်	-10.1508
cess	-10.1508
ခိုင်း	-10.1511
▁File	-10.1513
မီးဖို	-10.1513
ကျွမ်း	-10.1517
▁ဗီဒီယိုများ	-10.1518
အင်တာနက်	-10.1519
ဖွံ့ဖြိုးတိုးတက်	-10.1525
ခဲ့တာပါ။	-10.1529
ကြီးထွား	-10.1529
ခါး	-10.1529
▁El	-10.1534
▁စက်ရုပ်	-10.1535
အကွောငျး	-10.1539
လတံ့	-10.1539
ဒုတိယ	-10.1542
▁etc	-10.1559
ရှန်ဟိုင်း	-10.156
အကောင့်	-10.1561
ပို့စ်	-10.1562
ပေးဆောင်	-10.157
တပ်ဆင်ထား	-10.1573
နွေဦး	-10.1574
ဂ္ဂ	-10.1577
ထုတ်ယူ	-10.1581
ခန့်မှန်း	-10.1581
ပံ့ပိုး	-10.159
IF	-10.1592
စက္	-10.1597
ဘိုးအင်း	-10.1601
မတိုင်မီ	-10.1601
အစီရင်ခံစာ	-10.1605
5.5	-10.1614
▁ခပ်သိမ်းသော	-10.1622
ခဲ့ပါတယ်	-10.1624
ဖွံ့ဖြိုးရေး	-10.1626
ခဲ့ကြတယ်။	-10.1635
တောင်းပန်	-10.1637
▁Time	-10.1638
HE	-10.165
စွန့်	-10.165
သီးခြား	-10.1653
ကြမ်းပြင်	-10.1654
သိပ်	-10.1656
▁Wood	-10.1656
ရှောက်	-10.1662
▁Metal	-10.1669
▁Led	-10.167
ray	-10.1678
ဘင်	-10.1685
ခြေလှမ်း	-10.169
▁သြဂုတ်	-10.1693
▁ခရစ်တော်	-10.17
▁non	-10.1701
ဟူ	-10.1703
စခန်း	-10.1706
အလျား	-10.1707
အတု	-10.171
ယောင်	-10.1714
▁အမွေ	-10.1719
တကယ်	-10.1721
မဂ္ဂဇင်း	-10.1724
▁switch	-10.1728
▁ကုန်ကြမ်း	-10.1729
▁နိုင်ငံတော်	-10.173
ကြို	-10.1732
အင်အား	-10.1736
post	-10.1737
မုန့်	-10.1752
app	-10.1757
\	-10.177
▁Machinery	-10.1772
fish	-10.1773
ပျော့	-10.1776
သက်ရောက်	-10.1778
ဖတ်ရှု	-10.1778
မြင့်မား	-10.1778
feed	-10.1782
ယနေ့	-10.1784
lm	-10.1793
အစာရှောင်	-10.1797
အာရုံ	-10.1803
ဒေါ်လာ	-10.1805
ဟူသော	-10.1811
မျှော်လင့်	-10.1813
▁Rule	-10.1813
ညွှန်းကိန်း	-10.1818
ထူးခြားတဲ့	-10.1822
နေဆဲ	-10.1823
အစုံ	-10.1825
လုပ်ဆောင်ချက်	-10.1827
ပုဂ္ဂိုလ်ရေး	-10.1828
မေတ္တာ	-10.1834
လက်ျာ	-10.1834
တဘက်၌	-10.1834
▁အချင်းချင်း	-10.1834
ano	-10.1837
ခြင်းမရှိ	-10.184
ဗ်	-10.1841
▁Lighting	-10.1845
ition	-10.1846
ိပ္	-10.1848
လောင်းကစား	-10.1854
onic	-10.1855
နှုတ်ကပတ်တော်	-10.1855
ရှည်လျား	-10.1855
source	-10.1856
မိုဘိုင်းကာစီနို	-10.1871
ခြံ	-10.1873
ထားပါတယ်။	-10.1874
မရနိုင်	-10.1877
▁Cheats	-10.1887
ဆော့ဖ်ဝဲ	-10.1898
ethyl	-10.1901
ification	-10.1904
▁?????	-10.192
ခံခဲ့ရ	-10.1922
▁တရုတ်နိုင်ငံ	-10.1924
ဖော်ထုတ်	-10.1925
▁ပြဇာတ်	-10.1943
မှတ်စု	-10.195
▁ထိုနောက်	-10.1951
ညွှန်ပြ	-10.1963
[3]	-10.1963
အနီရောင်	-10.1963
အင်္ဂါရပ်များ	-10.1964
တွေ့မြင်	-10.1965
▁ပြန်ပြော	-10.197
မည်သည့်	-10.1972
တိုက်ပွဲ	-10.1978
▁not	-10.1984
ပွင့်လင်း	-10.1986
cell	-10.1989
စစ်တမ်း	-10.1992
▁Player	-10.1993
နန်	-10.1994
▁Market	-10.1996
uff	-10.1997
ကုန်ထုတ်လုပ်မှု	-10.2
qua	-10.2003
ကွန်တိန်နာ	-10.2007
▁default	-10.2007
ဖြန့်	-10.2015
▁West	-10.2017
အသုံးပြုနိုင်	-10.2023
အဖြူ	-10.2028
အဆို့ရှင်	-10.2028
လ္	-10.2029
၀င္	-10.2032
ward	-10.2043
ဗန်	-10.2049
TP	-10.2051
ညွှန်း	-10.2052
အိုင်တီ	-10.2055
ပုဂ္ဂလိကဂျက်	-10.2073
~	-10.208
မည်သို့	-10.2087
အလိုရှိ	-10.2088
ယန်း	-10.2089
▁Dreadbag	-10.2094
အလင်းရောင်	-10.2097
ထိရောက်မှု	-10.2098
ုန္း	-10.2103
▁Reader	-10.2114
ရှောလမုန်	-10.2116
ပရိုဂရမ်	-10.2116
တစ်မျိုး	-10.2123
lar	-10.2128
ကိုသုံးပါ	-10.2138
ေၾကာင့္	-10.2139
ခရို	-10.2141
လိမ့်မယ်	-10.2158
▁Service	-10.216
▁Tagged	-10.216
မြင်ကွင်း	-10.2165
▁game	-10.2166
rent	-10.2173
လှုံ့ဆော်	-10.2182
▁Galaxy	-10.2182
▁acrylic	-10.2182
ကော်မရှင်	-10.2182
▁အောက်တိုဘာ	-10.2191
ကြနှင့်။	-10.2193
မီးစက်	-10.2194
▁May	-10.2199
▁ရန်သူ	-10.2199
▁Slots	-10.2204
gre	-10.2206
ပြုတ်	-10.2207
▁ဖက်စ်	-10.2208
▁SMS	-10.221
ပေါင်းစည်း	-10.2211
0.6	-10.2214
သတ္တဝါ	-10.2227
▁နှ	-10.2232
▁Maung	-10.2233
ရကြမည်။	-10.2234
မြွက်	-10.2249
စောင့်ရှောက်ရေး	-10.2252
▁more	-10.2259
သူမ၏	-10.2267
တိုင္း	-10.2268
ဖက်ရှင်	-10.227
▁Bitcoin	-10.2271
▁access	-10.2271
▁ကျွန်မတို့ရဲ့	-10.2279
လေထု	-10.2285
ယွင်း	-10.2293
ဗျာဒိတ်	-10.2293
လီမိတက်	-10.2294
▁တပါးအမျိုးသား	-10.2294
ထပ္	-10.2296
▁was	-10.2301
ရှာတွေ့	-10.2304
ပျော်စရာ	-10.2305
ဂဟေဆော်	-10.2316
နေ့စွဲ	-10.2317
ဈေးကွက်	-10.2317
တော်မူမည်။	-10.2321
လက်ကိုင်	-10.2335
ကျဆင်း	-10.2335
ပျံသန်းမှု	-10.2337
ညွှန်ကြားချက်	-10.2338
အခမ်းအနား	-10.2338
▁ကျွန်မတို့ဟာ	-10.2351
ခပ်	-10.2354
ness	-10.2354
အားလပ်ရက်	-10.2361
ဖေါ်	-10.2363
▁Tattoos	-10.237
စည်းဝေး	-10.2373
ရည်ရွယ်	-10.2373
လက်ရာ	-10.2375
▁DJ	-10.2378
ဦးတည်	-10.238
▁List	-10.2381
Manufacturer	-10.2388
ငွေပေးချေမှု	-10.2393
တစ်စုံ	-10.2395
SL	-10.2398
▁Link	-10.24
အာရုံခံ	-10.2402
900	-10.2402
▁Standard	-10.2406
တူညီတဲ့	-10.2413
▁လူများတို့	-10.242
ပဋိညာဉ်	-10.2429
▁Grab	-10.2432
▁ဆက်သွယ်ရန်	-10.2437
ကောလိပ်	-10.2438
ဂရု	-10.245
မြော်လင့်	-10.2452
ကျေးဇူးတင်	-10.2453
▁ကျွန်တော့်	-10.2466
ဇင်	-10.2468
carb	-10.2487
ဟင်း	-10.2496
ကီလိုဂရမ်	-10.2497
အလတ်စား	-10.2497
▁သခင်ဘုရား	-10.25
၎င်းတို့၏	-10.2504
ဖဲ	-10.2508
▁ဧပြီ	-10.2514
လျင်မြန်စွာ	-10.252
မူးယစ်ဆေး	-10.252
ႀကီး	-10.252
ရေဒီယို	-10.252
content	-10.252
ကြဲ	-10.2536
ချပ်	-10.254
ify	-10.2542
ပျံ့နှံ့	-10.2543
သူ့ကို	-10.2545
ဝါဒ	-10.2545
နောက်ဆုံးပေါ်	-10.2547
▁off	-10.2553
မေ့	-10.2556
ကာတွန်း	-10.2556
အဖုံး	-10.256
Fran	-10.2562
exacthacks	-10.2566
ကိုယ်စားလှယ်	-10.2566
အရိပ်	-10.2567
ရည်ညွှန်း	-10.2568
ပြည့်စုံ	-10.2571
ွှန်	-10.2573
▁နာမတော်	-10.2573
နှစ်ဆ	-10.2576
အမှုအရာ	-10.2578
ဖေါ်ပြ	-10.2586
testosterone	-10.2589
ရင်ဆိုင်	-10.259
ဉာဏ်	-10.2609
▁Cool	-10.263
®	-10.2635
▁Rotary	-10.2635
တည်းဖြတ်	-10.2636
နံရံ	-10.2637
ဂီယာ	-10.2639
ချိန်ညှိ	-10.2648
▁have	-10.2649
ကာဗွန်	-10.2658
ကိုကလစ်နှိပ်ပါ	-10.2658
ဝက်ဝံ	-10.2658
2.4	-10.266
ချွန်	-10.2666
ခန္ဓာ	-10.2679
အဝတ်အစား	-10.2682
ကြဘူး	-10.2687
စက်ဘီး	-10.2689
သုံးစွဲဖို့	-10.2695
0.9	-10.2698
မှတပါး	-10.2702
ကန့်သတ်	-10.2705
down	-10.2705
Next	-10.2706
ၿပီ	-10.2707
သဘောတူ	-10.2709
PL	-10.271
▁ကနေဒါ	-10.2712
2.2	-10.2724
ကုန်ပစ္စည်းများ	-10.2726
ခင်ပွန်း	-10.2728
သင်ခန်းစာ	-10.2729
pack	-10.2738
နည်းဟု	-10.2751
▁စာရေးသူ	-10.2752
ဓိ	-10.2753
ဆုံးရေးသားချိန်	-10.2754
မွန္	-10.2757
700	-10.2759
ရှယ်ယာ	-10.2775
ရက်သတ္တပတ်	-10.2775
ခြမ်း	-10.2775
မှားယွင်း	-10.2775
tech	-10.2779
ချဲ့	-10.2788
၂၆	-10.2789
url	-10.2789
▁Oct	-10.2796
သွေးခုန်နှုန်း	-10.2799
ေရာက္	-10.28
▁drive	-10.28
မြက်	-10.2802
▁Lock	-10.2803
ဆုံးဖြတ်ချက်	-10.2811
အင်္ဂလိပ်	-10.2812
2.8	-10.2813
MI	-10.2817
á	-10.2822
ဇာတိ	-10.2827
ကမ္ဘာလုံးဆိုင်ရာ	-10.2837
ကျော်ကြား	-10.2843
ö	-10.2846
ဆောက်လုပ်ရေး	-10.2846
▁Micro	-10.2846
တီဗီ	-10.285
ေတာင္	-10.2858
1.6	-10.2863
ဘဲနေ	-10.2869
▁Log	-10.2869
အခွင့်အလမ်း	-10.287
တွစ်တာ	-10.287
ဒေသခံ	-10.2876
အောင်လုပ်	-10.2876
အဝတ်ကို	-10.2885
ကျွမ်းကျင်မှု	-10.2893
▁Professional	-10.2893
▁ျမန္မာ	-10.2894
ရွေးကောက်ပွဲ	-10.2896
ကျမ်းစာ	-10.2908
ကုန်သွယ်ရေး	-10.2911
ract	-10.2913
ဖေဖော်ဝါရီ	-10.2916
▁Tablet	-10.2917
ING	-10.2926
▁စစ်တိုက်	-10.2926
အကြှနျုပျ	-10.2938
screen	-10.2941
▁70%	-10.2945
ဝတ်စုံ	-10.2956
ပွဲစဉ်	-10.2962
▁125	-10.2963
other	-10.2967
သူငယ်ချင်း	-10.2968
လေ့ကျင့်	-10.2987
▁Zhejiang	-10.2989
	-10.2989
ကြီးမား	-10.2991
▁နောက်ပြီး	-10.2995
▁Cable	-10.2998
ဟေ	-10.3006
ထုပ်	-10.3007
ဆင်ခြင်	-10.301
ဖြန့်	-10.3011
သောကြာနေ့	-10.3013
မြို့နယ်	-10.3024
▁Big	-10.3034
ဗိသုကာ	-10.3037
▁Electronic	-10.3037
တားဆီး	-10.3037
မလဲ။	-10.3044
▁chip	-10.3044
ရွင္	-10.3055
ယ်ယူပို့ဆောင်ရေး	-10.3061
တက်တူး	-10.3061
လုံလောက်	-10.3069
နေတာပါ။	-10.3081
ေထာင္	-10.3086
▁ကြက်	-10.3086
စွန့်ပစ်	-10.3088
mq	-10.3093
▁အရာတွေ	-10.3094
အလုပ်သမား	-10.31
လိုအပ်ပါတယ်	-10.3105
▁Ball	-10.3109
မဂ္ဂနီစီယမ်	-10.311
▁select	-10.311
ႏိုင္ငံ	-10.3111
live	-10.3114
ဖွ	-10.3123
lution	-10.3127
ဇာတ်ကောင်	-10.3128
ကျား	-10.3133
▁Medical	-10.3134
ရေစိုခံ	-10.3134
ပရင်တာ	-10.3134
▁သက်သေခံ	-10.3136
zip	-10.3149
အိတ်ဆောင်	-10.3152
စစ်ပွဲ	-10.3163
မြှင့်တင်	-10.3178
▁Tour	-10.318
ပြဲ	-10.3181
အလွယ်တကူ	-10.3183
▁ဗာဗုလုန်	-10.3183
▁အမေရိကန်ကဒေါ်လာ	-10.3183
▁UK	-10.3199
ဖြည့်	-10.32
မရှိဘူး	-10.3208
ပြို	-10.323
၂၀၁၄	-10.325
အကောင်အထည်ဖော်	-10.3257
အနေအထား	-10.3257
တံတား	-10.3257
4.2	-10.3257
▁Fiber	-10.3258
Port	-10.3259
မျး	-10.326
လှူ	-10.3261
သက်သက်	-10.3274
ချောမွေ့	-10.3281
some	-10.3288
ဒါ့အပြင်	-10.3289
ကျောင်းသားများ	-10.3306
အထောက်အထား	-10.3306
▁ကောင်းကင်တမန်	-10.3306
နဂါး	-10.3306
▁process	-10.3308
အစွန်း	-10.3313
ဲလ်	-10.3314
0.7	-10.3314
olone	-10.3315
ကုန္	-10.3317
▁တစ်နေ့	-10.3329
ခြုံ	-10.333
အာဗြဟံ	-10.3331
ကြွယ်ဝ	-10.3331
လက်အိတ်	-10.3351
ဂီ	-10.3353
ရာထူး	-10.3355
အထည်အလိပ်	-10.3356
အကျိုးကျေးဇူး	-10.3363
ညာဘက်	-10.3385
ကုန်သွယ်မှု	-10.3396
▁cookie	-10.3406
အမိန့်	-10.3407
ရောင်ခြည်	-10.3413
မောင်းသူ	-10.3421
အလုပ်အကိုင်	-10.3431
▁drop	-10.3432
အတိုင်းအတာ	-10.3432
ဟော်မုန်း	-10.3444
head	-10.3454
script	-10.3458
အခြားသူများ	-10.3458
round	-10.3458
သတိထား	-10.3459
ရွှင်လန်း	-10.3481
▁ဗိမာန်တော်	-10.3481
ခိုင်ခံ့	-10.3481
▁SARS	-10.3481
eek	-10.3482
ဂူ	-10.3484
ကာကွယ်ရေး	-10.3491
ကျယ်ပြန့်	-10.3506
နှီးမြှုပ်နှံမှု	-10.3506
ခံနိုင်ရည်	-10.3506
နီးယား	-10.3517
ယေဘုယျ	-10.3519
ထက္	-10.3529
ရှူ	-10.353
အခွင့်အရေး	-10.3531
▁America	-10.3532
▁Indicator	-10.3532
အဲဒီ	-10.3543
မော်တော်ယာဉ်	-10.355
က်ဘ်ဆိုက်	-10.3551
▁20%	-10.3551
အော်ဟစ်	-10.3557
▁Store	-10.3559
အခမဲ့ဒေါင်းလုပ်	-10.356
▁Aung	-10.3561
ထုတ္	-10.3581
ပဌနာ	-10.3583
တစ်ပုဒ်	-10.3583
ွဲ	-10.3587
၉၀	-10.359
▁Moto	-10.3591
မာရိ	-10.3594
သောသူတို့ကို	-10.3602
▁Block	-10.3605
တတ်ကြ၏။	-10.3608
အစွမ်းသတ္တိ	-10.3608
▁program	-10.3608
အနေဖြင့်	-10.3609
CAD	-10.3611
ပေမယ့်	-10.3617
ခ်စ္	-10.3631
ä	-10.3634
အရည်ပျော်	-10.3634
ကိုယ်စားပြု	-10.3635
proof	-10.3636
▁Stock	-10.3637
▁နိုဝင်ဘာ	-10.3646
2.7	-10.3649
▁Blackjack	-10.3659
▁Humidifier	-10.3659
▁ထို့အပြင်	-10.366
▁CSGO	-10.3685
▁Skype	-10.3686
late	-10.3687
ယှဉ်ပြိုင်	-10.3702
▁Best	-10.3708
တို႕	-10.3708
▁Lab	-10.3709
သမုဒ္ဒရာ	-10.3711
▁cockpit	-10.3711
အသိပညာ	-10.3712
ရင်းနှီး	-10.3712
ဆင်းရဲ	-10.3714
OP	-10.3724
ient	-10.3726
▁months	-10.3737
▁ဘာဖြစ်	-10.3738
အဖေ	-10.3741
▁Tue	-10.3743
ရွင္း	-10.3752
ဃ	-10.3762
တပ်ဖွဲ့	-10.3769
အဆွေအမျိုး	-10.3771
1.3	-10.3777
နှိုး	-10.3779
ခေတ်သစ်	-10.3783
ဆုပ်	-10.3784
▁interface	-10.3788
သိုလှောင်မှု	-10.3812
dust	-10.3817
soft	-10.3818
မြှင့်တင်	-10.3819
▁Global	-10.3841
▁Program	-10.3841
၂၂	-10.3866
ရည်မှန်းချက်	-10.3867
▁PTFE	-10.3867
▁Check	-10.3868
ဖွဲ့စည်းတည်ဆောက်	-10.3869
စာချုပ်	-10.3873
လေတပ်	-10.3873
အဘယ်အရာကို	-10.3874
▁file	-10.3874
လှုပ်	-10.3878
5.1	-10.3885
▁Che	-10.3887
▁အဘယ်သူမျှ	-10.389
▁Powder	-10.3893
▁အထူးသဖြင့်	-10.3893
လောင်းကစားရုံ	-10.3895
ဝိုင်	-10.3905
emp	-10.3916
သိတင်း	-10.3919
လေ့ကျင့်ရေး	-10.3919
ေခၚ	-10.3919
craft	-10.3919
▁Collet	-10.392
EX	-10.393
myanmar	-10.3946
ထံတော်သို့	-10.3946
အသုံးပြုသည်။	-10.3948
0.4	-10.395
နိမ့်	-10.395
တုန်း	-10.3959
▁Cheat	-10.3972
ငိုကြွေး	-10.3972
အံ့သောငှါ	-10.3972
▁coated	-10.3975
▁Products	-10.3975
ဝေမျှ	-10.3982
လှံတံ	-10.3999
စောင်း	-10.4002
ဖုံးလွှမ်း	-10.4025
အဆက်အသွယ်	-10.4025
တက်ဘလက်	-10.4025
▁ယဇ်ပလ္လင်	-10.4025
ကန့်သတ်	-10.4026
▁အကယ်စင်စစ်	-10.4052
ျပဳ	-10.4054
ဖြစ်နိုင်ခြေ	-10.406
အပြန်အလှန်	-10.4079
▁android	-10.4079
ေျခ	-10.4081
အပ်နှံ	-10.4083
နီးကပ်	-10.409
4.9	-10.4101
▁နေရပ်လိပ်စာ	-10.4106
▁???	-10.4108
▁50%	-10.4118
▁extension	-10.4132
တစ်ခုချင်းစီ	-10.4132
▁World	-10.4132
မှောင်မိုက်	-10.4133
သတ်မှတ်မည်	-10.4141
အထူးသဖြင့်	-10.4142
၂၇	-10.4152
သိမှတ်	-10.4159
ညှိနှိုင်း	-10.4159
▁အိုထာဝရဘုရား၊	-10.4159
သုည	-10.4161
တူရိယာ	-10.4186
အဆောက်အဦ	-10.4187
▁Bible	-10.4188
ဖယ်	-10.419
အားသာချက်	-10.4192
ခြောက်သွေ့	-10.4213
စဥ်	-10.4214
▁display	-10.4215
ပြောတာက	-10.4216
လူအပေါင်းတို့သည်	-10.4218
နားထောင်	-10.4221
berg	-10.4226
သိပ္ပံပညာရှင်	-10.4228
လန်ဒန်	-10.4241
spot	-10.4252
တွေးမိ	-10.4259
တယ်လေ။	-10.4266
မွမ်းမံ	-10.4268
ထွေး	-10.4268
▁North	-10.4268
တွက်ချက်	-10.4269
▁Buy	-10.4269
ough	-10.4274
သာမက	-10.4276
မှတ်တမ်းတင်	-10.4281
ious	-10.4286
ရုပ်ရှင်ပွဲတော်	-10.4295
3.1	-10.4297
ဖွား	-10.4316
▁ပြန်စစ်ပြီး။	-10.4323
ခိုလှုံ	-10.4323
ဝန်းကျင်	-10.4324
ရပ်ကွက်	-10.4326
▁Office	-10.4326
အဲဂုတ္တု	-10.4337
▁ယုဒပြည်	-10.4348
▁Instagram	-10.435
ပုလွေ	-10.435
embed	-10.435
ပိတ်ချော	-10.4354
လက်စွပ်	-10.4364
direct	-10.4364
ကျေနပ်	-10.4372
နှိုးဆော်	-10.4378
▁ဒီဂရီစင်တီဂရိတ်	-10.4378
▁Solutions	-10.4378
တစုံတခု	-10.4378
▁SITE	-10.4378
▁သာ၍	-10.4397
▁အရှင်ထာဝရဘုရား	-10.4406
ေျပာင္း	-10.4412
ႊ	-10.4432
ကြှနျုပျတို့	-10.4433
ဒေါင်လိုက်	-10.4433
▁မူ၏။	-10.4434
နိမ့်ဆုံး	-10.4438
တာလဲ။	-10.4441
6.0	-10.4441
▁Yu	-10.4442
izer	-10.4451
▁ဆုံးမ	-10.4459
မဟာဗျူဟာ	-10.4461
▁Open	-10.4461
လမ်းလျှောက်	-10.4475
▁Dust	-10.4478
ပြတင်းပေါက်	-10.4489
▁June	-10.4489
ပစ်မှတ်	-10.4509
▁prev	-10.4516
▁Solenoid	-10.4517
▁ဖိုင်နာမည်	-10.452
ရှိရာသို့	-10.452
▁ယောရှု	-10.4522
▁Start	-10.4527
မီးဖိုချောင်	-10.4531
၂၃	-10.4532
▁Worldwide	-10.4545
လှည်း	-10.4545
အညွှန်းကိန်းများ	-10.4551
▁item	-10.4559
ဆုိ	-10.456
သည်းခံ	-10.4564
а	-10.4573
ပဋိ	-10.4573
သင်္ကေတ	-10.4573
▁Nye	-10.4573
အတော်လေး	-10.4578
▁cable	-10.4582
▁ပုံရိပ်တွေ	-10.4594
hydro	-10.4597
မျဉ်း	-10.4599
ရှေးခယျြ	-10.4601
▁ယောသပ်	-10.4601
အဘယ်သို့	-10.4618
▁mod	-10.4624
လျာ	-10.4625
8.1	-10.4627
▁package	-10.4629
ခေါင်	-10.4636
ျမင္	-10.4655
●	-10.4657
water	-10.4658
အမျိုးအနွယ်	-10.4664
▁ကျနော်	-10.4666
▁Light	-10.4673
အသုံးဝင်	-10.4674
4.5	-10.4678
Custom	-10.4686
နယ်ပယ်	-10.4695
▁UHF	-10.4714
၂၀၁၃	-10.4714
နိုင်သလား	-10.4719
ဂျာနယ်	-10.4722
ထူးဆန်း	-10.4723
▁March	-10.4724
free	-10.4725
ပျောက်ဆုံး	-10.4729
သူအပေါင်းတို့သည်	-10.4741
ကျောက်မီးသွေး	-10.4743
bility	-10.4744
▁ဒီနေရာမှာ	-10.4744
ပွင့်လင်း	-10.4744
ိုင္း	-10.4746
ပွင့်	-10.4749
ရှင်သန်	-10.4749
ဂဟေ	-10.4751
တစ်ကြိမ်	-10.4755
▁Gold	-10.4767
ရာသီဥတု	-10.4772
▁ရှန်ကျန်း	-10.4772
နှင်ထုတ်	-10.4772
ဖြဲ	-10.478
ဦးထုပ်	-10.478
1.7	-10.4788
iff	-10.479
▁Application	-10.48
ကြိုးပမ်း	-10.48
စိန်ခေါ်မှု	-10.48
အများပြည်သူ	-10.4807
လွှင့်	-10.4807
(24	-10.4807
တောင့်	-10.4811
နိုင်ဘူး	-10.4826
စပျစ်သီး	-10.4829
ပဋိညာဉ်စာတမ်း	-10.4829
▁Piece	-10.4829
▁Thread	-10.483
ဖြို	-10.4833
ထူထောင်	-10.4835
3.3	-10.4839
ကာလအတွင်း	-10.4841
ဖို႔	-10.4841
ခွံ	-10.4842
“	-10.4843
▁Qingdao	-10.4858
မာလ်တီမီဒီယာ	-10.4858
cap	-10.4861
ဈေး	-10.4884
ကိုဆကျသှယျရနျ	-10.4887
အပန်းဖြေ	-10.4887
▁ABS	-10.4888
တင်းထုတ်ပြန်ချက်	-10.4889
umb	-10.4894
▁auto	-10.4912
မှန်ဘီလူး	-10.4916
▁Gurgaon	-10.4916
▁VERSION	-10.4916
နေတုန်း	-10.4916
မီးခွက်	-10.4927
စီမံခန့်ခွဲ	-10.4942
▁ပင်မစာမျက်နှာ	-10.4945
▁(2)	-10.4953
စက်မှုဇုန်	-10.4958
တစ်လျှောက်	-10.4958
▁BIB	-10.4975
အရမ်း	-10.498
▁ဂေ	-10.4983
review	-10.4987
▁တဲတော်	-10.4989
များထဲမှ	-10.5001
▁Royale	-10.5004
▁operating	-10.5004
▁View	-10.5004
အဝါရောင်	-10.5004
ရေတွက်	-10.5008
ဂျွန်	-10.5008
ကျေးဇူးတင်ပါသည်	-10.5017
မန်နေဂျာ	-10.5033
စတိုးဆိုင်	-10.5033
ဘိုးဘေး	-10.5033
▁July	-10.5033
သက်သေပြ	-10.5047
ဝမ်းနည်း	-10.505
1.4	-10.5054
ရှမွေလသည်	-10.5058
၂၈	-10.5059
ဗြိတိသျှ	-10.5063
ကြကုန်အံ့	-10.5063
ဟောင်ကောင်	-10.5063
ကင်းလွတ်	-10.5068
COM	-10.5075
ညစ်ညမ်း	-10.5092
နှိမ့်ချ	-10.5092
မီးခိုးရောင်	-10.5092
ဟိုက်ဒရောလစ်	-10.5092
▁micro	-10.5092
▁ကဲ့ရဲ့	-10.5092
▁Crack	-10.5095
မြန်ဆန်	-10.5098
မောင်းနှင်	-10.5108
အပ်ချုပ်	-10.5109
ရေနွေးငွေ့	-10.5122
သြစတြေးလျ	-10.5122
‘	-10.5122
▁gauge	-10.5122
အရည်အချင်း	-10.5122
▁လေဝိသား	-10.5152
▁သာမန်	-10.5156
မြှင့်	-10.5178
ယုံကြည်စိတ်ချရ	-10.5182
ၤ	-10.5182
ဟတ်	-10.5185
စိစစ်	-10.5186
ဓား	-10.5187
အိန္ဒိယ	-10.5216
မြေပြင်	-10.5217
4.1	-10.5223
ခရစ္စမတ်	-10.5241
တိုးမြှင့်	-10.5241
ကင်ဗိုလ်ခြေအရှင်	-10.5242
အသီးသီး	-10.5242
မိတ်ဖက်	-10.5272
▁York	-10.5272
အနံ့	-10.5273
ရိုက်ကူး	-10.5286
▁နေဖြင့်	-10.5288
cord	-10.5297
လေယာဉ်ပျံ	-10.5299
ခြေရာခံ	-10.5302
ကနဦး	-10.5303
စျေးဝယ်	-10.5313
▁မူတည်	-10.5313
ခြေထောက်	-10.5322
လူမီနီယံ	-10.5332
စားနပ်ရိက္ခာ	-10.5332
▁WhatsApp	-10.5332
ခြစ်	-10.5332
ညီလာခံ	-10.5332
▁Print	-10.5338
CAS	-10.534
▁ယေရှုသည်	-10.5349
ပရိဘောဂ	-10.5363
▁Delivery	-10.5363
▁Hydraulic	-10.5363
ရှီ	-10.5365
ရပါမည်	-10.5373
ကျွန်ုပ်တို့	-10.5376
6.2	-10.5385
အတှကျ	-10.5393
အံ့သြဖွယ်	-10.5393
မျက်မှောက်	-10.5393
သင်္ချာ	-10.5393
▁Frame	-10.5393
၂၉	-10.5393
မာစတာ	-10.5405
စွပ်	-10.5408
အာရုံစူးစိုက်	-10.5424
▁FileCatalyst	-10.5424
မိတ်ကပ်	-10.5424
ပါသည္။	-10.5424
အရေပြား	-10.5425
ဦးနှောက်	-10.5427
▁ယောဟန်	-10.5428
▁Xbox	-10.5432
service	-10.5454
ဓာတ်ခွဲခန်း	-10.5454
ခေါင်မိုး	-10.5456
ပို့ကုန်	-10.5481
ဖြောင့်	-10.5484
▁info	-10.5484
▁Network	-10.5485
▁Credit	-10.5485
▁John	-10.5485
သတင္း	-10.5485
▁Update	-10.5486
▁installation	-10.5494
▁QR	-10.5511
င်းရှင်းလင်းလင်း	-10.5517
6.5	-10.5519
ပါးစပ်	-10.5531
3.7	-10.5535
အရသာ	-10.5545
တနင်္ဂနွေ	-10.5547
စားသောက်ဆိုင်	-10.5547
ပထမဦးစွာ	-10.5547
ေသး	-10.5547
နွမ်း	-10.5554
llow	-10.5572
ကော်ပိုရေးရှင်း	-10.5578
စာရေးဆရာ	-10.5578
လို့ခေါ်တဲ့	-10.5578
အစ်ကို	-10.5579
7.5	-10.5585
ျပင္	-10.5606
ဆော့ဝဲ	-10.5609
အကြိုက်ဆုံး	-10.5609
အခြေစိုက်စခန်း	-10.5609
▁ယူရို	-10.5616
▁Track	-10.5616
ဘရာဇီး	-10.564
▁unlimited	-10.564
ဘေးကင်းလုံခြုံ	-10.564
▁Center	-10.5641
အမြင့်ဆုံး	-10.5641
ေရႊ	-10.5641
လဲဆိုတော့	-10.5646
4.4	-10.5657
ှနျ	-10.566
နိမ့်	-10.5667
ဖြန့်ချိ	-10.5672
≤	-10.5672
▁Clarinet	-10.5672
အနှံ့	-10.5672
ခြင်	-10.5675
8.0	-10.5695
အခြေစိုက်	-10.5703
ပရီမီယံ	-10.5703
အသိုင်းအဝိုင်း	-10.5703
video	-10.5704
Video	-10.5704
▁ကြိုးမဲ့	-10.5704
တိုးမြှင့်	-10.5705
လေ့ကျင့်ခန်း	-10.5706
အလိုတော်	-10.5707
သွန်သင်	-10.5709
အောက်ခြေ	-10.5722
ထက်ပိုမို	-10.5729
မက်ဆေ့ခ်ျ	-10.5735
▁Bottle	-10.5735
ဝေဒနာ	-10.5735
▁မက်စ်	-10.5738
place	-10.5743
အရာအားလုံး	-10.5749
ကမ္ဘာတစ်ဝှမ်း	-10.5766
▁Games	-10.5766
▁Super	-10.5777
ကျေးဇူးပြုပြီး	-10.5781
အနုညာတစီရင်	-10.5798
ဖယောင်းတိုင်	-10.5799
▁ဒေတာအရွယ်အစား	-10.5803
▁Plan	-10.582
▁နည်းလမ်းတွေ	-10.5824
←	-10.583
စက္ကန့်	-10.583
လည်ပင်း	-10.583
မှတဆင့်	-10.5831
▁သင်၏ဘုရားသခင်	-10.5841
စုပ်စက်	-10.5861
သုတေသီ	-10.5862
▁ဟုတ်ကဲ့	-10.5862
ညှပ်	-10.5862
о	-10.5894
▁Module	-10.5894
▁အကယ်၍	-10.5894
လူ့အခွင့်အရေး	-10.5897
▁မုသာ	-10.5899
မှီတိုင်အောင်	-10.59
ျပီ	-10.5908
မည်လော။	-10.5917
အနိမျ့	-10.5926
▁Simulator	-10.5926
တော်တော်များများ	-10.5926
▁Holder	-10.5926
အတော်များများ	-10.5928
Trade	-10.5928
▁trans	-10.5956
အလယ်အလတ်	-10.5958
š	-10.5958
လက်စွဲစာအုပ်	-10.5958
ဒိုမိန်း	-10.5958
ကာလပတ်လုံး	-10.5958
[4]	-10.5959
▁CBD	-10.5959
ဖိုင်ဘာ	-10.5967
တို့သည်ငါတို့၏	-10.5982
3.6	-10.5983
ဖြည့်စွက်	-10.5991
▁Africa	-10.5991
▁iPad	-10.5991
ပကတိ	-10.5991
များရယူပြီး	-10.5991
ကျွမ်းကျင်	-10.5995
▁Clash	-10.5998
သွန်	-10.6018
စတင်တည်ထောင်ခဲ့	-10.6024
ဆယ်ကျော်သက်	-10.6056
▁မိုဃ်းကောင်းကင်	-10.6056
အသွားအလာ	-10.6056
▁မှပံ့ပိုးသည်	-10.6056
▁Moving	-10.6056
ဈေးနှုန်း	-10.6058
သည်မဟုတ်။	-10.6061
ပျော်မွေ့	-10.6088
▁Metatrader	-10.6088
ခြင်းငှာ	-10.6088
sulator	-10.6088
တရားမျှတ	-10.6089
▁နန်းတော်	-10.6094
ပတ်ပတ်လည်	-10.6112
လျှပ်	-10.6119
စက္ဏူထူ	-10.6121
▁Copyright	-10.6121
ပွါး	-10.6121
တော်လှန်ရေး	-10.6121
▁server	-10.6121
ျဖစ္တယ္	-10.6123
လမ်းမကြီး	-10.6123
ကျန်ကြွင်း	-10.6124
▁အမှုတော်	-10.6128
▁သီချင်းဆို	-10.614
ကြောက်မက်ဘွယ်	-10.6154
အလျင်အမြန်	-10.6154
▁Pocket	-10.6156
what	-10.6157
▁hot	-10.6169
နောက်ကျော	-10.6175
2.3	-10.6178
သိသိသာသာ	-10.6187
▁Channel	-10.6187
▁indicator	-10.6187
ယှက်	-10.6187
သံသယ	-10.6187
▁အယ်လ်	-10.6187
▁click	-10.6188
ၾကား	-10.6202
န်ဆောင်မှု	-10.6205
ခရစ်ယာန်	-10.622
ဓါတ်ငွေ့	-10.622
ville	-10.6225
ဂရမ်	-10.6253
▁first	-10.6253
▁0086	-10.6258
ရည်အသွေးမြင့်မား	-10.6285
ကူပွန်	-10.6287
ရုံဆွေးနွေးပွဲ	-10.6287
အချည်းနှီး	-10.6287
▁Ruizhun	-10.6287
▁Build	-10.6287
▁String	-10.6287
စည္း	-10.6287
အဆင့်ဆင့်	-10.629
▁မြည်း	-10.6295
ဖြည်	-10.6301
ဂိမ်းကစား	-10.6311
ဧဝံဂေလိ	-10.632
ဖြန့်ချိ	-10.632
ေယာက္	-10.6322
▁ဇူလိုင်	-10.6341
ဗီယက်နမ်	-10.6354
▁International	-10.6354
အမျက်ထွက်	-10.6354
ကြိမ်မြောက်	-10.6378
ရွေးကောက်	-10.6379
▁mol	-10.6387
အစိုင်အခဲ	-10.6387
ဗွီဒီယို	-10.6387
လိမ္မော်ရောင်	-10.6387
▁Panasonic	-10.6387
ကော်မတီ	-10.6387
▁ဤရွေ့ကား	-10.6387
ကရိယာ	-10.6388
တကယ္	-10.6389
This	-10.6389
ကြံစည်	-10.6391
point	-10.6401
▁ဤအမှု	-10.6405
စည်းစိမ်	-10.6406
သဏ္ဍာန်	-10.6421
တုန်ခါ	-10.6421
အကဲဖြတ်	-10.6421
မို့လို့	-10.6422
▁လောကီ	-10.6423
▁poly	-10.6425
ေငြ	-10.6426
▁ကျိန်ဆို	-10.6434
▁USA	-10.6436
အစွမ်းထက်	-10.644
ဘူးလေ။	-10.644
ရွေ့လျား	-10.6455
အစစ်အမှန်	-10.6455
▁Virtual	-10.6455
▁browser	-10.6455
ထပ်မံ	-10.6455
အမှတ်တရ	-10.6456
ထောက်လှမ်း	-10.6458
▁သတိပြု	-10.6463
ကွိုင်	-10.647
အနုပညာရှင်	-10.6471
ေျမ	-10.6479
3.4	-10.6481
စေနှင့်။	-10.6488
အင်တင်နာ	-10.6489
▁August	-10.6489
▁Square	-10.6489
သယ်ဆောင်	-10.6489
ချိုင့်	-10.6489
▁Express	-10.6491
နားမလည်	-10.6492
▁mesh	-10.6494
အရှိဆုံး	-10.6496
ယှဉ်	-10.6501
-08-	-10.6508
တယ်လီဖုန်း	-10.6523
▁Install	-10.6523
▁Surface	-10.6523
MHz	-10.6523
ဘာဖြစ်လို့လဲဆို	-10.6525
ညစ်ညူး	-10.6557
ၿဖစ္	-10.6557
▁Pneumatic	-10.6557
▁password	-10.6557
အယူအဆ	-10.6558
ည်းမျဉ်းစည်းကမ်း	-10.6558
ကမ္ဘာ့ဖလား	-10.6565
print	-10.6571
▁ဘန်	-10.6588
လစ်ယုံကြည်ခြင်း	-10.6592
ဖုန်စုပ်	-10.6595
▁bug	-10.6605
▁Defending	-10.6626
▁ဝါဂွမ်း	-10.6626
▁အလည်အပတ်	-10.6626
html	-10.6626
ကနေတဆင့်က	-10.6626
▁အမျက်တော်	-10.6627
ခြင်္သေ့	-10.6661
မကြာမီ	-10.6661
▁Korea	-10.6661
လျှော်	-10.6664
ထာဝရ	-10.6667
လုလင်	-10.6667
▁ယခင်ဆောင်းပါး	-10.6668
ပုတီး	-10.6686
ဘ်ဆိုဒ်	-10.6691
▁Detector	-10.6696
▁input	-10.6696
အပိုင်းအစ	-10.6699
5.2	-10.6719
google	-10.673
ခြုံငုံ	-10.673
▁roller	-10.6731
သဘောတူညီချက်	-10.6731
▁SKU	-10.6731
ဒါရိုက်တာ	-10.6731
SQL	-10.6731
▁ဆိုလိုတာက	-10.6737
▁Transposh	-10.6765
အပြုအမူ	-10.6766
စာဖတ်သူ	-10.6766
▁၂၀၁၁	-10.6771
ဂန္ထဝင်	-10.6801
သင်္ဂြိုဟ်	-10.6801
▁button	-10.6801
စစ်မှန်သော	-10.6801
အစဉ်အလာ	-10.6802
သို႔	-10.6808
ခေါ	-10.681
ဒါမှမဟုတ်	-10.6817
သြဇာ	-10.6818
စိုစွတ်	-10.6836
▁Universal	-10.6836
နှာခေါင်း	-10.6836
▁Display	-10.6837
ရွှေ့ပြောင်း	-10.684
▁Semi	-10.6851
အဘယ်သူ	-10.6858
▁Dongguan	-10.6871
ဣသရေလ	-10.6872
▁ကိုယ့်ကိုယ်ကို	-10.6873
help	-10.6874
တွေ့ကြုံ	-10.6878
▁ဧရာမ	-10.6906
▁Range	-10.6906
ကြွက်သား	-10.6907
▁ပညတ်တရား	-10.6911
စိတ်ဖိစီးမှု	-10.6942
ပျေါ	-10.6942
▁ယေရှုခရစ်	-10.6942
အကြွေး	-10.6942
▁ခုနက	-10.6965
word	-10.6978
တစ်စိတ်တစ်ပိုင်း	-10.6978
တ္တုများပုံသွန်း	-10.6978
သစ်ကြိုဆိုပွဲ	-10.6978
▁ရောင်းဈေး	-10.6978
▁Intel	-10.6979
လုပ်ငန်းရှင်များ	-10.698
အမှိုက်	-10.698
▁လုယူ	-10.6982
လုပျ	-10.6985
ဆွစ်ဇာလန်	-10.7014
လေ့ကျင့်ခန်း	-10.7014
▁Adapter	-10.7014
ဆလင်ဒါ	-10.7014
▁အသက်ရှူ	-10.7017
အလုပ်လုပ်ကိုင်	-10.7028
ဖွင့်လှစ်	-10.705
▁Business	-10.705
▁September	-10.705
▁Fruity	-10.705
ခြယ်	-10.705
▁ထိုင်းနိုင်ငံ	-10.7052
ကြေးနန်း	-10.7053
အခန်းကဏ္ဍ	-10.7053
travel	-10.7055
▁API	-10.7064
အလှကုန်	-10.7065
▁ရန်သူတို့	-10.7078
ပြက္ခဒိန်	-10.7086
ဇိမ်ခံ	-10.7086
ပေါက်ကွဲမှု	-10.7086
ရကြ။	-10.709
4.7	-10.7092
ဋ္ဌ	-10.7117
ခရက်ဒစ်	-10.7122
▁စိတ်ဝင်စားစရာ	-10.7123
▁ဘိုးဘေးတို့	-10.7125
ဒါဝိဒ်	-10.7146
လိမ့်	-10.7146
▁Sky	-10.7157
တနင်္လာနေ့	-10.7158
▁Gibbs	-10.7158
▁Music	-10.7159
အယ်လ်ဘမ်	-10.7195
▁Laptop	-10.7195
တူးဖော်	-10.7195
အလယ်ပိုင်း	-10.7195
ခြင်းအမှု	-10.721
ဒေါင်းလုဒ်	-10.7232
ဝင်ရိုးစွန်း	-10.7232
▁DOWNLOAD	-10.7232
▁Edition	-10.7232
Internet	-10.724
အိပ်ရာဌာနမှူး	-10.7268
အမေဇုံ	-10.7268
အဲယားဘတ်စ်	-10.7268
႐	-10.7268
▁Middle	-10.7268
အစားအသောက်	-10.7268
▁Select	-10.7268
▁DNA	-10.7269
အတတ်ပညာ	-10.7293
5.6	-10.7297
ယော်ဒန်မြစ်	-10.7305
`	-10.7305
▁Edge	-10.7305
▁Title	-10.7305
ကြမ်းတမ်း	-10.7311
၂၀၂၀	-10.7342
и	-10.7342
å	-10.7342
ဆွီဒင်	-10.7342
ပရိတ်သတ်	-10.7342
လက်ဝါးကပ်တိုင်	-10.7342
သင်္ချိုင်း	-10.7342
▁South	-10.7345
▁Holmbygden	-10.7379
တှေ့	-10.7379
▁ကောင်းကင်ဘုံ	-10.7379
▁Sheet	-10.738
ငါတို့သည်သင်တို့	-10.7395
အစဉ်အဆက်	-10.7402
▁Machine	-10.7414
ဖော်မြူလာ	-10.7417
mobile	-10.7417
▁အုပ်စိုး	-10.7417
▁feature	-10.7426
4.3	-10.7442
အသိပေး	-10.7443
е	-10.7454
စံချိန်စံညွှန်း	-10.7454
ရီးရဲလ်	-10.7454
▁manual	-10.7454
က္ခာ	-10.7454
ရန်ပုံငွေ	-10.7454
▁HGH	-10.7455
▁Forward	-10.7456
Control	-10.7492
ထရေးဒင်း	-10.7492
နိဒါန်း	-10.7492
▁Scooter	-10.7492
▁Manager	-10.7492
အတူတကွ	-10.7492
facebook	-10.7529
ႀ	-10.7529
ရိုနာဗိုင်းရပ်စ်	-10.7529
အဝတ်လျှော်	-10.753
▁National	-10.753
0-3	-10.7533
စုပ်ယူ	-10.7567
ဘောင်းဘီ	-10.7567
▁Health	-10.7567
အာရုံကြော	-10.7569
virus	-10.7571
ွီး	-10.7581
▁တောင်ကိုရီးယား	-10.7605
စကားဝှက်ကို	-10.7606
▁Smart	-10.7606
▁Mills	-10.7606
နောက်ပိုင်းတွင်	-10.7607
ပြောရရင်	-10.7608
Casino	-10.7617
▁Controller	-10.7644
အဆွေ	-10.7673
ရယ်မောသံများ	-10.7682
အဓိပ္ပာယ်	-10.7682
▁ဇိအုန်	-10.7682
သည်ကြီးများအသင်း	-10.7682
▁Ultra	-10.7682
ကိုင်ဆောင်သူ	-10.7682
ဥပဒေရေးရာ	-10.7682
▁Touch	-10.7685
7.1	-10.7691
စဉ်ဆက်မပြတ်	-10.772
ဆီလီကွန်	-10.772
အမြိုး	-10.772
အလိုငှါ	-10.7724
ထိုင်ဝမ်	-10.7726
ဘိလပ်မြေ	-10.7759
▁Dedusting	-10.7759
▁about	-10.776
▁ဖေဖော်ဝါရီလ	-10.7762
အလိုအလျှောက်	-10.7798
▁Foundation	-10.7798
ဝိသေသ	-10.7798
ေအာက္	-10.7798
ဖွစျ	-10.7799
rror	-10.7828
▁Yamaha	-10.7837
စတုတ္ထ	-10.7837
လဲလှယ်	-10.7837
ဝါကြွား	-10.7837
ဖြုန်း	-10.7837
!!!	-10.7837
ကြိုဆိုပါသည်	-10.7847
▁configuration	-10.7876
▁Company	-10.7876
စသည်တို့	-10.79
အကာအကွယ်	-10.7915
စကျင်ကျောက်	-10.7915
ပြည်ထဲရေး	-10.7915
ဝှမ်း	-10.7954
▁Christ	-10.7955
ကိန်းဂဏန်း	-10.7956
စက္ကန့်	-10.7994
▁Router	-10.7994
သလောဟု	-10.7994
▁valve	-10.7994
▁စိန္	-10.7995
5.7	-10.8
ဘက်တီးရီးယား	-10.8033
လှူဒါန်း	-10.8033
အိမ်သူအိမ်သား	-10.8033
▁Affiliate	-10.8033
▁Electromagnetic	-10.8033
▁နိုက်ကလပ်	-10.8033
▁ချန်ထား	-10.8034
▁ဘယ္လို	-10.8034
အလယ်၌	-10.8035
နဲ့ပတ်သက်ပြီး	-10.8037
ကြေငြာ	-10.8073
ဖုန်ဖယ်ရှားရေး	-10.8073
လက်ဝတ်ရတနာ	-10.8073
ရွံရှာ	-10.8073
စံတော်ချိန်	-10.8073
သော့ခတ်	-10.8074
အန်းဒရွိုက်	-10.811
ပွိုင့်	-10.8113
▁Voice	-10.8113
ဆိုပါစို့	-10.8113
အမွှာ	-10.8113
လှပသော	-10.8114
ကော်ပိုရိတ်	-10.8153
လျှံ	-10.8153
$24.99	-10.8153
အကြီးအကဲ	-10.8153
▁ရှန်ဒေါင်း	-10.8153
သင့်လျော်သော	-10.8154
စက်မှုလက်မှု	-10.8154
မေ့လျော့	-10.8155
Myanmar	-10.8155
▁ခရီးစဉ်လီ	-10.8155
Direct	-10.8167
ေလာက္	-10.8184
အမှုဆောင်	-10.8185
▁ဧဖရိမ်	-10.8194
အိမ်နီးချင်း	-10.8194
ငှေ	-10.8194
ပေါ်လစီ	-10.8194
▁KTM	-10.8194
▁mini	-10.8198
▁ဟုတ်တယ်	-10.8224
ကွပ်မျက်	-10.8234
ပရိုတိန်း	-10.8234
▁$1.99	-10.8234
▁December	-10.8234
▁ကံကောင်း	-10.8238
အမြတ်အစွန်း	-10.8275
▁ဖုန်းဘီလ်	-10.8316
▁csgo	-10.8316
field	-10.8318
ွန်လိုင်းကာစီနို	-10.8344
▁Press	-10.835
မှာထားတော်မူ	-10.8355
▁Ultrasonic	-10.8357
本	-10.8357
လက်ဝဲ	-10.8357
▁အပိုဒ်	-10.8358
▁ကမ္ဘာတစ်လွှားက	-10.8365
ၼ	-10.8398
ဖြန့်ဖြူး	-10.8398
လှိုက်လှဲစွာ	-10.8398
▁Caribbean	-10.8398
အကြီးမားဆုံး	-10.8398
ကြင်နာ	-10.8398
Hydr	-10.8399
▁ကယ်တင်တော်မူ	-10.8408
9.0	-10.8438
ဟာ့ဒ်ဝဲ	-10.8439
လေ့လာကြရအောင်	-10.8439
ဖို့လိုတယ်	-10.8444
ဆိုဒ်များ	-10.8447
ရှေးဟောင်း	-10.8452
ology	-10.8456
စကေး	-10.8483
များဖြစ်ကြသည်	-10.8512
ညံ့	-10.8518
သီးသန့်	-10.8519
Uncategorized	-10.8522
ဂျမ်ဘို	-10.8522
ဦးစီးဌာန	-10.8522
語	-10.8522
ဆြဲ	-10.8522
ခကျြ	-10.8522
အပြုသဘော	-10.8523
▁ထို့ကြောင့်	-10.8524
အစုလိုက်အပြုံ	-10.8564
အစုအဝေး	-10.8564
လျောက်ပတ်	-10.8564
သတို့သမီး	-10.8564
ချုံ့	-10.8564
ဆီးတား	-10.8564
5.9	-10.8565
ဟွန်	-10.857
▁ဖြောင့်မတ်သောသူ	-10.8575
သွပ်ရည်စိမ်	-10.8606
▁Twitter	-10.8606
▁catalog	-10.8606
▁Agency	-10.8606
日	-10.8606
▁လိမ်လည်	-10.8607
burg	-10.8612
8.5	-10.8613
ဟင်းသီးဟင်းရွက်	-10.8648
▁privacy	-10.8648
generator	-10.8648
▁Silicon	-10.8648
▁sales	-10.8649
ပါသေးတယ်။	-10.8649
စာရင်းအင်း	-10.8649
ဝဘ်	-10.8654
မိမိကိုယ်ကို	-10.8663
ဈ	-10.8689
သိုးမွှေး	-10.8691
သန့်စင်	-10.8691
ပခုံး	-10.8691
▁discharge	-10.8691
ပဲဖြစ်ဖြစ်	-10.8691
ပြင်များမဂ္ဂဇင်း	-10.8699
Sales	-10.8704
9.00	-10.872
▁electrostatic	-10.8733
တုန်လှုပ်	-10.8733
တြက္	-10.8738
အဆိုပြု	-10.8742
6.1	-10.8746
ဂြိုလ်	-10.8776
ၻ	-10.8776
Samitivej	-10.8776
ချစ်ခြင်းမေတ္တာ	-10.8776
အေဂျင်စီ	-10.8776
[5]	-10.8776
အသိဉာဏ်	-10.8776
pdf	-10.8777
စီးပွားဖြစ်	-10.8819
အထောက်အကူ	-10.8819
ချွေတာ	-10.8819
ဖိုရမ်	-10.8819
မိဿဟာယ	-10.8819
▁Vjs	-10.8819
▁Djs	-10.882
ယင်း၏	-10.8835
5.8	-10.8837
ချီးမြှင့်	-10.8862
ဒဏ္ဍာရီ	-10.8862
▁Desktop	-10.8862
▁November	-10.8862
▁repaints	-10.8862
▁Screen	-10.8862
ရတနာ	-10.8864
Guangdong	-10.8905
▁connector	-10.8905
▁မီးရှို့ရာယဇ်	-10.8905
ဆိုဒီယမ်	-10.8905
ပို့ဆောင်ရေး	-10.8905
mount	-10.8909
ခွဲခြမ်းစိတ်ဖြာ	-10.8949
ဒင်္ဂါးပြား	-10.8949
ေဖာ္	-10.8949
color	-10.8954
6.3	-10.8974
7.0	-10.8983
с	-10.8992
အတားအဆီး	-10.8993
ေျမာက္	-10.8993
▁Connector	-10.8993
▁Entertainment	-10.8993
▁Tianjin	-10.8993
အထီးကျန်	-10.8993
ခြံစည်းရိုး	-10.9036
တိုင်းဒေသကြီး	-10.9036
နောက်ဆက်တွဲ	-10.9036
▁Kyaw	-10.9036
သံသရာ	-10.9037
search	-10.9037
အာဟာရ	-10.904
ဒီဇိုင်နာ	-10.908
ဖောင်ဒေးရှင်း	-10.908
မီနီယမ်အလွိုင်း	-10.9113
ဂုဏ်အသရေ	-10.9125
≥	-10.9125
▁သိုးသငယ်	-10.9125
▁Refill	-10.9125
▁Development	-10.9169
▁Institute	-10.9169
▁Volume	-10.9169
▁ကာဗွန်သံမဏိ	-10.9169
▁လွန်ခဲ့သော	-10.917
အဘယ်မှာရှိ	-10.9172
ူကြိုက်အများဆုံး	-10.9178
ၱ	-10.9214
ခ်ဳပ္	-10.9214
ညည်းတွား	-10.9214
အတွေးအခေါ်	-10.9214
▁Chrome	-10.9214
အမှတ်အသား	-10.9215
မကြာသေးမီက	-10.9215
မလိုအပ်ပါဘူး	-10.9217
ပလီကေးရှင်း	-10.9259
▁Ultimate	-10.9259
▁double	-10.9259
▁မူပိုင်ခွင့်	-10.9259
ဍ	-10.9259
▁Linux	-10.9259
▁တယ်လီနော	-10.9259
ဖှဲ့	-10.9259
spir	-10.9334
နှမ	-10.9344
စုတ်ယူခြင်း	-10.9349
ဂျာမဏီ	-10.9349
ဒီမိုကရေစီ	-10.9349
ဓါး	-10.9349
သွန်းလောင်း	-10.9349
ရေကူးကန်	-10.9349
▁Penny	-10.9349
ကွန်ကရစ်	-10.9349
▁မဟုတ်လော။	-10.9349
အဖြစ်အပျက်	-10.9349
▁ယေဘုယျအား	-10.9372
အခ်ိန္ပိုင္း	-10.9394
ကင်းရှင်းရေး	-10.9394
ကယ်ဆယ်ရေး	-10.9394
အင်ဗာ	-10.9395
အမှောင်	-10.94
▁Zhong	-10.944
▁Silver	-10.944
crypt	-10.944
ဝင်စားစရာသတင်း	-10.9445
ဗတ္တိဇံ	-10.9486
အင်တာဗျူး	-10.9486
▁categories	-10.9486
▁Supply	-10.9486
▁machine	-10.9486
ရှုတ်ချ	-10.9486
frame	-10.9486
တွင်တည်ရှိသည်	-10.9497
အဘယ်ကြောင့်	-10.9499
▁ဗင်္ယာမိန်	-10.9532
▁ကွန်ပြူတာ	-10.9532
▁မကြာခင်	-10.9532
ေနာ္	-10.9533
ရသောအခွင့်	-10.9543
Plane	-10.9562
т	-10.9578
တန္ဖိုး	-10.9578
္ဆိုလွ်င္	-10.9578
▁February	-10.9578
▁January	-10.9578
▁ASTM	-10.9578
အဆင်သင့်	-10.9579
▁Tattoo	-10.9605
အနောက်ဘက်	-10.962
နှို	-10.9623
တကျိပ်	-10.9625
▁ဓမ္မသစ်ကျမ်း	-10.9625
▁ဧဒုံ	-10.9625
လေဟာနယ်	-10.9625
????????????????	-10.9662
မိုးရွာသွန်းမှု	-10.9672
သန္ဓေ	-10.9672
အခွင့်အလမ်း	-10.9672
▁ညဉ့်	-10.9672
အိုင်ပက်	-10.9672
▁UTC	-10.9672
kHz	-10.9672
▁AUD	-10.9672
စနေနေ့	-10.9673
စတူဒီယို	-10.9718
▁Bahasa	-10.9718
▁original	-10.9718
စွန့်စားမှု	-10.9719
ထြက္	-10.9719
သွပ်	-10.9719
သတိပေးချက်	-10.972
အစီရင်ခံ	-10.9765
ႇ	-10.9766
▁Button	-10.9766
▁Daily	-10.9766
japan	-10.9766
▁Two	-10.9768
အလုပ	-10.977
ပုံတစ်ပုံ	-10.9783
သိပ်သည်းဆ	-10.981
ခြိမ်းခြောက်	-10.9813
နှောင့်ရှက်	-10.9813
အခွင့်အရေး	-10.9813
တွေကအဘို့အဘိဓါန်	-10.9813
ျမန္	-10.9818
နှီး	-10.9858
▁Horizon	-10.9861
▁Ninja	-10.9861
▁Extract	-10.9862
ဂလားပင်လယ်အော်	-10.9908
င်းလွယ်ပြင်လွယ်	-10.9908
ေဆး	-10.9914
Count	-10.9926
5.00	-10.9946
ဘုရားသခငျ	-10.9957
သဏ္ဌာန်	-10.9957
▁seekers	-10.9957
▁နုိင္ငံ	-10.9957
ယာယီ	-10.9957
saveatrain	-10.9957
အပူပေးစက်	-10.9957
အဆင်သင့်	-10.9958
charge	-10.9967
р	-11.0005
အင်ပါယာ	-11.0005
▁Terminal	-11.0005
▁ရန္ကုန္ျမိဳ	-11.0005
♪	-11.0005
ပရောဂျက်	-11.0005
▁which	-11.0005
▁အမည်ပေးထားသော	-11.0005
▁Transformer	-11.0005
▁network	-11.0005
	-11.0005
▁Green	-11.0006
ကၽြ	-11.0014
▁Audi	-11.0014
▁တစ်ကမ္ဘာလုံး	-11.0024
9.5	-11.0044
ဗီတာမင်	-11.0053
▁Karnar	-11.0053
▁variable	-11.0053
▁shoppingdirect	-11.0053
ဖော်ရွေ	-11.0053
မိုဃ်း	-11.0085
အလျောက်	-11.0102
ၵ	-11.0102
=5.0.6	-11.0102
ဘွိုင်လာ	-11.0102
United	-11.0103
»	-11.0141
ဖွငျ့	-11.0151
ခရမ်းလွန်	-11.0151
ဘလူးတုသ်	-11.0151
လေအေးပေးစက်	-11.0151
▁Directory	-11.0151
▁desktop	-11.0151
▁Plug	-11.0152
စတစ်ကာ	-11.0152
▁Create	-11.0173
Φ	-11.02
ၿမန္မာအိမ္ၿခံေျမ	-11.02
▁Active	-11.0201
စားသုံးမှု	-11.0201
လျှော	-11.0213
ဖယောင်း	-11.0248
အင်္ဂလန်	-11.025
ငြိမ်းချမ်းရေး	-11.025
အလုံးအရင်း	-11.025
▁Catalog	-11.025
▁Hospital	-11.025
▁October	-11.025
▁University	-11.025
အိုလံပစ်	-11.025
world	-11.025
▁CPU	-11.025
▁Work	-11.0251
ဘတ်စ်ကား	-11.0268
မတော်တဆ	-11.03
▁ASME	-11.03
xBet	-11.03
သာသနာ	-11.03
▁ယုဒလူတို့	-11.0303
ထက်သာ၍	-11.0322
ေျမွာက္	-11.035
ပရိုမိုးရှင်း	-11.035
ဥပုသ်နေ့	-11.035
العربية	-11.035
သီအိုရီ	-11.035
▁fixed	-11.035
13485	-11.035
▁brush	-11.035
အလွန်အမင်း	-11.0351
စားသုံးသူ	-11.0353
တစ်ခါတစ်ရံ	-11.04
တာဝန်ထမ်းဆောင်	-11.04
အဘယျသို့	-11.04
မှုဖြစ်စေခဲ့ပြီး	-11.04
ဝါသနာ	-11.04
အကျိုးအမြတ်	-11.04
ိမ်မွေးတိရစ္ဆာန်	-11.04
ဆယ်စုနှစ်	-11.0401
▁Htet	-11.0401
«	-11.045
နိမိတ်လက္ခဏာ	-11.045
ိုသြဒိနိတ်အချိန်	-11.045
▁အင်မတန်	-11.045
support	-11.0451
▁ကောင်းပြီ၊	-11.0451
တရားသူကြီး	-11.0452
ရုန်းကန်	-11.0501
▁ROOM	-11.0501
▁Teflon	-11.0501
အပေါ်ယံပိုင်း	-11.0501
အဘယ်သူမျှမအပ်ငွေ	-11.0501
▁Visual	-11.0501
သောမတ်စ်	-11.0501
ဦးစားပေး	-11.0503
▁ငွေပေးချေမှုရမည	-11.0512
Color	-11.0516
သွယ်	-11.0544
▁ဖိလိတ္တိလူတို့	-11.0551
အော်ဂဲနစ်	-11.0552
▁Specification	-11.0552
▁quotes	-11.0552
စပီကာ	-11.0552
▁ဂျိမ်း	-11.0604
စားဆင်ယင်	-11.0604
▁window	-11.0604
လျှက်	-11.0604
▁Technology	-11.0655
တုပ်ကွေး	-11.0655
ေက်ာ္	-11.0655
မိုးသည်းထန်စွာ	-11.0655
အခက်အခဲ	-11.0655
▁တစုံတယောက်	-11.0655
▁တစ်ခါတစ်လေ	-11.0655
ပိတ်ဆို့	-11.0655
chloro	-11.0656
ငွေပေးချေ	-11.0674
ကွိုဆို	-11.0707
▁(2015)	-11.0707
▁Blade	-11.0707
ဆိုးရွား	-11.0707
position	-11.0707
လူတန်းစား	-11.0707
ထောကျပံ့	-11.0759
ဠ	-11.0759
▁ဂိလဒ်	-11.0759
နံ့သာပေါင်း	-11.0759
သဘာပတိ	-11.0759
▁Amazon	-11.0759
▁pixel	-11.0759
▁OHSAS	-11.0759
Private	-11.0759
▁ratings	-11.0759
▁စတုရန်းမီတာ	-11.0759
▁detect	-11.0762
မြေမှုန့်	-11.0772
ဥက္ကဋ္ဌ	-11.0811
▁Kawasaki	-11.0811
▁Template	-11.0811
▁modified	-11.0811
▁စင်ကာပူ	-11.0811
▁ဆိုက်ကိုမြေပုံ	-11.0811
▁Hunter	-11.0811
ျမိဳ	-11.0812
မှည့်	-11.0812
ထိမ်းအမှတ်တံဆိပ်	-11.0843
▁Window	-11.0851
2005-2018	-11.0864
စင်္ကာပူ	-11.0864
လုပ်ထုံးလုပ်နည်း	-11.0864
▁Converter	-11.0864
▁ထိုမှတပါး၊	-11.0864
သန့်စင်	-11.0864
ခြဲ	-11.0864
▁Type	-11.0864
н	-11.0917
▁Harris	-11.0917
▁protocol	-11.0917
▁Burner	-11.0917
▁Computer	-11.0917
▁Cutter	-11.0917
ပရောဖက်	-11.0963
ဆော့ဗ်ဝဲ	-11.097
▁ရုတ်တရက်	-11.097
ا	-11.1921
ဋ	-11.2659
ၥ	-11.3856
ၽ	-11.4058
ၾ	-11.4485
ၸ	-11.4827
ၚ	-11.599
ဦ	-11.6414
•	-11.7329
ó	-11.8478
ل	-11.894
ر	-11.9425
ب	-12.0066
၎	-12.4284
ย	-12.4492
ي	-12.5813
ท	-12.8495
ع	-12.8495
ไ	-13.4129
ة	-13.5273
↑	-15.271
