<unk>	0
<s>	0
</s>	0
▁	-2.19873
,	-4.00119
ကို	-4.53322
.	-4.72173
:	-4.8857
-	-4.96581
▁ကို	-4.98413
၊	-5.1401
s	-5.15335
)	-5.16385
;	-5.21098
က	-5.25243
▁(	-5.34743
သည်	-5.38721
များ	-5.43259
။	-5.47838
သော	-5.58412
နှင့်	-5.58842
▁&	-5.6152
အ	-5.64086
၏	-5.65886
မှာ	-5.72872
▁အ	-5.83635
gt	-5.83837
မ	-5.88627
▁-	-5.90828
▁/	-5.99294
"	-6.03976
ရ	-6.08597
▁က	-6.11055
တဲ့	-6.11384
ပါ	-6.11481
မှု	-6.13787
အတွက်	-6.18284
ခြင်း	-6.18538
မှ	-6.23943
/	-6.25702
နဲ့	-6.26455
ရှိ	-6.30661
တွေ	-6.34851
ဖို့	-6.37415
ရဲ့	-6.40131
း	-6.42127
့	-6.4472
ပြီး	-6.45258
ဟာ	-6.45326
တွင်	-6.50161
ပေး	-6.51029
ပါ။	-6.52688
၍	-6.52745
▁မ	-6.56714
ရန်	-6.59875
နေ	-6.64058
er	-6.64146
▁ဒီ	-6.64506
သူ	-6.64875
▁1	-6.6581
လာ	-6.67694
amp	-6.69075
နှင့်	-6.70603
ကြ	-6.70922
၌	-6.72156
▁2	-6.75232
D	-6.75397
ing	-6.7557
e	-6.75925
lt	-6.76515
▁_	-6.77795
y	-6.77999
များအတွက်	-6.7928
သို့	-6.7933
S	-6.79687
သွား	-6.79688
▁"	-6.79737
အား	-6.83492
C	-6.83972
2	-6.84998
▁S	-6.853
ရာ	-6.8599
3	-6.86153
တွေကို	-6.86387
တာ	-6.87901
in	-6.88402
n	-6.88436
သ	-6.88888
တ	-6.90749
ထား	-6.90907
တစ်ခု	-6.91009
ရေး	-6.91338
လ	-6.92053
ဖြစ်	-6.92928
▁ငါ	-6.92992
m	-6.93949
A	-6.95149
နိုင်	-6.95932
▁start	-6.9629
com	-6.96704
p	-6.96976
စေ	-6.97163
▁3	-6.9726
"&	-6.97835
သား	-6.98163
d	-6.98244
▁dur	-6.99189
လည်း	-6.99503
နှင့်အတူ	-7.02017
▁P	-7.02895
4	-7.03553
လို	-7.04204
များကို	-7.06506
!	-7.07054
▁မှ	-7.08339
တော်	-7.08599
▁...	-7.09701
ဆို	-7.09975
t	-7.10105
B	-7.10381
▁A	-7.10643
အဖြစ်	-7.10921
ကြီး	-7.12912
x	-7.13165
o	-7.13501
▁5	-7.15077
တော့	-7.15366
i	-7.16419
on	-7.1703
သာ	-7.17095
al	-7.17367
1	-7.18967
▁အဆိုပါ	-7.19303
စ	-7.21285
၍၊	-7.22862
a	-7.23491
?	-7.23938
▁C	-7.24914
g	-7.25409
c	-7.26896
▁B	-7.28129
လို့	-7.28301
ed	-7.28484
T	-7.30463
▁သူတို့	-7.32137
လိုက်	-7.3249
ခဲ့	-7.32772
ယူ	-7.33125
က်	-7.33299
G	-7.33411
တို့ကို	-7.33499
စက်	-7.3384
r	-7.34468
ပဲ	-7.34783
(	-7.35343
an	-7.35519
တစ်	-7.35939
▁T	-7.36421
▁ထို	-7.3673
W	-7.37863
ပ	-7.3806
▁တရုတ်	-7.38399
mm	-7.39341
▁10	-7.40555
ကျ	-7.40929
b	-7.41548
://	-7.41562
h	-7.41758
▁E	-7.42136
f	-7.42586
5	-7.42809
P	-7.42938
▁4	-7.43095
w	-7.43563
▁–	-7.44216
v	-7.44937
%	-7.44978
သည်။	-7.4535
▁Co	-7.46783
စာ	-7.4682
▁F	-7.47109
ပုံ	-7.47461
▁H	-7.47626
တို့	-7.47989
V	-7.48743
▁the	-7.49263
H	-7.4956
L	-7.49645
ကြ၏။	-7.51044
M	-7.51662
▁G	-7.51951
၏။	-7.52143
ကနေ	-7.52847
K	-7.53243
]	-7.53656
ချက်	-7.53758
လူ	-7.54087
...	-7.5424
တို့သည်	-7.54323
k	-7.54693
▁D	-7.54914
နိုင်ငံ	-7.55165
လုပ်	-7.55649
=	-7.55847
နှစ်	-7.56161
ပါတယ်။	-7.56164
ခ	-7.56424
en	-7.56524
▁M	-7.57245
re	-7.57298
ခံ	-7.57303
သို့မဟုတ်	-7.57325
လေး	-7.57485
အပေါ်	-7.57546
or	-7.58061
အားဖြင့်	-7.58397
'	-7.58855
ခဲ့သည်။	-7.59518
th	-7.59874
တစ်ဦး	-7.60169
R	-7.60192
စား	-7.60426
le	-7.60918
မိ	-7.61587
ကာ	-7.61846
▁တွင်	-7.62528
u	-7.62715
▁K	-7.633
▁$	-7.63577
▁+	-7.63642
ရေ	-7.63667
▁2019	-7.6376
ဝင်	-7.63933
▁သင်	-7.64673
▁လူ	-7.64727
ပင်	-7.64861
F	-7.64967
to	-7.65086
သိ	-7.65617
ဟု	-7.65721
နာ	-7.6637
N	-7.66376
▁ကျွန်မ	-7.67468
ပြ	-7.67646
ထဲမှာ	-7.67675
▁နှင့်	-7.68118
_	-7.68978
▁R	-7.6936
▁6	-7.70684
သုံး	-7.71958
▁2018	-7.72088
ဒီ	-7.72542
7	-7.72671
လက်	-7.73314
ပြု	-7.73684
စွာ	-7.73937
it	-7.74435
တင်	-7.7475
တယ်။	-7.75018
10	-7.75634
▁and	-7.76243
X	-7.7741
▁သို့မဟုတ်	-7.77762
လျှင်	-7.78521
န	-7.78716
▁ရေ	-7.78832
▁7	-7.79819
▁of	-7.79919
l	-7.80258
my	-7.80294
▁ဤ	-7.80584
ဒ	-7.80931
ဖြစ်ပါတယ်။	-7.81233
▁နှစ်	-7.81706
▁Ltd	-7.82556
▁ကိုယ်	-7.82857
▁[	-7.8288
8	-7.82903
▁L	-7.83227
6	-7.83232
▁ဒါက	-7.83845
▁သူ	-7.83856
ကား	-7.84109
သင်	-7.8446
▁19	-7.84597
ဆုံး	-7.84675
▁ဒါပေမဲ့	-7.84733
ချ	-7.84988
▁•	-7.85705
ပြော	-7.85855
ဖ	-7.85975
ly	-7.86058
▁လုပ်	-7.86539
▁8	-7.86849
ဘ	-7.86957
တော်မူ	-7.87097
င်	-7.87109
ထက်	-7.87321
ေ	-7.87352
ရင်	-7.87406
▁ဒါဟာ	-7.87462
မြို့	-7.8811
ဆက်	-7.88152
အချိန်	-7.88449
မည်	-7.88652
es	-7.88949
အောင်	-7.89021
co	-7.89518
တယ်	-7.90249
U	-7.90359
▁N	-7.90569
us	-7.9067
အဘို့	-7.90776
▁တစ်	-7.90848
et	-7.91543
▁ဖြစ်	-7.91705
ထွက်	-7.91763
am	-7.92072
00	-7.92437
▁W	-7.92476
လျက်	-7.92977
st	-7.93019
▁တ	-7.93871
ထဲက	-7.94394
များနှင့်	-7.94932
9	-7.95348
Y	-7.95574
ပြန်	-7.95607
လမ်း	-7.95655
ပေါ်	-7.95679
ဘာ	-7.95749
စရာ	-7.96451
▁2017	-7.96706
O	-7.96822
”	-7.97331
နည်း	-7.97999
▁ပို	-7.98154
စု	-7.98858
at	-7.99423
အတွင်း	-7.99468
လေ၏။	-7.99787
el	-7.99876
▁12	-7.99898
ဆ	-7.99934
ကောင်း	-7.99979
▁ငါ့	-8.00343
▁ကျွန်တော်	-8.00349
သည့်	-8.00398
▁*	-8.00674
ခဲ့တယ်။	-8.01188
ယ	-8.01271
ဆောင်	-8.01273
ကြား	-8.01323
လဲ	-8.0156
▁စ	-8.02137
▁အဲဒီ	-8.02244
လုံး	-8.02339
▁Hack	-8.02616
ma	-8.02659
▁in	-8.02917
တိုင်း	-8.03178
ကြောင်း	-8.03944
မွာ	-8.04255
z	-8.04505
ra	-8.04887
တောင်	-8.04996
E	-8.05064
နေ့	-8.05276
▁စိတ်	-8.05282
၀	-8.05548
▁မိမိ	-8.05717
ဝ	-8.05719
မျိုး	-8.05821
&	-8.06776
20	-8.06986
▁ထာဝရဘုရား	-8.07022
la	-8.07065
12	-8.07303
▁သိ	-8.0775
ar	-8.07853
အကြောင်း	-8.08344
="	-8.08369
စိတ်	-8.08778
▁သင်တို့	-8.08787
il	-8.08936
အမျိုးအစား	-8.09404
ဦး	-8.09908
ch	-8.0994
50	-8.10179
▁I	-8.10243
နေတဲ့	-8.10566
▁Re	-8.10772
ာ	-8.10902
ro	-8.11618
me	-8.11907
▁သငျသညျ	-8.12718
▁20	-8.12939
ရပ်	-8.13077
တွေဟာ	-8.13078
▁ပြော	-8.13082
ဆီ	-8.13197
်	-8.13224
ဇ	-8.13293
▁https	-8.13425
တွေနဲ့	-8.1343
တတ်	-8.13445
အားလုံး	-8.13525
ol	-8.13593
I	-8.14112
▁to	-8.14137
ထ	-8.14257
ဆိုင်ရာ	-8.1431
▁ကျွန်တော်တို့	-8.14323
ဖြစ်ပါသည်	-8.14476
စ်	-8.14962
ပေါင်း	-8.15353
ရင်း	-8.15531
ပေါ်မှာ	-8.15621
▁“	-8.15705
စနစ်	-8.15943
နီ	-8.16341
ထုတ်	-8.16366
ဒါ	-8.16438
id	-8.167
လေ	-8.16757
te	-8.16895
ic	-8.17383
se	-8.17514
မင်း	-8.18351
န်	-8.18392
ု	-8.18606
ဤ	-8.18753
စက်ရုံ	-8.18762
0	-8.18831
ဂ	-8.19068
ဗ	-8.19168
တော်မူ၏။	-8.19228
▁Home	-8.19739
▁http	-8.19757
▁စက်	-8.20274
30	-8.20684
ry	-8.20856
လျှင်၊	-8.21083
▁သင်သည်	-8.21116
un	-8.2138
ကဲ့သို့	-8.21622
J	-8.21767
▁ကျွန်မတို့	-8.21892
ta	-8.21996
များ၏	-8.22393
ဖြင့်	-8.22422
န္	-8.22766
တူ	-8.22889
စီ	-8.23565
တွေက	-8.23711
▁သူ့	-8.23879
ဖြစ်ပါတယ်	-8.2408
နောက်	-8.2418
ြ	-8.24312
▁a	-8.2443
ရှင်	-8.24492
ကြောင့်	-8.2452
ကျွန်တော်တို့ရဲ့	-8.24729
▁အချိန်	-8.24999
▁ဒီတော့	-8.25083
ိ	-8.25202
de	-8.25495
ေတြ	-8.25677
▁အားလုံး	-8.25807
ထားတဲ့	-8.26093
▁J	-8.26384
▁ငါသည်	-8.26751
တာက	-8.26782
ဘို့	-8.26857
40	-8.27097
လောက်	-8.27239
ခံရ	-8.27635
လုပ်ငန်း	-8.2805
မှုကို	-8.28251
▁Y	-8.28529
lo	-8.28852
▁၁၉	-8.2889
ရောက်	-8.29057
ခြင်းကို	-8.29084
ငါ	-8.29306
မည်။	-8.29481
မြင်	-8.29541
နှင့်အတူ	-8.29677
အိမ်	-8.29709
နေရာ	-8.29806
▁သုံး	-8.30101
▁အမေရိကန်	-8.30451
▁နောက်	-8.30589
ရက်	-8.30713
လျက်၊	-8.30756
▁0	-8.30788
▁ခုနှစ်	-8.30828
ဖြင့်	-8.30937
မျှ	-8.31289
▁အခြား	-8.31347
▁Myanmar	-8.31407
mo	-8.31534
▁15	-8.3155
▁သင်၏	-8.31677
▁အခမဲ့	-8.32025
▁9	-8.3221
16	-8.32316
▁V	-8.3232
ဘဲ	-8.32457
01	-8.32541
▁2016	-8.32586
▁အပေါ်	-8.32598
▁ထုတ်ကုန်များ	-8.32807
/?	-8.32832
ကြာ	-8.3289
▁O	-8.32931
င္	-8.33073
11	-8.33326
ရှ	-8.33341
ri	-8.33367
j	-8.33458
ပစ္စည်း	-8.33622
▁အာ	-8.33664
▁ငါတို့	-8.33875
သင့်	-8.34199
ia	-8.34242
02	-8.34731
ur	-8.35243
ပါ၊	-8.35388
ဘက်	-8.35687
မာ	-8.35743
အခမဲ့	-8.35873
35	-8.35973
ပေါက်	-8.36006
19	-8.36018
ce	-8.36021
စီး	-8.36137
▁လက်	-8.36447
ငွေ	-8.36513
▁Z	-8.36637
မ်ား	-8.36689
▁လမ်း	-8.36725
အဖွဲ့	-8.36944
လှ	-8.37607
သောသူ	-8.37716
ခဲ့သည်	-8.37815
▁၁	-8.37882
လီ	-8.38006
▁2013	-8.38036
တို	-8.38352
ော်	-8.38481
ဆေး	-8.38554
15	-8.38642
ပါတယ်	-8.38711
ad	-8.38774
စဉ်	-8.38884
▁သင်တို့သည်	-8.39239
▁X	-8.39287
ang	-8.39422
▁ယခု	-8.39864
▁တစ်ဦး	-8.3996
is	-8.40031
org	-8.40107
သံ	-8.40129
ရော	-8.40188
ပွဲ	-8.40264
ပြီ	-8.40281
္	-8.40385
▁30	-8.40446
ပိုင်း	-8.40461
▁Air	-8.40472
ံ	-8.40625
ခြင်းနှင့်	-8.40895
▁သူတို့သည်	-8.4093
ဘူး	-8.41083
up	-8.41281
ကြလော့။	-8.41363
▁အကြောင်း	-8.41495
ပေါ့။	-8.41629
လိမ့်မည်။	-8.41807
သေး	-8.41853
လော့။	-8.41909
တရား	-8.42444
ချင်	-8.42496
၂	-8.42782
60	-8.42789
ရိုး	-8.42927
သေ	-8.42936
ul	-8.42977
အရာ	-8.43007
▁အလုပ်	-8.43128
ကျော်	-8.43326
တယ်၊	-8.43389
▁စက်ရုံ	-8.43491
04	-8.43813
ပစ်	-8.43847
▁re	-8.43859
na	-8.43918
ne	-8.44056
▁ဘုရားသခင်	-8.44074
li	-8.44311
▁ဘယ်လို	-8.44672
ပို	-8.44706
▁ပေးသွင်း	-8.4476
ate	-8.45182
သစ်	-8.45297
ယာ	-8.45526
ကိုယ်	-8.4561
▁ဒါ	-8.46236
အတိုင်း	-8.46333
▁2015	-8.46398
အရွယ်အစား	-8.46446
မ်	-8.46518
အသစ်	-8.46614
www	-8.46621
မရှိ	-8.4665
▁16	-8.4704
ရိ	-8.47041
အမည်	-8.47342
ကြောင့်	-8.47354
▁ဦး	-8.47518
▁အခု	-8.47592
အထိ	-8.47798
င်း	-8.48051
per	-8.4815
က္	-8.48237
▁ပြန်	-8.48333
ကြည့်	-8.48406
-1	-8.48474
ine	-8.48562
ဆွဲ	-8.48771
ion	-8.48772
▁Android	-8.48804
▁သူ၏	-8.49745
ထားသော	-8.49934
တက်	-8.49998
-2	-8.50356
@	-8.50626
ထိုး	-8.50765
▁ကျနော်တို့	-8.50931
အရ	-8.50977
▁The	-8.50997
စျေးနှုန်း	-8.51088
ခြင်း၊	-8.51295
▁de	-8.51295
ဂိမ်း	-8.51443
အစိတ်အပိုင်းများ	-8.51452
နိုင်ပါတယ်။	-8.51572
ည	-8.52065
စစ်	-8.52345
▁ပြီးတော့	-8.52533
ဖြစ်ပြီး	-8.52599
တည်း	-8.52656
ထုတ်ကုန်	-8.52665
▁ရောက်	-8.5278
▁အကျွန်ုပ်	-8.52988
ပြား	-8.53212
႔	-8.53334
13	-8.53352
ဆိုင်	-8.53371
▁နေအိမ်	-8.53636
ရှိပါတယ်	-8.53751
17	-8.54297
အလင်း	-8.54498
နည်းပညာ	-8.54507
▁ထာဝရဘုရားသည်	-8.54762
ပြီးနောက်	-8.54762
▁»	-8.55126
36	-8.55167
ot	-8.55239
ကိုလည်း	-8.55321
သင့်	-8.55426
သူတို့	-8.55704
▁ဒါကို	-8.55761
တန်	-8.55783
ချိန်	-8.5596
55	-8.56039
ex	-8.56073
▁နောက်တစ်ခု	-8.56117
ရုံ	-8.56261
ခဲ့ပြီး	-8.56364
▁for	-8.5637
▁£	-8.5644
▁အသက်	-8.56588
အားဖြင့်	-8.56644
ချုပ်	-8.56748
09	-8.56773
အဘို့အ	-8.5691
လား	-8.57013
▁18	-8.57025
▁Valve	-8.57053
ပေါ်တွင်	-8.57149
ဟ	-8.57458
ဆိုး	-8.57459
▁သင့်	-8.57562
တိုက်	-8.57573
man	-8.57582
သူများ	-8.57665
ကုမ္ပဏီ	-8.5778
သည့်	-8.5796
▁FSX	-8.5797
05	-8.57997
▁24	-8.58083
▁ထိုအခါ	-8.58097
ပ်	-8.58127
ထဲ	-8.58246
စကား	-8.58312
ေတာ့	-8.58383
14	-8.58799
Z	-8.58925
အခြား	-8.58925
င္း	-8.59312
နား	-8.59317
ယ္	-8.59321
ဖတ်	-8.59323
06	-8.59427
ရှာ	-8.59437
များတွင်	-8.59483
80	-8.59564
ဖြစ်သည်။	-8.59634
များနှင့်	-8.59911
▁by	-8.59952
25	-8.60003
အသံ	-8.60221
▁အိမ်	-8.60222
စတင်	-8.60261
ရှိသည်	-8.6037
ation	-8.60378
24	-8.60404
ဆိုတာ	-8.60641
နှုန်း	-8.60667
ပတ်	-8.60711
ကတော့	-8.60903
တ်	-8.60976
၁	-8.61165
▁#	-8.61523
one	-8.6165
ခန်း	-8.61921
ရဲ	-8.62022
ဒီဇိုင်း	-8.62155
▁မြို့	-8.62192
▁2014	-8.62321
နိုင်ပါတယ်	-8.62401
▁De	-8.62438
▁+0000	-8.626
ယ်	-8.62899
31	-8.63181
တာပါ။	-8.63205
လ်	-8.63275
တာကို	-8.63355
ပစ္စည်းများ	-8.63462
၄	-8.63548
ခွဲ	-8.6356
ကုန်	-8.63652
တော်ကို	-8.64088
င	-8.64237
built	-8.64342
03	-8.64374
21	-8.64491
▁မြင်	-8.64678
မြောက်	-8.65052
မယ်	-8.65154
▁ယခင်	-8.65171
မွ	-8.65221
▁100	-8.65242
မှုများ	-8.6535
တွေ့	-8.65393
18	-8.65507
▁In	-8.65564
▁ကောင်း	-8.65592
▁1.	-8.65629
သမား	-8.65761
ရောဂါ	-8.66055
အကောင်းဆုံး	-8.66063
000	-8.66272
ရီ	-8.66363
07	-8.66524
မီ	-8.6658
▁ကလေး	-8.66712
အလွန်	-8.66754
ရယ်သံများ	-8.66768
ကောင်	-8.66908
တိုင်	-8.66929
▁အသုံးပြု	-8.67077
37	-8.67303
sh	-8.67333
▁နည်းပညာ	-8.67334
▁သေ	-8.6739
▁LED	-8.67443
▁Bo	-8.67762
08	-8.67776
မူ	-8.67944
70	-8.68003
ကာလ	-8.6801
▁ပြု	-8.68058
▁နေရာ	-8.68171
▁ထိုသို့	-8.68283
ဘဝ	-8.68545
▁သတင်း	-8.68547
▁ဘာ	-8.68578
▁သူတို့ကို	-8.68581
brag	-8.68617
အိတ်	-8.68689
33	-8.68777
▁14	-8.68971
ခဲ့တဲ့	-8.6914
ကြည့်	-8.69229
im	-8.69239
ကြိုး	-8.69239
▁25	-8.69388
ေန	-8.69531
ခဲ	-8.69597
#	-8.69719
38	-8.6992
ခဲ့ကြ	-8.70026
ငယ်	-8.70221
ဝါ	-8.70412
▁အကောင်းဆုံး	-8.70472
ဖြစ်၏။	-8.70669
▁အသံ	-8.70723
ers	-8.70747
အကြောင်းကို	-8.71132
▁အမျိုးအစား	-8.71231
ပညာ	-8.71248
pa	-8.71484
ပြီ။	-8.715
▁မူပိုင်ခွင့်	-8.71524
ပါသည်။	-8.71719
တန်း	-8.71948
▁သူသည်	-8.71949
တည်	-8.72117
သီး	-8.72172
▁အို	-8.72311
ချီ	-8.72424
ုံ	-8.72462
▁50	-8.72712
ရှိသော	-8.72789
အလုပ်	-8.72952
တော်မူသော	-8.72959
ရမည်။	-8.73257
▁↑	-8.73442
▁Generator	-8.73833
▁နာရီ	-8.73902
တွင်း	-8.74056
ထောင်	-8.74073
da	-8.74244
▁Windows	-8.7425
ဖက်	-8.74256
တွေရဲ့	-8.74313
တွေ၊	-8.74424
45	-8.74525
po	-8.74911
▁၂	-8.74998
▁နံနက်	-8.75081
and	-8.75115
▁Filter	-8.75249
ခြင်းငှါ	-8.75322
ပါး	-8.75402
သောအခါ၊	-8.75495
▁ဒါမှမဟုတ်	-8.75506
28	-8.75516
um	-8.75548
ဖုန်ကောက်ခံရေး	-8.75667
အွန်လိုင်း	-8.75927
ပျက်	-8.76039
no	-8.76111
▁ဘုရား	-8.76221
ent	-8.76436
ပုံစံ	-8.7654
▁U	-8.76617
ခေါ်	-8.77133
မြေ	-8.77277
ွ	-8.77334
▁ပုံစံ	-8.77596
34	-8.77641
▁သင့်ရဲ့	-8.77772
မည်ဟု	-8.77812
▁Black	-8.77822
▁ဒီလို	-8.77888
မဲ့	-8.7802
▁ဘယ်	-8.78048
နေသော	-8.78055
ရှိပါတယ်။	-8.78068
▁Google	-8.7808
ac	-8.78101
သဖြင့်၊	-8.78152
▁မီး	-8.783
▁~	-8.78488
▁ငါ့ကို	-8.78564
ချင်း	-8.78568
ပြည်	-8.78569
▁13	-8.78593
ရှိသည်။	-8.78778
▁ISO	-8.7886
▁11	-8.78884
ျ	-8.79095
စင်	-8.79114
ပြောင်း	-8.79194
ho	-8.7927
32	-8.79364
ter	-8.79428
tra	-8.79491
all	-8.79795
▁အရောင်	-8.79892
န့်	-8.8006
▁အလွန်	-8.8025
▁ညနေ	-8.80516
▁€	-8.80554
န်း	-8.80611
ပါပဲ။	-8.80707
▁တဖန်	-8.80808
99	-8.80886
စေခြင်းငှါ	-8.81099
48	-8.81232
တီ	-8.81387
▁2020	-8.81395
သောအခါ	-8.81397
▁Pro	-8.81513
အပူချိန်	-8.8188
▁Bag	-8.81928
95	-8.81945
▁သံမဏိ	-8.82095
▁နောက်ဆုံး	-8.82115
ထင်	-8.82163
ကြလိမ့်မည်။	-8.82217
▁(1	-8.82229
အသုံးပြု	-8.82388
bo	-8.82449
▁ရက်	-8.82522
▁Forex	-8.82526
as	-8.82738
39	-8.82875
ချစ်	-8.82933
ခ်	-8.82958
ရှု	-8.83031
▁ကား	-8.83206
စကားကို	-8.83263
သတ်	-8.83293
22	-8.83475
90	-8.83483
▁မြန်မာ	-8.83491
▁Ro	-8.83649
26	-8.83904
▁ထာဝရဘုရား၏	-8.83927
▁အမျိုးသား	-8.84117
အနည်းငယ်	-8.84321
▁ကမ္ဘာ	-8.84373
▁အကြောင်းမူကား၊	-8.84403
တဲ့အခါ	-8.84531
ထုတ်လုပ်	-8.84572
လေယာဉ်	-8.84661
၃	-8.84918
ပေမဲ့	-8.8499
မ္း	-8.85086
65	-8.85114
▁လုပ်ငန်း	-8.85232
▁No	-8.85241
ှ	-8.85633
ဇာ	-8.85643
လော	-8.85796
ပိုင်	-8.8591
▁''	-8.85913
ဗားရှင်း	-8.85917
ဝန်ဆောင်မှု	-8.85933
▁ပြန်ကြားချက်	-8.8596
ဝယ်	-8.86169
ပါဝင်	-8.8629
▁စတင်	-8.86356
သော်လည်း	-8.86418
ခဲ့ပါတယ်။	-8.86437
▁hack	-8.86547
go	-8.86587
ong	-8.86949
ft	-8.86954
ant	-8.87017
အခါ	-8.87055
ရှိ၏။	-8.87073
ian	-8.87104
ကို၎င်း၊	-8.87122
ဝတ်	-8.87293
ထိ	-8.87398
ဗီဒီယို	-8.87451
ie	-8.87487
▁be	-8.87511
▁၃	-8.87777
ut	-8.87896
မှန်	-8.88061
သွင်း	-8.88075
ပါဘူး	-8.88256
ကလည်း၊	-8.88447
di	-8.88611
ill	-8.88638
တွေမှာ	-8.88674
op	-8.88714
ရသော	-8.88749
စီးပွားရေး	-8.88761
29	-8.88807
▁မိန့်တော်မူ၏။	-8.88968
နိ	-8.89048
+	-8.89133
▁အပြစ်	-8.89204
▁ခေါ်	-8.89285
▁ဒေါ်လာ	-8.89413
အနေနဲ့	-8.89417
သူတွေ	-8.89467
ဆယ်	-8.89654
▁Card	-8.89691
တတ်၏။	-8.89715
pe	-8.89745
▁Tool	-8.89776
▁La	-8.89827
▁Ma	-8.90226
▁အဓိက	-8.90334
ဒ်	-8.90555
မီး	-8.90565
ity	-8.90581
mail	-8.90773
son	-8.90828
▁St	-8.90903
ဌာန	-8.90917
အောက်	-8.90966
ၾက	-8.90976
အလုပ်လုပ်	-8.91055
23	-8.91061
ရောင်းချ	-8.91113
နဲ႔	-8.91407
▁filter	-8.91954
▁စနစ်	-8.91956
▁မင်း	-8.92007
▁Be	-8.92124
သလို	-8.92231
ba	-8.92235
▁All	-8.92323
ဆင်း	-8.92334
©	-8.92381
ျဖစ္	-8.92409
၅	-8.92412
able	-8.92415
ကာကွယ်	-8.92453
lang	-8.92724
▁ပစ္စည်း	-8.92733
ကျောက်	-8.92748
▁download	-8.93093
ပြင်	-8.93096
ပန်း	-8.931
စာရင်း	-8.93158
ge	-8.93235
ha	-8.93503
မဆို	-8.93558
▁Sp	-8.93567
67	-8.93607
69	-8.93668
သိမ်း	-8.9368
▁အွန်လိုင်း	-8.93958
အမျိုးသား	-8.93981
တိ	-8.94066
ေရး	-8.94451
ER	-8.94459
ဖန်	-8.94468
▁ငွေ	-8.94481
ကျောင်း	-8.94507
၎င်း၊	-8.94542
ဖူး	-8.94637
▁17	-8.94739
▁Download	-8.94875
▁100%	-8.94974
ဖြစ်သော	-8.95052
မဟုတ်	-8.95063
လိုင်း	-8.95084
▁ကိုယ်တော်	-8.95187
ရွိ	-8.95383
▁slot	-8.95475
အဆိုပါ	-8.95612
▁ခုနှစ်တွင်	-8.95646
ရိုက်	-8.95817
="2	-8.95819
▁မိန့်တော်မူ	-8.95986
သည်ဟု	-8.96019
ခြေ	-8.96069
ကူး	-8.96078
ive	-8.96112
ပြည်နယ်	-8.96158
port	-8.96203
လွတ်	-8.96225
ဖြစ်စေ	-8.96377
ပါ၏။	-8.96449
▁Al	-8.96495
ဖန်တီး	-8.96569
အရေအတွက်	-8.96603
တိုး	-8.96662
ab	-8.96708
ton	-8.96727
▁con	-8.96734
[	-8.96899
▁ဧ	-8.97
tic	-8.97022
ခဲ့တာ	-8.97086
66	-8.97207
64	-8.97299
▁ဗီဒီယို	-8.97348
ir	-8.97425
ထို	-8.97442
▁Mar	-8.97447
85	-8.97674
ဘုရား	-8.97956
ဆိုရင်	-8.98022
75	-8.98197
ဖြတ်	-8.98245
ig	-8.98277
တယ်လို့	-8.98304
ke	-8.98329
သင့်ရဲ့	-8.98379
▁ရောဂါ	-8.98382
ခင်	-8.98586
ရည်	-8.98689
▁ပုံမှန်	-8.98728
ပေါ့	-8.98896
▁ဆေး	-8.99156
IN	-8.99189
86	-8.99269
42	-8.99397
▁စစ်	-8.99495
▁ဘုရားသခင်၏	-8.9979
တ္	-8.99876
လိုအပ်	-8.99905
တစ်ယောက်	-9.00084
ရရှိနိုင်	-9.00189
▁၀	-9.00232
တို့၏	-9.00264
▁site	-9.00363
ment	-9.00494
တစ်ခုကို	-9.00545
▁မတ်လ	-9.00699
ဆရာ	-9.00861
▁ဖန်တီး	-9.00919
ard	-9.00981
ကန်	-9.01011
ca	-9.01171
2004	-9.01237
နာရီ	-9.01272
ခု	-9.01359
27	-9.01395
▁ေ	-9.01402
အပ်	-9.01528
68	-9.01535
ဘာသာ	-9.01599
▁©	-9.01673
▁လျှပ်စစ်	-9.01877
▁စီးပွားရေး	-9.01879
▁ရှင်ဘုရင်	-9.01887
ထုတ်လုပ်မှု	-9.01906
ကြတယ်။	-9.02047
’	-9.02066
comment	-9.022
သောသူသည်	-9.02206
▁အလင်း	-9.02262
▁ကြား	-9.023
;&	-9.02309
44	-9.02339
တယ္	-9.02345
ပေးသွင်း	-9.02439
▁အရာ	-9.02534
မွေး	-9.027
ell	-9.02723
▁Le	-9.03063
▁တကယ်	-9.03207
▁အဲဒီလို	-9.03569
ဖြစ်လာ	-9.03681
လား။	-9.03691
▁PVC	-9.03971
▁200	-9.03983
ow	-9.04005
▁ဒီမှာ	-9.0414
▁Play	-9.04245
ူ	-9.04296
မေး	-9.04306
▁ပါဝင်	-9.0431
ite	-9.04376
▁စက်မှု	-9.04411
▁ငါတို့သည်	-9.0445
ပါဘူး။	-9.04527
em	-9.04788
ga	-9.04809
အကွာအဝေး	-9.04902
ကွက်	-9.05181
▁tool	-9.05187
▁An	-9.05251
▁Ba	-9.05275
▁Facebook	-9.05302
ph	-9.0536
hi	-9.05422
ti	-9.05471
47	-9.05514
ပိတ်	-9.05517
▁ထုတ်ကုန်	-9.05547
▁Li	-9.05593
▁မေး	-9.05632
ျပီး	-9.05665
▁CNC	-9.05708
▁you	-9.05727
ကပ်	-9.05823
om	-9.05929
ဲ	-9.0599
တို့အား	-9.06039
ငျ	-9.06065
ိတ်	-9.06138
နယ်	-9.06377
တိုင်အောင်	-9.06444
ရင္	-9.06466
ထံမှ	-9.06471
▁ကျော်	-9.06549
အရောင်	-9.06572
ဘုရားသခင်	-9.06581
su	-9.06589
ညီ	-9.0661
▁သင့်	-9.06694
ရတဲ့	-9.06768
သောကြောင့်၊	-9.06805
▁မေ	-9.06871
တွဲ	-9.06948
min	-9.07021
စာအုပ်	-9.07124
tor	-9.07219
သတ္တု	-9.07221
▁So	-9.0735
▁သူတို့ရဲ့	-9.07428
▁is	-9.07665
Q	-9.07904
we	-9.07904
သနည်း။	-9.07988
ပြုလုပ်	-9.08051
▁ခု	-9.08116
ber	-9.0817
age	-9.08333
49	-9.08396
သမျှ	-9.08486
▁စကား	-9.08558
ကြေး	-9.08577
အသက်	-9.08578
ရှေ့မှာ	-9.08619
ရစ်	-9.08647
ထပ်	-9.08787
ရှိတဲ့	-9.08804
▁စီးရီး	-9.08816
ပါပြီ။	-9.08835
မရ	-9.08857
▁ခင်ဗျားတို့	-9.08877
အမျိုး	-9.08924
မှတ်	-9.09029
ကဒ်	-9.09094
ကင်း	-9.09205
ပေ	-9.09206
ver	-9.09224
he	-9.09307
႕	-9.09313
လက်မှတ်	-9.09319
နှစ်ခု	-9.09325
တရုတ်	-9.09434
ve	-9.09473
▁60	-9.0956
▁×	-9.09609
မ်း	-9.09727
၎င်း	-9.101
လွန်	-9.10227
ကလေး	-9.10232
▁သန်း	-9.10253
72	-9.10268
▁Europe	-9.10322
▁အမည်	-9.10357
ခွင့်	-9.10437
cm	-9.10483
ကား၊	-9.10763
▁အဲဒါ	-9.10885
▁တစ်ဦးက	-9.10886
▁ကုမ္ပဏီ	-9.10891
mi	-9.10989
အာ	-9.11042
▁PC	-9.11065
ဝေ	-9.1111
▁လေ	-9.11183
▁Casino	-9.1121
io	-9.11226
နိုင်တဲ့	-9.11423
58	-9.11436
▁ပြောင်းလဲ	-9.1147
နေတာ	-9.1147
▁အစိုးရ	-9.11611
စွမ်းရည်	-9.11615
▁°	-9.11664
line	-9.11692
ေပး	-9.11718
▁၅	-9.11862
500	-9.1194
▁အထိ	-9.12034
ci	-9.12117
▁ခင်ဗျား	-9.12208
▁ကျွန်ုပ်တို့၏	-9.12285
ဆောင်ရွက်	-9.1233
▁သြဂုတ်လ	-9.12456
▁Me	-9.12489
▁Pa	-9.12521
ka	-9.12619
▁ရွှေ	-9.12711
ni	-9.12884
▁ထာဝရ	-9.12916
ထည်	-9.13028
56	-9.13062
နေကြ	-9.13192
end	-9.13226
▁ကုန်ပစ္စည်း	-9.13312
▁ဥပမာ	-9.13673
ဆင်	-9.13705
▁ကျောက်	-9.13789
54	-9.13815
▁မြေ	-9.13887
▁သူမ	-9.139
▁21	-9.13983
▁ကိုယ့်	-9.14008
မှီ	-9.1412
မယ္	-9.14183
du	-9.14225
▁အဘယ်သို့	-9.14277
-5	-9.14303
▁ထင်	-9.14336
ည္	-9.14363
▁သူ့ကို	-9.145
▁အသစ်	-9.14602
▁iPhone	-9.14717
▁ကျောင်း	-9.14749
▁High	-9.1484
▁ဒုတိယ	-9.15091
ပိုက်	-9.15164
အဓိက	-9.15195
ကူ	-9.15202
တစ်ခုတည်း	-9.15238
71	-9.15331
ကိစ္စ	-9.15427
သည်လည်း	-9.15453
▁လျှောက်	-9.15458
လည်	-9.15476
ရှင်း	-9.15508
ဘီ	-9.15533
GB	-9.15547
သဘော	-9.1555
▁post	-9.15819
▁Con	-9.15919
▁ဘာသာစကား	-9.15973
▁FS	-9.16094
the	-9.16272
▁အဘယ်	-9.1628
ကုသမှု	-9.16475
▁ပြည်	-9.16486
အဆင့်	-9.1649
▁ထိပ်တန်း	-9.1658
AT	-9.16647
ရှည်	-9.16748
တု	-9.16761
နေရ	-9.16772
▁Ar	-9.16953
bu	-9.17017
နက်	-9.17171
ရောင်	-9.17189
ud	-9.17192
▁Mon	-9.17195
▁2012	-9.17227
ပို့	-9.17229
▁40	-9.17278
▁မိုဘိုင်း	-9.17367
ထုတ်လုပ်သူများ	-9.17391
များစွာ	-9.17498
စာမျက်နှာ	-9.17519
res	-9.17675
မှစ၍	-9.17776
ထုတ်လုပ်သူ	-9.17853
ဖွင့်	-9.17911
▁500	-9.17925
fi	-9.17932
59	-9.18054
51	-9.18065
▁၄	-9.18131
နိုင်ပါသည်။	-9.18251
ဖြစ်ပါသည်။	-9.18358
ရဲ႕	-9.18451
ထဲသို့	-9.18513
57	-9.18531
အသင်း	-9.18752
▁အခြေခံ	-9.18761
သင်၏	-9.18852
စွဲ	-9.1906
ရို	-9.1914
အပါအဝင်	-9.19151
LE	-9.19282
လင်	-9.1932
စီးရီး	-9.1939
der	-9.19431
သတင်းအချက်အလက်	-9.19453
41	-9.1947
မယ်။	-9.19527
ကိရိယာ	-9.19531
ပ္	-9.19551
£	-9.19628
အခြေခံ	-9.19756
န္း	-9.1985
အစီအစဉ်	-9.19924
▁App	-9.19931
▁Precision	-9.20057
ဇယား	-9.20067
ay	-9.20193
▁ကျွန်ုပ်တို့	-9.20242
▁Ra	-9.20257
ဆဲ	-9.20339
တုန်းက	-9.20355
▁တောင်	-9.20412
-0	-9.20531
yl	-9.2061
နောက်ဆုံး	-9.20666
ော့	-9.20728
▁ကျွန်တော့	-9.20745
air	-9.21035
▁Sa	-9.21079
ပါတယ္	-9.21099
ub	-9.21109
▁ထပ်	-9.21159
လယ်	-9.21242
ရမည်	-9.21258
ster	-9.21312
သြား	-9.2137
မူကား၊	-9.21444
သင်တန်း	-9.2145
▁cheat	-9.21467
ဒေသ	-9.2147
နိုင်သည်။	-9.21501
ick	-9.21545
ts	-9.21701
ဖွင့်	-9.21756
land	-9.2187
ရှေ့	-9.2188
တံ	-9.21887
▁လူတွေ	-9.21929
ner	-9.22114
ပူ	-9.22121
အပေါင်းတို့	-9.22126
ဝေး	-9.22134
ct	-9.22198
▁စာမျက်နှာ	-9.22238
လေ့လာ	-9.22263
ၿပီး	-9.22394
မော်ဒယ်	-9.22464
ရုံး	-9.22486
▁ပထမ	-9.22559
ရရှိ	-9.22697
ဒို	-9.22739
100	-9.22797
▁သူက	-9.22854
▁၁၀	-9.22859
အရပ်	-9.22914
out	-9.22922
သည်ကား၊	-9.23049
မပြု	-9.23153
▁မျက်နှာ	-9.2328
▁အားဖြင့်	-9.23532
mer	-9.23542
ဝယ်ယူ	-9.23722
46	-9.23741
▁သင့်ကို	-9.23851
▁အတူ	-9.23852
43	-9.23875
ခါ	-9.23887
▁ထ	-9.23909
▁ဖေါ်ပြချက်	-9.23946
vi	-9.24024
လမ်းကြောင်း	-9.24147
▁ငါ၏	-9.24158
ို	-9.24211
os	-9.24334
="3	-9.2438
▁HD	-9.24393
မျက်နှာပြင်	-9.24402
]]	-9.24432
ဆာ	-9.24466
▁နားလည်	-9.2457
ကမ္ဘာ	-9.24584
မယ့်	-9.24619
အများအပြား	-9.24624
ငါ့	-9.24727
▁ယဇ်ပုရောဟိတ်	-9.24876
▁ဂိမ်း	-9.2489
ႏိုင္	-9.24918
မြတ်	-9.24949
အသုံးပြုမှု	-9.25084
ml	-9.25097
98	-9.25097
ပြသ	-9.25128
▁နားထောင်	-9.25161
သော်လည်း၊	-9.25181
▁တွေ့	-9.25206
အတူ	-9.25228
စပ်	-9.25283
▁မိနစ်	-9.25343
လန်	-9.25352
ငါး	-9.25363
▁Di	-9.2551
အများစု	-9.2554
bi	-9.25785
▁မူ	-9.25861
oo	-9.25862
52	-9.25949
ကတည်းက	-9.25985
▁လူသား	-9.261
တိုက်ရိုက်	-9.2615
မြင့်	-9.26188
ဥ	-9.26262
ကျွန်	-9.2627
▁Mo	-9.26271
53	-9.26285
ကွင်း	-9.26331
ဝက်	-9.26383
အစား	-9.26427
▁Code	-9.26451
▁မရှိ	-9.26482
အို	-9.26503
▁ဖြစ်သည်။	-9.26504
▁Car	-9.26525
ပြေး	-9.26563
▁အဘယ်သူမျှမ	-9.26589
တစ်ဦးက	-9.26832
ide	-9.26859
va	-9.26911
do	-9.26913
ဘာသာစကား	-9.26914
ပထမဦးဆုံး	-9.2692
au	-9.26975
▁DVD	-9.26987
ပြောင်းလဲ	-9.27026
ကာစီနို	-9.27144
တန်ဆာ	-9.27206
▁Vi	-9.27263
lu	-9.27293
96	-9.27325
နှုတ်	-9.27385
▁ရှာ	-9.27447
ဖန်ဆင်း	-9.27467
▁မိမိတို့	-9.27477
ဟန်	-9.27482
မှာတော့	-9.27544
▁သူတို့က	-9.27691
အမေရိကန်	-9.27707
▁စိတ်ကူး	-9.27716
▁ဒါကြောင့်	-9.27741
nd	-9.27833
အမျိုးမျိုး	-9.27834
88	-9.27895
ag	-9.28056
▁တရား	-9.28076
▁လက်မ	-9.28134
▁Glass	-9.2819
="1	-9.28214
အဆင့်	-9.28337
ချောင်း	-9.28347
▁ယုံကြည်	-9.28354
ကိန်း	-9.28374
သတ်မှတ်	-9.28444
ဖာ	-9.28463
▁app	-9.28511
▁သို့သော်	-9.28514
အများဆုံး	-9.2852
တခု	-9.28538
AN	-9.28557
▁EA	-9.28558
▁မိန်းမ	-9.2858
▁ရှိနေ	-9.28675
အုပ်စု	-9.28828
တပ်	-9.28894
ကွန်	-9.2907
ထံသို့	-9.29126
be	-9.29171
ထုတ်ကုန်များ	-9.29201
ပါပဲ	-9.29271
▁နှုတ်	-9.29291
ated	-9.29422
▁လုံးဝ	-9.29523
ကြွ	-9.29543
▁ပြုလုပ်	-9.29562
လို႔	-9.29673
▁Die	-9.2972
အလေးချိန်	-9.29752
ဖွယ်	-9.29761
▁CO	-9.29852
ပါတယ်၊	-9.2995
▁Posted	-9.29974
▁ဒါကြောင့်	-9.29989
▁အထူး	-9.30076
▁ယနေ့	-9.30109
သတည်း။	-9.30168
▁ဖုန်း	-9.30177
▁System	-9.30227
▁မြန်မာနိုင်ငံ	-9.30295
▁Tools	-9.30397
ပိုမို	-9.30571
▁အမှတ်	-9.3058
အပိုဆု	-9.30641
ိုင်း	-9.30678
ပြာ	-9.3084
လဲ။	-9.30939
SS	-9.30944
အထူး	-9.30976
▁By	-9.31007
▁Wi	-9.31037
▁To	-9.31051
ဖုန်း	-9.31144
▁2010	-9.31195
ance	-9.31213
ကျွန်တော်တို့ကို	-9.31228
ရယူ	-9.31241
▁ကိုယ်တော်သည်	-9.31261
တီး	-9.31263
တိပ်	-9.31289
နံပါတ်	-9.31307
▁အိန္ဒိယ	-9.3132
ပွား	-9.31462
74	-9.31523
ဗေဒ	-9.31637
အမှတ်	-9.31684
200	-9.31686
ဆန်	-9.31721
▁မဟုတ်	-9.31828
▁လုပ်ပါ	-9.3183
ဘူး။	-9.31852
tro	-9.31921
ဖော်	-9.31934
▁နား	-9.31977
မြင့်	-9.3202
che	-9.3202
ပျ	-9.32118
ရု	-9.32226
လက္ခဏာ	-9.32291
76	-9.32425
အမှုကို	-9.32428
ခေတ်	-9.32441
စျေးကွက်	-9.32481
pp	-9.32565
73	-9.32609
▁ဘဝ	-9.32641
မဲ	-9.32649
77	-9.32703
ျခင္း	-9.32729
ဘေး	-9.3273
ဘဏ်	-9.32739
sk	-9.3276
▁ဤသည်	-9.3282
▁အကျွန်ုပ်တို့	-9.32828
ဧရိယာ	-9.32881
▁with	-9.32947
စုံ	-9.3296
▁အောက်တိုဘာလ	-9.32987
▁ပထမဆုံး	-9.33003
လို့ပါ။	-9.3302
တော်မူပါ။	-9.33022
ကယ်	-9.33024
စေရန်	-9.33048
၀၀၀	-9.33051
▁Na	-9.33061
▁ဣသရေလ	-9.33087
အပိုင်း	-9.33133
အရည်အသွေး	-9.33185
ထောက်ပံ့	-9.33246
▁မှတ်ချက်	-9.33268
ist	-9.3335
▁ဖုန်းနံပါတ်	-9.33375
▁မသိ	-9.33379
▁ပိုပြီး	-9.33402
ကြိုးစား	-9.3343
ရထား	-9.33471
သတင်း	-9.33612
ash	-9.33705
အတွေ့အကြုံ	-9.33755
▁Do	-9.33909
▁သဘာဝ	-9.33955
vo	-9.33991
မှို	-9.34001
ak	-9.34132
ဒေါ	-9.34172
▁ဂ	-9.34367
cl	-9.34406
အတြက္	-9.34423
ရတာ	-9.34474
လည်ပတ်	-9.34487
တည်းဟူသော	-9.34553
မက်	-9.347
စောင့်	-9.34851
▁ပန်း	-9.34965
97	-9.34984
ထောက်	-9.35005
ဒေတာ	-9.35036
သင်တို့	-9.35052
ting	-9.35146
နိုင်ပါသည်	-9.35174
ကြယ်	-9.35188
လျ	-9.35215
သကဲ့သို့	-9.35293
ကျိုး	-9.35324
our	-9.35345
▁ဖိုင်	-9.35381
အကောင့်	-9.35421
ချက်များ	-9.35438
US	-9.35449
▁သခင်	-9.35461
▁install	-9.35477
တောင်း	-9.35614
ပေးနိုင်	-9.35622
ညာ	-9.35651
တို့၌	-9.35737
နဲ	-9.35793
sta	-9.35832
▁တည်	-9.35843
သေတ္တာ	-9.35863
တစ္ခု	-9.35864
-8	-9.36015
လံ	-9.36055
▁လက်ရှိ	-9.36067
ခံစား	-9.36073
tri	-9.3616
over	-9.3617
transposh	-9.36274
တတ်သော	-9.36313
ဖိုင်	-9.36322
ကျွန်း	-9.36375
ချို	-9.36388
လိ	-9.3645
ပြဿနာ	-9.36454
▁နောက်ထပ်	-9.36631
-6	-9.36685
ဟောင်း	-9.36718
*	-9.36749
ကျနော်တို့	-9.36798
ပီ	-9.36805
▁Se	-9.36966
ပါဝင်သည်	-9.37087
78	-9.37297
တော	-9.37315
gu	-9.37368
၉	-9.37392
သီ	-9.37404
▁ကမ္ဘာ့	-9.37449
▁ဣသရေလအမျိုး	-9.37483
ဖြစ်နိုင်	-9.37523
▁ခံရ	-9.37539
မှုတွေ	-9.37562
ရွာ	-9.37591
est	-9.37646
▁ယေ	-9.37654
ld	-9.37655
▁22	-9.37776
-19	-9.37809
▁အလုပ်လုပ်	-9.3782
ကိုင်	-9.37839
မှတ်ပုံတင်	-9.37988
▁ဝန်ဆောင်မှု	-9.3799
မႈ	-9.38004
မန်	-9.38012
▁New	-9.38067
စံ	-9.38073
▁ဆက်ဖတ်ရန်	-9.38088
MM	-9.38275
အားလုံးကို	-9.38346
▁အဘယ်ကြောင့်	-9.38376
IS	-9.38381
စိုက်	-9.38404
▁မီလီမီတာ	-9.3844
ကစား	-9.38508
ပြီးတော့	-9.38523
▁ချစ်	-9.38647
လှည့်	-9.38713
စိတ်ကြိုက်	-9.38718
ကွာ	-9.38851
▁ဒါဝိဒ်	-9.38901
0.0	-9.38921
ပိုး	-9.38923
ဖောက်သည်	-9.39011
ေသာ	-9.39028
မျက်နှာ	-9.39138
▁RFID	-9.39158
ွတ်	-9.39162
ပု	-9.39219
စျေး	-9.39226
ကြပါ	-9.39279
▁ကျွန်မရဲ့	-9.39303
ဗျာ	-9.39317
▁Key	-9.39333
ပမာဏ	-9.39371
ယခု	-9.39468
▁ဒီနေ့	-9.39502
အုပ်	-9.3951
▁သဘော	-9.39517
ေလး	-9.39536
သက်	-9.3955
ဘီး	-9.3958
စီရင်	-9.39594
ty	-9.39651
84	-9.3971
မေ	-9.39785
သည္	-9.39854
ခက်	-9.40046
▁reserved	-9.40063
အဘ	-9.4008
ထားသည်။	-9.40087
pr	-9.401
▁နိုဝင်ဘာလ	-9.40106
▁[1]	-9.4012
▁Off	-9.40231
▁ဣသရေလအမျိုးသား	-9.40234
▁Ningbo	-9.40404
les	-9.40569
ai	-9.40571
ပြည့်	-9.40571
▁၆	-9.40659
ction	-9.40689
89	-9.40849
▁မာ	-9.40969
လိုက္	-9.40982
▁၎င်း	-9.41047
ရွ	-9.41056
ရုပ်	-9.41067
ခြောက်	-9.41119
လှုပ်ရှား	-9.4112
ရွက်	-9.41184
များအား	-9.41268
တို့တွင်	-9.41275
▁DC	-9.41306
လွယ်	-9.41316
gi	-9.41321
လူမျိုး	-9.41476
ကြောင်းကို	-9.41512
▁Anti	-9.41512
စည်း	-9.41607
ap	-9.41768
IC	-9.41811
လု	-9.41853
▁Phone	-9.41912
ပစ္စည်းကိရိယာ	-9.41922
▁ဖြစ်လာ	-9.41926
ကိုယ်ပိုင်	-9.41927
ပိုပြီး	-9.4193
▁နယူး	-9.41942
▁စက်တင်ဘာလ	-9.41953
အနီး	-9.42022
▁ဇွန်လ	-9.42053
ဖိအား	-9.42082
q	-9.42093
93	-9.42118
In	-9.42193
aw	-9.4221
▁အိတ်	-9.42278
▁Pre	-9.42346
▁ဟ	-9.42395
လျှပ်စစ်	-9.42423
ဆု	-9.42492
အချို့	-9.42519
ခိုး	-9.42554
မဖြစ်	-9.42568
ကုန်ကျစရိတ်	-9.42593
▁system	-9.42613
▁ပတ်သက်	-9.42682
နျ	-9.42769
▁အဲဒါကို	-9.42913
ခေါင်း	-9.43024
▁Casting	-9.43098
ဂျက်	-9.43174
ီ	-9.43314
pi	-9.43336
▁2011	-9.43678
ပါတယ္။	-9.43709
ဂါ	-9.43731
▁function	-9.43747
ရွှေ	-9.43758
လွှတ်	-9.43806
ET	-9.43811
သမီး	-9.43884
pt	-9.4389
han	-9.4396
net	-9.44009
92	-9.44026
ရယ်	-9.44033
ck	-9.44116
လေကြောင်း	-9.44126
အထက်	-9.44133
ခင်း	-9.44134
eng	-9.44206
less	-9.44266
▁ထုတ်လုပ်သူများ	-9.44283
▁ပင်လယ်	-9.44286
▁IP	-9.443
တည်ဆောက်	-9.44317
▁pro	-9.44389
▁အန်းဒရွိုက်	-9.44549
63	-9.4455
MC	-9.44672
▁Q	-9.44732
အစ	-9.44747
နှင့်တကွ	-9.44838
▁Mobile	-9.44942
ru	-9.45084
▁rights	-9.4509
▁ဂီတ	-9.45118
ator	-9.45154
ဖျက်	-9.45245
ကေ	-9.45314
▁your	-9.45337
-10	-9.45351
Fi	-9.45409
▁အများကြီး	-9.45418
▁Manufacturer	-9.45443
▁စီရင်	-9.45568
▁၇	-9.45571
▁နှစ်ပေါင်း	-9.45591
▁ကြှနျုပျတို့	-9.45613
▁panel	-9.45668
87	-9.45698
od	-9.45733
ကတ်	-9.45776
ထိန်းချုပ်မှု	-9.4581
ခြား	-9.4583
ကြမ်း	-9.45881
အပြင်	-9.45916
▁အရှေ့	-9.45951
▁Th	-9.45962
▁အမြင့်	-9.4598
ID	-9.46041
သံမဏိ	-9.46112
art	-9.46115
ချွတ်	-9.46192
ခြင်းနှင့်	-9.46219
မသိ	-9.46257
ပြန်လည်ဆန်းစစ်	-9.46271
▁Panel	-9.46271
▁polyester	-9.46272
▁iOS	-9.46275
▁Ad	-9.46278
▁sp	-9.46383
သည်အတိုင်း၊	-9.46412
▁En	-9.4642
ဖီ	-9.46431
မြို့၊	-9.46454
ec	-9.46498
ပြည်ထောင်စု	-9.46505
နာမ	-9.46513
▁4.	-9.46567
▁အဆင့်	-9.46631
lock	-9.46658
▁Up	-9.46697
China	-9.46718
ောင်	-9.4675
ပါဝါ	-9.46802
×	-9.4681
ear	-9.46836
သလော။	-9.46882
▁Multi	-9.46983
▁ဒါပေမယ့်	-9.4701
fa	-9.47017
pro	-9.47095
dy	-9.47187
▁တိုက်ရိုက်	-9.47231
တဲ	-9.47253
အန္တရာယ်	-9.47286
ပေါ	-9.47288
နိုင်တယ်။	-9.47315
ွေ	-9.47348
▁Environmental	-9.47365
အကြား	-9.47461
▁အသက်ရှင်	-9.4753
သန်း	-9.47559
ျပ	-9.47591
▁Mark	-9.47592
အစိုးရ	-9.47632
▁အပိုင်း	-9.47636
ပယ်	-9.47755
လက်ရှိ	-9.47775
တံခါး	-9.47853
ect	-9.47873
▁ည	-9.47887
▁စာရင်း	-9.47898
ကော	-9.47903
လုပ္	-9.47949
▁၂၀	-9.47993
တည်း။	-9.48014
▁၎င်းတို့	-9.48017
လင်း	-9.48074
▁that	-9.48127
သွား၍	-9.48198
▁ဇူလိုင်လ	-9.48259
▁MPT	-9.48261
နိုင်သော	-9.48327
▁Power	-9.48347
-7	-9.48348
5%	-9.48444
▁မော်ဒယ်	-9.48455
▁သင်တို့ကို	-9.48463
▁Te	-9.48526
▁Sh	-9.48529
ထိပ်တန်း	-9.48616
so	-9.48624
ပြုပြင်	-9.48777
mon	-9.48854
ခရီး	-9.48862
ရံ	-9.48912
မ္	-9.48983
▁တိုက်	-9.48989
စမ်းသပ်	-9.49121
fe	-9.49149
အပြစ်	-9.49289
မယ့်	-9.49302
ပေးပို့	-9.49419
▁ဂျပန်	-9.49423
ကဲ	-9.49448
ပြိုင်	-9.49454
MP	-9.49512
စင်တာ	-9.49513
ach	-9.49534
▁အမှုန့်	-9.49561
82	-9.49638
လုပ်ငန်းစဉ်	-9.49654
ung	-9.49746
ကွန်ပျူတာ	-9.49751
▁သင်တန်း	-9.49801
▁For	-9.4983
62	-9.49842
လျော့	-9.49847
tt	-9.49848
စမ်း	-9.49873
စဉ်းစား	-9.49877
ဘယ်	-9.49896
The	-9.49947
ဆင့်	-9.50017
▁23	-9.50019
ကြတဲ့	-9.50057
ါ	-9.50064
▁ကဲ	-9.50086
နှိပ်	-9.50111
91	-9.50114
▁ပညာ	-9.50131
နို	-9.50147
လေ။	-9.50159
▁ဘုရားသခင်သည်	-9.50173
ထုပ်ပိုး	-9.50177
အင်ဂျင်	-9.50229
ူး	-9.50325
▁လွန်ခဲ့တဲ့	-9.50352
pl	-9.50437
▁Qu	-9.50454
▁ပရောဖက်	-9.5047
ပြီးမှ၊	-9.50518
▁သတ်	-9.50585
▁Equipment	-9.50592
▁ဥရောပ	-9.50597
အဆုံး	-9.50649
rd	-9.50654
စုဆောင်း	-9.50719
ခွဲခြား	-9.50737
▁Lo	-9.50825
မြန်	-9.50902
အရှည်	-9.50902
စီစဉ်	-9.50926
ကြည့်ရှု	-9.50934
▁ကာလ	-9.50949
အာမခံ	-9.5102
mb	-9.51022
ကြပြီ။	-9.51038
▁ပြန်လည်	-9.51187
▁Microsoft	-9.51227
တောင်းဆို	-9.51249
လွယ်ကူ	-9.51288
ရှိပြီး	-9.51336
▁လေ့လာ	-9.51379
▁ပလပ်စတစ်	-9.51443
လွှဲ	-9.51473
▁He	-9.51496
▁Tag	-9.51512
အခြေအနေ	-9.51653
▁Post	-9.51675
ee	-9.51746
၎င်း၏	-9.51755
ပံ့ပိုးမှု	-9.51778
▁Samsung	-9.51862
ဖြစ်တဲ့	-9.51868
အပြည်ပြည်ဆိုင်ရာ	-9.51882
con	-9.51933
သက်တမ်း	-9.51933
အောက်မှာ	-9.52003
ဆိုလို	-9.52031
၆	-9.52049
ပါတီ	-9.52055
▁ဦးနှောက်	-9.52098
ပါပြီ	-9.52137
▁ခရိုင်	-9.5216
သော်၊	-9.52181
▁code	-9.52185
ဖြစ်သည်	-9.52203
bit	-9.52244
အပေါ်မှာ	-9.52249
ပုလင်း	-9.52276
ဘတ်	-9.5231
▁ဒါနဲ့	-9.52315
ေတာ္	-9.52384
▁Tube	-9.52404
တာပေါ့။	-9.52408
blog	-9.52525
▁သံ	-9.52582
ary	-9.52683
ff	-9.52748
စိုက်ပျိုး	-9.52763
သူတို့ကို	-9.52769
ဖြေ	-9.52841
hits	-9.52913
0,000	-9.52926
▁[...]	-9.53019
စေ့	-9.5302
ger	-9.53074
ish	-9.53109
ရာတွင်	-9.53123
ေလ	-9.53139
မြန်နှုန်း	-9.53142
အခန်း	-9.5318
▁ခြေ	-9.53207
ya	-9.53243
ေျပာ	-9.5326
PS	-9.53267
▁လူမျိုး	-9.53308
▁ရှင်တို့	-9.53323
▁Tags	-9.5335
အဖွဲ့အစည်း	-9.53379
ron	-9.53381
▁Software	-9.53408
ရာသီ	-9.53411
ပျော်	-9.53426
▁ကိုယ်တော်၏	-9.53453
▁နှစ်ခု	-9.53477
ဏ	-9.5348
ကောင်းတဲ့	-9.53506
▁အမျိုးသမီး	-9.53534
▁မြေကြီး	-9.53549
▁ဒီဇိုင်း	-9.53585
ရှိသမျှ	-9.53587
ကျတော့	-9.53672
လက်ခံ	-9.53675
ဝန်	-9.53685
ထု	-9.53729
ki	-9.53732
ကီ	-9.53749
▁website	-9.53798
wordpress	-9.53799
လှိုင်း	-9.53827
▁ကျွန်	-9.5385
ုပ်	-9.54008
နေတယ်။	-9.54139
ဖြစ်ပွား	-9.54154
ဖြစ်ကြောင်း	-9.54164
▁ကိုယ်တော်ကို	-9.5417
သီချင်း	-9.54236
▁ဒေတာ	-9.54281
▁ကုန်	-9.54465
▁အိပ်	-9.54512
ထားပြီး	-9.54536
တြင္	-9.54585
ဘား	-9.5462
▁မိုဃ်း	-9.54693
စက်မှုလုပ်ငန်း	-9.54759
လျှော့ချ	-9.54795
▁ကြည့်	-9.54813
ကြသည်။	-9.54817
အမှတ်တံဆိပ်	-9.5492
နိုင်စွမ်း	-9.54944
▁၁၈	-9.54964
▁ဆန်းစစ်ခြင်း	-9.54977
လမ်းညွှန်	-9.55079
ရောက်ရှိ	-9.55081
▁Ga	-9.55082
chi	-9.551
▁Injection	-9.55109
▁Pulse	-9.55109
▁Protection	-9.5511
▁ကျန်းမာရေး	-9.5514
ပါလိမ့်မယ်	-9.55237
စ္	-9.55258
ဥပမာ	-9.55278
ထာဝရဘုရား	-9.55307
ဥစ္စာ	-9.55355
တည်ရှိ	-9.55369
၇	-9.55467
ဓာတ်	-9.55578
79	-9.55595
လွ	-9.55608
61	-9.55619
way	-9.55676
▁ခံစား	-9.55681
▁ပြောဆို	-9.5582
လောင်	-9.5585
kg	-9.55969
▁ငါး	-9.55971
သောသူ၊	-9.55979
cy	-9.5599
▁ကြိုးစား	-9.56028
tv	-9.56074
▁ကူးစက်	-9.56093
ဖွဲ့	-9.56119
rs	-9.56127
▁တစ်နှစ်	-9.56248
PC	-9.56258
▁USB	-9.56349
▁Mi	-9.56357
ah	-9.56422
▁ရှေ့	-9.56525
▁East	-9.56561
စွမ်း	-9.56649
ရွေးချယ်	-9.56784
▁Main	-9.56806
▁ဧပြီလ	-9.56815
ပြင်ဆင်	-9.56824
▁Comments	-9.5688
သေချာ	-9.56891
အပူ	-9.56913
sha	-9.56931
ဖို	-9.56937
ue	-9.56949
den	-9.56964
▁သတ္တု	-9.56997
မော	-9.57011
▁သန့်ရှင်း	-9.5707
▁ကလေးတွေ	-9.57099
ကြိုက်	-9.57109
ပါဝင်သည်။	-9.5712
▁မိသားစု	-9.57172
▁ဒီဇင်ဘာလ	-9.57173
အထည်	-9.57216
▁ယော	-9.57264
▁1000	-9.57284
▁ကျုပ်တို့	-9.57289
act	-9.57455
ထည့်	-9.57478
ပြီးလျှင်၊	-9.57521
▁လိုအပ်	-9.57534
လုပ်ဆောင်	-9.57553
ass	-9.5759
ရှိတယ်။	-9.57601
မြား	-9.57655
ens	-9.57664
သောက်	-9.57715
▁ထုတ်လုပ်သူ	-9.57757
▁ထိုသူ	-9.578
မှန်ကန်	-9.57813
၈	-9.57827
ကုဒ်	-9.57844
ဆီကို	-9.57877
▁ပြောင်း	-9.57996
ကြည့်ရှု	-9.5806
▁တည်ဆောက်	-9.5807
အချက်	-9.58087
ja	-9.58137
▁မေးခွန်း	-9.58145
သောကြောင့်	-9.58188
ဆန်း	-9.58241
ရေးသား	-9.58242
▁လူတိုင်း	-9.58294
အားကစားပြိုင်ပွဲ	-9.58348
င့်	-9.58402
EN	-9.58423
▁ဓါတ်ပုံ	-9.58488
သိုက်	-9.58515
ခွက်	-9.58562
သခင်	-9.58598
▁LTD	-9.58602
မယ်ဆိုရင်	-9.58605
ႏွင့္	-9.58605
ထံ	-9.58609
▁Ho	-9.58662
မြစ်	-9.58712
ep	-9.58822
▁ရိုက်	-9.58856
တ္တ	-9.58866
ကစားသမား	-9.58922
▁စျေးနှုန်း	-9.58999
ဆီး	-9.59016
ဂ်	-9.59065
▁အကျိုး	-9.59124
ase	-9.59129
အသုံးပြုခြင်း	-9.59137
ကဏ္ဍ	-9.59212
ဗာ	-9.59228
စွမ်းဆောင်ရည်	-9.59237
မြို့တော်	-9.59288
▁Group	-9.59288
၏သား	-9.59375
▁အဘယ်သူ	-9.59412
ရအောင်	-9.59424
အဆင်ပြေ	-9.59426
▁ဆေးရုံ	-9.59444
ko	-9.59573
▁ပြင်သစ်	-9.59588
လှည့်	-9.59685
ပြွန်	-9.59702
အထုပ်	-9.59783
▁မီတာ	-9.59796
lin	-9.59809
▁Botou	-9.5984
uk	-9.59959
ဟော	-9.59973
ပေါင်းစပ်	-9.59982
MA	-9.60023
▁အရင်	-9.60023
▁စံ	-9.60211
လိမ့်မည်	-9.60258
တာနဲ့	-9.60342
နည္း	-9.60379
စုစုပေါင်း	-9.60395
hu	-9.60465
ကောက်	-9.60475
ကူညီ	-9.60489
2019	-9.60538
ပုံကို	-9.60538
ထိပ်	-9.60622
စီမံခန့်ခွဲမှု	-9.6065
XL	-9.60661
အနား	-9.6069
▁တက်	-9.60735
▁are	-9.6074
တစ်ခုမှာ	-9.60753
▁ပြည်နယ်	-9.60772
အားကစား	-9.60782
လောက	-9.60868
သက်သေ	-9.60912
သဖြင့်	-9.61043
▁ယေရုရှလင်မြို့	-9.6108
ရည်ရွယ်ချက်	-9.61112
▁ပြဿနာ	-9.61114
လျက်ရှိ	-9.61201
ပြည့်စုံ	-9.61205
အများကြီး	-9.61258
ထိန်း	-9.61317
▁ကွန်ပျူတာ	-9.61331
▁စဉ်းစား	-9.61332
94	-9.61364
နိုငျ	-9.61381
▁Ph	-9.61421
အမိန့်	-9.61428
▁Free	-9.6145
ရှက်	-9.61471
မိတ်ဆွေ	-9.61515
လက်ခုပ်သံများ	-9.61515
ဖြတ်တောက်ခြင်း	-9.61524
▁အခြားသော	-9.61528
ရန္	-9.61539
ဖြစ်ကြသည်။	-9.61642
▁မှစ	-9.61692
ကု	-9.61724
▁Size	-9.61765
je	-9.61796
နှစ်ယောက်	-9.61798
ရှား	-9.61821
တွေ့ဆုံ	-9.61854
oc	-9.61905
ice	-9.61939
အိုး	-9.61946
▁ပိုက်	-9.6202
အနက်	-9.62045
ပြပွဲ	-9.62059
ဖြစ်နေ	-9.62109
မတ်	-9.62172
ထုတ်ပြန်	-9.62177
အမှား	-9.62215
စက်မှု	-9.62215
လိမ်	-9.62235
▁ကောင်းကင်	-9.62319
▁ဟော	-9.62322
lan	-9.62332
iv	-9.62342
စိတ်ဝင်စား	-9.62409
အောက်တွင်	-9.62454
="4	-9.6249
အပေါင်းတို့သည်	-9.62504
▁လက်ခံ	-9.62541
▁300	-9.62558
▁ပြင်ဆင်	-9.62614
▁ဆိုတာ	-9.6262
ုိ	-9.62641
ထဲတွင်	-9.62644
▁သစ္စာ	-9.62687
▁ထာဝရဘုရားကို	-9.62771
▁မေလ	-9.62804
စမတ်ဖုန်း	-9.62832
▁၁၅	-9.62869
ina	-9.62882
မိုဘိုင်း	-9.629
▁အရွယ်	-9.62906
tu	-9.62944
ကျယ်	-9.63005
ဘယ်လို	-9.63027
ခတ်	-9.63034
အသေးစိတ်	-9.63097
MB	-9.63109
ျော	-9.63136
ယုံကြည်	-9.63141
▁ကဒ်	-9.6318
ခရီးစဉ်	-9.63212
▁Quality	-9.63218
day	-9.63284
လည္း	-9.63362
တင်း	-9.63494
▁ယင်း	-9.63539
▁MB	-9.63565
▁Sha	-9.63619
▁Dress	-9.63649
မီလီမီတာ	-9.63707
ကျန်းမာရေး	-9.63732
int	-9.63755
မျိုးစုံ	-9.63807
ကြပါတယ်။	-9.63913
▁ကစား	-9.63929
ခံရသော	-9.63936
ဆန့်ကျင်	-9.63936
ဆုံ	-9.63951
လိုက်တယ်။	-9.63967
PA	-9.63987
လွဲ	-9.64006
▁Mac	-9.64015
သု	-9.64042
နမူနာ	-9.64069
ack	-9.64073
ငျး	-9.64131
mp	-9.64159
ယူနစ်	-9.64188
▁Long	-9.64194
ပေးရန်	-9.64196
ဆို၏။	-9.64318
▁ID	-9.64379
ထည့်သွင်း	-9.64416
လိပ်	-9.64477
ခဲ့တယ်၊	-9.64507
▁တရားဝင်	-9.64516
▁ဒေါင်းလုပ်	-9.64528
ဖော်ပြ	-9.64546
ထောက်ပံ့ရေး	-9.64651
လွန်း	-9.64657
ထည့်သွင်း	-9.64666
▁EUR	-9.64686
နားလည်	-9.64781
°	-9.64831
-20	-9.6497
ရှင်ဘုရင်	-9.65058
လိမ့်မည်ဟု	-9.65158
ေတြကို	-9.65224
fo	-9.65246
▁ရက်နေ့တွင်	-9.65337
▁အရမ်း	-9.65338
81	-9.65382
ရူး	-9.65457
မင်းကြီး	-9.65473
ဥပဒေ	-9.65519
ရုပ်ရှင်	-9.6558
ကျင်းပ	-9.65623
▁Ha	-9.6564
▁ရာခိုင်နှုန်း	-9.65641
လက်ဆောင်	-9.65697
လက္	-9.65738
▁အဲ	-9.65813
▁သင်တို့၏	-9.6584
▁သိုး	-9.65843
နီးပါး	-9.65845
တက္ကသိုလ်	-9.65889
NE	-9.65924
ov	-9.65928
ခန့်	-9.65947
ခဲ့တယ်	-9.65956
▁ကျွန်တော်တို့ဟာ	-9.65981
ခရီးသွား	-9.66015
▁ရွေး	-9.66027
▁ဘေး	-9.66038
▁လုပ်ဆောင်	-9.66053
နီး	-9.66058
ရှာဖွေ	-9.66077
▁ရုပ်ပုံ	-9.6612
ana	-9.66132
▁စျေး	-9.66165
▁Asia	-9.66166
▁150	-9.66226
83	-9.6627
ding	-9.6627
ဆိုက်	-9.66329
tre	-9.66337
နည်းလမ်း	-9.66353
ries	-9.66395
ႏ	-9.66397
လော့ဟု	-9.66429
ယောက်	-9.66441
[1]	-9.66492
if	-9.66513
မှတဆင့်	-9.66524
▁Da	-9.66539
အကြိမ်	-9.66561
▁အထက်	-9.66573
ON	-9.666
စီမံကိန်း	-9.66601
ဂီတ	-9.66644
ထိုင်	-9.66664
ပြီဟု	-9.66671
အစည်းအဝေး	-9.66717
▁လူ့	-9.66783
▁Ta	-9.66873
ဒေ	-9.67005
▁ရုပ်ရှင်	-9.67023
▁ရယူ	-9.67034
သောသူတို့သည်	-9.67114
တန်ခိုး	-9.67135
wi	-9.67137
ကျူး	-9.67145
▁သိပ္ပံ	-9.67174
▁Apple	-9.67247
ste	-9.67354
ပြည့်	-9.6737
ning	-9.67374
▁add	-9.67426
▁hour	-9.67428
▁Project	-9.67521
▁အင်္ဂလိပ်	-9.67523
ok	-9.67557
ုတ်	-9.67571
မောင်း	-9.67624
ဂျာ	-9.67668
▁Get	-9.67688
ခုံ	-9.67729
ကျန်	-9.67817
ော	-9.67858
▁သူတို့ဟာ	-9.67859
ဒဏ်	-9.67972
ႏွစ္	-9.6801
ng	-9.68021
ခဲ့သော	-9.6803
AR	-9.68099
ကို၎င်း	-9.68133
ဳ	-9.6816
ပါစေ	-9.68162
ST	-9.68166
▁ထင်ရှား	-9.6824
▁မှန်	-9.68243
▁အခြေအနေ	-9.68269
တံဆိပ်	-9.68282
လံုး	-9.68284
▁တစ်ခုခု	-9.68322
ဖမ်း	-9.68373
▁ဒါပေမယ့်	-9.68377
ကျွန်ုပ်တို့၏	-9.6842
မျက်	-9.68431
lay	-9.68517
တယ်ဆိုတာ	-9.68563
▁—	-9.68681
▁Su	-9.687
နိုင်သည်	-9.68718
▁Ne	-9.6872
ene	-9.68764
–	-9.68796
ဂျီ	-9.68799
နှိုင်းယှဉ်	-9.68812
▁Retrieved	-9.68812
ထူး	-9.6882
စစ်ဆေး	-9.68878
ဘယ်မှာ	-9.68885
သနည်းဟု	-9.68907
နေပြီး	-9.68921
ကြော	-9.68939
သည်ဖြစ်၍၊	-9.68969
▁အနုပညာ	-9.68975
ထဲကို	-9.68979
▁device	-9.68991
သမိုင်း	-9.69027
by	-9.69094
ical	-9.69108
မယား	-9.69138
back	-9.69249
တျ	-9.69256
အနေဖြင့်	-9.69272
ယော	-9.6928
ပြန်လည်	-9.69289
▁Ni	-9.69292
ပြုသော	-9.69388
board	-9.69448
▁ကျေးဇူးပြု	-9.69507
ဖိနပ်	-9.69573
▁from	-9.69577
of	-9.69657
လိုက်တာ	-9.69658
▁လက်မှတ်	-9.69689
PE	-9.69718
ပူးပေါင်း	-9.69737
ဘုတ်အဖွဲ့	-9.6974
▁အဲဒီမှာ	-9.69761
inter	-9.69771
ပျံ့	-9.69845
▁တကယ်တော့	-9.69884
လစ်	-9.69934
လုံ	-9.69975
အဘယ်သူမျှမ	-9.70024
ကွ	-9.70045
အောင်မြင်	-9.70066
နစ်	-9.70104
ပွ	-9.70112
ဖြူ	-9.70196
မို	-9.70202
တို့နှင့်	-9.70202
ular	-9.70277
ဂို	-9.703
▁Unlimited	-9.70323
▁2009	-9.70339
အားပေး	-9.70351
ရင်းမြစ်	-9.7037
AP	-9.70403
can	-9.70432
ler	-9.70443
စိတ်ကူး	-9.70443
▁နောက်တဖန်	-9.70472
ညျ	-9.70483
▁စုစုပေါင်း	-9.70492
▁ထုပ်ပိုး	-9.70543
▁tag	-9.70544
▁Chip	-9.70554
▁လိင်	-9.70575
အပို	-9.7058
▁ဇန်နဝါရီ	-9.70596
တဦးတည်း	-9.70681
တိမ်	-9.7073
စေခြင်းငှါ၊	-9.70751
▁Deposit	-9.708
ခက်ခဲ	-9.70917
၂၀	-9.70982
သုံးပြီး	-9.71073
▁မောရှေ	-9.71074
▁ကျေးဇူး	-9.71096
ဘော်	-9.71097
▁White	-9.7111
▁Non	-9.71138
▁အားကစား	-9.71242
▁ရရှိ	-9.71291
ယာဉ်	-9.71337
သန်	-9.71352
ထိန်းချုပ်ရေး	-9.71384
ယျ	-9.71395
ight	-9.71419
▁Pack	-9.7145
▁ပတ်ဝန်းကျင်	-9.71467
tal	-9.71479
လှေ	-9.71507
IT	-9.71519
top	-9.71587
CE	-9.7164
▁အကြောင်းက	-9.71645
CoV	-9.71683
▁Related	-9.71731
ခုခံ	-9.71771
▁AC	-9.71787
br	-9.71791
▁OEM	-9.71897
ှဲ	-9.71913
ကောင်းသော	-9.71937
နေထိုင်	-9.71974
str	-9.72016
ပြင်းထန်	-9.72043
RE	-9.7205
ွဲပြားခြားနားသော	-9.72071
ကြီးမားတဲ့	-9.72073
▁ကာကွယ်	-9.72105
2.5	-9.72116
မိသားစု	-9.72127
နံ	-9.72145
နဲ့အတူ	-9.72194
▁Web	-9.7226
▁အခုတော့	-9.72309
နိုင်ငံများ	-9.72319
▁28	-9.7233
▁ဩ	-9.72365
az	-9.72368
▁plugin	-9.72409
▁withoutwax	-9.72513
ထင်ရှား	-9.72529
တွန်း	-9.72652
▁Gu	-9.72693
ရ၏။	-9.72756
win	-9.72805
ပွင့်	-9.7282
?????????	-9.72821
log	-9.72832
လေဆိပ်	-9.72845
ပညာရှင်	-9.72865
▁ခေါင်း	-9.72882
bar	-9.72886
TE	-9.72938
▁အပူ	-9.72946
1.0	-9.72956
▁အဘ	-9.73005
ပျောက်	-9.73052
ကြီးမားသော	-9.73076
▁သမိုင်း	-9.73077
▁အမေရိကန်ဒေါ်လာ	-9.731
cho	-9.73196
SP	-9.73229
▁အကျွန်ုပ်ကို	-9.73248
▁Gr	-9.73329
တစ်ခုပါ။	-9.73353
▁စမ်းသပ်	-9.73365
ဇိ	-9.73433
▁ထုတ်လုပ်မှု	-9.73444
၂၀၀	-9.73507
▁China	-9.73533
lic	-9.7354
▁သူတို့၏	-9.73542
ထောက်ခံ	-9.73548
▁ဟောပြော	-9.73667
▁စွမ်းအင်	-9.73684
အေး	-9.73685
gen	-9.73687
တော်မူပြီ။	-9.73833
AL	-9.73913
▁ဆိုတဲ့	-9.73917
ဖွံ့ဖြိုး	-9.7394
ေပါင္း	-9.73942
တစ္	-9.73989
za	-9.74061
▁လေယာဉ်	-9.74079
▁လက်တွေ့	-9.74113
ren	-9.74123
အတည်ပြု	-9.74143
▁80	-9.74236
မော်ကွန်း	-9.74256
ခ်က္	-9.74272
နှင်း	-9.74281
▁စေလွှတ်	-9.74337
▁Cylinder	-9.74416
တိကျ	-9.74466
▁ကပြောပါတယ်	-9.7459
အပေါင်း	-9.7463
▁တော	-9.74656
သညျ	-9.74673
lip	-9.74678
ဦးဆောင်	-9.74715
ရွေးချယ်မှု	-9.74724
အသုံးပြုသူများ	-9.74744
▁Br	-9.7475
တဦး	-9.74778
▁Ri	-9.74825
င့္	-9.74842
book	-9.74883
ငါ့ကို	-9.74897
ifi	-9.74901
ချေ	-9.74915
စနစ်များ	-9.74982
ဝိညာဉ်	-9.75001
ခုနှစ်တွင်	-9.75008
တယောက်	-9.75039
တာတွေ	-9.7504
လုပ်ဖို့	-9.75076
ချက်ကို	-9.75107
ခုန်	-9.75141
▁အကျွန်ုပ်သည်	-9.75148
ဆက်ဆံ	-9.75168
ဓာတ်ငွေ့	-9.75169
▁ကိုယ်တိုင်	-9.7517
ဧ	-9.75308
မြို့၌	-9.75349
▁Man	-9.75357
အချို့သော	-9.75363
ကင်မရာ	-9.75366
▁Ja	-9.75429
စောင့်	-9.75431
▁ရွေးချယ်	-9.75437
နိုင်ခြင်း	-9.75486
ဖော်ပြချက်	-9.75491
ial	-9.755
နေစဉ်	-9.75503
အမျိုးမျိုးသော	-9.75549
ဒိ	-9.75563
▁အစ	-9.75568
old	-9.75587
အကြောင်းအရာ	-9.75644
▁မဲ	-9.75653
▁ကိုယ်ပိုင်	-9.75666
မိုး	-9.75672
သနား	-9.75703
ဖြေရှင်းချက်	-9.75709
▁virtual	-9.75868
ဆိုတဲ့	-9.75872
တာဝန်	-9.75898
ix	-9.7593
▁အောက်	-9.75963
▁War	-9.76011
ll	-9.76026
ဝိုင်း	-9.76031
▁သွေး	-9.76081
ဖြစ်၍၊	-9.76115
အအေး	-9.76134
ငါတို့	-9.76219
အေ	-9.76219
▁အလိုအလျောက်	-9.76273
▁19,	-9.76333
ဆိုင်း	-9.76356
တရားကို	-9.76379
ေကာင္း	-9.764
▁မော်တော်ကား	-9.76435
▁32	-9.76448
ဝန်ကြီးဌာန	-9.76528
လိုပဲ	-9.76632
ကိုယ်တိုင်	-9.76657
SA	-9.76661
ware	-9.76682
ငွေကြေး	-9.76683
မင်္ဂလာ	-9.76688
အမြင့်	-9.7671
နှစ်ဦး	-9.76738
အရွယ်	-9.76808
သလဲ	-9.76837
▁ပိတ်	-9.76866
နေပါတယ်။	-9.76913
▁FX	-9.76977
▁မော်လီကျူး	-9.7701
အင်ဂျင်နီယာ	-9.77012
သည်အတိုင်း	-9.77017
မေးခွန်း	-9.77023
ley	-9.77051
ေး	-9.77056
ရှိနေ	-9.77065
▁စင်တီမီတာ	-9.77117
-12	-9.77175
▁အမြဲ	-9.77196
ချော	-9.77293
ကိန္း	-9.77358
▁ပြေး	-9.77362
ဖျား	-9.77379
▁အခွင့်	-9.77421
ရေနံ	-9.77429
▁27	-9.77541
အံ့	-9.77588
▁And	-9.77589
ခုနှစ်	-9.77595
ခွင့်	-9.77635
တစ်ခါ	-9.77662
၁၀	-9.7768
▁Plus	-9.77682
ကာကွယ်ဆေး	-9.77701
und	-9.77718
နှင့်အခြား	-9.77721
ကြိတ်	-9.77724
တီထွင်	-9.77743
▁link	-9.77763
▁အမှန်	-9.77777
ဆပ်	-9.77781
tion	-9.77831
ပျံသန်း	-9.77888
ပြောဆို	-9.77905
တပါး	-9.7797
ရေချိုးခန်း	-9.7801
▁အီးမေးလ်	-9.78069
▁အောက်ဆီဂျင်	-9.78081
ဖုံး	-9.78085
လူတွေ	-9.78104
▁ပထမဦးဆုံး	-9.78114
ပိုင်းဆိုင်ရာ	-9.78123
▁ဗိုင်းရပ်စ်	-9.7814
ou	-9.78143
လုံခြုံ	-9.78159
ure	-9.78172
ဆက်သွယ်	-9.78173
အာကာသ	-9.78179
စောင့်ရှောက်	-9.78226
ကိုင်တွယ်	-9.78285
▁ဖျက်ဆီး	-9.78307
▁Or	-9.78329
ium	-9.78334
သက်သာ	-9.78339
အကျင့်	-9.78377
▁စက္ကူ	-9.78392
ကူညီပေး	-9.78424
qu	-9.78539
▁·	-9.78574
▁လူနာ	-9.78586
ရတယ်။	-9.78604
▁အခန်း	-9.78654
▁Ch	-9.78663
အပြည့်အဝ	-9.78669
ox	-9.78725
ထိတွေ့	-9.78774
့်	-9.7879
▁he	-9.78813
စော	-9.78838
▁ကော်	-9.78872
လျှောက်လွှာ	-9.78905
▁ညီ	-9.78918
part	-9.78958
စားပွဲ	-9.78979
▁ပယ်	-9.79008
▁ကြည့်ရှု	-9.79201
မြို့သို့	-9.7921
ဖြစ်ကြ	-9.79228
▁pre	-9.79234
▁သိန်း	-9.79258
ကာစ်	-9.79265
နိုင်ငံခြား	-9.7928
တုံ့ပြန်မှု	-9.79302
▁ဥပဒေ	-9.79313
ခွင်	-9.79322
သူလျှို	-9.79353
▁Ka	-9.7938
▁မျက်နှာပြင်	-9.79429
▁အလေးချိန်	-9.79447
▁ထောင်	-9.79462
form	-9.79474
ကွယ်	-9.79496
အရာ၌	-9.79499
မည်အကြောင်း	-9.79503
▁Rikoooo	-9.79508
▁Brush	-9.79513
▁Ex	-9.79523
တို့က	-9.79542
ip	-9.79584
▁ကြော်ငြာ	-9.79751
စမ်းသပ်ခြင်း	-9.79771
▁Mini	-9.79806
စိုး	-9.79876
ဆိတ်	-9.79895
ဖြစ်စဉ်	-9.79902
ဂျ	-9.79927
▁စောင့်	-9.80017
သတင်းများ	-9.80027
ရှုခင်း	-9.80036
ဘောင်	-9.80044
▁ဒီဇင်ဘာ	-9.80085
ကုန်ပစ္စည်း	-9.80096
လုံခြုံရေး	-9.80176
▁Lu	-9.80225
ကွဲ	-9.80255
▁ရာစု	-9.80255
zo	-9.80279
▁MT	-9.80328
သုတ်	-9.8033
hy	-9.80368
▁ပိုမို	-9.80369
၁၉	-9.80382
ထိုကဲ့သို့သော	-9.80392
▁ပေ	-9.80402
မည့်	-9.80447
▁26	-9.80456
las	-9.80492
ကြောင်	-9.80502
ပိုက်ဆံ	-9.80554
ဖြစ်ကြ၏။	-9.80561
ji	-9.80607
ထူ	-9.80699
ရွေး	-9.80725
light	-9.80736
လို့ရ	-9.8075
ရူ	-9.80785
မင်	-9.80834
ရောင်း	-9.80863
ose	-9.80879
ထားတာ	-9.80937
တင်ပြ	-9.80939
ယံ	-9.8095
ဆက်စပ်ပစ္စည်း	-9.80967
ပန်းကန်	-9.80972
တိတ်	-9.81018
မယ်လို့	-9.81146
သင်္ဘော	-9.81157
▁ပညာရေး	-9.81157
စွမ်းအင်	-9.8119
▁version	-9.81203
▁ago	-9.81207
400	-9.81239
နယူး	-9.81302
engrui	-9.81379
set	-9.81432
ug	-9.81508
တင်သွင်း	-9.81524
ဖြ	-9.81526
ပံု	-9.81582
ယက်	-9.81594
cc	-9.81609
ရှိတယ်	-9.81615
▁ဆု	-9.81617
ကျင့်	-9.8163
ဆိုတာကို	-9.81637
ဝါး	-9.81662
လျှောက်	-9.81696
ik	-9.81708
é	-9.81723
ဆုကြေးငွေ	-9.81724
ပေါင်းများစွာ	-9.81749
ည်	-9.81828
▁do	-9.81839
စစ်ဆင်ရေး	-9.81895
ထည့်	-9.81977
အသုံးချ	-9.82006
▁web	-9.82019
လာကြ	-9.82066
ခံစားရ	-9.82152
ဆောင်း	-9.82158
လိုအပ်ချက်	-9.82201
▁အပ်	-9.82218
တယ္။	-9.82223
တပ်ဆင်	-9.82258
လွှတ်တော်	-9.82287
လိုက်ဖက်တဲ့	-9.82289
လှုပ်ရှားမှု	-9.82302
မှူး	-9.82304
အမြန်	-9.82354
ထက်ပို	-9.82389
ပဲ။	-9.82443
အကြံပြု	-9.82551
▁CD	-9.82562
နိူင်	-9.82588
ပရော်ဖက်ရှင်နယ်	-9.82588
မြှုပ်	-9.8259
ဆန္ဒ	-9.82596
အလိုအလျောက်	-9.82677
gg	-9.82687
ဉ်	-9.82713
▁COVID	-9.82761
လိုက်နာ	-9.8278
ling	-9.82829
ထီး	-9.82857
▁high	-9.82936
မှာရှိတဲ့	-9.82953
▁ကျွန်မကို	-9.82967
▁နွား	-9.83009
="5	-9.83014
SE	-9.83077
ကျယ်ပြန့်	-9.8311
▁PDF	-9.83114
လွှဲပြောင်း	-9.83131
ခ်င္	-9.83187
အရင်းအမြစ်	-9.83263
▁ရေနံ	-9.83304
မည်သည့်	-9.83308
ျပန္	-9.83345
$	-9.83372
ပလက်ဖောင်း	-9.8346
အကြီးဆုံး	-9.83468
▁မိုက်	-9.83562
ဖျ	-9.83566
UN	-9.83581
ရပါတယ်။	-9.83585
xi	-9.83606
အဖွဲ့ဝင်	-9.83626
▁မတရားသော	-9.83668
▁Thu	-9.83685
▁အမှုန့်	-9.83737
အင်္ကျီ	-9.83748
▁can	-9.83836
ood	-9.8384
▁ခရီးသွား	-9.83889
▁Archives	-9.83905
▁ကြောက်	-9.83923
▁ပု	-9.83954
▁သတ်မှတ်	-9.83974
တိရိစ္ဆာန်	-9.83987
use	-9.84064
▁ယောက်ျား	-9.84065
ies	-9.84075
shi	-9.84102
မလား	-9.8411
▁မူလစာမျက်နှာ	-9.8413
တစ်ခုခု	-9.84172
ကုန်း	-9.84195
တိုးတက်	-9.84232
နင်း	-9.84245
ES	-9.8425
အနိုင်ရ	-9.84334
သဟဇာတ	-9.84341
▁We	-9.84356
မည်အကြောင်း၊	-9.8447
ခဲ့ရ	-9.84494
atch	-9.84501
ချိတ်ဆက်	-9.84512
ဖျော်ဖြေ	-9.84517
▁အကြောင်းအရာ	-9.84526
ဖြစ်တယ်	-9.84554
ဘာသာပြန်	-9.84584
စိမ်း	-9.84615
ဝင်ရောက်	-9.84634
ထမ်း	-9.84653
ဿ	-9.84689
ဝက်ဘ်ဆိုက်	-9.84717
လောင်း	-9.84749
ook	-9.84756
ညီမျှ	-9.84768
▁သုတေသန	-9.84863
zhou	-9.84872
▁ဆရာ	-9.84946
▁မှတ်	-9.84997
ဆူ	-9.85091
for	-9.85129
▁ဘုရားကျောင်း	-9.85206
ze	-9.85263
▁run	-9.85285
▁Ste	-9.85298
2018	-9.85308
စစ္	-9.8536
▁အများဆုံး	-9.85379
ဓာတ်ပုံ	-9.85413
▁မှို	-9.8545
ten	-9.85494
ပြုစု	-9.85503
ဒုက္ခ	-9.85536
AC	-9.85552
ွမ်	-9.85575
▁အစီအစဉ်	-9.85592
▁နိုင်ငံရေး	-9.85696
နိုး	-9.85707
ယာဉ်မောင်း	-9.85739
▁ကျွန်မဟာ	-9.85749
▁Can	-9.85809
ကြံ	-9.85841
red	-9.85991
တိုးတက်မှု	-9.85996
▁Save	-9.86034
ပါသလား	-9.86042
ကွန်ယက်	-9.86066
▁တပ်	-9.8608
ကဘာလဲ	-9.86113
ဗို့အား	-9.86122
▁ဇန္နဝါရီလ	-9.86125
her	-9.86174
ကိုးကား	-9.86185
▁အရေအတွက်	-9.86189
ကျေးဇူး	-9.86195
▁အရေးကြီး	-9.86236
▁ရထား	-9.86355
▁အဘိဓါန်	-9.86367
အပြောင်းအလဲ	-9.86371
တေ	-9.86378
လိမ့်မည်	-9.8639
rea	-9.86429
အဆောက်အအုံ	-9.86485
▁software	-9.86486
▁Read	-9.86494
▁သူဟာ	-9.86517
ခါးပတ်	-9.86528
ဆွ	-9.86563
▁ခရစ်တော်၏	-9.86604
အချက်အလက်များ	-9.86607
▁ထုတ်လုပ်	-9.8662
စိ	-9.8663
မီတာ	-9.86661
ert	-9.86757
▁USD	-9.86766
▁စီမံကိန်း	-9.86828
▁ရှောလု	-9.86848
▁မြင့်မားသော	-9.86891
king	-9.86915
မု	-9.87004
အမြင်	-9.87022
▁11:	-9.87031
▁အင်တာနက်	-9.87052
ကောင်းစွာ	-9.8706
▁အသေးစား	-9.871
ဘွား	-9.87109
ဟူမူကား၊	-9.87175
▁ရှေး	-9.87201
Com	-9.87239
▁မြင်း	-9.87325
qui	-9.87335
ကွဲပြား	-9.87344
အတွင်းမှာ	-9.87353
▁My	-9.87363
ကျင်	-9.87379
ခွင့်ပြု	-9.87399
▁will	-9.87417
▁mode	-9.87422
ုန်	-9.8751
ကမ်းလှမ်း	-9.87513
ဘူ	-9.87576
သက္	-9.87593
ပေါ်က	-9.87598
စောင့်ကြည့်	-9.87652
0.00	-9.87678
ob	-9.87685
မမြင်	-9.877
▁ဆင်းရဲ	-9.87752
TH	-9.87763
▁ဆောင်ရွက်	-9.87854
စက္ကူ	-9.87886
▁SD	-9.87898
▁→	-9.87932
အခုတော့ဆက်သွယ်ပါ	-9.87956
အကြံပြုချက်များ	-9.8796
let	-9.87965
▁လုပ်ကိုင်	-9.8798
တည်ထောင်	-9.87982
▁Ca	-9.87997
စတိုင်	-9.88083
ran	-9.8811
တိုးချဲ့	-9.88137
နု	-9.88154
▁ကြယ်	-9.88207
တင္	-9.88246
ထွက်လာ	-9.88254
တုံး	-9.88254
▁အနောက်	-9.88262
မြ	-9.88266
ဗျ	-9.883
▁Add	-9.88337
ဝင်ငွေ	-9.88342
▁ပြသ	-9.8836
▁ဒါဆို	-9.8836
▁ဗားရှင်း	-9.88428
စောင့်ရှောက်	-9.88452
ဖလား	-9.88475
ကျမ်း	-9.88484
လူကြိုက်များ	-9.88494
သုတေသန	-9.88503
▁Go	-9.88538
ယို	-9.88608
▁အန္တရာယ်	-9.88611
အကြံပေး	-9.88629
▁အသေးစိတ်	-9.8865
ဖြည့်	-9.88681
▁Roll	-9.88717
▁တိရစ္ဆာန်	-9.88735
စာလုံး	-9.88753
သွားတယ်။	-9.88825
▁APK	-9.8887
ခွင့်ပြု	-9.88875
အမှန်တကယ်	-9.8888
တက်ကြွ	-9.88904
သို	-9.88956
▁နှလုံး	-9.89035
ငွေပေးချေမှု	-9.89037
မ်ိဳး	-9.89047
ၾကီး	-9.89047
▁Author	-9.89047
▁client	-9.89048
▁အနာဂတ်	-9.89079
မိန်းမ	-9.89081
▁အဲဒါဟာ	-9.89216
ဗီဇ	-9.89231
ကော်	-9.89239
ကျွန်မ	-9.8929
ခြင်းဖြင့်	-9.89293
သြ	-9.89344
ရှစ်	-9.89371
▁အစဉ်	-9.89374
ခဲ့ကြသည်။	-9.89376
ပြု၍	-9.89418
ကိုက်ညီ	-9.89425
▁Pump	-9.89454
ခြင်းသို့	-9.89461
အရောင်း	-9.89574
▁English	-9.89599
hen	-9.89606
▁အဆုံး	-9.89659
dr	-9.89666
▁ကလေးများ	-9.89718
but	-9.89749
မိနစ်	-9.89783
▁Bonus	-9.89792
င်္	-9.89818
vis	-9.89888
▁ချီးမွမ်း	-9.89948
▁module	-9.89979
အလှဆင်	-9.8998
မော်တော်ဆိုင်ကယ်	-9.89987
ပေးလိုက်	-9.90023
▁လေကြောင်းလိုင်း	-9.90025
အဆောက်အဦး	-9.90083
▁မိုး	-9.90154
ရွေ့	-9.90167
▁ရလဒ်	-9.90202
ပုံမှန်	-9.9026
စေလွှတ်	-9.90295
▁ပလတ်စတစ်	-9.90312
▁စာအုပ်	-9.90343
pcs	-9.90364
နဲ႕	-9.90373
ချိတ်	-9.90406
▁ထိ	-9.9041
▁Bi	-9.90455
▁လမ်းညွှန်	-9.90502
ize	-9.90585
ိန်	-9.90618
▁၈	-9.9064
cent	-9.90689
name	-9.90703
ker	-9.90706
▁ပူဇော်	-9.90728
နိုင်အောင်	-9.90743
နှစ်သက်	-9.90761
mg	-9.90769
▁ထို့နောက်	-9.90775
ပါလိမ့်မယ်။	-9.90808
▁Cert	-9.90823
▁လှုပ်ရှားမှု	-9.90831
▁ကျွန်တော်ဟာ	-9.90861
ယန္တရား	-9.90918
▁ဥ	-9.90931
ဘွဲ့	-9.90932
အလိုက်	-9.91003
▁Sun	-9.91022
▁ကာစီနို	-9.91066
ကြောက်	-9.91088
အတွင်းပိုင်း	-9.91128
▁အော်တို	-9.91145
ား	-9.91162
▁Star	-9.9117
ဖုန်	-9.91173
▁သိကောင်းစရာများ	-9.91207
သံုး	-9.91213
▁တစ်ယောက်	-9.91237
ush	-9.91339
ဝင်း	-9.91435
ဝါယာကြိုး	-9.91483
ပညတ်	-9.91493
▁this	-9.91512
▁ကျွန်ုပ်	-9.91525
▁Data	-9.91555
ခေါ်ဆို	-9.91564
▁တချို့	-9.9157
▁ရှာဖွေ	-9.91608
fer	-9.91614
▁လေဆိပ်	-9.91638
မယ်၊	-9.91671
အလားအလာ	-9.91677
▁Access	-9.91679
အံ့ဩ	-9.9168
ind	-9.91689
▁ကိုအတူ	-9.91712
မရှိ။	-9.91735
▁Fl	-9.91735
▁ငွေကြေး	-9.91761
ယုံ	-9.91796
ture	-9.91799
cer	-9.9187
လိမ့်မယ်	-9.91893
ကွန်ရက်	-9.91913
▁29	-9.91976
ဲ့	-9.92021
▁Fittings	-9.92058
▁YouTube	-9.92058
အစောပိုင်း	-9.92058
▁၁၂	-9.92068
ဆံုး	-9.92079
ဘိုး	-9.92088
▁Box	-9.92098
မလဲ	-9.92101
ေရ	-9.92104
▁HP	-9.92117
မူကား	-9.92119
ချမှတ်	-9.92155
▁ပါဝါ	-9.92164
OR	-9.92207
တူညီ	-9.92224
ence	-9.92224
▁နေထိုင်	-9.92231
မပါဘဲ	-9.9226
▁ကြွေ	-9.92297
▁မြစ်	-9.92323
NG	-9.92348
▁မွေး	-9.92363
ပုဂ္ဂလိက	-9.92393
work	-9.92444
▁admin	-9.92447
ဝက်အူ	-9.9245
ဆေးရုံ	-9.92482
ခရစ်	-9.92525
ရှေ့တော်၌	-9.92536
ဗီ	-9.92552
▁Fe	-9.92566
BC	-9.92607
လြ	-9.92633
သင်ကြား	-9.92669
▁အသင်း	-9.92706
သော်	-9.92774
စမ်းသပ်မှု	-9.92781
မြှောက်	-9.92823
ခရိုင်	-9.92827
ney	-9.92832
ဆိုတော့	-9.92858
ake	-9.92885
ရှင်းပြ	-9.92899
နေကြတယ်	-9.92913
▁အစာ	-9.92919
ဖိ	-9.92948
ဖွဲ့စည်း	-9.92958
အပတ်	-9.93004
ဆံပင်	-9.93027
ကုိ	-9.93099
▁အောက်စီဂျင်	-9.93135
cha	-9.93136
ဇီ	-9.93202
IG	-9.93273
မြင့်မားသော	-9.93288
▁အရည်အသွေး	-9.93336
▁သစ်သား	-9.93391
စွန့်	-9.93404
အလွိုင်း	-9.93421
▁Tr	-9.93429
သစ်ကို	-9.93432
car	-9.93435
ကွဲပြားခြားနား	-9.9347
တည်ငြိမ်	-9.93484
play	-9.93502
နေ့ရက်	-9.93514
▁Inc	-9.93518
တစ်လုံး	-9.93553
▁as	-9.93564
နွ	-9.93591
နက်ရှိုင်း	-9.93598
▁Burmese	-9.93608
ny	-9.93656
▁သန့်ရှင်းသော	-9.93761
ဖောက်	-9.93769
▁45	-9.9377
▁ဇီဝ	-9.93776
အိပ်ရာ	-9.9378
၀၀	-9.93781
▁ပြည့်စုံ	-9.938
စပျစ်ရည်	-9.9381
မှတ်တမ်း	-9.93878
ဆက်ဆံရေး	-9.93912
အကြာ	-9.93933
ဦးခေါင်း	-9.93944
ထောက်ခံမှု	-9.93952
နှလုံး	-9.93959
လျှောက်ထား	-9.93966
▁Chuck	-9.93992
ပလတ်စတစ်	-9.9403
မခံ	-9.9408
တစ်ဦးချင်းစီ	-9.94182
ပူးတွဲ	-9.94186
စိန်	-9.9425
▁Ti	-9.94288
နေတယ်	-9.94288
▁၃၀	-9.94295
▁အရေးပါ	-9.94299
ပန်းခြံ	-9.94345
ခိုင်မာ	-9.94352
▁Ge	-9.94369
ခေါက်	-9.94395
မူဝါဒ	-9.94408
▁သင်သည်သင်၏	-9.94437
ace	-9.94472
အပေါင်းတို့ကို	-9.94479
ကုန်သွယ်	-9.94492
ိုင်	-9.94508
▁Password	-9.94573
ကောင်းမွန်	-9.94577
ထောင့်	-9.9458
နည်းနည်း	-9.94595
pho	-9.94641
တောက်ပ	-9.94676
ယောက်ျား	-9.94682
ons	-9.94717
▁သူ့ရဲ့	-9.94719
▁တကယ့်	-9.94761
ကိုးကွယ်	-9.94778
▁90	-9.94816
▁ဘာလို့	-9.94876
▁ဒါဝိဒ်သည်	-9.94891
▁Jo	-9.94906
ခံရဖို့	-9.94962
ေပါ့	-9.95088
▁သိပ်	-9.95099
သတ်မှတ်ချက်များ	-9.95105
▁Wed	-9.95119
▁ကောင်းသော	-9.95129
မော်တာ	-9.95179
ကြပါ၏။	-9.95183
မျိုးဆက်	-9.952
▁Ko	-9.95235
စသည်တို့ကို	-9.9524
ခန့်	-9.95243
▁features	-9.9527
တိုင်းတာ	-9.95276
▁News	-9.95291
▁ပုံနှိပ်	-9.95317
▁တန်ဖိုး	-9.95332
▁သူတပါး	-9.95391
LI	-9.95427
▁GPS	-9.95519
သဘာဝ	-9.95543
ဥရောပ	-9.95551
ပလ္လင်	-9.95552
▁Server	-9.95557
လိုက်ပါ	-9.95563
သူတို့ရဲ့	-9.95589
ုံး	-9.95625
အစားထိုး	-9.95656
▁သင်က	-9.95676
ey	-9.95697
▁ထိုသူတို့သည်	-9.95699
ဝန်ထမ်း	-9.95703
▁ကူညီ	-9.95704
▁၉	-9.95705
▁မော်ဒယ်နံပါတ်။	-9.95725
▁ဖော်ပြ	-9.95755
ပုဂ္ဂိုလ်	-9.95853
▁သေဆုံး	-9.95877
▁250	-9.95937
▁မြေပုံ	-9.9594
ray	-9.95951
▁နမူနာ	-9.9597
▁ဆုံးဖြတ်	-9.96022
▁ဖြစ်နိုင်	-9.9604
▁အောင်မြင်	-9.9606
ating	-9.96068
ပြန်လည်သုံးသပ်	-9.9608
လိုအပ်ချက်များ	-9.96121
sen	-9.96122
▁ယာကုပ်	-9.96124
gr	-9.96171
Ma	-9.96199
▁သင့်ရဲ့	-9.96218
WS	-9.96221
ချည်	-9.9623
ous	-9.96267
TS	-9.96303
မရှိဘဲ	-9.96345
၂၄	-9.96349
Hebei	-9.96352
မုန်း	-9.9636
▁ရန်ကုန်	-9.96384
read	-9.96396
အရပ်၌	-9.96398
မော်	-9.9641
▁အဲဒါက	-9.96431
ကြိမ်နှုန်း	-9.96459
ငှက်	-9.96504
ye	-9.96526
သေးငယ်တဲ့	-9.96558
ရောနှော	-9.96597
EC	-9.9667
စ္စ	-9.96694
အသက်ကို	-9.96715
အရာရှိ	-9.9674
န်ဆောင်မှုများ	-9.96766
အညွှန်း	-9.9677
ဝိညာဉ်တော်	-9.96778
သရုပ်ဆောင်	-9.96815
ဇေ	-9.96825
ငှါ	-9.9683
အဆင့်မြင့်	-9.96836
သားတို့သည်	-9.96839
က္က	-9.96903
ire	-9.96951
▁Holmes	-9.96954
ကမ်း	-9.96985
ပြောင်းလဲမှု	-9.96986
တင်ပို့	-9.96987
▁ကမ္ဘာကြီး	-9.97017
ric	-9.97041
▁ပို့	-9.97056
ဖွင့်လှစ်	-9.97152
စပါး	-9.9717
ဆာဗာ	-9.97193
အခွန်	-9.97215
မွတ္	-9.97221
bl	-9.97237
▁key	-9.97243
▁ရုပ်	-9.97316
▁အပင်	-9.97326
▁ထိုသူသည်	-9.97361
▁Zaw	-9.97397
ea	-9.97403
ပျံ	-9.97424
▁Hu	-9.97428
သောသူတို့	-9.97535
▁ပူးပေါင်း	-9.97552
cal	-9.97554
BA	-9.9758
▁You	-9.97663
ဇုန်	-9.97714
▁Si	-9.97715
နိုင်တယ်	-9.97728
▁သင်ယူ	-9.97734
tter	-9.97765
နိုင်ကြ	-9.97777
ထိုင်ခုံ	-9.97783
ကင်ဆာ	-9.97789
▁Photo	-9.9782
lit	-9.9785
အသုံးပြုသူ	-9.97903
="6	-9.97919
တက်ရောက်	-9.97923
▁သို့ဖြစ်၍	-9.9798
▁ဆက်သွယ်	-9.9805
▁စက်တင်ဘာ	-9.98063
▁နည်းလမ်း	-9.98067
မွန်	-9.98133
▁လွှတ်	-9.98203
စုစည်း	-9.98231
ရမယ်	-9.98237
လိုက်ရင်	-9.98247
MO	-9.98267
▁multi	-9.98366
att	-9.98447
▁Poly	-9.98465
လိုက်ပါ။	-9.98506
ကျပ်	-9.98518
ပုံနှိပ်	-9.98524
အသီးအသီး	-9.9858
တမန်	-9.98635
ပတ်ဝန်းကျင်	-9.98682
ခဲ့ပါသည်။	-9.98717
ပါမယ်။	-9.98725
800	-9.98728
ကြိမ်	-9.98779
▁နေ့စဉ်	-9.98792
သံလိုက်	-9.98801
▁ဘုရားသခင်ကို	-9.98817
▁ဖေဖေါ်ဝါရီလ	-9.98825
နေအိမ်	-9.98825
နိုင်ပြီး	-9.98879
သငျသညျ	-9.98907
ဟူ	-9.98919
စည်	-9.98933
▁အဆင့်	-9.98944
ဆရာဝန်	-9.98949
300	-9.9895
န့်အသတ်	-9.98978
ပါလိမ့်မယ်	-9.99022
စာရေး	-9.99057
ငြိမ်	-9.99173
အထောက်အပံ့	-9.99183
အတန်း	-9.99198
အရာကို	-9.99226
▁di	-9.99265
အရည်အသွေးမြင့်	-9.99273
ရလိမ့်မည်။	-9.99365
ပေမယ့်	-9.99386
▁အာရုန်	-9.99388
စို	-9.99408
▁သင်္ဘော	-9.99448
ပါစေသော။	-9.99597
ale	-9.99601
▁အာရှ	-9.99616
သားသမီး	-9.99618
ရှင်းလင်း	-9.9962
ကောက်ခံရေး	-9.99624
ခိုင်း	-9.99636
မဟုတ်ဘူး။	-9.99643
တေး	-9.99648
9001	-9.99722
▁သေချာ	-9.99733
ral	-9.99771
▁ဗီဒီယိုများ	-9.9978
စာမေးပွဲ	-9.998
▁setting	-9.99808
ull	-9.99816
ပလပ်စတစ်	-9.99859
ပတ္	-9.99884
နှံ	-9.99938
ဖြစ်ပျက်	-9.99954
ပေးဆောင်	-9.99963
▁ပြောပြ	-9.99972
မီးဖို	-9.99976
▁WordPress	-10.0001
၂၁	-10.0001
ark	-10.0001
နှစ်ဦးစလုံး	-10.0001
မွေးဖွား	-10.0004
ပင်လယ်	-10.0004
တို႔	-10.0004
▁File	-10.0007
ISO	-10.0009
▁anti	-10.001
▁ဇန်နဝါရီလ	-10.0014
▁ကၽြန္ေတာ္	-10.0017
ကြည်	-10.0018
▁etc	-10.0018
ခါး	-10.0022
တန်ဖိုး	-10.0024
ile	-10.0025
ကျင့်	-10.0027
ပြည်၌	-10.0029
iz	-10.0032
▁120	-10.0038
▁Led	-10.0046
▁သို့သော်လည်း	-10.0047
▁လေဆာ	-10.0048
▁သုံးစွဲ	-10.0051
▁တွေ့ရှိ	-10.0053
▁စကားပြော	-10.0055
▁ထိုသူတို့	-10.0055
▁မီးရှို့	-10.0056
page	-10.0062
အကောင့်	-10.0063
ထိုက်	-10.0065
▁အဖြေ	-10.0066
နွေဦး	-10.0067
ဖွံ့ဖြိုးတိုးတက်	-10.0068
နို့	-10.0068
အကွောငျး	-10.0069
▁အမျိုး	-10.0071
▁86	-10.0079
တို့၊	-10.0084
နော	-10.0088
▁ကျွန်တော်က	-10.0091
▁တာဝန်	-10.0098
▁ဓာတ်ပုံ	-10.01
ပြိုင်ပွဲ	-10.0101
ပြည်သား	-10.0103
မြန်မာ	-10.0104
ဘိုးအင်း	-10.0105
မတိုင်မီ	-10.0105
အစီရင်ခံစာ	-10.0108
PM	-10.0109
ဓါတ်	-10.0112
▁tools	-10.0113
သမ္မတ	-10.0115
ပိုင်ဆိုင်	-10.0118
▁ဝမ်းမြောက်	-10.0121
fin	-10.0124
တပ်ဆင်ထား	-10.0125
▁ခပ်သိမ်းသော	-10.0127
ကျက်	-10.013
စွန့်	-10.0132
မှုတ်	-10.0133
ရှောင်	-10.0133
ခဲ့တာပါ။	-10.0136
ဟုဆို	-10.0136
ပံ့ပိုး	-10.0137
ဖွံ့ဖြိုးရေး	-10.0141
ေနရာ	-10.0142
အာရုံ	-10.0143
▁တတိယ	-10.0144
ပါမည်။	-10.0146
▁ကင်မရာ	-10.0149
ကြမ်းပြင်	-10.0149
လပ်	-10.015
▁ကျန်	-10.015
သီးခြား	-10.015
ယဉ်	-10.015
ef	-10.0151
တစ်နှစ်	-10.0153
▁လုပ်ဖို့	-10.0156
ခုနစ်	-10.0158
▁update	-10.0163
သိမ်းဆည်း	-10.0164
စခန်း	-10.0167
ကိရိယာများ	-10.0171
▁ဘယ်လောက်	-10.0171
ization	-10.0171
▁ကျပ်	-10.0177
▁custom	-10.0182
ချေး	-10.0185
▁ဟေ	-10.0185
▁ပရိသတ်	-10.0185
▁Metal	-10.019
ခြေလှမ်း	-10.0191
▁၎င်း၏	-10.0194
▁Lin	-10.0195
▁သို့ရာတွင်	-10.0195
2006	-10.0195
▁Online	-10.0199
▁ခရစ်တော်	-10.0199
▁သြဂုတ်	-10.02
▁ပြန်လည်သုံးသပ်	-10.0207
စူပါ	-10.021
အလျား	-10.021
မီးအိမ်	-10.0219
သင်သည်	-10.022
ကြော်ငြာ	-10.0221
ခဲ့ကြတယ်။	-10.0222
ဘက်ထရီ	-10.0223
စာရွက်	-10.0225
▁switch	-10.0231
▁တွေး	-10.0237
ဘုံ	-10.0237
အင်တာနက်	-10.0245
box	-10.0249
စကားလုံး	-10.025
▁ထံမှ	-10.0252
RA	-10.0255
▁ဖြစ်စေ	-10.0262
ဆုံးဖြတ်	-10.0264
မျက်နှာဖုံး	-10.0265
ခဲ့ပါတယ်	-10.0269
အင်္ဂါ	-10.027
ဆိုင်ကလုန်း	-10.0272
\	-10.0273
▁Machinery	-10.0275
လုပ်ဆောင်ချက်	-10.0275
▁ထိုကဲ့သို့သော	-10.0276
feed	-10.0276
fish	-10.0277
CI	-10.0278
ven	-10.0279
▁Per	-10.0281
600	-10.0285
အချင်း	-10.0285
FC	-10.0286
▁အီရန်	-10.0289
မြင့်မား	-10.0292
အင်အား	-10.0292
mu	-10.0292
▁တခု	-10.0299
ပြီးသား	-10.0301
ဟူသော	-10.031
ထူးခြားတဲ့	-10.0314
မျှော်လင့်	-10.0316
သူနာပြု	-10.0316
▁2008	-10.0322
▁Rule	-10.0324
ပုဂ္ဂိုလ်ရေး	-10.0326
5.5	-10.0329
CT	-10.0329
€	-10.0333
ND	-10.0334
ဒ္	-10.0336
မေတ္တာ	-10.0337
▁ကျွန်မက	-10.0339
mar	-10.0339
အစာရှောင်	-10.034
လောင်းကစား	-10.0341
▁အက်	-10.0346
▁Lighting	-10.0346
uck	-10.0349
တွေ့ရှိ	-10.0356
▁Po	-10.0359
▁2000	-10.037
150	-10.0374
ခြံ	-10.0375
အဖြူ	-10.0375
TI	-10.0376
ဖြစ်စေ၊	-10.0377
▁ဟို	-10.0378
သိပ္ပံ	-10.0381
▁ထိုကြောင့်	-10.0382
တဘက်၌	-10.0383
▁Cheats	-10.0384
ano	-10.039
နန်	-10.0391
လွှာ	-10.0393
နေဆဲ	-10.0397
ဆော့ဖ်ဝဲ	-10.0402
▁ကျင့်	-10.0405
▁ဘက်ထရီ	-10.0409
ali	-10.0413
▁လိုင်း	-10.0413
အပြည့်အဝ	-10.0416
▁ဒီဂရီ	-10.0416
▁not	-10.0417
လူဦးရေ	-10.0417
ထိန်းသိမ်း	-10.0421
▁ဤတွင်	-10.0423
သတိပေး	-10.0424
ဖော်ထုတ်	-10.0425
▁ဖုန်မှုန့်	-10.0434
EA	-10.0438
ကျွေး	-10.0443
ls	-10.0446
တကယ်	-10.0449
1%80%	-10.045
ship	-10.0453
ဥယျာဉ်	-10.046
▁ပြန်ပြော	-10.0462
[3]	-10.0467
တိုက်ပွဲ	-10.0469
အပြစ်ကို	-10.0477
လော့	-10.0478
▁တိုး	-10.0481
အနုပညာ	-10.0484
▁Pi	-10.0485
▁Player	-10.0486
ယနေ့	-10.0487
yo	-10.0487
ပွင့်လင်း	-10.0489
▁Dr	-10.049
ward	-10.0492
▁အချို့	-10.0492
▁±	-10.0494
ကုန်ထုတ်လုပ်မှု	-10.0496
ဖယ်ရှား	-10.0498
ဟူ၍	-10.0501
uc	-10.0501
▁စက်ရုပ်	-10.0503
▁Min	-10.0505
low	-10.0506
ကွန်တိန်နာ	-10.051
▁default	-10.051
▁[2]	-10.0511
ေဆာင္	-10.0512
3.0	-10.0513
သွားရောက်	-10.0516
post	-10.0517
လိုချင်	-10.0518
▁ယဇ်	-10.0521
▁မျက်စိ	-10.0523
tan	-10.0523
▁ဗဟို	-10.0524
သတိ	-10.0529
▁ဘယ်သူ	-10.0529
▁တရုတ်နိုင်ငံ	-10.053
အဆို့ရှင်	-10.0532
ပြင်ပ	-10.0532
▁Is	-10.0533
▁Du	-10.0534
▁option	-10.0535
ဖွဲ့စည်းပုံ	-10.0538
len	-10.0544
အလိုရှိ	-10.0544
မည်သို့	-10.0546
▁One	-10.0548
အတု	-10.0549
လွှမ်းမိုး	-10.0549
တွေ့မြင်	-10.0549
ပရို	-10.0549
အက္ခရာ	-10.0553
▁ရန်သူ	-10.0557
card	-10.0558
အိုင်တီ	-10.0561
IM	-10.0562
အကူအညီ	-10.0563
အင်္ဂါရပ်များ	-10.0563
စုံစမ်း	-10.0564
▁နိုင်ငံတကာ	-10.0577
▁Pay	-10.0583
ထိရောက်မှု	-10.0589
ju	-10.059
▁Dreadbag	-10.0597
ှာ	-10.0598
စစ်တမ်း	-10.0598
RI	-10.06
ကိုသုံးပါ	-10.0601
အလင်းရောင်	-10.0604
▁ကုန်ကြမ်း	-10.0606
▁ဖြတ်	-10.0607
ost	-10.0611
စိတ္	-10.0612
eg	-10.0612
▁Reader	-10.0613
eat	-10.0615
ပုံရိပ်	-10.0616
တစ်မျိုး	-10.0618
ရှောလမုန်	-10.0619
ပရိုဂရမ်	-10.0619
မြင့်မားသော	-10.0625
အမျိုးသမီး	-10.0637
ယဇ်	-10.0639
လဲဆိုတာ	-10.0639
လျက်နေ	-10.0642
ဆုတ်	-10.0645
မည်သည့်	-10.0646
▁အမွေ	-10.0647
▁May	-10.0647
▁၂၀၁၉	-10.0652
ကဲ့သို့သော	-10.0655
▁ဆက်စပ်	-10.0656
uff	-10.0658
ဂြိုဟ်	-10.0662
▁Service	-10.0663
▁Tagged	-10.0663
သူမ၏	-10.0664
မိုဘိုင်းကာစီနို	-10.0669
ချိုး	-10.0674
မြင်ကွင်း	-10.0674
မီးစက်	-10.0675
▁Fa	-10.0679
ဒုတိယ	-10.068
▁တစ္	-10.0681
▁400	-10.0682
လေ့လာမှု	-10.0684
လှုံ့ဆော်	-10.0685
▁Galaxy	-10.0685
▁acrylic	-10.0685
လက်ရာ	-10.0691
ိတ္	-10.0693
ထုတ်ပေး	-10.0696
လိမ့်မယ်	-10.0697
ကြနှင့်။	-10.0698
▁အောက်တိုဘာ	-10.0698
IA	-10.07
▁တယောက်	-10.0702
▁SMS	-10.0704
▁အချင်းချင်း	-10.0708
ပေါင်းစည်း	-10.0708
▁ဖက်စ်	-10.0709
TO	-10.0712
မည္	-10.0712
တတ်နိုင်	-10.0713
▁အီလက်ထရောနစ်	-10.0714
ပြင်း	-10.0714
ကြေညာ	-10.0715
SI	-10.0718
LA	-10.0721
ပန်	-10.0726
ရသည်။	-10.0726
▁အရည်	-10.0727
ဆန့်ကျင်	-10.073
▁NO	-10.0733
စနစ်က	-10.0733
▁CS	-10.0734
▁Maung	-10.0736
▁ထိုအ	-10.074
ဘေ	-10.0742
▁Inter	-10.0742
ရကြမည်။	-10.0743
အီး	-10.0744
စောင့်ရှောက်ရေး	-10.0745
▁Slots	-10.0746
တည္	-10.0747
တိုင္း	-10.0748
▁more	-10.0756
တိုက်ခိုက်	-10.0757
900	-10.0758
▁PP	-10.0761
ဖက်ရှင်	-10.0762
လေထု	-10.0765
vel	-10.0772
▁ကျင်းပ	-10.0773
▁was	-10.0773
▁access	-10.0774
▁data	-10.0775
▁IC	-10.0784
မိတ်ဆက်	-10.0786
ထပ္	-10.0787
▁ဆုတောင်း	-10.0788
သူတို့၏	-10.0789
▁ကျွန်မတို့ရဲ့	-10.0794
ခပ်	-10.0796
MS	-10.0799
နေ့စွဲ	-10.0802
ပျော်စရာ	-10.0803
~	-10.0804
yu	-10.0805
▁တပါးအမျိုးသား	-10.0807
တွ	-10.0809
▁OS	-10.0811
▁San	-10.0811
မြင်ရ	-10.0813
ယောင်	-10.0816
ကျဆင်း	-10.0816
▁ခန္ဓာကိုယ်	-10.0821
▁ဥယျာဉ်	-10.0825
▁အကြီးစား	-10.0826
လက်ကိုင်	-10.0827
▁နိုင်ငံတော်	-10.083
ပျံသန်းမှု	-10.0836
▁ခုနစ်	-10.0837
ကုသ	-10.0841
▁အဝတ်	-10.0846
MI	-10.0853
▁ကျွန်မတို့ဟာ	-10.0857
ဇင်	-10.0857
▁CR	-10.0861
▁DJ	-10.0862
ညွှန်ကြားချက်	-10.0862
▁List	-10.0864
▁0.5	-10.0864
အားလပ်ရက်	-10.0864
▁Tattoos	-10.087
စည်းဝေး	-10.0872
ဦးတည်	-10.0875
ညှိ	-10.0879
ရာဇ	-10.0884
ရည်ရွယ်	-10.0884
မြည်	-10.0887
နိုင်တာ	-10.0887
သက်ဆိုင်	-10.0888
▁၂၀၁၈	-10.0888
ဆီမှာ	-10.0888
ME	-10.0888
▁9:	-10.0889
ဗို	-10.089
အဖုံး	-10.089
ros	-10.0892
ဖြစ်စဉ်ကို	-10.0892
ပုဂ္ဂလိကဂျက်	-10.0892
▁Standard	-10.0909
တူညီတဲ့	-10.0912
LD	-10.0921
▁ေနာက္	-10.0923
▁Je	-10.0924
ခံယူ	-10.0926
ပဋိညာဉ်	-10.0932
700	-10.0935
py	-10.0937
OP	-10.0937
▁Grab	-10.0938
ဗြိတိန်	-10.0938
အိုင်	-10.0941
▁ပုံရိပ်	-10.0942
လုပ်ငန်းများ	-10.0946
▁အမိန့်	-10.0947
မျက်စိ	-10.0948
▁ဆက်သွယ်ရန်	-10.095
ရေးဆွဲ	-10.0955
▁ကျွန်တော့်	-10.0962
ထုံးစံ	-10.0964
ဒေါင်းလုပ်	-10.0965
မေ့	-10.0972
သောအရာ	-10.0978
▁ခြောက်	-10.098
အမြစ်	-10.0981
load	-10.0984
ကြဲ	-10.0989
0.6	-10.0991
စို့	-10.0993
ချပ်	-10.0995
အလတ်စား	-10.1
ဂေါ	-10.1003
အိပ်	-10.1003
▁သခင်ဘုရား	-10.1006
▁မိန်းကလေး	-10.1006
HC	-10.1007
180	-10.101
အုပ်ချုပ်	-10.1015
▁ဧပြီ	-10.1015
ကြဘူး	-10.1015
၎င်းတို့၏	-10.1018
CO	-10.1022
ႀကီး	-10.1023
ရေဒီယို	-10.1023
content	-10.1023
တော်မူမည်။	-10.1024
လျင်မြန်စွာ	-10.1025
ave	-10.1028
နိုင်ရန်	-10.1028
မြူ	-10.103
▁box	-10.1033
DE	-10.1036
▁dis	-10.1041
နောက်ဆုံးပေါ်	-10.1044
ပျံ့နှံ့	-10.1046
▁Log	-10.1047
အခွင့်	-10.1047
rom	-10.1049
ကာတွန်း	-10.1054
bra	-10.1054
▁လူပျို	-10.1055
သကဲ့သို့၊	-10.1057
que	-10.1057
gn	-10.106
ဘုန်း	-10.1065
▁အကြား	-10.1068
ဘင်	-10.1069
exacthacks	-10.1069
ေအာင္	-10.1069
ရည်ညွှန်း	-10.107
ရင်းနှီး	-10.1071
▁get	-10.1072
ရင်ဆိုင်	-10.1072
ခ်င္း	-10.1074
pack	-10.1076
ပေါ်လာ	-10.1083
သိုလှောင်	-10.1089
fu	-10.109
ခြင်းအားဖြင့်	-10.109
ized	-10.109
gan	-10.109
▁မတူ	-10.1094
မွန္	-10.1096
code	-10.1096
zi	-10.1099
ရုပ်တု	-10.11
val	-10.1103
▁ကြောက်ရွံ့	-10.1105
▁တီထွင်	-10.1106
Manufacturer	-10.1112
▁အာမခံ	-10.1115
par	-10.1118
▁ဗာ	-10.1121
ပတ်သက်	-10.1125
ကြုံ	-10.1126
▁တံခါး	-10.1126
ဖြေရှင်း	-10.1126
အရှင်	-10.1129
▁သမ္မတ	-10.113
▁ရောက်လာ	-10.1133
▁Wall	-10.1134
စျ	-10.1135
သက်ရောက်မှု	-10.1138
®	-10.1138
▁Rotary	-10.1138
cor	-10.1139
နံရံ	-10.114
ပုံပြင်	-10.114
ဂျာမန်	-10.114
တည်းဖြတ်	-10.114
ဂီယာ	-10.1141
ချိန်ညှိ	-10.1147
ေရာင္	-10.1148
ကာဗွန်	-10.115
လှန်	-10.1152
နတ်	-10.1157
▁လူတွေကို	-10.1159
ဝက်ဝံ	-10.1162
▁have	-10.1163
ဒီမှာ	-10.1163
ဖျက်ဆီး	-10.1167
သူရဲ	-10.1167
▁Win	-10.117
▁Cha	-10.1174
ဖြစ်ပေါ်	-10.1174
▁ဆေးဘက်ဆိုင်ရာ	-10.1175
အရိပ်	-10.1177
ခန္ဓာ	-10.1183
▁လူများ	-10.1188
အဝတ်အစား	-10.119
စုဝေး	-10.1192
စက်ဘီး	-10.1196
row	-10.1198
▁ရုရှား	-10.12
မှတပါး	-10.1203
▁Ben	-10.1208
ကန့်သတ်	-10.1208
▁ကနေဒါ	-10.1215
သမျှသော	-10.122
▁နောက်ပြီး	-10.1223
ပျော်ရွှင်	-10.1223
Next	-10.1225
hai	-10.1227
ဆေးထိုး	-10.1227
ကျွမ်း	-10.1234
သူ့ကို	-10.1235
ore	-10.1238
ွန်း	-10.1244
မှန်း	-10.1244
comments	-10.1245
တချို့	-10.1245
စမတ်	-10.1251
▁ဖွင့်	-10.1253
ကြွလာ	-10.1254
ပြောပြ	-10.1255
ဆုံးရေးသားချိန်	-10.1256
▁ပြစ်မှား	-10.1257
ဟို	-10.1259
▁စာရေးသူ	-10.1261
▁Cl	-10.1265
ကိုကလစ်နှိပ်ပါ	-10.1265
ble	-10.1266
အဘိဥာဏ်	-10.1267
▁အမြင်	-10.1273
ရှန်	-10.1274
ရှယ်ယာ	-10.1278
ခြမ်း	-10.1279
ရက်သတ္တပတ်	-10.1279
▁wordpress	-10.1279
အကြှနျုပျ	-10.128
ြာ	-10.1281
ထုံး	-10.1282
ခွာ	-10.1282
ဟိ	-10.1283
▁မင်္ဂလာ	-10.1285
▁Oct	-10.1287
ati	-10.1289
ရှာဖွေရေး	-10.129
▁အရပ်	-10.129
▁ပူဇော်သက္ကာ	-10.1291
အော်တို	-10.1297
မြက်	-10.1298
သွေးခုန်နှုန်း	-10.1302
▁drive	-10.1303
▁ယဉ်ကျေးမှု	-10.1304
2017	-10.1304
ေရာက္	-10.1304
▁so	-10.1306
မရနိုင်	-10.131
▁ခရီး	-10.1314
▁အေ	-10.1316
▁လွန်	-10.1316
ခွ	-10.1321
ဇာတိ	-10.1321
▁အပါအဝင်	-10.1322
ကုန်ပစ္စည်းများ	-10.1326
တယ်ဆိုရင်	-10.1327
▁များစွာသော	-10.1332
▁မျက်	-10.1333
▁0.1	-10.1336
ဝန်း	-10.1338
ခရို	-10.1339
ဒြပ်	-10.1344
TP	-10.1345
ရွှေ့	-10.1346
ari	-10.1347
ကမ္ဘာလုံးဆိုင်ရာ	-10.1348
▁slots	-10.1348
ပူဇော်	-10.1349
▁Micro	-10.1349
ဆွေးနွေး	-10.1351
version	-10.1351
တီဗီ	-10.1351
▁Pri	-10.1353
မား	-10.1359
side	-10.1361
လိမ့်	-10.1366
ဆောက်လုပ်ရေး	-10.1367
▁Cr	-10.137
လာခဲ့	-10.1371
get	-10.1372
ဒေသခံ	-10.1372
အခွင့်အလမ်း	-10.1373
▁non	-10.1377
▁အတိအကျ	-10.138
ဗန်	-10.1391
သင့်ရဲ့	-10.1395
နန်း	-10.1396
▁ျမန္မာ	-10.1397
▁Professional	-10.1397
ရွေးကောက်ပွဲ	-10.1398
▁တခြား	-10.1399
▁ဇာတ်လမ်း	-10.14
list	-10.14
ဆန်းသစ်	-10.14
မှတ်မိ	-10.1403
ane	-10.1406
ဗဟို	-10.1408
အမှုအရာ	-10.1412
0.3	-10.1415
▁အကျွန်ုပ်၏	-10.1419
▁Tablet	-10.1421
ယူပြီး	-10.1421
▁စစ်တိုက်	-10.1421
▁ဆောင်ခဲ့	-10.1427
ကျွမ်းကျင်မှု	-10.1428
ငြိမ်း	-10.143
MT	-10.143
▁အတူတူ	-10.1433
▁ဖိအား	-10.1434
ဆက္	-10.1435
▁စီးတီး	-10.1437
screen	-10.1444
▁အပိုဆု	-10.1444
အရှိန်	-10.1447
▁70%	-10.1451
▁ဖွင့်	-10.1452
ႏွ	-10.1453
SL	-10.1454
ဝတ်စုံ	-10.1454
▁မြ	-10.1455
▁Ac	-10.1456
▁လွတ်လပ်	-10.1459
▁ကယ်တင်	-10.146
▁ယုဒ	-10.1463
▁စမ်းသပ်မှု	-10.1464
သည်လည်း၊	-10.1464
▁Ji	-10.1466
အာရှ	-10.1466
-15	-10.1472
ကုန်သွယ်ရေး	-10.1472
▁Cable	-10.1473
သူငယ်ချင်း	-10.1476
လူ့	-10.1482
▁အလွှာ	-10.1483
တရားဝင်	-10.1483
ကူးစက်	-10.1484
▁EM	-10.1485
သောအမှု	-10.1485
ခို	-10.149
လေ့ကျင့်	-10.1491
▁Zhejiang	-10.1492
ပွဲစဉ်	-10.1493
ေတာင္	-10.1498
▁Cam	-10.1499
ဒေသများ	-10.1505
▁Big	-10.1506
အကျယ်	-10.1507
▁လျှောက်လွှာ	-10.1511
ရိုင်း	-10.1512
ဆင်ခြင်	-10.1513
ast	-10.1516
သောကြာနေ့	-10.1517
-01	-10.1517
စင်း	-10.1519
ဖြစ်ရပ်	-10.152
ချက်တွေ	-10.1523
▁အာဏာ	-10.1525
မောင်	-10.1525
ထုပ်	-10.1527
ကြီးမား	-10.153
အချက်အလက်	-10.1535
အင်္ဂလိပ်	-10.1535
ဗိသုကာ	-10.154
▁Bitcoin	-10.154
တားဆီး	-10.154
▁Electronic	-10.1541
▁chip	-10.1543
▁ကိုယ့်	-10.1543
url	-10.1547
ဈေးကွက်	-10.155
ထ၍	-10.1551
phone	-10.1552
မိုက်	-10.1552
၀င်	-10.1555
ဆုံးဖြတ်ချက်	-10.1558
▁သီချင်း	-10.1563
ယ်ယူပို့ဆောင်ရေး	-10.1565
လုံးကို	-10.1565
other	-10.1567
တွက်	-10.1572
▁Ball	-10.1572
jo	-10.1581
မှုန်	-10.1583
Co	-10.1585
သွားကြ	-10.1587
စွန့်ပစ်	-10.1591
Re	-10.1593
လုံလောက်	-10.1593
qua	-10.1596
ကျား	-10.1597
မြေပုံ	-10.1601
▁ပြဇာတ်	-10.1602
အလုပ်သမား	-10.1603
ခံခဲ့ရ	-10.1606
▁ကျောင်းသား	-10.1609
လက်မှ	-10.1611
mq	-10.1612
▁select	-10.1614
ႏိုင္ငံ	-10.1614
lution	-10.1616
၀င္	-10.1617
▁ဆွေးနွေး	-10.1622
ထားသည့်	-10.1623
▁နှစ်သက်	-10.1628
ကျိန်	-10.1629
▁သံလိုက်	-10.1633
▁Cho	-10.1634
▁ဗိုလ်	-10.1634
▁Medical	-10.1637
ရေစိုခံ	-10.1637
ပရင်တာ	-10.1638
▁သက်သေခံ	-10.1638
အောင်လုပ်	-10.1639
နှစ်ဆ	-10.1644
တာလဲ	-10.1647
စစ်ပွဲ	-10.165
press	-10.1651
ပြဲ	-10.1651
ဇာတ်ကောင်	-10.1652
အိတ်ဆောင်	-10.1654
▁လူမှုရေး	-10.1656
ပြတ်	-10.1659
table	-10.166
၏ဟု	-10.166
ဂဏန်း	-10.1661
စတုရန်း	-10.1662
▁အင်း	-10.1662
new	-10.1665
zip	-10.1667
rt	-10.167
အောက်ပါ	-10.1672
ဆက်စပ်	-10.1674
နင်	-10.1674
အခု	-10.1675
လိုင်စင်	-10.1677
ao	-10.1678
▁သောက်	-10.1679
ဖြောင့်မတ်	-10.168
ဘဲနေ	-10.1683
1.2	-10.1685
အလွယ်တကူ	-10.1686
▁အမေရိကန်ကဒေါ်လာ	-10.1686
ရှိကြ၏။	-10.1686
ပါစေ။	-10.1688
▁အစားအစာ	-10.169
အစိတ်အပိုင်း	-10.1691
ev	-10.1692
PR	-10.1694
ဖြည့်	-10.1696
▁UK	-10.1714
ကုတ်	-10.1717
gre	-10.1717
▁ကြိမ်	-10.1719
သွေး	-10.1729
စာသား	-10.1735
▁600	-10.1735
၂၀၁၄	-10.1738
ေစ	-10.1741
နာမည်	-10.1742
▁ဘာမှ	-10.1754
အကောင်အထည်ဖော်	-10.176
အနေအထား	-10.176
တံတား	-10.176
ကင်	-10.176
▁Fiber	-10.1761
အစားအစာ	-10.1762
0.9	-10.1764
▁ချိတ်ဆက်	-10.1766
emp	-10.1766
▁(20	-10.1767
▁စသည်တို့ကို	-10.1769
▁ထည့်	-10.1773
▁ထိုင်	-10.1775
ရှာတွေ့	-10.1777
မတူ	-10.178
နေသည်။	-10.1786
ဘုရင်	-10.1789
ကုမ္ပဏီများ	-10.179
▁ထိုသို့သော	-10.1792
CM	-10.1799
ေတြက	-10.1799
သက်သက်	-10.1799
▁ရက်နေ့	-10.1804
ကြတာ	-10.1806
ေပၚ	-10.1806
ရာထူး	-10.1809
အထောက်အထား	-10.1809
နဂါး	-10.1809
▁ကောင်းကင်တမန်	-10.181
▁တကယ့်ကို	-10.181
လက်အိတ်	-10.1812
nic	-10.1815
ရတယ်	-10.182
သုံးစွဲ	-10.1821
▁နည်းနည်း	-10.1826
pc	-10.1827
ကြွယ်ဝ	-10.1834
လုပ်ကိုင်	-10.1836
▁Call	-10.1837
▁ဓာတု	-10.1839
ွဲ	-10.1841
▁အီ	-10.1842
▁အစိမ်းရောင်	-10.1843
ဆောက်	-10.1847
လူနာ	-10.1848
ကြီးတွေ	-10.1857
အထည်အလိပ်	-10.1859
▁ဒစ်ဂျစ်တယ်	-10.1861
အကျိုးကျေးဇူး	-10.1863
1.1	-10.1863
အရည်	-10.1866
▁မုန့်	-10.1868
နေရာတွင်	-10.1872
ual	-10.1874
၉၀	-10.1875
▁application	-10.1876
▁မီဒီယာ	-10.1879
တာမျိုး	-10.1884
lar	-10.1885
တောက်	-10.1887
နေတာပါ။	-10.1888
▁မြန်နှုန်း	-10.1892
ထိန်းချုပ်	-10.1892
ဌ	-10.1895
သိကောင်းစရာများ	-10.1896
ညာဘက်	-10.1898
စကားပြော	-10.1899
▁ဟုတ်	-10.1903
ani	-10.1909
▁ခေါင်းစဉ်	-10.1909
အမိန့်	-10.1909
eb	-10.1911
ရောင်ခြည်	-10.1915
ကြို	-10.1915
ကုန်သွယ်မှု	-10.1917
ပွတ်	-10.1921
era	-10.1928
▁ပေါင်	-10.1931
▁Ke	-10.1931
24.	-10.1932
အလုပ်အကိုင်	-10.1934
အတိုင်းအတာ	-10.1935
ဆီသို့	-10.1936
အကြားအမြင်ရ	-10.1937
▁ပြင်ပ	-10.1938
မည်နည်း။	-10.1939
▁Cap	-10.1943
▁အီတလီ	-10.1944
head	-10.1946
gy	-10.1946
ping	-10.1948
ရလဒ်	-10.1949
van	-10.1951
▁၁၇	-10.1951
lot	-10.1953
▁လူမီနီယမ်	-10.1955
ဇာတ်လမ်း	-10.1955
▁ပြန်လာ	-10.1958
ဴ	-10.1959
▁Auto	-10.196
▁125	-10.196
မရှိဘူး	-10.196
ႈ	-10.1961
ဟော်မုန်း	-10.1963
▁ညှဉ်းဆဲ	-10.1974
▁အလားတူ	-10.1975
သောကြောင့်	-10.1978
နိုင်ခဲ့	-10.198
သတိထား	-10.198
▁ဓာတ်	-10.1983
နှငျ့	-10.1984
ခိုင်ခံ့	-10.1984
ရွှင်လန်း	-10.1984
▁SARS	-10.1984
[2]	-10.1987
ညွှန်ပြ	-10.1987
▁ဆာ	-10.1989
▁ဣ	-10.199
ထက္	-10.1991
လေးတွေ	-10.1993
မော်ဒယ်များ	-10.1997
▁ပြုပြင်	-10.1997
sis	-10.1999
▁set	-10.2003
ဆက်သွယ်ရေး	-10.2003
▁လူမှု	-10.2004
▁မော်တော်	-10.2006
▁At	-10.2008
ကော်မရှင်	-10.2008
á	-10.201
▁ပိုး	-10.201
ခံနိုင်ရည်	-10.201
လျှော့	-10.2014
ထိခိုက်	-10.2014
eek	-10.2014
ris	-10.2016
▁သတင်းအချက်အလက်	-10.2016
▁မိဘ	-10.2019
VI	-10.2021
ကေတာ့	-10.2025
ဆဲလ်	-10.2028
tur	-10.2032
▁220	-10.2033
အခြားသူများ	-10.2035
▁Indicator	-10.2035
ုတ္	-10.2037
▁ဆဲလ်	-10.2037
▁type	-10.2038
လာတယ်။	-10.204
မေးမြန်း	-10.204
▁ပျက်စီး	-10.204
ခေါင်းစဉ်	-10.2043
▁20%	-10.2048
▁ကီလိုမီတာ	-10.205
▁Har	-10.2052
▁Aung	-10.2054
က်ဘ်ဆိုက်	-10.2057
မိမိ	-10.2059
သတ္တဝါ	-10.206
အော်ဟစ်	-10.206
▁Store	-10.2062
ED	-10.2064
ဒန်	-10.2067
▁ကမ်းလှမ်းမှု	-10.2072
OS	-10.2073
heng	-10.2078
▁အိုင်	-10.2079
ရီးယား	-10.2079
မော်တော်ယာဉ်	-10.208
▁၁၆	-10.2083
သန့်ရှင်း	-10.2085
rate	-10.2086
အထူ	-10.2087
ထုတ္	-10.2093
အခမဲ့ဒေါင်းလုပ်	-10.2094
▁၁၄	-10.2098
▁ရုံး	-10.2101
▁တက္ကသိုလ်	-10.2101
▁Block	-10.2102
တတ်ကြ၏။	-10.2104
▁ရေခဲသေတ္တာ	-10.2104
သင်က	-10.2108
လိုက်တဲ့	-10.2109
စက္	-10.211
▁ဘာဖြစ်	-10.211
မာရိ	-10.2111
အမြတ်	-10.2111
အစွမ်းသတ္တိ	-10.2112
အနေဖြင့်	-10.2112
ပေမယ့်	-10.2112
တူး	-10.2114
▁(6	-10.2115
3.5	-10.2119
စလုံး	-10.212
▁နံပါတ်	-10.2121
▁Dis	-10.2126
▁Un	-10.2127
ကျွန်တော်	-10.2127
လောင်စာ	-10.2129
▁ပြည်တွင်း	-10.213
မျိုးကို	-10.213
ေရာ	-10.2134
ted	-10.2136
ကိုယ်စားပြု	-10.2138
▁Stock	-10.2138
ade	-10.2141
lle	-10.2142
▁Bar	-10.2143
နားမှာ	-10.2144
ချာ	-10.2149
▁နိုဝင်ဘာ	-10.2153
ကျေးဇူးတင်ပါတယ်	-10.2154
▁မကြာခဏ	-10.2158
▁ဗိမာန်တော်	-10.2159
AM	-10.2159
လေ့	-10.2162
ဆောင်းပါး	-10.2162
▁Blackjack	-10.2163
▁Humidifier	-10.2163
▁ထို့အပြင်	-10.2163
kin	-10.2168
AA	-10.2175
လုံးဝ	-10.2182
▁Chi	-10.2182
RC	-10.2184
SM	-10.2188
PL	-10.2188
▁Skype	-10.2189
တမ်း	-10.22
▁မှတ်ချက်များ	-10.2201
ယှဉ်ပြိုင်	-10.2202
ract	-10.2203
▁cockpit	-10.2214
RO	-10.2215
သားတို့	-10.2216
▁LLC	-10.2219
▁ဖောက်သည်	-10.2219
အသိပညာ	-10.2219
ဂီ	-10.2226
မဟုတ်ပါဘူး	-10.2228
▁Mr	-10.2229
▁ရှုပ်ထွေး	-10.223
▁အီး	-10.223
▁Best	-10.2231
သက်ရောက်	-10.2232
ဆံ	-10.2235
ိမ်	-10.2239
▁months	-10.224
အဖေ	-10.2241
▁ျဖစ္	-10.2244
IP	-10.2251
450	-10.2258
▁၁၁	-10.2259
▁နောက်ပိုင်း	-10.226
အဲဒီ	-10.2265
▁ဂျ	-10.2265
ဃ	-10.2266
JP	-10.2272
PT	-10.2272
ခဲ့သည့်	-10.2273
နှိုး	-10.2274
အဆွေအမျိုး	-10.2274
ကျောင်းသားများ	-10.2276
▁Tue	-10.2277
ညွှန်း	-10.2278
▁interface	-10.2292
▁ထိုင်း	-10.2298
လ္	-10.2301
▁ရှေ့တော်၌	-10.2305
▁ဆေးဝါး	-10.2306
တို႕	-10.2306
သင်း	-10.2309
ring	-10.2311
▁အပြင်	-10.2311
ခေတ်သစ်	-10.2311
၂၆	-10.2315
သိုလှောင်မှု	-10.2319
▁လမ်းကြောင်း	-10.2319
▁SP	-10.232
မြှင့်တင်	-10.232
▁အာဖရိက	-10.2321
▁output	-10.2322
soft	-10.2324
တော်မူ၍၊	-10.2329
မှုနှုန်း	-10.2331
တည်နေရာ	-10.2332
ည့်	-10.2333
၈၀	-10.2338
ကိုအသုံးပြု	-10.2344
▁Global	-10.2344
▁Program	-10.2345
တုန်း	-10.2345
ပေါ့၊	-10.2348
စာချုပ်	-10.2348
▁အဓိပ္ပါယ်	-10.2349
▁ပြည်သူ့	-10.235
▁အဘယ်သူမျှ	-10.2352
မေးခွန်းများ	-10.2352
လိမ့်မယ်။	-10.2355
လေတပ်	-10.2357
▁file	-10.2359
ဝိ	-10.236
▁Fri	-10.2363
သဖြင့်	-10.2366
wa	-10.2366
ရည်မှန်းချက်	-10.237
▁PTFE	-10.237
ound	-10.2371
တွေထဲက	-10.2372
▁အောက်ပါ	-10.2372
ဖွဲ့စည်းတည်ဆောက်	-10.2373
လှုပ်	-10.2374
▁Check	-10.2375
▁နှုတ်ကပတ်တော်	-10.2377
▁အမျိုးမျိုး	-10.2379
အဘယ်အရာကို	-10.2379
▁မိုင်	-10.2381
အလွှာ	-10.2382
ပညာရှင်များ	-10.2382
▁ချမ်းသာ	-10.2383
▁VC	-10.2385
သိတင်း	-10.2386
ဗိ	-10.2389
▁သင်ဟာ	-10.2393
▁	-10.2393
▁Powder	-10.2396
▁ပေါ်လာ	-10.2396
▁ပေါင်းစပ်	-10.2397
ဓ	-10.2397
▁အထူးသဖြင့်	-10.2397
oli	-10.2397
0.8	-10.2398
လောင်းကစားရုံ	-10.2399
ပျော့	-10.2399
▁စစ်ဆေး	-10.2401
ကြည့်ဖို့	-10.2401
ank	-10.2404
▁ဟိုတယ်	-10.2404
ဝိုင်	-10.2405
ome	-10.2406
ပေါင်	-10.2409
မိတ္တူ	-10.2423
ပုံး	-10.243
gar	-10.243
သဘောတူ	-10.2437
ဆင်းရဲ	-10.2437
▁Yu	-10.2438
လေ့ကျင့်ရေး	-10.2441
▁ကိုစာနယ်ဇင်း	-10.2449
bro	-10.2453
▁နေရောင်ခြည်	-10.2455
ကွက်များ	-10.2455
စောင်း	-10.2466
▁ဒေသ	-10.2466
▁အောက်မေ့	-10.2467
ခိုင်	-10.2468
အံ့သောငှါ	-10.2475
ခန္ဓာကိုယ်	-10.2476
▁coated	-10.2477
▁Products	-10.2478
▁Cheat	-10.2479
ကောလိပ်	-10.2479
နေကြသည်	-10.2488
ဝတ္ထု	-10.249
ျခား	-10.2493
▁ဘီလီယံ	-10.2494
▁အချက်အလက်	-10.2497
သိုး	-10.2502
လှံတံ	-10.2502
ကာလ၌	-10.2504
▁သက်	-10.2506
အစုံ	-10.2507
▁အချင်း	-10.2511
▁အိုး	-10.2513
▁ဇွန်	-10.2515
▁comp	-10.2517
▁မက်	-10.2517
ခြင်းဖြင့်	-10.2522
▁Tri	-10.2522
▁အရောင်း	-10.2526
ခြင်းငှါ၊	-10.2528
အဆက်အသွယ်	-10.2529
တက်ဘလက်	-10.2529
ကန့်သတ်	-10.2529
ဖုံးလွှမ်း	-10.2529
▁ယဇ်ပလ္လင်	-10.2529
ကျတဲ့	-10.2533
ခလုတ်	-10.2535
၁၂	-10.2536
ပျက်စီး	-10.2536
St	-10.2536
▁အပြည့်အဝ	-10.2538
0.7	-10.254
▁အကြောင်းပြချက်	-10.2544
OD	-10.2551
▁အကယ်စင်စစ်	-10.2555
▁သက်ရောက်မှု	-10.2562
▁ဝန်ခံ	-10.2566
ဖြစ်နိုင်ခြေ	-10.2567
▁အစိတ်အပိုင်း	-10.2571
လှမ်း	-10.2572
လေ့ရှိ	-10.2573
င့္	-10.2574
▁၅၀	-10.2578
cap	-10.258
အပြန်အလှန်	-10.2582
▁android	-10.2582
▁ထွက်သွား	-10.2583
▁မိခင်	-10.2585
နိမ့်	-10.2588
အပ်နှံ	-10.2588
ကြိုဆို	-10.2589
အောက်စီဂျင်	-10.2592
ထိုင်း	-10.2595
အသုံး	-10.2596
▁ရောင်း	-10.2606
▁အိမ်ခြံမြေ	-10.2608
▁နေရပ်လိပ်စာ	-10.2609
▁???	-10.261
နိုင်သည့်	-10.2611
မတွေ့	-10.2611
ဘို	-10.2615
ရာအရပ်	-10.2617
▁စာနယ်ဇင်း	-10.2617
▁50%	-10.2623
သတ်မှတ်မည်	-10.2625
နီးကပ်	-10.2626
TR	-10.263
ration	-10.263
ဘက္	-10.2632
ရိတ်	-10.2633
▁extension	-10.2636
▁World	-10.2636
မှောင်မိုက်	-10.2636
ပိုင်ဆိုင်မှု	-10.2637
="7	-10.2637
CH	-10.264
အထူးသဖြင့်	-10.2641
▁Drive	-10.2642
vin	-10.2642
▁Red	-10.2648
လျင်	-10.2651
စာနယ်ဇင်း	-10.2655
ကျိုးသက်ရောက်မှု	-10.2658
▁သိပ်ကို	-10.2658
သုည	-10.2659
သတ်မှတ်ချက်	-10.2661
ကျဉ်း	-10.2662
ညှိနှိုင်း	-10.2663
▁အိုထာဝရဘုရား၊	-10.2663
0.4	-10.2667
လုပ်ခြင်း	-10.2681
▁ဒါတွေကို	-10.2682
တူရိယာ	-10.269
လေကြောင်းလိုင်း	-10.269
0.5	-10.2692
▁Bible	-10.2697
▁applications	-10.2698
အဆောက်အဦ	-10.27
၅၀	-10.2705
လူသိများ	-10.271
PP	-10.2717
ခြောက်သွေ့	-10.2717
▁display	-10.2717
လက်ခံရရှိ	-10.2724
ထိရောက်	-10.2729
အက်စ်	-10.2733
1000	-10.2733
▁အသက်ကြီး	-10.2737
▁အိပ်မက်	-10.274
▁ယုဒပြည်	-10.2743
မျှဝေ	-10.2743
ခန့်မှန်း	-10.2743
လန်ဒန်	-10.2745
ပွဲတော်	-10.2748
spot	-10.2749
▁Tu	-10.2754
ကိုယ်စားလှယ်	-10.2756
▁အကြံပေး	-10.2757
ဖေါ်	-10.2758
၂၂	-10.2759
ကြွင်း	-10.2763
▁မိုဘိုင်းဖုန်း	-10.2763
တွက်ချက်	-10.2764
အသုံးပြုနိုင်	-10.2765
ထွေး	-10.2771
▁Buy	-10.2771
ကျမ်းစာ	-10.2772
ကောင်းကြီးပေး	-10.2773
ဗျာ။	-10.2776
round	-10.2777
သာမက	-10.2777
ၾကည့္	-10.2778
မှတ်တမ်းတင်	-10.2779
▁North	-10.2779
အမျိုးအစားများ	-10.2782
▁Top	-10.2783
၃၀	-10.2786
ဟင်း	-10.2786
အစီအစဉ်များ	-10.2794
▁၄၀	-10.2798
ဖွား	-10.2799
▁မျှဝေ	-10.28
အမြန်နှုန်း	-10.2801
ပြောတာက	-10.2802
ရုပ်ရှင်ပွဲတော်	-10.2803
▁စပိန်	-10.2809
cket	-10.281
ၿ	-10.2814
men	-10.2816
ကြီးစွာသော	-10.2818
သုံးစွဲဖို့	-10.2821
ခိုလှုံ	-10.2826
▁ပြန်စစ်ပြီး။	-10.2826
▁Dust	-10.2828
▁Office	-10.2829
▁downloads	-10.2833
ock	-10.2835
ition	-10.2835
GO	-10.2835
▁အရှင်	-10.2839
▁လူတို့	-10.2839
▁မိတ်ဆက်	-10.2839
▁ယေရှု	-10.2841
▁ရောင်းရန်	-10.2842
▁Hyperbaric	-10.2846
ထားတယ်။	-10.2846
▁၁၃	-10.2848
လျာ	-10.2848
ise	-10.2851
rm	-10.2852
ဝန်းကျင်	-10.2853
ဆက်လက်	-10.2853
▁Instagram	-10.2853
ပုလွေ	-10.2853
ရပ်ကွက်	-10.2855
ကယ်တင်	-10.2856
က်သ	-10.2857
လုပ်နိုင်	-10.2857
ယမ်	-10.2859
လက်စွပ်	-10.286
အုပ်ချုပ်ရေး	-10.286
ပိတ်ချော	-10.2861
တယ်လေ။	-10.2862
အသုံးပြုသည်။	-10.2867
ကျေနပ်	-10.2868
cial	-10.287
ဆေးဝါး	-10.2872
လိင်	-10.2876
ပါလိမ့်မယ်။	-10.2876
မလဲ။	-10.2881
မှတ်သား	-10.2881
ချောမွေ့	-10.2881
နှိုးဆော်	-10.2881
▁Solutions	-10.2881
▁ဒီဂရီစင်တီဂရိတ်	-10.2881
▁SITE	-10.2881
▁ပြည်ထောင်စု	-10.2883
dom	-10.2883
ification	-10.2886
တစုံတခု	-10.2888
▁ကု	-10.2889
▁သာ၍	-10.289
▁28,	-10.2891
ier	-10.2896
Pro	-10.2901
▁ကျွမ်းကျင်သူ	-10.2903
▁အချက်	-10.2905
2.1	-10.2909
▁အရှင်ထာဝရဘုရား	-10.2909
ေျပာင္း	-10.2912
sign	-10.2913
mes	-10.2915
▁ကြိုတင်	-10.2915
▁ဆုံးမ	-10.2916
ဘဝကို	-10.2919
နွေး	-10.2923
တာရှည်	-10.2925
ဘာသာစကားများ	-10.2927
▁မူ၏။	-10.2927
har	-10.2928
သဲ	-10.2931
နားထောင်	-10.2935
ကြိုတင်	-10.2935
ä	-10.2936
ဒေါင်လိုက်	-10.2936
▁၂၀၁၇	-10.2937
နိမ့်ဆုံး	-10.294
အတွက်အကောင်းဆုံး	-10.2942
ထွန်း	-10.2943
▁အစဉ်အမြဲ	-10.2945
berg	-10.2947
ဒါဟာ	-10.2952
yn	-10.2957
ဆိုင္	-10.2958
မဟာဗျူဟာ	-10.2964
ino	-10.2966
ink	-10.2968
ပြင်သစ်	-10.2977
ဟိုတယ်	-10.2978
▁power	-10.2978
▁အနည်းဆုံး	-10.2978
▁အဝေး	-10.2979
▁ထုတ်ဝေ	-10.2981
avi	-10.2981
▁ကုဒ်	-10.2983
လမ်းလျှောက်	-10.2983
၂၇	-10.2984
tru	-10.2985
▁စကားလုံး	-10.2985
cell	-10.2987
▁Start	-10.2991
ဆက်သွယ်မှု	-10.2991
ပြတင်းပေါက်	-10.2992
ျဖ	-10.2993
ဒုစရိုက်	-10.2993
မုန့်	-10.2994
410	-10.2998
ပစ်မှတ်	-10.2999
don	-10.3
rad	-10.3003
ဂရု	-10.3003
▁အခွန်	-10.3004
မြို့သား	-10.3006
နေကြသည်။	-10.3007
▁June	-10.3007
▁နှိပ်	-10.3008
HT	-10.3011
▁Solenoid	-10.302
▁1.5	-10.302
▁ဖိုင်နာမည်	-10.3021
ရှိရာသို့	-10.3022
▁ယောရှု	-10.3023
မကောင်း	-10.3026
ute	-10.3027
ခြင်းမရှိ	-10.3031
▁အသုံးပြုသူ	-10.3034
သည်းခံ	-10.3036
ရင်၊	-10.3039
now	-10.3039
▁ထိုကြောင့်၊	-10.3041
အမှန်	-10.3042
▁စိတ်နှလုံး	-10.3043
မီးဖိုချောင်	-10.3044
▁လုပ္	-10.3046
late	-10.3047
ဟေ	-10.3047
▁Worldwide	-10.3048
free	-10.3052
▁ဣသရေလအမျိုး၏	-10.3052
▁item	-10.3053
▁ပြိုင်ပွဲ	-10.3054
လား၊	-10.3054
▁အနှစ်	-10.3055
ယား	-10.3055
လူအပေါင်းတို့သည်	-10.3055
ဓာတု	-10.3061
ဓါတ်ပုံ	-10.3061
▁ရှေ	-10.3061
▁ဆိပ်ကမ်း	-10.3061
ရိုးရာ	-10.3062
-30	-10.3065
▁ကိရိယာ	-10.3066
သောသူတို့ကို	-10.3075
0.1	-10.3076
а	-10.3076
သင်္ကေတ	-10.3076
အတော်လေး	-10.3078
ရကြ၏။	-10.3079
▁cable	-10.3079
▁ပန်းချီ	-10.3081
▁မှတ်ဉာဏ်	-10.3081
▁Nye	-10.3082
ဖွ	-10.3084
▁စာရွက်	-10.3084
ကျေး	-10.3085
▁El	-10.3086
မဟုတ္	-10.3087
▁Hol	-10.3092
ပြေ	-10.3094
ဆုံးရှုံးမှု	-10.3096
bin	-10.31
ကရုဏာ	-10.3101
ui	-10.3101
eas	-10.3101
လက်နက်	-10.3102
မျဉ်း	-10.3103
ရှေးခယျြ	-10.3104
▁ယောသပ်	-10.3105
▁comments	-10.3109
နည်းလမ်းများ	-10.3112
▁အက်ဆစ်	-10.3114
▁ဗေ	-10.3116
ဤဆောင်းပါး	-10.3119
▁we	-10.3121
▁စက်ပစ္စည်း	-10.3122
ကိ	-10.3127
ျမင္	-10.3132
▁package	-10.3132
▁mod	-10.3134
သိပ္ပံပညာရှင်	-10.3139
ချမ်းသာ	-10.3141
အီးမေးလ်	-10.3148
▁စျေးကွက်	-10.3149
ကြပြီ	-10.316
▁စိုးရိမ်	-10.316
▁ပုံရိပ်တွေ	-10.316
တို့သည်လည်း	-10.3161
ကွေး	-10.3162
အမျိုးအနွယ်	-10.3162
ham	-10.3163
▁Light	-10.3164
▁ငါတို့ကို	-10.3167
ဝှက်	-10.3168
မိုင်	-10.3168
▁ခမည်းတော်	-10.3173
▁ကျနော်	-10.3174
ML	-10.3174
လွှား	-10.3176
▁တစ်ချို့	-10.3182
လာစေ	-10.3185
▁VP	-10.319
နယ်ပယ်	-10.3192
ကာကွယ်ရေး	-10.3195
ုပ္	-10.3197
ဝန်ကြီး	-10.3198
GE	-10.3199
ခွေ	-10.3201
gl	-10.3207
▁29,	-10.3214
မြဲ	-10.3214
▁UHF	-10.3218
ဒေါက်တာ	-10.3218
▁March	-10.3219
ဂျာနယ်	-10.322
၂၀၁၃	-10.3221
tin	-10.3225
▁Ab	-10.3226
type	-10.3226
ထူးဆန်း	-10.3227
တစ်ကြိမ်	-10.3228
ရှင်သန်	-10.3238
▁$1	-10.3239
ဘွယ်	-10.3244
EX	-10.3244
ကျောက်မီးသွေး	-10.3246
ပွင့်	-10.3247
▁ဒီနေရာမှာ	-10.3247
ကျော်ကြား	-10.3248
▁ဇာတ်	-10.3249
ဘု	-10.3251
ဂဟေ	-10.3251
လိုအပ်သော	-10.3252
အကျိုး	-10.3252
▁ညီအစ်ကို	-10.3258
▁Moto	-10.3258
▁Gold	-10.3261
သင်ယူ	-10.3266
af	-10.327
▁ဦးဆောင်	-10.3272
▁Jun	-10.3272
လိုမျိုး	-10.3274
ရာသီဥတု	-10.3275
▁ရှန်ကျန်း	-10.3275
နှင်ထုတ်	-10.3275
ပြန်လာ	-10.328
IF	-10.3282
▁ထာဝရဘုရားအား	-10.3286
3000	-10.3287
ဦးထုပ်	-10.3289
-40	-10.3289
vent	-10.329
8.1	-10.3297
▁ဆက်လက်	-10.3302
ကြိုးပမ်း	-10.3304
စိန်ခေါ်မှု	-10.3304
အများပြည်သူ	-10.3304
ဘောလုံး	-10.3313
သူအပေါင်းတို့သည်	-10.3322
နိုင်သလား	-10.3329
pen	-10.333
ပဋိညာဉ်စာတမ်း	-10.3333
ဖြစ်တော်မူ၏။	-10.3333
▁2.0	-10.3333
ထူထောင်	-10.3335
ဖို႔	-10.3337
ွား	-10.3338
အဘယ်သို့	-10.334
စာစဉ်	-10.3343
Ch	-10.3344
သရုပ်	-10.3345
▁Bill	-10.3347
အာဏာ	-10.3347
▁လေတိုက်	-10.3352
▁သူငယ်	-10.3353
▁၂၀၁၅	-10.3353
ဆိုတာက	-10.3354
ထားပါသည်။	-10.3354
news	-10.3357
ကာလအတွင်း	-10.3359
ö	-10.3361
မာလ်တီမီဒီယာ	-10.3361
▁Qingdao	-10.3361
▁ဖြေ	-10.3363
▁အဲဂုတ္တုပြည်	-10.3367
ကြှနျုပျတို့	-10.3372
▁အာရုံစိုက်	-10.3373
ုန္း	-10.3375
ဝန်ဆောင်မှုများ	-10.3379
4.5	-10.338
ပို့စ်	-10.3382
ြေ	-10.3383
yi	-10.3386
ကိုဆကျသှယျရနျ	-10.339
အပန်းဖြေ	-10.339
▁ABS	-10.3391
စာမျက်နှာများ	-10.3391
▁ခန့်ထား	-10.3395
ကျယ်ပြန့်	-10.3396
အဝတ်ကို	-10.3397
▁အပြာရောင်	-10.34
▁မလုပ်	-10.3403
ထောင့်	-10.3406
တော်မမူ	-10.3408
inder	-10.3412
▁သစ်ပင်	-10.3412
▁ကိုမှို	-10.3414
တွေကနေ	-10.3418
မှန်ဘီလူး	-10.3419
▁Gurgaon	-10.3419
▁VERSION	-10.3419
▁စီမံ	-10.3425
▁Piece	-10.3432
အရှေ့	-10.3435
2016	-10.3443
▁testosterone	-10.3445
COM	-10.3445
(24	-10.3446
တိုင်းမှာ	-10.3446
သည္။	-10.3446
ရေးအဖွဲ့	-10.3448
ေခၚ	-10.3448
▁ပင်မစာမျက်နှာ	-10.3449
စီမံခန့်ခွဲ	-10.3453
ini	-10.3457
▁(2)	-10.3458
ဆင့်	-10.3458
တဲ့အခါမှာ	-10.3458
စက်မှုဇုန်	-10.346
5.0	-10.3466
ဖုန်းကို	-10.3467
မြတ်သော	-10.3471
▁အမြဲတမ်း	-10.3473
မြောက်ပိုင်း	-10.3476
▁BIB	-10.3478
▁Eter	-10.3478
အနိမ့်	-10.3482
▁တဲတော်	-10.3486
စတာ	-10.3491
OC	-10.3497
ကျေးဇူးတင်ပါသည်	-10.3502
မမှန်	-10.3505
anda	-10.3505
{	-10.3507
▁Royale	-10.3507
▁View	-10.3507
▁operating	-10.3507
အဝါရောင်	-10.3507
ရေတွက်	-10.3508
rent	-10.3508
ဇာတ်	-10.3509
▁တွင်လည်း	-10.3509
og	-10.3509
▁Che	-10.3512
ဖြစ်သတည်း။	-10.3519
၌၎င်း၊	-10.352
PD	-10.3522
DI	-10.3522
ခန္း	-10.3523
▁ပျောက်	-10.3527
အလံ	-10.3531
▁မြော်လင့်	-10.3532
uch	-10.3533
▁ရို	-10.3536
ကြတယ်၊	-10.3536
မန်နေဂျာ	-10.3536
ကြလော့ဟု	-10.3537
စတိုးဆိုင်	-10.3537
▁လိပ်စာ	-10.3537
▁Run	-10.354
ဆစ်	-10.354
dia	-10.3543
နေတုန်း	-10.3543
5000	-10.3544
ဘိုးဘေး	-10.3546
သက်သေပြ	-10.3548
▁July	-10.3548
▁ဂုဏ်	-10.355
လမ္း	-10.3552
▁အရက်	-10.3556
သင်တန်းများ	-10.3556
နောက်ထပ်	-10.3558
မူရင်း	-10.3559
ဝမ်းနည်း	-10.3561
လွယ်ကူသော	-10.3561
ဗြိတိသျှ	-10.3566
ဟောင်ကောင်	-10.3566
“	-10.3568
ကင်းလွတ်	-10.3571
လူး	-10.3578
▁ဖွဲ့စည်း	-10.3581
ိန်း	-10.3582
ရှမွေလသည်	-10.3583
320	-10.3588
အညွှန်းကိန်းများ	-10.359
Mo	-10.3595
နှိမ့်ချ	-10.3596
မီးခိုးရောင်	-10.3596
ဟိုက်ဒရောလစ်	-10.3596
▁ကဲ့ရဲ့	-10.3596
▁Crack	-10.3596
▁micro	-10.3597
ျပည္	-10.3598
စပျစ်သီး	-10.3599
▁(1)	-10.3602
ိပ္	-10.3603
▁Val	-10.3606
▁ခေါင်းဆောင်	-10.3606
ဖြစ်သည့်	-10.3607
race	-10.3607
▁သိရှိ	-10.3608
▁Link	-10.3613
တာလဲ။	-10.3618
ich	-10.3618
▁အေး	-10.3621
▁အထွေထွေ	-10.3625
ရေနွေးငွေ့	-10.3625
သြစတြေးလျ	-10.3625
‘	-10.3625
▁gauge	-10.3625
ငံ	-10.3627
ထီ	-10.3628
အပ်ချုပ်	-10.3638
စတား	-10.3638
▁၁၀၀	-10.3638
▁အကူအညီ	-10.3642
▁ဖြေရှင်း	-10.3644
▁ခွေး	-10.3645
သင်တို့ကို	-10.3646
▁မြင်ရ	-10.3647
▁ရော်ဘာ	-10.3647
မောင်းနှင်	-10.365
လျော့နည်း	-10.3651
OL	-10.3651
ခဲ့တာက	-10.3653
ပြည်သို့	-10.3654
▁FM	-10.3656
▁သာမန်	-10.3657
ative	-10.3658
▁လေ့လာမှု	-10.3664
▁၂၅	-10.3666
ဟတ်	-10.3669
တောင်မှ	-10.3672
▁Tech	-10.3673
▁စောင့်ကြည့်	-10.3674
ံု	-10.3677
ပိုင္း	-10.3678
ကျွမ်းကျင်သူ	-10.3678
▁ကွဲပြား	-10.3681
▁ဖေဖော်ဝါရီ	-10.3682
မြေပြင်	-10.3683
ဇ်	-10.3685
ကောင်းမွန်သော	-10.3685
▁Real	-10.3685
ဓား	-10.3685
▁သတိ	-10.3692
ဖဲ	-10.3698
အကြံ	-10.3698
▁လုပ်နိုင်	-10.3699
ရှုံး	-10.37
▁ဆက်သွယ်ရေး	-10.37
မျှမ	-10.3702
▁ပူ	-10.3703
▁ကျမ	-10.3704
cur	-10.3705
▁နာမည်	-10.3706
မျှော်လင့်	-10.3706
▁format	-10.3708
ကုန္	-10.3709
အပေါ်သို့	-10.371
▁အထူ	-10.3711
အရမ်း	-10.3711
ကြတယ်	-10.3718
ili	-10.372
ိဳ	-10.3721
▁ပေါလု	-10.3727
ဆုိ	-10.3728
CN	-10.373
ဘဲ၊	-10.3731
▁အာဗြဟံ	-10.3731
▁ထုံးစံ	-10.3734
▁အတည်ပြု	-10.3736
မြင့်မား	-10.3736
0%	-10.3738
Sc	-10.374
Coin	-10.3741
▁ထိခိုက်	-10.3742
ခရစ္စမတ်	-10.3745
မည့်	-10.3748
အသီးသီး	-10.3754
▁အကြံပြု	-10.3757
ယုံကြည်စိတ်ချရ	-10.3759
လုိ	-10.3763
▁ပြန်သွား	-10.3767
▁လေဝိသား	-10.3767
ယဉ်ကျေးမှု	-10.3772
ဒစ်ဂျစ်တယ်	-10.3773
မိတ်ဖက်	-10.3775
▁York	-10.3775
အနံ့	-10.3775
ရှိသမျှတို့ကို	-10.3776
၁၁	-10.3778
▁သင်တစ်ဦး	-10.3779
ဥစ္စာကို	-10.3779
ကင်ဗိုလ်ခြေအရှင်	-10.3779
▁လုပ်ထား	-10.3781
▁West	-10.3781
tech	-10.3782
လှူ	-10.3784
တွေအများကြီး	-10.3785
▁နေဖြင့်	-10.3786
380	-10.379
ပညာရေး	-10.3791
▁မဂ္ဂဇင်း	-10.3793
▁Kit	-10.3796
ခြေရာခံ	-10.3805
ကနဦး	-10.3806
KW	-10.3806
▁မူတည်	-10.3811
ခြေထောက်	-10.3818
နော်	-10.3819
ith	-10.3821
အားသွင်း	-10.3824
▁Sub	-10.3835
စားနပ်ရိက္ခာ	-10.3835
▁WhatsApp	-10.3835
ခြစ်	-10.3835
ညီလာခံ	-10.3835
▁အနိမ့်	-10.3846
များစာရင်း	-10.3847
ient	-10.3849
ပြုတ်	-10.3852
▁သတင်းစာ	-10.3854
၂၃	-10.3855
ရိုက်ကူး	-10.386
uri	-10.3861
flu	-10.3861
review	-10.3863
ပရိဘောဂ	-10.3866
▁Delivery	-10.3866
▁Hydraulic	-10.3866
▁မဂ္ဂနီစီယမ်	-10.3866
ခဲ့ဘူး	-10.3867
လေယာဉ်ပျံ	-10.3867
llow	-10.3869
2.0	-10.387
cing	-10.3874
▁Clamp	-10.3883
ara	-10.3885
▁သင်၌	-10.3888
ဆောင်ခဲ့	-10.3891
နောက်သို့	-10.3893
ခွေး	-10.3894
ီးယား	-10.3894
မျက်မှောက်	-10.3896
အံ့သြဖွယ်	-10.3896
သင်္ချာ	-10.3896
▁Frame	-10.3896
ရင္း	-10.3902
pad	-10.3902
▁စူးစမ်း	-10.3905
နေ့က	-10.3908
များထဲမှ	-10.391
▁ကျန်းမာ	-10.3911
အဖြေ	-10.3911
ထုတ်ဝေ	-10.3917
ရွင္း	-10.3917
ING	-10.3919
ဂိမ်းများ	-10.3919
သို့ရောက်	-10.3923
တောင်ပေါ်မှာ	-10.3923
DP	-10.3926
မြွက်	-10.3927
▁FileCatalyst	-10.3927
မိတ်ကပ်	-10.3927
4.0	-10.3927
အရေပြား	-10.3928
▁အသီး	-10.3928
ြန္	-10.3929
▁ယောဟန်	-10.3929
▁ယေရှုသည်	-10.3929
▁Xbox	-10.3931
app	-10.3931
၁၈	-10.3931
▁ကြက်	-10.3936
203	-10.3937
some	-10.3938
▁ဆောင်းပါး	-10.3939
အိန္ဒိယ	-10.3941
▁Han	-10.3941
hr	-10.3941
▁ယူဆ	-10.3943
ချဉ်းကပ်	-10.3946
ပါသည္။	-10.395
▁ခရီးစဉ်	-10.3954
service	-10.3958
ဓာတ်ခွဲခန်း	-10.3958
ခေါင်မိုး	-10.3958
▁ကုသ	-10.3961
ရပ်တည်	-10.3962
ပို့ကုန်	-10.3963
dust	-10.3964
nor	-10.3965
▁Shi	-10.3965
ole	-10.3965
script	-10.3967
ama	-10.3968
အသေးစား	-10.3977
တိုင်းပြည်	-10.3979
LS	-10.398
▁BS	-10.3981
ဒု	-10.3982
6.0	-10.3985
ဖြောင့်	-10.3988
▁Credit	-10.3988
▁John	-10.3988
▁Network	-10.3989
▁Update	-10.3989
▁installation	-10.3994
▁တစ်နေ့	-10.3996
ions	-10.3996
မဟုတ်ဘူး	-10.3999
▁QR	-10.4003
raw	-10.4005
▁မူလ	-10.4013
▁King	-10.4014
ဒေါ်လာ	-10.4015
ရရှိနိုင်ပါသည်	-10.4016
▁ဘုရင်	-10.4016
▁PSA	-10.4017
▁23,	-10.4018
ပါဟု	-10.4019
▁Trans	-10.402
င်းရှင်းလင်းလင်း	-10.402
တော်မူလျှင်၊	-10.4023
ဆိုရင္	-10.4024
ျပင္	-10.4029
ပါးစပ်	-10.4031
စေမည်။	-10.4032
ထုတ်လုပ်ခြင်း	-10.4035
▁၎င်းရဲ့	-10.404
အစ်ကို	-10.4041
▁Set	-10.4043
ေသး	-10.4043
အချိန်တွင်	-10.4049
တနင်္ဂနွေ	-10.405
ပထမဦးစွာ	-10.405
▁အောင်မြင်မှု	-10.4052
စားသောက်ဆိုင်	-10.4056
▁ရှန်ဟိုင်း	-10.4056
လိုအပ်ပါတယ်	-10.4056
သူငယ်	-10.4057
တွေထဲမှာ	-10.4059
တူညီသော	-10.406
▁ဘလော့	-10.406
တို့က၊	-10.4065
▁ဝမ်း	-10.4066
ဖ်	-10.4066
ness	-10.407
မပြော	-10.4071
fr	-10.4071
ရွေးချယ်စရာ	-10.4072
▁ဤသို့	-10.4072
bol	-10.4074
သစ္	-10.408
ကော်ပိုရေးရှင်း	-10.4081
ကျွန်ုပ်တို့	-10.4083
စာရေးဆရာ	-10.4083
▁ဆိုပြီး	-10.4087
EL	-10.4087
▁Thread	-10.4089
▁Am	-10.4093
ဆင်းသက်	-10.4094
ရောက်လာ	-10.4094
မုတ်	-10.4096
တကောင်	-10.41
▁သူတို့အား	-10.4101
▁ပေတရု	-10.4101
အရသာ	-10.4111
▁Ver	-10.4112
လူတို့သည်	-10.4112
ဆီက	-10.4112
အကြိုက်ဆုံး	-10.4112
ဆော့ဝဲ	-10.4113
အခြေစိုက်စခန်း	-10.4113
▁Track	-10.4114
▁ယူရို	-10.4115
ထောက်ပံ့ပေး	-10.4118
▁လုပ်ကြံ	-10.412
ette	-10.4124
လှတဲ့	-10.4126
dic	-10.4132
ဂျင်း	-10.4133
250	-10.4136
ဘရာဇီး	-10.4144
▁unlimited	-10.4144
▁Center	-10.4144
meter	-10.4144
အမြင့်ဆုံး	-10.4144
craft	-10.4145
▁800	-10.4146
▁Live	-10.4146
▁ပျမ်းမျှ	-10.4147
ဦးနှောက်	-10.4151
ဘုရား၊	-10.4154
▁CC	-10.4155
▁လိုင်စင်	-10.4155
▁Jin	-10.4157
အနှံ့	-10.4158
onic	-10.4158
▁info	-10.416
mit	-10.4164
ရှေ့၌	-10.4164
အရေးပါ	-10.4168
နိမ့်	-10.4171
long	-10.4173
ဖြန့်ချိ	-10.4175
≤	-10.4175
▁Clarinet	-10.4175
6.5	-10.4178
▁ထိန်းချုပ်	-10.4181
▁Tour	-10.4187
ရှုပ်ထွေး	-10.4187
ခြင်	-10.4189
mid	-10.4189
ထုတ်ယူ	-10.419
ဘုရားကျောင်း	-10.4191
အလိုတော်	-10.4192
ချန်	-10.4192
မယ္။	-10.4199
နေရာချ	-10.42
▁လုံခြုံရေး	-10.4201
ဘိ	-10.4201
ရုတ်	-10.4202
▁Market	-10.4205
အခြေစိုက်	-10.4206
ခင်ပွန်း	-10.4206
အသိုင်းအဝိုင်း	-10.4206
ပရီမီယံ	-10.4206
video	-10.4207
Video	-10.4207
▁ကြိုးမဲ့	-10.4207
တိုးမြှင့်	-10.4208
လေ့ကျင့်ခန်း	-10.4209
သွန်သင်	-10.4211
▁Wood	-10.4214
နေ့၌	-10.4217
အသွင်	-10.422
▁မျှော်လင့်	-10.4221
pass	-10.4222
အရေးကြီး	-10.4225
အောက်ခြေ	-10.4226
ရွင္	-10.4228
▁လုပ်နည်း	-10.423
နေရာများ	-10.4231
▁စိတ်မ	-10.4232
စာပေ	-10.4235
ဉ	-10.4235
မက်ဆေ့ခ်ျ	-10.4238
ဝေဒနာ	-10.4238
▁Bottle	-10.4238
ှနျ	-10.4238
place	-10.424
တံခါးကို	-10.424
▁မဟုတ်ဘူး	-10.4241
▁မက်စ်	-10.4242
▁ထိုမြို့	-10.4243
ပွဲစား	-10.4244
ဖေါ်ပြ	-10.4245
ရလဒ်များ	-10.4245
ကလေးများ	-10.4246
တစ်ခုလုံး	-10.4252
ရေကန်	-10.4256
▁အန်	-10.4258
▁သုံးပြီး	-10.4259
ပျို	-10.4259
ငါသည်	-10.4261
တဆယ်	-10.4262
▁များပြား	-10.4264
ကမ္ဘာတစ်ဝှမ်း	-10.427
▁Games	-10.427
RP	-10.4271
▁တွေ့ရ	-10.4272
မုန့်	-10.4274
▁Super	-10.4274
နေတာကို	-10.4275
ဘေးကင်းလုံခြုံ	-10.4275
အခမ်းအနား	-10.4276
ပေါ်သို့	-10.4282
▁သဲ	-10.4283
▁Plan	-10.4285
▁တည်နေရာ	-10.4288
ကျေးဇူးပြုပြီး	-10.4291
အီလက်ထရောနစ်	-10.4293
▁ဆန်	-10.4295
▁ဘောလုံး	-10.4297
အနုညာတစီရင်	-10.4301
ဖယောင်းတိုင်	-10.4302
တွေးမိ	-10.4303
ပေးအပ်	-10.4304
အရာအားလုံး	-10.4305
စုပ်စက်	-10.4305
▁ဒေတာအရွယ်အစား	-10.4307
သလောက်	-10.4313
▁Cor	-10.4314
လေ၊	-10.4314
▁အင်	-10.4316
CAS	-10.4319
ပြီးစီး	-10.432
ခဏ	-10.4327
1.5	-10.4328
source	-10.4333
စက္ကန့်	-10.4333
လည်ပင်း	-10.4333
မှတဆင့်	-10.4334
လဲဆိုတော့	-10.4339
▁တုံ့ပြန်	-10.434
▁ယုံကြည်ခြင်း	-10.434
year	-10.434
▁သင်၏ဘုရားသခင်	-10.4343
တဘက်	-10.4344
▁MA	-10.4351
အစီအစဉ်ကို	-10.4352
▁ရှင်းလင်း	-10.4352
▁မုသာ	-10.4354
cord	-10.4356
▁ရှောင်	-10.4358
ဗက်	-10.4363
ညှပ်	-10.4365
သုတေသီ	-10.4365
▁ဟုတ်ကဲ့	-10.4365
▁လူကြီး	-10.4365
▁ခဏ	-10.437
လိုက်ပြီး	-10.4371
ျပီ	-10.4381
▁ကားတစ်စီး	-10.4382
7.5	-10.4384
ဘူတာ	-10.4385
▁+86	-10.4386
ible	-10.4387
▁ကောက်	-10.4388
umb	-10.4388
▁Module	-10.4397
о	-10.4397
ဖုန်မှုန့်	-10.4399
လူ့အခွင့်အရေး	-10.44
ုး	-10.4402
ဖြစ်ခဲ့သည်။	-10.4404
▁အကယ်၍	-10.4409
="8	-10.441
▁2007	-10.4412
▁ပင်မ	-10.4415
▁တံဆိပ်	-10.4418
ထဲ၌	-10.4419
မီဒီယာ	-10.4421
▁ကိုဝယ်	-10.4427
စဥ္	-10.4429
▁Simulator	-10.4429
အတော်များများ	-10.443
▁Holder	-10.4431
အဟောင်း	-10.4431
ကျွမ်းကျင်	-10.4432
တော်တော်များများ	-10.4432
▁trans	-10.4434
ကြိတ်စက်	-10.4435
စီမံခန့်ခွဲ	-10.4438
▁Open	-10.4438
▁←	-10.4439
ၿပ	-10.444
2000	-10.4441
ွာ	-10.4441
="10	-10.4443
ခံစားမှု	-10.4446
မှတ်ချက်	-10.4446
RF	-10.4446
ငှားရမ်း	-10.4447
နေ၏။	-10.4451
1.8	-10.4453
cle	-10.4453
ချိန်မှာ	-10.4454
ကြလိမ့်မည်ဟု	-10.4455
ရှိပါသည်။	-10.4455
OB	-10.4457
လှုပ်ရှားမှုများ	-10.4457
အေၾကာင္း	-10.4458
120	-10.4458
ကားတစ်စီး	-10.4459
}	-10.4461
š	-10.4462
ဒိုမိန်း	-10.4462
အလယ်အလတ်	-10.4462
▁မျက်လုံး	-10.4462
[4]	-10.4462
လက်စွဲစာအုပ်	-10.4462
ယေဘုယျ	-10.4464
ဖိုင်ဘာ	-10.4464
ust	-10.4465
အရည်ပျော်	-10.4466
▁18,	-10.4467
olone	-10.4471
▁CBD	-10.4472
▁လူငယ်	-10.4472
▁BT	-10.4473
myanmar	-10.4474
အသိအမှတ်ပြု	-10.4475
▁လူတွေဟာ	-10.4477
များစွာသော	-10.4481
ဟောပြော	-10.4481
live	-10.4484
မျော	-10.4488
တို့သည်ငါတို့၏	-10.4489
kh	-10.449
ဖြည့်စွက်	-10.4494
▁iPad	-10.4494
▁Africa	-10.4494
များရယူပြီး	-10.4494
▁ဓမ္မ	-10.4495
▁Clash	-10.4495
နော်။	-10.4497
▁ဝန်	-10.4499
ပကတိ	-10.4499
▁အဆုံးသတ်	-10.4501
▁ရောမ	-10.4501
အီ	-10.4504
rc	-10.4507
မုန်	-10.4508
အနည်းဆုံး	-10.451
▁Hi	-10.4512
▁Lock	-10.4518
မည်လော။	-10.4518
ဘော	-10.452
ချိန်း	-10.4527
တွေ့ရ	-10.4527
▁အားပေး	-10.4527
rit	-10.4529
▁Make	-10.4529
▁Hunan	-10.4529
၂၉	-10.4531
ena	-10.4534
▁နည်းလမ်းတွေ	-10.4543
ဖြစ်သည်ဟု	-10.4543
မိတယ်။	-10.4548
▁Vo	-10.4549
▁ဒီေတာ့	-10.4549
ector	-10.4553
▁၂၀၁၆	-10.4555
အသွားအလာ	-10.4559
ဆယ်ကျော်သက်	-10.4559
▁Moving	-10.4559
▁မှပံ့ပိုးသည်	-10.4559
▁မိုဃ်းကောင်းကင်	-10.456
ကမ္ဘာ့	-10.456
ဆင္	-10.456
ဈေးနှုန်း	-10.4561
▁cr	-10.4563
put	-10.4565
ဝမ်း	-10.4567
UP	-10.4571
ရကြလိမ့်မည်။	-10.4572
▁သစ်တော	-10.4573
▁တွစ်တာ	-10.4577
ပြောင်းလဲခြင်း	-10.458
-18	-10.4581
တိရစ္ဆာန်	-10.4581
အတိအကျ	-10.4582
▁အမှုတော်	-10.4583
ကလေးတွေ	-10.4588
တွေဆီ	-10.4588
ခြင်းငှာ	-10.4592
ပျော်မွေ့	-10.4592
▁Metatrader	-10.4592
sulator	-10.4592
4.4	-10.4592
တရားမျှတ	-10.4592
▁နန်းတော်	-10.4594
embed	-10.4595
▁အသွေး	-10.4595
▁ဆုံးရှုံး	-10.4596
ရေကြောင်း	-10.4598
prop	-10.4601
၇၀	-10.4602
jet	-10.4603
နဲ့တူ	-10.4603
▁ချဉ်းကပ်	-10.4604
ရိုးရှင်း	-10.4609
ပတ်ပတ်လည်	-10.461
ဝါဒ	-10.4612
▁ယူနစ်	-10.4614
အင်	-10.4617
စောင်	-10.4617
ဖွဲ့စည်းခြင်း	-10.4618
လျှပ်	-10.4622
စက္ဏူထူ	-10.4624
တော်လှန်ရေး	-10.4624
▁Copyright	-10.4625
▁server	-10.4625
လမ်းမကြီး	-10.4626
ပြည့်စုံ	-10.4627
၌ရှိသော	-10.4629
တောင်တန်း	-10.4631
အခြေအနေများ	-10.4632
▁TV	-10.4633
▁မဟုတ်ပါဘူး။	-10.4636
▁hot	-10.4641
ပိုကောင်း	-10.4646
ရမည်ဟု	-10.4646
သောသူကို	-10.4648
▁အဖွဲ့အစည်း	-10.4649
သားကား	-10.4649
▁On	-10.4654
▁သူမရဲ့	-10.4655
ပြတိုက်	-10.4655
▁ငါ့အား	-10.4656
အလျင်အမြန်	-10.4657
ကြောက်မက်ဘွယ်	-10.4657
မြှေး	-10.4657
▁Pocket	-10.4658
what	-10.4661
လိပ်စာ	-10.4664
ျဖစ္တယ္	-10.4665
0.2	-10.4669
စစ်ဆေးမှု	-10.467
ဘက်၌	-10.4671
core	-10.4673
▁သီချင်းဆို	-10.4674
▁ခရီးသည်	-10.4674
TV	-10.4675
သုံးခု	-10.4678
မျက်နှာကို	-10.4683
▁မေးမြန်း	-10.4683
▁လက်နက်	-10.4685
ငြင်း	-10.4686
DM	-10.4688
down	-10.469
သိသိသာသာ	-10.469
▁Channel	-10.469
သံသယ	-10.469
▁click	-10.4691
ဆိုက်ကို	-10.4694
ၾကား	-10.4695
▁City	-10.4698
arm	-10.4698
ဘဏ္ဍာ	-10.47
နှင့်အညီ	-10.4707
နောက်ကျော	-10.4707
အူ	-10.4708
စုံလင်သော	-10.4711
မည်ဖြစ်သည်။	-10.4713
▁အစားထိုး	-10.4714
pre	-10.4714
▁360	-10.4715
▁ကီလိုဂရမ်	-10.4715
▁၎င်းသည်	-10.472
Option	-10.4721
ခရစ်ယာန်	-10.4723
ဓါတ်ငွေ့	-10.4723
▁Hot	-10.4725
အရောင်များ	-10.4726
အရည်အချင်း	-10.4727
▁စမတ်	-10.4727
ချီးမွမ်း	-10.4729
ယုတ်	-10.4731
န်ဆောင်မှု	-10.4732
▁ချက်ချင်း	-10.4733
sky	-10.4734
▁ငှက်	-10.4734
▁အနက်ရောင်	-10.4735
▁စွမ်းဆောင်ရည်	-10.4736
ကျေးဇူးတင်	-10.4736
ထားပါတယ်။	-10.4739
ပိုကောင်းတဲ့	-10.4741
▁ဧရိယာ	-10.4742
▁AR	-10.4743
လေပြီ။	-10.4745
ဖြစ်တယ်။	-10.4747
တျော	-10.4748
အချိုး	-10.4748
▁0.2	-10.475
သွေးဆောင်	-10.4752
ပေ။	-10.4753
305	-10.4755
သည့်အခါ	-10.4756
ဂရမ်	-10.4756
▁မတ်	-10.4757
▁first	-10.4757
၂၈	-10.476
ဆူး	-10.4763
လျှို့ဝှက်	-10.4764
နေပြီ	-10.4766
ရာခိုင်နှုန်း	-10.4766
ဆက်သွယ်ပါ	-10.4773
ယန်	-10.4773
စီးတီး	-10.4775
▁သင်တို့အား	-10.4775
VC	-10.4776
RS	-10.4779
နှစ်ဆယ်	-10.4779
▁စာသား	-10.4781
တင်ဆက်	-10.4781
▁vs	-10.4784
မျိုးစေ့	-10.4784
အသုံးပြုရန်	-10.4785
▁CA	-10.4788
▁သင္	-10.4788
ကူပွန်	-10.479
အချည်းနှီး	-10.479
▁Ruizhun	-10.479
စည္း	-10.479
▁အတွဲ	-10.4791
▁အရေးပေါ်	-10.4791
ရုံဆွေးနွေးပွဲ	-10.4791
▁String	-10.4792
ရှိသမျှကို	-10.4792
အဆင့်ဆင့်	-10.4792
တစ်ရပ်	-10.4793
ica	-10.4794
▁ဂါ	-10.4797
သိမှတ်	-10.4798
▁indicator	-10.4802
▁ဘယ္	-10.4802
une	-10.4812
ပြည်တွင်း	-10.4813
▁ခလုတ်	-10.4815
ကျော်လွန်	-10.4816
media	-10.4816
time	-10.482
test	-10.4821
ဖြန့်ချိ	-10.4823
ကောင်စီ	-10.4824
တစ်စုံ	-10.4827
သေးငယ်	-10.4835
▁US	-10.4837
နေကြတာ	-10.4839
▁ပိုကောင်း	-10.484
တောင်ပိုင်း	-10.4842
▁ဘဏ္ဍာရေး	-10.4842
၂၀၁၉	-10.4843
ကြိမ်မြောက်	-10.4844
▁ဇူလိုင်	-10.4847
ပင်ပန်း	-10.485
▁နွေရာသီ	-10.4851
▁Op	-10.4856
ဗီယက်နမ်	-10.4857
▁International	-10.4857
▁တဦးတည်း	-10.4857
အမျက်ထွက်	-10.4859
This	-10.4861
▁မူရင်း	-10.4862
ရှီ	-10.4864
point	-10.4867
သိပ်	-10.4875
လည်းကောင်း	-10.4876
ထူးခြားသော	-10.4876
ဂိမ်းကစား	-10.4879
ava	-10.4879
နှီးမြှုပ်နှံမှု	-10.4881
ဝံ	-10.4882
mic	-10.4883
▁ဝါယာကြိုး	-10.4885
ငှား	-10.4889
ကျူ	-10.4889
နွေ	-10.489
လိမ္မော်ရောင်	-10.4891
အစိုင်အခဲ	-10.4891
▁Panasonic	-10.4891
ဗွီဒီယို	-10.4891
▁ဤရွေ့ကား	-10.4891
ကရိယာ	-10.4891
ကြံစည်	-10.4892
တကယ္	-10.4892
▁Lab	-10.4893
မရှိသော	-10.4897
▁ရွာ	-10.4901
ရန်လိုအပ်	-10.4902
cast	-10.4904
စွန်း	-10.4905
ပေးတယ်။	-10.4907
စည်းစိမ်	-10.4908
ခေါင်းဆောင်	-10.4908
ပြီးလျှင်	-10.4917
သလား	-10.4919
▁Slot	-10.492
ခဲ့သူ	-10.492
လျက်ရှိ၏။	-10.4922
ကော်မတီ	-10.4924
အကဲဖြတ်	-10.4925
ဖော်ပြထား	-10.4925
ကလပ်	-10.4926
▁poly	-10.4927
▁စာဖတ်ခြင်း	-10.4928
ထူးခြား	-10.4928
▁ကျိန်ဆို	-10.4932
ဆင်တူ	-10.4932
ေငြ	-10.4937
rus	-10.4937
တောင့်	-10.4937
လတ်	-10.4938
▁Park	-10.4941
▁သမီး	-10.4943
ဆောင်ရွက်မှု	-10.4944
ဝင္	-10.4946
▁ယာဉ်	-10.4954
▁အဖြူရောင်	-10.4957
ရွေ့လျား	-10.4958
▁Virtual	-10.4958
▁browser	-10.4958
အစစ်အမှန်	-10.4958
ထပ်မံ	-10.4959
▁Sch	-10.4959
အမှတ်တရ	-10.4959
▁ခွန်အား	-10.496
▁အနာ	-10.4962
▁စာအုပ်များ	-10.4964
▁အကြံ	-10.4964
▁အနီရောင်	-10.4964
အစွမ်းထက်	-10.4965
ကွိုင်	-10.4967
ကေန	-10.4967
လှေကား	-10.4968
▁TED	-10.4971
စေနှင့်။	-10.4972
ဘူး၊	-10.4977
▁ဘန်	-10.4978
print	-10.4978
အတူတူ	-10.4983
▁အလင်းများ	-10.4992
အင်တင်နာ	-10.4992
▁August	-10.4992
▁Square	-10.4992
သယ်ဆောင်	-10.4992
ချိုင့်	-10.4992
RL	-10.4993
▁Express	-10.4993
▁ဗြိတိန်	-10.4994
အရှိဆုံး	-10.4995
▁mesh	-10.4995
နားမလည်	-10.4996
အနုပညာရှင်	-10.4997
▁အိမ်တော်	-10.5
တို့ဟာ	-10.5001
တစ်ပုဒ်	-10.5002
ကောင်းကင်	-10.5003
▁off	-10.5004
▁မှားယွင်း	-10.5006
▁အရာတွေ	-10.5006
▁ပီ	-10.5007
ယှဉ်	-10.5008
TY	-10.5009
ib	-10.5013
▁ခေတ်	-10.5017
mark	-10.5023
ောငျ	-10.5023
ဟုတ်	-10.5025
တခါ	-10.5026
တယ်လီဖုန်း	-10.5027
▁Surface	-10.5027
ဘာဖြစ်လို့လဲဆို	-10.5029
ဂျင်	-10.5029
▁ဒါ့အပြင်	-10.5032
▁NFC	-10.5033
လွင်	-10.5034
HE	-10.5036
MHz	-10.5036
-100	-10.5036
▁ယောက်	-10.5038
အမြင့်ဆုံး	-10.5039
ဆုံးရှုံး	-10.5039
CAD	-10.504
▁Blu	-10.504
ရည်အသွေးမြင့်မား	-10.5041
ဇီဝ	-10.5049
▁USA	-10.5052
သေဆုံး	-10.5056
ဈေး	-10.5057
▁drop	-10.5059
မရှိပါ။	-10.506
ညစ်ညူး	-10.5061
▁Pneumatic	-10.5061
▁password	-10.5061
အယူအဆ	-10.5061
ၿဖစ္	-10.5061
ရင့်	-10.5063
▁ms	-10.5064
အောက်ဆီဂျင်	-10.5069
ext	-10.5071
ကမ္ဘာ့ဖလား	-10.5071
လစာ	-10.5072
အထဲက	-10.5073
▁အမေရိက	-10.5073
▁ဓာတ်ပုံများ	-10.5074
RT	-10.5078
နှစ်ပတ်လည်	-10.5081
အောင်မြင်မှု	-10.5084
▁●	-10.5084
SJ	-10.5086
-08-	-10.5089
▁22,	-10.509
▁ဆောက်	-10.509
▁HF	-10.5092
▁bug	-10.5104
ဆေးဘက်ဆိုင်ရာ	-10.5109
ရွေးကောက်	-10.5118
▁ဥာဏ်	-10.5118
အားနည်း	-10.5121
▁Mat	-10.5122
▁ဤအမှု	-10.5124
ထဲမှ	-10.5128
ကနေတဆင့်က	-10.513
▁Defending	-10.513
▁ဝါဂွမ်း	-10.513
html	-10.513
▁အမျက်တော်	-10.513
▁CSGO	-10.513
ခိုက်	-10.5131
မြို့ရိုး	-10.5134
▁time	-10.514
bot	-10.5142
▁တောင်းပန်	-10.5142
ရဲတိုက်	-10.5142
တော်မူခြင်း	-10.5149
ချင်ပါတယ်။	-10.5152
အဆိပ်	-10.5155
oxy	-10.5156
ချင်တာက	-10.5161
ဖုန်စုပ်	-10.5162
ခြင်္သေ့	-10.5164
မကြာမီ	-10.5164
ချင်တယ်	-10.5165
▁ယခင်ဆောင်းပါး	-10.5167
လုလင်	-10.5167
ရမယ္	-10.5168
စာတမ်း	-10.5169
▁Korea	-10.5169
ပုတီး	-10.5176
/#	-10.5177
ကြီးထွား	-10.5177
ည့္	-10.5185
မဟုတ်ပါ။	-10.5189
AF	-10.5189
ပြည်ကို	-10.519
အပိုင်းအစ	-10.5191
လစ်ယုံကြည်ခြင်း	-10.5193
တင်းထုတ်ပြန်ချက်	-10.5194
▁ကစားတဲ့	-10.5196
="12	-10.5197
▁သို့သော်လည်း၊	-10.5198
▁disc	-10.5199
▁Detector	-10.5199
သံကို	-10.52
▁input	-10.5204
ကြည့်ပါ	-10.5209
2.4	-10.5218
အမျိုးသမီးများ	-10.5221
တာဝန်ခံ	-10.5226
ကုန်ကျ	-10.5227
သဘောတူညီချက်	-10.5234
သတင္း	-10.5234
ဒါရိုက်တာ	-10.5234
SQL	-10.5234
google	-10.5234
▁roller	-10.5235
▁110	-10.5239
▁SKU	-10.5239
ဝတ်ဆင်	-10.5241
▁Wa	-10.5244
လုပ်နေ	-10.5247
▁Chain	-10.5249
▁Lee	-10.5249
rin	-10.525
ဘက်မှာ	-10.5251
▁အသိအမှတ်ပြု	-10.5254
ဘမ်း	-10.5261
ဗို့	-10.5262
▁devices	-10.5262
ဩ	-10.5263
ပြစ်မှား	-10.5266
▁Transposh	-10.5269
အပြုအမူ	-10.5269
စာဖတ်သူ	-10.5269
▁၂၀၁၁	-10.527
ပိတ်ထား	-10.5273
နိုင်ငံတကာ	-10.5273
ဲလ်	-10.5276
နျး	-10.5282
မျး	-10.5284
▁နောက်ခံ	-10.5284
ဗော	-10.5284
၉၉	-10.5289
ဝပ်	-10.5291
▁ခုနှစ်၊	-10.5299
ခဲ့ဘူး။	-10.5303
ဂန္ထဝင်	-10.5304
သင်္ဂြိုဟ်	-10.5304
▁ဆိုတာကို	-10.5304
▁ဘယ်တော့မှ	-10.5304
▁button	-10.5304
အစဉ်အလာ	-10.5304
ations	-10.5305
star	-10.5305
▁ကံ	-10.5306
မိန့်တော်မူ	-10.5306
▁Mor	-10.5307
သို႔	-10.5308
အချက်များ	-10.5308
ကဲ့သို့၎င်း၊	-10.5312
နှစ်မျိုး	-10.5312
လက်သို့	-10.5314
ပြို	-10.5315
အားလုံးဟာ	-10.5315
နည်းနဲ့	-10.5316
သြဇာ	-10.532
▁ဘာကြောင့်	-10.532
▁Form	-10.5322
BO	-10.5323
izer	-10.5328
လောက်အောင်	-10.5329
စစ်မှန်သော	-10.5329
ဒီဂိမ်း	-10.533
-2018	-10.5332
စိုစွတ်	-10.5339
နှာခေါင်း	-10.5339
▁Universal	-10.5339
▁Display	-10.534
▁State	-10.534
unch	-10.5341
ရွှေ့ပြောင်း	-10.5341
သိန်း	-10.5345
var	-10.535
ဂျူး	-10.5356
ဖြစ်ကြောင်းကို	-10.5356
သွားတယ်	-10.5357
ရှည်လျား	-10.5364
▁သင်ခန်းစာ	-10.5365
pic	-10.5366
ပါသည်ဟု	-10.5367
မိတာက	-10.5369
▁Dongguan	-10.5374
help	-10.5376
▁ကိုယ့်ကိုယ်ကို	-10.5376
ကမ်းခြေ	-10.5377
▁Range	-10.5378
▁သားတော်	-10.5381
▁ဆိုလိုတာက	-10.5381
ကုန်စည်	-10.5382
ရေခဲသေတ္တာ	-10.5384
ထာဝရ	-10.5385
ထုတ်ဖော်	-10.5386
▁အလည်အပတ်	-10.5387
Fran	-10.5388
▁သမုဒ္ဒရာ	-10.5391
ပန်းချီ	-10.5392
ပုဒ်မ	-10.5396
ဗ်	-10.5397
▁ချီးမြှောက်	-10.5398
▁ကိုအိတ်	-10.5401
ကျေးဇူးတင်ပါတယ်။	-10.5402
▁Net	-10.5406
အထင်	-10.5409
ကြွက်သား	-10.541
▁ဧရာမ	-10.541
▁Mode	-10.5411
▁ပညတ်တရား	-10.5412
ပြောနေတာ	-10.5414
ရ်	-10.5416
မှတ်စု	-10.5417
တော်မူသဖြင့်၊	-10.5418
OU	-10.5418
6.2	-10.5419
တိုးမြှင့်	-10.5419
သတ္တိ	-10.5419
စေ၍၊	-10.5421
လို႕	-10.5422
စင်တီမီတာ	-10.5423
ေနာက္	-10.5423
atic	-10.5427
အချက်ပြ	-10.543
ရှေ့နေ	-10.543
▁လူတွေက	-10.5438
mil	-10.5438
2.2	-10.5442
စီမံကိန်းများကို	-10.5443
စိတ်ဖိစီးမှု	-10.5446
အကြွေး	-10.5446
သစ်သား	-10.5446
▁ယေရှုခရစ်	-10.5446
▁DR	-10.5446
တခုကို	-10.5454
နိုင်ရန်အတွက်	-10.5459
တရားရုံး	-10.5462
▁လုပ်ပေး	-10.5463
-200	-10.5465
▁ခုနက	-10.5468
▁သင့်ကို	-10.5474
ောကျ	-10.5476
ဉာဏ်	-10.5476
word	-10.5481
တစ်စိတ်တစ်ပိုင်း	-10.5481
သစ်ကြိုဆိုပွဲ	-10.5481
တ္တုများပုံသွန်း	-10.5481
▁ရောင်းဈေး	-10.5482
လုပ်ငန်းရှင်များ	-10.5482
▁၂၀၁၂	-10.5482
▁Exp	-10.5483
▁ဗမာ	-10.5484
▁လုယူ	-10.5484
အမှိုက်	-10.5484
လုပျ	-10.5487
rew	-10.549
https	-10.5493
တို့အဘို့	-10.5501
ခေါင်	-10.5502
ရကြ။	-10.5504
ကလစ်	-10.5504
8.0	-10.5505
အပြာရောင်	-10.5505
▁31,	-10.5505
ယေရှု	-10.5506
အနက်ရောင်	-10.5508
မွေ	-10.5515
နိုင်ငံ၏	-10.5516
အလုပ်လုပ်ကိုင်	-10.5516
▁27,	-10.5516
ဆွစ်ဇာလန်	-10.5517
ဆလင်ဒါ	-10.5517
▁Adapter	-10.5517
▁ပညာရှိ	-10.5517
လေ့ကျင့်ခန်း	-10.5518
▁ရနိုင်	-10.5519
မုန်တိုင်း	-10.5521
▁အသက်ရှူ	-10.5521
ခိ	-10.5521
▁Cast	-10.5522
▁မပြော	-10.5522
သန့်ရှင်းရေး	-10.5524
ရမယ်။	-10.5526
အလှကုန်	-10.5528
2011	-10.553
ေတာ	-10.5531
NO	-10.5531
အသီး	-10.5536
ထဲမွာ	-10.554
ဒါမှမဟုတ်	-10.5542
key	-10.5543
▁II	-10.5547
▁Business	-10.5553
▁Fruity	-10.5553
▁September	-10.5553
ကြေးနန်း	-10.5555
ကောင်လေး	-10.5555
travel	-10.5556
▁အရိုး	-10.556
လိုလား	-10.556
အခန်းကဏ္ဍ	-10.5561
:41	-10.5567
▁လူထု	-10.5568
▁Clo	-10.5573
▁Chang	-10.5575
ထဲကနေ	-10.5575
တို့မှ	-10.5576
▁ထိုင်းနိုင်ငံ	-10.5577
▁cookies	-10.5579
ုန်း	-10.5582
လိမ့်	-10.5585
ပျမ်းမျှ	-10.5586
ပထမဆုံး	-10.5586
ဇိမ်ခံ	-10.5589
ပြက္ခဒိန်	-10.5589
တူသော	-10.5589
ဖု	-10.559
ဖြုတ်	-10.559
▁Theme	-10.5591
house	-10.5593
ဖိုး	-10.5595
နေရာကို	-10.5597
ကွင်းဆက်	-10.5598
အဘယ်သူ	-10.5606
Port	-10.5606
တက္	-10.5609
orn	-10.561
ပေါက်ကွဲမှု	-10.5611
စာရွက်စာတမ်းများ	-10.5614
▁ဘိုးဘေးတို့	-10.5615
ella	-10.5619
eep	-10.5622
▁မန္တလေး	-10.5622
ဣသရေလ	-10.5624
▁သို့ဖြစ်၍၊	-10.5624
▁si	-10.5625
ခရက်ဒစ်	-10.5625
▁စိတ်ဝင်စားစရာ	-10.5626
ကိုခေါ်	-10.5626
လက်၌	-10.5628
စရာဘို့	-10.5632
lim	-10.5634
ux	-10.5634
မပြတ်	-10.5635
▁11,	-10.5636
အဖြစ်လူသိများ	-10.5637
lord	-10.5641
အိမ်သို့	-10.5642
အဖွဲ့အစည်းများ	-10.5642
▁mol	-10.5642
ဂရိတ်	-10.5643
▁cam	-10.5643
home	-10.5645
right	-10.5646
▁Ring	-10.5646
▁Sho	-10.5653
ဆုပ်	-10.5655
▁Cool	-10.5656
▁Sky	-10.5661
▁Part	-10.5662
တနင်္လာနေ့	-10.5662
▁Gibbs	-10.5662
▁Music	-10.5662
nes	-10.5664
ပြောင်	-10.5665
နှေး	-10.5667
စားပွဲတင်	-10.5671
ele	-10.5672
▁ရန်သူတို့	-10.5674
5.2	-10.5677
ိုင္း	-10.5677
▁အဘယ်သူသည်	-10.5678
▁CB	-10.5679
ဂု	-10.568
နိုင္	-10.5682
ခ်ိန္	-10.5685
▁Para	-10.5686
မည်မဟုတ်	-10.5687
ဖြစ်အောင်	-10.5689
ပုန်း	-10.5691
နှင့်ပေးသွင်း	-10.5691
5.1	-10.5692
view	-10.5693
အယ်လ်ဘမ်	-10.5698
▁Laptop	-10.5698
အလယ်ပိုင်း	-10.5698
ေရႊ	-10.5699
▁ဘာလဲ	-10.5699
▁မခံ	-10.5699
သောသူဖြစ်	-10.5704
ပြုံး	-10.5707
Ex	-10.5715
▁Book	-10.5719
uz	-10.572
▁exp	-10.5723
နက္	-10.5726
ခြင်းဖြစ်သည်။	-10.5731
ဂန္	-10.5733
▁ထိုနောက်	-10.5733
နွယ်	-10.5734
▁DOWNLOAD	-10.5735
ဝင်ရိုးစွန်း	-10.5735
ကြပ်	-10.5736
▁Edition	-10.5737
ဖန်တီးမှု	-10.5738
▁စွမ်းအား	-10.5738
လေးစား	-10.5742
Internet	-10.5742
train	-10.5744
gram	-10.5748
လွတ်လပ်	-10.5751
ဟီ	-10.5751
နှိပ်ပါ	-10.5755
ဒဏ်ရာ	-10.576
61%	-10.5767
ပါမယ္	-10.5769
အစားအသောက်	-10.5772
အမေဇုံ	-10.5772
အဲယားဘတ်စ်	-10.5772
႐	-10.5772
▁Middle	-10.5772
အိပ်ရာဌာနမှူး	-10.5772
▁Select	-10.5772
အမျိုး၊	-10.5773
ှင်	-10.5776
လယ်ယာ	-10.578
HO	-10.5781
▁DNA	-10.5781
လက္ကား	-10.5781
အကျိုးကို	-10.5788
ထက်ပိုမို	-10.5793
ဆိပ်ကမ်း	-10.5796
အာရုံခံ	-10.5803
▁ကျေးဇူးတော်	-10.5804
▁MH	-10.5806
မြို့မှ	-10.5808
ယော်ဒန်မြစ်	-10.5808
123	-10.5808
`	-10.5808
▁Title	-10.5809
▁Edge	-10.5809
ယန်း	-10.5809
ကြမ်းတမ်း	-10.581
ခွံ	-10.5812
based	-10.5816
၂၀၂၀	-10.5818
ough	-10.5819
▁ထိုမိန်းမ	-10.5821
ခုတ်	-10.5824
ချင်တဲ့	-10.5825
အစဉ်	-10.5827
▁Bra	-10.583
▁Comp	-10.583
▁game	-10.5832
အကျိုးသက်ရောက်	-10.5833
good	-10.5833
သာယာ	-10.5834
ပါလိမ့်မည်	-10.5835
▁-&	-10.5835
မှီတိုင်အောင်	-10.5835
နွား	-10.5836
ester	-10.5838
и	-10.5845
ငိုကြွေး	-10.5845
ဆွီဒင်	-10.5845
ပရိတ်သတ်	-10.5845
လက်ဝါးကပ်တိုင်	-10.5845
သင်္ချိုင်း	-10.5845
▁South	-10.5846
4000	-10.5847
▁17,	-10.5848
စုဆောင်းခြင်း	-10.585
▁ကင်	-10.5851
ပြစ်	-10.5852
အဆင့်မြင့်	-10.5857
="11	-10.586
ကာကွယ်မှု	-10.5861
ရွိတယ္	-10.5862
အစဉ်အဆက်	-10.5863
မဟုတ်သော	-10.5864
ဒါဝိဒ်	-10.587
အကြီးစား	-10.5873
▁အဲ့	-10.5875
▁Holmbygden	-10.5883
▁Sheet	-10.5883
ၿပီ	-10.5883
မရှိ၊	-10.5884
▁ကောင်းကင်ဘုံ	-10.5884
ပြဿနာများ	-10.5886
-22	-10.5888
ဂူ	-10.589
ငါ၏	-10.5894
▁Ru	-10.5898
သည်မဟုတ်။	-10.5899
မြင့်မားတဲ့	-10.5905
hol	-10.5913
အနာဂတ်	-10.5914
ပတ်လုံး	-10.5914
▁Machine	-10.5917
HD	-10.592
ဖော်မြူလာ	-10.592
mobile	-10.592
▁အုပ်စိုး	-10.592
ပွင့်လင်း	-10.5921
တင်းကျပ်	-10.5921
▁လုပ်ပြီး	-10.5922
▁It	-10.5922
proof	-10.5923
မဟုတ်ဘဲ	-10.5924
ဝင်ရိုး	-10.5924
▁Song	-10.5924
▁အသိ	-10.5931
ရတာက	-10.5935
pur	-10.5935
▁feature	-10.5937
▁EC	-10.5939
အတတ်ပညာ	-10.594
ope	-10.5941
ရှာဖွေတွေ့ရှိ	-10.5943
▁အိမ်မှာ	-10.5945
နှိပ်စက်	-10.5946
ကျောင်းသား	-10.5951
ကျပန်း	-10.5952
ဘူးလေ။	-10.5953
စံချိန်စံညွှန်း	-10.5957
ရီးရဲလ်	-10.5957
е	-10.5957
ရန်ပုံငွေ	-10.5957
▁HGH	-10.5957
▁Pu	-10.5958
▁manual	-10.5958
▁Forward	-10.5959
ပျား	-10.5959
▁auto	-10.5962
▁အင်တာနက်ကို	-10.5964
လက်ထက်	-10.5964
စိုးရိမ်	-10.5965
well	-10.5965
အသက်ရှင်	-10.5966
များဖြင့်	-10.5969
aff	-10.597
ရုပ်ပုံ	-10.5971
ဘာသာရပ်	-10.5972
ities	-10.5975
နေ့စဉ်	-10.5976
UR	-10.5979
သာလျှင်	-10.5983
မလိုအပ်	-10.5983
ပေးပါတယ်။	-10.5986
▁ရက်တွင်	-10.5987
လက်ျာ	-10.5994
1.6	-10.5995
အတှကျ	-10.5995
Control	-10.5995
ထရေးဒင်း	-10.5995
နိဒါန်း	-10.5995
▁Manager	-10.5995
▁Scooter	-10.5995
အတူတကွ	-10.5995
▁Los	-10.5996
ယေ	-10.6002
▁Maxi	-10.6004
▁Fight	-10.601
တဲ့အရာ	-10.601
အရပ်သို့	-10.6012
ခန့်မှန်း	-10.6018
OW	-10.6021
ဝေမျှ	-10.6022
▁ဒါကတော့	-10.6026
ကြွေ	-10.603
ဒါက	-10.6032
ႀ	-10.6033
ရိုနာဗိုင်းရပ်စ်	-10.6033
▁National	-10.6033
ပြုလုပ်ခြင်း	-10.6033
facebook	-10.6033
အဝတ်လျှော်	-10.6034
သောအရာကို	-10.6039
ဗိုင်းရပ်စ်	-10.604
ှေး	-10.6041
မြို့နှင့်	-10.6041
အိပ်မက်	-10.6043
▁ဂေ	-10.6045
န္႔	-10.6047
▁WIC	-10.6047
လိမ့်မည်။	-10.6054
methyl	-10.6057
▁စည်းမျဉ်း	-10.606
ကတိ	-10.6061
စုပ်ယူ	-10.6068
3.3	-10.607
ဘောင်းဘီ	-10.6071
▁Health	-10.6071
အာရုံကြော	-10.6072
တခြား	-10.6072
ကူးပြောင်း	-10.6079
မြန်ဆန်	-10.608
ဣ	-10.6084
="9	-10.6085
ဂန်	-10.6087
▁Er	-10.6094
အင်္ကျီလက်	-10.6094
▁options	-10.6101
နေကြတဲ့	-10.6105
▁တောင်ကိုရီးယား	-10.6109
▁Smart	-10.6109
▁Mills	-10.6109
ရှိသည်ဟု	-10.611
▁သတိရ	-10.6111
ced	-10.6114
အသိပေး	-10.6114
ပြောရရင်	-10.6115
▁Myo	-10.6115
▁Matt	-10.6118
၂၅	-10.6119
5.6	-10.6125
cra	-10.6126
▁Install	-10.6129
▁10%	-10.613
▁ကိုအသုံးပြု	-10.6137
store	-10.614
ဂစ်တာ	-10.6141
▁Nor	-10.6141
မေလ	-10.6142
▁Controller	-10.6147
4.2	-10.6149
▁Jul	-10.6149
▁တကယ်တမ်း	-10.6149
ဆိုင်ကယ်	-10.6152
ေျခ	-10.6153
▁prev	-10.6153
အလုံးစုံတို့ကို	-10.6158
အစွန်း	-10.6159
▁hard	-10.6162
▁ဒါတွေ	-10.6162
Free	-10.6167
ဘယ်တော့မှ	-10.6171
အာရုံစိုက်	-10.6171
▁Mu	-10.6174
ပုံတူ	-10.6175
▁Sim	-10.6176
▁MS	-10.6177
ချည်း	-10.6178
utm	-10.6179
လက်ထပ်	-10.6179
▁Jet	-10.618
off	-10.6181
▁30%	-10.6183
ရယ်မောသံများ	-10.6185
သည်ကြီးများအသင်း	-10.6185
အဓိပ္ပာယ်	-10.6185
အနိမျ့	-10.6185
ကိုင်ဆောင်သူ	-10.6185
▁Ultra	-10.6185
▁ဇိအုန်	-10.6185
စေတော်မူ၏။	-10.6186
▁Touch	-10.6186
▁Kar	-10.6187
▁IOS	-10.619
အမတ်	-10.6193
For	-10.6197
▁Time	-10.6203
▁Im	-10.6209
သူရဲကောင်း	-10.6211
cel	-10.6212
အတွက်အသုံးပြု	-10.6217
ful	-10.622
ခဲ့ဖူး	-10.622
စဉ်ဆက်မပြတ်	-10.6224
ဆီလီကွန်	-10.6224
အမြိုး	-10.6224
tric	-10.6225
▁0086	-10.6226
ကမ်းလှမ်းချက်	-10.6229
စွန်	-10.6229
တက်တူး	-10.6229
အရည်အသွေးကို	-10.6232
အလိုငှါ	-10.6233
ထိုင်ဝမ်	-10.6234
rror	-10.6237
ရိုးရှင်းတဲ့	-10.6254
နိုင်ငံတော်	-10.6257
▁သေခြင်း	-10.6261
စဥ်	-10.6261
ဘိလပ်မြေ	-10.6262
▁Dedusting	-10.6262
▁about	-10.6263
ဘာသာပြန်ချက်	-10.6265
လေဆာ	-10.6266
စည်းကမ်းများ	-10.627
၁၅	-10.6271
အခွင့်အရေး	-10.6273
လယ်ပြင်	-10.6273
▁ဖေဖော်ဝါရီလ	-10.6275
ကစားစရာ	-10.628
ဏ်	-10.628
1%	-10.6284
ရမလဲ	-10.6288
းလ်	-10.6296
ြီ	-10.6296
ထို့	-10.63
အလိုအလျှောက်	-10.6301
▁Foundation	-10.6301
ေအာက္	-10.6301
ကြိုဆိုပါသည်	-10.6301
gh	-10.6302
▁မြည်း	-10.6304
တပ်ဖွဲ့	-10.6307
ရမယ့်	-10.6312
BM	-10.6312
VA	-10.6313
▁ကျုပ်	-10.6313
ဖယ်	-10.6318
ဖြဲ	-10.6319
action	-10.6319
▁parameters	-10.6321
သားတို့ကို	-10.6323
▁ဒီနောက်	-10.6327
အလုံးစုံ	-10.6329
တ္တိ	-10.6329
စကားဝှက်ကို	-10.6331
ခဲ့ရာ	-10.6334
တစ်ခုလုံးကို	-10.6334
ပထမ	-10.6337
shop	-10.6338
လဲလှယ်	-10.634
စတုတ္ထ	-10.634
ဝါကြွား	-10.634
▁Yamaha	-10.634
▁Intel	-10.634
!!!	-10.634
ဖြုန်း	-10.634
တစ်ခုဖြစ်သည်။	-10.6343
ဗင်	-10.6344
▁CF	-10.6346
▁အချစ်	-10.6347
▁ငါ၏အ	-10.6348
ခေါင်းကို	-10.6357
ဘေးထွက်	-10.636
▁WE	-10.6362
▁သင်တို့၌	-10.6367
ရပါမည်	-10.637
ပုံစံများ	-10.6371
နောက်ပိုင်းတွင်	-10.6372
▁350	-10.6379
ပညာရှင်တွေ	-10.6379
များပြား	-10.6379
▁configuration	-10.6379
▁Company	-10.6379
စသည်တို့	-10.6379
▁Page	-10.6382
ရော်ဘာ	-10.6387
တော်မမူ။	-10.6388
သင္	-10.6389
hua	-10.6391
▁player	-10.6391
▁ဣသ	-10.6391
နည်းပြ	-10.6398
မော်တော်	-10.6399
▁အယ်လ်	-10.6401
▁ဤနေရာ	-10.6404
မာန	-10.6405
▁process	-10.6414
အကာအကွယ်	-10.6418
စကျင်ကျောက်	-10.6418
ပြည်ထဲရေး	-10.6418
ပိုက်ဆံအိတ်	-10.6422
မာစတာ	-10.6426
ဖိုင်ကို	-10.6435
စိတ်နှလုံး	-10.6437
တော့ဘူး	-10.6437
LO	-10.644
အပြောင်းအလဲနဲ့	-10.6443
နည်းဟု	-10.6451
ဝှမ်း	-10.6458
account	-10.6459
ကိန်းဂဏန်း	-10.6459
အညီ	-10.6469
ဘီစီ	-10.647
999	-10.6472
cess	-10.6473
ရက်စွဲ	-10.6475
▁who	-10.6476
▁မင်္ဂလာရှိ	-10.6479
verse	-10.6483
izing	-10.6487
ender	-10.6489
2.8	-10.6489
ေၾကာင့္	-10.6495
-3-	-10.6495
စက္ကန့်	-10.6497
▁Router	-10.6497
like	-10.6497
▁valve	-10.6497
လျက်ရှိသည်။	-10.6498
ဖတ်ရှု	-10.6498
▁Prepar	-10.6499
သလောဟု	-10.6503
အဖွဲ့ဝင်များ	-10.6505
▁သင်ဒီမှာ	-10.6506
▁Apps	-10.6507
တစ်ဝက်	-10.651
ထံမှထုတ်လုပ်သူ	-10.651
ments	-10.6513
ဂတိ	-10.6514
ကိုဘယ်လို	-10.6517
အတွေး	-10.6519
စစ်ဆေးခြင်း	-10.6523
ယ်ယူ	-10.6526
အမှုဆောင်	-10.6532
လှူဒါန်း	-10.6537
ဘက်တီးရီးယား	-10.6537
အိမ်သူအိမ်သား	-10.6537
▁Affiliate	-10.6537
▁နိုက်ကလပ်	-10.6537
▁Electromagnetic	-10.6537
လွင်ပြင်	-10.6538
ရွတ်	-10.6539
နဲ့ပတ်သက်ပြီး	-10.6539
အလယ်၌	-10.6539
ငှားရမ်းခြင်း	-10.6539
▁ချန်ထား	-10.6541
မောင်းသူ	-10.6546
ကိုယ်တော်	-10.6546
လုပ်ဆောင်မှု	-10.6555
km	-10.6561
1.3	-10.6569
အချိန်၌	-10.6575
ချင်တာ	-10.6575
ကြေငြာ	-10.6577
လက်ဝတ်ရတနာ	-10.6577
စံတော်ချိန်	-10.6577
သော့ခတ်	-10.6577
ဖုန်ဖယ်ရှားရေး	-10.6577
မျှော်စင်	-10.6578
TM	-10.6579
count	-10.6581
date	-10.6583
▁Show	-10.659
▁လောကီ	-10.6592
ခဲ့ရင်	-10.6593
Cl	-10.6594
▁အသုံး	-10.6597
ချက်ချင်း	-10.66
ဖြည်	-10.6602
▁Eco	-10.6604
ထွက်၍	-10.6604
▁ဘယ္လို	-10.6608
▁Mc	-10.6609
မီးလောင်	-10.6611
ရှိကြောင်း	-10.6616
ကော်ပိုရိတ်	-10.6617
ပွိုင့်	-10.6617
ဆိုပါစို့	-10.6617
အမွှာ	-10.6617
လှပသော	-10.6617
အဝတ်	-10.6617
▁Voice	-10.6617
▁dual	-10.6622
FT	-10.6624
▁Round	-10.6628
ကျန်ရစ်	-10.663
ရှိသည့်	-10.6631
▁Note	-10.6635
▁လအတွင်း	-10.6641
နိုင်ဘူး	-10.6642
▁ဒီမွာ	-10.6642
ကျွန်တော်တို့	-10.6643
2015	-10.6643
ဟူ၍၎င်း၊	-10.6646
▁Last	-10.6646
အဆီ	-10.6648
ပါလိမ့်မည်။	-10.6654
ခြင်းမရှိဘဲ	-10.6655
ဖွင့်လှစ်	-10.6656
လျှံ	-10.6657
$24.99	-10.6657
▁ရှန်ဒေါင်း	-10.6657
စက်မှုလက်မှု	-10.6657
အကြီးအကဲ	-10.6657
မေ့လျော့	-10.6658
ဘူတာရုံ	-10.6659
▁အကောင်	-10.6659
ဌာနမှူး	-10.6659
▁ခရီးစဉ်လီ	-10.666
တိုက်ခန်း	-10.6662
နယ်မြေ	-10.6664
cat	-10.6668
led	-10.6671
Direct	-10.6672
ေလာက္	-10.6677
အစရှိသော	-10.6683
သင့်လျော်သော	-10.6688
သတ်မှတ်ထားသော	-10.6691
လင္း	-10.6693
▁program	-10.6694
စေဟု	-10.6695
▁ဧဖရိမ်	-10.6697
အိမ်နီးချင်း	-10.6697
ပေါ်လစီ	-10.6697
ငါတို့သည်သင်တို့	-10.6697
ငြင်းပယ်	-10.6698
အမြဲ	-10.6701
တို့ကို၎င်း၊	-10.6702
▁KTM	-10.6703
နီးယား	-10.6704
▁mini	-10.6706
ather	-10.6706
4.3	-10.6709
war	-10.671
နီးစပ်	-10.6711
ဖြတ်တောက်	-10.6711
aung	-10.6715
ဧည့်	-10.6716
▁2005	-10.6717
▁Day	-10.6719
NS	-10.6725
နည်းစနစ်	-10.6725
LP	-10.6728
▁has	-10.6729
tis	-10.6734
ဟွန်	-10.6737
ရှူ	-10.6737
ပရိုတိန်း	-10.6738
ကွပ်မျက်	-10.6738
▁December	-10.6738
▁$1.99	-10.6738
ျပဳ	-10.6739
ရပ္	-10.6739
ပရိသတ်	-10.6744
မကြာခဏ	-10.6744
KG	-10.6747
ပုံနှိပ်ခြင်း	-10.6748
▁Union	-10.6748
အတွေ့အကြုံကို	-10.6751
ငယ္	-10.6752
အကြိမ်ရေ	-10.6761
စောင့်ရှောက်မှု	-10.6762
▁မောရှေအား	-10.6764
ကြည့်ပါ။	-10.677
▁Disc	-10.6771
▁မယုံ	-10.6774
ဒေါ်	-10.6777
အမြတ်အစွန်း	-10.6779
သနည်း	-10.6781
ပြောင်းရွှေ့	-10.6784
လှောင်	-10.6785
ION	-10.6788
ပယ်ဖျက်	-10.6793
▁GA	-10.6797
ature	-10.6799
▁Gal	-10.6801
ကိုကူညီ	-10.6807
▁ကံကောင်း	-10.6808
▁Fu	-10.6811
▁ပေးပါ	-10.6819
▁csgo	-10.6819
▁ဖုန်းဘီလ်	-10.682
▁တော၌	-10.6821
field	-10.6822
ita	-10.6824
▁Load	-10.6827
▁26,	-10.6828
best	-10.6829
▁Master	-10.683
အန်းဒရွိုက်	-10.6834
အမှု၌	-10.6834
php	-10.6834
▁Press	-10.6836
ski	-10.6837
ပူဇော်သက္ကာ	-10.6841
▁နှစ်ချက်	-10.6843
▁ကျနော်တို့က	-10.6845
ပျောက်ဆုံး	-10.6854
ိုက္	-10.686
▁Ultrasonic	-10.686
本	-10.686
▁sub	-10.686
▁အပိုဒ်	-10.686
▁မှာထား	-10.6863
rel	-10.6863
band	-10.687
▁Coating	-10.6872
ရှိပါက	-10.6873
ျာ	-10.6874
လက်ဝဲ	-10.6877
link	-10.6878
▁ကမ္ဘာတစ်လွှားက	-10.6879
အမေရိက	-10.688
Myanmar	-10.6882
ကိုထိန်းချုပ်	-10.6883
ခြင်းအမှု	-10.6887
စိစစ်	-10.6889
စီမံခန့်ခွဲမှု	-10.689
တိုးတက်လာ	-10.6895
ဘူးလို့	-10.6898
မွမ်းမံ	-10.6899
▁?????	-10.6901
ၤ	-10.6901
ဖြန့်ဖြူး	-10.6901
▁Caribbean	-10.6901
လှိုက်လှဲစွာ	-10.6901
အကြီးမားဆုံး	-10.6901
▁အညွှန်းကိန်း	-10.6901
ညွှန်းကိန်း	-10.6902
ဖျက်သိမ်း	-10.6906
စီးနင်း	-10.6907
▁coil	-10.6907
OT	-10.6912
▁ST	-10.6913
▁Jan	-10.6919
▁POS	-10.6923
ကြင်နာ	-10.6928
ရှာရန်	-10.6928
▁မကောင်း	-10.6928
▁မြင်နိုင်	-10.693
ေပ	-10.693
ရောင်စုံ	-10.6932
သင်ပေး	-10.6933
ပေါ်ထွန်း	-10.6937
ခေါ်၍	-10.6938
တိကျတဲ့	-10.6938
-25	-10.694
ဟာ့ဒ်ဝဲ	-10.6942
လေ့လာကြရအောင်	-10.6942
EM	-10.6945
7.1	-10.6949
cker	-10.695
ရှေးဟောင်း	-10.6956
သီးသန့်	-10.6962
စက်ပစ္စည်း	-10.6963
ပြီးဆုံး	-10.6964
ခဲ့ကြသည်	-10.6964
မြောက်ဘက်	-10.6966
ကတ်များ	-10.6966
ဆော	-10.6968
အားလံုး	-10.6974
ppy	-10.6975
ပြုမူ	-10.6981
ယ်ရီ	-10.6982
ရေအာင္	-10.6984
ဆိုဒ်များ	-10.6984
စကေး	-10.6984
ဘွယ်သော	-10.6987
lm	-10.6989
တောင်ဘက်	-10.6989
ဖက္	-10.699
နှင့်အညီ	-10.6991
ရောစပ်	-10.6994
exe	-10.6997
ုန်မြို့	-10.7
မြှင့်တင်	-10.7003
ဖို့လိုတယ်	-10.7007
▁Pat	-10.7007
နှစ်ပေါင်း	-10.7012
သွန်း	-10.7014
ology	-10.7019
▁ရက်အတွင်း	-10.702
ညံ့	-10.7022
Uncategorized	-10.7026
ဂျမ်ဘို	-10.7026
ခကျြ	-10.7026
語	-10.7026
ဦးစီးဌာန	-10.7026
အပြုသဘော	-10.7026
▁ထို့ကြောင့်	-10.7026
▁ကၽြန္ေတာ္တို႔	-10.7027
သည့်အခါ	-10.7028
က၎င်း၏	-10.7028
FA	-10.7028
itch	-10.7029
days	-10.7031
▁ငါ့သား	-10.7031
onmy	-10.7036
▁မောရှေသည်	-10.7037
အိပ်ပျော်	-10.7041
▁ကိ	-10.7042
▁ထိုသူကို	-10.7043
နုတ်	-10.7043
paid	-10.7047
wp	-10.7047
မိခင်	-10.7048
▁၎င်းဟာ	-10.7051
▁အဲဒါနဲ့	-10.7059
5.7	-10.7059
ကုထုံး	-10.7059
စိန့်	-10.706
မိဘ	-10.7061
မိန့်တော်မူ၏။	-10.7061
001	-10.7063
ချင်ပါတယ်	-10.7064
သိမ်	-10.7067
လျောက်ပတ်	-10.7067
သတို့သမီး	-10.7067
-60	-10.7069
EE	-10.7069
ဖြန့်	-10.707
ကယ်နှုတ်	-10.7071
အဖြူရောင်	-10.7071
▁သိမ်းယူ	-10.7072
တစ်ကောင်	-10.7076
ဖြစ်ရပ်များ	-10.7077
ချုံ့	-10.7077
▁၄င်း	-10.7079
▁Transfer	-10.7081
မြို့နယ်	-10.7082
ကျည်	-10.7082
ဇော	-10.7083
FR	-10.7084
မှတ်တမ်းများ	-10.7086
ဆီးတား	-10.7086
unt	-10.7086
▁ထိုအမှု	-10.7096
နူး	-10.7097
▁MIN	-10.7098
စွမ်းအား	-10.7098
▁အကယ်	-10.7102
ရှိသမျှတို့သည်	-10.7104
ဗျာဒိတ်	-10.7104
▁Gar	-10.7105
သွပ်ရည်စိမ်	-10.7109
▁Agency	-10.7109
▁Twitter	-10.7109
▁catalog	-10.7109
日	-10.7109
▁လိမ်လည်	-10.711
market	-10.7115
တဲ႔	-10.7116
fla	-10.712
▁ဝတ်ပြု	-10.7121
▁ဒုက္ခသည်	-10.7121
သေနတ်	-10.7129
တစ်ခုဖြစ်သည်	-10.7133
သတ်မှတ်ထား	-10.7134
ပိတ်ပင်	-10.7135
hang	-10.7135
အင်္ဂါရပ်	-10.7139
ort	-10.714
သငယ်	-10.7142
▁ဒုစရိုက်ကို	-10.7143
ပုံသွင်း	-10.7145
▁Din	-10.7148
လို့ခေါ်တဲ့	-10.715
မူးယစ်ဆေး	-10.7151
နေတာက	-10.7151
generator	-10.7151
ဟင်းသီးဟင်းရွက်	-10.7152
▁privacy	-10.7152
▁Silicon	-10.7152
စာရင်းအင်း	-10.7152
▁sales	-10.7152
ပစ္စည်းတွေ	-10.7152
ႏွင့္	-10.7152
-14	-10.7153
မဟုတ်၊	-10.7153
နယ်စပ်	-10.7157
လေယာဉ်ခရီးစဉ်	-10.716
ement	-10.7163
▁ကမိတ္တူးကူးစက်	-10.7164
ရပါမယ်။	-10.7166
စေချင်	-10.7169
မိမိကိုယ်ကို	-10.717
ဘယ်လောက်	-10.7171
များဖြစ်ကြသည်	-10.7175
သက်ဆိုင်ရာ	-10.7178
▁ကျွန်တော်တို့က	-10.7178
▁ယုဒအမျိုး	-10.7179
ဂဟေဆော်ခြင်း	-10.7181
တန္း	-10.7182
နှစ်လုံး	-10.7183
မင်းသမီး	-10.7183
▁ဖြောင့်မတ်သောသူ	-10.7186
▁Collets	-10.7187
ပါသေးတယ်။	-10.7192
ဖြစ်လိမ့်မည်။	-10.7193
ဈ	-10.7193
သန့်စင်	-10.7194
ပဲဖြစ်ဖြစ်	-10.7194
▁discharge	-10.7194
▁Sign	-10.7195
သိုးမွှေး	-10.7198
UI	-10.7198
ကောက်ယူ	-10.7199
ယူဆ	-10.7199
ပခုံး	-10.72
Sales	-10.7202
အခမဲ့ဂီတ	-10.7204
ဂျပန်	-10.721
▁Date	-10.7212
▁ဖြောင့်မတ်ခြင်း	-10.7212
၁၄	-10.7214
trip	-10.7221
="17	-10.7221
AO	-10.7222
carb	-10.7223
ဂိတ်	-10.7223
2.7	-10.7236
လျော်	-10.7236
▁ဘာလုပ်	-10.7236
တုန်လှုပ်	-10.7237
▁electrostatic	-10.7237
hack	-10.7238
▁job	-10.7238
အဆိုပြု	-10.724
▁ရောဂါလက္ခဏာ	-10.7243
အိုမင်း	-10.7243
လက်တွေ့	-10.7244
▁ထာဝရဘုရားမိန့်	-10.7246
▁Over	-10.7246
▁ယနေ့တွင်	-10.7259
▁Bur	-10.7262
တိုက္	-10.7263
bet	-10.7269
ဖြစ်ပေါ်စေ	-10.727
စုံလင်	-10.7271
တြက္	-10.7273
▁Bit	-10.7275
Samitivej	-10.7279
ချစ်ခြင်းမေတ္တာ	-10.7279
[5]	-10.728
pdf	-10.728
▁RZ	-10.728
ပြင်များမဂ္ဂဇင်း	-10.7281
အသိဉာဏ်	-10.7281
နှောင်	-10.7282
ရဟု	-10.7283
▁နှစ်စဉ်	-10.7285
နွမ်း	-10.7286
▁အထက်က	-10.7286
အေဂျင်စီ	-10.7287
▁မကောင်းသော	-10.7293
▁Core	-10.7294
လို့ရတဲ့	-10.7296
အထူးပြု	-10.7297
လူငယ်	-10.7299
▁Semi	-10.73
ပိုင်ခွင့်	-10.7305
တထောင်	-10.7306
▁Dual	-10.7306
ကာလပတ်လုံး	-10.7308
ify	-10.7309
vers	-10.731
▁ဂရိ	-10.7311
▁အရမ်းကို	-10.7311
သူတစ်ဦး	-10.7314
bel	-10.7314
▁SH	-10.7316
စစ်တပ်	-10.7317
="15	-10.7318
နောက်ခံ	-10.7318
▁Chat	-10.7319
ခ်စ္	-10.732
option	-10.7322
ချွေတာ	-10.7322
ဖိုရမ်	-10.7322
ပက်	-10.7322
▁Vjs	-10.7322
▁Djs	-10.7323
လျှော်	-10.7323
မရွိ	-10.7329
စီးပွားဖြစ်	-10.7337
del	-10.7338
▁cre	-10.7338
ထိရောက်သော	-10.7339
▁GP	-10.734
အချို့ကို	-10.7347
▁နည်းပညာဆိုင်ရာ	-10.7348
▁ပေးတော်မူ	-10.7349
စီမံ	-10.7354
မိန်းကလေး	-10.7355
ရှေ	-10.7355
▁RS	-10.7359
9001,	-10.7362
လူမီနီယံ	-10.7365
ဒဏ္ဍာရီ	-10.7365
▁Desktop	-10.7365
▁November	-10.7365
▁Screen	-10.7365
ချီးမြှင့်	-10.7365
ရတနာ	-10.7366
လျှာ	-10.7367
အမွေ	-10.7368
▁နယူးယောက်	-10.7368
class	-10.7368
လက်ကောက်	-10.7369
upload	-10.737
▁menu	-10.7375
9.0	-10.7376
ရက်နေ့	-10.7383
▁repaints	-10.7385
char	-10.7386
နေရောင်ခြည်	-10.7389
အဓိကအားဖြင့်	-10.7389
ရေတပ်	-10.7392
3.1	-10.7392
▁နှ	-10.7392
▁SM	-10.7395
▁သတိပြု	-10.7396
ona	-10.7397
နံနက်	-10.7404
တဲ့နေရာ	-10.7405
လိုလျှင်	-10.7405
ပို့ဆောင်ရေး	-10.7408
Guangdong	-10.7409
ဆိုဒီယမ်	-10.7409
▁connector	-10.7409
▁မီးရှို့ရာယဇ်	-10.7409
pha	-10.7409
▁string	-10.7413
mount	-10.7413
အရင်းအမြစ်များ	-10.7414
SH	-10.7416
ကြီးကြပ်	-10.7418
▁Va	-10.7421
8.5	-10.7426
အရာဝတ္ထု	-10.7431
မဟုတ်ပါဘူး။	-10.7434
ပိုင်ရှင်များ	-10.7434
▁Xi	-10.7441
ခွဲခြမ်းစိတ်ဖြာ	-10.7452
ဒင်္ဂါးပြား	-10.7452
အထွေထွေ	-10.7452
၂၀၁၈	-10.7452
▁ဒီဇင်ဘာလတွင်	-10.7457
color	-10.7459
▁ကိုရီးယား	-10.7461
wan	-10.7462
▁ပြုတော်မူ	-10.7463
▁အဲ့ဒီ	-10.7464
အခ်ိန္	-10.7468
စာရွက်စာတမ်း	-10.7469
▁အဆ	-10.7473
တာပေါ့	-10.7474
၁၇	-10.7476
တပ္	-10.7479
ယင်း၏	-10.7481
ဝန္	-10.7485
မြှင့်	-10.7489
PO	-10.7489
လူသား	-10.7492
с	-10.7496
ေျမာက္	-10.7496
အတားအဆီး	-10.7496
အထီးကျန်	-10.7496
▁Connector	-10.7496
▁Entertainment	-10.7496
▁Tianjin	-10.7496
▁ကောင်တီ	-10.7497
grade	-10.7497
မှီခို	-10.7498
▁enable	-10.7499
ဆက်နွယ်	-10.75
ရေချိုး	-10.7502
▁မရောက်	-10.7503
တိုတောင်း	-10.7505
ချင်ရင်	-10.7507
cheng	-10.7507
bb	-10.7509
အမှုတို့ကို	-10.751
▁Mag	-10.7511
▁အိမ်ထောင်	-10.7512
▁အဘိ	-10.7512
▁TS	-10.7513
ပြည်၊	-10.7519
tool	-10.752
စည်းမျဉ်း	-10.7523
ဝဲ	-10.7524
ရထားလမ်း	-10.7525
ကြ်	-10.7532
ုိင္း	-10.7536
ခြံစည်းရိုး	-10.754
တိုင်းဒေသကြီး	-10.754
နောက်ဆက်တွဲ	-10.754
▁Kyaw	-10.754
search	-10.754
သံသရာ	-10.754
▁ကျွန်တော့ကို	-10.754
အာဟာရ	-10.7542
အသွေး	-10.7543
ကိုအသုံးပြုသည်	-10.7544
ရိွ	-10.7548
lia	-10.7549
စဉ်အတွင်း	-10.7555
ကိုးစား	-10.7559
အသက်အရွယ်	-10.7568
cul	-10.7569
▁အံ	-10.757
▁ဟုတ်တယ်	-10.7573
လှည်း	-10.7583
ဖောင်ဒေးရှင်း	-10.7584
ဒီဇိုင်နာ	-10.7584
▁Uni	-10.7585
tar	-10.7586
ရောက်ကြည့်ရှု	-10.7587
စုံတွဲ	-10.7592
ဇစ်	-10.7595
▁သူမက	-10.7596
အမှုန်	-10.7599
အလားတူ	-10.76
အောက်မေ့	-10.7602
ကိုရွေးချယ်ပါ	-10.7604
ville	-10.7606
▁သင်တို့တွင်	-10.7607
တွေကတော့	-10.7607
ေန႔	-10.7607
ken	-10.7608
သပ်	-10.7614
လက်ပတ်	-10.7616
၆၅	-10.7616
2020	-10.7626
gel	-10.7628
å	-10.7628
▁Refill	-10.7628
text	-10.7628
▁သိုးသငယ်	-10.7629
▁Fort	-10.7629
ဆိုတာပါ။	-10.7635
ဂုဏ်အသရေ	-10.7635
သွားပြီ	-10.764
နှင့်မီဒီယာ	-10.7644
စံပြ	-10.7645
ဆက်ကပ်	-10.7649
ချွန်	-10.765
▁Bio	-10.7651
လျှော့စျေး	-10.7653
ချင်တယ်။	-10.7655
ယောဘ	-10.7657
▁လူတစ်ယောက်	-10.7659
▁ကယ်တင်တော်မူ	-10.7661
တို့ရဲ့	-10.7661
နှင့်သင့်	-10.7669
▁မင်္ဂလာပါ	-10.767
အနားမှာ	-10.7672
▁Development	-10.7672
▁Volume	-10.7672
▁Institute	-10.7673
▁AM	-10.7674
အဘယ်မှာရှိ	-10.7675
ူကြိုက်အများဆုံး	-10.7678
▁Of	-10.7679
သံမဏိပိုက်	-10.7686
ရရှိနိုင်ပါ	-10.7687
ကြီးပြင်း	-10.7689
cut	-10.7689
ဖွယ်ရာ	-10.7691
▁ကာဗွန်သံမဏိ	-10.7694
shan	-10.7697
▁ရေးထား	-10.7698
ွိ	-10.7698
VAC	-10.7704
▁Comment	-10.7704
အိမ်၌	-10.7705
လာပါတယ်။	-10.771
▁Christ	-10.7713
Custom	-10.7714
ရောင်းအား	-10.7714
▁Chrome	-10.7717
အတွေးအခေါ်	-10.7717
ပါလိမ့်မည်	-10.7717
အမှတ်အသား	-10.7718
ဗုံး	-10.7723
ပေါင်းစုံ	-10.7729
▁optional	-10.7734
အတွင်းရှိ	-10.7735
▁နာမတော်ကို	-10.7739
▁အမျိုးသမီးတွေ	-10.774
????????????????	-10.7746
▁10000	-10.7746
လုပ်သား	-10.7748
ရသေး	-10.7752
▁SK	-10.7755
▁ထိုအရပ်၌	-10.7755
▁ဘုရားသခင့်	-10.7758
▁Rob	-10.7761
illa	-10.7761
မလိုအပ်ပါဘူး	-10.7761
ပလီကေးရှင်း	-10.7762
▁Ultimate	-10.7762
▁double	-10.7762
▁တယ်လီနော	-10.7762
ဖှဲ့	-10.7762
▁Linux	-10.7762
▁Truck	-10.7763
Hz	-10.7763
▁မူပိုင်ခွင့်	-10.7763
fri	-10.7765
5.8	-10.777
▁လွန်ခဲ့သော	-10.7773
နူ	-10.7774
][	-10.7776
စုံစမ်းစစ်ဆေး	-10.7784
▁updates	-10.7796
▁နောက်မှာ	-10.78
ံုး	-10.7803
တကာ	-10.7805
အသစ်တစ်ခု	-10.7806
ကျေးရွာ	-10.7808
စီရင်တော်မူ	-10.7811
IL	-10.7813
အောင်မြင်စွာ	-10.7816
နာမည်ကြီး	-10.7818
ချီး	-10.7826
တာထက်	-10.7826
ssi	-10.7829
စေသည်။	-10.783
▁ထိုပြည်	-10.7831
FF	-10.7841
▁ကြောင့်၊	-10.7844
2009	-10.7844
တစ်ခုချင်းစီ	-10.7846
၂၀၁၇	-10.7852
စည်းကမ်း	-10.7852
လူမှုရေး	-10.7852
စုတ်ယူခြင်း	-10.7852
ဒီမိုကရေစီ	-10.7852
ဓါး	-10.7852
ဂျာမဏီ	-10.7852
ရေကူးကန်	-10.7852
ကွန်ကရစ်	-10.7852
အဖြစ်အပျက်	-10.7852
သွန်းလောင်း	-10.7853
▁၂၀၁၀	-10.7854
▁မဟုတ်လော။	-10.7855
မာန်	-10.7856
ချဲ့	-10.7857
▁စိန္	-10.7858
လက်သည်း	-10.7858
="18	-10.7861
ခွန်အား	-10.7861
ချ်	-10.7863
န်ထမ်း	-10.7863
သည်အထိ	-10.7863
▁ဘုရားသည်	-10.7864
မို့လို့	-10.7867
ပို့ပေး	-10.7867
စျေးဝယ်	-10.7872
မကြာသေးမီက	-10.7875
ခွဲစိတ်	-10.7878
ဒူး	-10.7879
▁နည်းပညာစိတ်	-10.7881
ရွယ်	-10.7882
▁တကယ်က	-10.7882
တော်မူပါဟု	-10.7893
ခြင်းလုပ်ငန်း	-10.7896
ကင်းရှင်းရေး	-10.7898
ကယ်ဆယ်ရေး	-10.7898
အခ်ိန္ပိုင္း	-10.7898
▁Americas	-10.7898
▁image	-10.7899
အမှောင်	-10.7899
အင်ဗာ	-10.7902
▁Toner	-10.7902
▁Geo	-10.7907
dale	-10.7911
wood	-10.7918
ဒင်	-10.7919
▁ဒါတွေက	-10.792
ပေါ်ပေါက်	-10.7921
▁Flat	-10.7923
များအကြား	-10.7925
▁Gra	-10.7926
▁Patch	-10.7926
ပါမယ်	-10.7926
ဖြတ်သန်း	-10.7929
ရှိတယ်၊	-10.794
▁ဗာဗုလုန်	-10.7941
▁1080	-10.7942
ဝင်စားစရာသတင်း	-10.7943
▁Silver	-10.7943
crypt	-10.7943
ပုံဖော်	-10.7949
မ္မ	-10.7951
ြန္း	-10.7951
ပေါ့ပါး	-10.7953
uro	-10.7954
သောသူ၏	-10.7958
▁ကျောင်းသားတွေ	-10.7958
▁ပတ်သက်ပြီး	-10.7958
ball	-10.796
ပတ်လည်	-10.7961
lect	-10.7962
▁ငါ့စကားကို	-10.7968
ပါသလဲ	-10.7974
▁09:	-10.7975
bert	-10.7978
ဓိ	-10.7978
စည်းမျဉ်းများ	-10.7983
အင်တာဗျူး	-10.7989
ရှုတ်ချ	-10.7989
▁Supply	-10.7989
▁categories	-10.7989
▁machine	-10.7989
frame	-10.799
HZ	-10.799
▁တရားစီရင်	-10.799
▁၀၁	-10.799
ique	-10.7992
▁Archived	-10.7993
ကိုဖတ်ရှု	-10.8001
ကြလိမ့်	-10.8002
ဒီဂရီ	-10.8004
▁Ju	-10.8007
တုံ့ပြန်	-10.8007
ရမှတ်	-10.8008
▁အဆုတ်	-10.8014
101	-10.8016
▁အပြစ်တင်	-10.802
▁သိသာ	-10.8023
ပေါ်၌	-10.8025
၃၇	-10.8028
အကျိုးရှိ	-10.8031
ဖြန့်	-10.8033
ခြင်းအားဖြင့်	-10.8034
▁ကွန်ပြူတာ	-10.8035
ေနာ္	-10.8035
ever	-10.8039
ရက္	-10.8044
▁API	-10.8045
အိမ်ခြံမြေ	-10.8053
you	-10.8054
နမ်း	-10.8058
="16	-10.8061
▁အသင်းတော်	-10.8064
အလုပ္	-10.8066
ပိုင်ရှင်	-10.8073
ရရှိနိုင်ပါသည်။	-10.8077
▁နေကြ၏။	-10.8077
နှင့်ပိုပြီး	-10.8079
▁ဘာတွေ	-10.808
т	-10.8082
▁February	-10.8082
▁January	-10.8082
တန္ဖိုး	-10.8082
▁ASTM	-10.8082
အဆင်သင့်	-10.8082
အဆောက်အဦးအပြင်	-10.8083
ပန်ကာ	-10.8084
▁Guide	-10.8084
▁optical	-10.8087
▁Dong	-10.8088
မွှေး	-10.8088
အဲဂုတ္တု	-10.8088
နှစ်တွင်	-10.8093
တပ်ဆင်ခြင်း	-10.8096
ျခားသား	-10.8098
ဘီယာ	-10.8106
လိုအပ်ပါတယ်။	-10.8106
မူလ	-10.8107
မျှော်	-10.8107
Plane	-10.8107
စူး	-10.8107
="2.9	-10.811
stant	-10.8113
11%	-10.8113
▁Hat	-10.8116
▁Tattoo	-10.8117
တမျိုး	-10.8119
▁သူမဟာ	-10.812
န္န	-10.8125
▁ဓမ္မသစ်ကျမ်း	-10.8128
▁ဧဒုံ	-10.8128
လေဟာနယ်	-10.8128
▁အားထုတ်	-10.8131
ဝင်စား	-10.8134
ada	-10.8135
ရမည့်	-10.8135
ယင်း	-10.8138
▁အစွမ်း	-10.814
ပျက်ကွက်	-10.814
တကျိပ်	-10.8141
မြင့်တက်	-10.8144
စံချိန်	-10.8145
▁Model	-10.8146
▁ငါ၏လူ	-10.8151
4.1	-10.8151
္ဆိုလွ်င္	-10.8157
၅၀၀	-10.8162
▁Share	-10.8163
stand	-10.8168
▁unit	-10.8168
ဘလော့	-10.8169
-4-	-10.8172
ဂျေ	-10.8173
ယွင်း	-10.8174
မိုးရွာသွန်းမှု	-10.8175
▁ညဉ့်	-10.8175
▁UTC	-10.8175
အခွင့်အလမ်း	-10.8175
စနေနေ့	-10.8176
▁AUD	-10.8176
ဂီတသံ	-10.8178
အိုင်ပက်	-10.8178
kHz	-10.818
အိမ်ရှင်	-10.818
ကစားတဲ့	-10.8186
မယ်ဆိုတာ	-10.8188
▁လွှတ်ပေး	-10.8196
လိုင်းများ	-10.82
အကောင်း	-10.8206
ဦးရေ	-10.8207
="13	-10.8214
▁ကျေးဇူးတော်ကို	-10.8214
မှတ်ဉာဏ်	-10.8215
စတူဒီယို	-10.8222
▁original	-10.8222
ထြက္	-10.8222
သွပ်	-10.8222
▁Bahasa	-10.8222
စွန့်စားမှု	-10.8222
စောစော	-10.8223
ကိုပြောင်းလဲ	-10.8223
▁Spring	-10.8224
TT	-10.8225
သင့်လျော်	-10.8228
▁လက်ကား	-10.823
သတ်မှတ်ထားတဲ့	-10.8232
လန်း	-10.8234
rum	-10.8236
▁Tank	-10.8236
ရေးစင်တာ	-10.8237
အတတ်	-10.8238
6.1	-10.8239
ဘယ္	-10.8249
▁နာမတော်	-10.825
ိမ်း	-10.8255
ခဲ့ကြတဲ့	-10.8256
နည်းတူ	-10.8257
နည်းပါး	-10.8264
ကပြောပါတယ်	-10.8265
အစီရင်ခံ	-10.8267
japan	-10.8269
▁Button	-10.8269
▁Daily	-10.8269
▁Two	-10.827
ၾကည့္	-10.8271
ကြမ်းခင်း	-10.8272
ရသောအခွင့်	-10.8273
▁ဗာလ	-10.8273
စာတိုက်	-10.8274
ဘရိတ်	-10.8276
ပေးတော်မူသော	-10.8277
▁နေ့တိုင်း	-10.8277
ခုံး	-10.828
▁မြောက်အမေရိက	-10.8281
ညို	-10.8283
အမည်များ	-10.8289
6.3	-10.8294
▁ကိုယ်တော်ကျွန်	-10.8295
="2.8	-10.8299
လှဲ	-10.8303
၃၅	-10.8305
▁ပညတ်တော်	-10.8311
မြင်လျှင်၊	-10.8312
အလုပ	-10.8313
အချက်အလက်များကို	-10.8316
နှောင့်ရှက်	-10.8316
ခြိမ်းခြောက်	-10.8316
တွေကအဘို့အဘိဓါန်	-10.8316
ခြယ်	-10.8316
မြင်း	-10.8317
အနောက်ဘက်	-10.8317
အခွင့်အရေး	-10.8317
ျမန္	-10.8318
ပုံတစ်ပုံ	-10.832
ကျူးလွန်	-10.832
သဘာဝပတ်ဝန်းကျင်	-10.8327
ဖါ	-10.8331
သည့္	-10.8333
eck	-10.8333
တောင်တက်	-10.8335
▁PCs	-10.8335
▁Blog	-10.8342
လိုဂို	-10.8343
SPY	-10.8345
၇၅	-10.8348
▁Dec	-10.8348
စောင့်ရှောက်မှု	-10.8348
iff	-10.8351
မွန်း	-10.8352
ျဖစ္ပါတယ္။	-10.8352
သတိပေးချက်	-10.8355
ပါ၏ဟု	-10.8355
▁မြို့ရိုးကို	-10.8359
ဂျုံ	-10.8361
rap	-10.8362
▁Ninja	-10.8364
▁Extract	-10.8364
ယင်	-10.8365
▁ဆိုသည်မှာ	-10.8365
ျဖင့္	-10.8365
▁Sand	-10.8371
▁130	-10.8372
ille	-10.8372
ထွင်း	-10.8374
range	-10.8374
လွတ်မြောက်	-10.8375
bon	-10.8376
▁လစဉ်	-10.8376
Ed	-10.8377
ဂဟေဆော်	-10.8378
ွမ်း	-10.8381
ကွန်ယက်ကို	-10.8382
▁လူများတို့	-10.8388
ုိင္	-10.8392
သိပ်သည်းဆ	-10.8393
3.2	-10.8394
▁Now	-10.8394
ပဲလေ။	-10.8396
II	-10.8398
ပြရန်	-10.8399
အကြာမှာ	-10.8399
သန့်ရှင်း	-10.8402
ရှောက်	-10.8404
၉၅	-10.8407
ကဲ့သို့၎င်း	-10.8412
ဂလားပင်လယ်အော်	-10.8412
င်းလွယ်ပြင်လွယ်	-10.8412
PI	-10.8413
▁Process	-10.8414
ေဆး	-10.8415
▁ကုန်အမှတ်တံဆိပ်	-10.8415
▁Money	-10.8417
▁ဗျာဒိတ်တော်	-10.8417
နေပါတယ်	-10.8419
နှစ်ချက်	-10.8422
▁ထိုအရပ်	-10.8422
rator	-10.8422
လို့ရပါတယ်	-10.8423
တော်မူလိမ့်မည်။	-10.8424
ဥာဏ်	-10.8426
▁တော်တော်	-10.8426
ခွင့်ပြုချက်	-10.8433
ရှုပ်	-10.8434
▁ဆိုကြ၏။	-10.8437
ဖြို	-10.8439
အမည်ရှိသော	-10.8439
▁Mod	-10.8441
▁Times	-10.8442
ဂိုး	-10.8444
စွမ်းအင်သုံး	-10.8446
ဟော့	-10.8448
အာမခံချက်	-10.8451
Count	-10.8451
saveatrain	-10.846
ယာယီ	-10.846
သဏ္ဌာန်	-10.846
▁seekers	-10.846
ဆြဲ	-10.846
▁နုိင္ငံ	-10.846
အပူပေးစက်	-10.846
ဖြစ်ရပ်မှန်	-10.8463
▁ထိုနည်းတူ	-10.8467
မှုကြောင့်	-10.8468
စေခြင်းငှါ၎င်း၊	-10.8468
တန်ဖိုးကို	-10.8469
ဘုတ်	-10.847
▁syn	-10.8473
အဆင်သင့်	-10.8474
ဖုတ်	-10.8475
ယုန်	-10.8476
ကြံ့ခိုင်ရေး	-10.8477
မျက်မှန်	-10.8477
▁750	-10.8481
ပြင်ဆင်မှု	-10.8484
ခရု	-10.8487
မိုဘိုင်းဖုန်း	-10.8487
HI	-10.849
တစုံ	-10.849
နောက်ပိုင်း	-10.8492
ေထာင္	-10.8492
▁ဗြိတိန်နိုင်ငံ	-10.8493
▁အဲ့ဒါ	-10.8496
မီနီယမ်အလွိုင်း	-10.8498
ဆင်းသက်လာ	-10.8501
▁Jose	-10.8501
▁pin	-10.8502
▁လူအပေါင်းတို့	-10.8503
	-10.8508
р	-10.8508
ပရောဂျက်	-10.8508
▁Terminal	-10.8508
▁which	-10.8508
▁ရန္ကုန္ျမိဳ	-10.8508
♪	-10.8508
▁Transformer	-10.8508
အင်ပါယာ	-10.8508
▁အမည်ပေးထားသော	-10.8508
▁Green	-10.8508
▁network	-10.8508
စမ်းသပ်ချက်	-10.8509
Dv	-10.851
လုပ်တာ	-10.8511
▁တစ်ကမ္ဘာလုံး	-10.8512
တရုတ်ထံမှ	-10.8512
ရတယ္	-10.8512
▁Audi	-10.8514
▁India	-10.8516
လာမယ့်	-10.8518
ကပ်ရောဂါ	-10.8519
ဆိုလိုတာ	-10.852
ဂျွန်	-10.852
စေတယ်။	-10.852
မစ်	-10.8521
▁Chen	-10.8522
အမည်ဖြင့်	-10.8523
တယောက်သည်	-10.8524
1,000	-10.8525
▁FOR	-10.8525
မဟုတ်။	-10.8528
လုံခြုံမှု	-10.8536
ထုတ်လုပ်ရန်	-10.8536
ွန်လိုင်းကာစီနို	-10.8542
သလိုပဲ	-10.8545
▁Mass	-10.8546
chang	-10.8546
ခဲ့ကြောင်း	-10.8548
▁APP	-10.8549
▁Arm	-10.8554
ႊ	-10.8556
▁၃၁	-10.8556
bio	-10.8557
ဖော်ရွေ	-10.8557
ဗီတာမင်	-10.8557
▁Karnar	-10.8557
▁shoppingdirect	-10.8557
▁variable	-10.8557
ဂျို	-10.8559
▁Club	-10.8559
▁ရောဂါကူးစက်	-10.856
▁Hotel	-10.8562
စက်ရုပ်	-10.8562
ရှောင်ရှား	-10.8562
oper	-10.8563
လတံ့သော	-10.8563
ရိုးရှင်းသော	-10.8564
▁FOB	-10.8566
mag	-10.8575
▁ရောင်းမည်	-10.8576
="3.9	-10.8576
▁Cat	-10.8579
▁ထိုသခင်	-10.858
▁ဘုရား၏	-10.8583
တစ်လျှောက်	-10.8586
ရယူနိုင်	-10.8588
▁ကြားပြော	-10.8589
အက်ဆစ်	-10.859
ဖြေရှင်းနည်း	-10.8597
2013	-10.8602
▁apps	-10.8603
အလျောက်	-10.8605
=5.0.6	-10.8605
ဘွိုင်လာ	-10.8605
ငြင်းခုံ	-10.8606
United	-10.8608
အချက်က	-10.8609
▁GBP	-10.861
vir	-10.8612
▁made	-10.8612
▁MY	-10.8614
ense	-10.8614
မဟုတ်တဲ့	-10.8618
5,000	-10.8618
တိုက်ဖျက်	-10.8625
ချေးငွေ	-10.8626
အဖြစ်ကောင်းစွာ	-10.8628
ဘော့	-10.8632
▁ပြီးရင်	-10.864
▁ဘော်ပြ	-10.8642
EG	-10.8642
လိုက်တဲ့အခါ	-10.8646
ဟန်ပြ	-10.8653
ခရမ်းလွန်	-10.8654
ဖွငျ့	-10.8654
ဘလူးတုသ်	-10.8654
လေအေးပေးစက်	-10.8654
▁Directory	-10.8654
▁desktop	-10.8654
▁Plug	-10.8655
စတစ်ကာ	-10.8655
="2.1	-10.8658
ထင္	-10.866
ဆိုးဝါး	-10.866
▁Create	-10.866
တန်းဆာ	-10.8663
▁မော်ဒယ်နံပါတ်	-10.8666
3.6	-10.8667
ဥ်	-10.867
▁အဓမ္မ	-10.8677
▁အဲဂုတ္တုပြည်မှ	-10.8677
စဉ်တွင်၊	-10.8683
အစ်မ	-10.8688
ကျင်း	-10.8689
▁ရုပ်ပုံများ	-10.8697
Hunan	-10.87
Φ	-10.8704
ၿမန္မာအိမ္ၿခံေျမ	-10.8704
▁Active	-10.8704
စားသုံးမှု	-10.8704
ငွေသား	-10.8705
▁တစ်ယောက်ယောက်	-10.8706
လယ်သမား	-10.8713
အသစ်သော	-10.8716
▁Feb	-10.8718
virus	-10.8724
="3.8	-10.8725
ဖယ်ရှားရေး	-10.8726
လျှော	-10.8728
အောက်၌	-10.8734
9.5	-10.8736
▁ဆင့်ဆို	-10.8736
သတင်းစာကို	-10.8737
="14	-10.8739
▁1500	-10.8739
move	-10.8742
ဖယောင်း	-10.8752
အင်္ဂလန်	-10.8753
အိုလံပစ်	-10.8753
အလုံးအရင်း	-10.8753
▁Catalog	-10.8753
▁Hospital	-10.8753
▁October	-10.8753
▁University	-10.8753
world	-10.8753
′′	-10.8753
▁CPU	-10.8753
▁၂၀၀၈	-10.8753
▁Work	-10.8754
▁ယဇ်ပူဇော်	-10.8754
self	-10.8754
မင်းကြီးသည်	-10.8754
့စ်	-10.876
ဘတ်စ်ကား	-10.8762
ခရီးသွားလာ	-10.8764
တှငျ	-10.8768
စြာ	-10.877
ပိုမြန်	-10.877
ခေတ်မီ	-10.8772
▁Bank	-10.8772
သူတွေဟာ	-10.8776
ခဲ့ကြပါတယ်။	-10.8778
ဗေလ	-10.878
▁imp	-10.8783
▁လူများတို့သည်	-10.8785
ချမ်း	-10.8786
▁God	-10.8787
DX	-10.8789
▁160	-10.8795
မို့	-10.8795
လိုက်တယ်	-10.8798
lum	-10.88
မတော်တဆ	-10.8803
ယှက်	-10.8803
▁ASME	-10.8803
xBet	-10.8803
သာသနာ	-10.8803
ဧဝံဂေလိတရားကို	-10.8803
မေးလ်	-10.8804
ထက်သာ၍	-10.8804
တူးဖော်	-10.8805
▁ဒါေၾကာင့္	-10.8806
install	-10.8809
မိုဃ်း	-10.881
ဖြစ်ပါ၏။	-10.881
ငြိမ်းချမ်းရေး	-10.8811
အမြဲတမ်း	-10.8812
▁Hand	-10.8813
ထုတ်လုပ်ရေး	-10.8813
နှင့်ပြည့်စုံ	-10.8814
ဧည့်	-10.8816
▁Head	-10.8817
ပြတ်သား	-10.8818
လူမီနီယမ်	-10.8821
ethyl	-10.8822
UL	-10.8822
အစုလိုက်	-10.8825
▁Forge	-10.8827
5.3	-10.8831
rag	-10.8834
တည်ထောင်ခဲ့ပြီး	-10.8834
aya	-10.8838
မြေမှုန့်	-10.8845
၁၃	-10.8846
နပ်	-10.8846
▁ဟုခေါ်	-10.885
العربية	-10.8853
ပရိုမိုးရှင်း	-10.8853
သီအိုရီ	-10.8853
ဥပုသ်နေ့	-10.8853
ေျမွာက္	-10.8853
▁brush	-10.8853
ေစ်း	-10.8854
မူးယစ်ဆေးဝါး	-10.8854
အလွန်အမင်း	-10.8854
13485	-10.8854
="3.0	-10.8855
▁fixed	-10.8858
ေသ	-10.8858
စားသုံးသူ	-10.8859
ရိုးရှင်းစွာ	-10.886
▁VPN	-10.8861
တည်ဆောက်ခြင်း	-10.8863
room	-10.8863
»	-10.8865
တိကျစွာ	-10.8867
ura	-10.8868
ေတြ႕	-10.8869
-02-	-10.8869
▁Megan	-10.887
ယွန်	-10.8874
▁Band	-10.8874
▁semi	-10.8882
▁Back	-10.8884
▁ယေရုရှလင်မြို့၌	-10.8884
▁အရာရာ	-10.8887
life	-10.8887
▁Mono	-10.8888
လုပ်နေတာ	-10.8889
ulf	-10.889
လာမယ့်	-10.8893
အသုံးပြုသော	-10.8894
sort	-10.8897
ဘွဲ့ရ	-10.89
▁တကယ်ပဲ	-10.89
ဆန္ဒပြ	-10.8901
ညည်းတွား	-10.8903
တစ်ခါတစ်ရံ	-10.8903
တာဝန်ထမ်းဆောင်	-10.8903
မှုဖြစ်စေခဲ့ပြီး	-10.8903
ဝါသနာ	-10.8903
အဘယျသို့	-10.8903
ိမ်မွေးတိရစ္ဆာန်	-10.8903
▁Htet	-10.8903
ဆယ်စုနှစ်	-10.8904
ဖြန့်ဝေ	-10.8904
ကျကျ	-10.8905
▁next	-10.8905
အပိုဆောင်း	-10.8905
▁OFF	-10.8906
▁dpi	-10.8908
အကျိုးအမြတ်	-10.891
▁ကိုဆောင်းပါး	-10.8911
ထွက်ခွာ	-10.8911
ရိုသေ	-10.8916
▁၎င်းတို့ဟာ	-10.8919
ism	-10.8922
ညှဉ်းဆဲ	-10.8924
၏အဓိက	-10.8927
ဆွေး	-10.8929
▁အခြားသူတွေ	-10.8933
▁Pol	-10.8933
add	-10.8935
▁ကျွန်တော်တို့ဆီ	-10.894
3.4	-10.894
ကြပါပြီ။	-10.8941
နေသည့်	-10.895
ပွါး	-10.8951
oz	-10.8951
သုံးသပ်	-10.8951
«	-10.8954
နိမိတ်လက္ခဏာ	-10.8954
ိုသြဒိနိတ်အချိန်	-10.8954
▁အင်မတန်	-10.8954
support	-10.8954
▁ကောင်းပြီ၊	-10.8954
တရားသူကြီး	-10.8955
တိတ်ဆိတ်	-10.8955
အလောင်း	-10.8956
ဖို့ဘယ်လို	-10.8956
ချိန်းတွေ့	-10.8957
▁Design	-10.8957
စည်းရုံး	-10.8958
ီယို	-10.896
တံဆိပ်ခတ်	-10.8961
1.4	-10.8962
▁join	-10.8962
သို့မဟုတ်အခြား	-10.8964
နယ္	-10.8966
သူမ်ား	-10.8968
မှာထားတော်မူ	-10.8969
Casino	-10.8979
▁Tun	-10.898
cation	-10.8981
အမြင်များ	-10.8984
ZH	-10.8985
FL	-10.8989
တိုးလာ	-10.899
▁တနည်း	-10.8992
ဖြစ်စေခြင်းငှါ	-10.8993
နှစ်ပါး	-10.8998
base	-10.9002
205	-10.9003
ရုန်းကန်	-10.9005
▁ROOM	-10.9005
▁Teflon	-10.9005
အပေါ်ယံပိုင်း	-10.9005
▁Visual	-10.9005
သောမတ်စ်	-10.9005
ဦးစားပေး	-10.9006
▁Leave	-10.9007
လှည့်လည်	-10.9008
အဘယ်သူမျှမအပ်ငွေ	-10.901
မဟုတ်ပဲ	-10.9011
နှင့်၎င်း၊	-10.9012
hydro	-10.9012
ဖုံးအုပ်	-10.9012
အလျှင်း	-10.9012
▁Santa	-10.9014
အဆိုတော်	-10.9014
▁Relay	-10.9015
ချဉ်	-10.9016
Color	-10.9023
0-3	-10.9028
102	-10.903
▁ဖိလိတ္တိလူတို့	-10.9032
မသိဘူး	-10.9032
▁လက်တော်	-10.9035
တုတ်	-10.9036
အစိမ်းရောင်	-10.9038
rss	-10.9041
၁၆	-10.9042
မှတက်	-10.9042
ဟင်	-10.9043
စွပ်	-10.9043
ေခ်	-10.9043
lation	-10.9046
ဆိုသော်၊	-10.9049
ssa	-10.9054
အဘိဓါန်	-10.9055
မရှိပါ	-10.9055
အော်ဂဲနစ်	-10.9056
▁Specification	-10.9056
▁quotes	-10.9056
စပီကာ	-10.9056
က္ခာ	-10.9056
▁ကြေးနီ	-10.9057
▁Safe	-10.906
ေၾကာင္း	-10.9063
burg	-10.9064
ယွမ်	-10.9065
နောက်ဆုံးတွင်	-10.9066
ပိုင္	-10.9073
ဆော့	-10.9076
134	-10.9077
ENT	-10.9077
လျက်ရှိသော	-10.9082
="1.2	-10.9084
▁OK	-10.9086
အများစုဟာ	-10.9088
▁Oo	-10.9091
ပ္ပ	-10.9094
▁Job	-10.9096
▁Land	-10.9105
အာမင်	-10.9106
NY	-10.9107
ၼ	-10.9107
စားဆင်ယင်	-10.9107
ဗတ္တိဇံ	-10.9107
လျှက်	-10.9107
▁window	-10.9107
▁ဂျိမ်း	-10.9107
▁ဘွားမြင်	-10.9113
tail	-10.9114
ဒီဇိုင်းရေးဆွဲ	-10.9114
အမျိုးသားတို့သည်	-10.9115
2.3	-10.9122
9.2	-10.9128
▁ထာဝရဘုရားကလည်း၊	-10.9131
၀ါ	-10.9131
/11	-10.9136
▁တနေ့	-10.9138
တာယာ	-10.914
ဖြစ်ပေါ်လာ	-10.9141
မြှ	-10.9145
0.000	-10.9148
သူ့ရဲ့	-10.9151
မညီ	-10.9153
မိုးသည်းထန်စွာ	-10.9158
ေက်ာ္	-10.9158
အခက်အခဲ	-10.9158
▁Technology	-10.9158
▁တစ်ခါတစ်လေ	-10.9158
တုပ်ကွေး	-10.9158
ပိတ်ဆို့	-10.9159
▁Apk	-10.9159
ချည်နှောင်	-10.9159
အတန်းအစား	-10.9161
GL	-10.9163
▁မျိုးစိတ်	-10.9164
▁rated	-10.9165
ဖူ	-10.9167
▁ဒါတွေဟာ	-10.9168
ပူး	-10.9171
ထားပါတယ်	-10.9171
▁တစုံတယောက်	-10.9172
7.2	-10.9173
▁240	-10.9175
ဓမ္မ	-10.9176
ငွေပေးချေ	-10.9176
ဂုဏ်ယူ	-10.9181
▁Print	-10.9181
="1.4	-10.9183
="3.1	-10.9184
▁PRO	-10.9184
▁1200	-10.9184
အိမ်တော်	-10.9185
ရိပ်	-10.9186
-07-	-10.9187
▁ရုပ်သံ	-10.919
အသုံးဝင်	-10.9193
ello	-10.9195
ကြီးထွားလာ	-10.9199
-2017	-10.9199
ထံ၌	-10.92
▁အထံတော်သို့	-10.9201
နေပါသည်	-10.9202
▁ဆောင်းပါးများ	-10.9206
ခြုံ	-10.9209
▁မကြာခင်	-10.921
ၱ	-10.921
ကွိုဆို	-10.921
▁Blade	-10.921
လူတန်းစား	-10.921
▁Nxt	-10.921
position	-10.921
▁(2015)	-10.9211
ရွံရှာ	-10.9212
ဆိုးရွား	-10.9212
ထုတ်လွှင့်	-10.9213
▁Max	-10.9213
▁Art	-10.9213
6.9	-10.9217
ket	-10.9217
အသက်တာ	-10.9218
ဇနီး	-10.9221
ေကာ	-10.9227
ပြောတာ	-10.923
စွဲလမ်း	-10.923
တကားဟု	-10.923
="1.7	-10.9231
ဂေး	-10.9232
ခင္	-10.9234
ART	-10.9234
မြို့သားတို့	-10.9236
ကမ်းလှမ်းမှု	-10.925
ပဌနာ	-10.9253
ဂုဏ်	-10.9258
ပါ၀င်	-10.9258
ထောကျပံ့	-10.9262
▁Amazon	-10.9262
▁OHSAS	-10.9262
▁pixel	-10.9262
▁ratings	-10.9262
Private	-10.9262
▁စတုရန်းမီတာ	-10.9262
order	-10.9263
▁fiber	-10.9264
သော်၎င်း၊	-10.9266
▁detect	-10.9267
2008	-10.9268
အားသာချက်	-10.9268
ဝီ	-10.9275
1.7	-10.9279
="1.8	-10.928
="19	-10.9281
လက်လှမ်း	-10.9286
ဗု	-10.9291
ကုမ္ပဏီ၏	-10.9293
ပုံပြင်များ	-10.9295
မတ်လ	-10.9302
charge	-10.9305
ရီး	-10.9306
မျက်တောင်	-10.9311
▁Van	-10.9314
အဘယ်ကြောင့်	-10.9314
▁Kawasaki	-10.9315
▁modified	-10.9315
▁စင်ကာပူ	-10.9315
ဥက္ကဋ္ဌ	-10.9315
▁Template	-10.9315
▁Hunter	-10.9315
▁ဆိုက်ကိုမြေပုံ	-10.9315
ျမိဳ	-10.9315
မှည့်	-10.9315
၄၉	-10.9315
▁Feature	-10.9315
တစ်ချို့	-10.9328
125	-10.9336
ယခင်	-10.9337
ရန်ရှိသည်	-10.9339
ထိမ်းအမှတ်တံဆိပ်	-10.9339
="1.6	-10.934
▁Dan	-10.9343
Out	-10.9347
▁With	-10.9348
inch	-10.9353
▁BTS	-10.9354
ပန်းတိုင်	-10.9357
▁Window	-10.9362
="2.2	-10.9363
လိပ်ပြာ	-10.9366
ခဲ့ပေမဲ့	-10.9367
လုပ်ထုံးလုပ်နည်း	-10.9367
▁Converter	-10.9367
စင်္ကာပူ	-10.9367
2005-2018	-10.9367
ခြဲ	-10.9367
သန့်စင်	-10.9367
▁Type	-10.9367
▁ထိုမှတပါး၊	-10.9367
▁Poker	-10.9369
▁ဗာဗုလုန်မြို့	-10.937
▁2003	-10.9371
▁TK	-10.9372
▁WHO	-10.9374
မရှိတော့	-10.9374
ိလူ၊	-10.9377
▁Options	-10.9377
gent	-10.9378
သော့ချက်	-10.9379
▁အုတ်	-10.938
7.0	-10.9382
ပုဒ်	-10.9385
ငတ်	-10.9386
အရှုံး	-10.9386
သစ်ပင်	-10.9387
-11-	-10.9387
▁RC	-10.9389
ဆဲလ်တွေ	-10.9393
4.9	-10.9394
မဟုတ်ပါ	-10.9394
၏အစိတ်အပိုင်း	-10.9395
▁ထိုနောက်မှ	-10.9395
▁Def	-10.9398
active	-10.94
▁ထိုအရာ	-10.9402
ထော	-10.9407
အကြောင်းအရာများ	-10.9408
ပြခန်း	-10.9414
ရောင်းရန်	-10.9419
▁protocol	-10.942
н	-10.942
▁Computer	-10.942
▁Penny	-10.942
ဆိုလိုသည်မှာ	-10.9421
▁အစဉ်မပြတ်	-10.9421
▁Harris	-10.9421
▁Burner	-10.9421
▁Image	-10.9422
ဘူးဆိုရင်	-10.9422
▁Cutter	-10.9427
▁အသရေ	-10.9428
နေတယ်၊	-10.9428
even	-10.9428
ခဲ့ရတယ်။	-10.9429
နှို	-10.9441
loy	-10.9443
ပိန်	-10.9447
Air	-10.9448
▁ယုဒလူတို့	-10.9454
မရှိတဲ့	-10.946
5.00	-10.9468
ပြောကြား	-10.9471
▁ရုတ်တရက်	-10.9473
လက်ဗွေ	-10.9473
အတိုကောက်	-10.9473
ဂျူ	-10.9476
ပြောင်းလဲနိုင်	-10.9476
တီးဝိုင်း	-10.9476
ပုံသဏ္ဍာန်	-10.9477
▁Gh	-10.9477
ကိုလက်ခံရရှိ	-10.9478
ဒြပ်ပေါင်းများ	-10.9481
▁ဘာသာရေး	-10.9481
▁လူသားတွေ	-10.9481
နားကြပ်	-10.9482
2.9	-10.9484
ဓာတုဗေဒ	-10.9485
spir	-10.9491
ရုပ်သိမ်း	-10.9491
အာဏာပိုင်	-10.9498
AU	-10.9499
▁ဧည့်သည်	-10.9502
▁TN	-10.9505
ရှာဖွေနေ	-10.9505
အီတလီ	-10.9506
တောင်းပန်	-10.9512
▁သို့ရာတွင်၊	-10.9516
န်းကျင်	-10.9516
ရွား	-10.9521
ေယာက္	-10.9526
▁iPod	-10.9527
▁supply	-10.9527
ဖြီး	-10.9527
▁မစင်ကြယ်	-10.9527
Function	-10.9527
▁Tai	-10.9527
စည်းကမ်းချက်များ	-10.9528
▁Single	-10.953
▁chat	-10.9531
="2.0	-10.9532
ထာ	-10.9536
ကျန်ကြွင်း	-10.9537
တွဲဖက်	-10.9541
စရာအကြောင်း	-10.9543
▁Way	-10.9545
6.6	-10.9547
ှငျ	-10.9547
နှစ်ဖက်	-10.9548
rick	-10.955
မှိုထုတ်လုပ်	-10.9551
ious	-10.9552
နှင့်ဆိုင်သော	-10.9553
မိမိတို့	-10.9555
မီးခွက်	-10.9555
▁မြေအောက်	-10.9559
ရှိသူများ	-10.9568
ညက်	-10.9574
ပြည်သူ့	-10.9574
သစ္စာ	-10.9576
▁ဘယ်သူမှ	-10.9578
▁Deduster	-10.9581
အေးဂျင့်	-10.9581
လိမ့္မယ္	-10.9581
▁FREE	-10.9581
▁ရူပီး	-10.9581
ႏုိင္	-10.9581
စိမ်းလန်း	-10.9581
▁also	-10.9585
="0.2	-10.9585
စရာမလို	-10.9586
▁Shell	-10.9586
▁မိန့်တော်	-10.959
ဘရောင်း	-10.9593
6.8	-10.9596
မူဘောင်	-10.9597
ရမှာပါ။	-10.9598
5.4	-10.9603
▁သိပ်မ	-10.9609
လိုက်တယ်၊	-10.961
hat	-10.9614
တော်မူသည်ကား၊	-10.9619
ငါးနှစ်	-10.9623
လေသည်။	-10.9624
ေျမ	-10.9625
3.7	-10.9627
Burma	-10.9627
အဆုံးသတ်	-10.9632
ဂရပ်ဖစ်	-10.9635
ပလာနှင့်ဆိုင်သော	-10.9635
အိမ္	-10.9635
kw	-10.9637
▁Flash	-10.9637
▁Media	-10.9638
ကော်ဇော	-10.9638
-300	-10.9639
▁ပြည့်နှစ်	-10.9643
▁III	-10.9655
သုံးဆယ်	-10.966
ရှာဖွေခြင်း	-10.9664
အထိမ်းအမှတ်	-10.9664
ခြောက်လ	-10.9669
ထင်း	-10.967
▁Tom	-10.967
face	-10.9673
8.4	-10.9676
ဘောလုံးကို	-10.9685
ပရောဖက်	-10.9687
ဗုဒ္ဓ	-10.9689
အင်ဒိုနီးရှား	-10.9689
ကနျြးမာရေး	-10.9689
▁Azure	-10.9689
ford	-10.9692
ထင်ပါတယ်။	-10.9693
▁လာ၍	-10.9693
Rider	-10.9695
▁အံ့ဖွယ်	-10.9699
▁မြန်မာဘာသာ	-10.9703
ရှည်လျားသော	-10.9705
▁သူတို	-10.9705
FE	-10.9706
▁Flow	-10.9708
အဆိုအရ	-10.9711
ပျိုး	-10.9712
ယခင်က	-10.9714
သွန်	-10.972
vid	-10.9723
လွှတ်ပေးရန်	-10.9728
="2.6	-10.9733
လန့်	-10.9735
TF	-10.9742
မြှင့်တင်ရန်	-10.9743
ဂိုဒေါင်	-10.9744
▁Misslamode	-10.9744
သရဖူ	-10.9744
▁terminal	-10.9744
▁School	-10.9744
▁ZAW	-10.9744
▁တည္ေနရာ	-10.9744
parser	-10.9744
▁Talk	-10.9746
▁ယေရှုကလည်း၊	-10.9747
ဆွဲဆောင်	-10.9748
လွှ	-10.9748
ကုန်သည်များ	-10.9748
တတိယ	-10.9749
ရှားပါး	-10.975
body	-10.975
aster	-10.9751
JPY	-10.9751
Trade	-10.9752
အကျင့်	-10.9753
▁ကျုပ်တို့ဟာ	-10.9753
ရောင်းဝယ်	-10.9755
huang	-10.9756
▁အသေခံ	-10.9764
="1.9	-10.9765
ထားသည့်	-10.9765
မီးသီး	-10.9768
ထားတာပါ။	-10.977
CHF	-10.9773
▁အဲဂုတ္တုပြည်၌	-10.9773
▁games	-10.9774
▁လူစု	-10.9776
="2.7	-10.9778
ကြေညာချက်	-10.9781
မျက်လုံး	-10.9785
တွန်	-10.9789
▁စားသောက်	-10.9791
ဖျေါပွခကျြ	-10.9792
တတ်သောသူ	-10.9792
ဖြည့်စွက်	-10.9799
STORE	-10.9799
ဗိုင်းလိပ်တံ	-10.9799
ႏႈန္း	-10.9799
▁Decoration	-10.9799
▁Jiangsu	-10.9799
▁ကြည့်ရန်ပို	-10.9799
▁အမ်ဳိးအစား	-10.9799
နှုတ်ခမ်း	-10.9799
18001,	-10.9799
ငြိမ်ဝပ်	-10.9799
▁Self	-10.98
အားသွင်းကိရိယာ	-10.98
▁Clear	-10.9801
▁ကယ်တင်ခြင်း	-10.9801
▁Review	-10.9803
ငို	-10.9803
လက်လီ	-10.9805
ပုလဲ	-10.9809
▁မြေကြီးပေါ်မှာ	-10.9811
မူလစာမျက်နှာ	-10.9812
ညီအစ်ကို	-10.9812
ဘယ်သူ	-10.9818
225	-10.9823
What	-10.9824
▁ဖိလိတ္တိ	-10.9824
အပိုင္း	-10.9826
ငါတို့သည်	-10.9831
အမှုန့်	-10.9831
ဝမ်းမြောက်ခြင်း	-10.9832
175	-10.9834
အာဏာကို	-10.9836
ခြင်းကိုခံရ	-10.9841
▁their	-10.9842
▁ไทย	-10.9854
ခေါ်ဝေါ်	-10.9854
▁elastic	-10.9854
Trió	-10.9854
▁silicon	-10.9854
စိတ်တိုင်းကျ	-10.9854
ဝီကီ	-10.9855
▁နက်ဖြန်	-10.9856
cycle	-10.9856
ဆောင်ပုဒ်	-10.9857
▁Package	-10.9858
စက်ဝိုင်း	-10.9859
အရေးယူ	-10.9859
စားပွဲပေါ်မှာ	-10.9863
HU	-10.9864
မှတ်စုများ	-10.9865
ဇာတ်လမ်းတွဲ	-10.9867
▁Full	-10.9872
လမ်းညွှန်ချက်	-10.9873
▁ATV	-10.9874
ထို့နောက်	-10.9877
ရုရှား	-10.9877
▁Sea	-10.9877
▁NT	-10.988
quo	-10.9881
▁More	-10.9883
အားလုံးအတွက်	-10.9888
၉၆	-10.9891
တုန်ခါမှု	-10.9893
လက်မောင်း	-10.9897
အောက်ပိုင်း	-10.9898
ရန်သင့်	-10.9902
ရမည်အကြောင်း၊	-10.9908
▁Collector	-10.9909
General	-10.9909
ေဆာက္	-10.9909
▁ငြိမ်ဝပ်စွာ	-10.991
▁တိတ်ဆိတ်စွာ	-10.991
▁CEO	-10.9911
▁ဘုန်းကြီး	-10.9912
ပရိုဖိုင်း	-10.9912
ဒြပ်စင်	-10.9913
အဘိဥာဏ်ဖတ်	-10.9914
▁Sep	-10.9917
အမှုန့်	-10.992
ေမး	-10.992
▁CH	-10.9922
ဥပဒေကြမ်း	-10.9924
▁သူတို႔	-10.9926
▁ကြ်န္ေတာ္	-10.9927
▁အချက်အလက်တွေ	-10.9932
▁အဟိ	-10.9933
စာရင်းသွင်း	-10.9945
FP	-10.9946
▁Stra	-10.9947
တားမြစ်	-10.995
="4.0	-10.995
▁ဖန်တီးပေး	-10.9954
▁ရုပ်ပိုင်း	-10.9957
အာရုံစူးစိုက်မှု	-10.9957
High	-10.9961
▁Applications	-10.9964
အပ်ချုပ်စံနမူနာ	-10.9965
ႇ	-10.9965
▁Advertising	-10.9965
▁မထီမဲ့မြင်	-10.9965
ဖလှယ်	-10.9965
အသံုးျပဳ	-10.9965
▁Telenor	-10.9966
စနစ္	-10.9966
သမ္မတနိုင်ငံ	-10.9968
လုိက္	-10.9969
▁ဤသူသည်	-10.997
Order	-10.9973
ဘဏ္ဍာရေး	-10.9973
စိတ်ဝိညာဉ်	-10.9978
▁ကျုပ်တို့ရဲ့	-10.9978
="1.5	-10.9993
တံခါးဝ	-10.9995
ပါးလွှာ	-10.9996
▁Join	-10.9996
apk	-10.9997
9.1	-11
▁PCB	-11.0003
ပေါလု	-11.0003
ference	-11.0006
▁san	-11.0009
နိုင်ဘူး။	-11.001
အားသာချက်များ	-11.0016
▁Vol	-11.0019
လွှင့်	-11.0019
▁building	-11.0021
ပဟေဠိ	-11.0021
▁PayPal	-11.0021
▁မလေးရှား	-11.0021
ရပ်တန့်	-11.0021
▁ယုဒရှင်ဘုရင်	-11.0023
ဥပဒေရေးရာ	-11.0024
လွန်အစွမ်းထက်တဲ့	-11.0024
အခြေပြု	-11.0024
ပံုစံ	-11.0024
▁ဧလိယ	-11.0024
▁Trend	-11.0025
သည်တကား။	-11.0027
ဗေ	-11.0028
ထိန်းသိမ်းမှု	-11.0029
▁အချိန်ဇုန်	-11.003
ချောင်	-11.0036
ရရှိခဲ့သည်။	-11.004
စစ်မှန်တဲ့	-11.0041
yang	-11.0042
direct	-11.0042
▁DN	-11.0043
မည်နည်းဟု	-11.0055
ကယ်လွှတ်	-11.0056
▁လူတို့သည်	-11.0057
ညစ်ညမ်း	-11.0061
မှတ်တိုင်	-11.0063
7.9	-11.0073
အံ့သြစရာ	-11.0078
▁Trenbolone	-11.0078
▁ပွောငျး	-11.0078
တုရုမြို့	-11.0078
လက်ဖက်ရည်	-11.0078
ပါမောက္ခ	-11.0078
▁မြည်တမ်း	-11.0078
▁HTUN	-11.0078
▁after	-11.0078
▁HIV	-11.0079
စင်ကြယ်စေ	-11.0079
ထုတ်လွှင့်	-11.0081
တွင်တည်ရှိသည်	-11.0081
▁စားစရာ	-11.0084
နိုင်ငံများတွင်	-11.0086
ပစ်ခတ်	-11.0087
▁Builder	-11.0087
▁Luck	-11.0096
▁Hop	-11.0096
ရပါမည်။	-11.0098
▁လူအများ	-11.01
မြို့နယ်၊	-11.0101
GHz	-11.0104
▁မင်းတို့	-11.0104
▁Rich	-11.0107
ပေါ့ဗျာ။	-11.0108
သည်မဟုတ်လော။	-11.0109
die	-11.0109
ကဒီမှာ	-11.0112
ဖိုင်တွေ	-11.0113
တွေ့ကြုံ	-11.0114
စတာတွေ	-11.0118
="1.3	-11.0119
▁than	-11.0124
7.6	-11.0127
▁သက်ရှိ	-11.0127
road	-11.0128
သောစိတ်နှင့်	-11.0128
ဒဲ	-11.0131
ခွင့်ရ	-11.0133
FI	-11.0134
ရှမ်း	-11.0135
ယူနိုက်တက်	-11.0135
▁Plastic	-11.0135
▁developer	-11.0135
ရပ်တန့်	-11.0135
▁Yangon	-11.0135
▁electro	-11.0135
အပြီးအစီး	-11.0135
14001,	-11.0135
အပေါ်အခြေခံပြီး	-11.0135
ပြန်အမ်း	-11.0135
▁House	-11.0137
▁Water	-11.0138
အလုပ်မလုပ်	-11.014
▁online	-11.014
ability	-11.014
ပြင်းစွာ	-11.0142
များသောအားဖြင့်	-11.0146
alpha	-11.0146
156	-11.0147
ump	-11.0149
▁စိတ်ဓာတ်	-11.015
၄၇	-11.0151
နှစ်ကြိမ်	-11.0154
ခံရသည်။	-11.0157
်ား	-11.0158
3.9	-11.0159
အများကြီးပို	-11.0162
ဖခင်	-11.0164
အမည်မသိ	-11.0169
cri	-11.0174
သုံးယောက်	-11.0176
gue	-11.018
ခရီးဆောင်	-11.0182
စစ်ရေး	-11.0186
ဂုဏ်ပြု	-11.0186
ခွင့်ပေး	-11.0188
ခြင်းသို့ရောက်	-11.0189
▁America	-11.0191
ၵ	-11.0192
စေ့ဆော်	-11.0192
ရူပါရုံ	-11.0192
မည်သူမဆို	-11.0192
ဤမျှလောက်	-11.0192
အက်တမ်	-11.0192
ကြည်လင်	-11.0195
ရေးသားချက်များ	-11.0196
▁ကရုဏာတော်	-11.0198
သေးတယ်	-11.0201
ခဲ့ရသည်။	-11.0207
▁Hug	-11.0213
▁Xin	-11.0213
ငွေပမာဏ	-11.0221
အကျိုးဆောင်	-11.0221
▁pm	-11.0224
amide	-11.0224
ကာစီနိုဂိမ်း	-11.0231
▁အရပ်ရပ်	-11.0231
သင့္	-11.0235
ကုန်တင်	-11.0241
ကောက်ခံ	-11.0243
ေနတာ	-11.0247
ဖွံ့ဖြိုးပြီး	-11.0249
ပဋိ	-11.0249
performance	-11.0249
ပြဌာန်း	-11.0249
အံ့အားသင့်	-11.0249
▁အီးမေးလ်ပို့ရန်	-11.0249
စာကြည့်တိုက်	-11.0249
▁နတ်ဆိုး	-11.025
project	-11.025
ျဖင့္	-11.025
▁စာသင်	-11.025
အပ်ငွေ	-11.025
ological	-11.0251
▁ရွေးနှုတ်	-11.0253
▁URL	-11.0254
ကုမ္ပဏီလီမိတက်	-11.0254
ထိပ်ဆုံး	-11.0266
6.7	-11.0266
အပြေး	-11.0269
ယ်လ်	-11.0274
စရိုက်	-11.0277
ရပ်နား	-11.0283
မြို့ရွာ	-11.0283
စရိတ်	-11.0285
▁ဆောင်သွား	-11.0286
ဖိုင်တွဲ	-11.0289
အသုံးပြုကြသည်	-11.0291
လျှို့ဝှက်ချက်	-11.0293
ကြမှာပါ။	-11.0294
▁Electro	-11.0307
သန့်ရှင်းစင်ကြယ်	-11.0307
နယူးဇီလန်	-11.0307
▁Youtube	-11.0307
guardian	-11.0307
ဝယ်လိုအား	-11.0307
ဆန်တဲ့	-11.0308
cross	-11.0308
▁flat	-11.031
အင်ဖို	-11.031
▁ဣသရေလရှင်ဘုရင်	-11.0311
အကြီးအ	-11.0312
▁နိုင်လွန်	-11.0314
index	-11.0315
သိမ်းဆည်းထားပါ	-11.0316
▁လို့ခေါ်	-11.0317
▁Stan	-11.0319
လူပျို	-11.0321
1.9	-11.0322
316	-11.0323
ပြောတယ်	-11.0323
ကနေတဆင့်	-11.0325
မူလတန်း	-11.0326
▁his	-11.0333
blast	-11.0334
▁ငါသည်လည်း	-11.0338
ဆုံးရသတင်းများ	-11.0341
အစုလိုက်အပြုံ	-11.0342
ဟေး	-11.0345
ကြကုန်အံ့။	-11.0348
မီးရထား	-11.0349
▁မျှော်လင့်ချက်	-11.0354
9.8	-11.0355
အောင်ပွဲ	-11.036
ကူးယူ	-11.0364
dll	-11.0365
▁ငွေလဲနှုန်း	-11.0365
ကယ်လီဖိုးနီးယား	-11.0365
နှောင်းပိုင်း	-11.0365
ဟေဇကိ	-11.0365
▁Facility	-11.0365
စာကြည့်တိုက်	-11.0365
ဆွေမျိုး	-11.0365
▁Device	-11.0365
▁Charter	-11.0365
▁နောက်ခံပုံများ	-11.0365
▁Serial	-11.0365
▁check	-11.0366
ွီး	-11.0366
ကြသနည်း။	-11.0367
ဝန်ကြီးချုပ်	-11.0369
▁မေးလျှောက်	-11.037
▁real	-11.0371
ရက်ပတ်လုံး	-11.0373
▁ကူးစက်ရောဂါ	-11.0373
▁Point	-11.0374
▁Hip	-11.0375
▁Edit	-11.0376
metal	-11.0378
nie	-11.0378
▁Copy	-11.038
▁03:	-11.0383
ကြစေ။	-11.0384
တစ်ဖက်	-11.0388
▁မြေပေါ်မှာ	-11.0388
လူမျိုးစု	-11.0393
သန့်ရှင်းရေး	-11.0393
▁ယေဘုယျအား	-11.0398
အဆင့်မြှင့်	-11.0401
အစေခံ	-11.0407
လာကြတယ်	-11.0413
လို့မရ	-11.0415
ပန်းချီကား	-11.0416
ထွက်ပေါက်	-11.0419
လွှင့်	-11.0421
ဖြစ်ကြပြီး	-11.0422
ဖန်မျှင်ထည်	-11.0424
▁saxophone	-11.0424
ا	-11.0424
▁number	-11.0424
▁Cross	-11.0424
▁ထိုသို့ပြု	-11.0426
ရှော	-11.0426
Regist	-11.0428
▁တရားသဖြင့်	-11.0429
▁ထာဝရဘုရားက၊	-11.043
▁တစ်ကိုယ်တော်	-11.043
ဖိစီး	-11.0431
▁turn	-11.0431
2001	-11.0433
ပွု	-11.0434
မရှိမဖြစ်လိုအပ်	-11.0435
xbet	-11.0435
▁Hong	-11.0442
IU	-11.0445
ရှေး	-11.0451
8.2	-11.0455
သုံးသပ်ချက်	-11.0467
language	-11.0483
ပိုးမွှား	-11.0483
အော်ပရေတာ	-11.0483
[6]	-11.0483
▁Account	-11.0483
▁လိုအပ်တဲ့	-11.0484
ချိုးဖောက်	-11.0487
ဆိတ်ညံ	-11.0488
နက်နဲ	-11.0492
တလျှောက်	-11.0498
▁ချက်ခြင်း	-11.05
အပြင်ဘက်	-11.0503
ငါးဖမ်း	-11.0505
မယ္ဆိုရင္	-11.0506
စက်မှုပန်းခြံ	-11.0507
ထူထပ်	-11.0511
·	-11.0516
ထိုသို့	-11.0523
ပေ၏။	-11.0532
▁မကြောက်	-11.0537
ဆူညံသံ	-11.0542
ႀကိဳ	-11.0542
▁Huawei	-11.0542
▁Policy	-11.0542
▁steroids	-11.0542
▁အသေးအဖွဲ	-11.0542
▁London	-11.0542
▁Rights	-11.0542
အမွေအနှစ်	-11.0542
▁Trump	-11.0542
▁Application	-11.0543
▁every	-11.0543
▁အတွက်အဆုံးသတ်	-11.0544
▁တစ်ခုချင်း	-11.0545
ဗ္ဗ	-11.0546
777	-11.0547
▁Shwe	-11.0547
▁Nac	-11.0548
▁Sony	-11.0548
▁FL	-11.0551
နှင့်အခြား	-11.0554
နေ့ရက်ကာလ	-11.0562
လေယာဉ်မှူး	-11.0563
="2.4	-11.0579
▁IR	-11.058
="3.7	-11.0581
▁Ash	-11.0583
▁စုပေါင်း	-11.0583
အစဉ်အမြဲ	-11.0583
စူးစမ်း	-11.0585
▁Love	-11.0586
မော်တော်ကား	-11.0589
လိုပါက	-11.0593
ဖြစ်လိမ့်မည်	-11.0597
သောအရာတို့ကို	-11.0598
နှောက်	-11.0599
တပည့်	-11.06
▁အခါ၊	-11.0601
▁ဂွမ်ဒေါင်း	-11.0601
16949,	-11.0601
ေဒၚလာ	-11.0601
▁stainless	-11.0601
▁welded	-11.0601
အကျင့်ကိုကျင့်	-11.0601
▁Canvas	-11.0601
▁HTML	-11.0601
▁ဧည့်လမ်းညွှန်	-11.0601
▁Kim	-11.0603
ဝဘ်	-11.0603
rge	-11.0603
LM	-11.0605
▁အသားပေး	-11.0605
ဒေါင်း	-11.0605
water	-11.0606
="0.1	-11.0608
ဓာတုပစ္စည်း	-11.0609
သွေးကြော	-11.0613
တယောက်မျှ	-11.0617
▁Night	-11.0618
ရေးသားခဲ့သည်	-11.0618
▁ခုနှစ်တွင်စတင်	-11.0621
▁ငါ့ထံသို့	-11.0622
ရှိသမျှတို့	-11.0625
chloro	-11.0626
မှတ်ပုံတင်ခြင်း	-11.0629
အပေါ်တစ်ဦး	-11.063
-04-	-11.0631
၃၆	-11.0633
ဆိုပေမဲ့	-11.0635
ဗွီ	-11.0637
ကျန်းမာ	-11.0639
၅၅	-11.064
ထိန်းသိမ်းထား	-11.0641
လေးဆယ်	-11.0646
အဓိပ္ပါယ်	-11.065
အနီရောင်	-11.0651
output	-11.0652
တစ်နိုင်ငံ	-11.0653
ဋ္ဌ	-11.066
▁TM	-11.066
▁INSERT	-11.0661
▁မူဘာရက်	-11.0661
Material	-11.0661
▁Embed	-11.0661
▁GTA	-11.0661
ပြန်ကြားရေး	-11.0662
နောက်တော်သို့	-11.0662
gran	-11.0662
စိုးစံ	-11.0664
translate	-11.0665
ခံနေရ	-11.0666
▁အမိန့်တော်ကို	-11.0667
gov	-11.0673
▁ပြောင်းပြန်	-11.0678
ကြကုန်အံ့	-11.068
▁Root	-11.068
▁here	-11.0689
စာဖတ်ခြင်း	-11.0689
▁128	-11.0692
▁Hose	-11.0696
တည်းခို	-11.0713
public	-11.0721
▁receptor	-11.0721
▁ဂရမ္	-11.0721
▁ဒဏ်ခတ်	-11.0722
အတြင္း	-11.0722
▁Changzhou	-11.0722
အချို့တို့သည်	-11.0723
အုပ်ချုပ်ရေးမှူး	-11.0723
ႏုတ္	-11.0723
▁any	-11.0723
▁Myint	-11.0724
ဘယ္ေလာက္	-11.0724
ယုဒ	-11.0728
ောင့်	-11.0728
ဒဏ်ငွေ	-11.0731
ကြုံတွေ့	-11.0733
စမ်းသပ်သူ	-11.0734
သဘောတရား	-11.0734
▁ထိုကာလ၌	-11.0736
တည်ရှိသည်။	-11.0743
လုပ်ကွက်	-11.0748
ဖွဲ့စည်းမှု	-11.0751
ငါးဆယ်	-11.0752
ရုပ်သံလိုင်း	-11.0756
▁သိပ္ပံပညာ	-11.0759
9.99	-11.0765
ဝမ်းမြောက်	-11.0766
▁သေတ္တာတော်	-11.0768
-05-	-11.0769
▁747	-11.0773
▁call	-11.0779
နှီး	-11.0779
ကွောငျ့	-11.0782
ဝေါဟာရ	-11.0782
▁AASraw	-11.0782
▁WIFI	-11.0782
▁ထမင်းစားခန်း	-11.0782
▁နေပြည်တော်	-11.0782
▁command	-11.0782
▁LCD	-11.0782
ျဖတ္	-11.0785
ခင်ဗျား	-11.0785
သေချာစေရန်	-11.0788
တည်ထောင်သူ	-11.0789
▁အသည်း	-11.0798
dts	-11.0803
last	-11.0807
အီရန်	-11.0811
▁အရာတွေကို	-11.0821
ပတ်လည်၌	-11.0825
နောက်ကွယ်	-11.0828
▁08:	-11.0828
၆၇	-11.083
ယုံကြည်ခြင်း	-11.0835
▁ဆင်းရဲသား	-11.0837
၃၄	-11.0838
နှမ	-11.084
medicaleducation	-11.0843
▁Crystal	-11.0843
▁Mifare	-11.0843
▁Fluorocarbon	-11.0843
▁Little	-11.0843
▁Management	-11.0843
▁Recovery	-11.0843
▁Adress	-11.0843
▁Nokia	-11.0843
ဗီနိုင်း	-11.0843
မြှား	-11.0844
အငွေ့	-11.0847
အာရုံခံကိရိယာ	-11.0856
အမျိုးသားချင်း	-11.086
ခြုံငုံ	-11.0897
9.00	-11.0898
▁ဧလိ	-11.09
ခွန်	-11.0902
Singapore	-11.0904
▁Butterfly	-11.0904
▁activation	-11.0904
▁ယူနိုက်တက်စတိတ်	-11.0904
▁Cannon	-11.0904
ခေါ်ဆိုမှုစနစ်	-11.0904
electric	-11.0905
▁အကြင်သူသည်	-11.0905
ီလျံ	-11.0906
ေတာ႔	-11.0908
ကိုလိုနီ	-11.0912
ညွန်	-11.0913
▁မင်္ဂလာဆောင်	-11.0915
မရှိပါဘူး။	-11.0918
င်းနှီးမြှုပ်နှံ	-11.0919
▁(3)	-11.0923
တစ်စောင်	-11.0925
▁နည်းနည်းလေး	-11.093
graphic	-11.093
▁updated	-11.0932
ခြားနားချက်	-11.0934
Jingh	-11.0935
ြော	-11.0936
▁Magic	-11.0936
ပိုင်းခြား	-11.0937
အသီးအနှံ	-11.0939
၆၆	-11.0948
▁mum	-11.0955
ident	-11.0957
ကျောက်ခေတ်	-11.0961
▁Aero	-11.0965
fire	-11.0966
ပစ္စုပ္ပန်	-11.0966
ခ်ဳပ္	-11.0966
ရဟတ်ယာဉ်	-11.0966
နိယာမ	-11.0966
▁Randy	-11.0966
ဖမ်းဆီး	-11.0969
သောသူတို့အား	-11.0971
oll	-11.0971
▁၂၀၀၀	-11.0976
ဖောက်ပြန်	-11.0977
ခွဲဝေ	-11.0979
အခြေခံမူ	-11.0984
လက်ထောက်	-11.0986
ရွံ	-11.099
ညစ်	-11.0991
ေတြမွာ	-11.0992
ကီလိုမီတာ	-11.0993
အကြောင်းပြချက်	-11.0993
station	-11.0994
တွေးခေါ်	-11.0995
9.9	-11.0996
▁ထောက်ပြ	-11.0996
ရှိပါသည်	-11.0999
ထက်ပိုပြီး	-11.1004
နေကြပါတယ်။	-11.1007
Ray	-11.1015
အရေးကြီးသော	-11.1017
▁tile	-11.1018
သတင်းစာ	-11.1018
▁Nov	-11.1023
နော့	-11.1024
105	-11.1025
တံဆိပျ	-11.1028
Shenzhen	-11.1028
ကျောက်မျက်ရတနာ	-11.1028
ခရမ်းရောင်	-11.1028
▁SharePoint	-11.1028
စဥ္းစား	-11.1028
ကျုံ့	-11.1028
credit	-11.1028
ပေါ်မူတည်	-11.1029
သည်နှင့်အညီ၊	-11.103
ဆိုတာဘာလဲ	-11.1034
="3.2	-11.1035
ပွေ	-11.104
article	-11.104
အလင်းအိမ်	-11.104
ရိုင်	-11.104
▁under	-11.1041
▁ထိုနေ့၌	-11.1041
ပြိုင်ဘက်	-11.1042
ညစ်ညမ်းမှု	-11.1047
▁လက်တင်	-11.1047
-06-	-11.1048
ntai	-11.1053
▁ငါတို့သည်လည်း	-11.1054
▁Hua	-11.1056
▁လူအမျိုးမျိုး	-11.1062
ခမည်းတော်	-11.1064
▁GET	-11.1065
888	-11.1068
မျို	-11.1075
သတ်ဖြတ်	-11.1076
LAN	-11.1078
ပြစ်ဒဏ်	-11.1079
3.8	-11.1079
2.6	-11.1085
စတိုး	-11.1088
လျင်မြန်	-11.1088
စည်ပင်သာယာ	-11.1091
▁Arcade	-11.1091
▁Bluetooth	-11.1091
မြှောင်းပုံ	-11.1091
▁နေ့ရက်များ	-11.1091
▁when	-11.1093
ပုံမှန်အားဖြင့်	-11.1094
short	-11.1094
▁စာတို	-11.1096
ပြီးနောက်ပိုင်း	-11.1097
ပေတည်း။	-11.11
ပါၿပီ	-11.1103
ဟောငျး	-11.1105
ဂ္ဂ	-11.1106
▁Watch	-11.1106
IE	-11.1114
ထောက်လှမ်း	-11.1115
-03-	-11.1117
ဘိုင်	-11.113
6.4	-11.1138
ကုန်ကြမ်း	-11.1142
▁Mega	-11.1144
ပါရမီ	-11.1147
အပူပိုင်း	-11.115
တိုက်ခိုက်မှု	-11.115
လေဖြတ်	-11.1153
ဒီနေရာကိုနှိပ်ပါ	-11.1154
≥	-11.1154
▁Category	-11.1154
▁Intelligent	-11.1154
▁Netflix	-11.1154
▁adapter	-11.1154
စတော့ရှယ်ယာ	-11.1154
▁Cisco	-11.1154
▁ဂွ	-11.1158
▁Down	-11.1158
ထက်လျော့နည်း	-11.1162
▁အာဇ	-11.1162
အသုံးဝင်သော	-11.1163
တ္ထု	-11.1165
တန်ဖိုးထား	-11.1175
▁Rating	-11.1176
http	-11.1182
စာစောင်	-11.1185
သေးတယ်။	-11.1185
ခဲ့တယ္	-11.1191
▁Class	-11.1199
▁အခ်စ္	-11.1203
▁အာရပ်	-11.1204
ရှန်ဟိုင်း	-11.1204
သတင်းပို့	-11.1207
ပစ္	-11.1212
မိဿဟာယ	-11.1217
ပြားချပ်ချပ်	-11.1217
▁Peugeot	-11.1217
ေရြး	-11.1217
▁Fixed	-11.1217
▁status	-11.1217
▁သော့ချက်စာလုံး	-11.1217
▁တစ်လလျှင်	-11.1217
မှတစ်ဆင့်	-11.1217
▁finish	-11.1217
စီးဆင်းမှု	-11.1217
▁Short	-11.1219
▁ဣသရေလလူတို့	-11.122
232	-11.122
အတွက်အထူးပြု	-11.1224
ACE	-11.1226
သင်ယူမှု	-11.1228
တည်ငြိမ်မှု	-11.1231
ဒူ	-11.1233
အသုံးပြုခဲ့သည်။	-11.1235
ထုတ်ယူခြင်း	-11.1239
ဝမ်	-11.1243
ဆိုပါက	-11.1251
7.3	-11.1252
roll	-11.1255
▁မြို့ပြ	-11.1264
၃၀၀	-11.1265
▁ယုဒလူ	-11.1275
9.4	-11.1279
Pirater	-11.1281
ဋ	-11.1281
▁Gratuit	-11.1281
▁ဒါေပမယ့္	-11.1281
ပျေါ	-11.1281
ယရှေု	-11.1281
▁Shanks	-11.1281
ဘိဥာဏ်အပိုဆုကုဒ်	-11.1281
▁Blythe	-11.1281
ပါရစေ။	-11.1281
piece	-11.1281
style	-11.1282
▁Keygen	-11.1284
ဘုန်းအသရေ	-11.1284
ဆီမီးခွက်	-11.1284
▁Making	-11.1286
▁ပြဿနာတွေ	-11.1289
ထွန်းလင်း	-11.1299
▁'%	-11.1303
isa	-11.1309
▁1/2	-11.1329
စစ်ဆေးရေး	-11.1331
ency	-11.1332
9.6	-11.1339
ကိုယ်ဝန်	-11.1344
စတုဂံ	-11.1345
တဖြည်းဖြည်း	-11.1345
▁nozzle	-11.1345
▁ပဌမ	-11.1345
ဖွစျ	-11.1345
ဓလေ့	-11.1346
▁Trust	-11.1346
အသွင်အပြင်	-11.1346
ခန့်မှန်းခြေ	-11.1347
အချင်းချင်း	-11.1352
ဇွန်လ	-11.1353
MR	-11.1357
="4.9	-11.1358
သာလွန်	-11.1364
▁Cooler	-11.1368
အကြောင်းကြား	-11.1378
လိုအပ်သည်။	-11.1384
ွန်လိုင်းအဘိဓါန်	-11.1387
အထူးကု	-11.1388
အလုပ်လုပ်တယ်	-11.1393
ALL	-11.1399
ၾကည္	-11.1403
အသုံးပြုပုံ	-11.1408
ေနတယ္	-11.1408
▁[2007-0	-11.1409
▁collet	-11.141
အထူးနှုန်းများ	-11.141
▁Artist	-11.141
အကြီးအကျယ်	-11.141
လီမိတက်	-11.1411
ether	-11.1415
စောင့်ဆိုင်း	-11.1415
▁ညီအစ်ကိုတို့၊	-11.1416
▁သိုလှောင်ခြင်း	-11.1418
အကြံပေးချက်များ	-11.1419
function	-11.1419
ဂွန်	-11.142
နွေရာသီ	-11.1422
▁ဥပမာအားဖြင့်	-11.1424
၈၅	-11.1433
▁ပျော်ရွှင်မှု	-11.1434
ဖုန်မှုန့်အိတ်	-11.1436
ခန့်ထား	-11.1436
4.7	-11.1438
vert	-11.144
▁Calling	-11.144
တန်ဖိုးရှိ	-11.1444
ၾကတယ္	-11.1446
▁၄၅	-11.1458
တယ်ဆိုတဲ့	-11.1464
ခြင်းငှါ၎င်း၊	-11.1465
စစ်မှန်	-11.1468
wear	-11.1468
ဝန်ခံ	-11.1471
တှေ့	-11.1473
▁မီလီဂရမ်	-11.1474
ပဋိပက္ခ	-11.1474
▁Acetate	-11.1474
▁width	-11.1474
▁ဖိလစ်ပိုင်	-11.1474
▁Dakar	-11.1474
▁တက်တူးအနုပညာ	-11.1474
▁Centre	-11.1474
▁၂၀၀၇	-11.1474
သောက်သုံးသော	-11.1475
▁ထို့ကြောင့်	-11.1475
▁စတုရန်းပေ	-11.1475
▁သို့ပြုလျှင်	-11.1475
format	-11.1476
▁Duty	-11.1477
ခ်ိဳ	-11.1477
ေမာင္	-11.1478
8.3	-11.1478
utter	-11.1479
ညွှန်ကြား	-11.1483
▁Miss	-11.1483
Ltd	-11.1492
အဘယ်ကြောင့်	-11.1492
သင့်လျော်	-11.1495
ASA	-11.1498
paw	-11.1499
▁ဤလူမျိုး	-11.1499
▁အလိုလို	-11.15
▁IQ	-11.1501
▁Hai	-11.1509
ဆွေးနွေးပွဲ	-11.1509
rist	-11.1515
▁မိဘတွေ	-11.1517
8.9	-11.1525
၈၈	-11.1534
လောဟု	-11.1538
ရုပ်မြင်သံကြား	-11.1539
▁jailbreak	-11.1539
ဖိတ်ခေါ်	-11.154
▁Travel	-11.154
သမဂ္ဂ	-11.154
မသန်စွမ်း	-11.154
အောက်ကိုဆင်း	-11.154
resources	-11.154
စနစ်တကျ	-11.154
ulation	-11.1541
ဖျာ	-11.1541
အမြှေးပါး	-11.1541
▁လက်မှတ်ထုတ်ပေး	-11.1542
▁ဤဆောင်းပါးတွင်	-11.1543
▁Rock	-11.1544
▁Drop	-11.1544
ဦးဆောင်သည့်	-11.1549
PCS	-11.1553
ဒေါင်းလုပ်လုပ်	-11.1559
ပေးထားပါတယ်။	-11.1561
riv	-11.1565
ဆုတောင်း	-11.1571
လတံ့။	-11.1573
ဒေါင်းလုဒ်	-11.1586
ပြီတကား	-11.1593
ကမ္ဘာပေါ်မှာ	-11.1593
စောင့်ကြည့်	-11.1594
="3.6	-11.16
အပေါငျးတို့သ	-11.1605
တစျခု	-11.1605
ဖြည့်ဆည်း	-11.1605
▁Electric	-11.1605
▁PlayStation	-11.1605
▁Whatsapp	-11.1605
တိုင်းရင်းသား	-11.1605
▁Learn	-11.1606
ခင်းကျင်း	-11.1606
▁Turn	-11.1607
▁Alpha	-11.1608
▁Cream	-11.1609
▁ကိုယ်ကိုကိုယ်	-11.1619
▁Iran	-11.1619
▁(4)	-11.1622
တို့ကို၎င်း	-11.1628
မည်သည်ကား၊	-11.1632
▁alto	-11.1634
အားနည်းချက်	-11.1635
▁Chan	-11.1635
▁စကားလုံးတွေ	-11.1636
="28	-11.1638
Online	-11.164
ဒေသဆိုင်ရာ	-11.1653
ရှ်	-11.1656
င္႔	-11.1659
ယူအက်စ်အေ	-11.1664
▁ခါနာန်	-11.1672
▁router	-11.1672
နှေးကွေး	-11.1672
▁အင်္ဂါနေ့	-11.1674
ကြိုက်တယ်	-11.1675
နေထိုင်သူ	-11.1676
▁login	-11.1676
="25	-11.1677
လေတိုက်	-11.1678
ရှူး	-11.1681
="4.8	-11.1681
▁တစ်ရက်	-11.1683
ဝါယာကြိုးကွက်	-11.1684
ခြေလျင်	-11.1686
များတွင်အသုံးပြု	-11.1686
space	-11.1686
▁တစ်ခုချင်းစီကို	-11.1689
အလုပ်အဖွဲ့	-11.1693
▁၁၀၀၀	-11.1694
စာရင်းစစ်	-11.1697
▁ဗင်္ယာမိန်	-11.1698
၄၈	-11.1707
အဆက်မပြတ်	-11.1708
ရှိုး	-11.171
▁CPA	-11.1711
ဇန်နဝါရီ	-11.1715
="2.5	-11.1721
စပိန်	-11.1732
ဆောင်နေသည်ဆိုပါက	-11.1738
ယွာဘ	-11.1738
လတ်ဆတ်	-11.1738
လုပ္ငန္း	-11.1738
▁Operating	-11.1738
▁configure	-11.1738
▁ငြိမ်သက်ခြင်း	-11.1738
တိကျမှန်ကန်မှု	-11.1738
▁Search	-11.1738
▁အခြေခံပညာ	-11.1739
မှီဝဲ	-11.174
ထံတော်သို့	-11.174
▁entry	-11.1742
ွိုက်	-11.1746
▁အကြားအမြင်ရမှာ	-11.1748
အမျိုးသားရေး	-11.1749
ဘီလ်	-11.1751
အပြစ်ကြောင့်	-11.1751
▁ONE	-11.1753
ထုတ်လွှတ်	-11.1754
ရိန်း	-11.1756
တစ်ရှူး	-11.1764
နိုင်မယ့်	-11.1766
၈၃	-11.1767
ကိုကြည့်ပါ	-11.1772
တယောက်တည်း	-11.1774
▁အိုကေ	-11.1784
7.4	-11.1785
▁ဝှက်ထား	-11.1786
ကိုရွေးပါ	-11.1787
rule	-11.18
မျိုးနွယ်	-11.1801
="27	-11.1803
စေ့စေ့စပ်စပ်	-11.1805
တြိဂံ	-11.1805
အင်တာနေရှင်နယ်	-11.1805
▁Configuration	-11.1805
▁Vegas	-11.1805
▁fittings	-11.1805
▁မနာရှေ	-11.1805
▁ဆောက်လုပ်	-11.1807
▁Flute	-11.1807
▁ကားမောင်းသူ	-11.1809
တွယ်	-11.181
စာမကျြနှာ	-11.181
ဘလော့ဂ်	-11.1812
▁processor	-11.1814
▁views	-11.1817
တောင်းခံ	-11.1827
ဝငျ	-11.1832
မောက်	-11.1838
▁Cord	-11.1849
Our	-11.1852
="3.5	-11.1855
အာဖရိက	-11.1864
မူပိုင်ခွင့်	-11.1865
စတီရီယို	-11.1873
ရွှံ့နွံ	-11.1873
ကြာသပတေးနေ့	-11.1873
ကုလားကာ	-11.1873
အခကြေးငွေ	-11.1873
ဂျက်လေယာဉ်	-11.1875
ခိုးယူ	-11.1878
ဆွဲဆောင်မှု	-11.1878
အေျဖ	-11.1879
စံု	-11.1879
emb	-11.188
▁touch	-11.1881
အာရုံစူးစိုက်	-11.1882
ပြုသောအမှု	-11.1888
နည်းဟူမူကား၊	-11.1889
မူကွဲ	-11.189
သဘာဝဓာတ်ငွေ့	-11.1895
▁ရန်ကုန်မြို့	-11.1906
▁90%	-11.1907
တဆင့်	-11.1908
လက်စွဲ	-11.1909
▁လိုပါတယ်။	-11.1909
ဇို	-11.1916
(10)	-11.1918
▁ထိုင်နေ	-11.1922
ထွင်	-11.1923
▁plug	-11.1931
ထိန်သိမ်း	-11.1941
▁Engine	-11.1941
▁inhibitor	-11.1941
▁ရဲရင့်	-11.1941
ဂတ်စ်	-11.1941
▁Ptfe	-11.1941
love	-11.1941
▁၂၀၀၉	-11.1941
ဖြောင့်	-11.1942
မော်လီကျူး	-11.1942
ချဲ့ထွင်	-11.1942
▁just	-11.1943
▁သမုတ်	-11.1943
▁Island	-11.1944
လမ်းခွဲ	-11.1945
▁ငှားရန်	-11.1945
="2.3	-11.1946
ၾ	-11.1948
bank	-11.195
တာဝန်ယူမှု	-11.1951
="26	-11.1951
▁Excel	-11.1954
ကြာရှည်	-11.1959
သင်သိ	-11.196
ကြားလျှင်၊	-11.1961
၈၇	-11.1961
မျိုးပွား	-11.1966
ထိန်းသိမ်းရေး	-11.1967
▁tube	-11.1971
ခံစားရတယ်	-11.1971
ကျနော်တို့တရုတ်	-11.1979
ဘာတွေလဲ	-11.198
▁မောဘ	-11.1984
ternal	-11.1986
ပေသည်။	-11.199
ရန်လွယ်ကူ	-11.1999
သွယ်	-11.2002
ချုံ	-11.2005
ရွေးချယ်ရေး	-11.2009
′	-11.2009
ဗုဒ္ဓဟူးနေ့	-11.2009
ဝီကီပီးဒီးယား	-11.2009
▁Advisors	-11.2009
ဧလိရှဲ	-11.2009
casino	-11.2009
▁Website	-11.2009
▁အခြားတပါးသော	-11.2009
▁know	-11.2011
ဂြိုဟ်တု	-11.2013
▁ဂစ်တာနဲ့	-11.2013
အစပျိုး	-11.2014
ကိုသုံးနိုင်သည်	-11.2015
၂၀၁၆	-11.202
▁Just	-11.2024
တို့ပါဝင်သည်	-11.2025
ဆေးကြော	-11.2027
ကော်လံ	-11.2028
▁Grand	-11.2032
ကျောက်ခဲ	-11.2047
လာမည့်	-11.205
စျေးကြီး	-11.2051
ဟိတ်	-11.2057
သုံးစွဲမှု	-11.2068
မြန်နှုန်းမြင့်	-11.207
▁optic	-11.2072
မဟုတ်ရင်	-11.2073
ဖမ်းယူ	-11.2074
▁ဒီလိုမျိုး	-11.2078
နှင့်သူ၏	-11.2078
▁kachin	-11.2078
အသံအတိုးအကျယ်	-11.2078
▁Philadelphia	-11.2078
▁ဒါေပမဲ့	-11.2078
ချိန်ခွင်လျှာ	-11.2078
▁Drilling	-11.2078
▁GISON	-11.2078
▁သန့်ရှင်းရာဌာန	-11.2078
အကြံအစည်	-11.2078
▁Exchange	-11.2078
တရှောက်လုံး	-11.2078
▁Movie	-11.2079
ႏုိင္ငံ	-11.2079
▁(2016)	-11.2079
ajaj	-11.2081
ရှုထောင့်	-11.2081
တွင်ဖော်ပြထားသော	-11.2082
အထူးပြုနေကြသည်။	-11.2084
▁ကျွန်ခံ	-11.2087
၉၇	-11.2096
သင်ခန်းစာ	-11.2097
အဆွေ	-11.2098
ပြင့္	-11.2098
တပ်မက်	-11.2102
မြို	-11.2104
town	-11.2111
ကျီ	-11.2114
အရှေ့ဘက်	-11.2116
နေချိန်မှာ	-11.2118
ကိုင်ထား	-11.2118
ကြ်န္ေတာ္တို	-11.2125
တစ်နေ့လျှင်	-11.2126
တော်တော်လေး	-11.2129
▁Line	-11.2129
ခေါ	-11.2132
စတင်တည်ထောင်ခဲ့	-11.2136
သရုပ်ပြ	-11.2137
▁စိတ်ကူးကြည့်	-11.2139
ေၾကာ	-11.2145
နိုင်ဂျီးရီးယား	-11.2148
ပိတ်သိမ်းမည့်နေ့	-11.2148
အုပ်ကြွပ်	-11.2148
▁Insurance	-11.2148
▁appeared	-11.2148
အသုံးအနှုန်း	-11.2148
▁Western	-11.2148
▁တပြည်လုံး	-11.2148
▁IVR	-11.2148
▁Skip	-11.2148
▁NMDC	-11.2151
တန်းတူ	-11.2152
▁ရှာကြံ	-11.2152
ထိန်းချုပ်ထား	-11.2155
ခဲ့ပါဘူး။	-11.2158
forex	-11.2158
၃၃	-11.216
▁Collet	-11.216
▁တယော	-11.2163
အဖြစ်အနိမ့်	-11.2167
ညီအစ်ကိုတို့	-11.2168
.......	-11.2171
▁ရှင်းရှင်း	-11.2171
မဂ္ဂဇင်း	-11.2172
ပျော်ဝင်	-11.2174
ဆက်စပ်ထုတ်ကုန်	-11.2177
shot	-11.2178
ဆက်တိုက်	-11.2185
၈၂	-11.2185
ဆန့်	-11.2186
ဖြစ်လိမ့်မည်	-11.2188
▁အီရန်နိုင်ငံ	-11.2199
ထောင်ချီ	-11.2204
မ်ဳိး	-11.2218
ခွံမာသီး	-11.2218
နေသူများကဖန်တီး	-11.2218
▁compressed	-11.2218
▁widget	-11.2218
▁ဖိုင်ရယူရန်	-11.2218
▁Zhong	-11.2218
နှင့်အတူလက်ကား	-11.2218
hydroxy	-11.2218
မစ္စတာ	-11.2218
▁signal	-11.222
တင်မက	-11.2222
awng	-11.2222
ဖယ်ရှားပစ်	-11.2225
▁Euro	-11.2228
ငါပေးမည်	-11.2232
▁Paper	-11.2235
ဆန်ခါ	-11.2237
▁လူအသက်ကို	-11.2237
ကျော်လွှား	-11.2239
လေ့ကျင့်	-11.224
▁ETR	-11.2242
▁Marketing	-11.2244
စီးပွား	-11.2246
▁ရှမွေလ	-11.2248
▁THE	-11.226
ထံမှအမှတ်တံဆိပ်	-11.2263
9.7	-11.2274
၁၀၀	-11.2279
မွေ့လျော်	-11.2288
▁inductors	-11.2288
▁Example	-11.2288
အလောင်းအစား	-11.229
▁super	-11.229
▁fix	-11.2291
ဖျူး	-11.2291
start	-11.2295
ကြစို့	-11.2296
▁VIP	-11.2298
ဗီဇာ	-11.2305
ြောင်း	-11.2306
▁Brit	-11.2327
တွေ့ရှိခဲ့	-11.2327
download	-11.2333
လြန္	-11.2341
▁Wave	-11.2344
၇၄	-11.2346
အသားအရေ	-11.2353
အားထုတ်မှု	-11.2357
ချန်ပီယံ	-11.2359
ထိုးနှက်	-11.2359
ကုလားထိုင်	-11.2359
▁Containerized	-11.2359
▁controller	-11.2359
▁induction	-11.2359
▁Tarot	-11.2359
နည်းဗျူဟာ	-11.2361
ဝင်ရောက်ခွင့်	-11.2362
▁ဒေသတွင်း	-11.2365
မြင့်တက်	-11.2373
အသေကောင်	-11.2373
▁JIS	-11.2378
သင်တန်းသားများ	-11.2379
▁အခုဆိုရင်	-11.238
▁ကိရိယာတွေ	-11.2382
သဘာပတိ	-11.2385
ခန့်မှန်းချက်	-11.2385
8000	-11.2392
istic	-11.24
၅၇	-11.2407
ချို့ယွင်း	-11.243
အယ်ဒီတာ	-11.243
pyrimidine	-11.243
မွေးမြူရေး	-11.243
သိုးမွှေးထိုးစက်	-11.243
▁centrifugal	-11.243
▁ဩဂုတ်	-11.243
ညှင်း	-11.2431
▁Version	-11.2431
မြေတပြင်လုံး	-11.2431
မတိုင်ခင်	-11.2431
present	-11.2431
front	-11.2431
7.8	-11.2432
ၿဖ	-11.2433
ချစ်ပ်	-11.2434
လက်ဆောင်ကဒ်	-11.2436
ဝန်ကြီးအဖွဲ့	-11.2436
▁ဂတိတော်	-11.2439
="1.1	-11.244
ပါဝင်ပတ်သက်	-11.2446
ဗူး	-11.2446
ဖြာ	-11.2449
ROM	-11.2449
▁ကိုပေါ်ကို	-11.2454
▁Flight	-11.2459
ညွှန်	-11.2467
လေ့လာသင်ယူ	-11.2475
="4.1	-11.2479
SHA	-11.248
▁အရာတိုင်း	-11.249
▁tablet	-11.2491
တံတောင်ဆစ်	-11.2502
ပစၥည္း	-11.2502
ေက်ာင္း	-11.2502
▁Bowflex	-11.2502
▁Categories	-11.2502
▁crystal	-11.2502
တုိ႔	-11.2502
အစအဦး	-11.2503
▁အံ့ဘွယ်သော	-11.2503
ရန်သင့်အား	-11.2503
တင်းကြပ်	-11.2504
ထိန်းညှိ	-11.2505
၉၈	-11.251
အလွန်ကြီးစွာသော	-11.2526
အလွန်လွယ်ကူ	-11.2526
awa	-11.253
သင်တို့အဘို့အ	-11.2537
၄၆	-11.2542
ရေပိုက်	-11.2544
coll	-11.2547
="3.4	-11.2559
ၽ	-11.2561
ရွှံ့	-11.2575
ခဲယဉ်း	-11.2575
တော်မမူပါနှင့်။	-11.2575
ဖန်သားပြင်	-11.2575
ဘေးဥပဒ်	-11.2575
သိုင်းကြိုး	-11.2575
▁Pulverized	-11.2575
▁discusssions	-11.2575
▁template	-11.2575
▁ဆီလီကွန်ချိုင့်	-11.2575
▁ဖာရိရှဲ	-11.2575
လက်မှတ်ရေးထိုး	-11.2575
▁Town	-11.2575
▁ITIL	-11.2575
▁texture	-11.2575
▁Japan	-11.2575
ၾကည့္ရေအာင္	-11.2576
အရေးပေါ်	-11.2576
▁Trader	-11.2576
▁element	-11.2577
▁တစ်ချိန်တည်းမှာ	-11.2577
သင်သည်သင်၏	-11.2578
ငြင်းဆန်	-11.258
တစ်လျှောက်လုံး	-11.2581
ႏွစ္ခု	-11.2581
oujian	-11.2584
နာယက	-11.2586
မွငျ	-11.2591
လည်ဆွဲ	-11.2592
ေထာင့္	-11.2599
၇၇	-11.2599
လွ်င္	-11.2603
တိုက်လေယာဉ်	-11.2605
အောက်ပါအတိုင်း	-11.2613
▁စုဝေးစေ	-11.2617
အီးယူ	-11.262
rill	-11.2622
ျဖစ္ေန	-11.2626
▁တာဝန်ယူ	-11.2642
ဂြိုလ်	-11.2647
▁Explore	-11.2648
ဓာတ္	-11.2648
▁oboe	-11.2648
▁ဘဏ္ဍာနှစ်	-11.2649
▁ပူပန်	-11.2649
စပျစ်ဥယျာဉ်	-11.265
▁အိုင်ဖုန်း	-11.2652
အစွန်းရောက်	-11.2653
▁Martin	-11.2654
ေပၚမွာ	-11.2657
သစ်တော	-11.266
▁Fast	-11.2662
အရေဖျားလှီးခြင်း	-11.2663
▁HOT	-11.2664
ရှုမြင်	-11.2666
မထားဘူး	-11.2674
ngpho	-11.2678
မြို့ကြီးများ	-11.2682
ဟွာ	-11.2682
မရှိမဖြစ်	-11.2682
▁10.1	-11.2686
▁VPA	-11.2689
▁make	-11.2697
လုံးအခွင့်အရေး။	-11.2697
spect	-11.2701
ဝိသေသ	-11.272
ဗဓေလသစ်	-11.2721
ဧကရာဇ်	-11.2721
▁algorithm	-11.2721
▁solenoid	-11.2721
▁ယောနသန်	-11.2721
▁President	-11.2721
▁အမှီပြု၍	-11.2721
မှုန်ရေမွှား	-11.2721
တင်းမာမှု	-11.2722
▁BEST	-11.2722
▁ဂျွန်ဆင်	-11.2722
ဘလော့ဂ်ပို့စ်	-11.2722
serial	-11.2722
▁FDA	-11.2722
တရုတ်ထုတ်လုပ်သူ	-11.273
ေကာင္	-11.273
="0.8	-11.273
▁အရှင်မင်းကြီး	-11.2736
Tech	-11.2739
ကီလိုဂရမ်	-11.2739
နှင့်ဆက်စပ်	-11.2758
▁လိုက်၍	-11.2758
case	-11.2763
ထောက်လှမ်းရေး	-11.2771
5.9	-11.2772
ကယ့်ကို	-11.2774
သွင်းကုန်	-11.2781
တိုးတက်စေ	-11.279
ော်ဒယ်အဘယ်သူမျှမ	-11.2794
ကီးဘုတ်	-11.2795
အထွဋ်	-11.2795
အလှအပ	-11.2795
pyridine	-11.2795
ထိတ်လန့်	-11.2795
private	-11.2796
▁value	-11.2796
▁ရယ်မော	-11.2796
▁database	-11.2796
စီရင်စု	-11.2797
▁ဖြောင့်မတ်သော	-11.2797
နှိမ်	-11.2797
ဒေတာဘေ့စ	-11.2798
တတ်နိုင်သမျှ	-11.2799
▁Wired	-11.2799
အကျိုးစီးပွား	-11.2803
▁Viber	-11.2804
▁ယနေ့တိုင်အောင်	-11.2804
ေကာက္	-11.2805
▁Printed	-11.2805
ဂျာစီ	-11.2809
▁ပိ	-11.2817
ဦးချို	-11.2817
အဲဒါ	-11.2822
မောရှေ	-11.2822
မီးရှို့	-11.2823
ယေဘုယျအားဖြင့်	-11.2823
အမေရိကန်ဒေါ်လာ	-11.2824
MPa	-11.2837
8.6	-11.2838
၅၆	-11.284
ယ်ရေးအချက်အလက်	-11.284
၉၃	-11.2843
title	-11.2855
အတိုင်ပင်ခံ	-11.287
▁groove	-11.287
▁စကြာဝဠာ	-11.287
▁ပုဂံ	-11.287
လက်ငင်း	-11.287
▁Jumma	-11.287
ရော့ခ်	-11.287
သားမြေး	-11.2871
လွင့်	-11.2874
▁Idea	-11.2875
zuri	-11.2878
▁pri	-11.2879
ဌာနချုပ်	-11.2891
▁Doll	-11.2891
ခဲ့တယ္။	-11.2892
ဖောင်	-11.2894
▁ဂီတာ	-11.2895
▁Tele	-11.2897
▁Hui	-11.2898
▁pop	-11.29
osa	-11.2904
ပို့ချ	-11.292
၆၈	-11.2926
Aria	-11.2928
▁အင်္ဂလိပ်စာ	-11.2929
သတင်းစကား	-11.2932
ဇုန္	-11.294
ချင်တယ်ဆိုရင်	-11.2945
မိုးလုံလေလုံ	-11.2945
ဂဏန္း	-11.2945
စကော့တလန်	-11.2945
ပုပ်ရဟန်းမင်း	-11.2945
▁MacBook	-11.2945
▁SPYERA	-11.2945
▁distributed	-11.2945
▁ပြပ်ဝပ်	-11.2945
အုပ်စုတစ်စု	-11.2945
လညျး	-11.2945
စွမ်းဆောင်မှု	-11.2945
▁Quote	-11.2946
▁HTC	-11.2946
အကြီးတန်း	-11.2947
IVE	-11.2957
▁IBC	-11.2959
▁Loop	-11.296
▁ရေလွှမ်းမိုး	-11.2962
မႈေတြ	-11.2962
▁Myit	-11.2964
စစ်ထုတ်	-11.2966
="5.0	-11.2972
မူလအစ	-11.2972
▁အိတ်အမျိုးအစား	-11.2979
ခုႏွစ္	-11.2983
▁စစ်သူရဲ	-11.2985
မှားယွင်း	-11.2992
▁အများစုက	-11.2995
တစ်စုံတစ်ဦး	-11.3012
စိတျအပိုငျး	-11.3021
ဒံယေလ	-11.3021
▁Excellent	-11.3021
▁မြေမှုန့်	-11.3021
စော်ကား	-11.3021
နှင့်တကွ	-11.3021
▁ဤသူတို့သည်	-11.3022
▁Database	-11.3022
▁သို့ဖြစ်လျှင်	-11.3023
လူသတ်မှု	-11.3025
မစ်ရှင်	-11.3026
▁ငါသည်သင်တို့ကို	-11.3028
သီးနှံ	-11.3035
ထူးပြုထုတ်လုပ်သူ	-11.3036
၈၉	-11.3037
4.8	-11.304
stock	-11.3041
ႏို	-11.305
="24	-11.3055
ငါးခု	-11.3061
ခွန်း	-11.3061
9.3	-11.3072
၆၄	-11.3072
၈၆	-11.3087
ပျက်စီးခြင်းသို့	-11.309
စကိတ်စီး	-11.3097
▁ဆင့်ဆိုရမည်မှာ၊	-11.3097
မြွေဆိုး	-11.3097
▁Ministry	-11.3097
▁ပရိသတ်စည်းဝေးရာ	-11.3097
▁ဖာရောဘုရင်	-11.3097
သမားရိုးကျ	-11.3097
Public	-11.3097
တောင်ပံ	-11.3097
▁bracket	-11.3098
▁professional	-11.3098
▁Element	-11.3098
ကိုယ့်ကိုကိုယ်	-11.3099
▁pump	-11.3099
▁Compact	-11.3099
စွပ်စွဲ	-11.3099
▁ကျရှုံး	-11.3099
ကမ်းလွန်	-11.3102
ဖို့လိုပါတယ်။	-11.3102
▁ဝင်လာ	-11.3104
▁Plat	-11.3105
▁မြန်မာပြည်	-11.3105
ငုပ်	-11.3108
▁သတင်းထောက်	-11.311
▁XXL	-11.3112
="3.3	-11.3117
8.8	-11.3121
▁လေဝိ	-11.3122
▁တစ်ခါသုံး	-11.3137
speed	-11.3138
အံသွား	-11.314
▁Mike	-11.3156
အများအားဖြင့်	-11.3164
▁ဘေးကင်း	-11.3167
ဘယ်သူမျှမစစ်တမ်း	-11.3169
activated	-11.3174
europe	-11.3174
မြဲမြံ	-11.3174
အဗရှလုံ	-11.3174
▁အချင်းလူသား၊	-11.3174
▁eBay	-11.3174
▁ရှေ့ဦးစွာ	-11.3174
▁HBOT	-11.3174
ရေပန်းစား	-11.3174
Contact	-11.3174
ပြီးပြည့်စုံသော	-11.3174
ခေါ်ဆောင်သွား	-11.3175
တွန်းလှည်း	-11.3175
လင့်များ	-11.3176
EADE	-11.3177
▁Lamps	-11.3177
▁UNL	-11.3177
ontinu	-11.3179
▁patch	-11.3179
ပိုမိုမြင့်မား	-11.3179
▁အက်ပ်	-11.3181
KHz	-11.3184
▁had	-11.3186
▁Shot	-11.3186
▁၏ကုန်ပစ္စည်း	-11.3192
▁ဆေးခန်း	-11.3197
▁Clara	-11.3202
▁အကြင်	-11.3202
ပိုမိုကောင်းမွန်	-11.3203
၃၉	-11.3203
▁may	-11.3221
8.7	-11.3227
ပွဲအခမ်းအနား	-11.3237
▁အောင်မြင်မှုပုံ	-11.3239
7.7	-11.3245
New	-11.325
မဟာမိတ်	-11.3252
မှုမျှော်ကြည့်ပါ	-11.3252
သခင်ယေရှုခရစ်	-11.3252
▁Genotropin	-11.3252
▁circuit	-11.3252
▁people	-11.3252
▁ဒါမွမဟုတ္	-11.3252
▁အီရတ်	-11.3252
▁silica	-11.3252
ဂုဏ်သတ္တိများ	-11.3252
အာရဇ်	-11.3252
▁ကျိန်ဆဲ	-11.3252
Eleven	-11.3253
ဝေဟင်	-11.3254
▁ရယ်စရာ	-11.3254
scope	-11.3257
▁ထားဘေး	-11.326
jiang	-11.3262
▁သတ္တုတွင်း	-11.3263
တာဘိုင်	-11.3265
ြေမှုန့်စုဆောင်း	-11.3265
ခံထားရ	-11.3267
flow	-11.3273
▁တန်ခိုးတော်	-11.3278
▁0.01	-11.3281
plane	-11.3295
▁ဘုန်းတော်	-11.33
ဗ်ာ	-11.3313
4.6	-11.3313
1%80%9	-11.3325
တယ်နော်	-11.3328
ဆုံးမဩဝါဒပေး	-11.333
နှင်းလျှောစီး	-11.333
မိဖုရား	-11.333
▁Pinterest	-11.333
အကြွေစေ့	-11.333
ကြေးမုံ	-11.333
သဘောတူညီမှု	-11.333
လက်ခုပ်	-11.333
▁Ocean	-11.333
အကျဉ်းချုပ်	-11.333
14443	-11.333
▁flash	-11.333
ျပဳလုပ္	-11.3331
▁လှည့်စား	-11.3333
တွန်းအားပေး	-11.3333
အမှတ်စဉ်	-11.3333
ရဲတပ်ဖွဲ့	-11.3334
လှည့်ဖျား	-11.3334
▁Customer	-11.3335
အတော်ကြာ	-11.3337
ထူးချွန်	-11.3339
▁ဤအရပ်၌	-11.3348
▁him	-11.335
အေဒီ	-11.3354
စက်ရုံထဲကနေအ	-11.336
▁မိုက်သောသူ	-11.3371
▁ဟုတ်ပါတယ်	-11.3373
ဖို့လိုတာ	-11.3386
တပါးတည်း	-11.3388
နျူ	-11.3391
နုန်	-11.3391
twitter	-11.3409
▁ကမ္ဘောဒီးယား	-11.3409
friendly	-11.3409
တုိ႕	-11.3409
သမ္မာတရား	-11.3409
ဠ	-11.3409
▁Steroid	-11.3409
▁Wiegand	-11.3409
▁capacit	-11.3409
▁အီဂျစ်	-11.3409
ေၿပာ	-11.3409
ကတ္တရာ	-11.341
ခွငျး	-11.3411
▁Young	-11.3411
ျွမ်းကျင်သူများက	-11.3411
၈၄	-11.3412
▁ဂိလဒ်ပြည်	-11.3416
▁ဒုစရိုက်အပြစ်	-11.3422
မီးသတ်	-11.3437
၆၀၀	-11.3442
ခံစားခဲ့ရ	-11.3454
၈၁	-11.3467
▁Citr	-11.3468
▁??????????????	-11.3483
respond	-11.3488
▁CAPTCHA	-11.3488
should	-11.3488
ကိုယ်ရေးကိုယ်တာ	-11.3488
▁ရေခဲပြင်	-11.3488
ပုံသေနည်း	-11.3488
▁(2012)	-11.3488
သွယ်လုပ်ငန်းခွန်	-11.3489
▁ဆုငှေ	-11.3489
▁ရင်ပြင်	-11.3493
4.00	-11.3495
▁နောင်တရ	-11.3495
weight	-11.3496
ေလးေတြ	-11.3501
▁ပွတ်။	-11.3503
▁ဒီဟာက	-11.3533
တော်မူပြီဟု	-11.3535
သည်ဖြစ်၍	-11.3536
ျဖစ္ပါတယ္	-11.3546
တိုးပွားလာ	-11.3568
နယ်နိမိတ်	-11.3568
အလို့ငှာ	-11.3568
ပရိုတိုကော	-11.3568
▁Flexible	-11.3568
▁duplex	-11.3568
ဆွဲငင်	-11.3568
▁ဝက်ဘ်ဆိုဒ်	-11.3568
▁သိတဲ့အတိုင်း	-11.3568
ျမင့္	-11.3568
ဒီဇယ်	-11.3568
▁see	-11.3569
အထက်တန်းကျောင်း	-11.3569
အပါအ	-11.357
ချက်ပြုတ်နည်း	-11.357
Product	-11.3574
ေဒသ	-11.3578
▁Gran	-11.3585
▁ခိုင်မာသော	-11.3585
လူပျိုစက်	-11.3592
▁DRK	-11.3597
အပိုင်းအခြား	-11.3601
▁ကြွင်းသော	-11.3603
သတိပြုမိ	-11.3618
ကြသည်မဟုတ်	-11.3626
ထွန်	-11.3632
ဆေးထိုးအပ်	-11.364
bility	-11.3641
အသေးစိတျ	-11.3649
ညှိုးငယ်	-11.3649
မ်ဥ္း	-11.3649
▁Automotive	-11.3649
▁WysLuxury	-11.3649
▁bassoons	-11.3649
▁simulation	-11.3649
ခြွင်းချက်	-11.3649
▁Trading	-11.3649
[7]	-11.3649
shopify	-11.3649
▁ဆန့်ကျင်ဘက်	-11.365
ပြိုကွဲ	-11.365
related	-11.3651
ကိစ္စရပ်များ	-11.3651
ပြုပြင်မွမ်းမံ	-11.3652
▁သိုးထိန်း	-11.3653
ဩဝါဒ	-11.3655
သြင္း	-11.3657
ခြုံငုံသုံးသပ်	-11.3659
exact	-11.366
="4.7	-11.3666
ကြိုးစားအားထုတ်	-11.3677
လတံ့	-11.3678
▁Pip	-11.3682
နိုင်မလဲ	-11.3684
ရှေ့ပြေး	-11.3686
၃၈	-11.369
ယာကုပ်	-11.3696
▁တပည့်တော်တို့	-11.3702
▁Build	-11.3717
Australia	-11.373
ကမာၻ	-11.373
ပိတ်ပင်တားဆီးမှု	-11.373
▁Buddhatrends	-11.373
▁Evinrude	-11.373
▁Extrusion	-11.373
▁Society	-11.373
▁welding	-11.373
▁Automation	-11.373
▁EURUSD	-11.373
▁Wonder	-11.373
အရေးအသား	-11.373
▁waterproof	-11.373
တပတ်ရစ်	-11.373
white	-11.373
တစ်သက်တာ	-11.373
▁ချိုင့်	-11.3731
အောက်ဆိုဒ်	-11.3735
လိဂ်	-11.3735
ဖြန်း	-11.3737
▁တပည့်တော်	-11.3738
နည္းပညာ	-11.374
▁need	-11.3744
▁Room	-11.3746
7.00	-11.3751
ောက်ဆီဂျင်ကုထုံး	-11.3753
▁cookie	-11.3754
▁ယာကုပ်အမျိုး	-11.3776
ography	-11.3786
ပေါင်းထည့်	-11.3798
Term	-11.38
hydr	-11.3806
ကြိုဆိုပါတယ်	-11.3807
တေးဂီတ	-11.3807
ဘန်ကီမွန်းက	-11.3812
အညစ်အကြေး	-11.3812
အဖျော်ယမကာ	-11.3812
▁Stretch	-11.3812
▁universal	-11.3812
▁ဒိန်းမတ်	-11.3812
▁လော့ဂ်အင်	-11.3812
▁အမေးအဖြေများ	-11.3812
subscription	-11.3812
ဆန်းသစ်တီထွင်မှု	-11.3812
ေခါင္း	-11.3812
▁အာဗြံ	-11.3812
မျက်စိကန်း	-11.3812
တရုတ္	-11.3812
AIDS	-11.3812
rpm	-11.3813
စမ်းသပ်ပြီးနှင့်	-11.3813
▁Interface	-11.3813
ဝိသေသလက္ခဏာများ	-11.3813
▁BMW	-11.3814
ောင်းကြီးမင်္ဂလာ	-11.3815
▁အတွက်သူလျှို	-11.3823
glass	-11.3826
▁ရှောက်သွား	-11.3827
▁သားဦး	-11.3839
8.00	-11.3843
ပေါက်ကွဲ	-11.3856
▁Chris	-11.3886
ဖေါက်	-11.3895
▁Oracle	-11.3895
▁Roulette	-11.3895
▁USMLE	-11.3895
▁Yahoo	-11.3895
▁လှပတဲ့	-11.3895
▁Copyshop	-11.3895
group	-11.3896
▁သံလွင်	-11.3897
ဏီ	-11.39
▁Lord	-11.39
▁လူအစုအဝေး	-11.39
အက်ဥပဒေ	-11.39
ပုံနှိပ်ထုတ်ဝေ	-11.3901
="0.3	-11.3905
▁ပြန်လျှောက်	-11.3907
serve	-11.3907
လဲဆိုေတာ့	-11.3908
="4.6	-11.3915
ဒေါင်းလုဒ်လုပ်	-11.3919
▁adv	-11.3935
▁tab	-11.3935
အေးမြ	-11.3952
တော်မူသည်အတိုင်း	-11.3954
မည်လောဟု	-11.3967
▁ဆင်းသက်သော	-11.3967
ဒသမ	-11.3968
ကျိန်းဝပ်	-11.397
ငြမ်း	-11.3978
ပက်ထရစ်	-11.3978
▁Dimension	-11.3978
▁directory	-11.3978
ပိုးသတ်ဆေး	-11.3978
ပူဖောင်း	-11.3978
ရောင်ရမ်း	-11.3978
ညှစ်	-11.3978
အညိုရောင်	-11.3978
▁hosting	-11.3978
▁အထပ်ထပ်	-11.3978
အလယ်ဗဟို	-11.3978
▁SOE	-11.3978
▁Reply	-11.3978
▁လင်းနို့	-11.3978
▁TCP	-11.3978
▁streaming	-11.3979
အရှင်ဘုရားသခင်	-11.3989
▁mono	-11.3999
ဆုပေးပွဲ	-11.4
မရောက်မှီ	-11.4017
ထံတော်၌	-11.4029
ကွောငျး	-11.4038
arrier	-11.4043
ပြဋ္ဌာန်း	-11.4062
လတ်တလော	-11.4062
လုပ်ဖော်ကိုင်ဖက်	-11.4062
အရည်ကျိုမီးဖို	-11.4062
လိုက်လျောညီထွေ	-11.4062
▁FLEGT	-11.4062
▁Industrial	-11.4062
▁Pampanga	-11.4062
▁Privacy	-11.4062
သူဌေး	-11.4062
အတွင်းရေးမှူး	-11.4062
အိုင်ယာလန်	-11.4062
▁domain	-11.4062
▁Solana	-11.4062
▁Output	-11.4062
က်င္းပ	-11.4062
ကိုလံဘီယာ	-11.4062
▁carbide	-11.4062
fluoro	-11.4062
အလယ်တန်း	-11.4062
▁Tesse	-11.4062
▁copy	-11.4064
ေလ့လာ	-11.4064
ယဇ်ပုရောဟိတ်	-11.4068
Mobile	-11.4068
အသားတင်	-11.407
▁Walk	-11.4071
▁(1,5	-11.4071
သိမ်းပိုက်	-11.4075
▁pics	-11.4077
▁အဆုံးစွန်	-11.4078
လီဗာ	-11.4083
ဇာတ်စင်	-11.4084
▁Classic	-11.4088
၇၆	-11.4091
လက်ျာဘက်	-11.4102
နောက်တဖန်	-11.4109
▁term	-11.4116
ဝတ္တရားကုမ္ပဏီ	-11.4124
▁ငြိမ်းချမ်း	-11.4132
အထောက်အကူ	-11.4135
လီမိတက်တာဝန်	-11.4137
▁ကျန်ကြွင်းသော	-11.4139
အစုအဝေး	-11.4141
ပေါ့လေ။	-11.4144
aving	-11.4145
နစ်မြုပ်	-11.4147
▁Shijiazhuang	-11.4147
▁ဇြန္လ	-11.4147
▁ပိုငျးပိုငျး	-11.4147
လေမှုတ်စက်	-11.4147
▁MYHH	-11.4147
▁အရှက်ကွဲ	-11.4147
WebSite	-11.4147
▁Foot	-11.4147
▁Other	-11.4148
ရှေ့ပြေးပုံစံ	-11.4148
▁ရှင့်	-11.4148
▁provide	-11.4149
ထမ်းဘိုး	-11.4149
နိုငျသညျ	-11.415
▁Backup	-11.4151
ုနှစ်တွင်အိမ်လော	-11.4151
အသုံးမပြု	-11.4161
▁Hydro	-11.4162
ဖုန်းခေါ်	-11.4168
အထင်ကရ	-11.4175
▁ဆင်းရဲသောသူ	-11.4221
graph	-11.4224
ငြီးငွေ့	-11.4232
ဘေးထွက်ဆိုးကျိုး	-11.4232
▁ဘိသိက်	-11.4232
မိုးလေဝသ	-11.4232
▁Psiphon	-11.4232
▁faucet	-11.4232
▁အကုန်အစင်	-11.4232
▁အိမ္ျခံေျမ	-11.4232
session	-11.4232
ဒူဘိုင်း	-11.4232
▁Switch	-11.4232
Kylie	-11.4232
▁RideA	-11.4232
▁ထိုမျှမက	-11.4232
သေးသေးလေး	-11.4232
}}	-11.4233
▁အက္ခရာစဉ်	-11.4233
▁socket	-11.4234
▁သံတမန်	-11.4236
ေ၀း	-11.4237
▁ကြောကျ	-11.4239
▁Stick	-11.4246
၇၉	-11.4247
▁ဖေါ်ပြသည်	-11.4253
ဘီလီယံ	-11.426
ချီးမြှောက်	-11.4261
မဟုတ်လော	-11.4281
ဖြည့်ဆည်း	-11.4318
ဂိုဏ်း	-11.4318
ညွှတ်	-11.4318
ဘတ်စကက်ဘော	-11.4318
▁Lockheed	-11.4318
▁Reserved	-11.4318
▁platform	-11.4318
▁RNA	-11.4319
တိတိ	-11.4319
ေဖာ္ျပ	-11.4319
▁David	-11.432
▁ဖြစနစ်	-11.432
ဒဿန	-11.4321
▁နံ့သာပေါင်းကို	-11.4326
တုန်ခါ	-11.4344
သတင်းလွှာ	-11.4355
ကြောက်ရွံ့	-11.4357
တွစ်တာ	-11.4357
ပါနဲ့။	-11.4358
မဟုတ္ဘူး	-11.4372
▁ယေရု	-11.4375
ဘဏ္	-11.4396
ဘ်ဆိုဒ်	-11.4403
ကက်ဘိနက်	-11.4405
ဖှံ့ဖွိုးတိုး	-11.4405
ကြှေးမှေး	-11.4405
ခြင့္	-11.4405
စိုထိုင်းဆ	-11.4405
ဆည်းကပ်	-11.4405
နို့တိုက်ကျွေး	-11.4405
ဝင်းဒိုး	-11.4405
သတ္မွတ္	-11.4405
▁Pulsar	-11.4405
▁Sextets	-11.4405
▁မုတ်ဆိုးမ	-11.4405
Friendly	-11.4405
▁Central	-11.4405
အလေ့အကျင့်	-11.4405
▁First	-11.4405
▁Rotate	-11.4405
ဆယ့်	-11.4405
ဖို့ချင်ပါနဲ့	-11.4405
▁အိုဘုရားသခင်၊	-11.4405
တင့်တယ်	-11.4406
တရားစွဲဆို	-11.4406
▁Browse	-11.4406
▁Horizontal	-11.4406
▁ထိတှေ့	-11.4406
▁single	-11.4406
▁ေနာက္ဆံုး	-11.4407
အချိုးအစား	-11.4408
ကောင်တာများ	-11.441
▁ပိုများသော	-11.4411
ကွယ်လွန်	-11.4411
ကိရိယာအစုံ	-11.4412
ဖို႕	-11.4413
ဖိနှိပ်	-11.4413
ထိုက်တန်	-11.4414
▁နှင့်ဂစ်တာ	-11.4415
အထောက်အကူပြု	-11.4417
ဟူ၍၎င်း	-11.4439
yanmar	-11.4448
ဆက်ဖတ်ရန်	-11.4454
တုံ့ပြန်ချက်	-11.4461
="4.2	-11.4462
ြတ္	-11.4465
osis	-11.4466
ရှပ်အင်္ကျီ	-11.4469
အရသိရသည်	-11.447
ေဖာ္	-11.4492
ၿမိဳ႕	-11.4493
ဆိုင်းငံ့	-11.4493
တစ်ဝိုက်	-11.4493
အတှေ့အကွုံ	-11.4493
▁Automatic	-11.4493
▁Language	-11.4493
▁Mandalay	-11.4493
▁laptop	-11.4493
▁protected	-11.4493
▁ပါကစ္စတန်	-11.4493
▁ဝူဟန်	-11.4493
ပထဝီ	-11.4493
▁123456	-11.4493
▁Winners	-11.4493
နှမြော	-11.4493
release	-11.4493
အနတ္တ	-11.4494
▁၂၀၀၄	-11.4494
အမျှင်	-11.4495
▁offset	-11.4495
▁neuro	-11.4495
တွန်းလှန်	-11.4495
ဖုံးကွယ်	-11.4496
တစ်ချိန်က	-11.4498
ဍ	-11.4514
လိမ္	-11.4523
Pieces	-11.4542
အခွန်နှုန်း	-11.4573
မြေဆီလွှာ	-11.4582
အာဂျင်တီးနား	-11.4582
▁instagram	-11.4582
▁ရော်ဂျာ	-11.4582
▁folder	-11.4582
အပေါင်းအဘော်	-11.4582
▁programming	-11.4582
▁(2014)	-11.4582
ကိတ်မုန့်	-11.4582
▁၂၀၀၅	-11.4582
ထင်မြင်ချက်	-11.4583
ဘောဇဉ်	-11.459
▁Atom	-11.4591
="5.9	-11.4593
▁နော်ဝေ	-11.4594
မိုးမိုး	-11.4597
ဝေမျှမယ်	-11.4605
▁စကားဝှက်	-11.4605
နွစ္	-11.4605
="5.1	-11.4626
ကိုရှာပါ	-11.4633
LLC	-11.4671
opendevelopmentm	-11.4671
mission	-11.4671
message	-11.4671
နားလည်သဘောပေါက်	-11.4671
နေဗုခဒ်နေဇာ	-11.4671
ဖျော်ရည်	-11.4671
▁Compressor	-11.4671
▁Corporation	-11.4671
automatic	-11.4671
▁Adobe	-11.4671
▁Script	-11.4671
▁profile	-11.4671
▁said	-11.4671
▁liveries	-11.4671
▁အမဲသား	-11.4671
▁binary	-11.4671
▁proxy	-11.4671
ချောကလက်	-11.4671
အေျခအေန	-11.4671
ရလာဒ်	-11.4671
▁၂၀၀၆	-11.4671
ဂါးဒီးယန်းအဘို့အ	-11.4671
▁တရားမဝင်	-11.4672
▁DMF	-11.4672
ဆုကြေးငွေကုဒ်	-11.4674
တစ္ေယာက္	-11.4675
ခန့်မှန်းခြေ	-11.4675
ရော်ဘာမြှေး	-11.4675
ထောင့်ကွက်	-11.4676
စေ့စပ်	-11.4678
6.00	-11.4687
အလိုသို့	-11.4687
ဒါ့အပြင်	-11.4689
Level	-11.4694
▁သတင်းထုတ်ပြန်ခ	-11.4716
သောစိတ်ရှိ	-11.4726
▁ဗာလမ်	-11.4728
MDC	-11.4758
သည့်အရာတစ်ခု	-11.476
စာဖြင့်ရေးသားခဲ့	-11.4761
ဖြန့်ဖြူး	-11.4761
မိန်းမောတွေဝေ	-11.4761
▁iTunes	-11.4761
▁converter	-11.4761
▁တချိန်လုံး	-11.4761
ျမတ္	-11.4761
▁GMCC	-11.4761
တင့်တယ်	-11.4761
▁radial	-11.4761
▁လံုးခ်င္း	-11.4761
ဖုန်းခေါ်ဆိုမှု	-11.4762
ဋ္ဌာန	-11.4763
▁James	-11.4763
▁ကျက်စား	-11.4763
လိမ္မာ	-11.4763
▁လုကာ	-11.4765
▁အနာရောဂါ	-11.4766
▁ကီလို	-11.4767
လူမှုမီဒီယာ	-11.4767
▁ပြင်းစွာသော	-11.4768
▁Prince	-11.4769
ဂုဏ်ထူး	-11.4771
Benz	-11.4772
သွင်ပြင်	-11.4779
စမတ်ကဒ်	-11.478
နန်းစံ	-11.479
ဝေးလံ	-11.479
၆၉	-11.4799
ဘုရားသခငျ	-11.4851
▁ဖါရောဘုရင်	-11.4852
▁မေထုန်	-11.4852
ညွှန်ကြားရေးမှူး	-11.4852
မကျြတောငျမှေး	-11.4852
▁MetaTrader	-11.4852
▁cryptocurrency	-11.4852
▁ယောဟနျသ	-11.4852
▁Creative	-11.4852
▁Angry	-11.4852
▁SEHO	-11.4852
▁Smith	-11.4852
အဆွေခင်ပွန်း	-11.4852
အခြေချ	-11.4853
ဖြန့်ဝေ	-11.4854
▁Components	-11.4855
နေရာလေးကို	-11.4855
▁Elite	-11.4856
→	-11.4856
တပ်မတော်	-11.4858
ဖယ်ထုတ်	-11.4859
▁စျေးဝယ်ခြင်း	-11.4862
▁loop	-11.4863
▁အဓမ္မအမှု	-11.4869
ကၽြ	-11.487
ကိုဖြတ်ပြီး	-11.487
ဆာလံ	-11.4878
ကလစ်နှိပ်ပါ	-11.4907
ကြံ့ခိုင်	-11.4911
struction	-11.4926
ကျေးဇူးတင်စကား	-11.4935
archive	-11.4944
နိဂုံး	-11.4944
ပက်ကေ့	-11.4944
သင်တန်းအမှတ်စဥ်	-11.4944
▁Scratch	-11.4944
နယ်သာလန်	-11.4944
အမြီး	-11.4944
▁Coinfalls	-11.4944
▁Deluxe	-11.4944
▁Hybrid	-11.4944
▁Information	-11.4944
▁Quintet	-11.4944
▁XXXL	-11.4944
လုံလုံခြုံခြုံ	-11.4944
ျက်ကြေညာချက်များ	-11.4944
▁ဝန်းရံ	-11.4944
▁HSK	-11.4944
▁tips	-11.4944
မျှော်မှန်း	-11.4944
▁Peter	-11.4945
ကိုသက်ဝင်	-11.4946
ဘတ်ဂျက်	-11.4949
အခမဲ့ဆော့ဗ်ဝဲ	-11.495
▁ERW	-11.4953
စကားသံကို	-11.4962
hours	-11.4975
မှာတည်ရှိပါတယ်	-11.4989
တပည့်တော်တို့သည်	-11.4993
ပိုမိုလွယ်ကူ	-11.5005
▁generate	-11.5016
သဏ္ဍာန်	-11.5031
လို့မရဘူး	-11.5033
တယ်တဲ့။	-11.5034
youtube	-11.5036
စံကိုက်ညှိ	-11.5036
အခြို့	-11.5036
အဝတ်အစားအစမ်းဝတ်	-11.5036
ဥက္ကဌ	-11.5036
ငိုကြွေးမြည်တမ်း	-11.5036
▁Changeset	-11.5036
▁Configuring	-11.5036
▁Magazine	-11.5036
▁သုတ်သင်ပယ်ရှင်း	-11.5036
▁အမေ့ခံအတိတ်	-11.5036
▁အသေသတ်ခြင်းကို	-11.5036
▁အာဟပ်	-11.5036
▁Kraft	-11.5036
အပေးအယူ	-11.5036
လဲမှို့	-11.5036
ဟက်ကာ	-11.5036
ပဋိသန္ဓေ	-11.5036
▁13.56	-11.5036
▁LEED	-11.5037
▁ချာနယ်	-11.5037
▁(2013)	-11.5037
▁MOQ	-11.5037
▁ကျင်လည်	-11.5037
▁Angle	-11.5037
အခုအချိန်မှာ	-11.5043
▁laser	-11.5044
ောဘကိုဖျေါပွခကျြ	-11.5048
gress	-11.5051
▁want	-11.5053
0,00	-11.5054
custom	-11.5063
၂၀၁၅	-11.5065
1-3	-11.5099
မွှေ	-11.5118
ဆိုဗီယက်	-11.513
နှောင့်နှေး	-11.513
သူတော်ကောင်းတရား	-11.513
အစက်အပြောက်	-11.513
▁Analytics	-11.513
▁မော်ဒကဲ	-11.513
ကျမ်းပြုဆရာ	-11.513
စပ်လျဉ်း	-11.513
ညဥ့်	-11.513
ချည်မျှင်	-11.513
ခေတ္တ	-11.513
အထွာ	-11.513
▁လေယာဉ်မှူးအခန်း	-11.513
▁ITEM	-11.513
mAh	-11.513
ျပည္နယ္	-11.513
အထွက်နှုန်း	-11.513
မြှောင်	-11.5131
အမှုထမ်း	-11.5132
မနေပါနဲ့	-11.5132
ကျယ်ဝန်း	-11.5132
▁George	-11.5133
ကောငျး	-11.5135
▁dropper	-11.5135
တိုးပွါး	-11.5135
▁Linear	-11.5137
▁အလွိုင်းသံမဏိ	-11.5139
လိမ့်မည်နည်း။	-11.5164
သြဂုတ်လ	-11.5169
မိတ္တူးကူးစက်	-11.5196
တွေ့ကြုံခံစား	-11.5197
▁ကရေးသားခဲ့	-11.5206
အကြားအမြင်	-11.5219
medium	-11.5223
သန္ဓေ	-11.5224
ဖန်လုံအိမ်	-11.5224
သုသေသန	-11.5224
▁Adjustments	-11.5224
▁Double	-11.5224
▁Hippie	-11.5224
▁Skrill	-11.5224
▁Sundsvall	-11.5224
▁Toyota	-11.5224
▁Virgin	-11.5224
အကောက်ခွန်	-11.5224
▁Sterling	-11.5224
တြဲ	-11.5224
▁kbd	-11.5224
ချီးမြှင့်	-11.5224
▁ယေရှုက၊	-11.5225
▁burner	-11.5228
အမူအရာ	-11.5228
▁Under	-11.5228
▁ပျောက်ဆုံးသွား	-11.5229
အာနိသင်	-11.5246
မြင့်မားသောဖိအား	-11.5258
▁မောဘပြည်	-11.5261
သမုဒ္ဒရာ	-11.5276
အဝေးသင်	-11.5277
မြေကြီးတပြင်	-11.5296
မွငျးစီးစ	-11.5319
Sitemap	-11.5319
symbols	-11.5319
ကမ်းရိုးတန်း	-11.5319
ဆွယ်တာအင်္ကျီ	-11.5319
အဲယားကွန်း	-11.5319
▁JavaScript	-11.5319
▁LinkedIn	-11.5319
▁Roblox	-11.5319
▁ကုလသမဂ္ဂ	-11.5319
▁ပူပြင်းတဲ့	-11.5319
▁မီလီယံ	-11.5319
ကန်ထရိုက်	-11.5319
ဖက်ဒရယ်	-11.5319
အမိုင်နို	-11.5319
အရောင်းအဝယ်	-11.5319
▁AISI	-11.5319
▁မှူးမတ်	-11.532
ကွေ့	-11.5321
ဆိုးညစ်	-11.5322
▁Style	-11.5326
ပရိုမို	-11.5335
ဇွန်	-11.534
နက်နဲသောအရာ	-11.5354
▁ငါမှာထား	-11.5362
အာလူး	-11.5372
2,000	-11.5387
Petr	-11.5393
▁စပျစ်	-11.5393
▁အထံတော်	-11.5408
Oxygen	-11.5415
ဆံပင်ကောက်ကောက်	-11.5415
ပစိဖိတ်	-11.5415
သမ်မာကမျြး	-11.5415
▁Koowheel	-11.5415
▁Nandrolone	-11.5415
frequency	-11.5415
ကွန်ဂရက်	-11.5415
အခ်က္အလက္	-11.5415
တခါတရံ	-11.5415
သင့်ရဲ့ဇယားအပေါ်	-11.5415
▁ယူကရိန်း	-11.5415
▁Knight	-11.5415
အမဲရောင်	-11.5415
Thailand	-11.5415
▁အစ္စရေး	-11.5416
▁Htun	-11.5416
ေၾကာင့္	-11.5416
▁တောင်အာဖရိက	-11.5417
များသောအားဖြင့်	-11.5419
ျပား	-11.5419
အပြီးသတ်	-11.542
▁linear	-11.542
အကြံဉာဏ်	-11.542
▁Viola	-11.5434
▁Psa	-11.5448
ိုးတက်ကောင်းမွန်	-11.5462
▁plan	-11.5499
▁????????	-11.5501
စိုးရိမ်ပူပန်	-11.5512
ေဆြးေႏြး	-11.5512
အကျပ်အတည်း	-11.5512
ပရင့်ထုတ်ရန်	-11.5512
ပံုရိပ္	-11.5512
ၸ	-11.5512
▁granules	-11.5512
▁iSpyoo	-11.5512
ထင်ဟပ်	-11.5513
ဘက်စုံသုံး	-11.5513
▁Monitor	-11.5513
▁Scott	-11.5513
▁Guardian	-11.5513
fashion	-11.5513
▁Menu	-11.5513
လက်လှမ်းထိုသို့	-11.5513
▁float	-11.5513
▁အကုန်လုံး	-11.5513
ဆိုင်ကလုန်းခြား	-11.5516
▁Click	-11.5517
▁cello	-11.5519
အက်ကွဲ	-11.5526
တီရှပ်	-11.5539
ေစာင္	-11.5539
(18)	-11.5545
နိုင်မှာပါ။	-11.5576
▁ယူအက်စ်	-11.5607
.06.2015	-11.5611
ဂျာကင်အင်္ကျီ	-11.5611
စန္ဒရား	-11.5611
ႏႈတ္	-11.5611
▁Composite	-11.5611
▁Francis	-11.5611
▁Jailbreak	-11.5611
▁Properties	-11.5611
▁SpongeBob	-11.5611
▁filtration	-11.5611
▁quartet	-11.5611
တစ်ပြိုင်နက်	-11.5611
အခိုးအငွေ့	-11.5611
▁Remote	-11.5611
▁မတရားသဖြင့်	-11.5611
▁Finish	-11.5611
▁FXCC	-11.5611
▁Earth	-11.5611
plastic	-11.5611
▁ငါသိ၏။	-11.5611
ဖွစျသညျ	-11.5611
▁86-57	-11.5611
ထွင်းထု	-11.5612
▁price	-11.5622
ဗိုလ်မှူး	-11.5623
အဝေးပြေး	-11.5628
ကိုဖန်တီးရန်	-11.5637
ီးသန့်လုံခြုံရေး	-11.5663
▁ပြိုင်ပွဲလောင်	-11.5684
မ်က္ႏွာ	-11.571
ရှာနေနေတယ်ဆိုရင်	-11.571
ချိုမြိန်	-11.571
ပရိယာယ်	-11.571
သဲသောင်ပြင်	-11.571
အန်ဒရိုဂျင်	-11.571
quality	-11.571
ryptocurrencies	-11.571
ဆုံးအပ်ဒိတ်လုပ်	-11.571
မိုက်ကရိုဆော့ဖ	-11.571
▁Bombardier	-11.571
▁Championship	-11.571
▁Minogue	-11.571
▁Valentine	-11.571
▁Woodwind	-11.571
▁mFortune	-11.571
▁ချွေး	-11.571
▁လော်ရာသောမတ်စ်	-11.571
▁သာဓက	-11.571
▁Pixel	-11.571
▁Hedge	-11.571
▁specification	-11.571
လွှမ်းခြုံ	-11.571
ထိပ်တိုက်တွေ့	-11.571
အဆင်းလှ	-11.571
▁မန်ဆန်	-11.571
▁ရိုးစင်း	-11.5711
▁Film	-11.5711
▁ရပ်ရွာ	-11.5712
▁iphone	-11.5713
▁ပဌနာပြု	-11.5722
ရက္ေန	-11.5763
Ctrl	-11.581
ချည်ငင်	-11.581
▁Keychain	-11.581
▁Ubuntu	-11.581
▁before	-11.581
▁Torrent	-11.581
▁အဘိမလက်	-11.581
အလုပ်လက်မဲ့	-11.581
▁rsquo	-11.581
ေခတ္	-11.581
အလေးအနက်	-11.581
ေပါက္	-11.581
▁မှန်းဆ	-11.5811
▁stack	-11.5813
ဆုတောင်းပဌနာ	-11.5814
▁အဲဂုတ္တုလူတို့	-11.5816
where	-11.5818
social	-11.5819
မြော်လင့်	-11.5825
▁ငွေပေးချေမှုရမည	-11.5889
ကျောပိုးအိတ်	-11.5911
အပ်နဖားကို	-11.5911
▁Acrylic	-11.5911
▁CSGOBET	-11.5911
▁Television	-11.5911
+00:00	-11.5911
ဒေါက်ဂလပ်	-11.5911
စုတ်တံ	-11.5911
▁Epoxy	-11.5911
ပါးတစ်ပုဒ်ရေးရန်	-11.5911
တစ်လောကလုံး	-11.5911
▁Balance	-11.5911
သမိုင္း	-11.5911
၌တည်၏။	-11.5911
▁ဆီးရီးယား	-11.5911
▁တံပိုးမှုတ်	-11.5911
ပြည်မကြီး	-11.5911
များထုတ်ပေးရန်	-11.5911
[8]	-11.5911
လွှမ်း	-11.5911
ordina	-11.5912
ophil	-11.5913
▁Portal	-11.5913
ဆိပ်	-11.5932
▁စပ်ဆိုင်	-11.5937
▁ကိုယ်ဝန်ဆောင်	-11.6002
ဧဝံဂေလိ	-11.6012
လေဝင်လေထွက်	-11.6013
မြောက်မြားစွာ	-11.6013
ခင္ဗ်ား	-11.6013
စေတနာ့ဝန်ထမ်း	-11.6013
ပုရွက်ဆိတ်	-11.6013
▁Resistance	-11.6013
▁Transparent	-11.6013
▁pneumatic	-11.6013
▁ဟေဗြုန်	-11.6013
▁address	-11.6013
▁tagged	-11.6013
အခနျး	-11.6013
▁အမေရိကန်ပေးစာ	-11.6013
တိုးပွားစေ	-11.6013
▁တံပိုး	-11.6013
ဘုရားသခငျသညျ	-11.6013
▁AutoCAD	-11.6014
လူမီနီယံအလွိုင်း	-11.6014
▁hypo	-11.6014
▁mouse	-11.6014
fsx	-11.6016
safe	-11.6025
otrop	-11.6046
•	-11.6053
campaign	-11.6115
စင်းလုံးငှား	-11.6116
channel	-11.6116
စက္မွဳ	-11.6116
တုန့်ပြန်	-11.6116
▁Ducati	-11.6116
▁Equivalent	-11.6116
▁Fantasy	-11.6116
▁Legends	-11.6116
▁[1.9.16_1159]	-11.6116
▁polypropylene	-11.6116
ကွာခြားချက်	-11.6116
▁webcam	-11.6116
factor	-11.6116
▁ဖက္ရွင္	-11.6116
အပြင်အဆင်	-11.6116
ပါစေသောဟု	-11.6116
ခံစားကြည့်ပါ	-11.6116
သိပ္ပံနည်းကျ	-11.6116
▁တမန်တော်တို့	-11.6116
▁charter	-11.6116
▁(2011)	-11.6117
▁Uniform	-11.6117
▁ဂြိုလ်သား	-11.6117
▁ကိုနှိပ်ပါ။	-11.6118
နှစျ	-11.6118
ဖြစ်ကြသည်ကို၎င်း	-11.6123
Charge	-11.6135
စ်တမ်းကောက်ယူမှု	-11.6144
ယုံကြည်စိတ်ချ	-11.617
▁0.05	-11.6178
▁plus	-11.6184
ောင်းကင်ဗိုလ်ခြေ	-11.6196
မွေးဝမ်းကျောင်း	-11.622
နှုတ်ကပတ်တရား	-11.622
ကျိန်းသေ	-11.622
စိမ့်	-11.622
တဝိုက်	-11.622
နေရာထိုင်ခင်း	-11.622
ဝေးလံခေါင်သီ	-11.622
အကယ်ဒမီ	-11.622
အနားကွပ်	-11.622
▁through	-11.622
▁Arbore	-11.622
▁sextet	-11.622
ဂလိုဘယ်	-11.622
▁Cixi	-11.622
ရာဇဝတ်မှု	-11.622
ောင်းသူမဲ့လေယာဉ်	-11.622
▁pips	-11.622
▁smart	-11.622
နှစ်သိမ့်	-11.622
စတော့အိတ်	-11.622
လမိုင်း	-11.622
အကျဆုံး	-11.6221
▁ဖြောင့်မတ်စွာ	-11.6222
▁ပေါင်းဘော်	-11.6222
▁Bowl	-11.6222
clude	-11.6224
မြှုပ်နှံမှုသ	-11.6224
အီးမေးလ်လိပ်စာ	-11.6225
အစာကျွေး	-11.6226
အက်ဖ်	-11.6226
အရပ်ရပ်တို့၌	-11.623
(33)	-11.6239
▁Horizon	-11.6325
ဒီမိုကရက်တစ်	-11.6325
ကွန်ပရက်ဆာ	-11.6325
စေတနာစိတ်	-11.6325
အထွတ်အထိပ်	-11.6325
▁Compressed	-11.6325
▁technique	-11.6325
▁tweet	-11.6325
သီတင်းပတ်	-11.6325
အချက်အချာ	-11.6325
ေထာက္	-11.6325
▁Stepper	-11.6325
ဘယ်လိုနေသလဲ	-11.6325
ချို့တဲ့	-11.6325
▁film	-11.6325
အခွင့်အာဏာ	-11.6326
adult	-11.6326
ကြက်ဥ	-11.6343
ကက်သလစ်	-11.6343
ယ်စားလှယ်လောင်း	-11.6346
သိပ်သည်း	-11.6369
ဒွန်	-11.6407
plugins	-11.6411
စိတ်အားထက်သန်	-11.6431
ချိုးဖဲ့	-11.6431
ပိတျထားသော	-11.6431
ဘုရားသခင့	-11.6431
အဆမတန်ကြီးမား	-11.6431
▁ငတ်မွတ်	-11.6431
▁ဟစ်ကြော်	-11.6431
▁Association	-11.6432
▁Extensions	-11.6432
▁Message	-11.6432
▁rotary	-11.6432
မော်နီတာ	-11.6432
▁(2010)	-11.6432
▁{{	-11.6432
▁Crimp	-11.6432
▁လူမည်း	-11.6432
▁BLC	-11.6432
▁hyper	-11.6433
girl	-11.6434
▁Common	-11.6434
▁Apg	-11.6434
ပြောကြားခဲ့သည်	-11.6464
ဖိုက်ဘာမှန်	-11.6539
▁acetate	-11.6539
▁Dassault	-11.6539
▁Faceled	-11.6539
▁Graphics	-11.6539
▁OnePlus	-11.6539
▁နယူးကာဆယ်	-11.6539
▁Beige	-11.6539
Invest	-11.6539
▁Place	-11.6539
▁မြင့်သောအရပ်	-11.6539
▁ရန်ဘက်ပြု	-11.6539
အဝလွန်	-11.654
ယိုယွင်း	-11.654
အဆိုးဆုံး	-11.6541
▁User	-11.6544
▁သိမ်းသွားခြင်း	-11.6546
▁Archive	-11.658
ဖန်တီးရန်အချိန်	-11.6601
Russ	-11.6602
မြို့ပတ်ရထား	-11.663
▁အမိန့်တော်ရှိ	-11.664
▁Journal	-11.6647
stream	-11.6647
ထရီလီယံ	-11.6648
သင်္ဘောသဖန်း	-11.6648
Sublimated	-11.6648
စေသတည်းဟု	-11.6648
မယ့္	-11.6648
ားခံအကြံပေးအဖွဲ့	-11.6648
▁navigation	-11.6648
▁ကျော့ကွင်း	-11.6648
▁ရာခေလ	-11.6648
အဖြဲ႕	-11.6648
▁Ladies	-11.6648
ကြေကွဲ	-11.6648
ၾကည့္ရႈ႕	-11.6648
Advance	-11.6648
NZD	-11.6648
▁bonus	-11.6649
▁Maps	-11.665
▁SEO	-11.6656
,00€	-11.6668
တပြင်လုံးကို	-11.6674
▁Bern	-11.6693
လျှပ်စစ်ဓာတ်အား	-11.6753
အေနနဲ႔	-11.6757
လူ့စိစစ်အတည်ပြု	-11.6758
ခုလို့ဆိုရမှာပါ	-11.6758
လိမျ့မညျ	-11.6758
ဂျာဗား	-11.6758
ဒဗလျူ	-11.6758
လေရာရာ၌	-11.6758
▁Angeles	-11.6758
▁Certificate	-11.6758
▁Enanthate	-11.6758
▁FaceTime	-11.6758
▁လေဗနုန်	-11.6758
▁ကြန္ဒို	-11.6758
လူသတ်သမား	-11.6758
▁နှငျ့ဂစ်တာ	-11.6758
▁Album	-11.6758
အချိန်မရွေး	-11.6758
▁ရုဗင်	-11.6758
▁previous	-11.6758
▁Tourism	-11.6758
ပြီးတဲ့နောက်	-11.6766
ဘေ့စ	-11.6766
▁Snap	-11.6768
နည်းပညာပံ့ပိုး	-11.6769
testosterone	-11.6772
Think	-11.6776
မျိုးသမီးများနေ့	-11.6838
Hydr	-11.6849
▁Myanma	-11.6862
အနကျအဓိပ်ပါယျ	-11.6869
အရွယ်ရောက်ပြီးသူ	-11.6869
▁ဧရာမြန်မာအာမခံ	-11.6869
Chloro	-11.6869
sequence	-11.6869
ဂျီပီအက်စ်	-11.6869
ပျော့ပျောင်း	-11.6869
မျြး	-11.6869
ရေတံခွန်	-11.6869
သယံဇာတ	-11.6869
▁Maintenance	-11.6869
▁Odisha	-11.6869
▁Python	-11.6869
▁Studio	-11.6869
▁Tailoress	-11.6869
▁သို့သျောလညျး	-11.6869
▁အထူးပြောစရာမရှိ	-11.6869
အစီအမံ	-11.6869
▁မြောက်ကိုရီးယား	-11.6869
▁ဧလာဇာ	-11.6869
studio	-11.6869
▁မော်စကို	-11.6869
မယုံနိုင်စရာ	-11.6869
▁console	-11.6869
▁ဖြိုဖျက်	-11.6869
နှင့်စပ်ဆိုင်သော	-11.6869
းဆေးသည့်အရာတစ်ခု	-11.6869
font	-11.6869
▁ကြွလာတော်မူ	-11.6907
▁Ferr	-11.6961
ငှေ	-11.698
ó	-11.6981
ဆူဇူကီး	-11.6981
ညှိုးနွမ်း	-11.6981
ယစ်မူး	-11.6981
အလေ့အကျင့်	-11.6981
▁Publish	-11.6981
ကုမၸဏီ	-11.6981
အင်ဇိုင်း	-11.6981
▁Gulfstream	-11.6981
▁available	-11.6981
▁foldable	-11.6981
▁would	-11.6981
▁မိဒျန်	-11.6981
မက်ထရစ်	-11.6981
▁ဟယ်လို	-11.6981
▁Foshan	-11.6981
▁Support	-11.6981
မှတစ်ဆင့်	-11.6981
ဟန်ချက်ညီ	-11.6981
▁Nonets	-11.6981
▁MERS	-11.6981
ဘက်လိုက်မှု	-11.6982
▁Hawk	-11.6984
▁audio	-11.6988
နှုန်းထားများ	-11.7012
▁ယေရုရှလင်	-11.7067
ဘယ်သူမျှမက	-11.7087
စွယ်စုံ	-11.7095
အမ်စတာဒမ်	-11.7095
ဆော့ဖျဝဲ	-11.7095
▁Limited	-11.7095
▁Organosilicon	-11.7095
▁Snapchat	-11.7095
▁Stadium	-11.7095
ကြောင်းဆီလျော်	-11.7095
န့်အသတ်	-11.7095
ပညတ္တိကျမ်း	-11.7095
▁ကြိယာ	-11.7095
ယိုစီးမှု	-11.7095
▁GIMP	-11.7095
▁ရည်မှတ်၍	-11.7095
▁Course	-11.7095
▁operated	-11.7095
တရားစရပ်	-11.7095
▁Gatos	-11.7095
▁require	-11.7095
member	-11.7095
အမြောက်အများ	-11.7095
▁Dream	-11.7095
လက်တွေ့ကျကျ	-11.7098
အလိုမရှိ	-11.7107
▁parameter	-11.7152
power	-11.7158
လောကီနိုင်ငံ	-11.7166
▁အပြည်ပြည်	-11.7194
ညဉ့်	-11.721
လှည့်ဖြား	-11.721
peptide	-11.721
quinazolin	-11.721
ကမၻာ	-11.721
ပဉ္စမ	-11.721
▁Flodeal	-11.721
▁Giveaway	-11.721
▁Hydrochloride	-11.721
▁OpenStreetMap	-11.721
▁Security	-11.721
▁memory	-11.721
▁pattern	-11.721
▁စီပီယူ	-11.721
ကူဝိတ်	-11.721
စီးပြားေရး	-11.721
တံဆိပ်တပ်ရန်	-11.721
▁Yinzhou	-11.721
စော်ဘွား	-11.721
ပါရဂူ	-11.721
▁Brown	-11.721
ဝက်အူပေါ်ကို	-11.721
အသုံးအဆောင်	-11.721
သည်နည်းတူ၊	-11.721
▁tarot	-11.721
တော်မူစေသတည်း။	-11.7211
▁မိမိလူတို့	-11.7222
▁Pulp	-11.7223
Android	-11.7282
ဧပြီလ	-11.7282
▁လမျးဖွောငျ့	-11.7326
ဖောင်းပွ	-11.7326
သမ္မာကျမ်း	-11.7326
သွေ့ခြောက်	-11.7326
အန်နီမေးရှင်း	-11.7326
အရှိန်အဟုန်	-11.7326
အလေ့အထ	-11.7326
▁တိုကျို	-11.7326
ခေတ်ရေစီးကြောင်း	-11.7326
▁Cambrian	-11.7326
▁Chinese	-11.7326
▁Ethereum	-11.7326
▁GVMG	-11.7326
▁Morehacks	-11.7326
▁Ravenox	-11.7326
▁SarcoidosisUK	-11.7326
▁clipart	-11.7326
▁nbsp	-11.7326
▁Special	-11.7326
wysluxury	-11.7326
▁Stream	-11.7326
▁Pilon	-11.7326
▁things	-11.7326
▁မရဏ	-11.7327
ွှန်	-11.7358
burn	-11.74
နှုတ်ကပတ်တော်	-11.7413
±	-11.7413
ဖေဖော်ဝါရီ	-11.7413
ပေးချေမှု	-11.7436
ل	-11.7444
ကမ်းလွန်ရေတိမ်	-11.7444
ကြန္ပ်ဴတာ	-11.7444
document	-11.7444
ဒီဂျစ်တယ်	-11.7444
ဝိဇ္ဇာ	-11.7444
ရှောင်ကြဉ်	-11.7444
▁Meyelashstore	-11.7444
▁Command	-11.7444
ိုက်ရိုက်ထုတ်လွှ	-11.7444
[9]	-11.7444
▁မြွက်ဆို၏။	-11.7444
▁Word	-11.7444
▁torque	-11.7444
▁AYA	-11.7445
ကြည့်ရအောင်။	-11.7445
နဲ့ပတ်သက်တဲ့	-11.7449
လုပ်ရပ်များ	-11.7459
generateur	-11.747
Canada	-11.7476
Sym	-11.7511
—	-11.7547
ဒီဗီဒီ	-11.7551
့်စည်းမျဉ်း	-11.7562
စီအိုင်အေ	-11.7563
မွေးကင်းစကလေး	-11.7563
▁စကြ၀ဠာ	-11.7563
ဘီဗဲလ်	-11.7563
လိမ်ဖဲ့ခြင်း	-11.7563
အခင်းအကျင်း	-11.7563
ဥမင်လိုဏ်ခေါင်း	-11.7563
▁Webtalk	-11.7563
▁ကုလားအုပ်	-11.7563
▁စူပါအဒ်မင်	-11.7563
▁နံရံကပျကျွွောငာ	-11.7563
▁Method	-11.7563
▁Scanner	-11.7563
▁information	-11.7563
▁Capital	-11.7563
▁Hidden	-11.7563
▁ရှက်ကြောက်ခြင်း	-11.7563
▁Socks	-11.7563
▁ပေးသနားတော်မူ	-11.7565
သည်ရှိသော်၊	-11.7565
တော်မူချက်တို့	-11.7605
▁သင်ရှာနေ	-11.7608
ကျိပ်	-11.7651
▁scr	-11.7665
ဆန့	-11.768
မဂ္ဂနီစီယမ်	-11.7682
သင်သည်လက်ျာအရပ်	-11.7683
ပိုမိုသိရှိလိုပါ	-11.7683
=5.0.3	-11.7683
ကွတ်ကီး	-11.7683
စပျစ်နွယ်ပင်	-11.7683
ေမးခြန္း	-11.7683
▁Baijiu	-11.7683
▁Subscribe	-11.7683
▁material	-11.7683
▁တကျွန်းတနိုင်ငံ	-11.7683
▁ပိလတ်မင်း	-11.7683
▁ရောင်စဉ်တန်း	-11.7683
ဇာဒုတ်	-11.7683
လက်ဆောင်ပေးမယ်	-11.7683
▁Creating	-11.7683
18000-6	-11.7683
နညျး	-11.7683
▁Nexus	-11.7683
▁တိုင်တည်၍	-11.7683
စြဲ	-11.7683
ထရပ်ကား	-11.7683
▁ဥပဒေရေးရာအနက်	-11.7683
ကြောက်လန့်	-11.7683
ညႊန္	-11.7683
▁ထို့ပြင်	-11.7684
▁ကိုယ်ခံအား	-11.7684
ဘဲဥပုံ	-11.7684
ခံလိုက်ရ	-11.7689
▁quick	-11.7689
တောင့်တ	-11.7706
Protect	-11.7709
Drive	-11.7738
ၚ	-11.7805
▁ပွင့်လင်းမြင်သာ	-11.7805
ထရန်စဖော်မာ	-11.7805
ပျေါလှငျ	-11.7805
မာရ်နတ်	-11.7805
အလွန်အကျွံ	-11.7805
▁အေမရိကန္	-11.7805
ကြည်းတပ်	-11.7805
ဖန္တီး	-11.7805
အက်ဒါလို့ခေါ်တဲ့	-11.7805
အကွေ့အကောက်များ	-11.7805
▁Cessna	-11.7805
▁Optical	-11.7805
▁Wallpaper	-11.7805
▁separator	-11.7805
dynamic	-11.7805
▁eBook	-11.7805
စက်မှုဇုံ	-11.7805
နှစ်သစ်ကူး	-11.7805
▁again	-11.7805
▁Pallet	-11.7805
▁ကောင်မလေး	-11.7805
လိုအပ္	-11.7805
ရပ်စဲ	-11.7806
အငယ်ဆုံး	-11.7807
ရှို့	-11.7816
ဘိဥာဏ်စာဖတ်ခြင်း	-11.7859
indicators	-11.7885
အရောင်အသွေးစုံ	-11.7893
ဂရုတစိုက်	-11.7929
ဉီး	-11.7929
▁ဖိလိပ္ပု	-11.7929
TELENOR	-11.7929
ر	-11.7929
ကျဉ်းမြောင်း	-11.7929
ဒုတိယကမ္ဘာစစ်	-11.7929
ယူနီဖောင်း	-11.7929
▁HealthWORKS	-11.7929
▁volume	-11.7929
▁လေယာဉ်ပျက်ကျ	-11.7929
League	-11.7929
▁Settings	-11.7929
▁pallet	-11.7929
▁Paypal	-11.7929
▁Sniper	-11.7929
ခြေရာကောက်	-11.7929
▁Craft	-11.7929
▁Stripe	-11.7929
▁Labels	-11.7929
ပဲ့ပြင်	-11.7929
▁အရည်ပျော်မှတ်	-11.7929
cfg	-11.7929
Easy	-11.7929
▁Circ	-11.7931
သွားရာလမ်း	-11.7935
Black	-11.7958
ည်းမျဉ်းစည်းကမ်း	-11.8033
ပုံအခြေခံဥပဒေ	-11.8052
digital	-11.8053
ၥ	-11.8054
ရောင်ပြန်ဟပ်	-11.8054
escriptionSample	-11.8054
ပျှမ်းမျှ	-11.8054
ဘယ်နေရာမှာမဆို	-11.8054
လှိုင်းတံပိုး	-11.8054
▁Enterprise	-11.8054
▁Groove	-11.8054
▁Manufacturing	-11.8054
▁Spotify	-11.8054
▁ဝါရှင်တန်	-11.8054
ချစ်ခင်ရပါသော	-11.8054
စမ်းရေတွင်း	-11.8054
နိုက်ထရိုဂျင်	-11.8054
အနုတ်လက္ခဏာ	-11.8054
▁တယောက်ကိုတယောက်	-11.8054
▁Rapid	-11.8054
အဖိုးတန်	-11.8054
▁standby	-11.8054
ကျိုးပဲ့	-11.8054
မဟုတ်ထိုထက်ပို	-11.8076
ပေတရု	-11.8099
ယ်ပိုင်အုပ်ချုပ်	-11.811
ဆော့ဗ်ဝဲ	-11.8171
ပရဒိသု	-11.818
အဂၤလိပ္	-11.818
ကန်တော့ချွန်	-11.818
နာမကိုအမှီ	-11.818
ဟိုက်ဒရိုဂျင်	-11.818
▁Cleaner	-11.818
▁Dariussssss	-11.818
▁Lenovo	-11.818
▁ROHS	-11.818
▁Training	-11.818
▁WEICHENG	-11.818
▁category	-11.818
အနန္တတန်ခိုးရှင်	-11.818
▁Xiamen	-11.818
▁ဖါရောမင်း	-11.818
Deutsch	-11.818
ပျင်းရိ	-11.818
▁Shupe	-11.818
▁Factor	-11.818
▁Women	-11.818
ပြန့်ပွား	-11.818
Built	-11.818
▁Htay	-11.818
▁ပျိုးထောင်	-11.8181
တုန္းက	-11.8181
wheel	-11.8181
[10]	-11.8181
တစ်နေရာရာ	-11.8182
ပြဇာတ်ရုံ	-11.824
ခါသုံးဆေးထိုးအပ်	-11.8247
ဩဝာဒစာ	-11.8308
အာရှုရိရှင်ဘုရင်	-11.8308
ဆုလာဘ်	-11.8308
အခွအေနေ	-11.8308
ၾကိဳး	-11.8308
▁Destiny	-11.8308
▁Emirates	-11.8308
▁Ericsson	-11.8308
▁Florence	-11.8308
▁automated	-11.8308
▁Church	-11.8308
▁အောက်ဖော်ပြပါ	-11.8308
▁Cruise	-11.8308
တဖက်သတ်	-11.8308
မေးလေ့ရှိသော	-11.8308
▁Dragon	-11.8308
▁နောဧ	-11.8309
အငြိမ်းစား	-11.8309
▁Daniel	-11.8309
အကျဉ်းသား	-11.8309
အမဲလိုက်	-11.8318
▁04:0	-11.8414
▁စစ်တမ်းကောက်ယူ	-11.8436
ဖောင်းကြွ	-11.8438
အလုံအလောက်	-11.8438
▁ကျနော့်	-11.8438
တိုးတက်ကြီးပွား	-11.8438
သြစတြီးယား	-11.8438
▁Capacitor	-11.8438
▁animations	-11.8438
▁contactor	-11.8438
▁different	-11.8438
▁extrusion	-11.8438
▁jumma	-11.8438
▁ရှံဆုန်	-11.8438
▁ဝိရောဓိ	-11.8438
▁Alaska	-11.8438
▁bulk	-11.8438
▁Proxy	-11.8438
က်ိဳး	-11.8439
▁PMID	-11.8439
▁အဲဒါကြောင့်မို့	-11.8439
အားသုံးသပ်ခြင်း	-11.8439
▁ထိုအချိန်မှစ	-11.8444
ဏ္ဏ	-11.8484
ယေရုရှလင်မြို့	-11.8533
နံ့သာပေါင်း	-11.8558
မြှင့်	-11.8562
magnetic	-11.857
ဘွတ်ကင်	-11.857
▁ထောမနာ	-11.857
ကောက်ပဲသီးနှံ	-11.857
▁ရုပ်တုဆင်းတု	-11.857
ب	-11.857
ဂဏန်းတွက်စက်	-11.857
ပတေရုသ	-11.857
သက်ကြီးရွယ်အို	-11.857
အလက်ဇန်းဒါး	-11.857
●	-12.0672
ဦ	-12.1813
၎	-12.2789
ย	-12.2995
ي	-12.4316
	-12.6153
ع	-12.6998
ท	-12.6998
ၻ	-13.024
ไ	-13.2632
ة	-13.3776
←	-15.1432
↑	-15.1433
