<unk>	0
<s>	0
</s>	0
<0x00>	0
<0x01>	0
<0x02>	0
<0x03>	0
<0x04>	0
<0x05>	0
<0x06>	0
<0x07>	0
<0x08>	0
<0x09>	0
<0x0A>	0
<0x0B>	0
<0x0C>	0
<0x0D>	0
<0x0E>	0
<0x0F>	0
<0x10>	0
<0x11>	0
<0x12>	0
<0x13>	0
<0x14>	0
<0x15>	0
<0x16>	0
<0x17>	0
<0x18>	0
<0x19>	0
<0x1A>	0
<0x1B>	0
<0x1C>	0
<0x1D>	0
<0x1E>	0
<0x1F>	0
<0x20>	0
<0x21>	0
<0x22>	0
<0x23>	0
<0x24>	0
<0x25>	0
<0x26>	0
<0x27>	0
<0x28>	0
<0x29>	0
<0x2A>	0
<0x2B>	0
<0x2C>	0
<0x2D>	0
<0x2E>	0
<0x2F>	0
<0x30>	0
<0x31>	0
<0x32>	0
<0x33>	0
<0x34>	0
<0x35>	0
<0x36>	0
<0x37>	0
<0x38>	0
<0x39>	0
<0x3A>	0
<0x3B>	0
<0x3C>	0
<0x3D>	0
<0x3E>	0
<0x3F>	0
<0x40>	0
<0x41>	0
<0x42>	0
<0x43>	0
<0x44>	0
<0x45>	0
<0x46>	0
<0x47>	0
<0x48>	0
<0x49>	0
<0x4A>	0
<0x4B>	0
<0x4C>	0
<0x4D>	0
<0x4E>	0
<0x4F>	0
<0x50>	0
<0x51>	0
<0x52>	0
<0x53>	0
<0x54>	0
<0x55>	0
<0x56>	0
<0x57>	0
<0x58>	0
<0x59>	0
<0x5A>	0
<0x5B>	0
<0x5C>	0
<0x5D>	0
<0x5E>	0
<0x5F>	0
<0x60>	0
<0x61>	0
<0x62>	0
<0x63>	0
<0x64>	0
<0x65>	0
<0x66>	0
<0x67>	0
<0x68>	0
<0x69>	0
<0x6A>	0
<0x6B>	0
<0x6C>	0
<0x6D>	0
<0x6E>	0
<0x6F>	0
<0x70>	0
<0x71>	0
<0x72>	0
<0x73>	0
<0x74>	0
<0x75>	0
<0x76>	0
<0x77>	0
<0x78>	0
<0x79>	0
<0x7A>	0
<0x7B>	0
<0x7C>	0
<0x7D>	0
<0x7E>	0
<0x7F>	0
<0x80>	0
<0x81>	0
<0x82>	0
<0x83>	0
<0x84>	0
<0x85>	0
<0x86>	0
<0x87>	0
<0x88>	0
<0x89>	0
<0x8A>	0
<0x8B>	0
<0x8C>	0
<0x8D>	0
<0x8E>	0
<0x8F>	0
<0x90>	0
<0x91>	0
<0x92>	0
<0x93>	0
<0x94>	0
<0x95>	0
<0x96>	0
<0x97>	0
<0x98>	0
<0x99>	0
<0x9A>	0
<0x9B>	0
<0x9C>	0
<0x9D>	0
<0x9E>	0
<0x9F>	0
<0xA0>	0
<0xA1>	0
<0xA2>	0
<0xA3>	0
<0xA4>	0
<0xA5>	0
<0xA6>	0
<0xA7>	0
<0xA8>	0
<0xA9>	0
<0xAA>	0
<0xAB>	0
<0xAC>	0
<0xAD>	0
<0xAE>	0
<0xAF>	0
<0xB0>	0
<0xB1>	0
<0xB2>	0
<0xB3>	0
<0xB4>	0
<0xB5>	0
<0xB6>	0
<0xB7>	0
<0xB8>	0
<0xB9>	0
<0xBA>	0
<0xBB>	0
<0xBC>	0
<0xBD>	0
<0xBE>	0
<0xBF>	0
<0xC0>	0
<0xC1>	0
<0xC2>	0
<0xC3>	0
<0xC4>	0
<0xC5>	0
<0xC6>	0
<0xC7>	0
<0xC8>	0
<0xC9>	0
<0xCA>	0
<0xCB>	0
<0xCC>	0
<0xCD>	0
<0xCE>	0
<0xCF>	0
<0xD0>	0
<0xD1>	0
<0xD2>	0
<0xD3>	0
<0xD4>	0
<0xD5>	0
<0xD6>	0
<0xD7>	0
<0xD8>	0
<0xD9>	0
<0xDA>	0
<0xDB>	0
<0xDC>	0
<0xDD>	0
<0xDE>	0
<0xDF>	0
<0xE0>	0
<0xE1>	0
<0xE2>	0
<0xE3>	0
<0xE4>	0
<0xE5>	0
<0xE6>	0
<0xE7>	0
<0xE8>	0
<0xE9>	0
<0xEA>	0
<0xEB>	0
<0xEC>	0
<0xED>	0
<0xEE>	0
<0xEF>	0
<0xF0>	0
<0xF1>	0
<0xF2>	0
<0xF3>	0
<0xF4>	0
<0xF5>	0
<0xF6>	0
<0xF7>	0
<0xF8>	0
<0xF9>	0
<0xFA>	0
<0xFB>	0
<0xFC>	0
<0xFD>	0
<0xFE>	0
<0xFF>	0
▁የ	-0
▁አ	-1
▁በ	-2
▁እ	-3
▁፡	-4
▁መ	-5
▁ከ	-6
▁ነ	-7
▁ይ	-8
▁ለ	-9
▁ወ	-10
ቸው	-11
▁እን	-12
▁ተ	-13
ዎች	-14
▁እና	-15
▁ያ	-16
▁ማ	-17
▁(	-18
ላይ	-19
▁ም	-20
▁ስ	-21
▁ነው	-22
▁ው	-23
▁ላይ	-24
▁ሰ	-25
ንም	-26
▁የሚ	-27
ንድ	-28
▁1	-29
▁ብ	-30
ርሱ	-31
▁2	-32
▁)	-33
▁ሁ	-34
▁የተ	-35
ስጥ	-36
▁ወደ	-37
ቶች	-38
▁ውስጥ	-39
▁ግ	-40
ችሁ	-41
ነት	-42
▁በእ	-43
▁ል	-44
▁ት	-45
▁ጥ	-46
▁እንደ	-47
▁ባ	-48
▁ቀ	-49
▁ደ	-50
ሪያ	-51
ንተ	-52
ጊዜ	-53
▁እነ	-54
▁ዘ	-55
ላህ	-56
▁ሁሉ	-57
ለው	-58
in	-59
▁ጋ	-60
▁ክ	-61
▁በመ	-62
ትን	-63
▁ጊዜ	-64
er	-65
00	-66
ገር	-67
ተኛ	-68
ዚህ	-69
▁ይህ	-70
ዚያ	-71
ድር	-72
▁ጋር	-73
▁አይ	-74
▁-	-75
ችን	-76
በር	-77
▁አስ	-78
ለም	-79
▁የመ	-80
▁ገ	-81
▁የአ	-82
01	-83
▁ወይ	-84
▁C	-85
ar	-86
▁ታ	-87
▁በአ	-88
▁እንዲ	-89
▁ሆ	-90
▁የእ	-91
▁&	-92
ውን	-93
on	-94
▁ቅ	-95
▁«	-96
▁ና	-97
ላቸው	-98
▁ግን	-99
▁ዓ	-100
▁ድ	-101
▁ከእ	-102
▁ወይም	-103
gt	-104
▁አላህ	-105
▁ለመ	-106
ንግ	-107
▁/	-108
▁S	-109
an	-110
▁ነገር	-111
▁3	-112
▁ካ	-113
▁አንድ	-114
አብ	-115
▁ኢ	-116
▁ሲ	-117
በት	-118
▁ስለ	-119
ግዚ	-120
▁ለማ	-121
▁ቤ	-122
ሔር	-123
st	-124
▁»	-125
▁፣	-126
▁ሕ	-127
ርስ	-128
ግዚአብ	-129
ግዚአብሔር	-130
▁ፍ	-131
or	-132
▁ጠ	-133
▁ለእ	-134
ላል	-135
▁አለ	-136
▁ሊ	-137
ስት	-138
▁በተ	-139
▁፤	-140
▁የም	-141
▁አል	-142
▁A	-143
▁P	-144
▁ፈ	-145
▁ን	-146
at	-147
ዋል	-148
ለት	-149
▁የማ	-150
▁ነበር	-151
▁ሰው	-152
▁አን	-153
ለሁ	-154
ጌታ	-155
ርሱም	-156
en	-157
▁201	-158
▁መል	-159
▁ሌ	-160
="	-161
ርት	-162
ረት	-163
ደረ	-164
ርግ	-165
ur	-166
▁ቁ	-167
▁እኔ	-168
▁ዘንድ	-169
ሆን	-170
ትም	-171
ሮች	-172
ስተ	-173
ሎች	-174
▁ናቸው	-175
ሆነ	-176
ይል	-177
ራት	-178
▁ሳ	-179
▁M	-180
..	-181
▁ቢ	-182
▁በማ	-183
በረ	-184
▁አም	-185
ውም	-186
▁የሚያ	-187
▁5	-188
ፊት	-189
▁ሥ	-190
▁4	-191
ረጃ	-192
▁F	-193
it	-194
ናል	-195
ቻቸው	-196
▁መን	-197
▁እስ	-198
▁ዋ	-199
ካከ	-200
le	-201
ላሉ	-202
▁ሰዎች	-203
▁ከፍ	-204
...	-205
ገድ	-206
▁ምር	-207
▁ጉ	-208
ላችሁ	-209
▁ቀን	-210
▁ሙ	-211
▁B	-212
ደር	-213
▁T	-214
ምን	-215
▁ይች	-216
▁"	-217
ለን	-218
ያን	-219
▁መስ	-220
▁d	-221
▁ሞ	-222
▁እግዚአብሔር	-223
▁እኛ	-224
ርድ	-225
ic	-226
ማሪ	-227
ac	-228
▁ያለው	-229
▁ኮ	-230
▁ቤት	-231
am	-232
▁ጌታ	-233
ድረ	-234
▁ዝ	-235
ናንተ	-236
መለ	-237
▁ከአ	-238
lt	-239
▁ሚ	-240
▁_	-241
ርግጥ	-242
▁ከተ	-243
▁መጠ	-244
▁ምን	-245
▁ኃ	-246
▁ኤ	-247
ዚያም	-248
▁L	-249
es	-250
▁በእርግጥ	-251
ኞች	-252
ro	-253
▁D	-254
▁ባለ	-255
ጣም	-256
al	-257
ጆች	-258
▁አገ	-259
▁H	-260
ቦች	-261
▁ክፍ	-262
ሪካ	-263
ቢያ	-264
co	-265
ሆኑ	-266
▁ዕ	-267
ንያ	-268
ዎችን	-269
ፈል	-270
መል	-271
ክት	-272
▁እርሱ	-273
ኋላ	-274
▁R	-275
▁ብቻ	-276
▁G	-277
art	-278
ነው	-279
ለያ	-280
ing	-281
በሩ	-282
▁አው	-283
ገባ	-284
ቃል	-285
ዶች	-286
▁ነው።	-287
▁ፕ	-288
ሽን	-289
ብር	-290
▁E	-291
▁በጣም	-292
ቅር	-293
▁ሴ	-294
ቀር	-295
ታል	-296
▁አይደ	-297
▁ከፍተኛ	-298
ቸውን	-299
ሚያ	-300
▁ሆይ	-301
መር	-302
መሪያ	-303
▁6	-304
▁st	-305
ከተ	-306
▁...	-307
▁አት	-308
ዳን	-309
▁አስተ	-310
▁በም	-311
▁ሕዝ	-312
ካከል	-313
et	-314
ኤል	-315
▁ቦ	-316
▁ዩ	-317
▁ማን	-318
ራዊ	-319
▁ዓመ	-320
ዲስ	-321
መን	-322
▁በኋላ	-323
ህን	-324
▁t	-325
ተር	-326
ቱም	-327
▁ፋ	-328
ion	-329
ላክ	-330
"&	-331
▁start	-332
▁dur	-333
▁ብዙ	-334
▁N	-335
ኾኑ	-336
▁እናንተ	-337
▁!	-338
▁አንተ	-339
▁እንዳ	-340
▁ሌላ	-341
▁መካከል	-342
ግሞ	-343
ይና	-344
▁፡፡	-345
ሉት	-346
ረስ	-347
▁እስከ	-348
ሁን	-349
ቀት	-350
ድን	-351
ስራ	-352
ed	-353
▁የሰ	-354
ኖች	-355
▁ሥራ	-356
ምና	-357
ቱን	-358
▁8	-359
ጣት	-360
▁ያለ	-361
▁በሚ	-362
ስታ	-363
ል።	-364
▁ቻ	-365
ባት	-366
▁I	-367
ይን	-368
▁ምክ	-369
ዎቹ	-370
ርስዎ	-371
▁እነዚያ	-372
▁7	-373
▁ደግሞ	-374
▁ጨ	-375
▁ልጆች	-376
ናት	-377
ዓት	-378
ላት	-379
ch	-380
▁እው	-381
ቀም	-382
0.	-383
ንን	-384
▁በዚህ	-385
ቅም	-386
መጣ	-387
il	-388
ነርሱ	-389
ሳት	-390
▁ጣ	-391
ጨማሪ	-392
▁በሰ	-393
▁እር	-394
ኘት	-395
▁ልጅ	-396
re	-397
as	-398
ባቸው	-399
▁መንገድ	-400
is	-401
▁አማ	-402
ትዮ	-403
▁የነ	-404
ም።	-405
▁አድር	-406
▁ደረጃ	-407
▁ሽ	-408
ያው	-409
ሞች	-410
▁እየ	-411
ጥር	-412
ድረግ	-413
▁W	-414
ol	-415
ንና	-416
▁ራ	-417
▁እንዲህ	-418
ሳይ	-419
ሠራ	-420
ረጋ	-421
▁አካ	-422
ልክ	-423
▁ምንም	-424
ትዮጵ	-425
የት	-426
▁ዳ	-427
▁ከመ	-428
▁የኢ	-429
▁አይደለም	-430
20	-431
▁ለአ	-432
ምር	-433
▁10	-434
ክስ	-435
▁ፕሮ	-436
ጀመሪያ	-437
ንዘ	-438
▁ጀ	-439
ሰብ	-440
▁ቃል	-441
▁የወ	-442
▁c	-443
▁ይሆ	-444
▁ሀ	-445
ሪዎች	-446
▁ች	-447
el	-448
ልግ	-449
ዴት	-450
ግራ	-451
▁እነርሱ	-452
▁እርሱም	-453
▁በፊት	-454
▁9	-455
ቨር	-456
oo	-457
▁አሉ	-458
▁ይችላሉ	-459
▁ፓ	-460
ወት	-461
▁ይችላል	-462
ነሱ	-463
ጠራ	-464
▁ዲ	-465
▁የቀ	-466
ታት	-467
▁አብ	-468
ግብ	-469
ገና	-470
በል	-471
▁ህ	-472
▁ነገ	-473
ቸውም	-474
ጨረ	-475
▁ድር	-476
የር	-477
ታው	-478
▁ኾ	-479
ማት	-480
▁ድረስ	-481
ግባ	-482
ትዮጵያ	-483
000	-484
▁?	-485
ምሮ	-486
▁ላ	-487
ጠር	-488
▁አላህም	-489
▁አለው	-490
ልቅ	-491
▁ስለዚህ	-492
ad	-493
▁ዋጋ	-494
ሉም	-495
▁ይሆናል	-496
▁አዲስ	-497
▁ስም	-498
ኛው	-499
ትና	-500
▁እንዴት	-501
▁ዩኒ	-502
▁እንዲሁ	-503
▁19	-504
▁ቻይና	-505
ልግሎ	-506
▁s	-507
▁ከዚያም	-508
ቂያ	-509
▁እጅ	-510
id	-511
▁ተቀ	-512
ቸዋል	-513
ጽሐ	-514
ህርት	-515
50	-516
▁መብ	-517
ሩት	-518
ታዊ	-519
ሲቲ	-520
ችኋ	-521
ደረገ	-522
ማር	-523
com	-524
ክል	-525
ቨርሲቲ	-526
ርዝ	-527
ግኘት	-528
ታዎች	-529
ap	-530
un	-531
▁ቆ	-532
▁እነዚህ	-533
ጠቃ	-534
ንስ	-535
▁መጠን	-536
▁በነ	-537
ካም	-538
▁ምክንያ	-539
ለህ	-540
▁አመ	-541
he	-542
ረው	-543
፡፡	-544
▁p	-545
▁ኦ	-546
▁በው	-547
▁ወን	-548
▁ተከ	-549
ቤት	-550
▁ብር	-551
-1	-552
▁ያስ	-553
▁የሆነ	-554
▁ማስ	-555
ንቀ	-556
▁አቀ	-557
ልን	-558
▁ረ	-559
▁አባ	-560
▁አያ	-561
▁$	-562
ለች	-563
ባቢ	-564
ot	-565
ስራኤል	-566
▁ያል	-567
ግር	-568
▁20	-569
ዋቂ	-570
▁ሜ	-571
▁ምስ	-572
ፍት	-573
ጨረሻ	-574
▁12	-575
ቻችሁ	-576
▁የማይ	-577
▁ይሰ	-578
▁ሁለት	-579
us	-580
▁የበ	-581
▁ዓመት	-582
▁ዐ	-583
amp	-584
▁አላቸው	-585
mm	-586
ልም	-587
ረብ	-588
▁ምድር	-589
▁እንደሚ	-590
▁ሃ	-591
ራል	-592
▁ኃይል	-593
▁የው	-594
▁b	-595
-2	-596
▁U	-597
▁ኪ	-598
▁አገልግሎ	-599
▁ዶ	-600
▁በኢ	-601
▁ንጉ	-602
ቶችን	-603
▁ዩኒቨርሲቲ	-604
ቴክ	-605
▁V	-606
▁ጉዳ	-607
▁ይህን	-608
▁አሁን	-609
መና	-610
ንዘብ	-611
▁በር	-612
▁አሳ	-613
ወጣ	-614
ሪያዎች	-615
▁ቡ	-616
▁–	-617
▁ሁኔ	-618
ዛሬ	-619
▁ተመ	-620
▁አቅ	-621
▁ሌሎች	-622
▁ይጠ	-623
ዘጋ	-624
▁እንጂ	-625
▁ጽ	-626
▁የምት	-627
ሪክ	-628
ገለ	-629
▁በቀ	-630
ሳሌ	-631
▁አምላክ	-632
▁ዓለም	-633
▁የስ	-634
ፍራ	-635
▁ተጨማሪ	-636
ኾን	-637
▁ያለውን	-638
▁በእርሱ	-639
▁ዓይ	-640
ኾነ	-641
▁ፊት	-642
ግል	-643
ደት	-644
▁ጎ	-645
▁ስር	-646
▁ከሰ	-647
▁ሐ	-648
▁ጭ	-649
▁O	-650
▁መረጃ	-651
10	-652
▁ይህም	-653
▁መግ	-654
▁m	-655
ገኛ	-656
▁ሁሉም	-657
▁በላይ	-658
ተው	-659
ማይ	-660
▁መለ	-661
▁Co	-662
▁+	-663
▁ታላ	-664
ተኞች	-665
ንግድ	-666
ሥራ	-667
▁ኩ	-668
▁ኢን	-669
▁K	-670
ልና	-671
ከራ	-672
ig	-673
ይወት	-674
▁ሆነ	-675
ፈር	-676
ንብ	-677
▁የካ	-678
▁ምርቶች	-679
ጠና	-680
ያስ	-681
ኖር	-682
ent	-683
.5	-684
ay	-685
▁በአላህ	-686
ወሰ	-687
▁ዋና	-688
▁መር	-689
ጢአ	-690
መልከ	-691
ህም	-692
ይት	-693
ወረ	-694
▁ጸ	-695
▁ትም	-696
ሶች	-697
▁ር	-698
ኛውም	-699
ብስ	-700
ሜሪካ	-701
ht	-702
ዎን	-703
ዮች	-704
ፋት	-705
▁የታ	-706
▁አላ	-707
ኩል	-708
ag	-709
ጣን	-710
ለያዩ	-711
ut	-712
▁በደ	-713
▁ነበረ	-714
="1	-715
▁ማሽን	-716
▁ከተማ	-717
▁በምድር	-718
▁መልክ	-719
ማያ	-720
▁መጽሐ	-721
▁እንዲሁም	-722
▁ገጽ	-723
▁እነሆ	-724
▁እነሱ	-725
ለኛ	-726
ከር	-727
▁ጥበ	-728
▁ነፍ	-729
▁ሶ	-730
▁ሁኔታ	-731
▁ልዩ	-732
▁በዚያ	-733
ቾች	-734
▁ድን	-735
▁እነርሱም	-736
▁w	-737
▁የባ	-738
ደው	-739
ራቢ	-740
▁ክፍል	-741
ኝነት	-742
▁J	-743
and	-744
▁“	-745
▁ፖ	-746
▁በዓ	-747
▁f	-748
ታይ	-749
ፈራ	-750
▁ይመ	-751
ርሷ	-752
▁ሁለ	-753
▁መልካም	-754
ያቄ	-755
▁ሸ	-756
ብሪካ	-757
▁ቪ	-758
ታቸው	-759
▁0	-760
▁ሆኖ	-761
▁ዜ	-762
ክር	-763
▁ለእናንተ	-764
▁መሣ	-765
ከል	-766
:1	-767
ንበ	-768
ገኙ	-769
ናገ	-770
▁200	-771
▁ከሆነ	-772
▁15	-773
2.	-774
ct	-775
ጥን	-776
ቷል	-777
ተኛው	-778
▁መጥ	-779
▁ወር	-780
▁ነበር።	-781
▁ብሎ	-782
▁ነውና	-783
ቻችን	-784
▁የተሰ	-785
▁•	-786
▁'	-787
▁ወንድ	-788
▁በላቸው	-789
▁ትምህርት	-790
ቀመ	-791
▁ጥያቄ	-792
▁ፊ	-793
▁መንግ	-794
ባል	-795
ጠበ	-796
▁ኖ	-797
▁ነኝ	-798
▁የእግዚአብሔር	-799
▁አድ	-800
ሜይል	-801
ወቅ	-802
ሎጂ	-803
▁መሠ	-804
30	-805
iv	-806
op	-807
▁ብት	-808
ow	-809
▁የእኛ	-810
ገብ	-811
▁ዝርዝ	-812
▁እያ	-813
▁ሂ	-814
▁ነጻ	-815
▁ጥሩ	-816
▁ከዚህ	-817
▁2018	-818
▁ቅጣት	-819
▁X	-820
▁ይላል	-821
▁11	-822
▁ቦታ	-823
▁የገ	-824
ዛት	-825
▁አምራ	-826
ላዊ	-827
of	-828
▁ነበሩ	-829
ዲዮ	-830
▁ፎ	-831
▁ድም	-832
ጠው	-833
▁ተሰ	-834
▁የት	-835
ab	-836
▁ቤተ	-837
▁ፋብሪካ	-838
ፈልጋ	-839
ረዳ	-840
▁ምክንያት	-841
3.	-842
▁ከሚ	-843
ex	-844
▁እውነ	-845
oc	-846
▁18	-847
ሉ።	-848
▁ከእርሱ	-849
ልፍ	-850
▁ለሚ	-851
▁ማለት	-852
▁ጥራት	-853
ችል	-854
ያዎች	-855
▁የእርስዎ	-856
ለጠ	-857
ፖርት	-858
ከፍ	-859
ers	-860
ናችሁ	-861
▁አገልግሎት	-862
ፕላ	-863
ረጋገ	-864
▁አቅራቢ	-865
▁የሕ	-866
ገን	-867
▁ሕዝቦች	-868
em	-869
▁ተስ	-870
▁ሮ	-871
▁Ch	-872
▁ሙሉ	-873
▁አደ	-874
▁መለያ	-875
▁ቅር	-876
▁የደ	-877
▁ሳይ	-878
ህል	-879
▁ግል	-880
ባንያ	-881
▁ይቀ	-882
ሱስ	-883
ፈለ	-884
ደረግ	-885
መሰ	-886
▁100	-887
▁በየ	-888
መድ	-889
4.	-890
▁,	-891
ላም	-892
ሌክት	-893
ደበ	-894
▁ግም	-895
▁ውጤ	-896
▁ጥቅም	-897
▁ቋ	-898
▁ተገ	-899
ቁር	-900
ደርጋ	-901
▁ፕሮግራ	-902
▁ከአላህ	-903
os	-904
መራ	-905
▁በል	-906
▁በታ	-907
um	-908
▁ስት	-909
ወር	-910
ang	-911
▁ዐዋቂ	-912
▁መሰ	-913
መረ	-914
▁ታላቅ	-915
▁ማዕ	-916
ድሞ	-917
▁ቁጥር	-918
▁የለም	-919
ra	-920
▁ዛሬ	-921
▁የብ	-922
▁ገንዘብ	-923
▁አገር	-924
▁ማድረግ	-925
ያንዳን	-926
ድም	-927
▁ትን	-928
የሱስ	-929
ሃን	-930
▁ጀምሮ	-931
one	-932
▁ሊያ	-933
▁በውስ	-934
▁የመጀመሪያ	-935
▁ሄ	-936
ቆጣ	-937
ዛዝ	-938
▁ያሉ	-939
ቲክ	-940
ሻሻ	-941
▁ለማግኘት	-942
▁አንዳ	-943
▁ብረት	-944
ir	-945
ኖሪያ	-946
▁ምርጥ	-947
ፎች	-948
▁ሆይ፥	-949
መኑ	-950
ምነት	-951
▁ማህ	-952
ation	-953
▁የኤ	-954
ለሁ።	-955
መት	-956
▁አንዱ	-957
ገኘ	-958
▁አቀፍ	-959
▁የአላህ	-960
om	-961
ኞቹ	-962
▁ቴክ	-963
ጥነት	-964
ነርሱም	-965
ውያን	-966
ንቀሳ	-967
▁ጣቢያ	-968
act	-969
▁16	-970
▁ናት	-971
▁በት	-972
ነስ	-973
▁አታ	-974
yp	-975
ገል	-976
▁2019	-977
▁ኩባንያ	-978
▁ንጉሥ	-979
ናቸው	-980
ላር	-981
ወስ	-982
▁መተ	-983
ባበ	-984
▁አጋ	-985
ቻቸውን	-986
▁ቃ	-987
▁እጅግ	-988
▁ሠ	-989
▁ሪ	-990
▁ከእናንተ	-991
ሱን	-992
▁2017	-993
im	-994
eb	-995
ርባ	-996
▁እዚህ	-997
ter	-998
▁ወረ	-999
ጠረ	-1000
ምም	-1001
ia	-1002
ብራ	-1003
ou	-1004
ንት	-1005
▁እኔም	-1006
▁መሆኑ	-1007
▁የሞ	-1008
ጠፋ	-1009
▁30	-1010
▁በሌ	-1011
▁አንቀ	-1012
ወቂያ	-1013
▁ያላቸው	-1014
ቦት	-1015
▁ጓ	-1016
ኖሎጂ	-1017
ዮን	-1018
201	-1019
▁ተማሪ	-1020
▁ተጠ	-1021
▁በስ	-1022
▁የኾነ	-1023
ሩን	-1024
▁የሚሰ	-1025
▁በኩል	-1026
ፈላ	-1027
ይማ	-1028
▁ጫ	-1029
▁*	-1030
ሳዊ	-1031
▁መሳ	-1032
if	-1033
ሰው	-1034
▁አበ	-1035
▁የለ	-1036
▁ተከታ	-1037
▁ክርስ	-1038
.,	-1039
ስትሪ	-1040
ጋይ	-1041
▁ሴቶች	-1042
▁.	-1043
ችሁን	-1044
ጣል	-1045
▁ትክ	-1046
▁መጽሐፍ	-1047
▁እነዚያም	-1048
▁የተለያዩ	-1049
▁ተግባ	-1050
ስን	-1051
▁በፍ	-1052
ካት	-1053
▁የግ	-1054
ረጥ	-1055
ንቋ	-1056
▁ቁር	-1057
▁የጥ	-1058
▁እንኳ	-1059
▁13	-1060
▁ፈቃ	-1061
ቸዋ	-1062
ማሚ	-1063
ነቱ	-1064
ዲያ	-1065
▁Y	-1066
ip	-1067
ያንዳንዱ	-1068
▁የፈ	-1069
40	-1070
▁በአንድ	-1071
ዱት	-1072
▁ሕዝብ	-1073
ካል	-1074
▁ሦ	-1075
▁በሕ	-1076
ሓዲ	-1077
በሩት	-1078
ኪና	-1079
ረን	-1080
ንካ	-1081
በላ	-1082
▁መመሪያ	-1083
:2	-1084
12	-1085
▁ድርጅ	-1086
▁ሻ	-1087
ባባ	-1088
በልጥ	-1089
▁የሌ	-1090
▁ዜና	-1091
▁ስል	-1092
ሙያ	-1093
ገማ	-1094
ደም	-1095
▁ተቋ	-1096
ፈጥ	-1097
▁ጨዋ	-1098
ብን	-1099
ፊያ	-1100
▁እርስዎ	-1101
▁ይላሉ	-1102
▁የቅ	-1103
ሁኑ	-1104
▁መም	-1105
▁ኖሮ	-1106
▁ጥቅ	-1107
ውነት	-1108
▁የንግድ	-1109
ate	-1110
▁የእስራኤል	-1111
▁ሥር	-1112
ገቡ	-1113
▁ባህ	-1114
▁ዙ	-1115
▁ሩ	-1116
▁17	-1117
▁ዓይነት	-1118
▁በእናንተ	-1119
ላለ	-1120
▁ሞዴ	-1121
▁ያው	-1122
▁25	-1123
ረተ	-1124
ልክት	-1125
ጠት	-1126
▁ከም	-1127
▁ስፍራ	-1128
ፈልጉ	-1129
ጤና	-1130
ግም	-1131
60	-1132
▁የህ	-1133
▁እንጅ	-1134
▁£	-1135
በራ	-1136
ችሁም	-1137
▁መሆን	-1138
▁ተወ	-1139
▁ምርት	-1140
-0	-1141
▁St	-1142
▁ትዕ	-1143
▁የሚያስ	-1144
▁አሸ	-1145
ፈስ	-1146
ነዚያ	-1147
▁አቅራቢዎች	-1148
ፈላጊ	-1149
▁ለም	-1150
▁0.	-1151
ነቶች	-1152
▁14	-1153
ሄድ	-1154
▁24	-1155
ጠሩ	-1156
ዳት	-1157
ክምና	-1158
▁አግ	-1159
▁ጠቅ	-1160
▁ሕይወት	-1161
▁ቀጥ	-1162
ገኝ	-1163
▁ማንኛውም	-1164
ul	-1165
ess	-1166
ጡት	-1167
ም፥	-1168
▁in	-1169
▁መታ	-1170
ጮች	-1171
በትን	-1172
▁አሰ	-1173
ህና	-1174
▁ቀላል	-1175
ትር	-1176
ዝብ	-1177
ራራ	-1178
▁ትር	-1179
ውል	-1180
ail	-1181
▁በእግዚአብሔር	-1182
▁ቡድን	-1183
ይማኖ	-1184
▁አምራቾች	-1185
▁ማስተ	-1186
▁ሲሆን	-1187
▁መላ	-1188
▁እንግ	-1189
19	-1190
ገው	-1191
▁1.	-1192
▁መሆኑን	-1193
th	-1194
▁አካባቢ	-1195
ርሻ	-1196
▁ግምገማ	-1197
▁አውሮ	-1198
▁i	-1199
የም	-1200
▁ዶላር	-1201
▁ኃጢአ	-1202
ጠቀ	-1203
▁g	-1204
ካታ	-1205
ጋፍ	-1206
80	-1207
▁ልብ	-1208
ልል	-1209
ሠሩ	-1210
ያዝ	-1211
▁አልተ	-1212
▁ፀ	-1213
ቃሽ	-1214
▁መብት	-1215
ቀው	-1216
▁ከባ	-1217
ከፍተኛ	-1218
▁አስተዳ	-1219
ep	-1220
ራን	-1221
▁h	-1222
▁ዮ	-1223
ነሳ	-1224
▁In	-1225
▁ኢየሱስ	-1226
▁እየተ	-1227
▁አጠቃ	-1228
ዘር	-1229
ገሩ	-1230
▁በራ	-1231
መስ	-1232
▁እውነት	-1233
ል፤	-1234
▁ግልጽ	-1235
▁መቀ	-1236
16	-1237
▁v	-1238
ub	-1239
ዋን	-1240
▁በሁ	-1241
▁መኖሪያ	-1242
ጠቀም	-1243
ቃት	-1244
▁ዓመታት	-1245
▁An	-1246
▁በጥ	-1247
ታችን	-1248
ነሣ	-1249
▁ክፍሎች	-1250
▁ቴክኖሎጂ	-1251
ያጭ	-1252
ov	-1253
ማን	-1254
▁የፍ	-1255
▁አስተያ	-1256
od	-1257
ቆች	-1258
▁መሠረት	-1259
▁አዳ	-1260
ሪት	-1261
ፈት	-1262
ራቸው	-1263
▁መጣ	-1264
▁ሠራ	-1265
15	-1266
▁ፎቶ	-1267
▁ዝርዝር	-1268
ዚሁ	-1269
ሬት	-1270
በያ	-1271
▁አፍ	-1272
▁አስታው	-1273
▁ጉዞ	-1274
▁ኾነው	-1275
▁FS	-1276
ችው	-1277
▁በሙ	-1278
ዱስትሪ	-1279
▁መስመር	-1280
▁ሕግ	-1281
td	-1282
▁አለው።	-1283
ጫዎች	-1284
▁በባ	-1285
ፈው	-1286
ack	-1287
ተዋል	-1288
▁የዓ	-1289
▁ቀጣ	-1290
ጅም	-1291
▁ነፃ	-1292
ሳሳይ	-1293
ባብ	-1294
ገደ	-1295
▁ለእነርሱ	-1296
▁ባል	-1297
.0	-1298
VC	-1299
▁ማሳ	-1300
ቹን	-1301
▁ያህል	-1302
▁ተከታታይ	-1303
▁ድጋፍ	-1304
ቶቻቸው	-1305
▁ይበልጥ	-1306
▁ሺ	-1307
ንቀሳቃሽ	-1308
▁የል	-1309
▁በወ	-1310
▁እንድ	-1311
▁ኢትዮጵያ	-1312
▁50	-1313
▁ማስታ	-1314
▁አስፈላጊ	-1315
ተት	-1316
ብዙ	-1317
ራጭ	-1318
200	-1319
▁ትልቅ	-1320
መለከ	-1321
▁የምን	-1322
25	-1323
▁እንዲያ	-1324
ሌት	-1325
ቹም	-1326
▁የኃ	-1327
▁ማግኘት	-1328
ብረት	-1329
tp	-1330
▁ለተ	-1331
▁መዝ	-1332
ዘጋጀ	-1333
መው	-1334
▁ያግ	-1335
ec	-1336
ስቲክ	-1337
ነበረ	-1338
ምራ	-1339
▁ስልክ	-1340
ደረጉ	-1341
ሮችን	-1342
▁ፍርድ	-1343
▁ግብ	-1344
35	-1345
▁ቅን	-1346
▁ጥቂ	-1347
ኪያ	-1348
▁ቋንቋ	-1349
▁ፒ	-1350
ደርግ	-1351
▁ለእርሱ	-1352
ጾች	-1353
ላላ	-1354
ዲህ	-1355
▁l	-1356
ሳብ	-1357
ቡር	-1358
ላማ	-1359
መለስ	-1360
▁ነን	-1361
ውንም	-1362
▁ዕቃ	-1363
▁አለ።	-1364
▁ተማሪዎች	-1365
▁የአሜሪካ	-1366
ሞክ	-1367
ዳል	-1368
ሁዳ	-1369
▁ይልቅ	-1370
▁በጎ	-1371
ገት	-1372
▁ይዘ	-1373
▁ጥቁር	-1374
ob	-1375
ሠሩት	-1376
▁ካርድ	-1377
▁አንዳንድ	-1378
ችንም	-1379
ሉን	-1380
▁ሲኾኑ	-1381
ከለ	-1382
ቁም	-1383
▁አጥ	-1384
▁ሳይን	-1385
ቅስ	-1386
ቋቋ	-1387
ቀደ	-1388
▁Ltd	-1389
▁ዕድ	-1390
ረድ	-1391
▁አለበት	-1392
og	-1393
ካሪ	-1394
▁እንደሆነ	-1395
▁ወቅ	-1396
▁ወዳ	-1397
▁ቤቶች	-1398
ስክ	-1399
▁ሊሆን	-1400
ሕር	-1401
▁የኮ	-1402
▁ለው	-1403
ንክ	-1404
▁እሱ	-1405
▁የክ	-1406
▁ተስፋ	-1407
ጦር	-1408
▁አር	-1409
ትንና	-1410
est	-1411
▁ቅዱ	-1412
▁ለምን	-1413
▁ከእነርሱ	-1414
ቶስ	-1415
ስመር	-1416
▁መሥ	-1417
▁አድራ	-1418
▁the	-1419
▁መቶ	-1420
▁ስርዓት	-1421
ርሳ	-1422
itor	-1423
▁ነው፤	-1424
ሌክትሪክ	-1425
ight	-1426
▁ፈቃድ	-1427
av	-1428
የሩ	-1429
▁ሰዓት	-1430
ዎችም	-1431
▁ፍላ	-1432
▁እርም	-1433
▁ለማድረግ	-1434
▁ደስ	-1435
▁በዳ	-1436
ንሰ	-1437
▁ንድ	-1438
▁አደረገ	-1439
▁ግንኙ	-1440
▁ነገሮች	-1441
ብኝ	-1442
ታን	-1443
▁በተጨማሪ	-1444
▁መጋ	-1445
▁የቀድሞ	-1446
▁ኬ	-1447
ለማ	-1448
ባዊ	-1449
▁ከፊ	-1450
▁ካር	-1451
ሩም	-1452
▁ብርሃን	-1453
▁ሰማያ	-1454
▁ዱ	-1455
▁ቫ	-1456
1.	-1457
▁ምድ	-1458
▁of	-1459
▁የራ	-1460
▁ዳዊ	-1461
▁አላህን	-1462
▁ሞዴል	-1463
▁ስራ	-1464
▁ይገኛ	-1465
▁የአየር	-1466
ኒክ	-1467
▁[	-1468
▁ቲ	-1469
▁አብዛ	-1470
ትምህርት	-1471
ኑም	-1472
▁ክፉ	-1473
ዋዕ	-1474
▁ውጭ	-1475
▁መግለ	-1476
ጋራ	-1477
ቴጅ	-1478
ሻለ	-1479
▁ወሰ	-1480
▁ንግ	-1481
▁የዘ	-1482
▁ተለ	-1483
▁ዝቅ	-1484
▁መሣሪያ	-1485
▁ቪዲዮ	-1486
ታችሁ	-1487
▁ይሁን	-1488
▁የሙ	-1489
▁በእነርሱ	-1490
▁እኛም	-1491
,000	-1492
ፊዎች	-1493
▁ይገባ	-1494
▁ሦስት	-1495
ደበኛ	-1496
▁ይወ	-1497
ሥት	-1498
ሚዎች	-1499
▁ቅጣ	-1500
▁ሞተር	-1501
▁ዘመን	-1502
ኮች	-1503
ላቀ	-1504
ሕዛ	-1505
ከን	-1506
ላካ	-1507
45	-1508
ገዛ	-1509
ረበ	-1510
ለሁ፤	-1511
ባይ	-1512
ዎት	-1513
▁ቍ	-1514
ልቴጅ	-1515
ik	-1516
apac	-1517
▁ጉዳይ	-1518
▁እንዳይ	-1519
▁a	-1520
ጥፍ	-1521
ግበ	-1522
የሩሳሌ	-1523
ሰት	-1524
▁እድ	-1525
▁ቀናት	-1526
ል፥	-1527
ለሁ፥	-1528
▁አዛ	-1529
▁እግዚአብሔርም	-1530
▁#	-1531
▁ትክክ	-1532
coin	-1533
▁ጉርሻ	-1534
ርክ	-1535
http	-1536
▁ያልተ	-1537
ፋን	-1538
33	-1539
▁በረ	-1540
-201	-1541
ቅረብ	-1542
▁ቀጣይ	-1543
▁ያግኙ	-1544
ናገር	-1545
▁መድ	-1546
▁ችግር	-1547
▁አፈ	-1548
▁ከዚያ	-1549
ንጉ	-1550
ator	-1551
▁‹	-1552
▁ችሎ	-1553
▁በመካከ	-1554
▁ፕሮግራም	-1555
▁አቅር	-1556
▁እንደዚሁ	-1557
▁አዋ	-1558
ህንነት	-1559
bo	-1560
▁ክብ	-1561
ሰድ	-1562
ard	-1563
መነ	-1564
ኤስ	-1565
▁የሽ	-1566
▁ጌታዬ	-1567
▁መሣሪያዎች	-1568
▁መው	-1569
▁መክ	-1570
▁የሆኑ	-1571
ልቁ	-1572
▁ከሓዲ	-1573
▁አይነት	-1574
▁Z	-1575
▁ከጌታ	-1576
:/	-1577
▁ልጆ	-1578
▁በስተ	-1579
ከላ	-1580
▁እርስ	-1581
▁ቀለም	-1582
ዋም	-1583
▁Q	-1584
ውሮ	-1585
ፈጸ	-1586
▁የቁ	-1587
://	-1588
▁ዕው	-1589
መልከት	-1590
▁ሴት	-1591
▁ፖሊ	-1592
▁በእርሷ	-1593
▁አካል	-1594
ላለም	-1595
▁መጨረሻ	-1596
6.	-1597
ዋቸው	-1598
ችሉ	-1599
▁በዓለም	-1600
ጋሪ	-1601
▁ምሕ	-1602
ጠላ	-1603
▁አየር	-1604
up	-1605
ርም	-1606
▁ቁጥ	-1607
ind	-1608
▁ይህንን	-1609
▁ይግ	-1610
▁ያደርጋ	-1611
ine	-1612
▁የተለ	-1613
ሬን	-1614
▁ምግብ	-1615
▁እነሆ፥	-1616
ቱንም	-1617
▁የግል	-1618
▁መንገ	-1619
ቅርብ	-1620
▁በታች	-1621
ለውን	-1622
▁መልስ	-1623
kv	-1624
ራሚ	-1625
▁በጌታ	-1626
ist	-1627
ችኋል	-1628
▁አውርድ	-1629
apacitor	-1630
▁ማር	-1631
▁ለሰ	-1632
ሴቶች	-1633
▁ያሳ	-1634
▁ንድፍ	-1635
ላቸውም	-1636
▁ሁሉንም	-1637
ጨት	-1638
▁n	-1639
ጋት	-1640
▁40	-1641
ረም	-1642
▁በገ	-1643
ቴት	-1644
ቅና	-1645
▁የቤት	-1646
ሳቸው	-1647
ጣቸው	-1648
▁2.	-1649
▁አጠ	-1650
ዌር	-1651
▁ወረቀት	-1652
ቻቸውም	-1653
13	-1654
ቢት	-1655
ቅድ	-1656
▁የተመ	-1657
ie	-1658
ግና	-1659
ቃሴ	-1660
ታማ	-1661
ቅስቃሴ	-1662
ሊት	-1663
▁ካል	-1664
ሎችን	-1665
▁በፊ	-1666
dro	-1667
ጠብ	-1668
▁ኮድ	-1669
▁ውር	-1670
ከብ	-1671
ማማ	-1672
▁መፍ	-1673
ኖሩ	-1674
▁22	-1675
▁ፍላጎ	-1676
ገነ	-1677
▁ሰይ	-1678
▁For	-1679
ዋል።	-1680
86	-1681
ኬት	-1682
▁አሉት	-1683
ሰባ	-1684
▁በላ	-1685
ስም	-1686
▁በርካታ	-1687
9.	-1688
ast	-1689
ሊዮን	-1690
ደብ	-1691
▁ፍጥነት	-1692
▁ከወ	-1693
▁ከማ	-1694
17	-1695
▁ምልክት	-1696
ጊያ	-1697
▁:	-1698
▁and	-1699
▁ከእነሱ	-1700
▁ዙሪያ	-1701
ant	-1702
ይም	-1703
▁ንጉሡ	-1704
▁አሸና	-1705
▁እሳት	-1706
ይታ	-1707
▁የኃይል	-1708
ሾች	-1709
▁የበለጠ	-1710
ተና	-1711
▁ወጣ	-1712
▁ምንድ	-1713
መልካ	-1714
und	-1715
iz	-1716
ሰበ	-1717
ዳታ	-1718
▁በይ	-1719
▁Bit	-1720
▁http	-1721
ock	-1722
ነገ	-1723
ነጋ	-1724
ቤቱ	-1725
ቻል	-1726
▁ዛ	-1727
="2.	-1728
ሆንም	-1729
▁ያን	-1730
ባክ	-1731
ong	-1732
▁ልክ	-1733
▁በክ	-1734
▁እውነተኛ	-1735
ና።	-1736
ያዊ	-1737
▁ሚኒ	-1738
▁ዴ	-1739
ከት	-1740
▁ፈጽ	-1741
ዕራ	-1742
ፉት	-1743
ዘን	-1744
ሕዛብ	-1745
▁ኪዳን	-1746
▁ወይስ	-1747
ook	-1748
▁ሱ	-1749
▁በሙሉ	-1750
▁የተወሰ	-1751
5.	-1752
les	-1753
ቤቶች	-1754
8.	-1755
all	-1756
▁ለዘ	-1757
▁ታሪክ	-1758
▁የነበረ	-1759
▁iP	-1760
▁ከበ	-1761
▁ትክክለኛ	-1762
ላፊ	-1763
ምፒ	-1764
መለሱ	-1765
▁ያስተ	-1766
▁ቁርኣ	-1767
▁የቀድሞው	-1768
▁ሲኾን	-1769
▁%	-1770
▁አውሮፕላ	-1771
▁ጥር	-1772
▁ክልል	-1773
▁እንቅስቃሴ	-1774
ነትን	-1775
▁መደበኛ	-1776
▁ደንበ	-1777
▁በእኛ	-1778
ለል	-1779
ጹም	-1780
▁መተግበ	-1781
ምድ	-1782
▁መኪና	-1783
▁መድረ	-1784
▁የእኛን	-1785
▁በኢትዮጵያ	-1786
▁21	-1787
▁የትምህርት	-1788
ብሎ	-1789
▁ማረጋገ	-1790
37	-1791
ራሲ	-1792
ዋወ	-1793
ጥታ	-1794
▁ተደ	-1795
ሰቡ	-1796
ዝግ	-1797
ስና	-1798
▁ሚሜ	-1799
▁እያንዳንዱ	-1800
90	-1801
ሁንም	-1802
ኾኑን	-1803
▁ይባ	-1804
▁ወቅት	-1805
ቡብ	-1806
▁ሉ	-1807
▁ክፍያ	-1808
ላችሁን	-1809
▁2016	-1810
▁የኦ	-1811
ለቲ	-1812
ላንድ	-1813
ሰማ	-1814
▁ልማት	-1815
▁የእኔ	-1816
ታቸውን	-1817
▁መልክተኛ	-1818
hone	-1819
ደል	-1820
▁ቮ	-1821
▁FSX	-1822
በራዊ	-1823
="2	-1824
ብት	-1825
ጉም	-1826
▁ለማስ	-1827
36	-1828
▁ሺህ	-1829
ንካራ	-1830
▁ውኃ	-1831
ቶቻችሁ	-1832
ity	-1833
▁ማው	-1834
action	-1835
▁በመጨረሻ	-1836
ሃል	-1837
ችንን	-1838
▁አሁንም	-1839
ያል	-1840
▁ምሳሌ	-1841
▁ተንቀሳቃሽ	-1842
▁ፕሮጀ	-1843
▁በማድረግ	-1844
▁ከነ	-1845
ill	-1846
▁ተመሳሳይ	-1847
▁ግንኙነት	-1848
32	-1849
▁የይ	-1850
▁ፕላ	-1851
▁ሰላም	-1852
▁=	-1853
ታወ	-1854
ans	-1855
qu	-1856
ሰራ	-1857
ጦች	-1858
▁የምርት	-1859
▁በግ	-1860
▁ትእ	-1861
▁መልካ	-1862
▁ማንም	-1863
▁ዝቅተኛ	-1864
አቸው	-1865
ቤተ	-1866
▁በበ	-1867
▁የሚል	-1868
age	-1869
▁አዘ	-1870
▁አበባ	-1871
መለከተ	-1872
ርቅ	-1873
ጠቅ	-1874
▁ናቸው።	-1875
ce	-1876
▁ጃ	-1877
▁የመስመር	-1878
ሰጥ	-1879
ዳጅ	-1880
ፈሩ	-1881
▁መሪ	-1882
▁በእውነት	-1883
ዲት	-1884
ሊዝ	-1885
▁ሰር	-1886
▁ሙሴ	-1887
▁ሕዝቡ	-1888
ሯል	-1889
▁ማሸ	-1890
▁የተፈ	-1891
47	-1892
),	-1893
▁ተራራ	-1894
▁የተቀ	-1895
▁ጠቃ	-1896
▁ይፈልጋ	-1897
ርያ	-1898
መልከቱ	-1899
▁መነ	-1900
ኮኖ	-1901
▁መጥፎ	-1902
▁ልብስ	-1903
ain	-1904
ውቃ	-1905
▁ሃይማኖ	-1906
በብ	-1907
ወደ	-1908
▁ቅዱስ	-1909
▁ከእኔ	-1910
▁y	-1911
ጋና	-1912
▁ያመኑ	-1913
ደርጉ	-1914
ምኑ	-1915
▁እግዚአብሔርን	-1916
▁በዚያም	-1917
▁የምታ	-1918
18	-1919
▁ጠንካራ	-1920
ጠሪያ	-1921
ሔራዊ	-1922
ጠን	-1923
ያዘ	-1924
ይድ	-1925
▁ዝግ	-1926
▁ወንዶች	-1927
▁የተሻለ	-1928
ሜን	-1929
▁ውሃ	-1930
="3.	-1931
▁የኢን	-1932
▁ስን	-1933
ጠነ	-1934
▁አዝ	-1935
▁እርምጃ	-1936
ሜራ	-1937
ey	-1938
▁ጠቃሚ	-1939
ረቡ	-1940
ደኛ	-1941
▁re	-1942
▁ባለቤት	-1943
እምና	-1944
ረጋግ	-1945
▁አራት	-1946
ድቅ	-1947
▁ግራ	-1948
▁መቆጣ	-1949
ይቱ	-1950
▁የጎ	-1951
▁ቶ	-1952
ራዊት	-1953
▁ሙሳ	-1954
ib	-1955
▁to	-1956
▁አድርጎ	-1957
ላው	-1958
▁ጆ	-1959
ምንት	-1960
ከታ	-1961
▁የኢትዮጵያ	-1962
▁መሥዋዕ	-1963
▁ከሁ	-1964
ም፤	-1965
▁ክርስቲ	-1966
መጡ	-1967
ለቲካ	-1968
▁ከአንተ	-1969
▁አስተዳደር	-1970
▁ሥርዓት	-1971
▁ከእኛ	-1972
ህር	-1973
▁ስብ	-1974
▁ኢሜይል	-1975
ዘተ	-1976
▁እባክ	-1977
▁Pro	-1978
ራኤል	-1979
▁በተለ	-1980
).	-1981
▁የፖ	-1982
▁አማካ	-1983
▁የተባ	-1984
ጣሉ	-1985
እክት	-1986
▁ሁል	-1987
▁የመን	-1988
▁አሸናፊ	-1989
ypt	-1990
▁ወደእ	-1991
▁2013	-1992
▁ርዕ	-1993
ቄት	-1994
▁እም	-1995
▁ድምፅ	-1996
ስል	-1997
ነዚህ	-1998
ቁት	-1999
ቃሉ	-2000
▁ለአላህ	-2001
▁ፍሬ	-2002
▁ባሪያ	-2003
▁ያቀር	-2004
▁ምርምር	-2005
▁አስተያየት	-2006
▁ምላ	-2007
ff	-2008
ችላ	-2009
▁መጠቀም	-2010
▁ዘር	-2011
▁የከ	-2012
▁በርሱ	-2013
የው	-2014
▁ችሎታ	-2015
ታል።	-2016
▁ፈጣን	-2017
▁በመጠቀም	-2018
▁መቅ	-2019
ከተሉ	-2020
▁Sh	-2021
▁ትንሽ	-2022
▁እናም	-2023
ak	-2024
▁ከሌ	-2025
▁Bitcoin	-2026
ለፍ	-2027
▁ወዘተ	-2028
67	-2029
▁ቴ	-2030
▁23	-2031
▁ማዋ	-2032
▁ንግድ	-2033
11	-2034
▁አጠቃላይ	-2035
ቶቹ	-2036
▁ኀ	-2037
ጠል	-2038
ነር	-2039
▁አስታውስ	-2040
ቀቅ	-2041
▁መግለጫ	-2042
▁ቦርሳ	-2043
ጎች	-2044
ort	-2045
rypt	-2046
ብረ	-2047
▁ውስ	-2048
▁ነፍስ	-2049
▁እርሷ	-2050
ብል	-2051
ናሽ	-2052
▁ለእነሱ	-2053
▁አድራሻ	-2054
በሉ	-2055
ጓል	-2056
▁x	-2057
▁ምልክ	-2058
gle	-2059
ካባቢ	-2060
▁28	-2061
▁ፈር	-2062
የሩሳሌም	-2063
ግዳ	-2064
▁አይች	-2065
ሞት	-2066
droid	-2067
mail	-2068
ሜል	-2069
ምረ	-2070
▁ምርጫ	-2071
ህንም	-2072
▁መፍት	-2073
▁ጨዋታ	-2074
▁3.	-2075
▁እምነት	-2076
ሮን	-2077
▁መዋ	-2078
▁በማለት	-2079
▁ምክር	-2080
▁ትኩ	-2081
▁እስራኤል	-2082
▁r	-2083
▁ስድ	-2084
▁በእኔ	-2085
ሊክ	-2086
▁ልት	-2087
▁በተጨማሪም	-2088
ሰር	-2089
▁ጥቂት	-2090
▁ጨምሮ	-2091
ጣሪ	-2092
ስር	-2093
▁የፋ	-2094
▁የእርስዎን	-2095
▁ጤና	-2096
▁ሂደት	-2097
▁በሆነ	-2098
▁የመጨረሻ	-2099
ev	-2100
▁ኮር	-2101
▁ተጠቃ	-2102
ደን	-2103
▁የሰው	-2104
ens	-2105
ውታ	-2106
ፕሮ	-2107
▁ጽሑ	-2108
▁ጥበቃ	-2109
▁ኑ	-2110
ነስተኛ	-2111
▁ብል	-2112
▁ኃይ	-2113
▁ሰዓ	-2114
▁Android	-2115
▁አየ	-2116
ፍን	-2117
ዳቸው	-2118
▁በሽ	-2119
ዞች	-2120
▁ድርጅት	-2121
ዳሚ	-2122
▁ጌ	-2123
ive	-2124
▁ነጥ	-2125
="1.	-2126
▁የማያ	-2127
▁capacitor	-2128
ያዙ	-2129
▁በከ	-2130
▁ጸጋ	-2131
▁በግል	-2132
▁በቅ	-2133
▁ተን	-2134
▁አንተም	-2135
ቀመጥ	-2136
ናው	-2137
ከተማ	-2138
▁ቅድ	-2139
ደግ	-2140
ጠይ	-2141
▁ከባድ	-2142
▁ስቴት	-2143
▁ወራት	-2144
▁አሜሪካ	-2145
ራሉ	-2146
እክ	-2147
▁ማዕከል	-2148
ኞችን	-2149
▁የነበሩ	-2150
››	-2151
▁ወጥ	-2152
▁በእርሱም	-2153
ሣኤ	-2154
ንተር	-2155
ያዣ	-2156
▁የዓለም	-2157
ly	-2158
▁ቢሆን	-2159
34	-2160
ED	-2161
▁ቁጥጥር	-2162
▁ገበያ	-2163
ረዱ	-2164
▁ለእኔ	-2165
ረገ	-2166
▁ሚስ	-2167
▁በስተቀር	-2168
pr	-2169
ሐይ	-2170
ባታ	-2171
▁©	-2172
ቀጥ	-2173
▁(2	-2174
▁መንፈስ	-2175
da	-2176
▁ሆነው	-2177
▁የጌታ	-2178
ኝ።	-2179
▁በመን	-2180
ቂቃ	-2181
▁ስሜ	-2182
▁የቪ	-2183
▁ከተሞች	-2184
▁የቆ	-2185
ለዋል	-2186
ሮታ	-2187
ኒት	-2188
▁ሰነ	-2189
▁የስራ	-2190
▁ቱ	-2191
▁ስብስ	-2192
▁ጠብ	-2193
ደገ	-2194
▁ብለው	-2195
▁ተናገ	-2196
ራሽ	-2197
▁ኾነ	-2198
▁ትዕዛዝ	-2199
ሽከር	-2200
▁እንኳን	-2201
▁ዳር	-2202
ርዱ	-2203
▁አክ	-2204
▁መኾኑን	-2205
▁አደረግ	-2206
▁በእስራኤል	-2207
99	-2208
ተኞቹ	-2209
▁ተነ	-2210
▁ጥናት	-2211
▁በውስጡ	-2212
▁በቅር	-2213
▁በመጣ	-2214
▁ያደረገ	-2215
▁በመጀመሪያ	-2216
ላችሁም	-2217
-5	-2218
▁ያንብ	-2219
38	-2220
ial	-2221
ዘዝ	-2222
▁ያንብቡ	-2223
ለደ	-2224
▁የመጀመሪያው	-2225
ውሮፓ	-2226
ድርጉ	-2227
▁መሓ	-2228
▁ለእግዚአብሔር	-2229
ማጭ	-2230
▁27	-2231
ile	-2232
▁አያው	-2233
ለበት	-2234
▁ፈተና	-2235
▁የዩ	-2236
ኔት	-2237
ዕቆ	-2238
▁ወዲ	-2239
▁ለወ	-2240
▁ጄ	-2241
ምፕ	-2242
▁ባለው	-2243
ራር	-2244
▁የኤሌክትሪክ	-2245
14	-2246
▁በሚያ	-2247
ወረደ	-2248
▁ሁልጊዜ	-2249
▁ንጹ	-2250
are	-2251
▁ነጭ	-2252
▁እንስ	-2253
▁ፈጽሞ	-2254
▁US	-2255
▁ሽፋን	-2256
▁አምስት	-2257
▁ሲል	-2258
ide	-2259
ዘጋጅ	-2260
▁የቁማር	-2261
▁አላቸው።	-2262
▁አቅም	-2263
ኑን	-2264
ዳር	-2265
ከተል	-2266
▁35	-2267
▁ይሄ	-2268
AR	-2269
ዚኖ	-2270
▁የጉ	-2271
ረታዊ	-2272
▁500	-2273
ass	-2274
▁ለእኛ	-2275
▁ባለቤቶች	-2276
▁ሳይንስ	-2277
▁መጀመሪያ	-2278
▁ያላቸውን	-2279
▁ንብረት	-2280
ell	-2281
መናዊ	-2282
="0.	-2283
ነም	-2284
ናወ	-2285
ከማ	-2286
▁ግድ	-2287
▁ገና	-2288
▁ለመቀ	-2289
erv	-2290
▁ማጥ	-2291
▁ክብር	-2292
ren	-2293
▁ይገኛል	-2294
▁ፌ	-2295
▁ጌታችን	-2296
ጫን	-2297
▁26	-2298
ገዋል	-2299
▁Forex	-2300
▁የቴክ	-2301
ንዳ	-2302
▁ቮልቴጅ	-2303
ገዱ	-2304
ሌክትሮ	-2305
▁አዛኝ	-2306
ተን	-2307
▁የኾኑ	-2308
በው	-2309
▁th	-2310
▁Sp	-2311
ማል	-2312
our	-2313
▁መገ	-2314
▁የሥራ	-2315
▁ምክንያቱም	-2316
ላቅ	-2317
▁ስሪት	-2318
ሴት	-2319
ራሚክ	-2320
▁በውስጧ	-2321
▁ብሔራዊ	-2322
able	-2323
▁ነበረ።	-2324
70	-2325
ገኘው	-2326
▁ሕያው	-2327
▁የእግዚአብሔርን	-2328
ጠበቀ	-2329
ment	-2330
▁ይሆናል።	-2331
▁ሰባት	-2332
ሰቦች	-2333
▁እነዚያን	-2334
▁2015	-2335
▁ይመልከቱ	-2336
▁ኃጢአት	-2337
eng	-2338
-8	-2339
ርቲ	-2340
▁አነስተኛ	-2341
▁ማስታወቂያ	-2342
ice	-2343
ወድ	-2344
▁ኤም	-2345
▁ብርቱ	-2346
ኝም	-2347
▁ኡ	-2348
በቃ	-2349
ont	-2350
▁ዱቄት	-2351
▁ገመድ	-2352
መናችሁ	-2353
▁እንደተ	-2354
ስጠት	-2355
▁የሚችል	-2356
IN	-2357
ሏል	-2358
ቀድ	-2359
▁ዞ	-2360
▁ቀይ	-2361
▁ትራ	-2362
▁ይኖ	-2363
▁ውሸ	-2364
▁አስደ	-2365
ዝቡ	-2366
ፈልግ	-2367
▁ድምጽ	-2368
▁ብጁ	-2369
ቶቻችን	-2370
▁ለሁ	-2371
▁ደረጃዎች	-2372
ዳሪ	-2373
▁አጠገብ	-2374
ላችኋ	-2375
▁ምንዳ	-2376
ect	-2377
▁ይከ	-2378
ናቸውን	-2379
▁መስጠት	-2380
97	-2381
▁የቅርብ	-2382
▁ፋይ	-2383
▁አማራጭ	-2384
ሎት	-2385
▁丨	-2386
▁ካዚኖ	-2387
oogle	-2388
ራይ	-2389
▁የውጭ	-2390
▁ኾኖ	-2391
▁ጥያቄዎች	-2392
▁አለን	-2393
ባይል	-2394
▁Pl	-2395
በራችሁ	-2396
▁PVC	-2397
▁ታዋቂ	-2398
▁ወዲያው	-2399
ሪስ	-2400
▁እነዚህን	-2401
ፈረ	-2402
ሻሻል	-2403
▁የሃ	-2404
▁ጥበበ	-2405
▁ይመጣ	-2406
ሞን	-2407
▁ሰጠ	-2408
▁ብጤ	-2409
▁ተዓ	-2410
▁ኒ	-2411
▁AP	-2412
▁መንግስት	-2413
ይወ	-2414
▁°	-2415
▁ቁርኣን	-2416
መሩ	-2417
▁ነበር፤	-2418
▁የነበሩት	-2419
ናን	-2420
▁ፍቅር	-2421
▁ማረጋገጫ	-2422
▁ኢዮ	-2423
▁ምንጭ	-2424
▁የሚሆን	-2425
▁ደህንነት	-2426
ጠኛ	-2427
▁ቁልፍ	-2428
ቀስ	-2429
indow	-2430
▁መሥዋዕት	-2431
▁ተደር	-2432
24	-2433
▁ተና	-2434
▁አደጋ	-2435
▁ክብደት	-2436
ጀራ	-2437
ራጮች	-2438
▁ሚሊዮን	-2439
መለሳ	-2440
ርስቲ	-2441
65	-2442
▁ይሰጣል	-2443
ነፍ	-2444
▁ደቂቃ	-2445
▁ቦታዎች	-2446
▁ወገን	-2447
▁ኢንዱስትሪ	-2448
▁ሶፍት	-2449
▁ችግ	-2450
ቦቻቸው	-2451
▁ኃላፊ	-2452
▁በትክ	-2453
1,	-2454
ብዳ	-2455
▁60	-2456
▁ዘዴ	-2457
▁ጥበብ	-2458
▁ምድርን	-2459
ቦችን	-2460
▁መስፈር	-2461
ስትና	-2462
▁ተቀማጭ	-2463
▁የገንዘብ	-2464
▁ተሸ	-2465
ite	-2466
sh	-2467
ላሳ	-2468
▁መከራ	-2469
oin	-2470
▁ሥል	-2471
▁€	-2472
▁ላክ	-2473
▁ተፈጥ	-2474
▁ጂ	-2475
▁ሥጋ	-2476
▁ፕሬ	-2477
ኮኖሚ	-2478
ባለ	-2479
ian	-2480
▁‹‹	-2481
▁አልለ	-2482
ies	-2483
▁00	-2484
▁ነህ	-2485
▁ሙቀት	-2486
▁ተብሎ	-2487
ገዙ	-2488
▁መሓሪ	-2489
ሳሽ	-2490
ናቂ	-2491
ውው	-2492
▁ማጣ	-2493
ባር	-2494
▁ደረ	-2495
▁for	-2496
▁በቀር	-2497
▁የምድር	-2498
ምረት	-2499
ናይት	-2500
▁መቆጣጠሪያ	-2501
SO	-2502
▁አቤቱ	-2503
▁ገደ	-2504
NC	-2505
ሊን	-2506
ይቱም	-2507
▁ይጠቀ	-2508
▁አቅርቦት	-2509
pp	-2510
▁ይታ	-2511
ጀት	-2512
▁ውጤት	-2513
for	-2514
▁መመ	-2515
▁መሸ	-2516
mp	-2517
ለመ	-2518
ሙን	-2519
▁ይስ	-2520
▁እርዳታ	-2521
28	-2522
▁እንግዲህ	-2523
ሳስ	-2524
ሳን	-2525
ew	-2526
▁ውድ	-2527
▁29	-2528
▁ለውጥ	-2529
▁የተከ	-2530
ቋቋም	-2531
ዕቆብ	-2532
ባቂ	-2533
ብዳቤ	-2534
▁4.	-2535
▁2014	-2536
▁መለዋወ	-2537
▁በአሁኑ	-2538
▁አልነበረ	-2539
በቅ	-2540
ባሉ	-2541
▁ባሕር	-2542
uc	-2543
ቲት	-2544
ዖን	-2545
▁የውሃ	-2546
ሪን	-2547
▁ዘመ	-2548
ባችሁ	-2549
ወቀ	-2550
▁ያካት	-2551
▁ሜትር	-2552
▁ዘመናዊ	-2553
▁ተጽ	-2554
▁ጦር	-2555
ወጥ	-2556
ንዶች	-2557
ንዶ	-2558
▁ማረ	-2559
▁ርዝ	-2560
▁የፀ	-2561
▁by	-2562
▁አውሮፕላን	-2563
▁መንግሥት	-2564
7.	-2565
ናይትድ	-2566
▁ፍላጎት	-2567
▁ነፋ	-2568
75	-2569
ች።	-2570
▁ቢሆንም	-2571
▁የፕላ	-2572
ቆም	-2573
ደረጋ	-2574
▁አግኝ	-2575
▁ክርስቶስ	-2576
ት።	-2577
▁ካሜራ	-2578
እምሮ	-2579
▁ኳ	-2580
▁ይጠይ	-2581
ልኝ	-2582
▁ጠፍ	-2583
▁ያመናችሁ	-2584
▁አገል	-2585
▁ጨዋታዎች	-2586
ክተር	-2587
ዎቹም	-2588
▁ለማሳ	-2589
▁በሌላ	-2590
her	-2591
ችም	-2592
▁የምግብ	-2593
ID	-2594
ንታ	-2595
ትንም	-2596
▁አገልግሎቶች	-2597
ከሩ	-2598
▁ከእርሱም	-2599
ሻው	-2600
ደርስ	-2601
▁የለው	-2602
:4	-2603
ሱም	-2604
አልና	-2605
ቴን	-2606
ear	-2607
▁የዋ	-2608
▁አውራ	-2609
▁ሳይሆን	-2610
-3	-2611
XL	-2612
▁ያድርጉ	-2613
ጅት	-2614
ልህ	-2615
yl	-2616
net	-2617
▁ያለን	-2618
▁ይነ	-2619
▁ከእነርሱም	-2620
▁የካዱት	-2621
▁እንደዚህ	-2622
▁ግምገማዎች	-2623
95	-2624
ለቱ	-2625
▁ተቃ	-2626
▁እንድት	-2627
▁ውርዶች	-2628
▁ጻ	-2629
በትም	-2630
▁ተስማሚ	-2631
▁አምራች	-2632
ሂብ	-2633
▁በትን	-2634
▁k	-2635
▁ረዳ	-2636
ውስ	-2637
▁ወገ	-2638
▁በምት	-2639
▁ይቻ	-2640
በረሰብ	-2641
▁በሰማያ	-2642
ሳሳ	-2643
▁ሆኖም	-2644
ወጡ	-2645
ከላከ	-2646
ወገድ	-2647
▁ውይ	-2648
▁ያዘ	-2649
▁ለመፍ	-2650
ቀጣ	-2651
ዘጋጀት	-2652
ጭት	-2653
▁~	-2654
22	-2655
ጠበቅ	-2656
▁ሰፊ	-2657
ስተኛ	-2658
▁አዋጅ	-2659
let	-2660
ኾነው	-2661
▁በፈ	-2662
▁100%	-2663
▁ከእርሷ	-2664
ፖር	-2665
ኛል	-2666
ፍሪካ	-2667
▁ደንበኞች	-2668
▁ለዘላለም	-2669
ጀመር	-2670
▁ቀጠ	-2671
▁ኤል	-2672
▁እስኪ	-2673
ክሬን	-2674
አይ	-2675
ለማት	-2676
▁ባለሙያ	-2677
▁የፓ	-2678
ባቸውን	-2679
▁የቅጂ	-2680
ጠኝ	-2681
ሠረተ	-2682
▁ነቢ	-2683
▁×	-2684
ያቸው	-2685
lo	-2686
▁ምስጋና	-2687
▁ይፈልጋሉ	-2688
▁አለቃ	-2689
▁መያዣ	-2690
▁ጥቅል	-2691
▁የተወሰነ	-2692
▁የባቡር	-2693
▁ጉዳዮች	-2694
ha	-2695
ER	-2696
▁ለሚያ	-2697
▁መሳሪያ	-2698
▁የኢሜይል	-2699
▁ለእነርሱም	-2700
ሉ፥	-2701
▁CO	-2702
▁ይሸ	-2703
▁ዓላማ	-2704
▁ሬ	-2705
ሮስ	-2706
▁ንቅ	-2707
▁ለዚህ	-2708
▁ማዋቀር	-2709
▁እነሱም	-2710
ፈን	-2711
ደረጃ	-2712
▁በምድርም	-2713
ሉ፤	-2714
ምሩ	-2715
ብቅ	-2716
▁የበረ	-2717
▁በድ	-2718
ለጋ	-2719
ንጉሡ	-2720
▁ተዋ	-2721
ኤም	-2722
ጭር	-2723
▁ዝርዝሮች	-2724
="4.	-2725
▁ዘውታ	-2726
▁ይግዙ	-2727
▁መኾ	-2728
▁አለቆች	-2729
▁የዚህ	-2730
▁2020	-2731
▁ትእዛዝ	-2732
▁ተቋም	-2733
:5	-2734
ጫወ	-2735
▁ሲያ	-2736
98	-2737
ጥረ	-2738
ud	-2739
ric	-2740
ርመን	-2741
▁ሰማ	-2742
▁ከታ	-2743
▁ድንጋ	-2744
▁አድርግ	-2745
▁ይቻላል	-2746
eg	-2747
▁መጡ	-2748
▁በማን	-2749
▁መግቢያ	-2750
▁ሁለተኛ	-2751
▁ተግባራዊ	-2752
▁ማለ	-2753
▁በዘ	-2754
▁ይላል።	-2755
ሁ።	-2756
ጠየ	-2757
ዴታ	-2758
▁ገቢ	-2759
▁Window	-2760
▁በእው	-2761
▁ጊዜ፥	-2762
▁(_	-2763
▁ተግባር	-2764
▁ጦ	-2765
▁ሰዎችን	-2766
▁ተቀባይ	-2767
US	-2768
ቲን	-2769
▁ነፍሶ	-2770
▁https	-2771
ሊያ	-2772
ino	-2773
ማዎች	-2774
▁ይመስ	-2775
▁እናንተም	-2776
▁መዛ	-2777
▁ጣዖ	-2778
ww	-2779
▁የእን	-2780
አል	-2781
▁የሚፈ	-2782
ርቶ	-2783
ሲያ	-2784
▁ያገኛ	-2785
▁ሰጥ	-2786
▁የላ	-2787
▁ተመል	-2788
zh	-2789
▁ማኅ	-2790
▁ሽል	-2791
▁መረብ	-2792
▁ቁሳዊ	-2793
▁ድርጅቶች	-2794
▁አራ	-2795
▁ከሰማይ	-2796
ber	-2797
ለን።	-2798
▁ያሉት	-2799
▁ሴራሚክ	-2800
የተ	-2801
ጅቶች	-2802
ላቸዋል	-2803
▁እኔን	-2804
▁የሚፈልጉ	-2805
ጫዋ	-2806
▁የምስ	-2807
ሎን	-2808
▁መቁ	-2809
ጥረት	-2810
▁ደንብ	-2811
▁ሰማያዊ	-2812
ሙት	-2813
▁ኮሚ	-2814
▁አዳዲስ	-2815
ፈለግ	-2816
▁ወጪ	-2817
ስቴ	-2818
www	-2819
▁ቫል	-2820
▁ኢንች	-2821
ተም	-2822
መንት	-2823
▁የምር	-2824
ከታተ	-2825
▁ትርጉም	-2826
▁መስፈርቶች	-2827
ወቁ	-2828
ፈለጉ	-2829
▁ስደ	-2830
▁መልኩ	-2831
▁ኾናችሁ	-2832
▁እንደሚያ	-2833
ሞላ	-2834
▁Tr	-2835
▁ሽያጭ	-2836
ሥር	-2837
ኒያ	-2838
ዱም	-2839
ፍሬ	-2840
▁ተፈ	-2841
▁ለመግ	-2842
▁Ar	-2843
▁ፍር	-2844
▁ምዕራ	-2845
▁ነበሩ።	-2846
▁iPhone	-2847
▁ማሽ	-2848
▁ነጠላ	-2849
▁አልነ	-2850
ሐሴ	-2851
ሮቹ	-2852
▁ዚ	-2853
▁ሽቦ	-2854
ype	-2855
ድረስ	-2856
▁ለሕ	-2857
▁መሳሪያዎች	-2858
ቀዝ	-2859
ost	-2860
▁Bl	-2861
▁ይቆ	-2862
▁ሁሉ፥	-2863
▁ቢያ	-2864
▁አገሮች	-2865
አዊ	-2866
▁Ad	-2867
▁ስጦ	-2868
▁እርግ	-2869
▁ያንን	-2870
▁አባላት	-2871
▁የብረት	-2872
ሰን	-2873
ሳቁ	-2874
ና፥	-2875
▁ፖሊሲ	-2876
▁ባት	-2877
▁የኢንዱስትሪ	-2878
ዕኖ	-2879
▁በእጅ	-2880
▁Google	-2881
▁ዘይት	-2882
ቀል	-2883
▁ቺ	-2884
▁እንዲህም	-2885
ጽሐፉ	-2886
▁መሬት	-2887
▁ዳዊት	-2888
ros	-2889
ለር	-2890
▁ኮሌ	-2891
▁ብዛት	-2892
ሳል	-2893
ust	-2894
ገራ	-2895
▁የሲ	-2896
▁ይፈ	-2897
▁ደም	-2898
▁ያቀርባል	-2899
▁ጽሑፍ	-2900
▁ቡድ	-2901
ዳደር	-2902
▁Am	-2903
▁ማስረጃ	-2904
▁ጠቅላላ	-2905
▁እንደገና	-2906
▁በተመለከተ	-2907
▁በማስ	-2908
▁አፍሪካ	-2909
ዋት	-2910
▁የሁ	-2911
ታሉ	-2912
▁ከን	-2913
69	-2914
ስተር	-2915
▁ይዞ	-2916
▁ከሓዲዎች	-2917
-4	-2918
▁ሄደ	-2919
▁አባት	-2920
▁በህ	-2921
▁ይበ	-2922
▁የሠራ	-2923
▁መተግበሪያ	-2924
ባኤ	-2925
per	-2926
ቻዎች	-2927
▁ማሳያ	-2928
▁ሙከራ	-2929
▁ፋይል	-2930
ቻይና	-2931
▁ስርዓ	-2932
▁ጠላ	-2933
ዎቻቸው	-2934
▁ፍጹም	-2935
▁የፕላስቲክ	-2936
ሙር	-2937
▁ደን	-2938
85	-2939
▁HVC	-2940
▁በትክክል	-2941
▁ስህ	-2942
▁ወስ	-2943
▁አሳል	-2944
▁የሚሻ	-2945
▁ቀጥተኛ	-2946
ሳሰ	-2947
ኖረው	-2948
▁ይቅር	-2949
ረቃ	-2950
ጣዊ	-2951
ash	-2952
▁ፕሮግራሞች	-2953
ጻጸ	-2954
ዋጭ	-2955
ዌብ	-2956
▁ራስ	-2957
▁ኋላ	-2958
▁መልዕ	-2959
▁ምንድን	-2960
▁ወዲያ	-2961
▁ለእነዚያ	-2962
▁መና	-2963
ug	-2964
▁በአን	-2965
▁ያደርጋል	-2966
▁ሰኔ	-2967
▁ከኢ	-2968
▁ያውቃል	-2969
▁በዙ	-2970
ክሲ	-2971
ዘዙ	-2972
ውልድ	-2973
▁ተሰጥ	-2974
▁ስልጠና	-2975
AN	-2976
▁ሣ	-2977
ምላክ	-2978
▁LED	-2979
▁ሶፍትዌር	-2980
ቻለም	-2981
▁በዩ	-2982
ቀና	-2983
▁አመሰ	-2984
▁ዕቃዎች	-2985
AS	-2986
▁ሜባ	-2987
▁ሰብ	-2988
▁ተገቢ	-2989
▁የሚቆ	-2990
▁ውጤታማ	-2991
AC	-2992
▁ምርመራ	-2993
▁በቀላሉ	-2994
ech	-2995
▁Ning	-2996
▁የስልክ	-2997
ጋዊ	-2998
▁የሻ	-2999
▁የመኪና	-3000
oft	-3001
▁ሳለ	-3002
▁ታይ	-3003
ራው	-3004
ደሉ	-3005
▁የጤና	-3006
▁ወዲያውኑ	-3007
ስትራ	-3008
ኖስ	-3009
ከፋ	-3010
▁90	-3011
▁እጆ	-3012
▁አምላካ	-3013
▁አገና	-3014
▁የድር	-3015
▁እርሱን	-3016
▁አለባቸው	-3017
ነዚያም	-3018
▁Fre	-3019
▁አሕዛብ	-3020
ባሪ	-3021
ገረ	-3022
▁ባይ	-3023
▁2012	-3024
▁መሰረት	-3025
▁En	-3026
▁የሚታ	-3027
መቱ	-3028
▁አስተያየ	-3029
▁ማህበራዊ	-3030
ግሪ	-3031
▁ቁሳቁ	-3032
▁ብቃት	-3033
▁በነገሩ	-3034
▁ከስ	-3035
▁የን	-3036
▁ጠባቂ	-3037
▁ምልክቶች	-3038
ታም	-3039
ናዊ	-3040
ዎቹን	-3041
▁ቪዛ	-3042
ጉር	-3043
▁ፍሩ	-3044
▁ክስተ	-3045
31	-3046
ንጫ	-3047
ቀርባ	-3048
39	-3049
▁እግ	-3050
ener	-3051
▁CNC	-3052
77	-3053
ሞችን	-3054
▁ማወቅ	-3055
▁እባክዎ	-3056
ኗል	-3057
ቃይ	-3058
▁ካህ	-3059
▁ሁለቱም	-3060
lot	-3061
▁በግልጽ	-3062
ጀል	-3063
▁ዛፍ	-3064
▁በተመ	-3065
end	-3066
▁ቸ	-3067
▁ሚዛ	-3068
▁ዲዛ	-3069
▁የሕክምና	-3070
▁በመቶ	-3071
▁በእነሱ	-3072
▁ቅናሽ	-3073
ክብ	-3074
ረንጓ	-3075
▁በብ	-3076
▁ችሮታ	-3077
ሪቱ	-3078
ዝና	-3079
▁ለስ	-3080
▁የሚገኙ	-3081
▁ጌታህ	-3082
መለከቱ	-3083
▁ፕሮጀክት	-3084
ish	-3085
▁ንብር	-3086
▁አወረ	-3087
ለች።	-3088
▁ነጋ	-3089
▁አድርገው	-3090
ዘው	-3091
ንዲ	-3092
ላቸውን	-3093
ረንጓዴ	-3094
▁አባል	-3095
▁ስብሰባ	-3096
▁ስቴትስ	-3097
68	-3098
ሳኔ	-3099
▁ኛ	-3100
▁የዳ	-3101
▁ፓርቲ	-3102
ሥታት	-3103
▁32	-3104
▁ይልቁ	-3105
▁በቁ	-3106
▁በኾነ	-3107
▁ምላሽ	-3108
▁ይዘት	-3109
ግን	-3110
ኒየም	-3111
▁መጻ	-3112
▁በመካከላቸው	-3113
▁በሃ	-3114
▁በኃ	-3115
▁የጨ	-3116
▁ተቋማት	-3117
▁ከሕ	-3118
ርን	-3119
▁ተጋ	-3120
▁ጋዜ	-3121
100	-3122
▁ገጾች	-3123
▁ድንጋይ	-3124
AD	-3125
መጥ	-3126
ካሄ	-3127
ሀነም	-3128
ደሪያ	-3129
▁ደብዳቤ	-3130
ቀቁ	-3131
ናዳ	-3132
ውቁ	-3133
▁ጕ	-3134
▁ይሆን	-3135
▁ባህሪያ	-3136
ጁን	-3137
▁አንቀጽ	-3138
ፍረት	-3139
cy	-3140
ከረም	-3141
ግብፅ	-3142
መልካች	-3143
ሏቸው	-3144
▁የድ	-3145
▁ያነ	-3146
▁ምናል	-3147
ሙና	-3148
▁ኳስ	-3149
▁የሳ	-3150
▁ከክ	-3151
▁ያላ	-3152
▁ቫልቭ	-3153
▁ጉዳት	-3154
▁መጋቢት	-3155
ዳም	-3156
▁ስለሚ	-3157
ቶፕ	-3158
▁ሊቀ	-3159
▁ምና	-3160
▁ሰማይ	-3161
ፓን	-3162
▁ገብ	-3163
▁ኡሁ	-3164
▁ማቅረብ	-3165
▁ሹ	-3166
▁ስሙ	-3167
▁የዕ	-3168
▁መድሃ	-3169
▁ስላ	-3170
▁አና	-3171
▁የዲ	-3172
ox	-3173
ንቲ	-3174
▁ወርቅ	-3175
▁ስብስብ	-3176
ኮል	-3177
▁እራ	-3178
ካዊ	-3179
out	-3180
ዎታል	-3181
ቸዋለን	-3182
ላለሁ	-3183
▁የሠ	-3184
▁ጥን	-3185
▁ናችሁ	-3186
▁ፕላስቲክ	-3187
ረንሳይ	-3188
▁crypt	-3189
▁የአካባቢ	-3190
▁ካፒ	-3191
▁ታውቃ	-3192
ማግ	-3193
har	-3194
▁ሞተ	-3195
▁ሚስት	-3196
▁ምስክር	-3197
27	-3198
▁ነሐሴ	-3199
ስቡ	-3200
▁ጡ	-3201
▁5.	-3202
▁አብዛኛ	-3203
ቧን	-3204
▁ከፋ	-3205
▁ከው	-3206
▁ርዝመት	-3207
ድጓ	-3208
ፍና	-3209
ደሰ	-3210
▁ሎ	-3211
▁ይችላል።	-3212
rom	-3213
ier	-3214
ram	-3215
▁አማር	-3216
▁ለምሳሌ	-3217
▁ትኩረት	-3218
▁Windows	-3219
ቡን	-3220
▁ማግ	-3221
▁ይፋ	-3222
▁ጓደ	-3223
▁Ningbo	-3224
-6	-3225
ቃፊ	-3226
ዶችን	-3227
cm	-3228
▁ለል	-3229
ስክሌት	-3230
▁APK	-3231
▁ጥቅምት	-3232
ሞቹ	-3233
▁ተራ	-3234
▁ተኳ	-3235
▁ልጥፍ	-3236
ገጃ	-3237
de	-3238
▁ዝና	-3239
▁ልምድ	-3240
▁2010	-3241
▁አስተያየቶች	-3242
ስተዋ	-3243
ያንም	-3244
▁አለመ	-3245
▁ከእግዚአብሔር	-3246
OS	-3247
ደጋ	-3248
ጢኣ	-3249
▁እነዚያንም	-3250
▁ጥላ	-3251
▁ቀደም	-3252
ብኝት	-3253
asino	-3254
ውተር	-3255
▁ሰራ	-3256
ሳቸውን	-3257
▁ምሕረት	-3258
▁e	-3259
▁ይው	-3260
▁እንዳለ	-3261
ፈተ	-3262
ውሎ	-3263
ብራሂ	-3264
▁በብዙ	-3265
▁ቅጥ	-3266
መደ	-3267
ነል	-3268
ገሰ	-3269
▁ክንድ	-3270
▁ኣ	-3271
▁የሚወ	-3272
▁በትንሣኤ	-3273
ቀሩ	-3274
ኮት	-3275
ዝገብ	-3276
▁ለሌ	-3277
ከላከያ	-3278
▁ተጫዋ	-3279
▁ክርስቲያን	-3280
▁በዕ	-3281
▁አቤቱ፥	-3282
▁በእርስዎ	-3283
▁መገና	-3284
ጠቀሙ	-3285
▁ሞት	-3286
▁መመለ	-3287
▁ጥንካ	-3288
ተናል	-3289
▁ነበረ፤	-3290
▁(1	-3291
▁ከጥ	-3292
org	-3293
▁ብዬ	-3294
▁ካለ	-3295
ጢአት	-3296
▁ድንኳ	-3297
▁አይደሉም	-3298
2"	-3299
26	-3300
▁ብላ	-3301
▁በአላህም	-3302
ET	-3303
ታውቁ	-3304
▁ሕን	-3305
ሪንግ	-3306
▁አማርኛ	-3307
▁አላህንም	-3308
▁የቴክኒክ	-3309
አት	-3310
▁መቼ	-3311
በደ	-3312
▁ሰባ	-3313
▁በቂ	-3314
▁ዘንድ፥	-3315
ጋሚ	-3316
ፉን	-3317
▁መዳ	-3318
▁በዋ	-3319
▁ውጤቶች	-3320
ረከ	-3321
ሳችሁ	-3322
ከንዶች	-3323
▁Hol	-3324
▁ጥገና	-3325
ነበ	-3326
▁ማሰ	-3327
▁የፊ	-3328
መልከቻ	-3329
▁ግዛት	-3330
▁አጠቃቀም	-3331
2"&	-3332
▁ብታ	-3333
ቃጠ	-3334
ኮር	-3335
ደስ	-3336
ጎብ	-3337
own	-3338
▁አውታ	-3339
ml	-3340
::	-3341
▁ተቀም	-3342
ደነ	-3343
በረታ	-3344
▁ግለ	-3345
▁እርሱም።	-3346
ለኛው	-3347
▁ስሜት	-3348
▁ነው፥	-3349
▁ንጹሕ	-3350
ደረሰ	-3351
ቦቹ	-3352
;&	-3353
ክቶች	-3354
ርስቶስ	-3355
ال	-3356
ምሌ	-3357
ዳሉ	-3358
▁No	-3359
▁ጎን	-3360
▁በመል	-3361
▁ዋስትና	-3362
ደራ	-3363
ጴጥ	-3364
▁80	-3365
▁መድረክ	-3366
▁አይደለም።	-3367
ai	-3368
ሁድ	-3369
ፋል	-3370
▁ኤስ	-3371
ምራል	-3372
▁እኛን	-3373
ላችሁ።	-3374
ከተሉት	-3375
▁ግንባታ	-3376
PS	-3377
ፈጥሮ	-3378
▁ቦርድ	-3379
ሰጣ	-3380
ያም	-3381
ፈጠር	-3382
▁150	-3383
▁ማረፊያ	-3384
pl	-3385
ቢቱ	-3386
▁ሰከንዶች	-3387
ሊዝኛ	-3388
ገቢያ	-3389
▁በቀን	-3390
▁ይባላሉ	-3391
▁አረንጓዴ	-3392
▁ገንዘ	-3393
ረግ	-3394
▁ግንቦት	-3395
ሆና	-3396
ራችሁ	-3397
▁አውሮፓ	-3398
▁ዘውታሪዎች	-3399
▁የፖለቲካ	-3400
▁አሲ	-3401
▁ጥሪ	-3402
▁Eth	-3403
▁ሪፖርት	-3404
▁ውይይት	-3405
ሐንስ	-3406
lect	-3407
▁በጉ	-3408
aceb	-3409
▁ማየት	-3410
▁አልሉ	-3411
▁እንዲሆን	-3412
▁ለአንተ	-3413
ሃት	-3414
▁ቆይ	-3415
▁ቺፕ	-3416
▁ግፊት	-3417
ገም	-3418
ናቸውም	-3419
▁አስቸ	-3420
▁መብቶች	-3421
▁።	-3422
▁1,	-3423
3"	-3424
ne	-3425
▁EA	-3426
▁ለናንተ	-3427
▁በዚህም	-3428
▁መስከረም	-3429
ሀት	-3430
ዚቃ	-3431
▁ክር	-3432
▁በከፍተኛ	-3433
ማስ	-3434
ore	-3435
▁ኢያ	-3436
▁ምሕረ	-3437
▁ወሰን	-3438
ጣጫ	-3439
▁ዲግሪ	-3440
▁አይችልም	-3441
▁የአላህን	-3442
▁ምት	-3443
▁ሳምን	-3444
▁በነፍ	-3445
▁መንገዶች	-3446
ረኛ	-3447
ማቸው	-3448
▁አሉ።	-3449
▁ውሳኔ	-3450
▁የጋራ	-3451
▁ጊዜም	-3452
▁ሠራተኞች	-3453
▁ከዓ	-3454
▁ይወስ	-3455
urren	-3456
sy	-3457
ምት	-3458
ቨስት	-3459
▁አዲ	-3460
ሞክራሲ	-3461
እምናን	-3462
▁አመጸ	-3463
▁ዋናው	-3464
▁የፕሮ	-3465
▁ስድስት	-3466
▁ቅንጅቶች	-3467
ለጥ	-3468
ግምት	-3469
▁ርዕስ	-3470
▁አስቀ	-3471
▁ወለደ	-3472
▁አስተማማ	-3473
ስሊ	-3474
4"&	-3475
▁መውሰድ	-3476
▁አዘጋጅ	-3477
48	-3478
3"&	-3479
▁CS	-3480
▁ቻይ	-3481
▁ሳጥን	-3482
▁አሥራ	-3483
▁ዕድሜ	-3484
▁ጥንካሬ	-3485
▁በካ	-3486
▁ንቁ	-3487
▁በእሳት	-3488
▁እነሱን	-3489
▁ከዚህም	-3490
▁የኾነን	-3491
ቴል	-3492
ገናኙ	-3493
▁ከሚያ	-3494
▁ወደፊት	-3495
▁ያስፈልጋ	-3496
▁ያካትታል	-3497
▁ወሬ	-3498
se	-3499
ver	-3500
ቦን	-3501
▁=&	-3502
ሙያዎች	-3503
▁በላጭ	-3504
▁መምሪያ	-3505
▁በአንተ	-3506
ረጋገጠ	-3507
▁የአሜሪካን	-3508
ዝገባ	-3509
▁የምስክር	-3510
▁Al	-3511
▁አወ	-3512
▁ሌላን	-3513
▁ጥበበኛ	-3514
ላለፍ	-3515
▁Mar	-3516
▁ዳርቻ	-3517
acebook	-3518
ክልት	-3519
▁ቋሚ	-3520
▁በቀጥታ	-3521
ወሻ	-3522
▁ዕውቀት	-3523
ቀሳ	-3524
ይድሮ	-3525
▁የሽያጭ	-3526
ቧንቧ	-3527
▁ሀብት	-3528
▁ክፍት	-3529
▁አመጣ	-3530
▁በፍጥነት	-3531
▁የሚጠ	-3532
▁ድርጊ	-3533
io	-3534
▁ኤክስ	-3535
ካሪዎች	-3536
▁ረጅም	-3537
ocurren	-3538
ንነት	-3539
▁ደራሲ	-3540
▁እንጀራ	-3541
ዊት	-3542
▁ሃይማኖት	-3543
▁በሁሉም	-3544
ax	-3545
▁ቀር	-3546
▁መፍትሔ	-3547
',	-3548
ith	-3549
ያንስ	-3550
▁ባህሪያት	-3551
▁Un	-3552
▁ነጥብ	-3553
▁ተጠቃሚዎች	-3554
▁አማካኝነት	-3555
▁ሰም	-3556
ገልግሎ	-3557
▁Serv	-3558
▁አንቀጾች	-3559
▁መነሻ	-3560
▁ሁኔታዎች	-3561
▁ጭፍ	-3562
▁የአል	-3563
▁ንግግር	-3564
▁የእርሱ	-3565
▁አመሰግና	-3566
▁ማህበረሰብ	-3567
4"	-3568
መልክ	-3569
▁እስከሚ	-3570
att	-3571
ated	-3572
▁ያገለ	-3573
▁ከሰዓት	-3574
▁የፈጠራ	-3575
▁ይልቁንም	-3576
af	-3577
ፕሬ	-3578
ቀርቡ	-3579
▁ያዝ	-3580
▁ፍለጋ	-3581
▁በዚያን	-3582
▁በእውነቱ	-3583
▁ድል	-3584
▁ዶሴ	-3585
▁ጴጥ	-3586
ግባብ	-3587
▁የመንግ	-3588
ቂት	-3589
iop	-3590
ቻችሁን	-3591
ጠቃላይ	-3592
66	-3593
ማዊ	-3594
ሰሙ	-3595
ሸት	-3596
▁ይኖር	-3597
▁ደስታ	-3598
ጠረው	-3599
▁ዲዛይን	-3600
▁በኤ	-3601
▁የሴ	-3602
▁ድረ	-3603
▁አገኘ	-3604
87	-3605
IC	-3606
▁ልታ	-3607
ርዳ	-3608
ame	-3609
▁ቤቱ	-3610
ST	-3611
ልጣ	-3612
ንቅ	-3613
ከናወ	-3614
ግባር	-3615
▁መቆ	-3616
የአ	-3617
▁ፍት	-3618
▁ልውው	-3619
▁ማዕከ	-3620
▁ከላይ	-3621
ለህ።	-3622
ፈጸም	-3623
▁መልሶ	-3624
ረጋገጥ	-3625
▁ወንዝ	-3626
ስብ	-3627
▁70	-3628
መም	-3629
ከላከል	-3630
▁አስማሚ	-3631
ኛውንም	-3632
ዬን	-3633
▁ሌሊት	-3634
▁ነጋዴ	-3635
▁ክለ	-3636
▁ሀገር	-3637
▁ያደር	-3638
▁1000	-3639
▁እውቀት	-3640
▁is	-3641
▁ይናገ	-3642
▁የካቲት	-3643
▁ለእርሱም	-3644
▁ለማየት	-3645
▁ዳዊትም	-3646
AT	-3647
ማግሌ	-3648
▁ሕፃ	-3649
ions	-3650
▁ፓነል	-3651
▁ስትራ	-3652
▁በድን	-3653
ቶን	-3654
▁ISO	-3655
▁ባቡር	-3656
29	-3657
▁ቀጠሮ	-3658
▁ትልቁ	-3659
▁ኮን	-3660
▁የምና	-3661
▁ስህተት	-3662
▁በመሆኑ	-3663
▁ባለሙያዎች	-3664
ህወ	-3665
ላን	-3666
ኒክስ	-3667
▁Mic	-3668
▁መካከ	-3669
▁ተሳ	-3670
▁አሞ	-3671
▁አሮ	-3672
▁ትክክል	-3673
▁ትውልድ	-3674
▁ንጉሡም	-3675
uct	-3676
ባቸዋል	-3677
▁ሚኒስት	-3678
aj	-3679
▁መሐ	-3680
▁መስፈ	-3681
▁በራስ	-3682
ለኞች	-3683
▁31	-3684
▁300	-3685
ry	-3686
ረዳት	-3687
▁የጠ	-3688
▁ፍል	-3689
ንባ	-3690
ቀሚያ	-3691
ጣችሁ	-3692
▁ርስ	-3693
▁ከቀ	-3694
▁የቤተ	-3695
▁የለውም	-3696
ማው	-3697
ጻጸም	-3698
▁on	-3699
▁ሀብ	-3700
▁ማሸግ	-3701
▁እንዳል	-3702
ን።	-3703
-10	-3704
ire	-3705
▁co	-3706
▁የጣ	-3707
▁ተነሥ	-3708
▁ለሁሉም	-3709
ጌል	-3710
▁መመለሻ	-3711
▁አንቀጾ	-3712
▁አንዲት	-3713
▁የቀረበ	-3714
▁ስምምነት	-3715
▁እኩል	-3716
▁የባለ	-3717
▁በማንኛውም	-3718
▁ከእስራኤል	-3719
ወና	-3720
1"	-3721
▁ስዕ	-3722
▁ጫማ	-3723
rain	-3724
▁ገነት	-3725
▁የማይዝግ	-3726
ጓጓ	-3727
▁የላቀ	-3728
▁ፈጠራ	-3729
▁አሳማሚ	-3730
ጨመር	-3731
▁(5	-3732
▁ያም	-3733
▁በማሳ	-3734
▁አልባ	-3735
▁ኮሌጅ	-3736
▁Holm	-3737
▁አገልጋይ	-3738
ks	-3739
ዋሪ	-3740
ለሁና	-3741
ያውያን	-3742
ሱት	-3743
▁ከርሱ	-3744
▁ያልሆነ	-3745
ማኔ	-3746
▁መተግበሪያዎች	-3747
ጻፈ	-3748
ዎችና	-3749
▁የሚመ	-3750
▁የሚሸ	-3751
▁ግብር	-3752
▁ግድግዳ	-3753
ቀቀ	-3754
ord	-3755
ult	-3756
▁ገበ	-3757
▁ማመልከቻ	-3758
▁ማይ	-3759
▁ንባብ	-3760
▁እንዳት	-3761
▁የምንዛሬ	-3762
ሁት	-3763
ማሽ	-3764
▁ስፖርት	-3765
ራም	-3766
▁45	-3767
ላኩ	-3768
▁ስፋት	-3769
▁ለእስራኤል	-3770
ካን	-3771
ክሮ	-3772
▁ይተ	-3773
▁መልአ	-3774
oy	-3775
▁ሩሌት	-3776
▁አማልክት	-3777
ላስ	-3778
ጠቢያ	-3779
▁ክህ	-3780
▁ረዳት	-3781
▁ዓይኖ	-3782
▁የእሳት	-3783
ገበ	-3784
▁አስፈራ	-3785
▁አስደናቂ	-3786
ዳይ	-3787
ጅምላ	-3788
/201	-3789
▁ያሉትን	-3790
ዛቸው	-3791
ገንባት	-3792
ሳው	-3793
ፍል	-3794
ሠሩትን	-3795
▁ጊ	-3796
▁አህ	-3797
▁የተለጠ	-3798
▁ለእናንተም	-3799
ቅን	-3800
ጥም	-3801
ዋንም	-3802
▁ኢሜል	-3803
▁ደቡብ	-3804
▁በቃ	-3805
▁ብሉ	-3806
▁ውሂብ	-3807
▁ጣቢያዎች	-3808
ቀርብ	-3809
▁ጥሬ	-3810
▁የዌብ	-3811
▁አስቀም	-3812
ቴጂ	-3813
ገባው	-3814
▁ይሆና	-3815
ሁ፥	-3816
ጋን	-3817
▁The	-3818
▁መስመ	-3819
▁ታዲያ	-3820
▁ይረዳ	-3821
▁የሞተር	-3822
▁የተነሣ	-3823
▁እናቀርባ	-3824
3)	-3825
ደድ	-3826
ጥል	-3827
▁መደ	-3828
▁የሸ	-3829
ባቸውም	-3830
ረጡ	-3831
▁ሾ	-3832
▁ከል	-3833
▁ገባ	-3834
ave	-3835
▁በአየር	-3836
ንደ	-3837
ors	-3838
ደረገው	-3839
▁ምክሮች	-3840
▁አደረግን	-3841
▁እግር	-3842
▁ኮምፒ	-3843
▁ምናልባት	-3844
▁የሆነውን	-3845
ማሪዎች	-3846
▁ይጠይቁ	-3847
ክም	-3848
▁ጳ	-3849
ናል።	-3850
▁ደህና	-3851
▁አሉት።	-3852
ብዛ	-3853
▁Re	-3854
▁የተመረ	-3855
▁ለመፍጠር	-3856
▁ማያ	-3857
▁ቢሮ	-3858
▁ፕሮፌ	-3859
▁ጉብኝት	-3860
▁ቍርባ	-3861
▁ማስታወሻ	-3862
▁ch	-3863
▁ተኳሃ	-3864
4)	-3865
88	-3866
ታደ	-3867
▁AC	-3868
▁ይጨ	-3869
▁የኬ	-3870
ፍር	-3871
▁ለባ	-3872
▁የመጣ	-3873
▁የከተማ	-3874
▁Ex	-3875
▁በሀ	-3876
▁ጥረት	-3877
▁አስተዋ	-3878
ure	-3879
▁ቱቦ	-3880
▁ፀረ	-3881
▁ርቀት	-3882
▁ዓይን	-3883
▁ፈሳሽ	-3884
▁ሳምንት	-3885
ሰስ	-3886
ግሩ	-3887
ሉትን	-3888
▁የካዱ	-3889
▁ለሰዎች	-3890
ገስ	-3891
rop	-3892
load	-3893
▁ነቢያ	-3894
▁ኩባንያዎች	-3895
ውና	-3896
▁6.	-3897
▁ሰሚ	-3898
▁የሩ	-3899
▁አውታረ	-3900
ext	-3901
▁ባሉ	-3902
▁ቁማር	-3903
▁አያስ	-3904
ቴም	-3905
▁አደረጉ	-3906
ስቱ	-3907
▁ኹ	-3908
▁ቅርጽ	-3909
ረክ	-3910
ሰጡ	-3911
ድና	-3912
ጠበቁ	-3913
▁ብሩ	-3914
▁ካም	-3915
▁ጋዝ	-3916
▁መፍጠር	-3917
cl	-3918
▁የሐ	-3919
▁you	-3920
▁የተዋ	-3921
▁ፓምፕ	-3922
▁ከምድር	-3923
▁የተጠበቀ	-3924
ጂን	-3925
rad	-3926
▁ታች	-3927
▁ብራ	-3928
▁የተመሰ	-3929
ው።	-3930
በታል	-3931
▁ጫፍ	-3932
type	-3933
▁Off	-3934
ለቆ	-3935
ካተ	-3936
ላል።	-3937
▁አመሰግናለሁ	-3938
ሌዳ	-3939
ሜትር	-3940
▁የተወ	-3941
▁መለያዎች	-3942
▁ከአላህም	-3943
ON	-3944
▁ዒ	-3945
▁Sc	-3946
▁አድርገ	-3947
ሞክሮ	-3948
ተሮች	-3949
▁ያዙ	-3950
▁ዕቅድ	-3951
▁ጌታችሁ	-3952
ለቅ	-3953
ሳቦች	-3954
ዳንት	-3955
▁ይጀ	-3956
▁ደጋ	-3957
▁USD	-3958
ጅን	-3959
eed	-3960
▁ለራ	-3961
▁ታስ	-3962
▁ወንዞች	-3963
▁ቋንቋዎች	-3964
ጊዎች	-3965
▁ሳኦ	-3966
▁ኤሌክትሪክ	-3967
▁የጽ	-3968
▁በመስ	-3969
በለ	-3970
ታቸውም	-3971
▁መጽ	-3972
▁ቃላት	-3973
▁አውቶ	-3974
▁በሞ	-3975
▁ቡድኖች	-3976
ue	-3977
جل	-3978
ርማ	-3979
ach	-3980
▁ኪዳ	-3981
ሮቻቸው	-3982
▁ተመልከት	-3983
▁እይታ	-3984
▁ይሠራ	-3985
▁ችግሮች	-3986
በተ	-3987
ቀመጡ	-3988
▁ብክ	-3989
▁እቃ	-3990
▁ያወጣ	-3991
▁በእነርሱም	-3992
▁አስተማማኝ	-3993
▁ላከ	-3994
▁አማራጮች	-3995
ስቶች	-3996
ያውቁ	-3997
▁በሁለ	-3998
▁አድርጓል	-3999
55	-4000
ሄዱ	-4001
ለቀ	-4002
▁በሻ	-4003
▁ዲያ	-4004
▁ተኳሃኝ	-4005
ባበር	-4006
▁ከዘ	-4007
▁የጸ	-4008
ይማኖት	-4009
▁መፍትሄ	-4010
▁በዙሪያ	-4011
▁ባለብዙ	-4012
▁በነበሩት	-4013
ችውን	-4014
ኒቨርሲቲ	-4015
▁ተደርጓል	-4016
▁በተመሳሳይ	-4017
▁በጽ	-4018
ከረ	-4019
ምራት	-4020
▁በጭ	-4021
▁ንብርብር	-4022
በስ	-4023
▁በተለይ	-4024
▁ነው፡፡	-4025
▁የፀሐይ	-4026
▁በሕይወት	-4027
▁እናቀርባለን	-4028
ሰሩ	-4029
ያሉ	-4030
▁፪	-4031
ቃቸው	-4032
▁ቁቃፊ	-4033
▁ተሞክሮ	-4034
ዩም	-4035
▁በኾኑ	-4036
▁የደህንነት	-4037
ብብር	-4038
▁Fl	-4039
▁ነበርና	-4040
▁ቁሳቁሶች	-4041
▁ይምረ	-4042
▁ሌሊ	-4043
▁በጨ	-4044
6"	-4045
ፍያ	-4046
▁ነውን	-4047
▁የሚሻውን	-4048
▁የወደ	-4049
▁ሽልማት	-4050
▁የሚችሉ	-4051
▁ጥቅሞች	-4052
ነካ	-4053
▁ከብ	-4054
▁ተፈጥሯል	-4055
▁Facebook	-4056
anu	-4057
iew	-4058
▁ተል	-4059
▁Play	-4060
▁ስትራቴጂ	-4061
▁የነበሩትን	-4062
▁ባንክ	-4063
9"	-4064
ሎቹ	-4065
ዖንም	-4066
▁አያውቁም	-4067
cc	-4068
LE	-4069
ይነት	-4070
▁ወዮ	-4071
ikoo	-4072
▁ስጦታ	-4073
▁አጠፋ	-4074
▁አይገባ	-4075
▁ያልሆኑ	-4076
▁j	-4077
▁ፊልም	-4078
ንሲ	-4079
ክሉ	-4080
-200	-4081
▁የወይን	-4082
ማም	-4083
የመ	-4084
ያት	-4085
1"&	-4086
▁ይምረጡ	-4087
ጫወት	-4088
▁መረ	-4089
▁መዋቅር	-4090
▁የስፖርት	-4091
ase	-4092
ork	-4093
▁ውብ	-4094
▁የና	-4095
▁የጀ	-4096
▁ጦርነት	-4097
▁;	-4098
ተኞችን	-4099
▁የግብ	-4100
▁፩	-4101
ert	-4102
▁እዝ	-4103
▁የሶ	-4104
▁የቢ	-4105
▁ቅንብ	-4106
ስፒ	-4107
የን	-4108
ress	-4109
▁አሳይ	-4110
▁ወጣት	-4111
▁የጦር	-4112
▁ያመጣ	-4113
▁ጨለማ	-4114
▁ማሽኖች	-4115
▁ሞተርሳይ	-4116
ጩኸ	-4117
ፍም	-4118
500	-4119
▁36	-4120
▁ሮድ	-4121
▁ወላ	-4122
▁App	-4123
▁ሁሉን	-4124
▁በብር	-4125
▁አወጣ	-4126
▁ስትኾኑ	-4127
▁የሚሰጡ	-4128
▁ማንኛውንም	-4129
▁እግዚአብሔር።	-4130
▁ሆን	-4131
▁ጉባኤ	-4132
▁ክፍያዎች	-4133
IS	-4134
ጂታል	-4135
ነጋገር	-4136
▁ቢያንስ	-4137
▁የአውሮፓ	-4138
▁Cl	-4139
▁Gl	-4140
▁ወንድሞ	-4141
▁የሚለው	-4142
ብም	-4143
ኬቶች	-4144
▁ሀገ	-4145
▁በአላህና	-4146
ቴና	-4147
ጋታ	-4148
ጣፍ	-4149
ህወሀት	-4150
▁ተቆጣ	-4151
▁iPad	-4152
▁አይችሉም	-4153
ቪል	-4154
ኾናችሁ	-4155
▁ጨርቅ	-4156
chain	-4157
▁አፈጻጸም	-4158
ረዋል	-4159
▁86	-4160
▁የቅር	-4161
▁ሽማግሌ	-4162
▁ጭፍሮች	-4163
44	-4164
ok	-4165
ኤፍ	-4166
▁SW	-4167
▁ለዓ	-4168
▁ጆሮ	-4169
▁ሕክምና	-4170
▁እንስሳ	-4171
ረቱ	-4172
▁አብዛኞቹ	-4173
▁ነገድ	-4174
▁የሰማያ	-4175
▁የደንበ	-4176
▁መንግስታ	-4177
aw	-4178
ብህ	-4179
ኑት	-4180
▁ነገሩ	-4181
ገልግሎት	-4182
▁እነሆም፥	-4183
ላትን	-4184
▁አስፈ	-4185
ዎቻቸውን	-4186
▁ወንድሞች	-4187
ick	-4188
መለሰ	-4189
▁ተጣ	-4190
ዎቻችን	-4191
▁የውስጥ	-4192
uk	-4193
ቃን	-4194
ፕረስ	-4195
▁250	-4196
▁Dep	-4197
▁መንፈ	-4198
▁ዕድል	-4199
▁መሪዎች	-4200
UR	-4201
ያቂ	-4202
ስጥኤ	-4203
▁መገለ	-4204
▁በተለያዩ	-4205
ሚሜ	-4206
ህሳስ	-4207
▁FX	-4208
▁ባንተ	-4209
ይድሮሊክ	-4210
▁ክርስቲያ	-4211
te	-4212
iss	-4213
▁ማጉ	-4214
▁ቁም	-4215
TC	-4216
▁ሼ	-4217
ome	-4218
ተሚያ	-4219
▁የኩ	-4220
▁pro	-4221
▁መድኃ	-4222
▁እንደዚሁም	-4223
ለምን	-4224
▁ዳይ	-4225
▁የሆነው	-4226
▁የተለየ	-4227
-7	-4228
ሁ፤	-4229
ሬሽን	-4230
▁ቀለ	-4231
▁ጠይ	-4232
▁ይወጣ	-4233
▁ማጣሪያ	-4234
▁መላእክት	-4235
ix	-4236
ከቦች	-4237
ውሰድ	-4238
▁ቧንቧ	-4239
ጋጠ	-4240
▁ሞካ	-4241
▁እሳ	-4242
▁ተመራ	-4243
▁አልነበረም	-4244
ond	-4245
▁جل	-4246
▁መሆ	-4247
▁ምስል	-4248
▁እሱን	-4249
▁የማዕ	-4250
▁የተሸ	-4251
▁ግዴታ	-4252
▁ድንኳን	-4253
fer	-4254
▁መቃ	-4255
▁ይመለሳ	-4256
ft	-4257
ሽት	-4258
ኝ፥	-4259
▁በሩ	-4260
▁ሞባይል	-4261
እኔ	-4262
ace	-4263
ራቶች	-4264
▁ፓስ	-4265
▁በሽታ	-4266
▁ስትኾን	-4267
▁ውስጣዊ	-4268
▁የአሁኑ	-4269
ikoooo	-4270
olog	-4271
▁መኖር	-4272
▁ሞካይል	-4273
▁እርግጠኛ	-4274
▁ክል	-4275
▁ያጠ	-4276
▁ቀዳሚ	-4277
ረሻ	-4278
▁ማሻሻ	-4279
▁የአባ	-4280
▁ተጠቃሚ	-4281
▁እድገት	-4282
▁ለከ	-4283
▁ልን	-4284
▁ከሌሎች	-4285
▁ከእናንተም	-4286
ንስፖርት	-4287
▁አስተባበ	-4288
▁33	-4289
ical	-4290
▁በሰው	-4291
2,	-4292
ee	-4293
ስቲ	-4294
▁ተመን	-4295
▁ይሁዳ	-4296
▁ተመለሱ	-4297
IT	-4298
ሰጠ	-4299
ፊሉ	-4300
▁አረ	-4301
▁አዎ	-4302
▁ዘን	-4303
▁የቦ	-4304
▁ነፋስ	-4305
21	-4306
form	-4307
ings	-4308
▁ሚኒስቴ	-4309
▁የሠራዊት	-4310
8)	-4311
GO	-4312
ጫኑ	-4313
▁ፑ	-4314
ገለጸ	-4315
▁በሐ	-4316
▁ሥራዎች	-4317
▁ቅድሚያ	-4318
▁በናንተ	-4319
▁መካከለኛ	-4320
ሰል	-4321
ምጣት	-4322
▁ምግ	-4323
▁ክሬ	-4324
▁ፍራ	-4325
ወረደው	-4326
▁ተጨ	-4327
▁ለማው	-4328
▁Casino	-4329
ቀኑ	-4330
ጸጸ	-4331
▁ግዙ	-4332
▁ቀኖች	-4333
▁ቢኾን	-4334
▁የጉዞ	-4335
▁አቅጣጫ	-4336
▁ይገባል	-4337
2)	-4338
KV	-4339
ጆቹ	-4340
▁ትግ	-4341
▁ይኾ	-4342
▁ገነቶች	-4343
ዩት	-4344
▁አልተቻለም	-4345
UM	-4346
ዱን	-4347
ረጋጋ	-4348
▁RF	-4349
▁ለበ	-4350
▁ይሰማ	-4351
▁ለመስጠት	-4352
ዩን	-4353
ጣሚ	-4354
▁ክን	-4355
▁በይሁዳ	-4356
▁ተቀባይነት	-4357
ary	-4358
▁ባዶ	-4359
▁ተው	-4360
▁ኤሌክትሮ	-4361
ሳተ	-4362
▁(7	-4363
▁ይህች	-4364
ዳችሁ	-4365
▁መብራት	-4366
▁ምዝገባ	-4367
▁አግባብ	-4368
▁መልእክት	-4369
▁በዝ	-4370
ቻችንም	-4371
onda	-4372
apter	-4373
▁የፈጠረ	-4374
▁ደግሞም	-4375
ቃቄ	-4376
ብርሃ	-4377
▁2011	-4378
▁ፎቶዎች	-4379
EC	-4380
▁ካፕ	-4381
▁ስለዚህም	-4382
ocurrency	-4383
▁ጠጅ	-4384
▁web	-4385
▁ተጽዕኖ	-4386
▁ወዲያውም	-4387
ቃቂ	-4388
ቢዎች	-4389
▁በመቀ	-4390
▁አገናኝ	-4391
oH	-4392
▁34	-4393
ስተኛው	-4394
▁በምን	-4395
▁በራሱ	-4396
▁በኢየሩሳሌም	-4397
▁tr	-4398
▁የረ	-4399
▁አላት	-4400
▁የሙያ	-4401
▁በፍጹም	-4402
▁ዩኒቨርሲቲዎች	-4403
ረሕ	-4404
▁ማክ	-4405
▁አሰጣ	-4406
▁ዝግጁ	-4407
▁ኢትዮጵ	-4408
▁ቅንብሮች	-4409
ሥራት	-4410
ሽያጭ	-4411
ቃችሁ	-4412
ወሰን	-4413
▁Th	-4414
▁ይለ	-4415
▁መልዕክት	-4416
EN	-4417
ጓዝ	-4418
ለህን	-4419
oint	-4420
▁የተጣ	-4421
obile	-4422
▁ኢንተር	-4423
▁ወንድም	-4424
▁ያዕቆብ	-4425
▁የእስራኤልም	-4426
▁በኮ	-4427
▁ኤች	-4428
ስትራሊያ	-4429
▁መሰረታዊ	-4430
▁ኢንቨስት	-4431
ዋዋጭ	-4432
▁እሷ	-4433
▁ገለ	-4434
▁በእርሷም	-4435
▁አልላቸው	-4436
▁እምላለሁ	-4437
ከሉ	-4438
▁ይክ	-4439
▁መጥቶ	-4440
rosoft	-4441
ሴን	-4442
ፐር	-4443
▁ምእ	-4444
▁አጭር	-4445
ቅል	-4446
ዋቸውን	-4447
▁ትዕዛ	-4448
▁ድርብ	-4449
▁2000	-4450
▁ወደርሱ	-4451
lock	-4452
ቨርስቲ	-4453
▁ቁመት	-4454
ብቻ	-4455
ዛቤ	-4456
▁ዎቹ	-4457
▁ህዝብ	-4458
▁ማነው	-4459
▁ዩክሬን	-4460
▁ያረጋግ	-4461
▁አስታውሱ	-4462
ኖረ	-4463
ይፕ	-4464
▁ሂድ	-4465
▁አጽ	-4466
▁ከሳ	-4467
▁ባትሪ	-4468
▁የለም።	-4469
▁Gener	-4470
ህ፥	-4471
▁መናፍ	-4472
▁መልክተኛው	-4473
▁በአጠቃላይ	-4474
▁Chapter	-4475
ች፥	-4476
ነታ	-4477
ush	-4478
▁ከአንድ	-4479
▁ቅድመ	-4480
▁ክወና	-4481
አን	-4482
ኩት	-4483
▁ስማ	-4484
▁የተሰጠው	-4485
▁የነበረው	-4486
▁ልጁ	-4487
▁ሰይጣ	-4488
▁Ethiop	-4489
MP	-4490
ርብ	-4491
ገነባ	-4492
ከም	-4493
▁ጅ	-4494
ics	-4495
ሟላት	-4496
▁be	-4497
▁ቢል	-4498
▁ቅጣቱ	-4499
ለድ	-4500
ቀሰ	-4501
ታር	-4502
rol	-4503
▁ፈረ	-4504
▁ውፍረት	-4505
OR	-4506
ላጭ	-4507
="5	-4508
sk	-4509
ፏል	-4510
ube	-4511
ርነት	-4512
▁ተገዙ	-4513
▁ነበር፥	-4514
▁የቪዲዮ	-4515
ጉት	-4516
der	-4517
ኖችን	-4518
▁un	-4519
ደርገው	-4520
▁ቅርብ	-4521
▁ጥልቅ	-4522
haric	-4523
kg	-4524
መረብ	-4525
▁ቆዳ	-4526
▁ብን	-4527
▁ለማስተ	-4528
▁የመንጃ	-4529
የዳ	-4530
ኒካዊ	-4531
▁አሻ	-4532
▁ዝም	-4533
▁የዝ	-4534
▁የሚከ	-4535
▁ለማሻሻል	-4536
ወግ	-4537
▁Free	-4538
▁ጀርመን	-4539
▁ጮ	-4540
▁ሀያ	-4541
▁የሆ	-4542
▁ያቀ	-4543
▁ጥና	-4544
-2018	-4545
▁በአንቀ	-4546
▁ዊ	-4547
ዋለን	-4548
ስፋ	-4549
ከማቻ	-4550
▁ጠራ	-4551
▁መስክ	-4552
▁የመረጃ	-4553
▁አስቀድሞ	-4554
▁የመኖሪያ	-4555
96	-4556
ምበር	-4557
▁ስለሆነ	-4558
▁ታህሳስ	-4559
▁አብረው	-4560
▁መሠረታዊ	-4561
አል።	-4562
▁ተፅ	-4563
▁ቤተሰብ	-4564
SP	-4565
ina	-4566
ሞከር	-4567
undo	-4568
▁Car	-4569
▁ፕሬዚ	-4570
ጠባበ	-4571
▁ሲሉ	-4572
▁com	-4573
▁ይጠብ	-4574
▁ነገሥታት	-4575
▁አስቸጋሪ	-4576
ቲቱ	-4577
ሥራቅ	-4578
ድጓድ	-4579
ገሪቱ	-4580
▁ከዋ	-4581
="5.	-4582
▁አመስ	-4583
ann	-4584
▁ዩሮ	-4585
▁ላክን	-4586
▁ጓዶች	-4587
▁አማካሪ	-4588
ሊስ	-4589
ሳች	-4590
ካቤ	-4591
▁ምኞ	-4592
▁ተዘ	-4593
▁ሕዝቡም	-4594
▁አመራር	-4595
▁የሚመጣ	-4596
ማረ	-4597
ቀትን	-4598
▁ሂደ	-4599
▁ሰሎ	-4600
▁ራሱን	-4601
▁ጠላት	-4602
▁ጨረቃ	-4603
▁መከላከያ	-4604
ሟል	-4605
ሳይን	-4606
▁ለሙ	-4607
▁የዱ	-4608
▁የህዝብ	-4609
▁ያውቃሉ	-4610
ዊያ	-4611
▁ኅ	-4612
▁ናሙና	-4613
▁አልጋ	-4614
▁ደመና	-4615
▁ተሽከር	-4616
▁አስቀምጥ	-4617
TD	-4618
▁ጳውሎ	-4619
ትል	-4620
ውቅ	-4621
▁ለካ	-4622
▁ትርፍ	-4623
▁አእምሮ	-4624
3,	-4625
ወሰነ	-4626
▁ቅጽ	-4627
▁ባየ	-4628
መለከት	-4629
▁ሙሳም	-4630
ጡ።	-4631
▁በባሕር	-4632
▁Microsoft	-4633
PC	-4634
ss	-4635
▁የጭ	-4636
sych	-4637
▁ታላቁ	-4638
ሃለሁ	-4639
ግራም	-4640
▁2,	-4641
▁ለቀ	-4642
onus	-4643
▁125	-4644
▁Slot	-4645
▁ልውውጥ	-4646
▁ታዛ	-4647
▁የሥ	-4648
▁መቀመ	-4649
▁ከነሱ	-4650
▁ያለበት	-4651
▁በአውሮፓ	-4652
▁ኢየሱስም	-4653
ከው	-4654
ፈልገ	-4655
▁የዚያ	-4656
▁ጓደኛ	-4657
▁ያግኙን	-4658
መኛ	-4659
ወል	-4660
ይጥ	-4661
ፎር	-4662
ላማዊ	-4663
ሦስት	-4664
ሪዎቹ	-4665
▁ለርሱ	-4666
▁መርፌ	-4667
▁የእጅ	-4668
▁አንዳን	-4669
▁ያለንን	-4670
▁የእግዚአብሔርም	-4671
ark	-4672
▁ስነ	-4673
▁ሶስት	-4674
ru	-4675
ቻለ	-4676
ጋል	-4677
pro	-4678
▁ተር	-4679
▁ንቅሳት	-4680
▁የአምላክ	-4681
ጧል	-4682
ፊክ	-4683
ጂናል	-4684
▁ሰን	-4685
▁ለማን	-4686
▁ሕንፃ	-4687
▁ህክምና	-4688
▁መልእክ	-4689
▁የሙቀት	-4690
ላቂ	-4691
ብሩ	-4692
ቼን	-4693
ዦች	-4694
ችለው	-4695
▁ለኢ	-4696
▁ደካ	-4697
▁ሰንሰ	-4698
▁ካርታ	-4699
▁ወዲህ	-4700
▁ያገኛሉ	-4701
▁ይሠሩት	-4702
ክቶ	-4703
▁በነጻ	-4704
▁የፍቅር	-4705
▁ይጠቀሙ	-4706
▁ሚኒስትር	-4707
▁ሰራተኞች	-4708
ቃድ	-4709
ጫው	-4710
▁ልቦ	-4711
▁ምቹ	-4712
▁የሀ	-4713
▁እንክብ	-4714
▁የተሰራ	-4715
9)	-4716
መቻ	-4717
ደዱ	-4718
▁ቀበ	-4719
▁ጥፋ	-4720
▁መጠበቅ	-4721
▁የእነዚያ	-4722
SA	-4723
hat	-4724
ባቢያ	-4725
▁ውጣ	-4726
▁ውጪ	-4727
▁ይሞ	-4728
ያዕቆብ	-4729
▁ተናግ	-4730
▁በሰማይ	-4731
ቸው።	-4732
ይቱን	-4733
▁ካሬ	-4734
▁ድህ	-4735
▁ጸጸ	-4736
zhou	-4737
▁ሁለቱ	-4738
▁አለም	-4739
▁አዲሱ	-4740
▁መንግሥ	-4741
▁ሰይጣን	-4742
▁ፋይበር	-4743
ሎም	-4744
ዋሳ	-4745
uss	-4746
▁ከደ	-4747
▁የፌ	-4748
▁ቤተሰቦች	-4749
▁ያደርገዋል	-4750
ልጣን	-4751
▁የተሰጠ	-4752
▁ፔ	-4753
▁ቀዳ	-4754
ላዊነት	-4755
▁በዓል	-4756
▁ልዩነት	-4757
▁ታያ	-4758
▁ጩኸ	-4759
▁ለመሆን	-4760
መጠ	-4761
ዑስ	-4762
ፋሉ	-4763
▁ጠፍቷል	-4764
ld	-4765
በዛ	-4766
:00	-4767
▁ብቸ	-4768
....	-4769
▁ሊያስ	-4770
▁ላይም	-4771
▁ለይ	-4772
▁የዮ	-4773
osit	-4774
▁ቅይጥ	-4775
መልስ	-4776
▁ዲስ	-4777
ኖራቸው	-4778
RO	-4779
ah	-4780
▁ቻር	-4781
▁ሴንት	-4782
▁ከማይ	-4783
▁ይሰጣ	-4784
ረቶች	-4785
▁አቋ	-4786
▁ካለው	-4787
▁ሰማያትንና	-4788
74	-4789
TS	-4790
ተዋ	-4791
ይዝ	-4792
▁በርሷ	-4793
▁መላኪያ	-4794
▁Generator	-4795
ሚን	-4796
osh	-4797
▁ተባባ	-4798
▁የግን	-4799
ኝ፤	-4800
▁ቀኝ	-4801
▁ሙሴም	-4802
▁ተለዋዋጭ	-4803
▁Pr	-4804
▁ከች	-4805
▁የጋ	-4806
▁በጌታቸው	-4807
ደደ	-4808
ጻሜ	-4809
ምንም	-4810
2004	-4811
መሰግና	-4812
ጠኝነት	-4813
▁በየቀኑ	-4814
pf	-4815
▁ዎ	-4816
ink	-4817
▁በለ	-4818
▁ደር	-4819
▁ፓው	-4820
sychic	-4821
▁አሸናፊው	-4822
ኒው	-4823
ኸው	-4824
ዳና	-4825
="4	-4826
ብረተ	-4827
▁አመለ	-4828
▁እድል	-4829
▁የሰብ	-4830
▁ጥፋት	-4831
▁ምሕረትን	-4832
▁አይደለሁ	-4833
▁የተመሠረተ	-4834
ሳሉ	-4835
ች፤	-4836
unt	-4837
ርያት	-4838
ብዎት	-4839
▁ይሻ	-4840
▁የተነ	-4841
▁የተዘ	-4842
▁ጦማር	-4843
fl	-4844
ቮን	-4845
ለህ፤	-4846
ጋችሁ	-4847
▁የተነሳ	-4848
▁ለማረጋገጥ	-4849
ኤን	-4850
ይዛ	-4851
ium	-4852
▁sh	-4853
ሪጂናል	-4854
▁አንድም	-4855
▁የሚያሳ	-4856
▁አስተዳዳሪ	-4857
▁የነበራችሁ	-4858
▁መራ	-4859
▁ማጉያ	-4860
▁የመር	-4861
ረጫ	-4862
ራዎች	-4863
ንጋይ	-4864
iang	-4865
▁እፈልጋ	-4866
ታገ	-4867
▁በሥራ	-4868
▁ይግቡ	-4869
▁ምንዛሬ	-4870
▁መድሃኒት	-4871
▁ከእነዚህ	-4872
900	-4873
▁Mc	-4874
▁ደቀ	-4875
ension	-4876
ownload	-4877
-20	-4878
▁VP	-4879
▁ማራ	-4880
ክርስቲ	-4881
▁በነፍሶ	-4882
▁አካላት	-4883
▁በእያንዳንዱ	-4884
ቀፍ	-4885
▁ኬሚ	-4886
▁ሰዓታት	-4887
▁am	-4888
▁እስካ	-4889
▁የድም	-4890
▁ቍርባን	-4891
CN	-4892
ሊያን	-4893
▁በመር	-4894
▁ህይወት	-4895
▁መልአክ	-4896
▁ሁለተኛው	-4897
ዝቃ	-4898
ጠራል	-4899
...]	-4900
ቸውንም	-4901
▁ሆስፒ	-4902
▁ሰውም	-4903
▁አሥር	-4904
▁የሕዝብ	-4905
ቀዣ	-4906
ነኛ	-4907
በሰቡ	-4908
▁ወታደ	-4909
▁የሚተ	-4910
▁ጠቅላይ	-4911
ንጆ	-4912
▁ቂ	-4913
ool	-4914
ታለን	-4915
▁ፈል	-4916
▁የአፍሪካ	-4917
▁ኢየሩሳሌም	-4918
▁መለዋወጫዎች	-4919
ጉን	-4920
ሰቢያ	-4921
ዋለሁ	-4922
▁በኀ	-4923
ዎቻችሁ	-4924
▁ሕዝቦ	-4925
▁ሚዛን	-4926
▁የበረራ	-4927
AL	-4928
ማሩ	-4929
▁ምህ	-4930
▁ምሥ	-4931
▁ምንንም	-4932
▁አድርገን	-4933
▁በሰማያትና	-4934
St	-4935
ሮታው	-4936
▁የራስ	-4937
▁ከእነሱም	-4938
erm	-4939
ቶችም	-4940
▁ባሮ	-4941
▁RFID	-4942
▁ማተሚያ	-4943
64	-4944
ችት	-4945
ፈቀደ	-4946
▁ህግ	-4947
▁ራስን	-4948
▁ወንጌል	-4949
▁ጌታህም	-4950
▁ነገሮችን	-4951
▁አመጸኞች	-4952
ዶቹ	-4953
ባባይ	-4954
አንድ	-4955
ዘጋጃ	-4956
▁የቅን	-4957
▁ያነሰ	-4958
Hz	-4959
cs	-4960
ብጥ	-4961
ደለ	-4962
ጻሚ	-4963
ime	-4964
▁--	-4965
▁በቅርቡ	-4966
▁ለእነሱም	-4967
ph	-4968
ፉም	-4969
▁አምሳ	-4970
▁የአይ	-4971
▁የተፈጥሮ	-4972
IL	-4973
ክሩ	-4974
በሩም	-4975
ጨምር	-4976
▁ስታ	-4977
▁ጣፋ	-4978
▁ሙስሊ	-4979
▁ሥርዓ	-4980
▁የሚቀ	-4981
▁ለማወቅ	-4982
▁ለስላሳ	-4983
▁ነበርን	-4984
▁ምርጫዎች	-4985
▁ሳይንሳዊ	-4986
ux	-4987
ርስዋ	-4988
ቀዝቀዣ	-4989
▁መላእክ	-4990
▁መምረጥ	-4991
ቀሱ	-4992
ቱት	-4993
▁HP	-4994
▁የብር	-4995
ፈጸመ	-4996
▁ወደሚ	-4997
▁በደቡብ	-4998
▁የምርምር	-4999
▁ቍጣ	-5000
atic	-5001
▁ይቀጥ	-5002
ኖራ	-5003
ጢር	-5004
ፓስ	-5005
▁sp	-5006
▁ዲሲ	-5007
▁ኢኮኖሚ	-5008
▁ወሳ	-5009
ተመ	-5010
ፊው	-5011
ርድፕረስ	-5012
▁መመለስ	-5013
ጽም	-5014
መሰግ	-5015
▁ጠየ	-5016
▁ተሰኪ	-5017
▁እርሻ	-5018
▁ራሱ	-5019
▁ደግ	-5020
▁ዮሐንስ	-5021
▁Rikoooo	-5022
በድ	-5023
ኔን	-5024
ወረድ	-5025
ዛችሁ	-5026
▁ግዛ	-5027
ማውያን	-5028
▁ደቂቃዎች	-5029
ስታን	-5030
▁7.	-5031
▁መስተ	-5032
▁ባህሪ	-5033
▁የአት	-5034
▁ባህላዊ	-5035
▁ተዓምር	-5036
isa	-5037
ደገፍ	-5038
▁የቡ	-5039
ይታዎች	-5040
ይናንስ	-5041
▁120	-5042
▁አንበ	-5043
▁ኮሚቴ	-5044
▁የነበረውን	-5045
ጋሩ	-5046
ጎል	-5047
ፒት	-5048
▁ተያ	-5049
▁ምንጮች	-5050
▁ብስክሌት	-5051
1)	-5052
ለት።	-5053
▁በሬ	-5054
atch	-5055
▁ፈጣሪ	-5056
▁በሌሎች	-5057
▁መጽሐፉን	-5058
hy	-5059
ifi	-5060
▁እሱም	-5061
▁የቻይና	-5062
▁ፕሮጀክቶች	-5063
ላችን	-5064
ዘጋጁ	-5065
ጠቃሚ	-5066
▁1:	-5067
▁ራእ	-5068
▁ጎማ	-5069
▁dis	-5070
▁በመተ	-5071
▁ያጠፋ	-5072
▁የሚቆጠሩ	-5073
ና፤	-5074
GoH	-5075
ran	-5076
ስፈራ	-5077
ባትም	-5078
ግግሞ	-5079
ጥፋት	-5080
▁IP	-5081
▁ክሊ	-5082
ከተለው	-5083
▁ሆነ፤	-5084
▁ሲሳይ	-5085
▁ምንድር	-5086
▁ሰነዶች	-5087
▁አሳልፎ	-5088
▁ለማቅረብ	-5089
ሺህ	-5090
ካሄድ	-5091
▁ወፍ	-5092
▁መዛሙር	-5093
▁ከእንግ	-5094
▁ወገኖች	-5095
▁ተመልካች	-5096
▁ይሆናል፤	-5097
▁ዩኒቨርስቲ	-5098
በርግ	-5099
▁ስኬ	-5100
Coin	-5101
▁በመልክ	-5102
ገናኘት	-5103
▁ምድብ	-5104
▁አስገ	-5105
▁ፓርክ	-5106
▁ምድቦች	-5107
▁እውነተኞች	-5108
▁→	-5109
▁ክት	-5110
▁ሕይወ	-5111
▁ፋንታ	-5112
▁ለሴቶች	-5113
▁መዳረሻ	-5114
▁የተመዘ	-5115
ይነ	-5116
ማችሁ	-5117
▁ለነ	-5118
ላችኋል	-5119
▁ሶላት	-5120
▁በመፍ	-5121
▁እናት	-5122
▁አውራጃ	-5123
EL	-5124
ታችንን	-5125
ግግሞሽ	-5126
▁አጥን	-5127
▁ምስሎች	-5128
TM	-5129
mg	-5130
▁01	-5131
▁ኢንዱ	-5132
▁የግድ	-5133
ተኞ	-5134
air	-5135
ood	-5136
▁de	-5137
▁ልማ	-5138
▁የድን	-5139
▁በሁለት	-5140
▁በን	-5141
ምራቶች	-5142
▁ወይን	-5143
▁አደርጋ	-5144
ge	-5145
ons	-5146
ብሊክ	-5147
ቲንግ	-5148
ዳዳሪ	-5149
▁ባን	-5150
▁ታጋ	-5151
▁ርስት	-5152
▁[...]	-5153
▁ለመቀነስ	-5154
▁webmail	-5155
▁ባሕ	-5156
▁ሻጋታ	-5157
▁ብርሃ	-5158
▁የጊዜ	-5159
▁የተንቀሳቃሽ	-5160
በረው	-5161
ዮችን	-5162
▁ከቆ	-5163
▁ለአባ	-5164
▁አርባ	-5165
▁አዎን	-5166
▁ዜጎች	-5167
▁የቀጥታ	-5168
▁መታወቂያ	-5169
▁ኃላፊነት	-5170
▁ad	-5171
▁10.	-5172
▁ኃጢኣ	-5173
ating	-5174
▁የአካል	-5175
ካይ	-5176
▁ናቸው፤	-5177
▁ሚኒስቴር	-5178
ሁፍ	-5179
ጽሐፍ	-5180
▁በሚል	-5181
▁ጭነት	-5182
▁ተናገረ	-5183
▁የሞባይል	-5184
ስሐ	-5185
▁ዌ	-5186
▁ንቅሳ	-5187
▁እያሉ	-5188
▁ይወድ	-5189
▁እንችላ	-5190
▁የእንግ	-5191
▁ተጫዋቾች	-5192
▁እንክብካቤ	-5193
ቱና	-5194
▁ሴሜ	-5195
▁ቅጂ	-5196
▁ቆንጆ	-5197
▁የአንድ	-5198
▁ፓስፖርት	-5199
▁ለመጀመሪያ	-5200
▁አካባቢዎች	-5201
▁የሰማያትና	-5202
BS	-5203
ገባት	-5204
▁an	-5205
▁መስራት	-5206
▁በመስጠት	-5207
▁የእስራኤልን	-5208
ቋሚ	-5209
ንም።	-5210
▁ሣጥን	-5211
▁አብሮ	-5212
▁ፈጠር	-5213
):	-5214
ሳካ	-5215
ዝም	-5216
▁8.	-5217
▁ሌላው	-5218
▁ጀርባ	-5219
▁ተወዳጅ	-5220
▁አምላክህ	-5221
▁የኢኮኖሚ	-5222
8"	-5223
CO	-5224
ስማ	-5225
ቋል	-5226
ቼም	-5227
▁ልጄ	-5228
▁ኒው	-5229
▁ለፊት	-5230
▁በቤት	-5231
▁እርስዋም	-5232
ሃዊ	-5233
▁ሚያ	-5234
▁እንጨት	-5235
▁በቅርቢቱ	-5236
▁በመጨረሻይቱ	-5237
ዥን	-5238
ክሎች	-5239
▁ውል	-5240
line	-5241
ከተማይ	-5242
▁400	-5243
▁ፍጻሜ	-5244
▁የኤሌክትሮ	-5245
▁የኦሪጂናል	-5246
ale	-5247
vel	-5248
ገናኛ	-5249
▁ቅርንጫ	-5250
▁ትብብር	-5251
▁ዓይኖች	-5252
:0	-5253
az	-5254
ፀም	-5255
int	-5256
▁ላሉ	-5257
▁ከከ	-5258
▁አምላ	-5259
▁ባሪያዎች	-5260
▁SP	-5261
▁ይም	-5262
▁ኃይለኛ	-5263
▁ዓመታዊ	-5264
▁የሚሠራ	-5265
▁የግብር	-5266
▁የተዘጋጀ	-5267
▁ክለሳ	-5268
▁ጀመረ	-5269
▁በመስመር	-5270
▁እናመሰግና	-5271
ስራቅ	-5272
▁ባላ	-5273
▁ሰዎችም	-5274
▁የይሁዳ	-5275
▁አስፈራሪ	-5276
-01	-5277
▁በች	-5278
▁ዚፕ	-5279
▁ተናጋሪ	-5280
▁አላችሁ	-5281
ባን	-5282
ፈርዖን	-5283
▁ወሳኝ	-5284
▁ዘጠኝ	-5285
▁የመለ	-5286
▁ለመጠበቅ	-5287
ሪካዊ	-5288
ያችሁ	-5289
▁ተገኝ	-5290
▁አላህንና	-5291
__	-5292
ጂያ	-5293
▁የኪ	-5294
▁ሰውን	-5295
▁የሳይ	-5296
▁የሽቦ	-5297
▁የወረ	-5298
▁ነገርን	-5299
▁ከናንተ	-5300
▁ወጣቶች	-5301
▁በማሳየት	-5302
▁Amharic	-5303
▁ተብ	-5304
▁እርስዋ	-5305
▁እውቅና	-5306
▁መልክተኛውን	-5307
መዱ	-5308
ተህ	-5309
ወስድ	-5310
ያያዘ	-5311
▁38	-5312
▁በቤ	-5313
▁ፈጥ	-5314
▁ባለፉት	-5315
▁ፈረንሳይ	-5316
▁ዉ	-5317
ron	-5318
ናገሩ	-5319
ፈልገው	-5320
▁በመልካም	-5321
▁እውነትን	-5322
▁ቈ	-5323
ዋሳኪ	-5324
▁37	-5325
▁ለደ	-5326
▁ሚና	-5327
▁በፊቱ	-5328
▁ነህና	-5329
ivers	-5330
▁ሰጠነው	-5331
▁በአንድነት	-5332
ቃለሁ	-5333
▁ክፈ	-5334
▁መለኪያ	-5335
▁የተቋቋ	-5336
▁እንደሚቻል	-5337
ለትን	-5338
ሶችን	-5339
ጓጓዣ	-5340
▁Pay	-5341
▁ህዳር	-5342
▁በማይ	-5343
▁ዝግጅት	-5344
ታች	-5345
▁የሚገባ	-5346
▁የጥራት	-5347
▁የሚለውን	-5348
ዝቦች	-5349
▁የሮ	-5350
▁ዮሴ	-5351
▁የወን	-5352
ቶቻቸውን	-5353
▁ካዋሳኪ	-5354
▁የሚገኝ	-5355
▁SWGoH	-5356
ማኝ	-5357
▁ስፔ	-5358
▁ወኪ	-5359
ሚኒየም	-5360
▁የትራ	-5361
▁ሞዴሎች	-5362
ለግ	-5363
ረጅ	-5364
ጭን	-5365
▁·	-5366
▁CH	-5367
▁አጣ	-5368
▁ይን	-5369
▁ሸለቆ	-5370
▁አስቂ	-5371
▁ከቤት	-5372
▁ግንዛቤ	-5373
▁መልካምን	-5374
▁የሚያደርግ	-5375
▁ፕሬዚዳንት	-5376
ሳም	-5377
ቤል	-5378
ጥፎ	-5379
▁መክተ	-5380
▁ብዙውን	-5381
▁መብራቶች	-5382
▁የላቸውም	-5383
▁ይመስላል	-5384
eth	-5385
ደርሱ	-5386
▁ገዥ	-5387
▁ይቀበ	-5388
▁Psychic	-5389
!!	-5390
ጠዋል	-5391
fact	-5392
▁ተነሣ	-5393
▁የሙከራ	-5394
▁ገሀነም	-5395
▁ለእርስዎ	-5396
▁በሰማያት	-5397
▁የአገልግሎት	-5398
ars	-5399
▁በሥ	-5400
ቻችሁም	-5401
▁የቪዛ	-5402
by	-5403
▁3,	-5404
▁በውጭ	-5405
▁ቢኖር	-5406
▁አዋቂ	-5407
▁የአስተ	-5408
▁መለዋወጫ	-5409
23	-5410
▁ጢ	-5411
▁ማዳ	-5412
ከናወን	-5413
▁ሙዚቃ	-5414
▁ቁርጥ	-5415
▁የማዕድን	-5416
▁ዩናይትድ	-5417
46	-5418
ክላ	-5419
▁ለመር	-5420
▁ትእዛ	-5421
▁የሚሆኑ	-5422
▁በአንቀጾ	-5423
ነድ	-5424
ዛማ	-5425
ፕት	-5426
▁`	-5427
ረፍት	-5428
▁መለስ	-5429
▁አጋዥ	-5430
▁ኮርፖ	-5431
▁ተጠንቀ	-5432
▁የቀረቡ	-5433
▁ሰንሰለት	-5434
▁ከፍተኛው	-5435
▁ይችላሉ።	-5436
ኖቹ	-5437
ዋው	-5438
ሉትም	-5439
▁ወራ	-5440
▁ለመስ	-5441
▁ከአባ	-5442
▁አብዛኞ	-5443
▁Capacitor	-5444
ለኝ	-5445
ሽም	-5446
ሐመድ	-5447
▁ማብ	-5448
▁ሙያዊ	-5449
▁ዳይሬ	-5450
▁ጥቃት	-5451
▁with	-5452
▁የወርቅ	-5453
▁ዲያሜትር	-5454
ባጭ	-5455
ነርጂ	-5456
▁600	-5457
▁ግዙፍ	-5458
▁በማሽን	-5459
▁ፖለቲካ	-5460
▁የሚያስተ	-5461
▁መንግስታት	-5462
▁ሙቅ	-5463
▁ጣል	-5464
ተኛውም	-5465
▁በመንግ	-5466
▁የእንጨት	-5467
▁በልቦቻቸው	-5468
GH	-5469
ሟላ	-5470
box	-5471
ere	-5472
ሙኤል	-5473
ቸዋል።	-5474
▁ስደተኞች	-5475
MA	-5476
ክራ	-5477
▁ተካ	-5478
▁አንቺ	-5479
▁ኮርስ	-5480
▁Bonus	-5481
ri	-5482
ሎግ	-5483
▁ከት	-5484
▁ለመለ	-5485
▁ቤተሰ	-5486
▁የይለፍ	-5487
▁አውሮፕላኖች	-5488
▁2:	-5489
▁በጀ	-5490
▁ሥልጣን	-5491
▁ለማዘጋጀት	-5492
ፈኛ	-5493
▁55	-5494
▁ቀንም	-5495
▁በአብዛ	-5496
▁የሴቶች	-5497
▁አስደሳች	-5498
ኤች	-5499
ዋይ	-5500
ፋዊ	-5501
ዴራል	-5502
▁75	-5503
▁በአም	-5504
ጠራቀሚያ	-5505
▁አያያዝ	-5506
▁ኢብራሂ	-5507
▁ለመጠቀም	-5508
▁እንግሊዝኛ	-5509
:,	-5510
ካሽ	-5511
ወዳ	-5512
ery	-5513
▁Pre	-5514
▁ከመን	-5515
▁2009	-5516
▁ስርጭት	-5517
▁የሌለው	-5518
▁የሚኖሩ	-5519
▁Honda	-5520
89	-5521
less	-5522
▁በመቅ	-5523
▁በደል	-5524
▁የባለሙያ	-5525
▁የተፈጠረ	-5526
▁እናመሰግናለን	-5527
ስቡክ	-5528
ንድስና	-5529
▁199	-5530
▁ተለይ	-5531
▁ዲጂታል	-5532
ሷል	-5533
ode	-5534
ቶቹን	-5535
ጀላል	-5536
▁pl	-5537
▁በኦ	-5538
▁ቦይ	-5539
ተኞቹም	-5540
▁ትችላ	-5541
▁ንዑስ	-5542
▁ንግሥ	-5543
▁ከንቱ	-5544
night	-5545
▁የሚከተሉ	-5546
▁ይከጀላል	-5547
▁አልተቻለም፦	-5548
MC	-5549
ረሕማን	-5550
▁መሄድ	-5551
▁ለማውረድ	-5552
."	-5553
ዴን	-5554
▁በሳ	-5555
0.00	-5556
echn	-5557
ዋውያን	-5558
▁ክፍለ	-5559
ኣን	-5560
ጣው	-5561
old	-5562
ለህ፥	-5563
▁ሳን	-5564
▁ሲቀር	-5565
▁በየዓ	-5566
ልስ	-5567
ጡን	-5568
emb	-5569
ሙላት	-5570
▁ክስተት	-5571
ርና	-5572
ign	-5573
▁Ph	-5574
▁የሜ	-5575
ance	-5576
▁your	-5577
▁Ethiopia	-5578
▁እንቅስቃሴዎች	-5579
ርሽ	-5580
እኖ	-5581
ክን	-5582
▁ይደሰ	-5583
ይህ	-5584
ins	-5585
▁ቡና	-5586
▁አቶ	-5587
▁ጽኑ	-5588
▁ይለያ	-5589
ቶቻቸውም	-5590
▁ይደረጋ	-5591
▁የሚያስችል	-5592
▁ያስፈልጋል	-5593
4,	-5594
ጊዜው	-5595
ግብር	-5596
▁መጠጥ	-5597
▁ለውጦች	-5598
ረዝ	-5599
ስቶ	-5600
ፊቱ	-5601
-12	-5602
▁ሥነ	-5603
ቆጣጠር	-5604
▁ምናባዊ	-5605
▁ማዘጋጀት	-5606
▁የለበትም	-5607
▁ገጽታዎች	-5608
ሰነ	-5609
▁ላንተ	-5610
▁ሰነድ	-5611
▁መዝገብ	-5612
▁ዩኒቨርሲቲው	-5613
ንም፥	-5614
ድርግ	-5615
ርምያስ	-5616
▁ተመላ	-5617
▁ይቀጣ	-5618
▁tage	-5619
ርኖ	-5620
ቆሮ	-5621
ዎስ	-5622
ሃልና	-5623
ውቀት	-5624
▁ከሙ	-5625
▁ከረ	-5626
▁ሆቴል	-5627
ሩ።	-5628
ርጋ	-5629
ድማ	-5630
▁@	-5631
ory	-5632
ሰጠው	-5633
▁Gu	-5634
▁በሲ	-5635
ሰብሰብ	-5636
▁አምባ	-5637
▁የመግ	-5638
▁ይሁኑ	-5639
▁መክፈት	-5640
▁ማስተዋ	-5641
▁የክፍያ	-5642
▁በአሜሪካ	-5643
MS	-5644
▁ፅ	-5645
▁ሮለር	-5646
▁የማን	-5647
▁የባህር	-5648
▁ያገለግ	-5649
▁በተለይም	-5650
▁አይደለምን	-5651
tr	-5652
ርፍ	-5653
ዝቃዛ	-5654
ባቢያዊ	-5655
▁ምርኮ	-5656
▁ማንበብ	-5657
▁ስምንት	-5658
▁ኢንዱስት	-5659
?"	-5660
ሙም	-5661
▁ዳን	-5662
▁የሚጠራ	-5663
▁ጳውሎስ	-5664
▁በእነዚህ	-5665
▁እፈልጋለሁ	-5666
ilt	-5667
▁ብትኾኑ	-5668
▁ከጌታህ	-5669
▁Phone	-5670
ለች፤	-5671
ውንዴ	-5672
▁De	-5673
▁በሰይ	-5674
▁አልፎ	-5675
▁ኢትዮጵያዊ	-5676
ሌን	-5677
ኙን	-5678
▁፲	-5679
ቷል።	-5680
▁አከ	-5681
▁ከለ	-5682
ates	-5683
▁ከሆኑ	-5684
▁ኮከብ	-5685
▁በመላው	-5686
▁ማጠራቀሚያ	-5687
ሂድ	-5688
ets	-5689
lor	-5690
ያዝያ	-5691
▁ለጌታ	-5692
▁ማመን	-5693
▁ተሳት	-5694
▁ስልጣን	-5695
ሕን	-5696
ሩንም	-5697
ንበብ	-5698
▁ማድረ	-5699
▁በደረ	-5700
▁ዘላቂ	-5701
▁cryptocurrency	-5702
▁በመሠ	-5703
▁ውበት	-5704
▁ዝማኔ	-5705
▁ጥርስ	-5706
ጨነ	-5707
7"&	-5708
▁ac	-5709
▁በወን	-5710
▁አመን	-5711
▁በመለያ	-5712
ረኞች	-5713
ውጣት	-5714
▁48	-5715
▁መከ	-5716
▁ማእ	-5717
▁ካህና	-5718
▁የመድ	-5719
▁ማሸጊያ	-5720
▁ማውረድ	-5721
▁በደንብ	-5722
▁እንድን	-5723
▁የሩሲያ	-5724
▁የተሻሻ	-5725
▁ድርጊት	-5726
anufact	-5727
▁ቼ	-5728
ገናኝ	-5729
▁Tw	-5730
▁ለህ	-5731
▁ማታ	-5732
ችኋልና	-5733
▁ሚያዝያ	-5734
▁ምእምና	-5735
▁ታሪካዊ	-5736
▁አድርገዋል	-5737
ቀረ	-5738
ቀን	-5739
ጣጠ	-5740
ፍታ	-5741
ጠንቀ	-5742
▁Br	-5743
በርካታ	-5744
▁1.5	-5745
▁ንጥረ	-5746
▁ማምረት	-5747
▁Mobile	-5748
▁የአትክልት	-5749
ረጠ	-5750
ept	-5751
▁አተ	-5752
▁ዕጣ	-5753
▁የጃ	-5754
2018	-5755
▁ሲሆኑ	-5756
43	-5757
ጠባ	-5758
:10	-5759
:15	-5760
▁የፓይፕ	-5761
▁ተመሠረተ	-5762
▁አመለካከ	-5763
:8	-5764
ቃጥ	-5765
ብብ	-5766
▁ሄዱ	-5767
ላችሁ፤	-5768
▁ወጥቶ	-5769
ጦት	-5770
ቅያስ	-5771
ቦቶች	-5772
ነቱን	-5773
ጨመረ	-5774
▁ሩቅ	-5775
▁በፈቃ	-5776
▁የማት	-5777
ቡት	-5778
አስ	-5779
="3	-5780
▁ሰለ	-5781
▁አለኝ	-5782
▁የማስ	-5783
▁መሠዊያ	-5784
▁ፍርሃት	-5785
sp	-5786
ርጥ	-5787
ern	-5788
ቃጠል	-5789
ጠረዥ	-5790
▁ال	-5791
▁ሥልጠና	-5792
▁ዘዴዎች	-5793
▁የመንገድ	-5794
▁መክተቻዎች	-5795
▁ነፍሶቻቸውን	-5796
ዶም	-5797
ገመ	-5798
ich	-5799
ሆነው	-5800
▁MO	-5801
▁ማቆ	-5802
▁የቴ	-5803
▁ልቦች	-5804
▁በመግ	-5805
▁ብለህ	-5806
▁ጠበቃ	-5807
▁ዐዋቂው	-5808
ደሮች	-5809
▁በጸ	-5810
▁ባዩ	-5811
▁ፀሐ	-5812
ስተካከ	-5813
▁የመጡ	-5814
▁ፀጉር	-5815
ያዩ	-5816
6"&	-5817
▁የች	-5818
▁ያሰ	-5819
ከራከሩ	-5820
▁ሌዘር	-5821
▁ሪፖር	-5822
▁ንብረ	-5823
▁እርምጃዎች	-5824
የሚ	-5825
ጸው	-5826
ፎችን	-5827
ents	-5828
ታችሁን	-5829
▁ጣፋጭ	-5830
▁ማህበር	-5831
▁ነጥቦች	-5832
▁ማዕከላዊ	-5833
▁ተግባራት	-5834
ለች፥	-5835
አል፤	-5836
ዩተር	-5837
▁PT	-5838
▁ኤን	-5839
▁ያተ	-5840
አቸው።	-5841
ፈልግም	-5842
▁ነገሠ	-5843
▁የሚሉ	-5844
▁ያለፈ	-5845
ሌቪ	-5846
ድል	-5847
ድሜ	-5848
▁ሳጥ	-5849
▁ያበ	-5850
ስተባብ	-5851
▁በወር	-5852
▁ከምት	-5853
▁ስራዎች	-5854
▁ወንጀል	-5855
▁የመሬት	-5856
▁የሚፈሱ	-5857
▁ይቀላቀ	-5858
XX	-5859
ቃወ	-5860
app	-5861
ati	-5862
ራል።	-5863
▁አቆ	-5864
▁መለሰ	-5865
▁የመሳሰ	-5866
▁አለበት።	-5867
ሲብ	-5868
ውም።	-5869
▁47	-5870
ጂያንግ	-5871
▁የተሻ	-5872
▁የቤተሰብ	-5873
ረር	-5874
ጎት	-5875
ለችም	-5876
▁You	-5877
▁ፀሐይ	-5878
ለኪ	-5879
ዋታ	-5880
ንዘን	-5881
▁Sk	-5882
▁ሆኑ	-5883
▁ሰላ	-5884
▁ከሞ	-5885
ዋሪዎች	-5886
▁በውኑ	-5887
▁የማህ	-5888
ology	-5889
▁Qing	-5890
▁ለሽያጭ	-5891
▁መስካሪ	-5892
▁ከመልክ	-5893
▁ተቆጣጣሪ	-5894
ዓን	-5895
▁ዑ	-5896
ግዚቢ	-5897
▁ww	-5898
▁ስኩ	-5899
▁ኛው	-5900
ነታቸው	-5901
▁Con	-5902
▁www	-5903
▁እዚያ	-5904
▁ጥርጣ	-5905
▁ፋውንዴ	-5906
▁መታጠቢያ	-5907
05	-5908
fo	-5909
ገልገ	-5910
▁ትው	-5911
▁ከፈ	-5912
ቸዋለሁ	-5913
▁ነቢዩ	-5914
▁የሕግ	-5915
▁የደም	-5916
▁ሚያዚያ	-5917
▁ምዕራፍ	-5918
▁በቁማር	-5919
ሞክራሲያዊ	-5920
▁መስፈርት	-5921
▁እናደርጋ	-5922
▁ለመከላከል	-5923
-9	-5924
84	-5925
ዓብ	-5926
ጣኝ	-5927
ገነዘ	-5928
▁የሂ	-5929
ችኋለሁ	-5930
▁ቆሻሻ	-5931
▁ነበረ፥	-5932
▁በየዓመቱ	-5933
▁አወረድን	-5934
ማሉ	-5935
ረቅ	-5936
ኩስ	-5937
ካር	-5938
ይዙ	-5939
ዋችሁ	-5940
▁ግራጫ	-5941
▁የጅምላ	-5942
▁ፈርዖንም	-5943
ቆቹ	-5944
ኪዎች	-5945
ጠይቅ	-5946
▁ኤሮ	-5947
port	-5948
▁መሙያ	-5949
▁በአል	-5950
▁ዘገባ	-5951
▁መግዛት	-5952
▁ስኬታማ	-5953
oh	-5954
ሸን	-5955
ከባ	-5956
ዌይ	-5957
▁የሠሩ	-5958
▁ገደብ	-5959
▁በታላቅ	-5960
▁ነበሩ፤	-5961
▁ይቅርታ	-5962
CH	-5963
:12	-5964
ጣሪዎች	-5965
▁በረራ	-5966
▁የኮምፒ	-5967
ራስ	-5968
ፋይ	-5969
▁ካታ	-5970
▁ወድ	-5971
▁ተከት	-5972
▁አማኞች	-5973
▁ኮርሶች	-5974
▁መኾናቸውን	-5975
DM	-5976
ዘም	-5977
የእ	-5978
ቂዎች	-5979
▁ሰጪ	-5980
▁ስኬት	-5981
▁ወንጀ	-5982
▁የጎማ	-5983
▁Inst	-5984
▁መልክተኞች	-5985
ous	-5986
ኒቶች	-5987
▁እል	-5988
ence	-5989
▁መጻሕ	-5990
▁ምትክ	-5991
▁በነሱ	-5992
▁ማከማቻ	-5993
▁በምድረ	-5994
anufactur	-5995
▁የሚሰጡዋቸውን	-5996
ልድ	-5997
ረፍ	-5998
ውንና	-5999
▁ክላ	-6000
ስታንት	-6001
▁ይጫኑ	-6002
press	-6003
▁መገለጫ	-6004
ሳለ	-6005
ውቀ	-6006
ዮቹ	-6007
ጥቅ	-6008
300	-6009
ከታተል	-6010
▁ሌሎችን	-6011
▁መስኮት	-6012
▁ይባላል	-6013
ለሽ	-6014
ጌጥ	-6015
ጠጥ	-6016
▁ሠሪ	-6017
▁ከገ	-6018
ርድዌር	-6019
▁አንዲ	-6020
▁ይጎብ	-6021
▁አጋጣሚ	-6022
▁የገበያ	-6023
ES	-6024
ልት	-6025
ምስ	-6026
-15	-6027
NUM	-6028
▁ዘይ	-6029
▁ዘርፍ	-6030
▁መቀመጫ	-6031
▁በአዲስ	-6032
▁በግብፅ	-6033
▁የተቀደ	-6034
▁ጥናቶች	-6035
▁እንችላለን	-6036
ሞቂያ	-6037
ነትና	-6038
ጠብቅ	-6039
▁ከኃ	-6040
uper	-6041
▁220	-6042
▁ማውጫ	-6043
▁አመት	-6044
▁2008	-6045
▁አካላዊ	-6046
▁መስመሮች	-6047
▁ፕሮፌሰር	-6048
▁የዩኒቨርሲቲ	-6049
ዞር	-6050
ዩብ	-6051
ጨረር	-6052
▁CR	-6053
▁ጠር	-6054
ስክቶፕ	-6055
▁ከታች	-6056
▁የልጆች	-6057
▁Chang	-6058
▁አብዛኛዎቹ	-6059
6)	-6060
ቡም	-6061
ዷል	-6062
lex	-6063
▁ከቶ	-6064
▁በሌሊት	-6065
▁በእርግጥም	-6066
BP	-6067
ውሞ	-6068
ኖችም	-6069
▁al	-6070
▁19,	-6071
▁Sol	-6072
▁ሰሌዳ	-6073
▁በገባ	-6074
▁አንጻ	-6075
▁በምንም	-6076
▁አለኝ።	-6077
▁ጥቂትን	-6078
▁የሰብአዊ	-6079
ቁን	-6080
ውሉ	-6081
ሚያዊ	-6082
ፈዋል	-6083
▁ex	-6084
▁ዞን	-6085
▁ጄት	-6086
▁ብድር	-6087
▁ውስጠ	-6088
▁ልጆች፥	-6089
▁አንባቢ	-6090
▁ኩባንያው	-6091
ኋችሁ	-6092
▁`%	-6093
▁ወዴት	-6094
▁ተቀመጡ	-6095
▁ክስተቶች	-6096
▁የተገነባ	-6097
7"	-6098
ራጅ	-6099
zip	-6100
ህደት	-6101
ለታል	-6102
▁ይጥ	-6103
ሓዲዎች	-6104
▁Min	-6105
▁ትሆና	-6106
▁ብክለት	-6107
▁ታይቷል	-6108
▁ትምህር	-6109
▁ከፈለጉ	-6110
▁ኢትዮጵያውያን	-6111
ዲንግ	-6112
▁ለብ	-6113
▁ቶን	-6114
▁ከግ	-6115
▁የኑ	-6116
▁McK	-6117
▁ሆኗል	-6118
▁መጣ።	-6119
▁መጫን	-6120
▁ቅጥር	-6121
▁መዝሙር	-6122
▁ስርዓቶች	-6123
▁ከማይዝግ	-6124
መዘ	-6125
የስ	-6126
▁±	-6127
▁ከዕ	-6128
ላችሁ፥	-6129
▁ሀሳብ	-6130
▁ዝናብ	-6131
ቻቸውንም	-6132
▁ኢነርጂ	-6133
▁ወቅታዊ	-6134
▁ይጎብኙ	-6135
▁ደስተኛ	-6136
▁ማስፈጠር	-6137
ናጋ	-6138
▁በሶ	-6139
▁ረገድ	-6140
▁ሰዓቶች	-6141
▁በመሆን	-6142
▁ባለፈው	-6143
▁የተመሰረተ	-6144
CT	-6145
ጠፉ	-6146
▁(3	-6147
▁ሳንቲ	-6148
▁ባህል	-6149
▁ደህን	-6150
▁ለመድረስ	-6151
cr	-6152
ውነ	-6153
ንግል	-6154
▁ይኸ	-6155
ተኝነት	-6156
▁ሠላሳ	-6157
▁ይሞክ	-6158
▁ቀዝቃዛ	-6159
ቸት	-6160
ገዳ	-6161
ናገረ	-6162
▁ለጥ	-6163
▁በጆ	-6164
▁ሰልፍ	-6165
▁የተጠ	-6166
▁መቀበል	-6167
▁እናውቃ	-6168
▁ለመርዳት	-6169
▁ሥራዎችን	-6170
መቂያ	-6171
ብስብ	-6172
ታትን	-6173
▁ዘለ	-6174
▁ጥቃ	-6175
▁አይወ	-6176
IP	-6177
ሳቢ	-6178
ነጢ	-6179
ዊድን	-6180
▁ያነጋ	-6181
▁ልብሶች	-6182
▁የተወሰኑ	-6183
▁በክርስቶስ	-6184
ንጋ	-6185
ፈሉ	-6186
ምሯል	-6187
▁ተጓ	-6188
ነጢሳዊ	-6189
ውሮፕላ	-6190
▁ወሰደ	-6191
▁ይይዛ	-6192
▁ማስቀመጥ	-6193
▁ሶላትንም	-6194
▁አይሆንም	-6195
:17	-6196
The	-6197
ላለን	-6198
▁65	-6199
ower	-6200
▁በተበ	-6201
▁ለእርሷ	-6202
▁የነዳጅ	-6203
▁ፓውንድ	-6204
ብሪ	-6205
ድኑ	-6206
oto	-6207
▁ገል	-6208
ላችንም	-6209
ሌቪዥን	-6210
ነቶችን	-6211
ጠቅላላ	-6212
▁ለሰው	-6213
▁ርካሽ	-6214
▁እርጥ	-6215
▁ደረቅ	-6216
▁ለአንድ	-6217
▁መርከቦች	-6218
▁የዘላለም	-6219
▁Dr	-6220
▁Qu	-6221
▁ቀዶ	-6222
▁ግዢ	-6223
ቻችንን	-6224
▁Out	-6225
▁ሐምሌ	-6226
▁ተደጋ	-6227
▁ወለል	-6228
▁የአም	-6229
▁መጥተው	-6230
▁ድንጋጌ	-6231
▁መጽሐፍን	-6232
▁በመንገድ	-6233
ን፥	-6234
ኒካል	-6235
▁ሰሜን	-6236
▁በየት	-6237
▁ይሰራል	-6238
▁ፈርዖን	-6239
▁መግለጫዎች	-6240
▁ፋውንዴሽን	-6241
AP	-6242
ሃድ	-6243
ጣፋ	-6244
ama	-6245
ሰዋል	-6246
▁የዶ	-6247
▁ቢኾኑ	-6248
▁ይደው	-6249
▁CSGO	-6250
▁ከእንግዲህ	-6251
ለህም	-6252
ፃናት	-6253
▁ጸጥ	-6254
▁800	-6255
▁ከአን	-6256
▁የአን	-6257
▁ይገድ	-6258
▁ደካማ	-6259
▁ጤናማ	-6260
▁ሼንዘን	-6261
▁በማስተ	-6262
▁ተከተል	-6263
እና	-6264
ያኔ	-6265
ays	-6266
ett	-6267
▁ቆሞ	-6268
▁መቀየር	-6269
▁አቀረበ	-6270
▁የሚከተሉትን	-6271
ራኒ	-6272
ደቅ	-6273
ung	-6274
▁መካ	-6275
▁ታገ	-6276
▁መያዝ	-6277
▁ምድረ	-6278
▁የራሱ	-6279
▁የፊት	-6280
ቶቻችሁን	-6281
▁Glass	-6282
▁የተጠቃሚ	-6283
▁የመጨረሻው	-6284
ሰለ	-6285
ለያየ	-6286
ጠናቸው	-6287
▁ተቀመጠ	-6288
▁አይደለሁም	-6289
▁የተለጠፈው	-6290
▁ለእያንዳንዱ	-6291
CL	-6292
UD	-6293
ልማ	-6294
ኦል	-6295
ጠፍ	-6296
-11	-6297
:13	-6298
:14	-6299
▁ማደ	-6300
orld	-6301
ንስሳት	-6302
▁የልብ	-6303
▁ይህንም	-6304
ዓዊ	-6305
ጣፊ	-6306
dao	-6307
▁መፈ	-6308
ject	-6309
▁ሐሳብ	-6310
▁ጽድቅ	-6311
itter	-6312
▁የበላይ	-6313
▁ይኾናል	-6314
▁ድንበር	-6315
▁Crypt	-6316
▁መመሪያዎች	-6317
ጎም	-6318
ወትር	-6319
▁4,	-6320
▁ሉህ	-6321
▁LTD	-6322
▁ለጥፍ	-6323
▁የያዘ	-6324
▁እላችኋ	-6325
▁የተጻፈ	-6326
ሀብ	-6327
ጋራት	-6328
▁ተተ	-6329
▁ጥራ	-6330
▁በሰማ	-6331
▁ብዙዎች	-6332
▁ተከተሉ	-6333
▁በእነዚያ	-6334
▁ቪዲዮዎች	-6335
▁McKnight	-6336
ዮሽ	-6337
ንሰር	-6338
▁Star	-6339
▁በአብዛኛው	-6340
:3	-6341
ck	-6342
gl	-6343
ጣቱ	-6344
min	-6345
ope	-6346
ገኙት	-6347
▁ኢንጂ	-6348
▁የሌዘር	-6349
▁ያሳያል	-6350
▁ያውርዱ	-6351
▁ያደርግ	-6352
ውስትራሊያ	-6353
▁የዌብሜይል	-6354
ኳይ	-6355
ይቅ	-6356
ጸል	-6357
USD	-6358
ርዳታ	-6359
ቋንቋ	-6360
▁ንገ	-6361
ንዶንግ	-6362
▁ሠራሽ	-6363
▁አጥፉ	-6364
▁እውነታ	-6365
▁ክትትል	-6366
▁ውሸትን	-6367
የሩሳሌምም	-6368
▁ሆስፒታል	-6369
▁ማስወገድ	-6370
▁እንስሳት	-6371
▁የተረጋገጠ	-6372
ረፋ	-6373
ክሽን	-6374
ይረስ	-6375
▁ማንኛ	-6376
▁እጥፍ	-6377
▁የተራ	-6378
▁ለሚሻው	-6379
▁መቅደስ	-6380
▁በቅርብ	-6381
▁ተናገር	-6382
▁Service	-6383
▁Download	-6384
ታኔ	-6385
የህ	-6386
ድስ	-6387
▁ኺ	-6388
▁ሰይፍ	-6389
▁ተሰብ	-6390
ጠንቀቂያ	-6391
▁ሳሙኤል	-6392
ሑፍ	-6393
ፕሎ	-6394
:11	-6395
ቶችና	-6396
▁ቀስ	-6397
▁ይጣ	-6398
▁ፎቅ	-6399
▁10%	-6400
▁ያምና	-6401
▁ጩኸት	-6402
▁የመዝገብ	-6403
ቲቭ	-6404
▁Zh	-6405
▁ለግ	-6406
▁ከሥ	-6407
▁ወደብ	-6408
▁ዓይነቶች	-6409
ሰሰ	-6410
ቀሻ	-6411
ጆታ	-6412
▁ማል	-6413
▁ባር	-6414
▁ገር	-6415
item	-6416
▁ህጋዊ	-6417
▁መላክ	-6418
▁አብራ	-6419
▁የመል	-6420
▁ያመነ	-6421
▁ተጠያቂ	-6422
▁አገልጋ	-6423
ነጻ	-6424
▁or	-6425
▁መዘ	-6426
▁ፊል	-6427
uang	-6428
ቀጥለው	-6429
▁አዳን	-6430
▁በንጉሡ	-6431
▁ቻርተር	-6432
▁በአካባቢ	-6433
▁ኤርምያስ	-6434
ነግ	-6435
ኮን	-6436
▁ቅመ	-6437
▁ታሪ	-6438
▁ኦፊ	-6439
ጠነቀቁ	-6440
▁ተነሳ	-6441
▁ሠራዊት	-6442
▁የማሽን	-6443
▁ስብስቦች	-6444
▁ሻንዶንግ	-6445
▁መግነጢሳዊ	-6446
CC	-6447
ሜት	-6448
ያዥ	-6449
ምኑት	-6450
ቢቱም	-6451
▁ሜካ	-6452
▁በቆ	-6453
▁በዲ	-6454
▁ከቅ	-6455
▁ከዛ	-6456
ound	-6457
▁ስልጣ	-6458
▁በእጁ	-6459
▁አየሁ	-6460
▁የፕሬ	-6461
▁ድግም	-6462
▁አብርሃ	-6463
79	-6464
ank	-6465
ኋቸው	-6466
ጥፎች	-6467
▁የቤ	-6468
▁ዮና	-6469
ater	-6470
▁ወገኖ	-6471
▁ቢሊዮን	-6472
▁ኀጢአት	-6473
▁እንደሚችሉ	-6474
:6	-6475
mb	-6476
ጻፍ	-6477
lin	-6478
▁የፒ	-6479
▁ግጥ	-6480
▁አሞሌ	-6481
▁ትንሣኤ	-6482
▁ከወንድ	-6483
▁ጠላቶች	-6484
▁ቬ	-6485
:16	-6486
▁Cr	-6487
▁ነቢይ	-6488
▁ክፋት	-6489
▁ይፈር	-6490
ember	-6491
▁እንደምት	-6492
▁በውስጣቸው	-6493
BO	-6494
ረታ	-6495
መናን	-6496
▁ሰል	-6497
▁con	-6498
▁መርሃ	-6499
▁በተዓ	-6500
▁ታቦት	-6501
▁እቅድ	-6502
ኮኖሚያዊ	-6503
▁አያውቅም	-6504
ኝን	-6505
መኑት	-6506
ነውን	-6507
▁39	-6508
▁መወ	-6509
▁ትላ	-6510
▁ጫን	-6511
▁አባቴ	-6512
▁እሰጣ	-6513
▁ዲስክ	-6514
▁አንዱን	-6515
▁ክሬዲት	-6516
▁ወዳንተ	-6517
▁ለወንዶች	-6518
ማራ	-6519
ጡ፤	-6520
▁85	-6521
▁ኢሜ	-6522
▁1500	-6523
▁ያመኑት	-6524
▁AM	-6525
look	-6526
▁አቀራ	-6527
▁ኮሪያ	-6528
▁የሰጠ	-6529
▁የካር	-6530
▁ከጌታችሁ	-6531
In	-6532
ሁም	-6533
ሄዳ	-6534
ቀበ	-6535
ቢዩ	-6536
ፎቶ	-6537
▁Su	-6538
▁ከኤ	-6539
▁አስመ	-6540
▁የቆዳ	-6541
▁ጭፍራ	-6542
▁ይደውሉ	-6543
▁የማያውቁ	-6544
ደሱ	-6545
▁፫	-6546
▁42	-6547
▁አለችው	-6548
▁አስገራሚ	-6549
▁አብዛኛውን	-6550
▁Qingdao	-6551
78	-6552
FE	-6553
ስኮ	-6554
ኝት	-6555
ull	-6556
ላቀል	-6557
ሽነት	-6558
▁ለረ	-6559
▁ባለሥ	-6560
▁ትግል	-6561
▁እያለ	-6562
▁ይዘው	-6563
ቻችሁንም	-6564
▁ናቸውና	-6565
▁የተወረደ	-6566
ys	-6567
ድራ	-6568
ብራራ	-6569
▁ደጃ	-6570
ላለፊያ	-6571
▁አንደ	-6572
▁እንቅ	-6573
▁ይወር	-6574
▁ድርሻ	-6575
▁ረዳቶች	-6576
▁በኾነው	-6577
ts	-6578
raw	-6579
ግብጽ	-6580
ርዳኖስ	-6581
▁መስታ	-6582
▁ታዘዙ	-6583
▁ወስዶ	-6584
▁በከተማ	-6585
▁ተጠባባ	-6586
▁የትኛው	-6587
ዮስ	-6588
man	-6589
ዓለም	-6590
ፋፋት	-6591
▁ሆና	-6592
▁ለገ	-6593
▁ልና	-6594
▁ቅሬ	-6595
▁በፓ	-6596
ቷቸዋል	-6597
ችልም።	-6598
▁ቀድሞ	-6599
▁በሕግ	-6600
▁አታው	-6601
▁disc	-6602
▁ሆናችሁ	-6603
▁ተፅዕኖ	-6604
▁ትግበራ	-6605
▁ካምፓስ	-6606
▁ይሰጣሉ	-6607
▁ይገኛሉ	-6608
▁ሳምንታት	-6609
▁የመጽሐፉ	-6610
ትመት	-6611
ዕራብ	-6612
▁ጸሐ	-6613
▁ሚዲያ	-6614
▁በአስ	-6615
▁በእን	-6616
allet	-6617
bl	-6618
ራብ	-6619
ብድ	-6620
ንባሌ	-6621
▁ምሁ	-6622
▁ዳግ	-6623
▁መጠየ	-6624
▁አትግ	-6625
▁ሕዝቡን	-6626
▁ምግቦች	-6627
▁ለመግዛት	-6628
▁አሲስታንት	-6629
yn	-6630
ሸራ	-6631
ደሩ	-6632
ፈቱ	-6633
ሻገር	-6634
ችልም	-6635
ገናኘ	-6636
▁ልጃ	-6637
▁ደረሰ	-6638
▁ግምት	-6639
የል	-6640
ጸና	-6641
▁መጭ	-6642
▁በኋ	-6643
▁ባስ	-6644
▁ጃን	-6645
▁Gam	-6646
▁ማይክሮ	-6647
▁አድርጌ	-6648
▁በኢየሱስ	-6649
▁የተጠበቁ	-6650
▁ድግግሞሽ	-6651
ለንም	-6652
▁Be	-6653
▁ስሞች	-6654
▁ባልተ	-6655
▁የመተ	-6656
▁ክርክር	-6657
▁የሚያሰ	-6658
▁መስታወት	-6659
ዓዛ	-6660
ጎዳ	-6661
oll	-6662
ቴዎስ	-6663
ዊያው	-6664
▁cs	-6665
▁ይል	-6666
▁ይሽ	-6667
ሊንደር	-6668
▁ስለመ	-6669
▁ትንቢት	-6670
▁እዝነት	-6671
▁አድርጋችሁ	-6672
ፃሚ	-6673
▁ጾ	-6674
:18	-6675
▁ለት	-6676
▁Eur	-6677
▁በስራ	-6678
▁የመላ	-6679
▁ግሩም	-6680
ደርደሪያ	-6681
▁ሳጥኖች	-6682
▁አንቀሳ	-6683
▁ይወስዳል	-6684
▁ግምገማዎችን	-6685
ጡም	-6686
ክልል	-6687
▁ምቾ	-6688
▁ሲነ	-6689
ጎብኘት	-6690
▁ተቀብ	-6691
▁ትኩስ	-6692
▁አያም	-6693
▁የሌለ	-6694
▁ግማሽ	-6695
▁ምስራቅ	-6696
ረዘ	-6697
ዝን	-6698
ጥራ	-6699
ራሮች	-6700
ጣቢያ	-6701
▁እኅ	-6702
ባቢሎን	-6703
▁ነኝና	-6704
ኢትዮጵያ	-6705
▁አድርጉ	-6706
▁እንደኾነ	-6707
▁የመቋቋም	-6708
▁ምክንያቶች	-6709
▁ro	-6710
▁ልም	-6711
▁Coin	-6712
▁ቆይቷል	-6713
▁ተዘጋጅ	-6714
▁እቃዎች	-6715
▁የተሠራ	-6716
▁የተሳሳ	-6717
▁ነጋዴዎች	-6718
42	-6719
ሳችን	-6720
ወጣው	-6721
ያየት	-6722
ግነት	-6723
ፈለገ	-6724
▁ቁል	-6725
▁ቅና	-6726
▁ኦክስ	-6727
▁የተጋ	-6728
▁ያገኘ	-6729
▁እንዳያ	-6730
▁የለባቸውም	-6731
;.	-6732
Ch	-6733
ሀነ	-6734
ምታ	-6735
ናኛ	-6736
ree	-6737
ቀቶች	-6738
ከንቱ	-6739
ዲኤፍ	-6740
▁ቁጣ	-6741
ላቸው።	-6742
ተዋል።	-6743
ፐብሊክ	-6744
▁በጥን	-6745
▁ብለን	-6746
▁ነፍሴ	-6747
▁የጎን	-6748
icial	-6749
▁በዳዮች	-6750
▁ውድድር	-6751
▁እያንዳን	-6752
▁እንደኾናችሁ	-6753
ግዱ	-6754
ገደበ	-6755
▁ፌዴ	-6756
ችኋለን	-6757
▁በይፋ	-6758
▁አርቲ	-6759
▁እችላ	-6760
▁ፍሰት	-6761
▁ማረጋገጥ	-6762
▁አደባባይ	-6763
PF	-6764
አር	-6765
ማመጥ	-6766
ባለው	-6767
ጠሩት	-6768
▁sm	-6769
▁ምጽ	-6770
▁እህ	-6771
duct	-6772
ዎችንም	-6773
▁ለነሱ	-6774
▁ብየዳ	-6775
▁ኀጢአ	-6776
▁ዘወር	-6777
▁ይመጣል	-6778
▁ፋይሎች	-6779
▁ተሽከርካሪ	-6780
ሮት	-6781
ነዳ	-6782
ዥም	-6783
▁ኔ	-6784
መለክ	-6785
ምረቻ	-6786
▁ህን	-6787
▁ማርች	-6788
ግዚቢሽን	-6789
▁ህብረት	-6790
▁መቀነስ	-6791
▁ተቀምጦ	-6792
▁አሏቸው	-6793
▁አንደኛ	-6794
▁ካህናት	-6795
▁ዋጋዎች	-6796
▁ይገባው	-6797
▁አመለካከት	-6798
ao	-6799
ነብ	-6800
ኒን	-6801
ሌቶች	-6802
በላሹ	-6803
ገልጽ	-6804
▁ሐኪ	-6805
▁አምላኬ	-6806
▁አሰጣጥ	-6807
▁የውሂብ	-6808
▁ዶክተር	-6809
FC	-6810
ገጽ	-6811
ግራይ	-6812
▁MS	-6813
▁ሳሉ	-6814
▁Mod	-6815
▁ቀበቶ	-6816
▁አጋር	-6817
▁ጊዜው	-6818
▁ማውጣት	-6819
▁ምድርም	-6820
▁ተመለሰ	-6821
▁ወንዶችና	-6822
▁የወረቀት	-6823
:7	-6824
ፍለ	-6825
ካሄደ	-6826
▁ጽዋ	-6827
▁USB	-6828
▁የመንግስት	-6829
ሃል።	-6830
ሪቱን	-6831
ሪያል	-6832
ታወቀ	-6833
ከለከ	-6834
▁9.	-6835
▁ያድ	-6836
athe	-6837
over	-6838
▁ሆነ፥	-6839
▁ስቃይ	-6840
▁የማስታ	-6841
▁ፍራፍሬ	-6842
▁አመልካች	-6843
▁Outlook	-6844
ሲክ	-6845
ታል፤	-6846
ክፈት	-6847
▁ሆር	-6848
▁ግቢ	-6849
▁ስገዱ	-6850
▁እርሷም	-6851
▁አለብዎት	-6852
▁የላችሁም	-6853
AM	-6854
ሚክ	-6855
ሪው	-6856
ሻሽ	-6857
ዋሚ	-6858
ዘዘ	-6859
ፎን	-6860
ራቢያ	-6861
ቀበል	-6862
▁ፍጡ	-6863
▁ዘመቻ	-6864
▁እነዚህም	-6865
▁የተደረገ	-6866
ገላ	-6867
ፆች	-6868
oss	-6869
que	-6870
ware	-6871
ቁርኣን	-6872
▁ሀምሌ	-6873
▁ሕጋዊ	-6874
▁በፊትህ	-6875
▁አስቀድ	-6876
▁ከሁሉም	-6877
ከመ	-6878
▁Gr	-6879
ክርነት	-6880
▁ሆነ።	-6881
▁በአባ	-6882
▁ተጠና	-6883
▁ካልተ	-6884
▁የኤች	-6885
▁ይበል	-6886
▁ይሁን።	-6887
▁የህክምና	-6888
.)	-6889
በታል።	-6890
▁በመላ	-6891
▁ግብረ	-6892
▁አስረጅ	-6893
▁አትክል	-6894
▁ለመጀመር	-6895
▁መንገድን	-6896
ስጥኤማውያን	-6897
▁የቴክኖሎጂ	-6898
61	-6899
CS	-6900
ራቅ	-6901
ፋስ	-6902
-03	-6903
App	-6904
ያውቅ	-6905
▁ትሬ	-6906
▁ጠረ	-6907
Tube	-6908
ንተርኔት	-6909
▁መቁረጥ	-6910
▁ማሻሻያ	-6911
▁ስዕሎች	-6912
▁የደቡብ	-6913
ክርስቲያን	-6914
▁የሚደረግ	-6915
▁እንዲያውም	-6916
DP	-6917
ake	-6918
den	-6919
ከሪያ	-6920
ዝገቡ	-6921
▁ላለ	-6922
▁ኤፍ	-6923
ገልገል	-6924
▁ለብዙ	-6925
▁ሲቀሩ	-6926
▁አንዴ	-6927
▁ወዳጅ	-6928
▁Comp	-6929
▁በእርግ	-6930
▁ተሰጥቶ	-6931
▁ካታሎግ	-6932
▁በአሕዛብ	-6933
:9	-6934
ll	-6935
ነሰ	-6936
ኬሽን	-6937
ጋሩት	-6938
▁ፈለ	-6939
▁ፒሲ	-6940
▁አዝማ	-6941
▁የእኔን	-6942
▁ከእነዚያ	-6943
ረካ	-6944
▁ዔ	-6945
ለትም	-6946
ባበል	-6947
▁ሊፈ	-6948
▁በዮ	-6949
ሎቻቸው	-6950
▁ድንቅ	-6951
▁ምዕራብ	-6952
▁ኃይሎች	-6953
▁የታወቀ	-6954
▁ለማንበብ	-6955
▁ተከታዮች	-6956
▁discuss	-6957
49	-6958
ለይ	-6959
ንቀት	-6960
▁05	-6961
▁ሜዳ	-6962
▁የዜ	-6963
▁ገፅ	-6964
ሚያዎች	-6965
ታወቀው	-6966
▁ለመን	-6967
▁መስጊ	-6968
▁ኢሜልዎን	-6969
▁የአእምሮ	-6970
ሶታ	-6971
ፌት	-6972
▁\	-6973
መነዳ	-6974
▁ክስ	-6975
raft	-6976
ዋቸውም	-6977
▁ገላጭ	-6978
aster	-6979
▁ባለስል	-6980
▁ከአሁን	-6981
▁ማስገቢያ	-6982
▁የሕይወት	-6983
▁ይጠቀማል	-6984
▁የሚከተሉት	-6985
▁ትራንስፖርት	-6986
▁በመካከላቸውም	-6987
fr	-6988
ስለ	-6989
ስያ	-6990
ናሉ	-6991
ፍሩ	-6992
▁ጐ	-6993
ድስት	-6994
▁በጠ	-6995
▁ጋራ	-6996
▁በትር	-6997
▁ውሃን	-6998
▁ይታወ	-6999
▁በሚገባ	-7000
▁በደስታ	-7001
▁ያደረጉ	-7002
▁እርሱንም	-7003
SS	-7004
ei	-7005
ህ።	-7006
ኾና	-7007
ጋው	-7008
ምረጥ	-7009
▁On	-7010
▁ለጋ	-7011
▁ማዶ	-7012
▁መጽሐፈ	-7013
▁ማድረስ	-7014
▁በከፊሉ	-7015
▁መገናኘት	-7016
▁ጥበበኛው	-7017
ሰዱ	-7018
በታ	-7019
ከሙ	-7020
:19	-7021
pcs	-7022
▁ድብ	-7023
▁ለመሸ	-7024
▁አምጡ	-7025
agram	-7026
▁ምስልን	-7027
▁ሲሳይን	-7028
▁በሰዎች	-7029
▁የሚመራ	-7030
▁እንዳለው	-7031
▁ይጀምራል	-7032
41	-7033
ጠጣ	-7034
ፖች	-7035
اله	-7036
ያለሁ	-7037
ጃዎች	-7038
▁የሉ	-7039
ጠናቀቅ	-7040
▁ብቸኛ	-7041
▁መረዳት	-7042
▁በሰይፍ	-7043
▁በኢሜል	-7044
▁ነገሩን	-7045
▁جلاله	-7046
ኩልቲ	-7047
ካተተ	-7048
▁Or	-7049
▁ገን	-7050
▁ሰጣቸው	-7051
▁ተሳትፎ	-7052
▁አማልክ	-7053
▁አግኙን	-7054
▁ያመጣል	-7055
▁አንድንም	-7056
▁እናንተን	-7057
▁ማስታወቂያዎች	-7058
76	-7059
ላጅ	-7060
ጠመ	-7061
▁z	-7062
arn	-7063
ጀምር	-7064
▁IT	-7065
▁ተኮ	-7066
▁ከየ	-7067
▁ከማን	-7068
▁ክፈት	-7069
▁ፕሬስ	-7070
▁በፊትም	-7071
▁ንቅሳቶች	-7072
▁ከመጽሐፉ	-7073
ዴል	-7074
als	-7075
መስል	-7076
▁ናይ	-7077
▁ይዋ	-7078
ልንጀራ	-7079
▁አለች	-7080
▁የጣቢያ	-7081
▁ጣሊያን	-7082
▁መረጃዎች	-7083
▁ታውቃላችሁ	-7084
በሰ	-7085
ደትን	-7086
▁ምል	-7087
▁ተቈ	-7088
37"&	-7089
▁Sch	-7090
▁ተሳታ	-7091
▁ንጹህ	-7092
▁አከፋ	-7093
▁ኬብል	-7094
▁ጃፓን	-7095
▁2005	-7096
▁የሚቀር	-7097
▁ፍጥረት	-7098
▁ይላቸዋል	-7099
▁ኢኮኖሚያዊ	-7100
lockchain	-7101
ኹን	-7102
ዝቦቹ	-7103
ፍራም	-7104
▁BS	-7105
▁በሸ	-7106
▁በፖ	-7107
▁ጋሻ	-7108
▁በህግ	-7109
▁በተቃ	-7110
▁ሙሐመድ	-7111
▁ተመለስ	-7112
▁ከሁለቱ	-7113
▁ዜናዎች	-7114
▁ዝንባሌ	-7115
▁ግንባር	-7116
▁ቦርሳዎች	-7117
▁ከእውነት	-7118
▁እስራኤልም	-7119
ጽኦ	-7120
eya	-7121
ትም።	-7122
▁(2)	-7123
▁በሮች	-7124
▁አሠራ	-7125
irect	-7126
▁መተካት	-7127
▁በኀይል	-7128
▁ትንታኔ	-7129
▁አዳራሽ	-7130
▁መጻሕፍት	-7131
ርጅ	-7132
ምድና	-7133
▁ቫን	-7134
▁ገመ	-7135
▁በውኃ	-7136
▁አሲድ	-7137
መልካቾች	-7138
▁መናገር	-7139
▁አንዳች	-7140
▁አዝራር	-7141
▁የሚሰራ	-7142
▁አግኝቷል	-7143
ደርገ	-7144
▁SD	-7145
▁ነኝ።	-7146
▁እትም	-7147
ebeya	-7148
▁አለብን	-7149
▁የሚሰጥ	-7150
▁State	-7151
▁ማቀዝቀዣ	-7152
artment	-7153
▁ሞተርሳይክሎች	-7154
ጫት	-7155
any	-7156
ሰጡት	-7157
ነገጽ	-7158
▁SH	-7159
▁በስፋት	-7160
▁ሽማግሌዎች	-7161
ዚል	-7162
-30	-7163
ኾኑት	-7164
▁ST	-7165
NUMX	-7166
ዎችንና	-7167
▁ገጽታ	-7168
▁ጥላቻ	-7169
▁መለወጥ	-7170
▁ሰጥቷል	-7171
▁ትመለሳ	-7172
▁ካርቦን	-7173
▁ተጠንቀቁ	-7174
▁ወታደራዊ	-7175
▁የመግቢያ	-7176
▁አስተባበሉ	-7177
▁ኮምፒውተር	-7178
82	-7179
ኅሩ	-7180
0.0	-7181
ኞችም	-7182
ጧቸው	-7183
ጫወቻ	-7184
▁ያከ	-7185
▁ፕሪ	-7186
▁ወረደ	-7187
▁ጣሪያ	-7188
▁Cont	-7189
▁ተባባሪ	-7190
▁አድራጊ	-7191
▁ይሆናሉ	-7192
▁መልክተኞ	-7193
▁ለመገንባት	-7194
▁ኢንቨስትመንት	-7195
5"	-7196
-05	-7197
ሞንም	-7198
ስታው	-7199
ጭበር	-7200
▁የር	-7201
▁ግር	-7202
▁ሊሆኑ	-7203
▁እፈራ	-7204
▁Home	-7205
▁ሰማያት	-7206
▁ኃጢኣት	-7207
▁ደንቦች	-7208
▁ለመቀበል	-7209
▁መድኃኒት	-7210
▁ተወዳዳሪ	-7211
▁አቀማመጥ	-7212
▁እነርሱን	-7213
▁የደንበኛ	-7214
go	-7215
urn	-7216
▁SK	-7217
▁ርኵ	-7218
▁ባሮች	-7219
▁አዘዘ	-7220
▁የመስ	-7221
▁CarG	-7222
▁ለወንድ	-7223
▁ስደተኛ	-7224
▁የኾኑን	-7225
▁የቅንጦት	-7226
▁ይመለሳሉ	-7227
▁ማስተላለፍ	-7228
▁CarGebeya	-7229
js	-7230
me	-7231
ሱፍ	-7232
ቆሙ	-7233
ንጣ	-7234
ጫዊ	-7235
ari	-7236
ሳሰብ	-7237
ኖሩት	-7238
ጀንሲ	-7239
▁በሺ	-7240
▁ኑሮ	-7241
01"&	-7242
▁መዝሙ	-7243
▁ገብቶ	-7244
ውሮፕላን	-7245
▁(201	-7246
▁መጨመር	-7247
▁ካርዶች	-7248
▁የተሞላ	-7249
itemap	-7250
ዟል	-7251
ዬም	-7252
▁09	-7253
▁ታን	-7254
▁ሆንሁ	-7255
▁ሙሴን	-7256
▁ጌታው	-7257
▁ለነርሱ	-7258
▁እንድታ	-7259
▁ደህንነቱ	-7260
▁ደጋፊዎች	-7261
ife	-7262
ኛልና	-7263
ጠየቅ	-7264
▁ቃለ	-7265
▁ከራ	-7266
ለዋል።	-7267
ስቲክስ	-7268
▁are	-7269
▁ሽልማ	-7270
▁ባለቤ	-7271
▁ተክል	-7272
▁ኪንግ	-7273
▁በአፍሪካ	-7274
▁ከእምነት	-7275
▁የተባበሩት	-7276
ፈቻ	-7277
፱፻	-7278
ሉንም	-7279
ቲቱም	-7280
ቶቹም	-7281
ኑንም	-7282
ወይም	-7283
▁im	-7284
▁ከይ	-7285
ansp	-7286
ፈረንስ	-7287
▁አጥር	-7288
▁በርሱም	-7289
▁ከፊሉን	-7290
▁የአገር	-7291
▁ሙስሊሞች	-7292
▁በነበራችሁ	-7293
▁ማስጠንቀቂያ	-7294
▁በእግዚአብሔርም	-7295
/0	-7296
ካክ	-7297
ገፋ	-7298
Bet	-7299
res	-7300
yst	-7301
ወርድ	-7302
ዋርያት	-7303
ጠናከር	-7304
▁ይላኩ	-7305
▁undo	-7306
▁ተነሥቶ	-7307
▁አንጻር	-7308
▁የአዲስ	-7309
▁እንዲሆኑ	-7310
▁እናደርጋለን	-7311
ረሳ	-7312
ታዩ	-7313
ቋረጥ	-7314
▁Te	-7315
▁ይሉ	-7316
▁እናስ	-7317
▁ጀመር	-7318
▁መገናኛ	-7319
▁የሆኑት	-7320
▁የባሕር	-7321
▁በመንፈስ	-7322
▁በመውሰድ	-7323
▁በእምነት	-7324
▁ነዋሪዎች	-7325
▁የሰውነት	-7326
LC	-7327
ጡ፥	-7328
ዛማጅ	-7329
▁as	-7330
▁ቀሚ	-7331
▁እሽ	-7332
rist	-7333
መጣጣኝ	-7334
▁ቀጥታ	-7335
▁እሴት	-7336
▁ወደቀ	-7337
▁መገልገ	-7338
▁ሦስተኛ	-7339
▁ራስህን	-7340
▁በጨለማ	-7341
▁ወደዚያ	-7342
▁የንጉሡ	-7343
▁መስፈሪያ	-7344
▁እየጨመረ	-7345
▁ይከጀላልና	-7346
ገለጠ	-7347
ጻናት	-7348
ፍሬም	-7349
▁DR	-7350
▁ስቴ	-7351
▁ጉድ	-7352
▁የወጣ	-7353
▁መግባት	-7354
▁ማዕዘን	-7355
▁እሳትን	-7356
▁ይደረጋል	-7357
pt	-7358
ክክ	-7359
400	-7360
ለኪዩ	-7361
ምራዊ	-7362
ተኮር	-7363
እንደ	-7364
▁PU	-7365
▁Mac	-7366
▁ራእይ	-7367
▁በሌሊ	-7368
▁በየወ	-7369
▁ተለው	-7370
▁ወደዚህ	-7371
▁የተማሪ	-7372
▁መጭመቂያ	-7373
▁አልቻለም	-7374
▁አባቶቻችን	-7375
▁የፋይናንስ	-7376
ሰሳ	-7377
በቀ	-7378
ብላ	-7379
ጋቢ	-7380
-07	-7381
ልበት	-7382
▁Ac	-7383
▁አነ	-7384
land	-7385
ዎቹንም	-7386
▁የፋይ	-7387
▁ተዋቸው	-7388
▁አካዳሚ	-7389
▁ጣዖታት	-7390
▁ጸጸትን	-7391
▁ቁርኣንን	-7392
▁በይነገጽ	-7393
▁ሞተርሳይክል	-7394
63	-7395
ቤን	-7396
ናኝ	-7397
እስ	-7398
▁—	-7399
ድነው	-7400
ግግር	-7401
▁ግቡ	-7402
▁ላሉት	-7403
▁አውጥ	-7404
▁ግን።	-7405
aveat	-7406
▁በሰሜን	-7407
▁አይሁድ	-7408
ations	-7409
▁ራሳቸውን	-7410
▁ውስብስብ	-7411
▁መሆናቸውን	-7412
ሯዊ	-7413
በበ	-7414
▁ዠ	-7415
▁በኵ	-7416
▁መደብ	-7417
▁ፍቃድ	-7418
▁ማሻሻል	-7419
▁በወንድ	-7420
▁ታደርጋ	-7421
▁አገዛዝ	-7422
▁ወንበር	-7423
▁ጠፍጣፋ	-7424
pa	-7425
ልባ	-7426
ባማ	-7427
የሽ	-7428
:30	-7429
its	-7430
ከለክ	-7431
ካክሉ	-7432
▁Hu	-7433
ally	-7434
መስረት	-7435
▁Met	-7436
▁ቁራጭ	-7437
▁በመጡ	-7438
▁የስር	-7439
▁የኬሚ	-7440
ብረተሰብ	-7441
ቶቻችሁም	-7442
▁ማጥፋት	-7443
▁ነቢያት	-7444
▁ደንበኛ	-7445
▁አያምኑም	-7446
▁የኾነውን	-7447
▁Apr	-7448
▁EUR	-7449
▁Med	-7450
▁ሰረገ	-7451
▁በድር	-7452
▁አስከ	-7453
▁ዳግም	-7454
▁ፖርት	-7455
▁መስማት	-7456
▁ማህበረ	-7457
▁በጥብቅ	-7458
▁ከተማይ	-7459
▁ግለሰቦች	-7460
aveatrain	-7461
▁ቾ	-7462
ane	-7463
ለቱም	-7464
ፋቸው	-7465
▁II	-7466
▁ለዳ	-7467
▁2.5	-7468
▁New	-7469
▁ሊገኝ	-7470
▁ሰላምታ	-7471
▁በጭራሽ	-7472
▁በመጨረሻው	-7473
▁አሉሚኒየም	-7474
▁Official	-7475
ፈነ	-7476
ፌር	-7477
oly	-7478
ማሪያ	-7479
ሲባዊ	-7480
▁5,	-7481
▁በና	-7482
▁ተአ	-7483
▁Aut	-7484
▁በቀጣ	-7485
▁ክፈፍ	-7486
▁ውሰድ	-7487
▁በፍርድ	-7488
ስተዋወቂያ	-7489
▁ተደጋጋሚ	-7490
ቀዋል	-7491
▁NO	-7492
▁በሆ	-7493
▁ቀዳዳ	-7494
▁እስክ	-7495
▁ከሁሉ	-7496
▁ይከፍ	-7497
▁ጻድቅ	-7498
▁መክፈል	-7499
▁ነውና።	-7500
▁የሚውል	-7501
ካሚ	-7502
ሊንግ	-7503
ኒስት	-7504
ጠነቀ	-7505
▁መንጋ	-7506
▁በዋና	-7507
▁ተወካ	-7508
▁ከርሷ	-7509
▁ከበላ	-7510
▁ቅጣትን	-7511
▁የተገደ	-7512
▁ጥርጣሬ	-7513
▁እናውቃለን	-7514
ointment	-7515
ዘረጋ	-7516
▁ልባ	-7517
▁ቀረ	-7518
▁ጌጥ	-7519
▁Win	-7520
▁በጋራ	-7521
▁ጡባዊ	-7522
▁ፕሮቶ	-7523
▁Card	-7524
▁መቁረጫ	-7525
▁ቦይንግ	-7526
▁ክልሎች	-7527
▁ምርቶችን	-7528
▁ይመዝገቡ	-7529
▁የሚያረጋግ	-7530
ሻል	-7531
በአ	-7532
ቧል	-7533
ጎን	-7534
▁፳	-7535
▁ለድ	-7536
▁የቀረ	-7537
▁ጎዳና	-7538
▁በሁለቱ	-7539
▁ይኖርብ	-7540
▁ተዓምራቶች	-7541
ማመን	-7542
ያዋን	-7543
▁ከሐ	-7544
▁ምሽት	-7545
▁ዋናዉ	-7546
▁ይመራ	-7547
▁ፋሽን	-7548
▁Visa	-7549
▁ቅናሾች	-7550
saveatrain	-7551
ውቅም	-7552
▁06	-7553
33"&	-7554
▁Air	-7555
▁Che	-7556
▁መጽሔ	-7557
▁ተንኮ	-7558
▁የተጎ	-7559
▁መጠየቅ	-7560
▁በደረጃ	-7561
▁አመስጋ	-7562
▁ለማሳየት	-7563
▁አይደለንም	-7564
fs	-7565
ሊዮ	-7566
ips	-7567
ለምዶ	-7568
ሽኖች	-7569
▁ለክ	-7570
▁በሴ	-7571
▁በጋ	-7572
▁ዙር	-7573
▁በባለ	-7574
▁የመቁ	-7575
▁የተደ	-7576
▁ያደረግ	-7577
▁ምሥክርነት	-7578
ወጫ	-7579
ዕኮ	-7580
ጠቁ	-7581
anc	-7582
ርትራ	-7583
▁wh	-7584
▁ሳት	-7585
inch	-7586
▁ለነፍ	-7587
▁ትንቢ	-7588
▁እርዳ	-7589
▁ከሰው	-7590
▁ልጥፎች	-7591
▁ሕዝቦቼ	-7592
▁ጥንቃቄ	-7593
▁በርሳቸው	-7594
▁እነርሱም።	-7595
ጭቆ	-7596
eld	-7597
ቀበሉ	-7598
▁ሕገ	-7599
▁የቲ	-7600
cont	-7601
hats	-7602
▁ካጋጠ	-7603
▁የማያስ	-7604
▁ጎማዎች	-7605
▁ጓደኞች	-7606
▁የተቀደሰ	-7607
py	-7608
ለፉ	-7609
ቅድም	-7610
ዢዎች	-7611
▁CC	-7612
▁በሜ	-7613
ፈልጉት	-7614
▁ከመስ	-7615
▁ዛፎች	-7616
▁ፍጆታ	-7617
ይጂያንግ	-7618
▁ውርርድ	-7619
▁Department	-7620
EP	-7621
ሳራ	-7622
ድሩ	-7623
ለተኛ	-7624
ችሁት	-7625
ንያም	-7626
▁ሜዲ	-7627
▁ሳያ	-7628
▁ስፕ	-7629
ገባቸው	-7630
▁(19	-7631
▁ነዎት	-7632
▁ዮርክ	-7633
▁መጀመር	-7634
▁ማለትም	-7635
▁አልነበሩም	-7636
▁እንደሚችል	-7637
ምህ	-7638
ሶን	-7639
ero	-7640
ንበት	-7641
ደዋል	-7642
▁XL	-7643
▁XX	-7644
▁በሉ	-7645
ራቸውን	-7646
ርስዋም	-7647
▁ቅርጸ	-7648
▁በበጎ	-7649
▁ፈጠረ	-7650
▁ምሥራቅ	-7651
▁ተራሮች	-7652
▁እችላለሁ	-7653
▁ጥያቄዎን	-7654
▁የማስተዋወቂያ	-7655
bet	-7656
olt	-7657
▁DC	-7658
▁ዞሮ	-7659
▁ማቀና	-7660
▁ከብዙ	-7661
amaha	-7662
▁ፋኩልቲ	-7663
▁እንደማይ	-7664
▁አምላካችን	-7665
▁ዠይጂያንግ	-7666
▁በመካከላችሁ	-7667
",	-7668
ሂዱ	-7669
ጽና	-7670
▁ብቁ	-7671
ክተሮች	-7672
▁750	-7673
▁ትበላ	-7674
ይነመረብ	-7675
▁መደብር	-7676
▁አስተናጋ	-7677
▁በአንቀጾቻችን	-7678
ስካ	-7679
ላጆች	-7680
▁ማቅ	-7681
ቸዋለህ	-7682
▁አደራ	-7683
▁እጁን	-7684
▁መስኮች	-7685
▁ኤጀንሲ	-7686
▁ኮሚሽን	-7687
▁የጨዋታ	-7688
▁ይመራል	-7689
▁ይፈልጋል	-7690
▁ትመለሳላችሁ	-7691
ጠም	-7692
ፆታ	-7693
:21	-7694
gen	-7695
ike	-7696
▁እጁ	-7697
ንብረት	-7698
▁2.0	-7699
▁ሠሪዎች	-7700
▁ተዛማጅ	-7701
▁ዘመናት	-7702
▁አላውቅም	-7703
▁ኮርፖሬሽን	-7704
▁የሚያደርጉ	-7705
ለስ	-7706
ር፥	-7707
ቃቃ	-7708
ከሰ	-7709
ገዝ	-7710
▁ጤ	-7711
-08	-7712
600	-7713
:20	-7714
ፃፀም	-7715
▁Ab	-7716
="6.	-7717
jack	-7718
▁0.5	-7719
▁Black	-7720
▁አደረገ።	-7721
▁የተለመደ	-7722
▁Instagram	-7723
ጣኔ	-7724
-19	-7725
igr	-7726
ረምት	-7727
ቃል።	-7728
▁ቅዳ	-7729
▁እጀ	-7730
▁KTM	-7731
▁ላለው	-7732
▁መምህ	-7733
ዘርላንድ	-7734
▁ተቃውሞ	-7735
▁ታዛዦች	-7736
▁ወዮላቸው	-7737
▁ጓደኝነት	-7738
▁Deposit	-7739
ለጽ	-7740
ሴላዊ	-7741
▁ኪሎ	-7742
▁ልማድ	-7743
▁እራስ	-7744
▁ይፈጥ	-7745
▁የፌዴራል	-7746
▁የተመዘገበ	-7747
▁የእንስሳት	-7748
▁ዳይሬክተር	-7749
▁የሃይድሮሊክ	-7750
ርቻ	-7751
urg	-7752
ችሉት	-7753
▁ቢሰ	-7754
▁ዝን	-7755
▁ፈራ	-7756
ቀሳቀስ	-7757
▁ስልት	-7758
▁በዳይ	-7759
▁ነዳጅ	-7760
▁ይሸፍ	-7761
▁ይፈት	-7762
ከተለውን	-7763
▁ከግብፅ	-7764
▁ካህኑም	-7765
▁ዕድገት	-7766
▁የባንክ	-7767
▁ይኖራል	-7768
▁March	-7769
▁Techn	-7770
▁ግንኙነቶች	-7771
▁ኢንዱስትሪዎች	-7772
ርቃ	-7773
አል፥	-7774
ጂዎች	-7775
▁us	-7776
▁አቤ	-7777
here	-7778
ደጋጋሚ	-7779
▁አለ፤	-7780
▁የተተ	-7781
▁ፍጠር	-7782
▁መልሶ።	-7783
▁አልነበር	-7784
ansposh	-7785
ው፥	-7786
ሃለን	-7787
ንተና	-7788
ፕሎማ	-7789
▁CF	-7790
="10	-7791
መሰግኑ	-7792
▁ብልጭ	-7793
▁ተባለ	-7794
▁ዕለት	-7795
▁ብለዋል	-7796
▁አንብብ	-7797
▁ያንንም	-7798
▁የአላህንም	-7799
ዱል	-7800
ገሠ	-7801
▁፬	-7802
:22	-7803
በት።	-7804
▁64	-7805
መርመር	-7806
▁የገና	-7807
▁ሀሳቦች	-7808
▁ብዙዎቹ	-7809
▁አስቂስ	-7810
▁ወዳጆች	-7811
▁የራሱን	-7812
▁የተባለ	-7813
▁ጌታቸው	-7814
▁አይነቶች	-7815
▁አካባቢያዊ	-7816
62	-7817
to	-7818
ቶቼ	-7819
ጓዙ	-7820
▁ሰፋ	-7821
▁ብሄ	-7822
▁28,	-7823
▁ማሰብ	-7824
▁አሮጌ	-7825
▁በሕይወ	-7826
▁እንደመ	-7827
▁የፕሬስ	-7828
▁ያስተባበ	-7829
▁ፍላጎቶች	-7830
▁ምክንያታዊ	-7831
ሙስ	-7832
ሽኑ	-7833
ምረው	-7834
ነበሩ	-7835
ከተለ	-7836
ያያዙ	-7837
▁IC	-7838
ንዶውስ	-7839
▁(10	-7840
▁101	-7841
▁mod	-7842
▁መብቱ	-7843
▁ምረቃ	-7844
▁ቶነር	-7845
▁የህግ	-7846
▁የመታ	-7847
▁ሀገሮች	-7848
▁በግምት	-7849
▁ብራንድ	-7850
▁ያስገቡ	-7851
▁ሪፐብሊክ	-7852
▁ትችላለህ	-7853
▁Yamaha	-7854
ባሲ	-7855
ውር	-7856
ፈቀ	-7857
ቆየት	-7858
▁መማር	-7859
▁የልጅ	-7860
▁የኮር	-7861
▁ይጫወ	-7862
▁ጨምር	-7863
▁የተሟላ	-7864
▁ተሰጥቷቸዋል	-7865
▁የሚፈልጉትን	-7866
▁Appointment	-7867
5)	-7868
ሪል	-7869
ቷን	-7870
ኖብ	-7871
ደባ	-7872
ግድ	-7873
ፓር	-7874
5"&	-7875
ler	-7876
ልቀት	-7877
ቃሉ።	-7878
▁Pe	-7879
ific	-7880
▁ለማዳ	-7881
▁በሆኑ	-7882
▁አቋም	-7883
▁ውሸት	-7884
▁ይደር	-7885
▁ይገለ	-7886
▁Gear	-7887
▁ለሌሎች	-7888
▁ማሞቂያ	-7889
▁በሕዝቡ	-7890
▁ከሁለት	-7891
▁የሚባል	-7892
▁የተወደ	-7893
▁ሲሊንደር	-7894
▁ኮንፈረንስ	-7895
▁በዛ	-7896
▁ተቆ	-7897
36"&	-7898
▁180	-7899
▁ሁነታ	-7900
▁ለሆኑ	-7901
▁አግድ	-7902
▁ገንዳ	-7903
▁ፈቀቅ	-7904
▁በገንዘ	-7905
▁የፍርድ	-7906
▁በመጽሐፉ	-7907
ላቁ	-7908
ራፊ	-7909
ጠፈ	-7910
:24	-7911
ቀመጠ	-7912
▁at	-7913
▁ሮዝ	-7914
▁ሰሙ	-7915
▁ቆር	-7916
▁አቢ	-7917
ለሁለት	-7918
▁ልጅ፥	-7919
▁ሕፃን	-7920
▁ቀርቦ	-7921
▁የስነ	-7922
ative	-7923
መለከተው	-7924
▁እንግዳ	-7925
▁የእግር	-7926
▁ጴጥሮስ	-7927
▁ማስተካከ	-7928
▁ለእነዚያም	-7929
81	-7930
ሰና	-7931
ደይ	-7932
une	-7933
ሸነፍ	-7934
ጠይቃ	-7935
▁ab	-7936
▁ዘካ	-7937
▁iOS	-7938
▁በጎች	-7939
▁ወረዳ	-7940
▁ከኾነው	-7941
▁ዘላለም	-7942
▁ያስቀም	-7943
▁ለማሳደግ	-7944
▁ያመኑትን	-7945
HS	-7946
uy	-7947
መቀ	-7948
ሪም	-7949
ዋር	-7950
ውራ	-7951
ole	-7952
par	-7953
▁ቅመሱ	-7954
▁የተቆ	-7955
▁የደረ	-7956
▁ጠርዝ	-7957
▁ከእሳት	-7958
▁በእርግጠኝነት	-7959
IM	-7960
ውታረ	-7961
ጥጥር	-7962
▁ማካ	-7963
▁ሂሳብ	-7964
▁ወፍጮ	-7965
▁Wars	-7966
▁ካፕቶፕ	-7967
▁ዘወትር	-7968
▁የሳይን	-7969
▁የኩባንያ	-7970
▁ያደረገው	-7971
▁አይደላችሁም	-7972
ታዘዙ	-7973
ክስል	-7974
▁ቢሻ	-7975
▁ከሃ	-7976
▁ዓሣ	-7977
▁ዩኬ	-7978
▁አይቶ	-7979
▁ይሽጡ	-7980
ታቸውንም	-7981
▁ልጆችን	-7982
▁መሥሪያ	-7983
▁በመባል	-7984
▁ንግሥና	-7985
▁የጃፓን	-7986
▁ለመፈለግ	-7987
▁ለማሟላት	-7988
▁ምእምናን	-7989
▁YouTube	-7990
IF	-7991
ዓም	-7992
▁ፉ	-7993
ህነት	-7994
▁ቅሬታ	-7995
▁እመኑ	-7996
▁ሰላማዊ	-7997
▁የካናዳ	-7998
▁ሳምንቶች	-7999
▁ኦፊሴላዊ	-8000
▁ያካትታሉ	-8001
▁በተደጋጋሚ	-8002
▁አሸናፊዎች	-8003
ኛም	-8004
ልንም	-8005
ኛል።	-8006
ወሰድ	-8007
▁ስጋ	-8008
▁ንጽ	-8009
view	-8010
ሏቸዋል	-8011
▁በረዶ	-8012
▁ካናዳ	-8013
▁የኋላ	-8014
▁ጥብቅ	-8015
board	-8016
oofer	-8017
▁በተቻለ	-8018
▁የሙዚቃ	-8019
▁ሁላችንም	-8020
▁በሁለቱም	-8021
▁አምላካችሁ	-8022
▁ዎርድፕረስ	-8023
au	-8024
ድዮ	-8025
ata	-8026
ual	-8027
ሉትና	-8028
ነናል	-8029
ፈሩት	-8030
▁ምሰ	-8031
▁ኃያ	-8032
▁ካሉ	-8033
ኖርዌይ	-8034
ያንጂን	-8035
ጠራጠር	-8036
▁አብሳ	-8037
▁ውዴታ	-8038
▁ውጫዊ	-8039
▁ይደግ	-8040
ocket	-8041
ravel	-8042
▁ይሁን፤	-8043
▁ይረዳል	-8044
▁መገንባት	-8045
▁የሚያውቁ	-8046
▁የሻንጋይ	-8047
▁በመጀመሪያው	-8048
ጥሩ	-8049
con	-8050
ገሰጹ	-8051
▁መባ	-8052
▁ቀፎ	-8053
▁ተጀ	-8054
67"&	-8055
ኅንነት	-8056
ገኝነት	-8057
▁ለመተ	-8058
▁ሕንጻ	-8059
▁ነው፣	-8060
▁ውሰጥ	-8061
▁ፓሪስ	-8062
▁መከተል	-8063
▁ማደሪያ	-8064
▁በአሥራ	-8065
▁ያወረደ	-8066
▁ግብይት	-8067
lectro	-8068
▁በተያያዘ	-8069
▁ለማስወገድ	-8070
▁አገልግሎቶችን	-8071
ኔታ	-8072
ath	-8073
▁He	-8074
▁ባዮ	-8075
eter	-8076
ነሪንግ	-8077
▁Rep	-8078
▁Rob	-8079
▁ይገል	-8080
▁ይጠራ	-8081
▁ይጠፋ	-8082
▁ቀለሞች	-8083
▁የልማት	-8084
ቶቻቸውንም	-8085
▁ማናቸውም	-8086
▁አቀራረብ	-8087
▁አገናኞች	-8088
▁የግንባታ	-8089
ለታዊ	-8090
ጠብቁ	-8091
ርኖኖብ	-8092
ንዳንድ	-8093
▁ሰጠው	-8094
▁ይመል	-8095
▁ገሀነ	-8096
▁ግጭት	-8097
▁ለረጅም	-8098
▁ታላላቅ	-8099
▁inter	-8100
▁ሃርድዌር	-8101
▁በብርሃን	-8102
▁ወደእርሱ	-8103
▁ያለባቸው	-8104
▁ዶርኖኖብ	-8105
▁አይችልም።	-8106
ij	-8107
ባድ	-8108
ዱ፥	-8109
ጠይቁ	-8110
▁99	-8111
▁ኮክ	-8112
▁የዘር	-8113
▁ሌሎችም	-8114
▁ተልዕኮ	-8115
▁ናቸውን	-8116
▁የቡድን	-8117
▁ትሬዲንግ	-8118
▁የተቋቋመ	-8119
▁ያለውንም	-8120
▁በመጨረሻም	-8121
▁ተመራማሪዎች	-8122
▁ኤሌክትሮኒክስ	-8123
ሊቲ	-8124
ያማ	-8125
በኞች	-8126
ቢቱን	-8127
ገለግ	-8128
ጋገብ	-8129
▁ቢጫ	-8130
9.00	-8131
▁can	-8132
▁ለሌላ	-8133
▁ለመቅ	-8134
▁ተቋቋ	-8135
▁ናት።	-8136
▁ድራይ	-8137
▁ሊቀመን	-8138
▁መምጣት	-8139
▁ሠራተኛ	-8140
▁ባልደረ	-8141
▁ከመልካ	-8142
▁ጊዜያዊ	-8143
▁ግለሰብ	-8144
▁በመፍጠር	-8145
▁ነበር፡፡	-8146
▁መረጃዎችን	-8147
UN	-8148
ለብ	-8149
ለዎ	-8150
▁ሒ	-8151
ING	-8152
▁44	-8153
▁6,	-8154
ገራችን	-8155
▁መጋረጃ	-8156
▁በደረሰ	-8157
▁እንደሌ	-8158
▁መድረኮች	-8159
▁በተለምዶ	-8160
▁የሌለበት	-8161
▁የተፈቀደ	-8162
la	-8163
ነን	-8164
ዕይ	-8165
ams	-8166
ise	-8167
ብደት	-8168
▁03	-8169
▁PM	-8170
▁ጥጥ	-8171
▁ሚስጥ	-8172
▁ምስክ	-8173
▁ርኩስ	-8174
▁ቅደም	-8175
▁አሳብ	-8176
▁ከቤተ	-8177
▁ኪራይ	-8178
-2017	-8179
▁ብላችሁ	-8180
▁ክፍተት	-8181
▁ጽሑፎች	-8182
▁ለማምጣት	-8183
▁ጌታቸውን	-8184
▁በእናንተም	-8185
▁Manufactur	-8186
ልቶ	-8187
ሣሥ	-8188
▁ይፍ	-8189
ናችሁን	-8190
▁Bre	-8191
▁ዋነኛ	-8192
▁ይበሉ	-8193
▁2007	-8194
▁ትፈልጋ	-8195
▁ያምናሉ	-8196
▁ተራራዎች	-8197
▁ትዕዛዞች	-8198
▁የኢየሱስ	-8199
▁የመንግሥት	-8200
▁የፈረንሳይ	-8201
ሀን	-8202
ወዝ	-8203
ዕል	-8204
▁●	-8205
:25	-8206
ቲክስ	-8207
▁Up	-8208
ማቸውን	-8209
▁ሃሳብ	-8210
▁መስኮ	-8211
▁በልቡ	-8212
▁በረከ	-8213
▁በቅድ	-8214
/2019	-8215
▁ማስገባ	-8216
▁ሴንትሮ	-8217
▁አትፍራ	-8218
▁የድምጽ	-8219
▁የፕሮጀ	-8220
▁ለመረዳት	-8221
▁የሚገኘው	-8222
ጠጋ	-8223
ክትል	-8224
ፋትን	-8225
▁1/	-8226
▁PC	-8227
▁እሺ	-8228
2019	-8229
ሙኒየም	-8230
ሳይያስ	-8231
▁እንመ	-8232
▁ከመል	-8233
▁የውጪ	-8234
▁ጥለት	-8235
▁ፍራን	-8236
▁ተደርጎ	-8237
▁ነፍሱን	-8238
▁አስገባ	-8239
▁ካልሆነ	-8240
▁የመድኃ	-8241
▁የማስተ	-8242
▁በኢሜልዎ	-8243
▁ንብረቶች	-8244
▁የሚፈልግ	-8245
▁የነበራችሁትን	-8246
TA	-8247
hu	-8248
ሪፍ	-8249
ቅዱ	-8250
ቶሪ	-8251
ነቴ	-8252
irt	-8253
መዋል	-8254
ሙትን	-8255
ማርያ	-8256
ንጉሥ	-8257
▁Sm	-8258
ቴንተር	-8259
▁ሕብረ	-8260
▁ዩኤስ	-8261
▁ፖሊስ	-8262
ified	-8263
▁0086	-8264
▁ቁጥሮች	-8265
▁በከንቱ	-8266
▁ጥቂቶች	-8267
ization	-8268
ሊላ	-8269
ራክ	-8270
ትሮ	-8271
ኳር	-8272
ዘኛ	-8273
ጽን	-8274
▁ሇ	-8275
ንግዙ	-8276
አንተ	-8277
ፋሎት	-8278
▁MP	-8279
▁Net	-8280
▁Red	-8281
▁Res	-8282
▁ውሸታ	-8283
▁ዘንግ	-8284
▁ዙፋን	-8285
▁የቅድ	-8286
▁ካፒተር	-8287
▁የኾነው	-8288
▁ለዓለማት	-8289
▁ስፕሪንግ	-8290
▁ከእርሷም	-8291
▁የመላኪያ	-8292
▁የካዱትን	-8293
ኸኝ	-8294
ሠራው	-8295
ሯቸው	-8296
ቻለሁ	-8297
▁8,	-8298
▁ሕል	-8299
▁ሽን	-8300
▁የኔ	-8301
▁+86	-8302
▁900	-8303
▁በማህ	-8304
▁በኢሜ	-8305
▁በእጃ	-8306
ቅድምድም	-8307
▁በተሳካ	-8308
▁አወረደ	-8309
▁እያደገ	-8310
▁መጽሐፍት	-8311
▁ተመልከቱ	-8312
▁ካጋጠመን	-8313
▁ዘንጊዎች	-8314
▁የከፍተኛ	-8315
▁የግብርና	-8316
IA	-8317
ግሣ	-8318
-06	-8319
lay	-8320
ማቲክ	-8321
ወስዱ	-8322
ገልጹ	-8323
ጮችን	-8324
▁በኩ	-8325
▁ትል	-8326
▁እኩ	-8327
▁የሊ	-8328
ታላችሁ	-8329
▁ስንኳ	-8330
▁በቃል	-8331
▁በአማ	-8332
▁አሉም	-8333
▁የሞተ	-8334
▁ያተኮ	-8335
▁ጸሎት	-8336
▁ጽሁፍ	-8337
attoo	-8338
▁that	-8339
▁መጠኖች	-8340
▁ተሰብስ	-8341
▁ካልመሰ	-8342
▁የሚቃጠ	-8343
▁የተጣራ	-8344
▁የከበረ	-8345
▁የወንድ	-8346
▁ጋዜጣዊ	-8347
▁አገልጋዮች	-8348
▁ካፒቴንተር	-8349
▁ዝርዝሮችን	-8350
ps	-8351
ርሃ	-8352
ኢን	-8353
ጣጣ	-8354
800	-8355
xml	-8356
ሉበት	-8357
ማንም	-8358
▁ኾና	-8359
ውያንን	-8360
▁Dec	-8361
▁VPN	-8362
▁አማራ	-8363
▁ከመቃ	-8364
▁የውኃ	-8365
▁ድህረ	-8366
▁Mult	-8367
▁ማዋቀሩ	-8368
▁በሰላም	-8369
▁ካፕተር	-8370
▁ካልመሰለዎ	-8371
▁የግላዊነት	-8372
HC	-8373
vi	-8374
ene	-8375
str	-8376
ላዎች	-8377
ጉባኤ	-8378
ግበር	-8379
▁ሰጭ	-8380
▁ንጥ	-8381
▁ክም	-8382
▁Nov	-8383
▁በነፃ	-8384
▁ከአስ	-8385
▁መምህር	-8386
▁ሴቶችም	-8387
▁ተጫዋች	-8388
▁ባለሁለት	-8389
▁ቲያንጂን	-8390
▁crypto	-8391
▁ሊቀመንበር	-8392
ህ፤	-8393
ሮሞ	-8394
byg	-8395
▁እመ	-8396
▁ዎች	-8397
ረጋጋት	-8398
ጠራችሁ	-8399
▁ሰሎሞን	-8400
▁ስርዓተ	-8401
ብያ	-8402
iki	-8403
ኅሣሥ	-8404
ደሉት	-8405
▁..	-8406
▁በጣ	-8407
ቮንቴክ	-8408
ዳሪዎች	-8409
▁Rev	-8410
▁ርዕሰ	-8411
▁ይለው	-8412
▁ተከላካ	-8413
▁ያመኑና	-8414
▁በእነሱም	-8415
▁አስተዋጽኦ	-8416
ለለ	-8417
9"&	-8418
▁We	-8419
▁et	-8420
ages	-8421
▁(1)	-8422
▁Mag	-8423
▁ታጋሽ	-8424
▁አብይ	-8425
▁መዝናኛ	-8426
▁ተቋቋመ	-8427
▁አዘጋጀ	-8428
▁ወሲባዊ	-8429
▁ለማምረት	-8430
RE	-8431
ሄደ	-8432
ሌክ	-8433
ልኩ	-8434
ውውር	-8435
የደው	-8436
="15	-8437
ping	-8438
▁Col	-8439
▁ምቾት	-8440
▁በትዕ	-8441
▁ቲዩብ	-8442
▁ጥልፍ	-8443
▁በኃጢአ	-8444
▁ብላቴና	-8445
▁ያደርጉ	-8446
▁ምድርንም	-8447
▁አንድነት	-8448
▁ዕይታዎች	-8449
▁የመጽሐፍ	-8450
▁አስተናጋጅ	-8451
▁Univers	-8452
ve	-8453
ኑ።	-8454
እን	-8455
erg	-8456
ገኝም	-8457
▁pr	-8458
▁ማኔ	-8459
▁10,	-8460
▁ሕንድ	-8461
▁በልቦ	-8462
▁ባሉት	-8463
▁ተጋሪ	-8464
▁ካውን	-8465
▁የለብ	-8466
▁የፍት	-8467
▁መዝሙረ	-8468
AY	-8469
ሆች	-8470
ዙን	-8471
ላልቅ	-8472
ረው።	-8473
▁le	-8474
▁ቾን	-8475
▁አፕ	-8476
▁ከሩ	-8477
▁ባድማ	-8478
▁ያገባ	-8479
▁ፈንታ	-8480
▁ለመያዝ	-8481
▁መውጣት	-8482
▁ከቆየሽ	-8483
▁የኮርፖ	-8484
▁ለመግባት	-8485
▁ቅርንጫፍ	-8486
▁ከሰዎችም	-8487
▁ያልተገደበ	-8488
92	-8489
KW	-8490
we	-8491
ቁ።	-8492
igh	-8493
uan	-8494
መቶች	-8495
ናትን	-8496
▁fl	-8497
▁ዘም	-8498
▁ዘግ	-8499
▁ጎሳ	-8500
▁ፑዝ	-8501
▁ልምም	-8502
▁ኦሪት	-8503
▁ገደማ	-8504
▁ሊኖረው	-8505
▁በቻይና	-8506
▁መዛሙርቱ	-8507
▁ቀጣይነት	-8508
▁ኃጢአትን	-8509
▁እባክዎን	-8510
▁ከጌታቸው	-8511
hatsApp	-8512
▁ሴንትሮሚክ	-8513
▁አይደለህም	-8514
8,	-8515
SM	-8516
ሹም	-8517
ራትን	-8518
ጥራት	-8519
▁QR	-8520
▁በኬ	-8521
▁ሊውል	-8522
▁ላሜራ	-8523
▁በዓይ	-8524
▁ይኖራ	-8525
▁ጠርቶ	-8526
▁በረከት	-8527
▁የወረዳ	-8528
▁የዌብሜ	-8529
▁ድግምት	-8530
▁ጥርጥር	-8531
▁መንፈሳዊ	-8532
▁የሠሩትን	-8533
▁Tattoo	-8534
▁ቁርጥራጮች	-8535
EX	-8536
ሰረ	-8537
ሴም	-8538
ከሻ	-8539
ዮችም	-8540
▁በዐ	-8541
▁ከጨ	-8542
▁ዕይታ	-8543
▁ዛሬም	-8544
▁የበለ	-8545
▁ነጻነት	-8546
umatic	-8547
ለፋ	-8548
="7	-8549
uck	-8550
ሏል።	-8551
ብራት	-8552
ጥንት	-8553
▁ለፍ	-8554
ateg	-8555
▁በቤተ	-8556
▁ኮረብ	-8557
▁የዋጋ	-8558
▁ይመር	-8559
inter	-8560
▁ህዝቦች	-8561
▁ምስጉን	-8562
▁ሳኦልም	-8563
▁ተመልሶ	-8564
▁በተበየደው	-8565
br	-8566
ማል።	-8567
በሰበ	-8568
ታንያ	-8569
ንተን	-8570
ንድን	-8571
▁ከጠ	-8572
▁ያወ	-8573
ሎምቢያ	-8574
ኖቻቸው	-8575
ያቸውን	-8576
▁እንቢ	-8577
▁እገዛ	-8578
▁የላቁ	-8579
▁በተራራ	-8580
▁በኃይል	-8581
▁ትውስታ	-8582
▁አንተን	-8583
▁አደረጋ	-8584
▁ጉድጓድ	-8585
▁ፈቃደኛ	-8586
▁በሚገኘው	-8587
▁ውጤቶችን	-8588
▁በተወረደው	-8589
▁ትክክለኛነት	-8590
▁በኢየሩሳሌምም	-8591
መመ	-8592
ክቱ	-8593
-02	-8594
-04	-8595
ለችና	-8596
ባትን	-8597
ይይት	-8598
ገዙት	-8599
▁ወሮ	-8600
▁ጸሎ	-8601
ሃለሁ።	-8602
ለቀችው	-8603
▁ልጆቹ	-8604
▁ሰዎቹ	-8605
▁ነባሪ	-8606
▁ከውጭ	-8607
▁የላይ	-8608
▁ጭብጥ	-8609
▁መርከብ	-8610
▁ምክትል	-8611
▁ተጨባጭ	-8612
▁ትሠሩት	-8613
▁ወለደ፤	-8614
▁ገንዘቦ	-8615
▁መመልከት	-8616
▁ያረጋግጡ	-8617
▁ይለያያሉ	-8618
▁ማስገባትን	-8619
▁ተነሳሽነት	-8620
▁ማስተዋወቂያ	-8621
▁የበይነመረብ	-8622
▁መልክተኛውንም	-8623
ይስ	-8624
ድያ	-8625
▁07	-8626
▁El	-8627
▁ለን	-8628
35"&	-8629
▁ልኬት	-8630
▁ምንኛ	-8631
▁ሽከር	-8632
▁ኢያሱ	-8633
▁የያዙ	-8634
ንቀሳቀስ	-8635
▁ልጆችም	-8636
▁ተናገሩ	-8637
▁ተንኮል	-8638
▁የህንድ	-8639
▁የሚያምኑ	-8640
▁በዩናይትድ	-8641
▁በመጨረሻይቱም	-8642
:23	-8643
ana	-8644
ንሰን	-8645
▁41	-8646
▁cl	-8647
▁all	-8648
▁ለአብ	-8649
▁ልጁን	-8650
▁በጀት	-8651
▁አልቻ	-8652
▁አርት	-8653
▁ዕወቁ	-8654
▁የዲሲ	-8655
▁ጸሐፊ	-8656
ዎቻቸውም	-8657
▁2006	-8658
▁አታውቁ	-8659
▁ዴስክቶፕ	-8660
▁በነፍሶቻቸው	-8661
አዴ	-8662
▁ኋ	-8663
ift	-8664
ልጠና	-8665
ሜሽን	-8666
ሬተር	-8667
፲፱፻	-8668
▁02	-8669
▁43	-8670
▁በሦ	-8671
▁እጃ	-8672
edom	-8673
ኾናቸው	-8674
▁ስምም	-8675
▁ቍጥር	-8676
▁አታሚ	-8677
▁አውደ	-8678
▁እስር	-8679
▁ከመጣ	-8680
▁ወፎች	-8681
▁የተቃ	-8682
▁የትም	-8683
▁በመጫን	-8684
▁የሐሰት	-8685
▁ይታያል	-8686
▁ይደሰቱ	-8687
▁መቁጠሪያ	-8688
▁ባልነበረ	-8689
▁ይቀበላል	-8690
▁Server	-8691
▁ማስተካከያ	-8692
▁አንቀጾችን	-8693
83	-8694
ረፈ	-8695
ሸገ	-8696
ቪዬ	-8697
ገፍ	-8698
ታል፥	-8699
ኞቹም	-8700
ክብት	-8701
ዳል።	-8702
ጥበብ	-8703
ፅዓት	-8704
ales	-8705
▁ሙታን	-8706
▁ስፒት	-8707
▁ኾነህ	-8708
▁የኮፒ	-8709
▁የፍል	-8710
▁ያገኙ	-8711
▁ጽንሰ	-8712
ስትሪክት	-8713
▁ይሠራል	-8714
▁አዎንታዊ	-8715
▁ለቀለቀችው	-8716
▁ምህንድስና	-8717
ka	-8718
na	-8719
ሙ።	-8720
ሣሪያ	-8721
ቀረበ	-8722
ታወቅ	-8723
ዖንና	-8724
ፈርድ	-8725
▁ሲዲ	-8726
xBet	-8727
ባችሁም	-8728
▁TCN	-8729
▁ሲስተ	-8730
▁አይሁ	-8731
▁የሚነ	-8732
▁ፖፕት	-8733
▁this	-8734
▁መሥራት	-8735
▁ምስጢር	-8736
▁ሴቶችን	-8737
▁ስፒትፕ	-8738
▁የተቀና	-8739
▁ለአላህም	-8740
▁መቆጣጠር	-8741
▁የሌላቸው	-8742
▁የጀርመን	-8743
ንጎ	-8744
ፀን	-8745
▁Le	-8746
▁UH	-8747
▁ረድ	-8748
▁አቃ	-8749
▁ጮኸ	-8750
ives	-8751
urch	-8752
▁ቃሉን	-8753
▁በክፉ	-8754
▁ታማኝ	-8755
▁እስያ	-8756
ional	-8757
▁ትንተና	-8758
▁የዚያን	-8759
▁ፌስቡክ	-8760
▁ተመጣጣኝ	-8761
▁እንደሆኑ	-8762
▁አስተሳሰብ	-8763
▁እስራኤልን	-8764
▁በሃይድሮሊክ	-8765
ሬዎች	-8766
▁04	-8767
▁PR	-8768
▁እላ	-8769
▁የጌ	-8770
utes	-8771
▁3.0	-8772
▁መገሰ	-8773
▁ሰጥቶ	-8774
▁ስዕል	-8775
▁በአካ	-8776
▁ባለመ	-8777
▁አንጎ	-8778
▁እምቢ	-8779
▁ጠብታ	-8780
▁ነበረው	-8781
▁ንብርብ	-8782
▁በየጊዜው	-8783
▁እንደነበረ	-8784
;,	-8785
PR	-8786
ቆይ	-8787
row	-8788
መደቡ	-8789
ቅሷል	-8790
▁SM	-8791
▁en	-8792
▁ሃይ	-8793
▁ሠር	-8794
▁ሰጋ	-8795
▁ባቡ	-8796
34"&	-8797
aper	-8798
▁ሜታል	-8799
▁በሩቅ	-8800
▁ኬሚካ	-8801
▁የሚሾ	-8802
▁ጊዜ።	-8803
▁Comm	-8804
▁በሰፊው	-8805
▁በውስጥ	-8806
▁ታኅሣሥ	-8807
▁እሴቶች	-8808
▁ለመመለስ	-8809
▁በድንገት	-8810
▁ከአንተም	-8811
▁የሚችለው	-8812
ኮፕ	-8813
ጅቱ	-8814
-14	-8815
ota	-8816
ove	-8817
ስትሮ	-8818
ይንና	-8819
▁መበ	-8820
▁ከኋ	-8821
▁ከዳ	-8822
▁195	-8823
▁Key	-8824
▁Sub	-8825
▁ሥራው	-8826
▁በምር	-8827
▁ወጣ።	-8828
▁የመነ	-8829
▁ፊቱን	-8830
ility	-8831
▁ሰውነት	-8832
▁የሰላም	-8833
▁ስጦታዎች	-8834
▁በመሆኑም	-8835
▁በመስራት	-8836
▁ምስክርነት	-8837
?”	-8838
ቦራ	-8839
ክቸ	-8840
ደፈ	-8841
vey	-8842
ሮችም	-8843
ሰበስ	-8844
▁በፌ	-8845
▁ተዉ	-8846
▁ጄኔ	-8847
aser	-8848
ችኋቸው	-8849
ንግግር	-8850
▁መዋዕ	-8851
▁ከፊል	-8852
▁ካሉት	-8853
▁cont	-8854
▁ርዕሶች	-8855
▁ስማርት	-8856
▁በዓመት	-8857
▁ነበሩት	-8858
▁የሠሩት	-8859
▁የተከለ	-8860
▁የተጠቀ	-8861
▁ይፈትሹ	-8862
▁ስለሆነም	-8863
▁በምትሠሩት	-8864
ade	-8865
ረትን	-8866
ቁምፊ	-8867
አችሁ	-8868
▁7,	-8869
▁ሙታ	-8870
▁በኪ	-8871
ሠሩትም	-8872
▁ሜጋን	-8873
▁ክንፍ	-8874
▁ጋዜጣ	-8875
▁ፍጡር	-8876
▁በእኔና	-8877
▁የታተመ	-8878
▁የተፈጠረው	-8879
▁ያደረገውን	-8880
.00	-8881
ንንና	-8882
▁ከጋ	-8883
▁ዕዳ	-8884
2015	-8885
ናሽናል	-8886
▁ሥልጣ	-8887
▁በየአ	-8888
▁አርማ	-8889
▁አንገ	-8890
▁ኢዮብ	-8891
▁ገዳይ	-8892
ስተዋወቅ	-8893
▁ልኬቶች	-8894
▁ቢሆን፥	-8895
▁ብቻውን	-8896
bygden	-8897
▁በተፈጥሮ	-8898
▁የተረጋጋ	-8899
▁የኬሚካል	-8900
▁የያዕቆብ	-8901
▁ያዕቆብም	-8902
▁እንደሆነ፤	-8903
PA	-8904
nd	-8905
ኩም	-8906
lic	-8907
izer	-8908
ኒኬሽን	-8909
ጅመንት	-8910
▁Web	-8911
▁ታላላ	-8912
▁ንጥል	-8913
▁ከረጢ	-8914
▁ካንተ	-8915
▁የመዳ	-8916
▁ያስች	-8917
ights	-8918
▁ማጥመድ	-8919
▁አስጠን	-8920
▁የቋንቋ	-8921
▁የተደረጉ	-8922
▁ይገኛል።	-8923
▁ፕሮቶኮል	-8924
neumatic	-8925
PY	-8926
ልኮ	-8927
▁ለታ	-8928
▁ኦር	-8929
ንስቲት	-8930
ገልጋይ	-8931
▁12,	-8932
▁ሄደ።	-8933
▁ከፍታ	-8934
▁Arch	-8935
▁ምንጣፍ	-8936
▁ተፈጥሮ	-8937
▁ዘካንም	-8938
▁የሚያነ	-8939
▁ይነግራ	-8940
▁ዳዊትን	-8941
▁ተለውጧል	-8942
▁ከሓዲዎችን	-8943
▁የምትሠሩትን	-8944
ዝቦ	-8945
ደፍ	-8946
-00	-8947
gov	-8948
ipt	-8949
ለይማ	-8950
▁EN	-8951
▁ሥሩ	-8952
▁ታዳ	-8953
fans	-8954
▁ለአን	-8955
▁ሸክም	-8956
▁ነኝ፤	-8957
▁አገኙ	-8958
▁የገባ	-8959
▁ሕግጋት	-8960
▁በሠሩት	-8961
▁በእንግ	-8962
▁ተመላሽ	-8963
▁አቀፋዊ	-8964
▁አባቶች	-8965
▁የተወለ	-8966
▁የጭነት	-8967
▁ሰይጣንም	-8968
▁Pocket	-8969
▁Twitter	-8970
▁የኤሌክትሮኒክስ	-8971
ሁኑኑ	-8972
ነበቡ	-8973
▁Ed	-8974
▁ኑሕ	-8975
▁ክሎ	-8976
በደሉም	-8977
▁መውጫ	-8978
▁ሞትን	-8979
▁ሰለባ	-8980
▁ከነፍ	-8981
▁ከአም	-8982
▁ፍርዱ	-8983
▁አንበሳ	-8984
▁የውሸት	-8985
▁ኪንግደም	-8986
▁የአውታረ	-8987
▁WhatsApp	-8988
EM	-8989
ዛል	-8990
ዲን	-8991
ጻፉ	-8992
▁≤	-8993
ጢራዊ	-8994
▁በቍ	-8995
▁ታው	-8996
▁አሊ	-8997
▁ጥም	-8998
ራቸው።	-8999
አልና።	-9000
▁በፊቴ	-9001
▁ወኪል	-9002
▁መለወጫ	-9003
▁ጫማዎች	-9004
▁ለመደገፍ	-9005
▁አትክልት	-9006
▁አንዳንዶቹ	-9007
▁የክርስቶስ	-9008
ምለ	-9009
ታኝ	-9010
ጎድ	-9011
-16	-9012
ክሲኮ	-9013
▁Hy	-9014
▁ስእ	-9015
▁ስዊ	-9016
▁ስጡ	-9017
ናገረው	-9018
▁rep	-9019
▁ባንድ	-9020
▁3000	-9021
▁መዛግብ	-9022
▁ቁልፎች	-9023
▁አላት።	-9024
▁የተቀየ	-9025
▁የተገኘ	-9026
▁ኦክስጅን	-9027
▁ከችሮታው	-9028
▁የተባለው	-9029
▁ይሸፍናል	-9030
▁መልካምንም	-9031
▁አውቶማቲክ	-9032
ሪና	-9033
ክዱ	-9034
ጴዛ	-9035
ቻለው	-9036
▁95	-9037
▁Ap	-9038
▁ሚሊ	-9039
▁ብሬ	-9040
ized	-9041
▁ሰፈሩ	-9042
earch	-9043
▁መጠጊያ	-9044
▁ራውተር	-9045
▁ከሰዎች	-9046
▁የሲቪል	-9047
▁ከሰማይም	-9048
▁ገበያዎች	-9049
▁አወረድነው	-9050
91	-9051
ማቅ	-9052
እኛ	-9053
ፊል	-9054
ላላፊ	-9055
አዲስ	-9056
ዘዘው	-9057
ይቶች	-9058
ደውን	-9059
▁ማጽ	-9060
▁ከካ	-9061
ሰበሰቡ	-9062
▁0.0	-9063
▁ለመዋ	-9064
▁በማለ	-9065
▁ከብር	-9066
ላችኋለሁ	-9067
▁በሕዝብ	-9068
▁ተደራሽ	-9069
▁ነበሩና	-9070
▁Block	-9071
▁ቁምፊዎች	-9072
▁የሚከተለውን	-9073
▁የመጀመሪያዎቹ	-9074
ርቭ	-9075
ሱ።	-9076
ዲሱ	-9077
፣በ	-9078
Pro	-9079
err	-9080
ury	-9081
ቆችን	-9082
ኪንግ	-9083
▁ሐሰ	-9084
▁ሳም	-9085
▁ሻወር	-9086
▁ባህር	-9087
▁ተሸክ	-9088
▁ንገሩ	-9089
▁አብያ	-9090
▁የሞት	-9091
▁በኾኑት	-9092
▁ተከትሎ	-9093
▁ከጥቂት	-9094
▁የጌታን	-9095
▁Inter	-9096
▁መመገቢያ	-9097
▁ኢሳይያስ	-9098
▁እይታዎች	-9099
▁የፋብሪካ	-9100
▁ኤግዚቢሽን	-9101
:29	-9102
ሽንም	-9103
ክልሉ	-9104
ጀርባ	-9105
▁አዕ	-9106
ደተኞች	-9107
▁በፕሮ	-9108
▁ብሉይ	-9109
▁mail	-9110
▁ሞለኪዩ	-9111
▁ተቃዋሚ	-9112
▁April	-9113
▁Chrom	-9114
▁ለመቆጣጠር	-9115
IV	-9116
OB	-9117
iy	-9118
ሚዝ	-9119
ቅሶ	-9120
ኤክስ	-9121
▁51	-9122
▁ለኃ	-9123
▁መኖ	-9124
▁ያየ	-9125
ከልከል	-9126
▁11,	-9127
▁PRO	-9128
▁ማጣት	-9129
▁ትናን	-9130
▁የበጎ	-9131
▁ይህቺ	-9132
▁በብዛት	-9133
▁ውፅዓት	-9134
▁ደሴቶች	-9135
▁ተወካዮች	-9136
▁ቴክኒካዊ	-9137
▁Freedom	-9138
ጊት	-9139
ሁትን	-9140
መደው	-9141
ሮሚያ	-9142
በትና	-9143
ገኙም	-9144
▁HD	-9145
▁ቀሪ	-9146
▁ብስ	-9147
▁Str	-9148
▁መድረስ	-9149
▁መጽሔት	-9150
▁አደገኛ	-9151
▁እየሰራ	-9152
▁ለመስራት	-9153
▁ሊያደርግ	-9154
▁በገሀነም	-9155
በይ	-9156
ኮም	-9157
ዮት	-9158
ግሬ	-9159
▁”	-9160
-09	-9161
och	-9162
ሩበት	-9163
ሮይድ	-9164
▁ተባ	-9165
▁ቴፕ	-9166
▁ፈሪ	-9167
ille	-9168
ገለግል	-9169
▁Cor	-9170
▁ሳኦል	-9171
▁ለሕዝቡ	-9172
▁ማለፊያ	-9173
▁ከይሁዳ	-9174
▁የሚለም	-9175
▁የጥርስ	-9176
▁ማመልከት	-9177
▁የህይወት	-9178
ጸባ	-9179
8"&	-9180
▁(4	-9181
▁EM	-9182
▁NY	-9183
▁ህገ	-9184
▁ሪል	-9185
▁ዒሳ	-9186
ajaj	-9187
ተኞችም	-9188
ከታታይ	-9189
▁110	-9190
▁350	-9191
▁ዝገት	-9192
▁ሁለቱን	-9193
▁መፈለግ	-9194
▁ቅጣቱን	-9195
▁በጨረር	-9196
▁ባሻገር	-9197
▁ተፈጻሚ	-9198
▁ይህንንም	-9199
▁ሥራዎቻቸውን	-9200
ng	-9201
ቆት	-9202
101	-9203
ስማማ	-9204
ዛሬው	-9205
ጂንግ	-9206
ጠኞች	-9207
work	-9208
ራላችሁ	-9209
▁Ind	-9210
▁በምስ	-9211
▁ታንክ	-9212
▁ከባቢ	-9213
▁የርሱ	-9214
▁ይግባ	-9215
▁ጥንድ	-9216
▁ፋክስ	-9217
-2019	-9218
▁ቅዱሳን	-9219
▁ለማጥፋት	-9220
▁በጥንቃቄ	-9221
▁Holmbygden	-9222
72	-9223
ሻም	-9224
ነቅ	-9225
ውድ	-9226
የሙ	-9227
aid	-9228
ibr	-9229
በሉት	-9230
▁ኦፕ	-9231
▁ከጎ	-9232
38"&	-9233
ange	-9234
▁Des	-9235
▁ሰሚው	-9236
▁ብሏል	-9237
▁ተቀይ	-9238
በርግላስ	-9239
▁....	-9240
▁ሆርሞን	-9241
▁ተጽእኖ	-9242
▁ወፍራም	-9243
▁ዕለታዊ	-9244
▁የሚወዱ	-9245
▁ጥበብን	-9246
▁በዙሪያው	-9247
▁ነበርና።	-9248
▁በመተባበር	-9249
▁ይጠይቁሃል	-9250
ዝማ	-9251
ፋሮ	-9252
vis	-9253
ላቶች	-9254
አለሁ	-9255
ይንት	-9256
▁CB	-9257
▁ከጊዜ	-9258
▁ያችን	-9259
ሽከርከር	-9260
▁smtp	-9261
ዞን	-9262
ize	-9263
ባኖስ	-9264
▁ለኔ	-9265
▁ላል	-9266
▁ጫና	-9267
▁ፓር	-9268
▁11.	-9269
▁All	-9270
▁ሰብስ	-9271
▁ስላል	-9272
▁ቆመው	-9273
▁በጆሮ	-9274
▁ቶማስ	-9275
▁ይመሰ	-9276
▁ጭምር	-9277
enter	-9278
▁csgo	-9279
▁ለንጉሡ	-9280
▁ለዚህም	-9281
▁መቋቋም	-9282
▁ቅርጫት	-9283
▁እነሆም	-9284
▁የለኝም	-9285
▁አፈፃፀም	-9286
▁ከመልካም	-9287
▁የተያያዙ	-9288
▁አማካይነት	-9289
▁እነርሱንም	-9290
▁ከመጀመሪያ	-9291
▁ትክክለኛውን	-9292
▁ኤሌክትሮኒክ	-9293
▁ኢንተርናሽናል	-9294
▁blockchain	-9295
ሌም	-9296
ዳዩ	-9297
▁፭	-9298
▁›	-9299
arm	-9300
ነገረ	-9301
ዲየም	-9302
▁SS	-9303
▁አፑ	-9304
▁ከሲ	-9305
▁የሰማ	-9306
glish	-9307
ከተማይቱ	-9308
▁መጫወት	-9309
▁ቀለበት	-9310
▁በአስተ	-9311
▁ባንኮች	-9312
▁አንድን	-9313
▁ድራይቭ	-9314
▁Bajaj	-9315
▁ምእመናን	-9316
▁ሰንጠረዥ	-9317
▁ከሥሮቻቸው	-9318
▁የአውሮፕላን	-9319
UT	-9320
ችና	-9321
ley	-9322
ቱንና	-9323
ያችን	-9324
ገዛት	-9325
ጠቅም	-9326
▁ሱቅ	-9327
▁ተሟ	-9328
ስተባበ	-9329
ካሄደው	-9330
▁ተርሚ	-9331
▁ካህን	-9332
▁ይወሰ	-9333
-2012	-9334
▁ሂደቶች	-9335
▁ቤቶችን	-9336
▁የዚህን	-9337
▁በተግባር	-9338
▁የሚያውቅ	-9339
▁ወደእናንተ	-9340
▁tension	-9341
▁አብዛኞቻቸው	-9342
▁ይቀላቀሉትና	-9343
ሕተት	-9344
ግርኛ	-9345
▁0,	-9346
▁49	-9347
▁Se	-9348
▁በቦ	-9349
ሳቸውም	-9350
ንጋፖር	-9351
ንግስት	-9352
▁ነበል	-9353
▁አልበ	-9354
▁አሪፍ	-9355
▁ዘይቤ	-9356
▁የብዙ	-9357
▁ገለል	-9358
ማውያንም	-9359
▁ማሟላት	-9360
▁ነገሠ።	-9361
▁አይኖር	-9362
▁ይሄዳል	-9363
▁ይጠብቁ	-9364
▁ድንጋጤ	-9365
▁ገነትን	-9366
▁እንቅልፍ	-9367
▁ወረቀቶች	-9368
▁የንብረት	-9369
▁ማኔጅመንት	-9370
DC	-9371
ዊስ	-9372
alk	-9373
uff	-9374
ሃቸው	-9375
ቀሉት	-9376
ዝነስ	-9377
▁!!	-9378
▁ሞጁ	-9379
▁የሬ	-9380
▁ግፍ	-9381
▁መጻፍ	-9382
▁አትስ	-9383
▁ማሸነፍ	-9384
▁ሰራዊት	-9385
▁ወጪዎች	-9386
▁የሚገድ	-9387
ዎርድፕረስ	-9388
Tension	-9389
▁Gaming	-9390
▁ለማንኛውም	-9391
71	-9392
ዘነ	-9393
alt	-9394
ወግድ	-9395
ደብቁ	-9396
▁PE	-9397
▁CAD	-9398
▁ህንፃ	-9399
▁መርከ	-9400
▁በሰሙ	-9401
▁በጦር	-9402
▁ተከራ	-9403
▁ናትና	-9404
▁አለማ	-9405
▁የአር	-9406
▁Cert	-9407
▁ለኾኑት	-9408
▁መንደር	-9409
▁አጋሮች	-9410
▁ከከተማ	-9411
▁የፋይል	-9412
▁ይመለከ	-9413
▁ጭንቀት	-9414
▁ማቀናበር	-9415
▁ዕውቀትን	-9416
▁የኢትዮጵ	-9417
▁ኢንጂነሪንግ	-9418
zz	-9419
ዱስ	-9420
ገሥ	-9421
ገዟ	-9422
ፋሪ	-9423
dis	-9424
ርዝር	-9425
▁AR	-9426
▁ልቡ	-9427
▁ረቂ	-9428
▁ከጭ	-9429
▁የኒ	-9430
▁የዐ	-9431
▁የጫ	-9432
▁ምድጃ	-9433
▁አሜን	-9434
▁ያማረ	-9435
▁ግንብ	-9436
▁መንገዱ	-9437
▁መጓጓዣ	-9438
▁በአገር	-9439
▁የሚሆነ	-9440
▁የኾኑት	-9441
▁የጥቁር	-9442
▁Speed	-9443
▁የሳይንስ	-9444
▁የዩክሬን	-9445
▁መንግሥታት	-9446
▁እንመልከት	-9447
▁እንዲያገኙ	-9448
▁የትራንስፖርት	-9449
ዓድ	-9450
ያይ	-9451
ጕር	-9452
ፒኬ	-9453
ስተው	-9454
ነትም	-9455
▁ልቤ	-9456
▁ፍሪ	-9457
▁መላው	-9458
▁ቁፋሮ	-9459
▁እገዳ	-9460
▁የተቈ	-9461
▁ለመሄድ	-9462
▁ሜዲካል	-9463
▁በዚህች	-9464
▁በፍቅር	-9465
▁አመስግ	-9466
▁አደርግ	-9467
▁እንዳታ	-9468
▁እግሮች	-9469
▁ወላጆች	-9470
▁ግጥሚያ	-9471
▁ጥንታዊ	-9472
▁ሰዎችንም	-9473
▁ተጠባባቂ	-9474
▁እርጥበት	-9475
▁እንፈልጋ	-9476
▁የሚደርስ	-9477
▁ይጨምራል	-9478
▁የመከላከያ	-9479
ACK	-9480
በት፥	-9481
▁46	-9482
▁UN	-9483
▁ማፍ	-9484
▁በሠ	-9485
▁አቁ	-9486
▁የሱ	-9487
▁ግዴ	-9488
evel	-9489
▁sub	-9490
▁ቀመር	-9491
▁ቀጭን	-9492
▁በመለ	-9493
▁አሕዛ	-9494
▁አገባ	-9495
▁እጆች	-9496
▁ይቀር	-9497
▁ግርማ	-9498
▁ለንግድ	-9499
▁በሦስት	-9500
▁ባደረግ	-9501
▁ያስፈል	-9502
▁ለማሳካት	-9503
▁ምንድነው	-9504
▁አስፈጻሚ	-9505
▁ከእርስዋ	-9506
▁ይፈርዳል	-9507
ሮው	-9508
ሳጼ	-9509
ፍጥ	-9510
ሊፎር	-9511
ላሉ።	-9512
መረው	-9513
ሾችን	-9514
▁ቨር	-9515
▁ከህ	-9516
▁ምረጡ	-9517
▁ሞዱል	-9518
▁ቀለበ	-9519
▁እንቁ	-9520
▁የአካ	-9521
▁ልምምድ	-9522
▁በመከራ	-9523
▁ባቡሮች	-9524
▁የምርጫ	-9525
▁የርቀት	-9526
▁በማቅረብ	-9527
▁አምባገነ	-9528
▁አዝማሚያ	-9529
▁እስካሁን	-9530
▁የሚያምር	-9531
▁መፍትሔዎች	-9532
▁በአካባቢው	-9533
▁አይደለም፤	-9534
Co	-9535
OP	-9536
ሊሲ	-9537
ኝታ	-9538
ባበቅ	-9539
ታለሁ	-9540
▁TP	-9541
▁ሳል	-9542
▁ፈን	-9543
ናውያን	-9544
▁ስህተ	-9545
▁ያብራ	-9546
▁በነርሱ	-9547
▁የዱቄት	-9548
▁ዳንኤል	-9549
▁ጥልቀት	-9550
▁ለመውሰድ	-9551
▁መምህራን	-9552
▁ኢብራሂም	-9553
▁ከነበሩት	-9554
.”	-9555
ክሪ	-9556
iff	-9557
pen	-9558
ገተኛ	-9559
▁ስሪ	-9560
ሃለሁ፤	-9561
▁አጥብ	-9562
▁ወርቃ	-9563
▁የእው	-9564
▁ስኩተር	-9565
▁ቫይረስ	-9566
▁የድምፅ	-9567
▁Super	-9568
▁ኃላፊነቱ	-9569
▁በእነዚያም	-9570
▁ተሰጥቶታል	-9571
▁ከማንኛውም	-9572
▁የፕሮግራም	-9573
IR	-9574
ሲካ	-9575
ቆስ	-9576
ሪያው	-9577
ስተን	-9578
ታወቁ	-9579
ጡትን	-9580
▁ተሻ	-9581
▁ግዜ	-9582
▁ፍን	-9583
ታችሁም	-9584
▁መሸጥ	-9585
▁ሰቆች	-9586
▁በመሰ	-9587
▁ትርዒ	-9588
▁የከፋ	-9589
▁ይነሣ	-9590
▁ደርሶ	-9591
▁ፈንድ	-9592
▁ምግባር	-9593
▁በሆነው	-9594
▁አማካይ	-9595
▁ኮክፒት	-9596
▁ይፈልጉ	-9597
▁አደረገ፤	-9598
▁ፖሊስተር	-9599
▁ማስጀመሪያ	-9600
94	-9601
DS	-9602
era	-9603
አዴግ	-9604
ይጣን	-9605
ጠብቃ	-9606
▁9,	-9607
▁PS	-9608
▁ናስ	-9609
▁ከድ	-9610
▁ካቢ	-9611
▁ያዋ	-9612
ሳይክል	-9613
▁16,	-9614
▁ለመታ	-9615
▁ሐኪም	-9616
▁ማተም	-9617
▁ደነገ	-9618
▁ጭማሪ	-9619
ስክሌቶች	-9620
▁ሥራውን	-9621
▁አሠራር	-9622
▁ብዙዎችን	-9623
▁የማያስገባ	-9624
ባው	-9625
ሞችም	-9626
ነውም	-9627
▁(6	-9628
▁3:	-9629
▁የቱ	-9630
▁ደመ	-9631
____	-9632
cess	-9633
heel	-9634
ላፊነት	-9635
▁Top	-9636
▁ዒላማ	-9637
ሊፎርኒያ	-9638
▁የሚፈራ	-9639
▁የአለም	-9640
▁የደረጃ	-9641
▁World	-9642
▁ሕዝቦችም	-9643
▁በዋናነት	-9644
▁የሚቀርጸው	-9645
▁የሚፈሱባቸውን	-9646
7)	-9647
WS	-9648
ጠየቁ	-9649
ጣጌጥ	-9650
ጦችን	-9651
▁As	-9652
▁TS	-9653
▁ሀሳ	-9654
▁ለኛ	-9655
▁ሻማ	-9656
ስካርድ	-9657
▁ለራሱ	-9658
▁ሰራዊ	-9659
▁ብዙን	-9660
▁ታገኛ	-9661
▁እህል	-9662
▁ከፊሉ	-9663
▁ዕውቀ	-9664
▁የአሸ	-9665
▁ጉዳዩ	-9666
▁ፍልስ	-9667
▁ሰብዓዊ	-9668
▁አዝመራ	-9669
▁የሚሾር	-9670
▁ይኾናሉ	-9671
▁ልቦቻቸው	-9672
▁እውነቱን	-9673
▁ዝማኔዎች	-9674
▁አታውቁምን	-9675
▁አፑስካርድ	-9676
▁የእስራኤልንም	-9677
▁Blackjack	-9678
FL	-9679
ካራ	-9680
ለት፤	-9681
▁1)	-9682
▁ብቅ	-9683
▁የሄ	-9684
▁ገላ	-9685
▁25,	-9686
▁AUD	-9687
▁ማለፍ	-9688
▁ምረጥ	-9689
▁ንዳይ	-9690
▁አሸን	-9691
▁አይታ	-9692
▁ውሎች	-9693
▁ድካም	-9694
olone	-9695
▁Mill	-9696
▁ስለሚያ	-9697
▁በተለየ	-9698
▁ቤተሰቦ	-9699
▁ከነበረ	-9700
▁ውርደት	-9701
▁የወሲብ	-9702
▁ሕዝቅያስ	-9703
ational	-9704
▁Europe	-9705
▁እላችኋለሁ፥	-9706
▁Technology	-9707
ኑር	-9708
ዋና	-9709
ጆችን	-9710
▁br	-9711
▁ራሳ	-9712
▁ቃሉ	-9713
▁ቆመ	-9714
▁አዶ	-9715
▁ጽሕ	-9716
69"&	-9717
መስገን	-9718
▁700	-9719
▁90%	-9720
▁ሶኬት	-9721
▁ቢሆኑ	-9722
▁የቀን	-9723
▁ፑቲን	-9724
▁ፕሪሚ	-9725
▁መርጊያ	-9726
▁ቅርጸት	-9727
▁እውቂያ	-9728
▁ወሮበላ	-9729
▁ይህችን	-9730
▁ነበራችሁ	-9731
▁የተለያየ	-9732
▁የወንጀል	-9733
▁የወደፊት	-9734
▁ያደርጋሉ	-9735
▁Prepar	-9736
▁ውጤታማነት	-9737
▁Blockchain	-9738
LS	-9739
ሞቱ	-9740
ሱትን	-9741
ነዋል	-9742
ኛውን	-9743
ከሰት	-9744
▁ብና	-9745
መቻቸት	-9746
ባቸው።	-9747
▁000	-9748
▁Ant	-9749
▁XXL	-9750
▁ሞገስ	-9751
▁ረዥም	-9752
▁በማያ	-9753
▁ቢመጣ	-9754
▁ደሴት	-9755
▁ሚስቶች	-9756
▁ማንነት	-9757
▁ትራንስ	-9758
▁እንዲቀ	-9759
▁የቀለም	-9760
▁መልካሞች	-9761
▁በደለኞች	-9762
▁አውቃለሁ	-9763
▁እምነትን	-9764
▁የአገልጋይ	-9765
▁ያመኑትንና	-9766
መካ	-9767
ጅና	-9768
በሮች	-9769
▁08	-9770
▁ማዘ	-9771
▁ባቢ	-9772
▁አጎ	-9773
▁እጄ	-9774
ider	-9775
ኪያዎች	-9776
▁ህመም	-9777
▁አልን	-9778
▁ወደኛ	-9779
▁የመሰ	-9780
▁የሥነ	-9781
▁1200	-9782
▁PTFE	-9783
▁ለሕዝብ	-9784
▁ማኅበር	-9785
▁በሺዎች	-9786
▁ፍርድን	-9787
▁ለመሞከር	-9788
▁ተሰበሰቡ	-9789
▁ይናገራሉ	-9790
▁English	-9791
▁መልክተኛውም	-9792
RA	-9793
በዙ	-9794
ባህ	-9795
ኝና	-9796
uge	-9797
ፈጠረ	-9798
ፋችሁ	-9799
▁HV	-9800
▁ተማ	-9801
▁ገቡ	-9802
▁ጠል	-9803
ness	-9804
▁Act	-9805
▁Imp	-9806
▁Par	-9807
▁ማደያ	-9808
▁ሥራን	-9809
▁አፈር	-9810
ነታቸውን	-9811
▁መሸፈኛ	-9812
▁ውጥረት	-9813
Sh	-9814
ሻሊ	-9815
ጓሜ	-9816
በላሸ	-9817
▁he	-9818
▁ሙጫ	-9819
▁ከሀ	-9820
▁ኾኑ	-9821
▁የዛ	-9822
▁የጂ	-9823
▁ያካ	-9824
▁ለዘመ	-9825
▁ልጅን	-9826
▁ራዕይ	-9827
▁እግሮ	-9828
▁ያለም	-9829
ንቀሳቀሱ	-9830
▁በሚያስ	-9831
▁ከሴቶች	-9832
▁ከነርሱ	-9833
▁ካርቶን	-9834
▁Crypto	-9835
.2	-9836
ይዞ	-9837
ፃን	-9838
ፖን	-9839
▁ቄ	-9840
150	-9841
ደራዊ	-9842
ግሩን	-9843
ግባቡ	-9844
▁ER	-9845
▁ቅል	-9846
▁በኛ	-9847
▁ቴሌ	-9848
▁ጻድ	-9849
Life	-9850
edit	-9851
isco	-9852
አልና፥	-9853
ጠናቀቀ	-9854
▁50%	-9855
▁GBP	-9856
▁HGH	-9857
▁ለወደ	-9858
▁ቤቱን	-9859
▁ነውር	-9860
▁አልመ	-9861
▁እሆና	-9862
▁ኮንግ	-9863
ጠቀሙበት	-9864
▁መሙላት	-9865
▁ማወቂያ	-9866
▁ተገለጠ	-9867
▁አዋቅር	-9868
▁ካውንቲ	-9869
▁ካፒታል	-9870
▁ወዳለው	-9871
▁የታመነ	-9872
▁የዳዊት	-9873
▁ይመለሱ	-9874
▁ይመጣሉ	-9875
▁ይሞክሩ	-9876
▁እየፈለጉ	-9877
▁ከሓዲዎቹ	-9878
▁የተቀናጀ	-9879
▁የማስታወቂያ	-9880
▁የአውስትራሊያ	-9881
DF	-9882
ነባ	-9883
ጦታ	-9884
:26	-9885
ኅሩኅ	-9886
▁ካላ	-9887
ጣቸውም	-9888
▁Inc	-9889
▁ሆነህ	-9890
▁ሰገዱ	-9891
▁በተቀ	-9892
▁በወጣ	-9893
▁ከሞተ	-9894
▁ክሪስ	-9895
▁ይዟል	-9896
▁ግልፅ	-9897
▁በእጅህ	-9898
▁ከዓለም	-9899
▁ጊዜያት	-9900
▁ተመልሰው	-9901
▁አስፈፃሚ	-9902
▁የመሳሰሉ	-9903
▁ለመገናኘት	-9904
▁መልክተኞችን	-9905
▁እሽቅድምድም	-9906
▁ተሽከርካሪዎች	-9907
MM	-9908
ሊና	-9909
በመ	-9910
ዛው	-9911
ጋር	-9912
ጓደ	-9913
urr	-9914
በራት	-9915
ናል፤	-9916
▁ባታ	-9917
▁ኦፍ	-9918
አቸውም	-9919
ዳቸውን	-9920
ጆቻቸው	-9921
▁ሊኖር	-9922
▁በመታ	-9923
▁ተመር	-9924
▁ተጻፈ	-9925
▁ኹኔታ	-9926
▁ዶንግ	-9927
▁ብልጭታ	-9928
▁ነፃነት	-9929
▁ኢዮአብ	-9930
▁ከጌታዬ	-9931
▁እንመነዳ	-9932
▁የሴራሚክ	-9933
▁ይሆናሉ።	-9934
▁አይደለችም	-9935
IG	-9936
JS	-9937
መጸ	-9938
ራቂ	-9939
ሲሲ	-9940
ሳድ	-9941
ኑፋ	-9942
ወለ	-9943
-22	-9944
ሞቲቭ	-9945
ኙነት	-9946
▁$5	-9947
arth	-9948
ular	-9949
▁Gal	-9950
▁ሕዝቤ	-9951
▁በሰባ	-9952
▁የዱር	-9953
▁ብርጭቆ	-9954
▁ተወያዩ	-9955
▁ኢያሱም	-9956
▁ከሕዝቡ	-9957
▁ኮሌጆች	-9958
▁ተለይተው	-9959
▁ይናገራል	-9960
▁ከኢትዮጵያ	-9961
1-	-9962
ከጅ	-9963
ማርት	-9964
ፍረተ	-9965
▁op	-9966
▁ሙያ	-9967
▁ቦል	-9968
▁እጩ	-9969
▁ተሟጋ	-9970
▁ተከተ	-9971
▁ታክስ	-9972
▁አይተ	-9973
▁ውሏል	-9974
▁ፈልግ	-9975
ቸዋለሁ።	-9976
▁Read	-9977
▁ሳይንቲ	-9978
▁አልሰማ	-9979
▁አጥራቢ	-9980
▁ያደረጋ	-9981
▁ድምጾች	-9982
▁ፍትሃዊ	-9983
▁በገንዘብ	-9984
▁ተረጋገጠ	-9985
▁እንደዚያ	-9986
▁የደብዳቤ	-9987
▁የድንጋይ	-9988
▁ያስፈልግ	-9989
▁ፈተናዎች	-9990
ለኛል	-9991
ሱንም	-9992
▁ሽታ	-9993
▁የሎ	-9994
▁የቃ	-9995
▁የቻ	-9996
▁ገጸ	-9997
▁ግባ	-9998
iber	-9999
ኑፋክቸ	-10000
▁Int	-10001
▁ለቤተ	-10002
▁ትዕግ	-10003
▁አሸዋ	-10004
▁የጨረ	-10005
ፈልገውን	-10006
▁የተደገ	-10007
▁10000	-10008
▁ቀጥተኛው	-10009
▁በተዓምራ	-10010
▁የምታውቁ	-10011
▁እንዳደረገ	-10012
▁አንቀሳቅሷል	-10013
▁አውስትራሊያ	-10014
▁ቤተክርስቲያን	-10015
--	-10016
ኩ።	-10017
ዎቼ	-10018
ጎበ	-10019
ሩትን	-10020
▁77	-10021
▁ለጠ	-10022
▁ጠቢ	-10023
xbet	-10024
ቪዬሽን	-10025
▁ስለም	-10026
▁አግዶ	-10027
▁ዑደት	-10028
▁የእሱ	-10029
▁ይሂዱ	-10030
▁ጠብቅ	-10031
ኒስትሮች	-10032
▁መስቀል	-10033
▁በመሄድ	-10034
▁አረጋጋ	-10035
▁አራተኛ	-10036
▁እጥረት	-10037
▁ይቀመጣ	-10038
ulator	-10039
▁ባለስልጣ	-10040
▁የዩናይትድ	-10041
TP	-10042
ታሪ	-10043
ንቁ	-10044
ንኮ	-10045
4.5	-10046
asy	-10047
orm	-10048
rem	-10049
ማለን	-10050
ሰሙም	-10051
▁የየ	-10052
atur	-10053
▁አውቃ	-10054
▁ኩራት	-10055
▁ወንጌ	-10056
▁ዉስጥ	-10057
▁የታገ	-10058
▁ያንሱ	-10059
▁ይከተ	-10060
▁serv	-10061
▁የሕዝቡ	-10062
▁አቀባበል	-10063
▁የመገናኛ	-10064
▁የሚያምን	-10065
▁የካርቦን	-10066
▁ይጠይቃል	-10067
▁ግላዊነት	-10068
▁መድሃኒቶች	-10069
ስጥኤማውያንም	-10070
▁ክርስቲያኖች	-10071
tt	-10072
ለ።	-10073
በእ	-10074
ነፈ	-10075
ገጥ	-10076
ጥላ	-10077
ሩት።	-10078
ቃሾች	-10079
▁2)	-10080
▁ካዱ	-10081
▁ዌብ	-10082
ያውቁት	-10083
ግራቸው	-10084
▁ABS	-10085
▁Arm	-10086
▁Mon	-10087
▁ተጠቅ	-10088
▁ኦባማ	-10089
▁comp	-10090
▁ብሄራዊ	-10091
▁እኔንም	-10092
▁ፈረሶች	-10093
ኑፋክቸሪንግ	-10094
▁መለኪያዎች	-10095
▁በመሠዊያው	-10096
ሕና	-10097
ሾቹ	-10098
:27	-10099
enc	-10100
ህናት	-10101
ለው።	-10102
መሳሰ	-10103
ሙንም	-10104
▁pm	-10105
ዳቸውም	-10106
▁ODM	-10107
▁ናት፤	-10108
▁እሄዳ	-10109
▁ከሥራ	-10110
▁ከክፉ	-10111
▁ወይፈ	-10112
▁ደላላ	-10113
ement	-10114
▁ማስተር	-10115
▁በዚያች	-10116
▁አመንን	-10117
▁የልደት	-10118
▁ጥምረት	-10119
▁በዓለማት	-10120
ሽከርካሪዎች	-10121
ኒስ	-10122
ኪክ	-10123
ጣቢ	-10124
ጤት	-10125
3.0	-10126
ቸኳይ	-10127
ነበር	-10128
ጀመሩ	-10129
ገበያ	-10130
▁ሞላ	-10131
▁ሲሳ	-10132
▁ባያ	-10133
▁ታክ	-10134
▁አፋ	-10135
▁ዜጋ	-10136
▁ጠቀ	-10137
▁ፆታ	-10138
ረዋል።	-10139
▁ነዋሪ	-10140
▁አህያ	-10141
▁ካህኑ	-10142
▁የታይ	-10143
▁ግብጽ	-10144
▁Moto	-10145
▁unit	-10146
▁መድረሻ	-10147
▁መገኘት	-10148
▁ሽግግር	-10149
▁በነበረ	-10150
▁የተደበ	-10151
▁የጠበቀ	-10152
▁Slots	-10153
▁ሌዋውያን	-10154
▁ይቆጠራል	-10155
▁ሕብረቁምፊ	-10156
▁ዓይኖቻቸው	-10157
▁በነበራችሁት	-10158
ek	-10159
ሉኝ	-10160
ምጥ	-10161
ቅያ	-10162
ወዱ	-10163
ዕም	-10164
2.0	-10165
ምና።	-10166
ከደነ	-10167
▁66	-10168
▁ለየ	-10169
▁በቪ	-10170
▁ጭቃ	-10171
ሳውያን	-10172
▁(12	-10173
▁20%	-10174
▁car	-10175
▁ለሙሉ	-10176
▁ማራኪ	-10177
▁ስለተ	-10178
▁በጥሩ	-10179
▁ተጽፎ	-10180
▁ይቀን	-10181
▁ይወቁ	-10182
▁ግምጃ	-10183
ሓዲዎችም	-10184
▁ወገኖቼ	-10185
▁የለም፤	-10186
▁ዳግመኛ	-10187
▁ማኅበራዊ	-10188
▁ተዓምራት	-10189
▁አታድርጉ	-10190
▁የአላህም	-10191
▁የፍጥነት	-10192
ds	-10193
ky	-10194
ሚት	-10195
ናይ	-10196
ism	-10197
ሃል፤	-10198
ሳሳቱ	-10199
አቀፍ	-10200
ከትል	-10201
ገለጥ	-10202
ጪዎች	-10203
ፊቱን	-10204
▁ማቀ	-10205
▁ትስ	-10206
▁እብ	-10207
▁ከቤ	-10208
-100	-10209
1000	-10210
2005	-10211
unct	-10212
ቀመጠው	-10213
▁ጠይቅ	-10214
▁ማሳየት	-10215
▁ማቆሚያ	-10216
▁ብርቱን	-10217
▁ትግርኛ	-10218
▁ነገርም	-10219
▁አሻንጉ	-10220
▁ወይንም	-10221
▁ሕንፃዎች	-10222
▁ተፈጥሯዊ	-10223
▁ንዳይፈስ	-10224
▁የግድግዳ	-10225
▁በእስራኤልም	-10226
QL	-10227
Th	-10228
ርሲ	-10229
ሸከ	-10230
ወጠ	-10231
ደዉ	-10232
-40	-10233
rap	-10234
ቴንም	-10235
▁TR	-10236
▁ላም	-10237
ሶቻቸው	-10238
ሶቻችሁ	-10239
▁PSA	-10240
▁mon	-10241
▁ለመወ	-10242
▁ምኞት	-10243
▁ተወስ	-10244
▁አደረ	-10245
▁ያደረ	-10246
▁ፌዴራ	-10247
▁ትንቢተ	-10248
▁አሳልፌ	-10249
▁ከአጋሪ	-10250
▁ካለዎት	-10251
▁ያካተተ	-10252
▁ይወጣል	-10253
▁የወንዶች	-10254
▁ይፈጥራል	-10255
▁እንዳለበት	-10256
▁የተሰጣቸው	-10257
▁አስፈላጊነት	-10258
ባዔ	-10259
ናቱ	-10260
ደቱ	-10261
exe	-10262
ሞቹም	-10263
ውንት	-10264
ግራፊ	-10265
▁ትሪ	-10266
ወረድን	-10267
ዋለሁ።	-10268
▁450	-10269
▁6.5	-10270
▁Jin	-10271
▁Max	-10272
▁SKU	-10273
▁Toy	-10274
▁መጠቅ	-10275
▁ሠራዊ	-10276
▁ብርድ	-10277
▁የሚለ	-10278
▁ይወዳ	-10279
▁XXXL	-10280
▁ሙሳንም	-10281
▁በትክክ	-10282
▁በአለም	-10283
▁በደህና	-10284
▁ተቀበል	-10285
▁ኩኪዎች	-10286
▁የብየዳ	-10287
▁ጠረጴዛ	-10288
▁ፈሪዎች	-10289
▁ሙከራዎች	-10290
▁ድንጋዮች	-10291
▁በሁለተኛው	-10292
▁የቢስክሌት	-10293
▁እግዚአብሔር፤	-10294
GB	-10295
ዝር	-10296
ያየ	-10297
-18	-10298
:28	-10299
bar	-10300
ute	-10301
ቦርድ	-10302
ዩምን	-10303
▁ሲቲ	-10304
▁ናቡ	-10305
▁የኖ	-10306
ነታችን	-10307
የህምን	-10308
▁res	-10309
▁ሕልም	-10310
▁ማቆም	-10311
▁ሲባል	-10312
▁ቀንን	-10313
▁በቀስ	-10314
▁የአስ	-10315
▁ይገደ	-10316
▁ዮሴፍ	-10317
▁ጣልቃ	-10318
arter	-10319
erone	-10320
ሙኒኬሽን	-10321
▁ለካዱት	-10322
▁ወሰንን	-10323
▁ለምንድን	-10324
▁የመድኃኒት	-10325
.1	-10326
pe	-10327
ym	-10328
ሦር	-10329
ቡስ	-10330
ናር	-10331
ቃወም	-10332
ንቶች	-10333
ክሳይ	-10334
▁ላፕ	-10335
▁ሽፋ	-10336
▁ኪስ	-10337
▁የኛ	-10338
▁ደብ	-10339
otor	-10340
መዝገብ	-10341
ነጋገሩ	-10342
▁ለባለ	-10343
▁ልመና	-10344
ጭበርበር	-10345
▁ባላቸው	-10346
▁ተፅእኖ	-10347
▁ኤልያስ	-10348
▁ወደኋላ	-10349
▁የነርቭ	-10350
▁ይላሉ።	-10351
▁ይውላል	-10352
▁መስኮቶች	-10353
▁አደረጉ።	-10354
▁Online	-10355
▁ተገኝተዋል	-10356
▁ማስታወሻዎች	-10357
HE	-10358
ረሰ	-10359
ቦረ	-10360
ኑ፥	-10361
ዛዜ	-10362
▁2-	-10363
▁up	-10364
▁ሸክ	-10365
▁ቤል	-10366
ኪስታን	-10367
▁POS	-10368
▁ልጅም	-10369
▁ምጽዋ	-10370
▁አቀፉ	-10371
▁ይኖሩ	-10372
▁ግሳጼ	-10373
▁ለእኔም	-10374
▁ምሁራን	-10375
▁በመጥፎ	-10376
▁በገነት	-10377
▁እርካታ	-10378
▁ከባሮቹ	-10379
▁ክላሲክ	-10380
▁ክልላዊ	-10381
▁አሰጣጦች	-10382
▁የዮሐንስ	-10383
▁ማስተካከል	-10384
በጁ	-10385
ቪዲ	-10386
የማ	-10387
day	-10388
ማርኛ	-10389
ረብኛ	-10390
ሰሮች	-10391
ዝናኛ	-10392
ጣል።	-10393
▁54	-10394
▁ካሳ	-10395
amin	-10396
orth	-10397
▁30%	-10398
▁ብሔር	-10399
▁እባብ	-10400
▁ግብዣ	-10401
▁ግብፅ	-10402
https	-10403
▁ሶላትን	-10404
▁በተባሉ	-10405
▁ንገሩኝ	-10406
▁እንዳሉ	-10407
▁መጠቀሚያ	-10408
▁ነበልባል	-10409
▁አፈጉባኤ	-10410
▁ከእርስዎ	-10411
▁ክፍሎችን	-10412
OG	-10413
PM	-10414
ራፒ	-10415
ሸጉ	-10416
በዝ	-10417
ት፥	-10418
250	-10419
oid	-10420
በሪያ	-10421
ካተቱ	-10422
▁ሄዶ	-10423
▁ሆኜ	-10424
▁ጨው	-10425
▁20,	-10426
▁አንሥ	-10427
▁ከእን	-10428
▁የወሰ	-10429
▁የወጪ	-10430
▁ይስሐ	-10431
▁ጀምር	-10432
▁ግራም	-10433
▁ጭንቅ	-10434
sions	-10435
▁Copy	-10436
▁መሐንዲ	-10437
▁ትላልቅ	-10438
▁ኢንስቲት	-10439
▁እንግዶች	-10440
▁እንደሚሆን	-10441
▁የሞተርሳይክል	-10442
ደቀ	-10443
ዳው	-10444
ጃን	-10445
url	-10446
ርሷል	-10447
ናገድ	-10448
እስከ	-10449
ገርም	-10450
ገነቡ	-10451
ፍራው	-10452
▁8:	-10453
▁ስቱ	-10454
▁ጡት	-10455
user	-10456
ነታችሁ	-10457
▁14,	-10458
▁3.5	-10459
▁30,	-10460
▁ሲቪል	-10461
▁ቀጣዩ	-10462
▁በቤቱ	-10463
▁አክብ	-10464
▁አይቆ	-10465
▁የሚዘ	-10466
▁የማታ	-10467
ሽከርካሪ	-10468
ቶቻችንም	-10469
▁መስጊድ	-10470
▁ይወዳል	-10471
▁መልካሙን	-10472
▁ማስታወስ	-10473
▁ሪፖርቶች	-10474
▁በርሳችሁ	-10475
▁መልዕክቶች	-10476
▁አድራሻዎን	-10477
▁discusssions	-10478
ረሱ	-10479
ዝቤ	-10480
▁ኵ	-10481
/10	-10482
hen	-10483
መራም	-10484
ባችኋ	-10485
ጣሪያ	-10486
▁Ev	-10487
▁it	-10488
▁ሲኒ	-10489
▁ስጥ	-10490
▁ተበ	-10491
▁ኮም	-10492
▁ጥብ	-10493
ites	-10494
▁ተቀባ	-10495
fight	-10496
ፎርሜሽን	-10497
▁have	-10498
▁ሀብታም	-10499
▁ለማዳን	-10500
▁መቃብር	-10501
▁ሰብሳቢ	-10502
▁በእግር	-10503
▁ተለዋጭ	-10504
▁ነበር፣	-10505
▁እርግጥ	-10506
▁የሁለት	-10507
▁ጌታውን	-10508
▁መናፍቃን	-10509
▁ማዕከላት	-10510
▁ተቀይሯል	-10511
▁አከፋፋይ	-10512
▁ጣዖታትን	-10513
▁የሚታወቀው	-10514
▁የእንግሊዝ	-10515
▁የመጀመሪያውን	-10516
ቲፊ	-10517
ሳለቁ	-10518
ሳተፉ	-10519
▁BL	-10520
▁ሊታ	-10521
▁ሚካ	-10522
▁ፖር	-10523
ንግተን	-10524
ከደነፆ	-10525
▁ማግኛ	-10526
▁ሾፌር	-10527
▁በተወ	-10528
▁ታውቁ	-10529
▁ጓንት	-10530
ማርትፎን	-10531
▁መርዳት	-10532
▁ተጠባበ	-10533
▁አለው፤	-10534
▁አስኪያ	-10535
▁ኤምባሲ	-10536
▁ከሦስት	-10537
ከተማይቱም	-10538
▁ብክለትን	-10539
▁ይገባል።	-10540
▁የኤሌክትሮኒክ	-10541
OW	-10542
ላቱ	-10543
ማዝ	-10544
ሜታ	-10545
ረጉ	-10546
ኘው	-10547
ጓን	-10548
4.0	-10549
itt	-10550
ለሰብ	-10551
ሪቱም	-10552
ሳትም	-10553
ቢያን	-10554
ነድዎ	-10555
ፀሐይ	-10556
▁ትች	-10557
▁አሏ	-10558
▁23,	-10559
▁ሮቦት	-10560
▁በይነ	-10561
▁አምፖ	-10562
▁አፍቃ	-10563
▁ዘፈን	-10564
ience	-10565
▁Test	-10566
▁ሐሳቦች	-10567
▁ይስቀሉት	-10568
▁ለኢትዮጵያ	-10569
▁ልጆቻቸውን	-10570
▁በመኾናቸው	-10571
▁ኢንተርኔት	-10572
▁የፕሮጀክት	-10573
▁አያስፈልግም	-10574
▁የአስተዳደር	-10575
ሳጭ	-10576
ቃስ	-10577
ደቡ	-10578
ዳሴ	-10579
ገግ	-10580
="6	-10581
ለችው	-10582
ላይን	-10583
ድገት	-10584
ጠነቅ	-10585
▁ራቁ	-10586
▁ባሳ	-10587
ሞቻቸው	-10588
ከራከር	-10589
▁ቀውስ	-10590
▁ኾነች	-10591
otrop	-10592
ዩናይትድ	-10593
▁ማንሳት	-10594
▁አትያዙ	-10595
▁እንዲሰ	-10596
▁ውስጥም	-10597
▁የሚኖር	-10598
▁ይኖራሉ	-10599
▁ለሰነድዎ	-10600
▁ሳንቲሞች	-10601
▁በፊታቸው	-10602
▁አስተማሪ	-10603
▁የሆኑትን	-10604
▁የሚያሳይ	-10605
▁የኾኑትን	-10606
▁ይሏቸዋል	-10607
▁ጨረቃንም	-10608
▁በመጣላቸው	-10609
▁ከስማርትፎን	-10610
ሬው	-10611
ኖን	-10612
ዓል	-10613
0.5	-10614
ይንኛ	-10615
ፓርት	-10616
▁ሁን	-10617
▁ሊተ	-10618
▁ሎሌ	-10619
▁ቅጠ	-10620
▁እሰ	-10621
▁ክሮ	-10622
▁ኺዱ	-10623
▁ይቈ	-10624
acks	-10625
club	-10626
▁18,	-10627
▁UHF	-10628
▁መርሆ	-10629
▁መዋቅ	-10630
▁በተከ	-10631
▁አላፊ	-10632
▁ኮምፕ	-10633
▁ኮዶች	-10634
▁የቃል	-10635
epper	-10636
▁መፍጨት	-10637
▁ባሪያህ	-10638
▁አሉታዊ	-10639
▁አላገኘ	-10640
▁አመታት	-10641
▁አራዊት	-10642
▁እውነቱ	-10643
▁በቅርቢቱም	-10644
▁ያደርጋል።	-10645
በቱ	-10646
ናጸ	-10647
ኼድ	-10648
በርት	-10649
ቢያት	-10650
ኚዎች	-10651
ከበር	-10652
ዎትም	-10653
iver	-10654
ሪታንያ	-10655
ዋቂዎች	-10656
ጊያዎች	-10657
▁መኾን	-10658
▁ሻንጣ	-10659
▁በኢዮ	-10660
▁ዘሮች	-10661
▁ያውቁ	-10662
▁ሲሆን፣	-10663
▁ስሪቶች	-10664
▁አንግል	-10665
▁የእርሻ	-10666
▁ለሕዝቦቹ	-10667
▁በጠቅላላ	-10668
▁የሚመጣው	-10669
▁ይኖረዋል	-10670
ላበ	-10671
መች	-10672
ሲኖ	-10673
በባ	-10674
ውጣ	-10675
ዛን	-10676
ያሪ	-10677
ፈጸሙ	-10678
▁3/	-10679
▁56	-10680
▁የጄ	-10681
▁የጆ	-10682
ሃለሁ፥	-10683
በራቸው	-10684
ከታተያ	-10685
ዶምያስ	-10686
ዶቻቸው	-10687
▁130	-10688
▁መኾና	-10689
▁በልዩ	-10690
▁ከኾነ	-10691
▁ክፉን	-10692
▁የኢዮ	-10693
▁ያሳድ	-10694
▁ግመል	-10695
▁ጣዖት	-10696
email	-10697
other	-10698
▁info	-10699
▁ሊወስድ	-10700
▁ነፍሴን	-10701
▁የፍለጋ	-10702
▁አላደረገ	-10703
▁የሚያመጣ	-10704
▁የጎንዮሽ	-10705
▁ያገለገለ	-10706
▁ባለቤትነት	-10707
▁ዩኒቨርስቲዎች	-10708
9,	-10709
ተሻ	-10710
▁а	-10711
iam	-10712
ild	-10713
ላክን	-10714
ባበስ	-10715
▁MC	-10716
▁qu	-10717
▁ኤሊ	-10718
▁ያመ	-10719
ክክለኛ	-10720
▁በቀኝ	-10721
▁ኪሳራ	-10722
▁የላከ	-10723
▁ጋላክ	-10724
ቴክኖሎጂ	-10725
▁ሁለገብ	-10726
▁መገሰጫ	-10727
▁ነውና፤	-10728
▁አመታዊ	-10729
▁ይውሰዱ	-10730
▁ሁለቱንም	-10731
▁ሕዝቦችን	-10732
▁የተሳሳተ	-10733
▁ይታወቃል	-10734
▁ድርጊቶች	-10735
▁አላየህምን	-10736
▁ከምእምናን	-10737
▁የለባችሁም	-10738
Dv	-10739
TR	-10740
ሎስ	-10741
ጠሮ	-10742
cel	-10743
ቁቆቹ	-10744
ክፍል	-10745
ጎችን	-10746
▁do	-10747
▁መማ	-10748
▁ፎር	-10749
ሰነጠቅ	-10750
ደርጉት	-10751
▁17,	-10752
▁360	-10753
▁not	-10754
▁በማኅ	-10755
▁በሞት	-10756
▁በዘር	-10757
▁አስብ	-10758
▁እወቁ	-10759
▁ከሞት	-10760
▁ወሮች	-10761
▁የአማ	-10762
▁ይከፈ	-10763
veyor	-10764
▁መስገጃ	-10765
▁ሰብአዊ	-10766
▁ባሕርይ	-10767
▁ድረስ፥	-10768
▁በአግባቡ	-10769
▁ያገለግላል	-10770
ግረ	-10771
ano	-10772
lim	-10773
ወቅቱ	-10774
▁Sn	-10775
▁መጨ	-10776
▁ሚል	-10777
▁ርግ	-10778
▁ስካ	-10779
▁ኬብ	-10780
▁ያቆ	-10781
ላላችሁ	-10782
ችሁትን	-10783
▁ቆይታ	-10784
▁በምድ	-10785
▁የትን	-10786
▁የፎቶ	-10787
ystem	-10788
▁Cast	-10789
▁ስፔሻሊ	-10790
▁በሩሲያ	-10791
▁ወጥተው	-10792
▁የሚሉት	-10793
▁የጽሑፍ	-10794
▁አልተገኘ	-10795
▁የተሻሻለ	-10796
▁ጠባቂዎች	-10797
▁ምናልባትም	-10798
▁በዮርዳኖስ	-10799
atheLife	-10800
▁እግዚአብሔርንም	-10801
▁University	-10802
73	-10803
ለፈ	-10804
ሰቃ	-10805
ቻኮ	-10806
ዋጋ	-10807
ዖት	-10808
ምንቱ	-10809
ቀምን	-10810
ፎርድ	-10811
▁FI	-10812
▁ቀላ	-10813
▁በፋ	-10814
▁ተሽ	-10815
▁ፈላ	-10816
ucks	-10817
▁190	-10818
▁Ass	-10819
▁መርህ	-10820
▁አንፃ	-10821
▁እድገ	-10822
▁ፈረሰ	-10823
▁ፍርግ	-10824
▁ማጣቀሻ	-10825
▁ስንኾን	-10826
▁ተብቃቂ	-10827
▁ተደረገ	-10828
▁አልዓዛ	-10829
▁አመላካ	-10830
▁አይቀር	-10831
▁ኢየሱስን	-10832
▁ያነጋግሩ	-10833
▁ፍልስፍና	-10834
▁ለማገልገል	-10835
▁ባለሥልጣን	-10836
▁የዌብሜርድ	-10837
▁ከእስራኤልም	-10838
ቪድ	-10839
ዝራ	-10840
▁፦	-10841
-25	-10842
hai	-10843
ሉም።	-10844
ምርም	-10845
ዋርያ	-10846
ዘውን	-10847
ዝባዊ	-10848
ያስፖ	-10849
ጻፈው	-10850
▁3-	-10851
▁RC	-10852
▁ዳሩ	-10853
cent	-10854
ሰራጨት	-10855
▁ሩሲያ	-10856
▁ቅዳሜ	-10857
▁ታዘዝ	-10858
▁ወጣ፥	-10859
▁ማጉያ።	-10860
▁ሰርቲፊ	-10861
▁ሰዓቲቱ	-10862
▁አለች።	-10863
▁አልሁ።	-10864
▁አሰራር	-10865
▁ጓንቶች	-10866
▁ፒክስል	-10867
▁ተቀምጠው	-10868
▁ከዓለማት	-10869
▁ኮሎምቢያ	-10870
▁እንፈልጋለን	-10871
);	-10872
DA	-10873
OL	-10874
li	-10875
ሬም	-10876
ሴፍ	-10877
ዛሪ	-10878
ጥብ	-10879
CAD	-10880
ble	-10881
way	-10882
ትያን	-10883
ኒሶታ	-10884
ካችሁ	-10885
▁SE	-10886
▁መጫ	-10887
▁አሃ	-10888
▁አጨ	-10889
▁ያዛ	-10890
ርጋኒክ	-10891
ታችንም	-10892
ነኝነት	-10893
▁11:	-10894
▁24,	-10895
▁በልብ	-10896
▁አይፈ	-10897
▁ከሩቅ	-10898
ለያዩበት	-10899
ተዋቸዋል	-10900
▁from	-10901
▁ማኅተም	-10902
▁በዛሬው	-10903
▁የክልል	-10904
▁ፍራንክ	-10905
verter	-10906
▁ቆይተዋል	-10907
▁እጆቻቸው	-10908
▁የሚችሉት	-10909
▁የግብይት	-10910
▁ያቀርባሉ	-10911
▁ፓርቲዎች	-10912
▁መገልገያዎች	-10913
?!	-10914
TH	-10915
ya	-10916
yr	-10917
ለሉ	-10918
ልታ	-10919
ቀኝ	-10920
ግደ	-10921
ጥፋ	-10922
203	-10923
Pal	-10924
ask	-10925
ger	-10926
ሁበት	-10927
ማማት	-10928
ረቢያ	-10929
▁52	-10930
▁TM	-10931
▁መሬ	-10932
▁ከቁ	-10933
▁ዳኛ	-10934
▁ጡን	-10935
▁ጨር	-10936
ቀዝቀዝ	-10937
ቋሚዎች	-10938
▁ሞገድ	-10939
▁በመጋ	-10940
▁በዙፋ	-10941
▁ቴክኒ	-10942
▁ፒኤች	-10943
▁2004	-10944
▁Long	-10945
▁ለዓለም	-10946
▁ማለትን	-10947
▁ማበረታ	-10948
▁ማጋራት	-10949
▁በቅጣት	-10950
▁በኋላም	-10951
▁የማገጃ	-10952
▁የማይችሉ	-10953
▁እያንዳንዳቸው	-10954
ለጡ	-10955
ቸር	-10956
ጠቡ	-10957
ፒዩ	-10958
ISO	-10959
apk	-10960
iec	-10961
ሁዳን	-10962
ብላት	-10963
ትም፥	-10964
▁ምሽ	-10965
▁ያዩ	-10966
▁ደጅ	-10967
▁ግሎ	-10968
▁ቁጠባ	-10969
▁በጊዜ	-10970
▁ኦክቶ	-10971
▁ከፊት	-10972
▁የተሳ	-10973
▁ይሰጥ	-10974
count	-10975
▁Post	-10976
▁መሰምር	-10977
▁መስሪያ	-10978
▁መጠይቅ	-10979
▁ማእከል	-10980
▁ትርጓሜ	-10981
▁አገራት	-10982
▁እንደም	-10983
▁እያፈራ	-10984
▁ክምችት	-10985
▁የእነሱ	-10986
▁ማስተማር	-10987
▁በተወሰነ	-10988
▁አላደረግ	-10989
▁እርሱንና	-10990
▁መደርደሪያ	-10991
▁ቴክኖሎጂዎች	-10992
;/	-10993
ሌታ	-10994
ሙሉ	-10995
▁IN	-10996
▁ታም	-10997
▁ፍየ	-10998
ተኞቹን	-10999
ውነተኛ	-11000
▁ተገል	-11001
▁ለንደን	-11002
▁እለምን	-11003
▁ይከተሉ	-11004
▁ድምፆች	-11005
▁ፎቶግራ	-11006
▁መመዝገብ	-11007
▁መጠቅለያ	-11008
▁ተርሚናል	-11009
▁አምነናል	-11010
▁ወንድሙን	-11011
▁የተመረጡ	-11012
▁በመጠራጠር	-11013
▁እየተደረገ	-11014
▁የኢትዮጵያን	-11015
ለየ	-11016
ቢው	-11017
ኩር	-11018
ው፤	-11019
KHz	-11020
መላለ	-11021
ጫወቱ	-11022
▁$7	-11023
▁4:	-11024
▁Ge	-11025
▁LC	-11026
▁se	-11027
▁ራሴ	-11028
▁ያያ	-11029
▁ይጋ	-11030
ንክሪት	-11031
ኤምኤስ	-11032
▁(20	-11033
▁ቆጣቢ	-11034
▁በማዕ	-11035
▁አይቻ	-11036
▁አድነ	-11037
▁ድልድ	-11038
▁ድመት	-11039
rader	-11040
ክርስቲያ	-11041
▁ለልጆች	-11042
▁ማንቂያ	-11043
▁በምሳሌ	-11044
▁በጉጉት	-11045
▁ዘውታሪ	-11046
▁የሚሄድ	-11047
▁የጥፋት	-11048
▁ድመቶች	-11049
▁ጉዳቶች	-11050
▁ሰሎሞንም	-11051
▁በመቶዎች	-11052
▁አይወድም	-11053
▁እንዲችሉ	-11054
▁የሚሆነው	-11055
▁መልካሞችን	-11056
▁በሚቀጥለው	-11057
▁ያልተመደቡ	-11058
▁በመልክተኛው	-11059
CI	-11060
ተሩ	-11061
ኪን	-11062
ዋስ	-11063
ያ፥	-11064
ፃፀ	-11065
ሰጥም	-11066
ተውም	-11067
ቴሪያ	-11068
ነትኑ	-11069
ናገራ	-11070
ዋል፤	-11071
▁Ag	-11072
▁UK	-11073
▁ልከ	-11074
ንጠረዥ	-11075
▁$1,	-11076
▁1.0	-11077
▁ቁምፊ	-11078
▁በመሸ	-11079
▁በኾን	-11080
▁በድረ	-11081
▁አምና	-11082
▁አዛኙ	-11083
▁አደን	-11084
▁ይቀይ	-11085
▁ጉልህ	-11086
ቸዋለሁ፥	-11087
▁ማርያም	-11088
▁በነበሩ	-11089
▁በኢሜፕ	-11090
▁የሚረዳ	-11091
▁የሚወድ	-11092
▁የቅድመ	-11093
▁ይምራል	-11094
▁ለመፍታት	-11095
▁መዛግብት	-11096
▁ሽልማቶች	-11097
▁በመፈለግ	-11098
▁የመቁረጥ	-11099
▁የተከበረ	-11100
▁በዋነኝነት	-11101
▁ዲሞክራሲያዊ	-11102
MT	-11103
ስ፥	-11104
ተሙ	-11105
ክሰ	-11106
ጻን	-11107
▁ዥ	-11108
ner	-11109
ሊክስ	-11110
ልግና	-11111
ጻጸር	-11112
▁PH	-11113
▁ሩፒ	-11114
▁ትቀ	-11115
▁ይጮ	-11116
ቋቋሚያ	-11117
ተጨማሪ	-11118
ገኛችሁ	-11119
▁13,	-11120
▁በላዩ	-11121
▁ብሩህ	-11122
▁አረፋ	-11123
▁አጥፊ	-11124
▁ወደኔ	-11125
▁ዘረጋ	-11126
▁ፍርይ	-11127
▁መለየት	-11128
▁ሻንጋይ	-11129
▁አረጋግ	-11130
▁አቀረቡ	-11131
zhuang	-11132
▁ለመምራት	-11133
▁ለመወሰን	-11134
▁ለማሸነፍ	-11135
▁በውስጧም	-11136
▁አንደኛው	-11137
▁ገለልተኛ	-11138
▁መልእክተኛ	-11139
▁መሐንዲሶች	-11140
▁ፕሮፌሰሮች	-11141
▁የኮምፒውተር	-11142
ናና	-11143
ዥያ	-11144
▁ጁ	-11145
-50	-11146
120	-11147
ችበት	-11148
▁በሂ	-11149
▁በሊ	-11150
▁ፓኬ	-11151
ገኛቸው	-11152
ጣቸውን	-11153
▁ለመላ	-11154
▁ሊመጣ	-11155
▁ተጠራ	-11156
▁ኦዲዮ	-11157
▁ክለብ	-11158
▁ይሆኑ	-11159
▁ደጃፍ	-11160
▁በማድረ	-11161
▁አትፍሩ	-11162
▁ውህደት	-11163
▁የሚመስ	-11164
▁ዮሴፍም	-11165
▁ለሚያምኑ	-11166
▁በሽታዎች	-11167
▁አደጋዎች	-11168
▁አጋሪዎች	-11169
▁እስከምት	-11170
▁የተዘጋጁ	-11171
▁ይሰጣል።	-11172
▁አትክልቶች	-11173
▁ኢየሱስም።	-11174
VX	-11175
be	-11176
ሃብ	-11177
ፕስ	-11178
▁ѕ	-11179
ION	-11180
ini	-11181
ሳተፍ	-11182
ዳጆች	-11183
ጠቀስ	-11184
▁ለኮ	-11185
▁መጪ	-11186
▁Feb	-11187
▁መካን	-11188
▁ማብራ	-11189
▁ሞጁል	-11190
▁ስድሳ	-11191
▁በአራ	-11192
▁አቃፊ	-11193
▁አወቃ	-11194
▁ያለመ	-11195
▁ጠቋሚ	-11196
▁will	-11197
▁ልጆች፤	-11198
▁ስልኮች	-11199
▁አንጎለ	-11200
▁አድናቂ	-11201
▁መከላከል	-11202
▁አስታወቀ	-11203
▁አድርገህ	-11204
▁ዶንግጓን	-11205
content	-11206
▁በማናቸውም	-11207
▁የሚኒስትሮች	-11208
▁የአልሙኒየም	-11209
▁ያስፈልገዋል	-11210
AB	-11211
በቁ	-11212
ነፋ	-11213
ዉን	-11214
▁م	-11215
ሎችም	-11216
መልሳ	-11217
ንንት	-11218
ክፈል	-11219
▁5%	-11220
▁AD	-11221
="25	-11222
reen	-11223
ማርያም	-11224
ገንዘብ	-11225
▁10:	-11226
▁Kar	-11227
▁ለምር	-11228
▁ማክስ	-11229
▁አውሳ	-11230
▁የጠፋ	-11231
▁ደማቅ	-11232
cript	-11233
▁Mach	-11234
▁ስቱዲዮ	-11235
▁ቱቦዎች	-11236
▁ንጥሎች	-11237
▁ከሚያስ	-11238
▁ወኪሎች	-11239
▁የሚወጣ	-11240
▁የተሻሉ	-11241
ቨስትመንት	-11242
▁Trans	-11243
▁አመስጋኝ	-11244
▁ያስፈልገ	-11245
▁PayPal	-11246
▁መላእክትም	-11247
▁ያረጋግጣል	-11248
▁BreatheLife	-11249
uj	-11250
ሞራ	-11251
ሩ፥	-11252
ዮና	-11253
ጋጥ	-11254
ዳምጡ	-11255
▁$6	-11256
▁4-	-11257
▁ታማ	-11258
▁ትሸ	-11259
ክሲዮን	-11260
ግባባት	-11261
ጣሚዎች	-11262
▁29,	-11263
▁ሃይል	-11264
▁ምንን	-11265
▁ረቂቅ	-11266
▁በተባ	-11267
▁ኃያል	-11268
▁እጀታ	-11269
▁ከበደ	-11270
▁ወጣ፤	-11271
▁ዋንጫ	-11272
▁የመዋ	-11273
▁ርኵሰት	-11274
▁ኃያላን	-11275
▁ናቸው፥	-11276
▁አያያዥ	-11277
▁ከሰጠና	-11278
▁ያዘጋጃ	-11279
▁ደንቆሮ	-11280
▁ግዛቶች	-11281
▁ለበርካታ	-11282
▁መኪናዎች	-11283
▁ፈጣሪዎች	-11284
CP	-11285
RS	-11286
fa	-11287
ሃይ	-11288
ልዩ	-11289
ቪያ	-11290
uls	-11291
use	-11292
ሰንግ	-11293
▁9:	-11294
▁ለች	-11295
▁ሊሰ	-11296
▁ልኮ	-11297
▁በቡ	-11298
▁ወግ	-11299
▁መስራ	-11300
▁ሰፈር	-11301
▁ሴንቲ	-11302
▁ቀረበ	-11303
▁በአደ	-11304
▁በኢን	-11305
▁ተቀበ	-11306
▁አይስ	-11307
▁ያያሉ	-11308
ucati	-11309
▁Spec	-11310
▁ሀብቶች	-11311
▁መልቀቅ	-11312
▁ብቸኛው	-11313
▁የሂሳብ	-11314
▁የተቀረ	-11315
▁የፖስታ	-11316
▁forex	-11317
▁መንገዱን	-11318
▁የተለመዱ	-11319
▁ያለበትን	-11320
▁አማካሪዎች	-11321
xy	-11322
ቢስ	-11323
ንቶ	-11324
ምራሉ	-11325
ታትም	-11326
ኤል፥	-11327
ወሰደ	-11328
ጾችን	-11329
▁ቀል	-11330
▁ቸር	-11331
▁ቼክ	-11332
ላካችን	-11333
▁	-11334
ን	-11335
ም	-11336
ት	-11337
ር	-11338
በ	-11339
የ	-11340
ው	-11341
አ	-11342
እ	-11343
መ	-11344
ል	-11345
ስ	-11346
ይ	-11347
ለ	-11348
ች	-11349
ነ	-11350
ተ	-11351
ያ	-11352
ና	-11353
ላ	-11354
፡	-11355
ከ	-11356
ደ	-11357
ማ	-11358
ድ	-11359
ብ	-11360
ግ	-11361
.	-11362
ገ	-11363
ወ	-11364
ራ	-11365
ረ	-11366
ጥ	-11367
ህ	-11368
ታ	-11369
e	-11370
ሰ	-11371
t	-11372
0	-11373
ክ	-11374
a	-11375
,	-11376
ባ	-11377
ቀ	-11378
ሁ	-11379
o	-11380
1	-11381
i	-11382
r	-11383
ዎ	-11384
ሚ	-11385
ጠ	-11386
ሉ	-11387
ፍ	-11388
n	-11389
ቸ	-11390
2	-11391
ቅ	-11392
ሪ	-11393
ጋ	-11394
።	-11395
s	-11396
ካ	-11397
ሳ	-11398
ዳ	-11399
ሱ	-11400
ኛ	-11401
ጣ	-11402
l	-11403
)	-11404
(	-11405
ዚ	-11406
-	-11407
ፈ	-11408
ዋ	-11409
ሆ	-11410
ቶ	-11411
ዘ	-11412
c	-11413
ሮ	-11414
3	-11415
5	-11416
ዝ	-11417
g	-11418
m	-11419
d	-11420
ቃ	-11421
፤	-11422
ሩ	-11423
ዲ	-11424
:	-11425
u	-11426
፥	-11427
ቻ	-11428
ቱ	-11429
4	-11430
"	-11431
ሞ	-11432
p	-11433
h	-11434
ቢ	-11435
ዓ	-11436
ሎ	-11437
ሽ	-11438
ኖ	-11439
6	-11440
8	-11441
C	-11442
ቁ	-11443
ሌ	-11444
S	-11445
ኑ	-11446
9	-11447
ዊ	-11448
ጊ	-11449
7	-11450
;	-11451
ዜ	-11452
ሲ	-11453
ፋ	-11454
ሊ	-11455
ፊ	-11456
ሕ	-11457
ጉ	-11458
ጅ	-11459
ዛ	-11460
ሙ	-11461
ቤ	-11462
/	-11463
ኔ	-11464
A	-11465
ኝ	-11466
ኢ	-11467
ቦ	-11468
ሻ	-11469
፣	-11470
P	-11471
ኤ	-11472
&	-11473
ጽ	-11474
ሥ	-11475
ዱ	-11476
ዕ	-11477
y	-11478
ጨ	-11479
ዩ	-11480
ቡ	-11481
ሜ	-11482
ኮ	-11483
ጭ	-11484
ዮ	-11485
ጀ	-11486
b	-11487
ቆ	-11488
ኾ	-11489
T	-11490
M	-11491
ቲ	-11492
D	-11493
ፕ	-11494
ሬ	-11495
ሃ	-11496
ዶ	-11497
ጃ	-11498
ሴ	-11499
ቹ	-11500
ሔ	-11501
ጫ	-11502
f	-11503
ዙ	-11504
k	-11505
E	-11506
ኒ	-11507
?	-11508
«	-11509
ሠ	-11510
ቂ	-11511
ጌ	-11512
R	-11513
ቴ	-11514
F	-11515
L	-11516
ጎ	-11517
B	-11518
»	-11519
ሸ	-11520
ጡ	-11521
v	-11522
ኩ	-11523
ዴ	-11524
w	-11525
I	-11526
H	-11527
ሐ	-11528
N	-11529
=	-11530
ኃ	-11531
ጆ	-11532
ኋ	-11533
ኪ	-11534
!	-11535
G	-11536
ኞ	-11537
ጂ	-11538
_	-11539
ሶ	-11540
ቋ	-11541
O	-11542
ጸ	-11543
x	-11544
ፎ	-11545
ጻ	-11546
V	-11547
ፖ	-11548
ፓ	-11549
ሀ	-11550
W	-11551
ፉ	-11552
ኘ	-11553
X	-11554
U	-11555
K	-11556
ሄ	-11557
ሣ	-11558
ኦ	-11559
ኙ	-11560
ጓ	-11561
ፒ	-11562
ዞ	-11563
ቪ	-11564
ኬ	-11565
ጦ	-11566
ጤ	-11567
%	-11568
ቨ	-11569
ኳ	-11570
ጢ	-11571
'	-11572
ሷ	-11573
ሂ	-11574
ፃ	-11575
ቄ	-11576
z	-11577
ዬ	-11578
ጵ	-11579
ፅ	-11580
ፀ	-11581
J	-11582
Y	-11583
ዐ	-11584
ጁ	-11585
$	-11586
ቷ	-11587
ፌ	-11588
ቼ	-11589
+	-11590
–	-11591
ጹ	-11592
ቾ	-11593
ጮ	-11594
ዌ	-11595
j	-11596
ጾ	-11597
ሾ	-11598
ሺ	-11599
ሓ	-11600
ኣ	-11601
ኅ	-11602
”	-11603
ሹ	-11604
ዥ	-11605
“	-11606
ሦ	-11607
ቫ	-11608
ዖ	-11609
•	-11610
*	-11611
Z	-11612
ጪ	-11613
ሏ	-11614
ጄ	-11615
›	-11616
ሡ	-11617
ሟ	-11618
Q	-11619
‹	-11620
ዣ	-11621
ኸ	-11622
ዉ	-11623
ቺ	-11624
ቧ	-11625
ሯ	-11626
፦	-11627
ቭ	-11628
ጧ	-11629
ቍ	-11630
£	-11631
ቮ	-11632
ኀ	-11633
q	-11634
]	-11635
[	-11636
ሑ	-11637
#	-11638
ل	-11639
ቈ	-11640
ፔ	-11641
ጩ	-11642
ጕ	-11643
ኵ	-11644
е	-11645
@	-11646
ኗ	-11647
ኡ	-11648
ጐ	-11649
ፐ	-11650
ኹ	-11651
ዢ	-11652
ዒ	-11653
ዑ	-11654
°	-11655
ا	-11656
©	-11657
€	-11658
×	-11659
~	-11660
о	-11661
丨	-11662
а	-11663
ጳ	-11664
ዷ	-11665
ጴ	-11666
ዔ	-11667
ፑ	-11668
ፆ	-11669
ሇ	-11670
፩	-11671
፪	-11672
ቬ	-11673
ፏ	-11674
ሼ	-11675
ѕ	-11676
፻	-11677
፲	-11678
ፁ	-11679
ዟ	-11680
’	-11681
і	-11682
ج	-11683
ኼ	-11684
ዦ	-11685
ኚ	-11686
ኰ	-11687
ه	-11688
ሒ	-11689
ı	-11690
ي	-11691
ዠ	-11692
፫	-11693
ዯ	-11694
ኽ	-11695
`	-11696
፱	-11697
с	-11698
ጼ	-11699
\	-11700
р	-11701
م	-11702
ቿ	-11703
→	-11704
፬	-11705
·	-11706
፭	-11707
ن	-11708
و	-11709
ኺ	-11710
—	-11711
±	-11712
ኜ	-11713
ኻ	-11714
፳	-11715
፯	-11716
у	-11717
ö	-11718
ع	-11719
፮	-11720
ü	-11721
}	-11722
ä	-11723
{	-11724
®	-11725
ጲ	-11726
ر	-11727
፺	-11728
¥	-11729
ت	-11730
ሖ	-11731
ሤ	-11732
≤	-11733
é	-11734
●	-11735
س	-11736
ş	-11737
ዪ	-11738
፰	-11739
и	-11740
