<unk>	0
<s>	0
</s>	0
ານ	-0
ອງ	-1
er	-2
in	-3
ການ	-4
▁ເ	-5
ໍາ	-6
ັນ	-7
ັບ	-8
▁C	-9
ລະ	-10
▁S	-11
▁ສ	-12
an	-13
ິດ	-14
ທີ	-15
on	-16
▁2	-17
▁P	-18
at	-19
້າ	-20
ັດ	-21
ທີ່	-22
▁1	-23
ar	-24
ຫນ	-25
▁ແ	-26
es	-27
en	-28
າຍ	-29
▁M	-30
or	-31
al	-32
ປະ	-33
າມ	-34
▁T	-35
ຂອງ	-36
▁B	-37
ື່	-38
ອນ	-39
▁A	-40
01	-41
▁D	-42
st	-43
ໃນ	-44
▁ການ	-45
າດ	-46
00	-47
່າ	-48
▁ກ	-49
ic	-50
▁L	-51
▁F	-52
▁/	-53
le	-54
▁(	-55
▁R	-56
▁-	-57
▁ຄ	-58
ະລ	-59
້ນ	-60
ro	-61
ing	-62
ໍ່	-63
ສະ	-64
▁ອ	-65
▁ໂ	-66
to	-67
ັກ	-68
it	-69
ັງ	-70
ົດ	-71
າກ	-72
ac	-73
▁ລ	-74
▁H	-75
່ງ	-76
▁E	-77
່ນ	-78
ຫຼ	-79
▁201	-80
am	-81
▁W	-82
ol	-83
ວາມ	-84
▁ພ	-85
▁ຕ	-86
▁ມ	-87
▁,	-88
▁G	-89
ດ້	-90
ed	-91
et	-92
ະລິດ	-93
ຜະລິດ	-94
▁t	-95
▁ແລະ	-96
ຫມ	-97
ົນ	-98
as	-99
ູ້	-100
ou	-101
▁ທ	-102
el	-103
່ານ	-104
▁3	-105
ວກ	-106
om	-107
il	-108
ຸດ	-109
▁N	-110
ແລະ	-111
▁ຂ	-112
າວ	-113
▁ຈ	-114
ໍາລ	-115
▁I	-116
ີນ	-117
re	-118
ອກ	-119
▁ນ	-120
▁ບ	-121
ື່ອງ	-122
▁c	-123
▁ຫນ	-124
ter	-125
າງ	-126
ag	-127
ໄດ້	-128
ິນ	-129
id	-130
ຄື່ອງ	-131
▁s	-132
▁_	-133
ະພ	-134
ປັນ	-135
ຜູ້	-136
▁V	-137
▁&	-138
▁ຊ	-139
ວນ	-140
os	-141
▁ທີ່	-142
ົາ	-143
ໍາລັບ	-144
ion	-145
▁ວ	-146
ີ້	-147
he	-148
ເຮ	-149
..	-150
ot	-151
is	-152
ad	-153
▁p	-154
▁ປະ	-155
ູ່	-156
ch	-157
▁5	-158
atto	-159
ມີ	-160
▁4	-161
▁U	-162
ົງ	-163
ເພ	-164
ອບ	-165
▁ສະ	-166
▁O	-167
ຄວາມ	-168
ດຍ	-169
ຫ້	-170
ct	-171
່ຽ	-172
ent	-173
▁m	-174
ົມ	-175
▁b	-176
...	-177
ຫລ	-178
▁ໃນ	-179
ົບ	-180
ໍ້	-181
າບ	-182
ur	-183
ລິ	-184
ess	-185
ະນ	-186
ົ້າ	-187
ig	-188
ງານ	-189
▁ດ	-190
gt	-191
ມື	-192
ມ່ນ	-193
▁K	-194
▁ຄວາມ	-195
▁ປ	-196
▁ຮ	-197
ໄປ	-198
▁ເຄື່ອງ	-199
ົວ	-200
ສາ	-201
▁St	-202
us	-203
ູນ	-204
ເປັນ	-205
ir	-206
ack	-207
ເລ	-208
ang	-209
▁J	-210
້ງ	-211
and	-212
um	-213
▁ຂອງ	-214
້ອ	-215
ul	-216
▁f	-217
່ວ	-218
▁d	-219
ິງ	-220
່າງ	-221
ັ້ນ	-222
un	-223
ay	-224
ຈາກ	-225
ະພັນ	-226
ust	-227
ຊ້	-228
ve	-229
ຜະລິດຕ	-230
ow	-231
▁6	-232
ຜະລິດຕະພັນ	-233
ri	-234
▁w	-235
▁0	-236
▁ຜູ້	-237
ap	-238
ໃຊ້	-239
ຢູ່	-240
▁...	-241
of	-242
ລາ	-243
▁Ch	-244
ຸນ	-245
ໃຫ້	-246
ຖື	-247
amp	-248
ເທ	-249
ວກເຮ	-250
20	-251
ກັບ	-252
້ອງ	-253
ຮງ	-254
ຫຍ	-255
▁tatto	-256
▁8	-257
op	-258
ີ່	-259
ine	-260
ັ້ງ	-261
ພິ	-262
ູບ	-263
▁ຫນ້າ	-264
ູງ	-265
▁ສໍາລັບ	-266
ຕໍ່	-267
▁$	-268
້າງ	-269
ab	-270
▁h	-271
ືອນ	-272
ບບ	-273
lo	-274
em	-275
ື່ອ	-276
▁7	-277
້ໍາ	-278
ut	-279
ເພດ	-280
▁ລະ	-281
od	-282
ເສ	-283
ຄາ	-284
▁In	-285
ທ່ານ	-286
ip	-287
ຈະ	-288
ໍລິ	-289
ສໍາລັບ	-290
ເວ	-291
ເຂ	-292
▁Pr	-293
com	-294
ໄລ	-295
eb	-296
ເມ	-297
▁ຫຼ	-298
ທໍາ	-299
ິ່ງ	-300
mm	-301
ປະກ	-302
ເຊ	-303
▁Co	-304
ສຸດ	-305
▁ຖ	-306
000	-307
▁–	-308
ຮັບ	-309
50	-310
ໄຟ	-311
ະສ	-312
ະຫນ	-313
ian	-314
ra	-315
▁ເຊ	-316
ຶກ	-317
ີດ	-318
ເຕ	-319
▁10	-320
ers	-321
▁ຍ	-322
one	-323
▁ມີ	-324
ແບບ	-325
ແມ່ນ	-326
▁ໂດຍ	-327
ວກເຮົາ	-328
▁9	-329
ຕິ	-330
ສູງ	-331
▁X	-332
ong	-333
▁Sh	-334
າມາດ	-335
▁g	-336
ລົດ	-337
▁20	-338
ເທດ	-339
▁2018	-340
ຽນ	-341
່າຍ	-342
ck	-343
ard	-344
ທລະ	-345
ia	-346
pe	-347
▁+	-348
ວກັບ	-349
ອິດ	-350
▁Y	-351
igh	-352
ດືອນ	-353
▁ຫ	-354
ຊີ	-355
▁ຈີນ	-356
ast	-357
▁ໄດ້	-358
ທາງ	-359
▁ຜ	-360
qu	-361
່ຽວກັບ	-362
ອດ	-363
ແຕ	-364
ຸກ	-365
th	-366
ທໍາອິດ	-367
ນີ້	-368
ກະ	-369
ເຄື່ອງ	-370
້ານ	-371
ຸມ	-372
▁Pro	-373
.0	-374
201	-375
ົ່າ	-376
ment	-377
ຫລດ	-378
ວ່າ	-379
ກໍາ	-380
ib	-381
ຖືກ	-382
im	-383
▁ດາວ	-384
▁An	-385
ໂດຍ	-386
ົກ	-387
ມາ	-388
່າວ	-389
ບໍ່	-390
້ວ	-391
ອາ	-392
ສັບ	-393
ຮງງານ	-394
ຫມົດ	-395
ບັນ	-396
ເຈ	-397
ງິນ	-398
all	-399
ດີ	-400
ົ່ງ	-401
-1	-402
ື່ນ	-403
ົ້ນ	-404
ະຫນາດ	-405
ຽງ	-406
ate	-407
ສາມາດ	-408
▁ປະເພດ	-409
og	-410
▁ຜະລິດຕະພັນ	-411
ຍາ	-412
ຈີນ	-413
te	-414
ation	-415
້ມ	-416
ໂລ	-417
ຄື	-418
້ອຍ	-419
▁"	-420
ອອກ	-421
pp	-422
ຫະ	-423
ຸ່ນ	-424
▁Z	-425
ສະຫນ	-426
່ວນ	-427
ທລະສັບ	-428
ະພາບ	-429
ain	-430
ໂນ	-431
ub	-432
ໂຫລດ	-433
▁ຫນ້າທໍາອິດ	-434
▁l	-435
lect	-436
ຕະ	-437
▁ແມ່ນ	-438
ຫາ	-439
ໍານ	-440
ark	-441
iz	-442
co	-443
ຕັ້ງ	-444
ພາ	-445
ພວກເຮົາ	-446
ight	-447
▁tattoos	-448
▁ລາ	-449
inter	-450
▁ເປັນ	-451
ver	-452
▁ເດືອນ	-453
▁:	-454
ກິດ	-455
if	-456
▁ວິ	-457
ce	-458
est	-459
ric	-460
ບໍລິ	-461
▁2019	-462
▁12	-463
ke	-464
art	-465
ທັງ	-466
ນ໌	-467
ເກ	-468
ເຮັດ	-469
▁Bo	-470
ie	-471
ທະ	-472
▁ກັບ	-473
ຖານ	-474
ly	-475
▁in	-476
ປະເທດ	-477
▁ສໍາ	-478
10	-479
▁Dust	-480
▁*	-481
ພິມ	-482
ພາບ	-483
ry	-484
▁ໃ	-485
ity	-486
ເຫ	-487
▁ໄ	-488
ຶ່ງ	-489
ວດ	-490
ຂໍ້	-491
ບັດ	-492
▁ສີ	-493
ist	-494
ress	-495
▁En	-496
ຕອນ	-497
▁Col	-498
ທີ່ມີ	-499
▁n	-500
▁ເກ	-501
ide	-502
ຫມາຍ	-503
້ອນ	-504
▁2017	-505
່ອງ	-506
▁ເຮ	-507
ເນ	-508
▁ໂຮງງານ	-509
▁e	-510
ill	-511
ເຕີ	-512
່ອນ	-513
ຜ່ານ	-514
se	-515
▁Q	-516
▁ຄໍາ	-517
30	-518
ຕາ	-519
ind	-520
.2	-521
ok	-522
▁ຮູບ	-523
ປະກອນ	-524
ຸປະກອນ	-525
ສົ່ງ	-526
▁ຕິດ	-527
ຫັດ	-528
bo	-529
ີ່ມ	-530
▁Cas	-531
ຄ້າ	-532
per	-533
ມູນ	-534
.1	-535
▁ເພ	-536
ເດ	-537
act	-538
▁and	-539
▁ທ່ານ	-540
ິກ	-541
age	-542
ມືອງ	-543
▁Printer	-544
▁Re	-545
▁ຢ	-546
▁Sp	-547
▁to	-548
▁ເຊົ່າ	-549
ັ່ນ	-550
ຟ້າ	-551
ຈໍາ	-552
▁the	-553
▁ບໍ່	-554
oft	-555
ວິ	-556
▁ຕໍ່	-557
ສັດ	-558
▁ອາ	-559
ino	-560
ບົບ	-561
▁ຜູ້ຜະລິດ	-562
▁Pl	-563
ost	-564
ເຫຼ	-565
ວຍ	-566
ຕິດ	-567
ຫຼາຍ	-568
▁of	-569
ເງິນ	-570
ຮູບ	-571
▁15	-572
ແດ	-573
▁Fl	-574
ແກ	-575
▁ເຊົ່າລົດ	-576
▁v	-577
td	-578
ກັນ	-579
▁ເວ	-580
▁2016	-581
hou	-582
ີເມ	-583
ord	-584
ຽກ	-585
ຫານ	-586
▁st	-587
are	-588
ພະ	-589
▁ໂທລະສັບ	-590
▁Wh	-591
ື່ນໆ	-592
ື້ນ	-593
ເຫັນ	-594
▁Bl	-595
ືອກ	-596
ob	-597
.5	-598
ເປ	-599
ນ້ໍາ	-600
▁Collect	-601
ction	-602
let	-603
້າຍ	-604
▁11	-605
ort	-606
ໃຈ	-607
ai	-608
ເອ	-609
▁ລາຄາ	-610
▁ພາ	-611
▁y	-612
ັ່ງ	-613
ak	-614
ະນາ	-615
-2	-616
ຫນ້າ	-617
ສີ	-618
ies	-619
▁ຂະຫນາດ	-620
60	-621
▁Con	-622
ໄຊ	-623
ຫວ	-624
dro	-625
ສ້າງ	-626
ach	-627
ive	-628
ເຂົ້າ	-629
ົ່ວ	-630
eng	-631
ເຈົ້າ	-632
av	-633
▁ລັບ	-634
80	-635
ຕົວ	-636
▁19	-637
ນໍາ	-638
40	-639
iv	-640
▁200	-641
▁ກ່ຽວກັບ	-642
ມັນ	-643
her	-644
ຕ້ອງ	-645
ແດງ	-646
▁ຂ່າວ	-647
▁Al	-648
ຽມ	-649
▁30	-650
ູກ	-651
▁ເສ	-652
▁ລາຍ	-653
▁No	-654
ເວລາ	-655
▁Collector	-656
ຫມ່	-657
attoos	-658
▁r	-659
▁£	-660
▁ເລ	-661
່ຽວ	-662
ທິ	-663
ໄດ້ຮັບ	-664
ite	-665
ຕາມ	-666
ຫຍ່	-667
ant	-668
ຸນນ	-669
▁ນໍາ	-670
▁Hack	-671
່ມ	-672
ສໍາ	-673
ທັງຫມົດ	-674
ຄິດ	-675
ile	-676
ug	-677
ະສິດ	-678
ື້	-679
ຫ້ອງ	-680
▁»	-681
▁US	-682
ອື່ນໆ	-683
▁ຂໍ້	-684
▁©	-685
ຸງ	-686
ຂະສິດ	-687
ax	-688
ມັດ	-689
▁Ser	-690
ິ້ນ	-691
▁100	-692
▁ວັນ	-693
▁The	-694
11	-695
IN	-696
ວັນ	-697
ສະນ	-698
▁24	-699
ຽດ	-700
▁Val	-701
ໄຟຟ້າ	-702
ໄວ	-703
ຢ່າງ	-704
ທີ່ສຸດ	-705
▁ກະ	-706
ສາຫະ	-707
ew	-708
▁Un	-709
ຸລະ	-710
ທະຍາ	-711
ell	-712
▁ເຂ	-713
ຫໍ້	-714
ສ່ວນ	-715
▁Ltd	-716
ີ່ຫໍ້	-717
▁ບັນ	-718
ື້ອ	-719
ມ້	-720
ish	-721
▁ມັນ	-722
our	-723
▁ລະຫັດ	-724
ແນ	-725
▁	-726
າ	-727
ນ	-728
e	-729
a	-730
o	-731
t	-732
i	-733
ກ	-734
ດ	-735
r	-736
n	-737
່	-738
ະ	-739
ັ	-740
ງ	-741
ອ	-742
s	-743
ເ	-744
້	-745
ລ	-746
l	-747
ມ	-748
ສ	-749
ບ	-750
ວ	-751
,	-752
0	-753
ີ	-754
ຫ	-755
ທ	-756
c	-757
ິ	-758
ົ	-759
u	-760
.	-761
1	-762
ໍ	-763
d	-764
m	-765
h	-766
g	-767
2	-768
ຕ	-769
ແ	-770
ຍ	-771
ຄ	-772
p	-773
ປ	-774
ຂ	-775
ພ	-776
C	-777
ື	-778
S	-779
:	-780
ຊ	-781
P	-782
y	-783
ູ	-784
ຈ	-785
-	-786
ໃ	-787
ຸ	-788
A	-789
5	-790
ຮ	-791
ໂ	-792
b	-793
T	-794
M	-795
ໄ	-796
3	-797
ຜ	-798
k	-799
D	-800
B	-801
E	-802
L	-803
8	-804
f	-805
4	-806
R	-807
6	-808
/	-809
F	-810
v	-811
w	-812
9	-813
I	-814
H	-815
7	-816
N	-817
ຽ	-818
O	-819
G	-820
)	-821
(	-822
ຖ	-823
W	-824
V	-825
ຼ	-826
ຢ	-827
x	-828
;	-829
U	-830
K	-831
ຟ	-832
_	-833
&	-834
z	-835
ຶ	-836
X	-837
J	-838
"	-839
Y	-840
j	-841
໌	-842
ຣ	-843
$	-844
%	-845
ຝ	-846
Z	-847
q	-848
+	-849
!	-850
–	-851
ໆ	-852
Q	-853
*	-854
'	-855
?	-856
£	-857
©	-858
@	-859
=	-860
»	-861
]	-862
[	-863
#	-864
}	-865
\	-866
{	-867
“	-868
”	-869
€	-870
°	-871
×	-872
~	-873
•	-874
໊	-875
’	-876
	-877
໋	-878
а	-879
ç	-880
к	-881
ı	-882
с	-883
→	-884
é	-885
н	-886
≤	-887
р	-888
★	-889
ñ	-890
ü	-891
о	-892
`	-893
·	-894
—	-895
и	-896
е	-897
ö	-898
ь	-899
®	-900
ย	-901
±	-902
ş	-903
น	-904
฿	-905
送	-906
า	-907
≥	-908
信	-909
发	-910
息	-911
У	-912
ท	-913
ї	-914
天	-915
聊	-916
т	-917
ไ	-918
Φ	-919
ะ	-920
ร	-921
á	-922
本	-923
ว	-924
ä	-925
ม	-926
«	-927
电	-928
←	-929
л	-930
万	-931
象	-932
เ	-933
话	-934
资	-935
ิ	-936
【	-937
в	-938
】	-939
ğ	-940
โ	-941
ล	-942
¥	-943
у	-944
ซ	-945
‘	-946
å	-947
อ	-948
◆	-949
ง	-950
м	-951
Ω	-952
₪	-953
₱	-954
	-955
ด	-956
ຯ	-957
б	-958
●	-959
μ	-960
й	-961
	-962
í	-963
ó	-964
ี	-965
′	-966
ส	-967
à	-968
д	-969
ы	-970
🔥	-971
ก	-972
แ	-973
ข	-974
ค	-975
中	-976
	-977
Ö	-978
ห	-979
я	-980
้	-981
ا	-982
ป	-983
어	-984
п	-985
ต	-986
บ	-987
^	-988
İ	-989
文	-990
ั	-991
จ	-992
Ø	-993
х	-994
Ф	-995
г	-996
