<unk>	0
<s>	0
</s>	0
ານ	-0
ອງ	-1
er	-2
in	-3
ການ	-4
▁ເ	-5
ໍາ	-6
ັນ	-7
ັບ	-8
▁C	-9
ລະ	-10
▁S	-11
▁ສ	-12
an	-13
ິດ	-14
ທີ	-15
on	-16
▁2	-17
▁P	-18
at	-19
້າ	-20
ັດ	-21
ທີ່	-22
▁1	-23
ar	-24
ຫນ	-25
▁ແ	-26
es	-27
en	-28
າຍ	-29
▁M	-30
or	-31
al	-32
ປະ	-33
າມ	-34
▁T	-35
ຂອງ	-36
▁B	-37
ື່	-38
ອນ	-39
▁A	-40
01	-41
▁D	-42
st	-43
ໃນ	-44
▁ການ	-45
າດ	-46
00	-47
່າ	-48
▁ກ	-49
ic	-50
▁L	-51
▁F	-52
▁/	-53
le	-54
▁(	-55
▁R	-56
▁-	-57
▁ຄ	-58
ະລ	-59
້ນ	-60
ro	-61
ing	-62
ໍ່	-63
ສະ	-64
▁ອ	-65
▁ໂ	-66
to	-67
ັກ	-68
it	-69
ັງ	-70
ົດ	-71
າກ	-72
ac	-73
▁ລ	-74
▁H	-75
່ງ	-76
▁E	-77
່ນ	-78
ຫຼ	-79
▁201	-80
am	-81
▁W	-82
ol	-83
ວາມ	-84
▁ພ	-85
▁ຕ	-86
▁ມ	-87
▁,	-88
▁G	-89
ດ້	-90
ed	-91
et	-92
ະລິດ	-93
ຜະລິດ	-94
▁t	-95
▁ແລະ	-96
ຫມ	-97
ົນ	-98
as	-99
ູ້	-100
ou	-101
▁ທ	-102
el	-103
່ານ	-104
▁3	-105
ວກ	-106
om	-107
il	-108
ຸດ	-109
▁N	-110
ແລະ	-111
▁ຂ	-112
າວ	-113
▁ຈ	-114
ໍາລ	-115
▁I	-116
ີນ	-117
re	-118
ອກ	-119
▁ນ	-120
▁ບ	-121
ື່ອງ	-122
▁c	-123
▁ຫນ	-124
ter	-125
າງ	-126
ag	-127
ໄດ້	-128
ິນ	-129
id	-130
ຄື່ອງ	-131
▁s	-132
▁_	-133
ະພ	-134
ປັນ	-135
ຜູ້	-136
▁V	-137
▁&	-138
▁ຊ	-139
ວນ	-140
os	-141
▁ທີ່	-142
ົາ	-143
ໍາລັບ	-144
ion	-145
▁ວ	-146
ີ້	-147
he	-148
ເຮ	-149
..	-150
ot	-151
is	-152
ad	-153
▁p	-154
▁ປະ	-155
ູ່	-156
ch	-157
▁5	-158
atto	-159
ມີ	-160
▁4	-161
▁U	-162
ົງ	-163
ເພ	-164
ອບ	-165
▁ສະ	-166
▁O	-167
ຄວາມ	-168
ດຍ	-169
ຫ້	-170
ct	-171
່ຽ	-172
ent	-173
▁m	-174
ົມ	-175
▁b	-176
...	-177
ຫລ	-178
▁ໃນ	-179
ົບ	-180
ໍ້	-181
າບ	-182
ur	-183
ລິ	-184
ess	-185
ະນ	-186
ົ້າ	-187
ig	-188
ງານ	-189
▁ດ	-190
gt	-191
ມື	-192
ມ່ນ	-193
▁K	-194
▁ຄວາມ	-195
▁ປ	-196
▁ຮ	-197
ໄປ	-198
▁ເຄື່ອງ	-199
ົວ	-200
ສາ	-201
▁St	-202
us	-203
ູນ	-204
ເປັນ	-205
ir	-206
ack	-207
ເລ	-208
ang	-209
▁J	-210
້ງ	-211
and	-212
um	-213
▁ຂອງ	-214
້ອ	-215
ul	-216
▁f	-217
່ວ	-218
▁d	-219
ິງ	-220
່າງ	-221
ັ້ນ	-222
un	-223
ay	-224
ຈາກ	-225
ະພັນ	-226
ust	-227
ຊ້	-228
ve	-229
ຜະລິດຕ	-230
ow	-231
▁6	-232
ຜະລິດຕະພັນ	-233
ri	-234
▁w	-235
▁0	-236
▁ຜູ້	-237
ap	-238
ໃຊ້	-239
ຢູ່	-240
▁...	-241
of	-242
ລາ	-243
▁Ch	-244
ຸນ	-245
ໃຫ້	-246
ຖື	-247
amp	-248
ເທ	-249
ວກເຮ	-250
20	-251
ກັບ	-252
້ອງ	-253
ຮງ	-254
ຫຍ	-255
▁tatto	-256
▁8	-257
op	-258
ີ່	-259
ine	-260
ັ້ງ	-261
ພິ	-262
ູບ	-263
▁ຫນ້າ	-264
ູງ	-265
▁ສໍາລັບ	-266
ຕໍ່	-267
▁$	-268
້າງ	-269
ab	-270
▁h	-271
ືອນ	-272
ບບ	-273
lo	-274
em	-275
ື່ອ	-276
▁7	-277
້ໍາ	-278
ut	-279
ເພດ	-280
▁ລະ	-281
od	-282
ເສ	-283
ຄາ	-284
▁In	-285
ທ່ານ	-286
ip	-287
ຈະ	-288
ໍລິ	-289
ສໍາລັບ	-290
ເວ	-291
ເຂ	-292
▁Pr	-293
com	-294
ໄລ	-295
eb	-296
ເມ	-297
▁ຫຼ	-298
ທໍາ	-299
ິ່ງ	-300
mm	-301
ປະກ	-302
ເຊ	-303
▁Co	-304
ສຸດ	-305
▁ຖ	-306
000	-307
▁–	-308
ຮັບ	-309
50	-310
ໄຟ	-311
ະສ	-312
ະຫນ	-313
ian	-314
ra	-315
▁ເຊ	-316
ຶກ	-317
ີດ	-318
ເຕ	-319
▁10	-320
ers	-321
▁ຍ	-322
one	-323
▁ມີ	-324
ແບບ	-325
ແມ່ນ	-326
▁ໂດຍ	-327
ວກເຮົາ	-328
▁9	-329
ຕິ	-330
ສູງ	-331
▁X	-332
ong	-333
▁Sh	-334
າມາດ	-335
▁g	-336
ລົດ	-337
▁20	-338
ເທດ	-339
▁2018	-340
ຽນ	-341
່າຍ	-342
ck	-343
ard	-344
ທລະ	-345
ia	-346
pe	-347
▁+	-348
ວກັບ	-349
ອິດ	-350
▁Y	-351
igh	-352
ດືອນ	-353
▁ຫ	-354
ຊີ	-355
▁ຈີນ	-356
ast	-357
▁ໄດ້	-358
ທາງ	-359
▁ຜ	-360
qu	-361
່ຽວກັບ	-362
ອດ	-363
ແຕ	-364
ຸກ	-365
th	-366
ທໍາອິດ	-367
ນີ້	-368
ກະ	-369
ເຄື່ອງ	-370
້ານ	-371
ຸມ	-372
▁Pro	-373
.0	-374
201	-375
ົ່າ	-376
ment	-377
ຫລດ	-378
ວ່າ	-379
ກໍາ	-380
ib	-381
ຖືກ	-382
im	-383
▁ດາວ	-384
▁An	-385
ໂດຍ	-386
ົກ	-387
ມາ	-388
່າວ	-389
ບໍ່	-390
້ວ	-391
ອາ	-392
ສັບ	-393
ຮງງານ	-394
ຫມົດ	-395
ບັນ	-396
ເຈ	-397
ງິນ	-398
all	-399
ດີ	-400
ົ່ງ	-401
-1	-402
ື່ນ	-403
ົ້ນ	-404
ະຫນາດ	-405
ຽງ	-406
ate	-407
ສາມາດ	-408
▁ປະເພດ	-409
og	-410
▁ຜະລິດຕະພັນ	-411
ຍາ	-412
ຈີນ	-413
te	-414
ation	-415
້ມ	-416
ໂລ	-417
ຄື	-418
້ອຍ	-419
▁"	-420
ອອກ	-421
pp	-422
ຫະ	-423
ຸ່ນ	-424
▁Z	-425
ສະຫນ	-426
່ວນ	-427
ທລະສັບ	-428
ະພາບ	-429
ain	-430
ໂນ	-431
ub	-432
ໂຫລດ	-433
▁ຫນ້າທໍາອິດ	-434
▁l	-435
lect	-436
ຕະ	-437
▁ແມ່ນ	-438
ຫາ	-439
ໍານ	-440
ark	-441
iz	-442
co	-443
ຕັ້ງ	-444
ພາ	-445
ພວກເຮົາ	-446
ight	-447
▁tattoos	-448
▁ລາ	-449
inter	-450
▁ເປັນ	-451
ver	-452
▁ເດືອນ	-453
▁:	-454
ກິດ	-455
if	-456
▁ວິ	-457
ce	-458
est	-459
ric	-460
ບໍລິ	-461
▁2019	-462
▁12	-463
ke	-464
art	-465
ທັງ	-466
ນ໌	-467
ເກ	-468
ເຮັດ	-469
▁Bo	-470
ie	-471
ທະ	-472
▁ກັບ	-473
ຖານ	-474
ly	-475
▁in	-476
ປະເທດ	-477
▁ສໍາ	-478
10	-479
▁Dust	-480
▁*	-481
ພິມ	-482
ພາບ	-483
ry	-484
▁ໃ	-485
ity	-486
ເຫ	-487
▁ໄ	-488
ຶ່ງ	-489
ວດ	-490
ຂໍ້	-491
ບັດ	-492
▁ສີ	-493
ist	-494
ress	-495
▁En	-496
ຕອນ	-497
▁Col	-498
ທີ່ມີ	-499
▁n	-500
▁ເກ	-501
ide	-502
ຫມາຍ	-503
້ອນ	-504
▁2017	-505
່ອງ	-506
▁ເຮ	-507
ເນ	-508
▁ໂຮງງານ	-509
▁e	-510
ill	-511
ເຕີ	-512
່ອນ	-513
ຜ່ານ	-514
se	-515
▁Q	-516
▁ຄໍາ	-517
30	-518
ຕາ	-519
ind	-520
.2	-521
ok	-522
▁ຮູບ	-523
ປະກອນ	-524
ຸປະກອນ	-525
ສົ່ງ	-526
▁ຕິດ	-527
ຫັດ	-528
bo	-529
ີ່ມ	-530
▁Cas	-531
ຄ້າ	-532
per	-533
ມູນ	-534
.1	-535
▁ເພ	-536
ເດ	-537
act	-538
▁and	-539
▁ທ່ານ	-540
ິກ	-541
age	-542
ມືອງ	-543
▁Printer	-544
▁Re	-545
▁ຢ	-546
▁Sp	-547
▁to	-548
▁ເຊົ່າ	-549
ັ່ນ	-550
ຟ້າ	-551
ຈໍາ	-552
▁the	-553
▁ບໍ່	-554
oft	-555
ວິ	-556
▁ຕໍ່	-557
ສັດ	-558
▁ອາ	-559
ino	-560
ບົບ	-561
▁ຜູ້ຜະລິດ	-562
▁Pl	-563
ost	-564
ເຫຼ	-565
ວຍ	-566
ຕິດ	-567
ຫຼາຍ	-568
▁of	-569
ເງິນ	-570
ຮູບ	-571
▁15	-572
ແດ	-573
▁Fl	-574
ແກ	-575
▁ເຊົ່າລົດ	-576
▁v	-577
td	-578
ກັນ	-579
▁ເວ	-580
▁2016	-581
hou	-582
ີເມ	-583
ord	-584
ຽກ	-585
ຫານ	-586
▁st	-587
are	-588
ພະ	-589
▁ໂທລະສັບ	-590
▁Wh	-591
ື່ນໆ	-592
ື້ນ	-593
ເຫັນ	-594
▁Bl	-595
ືອກ	-596
ob	-597
.5	-598
ເປ	-599
ນ້ໍາ	-600
▁Collect	-601
ction	-602
let	-603
້າຍ	-604
▁11	-605
ort	-606
ໃຈ	-607
ai	-608
ເອ	-609
▁ລາຄາ	-610
▁ພາ	-611
▁y	-612
ັ່ງ	-613
ak	-614
ະນາ	-615
-2	-616
ຫນ້າ	-617
ສີ	-618
ies	-619
▁ຂະຫນາດ	-620
60	-621
▁Con	-622
ໄຊ	-623
ຫວ	-624
dro	-625
ສ້າງ	-626
ach	-627
ive	-628
ເຂົ້າ	-629
ົ່ວ	-630
eng	-631
ເຈົ້າ	-632
av	-633
▁ລັບ	-634
80	-635
ຕົວ	-636
▁19	-637
ນໍາ	-638
40	-639
iv	-640
▁200	-641
▁ກ່ຽວກັບ	-642
ມັນ	-643
her	-644
ຕ້ອງ	-645
ແດງ	-646
▁ຂ່າວ	-647
▁Al	-648
ຽມ	-649
▁30	-650
ູກ	-651
▁ເສ	-652
▁ລາຍ	-653
▁No	-654
ເວລາ	-655
▁Collector	-656
ຫມ່	-657
attoos	-658
▁r	-659
▁£	-660
▁ເລ	-661
່ຽວ	-662
ທິ	-663
ໄດ້ຮັບ	-664
ite	-665
ຕາມ	-666
ຫຍ່	-667
ant	-668
ຸນນ	-669
▁ນໍາ	-670
▁Hack	-671
່ມ	-672
ສໍາ	-673
ທັງຫມົດ	-674
ຄິດ	-675
ile	-676
ug	-677
ະສິດ	-678
ື້	-679
ຫ້ອງ	-680
▁»	-681
▁US	-682
ອື່ນໆ	-683
▁ຂໍ້	-684
▁©	-685
ຸງ	-686
ຂະສິດ	-687
ax	-688
ມັດ	-689
▁Ser	-690
ິ້ນ	-691
▁100	-692
▁ວັນ	-693
▁The	-694
11	-695
IN	-696
ວັນ	-697
ສະນ	-698
▁24	-699
ຽດ	-700
▁Val	-701
ໄຟຟ້າ	-702
ໄວ	-703
ຢ່າງ	-704
ທີ່ສຸດ	-705
▁ກະ	-706
ສາຫະ	-707
ew	-708
▁Un	-709
ຸລະ	-710
ທະຍາ	-711
ell	-712
▁ເຂ	-713
ຫໍ້	-714
ສ່ວນ	-715
▁Ltd	-716
ີ່ຫໍ້	-717
▁ບັນ	-718
ື້ອ	-719
ມ້	-720
ish	-721
▁ມັນ	-722
our	-723
▁ລະຫັດ	-724
ແນ	-725
end	-726
▁Bag	-727
▁ຫມ	-728
▁i	-729
ຂອງທ່ານ	-730
ep	-731
ລາວ	-732
▁ລິ	-733
▁[	-734
ເສດ	-735
ຖິງ	-736
ex	-737
ass	-738
uro	-739
ດ້ວຍ	-740
▁ນ້ໍາ	-741
▁a	-742
ັບໄຊ	-743
86	-744
ປະສ	-745
▁Com	-746
ue	-747
XL	-748
▁Tag	-749
oun	-750
ກົດ	-751
ຊົນ	-752
droid	-753
▁ຈາກ	-754
ຸນນະພາບ	-755
12	-756
ຝຸ່ນ	-757
ER	-758
ran	-759
ຸລະກິດ	-760
່ວຍ	-761
ເບ	-762
▁Android	-763
າກາດ	-764
ປີ	-765
ລາຍ	-766
ats	-767
▁Casino	-768
90	-769
ash	-770
ຄົນ	-771
ໂຄ	-772
ໃຫຍ່	-773
ຸດສາຫະ	-774
ມ່	-775
ud	-776
▁sp	-777
▁Fil	-778
ຈຸ	-779
▁ຫຼື	-780
ຈັກ	-781
able	-782
▁ເກມ	-783
ໍານວນ	-784
ON	-785
old	-786
sh	-787
ມະ	-788
ຣີ	-789
▁.	-790
ຈັດ	-791
ຸ້ມ	-792
▁re	-793
ກ່ຽວກັບ	-794
ao	-795
ຕິບັດ	-796
▁ສາຍ	-797
▁ທີ່ຢູ່	-798
ED	-799
ອມ	-800
me	-801
ຜ່ານມາ	-802
-0	-803
ແລ	-804
ວຽກ	-805
ff	-806
▁ອີເມ	-807
ຜ່ນ	-808
ືນ	-809
▁ຟ	-810
ຜົນ	-811
່ວມ	-812
▁Cl	-813
yl	-814
▁Ro	-815
ະນະ	-816
▁Su	-817
ge	-818
▁18	-819
ຶ້ນ	-820
▁ເບ	-821
▁ບໍລິ	-822
.00	-823
▁Web	-824
ລ໌	-825
▁by	-826
ທະນາ	-827
.3	-828
ທຸລະກິດ	-829
ລະອ	-830
ator	-831
45	-832
ອນໄລ	-833
ເຄ	-834
່ຽນ	-835
ຸດສາຫະກໍາ	-836
ດັບ	-837
▁ອຸປະກອນ	-838
▁ປີ	-839
▁Valve	-840
▁ເມືອງ	-841
ທີ່ຈະ	-842
▁Mark	-843
ail	-844
▁Ste	-845
ice	-846
▁#	-847
ລະອຽດ	-848
▁16	-849
▁Ar	-850
ne	-851
▁j	-852
▁Equ	-853
ວມ	-854
ໃນການ	-855
alk	-856
▁ເມ	-857
▁Ph	-858
ຂໍ້ມູນ	-859
▁ທໍາ	-860
ນ໌ໂຫລດ	-861
,000	-862
ຕອນນີ້	-863
ປະເທດຈີນ	-864
ຄໍາ	-865
▁Euro	-866
ແຕ່	-867
ຄຸນນະພາບ	-868
ື່ອນ	-869
onus	-870
oh	-871
ວກເຮົ	-872
▁(1	-873
lt	-874
▁ຊື່	-875
ick	-876
ອນໄລນ໌	-877
ale	-878
ber	-879
▁ດາວນ໌ໂຫລດ	-880
AN	-881
ຸ່ມ	-882
▁Europe	-883
ure	-884
▁ຕົວ	-885
cl	-886
▁k	-887
ຕໍ່ຕອນນີ້	-888
▁25	-889
▁ພະ	-890
ree	-891
ສາຍ	-892
ຮຽນ	-893
ບໍລິການ	-894
ໄຂ	-895
ows	-896
ວງ	-897
int	-898
ໍາລັງ	-899
▁Man	-900
▁Ind	-901
ກາ	-902
uang	-903
ຂຶ້ນ	-904
ອາກາດ	-905
ນໍາໃຊ້	-906
▁Sl	-907
ລາຄາ	-908
▁Wind	-909
ipment	-910
ູມ	-911
▁ສຸດ	-912
),	-913
ຜູ້ຜະລິດ	-914
ຮູ້	-915
oc	-916
▁Filter	-917
ແຂ	-918
ການປ	-919
up	-920
▁Equipment	-921
35	-922
▁50	-923
ຢູ່ໃນ	-924
ທົບ	-925
ວິດ	-926
ທະຍາໄລ	-927
▁De	-928
ina	-929
▁for	-930
iber	-931
attoo	-932
70	-933
ຮ່ວມ	-934
ດ້ານ	-935
ສະຫນອງ	-936
25	-937
ຂາຍ	-938
ສິ	-939
ແປ	-940
▁ທີ່ຜ່ານມາ	-941
15	-942
ີໂ	-943
ຂອງພວກເຮົາ	-944
ສຶກ	-945
▁Che	-946
ຈາກປະເທດຈີນ	-947
ະລັງ	-948
▁Te	-949
ຕ່	-950
ູດ	-951
ທີການ	-952
▁Bonus	-953
ຝຶກ	-954
iang	-955
ets	-956
ຊາດ	-957
ຕົ້ນ	-958
ເພື່ອ	-959
ນ້ອຍ	-960
ອຍ	-961
ຄືນ	-962
▁ເຈ	-963
ຕ່າງ	-964
ເຫຼັກ	-965
▁ດາວໂຫລດ	-966
▁ເຮັດ	-967
ສງ	-968
ະລັງງານ	-969
ປະກອບ	-970
ype	-971
ທິດ	-972
▁Th	-973
▁You	-974
ຊາ	-975
ary	-976
ຊາຍ	-977
ມືຖື	-978
ອາຫານ	-979
▁ຫນຶ່ງ	-980
▁Prote	-981
ru	-982
16	-983
ຂີ້	-984
75	-985
tt	-986
▁00	-987
▁ພາສາ	-988
ss	-989
ater	-990
ph	-991
ພິເສດ	-992
▁13	-993
ຂາວ	-994
▁ກໍາ	-995
ized	-996
ຍະ	-997
▁Steel	-998
▁ມື	-999
ແທ	-1000
▁ເຕ	-1001
▁wit	-1002
ປະເພດ	-1003
ຕັດ	-1004
ld	-1005
ເຂົາ	-1006
ens	-1007
ps	-1008
▁Ad	-1009
ei	-1010
▁Windows	-1011
ວັດ	-1012
ຂະຫນາດ	-1013
ຽວ	-1014
-5	-1015
ອົບ	-1016
ium	-1017
▁ລົດ	-1018
ີມ	-1019
pt	-1020
rad	-1021
vir	-1022
ໃສ	-1023
▁Ex	-1024
AL	-1025
ສໍາລັບການ	-1026
mer	-1027
tou	-1028
▁LT	-1029
▁ໂຄ	-1030
ໃຫມ່	-1031
ST	-1032
▁ອີເມລ໌	-1033
▁14	-1034
▁ລະບົບ	-1035
ືອ	-1036
viron	-1037
99	-1038
ຕໍ	-1039
▁ລິຂະສິດ	-1040
▁ພວກເຮົ	-1041
▁ໃຫ້	-1042
ບາຍ	-1043
SO	-1044
▁2015	-1045
ram	-1046
vironment	-1047
▁Protection	-1048
2018	-1049
ire	-1050
▁ນີ້	-1051
▁ອອກ	-1052
ign	-1053
▁ການປ	-1054
ອອກແບບ	-1055
ລົງ	-1056
▁Car	-1057
▁Environment	-1058
▁For	-1059
▁ກົດ	-1060
▁2020	-1061
ທ໌	-1062
net	-1063
ັດຕະ	-1064
ial	-1065
▁th	-1066
▁Botou	-1067
▁Vess	-1068
ປະຕິບັດ	-1069
▁Pul	-1070
ເຖິງ	-1071
▁Vessoft	-1072
▁17	-1073
▁ຈໍາ	-1074
13	-1075
ome	-1076
olog	-1077
oly	-1078
uf	-1079
ງການ	-1080
▁x	-1081
ເລືອກ	-1082
▁{	-1083
ting	-1084
▁Environmental	-1085
ຂະ	-1086
▁ໂຮງງານຜະລິດ	-1087
ov	-1088
ຄວ	-1089
eed	-1090
▁UV	-1091
="	-1092
.4	-1093
ັງກ	-1094
▁60	-1095
▁ເສັ້ນ	-1096
-3	-1097
own	-1098
ເຊື່ອ	-1099
ໂນມັດ	-1100
ood	-1101
▁Se	-1102
▁ລາວ	-1103
ຍິງ	-1104
ລະບົບ	-1105
.6	-1106
▁ຄາ	-1107
ix	-1108
ທານ	-1109
▁App	-1110
ບັບ	-1111
ສູ່	-1112
ພະເຈົ້າ	-1113
▁ກັນ	-1114
າະ	-1115
▁21	-1116
ical	-1117
AC	-1118
ແວ	-1119
:/	-1120
lock	-1121
ert	-1122
ແມ່	-1123
icro	-1124
ລີ	-1125
rus	-1126
ຄຸນນະພາບສູງ	-1127
ທີ່ດີ	-1128
ໂມ	-1129
ສົມ	-1130
://	-1131
ຫນຶ່ງ	-1132
ສອບ	-1133
▁ເອ	-1134
ower	-1135
▁ຖົງ	-1136
ັດທະນາ	-1137
du	-1138
▁ຕາ	-1139
▁ທັງ	-1140
ັດຕະໂນມັດ	-1141
85	-1142
ັມ	-1143
ຫນີ	-1144
▁Mach	-1145
ock	-1146
ຫນັກ	-1147
▁ເງິນ	-1148
້າພະເຈົ້າ	-1149
AS	-1150
ທົ່ວ	-1151
▁Wor	-1152
ສານ	-1153
ເລກ	-1154
▁ຕໍ່ໄປ	-1155
chn	-1156
key	-1157
ຽບ	-1158
ສະດ	-1159
▁ໂລ	-1160
atch	-1161
▁on	-1162
▁LTD	-1163
oll	-1164
ຫຸ້ມ	-1165
ິດທິ	-1166
oo	-1167
ore	-1168
oles	-1169
ated	-1170
ແລະການ	-1171
ຜນ	-1172
ຊື່	-1173
▁ພວກເຮົາ	-1174
້ອມ	-1175
sp	-1176
ufact	-1177
ຶດ	-1178
▁“	-1179
▁Top	-1180
▁ຫ້ອງ	-1181
Ch	-1182
ik	-1183
▁ພວກ	-1184
ເກັບ	-1185
ດັນ	-1186
ustri	-1187
ox	-1188
ໄລຍະ	-1189
▁Sol	-1190
200	-1191
ັບປ	-1192
ຂອງການ	-1193
cm	-1194
▁ປະເທດ	-1195
▁ແນ	-1196
▁New	-1197
ັບໄຊທ໌	-1198
ener	-1199
▁ຜ້າ	-1200
ufactur	-1201
ube	-1202
ຖົງ	-1203
ຸນາ	-1204
ຄ່າ	-1205
ອາດ	-1206
ເພີ່ມ	-1207
ໄມ້	-1208
aser	-1209
li	-1210
line	-1211
▁Comp	-1212
ໂລກ	-1213
ace	-1214
ໍລະ	-1215
RE	-1216
gl	-1217
▁de	-1218
ກາງ	-1219
▁Dis	-1220
▁htt	-1221
ສັງ	-1222
▁ທໍ່	-1223
▁'	-1224
hen	-1225
▁ສູງ	-1226
ສຶກສາ	-1227
19	-1228
ດານ	-1229
ຫວ່າງ	-1230
▁Le	-1231
▁ໃຊ້	-1232
jian	-1233
ສິໂນ	-1234
ology	-1235
▁La	-1236
ຕ້ອງການ	-1237
▁Be	-1238
▁ລາຍລະອຽດ	-1239
ທຸກ	-1240
ຍີ່ຫໍ້	-1241
.9	-1242
23	-1243
ຫຼື	-1244
ີໂອ	-1245
▁ສ່ວນ	-1246
ase	-1247
▁ຊຸດ	-1248
ເຮັດວຽກ	-1249
▁ຈະ	-1250
▁ພິ	-1251
ອົບຮ	-1252
▁ເຂົ້າ	-1253
28	-1254
app	-1255
ສະແດງ	-1256
load	-1257
▁ເພື່ອ	-1258
ustrial	-1259
ົດລ	-1260
▁you	-1261
AT	-1262
ມານ	-1263
▁40	-1264
ອົບຮົມ	-1265
ufacturer	-1266
▁Gr	-1267
zhou	-1268
▁Koh	-1269
ຊຸມ	-1270
ື່ມ	-1271
ພື້ນ	-1272
▁ບໍລິສັດ	-1273
ວາງ	-1274
ອຸປະກອນ	-1275
AM	-1276
▁FI	-1277
▁LED	-1278
▁ຢູ່	-1279
ຄິດເຫັນ	-1280
ຝຶກອົບຮົມ	-1281
ນັ້ນ	-1282
board	-1283
obile	-1284
▁ຫນັງ	-1285
24	-1286
▁Sam	-1287
ຮັກ	-1288
ະສົມ	-1289
▁Rong	-1290
▁ບົດ	-1291
ໄພ	-1292
▁ch	-1293
▁ວິທີການ	-1294
▁ຕິດຕໍ່ຕອນນີ້	-1295
▁ເບິ່ງ	-1296
ຄົ້ນ	-1297
▁ສາ	-1298
less	-1299
ີດໍາ	-1300
ໃດ	-1301
ຄຸມ	-1302
ຍາດ	-1303
ຢືນ	-1304
ສາດ	-1305
▁ຮູບພາບ	-1306
▁Min	-1307
ວາ	-1308
ສິ່ງ	-1309
▁ແກ	-1310
min	-1311
▁tattoost	-1312
▁ຂະ	-1313
ble	-1314
ັງກອນ	-1315
▁ຜູ້ຜະລິດແລະ	-1316
ank	-1317
irt	-1318
ເມືອງ	-1319
▁ro	-1320
ester	-1321
ຮ້ອນ	-1322
ເຕີມ	-1323
▁ວັດ	-1324
-8	-1325
▁Free	-1326
ະຫນົນ	-1327
AR	-1328
▁pro	-1329
າທີ	-1330
der	-1331
ບໍລິສັດ	-1332
ey	-1333
ຕ້	-1334
▁ໄປ	-1335
▁ໂທ	-1336
▁Word	-1337
▁ວິທະຍາໄລ	-1338
▁Industrial	-1339
ron	-1340
▁ອ່ານ	-1341
▁ຈໍານວນ	-1342
ແຮ	-1343
ົດລອງ	-1344
▁22	-1345
▁ລາຄາຖືກ	-1346
▁Slot	-1347
ັບສະຫນ	-1348
ພັນ	-1349
ຕູ	-1350
▁ເທ	-1351
▁East	-1352
▁Black	-1353
ໂທລະສັບ	-1354
ring	-1355
enc	-1356
▁500	-1357
▁ຫົວ	-1358
ຈາກຈີນ	-1359
ັບປຸງ	-1360
ພາກ	-1361
ແຕ່ງ	-1362
ສື	-1363
່ອຍ	-1364
ະນໍາ	-1365
▁Webt	-1366
▁ເຈົ້າ	-1367
ສະພາ	-1368
ອບແວ	-1369
▁°	-1370
ເດັກ	-1371
).	-1372
ພາຍ	-1373
aph	-1374
ຫໍ່	-1375
ພັດທະນາ	-1376
ເດືອນ	-1377
ືດ	-1378
ກໍ່	-1379
ຣະ	-1380
ເລດ	-1381
▁23	-1382
ເອົາ	-1383
ໂນໂລ	-1384
ສິນ	-1385
ໄປສູ່	-1386
atic	-1387
ຈຸບັນ	-1388
▁ຍີ່ຫໍ້	-1389
ໄດ້ຮັບການ	-1390
21	-1391
ບຄຸມ	-1392
ah	-1393
ຄົມ	-1394
ທວນ	-1395
utter	-1396
ູກຄ້າ	-1397
ັບສະຫນູນ	-1398
▁ແລະອື່ນໆ	-1399
ໃສ່	-1400
▁ສິ່ງ	-1401
ຖານທີ່	-1402
OS	-1403
UR	-1404
ຄູ່	-1405
rict	-1406
coin	-1407
▁2014	-1408
າກໍາລັງ	-1409
chnology	-1410
af	-1411
▁City	-1412
▁ພາສາລາວ	-1413
3}	-1414
ກັດ	-1415
ໃຊ້ເວລາ	-1416
▁Manufacturer	-1417
ສົ່ງອອກ	-1418
▁ແຂ	-1419
▁~	-1420
han	-1421
pl	-1422
▁Pre	-1423
ual	-1424
▁{_	-1425
olesale	-1426
-6	-1427
any	-1428
▁ຄູ່	-1429
OR	-1430
ult	-1431
ບຸກ	-1432
ຕໍ່າ	-1433
▁Dist	-1434
▁Micro	-1435
▁ຫນຶ່ງໃນ	-1436
ຢາ	-1437
້ຽມ	-1438
▁ຜົນ	-1439
.7	-1440
▁Air	-1441
▁ສ້າງ	-1442
ook	-1443
ສະເ	-1444
▁is	-1445
▁ມັງກອນ	-1446
▁Wholesale	-1447
io	-1448
ນະ	-1449
▁Cont	-1450
ທົບທວນ	-1451
▁2013	-1452
▁ແຜ່ນ	-1453
ີຍ	-1454
ycl	-1455
▁86	-1456
▁Pulse	-1457
18	-1458
ond	-1459
▁Flat	-1460
ຫຼາດ	-1461
▁Fiber	-1462
ຂ່າວ	-1463
▁USD	-1464
▁ເຄື່ອງພິມ	-1465
▁ຄວາມຄິດເຫັນ	-1466
ີບ	-1467
▁ດີ	-1468
▁ແຕ່	-1469
ຕິງ	-1470
▁iP	-1471
ງ່າຍ	-1472
ຫຸ້ມຫໍ່	-1473
▁ພວກເຮົາກໍາລັງ	-1474
▁ອຸດສາຫະກໍາ	-1475
▁Youjian	-1476
ier	-1477
ຫຍັງ	-1478
▁Supp	-1479
rag	-1480
ໂລຫະ	-1481
OM	-1482
ink	-1483
ສອງ	-1484
▁ນະ	-1485
ດິນ	-1486
ເຮັດໃຫ້	-1487
hout	-1488
.8	-1489
az	-1490
ເຢ	-1491
ux	-1492
ແຜ່ນ	-1493
Press	-1494
ບໍ່ມີ	-1495
▁ເຮົາ	-1496
▁World	-1497
▁ຖະຫນົນ	-1498
▁Webtalk	-1499
▁ຄວາມຫມາຍ	-1500
de	-1501
ເສັ້ນ	-1502
ich	-1503
▁Em	-1504
2019	-1505
ັ້ງຢືນ	-1506
uan	-1507
▁On	-1508
▁ສະຫນ	-1509
▁Press	-1510
ິ່ນ	-1511
17	-1512
aw	-1513
hone	-1514
▁ISO	-1515
IC	-1516
ເຟ	-1517
▁28	-1518
▁Cop	-1519
bal	-1520
▁ມີຄຸນນະພາບສູງ	-1521
ery	-1522
▁ມິ	-1523
▁Tags	-1524
ຂີ້ຝຸ່ນ	-1525
ຢັ້ງຢືນ	-1526
ape	-1527
ສະຫມ	-1528
▁ໃຫມ່	-1529
ລາຄາຕໍ່າ	-1530
▁ທີ	-1531
ັອດ	-1532
▁ຟຣີ	-1533
ics	-1534
▁pl	-1535
▁un	-1536
▁ນໍາໄປສູ່	-1537
ນເລດ	-1538
▁Mag	-1539
arn	-1540
ແສງ	-1541
ເຊື່ອມ	-1542
ຍີ່ຫໍ້ຈາກຈີນ	-1543
ເປັນລາຄາຕໍ່າ	-1544
NC	-1545
ຜ້າ	-1546
▁Sc	-1547
▁ບັດ	-1548
▁Serv	-1549
uk	-1550
▁•	-1551
ເກມ	-1552
▁ຕຸ	-1553
▁Blue	-1554
ET	-1555
ຫມາ	-1556
att	-1557
ແພ	-1558
▁AP	-1559
ສະດຸ	-1560
▁ສິງ	-1561
▁ຮັບ	-1562
▁Poly	-1563
▁WordPress	-1564
man	-1565
ຈິງ	-1566
ີ້ນ	-1567
▁ທັງຫມົດ	-1568
ee	-1569
▁ex	-1570
▁ທັນ	-1571
▁Hy	-1572
ຫນ່າຍ	-1573
▁ສາມາດ	-1574
oid	-1575
ທໍ່	-1576
ount	-1577
▁ທາງ	-1578
ຈໍານວນ	-1579
fo	-1580
▁As	-1581
ອອນໄລນ໌	-1582
▁)	-1583
vel	-1584
ຕົນ	-1585
ລວມ	-1586
ຫ່ງ	-1587
▁Ac	-1588
▁Ning	-1589
▁ນ້ໍາຫນັກ	-1590
MA	-1591
otor	-1592
ັອດຕິງ	-1593
▁Power	-1594
MT	-1595
ໂປ	-1596
log	-1597
▁ໃບ	-1598
ຕີ	-1599
iss	-1600
▁26	-1601
▁ເດ	-1602
▁ເປ	-1603
▁ຂໍ້ມູນ	-1604
ໂຍ	-1605
▁Mar	-1606
▁District	-1607
ແກ້	-1608
ital	-1609
ຶດສະພາ	-1610
▁ປະເພດທຸລະກິດ	-1611
-4	-1612
▁×	-1613
▁€	-1614
abric	-1615
ating	-1616
▁Char	-1617
▁Main	-1618
ະລັອດຕິງ	-1619
kg	-1620
ະນຸ	-1621
▁be	-1622
ຄວບຄຸມ	-1623
ຕອງ	-1624
ຫຍາຍ	-1625
pto	-1626
ຝາກ	-1627
▁ນັກ	-1628
ີກ	-1629
ເຄື	-1630
▁sh	-1631
▁al	-1632
▁ພາກ	-1633
▁ສີດໍາ	-1634
ທົບທວນຄືນ	-1635
29	-1636
▁ກຸມ	-1637
ຫຼັກ	-1638
▁Met	-1639
ຸ້ນ	-1640
ພາສາ	-1641
ຂ່າຍ	-1642
ຫົວ	-1643
▁ແບບ	-1644
ເບິ່ງ	-1645
ຖະ	-1646
ເລັດ	-1647
esign	-1648
▁Series	-1649
▁ພະລັງງານ	-1650
ສັນ	-1651
iler	-1652
ັກໂນໂລ	-1653
▁ຄາສິໂນ	-1654
ork	-1655
ຈໍາຫນ່າຍ	-1656
▁CH	-1657
▁LA	-1658
press	-1659
▁Mobile	-1660
ເອງ	-1661
ແປງ	-1662
ອຸດສາຫະກໍາ	-1663
ຄະ	-1664
14	-1665
LE	-1666
vey	-1667
▁PC	-1668
▁RN	-1669
▁Rou	-1670
▁ສະຫ	-1671
ລິຂະສິດ	-1672
▁without	-1673
ເງ	-1674
ຈ່າຍ	-1675
▁Home	-1676
ໂຮງງານ	-1677
ສູນ	-1678
▁ເລືອກ	-1679
▁ປະເພດຜະລິດຕະພັນ	-1680
ສົນ	-1681
ustom	-1682
▁Tattoos	-1683
ຍັງ	-1684
read	-1685
▁ຫຼິ້ນ	-1686
26	-1687
acc	-1688
ath	-1689
ງວນ	-1690
▁ທະ	-1691
▁ຫຼາຍ	-1692
tv	-1693
oto	-1694
ຊີວິດ	-1695
ີນທາງ	-1696
ທົ່ວໄປ	-1697
rid	-1698
▁35	-1699
VC	-1700
ons	-1701
▁CO	-1702
ັ່ນຕອງ	-1703
▁(3	-1704
ຊ່ວຍ	-1705
▁Star	-1706
ທຶກ	-1707
▁ໂຮງ	-1708
້ອງກັນ	-1709
be	-1710
▁ຫລ	-1711
ໂດ	-1712
ສຽງ	-1713
▁Theme	-1714
ການຜະລິດ	-1715
▁ອອນໄລນ໌	-1716
EN	-1717
PS	-1718
rom	-1719
lette	-1720
▁Live	-1721
▁Ningbo	-1722
74	-1723
ຟຣີ	-1724
ໂກ	-1725
umin	-1726
▁ກອງ	-1727
iew	-1728
ລັດ	-1729
itcoin	-1730
ຶນ	-1731
▁Sm	-1732
China	-1733
astic	-1734
ໍານົດ	-1735
▁Tw	-1736
ກ່ອນ	-1737
ັງຈາກ	-1738
▁Go	-1739
▁ad	-1740
rypto	-1741
ດາ	-1742
ຄອນ	-1743
ບິນ	-1744
raight	-1745
▁ຜູ້ສົ່ງອອກ	-1746
▁=	-1747
wax	-1748
ປັດ	-1749
ເຂດ	-1750
yclone	-1751
ເຄາ	-1752
▁Cheats	-1753
ຕະລ	-1754
ປົກ	-1755
▁Tr	-1756
າດຕະ	-1757
▁withoutwax	-1758
MP	-1759
ner	-1760
▁RF	-1761
ກວ່າ	-1762
▁ຮຸ່ນ	-1763
ຫມາະສົມ	-1764
ຍາວ	-1765
ware	-1766
ປະຊຸມ	-1767
ເດີນທາງ	-1768
ິວ	-1769
▁ເອກ	-1770
oth	-1771
▁ຊີ	-1772
ລະດັບ	-1773
ຽງແຕ່	-1774
▁ເຟ	-1775
ilic	-1776
eeder	-1777
ode	-1778
▁Line	-1779
▁http	-1780
ຕົກ	-1781
ctor	-1782
2)	-1783
ຖາມ	-1784
▁1,	-1785
▁ເພີ່ມ	-1786
ຄານ	-1787
ull	-1788
ebei	-1789
ສະເຫນີ	-1790
ແຕນເລດ	-1791
ກັ່ນຕອງ	-1792
ww	-1793
ຂົນ	-1794
້າສຸດ	-1795
▁Machine	-1796
ໂຕ	-1797
ont	-1798
ກົງ	-1799
▁Suppli	-1800
ເສີມ	-1801
ແອ	-1802
▁ການທົບທວນຄືນ	-1803
ouble	-1804
55	-1805
ll	-1806
In	-1807
ກວ	-1808
▁\	-1809
▁Or	-1810
▁ຫນາດ	-1811
▁Laser	-1812
ດາວ	-1813
▁ຖ້າ	-1814
▁ການຫຸ້ມຫໍ່	-1815
EC	-1816
ຊື້	-1817
▁ຂາຍ	-1818
▁ຫມົດ	-1819
bed	-1820
www	-1821
ອົງ	-1822
▁Res	-1823
76	-1824
ump	-1825
ລິກ	-1826
▁ມມ	-1827
▁ຢາງ	-1828
▁ອົງ	-1829
ຮັກສາ	-1830
yst	-1831
ໃບ	-1832
ame	-1833
ີນາ	-1834
ບານ	-1835
ເປີດ	-1836
78	-1837
ໃຕ້	-1838
ສະນະ	-1839
▁ເຖິງ	-1840
ຕິກ	-1841
ພິວ	-1842
▁ສີຂາວ	-1843
▁ເວັບໄຊທ໌	-1844
van	-1845
▁ຫາ	-1846
ເຄາະ	-1847
ເນີນ	-1848
33	-1849
▁@	-1850
▁Jet	-1851
▁ໂທລະ	-1852
▁Sk	-1853
ະລັດ	-1854
▁Bi	-1855
ແນະນໍາ	-1856
la	-1857
enz	-1858
for	-1859
▁ເຄື	-1860
2,	-1861
ung	-1862
ທຶນ	-1863
▁Wall	-1864
▁ສໍາລັບການ	-1865
ຢາງ	-1866
▁PR	-1867
jiang	-1868
row	-1869
ions	-1870
veyor	-1871
▁com	-1872
ໍາເນີນ	-1873
ທີ່ກ	-1874
▁ສົ່ງ	-1875
▁Straight	-1876
out	-1877
ເອກ	-1878
ເຊັ່ນ	-1879
ອດໄພ	-1880
ົ່ານ	-1881
▁ພັນ	-1882
ake	-1883
org	-1884
▁ເນ	-1885
ID	-1886
arm	-1887
lex	-1888
ool	-1889
▁ເຫ	-1890
▁Cap	-1891
▁ໂທລະສັບມືຖື	-1892
▁2,	-1893
▁45	-1894
▁QR	-1895
າດຕະຖານ	-1896
▁Technology	-1897
36	-1898
▁29	-1899
ແຫ່ງ	-1900
ຫນາ	-1901
▁300	-1902
ຄອງ	-1903
▁ໄຟຟ້າ	-1904
ownload	-1905
fl	-1906
າລະ	-1907
່ຽງ	-1908
ຜູ້ຊາຍ	-1909
ອັດຕະໂນມັດ	-1910
▁ຈັດ	-1911
ຕະລາງ	-1912
▁1000	-1913
▁Type	-1914
▁tattoo	-1915
ທີ່ດີທີ່ສຸດ	-1916
ພະນ	-1917
▁ມະ	-1918
▁Lao	-1919
▁ຫມາຍ	-1920
▁She	-1921
▁ຊື້	-1922
ທາງການ	-1923
ິດທິພາບ	-1924
FE	-1925
ear	-1926
ເວັນ	-1927
▁Cyclone	-1928
wide	-1929
ອະນຸ	-1930
▁ທີ່ໃຊ້ເວລາ	-1931
▁	-1932
▁ພື້ນ	-1933
itting	-1934
▁Whats	-1935
▁ຫນັງສື	-1936
CH	-1937
ania	-1938
ພະລັງງານ	-1939
GH	-1940
ous	-1941
ther	-1942
ະພູມ	-1943
ແກ້ໄຂ	-1944
ເພີ່ມເຕີມ	-1945
ພັກ	-1946
over	-1947
EM	-1948
▁Gu	-1949
ES	-1950
▁ໄຟ	-1951
ອມພິວ	-1952
▁Online	-1953
95	-1954
lic	-1955
▁90	-1956
▁ກ່ອງ	-1957
▁ຫນູນ	-1958
▁ສະບັບ	-1959
▁ທົດລອງ	-1960
ave	-1961
▁Sw	-1962
ຖຸນາ	-1963
DF	-1964
ຫະພູມ	-1965
ຂ້າພະເຈົ້າ	-1966
ກອງ	-1967
▁Di	-1968
▁ແຜນ	-1969
▁Produ	-1970
ໂຮງ	-1971
▁ກິ	-1972
ກະດານ	-1973
▁ຫນັບ	-1974
▁Worldwide	-1975
ຕ້ານ	-1976
▁Cert	-1977
ລູກຄ້າ	-1978
ແຈ	-1979
und	-1980
ຢາມ	-1981
▁ນິ	-1982
ໂຄງການ	-1983
22	-1984
cur	-1985
ute	-1986
ogle	-1987
ຕໍ່ໄປ	-1988
▁Fran	-1989
້ຽມຢາມ	-1990
▁ຫນ່ວຍ	-1991
▁ວິດ	-1992
ອຂ່າຍ	-1993
ັກງານ	-1994
ຸນຫະພູມ	-1995
ປ່ຽນ	-1996
▁24)	-1997
▁ເມສາ	-1998
88	-1999
air	-2000
ans	-2001
ins	-2002
ແຫນ	-2003
▁ຕະ	-2004
ສະນີ	-2005
ຮ້ອງ	-2006
ກວດ	-2007
ເສຍ	-2008
aric	-2009
▁Inst	-2010
"&	-2011
ene	-2012
ຄັນ	-2013
▁Soft	-2014
▁ຜູ້ຈໍາຫນ່າຍ	-2015
EL	-2016
▁Elect	-2017
▁Inter	-2018
▁start	-2019
ທີ່ທ່ານ	-2020
ຫລັບ	-2021
ມະຊາດ	-2022
ມີຄວາມ	-2023
go	-2024
ແຮງ	-2025
▁Hu	-2026
.,	-2027
▁70	-2028
▁USB	-2029
▁ຈຸດ	-2030
▁ອິດ	-2031
ບັນຊີ	-2032
IS	-2033
ນິ	-2034
ole	-2035
ຈິກ	-2036
▁XL	-2037
▁ສົມ	-2038
▁ແມ່	-2039
▁ສິງຫາ	-2040
ຕິດຕັ້ງ	-2041
ປາ	-2042
rop	-2043
ລັກ	-2044
▁Nor	-2045
ຕອບ	-2046
▁150	-2047
▁ຄ່າ	-2048
▁100%	-2049
uck	-2050
oard	-2051
olor	-2052
▁LAK	-2053
ຕ່າງໆ	-2054
ເລີ່ມ	-2055
▁ຕັ້ງ	-2056
ັກໂນໂລຊີ	-2057
▁ພຶດສະພາ	-2058
ີງ	-2059
ທົດ	-2060
ເຫລ	-2061
▁ໄດ້ຮັບ	-2062
▁Straightener	-2063
je	-2064
ນີ	-2065
ເງົາ	-2066
▁CNC	-2067
▁ຄຸນ	-2068
pr	-2069
ແລ້ວ	-2070
▁Ant	-2071
▁ພາຍ	-2072
▁FIMT	-2073
ພວກ	-2074
ency	-2075
39	-2076
▁mm	-2077
▁ກາ	-2078
▁ໂມ	-2079
ames	-2080
ກະທົບ	-2081
ທົນ	-2082
▁It	-2083
ັງກິດ	-2084
▁Tube	-2085
▁Plastic	-2086
▁ຄວາມຄິດເຫັນທີ່	-2087
34	-2088
IT	-2089
eld	-2090
ular	-2091
▁PVC	-2092
ກວ້າງ	-2093
ຂະຫຍາຍ	-2094
▁iPhone	-2095
lor	-2096
ຄວນ	-2097
ແຂງ	-2098
▁cl	-2099
ຂ້ອງ	-2100
▁AC	-2101
▁ມາ	-2102
port	-2103
າງວັນ	-2104
ຕະຫຼາດ	-2105
່ຽວຂ້ອງ	-2106
ger	-2107
▁ແສງ	-2108
ແຮມ	-2109
.0.2	-2110
້ານີ້	-2111
▁Servo	-2112
▁ຄູ່ມື	-2113
ຄາດ	-2114
ທັນ	-2115
ເດດ	-2116
▁EUR	-2117
▁dur	-2118
▁Roulette	-2119
▁Guang	-2120
▁ກໍລະ	-2121
ຮູບພາບ	-2122
▁ເຊິ່ງ	-2123
1,	-2124
▁le	-2125
▁ນາ	-2126
▁ສັບ	-2127
ປອດໄພ	-2128
65	-2129
▁ແລ	-2130
▁High	-2131
▁Dress	-2132
▁HD	-2133
▁ຄົນ	-2134
▁ອາທິດ	-2135
ປັດຈຸບັນ	-2136
AD	-2137
ສາມ	-2138
▁ຢ່າງ	-2139
▁ເຮັດໃຫ້	-2140
ີຣ	-2141
ກາຍ	-2142
ຊີບ	-2143
ພາດ	-2144
▁27	-2145
▁IP	-2146
▁Qu	-2147
▁ດອກ	-2148
erv	-2149
ເຊຍ	-2150
▁ໂປ	-2151
▁ວິນ	-2152
▁Chat	-2153
ອະນຸຍາດ	-2154
2.	-2155
27	-2156
fly	-2157
ແທ້	-2158
▁spy	-2159
▁ອາດ	-2160
▁hack	-2161
▁Flatbed	-2162
uto	-2163
ເມື່ອ	-2164
ງາມ	-2165
▁PT	-2166
▁pm	-2167
eat	-2168
les	-2169
ຜິດ	-2170
ັບເດດ	-2171
ງວນລິຂະສິດ	-2172
98	-2173
US	-2174
cs	-2175
ໃຍ	-2176
ສະຫມັກ	-2177
na	-2178
ະສານ	-2179
▁Port	-2180
▁ບໍ່ມີ	-2181
▁ຄວາມໄວ	-2182
gen	-2183
▁Gro	-2184
enoid	-2185
ສະບັບ	-2186
▁Post	-2187
ຄະເນ	-2188
ີເມວ	-2189
ເຮືອນ	-2190
ໂຍບາຍ	-2191
ຮູບແບບ	-2192
▁fabric	-2193
ຕິດຕໍ່ຕອນນີ້	-2194
OT	-2195
ນັກ	-2196
▁Lo	-2197
ພາຍໃນ	-2198
elt	-2199
▁ປ່ຽນ	-2200
eboard	-2201
ໂມງ	-2202
▁et	-2203
ກະຕິ	-2204
▁ລັດ	-2205
ivers	-2206
ປະສົມ	-2207
ແທນ	-2208
▁ໍາ	-2209
9001	-2210
ເຢັນ	-2211
edust	-2212
ລະຫັດ	-2213
▁ມີນາ	-2214
▁Board	-2215
ອາຍ	-2216
▁ມູນ	-2217
▁with	-2218
▁GB	-2219
ສະນາ	-2220
ime	-2221
▁1.	-2222
▁fl	-2223
▁ຖື	-2224
ປະຕູ	-2225
ິ່ນປ	-2226
▁Rot	-2227
▁Spy	-2228
glish	-2229
▁ເດັກ	-2230
ຕິດຕໍ່	-2231
ສໍາຄັນ	-2232
▁ລວມ	-2233
▁ຊັ້ນ	-2234
ິບ	-2235
ໂທ	-2236
ຂຽນ	-2237
ຊານ	-2238
▁ຂຽນ	-2239
ຫນ້ານີ້	-2240
utterfly	-2241
ml	-2242
500	-2243
ຮ່າງ	-2244
ກຕ່າງ	-2245
ຫຼິ້ນ	-2246
▁2011	-2247
▁ກັນຍາ	-2248
ສໍາເລັດ	-2249
ເຜ	-2250
-20	-2251
ຫຼດ	-2252
ອັນ	-2253
ູມິນ	-2254
ລະຫວ່າງ	-2255
100	-2256
ade	-2257
ຫາກ	-2258
ream	-2259
▁Block	-2260
ainless	-2261
▁ຕິດຕໍ່	-2262
▁ຂ້າພະເຈົ້າ	-2263
;&	-2264
ບົດ	-2265
ບຽນ	-2266
▁min	-2267
-2018	-2268
▁ຕົ້ນ	-2269
▁ບັນຊີ	-2270
▁ຜະລິດ	-2271
▁Markets	-2272
IL	-2273
ໄວ້	-2274
▁cr	-2275
rist	-2276
▁your	-2277
PC	-2278
▁sc	-2279
້ນີ້	-2280
▁Cam	-2281
▁ບ່ອນ	-2282
▁Feeder	-2283
ອມພິວເຕີ	-2284
orn	-2285
ັ້ມ	-2286
▁Arch	-2287
▁ຕຸລາ	-2288
44	-2289
App	-2290
ກ່ວ	-2291
soft	-2292
ining	-2293
▁Google	-2294
▁Charter	-2295
mo	-2296
rip	-2297
ton	-2298
ຄົວ	-2299
▁Mid	-2300
ທະບຽນ	-2301
▁Asia	-2302
▁ຄົ້ນ	-2303
▁ຮ້ານ	-2304
uminum	-2305
▁tattoostattoos	-2306
ote	-2307
ຫ້ງ	-2308
▁Ne	-2309
ບັນຈຸ	-2310
ົບການ	-2311
▁ເປີດ	-2312
ູມິນຽມ	-2313
OD	-2314
▁Am	-2315
zh	-2316
າມີ	-2317
ຕ່ໍາ	-2318
▁Gal	-2319
▁ມື້	-2320
▁(201	-2321
▁English	-2322
uc	-2323
▁80	-2324
▁Up	-2325
▁Win	-2326
▁ຜ່ານ	-2327
▁Suppliers	-2328
sm	-2329
▁Off	-2330
▁Squ	-2331
▁ພິມ	-2332
ose	-2333
ທ້າຍ	-2334
▁Play	-2335
▁ອາຫານ	-2336
▁ຫນັງສືພິມ	-2337
top	-2338
▁Cr	-2339
▁All	-2340
▁ວ່າ	-2341
▁ສູນ	-2342
▁ບົດຄວາມ	-2343
emb	-2344
ipp	-2345
ແນວ	-2346
ອ່ານ	-2347
▁Call	-2348
sk	-2349
ໄຮ	-2350
ແຜນ	-2351
ຊອບແວ	-2352
▁ໂລຫະ	-2353
ໄປສະນີ	-2354
ຄວາມຄິດ	-2355
▁ປະຕິບັດ	-2356
▁ເຄື່ອງຈັກ	-2357
uri	-2358
ບູນ	-2359
ເມລິ	-2360
▁ບ້ານ	-2361
▁North	-2362
hejiang	-2363
ຫຼ້າສຸດ	-2364
▁Dedust	-2365
ຕັ້ງຂຶ້ນ	-2366
▁Stainless	-2367
ING	-2368
ales	-2369
ີຣົບ	-2370
▁ກະລ	-2371
▁West	-2372
▁ວັດສະດຸ	-2373
ນ້	-2374
ົ໋	-2375
ໄກ	-2376
cts	-2377
ສະຫ	-2378
ືອບ	-2379
ໂຮງງານຜະລິດ	-2380
ited	-2381
eting	-2382
▁ອັດຕະໂນມັດ	-2383
HS	-2384
WS	-2385
bon	-2386
hai	-2387
urg	-2388
▁IT	-2389
ສັ່ງ	-2390
▁Cage	-2391
▁ເຊັ່ນ	-2392
ໃຊ້ຈ່າຍ	-2393
▁Contact	-2394
▁ອຸປະກອນການ	-2395
ການຝຶກອົບຮົມ	-2396
idth	-2397
vent	-2398
ກ່ວາ	-2399
▁Glo	-2400
▁ວຽກ	-2401
▁Park	-2402
ຕາເວັນ	-2403
ພຽງແຕ່	-2404
ຖືກຕ້ອງ	-2405
ຸຂ	-2406
▁CS	-2407
▁bl	-2408
ຈໍ	-2409
ION	-2410
ບ່ງ	-2411
ພຣະ	-2412
ຮອງ	-2413
▁ໂຄງການ	-2414
ເຂົາເຈົ້າ	-2415
▁05	-2416
ເພາະ	-2417
▁ແນວ	-2418
meric	-2419
ເມລິກາ	-2420
uit	-2421
▁Af	-2422
▁FRE	-2423
ຈໍາກັດ	-2424
▁ກຸມພາ	-2425
▁Gl	-2426
▁con	-2427
▁ທີ່ດີ	-2428
▁ວິດີໂອ	-2429
▁ສິ່ງທີ່	-2430
ທີ່ກ່ຽວຂ້ອງ	-2431
38	-2432
ient	-2433
▁PTFE	-2434
▁Shop	-2435
ໂຄສະນາ	-2436
▁Download	-2437
▁Zhejiang	-2438
▁ເຄື່ອງມື	-2439
ma	-2440
ise	-2441
rade	-2442
ights	-2443
ເຫຼືອ	-2444
ຂົນສົ່ງ	-2445
ດໍາເນີນ	-2446
ith	-2447
ply	-2448
ບາງ	-2449
ຫີນ	-2450
ຂ້ອຍ	-2451
▁Gold	-2452
▁Vacc	-2453
ໄດ້ຖືກ	-2454
▁Magnet	-2455
▁ວິນາທີ	-2456
▁ບໍລິການ	-2457
ero	-2458
ຊຸດ	-2459
ໂຫຍ	-2460
▁am	-2461
▁he	-2462
ວິຊາ	-2463
▁Gas	-2464
▁ຕັດ	-2465
▁ໄມ້	-2466
ມື້ນີ້	-2467
31	-2468
AP	-2469
ify	-2470
ley	-2471
oss	-2472
ຍລະ	-2473
▁pr	-2474
▁XXL	-2475
▁ຖານ	-2476
ann	-2477
▁wh	-2478
ຊັ້ນ	-2479
ຕ້ອນ	-2480
▁ກ່ຽວ	-2481
▁ນິ້ວ	-2482
ການຄ້າ	-2483
77	-2484
ທັບ	-2485
▁RFC	-2486
▁FREE	-2487
▁ຂອງທ່ານ	-2488
▁Aluminum	-2489
TC	-2490
ft	-2491
nc	-2492
້ຍ	-2493
dle	-2494
ifi	-2495
▁ຜົງ	-2496
▁ຕ້ອງ	-2497
ສົມບູນ	-2498
ິ່ນປົວ	-2499
oph	-2500
▁75	-2501
▁ອິນ	-2502
ຄາດຄະເນ	-2503
▁Americ	-2504
ys	-2505
ສາກ	-2506
avid	-2507
▁Ass	-2508
ational	-2509
▁ຜູ້ສະຫນອງ	-2510
68	-2511
MC	-2512
ືອງ	-2513
ະຊົນ	-2514
itter	-2515
ພະນັນ	-2516
ສັງຄົມ	-2517
ຸ້ມຄອງ	-2518
ings	-2519
ປະມານ	-2520
▁Chalk	-2521
ກ່ອນຫນ້ານີ້	-2522
ນິກ	-2523
ສຸກ	-2524
ໂຫຼດ	-2525
▁ຕອບ	-2526
▁ນັບ	-2527
ລົດໄຟ	-2528
▁Road	-2529
ຍລະມັນ	-2530
ເວັບໄຊ	-2531
ສອນ	-2532
▁ເຢ	-2533
ບ່ອນ	-2534
color	-2535
ridge	-2536
▁ແກ້ວ	-2537
ທີ່ຢູ່	-2538
▁Double	-2539
els	-2540
eth	-2541
▁XX	-2542
▁ເຄ	-2543
▁Ide	-2544
chain	-2545
▁Whit	-2546
▁Shenz	-2547
▁Vaccine	-2548
ເຄື່ອງພິມ	-2549
▁Conveyor	-2550
ສັກ	-2551
ິນດີ	-2552
ສູງສຸດ	-2553
▁Print	-2554
ສະຫນັບສະຫນູນ	-2555
IA	-2556
▁01	-2557
ການຈັດ	-2558
▁Certs	-2559
▁Price	-2560
▁Custom	-2561
▁Shenzhen	-2562
▁Microsoft	-2563
▁ສະລັອດຕິງ	-2564
ລົມ	-2565
ສົດ	-2566
ound	-2567
ກ່າວ	-2568
asino	-2569
ເລກທີ	-2570
▁Roll	-2571
▁ໂຫລດ	-2572
ຕ້ອນຮັບ	-2573
▁ຝ	-2574
▁Oce	-2575
▁Mini	-2576
ແຕກຕ່າງ	-2577
:00	-2578
ais	-2579
pro	-2580
▁Gre	-2581
▁Lin	-2582
▁ຄະນະ	-2583
▁Forex	-2584
▁ຄວາມຫນາ	-2585
ເຊື່ອມຕໍ່	-2586
ize	-2587
ຂີ້ເ	-2588
▁Rem	-2589
ກໍ່ສ້າງ	-2590
32	-2591
▁z	-2592
ory	-2593
ates	-2594
▁20%	-2595
▁ພາບ	-2596
▁ສະຖານທີ່	-2597
▁Polyester	-2598
▁໌	-2599
-201	-2600
ເຂັ້ມ	-2601
▁0086	-2602
ວະ	-2603
ອະ	-2604
ເຫດ	-2605
▁NE	-2606
ປະຊາ	-2607
ສບຸກ	-2608
ເທິງ	-2609
▁Heng	-2610
ກໍານົດ	-2611
ຸຂະພາບ	-2612
ົ່ວໂມງ	-2613
▁Chang	-2614
/0	-2615
AY	-2616
by	-2617
ence	-2618
land	-2619
▁ດ້ວຍ	-2620
vanized	-2621
▁Rotary	-2622
▁ສະຫນັບສະຫນູນ	-2623
box	-2624
amic	-2625
▁ຂັ້ນ	-2626
▁crypto	-2627
▁ທີ່ດີທີ່ສຸດ	-2628
ກ້	-2629
▁Me	-2630
ross	-2631
ເກີດ	-2632
▁Hol	-2633
▁XXXL	-2634
asting	-2635
rusher	-2636
ກໍາລັງ	-2637
IP	-2638
▁ໄວ	-2639
▁Art	-2640
▁Med	-2641
ystem	-2642
▁ກະລຸນາ	-2643
▁Univers	-2644
4,	-2645
ົນຕີ	-2646
▁PDF	-2647
ປະກັນ	-2648
▁ລ້ານ	-2649
▁ພະຈິກ	-2650
ຄຸ້ມຄອງ	-2651
▁Square	-2652
▁ຕາຕະລາງ	-2653
rew	-2654
ດູດ	-2655
▁Des	-2656
ື່ອນໄຂ	-2657
ຈຸດ	-2658
▁Hot	-2659
▁Mod	-2660
ເຄື່ອນ	-2661
cc	-2662
ກອບ	-2663
▁ໄທ	-2664
▁Pet	-2665
otian	-2666
48	-2667
▁3,	-2668
▁as	-2669
ໂຫຍດ	-2670
▁ວົງ	-2671
▁Email	-2672
▁ມິຖຸນາ	-2673
▁ຮູບແບບ	-2674
bag	-2675
ພະຍ	-2676
osit	-2677
▁ທີ່ມີ	-2678
ເດັກນ້ອຍ	-2679
▁Pack	-2680
ອັງກິດ	-2681
▁Global	-2682
▁WhatsApp	-2683
▁ສໍາລັບຜູ້ຊາຍ	-2684
-7	-2685
:0	-2686
oor	-2687
ຈອນ	-2688
ຊອກ	-2689
ຊີ້	-2690
ຽວກ	-2691
▁Pe	-2692
ibbe	-2693
▁Rel	-2694
▁ຊອບແວ	-2695
ຕັ້ງແຕ່	-2696
▁Br	-2697
▁ເງ	-2698
▁ປະສ	-2699
▁ສານ	-2700
ກົດດັນ	-2701
ທົດສອບ	-2702
ແທ້ຈິງ	-2703
▁ທ່ານສາມາດ	-2704
ກິ	-2705
-01	-2706
-10	-2707
ຄຸນ	-2708
▁To	-2709
▁ອະ	-2710
ideo	-2711
ດັ່ງ	-2712
▁ການອອກແບບ	-2713
3,	-2714
ໄທ	-2715
ທາດ	-2716
້າມ	-2717
▁at	-2718
▁ແປ	-2719
ille	-2720
ຫນັງ	-2721
▁Ton	-2722
ແມ່ເຫຼັກ	-2723
ເຄື່ອງຈັກ	-2724
ster	-2725
▁	-2726
າ	-2727
ນ	-2728
e	-2729
a	-2730
o	-2731
t	-2732
i	-2733
ກ	-2734
ດ	-2735
r	-2736
n	-2737
່	-2738
ະ	-2739
ັ	-2740
ງ	-2741
ອ	-2742
s	-2743
ເ	-2744
້	-2745
ລ	-2746
l	-2747
ມ	-2748
ສ	-2749
ບ	-2750
ວ	-2751
,	-2752
0	-2753
ີ	-2754
ຫ	-2755
ທ	-2756
c	-2757
ິ	-2758
ົ	-2759
u	-2760
.	-2761
1	-2762
ໍ	-2763
d	-2764
m	-2765
h	-2766
g	-2767
2	-2768
ຕ	-2769
ແ	-2770
ຍ	-2771
ຄ	-2772
p	-2773
ປ	-2774
ຂ	-2775
ພ	-2776
C	-2777
ື	-2778
S	-2779
:	-2780
ຊ	-2781
P	-2782
y	-2783
ູ	-2784
ຈ	-2785
-	-2786
ໃ	-2787
ຸ	-2788
A	-2789
5	-2790
ຮ	-2791
ໂ	-2792
b	-2793
T	-2794
M	-2795
ໄ	-2796
3	-2797
ຜ	-2798
k	-2799
D	-2800
B	-2801
E	-2802
L	-2803
8	-2804
f	-2805
4	-2806
R	-2807
6	-2808
/	-2809
F	-2810
v	-2811
w	-2812
9	-2813
I	-2814
H	-2815
7	-2816
N	-2817
ຽ	-2818
O	-2819
G	-2820
)	-2821
(	-2822
ຖ	-2823
W	-2824
V	-2825
ຼ	-2826
ຢ	-2827
x	-2828
;	-2829
U	-2830
K	-2831
ຟ	-2832
_	-2833
&	-2834
z	-2835
ຶ	-2836
X	-2837
J	-2838
"	-2839
Y	-2840
j	-2841
໌	-2842
ຣ	-2843
$	-2844
%	-2845
ຝ	-2846
Z	-2847
q	-2848
+	-2849
!	-2850
–	-2851
ໆ	-2852
Q	-2853
*	-2854
'	-2855
?	-2856
£	-2857
©	-2858
@	-2859
=	-2860
»	-2861
]	-2862
[	-2863
#	-2864
}	-2865
\	-2866
{	-2867
“	-2868
”	-2869
€	-2870
°	-2871
×	-2872
~	-2873
•	-2874
໊	-2875
’	-2876
	-2877
໋	-2878
а	-2879
ç	-2880
к	-2881
ı	-2882
с	-2883
→	-2884
é	-2885
н	-2886
≤	-2887
р	-2888
★	-2889
ñ	-2890
ü	-2891
о	-2892
`	-2893
·	-2894
—	-2895
и	-2896
е	-2897
ö	-2898
ь	-2899
®	-2900
ย	-2901
±	-2902
ş	-2903
น	-2904
฿	-2905
送	-2906
า	-2907
≥	-2908
信	-2909
发	-2910
息	-2911
У	-2912
ท	-2913
ї	-2914
天	-2915
聊	-2916
т	-2917
ไ	-2918
Φ	-2919
ะ	-2920
ร	-2921
á	-2922
本	-2923
ว	-2924
ä	-2925
ม	-2926
«	-2927
电	-2928
←	-2929
л	-2930
万	-2931
象	-2932
เ	-2933
话	-2934
资	-2935
ิ	-2936
【	-2937
в	-2938
】	-2939
ğ	-2940
โ	-2941
ล	-2942
¥	-2943
у	-2944
ซ	-2945
‘	-2946
å	-2947
อ	-2948
◆	-2949
ง	-2950
м	-2951
Ω	-2952
₪	-2953
₱	-2954
	-2955
ด	-2956
ຯ	-2957
б	-2958
●	-2959
μ	-2960
й	-2961
	-2962
í	-2963
ó	-2964
ี	-2965
′	-2966
ส	-2967
à	-2968
д	-2969
ы	-2970
🔥	-2971
ก	-2972
แ	-2973
ข	-2974
ค	-2975
中	-2976
	-2977
Ö	-2978
ห	-2979
я	-2980
้	-2981
ا	-2982
ป	-2983
어	-2984
п	-2985
ต	-2986
บ	-2987
^	-2988
İ	-2989
文	-2990
ั	-2991
จ	-2992
Ø	-2993
х	-2994
Ф	-2995
г	-2996
