<unk>	0
<s>	0
</s>	0
ານ	-0
ອງ	-1
er	-2
in	-3
ການ	-4
▁ເ	-5
ໍາ	-6
ັນ	-7
ັບ	-8
▁C	-9
ລະ	-10
▁S	-11
▁ສ	-12
an	-13
ິດ	-14
ທີ	-15
on	-16
▁2	-17
▁P	-18
at	-19
້າ	-20
ັດ	-21
ທີ່	-22
▁1	-23
ar	-24
ຫນ	-25
▁ແ	-26
es	-27
en	-28
າຍ	-29
▁M	-30
or	-31
al	-32
ປະ	-33
າມ	-34
▁T	-35
ຂອງ	-36
▁B	-37
ື່	-38
ອນ	-39
▁A	-40
01	-41
▁D	-42
st	-43
ໃນ	-44
▁ການ	-45
າດ	-46
00	-47
່າ	-48
▁ກ	-49
ic	-50
▁L	-51
▁F	-52
▁/	-53
le	-54
▁(	-55
▁R	-56
▁-	-57
▁ຄ	-58
ະລ	-59
້ນ	-60
ro	-61
ing	-62
ໍ່	-63
ສະ	-64
▁ອ	-65
▁ໂ	-66
to	-67
ັກ	-68
it	-69
ັງ	-70
ົດ	-71
າກ	-72
ac	-73
▁ລ	-74
▁H	-75
່ງ	-76
▁E	-77
່ນ	-78
ຫຼ	-79
▁201	-80
am	-81
▁W	-82
ol	-83
ວາມ	-84
▁ພ	-85
▁ຕ	-86
▁ມ	-87
▁,	-88
▁G	-89
ດ້	-90
ed	-91
et	-92
ະລິດ	-93
ຜະລິດ	-94
▁t	-95
▁ແລະ	-96
ຫມ	-97
ົນ	-98
as	-99
ູ້	-100
ou	-101
▁ທ	-102
el	-103
່ານ	-104
▁3	-105
ວກ	-106
om	-107
il	-108
ຸດ	-109
▁N	-110
ແລະ	-111
▁ຂ	-112
າວ	-113
▁ຈ	-114
ໍາລ	-115
▁I	-116
ີນ	-117
re	-118
ອກ	-119
▁ນ	-120
▁ບ	-121
ື່ອງ	-122
▁c	-123
▁ຫນ	-124
ter	-125
າງ	-126
ag	-127
ໄດ້	-128
ິນ	-129
id	-130
ຄື່ອງ	-131
▁s	-132
▁_	-133
ະພ	-134
ປັນ	-135
ຜູ້	-136
▁V	-137
▁&	-138
▁ຊ	-139
ວນ	-140
os	-141
▁ທີ່	-142
ົາ	-143
ໍາລັບ	-144
ion	-145
▁ວ	-146
ີ້	-147
he	-148
ເຮ	-149
..	-150
ot	-151
is	-152
ad	-153
▁p	-154
▁ປະ	-155
ູ່	-156
ch	-157
▁5	-158
atto	-159
ມີ	-160
▁4	-161
▁U	-162
ົງ	-163
ເພ	-164
ອບ	-165
▁ສະ	-166
▁O	-167
ຄວາມ	-168
ດຍ	-169
ຫ້	-170
ct	-171
່ຽ	-172
ent	-173
▁m	-174
ົມ	-175
▁b	-176
...	-177
ຫລ	-178
▁ໃນ	-179
ົບ	-180
ໍ້	-181
າບ	-182
ur	-183
ລິ	-184
ess	-185
ະນ	-186
ົ້າ	-187
ig	-188
ງານ	-189
▁ດ	-190
gt	-191
ມື	-192
ມ່ນ	-193
▁K	-194
▁ຄວາມ	-195
▁ປ	-196
▁ຮ	-197
ໄປ	-198
▁ເຄື່ອງ	-199
ົວ	-200
ສາ	-201
▁St	-202
us	-203
ູນ	-204
ເປັນ	-205
ir	-206
ack	-207
ເລ	-208
ang	-209
▁J	-210
້ງ	-211
and	-212
um	-213
▁ຂອງ	-214
້ອ	-215
ul	-216
▁f	-217
່ວ	-218
▁d	-219
ິງ	-220
່າງ	-221
ັ້ນ	-222
un	-223
ay	-224
ຈາກ	-225
ະພັນ	-226
ust	-227
ຊ້	-228
ve	-229
ຜະລິດຕ	-230
ow	-231
▁6	-232
ຜະລິດຕະພັນ	-233
ri	-234
▁w	-235
▁0	-236
▁ຜູ້	-237
ap	-238
ໃຊ້	-239
ຢູ່	-240
▁...	-241
of	-242
ລາ	-243
▁Ch	-244
ຸນ	-245
ໃຫ້	-246
ຖື	-247
amp	-248
ເທ	-249
ວກເຮ	-250
20	-251
ກັບ	-252
້ອງ	-253
ຮງ	-254
ຫຍ	-255
▁tatto	-256
▁8	-257
op	-258
ີ່	-259
ine	-260
ັ້ງ	-261
ພິ	-262
ູບ	-263
▁ຫນ້າ	-264
ູງ	-265
▁ສໍາລັບ	-266
ຕໍ່	-267
▁$	-268
້າງ	-269
ab	-270
▁h	-271
ືອນ	-272
ບບ	-273
lo	-274
em	-275
ື່ອ	-276
▁7	-277
້ໍາ	-278
ut	-279
ເພດ	-280
▁ລະ	-281
od	-282
ເສ	-283
ຄາ	-284
▁In	-285
ທ່ານ	-286
ip	-287
ຈະ	-288
ໍລິ	-289
ສໍາລັບ	-290
ເວ	-291
ເຂ	-292
▁Pr	-293
com	-294
ໄລ	-295
eb	-296
ເມ	-297
▁ຫຼ	-298
ທໍາ	-299
ິ່ງ	-300
mm	-301
ປະກ	-302
ເຊ	-303
▁Co	-304
ສຸດ	-305
▁ຖ	-306
000	-307
▁–	-308
ຮັບ	-309
50	-310
ໄຟ	-311
ະສ	-312
ະຫນ	-313
ian	-314
ra	-315
▁ເຊ	-316
ຶກ	-317
ີດ	-318
ເຕ	-319
▁10	-320
ers	-321
▁ຍ	-322
one	-323
▁ມີ	-324
ແບບ	-325
ແມ່ນ	-326
▁ໂດຍ	-327
ວກເຮົາ	-328
▁9	-329
ຕິ	-330
ສູງ	-331
▁X	-332
ong	-333
▁Sh	-334
າມາດ	-335
▁g	-336
ລົດ	-337
▁20	-338
ເທດ	-339
▁2018	-340
ຽນ	-341
່າຍ	-342
ck	-343
ard	-344
ທລະ	-345
ia	-346
pe	-347
▁+	-348
ວກັບ	-349
ອິດ	-350
▁Y	-351
igh	-352
ດືອນ	-353
▁ຫ	-354
ຊີ	-355
▁ຈີນ	-356
ast	-357
▁ໄດ້	-358
ທາງ	-359
▁ຜ	-360
qu	-361
່ຽວກັບ	-362
ອດ	-363
ແຕ	-364
ຸກ	-365
th	-366
ທໍາອິດ	-367
ນີ້	-368
ກະ	-369
ເຄື່ອງ	-370
້ານ	-371
ຸມ	-372
▁Pro	-373
.0	-374
201	-375
ົ່າ	-376
ment	-377
ຫລດ	-378
ວ່າ	-379
ກໍາ	-380
ib	-381
ຖືກ	-382
im	-383
▁ດາວ	-384
▁An	-385
ໂດຍ	-386
ົກ	-387
ມາ	-388
່າວ	-389
ບໍ່	-390
້ວ	-391
ອາ	-392
ສັບ	-393
ຮງງານ	-394
ຫມົດ	-395
ບັນ	-396
ເຈ	-397
ງິນ	-398
all	-399
ດີ	-400
ົ່ງ	-401
-1	-402
ື່ນ	-403
ົ້ນ	-404
ະຫນາດ	-405
ຽງ	-406
ate	-407
ສາມາດ	-408
▁ປະເພດ	-409
og	-410
▁ຜະລິດຕະພັນ	-411
ຍາ	-412
ຈີນ	-413
te	-414
ation	-415
້ມ	-416
ໂລ	-417
ຄື	-418
້ອຍ	-419
▁"	-420
ອອກ	-421
pp	-422
ຫະ	-423
ຸ່ນ	-424
▁Z	-425
ສະຫນ	-426
່ວນ	-427
ທລະສັບ	-428
ະພາບ	-429
ain	-430
ໂນ	-431
ub	-432
ໂຫລດ	-433
▁ຫນ້າທໍາອິດ	-434
▁l	-435
lect	-436
ຕະ	-437
▁ແມ່ນ	-438
ຫາ	-439
ໍານ	-440
ark	-441
iz	-442
co	-443
ຕັ້ງ	-444
ພາ	-445
ພວກເຮົາ	-446
ight	-447
▁tattoos	-448
▁ລາ	-449
inter	-450
▁ເປັນ	-451
ver	-452
▁ເດືອນ	-453
▁:	-454
ກິດ	-455
if	-456
▁ວິ	-457
ce	-458
est	-459
ric	-460
ບໍລິ	-461
▁2019	-462
▁12	-463
ke	-464
art	-465
ທັງ	-466
ນ໌	-467
ເກ	-468
ເຮັດ	-469
▁Bo	-470
ie	-471
ທະ	-472
▁ກັບ	-473
ຖານ	-474
ly	-475
▁in	-476
ປະເທດ	-477
▁ສໍາ	-478
10	-479
▁Dust	-480
▁*	-481
ພິມ	-482
ພາບ	-483
ry	-484
▁ໃ	-485
ity	-486
ເຫ	-487
▁ໄ	-488
ຶ່ງ	-489
ວດ	-490
ຂໍ້	-491
ບັດ	-492
▁ສີ	-493
ist	-494
ress	-495
▁En	-496
ຕອນ	-497
▁Col	-498
ທີ່ມີ	-499
▁n	-500
▁ເກ	-501
ide	-502
ຫມາຍ	-503
້ອນ	-504
▁2017	-505
່ອງ	-506
▁ເຮ	-507
ເນ	-508
▁ໂຮງງານ	-509
▁e	-510
ill	-511
ເຕີ	-512
່ອນ	-513
ຜ່ານ	-514
se	-515
▁Q	-516
▁ຄໍາ	-517
30	-518
ຕາ	-519
ind	-520
.2	-521
ok	-522
▁ຮູບ	-523
ປະກອນ	-524
ຸປະກອນ	-525
ສົ່ງ	-526
▁ຕິດ	-527
ຫັດ	-528
bo	-529
ີ່ມ	-530
▁Cas	-531
ຄ້າ	-532
per	-533
ມູນ	-534
.1	-535
▁ເພ	-536
ເດ	-537
act	-538
▁and	-539
▁ທ່ານ	-540
ິກ	-541
age	-542
ມືອງ	-543
▁Printer	-544
▁Re	-545
▁ຢ	-546
▁Sp	-547
▁to	-548
▁ເຊົ່າ	-549
ັ່ນ	-550
ຟ້າ	-551
ຈໍາ	-552
▁the	-553
▁ບໍ່	-554
oft	-555
ວິ	-556
▁ຕໍ່	-557
ສັດ	-558
▁ອາ	-559
ino	-560
ບົບ	-561
▁ຜູ້ຜະລິດ	-562
▁Pl	-563
ost	-564
ເຫຼ	-565
ວຍ	-566
ຕິດ	-567
ຫຼາຍ	-568
▁of	-569
ເງິນ	-570
ຮູບ	-571
▁15	-572
ແດ	-573
▁Fl	-574
ແກ	-575
▁ເຊົ່າລົດ	-576
▁v	-577
td	-578
ກັນ	-579
▁ເວ	-580
▁2016	-581
hou	-582
ີເມ	-583
ord	-584
ຽກ	-585
ຫານ	-586
▁st	-587
are	-588
ພະ	-589
▁ໂທລະສັບ	-590
▁Wh	-591
ື່ນໆ	-592
ື້ນ	-593
ເຫັນ	-594
▁Bl	-595
ືອກ	-596
ob	-597
.5	-598
ເປ	-599
ນ້ໍາ	-600
▁Collect	-601
ction	-602
let	-603
້າຍ	-604
▁11	-605
ort	-606
ໃຈ	-607
ai	-608
ເອ	-609
▁ລາຄາ	-610
▁ພາ	-611
▁y	-612
ັ່ງ	-613
ak	-614
ະນາ	-615
-2	-616
ຫນ້າ	-617
ສີ	-618
ies	-619
▁ຂະຫນາດ	-620
60	-621
▁Con	-622
ໄຊ	-623
ຫວ	-624
dro	-625
ສ້າງ	-626
ach	-627
ive	-628
ເຂົ້າ	-629
ົ່ວ	-630
eng	-631
ເຈົ້າ	-632
av	-633
▁ລັບ	-634
80	-635
ຕົວ	-636
▁19	-637
ນໍາ	-638
40	-639
iv	-640
▁200	-641
▁ກ່ຽວກັບ	-642
ມັນ	-643
her	-644
ຕ້ອງ	-645
ແດງ	-646
▁ຂ່າວ	-647
▁Al	-648
ຽມ	-649
▁30	-650
ູກ	-651
▁ເສ	-652
▁ລາຍ	-653
▁No	-654
ເວລາ	-655
▁Collector	-656
ຫມ່	-657
attoos	-658
▁r	-659
▁£	-660
▁ເລ	-661
່ຽວ	-662
ທິ	-663
ໄດ້ຮັບ	-664
ite	-665
ຕາມ	-666
ຫຍ່	-667
ant	-668
ຸນນ	-669
▁ນໍາ	-670
▁Hack	-671
່ມ	-672
ສໍາ	-673
ທັງຫມົດ	-674
ຄິດ	-675
ile	-676
ug	-677
ະສິດ	-678
ື້	-679
ຫ້ອງ	-680
▁»	-681
▁US	-682
ອື່ນໆ	-683
▁ຂໍ້	-684
▁©	-685
ຸງ	-686
ຂະສິດ	-687
ax	-688
ມັດ	-689
▁Ser	-690
ິ້ນ	-691
▁100	-692
▁ວັນ	-693
▁The	-694
11	-695
IN	-696
ວັນ	-697
ສະນ	-698
▁24	-699
ຽດ	-700
▁Val	-701
ໄຟຟ້າ	-702
ໄວ	-703
ຢ່າງ	-704
ທີ່ສຸດ	-705
▁ກະ	-706
ສາຫະ	-707
ew	-708
▁Un	-709
ຸລະ	-710
ທະຍາ	-711
ell	-712
▁ເຂ	-713
ຫໍ້	-714
ສ່ວນ	-715
▁Ltd	-716
ີ່ຫໍ້	-717
▁ບັນ	-718
ື້ອ	-719
ມ້	-720
ish	-721
▁ມັນ	-722
our	-723
▁ລະຫັດ	-724
ແນ	-725
end	-726
▁Bag	-727
▁ຫມ	-728
▁i	-729
ຂອງທ່ານ	-730
ep	-731
ລາວ	-732
▁ລິ	-733
▁[	-734
ເສດ	-735
ຖິງ	-736
ex	-737
ass	-738
uro	-739
ດ້ວຍ	-740
▁ນ້ໍາ	-741
▁a	-742
ັບໄຊ	-743
86	-744
ປະສ	-745
▁Com	-746
ue	-747
XL	-748
▁Tag	-749
oun	-750
ກົດ	-751
ຊົນ	-752
droid	-753
▁ຈາກ	-754
ຸນນະພາບ	-755
12	-756
ຝຸ່ນ	-757
ER	-758
ran	-759
ຸລະກິດ	-760
່ວຍ	-761
ເບ	-762
▁Android	-763
າກາດ	-764
ປີ	-765
ລາຍ	-766
ats	-767
▁Casino	-768
90	-769
ash	-770
ຄົນ	-771
ໂຄ	-772
ໃຫຍ່	-773
ຸດສາຫະ	-774
ມ່	-775
ud	-776
▁sp	-777
▁Fil	-778
ຈຸ	-779
▁ຫຼື	-780
ຈັກ	-781
able	-782
▁ເກມ	-783
ໍານວນ	-784
ON	-785
old	-786
sh	-787
ມະ	-788
ຣີ	-789
▁.	-790
ຈັດ	-791
ຸ້ມ	-792
▁re	-793
ກ່ຽວກັບ	-794
ao	-795
ຕິບັດ	-796
▁ສາຍ	-797
▁ທີ່ຢູ່	-798
ED	-799
ອມ	-800
me	-801
ຜ່ານມາ	-802
-0	-803
ແລ	-804
ວຽກ	-805
ff	-806
▁ອີເມ	-807
ຜ່ນ	-808
ືນ	-809
▁ຟ	-810
ຜົນ	-811
່ວມ	-812
▁Cl	-813
yl	-814
▁Ro	-815
ະນະ	-816
▁Su	-817
ge	-818
▁18	-819
ຶ້ນ	-820
▁ເບ	-821
▁ບໍລິ	-822
.00	-823
▁Web	-824
ລ໌	-825
▁by	-826
ທະນາ	-827
.3	-828
ທຸລະກິດ	-829
ລະອ	-830
ator	-831
45	-832
ອນໄລ	-833
ເຄ	-834
່ຽນ	-835
ຸດສາຫະກໍາ	-836
ດັບ	-837
▁ອຸປະກອນ	-838
▁ປີ	-839
▁Valve	-840
▁ເມືອງ	-841
ທີ່ຈະ	-842
▁Mark	-843
ail	-844
▁Ste	-845
ice	-846
▁#	-847
ລະອຽດ	-848
▁16	-849
▁Ar	-850
ne	-851
▁j	-852
▁Equ	-853
ວມ	-854
ໃນການ	-855
alk	-856
▁ເມ	-857
▁Ph	-858
ຂໍ້ມູນ	-859
▁ທໍາ	-860
ນ໌ໂຫລດ	-861
,000	-862
ຕອນນີ້	-863
ປະເທດຈີນ	-864
ຄໍາ	-865
▁Euro	-866
ແຕ່	-867
ຄຸນນະພາບ	-868
ື່ອນ	-869
onus	-870
oh	-871
ວກເຮົ	-872
▁(1	-873
lt	-874
▁ຊື່	-875
ick	-876
ອນໄລນ໌	-877
ale	-878
ber	-879
▁ດາວນ໌ໂຫລດ	-880
AN	-881
ຸ່ມ	-882
▁Europe	-883
ure	-884
▁ຕົວ	-885
cl	-886
▁k	-887
ຕໍ່ຕອນນີ້	-888
▁25	-889
▁ພະ	-890
ree	-891
ສາຍ	-892
ຮຽນ	-893
ບໍລິການ	-894
ໄຂ	-895
ows	-896
ວງ	-897
int	-898
ໍາລັງ	-899
▁Man	-900
▁Ind	-901
ກາ	-902
uang	-903
ຂຶ້ນ	-904
ອາກາດ	-905
ນໍາໃຊ້	-906
▁Sl	-907
ລາຄາ	-908
▁Wind	-909
ipment	-910
ູມ	-911
▁ສຸດ	-912
),	-913
ຜູ້ຜະລິດ	-914
ຮູ້	-915
oc	-916
▁Filter	-917
ແຂ	-918
ການປ	-919
up	-920
▁Equipment	-921
35	-922
▁50	-923
ຢູ່ໃນ	-924
ທົບ	-925
ວິດ	-926
ທະຍາໄລ	-927
▁De	-928
ina	-929
▁for	-930
iber	-931
attoo	-932
70	-933
ຮ່ວມ	-934
ດ້ານ	-935
ສະຫນອງ	-936
25	-937
ຂາຍ	-938
ສິ	-939
ແປ	-940
▁ທີ່ຜ່ານມາ	-941
15	-942
ີໂ	-943
ຂອງພວກເຮົາ	-944
ສຶກ	-945
▁Che	-946
ຈາກປະເທດຈີນ	-947
ະລັງ	-948
▁Te	-949
ຕ່	-950
ູດ	-951
ທີການ	-952
▁Bonus	-953
ຝຶກ	-954
iang	-955
ets	-956
ຊາດ	-957
ຕົ້ນ	-958
ເພື່ອ	-959
ນ້ອຍ	-960
ອຍ	-961
ຄືນ	-962
▁ເຈ	-963
ຕ່າງ	-964
ເຫຼັກ	-965
▁ດາວໂຫລດ	-966
▁ເຮັດ	-967
ສງ	-968
ະລັງງານ	-969
ປະກອບ	-970
ype	-971
ທິດ	-972
▁Th	-973
▁You	-974
ຊາ	-975
ary	-976
ຊາຍ	-977
ມືຖື	-978
ອາຫານ	-979
▁ຫນຶ່ງ	-980
▁Prote	-981
ru	-982
16	-983
ຂີ້	-984
75	-985
tt	-986
▁00	-987
▁ພາສາ	-988
ss	-989
ater	-990
ph	-991
ພິເສດ	-992
▁13	-993
ຂາວ	-994
▁ກໍາ	-995
ized	-996
ຍະ	-997
▁Steel	-998
▁ມື	-999
ແທ	-1000
▁ເຕ	-1001
▁wit	-1002
ປະເພດ	-1003
ຕັດ	-1004
ld	-1005
ເຂົາ	-1006
ens	-1007
ps	-1008
▁Ad	-1009
ei	-1010
▁Windows	-1011
ວັດ	-1012
ຂະຫນາດ	-1013
ຽວ	-1014
-5	-1015
ອົບ	-1016
ium	-1017
▁ລົດ	-1018
ີມ	-1019
pt	-1020
rad	-1021
vir	-1022
ໃສ	-1023
▁Ex	-1024
AL	-1025
ສໍາລັບການ	-1026
mer	-1027
tou	-1028
▁LT	-1029
▁ໂຄ	-1030
ໃຫມ່	-1031
ST	-1032
▁ອີເມລ໌	-1033
▁14	-1034
▁ລະບົບ	-1035
ືອ	-1036
viron	-1037
99	-1038
ຕໍ	-1039
▁ລິຂະສິດ	-1040
▁ພວກເຮົ	-1041
▁ໃຫ້	-1042
ບາຍ	-1043
SO	-1044
▁2015	-1045
ram	-1046
vironment	-1047
▁Protection	-1048
2018	-1049
ire	-1050
▁ນີ້	-1051
▁ອອກ	-1052
ign	-1053
▁ການປ	-1054
ອອກແບບ	-1055
ລົງ	-1056
▁Car	-1057
▁Environment	-1058
▁For	-1059
▁ກົດ	-1060
▁2020	-1061
ທ໌	-1062
net	-1063
ັດຕະ	-1064
ial	-1065
▁th	-1066
▁Botou	-1067
▁Vess	-1068
ປະຕິບັດ	-1069
▁Pul	-1070
ເຖິງ	-1071
▁Vessoft	-1072
▁17	-1073
▁ຈໍາ	-1074
13	-1075
ome	-1076
olog	-1077
oly	-1078
uf	-1079
ງການ	-1080
▁x	-1081
ເລືອກ	-1082
▁{	-1083
ting	-1084
▁Environmental	-1085
ຂະ	-1086
▁ໂຮງງານຜະລິດ	-1087
ov	-1088
ຄວ	-1089
eed	-1090
▁UV	-1091
="	-1092
.4	-1093
ັງກ	-1094
▁60	-1095
▁ເສັ້ນ	-1096
-3	-1097
own	-1098
ເຊື່ອ	-1099
ໂນມັດ	-1100
ood	-1101
▁Se	-1102
▁ລາວ	-1103
ຍິງ	-1104
ລະບົບ	-1105
.6	-1106
▁ຄາ	-1107
ix	-1108
ທານ	-1109
▁App	-1110
ບັບ	-1111
ສູ່	-1112
ພະເຈົ້າ	-1113
▁ກັນ	-1114
າະ	-1115
▁21	-1116
ical	-1117
AC	-1118
ແວ	-1119
:/	-1120
lock	-1121
ert	-1122
ແມ່	-1123
icro	-1124
ລີ	-1125
rus	-1126
ຄຸນນະພາບສູງ	-1127
ທີ່ດີ	-1128
ໂມ	-1129
ສົມ	-1130
://	-1131
ຫນຶ່ງ	-1132
ສອບ	-1133
▁ເອ	-1134
ower	-1135
▁ຖົງ	-1136
ັດທະນາ	-1137
du	-1138
▁ຕາ	-1139
▁ທັງ	-1140
ັດຕະໂນມັດ	-1141
85	-1142
ັມ	-1143
ຫນີ	-1144
▁Mach	-1145
ock	-1146
ຫນັກ	-1147
▁ເງິນ	-1148
້າພະເຈົ້າ	-1149
AS	-1150
ທົ່ວ	-1151
▁Wor	-1152
ສານ	-1153
ເລກ	-1154
▁ຕໍ່ໄປ	-1155
chn	-1156
key	-1157
ຽບ	-1158
ສະດ	-1159
▁ໂລ	-1160
atch	-1161
▁on	-1162
▁LTD	-1163
oll	-1164
ຫຸ້ມ	-1165
ິດທິ	-1166
oo	-1167
ore	-1168
oles	-1169
ated	-1170
ແລະການ	-1171
ຜນ	-1172
ຊື່	-1173
▁ພວກເຮົາ	-1174
້ອມ	-1175
sp	-1176
ufact	-1177
ຶດ	-1178
▁“	-1179
▁Top	-1180
▁ຫ້ອງ	-1181
Ch	-1182
ik	-1183
▁ພວກ	-1184
ເກັບ	-1185
ດັນ	-1186
ustri	-1187
ox	-1188
ໄລຍະ	-1189
▁Sol	-1190
200	-1191
ັບປ	-1192
ຂອງການ	-1193
cm	-1194
▁ປະເທດ	-1195
▁ແນ	-1196
▁New	-1197
ັບໄຊທ໌	-1198
ener	-1199
▁ຜ້າ	-1200
ufactur	-1201
ube	-1202
ຖົງ	-1203
ຸນາ	-1204
ຄ່າ	-1205
ອາດ	-1206
ເພີ່ມ	-1207
ໄມ້	-1208
aser	-1209
li	-1210
line	-1211
▁Comp	-1212
ໂລກ	-1213
ace	-1214
ໍລະ	-1215
RE	-1216
gl	-1217
▁de	-1218
ກາງ	-1219
▁Dis	-1220
▁htt	-1221
ສັງ	-1222
▁ທໍ່	-1223
▁'	-1224
hen	-1225
▁ສູງ	-1226
ສຶກສາ	-1227
19	-1228
ດານ	-1229
ຫວ່າງ	-1230
▁Le	-1231
▁ໃຊ້	-1232
jian	-1233
ສິໂນ	-1234
ology	-1235
▁La	-1236
ຕ້ອງການ	-1237
▁Be	-1238
▁ລາຍລະອຽດ	-1239
ທຸກ	-1240
ຍີ່ຫໍ້	-1241
.9	-1242
23	-1243
ຫຼື	-1244
ີໂອ	-1245
▁ສ່ວນ	-1246
ase	-1247
▁ຊຸດ	-1248
ເຮັດວຽກ	-1249
▁ຈະ	-1250
▁ພິ	-1251
ອົບຮ	-1252
▁ເຂົ້າ	-1253
28	-1254
app	-1255
ສະແດງ	-1256
load	-1257
▁ເພື່ອ	-1258
ustrial	-1259
ົດລ	-1260
▁you	-1261
AT	-1262
ມານ	-1263
▁40	-1264
ອົບຮົມ	-1265
ufacturer	-1266
▁Gr	-1267
zhou	-1268
▁Koh	-1269
ຊຸມ	-1270
ື່ມ	-1271
ພື້ນ	-1272
▁ບໍລິສັດ	-1273
ວາງ	-1274
ອຸປະກອນ	-1275
AM	-1276
▁FI	-1277
▁LED	-1278
▁ຢູ່	-1279
ຄິດເຫັນ	-1280
ຝຶກອົບຮົມ	-1281
ນັ້ນ	-1282
board	-1283
obile	-1284
▁ຫນັງ	-1285
24	-1286
▁Sam	-1287
ຮັກ	-1288
ະສົມ	-1289
▁Rong	-1290
▁ບົດ	-1291
ໄພ	-1292
▁ch	-1293
▁ວິທີການ	-1294
▁ຕິດຕໍ່ຕອນນີ້	-1295
▁ເບິ່ງ	-1296
ຄົ້ນ	-1297
▁ສາ	-1298
less	-1299
ີດໍາ	-1300
ໃດ	-1301
ຄຸມ	-1302
ຍາດ	-1303
ຢືນ	-1304
ສາດ	-1305
▁ຮູບພາບ	-1306
▁Min	-1307
ວາ	-1308
ສິ່ງ	-1309
▁ແກ	-1310
min	-1311
▁tattoost	-1312
▁ຂະ	-1313
ble	-1314
ັງກອນ	-1315
▁ຜູ້ຜະລິດແລະ	-1316
ank	-1317
irt	-1318
ເມືອງ	-1319
▁ro	-1320
ester	-1321
ຮ້ອນ	-1322
ເຕີມ	-1323
▁ວັດ	-1324
-8	-1325
▁Free	-1326
ະຫນົນ	-1327
AR	-1328
▁pro	-1329
າທີ	-1330
der	-1331
ບໍລິສັດ	-1332
ey	-1333
ຕ້	-1334
▁ໄປ	-1335
▁ໂທ	-1336
▁Word	-1337
▁ວິທະຍາໄລ	-1338
▁Industrial	-1339
ron	-1340
▁ອ່ານ	-1341
▁ຈໍານວນ	-1342
ແຮ	-1343
ົດລອງ	-1344
▁22	-1345
▁ລາຄາຖືກ	-1346
▁Slot	-1347
ັບສະຫນ	-1348
ພັນ	-1349
ຕູ	-1350
▁ເທ	-1351
▁East	-1352
▁Black	-1353
ໂທລະສັບ	-1354
ring	-1355
enc	-1356
▁500	-1357
▁ຫົວ	-1358
ຈາກຈີນ	-1359
ັບປຸງ	-1360
ພາກ	-1361
ແຕ່ງ	-1362
ສື	-1363
່ອຍ	-1364
ະນໍາ	-1365
▁Webt	-1366
▁ເຈົ້າ	-1367
ສະພາ	-1368
ອບແວ	-1369
▁°	-1370
ເດັກ	-1371
).	-1372
ພາຍ	-1373
aph	-1374
ຫໍ່	-1375
ພັດທະນາ	-1376
ເດືອນ	-1377
ືດ	-1378
ກໍ່	-1379
ຣະ	-1380
ເລດ	-1381
▁23	-1382
ເອົາ	-1383
ໂນໂລ	-1384
ສິນ	-1385
ໄປສູ່	-1386
atic	-1387
ຈຸບັນ	-1388
▁ຍີ່ຫໍ້	-1389
ໄດ້ຮັບການ	-1390
21	-1391
ບຄຸມ	-1392
ah	-1393
ຄົມ	-1394
ທວນ	-1395
utter	-1396
ູກຄ້າ	-1397
ັບສະຫນູນ	-1398
▁ແລະອື່ນໆ	-1399
ໃສ່	-1400
▁ສິ່ງ	-1401
ຖານທີ່	-1402
OS	-1403
UR	-1404
ຄູ່	-1405
rict	-1406
coin	-1407
▁2014	-1408
າກໍາລັງ	-1409
chnology	-1410
af	-1411
▁City	-1412
▁ພາສາລາວ	-1413
3}	-1414
ກັດ	-1415
ໃຊ້ເວລາ	-1416
▁Manufacturer	-1417
ສົ່ງອອກ	-1418
▁ແຂ	-1419
▁~	-1420
han	-1421
pl	-1422
▁Pre	-1423
ual	-1424
▁{_	-1425
olesale	-1426
-6	-1427
any	-1428
▁ຄູ່	-1429
OR	-1430
ult	-1431
ບຸກ	-1432
ຕໍ່າ	-1433
▁Dist	-1434
▁Micro	-1435
▁ຫນຶ່ງໃນ	-1436
ຢາ	-1437
້ຽມ	-1438
▁ຜົນ	-1439
.7	-1440
▁Air	-1441
▁ສ້າງ	-1442
ook	-1443
ສະເ	-1444
▁is	-1445
▁ມັງກອນ	-1446
▁Wholesale	-1447
io	-1448
ນະ	-1449
▁Cont	-1450
ທົບທວນ	-1451
▁2013	-1452
▁ແຜ່ນ	-1453
ີຍ	-1454
ycl	-1455
▁86	-1456
▁Pulse	-1457
18	-1458
ond	-1459
▁Flat	-1460
ຫຼາດ	-1461
▁Fiber	-1462
ຂ່າວ	-1463
▁USD	-1464
▁ເຄື່ອງພິມ	-1465
▁ຄວາມຄິດເຫັນ	-1466
ີບ	-1467
▁ດີ	-1468
▁ແຕ່	-1469
ຕິງ	-1470
▁iP	-1471
ງ່າຍ	-1472
ຫຸ້ມຫໍ່	-1473
▁ພວກເຮົາກໍາລັງ	-1474
▁ອຸດສາຫະກໍາ	-1475
▁Youjian	-1476
ier	-1477
ຫຍັງ	-1478
▁Supp	-1479
rag	-1480
ໂລຫະ	-1481
OM	-1482
ink	-1483
ສອງ	-1484
▁ນະ	-1485
ດິນ	-1486
ເຮັດໃຫ້	-1487
hout	-1488
.8	-1489
az	-1490
ເຢ	-1491
ux	-1492
ແຜ່ນ	-1493
Press	-1494
ບໍ່ມີ	-1495
▁ເຮົາ	-1496
▁World	-1497
▁ຖະຫນົນ	-1498
▁Webtalk	-1499
▁ຄວາມຫມາຍ	-1500
de	-1501
ເສັ້ນ	-1502
ich	-1503
▁Em	-1504
2019	-1505
ັ້ງຢືນ	-1506
uan	-1507
▁On	-1508
▁ສະຫນ	-1509
▁Press	-1510
ິ່ນ	-1511
17	-1512
aw	-1513
hone	-1514
▁ISO	-1515
IC	-1516
ເຟ	-1517
▁28	-1518
▁Cop	-1519
bal	-1520
▁ມີຄຸນນະພາບສູງ	-1521
ery	-1522
▁ມິ	-1523
▁Tags	-1524
ຂີ້ຝຸ່ນ	-1525
ຢັ້ງຢືນ	-1526
ape	-1527
ສະຫມ	-1528
▁ໃຫມ່	-1529
ລາຄາຕໍ່າ	-1530
▁ທີ	-1531
ັອດ	-1532
▁ຟຣີ	-1533
ics	-1534
▁pl	-1535
▁un	-1536
▁ນໍາໄປສູ່	-1537
ນເລດ	-1538
▁Mag	-1539
arn	-1540
ແສງ	-1541
ເຊື່ອມ	-1542
ຍີ່ຫໍ້ຈາກຈີນ	-1543
ເປັນລາຄາຕໍ່າ	-1544
NC	-1545
ຜ້າ	-1546
▁Sc	-1547
▁ບັດ	-1548
▁Serv	-1549
uk	-1550
▁•	-1551
ເກມ	-1552
▁ຕຸ	-1553
▁Blue	-1554
ET	-1555
ຫມາ	-1556
att	-1557
ແພ	-1558
▁AP	-1559
ສະດຸ	-1560
▁ສິງ	-1561
▁ຮັບ	-1562
▁Poly	-1563
▁WordPress	-1564
man	-1565
ຈິງ	-1566
ີ້ນ	-1567
▁ທັງຫມົດ	-1568
ee	-1569
▁ex	-1570
▁ທັນ	-1571
▁Hy	-1572
ຫນ່າຍ	-1573
▁ສາມາດ	-1574
oid	-1575
ທໍ່	-1576
ount	-1577
▁ທາງ	-1578
ຈໍານວນ	-1579
fo	-1580
▁As	-1581
ອອນໄລນ໌	-1582
▁)	-1583
vel	-1584
ຕົນ	-1585
ລວມ	-1586
ຫ່ງ	-1587
▁Ac	-1588
▁Ning	-1589
▁ນ້ໍາຫນັກ	-1590
MA	-1591
otor	-1592
ັອດຕິງ	-1593
▁Power	-1594
MT	-1595
ໂປ	-1596
log	-1597
▁ໃບ	-1598
ຕີ	-1599
iss	-1600
▁26	-1601
▁ເດ	-1602
▁ເປ	-1603
▁ຂໍ້ມູນ	-1604
ໂຍ	-1605
▁Mar	-1606
▁District	-1607
ແກ້	-1608
ital	-1609
ຶດສະພາ	-1610
▁ປະເພດທຸລະກິດ	-1611
-4	-1612
▁×	-1613
▁€	-1614
abric	-1615
ating	-1616
▁Char	-1617
▁Main	-1618
ະລັອດຕິງ	-1619
kg	-1620
ະນຸ	-1621
▁be	-1622
ຄວບຄຸມ	-1623
ຕອງ	-1624
ຫຍາຍ	-1625
pto	-1626
ຝາກ	-1627
▁ນັກ	-1628
ີກ	-1629
ເຄື	-1630
▁sh	-1631
▁al	-1632
▁ພາກ	-1633
▁ສີດໍາ	-1634
ທົບທວນຄືນ	-1635
29	-1636
▁ກຸມ	-1637
ຫຼັກ	-1638
▁Met	-1639
ຸ້ນ	-1640
ພາສາ	-1641
ຂ່າຍ	-1642
ຫົວ	-1643
▁ແບບ	-1644
ເບິ່ງ	-1645
ຖະ	-1646
ເລັດ	-1647
esign	-1648
▁Series	-1649
▁ພະລັງງານ	-1650
ສັນ	-1651
iler	-1652
ັກໂນໂລ	-1653
▁ຄາສິໂນ	-1654
ork	-1655
ຈໍາຫນ່າຍ	-1656
▁CH	-1657
▁LA	-1658
press	-1659
▁Mobile	-1660
ເອງ	-1661
ແປງ	-1662
ອຸດສາຫະກໍາ	-1663
ຄະ	-1664
14	-1665
LE	-1666
vey	-1667
▁PC	-1668
▁RN	-1669
▁Rou	-1670
▁ສະຫ	-1671
ລິຂະສິດ	-1672
▁without	-1673
ເງ	-1674
ຈ່າຍ	-1675
▁Home	-1676
ໂຮງງານ	-1677
ສູນ	-1678
▁ເລືອກ	-1679
▁ປະເພດຜະລິດຕະພັນ	-1680
ສົນ	-1681
ustom	-1682
▁Tattoos	-1683
ຍັງ	-1684
read	-1685
▁ຫຼິ້ນ	-1686
26	-1687
acc	-1688
ath	-1689
ງວນ	-1690
▁ທະ	-1691
▁ຫຼາຍ	-1692
tv	-1693
oto	-1694
ຊີວິດ	-1695
ີນທາງ	-1696
ທົ່ວໄປ	-1697
rid	-1698
▁35	-1699
VC	-1700
ons	-1701
▁CO	-1702
ັ່ນຕອງ	-1703
▁(3	-1704
ຊ່ວຍ	-1705
▁Star	-1706
ທຶກ	-1707
▁ໂຮງ	-1708
້ອງກັນ	-1709
be	-1710
▁ຫລ	-1711
ໂດ	-1712
ສຽງ	-1713
▁Theme	-1714
ການຜະລິດ	-1715
▁ອອນໄລນ໌	-1716
EN	-1717
PS	-1718
rom	-1719
lette	-1720
▁Live	-1721
▁Ningbo	-1722
74	-1723
ຟຣີ	-1724
ໂກ	-1725
umin	-1726
▁ກອງ	-1727
iew	-1728
ລັດ	-1729
itcoin	-1730
ຶນ	-1731
▁Sm	-1732
China	-1733
astic	-1734
ໍານົດ	-1735
▁Tw	-1736
ກ່ອນ	-1737
ັງຈາກ	-1738
▁Go	-1739
▁ad	-1740
rypto	-1741
ດາ	-1742
ຄອນ	-1743
ບິນ	-1744
raight	-1745
▁ຜູ້ສົ່ງອອກ	-1746
▁=	-1747
wax	-1748
ປັດ	-1749
ເຂດ	-1750
yclone	-1751
ເຄາ	-1752
▁Cheats	-1753
ຕະລ	-1754
ປົກ	-1755
▁Tr	-1756
າດຕະ	-1757
▁withoutwax	-1758
MP	-1759
ner	-1760
▁RF	-1761
ກວ່າ	-1762
▁ຮຸ່ນ	-1763
ຫມາະສົມ	-1764
ຍາວ	-1765
ware	-1766
ປະຊຸມ	-1767
ເດີນທາງ	-1768
ິວ	-1769
▁ເອກ	-1770
oth	-1771
▁ຊີ	-1772
ລະດັບ	-1773
ຽງແຕ່	-1774
▁ເຟ	-1775
ilic	-1776
eeder	-1777
ode	-1778
▁Line	-1779
▁http	-1780
ຕົກ	-1781
ctor	-1782
2)	-1783
ຖາມ	-1784
▁1,	-1785
▁ເພີ່ມ	-1786
ຄານ	-1787
ull	-1788
ebei	-1789
ສະເຫນີ	-1790
ແຕນເລດ	-1791
ກັ່ນຕອງ	-1792
ww	-1793
ຂົນ	-1794
້າສຸດ	-1795
▁Machine	-1796
ໂຕ	-1797
ont	-1798
ກົງ	-1799
▁Suppli	-1800
ເສີມ	-1801
ແອ	-1802
▁ການທົບທວນຄືນ	-1803
ouble	-1804
55	-1805
ll	-1806
In	-1807
ກວ	-1808
▁\	-1809
▁Or	-1810
▁ຫນາດ	-1811
▁Laser	-1812
ດາວ	-1813
▁ຖ້າ	-1814
▁ການຫຸ້ມຫໍ່	-1815
EC	-1816
ຊື້	-1817
▁ຂາຍ	-1818
▁ຫມົດ	-1819
bed	-1820
www	-1821
ອົງ	-1822
▁Res	-1823
76	-1824
ump	-1825
ລິກ	-1826
▁ມມ	-1827
▁ຢາງ	-1828
▁ອົງ	-1829
ຮັກສາ	-1830
yst	-1831
ໃບ	-1832
ame	-1833
ີນາ	-1834
ບານ	-1835
ເປີດ	-1836
78	-1837
ໃຕ້	-1838
ສະນະ	-1839
▁ເຖິງ	-1840
ຕິກ	-1841
ພິວ	-1842
▁ສີຂາວ	-1843
▁ເວັບໄຊທ໌	-1844
van	-1845
▁ຫາ	-1846
ເຄາະ	-1847
ເນີນ	-1848
33	-1849
▁@	-1850
▁Jet	-1851
▁ໂທລະ	-1852
▁Sk	-1853
ະລັດ	-1854
▁Bi	-1855
ແນະນໍາ	-1856
la	-1857
enz	-1858
for	-1859
▁ເຄື	-1860
2,	-1861
ung	-1862
ທຶນ	-1863
▁Wall	-1864
▁ສໍາລັບການ	-1865
ຢາງ	-1866
▁PR	-1867
jiang	-1868
row	-1869
ions	-1870
veyor	-1871
▁com	-1872
ໍາເນີນ	-1873
ທີ່ກ	-1874
▁ສົ່ງ	-1875
▁Straight	-1876
out	-1877
ເອກ	-1878
ເຊັ່ນ	-1879
ອດໄພ	-1880
ົ່ານ	-1881
▁ພັນ	-1882
ake	-1883
org	-1884
▁ເນ	-1885
ID	-1886
arm	-1887
lex	-1888
ool	-1889
▁ເຫ	-1890
▁Cap	-1891
▁ໂທລະສັບມືຖື	-1892
▁2,	-1893
▁45	-1894
▁QR	-1895
າດຕະຖານ	-1896
▁Technology	-1897
36	-1898
▁29	-1899
ແຫ່ງ	-1900
ຫນາ	-1901
▁300	-1902
ຄອງ	-1903
▁ໄຟຟ້າ	-1904
ownload	-1905
fl	-1906
າລະ	-1907
່ຽງ	-1908
ຜູ້ຊາຍ	-1909
ອັດຕະໂນມັດ	-1910
▁ຈັດ	-1911
ຕະລາງ	-1912
▁1000	-1913
▁Type	-1914
▁tattoo	-1915
ທີ່ດີທີ່ສຸດ	-1916
ພະນ	-1917
▁ມະ	-1918
▁Lao	-1919
▁ຫມາຍ	-1920
▁She	-1921
▁ຊື້	-1922
ທາງການ	-1923
ິດທິພາບ	-1924
FE	-1925
ear	-1926
ເວັນ	-1927
▁Cyclone	-1928
wide	-1929
ອະນຸ	-1930
▁ທີ່ໃຊ້ເວລາ	-1931
▁	-1932
▁ພື້ນ	-1933
itting	-1934
▁Whats	-1935
▁ຫນັງສື	-1936
CH	-1937
ania	-1938
ພະລັງງານ	-1939
GH	-1940
ous	-1941
ther	-1942
ະພູມ	-1943
ແກ້ໄຂ	-1944
ເພີ່ມເຕີມ	-1945
ພັກ	-1946
over	-1947
EM	-1948
▁Gu	-1949
ES	-1950
▁ໄຟ	-1951
ອມພິວ	-1952
▁Online	-1953
95	-1954
lic	-1955
▁90	-1956
▁ກ່ອງ	-1957
▁ຫນູນ	-1958
▁ສະບັບ	-1959
▁ທົດລອງ	-1960
ave	-1961
▁Sw	-1962
ຖຸນາ	-1963
DF	-1964
ຫະພູມ	-1965
ຂ້າພະເຈົ້າ	-1966
ກອງ	-1967
▁Di	-1968
▁ແຜນ	-1969
▁Produ	-1970
ໂຮງ	-1971
▁ກິ	-1972
ກະດານ	-1973
▁ຫນັບ	-1974
▁Worldwide	-1975
ຕ້ານ	-1976
▁Cert	-1977
ລູກຄ້າ	-1978
ແຈ	-1979
und	-1980
ຢາມ	-1981
▁ນິ	-1982
ໂຄງການ	-1983
22	-1984
cur	-1985
ute	-1986
ogle	-1987
ຕໍ່ໄປ	-1988
▁Fran	-1989
້ຽມຢາມ	-1990
▁ຫນ່ວຍ	-1991
▁ວິດ	-1992
ອຂ່າຍ	-1993
ັກງານ	-1994
ຸນຫະພູມ	-1995
ປ່ຽນ	-1996
▁24)	-1997
▁ເມສາ	-1998
88	-1999
air	-2000
ans	-2001
ins	-2002
ແຫນ	-2003
▁ຕະ	-2004
ສະນີ	-2005
ຮ້ອງ	-2006
ກວດ	-2007
ເສຍ	-2008
aric	-2009
▁Inst	-2010
"&	-2011
ene	-2012
ຄັນ	-2013
▁Soft	-2014
▁ຜູ້ຈໍາຫນ່າຍ	-2015
EL	-2016
▁Elect	-2017
▁Inter	-2018
▁start	-2019
ທີ່ທ່ານ	-2020
ຫລັບ	-2021
ມະຊາດ	-2022
ມີຄວາມ	-2023
go	-2024
ແຮງ	-2025
▁Hu	-2026
.,	-2027
▁70	-2028
▁USB	-2029
▁ຈຸດ	-2030
▁ອິດ	-2031
ບັນຊີ	-2032
IS	-2033
ນິ	-2034
ole	-2035
ຈິກ	-2036
▁XL	-2037
▁ສົມ	-2038
▁ແມ່	-2039
▁ສິງຫາ	-2040
ຕິດຕັ້ງ	-2041
ປາ	-2042
rop	-2043
ລັກ	-2044
▁Nor	-2045
ຕອບ	-2046
▁150	-2047
▁ຄ່າ	-2048
▁100%	-2049
uck	-2050
oard	-2051
olor	-2052
▁LAK	-2053
ຕ່າງໆ	-2054
ເລີ່ມ	-2055
▁ຕັ້ງ	-2056
ັກໂນໂລຊີ	-2057
▁ພຶດສະພາ	-2058
ີງ	-2059
ທົດ	-2060
ເຫລ	-2061
▁ໄດ້ຮັບ	-2062
▁Straightener	-2063
je	-2064
ນີ	-2065
ເງົາ	-2066
▁CNC	-2067
▁ຄຸນ	-2068
pr	-2069
ແລ້ວ	-2070
▁Ant	-2071
▁ພາຍ	-2072
▁FIMT	-2073
ພວກ	-2074
ency	-2075
39	-2076
▁mm	-2077
▁ກາ	-2078
▁ໂມ	-2079
ames	-2080
ກະທົບ	-2081
ທົນ	-2082
▁It	-2083
ັງກິດ	-2084
▁Tube	-2085
▁Plastic	-2086
▁ຄວາມຄິດເຫັນທີ່	-2087
34	-2088
IT	-2089
eld	-2090
ular	-2091
▁PVC	-2092
ກວ້າງ	-2093
ຂະຫຍາຍ	-2094
▁iPhone	-2095
lor	-2096
ຄວນ	-2097
ແຂງ	-2098
▁cl	-2099
ຂ້ອງ	-2100
▁AC	-2101
▁ມາ	-2102
port	-2103
າງວັນ	-2104
ຕະຫຼາດ	-2105
່ຽວຂ້ອງ	-2106
ger	-2107
▁ແສງ	-2108
ແຮມ	-2109
.0.2	-2110
້ານີ້	-2111
▁Servo	-2112
▁ຄູ່ມື	-2113
ຄາດ	-2114
ທັນ	-2115
ເດດ	-2116
▁EUR	-2117
▁dur	-2118
▁Roulette	-2119
▁Guang	-2120
▁ກໍລະ	-2121
ຮູບພາບ	-2122
▁ເຊິ່ງ	-2123
1,	-2124
▁le	-2125
▁ນາ	-2126
▁ສັບ	-2127
ປອດໄພ	-2128
65	-2129
▁ແລ	-2130
▁High	-2131
▁Dress	-2132
▁HD	-2133
▁ຄົນ	-2134
▁ອາທິດ	-2135
ປັດຈຸບັນ	-2136
AD	-2137
ສາມ	-2138
▁ຢ່າງ	-2139
▁ເຮັດໃຫ້	-2140
ີຣ	-2141
ກາຍ	-2142
ຊີບ	-2143
ພາດ	-2144
▁27	-2145
▁IP	-2146
▁Qu	-2147
▁ດອກ	-2148
erv	-2149
ເຊຍ	-2150
▁ໂປ	-2151
▁ວິນ	-2152
▁Chat	-2153
ອະນຸຍາດ	-2154
2.	-2155
27	-2156
fly	-2157
ແທ້	-2158
▁spy	-2159
▁ອາດ	-2160
▁hack	-2161
▁Flatbed	-2162
uto	-2163
ເມື່ອ	-2164
ງາມ	-2165
▁PT	-2166
▁pm	-2167
eat	-2168
les	-2169
ຜິດ	-2170
ັບເດດ	-2171
ງວນລິຂະສິດ	-2172
98	-2173
US	-2174
cs	-2175
ໃຍ	-2176
ສະຫມັກ	-2177
na	-2178
ະສານ	-2179
▁Port	-2180
▁ບໍ່ມີ	-2181
▁ຄວາມໄວ	-2182
gen	-2183
▁Gro	-2184
enoid	-2185
ສະບັບ	-2186
▁Post	-2187
ຄະເນ	-2188
ີເມວ	-2189
ເຮືອນ	-2190
ໂຍບາຍ	-2191
ຮູບແບບ	-2192
▁fabric	-2193
ຕິດຕໍ່ຕອນນີ້	-2194
OT	-2195
ນັກ	-2196
▁Lo	-2197
ພາຍໃນ	-2198
elt	-2199
▁ປ່ຽນ	-2200
eboard	-2201
ໂມງ	-2202
▁et	-2203
ກະຕິ	-2204
▁ລັດ	-2205
ivers	-2206
ປະສົມ	-2207
ແທນ	-2208
▁ໍາ	-2209
9001	-2210
ເຢັນ	-2211
edust	-2212
ລະຫັດ	-2213
▁ມີນາ	-2214
▁Board	-2215
ອາຍ	-2216
▁ມູນ	-2217
▁with	-2218
▁GB	-2219
ສະນາ	-2220
ime	-2221
▁1.	-2222
▁fl	-2223
▁ຖື	-2224
ປະຕູ	-2225
ິ່ນປ	-2226
▁Rot	-2227
▁Spy	-2228
glish	-2229
▁ເດັກ	-2230
ຕິດຕໍ່	-2231
ສໍາຄັນ	-2232
▁ລວມ	-2233
▁ຊັ້ນ	-2234
ິບ	-2235
ໂທ	-2236
ຂຽນ	-2237
ຊານ	-2238
▁ຂຽນ	-2239
ຫນ້ານີ້	-2240
utterfly	-2241
ml	-2242
500	-2243
ຮ່າງ	-2244
ກຕ່າງ	-2245
ຫຼິ້ນ	-2246
▁2011	-2247
▁ກັນຍາ	-2248
ສໍາເລັດ	-2249
ເຜ	-2250
-20	-2251
ຫຼດ	-2252
ອັນ	-2253
ູມິນ	-2254
ລະຫວ່າງ	-2255
100	-2256
ade	-2257
ຫາກ	-2258
ream	-2259
▁Block	-2260
ainless	-2261
▁ຕິດຕໍ່	-2262
▁ຂ້າພະເຈົ້າ	-2263
;&	-2264
ບົດ	-2265
ບຽນ	-2266
▁min	-2267
-2018	-2268
▁ຕົ້ນ	-2269
▁ບັນຊີ	-2270
▁ຜະລິດ	-2271
▁Markets	-2272
IL	-2273
ໄວ້	-2274
▁cr	-2275
rist	-2276
▁your	-2277
PC	-2278
▁sc	-2279
້ນີ້	-2280
▁Cam	-2281
▁ບ່ອນ	-2282
▁Feeder	-2283
ອມພິວເຕີ	-2284
orn	-2285
ັ້ມ	-2286
▁Arch	-2287
▁ຕຸລາ	-2288
44	-2289
App	-2290
ກ່ວ	-2291
soft	-2292
ining	-2293
▁Google	-2294
▁Charter	-2295
mo	-2296
rip	-2297
ton	-2298
ຄົວ	-2299
▁Mid	-2300
ທະບຽນ	-2301
▁Asia	-2302
▁ຄົ້ນ	-2303
▁ຮ້ານ	-2304
uminum	-2305
▁tattoostattoos	-2306
ote	-2307
ຫ້ງ	-2308
▁Ne	-2309
ບັນຈຸ	-2310
ົບການ	-2311
▁ເປີດ	-2312
ູມິນຽມ	-2313
OD	-2314
▁Am	-2315
zh	-2316
າມີ	-2317
ຕ່ໍາ	-2318
▁Gal	-2319
▁ມື້	-2320
▁(201	-2321
▁English	-2322
uc	-2323
▁80	-2324
▁Up	-2325
▁Win	-2326
▁ຜ່ານ	-2327
▁Suppliers	-2328
sm	-2329
▁Off	-2330
▁Squ	-2331
▁ພິມ	-2332
ose	-2333
ທ້າຍ	-2334
▁Play	-2335
▁ອາຫານ	-2336
▁ຫນັງສືພິມ	-2337
top	-2338
▁Cr	-2339
▁All	-2340
▁ວ່າ	-2341
▁ສູນ	-2342
▁ບົດຄວາມ	-2343
emb	-2344
ipp	-2345
ແນວ	-2346
ອ່ານ	-2347
▁Call	-2348
sk	-2349
ໄຮ	-2350
ແຜນ	-2351
ຊອບແວ	-2352
▁ໂລຫະ	-2353
ໄປສະນີ	-2354
ຄວາມຄິດ	-2355
▁ປະຕິບັດ	-2356
▁ເຄື່ອງຈັກ	-2357
uri	-2358
ບູນ	-2359
ເມລິ	-2360
▁ບ້ານ	-2361
▁North	-2362
hejiang	-2363
ຫຼ້າສຸດ	-2364
▁Dedust	-2365
ຕັ້ງຂຶ້ນ	-2366
▁Stainless	-2367
ING	-2368
ales	-2369
ີຣົບ	-2370
▁ກະລ	-2371
▁West	-2372
▁ວັດສະດຸ	-2373
ນ້	-2374
ົ໋	-2375
ໄກ	-2376
cts	-2377
ສະຫ	-2378
ືອບ	-2379
ໂຮງງານຜະລິດ	-2380
ited	-2381
eting	-2382
▁ອັດຕະໂນມັດ	-2383
HS	-2384
WS	-2385
bon	-2386
hai	-2387
urg	-2388
▁IT	-2389
ສັ່ງ	-2390
▁Cage	-2391
▁ເຊັ່ນ	-2392
ໃຊ້ຈ່າຍ	-2393
▁Contact	-2394
▁ອຸປະກອນການ	-2395
ການຝຶກອົບຮົມ	-2396
idth	-2397
vent	-2398
ກ່ວາ	-2399
▁Glo	-2400
▁ວຽກ	-2401
▁Park	-2402
ຕາເວັນ	-2403
ພຽງແຕ່	-2404
ຖືກຕ້ອງ	-2405
ຸຂ	-2406
▁CS	-2407
▁bl	-2408
ຈໍ	-2409
ION	-2410
ບ່ງ	-2411
ພຣະ	-2412
ຮອງ	-2413
▁ໂຄງການ	-2414
ເຂົາເຈົ້າ	-2415
▁05	-2416
ເພາະ	-2417
▁ແນວ	-2418
meric	-2419
ເມລິກາ	-2420
uit	-2421
▁Af	-2422
▁FRE	-2423
ຈໍາກັດ	-2424
▁ກຸມພາ	-2425
▁Gl	-2426
▁con	-2427
▁ທີ່ດີ	-2428
▁ວິດີໂອ	-2429
▁ສິ່ງທີ່	-2430
ທີ່ກ່ຽວຂ້ອງ	-2431
38	-2432
ient	-2433
▁PTFE	-2434
▁Shop	-2435
ໂຄສະນາ	-2436
▁Download	-2437
▁Zhejiang	-2438
▁ເຄື່ອງມື	-2439
ma	-2440
ise	-2441
rade	-2442
ights	-2443
ເຫຼືອ	-2444
ຂົນສົ່ງ	-2445
ດໍາເນີນ	-2446
ith	-2447
ply	-2448
ບາງ	-2449
ຫີນ	-2450
ຂ້ອຍ	-2451
▁Gold	-2452
▁Vacc	-2453
ໄດ້ຖືກ	-2454
▁Magnet	-2455
▁ວິນາທີ	-2456
▁ບໍລິການ	-2457
ero	-2458
ຊຸດ	-2459
ໂຫຍ	-2460
▁am	-2461
▁he	-2462
ວິຊາ	-2463
▁Gas	-2464
▁ຕັດ	-2465
▁ໄມ້	-2466
ມື້ນີ້	-2467
31	-2468
AP	-2469
ify	-2470
ley	-2471
oss	-2472
ຍລະ	-2473
▁pr	-2474
▁XXL	-2475
▁ຖານ	-2476
ann	-2477
▁wh	-2478
ຊັ້ນ	-2479
ຕ້ອນ	-2480
▁ກ່ຽວ	-2481
▁ນິ້ວ	-2482
ການຄ້າ	-2483
77	-2484
ທັບ	-2485
▁RFC	-2486
▁FREE	-2487
▁ຂອງທ່ານ	-2488
▁Aluminum	-2489
TC	-2490
ft	-2491
nc	-2492
້ຍ	-2493
dle	-2494
ifi	-2495
▁ຜົງ	-2496
▁ຕ້ອງ	-2497
ສົມບູນ	-2498
ິ່ນປົວ	-2499
oph	-2500
▁75	-2501
▁ອິນ	-2502
ຄາດຄະເນ	-2503
▁Americ	-2504
ys	-2505
ສາກ	-2506
avid	-2507
▁Ass	-2508
ational	-2509
▁ຜູ້ສະຫນອງ	-2510
68	-2511
MC	-2512
ືອງ	-2513
ະຊົນ	-2514
itter	-2515
ພະນັນ	-2516
ສັງຄົມ	-2517
ຸ້ມຄອງ	-2518
ings	-2519
ປະມານ	-2520
▁Chalk	-2521
ກ່ອນຫນ້ານີ້	-2522
ນິກ	-2523
ສຸກ	-2524
ໂຫຼດ	-2525
▁ຕອບ	-2526
▁ນັບ	-2527
ລົດໄຟ	-2528
▁Road	-2529
ຍລະມັນ	-2530
ເວັບໄຊ	-2531
ສອນ	-2532
▁ເຢ	-2533
ບ່ອນ	-2534
color	-2535
ridge	-2536
▁ແກ້ວ	-2537
ທີ່ຢູ່	-2538
▁Double	-2539
els	-2540
eth	-2541
▁XX	-2542
▁ເຄ	-2543
▁Ide	-2544
chain	-2545
▁Whit	-2546
▁Shenz	-2547
▁Vaccine	-2548
ເຄື່ອງພິມ	-2549
▁Conveyor	-2550
ສັກ	-2551
ິນດີ	-2552
ສູງສຸດ	-2553
▁Print	-2554
ສະຫນັບສະຫນູນ	-2555
IA	-2556
▁01	-2557
ການຈັດ	-2558
▁Certs	-2559
▁Price	-2560
▁Custom	-2561
▁Shenzhen	-2562
▁Microsoft	-2563
▁ສະລັອດຕິງ	-2564
ລົມ	-2565
ສົດ	-2566
ound	-2567
ກ່າວ	-2568
asino	-2569
ເລກທີ	-2570
▁Roll	-2571
▁ໂຫລດ	-2572
ຕ້ອນຮັບ	-2573
▁ຝ	-2574
▁Oce	-2575
▁Mini	-2576
ແຕກຕ່າງ	-2577
:00	-2578
ais	-2579
pro	-2580
▁Gre	-2581
▁Lin	-2582
▁ຄະນະ	-2583
▁Forex	-2584
▁ຄວາມຫນາ	-2585
ເຊື່ອມຕໍ່	-2586
ize	-2587
ຂີ້ເ	-2588
▁Rem	-2589
ກໍ່ສ້າງ	-2590
32	-2591
▁z	-2592
ory	-2593
ates	-2594
▁20%	-2595
▁ພາບ	-2596
▁ສະຖານທີ່	-2597
▁Polyester	-2598
▁໌	-2599
-201	-2600
ເຂັ້ມ	-2601
▁0086	-2602
ວະ	-2603
ອະ	-2604
ເຫດ	-2605
▁NE	-2606
ປະຊາ	-2607
ສບຸກ	-2608
ເທິງ	-2609
▁Heng	-2610
ກໍານົດ	-2611
ຸຂະພາບ	-2612
ົ່ວໂມງ	-2613
▁Chang	-2614
/0	-2615
AY	-2616
by	-2617
ence	-2618
land	-2619
▁ດ້ວຍ	-2620
vanized	-2621
▁Rotary	-2622
▁ສະຫນັບສະຫນູນ	-2623
box	-2624
amic	-2625
▁ຂັ້ນ	-2626
▁crypto	-2627
▁ທີ່ດີທີ່ສຸດ	-2628
ກ້	-2629
▁Me	-2630
ross	-2631
ເກີດ	-2632
▁Hol	-2633
▁XXXL	-2634
asting	-2635
rusher	-2636
ກໍາລັງ	-2637
IP	-2638
▁ໄວ	-2639
▁Art	-2640
▁Med	-2641
ystem	-2642
▁ກະລຸນາ	-2643
▁Univers	-2644
4,	-2645
ົນຕີ	-2646
▁PDF	-2647
ປະກັນ	-2648
▁ລ້ານ	-2649
▁ພະຈິກ	-2650
ຄຸ້ມຄອງ	-2651
▁Square	-2652
▁ຕາຕະລາງ	-2653
rew	-2654
ດູດ	-2655
▁Des	-2656
ື່ອນໄຂ	-2657
ຈຸດ	-2658
▁Hot	-2659
▁Mod	-2660
ເຄື່ອນ	-2661
cc	-2662
ກອບ	-2663
▁ໄທ	-2664
▁Pet	-2665
otian	-2666
48	-2667
▁3,	-2668
▁as	-2669
ໂຫຍດ	-2670
▁ວົງ	-2671
▁Email	-2672
▁ມິຖຸນາ	-2673
▁ຮູບແບບ	-2674
bag	-2675
ພະຍ	-2676
osit	-2677
▁ທີ່ມີ	-2678
ເດັກນ້ອຍ	-2679
▁Pack	-2680
ອັງກິດ	-2681
▁Global	-2682
▁WhatsApp	-2683
▁ສໍາລັບຜູ້ຊາຍ	-2684
-7	-2685
:0	-2686
oor	-2687
ຈອນ	-2688
ຊອກ	-2689
ຊີ້	-2690
ຽວກ	-2691
▁Pe	-2692
ibbe	-2693
▁Rel	-2694
▁ຊອບແວ	-2695
ຕັ້ງແຕ່	-2696
▁Br	-2697
▁ເງ	-2698
▁ປະສ	-2699
▁ສານ	-2700
ກົດດັນ	-2701
ທົດສອບ	-2702
ແທ້ຈິງ	-2703
▁ທ່ານສາມາດ	-2704
ກິ	-2705
-01	-2706
-10	-2707
ຄຸນ	-2708
▁To	-2709
▁ອະ	-2710
ideo	-2711
ດັ່ງ	-2712
▁ການອອກແບບ	-2713
3,	-2714
ໄທ	-2715
ທາດ	-2716
້າມ	-2717
▁at	-2718
▁ແປ	-2719
ille	-2720
ຫນັງ	-2721
▁Ton	-2722
ແມ່ເຫຼັກ	-2723
ເຄື່ອງຈັກ	-2724
ster	-2725
ໍາລະ	-2726
imited	-2727
▁ສະພາບ	-2728
▁ສະແດງ	-2729
ໂທລະສັບມືຖື	-2730
St	-2731
uay	-2732
▁Im	-2733
▁Ox	-2734
ບ້ານ	-2735
▁app	-2736
▁ກອນ	-2737
ຕິດຕາມ	-2738
ເວັບໄຊທ໌	-2739
▁Whiteboard	-2740
▁ການເດີນທາງ	-2741
Hz	-2742
ແພດ	-2743
ຊ້າງ	-2744
ຫຍື້ອ	-2745
▁ທັນວາ	-2746
ອັດ	-2747
▁ວາວ	-2748
ingle	-2749
ຈະກໍາ	-2750
ສະອາດ	-2751
ສິນຄ້າ	-2752
ປົກກະຕິ	-2753
▁qu	-2754
ives	-2755
ement	-2756
leton	-2757
▁ເຄື່ອງຕັດ	-2758
96	-2759
ດູ	-2760
▁cs	-2761
▁+86	-2762
▁OEM	-2763
▁ນອກ	-2764
▁Light	-2765
ສະແຕນເລດ	-2766
ິນດີຕ້ອນຮັບ	-2767
the	-2768
▁en	-2769
▁ww	-2770
reet	-2771
ເລັກ	-2772
▁Dri	-2773
ຽວກັນ	-2774
່ຽນແປງ	-2775
ຄວາມຮ້ອນ	-2776
▁Laotian	-2777
900	-2778
ush	-2779
ົ່ມ	-2780
ແອວ	-2781
▁Ext	-2782
▁ຖືກ	-2783
▁ເຫັນ	-2784
37	-2785
4)	-2786
ເດຍ	-2787
ider	-2788
▁Dig	-2789
ໂພ	-2790
▁DC	-2791
▁Fo	-2792
▁ຫະ	-2793
dong	-2794
ແກ້ວ	-2795
ແຫ້ງ	-2796
▁Pay	-2797
▁Tra	-2798
▁are	-2799
▁ຫນາ	-2800
9001,	-2801
elash	-2802
ບັນທຶກ	-2803
ຂັບ	-2804
ອິນ	-2805
▁55	-2806
▁He	-2807
ragm	-2808
▁ລົງ	-2809
▁motor	-2810
tattoos	-2811
ec	-2812
urn	-2813
ຈັນ	-2814
erry	-2815
າບັນ	-2816
▁www	-2817
3.	-2818
ຂອບ	-2819
▁PL	-2820
ingd	-2821
▁Bul	-2822
ປະທານ	-2823
ອາຊີບ	-2824
▁News	-2825
ທີ່ບໍ່	-2826
aphragm	-2827
ສະຖານທີ່	-2828
ຕາຕ	-2829
▁Mac	-2830
▁info	-2831
coiler	-2832
▁Group	-2833
ເລີ່ມຕົ້ນ	-2834
ຈິ	-2835
300	-2836
▁ST	-2837
ella	-2838
ສັງເຄາະ	-2839
▁ໃບຢັ້ງຢືນ	-2840
ots	-2841
▁Er	-2842
ຄັ້ງ	-2843
▁120	-2844
▁Smart	-2845
):	-2846
sc	-2847
orr	-2848
▁Spe	-2849
▁Mold	-2850
▁ຮ້ອນ	-2851
An	-2852
ທັດ	-2853
▁ບໍ	-2854
ance	-2855
iant	-2856
▁ນາທີ	-2857
keleton	-2858
hu	-2859
rol	-2860
▁CR	-2861
ibbean	-2862
▁tattoot	-2863
▁Caribbean	-2864
uper	-2865
▁Sep	-2866
▁ແຮງ	-2867
Hebei	-2868
▁that	-2869
▁Afric	-2870
▁David	-2871
▁ເສັ້ນໃຍ	-2872
▁tattoostattoo	-2873
aj	-2874
yn	-2875
hon	-2876
ວົງ	-2877
itch	-2878
▁ປັບ	-2879
ilicon	-2880
▁Phone	-2881
▁Copier	-2882
▁ຫົວຂໍ້	-2883
MG	-2884
MS	-2885
ange	-2886
▁ຕາມ	-2887
▁Dong	-2888
▁Mill	-2889
▁ຝຸ່ນ	-2890
ປັບ	-2891
▁BO	-2892
▁NC	-2893
▁it	-2894
ສະຕິກ	-2895
▁Other	-2896
▁ການນໍາໃຊ້	-2897
5)	-2898
ຍົນ	-2899
▁Li	-2900
▁ຄູ	-2901
sung	-2902
ແຈ້ງ	-2903
▁APK	-2904
▁Cle	-2905
ວັນທີ	-2906
▁Middle	-2907
PE	-2908
ນາ	-2909
▁Ed	-2910
/201	-2911
ຜ່ອນ	-2912
ຫລາຍ	-2913
▁800	-2914
▁ຕູ້	-2915
▁ເອົາ	-2916
ແມ່ຍິງ	-2917
ທະຍາສາດ	-2918
ordpress	-2919
esh	-2920
ສູດ	-2921
▁ac	-2922
loem	-2923
ຂ້າງ	-2924
▁ພຣະ	-2925
ປະຈໍາ	-2926
▁ແຂວງ	-2927
▁Africa	-2928
▁Samloem	-2929
3)	-2930
inj	-2931
ພົບ	-2932
▁or	-2933
work	-2934
çais	-2935
ກໍລະ	-2936
ເປົ໋	-2937
▁Mon	-2938
ກໍາມະ	-2939
▁Street	-2940
ຜ່າ	-2941
▁ໃຈ	-2942
aper	-2943
▁Coil	-2944
ວິທີການ	-2945
▁System	-2946
:5	-2947
SP	-2948
rib	-2949
▁UK	-2950
view	-2951
▁600	-2952
▁ກິດ	-2953
alian	-2954
▁Pump	-2955
ເຄືອຂ່າຍ	-2956
▁ເອກະຊົນ	-2957
ແຕກຕ່າງກັນ	-2958
46	-2959
alt	-2960
▁lo	-2961
▁ne	-2962
▁Tattoo	-2963
ຂີ້ເຫຍື້ອ	-2964
▁Chalkboard	-2965
▁ໂລກ	-2966
▁ທົ່ວ	-2967
ອັບເດດ	-2968
▁Super	-2969
▁Company	-2970
▁Oceania	-2971
▁ຫຼັງຈາກ	-2972
▁Blockchain	-2973
▁ກ່ຽວກັບພວກເຮົາ	-2974
▁ອັດ	-2975
ອີເມວ	-2976
ບຸກຄົນ	-2977
ປະໂຫຍດ	-2978
▁Americas	-2979
າຊ	-2980
▁TO	-2981
ຫຍໍ້	-2982
ເຕັມ	-2983
▁Red	-2984
ຄວາມໄວ	-2985
▁Sheet	-2986
▁Fitting	-2987
osh	-2988
▁61	-2989
ລ້ອມ	-2990
▁Dry	-2991
enter	-2992
ຊໍາລະ	-2993
irtual	-2994
ຕົວຢ່າງ	-2995
▁design	-2996
ເຂົ້າຮ່ວມ	-2997
gan	-2998
ເຄືອບ	-2999
▁1500	-3000
ປ້ອງກັນ	-3001
ິຈິ	-3002
ແຮ່	-3003
▁us	-3004
▁reply	-3005
▁ສະຫະລັດ	-3006
ກ່ຽວກັບການ	-3007
▁ການບໍລິການ	-3008
97	-3009
ury	-3010
ນອກ	-3011
ເອດ	-3012
▁CE	-3013
ທ່ອງ	-3014
ມີການ	-3015
▁ປະຕູ	-3016
▁Skeleton	-3017
▁ເຫມາະສົມ	-3018
ext	-3019
ife	-3020
ຂັ້ນ	-3021
▁ຂອບ	-3022
ຂອງຕົນ	-3023
▁Flash	-3024
▁ເຄືອບ	-3025
▁Bitcoin	-3026
▁Français	-3027
ips	-3028
sul	-3029
ຍົກ	-3030
▁04	-3031
char	-3032
curr	-3033
oint	-3034
ript	-3035
ຄວ້າ	-3036
ໃນປີ	-3037
▁2012	-3038
▁Zone	-3039
▁ສູງສຸດ	-3040
▁Digital	-3041
▁Solenoid	-3042
▁ສະພາບອາກາດ	-3043
onda	-3044
ouse	-3045
ຂື້ນ	-3046
▁mod	-3047
▁ທຸກ	-3048
▁ບົບ	-3049
.2018	-3050
eramic	-3051
▁ລະດັບ	-3052
ຕຸ	-3053
rui	-3054
reat	-3055
▁Pan	-3056
▁ຄັ້ງ	-3057
▁ເວລາ	-3058
ພວກເຂົາ	-3059
ືມ	-3060
ars	-3061
▁ຢາ	-3062
rush	-3063
▁2010	-3064
▁https	-3065
▁ເວົ້າ	-3066
▁wordpress	-3067
6)	-3068
ໍເຕີ	-3069
glass	-3070
▁ກຸ່ມ	-3071
▁→	-3072
iff	-3073
omb	-3074
uts	-3075
ຖ່າຍ	-3076
▁(1,	-3077
▁dis	-3078
▁Long	-3079
▁admin	-3080
94	-3081
umb	-3082
ົ້ມ	-3083
ທ່ຽວ	-3084
▁spring	-3085
CL	-3086
ລາສ	-3087
▁Bu	-3088
▁IF	-3089
▁TR	-3090
▁Sur	-3091
ified	-3092
riend	-3093
▁Samsung	-3094
▁ຊົ່ວໂມງ	-3095
▁ອຸນຫະພູມ	-3096
SC	-3097
fin	-3098
ມໄຟ	-3099
▁Mc	-3100
ຕາລີ	-3101
ລິມານ	-3102
▁ດັ່ງ	-3103
ວິດີໂອ	-3104
▁ເສື້ອ	-3105
ທີ່ມີຄວາມ	-3106
▁Ap	-3107
mark	-3108
▁Can	-3109
ລາຍການ	-3110
▁Photo	-3111
ata	-3112
led	-3113
ຍານ	-3114
▁32	-3115
oter	-3116
▁ປົກ	-3117
▁ຮັກ	-3118
▁Mult	-3119
▁Dread	-3120
▁Honda	-3121
▁ສີແດງ	-3122
▁ເຊື່ອ	-3123
ວ່າທ່ານ	-3124
▁ກໍລະກົດ	-3125
▁ຍິນດີຕ້ອນຮັບ	-3126
ີ່ປ	-3127
ຸ່ງ	-3128
▁ໂອ	-3129
izer	-3130
▁che	-3131
▁Copy	-3132
ທີ່ເປັນ	-3133
national	-3134
SM	-3135
Sh	-3136
vc	-3137
ຣກ	-3138
▁≤	-3139
ລະບ	-3140
່ໍາ	-3141
▁SH	-3142
▁ອີ	-3143
▁Par	-3144
▁Shi	-3145
▁ກວດ	-3146
ສູນກາງ	-3147
OL	-3148
off	-3149
ແວດ	-3150
ling	-3151
ylon	-3152
▁Box	-3153
▁Ray	-3154
▁pre	-3155
▁ຍັງ	-3156
ເຊື້ອ	-3157
ເອີຣົບ	-3158
່ຽວຊານ	-3159
ສະຫວ່າງ	-3160
ເຫມາະສົມ	-3161
▁ທໍາມະຊາດ	-3162
▁31	-3163
ທາລະ	-3164
ອາທິດ	-3165
▁Muay	-3166
currency	-3167
67	-3168
oz	-3169
ays	-3170
ຊັບ	-3171
ໍ້າ	-3172
unch	-3173
▁400	-3174
▁ໄລຍະ	-3175
▁Shang	-3176
▁ເຟສບຸກ	-3177
▁ເງິນຝາກ	-3178
84	-3179
ໄສ	-3180
ຂາດ	-3181
ຫວັດ	-3182
▁250	-3183
▁And	-3184
▁ພະນ	-3185
▁Mess	-3186
▁University	-3187
NS	-3188
່ວງ	-3189
▁--	-3190
▁ຂໍ	-3191
▁ແຕ	-3192
▁res	-3193
eless	-3194
▁Seal	-3195
ປະສິດທິພາບ	-3196
ane	-3197
ani	-3198
enn	-3199
ກ້າ	-3200
ຂຽວ	-3201
ມະນ	-3202
....	-3203
ford	-3204
form	-3205
ible	-3206
▁ມາດ	-3207
agram	-3208
cooter	-3209
ແວດລ້ອມ	-3210
▁Hengrui	-3211
ຂະຫນາດໃຫຍ່	-3212
olt	-3213
▁Cor	-3214
▁iOS	-3215
▁Case	-3216
PA	-3217
້ຽງ	-3218
onic	-3219
shop	-3220
▁Key	-3221
▁Best	-3222
ລົງທຶນ	-3223
ິຈິຕອນ	-3224
▁Motor	-3225
ຄົ້ນຄວ້າ	-3226
ມາດຕະຖານ	-3227
▁Italian	-3228
9,	-3229
aff	-3230
ids	-3231
▁ອຸ	-3232
▁Dep	-3233
▁ກັດ	-3234
▁ພັກ	-3235
ທົດລອງ	-3236
▁Single	-3237
ບນ	-3238
ວ່	-3239
▁FX	-3240
▁op	-3241
▁ວາ	-3242
ອື່ນ	-3243
▁ລູກ	-3244
▁Video	-3245
▁Products	-3246
ati	-3247
ibr	-3248
ຈິດ	-3249
▁Net	-3250
▁can	-3251
▁ສິນ	-3252
irect	-3253
▁jack	-3254
ເຂັ້ມແຂງ	-3255
▁bitcoin	-3256
ຊໍາລະເງິນ	-3257
▁%	-3258
lee	-3259
ove	-3260
ູ້ນ	-3261
ແລນ	-3262
▁PM	-3263
▁Si	-3264
ຂວາງ	-3265
▁Cal	-3266
ຊອກຫາ	-3267
▁Auto	-3268
▁width	-3269
ເວລາທີ່	-3270
▁ເວັບໄຊ	-3271
IF	-3272
VMG	-3273
ຍືດ	-3274
ແລກ	-3275
gram	-3276
▁ກິລາ	-3277
ທາງດ້ານ	-3278
UT	-3279
ຊິກ	-3280
▁an	-3281
▁ຍາ	-3282
ific	-3283
ແຂ່ງ	-3284
ອບຄົວ	-3285
ເປົ໋າ	-3286
▁Design	-3287
▁ພື້ນທີ່	-3288
ສະລັອດຕິງ	-3289
▁Software	-3290
ໄຫມ	-3291
▁1:	-3292
▁Per	-3293
▁ຕື່ມ	-3294
▁ເຂັມ	-3295
ີ່ປຸ່ນ	-3296
▁ວັນທີ	-3297
▁Machin	-3298
▁Archives	-3299
▁ຂອງພວກເຮົາ	-3300
9)	-3301
ັສ	-3302
ird	-3303
ທູ້	-3304
raft	-3305
utor	-3306
ລະປະ	-3307
▁19,	-3308
ເວົ້າ	-3309
▁ຈ່າຍ	-3310
ແລະຄວາມ	-3311
▁ພະນັກງານ	-3312
uss	-3313
vin	-3314
▁Opt	-3315
▁Tem	-3316
▁ບຸກ	-3317
allet	-3318
ຖາບັນ	-3319
ົ່ານີ້	-3320
▁ອີເມວ	-3321
ຄອມພິວເຕີ	-3322
ຮ້ອງສະຫມັກ	-3323
UM	-3324
pot	-3325
ret	-3326
ບວນ	-3327
▁36	-3328
▁ໂຄງ	-3329
▁Iron	-3330
ແລະອື່ນໆ	-3331
▁Diaphragm	-3332
CD	-3333
nd	-3334
pcs	-3335
▁ກູ	-3336
▁ສວນ	-3337
ition	-3338
▁ການປັບປຸງ	-3339
raw	-3340
ຍົມ	-3341
ດາຍ	-3342
ຜັງ	-3343
ລິນ	-3344
ັອກ	-3345
▁Ge	-3346
ouch	-3347
▁17,	-3348
▁ຊົມ	-3349
▁ສຽງ	-3350
ສະຖານ	-3351
ສີຂາວ	-3352
▁Cart	-3353
▁ຫມໍ້	-3354
▁Slots	-3355
ລັກສະນະ	-3356
ແຫ່ງຊາດ	-3357
▁ຮູບເງົາ	-3358
ການຈັດຕັ້ງ	-3359
▁ສະບັບເລກທີ	-3360
ຂາ	-3361
ພີ	-3362
ທຽບ	-3363
ateg	-3364
▁Esp	-3365
▁ດໍາ	-3366
ວນຊົນ	-3367
▁Hand	-3368
▁IFMA	-3369
ບ່ງປັນ	-3370
່ານຫີນ	-3371
añ	-3372
▁ໆ	-3373
oud	-3374
ຊົມ	-3375
pper	-3376
▁ປ້າຍ	-3377
▁ບັນທຶກ	-3378
ວິທະຍາໄລ	-3379
ເຂົ້າເຖິງ	-3380
ms	-3381
its	-3382
ດຽວ	-3383
ື້ມ	-3384
here	-3385
▁gal	-3386
▁ສັດ	-3387
lythe	-3388
▁poly	-3389
▁Toner	-3390
ພື້ນທີ່	-3391
ott	-3392
ຊອບ	-3393
very	-3394
ດຽວກັນ	-3395
ພວກເຮົ	-3396
▁Cheat	-3397
ຢ້ຽມຢາມ	-3398
▁ອອກແບບ	-3399
ຜົນກະທົບ	-3400
▁ຫນ້າທາງການ	-3401
▁ເສັ້ນໃຍສັງເຄາະ	-3402
AG	-3403
ໂຕຣ	-3404
▁vs	-3405
ຄະນະ	-3406
ປ້ອນ	-3407
ເພັດ	-3408
▁casino	-3409
▁Portable	-3410
▁ເງື່ອນໄຂ	-3411
47	-3412
ari	-3413
uki	-3414
▁cm	-3415
▁se	-3416
▁ຕິ	-3417
▁ໄລ	-3418
añol	-3419
າຍາມ	-3420
▁Max	-3421
▁2000	-3422
ingdao	-3423
ຮ່ວມມື	-3424
▁ອື່ນໆ	-3425
ວັດສະດຸ	-3426
ສຸຂະພາບ	-3427
ven	-3428
▁Is	-3429
▁kr	-3430
▁sk	-3431
fish	-3432
▁Gar	-3433
▁Tri	-3434
▁ບານ	-3435
ering	-3436
ສາກົນ	-3437
▁ແລ້ວ	-3438
ຕົນເອງ	-3439
▁China	-3440
▁sales	-3441
▁ກະດານ	-3442
▁ເຫຼັກ	-3443
ວິຊາການ	-3444
ທາງເລືອກ	-3445
ະລູມິນຽມ	-3446
ື່ມວນຊົນ	-3447
▁ມາດຕະຖານ	-3448
js	-3449
ຄຣ	-3450
ພູ	-3451
tom	-3452
ຫົ່ມ	-3453
ໄປໃນ	-3454
▁ສິດ	-3455
8,	-3456
SD	-3457
als	-3458
ໃກ້	-3459
▁Dec	-3460
▁Blog	-3461
▁Hebei	-3462
▁Mount	-3463
▁ເຮືອນ	-3464
ຊອບແວຫຼາຍ	-3465
ເຕັກໂນໂລຊີ	-3466
ໃນປັດຈຸບັນ	-3467
▁ເບິ່ງຊອບແວຫຼາຍ	-3468
SS	-3469
cel	-3470
ໂຄງ	-3471
▁65	-3472
▁PP	-3473
ຫຼ່ງ	-3474
ເນັດ	-3475
▁Pox	-3476
▁lot	-3477
▁ຂ້າ	-3478
▁ລັກ	-3479
ສົນໃຈ	-3480
▁Foam	-3481
▁ຫນັກ	-3482
ຈັດການ	-3483
▁Crack	-3484
ທີ່ແທ້ຈິງ	-3485
1)	-3486
ຂໍ	-3487
ຂັນ	-3488
rome	-3489
▁One	-3490
▁Tur	-3491
ເລກຸນ	-3492
ເດັກຍິງ	-3493
▁ແຮງດັນ	-3494
▁Qingdao	-3495
▁Guangzhou	-3496
▁International	-3497
TM	-3498
unn	-3499
ves	-3500
▁ໂກ	-3501
▁Inc	-3502
eather	-3503
ໂດຍກົງ	-3504
ປະຊາຊົນ	-3505
ເງິນຝາກ	-3506
▁Shopify	-3507
▁Uncoiler	-3508
▁butterfly	-3509
66	-3510
7,	-3511
ຶງ	-3512
uff	-3513
ລັບ	-3514
ສາວ	-3515
▁4,	-3516
▁TH	-3517
▁sl	-3518
ayer	-3519
ຫຼຸດ	-3520
ature	-3521
ຄວນຮູ້	-3522
ສ່ວນຕົວ	-3523
ອາເມລິກາ	-3524
ເຄື່ອງມື	-3525
▁ສະພາບອາກາດໃນ	-3526
UD	-3527
ces	-3528
ວາວ	-3529
ອີງ	-3530
ເຈນ	-3531
▁06	-3532
▁We	-3533
atin	-3534
shan	-3535
▁type	-3536
ົ່ານັ້ນ	-3537
▁ແລະການ	-3538
ການປັບປຸງ	-3539
UN	-3540
ACK	-3541
ລໍ້	-3542
▁(5	-3543
▁Kn	-3544
▁Ly	-3545
▁NO	-3546
ເຄມີ	-3547
▁Fac	-3548
▁ວິທີ	-3549
▁Organ	-3550
▁laser	-3551
▁ໃນການ	-3552
▁ລູກຄ້າ	-3553
▁ຢ້ຽມຢາມ	-3554
UB	-3555
ແຍ	-3556
▁·	-3557
-15	-3558
cer	-3559
▁48	-3560
▁By	-3561
iane	-3562
ປະຕິ	-3563
▁ສົນ	-3564
▁Tape	-3565
▁ໃຫຍ່	-3566
unction	-3567
▁ຄໍາຖາມ	-3568
▁ແຜນຜັງ	-3569
▁ເດັກນ້ອຍ	-3570
▁ປະຕິບັດຕາມ	-3571
irc	-3572
jia	-3573
oom	-3574
raz	-3575
ຄົງ	-3576
ເທີ	-3577
perb	-3578
ebook	-3579
ຕົ້ນຕໍ	-3580
ຫຍໍ້ຂອງ	-3581
ລາຍລະອຽດ	-3582
SA	-3583
elf	-3584
້ວນ	-3585
▁85	-3586
▁Uk	-3587
udio	-3588
▁(1)	-3589
▁0.1	-3590
▁70%	-3591
▁Log	-3592
▁Ref	-3593
ragon	-3594
ແຫນ່ງ	-3595
▁Plus	-3596
allery	-3597
ຄາສິໂນ	-3598
ໃຫ້ເຫັນ	-3599
▁ເພີ່ມເຕີມ	-3600
43	-3601
esc	-3602
ຫລັງ	-3603
▁Har	-3604
▁sol	-3605
▁ກໍ່	-3606
▁ສອງ	-3607
ສະພາບ	-3608
ຊ່ຽວຊານ	-3609
ໍາແຫນ່ງ	-3610
▁ເຊື່ອມ	-3611
!!	-3612
ກະດ	-3613
▁03	-3614
▁tr	-3615
▁up	-3616
itor	-3617
▁Bar	-3618
▁ລັງ	-3619
ations	-3620
ສະເພາະ	-3621
ສົມບັດ	-3622
ຮັບຮອງ	-3623
ໃນໄລຍະ	-3624
ຫຼັງຈາກ	-3625
Wh	-3626
ye	-3627
ປປ	-3628
.10	-3629
rick	-3630
▁HGH	-3631
▁Jan	-3632
▁Test	-3633
ຈະເປັນ	-3634
ientiane	-3635
perbaric	-3636
▁ຄ່າໃຊ້ຈ່າຍ	-3637
▁ຊື່ຫຍໍ້ຂອງ	-3638
▁cryptocurrency	-3639
ili	-3640
ເກດ	-3641
▁99	-3642
▁MB	-3643
▁MH	-3644
▁SP	-3645
rans	-3646
▁PCB	-3647
▁comp	-3648
ລາງວັນ	-3649
▁Apple	-3650
▁ໂຮງແຮມ	-3651
ກອງປະຊຸມ	-3652
ທ່ອງທ່ຽວ	-3653
▁Twitter	-3654
▁ແມ່ນຫຍັງ	-3655
ຂະຫນາດນ້ອຍ	-3656
▁ການຄາດຄະເນ	-3657
▁9:	-3658
ລຸ້ນ	-3659
▁Aug	-3660
▁Bur	-3661
ments	-3662
GO	-3663
ັກຊ	-3664
▁Sn	-3665
▁ປາ	-3666
oney	-3667
ສະມາ	-3668
▁ງານ	-3669
ທີ່ນີ້	-3670
▁Stick	-3671
ພື້ນຖານ	-3672
▁ມັນເປັນ	-3673
▁ກອງປະຊຸມ	-3674
▁ການກັ່ນຕອງ	-3675
▁ການປະຕິບັດ	-3676
▁ແນວຄວາມຄິດ	-3677
LC	-3678
▁້	-3679
ild	-3680
unt	-3681
ຖ້າ	-3682
▁EN	-3683
▁ຫວ	-3684
oooo	-3685
▁Wir	-3686
▁per	-3687
istrib	-3688
zhuang	-3689
▁Flight	-3690
▁ຄົ້ນຫາ	-3691
ປະສົບການ	-3692
ກວ້າງຂວາງ	-3693
▁ສິ່ງທີ່ຄວນຮູ້	-3694
yan	-3695
ລໍາ	-3696
ເດີ	-3697
▁(2	-3698
▁64	-3699
ຍ່ອຍ	-3700
ມງານ	-3701
▁020	-3702
▁Roy	-3703
ransp	-3704
ville	-3705
▁Book	-3706
▁Page	-3707
▁csgo	-3708
▁wood	-3709
tattoo	-3710
ງ່າຍດາຍ	-3711
ເຕີເນັດ	-3712
▁Center	-3713
▁ຕິດຕາມ	-3714
aricella	-3715
ຄວາມເປັນ	-3716
▁Dreadbag	-3717
▁Fittings	-3718
▁Instagram	-3719
lin	-3720
ເຊີ	-3721
▁RO	-3722
▁SE	-3723
play	-3724
ຫລັກ	-3725
▁Belt	-3726
▁Miss	-3727
▁Wire	-3728
▁ເລີ່ມ	-3729
ມືອາຊີບ	-3730
ສົນທະນາ	-3731
ການນໍາໃຊ້	-3732
▁ປະເທດຈີນ	-3733
▁ເຕັກໂນໂລຊີ	-3734
7)	-3735
ມິ	-3736
856	-3737
eet	-3738
າວິ	-3739
ages	-3740
ຣັ່ງ	-3741
ອາຍຸ	-3742
▁Non	-3743
▁Xin	-3744
ບັນຫາ	-3745
ຫນ້ອຍ	-3746
▁Prec	-3747
▁ຂ້ອຍ	-3748
ເອກະສານ	-3749
▁ກົດຫມາຍ	-3750
▁ສະແຕນເລດ	-3751
ການກັ່ນຕອງ	-3752
71	-3753
8)	-3754
ແຜ	-3755
▁125	-3756
▁21,	-3757
▁ຖາມ	-3758
▁ຝຶກ	-3759
ເຊົ່າ	-3760
▁Card	-3761
▁ຄຸນນະພາບ	-3762
ຜິວ	-3763
ົ້ວ	-3764
▁El	-3765
▁Zh	-3766
GVMG	-3767
atal	-3768
chor	-3769
ຄຣິດ	-3770
ະນິດ	-3771
ະສາດ	-3772
▁Ang	-3773
ໂຮງແຮມ	-3774
▁ປະກອບ	-3775
ຄໍາເຫັນ	-3776
ແຂ່ງຂັນ	-3777
▁ລວມທັງ	-3778
▁ພວກເຮົາມີ	-3779
su	-3780
ett	-3781
▁ແວ	-3782
▁ໄຊ	-3783
aint	-3784
ນຸ່ງ	-3785
▁CAS	-3786
▁Ult	-3787
▁ກອບ	-3788
▁ສປປ	-3789
aster	-3790
▁Doll	-3791
▁ຫມວດ	-3792
▁Solut	-3793
ຫ້ອງການ	-3794
ປະເພດຂອງ	-3795
ຊ່ວຍເຫຼືອ	-3796
ການເຮັດວຽກ	-3797
BS	-3798
riv	-3799
▁Oc	-3800
reak	-3801
▁110	-3802
▁220	-3803
▁Hat	-3804
▁dev	-3805
▁BOOD	-3806
▁Holm	-3807
▁Jack	-3808
▁ຊ່ວຍ	-3809
▁ເວັບ	-3810
limited	-3811
▁Español	-3812
ara	-3813
iac	-3814
ລູກ	-3815
▁CC	-3816
back	-3817
urch	-3818
▁jet	-3819
embly	-3820
verter	-3821
▁ຖ້າຫາກ	-3822
ທີ່ແຕກຕ່າງກັນ	-3823
89	-3824
On	-3825
ໂສ	-3826
ohn	-3827
▁20,	-3828
▁Pin	-3829
▁Sch	-3830
ມະນຸດ	-3831
ສັນຍາ	-3832
▁Fram	-3833
ulator	-3834
ກັບການ	-3835
ບວນການ	-3836
ຜິດຊອບ	-3837
ນະໂຍບາຍ	-3838
ເກັບຮັກສາ	-3839
▁Shanghai	-3840
72	-3841
-12	-3842
nes	-3843
ສິກ	-3844
ແນກ	-3845
▁02	-3846
▁IN	-3847
▁Eng	-3848
▁Fin	-3849
▁Nak	-3850
▁ສູດ	-3851
▁Server	-3852
ຫຼາຍກວ່າ	-3853
ອາດສາມາດ	-3854
▁ນະໂຍບາຍ	-3855
▁Vientiane	-3856
.)	-3857
ym	-3858
345	-3859
▁AM	-3860
ພ້ອມ	-3861
ຫຼວງ	-3862
▁ຍົກ	-3863
▁Shirt	-3864
ບໍລິຫານ	-3865
ແລກປ່ຽນ	-3866
▁Varicella	-3867
ago	-3868
▁2.	-3869
ກາເຟ	-3870
▁ບາງ	-3871
ສັກຢາ	-3872
▁ປະຈໍາ	-3873
▁wooden	-3874
ວິທະຍາສາດ	-3875
ກາກ	-3876
▁MC	-3877
▁im	-3878
Tube	-3879
cess	-3880
▁24,	-3881
▁Set	-3882
▁ເທດ	-3883
▁Prof	-3884
▁crate	-3885
▁Rights	-3886
▁ຂັ້ນຕອນ	-3887
TH	-3888
oy	-3889
ັ໊	-3890
ຊວງ	-3891
ປິນ	-3892
ມື້	-3893
ເມຍ	-3894
▁09	-3895
▁Rik	-3896
▁San	-3897
▁ext	-3898
▁not	-3899
▁web	-3900
▁ປິດ	-3901
/2019	-3902
night	-3903
▁Tian	-3904
▁ສະຖານ	-3905
▁Blythe	-3906
▁Ceramic	-3907
▁ຂຽນເມື່ອ	-3908
▁Fiberglass	-3909
anc	-3910
itt	-3911
rum	-3912
ຕູ້	-3913
▁7,	-3914
▁Kh	-3915
▁ແດ	-3916
eter	-3917
pson	-3918
ລ້ຽງ	-3919
ເຮືອ	-3920
▁23,	-3921
▁ຮູ້	-3922
ເນື້ອ	-3923
▁Sand	-3924
▁Golden	-3925
▁Cartridge	-3926
ບອກ	-3927
▁($	-3928
▁1/	-3929
ອໍານ	-3930
▁1.5	-3931
▁28,	-3932
▁ກາງ	-3933
ົນທົນ	-3934
ກວດສອບ	-3935
▁Nylon	-3936
▁White	-3937
ຄວາມປອດໄພ	-3938
▁Marketing	-3939
ged	-3940
iam	-3941
que	-3942
arin	-3943
ຫຍັດ	-3944
▁ເລກ	-3945
uxury	-3946
▁ແມັດ	-3947
▁ໂຄມໄຟ	-3948
ດິຈິຕອນ	-3949
▁Capital	-3950
▁ປະເທດໄທ	-3951
ຄວາມສະອາດ	-3952
KW	-3953
SH	-3954
olf	-3955
ota	-3956
jack	-3957
ller	-3958
ກິລາ	-3959
ບນັດ	-3960
ສະວະ	-3961
າຈັກ	-3962
▁1.0	-3963
▁Jin	-3964
▁Led	-3965
▁Pip	-3966
▁ລໍ້	-3967
▁ອັບ	-3968
ocket	-3969
ແນວໃດ	-3970
▁ເຫນີ	-3971
ພາຍໃຕ້	-3972
▁Assembly	-3973
▁Dedusting	-3974
eg	-3975
ຝາ	-3976
ຜົວ	-3977
aler	-3978
site	-3979
raine	-3980
▁ນ້ອຍ	-3981
▁ເກັບ	-3982
ທົນທານ	-3983
ບໍ່ໄດ້	-3984
▁Ideas	-3985
▁ເມື່ອ	-3986
jection	-3987
ສໍາຫລັບ	-3988
▁Wireless	-3989
▁Hyperbaric	-3990
49	-3991
CC	-3992
GB	-3993
PU	-3994
ui	-3995
Ltd	-3996
▁6,	-3997
ຫມຶກ	-3998
▁Bas	-3999
▁Jun	-4000
▁NEW	-4001
▁Vis	-4002
▁off	-4003
Super	-4004
ແຮງດັນ	-4005
▁Trade	-4006
▁ກະທູ້	-4007
ຜ່າສູນກາງ	-4008
▁ແຜນຜັງເວັບໄຊ	-4009
Sp	-4010
mon	-4011
▁58	-4012
▁Ag	-4013
▁SK	-4014
າກອນ	-4015
ແກັສ	-4016
▁10,	-4017
▁ຫັດ	-4018
angel	-4019
▁Karn	-4020
▁ຕ່າງ	-4021
▁ຫມາກ	-4022
ລາສສິກ	-4023
osilicon	-4024
ທໍາມະຊາດ	-4025
jiazhuang	-4026
ປະກອບດ້ວຍ	-4027
iao	-4028
ros	-4029
ນອນ	-4030
ຊະນະ	-4031
ຫຼອດ	-4032
▁Dub	-4033
▁Soc	-4034
ummer	-4035
ປະດັບ	-4036
ພະຍາດ	-4037
ອາດຈະ	-4038
▁Coin	-4039
rading	-4040
,000.00	-4041
▁Office	-4042
ການສຶກສາ	-4043
▁Deduster	-4044
ຄວາມຕ້ອງການ	-4045
▁Shijiazhuang	-4046
AI	-4047
PR	-4048
way	-4049
web	-4050
ຈົດ	-4051
ຫາຍ	-4052
▁3.	-4053
▁8,	-4054
▁MT	-4055
▁ຊາ	-4056
mail	-4057
rain	-4058
zuki	-4059
ໄຮໂດ	-4060
▁ແຫນ	-4061
▁Ninj	-4062
▁this	-4063
▁will	-4064
▁ສິ້ນ	-4065
▁ຫຼັກ	-4066
▁State	-4067
ການເງິນ	-4068
ນີ້ແມ່ນ	-4069
▁Karnar	-4070
CO	-4071
CT	-4072
kw	-4073
ift	-4074
ປ່າ	-4075
▁HP	-4076
▁PE	-4077
oker	-4078
▁was	-4079
▁ແດງ	-4080
tober	-4081
ຖະກິດ	-4082
ເອີ້ນ	-4083
▁Part	-4084
▁ຮ່ວມ	-4085
ລາຍງານ	-4086
▁ອັດຕາ	-4087
ກົດຫມາຍ	-4088
▁ການຜະລິດ	-4089
yt	-4090
ava	-4091
son	-4092
ປິດ	-4093
ສູບ	-4094
▁5,	-4095
▁Dr	-4096
rost	-4097
▁Fre	-4098
▁Vir	-4099
rylic	-4100
ເທົ່າ	-4101
▁Flor	-4102
▁ກ້ອງ	-4103
▁ຊ່ອງ	-4104
▁Giant	-4105
▁micro	-4106
▁Carbon	-4107
▁Suzuki	-4108
▁Ukraine	-4109
▁ຄໍາເຫັນ	-4110
▁ສໍາລັບເດັກຍິງ	-4111
FL	-4112
ere	-4113
inyl	-4114
uter	-4115
ອກາດ	-4116
▁Mat	-4117
▁ເຫຼ	-4118
ethyl	-4119
ຂອບໃຈ	-4120
▁Coun	-4121
▁Oper	-4122
▁Manag	-4123
ຕົກແຕ່ງ	-4124
ຫວັດສາດ	-4125
▁ໂຮງຮຽນ	-4126
▁Rikoooo	-4127
ການປ່ຽນແປງ	-4128
▁Organosilicon	-4129
ມາດ	-4130
ຮອບ	-4131
▁37	-4132
▁DR	-4133
▁MP	-4134
▁ແທ	-4135
ally	-4136
emic	-4137
engt	-4138
illa	-4139
ປ່ຽງ	-4140
ປ້ອງ	-4141
erved	-4142
▁3000	-4143
▁Tour	-4144
ension	-4145
yelash	-4146
ຜົວເມຍ	-4147
▁Green	-4148
▁ອາກາດ	-4149
▁Chrome	-4150
ອຸນຫະພູມ	-4151
ໃຫ້ອາຫານ	-4152
▁ປະລິມານ	-4153
▁ເປັນຫຍັງ	-4154
1-	-4155
zz	-4156
ພີມ	-4157
ແຂນ	-4158
ແພງ	-4159
້ວຍ	-4160
▁9,	-4161
▁AR	-4162
▁DN	-4163
esto	-4164
ເທົາ	-4165
▁10%	-4166
ທິບາຍ	-4167
ມີແສງ	-4168
ລັດຖະ	-4169
ຫມັ້ນ	-4170
▁ເມັດ	-4171
▁Erase	-4172
▁ພາຍໃນ	-4173
ຫນຶ່ງໃນ	-4174
▁ແມ່ຍິງ	-4175
▁October	-4176
ການປິ່ນປົວ	-4177
▁Galvanized	-4178
He	-4179
ji	-4180
ລຸ	-4181
ໍກ	-4182
ALE	-4183
ະສິ	-4184
▁hy	-4185
▁ສາດ	-4186
odium	-4187
ລະບຽບ	-4188
▁Last	-4189
▁ທ້າຍ	-4190
arator	-4191
ທີ່ຖືກ	-4192
ຸດຄົ້ນ	-4193
▁Dubai	-4194
▁Tatto	-4195
▁ຄະນະກໍາມະ	-4196
bs	-4197
Jar	-4198
aud	-4199
bow	-4200
ler	-4201
ບອນ	-4202
▁ແຟ	-4203
▁2.0	-4204
▁McK	-4205
▁Rad	-4206
▁ເຂດ	-4207
ipper	-4208
ຫຼີ້ນ	-4209
▁ອາຄານ	-4210
ທົ່ວໂລກ	-4211
▁Direct	-4212
▁Spring	-4213
▁YouTube	-4214
ທີ່ສໍາຄັນ	-4215
▁ໂດຍທົ່ວໄປ	-4216
OW	-4217
ໂຊ	-4218
anz	-4219
▁46	-4220
▁0.0	-4221
▁ຊອກ	-4222
ທີ່ເຄ	-4223
▁86-5	-4224
▁serv	-4225
▁SlotJar	-4226
▁ການພັດທະນາ	-4227
▁ປະສິດທິພາບ	-4228
RI	-4229
va	-4230
113	-4231
UST	-4232
ixi	-4233
▁Ha	-4234
▁ph	-4235
iver	-4236
ກ່ອງ	-4237
ຢ້ຽມ	-4238
ຮ້ານ	-4239
▁30%	-4240
▁450	-4241
ຂໍ້ມື	-4242
▁Comm	-4243
▁Door	-4244
▁have	-4245
andong	-4246
ຊື່ສຽງ	-4247
ສາທາລະ	-4248
▁Skype	-4249
▁Roller	-4250
▁ຈໍາກັດ	-4251
▁ພາກຮຽນ	-4252
▁ສາຍແອວ	-4253
interest	-4254
ລົງທະບຽນ	-4255
▁Deposit	-4256
▁Powered	-4257
▁Virtual	-4258
▁ສະຫງວນລິຂະສິດ	-4259
GS	-4260
uy	-4261
AME	-4262
ມວນ	-4263
▁(0	-4264
▁4.	-4265
▁sm	-4266
▁te	-4267
▁ໃສ	-4268
ຂະນະ	-4269
▁22,	-4270
▁opt	-4271
▁ຍາວ	-4272
▁ຟລີ	-4273
▁ສັນ	-4274
agnet	-4275
vince	-4276
ເປືອກ	-4277
▁sign	-4278
▁ຕ້ານ	-4279
▁ປະຕິ	-4280
finity	-4281
market	-4282
ແປພາສາ	-4283
ໂຕຣນິກ	-4284
▁Stand	-4285
ຈໍາເປັນ	-4286
▁Chiang	-4287
ຟ້າອາກາດ	-4288
▁ຕົວຢ່າງ	-4289
ເລັກໂຕຣນິກ	-4290
hy	-4291
ກຸນ	-4292
ດິດ	-4293
ສູ້	-4294
▁5.	-4295
▁Pu	-4296
▁ກໍ	-4297
▁ໂຊ	-4298
aker	-4299
ົນລະ	-4300
▁Mal	-4301
▁ຄິດ	-4302
icken	-4303
ophil	-4304
ພີມມາ	-4305
▁2005	-4306
▁Bear	-4307
▁Disk	-4308
ຜູ້ໃຊ້	-4309
ສະຫນາມ	-4310
ຫນ້າຈໍ	-4311
▁Thani	-4312
▁Nakhon	-4313
▁Crusher	-4314
▁Butterfly	-4315
]:	-4316
ray	-4317
ສີດ	-4318
▁33	-4319
▁ar	-4320
arat	-4321
raph	-4322
ຶກສາ	-4323
▁tra	-4324
▁ສອນ	-4325
ensor	-4326
inder	-4327
oomla	-4328
▁John	-4329
▁House	-4330
▁ນີ້ແມ່ນ	-4331
▁ອຸປະກອນເສີມ	-4332
4.	-4333
800	-4334
ISO	-4335
amm	-4336
ser	-4337
ຄັດ	-4338
ພັດ	-4339
ພືດ	-4340
ອອນ	-4341
ອີກ	-4342
າກິ	-4343
▁42	-4344
▁JP	-4345
▁ໂດ	-4346
anta	-4347
ents	-4348
fter	-4349
▁ຄືນ	-4350
▁ຊອບ	-4351
▁ເຫດ	-4352
ນິຍົມ	-4353
ສະດວກ	-4354
ືອບິນ	-4355
▁Cast	-4356
▁from	-4357
▁ເກີບ	-4358
ປັບປຸງ	-4359
▁ມີຄວາມ	-4360
▁ອິນເດຍ	-4361
▁McKnight	-4362
ການບໍລິການ	-4363
▁Injection	-4364
▁ຄວາມກົດດັນ	-4365
▁ການຝຶກອົບຮົມ	-4366
DM	-4367
IV	-4368
ແມ	-4369
ແກ່	-4370
▁OS	-4371
▁Od	-4372
▁Ter	-4373
▁ide	-4374
▁ສັງ	-4375
ative	-4376
ength	-4377
fiber	-4378
ຽບທຽບ	-4379
ເຄື່ອນໄ	-4380
▁custom	-4381
ຫຼາຍກ່ວາ	-4382
▁Message	-4383
▁ຜົນກະທົບ	-4384
▁ເຄືອຂ່າຍ	-4385
",	-4386
▁ຣ	-4387
amb	-4388
ຕູນ	-4389
ຖີ່	-4390
▁su	-4391
ຄ້າຍ	-4392
ມະດາ	-4393
▁Bro	-4394
▁2006	-4395
▁RoHS	-4396
▁free	-4397
atcher	-4398
ະສິກໍາ	-4399
▁ປະທານ	-4400
ດິນຟ້າອາກາດ	-4401
COM	-4402
aya	-4403
ced	-4404
eta	-4405
ທະນ	-4406
ມັກ	-4407
ມ້ວນ	-4408
່ນອນ	-4409
▁Int	-4410
▁Reg	-4411
Guang	-4412
proof	-4413
ຫຍຸ່ນ	-4414
▁Send	-4415
▁Work	-4416
▁iPad	-4417
▁ຊຶ່ງ	-4418
5-2018	-4419
ategor	-4420
rusion	-4421
ໂຮງຮຽນ	-4422
ໃຫ້ທ່ານ	-4423
▁friend	-4424
ການພະນັນ	-4425
ຮັບປະກັນ	-4426
▁Pressure	-4427
▁ຂຽນເມື່ອສຸດ	-4428
1.	-4429
UL	-4430
IAN	-4431
ume	-4432
ຈານ	-4433
ັ໊ມ	-4434
ໄກ່	-4435
▁08	-4436
▁PH	-4437
▁ms	-4438
▁sw	-4439
acks	-4440
amin	-4441
ທ້ອງ	-4442
▁61%	-4443
▁Apr	-4444
▁ທອງ	-4445
iller	-4446
ປະສົງ	-4447
ົວພັນ	-4448
▁Lock	-4449
▁Rock	-4450
▁ພ້ອມ	-4451
▁Epson	-4452
ຍືດຫຍຸ່ນ	-4453
ດັ່ງກ່າວ	-4454
ວາງສະແດງ	-4455
▁Chicken	-4456
ສື່ມວນຊົນ	-4457
ເຂົ້າໄປໃນ	-4458
42	-4459
BC	-4460
pa	-4461
ຸບ	-4462
ຣິກ	-4463
▁38	-4464
▁98	-4465
▁ໂຕ	-4466
ສະຫຼ	-4467
▁11,	-4468
▁Ink	-4469
▁Sil	-4470
▁Sit	-4471
▁ຮຽນ	-4472
odiac	-4473
offee	-4474
rader	-4475
ໍາລົງ	-4476
▁Wood	-4477
▁Graph	-4478
▁Jiang	-4479
▁ນອກຈາກ	-4480
▁ແນະນໍາ	-4481
ນຸ່ງຫົ່ມ	-4482
▁gallery	-4483
▁ເອກະສານ	-4484
atercolor	-4485
▁modified	-4486
▁tattoosd	-4487
▁ດັ່ງນັ້ນ	-4488
▁ກັບການຝຶກອົບຮົມ	-4489
Pl	-4490
VD	-4491
ка	-4492
600	-4493
ali	-4494
hua	-4495
ດູນ	-4496
▁ER	-4497
ness	-4498
ຫນືອ	-4499
້ວາງ	-4500
phone	-4501
▁Bang	-4502
▁Cent	-4503
▁mach	-4504
umatic	-4505
▁ພຽງແຕ່	-4506
▁ຕິດຕັ້ງ	-4507
ophilized	-4508
ທີ່ຜ່ານມາ	-4509
▁Province	-4510
▁Shandong	-4511
Supermarket	-4512
ຍີ	-4513
hem	-4514
ket	-4515
kle	-4516
ອັກ	-4517
▁DJ	-4518
▁FA	-4519
▁MY	-4520
▁co	-4521
ding	-4522
▁ລິດ	-4523
▁ສາມ	-4524
-2017	-4525
ບັນດາ	-4526
ມາຈາກ	-4527
ສະກົດ	-4528
ໃນຕອນ	-4529
າບນ້ໍາ	-4530
ເຫຼືອງ	-4531
▁ກະເປົ໋າ	-4532
ການພັດທະນາ	-4533
▁ການໂຄສະນາ	-4534
▁Lyophilized	-4535
ope	-4536
ສື່	-4537
ເຈີ	-4538
▁do	-4539
▁pe	-4540
cept	-4541
ield	-4542
ຫາວິ	-4543
▁350	-4544
▁Big	-4545
▁Feb	-4546
▁ຊີ້	-4547
▁ປອກ	-4548
Heart	-4549
ossom	-4550
ribal	-4551
ruity	-4552
▁Anti	-4553
▁List	-4554
▁slee	-4555
iation	-4556
▁ນະຄອນ	-4557
ສະຫະລັດ	-4558
▁Pulver	-4559
▁ການແກ້ໄຂ	-4560
tl	-4561
ра	-4562
ມມ	-4563
ໂອ	-4564
▁`	-4565
TER	-4566
vis	-4567
ຊົງ	-4568
ຫລ່	-4569
▁ແຈ	-4570
ລ້າງ	-4571
▁fil	-4572
▁Ther	-4573
▁View	-4574
▁ຕ່ໍາ	-4575
▁ນັ້ນ	-4576
▁Metal	-4577
ຮູບເງົາ	-4578
▁online	-4579
▁ຕະຫຼາດ	-4580
▁ກັນນ້ໍາ	-4581
Guangdong	-4582
ທີ່ສົມບູນ	-4583
▁ກິດຈະກໍາ	-4584
);	-4585
92	-4586
LS	-4587
ຈັບ	-4588
ສວນ	-4589
ືອດ	-4590
ໂສ້	-4591
▁66	-4592
▁8:	-4593
▁Du	-4594
▁Ma	-4595
ants	-4596
outh	-4597
ຊັ່ນ	-4598
ເມີນ	-4599
▁18,	-4600
▁Pur	-4601
▁val	-4602
▁ອັນ	-4603
▁ເພງ	-4604
acock	-4605
▁1200	-4606
▁play	-4607
▁ເຕົາ	-4608
ມວນຜົນ	-4609
່ອງໂສ້	-4610
ດາວໂຫຼດ	-4611
ຕໍ່ຕ້ານ	-4612
▁ອອກຈາກ	-4613
inecolor	-4614
▁ພັດທະນາ	-4615
▁ການສຶກສາ	-4616
▁ຂະຫນາດນ້ອຍ	-4617
ຢ່າງກວ້າງຂວາງ	-4618
▁tattootattoos	-4619
91	-4620
AMP	-4621
ese	-4622
leg	-4623
oon	-4624
ທອງ	-4625
ຫລື	-4626
▁95	-4627
▁ຈໍ	-4628
alls	-4629
ດື່ມ	-4630
ົ້າອ	-4631
▁Sim	-4632
▁ມົມ	-4633
▁ສຸກ	-4634
▁ອາຍ	-4635
-2020	-4636
orrug	-4637
ແຫນ້ນ	-4638
emicol	-4639
ພົວພັນ	-4640
ວິເຄາະ	-4641
▁Opera	-4642
ປະຈຸບັນ	-4643
ະສົມບັດ	-4644
▁crusher	-4645
ຸນນະສົມບັດ	-4646
otechnology	-4647
den	-4648
mos	-4649
ພຽງ	-4650
ລາດ	-4651
ຸດທ	-4652
ແຜ່	-4653
▁AL	-4654
iece	-4655
ping	-4656
reen	-4657
ື້ອງ	-4658
ເລີດ	-4659
▁12,	-4660
▁ຊາຍ	-4661
amber	-4662
minal	-4663
ທັນວາ	-4664
▁Apps	-4665
▁Cixi	-4666
▁©200	-4667
▁ປະຊາ	-4668
ຕັ້ງຄ່າ	-4669
ລູມິນຽມ	-4670
ສຸດທ້າຍ	-4671
▁Temper	-4672
neumatic	-4673
▁ດາວໂຫຼດ	-4674
ເກັບຂີ້ຝຸ່ນ	-4675
▁©2005-2018	-4676
mg	-4677
pm	-4678
▁—	-4679
-18	-4680
.30	-4681
axy	-4682
pen	-4683
ກູ້	-4684
ມິດ	-4685
▁2:	-4686
▁EV	-4687
ົດສະ	-4688
▁14,	-4689
▁Out	-4690
▁Sun	-4691
ີນ້ໍາ	-4692
ແລະມີ	-4693
▁Amaz	-4694
▁mark	-4695
▁ມິຕິ	-4696
▁ເຂົາ	-4697
▁Model	-4698
ization	-4699
ຕ່ອງໂສ້	-4700
▁Christ	-4701
▁Review	-4702
້ອຍຂໍ້ມື	-4703
ຄູ່ຜົວເມຍ	-4704
▁ອະລູມິນຽມ	-4705
▁ນັບຕັ້ງແຕ່	-4706
ya	-4707
▁฿	-4708
ano	-4709
bit	-4710
ກົນ	-4711
▁(4	-4712
▁all	-4713
▁ຊັບ	-4714
-2019	-4715
ເສື້ອ	-4716
▁Idea	-4717
▁King	-4718
▁neck	-4719
ການຂາຍ	-4720
ຂ່າວສານ	-4721
▁Report	-4722
▁blossom	-4723
orrugated	-4724
ສ້າງຕັ້ງຂຶ້ນ	-4725
LD	-4726
ຼມ	-4727
ໄມ	-4728
ict	-4729
ເພງ	-4730
▁07	-4731
▁54	-4732
▁NY	-4733
ກຸ່ມ	-4734
ແກຼມ	-4735
▁GBP	-4736
▁ເພດ	-4737
▁Cool	-4738
▁Hang	-4739
▁Link	-4740
ຊີ້ວັດ	-4741
▁Night	-4742
ຸດທະສາດ	-4743
ransposh	-4744
▁ຂໍ້ຄວາມ	-4745
ຕ່າງປະເທດ	-4746
▁ເສັ້ນຜ່າສູນກາງ	-4747
',	-4748
ຄໍ	-4749
ນູ	-4750
່ຍ	-4751
day	-4752
eye	-4753
ລິບ	-4754
ເກີ	-4755
▁CD	-4756
bird	-4757
ວິທີ	-4758
ເລັບ	-4759
▁10:	-4760
▁AUD	-4761
▁Bay	-4762
▁GPS	-4763
▁ຄາວ	-4764
▁ລໍາ	-4765
ປະສານ	-4766
ວ່າຈະ	-4767
▁Flex	-4768
▁Pass	-4769
▁back	-4770
▁ມ້ວນ	-4771
▁ເຈ້ຍ	-4772
ການພິມ	-4773
ຄ້າຍຄື	-4774
ົ້າອີ້	-4775
▁ບັນຈຸ	-4776
catcher	-4777
ົ້າຫມາຍ	-4778
▁double	-4779
ເຄື່ອນໄຫວ	-4780
▁tattoosc	-4781
ການຊໍາລະເງິນ	-4782
▁Biotechnology	-4783
ຄູ	-4784
ອຸ	-4785
ແຟ	-4786
▁44	-4787
▁57	-4788
▁77	-4789
▁89	-4790
ward	-4791
ລັອກ	-4792
▁eag	-4793
▁ຈັນ	-4794
▁ເຫມ	-4795
arrow	-4796
thank	-4797
ສີດໍາ	-4798
▁GAME	-4799
▁cook	-4800
▁ກູໂກ	-4801
▁ກ່າວ	-4802
▁ດ້ານ	-4803
▁ເຢັນ	-4804
▁signs	-4805
charger	-4806
ພຶດສະພາ	-4807
▁Remover	-4808
▁ຄວາມສູງ	-4809
ເຫຼົ່ານີ້	-4810
▁ຈັດພີມມາ	-4811
▁ນັກສຶກສາ	-4812
ປະຕິບັດການ	-4813
▁Pinterest	-4814
▁ຄວາມປອດໄພ	-4815
reamcatcher	-4816
MM	-4817
▁发	-4818
信息	-4819
:11	-4820
hnd	-4821
ito	-4822
ora	-4823
ກອນ	-4824
ຕີນ	-4825
▁CN	-4826
▁FS	-4827
▁发送	-4828
hndi	-4829
ຍ້າຍ	-4830
ສັ້ນ	-4831
▁ກົນ	-4832
cript	-4833
ໃຊ້ໃນ	-4834
▁Qual	-4835
▁card	-4836
▁发送信息	-4837
▁Summer	-4838
▁ການຈັດ	-4839
▁ມົນທົນ	-4840
▁semicol	-4841
▁ສໍາຫລັບ	-4842
▁Reserved	-4843
▁Solutions	-4844
▁ຄອມພິວເຕີ	-4845
▁galvanized	-4846
BO	-4847
FC	-4848
cn	-4849
▁?	-4850
-03	-4851
755	-4852
ney	-4853
ທິນ	-4854
ປາກ	-4855
ລັງ	-4856
▁34	-4857
▁BC	-4858
▁ap	-4859
ນັ່ງ	-4860
າມັນ	-4861
▁CHF	-4862
▁Cnc	-4863
▁Unc	-4864
▁ຂວດ	-4865
▁ນາງ	-4866
▁ປັດ	-4867
▁ຮອງ	-4868
ຕາຕັກ	-4869
ຕາຕັບ	-4870
ລິນຍາ	-4871
ສິດທິ	-4872
▁Bank	-4873
▁mult	-4874
▁ອື່ນ	-4875
▁Forum	-4876
ຕາຕະລາງ	-4877
ບໍ່ແມ່ນ	-4878
ສິ່ງທີ່	-4879
▁Dining	-4880
▁Fabric	-4881
▁ຄໍາສັ່ງ	-4882
▁ເຂັມທິດ	-4883
ສ້ອຍຂໍ້ມື	-4884
▁ເຢຍລະມັນ	-4885
ຄູ່ຜົວເມຍຄູ່	-4886
ZD	-4887
nb	-4888
ວີ	-4889
ກະຈ	-4890
ນາມ	-4891
ີ້ມ	-4892
▁Ab	-4893
guan	-4894
ulse	-4895
ແມັດ	-4896
▁Cou	-4897
▁col	-4898
▁ນວນ	-4899
▁ແປງ	-4900
າຊາກິ	-4901
ແຕ່ລະ	-4902
▁Pipe	-4903
▁yarn	-4904
zodiac	-4905
▁Water	-4906
▁ແຫຼ່ງ	-4907
ປະກອບມີ	-4908
▁ກໍລະນີ	-4909
Infinity	-4910
ທາງອາກາດ	-4911
ສາວຕາຕັກ	-4912
▁ນ້ໍາມັນ	-4913
▁Blackjack	-4914
▁ການຄວບຄຸມ	-4915
ສ້ອຍຂໍ້ມືເພັດ	-4916
▁ຄວາມອາດສາມາດ	-4917
▁ສ້າງຕັ້ງຂຶ້ນ	-4918
OC	-4919
RL	-4920
150	-4921
ams	-4922
lam	-4923
ugh	-4924
▁(6	-4925
▁AT	-4926
▁Ke	-4927
▁RJ	-4928
engo	-4929
osph	-4930
vers	-4931
▁Arm	-4932
▁Cur	-4933
▁Mos	-4934
▁SMS	-4935
▁des	-4936
▁rot	-4937
▁ເບີ	-4938
ember	-4939
ຝຣັ່ງ	-4940
▁Size	-4941
anchor	-4942
ຂອງພຣະ	-4943
ຊຸມຊົນ	-4944
anzania	-4945
ຄໍາສັ່ງ	-4946
▁ຂະຫຍາຍ	-4947
ຊ້າງຊ້າງ	-4948
▁jackpot	-4949
ການຄວບຄຸມ	-4950
ຜູ້ສະຫນອງ	-4951
ເທົ່ານັ້ນ	-4952
▁ຄໍາຮ້ອງສະຫມັກ	-4953
IG	-4954
OK	-4955
gy	-4956
▁o	-4957
-16	-4958
ulf	-4959
▁ຄວ	-4960
ipit	-4961
ມື້ອ	-4962
▁car	-4963
▁gsm	-4964
▁out	-4965
ກວດກາ	-4966
▁mold	-4967
▁ຊິ້ນ	-4968
▁ຫນອງ	-4969
▁ໃນປີ	-4970
ທີ່ເຄຍ	-4971
ປະຫຍັດ	-4972
▁Count	-4973
▁Glass	-4974
▁ຢູ່ໃນ	-4975
ຖ່າຍຮູບ	-4976
▁ລາງວັນ	-4977
ປະມວນຜົນ	-4978
▁ທຸລະກິດ	-4979
ຫນ້າຕາຕັບ	-4980
▁Whatsapp	-4981
▁ຄາວາຊາກິ	-4982
▁Pneumatic	-4983
▁ການແປພາສາ	-4984
▁ຂະຫນາດໃຫຍ່	-4985
ຂອງຂ້າພະເຈົ້າ	-4986
BA	-4987
vi	-4988
ze	-4989
irl	-4990
rif	-4991
ຕັນ	-4992
▁DM	-4993
▁MU	-4994
▁PU	-4995
▁ZR	-4996
▁ຜະ	-4997
▁ພູ	-4998
Once	-4999
burg	-5000
roid	-5001
ເຄີຍ	-5002
▁(10	-5003
▁11:	-5004
▁Day	-5005
▁Rob	-5006
▁Sub	-5007
Ankle	-5008
store	-5009
▁Full	-5010
▁Tool	-5011
▁ປ່ອຍ	-5012
▁ເທິງ	-5013
▁Beach	-5014
▁Chain	-5015
▁Panel	-5016
Feather	-5017
ມື້ອື່ນ	-5018
▁Boiler	-5019
▁joomla	-5020
▁ການປົກ	-5021
▁Service	-5022
▁cookies	-5023
▁ຍີ່ປຸ່ນ	-5024
▁ແບ່ງປັນ	-5025
▁ເຄື່ອງປ້ອນ	-5026
▁ກຸ່ມນະໂຍບາຍ	-5027
▁ພວກເຮົາແມ່ນ	-5028
51	-5029
PT	-5030
we	-5031
ບໍ	-5032
ໄດ	-5033
EAT	-5034
ags	-5035
ors	-5036
ປັກ	-5037
▁Ba	-5038
▁SS	-5039
▁ຊູ	-5040
ices	-5041
ຫນົດ	-5042
ເວັບ	-5043
▁(2)	-5044
▁mon	-5045
▁ແກ້	-5046
tooth	-5047
ຄືນໄປ	-5048
ເຕັ້ນ	-5049
ເປົ່າ	-5050
▁Bill	-5051
ການບິນ	-5052
ກໍລະນີ	-5053
ຄົ້ນຫາ	-5054
▁block	-5055
▁dress	-5056
▁ລາຍຊື່	-5057
ສົ່ງເສີມ	-5058
▁Casengo	-5059
▁printer	-5060
ການອອກແບບ	-5061
ຫາວິທະຍາໄລ	-5062
сь	-5063
▁У	-5064
ike	-5065
uge	-5066
ນາງ	-5067
ktop	-5068
ທະນະ	-5069
▁Lad	-5070
▁Pat	-5071
▁Pen	-5072
▁ດຽວ	-5073
▁ຫມາ	-5074
ຫນ່ວຍ	-5075
ເຫນືອ	-5076
▁Vent	-5077
▁mini	-5078
▁tape	-5079
cherry	-5080
ຄອບຄົວ	-5081
ເບື້ອງ	-5082
ຖ່ານຫີນ	-5083
▁ລາຍການ	-5084
▁ພາກສ່ວນ	-5085
ແລະແມ່ຍິງ	-5086
ສໍາລັບມື້ນີ້	-5087
-05	-5088
OMO	-5089
Pro	-5090
don	-5091
rab	-5092
кра	-5093
ຊິດ	-5094
ສີ່	-5095
▁My	-5096
▁no	-5097
ська	-5098
ປ່ອຍ	-5099
▁130	-5100
▁Hyd	-5101
▁lad	-5102
▁ຕອນ	-5103
▁ຕົນ	-5104
▁ສະເ	-5105
matic	-5106
ຄູ່ມື	-5107
▁Shot	-5108
▁wind	-5109
▁ມະຫາ	-5110
▁Speed	-5111
▁ຊີວິດ	-5112
▁ຖົງມື	-5113
website	-5114
ສະມາຊິກ	-5115
▁ສະຫນອງ	-5116
▁ອົງການ	-5117
▁ໃນໄລຍະ	-5118
ສະກົດຈິດ	-5119
ategorized	-5120
FA	-5121
ng	-5122
їн	-5123
VAC	-5124
kok	-5125
▁LO	-5126
▁ຊມ	-5127
▁ແພ	-5128
best	-5129
hand	-5130
head	-5131
ຍິ່ງ	-5132
ອາໄສ	-5133
ັດໄປ	-5134
ເດີມ	-5135
▁380	-5136
▁Mel	-5137
країн	-5138
▁Site	-5139
▁ງ່າຍ	-5140
ບໍ່ແຮ່	-5141
ລາຍຊື່	-5142
ໂດຍການ	-5143
▁Grand	-5144
ດາວໂຫລດ	-5145
▁Crypto	-5146
країнська	-5147
▁ເກົ້າອີ້	-5148
ໃຫ້ບໍລິການ	-5149
73	-5150
▁]	-5151
fer	-5152
ນັບ	-5153
ອດຄ	-5154
▁we	-5155
ader	-5156
ນິທິ	-5157
ເຕົາ	-5158
ໄຟລ໌	-5159
▁4.0	-5160
other	-5161
ວຍການ	-5162
▁Feed	-5163
▁ກ່ອນ	-5164
▁ຫມັກ	-5165
loride	-5166
ລວມທັງ	-5167
▁Clear	-5168
▁ແຫນ້ນ	-5169
ilicone	-5170
ນ້ໍາມັນ	-5171
ແມ່ນວ່າ	-5172
ພາດສະຕິກ	-5173
▁Display	-5174
▁scooter	-5175
▁Supplier	-5176
ອິນເຕີເນັດ	-5177
▁Guangdong	-5178
▁Українська	-5179
41	-5180
58	-5181
61	-5182
CE	-5183
IM	-5184
ka	-5185
▁±	-5186
-00	-5187
aft	-5188
ept	-5189
sun	-5190
ຟັງ	-5191
▁TV	-5192
▁me	-5193
ygen	-5194
▁Ben	-5195
▁Det	-5196
▁Mey	-5197
▁ວາງ	-5198
▁ແນະ	-5199
▁ໂມງ	-5200
▁Kids	-5201
▁ຂ້າງ	-5202
▁Engine	-5203
▁Fruity	-5204
Bwebsite	-5205
▁Bonuses	-5206
ຮັບຜິດຊອບ	-5207
▁conveyor	-5208
BwebsiteWS	-5209
ດໍາເນີນງານ	-5210
▁Pulverized	-5211
ຸດຄົ້ນບໍ່ແຮ່	-5212
QS	-5213
so	-5214
ອຟ	-5215
▁聊	-5216
250	-5217
get	-5218
ple	-5219
ຮອດ	-5220
ແຍກ	-5221
▁PS	-5222
▁SM	-5223
▁聊天	-5224
ains	-5225
ract	-5226
ston	-5227
▁FAM	-5228
▁Pot	-5229
▁Str	-5230
▁ter	-5231
▁ຈິກ	-5232
aging	-5233
owder	-5234
▁Coal	-5235
▁FXCL	-5236
atalog	-5237
ການປົກ	-5238
ຊີ້ຂາດ	-5239
▁Clamp	-5240
agnetic	-5241
ສາຫະກິດ	-5242
▁Gasket	-5243
ຂອງບໍລິສັດ	-5244
ດ້ານວິຊາການ	-5245
▁ການກໍ່ສ້າງ	-5246
KG	-5247
▁ງ	-5248
-25	-5249
ral	-5250
ວຽນ	-5251
▁em	-5252
▁ທິ	-5253
Life	-5254
yang	-5255
ປ້າຍ	-5256
ຫມູ່	-5257
ຫລາດ	-5258
ອ່ອນ	-5259
ໄຫລ່	-5260
▁2.5	-5261
▁25,	-5262
▁CAD	-5263
▁Nov	-5264
▁gay	-5265
right	-5266
▁Jizer	-5267
▁Punch	-5268
ື່ອງຈາກ	-5269
▁ຜູ້ຊາຍ	-5270
ຕໍາແຫນ່ງ	-5271
ເຢຍລະມັນ	-5272
▁ເຮັດວຽກ	-5273
ຈໍານວນຫຼາຍ	-5274
▁Bluetooth	-5275
▁Magnetics	-5276
QL	-5277
-30	-5278
ຍອດ	-5279
▁Ru	-5280
▁VS	-5281
STON	-5282
moon	-5283
pert	-5284
tern	-5285
ulic	-5286
ຊື່ອ	-5287
ປື້ມ	-5288
ຫມາກ	-5289
ຫຼວດ	-5290
▁Gen	-5291
▁ຊາວ	-5292
▁ອີງ	-5293
erman	-5294
utsch	-5295
ແມ່ນຍ	-5296
▁MUAY	-5297
▁Viber	-5298
▁insul	-5299
▁ມໍເຕີ	-5300
ສາມາດໃຊ້	-5301
▁Bangkok	-5302
ໃຫ້ພວກເຮົາ	-5303
-9	-5304
bl	-5305
era	-5306
ບາດ	-5307
ແດນ	-5308
ື້ອຍ	-5309
ເຜົາ	-5310
▁26,	-5311
▁Die	-5312
▁Rom	-5313
▁Tab	-5314
▁ຫລື	-5315
▁ເຕີ	-5316
ility	-5317
ities	-5318
ປະທັບ	-5319
▁Club	-5320
▁ຂຶ້ນ	-5321
▁ສະມາ	-5322
curity	-5323
intage	-5324
ຮູ້ສຶກ	-5325
▁Plate	-5326
▁Amazon	-5327
▁ສະຫນາມ	-5328
ສາທາລະນະ	-5329
▁ຄວາມຍາວ	-5330
ຂະຫຍາຍຕົວ	-5331
ຄືນໄປບ່ອນ	-5332
ຖືກນໍາໃຊ້	-5333
▁Magnetic	-5334
ຄ່າໃຊ້ຈ່າຍ	-5335
ດໍາເນີນການ	-5336
ສ່ວນບຸກຄົນ	-5337
ອຸປະກອນການ	-5338
ໃຫຍ່ທີ່ສຸດ	-5339
▁Changzhou	-5340
▁corrugated	-5341
ພໍ	-5342
203	-5343
INE	-5344
orm	-5345
red	-5346
ພັບ	-5347
ພິດ	-5348
ເບີ	-5349
ເວນ	-5350
9002	-5351
EATS	-5352
ະນຸມ	-5353
າກັບ	-5354
ເຈ້ຍ	-5355
▁11%	-5356
▁cre	-5357
▁ຂັບ	-5358
▁ສື່	-5359
imate	-5360
iness	-5361
ຫນ່າງ	-5362
ໂບນັດ	-5363
ໂອກາດ	-5364
▁CSGO	-5365
▁Disp	-5366
▁FAMI	-5367
ຊື້ຂາຍ	-5368
ຕະຫຼອດ	-5369
ອົງການ	-5370
▁Frame	-5371
▁Saint	-5372
▁inter	-5373
▁CHEATS	-5374
▁ທ່ານຈະ	-5375
ບໍ່ມີການ	-5376
ເສັ້ນທາງ	-5377
▁ປ້ອງກັນ	-5378
ນໍາສະເຫນີ	-5379
▁Dongguan	-5380
▁Standard	-5381
▁ການປ່ຽນແປງ	-5382
5,	-5383
RP	-5384
au	-5385
-21	-5386
.05	-5387
ief	-5388
val	-5389
ກຸມ	-5390
ມຸງ	-5391
▁5:	-5392
▁MS	-5393
▁di	-5394
▁tw	-5395
-200	-5396
mium	-5397
tery	-5398
type	-5399
ຜູ້ນ	-5400
ຫມຸນ	-5401
ຼລິກ	-5402
ເສັງ	-5403
▁180	-5404
▁Get	-5405
▁Pvc	-5406
▁get	-5407
▁ຈອງ	-5408
▁ຍານ	-5409
anner	-5410
ບັນລຸ	-5411
ມໍເຕີ	-5412
ເດັ່ນ	-5413
ເຫລໍກ	-5414
▁Circ	-5415
▁Food	-5416
▁ຫຼ້າ	-5417
▁ເຕັມ	-5418
Distrib	-5419
▁Minnes	-5420
▁ຕົວແບບ	-5421
rostatic	-5422
▁ຖ້າທ່ານ	-5423
Distributor	-5424
;#	-5425
mp	-5426
ແຊ	-5427
▁າ	-5428
ica	-5429
ici	-5430
inc	-5431
ren	-5432
utt	-5433
ຫວນ	-5434
▁CB	-5435
▁DI	-5436
▁GT	-5437
▁Wi	-5438
ຖິ່ນ	-5439
ເກີນ	-5440
▁0.5	-5441
▁ທົບ	-5442
▁Bulk	-5443
▁Film	-5444
▁Lamp	-5445
Wholes	-5446
▁12345	-5447
▁Conne	-5448
ກໍາຫນົດ	-5449
ຂະນະທີ່	-5450
▁Oxygen	-5451
▁ການຄ້າ	-5452
▁ສີເທົາ	-5453
▁ຫນ້າຈໍ	-5454
▁ອັບເດດ	-5455
▁ສໍາເລັດ	-5456
▁solenoid	-5457
Wholesaler	-5458
elashstore	-5459
ຄັ້ງທໍາອິດ	-5460
▁Separator	-5461
ສິ່ງແວດລ້ອມ	-5462
ທີ່ສົມບູນແບບ	-5463
rit	-5464
ຄັບ	-5465
ແທກ	-5466
▁3:	-5467
▁ໄຂ	-5468
:11%	-5469
ຸດົມ	-5470
▁13,	-5471
▁3.0	-5472
ental	-5473
▁dust	-5474
ontent	-5475
raulic	-5476
ກາກບອນ	-5477
ກໍາຈັດ	-5478
ເລື່ອງ	-5479
▁ຖັດໄປ	-5480
▁ສີຂຽວ	-5481
ໂມເລກຸນ	-5482
▁ທີ່ຖືກ	-5483
ບໍ່ສາມາດ	-5484
ສະຫນາຈັກ	-5485
ໄຮໂດຼລິກ	-5486
▁ບ່ອນທີ່	-5487
▁ສະຖາບັນ	-5488
▁ລາຄາປົກກະຕິ	-5489
▁Meyelashstore	-5490
▁ຖ້າຫາກວ່າທ່ານ	-5491
6,	-5492
GE	-5493
IR	-5494
ky	-5495
xy	-5496
ກູ	-5497
.16	-5498
ety	-5499
isc	-5500
ຍອມ	-5501
ປາຍ	-5502
ະສີ	-5503
ແມວ	-5504
▁49	-5505
▁Gh	-5506
▁ໃດ	-5507
ucks	-5508
ຈາລະ	-5509
ຝ້າຍ	-5510
▁160	-5511
▁30,	-5512
▁Act	-5513
▁Rog	-5514
▁Saf	-5515
▁ພືດ	-5516
▁ມັງ	-5517
otrop	-5518
velop	-5519
▁Chem	-5520
▁Fire	-5521
▁Mesh	-5522
▁Sale	-5523
ມິຖຸນາ	-5524
ໃຫ້ກັບ	-5525
▁TRUST	-5526
▁Tweet	-5527
ຂັ້ນຕອນ	-5528
ຂໍ້ຄວາມ	-5529
▁Sodium	-5530
ຕອບສະຫນອງ	-5531
▁Minnesota	-5532
Un	-5533
▁}	-5534
="1	-5535
ຫມໍ	-5536
▁56	-5537
▁72	-5538
▁88	-5539
▁ID	-5540
ນໍ້າ	-5541
ເຈາະ	-5542
▁15,	-5543
▁PRO	-5544
▁Tit	-5545
▁ຈົດ	-5546
▁ດັດ	-5547
▁ທຽນ	-5548
▁ສອບ	-5549
▁ໃສ່	-5550
light	-5551
ເກືອບ	-5552
▁Golf	-5553
▁Open	-5554
▁Multi	-5555
▁ໂມດູນ	-5556
▁TRUSTED	-5557
▁ຕົ້ນສະບັບ	-5558
▁ເຂົ້າຮ່ວມ	-5559
ບັນຊີລາຍການ	-5560
▁Temperature	-5561
ML	-5562
NE	-5563
PL	-5564
Man	-5565
ບັງ	-5566
ແນນ	-5567
້າວ	-5568
▁RM	-5569
▁SD	-5570
▁SW	-5571
▁ຕີ	-5572
▁Ash	-5573
ຫນຸ່ມ	-5574
ເອກະລ	-5575
▁Over	-5576
▁ດົນຕີ	-5577
ະພາບສູງ	-5578
ແມ່ນຍໍາ	-5579
lication	-5580
ົດສະຕາລີ	-5581
▁ຄລາສສິກ	-5582
ຕັ້ງຢູ່ໃນ	-5583
▁Printing	-5584
▁ຄໍາແນະນໍາ	-5585
▁ຕົວຊີ້ວັດ	-5586
▁Production	-5587
▁ສູງສຸດທີ່ເຄຍ	-5588
AF	-5589
ha	-5590
400	-5591
ENT	-5592
ຫັນ	-5593
ະພາ	-5594
ໂພກ	-5595
▁CF	-5596
▁kg	-5597
ures	-5598
▁Duc	-5599
▁Hum	-5600
▁ຂີ້	-5601
▁ຢ່າ	-5602
ender	-5603
henna	-5604
ional	-5605
ກະດູກ	-5606
ສະໄຫມ	-5607
ເກົ່າ	-5608
▁Hong	-5609
▁ITAL	-5610
▁Patt	-5611
▁ປຸ່ມ	-5612
▁ປ່ຽງ	-5613
INSTON	-5614
ຫນັງສື	-5615
ອັນດັບ	-5616
▁Clean	-5617
▁Linux	-5618
▁Magic	-5619
▁games	-5620
aterial	-5621
ກໍລະກົດ	-5622
ບົດຄວາມ	-5623
▁Galaxy	-5624
▁ສະເຫນີ	-5625
ຊື່ອີເມວ	-5626
▁Chamber	-5627
ຄໍາແນະນໍາ	-5628
▁Copyshop	-5629
▁ອາເມລິກາ	-5630
ຄໍາເຫັນເປັນ	-5631
▁ການປິ່ນປົວ	-5632
▁Uncategorized	-5633
▁ອອກຄໍາເຫັນເປັນ	-5634
▁ບັນຊີຜະລິດຕະພັນ	-5635
79	-5636
sa	-5637
ຊູ	-5638
.35	-5639
ham	-5640
pon	-5641
use	-5642
ກາວ	-5643
ຟອມ	-5644
ລວດ	-5645
ສິດ	-5646
▁Cy	-5647
ຕຸລາ	-5648
ເທີງ	-5649
ເຜີຍ	-5650
▁Ber	-5651
▁May	-5652
▁Pad	-5653
▁ພຶດ	-5654
▁ອອນ	-5655
/2018	-5656
aking	-5657
▁Brow	-5658
▁ຫມູ່	-5659
ສື່ສານ	-5660
ັງກະສີ	-5661
▁Screw	-5662
▁Stone	-5663
▁ໃນຕອນ	-5664
ຄວາມຈໍາ	-5665
▁Pocket	-5666
▁feeder	-5667
ipitator	-5668
ກິດຈະກໍາ	-5669
ພະນັກງານ	-5670
ສູ່ລະບົບ	-5671
▁Casting	-5672
▁ມັນແມ່ນ	-5673
watercolor	-5674
ທີ່ມີຊື່ສຽງ	-5675
▁ເຄື່ອງປະດັບ	-5676
ັຍ	-5677
aki	-5678
ini	-5679
ຄ້ວ	-5680
ຍາກ	-5681
ເນຍ	-5682
ໂຣກ	-5683
▁TC	-5684
▁TN	-5685
foot	-5686
word	-5687
ຂ້າມ	-5688
ດ່ວນ	-5689
ຫນາວ	-5690
ອ້າງ	-5691
ະການ	-5692
▁Bus	-5693
▁Pol	-5694
▁Vol	-5695
▁ser	-5696
▁ບິດ	-5697
▁ປາກ	-5698
▁ເຫລ	-5699
house	-5700
older	-5701
▁Diff	-5702
▁Hero	-5703
▁Mich	-5704
▁ເມນູ	-5705
lector	-5706
ຮູ້ຈັກ	-5707
ອະທິບາຍ	-5708
▁Ducati	-5709
▁Posted	-5710
▁Quality	-5711
▁Trading	-5712
▁machine	-5713
▁ຮ້ານຄ້າ	-5714
▁ການທົດສອບ	-5715
81	-5716
▁!	-5717
aon	-5718
con	-5719
inn	-5720
met	-5721
ຖີບ	-5722
ຟລີ	-5723
▁0.	-5724
udge	-5725
user	-5726
ຊ່ອງ	-5727
▁1.2	-5728
▁29,	-5729
▁ກາວ	-5730
▁ຄອມ	-5731
▁ໂຣກ	-5732
ສະກຸນ	-5733
▁Fact	-5734
▁game	-5735
▁pump	-5736
heLife	-5737
ຮຽນຮູ້	-5738
▁Admin	-5739
▁Breat	-5740
▁Brush	-5741
▁Touch	-5742
ທະນະທໍາ	-5743
▁Zipper	-5744
▁ກໍານົດ	-5745
▁Deutsch	-5746
▁ຂໍຂອບໃຈ	-5747
▁ດໍາເນີນ	-5748
ຫາພວກເຮົາ	-5749
ຄວາມກົດດັນ	-5750
▁BreatheLife	-5751
,,	-5752
ໄອ	-5753
-04	-5754
-40	-5755
Com	-5756
ige	-5757
ior	-5758
ດໍາ	-5759
ຫມີ	-5760
ແກນ	-5761
▁BL	-5762
▁Rd	-5763
▁ຈຸ	-5764
Sets	-5765
ming	-5766
ດູແລ	-5767
ລຸ່ມ	-5768
ເຊັນ	-5769
▁3.2	-5770
▁BTC	-5771
▁Jum	-5772
▁MAC	-5773
▁NZD	-5774
▁sub	-5775
▁ທິດ	-5776
▁ມຸງ	-5777
ວຍງາມ	-5778
ທີ່ໄດ້	-5779
ສາຍແອວ	-5780
▁Royal	-5781
▁Trans	-5782
▁ຕ່າງໆ	-5783
▁ເນື້ອ	-5784
ຮູບຮ່າງ	-5785
▁Luxury	-5786
▁Router	-5787
ຄັດເລືອກ	-5788
ສ້າງຕັ້ງ	-5789
ຄວາມໄວສູງ	-5790
ໍາລົງຊີວິດ	-5791
▁Hydraulic	-5792
ທີ່ມີຄຸນນະພາບສູງ	-5793
69	-5794
BR	-5795
GG	-5796
fe	-5797
▁≥	-5798
-02	-5799
999	-5800
ura	-5801
ສະຖ	-5802
າດາ	-5803
▁Of	-5804
▁SC	-5805
▁Ub	-5806
stru	-5807
ວນໍາ	-5808
ສິ້ນ	-5809
ຫະນະ	-5810
ເປົາ	-5811
▁Ari	-5812
▁Del	-5813
▁nad	-5814
ປັນຍາ	-5815
ລະບາຍ	-5816
ສະມາດ	-5817
▁Fast	-5818
▁Java	-5819
▁ROHS	-5820
▁ຍື່ນ	-5821
ະນຸມັດ	-5822
ໂປແກຼມ	-5823
▁PROMO	-5824
peacock	-5825
ເສດຖະກິດ	-5826
▁ຄວາມຮ້ອນ	-5827
▁Converter	-5828
▁ໃບອະນຸຍາດ	-5829
▁ໃນປັດຈຸບັນ	-5830
▁ເຄື່ອງນຸ່ງຫົ່ມ	-5831
52	-5832
63	-5833
LP	-5834
ເຣ	-5835
-11	-5836
car	-5837
ກະຕ	-5838
ພອນ	-5839
ພາະ	-5840
▁4:	-5841
▁CA	-5842
▁EC	-5843
▁RE	-5844
ject	-5845
oven	-5846
ຫມໍ້	-5847
ອີເມ	-5848
ເນີດ	-5849
▁cat	-5850
▁our	-5851
▁ແກນ	-5852
retch	-5853
skull	-5854
ກະຈາຍ	-5855
▁ແຫ່ງ	-5856
amping	-5857
church	-5858
mehndi	-5859
▁Cloud	-5860
▁screw	-5861
▁ພິເສດ	-5862
ພະຍາຍາມ	-5863
ຮ່າງກາຍ	-5864
▁County	-5865
▁Cutter	-5866
▁Tagged	-5867
▁ກອງທັບ	-5868
▁ສະຖານີ	-5869
▁Dusting	-5870
▁ຂ່າວສານ	-5871
▁Comments	-5872
▁ລະຫັດຜ່ານ	-5873
ຂອງເຂົາເຈົ້າ	-5874
▁ຄຸນນະສົມບັດ	-5875
82	-5876
010	-5877
The	-5878
ada	-5879
uth	-5880
ກຽມ	-5881
ຕານ	-5882
ິ້ງ	-5883
▁59	-5884
▁AN	-5885
▁IC	-5886
▁ab	-5887
▁ຄື	-5888
Site	-5889
cial	-5890
ຫວັນ	-5891
ເສີນ	-5892
▁16,	-5893
▁3.5	-5894
▁850	-5895
▁Bra	-5896
▁Kor	-5897
▁cnc	-5898
▁cor	-5899
indle	-5900
ກຸມພາ	-5901
ຍາຍາມ	-5902
ັກຊີນ	-5903
ໃນທຸກ	-5904
▁Cook	-5905
▁Hall	-5906
▁phan	-5907
ending	-5908
ວ່າມັນ	-5909
ສູນເສຍ	-5910
ຫົວຂໍ້	-5911
▁Cloth	-5912
▁ສິດທິ	-5913
ສະຖາບັນ	-5914
ຫຸ້ມຂອງ	-5915
▁123456	-5916
ຂະບວນການ	-5917
▁Limited	-5918
▁Premium	-5919
▁phantom	-5920
▁ຂາຍສົ່ງ	-5921
▁ບໍ່ແມ່ນ	-5922
▁Compress	-5923
▁Blackboard	-5924
▁ການຢັ້ງຢືນ	-5925
▁ຫຼັງຈາກນັ້ນ	-5926
.”	-5927
JS	-5928
ແຄ	-5929
IVE	-5930
lar	-5931
vas	-5932
ພານ	-5933
ລາງ	-5934
ອາງ	-5935
ແກະ	-5936
auda	-5937
ryst	-5938
ugin	-5939
ພາສີ	-5940
ເມັດ	-5941
▁000	-5942
▁8.2	-5943
▁DVD	-5944
▁ເດດ	-5945
erson	-5946
ffili	-5947
iding	-5948
ຊະນິດ	-5949
ສວຍງາມ	-5950
ສໍາອາງ	-5951
ອັກສອນ	-5952
▁Island	-5953
▁ເອີຣົບ	-5954
ຍິ່ງໃຫຍ່	-5955
▁Jizerou	-5956
ປະຫວັດສາດ	-5957
▁marketing	-5958
▁ການຂົນສົ່ງ	-5959
▁ການຕິດຕັ້ງ	-5960
▁ອົງການຈັດຕັ້ງ	-5961
TP	-5962
UP	-5963
ຕ໌	-5964
ຢີ	-5965
ໂຟ	-5966
▁ໍ	-5967
osp	-5968
ula	-5969
ບໄຊ	-5970
ມຸມ	-5971
ສຸມ	-5972
▁TE	-5973
▁UL	-5974
▁UN	-5975
▁ບາ	-5976
ປຸ່ມ	-5977
ຣິກາ	-5978
ສົ້ມ	-5979
ໂທລະ	-5980
▁Tim	-5981
▁one	-5982
▁ງາມ	-5983
▁ຕົກ	-5984
ທິການ	-5985
▁Stud	-5986
▁vibr	-5987
▁ທະນາ	-5988
▁ຫຼວດ	-5989
lamode	-5990
urgaon	-5991
ສະຫມຸດ	-5992
▁James	-5993
▁Paper	-5994
▁South	-5995
ກະສິກໍາ	-5996
ເຮືອບິນ	-5997
▁Driver	-5998
▁Jiangsu	-5999
▁Package	-6000
▁Vintage	-6001
▁ລະບົບການ	-6002
ທີ່ໃຊ້ເວລາ	-6003
▁Machinery	-6004
▁transposh	-6005
▁Misslamode	-6006
Cl	-6007
yr	-6008
ໄນ	-6009
Spy	-6010
aba	-6011
ism	-6012
une	-6013
ກາດ	-6014
ຖອນ	-6015
ົວກ	-6016
▁Ax	-6017
ທະເລ	-6018
▁(35	-6019
▁API	-6020
▁Jul	-6021
▁Lat	-6022
▁Rod	-6023
▁ຈັກ	-6024
ກໂນໂລ	-6025
▁Laos	-6026
▁Weld	-6027
▁soft	-6028
▁ສະພາ	-6029
covery	-6030
ration	-6031
ulette	-6032
ຜິດພາດ	-6033
ວມເອົາ	-6034
▁Cauda	-6035
▁Enter	-6036
▁Vinyl	-6037
ພາກສ່ວນ	-6038
ອາຍແກັສ	-6039
▁Oxford	-6040
ນ້ໍາຫນັກ	-6041
▁Eyelash	-6042
▁ທະນາຄານ	-6043
ຕາເວັນຕົກ	-6044
ທົນທານຕໍ່	-6045
▁Silicone	-6046
▁ເສື້ອຜ້າ	-6047
▁ຄວາມສາມາດ	-6048
▁ເຄື່ອງດູດ	-6049
▁ການຄຸ້ມຄອງ	-6050
▁ແສງສະຫວ່າງ	-6051
FF	-6052
TS	-6053
sy	-6054
▁Pa	-6055
aber	-6056
orts	-6057
▁230	-6058
▁900	-6059
▁PET	-6060
▁USA	-6061
▁ເສດ	-6062
ippie	-6063
▁+856	-6064
▁2008	-6065
▁2009	-6066
ຢູ່ທີ່	-6067
ວາງແຜນ	-6068
ສິລະປະ	-6069
ຸງແຕ່ງ	-6070
ເພື່ອນ	-6071
▁2018,	-6072
▁Color	-6073
▁bonus	-6074
ຕ້ານທານ	-6075
ເຂົ້າໃຈ	-6076
▁Burner	-6077
▁Length	-6078
▁ຄັ້ງທີ	-6079
ທີ່ສາມາດ	-6080
ຫຼຸດຜ່ອນ	-6081
ັກໂນໂລຢີ	-6082
▁ເງິນສົດ	-6083
ຂອງພວກເຂົາ	-6084
▁ຄວາມກວ້າງ	-6085
4:	-6086
Fi	-6087
HO	-6088
ts	-6089
ERI	-6090
oot	-6091
war	-6092
ທົວ	-6093
ລິມ	-6094
ໄຫຼ	-6095
▁.:	-6096
▁43	-6097
▁EX	-6098
▁GA	-6099
▁ox	-6100
heel	-6101
lion	-6102
ople	-6103
untu	-6104
ວນີ້	-6105
ເຊີຍ	-6106
▁(0)	-6107
▁ABS	-6108
▁Apk	-6109
▁Hel	-6110
▁Not	-6111
▁Tor	-6112
▁mag	-6113
▁ste	-6114
▁ພິວ	-6115
ament	-6116
tdown	-6117
ublic	-6118
ການສະ	-6119
▁hand	-6120
▁ຜູ້ນ	-6121
▁ເພາະ	-6122
ອອກຈາກ	-6123
▁Poker	-6124
▁Watch	-6125
▁ບັນຫາ	-6126
▁ລົດໄຟ	-6127
▁ເຫມາະ	-6128
ໂຄງສ້າງ	-6129
▁ກໍາລັງ	-6130
▁Facebook	-6131
▁ຈີນຜູ້ຜະລິດ	-6132
ສື່ມວນຊົນຍ່ອຍ	-6133
▁tattootattoo	-6134
▁Φ	-6135
-13	-6136
ads	-6137
eek	-6138
ele	-6139
ubs	-6140
ລືມ	-6141
▁(+	-6142
▁52	-6143
▁kn	-6144
▁ໄພ	-6145
emap	-6146
rane	-6147
ແຕ້ມ	-6148
▁0.9	-6149
▁Pal	-6150
▁Run	-6151
▁pvc	-6152
▁ຍິງ	-6153
▁ທາດ	-6154
ພະຈິກ	-6155
ຽງຈັນ	-6156
▁Core	-6157
▁Drop	-6158
▁This	-6159
icator	-6160
loader	-6161
▁Insul	-6162
▁valve	-6163
SINSTON	-6164
▁roller	-6165
▁ເລື່ອງ	-6166
ທ້ອງຖິ່ນ	-6167
▁Pattaya	-6168
▁Venturi	-6169
ທີ່ດີເລີດ	-6170
ວິສາຫະກິດ	-6171
▁Machines	-6172
▁Unlimited	-6173
gu	-6174
▁ไ	-6175
AND	-6176
icz	-6177
por	-6178
ຈິນ	-6179
ຊາວ	-6180
ດອນ	-6181
ເມນ	-6182
▁51	-6183
▁SA	-6184
▁ve	-6185
▁ວີ	-6186
ອະນາ	-6187
ຮ້ອຍ	-6188
ເກີບ	-6189
ເຊີນ	-6190
ແອັດ	-6191
▁Emb	-6192
▁new	-6193
▁ດິນ	-6194
▁ນິດ	-6195
▁ມຸມ	-6196
ening	-6197
ieces	-6198
▁Snap	-6199
▁ຫຼຸດ	-6200
▁ເບີໂ	-6201
urnace	-6202
ຂອງໂລກ	-6203
ທົດແທນ	-6204
▁Strip	-6205
▁ideas	-6206
ທະນາຄານ	-6207
ສອບເສັງ	-6208
▁Coffee	-6209
▁ໄດ້ຖືກ	-6210
ຄຣິດສະມາດ	-6211
ແສງສະຫວ່າງ	-6212
56	-6213
▁★	-6214
2.1	-6215
aha	-6216
ana	-6217
ask	-6218
ena	-6219
ໂອນ	-6220
▁47	-6221
▁DX	-6222
▁MX	-6223
▁TS	-6224
▁ໂຍ	-6225
isco	-6226
ຫຍິບ	-6227
ຫນົມ	-6228
ຮ້າຍ	-6229
ເບີດ	-6230
▁700	-6231
▁Lot	-6232
▁Rub	-6233
▁mac	-6234
▁ນອນ	-6235
▁ແຂນ	-6236
ifier	-6237
osmos	-6238
ປຶກສາ	-6239
ສີຂຽວ	-6240
▁Back	-6241
▁Edge	-6242
▁cont	-6243
▁made	-6244
▁over	-6245
▁ປ່ອງ	-6246
▁ອະນຸ	-6247
christ	-6248
ission	-6249
ອດຄ່ອງ	-6250
▁Remov	-6251
▁black	-6252
ກາຍເປັນ	-6253
ບໍລິໂພກ	-6254
▁Hippie	-6255
▁Tester	-6256
▁Express	-6257
▁ລັກສະນະ	-6258
ອໍານວຍການ	-6259
ໃບອະນຸຍາດ	-6260
▁ປະສົບການ	-6261
▁ເວົ້າວ່າ	-6262
▁ການຕະຫຼາດ	-6263
▁ຜົນໄດ້ຮັບ	-6264
▁ລະຫັດເງິນ	-6265
▁ເຮັດໃຫ້ມີແສງ	-6266
▁ຄ່າໃຊ້ຈ່າຍທັງ	-6267
▁ອັບເດດຫຼ້າສຸດ	-6268
Sl	-6269
ds	-6270
fa	-6271
ກໍ	-6272
-60	-6273
cat	-6274
ily	-6275
jet	-6276
pal	-6277
ຂັດ	-6278
ົ່ນ	-6279
▁76	-6280
▁AS	-6281
▁Wu	-6282
▁ra	-6283
▁rn	-6284
▁ຖຸ	-6285
camp	-6286
face	-6287
▁Bow	-6288
▁Mer	-6289
▁cur	-6290
▁spe	-6291
athan	-6292
etate	-6293
ດົນຕີ	-6294
▁Path	-6295
▁WebT	-6296
▁blog	-6297
▁ຝ້າຍ	-6298
ຕັດສິນ	-6299
ປະເມີນ	-6300
ອີເມລ໌	-6301
▁Patch	-6302
▁lotus	-6303
content	-6304
▁Ubuntu	-6305
▁ກວດສອບ	-6306
▁ການພິມ	-6307
▁ຄອບຄົວ	-6308
▁ສັງຄົມ	-6309
ທັນສະໄຫມ	-6310
ເອີ້ນວ່າ	-6311
▁ທໍາມະດາ	-6312
▁ສຸຂະພາບ	-6313
▁ປອກເປືອກ	-6314
ການປະຕິບັດ	-6315
▁Countdown	-6316
▁ໃນເວລາທີ່	-6317
▁Compressor	-6318
▁ລາຍຊື່ອີເມວ	-6319
▁ເຊັ່ນດຽວກັນ	-6320
▁Electrostatic	-6321
ຄວາມເປັນສ່ວນຕົວ	-6322
PO	-6323
UV	-6324
ga	-6325
ht	-6326
ทย	-6327
ປູ	-6328
ຣມ	-6329
ິມ	-6330
owe	-6331
uor	-6332
zer	-6333
ຕົງ	-6334
ອານ	-6335
▁FL	-6336
▁II	-6337
▁gl	-6338
▁la	-6339
▁ແຜ	-6340
arak	-6341
feng	-6342
gang	-6343
ixel	-6344
nbsp	-6345
rose	-6346
ຄ້ວາ	-6347
ຖານະ	-6348
ຫຍ້າ	-6349
▁Hua	-6350
▁Sar	-6351
▁man	-6352
▁rel	-6353
▁ຄາດ	-6354
▁ຄ້າ	-6355
▁ຜິດ	-6356
▁ພາດ	-6357
ading	-6358
izing	-6359
ution	-6360
າດ້ວຍ	-6361
▁work	-6362
ອີງໃສ່	-6363
▁April	-6364
▁ບັນດາ	-6365
ກໂນໂລຍີ	-6366
▁0086-5	-6367
▁cheats	-6368
enerator	-6369
ກະດານຂາວ	-6370
ປັກຮັກສາ	-6371
ສິນເຊື່ອ	-6372
▁Ninjago	-6373
▁Program	-6374
▁ມະຫາຊົນ	-6375
ເພີ່ມຂຶ້ນ	-6376
romagnetic	-6377
ຫຼາຍທີ່ສຸດ	-6378
▁ແຫຼ່ງຂໍ້ມູນ	-6379
ຂອງພວກເຮົາແມ່ນ	-6380
93	-6381
RO	-6382
mq	-6383
wp	-6384
ຶບ	-6385
ເຍ	-6386
ໃຊ	-6387
ໄຕ	-6388
▁←	-6389
GHT	-6390
MED	-6391
ras	-6392
stR	-6393
ກິນ	-6394
ທຽມ	-6395
ລາມ	-6396
ເສບ	-6397
▁7:	-6398
▁CM	-6399
▁Us	-6400
▁ເຍ	-6401
▁ໂນ	-6402
chat	-6403
▁12:	-6404
▁170	-6405
▁190	-6406
▁650	-6407
▁Bat	-6408
▁Den	-6409
▁Mil	-6410
▁War	-6411
▁bag	-6412
▁top	-6413
▁ຂາວ	-6414
otton	-6415
າດຊາຍ	-6416
▁Text	-6417
▁ຫນົນ	-6418
▁ເກີດ	-6419
ຕໍ່ສູ້	-6420
ທຸກຄົນ	-6421
▁Metat	-6422
▁River	-6423
▁Spong	-6424
stRider	-6425
▁Fridge	-6426
▁ສະນັ້ນ	-6427
ການແກ້ໄຂ	-6428
▁Molding	-6429
▁virtual	-6430
▁ປະຊາຊົນ	-6431
ການເດີນທາງ	-6432
▁ງວນລິຂະສິດ	-6433
▁Application	-6434
▁ຄວາມຕ້ອງການ	-6435
▁Precipitator	-6436
ba	-6437
gg	-6438
uz	-6439
-09	-6440
-17	-6441
gsm	-6442
ida	-6443
ste	-6444
ນ້ໍ	-6445
ລົບ	-6446
ເທນ	-6447
ເນີ	-6448
▁BK	-6449
▁ລີ	-6450
.0.3	-6451
ເຮົາ	-6452
▁(25	-6453
▁750	-6454
▁FAQ	-6455
▁FSX	-6456
▁THB	-6457
▁son	-6458
▁ຂົນ	-6459
ainer	-6460
ickel	-6461
▁disc	-6462
▁pass	-6463
▁ຮ່າງ	-6464
tlanta	-6465
ຂັບລົດ	-6466
▁ທີ່ຈະ	-6467
ໂດຍຜ່ານ	-6468
▁rotary	-6469
▁ຕົວແທນ	-6470
▁ອັງກິດ	-6471
▁Gurgaon	-6472
ifunction	-6473
ຂອງເຄື່ອງ	-6474
ເລືອກເອົາ	-6475
▁ໃນມື້ນີ້	-6476
ການຕິດຕັ້ງ	-6477
ທີ່ຖືກຕ້ອງ	-6478
ຜົນສໍາເລັດ	-6479
ະພາບເອີຣົບ	-6480
▁collector	-6481
53	-6482
64	-6483
HR	-6484
dy	-6485
yu	-6486
ບດ	-6487
ຟລ	-6488
ANG	-6489
IDS	-6490
USD	-6491
bul	-6492
ico	-6493
ony	-6494
ສີມ	-6495
▁1)	-6496
▁px	-6497
▁ຖະ	-6498
icle	-6499
▁240	-6500
▁LCD	-6501
▁Mus	-6502
▁Ret	-6503
▁WMC	-6504
▁ກາຍ	-6505
▁ຄອງ	-6506
▁ທົນ	-6507
▁ບິນ	-6508
ກະບອກ	-6509
ບາຍດີ	-6510
ເຊິ່ງ	-6511
ເວັ້ນ	-6512
▁Acid	-6513
▁Chon	-6514
▁Hard	-6515
bowicz	-6516
totype	-6517
ທີມງານ	-6518
▁Clash	-6519
▁Excel	-6520
ໃນປະເທດ	-6521
▁Studio	-6522
▁Bearing	-6523
▁ການບັນຈຸ	-6524
▁Mountains	-6525
▁ຂໍ້ມູນເກມ	-6526
▁ຄົນອັບເດດ	-6527
▁ເຊື່ອມຕໍ່	-6528
▁ຂຸດຄົ້ນບໍ່ແຮ່	-6529
DA	-6530
▁万	-6531
-19	-6532
-80	-6533
res	-6534
▁39	-6535
▁HK	-6536
▁HY	-6537
▁ນ້	-6538
▁ໄຮ	-6539
▁万象	-6540
.000	-6541
ense	-6542
iger	-6543
ຫລໍ່	-6544
ແຂວງ	-6545
▁Bad	-6546
▁ທີມ	-6547
MEDIA	-6548
enger	-6549
field	-6550
ision	-6551
itute	-6552
merce	-6553
ນະຄອນ	-6554
ັດລັບ	-6555
ເຊົ້າ	-6556
▁Moto	-6557
▁Ring	-6558
▁ຫລັກ	-6559
osphor	-6560
ຈາກການ	-6561
ສະເຫມີ	-6562
▁Cross	-6563
▁Hotel	-6564
▁Techn	-6565
utorial	-6566
ທີ່ຫນ້າ	-6567
▁mobile	-6568
ffiliate	-6569
▁Unthank	-6570
▁ຄວາມຖີ່	-6571
▁ໂມເລກຸນ	-6572
▁ໃຫ້ຂ່າວ	-6573
MEDIAcamp	-6574
ຕາເວັນອອກ	-6575
ໃນເວລາທີ່	-6576
▁Blasting	-6577
▁Chemical	-6578
▁Garbowicz	-6579
▁ເນື່ອງຈາກ	-6580
▁ເດືອນທັນວາ	-6581
▁ຫງວນລິຂະສິດ	-6582
ທີ່ໃຫຍ່ທີ່ສຸດ	-6583
▁Electromagnetic	-6584
IO	-6585
dr	-6586
▁u	-6587
-90	-6588
bar	-6589
iti	-6590
lan	-6591
ola	-6592
ລ່າ	-6593
ເມີ	-6594
▁Je	-6595
▁UP	-6596
▁my	-6597
1000	-6598
alth	-6599
avor	-6600
enna	-6601
ries	-6602
ural	-6603
ຫນຽວ	-6604
ອາຊີ	-6605
▁115	-6606
▁27,	-6607
▁7.4	-6608
▁770	-6609
▁Fit	-6610
▁has	-6611
▁ເອດ	-6612
▁້ໍາ	-6613
▁Gate	-6614
▁Phil	-6615
▁Sign	-6616
▁ນໍ້າ	-6617
▁ເຕັກ	-6618
▁ແຂ້ວ	-6619
ກໍ່ຕາມ	-6620
ພາຫະນະ	-6621
▁super	-6622
▁ແກ້ໄຂ	-6623
ຮ່ວມກັນ	-6624
▁String	-6625
▁ພູເຂົາ	-6626
▁ຢ່າງໃດ	-6627
ສ່ວນໃຫຍ່	-6628
▁ຕ້ອງການ	-6629
ຄວາມສາມາດ	-6630
▁Connector	-6631
ຈໍາເປັນຕ້ອງ	-6632
▁Metatrader	-6633
NO	-6634
电话	-6635
ael	-6636
yle	-6637
ປືນ	-6638
▁Hi	-6639
2020	-6640
berg	-6641
ette	-6642
isha	-6643
ving	-6644
yuan	-6645
ຮົ້ວ	-6646
້ນໍາ	-6647
▁(2,	-6648
▁Fer	-6649
▁Mai	-6650
▁NYE	-6651
▁Sal	-6652
▁Sem	-6653
▁Veg	-6654
▁Wal	-6655
▁acc	-6656
▁ພົບ	-6657
▁ພຽງ	-6658
Spyoo	-6659
izhou	-6660
▁(200	-6661
▁Bike	-6662
▁more	-6663
▁ທ່ຽວ	-6664
▁ເພັດ	-6665
AMPION	-6666
ຈາລະນາ	-6667
ຍອມຮັບ	-6668
ຕົວແທນ	-6669
ລັດເຊຍ	-6670
ເລື່ອນ	-6671
▁10000	-6672
▁Adder	-6673
▁Cable	-6674
▁Ratch	-6675
▁ກະຊວງ	-6676
sterone	-6677
ເງິນຂອງ	-6678
▁Relief	-6679
▁ຫມໍ້ໄຟ	-6680
▁ອະໄຫລ່	-6681
ເງື່ອນໄຂ	-6682
ເຫຼັກກ້າ	-6683
▁Profile	-6684
▁ຖ່ານຫີນ	-6685
▁ຫ້ອງການ	-6686
▁ໂຄງສ້າງ	-6687
▁Electric	-6688
▁ລົງທະບຽນ	-6689
▁semicolon	-6690
▁ໄດ້ຮັບການ	-6691
▁ການແຂ່ງຂັນ	-6692
▁ວິທະຍາໄລຂອງ	-6693
ຄໍາຮ້ອງສະຫມັກ	-6694
▁ລະບົບຕ່ອງໂສ້	-6695
▁ຕິດຕໍ່ພວກເຮົາ	-6696
ຟູ	-6697
资本	-6698
-50	-6699
/10	-6700
STM	-6701
asy	-6702
elo	-6703
iki	-6704
▁6.	-6705
▁62	-6706
▁电话	-6707
avic	-6708
stan	-6709
tain	-6710
uket	-6711
▁Dom	-6712
▁Pri	-6713
▁ມັກ	-6714
under	-6715
ເຕືອນ	-6716
▁Matt	-6717
▁Rome	-6718
▁ກິໂລ	-6719
▁万象资本	-6720
rivate	-6721
ຄໍາຖາມ	-6722
ຊານຕົງ	-6723
▁ມີການ	-6724
ສ້າງສັນ	-6725
ສໍາຫຼວດ	-6726
▁Phuket	-6727
▁Player	-6728
▁ລັດເຊຍ	-6729
▁ລົດຈັກ	-6730
▁ສິນຄ້າ	-6731
▁ແລະມັນ	-6732
ລັດຖະບານ	-6733
ຫນຶ່ງຂອງ	-6734
ອົງປະກອບ	-6735
ification	-6736
▁Material	-6737
▁ແມ່ເຫຼັກ	-6738
ທີ່ເຫມາະສົມ	-6739
▁ຊື່ຂອງທ່ານ	-6740
▁ສູດໂມເລກຸນ	-6741
ຂໍ້ມູນຂ່າວສານ	-6742
▁ບົດຄວາມຕໍ່ໄປ	-6743
▁ເດືອນພຶດສະພາ	-6744
▁ສະຫະລັດອາເມລິກາ	-6745
4-	-6746
GD	-6747
RN	-6748
ກີ	-6749
ຊິ	-6750
ແສ	-6751
.99	-6752
ker	-6753
ody	-6754
roz	-6755
ພູມ	-6756
ຢືມ	-6757
▁78	-6758
▁BS	-6759
▁Et	-6760
▁Ta	-6761
▁ip	-6762
▁£,	-6763
▁ແມ	-6764
▁ແອ	-6765
andy	-6766
ters	-6767
ຂວັນ	-6768
ມີນາ	-6769
ຫວັງ	-6770
▁0.2	-6771
▁Bit	-6772
▁Gun	-6773
▁PHP	-6774
▁Tel	-6775
▁ind	-6776
▁lin	-6777
▁ທຶກ	-6778
▁ພັດ	-6779
icker	-6780
▁4000	-6781
▁Aven	-6782
▁ຫມຶກ	-6783
edding	-6784
ທີ່ໃຊ້	-6785
ວຽກງານ	-6786
▁2019,	-6787
▁Linen	-6788
▁Piece	-6789
▁Relay	-6790
▁ພະແນກ	-6791
ແບ່ງປັນ	-6792
ແມ່ນການ	-6793
▁Tablet	-6794
▁ຄວບຄຸມ	-6795
▁ໂດຍກົງ	-6796
ຍຸດທະສາດ	-6797
ເກີດຂຶ້ນ	-6798
ເປັນເຈົ້າ	-6799
ແລະເຄື່ອງ	-6800
ໃບຢັ້ງຢືນ	-6801
ໄປຢ້ຽມຢາມ	-6802
▁ສີເຫຼືອງ	-6803
▁ດາວໂຫຼດຟຣີ	-6804
▁ການສະກົດຈິດ	-6805
PN	-6806
fr	-6807
ih	-6808
ກ໊	-6809
ຣາ	-6810
-07	-6811
ຄົດ	-6812
ປານ	-6813
ລານ	-6814
▁!!	-6815
▁6:	-6816
▁94	-6817
▁Lu	-6818
▁av	-6819
▁ed	-6820
▁ສື	-6821
▁ແຄ	-6822
▁ໂພ	-6823
apez	-6824
cker	-6825
irus	-6826
ຮຸ້ນ	-6827
ເຕີ້	-6828
▁140	-6829
▁Hor	-6830
▁Imp	-6831
▁ສັກ	-6832
apter	-6833
ished	-6834
ratch	-6835
ປະກາດ	-6836
ີດີໂອ	-6837
▁Cake	-6838
▁Cond	-6839
▁ຖ່າຍ	-6840
▁ປື້ມ	-6841
ຕົວແບບ	-6842
▁Union	-6843
▁mavic	-6844
ກໍາເນີດ	-6845
ິດທິຜົນ	-6846
ເຊື່ອຖື	-6847
ເລັບແມວ	-6848
▁Sensor	-6849
▁Turkey	-6850
▁ທີມງານ	-6851
▁Dresses	-6852
▁acrylic	-6853
▁ພະຍາຍາມ	-6854
ພວກເຮົາມີ	-6855
▁Knitting	-6856
▁ສະຫນາມບິນ	-6857
ປະເພດຂີ້ຝຸ່ນ	-6858
/5	-6859
AE	-6860
HZ	-6861
Me	-6862
ທາ	-6863
ລື	-6864
ໄຍ	-6865
hib	-6866
loy	-6867
ີນິ	-6868
ເປນ	-6869
▁AF	-6870
▁CL	-6871
▁EM	-6872
▁TW	-6873
▁`%	-6874
▁el	-6875
▁ອິ	-6876
▁ໄກ	-6877
Chat	-6878
ason	-6879
gden	-6880
ixer	-6881
oder	-6882
ມ່ວນ	-6883
ສ່ຽງ	-6884
ຽງໄຮ	-6885
ເອັນ	-6886
▁Lab	-6887
▁Pil	-6888
▁SKU	-6889
▁Vjs	-6890
▁ben	-6891
▁vis	-6892
▁ກົມ	-6893
ATION	-6894
clubs	-6895
eller	-6896
ience	-6897
oween	-6898
prise	-6899
acking	-6900
ewater	-6901
osting	-6902
ຖະຫນົນ	-6903
▁Final	-6904
ຫົວຫນ້າ	-6905
▁Cement	-6906
▁Commun	-6907
▁Valves	-6908
▁ຕົນເອງ	-6909
ເພື່ອໃຫ້	-6910
▁Manager	-6911
▁Sticker	-6912
▁ສະບາຍດີ	-6913
▁roulette	-6914
estosterone	-6915
▁Nightclubs	-6916
▁ການເຮັດວຽກ	-6917
▁ພວກເຮົາໄດ້	-6918
Manufacturer	-6919
▁ການເດີນທາງລົດໄຟ	-6920
".	-6921
DH	-6922
II	-6923
.06	-6924
122	-6925
IFI	-6926
put	-6927
ກຽດ	-6928
▁go	-6929
iral	-6930
ishi	-6931
ປ່ອງ	-6932
ເສົາ	-6933
▁EVA	-6934
▁KTM	-6935
▁Nan	-6936
▁art	-6937
▁ກະດ	-6938
▁ທົດ	-6939
ກະຊວງ	-6940
ອັດຕາ	-6941
ເລືອດ	-6942
▁Liam	-6943
▁Real	-6944
▁Spin	-6945
▁char	-6946
▁ຮ້ອງ	-6947
affeta	-6948
bygden	-6949
ipping	-6950
ທັງສອງ	-6951
ເນື່ອງ	-6952
▁89.00	-6953
ການປ່ອຍ	-6954
ພະຍາກອນ	-6955
▁cosmos	-6956
ຂອງມະນຸດ	-6957
ຈົດທະບຽນ	-6958
ທີ່ບໍ່ມີ	-6959
▁ການອ່ານ	-6960
velopment	-6961
ອອກແບບໂດຍ	-6962
ອາລູມິນຽມ	-6963
ໂດຍທົ່ວໄປ	-6964
▁ປະເພດຖົງ	-6965
ເປັນຈໍານວນ	-6966
ເປັນທາງການ	-6967
▁Institute	-6968
▁ຜົນປະໂຫຍດ	-6969
▁Discharger	-6970
▁ເດືອນກຸມພາ	-6971
AK	-6972
FS	-6973
SE	-6974
xi	-6975
ຣດ	-6976
001	-6977
015	-6978
arp	-6979
lon	-6980
ouk	-6981
ຂວາ	-6982
ຟຟລ	-6983
ຫຸງ	-6984
ເຕະ	-6985
▁-.	-6986
▁41	-6987
▁HB	-6988
arch	-6989
ingo	-6990
່ງໃສ	-6991
▁DIN	-6992
▁RSS	-6993
▁ไทย	-6994
▁ທວນ	-6995
▁ສົດ	-6996
▁ໂປຣ	-6997
▁ໃຕ້	-6998
anges	-6999
craft	-7000
oster	-7001
▁Data	-7002
▁Visa	-7003
າຍຄວາມ	-7004
ເຫລືອງ	-7005
▁Games	-7006
▁Point	-7007
▁eagle	-7008
▁fiber	-7009
▁ອົງສາ	-7010
ປະຈໍາປີ	-7011
ຫຼັກຊັບ	-7012
▁ຢ່າລືມ	-7013
▁ລັບການ	-7014
ໍານັກງານ	-7015
▁ປະຕິທິນ	-7016
▁ປັບແຕ່ງ	-7017
ຄົນອັບເດດ	-7018
ໃນຕອນຕົ້ນ	-7019
▁Extrusion	-7020
▁ເທກໂນໂລຍີ	-7021
ເອເລັກໂຕຣນິກ	-7022
▁ເດືອນມິຖຸນາ	-7023
OG	-7024
cb	-7025
ຊະ	-7026
ອີ	-7027
-08	-7028
-26	-7029
.60	-7030
700	-7031
ASH	-7032
Bet	-7033
enu	-7034
oul	-7035
▁//	-7036
▁BE	-7037
▁JW	-7038
▁PN	-7039
▁ri	-7040
▁ຄະ	-7041
iano	-7042
inch	-7043
long	-7044
unny	-7045
ຫ່າງ	-7046
ໂດລາ	-7047
▁'',	-7048
▁6.0	-7049
▁CAN	-7050
▁DMF	-7051
▁Djs	-7052
▁End	-7053
▁Lap	-7054
▁Oct	-7055
▁Pac	-7056
▁Syn	-7057
▁sim	-7058
▁ຊົນ	-7059
/2017	-7060
annel	-7061
endar	-7062
▁Cour	-7063
▁Maxi	-7064
▁ຮ່ອງ	-7065
▁ເນີນ	-7066
ersion	-7067
ຄໍາວ່າ	-7068
ທີ່ດິນ	-7069
ວົງຈອນ	-7070
ສະຫງວນ	-7071
▁Promo	-7072
▁Samui	-7073
apezoid	-7074
ເຮັດໄດ້	-7075
▁Odisha	-7076
▁Sponge	-7077
▁iSpyoo	-7078
▁sleeve	-7079
▁Factory	-7080
▁Optical	-7081
▁CHAMPION	-7082
▁ໄລຍະເວລາ	-7083
▁ສ່ວນປະກອບ	-7084
▁ເລີ່ມຕົ້ນ	-7085
▁ການເຊື່ອມຕໍ່	-7086
▁ສະແດງໃຫ້ເຫັນ	-7087
uj	-7088
ໃຜ	-7089
ely	-7090
ems	-7091
emy	-7092
new	-7093
ຈະລ	-7094
ຕິນ	-7095
ລຶບ	-7096
ວິນ	-7097
ສືບ	-7098
ເບຍ	-7099
▁Az	-7100
▁HR	-7101
▁MO	-7102
▁Sy	-7103
▁fo	-7104
▁ຕໍ	-7105
-150	-7106
akes	-7107
itar	-7108
rabi	-7109
rier	-7110
ຈຶ່ງ	-7111
ຕົ້ມ	-7112
ເລ່ຍ	-7113
▁316	-7114
▁dep	-7115
▁ກົກ	-7116
▁ຄອນ	-7117
▁ດັບ	-7118
/2016	-7119
Shirt	-7120
etter	-7121
ibaba	-7122
ລະຄອນ	-7123
ຽດນາມ	-7124
ເຄິ່ງ	-7125
▁ASTM	-7126
▁Camb	-7127
▁Tele	-7128
▁Udon	-7129
▁prof	-7130
▁ແຈ້ງ	-7131
meOnce	-7132
ograph	-7133
ສັງເກດ	-7134
ແນ່ນອນ	-7135
▁Korat	-7136
▁Krabi	-7137
▁Range	-7138
▁Share	-7139
▁Virus	-7140
▁ກາຕູນ	-7141
▁ສີຟ້າ	-7142
ປະກັນໄພ	-7143
ໄດ້ຢ່າງ	-7144
▁Pathom	-7145
▁Rayong	-7146
▁Sludge	-7147
ຊົງກະບອກ	-7148
▁Acrylic	-7149
▁ສຸດທ້າຍ	-7150
ປະສົມປະສານ	-7151
ຸດົມສົມບູນ	-7152
▁ໂລຫະປະສົມ	-7153
▁ເດືອນກໍລະກົດ	-7154
":	-7155
HC	-7156
KK	-7157
UF	-7158
tr	-7159
yi	-7160
ຖບ	-7161
.23	-7162
/12	-7163
acu	-7164
kgs	-7165
ຊວນ	-7166
ປິກ	-7167
ຝັງ	-7168
ພໍ່	-7169
ແປດ	-7170
▁1%	-7171
▁AD	-7172
▁GP	-7173
acqu	-7174
cted	-7175
flex	-7176
qing	-7177
wood	-7178
ລະດູ	-7179
ເຈັບ	-7180
▁105	-7181
▁AMP	-7182
▁Sec	-7183
▁etc	-7184
▁pay	-7185
▁ຕໍາ	-7186
▁ຜິວ	-7187
.0.30	-7188
round	-7189
ພິການ	-7190
▁Aria	-7191
▁Code	-7192
▁Plug	-7193
illage	-7194
ombath	-7195
ຂອງມັນ	-7196
ມູນຄ່າ	-7197
▁Quick	-7198
▁Roger	-7199
▁Solom	-7200
▁Tower	-7201
▁ເອດພີ	-7202
ຂອງຂ້ອຍ	-7203
ຕູ້ເຢັນ	-7204
▁Thread	-7205
▁ຊູແອັດ	-7206
▁ຜູ້ຂຽນ	-7207
▁ໂດຍການ	-7208
,000,000	-7209
ຄົ້ນຄ້ວາ	-7210
ຕົວເມືອງ	-7211
▁ໃນເດືອນ	-7212
ຄະນະກໍາມະ	-7213
▁Shopping	-7214
▁ການລົງທຶນ	-7215
▁ຕັ້ງຢູ່ໃນ	-7216
▁ແສງຕາເວັນ	-7217
▁Holmbygden	-7218
ເງິນຂອງບັນທຶກ	-7219
▁ພວກເຂົາເຈົ້າ	-7220
62	-7221
As	-7222
ta	-7223
za	-7224
ORD	-7225
ala	-7226
cam	-7227
ຍືນ	-7228
ທາຍ	-7229
ປະຖ	-7230
▁Ko	-7231
▁Mo	-7232
▁gr	-7233
▁ຟໍ	-7234
Book	-7235
chun	-7236
edit	-7237
emon	-7238
ills	-7239
info	-7240
orld	-7241
ounc	-7242
rodu	-7243
ship	-7244
▁Est	-7245
▁Hin	-7246
▁Rai	-7247
▁Viv	-7248
▁Yai	-7249
▁bul	-7250
▁ນາຍ	-7251
▁ຢືນ	-7252
ກໍຕາມ	-7253
ບໄຊທ໌	-7254
ສະບາຍ	-7255
່ອງໄວ	-7256
▁6000	-7257
▁KIDS	-7258
▁Lead	-7259
ຂອງຜູ້	-7260
ຄອນເທນ	-7261
ຜູ້ນໍາ	-7262
ວຽງຈັນ	-7263
ໂມຊັ່ນ	-7264
ໃຫ້ແກ່	-7265
▁Ether	-7266
▁Plant	-7267
▁Thamm	-7268
▁Views	-7269
▁hydro	-7270
▁ບລັອກ	-7271
▁ອີເມລ	-7272
ປະລິມານ	-7273
ເປັນການ	-7274
ເອກະລັກ	-7275
▁86-574	-7276
▁Cooler	-7277
▁Powder	-7278
▁Royale	-7279
▁ຕາເວັນ	-7280
▁ເຂື່ອນ	-7281
▁Control	-7282
▁Lampang	-7283
ewatering	-7284
ໂດຍກົງກັບ	-7285
▁Electron	-7286
▁ການພະນັນ	-7287
▁ຄວາມເປັນ	-7288
ທີ່ບໍ່ແມ່ນ	-7289
ສະບັບເລກທີ	-7290
▁ອົດສະຕາລີ	-7291
▁ໂທຫ້ອງການ	-7292
ສາດສະຫນາຈັກ	-7293
ຕ້ອງການທີ່ຈະ	-7294
▁Refinecolor	-7295
▁ຄຸນນະພາບສູງ	-7296
▁ທີ່ຢູ່ອີເມວ	-7297
▁ຢ່າລືມກ່ຽວກັບ	-7298
59	-7299
da	-7300
ko	-7301
ໄຈ	-7302
▁;	-7303
/11	-7304
IDE	-7305
MLE	-7306
ima	-7307
ຄາບ	-7308
ຈົນ	-7309
ຊັນ	-7310
ຊ່າ	-7311
ຖຽງ	-7312
ປອງ	-7313
ຢາກ	-7314
້ວມ	-7315
▁63	-7316
▁FN	-7317
▁PA	-7318
▁£;	-7319
,...	-7320
airs	-7321
book	-7322
flon	-7323
thab	-7324
uted	-7325
ຊື່ນ	-7326
ທໍານ	-7327
ວັດຖ	-7328
▁(12	-7329
▁(20	-7330
▁0.6	-7331
▁50%	-7332
▁BCH	-7333
▁Bel	-7334
▁GMP	-7335
▁JPY	-7336
▁Mad	-7337
▁Toy	-7338
▁WPC	-7339
▁met	-7340
▁ຄັນ	-7341
▁ຊາດ	-7342
▁ປຸກ	-7343
atuit	-7344
olone	-7345
ຟຣິກາ	-7346
ໄປໄດ້	-7347
▁Buri	-7348
▁COIN	-7349
▁Cord	-7350
▁Girl	-7351
▁Loei	-7352
▁Need	-7353
▁Wars	-7354
▁[...	-7355
▁they	-7356
▁ກາເຟ	-7357
▁ສະຫມ	-7358
athani	-7359
legant	-7360
ພາກຮຽນ	-7361
ເສຍຄ່າ	-7362
້ວາງໃຈ	-7363
▁Surat	-7364
otropin	-7365
thaburi	-7366
ບໍລິສຸດ	-7367
ປັບແຕ່ງ	-7368
ຫນ້າຂອງ	-7369
ໃນເດືອນ	-7370
▁ສີນ້ໍາ	-7371
▁ສົມບັດ	-7372
▁ເກມອອນ	-7373
▁Desktop	-7374
▁Network	-7375
▁ຕາຫນ່າງ	-7376
ຄອນເທນເນີ	-7377
ຕັ້ງແຕ່ປີ	-7378
ເປົ້າຫມາຍ	-7379
▁Calendar	-7380
▁ການເຄືອບ	-7381
▁ຂະບວນການ	-7382
▁ເສັ້ນທາງ	-7383
▁LogmeOnce	-7384
▁Thammarat	-7385
:.	-7386
ORM	-7387
Pir	-7388
lay	-7389
ຈອດ	-7390
ດັດ	-7391
ທຽນ	-7392
ໂມນ	-7393
▁#&	-7394
▁EA	-7395
▁Fe	-7396
▁Ft	-7397
-300	-7398
Outs	-7399
acle	-7400
edia	-7401
roll	-7402
tech	-7403
ກ້ອນ	-7404
ປັ໊ມ	-7405
ເກາະ	-7406
▁GSM	-7407
▁Her	-7408
▁Ins	-7409
▁Rec	-7410
▁TPU	-7411
▁Yam	-7412
▁ກະຕ	-7413
▁ບາຍ	-7414
▁ສະຖ	-7415
▁ຫານ	-7416
razil	-7417
ຕາມິນ	-7418
ທັນທີ	-7419
ເອດເອ	-7420
▁1100	-7421
▁BCHT	-7422
▁Fair	-7423
▁Ubon	-7424
▁Xbox	-7425
▁also	-7426
▁cake	-7427
▁ລະດູ	-7428
▁ອ່ອນ	-7429
▁ແຂ່ງ	-7430
▁ແຟັກ	-7431
Casino	-7432
orrent	-7433
utting	-7434
ຕາຂ່າຍ	-7435
ທອງແດງ	-7436
ລະເບີດ	-7437
ສະຖານີ	-7438
ເອດເອດ	-7439
▁Angle	-7440
▁Metro	-7441
▁Paris	-7442
▁after	-7443
▁sonit	-7444
▁ຕາລາງ	-7445
▁ມັນມີ	-7446
ສະວະກໍາ	-7447
▁Linked	-7448
▁Soccer	-7449
▁ອີງຕາມ	-7450
ທາດເຫຼັກ	-7451
▁Instrum	-7452
▁Sitemap	-7453
▁Textile	-7454
▁ຫົວຫນ້າ	-7455
▁Diffuser	-7456
▁Recovery	-7457
▁Ultimate	-7458
▁ຕໍາແຫນ່ງ	-7459
ສໍາເລັດຂອງ	-7460
▁ການເຊື່ອມ	-7461
ເອດເອດເອດເອ	-7462
▁Nonthaburi	-7463
▁sonitattoo	-7464
▁Ratchathani	-7465
ຂອງຜະລິດຕະພັນ	-7466
▁ມົນທົນຊານຕົງ	-7467
▁ເອເລັກໂຕຣນິກ	-7468
ສາມາດເຂົ້າເຖິງ	-7469
04	-7470
HD	-7471
df	-7472
ຶມ	-7473
ໂຈ	-7474
LEG	-7475
afu	-7476
aga	-7477
can	-7478
ຊັກ	-7479
ິຕິ	-7480
ເຈຍ	-7481
ເວີ	-7482
▁**	-7483
▁Av	-7484
▁Sa	-7485
▁bo	-7486
▁ຫໍ	-7487
asma	-7488
iner	-7489
ould	-7490
rypt	-7491
ຄ່ໍາ	-7492
າຍັງ	-7493
ເຂັມ	-7494
ເຕີບ	-7495
▁2.6	-7496
▁31,	-7497
▁Add	-7498
▁Yue	-7499
▁pcs	-7500
▁ຍາດ	-7501
▁ປອດ	-7502
▁ສີ່	-7503
▁ແຜງ	-7504
28113	-7505
cross	-7506
rozen	-7507
ຈະຖືກ	-7508
ສະກັດ	-7509
ອນດອນ	-7510
▁CNIL	-7511
▁Penn	-7512
▁Rail	-7513
▁With	-7514
▁star	-7515
▁supp	-7516
▁ທ່ອງ	-7517
▁ຮົ້ວ	-7518
irates	-7519
ubarak	-7520
ຖ້າຫາກ	-7521
ບັງຄັບ	-7522
ຽກຮ້ອງ	-7523
▁Sales	-7524
▁Therm	-7525
▁Trang	-7526
▁spark	-7527
▁ລັດຖະ	-7528
ication	-7529
ລາຄາຖືກ	-7530
ຫຼຸດລົງ	-7531
▁Castle	-7532
▁Cotton	-7533
▁Guitar	-7534
▁Rubber	-7535
▁ປຽບທຽບ	-7536
▁ວົງຈອນ	-7537
endering	-7538
▁1528113	-7539
▁Adapter	-7540
▁ມູນນິທິ	-7541
▁ເຄັດລັບ	-7542
ຂອງລູກຄ້າ	-7543
ໂລຫະປະສົມ	-7544
▁ມັນສາມາດ	-7545
ຜູ້ຊ່ຽວຊານ	-7546
▁ຄວາມໄວສູງ	-7547
▁ໃນຂະນະທີ່	-7548
ການໃຫ້ອາຫານ	-7549
▁Microfiber	-7550
▁ເດືອນພະຈິກ	-7551
▁ເລືອກເມືອງ	-7552
ໄວ້ໃນຕອນຕົ້ນ	-7553
▁ມະຫາວິທະຍາໄລ	-7554
▁ທີ່ຖືກອອກແບບໂດຍ	-7555
--	-7556
CA	-7557
RA	-7558
my	-7559
rd	-7560
-27	-7561
.20	-7562
axi	-7563
jin	-7564
ົ໋ວ	-7565
ເກງ	-7566
ແນ່	-7567
▁68	-7568
▁Ir	-7569
▁Ji	-7570
▁Py	-7571
▁RS	-7572
▁Vi	-7573
▁es	-7574
▁gu	-7575
▁if	-7576
-100	-7577
anda	-7578
comp	-7579
irst	-7580
mmer	-7581
ຊ້ໍາ	-7582
ຖ້ວມ	-7583
ພາລາ	-7584
ສັ່ນ	-7585
▁Ham	-7586
▁Lan	-7587
▁Roi	-7588
▁ref	-7589
▁tow	-7590
▁ຜັກ	-7591
ustry	-7592
ແຫຼ່ງ	-7593
▁5000	-7594
▁Anal	-7595
▁JACK	-7596
▁Yang	-7597
▁Zhen	-7598
▁ປັ໊ມ	-7599
atform	-7600
ຜູ້ທີ່	-7601
ີນິເຈີ	-7602
▁Capac	-7603
▁Class	-7604
▁Guide	-7605
▁Pilon	-7606
▁Vegas	-7607
▁Zhong	-7608
▁clamp	-7609
▁pulse	-7610
Pirater	-7611
ພັກຜ່ອນ	-7612
ພາກພື້ນ	-7613
ອຸດສາຫະ	-7614
▁(2015)	-7615
▁ຜູ້ທີ່	-7616
▁ໃນຖານະ	-7617
ofchrist	-7618
ຈຸດປະສົງ	-7619
ທີ່ມີຢູ່	-7620
▁Furnace	-7621
▁Gratuit	-7622
▁Sliding	-7623
▁discuss	-7624
▁tattood	-7625
▁youjian	-7626
▁ກໍ່ສ້າງ	-7627
▁ອາບນ້ໍາ	-7628
ຕົ້ນສະບັບ	-7629
▁Tattoost	-7630
▁terminal	-7631
▁ການວິເຄາະ	-7632
▁ຖານຂໍ້ມູນ	-7633
▁ບົດລາຍງານ	-7634
▁ວິທະຍາສາດ	-7635
▁ຖົງການກັ່ນຕອງ	-7636
▁ພື້ນທີ່ຂອງທ່ານ	-7637
ca	-7638
-28	-7639
.40	-7640
ONT	-7641
fox	-7642
rim	-7643
tic	-7644
una	-7645
ຊັດ	-7646
ດອກ	-7647
ອາບ	-7648
▁ml	-7649
2017	-7650
ຸດິບ	-7651
▁(11	-7652
▁135	-7653
▁CPU	-7654
▁ERW	-7655
▁SAP	-7656
▁red	-7657
▁ຫໍ່	-7658
▁ອີກ	-7659
amine	-7660
ollow	-7661
ສີຟ້າ	-7662
ສີແດງ	-7663
ົນທາງ	-7664
ໍາລາຍ	-7665
ໍາລຸງ	-7666
▁Feng	-7667
▁Rent	-7668
▁Trip	-7669
▁high	-7670
▁stud	-7671
▁time	-7672
▁ຍ້າຍ	-7673
estern	-7674
ຕະຫລາດ	-7675
າກຫຼາຍ	-7676
▁Break	-7677
▁Level	-7678
▁smart	-7679
ຈໍາເພາະ	-7680
ອາບນ້ໍາ	-7681
ເຮັດງານ	-7682
▁Avenue	-7683
▁ສາທາລະ	-7684
ຕໍ່ໄປນີ້	-7685
ປະກອບການ	-7686
ຫມັ້ນຄົງ	-7687
ເວົ້າວ່າ	-7688
▁Charger	-7689
▁Planner	-7690
▁Sombath	-7691
▁Starter	-7692
▁Village	-7693
▁WebSite	-7694
ພວກເຮົາຈະ	-7695
▁Tanzania	-7696
▁ອົງປະກອບ	-7697
▁Changchun	-7698
▁ການຂະຫຍາຍ	-7699
▁ຄຸນສົມບັດ	-7700
ຄວາມຄິດເຫັນ	-7701
▁ປະຈໍາເດືອນ	-7702
▁ເຫມາະສົມດໍາ	-7703
▁ຄວາມຫນາແຫນ້ນ	-7704
wu	-7705
yc	-7706
▁‘	-7707
BET	-7708
ONG	-7709
ato	-7710
edi	-7711
pet	-7712
set	-7713
ule	-7714
ຍາຍ	-7715
ດີດ	-7716
ຜົມ	-7717
ສິບ	-7718
ໃດໆ	-7719
▁::	-7720
▁CZ	-7721
▁Jo	-7722
▁LE	-7723
▁OD	-7724
▁WE	-7725
▁ເຜ	-7726
base	-7727
clud	-7728
ging	-7729
phur	-7730
ເລິກ	-7731
ແຂ້ວ	-7732
▁(3,	-7733
▁EAS	-7734
▁Mem	-7735
▁Mun	-7736
▁ກິນ	-7737
▁ຈົນ	-7738
ector	-7739
ໃນໂລກ	-7740
ໍາລອງ	-7741
▁....	-7742
▁Song	-7743
▁Yula	-7744
▁cart	-7745
▁cost	-7746
▁live	-7747
▁post	-7748
▁ສັ່ງ	-7749
▁ແຫ້ງ	-7750
apping	-7751
change	-7752
osable	-7753
roller	-7754
rystal	-7755
ວ່ອງໄວ	-7756
ສັນຍານ	-7757
ເຟສບຸກ	-7758
ເສບຕິດ	-7759
▁Cheng	-7760
▁Ninja	-7761
▁Pharm	-7762
▁Width	-7763
▁prote	-7764
ກວມເອົາ	-7765
ກະເປົ໋າ	-7766
ເປັນທີ່	-7767
ເຫັນໄດ້	-7768
▁ວັນຈັນ	-7769
▁ຮຽນຮູ້	-7770
ຄົນຫຼິ້ນ	-7771
ຄຸນສົມບັດ	-7772
ທີ່ສວຍງາມ	-7773
ໃນທົ່ວໂລກ	-7774
▁Business	-7775
▁Graphite	-7776
▁download	-7777
▁ບໍ່ສາມາດ	-7778
▁Precision	-7779
▁ເລືອກເອົາ	-7780
▁Management	-7781
▁ການແກ້ໄຂໃນ	-7782
ສະແດງໃຫ້ເຫັນ	-7783
54	-7784
Nm	-7785
ຍຸ	-7786
-06	-7787
Pal	-7788
acy	-7789
bus	-7790
lim	-7791
ກົມ	-7792
ຢຸດ	-7793
ໂພງ	-7794
▁+1	-7795
▁..	-7796
▁DS	-7797
▁Nc	-7798
▁so	-7799
▁ຂາ	-7800
▁ແຮ	-7801
▁ໄມ	-7802
▁ໄອ	-7803
come	-7804
ຟື້ນ	-7805
າບານ	-7806
ເລີກ	-7807
ແບ່ງ	-7808
▁360	-7809
▁Neo	-7810
▁SEC	-7811
▁air	-7812
▁bar	-7813
▁log	-7814
▁ຊອງ	-7815
▁ບັບ	-7816
▁ລົມ	-7817
▁ຮາກ	-7818
▁ເສຍ	-7819
▁ໂຕະ	-7820
acker	-7821
inger	-7822
ories	-7823
paper	-7824
ruary	-7825
ກັນຍາ	-7826
ມົນຕີ	-7827
▁1.0%	-7828
▁Cash	-7829
▁Cost	-7830
▁Self	-7831
▁view	-7832
ການແພດ	-7833
ທ່ານຈະ	-7834
ຫມໍ້ໄຟ	-7835
▁7.4.7	-7836
▁Beige	-7837
▁Bohem	-7838
▁Horiz	-7839
▁Image	-7840
▁Lamin	-7841
▁Media	-7842
ປະລິນຍາ	-7843
ໃຫມ່ຂອງ	-7844
▁Brazil	-7845
▁Switch	-7846
▁Yamaha	-7847
▁Alibaba	-7848
▁Stepper	-7849
▁stretch	-7850
▁ໃນວັນທີ	-7851
▁ເພື່ອໃຫ້	-7852
ປະຕິບັດງານ	-7853
▁Automatic	-7854
▁unlimited	-7855
ທີ່ຍິ່ງໃຫຍ່	-7856
▁CHAMPIONSH	-7857
▁Enterprise	-7858
ການເຊື່ອມຕໍ່	-7859
ຫຼ້າສຸດເມື່ອ	-7860
▁ການເກັບຮັກສາ	-7861
JD	-7862
gn	-7863
km	-7864
OND	-7865
col	-7866
oop	-7867
oug	-7868
uel	-7869
ຜັກ	-7870
ແຫຼ	-7871
ໄຂ່	-7872
▁3)	-7873
▁Da	-7874
▁HT	-7875
▁mg	-7876
.0.1	-7877
anth	-7878
ared	-7879
cast	-7880
grad	-7881
lgen	-7882
ocol	-7883
oice	-7884
olis	-7885
pher	-7886
ຕລາຍ	-7887
ໂທຫາ	-7888
ໍໂມນ	-7889
▁Hub	-7890
▁Leg	-7891
▁ODM	-7892
▁Rab	-7893
▁VIP	-7894
▁imp	-7895
▁ຊານ	-7896
▁ຕື້	-7897
▁ນົດ	-7898
▁ລອງ	-7899
oline	-7900
oshib	-7901
overs	-7902
ົງເຂດ	-7903
ົບຮອບ	-7904
ເລເຊີ	-7905
▁Porn	-7906
▁Prep	-7907
▁matt	-7908
▁roll	-7909
ential	-7910
ປ່າໄມ້	-7911
ມັງກອນ	-7912
ອິນເດຍ	-7913
ຸ່ນຍົນ	-7914
ເຫດການ	-7915
▁Grade	-7916
▁Huafu	-7917
▁Khaki	-7918
▁Kuang	-7919
▁Pixel	-7920
▁USMLE	-7921
▁hover	-7922
ອັນຕລາຍ	-7923
ຮ່ວມງານ	-7924
▁Access	-7925
▁Master	-7926
▁Spiral	-7927
▁ຂອງການ	-7928
▁ຊີ້ຂາດ	-7929
▁ສີສົ້ມ	-7930
ສ່ວນຮ່ວມ	-7931
ຫຼາກຫຼາຍ	-7932
▁Bowflex	-7933
▁Removal	-7934
▁Scooter	-7935
▁Thunder	-7936
▁dresses	-7937
▁elegant	-7938
▁tattooc	-7939
▁ຄົ້ນພົບ	-7940
▁ປົກກະຕິ	-7941
▁ລາຄາຂອງ	-7942
▁ສັງກະສີ	-7943
ການເຊື່ອມ	-7944
ຮ່ວມມືກັບ	-7945
▁Flexible	-7946
▁Security	-7947
▁Solomons	-7948
▁Trapezoid	-7949
▁ຄຸນປະຫຍັດ	-7950
▁ຝຶກອົບຮົມ	-7951
ທີ່ທັນສະໄຫມ	-7952
▁Disposable	-7953
▁ການຕໍ່ຕ້ານ	-7954
▁ການປົກປ້ອງ	-7955
ອົງການຈັດຕັ້ງ	-7956
▁ເຂົ້າສູ່ລະບົບ	-7957
CI	-7958
OP	-7959
Re	-7960
ວບ	-7961
011	-7962
ART	-7963
ald	-7964
urb	-7965
ມອບ	-7966
ໄລ່	-7967
▁83	-7968
▁HS	-7969
▁QC	-7970
▁dr	-7971
▁ss	-7972
▁ພີ	-7973
ians	-7974
ກ້ອງ	-7975
ຫາປາ	-7976
ຫຼັງ	-7977
▁1.1	-7978
▁But	-7979
▁Dem	-7980
▁Eva	-7981
▁Gab	-7982
▁Job	-7983
▁Som	-7984
▁cam	-7985
▁del	-7986
▁ນາມ	-7987
▁ມັດ	-7988
▁ສົງ	-7989
loads	-7990
▁ວັດຖ	-7991
▁ເລັດ	-7992
▁ເສີມ	-7993
▁ເຮືອ	-7994
illing	-7995
rolley	-7996
ະນາການ	-7997
ເອັນຊີ	-7998
▁Hydro	-7999
▁ຊອກຫາ	-8000
acquard	-8001
ສັດລ້ຽງ	-8002
ເກັບກໍາ	-8003
▁Nickel	-8004
▁PayPal	-8005
▁Sealed	-8006
▁travel	-8007
າກ່ຽວກັບ	-8008
▁ລະຫວ່າງ	-8009
▁ຫມໍ້ຫຸງ	-8010
▁ເດັກຍິງ	-8011
ທີ່ແນະນໍາ	-8012
ທ່ານສາມາດ	-8013
ສະກຸນເງິນ	-8014
ເຄື່ອງໃຊ້	-8015
▁February	-8016
▁Kuangyan	-8017
ເຮັດງານທໍາ	-8018
▁Copyright	-8019
▁Rendering	-8020
ສິ່ງທີ່ທ່ານ	-8021
▁ການຕັ້ງຄ່າ	-8022
ຂໍ້ມູນເພີ່ມເຕີມ	-8023
BL	-8024
DN	-8025
EP	-8026
OB	-8027
hr	-8028
kn	-8029
ks	-8030
-22	-8031
.08	-8032
202	-8033
="0	-8034
POT	-8035
apy	-8036
rac	-8037
ror	-8038
uch	-8039
ຕຽງ	-8040
ຸ້ງ	-8041
ເປີ	-8042
▁4)	-8043
▁CT	-8044
▁MA	-8045
appy	-8046
ides	-8047
odes	-8048
pons	-8049
tube	-8050
ຫລວງ	-8051
າດແວ	-8052
▁720	-8053
▁8.1	-8054
▁86-	-8055
▁CRM	-8056
▁Cab	-8057
▁LAO	-8058
▁Mah	-8059
▁fac	-8060
▁str	-8061
▁ure	-8062
▁ຍອດ	-8063
▁ຕີນ	-8064
▁ຟັງ	-8065
▁ເມວ	-8066
-2016	-8067
.2019	-8068
earch	-8069
rafts	-8070
ໂຄມໄຟ	-8071
▁Cell	-8072
▁Corn	-8073
▁Gall	-8074
▁Game	-8075
▁Mast	-8076
▁Paul	-8077
▁Tank	-8078
▁Team	-8079
▁Wide	-8080
elting	-8081
ທໍານຽມ	-8082
ຫົນທາງ	-8083
▁Drive	-8084
▁elect	-8085
▁their	-8086
embrane	-8087
ຄວາມສູງ	-8088
ເງິນສົດ	-8089
▁Friend	-8090
▁Supply	-8091
▁Welded	-8092
▁plugin	-8093
▁ພາຍໃຕ້	-8094
▁ມູນຄ່າ	-8095
▁ວັນທີ່	-8096
▁ແນ່ນອນ	-8097
ເຊື້ອຊາດ	-8098
▁ceramic	-8099
▁distrib	-8100
▁ຫລັກສູດ	-8101
▁ອາຍແກັສ	-8102
ຕໍ່ເນື່ອງ	-8103
ອະລູມິນຽມ	-8104
▁ທາງເລືອກ	-8105
ສະພາບອາກາດ	-8106
▁ຄວາມລະອຽດ	-8107
ifunctional	-8108
ສົ່ງເສີມການ	-8109
▁microfiber	-8110
▁ດໍາລົງຊີວິດ	-8111
▁ທໍາຄວາມສະອາດ	-8112
▁ເຊັ່ນດຽວກັນກັບ	-8113
."	-8114
83	-8115
CB	-8116
ci	-8117
lr	-8118
ຫູ	-8119
▁¥	-8120
-14	-8121
PCS	-8122
ດົນ	-8123
ສິງ	-8124
ຫອມ	-8125
ະຕິ	-8126
ິໂກ	-8127
ິ້ມ	-8128
ໂປຣ	-8129
ໄຮ້	-8130
▁67	-8131
▁ນີ	-8132
abol	-8133
etic	-8134
ones	-8135
ront	-8136
ໃຊ້ອ	-8137
ໄປຫາ	-8138
▁God	-8139
▁TOP	-8140
▁cap	-8141
▁end	-8142
▁reg	-8143
▁ແລກ	-8144
▁ໂຕນ	-8145
ລະພາບ	-8146
ເທື່ອ	-8147
▁Alex	-8148
▁Band	-8149
▁Kies	-8150
▁Pron	-8151
▁Thom	-8152
▁Time	-8153
▁WIFI	-8154
▁ອະນາ	-8155
▁ເຈາະ	-8156
▁ເຊີນ	-8157
▁ໄຮໂດ	-8158
arinet	-8159
owheel	-8160
ປະກະຕິ	-8161
ຫລັງຄາ	-8162
ັກຊິໂກ	-8163
່ຽວນໍາ	-8164
▁Money	-8165
▁Solid	-8166
▁favor	-8167
▁ພະຍາດ	-8168
▁ເຊື້ອ	-8169
stanbul	-8170
ໃກ້ຂ້ອຍ	-8171
▁Heroes	-8172
▁Jacket	-8173
▁Teflon	-8174
▁ທົ່ວໄປ	-8175
▁ປັບປຸງ	-8176
ateboard	-8177
▁JACKPOT	-8178
▁Mubarak	-8179
▁program	-8180
▁ພວກເຂົາ	-8181
▁ຮ່າງກາຍ	-8182
ສໍາລັບຜູ້	-8183
▁Hangzhou	-8184
▁ລະຫັດທົວ	-8185
ການຂົນສົ່ງ	-8186
ໃນການຜະລິດ	-8187
▁2006-2020	-8188
▁ເຫຼົ່ານີ້	-8189
▁ທ່ານກໍາລັງ	-8190
▁ຜົນກະທົບຂອງ	-8191
▁ຢ່າງໃດກໍຕາມ	-8192
churchofchrist	-8193
Ar	-8194
Qu	-8195
sl	-8196
ຜະ	-8197
▁【	-8198
-23	-8199
01,	-8200
120	-8201
ASS	-8202
EEL	-8203
Ind	-8204
htt	-8205
tex	-8206
ຊຶມ	-8207
ິລິ	-8208
ໂຕ້	-8209
▁SN	-8210
▁ep	-8211
▁sn	-8212
▁ຝາ	-8213
.160	-8214
84.2	-8215
angu	-8216
hane	-8217
iles	-8218
ກ້າວ	-8219
ີນີ້	-8220
ເວທີ	-8221
▁ATV	-8222
▁Att	-8223
▁Cup	-8224
▁Don	-8225
▁ITS	-8226
▁Pos	-8227
▁SGS	-8228
▁SQL	-8229
▁Upd	-8230
▁ant	-8231
▁ຈັບ	-8232
▁ສາກ	-8233
▁ໂທຣ	-8234
acuum	-8235
break	-8236
wards	-8237
ຸນແຮງ	-8238
ົວກອງ	-8239
▁From	-8240
▁HDPE	-8241
▁Jing	-8242
▁Town	-8243
▁pric	-8244
▁ຫລັງ	-8245
▁ແຕ່ວ	-8246
angers	-8247
ຄິດວ່າ	-8248
ຕົກລົງ	-8249
ລໍາດັບ	-8250
ສະເລ່ຍ	-8251
ສຸມໃສ່	-8252
▁Chlor	-8253
▁Found	-8254
▁Intel	-8255
▁Match	-8256
▁Warin	-8257
▁ສັນຍາ	-8258
▁ຫນ້ອຍ	-8259
atalogue	-8260
ຫນ່ຽວນໍາ	-8261
▁Channel	-8262
▁Silicon	-8263
▁Systems	-8264
▁tattoob	-8265
▁Punching	-8266
ຫນ້າທໍາອິດ	-8267
▁Indicator	-8268
▁Collection	-8269
ຄວາມເຂັ້ມແຂງ	-8270
▁distributed	-8271
▁ລະຫັດການເງິນ	-8272
ໄດ້ຮັບການດາວໂຫຼດ	-8273
Co	-8274
GA	-8275
GL	-8276
GY	-8277
hi	-8278
pc	-8279
.07	-8280
OME	-8281
ULL	-8282
ama	-8283
hes	-8284
ita	-8285
xml	-8286
ກີດ	-8287
ດຶງ	-8288
ປຸກ	-8289
໊ອກ	-8290
▁BR	-8291
▁Fr	-8292
▁Fu	-8293
▁LC	-8294
▁MD	-8295
▁XP	-8296
▁ນຸ	-8297
igid	-8298
ilin	-8299
roph	-8300
rust	-8301
uary	-8302
ກວາງ	-8303
ຕຸ້ງ	-8304
ທ້ອນ	-8305
▁CIS	-8306
▁Cru	-8307
▁Dev	-8308
▁Hun	-8309
▁SEK	-8310
▁UAE	-8311
▁hel	-8312
▁ອໍາ	-8313
cheng	-8314
rough	-8315
stone	-8316
ຫຼືໄປ	-8317
▁2007	-8318
▁2500	-8319
▁Fort	-8320
▁Mail	-8321
▁here	-8322
▁pack	-8323
▁ສະຫຼ	-8324
▁ເກາະ	-8325
▁ເຕີມ	-8326
charge	-8327
hereum	-8328
ຂົງເຂດ	-8329
▁2.6.4	-8330
▁CRASH	-8331
▁Maker	-8332
▁Mosqu	-8333
▁Spray	-8334
▁Tread	-8335
▁under	-8336
uminium	-8337
ວ່າດ້ວຍ	-8338
ເດີມພັນ	-8339
▁ກະເປົາ	-8340
▁ຮູ້ສຶກ	-8341
▁ເລື່ອນ	-8342
▁ໄວລຸ້ນ	-8343
.16084.2	-8344
ຂ້າງເທິງ	-8345
▁Battery	-8346
▁ITALIAN	-8347
▁ກາງແຈ້ງ	-8348
▁ປະລິນຍາ	-8349
▁ຮູບຮ່າງ	-8350
▁ເອົາຮູບ	-8351
ແສງຕາເວັນ	-8352
▁Koowheel	-8353
▁Terminal	-8354
▁ethereum	-8355
▁ປະເພດຂອງ	-8356
ປະສິດທິຜົນ	-8357
ພາສາອັງກິດ	-8358
▁ຊື່ຍີ່ຫໍ້	-8359
▁ບັນທຶກທັງ	-8360
ການປັບປຸງໂດຍ	-8361
ລະຫວ່າງປະເທດ	-8362
▁3.2.16084.2	-8363
▁ຮູບຊົງກະບອກ	-8364
ປະສິດທິພາບສູງ	-8365
ແລະມີຄົນຫຼິ້ນ	-8366
▁ຫນ່ວຍຄວາມຈໍາ	-8367
/4	-8368
BP	-8369
Bl	-8370
wn	-8371
ບູ	-8372
ຣນ	-8373
▁₪	-8374
▁₱	-8375
-86	-8376
125	-8377
:30	-8378
ICK	-8379
gin	-8380
jie	-8381
ona	-8382
xin	-8383
ບວກ	-8384
ພຸດ	-8385
▁87	-8386
▁PI	-8387
case	-8388
list	-8389
rank	-8390
ຊົ່ວ	-8391
ແຫວນ	-8392
▁(3)	-8393
▁1.6	-8394
▁280	-8395
▁MYR	-8396
▁non	-8397
▁ຍົນ	-8398
▁ບາດ	-8399
ERIES	-8400
umber	-8401
ylene	-8402
ຽວນີ້	-8403
ແນ່ໃຈ	-8404
ໃຈໃສ່	-8405
ໃນວັນ	-8406
▁Cams	-8407
▁Lake	-8408
▁Loop	-8409
▁Rain	-8410
▁feat	-8411
▁hero	-8412
▁ກວ່າ	-8413
▁ເກົາ	-8414
ulphur	-8415
ກາງຄືນ	-8416
ຄອມພິວ	-8417
ລາຍໄດ້	-8418
▁Azure	-8419
▁Hacks	-8420
▁Sound	-8421
▁Ultra	-8422
▁Under	-8423
▁ປະມານ	-8424
ຊົ່ວໂມງ	-8425
ປະທັບຕາ	-8426
ອະນຸມັດ	-8427
▁Canvas	-8428
▁Corpor	-8429
▁Pallet	-8430
▁ສົມພອນ	-8431
▁Listing	-8432
▁Taffeta	-8433
▁ໄຮໂດລິກ	-8434
ຄວາມກວ້າງ	-8435
ຜົນປະໂຫຍດ	-8436
▁Coinbase	-8437
▁Istanbul	-8438
▁LinkedIn	-8439
▁Unloader	-8440
▁Packaging	-8441
▁vibrating	-8442
▁ຂໍ້ກໍານົດ	-8443
▁ນອກຈາກນີ້	-8444
ຫຼັງຈາກນັ້ນ	-8445
ກັບຄືນໄປບ່ອນ	-8446
▁ແຮງດັນໄຟຟ້າ	-8447
▁ຈໍານວນຕົວແບບ	-8448
▁ຂໍ້ມູນຈໍາເພາະ	-8449
AW	-8450
CM	-8451
KE	-8452
-85	-8453
.09	-8454
180	-8455
INA	-8456
avy	-8457
erm	-8458
fit	-8459
ປອກ	-8460
ມຕີ	-8461
ຢັດ	-8462
ອັງ	-8463
້ວງ	-8464
▁92	-8465
▁LD	-8466
▁ຕ່	-8467
ache	-8468
atte	-8469
chan	-8470
news	-8471
ocus	-8472
ຈ້າງ	-8473
ສ້ອມ	-8474
ຮ່ອງ	-8475
▁DIY	-8476
▁Ele	-8477
▁Enc	-8478
▁Sex	-8479
▁dji	-8480
▁equ	-8481
▁inc	-8482
▁ກີບ	-8483
▁ຊຸມ	-8484
▁ດູດ	-8485
▁ເປີ	-8486
aceut	-8487
ctile	-8488
hydro	-8489
ຂົນຕາ	-8490
ພະແນກ	-8491
ລະປິນ	-8492
ອາຈານ	-8493
▁0.15	-8494
▁1800	-8495
▁Acad	-8496
▁Nash	-8497
▁Tang	-8498
▁Xing	-8499
▁best	-8500
▁cons	-8501
▁hard	-8502
▁ຄຸ້ມ	-8503
▁ຊ່ຽວ	-8504
▁ໂດລາ	-8505
ivirus	-8506
rosion	-8507
ຂອບເຂດ	-8508
ຈໍາລອງ	-8509
ທີ່ສູງ	-8510
ອອນລາຍ	-8511
ໃຊ້ໄດ້	-8512
▁2012.	-8513
▁Layer	-8514
▁Parts	-8515
itioner	-8516
odegrad	-8517
reaming	-8518
ເປັນຜູ້	-8519
ແຜ່ນດິນ	-8520
▁filter	-8521
▁ສອບຖາມ	-8522
ailbreak	-8523
ຍັງສາມາດ	-8524
ຢ່າງເຕັມ	-8525
ໄຟຟ້າລາວ	-8526
▁spindle	-8527
aceutical	-8528
ແຜ່ນກະດານ	-8529
ໃນປະຈຸບັນ	-8530
▁Internet	-8531
▁Mosquito	-8532
▁Platform	-8533
▁favorite	-8534
▁ການສັກຢາ	-8535
▁ລະຫັດການ	-8536
ແນວຄວາມຄິດ	-8537
▁Generator	-8538
▁ຊ່ວຍເຫຼືອ	-8539
▁tattooseye	-8540
▁ຂໍ້ກໍາຫນົດ	-8541
▁ຄຸນະພາບສູງ	-8542
ຂອງທ່ານໃນທຸກ	-8543
ເຮັດໃຫ້ມີແສງ	-8544
▁ກ້ອງຖ່າຍຮູບ	-8545
▁ເຖິງແມ່ນວ່າ	-8546
▁tattoosarrow	-8547
▁ສໍາລັບການຂາຍ	-8548
87	-8549
Ex	-8550
MK	-8551
mA	-8552
▁«	-8553
-70	-8554
.15	-8555
/01	-8556
/06	-8557
For	-8558
ICE	-8559
ern	-8560
icy	-8561
uxi	-8562
ບຸນ	-8563
ລີ່	-8564
ີນີ	-8565
▁GS	-8566
▁NW	-8567
▁ໂຟ	-8568
▁€,	-8569
FLIP	-8570
ends	-8571
kers	-8572
lace	-8573
pack	-8574
sych	-8575
ການຊ	-8576
ເກົາ	-8577
ເມສາ	-8578
ແລ່ນ	-8579
▁315	-8580
▁BON	-8581
▁HKD	-8582
▁Han	-8583
▁LTE	-8584
▁RUB	-8585
▁Spl	-8586
▁any	-8587
▁bir	-8588
▁but	-8589
▁don	-8590
▁ທັດ	-8591
▁ນົກ	-8592
amide	-8593
aming	-8594
otion	-8595
umblr	-8596
ກວ່ານ	-8597
ກະກຽມ	-8598
ິງຕັນ	-8599
▁Axis	-8600
▁BCEL	-8601
▁Clip	-8602
▁Indu	-8603
▁Wave	-8604
▁prev	-8605
▁ເມລິ	-8606
▁ເລັບ	-8607
Pieces	-8608
ishing	-8609
ຂຶ້ນໄປ	-8610
ພູເຂົາ	-8611
ສະຫຼອງ	-8612
ຮັບຮູ້	-8613
ຮຸນແຮງ	-8614
ແນນສຽງ	-8615
▁Basel	-8616
▁Joint	-8617
▁Webtk	-8618
▁flute	-8619
ensions	-8620
ຫນ້າທີ່	-8621
▁Marvel	-8622
▁Medium	-8623
▁ເພື່ອນ	-8624
▁ໂດຍລວມ	-8625
ຂອງປະເທດ	-8626
ຄວາມເຢັນ	-8627
ນັກສຶກສາ	-8628
ເສຍຊີວິດ	-8629
ໃຫ້ກັບຝາ	-8630
▁Version	-8631
▁android	-8632
▁eyelash	-8633
▁ຈົດຫມາຍ	-8634
▁ສະມາຊິກ	-8635
▁Bohemian	-8636
▁COINFLIP	-8637
▁ພາດສະຕິກ	-8638
▁ເວັບໄຊຕ໌	-8639
▁Container	-8640
▁Universal	-8641
▁ການຊື້ຂາຍ	-8642
▁ປະຫວັດສາດ	-8643
▁ອາດຈະເປັນ	-8644
odegradable	-8645
▁ລາຄາປະກະຕິ	-8646
ໃຫມ່ໂດຍກົງກັບ	-8647
▁ວັນຄຣິດສະມາດ	-8648
ໄດ້ຢ່າງງ່າຍດາຍ	-8649
▁tattoosdragon	-8650
▁ເອົາຮູບໃຫ້ກັບຝາ	-8651
It	-8652
ns	-8653
si	-8654
ty	-8655
ຮູ	-8656
+00	-8657
.01	-8658
.91	-8659
10,	-8660
IPS	-8661
des	-8662
ref	-8663
ຄອມ	-8664
ມັງ	-8665
ອັບ	-8666
ເລຍ	-8667
໋ອງ	-8668
▁Bh	-8669
▁CP	-8670
▁Ep	-8671
▁IR	-8672
▁XR	-8673
bide	-8674
cute	-8675
gage	-8676
jing	-8677
prop	-8678
rate	-8679
wing	-8680
ປັ່ນ	-8681
ໄຫມ້	-8682
▁1/2	-8683
▁Aqu	-8684
▁Bab	-8685
▁Bao	-8686
▁CBD	-8687
▁Deb	-8688
▁FRP	-8689
▁GEN	-8690
▁Jar	-8691
▁Sin	-8692
▁Yin	-8693
▁bug	-8694
▁net	-8695
▁pad	-8696
▁she	-8697
▁ຈິດ	-8698
▁ຍິນ	-8699
▁ເພິ	-8700
▁ແທນ	-8701
▁ແທ້	-8702
falls	-8703
usion	-8704
ຫົວໃຈ	-8705
▁Head	-8706
▁Jiao	-8707
▁Lace	-8708
▁Land	-8709
▁Mart	-8710
▁Tail	-8711
▁Tech	-8712
▁ripp	-8713
▁ຄລິບ	-8714
▁ຫວັງ	-8715
+00:00	-8716
escent	-8717
ources	-8718
ເສຍຫາຍ	-8719
▁Frank	-8720
▁Music	-8721
▁Shell	-8722
▁other	-8723
▁ປະກາດ	-8724
▁ປະສົມ	-8725
▁	-8726
າ	-8727
ນ	-8728
e	-8729
a	-8730
o	-8731
t	-8732
i	-8733
ກ	-8734
ດ	-8735
r	-8736
n	-8737
່	-8738
ະ	-8739
ັ	-8740
ງ	-8741
ອ	-8742
s	-8743
ເ	-8744
້	-8745
ລ	-8746
l	-8747
ມ	-8748
ສ	-8749
ບ	-8750
ວ	-8751
,	-8752
0	-8753
ີ	-8754
ຫ	-8755
ທ	-8756
c	-8757
ິ	-8758
ົ	-8759
u	-8760
.	-8761
1	-8762
ໍ	-8763
d	-8764
m	-8765
h	-8766
g	-8767
2	-8768
ຕ	-8769
ແ	-8770
ຍ	-8771
ຄ	-8772
p	-8773
ປ	-8774
ຂ	-8775
ພ	-8776
C	-8777
ື	-8778
S	-8779
:	-8780
ຊ	-8781
P	-8782
y	-8783
ູ	-8784
ຈ	-8785
-	-8786
ໃ	-8787
ຸ	-8788
A	-8789
5	-8790
ຮ	-8791
ໂ	-8792
b	-8793
T	-8794
M	-8795
ໄ	-8796
3	-8797
ຜ	-8798
k	-8799
D	-8800
B	-8801
E	-8802
L	-8803
8	-8804
f	-8805
4	-8806
R	-8807
6	-8808
/	-8809
F	-8810
v	-8811
w	-8812
9	-8813
I	-8814
H	-8815
7	-8816
N	-8817
ຽ	-8818
O	-8819
G	-8820
)	-8821
(	-8822
ຖ	-8823
W	-8824
V	-8825
ຼ	-8826
ຢ	-8827
x	-8828
;	-8829
U	-8830
K	-8831
ຟ	-8832
_	-8833
&	-8834
z	-8835
ຶ	-8836
X	-8837
J	-8838
"	-8839
Y	-8840
j	-8841
໌	-8842
ຣ	-8843
$	-8844
%	-8845
ຝ	-8846
Z	-8847
q	-8848
+	-8849
!	-8850
–	-8851
ໆ	-8852
Q	-8853
*	-8854
'	-8855
?	-8856
£	-8857
©	-8858
@	-8859
=	-8860
»	-8861
]	-8862
[	-8863
#	-8864
}	-8865
\	-8866
{	-8867
“	-8868
”	-8869
€	-8870
°	-8871
×	-8872
~	-8873
•	-8874
໊	-8875
’	-8876
	-8877
໋	-8878
а	-8879
ç	-8880
к	-8881
ı	-8882
с	-8883
→	-8884
é	-8885
н	-8886
≤	-8887
р	-8888
★	-8889
ñ	-8890
ü	-8891
о	-8892
`	-8893
·	-8894
—	-8895
и	-8896
е	-8897
ö	-8898
ь	-8899
®	-8900
ย	-8901
±	-8902
ş	-8903
น	-8904
฿	-8905
送	-8906
า	-8907
≥	-8908
信	-8909
发	-8910
息	-8911
У	-8912
ท	-8913
ї	-8914
天	-8915
聊	-8916
т	-8917
ไ	-8918
Φ	-8919
ะ	-8920
ร	-8921
á	-8922
本	-8923
ว	-8924
ä	-8925
ม	-8926
«	-8927
电	-8928
←	-8929
л	-8930
万	-8931
象	-8932
เ	-8933
话	-8934
资	-8935
ิ	-8936
【	-8937
в	-8938
】	-8939
ğ	-8940
โ	-8941
ล	-8942
¥	-8943
у	-8944
ซ	-8945
‘	-8946
å	-8947
อ	-8948
◆	-8949
ง	-8950
м	-8951
Ω	-8952
₪	-8953
₱	-8954
	-8955
ด	-8956
ຯ	-8957
б	-8958
●	-8959
μ	-8960
й	-8961
	-8962
í	-8963
ó	-8964
ี	-8965
′	-8966
ส	-8967
à	-8968
д	-8969
ы	-8970
🔥	-8971
ก	-8972
แ	-8973
ข	-8974
ค	-8975
中	-8976
	-8977
Ö	-8978
ห	-8979
я	-8980
้	-8981
ا	-8982
ป	-8983
어	-8984
п	-8985
ต	-8986
บ	-8987
^	-8988
İ	-8989
文	-8990
ั	-8991
จ	-8992
Ø	-8993
х	-8994
Ф	-8995
г	-8996
