<unk>	0
<s>	0
</s>	0
.	-3.03138
,	-3.80617
▁	-4.31787
ம்	-4.3707
க்	-5.00137
கள்	-5.03412
▁ஒரு	-5.10977
ப்	-5.14627
?	-5.17639
)	-5.21456
்	-5.41583
து	-5.43119
▁(	-5.4321
:	-5.4322
ு	-5.43942
ய	-5.5185
!	-5.5524
................	-5.56467
▁என்று	-5.61788
த்	-5.64056
ல்	-5.64064
▁இந்த	-5.64656
ி	-5.68186
▁நான்	-5.68669
ன்	-5.70227
ும்	-5.72721
க	-5.74504
s	-5.78039
;	-5.78674
களை	-5.86792
▁நீங்கள்	-5.88897
க்க	-5.90292
▁மற்றும்	-5.99803
ை	-6.00025
க்கு	-6.00629
ம	-6.01182
ர்	-6.02347
▁அவர்	-6.03874
▁இது	-6.08675
யை	-6.08776
ல	-6.08991
வ	-6.09224
யில்	-6.10466
த்த	-6.10798
▁அவர்கள்	-6.12317
ச்	-6.12797
ன	-6.13368
▁அ	-6.14207
▁"	-6.16454
தான்	-6.17291
-	-6.19308
த்தை	-6.21727
ஸ்	-6.21993
ப	-6.22963
▁-	-6.24291
▁“	-6.24798
▁அது	-6.2608
▁உங்கள்	-6.26876
▁அந்த	-6.27813
த	-6.28659
▁ஆனால்	-6.31439
ா	-6.33269
த்தில்	-6.33501
மாக	-6.34974
"	-6.36288
யும்	-6.37257
ங்கள்	-6.38132
▁தான்	-6.40442
t	-6.40584
வை	-6.4339
ே	-6.43863
▁என்	-6.45498
▁வேண்டும்	-6.46494
▁என்ன	-6.47503
ிய	-6.49284
தி	-6.51207
ர	-6.51374
வே	-6.51812
g	-6.51837
ில்	-6.52333
ார்	-6.52626
ந்த	-6.54682
▁அல்லது	-6.55245
▁நாம்	-6.55622
யா	-6.56736
வும்	-6.57007
▁இ	-6.57297
▁இல்லை	-6.57703
ட	-6.61958
ட்	-6.61967
▁பல	-6.62375
மா	-6.62422
ரி	-6.64741
ப்ப	-6.65305
வர்	-6.65768
மான	-6.65858
த்து	-6.65926
▁நீ	-6.67753
யே	-6.68342
▁என	-6.68552
யாக	-6.68787
டி	-6.69859
▁செய்ய	-6.72932
”	-6.74481
▁அதை	-6.75217
▁க	-6.76469
தா	-6.76696
வி	-6.77153
யின்	-6.81724
▁த	-6.82575
வு	-6.83598
▁ஆ	-6.83722
ங்க	-6.84201
தை	-6.84857
▁ப	-6.86307
வில்லை	-6.87837
ின்	-6.88637
▁சில	-6.894
ச	-6.90665
களில்	-6.90997
y	-6.92891
ால்	-6.93006
லை	-6.93745
’	-6.94172
▁ச	-6.94624
அ	-6.95766
▁அவன்	-6.96097
▁எனக்கு	-6.96503
▁விட	-6.96748
ப்பட்ட	-6.96964
▁வர	-6.97412
ேன்	-6.97777
▁அல்லாஹ்	-6.98938
▁மேலும்	-7.00188
▁உள்ள	-7.00625
வர்கள்	-7.00988
லாம்	-7.01475
மை	-7.01742
ப்பு	-7.02565
னை	-7.02583
▁இருக்க	-7.02977
ான்	-7.03124
▁தன்	-7.03704
▁எப்படி	-7.04157
டு	-7.04217
▁நல்ல	-7.04283
ந்து	-7.0457
▁எ	-7.05507
சி	-7.06181
▁முடியும்	-7.06648
▁‘	-7.06808
வா	-7.07026
n	-7.07095
▁உ	-7.07287
▁நா	-7.08108
▁என்ற	-7.08697
மே	-7.08923
e	-7.09843
▁பற்றி	-7.10384
ரு	-7.10404
ோ	-7.10885
ோம்	-7.11281
▁ம	-7.113
வன்	-7.11393
களின்	-7.11479
ரா	-7.11767
▁உங்களுக்கு	-7.11924
ாக	-7.12815
▁எந்த	-7.12957
ங்களை	-7.13122
▁the	-7.13137
ட்ட	-7.13831
பி	-7.1428
களுக்கு	-7.14853
▁மிகவும்	-7.16277
த்தின்	-7.16281
களும்	-7.16713
மும்	-7.17633
▁1	-7.18164
ற	-7.1844
▁இருக்கும்	-7.19175
▁இதை	-7.19241
னி	-7.19365
ரை	-7.19477
ing	-7.19735
▁முதல்	-7.21782
▁பெரிய	-7.22964
ப்பட	-7.22981
'	-7.23261
(	-7.26022
▁வந்த	-7.26023
விட	-7.26034
▁வேலை	-7.26133
▁சி	-7.27784
▁ந	-7.27802
லா	-7.28139
▁என்னை	-7.28323
▁என்பது	-7.28913
லி	-7.28938
ள	-7.28946
▁of	-7.29453
இ	-7.2953
▁இன்னும்	-7.29811
▁கூட	-7.30113
▁செய்து	-7.31376
▁சு	-7.31546
ாத	-7.31681
er	-7.31776
▁சொல்ல	-7.3187
யான	-7.3199
க்கும்	-7.32319
கு	-7.32883
தாக	-7.33088
a	-7.33698
▁இருந்தது	-7.3409
▁கா	-7.34313
ுக்கு	-7.34348
▁–	-7.34822
▁2	-7.34851
▁S	-7.35519
மி	-7.35798
பா	-7.36695
▁வி	-7.36721
▁இருந்து	-7.37049
னர்	-7.37445
ட்டு	-7.37616
▁பேச	-7.37868
▁ஏன்	-7.37882
▁வ	-7.38186
▁பா	-7.38927
ார்கள்	-7.39048
யோ	-7.39073
▁&	-7.39364
▁போது	-7.39388
▁கொண்டு	-7.39814
▁வழி	-7.39933
▁மீது	-7.40592
al	-7.40614
▁செய்த	-7.40684
▁:	-7.41463
▁நாள்	-7.41699
▁தர	-7.42066
▁A	-7.42124
▁நிச்சயமாக	-7.43082
▁நாங்கள்	-7.43096
▁இரண்டு	-7.43299
ற்ற	-7.4367
▁கொண்ட	-7.43788
o	-7.44112
▁இருந்த	-7.44384
▁உள்ளது	-7.45363
▁வேறு	-7.45383
▁முறை	-7.45672
ாய்	-7.45862
▁இப்போது	-7.4588
▁3	-7.46246
ுவது	-7.46328
▁பார்க்க	-7.47821
▁'	-7.48375
▁மா	-7.48574
ழ	-7.48603
ைத்	-7.48703
ுகிறது	-7.48747
▁P	-7.48991
▁வரை	-7.4904
ed	-7.49114
▁to	-7.49475
▁கு	-7.49535
னா	-7.50072
▁இன்று	-7.50237
▁இரு	-7.50475
▁பெற	-7.50672
▁வந்து	-7.50762
றி	-7.51046
A	-7.51858
▁மிக	-7.52036
▁மக்கள்	-7.52045
த்திற்கு	-7.52158
▁C	-7.52274
த்தி	-7.52483
▁B	-7.52484
கா	-7.52663
in	-7.52784
▁யார்	-7.53543
▁என்பதை	-7.53674
▁ஏ	-7.5396
கி	-7.54074
▁மு	-7.54146
ண	-7.54324
▁முடியாது	-7.54547
ாமல்	-7.5458
▁அவர்களுக்கு	-7.54752
று	-7.55256
C	-7.55455
▁பு	-7.55948
ட்டி	-7.56008
▁கோ	-7.56125
ங்களில்	-7.56318
▁எனவே	-7.56512
▁அவரது	-7.56585
▁மீண்டும்	-7.5676
ச்ச	-7.56872
▁அவரை	-7.56886
▁அவர்களை	-7.56977
சு	-7.57079
▁அதன்	-7.57553
ப்படும்	-7.5795
▁எழுத	-7.58116
▁a	-7.58241
▁கூற	-7.58799
ள்	-7.5899
தே	-7.59464
an	-7.59501
▁4	-7.59555
▁நீர்	-7.60472
le	-7.60506
ெ	-7.61693
▁அப்படி	-7.62441
▁முன்	-7.63234
l	-7.63258
▁தேவை	-7.63732
S	-7.6384
▁in	-7.63858
ந	-7.6386
ப்பட்டது	-7.64149
▁சா	-7.6436
▁T	-7.64681
.”	-7.65026
▁5	-7.65384
▁கை	-7.6559
▁புதிய	-7.65603
▁/	-7.65654
▁உதவி	-7.65706
டை	-7.65815
ுங்கள்	-7.65917
▁ஒவ்வொரு	-7.66187
ar	-7.6631
வர	-7.66493
▁பிறகு	-7.66542
த்தான்	-7.67082
ிக்க	-7.67226
ிட	-7.6723
i	-7.67431
E	-7.67441
▁உண்மை	-7.67739
P	-7.68011
▁வா	-7.68054
ீர்கள்	-7.68161
▁சிறந்த	-7.68204
▁மட்டுமே	-7.68247
▁பட	-7.69491
▁விட்டு	-7.69526
m	-7.69713
▁நேரம்	-7.69981
ாலும்	-7.70124
or	-7.70828
▁மூலம்	-7.70831
▁உலக	-7.70952
▁இருக்கிறது	-7.71058
▁கொள்ள	-7.7135
u	-7.714
ான	-7.71432
ளி	-7.71583
D	-7.71626
▁உங்களை	-7.72448
ாது	-7.72592
..............	-7.72641
p	-7.72682
▁பி	-7.72824
▁எங்கள்	-7.7314
ாள்	-7.7325
▁அவள்	-7.73578
▁F	-7.73581
▁இப்படி	-7.73662
3	-7.73756
r	-7.74264
re	-7.74475
▁நம்பிக்கை	-7.74877
/	-7.75094
▁அனைத்து	-7.75449
▁என்றால்	-7.75628
▁வெற்றி	-7.75685
▁அதற்கு	-7.76036
▁நன்றி	-7.7612
▁நம்ப	-7.76587
▁19	-7.76609
▁கால	-7.76782
களையும்	-7.76826
ச்சி	-7.76972
▁பெயர்	-7.7705
▁நி	-7.77075
▁தலை	-7.77391
d	-7.77514
ூ	-7.78308
▁நிலை	-7.78883
M	-7.79019
?”	-7.79238
போது	-7.79277
▁and	-7.7953
▁அப்போது	-7.79664
▁போ	-7.79667
ணி	-7.79961
▁வரும்	-7.80084
க்கி	-7.80205
▁அல்ல	-7.80373
மு	-7.80412
ண்ட	-7.80684
▁மன	-7.80702
வில்	-7.8081
T	-7.80866
▁நம்	-7.8095
1	-7.81324
▁உன்	-7.81381
ீ	-7.81675
எ	-7.81737
2	-7.81747
▁தனது	-7.81824
வின்	-7.81949
▁வழங்க	-7.82369
▁ஒன்று	-7.82592
வது	-7.83179
றை	-7.83342
சா	-7.83501
▁போன்ற	-7.84193
▁...	-7.84232
▁திரு	-7.8438
▁போல	-7.84607
O	-7.84674
பு	-7.84879
b	-7.84995
▁M	-7.8511
▁G	-7.8529
▁எல்லா	-7.85789
I	-7.85897
▁எல்லாம்	-7.86104
▁சரி	-7.86338
▁பதிவு	-7.86441
]	-7.86519
ர்கள்	-7.87213
▁செ	-7.87478
னு	-7.87497
ப்படுத்த	-7.87589
k	-7.87663
▁பின்னர்	-7.87684
▁[...]	-7.88046
▁இறைவன்	-7.88127
▁மற்ற	-7.88527
▁அதே	-7.88571
ங்	-7.89154
▁மாற்ற	-7.89354
▁பெண்	-7.89482
▁காண	-7.89535
▁எனது	-7.89784
▁கடவுள்	-7.90121
▁குழந்தை	-7.90247
▁ஐ	-7.90486
▁10	-7.90658
ியது	-7.90801
▁பயன்படுத்த	-7.91289
th	-7.91351
▁கேள்வி	-7.91508
▁தவிர	-7.9157
4	-7.91625
தில்லை	-7.92264
▁பார்த்த	-7.92405
at	-7.92555
▁தா	-7.92647
▁பின்	-7.92849
கை	-7.93022
ள்ள	-7.93326
ிருந்த	-7.93337
5	-7.93479
▁ஒ	-7.93903
▁ர	-7.93904
யிருக்கிறான்	-7.94475
ஷ	-7.94503
­	-7.94944
வ்	-7.95003
▁இட	-7.95151
ஆ	-7.95262
▁பூ	-7.9527
▁அடுத்த	-7.95482
ையும்	-7.95622
▁உணவு	-7.95807
ரிய	-7.95886
B	-7.96088
ஸ	-7.96352
▁W	-7.96404
▁ஒரே	-7.96727
ண்டு	-7.96852
▁H	-7.96913
ட்சத்திரங்களை	-7.96958
▁கேட்க	-7.97013
களாக	-7.97097
▁தாண்டும்	-7.971
▁எத்தனையாவது	-7.97306
▁முதியவன்	-7.9747
கள	-7.97528
▁சாய்த்தபடி	-7.97545
▁பாதாளங்கள	-7.97561
▁மந்திரக்கோலா	-7.97572
▁தங்கள்	-7.97811
c	-7.97906
▁நேர	-7.97994
படி	-7.98205
வோ	-7.99016
L	-7.99094
▁பிர	-7.99407
▁மட்டும்	-7.99477
▁அவை	-7.99739
▁கே	-7.99795
▁தமிழ்	-8.00072
▁என்றார்	-8.01173
▁பணி	-8.01621
▁தி	-8.01641
▁6	-8.01866
டா	-8.01916
▁I	-8.02095
▁அவருக்கு	-8.02355
▁எப்போதும்	-8.02497
▁முயற்சி	-8.02497
▁பெற்ற	-8.02634
▁அதில்	-8.03048
▁7	-8.0313
▁இருந்தால்	-8.0352
▁இருப்ப	-8.03788
ினார்	-8.04209
▁மே	-8.04434
it	-8.04461
▁கி	-8.04586
▁ஓ	-8.04807
▁இங்கே	-8.05042
▁பிற	-8.05061
▁நமக்கு	-8.0585
▁ஆக	-8.06247
ப்படுகிறது	-8.06297
▁D	-8.07213
ிருக்க	-8.07263
f	-8.07574
நான்	-8.07608
▁வாங்க	-8.08092
த்துக்கு	-8.08444
▁வாழ்க்கை	-8.08568
ச்சு	-8.08581
▁is	-8.0876
▁அவர்களின்	-8.08953
amp	-8.09133
▁கண்ட	-8.09203
▁கூறினார்	-8.09346
x	-8.0942
et	-8.09506
▁நமது	-8.09705
▁E	-8.09906
h	-8.09937
▁செல்ல	-8.09952
▁மனித	-8.10147
▁பார்த்து	-8.1031
▁நிறைய	-8.1068
▁பதி	-8.10877
ுள்ளது	-8.11214
வரை	-8.11227
பட	-8.11452
▁கொடுக்க	-8.11522
▁L	-8.11811
▁உண்டு	-8.1197
▁b	-8.11985
ய்	-8.12062
▁சென்ற	-8.12079
னும்	-8.1237
▁திரும்ப	-8.12852
▁தந்தை	-8.12934
▁இனி	-8.12976
R	-8.13069
ிறது	-8.13102
▁சிறு	-8.13108
▁f	-8.13158
▁ஆண்டு	-8.1335
ற்று	-8.13481
▁முழு	-8.13543
ஹ	-8.13754
ஜ	-8.13757
▁ஒருவர்	-8.13812
▁8	-8.14015
▁தெரியும்	-8.14158
▁அறிந்த	-8.14265
▁மனைவி	-8.14976
ஞ்ச	-8.15113
es	-8.15349
▁அவனை	-8.15687
▁வைக்க	-8.15805
▁அதனால்	-8.15845
களே	-8.15862
▁சமூக	-8.1603
▁இவர்	-8.16156
?"	-8.16371
▁N	-8.16551
▁டி	-8.16587
ழி	-8.16769
ch	-8.16861
்ப்ப	-8.16868
ad	-8.16904
▁பட்ட	-8.16943
ஷ்	-8.17171
en	-8.17362
▁பே	-8.17535
ுதல்	-8.17628
ப்பா	-8.1774
▁இந்திய	-8.18192
H	-8.18224
ருக்கு	-8.18488
▁போக	-8.18557
▁சம	-8.18664
ழு	-8.18691
▁p	-8.1872
▁ஹ	-8.18786
ுகிறேன்	-8.18821
ரே	-8.18835
on	-8.1894
▁9	-8.19336
▁நானும்	-8.1937
▁மூன்று	-8.19555
▁வான	-8.19741
நா	-8.19805
க்காக	-8.19911
▁அறிய	-8.19984
ிற	-8.203
00	-8.20327
உ	-8.20348
வேண்டும்	-8.20819
விட்டு	-8.21712
▁பதில்	-8.21849
▁விரும்ப	-8.21907
▁மணி	-8.22218
▁விலை	-8.22255
▁கதை	-8.22276
ின	-8.22357
G	-8.22779
ரும்	-8.22902
▁வெளி	-8.22931
▁பாட	-8.23147
▁உள்ளன	-8.23292
▁வைத்த	-8.23471
தால்	-8.23578
ங்கி	-8.23629
▁கடந்த	-8.24004
▁கேட்ட	-8.24118
லே	-8.24138
ண்ண	-8.24189
யர்	-8.24332
ுடன்	-8.24384
ளை	-8.24392
வாக	-8.24628
ண்	-8.2464
▁அதிக	-8.24643
ிலும்	-8.24835
▁சொல்லி	-8.25001
ோடு	-8.25089
ரோ	-8.25245
தோ	-8.25253
F	-8.25712
▁உண்மையில்	-8.25765
▁எடுத்து	-8.25798
▁எவ்வளவு	-8.25912
தற்கு	-8.26331
ொ	-8.26368
ல்ல	-8.2637
ic	-8.265
▁தேட	-8.26527
▁c	-8.268
▁தனி	-8.2697
ங்களுக்கு	-8.27057
▁வைத்து	-8.27139
சை	-8.27154
▁படைத்த	-8.27469
மில்லை	-8.27539
▁எது	-8.2759
யு	-8.27729
ும்போது	-8.27884
ur	-8.28137
▁இயேசு	-8.28181
போ	-8.2851
▁அங்கு	-8.28551
▁சிறிய	-8.287
▁தேர்வு	-8.28786
▁அல்லாஹ்வின்	-8.28916
ரின்	-8.29241
ஜி	-8.29555
ation	-8.29657
▁முடிவு	-8.29692
ுவோம்	-8.29748
▁நீங்க	-8.30011
ப்பட்டு	-8.30042
ினால்	-8.30083
▁பெ	-8.30311
ுள்ள	-8.30484
த்தையும்	-8.30599
தில்	-8.30603
▁இவர்கள்	-8.30874
w	-8.31032
யுடன்	-8.31153
▁R	-8.31278
▁காட்ட	-8.31279
▁சென்று	-8.31506
il	-8.31569
▁உருவாக்க	-8.31724
▁படி	-8.31819
▁வேதனை	-8.31852
▁எண்ண	-8.31904
▁அரசு	-8.31968
▁செலுத்த	-8.31995
ன்னு	-8.32144
▁தீ	-8.32228
ுகிற	-8.32301
மோ	-8.32501
▁எதிர்	-8.32533
20	-8.32535
▁for	-8.32569
%	-8.32738
▁[	-8.32823
▁அம்மா	-8.32885
▁அனைவரும்	-8.3294
▁சொன்ன	-8.32949
ற்	-8.33427
▁வேண்டிய	-8.33441
▁ஊ	-8.33448
▁அடி	-8.33463
ிற்கு	-8.33722
▁ஈ	-8.33754
வுக்கு	-8.33905
▁The	-8.34551
▁மாதிரி	-8.34558
ுவதற்கு	-8.34567
▁O	-8.34569
▁இதனால்	-8.34569
▁இவை	-8.34769
▁கார்	-8.34974
▁re	-8.35034
ஹ்	-8.35203
களைப்	-8.35259
▁_	-8.35356
▁படம்	-8.35409
ri	-8.35583
W	-8.35789
▁ஆகும்	-8.35908
▁அளவு	-8.35938
ப்போ	-8.3603
N	-8.36156
ீர்	-8.36191
▁உனக்கு	-8.36373
யையும்	-8.36459
▁உன்னை	-8.36542
▁முதலில்	-8.36546
▁கொடுத்த	-8.36598
ol	-8.37062
லோ	-8.37081
▁அப்பா	-8.37303
யில	-8.37338
▁பகுதி	-8.37367
V	-8.37514
▁வீடு	-8.37522
▁செய்தி	-8.37622
▁பணம்	-8.37842
▁அனுப்ப	-8.37999
▁நம்மை	-8.38016
▁தவறு	-8.38174
6	-8.3849
▁அவருடைய	-8.38565
ோர்	-8.38818
▁வெ	-8.38911
▁சரியான	-8.39115
▁கருத்து	-8.39342
▁மொழி	-8.39394
தம்	-8.3951
▁இதன்	-8.39544
▁குடும்ப	-8.39618
▁நாடு	-8.39674
▁இதற்கு	-8.39745
ராக	-8.39753
கோ	-8.39758
ீர்களா	-8.39882
ித்து	-8.39903
ட்டும்	-8.39911
▁இதில்	-8.4024
ுமா	-8.40319
▁செய்யும்	-8.40385
நீ	-8.40499
▁குறை	-8.40548
ுவ	-8.41076
▁பார்வை	-8.41209
கார	-8.41476
▁வகை	-8.41709
▁12	-8.41889
7	-8.41927
▁you	-8.41988
▁தே	-8.4201
ிருக்கிறது	-8.42082
▁எடுக்க	-8.42181
▁கொ	-8.42252
▁வருகிறது	-8.42263
▁நபி	-8.42351
▁நடத்த	-8.42361
த்திர	-8.42519
▁எங்களுக்கு	-8.42529
ாம	-8.42558
யிலும்	-8.42587
▁நம்ம	-8.4263
▁20	-8.42711
▁நோக்கி	-8.42758
▁நினைவு	-8.42854
▁ஆகவே	-8.42949
டன்	-8.43126
▁அணி	-8.43723
▁w	-8.43779
ra	-8.43845
▁அவ	-8.43872
▁வந்தது	-8.43883
▁Re	-8.43934
▁அறிவ	-8.44023
am	-8.44437
▁பர	-8.44549
▁மேல்	-8.44553
▁மகன்	-8.44815
ent	-8.44841
▁முக்கிய	-8.44952
னால்	-8.45002
▁மழை	-8.45217
▁நேரத்தில்	-8.45289
▁காலம்	-8.45333
▁பொ	-8.45361
▁நன்மை	-8.45625
▁இதனை	-8.45711
▁மர	-8.45712
▁K	-8.45809
▁சேவை	-8.45864
▁இங்கு	-8.45968
▁தொ	-8.45983
ட்டை	-8.46045
8	-8.46156
▁எழுதிய	-8.46325
▁பற்றிய	-8.46392
ுவதை	-8.46432
▁படிக்க	-8.46515
▁பள்ளி	-8.46641
="	-8.46657
ிலிருந்து	-8.46844
▁குடி	-8.46982
▁உண்மையான	-8.46987
▁”	-8.46989
ிருக்கும்	-8.4723
0	-8.47249
ங்களும்	-8.47414
ப்பை	-8.47514
el	-8.47767
▁போல்	-8.47902
▁அழைக்க	-8.48423
கிறது	-8.48476
ிருந்தது	-8.48546
▁உடல்	-8.48651
ற்ப	-8.48703
ter	-8.48798
▁இன்	-8.48959
▁ஏனெனில்	-8.49054
ate	-8.49227
▁கட்ட	-8.49281
▁காரணம்	-8.49319
▁எதுவும்	-8.49367
னே	-8.49393
!”	-8.49418
▁be	-8.49448
▁இரவு	-8.49466
லில்	-8.49592
▁மெ	-8.49613
த்தா	-8.49742
▁விளையாட்டு	-8.49801
ந்தி	-8.49896
▁அதனை	-8.50012
ுடைய	-8.50076
ாதீர்கள்	-8.50076
▁குறித்து	-8.50116
ுவேன்	-8.50151
▁நன்றாக	-8.50322
ுகிறார்கள்	-8.50391
▁பெரும்	-8.50574
est	-8.50776
க்கா	-8.50844
▁முன்ன	-8.51032
னின்	-8.51182
▁நடந்த	-8.51256
9	-8.51385
▁வேண்டாம்	-8.51601
என்	-8.51705
▁பேர	-8.51711
ுகிறார்	-8.51723
▁விடு	-8.51765
தன்	-8.51897
▁விளையாட	-8.52029
ிடம்	-8.52482
▁உதவ	-8.52486
▁சே	-8.52771
ro	-8.52803
ணை	-8.52841
ly	-8.52903
▁போய்	-8.53068
ிப்ப	-8.53213
வன	-8.53218
lt	-8.53272
விட்ட	-8.53309
▁இல்	-8.53321
▁குழந்தைகள்	-8.53382
ையில்	-8.53446
▁போட	-8.53474
▁பிறந்த	-8.53891
▁செல்வ	-8.54062
▁சீ	-8.54117
▁வருட	-8.54191
te	-8.54244
li	-8.54253
▁தகவல்	-8.54262
▁பூமி	-8.54358
ுவார்கள்	-8.54364
▁கண்	-8.54377
ிருப்ப	-8.54429
▁நீண்ட	-8.54446
ழை	-8.54457
▁மி	-8.54855
டைய	-8.55082
▁தெரிய	-8.55092
வர்களை	-8.55511
▁சட்ட	-8.55621
▁கூடாது	-8.55693
▁அவனுக்கு	-8.558
▁ஒளி	-8.55931
கே	-8.56098
▁தம்	-8.5629
▁ஜ	-8.56294
களுடன்	-8.56403
▁எங்கே	-8.56469
▁இசை	-8.56501
▁போன	-8.56589
op	-8.5664
நி	-8.56968
▁இர	-8.57057
▁யாரும்	-8.5716
▁மத	-8.5742
▁அஞ்ச	-8.57433
த்தால்	-8.57434
▁விட்ட	-8.57489
▁பழ	-8.5757
▁h	-8.57719
▁m	-8.57779
ுள்ளார்	-8.57839
வர்களுக்கு	-8.57919
▁ஆம்	-8.58014
▁திட்ட	-8.58072
ுவார்	-8.58248
K	-8.5845
▁நண்பர்	-8.58587
▁முடியுமா	-8.58689
▁செய்வ	-8.58893
▁வார	-8.58916
▁கூ	-8.59438
நிலை	-8.59865
ங்கு	-8.59926
நீங்கள்	-8.59967
▁15	-8.60111
னோ	-8.60382
▁வீட்டில்	-8.60398
▁தங்க	-8.6099
▁V	-8.61071
▁உங்க	-8.61085
▁கூட்ட	-8.61369
▁என்னுடைய	-8.61427
யைப்	-8.61473
முறை	-8.61605
ிருந்தால்	-8.62007
ணும்	-8.62067
▁அரச	-8.62118
வான	-8.62128
வரும்	-8.62322
▁வாழ	-8.62342
▁உரிமை	-8.62541
ுகிறோம்	-8.62666
ul	-8.62899
▁J	-8.6292
ாவது	-8.62928
ir	-8.62929
▁உயர்	-8.62967
பட்ட	-8.62994
▁உயிர்	-8.63329
▁மகிழ்ச்சி	-8.63333
ம்பு	-8.63364
களால்	-8.63366
▁பாதுகாப்பு	-8.63393
▁மாத	-8.63603
▁விருப்ப	-8.63839
▁இயக்க	-8.63941
▁அறிந்து	-8.6421
▁வெளியே	-8.64504
▁திரும்பி	-8.64589
ப்படி	-8.64615
z	-8.64635
ங்களின்	-8.64846
▁ஏதாவது	-8.64856
ழ்	-8.65029
Y	-8.65051
▁காரண	-8.65103
▁18	-8.65111
▁மன்னிப்ப	-8.6547
▁அதிகமாக	-8.65586
▁நில	-8.6559
▁இறந்த	-8.65606
▁கல	-8.65778
▁பெண்கள்	-8.65836
வற்றை	-8.65861
▁l	-8.6597
▁கொள்வ	-8.66057
▁பிரி	-8.66179
▁தோ	-8.66186
▁அங்கே	-8.66241
▁தெரியுமா	-8.66269
யால்	-8.66381
த்திலும்	-8.66576
▁சூ	-8.66594
▁இல்ல	-8.66652
''	-8.66663
▁முக	-8.66713
U	-8.66899
தான	-8.67058
▁கிடைக்கும்	-8.67145
▁கண	-8.67161
▁11	-8.6723
ன்ற	-8.67264
ாள	-8.67371
க்கப்பட்ட	-8.67382
▁பக்க	-8.67512
▁சோ	-8.67664
▁மக்கள	-8.67699
un	-8.67772
▁பொய்	-8.67788
▁பாவ	-8.6798
▁கரு	-8.68041
▁காலை	-8.68046
▁நாளை	-8.68106
▁இடம்	-8.68147
▁கேட்டு	-8.68175
ினேன்	-8.68273
▁தெரியாது	-8.68353
▁கூறி	-8.68617
ரம்	-8.68748
க்கூடிய	-8.68821
▁கடை	-8.68917
ப்பட்டுள்ளது	-8.68921
ரீ	-8.68999
▁ஸ	-8.69012
▁இருக்கு	-8.69064
ுவதில்லை	-8.69397
▁தொடங்க	-8.6952
▁ரா	-8.69532
லு	-8.69551
▁இந்தியா	-8.697
▁கவிதை	-8.6981
▁அன்ப	-8.69908
َ	-8.70075
▁இல்லாத	-8.70087
▁மலை	-8.70289
க்கான	-8.70311
▁நல்லது	-8.70442
▁ஆண்	-8.70457
▁//	-8.70616
யாளர்	-8.70636
ஐ	-8.70655
▁0	-8.70679
v	-8.70915
▁*	-8.71086
▁நிலையில்	-8.71233
இது	-8.71244
ment	-8.71401
▁உறுதி	-8.71476
ce	-8.71511
க்கே	-8.71537
▁மாற	-8.71568
▁கிடையாது	-8.7158
ுற	-8.71788
▁மூ	-8.71904
ந்	-8.71918
▁தேடி	-8.72
ெல்லாம்	-8.72003
▁செய்வது	-8.72477
யூ	-8.72492
▁திருமணம்	-8.72511
▁»	-8.72539
ிறார்	-8.72649
▁பை	-8.72711
▁வயது	-8.72845
யிட	-8.72857
பே	-8.72919
இந்த	-8.72922
யாகும்	-8.73003
▁தெரியவில்லை	-8.73148
ொரு	-8.732
▁எங்களை	-8.73226
us	-8.73307
▁வேத	-8.73522
▁படித்த	-8.73605
▁அவர்களுடைய	-8.73695
ண்டி	-8.73697
ாளர்	-8.73812
▁சேர்ந்த	-8.73829
▁மரண	-8.73857
பதி	-8.73959
▁பிடித்த	-8.74336
▁அவன	-8.7449
▁டெ	-8.74559
▁அமெரிக்க	-8.74568
▁பிரச்சனை	-8.74663
▁மனிதன்	-8.74793
ஜ்	-8.7496
ஸல்	-8.7512
▁அவற்றை	-8.7531
▁முன்பு	-8.75385
ஸா	-8.75577
age	-8.75585
▁வரி	-8.75587
▁சக்தி	-8.7576
▁பிரச்சினை	-8.76025
சே	-8.76118
கர்	-8.76196
▁விதி	-8.76274
▁நாளில்	-8.76306
se	-8.76353
ங்கள	-8.76371
▁தொடர்ந்து	-8.76515
▁காப்பாற்ற	-8.76813
ஹா	-8.76898
▁தவற	-8.76907
▁குழு	-8.77025
▁இன	-8.77036
த்திலிருந்து	-8.77063
▁அவ்வளவு	-8.77109
▁காட்சி	-8.77129
▁பயண	-8.77129
ist	-8.7713
▁வடிவ	-8.77226
▁கூறிய	-8.7724
▁கீழே	-8.77361
▁நடக்க	-8.77456
▁முடியவில்லை	-8.77477
ுகின்றன	-8.7756
கூட	-8.77642
▁சொந்த	-8.77886
▁குறிப்பிட்ட	-8.7798
is	-8.78053
▁மிக்க	-8.78069
▁இருக்கலாம்	-8.78167
▁ஒன்ற	-8.78294
ுமே	-8.78322
▁போட்டி	-8.78364
▁கண்ண	-8.78371
▁நகர	-8.78383
▁பொருள்	-8.78399
▁ஞான	-8.78442
த்திய	-8.78687
▁தொடர்பு	-8.78727
▁அதாவது	-8.78746
▁விளக்க	-8.78779
சன்	-8.78872
▁முக்கியமான	-8.78911
▁தற்போது	-8.78911
▁பேர்	-8.78989
▁அமைதி	-8.79041
▁கீழ்	-8.79115
▁அரசியல்	-8.79271
க்கொள்ள	-8.793
▁எதை	-8.79491
as	-8.79503
ிலேயே	-8.79511
ென்று	-8.79518
▁விஷயம்	-8.79641
ிருக்கிற	-8.79644
மானது	-8.79707
▁கண்டு	-8.79783
om	-8.79898
னுக்கு	-8.79949
த்தார்	-8.79968
10	-8.79987
ut	-8.80076
▁''	-8.80169
ாதே	-8.80202
வெ	-8.80217
ினான்	-8.80307
னாக	-8.80347
▁சரியாக	-8.80375
▁இருந்தாலும்	-8.80386
▁அளிக்க	-8.80515
▁கருத	-8.80531
▁சாப்பிட	-8.80546
ive	-8.8055
▁e	-8.80685
▁எத்தனை	-8.80798
▁முடியாத	-8.80994
▁மீ	-8.8102
▁விற்பனை	-8.81067
களிடம்	-8.81136
த்துடன்	-8.81184
▁de	-8.81203
▁செய்	-8.8125
com	-8.81424
000	-8.81667
யிலிருந்து	-8.8167
▁திருமண	-8.81761
▁இணை	-8.81817
வருக்கு	-8.81876
▁ஷ	-8.81924
படுத்த	-8.81956
▁வணங்க	-8.81966
த்தது	-8.82103
ினோம்	-8.82132
nd	-8.8223
▁அன்று	-8.82248
மாய்	-8.82264
_	-8.82283
▁நாட்கள்	-8.82293
▁எழுதி	-8.82379
▁செயல	-8.82627
de	-8.82714
ரில்	-8.82716
▁தள	-8.82737
▁+	-8.82795
மன்	-8.82818
▁மனிதர்	-8.82829
id	-8.82849
▁அவர்களிடம்	-8.82945
த்துக்	-8.82964
ுவான்	-8.83043
▁தன்னை	-8.83222
ியல்	-8.83311
▁இயல	-8.83313
▁கிடைக்க	-8.83329
▁சார்	-8.83742
!"	-8.83755
ங்களையும்	-8.83805
வராக	-8.83816
▁கட்டுரை	-8.84036
▁தானே	-8.84085
ow	-8.84128
▁குற்ற	-8.84135
ிறோம்	-8.84144
▁மறு	-8.84234
▁காரணமாக	-8.84257
டர்	-8.84527
▁பெரு	-8.84626
▁ஓர்	-8.84658
▁அன்பு	-8.84738
▁நடவடிக்கை	-8.84851
▁நிச்சயம்	-8.84885
▁அமைப்பு	-8.84925
க்கை	-8.84988
▁St	-8.85059
vi	-8.85113
ாளி	-8.85147
▁நெ	-8.85188
▁on	-8.85286
▁வசதி	-8.85359
▁தெரிந்த	-8.85517
▁நடந்து	-8.85637
கால	-8.85778
▁அவளை	-8.85784
▁In	-8.85799
▁இல்லாமல்	-8.85805
ஞ	-8.85811
▁உங்கள	-8.86007
um	-8.86054
▁கொண்டிருந்த	-8.86225
▁எனினும்	-8.86229
▁விரைவில்	-8.86249
▁இதுவரை	-8.86251
▁உண்மையை	-8.86397
▁கவலை	-8.86482
▁நாள	-8.86503
▁முடி	-8.8652
▁புது	-8.86544
▁முழுவதும்	-8.86545
▁பார்ப்ப	-8.86609
▁அப்படியே	-8.86719
தற்காக	-8.86775
▁ரூ	-8.86816
▁வார்த்தை	-8.86867
▁உடனே	-8.87002
▁பேசி	-8.87012
12	-8.87265
▁ஸ்ட	-8.87411
im	-8.87494
▁சிறிது	-8.87496
ஏ	-8.87539
▁நினைத்த	-8.87592
▁நரக	-8.87593
ண்ட்	-8.8773
ோட	-8.87997
ங்கா	-8.8803
11	-8.88064
ve	-8.88113
ந்திர	-8.88168
▁உலகம்	-8.88227
▁கட்சி	-8.88239
▁கிடைத்த	-8.88372
▁எங்க	-8.88502
ாங்க	-8.88526
▁தெரிந்து	-8.88632
▁எம்	-8.88802
னிய	-8.88819
ிர	-8.88844
▁அதிகம்	-8.88971
பர	-8.88998
▁செயல்	-8.89108
▁புற	-8.89147
▁ஆண்ட	-8.89193
தானே	-8.89211
▁பாருங்கள்	-8.89713
▁இவ்வ	-8.89818
களா	-8.89842
▁மன்னிப்பு	-8.89869
▁நினைக்க	-8.89931
ிறார்கள்	-8.90022
▁நோ	-8.90201
▁16	-8.9022
▁கடன்	-8.90277
▁அறிவு	-8.90383
▁மாட்ட	-8.90386
கொள்ள	-8.90602
▁பண்ண	-8.90936
▁வருடம்	-8.91094
மீ	-8.91112
▁பழைய	-8.91121
விய	-8.9126
▁30	-8.91299
மாகும்	-8.91307
▁உணர	-8.91326
▁பல்வேறு	-8.9133
வுடன்	-8.9139
ட்டா	-8.91609
▁ஜெ	-8.91631
▁அதி	-8.91656
▁அங்க	-8.91697
வான்	-8.91714
ற்க	-8.91834
களிலும்	-8.91891
▁இதுதான்	-8.91915
▁ஏதோ	-8.91942
▁வணிக	-8.92014
▁ஆட்சி	-8.9205
பின்	-8.92055
▁இப்ப	-8.92123
▁பின்பற்ற	-8.92148
▁கோப	-8.92273
▁அடைந்த	-8.92408
▁பின்ன	-8.92433
▁நடு	-8.9248
யெல்லாம்	-8.92529
▁13	-8.92579
▁ஏற்படுத்த	-8.92598
▁ஆசிரியர்	-8.92668
ிருந்தார்	-8.92699
▁இடத்தில்	-8.92712
▁$	-8.92757
முக	-8.92778
▁எண்	-8.9281
களுக்கும்	-8.92867
▁விமான	-8.92875
▁அளித்த	-8.92902
▁தூ	-8.92921
ுக்காக	-8.92922
▁இருப்பது	-8.92987
▁கல்வி	-8.93034
▁st	-8.93059
ப்பது	-8.93073
வர்களாக	-8.93086
▁அனுபவ	-8.93258
▁me	-8.93284
▁அழகான	-8.93556
▁இல்லையா	-8.93738
▁நினைத்து	-8.93756
ஸ்ட்	-8.93862
ிறேன்	-8.93875
▁இறை	-8.93905
▁கனவு	-8.93979
ot	-8.94072
ma	-8.94114
▁அடிப்படை	-8.94175
வற்ற	-8.94375
▁இவ்வளவு	-8.94497
▁தெளிவாக	-8.94583
▁பொது	-8.94743
ன்று	-8.94865
▁இவ்வாறு	-8.94908
’’	-8.94964
▁கலை	-8.94993
▁துணை	-8.95049
செ	-8.95157
பர்	-8.95168
▁வாரம்	-8.9519
வீ	-8.95216
▁not	-8.95233
▁14	-8.95264
▁நல	-8.95302
▁ஜி	-8.95306
▁மூல	-8.9531
me	-8.95321
▁இப்போ	-8.95416
▁வழக்க	-8.95562
▁பெற்று	-8.95587
▁தந்த	-8.95592
ுள்ளனர்	-8.95675
▁சிகிச்சை	-8.95867
19	-8.95907
▁சிவ	-8.95932
ஒரு	-8.95961
▁பய	-8.96058
வனை	-8.96065
▁இணைய	-8.96274
▁எல்லோரும்	-8.9653
ன்னா	-8.96576
▁எடுத்த	-8.96578
ுகின்ற	-8.96624
▁இருக்கிற	-8.96658
▁பதிவிறக்க	-8.96861
X	-8.96911
▁ஃப	-8.96955
pe	-8.96989
▁பண	-8.97013
▁மருத்துவ	-8.97092
வனாக	-8.97135
சன	-8.97223
ூர்	-8.97225
▁அமெரிக்கா	-8.97231
▁எரி	-8.9726
▁பார்	-8.97469
▁ஆனா	-8.97507
க்கொண்ட	-8.976
த்துவ	-8.97631
▁உங்களுடைய	-8.97636
க்கோ	-8.97702
த்தன	-8.97782
▁17	-8.97866
ry	-8.97895
lo	-8.97959
தர்	-8.97975
▁ஐந்து	-8.98041
▁இருவரும்	-8.98104
▁இலவச	-8.98223
ரியா	-8.98427
50	-8.98738
▁கட	-8.98845
all	-8.9886
co	-8.98986
▁விட்டது	-8.99076
▁இலங்கை	-8.99283
▁கேட்ப	-8.99298
▁ஓட	-8.99321
▁வித	-8.99594
▁தேவ	-8.99633
▁காரிய	-8.99728
▁நடந்தது	-8.99753
▁De	-8.99891
▁தாக்க	-8.99953
க்கிறது	-9.00266
கொண்ட	-9.00282
ne	-9.00286
ிருக்கிறேன்	-9.00327
?’	-9.00348
ளா	-9.00613
▁அறை	-9.00764
▁மொத்த	-9.00787
▁பயிற்சி	-9.00918
▁நேர்	-9.00955
எஸ்	-9.01016
▁குரு	-9.01017
ers	-9.01128
▁மக்களுக்கு	-9.01153
ுகிறான்	-9.01165
per	-9.01202
▁ஏற்பட்ட	-9.01303
▁அக	-9.01313
▁25	-9.01346
▁பதவி	-9.01526
▁மறை	-9.01605
விடும்	-9.01605
வரு	-9.01776
▁தொடர்	-9.01896
▁நிறுத்த	-9.01903
மூ	-9.01981
▁எளிதாக	-9.02139
ver	-9.02202
▁சுற்றி	-9.02274
▁எப்போது	-9.02336
ுங்க	-9.02413
▁வழியில்	-9.02477
▁உடை	-9.02486
▁காதல்	-9.02494
▁போர்	-9.0254
லும்	-9.02594
கர	-9.02615
▁புரிந்து	-9.02742
▁கன	-9.02911
பாடு	-9.02941
▁பீ	-9.03017
▁ஆண்டுகள்	-9.03046
▁ஆனாலும்	-9.03157
போல	-9.0319
▁இறுதி	-9.03294
ஸி	-9.03305
▁வேண்ட	-9.0347
▁பிள்ளை	-9.03506
ிடமிருந்து	-9.03547
▁தமிழ	-9.03689
னில்	-9.03706
▁மன்னிக்க	-9.0371
▁with	-9.03782
▁அலை	-9.03815
▁யார	-9.03818
▁மாநில	-9.03849
சம்	-9.0389
றிய	-9.03896
▁என்ப	-9.04108
▁சோதனை	-9.04169
▁கூடிய	-9.04177
அது	-9.04179
ஃப்	-9.04202
க்கூடாது	-9.04295
▁சொன்னார்	-9.04304
▁சிறப்பு	-9.04538
▁சீனா	-9.0464
▁படுத்த	-9.04669
ணம்	-9.04744
▁தேசிய	-9.04772
and	-9.04827
ிரு	-9.04838
▁வெளியிட	-9.04954
▁தாய்	-9.04997
▁அனுமதி	-9.05128
▁அழைத்து	-9.05145
▁மக்களை	-9.0526
▁பக்கம்	-9.0533
▁உரு	-9.05418
அவர்	-9.05461
▁நிற	-9.05469
▁அப்ப	-9.05511
▁U	-9.05678
▁எதையும்	-9.05797
▁நான்கு	-9.05816
லர்	-9.05823
▁டா	-9.05835
▁விவர	-9.05837
▁அனைத்தும்	-9.05884
▁இத	-9.05942
▁புத்தக	-9.05962
▁தேதி	-9.05973
▁இதே	-9.06076
▁எழு	-9.06093
ிருந்து	-9.06178
▁யூ	-9.0621
▁மாதம்	-9.06359
▁கால்	-9.06465
▁குறிப்பிட	-9.06475
டிக்க	-9.06486
ற்றி	-9.065
▁வருவ	-9.06644
▁சொல்வ	-9.06654
▁உணர்வு	-9.06676
▁உடன்	-9.06724
▁start	-9.0675
ார்களா	-9.06766
▁நேற்று	-9.06861
ுவதாக	-9.06861
அல்லாஹ்	-9.06918
▁ஜா	-9.06944
டே	-9.07039
▁மாறி	-9.07097
வரின்	-9.07194
ha	-9.07213
▁அல்லாஹ்வை	-9.0725
ti	-9.07413
ab	-9.07686
ந்தது	-9.07793
▁உணவ	-9.078
▁ஆங்கில	-9.07816
▁ஆசை	-9.07821
▁24	-9.07906
▁அவரிடம்	-9.07961
▁உள்ளே	-9.07969
▁என்னிடம்	-9.08142
▁வாய்ப்பு	-9.08238
▁அடைய	-9.08255
ாக்க	-9.08284
▁வைப்ப	-9.083
▁ஏற்ற	-9.08595
ஷி	-9.0861
▁தலைவர்	-9.08716
ப்படவில்லை	-9.08748
▁முதல	-9.08756
▁தடை	-9.08815
ுபவர்	-9.08871
ால	-9.08999
▁சேர்க்க	-9.09026
▁வீ	-9.09103
▁இயற்கை	-9.09158
▁வாழ்வ	-9.09185
▁நீதி	-9.09257
▁பயணம்	-9.09332
▁கொஞ்சம்	-9.09416
ion	-9.09455
ack	-9.09638
▁ஆகிய	-9.09641
▁se	-9.09729
ாகும்	-9.098
▁கொள்ளுங்கள்	-9.10087
▁கொடுத்து	-9.10098
▁நம்முடைய	-9.10239
▁துறை	-9.10322
▁மனம்	-9.10563
ப்படுகின்றன	-9.10604
▁திட்டம்	-9.10644
▁உரை	-9.10701
[	-9.10721
▁வாங்கி	-9.10756
யிர	-9.10777
▁குறைந்த	-9.10923
ுகின்றனர்	-9.1096
▁ஆய்வு	-9.11002
▁நிதி	-9.11163
▁அச்ச	-9.11171
▁or	-9.11188
▁ஒன்றை	-9.11199
▁அருள	-9.11204
▁இதோ	-9.1122
ிலுள்ள	-9.11223
▁செலவு	-9.11227
▁கூறினார்கள்	-9.11254
▁dur	-9.11314
▁பெயர	-9.11346
▁எவ்வாறு	-9.11382
▁தெரிவித்த	-9.11386
ill	-9.11457
▁பயப்பட	-9.11471
போல்	-9.11696
▁அறிக்கை	-9.11705
la	-9.1175
ாரா	-9.11754
▁வலை	-9.11831
லாமா	-9.11834
▁மை	-9.1186
▁உமக்கு	-9.11867
▁#	-9.11885
தீ	-9.11909
லின்	-9.12082
15	-9.12154
▁ஒன்றாக	-9.12186
விட்டார்	-9.12245
▁உங்களிடம்	-9.12279
▁நன்கு	-9.12289
▁மாற்றி	-9.12317
▁காலத்தில்	-9.12367
▁கட்டளை	-9.12442
ல்லா	-9.12596
ia	-9.12642
▁இருந்தார்	-9.12679
▁con	-9.13006
▁தமிழக	-9.13095
▁மோ	-9.13122
▁வலி	-9.13193
▁அனைவருக்கும்	-9.13271
ியா	-9.13338
▁மரணம்	-9.13425
வில்லையா	-9.13523
க்கிய	-9.13664
▁it	-9.13695
▁காப்ப	-9.13854
ிங்	-9.13871
▁=	-9.14014
▁எடுத்துக்	-9.14077
"&	-9.14108
தனை	-9.14131
▁d	-9.14283
ub	-9.14297
▁அமை	-9.14353
▁Ma	-9.14449
லாக	-9.14461
▁ரோ	-9.14489
▁அதிகார	-9.14632
▁மாற்றம்	-9.14797
▁நாம	-9.14838
ினார்கள்	-9.14874
ிருக்கிறார்	-9.14884
ுக்கும்	-9.14933
ின்றன	-9.14944
▁பங்கு	-9.14996
யாவது	-9.15009
வாய்	-9.15033
ளம்	-9.15112
▁மனதில்	-9.15148
யார்	-9.15162
▁உலகில்	-9.15249
▁are	-9.15303
▁நோக்க	-9.15343
▁உம்	-9.15367
▁கருவி	-9.15499
▁தெளிவான	-9.15649
மதி	-9.15711
ரண	-9.15814
வந்த	-9.15843
▁அர	-9.15876
▁ஓடி	-9.15925
▁சக	-9.15971
▁தலைமை	-9.15986
க்குள்	-9.15997
hi	-9.16024
▁குண	-9.1603
ant	-9.16095
▁இரண்டாவது	-9.16101
▁அழ	-9.16109
விற்கு	-9.16166
ில்லை	-9.16213
யுடைய	-9.16243
01	-9.1636
▁ஆர்	-9.1663
▁உங்களின்	-9.16707
ap	-9.16733
▁ஓட்ட	-9.1676
▁ஹா	-9.16952
▁வட	-9.16976
▁பெரும்பாலும்	-9.17225
ஞ்சி	-9.17236
▁இழந்த	-9.17354
▁ஆரம்ப	-9.17358
வழி	-9.17362
▁பாராட்ட	-9.17378
▁சந்தேக	-9.17437
▁அதுவும்	-9.17443
30	-9.17498
▁முடிந்த	-9.17575
▁தவ	-9.17713
▁பூமியில்	-9.17768
▁என்கிற	-9.17911
▁போதும்	-9.17936
ணு	-9.17964
யில்லை	-9.17989
▁போத	-9.18014
ட்டில்	-9.18022
ாகவே	-9.18025
▁பிரா	-9.18033
▁வேக	-9.18086
▁இன்றைய	-9.18185
▁தெரிகிறது	-9.18189
தார	-9.18222
யிருந்த	-9.18243
கிற	-9.18272
ிட்ட	-9.18421
▁முடிவ	-9.18521
▁தயாரிப்பு	-9.18572
16	-9.18659
ளவு	-9.18703
▁நபர்	-9.1878
▁விசாரணை	-9.18798
▁வகையில்	-9.18858
யுள்ள	-9.18878
▁இருந்தன	-9.18883
லுக்கு	-9.19025
ல்லி	-9.19041
▁நானே	-9.19077
▁நண்பர்கள்	-9.19125
பெ	-9.19204
▁தொழில்	-9.19215
ுதல	-9.19278
art	-9.19314
▁பரி	-9.19335
▁அவரின்	-9.19348
▁சங்க	-9.1942
ினை	-9.19485
▁மாட்டார்கள்	-9.19532
▁செயல்பட	-9.19709
▁யாரு	-9.19791
▁நிறுவன	-9.1982
வள்	-9.19905
▁தேவையான	-9.19938
தன	-9.19977
க்கொள்	-9.20004
▁அவனுடைய	-9.20057
▁your	-9.2008
யானது	-9.20132
ஜா	-9.20147
ீங்க	-9.20258
▁விஷய	-9.20258
என்ன	-9.2031
▁உறவு	-9.20376
தையும்	-9.20423
▁தின	-9.20606
▁தகுதி	-9.20638
▁பெட்டி	-9.20646
▁அவள	-9.2067
▁மேலே	-9.20887
▁நியாய	-9.20982
யின	-9.2117
ast	-9.21221
▁மைய	-9.21326
▁கடமை	-9.21379
▁திரை	-9.21452
▁by	-9.21617
▁தொடர	-9.2162
▁மேல	-9.21746
க்கொண்டு	-9.21779
ஷா	-9.218
▁நேர்வழி	-9.22209
ந்தா	-9.22253
ப்பற்றி	-9.22293
▁தெ	-9.22298
▁நிகழ்ச்சி	-9.22403
தாகவும்	-9.22463
▁சினிமா	-9.22743
டிய	-9.22922
▁இருக்கின்றன	-9.22923
our	-9.22928
▁உன்ன	-9.22961
களுக்காக	-9.22983
▁முகப்பு	-9.22985
வரா	-9.2303
▁விஷயங்களை	-9.23198
ிவிட	-9.23273
ப்பில்	-9.23303
ென	-9.23416
▁அவனது	-9.23499
▁சின்ன	-9.2351
சிய	-9.23531
ாகவும்	-9.23557
▁தவறான	-9.23633
▁நிலைய	-9.2364
18	-9.23695
▁நீங்களும்	-9.23718
வர்களின்	-9.23726
▁தோன்ற	-9.23765
▁மண	-9.23868
யற்ற	-9.23888
&	-9.23902
▁பெருமை	-9.23944
AN	-9.24012
▁நிறுவனம்	-9.24073
▁தீவிர	-9.24157
▁ஏற்பட	-9.24216
ta	-9.24237
▁அழைத்த	-9.24256
▁தேர்தல்	-9.24265
▁மாறு	-9.24376
one	-9.2438
▁சொல்	-9.24393
▁செய்யப்பட்ட	-9.24479
ity	-9.24496
▁எமது	-9.24516
ER	-9.24519
▁கள	-9.24533
▁மூட	-9.24551
▁அழுத்த	-9.24557
tion	-9.24617
▁முழுமையாக	-9.24651
▁இரத்த	-9.24662
ீடு	-9.24763
▁ஆரம்பித்த	-9.24828
திர்	-9.24833
▁su	-9.24885
ிலே	-9.24966
▁கொடுப்ப	-9.25015
▁எச்சரிக்கை	-9.25101
யாய்	-9.2528
▁படைப்பு	-9.25396
தர	-9.25417
▁பிடிக்க	-9.25478
▁பாடல்	-9.25661
ாவ	-9.25728
▁செய்தால்	-9.25753
▁வழக்கு	-9.25754
▁அவர	-9.25762
ரச	-9.25798
▁சூரிய	-9.25849
ிட்டு	-9.25851
▁உயிர	-9.25856
▁தரும்	-9.25858
▁நிறுவ	-9.26
ஆம்	-9.26028
▁நோய்	-9.26095
▁ஆச்சரிய	-9.26112
▁அடை	-9.26116
யோடு	-9.26151
▁அலுவலக	-9.26168
ard	-9.26209
▁இரண்ட	-9.26296
▁படை	-9.263
▁மக்களின்	-9.26338
▁இடை	-9.26461
லான	-9.26505
நபியே	-9.26544
▁திறமை	-9.26553
▁மாலை	-9.26673
▁அழகு	-9.26701
மற்ற	-9.26748
என்று	-9.26755
▁மருந்து	-9.26767
தாகும்	-9.2677
ிடத்தில்	-9.26843
▁ஊர்	-9.26987
▁எழுப்ப	-9.27035
ine	-9.27111
▁நினைக்கிறேன்	-9.27128
▁தூதர்	-9.27211
▁விஷயங்கள்	-9.27237
▁2018	-9.27291
na	-9.27308
80	-9.27425
▁தனியாக	-9.27458
வரையும்	-9.27459
▁லே	-9.27519
ll	-9.27522
▁சந்திக்க	-9.27575
ho	-9.27663
▁ஒருவேளை	-9.27673
▁அனுப்பி	-9.27856
▁போலவே	-9.27859
▁விடும்	-9.28025
▁இதுவே	-9.28062
▁கெட்ட	-9.28199
மையான	-9.282
▁இறைவனின்	-9.28254
▁அவர்களது	-9.28331
▁ஈமான்	-9.28355
▁ஆதார	-9.28393
▁Home	-9.28489
ச்சா	-9.28552
▁மறுமை	-9.28597
வாதி	-9.28609
ci	-9.28636
▁வீடியோ	-9.28666
பை	-9.28716
▁வாடிக்கையாளர்	-9.28846
▁பாதி	-9.28879
▁இருக்கின்றான்	-9.28908
ஹி	-9.29014
ச்சை	-9.29105
▁மதிப்பு	-9.29111
▁கொள்கிற	-9.2917
▁முன்னர்	-9.29179
▁சார்ந்த	-9.2922
▁An	-9.29263
▁ஆர்வ	-9.29293
▁தண்டனை	-9.29443
ுகிறீர்கள்	-9.29513
▁அறிவித்த	-9.29555
▁உள்	-9.29557
▁உற்பத்தி	-9.2956
▁பிழை	-9.2958
மொழி	-9.29589
▁100	-9.29591
▁எல்லை	-9.29601
▁வேற	-9.29623
▁21	-9.29651
▁வச	-9.29732
▁பால	-9.29845
▁முறையில்	-9.29872
▁புல	-9.29892
▁தமது	-9.29974
▁தேர்	-9.30102
▁அச	-9.30115
▁ஆதரவு	-9.30162
▁பெண்ண	-9.30167
ெய்	-9.30225
▁ஏற்கனவே	-9.30286
▁தெரிவிக்க	-9.30337
வினை	-9.30403
▁பெயரை	-9.30404
▁ஏற்படும்	-9.30422
▁Pro	-9.30438
களுக்கான	-9.30466
▁உட்	-9.30569
ங்களிலும்	-9.30621
▁குறித்த	-9.30632
der	-9.30647
மணி	-9.30667
▁மன்னித்து	-9.30696
▁வெளிப்படுத்த	-9.30826
▁No	-9.30864
▁தினமும்	-9.30866
ay	-9.30906
சர்	-9.30974
ினர்	-9.31141
▁புரிய	-9.31176
14	-9.31181
▁இறைவன	-9.31238
▁பெற்றோர்	-9.31261
▁Ch	-9.31272
வள	-9.31273
▁மேற்	-9.31274
ance	-9.31355
▁ma	-9.31407
ight	-9.31457
25	-9.31461
ل	-9.31496
▁தேச	-9.31514
▁இருக்கிறார்கள்	-9.31519
▁உண்டா	-9.31546
சரி	-9.31564
▁do	-9.31603
களோ	-9.31619
▁அனைத்தையும்	-9.31642
▁pro	-9.31649
▁அளவில்	-9.31697
▁செய்திகள்	-9.31738
ட்டர்	-9.31763
▁மனிதர்கள்	-9.31765
▁மிகப்பெரிய	-9.31802
▁எதிராக	-9.3181
▁வீட்டு	-9.31823
▁அவ்வ	-9.31864
▁குழப்ப	-9.31916
▁தெய்வ	-9.31927
▁உத்தர	-9.31975
டோ	-9.3211
▁50	-9.32283
▁என்னும்	-9.32343
qu	-9.32389
முன்	-9.3242
▁இன்னொரு	-9.32584
▁வாழ்க்கையில்	-9.32622
▁sh	-9.3266
//	-9.32813
▁இறந்து	-9.32824
பார்	-9.32903
▁வழியாக	-9.32925
ின்ற	-9.32991
▁அறிவிக்க	-9.33044
ஃ	-9.33131
▁கூலி	-9.33151
▁பேசிய	-9.33168
▁சேர்ந்து	-9.33175
▁போகிற	-9.33194
ிடையே	-9.33283
சார	-9.33349
ty	-9.33354
ட்சி	-9.33386
▁ஜனாதிபதி	-9.33409
▁கோடி	-9.33546
▁படைப்ப	-9.33553
யாகவும்	-9.33573
▁நாட	-9.33616
▁நீக்க	-9.33747
▁ஒலி	-9.33754
▁நூல்	-9.33837
▁சேர்த்து	-9.33989
ாரோ	-9.33995
ct	-9.34042
ௌ	-9.34103
ார்களோ	-9.34111
▁கழி	-9.34118
▁மாட்டேன்	-9.34122
▁ஆழ	-9.34198
▁குளிர்	-9.34284
ON	-9.34287
▁வங்கி	-9.34411
▁வந்தார்	-9.34434
வித	-9.34459
▁தூங்க	-9.34525
▁அனுமதிக்க	-9.34627
ண்டா	-9.34631
▁காய	-9.34673
▁Co	-9.34864
▁ஒப்ப	-9.34865
▁நம்பி	-9.34887
▁எதிர்பார்க்க	-9.34888
▁செய்தது	-9.34897
▁எவர்	-9.35009
▁we	-9.35044
ிறான்	-9.35062
▁என்பதால்	-9.35124
ாலே	-9.35141
▁2019	-9.35207
▁போட்டு	-9.35229
▁முஸ்லிம்	-9.35234
▁Mo	-9.35385
▁உம்மை	-9.35425
ப்படுத்தி	-9.35455
▁கிழ	-9.35527
கொள்	-9.3554
▁பொதுவாக	-9.35627
▁மாணவர்	-9.35742
▁தான	-9.35767
ானோ	-9.35813
▁உடைய	-9.3583
▁மிகப்	-9.35841
IN	-9.36058
▁போராட்ட	-9.36095
▁X	-9.36105
▁முந்தைய	-9.36209
▁உயர	-9.36325
▁சத்திய	-9.3633
பீ	-9.36368
▁செல்	-9.36426
▁உங்களது	-9.36446
▁பாதுகாக்க	-9.36465
▁நாட்களில்	-9.36484
▁என்றான்	-9.36504
▁தோற்ற	-9.3652
▁வண்ண	-9.36553
ge	-9.36574
ாவின்	-9.36659
▁அடுத்து	-9.36664
م	-9.36668
ிடமும்	-9.36681
▁தகவல்கள்	-9.36694
▁புர	-9.36699
▁எழுத்து	-9.36715
▁கொலை	-9.36758
ுமாறு	-9.36772
▁யாராவது	-9.36816
▁முடிந்தது	-9.36832
ost	-9.36849
▁லி	-9.36872
▁சாத்திய	-9.36909
▁கையில்	-9.36934
ந்தை	-9.37004
fi	-9.37113
ுக்கள்	-9.37156
▁இத்தகைய	-9.37169
உங்கள்	-9.37171
▁கடவுள	-9.37233
▁போட்ட	-9.37242
▁இறக்க	-9.37272
▁வேளை	-9.37296
▁நிற்க	-9.37301
▁காண்ப	-9.37318
▁2017	-9.37391
▁நல்லா	-9.37401
▁மறந்து	-9.37429
▁கடைசி	-9.3749
நாள்	-9.37497
▁இதய	-9.37575
ியுங்கள்	-9.37578
▁சந்தோஷ	-9.37585
▁நாயக	-9.37611
▁விடுதலை	-9.37735
▁கட்டி	-9.37738
du	-9.37744
▁விரும்புகிறேன்	-9.37793
▁200	-9.37871
ென்றால்	-9.3793
ன்றி	-9.37953
▁தயாராக	-9.37967
▁வல	-9.38007
▁அனு	-9.38036
கொ	-9.38064
▁பயன்படுத்தி	-9.38099
▁பிரிவு	-9.38148
க்கிற	-9.38155
▁சேர	-9.38233
▁வளர்ச்சி	-9.383
▁22	-9.38302
ep	-9.38355
▁பிடி	-9.38384
பெயர்	-9.38425
▁கூறும்	-9.38543
ence	-9.38596
▁ஆண்டுகளுக்கு	-9.38604
ْ	-9.38618
வையும்	-9.38633
▁விளங்க	-9.38717
▁பிடித்து	-9.38745
▁கிராம	-9.38785
▁கெ	-9.38877
▁விழி	-9.38882
▁முடிய	-9.38958
▁சிலர்	-9.391
நேர	-9.39109
▁சென்னை	-9.39111
▁கொண்டே	-9.39181
▁படித்து	-9.39361
ோமா	-9.39514
▁திருத்த	-9.3952
▁உதவும்	-9.39542
▁அளவ	-9.39558
▁எல்லாமே	-9.39586
▁தொலைபேசி	-9.39638
▁ஆறு	-9.3965
▁என்றாலும்	-9.3966
ee	-9.3969
றா	-9.39765
▁இறைவனை	-9.39919
▁சாதி	-9.39961
▁இருக்கிறார்	-9.39964
▁சிந்தனை	-9.39985
▁படங்கள்	-9.40068
▁மத்திய	-9.40142
▁தொகை	-9.40314
▁சொ	-9.40329
▁உமது	-9.40351
ிவிட்டது	-9.40418
▁கோப்பு	-9.40446
▁ஆக்க	-9.40472
▁நினைவ	-9.40476
▁மாற்று	-9.40477
ai	-9.40479
▁ex	-9.40496
டல்	-9.40544
▁இருக்கிறேன்	-9.40569
▁செய்கிற	-9.4069
▁காதல	-9.40843
▁பார	-9.40893
▁அப்பொழுது	-9.40921
▁தேவையில்லை	-9.40928
ாட்சி	-9.40949
▁வய	-9.4095
▁ஹி	-9.40987
▁mo	-9.41018
நாள	-9.41019
▁மன்ன	-9.4102
able	-9.41066
▁உருவ	-9.41107
ாகிய	-9.4111
▁விளம்பர	-9.4118
▁Se	-9.41257
ுகின்றது	-9.41261
ook	-9.41294
▁26	-9.4137
ass	-9.41377
தெல்லாம்	-9.41415
தற்கான	-9.41445
▁வெகு	-9.41536
ார	-9.41655
▁வாழ்ந்த	-9.41758
▁பின்பு	-9.41785
ِ	-9.4184
பெற	-9.41842
▁மக	-9.41845
▁அழைப்ப	-9.41859
▁வெறும்	-9.41955
ell	-9.42109
▁என்றே	-9.42133
மாட்டா	-9.42184
▁அருள்	-9.42222
▁வளர்	-9.42279
▁விர	-9.42327
▁கணக்க	-9.42344
▁தடுக்க	-9.42375
▁பொருட்கள்	-9.42389
▁திறக்க	-9.42391
▁நடக்கும்	-9.42434
ளோ	-9.42441
▁திரைப்பட	-9.42476
▁ஒருவன்	-9.42591
▁தனிப்பட்ட	-9.42593
▁முற்றிலும்	-9.42598
ப்புற	-9.42607
▁கொள்கை	-9.42619
▁சந்திப்ப	-9.42673
ரலி	-9.42678
▁நினைப்ப	-9.42706
ies	-9.42713
மடைந்த	-9.42736
▁மாவட்ட	-9.4275
▁வாழ்	-9.42773
வரே	-9.42802
ின்றனர்	-9.42844
ளிக்க	-9.42882
99	-9.42902
▁தன்மை	-9.42991
▁சொன்னது	-9.43207
▁பணத்தை	-9.43242
▁பேச்சு	-9.43259
▁மாணவர்கள்	-9.43281
▁உடல	-9.43299
டாக	-9.43318
ானா	-9.43491
▁an	-9.43706
▁நினைக்கிற	-9.43734
▁அவனே	-9.43735
நீர்	-9.43804
▁ஓவிய	-9.43816
▁நின்ற	-9.43822
▁உணர்ந்த	-9.43824
ஞ்சு	-9.43826
▁பரிசு	-9.43829
ென்ன	-9.43837
▁கிறிஸ்து	-9.43904
▁ராம	-9.43988
யிடம்	-9.44005
▁பத	-9.44019
▁வேண்டுமா	-9.44037
ுள்ளன	-9.44098
▁எடை	-9.44162
▁பாக	-9.44194
▁சந்தை	-9.44231
ும்படி	-9.44244
▁மூஸா	-9.44253
▁ஒன்றும்	-9.44301
▁நின்று	-9.44342
17	-9.44347
▁உயர்ந்த	-9.44378
பூ	-9.44467
▁சந்தித்த	-9.44473
▁என்கிறார்	-9.44491
▁தெரியாத	-9.44562
▁that	-9.44585
▁சிறை	-9.4459
ite	-9.4462
▁நு	-9.44639
ப்பிடி	-9.44652
ண்டை	-9.44762
▁so	-9.4482
▁விரும்புகிற	-9.44827
மெ	-9.44839
▁சகோதர	-9.44889
ுக்கே	-9.45026
▁விழா	-9.45159
▁அத்தனை	-9.45233
▁வருகை	-9.45293
▁கவன	-9.45343
வில	-9.45371
▁மீதும்	-9.45382
லீ	-9.45425
வார்	-9.45441
▁பெரும்பாலான	-9.45468
புரி	-9.45567
▁சொல்கிற	-9.45671
to	-9.45684
சோ	-9.45694
கின்றன	-9.4579
▁இருக்கின்ற	-9.45879
▁இறுதியில்	-9.4588
▁தீமை	-9.45923
▁அதுவே	-9.4593
▁குறிப்பாக	-9.45956
ிருக்கிறார்கள்	-9.45977
▁சாதாரண	-9.45982
▁நடைமுறை	-9.45996
▁கண்டுபிடிக்க	-9.46011
▁செய்யலாம்	-9.46012
▁சித்த	-9.46059
▁புள்ளி	-9.46117
சீ	-9.46147
▁வீர	-9.46202
▁இத்தனை	-9.46246
▁அவ்வாறு	-9.46274
▁அறிவியல்	-9.46384
ெடுக்க	-9.46415
▁துணி	-9.46425
▁பகல	-9.46428
bo	-9.46537
தாவது	-9.46555
mm	-9.46577
▁வலைத்தள	-9.46597
மையை	-9.46652
டுக்க	-9.46669
ாளர்கள்	-9.46685
▁சர	-9.46713
▁செவி	-9.46723
மார்	-9.46729
▁எனக்குத்	-9.46735
▁தொலை	-9.46772
▁எண்ணிக்கை	-9.46847
ஷ்ட	-9.46876
use	-9.46945
ுவதற்காக	-9.46966
j	-9.46979
முடி	-9.46993
பெரு	-9.4704
ினாலும்	-9.4712
man	-9.47218
▁காட்டு	-9.47223
▁Sh	-9.47291
▁நாளும்	-9.47357
▁அத	-9.47452
▁வாக்கு	-9.47472
▁அதிகரிக்க	-9.47532
▁ராஜ	-9.47551
பிர	-9.47581
▁தண்ணீர்	-9.4759
பிள்	-9.47599
▁நிறைவேற்ற	-9.47608
மாகவும்	-9.47666
வாத	-9.47735
▁ரெ	-9.47787
▁ஆண்கள்	-9.47848
▁கோர	-9.47908
▁உரிய	-9.47917
▁பால்	-9.47968
▁சகோதரர்	-9.48002
▁ஏமாற்ற	-9.48025
ிப்பு	-9.48049
▁நிர்வாக	-9.48055
▁tr	-9.48062
Q	-9.48104
▁மகள்	-9.4813
▁கர்த்தர்	-9.48236
யாளர்கள்	-9.48459
ூட்ட	-9.48475
ுமோ	-9.48486
▁இணைப்பு	-9.48532
ீர	-9.48584
▁நடப்ப	-9.48647
ியுள்ளது	-9.48672
▁நினைவில்	-9.48681
app	-9.48709
▁வாழும்	-9.48799
▁இந்தியாவில்	-9.48878
▁வந்தால்	-9.4894
ical	-9.48956
வனுக்கு	-9.48972
▁அட	-9.49096
▁காதலி	-9.49145
▁வரலாறு	-9.49224
யிலே	-9.49228
▁என்பத	-9.4933
The	-9.49436
AR	-9.49436
min	-9.49488
▁உலகின்	-9.49544
▁அடிப்படையில்	-9.49552
விட்டேன்	-9.49594
▁Con	-9.49633
▁செய்கின்ற	-9.49702
ங்களாக	-9.49716
▁தாங்கள்	-9.49722
▁தூதர	-9.49808
▁மகன	-9.49817
ப்பிர	-9.49848
▁மற்றொரு	-9.49877
▁அடையாள	-9.49895
▁வலது	-9.50038
ஓ	-9.50047
வதி	-9.50077
ப்படாத	-9.50098
க்கூட	-9.50134
▁இரவில்	-9.50251
▁ஊடக	-9.5027
▁தூர	-9.50314
▁வாழ்வில்	-9.50387
கட்ட	-9.50423
▁அளவுக்கு	-9.50488
05	-9.50563
▁வாகன	-9.50609
ang	-9.50634
▁சிறப்பாக	-9.50634
iz	-9.5064
▁ஊர	-9.50679
யிருப்ப	-9.50749
▁பிள	-9.50874
▁பிரச்னை	-9.50896
▁ஸ்ப	-9.50934
▁தொழில்நுட்ப	-9.50976
▁கஷ்ட	-9.50986
▁அழகாக	-9.50999
▁kgm	-9.51017
70	-9.51024
▁உடனடியாக	-9.51048
▁at	-9.51123
he	-9.51172
▁தனக்கு	-9.51176
ood	-9.51211
act	-9.51211
ுடனும்	-9.51246
மீது	-9.51257
▁போராட	-9.51303
ளு	-9.5132
▁அப்போ	-9.51378
em	-9.51404
ங்களே	-9.51413
▁To	-9.51479
▁கற்பனை	-9.51479
விட்டால்	-9.51484
ction	-9.51489
▁லா	-9.51516
▁ஒருபோதும்	-9.51572
ங்களைப்	-9.51574
▁நூல	-9.5167
▁எனும்	-9.51706
▁ஆள	-9.51758
▁வரவில்லை	-9.51884
Name	-9.51909
▁23	-9.51913
ary	-9.51936
▁can	-9.52094
த்தே	-9.52111
▁நாட்டு	-9.52137
▁அரசியல	-9.52147
ப்பட்டன	-9.52149
▁பாதுகாப்ப	-9.52175
டியா	-9.52196
பொ	-9.52314
▁வீண	-9.52323
▁கணினி	-9.52388
40	-9.52389
ph	-9.5244
▁விவாத	-9.52462
▁செய்கிறது	-9.52484
▁விளக்கம்	-9.52546
▁So	-9.52548
▁மிகுந்த	-9.52582
திலும்	-9.52725
▁அன்றியும்	-9.52748
கின்ற	-9.52783
up	-9.52799
▁அழக	-9.52827
AT	-9.52845
▁படிப்ப	-9.52867
▁நடித்த	-9.52869
▁விரி	-9.52917
முள்ள	-9.53046
▁அழிக்க	-9.53068
முடைய	-9.53189
ஒ	-9.53233
▁எழுந்த	-9.53256
▁மறக்க	-9.53263
▁செல்லும்	-9.53285
▁விருது	-9.53315
▁இழந்து	-9.53345
▁யு	-9.53361
res	-9.53391
▁குறி	-9.53408
▁வெளியேற	-9.5342
▁தெரிவ	-9.53422
▁i	-9.53509
▁this	-9.53586
▁பார்த்தேன்	-9.53612
▁எதிரி	-9.53615
▁வாழ்க்கையை	-9.5364
ீராக	-9.53644
▁காத்திருக்க	-9.53652
▁இரா	-9.5367
வேண்டிய	-9.53955
சூ	-9.53985
▁ஆலோசனை	-9.54016
▁ரொம்ப	-9.54026
▁இள	-9.54041
▁சற்று	-9.54082
ப்பின்	-9.54117
ca	-9.54154
▁வேகமாக	-9.54249
▁அணுக	-9.54311
▁உணர்வ	-9.54347
க்கிர	-9.54487
▁கிள	-9.54491
▁மீட்ட	-9.5451
▁பொறுமை	-9.54515
▁டே	-9.54532
▁அனுபவம்	-9.54536
port	-9.54563
▁செய்யுங்கள்	-9.54576
▁முகவரி	-9.5459
▁அமைக்க	-9.54652
▁சுவை	-9.54671
▁விரை	-9.54681
▁சை	-9.54696
▁அரு	-9.54715
▁சொல்வது	-9.5472
▁ஹோ	-9.54752
▁he	-9.54772
▁படத்தை	-9.54776
▁v	-9.54889
▁தவிர்க்க	-9.54894
▁டை	-9.5498
ru	-9.55006
mo	-9.55017
▁தினம்	-9.55142
22	-9.55242
▁அவளுக்கு	-9.55271
▁வழிகாட்ட	-9.55312
றும்	-9.55335
▁சுமார்	-9.55338
எம்	-9.55375
▁sa	-9.55381
ian	-9.55408
ட்ஸ்	-9.55435
▁கலந்து	-9.55437
தூ	-9.55474
▁எங்கள	-9.55476
▁என்னால்	-9.55486
▁படைக்க	-9.55498
▁அவர்களில்	-9.55504
▁வீட்டுக்கு	-9.55514
றேன்	-9.55527
▁திறந்த	-9.556
39	-9.55653
sh	-9.55654
?'	-9.55688
▁அதிகாரி	-9.55692
▁கட்டு	-9.55697
ac	-9.55766
▁எஸ்	-9.55841
▁செய்தார்	-9.55891
▁40	-9.55897
▁சுய	-9.5591
▁அழைப்பு	-9.55947
▁தீய	-9.55958
▁சாட்சி	-9.55985
நிச்சயமாக	-9.56007
யாகவே	-9.56089
▁எல்	-9.56192
ரிடம்	-9.56262
ust	-9.56276
▁நிலைமை	-9.56284
வாழ்	-9.5634
▁படத்தின்	-9.56385
21	-9.56422
▁தப்பி	-9.56452
▁28	-9.56557
ுவீர்கள்	-9.56562
▁விளையாட்ட	-9.56616
lu	-9.56711
▁தென்	-9.56735
மாக்க	-9.56752
▁வேலையை	-9.56759
▁பொருந்த	-9.56778
▁கீ	-9.56783
04	-9.56797
▁கவனிக்க	-9.56812
▁கிடைத்தது	-9.56834
▁ஆதரவ	-9.56875
▁உறுதியாக	-9.56911
▁அமைந்த	-9.56974
னிடம்	-9.56983
▁co	-9.56994
வர்களும்	-9.57013
▁காலையில்	-9.57017
ue	-9.57076
▁கொண்டாட	-9.57079
end	-9.5708
ff	-9.57082
▁அட்டை	-9.57097
▁விடை	-9.57151
J	-9.57178
▁Me	-9.57249
அந்த	-9.57274
▁இயங்க	-9.57278
க்குரிய	-9.57296
டுகள்	-9.5731
ப்பதற்கு	-9.5733
▁You	-9.57346
▁சர்	-9.57438
ip	-9.57487
▁கொள்	-9.57524
▁r	-9.57533
ish	-9.57608
24	-9.57671
▁நேரங்களில்	-9.57679
▁கணக்கு	-9.5776
▁ஆவ	-9.57773
▁தீர்வு	-9.57782
▁நிமிட	-9.57797
▁வள	-9.57918
முடியும்	-9.57955
▁வளர	-9.57979
▁நட	-9.5802
ong	-9.58028
ie	-9.58062
▁will	-9.58071
07	-9.58091
ரெ	-9.58154
▁அமைப்ப	-9.58155
▁இடையே	-9.58171
வாறு	-9.58249
▁Th	-9.58263
▁அரி	-9.58274
out	-9.58296
▁வாய்	-9.58302
▁சீர	-9.58339
க்காரர்	-9.58351
ப்பாடு	-9.5838
▁நம	-9.58413
▁ஆசி	-9.585
▁உண்மையிலேயே	-9.585
▁ஏற்க	-9.58524
மர	-9.58616
வகை	-9.58635
▁குறு	-9.5864
▁பச்சை	-9.58663
▁my	-9.58665
ni	-9.58695
கிறேன்	-9.58799
▁தாம்	-9.58802
மண	-9.5882
▁no	-9.58864
▁தன்னுடைய	-9.58911
ஆனால்	-9.58993
▁கடந்து	-9.59031
▁குற்றம்	-9.59033
ட்ச	-9.59047
▁என்பதே	-9.59066
ice	-9.59125
ற்கு	-9.59132
▁Lo	-9.59234
▁வேண்டியது	-9.59261
oo	-9.59355
▁தரவு	-9.59363
வார	-9.59422
▁கேள்விகள்	-9.59464
▁விரும்பவில்லை	-9.59478
மின்	-9.59711
▁படத்தில்	-9.59712
ப்பாக	-9.59757
▁ஆன்லைன்	-9.59773
யிலேயே	-9.59778
▁வேதனையை	-9.59815
▁விட்டார்	-9.59867
▁கேட்டார்	-9.59914
▁நாட்	-9.59928
இறை	-9.59974
▁தொழிற்சாலை	-9.59985
▁அருகில்	-9.60002
வனாகவும்	-9.60017
▁அழகிய	-9.60021
எனக்கு	-9.60029
ஈ	-9.6003
▁திருப்ப	-9.6006
▁ஆள்	-9.60149
▁Be	-9.60202
▁Di	-9.6025
ராஜ்	-9.60264
யிட்ட	-9.60268
▁சாலை	-9.60293
த்தர	-9.60305
▁மணிக்கு	-9.60347
*	-9.60459
ுவிட்டது	-9.60491
▁அமர்ந்த	-9.60542
ஃப	-9.60616
+	-9.60621
▁அதற்காக	-9.60887
▁டீ	-9.60913
▁பாதை	-9.60927
▁மூடி	-9.6094
வச	-9.60982
▁கடினமான	-9.60989
▁ஒதுக்க	-9.61025
▁இங்க	-9.61027
▁அனைவர	-9.61078
▁கருணை	-9.61116
செய்ய	-9.61127
▁இன்ன	-9.61155
▁நேரடியாக	-9.61206
றது	-9.61218
▁27	-9.61232
ோட்ட	-9.61238
கிட்ட	-9.61288
▁பகுதியில்	-9.61325
▁நிறைந்த	-9.61363
di	-9.61382
▁தலைப்பு	-9.61404
▁விளை	-9.61407
▁k	-9.61514
களோடு	-9.61573
37	-9.61652
▁சத்த	-9.61757
▁from	-9.61791
ரூ	-9.61806
பெற்ற	-9.61824
த்தோடு	-9.61885
iv	-9.61889
▁எதிர்கால	-9.61946
▁எங்கு	-9.6206
▁நடிகர்	-9.62065
▁பகிர	-9.62067
▁மெய்	-9.62086
ானது	-9.62228
▁தன	-9.62233
hy	-9.62265
▁தூண்ட	-9.62265
எல்	-9.62329
ிருக்கின்ற	-9.62397
▁அல்லாஹ்வுக்கு	-9.62398
▁ஏனென்றால்	-9.62408
▁இடங்களில்	-9.62445
▁இவ்வுலக	-9.62449
▁ஆடை	-9.62459
ுக்கான	-9.62505
ாயா	-9.62541
▁செயற்	-9.62542
கூ	-9.62559
“	-9.62583
▁வர்த்தக	-9.62598
▁கடவுளை	-9.62673
▁கூறுவீராக	-9.62703
sion	-9.62857
ob	-9.6289
AL	-9.62931
தெ	-9.62935
விட்டது	-9.63016
▁கடல்	-9.63045
தலை	-9.63087
ST	-9.631
▁ஆவண	-9.63104
▁சாதனை	-9.63108
▁பரவ	-9.63122
▁பாதிக்க	-9.63156
▁துன்ப	-9.63206
▁அரசாங்க	-9.63213
▁வெளியிட்ட	-9.63216
13	-9.63262
யாள	-9.63313
▁விலகி	-9.63348
lic	-9.63429
▁இலக்கிய	-9.63454
02	-9.6352
க்கால	-9.6355
▁ரீ	-9.63618
▁துவங்க	-9.6363
ராஜ	-9.6364
▁பயன	-9.6366
▁மார்	-9.6368
▁இஸ்லா	-9.63694
▁அறியாத	-9.63712
▁இருக்காது	-9.63822
▁நேர்மை	-9.63869
▁sp	-9.63987
ுவதில்	-9.64009
▁சபை	-9.64024
23	-9.6405
▁உச்ச	-9.64062
0,000	-9.64068
▁ஒருவரை	-9.64086
ாண்டு	-9.64129
▁சுதந்திர	-9.64142
tic	-9.64168
▁முற்	-9.64208
யிருக்க	-9.64232
அவர்கள்	-9.64265
ுபவர்கள்	-9.64301
▁உங்களைப்	-9.64304
▁ஏற்றுக்	-9.64323
▁நாட்டில்	-9.64333
▁உருவாக	-9.64372
▁எளிய	-9.64383
னையும்	-9.64384
▁மில்லியன்	-9.64386
▁சந்திர	-9.64419
▁வயதில்	-9.6452
ud	-9.64528
▁மகா	-9.6459
▁காட்டி	-9.6468
மாகவே	-9.64715
60	-9.64737
மேல்	-9.64802
▁கொல்ல	-9.64806
fe	-9.64834
▁கண்கள்	-9.64862
06	-9.64891
▁டாக்டர்	-9.64961
▁இருப்பார்கள்	-9.64981
ர்களின்	-9.65
▁அறு	-9.65027
▁செல்கிற	-9.65084
▁ஜோ	-9.65093
▁முகம்	-9.65096
09	-9.65187
யாக்க	-9.65205
▁கடுமையான	-9.65291
▁நெருப்ப	-9.65301
வதை	-9.65306
03	-9.65309
▁அறி	-9.65351
▁கூறு	-9.6537
▁விரும்பும்	-9.65409
▁கர	-9.65423
RE	-9.65433
▁கைது	-9.65447
▁நே	-9.6545
▁விண்ணப்ப	-9.65457
▁உள்ளடக்க	-9.65486
ிருக்கலாம்	-9.65512
▁இலக்க	-9.65531
▁யாரை	-9.65551
த்திற்காக	-9.65611
னியா	-9.65691
▁அடிமை	-9.65799
▁விற்க	-9.65802
▁விரும்பினால்	-9.65813
க்கார	-9.65817
▁பயனர்	-9.65842
▁இருப்பதை	-9.65877
OR	-9.65938
▁India	-9.65994
▁ch	-9.66001
▁இவற்றை	-9.66049
▁செலவ	-9.66062
▁பத்து	-9.66083
செய்	-9.66198
டைந்த	-9.66275
▁நல்	-9.66312
ak	-9.66356
▁குறிப்பு	-9.66358
▁உனது	-9.66386
ex	-9.66406
முடியாது	-9.66409
▁செய்யவில்லை	-9.66469
▁29	-9.66494
▁விழ	-9.66586
if	-9.66807
▁Y	-9.6683
▁as	-9.66852
▁பொறுப்ப	-9.66865
▁சம்பந்த	-9.66871
▁புரிந்த	-9.66915
▁போதுமான	-9.66996
▁மீள	-9.67005
ree	-9.67008
ூர	-9.67172
▁பகிர்ந்து	-9.67183
ரங்க	-9.67202
▁அவசியம்	-9.67222
▁உறவினர்	-9.67239
▁இஸ்லாமிய	-9.67269
த்துல	-9.67313
▁உறுப்பினர்	-9.67324
▁மாறாக	-9.67335
ரையும்	-9.67349
▁பாவங்களை	-9.67358
▁தூக்க	-9.6736
▁அற்புதமான	-9.67387
–	-9.67442
▁சகோதரி	-9.67465
▁பிளா	-9.67489
ென்ற	-9.67658
ிருந்தேன்	-9.67674
▁வருத்த	-9.67736
▁வைத்திருக்க	-9.67757
ணர்	-9.67771
▁(1	-9.6779
வனும்	-9.67835
▁தங்களை	-9.67841
▁விட்டால்	-9.67844
▁அரை	-9.67864
▁இவர்களுக்கு	-9.67928
ace	-9.68017
▁have	-9.68023
▁நகர்	-9.6807
EN	-9.6808
▁வல்ல	-9.6812
▁விளக்கு	-9.68132
▁வருமான	-9.68141
▁ஜெய	-9.6815
▁ஆதி	-9.68157
▁அதிகமான	-9.68159
▁மிகச்	-9.68221
▁ஹோஸ்டிங்	-9.68234
▁புகழ்	-9.68239
ாவில்	-9.6827
▁திசை	-9.68276
▁சமுதாய	-9.68307
▁மின்	-9.68408
▁He	-9.68488
;&	-9.68531
▁கற்ப	-9.68544
ாவிட்டால்	-9.68587
▁உபயோக	-9.68588
▁அவர்களும்	-9.68631
▁ஸ்க	-9.68703
▁தொகுதி	-9.68711
▁தேர்ந்தெடுத்த	-9.68752
▁இறங்க	-9.6878
ெழு	-9.68834
▁all	-9.68856
▁மது	-9.68873
வனே	-9.68932
▁இல	-9.69001
▁மேம்படுத்த	-9.69056
களிலிருந்து	-9.69121
▁மோசமான	-9.69224
விதமான	-9.6923
▁ஆட்ட	-9.69231
▁எழுந்து	-9.69232
▁அருமை	-9.69297
ن	-9.69297
▁இருப்பதாக	-9.69308
▁எவர	-9.6937
▁வகையான	-9.69385
▁ஆத	-9.69414
னுடைய	-9.69422
▁அவங்க	-9.6945
▁ஆண்டுகளாக	-9.69452
▁மதிப்ப	-9.69523
▁வருகின்றனர்	-9.69556
ஹீ	-9.69614
ا	-9.69637
யன்றி	-9.69745
▁ஸ்ரீ	-9.69747
▁ஜீ	-9.69825
▁நாடிய	-9.69877
▁முனை	-9.69879
▁கட்டண	-9.69897
▁Do	-9.69933
▁நிகழ்வு	-9.69964
26	-9.7
▁சம்பவ	-9.70019
▁ஏற்ப	-9.70046
ீங்களா	-9.70068
▁அடையாளம்	-9.70076
08	-9.70137
▁அவசர	-9.70138
ிப்பது	-9.70152
▁மண்ண	-9.70186
▁குள	-9.70233
av	-9.70419
▁சூரியன்	-9.70426
▁குற்றவாளி	-9.70482
▁குழந்தைகளை	-9.70571
▁ப்ர	-9.70574
▁பலர்	-9.70807
▁வாசிக்க	-9.7092
▁இழக்க	-9.70924
ங்களா	-9.70973
ide	-9.70981
ோருக்கு	-9.71003
▁யாரோ	-9.71012
▁அருமையான	-9.71087
ப்பகுதி	-9.71159
▁அல்லவா	-9.71272
ப்பர்	-9.71276
▁அன்னை	-9.71279
திரு	-9.71351
▁மின்னஞ்சல்	-9.71368
▁ஏதேனும்	-9.71393
மையாக	-9.71434
▁சமாதான	-9.71481
mp	-9.71498
▁நெஞ்ச	-9.71503
ஷன்	-9.71556
▁நஷ்ட	-9.71662
▁கடவுளின்	-9.71713
▁மூலமாக	-9.71806
ven	-9.71844
▁அமர	-9.71908
mi	-9.71938
▁குரல்	-9.71943
lay	-9.72035
பொருள்	-9.72081
▁திருப்பி	-9.72279
▁ஆராய்ச்சி	-9.72287
வாச	-9.72361
▁கொஞ்ச	-9.72462
▁ஜன	-9.72479
▁Next	-9.72515
தற்க	-9.72527
ிருக்கிறோம்	-9.72535
▁For	-9.72556
▁ஆயுத	-9.72593
மிக்க	-9.72645
நோ	-9.72672
▁வெள்ளை	-9.72696
த்துறை	-9.72722
28	-9.72724
▁திறந்து	-9.72747
▁ஏற	-9.72751
தல்ல	-9.72782
▁ஆவி	-9.72793
விடு	-9.72793
48	-9.72796
▁நூ	-9.72833
மேலும்	-9.72898
▁எவர்கள்	-9.72906
▁புத்தகம்	-9.7299
▁சத்தியம்	-9.72995
▁இருந்தேன்	-9.73074
ous	-9.7311
▁அந்	-9.73181
ப்பான	-9.73207
US	-9.73477
▁மின்ன	-9.7348
ணா	-9.73481
▁ஓர	-9.7354
▁வடிவமைப்பு	-9.73568
வாதம்	-9.7362
▁பொருத்த	-9.73647
மல்ல	-9.73707
▁கல்லூரி	-9.7374
உன்	-9.73773
▁உரையாட	-9.73785
▁வழிமுறை	-9.73787
ளித்த	-9.73835
▁இருந்திருக்க	-9.73846
ஹு	-9.73975
ரிக்க	-9.73978
▁அநியாய	-9.74066
io	-9.74074
▁New	-9.74125
▁நாட்களுக்கு	-9.74225
வதற்கு	-9.7424
▁விழுந்த	-9.74273
▁பார்த்தால்	-9.74283
கீ	-9.7431
▁செய்யவும்	-9.74504
▁இறுதியாக	-9.74531
▁Un	-9.74539
cial	-9.74554
▁திருப்தி	-9.74596
▁பூர்த்தி	-9.74605
▁எவரும்	-9.74606
நாங்கள்	-9.74645
ear	-9.74649
▁திறன்	-9.74671
▁2013	-9.74719
▁நாட்ட	-9.74915
▁என்னைப்	-9.74987
sp	-9.75047
▁அத்தாட்சி	-9.75058
▁வாச	-9.75087
▁வளர்ந்த	-9.75207
புற	-9.75278
▁இதயம்	-9.75279
▁உள	-9.75348
▁ஆரோக்கிய	-9.75383
▁மட்டுமல்ல	-9.75409
த்திற்கும்	-9.75491
ிவிடும்	-9.75518
▁வீட்ட	-9.75536
▁நடை	-9.75546
யினர்	-9.75556
▁அதிகாலை	-9.75582
▁போவ	-9.75583
▁ஏற்பாடு	-9.75592
▁அடங்க	-9.75605
ுள்	-9.75639
▁ராஜா	-9.75687
சாமி	-9.75763
▁அத்தகைய	-9.75767
▁பொருள	-9.75838
▁தயவு	-9.7587
▁முன்னால்	-9.75997
வர்களே	-9.76037
▁வருடங்கள்	-9.76041
▁முன்பே	-9.76046
▁நாடக	-9.76094
சொல்	-9.76155
▁பயன்	-9.76162
27	-9.76227
▁விதை	-9.7625
ுள்ளோம்	-9.76254
▁வியாபார	-9.76331
ாட	-9.76331
▁அடிக்கடி	-9.76407
▁நேரத்தை	-9.76413
▁மருத்துவமனை	-9.76472
கிறார்கள்	-9.7648
▁இருந்தனர்	-9.76484
▁இஸ்ரவேல	-9.76537
▁புகைப்பட	-9.76589
லிருந்து	-9.76631
▁விகித	-9.76644
pl	-9.7669
▁சுக	-9.76731
லெ	-9.76735
சில	-9.76986
▁2015	-9.76991
ர்களுக்கு	-9.77009
நாம்	-9.7702
▁சொல்ற	-9.77105
▁பேரு	-9.77115
▁உதாரண	-9.77131
▁கூறுகிறார்	-9.77144
▁தகவல்களை	-9.77177
▁சத்தியமாக	-9.77262
▁கண்களை	-9.7731
யிலான	-9.77314
▁சுர	-9.77327
▁தமிழர்	-9.77351
ினாள்	-9.77447
ய்யா	-9.77625
▁நடைபெற்ற	-9.77673
▁போகும்	-9.77722
day	-9.77795
▁Ex	-9.77859
▁மாணவ	-9.77894
son	-9.77905
ld	-9.77927
▁மூளை	-9.77985
▁எல்லாவற்றையும்	-9.77986
▁பயம்	-9.77991
▁பொருட்	-9.78011
ப்போகிற	-9.78075
▁ஆக்கி	-9.78094
IT	-9.78131
ுள்ளேன்	-9.78143
தானா	-9.78222
▁பாவம்	-9.78245
90	-9.78252
▁•	-9.78269
other	-9.78306
▁ஈர	-9.78336
▁சூழ்நிலை	-9.78348
▁போகிறது	-9.78368
▁கவனம்	-9.7838
வாசி	-9.78381
▁இருப்பினும்	-9.7839
49	-9.78565
▁மரியாதை	-9.78592
▁பாதுகாப்பான	-9.78745
▁உங்களுக்குத்	-9.78749
த்திலேயே	-9.78831
▁வாழ்வு	-9.7889
▁ஞானம்	-9.78963
▁பதிவுகள்	-9.78986
▁புலி	-9.79096
▁மீன்	-9.79135
▁தேர்ந்தெடுக்க	-9.7915
▁மறுக்க	-9.79264
▁வலிமை	-9.79339
▁ஈடுபட்ட	-9.7937
▁தேவன்	-9.79434
are	-9.79492
ft	-9.79503
இல்லை	-9.79538
▁கூடுதல்	-9.79582
▁உற்பத்தியாளர்	-9.79616
ath	-9.79707
▁நடிக்க	-9.79743
47	-9.79786
▁ஜூன்	-9.79799
ாகி	-9.79832
களுடைய	-9.79836
▁அல்லாஹ்விடம்	-9.79908
ther	-9.79953
29	-9.79965
▁இருக்கிறான்	-9.80003
செய்த	-9.80007
ேஷன்	-9.80065
▁மருத்துவர்	-9.80067
▁விளைவு	-9.80081
▁கம்ப	-9.80134
ிருந்தாலும்	-9.80157
த்தன்மை	-9.80172
▁தங்களுக்கு	-9.80176
▁ஒழுங்க	-9.80266
▁இராணுவ	-9.80275
ture	-9.80284
ரான	-9.8034
▁நெருங்க	-9.80355
▁தெரிந்தது	-9.80416
டெ	-9.80443
▁ஆங்கிலத்தில்	-9.80546
▁Previous	-9.80591
ங்கோ	-9.8067
▁நியம	-9.80703
▁பயன்பாடு	-9.80823
▁நிகழ	-9.80861
கூற	-9.80864
ருள	-9.80907
ண்டர்	-9.80911
▁எண்ணி	-9.80919
கின்றனர்	-9.80995
ark	-9.811
▁நடக்கிறது	-9.81103
▁உள்ளனர்	-9.81132
▁ஹெ	-9.81135
▁அதற்கான	-9.81206
▁ஆகியவற்ற	-9.81259
▁Z	-9.81276
▁ஆண்டுகளில்	-9.8128
ிறீர்கள்	-9.81285
ிருப்பது	-9.81368
▁si	-9.8139
▁குழந்தைகளுக்கு	-9.81409
IC	-9.81409
▁உப	-9.81426
▁ஜே	-9.81477
▁எதிர்பார்த்த	-9.81546
ர்ந்து	-9.81613
ப்பட்டுள்ள	-9.81657
▁அம்ப	-9.81657
▁வயத	-9.81731
▁வாய்ப்ப	-9.81754
ரஹ்	-9.81788
▁2016	-9.81821
▁சுருக்க	-9.81841
த்தேன்	-9.81866
▁இவர்களை	-9.81892
▁எழுத்தாளர்	-9.8191
வால்	-9.81915
▁அனைவரையும்	-9.81946
ுவதால்	-9.81949
பார	-9.81949
மிட	-9.81973
▁வேதம்	-9.81981
பட்டு	-9.81995
56	-9.82008
▁முதன்	-9.82087
ுகின்றார்	-9.821
au	-9.82156
▁தெரிவித்தார்	-9.82171
▁ஆன	-9.82188
▁எல்லாரும்	-9.82217
படியே	-9.82219
▁தாங்க	-9.82294
▁go	-9.82341
▁யோசனை	-9.82365
▁name	-9.82409
▁விரும்பிய	-9.82426
அப்படி	-9.82433
▁ஒருமுறை	-9.82489
▁வாழ்த்து	-9.82491
▁அதிகரித்த	-9.82728
▁எப்போதுமே	-9.82736
▁அதிர்ச்சி	-9.82758
▁உணவை	-9.82801
43	-9.82865
▁ரயில்	-9.82873
▁நீங்களே	-9.82974
▁ஒழி	-9.83013
▁மீற	-9.83058
தமிழ	-9.83059
▁ஒப்பந்த	-9.83078
▁வீரர்	-9.83143
ித்துக்	-9.83156
தோடு	-9.83158
▁சிறந்தது	-9.83184
▁மற்றவர்கள்	-9.8319
-20	-9.83214
▁ஷா	-9.83219
▁அனுபவிக்க	-9.83319
▁படு	-9.83326
▁புனித	-9.83345
▁நிராகரித்த	-9.83378
ோன்	-9.83431
▁அதிகாரிகள்	-9.83482
▁எதிர்ப்பு	-9.83485
பால்	-9.83508
▁எப்ப	-9.83545
▁Ro	-9.83555
▁உங்களால்	-9.83677
▁பதிப்பு	-9.83704
▁வருகிறார்	-9.83731
▁எக்ஸ்	-9.83736
sk	-9.8374
▁கணவர்	-9.83779
▁முதன்மை	-9.8379
▁ரே	-9.838
▁ஓத	-9.83896
▁Po	-9.84015
▁மூன்றாவது	-9.84028
▁இப்பொழுது	-9.84073
▁நிரப்ப	-9.84098
▁போற	-9.84178
▁தவறாக	-9.84232
வர்களில்	-9.84349
▁மேலான	-9.84361
▁பத்தி	-9.84367
▁அடைவ	-9.84391
▁அமைச்சர்	-9.84491
▁சொல்கிறார்	-9.84552
▁ஆயினும்	-9.84587
▁மார்க்க	-9.84609
▁தடவை	-9.84611
▁பிரதி	-9.84639
▁பழக்க	-9.84667
▁வட்ட	-9.84697
ில்லாமல்	-9.84788
மென	-9.84803
ஸ்டர்	-9.8481
மின்றி	-9.8484
▁இவரது	-9.84863
க்கிறேன்	-9.84868
▁இன்ப	-9.8488
▁சாதன	-9.84898
▁நிலையான	-9.84932
ase	-9.84976
நல்ல	-9.84989
▁அசை	-9.85016
ster	-9.8502
▁குறைவாக	-9.85065
▁ho	-9.85069
▁ஆளு	-9.85121
▁என்பதையும்	-9.85124
க்கெட்	-9.85162
▁பரப்ப	-9.85298
மலை	-9.85317
▁வீரர்கள்	-9.85454
▁நண்பர	-9.85462
▁ஏழை	-9.85477
▁லெ	-9.85484
line	-9.85507
▁Le	-9.85523
த்தில	-9.85569
ப்பட்டால்	-9.85573
ப்படை	-9.85629
ப்பட்டார்	-9.85649
▁‘‘	-9.85702
▁தீர்ப்பு	-9.85854
▁கூறப்படுகிறது	-9.85897
▁பூமியை	-9.85916
▁உதவுகிறது	-9.85936
ியிருக்க	-9.8601
▁—	-9.86044
▁தங்களது	-9.86058
▁என்பதில்	-9.86084
▁பதிவை	-9.86098
▁மத்தியில்	-9.8613
▁செய்வத	-9.86133
▁ஏதும்	-9.86175
▁கவலைப்பட	-9.86199
▁2012	-9.86203
விட்டன	-9.86211
▁இரண்டாம்	-9.86264
யுங்கள்	-9.86271
ஃபி	-9.86336
tra	-9.8641
▁செயல்படுத்த	-9.86472
ப்பான்	-9.86476
▁முறையாக	-9.86514
▁அறிவிப்பு	-9.86533
▁ஏற்பட்டது	-9.86535
ame	-9.86539
▁மொ	-9.86549
▁வேட	-9.86668
▁குழ	-9.86671
ின்றான்	-9.86708
▁லட்ச	-9.86761
▁நீதிமன்ற	-9.8677
பெண்	-9.86811
▁சட்டம்	-9.86813
▁காபி	-9.86813
ீட்டு	-9.86839
▁நம்புகிறேன்	-9.86882
▁சொன்னேன்	-9.86898
▁கருத்த	-9.86986
ுவதற்கான	-9.87002
▁கொழு	-9.87056
-1	-9.87074
▁கிளிக்	-9.87076
▁ஜூலை	-9.87101
நாட்ட	-9.87117
ave	-9.87213
▁@	-9.87251
▁கைய	-9.87263
வருடைய	-9.87265
ின்றார்	-9.87272
▁எல்லோர	-9.87284
▁உங்களில்	-9.873
▁அதன	-9.87377
▁ஒப்பு	-9.87386
55	-9.87426
உண்மை	-9.87442
▁பிரார்த்தனை	-9.87488
ure	-9.87492
▁நன்கறி	-9.87518
ory	-9.87526
▁மகத்தான	-9.87565
form	-9.87566
▁அற்புத	-9.87578
=	-9.87617
▁அவசிய	-9.87647
▁விஷ	-9.87652
▁உண்ண	-9.87681
▁ஹே	-9.87704
த்தோ	-9.87714
▁அமெரிக்காவில்	-9.87906
▁போன்று	-9.87966
▁அவனிடம்	-9.88038
மாட்டார்கள்	-9.88038
▁உம்முடைய	-9.88066
▁யாருக்கு	-9.88141
▁திரி	-9.88174
▁கூறினான்	-9.882
▁இடுகை	-9.88241
▁நூறு	-9.88278
▁இலக்கு	-9.8844
▁பின்னால்	-9.88443
ுவத	-9.88471
ரவு	-9.88474
oc	-9.88531
▁செய்யப்பட	-9.88536
▁ஒருநாள்	-9.88572
▁Wi	-9.88591
▁நெருக்க	-9.88598
cu	-9.8861
▁வித்தியாச	-9.88621
▁ஆணைய	-9.88654
▁நாய்	-9.88676
ப்போம்	-9.88712
▁வருகின்றன	-9.88772
ُ	-9.88793
▁விரு	-9.8884
▁பறவை	-9.8884
▁தெரு	-9.88901
▁மீறி	-9.88982
▁அனுப்பிய	-9.88992
▁தாமத	-9.89061
▁குழந்தையை	-9.89065
▁பெறும்	-9.89069
▁60	-9.89109
42	-9.89156
▁Li	-9.89241
▁முழுமையான	-9.89293
▁வருகிற	-9.89319
▁வருவது	-9.89367
ock	-9.89373
▁இந்நிலையில்	-9.89406
ப்படுகிற	-9.89408
ில்லாத	-9.89441
யல்ல	-9.89455
va	-9.89479
ஆர்	-9.89541
▁வாழ்க	-9.89583
▁சாப்பிட்ட	-9.89617
44	-9.8963
▁நடிகை	-9.89677
▁அவரே	-9.89693
▁அன்றி	-9.89751
▁நாங்க	-9.89765
ப்பட்டுள்ளன	-9.89767
▁இனிய	-9.89785
▁தங்கி	-9.89799
▁தொழில	-9.89829
▁தனியார்	-9.89846
▁(2	-9.89864
▁வாருங்கள்	-9.89919
▁அறிமுக	-9.89923
ah	-9.89945
▁புத்த	-9.89958
?''	-9.90067
▁விட்டும்	-9.90103
▁கேட்டால்	-9.9016
த்திலே	-9.90344
ick	-9.90397
▁நிலையை	-9.90397
சியா	-9.90448
▁பரிச	-9.90459
▁உண்மையாக	-9.90487
▁நிமிடங்கள்	-9.90529
65	-9.90536
▁தங்களின்	-9.90578
களுக்க	-9.90664
35	-9.90855
▁அவரும்	-9.90867
▁தொகுப்பு	-9.90891
▁மோடி	-9.90904
▁பார்ப்போம்	-9.90997
வார்கள்	-9.90998
▁பருவ	-9.91009
வர்களிடம்	-9.91049
32	-9.9106
▁கூட்டம்	-9.91184
31	-9.91188
ிருக்கின்றன	-9.91236
▁தோல்வி	-9.91263
▁கிட்ட	-9.91268
▁தலைமுறை	-9.91317
▁2014	-9.91325
▁ஆணை	-9.9134
▁நெருப்பு	-9.91363
pdf	-9.91407
▁புத்தி	-9.91412
▁தூக்கி	-9.91455
▁உங்களுக்காக	-9.91461
▁கர்	-9.91469
▁வெப்ப	-9.91478
tu	-9.91497
▁வேண்டி	-9.91509
▁மொபைல்	-9.91514
ய்ய	-9.91519
▁இணைக்க	-9.91521
▁அமைதியாக	-9.9165
▁சர்வதேச	-9.91655
▁சரியா	-9.91656
லாமே	-9.91666
.//	-9.9177
▁நிலவ	-9.91781
தற்	-9.91811
▁ஆண்டில்	-9.91812
▁ஈடு	-9.91818
▁வரம்பு	-9.91821
▁நடைபெற	-9.91857
▁நடத்தி	-9.9187
les	-9.91903
விட்டோம்	-9.91995
▁சுற்று	-9.92087
▁கரை	-9.92091
46	-9.92101
▁பொருளாதார	-9.9213
75	-9.92145
77	-9.92145
ுணர்வ	-9.922
▁வரிசை	-9.92212
ராய்	-9.92281
▁வெளியாக	-9.92291
▁ரஹ்மான்	-9.92293
▁இந்	-9.92335
▁இறைவா	-9.92351
▁சொத்து	-9.92381
ளவில்	-9.92411
▁ப்ள	-9.92464
▁ஹீரோ	-9.92563
▁கோரிக்கை	-9.92579
▁வெட்ட	-9.92589
▁அழிவ	-9.92589
▁வருடங்களுக்கு	-9.92633
rd	-9.9273
▁உயர்த்த	-9.92812
▁இறக்கி	-9.92828
▁வாழ்த்துக்கள்	-9.92898
▁சொற்	-9.92917
▁இதற்காக	-9.92975
ச்சே	-9.93018
▁தொடங்கி	-9.9302
▁பேசும்	-9.93038
▁வருகிறேன்	-9.93078
▁பெரும	-9.93112
▁இளம்	-9.93118
ேஷ்	-9.93121
னால	-9.93146
▁நிறுத்தி	-9.93149
▁நீதிபதி	-9.93238
▁இளைஞர்	-9.93249
▁un	-9.93322
▁dis	-9.93324
▁பாதிக்கப்பட்ட	-9.93335
▁வீட்டை	-9.93349
▁தொட	-9.93375
▁கூறியுள்ளார்	-9.93384
▁பதிலாக	-9.93488
▁கவனமாக	-9.93502
▁உண்டாக்க	-9.93563
▁நிறுவனங்கள்	-9.93587
▁ஈடுபட	-9.9362
▁அம்ம	-9.93689
வனா	-9.93812
▁இழப்பு	-9.93879
ெடுத்த	-9.93923
▁முடிகிறது	-9.93968
41	-9.94074
தொ	-9.94098
▁சிரம	-9.94183
UR	-9.94205
ஞ்	-9.94253
▁பந்த	-9.94283
▁நேசிக்கிற	-9.94308
0%	-9.94365
▁வளை	-9.9441
▁பின்னூட்ட	-9.94443
▁அவரவர்	-9.94495
▁சமயம்	-9.94547
▁நவீன	-9.9462
ப்படுவது	-9.94629
ிடமே	-9.94637
da	-9.94664
இதை	-9.94708
தனால்	-9.9475
▁Tamil	-9.94755
mb	-9.94789
▁கடல	-9.94795
rit	-9.94819
▁வழியை	-9.94881
▁அறிமுகம்	-9.94965
▁நாட்டின்	-9.94966
▁En	-9.95012
king	-9.95014
▁பட்டியல்	-9.95062
▁பற்றியும்	-9.95078
மைப்பு	-9.951
34	-9.95105
86	-9.95125
no	-9.95147
▁WEB	-9.95174
33	-9.95197
▁அண்ணா	-9.9522
▁மீன	-9.95228
ome	-9.95282
str	-9.95414
ron	-9.95446
ated	-9.95461
▁மனிதனை	-9.95467
▁அற	-9.95494
வனின்	-9.95573
pt	-9.95587
▁ஓய்வு	-9.95588
▁வணக்க	-9.95597
தேச	-9.95607
▁வகுப்பு	-9.95618
▁more	-9.95681
▁விடுங்கள்	-9.95715
▁அடக்க	-9.95729
வண	-9.95759
டீ	-9.95792
▁தீர	-9.958
▁மீதான	-9.95851
▁en	-9.95858
▁இருதய	-9.95863
ins	-9.95864
கரமான	-9.9587
bi	-9.9594
72	-9.9603
சாலி	-9.9606
பாவ	-9.96155
▁பயந்து	-9.9618
▁புகைப்படங்கள்	-9.9622
▁வசன	-9.9624
▁தொழுகை	-9.96254
▁சென்றார்	-9.96254
▁கருத்துக்களை	-9.963
od	-9.96336
▁காணலாம்	-9.96362
▁We	-9.96368
ug	-9.96369
▁தலைவர்கள்	-9.96468
▁மகனை	-9.96469
▁ஆட	-9.96475
▁பிரபல	-9.9648
முதல்	-9.96536
▁பதில	-9.9655
▁வாசகர்	-9.96556
▁அமையும்	-9.96609
▁சீன	-9.96619
▁வீட்டிற்கு	-9.96621
▁ஆயிரம்	-9.9666
▁மலக்கு	-9.96701
▁சுலப	-9.96717
▁நிராகரிக்க	-9.96802
▁குறைக்க	-9.96828
படுத்தி	-9.96855
▁நாடுகள்	-9.96857
த்திட்ட	-9.96873
▁இருந்தார்கள்	-9.96982
▁அவர்களே	-9.97057
▁போனது	-9.97094
▁என்னுடன்	-9.97102
▁இவன்	-9.97145
▁செய்பவர்	-9.97173
▁Google	-9.97191
▁அவர்களைப்	-9.97304
▁உறவ	-9.97361
▁31	-9.97414
ik	-9.97474
▁up	-9.97476
95	-9.97558
▁Post	-9.9759
நே	-9.97628
ண்ணி	-9.97637
▁2011	-9.97648
ful	-9.9766
அவன்	-9.9767
▁வந்தேன்	-9.97673
▁சத்தம்	-9.97696
pri	-9.97748
▁கண்ணாடி	-9.97812
ound	-9.97842
▁இருக்கிறதா	-9.97877
யினை	-9.97887
▁Ad	-9.97947
▁அவருடன்	-9.97951
வேளை	-9.97962
▁Al	-9.97975
▁குமார	-9.97984
▁அறிவுரை	-9.98066
▁தூய	-9.98076
▁இருந்தா	-9.9808
▁வைத்துக்	-9.98084
▁Sp	-9.98138
ாலேயே	-9.98147
▁நடிப்ப	-9.98178
ES	-9.98178
▁one	-9.98198
▁மன்னிப்புக்	-9.98206
ms	-9.98234
▁கற்றுக்	-9.98321
▁தீர்க்க	-9.98336
uth	-9.9834
▁Vi	-9.98373
கொண்டு	-9.98381
36	-9.98411
ake	-9.9842
51	-9.98433
▁கொள்ளும்	-9.98523
சமூகத்தார	-9.9854
▁இணைந்து	-9.98575
▁வீச	-9.98594
▁வசனங்களை	-9.9863
67	-9.98644
▁காத்திருந்த	-9.98673
▁காம	-9.98689
▁நிறைவேற	-9.98716
நெறி	-9.98721
IS	-9.98756
▁man	-9.98769
▁புகழ	-9.9877
ாரு	-9.98793
பால	-9.98804
▁யானை	-9.98812
▁ta	-9.98839
▁மோத	-9.98883
▁கிருபை	-9.98959
▁நாவல்	-9.99089
▁Mi	-9.99123
▁ஜனவரி	-9.99125
▁%	-9.99149
▁தெளிவு	-9.99189
ஸை	-9.99196
▁வைத்திருந்த	-9.99218
▁am	-9.99218
SS	-9.99231
▁பங்க	-9.99243
ேனா	-9.99297
பற்றி	-9.9932
▁உழைப்ப	-9.99355
▁குர்ஆன	-9.99374
ஆஆஆஆஆஆஆஆஆஆஆஆஆஆ	-9.99419
▁இளைஞர்கள்	-9.9942
▁கண்டிப்பாக	-9.99456
அலை	-9.99471
யிற்ற	-9.99503
▁சிரித்த	-9.99517
ign	-9.99606
யிருக்கும்	-9.99651
▁முன்பாக	-9.99673
நகர	-9.99688
▁உபதேச	-9.99697
▁Man	-9.99725
ore	-9.99818
▁முடிந்து	-9.99899
▁கேட்கிற	-9.999
▁மென்பொருள்	-9.99944
▁ஆர	-10
▁நிரந்தர	-10.0007
▁விஷயத்தில்	-10.0011
▁வேண்டுமென்ற	-10.0013
▁முதலீடு	-10.0015
▁வெடி	-10.0018
▁அப்புறம்	-10.0018
▁இந்தியாவின்	-10.0019
ஜெ	-10.0022
▁அன்ன	-10.0022
▁விசய	-10.0023
ric	-10.0025
ுக்குள்	-10.0025
ின்றோம்	-10.003
aw	-10.0031
work	-10.0032
▁ஏற்று	-10.0033
▁அகற்ற	-10.0045
▁பார்க்கும்	-10.0047
▁அந்நாளில்	-10.0054
▁cl	-10.0054
வேறு	-10.0054
▁ஆட்	-10.0057
▁தோழர்	-10.006
▁எட்ட	-10.006
▁அடித்த	-10.0061
▁கையை	-10.0062
யாளர	-10.0063
AS	-10.007
▁செயல்பாடு	-10.0071
▁di	-10.0084
ens	-10.0086
▁தூய்மை	-10.0092
ங்களுக்காக	-10.01
▁மலர்	-10.0108
களான	-10.0108
▁Ar	-10.0109
▁நியூ	-10.0112
மென்	-10.0118
▁அநேக	-10.012
▁செய்கிறார்கள்	-10.012
▁பண்ணி	-10.0123
mon	-10.0126
▁கல்ல	-10.013
▁தொடர்பான	-10.0132
▁பாத	-10.0136
▁நாளைக்கு	-10.0138
▁குறிக்க	-10.0139
▁தம்பி	-10.0141
▁குறியீடு	-10.0142
▁ஆமாம்	-10.0142
▁அஞ்சி	-10.0145
ின்றது	-10.0146
▁முயன்ற	-10.0147
▁கருத்தை	-10.0148
▁மட	-10.0149
▁டாலர்	-10.0152
▁கருத்துக்கள்	-10.0153
▁வைர	-10.0156
▁பறி	-10.0159
ிருந்தனர்	-10.0159
▁வருந்த	-10.0162
சார்	-10.0165
ten	-10.0166
▁இருப்பதால்	-10.0168
▁பொழுது	-10.0168
▁சதவீத	-10.017
▁இளைய	-10.017
▁யாருக்கும்	-10.0172
▁நட்சத்திர	-10.0176
▁அழித்து	-10.0179
▁ஒத்து	-10.0185
னீ	-10.0185
ach	-10.019
வியல்	-10.0196
▁us	-10.0202
ெடுப்ப	-10.0206
▁ஏழு	-10.0206
▁நாமே	-10.0209
▁வென்ற	-10.021
ber	-10.0216
▁பொறுப்பு	-10.0218
▁முருக	-10.0219
▁மற்றவர்	-10.0221
▁முடிக்க	-10.0228
▁கேளுங்கள்	-10.0229
▁அவர்களுடன்	-10.0232
▁மகனே	-10.0233
அவ்	-10.0235
▁விமர்சனம்	-10.024
▁விழுந்து	-10.0242
ொன்று	-10.0244
▁பாதிப்பு	-10.0246
▁நாமும்	-10.0246
▁ஸலாம்	-10.0251
▁உட	-10.0251
▁முன்னேற்ற	-10.0253
▁கொண்டது	-10.0255
os	-10.0258
▁அவற்றின்	-10.0258
தாய்	-10.0265
லியா	-10.0266
▁நட்பு	-10.0268
▁ஆய்வ	-10.0268
▁திட்டங்கள்	-10.0278
▁தயார்	-10.0282
▁எல்லோருக்கும்	-10.0284
▁வழங்குகிறது	-10.0291
br	-10.0297
▁மற	-10.0299
▁பாட்டி	-10.0299
வர்களா	-10.0307
▁பாதையில்	-10.0307
▁சராசரி	-10.0309
▁சண்டை	-10.031
▁மட்ட	-10.0317
பிறகு	-10.0318
▁பரிசுத்த	-10.0319
▁கிரா	-10.0321
▁பத்திரிகை	-10.0321
Comment	-10.0323
▁கற்று	-10.0323
கிறான்	-10.0327
▁மனதை	-10.0329
▁வலைப்பதிவு	-10.0331
▁சொல்லவில்லை	-10.0332
▁என்பதுதான்	-10.0335
▁கடின	-10.034
▁பொருட்களை	-10.0341
▁பசி	-10.0344
▁வரவேற்க	-10.0347
lan	-10.0349
▁நிழல	-10.0352
▁பேசினார்	-10.0366
ந்தான்	-10.037
▁Cl	-10.038
▁காலமாக	-10.0383
▁கிளை	-10.0383
▁மகிழ்வ	-10.0386
▁முடித்த	-10.0389
dia	-10.0389
▁எவன்	-10.0391
ally	-10.04
▁இருக்கிறோம்	-10.0404
▁கடினமாக	-10.0404
▁இயலாது	-10.0406
நாட்டு	-10.0407
ran	-10.0409
▁ஆகி	-10.0409
88	-10.0409
▁விசுவாச	-10.0415
▁நாடுகளில்	-10.042
▁கொண்டிருக்க	-10.0421
bu	-10.0429
▁பிள்ளைகள்	-10.0433
▁நுழைந்த	-10.0436
tro	-10.0448
AM	-10.045
▁விபர	-10.0455
we	-10.046
ியுள்ளார்	-10.046
ங்களால்	-10.0463
▁எடுப்ப	-10.0468
▁விஞ்ஞான	-10.047
▁தெரியாமல்	-10.0473
▁தீர்மான	-10.048
▁எங்கும்	-10.048
த்தானே	-10.0481
ுடனே	-10.0494
▁குல	-10.0496
▁கலைஞர்	-10.0498
▁சொல்லும்	-10.05
▁முடியாமல்	-10.0503
▁பார்த்தது	-10.0503
▁அவளது	-10.0504
▁கூறியது	-10.0506
▁அரசின்	-10.0506
log	-10.0508
திலிருந்து	-10.0509
இல்	-10.0515
▁பெயரில்	-10.0515
▁ஜூ	-10.0515
▁தயாரிக்க	-10.0519
red	-10.0525
▁ஈழ	-10.0528
▁அறிவிப்ப	-10.0532
▁நேரடி	-10.0543
way	-10.0545
▁தமிழில்	-10.0546
▁திருட	-10.0548
▁தைரிய	-10.0553
யினால்	-10.0555
▁ஓட்டு	-10.0555
▁காந்தி	-10.0556
▁கூறுவது	-10.0559
view	-10.0563
wi	-10.0564
▁who	-10.0565
▁மார்ச்	-10.0565
▁செய்வதை	-10.0572
low	-10.0573
▁உணர்ந்து	-10.0574
▁காகித	-10.0576
எங்கள்	-10.0576
▁அர்த்தம்	-10.0579
▁சேவைகள்	-10.0581
என்னை	-10.0584
▁குரல	-10.0588
▁போயி	-10.0593
▁ரத்த	-10.0597
▁கொள்ளலாம்	-10.0598
▁உறுதிப்படுத்த	-10.0603
pa	-10.0604
▁வாழ்ந்து	-10.0604
இஸ்ரயேல	-10.0606
94	-10.0606
▁Sa	-10.0606
▁கட்டுப்படுத்த	-10.0607
▁சிந்திக்க	-10.0618
யென	-10.0619
நாயக	-10.0626
ின்றேன்	-10.0635
மாற்ற	-10.0639
▁நிஜ	-10.0643
போன	-10.0644
▁பூமியின்	-10.0647
▁மரு	-10.0652
ண்மை	-10.0653
ஜீ	-10.0654
▁அம்ச	-10.0654
▁day	-10.0656
ுகின்றேன்	-10.0656
▁பிடிக்கும்	-10.0657
▁கர்த்தர	-10.0663
64	-10.0665
▁கூட்டு	-10.0666
இரு	-10.0667
▁தொழ	-10.0669
ப்படுகின்றது	-10.0676
▁Su	-10.0683
▁வாத	-10.0683
▁கழித்து	-10.0688
உங்களுக்கு	-10.0689
▁தளத்தில்	-10.0689
▁உடலில்	-10.069
▁அவ்	-10.0691
▁பிரபலமான	-10.0692
பாட	-10.07
க்கூடும்	-10.0703
▁முகத்தை	-10.0708
மாட்டேன்	-10.0716
▁கவி	-10.0735
▁அந்நிய	-10.0736
த்தினை	-10.0743
▁How	-10.0745
▁தொடக்க	-10.0753
▁வழங்கப்படும்	-10.0756
ருள்	-10.0757
▁உயிரை	-10.0763
@	-10.0769
LE	-10.0775
▁பெண்களுக்கு	-10.0781
▁தோழி	-10.0781
Z	-10.0791
ோரை	-10.0791
▁பயனுள்ள	-10.0794
▁ஷைத்தான்	-10.0798
மாதிரி	-10.0799
▁விரும்பி	-10.0799
▁டோ	-10.0803
வதில்லை	-10.0805
▁போலி	-10.0808
▁ஜான்	-10.0813
38	-10.082
▁நிகழ்ந்த	-10.082
ஆக	-10.0821
▁தடுப்ப	-10.0821
▁வரும்போது	-10.0827
▁ஆகிவிட்ட	-10.0828
▁இறைவனிடம்	-10.0831
▁பொறி	-10.0841
▁சிறப்பான	-10.0844
▁பிரிய	-10.0844
▁பணியாற்ற	-10.0845
▁தள்ள	-10.0851
▁முயல	-10.0853
▁விலக	-10.0856
▁comp	-10.086
▁மூத்த	-10.0862
rt	-10.0862
▁அதனால	-10.0863
▁பவர்	-10.0863
▁பாச	-10.0874
▁பொருட்டு	-10.0878
200	-10.0884
ash	-10.0889
க்கொண்டிருந்த	-10.0893
▁உங்களுடன்	-10.0894
▁திகதி	-10.0896
▁மன்ற	-10.0903
வங்க	-10.0908
▁என்றாள்	-10.0909
▁போற்ற	-10.091
▁35	-10.0917
▁பள்ளியில்	-10.0918
▁எப்போ	-10.092
▁இடத்தை	-10.0923
▁விட்டேன்	-10.0928
be	-10.0929
▁உட்பட	-10.093
▁ஆண	-10.0934
con	-10.0935
▁சொன்னால்	-10.0946
▁புரியவில்லை	-10.0949
த்தீ	-10.095
▁முதல்வர்	-10.0957
57	-10.0957
யீ	-10.0959
▁Pa	-10.0965
ral	-10.0966
vel	-10.097
▁கிரக	-10.0976
▁கணவன்	-10.0978
▁மனைவியை	-10.098
▁வழங்கும்	-10.0981
ual	-10.0984
▁பாருங்க	-10.0985
▁வாசித்த	-10.0985
▁யாத	-10.0986
ொலி	-10.0987
87	-10.0987
▁பேட்டி	-10.0988
▁இயந்திர	-10.0996
யுமே	-10.1001
▁கேட்டது	-10.1008
▁j	-10.1008
▁post	-10.1013
▁ஒற்றை	-10.1015
▁90	-10.1016
▁அழுத	-10.102
ுவீராக	-10.1022
ism	-10.1022
▁சுகாதார	-10.1026
த்திற்கான	-10.1027
▁நிறுவனத்தின்	-10.103
▁தானா	-10.1035
▁இருப்பார்	-10.1037
னுடன்	-10.1039
-2	-10.104
▁அக்கா	-10.1047
விலும்	-10.1049
வூ	-10.1051
▁ஞாபக	-10.1052
▁மின்சார	-10.1055
▁மந்திர	-10.1056
dd	-10.1058
த்தகைய	-10.1059
▁வரவேற்ப	-10.1061
▁நிமிடம்	-10.1063
59	-10.1063
▁பயன்பாட்ட	-10.1067
▁கண்டுபிடித்த	-10.1069
▁லூ	-10.107
net	-10.1073
ெடுத்து	-10.1076
▁குறிச்சொல்	-10.1083
▁வருஷ	-10.1088
▁கூடும்	-10.1093
▁தாழ்	-10.1097
ari	-10.1098
▁உறை	-10.1101
▁அதனால்தான்	-10.1112
▁ஆனந்த	-10.1112
▁இழப்ப	-10.1113
▁தளம்	-10.1114
mber	-10.1117
▁வார்த்தைகள்	-10.1118
▁வரிகள்	-10.112
ீர்களோ	-10.1122
ப்போல	-10.1126
▁விடுமுறை	-10.1137
▁க்கான	-10.1138
▁தள்ளி	-10.1142
▁அணை	-10.1145
▁பக்கத்தில்	-10.1149
ec	-10.1152
▁விசா	-10.1153
நண்பன	-10.1153
வரிடம்	-10.1159
லோக	-10.1168
▁கற்க	-10.1169
45	-10.1175
▁விஜய்	-10.1176
▁தக்க	-10.1177
▁யாரையும்	-10.1183
▁ஏற்படுத்தி	-10.1188
ருடன்	-10.1189
▁இதையடுத்து	-10.1196
▁கூறுவார்கள்	-10.1198
▁செய்யப்பட்டது	-10.1201
▁வாக்குறுதி	-10.1205
▁இவரை	-10.1206
அதை	-10.1209
▁பொதுவான	-10.1211
▁பதிவில்	-10.1213
▁தல	-10.1214
▁அறிகுறி	-10.1215
▁திட	-10.1225
▁முத்த	-10.1226
▁வராது	-10.123
▁about	-10.1231
▁பையன்	-10.1233
▁பார்க்கலாம்	-10.1236
வெளி	-10.1243
▁இந்ந	-10.1248
ாமை	-10.125
▁காஃபிர்கள	-10.1254
ப்பதில்லை	-10.1257
▁உதாரணமாக	-10.1264
▁முடிவுகள்	-10.1264
▁பெரிதாக	-10.1265
▁இருங்கள்	-10.127
66	-10.127
▁நாணய	-10.1277
▁சேர்	-10.1281
▁was	-10.1284
▁பெண்ணை	-10.1288
▁இம்ம	-10.1289
▁அல்லாத	-10.1289
▁மூன்ற	-10.1292
▁விவசாயி	-10.1292
கின்றது	-10.13
▁like	-10.1304
▁time	-10.1305
▁வெவ்வேறு	-10.1313
த்தினால்	-10.1313
▁Pre	-10.1313
▁ஆகையால்	-10.1322
▁அத்துடன்	-10.1326
69	-10.1327
▁pre	-10.1328
▁அணு	-10.1335
▁வேலைக்கு	-10.1337
▁கதவு	-10.134
98	-10.1347
▁செய்தேன்	-10.1348
▁அடியார்	-10.1351
▁ஜாதி	-10.1357
▁ரஹ்மத்	-10.1364
▁கதைகள்	-10.1367
cess	-10.1372
air	-10.1375
rr	-10.1376
▁but	-10.1378
▁குறிப்புகள்	-10.1378
ரூப	-10.1381
▁காற்று	-10.1382
▁தொழிலாளர்	-10.1383
▁கொடு	-10.1384
َا	-10.1384
▁விநியோக	-10.1385
▁மாற்றங்கள்	-10.1386
ஏன்	-10.1397
.........	-10.1402
▁விலக்க	-10.1403
arch	-10.1407
▁Ho	-10.1411
▁கற்ற	-10.1416
ாரே	-10.1416
▁பாவி	-10.1416
▁வாழ்வை	-10.1417
▁கைவிட	-10.1424
▁இன்றி	-10.1425
ப்பாட்ட	-10.1428
▁மேற்பட்ட	-10.1429
▁பல்கலைக்கழக	-10.1439
cr	-10.1465
▁வெளியில்	-10.1466
காலத்தில்	-10.1468
▁போக்க	-10.1472
▁தோட்ட	-10.1478
▁முழ	-10.1478
▁காலி	-10.148
▁சொன்னான்	-10.1481
▁கொடுமை	-10.1484
ள்ளே	-10.1484
▁அளிப்ப	-10.1485
▁و	-10.1489
▁உலகத்தில்	-10.1489
▁முடித்து	-10.1493
▁ஆற்ற	-10.1493
த்திரி	-10.1498
52	-10.1498
▁தர்ம	-10.1503
hen	-10.1505
▁வாசக	-10.1506
▁32	-10.1511
▁தற்போதைய	-10.1511
▁விரைவாக	-10.1513
▁கனி	-10.1513
▁எப்படியோ	-10.1517
▁நண்பன்	-10.1517
ங்களுடன்	-10.1524
▁படங்களை	-10.1525
ீட்ட	-10.1525
▁எதுவுமே	-10.1526
▁வெறுப்ப	-10.1527
▁முன்னாள்	-10.1533
உங்கள	-10.1538
ject	-10.1539
▁நம்பிக்கையை	-10.1542
TH	-10.1543
▁ஜோடி	-10.1546
ல்லாஹ்	-10.1547
▁நவம்பர்	-10.1548
▁எதிரான	-10.155
▁ஆனது	-10.1553
▁கடி	-10.156
68	-10.156
▁நுழைய	-10.1566
▁துயர	-10.1572
நிராகரிப்ப	-10.1575
அல்லாஹ்வின்	-10.1575
▁தியான	-10.1576
ions	-10.158
▁ஐயா	-10.1581
▁சம்பவம்	-10.1582
▁வீடியோக்கள்	-10.1582
▁லீ	-10.1585
▁(19	-10.1586
▁கொள்வது	-10.1587
▁புதுப்பிக்க	-10.1589
▁கெடு	-10.1596
▁பாலி	-10.1598
▁கடித	-10.1601
▁எத்தனையோ	-10.1609
▁All	-10.1609
▁கதையை	-10.1615
பொழுது	-10.1619
▁இறைவனுக்கு	-10.1627
▁விஷயத்தை	-10.1631
▁கடிதம்	-10.1635
par	-10.1637
▁பின்வரும்	-10.1638
▁விமர்சன	-10.1642
ness	-10.1646
▁காவல	-10.1647
▁உற்சாக	-10.1655
ாராம்	-10.1657
:10	-10.1659
களிடமிருந்து	-10.1664
row	-10.1666
▁கொள்ளவும்	-10.1667
▁மூன்றாம்	-10.1667
▁நிரூபிக்க	-10.1669
!''	-10.167
▁பஞ்ச	-10.167
▁வழிகாட்டி	-10.1671
▁வழங்கிய	-10.168
▁இறங்கி	-10.168
▁ஊக்க	-10.1681
▁ஒப்பிட	-10.1681
old	-10.1703
▁மனநிலை	-10.1712
▁பெண்களை	-10.1716
!!!	-10.1725
▁இலை	-10.1726
▁வேறுபாடு	-10.1728
▁கிருஷ்ண	-10.1732
▁மனிதர்களை	-10.1732
▁கூறுகிறார்கள்	-10.1737
54	-10.1739
ப்பித்த	-10.174
▁சிரிப்ப	-10.1741
ட்ரோ	-10.1746
▁பிரே	-10.1746
▁கட்டாய	-10.1746
▁நினைத்தேன்	-10.1747
CH	-10.1751
குமார்	-10.1754
▁நகை	-10.1757
▁கண்டுபிடிப்ப	-10.1762
▁காயம்	-10.1765
▁கடவுளுக்கு	-10.1765
▁பிரார்த்தி	-10.1767
▁கிளம்ப	-10.1768
▁சொல்கிறேன்	-10.1771
▁பலவீன	-10.1775
▁உட்கார்ந்த	-10.1778
ப்பட்டனர்	-10.1779
▁ஆகிறது	-10.1781
▁சேமிக்க	-10.1781
▁Qu	-10.1784
▁பட்டியல	-10.1788
ki	-10.179
▁மண்	-10.18
குழந்தை	-10.18
▁நேசிக்க	-10.1803
▁வேடிக்கை	-10.1804
▁2020	-10.1805
96	-10.1812
▁தனிமை	-10.1813
▁வெளியேற்ற	-10.1819
▁கூப்பிட	-10.1825
▁வழிபட	-10.1827
ஸில்	-10.183
▁முழுக்க	-10.1831
▁வினா	-10.1834
97	-10.1834
▁பாதுகாப்பாக	-10.1836
▁God	-10.1837
ேனே	-10.1846
▁சமீபத்தில்	-10.1851
▁செய்வதற்கு	-10.1854
▁மகிழ்ச்சியாக	-10.1859
ுநர்	-10.1865
▁தியாக	-10.1876
▁Bo	-10.1878
▁முதலாளி	-10.1881
▁வேதனையும்	-10.1881
▁எவ்வித	-10.1884
▁விவசாய	-10.1886
ாதீர்	-10.1902
▁குதிரை	-10.1903
▁கொண்டிருப்ப	-10.1906
▁பொறுத்தவரை	-10.1906
▁What	-10.1907
▁அவரு	-10.1912
ET	-10.1913
▁மாட்டோம்	-10.1917
▁எதிர்பார்ப்ப	-10.1917
▁துப்பாக்கி	-10.1919
▁Day	-10.1927
▁ரசிகர்	-10.1927
▁இருக்கின்றது	-10.193
▁ஹிட்ஸ்	-10.1933
▁இயந்திரம்	-10.1933
▁need	-10.1933
▁தத்துவ	-10.1936
ுவதே	-10.1937
▁தீபாவளி	-10.1947
▁அபி	-10.1948
▁இஸ்ரேல்	-10.1949
▁சொல்லுங்கள்	-10.1949
▁தயாரிப்புகள்	-10.1954
▁நோயாளி	-10.1955
▁கட்டிட	-10.1956
▁அறிமுகப்படுத்த	-10.1957
▁வெளியீடு	-10.1957
▁Pri	-10.1958
▁!!	-10.1963
IL	-10.1966
▁எப்பொழுது	-10.1972
ations	-10.1974
ுகிறாள்	-10.1979
▁ஆடி	-10.1982
▁கையாள	-10.199
▁எளிதான	-10.1991
▁நிகழ்வ	-10.1994
▁விலங்கு	-10.1996
▁ஆகிவிட	-10.1997
▁இப்னு	-10.1999
ton	-10.2002
RO	-10.2003
▁தீர்ப்ப	-10.2006
ியிருக்கிறார்	-10.2006
▁தாண்டி	-10.2008
▁சலுகை	-10.2008
▁உணர்கிற	-10.2011
▁வசனம்	-10.2012
▁`	-10.2013
▁உம்ம	-10.2015
▁நேர்ந்த	-10.2015
▁மேலாக	-10.2017
▁ரகசிய	-10.2022
▁தெரிஞ்ச	-10.2027
▁2010	-10.2031
58	-10.2033
▁பணியாளர்	-10.2037
▁தாத்தா	-10.2041
▁கீழ	-10.2046
53	-10.2048
யடைந்த	-10.2058
▁மறைக்க	-10.2059
▁ராசி	-10.2066
ிருப்பார்கள்	-10.2069
▁My	-10.2069
▁நாவல	-10.207
▁ஆகஸ்ட்	-10.2072
ப்போன	-10.2072
அதற்கு	-10.2074
76	-10.2077
▁அவர்களால்	-10.2079
▁சாய்	-10.2084
▁மாட்டான்	-10.2088
▁கண்டறிய	-10.2089
▁திட்டமிட	-10.209
▁உண்ட	-10.2091
ial	-10.2094
ose	-10.2096
▁மடி	-10.2096
▁எழ	-10.2101
▁அமைத்த	-10.2102
▁கடுமையாக	-10.2107
▁2009	-10.2111
▁கட்டுப்பாட்ட	-10.2124
▁la	-10.2128
பிற	-10.2137
நிகழ்	-10.2141
▁இவர்களின்	-10.2145
▁po	-10.2146
▁கேள	-10.215
▁அமைய	-10.2153
▁விசாரித்த	-10.2155
▁தொடர்புடைய	-10.2156
▁மனு	-10.2156
az	-10.2157
▁sc	-10.216
▁இவருக்கு	-10.2161
OS	-10.2161
▁Ra	-10.2162
ீரா	-10.2163
காந்த	-10.2165
▁குறிப்பிடத்தக்க	-10.2167
▁பிரதமர்	-10.2168
▁பழக	-10.2169
▁கேட்டேன்	-10.2171
▁இடது	-10.2173
▁அவமான	-10.2177
ise	-10.2179
land	-10.218
▁எண்ணெய்	-10.2185
நாட்டில்	-10.2191
▁பகை	-10.2198
முடியாத	-10.2201
எல்லா	-10.2203
▁வந்தனர்	-10.2207
▁உணர்ச்சி	-10.2208
▁தமிழர்கள்	-10.2209
▁Fi	-10.2211
ov	-10.2211
▁what	-10.2216
▁அரசாங்கம்	-10.2222
89	-10.2227
oss	-10.2248
ிற்கான	-10.2248
மனித	-10.2257
▁ஆகியோர	-10.2258
▁பனி	-10.2258
▁ட்ர	-10.2266
வீர	-10.2268
▁போகிறேன்	-10.2275
▁கொடி	-10.2281
▁வாய்ந்த	-10.2291
▁வருடங்களாக	-10.2292
தொடர்	-10.2294
PS	-10.2294
▁எதற்கு	-10.2309
▁Of	-10.2309
▁அழைத்துச்	-10.231
இன்னும்	-10.2313
▁இன்னமும்	-10.2319
ப்பாளர்	-10.2325
▁கேள்விக்கு	-10.2329
▁தருண	-10.233
குறி	-10.2334
▁ரசிகர்கள்	-10.2342
lect	-10.2351
▁சூழ	-10.2358
▁வேண்டாமா	-10.2359
▁திட்டமிட்ட	-10.2365
▁கருப்பு	-10.2365
▁கவனித்த	-10.2365
ox	-10.2367
என்ற	-10.2371
நெ	-10.2375
▁பாத்திர	-10.2377
▁வெளிச்ச	-10.2381
▁கவிஞர்	-10.2384
ுகிறீர்களா	-10.2385
fer	-10.2387
▁சூப்பர்	-10.2387
su	-10.239
▁மனுஷ	-10.2398
78	-10.24
போதே	-10.2411
▁போனஸ்	-10.2412
▁வேதத்தை	-10.2418
85	-10.2423
▁செய்தியை	-10.2426
ஞான	-10.2431
▁ஆத்மா	-10.2431
pos	-10.2433
▁gr	-10.2435
▁வேல	-10.2438
றீங்க	-10.2441
▁செய்கிறேன்	-10.2444
▁பாடல்கள்	-10.2444
▁சுற்ற	-10.2447
▁மறுபடியும்	-10.2461
ப்படுவார்கள்	-10.2462
▁Jo	-10.2462
orn	-10.2463
ுவதன்	-10.2463
▁நியாயமான	-10.2464
▁நேரில்	-10.2466
▁Is	-10.2469
now	-10.2471
▁நெடு	-10.2472
ொன்ற	-10.2477
▁அடாப்டர்	-10.248
▁விபத்து	-10.2482
▁பேச்ச	-10.2486
▁துண்டு	-10.2489
cl	-10.2492
ுலக	-10.2492
▁Com	-10.2496
▁நாங்களும்	-10.2505
▁துறையில்	-10.2507
▁ஸலா	-10.2507
▁ஆபத்து	-10.2509
▁மற்றவர்களுக்கு	-10.2512
▁அவற்றில்	-10.2512
▁முன்னோர்	-10.2522
▁அட்டவணை	-10.2523
▁மதிய	-10.2525
CE	-10.2525
▁யோசித்த	-10.2528
▁வண்டி	-10.2529
www	-10.253
▁சிவா	-10.2536
▁ஆண்டவர்	-10.2546
மீன்	-10.2549
▁கிடந்த	-10.2552
ID	-10.2554
▁அரங்க	-10.2558
▁சூடான	-10.2559
▁புதிதாக	-10.256
▁அவற்ற	-10.256
▁செய்தனர்	-10.2561
ிறாள்	-10.2571
பட்ச	-10.2573
▁பார்வையாளர்	-10.2575
▁நற்	-10.2577
▁மன்னித்த	-10.258
▁ஆற்றல்	-10.258
▁வாழ்வின்	-10.2585
▁பாஸ்	-10.2585
▁குடும்பத்தினர	-10.2585
▁மாகாண	-10.2586
▁முகத்தில்	-10.2586
▁மாமா	-10.2587
▁முன்னே	-10.2587
▁ஞாபகம்	-10.2589
▁காரணங்கள்	-10.2589
▁நிகழ்வுகள்	-10.2592
ிருக்கிறீர்கள்	-10.2595
91	-10.2596
▁ஆரம்பிக்க	-10.2597
▁செய்வோம்	-10.2597
▁1000	-10.2602
dr	-10.2605
▁36	-10.2605
▁மகிழ்ந்த	-10.2605
▁அர்த்த	-10.2606
▁அதற்க	-10.2606
ிலிருந்தே	-10.2611
AD	-10.2615
▁வைக்கும்	-10.2616
▁அவளுடைய	-10.2621
▁மேடை	-10.2631
டிங்	-10.2635
▁மற்றவர்களை	-10.2643
▁வெள்ள	-10.2655
த்திரை	-10.2656
▁தடுத்து	-10.2659
▁மாதங்கள்	-10.2666
▁கல்யாண	-10.2672
▁இறப்ப	-10.2674
▁பண்பு	-10.2676
▁உதய	-10.2676
▁இணையதள	-10.2681
▁நம்மால்	-10.2682
▁நிறைவ	-10.2693
▁பூனை	-10.27
▁மித	-10.2703
▁கொடுத்தார்	-10.2703
▁திமுக	-10.2704
500	-10.2713
▁சிக்கல்	-10.2714
▁எழுதப்பட்ட	-10.2714
▁ஹை	-10.2717
பேசி	-10.272
ef	-10.272
தொகு	-10.272
▁டிவி	-10.2729
▁சொன்னா	-10.2733
▁காணவில்லை	-10.2734
▁பேசுவது	-10.2736
▁It	-10.2742
▁ஊழியர்கள்	-10.2744
▁அப்படித்தான்	-10.2755
▁காட்டிய	-10.2759
▁ஏராளமான	-10.2771
▁கூறுங்கள்	-10.2774
▁கிரி	-10.2777
▁தேடும்	-10.2783
▁சந்தித்து	-10.2788
▁அருகே	-10.2788
▁கூர்	-10.2794
▁ஆவார்	-10.2794
▁முஃமின்	-10.28
71	-10.2801
க்கொண்டே	-10.2819
▁குழாய்	-10.2821
▁சிங்கள	-10.2829
▁மெல்ல	-10.283
▁புகார்	-10.2834
▁தற்	-10.2834
▁சான்றிதழ்	-10.2839
▁மனிதனுக்கு	-10.2841
அல்லது	-10.2842
▁போவதில்லை	-10.2842
▁சாமி	-10.2845
▁அத்தியாய	-10.2848
▁பெருக்க	-10.2849
word	-10.2851
▁இரட்டை	-10.2851
▁THE	-10.2852
▁மெதுவாக	-10.2852
▁ரூபாய்	-10.2855
▁மரணத்தை	-10.2857
▁இருந்தான்	-10.2861
▁எங்களிடம்	-10.2861
▁ஏப்ரல்	-10.2861
▁Read	-10.2862
▁தொடர்பாக	-10.2864
▁உள்ளிட்ட	-10.2864
unt	-10.2866
▁அதிகபட்ச	-10.2869
▁வயதான	-10.2877
▁முஸ்லீம்	-10.2881
▁கோவில்	-10.2886
▁தட்டு	-10.2887
ING	-10.289
its	-10.2892
▁பிரதான	-10.2899
▁சந்திரன்	-10.29
nu	-10.2901
▁மகிமை	-10.2904
▁அருந்த	-10.2904
▁ரெண்டு	-10.2908
▁விவகார	-10.2908
▁தோல்	-10.2914
▁நாட்களாக	-10.2918
City	-10.2921
▁செய்தார்கள்	-10.2923
▁முதலாவது	-10.2925
▁படைத்தான்	-10.2925
▁ஐக்கிய	-10.2929
▁பக்தர்	-10.2931
▁வெளிவந்த	-10.2937
▁கன்ன	-10.294
fin	-10.2942
mer	-10.2946
▁அபிவிருத்தி	-10.2946
றாக	-10.295
▁இருந்தோம்	-10.2964
▁என்றேன்	-10.2966
▁இடைவெளி	-10.2972
▁பரிந்துரை	-10.2974
▁ஒற்றுமை	-10.2978
▁வாசனை	-10.298
▁கண்காணிப்ப	-10.2982
▁does	-10.2983
▁than	-10.2983
UN	-10.2984
▁உடலை	-10.2992
▁மேற்கொள்ள	-10.2997
ever	-10.2997
▁முட்டாள்	-10.3
▁என்பவர்	-10.3008
▁மூழ்க	-10.3019
▁45	-10.3019
▁நிகர	-10.302
▁சும்மா	-10.3027
▁அழிந்து	-10.3032
▁அவரால்	-10.3033
▁என்னோட	-10.3045
ுருவ	-10.305
▁ஆலய	-10.3051
▁காண்பிக்க	-10.3055
▁அருக	-10.307
▁குர்ஆன்	-10.3073
▁அச்சிட	-10.3073
▁நிச்சய	-10.3074
▁http	-10.3075
▁நொ	-10.3075
▁வெட்டி	-10.3081
▁டிசம்பர்	-10.3082
▁சத்ய	-10.3082
92	-10.3083
▁துவக்க	-10.3099
▁வருகிறார்கள்	-10.31
பூமி	-10.31
ப்பார்கள்	-10.3118
▁கிலோ	-10.3118
tain	-10.3122
▁இழுத்து	-10.3128
▁லாப	-10.3131
po	-10.3133
▁இடையில்	-10.3133
▁இல்லாவிட்டால்	-10.3135
▁தரமான	-10.3144
▁குழந்தைக்கு	-10.3151
▁ஸ்வ	-10.3155
காட்டி	-10.3175
▁விளைவுகள்	-10.3176
▁விட்டான்	-10.3181
▁know	-10.3187
▁ரஜினி	-10.3189
▁இடத்தைப்	-10.3193
▁உன்னுடைய	-10.3196
நம்பிக்கை	-10.3198
▁கூடுதலாக	-10.3199
▁விடுவார்கள்	-10.3206
▁யோக	-10.3206
▁மருந்த	-10.3206
▁என்பார்கள்	-10.3213
நன்றி	-10.3214
▁love	-10.3216
▁பலரும்	-10.3221
▁சத்தியமா	-10.3222
▁என்கிறார்கள்	-10.3226
▁அளவை	-10.3236
▁ரஷ்யா	-10.3241
▁இதற்கான	-10.3241
▁லைட்	-10.3244
▁அக்கறை	-10.3245
▁சான்று	-10.3253
▁அகல	-10.3254
▁கூறுகிறது	-10.3258
▁மனிதனின்	-10.3259
▁கிட்டத்தட்ட	-10.3267
▁அமைந்துள்ள	-10.3273
ுக்களை	-10.3277
▁கிடைக்கவில்லை	-10.328
▁ஏறி	-10.3281
:17	-10.3284
மென்று	-10.3286
▁இப்படித்தான்	-10.3287
▁புத்தகங்கள்	-10.3288
://	-10.3291
▁அலுவல	-10.3293
▁அறிஞர்	-10.3293
▁CO	-10.3303
▁அபூ	-10.3305
▁செவ்வ	-10.3305
▁inter	-10.3306
▁விரும்புகிறார்	-10.331
நாத	-10.3317
93	-10.3319
▁Bu	-10.3324
▁யோசிக்க	-10.3332
▁தந்தையின்	-10.3337
gen	-10.3344
▁அடித்து	-10.3344
▁பாணி	-10.3349
▁படுக்கை	-10.3351
▁தேவதை	-10.3355
▁நுழைவ	-10.3362
▁ஆடு	-10.3369
▁பல்ல	-10.337
▁புரியும்	-10.3372
▁குறைந்தது	-10.3381
விட்டீர்கள்	-10.3381
▁இரகசிய	-10.3386
▁கூட்டணி	-10.3388
▁யுத்த	-10.339
▁குழந்தையின்	-10.3397
▁குவி	-10.3397
▁செலவிட	-10.3398
▁எளிதானது	-10.3399
▁புகை	-10.3405
வுலக	-10.3408
▁100%	-10.341
▁தோன்றும்	-10.341
▁வசனங்கள	-10.3414
உலக	-10.3415
▁நாட்டை	-10.3417
▁மறுப்ப	-10.3422
▁கிடைப்ப	-10.3427
▁எழுத்துக்கள	-10.3434
▁பரிமாற்ற	-10.3434
▁முடியல	-10.3438
vers	-10.3439
▁வாங்கிய	-10.3442
▁சுட்டி	-10.3446
:13	-10.3448
▁இலவசமாக	-10.3454
▁IS	-10.346
ator	-10.346
▁செய்வார்கள்	-10.3463
▁Comp	-10.3464
▁2008	-10.3468
▁வேண்டுமானாலும்	-10.3468
▁பதிலளித்த	-10.3473
▁நம்மிடம்	-10.3473
▁விரோத	-10.3477
▁வெள்ளி	-10.3483
ative	-10.3492
▁Mar	-10.3495
‘	-10.3495
▁அப்துல்	-10.3495
▁கோண	-10.3503
▁வெளிப்படையாக	-10.3511
▁என்னவோ	-10.3514
▁உபகரண	-10.3516
▁செய்வேன்	-10.3519
▁அதிலிருந்து	-10.3521
▁நபர	-10.3521
▁year	-10.3523
▁காய்	-10.3523
ப்பாட	-10.3524
ுவாயாக	-10.3526
▁கவனித்து	-10.3532
▁டிரா	-10.3533
▁இருக்கின்றனர்	-10.3534
▁எதற்காக	-10.3535
▁33	-10.3539
▁உயிரிழந்த	-10.354
▁500	-10.3545
AP	-10.3546
▁கூறுகிறான்	-10.3548
வேண்டாம்	-10.355
▁article	-10.3554
▁கூறியதாவது	-10.3555
▁தங்களுடைய	-10.3556
▁மறைந்த	-10.3561
for	-10.3562
73	-10.3562
vo	-10.3563
▁One	-10.3564
▁வழக்கமான	-10.3575
▁பராமரிப்ப	-10.3575
▁World	-10.358
▁மனோ	-10.358
▁பின்னணி	-10.3589
▁வில்ல	-10.3591
eng	-10.3596
▁சிறித	-10.3596
▁has	-10.3597
▁கிடக்க	-10.3598
▁புறக்கணித்த	-10.3606
இப்போது	-10.3608
▁கிறிஸ்தவ	-10.3613
▁சோக	-10.3614
▁விழு	-10.3618
ding	-10.3624
▁கப்பல்	-10.3627
▁தயங்க	-10.3634
▁சூழல்	-10.3638
▁பிரகாச	-10.3642
ுபவன்	-10.3647
▁கும்ப	-10.3647
▁கொண்டிருக்கும்	-10.3648
த்தினர்	-10.3655
▁சமீபத்திய	-10.366
▁அக்டோபர்	-10.3661
▁தோன்றுகிறது	-10.3666
விட்டான்	-10.367
▁தெளி	-10.367
▁நிற்ப	-10.3698
▁முன்னேற	-10.3708
▁அதிலும்	-10.3711
▁ஜனநாயக	-10.3713
▁பாக்கிய	-10.3714
▁செயல்களை	-10.3715
ED	-10.3717
▁மீட்க	-10.3719
▁read	-10.3723
▁முடிவை	-10.3729
▁ஃபி	-10.3735
ration	-10.3737
▁முந்தி	-10.3738
▁பரிசோதனை	-10.3741
ுகையில்	-10.3741
▁வகுப்ப	-10.3741
▁தூங்கி	-10.3748
▁ஆன்மா	-10.3751
▁முன்னணி	-10.3757
▁world	-10.3763
ுள்ளான்	-10.3769
In	-10.3779
▁சந்ததி	-10.3779
▁இருப்பேன்	-10.3779
und	-10.3788
வற்றின்	-10.3789
▁நிபுணர்	-10.379
னாகவும்	-10.379
▁திட்டத்தை	-10.379
க்குழு	-10.3791
ிருப்பதை	-10.3792
▁ஒவ்வொருவரும்	-10.3793
▁பிரதேச	-10.3793
▁மீட்ப	-10.3796
▁பொறுத்த	-10.3799
▁கட்டுப்பாடு	-10.3818
யளிக்க	-10.3829
▁பொறுத்து	-10.3829
▁பாய்	-10.383
che	-10.3833
தொரு	-10.3835
▁வைத்திருப்ப	-10.3838
விட்டனர்	-10.3838
▁OF	-10.3842
▁அனுபவித்த	-10.3851
▁கூறினர்	-10.3854
▁உருவான	-10.3855
▁``	-10.3863
▁எதிர்த்து	-10.3863
▁மதிக்க	-10.3865
dy	-10.3865
பூர்	-10.3867
மாட்டீர்	-10.3873
▁துக்க	-10.3878
▁முறி	-10.3879
▁நேர்மையான	-10.3887
▁சரண	-10.3888
▁முக்கியமாக	-10.389
▁சிறப்ப	-10.3898
▁தேவைப்படும்	-10.3918
▁செய்கிறார்	-10.3924
lk	-10.3927
▁வினை	-10.3931
▁மதிப்பீடு	-10.3936
ுள்ளதாக	-10.3939
போய்	-10.3944
▁எளிமையான	-10.3946
▁மணிநேர	-10.3947
▁நிறைவு	-10.3947
74	-10.3955
ூரில்	-10.3956
ஸின்	-10.3956
▁செஞ்ச	-10.396
▁வாசிப்ப	-10.3961
ney	-10.3962
EL	-10.3964
களில	-10.3974
▁தமிழகத்தில்	-10.3975
▁இதுபோன்ற	-10.3978
▁கழுவ	-10.398
▁என்பதற்கு	-10.3986
▁இலங்கையில்	-10.3991
cy	-10.3994
▁வரைபடம்	-10.3997
▁வட்டி	-10.3997
79	-10.4003
▁தோன்றியது	-10.4004
▁அறிவை	-10.4004
▁இதுகுறித்து	-10.4006
▁பிசி	-10.4012
rain	-10.4012
emp	-10.4016
▁உறுதியான	-10.4021
▁வந்திருந்த	-10.4022
▁இழை	-10.4024
▁உருவாக்கிய	-10.4024
5%	-10.4031
▁நாளாக	-10.4037
7:1	-10.4037
ific	-10.4041
dge	-10.4044
▁பயன்பட	-10.4045
பாட்டை	-10.4045
▁அளவிற்கு	-10.4048
▁சென்னையில்	-10.4051
▁முரண்	-10.4053
▁கிடைக்கிறது	-10.4068
▁மதுரை	-10.4071
▁முன்னிலை	-10.4074
ாமலும்	-10.4075
▁எளிமை	-10.408
▁முகாம	-10.408
▁முடிவில்	-10.4094
61	-10.4095
▁Dr	-10.4096
▁கண்ணீர்	-10.4097
▁பயந்த	-10.4103
▁அழித்த	-10.4113
▁மர்ம	-10.4119
▁பதிப்ப	-10.4134
▁உண்டாகும்	-10.4134
▁தாவர	-10.4137
▁உணர்த்த	-10.4137
▁கடத்த	-10.4137
▁மாதங்களுக்கு	-10.414
63	-10.4141
▁காவல்	-10.4146
▁ரசித்த	-10.4148
▁ஆதரிக்க	-10.4149
▁பெற்றோர	-10.4151
▁படைக்கப்பட்ட	-10.4154
ஃபா	-10.4171
62	-10.4172
மூலம்	-10.4172
▁ஊழியர்	-10.4173
▁இனிமேல்	-10.4179
ுவோர்	-10.4181
இன்று	-10.4184
▁பாரதி	-10.4187
▁வலியுறுத்த	-10.4198
▁வாடகை	-10.421
றாங்க	-10.421
▁வெப்பநிலை	-10.4211
▁போக்குவரத்து	-10.4213
press	-10.4219
▁வெண்	-10.4225
▁காற்ற	-10.4226
விடுங்கள்	-10.4238
கொடுத்த	-10.424
அப்பா	-10.4242
▁மூச்சு	-10.4243
optional	-10.4243
மனிதர்	-10.4247
மட்டும	-10.4249
▁இணைந்த	-10.425
▁விஜய	-10.4253
▁கண்ணிய	-10.4254
82	-10.4257
▁ரஹ்மான	-10.426
வானாக	-10.4262
▁கொண்டுள்ளது	-10.4263
▁முதலிய	-10.4263
▁அகில	-10.4265
ுகின்றோம்	-10.4269
▁எதிர	-10.4276
▁தரிசன	-10.4277
▁பிரிக்க	-10.4289
▁ராணுவ	-10.4289
▁வேறெ	-10.4294
▁வரலாற்று	-10.4297
▁அப்படியானால்	-10.4297
▁கோப்பை	-10.4298
▁நினைச்ச	-10.43
▁கண்டேன்	-10.4302
▁செயல்முறை	-10.4306
▁அறிவேன்	-10.431
▁உறுப்பு	-10.431
க்காரன்	-10.4311
▁some	-10.4314
▁நிம்மதி	-10.4318
▁பயங்கர	-10.4323
▁இங்கிலாந்த	-10.4325
▁மேற்கு	-10.4329
▁34	-10.433
▁யூதர்	-10.4331
▁போலீச	-10.4336
mit	-10.4337
▁போவது	-10.4339
▁வலைப்பதிவ	-10.4348
▁இழிவு	-10.4353
▁செய்தாலும்	-10.4359
▁வலுவான	-10.4362
களாய்	-10.4366
▁கையேடு	-10.4369
▁நேச	-10.4374
stan	-10.4377
less	-10.4379
▁இருந்திருந்தால்	-10.4382
▁சமயத்தில்	-10.4383
▁இறைவனே	-10.4384
▁கூறுகையில்	-10.4387
▁ஷைத்தான	-10.4389
சிறந்த	-10.4395
▁கண்களில்	-10.4397
▁சிறுகதை	-10.4401
▁பிப்ரவரி	-10.4408
▁மறுத்து	-10.4409
83	-10.441
▁நேசிப்ப	-10.4413
▁அதன்பின்	-10.4414
ware	-10.4417
▁சப்ளையர்கள்	-10.4421
▁நகைச்சுவை	-10.4434
அமைச்சர	-10.4435
▁துல்லிய	-10.4437
CT	-10.4438
▁புரட்சி	-10.4439
▁செப்டம்பர்	-10.4442
▁ஏற்றுக்கொள்ள	-10.4442
▁தகவலை	-10.4442
▁சேர்த்த	-10.4444
▁தேவனுடைய	-10.4447
▁எந்தவொரு	-10.4447
▁மிகைத்த	-10.4449
த்தினர	-10.4459
▁ஏனைய	-10.4459
▁கர்ப்ப	-10.4465
▁விரட்ட	-10.4468
ங்களுக்கான	-10.4468
▁Inter	-10.4502
▁பொதுமக்கள	-10.4518
▁மறைந்து	-10.4522
▁மறுத்த	-10.4526
▁விசை	-10.4526
▁கடும்	-10.4534
▁கலவை	-10.4538
▁இதெல்லாம்	-10.454
▁திராவிட	-10.4549
▁யாழ்ப்பாண	-10.4552
▁மறைத்து	-10.4558
▁தீவு	-10.456
ங்களோ	-10.4562
▁போனால்	-10.4569
▁கதவை	-10.4572
▁அதிமுக	-10.4572
▁மனிதர்களுக்கு	-10.4573
▁கடைசியாக	-10.4575
▁ஓய்வ	-10.4578
▁உயிரின	-10.4578
84	-10.4579
▁பிரதிநிதி	-10.4591
▁அதிர்ஷ்ட	-10.4607
▁நிரல	-10.4612
▁மக்களிடம்	-10.4617
▁ஆன்மீக	-10.4623
▁கவர்ந்த	-10.4636
▁வளர்க்க	-10.4638
ிற்காக	-10.464
▁ஒன்னு	-10.4642
▁கடவுளே	-10.4648
▁அறிவோம்	-10.4649
▁நெருங்கிய	-10.4651
100	-10.4657
▁பெரிதும்	-10.4657
▁எலி	-10.4659
▁ஆராய	-10.4662
▁App	-10.4673
▁see	-10.4674
▁good	-10.4683
▁விளைவாக	-10.4687
▁இயல்பு	-10.4687
▁உன்னிடம்	-10.4688
▁LED	-10.469
▁குட்டி	-10.469
▁சாந்தி	-10.4692
▁பயபக்தி	-10.4695
▁குறுகிய	-10.4706
▁அதிசய	-10.4711
▁அவ்வாறே	-10.4711
▁சிறுமி	-10.472
▁மௌன	-10.473
▁துளி	-10.4731
ுபவர	-10.4755
▁சந்தர்ப்ப	-10.4764
▁நடைபெறும்	-10.4768
▁தாக்குதல்	-10.4777
▁வசூல	-10.4778
▁வந்தபோது	-10.4784
பிள்ளை	-10.479
▁new	-10.4791
▁2007	-10.4793
▁வெட்க	-10.4796
ுகின்றான்	-10.4797
▁பக்தி	-10.48
▁அபாய	-10.4801
▁சமையல்	-10.4802
▁காணப்படும்	-10.4809
▁தேர்ந்தெடு	-10.4813
▁நேசித்த	-10.4814
▁கொலையில்	-10.4814
cer	-10.4814
▁அலங்கார	-10.4821
▁பட்டியலில்	-10.4827
ka	-10.4829
▁தவிர்த்து	-10.4832
▁யாருடைய	-10.4839
▁மீண்டு	-10.4848
▁படிப்பு	-10.4853
▁வேறொரு	-10.4859
▁நினைத்தால்	-10.4862
▁தினசரி	-10.4862
▁போய்விட	-10.4865
▁எங்கடை	-10.4866
pi	-10.4868
▁காண்கிற	-10.4868
▁கூப்பிட்ட	-10.4881
▁சர்வ	-10.4888
▁பெரும்பான்மை	-10.4889
▁உருவாக்கப்பட்ட	-10.4893
▁எவ்வ	-10.4894
யாவற்றையும்	-10.49
நாளை	-10.4903
களிடையே	-10.4919
சத்திய	-10.4924
▁அமெரிக்காவின்	-10.4942
▁ال	-10.4945
ீர்களே	-10.4953
▁கலந்த	-10.4955
▁நாலு	-10.4961
▁பொருளை	-10.4965
▁தேர்தலில்	-10.4965
▁மரித்த	-10.4971
▁பாகிஸ்தான	-10.4979
▁தொடங்கியது	-10.4986
81	-10.4986
▁ஆட்டோ	-10.4989
▁அன்றைய	-10.499
▁காட்டுகிறது	-10.4991
▁any	-10.5002
▁இல்லாம	-10.5012
▁அவ்வப்போது	-10.5015
ries	-10.5025
▁சுமை	-10.5025
▁கொள்கையுடன்	-10.5027
▁விதிமுறை	-10.5031
▁பொருத்தமான	-10.5035
▁பேசினார்களே	-10.5041
வரிசை	-10.5047
▁புன்னகை	-10.5048
▁சேமிப்பு	-10.5048
ஜூ	-10.5049
ible	-10.5049
▁கருணாநிதி	-10.505
▁சந்ததியாரின்	-10.505
▁பிளாஸ்டிக்	-10.5051
▁வல்லமை	-10.5052
LO	-10.5053
▁மாட்டீர்கள்	-10.506
▁மோட்டார்	-10.5062
▁டய	-10.5063
▁கிறிஸ்த்தவர்கள	-10.5067
ாயிற்று	-10.5069
▁பரிந்துரைக்க	-10.5075
▁நண்பர்களே	-10.5078
▁தெரிவித்துள்ளார	-10.5091
▁குறைவான	-10.5095
ுடனான	-10.5097
குறிப்பு	-10.51
▁பிரிந்து	-10.5101
▁இறைவனிடமிருந்து	-10.5102
▁வெளிபட்டா	-10.5108
▁இதழ்	-10.5108
▁Or	-10.5109
▁பகுதிகளில்	-10.5113
வுண்ட	-10.5116
▁வாழ்கிற	-10.5129
▁முன்னரே	-10.5138
ாதீங்க	-10.514
▁மோசமாக	-10.5144
▁make	-10.5144
▁நடன	-10.5145
ப்படுவீர்கள்	-10.5151
▁விரிவான	-10.5156
action	-10.5159
சிங்	-10.5162
▁பாலியல்	-10.5162
▁வாழ்த்த	-10.5175
▁மாதிரியான	-10.5179
ுவாங்க	-10.519
▁சீடர்	-10.5212
▁பிணை	-10.5224
IM	-10.5249
▁எளிதில்	-10.5249
▁Tag	-10.5251
▁என்னவென்றால்	-10.5252
▁38	-10.526
▁எங்கிருந்து	-10.5261
▁தலைவராக	-10.5267
ிருங்கள்	-10.5272
▁தீவிரமாக	-10.5282
▁வெறி	-10.5286
MS	-10.5296
ாவிட்டாலும்	-10.5298
போன்ற	-10.53
▁சொல்வார்கள்	-10.5308
▁வித்தியாசமான	-10.5312
▁வீதி	-10.5316
▁வெளிவர	-10.5316
▁தொடர்ந்த	-10.5325
▁புரிதல	-10.5328
▁சூதாட்ட	-10.5331
▁தீண்ட	-10.5349
▁பணக்கார	-10.5361
▁பொழி	-10.5361
▁பூஜை	-10.5363
▁கட்டமைப்ப	-10.5364
▁நினைவூட்ட	-10.5368
▁உண்மையாகவே	-10.5377
▁எப்போதாவது	-10.5378
▁வரிசையில்	-10.5381
▁தகவல	-10.5383
▁வெல்ல	-10.5391
▁தயாரித்த	-10.5394
▁மிருக	-10.5397
▁விட்டனர்	-10.5405
▁தேவைப்படுகிறது	-10.5408
▁பதிவர்	-10.5417
▁உயிருடன்	-10.5417
IP	-10.5418
cle	-10.5423
▁இயக்குனர்	-10.5428
▁கிளி	-10.5455
▁பாதுகாவல	-10.546
▁வைத்தார்	-10.5464
கொள்கிற	-10.5465
நம்ம	-10.5467
தேர்தல	-10.5468
▁அம்சங்கள்	-10.5484
▁ஊருக்கு	-10.5487
▁life	-10.5489
▁உடம்ப	-10.5494
▁சொர்க்க	-10.5495
cent	-10.5497
▁ஸ்த	-10.5501
▁கலாச்சார	-10.5503
சபை	-10.5512
▁டூ	-10.5512
பகுதி	-10.5517
▁இளமை	-10.5521
▁சுற்றுலா	-10.554
▁இன்றைக்கு	-10.557
▁வலுவ	-10.5579
▁2000	-10.558
▁இவள	-10.5588
▁ஊசி	-10.56
ொழி	-10.5603
▁மறந்த	-10.5603
▁வேண்டியதில்லை	-10.5603
ங்களிலிருந்து	-10.5604
▁ga	-10.5611
▁don	-10.5611
க்கிங்	-10.5618
இறைவன்	-10.5625
▁நிற்கிற	-10.5626
▁அழிய	-10.5629
▁முஹம்மது	-10.5641
▁இளைஞன	-10.5646
▁தீர்மானிக்க	-10.5654
ஊ	-10.5657
\	-10.566
▁துரத்த	-10.5666
▁உள்ளூர்	-10.5671
▁வன்முறை	-10.5682
கடவுள்	-10.5682
சேகர	-10.5686
▁ஆதலால்	-10.5687
ப்பதிவு	-10.5692
▁comment	-10.5695
▁கூறுகின்றனர்	-10.5699
▁அரசியல்வாதி	-10.5701
வ்வ்வ்வ்வ்வ்வ்	-10.5705
▁கணக்கில்	-10.5709
▁வாழ்நாள்	-10.571
▁மார்ப	-10.571
▁குறைந்தபட்ச	-10.5712
▁அறிகிற	-10.5719
▁பறக்க	-10.5739
▁பயங்கரவாத	-10.5746
▁மேலதிக	-10.5758
ாற்றல	-10.5764
▁நிபந்தனை	-10.5779
▁சாம்ப	-10.5786
▁சூரியனை	-10.5795
▁ஜாதக	-10.5797
▁தாயார	-10.5803
மில்லாத	-10.5804
▁நேரான	-10.581
▁ஆசிரியர	-10.5817
val	-10.5822
சக்தி	-10.5825
▁இருக்கிறீர்கள்	-10.583
▁நெகிழ	-10.5833
▁குறிப்ப	-10.5837
▁எகிப்த	-10.584
ுவீர்களா	-10.5845
▁பேச்சை	-10.585
▁கேரள	-10.5851
▁நுட்ப	-10.5854
▁மேலாண்மை	-10.5859
▁இப்ராஹீம	-10.5883
▁துளை	-10.589
▁குறிச்சொற்கள்	-10.5898
▁மென்மையான	-10.5898
▁திரட்ட	-10.5915
▁சேவையக	-10.592
▁வியப்ப	-10.5922
▁வேண்டுமானால்	-10.5933
▁ஆழ்ந்த	-10.5939
ving	-10.5942
ship	-10.5945
ிருப்பீர்கள்	-10.5958
▁மறுநாள்	-10.5961
▁Your	-10.5973
மகிழ்	-10.5975
▁சுவாமி	-10.5977
▁நிர்ணய	-10.5986
க்கிட்டு	-10.5993
களுக்கே	-10.5994
▁பிரதம	-10.5997
▁தயவுசெய்து	-10.5998
ாக்கள்	-10.6001
▁வேறில்லை	-10.6002
▁கிரே	-10.6003
II	-10.6005
▁வழிபாடு	-10.6006
▁மண்டல	-10.6026
▁பாதுகாத்த	-10.6033
▁தயாரிப்ப	-10.6042
▁விரிவாக	-10.6046
▁சதுர	-10.6056
▁உயிரோடு	-10.607
▁கேமரா	-10.6073
▁முட்டை	-10.6078
▁அறியாமை	-10.6078
▁கௌரவ	-10.6081
▁அன்றாட	-10.6084
▁பாரம்பரிய	-10.6087
▁ஊற்ற	-10.6089
இவ்வாறு	-10.6095
▁கொடுங்கள்	-10.6096
ிருப்பேன்	-10.6097
ிலிருந்த	-10.6111
▁திருவிழா	-10.6114
▁அடுக்கு	-10.6124
▁தீங்கு	-10.6125
▁சிரிக்க	-10.613
▁பதிப்புரிமை	-10.6136
mail	-10.6146
▁சக்கர	-10.6147
பொழுத	-10.615
▁வெறுக்க	-10.6163
முடியுமா	-10.617
▁கொன்று	-10.6174
களுள்	-10.6181
▁நாடினால்	-10.6182
▁நீடித்த	-10.6182
▁வழக்கில்	-10.6184
வாறே	-10.6186
▁ஜீவன	-10.6197
▁நுகர	-10.6198
▁ஜப்பான	-10.6201
முஹம்மத	-10.6203
▁கொண்டிருந்தார்	-10.6206
▁ஏழ	-10.6218
▁இல்லையென்றால்	-10.622
▁விவரிக்க	-10.6229
▁நொடி	-10.6238
ாயிரம்	-10.6243
▁காப்புரிமை	-10.6244
▁வெளிநாட்டு	-10.6246
▁பண்ற	-10.6252
ிட்டேன்	-10.6258
▁என்பதற்காக	-10.6264
▁உலகளாவிய	-10.6269
▁பன்ன	-10.6273
▁செய்கிறான்	-10.6273
▁:-)	-10.6276
என்னுடைய	-10.6278
▁வறுமை	-10.6289
▁2006	-10.629
▁சூழ்ந்த	-10.6297
▁முன்னாடி	-10.6301
ாசிரியர	-10.6312
அம்மா	-10.6313
▁blog	-10.6315
ward	-10.6321
▁பதிலளிக்க	-10.6331
▁சவால்	-10.635
▁நிறுவனங்கள	-10.6352
▁உறங்க	-10.6353
▁ஐரோப்பா	-10.6354
▁ஒண்ணு	-10.6355
▁தாங்கி	-10.6356
▁அச்சமூட்டி	-10.6364
▁சிதற	-10.6366
▁கணவன	-10.6377
▁நெருக்கடி	-10.6377
▁ஜெயலலிதா	-10.6398
▁பேசுகிறார்	-10.6427
UT	-10.643
நோய்	-10.6432
▁his	-10.6432
rac	-10.6437
///	-10.6447
2018	-10.6466
▁வானிலை	-10.6497
▁first	-10.65
▁வழிநடத்த	-10.6506
▁அறிவுறுத்த	-10.6511
▁தளபதி	-10.6517
▁அப்துல்லாஹ்	-10.6519
▁அவளிடம்	-10.6531
▁said	-10.6549
▁துண்ட	-10.6555
▁ஊழிய	-10.6558
▁செய்கிறோம்	-10.656
ja	-10.6564
▁ஏற்படுகிறது	-10.6565
▁பேருந்து	-10.6569
▁பாராளுமன்ற	-10.6577
ங	-10.6583
▁translation	-10.659
▁நிராகரிப்பவர்கள	-10.6594
விமர்ச	-10.6595
▁Act	-10.66
▁people	-10.6603
▁லிமிடெட்	-10.6606
self	-10.6626
▁உடற்பயிற்சி	-10.6629
▁திடீரென	-10.6635
குமார	-10.6637
தென்ன	-10.6641
ஃபிர்அவ்ன	-10.6642
மறுமை	-10.6668
▁எங்களுடன்	-10.6677
▁பிரச்சார	-10.6681
▁Gra	-10.6697
ality	-10.6699
▁பிடிக்காது	-10.67
ஆமாம்	-10.67
▁சம்பாதிக்க	-10.671
கேட்ட	-10.6712
cri	-10.6719
▁சாளர	-10.6721
▁பரிதாப	-10.6725
▁தீர்த்த	-10.6741
▁காரில்	-10.6743
நரக	-10.6758
▁அவதார	-10.6759
▁செயல்பட்ட	-10.6769
light	-10.6783
▁Time	-10.6791
▁இயக்குநர்	-10.6798
jo	-10.6801
▁அச்சுறுத்த	-10.6805
▁வேர்ட்பிரஸ்	-10.6808
▁விழுங்க	-10.6812
▁Web	-10.6814
▁செக்ஸ்	-10.6817
▁மிரட்ட	-10.6823
▁கூட்டத்தார	-10.6825
▁சுவாரஸ்ய	-10.6825
▁காவல்துறை	-10.6838
அன்ப	-10.6841
▁துரோக	-10.6858
▁அறிவியல	-10.6861
▁மயக்க	-10.6861
▁குறைபாடு	-10.6879
▁This	-10.6891
▁செயல்திறன்	-10.6901
▁முத்திரை	-10.6903
▁நற்செய்தி	-10.6908
▁கருதப்படுகிறது	-10.6915
▁கைப்பற்ற	-10.6916
▁உடன்படிக்கை	-10.6921
▁இவ்வாறே	-10.6931
▁யாவும்	-10.696
▁பங்களிப்ப	-10.6967
▁காத்திருப்ப	-10.6967
International	-10.6968
▁ஆச்சர்ய	-10.6971
▁மதிப்பிட	-10.6974
▁மலிவான	-10.6975
▁தற்கொலை	-10.6985
▁அளவிலான	-10.7001
▁ஏற்றுமதி	-10.701
▁only	-10.7011
▁மறுமொழி	-10.7017
▁English	-10.7022
▁உண்டாவதாக	-10.7045
▁பிடிப்ப	-10.7046
▁கையெழுத்த	-10.7049
ough	-10.7051
▁ஸ்மார்ட்	-10.7052
▁ஒன்பது	-10.7059
▁கமல்	-10.7059
▁முக்கியத்துவம்	-10.7072
த்தொகை	-10.708
▁ஒழுக்க	-10.708
▁here	-10.7088
▁விண்டோஸ்	-10.7106
▁ஆஸ்திரேலிய	-10.7113
▁இடம்பெற்ற	-10.7118
▁என்றென்றும்	-10.7124
▁புகுந்த	-10.7127
▁ஊழல்	-10.713
ுவார்களா	-10.7133
▁இறைத்தூதர்	-10.7133
பூர்வமாக	-10.7135
▁மாபெரும்	-10.7147
▁பயணிகள்	-10.7159
▁காண்க	-10.7162
▁வசிக்க	-10.7163
▁சுந்தர	-10.7165
▁எச்சரிக்க	-10.7165
ology	-10.7167
மூர்த்தி	-10.7169
▁செயற்கை	-10.7179
▁ஆபத்தான	-10.7205
qui	-10.7208
▁Free	-10.7208
fect	-10.7214
▁மிச்ச	-10.722
கடவு	-10.724
▁come	-10.7242
▁தள்ளுபடி	-10.7257
▁உகந்த	-10.7272
▁உலோக	-10.7273
▁தொழில்முறை	-10.7276
ாக்ஸ்	-10.7282
▁பேக்கேஜிங்	-10.7284
▁ஆற்றல	-10.7293
▁மாத்திரை	-10.7298
▁நோன்பு	-10.7323
நாதன்	-10.733
▁வெற்றிகரமாக	-10.7339
▁கவனிப்ப	-10.7344
▁விடுவிக்க	-10.7345
▁சதவிகித	-10.7375
ினாலே	-10.7375
▁அழிப்ப	-10.7379
▁நிரம்ப	-10.7398
[1]	-10.741
வளாக	-10.7412
ிறார்களோ	-10.7413
▁அமல்	-10.7418
▁வினவ	-10.7422
▁மாளிகை	-10.7424
▁பழகி	-10.7428
▁அநீதி	-10.7438
மூட்ட	-10.744
▁பண்ப	-10.7444
▁சுழற்சி	-10.7445
▁மிமீ	-10.745
▁தழுவ	-10.7457
ப்போவதில்லை	-10.746
▁take	-10.7464
▁மடங்கு	-10.7475
கொடுக்க	-10.7475
▁சூழலில்	-10.7476
▁வைத்துள்ள	-10.7497
▁விவேக	-10.7505
ப்பார்த்த	-10.7506
▁செயலாளர்	-10.7517
▁உழைக்க	-10.7526
uck	-10.7536
▁உரிமையாளர்	-10.7542
▁Life	-10.7546
▁எல்லோரையும்	-10.7566
▁இறந்துவிட்ட	-10.7578
▁கொன்ற	-10.7583
▁Blog	-10.7608
▁ஈர்க்க	-10.7613
▁ஒவ்வொ	-10.7614
▁தெரியவந்தது	-10.7615
▁சமாளிக்க	-10.7619
▁பொறாமை	-10.764
▁தயாரா	-10.7644
▁அதிபர்	-10.7649
▁சரும	-10.7655
▁புரிந்துகொள்ள	-10.7658
▁ஒப்படைத்த	-10.7659
▁எச்சரித்த	-10.7669
▁ஒருவருக்கொருவர்	-10.7672
நிறுத்த	-10.7677
▁அலகு	-10.7684
▁பரவலாக	-10.7699
و	-10.7701
▁உண்ப	-10.7703
▁வரையறை	-10.7708
▁கேவல	-10.771
▁இருபது	-10.7714
▁வாக்களிக்க	-10.7729
$	-10.773
▁கூறுகின்றான்	-10.7758
▁திடீர்	-10.7778
தவற	-10.7794
▁XX	-10.7806
▁friend	-10.7824
▁சோதிக்க	-10.7827
▁பேஸ்புக்	-10.7828
q	-10.7831
▁சந்தோச	-10.7835
பூர்வமான	-10.7841
▁just	-10.7848
கொள்கிறார்	-10.7849
▁மூதாதையர	-10.7857
▁வடிவமைக்கப்பட்ட	-10.7857
▁உம்மிடம்	-10.7868
▁ஹதீஸ	-10.7879
eck	-10.7883
▁comm	-10.7895
▁தூரிகை	-10.7897
பிடித்த	-10.7901
▁விசாரிக்க	-10.7914
▁சிலுவை	-10.7916
▁இலட்ச	-10.7917
▁தொகுப்ப	-10.7922
▁அல்லாஹ்வுக்கே	-10.7923
▁கிரிக்கெட்	-10.7928
▁வர்ண	-10.7931
▁தையல்	-10.7938
▁எங்களுடைய	-10.7956
▁எலும்பு	-10.7979
▁செலாவணி	-10.7982
▁அதிரடி	-10.7986
▁கொள்கின்ற	-10.7996
▁வெறுமனே	-10.7997
▁நற்கூலி	-10.8005
▁every	-10.8009
▁துன்புறுத்த	-10.8016
▁எதிர்பாராத	-10.8017
▁திரவ	-10.8025
▁பெரும்பாலோர்	-10.8034
▁பிரம்ம	-10.8048
அறிவ	-10.8069
▁அனைவருமே	-10.8073
▁ஆறுதல்	-10.8091
ென்பது	-10.8092
▁எளிதாக்க	-10.8094
▁தானியங்கி	-10.8098
▁விரிவாக்க	-10.8104
▁மும்பை	-10.8111
▁தடுத்த	-10.8123
▁பரிமாற	-10.8127
dition	-10.8133
▁when	-10.8144
▁குற்றச்சாட்டு	-10.8147
▁திடீரென்று	-10.8158
▁இழுக்க	-10.8159
▁XXX	-10.8167
▁சேர்ப்ப	-10.8168
▁தெளிவ	-10.8185
▁கடற்படை	-10.8196
▁எமக்கு	-10.8198
▁செயல்பாட்ட	-10.821
▁நன்ன	-10.8224
▁அண்ணன்	-10.8235
▁வடிகட்டி	-10.8238
▁over	-10.8239
▁தற்காலிக	-10.8241
▁பின்வருமாறு	-10.8245
▁புரிகிறது	-10.8245
த்திறன	-10.8247
▁சம்பாதித்த	-10.8264
▁Facebook	-10.8268
graph	-10.8272
▁பானம்	-10.8295
▁கவர்ச்சி	-10.8299
பெயர	-10.8323
▁செய்வோர	-10.8327
ினுள்	-10.8329
அல்குர்ஆன்	-10.8334
ுவாரா	-10.8335
▁மேன்மை	-10.8336
▁மஞ்சள்	-10.8356
▁பாஜக	-10.836
▁மேற்கொண்ட	-10.8362
ப்பார்க்க	-10.8375
▁நிகழ்த்த	-10.8377
▁அக்கிரம	-10.8387
▁under	-10.839
▁ஓரளவு	-10.8391
▁டிஜிட்டல்	-10.8403
▁ஸலவாத்	-10.8415
▁வெளியீட்ட	-10.8426
▁அரட்டை	-10.8426
▁கேசினோ	-10.8441
▁person	-10.8445
▁probably	-10.8457
ாயினும்	-10.846
▁செய்பவன	-10.8485
▁தயாரிப்பாளர்	-10.8487
▁அவ்வாற	-10.8489
▁படைப்பாளி	-10.8498
▁தமக்கு	-10.8505
▁சமீப	-10.8513
▁National	-10.8547
▁தண்டிக்க	-10.8553
▁எவரேனும்	-10.8554
▁மதிப்பெண்	-10.8555
#	-10.8559
▁அவுட்	-10.8561
▁கதாபாத்திர	-10.8562
உனக்கு	-10.8564
ெங்கும்	-10.8568
▁வரவேற்ற	-10.8572
▁தேவனாகிய	-10.8574
▁அல்லாஹ்வுடைய	-10.8602
▁குரங்கு	-10.8604
▁புராண	-10.8615
▁சம்மத	-10.8616
▁ஒதுங்க	-10.8616
ரீதியான	-10.8623
▁சுழல	-10.8634
▁க்ள	-10.8639
▁கடற்கரை	-10.8645
▁right	-10.8649
ுபவன	-10.8656
▁அரண்மனை	-10.8657
ிழந்த	-10.8676
எஃப்	-10.8679
▁நாடாளுமன்ற	-10.8681
▁கழுதை	-10.8685
ency	-10.8696
▁வார்ப்புரு	-10.8705
செல்வ	-10.8715
▁சேனல்	-10.8718
▁டொ	-10.8734
▁Year	-10.8735
▁வெளிநாடு	-10.8741
▁ரசிக்க	-10.8745
▁இருவருக்கும்	-10.8753
▁ஐரோப்பிய	-10.8765
▁மெஷின்	-10.8765
▁story	-10.8776
▁தொடர்பில்	-10.8789
▁தாராள	-10.8793
▁புரிவ	-10.8795
▁உழைத்த	-10.8795
▁இத்தாலி	-10.8813
▁Trans	-10.8825
முடியவில்லை	-10.883
▁விருந்தினர்	-10.8833
▁வீட்டில	-10.884
▁தர்க்க	-10.8868
▁செல்கின்ற	-10.8874
▁சிங்கப்பூர	-10.8886
▁போராளி	-10.8906
▁சுவாரசிய	-10.891
udi	-10.8923
nger	-10.8933
▁டேவிட்	-10.8937
▁should	-10.8939
▁அவ்விருவர	-10.8943
▁பாடசாலை	-10.8955
▁Jaffna	-10.8963
▁தொலைக்காட்சி	-10.9004
▁சுட்டிக்காட்ட	-10.9008
▁எஃகு	-10.9029
▁அதிகரிப்ப	-10.9043
▁யாவரும்	-10.9047
▁Response	-10.9066
▁வாக்களித்த	-10.907
▁ஃப்ர	-10.9079
—	-10.9082
▁இஸ்ரேல	-10.9083
▁அமுத	-10.9087
▁நண்பா	-10.9091
2:1	-10.9103
▁குடும்பத்தார	-10.9119
▁சூழ்ச்சி	-10.9124
▁முன்வைக்க	-10.9156
Thank	-10.9158
.(1	-10.9159
போர்ட்	-10.9162
▁வேணா	-10.9171
▁மர்ய	-10.9174
▁கம்பெனி	-10.9182
▁சேகரிக்க	-10.9203
▁அதிகாரப்பூர்வ	-10.9204
▁நம்பகமான	-10.9205
▁வெளிப்படையான	-10.9224
▁சரிபார்க்க	-10.9233
▁China	-10.9249
▁YOU	-10.9296
▁ப்ரஹ்ம	-10.9314
ிராத	-10.935
▁இவ்வாறான	-10.9364
▁கணித	-10.9372
▁ஏற்கெனவே	-10.9372
▁தனிநபர்	-10.9376
▁பறந்த	-10.9396
க்கணக்க	-10.9397
`	-11.0669
»	-11.7053
•	-12.168
