<unk>	0
<s>	0
</s>	0
.	-2.92753
,	-3.69922
▁	-4.41481
ம்	-4.64208
க்	-4.99474
▁ஒரு	-5.02104
?	-5.07896
ப்	-5.10856
)	-5.12007
கள்	-5.22563
▁(	-5.33274
்	-5.40794
:	-5.42644
!	-5.44878
................	-5.45847
▁என்று	-5.50931
▁இந்த	-5.54459
த்	-5.57585
▁நான்	-5.58128
து	-5.64706
;	-5.68022
▁நீங்கள்	-5.78014
ு	-5.82533
▁மற்றும்	-5.88948
ல்	-5.89993
s	-5.92152
ும்	-5.93679
ய	-5.94478
▁அவர்	-5.95855
▁இது	-5.98578
களை	-5.99331
▁அவர்கள்	-6.01278
ச்	-6.05134
▁"	-6.05502
ி	-6.11039
க்கு	-6.12698
▁-	-6.13855
▁“	-6.13946
ன்	-6.14674
தான்	-6.14676
▁உங்கள்	-6.15948
▁அது	-6.17361
▁அந்த	-6.17553
▁ஆனால்	-6.20572
-	-6.21048
யை	-6.22009
யும்	-6.22546
ை	-6.23344
"	-6.25457
க	-6.27622
▁தான்	-6.2923
த்தை	-6.34043
▁என்	-6.35273
▁வேண்டும்	-6.35563
ல	-6.40634
▁என்ன	-6.4077
ஸ்	-6.43729
▁அல்லது	-6.44361
▁நாம்	-6.44496
யில்	-6.45888
▁இல்லை	-6.47457
ர்	-6.48793
ன	-6.49076
க்க	-6.49624
வும்	-6.53467
t	-6.53533
த்தில்	-6.54248
ா	-6.5789
வ	-6.58074
ம	-6.58146
▁பல	-6.60154
மாக	-6.6045
ங்கள்	-6.61425
”	-6.63093
▁என	-6.63113
வை	-6.63371
வே	-6.6499
த	-6.65798
ப	-6.65834
▁அதை	-6.6615
▁செய்ய	-6.70881
யா	-6.71156
g	-6.73017
▁நீ	-6.73183
▁அ	-6.7354
ில்	-6.75023
ே	-6.75213
யே	-6.76285
யின்	-6.79691
யாக	-6.80858
மா	-6.80965
▁சில	-6.82945
’	-6.83666
▁அவன்	-6.85045
▁எனக்கு	-6.85744
த்த	-6.86336
ட்	-6.88626
▁மேலும்	-6.89316
▁அல்லாஹ்	-6.89897
ார்	-6.90638
மான	-6.91613
வர்	-6.91892
▁தன்	-6.9392
ர	-6.94183
▁எப்படி	-6.95326
களில்	-6.95703
▁முடியும்	-6.95773
▁‘	-6.95954
▁நல்ல	-6.97159
▁பற்றி	-6.99578
▁உங்களுக்கு	-7.01022
ின்	-7.02113
ிய	-7.02608
▁உள்ள	-7.04148
த்து	-7.05178
▁மிகவும்	-7.05422
தை	-7.05675
டி	-7.07612
▁எந்த	-7.07809
▁என்ற	-7.08154
தா	-7.08382
ட	-7.09405
▁இருக்கும்	-7.09894
மும்	-7.10134
வில்லை	-7.10894
▁the	-7.11179
'	-7.12449
▁முதல்	-7.12494
களும்	-7.12815
களின்	-7.13637
▁நா	-7.13841
▁1	-7.13902
▁இருக்க	-7.14366
▁இதை	-7.14752
லை	-7.14984
மே	-7.15212
(	-7.15308
▁விட	-7.17353
வர்கள்	-7.17358
▁வேலை	-7.17392
▁என்பது	-7.17888
ப்ப	-7.18198
த்தின்	-7.18672
▁இன்னும்	-7.18941
களுக்கு	-7.19193
▁இ	-7.19652
▁பெரிய	-7.1968
▁என்னை	-7.20205
ந்த	-7.20225
வா	-7.20808
தி	-7.21391
வி	-7.21449
அ	-7.22679
▁செய்து	-7.22693
▁of	-7.22825
▁இருந்தது	-7.23069
ப்பட்ட	-7.2316
▁–	-7.23962
ால்	-7.24036
ேன்	-7.24347
▁இருந்து	-7.25732
ரி	-7.2649
▁ஏன்	-7.26678
▁கூட	-7.27127
ங்க	-7.27401
வன்	-7.28012
லாம்	-7.28211
▁2	-7.28263
▁&	-7.28497
▁போது	-7.28926
▁மீது	-7.29941
▁:	-7.31072
▁நாங்கள்	-7.32154
▁நிச்சயமாக	-7.32218
▁நாள்	-7.32286
▁இரண்டு	-7.32323
▁க	-7.32522
▁உள்ளது	-7.34311
ான்	-7.34384
ங்களை	-7.34607
சி	-7.34868
▁இப்போது	-7.34982
வு	-7.35789
ாக	-7.36227
y	-7.37368
▁'	-7.3737
▁வேறு	-7.37427
ச	-7.37481
▁சொல்ல	-7.37487
▁ப	-7.37503
▁கொண்டு	-7.37991
ing	-7.3836
▁வர	-7.38645
▁முறை	-7.38975
பி	-7.39023
னி	-7.3935
▁வழி	-7.42071
▁S	-7.42227
▁மக்கள்	-7.42346
▁இன்று	-7.4237
▁3	-7.42432
▁யார்	-7.42585
▁என்பதை	-7.42757
▁வந்த	-7.43211
ரை	-7.43274
▁வந்து	-7.43604
▁முடியாது	-7.43635
▁அவர்களுக்கு	-7.4419
ோம்	-7.44451
▁to	-7.45059
ரா	-7.4529
▁எனவே	-7.45642
▁அவரது	-7.45707
▁அவர்களை	-7.45873
னர்	-7.45906
▁மீண்டும்	-7.45927
▁ஆ	-7.46146
▁செய்த	-7.48284
ுக்கு	-7.48632
யோ	-7.4873
ைத்	-7.48737
▁மிக	-7.49111
▁நீர்	-7.49917
ப்பு	-7.50168
தாக	-7.50906
▁ம	-7.51623
ப்பட	-7.52412
மை	-7.52603
▁எ	-7.52913
ந்து	-7.531
▁அவரை	-7.53144
▁வரை	-7.53371
க்கும்	-7.5346
▁அதன்	-7.54189
▁பேச	-7.54446
▁/	-7.54739
▁புதிய	-7.54786
.”	-7.55529
▁பிறகு	-7.55609
er	-7.55713
▁a	-7.55903
ற	-7.56095
கா	-7.56257
▁ஒவ்வொரு	-7.56658
▁சிறந்த	-7.57394
▁மட்டுமே	-7.57415
▁நேரம்	-7.58706
▁5	-7.59124
ed	-7.59329
னை	-7.59372
னா	-7.59656
▁மூலம்	-7.59796
..............	-7.59842
▁in	-7.59893
▁இருக்கிறது	-7.60131
▁பெற	-7.60591
விட	-7.60696
த்தான்	-7.6154
▁எங்கள்	-7.62043
▁ச	-7.62209
▁இரு	-7.62344
▁அப்படி	-7.62429
▁4	-7.62489
▁அவள்	-7.62686
▁முன்	-7.63044
ோ	-7.63115
ுவது	-7.63354
▁பார்க்க	-7.63895
லா	-7.64296
டு	-7.64508
▁என்றால்	-7.64715
தே	-7.64799
▁அனைத்து	-7.64941
▁உங்களை	-7.65214
▁நன்றி	-7.65254
/	-7.6612
ரு	-7.66389
ாத	-7.66576
n	-7.6741
▁தர	-7.67575
▁விட்டு	-7.67959
கு	-7.68
▁நம்	-7.68215
▁C	-7.68447
▁இருந்த	-7.68458
▁and	-7.68535
?”	-7.68573
▁வரும்	-7.68598
ாமல்	-7.68798
▁அதற்கு	-7.68971
யான	-7.69641
ார்கள்	-7.69987
▁தேவை	-7.70278
▁நம்பிக்கை	-7.70807
▁A	-7.70889
▁உன்	-7.70901
▁தனது	-7.70956
▁உண்மை	-7.70989
▁19	-7.71631
▁கொள்ள	-7.72267
பா	-7.72946
▁...	-7.7335
al	-7.73869
த்திற்கு	-7.73883
ப்படும்	-7.73892
ாய்	-7.74217
▁சி	-7.74258
▁எல்லாம்	-7.74763
மி	-7.75384
▁அப்போது	-7.76313
▁இப்படி	-7.76321
▁த	-7.76514
களையும்	-7.76749
▁பின்னர்	-7.76824
▁[...]	-7.77198
▁இறைவன்	-7.7722
▁பெயர்	-7.77375
ள	-7.77763
▁உதவி	-7.78045
லி	-7.78055
▁அல்ல	-7.78251
▁எனது	-7.78658
d	-7.79043
ுகிறது	-7.7908
▁கடவுள்	-7.79227
ுங்கள்	-7.80378
▁வி	-7.80988
வின்	-7.81177
▁போன்ற	-7.81359
▁10	-7.81631
▁வெற்றி	-7.81978
2	-7.82049
ட்டு	-7.82311
▁உலக	-7.82663
ப்பட்டது	-7.82981
இ	-7.82983
S	-7.83258
▁கொண்ட	-7.83298
யிருக்கிறான்	-7.83641
3	-7.83889
ங்களில்	-7.8407
­	-7.84095
▁நிலை	-7.84579
▁போல	-7.84669
போது	-7.85041
▁பதிவு	-7.85211
▁ஒன்று	-7.85582
ட்சத்திரங்களை	-7.8617
▁தாண்டும்	-7.86262
▁எத்தனையாவது	-7.86455
▁தவிர	-7.86472
▁தங்கள்	-7.86586
▁முதியவன்	-7.86624
▁சாய்த்தபடி	-7.86696
▁பாதாளங்கள	-7.86712
▁மந்திரக்கோலா	-7.86723
P	-7.86737
▁கை	-7.86789
▁P	-7.87108
▁மற்ற	-7.87164
▁அதே	-7.87543
▁ஒரே	-7.87641
▁பட	-7.87698
ாது	-7.87737
ட்ட	-7.88181
▁அடுத்த	-7.88292
கி	-7.8839
▁எழுத	-7.88914
னு	-7.89082
▁பின்	-7.89169
D	-7.8928
▁பா	-7.89628
▁மா	-7.90232
e	-7.90238
▁நம்ப	-7.91035
ச்ச	-7.91157
▁அவருக்கு	-7.91436
▁எப்போதும்	-7.91537
▁அதில்	-7.91996
ள்	-7.92057
1	-7.92138
A	-7.92306
▁இருந்தால்	-7.92577
ாலும்	-7.93098
▁குழந்தை	-7.93159
ான	-7.9321
▁பெண்	-7.93453
ற்ற	-7.9368
ங்	-7.93691
▁இங்கே	-7.94223
▁B	-7.94396
in	-7.9486
▁சரி	-7.94941
▁7	-7.95306
4	-7.95404
▁6	-7.96487
நான்	-7.96582
▁கால	-7.96609
▁மட்டும்	-7.96783
▁எல்லா	-7.97101
▁உணவு	-7.97315
▁is	-7.97599
C	-7.97786
▁அவர்களின்	-7.98043
▁F	-7.98059
▁வ	-7.98214
▁ஆக	-7.98344
▁என்றார்	-7.98462
amp	-7.98486
▁கூறினார்	-7.98586
▁தமிழ்	-7.98743
▁நமது	-7.98862
]	-7.99504
M	-7.99732
▁நிறைய	-7.99954
▁மாற்ற	-7.99977
▁மன	-8.00188
▁ந	-8.00529
▁உண்டு	-8.01022
▁சா	-8.0155
▁நமக்கு	-8.01676
▁ஆண்டு	-8.01831
ட்டி	-8.02083
சா	-8.02096
மு	-8.02251
▁ஒருவர்	-8.02294
a	-8.02635
▁பி	-8.02763
களே	-8.02899
▁பயன்படுத்த	-8.02968
▁கூற	-8.03127
▁தெரியும்	-8.03178
வோ	-8.03614
▁வழங்க	-8.03784
▁I	-8.03956
▁வா	-8.04137
வில்	-8.04414
வர	-8.04638
▁கு	-8.04827
சு	-8.04981
▁அதனால்	-8.05014
▁பார்த்த	-8.05409
B	-8.05708
▁வாழ்க்கை	-8.05878
?"	-8.05892
le	-8.05934
m	-8.06347
ியது	-8.06368
டை	-8.06774
ண	-8.06884
▁அவை	-8.07107
▁8	-8.07815
▁ஏ	-8.07823
▁கேட்க	-8.08125
▁வாங்க	-8.08331
▁நானும்	-8.08577
ாள்	-8.08614
▁மூன்று	-8.08715
▁T	-8.08881
படி	-8.09213
▁9	-8.10038
▁பு	-8.10604
▁பதில்	-8.10616
▁செல்ல	-8.10785
▁ஐ	-8.10916
▁கேள்வி	-8.11321
r	-8.11488
▁காண	-8.11599
த்தி	-8.11713
களாக	-8.12163
▁உள்ளன	-8.12196
தில்லை	-8.12232
ச்சி	-8.12323
▁தலை	-8.12778
கை	-8.12851
▁உ	-8.13108
▁கடந்த	-8.13269
▁பெற்ற	-8.13414
▁திரு	-8.13451
வது	-8.13547
டா	-8.14001
▁மு	-8.14154
ஆ	-8.14421
▁சு	-8.14699
▁உண்மையில்	-8.14973
T	-8.15055
▁எவ்வளவு	-8.15059
▁இந்திய	-8.15445
▁இவர்	-8.15451
ப்படுகிறது	-8.15524
▁பூ	-8.15612
▁மணி	-8.16358
▁வைத்து	-8.16514
i	-8.16522
ழ	-8.16683
▁E	-8.16809
▁தா	-8.16861
▁டி	-8.17112
▁கதை	-8.17382
▁D	-8.17432
▁திரும்ப	-8.17433
▁சிறிய	-8.17829
▁தேர்வு	-8.17855
▁அல்லாஹ்வின்	-8.18044
▁பார்த்து	-8.18081
த்துக்கு	-8.18529
5	-8.18735
▁நீங்க	-8.18973
▁இவர்கள்	-8.19534
▁செ	-8.20091
▁சென்று	-8.20153
▁G	-8.20166
▁கோ	-8.20602
▁இனி	-8.20638
▁விலை	-8.21292
ுதல்	-8.21677
▁அங்கு	-8.21691
o	-8.21767
▁அனைவரும்	-8.22047
▁முயற்சி	-8.22058
ளி	-8.22092
ிட	-8.22187
▁மனித	-8.22905
▁for	-8.22948
▁வேதனை	-8.23024
▁அதிக	-8.23043
I	-8.23081
▁படம்	-8.23518
▁இதனால்	-8.23694
▁_	-8.24439
▁மே	-8.24584
றி	-8.24649
▁அளவு	-8.24792
▁ஆகும்	-8.24942
ினார்	-8.25015
ையும்	-8.25226
ிலும்	-8.25382
ிறது	-8.25444
▁உனக்கு	-8.25687
▁முழு	-8.25712
▁முதலில்	-8.25716
ன்னு	-8.258
p	-8.26254
வரை	-8.26342
▁[	-8.26394
▁நி	-8.26421
பு	-8.26517
▁பணம்	-8.26755
▁நம்மை	-8.26808
E	-8.27274
்ப்ப	-8.27355
ஹ	-8.27531
று	-8.27602
▁அவருடைய	-8.27679
தில்	-8.27693
or	-8.28149
▁சரியான	-8.28158
▁அரசு	-8.28313
▁The	-8.2843
▁ஓ	-8.28457
▁அறிய	-8.28495
▁M	-8.28867
▁இதற்கு	-8.28904
▁செய்யும்	-8.28968
re	-8.29009
ிக்க	-8.2908
▁சிறு	-8.29128
▁மாதிரி	-8.29181
▁இதில்	-8.29269
ப்படுத்த	-8.29429
▁எது	-8.29454
▁இயேசு	-8.2954
an	-8.29978
▁இவை	-8.29982
▁காட்ட	-8.30013
▁கே	-8.30111
தற்கு	-8.30118
ண்டு	-8.30263
ரே	-8.3049
▁அவனை	-8.30744
ரிய	-8.31006
னும்	-8.31053
▁you	-8.31179
▁நோக்கி	-8.31277
▁வருகிறது	-8.31331
7	-8.31663
▁எங்களுக்கு	-8.31685
▁பட்ட	-8.31697
ஷ்	-8.31819
▁கா	-8.31822
F	-8.31861
▁ஆகவே	-8.32256
வாக	-8.32342
▁கேட்ட	-8.32363
▁இதன்	-8.32456
▁வந்தது	-8.32463
▁போக	-8.3247
▁இட	-8.32568
▁படி	-8.32654
%	-8.32803
▁வைக்க	-8.3283
ீர்கள்	-8.32921
▁பணி	-8.33126
▁12	-8.33161
▁மேல்	-8.33392
▁H	-8.33399
▁காலம்	-8.33541
▁உன்னை	-8.33954
▁நேரத்தில்	-8.34358
▁மனைவி	-8.34626
க்காக	-8.34716
▁இதனை	-8.34803
எ	-8.34837
வேண்டும்	-8.3491
▁கொடுக்க	-8.35033
▁”	-8.35513
▁பற்றிய	-8.35682
▁வேண்டிய	-8.35766
▁தி	-8.35795
ச்சு	-8.35965
தோ	-8.36248
▁போல்	-8.36259
மோ	-8.36322
▁சொல்லி	-8.36331
டன்	-8.3635
▁உண்மையான	-8.36368
▁W	-8.36615
▁நேர	-8.368
யுடன்	-8.36841
ணி	-8.37056
ும்போது	-8.37227
▁ஹ	-8.37255
▁தந்தை	-8.37361
ங்களும்	-8.37391
es	-8.37477
l	-8.37612
▁எடுத்து	-8.3777
L	-8.37783
▁காரணம்	-8.37812
▁அடி	-8.37821
ப்பட்டு	-8.37974
▁ஏனெனில்	-8.38198
ிருக்க	-8.38356
▁இரவு	-8.3844
▁எதுவும்	-8.38498
ோர்	-8.38514
ள்ள	-8.38533
ர்கள்	-8.38736
!”	-8.3883
ரின்	-8.38831
▁அதனை	-8.38864
▁குறித்து	-8.3924
ண்ட	-8.39287
▁பெரும்	-8.39298
ந	-8.39416
▁இங்கு	-8.39427
▁நன்றாக	-8.39474
ுவதற்கு	-8.39552
lt	-8.39764
▁சொன்ன	-8.3984
G	-8.39973
ar	-8.40063
ுள்ளது	-8.40087
ினால்	-8.40266
▁கண்ட	-8.40429
விட்டு	-8.40613
▁இல்	-8.40731
▁வேண்டாம்	-8.40732
▁போட	-8.40823
வ்	-8.41245
▁செலுத்த	-8.4139
▁தீ	-8.41736
8	-8.41816
களைப்	-8.41831
="	-8.41872
th	-8.42049
த்தையும்	-8.42067
▁மழை	-8.42074
▁குழந்தைகள்	-8.42192
▁அம்மா	-8.42217
b	-8.42273
▁உடல்	-8.42489
▁முடிவு	-8.42575
▁ஆம்	-8.42748
6	-8.42849
▁போ	-8.42865
W	-8.43079
▁20	-8.4312
▁தகவல்	-8.4372
▁L	-8.43948
▁நாடு	-8.44201
யர்	-8.444
▁தேட	-8.44413
R	-8.44455
யையும்	-8.44522
▁கூடாது	-8.44808
▁அவனுக்கு	-8.44878
சை	-8.4524
9	-8.45419
ப்பா	-8.45422
என்	-8.4548
▁நம்ம	-8.455
▁ஈ	-8.45548
▁எங்கே	-8.45564
▁படிக்க	-8.45569
ுடன்	-8.45634
ly	-8.45793
▁யாரும்	-8.45875
▁ஒளி	-8.46492
▁மகன்	-8.4664
தால்	-8.4665
ஜி	-8.46829
▁உருவாக்க	-8.4725
▁நடத்த	-8.47309
▁கார்	-8.47359
கோ	-8.47363
on	-8.47502
ுவோம்	-8.47567
▁எழுதிய	-8.4764
▁அறிந்த	-8.47651
▁முடியுமா	-8.47886
u	-8.47972
▁உதவ	-8.48071
ய்	-8.4821
▁re	-8.48455
H	-8.48601
c	-8.48985
▁ர	-8.4909
நீங்கள்	-8.49174
ெ	-8.49401
ீர்	-8.4949
w	-8.49495
▁வீட்டில்	-8.49519
ur	-8.49874
▁நீண்ட	-8.49875
நீ	-8.50145
▁உங்க	-8.50303
k	-8.50427
▁என்னுடைய	-8.50464
ரோ	-8.50567
▁வகை	-8.51152
▁வீடு	-8.51233
▁அனுப்ப	-8.513
ாதீர்கள்	-8.51303
▁பிர	-8.5156
ிருந்த	-8.51969
▁Re	-8.52007
▁அப்பா	-8.52011
▁K	-8.52135
ண்	-8.52176
▁பாதுகாப்பு	-8.52206
▁நபி	-8.52391
களால்	-8.52407
▁மொழி	-8.52555
க்கி	-8.52586
தன்	-8.52716
h	-8.52741
▁பகுதி	-8.52937
▁தவறு	-8.52973
ிருக்கும்	-8.53042
▁வாழ	-8.53063
ட்டும்	-8.53072
▁சமூக	-8.53137
ஹ்	-8.53144
▁விளையாட்டு	-8.53169
▁சென்ற	-8.53242
▁15	-8.53498
னின்	-8.53533
▁இன்	-8.53622
▁போய்	-8.53644
▁பிற	-8.53689
N	-8.53735
ுள்ள	-8.5392
▁ஏதாவது	-8.5399
▁அழைக்க	-8.54194
▁விரும்ப	-8.54457
லே	-8.54475
K	-8.5455
▁கருத்து	-8.54551
▁பெண்கள்	-8.54587
▁பாட	-8.54797
▁செய்தி	-8.55018
▁அதிகமாக	-8.55083
ஸ	-8.55263
▁தெரியுமா	-8.55411
யிலும்	-8.5542
▁18	-8.55485
▁11	-8.55495
▁வெளியே	-8.55659
ுகிற	-8.55874
கம்	-8.55917
▁கிடைக்கும்	-8.55969
ோடு	-8.56012
ுள்ளார்	-8.56109
▁நாளை	-8.56238
▁காலை	-8.563
களுடன்	-8.56354
யால்	-8.56489
▁இசை	-8.56529
தம்	-8.56675
▁முக்கிய	-8.56758
O	-8.56765
▁விளையாட	-8.56958
▁தெரியாது	-8.57379
றை	-8.5757
▁சேவை	-8.57614
யு	-8.57782
னே	-8.58037
▁எடுக்க	-8.58158
▁நடந்த	-8.5821
▁ஒ	-8.5826
ின	-8.58418
▁மெ	-8.58604
ப்பட்டுள்ளது	-8.58784
▁நல்லது	-8.59087
வுக்கு	-8.5915
ிலிருந்து	-8.59401
இது	-8.59496
ch	-8.59594
ிற	-8.59701
▁பே	-8.5975
ஐ	-8.5993
▁//	-8.6005
at	-8.60119
க்கான	-8.60157
▁*	-8.60187
▁நிலையில்	-8.60198
மில்லை	-8.60289
▁கிடையாது	-8.60732
▁வயது	-8.60759
▁செய்வது	-8.60922
▁தேடி	-8.60963
▁எங்களை	-8.60984
▁N	-8.61002
▁கொடுத்த	-8.61113
வரும்	-8.61132
ிருக்கிறது	-8.61224
▁திருமணம்	-8.61258
▁உயிர்	-8.61371
க்கா	-8.61468
ரும்	-8.6148
▁அறிந்து	-8.61613
▁»	-8.61684
ங்களுக்கு	-8.61693
ிற்கு	-8.61728
it	-8.61926
ருக்கு	-8.61974
▁தெரியவில்லை	-8.62051
▁படைத்த	-8.62086
ீ	-8.62446
▁சீ	-8.62793
▁அவர்களுடைய	-8.62901
▁R	-8.62995
ic	-8.63361
▁அமெரிக்க	-8.63511
▁கண்	-8.63525
▁மனிதன்	-8.63633
ங்களின்	-8.63875
ிடம்	-8.63876
த்தால்	-8.64121
ுகிறேன்	-8.64188
ation	-8.64237
et	-8.64259
▁அவற்றை	-8.64339
ஷ	-8.64598
▁முன்பு	-8.64867
ra	-8.64944
▁இருப்ப	-8.64993
▁உறுதி	-8.65153
▁அங்கே	-8.65476
▁நாளில்	-8.65513
▁தொடர்ந்து	-8.65716
▁V	-8.65844
V	-8.65899
▁இறந்த	-8.65987
போ	-8.66026
▁போன	-8.66031
கூட	-8.66032
▁ஜ	-8.66088
▁நன்மை	-8.66175
உ	-8.66281
▁இல்லாத	-8.66342
ுகின்றன	-8.66478
▁கீழே	-8.66503
▁முடியவில்லை	-8.66568
▁நினைவு	-8.66673
▁பிறந்த	-8.66689
▁இடம்	-8.66858
▁சொந்த	-8.66994
▁பொருள்	-8.67079
▁இருக்கலாம்	-8.67125
▁எண்ண	-8.67149
▁வெளி	-8.67159
▁மலை	-8.67177
னால்	-8.67409
ுவார்கள்	-8.67484
▁விளக்க	-8.6751
▁பை	-8.67568
▁பேர்	-8.67589
ுகிறார்கள்	-8.67627
il	-8.67665
▁அதாவது	-8.6793
▁தொடர்பு	-8.67935
▁இல்ல	-8.67985
▁தற்போது	-8.68061
▁அரசியல்	-8.68084
ஸல்	-8.68096
▁f	-8.68268
▁கீழ்	-8.68367
ற்று	-8.68388
▁விஷயம்	-8.68399
பட	-8.68478
ழி	-8.68535
▁இருக்கு	-8.68547
நா	-8.68605
▁அணி	-8.68644
▁''	-8.68838
▁வைத்த	-8.69002
▁திரும்பி	-8.69021
▁c	-8.69033
ங்கி	-8.69145
ல்ல	-8.69192
▁சரியாக	-8.69326
▁இருந்தாலும்	-8.6946
யாகும்	-8.69603
யைப்	-8.69816
ினான்	-8.69847
▁be	-8.69933
▁எத்தனை	-8.69965
▁ஆண்	-8.70034
▁கூறி	-8.70077
ri	-8.70278
க்கூடிய	-8.70296
யில	-8.70419
ுகிறார்	-8.70455
த்துடன்	-8.70543
ீர்களா	-8.70581
▁பக்க	-8.70661
மாய்	-8.70669
▁எழுதி	-8.7097
ஞ்ச	-8.71026
ுமா	-8.71178
▁அன்று	-8.71271
▁நாட்கள்	-8.71293
▁வான	-8.7173
▁தம்	-8.71793
▁தன்னை	-8.71929
த்திலும்	-8.7198
▁அவர்களிடம்	-8.72053
▁வெ	-8.72064
se	-8.7221
▁கேட்டு	-8.72288
▁கி	-8.72424
ுவேன்	-8.72427
▁வரி	-8.72555
f	-8.72602
▁செல்வ	-8.72741
▁p	-8.72796
வர்களை	-8.72813
ுவதை	-8.72992
▁காரணமாக	-8.73015
▁தானே	-8.73053
!"	-8.73408
▁ஓர்	-8.73494
▁விட்ட	-8.73598
கிறது	-8.73702
U	-8.73836
வர்களுக்கு	-8.73876
▁நிச்சயம்	-8.73966
▁கண்டு	-8.7411
▁தனி	-8.74293
▁கவலை	-8.7433
en	-8.74405
▁நடந்து	-8.74424
▁அவளை	-8.74523
▁மிக்க	-8.74579
ளை	-8.74605
▁இல்லாமல்	-8.74919
▁இதுவரை	-8.75266
▁விரைவில்	-8.75383
ிருந்தால்	-8.75403
li	-8.75472
▁எனினும்	-8.75476
ad	-8.75575
▁குடும்ப	-8.75602
▁முழுவதும்	-8.75695
களா	-8.75775
▁அப்படியே	-8.75796
▁உலகம்	-8.75818
ங்கு	-8.75909
▁உடனே	-8.76151
▁சிறிது	-8.76228
ற்	-8.76368
ராக	-8.76481
▁பள்ளி	-8.76559
யிலிருந்து	-8.76714
ol	-8.76897
▁கவிதை	-8.7692
▁குறிப்பிட்ட	-8.77158
▁சாப்பிட	-8.77204
▁தே	-8.77254
▁அதிகம்	-8.77409
▁குழு	-8.776
ter	-8.78043
▁அறிவு	-8.78394
▁+	-8.78413
▁0	-8.78577
தானே	-8.78627
▁பாருங்கள்	-8.78863
▁படித்த	-8.7899
ொ	-8.79014
இந்த	-8.79078
னுக்கு	-8.79114
▁பிரச்சனை	-8.79154
▁கடன்	-8.7916
▁வருடம்	-8.79298
த்தா	-8.79495
▁சட்ட	-8.79614
com	-8.7963
▁பேர	-8.79688
▁அரச	-8.79812
▁காப்பாற்ற	-8.79838
லில்	-8.79846
ுகிறோம்	-8.80071
ந்	-8.80086
▁மூ	-8.80151
el	-8.80167
▁பழைய	-8.80269
கள	-8.8046
▁பண்ண	-8.80481
▁பல்வேறு	-8.80481
▁முடியாத	-8.80482
▁16	-8.80586
▁குறை	-8.80729
வுடன்	-8.80773
▁இந்தியா	-8.80806
ட்டை	-8.80868
ஏ	-8.80976
▁ஏதோ	-8.81037
▁இதுதான்	-8.8112
▁வணிக	-8.81157
களிடம்	-8.81165
களிலும்	-8.81244
▁de	-8.81344
▁on	-8.81356
▁இருப்பது	-8.8148
▁இடத்தில்	-8.81626
ுவ	-8.81706
▁அவ்வளவு	-8.81755
த்திலிருந்து	-8.81801
▁$	-8.8189
வற்றை	-8.81981
▁அறிவ	-8.82132
▁முக	-8.82146
யி	-8.82354
▁கல்வி	-8.82383
10	-8.82392
▁அவ	-8.82571
20	-8.82622
▁அழகான	-8.82709
▁கட்ட	-8.82761
▁உயர்	-8.82808
▁30	-8.83055
▁இல்லையா	-8.83098
▁உரிமை	-8.83138
▁கொ	-8.83138
▁மத	-8.83192
▁வாரம்	-8.83375
▁பூமி	-8.83415
▁பொது	-8.83496
▁சக்தி	-8.83515
▁13	-8.83522
▁இவ்வளவு	-8.83642
▁O	-8.83659
நிலை	-8.83728
ாதே	-8.83755
ப்பை	-8.83958
லோ	-8.83966
▁அன்பு	-8.84023
▁இவ்வாறு	-8.84038
▁துணை	-8.84195
▁பிடித்த	-8.84196
முறை	-8.84288
▁உணர	-8.84608
▁சிகிச்சை	-8.85018
▁மர	-8.85152
▁கண	-8.85197
ஒரு	-8.8521
யூ	-8.85243
ப்போ	-8.85586
x	-8.85608
▁எல்லோரும்	-8.85616
▁14	-8.85693
▁தெளிவாக	-8.85993
▁நில	-8.86056
ஜ்	-8.86169
▁மகிழ்ச்சி	-8.86198
▁பய	-8.86386
▁17	-8.86394
▁அமெரிக்கா	-8.86646
▁உங்களுடைய	-8.86864
''	-8.86866
வான	-8.86946
கர்	-8.87028
▁ஐந்து	-8.87164
▁இருவரும்	-8.87237
▁ஆனா	-8.87349
▁இலவச	-8.87494
▁திருமண	-8.87654
▁விட்டது	-8.87696
▁சேர்ந்த	-8.87698
▁உண்மையை	-8.87758
▁சம	-8.87869
▁நண்பர்	-8.88071
▁பார்வை	-8.88181
▁கூ	-8.88266
▁மருத்துவ	-8.88368
▁தெரிந்து	-8.88549
▁தங்க	-8.88552
▁இலங்கை	-8.88558
▁நடந்தது	-8.88671
▁not	-8.88875
▁இயக்க	-8.89181
▁சோ	-8.89273
▁முக்கியமான	-8.89284
மாகும்	-8.893
▁மரண	-8.89704
க்கோ	-8.89731
▁குரு	-8.89935
▁பயிற்சி	-8.90059
▁மக்களுக்கு	-8.9014
ணை	-8.90156
▁b	-8.90169
▁மன்னிப்பு	-8.9019
▁முடி	-8.90368
ணும்	-8.90395
ங்கள	-8.90455
ண்டி	-8.90675
ினேன்	-8.90683
▁நிறுத்த	-8.90835
▁கட்சி	-8.90963
▁ஸ	-8.91025
▁அமைப்பு	-8.91032
X	-8.91268
▁எளிதாக	-8.9133
ுவதில்லை	-8.91367
▁காதல்	-8.91519
மானது	-8.9163
ழு	-8.91716
▁எப்போது	-8.91735
யெல்லாம்	-8.91769
அது	-8.91896
▁ஆண்டுகள்	-8.91916
▁வழியில்	-8.92225
▁ஆனாலும்	-8.92324
▁பெ	-8.92351
am	-8.92374
▁மக்களை	-8.92431
▁வருட	-8.92447
னோ	-8.92566
▁வணங்க	-8.9262
ங்களையும்	-8.92632
▁இறுதி	-8.92647
▁அஞ்ச	-8.92783
▁சே	-8.92805
▁இறை	-8.92855
▁ரூ	-8.92896
▁மாநில	-8.93007
ஜ	-8.93199
▁சோதனை	-8.93309
▁பாவ	-8.93351
▁சிறப்பு	-8.93396
▁சார்	-8.93411
▁போர்	-8.93434
▁பண	-8.93453
க்கூடாது	-8.93476
கே	-8.93507
▁திட்ட	-8.93625
ிருந்தது	-8.93651
?’	-8.93683
▁25	-8.93703
▁தேசிய	-8.93854
▁பொய்	-8.93936
▁அனைத்தும்	-8.93936
▁அழைத்து	-8.93976
▁பக்கம்	-8.94024
▁நான்கு	-8.94348
▁மாதம்	-8.94393
ist	-8.94591
z	-8.9468
▁தலைவர்	-8.948
▁எதையும்	-8.94875
َ	-8.9495
▁தேதி	-8.9499
▁எண்	-8.95037
te	-8.95058
ட்டா	-8.95138
களுக்கும்	-8.95143
▁மனிதர்	-8.95166
மீ	-8.95187
ாங்க	-8.95211
00	-8.95431
▁எடுத்த	-8.95555
▁கடை	-8.9559
▁தந்த	-8.95639
▁உடன்	-8.9569
▁குறிப்பிட	-8.95759
ுவார்	-8.95891
▁start	-8.95892
▁நேற்று	-8.96
▁கரு	-8.96006
▁தெரிந்த	-8.96034
▁விற்பனை	-8.96214
▁இப்ப	-8.96281
▁நினைத்த	-8.96428
ூர்	-8.96536
▁கருத	-8.96607
▁எதிர்	-8.96634
மன்	-8.96688
▁நடக்க	-8.96699
▁உள்ளே	-8.9678
▁ஆசை	-8.96825
ce	-8.96898
▁அவரிடம்	-8.97062
▁என்னிடம்	-8.97238
▁காட்சி	-8.97328
ஹா	-8.974
ப்படவில்லை	-8.97431
▁தடை	-8.97481
▁பயணம்	-8.9755
▁பார்	-8.97608
▁எதை	-8.97705
▁மனம்	-8.97805
▁24	-8.97884
ந்தி	-8.98304
▁நீதி	-8.98344
▁கொஞ்சம்	-8.98407
▁தொடங்க	-8.98416
டர்	-8.98568
▁மாற	-8.98647
▁கொடுத்து	-8.98659
▁திட்டம்	-8.98706
ாவது	-8.98891
▁ஒன்றை	-8.99009
ையில்	-8.9902
▁அமைதி	-8.99031
▁சுற்றி	-8.99136
▁கொள்ளுங்கள்	-8.99191
ry	-8.99277
▁நம்முடைய	-8.99365
வன	-8.99453
▁வாங்கி	-8.99473
▁மறு	-8.99726
▁நினைத்து	-9
▁இதோ	-9.00005
id	-9.00007
▁கூறினார்கள்	-9.00068
ிறேன்	-9.00167
▁கூறிய	-9.00178
▁அனுமதி	-9.00295
▁dur	-9.00458
▁எவ்வாறு	-9.00595
▁கலை	-9.00648
▁பதி	-9.00687
Y	-9.00743
▁கனவு	-9.00822
▁தாய்	-9.00825
▁தொடர்	-9.00879
▁#	-9.01015
▁காலத்தில்	-9.01058
பின்	-9.01068
▁உமக்கு	-9.01095
லு	-9.01096
லாமா	-9.011
▁பிரச்சினை	-9.01101
சன்	-9.01156
▁வேத	-9.01164
▁இருந்தார்	-9.01215
ாம	-9.01417
_	-9.01449
▁நன்கு	-9.01494
▁உங்களிடம்	-9.01515
0	-9.01674
▁மரணம்	-9.01798
▁பின்பற்ற	-9.02059
யன்	-9.02078
ுகிறான்	-9.02323
▁மாற்றம்	-9.02328
▁தேவ	-9.02334
விடும்	-9.024
▁அனைவருக்கும்	-9.0242
▁குற்ற	-9.02491
▁தமிழ	-9.02517
ுகின்றனர்	-9.02535
▁பெரு	-9.02589
▁இதே	-9.02779
▁ரா	-9.02829
▁இன	-9.0296
ிறார்	-9.02973
▁வலி	-9.03086
▁கூடிய	-9.03099
▁=	-9.03158
"&	-9.03326
▁with	-9.03356
▁In	-9.03427
▁தெரிய	-9.03955
▁கூட்ட	-9.03966
வனாக	-9.04093
▁e	-9.04152
▁உலகில்	-9.0417
▁மனதில்	-9.04208
▁are	-9.04466
▁ஓடி	-9.0455
ிறார்கள்	-9.04587
ிருக்கிறேன்	-9.04642
▁தெளிவான	-9.04792
op	-9.04819
▁or	-9.0489
▁ஓட	-9.04893
ate	-9.04935
000	-9.04953
▁போதும்	-9.05035
▁செயல்	-9.05042
▁நிதி	-9.05047
▁தள	-9.05064
▁வாழ்வ	-9.05095
▁இரண்டாவது	-9.05245
ion	-9.05326
விற்கு	-9.05358
▁நாம	-9.054
▁புரிந்து	-9.05401
▁De	-9.05491
க்கே	-9.05562
வர்களாக	-9.05586
▁உங்களின்	-9.05685
▁ட	-9.05838
க்கொள்ள	-9.06034
▁மாத	-9.0612
ுள்ளனர்	-9.06258
▁பதவி	-9.06276
ive	-9.06343
▁பெரும்பாலும்	-9.06376
ண்ண	-9.06519
விட்ட	-9.06523
▁ஜா	-9.06546
▁அதுவும்	-9.06587
ிருப்ப	-9.06699
us	-9.06755
▁பூமியில்	-9.06824
னில்	-9.06914
க்கை	-9.07032
ment	-9.07226
30	-9.07245
ent	-9.07298
▁me	-9.07298
▁தெரிகிறது	-9.07331
▁இன்றைய	-9.07336
▁இழந்த	-9.07384
ழை	-9.07432
▁இருந்தன	-9.0745
ினோம்	-9.07488
பட்ட	-9.07493
▁பார்ப்ப	-9.07506
▁சீனா	-9.07573
ூ	-9.07607
▁தயாரிப்பு	-9.07666
▁நண்பர்கள்	-9.07739
▁it	-9.0776
▁நோ	-9.07871
▁ஆண்ட	-9.079
க்குள்	-9.07991
▁விசாரணை	-9.08003
▁கொண்டிருந்த	-9.08025
▁வகையில்	-9.08041
▁நானே	-9.08192
▁அவரின்	-9.08275
லின்	-9.08367
▁இயற்கை	-9.08399
லும்	-9.08553
▁முன்ன	-9.08635
த்தது	-9.08671
▁மாட்டார்கள்	-9.0874
ro	-9.08817
▁மாறி	-9.08897
▁தேவையான	-9.09108
▁அவனுடைய	-9.09197
▁கிடைத்த	-9.09205
தற்காக	-9.09226
▁your	-9.09231
▁வார	-9.09393
▁ஆசிரியர்	-9.09423
11	-9.09539
ுக்காக	-9.09553
ers	-9.09555
▁அப்ப	-9.09611
▁உம்	-9.09697
ுவான்	-9.09765
▁கடமை	-9.09858
▁மேலே	-9.09936
ரீ	-9.10077
▁நடவடிக்கை	-9.10248
50	-9.10312
▁சேர்க்க	-9.10316
▁பேசி	-9.10341
▁அடைய	-9.10503
ப்பற்றி	-9.10552
▁உரை	-9.10564
▁அடிப்படை	-9.10752
டைய	-9.10774
▁ஏற்ற	-9.10833
▁by	-9.10844
▁ஊ	-9.10848
ம்பு	-9.10973
▁விமான	-9.11075
▁அலை	-9.11166
▁வார்த்தை	-9.11339
v	-9.11612
த்திய	-9.11712
▁இருக்கின்றன	-9.11762
ul	-9.11902
▁அளிக்க	-9.11968
▁விஷயங்களை	-9.12091
னாக	-9.12122
யாய்	-9.12133
▁முகப்பு	-9.12138
▁அவனது	-9.12187
▁கொள்வ	-9.12327
நி	-9.1239
▁பெருமை	-9.12394
▁சின்ன	-9.1249
▁இணைய	-9.12586
▁அடைந்த	-9.12624
▁தவறான	-9.12637
▁நிறுவனம்	-9.12743
▁நீங்களும்	-9.12852
ண்ட்	-9.12898
ne	-9.1294
&	-9.13068
▁பீ	-9.13182
▁பொ	-9.13186
ாரா	-9.13219
▁அறிக்கை	-9.13248
ொரு	-9.13254
▁பதிவிறக்க	-9.13256
ஆம்	-9.13322
▁தேர்தல்	-9.13414
▁நகர	-9.13464
▁பழ	-9.13469
▁மன்னிக்க	-9.13515
▁படை	-9.13547
▁எமது	-9.1366
▁விடும்	-9.13787
▁தரும்	-9.13813
ன்னா	-9.13824
▁எடுத்துக்	-9.13832
▁மூல	-9.1393
யார்	-9.13942
ia	-9.14156
▁புது	-9.14189
▁எச்சரிக்கை	-9.14206
age	-9.14297
▁அறை	-9.14332
▁வாய்ப்பு	-9.14441
▁U	-9.14446
is	-9.14532
ப்படி	-9.14623
▁செய்தால்	-9.1464
யோடு	-9.14679
▁J	-9.14705
▁பங்கு	-9.14741
ாளர்	-9.14774
▁அழகு	-9.14866
▁ஜி	-9.14866
ரம்	-9.14926
▁நோய்	-9.15064
▁சூரிய	-9.15326
▁மக்களின்	-9.15352
நபியே	-9.15376
ுவதாக	-9.15395
est	-9.15457
▁முழுமையாக	-9.15458
ினார்கள்	-9.15479
ுடைய	-9.15697
ஸி	-9.15698
ஸா	-9.15726
▁டெ	-9.15901
ப்படுகின்றன	-9.15917
▁ஆய்வு	-9.15989
▁ஞான	-9.16144
▁எங்க	-9.16155
im	-9.16195
▁நினைக்கிறேன்	-9.16231
▁தனியாக	-9.16268
▁விஷயங்கள்	-9.16306
என்ன	-9.16309
▁2018	-9.16381
▁குடி	-9.16388
▁அக	-9.16409
▁பயப்பட	-9.1646
த்திர	-9.1659
எஸ்	-9.16623
▁நினைக்க	-9.1673
▁இதுவே	-9.16743
▁ஒருவேளை	-9.16854
▁போலவே	-9.16891
▁துறை	-9.16921
▁குறைந்த	-9.16975
▁மதிப்பு	-9.16983
▁சொன்னார்	-9.17057
un	-9.17114
▁பயண	-9.1719
▁ஆதரவு	-9.17396
▁இறைவனின்	-9.17449
▁சார்ந்த	-9.17475
▁ஆட்சி	-9.17494
▁ஈமான்	-9.17584
▁அவர்களது	-9.17595
▁Home	-9.1763
▁தின	-9.17773
ிறான்	-9.17791
ியல்	-9.17853
▁முன்னர்	-9.17925
சே	-9.17934
▁வாடிக்கையாளர்	-9.17997
▁இருக்கின்றான்	-9.18
▁தொழில்	-9.18004
வராக	-9.18067
ுங்க	-9.18082
▁நெ	-9.18098
▁கால்	-9.18143
▁கட்டுரை	-9.1816
▁21	-9.18269
me	-9.18374
▁இணை	-9.18452
▁வேற	-9.18464
▁ரி	-9.18471
▁செலவு	-9.18594
▁முறையில்	-9.18639
▁பெயரை	-9.18646
▁பிழை	-9.18672
▁சிவ	-9.18719
▁எல்லை	-9.1873
▁தண்டனை	-9.18791
▁do	-9.18882
த்தார்	-9.18941
ின்றன	-9.18965
pe	-9.18995
▁அனுப்பி	-9.18998
▁உற்பத்தி	-9.19016
கார	-9.1912
▁தமது	-9.1918
▁மி	-9.19219
▁ஏற்படும்	-9.19235
▁100	-9.19355
▁ஏற்கனவே	-9.19438
▁இறந்து	-9.19489
▁வீட்டு	-9.19611
வழி	-9.19643
களுக்கான	-9.19672
வருக்கு	-9.19706
பே	-9.19713
ma	-9.19787
▁சூ	-9.19823
▁கிடைக்க	-9.19847
▁குறித்த	-9.19914
ீங்க	-9.19989
▁போட்டி	-9.20011
▁தினமும்	-9.20015
▁பிள்ளை	-9.20185
▁என்னும்	-9.20199
▁செய்திகள்	-9.20259
▁பெற்று	-9.20309
▁d	-9.20315
▁இப்போ	-9.20318
தான	-9.2034
▁மனிதர்கள்	-9.20474
▁இருக்கிறார்கள்	-9.20486
▁மன்னிப்ப	-9.20533
▁அளவில்	-9.2057
க்கொண்டு	-9.20579
▁அனைத்தையும்	-9.20798
▁என்கிற	-9.20898
▁எதிராக	-9.20901
▁வெளிப்படுத்த	-9.20922
▁மிகப்பெரிய	-9.20955
ன்று	-9.21073
க்கப்பட்ட	-9.21284
▁விதி	-9.21332
▁கேட்ப	-9.21387
டே	-9.21497
▁வாழ்க்கையில்	-9.21501
▁எவர்	-9.21542
ுகிறீர்கள்	-9.216
ரியா	-9.21616
▁இன்னொரு	-9.2173
▁வழியாக	-9.21742
▁வலை	-9.21817
▁w	-9.2187
▁அளித்த	-9.21898
போல	-9.21898
▁சேர்ந்து	-9.219
▁கோடி	-9.21918
▁அதி	-9.21983
▁சங்க	-9.22097
la	-9.22273
ுற	-9.22275
▁வசதி	-9.22517
▁ஜனாதிபதி	-9.22561
▁குண	-9.22691
▁விடு	-9.22719
▁ஊர்	-9.22727
னிய	-9.22758
ிருக்கிறார்	-9.22998
தீ	-9.23002
▁படுத்த	-9.2301
▁தூங்க	-9.23039
▁செய்தது	-9.23048
▁மாட்டேன்	-9.2313
▁கோப	-9.2316
▁சேர்த்து	-9.23175
தாகவும்	-9.23281
▁பெட்டி	-9.23303
▁வங்கி	-9.23416
ிலே	-9.23421
▁இருக்கிற	-9.23429
▁வெளியிட	-9.23603
▁ரோ	-9.23701
▁நரக	-9.23711
ினை	-9.23734
▁செய்	-9.23776
சரி	-9.23931
தர்	-9.2394
▁போட்டு	-9.23979
அல்லாஹ்	-9.23981
▁காரண	-9.24016
▁எரி	-9.24019
▁எதிர்பார்க்க	-9.24038
▁உம்மை	-9.24135
▁என்பதால்	-9.24206
ிலேயே	-9.24309
▁மாற்றி	-9.24469
▁2019	-9.24624
அவர்	-9.24746
▁பொதுவாக	-9.24768
வீ	-9.24783
▁உரு	-9.24808
▁கூறும்	-9.2496
▁கொடுப்ப	-9.25025
▁ஓட்ட	-9.25037
um	-9.25078
▁நிகழ்ச்சி	-9.25096
▁உங்களது	-9.25099
▁தமிழக	-9.2513
▁அடுத்து	-9.25257
▁முந்தைய	-9.2536
▁என்றான்	-9.25371
▁கன	-9.2538
ுக்கும்	-9.25424
▁மறை	-9.25473
▁தகவல்கள்	-9.25583
▁நாட்களில்	-9.25602
▁கையில்	-9.25662
▁முடிந்தது	-9.2575
ll	-9.25796
▁பயன்படுத்தி	-9.25886
▁அல்லாஹ்வை	-9.25921
▁நல்லா	-9.25925
▁யாராவது	-9.25953
▁என்ப	-9.26051
உங்கள்	-9.26065
ir	-9.26081
▁கிராம	-9.26099
ுகின்ற	-9.26123
வெ	-9.26241
▁இத்தகைய	-9.26273
ஸ்ட்	-9.26427
டோ	-9.26439
as	-9.26459
▁ஒன்ற	-9.26621
▁இதய	-9.26674
யுள்ள	-9.26703
கொண்ட	-9.26706
▁வீடியோ	-9.26745
▁2017	-9.26781
▁உடை	-9.26795
▁விரும்புகிறேன்	-9.26844
▁சிலர்	-9.2706
▁தயாராக	-9.27062
த்துக்	-9.27276
▁வளர்ச்சி	-9.27419
co	-9.27447
▁நிறுவன	-9.27493
▁22	-9.27536
ந்தது	-9.27738
▁படித்து	-9.2775
▁50	-9.27819
▁மாற்று	-9.27953
சிய	-9.28056
▁சினிமா	-9.281
▁தகுதி	-9.28138
▁ஆண்டுகளுக்கு	-9.28176
and	-9.28203
▁அழ	-9.28211
யாளர்	-9.28222
▁நல	-9.28299
▁இறைவனை	-9.28339
▁ஒன்றாக	-9.28341
▁சென்னை	-9.28349
ாள	-9.28373
▁Ma	-9.28421
களோ	-9.28436
▁பால	-9.28466
▁ஒலி	-9.28478
▁உதவும்	-9.28511
ண்டா	-9.28622
▁எல்லாமே	-9.28636
ve	-9.2864
12	-9.28663
ில்லை	-9.28664
▁என்றாலும்	-9.28682
▁செய்யப்பட்ட	-9.28719
▁தொலைபேசி	-9.28789
▁படங்கள்	-9.28838
▁con	-9.29048
மற்ற	-9.29085
▁இருக்கிறார்	-9.2913
▁மத்திய	-9.29147
▁சிந்தனை	-9.29175
▁உறவு	-9.29391
ஷா	-9.29393
ுக	-9.29503
▁இருக்கிறேன்	-9.29605
▁புற	-9.29649
▁உமது	-9.29663
▁டா	-9.29699
▁மாலை	-9.29702
ெல்லாம்	-9.29812
▁நிறுவ	-9.29943
▁தேவையில்லை	-9.30058
▁அப்பொழுது	-9.30166
▁மன்னித்து	-9.30256
▁வீ	-9.30471
▁மொத்த	-9.30529
▁ஒருவன்	-9.30679
யுடைய	-9.30743
ித்து	-9.30772
▁ஆர்	-9.30776
▁உருவ	-9.30821
▁இடை	-9.30837
▁கெட்ட	-9.30899
▁நடக்கும்	-9.30921
▁என்றே	-9.30931
ity	-9.30939
▁தெரிவிக்க	-9.3096
தன	-9.31009
▁ஒன்றும்	-9.31031
▁வெறும்	-9.31094
▁வாழ்ந்த	-9.31162
▁பொருட்கள்	-9.31281
▁சொல்வ	-9.31302
ிட்ட	-9.31456
▁தனிப்பட்ட	-9.31487
ரலி	-9.31515
▁தடுக்க	-9.31537
ாகும்	-9.31592
▁முற்றிலும்	-9.3175
▁26	-9.31768
▁கொள்கை	-9.31792
ci	-9.31794
▁சொன்னது	-9.31935
▁எம்	-9.31966
▁மாணவர்கள்	-9.3201
▁பணத்தை	-9.32082
தையும்	-9.32122
▁விடுதலை	-9.32144
▁வழக்கு	-9.32181
▁பேச்சு	-9.32234
ிருக்கிற	-9.32243
▁மீதும்	-9.3226
தாகும்	-9.32359
▁st	-9.32368
▁தோ	-9.32425
lo	-9.32477
▁உயர்ந்த	-9.32492
▁தலைமை	-9.32563
பை	-9.32709
▁அவனே	-9.32711
▁பரிசு	-9.32711
▁X	-9.32753
ழ்	-9.32781
ற்ப	-9.32879
ிறோம்	-9.32907
றிய	-9.32982
▁ஆகிய	-9.33066
▁வேண்டுமா	-9.33141
▁மண	-9.33243
▁நின்று	-9.33275
வான்	-9.33284
▁சந்திக்க	-9.33372
படுத்த	-9.33452
ளா	-9.33466
▁பேசிய	-9.33513
▁அங்க	-9.33589
கர	-9.33641
▁மகள்	-9.33654
▁என்கிறார்	-9.33658
ணம்	-9.33686
▁வட	-9.33727
▁that	-9.33735
▁கோர	-9.33787
▁பாடல்	-9.33853
வர்களின்	-9.33962
ஷி	-9.34017
ap	-9.34144
▁வீர	-9.34204
▁தொடர	-9.34216
▁Co	-9.34251
▁மேல	-9.34262
ிப்ப	-9.34316
கால	-9.3433
ot	-9.34418
ப்பது	-9.34508
▁அதுவே	-9.34553
▁பெரும்பாலான	-9.34619
▁பால்	-9.34647
▁அருள்	-9.34653
▁செய்யலாம்	-9.34743
ine	-9.3477
வந்த	-9.34771
▁எழுப்ப	-9.34789
▁ஜெ	-9.34824
▁லா	-9.3484
▁நபர்	-9.34867
▁உணர்வு	-9.34902
▁இறுதியில்	-9.34928
▁தூ	-9.34944
▁அச்ச	-9.35031
▁குறிப்பாக	-9.35095
▁கண்டுபிடிக்க	-9.35433
▁இத்தனை	-9.35454
▁அறிவியல்	-9.35506
▁தொ	-9.35565
▁அவ்வாறு	-9.35572
▁நீக்க	-9.35653
▁எனக்குத்	-9.3567
சம்	-9.35705
hi	-9.35742
de	-9.35744
ுவதற்காக	-9.35772
ினர்	-9.35974
▁எண்ணிக்கை	-9.35994
▁To	-9.36004
▁நாளும்	-9.36129
ill	-9.36234
▁வடிவ	-9.36291
▁மிகப்	-9.36392
▁மூட	-9.36458
▁ஆண்கள்	-9.36621
▁கருவி	-9.36746
▁நிறைவேற்ற	-9.36758
ஃ	-9.36795
▁தண்ணீர்	-9.36873
பதி	-9.37088
செ	-9.37146
ட்டில்	-9.37178
▁கர்த்தர்	-9.37273
வனை	-9.37407
▁ஏற்படுத்த	-9.37481
ver	-9.37626
▁இரத்த	-9.37633
▁வந்தால்	-9.37705
யிலே	-9.37744
▁வாழும்	-9.37786
▁ஹா	-9.37787
▁ஆக்க	-9.37814
▁விருப்ப	-9.37817
க்கிறது	-9.37842
ிருக்கிறார்கள்	-9.37918
▁நிற	-9.37957
▁இந்தியாவில்	-9.37989
▁விளங்க	-9.38086
nd	-9.38319
▁ஏற்பட	-9.38351
▁தாங்கள்	-9.38462
▁வரலாறு	-9.38495
▁உலகின்	-9.38515
▁அடிப்படையில்	-9.38552
▁கட்டி	-9.38592
▁படைப்ப	-9.38596
லாக	-9.38611
▁இத	-9.3863
முக	-9.38693
The	-9.38713
▁வலது	-9.38915
▁மற்றொரு	-9.38997
ின்றனர்	-9.39072
தெல்லாம்	-9.39153
▁வரவில்லை	-9.39159
ங்களிலும்	-9.39239
வரின்	-9.39292
▁நின்ற	-9.39325
▁அடையாள	-9.39327
▁இரவில்	-9.3935
▁மருந்து	-9.39353
ance	-9.39361
ும்படி	-9.39363
▁எனும்	-9.39384
▁இணைப்பு	-9.39409
▁வாழ்வில்	-9.39434
ரில்	-9.39524
▁அருள	-9.39548
ானா	-9.39567
▁நேர்	-9.39587
▁முடிந்த	-9.39589
▁அளவுக்கு	-9.39599
▁இவ்வ	-9.39664
சர்	-9.39718
ai	-9.39841
▁கஷ்ட	-9.3992
▁தேச	-9.39948
▁சொல்	-9.40001
▁சிறப்பாக	-9.40018
▁பிரச்னை	-9.40046
▁பெயர	-9.40053
▁கொண்டே	-9.40111
யாகவும்	-9.40155
▁kgm	-9.40168
▁உடனடியாக	-9.40195
der	-9.40279
▁அழைத்த	-9.40451
40	-9.40495
▁எழுத்து	-9.40556
▁கற்பனை	-9.40558
▁தனக்கு	-9.40613
ஞ்சி	-9.40648
15	-9.40694
விட்டார்	-9.40708
▁ஒருபோதும்	-9.40711
[	-9.40732
▁உடைய	-9.40814
▁மீ	-9.40841
லுக்கு	-9.40948
▁நம்பி	-9.40988
▁அட	-9.41037
▁விளக்கம்	-9.41042
▁கூலி	-9.41072
▁இர	-9.41098
யானது	-9.41142
ுமாறு	-9.41152
▁நினைவில்	-9.41186
▁சத்திய	-9.41246
▁செய்கிறது	-9.4136
ோமா	-9.41401
▁முதல	-9.41422
▁we	-9.41476
▁புரிய	-9.41556
வள்	-9.41566
▁செல்லும்	-9.41608
▁தாக்க	-9.41623
யில்லை	-9.41646
▁மிகுந்த	-9.41725
ார்களா	-9.41845
▁அழகாக	-9.41854
▁se	-9.41879
முள்ள	-9.41991
லர்	-9.42037
▁அன்றியும்	-9.4206
▁கொலை	-9.42132
▁பின்பு	-9.4214
▁வாழ்க்கையை	-9.42171
▁அனுபவம்	-9.42239
▁மறக்க	-9.42272
▁எதிரி	-9.42299
▁வாக்கு	-9.4231
▁படைப்பு	-9.4232
ut	-9.42322
ிரு	-9.42436
ant	-9.42455
▁அணுக	-9.42494
▁பார்த்தேன்	-9.42575
▁வந்தார்	-9.42589
ுமே	-9.42671
ளவு	-9.42681
▁23	-9.42696
▁this	-9.42738
▁Pro	-9.4282
▁படத்தை	-9.42837
▁ஆறு	-9.42889
மணி	-9.42902
▁விடை	-9.42902
▁சற்று	-9.42919
▁நோக்க	-9.43135
▁வேகமாக	-9.43139
▁ஆலோசனை	-9.43167
▁ரொம்ப	-9.4325
▁செயல்பட	-9.43367
ha	-9.43384
விட்டால்	-9.43482
▁நாட	-9.43529
▁சொல்வது	-9.43539
▁செய்யுங்கள்	-9.43545
▁முகவரி	-9.43767
▁தினம்	-9.43768
டிய	-9.43813
விட்டேன்	-9.43878
▁என்னால்	-9.43994
▁தவிர்க்க	-9.44046
▁செய்தார்	-9.44104
mm	-9.44135
▁பாதுகாக்க	-9.44218
▁அவளுக்கு	-9.44322
18	-9.44352
கொள்ள	-9.44381
▁கலந்து	-9.44404
▁அவர்களில்	-9.44409
▁சுமார்	-9.44427
▁அதிகாரி	-9.44436
▁வழிகாட்ட	-9.44483
▁ஆரம்ப	-9.44605
வரா	-9.44614
▁அழைப்பு	-9.44621
▁அறிவிக்க	-9.44669
▁படைக்க	-9.4467
கிற	-9.44732
ِ	-9.44903
▁நூல்	-9.45029
ிருந்தார்	-9.45036
வேண்டிய	-9.45085
▁திருத்த	-9.45124
▁ஏற்பட்ட	-9.45144
▁வேலையை	-9.45152
▁திறந்த	-9.45154
▁வீட்டுக்கு	-9.4526
▁சொ	-9.45264
நிச்சயமாக	-9.45281
அந்த	-9.45293
م	-9.45351
▁படத்தின்	-9.45397
▁கண்ண	-9.45409
?'	-9.45419
ஹி	-9.45459
▁கிடைத்தது	-9.45626
ل	-9.45638
▁சந்தேக	-9.45736
யின	-9.45742
▁தாம்	-9.45807
▁கணக்கு	-9.45819
▁அட்டை	-9.45831
na	-9.45891
யிலேயே	-9.45893
▁காலையில்	-9.45942
என்று	-9.46031
▁28	-9.46105
▁உறுதியாக	-9.46122
ட்டர்	-9.46173
▁துணி	-9.46218
▁St	-9.46237
▁40	-9.4624
கன்	-9.46296
▁No	-9.46435
▁You	-9.4644
றா	-9.46498
ின்ற	-9.46565
ாக்க	-9.46585
ty	-9.46618
▁நேரங்களில்	-9.46693
ங்கா	-9.46799
ti	-9.46909
▁சேர	-9.46926
▁தீர்வு	-9.46929
▁வைப்ப	-9.47123
▁will	-9.47199
▁வாய்	-9.47206
முடியும்	-9.47226
▁கேள்விகள்	-9.47278
▁வள	-9.47278
▁இடையே	-9.47282
▁விஷய	-9.4737
▁ஏற்க	-9.47472
▁மூஸா	-9.47536
▁கடந்து	-9.47591
தாம்	-9.47608
▁my	-9.47614
▁உண்மையிலேயே	-9.47651
பல	-9.47687
▁பச்சை	-9.47713
பர	-9.47901
▁மாவட்ட	-9.47913
▁வேண்டியது	-9.47921
ாளி	-9.47986
▁ex	-9.4802
▁தன்னுடைய	-9.48046
▁என்பதே	-9.48075
முடி	-9.48081
▁வேதனையை	-9.48166
ஆனால்	-9.48226
▁விரும்பவில்லை	-9.48238
▁பிடிக்க	-9.48248
▁ஆங்கில	-9.48283
ச்சா	-9.48283
▁அழைப்ப	-9.48307
ானோ	-9.48323
பெ	-9.48349
▁படத்தில்	-9.48391
▁நினைவ	-9.48473
▁பிரிவு	-9.4854
▁ஆள்	-9.486
▁ஃப	-9.48634
ோட	-9.48642
AN	-9.48647
ால	-9.4872
▁கடைசி	-9.48834
க்குரிய	-9.48844
▁திருப்ப	-9.48863
▁விழா	-9.48917
▁ஆன்லைன்	-9.48924
▁பர	-9.48993
▁at	-9.49093
▁அருகில்	-9.49123
▁தொழிற்சாலை	-9.49137
25	-9.49228
▁செல்	-9.49326
போல்	-9.49356
▁சந்தித்த	-9.49428
▁போட்ட	-9.49483
தல்	-9.49508
▁can	-9.49549
▁தொகை	-9.49579
▁அதற்காக	-9.49618
எனக்கு	-9.49638
▁27	-9.49647
▁மணிக்கு	-9.49653
ஓ	-9.49684
*	-9.49733
ence	-9.49857
+	-9.49895
ந்திர	-9.49903
▁கடினமான	-9.49933
▁டீ	-9.49955
▁யாரு	-9.49978
க்கிய	-9.49993
யற்ற	-9.50123
▁பகுதியில்	-9.50125
▁தலைப்பு	-9.50194
▁கருணை	-9.5024
▁எங்கு	-9.50251
▁லி	-9.50266
▁நேரடியாக	-9.5033
▁அழகிய	-9.5039
▁தன்மை	-9.505
▁யார	-9.50504
▁h	-9.50582
//	-9.5062
▁வேளை	-9.50711
▁பிடித்து	-9.50814
▁கொண்டாட	-9.50851
J	-9.50873
▁சுய	-9.50931
▁from	-9.50942
ab	-9.50963
▁மை	-9.5105
▁தீய	-9.51058
▁இரண்ட	-9.51068
▁கடவுளை	-9.51075
ியா	-9.51149
▁ஒருவரை	-9.51178
வில்லையா	-9.51182
▁நிறைந்த	-9.51199
வையும்	-9.51241
▁ரெ	-9.51259
▁எடை	-9.51327
ாலே	-9.51439
▁இடங்களில்	-9.51448
ast	-9.51448
▁கடல்	-9.51486
▁அத	-9.51508
▁ஏனென்றால்	-9.51559
▁வர்த்தக	-9.51743
வரே	-9.51746
▁அழுத்த	-9.51783
▁கூறுவீராக	-9.51843
“	-9.51849
▁சாதனை	-9.51915
▁திறக்க	-9.51952
▁சாதி	-9.51967
ER	-9.51991
▁அல்லாஹ்வுக்கு	-9.52004
one	-9.52087
த்தோடு	-9.52095
end	-9.52143
ிடமிருந்து	-9.52166
19	-9.5219
ுவதில்	-9.5221
ஃப்	-9.52247
▁விலகி	-9.5233
▁துன்ப	-9.52352
▁வருகை	-9.52491
▁இலக்கிய	-9.52501
▁இறக்க	-9.52531
அவர்கள்	-9.52559
மேல்	-9.52592
ற்க	-9.52683
பீ	-9.52699
ுள்ளன	-9.52724
▁சபை	-9.52774
▁as	-9.52865
60	-9.52912
▁இருக்காது	-9.52942
▁அப்	-9.52997
mo	-9.53077
▁நாட்டில்	-9.53079
▁வேண்ட	-9.53123
▁முகம்	-9.53222
ாகவும்	-9.53222
வாய்	-9.5323
▁கைது	-9.53282
▁கண்கள்	-9.53374
▁வயதில்	-9.5344
த்துல	-9.53528
▁எளிய	-9.53528
▁அறிவித்த	-9.53537
▁மில்லியன்	-9.53541
▁பத்து	-9.53595
▁மின்	-9.53619
▁குற்றம்	-9.53626
▁விரும்பும்	-9.53669
▁அடிமை	-9.53748
ென்று	-9.53757
▁கர	-9.53802
▁m	-9.53805
ஜா	-9.53826
▁இருப்பார்கள்	-9.53865
லான	-9.53975
▁அல்	-9.54055
80	-9.54079
ங்களாக	-9.54091
▁டை	-9.54095
▁மது	-9.54168
▁டாக்டர்	-9.54171
able	-9.54226
▁தன	-9.54226
▁தங்களை	-9.54234
நாள்	-9.54269
மீது	-9.54272
▁இருப்பதை	-9.54301
▁அறியாத	-9.54324
0,000	-9.54326
▁படிப்ப	-9.5434
▁திறமை	-9.54386
▁கள	-9.54429
▁கடுமையான	-9.54444
▁நிற்க	-9.54495
ுக்கள்	-9.54526
▁தூதர	-9.54556
▁உங்களைப்	-9.54578
▁முஸ்லிம்	-9.54641
ho	-9.54669
க்கொண்ட	-9.54688
▁செய்யவில்லை	-9.5469
ௌ	-9.54838
▁விரும்பினால்	-9.54916
ுதல	-9.54937
▁அனுமதிக்க	-9.55011
▁அரை	-9.55013
▁பொறுப்ப	-9.55036
வரு	-9.55042
▁விற்க	-9.55072
தற்கான	-9.55086
▁அன்ப	-9.55219
ub	-9.55235
ன்ற	-9.55253
▁குறிப்பு	-9.5527
▁காதலி	-9.5536
மொழி	-9.55385
▁காட்டி	-9.5548
▁பாவங்களை	-9.55504
▁இவற்றை	-9.55509
▁உனது	-9.55523
முடியாது	-9.55604
▁குறி	-9.55636
▁அவசியம்	-9.55767
▁29	-9.55967
▁an	-9.56071
ப்பட்டன	-9.56099
▁குழப்ப	-9.56121
களுக்காக	-9.56122
▁மறந்து	-9.56131
99	-9.56167
▁ஏமாற்ற	-9.56231
ினாலும்	-9.56241
▁சகோதரி	-9.56267
▁மாறாக	-9.5629
ாயா	-9.56303
▁நாட்டு	-9.56321
ow	-9.56331
▁பயன	-9.56391
▁இஸ்லாமிய	-9.5642
வனுக்கு	-9.56476
▁அற்புதமான	-9.56525
▁பகிர்ந்து	-9.56549
தர	-9.56556
க்கார	-9.56681
▁விட்டால்	-9.56697
–	-9.56716
▁அமைக்க	-9.56723
▁வருத்த	-9.56761
16	-9.56766
கொ	-9.56768
ge	-9.56786
ாவ	-9.56909
▁இருப்பதாக	-9.56909
▁எல்	-9.56982
▁அதிகமான	-9.5714
▁have	-9.5716
▁இவர்களுக்கு	-9.57163
▁மாறு	-9.57173
ாவின்	-9.5736
▁ஹோஸ்டிங்	-9.57386
▁தீமை	-9.57413
▁காண்ப	-9.57458
▁சமுதாய	-9.57459
▁பெற்றோர்	-9.5748
ாவிட்டால்	-9.57504
▁இழந்து	-9.57626
▁இறங்க	-9.57662
▁பலர்	-9.5773
;&	-9.57736
▁அவர்களும்	-9.57814
▁தொகுதி	-9.57861
▁பின்ன	-9.57875
▁எழுந்து	-9.57921
யிட	-9.57963
▁அவன	-9.58021
▁அழிக்க	-9.58033
▁pro	-9.58084
▁தெ	-9.58106
▁மகா	-9.58122
▁குழந்தைகளை	-9.58134
▁மேம்படுத்த	-9.58205
man	-9.58254
▁செவி	-9.58286
யாவது	-9.58331
▁வகையான	-9.58416
களிலிருந்து	-9.5844
▁மோசமான	-9.58487
▁அனுபவ	-9.58512
▁வாகன	-9.58515
▁தோன்ற	-9.58571
நீர்	-9.58571
▁வருகின்றனர்	-9.58574
▁முடிய	-9.58616
ard	-9.5864
ஈ	-9.58674
▁உள்	-9.58693
▁முனை	-9.58755
▁யு	-9.58771
▁அடையாளம்	-9.58859
▁நினைப்ப	-9.58867
▁மைய	-9.58907
▁ஸ்ரீ	-9.58911
▁உரிய	-9.58962
▁ஆண்டுகளாக	-9.58982
▁சத்த	-9.58985
▁வெகு	-9.59109
ிலுள்ள	-9.59111
▁பிரி	-9.59142
▁மோ	-9.59147
▁நிகழ்வு	-9.59219
▁செயல	-9.59279
▁போவ	-9.59337
▁தெரியாத	-9.5934
▁சூரியன்	-9.59398
▁யாரோ	-9.59432
▁சாதாரண	-9.59483
முன்	-9.5974
ானது	-9.5976
மர்	-9.5976
சீ	-9.59799
▁கீ	-9.59818
▁வாசிக்க	-9.60012
▁இழக்க	-9.60035
▁அன்னை	-9.60126
▁அருமையான	-9.60178
▁சகோதர	-9.60212
▁அல்லவா	-9.60344
ிருக்கலாம்	-9.6035
ியுள்ளது	-9.60377
▁மூலமாக	-9.60432
▁நெஞ்ச	-9.60451
ுள்	-9.60496
ரண	-9.60502
மாகவும்	-9.60532
▁ஏதேனும்	-9.60544
▁புத்தகம்	-9.60556
▁மின்னஞ்சல்	-9.60588
AR	-9.60591
▁கவனிக்க	-9.60626
ாட்சி	-9.60652
▁Me	-9.60654
கின்றன	-9.60664
ுகின்றது	-9.607
▁நிலைமை	-9.60729
▁all	-9.60795
▁கடவுளின்	-9.60802
ْ	-9.60806
பர்	-9.60835
▁குரல்	-9.60886
தார	-9.60921
all	-9.60975
ரிடம்	-9.60984
▁வண்ண	-9.61017
எம்	-9.61059
பூ	-9.61062
▁திருப்பி	-9.61144
▁ராம	-9.61195
▁எவர்கள்	-9.61214
▁அனு	-9.61348
▁Y	-9.6137
ுபவர்	-9.61372
ا	-9.61431
▁அடை	-9.61476
▁தொலை	-9.61479
▁சத்தியம்	-9.61506
02	-9.61535
▁அத்தனை	-9.6158
ஞ	-9.61598
▁Next	-9.61667
▁சுக	-9.6169
▁தூதர்	-9.61692
▁தவற	-9.61698
▁திறந்து	-9.61782
▁கொஞ்ச	-9.61789
▁வெள்ளை	-9.61806
▁Be	-9.61837
▁பரி	-9.61854
▁காத்திருக்க	-9.61855
▁நம	-9.6194
▁இருந்தேன்	-9.61976
ction	-9.62039
▁மாட்ட	-9.62095
▁அவள	-9.6211
▁An	-9.62215
▁காட்டு	-9.62259
▁பாராட்ட	-9.62403
ென	-9.62474
▁நாள	-9.62491
▁வடிவமைப்பு	-9.62565
▁வேக	-9.62568
17	-9.62574
our	-9.62584
றது	-9.62609
ிடத்தில்	-9.62628
▁பொருத்த	-9.62762
▁கல	-9.62847
▁For	-9.62848
ட்ஸ்	-9.62893
to	-9.62915
ுபவர்கள்	-9.62925
மேலும்	-9.63027
▁வெளியேற	-9.63058
மின்	-9.63088
லீ	-9.63102
▁பார்த்தால்	-9.63173
▁ஓவிய	-9.63239
▁போராட்ட	-9.63254
▁நடை	-9.63282
வதை	-9.63307
▁திரை	-9.63381
▁எவரும்	-9.63431
▁செய்யவும்	-9.63465
நாங்கள்	-9.63494
வர்களும்	-9.63651
▁இறுதியாக	-9.63662
▁பாதுகாப்ப	-9.63713
▁நடு	-9.63732
▁பூர்த்தி	-9.63755
▁நாட்களுக்கு	-9.63867
▁நேரத்தை	-9.63947
▁இதயம்	-9.63981
▁நேர்வழி	-9.6399
▁போராட	-9.64015
▁திறன்	-9.64015
▁2013	-9.64064
▁புல	-9.64093
▁ராஜா	-9.64118
▁மூடி	-9.64186
▁விதை	-9.64244
▁so	-9.64327
ப்படாத	-9.64327
▁Con	-9.64411
த்துறை	-9.64441
▁கணினி	-9.64543
▁வித	-9.64544
ian	-9.64555
▁மட்டுமல்ல	-9.64562
விடம்	-9.64641
யிடம்	-9.64654
▁செய்வ	-9.6466
min	-9.64677
▁ஏற்பாடு	-9.64743
▁அத்தகைய	-9.6481
▁ஜீ	-9.64828
▁அளவ	-9.64839
▁no	-9.64861
▁நடித்த	-9.64892
▁வருடங்கள்	-9.64902
▁ஆதார	-9.64911
▁விருது	-9.64954
▁முன்னால்	-9.64966
▁தயவு	-9.64996
ies	-9.65
▁முன்பே	-9.65141
ஞ்சு	-9.65145
▁இருந்தனர்	-9.65257
▁பயன்	-9.65258
ஷ்ட	-9.65262
▁என்னைப்	-9.6532
▁போகும்	-9.65433
▁தரவு	-9.65478
▁உணர்ந்த	-9.65537
▁co	-9.65543
▁அடிக்கடி	-9.6561
ப்பில்	-9.65616
▁கோப்பு	-9.65634
▁பாவம்	-9.65665
▁எண்ணி	-9.65679
மிட	-9.65709
▁கண்களை	-9.6575
▁பெண்ண	-9.65801
per	-9.65813
▁தகவல்களை	-9.65824
▁காப்ப	-9.65954
▁நியாய	-9.6602
ல்லா	-9.66027
▁உயிர	-9.66111
ee	-9.66146
ary	-9.66243
▁சத்தியமாக	-9.66252
▁பயம்	-9.66328
01	-9.66348
▁ஞானம்	-9.66356
▁பார	-9.66358
▁2015	-9.66365
ரெ	-9.66428
▁தேர்ந்தெடுக்க	-9.66539
▁கவனம்	-9.66634
தானா	-9.6682
▁போகிறது	-9.67006
▁யூ	-9.67015
▁பதிவுகள்	-9.67034
▁மூளை	-9.67097
▁எல்லாவற்றையும்	-9.67155
▁வாழ்வு	-9.6727
▁விழ	-9.67346
▁சுவை	-9.67349
ru	-9.67383
▁•	-9.6741
▁அவங்க	-9.67461
▁ஜெய	-9.67472
▁இங்க	-9.67527
▁இருப்பினும்	-9.67549
▁ஷ	-9.67558
▁அவ்வ	-9.67566
மூ	-9.67573
▁கூறுகிறார்	-9.67675
▁பாதுகாப்பான	-9.67679
ரன்	-9.67746
▁விளை	-9.6782
▁மரியாதை	-9.67828
முடைய	-9.67859
த்திலேயே	-9.67914
ிவிடும்	-9.67993
▁உங்களுக்குத்	-9.6811
▁சக	-9.68115
▁தேவன்	-9.68119
மிக்க	-9.6821
▁உற்பத்தியாளர்	-9.68266
▁மறுக்க	-9.6829
ஷன்	-9.68381
▁ஊடக	-9.68384
ang	-9.68449
di	-9.68467
▁கேட்டார்	-9.68514
நாம்	-9.68641
▁நடிக்க	-9.68689
▁கூடுதல்	-9.68694
பால்	-9.68749
வாறு	-9.68784
▁ஜூன்	-9.68821
ட்ச	-9.68825
ுவதால்	-9.68876
இல்லை	-9.68889
ப்படுத்தி	-9.68922
▁இருக்கிறான்	-9.69046
சோ	-9.6911
▁தங்களுக்கு	-9.69112
▁அல்லாஹ்விடம்	-9.69159
▁தெரிந்தது	-9.69181
▁வேதம்	-9.69369
ங்களைப்	-9.69387
▁இராணுவ	-9.69427
▁ஆங்கிலத்தில்	-9.69509
▁உணவை	-9.69524
▁உள்ளனர்	-9.69657
▁i	-9.69701
▁Previous	-9.69742
க்கிற	-9.69847
▁ஆவி	-9.69916
▁ஆன	-9.69945
▁இவர்களை	-9.69988
▁இல	-9.7005
▁அரசாங்க	-9.70075
▁ஹெ	-9.70143
ice	-9.70147
▁அதற்கான	-9.70164
மாகவே	-9.70189
▁உப	-9.7021
ph	-9.70212
IN	-9.70263
ுள்ளேன்	-9.70273
▁நடக்கிறது	-9.70293
னிடம்	-9.70324
▁Z	-9.70334
மாக்க	-9.70338
▁தொழில்நுட்ப	-9.7036
▁சர	-9.70403
▁ஆண்டுகளில்	-9.70408
▁தாங்க	-9.7045
▁பொறுமை	-9.70454
த்தே	-9.70549
▁விரும்பிய	-9.70593
▁குழந்தைகளுக்கு	-9.70597
▁கடவுள	-9.70669
▁கட்டளை	-9.70691
13	-9.70694
▁போதுமான	-9.70712
▁திரைப்பட	-9.70717
▁தெரிவித்தார்	-9.70728
up	-9.7077
ீராக	-9.70785
ack	-9.70844
▁வல்ல	-9.70918
▁ஆடை	-9.70937
ந்தை	-9.70986
▁தப்பி	-9.71002
ராஜ்	-9.71023
▁ரயில்	-9.71072
▁அனைவரையும்	-9.71077
▁நிலைய	-9.71094
▁ஒருமுறை	-9.71194
▁2016	-9.71203
▁டே	-9.71232
▁எல்லாரும்	-9.71275
▁சித்த	-9.71319
▁யோசனை	-9.71517
▁name	-9.71562
ta	-9.71579
▁சிறந்தது	-9.71621
son	-9.71689
▁அதிகார	-9.71741
டெ	-9.71774
▁கணவர்	-9.71852
▁எப்போதுமே	-9.71873
▁அதிர்ச்சி	-9.71909
▁பிடி	-9.71913
▁கட்டு	-9.71987
▁மற்றவர்கள்	-9.72011
▁வீரர்	-9.72074
▁நீங்களே	-9.72092
▁பாதி	-9.72109
▁ஹி	-9.72114
▁வய	-9.72139
▁யாரை	-9.72152
நல்ல	-9.72166
▁ma	-9.7218
▁n	-9.72196
த்திற்காக	-9.72234
▁இறைவன	-9.72263
ுவீர்கள்	-9.7229
em	-9.72292
▁சாட்சி	-9.72309
▁அனுபவிக்க	-9.72362
▁பதிப்பு	-9.72362
ical	-9.72403
ெழு	-9.72448
▁அதிகாரிகள்	-9.7248
▁புனித	-9.72483
14	-9.72498
ிருப்பது	-9.72503
▁விரி	-9.72593
▁உங்களால்	-9.72595
மன	-9.72609
▁எஸ்	-9.72643
▁ஏற	-9.72663
j	-9.7267
▁வெளியிட்ட	-9.72675
ரூ	-9.72729
▁தவறாக	-9.72802
சன	-9.72876
▁அவர	-9.72894
sk	-9.72911
▁இன்ன	-9.72931
56	-9.73059
res	-9.73141
▁மூன்றாவது	-9.73175
ிர	-9.73178
▁நிரப்ப	-9.73223
▁இப்பொழுது	-9.73224
ுக்கான	-9.73299
▁தூண்ட	-9.73327
வில	-9.73398
▁மேலான	-9.73411
படியே	-9.73458
▁நிலையான	-9.73596
▁அமைச்சர்	-9.73641
▁நிலவ	-9.73672
▁ஆயினும்	-9.73738
▁உயர	-9.73774
▁எதிர்ப்பு	-9.73777
▁சட்டம்	-9.73802
▁வருகிறார்	-9.73825
ay	-9.73845
▁சந்திர	-9.73846
ட்சி	-9.73866
ac	-9.73902
▁அன	-9.73985
▁இவரது	-9.74011
▁இந்	-9.74027
மெ	-9.7411
▁குறைவாக	-9.74152
▁தடவை	-9.74167
னார்	-9.74171
▁குளிர்	-9.74299
IT	-9.74299
ஒ	-9.74316
▁ஏழை	-9.7438
▁பதிவை	-9.74452
▁வீரர்கள்	-9.74469
▁என்பதையும்	-9.74469
▁என்பதில்	-9.74509
▁தீர்ப்பு	-9.74648
ிவிட்டது	-9.74652
கொள்	-9.74788
▁‘‘	-9.74859
▁கூறப்படுகிறது	-9.74903
▁Mo	-9.74904
▁உதவுகிறது	-9.75021
▁உண்டா	-9.75131
▁ஏற்பட்டது	-9.75146
▁—	-9.75152
▁காபி	-9.7517
▁ராஜ	-9.75177
▁சந்தை	-9.75197
▁தங்களது	-9.75208
ிருக்கிறோம்	-9.75218
no	-9.75225
▁மத்தியில்	-9.7523
▁விஷ	-9.75339
▁விட்டும்	-9.75376
▁mo	-9.75391
▁இரண்டாம்	-9.75412
▁சாலை	-9.7542
▁உங்கள	-9.75441
▁அறிவிப்பு	-9.75457
தல்ல	-9.75476
▁எழுந்த	-9.75509
▁செயல்படுத்த	-9.75531
▁உங்களில்	-9.75567
▁2012	-9.75574
ுவதற்கான	-9.75586
ie	-9.75633
▁He	-9.75636
▁நடிகர்	-9.75657
சூ	-9.75679
▁r	-9.75695
வனாகவும்	-9.75696
▁முறையாக	-9.75714
▁ஏதும்	-9.75723
▁ஏற்ப	-9.75749
▁தெய்வ	-9.75866
▁சகோதரர்	-9.75871
▁சொன்னேன்	-9.75896
▁இயங்க	-9.75898
▁நம்புகிறேன்	-9.75915
▁இணைக்க	-9.75923
யாக்க	-9.75931
▁திரி	-9.7604
யிருக்க	-9.76041
ூர	-9.76081
▁போன்று	-9.76142
▁மக	-9.76144
வகை	-9.76151
▁கிளிக்	-9.76159
▁ஜூலை	-9.76219
▁எழு	-9.76258
▁காய	-9.76276
▁@	-9.76303
▁ஏற்றுக்	-9.76522
▁மகத்தான	-9.76608
▁விளம்பர	-9.76609
ப்புற	-9.76637
▁பிரார்த்தனை	-9.7664
உண்மை	-9.76709
▁மறுமை	-9.76715
ாரோ	-9.76729
▁அற்புத	-9.76759
▁ஜோ	-9.76777
▁இலக்கு	-9.76818
ப்பாக	-9.76836
வதற்கு	-9.76891
▁வல	-9.76911
▁குழந்தையை	-9.76917
▁அமெரிக்காவில்	-9.77031
▁தான	-9.77075
▁நாய்	-9.77094
▁பெறும்	-9.77149
▁அவனிடம்	-9.7717
IC	-9.77197
▁உம்முடைய	-9.77207
▁இடுகை	-9.77247
▁திருப்தி	-9.77251
வனே	-9.77252
▁நடைமுறை	-9.77262
▁வருவது	-9.77283
▁கூறினான்	-9.77296
▁பின்னால்	-9.77388
யாகவே	-9.77389
▁தூக்கி	-9.77442
மாட்டார்கள்	-9.77522
▁ஒருநாள்	-9.7753
▁இனிய	-9.77599
▁யாருக்கு	-9.77633
▁நூறு	-9.77667
ப்பிடி	-9.7767
port	-9.77688
▁ஓர	-9.77688
▁நிலையை	-9.77707
▁நாங்க	-9.77718
ங்களே	-9.77779
ight	-9.7787
▁கூட்டம்	-9.77879
▁உணர்வ	-9.77901
▁வருகின்றன	-9.77911
▁பாதை	-9.77961
35	-9.77987
24	-9.7804
▁Se	-9.78073
▁அன்றி	-9.78127
▁கிறிஸ்து	-9.78181
bo	-9.78202
du	-9.78218
மல்ல	-9.78289
▁அப்போ	-9.78309
▁அவரே	-9.78418
▁முழுமையான	-9.78461
ென்ன	-9.78463
புரி	-9.78495
▁இந்நிலையில்	-9.78559
▁நெருப்பு	-9.7861
▁துவங்க	-9.78636
▁தேர்ந்தெடுத்த	-9.78637
▁உச்ச	-9.78654
▁சாத்திய	-9.7869
▁முடிவ	-9.7874
பிர	-9.78801
▁அவரும்	-9.78815
▁நடிகை	-9.78828
?''	-9.78878
▁புத்தக	-9.78934
▁வாருங்கள்	-9.78971
▁மீற	-9.79
▁அறி	-9.79033
▁தனியார்	-9.79046
ite	-9.79088
▁கரை	-9.7909
▁கேட்டால்	-9.79113
▁புகழ்	-9.79137
▁ஆள	-9.7922
த்திலே	-9.79396
▁ஆக்கி	-9.79401
ாகவே	-9.79455
ுவிட்டது	-9.79472
32	-9.79474
▁தீவிர	-9.79491
▁வாழ்	-9.79493
▁தங்களின்	-9.79503
▁கவன	-9.79517
▁சை	-9.79526
▁நிமிடங்கள்	-9.7956
சாமி	-9.79614
கிட்ட	-9.79629
▁வேண்டி	-9.79679
▁ஓத	-9.79694
ear	-9.7972
▁Th	-9.79742
▁மோடி	-9.79828
ப்பின்	-9.79853
22	-9.79873
▁பரவ	-9.7989
றேன்	-9.79897
களோடு	-9.7991
▁தொகுப்பு	-9.7995
▁கெ	-9.79953
▁பார்ப்போம்	-9.80033
▁பருவ	-9.80045
▁வெப்ப	-9.80145
ார்களோ	-9.8022
விய	-9.80223
ni	-9.80272
▁தோல்வி	-9.80286
▁சிறை	-9.80342
▁அமைதியாக	-9.80389
▁60	-9.80478
▁ஆராய்ச்சி	-9.80494
▁உங்களுக்காக	-9.80528
pdf	-9.80559
ue	-9.80568
ிவிட	-9.80631
▁மெய்	-9.80632
▁2014	-9.80686
▁மொபைல்	-9.80707
▁உண்மையாக	-9.80713
▁வரம்பு	-9.80748
▁சிரம	-9.80764
▁ஆண்டில்	-9.80798
▁சர்வதேச	-9.80806
▁வரிசை	-9.80926
▁இளம்	-9.80991
வனா	-9.81003
▁ஆட்ட	-9.81042
ish	-9.81044
▁அம்ம	-9.81056
ியுங்கள்	-9.81058
om	-9.81067
ளிக்க	-9.8108
▁பாதிக்கப்பட்ட	-9.81242
▁ஆரம்பித்த	-9.81248
▁பொருளாதார	-9.81281
▁வீட்டை	-9.81451
▁go	-9.81459
▁Le	-9.81469
ath	-9.81512
சில	-9.81542
வள	-9.81592
▁சரியா	-9.81608
▁ஹீரோ	-9.81714
▁தவ	-9.81718
▁சென்றார்	-9.81722
▁ஆவ	-9.81723
▁ரஹ்மான்	-9.81724
▁கோரிக்கை	-9.8173
▁வருடங்களுக்கு	-9.81767
▁மக்கள	-9.81773
ிறீர்கள்	-9.81773
▁இறைவா	-9.81788
▁ஆட	-9.81833
▁வருகிறேன்	-9.81853
AL	-9.8186
▁இதற்காக	-9.81881
vi	-9.8189
▁குறைக்க	-9.81937
▁கருத்த	-9.81938
▁தொட	-9.82009
▁வாழ்த்துக்கள்	-9.82047
▁திசை	-9.82079
ளு	-9.82129
▁அவரவர்	-9.82152
▁வழியை	-9.82185
▁Do	-9.82239
ster	-9.82363
▁நீதிபதி	-9.82371
21	-9.82403
▁கவனமாக	-9.82412
▁he	-9.82417
ற்றி	-9.82425
.//	-9.82454
▁பதிலாக	-9.82513
▁நிறுத்தி	-9.82524
▁அவசர	-9.82553
▁நிறுவனங்கள்	-9.82553
▁இளைஞர்	-9.82563
▁தென்	-9.8257
லாமே	-9.82579
செய்ய	-9.82581
▁தமிழர்	-9.82613
▁ஸ்ப	-9.82689
▁கூறியுள்ளார்	-9.82696
▁மிகச்	-9.82701
▁இழப்பு	-9.82821
த்தர	-9.82822
tic	-9.82995
▁புள்ளி	-9.83026
ிருந்தேன்	-9.83138
இதை	-9.83147
ஆர்	-9.83159
▁மகனை	-9.83167
▁sp	-9.832
வார்	-9.83271
33	-9.83308
▁முடிகிறது	-9.8332
மையை	-9.83383
வால்	-9.8339
05	-9.83501
▁அறிமுகம்	-9.83548
வினை	-9.8363
▁l	-9.83632
கிறேன்	-9.83691
▁மனிதனை	-9.83813
▁விடுங்கள்	-9.83818
▁நவீன	-9.83921
▁பட்டியல்	-9.83937
▁பங்க	-9.83993
▁Tamil	-9.84021
▁பேசும்	-9.84067
ப்பட்டுள்ளன	-9.84116
ப்பதற்கு	-9.8415
▁நாட்ட	-9.84218
▁அற	-9.84239
▁மீன்	-9.84269
▁சமயம்	-9.84284
▁வகுப்பு	-9.84285
▁WEB	-9.84296
▁ஓய்வு	-9.84298
▁பற்றியும்	-9.8435
ாளர்கள்	-9.84355
▁ஆச்சரிய	-9.84399
▁அனுப்பிய	-9.84403
▁அண்ணா	-9.84413
▁அலுவலக	-9.84415
▁நாட்டின்	-9.84437
▁Ro	-9.84491
▁நேர்மை	-9.84505
▁ரே	-9.84529
▁மண்ண	-9.84616
▁நடப்ப	-9.84651
Name	-9.84674
ப்பட்டுள்ள	-9.84697
▁வைத்துக்	-9.84727
▁more	-9.84768
▁தெரிவித்த	-9.84811
▁மீதான	-9.84845
யல்ல	-9.84851
▁ஈடுபட	-9.84862
கட்ட	-9.84951
▁தலைவர்கள்	-9.85004
▁இருதய	-9.85008
▁நாடுகள்	-9.85033
வித	-9.8505
யினை	-9.85072
▁மொ	-9.85093
கின்ற	-9.85125
▁இவன்	-9.85145
▁இவ்	-9.85153
▁பயந்து	-9.85183
▁காணலாம்	-9.85189
யன்றி	-9.85223
▁புகைப்படங்கள்	-9.85261
86	-9.85268
▁am	-9.85271
வேளை	-9.85277
▁மட	-9.85317
மர	-9.85329
ure	-9.85402
▁ஜன	-9.85427
க்கூட	-9.85474
▁அமையும்	-9.85485
▁இருந்தார்கள்	-9.85501
day	-9.85541
▁போனது	-9.85591
▁பிரபல	-9.85637
ஃப	-9.85706
▁வீட்டிற்கு	-9.85755
த்தில	-9.85845
டைந்த	-9.85859
▁கருத்துக்களை	-9.8586
ீடு	-9.85949
பாடு	-9.85949
▁நிராகரிக்க	-9.85954
▁வைத்திருக்க	-9.85961
▁குமார	-9.86002
▁என்னுடன்	-9.86035
▁கவலைப்பட	-9.86046
தின்	-9.86046
▁31	-9.86099
எல்	-9.86109
▁குற்றவாளி	-9.86127
▁சீன	-9.86147
▁ஆயிரம்	-9.86148
யிர	-9.8619
▁one	-9.86199
▁சத்தம்	-9.86235
▁வந்தேன்	-9.86242
▁அவர்களே	-9.86267
70	-9.86337
▁தூய	-9.86355
ex	-9.86378
அவன்	-9.86381
▁Google	-9.86417
க்கால	-9.86428
இறை	-9.86435
ப்படுவது	-9.86454
உன்	-9.86495
▁ஆகி	-9.86508
▁கல்லூரி	-9.86609
▁கூறு	-9.86669
த்தன	-9.86702
▁சுதந்திர	-9.86727
▁அவர்களைப்	-9.8675
▁கொள்ளும்	-9.86766
▁2011	-9.8678
▁மன்னிப்புக்	-9.86782
▁வசனங்களை	-9.86793
பார்	-9.86798
67	-9.86855
▁%	-9.86868
▁இருக்கிறதா	-9.86909
▁கண்ணாடி	-9.86962
▁tr	-9.86975
வாதி	-9.87016
▁v	-9.87023
▁கிட்ட	-9.87051
77	-9.87067
த்தல்	-9.8709
தனை	-9.87096
▁அறிவுரை	-9.87101
▁அவருடன்	-9.87104
▁வலிமை	-9.87116
36	-9.87185
▁முடிந்து	-9.87278
▁கையை	-9.87317
’’	-9.87327
▁அல	-9.87352
▁k	-9.87383
▁நட	-9.87395
▁செய்கின்ற	-9.87409
▁காதல	-9.87422
▁இணைந்து	-9.87546
த்துவ	-9.87584
he	-9.87632
▁லே	-9.87663
ோருக்கு	-9.87683
யுங்கள்	-9.87727
▁செய்கிற	-9.87752
▁விர	-9.87787
அலை	-9.87832
▁யானை	-9.8786
கூ	-9.8787
▁நிறைவேற	-9.8788
▁வலைத்தள	-9.88066
னுடைய	-9.88078
ப்படை	-9.88094
▁பாத	-9.88139
▁நினை	-9.88164
lu	-9.88167
▁நாவல்	-9.88173
▁அஞ்சி	-9.88202
வேறு	-9.88212
களான	-9.88229
▁ஜனவரி	-9.8828
▁இளைஞர்கள்	-9.88449
ct	-9.88481
▁பத்தி	-9.88516
▁அகற்ற	-9.88558
மலை	-9.88581
சார்	-9.88588
ரான	-9.88618
▁கண்டிப்பாக	-9.88697
95	-9.88768
னாலும்	-9.8878
▁முன்பாக	-9.88829
▁கொண்டது	-9.88852
oo	-9.8894
பாவ	-9.89061
▁அருமை	-9.89086
ud	-9.89086
▁விஷயத்தில்	-9.89092
▁மென்பொருள்	-9.89096
200	-9.8914
▁கருத்தை	-9.89176
ொன்று	-9.89207
டிக்க	-9.89229
வனும்	-9.89254
▁பத	-9.89261
ong	-9.89271
▁முதலீடு	-9.89281
▁இந்தியாவின்	-9.89301
ண்டை	-9.89308
▁அப்புறம்	-9.89329
tion	-9.89373
▁விசய	-9.89376
▁கொல்ல	-9.89439
டல்	-9.89456
▁அர	-9.89497
▁பசி	-9.8952
▁சொல்ற	-9.89533
ளம்	-9.89538
fi	-9.89664
37	-9.89676
▁sa	-9.89695
▁பண்ணி	-9.89706
அப்படி	-9.89712
pa	-9.89831
▁செயல்பாடு	-9.89839
ep	-9.8984
டும்	-9.89848
▁வளர	-9.89851
▁பொருட்களை	-9.89856
mi	-9.89879
OR	-9.89913
▁அந்நாளில்	-9.89932
▁இறக்கி	-9.89946
▁பயனர்	-9.89967
ுமோ	-9.9003
▁இள	-9.90072
கீ	-9.90078
ங்களா	-9.90132
▁செய்கிறார்கள்	-9.90141
▁சம்பவ	-9.90158
.''	-9.9037
▁ஆர	-9.90396
▁நட்சத்திர	-9.9044
▁யாருக்கும்	-9.90442
▁தொடர்பான	-9.90475
▁தம்பி	-9.90506
ெடுக்க	-9.90545
▁பொழுது	-9.90552
ுடனும்	-9.90558
ாவில்	-9.90561
▁குறியீடு	-9.90568
▁முயன்ற	-9.90598
ன்றி	-9.90655
▁un	-9.9068
▁நாளைக்கு	-9.90694
▁டாலர்	-9.90709
▁இருப்பதால்	-9.90711
▁ஏழு	-9.90712
▁விமர்சனம்	-9.90726
▁முடிக்க	-9.90748
▁நாமே	-9.9078
▁பிரா	-9.90818
▁கருத்துக்கள்	-9.90822
▁அழித்து	-9.90841
ாண்டு	-9.90854
▁பந்த	-9.90867
▁விட்டார்	-9.90886
▁ஆமாம்	-9.90977
ப்பான	-9.91079
▁காத்திருந்த	-9.91084
▁விழுந்து	-9.91118
வார	-9.91126
▁மாணவர்	-9.91143
▁மகனே	-9.91214
▁கவி	-9.91228
▁பொருந்த	-9.91253
23	-9.91257
▁மனதை	-9.91263
▁நாமும்	-9.91298
ல்லி	-9.91322
தாய்	-9.91369
▁திருட	-9.91395
▁சொல்லவில்லை	-9.91399
▁பார்க்கும்	-9.9143
▁Ex	-9.91446
▁அவர்களுடன்	-9.91458
▁ஸலாம்	-9.91483
▁சுற்று	-9.91533
▁எழ	-9.9155
மதி	-9.91553
ah	-9.91566
▁திட்டங்கள்	-9.91572
▁அவற்றின்	-9.91595
▁இவ்வுலக	-9.91617
les	-9.91642
▁கேளுங்கள்	-9.91677
26	-9.91708
▁தயார்	-9.91791
▁வழங்குகிறது	-9.91825
▁மலர்	-9.91913
▁கற்ப	-9.91917
▁காம	-9.91924
▁Al	-9.91983
▁எல்லோருக்கும்	-9.9199
▁Sa	-9.92022
▁பாதையில்	-9.92048
ினாள்	-9.92091
▁போகிற	-9.92093
▁சண்டை	-9.92122
▁பரிசுத்த	-9.92133
▁காலமாக	-9.92138
ச்சை	-9.92179
▁எவன்	-9.92199
ின்றது	-9.92225
▁கிளை	-9.92236
▁சராசரி	-9.9224
மார்	-9.92282
விட்டது	-9.92304
▁போற	-9.92305
▁வலைப்பதிவு	-9.92329
வண	-9.92351
▁பேசினார்	-9.92388
▁சொல்லும்	-9.92402
▁என்பதுதான்	-9.92581
திர்	-9.92599
ஸை	-9.92657
▁முடித்த	-9.92694
▁பொறுப்பு	-9.92763
▁பிள்ளைகள்	-9.92818
▁இருக்கிறோம்	-9.92933
tor	-9.92941
ten	-9.92972
▁மகிழ்வ	-9.93017
▁எங்கும்	-9.93053
யினால்	-9.9311
▁செய்வதை	-9.93151
னியா	-9.93163
ick	-9.93191
ாரு	-9.93194
▁இயலாது	-9.93229
▁விரும்புகிற	-9.93238
▁நாடுகளில்	-9.93252
▁கூறியது	-9.9332
▁கடினமாக	-9.9332
▁ஈடுபட்ட	-9.93323
▁நேரடி	-9.93333
sion	-9.93342
வாசி	-9.93367
ாண்ட	-9.93384
▁ஷா	-9.93522
▁அடைவ	-9.93559
▁விரும்பி	-9.93566
▁பரப்ப	-9.93577
▁சந்தோஷ	-9.93594
▁தல	-9.93607
ரிக்க	-9.93661
▁அவளது	-9.93672
ண்டர்	-9.93673
▁தெரியாமல்	-9.93865
▁சேவைகள்	-9.93877
39	-9.93899
▁காரிய	-9.93926
▁பெயரில்	-9.93981
▁India	-9.94024
ப்பட்டார்	-9.94032
த்திற்கும்	-9.94042
▁மார்ச்	-9.94051
▁அரசின்	-9.94068
▁முடியாமல்	-9.94146
எங்கள்	-9.94154
ின்றான்	-9.94209
▁கலைஞர்	-9.94245
என்னை	-9.94321
▁கூறுவது	-9.94352
ாகி	-9.94384
▁உணர்ந்து	-9.94437
▁தமிழில்	-9.94498
▁பாதிப்பு	-9.94549
▁உயிரை	-9.94662
ிட்டு	-9.94697
▁அர்த்தம்	-9.94698
▁who	-9.94765
▁புரிந்த	-9.9478
ார	-9.94805
▁காகித	-9.94824
▁கொள்ளலாம்	-9.94825
-1	-9.9484
த்தினை	-9.94845
▁தேர்	-9.94906
▁வாழ்ந்து	-9.94916
▁பிரிய	-9.94923
▁பாச	-9.94953
88	-9.95057
▁நிஜ	-9.95103
▁விழுந்த	-9.95145
▁நினைக்கிற	-9.95149
▁போலி	-9.95192
▁பிடிக்கும்	-9.95228
விடு	-9.95236
▁அமைப்ப	-9.95272
▁காந்தி	-9.95319
▁சிந்திக்க	-9.95355
த்தானே	-9.954
▁இருந்தா	-9.95429
▁பூமியின்	-9.95464
▁(1	-9.95506
▁அத்தாட்சி	-9.95508
08	-9.95552
▁சர்	-9.95611
▁பவர்	-9.95659
▁முகத்தை	-9.95681
க்கூடும்	-9.95745
▁தளத்தில்	-9.95779
ace	-9.95815
▁உடலில்	-9.95873
வைக்க	-9.95929
▁ஓட்டு	-9.95987
▁பிரபலமான	-9.96067
உங்களுக்கு	-9.96073
▁இடத்தை	-9.96106
▁கட்டுப்படுத்த	-9.96111
ேனா	-9.96158
ப்படுகின்றது	-9.96237
▁கழித்து	-9.9625
38	-9.96275
ec	-9.96278
▁மிகக்	-9.96292
▁நிமிட	-9.96293
டுகள்	-9.96459
மாட்டேன்	-9.96488
▁ஒழி	-9.96509
▁தொடக்க	-9.96517
▁வழங்கப்படும்	-9.96527
▁மனைவியை	-9.96538
▁அந்நிய	-9.96578
47	-9.96579
றும்	-9.96602
▁பூமியை	-9.9663
▁சம்பந்த	-9.96651
▁மீள	-9.96655
ran	-9.96695
ப்பிர	-9.96695
▁ஜான்	-9.96719
▁பதிவ	-9.96747
பால	-9.96749
▁குள	-9.96749
▁எடுப்ப	-9.96774
▁இருப்பார்	-9.96788
▁கர்	-9.96826
▁How	-9.96857
▁தோழி	-9.9687
▁புத்த	-9.96939
sp	-9.96952
@	-9.96961
▁சொத்து	-9.9701
▁பெண்களுக்கு	-9.97014
▁மூத்த	-9.97095
▁வரும்போது	-9.97132
▁ஷைத்தான்	-9.97133
▁அக்கா	-9.97175
Z	-9.9718
45	-9.97209
▁நாட்	-9.9724
va	-9.97275
போன	-9.97298
28	-9.97424
▁இறைவனிடம்	-9.97442
▁dis	-9.97485
▁பாவி	-9.97501
வர்களில்	-9.97544
▁வழங்கும்	-9.9756
▁சிறப்பான	-9.97563
ரவு	-9.97579
▁பணியாற்ற	-9.97599
▁Ch	-9.97599
▁புரியவில்லை	-9.97701
▁பள்ளியில்	-9.97718
▁இரா	-9.97741
▁அர்	-9.97803
▁குல	-9.97817
▁விண்ணப்ப	-9.97829
▁தூக்க	-9.97861
▁பொருட்டு	-9.97867
நம்	-9.97906
▁கட	-9.97908
யிருப்ப	-9.97911
▁விட்டேன்	-9.97923
▁என்றாள்	-9.97938
▁ஆத	-9.97939
▁மீறி	-9.97964
ராய்	-9.9798
▁உங்களுடன்	-9.97985
▁தளம்	-9.97999
▁தள்ள	-9.9803
▁விலக	-9.98057
▁நட்பு	-9.98066
▁திகதி	-9.98106
மடைந்த	-9.9815
க்கிர	-9.98183
த்தன்மை	-9.98193
▁அதனால	-9.9825
▁கேட்டது	-9.98291
▁முதல்வர்	-9.98291
▁சொன்னால்	-9.98293
▁நகர்	-9.98297
ந்தா	-9.98312
▁வச	-9.98374
▁தயாரிக்க	-9.98499
AT	-9.9852
▁தோற்ற	-9.98598
▁நடத்தி	-9.98609
ர்ந்த	-9.98624
▁நிமிடம்	-9.98658
▁Ad	-9.98675
ுவீராக	-9.98677
▁கணவன்	-9.98712
▁டோ	-9.98748
▁கூடும்	-9.98764
-2	-9.98822
▁35	-9.98823
▁இவ	-9.98922
▁உள	-9.99074
ca	-9.9911
▁வட்ட	-9.9918
▁சூழ்நிலை	-9.99207
▁post	-9.99229
▁ஒற்றை	-9.99314
ிடமும்	-9.99317
ணு	-9.99327
▁பாருங்க	-9.99374
ெய்	-9.99392
▁வார்த்தைகள்	-9.99396
▁சுகாதார	-9.9941
▁நிறுவனத்தின்	-9.99418
▁தொடங்கி	-9.99432
▁உறை	-9.99563
▁ஆவண	-9.99588
ass	-9.99623
▁அனைவர	-9.99628
▁இவரை	-9.99629
09	-9.99662
▁su	-9.99669
▁வரிகள்	-9.99689
ism	-9.99734
▁தள்ளி	-9.99837
த்திற்கான	-9.99887
▁அணை	-9.99913
▁பார்த்துக்	-9.99926
▁க்கான	-9.99936
▁பயன்பாடு	-9.99937
▁ஞாபக	-9.99976
▁குறிச்சொல்	-9.99985
87	-10.0004
▁si	-10.0007
▁ஆனந்த	-10.0012
▁கிரக	-10.0017
▁நற்	-10.0019
mp	-10.0027
▁ஹோ	-10.003
▁அதனால்தான்	-10.003
அதை	-10.0032
▁சேர்	-10.0039
▁பக்கத்தில்	-10.004
ியுள்ளார்	-10.004
க்காரர்	-10.0041
▁முடிவுகள்	-10.0043
▁பெண்ணை	-10.0043
▁விடுமுறை	-10.0046
▁இழப்ப	-10.0047
▁அறிவிப்ப	-10.0048
கொண்டு	-10.0049
▁லூ	-10.0049
▁செய்யப்பட்டது	-10.005
▁ஆதி	-10.0052
▁வாழ்வை	-10.0057
▁இருந்திருக்க	-10.0061
▁வியாபார	-10.0071
▁உர	-10.0076
▁இருங்கள்	-10.0082
▁விஜய்	-10.0086
▁ஒத்து	-10.0086
▁us	-10.009
▁யாரையும்	-10.0091
▁பார்க்கலாம்	-10.0099
▁உட்பட	-10.0102
▁வராது	-10.0107
▁x	-10.0108
▁இதையடுத்து	-10.0112
ப்போகிற	-10.0114
▁பேட்டி	-10.0116
▁பதிவில்	-10.0117
▁was	-10.0119
▁கூறுவார்கள்	-10.0119
ide	-10.0119
▁தலைமுறை	-10.012
▁வாக்குறுதி	-10.012
▁தீர்க்க	-10.0123
ON	-10.0125
▁பொதுவான	-10.0125
வெளி	-10.013
▁கனி	-10.0132
▁வருகிற	-10.0134
▁கொள்	-10.014
▁about	-10.0146
▁பையன்	-10.0152
▁சந்திப்ப	-10.0158
IS	-10.016
69	-10.0176
▁We	-10.0178
▁ப்ர	-10.0179
▁உதாரணமாக	-10.0181
▁கதைகள்	-10.0182
▁நாணய	-10.0192
=	-10.0195
வர்களிடம்	-10.0197
66	-10.0198
▁வேலைக்கு	-10.0202
▁அத்துடன்	-10.0205
சல்	-10.0208
▁எதிர்பார்த்த	-10.021
ர்களின்	-10.021
▁செய்தேன்	-10.0212
ளவில்	-10.0213
▁like	-10.0219
hy	-10.0225
மின்றி	-10.0226
▁நாடிய	-10.0227
▁முதன்மை	-10.0228
▁வெவ்வேறு	-10.0228
▁உறுதிப்படுத்த	-10.0229
▁கூட்டு	-10.0231
▁படங்களை	-10.0237
▁ஆகையால்	-10.0237
▁காற்று	-10.0244
▁மாற்றங்கள்	-10.0246
▁அதிகரிக்க	-10.0246
கின்றனர்	-10.0247
▁32	-10.0249
ஃபி	-10.0249
ென்ற	-10.0251
மையான	-10.0252
பெண்	-10.0252
▁time	-10.0252
▁கதவு	-10.0254
ிங்	-10.0258
▁கற்ற	-10.0258
க்கொள்	-10.0259
▁அடியார்	-10.0259
▁Vi	-10.0262
குமார்	-10.0272
▁ஜாதி	-10.0272
ஏன்	-10.0273
▁குறிப்புகள்	-10.0275
▁எழுத்தாளர்	-10.028
▁ஈர	-10.0283
▁but	-10.0284
▁தெரு	-10.0286
▁மல	-10.0287
ிருந்தாலும்	-10.0296
▁எக்ஸ்	-10.0296
90	-10.0298
▁வெளியில்	-10.03
▁கற்று	-10.0301
▁நம்பிக்கையை	-10.0303
▁தோட்ட	-10.031
வாத	-10.031
லியா	-10.0312
▁தக	-10.0319
68	-10.032
▁உலகத்தில்	-10.0333
▁ஒப்பிட	-10.0336
யிருக்கும்	-10.0339
ளோ	-10.0339
ோரை	-10.034
▁மேற்பட்ட	-10.034
இல்	-10.0343
ip	-10.0344
ீர்களோ	-10.0344
▁ஜே	-10.0344
ual	-10.0348
fe	-10.0348
.........	-10.035
▁முடித்து	-10.0352
▁பல்கலைக்கழக	-10.0354
▁கொடுமை	-10.0359
▁சொன்னான்	-10.0362
மைப்பு	-10.0373
ஹு	-10.0373
▁Bo	-10.0375
▁Pa	-10.0377
od	-10.0378
ெடுத்த	-10.0379
ங்களுடன்	-10.0388
▁அளிப்ப	-10.039
▁தர்ம	-10.0392
▁வாழ்த்து	-10.0393
▁கொள்வது	-10.0394
▁di	-10.0394
Q	-10.04
▁பெரிதாக	-10.0403
TH	-10.0405
▁சம்பவம்	-10.041
▁மனிதர்களை	-10.0414
▁லீ	-10.0414
▁விரைவாக	-10.0415
▁இலை	-10.0415
▁விஷயத்தை	-10.0415
▁எப்படியோ	-10.0415
▁உறுப்பினர்	-10.0425
▁(19	-10.0426
▁தற்போதைய	-10.0426
▁பெண்களை	-10.0426
▁கல்	-10.0428
▁அல்லாத	-10.0432
▁நண்பன்	-10.0432
▁முன்னாள்	-10.0434
▁கைவிட	-10.0436
▁ஆழ	-10.0437
▁எதுவுமே	-10.0441
▁ஜோடி	-10.0449
▁கதையை	-10.0449
▁கொடு	-10.045
▁துயர	-10.0452
▁உறவினர்	-10.0453
▁ஆனது	-10.0454
bi	-10.0455
king	-10.0459
▁எதிரான	-10.0462
பார	-10.0462
▁நவம்பர்	-10.0463
▁அம	-10.0471
▁ஆரோக்கிய	-10.0472
ுள்ளோம்	-10.0481
▁வைத்திருந்த	-10.0486
ோட்ட	-10.0488
ல்லாஹ்	-10.0493
▁எண்ணம்	-10.0493
ரையும்	-10.0494
▁வீடியோக்கள்	-10.0497
▁நு	-10.0498
அல்லாஹ்வின்	-10.0499
▁புதுப்பிக்க	-10.0504
ந்தான்	-10.0506
வச	-10.0507
27	-10.051
▁புலி	-10.0513
▁கடித	-10.0515
வரிடம்	-10.0516
▁காயம்	-10.0517
▁கடிதம்	-10.0518
▁கம்ப	-10.0521
▁எத்தனையோ	-10.0522
▁மீட்ட	-10.0523
த்தினால்	-10.0524
ீங்களா	-10.0524
▁வானம்	-10.0524
nt	-10.0529
▁இறைவனுக்கு	-10.053
▁ஈழ	-10.0532
ness	-10.0533
த்தக்க	-10.0538
▁பின்வரும்	-10.0551
வரி	-10.0554
!''	-10.0555
ளே	-10.056
▁சுருக்க	-10.0564
▁கொள்ளவும்	-10.0567
land	-10.0567
▁காக்க	-10.0568
▁பிரே	-10.0568
▁உற்சாக	-10.0571
55	-10.0571
ுக்கே	-10.0575
▁குறு	-10.0576
டீ	-10.0577
da	-10.0577
ிப்பது	-10.0579
▁மார்க்க	-10.0579
▁up	-10.0582
▁வழிகாட்டி	-10.0582
▁மூன்றாம்	-10.0582
▁நிரூபிக்க	-10.0584
ial	-10.0584
su	-10.0589
▁லெ	-10.0592
ந்தார்	-10.0595
air	-10.0596
▁ரத்த	-10.0598
ach	-10.0605
மைய	-10.0607
▁ஸ்க	-10.061
ுவதே	-10.0613
:10	-10.0618
▁கூறுகிறார்கள்	-10.062
▁மறைக்க	-10.0621
▁வேறுபாடு	-10.0635
▁விளக்கு	-10.0641
▁கிருஷ்ண	-10.0642
▁La	-10.0647
▁வாசக	-10.0648
▁நினைத்தேன்	-10.065
ங்கோ	-10.065
▁இருக்கின்ற	-10.0654
▁இறங்கி	-10.0655
▁நகை	-10.0656
▁ஆகிறது	-10.0656
களிடமிருந்து	-10.0657
▁ஆசி	-10.066
▁முழுக்க	-10.0663
▁கடவுளுக்கு	-10.0668
▁சொல்கிறேன்	-10.0672
▁வெளியேற்ற	-10.0673
▁Lo	-10.0673
49	-10.0674
▁ஆப்	-10.0676
னையும்	-10.0679
ell	-10.0681
ுகிறாள்	-10.0683
▁மகிழ்ச்சியாக	-10.0686
▁Po	-10.0687
யிட்ட	-10.0689
ப்பட்டால்	-10.069
▁ஐயா	-10.0691
▁All	-10.0696
▁பாக	-10.0697
▁மனு	-10.07
▁பாதுகாப்பாக	-10.0711
ிடு	-10.0711
▁முக்கியம்	-10.0711
sh	-10.0713
▁2020	-10.0715
▁வேடிக்கை	-10.0719
குழந்தை	-10.0726
▁கூப்பிட	-10.0726
ுகின்றேன்	-10.0727
▁அசை	-10.0729
▁உண்ண	-10.073
!!!	-10.0744
▁ஊர	-10.0748
▁அவரைப்	-10.0751
ிருந்தனர்	-10.0751
ப்போல	-10.0752
hen	-10.0755
▁God	-10.0756
ருக்க	-10.0756
வற்ற	-10.0762
▁மனநிலை	-10.0763
▁செய்வதற்கு	-10.0763
▁சமீபத்தில்	-10.0765
▁ஏற்று	-10.0771
▁!!	-10.0774
96	-10.0778
▁இயந்திரம்	-10.0782
வர்களே	-10.0784
▁ஆர்வ	-10.0789
▁இருக்கின்றது	-10.079
▁அமைந்த	-10.0791
EN	-10.0791
▁அறிமுக	-10.0793
.’’	-10.0795
▁எவ்வித	-10.0797
07	-10.0797
▁விவசாய	-10.0806
▁மாட்டோம்	-10.0807
▁வேதனையும்	-10.0807
க்கிறேன்	-10.0817
▁குதிரை	-10.0818
▁பொறுத்தவரை	-10.082
▁சொற்	-10.0821
▁உண்டாக்க	-10.0822
▁வென்ற	-10.0823
திரு	-10.0823
▁ரசிகர்	-10.0829
▁வசனம்	-10.083
98	-10.0831
65	-10.0832
▁கைகளை	-10.0834
▁துப்பாக்கி	-10.0834
ree	-10.0834
▁சேமிக்க	-10.0837
▁Day	-10.0838
▁தயாரிப்புகள்	-10.0838
▁சொல்லுங்கள்	-10.0843
▁ஹிட்ஸ்	-10.0847
▁need	-10.0848
▁ஆணைய	-10.0852
48	-10.0853
வங்க	-10.0855
ிருப்பார்கள்	-10.0856
▁What	-10.0856
▁வழிபட	-10.0859
▁தீபாவளி	-10.0862
500	-10.0864
▁இஸ்ரேல்	-10.0864
▁படு	-10.0866
▁அறு	-10.0871
▁வெளியீடு	-10.0873
ஜீ	-10.0874
ர்களுக்கு	-10.0874
ேனே	-10.0879
▁அமைய	-10.088
▁ஆட்	-10.0881
rd	-10.0883
29	-10.0883
யிருந்த	-10.0885
▁பனி	-10.0885
▁நோயாளி	-10.0886
old	-10.089
ப்பகுதி	-10.0893
43	-10.0894
▁பிரதி	-10.0901
தாவது	-10.0902
ேஷ்	-10.091
go	-10.0913
▁இப்னு	-10.0913
▁எளிதான	-10.0916
▁சாய்	-10.0919
▁கீழ	-10.0922
▁நஷ்ட	-10.0923
▁`	-10.0923
▁தத்துவ	-10.0927
▁பகிர	-10.0936
▁கோபம்	-10.0937
▁ரகசிய	-10.0938
▁Sp	-10.0938
85	-10.0943
▁தாத்தா	-10.0943
▁2010	-10.0945
பாட	-10.0947
▁நல்	-10.0947
▁பஞ்ச	-10.095
54	-10.0953
▁வளர்ந்த	-10.0954
▁மேலாக	-10.0962
ர்த்த	-10.0963
▁பழக்க	-10.0969
71	-10.0974
ST	-10.0974
▁விழி	-10.0977
ச்சே	-10.0981
அதற்கு	-10.0983
▁ஆகஸ்ட்	-10.0984
▁அறிமுகப்படுத்த	-10.0997
▁கண்டறிய	-10.0997
▁ஒதுக்க	-10.0999
▁திட்டமிட	-10.1
▁ஆற்ற	-10.1007
யடி	-10.1007
▁அவர்களால்	-10.1009
▁விருப்பம்	-10.1009
os	-10.1011
ஹீ	-10.1011
▁2009	-10.1022
▁குடும்பம்	-10.1022
▁கடுமையாக	-10.1023
ணா	-10.1023
▁தீர	-10.1029
76	-10.1029
▁இவர்களின்	-10.1032
ُ	-10.1038
qu	-10.1041
▁உரையாட	-10.1041
▁போயி	-10.1046
▁அவமான	-10.105
▁உணவ	-10.105
எல்லா	-10.1052
46	-10.1055
▁அரசாங்கம்	-10.1056
தற்க	-10.1057
▁அதிகாலை	-10.1058
▁கடல	-10.1062
▁செலவ	-10.1062
RE	-10.1063
▁கேட்டேன்	-10.1064
▁நாடக	-10.1064
▁தொடர்புடைய	-10.1068
▁இவருக்கு	-10.1069
ron	-10.107
▁பிரதமர்	-10.1075
▁கார	-10.1078
▁மற	-10.1079
▁நேசிக்க	-10.1081
▁குறிப்பிடத்தக்க	-10.1083
▁பகை	-10.1087
▁தமிழர்கள்	-10.1087
▁மாட்டான்	-10.109
▁வந்தனர்	-10.1095
▁முத்த	-10.1095
நே	-10.1096
ாகிய	-10.1096
▁மார்	-10.1101
ுகிறீர்களா	-10.1102
▁எண்ணெய்	-10.1103
▁man	-10.1106
▁அச	-10.1106
ஸ்டர்	-10.1107
▁நுழைய	-10.1109
ிற்கான	-10.1111
▁உணர்ச்சி	-10.1123
▁Ho	-10.1126
▁மதம்	-10.1127
யினர்	-10.1131
▁what	-10.1132
முடியாத	-10.1143
▁மருத்துவர்	-10.1151
ுவத	-10.1158
▁உடல	-10.1158
▁எதிர்கால	-10.1166
வர்களா	-10.1168
▁போகிறேன்	-10.1169
ake	-10.1172
▁வழங்கிய	-10.119
▁வாய்ந்த	-10.1191
ிருந்து	-10.1196
ாரே	-10.1197
▁வருடங்களாக	-10.1205
▁வீச	-10.1211
▁இளைய	-10.1212
▁செய்தியை	-10.1215
▁90	-10.1218
ுவதன்	-10.122
யர்கள்	-10.1225
▁இன்னமும்	-10.1232
▁இலக்க	-10.1237
53	-10.1237
வாச	-10.1239
ெடுத்து	-10.1241
▁தருண	-10.1242
▁ரசிகர்கள்	-10.1245
che	-10.1246
இன்னும்	-10.1249
ிருக்கின்றன	-10.1251
mb	-10.1252
▁உயர்த்த	-10.1253
▁தொழில	-10.1254
▁கருப்பு	-10.1256
மையாக	-10.1256
▁அமை	-10.1257
58	-10.1258
▁ch	-10.1259
▁அழைத்துச்	-10.1263
▁ஆவார்	-10.1265
▁வேண்டாமா	-10.1274
▁பாஸ்	-10.1276
▁கொண்டிருப்ப	-10.1276
ப்போம்	-10.1277
▁எதற்கு	-10.1285
▁போனஸ்	-10.1288
▁கவனித்த	-10.129
be	-10.1295
▁நியாயமான	-10.1297
89	-10.1297
▁கவிஞர்	-10.13
▁சூப்பர்	-10.13
▁பாடல்கள்	-10.1303
▁நேரில்	-10.1306
தலை	-10.1307
▁கிரா	-10.131
ost	-10.131
▁பெயர்கள்	-10.1315
▁கொடுத்தார்	-10.1315
97	-10.1322
▁Ba	-10.1329
ak	-10.1331
▁நீதிமன்ற	-10.1334
ூட்ட	-10.1335
ps	-10.1335
▁பேச்ச	-10.1336
03	-10.1338
▁செய்கிறேன்	-10.1347
▁அடிக்க	-10.1354
▁ஆகிவிட	-10.1358
▁தரம்	-10.1358
▁மற்றவர்	-10.1359
▁தட்ட	-10.1363
br	-10.1363
யாளர்கள்	-10.1363
▁காது	-10.1364
▁மாமா	-10.1365
▁விளைவு	-10.1369
சில்	-10.1371
▁விபர	-10.1378
▁அதிகாரம்	-10.1381
▁மறுபடியும்	-10.1382
ின்றேன்	-10.1387
▁துண்டு	-10.139
▁துறையில்	-10.1395
▁அடாப்டர்	-10.1395
06	-10.1397
▁en	-10.1398
▁Di	-10.1399
▁மேற்	-10.1404
io	-10.141
▁வைக்கும்	-10.1412
▁நாங்களும்	-10.1416
▁பொருள	-10.142
கின்றது	-10.142
▁விசா	-10.1422
▁ஆபத்து	-10.1422
▁கிருபை	-10.1426
▁வண்டி	-10.1426
▁அவற்றில்	-10.1427
▁வருமான	-10.1427
ற்கு	-10.1432
▁ஆண்டவர்	-10.1433
UR	-10.1434
சங்க	-10.1437
▁அட்டவணை	-10.1438
▁செய்தனர்	-10.145
களுடைய	-10.145
▁காரணங்கள்	-10.1454
▁மற்றவர்களுக்கு	-10.1455
72	-10.1455
▁மரணத்தை	-10.146
▁கிடந்த	-10.1462
விட்டன	-10.1464
▁பத்திரிகை	-10.1466
▁முகத்தில்	-10.1467
▁ஆத்மா	-10.1468
▁ஞாபகம்	-10.1469
▁Pri	-10.1469
▁புதிதாக	-10.147
▁விரும்புகிறார்	-10.1471
▁சூடான	-10.1473
▁ஆற்றல்	-10.1475
வூ	-10.1479
▁Man	-10.148
▁நடைபெற	-10.148
▁செய்வோம்	-10.1481
▁நிகழ்வுகள்	-10.1487
▁வது	-10.1489
▁வாழ்வின்	-10.149
▁ஆரம்பிக்க	-10.1498
▁மாகாண	-10.1503
செய்த	-10.1507
▁முன்னே	-10.1508
▁காணவில்லை	-10.1513
▁பூனை	-10.1515
▁மகிழ்ந்த	-10.152
▁பாத்திர	-10.1522
75	-10.1523
▁இன்ப	-10.1526
பிற	-10.1527
▁அவளுடைய	-10.1533
▁மாதங்கள்	-10.1535
ந்தர்	-10.1537
▁மற்றவர்களை	-10.1537
மாற்ற	-10.154
பிள்	-10.154
ப்படுவார்கள்	-10.1544
▁செய்யப்பட	-10.1553
ரூப	-10.1554
ப்போன	-10.1555
த்தேன்	-10.156
▁Ra	-10.1564
▁கற்றுக்	-10.1565
▁நம்மால்	-10.1575
▁தடுத்து	-10.1577
▁உலகை	-10.1577
▁உதய	-10.158
மண	-10.158
▁அந்	-10.158
▁விபத்து	-10.1581
▁மண்	-10.1581
▁தேடும்	-10.1581
44	-10.1582
வதில்லை	-10.1587
▁அர்த்த	-10.1588
▁டிவி	-10.1591
தேச	-10.1592
▁இணையதள	-10.1597
▁அடக்க	-10.1604
▁1000	-10.1604
▁திமுக	-10.161
▁பேசுவது	-10.1614
▁ஆங்கிலம்	-10.1615
▁தாமத	-10.1615
ens	-10.1618
▁Li	-10.1622
▁200	-10.1624
▁கிரி	-10.1627
▁வெள்ள	-10.1629
▁ஸ்வ	-10.163
▁அரி	-10.1638
திலிருந்து	-10.1639
▁கூறுங்கள்	-10.164
▁சிக்கல்	-10.1645
ீரா	-10.1648
▁இன்றி	-10.1648
▁ஊழியர்கள்	-10.1649
▁மூன்ற	-10.165
▁பறவை	-10.1654
LE	-10.1655
▁முயற்சிக்க	-10.1666
▁அப்படித்தான்	-10.1666
பெற்ற	-10.167
▁சந்தித்து	-10.1672
▁இருந்தான்	-10.1685
▁ஏராளமான	-10.1686
▁முஃமின்	-10.1691
▁ஆளு	-10.1691
▁முயல	-10.1694
▁அருகே	-10.1698
ெடுப்ப	-10.1701
▁அணு	-10.1702
31	-10.1703
▁உடலை	-10.1706
red	-10.1707
▁மதிய	-10.1708
யீ	-10.1709
லிருந்து	-10.1713
▁அருந்த	-10.1714
▁சிங்கள	-10.1721
42	-10.1725
art	-10.1725
▁விவாத	-10.1728
▁தோல்	-10.1729
▁குழாய்	-10.1731
▁பகல	-10.1731
த்திரி	-10.1732
▁தாண்டி	-10.1735
▁உள்ளிட்ட	-10.1736
▁My	-10.1742
▁புகார்	-10.1743
வைத்த	-10.1746
▁மடி	-10.1747
▁மனிதனுக்கு	-10.1753
▁போவதில்லை	-10.1753
▁சாமி	-10.1753
▁தூர	-10.1756
▁இரட்டை	-10.1758
▁என்பவர்	-10.1759
wi	-10.1762
▁சான்றிதழ்	-10.1763
word	-10.1766
▁THE	-10.1767
ருள்	-10.1767
▁Read	-10.1767
அல்லது	-10.1769
▁நிகழ்	-10.1772
▁பிள	-10.1772
▁ரூபாய்	-10.1772
▁எங்களிடம்	-10.1774
City	-10.1774
▁வெட்டி	-10.1774
ாராம்	-10.1774
▁செய்தார்கள்	-10.1774
▁ஏப்ரல்	-10.1777
▁என்றேன்	-10.1777
▁தொடர்பாக	-10.178
▁வயதான	-10.178
▁சந்திரன்	-10.1782
▁அதிகபட்ச	-10.1783
▁கோவில்	-10.1783
▁So	-10.1784
▁கைய	-10.1786
▁பிரதான	-10.1787
செய்	-10.1791
▁கணக்க	-10.1793
ரங்க	-10.1795
ust	-10.1796
▁முஸ்லீம்	-10.1797
ரச	-10.1797
mon	-10.1802
▁படைத்தான்	-10.1806
▁வழக்க	-10.181
னால	-10.181
▁இருந்தோம்	-10.181
ING	-10.1815
▁மகிமை	-10.1817
▁ரெண்டு	-10.1819
▁It	-10.1822
▁விவகார	-10.1823
ore	-10.1828
றீங்க	-10.183
ர்ந்து	-10.1831
▁மதிப்ப	-10.1836
▁முதலாவது	-10.1837
▁ஐக்கிய	-10.1839
ாதீர்	-10.1839
தொ	-10.1845
▁விமானம்	-10.1845
▁தக்க	-10.1849
78	-10.185
▁நாட்களாக	-10.1852
▁புர	-10.1857
▁அபிவிருத்தி	-10.1861
▁புகைப்பட	-10.1863
ated	-10.1866
▁காட்டிய	-10.187
▁வாசனை	-10.1878
▁உட	-10.1881
▁வெடி	-10.1884
▁36	-10.1885
▁நூ	-10.1886
▁இடைவெளி	-10.1887
▁பதிப்ப	-10.1889
டாக	-10.1889
ாலோ	-10.189
▁எழுதப்பட்ட	-10.1892
▁ஒற்றுமை	-10.1893
▁மெதுவாக	-10.1896
▁does	-10.1897
மாற	-10.1898
கிறார்	-10.1899
▁வெளிவந்த	-10.1903
ton	-10.1908
▁சத்ய	-10.1909
▁மேற்கொள்ள	-10.1909
ப்பர்	-10.1916
ள்ளே	-10.1923
▁முட்டாள்	-10.1923
▁ஒன்	-10.1925
ணர்	-10.1928
▁45	-10.1928
நாயக	-10.1931
41	-10.1931
▁சந்தேகம்	-10.1932
▁அவரால்	-10.1933
ES	-10.1936
▁தரமான	-10.1937
▁சும்மா	-10.1937
▁ப்ள	-10.1938
▁cl	-10.1939
▁குர்ஆன்	-10.1939
▁ஏறி	-10.194
04	-10.1943
▁ஆல்	-10.1952
▁காண்பிக்க	-10.196
▁வருகிறார்கள்	-10.1963
▁ஆலய	-10.1963
▁ஆடு	-10.1964
ET	-10.1966
▁நெருப்ப	-10.1971
91	-10.1972
அவ	-10.1976
log	-10.1982
வரையும்	-10.1983
ின்றோம்	-10.1983
▁குழந்தைக்கு	-10.1984
▁யோக	-10.1992
▁தட	-10.1994
▁மேக	-10.1996
▁டிசம்பர்	-10.1997
வதி	-10.1997
▁பரிந்துரை	-10.1998
▁வெட்ட	-10.1999
▁அகல	-10.2008
▁துவக்க	-10.201
▁இடையில்	-10.2012
▁அச்சிட	-10.2016
▁நிச்சய	-10.2019
▁கோயில்	-10.2023
bu	-10.2026
▁உள்ளதா	-10.2037
யுமே	-10.2037
▁விளைவுகள்	-10.2041
َا	-10.2041
▁அளவை	-10.2042
ld	-10.2043
ளித்த	-10.2044
வருடைய	-10.2048
▁டிரா	-10.2049
▁காத்த	-10.205
▁இல்லாவிட்டால்	-10.205
▁ஊக்க	-10.2052
▁70	-10.2054
▁விட்டான்	-10.2057
34	-10.2058
▁ஆயுத	-10.2064
▁அழிந்து	-10.2067
விர	-10.2069
▁அடித்து	-10.207
▁பின்னூட்ட	-10.2071
▁மருத்துவமனை	-10.2073
சார	-10.2076
▁இழுத்து	-10.2077
ஸில்	-10.208
கரு	-10.2085
▁முதன்	-10.2087
lk	-10.2089
▁பலரும்	-10.2091
▁மட்ட	-10.2094
▁தீர்மான	-10.2097
▁என்கிறார்கள்	-10.2097
▁பரிச	-10.2098
▁பிரச்சினைகள்	-10.2099
▁உள்ளடக்க	-10.21
row	-10.2101
▁உன்னுடைய	-10.2104
▁கோண	-10.2105
ய்யா	-10.2105
▁ஆர்வம்	-10.2108
▁பல்ல	-10.2108
▁சமாதான	-10.2113
▁இடத்தைப்	-10.2113
▁விரு	-10.2113
▁கூடுதலாக	-10.2114
வைத்து	-10.2115
▁நண்பர	-10.2116
வனின்	-10.2118
▁பழக	-10.2119
▁கூறுகிறது	-10.2122
▁செய்பவர்	-10.2123
▁கிடைக்கவில்லை	-10.2125
நம்பிக்கை	-10.2126
▁கேள்விக்கு	-10.2126
▁Ar	-10.2129
ாட	-10.2131
ிடையே	-10.2136
▁இதற்கான	-10.2137
▁என்பார்கள்	-10.2137
▁Bi	-10.214
▁குவி	-10.2142
நன்றி	-10.2145
▁love	-10.2146
ிருக்கிறீர்கள்	-10.2151
▁80	-10.2155
oss	-10.2157
▁அக்கறை	-10.2159
▁புத்தகங்கள்	-10.2164
▁மனிதனின்	-10.2169
▁ரஷ்யா	-10.2172
://	-10.2176
▁வாத	-10.2179
▁விநியோக	-10.218
பேசி	-10.2181
▁கொடுக்கும்	-10.2181
▁ஆய்வ	-10.2182
▁கிட்டத்தட்ட	-10.2182
ft	-10.2191
▁கேட்கும்	-10.2194
▁இப்படித்தான்	-10.2197
▁நிர்வாக	-10.2198
ாலேயே	-10.2198
▁காய்	-10.2201
▁சான்று	-10.2202
▁தீர்ப்ப	-10.2204
▁இத்த	-10.2206
pl	-10.2209
▁பாணி	-10.2211
▁விடுவார்கள்	-10.2211
▁நாட்டை	-10.2217
ீர	-10.222
▁மன்னித்த	-10.2225
▁தந்தையின்	-10.2227
▁ta	-10.2228
ிடும்	-10.2233
▁நிரந்தர	-10.2237
இரு	-10.2242
பொழுது	-10.2243
கிறான்	-10.2243
▁குறைந்தது	-10.2244
▁சொல்கிறார்	-10.2244
gi	-10.2247
▁யோசிக்க	-10.2247
▁புரியும்	-10.225
▁தோன்றும்	-10.2251
▁விவர	-10.2252
யடைந்த	-10.2252
▁கொள்கிற	-10.2253
▁வளை	-10.2262
ிடமே	-10.2263
▁யுத்த	-10.2263
▁தேவதை	-10.2268
CE	-10.2276
ome	-10.2276
▁Post	-10.2281
▁என்றார்கள்	-10.2281
▁புகை	-10.2284
▁ஜூ	-10.2285
▁நே	-10.2286
படும்	-10.2286
▁கூட்டணி	-10.2288
▁நோக்கம்	-10.2293
▁வருந்த	-10.2296
▁இரகசிய	-10.2301
▁குழந்தையின்	-10.2303
▁எளிதானது	-10.2304
▁கட்டணம்	-10.2307
வியல்	-10.2308
▁அம்ச	-10.2309
கரமான	-10.2311
▁100%	-10.2323
▁li	-10.2326
PS	-10.2327
▁காரியம்	-10.2331
94	-10.2334
ப்படுகிற	-10.2336
உலக	-10.2337
tra	-10.2341
▁நபர	-10.2344
▁பாட்டி	-10.2345
யெ	-10.2347
▁பரிமாற்ற	-10.2349
ென்	-10.2353
▁இலவசமாக	-10.2354
ரஹ்	-10.2355
ous	-10.2356
▁ஃபி	-10.2357
ka	-10.236
ஞ்	-10.2362
ருக்கும்	-10.2362
▁வெள்ளி	-10.2362
▁கையாள	-10.2366
▁செலவிட	-10.237
காட்டி	-10.2374
▁பாதிக்க	-10.2374
▁சமூகம்	-10.2377
க்கொண்டிருந்த	-10.2377
▁2008	-10.2378
காலம்	-10.238
▁வேண்டுமானாலும்	-10.2385
▁நம்மிடம்	-10.2385
▁மாணவ	-10.2387
▁செய்வார்கள்	-10.2389
▁ராசி	-10.2391
▁la	-10.2394
▁செய்வேன்	-10.2395
tro	-10.2396
▁கவனித்து	-10.2396
▁அவ்	-10.24
▁New	-10.2402
▁ஆசிரியர்கள்	-10.2404
▁சுத்தம்	-10.2404
▁(2	-10.2408
▁மனோ	-10.2409
▁இருக்கின்றனர்	-10.2411
▁வாங்கிய	-10.2411
▁அப்துல்	-10.2411
▁என்னவோ	-10.2416
▁அதிலிருந்து	-10.2418
‘	-10.2421
▁வெளிப்படையாக	-10.2426
▁CO	-10.2428
▁எதற்காக	-10.2428
▁இருக்கவில்லை	-10.2431
▁சார	-10.2431
▁நாடி	-10.2432
▁கும்ப	-10.2435
▁வழக்கமான	-10.244
▁எல்லோர	-10.2446
▁தேடல்	-10.2448
▁சத்தியமா	-10.2448
▁முடிவை	-10.2449
▁அறிவை	-10.2451
▁தாழ்	-10.2452
▁கூறுகிறான்	-10.2454
▁உயிரிழந்த	-10.2455
73	-10.2457
▁has	-10.2458
▁செயல்களை	-10.2459
▁கூறியதாவது	-10.2468
▁article	-10.2469
▁தங்களுடைய	-10.2471
வேண்டாம்	-10.2477
▁கொண்டிருக்கும்	-10.248
▁உபயோக	-10.248
யளிக்க	-10.248
▁உள்ளார்	-10.248
ற்றை	-10.2482
ாக்கி	-10.2486
▁One	-10.2486
ட்ரோ	-10.2487
▁வினை	-10.2492
▁பின்னணி	-10.2492
AS	-10.25
தற்	-10.2505
▁இருக்கா	-10.2514
▁மறைந்த	-10.2516
சியா	-10.2517
▁World	-10.2519
ful	-10.252
ase	-10.2523
▁ஒப்பந்த	-10.2523
ுவாயாக	-10.2527
ுபவன்	-10.253
▁சோக	-10.2531
ோன்	-10.2532
இப்போது	-10.2535
▁நியாயம்	-10.2535
▁500	-10.2536
▁லோ	-10.2539
▁தயங்க	-10.2539
▁கப்பல்	-10.2541
▁தொழ	-10.2543
▁புகழ	-10.2547
▁சூழல்	-10.2548
▁முன்னேற	-10.2549
▁சுட	-10.2555
வார்கள்	-10.256
▁வரவேற்க	-10.2564
▁கிள	-10.2565
▁தோழர்	-10.2566
▁சுட்டி	-10.2568
▁தோன்றுகிறது	-10.2572
▁சமீபத்திய	-10.2575
▁33	-10.2576
▁அக்டோபர்	-10.2576
▁Mar	-10.2577
ப்பட்டனர்	-10.2578
92	-10.2582
▁அதிலும்	-10.2585
▁என்னையும்	-10.2585
▁நுழைந்த	-10.2586
▁நிற்ப	-10.2589
▁ஒருவருக்கு	-10.2591
▁திட்டத்தை	-10.2593
:17	-10.2593
si	-10.2594
லிய	-10.2596
▁தெளி	-10.2602
மென்	-10.2606
▁பிரிக்க	-10.2606
▁இடது	-10.2609
▁உண்மைதான்	-10.2612
▁மீட்க	-10.2622
ஃபா	-10.2623
▁சொல்கிற	-10.2624
▁ஜனநாயக	-10.263
▁ho	-10.2637
▁இருப்பேன்	-10.2638
பரி	-10.2639
▁பாக்கிய	-10.264
▁சரண	-10.2642
ms	-10.2646
ood	-10.2648
தோடு	-10.2651
திலும்	-10.2651
51	-10.2654
▁நடிப்ப	-10.2654
▁முன்னணி	-10.2654
▁கொண்டால்	-10.2654
▁பரிசோதனை	-10.2656
▁வணக்கம்	-10.2657
▁மாட்டார்	-10.2658
SS	-10.266
iv	-10.266
விட்டார்கள்	-10.266
rt	-10.266
:13	-10.2661
ever	-10.2663
கிறார்கள்	-10.267
▁சாக	-10.2671
▁வெண்	-10.2671
▁ட்ர	-10.2671
ாதது	-10.2672
▁நகரம்	-10.2672
▁தங்கி	-10.2675
pi	-10.2679
▁ஆன்மா	-10.268
ிற்கும்	-10.2681
ிருப்பதை	-10.2684
▁வேகம்	-10.2685
▁காணும்	-10.2686
வந்து	-10.269
யாளர	-10.2694
▁துக்க	-10.2696
▁day	-10.2696
▁அவைகளை	-10.2702
▁world	-10.2704
க்கொண்டே	-10.2704
▁pre	-10.2705
▁பிரதேச	-10.2705
▁தனித்த	-10.2706
▁நன்மைகள்	-10.2707
▁ஒவ்வொருவரும்	-10.2708
▁நிபுணர்	-10.271
74	-10.2713
▁சந்ததி	-10.2716
▁எதிர்த்து	-10.2724
ிலிருந்தே	-10.2724
▁பொறுத்த	-10.2726
ID	-10.2729
ob	-10.2729
▁வால்	-10.2732
▁கட்டுப்பாடு	-10.2732
▁ஆராய	-10.2734
▁பொறுத்து	-10.2734
▁ஏர்	-10.2735
▁வழக்கம்	-10.2739
iz	-10.2744
▁OF	-10.2747
பொ	-10.275
▁முக்கியமாக	-10.2751
▁அபி	-10.2752
gu	-10.2753
▁வட்டி	-10.2755
▁கூறினர்	-10.2756
ther	-10.2758
▁பதிவுகளை	-10.2769
▁தூங்கி	-10.2772
▁நாளாக	-10.2776
act	-10.2776
▁சிரித்த	-10.2778
▁``	-10.2778
▁அமர்ந்த	-10.2778
▁செஞ்ச	-10.2779
▁மருந்த	-10.2784
dy	-10.2787
▁நேர்மையான	-10.2787
au	-10.2789
▁நக	-10.2789
▁எப்போ	-10.28
▁நிறைவு	-10.28
ூரில்	-10.2808
▁தேவைப்படும்	-10.2809
▁மலக்கு	-10.2816
61	-10.2821
▁வீடுகள்	-10.2822
dia	-10.2823
▁எளிமையான	-10.2827
▁முக்கியமானது	-10.2836
▁ஆகா	-10.284
க்ஷ	-10.2844
▁அவர்கள	-10.2845
▁மதிப்பீடு	-10.285
tain	-10.2862
▁தமிழகத்தில்	-10.2868
▁அழுத்தம்	-10.2869
93	-10.2873
▁இழை	-10.2877
னெ	-10.2877
▁இலங்கையில்	-10.2879
▁முடிவுக்கு	-10.2881
▁வைத்திருப்ப	-10.2883
▁எடுக்கும்	-10.2888
▁பாராட்டு	-10.2888
▁காஃபிர்கள	-10.289
ிருங்கள்	-10.2895
னான	-10.2895
▁ஏற்படுத்தி	-10.2899
▁நதி	-10.2901
▁என்பதற்கு	-10.2902
▁எல்லாப்	-10.2904
▁தவறுகளை	-10.2904
▁தற்	-10.2906
▁அன்ன	-10.2907
▁தொழுகை	-10.291
▁வரைபடம்	-10.2912
ock	-10.2912
பட்டு	-10.2913
்ரீ	-10.2918
▁இதுகுறித்து	-10.2922
வோம்	-10.2923
▁முடிவில்	-10.2928
:11	-10.2929
▁உறுதியான	-10.293
AM	-10.2932
▁அடித்த	-10.2933
▁தோன்றியது	-10.2937
▁பதிவிறக்கம்	-10.2937
▁தானா	-10.2941
▁சொன்னார்கள்	-10.2945
▁சென்னையில்	-10.2947
ுவோர்	-10.295
▁ஹே	-10.2952
றிவு	-10.2958
▁சென்	-10.2961
▁அளவிற்கு	-10.2961
தொரு	-10.2963
த்தீ	-10.2971
▁வளர்க்க	-10.2973
we	-10.2975
ுக்குள்	-10.2976
▁போன்	-10.2977
▁கிடைக்கிறது	-10.2977
rit	-10.2979
79	-10.298
கண்ட	-10.2981
சிங்	-10.2981
▁மதுரை	-10.2981
▁சொன்னா	-10.2985
tu	-10.2989
▁sh	-10.2992
▁உதவியாக	-10.2994
▁பாக்க	-10.2994
▁தந்தையை	-10.2996
▁சுமை	-10.2999
▁உண்மையா	-10.3001
▁சமய	-10.3003
▁பேரு	-10.3004
▁விட்டார்கள்	-10.3012
▁ரஹ்மத்	-10.3013
▁பிசி	-10.3015
▁தாவர	-10.3016
டுக்க	-10.3017
ிப்பு	-10.3017
▁காட்டும்	-10.3017
▁கண்ணீர்	-10.3024
▁சேத	-10.3024
▁குடிக்க	-10.3024
▁மர்ம	-10.3029
▁ரசித்த	-10.3032
▁Ne	-10.3032
▁காவல்	-10.3034
▁நிறம்	-10.3034
விட்டான்	-10.3034
▁ஸலா	-10.3036
ஆஆஆஆஆஆஆஆஆஆஆஆஆஆ	-10.3037
பான	-10.3037
னுடன்	-10.3039
▁கட்டண	-10.3042
ாமலும்	-10.3044
▁சீர	-10.3045
82	-10.3046
▁மாதங்களுக்கு	-10.3048
▁புத்தி	-10.3048
▁ஊழியர்	-10.3048
▁உணர்த்த	-10.305
con	-10.3051
▁மன்ன	-10.3054
▁பூமிக்கு	-10.306
▁ஆதரிக்க	-10.3062
▁மனது	-10.3065
ச்சல்	-10.3065
Comment	-10.3068
▁Sh	-10.307
ving	-10.3072
▁வாசகர்	-10.3072
▁39	-10.3073
ங்களால்	-10.308
▁ஏக	-10.308
59	-10.3081
▁என்னோட	-10.3086
▁வேதத்தை	-10.3089
▁அநியாய	-10.3091
▁ரன்	-10.3092
ங்களுக்கும்	-10.3092
▁உதாரண	-10.3093
இன்று	-10.3096
▁கண்ணிய	-10.3099
▁Qu	-10.3099
▁உண்டாகும்	-10.3103
62	-10.3105
▁வாய்ப்ப	-10.3111
▁இனிமேல்	-10.3112
▁வலியுறுத்த	-10.3113
US	-10.3114
▁En	-10.3115
100	-10.3118
▁தூரம்	-10.312
நேரம்	-10.3122
அப்பா	-10.3123
▁வாடகை	-10.3125
do	-10.3126
▁உண்ட	-10.3127
▁போக்குவரத்து	-10.3128
டியா	-10.313
▁Ha	-10.3131
?’’	-10.3132
▁பயந்த	-10.3133
▁உட்	-10.3133
என்றும்	-10.3135
▁வெப்பநிலை	-10.3137
விலிருந்து	-10.3139
▁Q	-10.314
தியை	-10.314
க்கள	-10.3146
▁படைக்கப்பட்ட	-10.3149
ண்ணி	-10.315
63	-10.315
▁மூச்சு	-10.3151
ியிருக்கிறார்	-10.3151
▁பெற்றது	-10.3156
▁போன்றவை	-10.3157
▁கல்ல	-10.3157
optional	-10.3162
சர	-10.3163
mer	-10.3164
57	-10.3165
▁கொண்டுள்ளது	-10.3168
▁நம்பிய	-10.3168
▁கண்டேன்	-10.3169
க்காரன்	-10.317
▁போற்ற	-10.3171
▁எட்ட	-10.3176
▁நேச	-10.3177
▁கொண்டார்	-10.318
▁அப்போதுதான்	-10.3182
▁ரஹ்மான	-10.3186
வானாக	-10.3187
▁கோப்பை	-10.3187
▁அறிவேன்	-10.319
▁சுற்ற	-10.3192
▁இடங்கள்	-10.3193
▁என்பத	-10.3195
▁போவது	-10.3201
நாள	-10.3201
ுள்ளதாக	-10.3203
▁ராணுவ	-10.3205
▁sc	-10.3205
ாட்ட	-10.3206
▁தெரிவித்துள்ளார	-10.3206
▁வெற்றியை	-10.3206
ave	-10.3207
ஞான	-10.321
கூற	-10.3211
ண்மை	-10.3213
for	-10.3214
▁விடுகிறது	-10.3217
▁செயல்முறை	-10.3217
ப்பாடு	-10.3219
நாட்ட	-10.3221
▁other	-10.3225
▁உறுப்பு	-10.3229
ியவர்	-10.323
▁பொருட்	-10.3232
▁செய்வத	-10.3232
▁பாரதி	-10.3233
ark	-10.3235
பெயர்	-10.3236
ally	-10.3239
▁கிலோ	-10.3241
▁செய்தாலும்	-10.3242
▁வாச	-10.3247
▁காற்ற	-10.3251
▁நிலைக்கு	-10.3255
▁அப்படியானால்	-10.3256
க்கட்ட	-10.3258
▁விதமான	-10.3259
முதல்	-10.326
ப்பார்	-10.3261
▁34	-10.3262
▁செய்யாத	-10.3262
▁இணைந்த	-10.3264
unt	-10.3268
▁இறைவனே	-10.3271
less	-10.3273
▁மறுத்து	-10.3274
▁வலுவான	-10.3274
▁வலைப்பதிவ	-10.3283
▁கொண்டுவர	-10.3283
▁இருந்திருந்தால்	-10.3283
▁வரலாற்று	-10.3284
▁கையேடு	-10.3284
▁இம்ம	-10.3293
▁Mi	-10.3295
▁கண்களில்	-10.3298
▁காட்சிகள்	-10.3299
▁கூறுகையில்	-10.3301
▁ஷைத்தான	-10.3304
▁சமயத்தில்	-10.3312
▁வாழ்கிற	-10.3315
▁சிறுகதை	-10.3315
▁பெற்றோர	-10.3321
▁பிப்ரவரி	-10.3323
▁நேசிப்ப	-10.3323
க்கட	-10.3324
தின	-10.3325
▁முதலாளி	-10.3326
▁நெருங்க	-10.3327
▁தகவலை	-10.3327
▁முருக	-10.3329
▁உயிரின	-10.333
▁இதுபோன்ற	-10.3339
▁பதில	-10.3341
:12	-10.3342
83	-10.3348
cr	-10.3349
▁நகைச்சுவை	-10.3349
▁வகைகள்	-10.3351
▁சப்ளையர்கள்	-10.3351
▁கலவை	-10.3351
ries	-10.3352
▁புரட்சி	-10.3352
▁செப்டம்பர்	-10.3357
5%	-10.336
▁எந்தவொரு	-10.3362
▁தேவனுடைய	-10.3362
▁தெளிவு	-10.3363
▁விளையாடி	-10.3365
▁ஏற்றுக்கொள்ள	-10.3369
▁ஏனைய	-10.3371
▁ஆணை	-10.3372
றாங்க	-10.3374
▁கருவிகள்	-10.3377
▁தட்டு	-10.3377
ம்பர்	-10.3378
▁உருவாக	-10.338
▁மதிக்க	-10.3386
▁மறைத்து	-10.3387
ions	-10.3393
ن	-10.3396
▁பார்வையில்	-10.3398
ding	-10.3398
வற்றையும்	-10.3399
▁அநியாயம்	-10.3401
▁அவரு	-10.3401
யென	-10.3403
▁Un	-10.3403
▁see	-10.3406
▁தீவு	-10.3406
விட்டனர்	-10.3409
84	-10.3411
ப்படலாம்	-10.3417
▁அழித்த	-10.342
AD	-10.342
▁மறைந்து	-10.3421
யிலான	-10.3429
▁உருவாக்கிய	-10.3429
▁இதெல்லாம்	-10.3431
▁சாப்பிட்ட	-10.3434
▁ரீ	-10.3434
▁எவர	-10.3439
▁போனால்	-10.3439
▁விகிதம்	-10.3439
▁கொண்டேன்	-10.3448
▁சுத்த	-10.3449
▁உருவாக்கப்பட்ட	-10.3454
▁திராவிட	-10.3459
AC	-10.3462
▁பார்த்தது	-10.3467
▁கலந்த	-10.3467
ner	-10.3467
▁அரங்க	-10.3468
▁கடும்	-10.3468
டியில்	-10.3469
▁சேர்த்த	-10.347
52	-10.3473
▁பொருளை	-10.3475
pt	-10.3476
▁கடைசியாக	-10.3478
▁ரஜினி	-10.348
ook	-10.3481
▁அதிமுக	-10.3481
▁ஹை	-10.3481
▁இழி	-10.3482
னாய்	-10.3483
▁கதவை	-10.3486
மீன்	-10.3488
▁Wi	-10.3493
ash	-10.3493
▁உன்ன	-10.3496
▁மனிதர்களுக்கு	-10.3503
▁திட	-10.3508
▁இஸ்லா	-10.3509
▁out	-10.3511
▁வீண	-10.3519
▁குட்டி	-10.3519
▁மறுத்த	-10.352
▁கருதி	-10.3521
▁பாட்டு	-10.3522
▁மக்களிடம்	-10.3523
னீ	-10.3523
▁ad	-10.3524
▁தூய்மை	-10.3525
▁எழுது	-10.3527
cess	-10.3527
▁நீள	-10.3529
▁மன்ற	-10.3531
▁அறிவோம்	-10.3531
ுலக	-10.3532
▁வணங்கி	-10.3534
ுள்ளான்	-10.3537
▁ஆன்மீக	-10.3538
▁கடவுளே	-10.3539
ப்படுத்தும்	-10.3544
press	-10.3544
low	-10.3545
▁பேசு	-10.3545
ஜன	-10.3545
▁கடி	-10.3549
த்தோ	-10.3549
ிற்காக	-10.355
▁மந்திர	-10.3559
lic	-10.3562
▁நெடு	-10.3564
▁எழுதும்	-10.3568
களாய்	-10.357
மனிதர்	-10.3572
▁மிஸ்	-10.3575
ics	-10.3576
ration	-10.358
ஸின்	-10.3585
▁விளையாட்டுகள்	-10.3585
ory	-10.3594
▁ஸ்ட	-10.3594
▁போத	-10.3595
▁உன்னிடம்	-10.3596
▁good	-10.3597
▁வாழ்த்த	-10.3598
▁விளைவாக	-10.36
▁சிறுமி	-10.3603
▁LED	-10.3604
▁வரையில்	-10.3607
▁கேள	-10.3611
ோமே	-10.3612
▁நெருங்கிய	-10.3614
▁Per	-10.3617
▁அவ்வாறே	-10.362
▁குறுகிய	-10.3621
▁பெரிதும்	-10.3622
▁அதிசய	-10.3626
▁யாத	-10.3631
▁புதை	-10.3633
தூ	-10.3633
▁பாபா	-10.3634
▁படிப்பு	-10.3635
▁பறி	-10.3638
ative	-10.3639
▁அமர	-10.3641
▁துளி	-10.3642
▁மௌன	-10.3645
▁ஒப்பு	-10.3646
▁நடைபெறும்	-10.3647
▁சந்திப்பு	-10.3648
▁வடிவம்	-10.3649
▁பெரியார்	-10.3656
▁அரு	-10.3657
யின்றி	-10.3658
▁பார்க்கவும்	-10.3668
▁குழந்தைகளின்	-10.3669
▁வந்தபோது	-10.3671
▁காத்து	-10.3675
▁ஞானி	-10.3676
ுகிறதா	-10.3677
▁மரு	-10.3681
▁பஸ்	-10.3687
▁முற்	-10.3691
ருள	-10.3692
விடுகிறது	-10.3692
▁ஒன்னு	-10.3693
▁வாழ்க	-10.3694
ப்பே	-10.3695
▁வெட்க	-10.3696
ீட்டு	-10.3696
▁காணப்படும்	-10.3697
▁வைத்தது	-10.3697
க்கலாம்	-10.3699
▁2007	-10.3701
▁கொலையில்	-10.3701
▁கொண்டிருக்க	-10.3702
ுடனே	-10.3705
▁new	-10.3706
கையில்	-10.3706
▁நேசித்த	-10.3707
▁வழங்கி	-10.3708
ொழி	-10.3709
▁நலம்	-10.3711
ியிருக்க	-10.3713
▁அபாய	-10.3714
▁தாக்குதல்	-10.3715
▁அறையில்	-10.3716
▁மதி	-10.3725
▁சமையல்	-10.3726
▁பட்டியலில்	-10.3728
உம்	-10.373
டித்து	-10.3731
▁வாசித்த	-10.3732
▁அலங்கார	-10.3736
ins	-10.3737
காலத்தில்	-10.3738
▁நிகழ்ந்த	-10.3743
▁யாருடைய	-10.3744
ric	-10.3745
▁வெளியாக	-10.3746
lar	-10.3746
▁ஏவ	-10.3746
▁மித	-10.3747
81	-10.3747
▁பக்தி	-10.3748
▁பெற்றோர்கள்	-10.3753
▁தைரிய	-10.3754
▁வழிமுறை	-10.3754
lect	-10.3758
▁பெற்றுக்	-10.376
▁know	-10.3761
▁நினைத்தால்	-10.3761
▁கெடு	-10.3766
ிக்கொண்ட	-10.3767
▁எங்கடை	-10.3769
ov	-10.377
▁மொத்தம்	-10.3771
▁கேட்கிற	-10.3771
▁வேறொரு	-10.3772
▁தினசரி	-10.3777
▁நாலு	-10.3778
▁வரைய	-10.3778
▁அடைந்து	-10.3782
▁பிறப்ப	-10.3782
▁வடி	-10.3785
ari	-10.3785
▁காரணி	-10.379
▁இஸ்	-10.3798
cu	-10.3802
ki	-10.3802
▁தவிர்த்து	-10.3803
▁பெரும்பான்மை	-10.3804
▁பெறுவது	-10.3813
நாட்டு	-10.3815
▁இயந்திர	-10.3815
▁வைத்தார்	-10.3822
பண்ண	-10.3824
▁37	-10.3826
▁கைகளில்	-10.3826
▁கடு	-10.3827
யாவற்றையும்	-10.3828
▁அவைகள்	-10.3833
▁j	-10.3839
▁மீண்டு	-10.3839
▁ஒப்ப	-10.3843
▁இடி	-10.3847
ning	-10.3849
▁முன்னேற்ற	-10.3853
சம	-10.3855
str	-10.3856
▁அமெரிக்காவின்	-10.3856
ிருந்தன	-10.3861
▁இயல்பு	-10.3861
ராஜ	-10.3864
▁தெரிவித்து	-10.3865
ப்பாட்ட	-10.3867
▁வேல	-10.3869
▁நினைச்ச	-10.387
az	-10.3871
▁எட்டு	-10.3872
க்ஸி	-10.3873
out	-10.3873
ேஷன்	-10.3874
களிடையே	-10.3874
▁கவர்ந்த	-10.3875
▁தனிமை	-10.3878
oc	-10.3878
▁பழி	-10.388
▁தேர்தலில்	-10.388
▁app	-10.3882
▁காட்டுகிறது	-10.3887
▁பணிகள்	-10.3888
தெ	-10.389
▁பட்டு	-10.3894
ven	-10.3897
வியா	-10.3898
▁வந்தான்	-10.39
▁நினைவுக்கு	-10.3901
▁வைப்பு	-10.3901
▁அன்றைய	-10.3905
▁any	-10.3906
wa	-10.3909
▁தொடங்கியது	-10.3915
மனை	-10.3918
▁நிகழ்வ	-10.3923
▁و	-10.3927
வளை	-10.3928
▁அமைத்த	-10.3929
▁அவ்வப்போது	-10.393
▁மாற்றத்தை	-10.3931
ise	-10.3935
▁வல்லமை	-10.3936
▁கொள்கையுடன்	-10.3942
▁விசுவாச	-10.3945
ng	-10.3946
மாவது	-10.3949
▁கிளி	-10.395
▁எழுத்த	-10.3951
ப்பான்	-10.3952
▁பொருத்தமான	-10.3954
▁வளர்ந்து	-10.3954
vo	-10.3956
vers	-10.3957
▁பேசினார்களே	-10.3957
▁ஆட்டோ	-10.3957
▁சன்	-10.3959
▁கூட்டி	-10.3962
▁புன்னகை	-10.3963
▁மாறும்	-10.3965
▁சந்ததியாரின்	-10.3966
▁கருணாநிதி	-10.3966
▁பிளாஸ்டிக்	-10.3966
ிருப்பார்	-10.3967
▁அவசிய	-10.3967
▁பகுதியை	-10.3974
▁சிறுவன்	-10.3976
▁மோட்டார்	-10.3977
▁IN	-10.3978
▁கிறிஸ்த்தவர்கள	-10.3983
▁போக்க	-10.3988
▁நண்பர்களே	-10.3989
தென்று	-10.399
ங்களுக்காக	-10.3991
ாதி	-10.3992
▁Su	-10.3994
▁கவிதைகள்	-10.4
▁our	-10.4001
▁குறைவான	-10.4001
▁அரசியல	-10.4003
▁பகுதிகளில்	-10.4005
▁தந்து	-10.4009
ug	-10.4011
▁இறைவனிடமிருந்து	-10.4014
▁அதன	-10.4016
▁வெளிபட்டா	-10.4017
ுகையில்	-10.4025
▁மாட்டீர்கள்	-10.403
▁சேமிப்பு	-10.403
▁தீவிரமாக	-10.4034
▁அவனும்	-10.4034
▁சாதன	-10.4037
▁வந்தார்கள்	-10.4039
att	-10.4039
▁போராட்டம்	-10.404
▁முன்னரே	-10.4041
வாழ்	-10.4041
கட	-10.4042
▁make	-10.4043
ator	-10.4045
ித்துக்	-10.4045
▁உதாரணம்	-10.4048
▁இதழ்	-10.4049
▁Is	-10.4054
▁வளர்	-10.4061
▁ஊற்ற	-10.4061
ஜெ	-10.4062
மனித	-10.4062
▁நிகழ	-10.4063
▁விரிவான	-10.4069
▁மாதிரியான	-10.407
▁பாலியல்	-10.4075
▁ஒன்றாகும்	-10.4075
ாயிற்று	-10.4077
▁ஆற	-10.4079
ஆக	-10.4081
▁நாயக	-10.4081
▁work	-10.4083
ட்டோ	-10.4084
நேர	-10.409
ருடன்	-10.4093
ினும்	-10.4094
ஜே	-10.4095
த்தனர்	-10.4095
cent	-10.4096
ாதீங்க	-10.4097
▁செய்திகளை	-10.4098
▁பட்டி	-10.41
▁நிராகரித்த	-10.4103
▁செய்கிறார்	-10.4108
▁பிரிந்து	-10.4108
action	-10.4112
▁Dr	-10.4119
po	-10.4121
▁சீடர்	-10.4122
▁அசத்த	-10.4122
▁சமூகத்தில்	-10.4123
இன்	-10.4124
▁வெறி	-10.4124
▁செயலை	-10.4126
▁வெளிவர	-10.4127
நீங்க	-10.4134
▁எழுதியது	-10.4135
▁வன	-10.4137
ச்செய்	-10.4148
▁வித்தியாசமான	-10.4149
மைக்கு	-10.4153
▁அகில	-10.4155
hu	-10.4162
▁பிணை	-10.4163
த்துக்கும்	-10.4163
▁than	-10.4165
▁மீள்	-10.4165
▁என்னவென்றால்	-10.4167
▁வேணும்	-10.4168
நட	-10.4171
▁எங்கிருந்து	-10.4171
ign	-10.4175
▁எளிதில்	-10.4175
▁உண்டாக	-10.4182
▁படுக்கை	-10.4184
ose	-10.4186
ject	-10.4187
▁உறவ	-10.4188
RO	-10.419
▁விசி	-10.419
▁இளமை	-10.4193
▁பக	-10.4193
ுகின்றோம்	-10.4193
MS	-10.4196
▁தீண்ட	-10.4201
▁வீதி	-10.4202
cl	-10.4205
▁சொல்வார்கள்	-10.421
▁கேள்விகளுக்கு	-10.421
ாவிட்டாலும்	-10.4212
ef	-10.4218
▁இனம்	-10.4218
▁அலுவலகம்	-10.4219
line	-10.4219
ளுக்கு	-10.4226
▁மாய	-10.4227
பற்றி	-10.4227
▁அதிகரிக்கும்	-10.4229
ப்படுவீர்கள்	-10.4229
பிறகு	-10.4235
▁News	-10.4238
▁சூதாட்ட	-10.4246
▁பொழி	-10.4251
▁வசன	-10.4252
▁குழப்பம்	-10.4254
EL	-10.4256
பகுதி	-10.4257
▁தெரிவ	-10.4257
▁நடவடிக்கைகள்	-10.4257
▁தெரிவு	-10.4261
▁தலைவராக	-10.4267
▁நிராகரித்து	-10.4268
▁வருமானம்	-10.4271
IL	-10.4276
▁பூஜை	-10.4277
▁நினைவூட்ட	-10.4281
▁38	-10.4282
▁உண்மையாகவே	-10.4285
▁மார்ப	-10.4287
▁வரிசையில்	-10.4288
விலும்	-10.4288
▁பலவீன	-10.4289
▁எப்போதாவது	-10.4292
பாட்டை	-10.4293
▁விட்டனர்	-10.4295
▁உருவாக்கி	-10.4296
▁உழைப்ப	-10.4299
பட்ச	-10.4304
லெ	-10.4305
64	-10.4306
▁தயாரித்த	-10.431
▁தேவைப்படுகிறது	-10.431
▁மிருக	-10.4311
orn	-10.4315
▁மார்க்	-10.4315
▁வெல்ல	-10.4315
▁விளையாட்ட	-10.4327
▁உயிருடன்	-10.4328
0%	-10.4328
ாமை	-10.4329
▁காலி	-10.4331
ென்றால்	-10.4331
ுவாங்க	-10.4331
▁வெளிய	-10.4331
▁செய்தோம்	-10.4332
ுடனான	-10.4333
▁உப்பு	-10.4334
und	-10.4335
▁தகவல	-10.4335
▁அருக	-10.4339
▁பார்ப்பது	-10.4341
▁அதன்பின்	-10.4342
களு	-10.4342
▁Name	-10.4342
த்திலுள்ள	-10.4343
▁எலி	-10.4347
போக	-10.4349
▁மோசமாக	-10.435
▁நிராகரிப்ப	-10.4353
▁இயக்குனர்	-10.4354
▁நினைவுகள்	-10.4362
▁பயன்பாட்ட	-10.4363
▁நியூ	-10.4365
த்திட்ட	-10.437
cer	-10.437
▁முடிவுகளை	-10.4372
விட்டோம்	-10.4373
▁நீக்கி	-10.4374
▁அதற்க	-10.4374
▁ஓடு	-10.4382
▁விலக்க	-10.4384
-3	-10.4388
▁அம்சங்கள்	-10.4388
▁பதிலை	-10.4393
ations	-10.4394
▁ஆன்	-10.4394
சாலி	-10.4396
▁நாவல	-10.4398
▁மட்டும்தான்	-10.4404
▁life	-10.4404
டுங்க	-10.4406
▁கான்	-10.4406
▁சொர்க்க	-10.441
▁செய்யப்படும்	-10.4412
▁அரிய	-10.4415
ிறாள்	-10.4417
▁கலாச்சார	-10.4418
▁நெருங்கி	-10.4418
▁ஆகியவை	-10.4419
ுகின்றான்	-10.442
▁சவு	-10.4426
▁வார்த்தைகளை	-10.4427
▁சகோதரர்கள்	-10.4429
▁லைட்	-10.4429
▁தப்பு	-10.4431
▁திரைப்படம்	-10.4433
ப்பதை	-10.4433
ாதவர்கள்	-10.4441
▁கொள்ளவில்லை	-10.4441
▁சென்றது	-10.4449
▁சுற்றுலா	-10.445
▁ஆடி	-10.4452
▁மனுஷ	-10.4454
▁ஊசி	-10.4454
▁அழுத	-10.4456
▁ஊருக்கு	-10.4458
தமிழ	-10.4459
gen	-10.4463
▁நன்	-10.4464
ந்தால்	-10.4465
▁பேரும்	-10.4468
▁2000	-10.4469
தையே	-10.4471
In	-10.4472
நாளை	-10.4473
க்காரர்கள்	-10.4477
லையா	-10.448
விடலாம்	-10.448
▁இன்றைக்கு	-10.4485
யாள	-10.4485
▁ஏற்படுத்தும்	-10.4486
▁வந்திருக்க	-10.4486
▁அழக	-10.4493
ரிமை	-10.4497
sa	-10.4499
▁படைத்து	-10.4503
▁நவ	-10.4505
மாக்கி	-10.4506
ங்களிலிருந்து	-10.4507
போதே	-10.4507
▁வேண்டியதில்லை	-10.4509
▁பகுதியாக	-10.4511
புர	-10.4511
ீர்களே	-10.4513
▁நிர்வாகம்	-10.4515
▁நன்மையை	-10.4515
▁இல்லம்	-10.4517
so	-10.4518
▁அவனைப்	-10.4519
ரால்	-10.452
▁நீட்டி	-10.4522
ED	-10.4522
க்குறி	-10.4526
நு	-10.4534
▁ஸ்டா	-10.4539
▁o	-10.4539
இறைவன்	-10.4543
:14	-10.4544
tal	-10.4546
ny	-10.4547
▁நூல	-10.4551
▁முஹம்மது	-10.4556
ஸு	-10.4556
▁தீர்மானிக்க	-10.4561
க்கெட்	-10.4561
▁அங்கிருந்து	-10.4561
▁பின்பற்றி	-10.4562
ருடைய	-10.4567
▁செயல்கள்	-10.4568
par	-10.4571
▁குத்த	-10.4572
▁குடும்பத்தில்	-10.4572
▁கணக்கில்	-10.4574
\	-10.4575
தொகு	-10.4577
▁மக்களும்	-10.4577
▁வேட	-10.4578
▁இரவ	-10.4579
▁உள்ளூர்	-10.4579
▁வேறெ	-10.4581
▁மாட்டா	-10.4581
ஊ	-10.4582
▁கதி	-10.4587
விதமான	-10.4588
▁பில்	-10.4588
கொடுத்த	-10.4589
ிருந்தோம்	-10.4589
▁நொ	-10.4592
▁வன்முறை	-10.4597
▁மேற்கு	-10.4603
▁ஆதலால்	-10.4604
களாகவே	-10.4604
ture	-10.4607
▁கூறுகின்றனர்	-10.4608
கடவுள்	-10.4608
▁பற்	-10.4609
▁குறைவு	-10.4612
▁சூரியனை	-10.4618
▁தொடர்ந்த	-10.4618
▁Br	-10.462
▁தவறி	-10.462
▁எழுதுவது	-10.4622
▁கிழக்கு	-10.4623
▁ஆண	-10.4624
▁வாழ்நாள்	-10.4624
▁மகன்கள்	-10.4624
▁மறந்த	-10.4625
▁கச	-10.4626
▁குறைந்தபட்ச	-10.4627
▁பறக்க	-10.4631
ey	-10.4631
▁Pre	-10.4631
▁வில்ல	-10.4633
▁தப்ப	-10.4633
▁Fi	-10.4637
ber	-10.4637
▁கொண்டிருந்தார்	-10.4641
▁கலக்க	-10.4645
கர்கள்	-10.4656
▁வண்ணம்	-10.4658
fin	-10.4658
யில்லாத	-10.466
▁பயனுள்ள	-10.4663
▁Gu	-10.4671
▁குறிப்ப	-10.4675
▁அநேக	-10.4675
▁எப்ப	-10.4677
யிலை	-10.4678
▁மறுப்ப	-10.4679
மாட்டான்	-10.4683
▁வழிகளில்	-10.4684
nu	-10.4687
▁நேரான	-10.4689
▁பொருந்தும்	-10.4692
▁நிபந்தனை	-10.4694
ீஸ்	-10.4694
ினது	-10.47
மூட்ட	-10.4706
▁விவரங்கள்	-10.4708
▁பிளாக்	-10.4709
▁per	-10.4709
▁பேச்சை	-10.4709
▁ஜாதக	-10.4712
▁po	-10.4713
காண	-10.4713
ிற்	-10.4716
ங்களோ	-10.4717
▁vi	-10.4719
தாகவே	-10.4725
▁இருக்கிறீர்கள்	-10.4726
ஸ்டா	-10.4728
▁ஆசிரியர	-10.473
▁வியப்ப	-10.4731
▁அரசியல்வாதி	-10.4733
▁பகல்	-10.4735
▁போகலாம்	-10.4735
▁ஒழுங்கு	-10.4745
சக்தி	-10.4745
ja	-10.4746
▁அப்பாவி	-10.4747
rs	-10.4751
app	-10.4754
▁Or	-10.4754
▁எகிப்த	-10.4754
▁வெறுப்ப	-10.4758
▁வழங்கப்பட்ட	-10.476
▁சகல	-10.4764
ப்பாட	-10.4765
▁வரலாம்	-10.4765
றே	-10.4766
▁நுட்ப	-10.4767
ாயிரம்	-10.4768
▁பணக்கார	-10.4772
▁மேலாண்மை	-10.4774
▁பெரும	-10.4775
▁செய்தான்	-10.4779
▁பந்து	-10.4781
▁எங்கள	-10.4782
ுகின்றார்	-10.4782
▁மாற்றங்களை	-10.4784
av	-10.4784
என	-10.4785
சின்	-10.4786
NA	-10.4789
▁fe	-10.4792
▁கத்தி	-10.4792
▁Ta	-10.4796
▁துளை	-10.4801
▁குட	-10.4804
ound	-10.4804
pos	-10.4807
▁வருவ	-10.4809
▁Dis	-10.4813
▁குறிச்சொற்கள்	-10.4814
▁மென்மையான	-10.4814
▁வலு	-10.4815
▁உத்தர	-10.4818
▁திரட்ட	-10.4819
மாதிரி	-10.4822
▁சேவையக	-10.4835
தேர்தல	-10.4835
▁இஸ்லாம்	-10.4838
▁அணிய	-10.4841
ிருப்பேன்	-10.4842
▁don	-10.4846
▁வேண்டுமானால்	-10.4847
▁ஆழ்ந்த	-10.4847
நண்பன	-10.4849
கிரா	-10.4852
▁சதவீதம்	-10.4852
han	-10.4858
▁வளரும்	-10.4861
▁அறிவார்	-10.4861
நாத	-10.4862
▁தலையை	-10.4863
view	-10.4864
▁கற்க	-10.4866
ஷை	-10.4873
▁மறுநாள்	-10.4874
▁படித்தேன்	-10.4877
▁lo	-10.4878
யிருந்தது	-10.4883
▁வைர	-10.4886
▁Your	-10.4889
▁அழி	-10.489
▁மையம்	-10.4894
▁கைகள்	-10.4894
▁மாடு	-10.4894
▁கழி	-10.4895
▁சொல்கிறது	-10.4896
ளின்	-10.4896
▁அச்சு	-10.4899
▁ஊரில்	-10.4902
▁வழிபாடு	-10.4904
▁மக்களே	-10.4912
nn	-10.4913
▁தயவுசெய்து	-10.4914
▁பிரதம	-10.4916
▁விடுதி	-10.4916
▁வேறில்லை	-10.4917
▁சதுர	-10.4917
▁பர்	-10.4918
▁முழுமை	-10.4919
▁சுவாமி	-10.4921
ze	-10.4923
▁இடத்திற்கு	-10.4929
களாகிய	-10.493
ப்பதில்லை	-10.4931
sta	-10.4932
▁விசாரித்த	-10.4933
மாட்டார்	-10.4934
▁தவறை	-10.4934
▁மண்டல	-10.4937
ந்தர	-10.4938
யிட்டு	-10.494
▁கட்டுரைகள்	-10.4949
lan	-10.4949
▁விஜய	-10.4953
▁விரிவாக	-10.4956
த்தான	-10.4958
▁முட்டை	-10.4963
▁ஆகியவற்றை	-10.4963
மில்லாத	-10.4967
▁விரல்	-10.4967
▁இஸ்ரவேல்	-10.4969
களுக்கே	-10.4971
ுவதா	-10.4973
▁மரம்	-10.4974
▁லட்சம்	-10.4975
▁உணவக	-10.4975
▁பாடம்	-10.4977
▁புரோ	-10.4979
▁கேள்விப்பட்ட	-10.498
▁தசை	-10.4984
▁கேமரா	-10.4987
▁அறியாமை	-10.499
▁ஒத்த	-10.499
mail	-10.4993
▁comp	-10.4995
▁கௌரவ	-10.4996
▁அன்றாட	-10.4999
▁வரவேற்பு	-10.5
Re	-10.5001
க்கூ	-10.5002
▁நம்மில்	-10.5002
▁பாரம்பரிய	-10.5002
▁கொடுங்கள்	-10.5005
களுள்	-10.5005
use	-10.5007
▁மின்ன	-10.5009
ில்லாத	-10.5011
▁ஒன்றே	-10.5016
▁காசு	-10.5019
▁சிரிக்க	-10.5019
இவ்வாறு	-10.5022
▁உயிரோடு	-10.5023
▁அஞ்சலி	-10.5026
▁எங்களது	-10.5026
▁நனை	-10.5027
▁திருவிழா	-10.5028
▁தீங்கு	-10.503
▁48	-10.5032
ship	-10.5035
▁வழக்கில்	-10.5037
▁சக்கர	-10.504
▁படுத்து	-10.5043
CH	-10.5045
▁பதிப்புரிமை	-10.5052
ின்றார்கள்	-10.5057
▁திட்டங்களை	-10.506
▁கொன்று	-10.5063
▁சர்வ	-10.5063
▁சலுகை	-10.5065
▁கட்டிட	-10.5072
ிருந்தான்	-10.5079
▁திருந்த	-10.5081
களாகவும்	-10.5093
▁நாடினால்	-10.5097
முடியுமா	-10.5097
▁கொடுக்கப்பட்ட	-10.5098
றாக	-10.5099
▁முடியல	-10.5103
தென்ன	-10.5106
▁வழங்கப்பட்டது	-10.5107
நாடு	-10.511
படுத்தி	-10.5113
த்தாள்	-10.5115
the	-10.5115
ல்லவா	-10.5116
▁விவரிக்க	-10.5116
▁விசை	-10.5121
புற	-10.5121
▁தவறுகள்	-10.5122
▁விட்டோம்	-10.5124
▁மறுமையில்	-10.5125
ik	-10.5129
ட்ரா	-10.5129
▁ஒருவராக	-10.5129
வர்கள	-10.513
▁அரசர்	-10.513
▁அமைத்து	-10.513
நில	-10.5133
▁பாடு	-10.5137
க்கிட்டு	-10.5138
தனால்	-10.5144
சத்திய	-10.5144
▁இல்லையென்றால்	-10.5146
▁தங்கை	-10.5149
▁விட்டுவிட	-10.5149
ple	-10.5149
▁பிதா	-10.5153
▁மருத்துவமனையில்	-10.5153
form	-10.5156
▁வெளிநாட்டு	-10.5158
அவ்	-10.5159
▁காப்புரிமை	-10.516
▁வருஷ	-10.5165
▁இராம	-10.5167
▁பண்ற	-10.5167
யாளராக	-10.517
▁செய்கிறான்	-10.5171
▁என்பதற்காக	-10.5176
▁சிந்த	-10.5177
▁நொடி	-10.5179
dd	-10.518
▁Com	-10.518
▁பிரித்து	-10.5181
▁அறிந்தவன்	-10.5182
▁கொள்ளை	-10.5182
ப்பூ	-10.5182
▁சுட்ட	-10.5184
▁உலகளாவிய	-10.5184
▁இருந்திருக்கும்	-10.5185
▁அதிகரித்து	-10.5186
▁நபர்கள்	-10.519
▁:-)	-10.5191
▁படிக்கும்	-10.5193
▁டூ	-10.5193
▁2006	-10.5197
என்னுடைய	-10.52
பெற	-10.5203
▁வறுமை	-10.5204
pri	-10.5204
▁நீளம்	-10.5205
ward	-10.5211
▁எடு	-10.5215
▁முன்னாடி	-10.5216
▁மகன	-10.522
▁blog	-10.5227
▁கேட்கவில்லை	-10.5232
அம்மா	-10.5236
ய்ய	-10.5237
▁கேள்விகளை	-10.5239
▁நேர்வழியில்	-10.5241
விடுவார்கள்	-10.5242
▁ஒன்றில்	-10.5245
▁பதிலளிக்க	-10.5245
▁சிக்கி	-10.5248
▁சவால்	-10.5251
▁ஏற்பட்டு	-10.5254
▁சனி	-10.5256
கிறோம்	-10.5256
த்துக்காக	-10.5258
▁பார்க்கிற	-10.5259
▁சிதற	-10.526
ுணர்வு	-10.5261
▁உறங்க	-10.5264
▁ஒண்ணு	-10.5264
▁தாங்கி	-10.5267
ox	-10.5267
▁ஐரோப்பா	-10.5269
▁விலங்கு	-10.527
முனை	-10.527
யடைய	-10.5271
▁நெருக்கடி	-10.5271
▁சொல்கிறார்கள்	-10.5274
▁உறவினர்கள்	-10.5275
by	-10.5275
▁அச்சமூட்டி	-10.5279
▁வழியே	-10.528
▁பசு	-10.5285
▁தியாக	-10.5287
ோமோ	-10.5289
முற்ற	-10.5289
▁தேவி	-10.5292
▁விடலாம்	-10.5294
▁வருகிறோம்	-10.5296
▁நூலக	-10.5299
▁விளையாட்டை	-10.5301
வுண்ட	-10.5302
▁காணாமல்	-10.5305
▁கலங்க	-10.5307
:16	-10.531
▁இருந்தபோது	-10.5312
▁உறுப்பினர்கள்	-10.5313
ுவீர்களா	-10.5313
▁இருக்கட்டும்	-10.5313
▁ஜெயலலிதா	-10.5313
▁மகிழ	-10.5314
▁அடுக்கு	-10.5315
▁கிர	-10.5322
வடி	-10.5324
▁Fe	-10.5327
ரித்து	-10.5328
sc	-10.5328
▁கேட்டுக்	-10.5331
▁மஹா	-10.5335
▁குர்	-10.5337
▁அப்படிப்பட்ட	-10.5339
▁யாருமே	-10.5344
▁நரகம்	-10.5347
மடை	-10.5349
▁ஆதாரம்	-10.5351
▁படங்களில்	-10.5351
ப்பாளர்	-10.5354
ons	-10.5354
▁கழ	-10.5358
▁கர்ப்ப	-10.5368
▁வைத்துள்ள	-10.537
▁துண்ட	-10.537
nk	-10.5371
ப்பதிவு	-10.5373
▁தலையில்	-10.5377
ுக்களை	-10.5377
▁கேட்டான்	-10.5379
வாதிகள்	-10.538
▁Ab	-10.5381
▁சிறையில்	-10.5388
▁அவர்களுக்காக	-10.5389
ff	-10.5392
புறம்	-10.5393
▁கூறவில்லை	-10.5396
ana	-10.5397
மடைய	-10.5397
▁தேவையா	-10.5402
▁வசனங்கள்	-10.5403
▁குறைந்து	-10.5407
யிருந்தால்	-10.5408
▁கற்	-10.5412
:15	-10.5412
▁வானிலை	-10.5412
▁first	-10.5415
▁சதி	-10.542
▁வழிநடத்த	-10.5422
:18	-10.5423
▁300	-10.5424
AP	-10.5425
▁தளபதி	-10.5425
▁கொள்வார்கள்	-10.5426
▁App	-10.5426
▁அறிவுறுத்த	-10.5427
▁mi	-10.543
▁கண்டுபிடித்த	-10.5432
▁திற	-10.5432
▁ஏது	-10.5434
▁அப்துல்லாஹ்	-10.5434
▁கொள்கிறேன்	-10.5436
▁ஏரி	-10.544
யாவரையும்	-10.544
▁அவளிடம்	-10.5442
▁get	-10.5447
▁Can	-10.5448
▁பிடிப்ப	-10.545
▁கிரே	-10.5451
▁Cl	-10.5454
▁இல்லாம	-10.5457
▁செய்கிறோம்	-10.546
▁எனப்படும்	-10.5461
▁said	-10.5462
▁சொல்வதை	-10.5466
▁ஏற்படுகிறது	-10.547
▁பேருந்து	-10.5472
ப்பணி	-10.5474
வீர்கள்	-10.5477
▁சேவையை	-10.5478
▁சிவப்பு	-10.5483
arch	-10.5485
ட்டின்	-10.5488
▁கிளம்ப	-10.5491
▁பாராளுமன்ற	-10.5492
▁கொட்ட	-10.5494
▁புகைப்படம்	-10.5495
ங	-10.5496
TE	-10.5497
▁போர	-10.5498
▁கிடக்க	-10.5498
▁translation	-10.5505
▁சிங்க	-10.5505
▁ஆஃப்	-10.5506
▁பதிவர்	-10.5511
▁there	-10.5511
யோவான்	-10.5512
குமார	-10.5513
▁வகுப்ப	-10.5513
▁செலுத்தி	-10.5513
கடவு	-10.5515
▁கருத்தில்	-10.5517
சொல்ல	-10.5517
▁people	-10.5518
▁லிமிடெட்	-10.5521
நோ	-10.5525
▁கூட்டத்தார	-10.5526
▁சரித்திர	-10.5526
▁எதிர்ப்ப	-10.5532
▁நேராக	-10.5534
▁திட்டமிட்ட	-10.5535
▁ஊழிய	-10.5538
self	-10.5541
net	-10.5541
▁உடற்பயிற்சி	-10.5544
▁பிரம	-10.5546
ானே	-10.5549
▁திடீரென	-10.555
நாட்டில்	-10.5553
▁கழக	-10.5555
▁சொன்னதை	-10.5557
▁On	-10.5558
▁வினா	-10.5561
▁பொறி	-10.5564
▁போக்கு	-10.5568
▁நடத்திய	-10.5572
▁அமர்ந்து	-10.5572
▁மரபு	-10.5574
▁கடத்த	-10.5576
▁எங்களுடன்	-10.5581
▁பேருக்கு	-10.5581
▁மீன	-10.5583
▁கோடை	-10.5588
குல	-10.5592
▁பிரச்சார	-10.5597
மறுமை	-10.5597
▁அமைப்புகள்	-10.5597
▁அவனைத்	-10.5602
IR	-10.5604
▁இருக்கும்போது	-10.5605
▁சந்தோஷமாக	-10.5606
▁வாழ்க்கையின்	-10.5609
▁மீதி	-10.5609
▁பெரியவர்	-10.5609
தூதர்	-10.561
▁போட்டியில்	-10.5612
▁தருகிறது	-10.5618
▁உபதேச	-10.5618
mit	-10.562
▁இருக்கவேண்டும்	-10.5622
▁வழக்கமாக	-10.5625
▁சம்பாதிக்க	-10.5625
த்தாலும்	-10.5626
ஆமாம்	-10.5626
▁பிடிக்காது	-10.5626
▁RE	-10.5626
▁ஸ்த	-10.5626
▁சாளர	-10.563
▁வருடத்தில்	-10.5634
▁01	-10.5636
▁பரிதாப	-10.5639
▁ஒப்புக்	-10.5642
▁காரில்	-10.5643
OS	-10.5643
▁வந்திருந்த	-10.5644
▁off	-10.5646
கிரி	-10.5647
▁ஆமா	-10.5647
light	-10.5649
▁கேட்பது	-10.5651
▁தடி	-10.5652
▁நீடித்த	-10.5652
எங்க	-10.5653
▁தெரிஞ்ச	-10.5655
▁படைப்புகள்	-10.5656
▁தட்டி	-10.566
▁அவதார	-10.5662
▁செய்வார்	-10.5662
▁சிறப்ப	-10.5672
▁செயல்பட்ட	-10.5673
▁பாவங்கள்	-10.5675
▁ஆகிவிட்ட	-10.5676
புரம்	-10.5676
▁Gra	-10.5678
றிந்த	-10.5679
are	-10.5684
ஸீ	-10.5688
▁உணவுகள்	-10.5693
▁பத்திர	-10.5699
▁கர்த்தர	-10.5701
தமிழ்	-10.5704
▁Time	-10.5708
▁விளக்குகள்	-10.571
TS	-10.5711
டைந்து	-10.5714
▁மனசு	-10.5714
▁பரம	-10.5718
ண்ணா	-10.572
▁அச்சுறுத்த	-10.5721
▁இருப்பவர்கள்	-10.5723
▁வேர்ட்பிரஸ்	-10.5724
▁குர்ஆனை	-10.5724
ுபவர	-10.5726
▁இயக்குநர்	-10.5726
என்ற	-10.5727
▁செக்ஸ்	-10.5728
▁அதன்படி	-10.5728
வல்ல	-10.5731
▁மிரட்ட	-10.5735
▁மயக்க	-10.5736
▁கட்டாய	-10.5744
▁ஆதரவ	-10.5748
கிட்டே	-10.5751
விடுங்கள்	-10.5751
▁டய	-10.5753
▁சொல்லிக்	-10.5755
க்குழு	-10.5758
ப்பார்கள்	-10.5764
▁மாணவி	-10.5766
▁ro	-10.5769
▁ஆரம்பித்து	-10.5773
▁துரோக	-10.5773
ப்பகுதியில்	-10.5779
▁குறிக்க	-10.5779
▁சென்றனர்	-10.5785
▁குறைபாடு	-10.5785
▁சத	-10.5786
▁கண்டது	-10.5787
org	-10.5789
ிருந்தார்கள்	-10.5797
ப்படுவதில்லை	-10.5801
▁குறைய	-10.5802
▁விட்டன	-10.5802
▁use	-10.5803
▁அபூ	-10.5803
லிங்	-10.5806
▁பேசிக்	-10.5811
▁சித்திர	-10.5812
▁முத்திரை	-10.5812
▁செயல்திறன்	-10.5816
▁தியான	-10.582
▁07	-10.582
▁தொழிலாளர்	-10.5821
னாகவும்	-10.5822
▁நற்செய்தி	-10.5823
▁கேள்வியை	-10.5823
▁கருதப்படுகிறது	-10.5824
▁குண்டு	-10.5824
▁வயத	-10.5824
கண	-10.583
▁This	-10.5832
மக்கள்	-10.5833
▁வந்தன	-10.5834
நரக	-10.5835
▁Ju	-10.5836
▁உடன்படிக்கை	-10.5836
▁வருவதை	-10.584
▁மதிப்பிட	-10.584
lay	-10.5843
ene	-10.5844
▁நிலையம்	-10.5844
▁எதிர	-10.5844
▁குழ	-10.5844
qui	-10.5845
▁அழைத்தார்	-10.5845
ya	-10.585
▁பெண்களின்	-10.5856
▁வழக்கறிஞர்	-10.5859
▁இருப்பதில்லை	-10.5862
▁கூடவே	-10.5863
▁பாய்	-10.5865
▁வந்தாலும்	-10.5867
▁இருந்தே	-10.5868
▁பட்டது	-10.587
▁தோற்றம்	-10.5871
கொள்கிறார்	-10.5871
▁யாவும்	-10.5872
▁உலகத்தை	-10.5874
▁கிடைத்து	-10.5875
ுவாள்	-10.5875
▁தனியா	-10.5876
▁சிவா	-10.5879
▁நியம	-10.588
▁இவ்வாறே	-10.5882
▁கடின	-10.5882
▁ஆச்சர்ய	-10.5886
▁பிரச்சனைகள்	-10.5887
▁மலிவான	-10.589
▁தடுப்ப	-10.5892
▁பயங்கரவாத	-10.5893
▁விவசாயி	-10.5895
▁தற்கொலை	-10.59
களில	-10.59
▁புத்தகத்தை	-10.59
▁உம்ம	-10.5901
வற்றில்	-10.5902
▁முஸ்லிம்கள்	-10.5902
▁பெற்றார்	-10.5902
லூ	-10.5904
▁போதை	-10.5907
▁அளவிலான	-10.5917
▁கைப்பற்ற	-10.5919
பேர	-10.592
▁பாகங்கள்	-10.5924
▁இருந்ததில்லை	-10.5924
▁ஏற்றுமதி	-10.5924
▁நிறை	-10.5925
ible	-10.5925
▁only	-10.5926
▁இயலும்	-10.5927
▁மறுமொழி	-10.593
▁மிச்ச	-10.5931
▁பிறவி	-10.5932
▁அழிய	-10.5934
▁English	-10.5937
rain	-10.5938
த்தினர்	-10.594
ுதலை	-10.594
▁ஆழமான	-10.5942
▁பெருக்க	-10.5944
உங்களை	-10.5947
ஜன்	-10.595
▁இப்படிப்பட்ட	-10.5951
fer	-10.5951
ேசன்	-10.5955
ring	-10.5958
ஸர்	-10.5959
DE	-10.596
▁உண்டாவதாக	-10.5961
ough	-10.5963
▁இருந்தாள்	-10.5963
▁TO	-10.5964
▁தூள்	-10.5966
▁உள்ளவர்கள்	-10.597
▁கமல்	-10.5971
▁ஒன்பது	-10.5974
றுக்க	-10.5976
▁பரிந்துரைக்க	-10.5977
ண்டோ	-10.598
▁ஐய	-10.5982
▁கையெழுத்த	-10.5987
▁முக்கியத்துவம்	-10.5989
த்தொகை	-10.5995
▁ஒழுக்க	-10.5995
▁நாளுக்கு	-10.6003
▁நிழல்	-10.6004
▁உத்தரவாதம்	-10.6006
▁எதிர்க்க	-10.6009
▁பாலா	-10.6018
▁சத்து	-10.6021
▁விண்டோஸ்	-10.6021
எந்த	-10.6022
▁here	-10.6022
டிங்	-10.6023
▁நீடிக்க	-10.6023
யியல்	-10.6025
▁உரையாடல்	-10.6026
▁செய்வோர	-10.6029
நெ	-10.6029
▁இடம்பெற்ற	-10.6031
▁ஆதிக்க	-10.6032
த்துவம்	-10.6033
▁எடுத்துச்	-10.6038
▁என்றென்றும்	-10.6039
▁Go	-10.604
▁வசிக்க	-10.6043
▁இறைத்தூதர்	-10.6049
▁பெண்ணின்	-10.6058
▁தேவைகளை	-10.6059
▁ஒப்பந்தம்	-10.6059
▁தமிழகம்	-10.6061
▁ஊழல்	-10.6062
▁பணியாளர்	-10.6062
▁அவ்வளவுதான்	-10.6064
▁மாபெரும்	-10.6065
▁இருப்பீர்கள்	-10.6069
▁சாப	-10.6069
IF	-10.6072
த்திற்குள்	-10.6073
▁இருப்பவர்	-10.6074
ந்திய	-10.6079
▁Si	-10.6079
2018	-10.608
▁கேக்க	-10.6081
மூர்த்தி	-10.6082
குறி	-10.6082
சனம்	-10.6082
den	-10.6083
▁விதமாக	-10.6084
▁துதி	-10.6085
▁செயற்கை	-10.6085
▁மகிழ்ச்சியை	-10.6087
▁பெறலாம்	-10.6088
▁கோட்டை	-10.6092
if	-10.6099
▁Free	-10.6099
▁கூர்	-10.61
▁Car	-10.61
▁எச்சரிக்க	-10.6101
▁ஆஸ்	-10.6102
▁Act	-10.6104
▁விழு	-10.6108
▁காங்கிரஸ்	-10.611
▁ஆரம்பத்தில்	-10.6112
▁நடத்தை	-10.6115
▁வீட்ட	-10.6115
▁என்னென்ன	-10.6117
▁42	-10.6118
இவர்	-10.6118
▁ஆபத்தான	-10.612
▁அடங்க	-10.6121
▁வாயில்	-10.6122
▁நாயன்	-10.6124
▁பயணிகள்	-10.6127
▁ரூபா	-10.6129
▁காண்க	-10.6129
▁சீர்	-10.6129
▁உதவியை	-10.613
cri	-10.6133
▁வருவதற்கு	-10.6137
▁தொட்டி	-10.614
▁பயணி	-10.614
▁if	-10.6142
▁come	-10.6142
நாளில்	-10.6143
▁முறி	-10.6144
▁இருவர்	-10.6147
▁உயர்வு	-10.615
▁தூது	-10.6151
▁அழகா	-10.6158
ப்படுகிறார்கள்	-10.6159
▁நிறைவ	-10.6161
▁மரித்த	-10.6163
▁கவனிப்ப	-10.6163
▁வானத்தை	-10.6164
▁நேரத்திற்கு	-10.6165
நாதன்	-10.6165
▁வைக்கப்பட்ட	-10.6166
▁நடைபெற்ற	-10.6167
உங்கள	-10.6168
▁தள்ளுபடி	-10.6172
ரிப்பு	-10.6173
▁உலோக	-10.6175
▁உகந்த	-10.6177
dom	-10.6182
▁அறிவியல	-10.6183
:19	-10.6187
▁விவரம்	-10.6187
▁தொழில்முறை	-10.6188
▁காத்திருப்ப	-10.6189
▁இவற்றில்	-10.6191
▁முழ	-10.6193
▁உணர்ந்தேன்	-10.6194
ந்தே	-10.6196
வளாக	-10.6196
▁அறிந்திருக்க	-10.6197
▁பிரகாச	-10.6198
அரச	-10.6198
▁அதேபோல்	-10.6199
▁பேக்கேஜிங்	-10.6199
▁கோல்	-10.6202
▁காரை	-10.6205
▁நாயகம்	-10.6206
MP	-10.6206
▁மாத்திரை	-10.6206
ans	-10.6208
▁பாதிப்ப	-10.6212
யாக்கி	-10.6213
▁பார்வையாளர்	-10.6213
▁கள்ள	-10.6216
▁அடங்கும்	-10.6216
ality	-10.6217
யளித்த	-10.6217
▁ஷெ	-10.622
ினாலே	-10.6228
லோக	-10.6229
ராம	-10.6229
தவற	-10.6235
நகர	-10.6239
▁விடுத்த	-10.624
▁நோன்பு	-10.6247
-10	-10.6248
▁வருவார்கள்	-10.625
ாளா	-10.625
▁சொல்லுங்க	-10.6253
▁வெற்றிகரமாக	-10.6255
▁நுழை	-10.6255
▁விடுவிக்க	-10.6256
▁பலருக்கு	-10.6257
▁அதிர்ஷ்ட	-10.6258
▁சொல்லலாம்	-10.6259
▁சுந்தர	-10.6259
▁போலீஸ்	-10.6264
▁செல்லுங்கள்	-10.6268
ame	-10.627
▁தரை	-10.6272
▁பேசவில்லை	-10.6275
மாட்டா	-10.6279
▁ஆண்டின்	-10.628
▁Tag	-10.628
▁என்றனர்	-10.6282
▁விவேக	-10.6284
▁திரும	-10.6285
▁உரிமையாளர்	-10.6286
ீட்ட	-10.6288
▁சந்தர்ப்ப	-10.6289
▁சதவிகித	-10.629
▁பிரதிநிதி	-10.6291
▁மருத்துவர்கள்	-10.6292
▁அமைதியான	-10.6294
▁இவ்வுலகில்	-10.6296
▁வினவ	-10.6297
▁நடன	-10.6298
▁கவர்	-10.6303
இர	-10.6305
▁முன்னதாக	-10.6307
▁வார்	-10.6309
▁ஹார்	-10.6317
▁வசதிகள்	-10.6317
▁புறக்கணித்து	-10.6318
▁செல்கிற	-10.6319
▁பன்ன	-10.632
[1]	-10.6326
களிலேயே	-10.6329
பணி	-10.633
-20	-10.6334
▁ஒப்பனை	-10.6339
▁ஓம்	-10.6339
▁மாளிகை	-10.6339
▁வாக்க	-10.634
▁150	-10.634
▁வரவு	-10.634
ிருப்போம்	-10.6341
▁some	-10.6342
▁மன்னிக்கவும்	-10.6345
▁நிழல	-10.6348
ors	-10.6351
▁அதுவரை	-10.6351
யோட	-10.6355
க்கிறார்	-10.6358
▁மிமீ	-10.6359
▁சுழற்சி	-10.636
▁அநீதி	-10.636
▁பேரை	-10.6361
▁செய்வான்	-10.6364
ize	-10.6364
▁குப்பை	-10.6367
▁சாய	-10.6372
முன்ன	-10.6372
ப்போவதில்லை	-10.6373
▁பிறக்க	-10.6376
▁அமல்	-10.6376
ப்பட்டிருந்தது	-10.6378
▁take	-10.6378
800	-10.6379
vel	-10.6379
கெ	-10.6384
▁மடங்கு	-10.6389
rate	-10.6391
மழை	-10.6391
▁எனக்காக	-10.6393
▁செயலாளர்	-10.6394
▁உதவியாளர்	-10.6397
▁சூழலில்	-10.6398
▁IS	-10.6399
ப்படுத்திய	-10.6406
▁தண்ணீர	-10.6406
▁நேர்ந்த	-10.6407
யென்று	-10.6412
▁காவல	-10.6413
நம்ம	-10.6415
▁சுட்டு	-10.6417
▁கனவுகள்	-10.642
▁வாட்	-10.6421
▁அய்யா	-10.6421
▁ரவி	-10.6422
ating	-10.6426
▁ஈடு	-10.6426
▁அறிகுறிகள்	-10.6428
▁பொலி	-10.6428
▁இழிவு	-10.6429
ba	-10.643
த்தார்கள்	-10.643
▁சிந்தித்து	-10.6432
க்காட்ட	-10.6435
▁பரவலாக	-10.6436
▁உழைக்க	-10.6437
▁மின்சாரம்	-10.644
▁அரசியலில்	-10.6443
▁கணக்கிட	-10.6453
▁காடு	-10.6454
▁கொடுத்தது	-10.6455
▁ஞானத்தை	-10.6457
▁சன	-10.6457
▁விரோத	-10.6458
▁Life	-10.6459
▁அடையும்	-10.6461
▁மாச	-10.6461
:20	-10.6461
▁வானத்திலிருந்து	-10.6462
lot	-10.6464
▁மொழியில்	-10.6465
▁நிற்கும்	-10.6466
ிருக்கவில்லை	-10.6467
▁உணர்வுகளை	-10.647
▁கிடைப்ப	-10.6471
▁படுத்தி	-10.6471
▁சுர	-10.6473
py	-10.6475
▁எல்லோரையும்	-10.6477
▁அதிகாலையில்	-10.6479
▁செல்வது	-10.6479
▁நேரமும்	-10.6479
UT	-10.6482
▁ஒருவரின்	-10.6483
▁தங்கம்	-10.6483
▁ரீதியாக	-10.6485
ments	-10.6487
▁உங்களையும்	-10.6487
▁யாழ்ப்பாணம்	-10.6489
▁பாடலை	-10.6491
▁பராமரிப்பு	-10.6491
▁விற்று	-10.6492
▁போதிலும்	-10.6501
uck	-10.6504
▁அதிகரித்த	-10.6504
▁இயக்கி	-10.6505
▁நித்திய	-10.6505
▁ஈர்க்க	-10.6508
ls	-10.6509
▁அடிப்படையாக	-10.651
▁read	-10.6511
▁அதோடு	-10.6517
▁கடினம்	-10.6518
▁நாளா	-10.6524
▁அழிவ	-10.6525
▁வெட்டு	-10.6526
▁இரத்தம்	-10.6526
ெரி	-10.6529
▁தெரியவந்தது	-10.653
▁கொன்ற	-10.653
▁பார்க்கவில்லை	-10.6532
▁சமாளிக்க	-10.6534
▁பிரம்ம	-10.6538
ிருப்பதாக	-10.6542
▁கோர்	-10.6544
▁அடைக்க	-10.655
காந்த	-10.6555
▁பாதிக்கப்பட	-10.6555
▁பொறாமை	-10.6555
▁நாடகம்	-10.6563
▁சரும	-10.6569
▁புரிந்துகொள்ள	-10.657
▁ஹேக்	-10.657
இனி	-10.6572
▁பயன்பட	-10.6572
▁ஒப்படைத்த	-10.6572
▁தயாரா	-10.6574
▁எவரையும்	-10.6578
▁அதிபர்	-10.6578
▁வித்தியாசம்	-10.658
▁நெறி	-10.6582
▁எச்சரித்த	-10.6584
▁தெரிவித்தனர்	-10.6586
▁ஒருவருக்கொருவர்	-10.6587
▁சம்பந்தப்பட்ட	-10.6589
▁அரசுக்கு	-10.6591
▁செலுத்தும்	-10.6593
பொழுத	-10.6594
▁பிளா	-10.6594
ix	-10.6594
▁நிலம்	-10.6599
▁வருவார்	-10.66
RA	-10.6604
▁மன்னிப்பை	-10.6608
▁அலகு	-10.6609
ME	-10.6611
▁புரிந்தது	-10.6612
har	-10.6622
▁கேவல	-10.6622
www	-10.6623
த்தவிர	-10.6624
மிட்ட	-10.6627
▁இருபது	-10.6628
▁வரையறை	-10.6628
▁அன்பை	-10.6629
▁திரும்பிய	-10.6638
▁பயன்படுத்தலாம்	-10.664
▁பிரிந்த	-10.6641
▁அமைந்தது	-10.6642
▁செல்கிறது	-10.6643
ral	-10.6644
▁மாதங்களில்	-10.6647
ஞ்சா	-10.6651
$	-10.6658
▁அனுபவித்த	-10.666
▁சாப்பிட்டு	-10.6664
▁படும்	-10.6665
▁ஒதுக்கி	-10.6665
▁ஐஸ்	-10.6665
▁உங்களோடு	-10.6665
▁முயற்சிகள்	-10.6669
▁எனக்கே	-10.6671
▁கிழ	-10.6671
▁தேடுங்கள்	-10.6672
▁சரிதான்	-10.6674
▁கூறுகின்றான்	-10.6675
மூலம்	-10.6675
▁நகர்த்த	-10.6675
▁போகிறோம்	-10.6676
தீன்	-10.6678
▁ba	-10.6678
ிருப்பீர்கள்	-10.6678
▁மன்னிப்பவன்	-10.6682
பேர்	-10.6684
தற்கும்	-10.6687
ியுள்ளனர்	-10.6691
▁திடீர்	-10.6691
ினம்	-10.6695
▁உண்ப	-10.6698
▁தந்திர	-10.6703
ட்டேன்	-10.6703
ாற்றல	-10.6705
காரர்	-10.6709
ுறது	-10.671
▁நினைத்துக்	-10.6713
ாக்கள்	-10.6716
▁மாட்டி	-10.6717
▁அதைவிட	-10.6718
எனது	-10.672
▁வசந்த	-10.6723
▁பண்பு	-10.6725
ட்டுமா	-10.6735
▁அலுவலகத்தில்	-10.6736
லாந்து	-10.6736
ax	-10.6737
வதாக	-10.6737
▁சோதிக்க	-10.6738
▁friend	-10.6739
▁இரக்க	-10.674
▁பேஸ்புக்	-10.6743
▁ஸா	-10.6745
▁உணர்வை	-10.6746
▁ஒட்டி	-10.6748
ute	-10.6748
▁சந்தோச	-10.675
▁ஆகியவற்ற	-10.6751
▁பற்ற	-10.6751
ious	-10.6752
▁முத்து	-10.6753
▁தீவிரவாதி	-10.6761
▁just	-10.6762
ப்பெயர்	-10.6763
▁அன்பான	-10.6765
▁XX	-10.6765
▁இஸ்ரவேல	-10.6766
▁வீண்	-10.6767
LO	-10.6771
▁பென்	-10.6772
▁தொடரும்	-10.6777
▁உதிர	-10.6777
எஃப்	-10.6778
செய்து	-10.6778
▁அவற்ற	-10.6779
ுள்ளீர்கள்	-10.678
▁உம்மிடம்	-10.6782
வராகவும்	-10.6783
▁எடுக்கப்பட்ட	-10.6783
▁வர்ண	-10.6785
▁தொட்டு	-10.6787
ுவார்களா	-10.6788
▁ஒன்றுதான்	-10.6789
▁பிடித்தது	-10.679
▁வெளிச்ச	-10.6794
ிறார்களோ	-10.6798
ling	-10.6801
▁தேவையற்ற	-10.6802
▁படுகிறது	-10.6808
▁comm	-10.6812
▁ஏனோ	-10.6812
▁தூரிகை	-10.6813
பிள்ளை	-10.6813
வாதம்	-10.6818
க்குள்ள	-10.6818
▁மாதத்தில்	-10.682
:25	-10.6824
:21	-10.6824
▁வீட்டில	-10.6826
test	-10.6827
▁விசாரிக்க	-10.6829
▁பள்ளிகள்	-10.6834
ea	-10.6834
▁அல்லாஹ்வுக்கே	-10.6838
▁கிரிக்கெட்	-10.6843
-5	-10.6849
SE	-10.685
▁தொகுப்ப	-10.685
▁தையல்	-10.6853
ஜர்	-10.6863
▁எங்களுடைய	-10.6865
▁ஆகிவிட்டது	-10.687
▁பேண	-10.687
ரசு	-10.6873
▁கருத்துகள்	-10.6874
த்தகைய	-10.6874
ணன்	-10.6876
▁தம்பதி	-10.6878
q	-10.6879
▁ஆச்சரியமாக	-10.688
▁சுத்தமாக	-10.688
▁Indian	-10.6881
▁கனடா	-10.6882
▁43	-10.6882
▁விடுவோம்	-10.6883
▁Bu	-10.6885
▁விதத்தில்	-10.6888
தள	-10.6889
▁நண்பர்களை	-10.6893
▁எலும்பு	-10.6894
சமூகத்தார	-10.6894
▁அழிவு	-10.6895
▁செலாவணி	-10.6897
▁அலி	-10.6898
▁தரிசனம்	-10.69
▁அதிரடி	-10.6901
▁சிரிப்ப	-10.6904
▁நடைபெற்றது	-10.6906
▁பணியை	-10.6908
▁அளித்து	-10.691
▁வெறுமனே	-10.6912
▁மாடல்	-10.6914
▁மெல்ல	-10.6914
எப்படி	-10.6917
▁நற்கூலி	-10.692
▁ஒன்றுக்கு	-10.6922
▁திரவ	-10.6923
▁every	-10.6924
▁துன்புறுத்த	-10.6931
▁வந்துவிட்டது	-10.6932
▁மேலதிக	-10.6933
▁qu	-10.6934
▁நெகிழ	-10.6936
▁his	-10.6936
ப்படுவதை	-10.6937
▁இங்கிலாந்து	-10.6938
ுநர்	-10.694
ுவாய்	-10.6941
▁கார்த்தி	-10.6945
▁குடும்பத்தை	-10.6947
க்கூடியது	-10.6949
▁பெரும்பாலோர்	-10.6949
▁வைக்கிறது	-10.6952
▁அணிந்த	-10.6952
▁Na	-10.6953
▁கடலில்	-10.6954
அவர்களை	-10.6954
அழ	-10.6956
▁நாளின்	-10.6956
!’’	-10.6958
▁அவளின்	-10.6959
▁தானாக	-10.696
வருக்கும்	-10.6961
ote	-10.6962
ினுள்	-10.6965
ங்களுக்கான	-10.6966
▁மனைவியும்	-10.6969
▁உழ	-10.697
▁பிரான்	-10.6972
▁விவரங்களை	-10.6975
▁அழிப்ப	-10.6978
▁எதாவது	-10.6982
▁திரும்பவும்	-10.6983
▁இயலாத	-10.6985
▁அனைவருமே	-10.6985
▁முளை	-10.6986
▁புனை	-10.6987
▁நினைக்கவில்லை	-10.6987
▁எம்பி	-10.6992
▁இருக்கின்றார்	-10.6993
▁ஓவியம்	-10.6997
▁49	-10.7001
▁கட்டுப்பாட்ட	-10.7002
ென்பது	-10.7004
▁தோன்றிய	-10.7004
▁பெரி	-10.7004
2019	-10.7009
போய்	-10.7012
▁தானியங்கி	-10.7015
▁விரிவாக்க	-10.702
AY	-10.7022
▁மும்பை	-10.7025
▁உயர்த்தி	-10.7032
▁கூட்டத்தில்	-10.7033
பிள	-10.7033
▁காப்பாற்றி	-10.7034
ஷன	-10.7036
▁ஆறுதல்	-10.7037
▁Pe	-10.7038
▁கட்டிய	-10.704
▁பரிமாற	-10.7041
▁எளிதாக்க	-10.7042
▁புள்ளிகள்	-10.7044
ப்படாது	-10.7048
▁சேர்ப்ப	-10.7049
▁இழுக்க	-10.7052
▁மன்னிப்பான்	-10.7053
▁இரண்டையும்	-10.7055
▁when	-10.7056
▁நமக்குத்	-10.7062
▁எத்தகைய	-10.7064
▁எளிது	-10.7066
stan	-10.7068
சொல்	-10.7069
▁பூரண	-10.7071
▁நிகர	-10.7072
▁செயலி	-10.7072
▁திடீரென்று	-10.7073
▁கொழு	-10.7073
▁back	-10.7076
▁பயனர்கள்	-10.7077
▁தனியே	-10.7081
ature	-10.7082
▁XXX	-10.7082
:22	-10.7085
▁இட்டு	-10.7089
▁எதிர்பார்ப்பு	-10.7095
▁தூக்கம்	-10.7097
▁தடுத்த	-10.7097
side	-10.7098
▁பிட்	-10.7098
▁பார்க்கவில்லையா	-10.71
படை	-10.7101
▁பயங்கர	-10.7104
▁மீட்டர்	-10.7105
▁எமக்கு	-10.7107
▁கடற்படை	-10.7111
▁செயல்பாட்ட	-10.7111
▁அண்ட	-10.7112
rv	-10.7115
▁வருடங்களில்	-10.7116
▁இனிமே	-10.7121
▁Don	-10.7124
▁அனுபவத்தை	-10.7124
▁தயாரிப்ப	-10.7136
பெயர	-10.7136
ச்சர்	-10.7142
▁வேண்டுமென	-10.7143
▁தலைவன்	-10.7146
SP	-10.7147
▁ஊற	-10.7148
▁ال	-10.7151
▁வடிகட்டி	-10.7153
ருந்து	-10.7155
▁கொண்டிருந்தது	-10.7156
▁அளிக்கும்	-10.7156
▁தூதர்கள்	-10.7156
▁தற்காலிக	-10.7157
▁பின்வருமாறு	-10.716
▁Of	-10.7163
▁06	-10.7165
eas	-10.7169
▁அண்ணன்	-10.7171
ிறீர்களா	-10.7174
▁சுலபமாக	-10.7174
▁புரிகிறது	-10.7175
▁Facebook	-10.7183
▁சம்பாதித்த	-10.7184
▁பாத்து	-10.7185
▁வேட்பாளர்	-10.7187
பாக	-10.7188
▁மேடை	-10.7189
▁இருந்தவர்	-10.7191
▁இணையத்தில்	-10.7197
▁சுத்தி	-10.7198
▁வடிவில்	-10.7202
▁பானம்	-10.7204
▁தெரி	-10.7207
▁அளிக்கிறது	-10.7208
ப்பேன்	-10.7208
▁வேர்	-10.721
▁கெட	-10.7211
▁படிச்ச	-10.7212
HO	-10.7213
▁உனக்காக	-10.7214
ade	-10.7214
ler	-10.7215
▁கொண்டுள்ள	-10.7215
▁வசூல	-10.7216
ச்செ	-10.7216
▁கவர்ச்சி	-10.7217
வுக்கும்	-10.722
ிரண்டு	-10.7221
▁over	-10.7221
ாயினும்	-10.7225
ிலி	-10.7227
▁ஆகியோர்	-10.7227
▁விடுவேன்	-10.7228
▁கூறப்படும்	-10.7229
▁கூற்று	-10.723
த்தனம்	-10.723
▁சிதை	-10.7233
▁மேன்மை	-10.7234
▁மேற்கொண்ட	-10.7235
▁பெயரால்	-10.7237
IM	-10.7238
▁விலையில்	-10.7239
மறை	-10.7239
க்கிங்	-10.7239
dition	-10.7242
EA	-10.7245
▁நிர்வகிக்க	-10.7247
▁எப்பொழுதும்	-10.7249
▁மருந்துகள்	-10.7249
▁மாடி	-10.7249
▁கொடி	-10.725
ுவாரா	-10.725
eng	-10.7252
ப்பெற்ற	-10.7253
▁Air	-10.7253
▁சீரிய	-10.7253
▁நலன்	-10.7258
▁உணவுகளை	-10.726
இவ்வ	-10.7265
▁குறுக்க	-10.7271
களுமே	-10.7271
▁மஞ்சள்	-10.7271
போன்ற	-10.7272
▁செய்யவேண்டும்	-10.7272
▁வைத்திய	-10.7275
▁சேர்ந்தவர்	-10.7275
▁பாஜக	-10.7275
▁இருந்ததால்	-10.7277
▁தரப்பு	-10.7278
▁நிம்மதி	-10.728
▁And	-10.7282
▁நஷ்டம்	-10.7286
▁நேசிக்கிறேன்	-10.7287
▁சுவர்	-10.7288
dr	-10.7289
▁உணர்கிறேன்	-10.7293
ின்றி	-10.7295
▁கோழி	-10.73
▁part	-10.7301
▁அக்கிரம	-10.7302
▁அழகி	-10.7303
▁ஓரளவு	-10.7304
▁எழுத்துக்கள	-10.7307
▁கொண்டனர்	-10.7308
▁எதுக்கு	-10.731
▁மாணவர்களுக்கு	-10.7311
▁டிஜிட்டல்	-10.7318
▁உன்னைப்	-10.7321
▁நை	-10.7326
நானும்	-10.7329
▁ஸலவாத்	-10.7329
▁ஜெப	-10.7331
▁அரட்டை	-10.7333
▁காணப்படுகிறது	-10.7334
▁விளைவுகளை	-10.734
▁சதவீத	-10.734
▁அறிஞர்	-10.734
mber	-10.7345
மாண	-10.7347
cal	-10.7348
ient	-10.7348
▁வீடுகளில்	-10.7351
பெரிய	-10.7352
மளிக்க	-10.7354
▁கேசினோ	-10.7356
▁உட்கார்ந்து	-10.7357
ாளன்	-10.7359
▁free	-10.736
▁person	-10.7361
▁probably	-10.7372
▁நுகர	-10.7373
▁நிராகரிப்பவர்கள	-10.7374
▁உரிமைகள்	-10.7377
▁செய்பவன	-10.738
ப்படுத்தப்பட்ட	-10.7381
▁விருந்து	-10.7382
▁பரந்து	-10.7383
ாமலே	-10.7386
▁உருவாக்கும்	-10.7386
▁மின்சார	-10.7386
▁கண்டி	-10.7387
▁நண்பரே	-10.7392
▁தெரியல	-10.7392
▁கொடை	-10.7393
▁விஞ்ஞான	-10.7395
னூ	-10.7395
▁அவுட்	-10.7398
▁தயாரிப்பாளர்	-10.7399
▁சமமாக	-10.7402
▁எவ்வ	-10.7405
பூர்	-10.7407
▁கூறினேன்	-10.7408
▁சாம்ப	-10.7409
▁படைப்பாளி	-10.741
▁அச்சம்	-10.7411
▁2005	-10.7413
▁என்பதன்	-10.7424
▁இருப்போம்	-10.7429
▁வாசிப்ப	-10.743
▁சமீப	-10.7431
ெங்கும்	-10.7432
▁உறு	-10.7433
▁இதைத்தான்	-10.7438
:00	-10.7441
▁பார்க்கிறேன்	-10.7442
ன்றோ	-10.7446
தெரிய	-10.7447
▁பார்வையிட	-10.7449
▁தொழில்நுட்பம்	-10.7451
▁அநேகமாக	-10.7452
ப்போக	-10.7455
▁உபகரணங்கள்	-10.7455
▁கொல்லப்பட்ட	-10.7456
▁இறந்துவிட்ட	-10.7456
▁ஷி	-10.7459
▁விவாதிக்க	-10.746
ட்டிங்	-10.7461
▁National	-10.7462
▁gr	-10.7462
▁சிலருக்கு	-10.7464
கேட்ட	-10.7464
▁அவனால்	-10.7469
▁தண்டிக்க	-10.7469
▁எவரேனும்	-10.747
▁பள்ளிக்கு	-10.7472
▁விழித்த	-10.7474
ital	-10.7474
▁கதாபாத்திர	-10.7477
▁வரவேற்ற	-10.7479
▁(1)	-10.7481
▁மதிப்பெண்	-10.7482
#	-10.7486
▁கழிவு	-10.7486
▁Not	-10.7487
அல்குர்ஆன்	-10.7489
▁உயரம்	-10.7489
▁தேவனாகிய	-10.749
உனக்கு	-10.7491
▁வைக்கவும்	-10.7493
▁ஒட்ட	-10.7494
▁எந்திர	-10.7494
▁வரலாற்றில்	-10.7495
UN	-10.7497
▁சாத்தியம்	-10.7502
பக்கம்	-10.7505
ானந்த	-10.7508
ின்றார்	-10.7508
▁ஆரோக்கியமான	-10.7514
▁சம்மத	-10.7517
பிடித்த	-10.7518
▁குரங்கு	-10.7518
▁புரிவ	-10.7519
▁உழைப்பு	-10.7521
▁எறிந்த	-10.7522
▁US	-10.7522
▁அல்லாஹ்வுடைய	-10.7523
▁இயல்பாக	-10.7524
▁சாரா	-10.7527
▁புராண	-10.7529
▁சந்த	-10.7531
▁அவளும்	-10.7532
ரீதியான	-10.7534
▁தாள்	-10.7535
▁சந்தையில்	-10.7537
▁அறுவை	-10.7539
▁ஒழுங்க	-10.754
▁செல்வம்	-10.754
▁படைத்தார்	-10.7542
▁விருந்த	-10.7545
ரியர்	-10.7549
விட்டதாக	-10.7549
வருட	-10.7551
ாக்ஸ்	-10.7552
▁குடும்பத்தினர	-10.7552
▁தீப	-10.7554
▁சைவ	-10.7557
▁கடற்கரை	-10.756
▁right	-10.7562
▁காலங்களில்	-10.7565
val	-10.7568
▁state	-10.757
▁வாங்கும்	-10.7571
▁அரண்மனை	-10.7572
▁வருகின்றது	-10.7573
▁பிறப்பு	-10.7574
tel	-10.7577
▁செல்கின்ற	-10.7582
SA	-10.7583
CC	-10.7584
ுவோமா	-10.7587
▁கொள்கின்ற	-10.7589
▁அங்கிருந்த	-10.7589
ினீர்கள்	-10.7591
▁சட்டை	-10.7591
▁நாடாளுமன்ற	-10.7596
cle	-10.7598
▁தானிய	-10.7598
▁கழுவ	-10.7599
▁விரும்புகிறோம்	-10.7599
▁சேவைகளை	-10.76
▁கழுதை	-10.76
▁தமக்கு	-10.7603
ency	-10.7606
ஹோ	-10.7608
மெல்லாம்	-10.761
▁பிறர்	-10.7616
றுத்த	-10.7618
▁செய்க	-10.7618
▁நேர்மையாக	-10.7619
▁வார்ப்புரு	-10.762
▁செய்திருக்க	-10.762
மில்லாமல்	-10.7621
rm	-10.7624
▁செய்யாமல்	-10.7624
▁கொண்டுவந்த	-10.763
▁41	-10.7631
▁சேனல்	-10.7632
▁வழங்கப்படுகிறது	-10.7636
வகையில்	-10.7636
▁வருடத்திற்கு	-10.764
▁உத்தி	-10.7646
▁best	-10.7647
▁தரையில்	-10.7649
▁Year	-10.765
▁say	-10.765
▁புத்தகங்களை	-10.7656
▁சேரும்	-10.7656
▁ரசிக்க	-10.7657
▁வெளிநாடு	-10.7658
▁குற்றச்சாட்டு	-10.7658
▁ஒத்தி	-10.766
▁ஷே	-10.7661
▁குடும்பத்தார	-10.7662
▁இயக்கம்	-10.7669
▁தொடர்பில்	-10.7672
▁பார்த்ததில்லை	-10.7672
▁இருவருக்கும்	-10.7673
▁செலவுகள்	-10.7678
▁கண்டுபிடிப்ப	-10.7679
ாமலேயே	-10.7679
▁ஐரோப்பிய	-10.768
▁மெஷின்	-10.768
▁உடலுக்கு	-10.7681
▁நீரை	-10.7681
▁டொ	-10.7683
▁உதை	-10.7687
rin	-10.7687
▁story	-10.7689
▁முதற்	-10.769
▁கேடு	-10.769
▁Ri	-10.769
▁இலிருந்து	-10.7691
▁உலர்	-10.7694
சனை	-10.7698
▁நேர்த்தி	-10.7699
▁உழைத்த	-10.7699
வுமில்லை	-10.7703
gan	-10.7705
▁உத்தரவு	-10.7705
▁அவனைக்	-10.7705
த்திரை	-10.7706
TC	-10.771
▁பார்வைகள்	-10.7718
வற்றின்	-10.7719
▁விளம்பரம்	-10.7724
▁இத்தாலி	-10.7729
▁நெருக்கமான	-10.773
▁பதிவாக	-10.7732
▁பார்த்தார்	-10.7733
▁போகிறார்கள்	-10.7734
▁பயன்படுத்தும்	-10.7735
▁அனை	-10.7738
▁அறிகுறி	-10.7739
▁Trans	-10.774
▁இரும்பு	-10.7742
▁செய்கிறீர்கள்	-10.7743
▁ஓவர்	-10.7744
other	-10.7744
▁என்பதாகும்	-10.7748
▁கொழுப்பு	-10.7748
▁காரியத்தை	-10.7749
▁விருந்தினர்	-10.7749
▁பூச்சி	-10.7751
▁சூழ	-10.7753
▁தேவர்	-10.7753
▁மீட்டு	-10.7753
▁gu	-10.7755
முடியவில்லை	-10.7757
▁play	-10.7762
▁want	-10.7764
▁தர்க்க	-10.7766
▁பாவத்தை	-10.7766
▁05	-10.7769
▁அத்தனையும்	-10.7772
▁கண்டுபிடிப்பு	-10.7775
▁மேற்க	-10.7777
▁Book	-10.7782
களுக்குள்	-10.7785
வர்களையும்	-10.7801
▁மாநாடு	-10.7802
▁இதழ	-10.7802
▁பக்தர்கள்	-10.7804
ிழந்த	-10.7806
vil	-10.7809
முடன்	-10.7809
▁சென்றால்	-10.7815
▁விடுவது	-10.7816
▁இவர்களில்	-10.782
▁டேவிட்	-10.7821
▁போராளி	-10.7822
▁சுவாரசிய	-10.7825
தற்கே	-10.7826
▁may	-10.7829
▁51	-10.783
cc	-10.7831
▁செடி	-10.7835
▁அறியாமல்	-10.784
கொடுக்க	-10.7845
▁should	-10.7854
▁அவ்விருவர	-10.7858
▁கொடிய	-10.786
வட்ட	-10.786
▁கொள்வோம்	-10.7866
▁பாடசாலை	-10.787
அதன்	-10.7872
▁Jaffna	-10.7878
த்தனை	-10.7881
las	-10.7882
lor	-10.7886
▁தவணை	-10.7886
▁விதிகள்	-10.789
▁கட்டுமான	-10.7891
▁அறிவான்	-10.7894
▁அமைதியை	-10.7896
▁நிகழ்த்த	-10.7897
▁உடலின்	-10.7899
▁ஐந்த	-10.79
▁உட்கார்ந்த	-10.7902
▁விற்பனைக்கு	-10.7902
▁வாய்ப்புகள்	-10.7905
▁வந்துள்ளது	-10.7906
▁உமர்	-10.7907
விடமிருந்து	-10.7908
▁உறவுகள்	-10.791
▁அதுபோல	-10.7912
▁சுதந்திரம்	-10.7912
▁வேண்டுமென்று	-10.7916
ிலிருந்த	-10.7919
▁தொலைக்காட்சி	-10.792
▁சூனிய	-10.792
▁வருவதாக	-10.7921
▁ஆகியோர	-10.7922
▁சுட்டிக்காட்ட	-10.7924
▁கரி	-10.7929
▁அமுத	-10.7931
▁அப்பால்	-10.7934
▁அரசன்	-10.7934
ப்பதற்காக	-10.7937
▁கோல	-10.7937
▁இவருடைய	-10.7937
பெரு	-10.7939
▁44	-10.7939
▁எஃகு	-10.7944
டான	-10.7945
▁முதலிய	-10.7946
▁அமைந்துள்ளது	-10.7952
▁வெளியான	-10.7953
rea	-10.7954
▁Mon	-10.7956
bit	-10.7956
▁http	-10.7963
▁வர்க்க	-10.7963
▁போயிருந்த	-10.7964
▁அனுப்பப்பட்ட	-10.7965
▁வேளையில்	-10.7967
▁கல்யாண	-10.7968
▁காப்பு	-10.7971
னாகிய	-10.7972
▁யாவரும்	-10.7972
▁நோவினை	-10.7976
▁அனைவரின்	-10.7977
▁கொண்டிருக்கிறது	-10.7979
▁காதலர்	-10.7983
▁நபிகள்	-10.7984
▁Ac	-10.7985
யானால்	-10.7988
▁கட்டமைப்பு	-10.799
ோரும்	-10.7991
▁ஆலை	-10.7992
ara	-10.7996
▁இஸ்ரேல	-10.7998
▁வாக்களித்த	-10.8
▁விரட்ட	-10.8001
.(1	-10.8002
▁நண்பா	-10.8006
udi	-10.8007
▁லாப	-10.8007
—	-10.8009
▁மாற்றிக்	-10.8011
▁ஊமை	-10.8011
▁தம்மை	-10.8012
▁இயல	-10.8015
▁இயல்பான	-10.8016
▁செவ்வ	-10.8016
வருடன்	-10.8019
▁ஃபோ	-10.8019
▁ஊட்ட	-10.8022
ke	-10.8025
rr	-10.8027
▁ஈஸா	-10.803
▁அருண	-10.8032
செல்ல	-10.8035
▁சூழ்ச்சி	-10.8039
▁விளையாட்டில்	-10.8041
▁வீட்டின்	-10.8042
ொன்ற	-10.8049
▁குறைத்து	-10.805
▁சமூகத்தின்	-10.805
▁நடந்தால்	-10.8057
▁தளத்தை	-10.8061
▁Web	-10.8061
▁Love	-10.8062
▁மன்னர்	-10.8065
▁Sri	-10.807
▁தானாகவே	-10.8072
▁விரை	-10.8072
▁கொடுக்கப்படும்	-10.8074
▁முன்வைக்க	-10.8076
களிடமும்	-10.8077
▁வளர்ப்ப	-10.8077
▁மோத	-10.8084
▁மர்ய	-10.8085
▁வேணா	-10.8085
▁அனுபவங்களை	-10.809
▁மீட்பு	-10.8094
▁நாயகன்	-10.8095
▁கம்பெனி	-10.8097
lin	-10.8098
▁Min	-10.8099
▁மகிழ்ச்சியான	-10.81
▁காண்கிற	-10.81
▁பயன்படுத்துவது	-10.8104
▁உமா	-10.8105
▁அரிசி	-10.8105
ிருந்தா	-10.8106
எனவே	-10.8107
▁பரந்த	-10.8116
▁சேகரிக்க	-10.8118
▁நம்பகமான	-10.8119
போர்ட்	-10.812
மெண்ட்	-10.812
▁நாராயண	-10.812
வாரி	-10.8123
ok	-10.8128
▁(5	-10.813
▁ஆவது	-10.8131
ப்பார்க்க	-10.8132
▁சந்தோஷம்	-10.8134
ிராத	-10.8136
க்கிறார்கள்	-10.8138
▁வெளிப்படையான	-10.8139
▁பூச	-10.8141
▁கத்த	-10.8146
▁வைப்பது	-10.8147
▁சரிபார்க்க	-10.8148
rror	-10.815
ுவீர்	-10.8151
▁இறந்தார்	-10.8153
▁முன்னோர்கள்	-10.8153
▁எதிர்பாராத	-10.8153
▁விடுவான்	-10.8153
▁செயற்பட	-10.8155
ities	-10.8155
மென	-10.8158
வர்களுக்கும்	-10.8159
ION	-10.8161
ரிங்	-10.8161
குரு	-10.8164
▁மலர	-10.8165
▁China	-10.8165
▁act	-10.8168
0000	-10.8173
▁கட்டப்பட்ட	-10.8174
CO	-10.8176
▁முரண்	-10.8177
▁நூலை	-10.818
பூர்வமான	-10.8181
fr	-10.8182
▁தளங்கள்	-10.8188
▁சென்றேன்	-10.819
▁வெளியிடப்பட்டது	-10.819
▁ராக	-10.8191
of	-10.8191
▁எழுதினார்	-10.8195
ுகிறாய்	-10.8196
lex	-10.8199
அமைச்சர	-10.82
▁முந்தி	-10.8201
▁செயற்	-10.8202
▁அறிவிக்கப்பட்ட	-10.8204
▁விரும்புகின்ற	-10.8206
:23	-10.8206
▁YOU	-10.8211
nes	-10.8212
▁எங்களின்	-10.8213
-12	-10.8214
▁படைத்தவன்	-10.8214
▁விதிக்க	-10.8218
▁தந்தையும்	-10.8222
▁இதுபற்றி	-10.8228
▁ப்ரஹ்ம	-10.8232
யென்றால்	-10.8234
▁புலிகள்	-10.8235
▁யோசித்த	-10.8238
▁மேலாளர்	-10.8239
▁படகு	-10.8242
▁By	-10.8243
▁இதர	-10.8246
▁போலீஸார்	-10.8247
▁தாக்குதல	-10.825
▁கேலி	-10.8251
▁வாசகர்கள்	-10.8252
வாறே	-10.8254
▁ஆளுமை	-10.8258
▁உச்சி	-10.8261
▁களி	-10.8263
மொ	-10.8263
nger	-10.8263
▁மனிதர்களின்	-10.8265
▁போதனை	-10.8265
▁கோவை	-10.8268
▁இடம்பெற	-10.8268
▁சமயங்களில்	-10.8268
▁பூங்கா	-10.8268
▁நடப்பது	-10.827
▁குற	-10.827
▁இயங்கும்	-10.827
▁இந்ந	-10.8273
▁சோர்வ	-10.8275
▁சிரிப்பு	-10.8275
mar	-10.8276
▁ago	-10.8278
▁இவ்வாறான	-10.8279
▁பிடித்துக்	-10.8279
▁பணியில்	-10.828
▁இப்ராஹீம்	-10.828
விட்டீர்கள்	-10.8282
▁நெல்	-10.8285
▁பாடி	-10.8285
▁ஏற்கெனவே	-10.8287
▁எட்டி	-10.8288
▁கோவில	-10.829
▁தனிநபர்	-10.8291
பள்ளி	-10.8293
றிந்து	-10.8294
▁பின்னரும்	-10.8298
▁துப்ப	-10.8301
▁முற்று	-10.8302
OL	-10.8302
▁MO	-10.831
▁விகித	-10.831
ுபவை	-10.831
▁கலா	-10.8313
▁தாக்கல்	-10.8313
▁தகுந்த	-10.8318
pro	-10.8318
▁அங்கீகார	-10.8326
▁போட்டியிட	-10.8326
▁குளிர	-10.8332
▁இறுக்க	-10.8333
ியிருக்கிறது	-10.8333
▁இந்தியாவை	-10.8334
▁பலனை	-10.8341
▁நிர்வாகி	-10.8342
நெறி	-10.8344
▁எழுதுகிறேன்	-10.8347
▁அரவிந்த	-10.8347
▁நூற்றாண்டு	-10.8352
▁எடுத்துக்கொள்ள	-10.8352
▁விடாதீர்கள்	-10.8353
▁how	-10.8359
முழு	-10.836
றையில்	-10.8361
▁சுவாச	-10.8361
▁வசனங்கள	-10.8365
▁எதிர்மறை	-10.8366
▁Red	-10.8366
▁வர்ற	-10.8368
▁தொடங்கிய	-10.8369
▁பதவியை	-10.837
▁சந்தா	-10.8373
ாங்களா	-10.8374
ோரின்	-10.8375
கெட்ட	-10.8377
மட்ட	-10.8377
▁மன்னிப்பவனாக	-10.8382
▁எங்காவது	-10.8388
▁காய்கறி	-10.839
▁குற்றங்களை	-10.839
ப்படுகிறார்	-10.8391
body	-10.8395
▁இன்பம்	-10.8396
நிதி	-10.8397
▁கண்காணிக்க	-10.8399
ெண்ண	-10.8402
ina	-10.8403
▁அதிகரிப்ப	-10.8406
ூன்	-10.8407
மகன்	-10.841
ப்பெற	-10.8413
▁அத்தியாயம்	-10.8416
நினை	-10.8417
▁மனிதனாக	-10.8419
▁நிகழும்	-10.8419
▁64	-10.8421
▁count	-10.8421
▁கொடுத்தோம்	-10.8423
▁எப்பொழுது	-10.8424
▁விண்ணப்பிக்க	-10.8425
▁நூல்கள்	-10.843
▁கட்டத்தில்	-10.843
▁அஞ்சல்	-10.8432
▁ஊதிய	-10.8432
▁காரியங்களை	-10.8432
சென்	-10.8434
▁பின்னும்	-10.8437
▁அம்பு	-10.8438
▁உரிம	-10.8438
▁Jo	-10.8438
▁பயனுள்ளதாக	-10.8441
வரான	-10.8441
▁சமநிலை	-10.8445
கண்	-10.8445
▁ஒருவனை	-10.8446
பூர்வமாக	-10.8446
▁கேள்	-10.8448
வனுடைய	-10.8448
▁More	-10.8448
▁உணர்கிற	-10.8448
ific	-10.845
உட	-10.845
▁மற்றபடி	-10.8454
▁பேட்டரி	-10.8455
▁புரியாத	-10.8456
ike	-10.8457
▁ஷூ	-10.8461
▁லட்ச	-10.8461
▁At	-10.8462
▁கணித	-10.8466
த்திரு	-10.8467
▁சிறுவர்	-10.847
▁சூழல	-10.8471
▁அம்மாவை	-10.8471
▁உள்ளடக்கிய	-10.8471
▁அணிந்து	-10.8472
▁உங்	-10.8473
▁கொண்டான்	-10.8474
▁Inter	-10.8477
தேவி	-10.8478
▁பணிகளை	-10.8479
▁எதிர்பார்ப்ப	-10.8482
▁விரைவான	-10.8482
▁வருவேன்	-10.8483
نَ	-10.8484
▁திறமையான	-10.8488
ology	-10.8489
▁திகழ்	-10.8489
▁நினைக்கிறீர்கள்	-10.8494
▁இருக்கேன்	-10.8497
▁Ve	-10.8497
▁சக்தியை	-10.8498
▁உம	-10.85
▁கம்பி	-10.8503
▁பிரிவில்	-10.8507
▁விழிப்ப	-10.8507
▁நுண்ண	-10.8509
▁வைத்திருக்கும்	-10.8509
▁இறக்கம்	-10.8509
▁வருது	-10.8512
▁யோசித்து	-10.8514
▁கன்னி	-10.8517
▁வரலாற்றை	-10.8518
▁போயிருக்க	-10.8521
▁அறியவில்லை	-10.8524
ுறேன்	-10.8524
▁பேய்	-10.8528
▁புண்ணிய	-10.8529
way	-10.8529
▁ஆதரவாக	-10.8529
பூமி	-10.853
▁எந்தவித	-10.8531
க்காலம்	-10.8532
▁எதிர்காலம்	-10.8533
▁வலைத்தளம்	-10.8537
வ்வ்வ்வ்வ்வ்வ்	-10.8542
▁ஊக்குவிக்க	-10.8546
▁தன்மையை	-10.8546
▁பாடிய	-10.8546
▁தணி	-10.8547
▁எதிர்கொள்ள	-10.8547
▁மில்லி	-10.855
▁If	-10.8551
▁விமர்சனங்கள்	-10.8551
▁விவசாயிகள்	-10.8551
▁பெர்	-10.8551
▁செய்யப்படுகிறது	-10.8552
▁தமிழ்நாடு	-10.8555
▁அடைகிற	-10.8556
▁குடு	-10.8558
▁எப்படியாவது	-10.8559
▁இன்ஷா	-10.856
▁பிரிவ	-10.8561
▁கமல	-10.8562
▁75	-10.8562
▁ஒட்டு	-10.8563
▁சுத்தமான	-10.8564
▁வெளிப்பாடு	-10.8567
வீர	-10.8569
▁முன்னோர்	-10.8572
▁காலத்தை	-10.8574
கேட்	-10.8574
▁மோசே	-10.8574
▁வாரங்கள்	-10.8577
EM	-10.8577
▁கதிர்	-10.8578
turn	-10.8579
▁ராகு	-10.8581
▁ஜின்	-10.8582
▁அருட்கொடை	-10.8586
ேந்திர	-10.8589
▁பெருக	-10.8589
▁நாச	-10.8591
bal	-10.8593
fa	-10.8597
▁படைத்தவர்	-10.8598
அடுத்த	-10.8602
ுணர்வ	-10.8603
▁படப்பிடிப்பு	-10.8603
▁الل	-10.8604
பின்னர்	-10.8605
bel	-10.8605
▁இருவருமே	-10.8608
ருதி	-10.861
cus	-10.8611
▁வழிமுறைகள்	-10.8612
▁தெரியாதா	-10.8612
▁இருப்பான்	-10.8614
▁தொடங்கும்	-10.8622
ிருக்கின்றோம்	-10.8624
▁அங்கீகரிக்க	-10.8625
IA	-10.8625
▁தீமையை	-10.8627
▁பொன்	-10.8629
ிருக்கிறீர்களா	-10.8629
▁வசதியாக	-10.8633
uk	-10.8634
▁இறப்ப	-10.8636
ுங்களேன்	-10.8637
▁பாரு	-10.8637
▁அணுகுமுறை	-10.8638
▁இணைப்ப	-10.8638
▁இணக்க	-10.8639
க்குறை	-10.8639
பிரா	-10.864
ular	-10.864
▁ரத்து	-10.8642
ல்லாத	-10.8642
▁அற்ற	-10.8643
▁விரைந்து	-10.8643
▁சாந்தி	-10.8644
ொலி	-10.8646
▁உன்னோட	-10.8649
▁மூழ்கி	-10.8651
▁இருப்பின்	-10.8651
▁Ja	-10.8652
▁கதற	-10.8655
▁இவள்	-10.8655
▁அருமையாக	-10.8659
▁நிறுவனங்கள	-10.866
▁விசேஷ	-10.8665
ale	-10.8665
ப்படுத்திக்	-10.8667
வென	-10.8667
நிற	-10.8668
▁சாதிக்க	-10.8672
ளித்து	-10.8673
ஜூ	-10.8673
கிட்டு	-10.8674
▁very	-10.8674
▁எரிச்சல	-10.8676
▁தாயின்	-10.8679
ுருவ	-10.868
▁கூறுவதை	-10.8686
▁உருவான	-10.8687
▁பரவாயில்லை	-10.8687
▁சங்கீத	-10.8688
உள்ள	-10.869
▁வாக்கிய	-10.869
▁கிறிஸ்துவின்	-10.869
2017	-10.8691
oth	-10.8695
▁வியாபாரி	-10.8695
▁பாலி	-10.8696
▁பயணிக்க	-10.8696
யில்லாமல்	-10.8698
▁ஊரை	-10.8698
திற	-10.87
▁மெய்யாகவே	-10.8702
▁கோடு	-10.8703
▁அதன்பிறகு	-10.8704
chan	-10.8706
▁bl	-10.8713
▁நடவடிக்கைகளை	-10.8715
▁தெரியாம	-10.8715
ேஸ்வர	-10.8717
க்கொள்ளுங்கள்	-10.8718
▁பையன	-10.8719
▁தொழிலாளர்கள்	-10.872
▁நடுத்தர	-10.872
இப்படி	-10.8723
▁நடுங்க	-10.8727
▁நிமிடங்களில்	-10.8728
▁நேர்மறை	-10.8728
▁கருத்துரை	-10.8729
▁காவலர்	-10.873
▁கண்காணிப்பு	-10.8731
▁கவனத்தை	-10.8732
jo	-10.8735
▁FSX	-10.8736
▁உபதேசம்	-10.8737
▁they	-10.8739
▁சுவர்க்க	-10.8741
▁ஆச்சரியம்	-10.8742
▁உட்கார	-10.8748
ுகிறார்களோ	-10.8749
CT	-10.8752
▁நரகத்தில்	-10.8752
▁பாகம்	-10.8758
▁கடைசியில்	-10.8759
▁மறுமையிலும்	-10.8764
யிலுள்ள	-10.8765
▁அறிகிற	-10.8765
▁மரங்கள்	-10.8767
▁மனைவிக்கு	-10.877
EC	-10.8771
ின்றீர்கள்	-10.8773
▁செய்யப்பட்டு	-10.8773
▁மிஞ்ச	-10.8774
ாசிரியர்	-10.8775
▁கன்ன	-10.8777
க்கொள்கிற	-10.8777
ாலய	-10.8778
MA	-10.8779
மிகு	-10.8779
▁சிலரை	-10.878
\\	-10.8781
▁கொண்டார்கள்	-10.8783
▁மென்	-10.8784
▁உன்னால்	-10.8785
மாட்டோம்	-10.879
key	-10.8792
▁most	-10.8794
▁வடக்கு	-10.8799
▁உபயோகிக்க	-10.8801
▁வம்ச	-10.8802
▁தத்த	-10.8802
▁போதே	-10.8806
▁வெளிப்பட	-10.8806
▁which	-10.8807
▁நேரிடும்	-10.8812
▁குறிக்கிறது	-10.8814
ஜ்ஜ	-10.8818
▁வயசு	-10.8818
▁நெருப்பை	-10.8821
▁பாடல்களை	-10.8823
cho	-10.8828
யுடனும்	-10.8831
▁years	-10.8832
▁பேசுகிறார்	-10.8833
▁பராமரிக்க	-10.8834
▁சாதாரணமாக	-10.8835
▁உண்மையைக்	-10.8837
▁தகுதியான	-10.884
▁கவு	-10.8842
▁நீரில்	-10.8842
well	-10.8842
த்தூ	-10.8843
▁பாட்டில்	-10.8844
▁கொதி	-10.8845
▁அவனின்	-10.8848
▁மோசடி	-10.8849
▁நினைத்தது	-10.8849
▁பொறுமையாக	-10.885
▁பயமுறுத்த	-10.8852
▁இருக்குமா	-10.8853
▁பிள்ளைகளை	-10.8853
▁பிரார்த்தி	-10.8854
▁சொல்லுகிறார்	-10.8855
▁செய்வதில்	-10.8856
▁பரிகார	-10.8856
▁இமாம்	-10.8857
▁முடிந்தால்	-10.886
▁போலீசார்	-10.8866
▁வெளியேறி	-10.8868
ets	-10.887
ப்பட்டிருக்கிறது	-10.887
▁HD	-10.887
▁மந்த	-10.887
▁உதடு	-10.8871
▁குழந்தைகளும்	-10.8871
வேதனை	-10.8873
▁ஒடுக்க	-10.8875
▁காண்பித்த	-10.8875
▁செயற்பாடு	-10.8876
▁அசல்	-10.8876
▁கேட்டபோது	-10.8877
▁ஆணையாக	-10.888
5,000	-10.8881
-19	-10.8882
▁ஆயுள்	-10.8882
▁கடைகளில்	-10.8882
▁கிறிஸ்தவ	-10.8885
வீரர்	-10.8886
emp	-10.8888
▁USD	-10.889
▁உம்மு	-10.8892
▁விஷயங்களில்	-10.8896
▁டெல்லி	-10.8897
▁கண்டுபிடித்து	-10.89
▁இறப்பு	-10.89
▁வாக்களிக்க	-10.8902
arm	-10.8903
க்கிட	-10.8905
ப்போகிறது	-10.8907
▁எவை	-10.8909
:24	-10.8909
▁கிழி	-10.8913
▁பாதையை	-10.8914
▁மணிநேர	-10.8915
ப்போல்	-10.8917
▁நினைப்பது	-10.8917
▁வெறுத்த	-10.8919
900	-10.8919
▁அழைக்கப்பட்ட	-10.892
▁Comp	-10.892
▁நினைக்கிறார்கள்	-10.8921
▁மகனுக்கு	-10.8922
▁கண்காணிப்ப	-10.8929
ப்படாமல்	-10.8932
▁அமைந்துள்ள	-10.8932
▁வேறுபட்ட	-10.8934
▁help	-10.8934
▁தேசம்	-10.8936
ray	-10.8936
ware	-10.8938
▁பகிர்வு	-10.8941
▁ஆப்பிள்	-10.8944
▁காந்த	-10.8948
▁கேட்	-10.8949
▁வெறுக்க	-10.895
▁(_	-10.8951
▁குடும்பத்தினர்	-10.8952
வோடு	-10.8954
▁கொண்டவர்கள்	-10.8958
களுக்கிடையே	-10.8958
▁மன்னி	-10.896
LA	-10.8961
▁அங்கேயே	-10.8961
▁எதையாவது	-10.8961
▁fo	-10.8961
▁இப்படியான	-10.8964
▁பாதுகாத்து	-10.8964
▁Blog	-10.8964
▁வீழ்ச்சி	-10.8966
மதிப்ப	-10.8966
▁ஆழமாக	-10.8966
▁தெளிவ	-10.8967
▁அறிவித்தார்	-10.8968
▁கண்களுக்கு	-10.8969
▁என்னவென்று	-10.897
▁அகதி	-10.897
its	-10.897
▁கற்பிக்க	-10.8973
▁அன்புடன்	-10.8974
▁தொழுகையை	-10.8974
▁NO	-10.8975
அல்லாஹ்வை	-10.8978
▁str	-10.8979
▁நேர்காணல	-10.898
▁வடிவமைப்ப	-10.8981
▁கைதி	-10.8982
▁அத்தியாய	-10.8984
▁கேபிள்	-10.8985
▁வானத்தில்	-10.8985
▁அவங்கள	-10.8989
▁அறிந்திருந்த	-10.8989
pcs	-10.8996
களிட	-10.8996
▁விட்டீர்கள்	-10.8999
▁முன்னேற்றம்	-10.9002
தந்தை	-10.9004
▁குரலில்	-10.9006
▁முடக்க	-10.9006
▁திட்டமாக	-10.9007
▁தொல்லை	-10.9007
▁பரா	-10.9014
▁பகலில்	-10.9016
▁பழக்கம்	-10.9017
▁mean	-10.9017
▁ஃப்ர	-10.9017
▁அனுமதிக்கிறது	-10.9018
▁நடித்து	-10.9026
▁அறிவாளி	-10.9027
ிருப்பான்	-10.9027
▁ஒட்டுமொத்த	-10.903
▁ஞாயிறு	-10.903
▁ஸு	-10.9033
▁புறப்பட்டு	-10.9033
▁இப்போதே	-10.9033
▁too	-10.9034
▁இருந்தவர்கள்	-10.9039
?//	-10.9041
▁அமைப்பை	-10.9043
▁கேட்டார்கள்	-10.9043
aw	-10.9043
▁நேர்ந்தது	-10.9044
▁முதலீட்ட	-10.9045
▁ஆயிர	-10.9045
▁கட்டுப்பாட்டு	-10.9045
▁ஆர்டர்	-10.9045
lock	-10.9047
▁மட்டு	-10.9047
▁மைல்	-10.9049
▁பாதுகாவல	-10.9049
தாரர்	-10.905
▁பசுமை	-10.9055
▁விருப்பங்கள்	-10.9055
▁please	-10.9057
எழு	-10.9057
▁நெருக்கமாக	-10.9065
▁இன்றுவரை	-10.9065
▁தம	-10.9066
▁பதிய	-10.9069
▁ரஷ்ய	-10.9069
▁மோச	-10.9071
வேயில்லை	-10.9071
▁தெளிவுபடுத்த	-10.9073
த்தினர	-10.9073
▁அம்ப	-10.9075
போர்	-10.9077
▁இந்திர	-10.9077
▁எழுதுங்கள்	-10.9082
▁கிடைக்காது	-10.9082
ின்றார்களோ	-10.9083
யுற்ற	-10.9083
▁மூழ்க	-10.9086
முகம்	-10.9087
▁வருஷம்	-10.9088
▁போட்டோ	-10.9089
▁கூப்பிட்ட	-10.909
▁நேசிக்கிற	-10.9092
▁அதற்குள்	-10.9092
▁பொதுமக்கள்	-10.9093
இதோ	-10.9094
▁International	-10.9098
▁பணியாளர்கள்	-10.9099
▁நட்ப	-10.9101
▁செய்வதில்லை	-10.9101
▁நாயகி	-10.9103
▁கல்யாணம்	-10.9104
▁War	-10.9105
SL	-10.9108
▁பிரபஞ்ச	-10.9113
▁04	-10.9116
▁சம்பளம்	-10.9117
▁டிக்கெட்	-10.9122
▁ஆய்வுகள்	-10.9123
▁தூய்மையான	-10.9123
▁பாரத	-10.9125
lat	-10.913
▁கோப்புகளை	-10.9131
▁வாழ்கை	-10.9132
▁பிராண்ட்	-10.9134
▁நம்பவில்லை	-10.9138
▁எழுப்பி	-10.9138
▁காதலை	-10.914
▁படியுங்கள்	-10.9141
▁வராத	-10.9141
▁சர்ச்சை	-10.9142
▁நேர்வழியை	-10.9144
▁ஹரி	-10.9145
விடுவேன்	-10.9145
▁பேராசிரியர்	-10.9147
மாட்டீர்கள்	-10.9147
▁Part	-10.9148
வலி	-10.9149
கிருஷ்ண	-10.9149
▁Je	-10.915
விட்டாள்	-10.9152
▁செய்கின்றன	-10.9154
▁ga	-10.9157
ஒவ்வொரு	-10.9159
▁தொடங்குகிறது	-10.9164
▁பாத்த	-10.9166
▁மாறிய	-10.9166
▁சாட்ட	-10.9175
▁இருந்ததா	-10.9176
▁அஞ்சு	-10.918
▁இயலவில்லை	-10.9181
▁தாயார்	-10.9181
நூல்	-10.9181
▁மூடப்பட்ட	-10.9185
▁வாரங்களுக்கு	-10.9188
▁சென்றாலும்	-10.9188
▁நிதானமாக	-10.9189
▁வாய்ப்பை	-10.9192
ிருக்கின்றான்	-10.9195
▁சுருக்கமாக	-10.9196
திலேயே	-10.9198
▁பறவைகள்	-10.9199
▁முற்பட	-10.9199
ஸ்தான	-10.9202
▁விட்டுவிட்டு	-10.9203
▁book	-10.9203
▁பெறுவீர்கள்	-10.9204
ில்லாமல்	-10.9206
▁வரவேண்டும்	-10.9208
களெல்லாம்	-10.921
▁Good	-10.9212
read	-10.9214
▁வணக்க	-10.9214
அறிவ	-10.9215
▁பிண	-10.9217
விடுவான்	-10.9217
▁நாடுகளின்	-10.9217
ுகிறாரோ	-10.9219
▁இரட்சகர	-10.922
▁அவதான	-10.9223
▁சகோதரன்	-10.9224
▁car	-10.9225
▁உணர்வுகள்	-10.9227
நேர்	-10.9229
▁சமூகத்தை	-10.923
▁தகப்பன	-10.9235
▁எண்ணங்கள்	-10.9235
▁நீதிமன்றம்	-10.9237
▁தியானம்	-10.9238
▁என்றோ	-10.9239
▁நெட்வொர்க்	-10.9243
ேஷ	-10.9243
▁உனக்க	-10.9245
▁இனிமையான	-10.9245
▁பாம்பு	-10.9247
▁அண்ட்ராய்டு	-10.9248
▁புறக்கணிக்க	-10.9251
அன்ப	-10.9253
▁இப்படியே	-10.9255
▁பதிலளித்த	-10.9255
▁எங்கோ	-10.9259
▁பிரிவுகள்	-10.926
ஃபிர்அவ்ன	-10.9261
▁அளவிட	-10.9264
விடுவார்	-10.9267
▁விண்வெளி	-10.9267
▁தோள்	-10.9267
▁சுரங்க	-10.9269
▁வரவேற்ப	-10.927
▁மிகுதி	-10.9273
▁இவரின்	-10.9274
:27	-10.9274
ள்ளும்	-10.9275
Host	-10.9276
TA	-10.9276
▁விசுவாசி	-10.9283
▁இவற்ற	-10.9289
▁அல்லா	-10.9292
lle	-10.9294
▁என்கிறது	-10.9295
மிருந்து	-10.9295
▁வடிவமைக்கப்பட்ட	-10.9298
▁மலக்குகள்	-10.9304
▁கூகுள்	-10.9304
:29	-10.9307
▁55	-10.9307
▁மன்னிப்புத்	-10.9308
▁முலை	-10.931
ொன்றை	-10.931
▁பகவான்	-10.9315
▁tea	-10.9319
▁09	-10.932
▁சுமத்த	-10.9324
▁நண்பர்களுக்கு	-10.9329
▁காமெடி	-10.9333
▁தலித்	-10.9336
▁விற்ப	-10.9336
▁47	-10.9337
▁Lanka	-10.9337
▁பேசியது	-10.9338
▁எளிமையாக	-10.9338
▁TV	-10.9339
விழா	-10.934
▁ஏக்க	-10.9345
▁தாமதமாக	-10.9346
▁பிளே	-10.9347
▁change	-10.9347
▁வழக்குகள்	-10.9347
▁குடிப்ப	-10.9349
னிங்	-10.9349
▁தங்குமிட	-10.9351
▁தேர்ந்தெடுத்து	-10.9356
▁எண்கள்	-10.9357
▁திறனை	-10.936
▁அலட்சிய	-10.9361
▁ருசி	-10.9362
▁கதைகளை	-10.9363
ram	-10.9368
▁முன்னிலையில்	-10.937
▁ஜு	-10.9372
▁தெய்வம்	-10.9373
▁பலகை	-10.9373
ப்படுகின்ற	-10.9374
▁உணவில்	-10.9375
▁சுப	-10.9375
▁யூதா	-10.9376
▁பழமொழி	-10.9379
▁இவனை	-10.9381
▁விதித்த	-10.9381
▁Why	-10.9386
சிறு	-10.9389
▁ஏற்றி	-10.9389
▁தருகிறேன்	-10.9392
▁விபத்தில்	-10.9396
▁டொமைன்	-10.9399
▁பதிலளித்தார்	-10.9399
▁மனைவியின்	-10.9401
நாட்	-10.9402
▁வரைக்கும்	-10.9404
களாலும்	-10.9407
▁வேண்டுகோள	-10.9408
▁விழுந்தது	-10.941
▁காணொளி	-10.9411
▁(2)	-10.9411
படுகிறது	-10.9414
▁உடனடி	-10.9415
▁ஹோட்டல்	-10.9418
ஜு	-10.942
▁நேரத்திலும்	-10.942
▁சட்டத்தின்	-10.9421
தென	-10.9422
▁வருவதில்லை	-10.9427
ிட்டேன்	-10.9428
▁பிறந்தது	-10.943
▁விடாமல்	-10.9432
▁புண்டை	-10.9432
▁பெண்களும்	-10.9433
▁தலைவி	-10.9439
▁ஆயுதம்	-10.9441
▁மேற்கோள்	-10.9442
▁வித்தியாச	-10.9443
வுள்ளது	-10.9443
▁2004	-10.9445
▁வாரிய	-10.9448
▁தலைமையில்	-10.9452
▁ஒப்படைக்க	-10.9452
▁சம்பவங்கள்	-10.9456
▁காரணத்தால்	-10.9456
▁போற்றி	-10.9456
▁புழு	-10.9458
▁men	-10.9461
அவரை	-10.9462
▁தம்முடைய	-10.9462
அவர்களுக்கு	-10.9464
put	-10.9467
▁சீனாவில்	-10.9469
வாரம்	-10.947
தினால்	-10.9471
▁சிறுவர்கள்	-10.9472
▁வருவாய்	-10.9478
▁முயற்சியில்	-10.9478
▁மாமி	-10.9488
ுகின்றார்கள்	-10.9488
வருகிறது	-10.9491
▁ஏல	-10.9491
▁நேரமாக	-10.9494
▁நிவாரண	-10.9495
▁யோகா	-10.9497
▁இருப்பிட	-10.9501
▁நன்கறிந்தவன்	-10.9503
▁தோன்றி	-10.9504
▁குடியரசு	-10.9504
▁never	-10.9506
▁inter	-10.9508
▁America	-10.9509
▁சொல்லுகிறேன்	-10.9509
▁வையுங்கள்	-10.951
▁கடன	-10.9512
▁வரையறுக்க	-10.9514
பாய்	-10.9516
வனிடம்	-10.9516
ala	-10.9518
▁பிறந்து	-10.9519
▁அன்பின்	-10.9521
▁சாத்தியமான	-10.9525
▁இற	-10.9525
▁ஆதரவாளர்	-10.9529
க்கென	-10.9531
▁சாலையில்	-10.9533
▁செய்பவற்றை	-10.9533
▁them	-10.9535
▁உலகிற்கு	-10.954
▁way	-10.9545
▁வசதியான	-10.9546
▁புவி	-10.9547
▁Article	-10.9548
▁மழையை	-10.955
▁பருக	-10.9552
வாவது	-10.9553
▁பெய்த	-10.9555
▁அத்தாட்சிகளை	-10.9563
cover	-10.9568
▁தடுமாற	-10.9568
▁விடயம்	-10.9568
We	-10.9568
க்கிறோம்	-10.9568
2.0	-10.9568
▁திருத்தி	-10.9572
மகனே	-10.9577
▁வெளிப்புற	-10.9578
▁காலத்திற்கு	-10.9579
மென்று	-10.9579
▁Ste	-10.958
ஜென்	-10.958
க்கூடாத	-10.9586
▁சர்க்கரை	-10.9586
ப்பாய்	-10.9587
▁தொங்க	-10.9589
பேறு	-10.9592
▁கார்டு	-10.9594
▁எண்ணை	-10.9595
`	-10.9596
க்கெல்லாம்	-10.9597
▁கண்டறிந்த	-10.9597
▁பாதிக்கும்	-10.9598
▁நடுவில்	-10.9599
ஆஆஆஆஆஆஆஆஆஆஆஆஆஆஆ	-10.96
ேனோ	-10.9602
திருக்குர்ஆன்	-10.9602
▁காவல்துறை	-10.9602
உங்க	-10.961
Co	-10.9612
▁விற்பனையாளர்	-10.9612
வாழ்க்கை	-10.9614
▁அசைவ	-10.9617
▁great	-10.962
▁அவனோ	-10.9621
▁பிரபு	-10.9622
▁நாட்களை	-10.9622
▁விரும்பாத	-10.9625
▁நம்புவது	-10.9625
0.00	-10.9629
uni	-10.9631
▁சூட்ட	-10.9633
▁செய்வதாக	-10.9635
▁நபியவர்கள்	-10.9635
▁இலாப	-10.9636
▁வருவோம்	-10.9637
▁பெய்	-10.9637
▁அவதி	-10.964
rac	-10.9643
▁கான	-10.9644
▁நிரல்	-10.9644
▁போராடி	-10.9646
thi	-10.9646
▁முகாம	-10.9649
▁மரணமடைந்த	-10.9654
9%	-10.9654
▁வகுத்த	-10.9657
ியிருந்தார்	-10.9658
▁இறக்குமதி	-10.9659
gar	-10.9661
▁மாறியது	-10.9662
▁விண்ண	-10.9664
▁யாராலும்	-10.9665
▁03	-10.9669
▁நடிப்பு	-10.9673
▁நெருக்க	-10.9674
▁120	-10.9675
▁இயேசுவை	-10.9676
யூட்ட	-10.9677
▁தடுப்பு	-10.9677
ியுள்ளோம்	-10.9678
ama	-10.9683
ுபவர்களுக்கு	-10.9687
▁தொழிற்	-10.969
▁பெறுவதற்கு	-10.969
▁பூமியையும்	-10.9693
▁கணவன	-10.9694
▁விருப்பத்தை	-10.9694
▁ஊரு	-10.9694
▁மேம்பட்ட	-10.9694
▁தங்கிய	-10.9702
▁காயப்படுத்த	-10.9703
PA	-10.9708
▁பேச்சுவார்த்தை	-10.9708
▁இஸ்ரயேல்	-10.9709
▁இரை	-10.9713
▁அனுபவங்கள்	-10.9713
▁பேசிக்கொண்ட	-10.9715
வுலக	-10.9718
▁கூடியது	-10.9718
▁ஆணி	-10.9719
மூல	-10.972
▁அறியும்	-10.972
▁முகாம்	-10.9721
▁பொங்க	-10.9726
▁Win	-10.973
▁பயிர்	-10.9731
▁புரிதல்	-10.9732
▁பிரித்த	-10.9734
▁உருவாகி	-10.9736
dent	-10.9737
தூத	-10.974
▁வீழ்த்த	-10.9743
செல்வ	-10.9746
▁பவுல	-10.9749
▁வாரிசு	-10.9751
▁பாதித்த	-10.9753
▁வளர்த்த	-10.9755
▁ராணி	-10.9755
▁வளைய	-10.9755
▁காட்டிலும்	-10.9756
▁இவைகளை	-10.9757
ப்பிரி	-10.9758
▁சுலபமான	-10.9759
▁தனித்து	-10.9762
▁காதலிக்க	-10.9765
get	-10.9766
UL	-10.9768
கொட	-10.9769
▁சமாதானம்	-10.9771
▁ஸலமா	-10.9773
▁இதைவிட	-10.9779
ஃப்ட்	-10.9779
▁உற்று	-10.978
▁சூழ்நிலையில்	-10.9782
▁அய்ய	-10.9783
uch	-10.9784
▁அழுது	-10.9785
யிருந்து	-10.9793
300	-10.9795
▁Up	-10.9797
▁வந்தோம்	-10.98
phone	-10.98
▁Black	-10.9807
கிழ	-10.9808
cy	-10.9811
▁கூறியதை	-10.9811
-8	-10.9812
IP	-10.9813
▁பிளஸ்	-10.9816
▁மாறுபட்ட	-10.9816
▁சிரித்து	-10.9818
▁அவங்களுக்கு	-10.9818
▁Windows	-10.9822
▁65	-10.9823
▁இந்தியாவுக்கு	-10.9824
▁உருப்படி	-10.9825
▁திருவடி	-10.9825
ஸாலிஹான	-10.9832
▁உரியது	-10.9838
▁விரும்புகிறீர்	-10.9839
ஸன்	-10.9843
▁வார்த்தையை	-10.9844
▁குரல	-10.9846
▁திருமதி	-10.9846
▁முடியலை	-10.9846
▁Che	-10.9853
▁போரில்	-10.9854
▁நிராகரிப்போர	-10.9858
-6	-10.9858
▁விதம்	-10.9858
▁பக்தர்	-10.986
▁விநாடி	-10.9862
ாகிவிட்டது	-10.9864
▁முன்வைத்த	-10.9865
uc	-10.9867
▁கட்டாயம்	-10.9867
▁call	-10.9868
▁ஓட்டி	-10.9869
▁திருமணத்திற்கு	-10.9871
▁கால்நடை	-10.9872
▁நினைவுகூர	-10.9873
▁பெயரிட	-10.9873
அவள்	-10.9878
▁400	-10.9879
▁மேடையில்	-10.988
▁08	-10.9884
▁கடையில்	-10.9886
yn	-10.9887
▁செய்திட	-10.9889
▁செயல்படும்	-10.9891
vent	-10.9893
▁Mu	-10.9895
▁விரும்பினார்	-10.99
▁அற்ப	-10.9902
ுடனேயே	-10.9904
▁ஆசிய	-10.9905
▁நிமிஷ	-10.9912
▁எரிக்க	-10.9912
அப்போது	-10.9912
▁போரிட	-10.9916
▁அதிகாரப்பூர்வ	-10.9916
▁ஆட்டம்	-10.9921
த்தனமான	-10.9923
▁இணைத்து	-10.9923
▁வியந்த	-10.9923
▁பகிர்ந்த	-10.9923
ஆகவே	-10.9925
▁under	-10.993
▁முதன்மையான	-10.993
▁Mobile	-10.9932
▁வேண்டியிருந்தது	-10.9932
▁அல்லர்	-10.9933
▁முப்பது	-10.9933
▁கிரு	-10.9937
▁முதலமைச்சர்	-10.9937
▁இவ்ளோ	-10.9938
ோரில்	-10.9938
▁உங்களுக்கே	-10.9939
▁year	-10.994
▁பெறவில்லை	-10.9943
▁அழகை	-10.9944
▁வாசித்து	-10.9946
▁விரும்புவது	-10.9947
▁சஞ்ச	-10.9947
▁அல்லாஹ்வைத்	-10.9951
▁விதிமுறை	-10.9952
▁முருகன்	-10.9953
ஆண்டவர	-10.9955
▁எல்லாருக்கும்	-10.996
▁MA	-10.9962
▁குழி	-10.9962
PO	-10.9964
hat	-10.997
▁முகங்கள்	-10.9971
color	-10.9972
▁ST	-10.9973
▁தவறா	-10.9976
▁கணினியில்	-10.9979
▁பார்த்ததும்	-10.9982
▁ஜீவன	-10.9986
▁மீதே	-10.9986
பிஎஸ்	-10.9987
▁சற்றே	-10.9987
▁பிடிச்ச	-10.9989
▁வருபவர்	-10.9989
▁think	-10.9992
க்கடை	-10.9998
LY	-10.9999
▁பழகி	-11.0001
▁வாலிப	-11.0004
▁இடங்களிலும்	-11.0004
▁தெரியலை	-11.0007
▁கண்காட்சி	-11.0007
▁தைரியம்	-11.0008
▁give	-11.0008
▁இந்தியர்கள்	-11.0009
▁கணக்கை	-11.0011
▁கூலியை	-11.0012
▁its	-11.0013
மட்டும்	-11.0013
ிருக்காது	-11.0015
▁https	-11.0015
▁பார்ப்பதற்கு	-11.0016
சிறந்த	-11.0017
▁வரிகளை	-11.0018
▁ஆயத்த	-11.0019
கொள்கிற	-11.0022
திகார	-11.0022
▁தண்ட	-11.0023
▁ஆராய்ந்து	-11.0023
▁விக்கிப்பீடியா	-11.0028
விட்டதா	-11.0029
▁யூதர்	-11.0033
▁தேய்	-11.0036
▁ஓதிக்	-11.0037
▁தனியுரிமை	-11.0038
:28	-11.0042
▁கொடுத்தால்	-11.0046
▁சித்தி	-11.0046
▁Webtalk	-11.0048
▁தொடர்ச்சியாக	-11.0048
▁பாறை	-11.0049
வியல	-11.0052
▁தங்கியிருந்த	-11.0052
▁தொகையை	-11.0053
▁கூரை	-11.0056
▁எம்மை	-11.0056
▁after	-11.0058
▁சாம்சங்	-11.0058
னிடமிருந்து	-11.0058
▁பரவி	-11.0059
சுர	-11.006
///	-11.006
▁தேன்	-11.0061
▁சீக்கிரம்	-11.0063
▁சேர்ந்தவர்கள்	-11.0067
▁பின்னூட்டம்	-11.0067
▁துவங்கி	-11.0068
lish	-11.0068
▁இறைவனுடைய	-11.0068
சேகர	-11.0069
▁ப்ளூ	-11.007
மாட்டீர்	-11.0072
▁எவ்வளவோ	-11.0073
▁தெரிந்தால்	-11.0074
▁வாழ்த்துகள்	-11.0074
▁கிறிஸ்தவர்	-11.0075
▁அறிவீர்கள்	-11.0075
ham	-11.0075
ப்பொருள்	-11.0079
▁Who	-11.0079
▁புறப்பட	-11.0079
▁நினைக்கும்	-11.008
▁thought	-11.0084
▁செய்கின்றனர்	-11.0086
ிருக்கின்றது	-11.0087
:26	-11.0087
▁சுமந்து	-11.0089
ஷீ	-11.0089
▁எம்ம	-11.0091
point	-11.0092
▁இனிப்பு	-11.0092
▁மிகைத்த	-11.0093
▁ப்ரா	-11.0097
▁கருதுகிறேன்	-11.0097
▁உலாவி	-11.0098
▁போய்விட	-11.0101
▁வானத்தின்	-11.0103
▁அஜித்	-11.0105
▁Page	-11.0106
ாளராக	-11.0106
van	-11.0112
ib	-11.0114
▁அடுக்க	-11.0116
▁பேட்	-11.012
▁இளைஞன்	-11.0122
▁ஈரான	-11.0123
▁சசிகலா	-11.0124
▁உடல்நல	-11.0125
▁உனை	-11.0125
▁தயக்க	-11.0127
▁நாகரிக	-11.0127
▁info	-11.0128
புத்தக	-11.013
▁Photo	-11.0131
▁எழுத்தாளர்கள்	-11.0132
▁பதிந்த	-11.0134
▁பாவமன்னிப்பு	-11.0135
ium	-11.0135
ரியன்	-11.0135
pen	-11.0135
▁பயன்படுத்தவும்	-11.0137
▁பேசுவதை	-11.0142
▁இவள	-11.0142
▁திரையில்	-11.0145
ளாக	-11.0148
▁யாருமில்லை	-11.0148
▁சப்த	-11.015
ates	-11.015
க்கணக்க	-11.0151
நிலையில்	-11.0155
lation	-11.0157
பொருள்	-11.0158
▁படைத்தோம்	-11.0158
▁ஃப்ள	-11.0161
▁சிற்ற	-11.0162
▁வான்	-11.0162
▁கட்டுரையில்	-11.0164
▁திணைக்கள	-11.0166
▁முழுதும்	-11.0166
குடி	-11.0171
You	-11.0173
▁பயன்பாட்டை	-11.0174
▁அங்குள்ள	-11.0175
▁Power	-11.0176
▁செங்க	-11.0179
▁எதிர்பார்த்து	-11.0179
▁எல்லோருமே	-11.0183
▁சினிமாவில்	-11.0189
▁கொடூர	-11.0191
▁பத்திரிக்கை	-11.0191
அழைக்கப்படுகிறது	-11.0192
தூர	-11.0195
▁ஓய்வ	-11.0196
▁எழுதினேன்	-11.0197
▁விருதுகள்	-11.0197
ji	-11.0198
நிறுவன	-11.0199
▁முயற்சித்த	-11.0205
OD	-11.0206
▁ஏசி	-11.0207
▁வெளியானது	-11.021
▁ஆற்றல	-11.0215
dge	-11.0217
BC	-11.0218
▁பார்வைக்கு	-11.0218
▁நடைமுறையில்	-11.0222
ிறார்களா	-11.0223
▁Play	-11.0223
மார்க்க	-11.0226
▁கூறியுள்ள	-11.0226
▁நாளே	-11.0231
▁லாபம்	-11.0234
▁ஆவணங்கள்	-11.0234
▁கட்டட	-11.0236
nor	-11.0237
▁வினாடி	-11.0237
அதனால்	-11.0238
▁கிளம்பி	-11.024
▁அவல	-11.0242
▁அஹ்	-11.0243
▁நிலா	-11.0244
▁தெரியப்படுத்த	-11.0245
▁வலுவ	-11.0248
▁தெரிகிற	-11.0253
▁புலம்ப	-11.0254
▁ஓசை	-11.0256
▁அலுவலர்	-11.0257
▁செலவழிக்க	-11.0259
▁சூடு	-11.0259
▁குறியீட்ட	-11.0259
▁வருமா	-11.026
▁சிக்கலான	-11.026
▁பார்வையை	-11.0262
▁கோட்பாடு	-11.0264
▁குறிப்பிட்டார்	-11.0266
▁விவாதம்	-11.0266
அதாவது	-11.027
ப்போய்	-11.0271
ுமானால்	-11.0272
▁பெரிது	-11.0274
▁பட்ஜெட்	-11.0274
▁செயல்படுகிறது	-11.0275
▁உள்நாட்டு	-11.0275
▁எங்கிருந்தாலும்	-11.0282
ருளும்	-11.0286
ev	-11.0287
▁கருத்துக்கள	-11.0291
▁சாட்சியாக	-11.0295
▁பிச்சை	-11.0295
▁பயபக்தி	-11.0295
TER	-11.0297
▁பாதுகாக்கப்பட்ட	-11.0299
▁யதார்த்த	-11.03
▁ஏற்பட்டுள்ளது	-11.03
▁யாரேனும்	-11.0305
▁சுவாரஸ்யமான	-11.0307
▁பக்கங்கள்	-11.0307
▁மகனும்	-11.0307
▁மொழிபெயர்ப்பு	-11.0308
▁திறப்ப	-11.0313
▁கழித்த	-11.0314
een	-11.0316
PL	-11.0321
▁அதிபதி	-11.0321
▁ஆளா	-11.0322
▁துர்	-11.0331
ிருந்தாள்	-11.0332
▁வயிறு	-11.0333
▁கால்களை	-11.0333
ிருக்கின்ற	-11.0334
▁பீட்டர்	-11.0342
▁வெளிச்சம்	-11.0348
▁சான்ற	-11.0349
▁உரிமைகளும்	-11.0352
▁கூறினால்	-11.0352
▁ஏற்படுத்தியது	-11.0357
▁இராஜ	-11.0357
▁நிர்ணய	-11.0359
▁அந்நாள	-11.0359
▁live	-11.0359
▁லிங்க	-11.036
▁காளை	-11.0362
▁துரத்த	-11.0365
ங்களோடு	-11.0367
ush	-11.0377
ணும்னு	-11.0379
▁ஆட்சியில்	-11.038
▁செய்கை	-11.0381
▁இற்கு	-11.0388
▁2003	-11.0389
GB	-11.0391
ஜோ	-11.0391
▁விற்ற	-11.0391
▁குணப்படுத்த	-11.0391
▁தோற்றத்தை	-11.0391
ந்ந	-11.0394
▁தொட்ட	-11.0395
▁UN	-11.0397
▁அல்லாஹ்வையன்றி	-11.0397
▁சந்தி	-11.0398
▁கிடைத்தால்	-11.0399
▁உன்னத	-11.04
▁யூரோ	-11.0402
▁நம்புகிறோம்	-11.0408
▁நடுவே	-11.0412
▁மாறிவிட்டது	-11.0413
▁முன்வர	-11.0416
▁உருவானது	-11.0419
oma	-11.0421
▁ஊடுருவ	-11.0421
▁செவ்வாய்	-11.0421
▁தெரிந்துகொள்ள	-11.0422
▁சாதகமாக	-11.0426
▁கடக்க	-11.0427
▁திரும்பிச்	-11.0428
▁புதுமை	-11.0428
▁நடைபெற்று	-11.0429
ப்போகும்	-11.0429
ங்கார	-11.043
▁சௌ	-11.0432
▁சிந்திப்ப	-11.0436
▁பரபரப்பு	-11.0436
▁சுவையான	-11.0437
▁முதலாக	-11.044
▁அறிந்துகொள்ள	-11.044
▁கனவில்	-11.0441
▁புகழும்	-11.0441
▁நடிகர்கள்	-11.0442
▁கொள்கிறார்கள்	-11.0444
▁குளிர்ந்த	-11.0447
▁மனிதனும்	-11.0448
ச்சார	-11.045
▁பேசுவார்	-11.0457
where	-11.0458
▁விடுவார்	-11.046
ென்றே	-11.0463
வேண்டுமா	-11.0464
களுக்க	-11.0467
நூ	-11.0469
மகிழ்	-11.0469
▁வேண்டுமென்ற	-11.0476
▁பரப்பு	-11.0477
▁சடங்கு	-11.0479
▁இவ்விரு	-11.0479
▁கேட்கிறேன்	-11.048
▁II	-11.0487
▁குமர	-11.0489
▁வீட	-11.0489
▁Tu	-11.0489
▁நிறுவனத்தில்	-11.049
▁யூதர்கள்	-11.0495
▁Ti	-11.05
IG	-11.0501
▁வாரி	-11.0505
▁கூகிள்	-11.0505
▁முன்னிலை	-11.0506
▁வாரத்தில்	-11.0507
▁www	-11.0507
▁பயன்பாடுகள்	-11.0511
▁பிரச்சினைகளை	-11.0514
▁கிடை	-11.0516
▁அதிகப்படுத்த	-11.0516
▁கையால்	-11.0516
▁இருவரையும்	-11.0517
▁மதத்தை	-11.0522
▁காப்பி	-11.0523
▁ஹிந்து	-11.0523
load	-11.0524
▁அவனுக்கே	-11.0528
முஹம்மத	-11.053
▁அடைவு	-11.053
▁செல்கிறார்	-11.0532
▁ரசிக	-11.0533
▁பார்வையாளர்கள்	-11.0533
▁அருளை	-11.0535
▁உதவியது	-11.0538
▁நம்பிக்கையுடன்	-11.0539
▁வலைத்தளத்தில்	-11.0541
▁குற்றவாளிகள்	-11.0544
▁புத்திரர	-11.0547
றீங்களா	-11.0548
▁குழம்ப	-11.0549
▁Right	-11.0549
▁மிகைத்தவன்	-11.055
▁மனிதர்களில்	-11.0552
▁கட்டளையிட்ட	-11.0552
▁State	-11.0552
▁வீணாக	-11.0554
De	-11.0554
▁பிடிக்கவில்லை	-11.0555
▁Hu	-11.0559
▁முடியாதா	-11.0559
▁செய்துள்ளார்	-11.056
▁ஸ்டார்	-11.0562
▁உற்ற	-11.0562
▁View	-11.0564
table	-11.0564
பெரும்	-11.0571
▁வசித்து	-11.0572
▁வைத்தோம்	-11.0574
▁அழைக்கப்படும்	-11.0575
▁Comments	-11.0576
▁இலக்கண	-11.0576
▁அநியாயக்காரர்கள	-11.0578
இந்தியா	-11.0578
▁காலில்	-11.0586
▁FOR	-11.0587
▁தூண்டி	-11.0589
▁தூதர்களை	-11.0591
▁மிகச்சிறந்த	-11.0591
▁வீசி	-11.0593
▁46	-11.0593
▁ஏற்படுத்திய	-11.0596
▁Android	-11.0596
மிட்டு	-11.0602
ாததால்	-11.0603
▁புத்தாண்டு	-11.0603
▁குறையும்	-11.0605
▁பாகிஸ்தான்	-11.0607
▁Posted	-11.0608
led	-11.061
2.1	-11.0611
▁கிடைக்குமா	-11.0612
▁கட்டிடம்	-11.0613
னிடத்தில்	-11.0613
▁அவ்வளவாக	-11.0618
▁மீனவர்கள்	-11.062
▁வெற்றிகரமான	-11.0621
▁சோழ	-11.0623
▁எளிமை	-11.0624
▁72	-11.0626
▁மண்டப	-11.0629
ெல்லா	-11.0633
வயது	-11.0633
▁எறிய	-11.0634
ani	-11.0635
0.0	-11.0636
▁கட்டளையை	-11.0636
▁மறைவு	-11.0637
▁விளிம்ப	-11.0641
கரமாக	-11.0643
▁பண்புகள்	-11.0649
▁பார்த்தீர்களா	-11.0651
▁ஊதா	-11.0652
▁now	-11.0655
இறைவா	-11.0658
▁கண்ணில்	-11.0662
cket	-11.0664
▁Top	-11.0665
▁நரி	-11.0665
▁மனிதரை	-11.0666
▁சைக்கிள்	-11.0666
▁ஈடுபாடு	-11.0667
▁தந்தைக்கு	-11.0668
▁சொன்னாள்	-11.067
▁நடைபெறுகிறது	-11.0671
▁நடமாட	-11.0672
IV	-11.0674
▁ஜன்னல்	-11.0677
▁அதேபோல	-11.0678
▁சிவன்	-11.0681
▁சிக்கல	-11.0682
▁ஐபோன்	-11.0682
▁தியேட்டர	-11.0684
▁உட்பட்ட	-11.0687
▁சிற்ப	-11.0689
ொடு	-11.069
400	-11.0691
▁power	-11.0693
▁வஹீ	-11.0697
▁காண்பீர்கள்	-11.0699
▁தொந்தரவு	-11.0699
▁கவிஞன	-11.07
▁சாதனம்	-11.0701
▁ஆட்சியை	-11.0703
▁இவர்களது	-11.0704
col	-11.0705
▁கண்டால்	-11.0706
▁உரிமையை	-11.0707
▁கொண்டோம்	-11.0709
▁விவாகரத்து	-11.0709
குறிப்பு	-11.071
▁பலமுறை	-11.0711
cial	-11.0712
▁பிறந்தநாள்	-11.0712
▁கூறுகின்ற	-11.0712
▁திறன	-11.0715
▁பரீட்சை	-11.0715
▁வச்சு	-11.0715
▁கலக	-11.0717
▁கிழமை	-11.0718
▁ஸ்மார்ட்	-11.072
இணை	-11.0721
▁கூடாதா	-11.0721
▁முழங்க	-11.0722
▁ஏற்பட்டால்	-11.0725
▁அமில	-11.0726
▁அடக்கி	-11.0728
▁மீடியா	-11.0728
▁படையினர	-11.0731
காலமாக	-11.0732
bert	-11.0734
▁பொதி	-11.0741
▁பாராட்டி	-11.0743
star	-11.0744
▁feel	-11.0745
▁With	-11.0747
▁ஏழ	-11.0748
▁செய்துகொண்ட	-11.0748
▁கலர்	-11.075
▁நாடுகளுக்கு	-11.0753
▁Please	-11.0753
▁பூக்கள்	-11.0754
▁தேவாலய	-11.0754
▁சகோ	-11.0755
கூட்ட	-11.0755
▁அப்துர்	-11.0759
அவனை	-11.076
▁உதவியுடன்	-11.0761
இரண்டு	-11.0762
▁ஒவ்வோர்	-11.0764
▁எதிர்காலத்தில்	-11.0777
▁இருள	-11.0777
▁வழிபட்ட	-11.0778
▁ஃபே	-11.0779
▁பங்கேற்க	-11.078
▁ஆத்திர	-11.0783
த்தனமாக	-11.0784
fo	-11.0786
▁அந்தரங்க	-11.0787
▁தியாகம்	-11.079
▁போறேன்	-11.0792
க்கென்று	-11.0793
▁தலையிட	-11.0796
▁மெல்லிய	-11.0796
▁தாமரை	-11.0797
ப்பித்த	-11.0797
▁முடியுமோ	-11.0799
▁வழிமுறைகளை	-11.0801
ியிருந்தது	-11.0802
அவ்வாறு	-11.0803
▁உண்டான	-11.0805
▁நடந்ததை	-11.0805
chi	-11.0807
வர்களாகவும்	-11.0807
▁மைதான	-11.0814
ுகிறானோ	-11.0815
ிடுவோம்	-11.0816
▁ஆளாக	-11.0819
▁ஈர்ப்பு	-11.082
▁மண்ணில்	-11.0825
▁வாசல்	-11.0825
▁க்ள	-11.0826
▁செய்பவர்கள்	-11.0827
▁வடிவமைக்க	-11.0828
▁வேதத்தில்	-11.0829
▁நிகரற்ற	-11.0831
நோய்	-11.0831
▁தெரிஞ்சு	-11.0835
▁சந்திக்கும்	-11.0837
▁Star	-11.0838
struct	-11.0838
▁பழமையான	-11.0838
இதற்கு	-11.0838
▁அனுபவித்து	-11.0839
▁Am	-11.0844
▁திட்டத்தின்	-11.0845
▁காதில்	-11.0847
▁இணைப்பை	-11.0847
சபை	-11.0848
▁language	-11.0852
za	-11.0856
▁பாதுகாப்பை	-11.0858
▁பயணத்தை	-11.0861
▁Tea	-11.0863
▁ஜப்பான	-11.0865
text	-11.0865
பேச	-11.0865
▁ஆல்ப	-11.0865
No	-11.0866
▁நாடாக	-11.0868
▁அம்மாவின்	-11.0869
▁கூச்ச	-11.087
▁add	-11.0872
▁பட்டியலிட	-11.0874
▁முற்பட்ட	-11.0877
▁மீறிய	-11.0877
▁நெய்	-11.0878
:31	-11.0882
▁உடம்பு	-11.0884
▁கந்த	-11.0885
▁வித்தியாசமாக	-11.0886
▁பெய்ய	-11.0888
▁AND	-11.089
II	-11.0897
ருகே	-11.09
▁அளித்தார்	-11.09
▁சொல்லிவிட்டு	-11.0903
▁தீவிரவாத	-11.0903
▁தரும	-11.0905
▁வாங்குவது	-11.0905
▁அனுமதிக்கப்பட்ட	-11.0906
▁மணிநேரம்	-11.0908
மில்ல	-11.0908
▁வழங்கினார்	-11.0909
▁பேசாமல்	-11.091
▁தலைப்பில்	-11.091
▁போனேன்	-11.0912
▁முன்கூட்டியே	-11.0912
லியன்	-11.0913
▁Bank	-11.0914
▁திசையில்	-11.0916
▁ஆலோசகர்	-11.0916
▁கிண்டல	-11.0918
▁பில்லியன்	-11.0918
ney	-11.0922
▁ஜோதிட	-11.0922
▁வெறுப்பு	-11.0923
▁Christ	-11.0923
▁அத்தியாவசிய	-11.0923
▁சித்தர்	-11.0925
▁நீரும்	-11.0926
▁ஜெர்மனி	-11.0929
▁ஒப்புதல்	-11.0931
▁அலச	-11.0933
▁YouTube	-11.0934
▁உள்ளடக்கத்தை	-11.0935
▁அரபு	-11.0935
▁ஸ்டீல்	-11.0935
▁பொம்மை	-11.0937
▁திறக்கப்படும்	-11.0939
Fi	-11.0941
▁Fo	-11.0941
▁ஆர்வமாக	-11.0944
▁made	-11.0945
ulation	-11.0945
▁என்னோடு	-11.0945
▁திட்டத்தில்	-11.0949
▁திரைக்கதை	-11.0951
▁fun	-11.0956
▁விழுங்க	-11.0956
ஜிபி	-11.0957
▁தவிக்க	-11.0958
▁IP	-11.096
▁நிற்கிற	-11.0961
▁இறைச்சி	-11.0962
▁மின்னணு	-11.0963
▁பரிமாண	-11.0963
▁இலக்கை	-11.0965
▁நிதான	-11.0969
▁கெட்டு	-11.0969
▁கூறலாம்	-11.097
▁வாதம்	-11.097
▁அறிந்தேன்	-11.0972
▁அமர்	-11.0973
▁அதீத	-11.0974
▁இல்லையெனில்	-11.0974
▁தோழர்கள்	-11.0976
▁போகவில்லை	-11.0977
▁மூதாதையர்	-11.098
மற்றும்	-11.0981
▁வலைதள	-11.0981
▁இதையெல்லாம்	-11.0982
▁தாள	-11.0983
▁சங்கட	-11.0984
▁வருங்கால	-11.0985
▁கூறப்பட்டது	-11.0986
▁காப்பீடு	-11.0987
▁ஹோஸ்ட்	-11.0988
▁சரிசெய்ய	-11.0992
▁மேய்	-11.0994
▁முஃமின	-11.0995
▁கண்டிப்பா	-11.1
▁கொண்டவர்களே	-11.1001
▁தோண	-11.1006
▁தந்தையே	-11.1011
▁ஆஸ்திரேலியா	-11.1012
1.1	-11.1014
▁இடங்களை	-11.1014
▁ஹூ	-11.1015
நீதி	-11.1015
▁வளர்த்து	-11.1019
▁வருக	-11.102
▁விழும்	-11.102
▁போதாது	-11.1021
▁குறிக்கும்	-11.1025
▁உயரமான	-11.1027
▁நிறுவப்பட்டது	-11.1031
▁விஷயமாக	-11.1031
▁பிரசுர	-11.1032
▁இருள்	-11.1033
ெக்ஸ்	-11.1034
ஷிய	-11.1034
▁பொருட்களின்	-11.1036
கூறு	-11.1036
OT	-11.1036
▁form	-11.1037
▁வாயு	-11.1037
ஷர்	-11.1037
▁யாதொரு	-11.1037
▁பிரசவ	-11.1038
▁உண்ணும்	-11.1038
▁நம்பிக்கையாளர்	-11.1038
▁அவர்களோடு	-11.104
▁கூறுவார்	-11.1043
ிருக்கிறதா	-11.1049
ராஜா	-11.105
ிருக்கின்றனர்	-11.1051
▁பாகிஸ்தான	-11.1052
▁தாமே	-11.1054
▁பின்னே	-11.1054
▁எடையை	-11.1056
ப்போவது	-11.1056
தண்டனை	-11.1057
▁அலைஹி	-11.1058
▁மகிழ்ச்சியடை	-11.1063
▁him	-11.1063
▁முனிவர்	-11.1064
▁ஸ்கூ	-11.1064
▁உண்டாக்கி	-11.1065
▁வழு	-11.1066
▁இயேசுவின்	-11.1069
▁அப்படியென்றால்	-11.107
▁சேகரித்த	-11.107
▁பேப்பர்	-11.1075
▁உடையவர்	-11.108
▁காணப்படுகின்றன	-11.109
ko	-11.1092
த்துக்குள்	-11.1093
▁திருட்டு	-11.1094
][	-11.1095
▁Video	-11.1097
▁ஜிபி	-11.1101
pan	-11.1103
▁தண்ணீரை	-11.1103
tom	-11.1112
த்திடம்	-11.1112
▁துறவி	-11.1114
▁புரட்ட	-11.1118
▁கேரள	-11.112
▁அன்னா	-11.112
▁comment	-11.1123
▁கண்ணை	-11.1123
▁வந்தாள்	-11.1123
▁மன்னன்	-11.1124
▁மினி	-11.1124
▁அப்படியான	-11.1128
▁விக்கி	-11.1129
▁காயமடைந்த	-11.1133
▁தொண்டர்	-11.1134
▁நாகரீக	-11.1142
▁ஆபாச	-11.1142
▁போகிறார்	-11.1144
▁சம்பள	-11.1147
▁கலவர	-11.1147
▁அரசியலுக்கு	-11.1149
▁போஸ்ட்	-11.115
▁கட்சியின்	-11.1153
▁follow	-11.1154
▁வருச	-11.1154
▁நேசிக்கிறார்	-11.1156
▁முந்த	-11.1158
▁எரிபொருள்	-11.1159
▁பிறக்கும்	-11.116
லட்சுமி	-11.1166
விதமாக	-11.1167
▁கட்டளையிட	-11.1171
ழுத்த	-11.1172
▁வலைப்பூ	-11.1172
மியா	-11.1182
▁கண்ணன்	-11.1187
▁உடம்ப	-11.1187
▁என்னால	-11.1188
▁வேண்டுமே	-11.1191
▁2001	-11.1193
▁விலக்கி	-11.1197
▁கையிருப்பில்	-11.1199
▁சத்தியத்தை	-11.1203
▁நண்பர்களுடன்	-11.1205
▁கடனை	-11.1206
ப்பண	-11.1208
▁பிடிக்காத	-11.1212
mu	-11.1216
▁ஒன்றிய	-11.122
▁அம்மாவுக்கு	-11.1221
▁விழிப்புணர்வு	-11.1222
▁ஏமாற்றி	-11.1224
▁தருவது	-11.1225
▁வட்டார	-11.1226
▁செவியுற	-11.1226
men	-11.1229
HA	-11.1232
oke	-11.1232
▁செத்து	-11.1233
▁நாட்டுக்கு	-11.1234
▁அமைப்பின்	-11.1235
▁செயலாக்க	-11.1235
யாருக்கு	-11.1237
▁எவருக்கும்	-11.1238
▁ஒன்றிணை	-11.1239
▁இயற்ற	-11.1242
▁உயர்தர	-11.1246
கொண்டிருந்த	-11.1246
CR	-11.1247
▁தந்தையிடம்	-11.1249
▁தெரியுது	-11.1251
night	-11.1253
▁இருக்கணும்	-11.1259
▁WordPress	-11.1267
▁மகளிர்	-11.1268
▁யூத	-11.1269
▁சூழ்ந்து	-11.1271
▁அடங்கிய	-11.1274
▁விரட்டி	-11.1276
ica	-11.1276
▁நிரல	-11.1278
▁ஒவ்வொன்றும்	-11.1279
▁பேசினால்	-11.1281
▁நிலையத்தில்	-11.1282
af	-11.1285
▁குடித்து	-11.1285
▁photo	-11.1287
▁look	-11.1292
▁யாழ்	-11.1297
ural	-11.1297
▁வியாதி	-11.1297
கல்வி	-11.1306
▁போகிறீர்கள்	-11.1308
ப்படுவார்	-11.1308
ுபவர்களை	-11.1309
▁ஆவான்	-11.131
ச்செயல	-11.1312
▁மாதத்திற்கு	-11.1315
MI	-11.1317
eck	-11.1319
▁இயல்ப	-11.132
▁மூடிய	-11.1321
▁வருவா	-11.1322
▁மார்க்கத்தை	-11.1323
▁கற்பித்த	-11.1323
▁அவசியமான	-11.1324
▁மாஸ்டர்	-11.1324
ves	-11.1325
▁முறையான	-11.1331
▁ஆன்லைனில்	-11.1331
▁பகுத்தறி	-11.1331
▁பொண்ணு	-11.1331
▁எப்பவும்	-11.1331
▁நிரூபித்த	-11.1332
▁கியாம	-11.1332
▁அனேக	-11.1337
▁ஜீவன்	-11.1339
▁மாறுதல்	-11.1341
▁எஜமான	-11.1342
▁புற்றுநோய	-11.1342
▁things	-11.1343
▁காரணத்தை	-11.1345
[2]	-11.1345
▁பேசினேன்	-11.1345
▁link	-11.1349
▁துடிப்ப	-11.1351
▁மரணத்திற்கு	-11.1351
வற்றிலிருந்து	-11.1352
▁ஆரம்பித்தது	-11.1359
shop	-11.1359
▁அறிஞர்கள்	-11.1359
▁page	-11.136
▁சோதித்த	-11.136
▁1990	-11.1362
விடுவோம்	-11.1363
▁கொடுக்கிறது	-11.1364
▁list	-11.1368
▁அள்ளி	-11.1369
▁சேர்க்கை	-11.1369
▁படிப்படியாக	-11.1371
▁பகுப்பு	-11.1371
▁கிளப்ப	-11.1373
▁மையமாக	-11.1376
▁தோனி	-11.1379
▁இவ்வித	-11.138
ju	-11.1384
▁அறிவித்து	-11.1385
▁அமர்ந்திருந்த	-11.1385
ALL	-11.1385
▁சேமி	-11.1386
இந்திய	-11.1391
யிலோ	-11.1392
ுகிறார்களா	-11.1397
▁கண்ணீர	-11.1398
▁மாற்றப்பட்டது	-11.14
▁இயந்திரங்கள்	-11.14
▁also	-11.14
▁250	-11.1402
▁விலங்குகள்	-11.1407
▁நம்புங்கள்	-11.1411
▁ராஜ்ய	-11.1411
▁என்றெல்லாம்	-11.1412
▁பதிவுலக	-11.1416
eek	-11.1418
▁Back	-11.1421
▁கேலக்ஸி	-11.1424
EE	-11.1424
ியுள்ளன	-11.1425
▁தாயார	-11.1427
sha	-11.1427
▁சிலவற்றை	-11.1431
▁plan	-11.1431
▁பிரிவினர	-11.1435
scription	-11.1435
▁சேகரிப்ப	-11.1437
▁கொள்கிறோம்	-11.1439
▁ராமன்	-11.1445
▁மொத்தமாக	-11.145
▁சரக்கு	-11.145
▁சொற்ப	-11.1451
box	-11.1454
▁முந்திய	-11.1455
▁விடுவித்த	-11.1458
▁நரம்பு	-11.1459
▁நகரில்	-11.1459
▁சாப்பாடு	-11.1461
▁Pi	-11.1461
▁தமிழ்நாட்டில்	-11.1465
உன்னை	-11.1469
▁மீட்ப	-11.1469
▁ஸ்பெ	-11.147
▁உந்த	-11.1471
வென்று	-11.1474
▁புயல்	-11.1476
avi	-11.1476
ification	-11.148
ப்பாதை	-11.148
▁ஆசியா	-11.1482
mor	-11.1485
▁உறிஞ்ச	-11.1489
ோராக	-11.1492
த்தோட	-11.1492
▁இருப்பதற்கு	-11.1498
▁52	-11.1498
VE	-11.1499
▁ஹார்மோன்	-11.15
ஆவது	-11.1504
:34	-11.1507
▁நெருப்பில்	-11.1509
▁எழுதலாம்	-11.151
▁அனுப்பினார்	-11.1512
graph	-11.1513
▁கட்டுரையை	-11.1515
▁உடைத்து	-11.1516
போட	-11.1516
▁வைத்தால்	-11.1516
▁சிறுநீரக	-11.1517
▁வெற்றிட	-11.152
▁முதுகு	-11.1524
வேதத்	-11.1529
ாதிபதி	-11.1529
போன்று	-11.1529
▁நடப்பு	-11.1531
ஆங்கில	-11.1532
▁திறமையை	-11.1536
▁வருகைக்கும்	-11.154
ata	-11.1543
▁மற்றவர்களின்	-11.1545
NS	-11.1547
▁திண்ணமாக	-11.1547
ble	-11.1547
▁உள்ளீர்கள்	-11.1547
▁பார்த்தோம்	-11.1548
▁அஞ்சுங்கள்	-11.1549
▁எதுவுமில்லை	-11.1551
வெறி	-11.1551
▁மாதிரியாக	-11.1551
▁சொருகி	-11.1553
matic	-11.1556
▁எழுந்தது	-11.1563
▁கட்டளைகளை	-11.1563
source	-11.1565
▁ஒட்டக	-11.1565
▁செய்கிறார்களோ	-11.1569
▁எச்சரிப்ப	-11.1571
▁என்பார்	-11.1574
▁கிளா	-11.1577
▁அறிக்கையில்	-11.1577
ணுமா	-11.1578
▁நிரந்தரமாக	-11.1578
▁பள்ளிகளில்	-11.158
▁களத்தில்	-11.1587
▁John	-11.1587
▁பெட்டியில்	-11.1592
▁அறிமுகமான	-11.1593
▁தப்பா	-11.1594
▁அடித்தள	-11.1595
▁துருவ	-11.1597
ஏனெனில்	-11.1598
spect	-11.1601
▁மறுப்பு	-11.1602
▁சரியில்லை	-11.1603
திட்ட	-11.1604
▁தென்பட	-11.1608
▁Test	-11.161
▁பங்களிப்பு	-11.1611
▁வைத்தான்	-11.1611
மங்கல	-11.1611
▁First	-11.1612
▁சங்கிலி	-11.1614
▁கழிக்க	-11.1614
இல்ல	-11.1615
▁சிறிதாக	-11.1616
▁பட்டியல	-11.1616
மூஸா	-11.162
▁போட்டிகளில்	-11.1621
▁பத்ம	-11.1621
▁பிராந்திய	-11.1625
OO	-11.1627
மாயிருக்கிற	-11.1632
▁தடவ	-11.1634
▁முதுமை	-11.164
▁வாகனங்கள்	-11.1641
▁காஷ்மீர	-11.1642
▁அதோ	-11.1643
▁ஊடகங்கள்	-11.1647
▁தலைநகர	-11.1647
▁பிளவு	-11.1647
களினால்	-11.1647
▁தீரும்	-11.1649
▁சொல்கின்ற	-11.165
▁பற்று	-11.1652
▁அவசரமாக	-11.1658
▁கோபுர	-11.1659
நபி	-11.1666
bb	-11.1668
▁பதிவிட	-11.1668
▁sub	-11.1668
▁நிகழ்ந்தது	-11.1669
▁தேர்ச்சி	-11.167
▁தவறிய	-11.1671
▁their	-11.1673
▁Service	-11.1677
▁கர்நாடக	-11.1683
▁வாழ்நாளில்	-11.1684
▁நிருபர்	-11.1686
▁ஸ்டே	-11.1688
▁கொள்வீர்கள்	-11.1691
▁புத்தகத்தில்	-11.1693
▁மணல்	-11.1694
▁காசி	-11.1697
▁போலீச	-11.1698
▁செருக	-11.1701
▁ஈரப்பத	-11.1704
▁விரைவு	-11.1704
▁லேசர்	-11.1705
▁விடுபட	-11.1706
▁மன்றாட	-11.1706
▁பிரதிபலிக்க	-11.1707
▁வைரஸ்	-11.1709
▁பார்க்கும்போது	-11.1709
acy	-11.1713
▁ஒத்துழைப்பு	-11.1714
▁குற்றங்கள்	-11.1714
▁கொழும்பு	-11.1715
ுபவன	-11.1717
CI	-11.1718
▁எதையோ	-11.1722
தொடர்	-11.1724
▁உபகரண	-11.1724
▁URL	-11.1726
கீழ்	-11.1727
▁கூறிவிட்டு	-11.1728
▁மலையாள	-11.173
▁கிடைக்கின்றன	-11.173
▁pass	-11.1732
▁வானொலி	-11.1734
▁புதுப்பித்த	-11.1737
▁சலுகைகள்	-11.174
▁நுழைவு	-11.1745
சொன்ன	-11.1748
ப்பெரு	-11.175
எங்களுக்கு	-11.175
வொ	-11.1752
▁நன்ன	-11.1753
▁அழைப்பை	-11.1753
▁தனிப்பயனாக்க	-11.1756
▁அசுர	-11.1757
▁வெளியாகி	-11.1757
cur	-11.1758
நாட்டின்	-11.1759
அமெரிக்க	-11.1761
▁நன்கொடை	-11.1762
▁விஞ்ஞானிகள்	-11.1762
மிழ்	-11.1764
டூ	-11.1767
▁கல்லறை	-11.1768
aff	-11.1768
▁செயலில்	-11.1769
▁உறவை	-11.1769
▁இஸ்ராயீலின்	-11.1769
ொளி	-11.177
▁Ass	-11.1773
▁காணோம்	-11.1773
▁தெரிவிப்ப	-11.1775
மயமான	-11.1778
▁மாலையில்	-11.1781
▁ஊத	-11.1784
▁தொலைவில்	-11.1786
▁Online	-11.1786
▁உளவியல்	-11.1787
▁இதிலிருந்து	-11.1787
ஸலாம்	-11.1789
▁முடிவடைந்த	-11.1789
ung	-11.1789
▁கேட்கிறார்கள்	-11.1792
▁அழுகை	-11.1795
ban	-11.1796
பாலி	-11.1799
▁மோதல்	-11.1799
▁பிடிவாத	-11.1801
க்கிடை	-11.1802
புதிய	-11.1805
▁வேண்டுமென்றால்	-11.1806
▁பெற்றவர்கள்	-11.1808
CA	-11.181
▁பதற்ற	-11.1817
▁கண்ணோட்ட	-11.1819
▁ஆண்டவரே	-11.1822
▁செய்வீர்கள்	-11.1824
▁எழுத்துக்கள்	-11.1827
▁நிகழ்ச்சியில்	-11.183
ினின்று	-11.183
itch	-11.1831
ராஜன்	-11.1836
க்கொள்கிறேன்	-11.1837
▁கூறுகின்றார்	-11.1838
Hz	-11.1838
▁Health	-11.184
▁been	-11.1842
▁திடமாக	-11.1846
▁Cha	-11.1849
▁தாண்ட	-11.185
▁செய்தியாளர்	-11.1852
▁May	-11.1857
▁இமை	-11.1858
ருக்கான	-11.1859
▁அமைந்து	-11.186
▁நினைவுபடுத்த	-11.186
He	-11.1866
▁வகிக்க	-11.1869
Ch	-11.1869
▁சனிக்கிழமை	-11.1871
▁துறைமுக	-11.1871
lon	-11.1872
▁குகை	-11.1874
▁Are	-11.1875
▁புரிஞ்ச	-11.1875
▁மதிப்பை	-11.1878
▁ஆண்களுக்கு	-11.1881
▁கல்லூரியில்	-11.1881
▁CH	-11.1883
▁10%	-11.1885
▁கோலி	-11.1887
▁திட்டமிட்டு	-11.1887
▁விதிமுறைகள்	-11.1887
▁மந்திரி	-11.1887
▁பயங்கரமான	-11.1888
▁பொதுமக்கள	-11.1891
fit	-11.1892
▁அன்பே	-11.1894
▁சொல்றேன்	-11.1895
▁பௌத்த	-11.1895
▁பதிவிட்ட	-11.1902
▁வற்புறுத்த	-11.1907
="0.	-11.1911
▁ஆரம்பித்தார்	-11.1918
▁ஈடுபட்டு	-11.1918
▁History	-11.192
▁மிதி	-11.1923
▁கொடுத்தேன்	-11.1925
▁புறப்பட்ட	-11.1926
லெட்	-11.1926
▁வேதாகம	-11.1926
▁உடைக்க	-11.1929
▁வருந்தி	-11.193
▁கூறினாள்	-11.1931
ிலாவது	-11.1933
▁பொறுக்க	-11.1933
▁பேசும்போது	-11.1936
பார்வை	-11.1942
▁கொள்வதில்லை	-11.1944
▁PR	-11.1946
ren	-11.1948
▁Inc	-11.1949
▁Get	-11.195
▁போய்விட்ட	-11.1952
▁வரவேற்கிறோம்	-11.1952
▁600	-11.1953
பொருட்	-11.1953
▁ஆட்சியாளர்	-11.1959
▁பாவனை	-11.1966
▁மைக்ரோ	-11.1969
▁வேகத்தில்	-11.197
▁ஏற்றுக்கொண்ட	-11.1971
▁Exp	-11.1978
▁comments	-11.198
▁அமைச்சு	-11.198
▁முரண்பாடு	-11.1982
இறுதி	-11.1983
▁ஆடைகளை	-11.1989
▁அனுப்பவில்லை	-11.1989
▁படத்திற்கு	-11.1992
▁அண்மையில்	-11.1993
▁காவிய	-11.1996
▁system	-11.2
▁முன்னோடி	-11.2
▁காலியாக	-11.2005
▁சமைக்க	-11.201
▁காப்பாத்த	-11.2012
▁மறைவான	-11.2015
▁வஞ்ச	-11.2024
▁சுயவிவர	-11.2024
▁long	-11.2026
▁வலையில்	-11.2029
▁எண்ணங்களை	-11.2035
▁பைபிள்	-11.2035
▁PDF	-11.2037
கடந்த	-11.2037
▁படத்துக்கு	-11.2037
▁எதிர்வினை	-11.2042
ATION	-11.2044
▁மலேசியா	-11.2048
▁ஆடம்பர	-11.2049
▁காட்சியை	-11.2049
▁விடுகிறார்கள்	-11.205
▁சமமான	-11.2052
NG	-11.2054
எக்ஸ்	-11.2054
▁வெள்ளிக்கிழமை	-11.2055
▁மாணவர்களை	-11.2057
▁அளிக்கப்பட்ட	-11.2057
▁இரவை	-11.2062
▁சர்வர்	-11.2062
base	-11.2062
▁பேரில்	-11.2065
fect	-11.2065
▁நடக்காது	-11.2067
▁கடவுச்சொல்	-11.2068
▁ஆச்சு	-11.2068
▁வேணு	-11.2068
▁நீண்டகால	-11.207
▁விடுகிறான்	-11.2071
▁யுக	-11.2072
▁அறிந்தால்	-11.2074
▁புகழ்பெற்ற	-11.2076
▁உருவாகும்	-11.2076
ிருப்பதால்	-11.2077
▁குர்ஆன	-11.2078
▁பார்த்தான்	-11.2079
▁எளித	-11.2083
▁Uni	-11.2084
▁would	-11.2086
▁அடுத்தடுத்த	-11.2087
▁யாரிடமும்	-11.2089
uth	-11.2091
▁எஞ்சிய	-11.2093
▁அரேபிய	-11.2093
மரண	-11.2093
க்காட்சி	-11.2097
மிடையே	-11.2098
▁Green	-11.2099
▁ஆதரவை	-11.2102
▁நல்வழி	-11.2102
▁ராதா	-11.2106
ஒவ்வொருவருக்கும்	-11.2106
▁நிற்கிறது	-11.2108
▁நேரத்துக்கு	-11.2109
▁மறந்துவிட	-11.211
▁லண்டன்	-11.2111
▁பேரா	-11.2115
▁System	-11.2118
▁அறுவடை	-11.2118
▁interest	-11.2119
▁நடைமுறைப்படுத்த	-11.2124
▁விமர்சன	-11.2125
ீர்களானால்	-11.2125
▁கிட்	-11.2128
▁ஆன்மிக	-11.213
▁காலகட்டத்தில்	-11.2131
▁வென்று	-11.2134
▁Download	-11.2136
▁ஆடியோ	-11.2137
▁கூறினோம்	-11.2139
▁into	-11.2144
▁open	-11.2144
▁துஆ	-11.2146
ுணர்ச்சி	-11.2147
▁குடித்த	-11.2151
▁shall	-11.2151
001	-11.2159
▁Manufacturer	-11.2161
▁சமாதானமும்	-11.2165
மத்தேயு	-11.2174
▁தீவிரமான	-11.2175
▁மார்க்கெட்டிங்	-11.218
▁Plan	-11.2185
▁செய்துள்ளது	-11.2186
▁பெண்மணி	-11.2189
மீண்டும்	-11.2192
நாதர்	-11.2192
▁காரியங்கள்	-11.2197
2:1	-11.2199
▁மக்களிடையே	-11.2201
▁இங்குள்ள	-11.2201
▁வெளியிடப்பட்ட	-11.2201
▁பங்கேற்ற	-11.2206
வடிவ	-11.2208
▁ஏற்படுத்தியுள்ள	-11.221
▁மனைவியர	-11.221
▁வேதனையுண்டு	-11.2212
▁உங்களுக்கான	-11.2214
▁செய்வதற்காக	-11.2217
▁உத்தரவிட்ட	-11.2219
▁வழக்கை	-11.2219
▁இருக்கிறாள்	-11.222
▁இச்சை	-11.2221
▁பங்கேற்ப	-11.2224
▁week	-11.2225
▁NE	-11.2226
▁பிரீமிய	-11.2231
▁her	-11.2231
▁வேட்டை	-11.2231
▁பொருட்படுத்த	-11.2238
▁மக்கா	-11.2239
கேள்வி	-11.2245
▁உன்னதமான	-11.2252
▁வெற்று	-11.2255
எழுந்திரு	-11.2255
லாகாது	-11.2263
▁Work	-11.2263
▁மரிக்க	-11.2264
▁கேப்டன்	-11.2265
▁இருக்கிறாய்	-11.2268
▁class	-11.227
இதனை	-11.2271
xx	-11.2274
▁கணிப்பு	-11.2278
DS	-11.2278
▁பொத்தானை	-11.2281
▁நடுநிலை	-11.2283
▁பண்ப	-11.2284
▁தெரிந்திருக்க	-11.2285
etting	-11.2286
▁தீர்த்த	-11.2287
▁எல்லாத்தையும்	-11.2289
▁Office	-11.2289
▁படைப்பை	-11.2289
▁ஜனங்கள்	-11.229
▁2002	-11.2291
வராய்	-11.2293
▁இஸ்ரவேலின்	-11.2297
▁முடிவதில்லை	-11.2298
▁மோதி	-11.2299
▁வயதாக	-11.23
▁இருக்காங்க	-11.2301
▁கேரளா	-11.2306
▁மாவட்டத்தில்	-11.2307
▁என்பதனை	-11.2308
▁வருடாந்த	-11.2309
▁WP	-11.2312
▁:))	-11.2314
▁அபார	-11.2316
▁ஒன்றுமில்லை	-11.2316
▁விதிக்கப்பட்ட	-11.2319
▁வருமாறு	-11.2319
இஸ்ரயேல	-11.2322
▁தேர்ந்தெடு	-11.2324
▁Orphek	-11.2326
▁trans	-11.2326
▁மேசை	-11.2333
▁என்றாலே	-11.2335
▁நாற்பது	-11.2339
▁புத்திசாலி	-11.2339
▁வெயில	-11.2342
▁முன்னுரிமை	-11.2345
▁அன்றே	-11.2345
▁மகனின்	-11.2347
bar	-11.2347
▁She	-11.2348
▁உணவாக	-11.2349
▁Sun	-11.2351
▁அனுபவிப்ப	-11.2351
▁மூணு	-11.2352
▁புகுந்து	-11.2355
▁King	-11.2357
நிறுத்த	-11.2358
▁முழுவதுமாக	-11.2358
▁ஒவ்	-11.2358
▁ஷோ	-11.2359
▁show	-11.236
▁வருவான்	-11.2362
▁Ko	-11.2364
▁home	-11.2369
▁பேசுகிறார்கள்	-11.2369
▁டெஸ்ட்	-11.237
▁But	-11.2371
▁மிக்கவன்	-11.2372
▁உன்னுடன்	-11.2375
▁பாரிய	-11.2382
▁நாயன	-11.2385
▁முதல்வராக	-11.2387
▁நடக்கிற	-11.2388
▁பண்டிகை	-11.239
▁வாயிலாக	-11.239
▁இவரால்	-11.2391
▁வியக்க	-11.2393
ப்போட	-11.2395
▁கலாசார	-11.2403
தொடர்ந்து	-11.2405
▁Mr	-11.2409
களுக்கெல்லாம்	-11.241
யாளன்	-11.2412
600	-11.2412
▁இணையத்தள	-11.2416
▁நியமிக்கப்பட்ட	-11.2416
▁وَ	-11.2417
istic	-11.2419
▁துபாய்	-11.2423
▁நான்காவது	-11.2423
▁பெருக்கல்	-11.2424
▁வாரங்களில்	-11.2424
▁without	-11.2425
▁வேர	-11.2426
▁must	-11.2431
mark	-11.2431
▁பின்தொடர	-11.2433
▁விசாரித்து	-11.2435
▁கூறுகிறேன்	-11.2435
▁விகடன	-11.2437
▁பார்த்துவிட்டு	-11.2438
▁தவிர்த்த	-11.2438
▁இருக்கிறதே	-11.2438
▁பாண்டிய	-11.2441
▁கால்பந்து	-11.2441
தெய்வ	-11.2444
▁ஆயு	-11.2444
▁சுயநல	-11.2448
▁பகிரங்கமான	-11.2448
▁தீர்த்து	-11.2452
களுடனும்	-11.2452
mic	-11.2452
▁மூலிகை	-11.2454
ப்பிடித்து	-11.2455
▁போதுமானது	-11.2456
▁வைத்தேன்	-11.2457
▁ஒழிக்க	-11.2459
vice	-11.2459
▁இப்போதைக்கு	-11.2461
▁வெளியிட்டுள்ள	-11.2463
▁ஜப்பான்	-11.2466
▁57	-11.2469
நூறு	-11.2471
▁திருச்சி	-11.2471
▁பிள்ளைகளுக்கு	-11.2479
▁கிறிஸ்துமஸ்	-11.248
▁விழாவில்	-11.2482
ுறவு	-11.2485
▁துரு	-11.2487
▁செம்ம	-11.2488
▁தெற்கு	-11.2489
kin	-11.2491
▁சுலப	-11.2491
▁number	-11.2493
▁நுழைந்து	-11.2494
cm	-11.2497
now	-11.2499
▁கர்த்தருடைய	-11.2502
▁வாசிப்பு	-11.2504
▁பிரார்த்திக்க	-11.2504
▁நுழைவ	-11.2505
▁better	-11.2506
tern	-11.2513
▁நண்பர்களாக	-11.2514
▁ட்விட்டர்	-11.2519
ெறி	-11.2525
▁கூட்டாளி	-11.2526
▁உள்ளீடு	-11.2528
▁அடுப்ப	-11.2534
▁கடிகார	-11.2535
RY	-11.2536
▁வடிவமைத்த	-11.2536
▁வகித்த	-11.2539
▁எழுச்சி	-11.2545
▁இழுத்த	-11.2547
▁அப்பெண்	-11.2548
மூன்று	-11.2552
▁உவமை	-11.2554
WEB	-11.2555
To	-11.2555
▁வகையிலும்	-11.2556
▁Archives	-11.2557
களிலே	-11.2558
▁பிரபாகரன	-11.2558
▁days	-11.256
▁குடிமக்கள	-11.2561
செயல்	-11.2562
த்திறன்	-11.2563
▁இவற்றின்	-11.2563
▁மீதமுள்ள	-11.2565
▁அலற	-11.2565
வரிசை	-11.2568
▁தெய்வீக	-11.2571
▁உரையாற்ற	-11.2572
விட்டதால்	-11.2575
▁சமர்ப்பிக்க	-11.2578
நற்	-11.2582
▁கொண்டிருந்தனர்	-11.2583
▁முடிவெடுத்த	-11.2584
▁நடக்கவில்லை	-11.2586
▁சுழல்	-11.2589
்டால்	-11.259
▁சமைத்த	-11.2591
ஆபிரகாம	-11.2592
▁ஜெட்	-11.2594
▁win	-11.2599
▁ஆதாரங்கள்	-11.2599
▁place	-11.2604
▁ஸ்டெ	-11.2605
▁நிலைமையை	-11.2606
▁வெடித்த	-11.2608
▁யாக்கோப	-11.2611
▁ஸ்லாட்	-11.2614
▁அதிகாரத்தை	-11.2617
▁ஒதுங்கி	-11.2617
▁full	-11.262
விடுகிறேன்	-11.262
▁own	-11.2628
▁புஷ்	-11.2629
▁தொடங்கினார்	-11.263
▁டவுன்	-11.263
▁குண்ட	-11.2632
க்கூட்ட	-11.2632
பெறும்	-11.2633
▁ஆகியவற்றின்	-11.2635
▁ரொ	-11.2636
▁புதிர்	-11.2636
▁1.5	-11.2637
குர்ஆன்	-11.2644
▁ரோபோ	-11.2647
▁தூரத்தில்	-11.2648
▁உள்நுழை	-11.265
▁கொண்டிருந்தேன்	-11.2652
▁விடுகிறேன்	-11.2652
▁பலவீனமான	-11.2657
▁ஸ்டீ	-11.2661
▁பவள	-11.2662
▁திரும்பினார்	-11.2662
ுமென	-11.2664
▁சந்திப்போம்	-11.2665
ஹூ	-11.2668
▁விரும்புவதில்லை	-11.267
▁விருப்பங்களை	-11.2673
▁பழங்கள்	-11.2674
இங்கே	-11.2675
▁மரியா	-11.2676
▁பதிவேற்ற	-11.2677
▁விளம்பரங்கள்	-11.2677
▁சாதனங்கள்	-11.2682
▁பன்றி	-11.2682
▁எங்களால்	-11.2687
▁விடயங்களை	-11.2688
▁வந்துவிடும்	-11.2689
▁அமைச்சரவை	-11.269
▁லவ்	-11.2693
▁சமையலறை	-11.2697
▁ஒளிபரப்ப	-11.2705
▁வலிமையான	-11.2707
▁வேளாண்	-11.271
ாவைப்	-11.2712
▁பயப்படாதே	-11.2715
▁குடியேற	-11.272
▁Best	-11.2723
tribut	-11.2723
▁டார்	-11.2724
▁ஃபெ	-11.2725
▁நெற்றி	-11.2728
▁அசிங்க	-11.273
▁கிழக்க	-11.2732
▁ஹதீஸ்	-11.2733
▁கூப்பிட்டு	-11.2735
▁சாப்பிடலாம்	-11.2741
▁பேனா	-11.2741
▁Ru	-11.2742
▁கூட்டத்தினர	-11.2747
▁கோளாறு	-11.2749
▁விஷ்ணு	-11.2749
▁குளோ	-11.2749
▁கழுவி	-11.275
▁தொற்று	-11.2758
▁There	-11.2758
▁தப்பிக்க	-11.2759
▁சரீர	-11.276
▁பட்டியலை	-11.2761
▁அமைக்கப்பட்ட	-11.2764
▁தண்டிப்ப	-11.2766
▁even	-11.2766
▁முடிந்தவரை	-11.2766
வணக்கத்திற்குரிய	-11.2769
▁மட்டுமின்றி	-11.277
▁ஆய்வாளர்	-11.277
ization	-11.2772
▁நெறிமுறை	-11.2772
▁பொழுதுபோக்கு	-11.2776
ராமன்	-11.2777
▁Light	-11.2779
ஸோ	-11.2779
EV	-11.2781
▁முதியவர்	-11.2784
க்கேற்ப	-11.2787
▁எடுத்துக்காட்டு	-11.2787
▁உங்களிட	-11.2788
▁உத்தரவாத	-11.2791
விமர்ச	-11.2791
▁இஸ்லாத்தை	-11.2794
▁உரித்த	-11.28
▁முதலியன	-11.2802
க்கொண்டார்	-11.2803
▁நச்சு	-11.2806
▁ஈர்த்த	-11.2807
▁துரத்தி	-11.2808
▁ரெடி	-11.2809
DM	-11.2811
▁sy	-11.2811
▁59	-11.2813
▁effect	-11.2816
▁முதலாவதாக	-11.2816
▁1999	-11.282
▁முடிப்ப	-11.282
▁பின்புற	-11.2823
▁விஞ்ஞானி	-11.2824
ified	-11.2824
▁ஆறுதல	-11.2829
▁Tri	-11.2832
▁சுமக்க	-11.2833
pre	-11.2838
ிடமிருந்த	-11.284
▁வயிற்றில்	-11.2845
ஹெ	-11.2846
▁சாந்தியும்	-11.2847
▁இவர்களிடம்	-11.285
▁படுகொலை	-11.2856
que	-11.2858
▁எவனும்	-11.2858
ஸுக்கு	-11.2859
ஹ்ரா	-11.2859
rent	-11.2861
கொண்டிருக்கிறேன்	-11.2862
▁புரிதல	-11.2863
]]]	-11.2863
▁கைவிட்டு	-11.2869
▁உண்	-11.2869
▁வீணாக்க	-11.287
AB	-11.2872
▁வெளியீட்டு	-11.2874
▁பட்சத்தில்	-11.2877
▁டெஸ்க்டாப்	-11.2883
▁video	-11.2883
▁சந்திரனை	-11.2884
▁high	-11.2884
2015	-11.2886
▁இஷ்ட	-11.2886
க்கொள்வது	-11.2888
▁எதனையும்	-11.2889
வுடைய	-11.289
▁water	-11.289
▁வீழ்ந்த	-11.2891
பொறு	-11.2892
ஞ்ஞ	-11.2893
▁தலைவலி	-11.2895
▁TR	-11.2896
▁ஒவ்வொ	-11.2898
கின்றார்	-11.2902
▁Great	-11.2904
▁ஓரிரு	-11.2909
▁தரப்பினர	-11.2912
▁கேட்பார்கள்	-11.2913
▁பொய்யர்	-11.2913
2004	-11.2914
போதிலும்	-11.2916
வசன	-11.2917
கருத்து	-11.2922
▁உத்தியோக	-11.2926
▁போய்விடும்	-11.2928
▁புகுத்த	-11.2928
▁ஒருத்தர்	-11.2929
TO	-11.293
▁சிலுவையில்	-11.293
▁தெருவில்	-11.2936
▁இருபத்த	-11.294
▁இடமாக	-11.2943
▁சமூகத்தாரே	-11.2945
▁யாவை	-11.2946
tube	-11.2946
pot	-11.2948
fu	-11.2951
▁போக்கி	-11.2954
▁சுவன	-11.2954
▁முன்னிருந்த	-11.2956
▁சொல்லியிருக்க	-11.2957
▁ஆக்கினோம்	-11.2959
▁பேசினோம்	-11.2959
▁இப்படம்	-11.2962
▁வழங்குநர	-11.2962
▁குஜராத்	-11.2965
▁ஆங்கிலேய	-11.2965
▁பணியிட	-11.2969
▁hand	-11.2972
▁பொறியியல்	-11.2972
▁செல்வாக்கு	-11.2977
▁போய்விட்டது	-11.2977
▁பிம்ப	-11.2978
த்திலிருந்த	-11.2982
time	-11.2983
▁மாணவர்களின்	-11.2984
▁வதந்தி	-11.2985
▁உருவாக்குகிறது	-11.2987
▁Open	-11.2987
▁சிங்கப்பூர்	-11.2995
▁சிவாஜி	-11.2996
▁நகரங்களில்	-11.2999
LD	-11.2999
▁கிடைச்ச	-11.3
▁அதெல்லாம்	-11.3001
காரண	-11.3008
▁before	-11.3012
▁ஆயிரக்கணக்கான	-11.3012
▁எடுத்துக்கொண்ட	-11.3013
▁அருளப்பட்ட	-11.3013
ூறு	-11.3015
EST	-11.3017
▁விவரித்த	-11.3018
2016	-11.3021
▁இழந்துவிட்ட	-11.3026
▁ஒருங்கிணைந்த	-11.3026
▁பரலோக	-11.3028
▁பிராமணர்	-11.3029
▁போனாலும்	-11.3031
▁வேண்டுகிறேன்	-11.3036
▁அனுப்பினோம்	-11.3038
▁she	-11.3038
▁Art	-11.3039
▁ஆணவ	-11.3042
▁எழுதுகிறார்	-11.3043
▁இருக்குமோ	-11.3043
▁High	-11.3043
இயேசு	-11.3049
▁கீதா	-11.305
▁ரசனை	-11.3051
▁கியர்	-11.3053
▁உண்மையாளர்களாக	-11.3054
▁பிராணி	-11.3056
▁நற்செயல	-11.3057
▁முறைப்படி	-11.306
ிருக்கிறாய்	-11.3062
▁பழகிய	-11.3063
▁பாம்ப	-11.3064
▁Business	-11.3067
▁பகுப்பாய்வு	-11.3067
▁கூடார	-11.3067
0.1	-11.3068
▁அவகாசம்	-11.3074
BS	-11.3077
மென்றால்	-11.3078
▁ஏற்படலாம்	-11.308
▁இளைஞன	-11.3084
▁சூழ்ந்த	-11.3084
அதிக	-11.3084
▁மகனாக	-11.3087
SC	-11.3087
▁வெகுவாக	-11.3088
▁South	-11.3088
▁மக்களவை	-11.309
▁ஆப்பிரிக்க	-11.3091
▁நிரம்ப	-11.3091
▁உங்களிடமிருந்து	-11.3092
▁வசிப்ப	-11.3098
▁ஆஹா	-11.31
▁எல்லாரையும்	-11.31
▁அரசியலை	-11.3103
▁குதித்த	-11.3104
▁குடியிருப்பு	-11.3109
▁அடைந்தார்	-11.3114
▁பொன்ன	-11.3115
▁நமக்காக	-11.3115
▁சிருஷ்டி	-11.3115
▁மாநகர	-11.3116
▁தீர்வை	-11.3117
யூஸுஃப	-11.3123
▁மூவரும்	-11.3124
தென்றால்	-11.3125
▁கண்டிக்க	-11.3127
▁நிபுணத்துவ	-11.3129
▁முகமது	-11.313
▁பதிவர்கள்	-11.3132
வாழ்வு	-11.3134
▁முன்னால	-11.3134
▁Friend	-11.3136
▁பார்க்கிறோம்	-11.3137
▁கடவுளாக	-11.3142
▁அலுமினிய	-11.3143
▁கமிஷன	-11.3145
▁தனிமையில்	-11.3148
▁கூறியிருந்தார்	-11.315
▁பொய்ப்பித்த	-11.3155
▁அவ்வாற	-11.3155
▁மாமியார	-11.3156
▁முதிர்ந்த	-11.3157
▁ஸ்டைல	-11.3163
▁தரவுத்தள	-11.3164
UM	-11.3165
நன்மை	-11.3166
▁கடத்தி	-11.3169
▁அவனுடன்	-11.3173
ரஹ்மான்	-11.3173
கவிதை	-11.3175
▁பெண்ணுக்கு	-11.3176
▁டிகிரி	-11.3177
lm	-11.3178
▁Char	-11.3181
▁சேவக	-11.3184
ுமென்று	-11.3185
▁சூத்திர	-11.3187
▁ஆற்றலை	-11.3187
பதிவு	-11.3192
▁Jesus	-11.3199
▁find	-11.3201
▁சொல்வேன்	-11.3203
▁மெனு	-11.3204
ku	-11.3204
7:1	-11.3204
▁காலகட்ட	-11.3206
▁மக்களுக்காக	-11.3211
▁law	-11.3213
▁பிரித்தானிய	-11.3213
பொது	-11.3216
▁Labels	-11.3219
▁உடைந்து	-11.3225
▁online	-11.323
▁புருஷன	-11.3232
ENT	-11.3233
▁நியாயப்படுத்த	-11.3235
pat	-11.3235
▁இரவிலும்	-11.3242
▁கருப்பொருள்	-11.3242
▁ஜூலி	-11.3247
▁war	-11.3248
▁புளி	-11.3248
▁நாவலை	-11.325
▁website	-11.3254
▁தாக்கிய	-11.3256
▁இல்லாததால்	-11.3259
நேரத்தில்	-11.326
***	-11.3262
▁தேர்ந்தெடுப்ப	-11.3263
▁பரவச	-11.3263
யிற்ற	-11.3267
▁பொருளின்	-11.3271
▁பகிரங்கமாக	-11.3271
▁சந்தித்தேன்	-11.3272
▁பழிவாங்க	-11.3273
▁பிரிட்டிஷ்	-11.3275
▁தழுவி	-11.3279
▁எடுத்தார்	-11.3279
▁வெற்றிபெற	-11.3279
▁பயணித்த	-11.3283
▁ஒழுங்காக	-11.3283
▁தழுவ	-11.3285
▁குரலை	-11.3285
▁குரோ	-11.3287
▁நூற்ற	-11.3288
▁பெருகி	-11.329
iya	-11.3291
▁விருப்பமான	-11.3291
▁50%	-11.3293
xi	-11.3299
▁Sha	-11.3301
▁விளைவிக்க	-11.3301
▁வாழ்கின்ற	-11.3303
▁நாத்திக	-11.3304
face	-11.3305
▁பங்குதாரர்	-11.3305
▁சீஷர்கள	-11.3307
▁தூதராக	-11.3307
▁எதிர்நோக்க	-11.3309
uro	-11.3311
ிறாரோ	-11.3311
▁சந்ததியினர	-11.3316
வர்களுக்காக	-11.3316
▁பெற்றுக்கொள்ள	-11.3319
▁எழும்ப	-11.3322
▁துரித	-11.3325
▁சார்பாக	-11.3325
▁சென்றபோது	-11.3326
▁நபிமார்	-11.3329
▁பூர்வ	-11.3332
▁விரோதி	-11.3333
var	-11.3333
▁Cap	-11.3343
▁குளிர்கால	-11.3343
▁இயற்கையான	-11.3345
Tech	-11.3345
▁அழிந்த	-11.3346
2,000	-11.3346
direct	-11.3349
▁மனதிற்கு	-11.3353
▁Social	-11.3353
▁விகிதங்கள்	-11.3354
▁நன்று	-11.3354
▁போலீஸ	-11.3356
▁பக்குவ	-11.3358
pal	-11.3359
▁ஒப்பிட்டு	-11.3359
▁எப்போதோ	-11.336
▁தன்னம்பிக்கை	-11.336
▁குறிக்கோள்	-11.336
▁அன்பர்	-11.3363
▁வேட்டையாட	-11.3368
▁காவிரி	-11.3375
பகல	-11.3375
▁சொல்லியிருக்கிற	-11.3378
▁game	-11.3378
▁முன்பதிவு	-11.3379
▁மேற்கண்ட	-11.338
▁Engine	-11.3381
▁always	-11.3381
▁துற	-11.3382
▁புத்தகத்தின்	-11.3382
▁much	-11.3382
3:1	-11.3384
cell	-11.3386
ify	-11.3386
▁ஆயிஷா	-11.3388
▁இற்றைப்படுத்த	-11.3389
ுகின்றீர்கள்	-11.3392
▁எதனை	-11.3392
▁நழுவ	-11.3393
▁பொய்ப்பிக்க	-11.3395
Coin	-11.3395
▁month	-11.3396
▁product	-11.3396
▁நியமித்த	-11.3398
▁தடவி	-11.3399
▁அடர்த்தி	-11.3399
▁மக்களால்	-11.3401
▁two	-11.3403
▁நிரம்பிய	-11.3403
▁நம்புகிறார்கள்	-11.3406
▁கூர்ந்து	-11.3406
▁today	-11.3407
▁அருளிய	-11.3407
Pro	-11.3409
▁mind	-11.3412
▁question	-11.3417
▁பதிவின்	-11.3417
▁Law	-11.3422
thank	-11.3423
▁ஈடுபடுத்த	-11.3427
▁சேமித்து	-11.3427
▁வகுக்க	-11.3428
▁தேர்வில்	-11.343
▁அவரோடு	-11.3432
▁சவாரி	-11.3433
▁தேவைப்பட்டால்	-11.3433
▁போதிய	-11.3434
▁அப்போதே	-11.3435
▁வித்யா	-11.3436
▁அருட்	-11.3437
▁கவனியுங்கள்	-11.3441
▁பழங்குடி	-11.3445
▁சீர்திருத்த	-11.3446
▁சொல்கிறான்	-11.3446
▁உயிருக்கு	-11.3448
▁ஆதாய	-11.3448
▁வசனத்தை	-11.3452
▁சாதகமான	-11.3452
ngle	-11.3454
ீங்களே	-11.3454
ப்பார்த்த	-11.3463
▁அரபி	-11.3468
motion	-11.3471
▁கிங்	-11.3475
▁யாரையாவது	-11.3477
அவர்களுடைய	-11.3478
▁எல்இடி	-11.3481
▁அம்பா	-11.3481
▁வயிற்று	-11.3483
ப்படுவர்	-11.3484
▁file	-11.3486
தெரிவித்துள்ளனர்	-11.3487
▁பறந்து	-11.3496
▁அஹ்மத்	-11.3496
▁முடிஞ்ச	-11.3496
▁கலைஞர	-11.3509
lash	-11.3509
▁கிரீம்	-11.351
▁இத்திட்ட	-11.351
▁house	-11.3511
IST	-11.3511
ِن	-11.3514
▁அபராத	-11.3515
▁தனுஷ்	-11.3517
▁Smart	-11.3517
லிங்கம்	-11.3518
▁நிலைநாட்ட	-11.3537
▁மகிழ்ச்சியுடன்	-11.3538
▁குளிக்க	-11.3538
▁அப்பாற்பட்ட	-11.3539
▁தவித்த	-11.354
back	-11.354
▁கூறுவர்	-11.3541
விட்டீர்	-11.3541
▁கலைஞன	-11.3543
2012	-11.3549
▁எழுத்துரு	-11.3554
▁இப்போதைய	-11.3554
▁7:19	-11.3554
1.0	-11.3559
எடுத்துக்காட்டாக	-11.3561
▁Will	-11.3562
▁நிர்ணயிக்க	-11.3566
▁வேண்டியுள்ளது	-11.3566
▁முகாமைத்துவ	-11.3567
▁நன்கறி	-11.3573
ways	-11.3573
▁எந்தவிதமான	-11.3577
பின்பு	-11.3577
▁பொய்யான	-11.358
▁ஹலோ	-11.3581
▁பின்னரே	-11.3582
▁Share	-11.3586
▁அவசியமில்லை	-11.3587
▁செய்முறை	-11.3587
பூமியில்	-11.3588
▁பராமரிப்ப	-11.3589
திரும்ப	-11.3589
அவனுக்கு	-11.3595
▁அவனிடமே	-11.3598
▁நூலில்	-11.3604
▁கண்ணுக்கு	-11.3604
ஞ்செய்	-11.3604
▁விடயங்கள்	-11.3608
▁குழுக்கள்	-11.3611
▁Water	-11.3611
▁புகுந்த	-11.3612
▁இங்கிருந்து	-11.3613
▁அவருக்காக	-11.3616
▁வெங்காய	-11.3618
முதலில்	-11.362
▁ஆயுதங்கள்	-11.3624
▁Science	-11.3625
▁நிர்வாண	-11.3625
நோக்கி	-11.3626
▁ரஹ்ம	-11.3628
▁எழுத்தாளர	-11.363
What	-11.3631
▁தவ்பா	-11.3633
bin	-11.3636
▁வருண	-11.3637
மக்களை	-11.3638
▁எதிர்த்த	-11.3639
▁வைட்டமின்	-11.364
ability	-11.3647
▁துறந்த	-11.3648
▁காஃபி	-11.3649
▁Last	-11.3654
▁நேய	-11.3654
▁ஹ்ம்ம்	-11.3655
▁தொப்பி	-11.3655
▁செய்வதால்	-11.3656
▁சம்ப	-11.3657
▁தருவதாக	-11.3661
யெனில்	-11.3661
▁கறுப்பு	-11.3662
▁போச்சு	-11.3663
▁ஆராய்ச்சியாளர்	-11.3663
▁கிடைப்பதில்லை	-11.3668
▁இலட்ச	-11.3669
கவலை	-11.367
▁இருக்கின்றேன்	-11.3671
▁மக்களில்	-11.3671
llow	-11.3672
பயிற்சி	-11.3672
▁ஐடியா	-11.3675
▁Blue	-11.3678
▁வயதை	-11.368
▁Responses	-11.3682
▁That	-11.3683
ivity	-11.3686
▁தண்ணி	-11.3688
ிடுவேன்	-11.3689
▁Game	-11.3691
மின்மை	-11.3691
ியலாளர்	-11.3706
▁வரலாற்ற	-11.3709
▁அரசாங்கத்தின்	-11.3709
▁அதிகரிக்கிறது	-11.3716
▁அவ்ளோ	-11.3722
▁Lord	-11.3722
▁அழுக	-11.3731
பிரிவு	-11.3736
▁பிரிவினை	-11.374
▁எவ்ளோ	-11.3742
▁தனித்துவமான	-11.3742
▁மயங்கி	-11.3746
▁மூஸாவுக்கு	-11.3746
யளிப்ப	-11.3748
▁தாராளமாக	-11.3748
▁குர்ஆனில்	-11.3748
▁க்ரோ	-11.375
▁வெளியாகும்	-11.3757
▁இருக்கின்றோம்	-11.376
▁நாட்களும்	-11.3761
▁ரிலீஸ	-11.3766
அனைத்து	-11.3769
▁Here	-11.3778
▁வேலைவாய்ப்பு	-11.3779
▁காரணத்திற்காக	-11.3784
▁miss	-11.3784
▁USB	-11.3786
▁டெஸ்டோஸ்டிரோன்	-11.3786
▁வரம்பற்ற	-11.3786
▁அகராதி	-11.3787
ERS	-11.379
▁உளவு	-11.3791
க்ரஹ	-11.3794
▁விருப்பப்படி	-11.3797
▁கிடைக்காத	-11.3807
▁எப்பவுமே	-11.3809
அவனே	-11.3811
▁அம்சங்களை	-11.3814
▁போதிக்க	-11.3815
▁மெய்நிகர்	-11.3823
▁துரை	-11.3825
▁தீர்மானித்த	-11.3826
▁நியமிக்க	-11.383
கிழமை	-11.383
▁குழுக்கள	-11.3837
▁Off	-11.3837
▁sex	-11.3843
▁முஹம்மத்	-11.3846
▁கூறுவான்	-11.3852
▁நாற்காலி	-11.3853
▁இலட்சிய	-11.3855
▁உறுதிமொழி	-11.3857
▁பிளாட்	-11.3858
▁ஏற்படாது	-11.3859
ப்படுபவர்	-11.386
▁தொழுது	-11.3861
▁மூலதன	-11.3862
و	-11.3863
▁உருளை	-11.3867
மில்லா	-11.3867
▁எதிலும்	-11.3869
▁வைத்திருந்தார்	-11.387
▁Know	-11.387
▁அவதூறு	-11.3875
▁ஆவணங்களை	-11.3878
▁கொள்முதல்	-11.3884
▁சூர்யா	-11.3891
▁கழுத்து	-11.3894
▁மின்னழுத்த	-11.3898
emb	-11.3899
▁அறிந்தவனாக	-11.3905
▁தெய்வங்களை	-11.3905
▁Mor	-11.3911
▁பலன்கள்	-11.3911
▁இவர்களுடைய	-11.3915
▁செருப்ப	-11.3919
▁கொள்கிறான்	-11.392
▁சுற்றுச்சூழல்	-11.392
▁பள்ளிக்கூட	-11.3921
ுவோருக்கு	-11.3926
▁அபத்த	-11.393
unch	-11.3937
▁imp	-11.3937
▁அன்னிய	-11.3938
▁அதனுடன்	-11.3943
▁தமிழர்களின்	-11.3948
▁சுஜாதா	-11.395
▁இந்நூல	-11.395
▁சிந்தித்த	-11.3955
▁Live	-11.3956
ஃபர்	-11.3957
▁முதலீட்டாளர்	-11.3962
▁கொசு	-11.3963
4.0	-11.3964
////	-11.3964
▁ரியல்	-11.3965
பார்த்த	-11.3971
▁கோவிலுக்கு	-11.3977
▁நேர்த்தியான	-11.398
▁இறைவனால்	-11.3981
▁ஜேம்ஸ்	-11.3981
▁Human	-11.3981
▁கற்றுக்கொள்ள	-11.3982
ுயிர்	-11.3988
▁அவ்வழி	-11.4001
அல்லாஹ்வுக்கு	-11.4009
▁கம்யூனி	-11.401
இவ்வாறாக	-11.4011
▁முஸ்லிம	-11.4011
▁Pay	-11.4014
நாயக்க	-11.4018
▁wrote	-11.4018
3.0	-11.4018
GO	-11.4018
▁நாளிதழ	-11.402
▁விழுங்கி	-11.4023
▁ஜோதி	-11.4027
▁இடங்களுக்கு	-11.4027
▁அடிப்படையிலான	-11.4029
▁உத்தம	-11.4029
வழக்க	-11.4037
என்றார்	-11.4041
பீஷ்ம	-11.4043
▁உலகிலேயே	-11.4045
ெழுத்து	-11.4047
▁புறக்கணித்த	-11.4047
நிராகரிப்ப	-11.4049
▁வைகோ	-11.4051
மட்டும	-11.4052
▁முன்னெடுக்க	-11.4061
▁ஆதரித்த	-11.4064
▁இம்முறை	-11.4064
ிருக்கிறாள்	-11.4065
▁என்றழைக்க	-11.4066
exp	-11.4069
▁பம்ப்	-11.4071
▁காண்கிறோம்	-11.4076
▁ஆச்சரியப்பட	-11.4081
▁அலார	-11.4083
விளையாட	-11.4084
▁ஆசீர்வாத	-11.4086
▁ஆத்துமா	-11.4087
ிதழ்	-11.409
▁மனநல	-11.4093
▁பணிபுரிந்த	-11.4094
▁உயிரோட	-11.4095
▁கணவனை	-11.41
▁many	-11.4104
▁குன்ற	-11.4104
▁மகத்துவ	-11.4106
▁அமேசான்	-11.4109
▁Super	-11.4111
▁உய்	-11.4113
▁இதனையடுத்து	-11.4117
ُوْ	-11.4125
ப்போற	-11.4125
▁அமைகிறது	-11.413
▁ரோஜா	-11.4132
▁நடிகர	-11.4133
▁தெரிவிக்கின்றன	-11.4139
▁HTML	-11.414
▁வந்திருந்தார்	-11.4145
▁பதினைந்து	-11.4147
▁மறுபடி	-11.4154
ATE	-11.4157
ென்பதை	-11.4164
▁தாக்கி	-11.4167
▁பிலிப்	-11.4168
▁reading	-11.4168
▁From	-11.417
▁யாரிடம்	-11.4175
▁பொக்கிஷ	-11.4178
▁பெயர்ச்சொல்	-11.4178
▁பங்களிப்ப	-11.418
▁துடிக்க	-11.4186
ாகிவிட்ட	-11.4191
குழுவினர	-11.42
▁learn	-11.4201
▁இருத்தல்	-11.4202
▁குளிர்ச்சி	-11.4209
▁சிறித	-11.4213
உங்களுடைய	-11.4213
▁துல்லியமாக	-11.4216
▁திவ்ய	-11.422
vid	-11.422
▁தன்னார்வ	-11.4226
▁மீனவர்	-11.4228
▁முன்மாதிரி	-11.4229
▁பாதுகாவலர்	-11.423
▁எழுத்தாளன	-11.423
▁நிம்மதியாக	-11.4238
▁மறந்துவிட்ட	-11.4239
▁பூமியிலும்	-11.4242
▁நாடியவர்களை	-11.4247
▁இரங்க	-11.4247
▁வழிவகுக்கும்	-11.4247
▁இதிலே	-11.425
▁இறைவனிடத்தில்	-11.4251
முதலமைச்சர	-11.4255
▁WHSR	-11.4263
▁சிவபெருமான	-11.4263
▁இப்படத்தின்	-11.4263
▁சபிக்க	-11.427
▁திகில	-11.4275
மயமாக்க	-11.4277
▁கூந்தல	-11.4278
host	-11.4282
▁போட்டியாளர்	-11.4287
ump	-11.4289
வரிடமும்	-11.4289
▁கெஞ்ச	-11.4291
▁துல்லியமான	-11.4291
▁தனிமனித	-11.4294
▁உடல்நிலை	-11.4296
▁ஹிந்தி	-11.43
▁சமுக	-11.43
▁ஐந்தாவது	-11.4304
▁ஊடாக	-11.4306
▁ப்ரோ	-11.431
▁கிடப்ப	-11.4314
கவிஞர	-11.4317
▁நிலைத்திருக்க	-11.432
▁தவறில்லை	-11.4323
▁மனைவியிடம்	-11.4324
▁சொல்லியிருந்த	-11.4325
▁had	-11.4326
▁என்பதாக	-11.433
▁கடற்	-11.4334
▁eye	-11.4335
▁Just	-11.4336
▁குறும்பட	-11.4341
▁பெருமாள்	-11.4341
▁வீட்ல	-11.4342
▁Out	-11.4344
▁கடவுளாகிய	-11.4345
▁இரட்சிப்ப	-11.4356
▁Internet	-11.4356
▁பொய்யாக்க	-11.4358
▁கணிக்க	-11.4359
ப்புள்ளி	-11.436
▁அண்ணன	-11.436
▁review	-11.4361
▁சீரழி	-11.4362
▁நாள்தோறும்	-11.4372
▁Story	-11.4374
ப்பரப்ப	-11.4378
▁டைம்ஸ்	-11.4381
▁புரத	-11.4381
▁PRO	-11.4382
தோன்ற	-11.439
▁நிலைப்பாடு	-11.4392
▁இந்திரா	-11.4392
▁அழிக்கப்பட்ட	-11.4394
▁முகமூடி	-11.4395
▁Auto	-11.4397
▁account	-11.4403
▁கர்த்தாவே	-11.4403
▁மாதங்களாக	-11.4404
▁ரொட்டி	-11.4407
▁option	-11.4407
▁உம்மீது	-11.4411
▁இயன்ற	-11.4416
▁பிறகே	-11.4421
▁தேடுகிறேன்	-11.4422
▁கேரக்டர	-11.4427
▁பிரகாசமான	-11.4428
ீரே	-11.4429
ball	-11.4433
▁Medi	-11.4435
▁கட்டமைப்ப	-11.4436
raw	-11.4436
▁நன்கறிந்தவனாக	-11.4438
▁mode	-11.4441
▁again	-11.4442
▁சீராக	-11.4446
▁அளித்துள்ள	-11.4449
▁எங்களுக்காக	-11.4453
நமது	-11.4456
▁ஆழ்த்த	-11.4459
▁தவறாமல்	-11.4463
▁லேசான	-11.4466
IVE	-11.4472
wer	-11.4473
▁முதிய	-11.448
rack	-11.4481
▁Technology	-11.4482
▁லட்சிய	-11.4483
▁விரும்புகிறான்	-11.4485
▁மாட்டார்களா	-11.4487
▁வினோத	-11.4493
ிருக்கின்றார்	-11.4493
▁கவனிக்கவில்லை	-11.4495
▁காலாவதி	-11.4498
▁பரிணாம	-11.4498
2:2	-11.4501
▁conf	-11.4502
▁தீர்க்கதரிசி	-11.4506
▁பரம்பரை	-11.4506
வெற்றி	-11.4508
விஷய	-11.4511
▁இஸ்ரயேலின்	-11.4514
tamil	-11.4514
▁துல்லிய	-11.4516
▁பூமியிலுள்ள	-11.4516
த்திற்கே	-11.4518
▁மோகன்	-11.4519
▁ஆரம்பிச்ச	-11.452
▁சூடாக	-11.4521
▁சேமிப்ப	-11.4521
▁தேநீர்	-11.4524
▁தொண்டு	-11.4526
வெள்ள	-11.4534
▁Account	-11.4537
▁தொழில்துறை	-11.4538
▁வாக்காளர்	-11.4542
▁விக்கெட்	-11.4543
▁same	-11.4546
▁கொடுப்பனவு	-11.4547
ாமலிருக்க	-11.4552
How	-11.4557
▁உட்கொள்ள	-11.4564
▁இணங்க	-11.4564
▁sw	-11.4565
▁வாழ்வாதார	-11.4569
▁வேதத்தையும்	-11.457
▁bad	-11.4573
▁File	-11.4575
▁கொண்டாட்ட	-11.4583
▁பூமியிலிருந்து	-11.4583
2013	-11.4586
▁நினைக்கிறீர்களா	-11.4587
▁தாங்களே	-11.4588
▁மற்றைய	-11.4593
களுக்கிடையில்	-11.4593
▁கடைபிடிக்க	-11.4595
▁உயிர்த்தெழ	-11.4595
▁தாயக	-11.4596
OME	-11.4597
▁இவ்விரண்ட	-11.46
சூரிய	-11.461
▁அன்புடைய	-11.461
▁தேர்ந்த	-11.4611
▁இலகுவாக	-11.4611
▁நிமிடங்களுக்கு	-11.4615
▁பறிக்க	-11.4616
▁நஞ்ச	-11.4618
▁மனுஷன	-11.4621
▁ஜிஎஸ்டி	-11.4625
▁அமர்வு	-11.4626
ப்பொருள	-11.4628
▁பதட்ட	-11.4629
ப்பார்த்து	-11.463
ரத்ன	-11.4632
▁அளவற்ற	-11.4634
▁மண்டை	-11.4634
எல்லாவற்றிற்கும்	-11.4636
இன்ன	-11.4639
▁உட்படுத்த	-11.4639
ப்பெட்டி	-11.4641
▁சட்டமன்ற	-11.4641
▁அல்லாஹ்விடமே	-11.4642
▁காம்ப	-11.4656
▁நைட்	-11.4656
▁புள்ளிவிவர	-11.4658
▁சிலுவை	-11.466
▁காரணங்களுக்காக	-11.4668
▁ஃபேஷன்	-11.4669
▁திரையுலக	-11.4674
▁அடியேன	-11.468
▁கண்டுபிடி	-11.468
▁நாடியிருந்தால்	-11.4681
▁Plus	-11.4682
▁wait	-11.4682
Change	-11.4694
▁வேலி	-11.4696
Stencils	-11.4698
bur	-11.4701
▁உடற்	-11.4702
ஒரே	-11.4704
▁Development	-11.4706
▁திரண்ட	-11.4712
▁அதிபர	-11.4713
ender	-11.4716
▁வேதங்களை	-11.472
▁சுற்றியுள்ள	-11.4726
▁பிடித்திருந்தது	-11.4732
வற்றிற்கு	-11.4733
▁துருக்கி	-11.4733
▁gra	-11.4733
▁கழிந்த	-11.4736
▁உங்களிடையே	-11.4741
▁பொருளாக	-11.4741
▁nothing	-11.4747
▁ஒதுக்கீடு	-11.4749
▁தலைமையிலான	-11.4749
▁பிரயாண	-11.475
▁சக்திவாய்ந்த	-11.4755
▁தலைமுறையினர	-11.4764
4:1	-11.4765
▁சொல்கிறீர்கள்	-11.4771
▁தமிழீழ	-11.4771
▁பல்கலை	-11.4771
▁அதனாலேயே	-11.4772
▁பிரசாத	-11.4777
▁University	-11.4779
▁குக்கீ	-11.4788
▁ஏதுமில்லை	-11.4792
▁காஃபிர்களுக்கு	-11.4795
▁நாட்டிற்கு	-11.4796
mission	-11.4796
▁வலக்கை	-11.4797
▁மானிட	-11.4798
▁விசேட	-11.4804
▁மின்னஞ்சல	-11.4808
▁முதலான	-11.4811
▁கொள்வதற்காக	-11.4815
க்குள்ளாக	-11.4816
▁சில்லி	-11.4817
▁+94	-11.4817
▁எவருமில்லை	-11.482
▁His	-11.4822
▁ஹதீஸ	-11.4824
ிழக்க	-11.4825
▁நீட்டிக்க	-11.4828
▁ISO	-11.4829
[3]	-11.4841
▁அதிகப்படியான	-11.4845
திருத்த	-11.4845
▁கணக்கெடுப்ப	-11.4846
▁வெகுமதி	-11.4848
▁கங்கை	-11.4852
bon	-11.4856
ஃபோ	-11.486
▁கலந்துரையாட	-11.4869
த்திற்க	-11.4876
▁APK	-11.4877
▁நிருப	-11.488
விரும்ப	-11.488
▁மனப்பான்மை	-11.4886
▁காரணங்களால்	-11.4889
2014	-11.489
தலால்	-11.4895
▁ஆவேச	-11.4898
▁அரிதாக	-11.4901
▁தில்லி	-11.4902
▁எதையுமே	-11.4907
▁சென்றடைய	-11.4913
தெளி	-11.4913
▁தரிசன	-11.4914
கேளுங்கள்	-11.4922
ாழ்வார	-11.4925
ுபவர்களாக	-11.4926
▁விபச்சார	-11.4927
▁2.5	-11.4928
▁எதிர்க்கட்சி	-11.4937
▁செல்கிறேன்	-11.494
▁எருசலேம	-11.4943
▁சார்பில்	-11.4944
▁திலக	-11.4944
ுவதோடு	-11.4947
▁நசுக்க	-11.4949
▁food	-11.495
▁செவியேற்ப	-11.4952
▁எலக்ட்ர	-11.4952
ESS	-11.4955
ஸலாமுன்	-11.4955
புருஷ	-11.4956
▁அட்லாண்டிக்	-11.496
▁உலாவ	-11.4964
▁Thanks	-11.4969
▁Opt	-11.4977
▁தங்களிடம்	-11.4985
▁இங்கிலாந்த	-11.4987
▁கணிப்ப	-11.4995
▁நிலைநிறுத்த	-11.4998
over	-11.5001
▁எய்த	-11.5004
▁கதாநாயகி	-11.501
▁புலவர்	-11.5011
▁துடைத்த	-11.5017
▁அமர்த்த	-11.5017
▁கிறிஸ்	-11.5018
ette	-11.5027
▁அலுவல்கள்	-11.5027
board	-11.5031
▁Mac	-11.5031
▁between	-11.5035
▁முன்னோக்கி	-11.5036
▁money	-11.5036
▁தோள	-11.5036
▁அனாதை	-11.5044
Thank	-11.5046
▁ஏமாந்த	-11.5047
▁கோப்புறை	-11.505
▁fact	-11.5057
அப்படியானால்	-11.5058
▁பயபக்தியுடையவர்	-11.506
▁மாத்திரம்	-11.5061
▁அனைத்திலும்	-11.5064
பொய்	-11.5066
▁கண்டடைவீர்கள்	-11.5077
▁HGH	-11.5077
▁உயிருள்ள	-11.5077
▁மன்னித்துவிடு	-11.5078
கொள்வார்கள்	-11.5078
▁பயன்படுகிறது	-11.5088
▁ஆணைக்குழு	-11.5089
▁Food	-11.509
room	-11.5092
▁அமைவ	-11.5093
▁சமூகத்தாரிடம்	-11.5094
▁---	-11.5095
▁care	-11.5104
னுபவ	-11.5106
ுபவனாக	-11.5109
▁White	-11.5111
▁அபிராம	-11.5116
▁அறிகிறான்	-11.5117
▁கடவுளுடைய	-11.5117
▁நன்கறிந்த	-11.5118
0.5	-11.5121
பக்த	-11.5122
▁செலவழித்த	-11.5122
▁முடிவெடுக்க	-11.5122
▁மென்பொருள	-11.5129
creat	-11.5134
▁போயிட்ட	-11.514
▁துடித்த	-11.5146
்கும்	-11.5148
▁சுமந்த	-11.5149
▁பதிலுக்கு	-11.5153
▁அதிவேக	-11.5153
Com	-11.5156
டேய்	-11.516
▁வஸல்லம்	-11.5161
▁ஆதரிப்ப	-11.5164
▁தேர்தலை	-11.5166
▁திருக்குறள	-11.517
▁அல்லாஹு	-11.5171
▁இதேபோல்	-11.5179
▁அமைச்சக	-11.5187
▁ஆசாரிய	-11.5188
▁தக்காளி	-11.519
▁இல்லையேல்	-11.5192
▁தொழிலாளி	-11.5195
▁மீண்ட	-11.5196
▁கிண்ண	-11.5204
பெருமாள	-11.521
▁வெறுமை	-11.5213
முடிகிறது	-11.5214
▁செய்பவர	-11.5217
▁அலுவல	-11.522
▁சோதிப்ப	-11.5225
▁புத்திசாலித்தன	-11.523
▁தவிர்ப்பது	-11.523
▁அவரிடமிருந்து	-11.5234
▁அதனுடைய	-11.5237
▁Phone	-11.5238
▁சுருங்க	-11.5238
▁நீரிழிவு	-11.5246
▁ரீதியில்	-11.5246
▁site	-11.525
vision	-11.5253
▁வலுவாக	-11.5253
▁திரையிட	-11.5254
▁ஏற்றுக்கொள்வ	-11.5256
▁தோஷ	-11.5258
▁பாழா	-11.5258
▁பாலிசி	-11.5261
▁கம்ப்யூட்டர	-11.5263
▁இன்னைக்கு	-11.5265
▁மோதிர	-11.5267
ப்பொருட்கள	-11.5279
▁திரள	-11.528
▁Women	-11.5281
▁பருத்தி	-11.5282
EAR	-11.5283
▁முன்னிட்டு	-11.5287
▁மீன்பிடி	-11.5289
▁இந்தியர்கள	-11.5292
▁படிப்பினை	-11.5297
▁ஏறக்குறைய	-11.5298
▁drink	-11.5298
▁உருவாகிறது	-11.5299
duct	-11.5306
▁புதுமையான	-11.5309
▁நிறுவனங்களின்	-11.5315
▁எதனால்	-11.5321
▁சிறிலங்கா	-11.5324
▁பொறியாளர்	-11.5325
▁செய்வதற்கான	-11.5328
▁last	-11.5329
▁பின்வாங்க	-11.533
Direct	-11.5332
அமைதி	-11.5332
▁மல்டி	-11.5334
கிரக	-11.5336
▁இன்றே	-11.5338
▁பத்திரிகையாளர்	-11.5341
▁வழமை	-11.5344
code	-11.5346
▁அசாதாரண	-11.5349
பிடிக்க	-11.535
▁ஐம்பது	-11.5358
▁டேட்டிங்	-11.536
▁sl	-11.5361
▁க்ளிக்	-11.5361
▁உலவ	-11.5368
▁எல்லாவற்றிலும்	-11.5375
▁சுவனபதி	-11.5377
▁விடுபட்ட	-11.538
நமக்கு	-11.538
▁பார்வதி	-11.5381
▁Other	-11.5381
அல்லாஹ்விடத்தில்	-11.5383
▁பரிவர்த்தனை	-11.5384
solution	-11.5384
▁ஆஸ்திரேலிய	-11.5385
எல்லோர	-11.5386
பாடாக	-11.5388
▁Make	-11.5394
▁சுரேஷ்	-11.5394
ுவீங்க	-11.5395
▁song	-11.5397
▁அவற்றுக்கு	-11.5399
▁தீர்ந்து	-11.5399
▁பதற	-11.5401
▁Full	-11.5402
▁திணற	-11.5404
▁திணிக்க	-11.5404
▁Data	-11.5406
தொடர்பு	-11.5407
▁இதன்மூலம்	-11.5407
▁பெல்ட்	-11.5409
▁எரிவாயு	-11.541
▁எடிட்	-11.5411
ava	-11.5414
▁தரவரிசை	-11.5416
▁பாலின	-11.5417
▁sur	-11.5418
cept	-11.5418
▁விமர்சனங்களை	-11.5422
▁could	-11.5436
▁girl	-11.5436
▁ரமேஷ்	-11.5436
களுக்கோ	-11.5442
▁அதிருப்தி	-11.5445
▁பளபள	-11.5445
அன்றியும்	-11.5446
▁தேனீ	-11.5448
▁அபூர்வ	-11.545
த்திறன	-11.5455
▁சமூகத்தினர	-11.5456
▁உறுப்பினராக	-11.5458
▁இப்ராஹிம்	-11.5462
▁(3)	-11.5465
▁ஆத்ம	-11.5468
▁தற்செயல	-11.5468
stitution	-11.5471
▁ஒருவரையொருவர்	-11.5471
▁அபிஷேக	-11.5471
NY	-11.548
ீஸ்வர	-11.5488
▁மழலை	-11.5489
▁thing	-11.549
விடுமா	-11.5496
வேண்டுமென்பத	-11.5498
▁முல்லை	-11.5498
▁சகஜ	-11.5499
ONE	-11.5499
▁உதட்ட	-11.5499
ிழப்ப	-11.5501
▁வயிற்ற	-11.5507
▁human	-11.5515
▁சிறிதளவு	-11.5516
▁பிரிட்டன	-11.5521
▁மக்களாக	-11.5522
▁பிராமண	-11.5522
▁அம்பி	-11.5525
▁அதிகரித்துள்ளது	-11.5529
▁சம்பா	-11.553
▁தஞ்சை	-11.5533
▁வியாழக்கிழமை	-11.5541
▁தேங்காய்	-11.5541
ெக்ட்	-11.5543
▁இளங்கோ	-11.5543
▁kill	-11.5546
▁ஸ்பெக்ட்ரம்	-11.555
▁நம்பகத்தன்மை	-11.555
▁வள்ளுவ	-11.555
கொண்டிருக்கிறோம்	-11.5563
cast	-11.5564
rel	-11.5565
போர்டு	-11.5567
▁நியூயார்க்	-11.5568
▁மிகப்பெரும்	-11.5569
▁குடுத்த	-11.557
▁வாஷிங்	-11.5576
▁ஒவ்வாமை	-11.5576
▁பாய்ந்த	-11.5583
விளக்க	-11.5584
▁ரப்பர்	-11.5585
▁சவாலாக	-11.5585
▁போகுது	-11.5588
2.3	-11.5593
▁கயிறு	-11.5594
▁heart	-11.5596
▁விலங்க	-11.56
▁இளையராஜா	-11.5604
aga	-11.5604
▁கிரிஸ்துவர்	-11.5612
▁ஜெர்மன்	-11.5612
▁short	-11.5612
▁women	-11.5621
▁குளியலறை	-11.5621
▁தாராள	-11.5623
▁child	-11.5629
▁அதேசமயம்	-11.563
▁வரைபடங்கள்	-11.563
▁கோயிலுக்கு	-11.563
▁இடமாற்ற	-11.5632
▁why	-11.5634
▁support	-11.5638
▁செல்போன்	-11.5638
▁Press	-11.5649
க்கொள்வத	-11.5657
▁அசுத்த	-11.5657
ILL	-11.5657
செலுத்த	-11.5662
▁பிரகடன	-11.5665
▁ஒபாமா	-11.5665
▁மனிதாபிமான	-11.5674
▁தெரிவித்துள்ளது	-11.5678
▁இப்படத்தில்	-11.5684
▁நல்லடியார்	-11.5687
▁came	-11.5688
▁ஸ்மார்ட்போன்	-11.5692
▁செலவாகும்	-11.5696
ஸ்டிக்	-11.5698
▁உங்களோட	-11.5702
குறித்த	-11.5708
▁திராட்சை	-11.571
▁நியதி	-11.5712
▁நேற்றைய	-11.5719
▁ஆசான்	-11.572
▁90%	-11.5721
▁மரபணு	-11.5728
ological	-11.5729
▁இடையிலான	-11.574
▁வாய்ப்பில்லை	-11.574
▁நிகழ்கிறது	-11.5743
▁என்பதற்கான	-11.5744
[4]	-11.5746
▁மேஜை	-11.5747
ரீதியாக	-11.5754
▁People	-11.5755
▁update	-11.5755
▁வசித்த	-11.5756
▁கூட்டமைப்பு	-11.5758
▁வேண்டுமோ	-11.5758
▁அவ்வாறான	-11.5762
▁காசோலை	-11.5764
▁பட்டதாரி	-11.5764
▁House	-11.5765
▁முதலாளித்துவ	-11.5768
▁உடுத்த	-11.5771
▁கருணா	-11.5774
▁அவருக்கே	-11.5777
▁சுவாரஸ்ய	-11.5779
▁கட்டமைக்க	-11.5779
vol	-11.578
▁United	-11.5782
▁பிரசார	-11.5782
▁ஓட்டுநர்	-11.5784
▁உணவளிக்க	-11.5785
▁அசோக	-11.5785
▁டாக்டர	-11.5791
சமூக	-11.5793
▁Group	-11.58
▁information	-11.58
▁மைக்ரோசாப்ட்	-11.58
▁தாழ்ந்த	-11.58
▁லேசாக	-11.5801
அன்பரே	-11.5804
ினாரா	-11.5813
▁வசூலிக்க	-11.5817
▁மறப்ப	-11.5819
▁found	-11.5823
▁General	-11.5827
▁health	-11.5827
▁உண்ணாவிரத	-11.5836
present	-11.5837
-11-	-11.5839
▁super	-11.5839
ருள்வாயாக	-11.5841
இருந்த	-11.5842
▁சாக்லேட்	-11.5854
▁ஆர்ப்பாட்ட	-11.5857
▁இனவாத	-11.5859
▁வெங்கட	-11.5859
▁கொல்வ	-11.5861
▁முன்தினம்	-11.5863
▁Under	-11.5866
▁செதுக்க	-11.5866
வராவார்	-11.5873
▁ஆணையிட்ட	-11.5878
▁லோகோ	-11.5881
▁ஷாப்பிங்	-11.5881
▁மஹிந்த	-11.5882
▁really	-11.5889
▁School	-11.589
▁கலோரி	-11.5891
▁சமாளித்த	-11.5892
▁வெளியீட்ட	-11.5896
▁கிடக்கிற	-11.5896
முஃமின்களே	-11.5897
▁Company	-11.5899
▁தெலுங்கு	-11.5899
▁ஊட்டச்சத்து	-11.59
▁செயலாற்ற	-11.5906
▁இம்மையிலும்	-11.5909
verse	-11.5912
எனினும்	-11.5916
▁மேற்பார்வை	-11.5918
▁etc	-11.5918
சிதம்பர	-11.5927
▁சடல	-11.5928
▁Education	-11.5936
▁இயலாமை	-11.5937
▁வெல்வ	-11.5939
இலவச	-11.5943
▁தினமலர்	-11.5945
▁பாடத்திட்ட	-11.5951
▁Have	-11.5954
▁கிருமி	-11.5954
வ்வ்வ்வ்வ்வ்வ்வ்	-11.5958
▁வன்னி	-11.596
▁Max	-11.596
▁அவ்விட	-11.5967
ந்தோறும்	-11.5967
ipp	-11.597
▁பகவான	-11.5972
▁நூற்றாண்டில்	-11.5973
▁தேர்வாக	-11.5974
ternal	-11.5979
»	-11.598
▁மாமனார	-11.5986
▁வாசலில்	-11.5988
▁வியாழன்	-11.5991
MENT	-11.5993
▁சட்டசபை	-11.5994
▁உள்துறை	-11.6
▁எழுந்திருக்க	-11.601
ECT	-11.6012
▁செய்வீராக	-11.6014
▁பாதுகாத்த	-11.6015
▁நரகவாசி	-11.6024
▁டிரைவர்	-11.6026
▁தரவிறக்க	-11.6028
▁காண்பிப்ப	-11.6036
▁second	-11.6037
நோன்ப	-11.6039
App	-11.604
கொள்வோம்	-11.6041
▁உறக்க	-11.6047
▁ஒருங்கிணைக்க	-11.6056
▁Review	-11.6062
▁டெலிவரி	-11.6065
▁அமுக்கி	-11.607
▁சில்லறை	-11.6074
அம்பேத்கர	-11.6074
கொடுப்ப	-11.6074
▁Search	-11.6076
▁அறக்கட்டளை	-11.6084
▁நிலநடுக்க	-11.6093
▁ஊழல	-11.6095
▁விளங்கிய	-11.6103
▁தாய்மார்	-11.6105
▁சுரண்ட	-11.6109
▁different	-11.6111
▁மெளன	-11.6114
▁அர்ரஹ்மான	-11.6116
▁Canada	-11.6121
▁மாதவிடாய்	-11.6121
▁keep	-11.6121
▁உதவிக்குறிப்பு	-11.6121
ிருத்தல்	-11.6128
▁ஏறத்தாழ	-11.613
▁இட்லி	-11.6131
▁data	-11.6133
▁வரவழைத்த	-11.614
▁யாரென்று	-11.6145
▁நிர்ப்பந்த	-11.6158
▁புரிகிற	-11.6163
▁ஏற்பாட்ட	-11.6167
▁பலன்களை	-11.6171
கொள்கின்றன	-11.6171
▁எவ்வாற	-11.6172
▁பிரதிபலிப்ப	-11.6177
▁மனசாட்சி	-11.6177
ீடாக	-11.6181
▁வயதிற்கு	-11.6187
▁கெடுக்க	-11.6193
▁காப்பீட்டு	-11.6198
▁Job	-11.6201
▁விஸ்வ	-11.6201
▁முரளி	-11.6205
▁வைக்கிறார்	-11.6207
▁மென்மையாக	-11.6211
த்தேர்வு	-11.6215
▁மதிப்பீட்ட	-11.6215
▁நொறுக்க	-11.6217
▁இயலுமா	-11.6223
▁அந்ந	-11.6223
▁பாடுபட	-11.6224
▁ராமசாமி	-11.6228
▁hard	-11.6231
▁இரசாயன	-11.6233
▁இன்னிக்கு	-11.6235
யாயிரு	-11.6236
▁தவிப்ப	-11.6239
▁Author	-11.6243
▁முயல்கிற	-11.6243
▁முன்னுரை	-11.6244
▁வல்லுநர்	-11.6244
▁Anti	-11.6247
▁நீராட	-11.6247
▁வீட்டிலேயே	-11.6255
Stat	-11.6256
▁காப்புறுதி	-11.6262
▁அவரோட	-11.6263
Where	-11.6271
▁Ltd	-11.6281
▁அயல்	-11.629
▁ஜாக்கிரதை	-11.629
ridge	-11.6307
▁பரபரப்பை	-11.6309
▁Response	-11.632
▁நறுமண	-11.6328
▁நன்கறிபவன்	-11.6328
▁முழுவதையும்	-11.6328
ஒன்று	-11.6328
▁தாமஸ்	-11.6329
▁குளிப்ப	-11.633
▁இகழ	-11.633
▁பிற்கால	-11.6333
vention	-11.6335
▁துரியோதன	-11.6338
▁லேபிள்கள்	-11.6338
▁சந்தைப்படுத்தல்	-11.6338
▁முதியோர்	-11.634
▁மரணித்த	-11.6346
▁விபரீத	-11.6347
▁விரிந்த	-11.6351
▁write	-11.6353
▁Product	-11.6358
எவ்வளவு	-11.636
▁இயற்பியல	-11.6366
▁திரையரங்க	-11.6367
▁புடவை	-11.6367
▁நிறைவாக	-11.637
لام	-11.6376
▁அர்ஜுனன	-11.6376
▁சம்பாதிப்ப	-11.6376
▁அருகாமை	-11.6377
▁pay	-11.6377
▁கொள்பவர்	-11.6385
▁கொலைகார	-11.6394
▁Instagram	-11.6395
▁கவுன்சில	-11.6395
ிற்கே	-11.6399
4.5	-11.6399
▁something	-11.6404
▁புறக்கணிப்ப	-11.6404
▁மஸீஹ	-11.6405
▁சபாநாயகர்	-11.6414
▁பாலைவன	-11.6414
▁திகைத்த	-11.642
▁visit	-11.6424
▁மகிழ்கிற	-11.6426
▁சப்ளையர்	-11.6428
▁இணைவைப்ப	-11.6431
▁இரண்டாவதாக	-11.6433
▁வெறுக்கிற	-11.6436
▁சார்ஜர்	-11.6437
▁நண்பனாக	-11.644
▁மறைமுகமாக	-11.6443
▁மேம்பாடு	-11.6443
▁Update	-11.6443
▁அஸ்தி	-11.6458
▁film	-11.6462
▁ஆபீஸ	-11.6466
▁புகலிட	-11.6472
▁துணிச்சல	-11.6472
▁வைச்ச	-11.6478
▁குடிநீர்	-11.648
▁அட்டகாச	-11.6482
▁புரிந்துகொண்ட	-11.6489
▁ஜென்ம	-11.6492
ச்சொற்கள	-11.6495
▁வீடியோக்களை	-11.6497
கொண்டிருக்கிறார்	-11.65
▁தொடர்ச்சியான	-11.6501
ிலுமே	-11.6509
stin	-11.6509
▁சமரச	-11.6509
▁கடைப்பிடிக்க	-11.6511
▁North	-11.6512
▁விக்ரம	-11.6515
▁இப்பதிவ	-11.6519
செய்திருக்கிறார்	-11.652
▁service	-11.652
▁நோய்க்கிருமி	-11.652
▁Reply	-11.652
▁ஊக்குவிப்ப	-11.652
கொண்டிருக்கின்றன	-11.6538
▁பற்றாக்குறை	-11.654
▁எல்லாருமே	-11.654
▁அக்னி	-11.6543
நிகழ்	-11.6547
▁Information	-11.6549
▁துடைக்க	-11.655
▁உடலுறவு	-11.656
▁பண்பாட்ட	-11.6564
▁Muslim	-11.6569
▁share	-11.6577
▁மனமார்ந்த	-11.6579
▁Film	-11.658
▁الْ	-11.658
▁புதல்வர	-11.6585
▁உள்வாங்க	-11.6587
▁சுழல	-11.6589
ஹாரூன	-11.6592
▁problem	-11.66
▁சுருட்ட	-11.6602
▁களைப்ப	-11.6605
▁பவுண்டு	-11.6608
▁பேதுரு	-11.6608
▁காயத்ரி	-11.6608
இறந்த	-11.6609
▁ஆர்வலர்	-11.6614
Security	-11.6618
▁Class	-11.6619
ட்டீங்களா	-11.662
▁Category	-11.6628
▁சிபாரிசு	-11.6628
▁சிஸ்டம்	-11.6637
ராஷ்டிர	-11.6637
▁para	-11.6639
Constellation	-11.6647
▁Show	-11.665
▁முதன்முதலில்	-11.6658
▁நன்கறிவான்	-11.6658
▁ஒதுங்க	-11.6663
▁கர்த்தராகிய	-11.6668
▁சொல்பவர்	-11.6671
▁idea	-11.6672
uff	-11.6674
த்தலைவர்	-11.6685
▁1/2	-11.6686
ப்பாருங்கள்	-11.6697
▁தனிப்பயன்	-11.6706
▁பழுப்பு	-11.6707
▁மறுபுறம்	-11.671
▁அனுதாப	-11.6711
▁பள்ளத்தாக்க	-11.6716
▁???	-11.6723
evolution	-11.6726
▁Miss	-11.6731
சுறுசுறுப்ப	-11.6736
▁Image	-11.6736
▁நித்ய	-11.6739
▁லஞ்ச	-11.6743
பக்தி	-11.6745
▁through	-11.6746
▁மாற்றியமைக்க	-11.6746
▁காலமானார்	-11.6757
பிடிப்ப	-11.6757
▁tri	-11.6758
Electronic	-11.6766
▁பெறுமதி	-11.6766
▁வாதாட	-11.6776
▁உத்தேச	-11.6777
▁பிரார்த்தித்த	-11.6784
முயற்சி	-11.6784
▁ஞாயிற்றுக்கிழமை	-11.6786
ிருக்கின்றேன்	-11.6794
▁பண்பாடு	-11.6796
▁சாமான்	-11.6799
▁பேராசை	-11.6809
▁உட்புற	-11.681
மெண்ட	-11.6813
▁special	-11.6816
▁சிறப்பம்ச	-11.6817
▁ஜெனரேட்டர்	-11.6826
▁திருச்சபை	-11.6826
ாளனாக	-11.6829
work	-11.683
▁வகுப்பறை	-11.6832
▁களமிறங்க	-11.6836
▁Money	-11.6837
▁கூட்டுறவு	-11.6838
▁iOS	-11.6838
▁சிங்கப்பூர	-11.6841
▁அறிபவன்	-11.6846
4.1	-11.6849
▁கதாநாயகன	-11.6856
▁movie	-11.6856
▁மருமகன	-11.6861
▁இயக்குநர	-11.6861
▁பலியாக	-11.6865
▁விடயத்தில்	-11.6869
▁எந்தெந்த	-11.6876
Server	-11.6882
அந்நாளில்	-11.6886
▁ரேடியோ	-11.6886
tress	-11.689
▁மானுட	-11.6892
▁இடையூறு	-11.6896
▁Islam	-11.6896
resident	-11.6896
▁யாழ்ப்பாண	-11.6911
▁அனிமேஷன்	-11.6916
தொழில்	-11.6919
▁நண்பனை	-11.6921
▁நடாத்த	-11.6936
▁செய்தியாளர்களிட	-11.6949
ibility	-11.6957
▁அபிப்பிராய	-11.6957
▁தாவீது	-11.6957
▁Follow	-11.6957
▁நகலெடு	-11.6958
ப்பதிவ	-11.6968
இவ்வுலக	-11.6968
▁நிராகரிப்பாளர்	-11.6972
▁எஸ்டேட்	-11.6974
▁கணிசமான	-11.6977
▁market	-11.698
▁ஒப்பீடு	-11.6989
▁தோழன	-11.699
▁துளசி	-11.6997
▁அவிழ்	-11.6997
▁வாடிக்கையாளர	-11.7003
▁குழுவினர்	-11.7008
▁காணிக்கை	-11.7018
-01-	-11.7026
▁பிரத்தியேக	-11.7028
▁மூலோபாய	-11.7028
▁வறட்சி	-11.7028
▁Word	-11.7028
▁Music	-11.7029
ாசிரியர	-11.703
▁உதறி	-11.7031
▁உணவருந்த	-11.7031
▁Port	-11.7032
▁சொத்துக்களை	-11.704
▁இப்ராஹீம	-11.7044
▁Twitter	-11.7048
▁correct	-11.7048
▁அனுகூல	-11.7048
▁மாப்பிள்ளை	-11.7048
▁யாவர	-11.705
poli	-11.7057
▁பரபரப்பாக	-11.7059
▁check	-11.7059
▁Warranty	-11.7069
▁எடப்பாடி	-11.7069
▁பண்டைய	-11.7069
▁எவருமே	-11.7072
▁ெச	-11.7081
▁கண்டித்த	-11.7082
▁செய்கிறாரோ	-11.7083
▁சகித்து	-11.7095
▁யோசிப்ப	-11.71
இஸ்லா	-11.7106
▁நல்லிணக்க	-11.711
▁அருவருப்ப	-11.711
▁தின்ன	-11.711
protect	-11.7117
▁happy	-11.712
▁small	-11.713
▁அச்சுப்பொறி	-11.713
▁ஜெயமோகன	-11.7131
▁truth	-11.7131
▁மலேசிய	-11.7132
▁ஊர்வல	-11.7132
▁பறிமுதல்	-11.7132
iff	-11.7135
tract	-11.7148
▁காவல்துறையினர	-11.7169
▁Media	-11.717
▁Cryptocurrency	-11.7172
▁இழிவுபடுத்த	-11.7178
▁VPN	-11.7182
▁சாஸ்திர	-11.7182
FO	-11.7182
▁எவனோ	-11.7182
▁அதற்க்கு	-11.7184
▁control	-11.7193
பருமன	-11.7209
▁களிமண்	-11.7209
▁வாத்தியார	-11.7211
▁சுனாமி	-11.7213
▁மன்னியுங்கள்	-11.7217
▁ஏளன	-11.7234
▁நிர்மாண	-11.7238
▁பறந்த	-11.7239
▁எஸ்சிஓ	-11.7245
▁ரீஃப்	-11.7253
▁வறண்ட	-11.7254
▁PHP	-11.7255
▁become	-11.7255
you	-11.7261
▁ஈஸ்வர	-11.7263
ُمْ	-11.7265
▁ஓய்வெடுக்க	-11.7266
▁சபித்த	-11.7273
நுரையீரல	-11.7286
▁ஃபிர்அவ்ன்	-11.7288
▁தாத்ஸ்	-11.7289
▁மகிந்த	-11.7289
▁ஆவலுடன்	-11.7297
▁lead	-11.7298
▁இவ்வேதத்தை	-11.7307
▁எந்நாளும்	-11.7307
IGHT	-11.7307
▁காங்கிரச	-11.7307
▁சித்தாந்த	-11.7308
▁social	-11.7309
▁ஈசன	-11.7318
▁புதன்கிழமை	-11.7318
▁மசோதா	-11.7318
▁கோஹ்லி	-11.7318
▁புதிது	-11.7319
▁Click	-11.7319
ாதபடிக்கு	-11.7324
▁அன்புடையோன்	-11.7329
▁சலவை	-11.7331
▁speak	-11.7339
▁மருமகள்	-11.7339
▁ஏழ்மை	-11.7342
▁பள்ளிவாசல	-11.7343
▁ஞாய	-11.7346
▁சித்ரா	-11.7351
▁talk	-11.7361
ception	-11.7362
▁நிமிர்ந்து	-11.7371
▁வீட்டார	-11.7371
▁another	-11.7372
▁நடக்குது	-11.7373
▁கிளாசிக்	-11.7375
▁செரிமான	-11.7392
▁சாமானிய	-11.7392
இறைவனின்	-11.74
▁உச்சரிப்ப	-11.74
▁Copyright	-11.7402
▁மேற்கொள்வ	-11.7407
▁உறவினர	-11.7412
▁மாத்திரமே	-11.7413
▁நனவாக	-11.7421
-----	-11.7425
ாவிடில்	-11.7431
▁ஹாலிவுட்	-11.7434
உயிர்	-11.7441
▁திறம்பட	-11.7446
உதவி	-11.7453
▁வைரமுத்து	-11.7455
▁செழிப்ப	-11.7462
▁மூதாதையர	-11.7464
▁தொழுத	-11.7477
▁அலைவரிசை	-11.7489
▁நின்றிருந்த	-11.7493
▁இறுக	-11.7508
▁குற்றச்சாட்ட	-11.7514
▁Market	-11.7521
▁Link	-11.7521
நெருப்ப	-11.7538
றிஞர்	-11.7544
▁அதிர்வு	-11.7544
▁ரசிப்ப	-11.755
▁Special	-11.7552
▁தகராறு	-11.7552
▁உயிரிழப்பு	-11.7552
திருமண	-11.7559
▁school	-11.7563
▁அர்ப்பணிப்பு	-11.7563
▁black	-11.7564
3,000	-11.7571
▁Earth	-11.7573
▁கிணறு	-11.7573
▁sign	-11.7575
அவரது	-11.7583
▁மாரடைப்ப	-11.7584
▁செலவிட்ட	-11.7595
▁ஒவ்வொருநாளும்	-11.7595
▁ஆராதனை	-11.7595
க்குட்பட்ட	-11.7596
▁job	-11.7597
▁பலஹீன	-11.76
▁Institute	-11.7617
குடும்ப	-11.7617
▁இப்றாஹீம்	-11.7618
▁மட்டுமில்ல	-11.7622
▁buy	-11.7639
நியாய	-11.7641
நபியவர்கள	-11.7641
▁ஏஞ்சல	-11.7647
4,000	-11.7648
▁leave	-11.7649
▁அனானி	-11.7651
▁அளந்த	-11.7652
▁பிரதிநிதித்துவ	-11.7658
ography	-11.7663
▁term	-11.7671
▁ஹைட்ராலிக்	-11.7671
▁பரிசோதித்த	-11.7671
aught	-11.7682
▁இசையமைப்பாளர்	-11.7682
▁வழிகேட்டில்	-11.7682
▁ஆயிற்று	-11.7682
▁முதன்முதலாக	-11.7693
▁சமாதி	-11.7698
இப்றாஹீ	-11.7702
▁பரிபூரண	-11.7704
▁செல்பவர்	-11.7706
▁Eye	-11.7714
▁நோபல்	-11.7715
▁புயல	-11.7724
▁earth	-11.7726
1.5	-11.7732
▁history	-11.7736
▁இதற்கிடையில்	-11.7736
▁available	-11.7747
▁ஹெலிகாப்டர	-11.7747
▁image	-11.7748
▁மொழிபெயர்க்க	-11.7748
▁நன்மாராயங்	-11.7758
▁message	-11.7758
▁செவியேற்க	-11.7758
▁சொல்லப்போனால்	-11.7758
▁சிறகு	-11.7759
▁அறுபது	-11.777
▁பகிர்வ	-11.7776
▁future	-11.778
▁திருமணமாகி	-11.7784
▁நெடுஞ்சாலை	-11.7791
▁ரஷியன்	-11.7791
▁next	-11.7802
▁hours	-11.7813
தகவல்	-11.782
▁Software	-11.7824
▁அதிர்ஷ்டவசமாக	-11.7824
▁அலமாரி	-11.7824
▁kind	-11.7826
▁மூலக்கூறு	-11.7836
வீடியோ	-11.7836
அவ்வாறாயின்	-11.7836
[5]	-11.7836
▁உதிக்க	-11.7846
▁பின்னாடி	-11.7847
▁நிர்வகி	-11.7851
▁யூனியன்	-11.7858
▁கப்பலில்	-11.7858
▁ஸ்டீராய்டு	-11.7869
▁title	-11.7869
▁வில்லியம்	-11.7869
▁Multi	-11.7869
ُو	-11.788
▁family	-11.788
▁கழற்றி	-11.7891
▁நயன்தாரா	-11.7902
ச்சூழல	-11.7902
▁யாத்திரை	-11.7903
India	-11.7909
மாணிக்க	-11.7912
▁Economic	-11.7913
▁Question	-11.7913
▁உள்ளிடவும்	-11.7936
▁விநியோகஸ்தர்கள்	-11.7947
செய்கிற	-11.7947
▁சுன்னி	-11.795
▁அரங்கேற	-11.7952
▁facebook	-11.7958
▁ஆழ்வார்	-11.797
▁கண்காணித்த	-11.7971
▁அனைத்திற்கும்	-11.7971
▁சலன	-11.7975
ique	-11.7981
▁white	-11.7981
▁rule	-11.7985
▁அளப்ப	-11.7987
▁மைக்கேல்	-11.7992
▁உபயோகித்த	-11.8
▁பெருமித	-11.8002
▁பிரத்யேக	-11.8003
▁ஆக்கிரமிப்ப	-11.8003
▁செயற்படுத்த	-11.8007
▁சிகரெட்	-11.8014
▁உபயோகிப்ப	-11.8023
▁இம்மாதிரி	-11.8026
▁லைட்டிங்	-11.8027
▁ஆரோன	-11.8037
▁ஹோட்டல	-11.8042
▁break	-11.8048
▁தரிசிக்க	-11.8048
வேண்டுமென்று	-11.8051
▁தொகுத்து	-11.8053
▁business	-11.8059
▁group	-11.8059
▁Program	-11.8059
▁இளவரசி	-11.8059
▁மன்னிப்பாயாக	-11.806
▁temp	-11.806
▁ஸ்பானிஷ்	-11.8071
▁happen	-11.8071
▁நன்கறிபவனாக	-11.8071
▁நல்வாழ்வ	-11.8078
▁Design	-11.8082
▁ஆசிரம	-11.8084
▁பிடுங்கி	-11.8091
▁திருவள்ளுவ	-11.8105
▁நரேந்திர	-11.8105
▁Bitcoin	-11.8116
▁இளைப்பாற	-11.8116
▁version	-11.8117
▁Research	-11.8127
▁சொற்றொடர	-11.8139
அலைஹிஸ்ஸலாம்	-11.8139
▁அர்ப்பணிக்க	-11.8139
▁train	-11.814
▁Hindu	-11.815
▁வடிவேலு	-11.815
அங்கே	-11.8156
▁கவுரவ	-11.8156
▁public	-11.8162
▁வரவழைக்க	-11.8162
▁மவுன	-11.8164
▁ஏழாம்	-11.8173
▁உலுக்க	-11.8178
▁நிமித்த	-11.8187
▁புரிந்துகொள்வ	-11.8196
▁காங்கிரஸ	-11.8197
world	-11.8201
▁Microsoft	-11.8208
▁கார்ப்பரேஷன்	-11.8208
▁முன்னிருப்பு	-11.8208
▁முனக	-11.8211
▁விபத்த	-11.8213
▁வசீகர	-11.8219
▁கழுத்தில்	-11.8219
▁subject	-11.822
5.0	-11.822
▁value	-11.8231
▁விசாரிப்ப	-11.8231
▁விவாதித்த	-11.8233
இயற்கை	-11.8236
▁திமிர	-11.8241
▁ஓய்வூதிய	-11.8242
▁கிறித்தவ	-11.8243
▁ட்வீட்	-11.8245
▁ஓய்ந்த	-11.8247
▁எடுத்துக்கொள்வ	-11.8253
▁government	-11.8254
▁மசூதி	-11.8265
▁திருக்குர்ஆன	-11.8266
அல்ஹம்துலில்லாஹ்	-11.8277
▁சுவிசேஷ	-11.8277
style	-11.8282
▁சிறுவயதில்	-11.8288
▁accept	-11.8288
▁Asia	-11.8293
இவ்வாறே	-11.8295
▁நிர்பந்த	-11.83
َلَ	-11.8302
▁நல்லுபதேசம்	-11.8311
▁Public	-11.8312
▁பிரவேசிக்க	-11.8312
▁தரிசித்த	-11.8312
▁தெளிவாக்க	-11.8313
▁கிளவுட்	-11.832
▁Australia	-11.8323
க்கெதிராக	-11.8323
▁உபுண்டு	-11.8323
கிறிஸ்து	-11.833
▁விண்மீன்	-11.8335
▁விமர்சிக்க	-11.8335
▁Children	-11.8335
▁லிமிட்டெட்	-11.8346
▁வைத்தியசாலை	-11.8346
▁மிளகு	-11.8346
▁create	-11.8354
▁உணர்த	-11.8365
நண்பர்	-11.8377
2.6	-11.8384
▁tell	-11.8385
உமது	-11.839
▁கோப்பினை	-11.8393
•	-12.0607
