<unk>	0
<s>	0
</s>	0
.	-2.96919
,	-3.74067
▁	-4.36501
ம்	-4.53182
க்	-4.98817
▁ஒரு	-5.05862
?	-5.11466
ப்	-5.12518
கள்	-5.14172
)	-5.15215
▁(	-5.3655
்	-5.42512
:	-5.43691
!	-5.49149
................	-5.49999
▁என்று	-5.55194
▁இந்த	-5.5794
த்	-5.58365
து	-5.58958
▁நான்	-5.62393
ு	-5.629
;	-5.72077
ல்	-5.8139
ய	-5.81684
▁நீங்கள்	-5.82286
s	-5.87558
ும்	-5.89065
ி	-5.90522
களை	-5.90577
▁மற்றும்	-5.93198
ன்	-5.93851
▁அவர்	-5.99704
க	-6.00392
▁இது	-6.0277
▁அவர்கள்	-6.05606
ச்	-6.08683
க்கு	-6.09095
▁"	-6.09807
யை	-6.13645
தான்	-6.16781
ை	-6.1702
▁-	-6.17753
-	-6.18163
▁“	-6.18201
▁உங்கள்	-6.2023
▁அது	-6.2044
க்க	-6.20815
▁அந்த	-6.21114
▁ஆனால்	-6.24832
யில்	-6.26416
த்தை	-6.27355
ல	-6.27843
யும்	-6.28479
"	-6.29688
ர்	-6.30842
▁தான்	-6.33614
வ	-6.34278
ம	-6.37771
ஸ்	-6.38271
ன	-6.38349
▁என்	-6.38909
▁வேண்டும்	-6.39842
த்தில்	-6.40346
▁என்ன	-6.43026
▁அ	-6.44363
ங்கள்	-6.4506
ா	-6.45656
வை	-6.45724
த	-6.47091
t	-6.47399
மாக	-6.47959
▁அல்லது	-6.4863
▁நாம்	-6.48844
ப	-6.50792
▁இல்லை	-6.51062
த்த	-6.53551
வும்	-6.56867
▁பல	-6.57593
ே	-6.65463
g	-6.66312
யா	-6.66589
வே	-6.67394
ிய	-6.67439
▁என	-6.67455
”	-6.67567
▁நீ	-6.68065
▁அதை	-6.70232
ில்	-6.70304
▁செய்ய	-6.71752
யே	-6.72979
ட்	-6.73493
வர்	-6.7378
மா	-6.74041
மான	-6.77475
யாக	-6.77811
யின்	-6.79421
ார்	-6.80701
த்து	-6.82301
ர	-6.83493
▁சில	-6.84323
டி	-6.87081
ட	-6.87286
’	-6.8795
ந்த	-6.88284
▁அவன்	-6.89357
▁எனக்கு	-6.89921
தா	-6.90222
தி	-6.91933
▁மேலும்	-6.93576
▁அல்லாஹ்	-6.94176
களில்	-6.954
▁இ	-6.9543
▁தன்	-6.98269
▁எப்படி	-6.99577
▁முடியும்	-7.00037
▁‘	-7.00209
தை	-7.00229
▁நல்ல	-7.00326
ின்	-7.00789
ப்ப	-7.01645
வில்லை	-7.02358
லை	-7.02863
▁பற்றி	-7.03864
ேன்	-7.04208
▁உள்ள	-7.04376
வி	-7.04935
▁உங்களுக்கு	-7.05291
வர்கள்	-7.05707
ால்	-7.06909
▁என்ற	-7.07078
அ	-7.07337
▁விட	-7.08762
y	-7.08796
ரி	-7.09226
▁the	-7.09486
▁இருக்க	-7.09618
▁மிகவும்	-7.09672
▁க	-7.09749
களும்	-7.09774
வு	-7.10049
▁எந்த	-7.10425
▁நா	-7.11401
வா	-7.11883
களின்	-7.11996
▁ஆ	-7.12767
மும்	-7.13219
த்தின்	-7.13629
▁இருக்கும்	-7.14245
மே	-7.14469
▁இதை	-7.15044
▁முதல்	-7.15163
▁1	-7.16537
'	-7.1667
▁ப	-7.17108
களுக்கு	-7.17755
ங்க	-7.18252
லாம்	-7.18553
ச	-7.19114
(	-7.19535
ாக	-7.20451
▁பெரிய	-7.20454
▁வேலை	-7.21063
ப்பட்ட	-7.21632
▁என்பது	-7.222
சி	-7.2228
▁இன்னும்	-7.23202
▁என்னை	-7.24638
வன்	-7.24853
ான்	-7.24969
▁ச	-7.24979
ரை	-7.25449
னி	-7.2554
பி	-7.25743
▁of	-7.26579
▁செய்து	-7.27042
ங்களை	-7.27055
▁இருந்தது	-7.27367
ரா	-7.27724
ோம்	-7.27853
▁–	-7.2822
▁வர	-7.28739
▁கூட	-7.29021
▁2	-7.29039
▁இருந்து	-7.30109
▁ஏன்	-7.31049
▁போது	-7.32594
▁&	-7.32759
n	-7.33064
ing	-7.33388
▁:	-7.33981
▁மீது	-7.34114
▁ம	-7.34317
▁பேச	-7.34327
னை	-7.34462
▁எ	-7.34982
▁சொல்ல	-7.35051
ப்பு	-7.36099
▁நாங்கள்	-7.36454
▁நிச்சயமாக	-7.36479
▁நாள்	-7.36575
▁இரண்டு	-7.36575
க்கும்	-7.38237
▁உள்ளது	-7.38615
யோ	-7.38831
ப்பட	-7.3892
▁முறை	-7.39001
ந்து	-7.39005
▁S	-7.39058
▁த	-7.39097
▁இப்போது	-7.39242
ோ	-7.40381
▁வேறு	-7.417
▁'	-7.41701
ற	-7.41922
▁வந்த	-7.41956
▁கொண்டு	-7.42564
ுக்கு	-7.43089
மை	-7.44025
er	-7.45363
▁வழி	-7.45433
▁வந்து	-7.45758
மி	-7.45867
லி	-7.45947
▁3	-7.46141
▁செய்த	-7.46202
▁இன்று	-7.46639
▁மக்கள்	-7.46649
▁யார்	-7.46863
▁to	-7.46965
▁என்பதை	-7.47021
தாக	-7.47252
▁முடியாது	-7.4792
▁அவர்களுக்கு	-7.48152
ரு	-7.48308
னர்	-7.48517
ைத்	-7.49028
கு	-7.49573
▁எனவே	-7.49891
▁அவரது	-7.49976
▁மீண்டும்	-7.50184
▁அவர்களை	-7.5033
e	-7.50495
ுவது	-7.5221
லா	-7.52243
இ	-7.52765
▁வரை	-7.53361
▁மிக	-7.53504
விட	-7.53541
▁தர	-7.53651
▁நீர்	-7.53686
கா	-7.54415
யான	-7.55396
▁a	-7.55583
ed	-7.56097
னா	-7.56614
ாமல்	-7.56661
▁அவரை	-7.57608
▁இரு	-7.58233
ள	-7.5826
▁பெற	-7.5826
▁A	-7.58557
▁/	-7.58965
▁in	-7.58977
▁புதிய	-7.5904
▁அதன்	-7.59095
.”	-7.59208
டு	-7.59209
▁5	-7.59244
al	-7.59274
ாத	-7.59534
ாய்	-7.59682
▁பிறகு	-7.59871
▁சி	-7.60223
ட்ட	-7.60474
தே	-7.60595
▁இருந்த	-7.60785
▁ஒவ்வொரு	-7.61094
▁சிறந்த	-7.61627
▁மட்டுமே	-7.6165
▁C	-7.6173
▁4	-7.62653
▁முன்	-7.62707
▁நேரம்	-7.63094
▁அப்படி	-7.63724
▁உ	-7.63831
▁மூலம்	-7.64126
▁பார்க்க	-7.64345
▁இருக்கிறது	-7.64424
..............	-7.64944
ார்கள்	-7.65092
▁வி	-7.65126
த்தான்	-7.65228
▁உங்களை	-7.65284
த்திற்கு	-7.65634
▁எங்கள்	-7.66384
▁தேவை	-7.66759
பா	-7.66856
▁அவள்	-7.66951
▁கொண்ட	-7.67009
ட்டு	-7.67044
a	-7.68817
▁என்றால்	-7.68998
▁அனைத்து	-7.69089
▁அதற்கு	-7.69405
▁நன்றி	-7.69515
/	-7.70357
S	-7.70775
▁நம்பிக்கை	-7.71461
ற்ற	-7.71474
C	-7.71858
le	-7.72211
▁இப்படி	-7.72348
▁விட்டு	-7.72671
▁உதவி	-7.72694
?”	-7.72748
▁கை	-7.72758
▁P	-7.72763
▁and	-7.72867
▁வரும்	-7.73027
▁19	-7.73045
களையும்	-7.73335
▁அல்ல	-7.73668
ப்படும்	-7.73678
▁கூற	-7.73794
▁நம்	-7.74085
ப்பட்டது	-7.74271
ுங்கள்	-7.74735
▁தனது	-7.75212
▁வ	-7.75285
ுகிறது	-7.75342
▁உண்மை	-7.75359
▁நம்ப	-7.75662
ண	-7.75756
▁ஒன்று	-7.75765
▁உன்	-7.7582
▁பா	-7.75859
▁கு	-7.75958
▁கொள்ள	-7.76513
வின்	-7.76805
ாது	-7.76895
in	-7.77002
ச்ச	-7.77049
▁T	-7.77475
A	-7.7752
▁B	-7.77527
▁கால	-7.77557
▁...	-7.77632
ள்	-7.78
m	-7.78382
▁பெயர்	-7.79077
▁எல்லாம்	-7.79173
▁வெற்றி	-7.79782
▁மா	-7.80049
▁பு	-7.80273
D	-7.80477
▁அப்போது	-7.80588
▁நிலை	-7.80957
▁பின்னர்	-7.81041
▁[...]	-7.81451
▁இறைவன்	-7.81504
▁ந	-7.81525
▁பட	-7.81637
ங்களில்	-7.81672
2	-7.82353
▁எனது	-7.82986
r	-7.83213
▁மு	-7.83289
▁கடவுள்	-7.8352
▁10	-7.83943
▁உலக	-7.83944
▁எழுத	-7.83959
o	-7.8416
P	-7.84256
3	-7.84323
கி	-7.84488
ச்சி	-7.8489
ட்டி	-7.85209
வர	-7.85214
▁போன்ற	-7.8556
ங்	-7.86173
▁மற்ற	-7.8658
▁பின்	-7.86847
சா	-7.87134
டை	-7.87223
▁F	-7.87365
ான	-7.87864
யிருக்கிறான்	-7.87895
M	-7.88056
­	-7.88348
போது	-7.88638
▁உணவு	-7.88869
▁போல	-7.89031
▁பெண்	-7.89217
▁சரி	-7.89218
▁பதிவு	-7.89461
▁சு	-7.90064
▁ஒரே	-7.90118
▁பி	-7.90201
ட்சத்திரங்களை	-7.90409
▁தாண்டும்	-7.90504
▁ஏ	-7.90702
▁எத்தனையாவது	-7.90709
▁தவிர	-7.9074
▁முதியவன்	-7.90875
▁சாய்த்தபடி	-7.90949
▁தங்கள்	-7.90961
▁பாதாளங்கள	-7.90965
▁மந்திரக்கோலா	-7.90976
4	-7.91187
சு	-7.91332
று	-7.91339
னு	-7.91516
d	-7.91665
▁பார்த்த	-7.91685
▁அதே	-7.9187
▁குழந்தை	-7.91981
ாள்	-7.921
▁அடுத்த	-7.92499
re	-7.92608
ிக்க	-7.92757
1	-7.93124
▁கோ	-7.93598
▁திரு	-7.93663
▁எல்லா	-7.94
ளி	-7.94277
வில்	-7.94483
T	-7.94687
B	-7.94813
ழ	-7.95015
த்தி	-7.95112
ாலும்	-7.95347
▁அவருக்கு	-7.95721
▁எப்போதும்	-7.95832
▁பயன்படுத்த	-7.95911
▁6	-7.95917
▁தா	-7.96228
▁ஐ	-7.96259
▁அதில்	-7.96324
▁சா	-7.96821
E	-7.96858
▁இருந்தால்	-7.96863
ியது	-7.97461
▁7	-7.97519
▁ஆக	-7.97986
5	-7.983
▁இங்கே	-7.98481
வது	-7.98531
▁நமக்கு	-7.99302
or	-7.99379
i	-7.99573
▁மாற்ற	-7.99943
நான்	-8.00825
]	-8.00915
▁மட்டும்	-8.00951
மு	-8.00959
▁வாங்க	-8.01103
p	-8.01357
ஆ	-8.01639
▁வா	-8.01971
▁is	-8.0198
▁அவர்களின்	-8.02328
amp	-8.02673
▁என்றார்	-8.02681
▁மன	-8.02752
▁கூறினார்	-8.02808
▁தமிழ்	-8.03036
▁நமது	-8.03134
▁கா	-8.03427
▁வழங்க	-8.03637
றி	-8.04117
▁காண	-8.04172
▁நிறைய	-8.04204
படி	-8.04292
▁M	-8.045
ிட	-8.04637
▁தலை	-8.04945
▁I	-8.05116
▁உண்டு	-8.05304
வோ	-8.05347
▁ஆண்டு	-8.06194
கை	-8.06374
▁ஒருவர்	-8.06946
▁முயற்சி	-8.07066
▁பணி	-8.07145
▁தெரியும்	-8.07449
தில்லை	-8.07583
களே	-8.08777
ச்சு	-8.08921
I	-8.09072
▁கேட்க	-8.09263
▁அதனால்	-8.09291
▁G	-8.09344
த்துக்கு	-8.09778
▁செ	-8.09818
?"	-8.09991
▁வாழ்க்கை	-8.10051
களாக	-8.10566
ெ	-8.10633
▁பூ	-8.10889
ரிய	-8.1112
▁D	-8.11371
ணி	-8.11687
▁அவை	-8.11735
▁8	-8.11952
b	-8.12336
l	-8.12343
ினார்	-8.12385
ீர்கள்	-8.12431
▁நானும்	-8.12842
▁மூன்று	-8.12943
ப்படுகிறது	-8.13165
▁பெற்ற	-8.13255
▁9	-8.13389
▁E	-8.13426
▁மனித	-8.13634
▁திரும்ப	-8.13799
▁இவர்	-8.1383
c	-8.13847
ar	-8.13956
றை	-8.14173
▁நி	-8.14518
▁செல்ல	-8.14666
▁இட	-8.14881
▁பதில்	-8.14995
டா	-8.15019
ள்ள	-8.15105
▁ஓ	-8.15111
▁கதை	-8.1544
ண்ட	-8.15578
▁கேள்வி	-8.15749
▁உள்ளன	-8.16519
வ்	-8.16564
th	-8.16663
▁இந்திய	-8.16783
பு	-8.16797
▁மே	-8.1722
▁மணி	-8.17448
▁கடந்த	-8.17497
▁பார்த்து	-8.17498
ரே	-8.17707
▁விலை	-8.17779
▁டி	-8.18018
u	-8.18301
ண்டு	-8.18543
வரை	-8.18553
▁சிறு	-8.18694
ஹ	-8.18757
ுள்ளது	-8.18812
an	-8.19136
▁உண்மையில்	-8.19287
▁எவ்வளவு	-8.19314
▁இனி	-8.19393
▁ஹ	-8.19732
▁வைத்து	-8.20008
▁அறிய	-8.20144
▁மனைவி	-8.20243
ஸ	-8.20512
ிறது	-8.20541
▁H	-8.20549
ையும்	-8.2059
ப்படுத்த	-8.20783
க்கி	-8.20961
▁அங்கு	-8.21246
ினால்	-8.21268
தற்கு	-8.21549
▁இயேசு	-8.2164
▁தந்தை	-8.21921
▁கே	-8.22032
ந	-8.22036
ுதல்	-8.22037
▁சிறிய	-8.22091
▁தேர்வு	-8.22184
at	-8.22253
▁அல்லாஹ்வின்	-8.22313
விட்டு	-8.22374
k	-8.22524
எ	-8.22873
வாக	-8.23082
O	-8.2335
▁நீங்க	-8.23598
▁சொல்லி	-8.2381
▁இவர்கள்	-8.23974
ுகிறேன்	-8.24048
யுடன்	-8.24156
▁சென்று	-8.24517
▁ர	-8.24803
▁அறிந்த	-8.25094
்ப்ப	-8.25241
▁வேதனை	-8.25428
▁for	-8.25691
ஷ்	-8.25816
ன்னு	-8.25921
▁போக	-8.26182
▁அனைவரும்	-8.2631
தில்	-8.26325
▁நேர	-8.26446
▁அம்மா	-8.26496
னும்	-8.26718
யர்	-8.26747
▁அவனை	-8.2685
ரின்	-8.26946
ும்போது	-8.26961
▁தீ	-8.27261
தால்	-8.27295
H	-8.2731
▁அதிக	-8.27319
▁முழு	-8.27579
▁இவை	-8.27778
▁L	-8.27816
▁The	-8.27893
▁இதனால்	-8.27956
▁மாதிரி	-8.27965
▁படம்	-8.28111
▁W	-8.28226
F	-8.28335
▁_	-8.28811
ய்	-8.28814
ர்கள்	-8.28823
es	-8.29096
▁அளவு	-8.29178
▁ஆகும்	-8.29262
▁[	-8.29402
தோ	-8.29471
▁உன்னை	-8.29648
▁முதலில்	-8.29939
▁உனக்கு	-8.29943
6	-8.29956
G	-8.3004
ிருந்த	-8.30317
%	-8.3047
▁கண்ட	-8.3103
▁பணம்	-8.31107
▁நம்மை	-8.31137
ுடன்	-8.31424
வேண்டும்	-8.31643
▁தி	-8.31656
▁அவருடைய	-8.31943
▁re	-8.32159
h	-8.32169
L	-8.32237
த்தையும்	-8.32415
▁சரியான	-8.32454
ிலும்	-8.32498
7	-8.32606
கோ	-8.32621
▁அரசு	-8.32731
▁இதன்	-8.32848
▁இதற்கு	-8.33097
et	-8.33105
ோடு	-8.33119
ப்பா	-8.33139
▁வேண்டிய	-8.33294
▁செய்யும்	-8.33492
▁நாடு	-8.33521
▁இதில்	-8.33571
▁வைக்க	-8.33647
▁கொடுக்க	-8.33749
▁எது	-8.33954
▁பே	-8.34164
▁செலுத்த	-8.34447
▁போ	-8.34473
ிருக்க	-8.34594
f	-8.3488
▁காட்ட	-8.3508
▁you	-8.35383
க்காக	-8.35508
▁வருகிறது	-8.35523
▁நோக்கி	-8.35551
▁12	-8.35903
▁எங்களுக்கு	-8.35904
▁உருவாக்க	-8.36001
ோர்	-8.36095
களைப்	-8.36197
▁பட்ட	-8.36238
டன்	-8.36389
ுவதற்கு	-8.36452
▁கேட்ட	-8.36463
▁ஆகவே	-8.36467
வுக்கு	-8.36728
▁ஈ	-8.36798
▁வந்தது	-8.36831
▁பாட	-8.36916
▁N	-8.37196
▁அனுப்ப	-8.37401
ஜி	-8.37416
ur	-8.37445
▁படி	-8.37693
▁மேல்	-8.37735
ch	-8.37877
யு	-8.37878
▁நபி	-8.38061
w	-8.38179
R	-8.38228
W	-8.38247
▁காலம்	-8.38408
▁சொன்ன	-8.38458
ப்பட்டு	-8.38548
▁நேரத்தில்	-8.38596
▁மழை	-8.38708
சை	-8.38846
▁எடுத்து	-8.3893
▁இதனை	-8.39047
▁K	-8.39104
▁இங்கு	-8.39126
ஞ்ச	-8.39338
ற்று	-8.39377
▁பிர	-8.39658
ொ	-8.39757
▁வைத்த	-8.3978
ண்	-8.39885
▁பற்றிய	-8.39947
ஹ்	-8.39997
மோ	-8.40036
▁”	-8.40073
▁தனி	-8.40344
ad	-8.40501
▁உண்மையான	-8.4065
▁கி	-8.40669
▁போல்	-8.40709
8	-8.40716
N	-8.40718
ரோ	-8.40907
ஷ	-8.40934
▁விரும்ப	-8.40947
ic	-8.41036
▁சமூக	-8.41072
ுவோம்	-8.4109
it	-8.41276
ங்களும்	-8.41306
▁அடி	-8.41415
on	-8.41601
யையும்	-8.41718
▁தேட	-8.41727
போ	-8.41845
▁உடல்	-8.41941
▁எண்ண	-8.4215
▁20	-8.42174
▁காரணம்	-8.42338
▁ஏனெனில்	-8.42455
▁இரவு	-8.42707
▁எதுவும்	-8.42747
!”	-8.42971
ப்போ	-8.43242
▁அதனை	-8.43295
▁குறித்து	-8.43485
▁பெரும்	-8.43654
▁நன்றாக	-8.43727
▁செய்தி	-8.43867
ீ	-8.44016
ளை	-8.44573
▁போய்	-8.4461
lt	-8.44761
x	-8.44887
ீர்	-8.44911
▁வேண்டாம்	-8.44995
ின	-8.45281
ழி	-8.45338
▁இல்	-8.45357
▁அணி	-8.45492
▁போட	-8.45526
▁உதவ	-8.45617
மில்லை	-8.45816
▁மொழி	-8.45946
ிருக்கிறது	-8.46194
="	-8.46245
▁சென்ற	-8.46458
ுமா	-8.46521
▁குழந்தைகள்	-8.46572
▁படைத்த	-8.46673
என்	-8.46845
▁முடிவு	-8.46912
நீ	-8.46919
ுள்ள	-8.46997
▁நம்ம	-8.47079
▁கருத்து	-8.47486
▁பிற	-8.47628
▁தகவல்	-8.47826
▁மெ	-8.479
யிலும்	-8.4796
▁அப்பா	-8.48066
▁f	-8.4825
▁Re	-8.48262
ri	-8.48273
தம்	-8.48318
ங்களுக்கு	-8.48436
கிறது	-8.48472
ra	-8.4853
▁ஆம்	-8.48553
▁கொடுத்த	-8.48997
▁வெ	-8.49038
▁வகை	-8.49074
▁கூடாது	-8.49079
▁அவனுக்கு	-8.49103
▁ஒளி	-8.49246
ly	-8.49306
ல்ல	-8.49376
▁கார்	-8.49505
▁படிக்க	-8.49765
▁எங்கே	-8.49823
9	-8.50052
▁யாரும்	-8.50195
20	-8.50276
▁அழைக்க	-8.5044
▁எழுதிய	-8.50476
ரும்	-8.50526
ட்டும்	-8.50642
▁c	-8.50746
▁மகன்	-8.50962
▁சேவை	-8.51059
▁தே	-8.51233
▁ஜ	-8.5151
▁இன்	-8.51517
ிற்கு	-8.51616
▁நடத்த	-8.51661
V	-8.51871
ுள்ளார்	-8.52012
ுகிறார்கள்	-8.52028
▁முடியுமா	-8.52146
ருக்கு	-8.52456
லில்	-8.52805
னின்	-8.53027
உ	-8.53033
ாதீர்கள்	-8.5304
▁p	-8.53232
ூ	-8.5326
▁ஒ	-8.53375
நீங்கள்	-8.53405
▁பள்ளி	-8.53486
ிற	-8.53604
ீர்களா	-8.53698
▁வீட்டில்	-8.5378
▁பிறந்த	-8.53896
▁வான	-8.54039
ிருக்கும்	-8.54098
en	-8.54237
ங்கி	-8.54313
▁நடந்த	-8.54391
▁நீண்ட	-8.54507
00	-8.54615
▁உங்க	-8.54656
▁என்னுடைய	-8.54765
▁இசை	-8.54834
▁வாழ	-8.54995
யில	-8.55041
▁வீடு	-8.55455
▁சீ	-8.55617
ராக	-8.55634
னே	-8.55893
▁உரிமை	-8.55984
யால்	-8.56053
ுகிறார்	-8.56169
▁போன	-8.56183
ிடம்	-8.56369
தன்	-8.5659
களால்	-8.56687
▁பாதுகாப்பு	-8.5673
▁உயிர்	-8.56859
வரும்	-8.56931
K	-8.57032
▁பகுதி	-8.57135
ter	-8.57199
ற்	-8.57264
வர்களுக்கு	-8.57335
▁திரும்பி	-8.57339
▁விளையாட்டு	-8.57396
▁15	-8.57464
▁பேர	-8.57535
ிருந்தால்	-8.57552
▁R	-8.57804
வர்களை	-8.57928
லே	-8.57944
ுகிற	-8.58179
▁ஏதாவது	-8.58245
▁வெளியே	-8.58311
▁தவறு	-8.58345
▁V	-8.58378
▁முக்கிய	-8.5864
▁பெண்கள்	-8.59016
el	-8.59105
▁பார்வை	-8.5921
▁18	-8.59373
▁அதிகமாக	-8.59419
▁வெளி	-8.59496
▁11	-8.59521
▁அங்கே	-8.59587
▁தெரியுமா	-8.59665
▁பக்க	-8.59839
களுடன்	-8.60107
▁be	-8.60164
▁கிடைக்கும்	-8.60336
am	-8.60355
ுவ	-8.60374
பட	-8.60589
▁கண	-8.60643
க்கா	-8.60652
▁நாளை	-8.60702
கே	-8.60708
▁விளையாட	-8.60863
▁காலை	-8.60909
▁கேட்டு	-8.61299
ation	-8.6155
▁தெரியாது	-8.61657
னால்	-8.61949
க்கூடிய	-8.62129
ol	-8.62131
▁பதி	-8.62195
▁எடுக்க	-8.62504
க்கான	-8.62777
▁b	-8.62872
▁நில	-8.62888
▁ஆண்	-8.6292
li	-8.62951
▁சம	-8.62962
▁கட்ட	-8.63003
ிலிருந்து	-8.63126
▁இருக்கு	-8.63191
ழு	-8.6323
▁நல்லது	-8.63471
நா	-8.63514
▁இல்லாத	-8.637
▁//	-8.63862
த்தால்	-8.63971
இது	-8.64059
▁O	-8.64077
▁சே	-8.64108
ஐ	-8.64121
யைப்	-8.64144
▁இருப்ப	-8.64225
▁செல்வ	-8.64259
▁கண்	-8.64366
▁*	-8.64464
▁நிலையில்	-8.64466
▁அவ	-8.64484
▁உறுதி	-8.64592
▁கூறி	-8.64595
▁அஞ்ச	-8.64642
▁கிடையாது	-8.64985
ப்பட்டுள்ளது	-8.65006
▁திட்ட	-8.65228
▁இயக்க	-8.65264
▁சட்ட	-8.65278
▁செய்வது	-8.65386
ங்களின்	-8.65474
▁திருமணம்	-8.65645
il	-8.6566
▁எங்களை	-8.65685
▁»	-8.6594
▁தேடி	-8.66006
▁அறிந்து	-8.66117
▁வயது	-8.66138
▁தெரியவில்லை	-8.66342
▁அவர்களுடைய	-8.67105
முறை	-8.67442
▁பூமி	-8.67472
ஜ	-8.67521
களா	-8.67546
ணை	-8.67694
▁அமெரிக்க	-8.67754
▁வரி	-8.67847
ுவதை	-8.67927
▁மனிதன்	-8.68017
se	-8.68542
கள	-8.68659
▁அவற்றை	-8.68759
▁முன்பு	-8.68835
▁கொ	-8.68878
ுவார்கள்	-8.6975
▁நாளில்	-8.69802
த்திலும்	-8.69835
▁கூ	-8.69869
▁தொடர்ந்து	-8.69881
▁இறந்த	-8.70103
ுவேன்	-8.70127
ுகின்றன	-8.70172
▁காப்பாற்ற	-8.70216
▁நன்மை	-8.70291
▁குழு	-8.70322
▁மர	-8.70328
▁நடக்க	-8.70507
லோ	-8.70725
▁கீழே	-8.70759
கூட	-8.70762
▁முடியவில்லை	-8.70833
▁நினைவு	-8.70955
வன	-8.70966
ந்தி	-8.71007
▁மிக்க	-8.71054
ுவார்	-8.71062
Y	-8.71168
நிலை	-8.71219
▁சொந்த	-8.71268
▁குறிப்பிட்ட	-8.71436
▁இருக்கலாம்	-8.71436
▁அரச	-8.71549
▁விளக்க	-8.71583
▁மலை	-8.71596
▁பொருள்	-8.71642
▁தங்க	-8.7168
▁இடம்	-8.71799
▁தொடர்பு	-8.72124
▁பேர்	-8.72142
ண்ண	-8.72188
▁முக	-8.72191
▁அதாவது	-8.722
▁வார	-8.72216
▁தற்போது	-8.72314
▁அரசியல்	-8.724
U	-8.72465
▁பை	-8.72498
▁கீழ்	-8.72621
▁0	-8.72631
ஸல்	-8.7264
ுகிறோம்	-8.72667
யாகும்	-8.72766
▁விஷயம்	-8.728
z	-8.73028
▁''	-8.73125
▁இல்ல	-8.73529
▁சாப்பிட	-8.73602
▁சரியாக	-8.73653
▁தொடங்க	-8.73708
▁இருந்தாலும்	-8.73724
ினான்	-8.73944
▁குடி	-8.74057
▁எத்தனை	-8.74205
யிலிருந்து	-8.74299
▁முடி	-8.74458
▁பொய்	-8.74496
▁முடியாத	-8.74501
▁விட்ட	-8.74518
▁இர	-8.74636
மாய்	-8.74834
த்துடன்	-8.74839
▁வேத	-8.75017
ாதே	-8.75109
இந்த	-8.7522
ினோம்	-8.75228
▁மத	-8.75245
▁சக்தி	-8.75258
▁அன்று	-8.75589
▁நாட்கள்	-8.75662
ித்து	-8.75748
▁எழுதி	-8.75834
▁+	-8.76171
▁மூ	-8.76238
ce	-8.76303
▁அவர்களிடம்	-8.76336
▁தன்னை	-8.76398
▁பெ	-8.76498
களிடம்	-8.7652
ங்கு	-8.76879
வற்றை	-8.7688
▁குறை	-8.76969
சன்	-8.77062
த்தா	-8.77146
▁ஊ	-8.77218
▁தானே	-8.77379
!"	-8.77445
▁காரணமாக	-8.77508
▁ஓர்	-8.77847
ஜ்	-8.77977
▁மறு	-8.7798
▁தம்	-8.78025
▁on	-8.78047
னோ	-8.78064
▁விதி	-8.78176
▁கண்டு	-8.78202
▁நிச்சயம்	-8.78246
▁பொ	-8.78645
▁நடந்து	-8.78803
▁அவளை	-8.78814
ந்	-8.78919
▁கவலை	-8.79108
▁இல்லாமல்	-8.79183
வெ	-8.79198
▁உண்மையை	-8.79382
▁குடும்ப	-8.79494
▁இதுவரை	-8.79555
▁விரைவில்	-8.79641
▁எனினும்	-8.79663
▁கொண்டிருந்த	-8.7989
▁விருப்ப	-8.79891
யூ	-8.79904
▁முழுவதும்	-8.79949
ுடைய	-8.80018
▁அப்படியே	-8.8007
▁அன்பு	-8.80083
வான	-8.80156
▁முன்ன	-8.80225
▁உடனே	-8.80405
▁உலகம்	-8.80451
ப்பை	-8.80516
யி	-8.80538
▁சிறிது	-8.80639
ிருந்தது	-8.80688
ent	-8.80845
ட்டை	-8.80934
▁w	-8.81006
te	-8.81108
▁கவிதை	-8.81131
▁அறிவு	-8.81299
▁பிடித்த	-8.81354
னுக்கு	-8.81407
▁கட்சி	-8.81608
மானது	-8.81758
▁அதிகம்	-8.81847
▁மன்னிப்பு	-8.82091
▁மகிழ்ச்சி	-8.82322
est	-8.82498
▁கூறிய	-8.82604
َ	-8.82661
ro	-8.827
▁மரண	-8.8299
தானே	-8.83
▁படித்த	-8.83036
▁பாருங்கள்	-8.83128
▁நண்பர்	-8.8315
▁பிரச்சனை	-8.83358
ங்கள	-8.83359
un	-8.83379
ற்ப	-8.83416
▁கடன்	-8.83486
▁de	-8.83534
▁16	-8.83629
▁வருடம்	-8.83751
▁In	-8.83891
▁அறிவ	-8.83907
▁பண்ண	-8.83972
▁ரா	-8.841
▁கடை	-8.84175
▁உணர	-8.84212
▁எதை	-8.8426
ுற	-8.84299
ினேன்	-8.84366
▁பழைய	-8.84523
com	-8.84682
▁பல்வேறு	-8.84734
வுடன்	-8.84759
கர்	-8.84956
ண்டி	-8.85071
▁இந்தியா	-8.851
ஏ	-8.85102
ist	-8.8519
▁இதுதான்	-8.85303
▁ஏதோ	-8.85307
களிலும்	-8.85354
ணும்	-8.85367
த்திலிருந்து	-8.85367
▁வணிக	-8.85412
யெல்லாம்	-8.85472
▁ஸ	-8.85578
த்திர	-8.85641
▁இருப்பது	-8.8579
▁அவ்வளவு	-8.8597
▁இடத்தில்	-8.85982
▁எண்	-8.86152
▁$	-8.86152
▁திருமண	-8.863
ுவதில்லை	-8.86612
▁கல்வி	-8.86644
▁நினைத்த	-8.86659
ாங்க	-8.86782
▁இறை	-8.86798
▁வருட	-8.86964
▁அழகான	-8.86969
▁சோ	-8.87058
▁13	-8.87107
▁உயர்	-8.87117
▁கொள்வ	-8.87139
பின்	-8.87188
▁நினைத்து	-8.87197
மாகும்	-8.87232
▁தோ	-8.87303
▁சேர்ந்த	-8.87358
▁இல்லையா	-8.87474
விட்ட	-8.87492
▁மனிதர்	-8.87595
ate	-8.87677
▁பொது	-8.87845
us	-8.87846
▁இவ்வளவு	-8.87897
▁காரண	-8.87897
▁வாரம்	-8.87994
▁30	-8.88112
ஹா	-8.88139
▁கரு	-8.88166
lo	-8.88246
ங்களையும்	-8.88256
▁தெரிந்த	-8.88274
10	-8.88287
▁இவ்வாறு	-8.88302
▁தெளிவாக	-8.88447
▁துணை	-8.8845
ிலேயே	-8.88619
▁14	-8.88631
▁எதிர்	-8.88792
▁பய	-8.8882
▁சிகிச்சை	-8.89271
க்கோ	-8.89364
ஒரு	-8.89417
▁எல்லோரும்	-8.89883
▁மாத	-8.89897
▁மாற	-8.90052
▁கண்ண	-8.90083
ையில்	-8.9015
ூர்	-8.9016
op	-8.90316
▁ஓட	-8.90434
▁17	-8.90584
ோட	-8.90591
▁இப்ப	-8.9068
▁பாவ	-8.90762
▁எடுத்த	-8.90776
ன்று	-8.90797
▁அமெரிக்கா	-8.90909
த்தது	-8.9095
▁உங்களுடைய	-8.91028
_	-8.91284
▁காட்சி	-8.91306
''	-8.91318
▁ஐந்து	-8.91354
▁இருவரும்	-8.915
▁சார்	-8.91511
000	-8.91624
▁இலவச	-8.91719
▁ஆனா	-8.91804
ாம	-8.91964
▁விட்டது	-8.92075
ுகிறான்	-8.92369
ir	-8.9237
▁மருத்துவ	-8.92483
▁இன	-8.92503
▁பார்	-8.9268
லு	-8.9278
▁இலங்கை	-8.92782
▁பண	-8.92955
▁பிரச்சினை	-8.92964
▁தெரிந்து	-8.92986
▁நடந்தது	-8.92998
▁not	-8.93088
களுக்கும்	-8.9311
ிருப்ப	-8.93369
ுக்காக	-8.93375
▁முக்கியமான	-8.9354
மன்	-8.93949
▁உடை	-8.94064
▁குரு	-8.94122
டைய	-8.94168
▁பேசி	-8.94262
▁பயிற்சி	-8.94317
விடும்	-8.9438
▁மக்களுக்கு	-8.94467
க்கொள்ள	-8.94724
யன்	-8.94843
▁ஆட்சி	-8.94902
▁இருக்கிற	-8.94946
ட்டா	-8.94956
▁நிறுத்த	-8.95025
▁சுற்றி	-8.95187
▁e	-8.95247
▁நகர	-8.95355
▁பழ	-8.95361
▁குற்ற	-8.95448
X	-8.9546
▁25	-8.95481
வர்களாக	-8.95517
▁எளிதாக	-8.95586
▁போர்	-8.95588
▁அமைப்பு	-8.95691
ிறோம்	-8.95757
▁காதல்	-8.95784
ாவது	-8.9583
யாளர்	-8.95894
▁எப்போது	-8.9591
de	-8.95971
டர்	-8.96042
▁கட்டுரை	-8.96076
▁ஜி	-8.96099
ிப்ப	-8.96194
▁ஆண்டுகள்	-8.9628
id	-8.96333
0	-8.96364
மீ	-8.96402
▁வணங்க	-8.96515
▁எரி	-8.96545
▁ஆனாலும்	-8.96587
அது	-8.96654
me	-8.96674
▁வழியில்	-8.96728
▁பெரு	-8.96733
ion	-8.96858
க்கே	-8.96861
▁இறுதி	-8.96871
▁பிள்ளை	-8.96884
ொரு	-8.96925
ழை	-8.97171
▁h	-8.97205
▁மாநில	-8.97261
▁மி	-8.97278
ment	-8.97344
▁ரூ	-8.97416
▁மக்களை	-8.97419
▁கூடிய	-8.97558
ry	-8.97564
▁சோதனை	-8.97567
▁அழைத்து	-8.97646
க்கூடாது	-8.9774
?’	-8.97761
is	-8.97843
▁சிறப்பு	-8.97914
▁தாய்	-8.98077
ிருக்கிற	-8.98109
▁தேசிய	-8.98151
ுவான்	-8.98254
▁அனைத்தும்	-8.98614
▁நடவடிக்கை	-8.98632
▁பக்கம்	-8.98661
க்கை	-8.98683
ன்னா	-8.98814
▁நான்கு	-8.98892
ive	-8.98943
▁மாதம்	-8.98973
ுகின்ற	-8.99091
க்கப்பட்ட	-8.99122
▁எதையும்	-8.99163
▁இதே	-8.99219
▁தேதி	-8.99245
▁நரக	-8.99355
வனாக	-8.99358
▁தலைவர்	-8.99584
▁தெரிய	-8.99705
படுத்த	-8.99799
▁குறிப்பிட	-8.99963
▁உடன்	-9.00013
▁start	-9.00148
▁நேற்று	-9.00258
ப்படி	-9.00313
▁விற்பனை	-9.00322
வனை	-9.00451
v	-9.0051
▁தந்த	-9.00627
▁கருத	-9.0066
▁கிடைத்த	-9.0074
▁அப்ப	-9.00768
▁சூ	-9.00906
▁வார்த்தை	-9.00999
▁தொடர்	-9.01002
▁ஆசை	-9.0113
▁ஏற்ற	-9.01134
ிறார்	-9.01146
▁வாய்ப்பு	-9.01215
▁உள்ளே	-9.01242
பட்ட	-9.01282
▁அவரிடம்	-9.01341
அல்லாஹ்	-9.01489
▁24	-9.01531
▁என்னிடம்	-9.01533
▁முதல	-9.01595
ரீ	-9.01596
▁போட்டி	-9.01826
▁தடை	-9.01897
ப்படவில்லை	-9.01899
னில்	-9.01929
▁நோ	-9.0197
ெல்லாம்	-9.01974
▁பயணம்	-9.02049
▁நீதி	-9.0205
ிறார்கள்	-9.02108
▁சேர்க்க	-9.02411
▁மனம்	-9.02412
நி	-9.0245
சே	-9.02585
▁இயற்கை	-9.02637
▁புரிந்து	-9.02639
▁கொஞ்சம்	-9.02721
வருக்கு	-9.02939
வீ	-9.03057
▁மாறி	-9.03104
la	-9.03144
▁கொடுத்து	-9.03156
▁அமைதி	-9.03196
னாக	-9.03204
50	-9.03394
▁கொள்ளுங்கள்	-9.03455
ரம்	-9.03461
▁திட்டம்	-9.03499
கார	-9.03542
▁ஒன்றை	-9.0356
ve	-9.03593
ul	-9.03597
▁நம்முடைய	-9.03626
▁அளித்த	-9.03643
ுகின்றனர்	-9.03724
pe	-9.04073
ti	-9.04088
▁அருள	-9.04112
முக	-9.0423
▁ஆய்வு	-9.04246
▁தள	-9.04256
11	-9.04268
▁செலவு	-9.04426
▁கூறினார்கள்	-9.0446
▁அனுமதி	-9.04481
▁ட	-9.04651
▁இதோ	-9.04653
▁என்ப	-9.04706
▁dur	-9.04716
▁கூட்ட	-9.04728
im	-9.04763
▁வாங்கி	-9.04792
▁எவ்வாறு	-9.04852
▁Ma	-9.04892
ஸா	-9.04911
age	-9.04944
லாமா	-9.04981
▁J	-9.0506
▁அறிக்கை	-9.05106
▁கனவு	-9.05139
▁கலை	-9.05203
▁உமக்கு	-9.05266
▁#	-9.05279
▁அடிப்படை	-9.05337
லும்	-9.05473
▁இணை	-9.05498
▁காலத்தில்	-9.05534
▁பிரி	-9.0555
ma	-9.05552
▁நினைக்க	-9.05589
ாள	-9.05616
ிருந்தார்	-9.05627
▁மன்னிப்ப	-9.05628
▁தமிழ	-9.05647
▁இருந்தார்	-9.0565
▁நன்கு	-9.05707
த்தார்	-9.05724
▁உங்களிடம்	-9.05784
▁புது	-9.05806
ப்படுகின்றன	-9.05861
▁தேவ	-9.0587
▁பின்பற்ற	-9.05994
ers	-9.06062
ிருக்கிறேன்	-9.06146
▁மரணம்	-9.06319
▁அடைந்த	-9.06326
▁தமிழக	-9.06407
▁வலி	-9.0642
▁it	-9.06425
லின்	-9.06483
▁விடு	-9.06518
▁தாக்க	-9.06569
▁அனைவருக்கும்	-9.06673
▁ரோ	-9.06706
ிறேன்	-9.06759
▁பயண	-9.06803
றிய	-9.06845
▁மாற்றம்	-9.07038
▁இத	-9.07125
தற்காக	-9.07153
ியல்	-9.0723
▁=	-9.07382
பே	-9.07405
▁உம்	-9.07457
"&	-9.0755
▁with	-9.0761
▁மூல	-9.0775
▁ஓட்ட	-9.07754
and	-9.08178
ுவதாக	-9.08339
▁பயப்பட	-9.08352
▁are	-9.08376
க்குள்	-9.08393
▁மனதில்	-9.08463
▁உலகில்	-9.08469
ில்லை	-9.08484
▁அலை	-9.08513
▁ஃப	-9.08571
▁கால்	-9.08657
▁மக்கள	-9.08788
▁வாழ்வ	-9.08811
ாளர்	-9.08869
▁செயல்	-9.08991
▁ஜா	-9.09047
▁தெளிவான	-9.09054
▁தொ	-9.0907
போல	-9.09101
▁மாற்றி	-9.09282
▁நிதி	-9.09329
ரியா	-9.09425
▁தலைமை	-9.09445
▁இரண்டாவது	-9.09499
▁நாம	-9.09538
த்துக்	-9.09644
விற்கு	-9.09716
▁வலை	-9.09723
ம்பு	-9.09791
வான்	-9.09877
▁உங்களின்	-9.09995
▁U	-9.10004
▁போதும்	-9.10061
▁or	-9.10128
▁ஓடி	-9.10326
ளவு	-9.10543
▁பதவி	-9.10548
ழ்	-9.10616
▁பெரும்பாலும்	-9.10629
▁தவற	-9.10656
▁அதுவும்	-9.10796
▁De	-9.10812
ுள்ளனர்	-9.1085
▁பூமியில்	-9.1105
▁ஞான	-9.11056
▁d	-9.11086
வராக	-9.1134
hi	-9.11536
▁இழந்த	-9.11585
▁தெரிகிறது	-9.11587
▁இன்றைய	-9.11589
ினார்கள்	-9.11675
ாரா	-9.11762
ne	-9.11774
▁சீனா	-9.11824
▁இருந்தன	-9.11862
த்திய	-9.11881
▁என்கிற	-9.11948
▁பார்ப்ப	-9.11976
▁தயாரிப்பு	-9.12004
அவர்	-9.12059
▁நண்பர்கள்	-9.12116
▁விசாரணை	-9.12202
ண்ட்	-9.12243
ென்று	-9.12251
30	-9.12367
▁வகையில்	-9.12386
ill	-9.12396
▁நானே	-9.12462
▁சங்க	-9.1251
▁அதி	-9.12549
▁அவரின்	-9.12604
▁ஜெ	-9.12668
▁எம்	-9.12694
▁நிறுவன	-9.13005
▁மாட்டார்கள்	-9.1307
▁கேட்ப	-9.13247
▁me	-9.13371
ாகும்	-9.13451
▁தேவையான	-9.1346
▁அவனுடைய	-9.13465
▁your	-9.13504
▁ஆண்ட	-9.13524
▁உறவு	-9.13609
▁ஆசிரியர்	-9.13628
ினை	-9.13697
என்ன	-9.13815
ிலே	-9.13951
▁பெட்டி	-9.13966
ia	-9.13972
▁கிடைக்க	-9.1403
▁அல்லாஹ்வை	-9.14075
ணம்	-9.14098
▁கடமை	-9.14191
▁மேலே	-9.14208
ீங்க	-9.14387
as	-9.14454
ிடமிருந்து	-9.14565
தன	-9.14661
▁ஒன்ற	-9.14713
▁பெற்று	-9.14723
▁அடைய	-9.14819
ப்பற்றி	-9.14948
▁வெளியிட	-9.14983
▁செய்	-9.15026
ஷி	-9.15054
▁st	-9.15072
▁உரை	-9.15111
▁by	-9.15187
▁விமான	-9.1536
▁துறை	-9.15681
▁புற	-9.15758
▁நிகழ்ச்சி	-9.15808
தான	-9.15833
▁St	-9.15896
டே	-9.16053
▁se	-9.16056
▁இருக்கின்றன	-9.16136
▁டெ	-9.16272
ut	-9.16365
▁செய்வ	-9.16378
▁முகப்பு	-9.16388
▁விஷயங்களை	-9.1645
ha	-9.16462
▁அவனது	-9.16506
▁டா	-9.16534
செ	-9.166
▁அச்ச	-9.16662
▁அளிக்க	-9.16709
ின்றன	-9.16785
▁சின்ன	-9.16808
▁m	-9.1691
▁தவறான	-9.16943
▁அழ	-9.16984
ந்தது	-9.17017
▁பெருமை	-9.17045
▁நீங்களும்	-9.17119
▁மன்னிக்க	-9.17146
ாளி	-9.17182
ow	-9.17199
▁ஏற்பட	-9.17243
த்தன	-9.17249
▁நிறுவனம்	-9.17273
தீ	-9.17301
&	-9.17308
ity	-9.17333
▁பதிவிறக்க	-9.17393
ிறான்	-9.17452
▁இரத்த	-9.17664
▁தேர்தல்	-9.17678
▁இணைய	-9.17746
ார்களா	-9.17831
▁con	-9.17879
um	-9.17913
▁எமது	-9.17915
▁உரு	-9.17915
▁அன்ப	-9.18011
▁அவர	-9.1807
▁அக	-9.18169
ap	-9.18339
▁வழக்கு	-9.18356
ஆம்	-9.18366
யாய்	-9.18372
▁எச்சரிக்கை	-9.18471
▁தரும்	-9.18498
co	-9.18525
▁பீ	-9.18557
▁வட	-9.18626
ஸி	-9.18627
எஸ்	-9.18777
▁பாடல்	-9.18789
▁அறை	-9.18806
ப்பது	-9.18835
▁எடுத்துக்	-9.18841
மற்ற	-9.18848
யோடு	-9.18935
ast	-9.18987
▁செய்தால்	-9.18997
▁பங்கு	-9.19029
▁விடும்	-9.19084
ிருக்கிறார்	-9.19121
▁நிறுவ	-9.1919
தர்	-9.19195
▁அழகு	-9.19222
▁சூரிய	-9.19304
▁ஊர்	-9.19336
▁நோய்	-9.19468
▁மக்களின்	-9.19661
ுங்க	-9.19689
▁முழுமையாக	-9.19763
ால	-9.19763
▁உணர்வு	-9.19792
▁மொத்த	-9.19811
▁மாலை	-9.19833
நபியே	-9.19892
01	-9.19967
▁சிவ	-9.20098
▁எழுப்ப	-9.20138
▁மருந்து	-9.20144
▁செய்யப்பட்ட	-9.20151
ற்க	-9.20243
▁எங்க	-9.20257
▁நெ	-9.2049
▁நினைக்கிறேன்	-9.205
▁விஷயங்கள்	-9.206
ver	-9.20646
▁2018	-9.20646
▁தனியாக	-9.20775
▁நேர்	-9.20775
▁பர	-9.20848
யார்	-9.20857
▁கெட்ட	-9.20868
▁இதுவே	-9.20923
▁சந்திக்க	-9.20974
ஃப்	-9.20976
▁ஒருவேளை	-9.21097
▁போலவே	-9.21132
12	-9.21219
▁குறைந்த	-9.21229
▁தின	-9.2131
யுள்ள	-9.21395
▁சொன்னார்	-9.21418
▁இறைவனின்	-9.21632
கர	-9.2175
▁ஈமான்	-9.21759
▁அவர்களது	-9.21868
▁சார்ந்த	-9.21876
▁Home	-9.21884
னிய	-9.21885
▁சொல்வ	-9.22062
▁வீடியோ	-9.22071
வழி	-9.22082
▁மண	-9.22096
ளா	-9.22129
▁வாடிக்கையாளர்	-9.2225
▁ஆதரவு	-9.22256
▁இருக்கின்றான்	-9.22268
வர்களின்	-9.22287
▁முன்னர்	-9.22291
▁படை	-9.22362
▁தொழில்	-9.22409
▁மதிப்பு	-9.22448
▁21	-9.2248
ிட்ட	-9.22546
சம்	-9.22558
▁வேற	-9.22836
▁பிழை	-9.22937
▁எல்லை	-9.22986
▁பெயரை	-9.22988
▁அனுப்பி	-9.22992
▁உற்பத்தி	-9.23032
▁தண்டனை	-9.23033
▁முறையில்	-9.23134
ack	-9.23172
▁தமது	-9.23371
ென	-9.23411
▁100	-9.23511
▁குண	-9.23635
கொண்ட	-9.23647
▁ஏற்கனவே	-9.23691
▁தெரிவிக்க	-9.23708
der	-9.2373
த்துவ	-9.23788
▁ஏற்படும்	-9.2386
களுக்கான	-9.24014
▁மன்னித்து	-9.24058
மூ	-9.24118
▁குறித்த	-9.24153
nd	-9.24234
▁தேர்	-9.24247
▁தினமும்	-9.24266
▁கல	-9.24271
▁வீட்டு	-9.24339
▁தேச	-9.24456
சரி	-9.2447
▁வெளிப்படுத்த	-9.24509
▁இப்போ	-9.24635
▁do	-9.24696
ine	-9.24697
▁இறந்து	-9.24732
▁செய்திகள்	-9.24776
▁என்னும்	-9.24809
▁இருக்கிறார்கள்	-9.24822
▁மனிதர்கள்	-9.24896
▁அளவில்	-9.249
▁அனைத்தையும்	-9.25056
▁எதிராக	-9.25196
▁மிகப்பெரிய	-9.25208
//	-9.25591
க்கொண்டு	-9.2561
தாகவும்	-9.25756
ுகிறீர்கள்	-9.2584
▁வாழ்க்கையில்	-9.25857
▁வழியாக	-9.25913
▁50	-9.25955
▁இடை	-9.25961
▁இன்னொரு	-9.25986
▁ஆர்	-9.26006
om	-9.26161
ஞ்சி	-9.26242
சன	-9.26255
▁பேசிய	-9.26262
▁சேர்ந்து	-9.26264
▁ரி	-9.26358
▁கோடி	-9.26401
லாக	-9.26525
▁வசதி	-9.26672
க்கிறது	-9.26762
▁கூலி	-9.26773
ுமே	-9.268
▁ஜனாதிபதி	-9.26814
▁தூங்க	-9.26929
போல்	-9.26973
▁ஒலி	-9.26981
▁பின்ன	-9.27003
▁எவர்	-9.27003
▁படைப்ப	-9.27068
▁உயிர	-9.27093
ுபவர்	-9.27157
▁நூல்	-9.27214
▁ஹா	-9.27355
▁மாட்டேன்	-9.27422
கால	-9.27437
லர்	-9.27439
▁சேர்த்து	-9.27457
▁படுத்த	-9.27544
▁செய்தது	-9.27584
▁பால	-9.27631
▁வங்கி	-9.27704
ஜா	-9.27781
பதி	-9.27862
ாலே	-9.28079
▁வைப்ப	-9.28234
ினர்	-9.28286
▁எதிர்பார்க்க	-9.28291
▁போட்டு	-9.28294
ot	-9.2834
▁உம்மை	-9.28427
ண்டா	-9.28445
▁என்பதால்	-9.28486
▁இறக்க	-9.28547
பர்	-9.28551
▁கோப	-9.28645
▁செயல்பட	-9.28745
யில்லை	-9.28849
▁சத்திய	-9.28878
▁2019	-9.28888
ியா	-9.28893
ிடத்தில்	-9.28938
▁பொதுவாக	-9.2903
▁ஆக்க	-9.29038
▁மிகப்	-9.29079
லுக்கு	-9.29119
▁யார	-9.29179
▁முடிந்த	-9.29311
▁கொடுப்ப	-9.29359
யிட	-9.29361
▁வேண்ட	-9.29375
சிய	-9.29469
▁உங்களது	-9.29483
▁மறை	-9.29537
▁முந்தைய	-9.29613
▁உயர	-9.2967
▁அடுத்து	-9.29701
▁என்றான்	-9.29722
யுடைய	-9.29837
ுமாறு	-9.29846
▁நாட்களில்	-9.29884
▁தகவல்கள்	-9.29942
▁முடிந்தது	-9.30079
▁கொலை	-9.30109
▁யாராவது	-9.3021
▁கன	-9.30248
ங்கா	-9.30294
▁கையில்	-9.30295
▁நல்லா	-9.30328
உங்கள்	-9.30399
டிக்க	-9.30516
▁இத்தகைய	-9.30531
டோ	-9.30619
▁கடவுள	-9.30857
ிரு	-9.30867
▁கிராம	-9.30906
ரில்	-9.3091
▁கூறும்	-9.30947
வரா	-9.30959
▁இதய	-9.30978
▁Co	-9.31031
▁2017	-9.31045
▁விரும்புகிறேன்	-9.31143
தையும்	-9.31191
▁தயாராக	-9.31332
15	-9.3134
▁ஏற்பட்ட	-9.31379
▁பிரிவு	-9.31397
மணி	-9.31553
▁கள	-9.31587
▁பிடித்து	-9.31596
▁வளர்ச்சி	-9.31678
▁பயன்படுத்தி	-9.31702
▁எழுத்து	-9.31718
▁சிலர்	-9.31723
தெல்லாம்	-9.31793
▁22	-9.32004
ty	-9.32025
▁மாற்று	-9.32037
▁ஆண்டுகளுக்கு	-9.3204
ீடு	-9.32113
▁விளங்க	-9.32117
▁அங்க	-9.32122
▁படித்து	-9.32228
ll	-9.32235
▁சினிமா	-9.3235
ge	-9.32355
ஸ்ட்	-9.32379
▁தகுதி	-9.32385
▁இருக்கிறார்	-9.32434
ுக்கும்	-9.32546
▁சென்னை	-9.32576
▁ஒன்றாக	-9.32615
ின்றனர்	-9.32718
▁தூ	-9.32747
▁உதவும்	-9.32852
▁எல்லாமே	-9.32915
▁விஷய	-9.32936
▁என்றாலும்	-9.32948
▁இறைவனை	-9.3295
▁தொலைபேசி	-9.33042
▁மீ	-9.33127
▁பிடிக்க	-9.33169
▁படங்கள்	-9.33262
▁உருவ	-9.33371
பார்	-9.33407
▁சிந்தனை	-9.33443
▁மத்திய	-9.33451
▁கோப்பு	-9.33491
ance	-9.33491
▁சொ	-9.3362
▁உமது	-9.33748
ard	-9.33825
▁தொகை	-9.3385
▁திரை	-9.33856
தனை	-9.33889
கொள்ள	-9.33911
▁நல	-9.33916
▁இருக்கிறேன்	-9.33919
விய	-9.3396
ந்திர	-9.34258
▁தேவையில்லை	-9.3432
▁அப்பொழுது	-9.34325
able	-9.34419
ல்லா	-9.3445
▁சக	-9.34564
▁விளம்பர	-9.34584
ai	-9.34687
▁பத	-9.34769
▁வீ	-9.34799
▁மேல	-9.3482
▁வெகு	-9.34886
▁கட்டளை	-9.34905
▁26	-9.34931
▁அமை	-9.35008
ஷா	-9.35048
▁அவ்வ	-9.35111
▁ஒருவன்	-9.35155
ட்டில்	-9.3517
▁ஏற்படுத்த	-9.35189
தற்கான	-9.35223
▁நின்ற	-9.35289
▁அழைப்ப	-9.35303
▁என்றே	-9.35336
▁மை	-9.3534
▁வெறும்	-9.3535
▁வாழ்ந்த	-9.35417
தாகும்	-9.35437
▁திருத்த	-9.35469
tion	-9.35495
▁உங்கள	-9.3551
na	-9.35539
ரலி	-9.35601
ன்ற	-9.35699
ாகவும்	-9.3571
▁பொருட்கள்	-9.3574
▁நாட	-9.35744
சர்	-9.3577
▁தடுக்க	-9.35817
▁நடக்கும்	-9.35836
▁தனிப்பட்ட	-9.35861
▁மூட	-9.35917
க்கொண்ட	-9.35966
▁அனுபவ	-9.35978
▁முற்றிலும்	-9.36003
▁கொள்கை	-9.36047
▁பின்பு	-9.36057
முன்	-9.3607
AN	-9.36128
▁மாவட்ட	-9.36154
▁சொன்னது	-9.36299
per	-9.36334
▁விடுதலை	-9.364
வையும்	-9.36458
▁மாணவர்கள்	-9.36458
▁Pro	-9.36501
▁ஒன்றும்	-9.36507
▁பணத்தை	-9.36524
வில	-9.3657
▁ஷ	-9.36597
▁பேச்சு	-9.36604
▁ராம	-9.36616
▁உயர்ந்த	-9.36755
ci	-9.3677
யானது	-9.36877
▁ஆகிய	-9.36893
▁அவனே	-9.36897
▁பரிசு	-9.37032
▁X	-9.37099
பை	-9.37153
▁ஓவிய	-9.3718
▁எடை	-9.37196
▁காப்ப	-9.37245
▁To	-9.37289
[	-9.37378
▁மீதும்	-9.37394
▁வேண்டுமா	-9.37414
நீர்	-9.37604
▁நின்று	-9.37665
▁மூஸா	-9.3785
▁சந்தித்த	-9.37928
▁mo	-9.3793
▁என்கிறார்	-9.37947
▁பார	-9.37961
▁that	-9.37988
ானா	-9.37993
▁அத	-9.38228
▁இவ்வ	-9.38252
▁யூ	-9.3838
▁வீர	-9.38526
வில்லையா	-9.38543
களோ	-9.38683
ub	-9.38707
யற்ற	-9.38757
▁அதுவே	-9.38767
▁வருகை	-9.38787
▁தொடர	-9.38828
▁விழா	-9.38859
▁காதலி	-9.38859
▁பெரும்பாலான	-9.38872
▁நினைப்ப	-9.38966
பர	-9.39076
▁நபர்	-9.39092
யின	-9.39099
▁செய்யலாம்	-9.39136
▁அருள்	-9.39143
▁மகள்	-9.39188
▁இறுதியில்	-9.3923
ுள்ளன	-9.39302
ச்சா	-9.39304
▁குறிப்பாக	-9.39355
▁தெய்வ	-9.39355
▁நடைமுறை	-9.39399
ab	-9.39445
▁புல	-9.39539
▁பால்	-9.39589
முடி	-9.39598
▁கண்டுபிடிக்க	-9.39707
▁இத்தனை	-9.39722
▁ரெ	-9.39752
▁அறிவியல்	-9.3976
▁அவ்வாறு	-9.39886
▁உள்	-9.39972
▁வலைத்தள	-9.40001
தல்	-9.40039
ுவதற்காக	-9.40133
▁எண்ணிக்கை	-9.40248
▁வடிவ	-9.40276
▁சகோதர	-9.40282
all	-9.40303
▁an	-9.40375
ஃ	-9.40405
▁நாளும்	-9.40453
▁திறமை	-9.40497
▁எனக்குத்	-9.40629
▁நாள	-9.40693
▁வாக்கு	-9.40694
▁நடப்ப	-9.40829
▁தோன்ற	-9.40919
▁தண்ணீர்	-9.40994
▁நிறைவேற்ற	-9.41011
ْ	-9.41063
ிருக்கிறார்கள்	-9.41102
▁ஆண்கள்	-9.41107
▁எழு	-9.41115
▁கருவி	-9.41152
▁நீக்க	-9.4117
ுதல	-9.41216
▁லா	-9.41272
▁கோர	-9.41403
▁ஏமாற்ற	-9.41416
▁An	-9.4143
▁கர்த்தர்	-9.41569
ay	-9.41703
கிற	-9.41761
வரின்	-9.41835
mo	-9.41977
ee	-9.42008
▁சித்த	-9.42083
▁வந்தால்	-9.42084
▁அறிவித்த	-9.42144
▁வாழும்	-9.42147
▁உரிய	-9.42166
ும்படி	-9.42188
▁பிரா	-9.42209
▁நிற	-9.42237
▁இந்தியாவில்	-9.42252
வனுக்கு	-9.42259
விட்டார்	-9.42295
99	-9.42301
ight	-9.42316
ER	-9.42347
யிலே	-9.42394
யாகவும்	-9.42589
▁வரலாறு	-9.42628
ங்களிலும்	-9.42666
ாவ	-9.42783
▁உலகின்	-9.42789
▁மறந்து	-9.42807
▁அடிப்படையில்	-9.42873
mm	-9.429
The	-9.42903
▁தாங்கள்	-9.42957
▁கட்டி	-9.43006
16	-9.43053
ுக்கள்	-9.43157
▁தூதர	-9.43249
▁மற்றொரு	-9.43263
▁வலது	-9.43266
ل	-9.43368
வந்த	-9.43399
▁ஆரம்பித்த	-9.43433
▁அடையாள	-9.4347
end	-9.4356
▁இரவில்	-9.43611
▁ஆச்சரிய	-9.43617
த்தல்	-9.43621
ங்களாக	-9.43664
▁இணைப்பு	-9.43706
▁வாழ்வில்	-9.43716
ரண	-9.4372
40	-9.43722
▁இறைவன	-9.4378
▁செல்	-9.43806
▁மைய	-9.43833
▁அளவுக்கு	-9.43836
▁பாராட்ட	-9.43912
▁வரவில்லை	-9.43923
டிய	-9.43929
மொழி	-9.43962
▁எனும்	-9.43973
▁வாகன	-9.44002
▁பாதி	-9.44156
▁பெயர	-9.44207
▁கஷ்ட	-9.44248
▁புத்தக	-9.44254
▁பிரச்னை	-9.44299
▁அவன	-9.44347
▁தொழில்நுட்ப	-9.4438
▁சிறப்பாக	-9.44396
▁kgm	-9.44421
மீது	-9.44423
▁கொண்டே	-9.44449
▁உடனடியாக	-9.44449
முள்ள	-9.44456
▁விரி	-9.44496
ெடுக்க	-9.44578
▁அழைத்த	-9.44637
▁தூதர்	-9.44664
களுக்காக	-9.44678
▁போராட	-9.44696
▁தனக்கு	-9.44709
▁கற்பனை	-9.44828
▁நாட்டு	-9.44873
க்கிய	-9.44894
▁ஒருபோதும்	-9.44966
▁படிப்ப	-9.4502
▁விளக்கம்	-9.45552
ட்டர்	-9.45656
▁செய்கிறது	-9.45673
▁யு	-9.45674
▁நடித்த	-9.45783
▁கணினி	-9.45791
▁பாதுகாப்ப	-9.458
▁சொல்	-9.45831
▁வித	-9.4585
▁வெளியேற	-9.45907
ாக்க	-9.45959
▁மிகுந்த	-9.45979
▁நினைவில்	-9.45991
சூ	-9.46078
▁we	-9.4608
AR	-9.46104
▁நடு	-9.4613
ant	-9.46162
▁எழுந்த	-9.46193
▁அழகாக	-9.46219
du	-9.46228
▁செல்லும்	-9.46307
▁அன்றியும்	-9.46312
▁புரிய	-9.46315
ence	-9.46412
▁அழிக்க	-9.4642
▁ஸ்ட	-9.46422
▁23	-9.46582
▁விருது	-9.46594
▁வாழ்க்கையை	-9.46623
▁Ch	-9.46634
▁மறக்க	-9.46644
ஒ	-9.46739
▁தொலை	-9.4676
▁அமைக்க	-9.46768
யாவது	-9.46773
வள்	-9.46788
ோமா	-9.46845
▁அனுபவம்	-9.46861
விட்டால்	-9.46897
ற்றி	-9.46898
▁பார்த்தேன்	-9.46961
di	-9.46961
▁this	-9.4699
▁எதிரி	-9.46995
▁வந்தார்	-9.47005
ta	-9.47149
▁கீ	-9.47172
பெ	-9.47271
▁படைப்பு	-9.47274
▁சற்று	-9.47286
▁அணுக	-9.47311
▁நோக்க	-9.47313
▁அட	-9.47334
▁ஆறு	-9.47369
ாட்சி	-9.47384
வேண்டிய	-9.47386
▁ஆலோசனை	-9.4742
▁ரொம்ப	-9.47435
▁வேக	-9.47474
▁வேகமாக	-9.47505
▁படத்தை	-9.47537
ீராக	-9.47607
கட்ட	-9.47636
றா	-9.47644
விட்டேன்	-9.47688
▁பரவ	-9.47725
▁உடைய	-9.47728
ப்படுத்தி	-9.47817
▁செய்யுங்கள்	-9.47868
▁சொல்வது	-9.47888
▁உணவ	-9.4793
▁விடை	-9.47938
▁நம்பி	-9.47976
▁முகவரி	-9.47999
▁தினம்	-9.48191
▁தவிர்க்க	-9.48296
18	-9.48338
லான	-9.48401
to	-9.48427
▁என்னால்	-9.48482
மார்	-9.48513
▁அதிகார	-9.48513
▁டே	-9.48526
ப்பிடி	-9.48533
▁அவளுக்கு	-9.48571
▁பாதுகாக்க	-9.48578
பல	-9.48583
▁செய்தார்	-9.48659
▁வழிகாட்ட	-9.48687
▁கலந்து	-9.48697
▁சுமார்	-9.48699
▁அவர்களில்	-9.4873
▁ஆரம்ப	-9.48827
▁அதிகாரி	-9.4883
ின்ற	-9.48833
▁படைக்க	-9.48862
▁மோ	-9.48919
ாவின்	-9.49035
▁காண்ப	-9.49036
▁லி	-9.49061
ِ	-9.49204
▁நிலைமை	-9.49236
▁நம	-9.49261
▁அழைப்பு	-9.49286
▁சாட்சி	-9.4932
▁திறந்த	-9.49336
04	-9.49353
ஞ்சு	-9.49356
▁வீட்டுக்கு	-9.49417
▁தீய	-9.49419
?'	-9.49451
நிச்சயமாக	-9.49475
م	-9.49604
ியுங்கள்	-9.49624
ானோ	-9.49683
வார	-9.49687
ஷ்ட	-9.49706
▁படத்தின்	-9.49713
▁அல்	-9.4977
▁வேலையை	-9.49774
▁உன்ன	-9.49795
மர்	-9.4981
▁சந்தேக	-9.49871
க்குரிய	-9.49889
▁மக	-9.4993
அந்த	-9.49967
▁அறிவிக்க	-9.49968
▁கிடைத்தது	-9.49992
▁அட்டை	-9.50183
▁கவனிக்க	-9.50193
என்று	-9.50243
ஹி	-9.50253
▁காலையில்	-9.503
▁சாத்திய	-9.50399
▁தாம்	-9.50421
▁அப்போ	-9.50446
▁கணக்கு	-9.50447
▁துணி	-9.50463
▁நிலைய	-9.50495
▁28	-9.50501
▁உறுதியாக	-9.50524
J	-9.50648
▁su	-9.50651
▁You	-9.50696
▁ஆதார	-9.50725
▁முடிவ	-9.50761
ction	-9.50817
ிவிட்டது	-9.50848
ன்றி	-9.50947
▁நேரங்களில்	-9.50968
man	-9.51031
ௌ	-9.5104
▁தீர்வு	-9.51184
▁Be	-9.51222
ru	-9.51267
முடியும்	-9.51436
▁will	-9.51463
▁இடையே	-9.51554
டாக	-9.5164
▁குற்றம்	-9.51676
act	-9.51681
▁கேள்விகள்	-9.51705
யிலேயே	-9.51706
▁அனு	-9.51711
▁ஏற்க	-9.51737
24	-9.51823
▁உண்மையிலேயே	-9.51902
▁my	-9.51923
▁பச்சை	-9.5199
▁கடந்து	-9.52021
▁பெண்ண	-9.52077
▁40	-9.52084
▁ஊடக	-9.5214
மின்	-9.52143
▁அர	-9.52144
▁வாய்	-9.52196
▁தன்னுடைய	-9.52301
▁வேண்டியது	-9.52343
▁நியாய	-9.52355
▁சேர	-9.52356
▁Se	-9.52366
▁என்பதே	-9.52379
▁ஆங்கில	-9.52411
ட்சி	-9.52429
ஆனால்	-9.52434
▁so	-9.52468
▁விரும்பவில்லை	-9.52617
வரே	-9.52676
bo	-9.52717
▁கர	-9.52744
யிடம்	-9.52796
▁ஹி	-9.52806
▁வேதனையை	-9.52807
▁வள	-9.52839
▁படத்தில்	-9.52847
▁நினைவ	-9.52863
வரு	-9.52883
னிடம்	-9.52908
▁ஆள்	-9.53093
▁கடைசி	-9.53125
▁ஆன்லைன்	-9.53177
வாய்	-9.53262
இறை	-9.53272
▁போட்ட	-9.53357
▁தொழிற்சாலை	-9.5339
▁அருகில்	-9.53394
▁நாட்	-9.53406
▁குறி	-9.53413
▁சாலை	-9.53415
ஈ	-9.53494
▁மாணவர்	-9.53495
▁அளவ	-9.53575
ஃப	-9.53581
பொ	-9.5376
em	-9.53842
ிவிட	-9.53847
▁மணிக்கு	-9.53861
ஓ	-9.53873
ாகிய	-9.5389
▁மாட்ட	-9.53922
*	-9.53927
எனக்கு	-9.53929
▁திருப்ப	-9.53933
▁சுய	-9.54003
▁அதற்காக	-9.54042
+	-9.54089
▁27	-9.54193
▁கடினமான	-9.542
▁at	-9.54233
▁மூடி	-9.54341
▁சர	-9.54352
▁டீ	-9.54378
▁can	-9.54421
▁பகுதியில்	-9.54464
▁கருணை	-9.54503
▁தலைப்பு	-9.54519
▁எங்கு	-9.5458
▁அழகிய	-9.54584
▁நேரடியாக	-9.54587
ட்ஸ்	-9.54609
▁Th	-9.54674
ங்களே	-9.54691
▁எதிர்கால	-9.54718
60	-9.54781
▁தன்மை	-9.54803
▁l	-9.54926
▁கொண்டாட	-9.54938
▁தூண்ட	-9.54952
▁வேளை	-9.5498
▁ஆடை	-9.55062
▁pro	-9.55066
▁செயல	-9.55184
▁from	-9.55195
▁வல	-9.55216
பீ	-9.55251
கின்றன	-9.55309
▁ex	-9.55347
▁நிறைந்த	-9.5544
த்தோடு	-9.55459
▁நடிகர்	-9.55536
ானது	-9.55586
ந்தை	-9.55655
▁ஆசி	-9.55727
▁இடங்களில்	-9.55737
▁ஒருவரை	-9.55749
▁அல்லாஹ்வுக்கு	-9.5578
▁ஏனென்றால்	-9.55812
▁கடல்	-9.55839
▁கடவுளை	-9.55855
▁no	-9.55873
ct	-9.559
▁அழுத்த	-9.55919
கொள்	-9.55941
▁வர்த்தக	-9.55997
“	-9.56049
சீ	-9.56059
▁கூறுவீராக	-9.56103
▁சாதி	-9.56115
▁இரண்ட	-9.56145
▁as	-9.56182
களோடு	-9.56288
▁யாரு	-9.56296
▁திறக்க	-9.56326
மாகவும்	-9.56337
▁ஆவண	-9.56353
▁விலகி	-9.56362
▁கூறு	-9.56382
▁சாதனை	-9.5639
▁மகா	-9.56393
ிங்	-9.56436
25	-9.56447
▁துன்ப	-9.56608
தர	-9.56621
▁இலக்கிய	-9.56804
▁அரசாங்க	-9.56811
05	-9.56874
ுவதில்	-9.56907
ிர	-9.56942
ni	-9.56952
▁செவி	-9.57006
▁துவங்க	-9.57029
ளிக்க	-9.57149
▁No	-9.57203
அவர்கள்	-9.5721
▁சபை	-9.57236
▁பரி	-9.57239
மேல்	-9.57252
திர்	-9.57294
▁இருக்காது	-9.57311
13	-9.57312
ப்பட்டன	-9.57359
▁நாட்டில்	-9.57394
ிப்பு	-9.57488
▁சுதந்திர	-9.57546
ினாலும்	-9.57553
one	-9.57659
▁முகம்	-9.57663
▁சந்திர	-9.57758
02	-9.57759
ரிடம்	-9.57773
▁எளிய	-9.57784
▁மில்லியன்	-9.57795
▁கண்கள்	-9.57795
▁வயதில்	-9.57833
▁தப்பி	-9.57883
▁மாறு	-9.5792
▁உருவாக	-9.5795
▁உங்களைப்	-9.57956
▁குள	-9.57964
ாயா	-9.58015
▁கைது	-9.58042
▁அறியாத	-9.58077
▁உண்டா	-9.58126
▁இருப்பார்கள்	-9.58163
▁அடிமை	-9.58213
0,000	-9.58226
▁விரும்பும்	-9.5823
ல்லி	-9.58246
▁மன்ன	-9.58336
▁இருப்பதை	-9.58408
▁டாக்டர்	-9.58423
▁பத்து	-9.58457
▁யாரை	-9.58552
நாள்	-9.58686
க்கிற	-9.58687
▁கடுமையான	-9.58697
ஞ	-9.58743
▁நிற்க	-9.5882
14	-9.58825
▁மின்	-9.58832
▁முஸ்லிம்	-9.58853
ST	-9.58864
▁he	-9.58882
▁ஆட்ட	-9.5898
த்திற்காக	-9.58995
▁காத்திருக்க	-9.59146
▁ஜோ	-9.59195
▁விரும்பினால்	-9.59196
▁மேற்	-9.59213
ப்புற	-9.5922
ட்ச	-9.59236
▁செய்யவில்லை	-9.59252
க்கார	-9.59257
▁பொறுப்ப	-9.59288
80	-9.59291
ியுள்ளது	-9.59293
வர்களும்	-9.59341
qu	-9.5936
▁தங்களை	-9.59366
ெழு	-9.59369
த்துல	-9.59463
▁தெ	-9.59509
▁குறிப்பு	-9.59573
▁co	-9.59604
▁மது	-9.5961
▁அனுமதிக்க	-9.59645
ian	-9.5967
▁கெ	-9.59677
▁Y	-9.59692
▁விற்க	-9.5973
▁உனது	-9.59778
முடியாது	-9.59833
எம்	-9.5988
▁He	-9.59882
▁தோற்ற	-9.59927
▁பாவங்களை	-9.60013
▁இவற்றை	-9.6002
கொ	-9.60031
19	-9.60048
▁Mo	-9.60057
▁அரை	-9.601
லீ	-9.60105
▁டை	-9.60313
▁குழப்ப	-9.60335
▁தன	-9.60392
▁காட்டி	-9.60414
▁அவசியம்	-9.60467
▁பயன	-9.6055
▁29	-9.60575
▁தூக்க	-9.60583
▁மாறாக	-9.60607
▁இஸ்லாமிய	-9.60673
▁போதுமான	-9.60704
▁சகோதரி	-9.60751
▁பகிர்ந்து	-9.60794
▁அற்புதமான	-9.60796
▁தெரிவித்த	-9.60849
–	-9.6091
▁Me	-9.60987
▁வருத்த	-9.61042
▁விட்டால்	-9.61065
▁குளிர்	-9.6109
▁இவர்களுக்கு	-9.61178
▁இருப்பதாக	-9.61293
▁இன்ன	-9.61362
ப்பில்	-9.61364
▁have	-9.6142
▁all	-9.61484
▁தீவிர	-9.61497
▁அதிகமான	-9.61497
▁வல்ல	-9.61538
ப்படாத	-9.61568
▁இறங்க	-9.61585
▁திசை	-9.61613
வனே	-9.61621
ாவிட்டால்	-9.61636
▁ஹோஸ்டிங்	-9.61639
ca	-9.61681
▁பெற்றோர்	-9.61703
▁சமுதாய	-9.61712
▁தேர்ந்தெடுத்த	-9.61742
▁Con	-9.61748
ரன்	-9.61757
▁விழ	-9.61777
▁தீமை	-9.61813
ங்களைப்	-9.6182
ுகின்றது	-9.61897
;&	-9.61968
▁தொகுதி	-9.62114
▁அவர்களும்	-9.62243
ந்தா	-9.6229
06	-9.62345
▁மேம்படுத்த	-9.62458
▁எழுந்து	-9.62466
min	-9.62558
▁இழந்து	-9.62584
களிலிருந்து	-9.62666
ுமோ	-9.6267
▁வகையான	-9.62703
▁ஜீ	-9.62726
▁மோசமான	-9.6275
▁அடை	-9.62804
▁பலர்	-9.62832
▁எல்	-9.62862
▁வருகின்றனர்	-9.62868
▁சந்தோஷ	-9.62908
▁வய	-9.6292
▁இள	-9.62981
▁தெரியாத	-9.63028
vi	-9.63155
ிட்டு	-9.63159
▁ஸ்ரீ	-9.63165
க்கால	-9.63167
▁ஆண்டுகளாக	-9.63224
▁குழந்தைகளை	-9.63224
▁அடையாளம்	-9.63253
▁முனை	-9.63295
ார	-9.63311
▁இந்	-9.63379
▁நிகழ்வு	-9.63399
▁மண்ண	-9.63434
▁ராஜ	-9.63535
▁அவசர	-9.63549
ac	-9.6367
▁சாதாரண	-9.63704
▁சூரியன்	-9.63724
▁கவன	-9.63734
ary	-9.63857
ுபவர்கள்	-9.63866
▁குற்றவாளி	-9.63887
▁i	-9.63949
ho	-9.63985
ite	-9.63996
▁யாரோ	-9.64025
▁ஆவி	-9.64045
திலும்	-9.64058
ூர	-9.64182
ிலுள்ள	-9.6419
▁போவ	-9.64227
▁இழக்க	-9.64298
▁வாசிக்க	-9.64301
▁அருமையான	-9.64437
▁மதிப்ப	-9.6453
ப்பின்	-9.64576
▁அன்னை	-9.64581
▁அல்லவா	-9.64705
▁நெஞ்ச	-9.6472
ுள்	-9.64757
▁ஏதேனும்	-9.64797
ாகவே	-9.64837
▁மின்னஞ்சல்	-9.6484
▁ஆள	-9.64846
▁சமாதான	-9.64886
ிருக்கலாம்	-9.6489
▁மூலமாக	-9.64913
▁காட்டு	-9.64983
▁நஷ்ட	-9.65006
▁கடவுளின்	-9.65102
ace	-9.65138
▁சுக	-9.65184
ுக்கான	-9.65195
வள	-9.65205
▁வண்ண	-9.6521
▁குரல்	-9.65219
பூ	-9.65233
▁புத்தகம்	-9.65318
▁Sh	-9.6533
26	-9.6536
ie	-9.65433
▁ஆதி	-9.6549
17	-9.65546
▁திருப்பி	-9.65567
▁tr	-9.65612
மண	-9.65665
▁ஆராய்ச்சி	-9.65691
ப்பதற்கு	-9.65712
▁ஏற்ப	-9.65776
▁எவர்கள்	-9.65783
▁அத்தனை	-9.6581
▁ஆயுத	-9.65842
▁Next	-9.6592
▁கொஞ்ச	-9.6597
ப்பிர	-9.65976
மிக்க	-9.66051
▁வெள்ளை	-9.66068
▁திறந்து	-9.66089
▁நாடிய	-9.6613
▁சத்தியம்	-9.66139
வதை	-9.66243
ep	-9.66274
யாளர்கள்	-9.66284
தார	-9.6629
மன	-9.66328
புற	-9.66355
▁முடிய	-9.66362
▁இருந்தேன்	-9.66436
உன்	-9.66458
முடைய	-9.66461
▁For	-9.66501
மெ	-9.66591
ரச	-9.66616
மதி	-9.66619
▁ஆர்வ	-9.66645
▁நாட்ட	-9.66661
ிருக்கிறோம்	-9.6674
use	-9.66836
▁அவள	-9.66864
08	-9.66879
▁வடிவமைப்பு	-9.66886
▁உப	-9.66898
▁கிள	-9.66904
our	-9.66948
▁பொருத்த	-9.66984
த்துறை	-9.67003
▁ஜன	-9.67037
க்கூட	-9.67082
▁சத்த	-9.67117
▁கல்லூரி	-9.67144
▁வழிமுறை	-9.6716
பிர	-9.67189
மேலும்	-9.67238
ாரோ	-9.67277
▁போராட்ட	-9.67388
க்கிர	-9.67421
▁பார்த்தால்	-9.6757
▁நாட்களுக்கு	-9.67629
ical	-9.67676
கூ	-9.67728
▁செய்யவும்	-9.67735
▁ma	-9.67759
▁எவரும்	-9.67787
நாங்கள்	-9.67789
▁k	-9.67859
▁நடை	-9.67876
ிடையே	-9.67879
▁இறுதியாக	-9.67921
வினை	-9.67969
port	-9.67973
▁வாச	-9.67973
ரையும்	-9.67985
மாகவே	-9.67986
▁விழுந்த	-9.6799
▁திருப்தி	-9.67998
▁பூர்த்தி	-9.68008
▁நேர்வழி	-9.68081
வனாகவும்	-9.68119
▁பயன்	-9.68122
▁2013	-9.68125
வார்	-9.68129
ென்ற	-9.68212
ear	-9.68254
▁திறன்	-9.68287
ாவில்	-9.684
▁இதயம்	-9.68411
03	-9.68503
28	-9.68537
ண்டை	-9.68588
▁ராஜா	-9.68624
▁என்னைப்	-9.68636
▁அறி	-9.68662
▁நேரத்தை	-9.68762
▁விதை	-9.68772
▁மட்டுமல்ல	-9.68813
▁பாக	-9.6885
சார	-9.689
▁ஏற்பாடு	-9.68996
சாமி	-9.69053
ீர	-9.69071
▁அத்தகைய	-9.69078
fi	-9.69089
▁உட்	-9.692
▁வருடங்கள்	-9.69238
▁தயவு	-9.69254
▁முன்னால்	-9.69309
வனும்	-9.69334
▁மகன	-9.69338
▁சுவை	-9.69388
▁முன்பே	-9.69407
றது	-9.69413
▁சொல்ற	-9.69455
09	-9.6947
▁இருந்தனர்	-9.69603
▁இங்க	-9.6972
▁உணர்ந்த	-9.69753
ோருக்கு	-9.69757
▁தமிழர்	-9.69838
he	-9.69839
son	-9.69861
▁அடிக்கடி	-9.69875
▁பொருள	-9.69936
பெரு	-9.69951
ிவிடும்	-9.70014
day	-9.70041
▁தரவு	-9.70093
விடம்	-9.70127
▁கண்களை	-9.70254
▁பாவம்	-9.70319
ies	-9.70374
▁2015	-9.70385
ரெ	-9.70395
▁தகவல்களை	-9.70422
ர்த்த	-9.70428
▁எஸ்	-9.70448
▁போகும்	-9.70492
ood	-9.70502
யிருப்ப	-9.70572
ப்போகிற	-9.70588
யிலான	-9.70597
▁சத்தியமாக	-9.70602
த்தே	-9.70626
▁ஆன	-9.70646
புரி	-9.70711
▁தவ	-9.70734
பார	-9.7077
ff	-9.70885
▁பயம்	-9.70891
ுடனும்	-9.70893
▁ஞானம்	-9.70968
▁Po	-9.71069
தற்க	-9.71142
▁கவனம்	-9.71189
ினாள்	-9.71232
மிட	-9.71249
▁கட	-9.71348
ell	-9.71355
▁மூளை	-9.71368
▁போகிறது	-9.71377
▁கூறுகிறார்	-9.71407
▁எல்லாவற்றையும்	-9.71409
யிருக்க	-9.71476
ster	-9.71493
யாக்க	-9.71499
▁வாழ்வு	-9.71525
▁பதிவுகள்	-9.71567
ا	-9.71585
▁•	-9.71668
▁வலிமை	-9.717
▁புலி	-9.7173
▁சூழ்நிலை	-9.71753
டல்	-9.71754
தானா	-9.7178
▁அவங்க	-9.71801
▁இருப்பினும்	-9.71804
sion	-9.71839
▁பொருட்	-9.71976
▁மரியாதை	-9.71995
27	-9.72006
▁வாழ்	-9.72056
களுடைய	-9.72099
ச்சை	-9.72106
த்திலேயே	-9.72122
▁பாதுகாப்பான	-9.72134
▁Li	-9.72193
up	-9.72216
ong	-9.72216
▁விளை	-9.72255
▁தேர்ந்தெடுக்க	-9.72262
பெயர்	-9.72298
▁உங்களுக்குத்	-9.72388
▁தேவன்	-9.72545
▁கொள்கிற	-9.72573
sk	-9.7266
▁ஈடுபட்ட	-9.72665
ice	-9.72703
▁அடைவ	-9.72706
47	-9.72719
க்கொள்	-9.72778
▁கேட்டார்	-9.72812
▁வயத	-9.72856
▁உற்பத்தியாளர்	-9.72908
▁காரிய	-9.72941
▁கூடுதல்	-9.72953
இல்லை	-9.72999
▁நடிக்க	-9.73024
49	-9.7313
▁ஜூன்	-9.73147
ang	-9.73155
▁தாங்க	-9.73158
ிருப்பது	-9.73249
வாறு	-9.73273
▁ஜெய	-9.73361
▁இருக்கிறான்	-9.73366
மல்ல	-9.73392
▁அல்லாஹ்விடம்	-9.73407
IN	-9.73412
நாம்	-9.73435
▁போற	-9.73464
▁தங்களுக்கு	-9.73504
▁பரப்ப	-9.73505
▁தெரிந்தது	-9.73575
▁இராணுவ	-9.73679
ud	-9.73699
▁ஆங்கிலத்தில்	-9.73789
▁Previous	-9.73995
AT	-9.7402
ுள்ளேன்	-9.74037
ராஜ	-9.74058
▁உள்ளனர்	-9.74064
▁வாழ்த்து	-9.74181
ுவதால்	-9.74185
னையும்	-9.74201
▁பயன்பாடு	-9.74221
▁எண்ணி	-9.74424
▁ஹெ	-9.74473
▁நடக்கிறது	-9.74496
▁அதற்கான	-9.74522
▁வேதம்	-9.74602
வதற்கு	-9.74603
▁Z	-9.74632
▁ஆண்டுகளில்	-9.74661
▁பொறுமை	-9.74698
▁உணவை	-9.74758
ish	-9.74765
▁செலவ	-9.74766
▁இவர்களை	-9.74783
▁குழந்தைகளுக்கு	-9.74803
IT	-9.74803
▁விவாத	-9.74849
பால்	-9.74864
▁திரைப்பட	-9.74893
▁விரும்பிய	-9.74896
▁எதிர்பார்த்த	-9.74942
▁மீற	-9.74991
US	-9.75029
29	-9.75041
▁Ro	-9.75083
▁தெரிவித்தார்	-9.75112
டைந்த	-9.75187
▁மறுக்க	-9.75194
ப்பாக	-9.75195
▁2016	-9.75214
ாட்ட	-9.75255
யிர	-9.75274
▁அனைவரையும்	-9.75334
சோ	-9.75352
▁பிடி	-9.75364
56	-9.75374
oo	-9.75428
▁எழுத்தாளர்	-9.75441
ip	-9.75445
ருள	-9.7554
▁எல்லாரும்	-9.75551
ராஜ்	-9.75642
▁அமைப்ப	-9.75645
▁ரயில்	-9.75655
றேன்	-9.75714
அப்படி	-9.75719
▁ஒருமுறை	-9.75743
▁யோசனை	-9.7577
▁name	-9.75813
va	-9.75859
▁சை	-9.76058
▁சிறந்தது	-9.76061
▁எப்போதுமே	-9.76129
▁அதிர்ச்சி	-9.76162
டெ	-9.76246
▁வீரர்	-9.76258
▁ஒழி	-9.76268
▁நீங்களே	-9.76385
▁மற்றவர்கள்	-9.76467
j	-9.76567
ென்ன	-9.76637
▁அனுபவிக்க	-9.76647
ph	-9.76657
▁புனித	-9.76743
▁வெளியிட்ட	-9.7677
▁இல	-9.76782
▁அதிகாரிகள்	-9.76794
▁பதிப்பு	-9.76809
நல்ல	-9.769
▁உங்களால்	-9.76926
படியே	-9.76954
▁போகிற	-9.77041
▁பழக்க	-9.77074
▁கணவர்	-9.77148
▁தவறாக	-9.77163
ரிக்க	-9.77264
▁செய்கிற	-9.77358
▁மூன்றாவது	-9.77429
▁நிரப்ப	-9.77477
▁இப்பொழுது	-9.77477
▁si	-9.77481
மாக்க	-9.77495
▁வருகிறார்	-9.77517
▁நட	-9.77564
▁தொட	-9.7759
▁மேலான	-9.77694
▁இருக்கின்ற	-9.77714
ார்களோ	-9.77764
ரூ	-9.77849
▁அமைச்சர்	-9.77893
▁ஆயினும்	-9.77991
res	-9.77994
▁நிலையான	-9.78036
▁இன்ப	-9.78047
▁எதிர்ப்பு	-9.78073
▁v	-9.78113
IC	-9.78187
▁இவரது	-9.78265
ளு	-9.78329
▁சாதன	-9.78358
▁குறைவாக	-9.7842
ாகி	-9.78502
திரு	-9.78507
▁ஏற	-9.78517
மர	-9.78519
ுவீர்கள்	-9.78535
▁என்பதையும்	-9.78625
▁தடவை	-9.78627
▁ஏழை	-9.78708
▁r	-9.78744
▁கழி	-9.78753
▁வீரர்கள்	-9.78771
▁சந்திப்ப	-9.78814
▁கட்டு	-9.78815
யாகவே	-9.78865
▁சட்டம்	-9.78919
மையை	-9.78949
▁Do	-9.78961
ஹு	-9.7903
ON	-9.7909
▁‘‘	-9.7911
▁sa	-9.79117
▁தீர்ப்பு	-9.79141
▁என்பதில்	-9.79147
▁கூறப்படுகிறது	-9.79225
▁உதவுகிறது	-9.79291
▁சந்தை	-9.79347
▁Le	-9.79412
▁மார்க்க	-9.79425
▁—	-9.79426
ath	-9.79455
▁விர	-9.7946
▁தங்களது	-9.79461
▁பதிவை	-9.79487
▁மத்தியில்	-9.79498
lu	-9.79515
▁ஏற்பட்டது	-9.79526
ஃபி	-9.7954
▁2012	-9.79587
▁காபி	-9.79608
த்தர	-9.79642
ஷன்	-9.79649
▁இரண்டாம்	-9.79666
ue	-9.79682
கூற	-9.79738
▁அறிவிப்பு	-9.79767
▁செயல்படுத்த	-9.79784
▁மொ	-9.79821
▁ஆவ	-9.79854
▁விரும்புகிற	-9.79868
▁விஷ	-9.79871
ிப்பது	-9.79949
ரங்க	-9.79967
▁அம	-9.79985
▁போத	-9.80025
▁நிமிட	-9.80026
▁உங்களில்	-9.80045
விட்டது	-9.80056
ுவதற்கான	-9.80058
▁முறையாக	-9.80063
மலை	-9.80071
த்திற்கும்	-9.80141
▁இயங்க	-9.80141
▁நீதிமன்ற	-9.80174
▁ஏதும்	-9.80226
▁சொன்னேன்	-9.80231
▁நம்புகிறேன்	-9.8026
▁ஒப்பு	-9.80291
ப்பான	-9.80314
ுவிட்டது	-9.80381
▁சகோதரர்	-9.80396
ிருந்தேன்	-9.80397
▁திரி	-9.80422
▁கிளிக்	-9.80474
ிடமும்	-9.8049
▁ஜூலை	-9.80497
▁போன்று	-9.80507
55	-9.80566
▁சொல்கிற	-9.80569
சில	-9.80569
ust	-9.80596
▁@	-9.80604
▁விட்டும்	-9.80634
ave	-9.80746
▁ஆக்கி	-9.80749
வகை	-9.8084
தல்ல	-9.8086
▁நூ	-9.80868
வாசி	-9.80883
▁பிரார்த்தனை	-9.80893
உண்மை	-9.80902
▁மகத்தான	-9.80933
▁அற்புத	-9.80977
mp	-9.8101
▁உண்ண	-9.81065
=	-9.81082
னியா	-9.811
ளம்	-9.81104
▁மறுமை	-9.8119
▁அவசிய	-9.81225
பாடு	-9.81277
டும்	-9.81284
▁அமெரிக்காவில்	-9.81296
ணு	-9.81332
டியா	-9.81359
▁அவனிடம்	-9.81402
▁இலக்கு	-9.81407
னார்	-9.81434
ப்படை	-9.81435
▁அன	-9.81444
▁உம்முடைய	-9.81464
▁யாருக்கு	-9.81475
▁பெறும்	-9.81525
▁நாய்	-9.81555
▁இடுகை	-9.81562
▁கூறினான்	-9.81582
▁இணைக்க	-9.81652
▁ஏற்றுக்	-9.81696
▁தென்	-9.81701
▁பின்னால்	-9.81714
மாட்டார்கள்	-9.81743
▁குழந்தையை	-9.81748
▁ஒருநாள்	-9.81753
யுங்கள்	-9.8183
▁வருவது	-9.81841
▁அதன	-9.81853
கீ	-9.81858
▁நூறு	-9.81952
▁கவலைப்பட	-9.82039
▁காய	-9.82053
mi	-9.82098
▁வருகின்றன	-9.82159
▁தெரு	-9.82216
▁நாங்க	-9.82225
▁இனிய	-9.82241
▁பறவை	-9.82243
▁சர்	-9.82249
▁sh	-9.82253
கின்ற	-9.82259
ick	-9.8231
▁பாதை	-9.82343
மடைந்த	-9.82405
நாட்ட	-9.82421
▁கிறிஸ்து	-9.82444
▁கூட்டம்	-9.82453
ஆர்	-9.82469
▁உணர்வ	-9.8259
▁நினைக்கிற	-9.8262
▁அன்றி	-9.82633
▁முழுமையான	-9.82719
▁நிலையை	-9.82728
த்தில	-9.82746
ர்களின்	-9.82763
ருக்க	-9.82796
▁இந்நிலையில்	-9.8281
▁புர	-9.82865
வித	-9.82872
▁அவரே	-9.82878
ாளர்கள்	-9.8294
▁மீறி	-9.82946
▁தூக்கி	-9.82951
▁60	-9.83055
?''	-9.83069
▁உச்ச	-9.83074
▁நடிகை	-9.83081
▁அறிமுக	-9.83084
▁200	-9.8319
செய்ய	-9.83204
▁தான	-9.83256
▁வாருங்கள்	-9.83275
▁தொழில	-9.83287
▁தனியார்	-9.83326
ீட்டு	-9.83328
31	-9.83348
▁புகழ்	-9.83365
▁அதிகரிக்க	-9.83415
▁கேட்டால்	-9.8342
35	-9.83456
ost	-9.83492
▁ஓர	-9.83597
▁ch	-9.836
த்திலே	-9.83621
▁நிலவ	-9.83635
▁லே	-9.83649
▁நெருப்பு	-9.83698
AL	-9.83711
iv	-9.83718
32	-9.83726
65	-9.83748
▁அவரும்	-9.8375
▁தங்களின்	-9.83824
▁நிமிடங்கள்	-9.83864
▁மோடி	-9.8415
tra	-9.84167
▁தொகுப்பு	-9.84247
▁கரை	-9.84261
▁பார்ப்போம்	-9.84311
▁பருவ	-9.84327
வண	-9.84463
மைய	-9.84491
▁இலக்க	-9.84519
▁உண்டாக்க	-9.84527
▁தோல்வி	-9.84543
▁வெப்ப	-9.84613
sp	-9.84691
▁சிறை	-9.84697
▁2014	-9.8472
கிறேன்	-9.84725
▁தொடங்கி	-9.84726
▁மீன	-9.84739
ப்பட்டால்	-9.84749
▁அமைதியாக	-9.84761
▁ஓத	-9.84771
▁உண்மையாக	-9.84781
pdf	-9.84812
▁உங்களுக்காக	-9.84818
22	-9.84839
ாண்டு	-9.84839
▁Un	-9.84865
▁வேண்டி	-9.8487
▁மெய்	-9.84901
▁மொபைல்	-9.84919
ப்பட்டுள்ள	-9.84955
▁வரம்பு	-9.85025
நேர	-9.8503
▁சர்வதேச	-9.8506
▁ஆண்டில்	-9.85069
ob	-9.85155
pt	-9.85213
▁dis	-9.85306
ளே	-9.85361
ளவில்	-9.85401
gu	-9.85431
வதி	-9.85482
▁பொருளாதார	-9.85534
▁சொத்து	-9.85564
▁தீர	-9.85565
▁வரிசை	-9.85586
▁சிரம	-9.85663
▁ரஹ்மான்	-9.85694
▁இறைவா	-9.85738
▁இளம்	-9.85752
.//	-9.85755
▁சரியா	-9.85765
யினர்	-9.85809
▁அம்ம	-9.85831
▁பாதிக்கப்பட்ட	-9.85842
▁பேசும்	-9.85869
▁வெளியாக	-9.85938
▁ஹீரோ	-9.85967
▁கோரிக்கை	-9.85983
▁சொற்	-9.85998
▁வருடங்களுக்கு	-9.86032
ிருக்கின்றன	-9.86112
▁வீட்டை	-9.86112
▁go	-9.86149
▁இதற்காக	-9.86193
46	-9.86249
▁வருகிறேன்	-9.86267
ென்றால்	-9.863
▁வாழ்த்துக்கள்	-9.86302
200	-9.86324
ther	-9.86383
வச	-9.86465
▁சென்றார்	-9.86515
▁நீதிபதி	-9.86626
வனா	-9.86632
hy	-9.86702
▁குறைக்க	-9.86703
▁கவனமாக	-9.86758
▁இளைஞர்	-9.86769
33	-9.86806
லாமே	-9.86829
▁பதிலாக	-9.86831
பால	-9.86907
ame	-9.86917
ின்றது	-9.86959
யல்ல	-9.86962
▁நிறுவனங்கள்	-9.86965
34	-9.86981
▁கூறியுள்ளார்	-9.86985
▁சுர	-9.86993
▁வழியை	-9.87004
21	-9.87071
▁நே	-9.87084
ass	-9.87151
▁இழப்பு	-9.87151
▁நிறுத்தி	-9.8719
▁(2	-9.87216
▁புள்ளி	-9.87241
இதை	-9.8726
ச்சே	-9.8727
ோன்	-9.87324
▁ஸ்ப	-9.87343
les	-9.87352
▁முடிகிறது	-9.87372
no	-9.8741
▁சீர	-9.87436
▁sp	-9.8745
tic	-9.87475
▁மிகச்	-9.87561
விடு	-9.87579
வாதி	-9.87681
ப்பட்டுள்ளன	-9.8771
ure	-9.87765
கிட்ட	-9.87825
▁பின்னூட்ட	-9.87835
▁அவரவர்	-9.87929
lic	-9.87943
▁வருவ	-9.87945
▁கருத்த	-9.88002
▁நவீன	-9.8802
▁அனுப்பிய	-9.88021
▁ப்ர	-9.88056
▁கிழ	-9.88097
▁Tamil	-9.88159
▁அறிமுகம்	-9.8817
▁கொள்	-9.88205
OR	-9.88226
▁ஆர	-9.88288
▁வளை	-9.883
▁பட்டியல்	-9.88301
▁ஆட	-9.88307
னுடைய	-9.88368
▁அடக்க	-9.88386
▁நாட்டின்	-9.88401
வால்	-9.88416
ஹீ	-9.88438
▁விடுங்கள்	-9.88461
▁மனிதனை	-9.88478
▁பற்றியும்	-9.88481
▁அலுவலக	-9.88541
▁WEB	-9.88563
▁சமயம்	-9.8861
▁மகனை	-9.88631
pa	-9.88655
▁அண்ணா	-9.88687
▁ஓய்வு	-9.8878
தின்	-9.88798
ீங்களா	-9.88818
▁நேர்மை	-9.88856
Name	-9.88895
▁அமைந்த	-9.88929
▁வகுப்பு	-9.88986
▁மீன்	-9.89045
▁more	-9.89058
▁மீதான	-9.89123
86	-9.89128
▁அற	-9.89139
▁ஈடுபட	-9.89144
நோ	-9.89217
▁இருதய	-9.89263
▁வாத	-9.893
▁லெ	-9.89344
▁நினை	-9.8937
▁பயந்து	-9.89477
▁தலைவர்கள்	-9.89484
▁கற்று	-9.89503
▁இவன்	-9.89511
ங்கோ	-9.8952
நே	-9.89523
▁புகைப்படங்கள்	-9.89531
▁காணலாம்	-9.89536
▁பங்க	-9.8958
▁We	-9.89592
▁வாசகர்	-9.89635
▁உள	-9.89639
வேளை	-9.89642
▁அம்ப	-9.8965
▁மட	-9.8972
யன்றி	-9.89733
▁காதல	-9.89745
▁உள்ளடக்க	-9.89761
▁பதிவ	-9.89764
▁நாடுகள்	-9.89861
▁பிரபல	-9.89873
▁இருந்தார்கள்	-9.89936
▁அமையும்	-9.8994
▁இறக்கி	-9.9
bi	-9.90004
IS	-9.90014
▁வீட்டிற்கு	-9.90019
▁நெருப்ப	-9.90068
ர்களுக்கு	-9.90092
வர்களிடம்	-9.90118
▁போனது	-9.90123
▁கருத்துக்களை	-9.90158
▁நிராகரிக்க	-9.90207
ப்பட்டார்	-9.90228
ப்படுவது	-9.90235
▁காம	-9.90254
▁31	-9.90329
▁மலக்கு	-9.90348
வர்களில்	-9.90381
த்தன்மை	-9.90405
ிறீர்கள்	-9.90437
▁என்னுடன்	-9.90438
▁ஆயிரம்	-9.90442
ake	-9.90482
▁ஷா	-9.90483
யினை	-9.90493
67	-9.90498
▁அவர்களே	-9.90498
பாட	-9.90499
▁செய்பவர்	-9.90537
▁Google	-9.90595
▁one	-9.90616
▁சத்தம்	-9.90618
மென்	-9.90642
அவன்	-9.90679
▁வந்தேன்	-9.90732
▁தூய	-9.90758
எல்	-9.90839
▁ரே	-9.90845
▁அவர்களைப்	-9.90889
72	-9.90981
ரஹ்	-9.9102
▁2011	-9.91039
▁ஒதுக்க	-9.91093
▁குமார	-9.911
ர்ந்து	-9.91148
▁கொள்ளும்	-9.91149
▁கண்ணாடி	-9.91215
டுகள்	-9.91229
▁இருக்கிறதா	-9.91236
▁நடிப்ப	-9.91252
▁வசனங்களை	-9.91282
str	-9.91305
▁படு	-9.9135
▁வழக்க	-9.91353
95	-9.91371
▁சீன	-9.91387
▁அவருடன்	-9.91406
▁அறிவுரை	-9.91442
▁செய்கின்ற	-9.91451
▁மன்னிப்புக்	-9.91483
ாலேயே	-9.9153
36	-9.91562
ah	-9.91571
▁am	-9.91622
ree	-9.91651
da	-9.91765
’’	-9.91785
▁இணைந்து	-9.9182
▁அன்ன	-9.91829
77	-9.91852
art	-9.91853
▁%	-9.91919
▁கிட்ட	-9.91954
ராய்	-9.91996
க்கிறேன்	-9.92044
ound	-9.92051
ரான	-9.92064
▁man	-9.92073
▁பார்க்கும்	-9.92097
▁நிறைவேற	-9.92133
▁புகழ	-9.92142
▁யானை	-9.92144
▁முதன்	-9.92165
▁முடிந்து	-9.92171
▁தூர	-9.92189
▁வென்ற	-9.92218
tor	-9.92229
▁ஆட்	-9.9227
▁சிரித்த	-9.92295
ேஷ்	-9.92392
mb	-9.92432
அலை	-9.9244
▁நாவல்	-9.92525
▁ஜனவரி	-9.92534
பொருள்	-9.92584
▁Ar	-9.92636
வேறு	-9.92727
▁ஈர	-9.92738
▁இளைஞர்கள்	-9.92751
▁வைத்திருந்த	-9.92773
▁கையை	-9.92803
ுக்கே	-9.92891
த்திட்ட	-9.9294
பாவ	-9.92941
▁கண்டிப்பாக	-9.92969
ex	-9.93002
▁முன்பாக	-9.93093
▁உபதேச	-9.93101
▁அகற்ற	-9.93101
▁பாத	-9.93148
70	-9.93151
▁பத்தி	-9.93277
▁வைத்துக்	-9.93284
▁மென்பொருள்	-9.93347
▁அருமை	-9.93356
ொன்று	-9.93363
ஜெ	-9.93409
▁விஷயத்தில்	-9.93428
▁நிரந்தர	-9.93476
▁முதலீடு	-9.93548
Q	-9.93558
▁இந்தியாவின்	-9.93564
▁அப்புறம்	-9.93579
னாலும்	-9.93607
▁விசய	-9.9363
▁உபயோக	-9.9371
▁கொல்ல	-9.93772
ங்களுக்காக	-9.93794
இல்	-9.93803
ணா	-9.93805
▁சம்பவ	-9.93907
▁கருத்தை	-9.93914
▁கொண்டது	-9.93919
ேனா	-9.93961
.''	-9.93974
▁பிரதி	-9.93986
▁வளர	-9.93992
▁தோழர்	-9.93997
▁us	-9.94024
▁அனைவர	-9.94038
▁ஆகி	-9.94045
▁குல	-9.94066
▁செயல்பாடு	-9.94092
ியிருக்க	-9.94108
சார்	-9.94126
▁அந்நாளில்	-9.94199
▁பறி	-9.94223
37	-9.9425
களான	-9.94277
▁மற	-9.94326
வாத	-9.94344
▁செய்கிறார்கள்	-9.94431
▁பயனர்	-9.94494
▁ஒத்து	-9.94522
வங்க	-9.94602
▁நு	-9.94625
▁விண்ணப்ப	-9.94669
ak	-9.94684
▁பசி	-9.94711
▁தொடர்பான	-9.94728
ual	-9.94742
king	-9.9475
▁Ex	-9.94759
▁அஞ்சி	-9.94766
▁தம்பி	-9.94786
▁நட்சத்திர	-9.94807
▁குறியீடு	-9.94821
▁கூட்டு	-9.94824
▁யாருக்கும்	-9.94841
▁முயன்ற	-9.9486
▁வைத்திருக்க	-9.94878
▁ஹோ	-9.9488
▁டாலர்	-9.94914
▁நாளைக்கு	-9.94925
▁அறு	-9.94969
▁வருந்த	-9.94977
▁இருப்பதால்	-9.94985
▁நியம	-9.94995
▁பொழுது	-9.95033
▁கருத்துக்கள்	-9.95077
▁இளைய	-9.9509
▁அழித்து	-9.95097
▁ஏழு	-9.9516
▁நாமே	-9.95169
RE	-9.95194
▁விமர்சனம்	-9.95222
ங்களால்	-9.95318
▁ஆமாம்	-9.95326
ாரு	-9.95366
▁ரத்த	-9.95453
▁எக்ஸ்	-9.95474
▁காத்திருந்த	-9.95488
▁பொருந்த	-9.95509
red	-9.95528
▁மகனே	-9.95587
▁ஸலாம்	-9.95596
▁முருக	-9.95627
▁மனதை	-9.95627
▁நாமும்	-9.95638
▁இவ்வுலக	-9.95658
▁அவர்களுடன்	-9.95683
▁கல்	-9.95685
▁விழுந்து	-9.95716
ெய்	-9.95726
▁உடல	-9.9575
மையான	-9.95785
▁விட்டார்	-9.95801
தலை	-9.95838
டீ	-9.95839
வூ	-9.95864
ft	-9.95895
▁கற்ப	-9.95908
▁அவற்றின்	-9.95916
▁முன்னேற்ற	-9.95921
▁கேளுங்கள்	-9.95944
ுவத	-9.95975
▁ஆண	-9.95992
▁திட்டங்கள்	-9.96045
▁la	-9.96058
▁சொல்லவில்லை	-9.96063
▁சுற்று	-9.96069
▁தயார்	-9.96086
▁வழங்குகிறது	-9.96102
▁செல்கிற	-9.96118
▁எல்லோருக்கும்	-9.96244
▁மலர்	-9.96252
07	-9.96289
ப்பர்	-9.96305
▁பாதையில்	-9.96341
pri	-9.96365
மையாக	-9.96399
▁ஜே	-9.96401
▁சண்டை	-9.96417
▁பண்ணி	-9.96423
ாண்ட	-9.96442
▁பரிசுத்த	-9.96453
▁சராசரி	-9.96493
-1	-9.96527
▁பொருட்களை	-9.96554
ாட	-9.96565
▁பத்திரிகை	-9.96614
ின்றேன்	-9.96669
▁வலைப்பதிவு	-9.96675
▁எவன்	-9.96685
▁மற்றவர்	-9.96688
▁Al	-9.96756
▁இரா	-9.96757
▁என்பதுதான்	-9.96765
ண்டர்	-9.96798
▁உர	-9.96833
▁கிளை	-9.96848
ron	-9.96885
▁அரி	-9.96922
▁பாதிக்க	-9.96926
▁பகிர	-9.96935
▁முடிக்க	-9.96955
ங்களா	-9.96966
▁பொறுப்பு	-9.9699
▁காலமாக	-9.97031
bu	-9.97073
ெடுப்ப	-9.97095
▁பாச	-9.97134
▁கவி	-9.97191
▁ஆணைய	-9.97245
▁பேசினார்	-9.97249
▁மகிழ்வ	-9.97259
▁போயி	-9.97289
▁சொல்லும்	-9.97307
▁இருக்கிறோம்	-9.97326
23	-9.97356
றும்	-9.97407
▁திருட	-9.97415
லியா	-9.97496
▁எங்கும்	-9.97512
▁பந்த	-9.97523
▁இயலாது	-9.97531
▁ஆத	-9.97534
▁பிள்ளைகள்	-9.9755
▁நாடுகளில்	-9.97574
ُ	-9.97601
▁கடினமாக	-9.97623
தாய்	-9.97655
கின்றனர்	-9.97682
fe	-9.9769
▁பார்த்தது	-9.977
0%	-9.97741
▁கைய	-9.97767
▁என்பத	-9.97812
▁செய்வதை	-9.97878
▁un	-9.97913
▁கணக்க	-9.9794
▁அவளது	-9.97957
▁கூறியது	-9.97959
39	-9.97978
த்தோ	-9.97987
▁Ad	-9.98039
▁நேரடி	-9.98054
▁விஞ்ஞான	-9.98107
▁தெரியாமல்	-9.98156
ory	-9.98171
94	-9.98194
▁மட்ட	-9.98202
▁India	-9.98225
பெற	-9.98229
ach	-9.98234
▁முடித்த	-9.9824
▁இருந்திருக்க	-9.98255
▁பெயரில்	-9.98269
ten	-9.98309
▁ஜூ	-9.98322
▁அரசின்	-9.98361
வார்கள்	-9.98368
▁முடியாமல்	-9.98407
▁இவ்	-9.98418
way	-9.98449
மாற்ற	-9.98451
nt	-9.98489
▁கலைஞர்	-9.98496
88	-9.98501
▁மார்ச்	-9.98517
▁ஈழ	-9.98521
▁சேவைகள்	-9.98561
எங்கள்	-9.98582
▁தயாரிக்க	-9.98597
ஸை	-9.98644
▁காந்தி	-9.98679
▁உணர்ந்து	-9.98718
▁தமிழில்	-9.98781
▁கூறுவது	-9.98812
▁பாதிப்பு	-9.98815
▁பிரிய	-9.98818
▁Ho	-9.98848
என்னை	-9.98891
▁தைரிய	-9.98926
தெ	-9.98928
யினால்	-9.98929
▁who	-9.99026
த்தேன்	-9.99038
view	-9.99038
▁Pa	-9.99044
▁அர்த்தம்	-9.99046
▁காகித	-9.99106
▁கொள்ளலாம்	-9.99147
னுடன்	-9.99163
▁அந்	-9.99166
▁La	-9.9919
▁புரிந்த	-9.99193
rt	-9.99226
▁வாழ்ந்து	-9.99288
ின்றான்	-9.99313
வாழ்	-9.99331
▁ஸ்க	-9.99339
மைப்பு	-9.99366
▁Su	-9.99395
▁நிஜ	-9.99505
▁விரும்பி	-9.99543
▁அத்தாட்சி	-9.99563
▁சிந்திக்க	-9.99613
▁கட்டுப்படுத்த	-9.99681
▁பிடிக்கும்	-9.99698
யுமே	-9.99749
▁பூமியின்	-9.99796
ிருந்தனர்	-9.99798
த்தினை	-9.99807
▁அம்ச	-9.99817
▁போலி	-9.99833
▁நட்பு	-9.99854
▁day	-9.99896
▁(1	-9.99924
த்தானே	-9.99962
யிட்ட	-10.0002
▁தளத்தில்	-10.0011
▁உயிரை	-10.0013
▁உடலில்	-10.0017
▁di	-10.0018
ப்படுகின்றது	-10.0021
▁மிகக்	-10.0022
▁முகத்தை	-10.0022
▁உறுதிப்படுத்த	-10.0022
வோம்	-10.0023
க்கூடும்	-10.0024
உங்களுக்கு	-10.0034
▁பிரபலமான	-10.0035
os	-10.0057
▁கழித்து	-10.0062
மாட்டேன்	-10.0063
ாமை	-10.0063
▁பவர்	-10.0074
▁அந்நிய	-10.0077
▁தல	-10.0079
▁வழங்கப்படும்	-10.0079
cr	-10.008
▁How	-10.0084
▁சம்பந்த	-10.0085
▁பெரும	-10.0087
▁தொடக்க	-10.0089
▁தக்க	-10.0097
ரவு	-10.0097
ber	-10.0099
▁மீள	-10.0102
▁இருந்தா	-10.0102
▁Sa	-10.0107
▁வச	-10.0109
▁எடுப்ப	-10.0111
-2	-10.0112
@	-10.0115
▁தோழி	-10.0116
▁ஜான்	-10.012
▁பெண்களுக்கு	-10.0124
▁தடுப்ப	-10.0126
▁நுழைந்த	-10.0126
மாதிரி	-10.013
ated	-10.0133
Z	-10.0137
▁ஷைத்தான்	-10.0138
38	-10.0138
▁இடத்தை	-10.014
▁பூமியை	-10.0142
▁Sp	-10.0143
▁வரும்போது	-10.0146
தூ	-10.0148
ES	-10.0152
EN	-10.0157
▁இருப்பார்	-10.0159
▁நிகழ்ந்த	-10.016
▁ஓட்டு	-10.016
▁மூத்த	-10.0166
▁இறைவனிடம்	-10.017
▁தள்ள	-10.0179
வனின்	-10.0185
▁பணியாற்ற	-10.0185
▁சிறப்பான	-10.0187
ந்தார்	-10.0196
▁அக்கா	-10.02
▁புத்த	-10.0201
▁மனைவியை	-10.0203
▁வழங்கும்	-10.0204
▁புரியவில்லை	-10.0213
▁பொருட்டு	-10.0217
ியுள்ளார்	-10.0218
கொண்டு	-10.0222
ோரை	-10.0224
▁உங்களுடன்	-10.0228
▁பள்ளியில்	-10.0228
யிருக்கும்	-10.0232
▁என்றாள்	-10.0233
▁விட்டேன்	-10.0234
ித்துக்	-10.0234
▁திகதி	-10.0236
57	-10.0239
மின்றி	-10.0244
▁நகர்	-10.0244
▁எப்போ	-10.0245
▁அதனால	-10.0246
au	-10.025
▁சொன்னால்	-10.0266
▁கேட்டது	-10.0267
▁விலக	-10.0269
▁தளம்	-10.0274
▁முதல்வர்	-10.0275
யிருந்த	-10.0275
செய்	-10.0276
ally	-10.0288
▁வாசித்த	-10.0291
▁கர்	-10.0292
▁35	-10.0301
▁விசா	-10.0301
▁பேட்டி	-10.031
▁அழுத	-10.0313
▁கணவன்	-10.0314
▁டோ	-10.0325
ec	-10.0326
▁நிமிடம்	-10.0328
ுவீராக	-10.0333
▁Vi	-10.0333
▁கூடும்	-10.0337
ப்போல	-10.0337
SS	-10.0342
ran	-10.0342
▁மல	-10.0345
யர்கள்	-10.0351
▁post	-10.0351
▁உட்பட	-10.0354
▁Cl	-10.0355
▁இயந்திர	-10.0356
▁ஒற்றை	-10.0357
▁பாருங்க	-10.0359
▁சுகாதார	-10.0366
▁பாவி	-10.0368
காந்த	-10.037
▁நிறுவனத்தின்	-10.0371
த்திற்கான	-10.0373
87	-10.0373
▁நடத்தி	-10.0378
▁மந்திர	-10.0379
sh	-10.0383
ப்போம்	-10.039
▁உறை	-10.0391
▁கிரக	-10.0391
▁திட	-10.0397
ens	-10.0397
▁வார்த்தைகள்	-10.0398
வர்களே	-10.0401
ism	-10.0403
▁ஞாபக	-10.0411
▁வட்ட	-10.0414
▁இவரை	-10.0416
▁பயன்பாட்ட	-10.0417
▁குறிச்சொல்	-10.0424
rit	-10.0424
▁அமர	-10.0424
▁வருஷ	-10.0428
தொ	-10.043
59	-10.0431
▁வரிகள்	-10.0432
wi	-10.0436
45	-10.0436
▁90	-10.0438
rd	-10.0439
▁உட	-10.044
▁அறிவிப்ப	-10.0441
▁அணை	-10.0443
▁தள்ளி	-10.0445
வற்ற	-10.0446
▁சேர்	-10.0446
▁ஆனந்த	-10.0447
ப்பார்	-10.0449
▁அதனால்தான்	-10.0453
▁க்கான	-10.0455
ரூப	-10.0458
▁இழப்ப	-10.0464
அதை	-10.0465
ீட்ட	-10.0471
▁விடுமுறை	-10.0473
▁காலி	-10.0479
சல்	-10.0481
▁பக்கத்தில்	-10.0484
▁வியாபார	-10.0487
▁லூ	-10.0489
▁முடிவுகள்	-10.0491
இரு	-10.0491
od	-10.0492
நண்பன	-10.0493
br	-10.05
▁செய்யப்பட்டது	-10.0502
▁x	-10.0507
ணர்	-10.0514
▁வருகிற	-10.0516
▁விஜய்	-10.0516
க்காரர்	-10.0517
▁மார்	-10.0519
▁பெண்ணை	-10.052
▁யாரையும்	-10.0521
▁வராது	-10.0531
▁கூறுவார்கள்	-10.0531
▁பார்க்கலாம்	-10.0535
▁இதையடுத்து	-10.0536
▁தலைமுறை	-10.0536
▁இஸ்லா	-10.0538
▁எழ	-10.054
▁அரு	-10.0542
▁வாக்குறுதி	-10.0545
ர்ந்த	-10.0546
▁நல்	-10.0547
▁தீர்க்க	-10.055
▁பொதுவான	-10.0551
▁Bo	-10.0552
▁பதிவில்	-10.0555
வெளி	-10.0556
▁இருங்கள்	-10.0557
ிருந்தாலும்	-10.0557
ளோ	-10.0558
▁வாழ்வை	-10.0564
ேஷன்	-10.057
▁about	-10.0572
▁பையன்	-10.0578
ug	-10.0579
வரிடம்	-10.058
▁தாழ்	-10.0582
ோட்ட	-10.0585
நம்	-10.0586
யாள	-10.059
▁was	-10.0593
▁காஃபிர்கள	-10.0595
▁கிருபை	-10.0595
போன	-10.0599
▁ஆணை	-10.0602
▁உதாரணமாக	-10.0605
▁நாணய	-10.0617
ப்பாட்ட	-10.062
66	-10.0621
▁விவசாயி	-10.0627
▁ஆற்ற	-10.0631
ண்ணி	-10.0639
▁வேலைக்கு	-10.0642
ial	-10.0642
▁time	-10.0644
▁like	-10.0644
▁கனி	-10.0644
▁அத்துடன்	-10.0645
▁மூன்ற	-10.0646
▁வெவ்வேறு	-10.0653
▁பிள	-10.0657
பெண்	-10.066
▁கதைகள்	-10.0661
▁ஆகையால்	-10.0663
▁செய்தேன்	-10.0665
ark	-10.0674
▁முதன்மை	-10.0674
▁கொண்டிருக்க	-10.0675
▁நற்	-10.0676
▁காற்று	-10.0679
▁கதவு	-10.0679
▁ஜாதி	-10.0684
▁அடியார்	-10.0685
▁எப்ப	-10.0686
▁மாற்றங்கள்	-10.0694
69	-10.0695
▁So	-10.0699
ீர்களோ	-10.07
ash	-10.0701
▁ரஹ்மத்	-10.0702
▁அணு	-10.0706
▁மீட்ட	-10.0706
▁குறிப்புகள்	-10.0707
▁தொழிலாளர்	-10.0709
ென்	-10.0709
▁but	-10.0712
ஏன்	-10.0716
▁பார்த்துக்	-10.0719
▁விலக்க	-10.0721
கரு	-10.0721
▁பதில	-10.0725
ுகின்றேன்	-10.0726
▁ஒப்ப	-10.0727
cess	-10.0728
வதில்லை	-10.0735
▁படங்களை	-10.0739
▁அல்லாத	-10.0742
பிள்	-10.0747
▁உறவ	-10.0747
விலும்	-10.0748
▁வெளியில்	-10.0748
▁செய்யப்பட	-10.075
றே	-10.0757
lk	-10.0758
.........	-10.0759
▁மேற்பட்ட	-10.0767
▁தோட்ட	-10.0769
ந்தான்	-10.077
▁ஒப்பிட	-10.0776
▁Man	-10.0777
▁கொடுமை	-10.0779
▁பல்கலைக்கழக	-10.078
▁உலகத்தில்	-10.0783
த்தினால்	-10.0786
▁கற்ற	-10.0787
▁சொன்னான்	-10.0799
68	-10.08
▁நம்பிக்கையை	-10.0802
▁எவர	-10.0809
▁முடித்து	-10.0812
▁லோ	-10.0816
▁அளிப்ப	-10.0819
ous	-10.082
98	-10.0822
▁தர்ம	-10.0824
▁و	-10.0827
▁வசன	-10.084
ப்பாடு	-10.0843
ெடுத்த	-10.0843
நிகழ்	-10.0844
▁(19	-10.0845
டிங்	-10.0846
குமார்	-10.0846
▁விரைவாக	-10.0849
▁சம்பவம்	-10.0849
dia	-10.0849
▁தற்போதைய	-10.0851
▁வீட்ட	-10.0853
▁எப்படியோ	-10.0854
▁உறுப்பினர்	-10.0856
52	-10.0856
▁நண்பன்	-10.0858
▁கொள்வது	-10.0858
ore	-10.0858
ங்களுடன்	-10.086
▁லீ	-10.0862
▁முன்னாள்	-10.0864
▁வெறுப்ப	-10.0867
▁எதுவுமே	-10.0867
▁வாய்ப்ப	-10.0868
line	-10.0872
▁உறவினர்	-10.0874
▁கைவிட	-10.0875
ject	-10.0879
ுள்ளோம்	-10.0879
▁ஜோடி	-10.0882
▁தியான	-10.0883
▁ஆனது	-10.0886
90	-10.0886
▁நவம்பர்	-10.0888
ric	-10.0889
ign	-10.0892
▁எதிரான	-10.0893
ல்லாஹ்	-10.0893
▁இலை	-10.0895
▁வாசக	-10.0895
▁ஆரோக்கிய	-10.0895
ட்ரோ	-10.0896
▁துயர	-10.0901
ms	-10.0904
▁விஷயத்தை	-10.0905
ide	-10.0911
▁பிளா	-10.0916
களிடமிருந்து	-10.0917
அல்லாஹ்வின்	-10.0922
▁வீடியோக்கள்	-10.0922
▁கதையை	-10.0927
▁கடித	-10.0928
▁புதுப்பிக்க	-10.0929
ூட்ட	-10.093
▁ஐயா	-10.0935
▁எத்தனையோ	-10.0949
ப்பே	-10.0952
▁32	-10.0955
▁கடிதம்	-10.0956
▁கம்ப	-10.0958
▁காயம்	-10.0959
▁இறைவனுக்கு	-10.0962
பொழுது	-10.0963
▁மனிதர்களை	-10.0963
ness	-10.0966
▁ஏற்படுத்தி	-10.0966
!''	-10.0974
▁பெண்களை	-10.0978
▁பின்வரும்	-10.0979
▁கொடு	-10.098
ஜீ	-10.0981
▁கொள்ளவும்	-10.0988
▁உற்சாக	-10.0996
▁பெரிதாக	-10.0996
தேச	-10.0999
▁தனிமை	-10.1
▁இயல	-10.1
யென	-10.1003
TH	-10.1007
▁மூன்றாம்	-10.1008
▁All	-10.1008
▁நிரூபிக்க	-10.101
▁வழிகாட்டி	-10.1016
▁ஆடி	-10.1016
▁பிரே	-10.1018
▁அரசியல	-10.102
ஞ்	-10.1023
▁up	-10.1023
படும்	-10.1027
▁சுருக்க	-10.1039
▁மனநிலை	-10.1047
பிற	-10.105
▁விளக்கு	-10.1058
▁கூறுகிறார்கள்	-10.106
▁வேறுபாடு	-10.1061
ுகின்றார்	-10.1067
▁கிருஷ்ண	-10.107
54	-10.1076
ின்றோம்	-10.1084
▁நினைத்தேன்	-10.1084
▁கொண்டார்	-10.1085
▁கட்டாய	-10.1086
ாதி	-10.1086
▁வானம்	-10.1091
▁நகை	-10.1093
▁குறு	-10.1095
▁முழுக்க	-10.1101
▁ஆகிறது	-10.1101
▁அவரைப்	-10.1103
▁சொல்கிறேன்	-10.1104
hen	-10.1104
▁கடவுளுக்கு	-10.1105
▁எண்ணம்	-10.1105
su	-10.1106
▁பிரார்த்தி	-10.1107
▁பலவீன	-10.1115
▁இறங்கி	-10.1117
!!!	-10.112
▁சேமிக்க	-10.1121
ுநர்	-10.1121
▁மறைக்க	-10.1122
▁வெளியேற்ற	-10.1124
old	-10.1135
air	-10.1137
-20	-10.1138
▁தங்கி	-10.1139
▁po	-10.114
▁Di	-10.114
வரி	-10.1143
▁2020	-10.1143
▁மகிழ்ச்சியாக	-10.1143
▁வேடிக்கை	-10.1145
குழந்தை	-10.1146
ுவதே	-10.1147
▁அசை	-10.1149
▁விவர	-10.1151
:10	-10.1151
▁கூப்பிட	-10.1158
▁பாலி	-10.116
▁Ra	-10.1162
▁தியாக	-10.1166
▁அச	-10.1167
▁பாதுகாப்பாக	-10.1167
ுகிறாள்	-10.1177
▁ஏற்று	-10.1182
▁God	-10.1182
▁செய்வதற்கு	-10.1188
ப்பகுதி	-10.1189
▁மண்	-10.1191
▁சமீபத்தில்	-10.1191
.’’	-10.1191
வர்களா	-10.1192
96	-10.1197
▁முக்கியம்	-10.1199
RO	-10.1202
▁வைர	-10.1209
▁முதலாளி	-10.122
▁எவ்வித	-10.1222
▁கட்டிட	-10.1225
▁வேதனையும்	-10.1229
▁அபி	-10.1231
▁விவசாய	-10.1233
▁இருக்கின்றது	-10.1234
LE	-10.1234
▁மாட்டோம்	-10.1238
▁பழக	-10.124
▁மனு	-10.1241
▁கையாள	-10.1241
▁குதிரை	-10.1243
▁பொறுத்தவரை	-10.1246
▁!!	-10.125
▁இயந்திரம்	-10.1252
▁மடி	-10.1255
விட்டன	-10.1257
▁துப்பாக்கி	-10.1259
▁Pri	-10.126
ாரே	-10.1262
▁ரசிகர்	-10.1262
▁Day	-10.1265
io	-10.1272
▁ஹிட்ஸ்	-10.1273
▁need	-10.1274
▁தயாரிப்புகள்	-10.1276
▁எங்கள	-10.1277
▁சொல்லுங்கள்	-10.1278
▁What	-10.1282
▁en	-10.1284
▁தீபாவளி	-10.1288
▁இஸ்ரேல்	-10.1289
▁கற்றுக்	-10.1292
ேனே	-10.1294
▁நோயாளி	-10.1295
▁வெளியீடு	-10.1298
go	-10.1299
▁வசனம்	-10.13
▁பணியாளர்	-10.1302
43	-10.1303
▁வழிபட	-10.1304
▁வழங்கிய	-10.1305
97	-10.1308
னீ	-10.1311
ிருப்பார்கள்	-10.1313
IL	-10.1315
காலம்	-10.1321
53	-10.1329
▁மேலாக	-10.1332
▁ஆழ	-10.1334
we	-10.1335
▁விலங்கு	-10.1337
▁நிகழ்வ	-10.1337
▁இப்னு	-10.1339
▁எளிதான	-10.134
▁தாண்டி	-10.1344
செய்த	-10.1345
ருக்கும்	-10.1346
▁சலுகை	-10.1349
▁`	-10.1351
▁குழ	-10.1352
▁தக	-10.1354
▁அறிமுகப்படுத்த	-10.1355
▁தீர்ப்ப	-10.1359
ிடு	-10.1362
▁ரகசிய	-10.1363
தொகு	-10.1365
▁கீழ	-10.1366
▁பரிச	-10.1367
▁விரை	-10.1368
ins	-10.1369
48	-10.1369
▁இடது	-10.1369
▁2010	-10.137
▁தாத்தா	-10.1375
▁My	-10.1376
▁Mi	-10.1376
land	-10.1383
▁சாய்	-10.1384
▁நாவல	-10.1385
▁பனி	-10.1388
▁கோபம்	-10.139
▁ta	-10.1394
▁இத்த	-10.1394
▁அவரு	-10.1396
▁வளர்ந்த	-10.1398
யடைந்த	-10.1401
வாச	-10.1402
ose	-10.1402
ிறாள்	-10.1402
▁ஆகஸ்ட்	-10.1409
ிற்	-10.1412
அதற்கு	-10.1412
யீ	-10.1416
▁தத்துவ	-10.1417
முதல்	-10.1421
▁கண்டறிய	-10.1425
▁திட்டமிட	-10.1427
தாவது	-10.1427
ந்தர்	-10.143
▁அவர்களால்	-10.1432
▁தெரிஞ்ச	-10.1433
▁அமைய	-10.1436
▁Jo	-10.1437
ton	-10.1438
▁கடுமையாக	-10.1448
▁2009	-10.1449
ஸ்டர்	-10.1451
எல்லா	-10.1457
▁உரையாட	-10.1464
58	-10.1464
னால	-10.1466
▁இவர்களின்	-10.147
▁கைகளை	-10.1471
si	-10.1474
▁இவருக்கு	-10.1474
▁அதிகாலை	-10.1479
▁எல்லோர	-10.148
َا	-10.1483
76	-10.1486
லிருந்து	-10.149
▁அவமான	-10.1491
▁விசாரித்த	-10.1493
▁குடும்பம்	-10.1493
▁தொடர்புடைய	-10.1494
▁கேட்டேன்	-10.1497
▁நாடக	-10.1498
▁பகை	-10.1501
▁பிரதமர்	-10.1503
கின்றது	-10.1505
▁குறிப்பிடத்தக்க	-10.1507
▁பகல	-10.1509
கிறார்	-10.1511
▁Com	-10.1518
▁எண்ணெய்	-10.1522
▁வந்தனர்	-10.1525
▁மாட்டான்	-10.1526
▁காக்க	-10.1528
▁அரசாங்கம்	-10.1529
▁தமிழர்கள்	-10.1534
▁நேசிக்க	-10.1539
▁போக்க	-10.1542
▁மித	-10.1544
ப்பான்	-10.1546
▁உணர்ச்சி	-10.1548
85	-10.1551
▁நடைபெற்ற	-10.1551
con	-10.1553
முடியாத	-10.1555
▁தட	-10.1555
▁what	-10.1557
ாராம்	-10.1558
▁வேல	-10.1573
ிற்கான	-10.1581
▁சூழ	-10.1587
▁விழி	-10.1588
71	-10.1589
▁விரு	-10.1594
oss	-10.1595
▁போகிறேன்	-10.1599
▁மருத்துவர்	-10.1603
▁நுழைய	-10.1605
CH	-10.1607
▁கொண்டிருப்ப	-10.1623
▁பஞ்ச	-10.1625
ருள்	-10.1626
▁வாய்ந்த	-10.1627
ராம	-10.1628
தொடர்	-10.1629
வீர	-10.163
▁வருடங்களாக	-10.1631
▁எதற்கு	-10.1632
ுகிறீர்களா	-10.1636
கிறான்	-10.1636
▁Fi	-10.1636
ions	-10.164
▁வேதத்தை	-10.1642
▁விருப்பம்	-10.1644
500	-10.1645
are	-10.1648
▁பாத்திர	-10.1651
▁மதம்	-10.1654
▁வீச	-10.1656
▁கிரா	-10.1657
▁இன்னமும்	-10.1658
இன்னும்	-10.1662
▁தருண	-10.1668
▁ரசிகர்கள்	-10.1675
மனித	-10.168
▁செய்வத	-10.1682
ுவதன்	-10.1683
89	-10.1683
▁ஆகிவிட	-10.1685
▁கருப்பு	-10.1687
▁ரீ	-10.169
▁வேண்டாமா	-10.1699
▁செய்தியை	-10.17
▁திட்டமிட்ட	-10.1708
▁கவனித்த	-10.1709
▁நிராகரிப்ப	-10.1715
ase	-10.1716
▁மாட்டார்	-10.1721
low	-10.1722
▁கவிஞர்	-10.1725
▁சூப்பர்	-10.1726
▁போனஸ்	-10.173
▁comp	-10.173
▁ஆதரவ	-10.1735
▁விளைவு	-10.174
▁மனுஷ	-10.1747
▁பாஸ்	-10.1747
▁நேரில்	-10.1749
யிற்ற	-10.1749
டுக்க	-10.1752
▁நியாயமான	-10.1753
▁உயர்த்த	-10.1758
▁அதற்க	-10.1759
▁பாடல்கள்	-10.1765
UR	-10.1767
க்ஷ	-10.1769
▁ஆத்மா	-10.1769
▁ஊர	-10.1769
ீரா	-10.1773
▁செய்கிறேன்	-10.1776
▁காத்த	-10.1782
▁கடல	-10.1785
▁ad	-10.1785
▁Is	-10.1786
▁மரு	-10.1787
ெடுத்து	-10.1789
▁அடிக்க	-10.1793
▁வருமான	-10.1793
av	-10.1798
▁வெளிச்ச	-10.1799
▁மறுபடியும்	-10.1801
ளித்த	-10.1802
▁சிவா	-10.1804
lect	-10.1805
▁பெயர்கள்	-10.1805
▁விபர	-10.1806
be	-10.1814
PS	-10.1815
றீங்க	-10.1818
▁விபத்து	-10.182
▁அடாப்டர்	-10.182
▁மாமா	-10.1821
▁துண்டு	-10.1822
▁பேச்ச	-10.1825
▁துறையில்	-10.1831
தற்	-10.1831
▁கொடுத்தார்	-10.1833
ிருக்கின்ற	-10.1834
தோடு	-10.1835
▁பார்வையாளர்	-10.1837
pi	-10.1838
▁நாங்களும்	-10.1843
ிருந்து	-10.1845
▁ஆபத்து	-10.1848
if	-10.185
▁மற்றவர்களுக்கு	-10.1854
▁ஆவார்	-10.1854
▁வண்டி	-10.1857
▁வைக்கும்	-10.1859
▁அவற்றில்	-10.1859
▁அட்டவணை	-10.1863
▁ஆண்டவர்	-10.1864
iz	-10.1866
www	-10.187
▁அதிகாரம்	-10.1875
▁முத்த	-10.1878
▁செய்தனர்	-10.1879
▁கிடந்த	-10.1888
▁அழைத்துச்	-10.189
க்கெட்	-10.1891
ுக்குள்	-10.1893
▁கழ	-10.1896
▁புதிதாக	-10.1897
▁சூடான	-10.1898
44	-10.1899
▁நடைபெற	-10.1899
வரையும்	-10.1903
▁அனை	-10.1904
▁காரணங்கள்	-10.1904
▁நிகழ	-10.1906
▁ஞாபகம்	-10.1908
▁முகத்தில்	-10.191
▁ஆற்றல்	-10.1915
▁செய்வோம்	-10.1916
▁மன்னித்த	-10.1916
▁காது	-10.1917
▁வாழ்வின்	-10.1917
▁நிகழ்வுகள்	-10.192
ப்படுவார்கள்	-10.1921
91	-10.1922
ாக்கி	-10.1925
▁ஆரம்பிக்க	-10.1926
ினும்	-10.1929
▁மாகாண	-10.1929
now	-10.1934
lan	-10.1938
சியா	-10.1941
▁முன்னே	-10.1942
gi	-10.1942
▁மகிழ்ந்த	-10.1945
ிலிருந்தே	-10.1949
விர	-10.1956
▁அவளுடைய	-10.1959
▁மற்றவர்களை	-10.1964
▁அவ்	-10.1965
nk	-10.1971
சில்	-10.1972
▁காட்டிய	-10.1974
▁மாதங்கள்	-10.1977
▁பூனை	-10.1978
CE	-10.1982
▁பண்பு	-10.1983
▁காணவில்லை	-10.1984
▁அர்த்த	-10.1987
pl	-10.1988
▁பெருக்க	-10.1989
திலிருந்து	-10.1997
▁தடுத்து	-10.1999
▁வெள்ள	-10.2003
▁பெரி	-10.2006
▁உதய	-10.2008
▁நம்மால்	-10.2009
▁ஊக்க	-10.2011
▁கல்யாண	-10.2013
சங்க	-10.2016
ics	-10.2017
▁36	-10.2018
▁பேரு	-10.2018
▁இணையதள	-10.2021
▁1000	-10.2028
▁மரணத்தை	-10.203
ba	-10.2035
▁டிவி	-10.2037
▁திமுக	-10.2039
▁உலகை	-10.2044
▁தேடும்	-10.2044
▁தாமத	-10.2055
நகர	-10.2056
▁கார	-10.2058
▁Lo	-10.2061
பெற்ற	-10.2062
▁ஆங்கிலம்	-10.2063
▁பேசுவது	-10.2066
▁முயற்சிக்க	-10.2066
▁சிக்கல்	-10.2071
ps	-10.2073
che	-10.2074
கிரி	-10.2078
▁ஊழியர்கள்	-10.2078
ப்பாளர்	-10.2087
▁அப்படித்தான்	-10.2091
▁கூறுங்கள்	-10.2094
ற்கு	-10.2097
▁கெடு	-10.2102
▁எழுதப்பட்ட	-10.2103
ET	-10.2105
▁எழுது	-10.2106
▁ஏராளமான	-10.2111
▁இன்றி	-10.2114
▁சந்தித்து	-10.2115
▁அவர்கள	-10.2119
இன்	-10.2119
▁அருகே	-10.2124
▁முஃமின்	-10.2128
▁சாமி	-10.2132
▁இருந்தான்	-10.2136
▁தட்ட	-10.2147
▁j	-10.2149
▁மதிய	-10.215
▁இருக்கா	-10.2154
▁குழாய்	-10.2158
▁சிங்கள	-10.2158
cl	-10.2161
▁முயல	-10.2162
பட்டு	-10.2164
▁நூல	-10.2169
▁புகார்	-10.217
form	-10.2173
75	-10.2173
▁உடலை	-10.2174
▁உள்ளிட்ட	-10.2177
▁விரும்புகிறார்	-10.2177
▁En	-10.2178
▁போவதில்லை	-10.2179
▁மனிதனுக்கு	-10.2179
▁கிடை	-10.2186
த்திரி	-10.2186
▁கிரி	-10.2186
▁இரட்டை	-10.2186
▁அருந்த	-10.2188
▁சான்றிதழ்	-10.2188
அல்லது	-10.2188
▁அத்தியாய	-10.2189
word	-10.2191
▁ஸ்வ	-10.2192
▁THE	-10.2192
log	-10.2192
▁மெதுவாக	-10.2193
▁ரூபாய்	-10.2197
▁Read	-10.2197
▁கோவில்	-10.2197
dy	-10.2198
▁எங்களிடம்	-10.22
ki	-10.22
▁ஏப்ரல்	-10.2202
▁தோல்	-10.2204
▁தொடர்பாக	-10.2205
▁அதிகபட்ச	-10.2208
▁வயதான	-10.2213
▁செய்தார்கள்	-10.2218
▁பிரதான	-10.2219
▁கூர்	-10.2221
▁முஸ்லீம்	-10.2222
▁சந்திரன்	-10.2228
mon	-10.2229
ING	-10.2233
▁கேட்கிற	-10.2236
▁வளர்	-10.2239
▁It	-10.2241
▁படைத்தான்	-10.2241
▁மகிமை	-10.2243
ாதது	-10.2245
▁ரெண்டு	-10.2246
City	-10.2248
▁விவகார	-10.2249
ாதீர்	-10.2252
▁வது	-10.2256
78	-10.2258
▁இருந்தோம்	-10.2259
▁என்றேன்	-10.2261
▁வெட்டி	-10.2262
▁முதலாவது	-10.2264
▁ஐக்கிய	-10.2266
▁மேக	-10.2274
▁வெடி	-10.2274
▁புகைப்பட	-10.2275
▁அருக	-10.2279
▁அபிவிருத்தி	-10.2287
▁நாட்களாக	-10.2291
42	-10.2294
▁ஆளு	-10.2298
▁பரிந்துரை	-10.2304
▁விமானம்	-10.2306
▁இடைவெளி	-10.2312
பேசி	-10.2314
▁வாசனை	-10.2314
ن	-10.2315
▁ஒற்றுமை	-10.2318
போக	-10.232
▁வெளிவந்த	-10.2322
▁does	-10.2323
▁என்பவர்	-10.2324
vers	-10.2324
▁நொ	-10.2328
ப்போன	-10.2329
▁ஒன்	-10.2333
▁மேற்கொள்ள	-10.2335
னாய்	-10.2339
▁முட்டாள்	-10.2341
ய்யா	-10.2342
த்தீ	-10.235
நாயக	-10.2351
மென	-10.2353
ise	-10.2356
▁ப்ள	-10.236
தனால்	-10.2362
லெ	-10.2363
▁சும்மா	-10.2364
▁45	-10.2364
▁சத்ய	-10.2367
▁அவரால்	-10.2369
த்தனர்	-10.2375
▁உண்ட	-10.2377
▁குர்ஆன்	-10.238
▁சந்தேகம்	-10.2382
▁கேள்விக்கு	-10.2387
▁ஆலய	-10.2389
▁காண்பிக்க	-10.239
ிக்கொண்ட	-10.2395
▁வருகிறார்கள்	-10.2406
என	-10.2408
▁http	-10.2415
▁தரமான	-10.2419
oc	-10.2419
▁டிசம்பர்	-10.2422
▁யோக	-10.2428
▁நிச்சய	-10.2432
▁வெட்ட	-10.2435
▁துவக்க	-10.2436
▁என்னோட	-10.2441
41	-10.2442
▁குவி	-10.2442
▁கிலோ	-10.2443
cu	-10.2445
வருடைய	-10.2446
▁உள்ளதா	-10.2448
▁love	-10.245
▁ஏறி	-10.245
என்ற	-10.2453
▁இடையில்	-10.2453
po	-10.2454
▁குழந்தைக்கு	-10.2457
▁லாப	-10.2458
▁அச்சிட	-10.2463
பூமி	-10.2463
ef	-10.2465
ிற்கும்	-10.2467
▁விளைவுகள்	-10.2471
▁இல்லாவிட்டால்	-10.2475
ாலோ	-10.2476
▁தீர்மான	-10.2485
▁அகல	-10.2489
▁அழிந்து	-10.2489
▁மருத்துவமனை	-10.2494
▁விட்டான்	-10.2496
்ரீ	-10.2497
▁ஒட்ட	-10.2502
▁அளவை	-10.2503
▁ஆடு	-10.2503
▁இழுத்து	-10.2505
▁ஸலா	-10.2505
யெ	-10.2507
ிருக்கிறீர்கள்	-10.2512
▁Bi	-10.2513
▁மருந்த	-10.2517
row	-10.2518
▁pre	-10.2521
உங்கள	-10.2521
▁கோயில்	-10.2524
▁know	-10.2528
▁ரஜினி	-10.2529
ID	-10.2531
▁பலரும்	-10.2531
▁அடித்து	-10.2531
▁உன்னுடைய	-10.2532
AS	-10.2534
▁என்கிறார்கள்	-10.2536
▁கூடுதலாக	-10.2539
▁இடத்தைப்	-10.254
▁நண்பர	-10.2541
நம்பிக்கை	-10.2545
tain	-10.2545
▁என்பார்கள்	-10.2547
▁குறிக்க	-10.2556
ள்ளே	-10.2561
▁அபூ	-10.2562
ச்சல்	-10.2562
▁பிரச்சினைகள்	-10.2565
▁கிடைக்கவில்லை	-10.2566
▁கூறுகிறது	-10.2566
▁cl	-10.2571
▁இதற்கான	-10.2571
நன்றி	-10.2574
▁லைட்	-10.2574
ப்படுகிற	-10.258
ிடும்	-10.2582
ஸில்	-10.2583
▁அக்கறை	-10.2585
ture	-10.2587
▁மனிதனின்	-10.2597
ப்பட்டனர்	-10.2603
▁ஏது	-10.2604
▁புத்தகங்கள்	-10.2604
▁நிர்வாக	-10.2604
▁விநியோக	-10.2605
▁மாணவ	-10.2607
▁கிட்டத்தட்ட	-10.2608
▁ரஷ்யா	-10.2609
▁ஆல்	-10.2614
▁ஆர்வம்	-10.2616
▁ஆய்வ	-10.262
▁விடுவார்கள்	-10.2621
▁இப்படித்தான்	-10.2625
ிடமே	-10.2626
யிருந்தது	-10.263
▁இஸ்ரவேல	-10.2631
▁சொன்னா	-10.2632
▁பயணி	-10.2632
▁கொடுக்கும்	-10.2632
://	-10.2633
▁அவற்ற	-10.2635
ven	-10.2635
92	-10.2636
▁அறிஞர்	-10.2637
▁சாக	-10.264
▁சான்று	-10.2642
for	-10.2646
▁பாணி	-10.2649
▁கோண	-10.2653
UN	-10.2655
ற்றை	-10.2657
▁பயங்கர	-10.2657
▁கேட்கும்	-10.266
▁தந்தையின்	-10.2668
▁புரியும்	-10.2671
▁யோசிக்க	-10.2673
▁குறைந்தது	-10.2677
▁காய்	-10.2679
its	-10.268
▁இஸ்	-10.268
▁தேவதை	-10.2683
▁பாடு	-10.2685
▁படுக்கை	-10.269
மாற	-10.2692
▁செலவிட	-10.2694
விட்டார்கள்	-10.2695
▁ஒருவருக்கு	-10.2698
▁நாட்டை	-10.2699
▁யுத்த	-10.2707
▁தோன்றும்	-10.271
▁மறுப்ப	-10.2712
▁Post	-10.2712
▁இம்ம	-10.2713
▁கூட்டணி	-10.2715
arch	-10.2717
▁வில்ல	-10.2719
cy	-10.272
▁புகை	-10.2724
▁இரகசிய	-10.2726
▁பதிப்ப	-10.2729
ook	-10.2731
▁கடத்த	-10.2732
▁எளிதானது	-10.2732
▁குழந்தையின்	-10.2734
▁விழு	-10.2737
▁பல்ல	-10.2739
▁70	-10.2743
▁நோக்கம்	-10.2744
▁ஆகியவற்ற	-10.2744
▁கட்டணம்	-10.2745
▁100%	-10.275
▁வாங்கிய	-10.2755
▁பெய்	-10.2758
உலக	-10.2758
▁என்றார்கள்	-10.2761
▁சொல்கிறார்	-10.2763
கரமான	-10.2773
ங்களுக்கும்	-10.2773
▁பரிமாற்ற	-10.2774
▁சத்தியமா	-10.2777
▁பாட்டி	-10.2787
▁80	-10.2789
▁நபர	-10.2789
AM	-10.279
▁இலவசமாக	-10.2791
▁எதிர்க்க	-10.2792
▁New	-10.2801
கிறார்கள்	-10.2802
வியல்	-10.2803
ative	-10.2804
▁IN	-10.2805
▁2008	-10.2806
rr	-10.281
▁வேண்டுமானாலும்	-10.281
▁நம்மிடம்	-10.2811
▁வெள்ளி	-10.2812
▁விரோத	-10.2813
▁காரியம்	-10.2813
dge	-10.2816
▁பொறி	-10.282
▁செய்வார்கள்	-10.2824
In	-10.2825
▁சோக	-10.2826
93	-10.2828
▁ராசி	-10.2831
▁செய்வேன்	-10.2833
▁அப்துல்	-10.2835
▁சுத்தம்	-10.284
‘	-10.2841
ுவாயாக	-10.2841
▁கவனித்து	-10.2841
▁என்னவோ	-10.2842
▁ஆசிரியர்கள்	-10.2844
களில	-10.2845
▁அதிலிருந்து	-10.2848
▁CO	-10.2849
▁இருக்கின்றனர்	-10.285
▁வெளிப்படையாக	-10.2851
ld	-10.2855
▁எதற்காக	-10.2859
▁மனோ	-10.286
▁டிரா	-10.2861
▁எழுத்துக்கள	-10.2863
OS	-10.2865
▁அனுபவித்த	-10.2869
▁வழக்கமான	-10.2873
73	-10.2878
▁கும்ப	-10.288
▁உயிரிழந்த	-10.288
த்துவம்	-10.2885
▁கூறுகிறான்	-10.2886
போய்	-10.2888
ப்பதை	-10.2892
க்குழு	-10.2892
▁கூறியதாவது	-10.2893
▁article	-10.2894
னான	-10.2896
▁தங்களுடைய	-10.2896
வேண்டாம்	-10.2896
▁வாக்க	-10.2902
▁தேடல்	-10.2903
51	-10.2905
▁கிடக்க	-10.291
nu	-10.2912
▁has	-10.2915
▁இருக்கவில்லை	-10.2915
▁One	-10.2915
▁செயல்களை	-10.2921
▁பின்னணி	-10.2921
▁நக	-10.2929
AD	-10.2931
▁சர்வ	-10.294
▁app	-10.2943
▁ஒப்பந்த	-10.2944
▁World	-10.2946
▁மறைந்த	-10.2952
இப்போது	-10.2954
▁உள்ளார்	-10.2954
vel	-10.2955
az	-10.2956
▁Q	-10.2957
▁அறிவை	-10.2958
▁செயலி	-10.2959
▁முடிவை	-10.296
▁33	-10.2962
▁கொண்டிருக்கும்	-10.2964
▁கண்டி	-10.2965
▁ஸ்டா	-10.2965
▁தயங்க	-10.2966
▁கப்பல்	-10.2966
▁சமூகம்	-10.2971
▁சூழல்	-10.2972
ுபவன்	-10.2974
காட்டி	-10.2977
ful	-10.2981
▁பிரகாச	-10.2981
aw	-10.2982
ya	-10.2982
▁500	-10.2983
▁ஃபி	-10.2985
▁முந்தி	-10.2987
ever	-10.2988
▁முன்னேற	-10.2988
▁வரவேற்க	-10.2989
▁சமீபத்திய	-10.3
▁தோன்றுகிறது	-10.3
▁அக்டோபர்	-10.3002
▁என்னையும்	-10.3004
யளிக்க	-10.3004
dd	-10.3016
▁வினை	-10.3018
▁நியாயம்	-10.3019
▁நிற்ப	-10.3021
க்கொண்டிருந்த	-10.3027
▁சுட்டி	-10.3027
▁நாடி	-10.3028
▁Ba	-10.3028
▁அதிலும்	-10.303
▁உண்மைதான்	-10.3032
▁தெளி	-10.3033
▁li	-10.3038
eng	-10.3038
ration	-10.3039
க்கொள்கிற	-10.3042
▁மீட்க	-10.3052
:17	-10.3053
▁per	-10.3055
▁ஜனநாயக	-10.3055
vo	-10.3055
▁IS	-10.3055
mer	-10.3059
ிருப்பதை	-10.3062
▁பாக்கிய	-10.3063
▁பாய்	-10.3068
▁இருப்பேன்	-10.307
▁வகுப்ப	-10.3074
▁பரிசோதனை	-10.3081
▁முன்னணி	-10.3085
▁திட்டத்தை	-10.3088
▁வணக்கம்	-10.3089
▁ஆன்மா	-10.3089
gen	-10.3092
cial	-10.3103
ீஸ்	-10.3105
▁வெளியான	-10.3108
▁எதிர்த்து	-10.3115
▁கொண்டால்	-10.3115
மாட்டீர்	-10.3117
▁சிறப்ப	-10.312
▁சந்ததி	-10.3121
ூரில்	-10.3123
மறை	-10.3126
orn	-10.3127
▁தொழ	-10.3129
▁நிபுணர்	-10.313
விதமான	-10.313
▁world	-10.313
▁பிரதேச	-10.3131
▁ஒவ்வொருவரும்	-10.3134
க்கள	-10.3136
▁read	-10.3138
:13	-10.314
க்குள்ள	-10.3142
ka	-10.3142
▁சரண	-10.3144
▁பொறுத்த	-10.3146
விட்டான்	-10.3146
▁ட்ர	-10.3153
▁துக்க	-10.3154
▁நன்மைகள்	-10.3157
▁கட்டுப்பாடு	-10.3158
▁பொறுத்து	-10.3163
▁அமர்ந்த	-10.3166
▁அவைகளை	-10.3166
▁OF	-10.3176
▁வேகம்	-10.3176
tu	-10.3181
▁கூறினர்	-10.3187
▁முக்கியமாக	-10.3194
ியிருக்கிறார்	-10.3198
▁ஹை	-10.3203
▁``	-10.3204
ப்பாட	-10.321
▁நேர்மையான	-10.3213
▁காணும்	-10.3215
▁நகரம்	-10.3217
▁வட்டி	-10.3218
▁வழக்கம்	-10.322
னெ	-10.3223
ov	-10.3225
▁ஏர்	-10.3226
61	-10.3226
▁நம்பிய	-10.3236
▁கர்த்தர	-10.3236
▁உருவான	-10.3238
▁தேவைப்படும்	-10.324
▁வால்	-10.3247
▁உண்மையா	-10.3247
தமிழ	-10.325
▁சார	-10.325
▁எளிமையான	-10.3252
▁நாளாக	-10.3252
▁Mar	-10.3252
ning	-10.3254
றிந்த	-10.3257
▁பதிவுகளை	-10.3269
▁முக்கியமானது	-10.3271
ari	-10.3273
▁வீடுகள்	-10.3274
▁மதிப்பீடு	-10.3277
ney	-10.3279
அவ்	-10.3283
▁வாசிப்ப	-10.3286
சொல்	-10.329
▁நிறைவு	-10.3291
▁பிசி	-10.3291
▁தொழுகை	-10.3301
▁பிரிக்க	-10.3302
▁தூங்கி	-10.3306
▁தமிழகத்தில்	-10.3311
74	-10.3312
▁நதி	-10.3313
▁Qu	-10.3313
▁முடிவுக்கு	-10.3313
▁இழை	-10.3314
▁இலங்கையில்	-10.3317
▁தவறி	-10.3319
▁முகாம	-10.332
▁மோத	-10.332
▁இதுபோன்ற	-10.332
▁அழுத்தம்	-10.332
▁செஞ்ச	-10.3322
▁என்பதற்கு	-10.3325
▁வெண்	-10.3328
த்திரை	-10.3328
mit	-10.333
றிவு	-10.3331
பூர்	-10.3332
▁வரைபடம்	-10.3337
▁எடுக்கும்	-10.334
▁இதுகுறித்து	-10.3347
tro	-10.3349
▁கழுவ	-10.336
▁தவறுகளை	-10.3363
ந்தால்	-10.3364
▁தோன்றியது	-10.3366
▁உறுதியான	-10.3367
▁சுட	-10.3371
பரி	-10.3372
▁எல்லாப்	-10.3374
▁முடிவில்	-10.338
▁சென்னையில்	-10.3382
▁அளவிற்கு	-10.3387
▁சொன்னார்கள்	-10.3388
க்கொண்டே	-10.3389
▁கிடைப்ப	-10.339
ப்பதில்லை	-10.3393
▁ஹே	-10.3396
வந்து	-10.3396
▁அடித்த	-10.3397
▁தானா	-10.3399
▁பதிவிறக்கம்	-10.34
▁மணிநேர	-10.3401
▁கிடைக்கிறது	-10.3405
▁மதுரை	-10.341
னாகவும்	-10.3416
79	-10.3424
▁வைத்திருப்ப	-10.3424
62	-10.3425
▁சென்	-10.3425
ome	-10.3427
▁நியூ	-10.3429
:11	-10.343
ுவோர்	-10.343
▁Wi	-10.3435
ிருங்கள்	-10.3439
ப்படுத்தும்	-10.344
63	-10.344
par	-10.3441
▁வந்திருக்க	-10.3442
▁செய்யாத	-10.3444
▁உதவியாக	-10.3445
▁கண்ணீர்	-10.3453
▁ஒழுங்க	-10.3454
▁அழித்த	-10.3455
▁விட்டார்கள்	-10.3457
▁தற்	-10.3457
▁மர்ம	-10.3458
▁தாவர	-10.3458
தொரு	-10.3458
▁காவல்	-10.3459
ock	-10.3459
82	-10.3464
▁கட்டண	-10.3464
▁ரசித்த	-10.3468
▁உணர்த்த	-10.3475
▁மாதங்களுக்கு	-10.3476
net	-10.3479
▁பெற்றோர	-10.348
▁காட்டும்	-10.3485
▁அதிகரித்த	-10.3486
▁சமய	-10.3487
▁ஆதரிக்க	-10.3487
▁நிறம்	-10.3489
ாமலும்	-10.3489
▁ஊழியர்	-10.3495
▁போன்	-10.3497
▁39	-10.3501
▁அநியாய	-10.3503
▁வளர்க்க	-10.3505
▁உதாரண	-10.3508
நேரம்	-10.3509
Comment	-10.3509
▁பாரதி	-10.3509
▁படைக்கப்பட்ட	-10.3516
▁sc	-10.3517
மூலம்	-10.3518
ding	-10.3518
▁வாழ்கிற	-10.3525
▁மனது	-10.3527
ஆஆஆஆஆஆஆஆஆஆஆஆஆஆ	-10.3528
இன்று	-10.3528
▁உண்டாகும்	-10.3531
▁தப்ப	-10.3533
விலிருந்து	-10.3533
▁வலியுறுத்த	-10.3538
rain	-10.3539
▁இனிமேல்	-10.3539
▁கதி	-10.354
▁கொண்டுவர	-10.3541
▁பாக்க	-10.3543
▁வித்தியாச	-10.3543
?’’	-10.355
▁வாடகை	-10.3551
▁வெப்பநிலை	-10.3551
மனிதர்	-10.3551
ations	-10.3552
▁போக்குவரத்து	-10.3553
▁ஏக	-10.3554
▁பயந்த	-10.3555
▁Pre	-10.3556
அப்பா	-10.3563
▁கண்ணிய	-10.3564
▁சம்பள	-10.3571
ஃபா	-10.3573
ries	-10.3574
▁மூச்சு	-10.3581
▁பூமிக்கு	-10.3583
▁முதலிய	-10.3586
optional	-10.3588
▁ஆராய	-10.359
▁விஜய	-10.3591
▁தூரம்	-10.3601
▁ரஹ்மான	-10.3601
▁அப்போதுதான்	-10.3601
▁கொண்டுள்ளது	-10.3609
ving	-10.3612
ஞான	-10.3614
▁கண்டேன்	-10.3614
விட்டனர்	-10.3617
▁பெற்றது	-10.3617
▁கோப்பை	-10.3617
க்காரன்	-10.3622
▁அறிவேன்	-10.3624
▁போன்றவை	-10.3626
▁ராணுவ	-10.363
▁புத்தி	-10.3631
ுள்ளதாக	-10.3634
▁34	-10.3635
fin	-10.3636
▁நேச	-10.3637
▁போவது	-10.364
▁ரன்	-10.3642
▁அப்படியானால்	-10.3642
▁செயல்முறை	-10.3644
குறி	-10.3645
வானாக	-10.3646
▁பயன்பட	-10.3646
▁சுமை	-10.365
▁தந்தையை	-10.3653
▁உறுப்பு	-10.3655
▁நிம்மதி	-10.3658
▁முறி	-10.3664
▁இடங்கள்	-10.3664
நாள	-10.3665
என்றும்	-10.3667
▁யூதர்	-10.3667
▁விடுகிறது	-10.367
▁செய்தாலும்	-10.3671
▁Bu	-10.3672
▁போற்ற	-10.3678
▁other	-10.3685
▁சுற்ற	-10.3686
களாகவும்	-10.3687
▁நிறைவ	-10.3691
▁வலைப்பதிவ	-10.3694
unt	-10.3698
▁எதிர	-10.3698
▁பெற்றுக்	-10.37
ண்மை	-10.37
5%	-10.3701
ED	-10.3702
less	-10.3702
▁வலுவான	-10.3702
ator	-10.3708
▁இறைவனே	-10.3709
▁கையேடு	-10.371
▁இணைந்த	-10.371
▁வரலாற்று	-10.3713
▁நெருங்க	-10.3715
▁இருந்திருந்தால்	-10.3716
▁வெற்றியை	-10.3717
ின்றார்	-10.3721
84	-10.3722
▁மறுத்து	-10.3723
▁விதமான	-10.3724
▁கண்களில்	-10.3725
வற்றையும்	-10.3727
▁கூறுகையில்	-10.3728
▁பார்க்கிற	-10.3728
▁ஷைத்தான	-10.373
▁பாராட்டு	-10.373
▁தட்டு	-10.3734
▁நிலைக்கு	-10.3736
▁சமயத்தில்	-10.374
▁குடிக்க	-10.374
▁சிறுகதை	-10.3741
att	-10.3745
▁உருவாக்கிய	-10.3746
▁பிப்ரவரி	-10.3748
83	-10.3749
▁எட்ட	-10.375
▁நேசிப்ப	-10.3753
▁அதன்பின்	-10.3754
▁தகவலை	-10.3761
▁சப்ளையர்கள்	-10.3761
ME	-10.3764
▁காற்ற	-10.3765
▁காட்சிகள்	-10.3767
▁எலி	-10.377
▁நகைச்சுவை	-10.3774
▁துல்லிய	-10.3777
▁புரட்சி	-10.3778
ப்படலாம்	-10.3779
▁செப்டம்பர்	-10.3782
▁எந்தவொரு	-10.3787
▁தேவனுடைய	-10.3788
தாகவே	-10.379
▁சேத	-10.3791
▁கர்ப்ப	-10.3794
▁ஏற்றுக்கொள்ள	-10.3795
▁ஏனைய	-10.3797
LO	-10.3798
▁பதிவர்	-10.3802
▁மதிக்க	-10.3803
▁கலவை	-10.3808
100	-10.3809
▁பந்து	-10.3809
▁கருவிகள்	-10.3814
▁வகைகள்	-10.3828
▁மறைத்து	-10.383
▁தெளிவு	-10.3832
▁கடி	-10.3832
கையில்	-10.3832
pos	-10.3835
:12	-10.3835
நெ	-10.3836
▁Ne	-10.3837
▁அநியாயம்	-10.3838
▁Dr	-10.3839
▁மறைந்து	-10.3841
▁சாப்பிட்ட	-10.3843
▁இழிவு	-10.3844
மட்டும	-10.3849
press	-10.3867
▁கல்ல	-10.3867
▁இதெல்லாம்	-10.3867
▁நிரல	-10.387
ner	-10.387
▁பார்வையில்	-10.3872
▁போனால்	-10.3881
▁Ha	-10.3881
▁சேர்த்த	-10.3883
▁தீவு	-10.3883
▁திராவிட	-10.3885
கண்ட	-10.3885
ுள்ளான்	-10.3885
▁உயிரின	-10.3892
▁சேர்ந்தவர்	-10.3892
▁நை	-10.3898
ுகையில்	-10.3899
▁அரங்க	-10.3899
▁தெரிவித்துள்ளார	-10.3901
▁அதிமுக	-10.3901
▁கடைசியாக	-10.3905
▁மனிதர்களுக்கு	-10.3908
▁கதவை	-10.3911
▁விகிதம்	-10.3912
▁see	-10.3918
▁கடும்	-10.3924
▁கொண்டேன்	-10.3929
மீன்	-10.3931
▁பிரதிநிதி	-10.3932
பான	-10.3932
காலத்தில்	-10.3933
▁கலந்த	-10.3937
▁out	-10.3943
▁தூய்மை	-10.3949
▁மக்களிடம்	-10.3952
▁யாத	-10.3954
▁மன்ற	-10.3957
நாட்டு	-10.3961
▁விகித	-10.3961
த்துக்கும்	-10.3962
▁அறிவோம்	-10.3963
▁ஆன்மீக	-10.3963
களிடையே	-10.3964
▁கவர்ந்த	-10.3964
ோமே	-10.3965
▁குட்டி	-10.3971
ிற்காக	-10.3974
ப்பார்கள்	-10.3976
▁பாட்டு	-10.3976
ஜர்	-10.3977
▁சுத்த	-10.3979
▁அழிவ	-10.3979
▁கடவுளே	-10.398
ங்களோ	-10.3982
ின்றார்கள்	-10.3984
யின்றி	-10.3984
▁பெரிதும்	-10.3998
▁விளையாடி	-10.3998
க்கட்ட	-10.4005
▁இழி	-10.4008
▁சாந்தி	-10.4009
சம	-10.4011
▁நெடு	-10.4013
▁App	-10.4015
har	-10.402
▁Or	-10.4021
▁good	-10.4023
▁உன்னிடம்	-10.4026
▁விளைவாக	-10.4026
▁LED	-10.403
வளை	-10.403
ருடன்	-10.4034
▁விளையாட்டுகள்	-10.4039
▁நன்	-10.4039
▁நெருங்கிய	-10.4043
▁சிறுமி	-10.4044
▁மிஸ்	-10.4046
▁குறுகிய	-10.4046
▁அவ்வாறே	-10.405
▁அதிசய	-10.4051
யாளர	-10.4054
▁வீண	-10.4057
81	-10.4059
▁வந்திருந்த	-10.4064
றாங்க	-10.4065
▁துளி	-10.4067
▁மௌன	-10.407
▁கருதி	-10.4072
▁Br	-10.4073
▁நடைபெறும்	-10.4078
▁பாபா	-10.408
பாட்டை	-10.408
ம்பர்	-10.4083
றாக	-10.4093
ஸின்	-10.4093
▁பார்க்கவும்	-10.4095
▁நீள	-10.4096
▁வந்தபோது	-10.4097
▁குழந்தைகளின்	-10.41
▁மரித்த	-10.4103
▁ஒன்னு	-10.4106
▁வணங்கி	-10.411
▁வரையில்	-10.411
▁புதை	-10.4111
▁வடிவம்	-10.4112
▁எழுதும்	-10.4112
▁வசூல	-10.4112
ுகிறதா	-10.4116
▁பெரியார்	-10.4119
ுகின்றோம்	-10.4119
▁காணப்படும்	-10.4128
▁2007	-10.4128
▁new	-10.4131
▁வெட்க	-10.4132
▁உருவாக்கப்பட்ட	-10.4133
tal	-10.4133
ுடனே	-10.4133
▁பக்தி	-10.4139
▁அபாய	-10.4139
மைக்கு	-10.4141
▁கேள	-10.4142
▁சமையல்	-10.4142
▁படிப்பு	-10.4143
▁தாக்குதல்	-10.4143
▁கொலையில்	-10.4144
▁அறையில்	-10.4145
▁நேசித்த	-10.4145
களாய்	-10.4148
▁பட்டியலில்	-10.4159
▁ஞானி	-10.4161
▁அலங்கார	-10.4161
▁பொருளை	-10.4162
▁சந்திப்பு	-10.4163
▁வழங்கி	-10.4164
▁Per	-10.4164
▁நலம்	-10.4167
wa	-10.4168
▁யாருடைய	-10.4172
out	-10.4177
▁பெற்றோர்கள்	-10.4189
▁மீண்டு	-10.4191
விடுங்கள்	-10.4193
▁vi	-10.4193
▁எங்கடை	-10.4196
வர்கள	-10.4196
▁நினைத்தால்	-10.4196
▁வேறொரு	-10.4198
▁தினசரி	-10.4203
▁வைத்தது	-10.4211
▁ho	-10.4214
▁நாலு	-10.4217
▁மேற்கு	-10.422
▁ஸ்த	-10.4221
ox	-10.4228
▁பஸ்	-10.4229
▁பெரும்பான்மை	-10.4229
▁தவிர்த்து	-10.423
▁கூப்பிட்ட	-10.4231
▁அடைந்து	-10.4236
▁கடு	-10.4239
க்ஸி	-10.4239
சனம்	-10.4244
▁வலு	-10.4252
ple	-10.4253
EL	-10.4253
ச்செய்	-10.4254
யாவற்றையும்	-10.4254
ிருந்தன	-10.4254
▁பெறுவது	-10.4254
ளின்	-10.4258
ஜன	-10.4259
▁காண்கிற	-10.4266
VE	-10.4271
▁கைகளில்	-10.4275
▁வாழ்க	-10.4278
விடுகிறது	-10.4279
▁மொத்தம்	-10.4281
சர	-10.4282
▁அமெரிக்காவின்	-10.4283
▁ال	-10.4286
படுத்தி	-10.4287
▁காரணி	-10.4292
வாதம்	-10.4293
▁இயல்பு	-10.4297
ச்செ	-10.4299
app	-10.43
▁காத்து	-10.4303
▁அவைகள்	-10.4304
▁தேர்ந்தெடு	-10.4305
▁தேர்தலில்	-10.4306
▁வேட	-10.4306
வரிசை	-10.4309
▁நினைவுக்கு	-10.4311
▁எட்டு	-10.4311
▁விசுவாச	-10.4311
▁காட்டுகிறது	-10.4315
▁பாகிஸ்தான	-10.4319
உம்	-10.4321
▁தொடங்கியது	-10.4322
ுக்களை	-10.4324
▁அன்றைய	-10.433
▁நினைச்ச	-10.4338
▁any	-10.434
ிருந்தார்கள்	-10.4347
▁வந்தான்	-10.4349
▁அவ்வப்போது	-10.4355
ீர்களே	-10.4362
க்கிறார்	-10.4366
▁மறுத்த	-10.4367
▁37	-10.4368
▁தெரிவித்து	-10.4368
▁கொள்கையுடன்	-10.4368
▁வடி	-10.4369
யானால்	-10.4369
▁விதிமுறை	-10.4369
▁வல்லமை	-10.4373
▁வைப்பு	-10.4375
stan	-10.4376
▁பேசினார்களே	-10.4382
▁வளர்ந்து	-10.4385
▁மாட்டீர்கள்	-10.4385
▁பொருத்தமான	-10.4387
▁வரைய	-10.4388
▁புன்னகை	-10.4388
▁சேமிப்பு	-10.4388
ible	-10.439
▁கருணாநிதி	-10.4391
▁சந்ததியாரின்	-10.4391
▁பிளாஸ்டிக்	-10.4391
▁பற்ற	-10.4392
ினம்	-10.4393
▁ஆட்டோ	-10.4395
▁மோட்டார்	-10.4402
▁கிறிஸ்த்தவர்கள	-10.4409
▁சிறுவன்	-10.4412
▁நண்பர்களே	-10.4415
▁மாற்றத்தை	-10.4415
கர்கள்	-10.4421
▁பட்டு	-10.4422
▁பரிந்துரைக்க	-10.4428
▁குறைவான	-10.4428
வுண்ட	-10.4431
▁பகுதிகளில்	-10.4431
NA	-10.4431
ஞ்சா	-10.4433
▁பகுதியை	-10.4436
do	-10.4436
▁பிறக்க	-10.4437
▁வெளிவர	-10.4438
▁இறைவனிடமிருந்து	-10.4441
▁வாழ்த்த	-10.4441
▁our	-10.4441
▁வெளிபட்டா	-10.4443
uth	-10.4444
▁இதழ்	-10.4445
▁கவிதைகள்	-10.4448
mar	-10.4458
▁நடன	-10.4462
மாட்டா	-10.4466
▁make	-10.4469
han	-10.447
சிங்	-10.447
▁முன்னரே	-10.4472
▁லட்ச	-10.4473
ாதவர்கள்	-10.4475
rs	-10.448
ப்படுவீர்கள்	-10.4485
▁உதாரணம்	-10.4486
▁வந்தார்கள்	-10.4487
▁மாறும்	-10.449
▁போராட்டம்	-10.4492
▁வைத்தார்	-10.4492
▁பிறப்ப	-10.4493
▁அவனும்	-10.4494
▁விரிவான	-10.4496
▁தந்து	-10.4497
▁பாலியல்	-10.4501
கொடுத்த	-10.4503
▁கூட்டி	-10.4503
▁நுழை	-10.4505
▁பணிகள்	-10.4505
▁ஒன்றாகும்	-10.4506
▁மாதிரியான	-10.4506
▁நன்கறி	-10.451
ாதீங்க	-10.4511
▁நாயக	-10.4512
▁ஏவ	-10.4513
ரிப்பு	-10.4514
போன்ற	-10.4514
த்தார்கள்	-10.4514
ுடனான	-10.4517
▁வேண்டுமென்ற	-10.452
▁நிராகரித்த	-10.4529
emp	-10.4531
▁work	-10.4531
▁ro	-10.4533
ேஷ	-10.4536
தமிழ்	-10.4537
▁வெறி	-10.4537
▁மதி	-10.4545
▁பிரிந்து	-10.4546
▁சீடர்	-10.4549
▁கத்தி	-10.4553
▁பிணை	-10.4553
க்குறி	-10.4559
றுக்க	-10.456
action	-10.4563
ுலக	-10.4563
ஜே	-10.4564
64	-10.4567
நீங்க	-10.4567
▁முற்	-10.4572
▁செய்கிறார்	-10.4577
சேகர	-10.4578
ாயிற்று	-10.4582
▁சமூகத்தில்	-10.4582
▁குடு	-10.4583
விட்டோம்	-10.4586
▁எழுதியது	-10.4589
▁என்னவென்றால்	-10.4592
▁அகில	-10.4593
▁மீள்	-10.4593
cent	-10.4596
▁தெரிவ	-10.4596
▁எங்கிருந்து	-10.4596
▁தீவிரமாக	-10.4598
▁வேணும்	-10.46
▁than	-10.4601
▁எளிதில்	-10.4601
▁செயலை	-10.4605
▁பட்டி	-10.4606
▁கேள்விகளுக்கு	-10.4606
▁Tag	-10.4607
▁வித்தியாசமான	-10.461
ில்லாத	-10.4614
▁பழி	-10.4618
ிருப்பார்	-10.4619
▁வீதி	-10.4625
ாவிட்டாலும்	-10.4638
▁சொல்வார்கள்	-10.4638
டுங்க	-10.4639
▁கிளி	-10.4645
▁தீண்ட	-10.4646
▁செய்திகளை	-10.4646
ுவாங்க	-10.4647
▁இடி	-10.4652
lar	-10.4654
பிறகு	-10.4658
▁வெளிய	-10.466
▁அலுவலகம்	-10.4664
▁News	-10.4665
யிலுள்ள	-10.4666
▁விசி	-10.4668
▁சூதாட்ட	-10.4671
சமூகத்தார	-10.4672
▁புரிதல	-10.4672
lle	-10.4675
cle	-10.4675
மாவது	-10.4676
▁அசத்த	-10.4679
▁38	-10.4684
▁பொழி	-10.4685
ிருந்தான்	-10.469
▁நிராகரித்து	-10.4693
▁அதிகரிக்கும்	-10.4693
▁தெரிவு	-10.4697
பற்றி	-10.4701
▁பூஜை	-10.4703
und	-10.4706
▁நினைவூட்ட	-10.4707
▁குழப்பம்	-10.4707
தேர்தல	-10.4708
▁இளமை	-10.4709
▁உண்மையாகவே	-10.4709
▁வருமானம்	-10.4712
ுகின்றான்	-10.4717
▁எப்போதாவது	-10.4718
▁வரிசையில்	-10.4719
▁மார்ப	-10.4724
யிலை	-10.4726
▁வெல்ல	-10.4728
MS	-10.4729
▁உழைப்ப	-10.4729
▁உடம்ப	-10.4732
தென்று	-10.4732
▁விட்டனர்	-10.4733
▁தயாரித்த	-10.4734
▁விளையாட்ட	-10.4735
▁நடவடிக்கைகள்	-10.4737
▁மிருக	-10.4737
▁தேவைப்படுகிறது	-10.474
மென்று	-10.4741
ட்டோ	-10.4745
ிருந்தோம்	-10.4747
▁தகவல	-10.4753
▁உயிருடன்	-10.4756
▁தலைவராக	-10.4759
த்திலுள்ள	-10.4762
ருடைய	-10.4765
▁இனம்	-10.4769
▁பார்ப்பது	-10.4776
▁இயக்குனர்	-10.4779
▁Name	-10.478
▁நுழைவ	-10.4781
▁செய்தோம்	-10.4787
நாத	-10.4789
▁ஊற்ற	-10.479
▁பாதுகாவல	-10.48
ொழி	-10.4804
பண்ண	-10.4813
▁நினைவுகள்	-10.4815
▁உப்பு	-10.4817
▁அம்சங்கள்	-10.4823
▁மட்டும்தான்	-10.4824
▁சன்	-10.4825
▁சத்து	-10.4827
▁life	-10.483
விடலாம்	-10.4831
▁முடிவுகளை	-10.4831
-3	-10.4832
▁சொர்க்க	-10.4835
▁கலாச்சார	-10.4843
பகுதி	-10.4849
களாகவே	-10.485
▁குரல	-10.4851
ெரி	-10.4852
யாக்கி	-10.4855
▁குறைய	-10.486
▁ஆகியவை	-10.4861
▁சகோதரர்கள்	-10.4866
▁செய்யப்படும்	-10.4866
▁அமைத்த	-10.4867
▁ஊருக்கு	-10.4868
▁ஆற	-10.487
த்தாலும்	-10.4871
▁சுற்றுலா	-10.4877
ளுக்கு	-10.4878
யிட்டு	-10.4881
▁நெருங்கி	-10.4882
▁திரைப்படம்	-10.4882
▁மாய	-10.4882
▁வன	-10.4886
ஆக	-10.4888
▁மோசமாக	-10.489
ங்களிலிருந்து	-10.4892
▁வைத்திய	-10.4894
▁அழக	-10.4895
▁ஊசி	-10.4897
நாளை	-10.4901
▁சிங்க	-10.4902
▁உருவாக்கி	-10.4905
▁கொள்ளவில்லை	-10.4907
▁இன்றைக்கு	-10.491
▁பதிலை	-10.4911
▁அழிய	-10.4913
▁2000	-10.4913
▁மார்க்	-10.4913
▁பகுதியாக	-10.4914
Re	-10.4915
▁சென்றது	-10.492
▁வார்த்தைகளை	-10.4921
▁ஏற்படுத்தும்	-10.4924
▁நீக்கி	-10.4925
▁வழங்கப்பட்ட	-10.4933
▁உண்டாக	-10.4933
▁வேண்டியதில்லை	-10.4937
ட்டின்	-10.4944
வற்றின்	-10.4944
▁Gu	-10.4949
க்கிங்	-10.4951
க்காரர்கள்	-10.4953
▁தப்பு	-10.4954
▁நிர்வாகம்	-10.4955
▁அறிகிற	-10.4959
▁படைத்து	-10.4959
▁அவனைப்	-10.4967
இறைவன்	-10.4969
போதே	-10.4969
▁முஹம்மது	-10.4981
▁அரிய	-10.4982
▁பேரும்	-10.4984
▁இளைஞன	-10.4986
▁தீர்மானிக்க	-10.4989
▁அங்கிருந்து	-10.499
other	-10.4992
▁வேறெ	-10.4994
▁Go	-10.4996
▁கான்	-10.4996
▁விட்டுவிட	-10.4997
மாக்கி	-10.4998
\	-10.5
▁நன்மையை	-10.5002
ஊ	-10.5003
▁துரத்த	-10.5005
▁கணக்கில்	-10.5008
▁இல்லம்	-10.5009
▁உள்ளூர்	-10.5009
▁குடும்பத்தில்	-10.501
▁செயல்கள்	-10.5012
cer	-10.5021
▁வன்முறை	-10.5022
ய்ய	-10.5023
▁அப்பாவி	-10.5024
▁நிற்கிற	-10.5024
▁சவு	-10.5027
▁ஆதலால்	-10.5027
கடவுள்	-10.5028
▁குறைவு	-10.5033
ரிமை	-10.5033
பட்ச	-10.5034
▁கூறுகின்றனர்	-10.5036
நு	-10.5036
▁comment	-10.5038
▁கிழக்கு	-10.5038
ons	-10.5043
வ்வ்வ்வ்வ்வ்வ்	-10.5045
:14	-10.5048
▁ஈடு	-10.5049
▁வாழ்நாள்	-10.505
▁குறைந்தபட்ச	-10.5052
▁பற்	-10.5055
▁மறந்த	-10.5059
▁எழுதுவது	-10.5063
▁பறக்க	-10.5064
▁மக்களும்	-10.5067
▁தொடர்ந்த	-10.5083
▁மகன்கள்	-10.5083
யில்லாத	-10.5086
சாலி	-10.5099
▁சூரியனை	-10.5099
▁அநேக	-10.5099
▁பயனுள்ள	-10.51
▁பணக்கார	-10.5103
களுக்க	-10.5107
ப்பதிவு	-10.5109
ட்ரா	-10.511
▁வண்ணம்	-10.5111
▁நுகர	-10.5111
த்தினர்	-10.5111
▁வழிகளில்	-10.5112
மாட்டான்	-10.5114
▁பகல்	-10.5118
II	-10.5119
▁நிபந்தனை	-10.5119
▁பொருந்தும்	-10.512
▁பின்பற்றி	-10.5122
▁நேரான	-10.5123
dr	-10.5135
▁ஜாதக	-10.5137
▁விவரங்கள்	-10.514
▁அரசியல்வாதி	-10.5142
நட	-10.5147
ிருப்பீர்கள்	-10.5149
▁don	-10.5149
▁பேச்சை	-10.5151
சக்தி	-10.5153
விடுவார்	-10.5155
▁ஆசிரியர	-10.5157
▁இருக்கிறீர்கள்	-10.5158
▁Dis	-10.516
▁குறிப்ப	-10.5163
மில்லாத	-10.5164
RA	-10.5164
▁சாம்ப	-10.5164
▁கற்க	-10.5171
▁நெகிழ	-10.5174
▁போகலாம்	-10.5174
lay	-10.5176
▁எகிப்த	-10.518
▁வியப்ப	-10.5184
▁கேரள	-10.519
ினது	-10.5191
ுவீர்களா	-10.5191
▁நுட்ப	-10.5193
வீர்கள்	-10.5196
▁மேலாண்மை	-10.52
கிரா	-10.5205
ஸ்டா	-10.5215
den	-10.5219
▁ஒழுங்கு	-10.5222
த்தான	-10.5222
▁துளை	-10.5228
:19	-10.5229
▁வரலாம்	-10.5233
▁சகல	-10.5236
▁செய்தான்	-10.5237
▁கச	-10.5237
▁குறிச்சொற்கள்	-10.5239
▁மென்மையான	-10.5239
▁மாற்றங்களை	-10.5245
▁திரட்ட	-10.5246
த்தாள்	-10.525
ல்லவா	-10.5252
sta	-10.5257
▁ஸ்டீ	-10.5257
▁மாட்டா	-10.526
▁சேவையக	-10.526
ja	-10.526
▁பன்ன	-10.5264
யடைய	-10.5265
so	-10.5271
▁உத்தர	-10.5271
▁வேண்டுமானால்	-10.5272
▁ஆழ்ந்த	-10.5273
லூ	-10.5275
ship	-10.5281
ny	-10.5283
▁சதவீதம்	-10.5286
வராகவும்	-10.5289
▁மறுநாள்	-10.53
▁வளரும்	-10.5302
▁எழுத்த	-10.5305
▁அறிவார்	-10.5306
▁படித்தேன்	-10.5312
▁Your	-10.5317
▁சுவாமி	-10.5317
களுக்கே	-10.5323
▁மேலதிக	-10.5324
EM	-10.5325
▁நிர்ணய	-10.5326
▁இஸ்லாம்	-10.5328
▁ஊரில்	-10.533
▁வழிபாடு	-10.533
ans	-10.533
▁முழுமை	-10.5334
▁தயவுசெய்து	-10.5339
▁உணவக	-10.5339
▁பிரதம	-10.534
▁கொடுக்கப்பட்ட	-10.534
▁விடுதி	-10.534
▁வேறில்லை	-10.5343
▁பிளாக்	-10.5346
ik	-10.5347
▁கேள்விப்பட்ட	-10.535
▁சொல்கிறது	-10.5355
▁மின்ன	-10.5356
IP	-10.5362
▁மண்டல	-10.5364
▁மாடு	-10.5364
மாட்டார்	-10.5364
▁கலக்க	-10.5365
புர	-10.5367
▁மக்களே	-10.5369
ோமோ	-10.5371
▁தலையை	-10.5372
பொழுத	-10.5383
களாகிய	-10.5385
▁சதுர	-10.5385
▁நவ	-10.5385
▁விரிவாக	-10.5386
▁இடத்திற்கு	-10.539
▁வாரி	-10.5393
ிலிருந்த	-10.5393
▁முட்டை	-10.5395
ிருப்பேன்	-10.5397
பாக	-10.5401
▁பிரம	-10.5404
▁மையம்	-10.5405
▁விரல்	-10.5405
▁தயாரிப்ப	-10.5406
▁உயிரோடு	-10.5409
▁கேமரா	-10.5413
▁இஸ்ரவேல்	-10.5415
▁அறியாமை	-10.5418
▁இராம	-10.5419
▁கௌரவ	-10.5421
mail	-10.5423
▁அன்றாட	-10.5424
▁வரவேற்பு	-10.5425
▁பாரம்பரிய	-10.5427
▁குத்த	-10.5429
▁தசை	-10.543
▁ஜப்பான	-10.5432
▁கொடுங்கள்	-10.5434
▁படுத்து	-10.5434
org	-10.5436
▁நம்மில்	-10.5437
இவ்வாறு	-10.5442
▁ஆகியவற்றை	-10.5442
▁Ta	-10.5443
▁புரோ	-10.5447
ாளன்	-10.5447
▁லட்சம்	-10.545
▁சிரிக்க	-10.5453
▁ஒன்றே	-10.5453
▁திருவிழா	-10.5454
▁கட்டுரைகள்	-10.5456
▁ஒத்த	-10.5457
▁தெரியல	-10.5458
▁off	-10.5459
▁48	-10.5459
▁தீங்கு	-10.546
▁காசு	-10.5462
சத்திய	-10.5462
ாயிரம்	-10.5469
▁வழக்கில்	-10.547
▁பெருக	-10.547
▁எங்களது	-10.5472
▁சக்கர	-10.5473
fer	-10.5473
▁தவறை	-10.5474
▁பதிப்புரிமை	-10.5477
▁அச்சு	-10.5479
லாந்து	-10.5486
▁mi	-10.5488
ுபவர	-10.5493
▁கொன்று	-10.5499
▁சுத்தி	-10.5499
▁கொண்டிருந்தார்	-10.5503
▁வெறுக்க	-10.5504
▁நீடித்த	-10.5507
களுள்	-10.551
▁முடியல	-10.5513
முடியுமா	-10.5517
▁அஞ்சலி	-10.5524
▁நாடினால்	-10.5525
▁தரை	-10.5525
நாடு	-10.5527
CT	-10.5532
by	-10.5538
▁ஐஸ்	-10.5539
▁வழங்கப்பட்டது	-10.5542
▁டூ	-10.5542
▁நனை	-10.5542
நில	-10.5543
▁விவரிக்க	-10.5545
ப்பூ	-10.555
▁விசை	-10.5557
▁மறுமையில்	-10.5557
▁திட்டங்களை	-10.5559
▁இல்லாம	-10.5564
▁விட்டோம்	-10.5566
▁இல்லையென்றால்	-10.5571
▁நொடி	-10.5576
▁மரம்	-10.5576
▁தவறுகள்	-10.5579
▁மருத்துவமனையில்	-10.5583
▁வெளிநாட்டு	-10.5584
ுவதா	-10.5585
▁காப்புரிமை	-10.5585
▁bl	-10.5587
▁பிரித்து	-10.559
வாறே	-10.5591
▁சுட்ட	-10.5591
▁பண்ற	-10.5593
▁ஒருவராக	-10.5595
ls	-10.5596
▁போய்விட	-10.5598
▁செய்கிறான்	-10.56
குரு	-10.5602
▁என்பதற்காக	-10.5603
▁உலகளாவிய	-10.561
▁ஜீவன	-10.5614
▁:-)	-10.5616
▁இருந்திருக்கும்	-10.5619
▁பட்டியல	-10.5621
என்னுடைய	-10.5621
▁பிதா	-10.5625
▁அறிந்தவன்	-10.5626
▁2006	-10.5627
▁வறுமை	-10.5629
▁நபர்கள்	-10.563
▁கொள்ளை	-10.5633
மூட்ட	-10.5634
▁சூழ்ந்த	-10.5635
AP	-10.564
▁முன்னாடி	-10.5641
ward	-10.5646
யாளராக	-10.5646
▁நீளம்	-10.5647
ஷை	-10.5649
▁அமைத்து	-10.5649
னூ	-10.5652
க்கிட்டு	-10.5652
▁blog	-10.5653
▁அதிகரித்து	-10.5654
அம்மா	-10.5657
தென்ன	-10.5659
▁தங்கை	-10.5661
▁நூலக	-10.5664
ments	-10.5669
▁fe	-10.5671
▁பதிலளிக்க	-10.5671
▁நேர்வழியில்	-10.5674
▁சவால்	-10.5681
▁நெருக்கடி	-10.5688
▁ஒண்ணு	-10.569
▁உறங்க	-10.569
▁சிதற	-10.569
▁படிக்கும்	-10.5691
கண	-10.5694
▁ஐரோப்பா	-10.5694
கிழ	-10.5696
▁கேட்கவில்லை	-10.5699
▁அரசர்	-10.5701
▁ஒன்றில்	-10.5703
▁அச்சமூட்டி	-10.5704
▁கேள்விகளை	-10.5704
▁RE	-10.5707
▁எடு	-10.5707
விடுவார்கள்	-10.5707
▁உறவினர்கள்	-10.5707
▁சொல்கிறார்கள்	-10.5709
ுணர்வு	-10.5709
▁வழியே	-10.5717
முனை	-10.572
▁தேவி	-10.5721
த்துக்காக	-10.5721
▁விளையாட்டை	-10.573
▁வருகிறோம்	-10.5732
▁பரம	-10.5732
▁சனி	-10.5738
▁திருந்த	-10.5738
▁ஜெயலலிதா	-10.5739
▁இருந்தபோது	-10.5743
▁காணாமல்	-10.5744
ax	-10.5745
▁உறுப்பினர்கள்	-10.5745
▁இருக்கட்டும்	-10.5747
▁அடுக்கு	-10.5748
▁ஏற்பட்டு	-10.575
cri	-10.576
▁தாங்கி	-10.5767
▁பசு	-10.5769
ana	-10.577
▁யாருமே	-10.577
▁மஹா	-10.5771
நோய்	-10.5771
the	-10.5773
▁அப்படிப்பட்ட	-10.5776
▁விடலாம்	-10.5778
▁சிந்த	-10.578
வாதிகள்	-10.578
ாளா	-10.5783
▁படங்களில்	-10.5784
▁தேவையா	-10.5786
▁get	-10.579
:16	-10.5794
ானே	-10.5795
▁மகிழ	-10.58
▁Ab	-10.58
▁துண்ட	-10.5809
▁கேட்டான்	-10.5811
▁சுமந்த	-10.5811
▁Ju	-10.5813
▁கொள்வார்கள்	-10.5814
▁சிறையில்	-10.5816
▁அவர்களுக்காக	-10.5818
ze	-10.5822
▁கிர	-10.5827
யாவரையும்	-10.5834
▁வசனங்கள்	-10.5836
▁வானிலை	-10.5838
▁சிக்கி	-10.584
▁first	-10.584
ize	-10.5847
▁வழிநடத்த	-10.5847
▁அறிவுறுத்த	-10.5851
▁தளபதி	-10.5851
▁குறைந்து	-10.5852
▁நடத்திய	-10.5852
▁கண்டுபிடித்த	-10.5854
காண	-10.5857
▁ஆதாரம்	-10.5858
▁அப்துல்லாஹ்	-10.586
▁கலங்க	-10.5865
▁தலையில்	-10.5866
▁கணவன	-10.5866
▁அவளிடம்	-10.5868
▁கொள்கிறேன்	-10.5872
▁திற	-10.5874
qui	-10.5879
▁கிரே	-10.5881
▁பிடிப்ப	-10.5881
▁300	-10.5883
▁குர்	-10.5885
▁சொன்னதை	-10.5886
▁எனப்படும்	-10.5887
▁said	-10.5888
▁செய்கிறோம்	-10.5889
▁பேசுகிறார்	-10.5889
▁பில்	-10.5892
▁சதி	-10.5892
மடைய	-10.5894
▁சொல்வதை	-10.5894
▁ஏற்படுகிறது	-10.59
TS	-10.59
▁பேருந்து	-10.59
eas	-10.5903
▁Fe	-10.5907
▁சிவப்பு	-10.5913
:18	-10.5916
▁கிளம்ப	-10.5917
▁பாராளுமன்ற	-10.5917
ங	-10.5922
▁translation	-10.593
▁ஊழிய	-10.5931
▁கழக	-10.5932
▁புகைப்படம்	-10.5936
▁நிறுவனங்கள	-10.594
▁Gra	-10.5942
▁people	-10.5943
▁நரகம்	-10.5944
▁ஆஃப்	-10.5946
யோவான்	-10.5946
▁லிமிடெட்	-10.5947
▁செயற்	-10.5948
▁ஆகிவிட்ட	-10.5953
ொலி	-10.5957
▁சரித்திர	-10.5958
self	-10.5966
▁கருத்தில்	-10.5967
///	-10.5967
மிட்ட	-10.5969
▁உடற்பயிற்சி	-10.5969
▁திடீரென	-10.5976
:15	-10.5976
▁கூறவில்லை	-10.5977
தூதர்	-10.5979
ஃபிர்அவ்ன	-10.5982
நாட்டில்	-10.5983
▁சேவையை	-10.5984
▁there	-10.5987
▁கிரு	-10.5989
▁அமர்ந்து	-10.5994
குமார	-10.5996
▁Can	-10.5996
த்திற்குள்	-10.6001
▁கூட்டத்தார	-10.6008
▁எங்களுடன்	-10.601
▁நேராக	-10.6014
▁மரபு	-10.6016
மறுமை	-10.6017
லிங்	-10.6019
▁அவனைத்	-10.6019
ஜன்	-10.602
▁பிரச்சார	-10.6021
light	-10.6021
hu	-10.6022
ப்பணி	-10.6023
▁தீர்த்த	-10.6024
▁On	-10.6025
ிட்டேன்	-10.6026
IM	-10.6026
mber	-10.6027
▁இவற்ற	-10.6028
கடவு	-10.6035
▁வாழ்க்கையின்	-10.6035
▁வினா	-10.6037
▁கோடை	-10.6039
rac	-10.6041
▁இருக்கும்போது	-10.6042
▁மீதி	-10.6043
▁அமைப்புகள்	-10.6046
ஆமாம்	-10.6046
மடை	-10.6046
▁சம்பாதிக்க	-10.605
▁சித்திர	-10.6055
▁நிறை	-10.6055
▁கற்	-10.6056
▁இருக்கவேண்டும்	-10.6057
▁சாளர	-10.6058
▁பிடிக்காது	-10.6059
▁தருகிறது	-10.6062
tel	-10.6064
▁பரிதாப	-10.6066
▁வழக்கமாக	-10.6068
▁போட்டியில்	-10.6072
▁காரில்	-10.6073
வுலக	-10.6073
▁சந்தோஷமாக	-10.6074
▁பேருக்கு	-10.6074
▁செயல்பட்ட	-10.6077
▁உம்ம	-10.6078
▁வருடத்தில்	-10.6079
▁அவதார	-10.609
▁படைப்புகள்	-10.6096
ara	-10.6098
▁கொட்ட	-10.6102
▁கேட்பது	-10.6105
▁எதிர்ப்ப	-10.6108
▁பாவங்கள்	-10.6118
ring	-10.6123
யளித்த	-10.6124
▁விழுங்க	-10.6127
▁Time	-10.613
▁அதன்படி	-10.6138
ண்டோ	-10.6139
▁பத்திர	-10.6141
▁விளக்குகள்	-10.6142
▁அச்சுறுத்த	-10.6146
▁மனசு	-10.6148
▁வேர்ட்பிரஸ்	-10.6149
▁இயக்குநர்	-10.6153
முற்ற	-10.6154
▁செக்ஸ்	-10.6154
▁Web	-10.6156
▁மிரட்ட	-10.6161
▁இருப்பவர்கள்	-10.6163
▁போக்கு	-10.6166
IR	-10.6171
▁ஏரி	-10.6171
▁மயக்க	-10.6173
அன்ப	-10.6174
▁வளர்த்த	-10.6176
▁போர	-10.6178
நிதி	-10.6183
கிட்டே	-10.6186
▁TO	-10.6186
▁துரோக	-10.6199
சொல்ல	-10.6202
▁ஆமா	-10.6203
ப்பகுதியில்	-10.621
மக்கள்	-10.621
▁குறைபாடு	-10.6211
ப்படுத்திய	-10.6213
▁சென்றனர்	-10.6214
ப்படுவதில்லை	-10.6215
▁மாணவி	-10.6218
▁குர்ஆனை	-10.6224
▁வைக்கப்பட்ட	-10.6225
களு	-10.6226
▁இருந்தே	-10.623
ating	-10.623
▁This	-10.6231
▁குண்டு	-10.6232
▁முத்திரை	-10.6241
▁செயல்திறன்	-10.6242
நரக	-10.6244
புரம்	-10.6248
▁நற்செய்தி	-10.6248
▁கருதப்படுகிறது	-10.625
▁தட்டி	-10.6253
யியல்	-10.6259
▁உடன்படிக்கை	-10.6262
▁விட்டன	-10.6263
ality	-10.6265
▁டய	-10.6269
ருந்து	-10.627
▁இவ்வாறே	-10.6272
▁அழைத்தார்	-10.6273
▁குர்ஆன	-10.6277
▁கேள்வியை	-10.6282
▁கூடவே	-10.6283
▁வழக்கறிஞர்	-10.6285
▁கண்டது	-10.6285
▁கடின	-10.6285
bal	-10.6287
▁வருவதை	-10.6287
▁இருப்பதில்லை	-10.6291
▁பெண்களின்	-10.6293
▁மதிப்பிட	-10.6295
▁வந்தாலும்	-10.6295
▁யாவும்	-10.6298
▁07	-10.6301
▁ஆரம்பித்து	-10.6303
rate	-10.6303
▁செய்வார்	-10.6306
▁பங்களிப்ப	-10.6306
International	-10.6308
ஸீ	-10.631
▁ஆச்சர்ய	-10.6312
▁எந்தவித	-10.6312
▁மலிவான	-10.6315
▁பட்டது	-10.6318
▁கைப்பற்ற	-10.6319
-10	-10.6322
▁வந்தன	-10.6324
▁தற்கொலை	-10.6325
ாக்கள்	-10.6329
fect	-10.6334
▁முஸ்லிம்கள்	-10.634
▁அளவிலான	-10.6342
▁பிரச்சனைகள்	-10.6342
▁ஏற்றுமதி	-10.635
▁only	-10.6352
லோக	-10.6356
▁மறுமொழி	-10.6357
▁உலகத்தை	-10.6358
▁நிலையம்	-10.6359
▁இருந்ததில்லை	-10.6359
▁பெற்றார்	-10.6359
▁English	-10.6362
lot	-10.6363
▁தனியா	-10.6363
▁பாகங்கள்	-10.6367
▁ஆழமான	-10.637
ுவாள்	-10.6377
வல்ல	-10.6378
காரர்	-10.6379
த்தினர	-10.6379
▁உண்டாவதாக	-10.6386
▁பிறவி	-10.6386
▁புத்தகத்தை	-10.6386
▁பயங்கரவாத	-10.6388
▁கிடைத்து	-10.6389
▁கையெழுத்த	-10.6389
▁இப்படிப்பட்ட	-10.6391
ough	-10.6391
▁தூள்	-10.6395
▁இயலும்	-10.6396
▁கமல்	-10.6396
▁காண்க	-10.6399
▁ஒன்பது	-10.6399
▁இருப்பவர்	-10.6403
▁இருந்தாள்	-10.6408
ியுள்ளனர்	-10.6408
▁முக்கியத்துவம்	-10.6415
▁Comp	-10.6417
▁தோற்றம்	-10.6418
▁ஒழுக்க	-10.642
த்தொகை	-10.642
▁here	-10.6423
வற்றில்	-10.6425
▁நிழல்	-10.6429
IF	-10.643
▁உத்தரவாதம்	-10.6437
▁உள்ளவர்கள்	-10.6441
▁நாளுக்கு	-10.6444
▁விண்டோஸ்	-10.6447
▁உரையாடல்	-10.6455
▁இடம்பெற்ற	-10.6456
▁என்றென்றும்	-10.6464
▁புகுந்த	-10.6464
▁போதை	-10.6466
நம்ம	-10.6469
உங்களை	-10.6471
▁இறைத்தூதர்	-10.6474
▁மிச்ச	-10.6478
▁வசிக்க	-10.6479
▁ஊழல்	-10.6487
▁அவ்வளவுதான்	-10.6487
பூர்வமாக	-10.6487
▁மாபெரும்	-10.6488
▁பெண்ணின்	-10.6489
▁பாலா	-10.6494
▁அறிந்திருக்க	-10.6496
▁இருப்பீர்கள்	-10.6499
▁ஒப்பந்தம்	-10.6501
▁தடி	-10.6503
சபை	-10.6505
ண்ணா	-10.6505
எந்த	-10.6506
மூர்த்தி	-10.6508
ாக்ஸ்	-10.6511
▁செயற்கை	-10.6512
▁துதி	-10.6516
▁எச்சரிக்க	-10.6521
▁கோட்டை	-10.6525
▁Free	-10.6527
▁காங்கிரஸ்	-10.6535
செய்து	-10.6539
▁பெறலாம்	-10.6539
▁ஆரம்பத்தில்	-10.6544
▁என்னென்ன	-10.6544
▁ஆபத்தான	-10.6546
வளாக	-10.6549
SE	-10.6552
▁ரூபா	-10.6553
▁அழகா	-10.6555
▁நாயன்	-10.6556
▁ஓய்வ	-10.6562
SA	-10.6563
நாளில்	-10.6567
▁நடத்தை	-10.6567
▁come	-10.6569
▁சாப	-10.6574
DE	-10.6574
▁வருவதற்கு	-10.6575
▁உயர்வு	-10.6576
▁விதமாக	-10.6576
▁Min	-10.6577
▁காத்திருப்ப	-10.6581
▁பயணிகள்	-10.6581
▁தொட்டி	-10.6585
dom	-10.6585
▁Act	-10.6586
▁வைத்துள்ள	-10.6593
▁கேக்க	-10.6597
▁தள்ளுபடி	-10.6597
▁தூது	-10.6598
▁மகிழ்ச்சியை	-10.6599
OL	-10.6599
நாதன்	-10.6601
▁உலோக	-10.6602
▁உகந்த	-10.6605
ுவார்களா	-10.6607
▁நேரத்திற்கு	-10.6609
2018	-10.6612
▁தொழில்முறை	-10.6615
▁வாயில்	-10.6618
▁இவற்றில்	-10.6624
▁உணர்ந்தேன்	-10.6624
▁பேக்கேஜிங்	-10.6625
▁அதேபோல்	-10.6627
ப்படுகிறார்கள்	-10.6629
▁இருவர்	-10.6629
ral	-10.6633
▁மாத்திரை	-10.6634
அரச	-10.6638
▁if	-10.6641
▁அறிவியல	-10.6641
▁42	-10.6641
▁அடங்கும்	-10.6642
ினாலே	-10.6645
▁நாயகம்	-10.6645
▁கவனிப்ப	-10.6647
விட்டதா	-10.6647
▁நிருப	-10.6648
ote	-10.6653
▁விவரம்	-10.6655
ஸர்	-10.6658
▁வரவு	-10.6665
▁சந்தர்ப்ப	-10.667
▁நோன்பு	-10.6672
▁சீர்	-10.6679
▁வெற்றிகரமாக	-10.6679
▁அழிப்ப	-10.6679
▁சொல்லுங்க	-10.6679
▁விடுவிக்க	-10.6683
▁அதிர்ஷ்ட	-10.6684
▁காரை	-10.6684
▁வருவார்கள்	-10.6689
▁போலீஸ்	-10.669
க்கிறார்கள்	-10.6694
▁செல்லுங்கள்	-10.6697
▁ஆண்டின்	-10.6706
▁அடங்க	-10.6713
▁என்றனர்	-10.6714
▁சதவிகித	-10.6715
▁கள்ள	-10.6716
▁சொல்லலாம்	-10.6717
ling	-10.6722
▁அமைதியான	-10.6723
▁இவ்வுலகில்	-10.6723
▁ஷெ	-10.6724
▁மருத்துவர்கள்	-10.6727
▁பலருக்கு	-10.6731
▁வினவ	-10.6732
▁நிரம்ப	-10.6737
▁ஆற்றல	-10.6738
▁கோல்	-10.674
▁புறக்கணித்து	-10.6745
▁விற்று	-10.6746
HO	-10.6748
[1]	-10.6752
ாற்றல	-10.6752
▁ஸு	-10.6758
▁வசதிகள்	-10.6761
▁விவேக	-10.6762
▁மாளிகை	-10.6764
▁மன்னிக்கவும்	-10.6769
▁some	-10.6769
▁ஒப்பனை	-10.677
▁முழ	-10.6774
▁சுந்தர	-10.6775
▁நிழல	-10.6776
▁வானத்தை	-10.6776
▁அநீதி	-10.6778
▁தழுவ	-10.6781
▁பேசவில்லை	-10.6784
▁சுழற்சி	-10.6785
▁மிமீ	-10.6785
ுதலை	-10.6794
▁அதுவரை	-10.6799
ப்போவதில்லை	-10.68
▁குப்பை	-10.6802
▁take	-10.6804
▁செய்வான்	-10.6805
▁150	-10.6811
▁செயலாளர்	-10.6812
EC	-10.6812
ious	-10.6814
▁மடங்கு	-10.6814
▁சூழலில்	-10.6817
▁எனக்காக	-10.6822
கூட்ட	-10.6823
▁காவல	-10.6824
gan	-10.6825
▁அமல்	-10.6827
▁சாய	-10.684
பணி	-10.6846
▁உரிமையாளர்	-10.6853
ரசு	-10.6854
▁குறுக்க	-10.6855
▁அய்யா	-10.6855
▁அறிகுறிகள்	-10.6857
▁சுட்டு	-10.6861
▁சிந்தித்து	-10.6861
▁உழைக்க	-10.6864
▁போதிலும்	-10.6868
▁கனவுகள்	-10.6868
▁பொலி	-10.6871
▁மின்சாரம்	-10.6875
▁அரசியலில்	-10.6877
UT	-10.6877
uck	-10.6882
▁ரவி	-10.6883
▁Life	-10.6886
ிருக்கவில்லை	-10.6888
▁வானத்திலிருந்து	-10.6889
ஜூ	-10.6889
▁கணக்கிட	-10.6894
தவற	-10.6895
▁அடையும்	-10.6895
:20	-10.6899
மழை	-10.6899
ிரண்டு	-10.6899
▁முன்னதாக	-10.69
▁எல்லோரையும்	-10.6903
ிருப்போம்	-10.6903
▁ஒருவரின்	-10.6904
▁செய்வோர	-10.6908
▁வெட்டு	-10.6909
▁அதிகாலையில்	-10.6911
▁ரீதியாக	-10.6913
▁நேரமும்	-10.6915
▁யாழ்ப்பாணம்	-10.6918
MP	-10.6922
▁பராமரிப்பு	-10.6922
▁அளித்து	-10.6927
ப்பித்த	-10.6928
▁நிற்கும்	-10.6929
▁நித்திய	-10.6934
▁மொழியில்	-10.6936
▁பாடலை	-10.6941
▁ஈர்க்க	-10.6941
▁Blog	-10.6944
▁எடுத்துச்	-10.6945
▁பழகி	-10.6946
▁அடிப்படையாக	-10.6946
▁கொடுத்தது	-10.6948
▁Ac	-10.6948
▁அதோடு	-10.6952
யென்று	-10.6953
▁தெரியவந்தது	-10.6955
▁கடினம்	-10.6957
▁காடு	-10.6959
▁சமாளிக்க	-10.6959
▁கொன்ற	-10.696
▁செல்வது	-10.6962
▁பாதிப்ப	-10.6963
cc	-10.6964
▁car	-10.6965
ின்றீர்கள்	-10.6966
▁தெளிவ	-10.6969
▁உதவியாளர்	-10.6972
ிருப்பதாக	-10.6976
▁ரொ	-10.6977
பேர	-10.6978
▁பார்க்கவில்லை	-10.6979
▁பொறாமை	-10.698
▁அதிபர்	-10.6985
ிறீர்களா	-10.6988
▁பிரம்ம	-10.6993
▁சத	-10.6994
▁சரும	-10.6995
▁தயாரா	-10.6995
▁புரிந்துகொள்ள	-10.6996
▁ஒப்படைத்த	-10.6997
▁எனக்கே	-10.7
▁பரவலாக	-10.7001
▁நாடகம்	-10.7002
▁எவரையும்	-10.7007
▁உணர்வுகளை	-10.7009
▁எச்சரித்த	-10.7009
▁சம்பந்தப்பட்ட	-10.701
▁ஒருவருக்கொருவர்	-10.7013
▁தெரிவித்தனர்	-10.7015
▁நெறி	-10.702
க்காட்ட	-10.702
▁உண்ப	-10.702
நிறுத்த	-10.7024
▁அலகு	-10.7024
▁அரசுக்கு	-10.703
▁ஹேக்	-10.703
▁நேர்ந்த	-10.7031
▁நாளா	-10.7041
▁புரிந்தது	-10.7042
و	-10.7047
▁உங்களோடு	-10.7047
▁கேவல	-10.7048
IA	-10.7049
▁வரையறை	-10.7053
▁இருபது	-10.7053
▁Si	-10.7054
▁விடுத்த	-10.7055
த்தவிர	-10.7056
▁கொள்கின்ற	-10.7056
ுறது	-10.7063
▁அடைக்க	-10.7065
▁செலுத்தும்	-10.7069
▁விமர்சன	-10.707
▁மாதங்களில்	-10.7077
$	-10.7077
▁ஞானத்தை	-10.7082
▁வித்தியாசம்	-10.7083
▁வருவார்	-10.7087
▁எடுக்கப்பட்ட	-10.7088
▁பயன்படுத்தலாம்	-10.7088
▁அமைந்தது	-10.7093
▁சாப்பிட்டு	-10.7096
▁கூறுகின்றான்	-10.7097
▁வார்	-10.7098
களிலேயே	-10.7102
▁தேடுங்கள்	-10.7103
ப்பதற்காக	-10.7104
ப்பட்டிருந்தது	-10.7104
test	-10.7106
இனி	-10.7108
▁போகிறோம்	-10.711
▁செல்கிறது	-10.7112
▁gr	-10.7114
▁மன்னிப்பவன்	-10.7115
▁திடீர்	-10.7118
▁வசித்த	-10.712
ுள்ளீர்கள்	-10.7127
▁கோர்	-10.7127
▁தந்திர	-10.7131
▁வாட்	-10.7146
▁படுத்தி	-10.7146
▁அதைவிட	-10.7149
எனது	-10.7155
▁வசந்த	-10.7163
▁சோதிக்க	-10.7165
▁friend	-10.7165
▁அலுவலகத்தில்	-10.7166
▁வலுவ	-10.7167
▁பேஸ்புக்	-10.7168
▁விரும்புகின்ற	-10.7171
▁புத்திசாலி	-10.7172
▁சந்தோச	-10.7176
பூர்வமான	-10.7179
ix	-10.7186
▁உணர்வை	-10.7186
▁just	-10.7187
▁XX	-10.719
▁மாடி	-10.7194
▁வீண்	-10.7194
▁தீவிரவாதி	-10.7197
▁மூதாதையர	-10.7197
▁பாதிக்கப்பட	-10.7199
▁நகர்த்த	-10.7202
▁அன்பான	-10.7202
▁தொடரும்	-10.7207
▁உம்மிடம்	-10.7207
▁ஹதீஸ	-10.7219
800	-10.7222
▁ஒதுக்கி	-10.7223
ிறார்களோ	-10.7224
▁தொட்டு	-10.7224
ப்பெயர்	-10.7229
▁தேவையற்ற	-10.7231
▁comm	-10.7236
ute	-10.7238
▁தூரிகை	-10.7238
eck	-10.7238
பிள்ளை	-10.7238
▁sub	-10.7242
q	-10.7243
▁ஏனோ	-10.7245
▁பிரிந்த	-10.7247
▁வர்ண	-10.7248
▁பிடித்தது	-10.7249
▁விடுவோம்	-10.7249
▁சிலுவை	-10.7254
▁விசாரிக்க	-10.7254
:25	-10.7255
▁இலட்ச	-10.7256
▁ஏழ	-10.7257
▁படுகிறது	-10.7258
▁43	-10.7258
▁எறிந்த	-10.7259
▁மன்னிப்பை	-10.7262
▁அல்லாஹ்வுக்கே	-10.7264
▁கிரிக்கெட்	-10.7268
▁தொகுப்ப	-10.7272
▁தோன்றிய	-10.7274
▁மாதத்தில்	-10.7275
▁Indian	-10.7278
▁தையல்	-10.7278
▁இரக்க	-10.7279
ப்படுவதை	-10.7281
▁மோதி	-10.7282
த்தகைய	-10.7288
▁inter	-10.7288
▁பென்	-10.7291
▁எங்களுடைய	-10.7292
▁ஆகிவிட்டது	-10.7301
தீன்	-10.7303
▁தம்பதி	-10.7304
ப்படுத்தப்பட்ட	-10.7304
▁புதுமை	-10.7307
▁கனடா	-10.7308
▁சிரிப்ப	-10.7317
▁எலும்பு	-10.7319
:21	-10.732
▁செலாவணி	-10.7323
▁மாட்டி	-10.7325
▁அதிரடி	-10.7327
▁தரிசனம்	-10.733
▁விதத்தில்	-10.7332
side	-10.7334
▁வெறுமனே	-10.7338
எப்படி	-10.7338
▁மாடல்	-10.7342
கொள்கிறார்	-10.7343
▁நற்கூலி	-10.7345
▁திரவ	-10.7346
▁அழிவு	-10.7348
▁every	-10.7349
ினுள்	-10.7351
ுவாய்	-10.7353
▁துன்புறுத்த	-10.7356
▁எதிர்பாராத	-10.7357
▁நடைபெற்றது	-10.736
▁வந்துவிட்டது	-10.736
▁ஆச்சரியமாக	-10.7364
▁இங்கிலாந்து	-10.7367
▁அவளின்	-10.7367
▁சுத்தமாக	-10.7369
▁பெரும்பாலோர்	-10.7375
▁உயர்த்தி	-10.7375
▁his	-10.7377
!’’	-10.7378
▁கார்த்தி	-10.7379
▁மெல்ல	-10.738
▁வைக்கிறது	-10.738
▁கடலில்	-10.7383
▁கட்டுப்பாட்ட	-10.7384
▁கொழு	-10.7384
மில்ல	-10.7384
▁நாளின்	-10.7391
▁Of	-10.7393
AY	-10.74
py	-10.7402
▁தானாக	-10.7408
▁எதாவது	-10.7409
▁அனைவருமே	-10.7411
▁திரும்பவும்	-10.7417
▁மனைவியும்	-10.7423
▁Car	-10.7425
ங்களுக்கான	-10.7426
▁முளை	-10.7429
ென்பது	-10.7431
▁இயலாத	-10.7433
▁எம்பி	-10.7435
▁விவரங்களை	-10.7436
ப்பெற	-10.7437
▁நண்பர்களை	-10.7438
▁இறந்துவிட்ட	-10.7439
▁தானியங்கி	-10.744
ுபவன	-10.7442
▁back	-10.7443
ப்படாது	-10.7444
▁விரிவாக்க	-10.7444
▁நினைக்கவில்லை	-10.7444
▁எளிதாக்க	-10.7447
▁ஒட்டி	-10.7447
▁மும்பை	-10.745
▁கட்டிய	-10.7451
அவர்களை	-10.7454
▁தடுத்த	-10.7456
▁அன்பை	-10.7457
த்திறன	-10.7459
▁ஆறுதல்	-10.7462
▁பிரான்	-10.7465
▁பரிமாற	-10.7467
▁குடும்பத்தை	-10.7468
▁கூட்டத்தில்	-10.7473
dition	-10.7475
▁புள்ளிகள்	-10.7481
மகன்	-10.7481
▁இரண்டையும்	-10.7481
EA	-10.7482
▁இழுக்க	-10.7483
▁when	-10.7483
▁புனை	-10.7486
▁மன்னிப்பான்	-10.7488
▁எத்தகைய	-10.749
SP	-10.749
▁முத்து	-10.7491
▁எளிது	-10.7494
ுவாரா	-10.7497
▁திடீரென்று	-10.7499
▁பூரண	-10.7499
▁தடவ	-10.75
ler	-10.7501
▁XXX	-10.7507
▁சேர்ப்ப	-10.7508
▁பயனர்கள்	-10.7513
▁எதிர்பார்ப்பு	-10.7526
ike	-10.7527
▁செயல்பாட்ட	-10.7528
▁பார்க்கவில்லையா	-10.7529
:22	-10.7533
▁கொடி	-10.7534
பேர்	-10.7534
▁எமக்கு	-10.7535
ature	-10.7536
▁கடற்படை	-10.7536
எஃப்	-10.7537
▁மீட்டர்	-10.7542
▁Don	-10.7543
▁வருடங்களில்	-10.7544
நூ	-10.7547
rv	-10.7548
▁தனியே	-10.7549
▁இனிமே	-10.755
▁செய்திருக்க	-10.7556
las	-10.7557
2019	-10.7557
▁வேண்டுமென	-10.7558
CC	-10.7559
▁வடிகட்டி	-10.7578
▁over	-10.7579
மில்லாமல்	-10.758
ene	-10.758
▁தற்காலிக	-10.7582
▁பின்வருமாறு	-10.7586
▁தலைவன்	-10.7588
பிடித்த	-10.7589
▁அளிக்கும்	-10.759
பெயர	-10.7594
▁உறு	-10.7595
▁அண்ணன்	-10.7596
▁Win	-10.7598
▁புரிகிறது	-10.7601
OD	-10.7602
▁இட்டு	-10.7603
▁சம்பாதித்த	-10.7605
▁Facebook	-10.7609
▁வேட்பாளர்	-10.7612
▁சுலபமாக	-10.7623
▁பாத்து	-10.7624
▁Pe	-10.7629
▁மேடை	-10.7631
▁பானம்	-10.7631
▁வடிவில்	-10.7632
▁இணையத்தில்	-10.7633
▁அளிக்கிறது	-10.7634
▁அனுபவத்தை	-10.7635
▁தூதர்கள்	-10.7636
▁கவர்ச்சி	-10.7639
கொடுக்க	-10.7641
▁வேர்	-10.7644
▁உனக்காக	-10.7644
ாயினும்	-10.7645
▁நிகர	-10.7646
CO	-10.765
▁ஆகியோர்	-10.7653
val	-10.7654
▁பிட்	-10.7655
▁மேன்மை	-10.7663
▁கூற்று	-10.7665
▁விடுவேன்	-10.7666
▁பெயரால்	-10.7667
ப்பெற்ற	-10.7678
read	-10.7678
▁கூறப்படும்	-10.768
▁எப்பொழுதும்	-10.7685
▁நிர்வகிக்க	-10.7685
அல்குர்ஆன்	-10.7687
▁Air	-10.7691
▁ஸ்பெ	-10.7691
▁சிதை	-10.7694
▁மேற்கொண்ட	-10.7696
▁இருந்ததால்	-10.7696
▁மஞ்சள்	-10.7697
▁பாஜக	-10.7701
பெரிய	-10.7701
▁நலன்	-10.7703
▁செய்யவேண்டும்	-10.7706
▁தெரி	-10.7708
▁நிகழ்த்த	-10.7712
▁நேசிக்கிறேன்	-10.7714
▁உணர்கிறேன்	-10.772
▁அக்கிரம	-10.7728
▁part	-10.773
ன்றோ	-10.773
▁under	-10.773
▁ஓரளவு	-10.7731
▁கோழி	-10.7742
▁டிஜிட்டல்	-10.7743
கொட	-10.7746
▁தரப்பு	-10.775
நானும்	-10.7751
▁மாணவர்களுக்கு	-10.7752
▁எதுக்கு	-10.7752
▁கொண்டனர்	-10.7753
▁ஸலவாத்	-10.7755
▁படிச்ச	-10.7755
▁சதவீத	-10.7757
▁And	-10.7757
▁அரட்டை	-10.776
▁மலேசிய	-10.7763
▁காணப்படுகிறது	-10.7765
▁வீடுகளில்	-10.7777
▁கேசினோ	-10.7782
▁விளைவுகளை	-10.7784
▁person	-10.7787
▁free	-10.7787
▁உட்கார்ந்து	-10.7788
▁சீரிய	-10.7794
▁probably	-10.7797
▁மின்சார	-10.7801
▁செய்பவன	-10.7809
▁ஜெப	-10.7814
ாமலே	-10.7817
▁தயாரிப்பாளர்	-10.7819
▁நண்பரே	-10.7819
▁பரந்து	-10.7823
மளிக்க	-10.7829
களுமே	-10.783
7:1	-10.7831
விட்டதாக	-10.7832
▁தமக்கு	-10.7833
▁Not	-10.7836
▁படைப்பாளி	-10.7837
▁அவ்வாற	-10.7839
▁எவ்வ	-10.7839
▁விருந்து	-10.784
▁கூறினேன்	-10.7843
▁2005	-10.7845
▁பேண	-10.7846
▁அவுட்	-10.785
▁சமீப	-10.7855
▁இதைத்தான்	-10.7864
▁உழ	-10.7864
ெங்கும்	-10.7867
▁கொண்டுவந்த	-10.7868
▁கொல்லப்பட்ட	-10.7868
▁இருப்போம்	-10.7868
vent	-10.7868
▁பார்க்கிறேன்	-10.7872
▁என்பதன்	-10.7876
▁வெளியீட்ட	-10.7877
▁அநேகமாக	-10.788
▁உபகரணங்கள்	-10.7882
▁கொடை	-10.7883
▁செயற்பட	-10.7885
▁விரட்ட	-10.7886
▁National	-10.7887
▁செய்க	-10.7889
▁விவாதிக்க	-10.7892
▁தண்டிக்க	-10.7893
▁பார்வையிட	-10.7893
▁இருக்கின்றார்	-10.7894
▁எவரேனும்	-10.7895
fa	-10.7896
▁கொண்டுள்ள	-10.7898
▁(1)	-10.7902
▁கதாபாத்திர	-10.7903
▁சிலருக்கு	-10.7903
#	-10.7905
▁வரவேற்ற	-10.7906
▁சுழல	-10.7907
▁அவனால்	-10.7908
▁விழித்த	-10.791
▁மதிப்பெண்	-10.791
உனக்கு	-10.791
பிரா	-10.7914
▁அழகி	-10.7915
▁தேவனாகிய	-10.7916
▁வைக்கவும்	-10.7919
▁Inter	-10.792
▁வரலாற்றில்	-10.7921
uk	-10.7924
▁விருந்த	-10.7927
▁கழிவு	-10.7935
▁ஒதுங்க	-10.7937
▁எந்திர	-10.7939
▁உழைப்பு	-10.7939
▁அல்லாஹ்வுடைய	-10.7942
▁ஆரோக்கியமான	-10.7943
▁குரங்கு	-10.7943
ital	-10.7945
▁சம்மத	-10.7953
▁புராண	-10.7955
ENT	-10.7958
een	-10.7959
ரீதியான	-10.7961
▁அவளும்	-10.7962
▁சாரா	-10.7965
▁சந்தையில்	-10.797
▁அறுவை	-10.7975
▁பள்ளிக்கு	-10.7976
▁குடும்பத்தினர	-10.7983
▁state	-10.7984
nn	-10.7984
▁உங்	-10.7985
▁இயல்பாக	-10.7985
▁கடற்கரை	-10.7986
▁right	-10.7988
▁பிறப்பு	-10.7993
▁Ri	-10.7994
▁அரண்மனை	-10.7997
▁வீட்டில	-10.7999
▁தாள்	-10.8001
▁வருகின்றது	-10.8001
▁புரிவ	-10.8005
▁சைவ	-10.8006
▁காலங்களில்	-10.8009
▁சமமாக	-10.801
▁படைத்தார்	-10.802
▁நாடாளுமன்ற	-10.8021
தெரிய	-10.8023
▁கழுதை	-10.8026
னாகிய	-10.803
ுவோமா	-10.803
▁அங்கிருந்த	-10.8031
▁விரும்புகிறோம்	-10.8034
கேட்ட	-10.8042
ினீர்கள்	-10.8042
▁தானிய	-10.8045
▁வார்ப்புரு	-10.8045
▁41	-10.8053
▁ஆகியோர	-10.8054
▁நேர்மையாக	-10.8057
▁சேனல்	-10.8058
▁வழங்கப்படுகிறது	-10.8064
▁வருடத்திற்கு	-10.8068
ency	-10.8069
ஹோ	-10.807
▁Year	-10.8075
▁best	-10.8078
கெட்ட	-10.808
▁ரசிக்க	-10.8082
வகையில்	-10.8083
▁குற்றச்சாட்டு	-10.8083
▁வெளிநாடு	-10.8084
▁say	-10.8085
▁செல்கின்ற	-10.8086
▁தொடர்பில்	-10.8087
▁பிறர்	-10.8088
▁தரையில்	-10.8092
▁இருவருக்கும்	-10.8093
▁ஒத்தி	-10.8097
ient	-10.8099
▁சந்தா	-10.81
ாமலேயே	-10.8105
▁ஐரோப்பிய	-10.8105
▁மெஷின்	-10.8105
▁பார்த்ததில்லை	-10.8109
▁சட்டை	-10.8109
▁சேரும்	-10.811
▁டொ	-10.8111
க்கொள்ளுங்கள்	-10.8112
▁story	-10.8116
▁கண்டுபிடிப்ப	-10.8116
வருட	-10.8118
▁இலிருந்து	-10.8121
▁போகிறார்கள்	-10.8126
▁போயிருந்த	-10.8127
▁Ja	-10.8127
▁உழைத்த	-10.8128
▁தாராள	-10.8134
▁கேடு	-10.8134
▁உலர்	-10.8135
▁உத்தரவு	-10.8136
▁ஷே	-10.8139
▁உதிர	-10.8143
▁உடலுக்கு	-10.8144
▁குடும்பத்தார	-10.8152
▁இத்தாலி	-10.8154
▁சிறித	-10.8154
▁நெருக்கமான	-10.8157
வுமில்லை	-10.816
▁அறிகுறி	-10.816
▁என்பதாகும்	-10.8161
▁Trans	-10.8165
▁இரும்பு	-10.8168
பக்கம்	-10.8168
▁பண்ப	-10.8169
▁செய்கிறீர்கள்	-10.817
▁விருந்தினர்	-10.8175
▁கொழுப்பு	-10.8175
முடியவில்லை	-10.8176
que	-10.8183
▁மீட்டு	-10.8188
▁play	-10.8188
▁44	-10.8189
▁want	-10.8192
▁அத்தனையும்	-10.8194
▁தர்க்க	-10.8195
▁புத்தகங்களை	-10.8197
▁பூச்சி	-10.8197
arm	-10.8203
▁கண்டுபிடிப்பு	-10.8208
▁Book	-10.8209
வருடன்	-10.8213
மெல்லாம்	-10.822
ொன்ற	-10.8225
▁சிங்கப்பூர	-10.8227
▁மாநாடு	-10.8228
▁உதை	-10.8228
▁பக்தர்கள்	-10.8233
▁அறிவிக்கப்பட்ட	-10.8238
▁போராளி	-10.8248
▁சுவாரசிய	-10.825
▁முதற்	-10.8256
▁கொள்வோம்	-10.8256
▁காரியத்தை	-10.826
▁டேவிட்	-10.826
-19	-10.8261
cal	-10.8261
▁இவர்களில்	-10.8261
▁may	-10.8266
▁செடி	-10.8272
nes	-10.8272
▁சென்றால்	-10.8273
▁51	-10.8275
▁should	-10.8279
▁அறியாமல்	-10.8281
▁அவ்விருவர	-10.8284
▁பாவத்தை	-10.8286
▁பாடசாலை	-10.8295
▁கெட	-10.8302
-12	-10.8302
▁Jaffna	-10.8303
அதன்	-10.8305
▁தவணை	-10.8313
.(1	-10.8315
நாட்	-10.8321
▁கட்டுமான	-10.8321
▁உட்கார்ந்த	-10.8322
▁உமர்	-10.8326
▁அறிவான்	-10.8327
▁உடலின்	-10.8328
▁விற்பனைக்கு	-10.8329
▁தொலைக்காட்சி	-10.8344
▁சூனிய	-10.8347
▁சுட்டிக்காட்ட	-10.8349
▁வந்துள்ளது	-10.8351
ாங்களா	-10.836
▁இவருடைய	-10.8366
udi	-10.8369
▁பதிவாக	-10.8369
▁எஃகு	-10.8369
▁அமைதியை	-10.837
ிராத	-10.8372
▁ஓவர்	-10.8373
▁அமைந்துள்ளது	-10.8381
▁யாவரும்	-10.8387
போர்ட்	-10.8389
▁அமுத	-10.8395
▁வர்க்க	-10.8398
விடமிருந்து	-10.8401
▁நோவினை	-10.8402
▁வேளையில்	-10.8404
▁அனைவரின்	-10.8406
▁Response	-10.8406
▁வாக்களித்த	-10.8412
▁கொண்டிருக்கிறது	-10.8421
▁கட்டமைப்பு	-10.8422
▁இஸ்ரேல	-10.8425
—	-10.8428
▁நண்பா	-10.8431
வனுடைய	-10.8432
▁Mon	-10.8433
cus	-10.8433
nger	-10.8434
திகார	-10.8434
▁இயல்பான	-10.8441
▁தம்மை	-10.8443
▁செவ்வ	-10.8447
ோரும்	-10.8451
▁கொடிய	-10.8451
▁காதலர்	-10.8456
▁Love	-10.8458
▁ஈஸா	-10.8459
▁சூழ்ச்சி	-10.8464
▁விளையாட்டில்	-10.8468
▁நன்ன	-10.8469
▁பாடிய	-10.8473
▁வருவதாக	-10.8475
▁வேண்டுமென்று	-10.8476
▁வீட்டின்	-10.8476
▁Sri	-10.8492
▁சமூகத்தின்	-10.8493
▁தானாகவே	-10.8497
▁முன்வைக்க	-10.8498
▁நடந்தால்	-10.85
▁கொடுக்கப்படும்	-10.8502
LA	-10.8506
ிழந்த	-10.8511
▁இறப்ப	-10.8511
▁வேணா	-10.8511
▁மர்ய	-10.8513
மெண்ட்	-10.8521
▁கம்பெனி	-10.8523
▁காப்பு	-10.8525
▁நாயகன்	-10.8528
▁தளத்தை	-10.8528
▁மீட்பு	-10.8528
▁இந்ந	-10.8531
எனவே	-10.8532
களிடமும்	-10.8535
▁மகிழ்ச்சியான	-10.8536
▁அரிசி	-10.8538
▁ஆவது	-10.8539
▁சேகரிக்க	-10.8544
▁நம்பகமான	-10.8545
▁குறைத்து	-10.8547
▁பயன்படுத்துவது	-10.8549
விட்டீர்கள்	-10.8563
▁வெளிப்படையான	-10.8565
▁ஃபோ	-10.8567
▁இடம்பெற	-10.8568
▁சரிபார்க்க	-10.8573
▁அனுப்பப்பட்ட	-10.8575
▁பரந்த	-10.8579
ities	-10.8582
▁முன்னோர்கள்	-10.8583
▁இறந்தார்	-10.8584
ION	-10.8585
▁ஊற	-10.8588
▁China	-10.859
TC	-10.859
▁வெளியிடப்பட்டது	-10.8597
▁விடுவான்	-10.8599
▁முரண்	-10.8605
ப்படுகிறார்	-10.8607
▁ga	-10.8607
▁அனுபவங்களை	-10.8609
▁NO	-10.861
bit	-10.862
▁தளங்கள்	-10.8633
▁கணித	-10.8635
▁YOU	-10.8637
:23	-10.8639
▁சென்றேன்	-10.8641
▁எழுதினார்	-10.8642
▁இதுபற்றி	-10.8651
▁ப்ரஹ்ம	-10.8654
▁படைத்தவன்	-10.8656
ாளராக	-10.8656
▁எங்களின்	-10.8656
▁யோசித்த	-10.8659
ப்பார்க்க	-10.866
vil	-10.866
▁மேலாளர்	-10.8663
▁ஊமை	-10.8666
lex	-10.8667
குறிப்பு	-10.8671
▁போலீஸார்	-10.8673
▁நூலை	-10.8686
▁ஆளுமை	-10.8689
▁படகு	-10.8692
▁அணிந்து	-10.8692
▁எட்டி	-10.8693
▁சமயங்களில்	-10.8694
விமர்ச	-10.8695
▁பூங்கா	-10.8699
▁கேலி	-10.8699
▁மனிதர்களின்	-10.87
▁ago	-10.8704
▁இவ்வாறான	-10.8704
▁இயங்கும்	-10.8704
▁இப்ராஹீம்	-10.8705
▁தாக்குதல	-10.8708
▁பறந்த	-10.8709
ுகிறாய்	-10.8711
of	-10.8712
▁ஏற்கெனவே	-10.8712
▁போதனை	-10.8716
▁தனிநபர்	-10.8717
▁சோர்வ	-10.8717
யென்றால்	-10.8719
▁சிரிப்பு	-10.8721
▁முற்று	-10.8723
நெறி	-10.8723
▁64	-10.8724
▁பின்னரும்	-10.8727
▁இதர	-10.8728
oth	-10.8728
இஸ்ரயேல	-10.8729
▁உத்தி	-10.873
நினை	-10.8733
▁தகுந்த	-10.8744
▁நிராகரிப்பவர்கள	-10.8745
த்தனமான	-10.8748
▁இறுக்க	-10.875
▁அங்கீகார	-10.8751
▁மன்னர்	-10.8759
▁உச்சி	-10.8763
ுவீர்	-10.8765
ுபவை	-10.8765
▁போட்டியிட	-10.8766
▁வளர்ப்ப	-10.8767
▁மலர	-10.8767
▁அருண	-10.8771
▁அரவிந்த	-10.8772
▁செங்க	-10.8773
▁நூற்றாண்டு	-10.8777
▁சமநிலை	-10.878
▁fo	-10.878
▁நிர்வாகி	-10.8781
▁எடுத்துக்கொள்ள	-10.8782
▁புரியாத	-10.8783
▁குளிர	-10.8785
அமைச்சர	-10.8787
▁how	-10.8788
▁விடாதீர்கள்	-10.8788
முழு	-10.8788
▁எதிர்மறை	-10.8792
▁கட்டப்பட்ட	-10.8793
▁எழுதுகிறேன்	-10.8794
▁இந்தியாவை	-10.8797
▁நெல்	-10.8805
▁எங்காவது	-10.8814
▁காய்கறி	-10.8815
▁பதவியை	-10.882
ரிங்	-10.8821
body	-10.8821
UL	-10.8822
▁கண்காணிக்க	-10.8824
▁அதிகரிப்ப	-10.8824
செல்வ	-10.8828
▁எப்பொழுது	-10.8838
pro	-10.8839
▁வர்ற	-10.8842
▁ஊதிய	-10.8842
▁count	-10.8847
▁More	-10.8852
▁விண்ணப்பிக்க	-10.8853
▁அடைகிற	-10.8866
▁சுவாச	-10.8867
வரான	-10.887
▁கொடுத்தோம்	-10.887
▁உணர்கிற	-10.8871
ுறேன்	-10.8875
▁பயனுள்ளதாக	-10.8877
▁பேட்டரி	-10.888
▁மற்றபடி	-10.8886
▁கேள்	-10.8886
ology	-10.8888
▁MO	-10.8888
▁சான்ற	-10.8889
▁குற்றங்களை	-10.8891
▁எதிர்பார்ப்ப	-10.8901
▁விரைவான	-10.891
▁பின்னும்	-10.8914
▁மனிதனாக	-10.8914
▁திகழ்	-10.8915
▁துப்ப	-10.8918
SL	-10.8921
▁நினைக்கிறீர்கள்	-10.8922
▁நிகழும்	-10.8923
▁திறமையான	-10.8923
نَ	-10.8924
▁ஊட்ட	-10.8925
▁காரியங்களை	-10.8926
▁பிரிவில்	-10.893
▁வருவேன்	-10.893
▁too	-10.8934
ific	-10.8935
▁நுண்ண	-10.8937
▁வருது	-10.894
▁யோசித்து	-10.8944
▁வைத்திருக்கும்	-10.8945
▁கம்பி	-10.8946
▁வரலாற்றை	-10.8948
▁புண்ணிய	-10.8954
▁ராகு	-10.8955
▁போயிருக்க	-10.8957
▁விழிப்ப	-10.8961
▁தெரியாம	-10.8962
▁75	-10.8963
▁பேய்	-10.8967
▁ஊக்குவிக்க	-10.8971
▁எதிர்கொள்ள	-10.8974
▁If	-10.8977
▁கன்னி	-10.8978
▁தமிழ்நாடு	-10.898
▁ஷூ	-10.8982
▁இன்ஷா	-10.8986
▁விமர்சனங்கள்	-10.8986
▁எப்படியாவது	-10.8988
▁சுத்தமான	-10.8993
▁வெளிப்பாடு	-10.8993
▁ஆதரவாக	-10.8994
▁மில்லி	-10.8995
▁முன்னோர்	-10.9
▁மோசே	-10.9002
▁தன்மையை	-10.9003
key	-10.9004
turn	-10.9004
af	-10.9009
▁அருட்கொடை	-10.9011
▁தொழுத	-10.9013
▁சாதிக்க	-10.9014
ிருக்கின்றோம்	-10.9016
ுணர்வ	-10.9022
அடுத்த	-10.9025
நிற	-10.9028
▁படப்பிடிப்பு	-10.9028
▁விண்ண	-10.9029
▁الل	-10.903
▁இருவருமே	-10.9033
▁மூழ்கி	-10.9039
▁தெரியாதா	-10.9045
ுகிறார்களோ	-10.9048
▁அம்பு	-10.9048
▁கதிர்	-10.9049
▁அங்கீகரிக்க	-10.905
▁இருப்பான்	-10.9052
ிருக்கிறீர்களா	-10.9056
▁வசதியாக	-10.906
ban	-10.9063
▁அணுகுமுறை	-10.9064
▁இணக்க	-10.9064
▁இவள்	-10.9079
▁இருப்பின்	-10.9086
ுங்களேன்	-10.9087
▁தீமையை	-10.9088
▁அருமையாக	-10.909
▁விசேஷ	-10.909
க்கொள்வத	-10.9092
▁கதற	-10.9095
▁விரைந்து	-10.9095
ural	-10.9099
▁very	-10.91
▁கமல	-10.91
ிடுவோம்	-10.9105
▁பரவாயில்லை	-10.9112
▁சங்கீத	-10.9114
▁கிறிஸ்துவின்	-10.9116
யில்லாமல்	-10.9118
ேஸ்வர	-10.912
tom	-10.9123
ஜ்ஜ	-10.9124
▁கூறுவதை	-10.9125
TA	-10.9127
▁மெய்யாகவே	-10.9127
▁அதன்பிறகு	-10.9129
▁வாக்கிய	-10.9131
உள்ள	-10.9134
▁உள்ளடக்கிய	-10.914
▁சுவர்க்க	-10.914
▁வடிவமைக்கப்பட்ட	-10.914
ில்லாமல்	-10.914
▁வியாபாரி	-10.9141
▁நடுத்தர	-10.9146
ular	-10.9153
PA	-10.9153
jo	-10.9154
▁நேர்மறை	-10.9154
▁பையன	-10.9154
▁நிமிடங்களில்	-10.9156
உட	-10.9159
இப்படி	-10.9159
▁FSX	-10.9161
▁பகிர்வு	-10.9163
▁கண்காணிப்பு	-10.9164
▁எரிச்சல	-10.9176
▁உட்கார	-10.9177
▁காவலர்	-10.9178
▁கருத்துரை	-10.9188
▁மறுமையிலும்	-10.919
ந்ந	-10.9193
ாசிரியர்	-10.9197
▁கடைசியில்	-10.9197
oke	-10.92
படுகிறது	-10.9202
\\	-10.9206
மாட்டோம்	-10.9209
▁கன்ன	-10.9211
▁ஒட்டு	-10.9216
பிஎஸ்	-10.9216
▁உம்மு	-10.9216
▁நடுங்க	-10.9219
▁most	-10.9222
▁Red	-10.9225
2017	-10.9231
▁which	-10.9233
▁ஊரை	-10.9233
▁உபயோகிக்க	-10.9233
▁உன்னால்	-10.9234
▁நேரிடும்	-10.9238
▁கவனத்தை	-10.9241
▁வம்ச	-10.9241
▁குறிக்கிறது	-10.9242
▁இணைப்ப	-10.9243
ேந்திர	-10.9248
▁வயசு	-10.9248
▁years	-10.9258
▁பராமரிக்க	-10.926
ெண்ண	-10.9263
▁மோசடி	-10.9267
▁தகுதியான	-10.9269
▁போதே	-10.927
▁நீரில்	-10.9271
▁மிஞ்ச	-10.9271
▁சாதாரணமாக	-10.9272
▁அவனின்	-10.9274
லெட்	-10.9274
▁கண்களுக்கு	-10.9276
▁பயமுறுத்த	-10.9278
▁பொறுமையாக	-10.9278
▁பாட்டில்	-10.9278
▁பரிகார	-10.9283
▁இமாம்	-10.9284
▁மன்னிப்பவனாக	-10.9285
▁பாரு	-10.9286
▁கிறிஸ்தவ	-10.929
ானந்த	-10.929
▁போலீசார்	-10.9292
வேதனை	-10.9296
▁முடிந்தால்	-10.9297
▁உதடு	-10.9297
தூத	-10.9298
▁HD	-10.93
▁கேட்டபோது	-10.93
▁செயற்பாடு	-10.9301
▁ஒடுக்க	-10.9302
▁செய்வதில்	-10.9302
▁Archive	-10.9305
▁கொதி	-10.9305
▁ஆயுள்	-10.9305
▁களி	-10.9308
▁USD	-10.9309
▁கடைகளில்	-10.9319
கிட்டு	-10.932
▁ஆணையாக	-10.9321
▁அசல்	-10.9321
▁டெல்லி	-10.9323
▁விஷயங்களில்	-10.9325
▁மோச	-10.9327
▁கண்டுபிடித்து	-10.9329
5,000	-10.9332
chan	-10.9335
▁வேறுபட்ட	-10.9341
▁கோடு	-10.9344
▁கண்காணிப்ப	-10.9347
▁வெறுத்த	-10.9347
▁இறப்பு	-10.9349
▁பாதையை	-10.935
▁நினைக்கிறார்கள்	-10.9351
விட்டாள்	-10.9353
▁help	-10.9359
▁நெருப்பை	-10.936
எழு	-10.936
▁ஆப்பிள்	-10.9368
▁குடும்பத்தினர்	-10.9372
▁மகனுக்கு	-10.9378
ware	-10.9378
▁என்னவென்று	-10.9382
▁வடிவமைப்ப	-10.9383
well	-10.9384
களுக்கிடையே	-10.9386
▁எதையாவது	-10.9388
▁பாதுகாத்து	-10.9391
▁வீழ்ச்சி	-10.9391
▁புறப்பட்டு	-10.9393
யுடனும்	-10.9395
▁பயணிக்க	-10.9398
▁ஆழமாக	-10.94
▁கற்பிக்க	-10.9403
▁நேர்காணல	-10.9405
▁அன்புடன்	-10.9407
▁அகதி	-10.9411
▁கேபிள்	-10.9411
pcs	-10.9423
▁தொழுகையை	-10.9424
▁காண்பித்த	-10.9427
▁அமைந்துள்ள	-10.943
▁தொல்லை	-10.9432
▁விட்டீர்கள்	-10.9437
▁பகலில்	-10.9443
▁குரலில்	-10.9443
▁முடக்க	-10.9443
▁அனுமதிக்கிறது	-10.9445
▁நேசிக்கிற	-10.9449
ிருக்கின்றான்	-10.945
▁mean	-10.945
▁அழைக்கப்பட்ட	-10.9451
விடுவேன்	-10.9452
▁அறிவித்தார்	-10.9452
▁அறிவாளி	-10.9454
▁ஒட்டுமொத்த	-10.9455
▁ஞாயிறு	-10.9455
▁வாக்களிக்க	-10.9455
▁இப்போதே	-10.946
இஸ்ராயீலின்	-10.9464
lock	-10.9468
▁ரஷ்ய	-10.9471
▁ஆர்டர்	-10.9472
▁நேர்ந்தது	-10.9472
▁பசுமை	-10.9472
▁please	-10.9483
▁ஆயிர	-10.9484
▁கேட்டார்கள்	-10.9487
▁கிடைக்காது	-10.9491
▁தெளிவுபடுத்த	-10.9496
▁இன்றுவரை	-10.9498
வேயில்லை	-10.9504
▁முன்வைத்த	-10.9506
தந்தை	-10.9511
▁பொதுமக்கள்	-10.9518
▁கட்டுப்பாட்டு	-10.9524
▁போட்டோ	-10.9529
▁செய்வதில்லை	-10.9529
▁பிரபஞ்ச	-10.9538
▁நெருக்கமாக	-10.954
ிருப்பான்	-10.954
cho	-10.9542
▁வாழ்கை	-10.9542
▁நாயகி	-10.9546
இதோ	-10.9547
900	-10.9548
▁டிக்கெட்	-10.9549
▁தூய்மையான	-10.9549
▁மூழ்க	-10.9551
ுருவ	-10.9553
▁பிராண்ட்	-10.9562
▁யூதா	-10.9562
▁உன்னோட	-10.9566
▁சர்ச்சை	-10.9568
கிருஷ்ண	-10.9569
▁படியுங்கள்	-10.9572
▁பேராசிரியர்	-10.9572
ஒவ்வொரு	-10.9578
TER	-10.958
▁Part	-10.958
▁செய்கின்றன	-10.9583
▁அமைப்பை	-10.9583
▁மூடப்பட்ட	-10.9585
தாரர்	-10.9592
cur	-10.9597
▁ஃப்ர	-10.9599
▁War	-10.96
▁தொடங்குகிறது	-10.9601
▁காதலை	-10.9603
நூல்	-10.9604
▁தாயார்	-10.9612
மிருந்து	-10.9616
▁நேர்வழியை	-10.9617
▁சென்றாலும்	-10.9618
▁நிதானமாக	-10.9618
விடுவான்	-10.962
▁வாரங்களுக்கு	-10.9622
▁சுருக்கமாக	-10.9626
▁இயலவில்லை	-10.9626
▁வசனங்கள	-10.9627
▁வணக்க	-10.9628
▁பெறுவீர்கள்	-10.9629
▁book	-10.963
யூட்ட	-10.9638
▁விட்டுவிட்டு	-10.9639
▁Good	-10.9642
▁இரட்சகர	-10.9645
▁முற்பட	-10.9652
▁தகப்பன	-10.9661
col	-10.9662
அறிவ	-10.9663
▁பூர்வ	-10.9666
▁அவதான	-10.9668
▁உனக்க	-10.9668
▁நெட்வொர்க்	-10.9668
▁பதிலளித்த	-10.9669
▁இனிமையான	-10.9672
▁அண்ட்ராய்டு	-10.9673
▁புறக்கணிக்க	-10.9676
யுற்ற	-10.9677
put	-10.9679
▁பாம்பு	-10.9679
மதிப்ப	-10.9681
▁தோள்	-10.9684
van	-10.9687
▁விண்வெளி	-10.9692
▁வரவேற்ப	-10.9696
▁வாய்ப்பை	-10.9697
▁மிகுதி	-10.9698
▁எங்கோ	-10.9698
▁அளவிட	-10.9699
0000	-10.9701
▁இவரின்	-10.9704
▁பகவான்	-10.9715
▁நண்பர்களுக்கு	-10.9728
▁சுரங்க	-10.9729
▁கூகுள்	-10.973
▁கண்டறிந்த	-10.9737
ின்றார்களோ	-10.9744
ியுள்ளோம்	-10.9756
▁சுமத்த	-10.9758
▁காமெடி	-10.9758
ுமானால்	-10.9763
▁Lanka	-10.9763
விழா	-10.9767
▁change	-10.9772
ுகிறாரோ	-10.9776
▁தங்குமிட	-10.9777
exp	-10.9777
▁தாமதமாக	-10.9779
▁எளிமையாக	-10.978
▁விற்ப	-10.9784
▁TV	-10.9785
▁tea	-10.9786
ொன்றை	-10.9786
▁அலட்சிய	-10.9786
▁ருசி	-10.979
ுபவர்களுக்கு	-10.9791
▁முன்னிலையில்	-10.9798
Host	-10.9801
▁விபத்தில்	-10.9801
▁பேசிக்கொண்ட	-10.9805
▁பழமொழி	-10.9806
▁திறனை	-10.9808
▁பிளே	-10.9808
▁விசுவாசி	-10.981
▁men	-10.981
▁Why	-10.9813
▁இவனை	-10.9814
▁வருக	-10.9816
▁பதிலளித்தார்	-10.9822
▁டொமைன்	-10.9824
▁ஹோட்டல்	-10.9824
▁வேண்டுகோள	-10.9834
▁காணொளி	-10.9834
▁உடனடி	-10.984
ப்பார்த்த	-10.9848
uni	-10.985
▁நேரத்திலும்	-10.985
▁போற்றி	-10.9856
▁அவங்கள	-10.9862
▁புண்டை	-10.9864
களாலும்	-10.9865
▁வருவதில்லை	-10.9866
▁மேற்கோள்	-10.9867
▁ஒப்படைக்க	-10.9878
▁உத்தியோக	-10.9886
▁காரணத்தால்	-10.9887
▁தம்முடைய	-10.9888
விதமாக	-10.9888
▁சம்பவங்கள்	-10.9888
▁சீனாவில்	-10.9897
ஆஆஆஆஆஆஆஆஆஆஆஆஆஆஆ	-10.99
▁ஒவ்வொ	-10.9909
▁புழு	-10.9909
▁வருவாய்	-10.9909
▁உணவில்	-10.991
▁தலித்	-10.9913
களெல்லாம்	-10.992
▁நிவாரண	-10.992
▁யோகா	-10.9922
▁நன்கறிந்தவன்	-10.9925
▁குடியரசு	-10.993
▁never	-10.993
uch	-10.993
▁America	-10.9934
▁வையுங்கள்	-10.9935
▁வரையறுக்க	-10.9936
▁அன்பின்	-10.9953
PL	-10.9956
▁இவள	-10.9957
களிட	-10.9957
மகனே	-10.9957
▁செய்பவற்றை	-10.9958
▁Je	-10.9965
▁உலகிற்கு	-10.9968
▁Article	-10.9973
▁வசதியான	-10.9974
▁காயப்படுத்த	-10.9975
க்கூடாத	-10.9984
▁ஆதரவாளர்	-10.9985
திருக்குர்ஆன்	-10.9986
▁அலச	-10.9987
▁விரும்பாத	-10.9991
cover	-10.9995
▁விடயம்	-10.9999
▁வெளிப்புற	-11.0005
▁காவல்துறை	-11.0008
▁சர்க்கரை	-11.0012
▁தங்கியிருந்த	-11.0015
`	-11.0015
▁இருப்பிட	-11.0024
▁கார்டு	-11.0027
▁நடுவில்	-11.0028
வாழ்க்கை	-11.0035
mission	-11.0036
2.0	-11.0039
▁அத்தாட்சிகளை	-11.0043
▁great	-11.0046
▁சூட்ட	-11.0047
▁சாத்தியமான	-11.0048
▁நெருக்க	-11.0048
▁பருக	-11.0051
▁மாறியது	-11.0055
▁நபியவர்கள்	-11.0061
▁இலாப	-11.0063
▁பிரபு	-11.0065
▁மரணமடைந்த	-11.008
▁இறக்குமதி	-11.0085
9%	-11.0094
▁யாராலும்	-11.0094
▁செருக	-11.0099
▁வகுத்த	-11.0102
▁வருபவர்	-11.0105
▁விற்பனையாளர்	-11.0108
0.00	-11.011
▁தொழிற்	-11.0115
▁மேம்பட்ட	-11.012
▁பூமியையும்	-11.012
▁பேச்சுவார்த்தை	-11.0134
▁இஸ்ரயேல்	-11.0134
▁தொங்க	-11.0149
▁அசைவ	-11.0153
▁பயிர்	-11.0158
▁வீழ்த்த	-11.0168
▁உற்று	-11.0175
▁ஊரு	-11.0177
▁காட்டிலும்	-11.0179
▁வாரிசு	-11.0179
▁சுலபமான	-11.0187
▁நட்ப	-11.0188
▁ராணி	-11.0191
ஸாலிஹான	-11.0193
▁லிங்க	-11.0193
▁ஸலமா	-11.0198
▁கடன	-11.0206
▁Up	-11.0209
ium	-11.0213
▁முடியலை	-11.0223
▁400	-11.0225
phone	-11.0225
▁Black	-11.0232
▁அய்ய	-11.0235
▁அதிகாரப்பூர்வ	-11.0235
▁இந்தியாவுக்கு	-11.024
▁மாறுபட்ட	-11.0241
யிருந்து	-11.0245
▁திருவடி	-11.0247
▁Windows	-11.0247
▁பவுல	-11.0249
▁பிளஸ்	-11.025
▁உருப்படி	-11.0252
▁அவங்களுக்கு	-11.0253
ஆண்டவர	-11.0254
▁செய்வதாக	-11.026
▁திருமதி	-11.0266
▁தடுமாற	-11.0269
▁பக்தர்	-11.0279
▁போரில்	-11.0284
▁விநாடி	-11.0287
அவள்	-11.0296
▁call	-11.0296
▁கால்நடை	-11.0297
▁திருமணத்திற்கு	-11.0302
▁பெயரிட	-11.0303
▁நினைவுகூர	-11.0304
▁மேடையில்	-11.031
▁ப்ரா	-11.0325
ுடனேயே	-11.0331
அப்போது	-11.0332
▁நிமிஷ	-11.0337
▁போரிட	-11.0337
▁பொங்க	-11.034
ஆகவே	-11.0343
▁பகிர்ந்த	-11.0352
▁முதன்மையான	-11.0356
▁Mobile	-11.0357
▁வேண்டியிருந்தது	-11.0361
▁முதலமைச்சர்	-11.0363
▁கிழி	-11.0363
▁இவ்ளோ	-11.0363
▁year	-11.0365
▁உங்களுக்கே	-11.0365
▁முப்பது	-11.0368
color	-11.0373
▁விரும்பினார்	-11.0385
▁எல்லாருக்கும்	-11.0387
▁எம்மை	-11.039
▁வியந்த	-11.0402
▁again	-11.0403
ணும்னு	-11.0407
▁அழகை	-11.0411
▁சற்றே	-11.0413
▁இந்தியர்கள்	-11.0415
▁மீதே	-11.0416
▁think	-11.0418
▁வாலிப	-11.043
▁இடங்களிலும்	-11.0432
▁கண்காட்சி	-11.0433
lish	-11.0433
▁give	-11.0433
▁பார்ப்பதற்கு	-11.0437
▁நிராகரிப்போர	-11.0439
lation	-11.0445
▁ஓதிக்	-11.0447
▁ஆராய்ந்து	-11.0449
▁விக்கிப்பீடியா	-11.0453
▁விதிக்கப்பட்ட	-11.0456
▁தனியுரிமை	-11.0463
▁ஆளாக	-11.0467
சிறந்த	-11.047
▁ஆயத்த	-11.047
▁Webtalk	-11.0473
▁தொடர்ச்சியாக	-11.0474
▁தேய்	-11.0476
இந்தியா	-11.0476
புத்தக	-11.0483
▁after	-11.0483
▁சாம்சங்	-11.0484
▁சீக்கிரம்	-11.0489
▁ப்ளூ	-11.0496
▁இறைவனுடைய	-11.0498
▁எவ்வளவோ	-11.0499
▁குடிப்ப	-11.0501
▁கணக்கை	-11.0502
▁Who	-11.0505
▁பிடிச்ச	-11.0505
▁அறிவீர்கள்	-11.0506
▁thought	-11.0509
▁செய்கின்றனர்	-11.0515
▁மிகைத்த	-11.0519
point	-11.0519
▁Medi	-11.0522
▁கிறிஸ்தவர்	-11.0524
▁கருதுகிறேன்	-11.0529
▁உலாவி	-11.0533
▁அடுக்க	-11.0535
▁Page	-11.054
ji	-11.0545
cket	-11.055
▁சசிகலா	-11.055
▁உடல்நல	-11.055
▁நாகரிக	-11.0552
▁தயக்க	-11.0554
▁Photo	-11.0556
▁புறப்பட	-11.0558
▁பாவமன்னிப்பு	-11.056
▁புலம்ப	-11.057
▁யாருமில்லை	-11.0575
▁info	-11.058
▁சப்த	-11.0589
▁திணைக்கள	-11.0591
▁முழுதும்	-11.0593
300	-11.0599
You	-11.0601
▁Power	-11.0601
▁ஃப்ள	-11.0602
▁எல்லோருமே	-11.0609
▁சினிமாவில்	-11.0616
▁கொடூர	-11.0617
▁பத்திரிக்கை	-11.0617
நிறுவன	-11.0617
▁எழுதினேன்	-11.0627
▁அஜித்	-11.063
▁வினாடி	-11.0644
▁அந்நாள	-11.0645
▁தெரிகிற	-11.0645
▁Play	-11.065
▁இராஜ	-11.0651
▁வீட	-11.0652
க்கணக்க	-11.0656
ush	-11.0657
▁அதிகப்படுத்த	-11.0659
அதனால்	-11.0665
▁உறுப்பினர	-11.0665
▁பாதுகாக்கப்பட்ட	-11.0672
▁தெரியப்படுத்த	-11.0673
▁செலவழிக்க	-11.0684
▁குறியீட்ட	-11.0685
▁சிக்கலான	-11.0685
▁கிளம்பி	-11.0688
▁கோட்பாடு	-11.0689
▁ஓசை	-11.069
அதாவது	-11.0693
▁அலுவலர்	-11.0694
▁பவள	-11.0695
▁பட்ஜெட்	-11.07
▁உள்நாட்டு	-11.0701
▁செயல்படுகிறது	-11.0706
▁எங்கிருந்தாலும்	-11.0707
▁திறப்ப	-11.0713
▁பயபக்தி	-11.072
▁சூடு	-11.0721
▁பிச்சை	-11.0725
▁யதார்த்த	-11.0725
▁யாரேனும்	-11.0731
▁ஏற்பட்டுள்ளது	-11.0731
ெல்லா	-11.0734
▁சுவாரஸ்யமான	-11.0734
▁செய்துகொண்ட	-11.0741
▁கருத்துக்கள	-11.0741
▁குணப்படுத்த	-11.0746
▁live	-11.0747
▁அதிபதி	-11.0748
▁ஏற்படுத்தியது	-11.075
▁வயிறு	-11.0759
▁பீட்டர்	-11.0767
ோரில்	-11.0768
▁துர்	-11.0773
ization	-11.0775
IG	-11.0777
▁child	-11.0788
அழைக்கப்படுகிறது	-11.0803
மகிழ்	-11.0808
▁தொட்ட	-11.0813
▁செய்கை	-11.0813
▁இற்கு	-11.0818
ஷீ	-11.0821
▁2003	-11.0823
▁அல்லாஹ்வையன்றி	-11.0823
▁வீணாக	-11.0824
][	-11.0824
▁யூரோ	-11.0832
▁மாறிவிட்டது	-11.0841
▁ஊடுருவ	-11.0846
▁செவ்வாய்	-11.0847
▁தெரிந்துகொள்ள	-11.0848
▁சாதகமாக	-11.0852
▁பரபரப்பு	-11.0862
▁அவனோ	-11.0862
ப்பொருள	-11.0862
▁அறிந்துகொள்ள	-11.0866
▁சுவையான	-11.0867
▁கனவில்	-11.0867
▁சௌ	-11.0869
▁சிந்திப்ப	-11.0872
▁State	-11.0873
▁கொள்கிறார்கள்	-11.0877
where	-11.0883
வேண்டுமா	-11.0887
▁ஈரான	-11.0904
▁சடங்கு	-11.0904
▁இவ்விரு	-11.0906
▁கேட்கிறேன்	-11.0911
▁முன்னிலை	-11.0928
▁ரசிக	-11.093
▁கூகிள்	-11.0931
▁இருவரையும்	-11.0943
▁வீசி	-11.0953
▁அவனுக்கே	-11.0954
முஹம்மத	-11.0955
▁குமர	-11.0962
▁ஹிந்து	-11.0964
2.1	-11.0975
▁மிகைத்தவன்	-11.0975
▁Right	-11.0978
▁கட்டளையிட்ட	-11.0986
GB	-11.0986
▁குளிர்ந்த	-11.0987
▁View	-11.0989
▁புத்திரர	-11.0992
▁Comments	-11.1001
▁அநியாயக்காரர்கள	-11.1002
▁FOR	-11.1014
▁மிகச்சிறந்த	-11.1017
▁கூட்டமைப்ப	-11.102
▁Android	-11.1021
▁புத்தாண்டு	-11.1028
▁கடக்க	-11.103
▁எளிமை	-11.103
▁Posted	-11.1033
▁குழம்ப	-11.1038
ங்கார	-11.1042
▁அவ்வளவாக	-11.1043
▁கிடைக்குமா	-11.1044
▁வெற்றிகரமான	-11.1047
▁இலக்கண	-11.1048
▁திறன	-11.1049
▁மண்டப	-11.1057
வயது	-11.106
▁சோழ	-11.1066
▁விளிம்ப	-11.1067
▁சைக்கிள்	-11.1075
▁ஈடுபாடு	-11.1093
▁வழிபட்ட	-11.1095
▁துருவ	-11.1097
▁நடைபெறுகிறது	-11.1097
▁ஜன்னல்	-11.1102
▁அதேபோல	-11.1107
▁ஐபோன்	-11.1108
▁தியேட்டர	-11.111
▁power	-11.1119
▁தொந்தரவு	-11.1124
▁கவிஞன	-11.1125
▁காண்பீர்கள்	-11.1128
▁வஹீ	-11.1128
▁இவர்களது	-11.113
▁கூறியுள்ள	-11.1132
▁சிக்கல	-11.1134
▁விவாகரத்து	-11.1135
▁பிறந்தநாள்	-11.1138
▁பரீட்சை	-11.114
▁கூடாதா	-11.1142
▁ஸ்மார்ட்	-11.1146
▁முழங்க	-11.1148
இப்றாஹீ	-11.1151
▁மறைவு	-11.1153
▁மீடியா	-11.1155
▁உட்பட்ட	-11.1155
▁imp	-11.1156
▁அமில	-11.1156
▁Che	-11.1163
▁feel	-11.1171
▁With	-11.1174
இரண்டு	-11.1177
▁Please	-11.1178
▁தேவாலய	-11.1178
▁பூக்கள்	-11.1181
▁அப்துர்	-11.1184
▁ஒவ்வோர்	-11.1189
▁பங்கேற்க	-11.1206
▁அனுமதிக்கப்பட்ட	-11.1211
வடிவ	-11.1214
அவ்வாறு	-11.1222
▁தாமரை	-11.1223
▁முடியுமோ	-11.1225
▁மெல்லிய	-11.1227
▁தலையிட	-11.1232
▁படையினர	-11.1243
▁மைதான	-11.1243
▁ஈர்ப்பு	-11.1245
▁ஜோதிட	-11.1256
ுகிறானோ	-11.1256
▁நிகரற்ற	-11.1258
▁கூறுகின்றார்	-11.1261
struct	-11.1263
▁பழமையான	-11.1265
▁தாயார	-11.1267
▁ஆல்ப	-11.1268
▁language	-11.1277
▁இணைப்பை	-11.1278
1.1	-11.1282
text	-11.1293
▁முற்பட்ட	-11.1295
▁விரும்புகிறீர்	-11.1301
றீங்களா	-11.1307
▁நெய்	-11.1307
▁தண்ணீரை	-11.1315
▁AND	-11.1316
கொள்கிற	-11.1327
▁ஆலோசகர்	-11.1332
▁தீவிரவாத	-11.1333
▁முன்கூட்டியே	-11.1338
▁ஹூ	-11.1338
▁தலைப்பில்	-11.1338
▁Bank	-11.134
▁பில்லியன்	-11.1343
▁Christ	-11.1349
▁அத்தியாவசிய	-11.1349
▁தரும	-11.1353
▁கிண்டல	-11.1353
▁ஜெர்மனி	-11.1354
▁நடமாட	-11.1358
▁Tea	-11.1359
▁YouTube	-11.136
▁ஒப்புதல்	-11.136
▁கண்டிப்பா	-11.1362
▁பொம்மை	-11.1364
▁திறக்கப்படும்	-11.1364
▁அரபு	-11.137
▁அடங்கிய	-11.137
▁made	-11.1371
▁பட்டியலிட	-11.1372
▁திரைக்கதை	-11.1377
▁கழித்த	-11.1383
▁இல்லையெனில்	-11.1388
▁பரிமாண	-11.1388
▁மின்னணு	-11.1389
▁நிதான	-11.1394
▁அதீத	-11.14
▁வலைதள	-11.1404
ulation	-11.1408
▁வருங்கால	-11.141
▁ஹோஸ்ட்	-11.1411
▁காப்பீடு	-11.1415
▁தவிக்க	-11.1418
▁சரிசெய்ய	-11.1419
▁மகிழ்ச்சியடை	-11.1419
▁முஃமின	-11.1421
0.0	-11.1425
▁கொண்டவர்களே	-11.143
▁ஆஸ்திரேலியா	-11.1454
▁போதாது	-11.1455
▁பிரசுர	-11.1456
▁க்ள	-11.1462
▁யாதொரு	-11.1463
▁பிரசவ	-11.1465
PO	-11.1466
star	-11.1483
▁அலைஹி	-11.1483
▁பேப்பர்	-11.1486
▁முனிவர்	-11.1493
▁him	-11.1494
▁அப்படியென்றால்	-11.1495
ALL	-11.1496
▁ஸ்கூ	-11.1498
▁fun	-11.1511
▁துறவி	-11.1511
தண்டனை	-11.1515
ju	-11.1518
▁Video	-11.1522
ெக்ஸ்	-11.1531
▁உடையவர்	-11.1546
▁காயமடைந்த	-11.1558
▁தொண்டர்	-11.156
▁நாகரீக	-11.1567
▁ஆபாச	-11.1568
▁போஸ்ட்	-11.1576
▁நேசிக்கிறார்	-11.1576
▁follow	-11.1579
▁வருச	-11.1584
▁கலவர	-11.1585
லட்சுமி	-11.1592
▁வலைப்பூ	-11.1598
▁கட்டளையிட	-11.16
▁அரசியலுக்கு	-11.1606
CR	-11.1611
▁பிடிக்காத	-11.1612
தொழில்	-11.1613
▁வேண்டுமே	-11.1619
▁sw	-11.1622
▁கையிருப்பில்	-11.1624
▁2001	-11.1625
▁Star	-11.1629
▁நண்பர்களுடன்	-11.1632
வேதத்	-11.1645
▁விழிப்புணர்வு	-11.1647
▁வட்டார	-11.1652
▁எவருக்கும்	-11.1656
▁செவியுற	-11.1657
▁செயலாக்க	-11.1661
▁Off	-11.1662
▁ஒன்றிணை	-11.1664
▁கடனை	-11.1665
▁உயர்தர	-11.1672
▁தெரியுது	-11.1677
▁தந்தையிடம்	-11.1678
▁இயல்ப	-11.1679
▁நம்பிக்கையாளர்	-11.1686
▁WordPress	-11.1693
▁மகளிர்	-11.1693
▁பிரிவினர	-11.17
▁ஒவ்வொன்றும்	-11.1704
ச்செயல	-11.1706
▁photo	-11.1712
▁look	-11.1718
▁வியாதி	-11.1722
▁யாழ்	-11.1723
கல்வி	-11.1728
▁போகிறீர்கள்	-11.1737
▁மாஸ்டர்	-11.1751
▁ஆன்லைனில்	-11.1756
▁பகுத்தறி	-11.1756
▁பொண்ணு	-11.1757
▁நிரூபித்த	-11.1758
▁கியாம	-11.1759
▁குடியேற	-11.1765
▁அனேக	-11.1765
▁எஜமான	-11.1768
[2]	-11.177
▁இவ்வித	-11.1771
▁link	-11.1774
▁துடிப்ப	-11.1777
▁அமர்ந்திருந்த	-11.1784
▁1990	-11.1787
▁page	-11.179
▁list	-11.1791
▁படிப்படியாக	-11.1797
▁பகுப்பு	-11.1797
▁சோதித்த	-11.18
▁கற்பித்த	-11.1803
▁பின்தொடர	-11.1814
▁also	-11.1826
▁அள்ளி	-11.183
▁ராஜ்ய	-11.1837
avi	-11.1838
▁பதிவுலக	-11.1841
▁கேலக்ஸி	-11.1849
▁plan	-11.1859
scription	-11.1861
ஒவ்வொருவருக்கும்	-11.1865
▁சேகரிப்ப	-11.1866
shop	-11.1877
▁கண்ணீர	-11.1879
matic	-11.1883
▁நரம்பு	-11.1884
▁மீட்ப	-11.1887
▁தமிழ்நாட்டில்	-11.189
▁சாப்பாடு	-11.1891
▁விடுவித்த	-11.1903
ification	-11.1906
வற்றிலிருந்து	-11.1914
▁உறிஞ்ச	-11.1914
▁ஹார்மோன்	-11.1925
graph	-11.1938
▁சிறுநீரக	-11.1943
▁முதுகு	-11.1949
▁ஏற்படுத்தியுள்ள	-11.1951
ஆங்கில	-11.1952
ாதிபதி	-11.1956
▁சொல்கின்ற	-11.1969
▁திண்ணமாக	-11.1972
முயற்சி	-11.1975
▁எதுவுமில்லை	-11.1976
vid	-11.1977
▁வடிவமைக்க	-11.1978
▁சொருகி	-11.1979
▁விடுபட	-11.1985
source	-11.199
▁புரட்ட	-11.1991
▁செய்கிறார்களோ	-11.1994
▁எச்சரிப்ப	-11.1996
box	-11.1997
ஏனெனில்	-11.2017
▁அடித்தள	-11.2021
▁அலற	-11.2026
spect	-11.2028
கடந்த	-11.2032
▁First	-11.2037
▁சங்கிலி	-11.2037
மூஸா	-11.2044
▁பிராந்திய	-11.2049
ியலாளர்	-11.2055
▁நீண்டகால	-11.2058
▁தென்பட	-11.2059
▁காஷ்மீர	-11.2067
▁முதுமை	-11.2067
▁தலைநகர	-11.2076
மாயிருக்கிற	-11.208
▁கிளப்ப	-11.2087
▁அழுகை	-11.2102
▁Service	-11.2103
▁கர்நாடக	-11.2109
▁வாழ்நாளில்	-11.211
▁சிறிதாக	-11.2125
▁போலீச	-11.2125
கொண்டிருந்த	-11.2125
▁பெய்ய	-11.2126
▁கோபுர	-11.2126
▁அளிக்கப்பட்ட	-11.2127
▁கல்லறை	-11.2128
▁ஈரப்பத	-11.213
▁லேசர்	-11.213
▁முடிவடைந்த	-11.2131
▁பிரதிபலிக்க	-11.2133
▁ஒத்துழைப்பு	-11.2139
▁கொழும்பு	-11.2141
▁உபகரண	-11.2147
▁பத்ம	-11.2148
கீழ்	-11.215
▁URL	-11.2151
▁கிடைக்கின்றன	-11.2156
▁மலையாள	-11.2158
▁pass	-11.216
▁வானொலி	-11.216
="0.	-11.2162
▁அசுர	-11.217
▁மன்றாட	-11.2175
▁புதுப்பித்த	-11.2178
சொன்ன	-11.218
அமெரிக்க	-11.218
▁தனிப்பயனாக்க	-11.2181
▁நன்கொடை	-11.2187
▁Online	-11.2212
▁உளவியல்	-11.2212
மயமான	-11.2219
▁இதிலிருந்து	-11.2223
▁பிடிவாத	-11.2231
▁Ass	-11.2232
▁தெரிவிப்ப	-11.2233
▁துறைமுக	-11.2245
▁கண்ணோட்ட	-11.2246
▁ஆண்டவரே	-11.2248
புதிய	-11.2249
▁பொதுமக்கள	-11.2253
ினின்று	-11.2256
▁நினைவுபடுத்த	-11.2262
▁ஏற்றுக்கொண்ட	-11.2262
▁Health	-11.2266
▁தோண	-11.2274
▁சனிக்கிழமை	-11.2296
மங்கல	-11.2299
▁வகிக்க	-11.2304
▁புரிஞ்ச	-11.2305
▁தெரிந்திருக்க	-11.2319
▁பௌத்த	-11.2321
▁வற்புறுத்த	-11.2333
▁காவிய	-11.2336
ாவைப்	-11.2337
▁History	-11.2345
▁வேதாகம	-11.2352
▁சொல்லியிருக்கிற	-11.2354
▁long	-11.2354
▁பொறுக்க	-11.2356
ிலாவது	-11.2357
▁வரவேற்கிறோம்	-11.2379
▁மைக்ரோ	-11.2394
இறுதி	-11.2403
▁முரண்பாடு	-11.2407
▁அண்மையில்	-11.2419
▁system	-11.2425
▁முன்னோடி	-11.2426
▁வேணு	-11.2427
▁செய்பவர	-11.2433
▁காப்பாத்த	-11.2442
▁மறைவான	-11.2444
பொருட்	-11.2447
▁சுயவிவர	-11.245
▁சமைக்க	-11.2452
களுக்கெல்லாம்	-11.2458
▁பைபிள்	-11.2461
▁PDF	-11.2462
▁எதிர்வினை	-11.2469
ATION	-11.2469
எக்ஸ்	-11.2474
▁ஆடம்பர	-11.2474
▁வெள்ளிக்கிழமை	-11.2481
▁கடவுச்சொல்	-11.2493
▁புகழ்பெற்ற	-11.2501
▁would	-11.2512
▁யாரிடமும்	-11.2516
▁அடுத்தடுத்த	-11.2516
work	-11.2517
▁அரேபிய	-11.2518
▁எஞ்சிய	-11.252
▁Green	-11.2524
▁நல்வழி	-11.2528
▁விரட்டி	-11.2534
▁லண்டன்	-11.2537
▁System	-11.2543
▁அறுவடை	-11.2543
▁எளித	-11.2545
▁interest	-11.2545
▁Child	-11.2549
2:1	-11.2554
▁ஆன்மிக	-11.2555
▁Download	-11.2562
▁open	-11.2569
▁துஆ	-11.2574
▁shall	-11.2578
▁ஆட்சியாளர்	-11.2585
ுணர்ச்சி	-11.2585
▁Manufacturer	-11.2587
▁உத்தரவிட்ட	-11.2591
▁முதியவர்	-11.2593
கவலை	-11.2594
மத்தேயு	-11.26
▁மார்க்கெட்டிங்	-11.2606
மீண்டும்	-11.2611
▁மக்களிடையே	-11.263
▁பங்கேற்ற	-11.2631
▁வேதனையுண்டு	-11.2637
▁உங்களுக்கான	-11.2645
▁செய்வதற்காக	-11.2646
எழுந்திரு	-11.2648
▁week	-11.265
▁பங்கேற்ப	-11.265
▁பிரீமிய	-11.2656
▁வேட்டை	-11.2657
நூறு	-11.2664
கேள்வி	-11.2666
▁பதிவிட்ட	-11.2667
நாதர்	-11.2678
▁Work	-11.2688
▁class	-11.2695
▁நடுநிலை	-11.2704
▁சொல்லியிருந்த	-11.2706
▁பொத்தானை	-11.2707
etting	-11.2711
▁Office	-11.2715
▁Exp	-11.2734
▁Orphek	-11.2751
▁trans	-11.2752
ப்பதிவ	-11.2763
▁நாற்பது	-11.2764
▁மூணு	-11.2769
▁முன்னுரிமை	-11.277
▁அன்றே	-11.2771
▁முழுவதுமாக	-11.2783
▁show	-11.2788
▁டெஸ்ட்	-11.2792
▁home	-11.2796
▁பண்டிகை	-11.2815
▁வாயிலாக	-11.2816
▁இவரால்	-11.2816
2:2	-11.2818
்டால்	-11.2826
▁கலாசார	-11.2828
▁இணையத்தள	-11.2841
▁அனுபவிப்ப	-11.2846
▁துபாய்	-11.2847
▁நான்காவது	-11.2849
▁without	-11.285
▁தவிர்த்த	-11.2854
▁must	-11.2858
தெய்வ	-11.2861
▁கால்பந்து	-11.2867
▁பாண்டிய	-11.2867
▁நாயன	-11.2869
▁விகடன	-11.287
▁சுலப	-11.2872
▁சுயநல	-11.2873
▁பகிரங்கமான	-11.2873
▁மூலிகை	-11.288
▁வியக்க	-11.2882
▁அப்பெண்	-11.2886
▁இப்போதைக்கு	-11.2886
▁கிறிஸ்துமஸ்	-11.2906
vice	-11.2906
▁தெற்கு	-11.2914
▁number	-11.2918
▁எடுத்துக்கொண்ட	-11.2921
▁கர்த்தருடைய	-11.2929
base	-11.293
▁better	-11.2931
▁ட்விட்டர்	-11.2944
▁கூட்டாளி	-11.2954
▁1.5	-11.2954
▁கடிகார	-11.2961
▁வெளியிட்டுள்ள	-11.2962
▁வடிவமைத்த	-11.2963
▁இழுத்த	-11.2965
▁வகித்த	-11.2973
WEB	-11.2974
▁உவமை	-11.2982
▁பிரபாகரன	-11.2984
▁மீதமுள்ள	-11.299
▁வேர	-11.2991
▁தெய்வீக	-11.2997
▁உரையாற்ற	-11.2997
▁சமர்ப்பிக்க	-11.3003
▁மனைவியர	-11.3005
▁அடுப்ப	-11.3011
ஆபிரகாம	-11.3018
▁முடிவெடுத்த	-11.3022
▁விடயங்களை	-11.3029
▁place	-11.3029
செயல்	-11.3033
▁யாக்கோப	-11.3036
▁full	-11.3039
▁ஸ்லாட்	-11.304
▁own	-11.3056
▁டவுன்	-11.3056
குர்ஆன்	-11.3062
▁குடிமக்கள	-11.3072
▁உள்நுழை	-11.3075
▁சமைத்த	-11.309
இங்கே	-11.3094
▁பதிவேற்ற	-11.3103
▁உரித்த	-11.3105
▁சமையலறை	-11.3108
▁இழந்துவிட்ட	-11.3111
▁அமைச்சரவை	-11.3115
▁லவ்	-11.3121
▁ஒளிபரப்ப	-11.3128
ிறாரோ	-11.3132
▁வெடித்த	-11.3132
▁வேளாண்	-11.3135
▁இருபத்த	-11.3146
tribut	-11.3148
▁நெற்றி	-11.3156
▁அசிங்க	-11.3156
▁தண்டிப்ப	-11.3172
▁கோளாறு	-11.3175
▁விஷ்ணு	-11.3175
▁சரீர	-11.3187
▁ஆய்வாளர்	-11.3188
▁மட்டுமின்றி	-11.3195
வணக்கத்திற்குரிய	-11.3195
▁நெறிமுறை	-11.3198
▁பொழுதுபோக்கு	-11.3201
▁கூட்டத்தினர	-11.3204
▁உத்தரவாத	-11.3205
▁எடுத்துக்காட்டு	-11.3219
பிரிவு	-11.3238
▁effect	-11.3241
▁முதலாவதாக	-11.3241
ified	-11.325
▁ஆறுதல	-11.3256
▁வயிற்றில்	-11.3262
▁செம்ம	-11.3266
▁சுமக்க	-11.3281
▁படுகொலை	-11.3282
ிடமிருந்த	-11.3283
]]]	-11.3288
▁வீணாக்க	-11.3289
▁even	-11.3302
▁பட்சத்தில்	-11.3303
▁டெஸ்க்டாப்	-11.3309
▁video	-11.3309
▁water	-11.3316
▁தலைவலி	-11.3316
▁வீழ்ந்த	-11.3316
▁high	-11.3316
▁மாமியார	-11.3319
▁Great	-11.3329
▁ஓரிரு	-11.3335
▁தரப்பினர	-11.3338
▁புகுத்த	-11.3357
ஞ்ஞ	-11.3366
▁சமூகத்தாரே	-11.337
▁இப்படம்	-11.339
▁குஜராத்	-11.3391
▁ஆங்கிலேய	-11.3391
▁பொறியியல்	-11.3397
▁பிம்ப	-11.3404
▁செல்வாக்கு	-11.3405
▁Open	-11.341
▁வதந்தி	-11.341
▁ஆயிரக்கணக்கான	-11.3438
▁before	-11.3438
▁ஒருங்கிணைந்த	-11.3451
▁பரலோக	-11.3453
இயேசு	-11.3469
▁High	-11.3475
▁நற்செயல	-11.3478
▁உண்மையாளர்களாக	-11.3479
▁அழிந்த	-11.3481
▁Business	-11.3492
▁பகுப்பாய்வு	-11.3492
▁அவகாசம்	-11.3499
▁ஆப்பிரிக்க	-11.3513
▁South	-11.3514
0.1	-11.3523
▁சிருஷ்டி	-11.3541
▁வசிப்ப	-11.3545
யூஸுஃப	-11.3548
▁நிபுணத்துவ	-11.3555
▁முகமது	-11.3555
▁Friend	-11.3561
▁அலுமினிய	-11.3568
▁பாம்ப	-11.3569
▁கமிஷன	-11.3572
▁விவரித்த	-11.3578
▁முதிர்ந்த	-11.3583
நன்மை	-11.3586
▁தரவுத்தள	-11.3589
▁குதித்த	-11.3591
▁பொய்ப்பித்த	-11.3595
அதிக	-11.3607
3:1	-11.3609
▁Jesus	-11.3624
▁find	-11.3627
▁எதிர்நோக்க	-11.3631
▁பிரித்தானிய	-11.3638
▁Labels	-11.3645
▁ஸ்டைல	-11.3646
▁கருப்பொருள்	-11.3666
▁புருஷன	-11.3667
▁website	-11.368
கொண்டிருக்கிறேன்	-11.3686
கவிதை	-11.3687
***	-11.3687
▁பகிரங்கமாக	-11.3698
▁பழிவாங்க	-11.3698
▁பிரிட்டிஷ்	-11.3701
▁விளைவிக்க	-11.3728
▁சீஷர்கள	-11.373
▁பங்குதாரர்	-11.3731
▁நாத்திக	-11.3736
▁துரித	-11.375
▁சார்பாக	-11.3751
▁சந்ததியினர	-11.3755
Tech	-11.3773
▁எழும்ப	-11.3778
▁மனதிற்கு	-11.3778
▁Social	-11.3779
▁போலீஸ	-11.3781
▁தன்னம்பிக்கை	-11.3785
▁குறிக்கோள்	-11.3785
▁ஒப்பிட்டு	-11.3786
▁வேட்டையாட	-11.3794
▁முன்பதிவு	-11.38
▁காவிரி	-11.38
▁மேற்கண்ட	-11.3801
▁குளிர்கால	-11.3803
▁game	-11.3804
direct	-11.3804
▁always	-11.3807
▁Engine	-11.3807
▁much	-11.3808
▁வாழ்கின்ற	-11.3811
▁ஆயிஷா	-11.3814
▁இற்றைப்படுத்த	-11.3814
2,000	-11.3816
▁பொய்ப்பிக்க	-11.3821
▁month	-11.3821
▁product	-11.3821
thank	-11.3822
▁நழுவ	-11.3823
▁அடர்த்தி	-11.3825
▁two	-11.3828
▁mind	-11.3838
▁question	-11.3842
ngle	-11.385
▁ஈடுபடுத்த	-11.3856
▁வித்யா	-11.3862
▁வகுக்க	-11.3865
▁பழங்குடி	-11.3871
▁சீர்திருத்த	-11.3871
▁ஆதாய	-11.3874
▁சாதகமான	-11.3878
▁எல்இடி	-11.3906
ِن	-11.3907
▁file	-11.3912
▁உங்களிட	-11.3916
▁அஹ்மத்	-11.3921
1.0	-11.3926
▁கிரீம்	-11.3935
▁கலைஞர	-11.3936
▁house	-11.3937
▁அபராத	-11.3941
▁தனுஷ்	-11.3942
▁Smart	-11.3943
ப்படுவர்	-11.3945
▁Share	-11.3961
▁அப்பாற்பட்ட	-11.3964
▁கலைஞன	-11.3969
▁களிமண்	-11.397
▁இப்போதைய	-11.398
எடுத்துக்காட்டாக	-11.3986
Coin	-11.3989
▁நியமித்த	-11.399
▁முகாமைத்துவ	-11.3993
tube	-11.3999
▁பராமரிப்ப	-11.4002
தெரிவித்துள்ளனர்	-11.4003
▁விடயங்கள்	-11.4011
▁அவனிடமே	-11.4024
▁Water	-11.4036
▁முன்னால	-11.4038
▁இங்கிருந்து	-11.4038
▁வெங்காய	-11.4043
What	-11.4047
▁Science	-11.4051
▁நிர்வாண	-11.4051
▁எழுத்தாளர	-11.4053
▁தவ்பா	-11.4058
▁வைட்டமின்	-11.4065
ability	-11.4072
▁ஹ்ம்ம்	-11.408
▁தொப்பி	-11.4081
▁வருண	-11.4086
பயிற்சி	-11.4092
▁Blue	-11.4108
▁வரலாற்ற	-11.4112
திரும்ப	-11.4144
▁Lord	-11.4147
▁அவ்ளோ	-11.4147
▁எவ்ளோ	-11.4167
▁மயங்கி	-11.4173
அனைத்து	-11.4189
▁ரிலீஸ	-11.4192
▁வேலைவாய்ப்பு	-11.4204
▁டெஸ்டோஸ்டிரோன்	-11.4212
▁வரம்பற்ற	-11.4212
▁அகராதி	-11.4212
க்ரஹ	-11.4233
▁தவித்த	-11.4234
▁எப்பவுமே	-11.4234
▁கோவிலுக்கு	-11.4234
▁வழங்குநர	-11.4237
▁miss	-11.4239
▁மெய்நிகர்	-11.4249
யளிப்ப	-11.4266
▁முஹம்மத்	-11.4272
▁நாற்காலி	-11.4278
▁அவதூறு	-11.4301
▁கொள்முதல்	-11.431
▁முதலீட்டாளர்	-11.4316
▁கழுத்து	-11.4316
▁சூர்யா	-11.4316
▁மின்னழுத்த	-11.4323
▁சுற்றுச்சூழல்	-11.4345
▁செருப்ப	-11.4349
▁அபத்த	-11.4358
▁ஆதரித்த	-11.4362
▁தீர்மானித்த	-11.4363
▁சிந்தித்த	-11.4375
▁சுஜாதா	-11.4375
▁நேர்த்தியான	-11.4375
▁இந்நூல	-11.4388
ஸல்லல்லாஹ	-11.4391
▁Human	-11.4406
▁ஜேம்ஸ்	-11.4406
4.0	-11.4414
3.0	-11.4417
▁கம்யூனி	-11.4436
இவ்வாறாக	-11.4436
▁முஸ்லிம	-11.4437
▁wrote	-11.4443
▁அலார	-11.4447
ுயிர்	-11.4458
நாயக்க	-11.4462
▁நாளிதழ	-11.4464
நிராகரிப்ப	-11.4466
▁புறக்கணித்த	-11.447
aga	-11.4471
பீஷ்ம	-11.4486
▁உத்தம	-11.449
▁இம்முறை	-11.449
▁என்றழைக்க	-11.4492
▁ஆசீர்வாத	-11.4511
▁ஆத்துமா	-11.4513
▁மனநல	-11.4518
▁பணிபுரிந்த	-11.452
ிதழ்	-11.4521
▁அமேசான்	-11.4534
விளையாட	-11.4539
▁இதனையடுத்து	-11.4542
ُوْ	-11.455
ென்பதை	-11.4551
▁நடிகர	-11.4559
வழக்க	-11.4561
▁HTML	-11.4565
▁பதினைந்து	-11.4573
▁From	-11.4596
▁பொக்கிஷ	-11.4603
▁நிலைத்திருக்க	-11.4609
▁எழுத்தாளன	-11.4624
▁சிறுபான்மை	-11.4626
▁learn	-11.4626
▁திவ்ய	-11.4651
▁தன்னார்வ	-11.4651
▁மறந்துவிட்ட	-11.4657
குழுவினர	-11.467
▁வழிவகுக்கும்	-11.4672
முதலமைச்சர	-11.468
▁WHSR	-11.4688
▁சிவபெருமான	-11.4688
▁இப்படத்தின்	-11.4689
மயமாக்க	-11.4706
▁சபிக்க	-11.4715
▁ஐந்தாவது	-11.4727
▁திகில	-11.4735
▁கூந்தல	-11.4737
கவிஞர	-11.4748
▁eye	-11.475
▁நன்கறிந்தவனாக	-11.4766
▁குறும்பட	-11.4766
▁வீட்ல	-11.4768
▁Internet	-11.4782
▁இரட்சிப்ப	-11.4782
ப்புள்ளி	-11.4786
▁நாள்தோறும்	-11.4797
▁டைம்ஸ்	-11.4806
▁அண்ணன	-11.4813
▁முகமூடி	-11.482
▁Auto	-11.4824
▁account	-11.4828
▁கர்த்தாவே	-11.4828
ப்பரப்ப	-11.4829
▁gra	-11.4831
▁option	-11.4831
▁இயன்ற	-11.4842
▁கட்டமைப்ப	-11.4851
▁கேரக்டர	-11.4852
நமது	-11.4877
▁ஆழ்த்த	-11.4885
▁லேசான	-11.4891
▁Technology	-11.4907
ாமலிருக்க	-11.4915
விஷய	-11.4919
▁காலாவதி	-11.4923
▁பரிணாம	-11.4923
▁வினோத	-11.4925
▁தீர்க்கதரிசி	-11.4931
▁பரம்பரை	-11.4931
tamil	-11.4938
▁இஸ்ரயேலின்	-11.4939
Change	-11.4943
▁ஆரம்பிச்ச	-11.4947
▁Account	-11.4963
▁தொழில்துறை	-11.4963
▁கொடுப்பனவு	-11.4972
▁இணங்க	-11.4992
▁வாழ்வாதார	-11.4995
களுக்கிடையில்	-11.5011
▁இவ்விரண்ட	-11.5018
»	-11.64
•	-12.1026
