<unk>	0
<s>	0
</s>	0
.	-3.31882
▁	-3.55347
,	-3.60905
:	-4.69148
;	-4.80807
ದ	-4.82423
▁ಮತ್ತು	-5.0043
)	-5.12056
ಗಳು	-5.19379
ು	-5.19427
ಯ	-5.36723
▁(	-5.4183
ಿ	-5.41996
-	-5.54401
ಗಳನ್ನು	-5.63728
s	-5.69939
ಗಳ	-5.75143
▁-	-5.77838
ವನ್ನು	-5.78349
ರ	-5.814
▁ನೀವು	-5.83033
ವು	-5.83627
▁ಈ	-5.85535
▁/	-5.86307
--	-5.90942
▁ಆ	-5.91088
ಸ್	-5.91112
▁ನಾನು	-5.91781
ರು	-5.92083
▁ನನ್ನ	-5.92731
ನ	-5.95818
▁ನಿಮ್ಮ	-6.03339
▁ನಿನ್ನ	-6.05023
▁ಒಂದು	-6.06498
ನು	-6.07344
▁ಮೇಲೆ	-6.10389
▁_	-6.13375
▁ಎಂದು	-6.19933
ನ್ನು	-6.21148
▁ಅವರು	-6.23639
▁1	-6.23966
ಯನ್ನು	-6.26288
▁ಆಗ	-6.26354
▁ತನ್ನ	-6.27997
?	-6.31973
ದಲ್ಲಿ	-6.36142
▁ಆದರೆ	-6.37842
ಕ್ಕೆ	-6.37944
ಗೆ	-6.39
ಲು	-6.39687
▁ಅ	-6.40842
ನ್	-6.41633
/	-6.47643
ಲ್ಲಿ	-6.48308
▁ಅವನು	-6.48976
ಿಗೆ	-6.4902
▁ಅವನ	-6.49301
ುವ	-6.51814
▁ನಾವು	-6.52682
ಲ್	-6.53787
com	-6.5521
ವ	-6.55511
▁ನಮ್ಮ	-6.55774
ಕ	-6.581
ರ್	-6.58968
ವಾಗಿ	-6.59295
ೂ	-6.59411
▁ಅವರ	-6.60518
▁ಇ	-6.60535
▁2	-6.63532
▁ಎಲ್ಲಾ	-6.63693
ಲಿ	-6.64924
▁ನೀನು	-6.65739
▁&	-6.6679
ದೆ	-6.67674
▁ಅಥವಾ	-6.68479
3	-6.68744
ಸ	-6.69201
ಿಂದ	-6.69337
▁ಕರ್ತನು	-6.70478
ವಾದ	-6.71365
2	-6.72103
▁5	-6.73447
ಯು	-6.73679
▁ಇದು	-6.74774
ಕ್	-6.76534
ರಿ	-6.77055
▁3	-6.77688
ಗಳಲ್ಲಿ	-6.81289
ಲ	-6.81845
ರೆ	-6.8234
ಾ	-6.83091
ಸಿ	-6.84265
ೇ	-6.9139
!	-6.92122
▁–	-6.9213
▁ಕರ್ತನ	-6.92767
ದಿಂದ	-6.95177
ಟ್	-6.95371
▁2018	-6.95416
C	-6.97011
▁ಅಂದನು	-6.97287
▁S	-6.97882
4	-6.99238
ಯಲ್ಲಿ	-6.99978
▁ಮಾಡಿ	-7.00081
▁$	-7.00287
ಮ	-7.00411
amp	-7.00658
▁ಹಾಗೆ	-7.00818
▁ತಮ್ಮ	-7.00917
ಯೂ	-7.02001
▁"	-7.03057
ುತ್ತದೆ	-7.03224
▁4	-7.03318
▁ನ	-7.03491
ತ	-7.03778
▁ಅದರ	-7.03841
"	-7.04657
ನ್ನೂ	-7.05479
ಗ	-7.07188
ದು	-7.07855
D	-7.07953
▁ಮೂಲಕ	-7.08207
y	-7.08694
@	-7.08831
ಮ್	-7.10064
▁ಆತನು	-7.10107
▁ಅದನ್ನು	-7.11144
ವಿ	-7.11768
ಾಗ	-7.12553
▁ಅದು	-7.14011
▁P	-7.14263
1	-7.15311
d	-7.15868
ಗಳಿಗೆ	-7.16217
▁C	-7.19711
ಡಿ	-7.20178
▁ನನಗೆ	-7.21009
▁2017	-7.2159
A	-7.23251
ಪ್	-7.23618
▁ಸಂಗಡ	-7.24413
ೆ	-7.25345
▁ಮ	-7.25387
ಡ್	-7.25596
▁ನಿಮಗೆ	-7.25881
ಗಳನ್ನೂ	-7.26982
▁ದೇವರ	-7.27535
▁ಆತನ	-7.27902
▁A	-7.2791
(	-7.28558
ಿರಿ	-7.28713
▁ಮುಂದೆ	-7.29052
Name	-7.29142
in	-7.3015
ಾದ	-7.30377
▁ಅವರಿಗೆ	-7.327
ಬೇಕು	-7.33155
p	-7.33666
ವೂ	-7.3369
▁10	-7.33814
ಡ	-7.34493
▁6	-7.34855
▁ಕ	-7.35023
ವೇ	-7.35251
ಯಾ	-7.35289
▁ನಲ್ಲಿ	-7.35305
ಳ	-7.35534
▁2019	-7.358
▁ಅನ್ನು	-7.37094
m	-7.37389
5	-7.37933
ವರು	-7.39103
▁ಹೆಚ್ಚು	-7.39209
ing	-7.39455
x	-7.39587
ದ್ದ	-7.3964
B	-7.40607
gt	-7.40649
▁ಹೊಸ	-7.41448
ಟಿ	-7.41601
e	-7.41666
n	-7.41785
▁ಅವನಿಗೆ	-7.41831
S	-7.42395
er	-7.42427
▁ಡೌನ್ಲೋಡ್	-7.42495
mm	-7.42923
▁T	-7.43173
▁ಬಗ್ಗೆ	-7.43295
▁ಮುಖಪುಟ	-7.43641
್	-7.43879
▁ಬ	-7.43928
▁ಕನ್ನಡ	-7.43941
ನಿ	-7.44485
▁ಸ	-7.45533
▁ರ	-7.45709
▁...	-7.46219
▁19	-7.46858
▁B	-7.47194
▁ಸಹ	-7.47759
ವಾಗಿದೆ	-7.48043
ಹ	-7.48073
▁ಪ್ರಕಾರ	-7.48255
▁ಯಾವುದೇ	-7.49014
ಂ	-7.49087
%	-7.49152
t	-7.49408
▁ವಿ	-7.49691
▁8	-7.49803
▁ಇಲ್ಲ	-7.50245
▁ನನ್ನನ್ನು	-7.50638
ಬಹುದು	-7.51533
▁+	-7.51534
▁ಸಿ	-7.51631
▁ಅವರನ್ನು	-7.51879
▁ಹ	-7.52263
ರೋ	-7.52435
▁ಕೆಲಸ	-7.5279
V	-7.52858
▁ನಿನಗೆ	-7.52938
ವನ್ನೂ	-7.53436
▁ಗೆ	-7.53526
ನಾ	-7.53745
▁F	-7.53932
▁ಎ	-7.54143
_	-7.54356
▁ಈಗ	-7.54771
ಲ್ಲ	-7.54909
▁ಬಳಿಗೆ	-7.55329
a	-7.56175
F	-7.56578
b	-7.57072
10	-7.5804
ತೆ	-7.5909
P	-7.59237
u	-7.60223
ಾಗಿ	-7.60313
c	-7.60546
▁7	-7.611
▁#	-7.6145
o	-7.61746
▁ಇದಲ್ಲದೆ	-7.61884
▁12	-7.61922
i	-7.62038
G	-7.62411
8	-7.62886
▁ಅವನನ್ನು	-7.62949
▁ಟ್ಯಾಗ್	-7.63339
▁the	-7.63723
ಣ	-7.64342
▁ದೇವರು	-7.64716
W	-7.64724
▁ಯಾಕಂದರೆ	-7.65047
M	-7.6532
l	-7.65417
ರಾ	-7.65438
▁ಮಾಡುವ	-7.65636
▁ನಂತರ	-7.66125
ಟ	-7.66138
▁ದೊಡ್ಡ	-7.66228
ುತ್ತಾರೆ	-7.66364
ತ್	-7.66471
▁ಮಾಡ	-7.66564
T	-7.66658
▁ಓ	-7.66763
ವೆ	-7.66845
▁2016	-7.67023
ಯೇ	-7.67629
ಯಿಂದ	-7.67682
ಪ	-7.67776
▁ಮಗನಾದ	-7.67799
6	-7.6822
ನೆ	-7.68532
ಂತೆ	-7.68599
'	-7.68961
L	-7.69103
7	-7.70525
▁ಉತ್ತಮ	-7.70545
▁ಪ್ರತಿ	-7.70657
▁ಹೀಗೆ	-7.70741
00	-7.70818
▁ಬಂದು	-7.71368
▁G	-7.71493
ಲೇ	-7.71688
▁ಹೋಗಿ	-7.72082
ಬ	-7.72176
▁ಹೇಗೆ	-7.72908
▁ನಮಗೆ	-7.73151
g	-7.73963
▁ನಿನ್ನನ್ನು	-7.74302
ಮಾ	-7.74715
ಪಿ	-7.74918
r	-7.74954
ನೇ	-7.75137
en	-7.7518
ಳು	-7.75796
▁9	-7.76043
ವನು	-7.76134
▁ಮೇ	-7.76512
▁D	-7.77521
N	-7.77606
▁ವರ್ಷದ	-7.7767
O	-7.7783
▁ಉಚಿತ	-7.78164
▁ಮಾಡಿದ	-7.78511
▁M	-7.78557
▁ಯಾವ	-7.78642
▁ಇಗೋ	-7.7895
R	-7.79016
ಿದೆ	-7.79057
▁ತ	-7.79265
▁K	-7.79447
▁ದೇವರಾದ	-7.79876
ವರ	-7.80317
]	-7.80493
▁ಅಲ್ಲಿ	-7.80561
ಲಿಲ್ಲ	-7.80596
ಗಳಿಂದ	-7.80772
▁ಇರುವ	-7.80793
▁20	-7.81055
ಲಾ	-7.81497
▁*	-7.81577
▁ಮೇಲ್	-7.81639
▁ಮಾಡಲು	-7.81995
H	-7.82083
11	-7.82159
▁ಹೆಸರು	-7.82173
20	-7.82682
ಕೆ	-7.83216
ನೂ	-7.83454
▁ಕೈ	-7.83735
w	-7.83858
ನಲ್ಲಿ	-7.84198
th	-7.84435
ಅ	-7.84614
h	-7.84924
▁ಸಂಖ್ಯೆ	-7.85169
ರೂ	-7.85818
▁in	-7.85867
K	-7.86016
ುವದಿಲ್ಲ	-7.8639
▁ಪಟ್ಟಿ	-7.86439
ೋ	-7.86822
ವಾ	-7.86883
ಿತು	-7.87156
▁ದಿನಾಂಕ	-7.87166
▁R	-7.87221
▁ಗಾತ್ರ	-7.87241
▁ಎರಡು	-7.87294
ುವುದು	-7.87565
k	-7.87601
▁ಜನರು	-7.87663
ುವದಕ್ಕೆ	-7.88072
▁15	-7.8837
ಜ	-7.88451
ಲೆ	-7.89368
▁ಗ	-7.89603
▁[	-7.89885
▁ವ	-7.90271
▁0	-7.90491
▁11	-7.90553
X	-7.90886
f	-7.90911
▁ಹಾಗೂ	-7.91014
ುವೆನು	-7.91153
al	-7.91409
ಿನ	-7.91862
ಬ್	-7.92003
ಕಾ	-7.92072
ಗಳೂ	-7.92134
▁24	-7.92374
▁ಸಮಯ	-7.92473
▁ಮಾಹಿತಿ	-7.93398
ಜಿ	-7.93468
▁ಇಲ್ಲಿ	-7.93512
▁ಬೆಲೆ	-7.93651
▁ಸಹಾಯ	-7.94156
ಿರುವ	-7.94521
▁W	-7.94597
co	-7.94971
▁ಮುನ್ನ	-7.95015
ಇ	-7.95257
▁18	-7.95288
▁ಆನ್ಲೈನ್	-7.95306
▁ಆದದರಿಂದ	-7.95331
ಕೋ	-7.95974
50	-7.96479
ಿದರು	-7.9663
ಶ	-7.96643
ುತ್ತಾನೆ	-7.96762
://	-7.96814
0	-7.96885
ಬಿ	-7.96921
▁ಮಾದರಿ	-7.97082
▁ಇತರ	-7.97627
▁ಮಕ್ಕಳ	-7.9767
▁ಪೂರ್ಣ	-7.97833
▁ಕೆಲವು	-7.97847
▁ಇಮೇಲ್	-7.97894
▁ಯೇಸು	-7.97905
▁ಬಾ	-7.97995
ತ್ತ	-7.98146
lt	-7.98248
30	-7.98453
▁and	-7.98593
ಿಸುವ	-7.98648
▁ಒಬ್ಬ	-7.99278
▁ಮಾತ್ರ	-7.99292
ed	-7.99316
▁ಪುಟ	-7.99645
▁ಮಕ್ಕಳು	-7.99692
▁ಇಸ್ರಾಯೇಲಿನ	-7.99855
▁ಸೇವೆ	-7.99871
▁ಚಿತ್ರ	-7.99947
ಿಸಿ	-8.00651
▁ಬಂದ	-8.00814
st	-8.00874
▁ದಿನ	-8.02145
▁H	-8.02273
▁ರಲ್ಲಿ	-8.02739
▁ಹೇಳ	-8.02805
▁ಟೈಮ್	-8.02952
▁ಕಡಿಮೆ	-8.03366
▁to	-8.03402
▁ಹೋಗ	-8.03444
▁ನೋಡಿ	-8.03488
ೆನು	-8.03817
ಿದನು	-8.03879
U	-8.03904
ಲ್ಪಟ್ಟ	-8.03968
▁E	-8.03975
▁ಪರಿಶುದ್ಧ	-8.04152
ಗಾಗಿ	-8.04223
▁of	-8.04316
v	-8.04575
ಿಗೂ	-8.0459
▁ಉತ್ಪನ್ನಗಳು	-8.04704
▁=	-8.05174
▁30	-8.05664
ನೋ	-8.06115
▁ಡಿ	-8.06241
▁ಆಯ್ಕೆ	-8.06261
▁ಚೀನಾ	-8.06443
▁ಹೆಚ್ಚಿನ	-8.06643
▁ಜನರ	-8.07364
ಸು	-8.075
ುತ್ತೇನೆ	-8.07764
▁ಬಿ	-8.07776
9	-8.08422
▁ಸೈಟ್	-8.08622
▁ಅರಸನ	-8.08631
es	-8.08644
▁ಅನೇಕ	-8.08665
le	-8.08834
or	-8.08877
▁N	-8.08916
”	-8.09003
▁ಕೆ	-8.09705
ವನ	-8.09911
an	-8.10132
ಯಾಗಿ	-8.10217
ar	-8.10816
ur	-8.11271
ದೇ	-8.11394
▁©	-8.11662
ುತ್ತವೆ	-8.11852
▁ನಿ	-8.11956
▁ದೂರವಾಣಿ	-8.12112
ಂತ	-8.12235
ಕ್ಕಾಗಿ	-8.123
▁ರಿಂದ	-8.12345
ೀ	-8.1239
▁ಕಾರ್ಯ	-8.12609
▁ನಮ್ಮನ್ನು	-8.12801
ಿದ್ದ	-8.12946
ಯಾದ	-8.13159
ಜ್	-8.13166
▁ವಿರೋಧವಾಗಿ	-8.13203
ಎ	-8.13353
▁ಅದಕ್ಕೆ	-8.13437
▁ಹಾಗೆಯೇ	-8.13778
ಮಿ	-8.13886
▁16	-8.14029
▁ಬಲ	-8.14447
▁ಏನು	-8.14635
ಷ	-8.14638
▁ನಿಮ್ಮನ್ನು	-8.1487
ರಿಗೆ	-8.15164
ಲಾಗಿದೆ	-8.15671
▁V	-8.15877
E	-8.15891
▁ಎಲ್ಲ	-8.15905
▁ಹಿಂದೆ	-8.16015
▁£	-8.1607
▁I	-8.1614
ದ್ದು	-8.16451
▁ಬಹಳ	-8.16483
12	-8.16755
ವ್	-8.17096
ಿದ್ದಾರೆ	-8.17381
▁ಮೂಲ	-8.17548
▁X	-8.17589
Y	-8.17707
▁ಬರ	-8.1795
▁ಎಂಬ	-8.18361
ುತ್ತಾ	-8.18521
▁ಜನವರಿ	-8.18927
re	-8.19277
▁ಒ	-8.19279
▁ಆಹಾರ	-8.19331
ಡು	-8.19368
▁ನೋಡ	-8.19398
ತಿ	-8.19547
ಿತ	-8.19609
ಕ್ಕೂ	-8.19637
ೊಳಗೆ	-8.19967
ಕಿ	-8.20177
▁ಇಸ್ರಾಯೇಲ್	-8.20376
ಎಸ್	-8.20396
▁L	-8.20451
▁ಪಿ	-8.20679
▁ಅರಸನಾದ	-8.2078
▁ಕಾರಣ	-8.20876
▁ಚಿತ್ರಗಳು	-8.21092
19	-8.21381
▁ತರುವಾಯ	-8.21391
40	-8.21484
▁a	-8.21954
▁ಕಾ	-8.22165
▁»	-8.22417
▁“	-8.22547
ಗ್	-8.22696
▁ಕರ್ತನಿಗೆ	-8.22845
ಯೋ	-8.22869
▁ಭೂಮಿಯ	-8.229
ಟರ್	-8.22914
et	-8.22942
ರೇ	-8.22999
▁ಇನ್ನೂ	-8.23215
▁25	-8.23382
ಫ್	-8.23704
ರುವ	-8.23788
ಗೂ	-8.23799
15	-8.23924
▁2015	-8.24044
▁ಸಮಸ್ತ	-8.24054
▁ಇದ್ದ	-8.24273
▁ಮೆ	-8.2451
ೊಂದಿಗೆ	-8.24568
ರೀ	-8.24597
▁ಉ	-8.24766
▁ಹೊರಗೆ	-8.24881
▁ಉತ್ತರ	-8.24947
18	-8.24983
▁ಇದೆ	-8.25067
▁ಪ	-8.25251
▁ಮನೆ	-8.25257
▁ಹೇಳಿದನು	-8.25585
on	-8.25938
ra	-8.26407
▁ಮಾಡಬಹುದು	-8.26572
▁ಹೊಂದಿದೆ	-8.26578
▁ಅವುಗಳನ್ನು	-8.26624
▁ಭಾಷೆ	-8.26709
ಿದ್ದಾನೆ	-8.26805
▁ಆಫ್	-8.26833
▁ಆಗಿದೆ	-8.27022
▁14	-8.27057
▁@	-8.27306
▁ವಿನ್ಯಾಸ	-8.27354
ri	-8.27355
▁ಮನೆಯ	-8.27359
▁ಕೊಡ	-8.27511
el	-8.27553
▁%	-8.27838
▁13	-8.28112
16	-8.2864
▁ಮೊದಲ	-8.28688
60	-8.28956
ಸ್ಟ್	-8.2901
ಮಾಡ	-8.29458
▁ಇಲ್ಲವೆ	-8.29801
ಲೋ	-8.29805
▁ಸಂಪರ್ಕ	-8.2986
ುವದು	-8.29865
▁ವೆಬ್ಸೈಟ್	-8.30281
’	-8.3035
▁ಭಾಗ	-8.30827
08	-8.30918
ಿದ್ದೇನೆ	-8.31038
▁ಮೂರು	-8.31062
ಂಗ	-8.31172
ಂಬ	-8.31205
&	-8.3131
z	-8.31313
▁ಬರುವ	-8.31437
▁ವರೆಗೆ	-8.31708
ುವಂತೆ	-8.31755
ಸಾ	-8.31815
ಮಾಡಿ	-8.32132
▁ಭೇಟಿಗಳು	-8.3239
▁ಯಂತ್ರ	-8.33028
▁ಸಂ	-8.33151
ಡೆ	-8.33224
▁ಇದನ್ನು	-8.33283
▁ನಿಂದ	-8.33749
ಆ	-8.34028
▁ಮಿ	-8.34208
ಬಾ	-8.3422
▁c	-8.345
ವಾಗ	-8.3455
▁ಪ್ರ	-8.34635
ಶ್	-8.34862
25	-8.35304
ಲ್ಲಿರುವ	-8.35358
J	-8.35417
▁ಕೇವಲ	-8.35417
▁ವಿವಿಧ	-8.3559
▁ಬಿಟ್ಟು	-8.3602
▁ನ್ಯಾಯ	-8.36051
ತಾ	-8.36149
▁ಅತ್ಯುತ್ತಮ	-8.36316
ೆಂದು	-8.3652
▁ಹೇಳುತ್ತಾನೆ	-8.36772
ನಾದ	-8.36816
+	-8.36971
ೊ	-8.37145
01	-8.37189
▁17	-8.37363
▁ಕೇಳ	-8.37441
ನ್ನ	-8.37513
▁ಬೆ	-8.37586
ಯನ್ನೂ	-8.38191
ಚ	-8.38276
▁ಮೊದಲು	-8.3856
▁ಸು	-8.39205
07	-8.39298
▁ನಾ	-8.3935
80	-8.3938
21	-8.39737
ಳಿ	-8.3993
▁ನವೆಂಬರ್	-8.40028
ಭ	-8.40062
ತನ	-8.40197
ನೀನು	-8.40311
▁(1	-8.40533
ನಾನು	-8.40593
▁'	-8.40639
▁ಕಾಲ	-8.40643
ಂಗ್	-8.40659
▁ತಿರಿಗಿ	-8.40753
▁2013	-8.40898
▁ಹೇಳಿ	-8.40949
▁Kannada	-8.41091
▁ಕಂಪನಿ	-8.41511
▁ವರೆಗೂ	-8.41872
ೌ	-8.42108
06	-8.42188
it	-8.42361
cm	-8.42364
▁ಉನ್ನತ	-8.42411
ಷ್	-8.4244
▁ಆತನನ್ನು	-8.42487
13	-8.42606
▁ಪ್ರಮುಖ	-8.42614
▁ಎಸ್	-8.4278
▁ಜ	-8.43199
www	-8.4333
ತು	-8.43652
▁ಜನ	-8.43948
ನ್ಸ್	-8.43965
▁ಏಳು	-8.44011
02	-8.44048
▁ಆಗಸ್ಟ್	-8.44133
▁ಜಿ	-8.44141
ಲೂ	-8.44407
▁ಆರ್	-8.44485
▁ಕೇಳಿ	-8.44492
▁ಮೊಬೈಲ್	-8.44571
▁ವಿಳಾಸ	-8.44666
▁ಅವು	-8.44752
▁ಅಭಿವೃದ್ಧಿ	-8.44833
▁ಪೋಸ್ಟ್	-8.44864
ಗು	-8.44868
▁ನೀತಿ	-8.45496
te	-8.45621
ರನ್ನು	-8.4573
▁ಡಿಸೆಂಬರ್	-8.45816
99	-8.45848
ದಂತೆ	-8.45977
▁ಸಂತೋಷ	-8.46008
j	-8.46054
ಮೆ	-8.46238
▁ಹೊರ	-8.4625
▁ಚ	-8.46316
▁ವಿಷಯ	-8.46546
▁ಮುಖ್ಯ	-8.46596
▁ಅಕ್ಟೋಬರ್	-8.46764
ುತ್ತೇವೆ	-8.46901
=	-8.47078
▁ಕು	-8.47114
▁ಯಾರು	-8.47379
▁ರೀತಿಯ	-8.47689
▁2014	-8.479
09	-8.47917
▁ಸಂಪರ್ಕಿಸಿ	-8.48034
ಟ್ಟ	-8.48058
▁ಹಾ	-8.48061
▁ಐ	-8.48333
ಿಕೆ	-8.48366
▁ವಿಮಾನ	-8.4838
▁ಜೂನ್	-8.4839
la	-8.48422
ಪಾ	-8.48451
▁ಬಹು	-8.48483
ಹಾ	-8.4864
14	-8.4865
▁ಅವುಗಳ	-8.487
ುವನು	-8.48877
I	-8.49095
-1	-8.4943
▁info	-8.49445
▁ಆದ್ದರಿಂದ	-8.496
▁ವರ್ಷ	-8.49642
▁ಕಿ	-8.49678
▁O	-8.49762
ೀಯ	-8.50257
▁ಭೇಟಿ	-8.50381
05	-8.50481
ಲ್ಲಾ	-8.50495
▁ಬಣ್ಣ	-8.50543
sh	-8.50725
Comment	-8.50741
▁ಅತಿ	-8.50841
24	-8.50871
▁ನೆ	-8.509
▁ದಿನದಲ್ಲಿ	-8.50939
▁ಮಂದಿ	-8.5105
ಸೆ	-8.51061
▁ಕೋಡ್	-8.51226
▁for	-8.51312
▁ಅರಸನು	-8.51454
▁ಜುಲೈ	-8.51693
▁ಕರ್ತನೇ	-8.51792
▁ಫೋನ್	-8.51877
ic	-8.5191
se	-8.52167
35	-8.52289
ದ್ದರಿಂದ	-8.52946
▁v	-8.53228
▁ಮಾರ್ಗ	-8.53264
▁ವರ್ಗ	-8.53335
ಕ್ಸ್	-8.53388
▁ವೆಬ್	-8.53504
17	-8.53532
▁ಸರಣಿ	-8.53609
ಕ್ಷ	-8.53945
ುವುದಿಲ್ಲ	-8.54069
▁ತಿಂಗಳ	-8.54364
▁ತೂಕ	-8.54454
▁ಹೇಳಿದ	-8.54907
▁ಮರ	-8.54978
ಬೇಕೆಂದು	-8.5499
್ಯ	-8.55299
▁ಸರಿ	-8.55393
▁ಬೇರೆ	-8.55465
▁ಬೆಂಬಲ	-8.55581
ಂಡ	-8.5562
ter	-8.55621
ೊಳಗಿಂದ	-8.55636
▁ಪ್ರಯಾಣ	-8.55699
▁t	-8.55789
▁ವೀಡಿಯೊ	-8.55853
▁ಒಳಗೆ	-8.55914
▁ವಿಶೇಷ	-8.55943
ಐ	-8.55944
▁ಅಲ್ಲ	-8.56
ಕ್ಕ	-8.56134
▁ವಿದ್ಯುತ್	-8.56149
▁ಕೃತಿಸ್ವಾಮ್ಯ	-8.56237
▁ಎಂ	-8.56285
▁ಚಲನಚಿತ್ರ	-8.56535
ಧ	-8.56626
ಷ್ಟ	-8.56828
ro	-8.56931
▁ಪಾಪ	-8.5702
▁ಕ್ಯಾಸಿನೊ	-8.57094
ch	-8.57359
ಿಲ್ಲ	-8.5747
▁ಮಾರ್ಚ್	-8.57532
▁2020	-8.57535
86	-8.57611
▁ಉಪ	-8.57627
▁ಬಳಿಯಲ್ಲಿ	-8.57709
▁ಮಧ್ಯದಲ್ಲಿ	-8.57744
▁ಮಾ	-8.57824
▁ಹೊರಟು	-8.57935
▁ಅತ್ಯಂತ	-8.57963
29	-8.58019
▁ಎನ್	-8.58162
▁ರಿ	-8.58176
▁€	-8.5833
▁ಜೊತೆಗೆ	-8.58441
26	-8.58617
▁ಕಡೆಗೆ	-8.58782
▁ನಕ್ಷೆ	-8.58943
28	-8.59035
ಬಾರದು	-8.59127
▁ಕರೆ	-8.5914
ಗಾ	-8.59461
▁ಮಹಾ	-8.59536
ಕೊಳ್ಳ	-8.59585
▁ಮಾರಾಟ	-8.59699
▁ಫಾರ್	-8.59725
ದ್	-8.59878
▁50	-8.59959
▁ಉದ್ದ	-8.60113
▁ಕೊ	-8.60129
▁ತಿಳುವಳಿಕೆ	-8.60152
▁•	-8.60219
▁ಹಾಕ	-8.60364
ಿಕ	-8.60386
li	-8.604
▁ಹೌದು	-8.60472
ad	-8.60513
▁ದೇಶದ	-8.60674
ಂಡ್	-8.60689
ವರಿಗೆ	-8.60854
at	-8.60889
▁ಸಾಧನ	-8.60903
▁ಆವೃತ್ತಿ	-8.60933
▁ಪ್ರೀತಿ	-8.60959
▁ಅವಳ	-8.61151
▁by	-8.61277
▁ಸ್ಥಳ	-8.61328
▁ಹೋಗುವ	-8.61345
▁ಕಂ	-8.61377
▁ಅಂದರು	-8.6145
ಜೆ	-8.61884
▁ಅದೇ	-8.61919
▁ಹಣ	-8.62128
▁ಅವ	-8.62309
ಂಥ	-8.62474
ಪ್ಪ	-8.62501
23	-8.62507
ly	-8.62514
▁J	-8.62566
22	-8.6262
▁ಏಪ್ರಿಲ್	-8.6265
id	-8.62832
ತ್ತು	-8.62907
ಜಾ	-8.62953
▁http	-8.63045
03	-8.63078
▁ಫೆಬ್ರವರಿ	-8.6319
▁ಮೇಲೆಯೂ	-8.63309
▁ಬಳಸ	-8.63324
ಪಡಿಸ	-8.63325
▁ಮನುಷ್ಯನು	-8.63408
un	-8.63645
▁ಕೆಳಗೆ	-8.6371
▁ಪ್ರಮಾಣ	-8.6405
ೈ	-8.64092
▁ತಕ್ಕೊಂಡು	-8.64093
ಕರ	-8.64109
▁ಏ	-8.64369
▁ಇನ್ನು	-8.64394
ಂದು	-8.64471
95	-8.64499
ದರಿಂದ	-8.6469
▁22	-8.6484
▁ಇನ್	-8.6495
us	-8.65089
▁ತಂದೆಯ	-8.65193
▁ಮನುಷ್ಯನ	-8.65255
▁ಅಂದರೆ	-8.65532
▁ಜೊತೆ	-8.65575
▁ವರುಷ	-8.65982
▁100	-8.66073
▁Z	-8.66245
▁ಸಾಮಾನ್ಯ	-8.66246
▁ಶುದ್ಧ	-8.66348
▁ಕೇಂದ್ರ	-8.66391
▁ಹಿಂದಿನ	-8.66621
ol	-8.66657
▁~	-8.66694
▁ತರಬೇತಿ	-8.66802
▁ಇರ	-8.66879
▁ಬಳಸಿ	-8.66896
▁ಅವಳು	-8.67004
▁ನಾನೇ	-8.67029
▁ರಸ್ತೆ	-8.67161
▁ಜಾ	-8.67184
ಯಾಗಿದೆ	-8.67185
ಕೊಳ್ಳುವ	-8.67277
ಟಾ	-8.67466
ಗಾರ	-8.67488
▁ಹೊಂದ	-8.67514
▁ಶ	-8.67576
▁ಜೆ	-8.6765
▁ಸಾ	-8.67827
▁ನಿರ್ವಹಣೆ	-8.68043
90	-8.68117
ಗೋ	-8.68172
ಚ್	-8.6836
▁ಮಾಡು	-8.68533
▁ಲಿಮಿಟೆಡ್	-8.68597
▁ವ್ಯಾಪಾರ	-8.68762
▁ಶ್ರೀ	-8.68969
▁ನೀಡಿ	-8.69015
▁ಶಕ್ತಿ	-8.69041
▁The	-8.69052
ಲಾದ	-8.69242
▁ಜ್ಞಾನ	-8.69298
▁°	-8.69319
ಯ್	-8.69417
▁ದಿ	-8.69551
▁ಸ್ವಲ್ಪ	-8.69572
▁ಆತನಿಗೆ	-8.69584
▁ಕ್ರಿಸ್ತನ	-8.69745
▁ದಾವೀದನು	-8.69847
ಿಸಿದ	-8.69962
▁ಸಾಮರ್ಥ್ಯ	-8.69992
▁ಕೂಡ	-8.70185
▁Y	-8.70253
▁ಸಣ್ಣ	-8.70341
▁ಎದ್ದು	-8.70388
am	-8.70421
▁ಅವಕಾಶ	-8.70426
31	-8.70709
▁ಕೊಟ್ಟ	-8.7135
▁ದೇಶದಲ್ಲಿ	-8.71424
ೆವು	-8.71612
ang	-8.71703
▁p	-8.71756
ಕು	-8.71883
ಮೋ	-8.71941
▁ಸತ್ಯ	-8.71961
▁21	-8.7199
▁ಚಿಕಿತ್ಸೆ	-8.72105
▁ಸೆಪ್ಟೆಂಬರ್	-8.723
ಚಿ	-8.72343
32	-8.72478
▁ಸ್ವಂತ	-8.72687
65	-8.72706
ಬೇಡ	-8.72819
▁ತೆಗೆದು	-8.72828
್ಯಾ	-8.72859
▁U	-8.72877
53	-8.73075
ಿಂದಲೂ	-8.73108
▁ಜೀವ	-8.73129
▁ಮು	-8.73161
▁ವರದಿ	-8.73167
▁ರಾಜ್ಯ	-8.73308
▁ದೂರ	-8.7331
▁ಯೆಹೂದದ	-8.73319
▁ತರ	-8.73407
▁ಅದರಲ್ಲಿ	-8.7342
ನೀವು	-8.7345
▁ಕ್ಯಾ	-8.73508
▁ಶಿಕ್ಷಣ	-8.73547
೦	-8.73557
▁ವೇಳೆ	-8.73674
▁ಮಾಡುತ್ತದೆ	-8.73677
ಂಟ	-8.73718
ಳ್ಳ	-8.7377
▁ಇವೆ	-8.73829
▁ಒಂದೇ	-8.74122
▁ಘಟಕ	-8.74133
▁ದೋಷ	-8.74191
▁ಸಂಚಿಕೆ	-8.74314
▁ಬ್ಲಾಗ್	-8.74439
ತ್ತಿ	-8.7457
▁ದಾವೀದನ	-8.74634
▁ಕುರಿತು	-8.74676
▁ಅಂಕ	-8.74817
ಯೆ	-8.75212
▁ಸಾವಿರ	-8.75279
▁ತೆರೆಯ	-8.75359
ರಾದ	-8.7558
ers	-8.75585
‍	-8.75588
▁ತಂತ್ರಜ್ಞಾನ	-8.75726
▁ಸಭೆಯ	-8.75785
▁ಒಟ್ಟು	-8.76004
▁ಹೊ	-8.76124
▁ಮಾಡಿದನು	-8.76169
ೆಯ	-8.76192
▁ನೀಡ	-8.76233
lo	-8.76355
▁ದೇಶ	-8.7639
▁ಯಾವಾಗಲೂ	-8.76518
ಲ್ಲಿಯೂ	-8.7665
ಂದ	-8.76658
▁ಮನುಷ್ಯರ	-8.76703
is	-8.76726
ೃ	-8.76821
ಪಡ	-8.76875
ನನ್ನ	-8.76888
▁ಅರ್ಥ	-8.77014
il	-8.77308
▁ರಾ	-8.77474
▁ಪಾ	-8.77567
ಗೊಂಡ	-8.77803
55	-8.77811
di	-8.7785
ದಿಂದಲೂ	-8.77865
▁ರಚಿಸಲಾಗಿದೆ	-8.77967
ಿದರೆ	-8.78076
▁ಅಪರಾಧ	-8.78085
▁ಹೆ	-8.78093
ಣಿ	-8.78101
▁ಸೆ	-8.78209
▁ವ್ಯವಸ್ಥೆ	-8.78231
▁ಆಟಗಳು	-8.78242
04	-8.78267
▁HD	-8.78449
▁ಗುಣಮಟ್ಟದ	-8.78475
ಲಾಗುತ್ತದೆ	-8.78664
ದ್ದನ್ನು	-8.78712
Z	-8.78749
▁ಕಳುಹಿಸ	-8.78767
org	-8.78914
ಹಿ	-8.79101
ಗಿ	-8.7931
ಿಗೋಸ್ಕರ	-8.79384
▁ಸಮಯದಲ್ಲಿ	-8.7954
▁ಮನೆಯಲ್ಲಿ	-8.79657
▁ಹಾಗೆಯೂ	-8.79699
▁ತೆಗೆದುಕೊಂಡು	-8.79832
ಬೆ	-8.79922
▁ಮಗನು	-8.79943
ನನ್ನು	-8.79986
▁ನೀರು	-8.80049
▁ಪಡೆಯಲು	-8.8007
▁ಸುದ್ದಿ	-8.80097
▁23	-8.80102
ನಿಗೆ	-8.80254
▁ಅಪ್	-8.8027
▁ನಾಲ್ಕು	-8.80284
▁ಟಿ	-8.80338
▁is	-8.80466
45	-8.80586
75	-8.80783
ಕೊಂಡು	-8.80833
ಸ್ತ	-8.80852
ಿಂಗ್	-8.80897
ಳೆ	-8.80993
▁ಬದಲಾವಣೆ	-8.81102
ದೋ	-8.81259
ತ್ರ	-8.81346
▁ಸುತ್ತ	-8.814
▁ಯೋಜನೆ	-8.8142
▁ಸಂಪೂರ್ಣ	-8.81451
▁ಮಾಡಲಾಗಿದೆ	-8.81692
▁ಎಲ್	-8.82094
▁ಗಾಗಿ	-8.82376
▁ಹೇಳುವ	-8.82491
as	-8.82698
▁ಕರ್ತನನ್ನು	-8.82805
▁ನಕ್ಷೆಗಳು	-8.82853
37	-8.82928
me	-8.82998
▁ಯಾಕೆ	-8.83032
ಕರ್	-8.83137
▁ಹೊಂದಿರುವ	-8.8314
36	-8.83159
ವಿನ	-8.83435
▁ನಿಮಿತ್ತ	-8.83468
34	-8.83469
▁ವಸ್ತು	-8.83518
▁ನೇ	-8.83521
▁ಡ	-8.83568
ಂಟ್	-8.83741
▁ತಾ	-8.83812
▁40	-8.83979
▁ಮೊ	-8.84009
▁ಕೈಯಲ್ಲಿ	-8.84045
ia	-8.84046
▁ಆದಾಗ್ಯೂ	-8.84141
▁ತಿಳಿಸ	-8.84176
ha	-8.84419
ಎಂ	-8.84443
27	-8.84925
▁ಕಟ್ಟ	-8.85099
▁ವರ್ಷಗಳ	-8.85102
▁ಮುಂದಿನ	-8.85123
ವರ್	-8.85446
▁ಉದ್ಯಮ	-8.85522
*	-8.85625
▁ಗಂಟೆಗಳ	-8.85641
▁ತಿರುಗಿ	-8.85943
▁https	-8.85945
▁ರೂ	-8.85993
ಿದ್ದೀ	-8.8602
ುತ್ತಿರುವ	-8.86167
ುವರು	-8.86248
▁ನೀರಿನ	-8.86317
▁ಅಪ್ಲಿಕೇಶನ್	-8.86383
▁ಸತ್ತ	-8.86392
▁ಹೆಲಿಕ್ಸ್	-8.86528
▁ಡಾ	-8.86686
ir	-8.86742
ವೋ	-8.8682
▁ದಿವಸ	-8.86837
ಮೀ	-8.86924
▁ಇತ್ಯಾದಿ	-8.86962
85	-8.87002
ವುಳ್ಳ	-8.87407
▁ಜನರಿಗೆ	-8.87491
▁No	-8.87534
▁m	-8.87744
▁ರೂಪ	-8.87859
▁ಅಗಲ	-8.87888
de	-8.87943
ಗಳೊಂದಿಗೆ	-8.87993
ವೆಂದು	-8.88021
ಕಾರ	-8.88171
▁ಕೊನೆಯ	-8.88248
▁ಪದ	-8.88484
Q	-8.88513
ಕೊ	-8.88623
ಫ	-8.88722
88	-8.88783
▁ವೃತ್ತಿಪರ	-8.88866
▁ಸೀ	-8.88872
▁ಸಾಮಾನ್ಯವಾಗಿ	-8.88873
ಆರ್	-8.88981
ma	-8.89013
▁ಉಳಿದ	-8.89022
▁ಭ	-8.89097
ದೊಂದಿಗೆ	-8.89212
33	-8.89339
▁ದಕ್ಷಿಣ	-8.89409
▁ಹೃದಯ	-8.8957
▁ಬಿಡ	-8.89634
▁Vessoft	-8.89756
ರಿಯ	-8.89813
56	-8.89847
▁ಪೆ	-8.89902
48	-8.89939
▁ಬಂದಾಗ	-8.89969
ಸಂ	-8.9007
▁28	-8.90173
ಿಸಲು	-8.90222
70	-8.90243
▁ಬೇ	-8.90335
▁ಹಾಕಿ	-8.90352
▁ಕಡತ	-8.90543
ation	-8.90619
▁ತಂದೆ	-8.90729
ಇಗೋ	-8.90882
▁ಕೋ	-8.90917
ta	-8.9097
▁ಲೇಖಕ	-8.91107
ನಿಂದ	-8.91191
▁ಯಾ	-8.91196
▁ಧ್ವನಿ	-8.91263
▁ದಯವಿಟ್ಟು	-8.9141
▁ನಂಬ	-8.91492
ate	-8.91522
▁ಹೋದ	-8.91724
▁ಪಿತೃಗಳ	-8.91777
ುತ್ತೀರಿ	-8.91822
ಯುಳ್ಳ	-8.91859
ಾಗಿರುವ	-8.92037
69	-8.92085
▁ಲಾ	-8.92428
ಶಾ	-8.92461
▁ಕರ್ತನಾದ	-8.92523
52	-8.92545
▁ಪ್ರಸ್ತುತ	-8.92609
im	-8.92695
ಿತ್ತು	-8.92762
▁h	-8.92795
▁ಲಾಕ್	-8.92941
▁ಸ್ಥಳದಲ್ಲಿ	-8.92959
to	-8.93129
▁ಮಾತು	-8.93151
▁ಮುಖ	-8.93316
▁ಇವನು	-8.93341
ಶಿ	-8.93372
▁ಗಣಕತೆರೆ	-8.93556
ನೆಂದು	-8.93598
▁2011	-8.93668
▁ದೇವ	-8.93672
▁ಆತ್ಮ	-8.93749
▁ಸಹೋದರರ	-8.93755
44	-8.93793
▁ಕೊಂಡು	-8.93851
▁ಹತ್ತಿರ	-8.93989
▁re	-8.94096
ರಾಗಿ	-8.94138
▁ಹಾಗು	-8.94152
ಮಾನ	-8.9418
▁ಲೇಖನ	-8.944
ಮನ	-8.94441
▁ವಿಷಯದಲ್ಲಿ	-8.94556
ಲ್ಪಡ	-8.94559
▁ಸಂಪೂರ್ಣವಾಗಿ	-8.94663
▁ಮಾತನಾಡ	-8.94768
76	-8.94909
▁ಸೋ	-8.95006
ti	-8.95063
ತ್ಯ	-8.9514
ುವಿಕೆ	-8.95247
ುವದಕ್ಕೂ	-8.95307
▁ಮೊಳ	-8.95463
▁f	-8.95567
ವಾಯಿತು	-8.95598
ಕೊಂಡ	-8.95604
ot	-8.95693
38	-8.95825
▁ಪೂರ್ವ	-8.95877
ದಾ	-8.95966
ವರನ್ನು	-8.95997
="	-8.96167
▁ಕಿಟಕಿ	-8.9626
ರಲ್ಲಿ	-8.96322
▁ನಗರ	-8.96395
▁ದಿನಗಳು	-8.96642
Notification	-8.96703
▁ಸ್ಟ್ರಿಂಗ್	-8.96703
▁ಚಾಟ್	-8.96815
▁ಕುಟುಂಬ	-8.96826
ತೆಯ	-8.96841
▁ಕೊಠಡಿ	-8.96863
▁27	-8.96866
▁ನಡುವೆ	-8.96875
▁ಯುದ್ಧ	-8.96896
ುತ್ತಿದೆ	-8.96903
▁ಸಾಕ್ಷಿ	-8.96906
ೆಲ್ಲಾ	-8.9691
ay	-8.96942
▁ಇವರು	-8.96984
▁ಸುಮಾರು	-8.97027
▁ಮಾಡಬೇಕು	-8.97043
ಾಗಲಿ	-8.97072
ಈ	-8.97166
▁ವಿವರಣೆ	-8.97316
▁ನಿವಾಸಿ	-8.97484
▁60	-8.97521
▁ಐದು	-8.97656
▁ಮೋಶೆಯು	-8.97861
▁—	-8.97918
▁ಪುಸ್ತಕ	-8.97923
ಿಸು	-8.97999
ದ್ಯ	-8.98024
▁Name	-8.98162
▁ಅನ್ವಯ	-8.98394
▁ಇಷ್ಟ	-8.98453
ವಾಗಿರುವ	-8.98543
ಿದಾಗ	-8.98706
ಾಗಿಯೂ	-8.98817
▁ಬಿಡುಗಡೆ	-8.98871
▁ಕಾಣ	-8.98879
57	-8.98879
▁ಹೋದನು	-8.98898
ಧಿ	-8.98946
ದಲ್ಲಿರುವ	-8.98953
▁ಜನರನ್ನು	-8.99017
ದಾಗ	-8.99054
▁on	-8.99099
ವನೂ	-8.99164
ಮು	-8.99273
ಮ್ಮ	-8.99477
▁ಹಕ್ಕುಗಳನ್ನು	-8.99488
ರೊ	-8.99583
▁ಸ್ಥಿರ	-8.996
▁ಏರ್	-8.99639
▁ತೋರಿಸ	-8.99655
▁ಲೈಟ್ಸ್	-8.99734
ಿಗಾಗಿ	-8.99735
▁ವ್ಯಕ್ತಿ	-8.99806
▁200	-8.99868
58	-8.99914
▁ತಿಳಿದ	-9.00023
ry	-9.00059
um	-9.00092
▁ರಾತ್ರಿ	-9.0018
▁ಹಳೆಯ	-9.00305
41	-9.00331
▁ಉತ್ಪನ್ನ	-9.00332
▁ಹಿ	-9.00522
hi	-9.00531
na	-9.00546
▁ಪರಿ	-9.00553
▁ದರ	-9.00598
▁ಒಬ್ಬನು	-9.0098
▁ವಿಧಾನ	-9.01101
▁ಇಂದ	-9.01351
ಣೆ	-9.01361
ಟ್ಟಿ	-9.0138
▁ಹೇಳಿದ್ದೇನಂದರೆ	-9.01457
▁ಸಿದ್ಧ	-9.01468
▁ಕ್ರಮ	-9.01475
▁ಔಟ್	-9.01532
ru	-9.01657
ಘ	-9.0197
▁ಪಟ್ಟಣದ	-9.02079
▁ಫಲ	-9.02134
68	-9.0217
▁ತೆಗೆದುಕೊಳ್ಳ	-9.02232
▁ತಾನು	-9.02248
▁ಇದರ	-9.02315
▁ಎತ್ತರ	-9.0232
▁ಕಳುಹಿಸಿ	-9.02322
ೋಣ	-9.02341
ಿನಲ್ಲಿ	-9.02343
▁ತಿನ್ನ	-9.02412
▁ಕ್ಲಿಕ್	-9.02604
▁ವಿಶ್ವವಿದ್ಯಾಲಯ	-9.02631
67	-9.0271
▁ಮಾತನಾಡಿ	-9.02741
▁ತುಂಬಾ	-9.03044
ುವಾಗ	-9.03049
▁ಕರ್ನಾಟಕ	-9.03081
▁w	-9.03112
ಲೀ	-9.03133
▁ಸುಲಭ	-9.03161
ಂಜ	-9.032
▁ಪುಡಿ	-9.03251
▁ಹೈ	-9.03349
87	-9.03362
49	-9.03374
о	-9.03381
▁b	-9.03755
▁ನಡೆಯ	-9.03859
▁(_	-9.03983
▁ಸೈನ್ಯಗಳ	-9.04046
▁ಅನುಭವ	-9.04071
89	-9.04161
▁ಬೋನಸ್	-9.0417
▁ಶಿ	-9.04214
▁ಸಂಬಂಧ	-9.04671
▁ಕಾಯ್ದಿರಿಸಲಾಗಿದೆ	-9.0469
▁26	-9.04783
▁ಸಮ	-9.04828
ಿದ್ದರು	-9.04915
▁ರಂದು	-9.04962
ಬೇಡಿರಿ	-9.04964
79	-9.05066
▁ಒಳ	-9.05205
▁ತಿಂಗಳು	-9.05211
▁ಮಕ್ಕಳಿಗೆ	-9.05306
▁ಸ್ವ	-9.05313
▁ಕೆಟ್ಟ	-9.0534
ಂತಹ	-9.05361
98	-9.05489
▁ಸರಳ	-9.05507
ನಾಗಿ	-9.05516
▁×	-9.05531
▁ಒಳ್ಳೇ	-9.05537
▁ಅಗತ್ಯ	-9.0555
▁ಪರೀಕ್ಷೆ	-9.0556
▁ಭಯ	-9.05685
▁Android	-9.05732
▁ಪಟ್ಟಣ	-9.05839
▁ಸಾರಿ	-9.05844
▁ರೀತಿಯಲ್ಲಿ	-9.05881
▁2012	-9.05895
ut	-9.0594
96	-9.06097
▁ನಾದ	-9.06206
66	-9.06254
▁ನಿಯಂತ್ರಣ	-9.06325
▁ಇಂದು	-9.06342
▁ಮಾಹಿತಿಯನ್ನು	-9.06497
ನ್ನಾಗಿ	-9.06548
▁ಬೆಂಗಳೂರು	-9.06787
ಜನ	-9.06793
ತ್ವ	-9.06802
е	-9.06891
39	-9.06912
▁ಆಟ	-9.07005
ಿಸುತ್ತದೆ	-9.07113
▁ಗು	-9.07153
▁ಯಾರ	-9.07192
▁ಪ್ರದೇಶ	-9.07201
▁ಚಾ	-9.07213
▁ಅಶುದ್ಧ	-9.07319
▁ಮನೆಗೆ	-9.07347
▁ಒಳ್ಳೆಯ	-9.07476
▁ಲೆಕ್ಕ	-9.07628
▁ವೈ	-9.07674
а	-9.07676
▁ಪ್ರದರ್ಶನ	-9.07679
▁ಇತ್ತು	-9.07718
▁ಹಿಡಿದು	-9.07722
▁29	-9.07723
ುತ್ತೀ	-9.07747
ನೀ	-9.07952
▁ವೀಕ್ಷಿಸಲು	-9.08075
▁ಚಿಕ್ಕ	-9.08096
▁ಪರಿಣಾಮ	-9.08117
▁ಪ್ರವೇಶ	-9.08191
ul	-9.08206
▁ವೈಯಕ್ತಿಕ	-9.08212
ೆಂಬ	-9.08271
ಎಲ್	-9.08305
▁ಹೆಸರನ್ನು	-9.08317
▁ಇಟ್ಟ	-9.08358
▁ಹೋದರು	-9.08364
▁ತಲೆ	-9.08382
▁ಫ	-9.08396
ಒ	-9.08508
▁ಕಪ್ಪು	-9.08511
ಿದ್ದರೆ	-9.08515
▁FSX	-9.08594
▁ಕಾರ್	-9.08659
▁ಖಾತೆ	-9.08749
▁ಬೋ	-9.08769
▁ಎಕ್ಸ್	-9.08786
ac	-9.08796
ಗಳಿಗಾಗಿ	-9.08881
▁ಮತ್ತೆ	-9.08896
▁ವಿಭಾಗ	-9.08954
net	-9.09132
▁ಜನಾಂಗ	-9.09266
46	-9.09409
ಟ್ಟು	-9.09474
▁ಸಾಯ	-9.09487
▁ಒತ್ತಡ	-9.09677
▁www	-9.09686
▁ಏಕೆಂದರೆ	-9.09846
82	-9.09882
▁ಗೋ	-9.09913
ನೆಯ	-9.09962
▁ಆರೋಗ್ಯ	-9.10137
▁ಕೊಡುವ	-9.10152
op	-9.10182
▁ಒಂದ	-9.10245
per	-9.10268
▁In	-9.10424
▁Google	-9.10464
47	-9.10554
▁ಉಪಕರಣ	-9.10585
▁ಕಂಡ	-9.10633
▁32	-9.10678
ce	-9.10775
▁ತಿಳಿಯ	-9.10795
ವರೆಗೆ	-9.10809
▁31	-9.10893
(_	-9.11009
ಾಯಿ	-9.111
ಬು	-9.11237
▁ಜಿಲ್ಲೆ	-9.11291
▁ಖಾಸಗಿ	-9.11309
▁ಪ್ರಾರ್ಥನೆ	-9.11309
▁ಸಮಾಧಾನ	-9.11426
ಯರ್	-9.11428
ನಿನ್ನ	-9.11471
▁ಸಮುದ್ರ	-9.11561
▁ದೇವರಿಗೆ	-9.11562
▁ಅಧಿಕೃತ	-9.1168
▁ಜನಪ್ರಿಯ	-9.1168
▁you	-9.11806
ದಲ್ಲಿಯೂ	-9.11829
▁g	-9.11957
▁ಕೀ	-9.11974
ಲಾಯಿತು	-9.11997
▁ರಕ್ಷಣೆ	-9.1207
▁ಕೈಯಿಂದ	-9.12108
ಾರ	-9.12144
▁ಯೆ	-9.1231
▁ದುಃಖ	-9.12425
ಿವೆ	-9.12465
77	-9.12467
▁ಹೆಚ್ಚಾಗಿ	-9.12549
51	-9.127
▁ಬದಲಾಗಿ	-9.12713
em	-9.12809
▁→	-9.12841
ag	-9.12863
▁ರಕ್ತ	-9.12926
▁Re	-9.12966
▁ಇದೇ	-9.13001
ಬೋ	-9.13004
ಸರ್	-9.13018
▁ತೆರೆ	-9.13077
▁ಉದ್ದೇಶ	-9.13135
and	-9.13181
▁ಜೀವನ	-9.13271
all	-9.13278
▁__	-9.13292
ುವದಕ್ಕಾಗಿ	-9.13509
ಲಿನ	-9.13604
ುವವನು	-9.13741
▁ಆಗಿರುತ್ತದೆ	-9.13862
▁ಡೆ	-9.13973
ಣ್ಣ	-9.13998
ER	-9.14001
ಬ್ಬ	-9.14048
ದ್ಧ	-9.1411
71	-9.14116
▁ಪ್ರವಾಸ	-9.14194
▁ವಿಮರ್ಶೆಗಳು	-9.14217
▁ಪಡೆದ	-9.14252
▁ವಿಷಯವಾಗಿ	-9.14325
▁ವಿರುದ್ಧ	-9.14477
74	-9.14516
59	-9.14655
-2	-9.14846
▁ಅದ್ಭುತ	-9.15077
▁ಗಿ	-9.15168
97	-9.1523
ie	-9.15251
-20	-9.15435
▁ಲಾಭ	-9.15536
ಎನ್	-9.15585
ವಳ	-9.1568
▁Co	-9.15735
78	-9.15737
43	-9.15761
▁ತೈಲ	-9.16046
ಓ	-9.1613
▁ವಿಗ್ರಹ	-9.16265
▁ಶಬ್ದ	-9.16294
▁ಹತ್ತು	-9.16331
▁ಆದೇಶ	-9.16461
▁ಇಲ್ಲದೆ	-9.16636
▁ಡೌನ್ಲೋಡ್ಗಳು	-9.16681
▁ಕಾರ್ಡ್	-9.16771
mo	-9.16808
▁ತಾಪಮಾನ	-9.16824
▁ನಿಂತು	-9.1689
▁ಪ್ರೊ	-9.16904
ವಿಲ್ಲ	-9.17002
▁ವೆಚ್ಚ	-9.1702
ಬೇಕಾದ	-9.1712
▁ಪ್ರಧಾನ	-9.17133
▁ಆದರೂ	-9.17187
▁ಹೇಳಿದರು	-9.17442
ಂಟು	-9.17443
▁ಬಂದರು	-9.17502
▁ಸ್ಕ	-9.17573
▁ಆಕಾಶ	-9.17615
▁ಸಮಸ್ಯೆ	-9.17689
ಯೊಂದಿಗೆ	-9.17745
▁ಹುಡುಕ	-9.17854
ುತ್ತಿದ್ದ	-9.17891
▁ರಕ್ಷಿಸ	-9.17912
ಟೆ	-9.18095
▁ಪರ	-9.18104
▁ನಂಬಿಕೆ	-9.18141
▁ಲೆ	-9.1822
▁ಸಾರ	-9.1825
▁ಪ್ರಶ್ನೆ	-9.18277
$	-9.18284
▁x	-9.18292
▁ಮರದ	-9.18313
▁ಹೇಳು	-9.18427
-12	-9.18565
ine	-9.18607
ುತ್ತ	-9.18763
▁ಗಮನ	-9.1878
▁ಹಂತ	-9.18934
tr	-9.19126
q	-9.19171
▁ಪ್ಯಾ	-9.19179
▁ರಾಜ	-9.19182
▁ಸಾಲ	-9.19264
pl	-9.19326
▁ನೀಡುತ್ತದೆ	-9.19333
▁ಇತ್ತೀಚಿನ	-9.19398
54	-9.19452
ವರೂ	-9.19456
pe	-9.1951
▁ಸೆಟ್	-9.19536
▁de	-9.19622
▁ಮನುಷ್ಯ	-9.19655
vi	-9.1982
▁ಸಾರ್ವಜನಿಕ	-9.19897
200	-9.19899
▁ಟ್ವಿಟರ್	-9.20032
▁ಅಧಿಕಾರ	-9.20084
▁ಮೌಲ್ಯ	-9.20098
ಂತೆಯೂ	-9.20119
od	-9.20156
▁ದಿವಸದಲ್ಲಿ	-9.20202
▁with	-9.20204
▁ಯಾರೂ	-9.20218
▁ಅರ್ಪಿಸ	-9.20238
▁ನಿರ್ಮಾಣ	-9.2027
▁ಲೋಡ್	-9.20271
ಗಳಲ್ಲಿಯೂ	-9.20324
ಲ್ಪಡುವ	-9.20405
ಹೋದ	-9.20441
der	-9.20693
и	-9.20812
▁ವಾ	-9.20839
ವನಿಗೆ	-9.2085
ಬೇ	-9.20872
ಂಚ	-9.20963
▁ಅಡಿಯಲ್ಲಿ	-9.20998
▁ಪ್ರತಿಯೊಂದು	-9.21018
500	-9.21056
64	-9.21083
ರಿನ	-9.21165
100	-9.21194
▁ಪಠ್ಯ	-9.21216
▁ಹು	-9.21295
ಾಗುವ	-9.21436
ash	-9.21445
▁ಟಾಪ್	-9.21463
ಿದ್ದು	-9.21605
ಬಹುದಾದ	-9.21613
▁ಗುಣ	-9.21614
▁ಸ್ಥಾಪಿಸ	-9.21643
ಿಗಿಂತ	-9.21791
-8	-9.21793
▁ಏಕ	-9.21811
▁ಆಳ	-9.21821
ವಲ್ಲ	-9.21852
ಗ್ಗ	-9.21894
▁ತನ್ನನ್ನು	-9.21937
▁ಘನ	-9.22079
▁ವಿಚಾರಣೆ	-9.22103
ೀಕರಣ	-9.22165
ಕ್ಕಿಂತ	-9.22165
ಗೊಳಿಸ	-9.22352
▁ಪಡೆಯ	-9.22375
ab	-9.22397
▁be	-9.2242
▁ವೇಗ	-9.22593
▁k	-9.226
▁ಜಲವರ್ಣ	-9.22661
▁86-	-9.22761
▁ಹ್ಯಾಕ್	-9.22771
42	-9.22806
ಪಟ್ಟ	-9.22815
▁sales	-9.22873
▁ಎಲ್ಲಿ	-9.2302
▁ಗ್ರಾಹಕ	-9.23035
▁ಎಫ್	-9.23071
▁Windows	-9.23076
▁ಬಳಸಲಾಗುತ್ತದೆ	-9.23103
▁ಬಲಿ	-9.23123
▁ಬಿದ್ದ	-9.23183
▁ಯುವ	-9.23238
93	-9.23271
ಮೇ	-9.23337
▁e	-9.23395
▁ಶರೀರ	-9.23493
91	-9.235
ಭಾಗ	-9.23597
ಥ	-9.23652
ಶಾಸ್ತ್ರ	-9.23653
84	-9.2367
-5	-9.23704
ಂಡಿ	-9.23733
▁ಮಾರುಕಟ್ಟೆ	-9.2386
ಸನ್	-9.23927
ya	-9.24036
▁ಇಡ	-9.24043
os	-9.2416
83	-9.24171
ಕ್ಸಿ	-9.24243
▁ಹೋಸ್ಟಿಂಗ್	-9.24332
▁ಬರೆದ	-9.24362
▁ಸಲಹೆ	-9.2438
ಷಿ	-9.24409
▁ದಿನಗಳ	-9.2449
▁ವಿಂಡೋ	-9.24493
ne	-9.24512
	-9.24543
▁ಅಂತ್ಯ	-9.24552
ಡಾ	-9.24589
ಹ್	-9.24724
ಪೆ	-9.24828
▁ನೋಡುವ	-9.24888
▁Ma	-9.25009
▁ಪ್ರತ್ಯುತ್ತರವಾಗಿ	-9.25028
art	-9.25111
▁ಅಗತ್ಯವಿದೆ	-9.25188
▁ಇವರ	-9.25254
▁ಪ್ರಾಣ	-9.25345
▁WhatsApp	-9.25482
▁Q	-9.25496
▁ಮೇಲ	-9.25505
▁ಯೆರೂಸಲೇಮಿನ	-9.25527
▁ಸಂಸ್ಥೆ	-9.25573
▁Mo	-9.25585
▁ಗುಣದರ್ಜೆಯ	-9.25605
▁ನೋಂದಣಿ	-9.25605
▁ಸಾಕಷ್ಟು	-9.25608
63	-9.25786
ವನಾದ	-9.25815
▁ಕಾಲು	-9.25865
▁ಕೂಗ	-9.25901
▁ಕರೆಯ	-9.2599
ನೊ	-9.26072
▁ಮಾನವ	-9.26128
▁ಹೋಗು	-9.2614
▁ನಿಯಮ	-9.26167
▁ನಷ್ಟ	-9.26167
▁ಟಿವಿ	-9.26178
▁ಮಧ್ಯ	-9.26186
▁ಕಷ್ಟ	-9.26211
ve	-9.26272
▁ನಿಜವಾಗಿಯೂ	-9.26299
man	-9.26308
ಟಿಂಗ್	-9.26321
▁ಭೂ	-9.26352
▁ಅಂಗ	-9.26426
▁ಅವರಲ್ಲಿ	-9.26442
▁ನೀಡುವ	-9.26446
62	-9.26496
▁ಸುತ್ತಲೂ	-9.26496
0.00	-9.26547
▁ದೇವರೇ	-9.26578
▁ಇವುಗಳ	-9.26605
one	-9.2664
▁ದನು	-9.2666
▁ಪರಿಸರ	-9.26677
ಫಾ	-9.26677
▁ಕಾರು	-9.26679
ಾದರೂ	-9.26714
ನಿಯ	-9.26803
ಕಾರಿ	-9.27022
ಲರ್	-9.271
▁ನಿಗೆ	-9.27173
ಮಾಡುವ	-9.27198
ವರಾಗಿ	-9.27204
ಕೊಡ	-9.27212
XL	-9.27225
▁ಭಾಗಗಳು	-9.27281
▁ಸೇವಕರ	-9.27286
ಖ	-9.27319
▁ನಡೆಸ	-9.27372
▁ನ್ಯೂಸ್	-9.27377
▁ಬ್ಯಾ	-9.27394
61	-9.27452
▁ಪರಿಹಾರ	-9.27505
▁ಕಾನೂನು	-9.27545
▁ವೀಕ್ಷಣೆ	-9.2764
▁ಕವರ್	-9.27652
▁ಪಾತ್ರೆ	-9.27703
ಕೇ	-9.27733
ವಾಗುವ	-9.27765
▁ತೆಗೆದುಹಾಕ	-9.27902
▁ಪಾವತಿ	-9.27966
▁ತಲೆಯ	-9.27973
ig	-9.28012
ೊಬ್ಬ	-9.28182
▁500	-9.28192
ಾಯ	-9.2823
▁ಜ್ಞಾಪಕ	-9.28235
,000	-9.28404
ಪು	-9.28457
▁ಶಾ	-9.28553
▁ಮೋ	-9.28615
▁ವ್ಯವಹಾರ	-9.28639
▁ಸ್ಥಾನ	-9.2888
▁ಪ್ರವಾದಿ	-9.28963
ನ್ನೇ	-9.29051
ೊಂದು	-9.29135
2018	-9.29162
▁ಅಧ್ಯಯನ	-9.29301
2019	-9.29338
▁ನ್ಯೂ	-9.29346
-6	-9.29376
ಕಿಂಗ್	-9.29455
ant	-9.29457
▁ಬಂದನು	-9.29482
ೋ	-9.29524
ಕಾಲ	-9.2962
▁ಪವರ್	-9.29726
▁ಹಲವಾರು	-9.29745
ಗಾರರ	-9.29968
▁ಬಾರಿ	-9.2999
ಬಲ್ಲ	-9.29998
ಿನಿಂದ	-9.30123
▁ಗುಂಪು	-9.30303
▁ನಡೆದ	-9.30397
ಃ	-9.30414
▁ಇತಿಹಾಸ	-9.30414
▁ತಂತ್ರಾಂಶ	-9.30417
▁ಎಂಬುದನ್ನು	-9.30428
ill	-9.30466
▁ಶೆ	-9.30505
▁ನಿಂತ	-9.30707
▁ಒದಗಿಸ	-9.30709
▁ಮಾಡಿದರು	-9.30717
ಿದ್ದೇವೆ	-9.308
▁ವಿಜ್ಞಾನ	-9.30841
▁ಸ್ವಯಂ	-9.30871
go	-9.30872
▁ಬ್ರ	-9.30924
▁ಕೆಳಗಿನ	-9.31061
▁ಗಾ	-9.31065
ಷ್ಟು	-9.31107
▁ಮತ್ತೊಂದು	-9.31159
▁ಲೈನ್	-9.31198
▁ತನಗೆ	-9.31203
-10	-9.31327
▁ಗುರುತು	-9.31329
▁ಎಡ	-9.31336
▁ಸೇ	-9.3139
ಾಂ	-9.31406
▁ನಿಮ್ಮಲ್ಲಿ	-9.31521
94	-9.31521
▁ಆಲೋಚನೆ	-9.3154
▁ಪು	-9.31556
ದಿದ್ದರೆ	-9.31596
▁ಸಲ್ಲಿಸ	-9.31694
▁ತಂದೆಯಾದ	-9.31728
▁ಕೊಟ್ಟನು	-9.31746
▁ಅರಣ್ಯ	-9.31794
▁ರೋಗ	-9.31799
▁ಎಷ್ಟು	-9.31823
▁De	-9.31874
▁ಬ್ಯಾಟರಿ	-9.31995
81	-9.32025
▁±	-9.32031
▁ಸಮುದ್ರದ	-9.3221
▁ಗ್ರಾಹಕರ	-9.32248
▁Tube	-9.32285
▁ಇಸ್ರಾಯೇಲ್ಯರ	-9.3232
73	-9.32485
▁ಸಸ್ಯ	-9.32525
ಸ್ಥ	-9.32557
▁ಹಿನ್ನೆಲೆ	-9.32679
ಲ್ಸ್	-9.32714
2004	-9.3284
▁ಮೋಟಾರ್	-9.32909
▁ತೋಟ	-9.32951
▁ಯೆಹೂದ	-9.33052
ರನ್ನೂ	-9.33141
▁ಹೋ	-9.33146
▁PM	-9.33194
▁ವಿಂಡೋಸ್	-9.33205
ತೆಯನ್ನು	-9.3324
ow	-9.33244
ent	-9.33415
ಲಿಂಗ್	-9.33451
▁ಸೇರಿಸಿ	-9.33515
▁ಕಠಿಣ	-9.336
▁ಸ್ಥಳೀಯ	-9.33643
ಎಫ್	-9.33737
▁ನವೀಕರಿಸಲಾಗಿದೆ	-9.33842
"&	-9.33851
ಾರ್	-9.33903
▁ರಚನೆ	-9.34042
▁from	-9.34068
ge	-9.341
▁ಯಿಂದ	-9.34165
ದ್ದಾಗ	-9.34213
▁ಇರಲಿ	-9.3427
▁ಠೇವಣಿ	-9.34296
▁80	-9.34341
▁ದೇಶವನ್ನು	-9.34389
▁ಚಿ	-9.34456
▁ಏನ	-9.34603
▁ಕಾರ್ಯಕ್ರಮ	-9.34686
ದೇಶ	-9.34689
▁ಸರಾಸರಿ	-9.34763
▁ರೇ	-9.34873
ms	-9.34879
▁ಗುರಿ	-9.3494
▁ನಿರ್ವಹಿಸ	-9.35064
▁ಸೇರ	-9.35207
▁ಮ್ಯಾ	-9.35208
▁ದೇಹ	-9.35212
▁ಮಾಡುವೆನು	-9.35374
▁ಉಗುರು	-9.35467
ಷನ್	-9.35488
pa	-9.35526
▁35	-9.35629
▁ಸಭೆ	-9.3565
ga	-9.35653
ನ್ನಾದರೂ	-9.35711
000	-9.35746
ಡಿಯ	-9.3582
no	-9.35846
ರ್ಟ್	-9.35911
▁ಸಿಟಿ	-9.35931
▁ಸೂಚನೆ	-9.35941
he	-9.35968
▁ಮತ	-9.36107
▁ತಾಯಿ	-9.36219
ap	-9.36279
▁Casino	-9.3633
▁ಇತರೆ	-9.36403
▁ಇದ್ದರು	-9.36538
ಹು	-9.36551
▁ಮೀ	-9.36563
▁ಉದಾಹರಣೆಗೆ	-9.36573
▁ವ್ಯವಸ್ಥೆಯ	-9.36633
▁ಸಾಮಾಜಿಕ	-9.36652
▁ಮುಚ್ಚ	-9.36729
▁ಭಾರತ	-9.36752
ವಂತ	-9.36757
▁ಸರಿಯಾದ	-9.36783
▁Pro	-9.36917
▁ಆರಂಭ	-9.37069
▁ನಿಶ್ಚಯವಾಗಿ	-9.37073
▁ಕಾಲದಲ್ಲಿ	-9.37078
▁ಹೇ	-9.3714
ರೆಂದು	-9.37173
▁ಆಕೆಯು	-9.37218
▁ಸಂಯೋಜನೆ	-9.37298
▁ಬಯಸುವ	-9.37307
▁ಯೋ	-9.3737
▁ತೆರಿಗೆ	-9.3742
pdf	-9.37451
ವಾಗಿತ್ತು	-9.37452
▁ಕೆಂಪು	-9.37478
▁ಆಜ್ಞಾಪಿಸಿದ	-9.3752
▁Free	-9.37537
▁08	-9.3765
▁Me	-9.37652
▁ಆಕಾಶದ	-9.37669
▁ಮಾತುಗಳನ್ನು	-9.37685
▁ಹುಡುಕಿ	-9.37694
po	-9.37802
nd	-9.37826
▁ಅರ್ಪಣೆ	-9.37851
▁ಬಳಸಲು	-9.37963
ಯಿಂದಲೂ	-9.38009
▁ರೊಟ್ಟಿ	-9.38016
▁ಹೇಳುತ್ತಾರೆ	-9.3803
▁ಹೃದಯವು	-9.38127
ip	-9.38253
▁ಒಳಗೊಂಡಿದೆ	-9.38364
▁ಮೋಸ	-9.38383
ವಾಗಿಯೂ	-9.38453
ರೈ	-9.38453
▁ಸ್ಥಳಕ್ಕೆ	-9.38459
ರಾಗ	-9.3847
ell	-9.38515
▁ಗುಣಮಟ್ಟ	-9.38531
▁ವೇದಿಕೆ	-9.38578
ದ್ರ	-9.38621
ver	-9.3868
ment	-9.38722
ಟು	-9.38724
▁ಕಂಪ್ಯೂಟರ್	-9.38821
▁ನಾಶ	-9.38826
▁ಮಳೆ	-9.39003
▁ಏನೂ	-9.39045
▁ಸಂಗೀತ	-9.39065
▁ಇಸ್ರಾ	-9.39151
▁ಚರ್ಮ	-9.39167
▁ನಿರ್ದಿಷ್ಟ	-9.39198
ಗಳನ್ನೆಲ್ಲಾ	-9.39227
▁ಇರುವದು	-9.39309
▁ಆಸ್ತಿ	-9.39331
▁ಸಂದರ್ಭದಲ್ಲಿ	-9.39362
ಗಳಿವೆ	-9.39461
ite	-9.39486
▁ಮೈ	-9.39527
▁ಕನಿಷ್ಠ	-9.39554
▁Ch	-9.39656
▁ಗುಡಾರ	-9.39757
▁ಪ್ರವೇಶಪದ	-9.398
ುವವರ	-9.39933
▁ಸಂಬಂಧಿಸಿದ	-9.39934
ಟೊ	-9.39989
▁Online	-9.40048
▁ಸ್ವಾಗತ	-9.40049
▁ಹೊರತು	-9.40088
ong	-9.40119
ಪಟ್ಟು	-9.40303
▁EUR	-9.40304
▁ಸೇರಿಸ	-9.4031
▁ಲೈವ್	-9.40312
▁ಗ್ಯಾಂಗ್	-9.40484
▁ವಾಕ್ಯ	-9.40489
▁ಬೀಳ	-9.40515
▁ಪೇ	-9.40538
▁ದೇವರನ್ನು	-9.4054
▁ತುಂಬ	-9.40609
ಲ್ಲವೋ	-9.40646
ಲಾಗುತ್ತಿದೆ	-9.40737
ನನ್ನೂ	-9.40765
▁ಒಪ್ಪಿಸ	-9.40784
▁ಜೈಲು	-9.4079
▁ಪ್ರಿಯ	-9.40833
ಚ್ಚ	-9.40908
cl	-9.40917
lu	-9.40971
▁ವಿಶ್ವದ	-9.4101
▁ಅನ್ಯ	-9.41034
▁ಖರೀದಿ	-9.41046
▁(1)	-9.41156
▁ತಿ	-9.41184
▁ಕೈಗಾರಿಕಾ	-9.41287
▁Hack	-9.41322
ವಾಗಿರುತ್ತದೆ	-9.41508
▁PC	-9.41544
▁ಫಿ	-9.41553
ಲಾರ	-9.41602
▁BESCOM	-9.41788
▁ಕೈದಿಗಳ	-9.41788
▁ಕಟ್ಟಡ	-9.41899
▁ನಿಯಮಗಳು	-9.41937
▁ಸಂಗ್ರಹ	-9.41997
ಗಳಿಗೂ	-9.42
ice	-9.42255
▁ದಹನಬಲಿ	-9.4252
▁ಗರಿಷ್ಠ	-9.42543
▁ಕುರಿ	-9.42547
▁ಕಚೇರಿ	-9.42797
ಕನ	-9.43021
▁ಬರೆಯ	-9.43128
▁ರೈಲು	-9.43132
▁ಮತ್ತಷ್ಟು	-9.4331
ಕಲ್	-9.43332
▁ಆಶೀರ್ವದಿಸ	-9.43426
▁ಬಹಳವಾಗಿ	-9.43437
▁ತು	-9.43457
▁ಬಿಲ್	-9.43463
▁ಪರಿಗಣಿಸ	-9.43465
ack	-9.43651
▁ನಿಲ್ಲ	-9.43653
est	-9.43662
▁ಕೊಂಡ	-9.43711
▁ತಯಾರಕರು	-9.4372
ಕ್ತ	-9.43768
ho	-9.43789
▁ಪತ್ರ	-9.43797
▁ವಿನಿಮಯ	-9.43816
▁ಕಂಡು	-9.43831
da	-9.43914
ನಾವು	-9.43916
▁ಒದಗಿಸುತ್ತದೆ	-9.43916
ಂಪ್	-9.43922
▁ಸೇರಿ	-9.43936
▁ರೈಸ್	-9.4395
▁ವಿಧ	-9.44112
▁ಕೋಪ	-9.44133
▁ಮೇಲಿನ	-9.4421
▁ಕುಮಾರರು	-9.44241
▁ಕೂಡಿ	-9.44292
▁ಗ್	-9.44385
ಂತೆಯೇ	-9.44442
▁ಲೋ	-9.44477
ಸ್ಟರ್	-9.44532
ಸ್ಟ	-9.44578
▁ಶೀರ್ಷಿಕೆ	-9.44587
ex	-9.44633
▁ಸೂಚಿಸ	-9.44677
ke	-9.44751
▁ತಂಡ	-9.44824
ಲೊ	-9.44872
ಟೋ	-9.44928
▁ಡೇ	-9.45086
▁ಕಿವಿ	-9.45089
▁ಇನ್ನಷ್ಟು	-9.45104
ಕೊಳ್ಳಿರಿ	-9.45137
▁ಇಳಿದು	-9.45138
ವೈ	-9.45176
ಿದ್ದನು	-9.45206
ರ್ಸ್	-9.45238
▁ಮನುಷ್ಯರು	-9.4525
▁ಅಡ್ಡ	-9.45275
ವನಾಗಿ	-9.45323
ಹಾಕ	-9.45357
▁ಮಗನ	-9.45362
▁ಕುಡಿಯ	-9.45366
▁ಬಳಕೆ	-9.45373
▁ಪ್ರಭಾವ	-9.45375
ian	-9.45403
▁ಪ್ರಕ್ರಿಯೆ	-9.45419
▁ಹಾಡ	-9.45434
mb	-9.45564
▁ಆರೋನನ	-9.45633
▁ಪೈಪ್	-9.45681
ಫೆ	-9.45687
▁ತಂದು	-9.45698
▁ದಾ	-9.45745
▁ಸಂದೇಶ	-9.45768
ವಿಲ್ಲದ	-9.45798
ಟನ್	-9.45845
▁ತೋರಿಸು	-9.45856
ಮರ್	-9.45859
▁ಉತ್ಪಾದನೆ	-9.45872
▁ತೊ	-9.45886
▁ಪ್ಲಾಸ್ಟಿಕ್	-9.45887
ಿಗ	-9.45987
▁ಕೆಲವರು	-9.4601
▁ಹಬ್ಬ	-9.46016
▁ಮಾತನ್ನು	-9.4607
ive	-9.46071
▁ಕೊಲ್ಲ	-9.46075
▁ಜನಾಂಗಗಳ	-9.46376
▁ಸ್ಟ	-9.46423
▁ಸಕಲ	-9.46449
ದಾರ	-9.46508
port	-9.46637
▁ಅಂದಳು	-9.46699
ee	-9.46829
▁ದಿನದ	-9.46852
▁ಓದಿ	-9.46857
▁ಉತ್ತರಿಸಿ	-9.46866
▁ಅಪ್ಪಣೆ	-9.46896
▁ಹನ್ನೆರಡು	-9.46937
▁ಬೆಲೆಪಟ್ಟಿ	-9.46971
▁ಆಜ್ಞೆ	-9.47007
bu	-9.47015
▁ಗುಡಾರದ	-9.47049
om	-9.47071
eng	-9.47221
kg	-9.47245
▁(5	-9.47313
ಾಗಿದ್ದ	-9.47355
-0	-9.47484
▁ವಿಶ್ವ	-9.47487
ಲ್ಪಟ್ಟಿದೆ	-9.47493
▁ಮರಳಿ	-9.47649
▁ಸುಲಭವಾಗಿ	-9.47702
▁ಫರೋಹನ	-9.47713
▁ಆದಕಾರಣ	-9.47732
▁ವಾಹನ	-9.47757
▁ಬೀಳುವ	-9.47819
▁ಟಿಪ್ಪಣಿಗಳು	-9.47853
sp	-9.47887
ಠ	-9.47951
tor	-9.47978
▁ಅನ್ನ	-9.48009
ki	-9.48015
ದವರ	-9.48041
▁+86	-9.48134
ತಕ್ಕ	-9.48158
ಲ್ಪ	-9.48163
▁ಬದುಕ	-9.48174
ಂಕ	-9.48193
▁ಸಂಶೋಧನೆ	-9.48267
ba	-9.48319
▁ಕೊಡುಗೆ	-9.4834
▁ಪಡ	-9.48344
▁೧	-9.48392
SS	-9.4844
ಗೊಳ್ಳ	-9.48513
ನ್ನೆಲ್ಲಾ	-9.48589
ಾಗಿತ್ತು	-9.48663
ಭಾ	-9.48675
92	-9.4872
ವಿದೆ	-9.48764
▁ದೀಪ	-9.48811
ಿಕೊಂಡು	-9.48854
▁ಬರುತ್ತದೆ	-9.48861
ಉ	-9.48886
ಚೀ	-9.48895
ಗಳಿಂದಲೂ	-9.48946
▁ಮರಣ	-9.48962
▁ಭಾರತೀಯ	-9.49097
▁45	-9.4913
▁ಹೊಲ	-9.49362
▁ಪ್ರಯೋಜನ	-9.49362
ರಿಯಾ	-9.49395
▁ಪಾದ	-9.49493
▁ಅಲ್ಲಿಂದ	-9.49509
ುತ್ತಿದ್ದರು	-9.49573
▁ಸೌಲನು	-9.49589
▁ಸಮೂಹ	-9.49614
▁ಸಂಪರ್ಕದಲ್ಲಿರಿ	-9.49615
▁ವಲಯ	-9.49626
▁ಅರ್ಧ	-9.49636
ci	-9.49732
▁ಪ್ರಾ	-9.49753
▁ಫೈಲ್	-9.49817
▁57	-9.49883
▁ಪರಿಪೂರ್ಣ	-9.49892
ಲ್ಪಡುವದು	-9.49898
ಪರ್	-9.49958
age	-9.50004
bo	-9.50018
▁ಹೂ	-9.50034
▁ಎಚ್	-9.50055
▁j	-9.50135
▁ರಚಿಸ	-9.50141
▁ಮುಂಚೆ	-9.50161
ಫಿ	-9.50201
ರಾಮ	-9.50218
ನ್ಯಾ	-9.50247
▁ದೇಶಕ್ಕೆ	-9.50247
ಬೇಕ	-9.50264
▁ಮೋಶೆಗೆ	-9.50265
▁ಸಾಯುವ	-9.50401
\	-9.50429
ಬಲ್	-9.50484
▁ಬೆಳ್ಳಿಯ	-9.50486
▁ತೊಂದರೆ	-9.50709
▁ತೀರ	-9.50745
ಮೊ	-9.50752
ಕ್ಕೋಸ್ಕರ	-9.50858
▁ವಿಶೇಷವಾಗಿ	-9.50938
ಾಗಿದೆ	-9.5096
ುದು	-9.50966
▁ಬಾಯಿ	-9.5098
▁ತಾಂತ್ರಿಕ	-9.5098
▁ಗೂಗಲ್	-9.50981
▁ತೆಗೆಯ	-9.50991
▁ಎಂದಿಗೂ	-9.51257
▁ಜಾಹೀರಾತು	-9.51289
ಚಾರ	-9.51325
ಪೋ	-9.51348
mi	-9.51361
tal	-9.51414
▁00	-9.5145
▁ತಪ್ಪು	-9.51472
ಿಯನ್	-9.51482
▁ವ್ಯರ್ಥ	-9.51509
AN	-9.51534
▁ಐಫೋನ್	-9.51539
▁ತಿಂದು	-9.51558
ber	-9.51635
min	-9.51687
▁ಪ್ರಸಾರ	-9.51824
▁ವರುಷದ	-9.5186
72	-9.51883
▁ಬಡ	-9.51945
▁ಯಾಜಕನು	-9.51969
ಿದ್ದೀರಿ	-9.52009
oo	-9.52009
▁ಸ್ಥಿತಿ	-9.52022
▁ಆಡಳಿತ	-9.52057
▁ಹ್ಯಾ	-9.52076
▁ನೈಸರ್ಗಿಕ	-9.52087
▁ಚೆನ್ನಾಗಿ	-9.52132
▁ಮಕ್ಕಳೂ	-9.52174
ಕರು	-9.52202
▁ಬಿಳಿ	-9.52202
▁ಎಲೀ	-9.52238
ಲಾಗಿ	-9.52272
▁ಪ್ರಯೋಗ	-9.52374
-01	-9.52381
ಿಕೆಯ	-9.52475
ub	-9.52499
▁ತಾಯಿಯ	-9.52507
ಕ್ಷನ್	-9.52534
ಬರ್	-9.52616
р	-9.52645
▁ಉದಾಹರಣೆಗಳು	-9.5265
ಿಸಿದನು	-9.52682
▁ಅಸಹ್ಯ	-9.52925
ಜು	-9.53007
▁ಯಾಜಕರ	-9.53009
ಕೆಟ್	-9.5302
AR	-9.53076
ುವವರು	-9.53094
▁ತಿರುಗ	-9.5314
IN	-9.53245
io	-9.5326
▁ದಪ್ಪ	-9.53262
-2018	-9.53274
▁ಪ್ಲಸ್	-9.53294
▁ವಿಚಾರಿಸ	-9.53349
ತೋ	-9.53388
▁Sh	-9.53484
▁ಐಟಂ	-9.53488
ಗೊಳಪಡಿಸುವುದ	-9.53488
▁ಕೇಳುವ	-9.53506
▁ಸೆಂಟರ್	-9.53512
ep	-9.53514
▁ಕೊಡು	-9.53554
ಂದ್ರ	-9.53563
▁ಬಾಬೆಲಿನ	-9.53568
▁ಮಾರ್	-9.53618
▁ಅರಸುಗಳ	-9.53623
be	-9.53632
▁ಶೇ	-9.53638
ಜರ್	-9.53638
ಟ್ಸ್	-9.53754
au	-9.53779
с	-9.53798
ast	-9.53803
▁ನೋಡಲು	-9.5383
mp	-9.53859
ಸುವ	-9.53967
ಪುರ	-9.54017
▁ಅಂಶ	-9.54036
▁ಹೊತ್ತು	-9.54078
▁ಶೈಲಿ	-9.54113
ತೀ	-9.54172
▁ಮುಟ್ಟ	-9.54208
▁La	-9.54289
▁ಸ್ಲಾಟ್ಗಳು	-9.54328
▁ಹುಟ್ಟಿದ	-9.54344
▁ಯಾವನಾದರೂ	-9.54359
▁ಕಟ್ಟಿ	-9.54363
ನಾಗಿರುವ	-9.54391
ರಣ	-9.54488
▁ಜೆಟ್	-9.54547
▁ಫ್ಯಾಕ್ಟರಿ	-9.54622
ಲಾಗಿಲ್ಲ	-9.54632
▁ವಾಕ್ಯವು	-9.54671
▁ತಾನೇ	-9.54714
▁ಮಾತ	-9.54739
▁ಸರ್ವರ್	-9.54749
ts	-9.5475
▁ಮನ	-9.5477
ಪಟ್ಟಿ	-9.54779
▁ದಾರಿ	-9.54905
▁ಲಭ್ಯವಿರುವ	-9.54908
▁ನಿರ್ಮಿಸ	-9.54911
ಾಯಿತು	-9.55024
▁ಆಂಡ್ರಾಯ್ಡ್	-9.55046
▁ನದಿಯ	-9.55052
▁ಅರ	-9.55075
▁ಬೆಳೆಯ	-9.55126
▁ಮೋಶೆಯ	-9.55131
▁ಮಾಧ್ಯಮ	-9.55173
▁ಬಲವಾದ	-9.55174
▁ಸಾಫ್ಟ್ವೇರ್	-9.55194
▁ಹೊಂದಿವೆ	-9.55255
▁ಕಳುಹಿಸಿದ	-9.5529
▁ನಿಜವಾದ	-9.55304
▁ಹೊಂದಿದ	-9.55375
ಕೊಳ್ಳಲು	-9.55466
▁‘	-9.55612
▁An	-9.55832
▁ಮುಕ್ತ	-9.5584
▁ಗೋತ್ರ	-9.55861
▁ಸೌಲನ	-9.55945
▁Ro	-9.55984
▁2010	-9.55992
▁ಇಪ್ಪತ್ತು	-9.56023
▁ನಾಶಮಾಡ	-9.56047
▁ಸಮೀಕ್ಷೆ	-9.56059
ಗ್ರ	-9.56067
▁ಚಟುವಟಿಕೆ	-9.56079
ಫರ್	-9.56122
ಂಕ್	-9.56134
▁ಪಾಲು	-9.56135
▁ಮೂ	-9.56163
▁ಪಿಸಿ	-9.56333
ಬಿಡ	-9.56387
▁ಸ್ಪ	-9.56392
▁ಪ್ರಾರಂಭ	-9.564
▁ಕೊಟ್ಟು	-9.56425
▁ಬಿಟ್ಟ	-9.56427
▁ಜೀವನದ	-9.56607
▁90	-9.56635
▁ತಂದ	-9.5667
▁IP	-9.56732
ಲ್ಲೂ	-9.56817
▁ಉತ್ತರಕೊಡು	-9.56863
▁ಮಂಡಳಿ	-9.56931
ai	-9.56979
Kannada	-9.57021
ಟೇ	-9.57038
uk	-9.57048
ah	-9.57054
▁ಬದಲಾಯಿಸು	-9.57157
▁ನಂ	-9.57175
▁ಶೋ	-9.57201
ವಾಗಿವೆ	-9.57206
▁ಆಶ್ಚರ್ಯ	-9.57224
▁ಲಿಂಕ್	-9.57227
▁ಅನುವಾದ	-9.5723
▁Home	-9.57256
▁ಸ್ಟೀಲ್	-9.57267
▁ಬಾರ್	-9.57303
▁ಸಹೋದರನ	-9.57346
▁ಪರ್ವತ	-9.57438
▁ಕಲ್ಪನೆ	-9.57517
▁ಗ್ರಾಮ	-9.5752
ವರೆಲ್ಲರೂ	-9.57522
▁ಎಚ್ಚರಿಕೆ	-9.57534
ುವುದರಿಂದ	-9.57578
ಚರ್	-9.57608
▁ಆನಂದ	-9.57686
▁ಬೇಡ	-9.57751
▁ಎಂದೆಂದಿಗೂ	-9.57811
▁ಸೌಂದರ್ಯ	-9.57811
▁ಫ್ಯಾಕ್ಸ್	-9.57822
▁ಯಾರಾದರೂ	-9.57826
ಷಾ	-9.57853
ud	-9.57858
▁ನಿಮಿಷ	-9.57868
▁ಸೈನ್ಯ	-9.58003
ಾಗಿದ್ದರೆ	-9.5802
▁ಡಿಜಿಟಲ್	-9.58065
▁ಹೆಚ್ಚುವರಿ	-9.58078
ster	-9.58122
▁ಖ	-9.58123
▁ಗೋಡೆಯ	-9.5813
▁ದಾನ	-9.58154
▁To	-9.58296
▁ತಾಣ	-9.58312
tu	-9.58331
▁St	-9.58424
▁ಪಶ್ಚಿಮ	-9.58456
▁ಪ್ರೀತಿಸ	-9.58467
ಫೋ	-9.58478
▁ಎರಡೂ	-9.58484
ity	-9.58519
▁ಡೈ	-9.58521
▁ವಾರ್ಷಿಕ	-9.58699
▁ವಿಷಯಗಳನ್ನು	-9.58702
▁ಬಿದ್ದು	-9.58759
▁ನೋ	-9.58768
▁ಆರಿಸಿ	-9.58868
▁ಜಾಲ	-9.58883
ಗೋಸ್ಕರ	-9.58924
▁ಹುಡುಕು	-9.58926
ಸೇ	-9.59006
ಹೆ	-9.5901
▁ಸ್ಥಳಗಳಲ್ಲಿ	-9.59031
ಾತನ	-9.59035
ರಿಸ	-9.59089
▁ಓದು	-9.59091
ಚೆ	-9.59123
೧	-9.59149
ear	-9.59152
▁ಕೊಂದುಹಾಕ	-9.59157
▁ಬೀದಿ	-9.59177
ವೀ	-9.59179
ಾಡ	-9.59249
▁ಕಡತದ	-9.59343
▁ಕೇಳಿದ	-9.59345
▁ಶತ್ರುಗಳ	-9.59412
ph	-9.59487
▁FS	-9.59557
▁ಆಸಕ್ತಿ	-9.59569
▁ಕೂಡಿಸಿ	-9.59591
ಹೋಗ	-9.59606
▁ಪಡೆಯಿರಿ	-9.59694
▁ಅರಸನಿಗೆ	-9.59699
ುವುದನ್ನು	-9.59716
ST	-9.59794
▁ನೇರ	-9.59865
▁ಸರಬರಾಜು	-9.59894
▁ರಿವ್ಯೂ	-9.59894
ವ್ಯ	-9.59975
▁ಸರಿಯಾಗಿ	-9.59998
▁ಕಡೆ	-9.6003
▁ಇರಬೇಕು	-9.60062
▁ಇಬ್ಬರು	-9.60079
ಂಗಾ	-9.60102
▁ವಾರ	-9.60109
▁ಸಕ್ರಿಯ	-9.60157
▁ಸಾಧ್ಯ	-9.60158
▁ಕುಮಾರರ	-9.60166
▁ಇದ್ದನು	-9.602
ಮೆಂಟ್	-9.60272
▁1000	-9.60319
▁ಆಡ	-9.60321
▁ಹೊಡೆದ	-9.60462
▁ಸಾರಿಗೆ	-9.60496
▁ಪೀ	-9.60542
▁ಮ್ಯಾಕ್	-9.60554
▁ಮಕ್ಕಳನ್ನು	-9.60618
▁ಹಕ್ಕು	-9.60775
▁ಹಚ್ಚೆ	-9.60854
▁ನಂಬಿಕೆಯ	-9.60998
▁ಕಲೆ	-9.61174
▁ಎಂಬಿ	-9.61185
▁ಅಧಿಕ	-9.61194
▁ನೋಡು	-9.61199
ಗಿಂತ	-9.61208
ಿಸಿಕೊಂಡ	-9.61288
▁ವಿದ್ಯಾರ್ಥಿಗಳು	-9.61303
▁ಚದರ	-9.61363
▁ಮದುವೆ	-9.61411
ಕೊಟ್ಟ	-9.61412
▁ಪ್ರಯತ್ನ	-9.61429
ಿರುತ್ತದೆ	-9.61448
▁ಕಲ್ಲು	-9.61501
▁ಧನ್ಯವಾದಗಳು	-9.61542
▁ನೋಟ	-9.61546
▁ಯೆಹೂದ್ಯರ	-9.61572
▁ನೀಲಿ	-9.61596
ide	-9.61617
▁ಇದ್ದವು	-9.6165
ಟ್ವೀಟ್	-9.61715
▁ಮೆಚ್ಚಿನ	-9.61729
▁ಮಾಡಿದ್ದ	-9.61739
of	-9.61772
▁ಧ	-9.61778
▁ನ್ಯಾಯಪ್ರಮಾಣ	-9.61947
▁ಲಕ್ಷ	-9.6195
ml	-9.61968
ಡರ್	-9.61973
▁ಪರವಾನಗಿ	-9.62022
▁ಹೃದಯದಲ್ಲಿ	-9.62062
ist	-9.62091
▁ಪ್ರಾಣವನ್ನು	-9.62159
▁ನಿಲ್ಲಿಸ	-9.62167
▁ಮಗ	-9.62222
▁ಗ್ರಾಹಕರಿಗೆ	-9.62271
ಥಾ	-9.62303
▁ಟೆ	-9.62307
▁ಭಾರತದ	-9.62324
▁ಮಾರ	-9.62381
▁ಮೇಘ	-9.62408
▁ಪೋ	-9.6242
ಿಸಿದರು	-9.62459
▁ಬಾಕ್ಸ್	-9.62469
ೆಲ್ಲರೂ	-9.62481
▁ಹೇಳುತ್ತೇನೆ	-9.62481
300	-9.62527
▁ಬಟ್ಟೆ	-9.62626
▁ಪಾರ್ಕ್	-9.62783
ಸ್ಟಾ	-9.62823
▁ಬಳಕೆದಾರ	-9.62824
▁ವದು	-9.62895
▁ಯೆರೂಸಲೇಮಿನಲ್ಲಿ	-9.62943
▁ಹೂವಿನ	-9.62965
▁ಕೆಲಸದ	-9.62977
▁ನೇರವಾಗಿ	-9.63012
▁ವನು	-9.6302
▁ಬದಲಾಯಿಸಲು	-9.6311
up	-9.63183
▁ಅವಳನ್ನು	-9.63206
▁ಪವಿತ್ರ	-9.63258
▁title	-9.63259
▁ಚಕ್ರ	-9.63261
ಡೀ	-9.63383
▁ಕ್ಷೇತ್ರ	-9.63393
▁ನಿವಾಸ	-9.63427
▁Ba	-9.63482
▁ಫೇಸ್ಬುಕ್	-9.63527
▁as	-9.6356
ಚಾ	-9.6366
▁ಹೊರಟ	-9.63666
▁ಆಗಿರುವ	-9.63667
ka	-9.6368
▁ಗಣಕ	-9.6368
▁ವ್ಯಕ್ತಿಯ	-9.6368
▁ರುವ	-9.63723
▁ಶಿಲೀಂಧ್ರ	-9.63883
▁ಈಗಾಗಲೇ	-9.63899
▁ಏರಿ	-9.63923
▁ಟ್ಯಾಗ್ಗಳು	-9.63949
▁ವಾಕ್ಯವನ್ನು	-9.63956
▁ಫಿಲಿಷ್ಟಿಯರ	-9.6396
ಾಗಿದ್ದು	-9.64001
▁ಅರಸ	-9.64052
IC	-9.64157
ತಿಯ	-9.64215
▁ಜಾಗ	-9.6422
▁ಪಂಪ್	-9.64229
▁ನೇಮಿಸ	-9.6424
▁ಸೇರಿದಂತೆ	-9.6425
▁ತಲುಪ	-9.6433
ಧಾ	-9.64378
▁ಗಾಯ	-9.64471
▁ಡೇಟಾ	-9.64538
▁ಸೇವೆಗಳು	-9.64573
▁ವಿವರ	-9.64628
▁ಬೆಳ್ಳಿ	-9.64776
▁ಬಳಸುವ	-9.6478
ans	-9.64783
▁ವಿಶ್ರಾಂತಿ	-9.64826
▁ಎರಡನೇ	-9.64854
▁ಬಹಳಷ್ಟು	-9.64867
▁ನೀಡಲು	-9.64915
ಗೊಳಿಸಲು	-9.64975
▁ಬೆಂಕಿಯ	-9.6508
▁ಬದಲಾಯಿಸ	-9.65086
▁ಇನ್ನೊಂದು	-9.65143
▁month	-9.65143
▁ರಾಮ	-9.65167
▁ಬೆಳಕಿನ	-9.65174
▁ತಾವು	-9.65188
pr	-9.65295
▁ಹೆಸರಿನಲ್ಲಿ	-9.65345
▁ಫಲಕ	-9.65384
▁ಹೊಡೆದು	-9.65425
ಹೋಗಿ	-9.6556
▁ಇವನ	-9.65566
▁ಎದುರಾಗಿ	-9.65816
▁ಅರ್	-9.65841
▁33	-9.65843
▁300	-9.65865
▁ಹುಡುಕುತ್ತಿರುವ	-9.65894
ಾಗಿದ್ದರು	-9.65916
ೊಂದ	-9.65918
▁ದುಷ್ಟರ	-9.66025
▁Comment	-9.66042
▁ಶುಲ್ಕ	-9.66098
▁ಜನರೇಟರ್	-9.66106
▁ಕೊಳ್ಳ	-9.66164
▁ತಿನ್ನುವ	-9.66166
act	-9.66192
▁ಗುರುತಿಸ	-9.66284
ಬಿಟ್ಟ	-9.66285
ಾನ್	-9.66327
▁ಕಣ್ಣು	-9.6638
▁ಅನುಸರಿಸ	-9.66417
▁ಸ್ವಯಂಚಾಲಿತ	-9.66469
▁ಪೂರೈಕೆದಾರರು	-9.66562
sa	-9.66584
▁ಏಕೆ	-9.66637
▁ಸಾಧ್ಯವಿಲ್ಲ	-9.66754
▁ಗೋಡೆ	-9.66761
▁ಅಕ್ರಮ	-9.6686
▁that	-9.67078
▁ಬೀಟಾ	-9.67078
ca	-9.67097
▁ರಾಜ್ಯದ	-9.67101
▁ಸಂಭವಿಸ	-9.6715
do	-9.67255
▁ಯುದ್ಧಮಾಡ	-9.67275
▁search	-9.67291
▁ಹೊಂದುವ	-9.67316
▁ದಂಡ	-9.67316
ಮಿನ	-9.67354
▁ಹೆಂಡತಿಯ	-9.67377
▁ಹಿರಿಯರ	-9.67392
▁ಬಳಸಿಕೊಂಡು	-9.67449
ವಾಗುತ್ತದೆ	-9.67469
ಯೊ	-9.67484
▁ಯೇಸುವಿನ	-9.67506
▁ರಾಷ್ಟ್ರೀಯ	-9.67508
ಚಿತ	-9.67533
▁ಕುಮಾರ	-9.67565
son	-9.67576
▁ಹಿಂದೆಯೇ	-9.67601
▁ಹಿಂ	-9.67636
▁ತಯಾರಿಸ	-9.67666
▁ಸುಳ್ಳು	-9.67698
▁ಸ್ತೋತ್ರ	-9.67711
ting	-9.6772
▁ಹಿಡಿಯ	-9.67736
gi	-9.67825
▁ಅವಧಿ	-9.67896
ಂಡರ್	-9.67899
ಲನ	-9.67929
▁ಅಂಗಡಿ	-9.68
▁ಮಾರ್ಗದರ್ಶನ	-9.68043
▁ಸುರಕ್ಷಿತ	-9.68054
▁ಉಂಟು	-9.68147
▁ತನಕ	-9.68173
ies	-9.6818
▁100%	-9.68195
▁ವಾಸಿಸುವ	-9.68265
▁ಉಳಿಸಿ	-9.68311
cc	-9.68322
nt	-9.68356
▁Karnataka	-9.68363
▁ಮಟ್ಟ	-9.68378
▁ರಚಿಸಲಾದ	-9.68384
▁ಮುದ್ರಿಸಲು	-9.68424
▁ಕೂದಲು	-9.6863
ೇಷನ್	-9.68717
▁ತಕ್ಕೊಳ್ಳ	-9.68731
▁ago	-9.68736
▁ಕೆಳ	-9.68772
IS	-9.68892
▁ಎಣಿಸ	-9.68943
;&	-9.68966
▁Bonus	-9.6902
▁ಇಂಟರ್ನೆಟ್	-9.69022
▁ಬಯಸಿದರೆ	-9.69073
▁ಹಸಿರು	-9.69154
▁'%	-9.69234
air	-9.69251
ುತ್ತಿದ್ದಾರೆ	-9.69256
▁ಇರುತ್ತದೆ	-9.6927
▁al	-9.69305
ಕೀ	-9.6932
▁ಸೂಪರ್	-9.69354
▁ಸಮಾಜ	-9.6938
ಶು	-9.69408
▁ಪ್ಯಾಕ್	-9.69429
▁ದಿನಗಳಲ್ಲಿ	-9.69452
▁ಅಧಿಕಾರಿ	-9.69534
ಗೊಂಡು	-9.69592
ಗ್ರಾ	-9.69644
bi	-9.69664
▁ಉಕ್ಕಿನ	-9.69682
▁ಚೀಲ	-9.69685
▁ಕರಕೊಂಡು	-9.69696
▁ಮಾಂಸ	-9.69709
▁at	-9.6971
▁ನಿಯಮಿತ	-9.69725
▁ಪೈ	-9.6973
▁ಲೇವಿಯರ	-9.69738
gmail	-9.69745
▁ವರ್ಗಗಳು	-9.69813
▁Bo	-9.69821
ಹನ	-9.69824
▁ದುಷ್ಟ	-9.69864
▁ಎತ್ತ	-9.69869
ಚು	-9.69936
ct	-9.6996
ವರೆಲ್ಲರ	-9.69991
▁ಪೂರೈಕೆ	-9.70018
ಡಿಂಗ್	-9.70104
▁ತಂದೆಯು	-9.70178
▁ಹೋರಿ	-9.7018
▁ವಿವರಗಳು	-9.70275
ಿಯೋ	-9.70296
▁ಸ್ವೀಕರಿಸ	-9.70328
cn	-9.70329
ಗೊಳಿಸುವ	-9.70329
▁ಸರ್	-9.7033
▁ತಪ್ಪ	-9.70337
▁ಟೇಬಲ್	-9.70348
ನೊಂದಿಗೆ	-9.70366
ಿದ್ದರಿಂದ	-9.704
▁con	-9.70417
▁ಕಣ್ಣುಗಳ	-9.70445
▁120	-9.70458
ಲ್ಲೆಲ್ಲಾ	-9.70463
▁ಪ್ರತಿಕ್ರಿಯೆ	-9.70468
▁ಕಣ್ಣುಗಳು	-9.70476
▁ನೀರನ್ನು	-9.70496
▁ಬಳಸಬಹುದು	-9.70505
ಮಂ	-9.70515
▁ಮಗು	-9.70577
▁ಓಡಿ	-9.7066
ect	-9.70677
▁ಧರ್ಮ	-9.70683
▁ಯಜ್ಞವೇದಿಯ	-9.70706
▁ಬೆಂಕಿ	-9.70752
▁ಕಾಣಿಕೆ	-9.70817
▁your	-9.70822
ight	-9.70904
▁ಉದ್ಯೋಗ	-9.70913
ak	-9.70918
▁ಪ್ರಾರಂಭಿಸ	-9.70954
ಯುಕ್ತ	-9.70999
▁ದ್ರಾಕ್ಷಾರಸ	-9.71045
▁ವಿದ್ಯಾರ್ಥಿ	-9.71056
▁ಇಂದಿನ	-9.71059
▁ಕಾಯ	-9.71105
▁am	-9.7113
▁ತಕ್ಕ	-9.71167
▁ಕೂ	-9.7118
್ಯರ	-9.71276
▁ಆಕಾರ	-9.71315
ld	-9.71327
▁ಫೋಟೋ	-9.71333
▁ದ್ರಾಕ್ಷೇ	-9.71354
▁ಕೇಳಿದಾಗ	-9.7137
▁ಬಳಿ	-9.71441
▁ಎತ್ತಿ	-9.71458
▁ಉಳಿಸ	-9.71512
▁ಪ್ರಯತ್ನಿಸ	-9.71516
-19	-9.71557
ಣೆಯ	-9.71604
▁ಯೋಚಿಸ	-9.71621
▁ಅಳತೆ	-9.7167
ನಿಮ್ಮ	-9.71686
▁ಇಲಾಖೆ	-9.71691
▁OF	-9.71707
▁ಪ್ರವೇಶಿಸ	-9.71897
▁ಮಾಡುವುದು	-9.7192
▁ಆರ್ಕೈವ್ಸ್	-9.7203
kannada	-9.72034
▁ಪ್ರತ್ಯೇಕ	-9.72037
▁ಪ್ರಮಾಣಪತ್ರ	-9.72074
▁ಯೋಗ್ಯ	-9.72116
▁ಬೋಧಿಸ	-9.72168
▁mo	-9.72253
▁ಚಿಹ್ನೆ	-9.72371
ಪಡಿಸಿ	-9.72402
ಲೈ	-9.72477
▁ಸರ್ವ	-9.72516
▁or	-9.7254
▁ವಾಸಿಸ	-9.72634
▁ಸ್ತಂಭ	-9.72715
▁ಸರಕು	-9.72725
▁ma	-9.72732
we	-9.72732
ರಹಿತ	-9.72769
▁are	-9.72777
▁Vi	-9.72795
▁ಬೀಜ	-9.72823
▁ಅವಳಿಗೆ	-9.72853
▁ವಸ್ತುಗಳ	-9.72912
▁05	-9.72974
▁ಇವುಗಳನ್ನು	-9.73054
▁ಕೆಡಿಇ	-9.73054
ಬರ	-9.73086
▁ಔಷಧ	-9.73095
▁ಕ್ರೆಡಿಟ್	-9.73124
ಾಧ	-9.73125
▁ಹಾಗ	-9.73203
▁do	-9.73205
▁ಗೇ	-9.73206
▁ಲೋಕ	-9.7321
▁ಕಂಡುಕೊಂಡ	-9.73231
▁ಕತ್ತಿಯಿಂದ	-9.73239
ao	-9.73256
▁36	-9.73282
▁ಹರಡ	-9.73309
▁ಕುಮಾರ್ತೆಯರ	-9.73315
▁ಯಾಕೋಬನ	-9.73317
▁ಕತ್ತಿ	-9.73325
▁ಬಳಕೆದಾರರ	-9.73342
▁ಆಲಯದ	-9.73369
▁ಸ್ಟ್ರೀಮಿಂಗ್	-9.73398
ug	-9.73425
▁ಉಚಿತವಾಗಿ	-9.73464
▁ಸಂಸ್ಥೆಯ	-9.73572
app	-9.73576
▁ಪಾತ್ರ	-9.73577
ಂಪ	-9.73642
್ಯಾಂ	-9.7366
▁ಎಬ್ಬಿಸ	-9.73687
▁ಝ	-9.73723
▁ಮಾರ್ಗವನ್ನು	-9.73729
▁ವಾಸ	-9.73729
ೇಟ್	-9.73732
GenericName	-9.73743
®	-9.73743
▁ಸಂದರ್ಶಕ	-9.73743
▁ಸಂಯುಕ್ತ	-9.73768
wa	-9.73819
▁ತೋ	-9.73824
ವರಲ್ಲಿ	-9.73834
▁ಐಗುಪ್ತದ	-9.73838
▁ಎಲೆ	-9.73868
▁ಉತ್ಪನ್ನಗಳ	-9.73895
ಣಾ	-9.7393
▁Be	-9.73988
ಬೀ	-9.73992
ವರೆಗೂ	-9.73999
▁ಸುಂದರ	-9.74061
▁ಇಲ್ಲದ	-9.74063
▁ಲಭ್ಯವಿದೆ	-9.74089
▁ಕಾಲಾವಧಿ	-9.74098
▁ಹೆಸರ	-9.7413
ion	-9.74151
ಮುಖ	-9.74158
▁ಚರ್ಮದ	-9.74294
▁ಕ್ರ	-9.74317
▁ಮೇಲಕ್ಕೆ	-9.7436
▁ಯೆಹೋ	-9.74437
▁ನೀತಿವಂತರ	-9.7446
ಗೊಳಿಸು	-9.74485
-02-	-9.74543
ಡೋ	-9.74555
▁ಲ್ಯಾ	-9.74621
▁ನಿಜ	-9.74638
▁ಬಿಸಿ	-9.74685
▁ವಿರೋಧ	-9.74686
▁ಭಾರ	-9.74709
ವನನ್ನು	-9.74773
▁ಅನ್ನುತ್ತಾನೆ	-9.74831
▁ಉದಯ	-9.74842
ಡುವ	-9.74916
▁ತೆರೆದ	-9.74924
ni	-9.74958
▁ಮಾಡಿದರೆ	-9.7512
stitute	-9.75134
▁ಸೋರಿಯಾಸಿಸ್	-9.75134
▁SKU	-9.75134
▁ಪುಟಗಳು	-9.75212
▁ಸೇವಿಸ	-9.7526
▁ಜೋ	-9.75265
▁ಕರ್ತ	-9.75293
▁ಕಳೆದ	-9.75294
▁ಕೋರ್ಸ್	-9.75361
▁ಹಿಡಿದ	-9.75371
ಮೈ	-9.75381
RE	-9.75433
▁ಕೋಟೆ	-9.75477
▁ಅಲಂಕಾರಿಕ	-9.75497
▁ಎಂಬುದು	-9.75525
▁ಮೊದಲನೆಯ	-9.75534
▁ಶೂ	-9.75557
▁ಪರಿಚಯ	-9.75568
si	-9.75611
▁150	-9.7566
▁ದಿವಸಗಳ	-9.75692
ಶನ್	-9.75753
▁ಪರೀಕ್ಷಿಸ	-9.75756
▁ಸಮಾನ	-9.75771
▁ಕ್ರಿಯೆ	-9.7579
▁ಆಧಾರ	-9.75825
ಗಳೆಲ್ಲಾ	-9.75826
▁ಸಂಗತಿ	-9.75833
▁ಆರ್ಥಿಕ	-9.75837
▁ಪ್ರಸಿದ್ಧ	-9.75837
▁ನೆನಪಿ	-9.75844
▁ಕಡತಕೋಶ	-9.75847
ುವದನ್ನು	-9.75888
ಲ್ಪಟ್ಟಿತು	-9.75928
ort	-9.75997
▁ಶಾಲೆ	-9.76083
▁ಅಥವ	-9.76084
ಾತ್ಮಕ	-9.76119
▁ಕೊಂಡಿ	-9.76154
▁ವ್ಯವಸ್ಥಾಪಕ	-9.7619
▁ಬೆಂಕಿಯಿಂದ	-9.76192
▁ಬಿತ್ತ	-9.76204
▁ವಸ್ತ್ರ	-9.76226
ಯಲ್ಲಿರುವ	-9.76228
ಯಿಲ್ಲದ	-9.76407
▁ಸ್ಥಳವನ್ನು	-9.76452
▁ತುಂಬಿ	-9.76495
▁ಹೃದಯದ	-9.76519
▁ಕಾರ್ಯಾಚರಣೆ	-9.76545
▁ಶ್ರೇಷ್ಠ	-9.76545
▁ಆರಾಧಿಸ	-9.76545
▁ಬಾಡಿಗೆ	-9.76546
▁ಬಳಕೆಯ	-9.76551
▁ಮೇಲಿರುವ	-9.76624
▁ಎಣ್ಣೆ	-9.76711
ಲ್ಪಡುತ್ತದೆ	-9.76712
▁XS	-9.76717
ಖಾ	-9.76744
▁ಶತ್ರು	-9.7675
ಾಟ	-9.76806
ಾಂತರ	-9.76819
OS	-9.76826
ಿರಬೇಕು	-9.76834
▁ಚಿತ್ರಗಳನ್ನು	-9.76863
ಿಲ್ಲದೆ	-9.76888
▁ಪ್ರಶಸ್ತಿ	-9.76901
▁ಟ್ಯಾಬ್ಲೆಟ್	-9.76902
▁ದೇವಾಲಯ	-9.7691
ಕ್ಟ್	-9.76915
▁ಉಪಯೋಗಿಸ	-9.76933
▁ಕೊಳ್ಳುವ	-9.7696
▁ಗುರು	-9.77043
ಳಿಗೆ	-9.77062
▁ಕಣ	-9.77127
▁ಅಪಾಯ	-9.7725
▁ಎದುರಿಸ	-9.7726
ಾಂಗ	-9.77279
▁ವಿವರಿಸ	-9.77313
▁ಚಲನಚಿತ್ರಗಳು	-9.77333
▁ಸಹೋದರ	-9.77363
ake	-9.77386
▁ಇದರಿಂದ	-9.77429
ON	-9.77432
▁ಪಟ್ಟಣದಲ್ಲಿ	-9.7745
▁ಹಾಕು	-9.77478
▁ನಿತ್ಯ	-9.77503
▁ತಿಳಿದು	-9.7751
▁ಇಂತಹ	-9.7754
▁ನೂರು	-9.7756
▁ದಿವಸಗಳಲ್ಲಿ	-9.77574
ಾವ	-9.77574
▁ಮನೆಯನ್ನು	-9.77613
▁37	-9.77631
▁ತಿಂಗಳಿನ	-9.77668
▁ಯುರೋಪ್	-9.77682
▁ಚೆ	-9.77731
-2019	-9.77748
▁ಸಂವಾದ	-9.77779
ನೀಯ	-9.77793
▁ಪರಿಣಾಮಕಾರಿ	-9.77824
ಲ್ಲದೆ	-9.77835
▁ಮೇರೆ	-9.77846
▁ಪತ್ರಿಕೆ	-9.77895
▁ಸೂಚಕ	-9.77975
▁ನಿರ್ಧರಿಸ	-9.77976
▁ಯಜ್ಞ	-9.77987
▁ಪದವಿ	-9.77995
ಥಿ	-9.78004
ವಾಗಿದ್ದು	-9.78029
▁ಬ್ಲಾಕ್	-9.7803
ದರಲ್ಲಿ	-9.7807
ೆಂದೂ	-9.78076
▁ನಿರ್	-9.78187
ಮನ್	-9.78191
▁ಕರೆದು	-9.78273
▁ತಮ್ಮನ್ನು	-9.78311
▁ವೈದ್ಯಕೀಯ	-9.78337
▁ಹೀಗೆಯೇ	-9.78353
▁ಸೌ	-9.78405
ure	-9.78585
▁ಕಾರ್ಯನಿರ್ವಹಿಸ	-9.78699
▁ತಂತಿ	-9.78742
ಮಾಡಿದ	-9.788
ಯನಾದ	-9.78806
▁ವಿರೋಧಿ	-9.78864
Hz	-9.78868
ಂಭ	-9.79039
▁ಜಾಗತಿಕ	-9.79063
▁ಪಾಕವಿಧಾನ	-9.79063
▁ಸುನ್ನತಿ	-9.79063
▁start	-9.79069
▁ಕಳುಹಿಸಿದನು	-9.79084
▁ಫ್ಲ	-9.79089
▁ಗ್ರಹಿಸ	-9.79105
ಥೆ	-9.79119
ುತ್ತಿರುವಾಗ	-9.79135
ish	-9.79215
ಮನು	-9.79245
400	-9.79256
▁ಕೂಗಿ	-9.79266
ಲ್ಪಟ್ಟು	-9.79268
▁01	-9.79342
ec	-9.79347
AT	-9.79358
ಾತನು	-9.79406
▁ನದಿ	-9.79414
▁ಸಂವಹನ	-9.79428
▁ಸಲಕರಣೆ	-9.79428
▁Video	-9.79428
anium	-9.79455
▁ಹೆಚ್ಚ	-9.79585
ಷೆ	-9.79624
▁ಪ್ರಮಾಣದ	-9.79673
▁Mar	-9.79704
▁ಶಾಪ	-9.79719
ance	-9.79742
ek	-9.79751
▁ಬೀ	-9.79774
▁ಫೆ	-9.79799
▁ಆಶೀರ್ವಾದ	-9.79806
ji	-9.79807
▁ಸಿಕ್ಕ	-9.79809
▁action	-9.79809
▁ಸೇವಕನಾದ	-9.79868
▁2000	-9.79894
ಚರ	-9.80055
▁ತಂದೆಗಳ	-9.80102
ಲೆಟ್	-9.80173
▁ಭೂಮಿ	-9.8019
▁ಸ್ಪಷ್ಟ	-9.80215
▁09	-9.80247
ಎಚ್	-9.80359
▁sa	-9.80369
▁ಐಗುಪ್ತ	-9.80371
su	-9.80378
▁ನಡಿಸ	-9.80426
▁ತ್ತಾನೆ	-9.80443
▁ನೆಲದ	-9.80445
к	-9.80532
▁ಮೊದಲುಗೊಂಡು	-9.80557
ನಿಯಾ	-9.80562
ನಿಕ್	-9.80613
▁ಗಾಳಿ	-9.80661
ರೂಪ	-9.80712
▁ಬಣ್ಣಗಳು	-9.80726
ತರ	-9.80744
▁ಮಹಿಮೆ	-9.80744
▁ಮಾಡಿಕೊಳ್ಳ	-9.80829
▁ಮಗನನ್ನು	-9.80833
ೆನೆಂದು	-9.80839
▁ಸ್ನೇಹಿ	-9.80846
▁ಕೇಳಲು	-9.80869
▁We	-9.80872
т	-9.80893
▁ಖಾಲಿ	-9.80906
▁ಪ್ರಮಾಣೀಕರಣ	-9.80933
600	-9.80969
▁ಬೊ	-9.8097
▁ಊಟದ	-9.81017
ಫೀ	-9.81039
ಕ್ಕಿ	-9.81042
ಕರ್ತನು	-9.81094
▁ತರುವ	-9.81138
▁ಆದಾಯ	-9.81161
▁ಆಗಿತ್ತು	-9.81366
ass	-9.8137
les	-9.81392
ಲ್ಯಾಂಡ್	-9.81404
▁ಯೆರೂಸಲೇಮಿಗೆ	-9.81423
ಿಂದಲೇ	-9.81456
▁ವಿಮರ್ಶೆ	-9.81505
ಹೂ	-9.81621
▁ವಿಶಿಷ್ಟ	-9.81646
▁ಎಂಜಿನ್	-9.81647
▁live	-9.81649
▁ಪ್ರಭು	-9.8165
▁ಪ್ರವಾದಿಗಳ	-9.81657
▁ಭಾಷಾ	-9.81661
ev	-9.81688
▁ನಾಯಕ	-9.81702
▁70	-9.81739
▁ಗಂಟೆ	-9.81749
▁ಸವಿಾಪ	-9.81767
▁ದೇಹದ	-9.81916
▁ಹಣವನ್ನು	-9.81927
▁All	-9.81934
▁Namibia	-9.8202
▁ಭರವಸೆ	-9.82091
ಥ್	-9.82101
▁ವಾಸ್ತವವಾಗಿ	-9.82128
▁se	-9.82171
▁ಅಬೀ	-9.82211
▁ಗೋಸ್ಕರ	-9.82213
▁ಕುದುರೆ	-9.82214
▁ತನ	-9.82254
▁ಪ್ರಯತ್ನಿಸಿ	-9.82282
▁ಮುಚ್ಚಿ	-9.82292
day	-9.82379
▁ಹಿಂದಕ್ಕೆ	-9.82401
▁ಸ್ವತಂತ್ರ	-9.82401
▁ಸಾಧ್ಯವಾಗಿಲ್ಲ	-9.82409
▁ವಿಚಾರ	-9.82432
▁ಹತ್ತಿ	-9.82487
ನೈ	-9.8249
▁ಹಾನಿ	-9.82507
▁ಪುರುಷ	-9.82513
▁ಯೋಸೇಫನ	-9.82538
▁ಯೆರೂಸಲೇಮ	-9.82563
ಗೊ	-9.82567
▁ಅಬ್ರಹಾಮನ	-9.82608
2017	-9.8264
ಪಡಿಸಿದ	-9.82667
ase	-9.82674
ದ್ದೇನೆ	-9.82782
▁ಕ್ಷಮಿಸ	-9.82785
▁ವದಕ್ಕೆ	-9.82785
▁ಬಿಡಿಸ	-9.82878
ty	-9.82884
-03-	-9.82891
▁ಕಡತಗಳನ್ನು	-9.82915
▁ಕೆಟ್ಟತನ	-9.82943
▁ಬೇಕಾದ	-9.82968
▁ಎಲ್ಲರೂ	-9.83073
▁ಯಜಮಾನನ	-9.83086
▁ನಾಚಿಕೆ	-9.83089
▁ಗಿಡ	-9.83116
ಯಾಗುವ	-9.83129
ೇಶನ್	-9.83141
▁TRANSLATORS	-9.83153
ಬಹುದಾಗಿದೆ	-9.83153
▁ಭಾವನೆ	-9.83201
▁ಸಂದೇಶವನ್ನು	-9.83221
ov	-9.83226
▁ಪ್ರಕಟ	-9.83246
▁ಊ	-9.83249
ಹೋ	-9.83277
ಿದ್ದವು	-9.83287
▁ಸ್ವರ	-9.83318
ಹಿತ	-9.83391
ನೋಡಿ	-9.83524
▁ಅಪ್ಲೋಡ್	-9.83533
▁ತಿಳಿದುಕೊಳ್ಳ	-9.83661
▁ಸಿಂಹ	-9.83661
ಸೂ	-9.83698
▁ರಕ್ತವನ್ನು	-9.83773
▁ನಕಲಿ	-9.83803
▁ಬೈ	-9.83848
▁ದ್ವೀಪ	-9.83915
▁ಮುದ್ರಣ	-9.83915
▁ಆಯಾಮ	-9.83918
▁ಮಾಡಿಕೊಂಡ	-9.83929
▁ಹೃದಯವನ್ನು	-9.83932
▁ವೀಕ್ಷಿಸಿ	-9.83948
▁ಹೀಗ	-9.83996
ದ್ದೇ	-9.8403
▁ಅಮೇರಿಕಾದ	-9.84033
ಪತಿ	-9.8406
▁ದಾಟಿ	-9.84072
▁ಹಾಳೆ	-9.84075
ನಮ್ಮ	-9.84177
▁48	-9.84181
ದಿರುವ	-9.84206
▁ದೃಷ್ಟಿ	-9.84214
ವಿಲ್ಲದೆ	-9.8429
▁ಬಂಗಾರದ	-9.84297
▁ಕಸ್ಟಮ್	-9.84298
▁ಉಡುಗೆ	-9.84298
ುವಿರಿ	-9.84331
ಹೊ	-9.84339
▁ಸಾಧ್ಯವಾಗುತ್ತದೆ	-9.84364
▁ತೆಗೆದುಕೊಂಡ	-9.84437
ಿಡ	-9.84447
▁ಸರ್ಕಾರ	-9.84494
▁ಸಲಹೆಗಳು	-9.84546
con	-9.8464
atch	-9.84674
೫	-9.84683
▁ವಿಡಿಯೋ	-9.84683
▁ಧೂಪ	-9.84683
▁ಕುರಿಮರಿ	-9.84684
ಎಮ್	-9.8469
ಪೇ	-9.84698
▁dur	-9.84702
▁ಸಂಘ	-9.84738
▁ಭಯಪಡ	-9.84901
end	-9.8491
▁2009	-9.84922
▁ಸೇವೆಯನ್ನು	-9.84934
▁ವ್ಯಾಸ	-9.84939
ೆಂದರೆ	-9.84952
ಾಂಶ	-9.84999
▁ಅಪ	-9.8501
▁ಮಾಡಿದಾಗ	-9.85017
▁ನಿದ್ರೆ	-9.85069
▁ಬ್ಯಾಂಕ್	-9.85106
▁ತೀರಿಸ	-9.85213
▁Li	-9.85222
-04	-9.85226
▁English	-9.85325
ವಿರುವ	-9.85344
▁ಟೀ	-9.8539
▁ಗೌರವ	-9.85397
kn	-9.85411
▁ಸಹಾಯಕ	-9.85413
}	-9.85446
ea	-9.85455
▁ನಿಲ್ದಾಣ	-9.85456
▁ಹೇಳುವದೇನಂದರೆ	-9.85458
▁ಓದಲು	-9.85468
▁ಸಂಪನ್ಮೂಲ	-9.85486
ಸಂಪುಟಗಳಲ್ಲಿ	-9.8549
▁ಲೈ	-9.85495
▁ಕೇಳಿದನು	-9.85518
▁34	-9.85573
ವಲ	-9.8569
ಮೂ	-9.85699
ಗಿರುವ	-9.85712
▁ಸ್ಯಾ	-9.85758
▁ದೃಷ್ಟಿಯಲ್ಲಿ	-9.858
GB	-9.85808
▁ಕೃಷಿ	-9.85845
▁ISO	-9.85857
▁ಎಮ್	-9.85891
▁·	-9.85897
▁ಸ್ವಸ್ಥ	-9.86012
▁ಕಾರ್ಯವನ್ನು	-9.86026
▁ಮಾರ್ಗದಲ್ಲಿ	-9.86084
pi	-9.86099
▁ಕಥೆ	-9.86144
▁ಗಣ	-9.86164
▁ದೂತನು	-9.86199
ff	-9.86199
▁ಅವುಗಳಲ್ಲಿ	-9.86221
▁ಎದುರು	-9.86236
▁Rikoooo	-9.86236
▁ಇಂಧನ	-9.86236
▁ಅಧ್ಯಾಯ	-9.86236
ಬೇಕಾಗುತ್ತದೆ	-9.86236
▁ಪ್ರದೇಶದಲ್ಲಿ	-9.86246
▁ಕೂಡಿಸ	-9.86252
▁ವಿವೇಕ	-9.86275
▁42	-9.86292
ೋನ್	-9.86316
▁ತಡೆಯ	-9.86322
▁ಫೈ	-9.86363
ಷನ	-9.86393
▁ಅಂತರ	-9.86471
▁Ra	-9.86513
ವರಾದ	-9.86514
೯	-9.8662
▁Black	-9.86628
▁ಲೇಸರ್	-9.86631
ಲ್ಲವೇ	-9.86671
ಬೂ	-9.86672
▁ಪ್ಲೇ	-9.8675
▁Ar	-9.86852
ವಾಗಲಿ	-9.86853
▁ಉಲ್ಲೇಖ	-9.86857
ಟೀ	-9.86902
▁ಕರ	-9.86948
▁ಯುರೋ	-9.86985
▁ಚೊಚ್ಚಲ	-9.87022
▁ಮುಂದೆಯೂ	-9.87046
:%	-9.8705
▁ಚಾಲಕ	-9.87072
▁ಕೈಗೆ	-9.87125
ಮಾಡು	-9.8713
ಸೋ	-9.87276
ೆಲ್ಲ	-9.87281
▁Po	-9.87321
ಸಲು	-9.87344
TC	-9.87363
▁Sa	-9.87377
ಹಾರ	-9.87387
▁ಸಬ್ಬತ್	-9.87413
▁ಹೋಟೆಲ್	-9.87417
▁ಕಲಿಯ	-9.87429
▁ಒಡಂಬಡಿಕೆಯ	-9.87487
ಮೇಲ್	-9.87498
▁ಸಾಲು	-9.87501
▁ಐವತ್ತು	-9.87562
▁06	-9.8757
▁ಯಾವುದ	-9.87578
able	-9.87747
har	-9.87791
▁ಬಯಸ	-9.87818
-05-	-9.87845
▁ಆರಂಭಿಕ	-9.87846
▁ಮೇಲ್ಮೈ	-9.8786
▁ಅಡಿ	-9.87874
ವೆಂದರೆ	-9.87944
ens	-9.87977
▁ತುಂಡು	-9.88023
▁ವೀಕ್ಷಣೆಗಳು	-9.88037
▁ದರ್ಶನ	-9.88083
▁ಮುಖವನ್ನು	-9.88214
▁ರೂಲೆಟ್	-9.88229
ಝ	-9.88252
ಸಮ	-9.88268
▁ಕೇ	-9.88279
ಬ್ರ	-9.88298
ನಿನ	-9.88312
ರಿಂಗ್	-9.88316
ಿಸಲಾಗಿದೆ	-9.88363
▁ಒಣಗಿ	-9.88368
▁ಸಂಸ್ಕೃತಿ	-9.88426
ಯಲ್ಲಿಯೂ	-9.8844
▁07	-9.88608
▁ಸಮರ್ಪಣೆ	-9.88612
▁ತೀವ್ರ	-9.88612
gu	-9.88618
▁ಕೀಲಿ	-9.88623
▁ಸೂಕ್ತ	-9.88636
▁ಗೊ	-9.88637
▁ರುಚಿ	-9.88641
▁ಸೊ	-9.88647
▁ಆಳಿದನು	-9.88675
ick	-9.8868
▁ಸೈನ್	-9.88782
▁ನೋಡಿದಾಗ	-9.88843
ಜೀವ	-9.88864
▁By	-9.88874
▁ಇದ್ದರೆ	-9.88905
ತೆಗೆ	-9.88928
▁ಸೈ	-9.88949
▁ಅರಣ್ಯದಲ್ಲಿ	-9.88972
ಗರ್	-9.88976
ಾತ್ಮ	-9.88982
▁ನೀತಿಯ	-9.89002
▁ಒಪ್ಪಂದ	-9.89026
CH	-9.89042
▁ಪ್ರಚಾರ	-9.89049
▁ಪ್ರತಿಯೊಬ್ಬ	-9.89067
▁ಇಂಥ	-9.89084
್ಮ	-9.89089
ತ್ತಾ	-9.8912
▁ಮೃಗ	-9.89169
fe	-9.89181
▁ಮಾಡಲಾಗುತ್ತದೆ	-9.89186
▁ಆಮೇಲೆ	-9.89213
ಿರಲಿಲ್ಲ	-9.89219
ಬಂಧ	-9.89252
▁2008	-9.89339
▁ಕಟ್ಟಳೆ	-9.89371
AL	-9.894
▁ಮಾನಸಿಕ	-9.89417
word	-9.89421
▁ಸಲುವಾಗಿ	-9.89424
ನ್ನಿ	-9.89429
ವಾರ	-9.89461
▁ಆಟದ	-9.89466
▁ಯುಎಸ್ಡಿ	-9.89466
▁Le	-9.89507
ನ್ನೆ	-9.89555
▁ಆಕೆಯ	-9.89602
▁ಹಾದು	-9.89614
▁ಚಿಕ್ಕದು	-9.8962
ಾತ	-9.89638
▁pro	-9.89655
▁ನಿವಾಸಿಗಳ	-9.89695
▁ನಾಮ	-9.89758
▁ಗಮನಿಸಿ	-9.89761
▁ಕೇಳು	-9.89774
ಸೀ	-9.89788
▁ಪಶು	-9.89791
LYP	-9.89823
-2017	-9.89939
ವರ್ತ	-9.89957
ುವುದರ	-9.89965
ಗಡೆ	-9.90005
ನ್ನಾಗಲಿ	-9.90024
ET	-9.90029
▁ರಾತ್ರಿಯಲ್ಲಿ	-9.90032
▁ಸಂಚಾರ	-9.9006
ಂತಿ	-9.90106
▁ಪ್ರಾರಂಭಿಸಿ	-9.90122
ದ್ದೀರಿ	-9.90126
▁17,	-9.90139
ದ್ದೇವೆ	-9.90154
▁ನಾನ	-9.90165
▁ಪರಿಚಾರಕ	-9.90229
▁ಒಬ್ಬನ	-9.90258
▁ಪಾವತಿಸ	-9.90266
▁ಮಿಲ್	-9.90296
▁ಸಾವಿರದ	-9.90315
sk	-9.90416
▁(6	-9.9048
ran	-9.90625
▁WEEK	-9.90637
▁Phone	-9.90637
▁ಎಲ್ಇಡಿ	-9.90637
ದೀ	-9.90671
▁(7	-9.90672
▁64	-9.90679
▁ಏಳ	-9.9075
▁ನೂರ	-9.90765
▁ನೋಡಿದ	-9.90796
▁(12	-9.90869
▁ಮಿತಿ	-9.90881
▁ನೆಲೆ	-9.90881
▁ಹೊಂದಿ	-9.90931
▁{	-9.90944
▁ನೊಂದಿಗೆ	-9.90954
▁ಮನಸ್ಸೆಯ	-9.90973
ವೆಂಬ	-9.91016
LE	-9.91051
▁State	-9.9109
▁ಮೀಟರ್	-9.91095
ಡಿಸಿ	-9.91108
▁ಟೈ	-9.91108
ಾನನ	-9.91112
ಟೈ	-9.91166
▁ಪ್ರಾಣವು	-9.91201
ny	-9.91247
▁೨	-9.91265
ವರಿಗೂ	-9.91277
ಂಗಿ	-9.9136
ೆಯನ್ನು	-9.91379
oc	-9.91391
▁ಪೆಟ್ಟಿಗೆ	-9.91458
▁ಕಾಲ್ಬೆರಳ	-9.91459
▁ಗರ್ಭ	-9.91464
▁ರೇಟಿಂಗ್	-9.91476
va	-9.91504
fish	-9.91548
ಿಲ್ಲದ	-9.91572
▁ಕಾವ್ಯ	-9.9158
▁ಅಲ್	-9.91665
ರಿಗೂ	-9.91685
▁ಅನುಕೂಲ	-9.91725
ಹೀ	-9.91781
▁ಕ್ಯಾಮೆರಾ	-9.91871
▁ಗೌಪ್ಯತೆ	-9.91871
▁ವಿಶ್ವಾಸಾರ್ಹ	-9.91871
▁ವಸತಿ	-9.91872
EDIA	-9.91875
▁ವರುಷದಲ್ಲಿ	-9.91882
▁ಯಾವಾಗ	-9.91906
▁ಸುಡ	-9.91917
ಪರ	-9.9192
▁ನಾಟಕ	-9.91921
▁ಮನೆತನದವರ	-9.91962
ES	-9.91976
-9	-9.9199
▁ಕಡಿದು	-9.9201
▁ಕೆಟ್ಟದ್ದನ್ನು	-9.92057
▁ರಥ	-9.9206
▁ಜನರೂ	-9.92083
mon	-9.92088
▁ಯಾದ	-9.92139
ವಾದದ್ದು	-9.92157
IT	-9.92159
▁ತಂತ್ರ	-9.92205
▁ಸ್ತ್ರೀ	-9.92225
н	-9.92261
▁ಎತ್ತು	-9.92278
▁ವಿಭಿನ್ನ	-9.92286
▁ವ್ಯತ್ಯಾಸ	-9.92286
▁ಸಂಕ್ಷಿಪ್ತ	-9.92286
▁გადმოწერა	-9.92286
▁ಸಂಕಟ	-9.92287
ಮ್ಯಾ	-9.92321
ಲಾಗುವುದು	-9.92347
▁ಕೊನೆ	-9.92389
▁ಪ್ರತ್ಯೇಕಿಸ	-9.92494
▁ತೃಪ್ತಿ	-9.92558
fa	-9.9262
ವಾಗಿದ್ದ	-9.92682
▁ಯುನೈಟೆಡ್	-9.92703
▁ವಾಣಿಜ್ಯ	-9.92703
▁ಸುಧಾರಣೆ	-9.92703
▁label	-9.92703
▁ಅದೆ	-9.92704
▁ಮೂರನೇ	-9.92719
▁ದಾವೀದನಿಗೆ	-9.92781
ಕುಲ	-9.92834
▁ಮೆನು	-9.92844
▁ಫಾ	-9.92873
ದಾಯ	-9.92967
ರಿಸಿ	-9.92975
tt	-9.92991
ುವದಕ್ಕಿಂತ	-9.93009
ವಳು	-9.93031
▁ಆಣೆ	-9.93103
▁ಶೋಧಿಸ	-9.93106
▁October	-9.93121
▁ಅಪೇಕ್ಷಿಸ	-9.93121
▁ವದಿಲ್ಲ	-9.93124
▁ಮೂವತ್ತು	-9.93135
▁ಬೆಟ್ಟದ	-9.93165
▁ದನ	-9.93325
ಕೊಂಡರು	-9.93344
ಜ್ಞ	-9.93434
▁ವೋಲ್ಟೇಜ್	-9.93542
ವ್ಯಾ	-9.93567
▁ಹೊಂದಿರ	-9.93574
▁ಕಾಣಿಸ	-9.93582
ವರೇ	-9.93598
▁ಸೇವೆಯ	-9.93602
▁ಹಿಂಬಾಲಿಸ	-9.93619
▁ತಿಂಗಳುಗಳು	-9.93641
▁an	-9.93655
▁ಕಣ್ಣ	-9.93694
▁ಕಾಪಾಡ	-9.93705
ಾರ್ಥ	-9.93738
AP	-9.93739
220	-9.93759
cy	-9.93788
▁ವ್ಯಾ	-9.93805
▁ಗಾಳಿಯ	-9.93839
if	-9.93863
ನೆಂಬ	-9.93864
▁ನಿಜವಾಗಿ	-9.93886
▁ಯರ	-9.9394
▁csgo	-9.93964
▁OEM	-9.93973
▁ಸ್ಟಾರ್	-9.93977
▁ಲೈಟ್	-9.93991
▁ಬಂಗಾರ	-9.94002
ೀಕೃತ	-9.94053
-%	-9.94063
▁ಅಂಗೀಕರಿಸ	-9.94106
▁ಅಕ್ಷರ	-9.94108
▁ಪಟ್ಟಣಗಳ	-9.94165
▁ಟಾ	-9.94253
▁ಸೆರೆಮನೆ	-9.94387
▁ಶಿಫಾರಸು	-9.94387
ಯಾಗಿರುವ	-9.94404
▁ರಸ	-9.94417
▁ಸಕ್ರಿಯಗೊಳಿಸ	-9.94442
-15	-9.94464
▁ಯಾಜಕನಾದ	-9.94465
▁this	-9.94474
▁ಬೆಟ್ಟ	-9.94501
▁ನಡೆಯುವ	-9.94529
ಕೊಳ್ಳಬೇಕು	-9.94542
▁ಸೇವಕನ	-9.94575
▁ಬೇಕ	-9.94581
▁ರಚಿಸಲು	-9.94648
ner	-9.94655
▁per	-9.94719
▁0.5	-9.94739
ಾಗಿರಬೇಕು	-9.9474
▁ನಾಣ್ಯ	-9.94831
ಬೊ	-9.94847
ಕನ್	-9.94854
set	-9.94876
▁z	-9.94886
▁ಬಹುಶಃ	-9.94903
▁ಒಳಗೊಂಡ	-9.9494
▁ಆಸನ	-9.94965
ಅವರು	-9.95045
▁ಷ	-9.95203
▁0086-	-9.95239
▁ಪ್ರತ್ಯಕ್ಷ	-9.9524
▁ಸಮುದಾಯ	-9.9524
▁ಒಟ್ಟಾಗಿ	-9.9524
▁ಪರ್ಯಾಯ	-9.9524
▁250	-9.95242
▁game	-9.95269
▁ಇದಕ್ಕೆ	-9.95279
▁Wi	-9.95287
ಹರ	-9.95294
▁ಕೋರ	-9.95304
ಹೇ	-9.95315
▁ಕಾಡು	-9.95331
ಪೊ	-9.95334
▁Su	-9.95482
▁ಹೆಸರಿನ	-9.95484
ou	-9.9553
▁ಮೋಶೆ	-9.9565
▁ಆಣ್ವಿಕ	-9.95669
▁ಕಛೇರಿ	-9.95669
▁ಪ್ಯಾಕೇಜ್	-9.95669
▁ತಮಗೆ	-9.95671
▁02	-9.95688
▁ಕಲಿಸ	-9.95751
ಗ್ರಹ	-9.95835
ಪ್ತ	-9.9585
೨	-9.95851
▁«	-9.9594
▁ಸ್ತ್ರೀಯರ	-9.95942
▁ಕರುಣೆ	-9.95942
ara	-9.95946
▁ಪ್ರಕಾರವೇ	-9.96006
▁ಮಟ್ಟದ	-9.96019
▁ಬೆಳಕು	-9.96099
▁ಅಪವಿತ್ರ	-9.961
▁ಕಸ್ಟಮೈಸ್	-9.961
▁ಫ್ಯಾಬ್ರಿಕ್	-9.961
▁ಸಿಬ್ಬಂದಿ	-9.961
▁ಹಿಂತಿರುಗಿ	-9.96104
▁ಎರಡನೆಯ	-9.9611
ard	-9.96141
▁ಪರಿಣಾಮಗಳು	-9.96148
▁ಅರ್ಜಿ	-9.96152
▁USD	-9.96178
▁ಹುಡುಗಿ	-9.96202
ರೊಂದಿಗೆ	-9.96228
▁Se	-9.9637
ಧ್ಯ	-9.96372
ೈನ್	-9.96462
EN	-9.96463
▁ರಾಷ್ಟ್ರ	-9.96507
▁***	-9.96519
▁ವಾರ್	-9.96529
▁ಸಿಸ್ಟಮ್	-9.96533
▁ನೆಟ್ವರ್ಕ್	-9.96536
▁ಕೇಬಲ್	-9.96542
▁ಸಂಹರಿಸ	-9.96542
್ಯೂ	-9.96549
▁ಯಾಕೋಬನು	-9.96596
▁ಬಂತು	-9.96665
ಲೋನ್	-9.96677
▁ಕುಕೀಗಳನ್ನು	-9.96698
▁ಆಡಲು	-9.9678
▁ಇರಲಿಲ್ಲ	-9.96783
▁ಯಾಕೋಬ	-9.96801
yl	-9.96915
▁ಧೈರ್ಯ	-9.96921
▁ಚೌಕ	-9.96965
▁ಬೆಳವಣಿಗೆ	-9.96968
▁ಹಣ್ಣು	-9.96969
▁ಕೆಲಸವನ್ನು	-9.97018
▁Long	-9.97023
▁(2)	-9.97037
▁ನಂದರೆ	-9.97038
▁ರಫ್ತು	-9.97063
ಪತ್ರ	-9.97139
▁ವೆಬ್ಸೈಟ್ನಲ್ಲಿ	-9.97182
▁ಮುರಿದು	-9.97204
px	-9.97251
▁ನಿರ್ವಹಿಸಲು	-9.9728
ಯೇಲನ	-9.97324
▁ಗಂಡನ	-9.97357
fi	-9.97368
▁ಬೆಳಿಗ್ಗೆ	-9.97405
▁ವ್ಯಭಿಚಾರ	-9.97405
▁ಸೂಕ್ಷ್ಮ	-9.97405
▁ಹೊರಡ	-9.9745
ಫೈ	-9.97508
ank	-9.97572
▁ಅವುಗಳಿಗೆ	-9.97573
▁ಕೊನೆಯಲ್ಲಿ	-9.976
ಕಲ	-9.97635
ಎಕ್ಸ್	-9.97648
▁ಸಂತೋಷಪಡ	-9.97668
ಯಂತೆ	-9.97687
▁For	-9.9772
▁38	-9.97722
▁ಗ್ರೇ	-9.97805
▁ಅರಿಯ	-9.97816
▁ಸಂತತಿ	-9.97831
▁ಏನಂದರೆ	-9.97849
▁ಉಪಯುಕ್ತ	-9.97868
▁ಕಾಂ	-9.97878
▁ಮಾನ	-9.97883
▁ವೈಶಿಷ್ಟ್ಯ	-9.97937
▁ಸೃಷ್ಟಿಸ	-9.97938
▁ನೀವೇ	-9.97975
▁ಬಾಯಿಯ	-9.97977
▁ಮತ್ತ	-9.98074
▁ಚಿನ್ನದ	-9.98121
▁ಕೈಯನ್ನು	-9.98152
▁ಶಾಂತಿ	-9.98158
png	-9.9816
▁ಔಷಧಿ	-9.98203
▁ಸ್ಟ್ರೀಟ್	-9.98284
▁ಕಿವಿಗೊಡ	-9.98284
▁ಮುಂತಾದ	-9.98284
▁75	-9.983
▁ಪ್ರಬಲ	-9.98307
▁ಹೀ	-9.9835
ಕೃತಿ	-9.98355
ಡೊ	-9.98405
ಸೈ	-9.98427
-7	-9.9843
ೀಕರಿಸ	-9.9845
▁ಭಾವಿಸ	-9.98466
cu	-9.98501
▁ಇಡೀ	-9.98574
▁ಮನಸ್ಸು	-9.98636
▁ಪುಸ್ತಕದಲ್ಲಿ	-9.98673
ತನು	-9.98674
ೊಡನೆ	-9.98736
▁ಸ್ತ್ರೀಯ	-9.98737
▁ಅಯ್ಯೋ	-9.98743
du	-9.9877
▁ಬೆಳೆದ	-9.98798
▁ತಯಾರಕ	-9.98819
▁ಅಂದ	-9.98836
▁ಫ್ರೀ	-9.98847
▁ಹಾಡು	-9.98871
▁ಹೋಮ್	-9.98888
▁ಸ್ಥಳದ	-9.98889
ತ್ತೆ	-9.98906
ಹೊಂದ	-9.98909
▁ಕಾಮೆಂಟ್ಗಳನ್ನು	-9.99062
▁ಕೊಂದು	-9.99062
▁ಅಲ್ಲದೆ	-9.99075
pro	-9.99086
▁ಮಾಡದೆ	-9.99127
▁ಹೋದರೆ	-9.99141
▁ಉತ್ಪಾದನಾ	-9.99171
ville	-9.99171
à	-9.99171
▁ಪರಿಕರಗಳು	-9.99171
▁ಮಿಲಿಯನ್	-9.99177
▁ಸೊಲೊಮೋನನು	-9.99182
▁ಕಾರ್ಯಗಳನ್ನು	-9.99246
ರ್ಪ	-9.99251
▁ಪಾಸ್	-9.9928
▁ಫಾರ್ಮ್	-9.99298
▁ಆಯ್ಕೆಯನ್ನು	-9.99302
▁ಅಳಿಸ	-9.99334
▁ಹಾಗಾದರೆ	-9.99399
▁28,	-9.99431
▁ಬಿಡುವ	-9.99465
▁ಪಟ್ಟ	-9.99496
ಡ್ಸ್	-9.99509
line	-9.99512
site	-9.99571
▁ಮೂಲೆ	-9.99572
ದಕ್ಕೂ	-9.99573
▁ನೀತಿವಂತನ	-9.99584
ನ್ನಾ	-9.99609
▁ಅಪ್ಡೇಟ್	-9.99617
▁ವಿಷ	-9.99618
▁ಹಲವು	-9.99621
ಾಗುವದು	-9.99629
ಸ್ಥಾನ	-9.9963
▁ಆಚರಿಸ	-9.99662
▁ಎಂದೂ	-9.99662
▁ವರ್	-9.99689
ಲ್ಲೇ	-9.99786
ಆಗ	-9.99812
OR	-9.99816
ಳೆಯ	-9.99825
ಬಾರದ	-9.99832
ಪರಿ	-9.99847
ತ್ರಿ	-9.9988
9.99	-9.99979
ox	-10
▁ಕೇಡು	-10.0003
л	-10.0007
\\\\	-10.0007
▁ಯಥಾರ್ಥ	-10.0007
▁ನಿಂಗ್ಬೋ	-10.0007
▁ಡೌನ್	-10.0007
▁ಪ್ರತಿಫಲ	-10.0009
▁ಯುದ್ಧಕ್ಕೆ	-10.001
ress	-10.0012
▁ತುಟಿಗಳ	-10.0016
▁ನಡೆದು	-10.0021
▁ತಪ್ಪಿಸಿ	-10.0023
▁ಸೆಂ	-10.0026
▁ಪ್ರವಾದಿಸ	-10.0028
▁ಬಳಕೆದಾರರು	-10.0029
ದಿನ	-10.0029
ng	-10.0033
▁ದ್ವಾರ	-10.0037
ಜ್ಜ	-10.0038
ದರೂ	-10.0043
▁ಯಾಗಿ	-10.005
▁ಕ್ರೀಡೆ	-10.0052
▁ಪ್ರಾಥಮಿಕ	-10.0052
▁ನಾಲಿಗೆ	-10.0052
▁ನೋವು	-10.0056
▁ಗುಡ್ಡ	-10.0061
gen	-10.0062
▁ನೀನೇ	-10.0062
ಪಡುವ	-10.0065
MS	-10.0067
rd	-10.0068
5%	-10.0069
▁ತೇ	-10.007
ME	-10.0075
▁ದಾಸ	-10.0076
▁ಹಾರ	-10.0077
lic	-10.0079
▁04:	-10.009
001	-10.0096
▁ಸ್ಕ್ರೀನ್	-10.0097
▁ಒಮ್ಮೆ	-10.0097
▁ಹೊದಿಕೆ	-10.0098
ven	-10.0099
ಚನ	-10.0102
▁ಕಂತು	-10.0106
ಲ್ಟ್	-10.0113
▁ಉಂಟಾದ	-10.0117
ಚಿತ್ರ	-10.0121
▁ಕೂತುಕೊಂಡ	-10.0122
▁ಅದರಿಂದ	-10.0123
ಬಿಡುವ	-10.0124
▁ಯುಗ	-10.0129
▁ಎಲ್ಲವನ್ನೂ	-10.0131
▁ನಿರೀಕ್ಷಿಸ	-10.0132
▁ಬಿಗ್	-10.0132
▁ಸೆಲ್	-10.0133
▁ಮಾಡಿರಿ	-10.0136
ace	-10.0136
ಸ್ಕರ	-10.0137
ಷ್ಠ	-10.0139
▁ತಿರಸ್ಕರಿಸ	-10.0142
▁ಅನುಸ್ಥಾಪಿಸ	-10.0142
▁ಮುದ್ರೆ	-10.0142
▁ಮೂರನೆಯ	-10.0143
▁ಮನು	-10.0144
ರಾಜ	-10.0144
▁ಪ್ರಾಂತ್ಯದ	-10.0144
▁ಸಮರ್ಪಿಸ	-10.0144
▁ಅಂದುಕೊಂಡ	-10.0146
▁ಪಡೆಯುವ	-10.0146
key	-10.0158
▁ಮುಂದ	-10.0159
▁ಗೋತ್ರದ	-10.0162
▁3.0	-10.0166
▁ಪ್ರವಾಸಿ	-10.0174
ವೆಲ್ಲಾ	-10.018
ound	-10.0182
▁ಪಾಲ	-10.0185
▁ಮಾಡುತ್ತೇನೆ	-10.0186
▁ಅನಾ	-10.0186
▁ತುತೂರಿ	-10.0188
▁ಪೊ	-10.019
ix	-10.0198
▁can	-10.0199
ಂಟೆ	-10.02
2014	-10.0202
▁ಸ್ವಾಸ್ತ್ಯ	-10.0202
ಯಾನ್	-10.0208
▁ವರ್ಷಗಳು	-10.0208
▁ಬಾಗಲು	-10.022
2016	-10.0223
ED	-10.0227
▁ಮಾಡುವದಕ್ಕೆ	-10.0229
ence	-10.0229
▁ಎಷ್ಟೋ	-10.0235
▁ಇದನ್ನೂ	-10.0236
▁KDE	-10.0238
್ಯಾಕ್	-10.0239
▁ಅಳ	-10.0242
▁ನರ	-10.0243
ಬಲ	-10.0253
▁ಸ್ತ್ರೀಯು	-10.0259
▁ಸೇವಾ	-10.0266
mg	-10.0266
ಿಸಿಕೊಳ್ಳುವ	-10.0268
ron	-10.0269
▁ಕೊಳ	-10.0274
▁ಚಿಕಾಗೊ	-10.028
Query	-10.028
▁ಏಷ್ಯಾ	-10.028
gr	-10.0281
▁ಹಾರ್ಡ್	-10.029
▁ಆರಿಸ	-10.0295
▁ಹದಿ	-10.0301
ಬಿಟ್ಟನು	-10.0303
▁ಸಾಮರ್ಥ್ಯವನ್ನು	-10.0304
tion	-10.0304
ವಾಗಿರುವದು	-10.0307
▁po	-10.0308
▁ಅತ್ತ	-10.0308
ಸೆಲ್	-10.0309
ಿದ್ದರೂ	-10.0316
RA	-10.0316
▁ಪೋರ್ಟ್	-10.0317
ಕಾರ್	-10.0321
▁ಲೂ	-10.0322
ಹೋಗುವ	-10.0323
▁ಹಿರಿಯ	-10.0323
▁Win	-10.0325
▁ಆಭರಣ	-10.0326
▁ವ್ಯಾಧಿ	-10.0328
▁ಹುಡುಕುವ	-10.0334
ina	-10.0337
▁ಕೋರ್	-10.0338
ಿಸಬೇಕು	-10.0342
▁1.5	-10.0349
▁ಜನರಲ್ಲಿ	-10.035
▁ಇದ್ದಾನೆ	-10.0354
▁ಉಂಟಾಗ	-10.0355
RP	-10.0355
▁ನುಡಿ	-10.0359
▁ಸಾಧ್ಯತೆ	-10.0359
▁ಮಂದಿಯು	-10.0362
▁ಅಲ್ಲಿಗೆ	-10.0365
▁ಮುಖ್ಯವಾಗಿ	-10.0367
▁ಐಶ್ವರ್ಯ	-10.0369
▁ಜಲ	-10.0369
▁ಬಾಗಿಲ	-10.0371
▁ಇಟ್ಟು	-10.0371
▁[...]	-10.0373
▁ವಿಸ್ತರಣೆ	-10.0373
▁ತರಗತಿ	-10.0373
▁ಪ್ರಕಟಿಸ	-10.0374
hu	-10.0376
pm	-10.038
▁ದೇಶವು	-10.0386
▁ಸಮಾ	-10.0394
time	-10.0395
▁ಯೋಜನೆಯ	-10.0406
int	-10.0406
ock	-10.0407
▁ಮಧ್ಯಮ	-10.0409
▁ಪರಿಶೀಲಿಸಿ	-10.0411
▁ಫ್ರ	-10.0416
ಆದರೆ	-10.0418
▁ಉಪಲಬ್ದವಿದೆ	-10.0419
NAME	-10.042
▁Archives	-10.0421
▁ಜಯ	-10.0422
▁ಕಂಡುಹಿಡಿಯಲು	-10.0427
▁ಸ್ಪೈ	-10.0427
▁ತ್ವರಿತ	-10.0432
▁ಸಹೋದರನಾದ	-10.0433
▁ಹೊಂದಾಣಿಕೆ	-10.0436
▁110	-10.0455
lock	-10.0458
▁ಸರ	-10.0459
ನಿಗೂ	-10.0461
▁ನಮೂದಿಸಿ	-10.0462
han	-10.0463
ಿಸಲ್ಪಟ್ಟ	-10.0465
▁ನೆರೆಯವನ	-10.0466
▁ಬಟ್ಲರ್	-10.0466
▁ಆಫ್ರಿಕಾ	-10.0466
▁ವಿಸ್ತರಿಸ	-10.0467
▁ಹುಡುಕಾಟ	-10.0468
zhou	-10.0471
▁ವಿಷಯವನ್ನು	-10.0475
▁ಇಲ್ಲಿದೆ	-10.0485
▁ಓಡ	-10.0485
▁ಯಾಜಕ	-10.0488
▁ಅಸ	-10.0489
▁ಆಯ್ಕೆಗಳನ್ನು	-10.049
▁ಪ್ರಕಟಣೆ	-10.0491
▁ಟೆಕ್	-10.0495
TE	-10.0498
ಕೊಂಡಿದ್ದ	-10.0499
▁ಜೇ	-10.0505
ದಾನ	-10.0505
▁≤	-10.051
▁ಉತ್ಸಾಹ	-10.0514
▁ಹಣಕಾಸು	-10.0514
▁Photo	-10.0514
▁ಕೇಳಿರಿ	-10.0514
▁ಪರಿಸ್ಥಿತಿ	-10.0514
▁ಕೊಂಬೆ	-10.0515
ಏ	-10.0516
▁ಹಾಕಿದ	-10.0517
▁ಡಾಲರ್	-10.0517
▁ಜಿಲ್ಲೆಯ	-10.052
▁ಸಮಾಧಿ	-10.0521
▁ಕಾಮೆಂಟ್	-10.0521
ಕೋಶ	-10.0521
▁ಪರಿಶೀಲಿಸ	-10.0523
tra	-10.0529
our	-10.0532
▁ಸಾಂಪ್ರದಾಯಿಕ	-10.0535
▁AC	-10.0538
▁ಉಂಟ	-10.0539
▁ಪ್ರತ್ಯುತ್ತರ	-10.0547
▁ಕ್ಲಾ	-10.0551
2012	-10.0552
ಗತ	-10.0553
▁ಅನುಭವಿಸ	-10.0557
▁ಟ್ಯೂಬ್	-10.0561
▁ನೇರಪ್ರಸಾರ	-10.0561
▁ಚಾರ್ಟರ್	-10.0561
°	-10.0563
▁ಏನಾದರೂ	-10.0564
▁ಮಹಡಿ	-10.057
eg	-10.0571
ವೊ	-10.0573
ls	-10.0574
▁ಮಂದಿರ	-10.0578
▁ಉಳಿಸು	-10.0579
▁ಕಲ್ಪಿಸ	-10.0582
pcs	-10.0583
▁Air	-10.0585
▁News	-10.0593
▁ಹಾಟ್	-10.0595
2015	-10.0595
top	-10.0598
▁ಹಳದಿ	-10.0609
▁ಧಾನ್ಯ	-10.0609
ತಿನ	-10.0609
▁ಮುಯ್ಯಿ	-10.0609
▁ಹಲ್ಲು	-10.0609
▁ಮೂಲಭೂತ	-10.061
ft	-10.0612
ೇನು	-10.0614
`	-10.0616
▁ರಾಣಿ	-10.0616
▁India	-10.0619
ರ್ಥ	-10.0619
▁ಕೂಡಲೆ	-10.0623
▁Pa	-10.0623
▁US	-10.0635
▁ಕೃಪೆ	-10.0636
▁ಹೆಂಡತಿ	-10.0636
▁03	-10.0637
ಚ್ಛ	-10.0655
▁ಪೂರ್ವನಿಯೋಜಿತ	-10.0656
▁ಶೈಕ್ಷಣಿಕ	-10.0656
▁ಹಡಗು	-10.0656
EL	-10.0658
▁ಪೇಪರ್	-10.0658
▁ಅಧಿಪತಿ	-10.0659
▁ನನಗ	-10.066
ುದನ್ನು	-10.0661
▁Con	-10.0663
▁ಸಂಜೆ	-10.0667
ಹೆಚ್	-10.0678
ಕ್ಯಾ	-10.0683
▁ಪೇತ್ರನು	-10.0683
▁44	-10.0691
▁ಕಡೆಯಿಂದ	-10.0691
▁Ho	-10.0694
▁ಅನುಭವವನ್ನು	-10.0695
▁ಪಾಯಿಂಟ್	-10.0696
▁we	-10.0698
ಗಳಿಗಿಂತ	-10.0699
೪	-10.0705
೮	-10.0705
▁ಪರಿಸರವಿನ್ಯಾಸ	-10.0705
▁ಪರ್	-10.0707
ೆಲ್ಲರ	-10.0709
ಡ್ಡ	-10.071
MC	-10.071
way	-10.0713
▁ಮುಖದ	-10.072
▁ತಪ್ಪಿಸ	-10.0728
ari	-10.0735
▁ಎದೆ	-10.0737
▁ವಾಸ್ತವ	-10.0737
▁ಹೆಣ	-10.0741
▁ಮಾಡುವಾಗ	-10.0743
hen	-10.0745
▁ನಿಯಂತ್ರಕ	-10.0753
▁ಭಾಗವಹಿಸ	-10.0753
▁ಪ್ರೋಗ್ರಾಂ	-10.0753
▁ಕಂಪನಿಗಳು	-10.0754
▁ಸಂಬಂಧಿತ	-10.0761
mes	-10.0761
box	-10.0761
▁ಪೂ	-10.0763
▁ಮೇರೆಯ	-10.0764
▁Dr	-10.0772
▁ಹಾಕುವ	-10.0776
ಾಂಕ	-10.0776
▁ಪಕ್ಷಿಗಳ	-10.078
▁ಎಚ್ಚರ	-10.0783
ಮಾರ್	-10.0784
ಕರ್ತನ	-10.0785
▁ಯುಪಿ	-10.0786
ಭಿ	-10.0789
▁ನಾನೂ	-10.0792
▁ವಾಸಮಾಡ	-10.0792
▁ಪಟ್ಟಣಕ್ಕೆ	-10.0799
▁Mobile	-10.0801
▁ವಸ್ತ್ರಗಳನ್ನು	-10.0802
▁ಕಲ್ಲಿನ	-10.0806
▁ತಿರು	-10.0809
ಂದಿ	-10.0822
ಿಸಬಹುದು	-10.0829
▁ಬಂದಿದೆ	-10.0835
▁ಮಲಗ	-10.0843
out	-10.0846
US	-10.0849
▁ಬಾಧೆ	-10.085
0.0	-10.0851
▁Al	-10.0851
▁ಪಕ್ಷ	-10.0853
dia	-10.0858
▁ಇದರಲ್ಲಿ	-10.0859
▁ಆಟೋ	-10.0863
▁ತಡೆ	-10.0865
▁ಗೊತ್ತ	-10.087
▁ದೀರ್ಘ	-10.0875
ರಾಯ	-10.0876
ವೆಲ್	-10.0882
▁Gu	-10.0885
ks	-10.0885
▁ಒದಗಿಸಲು	-10.0887
▁ಆಚೆ	-10.0897
▁ಎರಡ	-10.0898
ಶೀಲ	-10.0898
▁ಬಾಪ್ತಿಸ್ಮ	-10.0899
▁ಫ್ರೇಮ್	-10.0899
▁ಬನ್ನಿರಿ	-10.0899
▁ಡಿಸ್ಕ್	-10.0899
▁ಶೀಟ್	-10.0899
ಂಡು	-10.0899
ali	-10.091
ುತ್ತಿಲ್ಲ	-10.0915
ಕ್ರಮ	-10.0915
▁ಹೋಗುತ್ತದೆ	-10.0919
ಮತ್ತು	-10.092
▁ವಿಕಿಪೀಡಿಯ	-10.0924
ata	-10.0926
▁47	-10.0927
▁720	-10.0928
▁ಬರಹ	-10.093
ja	-10.0937
▁ಕಂಪನಿಯ	-10.0943
ಾದರೋ	-10.0946
▁pcs	-10.0947
ಹಾಕಿ	-10.0947
▁ಐಟಿ	-10.0948
ಲೋಕ	-10.0948
▁ಸಂಕೇತ	-10.0948
▁ಪ್ರಗತಿ	-10.0949
▁ಒಡೆಯನ	-10.0949
▁ಮುಖಾಂತರ	-10.095
▁ಆಧಾರಿತ	-10.0952
AC	-10.0954
▁ಕೊಂಡಾ	-10.0956
▁ಬಾಗಲ	-10.0957
▁22,	-10.0968
ಗಣ	-10.0971
tri	-10.0973
▁ರೀತಿ	-10.0989
▁CO	-10.0994
▁ಸ್ಮಾರ್ಟ್	-10.0998
▁ನಿರ್ವಾಹಕ	-10.0998
▁ಅಕ್ಷರಶೈಲಿ	-10.0998
▁ಸ್ವಾ	-10.1003
▁ಫಲಿತಾಂಶ	-10.1006
▁ಶಕ್ತಿಯ	-10.1009
▁ಚೆಕ್	-10.1011
▁ಪ್ರಕಾಶ	-10.1017
▁ಮನೆಯವರ	-10.1018
ue	-10.1021
ಳಿಯ	-10.1024
▁ಶಕ್ತಗೊಳಿಸ	-10.1025
▁ಸಂತಾನ	-10.103
ರಣೆ	-10.1031
800	-10.1035
▁ಬಾಗಲಿನ	-10.1036
▁ಮಲಗಿ	-10.1039
▁ವೆನು	-10.104
DE	-10.1042
▁ಮಾತನಾಡುವ	-10.1044
ಾಗಿದ್ದೀ	-10.1046
▁ಯೆಹೋಶುವನು	-10.1046
у	-10.1048
▁ಮೇಲ್ವಿಚಾರಣೆ	-10.1048
▁ಪರಾಕ್ರಮ	-10.1048
ದರ್ಶಿ	-10.105
ತ್ತೀ	-10.1057
▁ಥೀಮ್	-10.1059
▁ಪ್ರತಿಯೊಬ್ಬನು	-10.1062
ಗೊಳಿಸಿದ	-10.1063
0,000	-10.1068
▁ಇರಿಸ	-10.107
▁ಮಾಡುತ್ತಾರೆ	-10.1073
▁ಸಹಕಾರ	-10.1073
▁ಪ್ರತಿಕ್ರಿಯೆಗಳು	-10.1081
ಾಗಿರುವದು	-10.1082
▁ದಾಖಲೆ	-10.1087
▁ನೀರ	-10.1089
▁ಕಾಲೇಜು	-10.109
ಮಿಮೀ	-10.1092
▁ಉದ್ಯಾನ	-10.1098
▁ಏಕಾಂಗಿ	-10.1098
▁ರಹಸ್ಯ	-10.1098
▁ಕೊಂಬು	-10.1098
▁ಭದ್ರತಾ	-10.11
▁ಯೋಜನೆಗಳು	-10.1101
dr	-10.1103
▁ವಾರಗಳ	-10.111
▁400	-10.1116
ust	-10.1116
ುತ್ತಿದ್ದನು	-10.1117
▁ಯಾವುದೆ	-10.1122
ಬೇಕೆಂದ	-10.1126
▁ಕೊಡುವೆನು	-10.1129
ರಾನ್	-10.1131
▁ಗುಂಡಿ	-10.1132
▁ಹೂವು	-10.1138
▁Mi	-10.114
▁ಉಂಟುಮಾಡ	-10.1143
▁ದೈನಂದಿನ	-10.1148
▁ನಾಲ್ವತ್ತು	-10.1149
▁ಸಮಗ್ರ	-10.115
▁ಪಡೆದುಕೊಳ್ಳ	-10.1152
▁ಬದಲಾಯಿಸಲಾಗಿದೆ	-10.1152
▁ಮಾಸ್ಟರ್	-10.1154
▁ಪಶುಗಳ	-10.1156
ING	-10.1157
▁ಮಾರ್ಗವಾಗಿ	-10.1159
CA	-10.1159
fo	-10.1159
▁ಮಕ್ಕಳಲ್ಲಿ	-10.116
lot	-10.1178
ಫೇ	-10.1178
▁Car	-10.1182
▁ಸದಸ್ಯರು	-10.1192
SI	-10.1194
▁ವಾಗ	-10.1196
▁94	-10.1196
▁ಸ್ನೇಹಿತರ	-10.1196
▁ಜೀವಿ	-10.1198
▁ಆಶ್ರಯ	-10.1198
▁ಮಾರ್ಕೆಟಿಂಗ್	-10.1198
м	-10.1198
▁ನಕ್ಷತ್ರ	-10.1198
▁ಅನನ್ಯ	-10.1198
▁ಸೀಮಿತ	-10.12
▁ನಡುವಿನ	-10.12
▁ಆಂತರಿಕ	-10.1201
▁ಒದಗಿಸುವ	-10.1203
ಾಗಿದ್ದಾನೆ	-10.1206
ko	-10.1209
▁ಪಾಪದ	-10.121
▁ಗರ್ವ	-10.1211
▁ಶಿಷ್ಯರು	-10.1214
▁ಮಾಡಲಾದ	-10.1218
▁ಸ್ತುತಿಸ	-10.1221
▁ಸಮ್ಮುಖದಲ್ಲಿ	-10.1222
▁ಪ್ರತ್ಯೇಕವಾಗಿ	-10.1223
ams	-10.1223
▁600	-10.1228
▁ನಾಯಿ	-10.1231
▁ತಗ್ಗ	-10.1233
▁59	-10.1233
ore	-10.1236
▁ಸೂರ್ಯನ	-10.1237
ಢ	-10.1241
▁ರಕ್ಷಣೆಯ	-10.1242
ಿಸಿಕೊಂಡು	-10.1244
▁ಮಾಡುತ್ತಾನೆ	-10.1244
▁ಅಭಿಪ್ರಾಯ	-10.1249
▁AUD	-10.1249
▁ಮೊದಲಿನ	-10.1252
▁so	-10.1254
ob	-10.1257
ಕೃತ	-10.1262
by	-10.1264
▁Fi	-10.1267
▁ಯಾಜಕನ	-10.127
▁55	-10.127
▁ಶಪಿಸ	-10.1271
▁HP	-10.1279
▁ಸಿದ್ಧಮಾಡ	-10.1282
unit	-10.1284
▁ಗಂ	-10.1289
▁ತುಂಬಿದ	-10.1291
▁ನಾಶವಾಗ	-10.1292
ೊಳಗ	-10.1295
▁ಖಂಡಿತವಾಗಿ	-10.1295
chi	-10.1297
▁ಅಡವಿಯ	-10.1299
▁ಖಾತರಿ	-10.13
▁ಯೂನಿವರ್ಸ್	-10.13
wise	-10.1305
▁ಬಾಗಿಲು	-10.131
▁ಪಡೆದನು	-10.1312
The	-10.1313
▁ಎಚ್ಡಿ	-10.1315
land	-10.1315
ಬಹು	-10.1316
▁ಶಿಷ್ಯರ	-10.1316
▁ಮನುಷ್ಯನಿಗೆ	-10.132
ಗಳಾಗಿವೆ	-10.132
▁ತೀರ್ಪು	-10.1322
▁ಯೇಲಿನ	-10.1326
ಸೊ	-10.1327
▁ಕುಮಾರರೂ	-10.1329
▁ಸಿಹಿ	-10.133
-17	-10.1331
▁ಉಳಿಯ	-10.1335
ಕರ್ತನೇ	-10.1335
ದಿರಲಿ	-10.1338
▁ಬಣ್ಣದ	-10.1342
▁ಒಡಂಬಡಿಕೆಯನ್ನು	-10.1344
▁ಹೊಂದಿಕೆ	-10.1345
que	-10.1349
ಯಲ್ಲ	-10.1351
▁ಅನಿಯಮಿತ	-10.1351
▁ಐಒಎಸ್	-10.1351
▁ಒಟ್ಟಿಗೆ	-10.1352
▁ಏಸಾವನ	-10.1352
▁URL	-10.1352
▁ಹಂಚಿಕೊಳ್ಳಲು	-10.1361
▁ಮಹಿಮೆಯ	-10.1362
▁ವೀಡಿಯೊಗಳು	-10.1364
▁ಒಣ	-10.1365
▁39	-10.1377
▁ಯೋಸೇಫನು	-10.1379
▁ಪ್ರವೇಶಿಸಿ	-10.1379
▁ಒಪ್ಪಿಸಿ	-10.1381
▁ಸೇವಕನು	-10.1387
▁2005	-10.1394
▁ಚಿತ್ತ	-10.1395
▁ಬಾಲ	-10.1396
▁ಶಕ್ತ	-10.1398
▁ತಿಳಿಯಲು	-10.1398
▁ಕ್ರಿಸ್ತನು	-10.14
ger	-10.1402
▁Deposit	-10.1403
▁ಸೆಲ್ಯುಲೈಟ್	-10.1403
▁ಕರೆನ್ಸಿ	-10.1403
▁ಪ್ರಾರ್ಥಿಸ	-10.1404
ಕೊಂಡಿರುವ	-10.1404
▁ವಿಫಲ	-10.1406
iz	-10.1407
ಲಂ	-10.1413
the	-10.1417
▁ಆಮೆನ್	-10.1419
ದ್ದರೆ	-10.1426
▁name	-10.1428
▁ತಿರುಗಿಕೊಂಡು	-10.1428
▁ಮಂದೆ	-10.1433
▁ಕೋಣೆ	-10.1437
▁2.0	-10.1443
▁ಯೆರೆವಿಾಯನ	-10.1455
▁ವರ್ಡ್ಪ್ರೆಸ್	-10.1455
▁ದ್ರೋಹ	-10.1455
▁ಪ್ರತಿರೋಧ	-10.1455
▁ಪ್ರದರ್ಶಿಸ	-10.1455
▁ಆಯುಧ	-10.1455
ಿಟ್ಟ	-10.1456
ಿರಲಿ	-10.1457
▁ಪ್ಯಾಕಿಂಗ್	-10.1457
▁ಅಂತಹ	-10.1461
ಾಗಿದ್ದರೂ	-10.1465
host	-10.1466
▁ಬದಲಿಗೆ	-10.1471
▁ದೃಶ್ಯ	-10.1471
▁ಇರಬಹುದು	-10.1479
▁ಸಾಗ	-10.1482
▁Ex	-10.1483
OP	-10.1488
▁ಪ್ರಮಾಣವನ್ನು	-10.149
PM	-10.1497
ವನ್ನೆಲ್ಲಾ	-10.1504
▁ಪುನಃ	-10.1507
▁ಅನುಸರಿಸಿ	-10.1507
▁ಫ್ಯಾಷನ್	-10.1508
▁ತಿಳಿಸಿ	-10.1509
▁ಸಹಾಯವಾಣಿ	-10.1509
▁ex	-10.1513
▁ಹಿಮ	-10.1515
ಷನು	-10.1518
▁ಬದುಕುವ	-10.1527
▁ಹೊಂದಿದ್ದ	-10.1532
▁ಇರುವದಿಲ್ಲ	-10.1537
ಲಾಗಲಿಲ್ಲ	-10.1538
ಗೊಂಡಿದೆ	-10.1543
▁ನಿಮಿಷಗಳ	-10.1549
get	-10.155
▁ಜೋಡಿ	-10.1552
▁ಕರೆದ	-10.1557
▁ಆಧುನಿಕ	-10.1559
▁ಪರಸ್ಪರ	-10.1559
ೇಲನ	-10.156
ಬಂದ	-10.1561
▁ಒಂದಾಗಿದೆ	-10.1561
▁ಹೊರತುಪಡಿಸಿ	-10.1563
▁ವಾಚ್	-10.1564
ಇದು	-10.1565
▁ಮೊತ್ತ	-10.1572
▁ಸೌಲಭ್ಯ	-10.1576
ಗೈ	-10.1579
▁Lo	-10.1586
▁ಥ	-10.1593
NE	-10.1596
▁ಊದ	-10.1596
▁ಅಂತಿಮ	-10.1598
sc	-10.1599
ಪಿಸಿ	-10.1602
▁ತಿಳಿಯುವ	-10.1605
▁ಹರ	-10.1605
▁ಇದ್ದಾರೆ	-10.161
▁ಪಾಪಮಾಡ	-10.161
▁ವಾಯು	-10.1611
▁ಸಾಂಸ್ಥಿಕ	-10.1612
೬	-10.1612
▁ಅಧಿವೇಶನ	-10.1612
▁ನಮೂನೆ	-10.1612
▁ಪಿವಿಸಿ	-10.1612
ಿಟ್ಟು	-10.1613
▁ಬೆನ್ಯಾವಿಾನನ	-10.1613
▁ಒಂದೊಂದು	-10.1615
ಪಲ್	-10.1619
ಿರುವಾಗ	-10.1621
ರಳ	-10.1624
▁ಲೀ	-10.1629
▁ನಿರ್ದೇಶಕರ	-10.1632
tv	-10.1632
▁ಕಾರ್ಯಕ್ರಮಗಳು	-10.1632
▁ಮಾಡುತ್ತೇವೆ	-10.1637
▁ಪ್ರಿ	-10.1643
▁ಬೋಧನೆ	-10.1643
▁ಪ್ಲಾ	-10.1643
▁ಗಳಿಸಿ	-10.1646
▁ಮರೆಯ	-10.1646
▁ಭೂಮಿಯಲ್ಲಿ	-10.1647
▁Un	-10.1651
▁ಮಾತಿನ	-10.1654
▁ನಮ್ಮೊಂದಿಗೆ	-10.1654
ವಾಗುವದು	-10.1655
▁ಖರೀದಿಸಿ	-10.1658
ಾಲಯ	-10.1661
ರೇಟ್	-10.1662
▁ವೀ	-10.1664
▁ಅಧ್ಯಕ್ಷ	-10.1665
▁ವಿಕ್ಷನರಿ	-10.1665
▁ವರ್ತನೆ	-10.1666
▁ಸಮಾಧಾನದ	-10.1669
▁ಪ್ರತಿದಿನ	-10.1671
▁ವಸ್ತುಗಳನ್ನು	-10.1672
ಬೈ	-10.1673
▁66	-10.1674
▁ಅಂತ	-10.1677
▁ಕೋಶ	-10.1679
▁ಕೆಲ	-10.168
▁43	-10.1681
CM	-10.1686
ana	-10.1692
▁ಕೋಪವು	-10.1693
▁ಟ್ಯಾ	-10.1693
▁ದಾಟ	-10.1693
ಗಾದ	-10.1693
▁ಹೊಡೆಯ	-10.1697
▁Ha	-10.1702
ok	-10.1703
▁ಲೇವಿಯ	-10.1705
wi	-10.1713
▁ವ್ಯ	-10.1716
▁Ge	-10.1716
▁Tewhan	-10.1718
▁ವಾಗ್ದಾನ	-10.1718
▁[1]	-10.1718
mer	-10.1718
▁ಸಮರ್ಥ	-10.1719
▁ಕೊರತೆ	-10.1723
▁ಹೆಚ್ಚಳ	-10.1727
ಯಂ	-10.1732
▁ತೋರಿಸಿ	-10.1734
▁ಕಂಪ	-10.174
▁ಗ್ಯಾ	-10.174
ಬೇಕೆಂಬ	-10.1744
ಜೀ	-10.1754
sta	-10.1757
ಬ್ಬಾ	-10.1758
▁ಬೋರ್ಡ್	-10.176
-22	-10.1762
▁ಏರ	-10.1765
▁ಬರಮಾಡಿದ	-10.1769
▁ಇಲಿನಾಯ್ಸ್	-10.1772
▁ಟೌನ್	-10.1772
▁ಸೋಂಕು	-10.1772
▁ಜಪಾನ್	-10.1772
▁ಪ್ರಥಮ	-10.1772
▁ಸಂಪತ್ತ	-10.1772
▁ನ್ಯಾಯತೀರಿಸ	-10.1773
ಸೆಂ	-10.1774
▁ಇದಾದ	-10.1774
ತೇ	-10.1777
ಯೆಂದು	-10.1778
▁800	-10.1778
▁USP	-10.1779
▁ಕರಗಿ	-10.178
▁ಗೇಮ್	-10.1785
▁ಮಾಡುವನು	-10.1788
▁ಕೇಳಿದರು	-10.1789
IA	-10.1793
▁ಪಾಲಿ	-10.1796
ಟ್ಟೆ	-10.1799
▁ಭದ್ರ	-10.18
old	-10.1801
▁58	-10.1801
▁ಪ್ರಧಾನರ	-10.1803
▁ಯಂತ್ರಗಳು	-10.1803
▁ಸೊಲೊಮೋನನ	-10.1809
ಕಾಂ	-10.181
ook	-10.1814
ುತ್ತಿತ್ತು	-10.1817
ele	-10.182
ಯೋಗ	-10.1823
▁ದೋಣಿ	-10.1826
▁ಡೇಟಿಂಗ್	-10.1827
▁item	-10.1828
ಲಿಯಾ	-10.1829
▁ಅಭಿವೃದ್ಧಿಪಡಿಸ	-10.1831
▁ವೇಗವಾಗಿ	-10.1834
MI	-10.1834
▁ಬರಮಾಡ	-10.1837
▁ಮಾತಾಡ	-10.1845
▁ಅಕ್ಕಿ	-10.185
TO	-10.1854
203	-10.1863
▁ಪಟ್ಟಣವನ್ನು	-10.1864
▁ಕ್ಷಣ	-10.1865
[	-10.1866
▁ಕೊಡಬೇಕು	-10.1869
▁ವ್ಯಾಪ್ತಿ	-10.1869
▁ಕ್ರಿ	-10.1872
▁ನಿವಾರಣಾ	-10.1879
▁ಶಾಂಘೈ	-10.1879
▁ಫೈಬರ್	-10.188
▁Full	-10.1882
▁ಎಕ್ಸ್ಎಲ್	-10.1883
ren	-10.1886
▁ವಿರುದ್ಧವಾಗಿ	-10.1887
▁ಭೂಮಿಯನ್ನು	-10.1888
▁ನೆಟ್	-10.1889
▁ಕೈಗಳನ್ನು	-10.189
▁ಫ್ಯಾ	-10.1891
ಲ್ಡ್	-10.1891
▁ಕೊಲೆ	-10.1892
▁ಬೇಬಿ	-10.1892
▁ದಾಸಿಯ	-10.1903
▁ಊಟ	-10.1904
▁ಭೂಮಿಯು	-10.1907
▁ನಾವ	-10.1908
ಗುಣ	-10.1912
hat	-10.1915
▁ವರ್ಗದಲ್ಲಿ	-10.1916
▁ನಿಯಂತ್ರಿಸ	-10.1917
▁ಮನುಷ್ಯನನ್ನು	-10.1923
ಪ್ರತಿ	-10.1926
▁ಅಲಂಕಾರ	-10.1932
▁Xhamster	-10.1934
▁ಅಬ್ಷಾಲೋಮನ	-10.1934
▁ಪೋರ್ನ್	-10.1934
▁ಬಳಿಗೂ	-10.194
▁ಮರಣದ	-10.1942
▁Blockchain	-10.1944
▁ಸಂಶೋಧಕರು	-10.1944
▁ಮುಖ್ಯಸ್ಥ	-10.1946
my	-10.1948
▁ಮರಗಳ	-10.1948
▁ರೋಷ	-10.1949
ವರೆಲ್ಲರು	-10.195
▁ದತ್ತ	-10.1951
▁ಆಧಾರದ	-10.1952
▁ಅವಶ್ಯಕತೆ	-10.1952
▁ಎಂಟು	-10.1953
9001	-10.1954
ics	-10.1958
▁ಬಗೆಯ	-10.196
▁ಪಾರ್	-10.1962
▁ಗಡಿ	-10.1964
▁ಟ್ರಾ	-10.1969
▁ಉದಾಹರಣೆ	-10.197
▁ದಿನಕ್ಕೆ	-10.1977
▁ನೀ	-10.1977
Re	-10.1981
▁ಸೇವೆಗಳನ್ನು	-10.1983
▁ಯನ್ನೂ	-10.1985
é	-10.1988
▁ಸೇರಿದ	-10.1989
▁ಮೆಟಲ್	-10.1991
▁ಹಿಡಿ	-10.1992
▁ಮಾಧ್ಯಮವನ್ನು	-10.1992
▁ಅನೇಕರು	-10.1995
▁ನಿಲ್ಲಿಸಿ	-10.1996
ತಾನ	-10.2
hy	-10.2
▁ಕೇಡನ್ನು	-10.2003
ಅವನು	-10.2003
▁ಕ್ಷ	-10.2007
▁ಹರಿ	-10.2007
▁ನವೀಕರಣ	-10.2007
ಾಬನ	-10.2008
book	-10.2009
▁ಹೋಯಿತು	-10.201
ಮೇಲೆ	-10.2018
▁ದೂತರ	-10.2025
250	-10.2027
▁ಒಪ್ಪ	-10.2027
mail	-10.203
-30	-10.2031
als	-10.2041
▁ಒಡಂಬಡಿಕೆ	-10.2042
ე	-10.2043
TJ	-10.2044
ಲ್ಪಡಲಿ	-10.2044
▁ನಕಲು	-10.2044
▁ಆದ್ಯತೆ	-10.2044
▁mass	-10.2046
▁ಇಷ್ಟಪಡ	-10.2047
tic	-10.2051
ದ್ದೂ	-10.2056
▁ಪಾರ್ಶ್ವ	-10.2061
era	-10.2064
▁ಹೆಚ್ಚಿಸ	-10.2068
▁ಟೋ	-10.2072
ಪಾದ	-10.2076
▁ಬೆಳಕ	-10.2076
150	-10.2083
▁ಹೊತ್ತ	-10.2084
▁ಕಡೆಯ	-10.2089
tool	-10.2095
▁ಸಮಸ್ಯೆಯನ್ನು	-10.2097
▁ವಿತರಣೆ	-10.2099
▁ಪ್ರಯಾಸ	-10.2099
▁ವಿಶಾಲ	-10.2099
▁ಆಯಿತು	-10.21
ೀತ	-10.2101
▁54	-10.2104
▁ದಯೆ	-10.211
ವರ್ಕ್	-10.2113
▁ಪ್ರವಾದಿಯಾದ	-10.2114
▁ಬದಲಾಗ	-10.2124
▁Ad	-10.213
▁ಬುದ್ಧಿ	-10.213
ಯನೂ	-10.213
್ರಿ	-10.2131
▁ಕಾಲ್	-10.2134
▁ವಿಷಯಗಳು	-10.2134
ark	-10.2138
ಂಟಿ	-10.2144
ೀನ	-10.2148
▁ಮಾಡಿದ್ದಾನೆ	-10.2153
೭	-10.2154
▁ಹಂಚ	-10.2154
▁ಟ್ಯಾಟೂ	-10.2154
▁ವಾಸವಾಗಿದ್ದ	-10.2161
▁ಎಂಎಂ	-10.2165
▁ಕೊಟ್ಟರು	-10.2167
▁ಪ್ರೀತಿಮಾಡ	-10.217
▁ಅಭಿ	-10.2173
▁ಕುಟುಂಬಗಳ	-10.2174
▁ಬದಲಿ	-10.2176
▁ಕತ್ತಿಯ	-10.2179
▁ಸಾಕು	-10.2183
lin	-10.2185
▁ರೈ	-10.2189
ಮಿಕ್	-10.2196
In	-10.2196
▁ಅಸ್ತಿತ್ವದಲ್ಲಿ	-10.2201
▁ಜವಾಬ್ದಾರಿ	-10.2206
ೋಪ	-10.2208
▁ಸೇವಕರು	-10.2209
▁{@}	-10.221
▁ಕಾರ್ಪೊರೇಟ್	-10.221
▁ಬ್ರ್ಯಾಂಡ್	-10.221
д	-10.221
▁ಗಂಭೀರ	-10.221
▁ನಗದು	-10.221
▁Hu	-10.221
▁ಹೊರತಾಗಿ	-10.2212
work	-10.2212
▁ಕೆಟ್ಟದ್ದ	-10.2215
▁ಸಂದರ್ಭಗಳಲ್ಲಿ	-10.222
▁ಮಾತನಾಡಿದ	-10.2222
▁ನಿರ್ಣಯ	-10.2223
shan	-10.2224
▁ಪಾನ	-10.2231
▁ದೇಶಗಳಲ್ಲಿ	-10.2242
▁ಬೇಡಿಕೊಂಡ	-10.2246
ಗೊಳಿಸಿ	-10.2248
ave	-10.225
▁ಕ್ರಿಸ್ತ	-10.2252
▁ವ್ಯಾಪಕ	-10.2252
are	-10.2254
xi	-10.2254
▁21,	-10.2256
▁ತೋರ	-10.2256
ಂಜ್	-10.2257
▁ಕುಮಾರ್ತೆ	-10.2257
▁ಪ್ರಾಂತ್ಯ	-10.2264
▁ದೆವ್ವ	-10.2266
▁ಫಿಲ್ಟರ್	-10.2266
ა	-10.2266
▁ಇದ್ದು	-10.2268
▁ರೊಟ್ಟಿಯನ್ನು	-10.2274
▁ಕಾಣಬಹುದು	-10.2285
▁ಬಾಸ್	-10.2293
ೋನಿನ	-10.2293
▁ಮೊದಲನೇ	-10.2296
▁ಕುರಿಗಳ	-10.23
▁ನಡ	-10.23
▁ಕೈದು	-10.2308
her	-10.2309
ನಂ	-10.2312
▁ನ್ಯಾಯಪ್ರಮಾಣದ	-10.2313
▁it	-10.2316
form	-10.2316
▁ಹೆಸರುಗಳು	-10.232
incarceration	-10.2323
▁ಅಂದಾಜು	-10.2323
▁ವಿದೇಶೀ	-10.2323
▁ಜೆರ್ಸಿ	-10.2323
▁ದೊರಕ	-10.2323
▁ರೀಡರ್	-10.2323
▁ಆರಂಭಿಸ	-10.2323
▁ಸುಗಂಧ	-10.2323
▁ಅನ್ಯಾಯ	-10.2325
iv	-10.2329
ಟಲ್	-10.2332
▁03:	-10.2334
▁Di	-10.2336
▁ಬೀರ	-10.2337
▁ಮರೆಮಾಡ	-10.2338
▁Ji	-10.2341
ಾಯನ	-10.2343
▁ಹಾಗಾಗಿ	-10.2345
SA	-10.2348
▁Fly	-10.235
▁ಟ್ರ	-10.2351
▁ಐಡಿ	-10.2352
▁ಹೂಡಿಕೆ	-10.2353
▁ಯಾಜಕರು	-10.2353
▁04	-10.2356
▁ವೈಟ್	-10.2362
▁ಬಲಪಡಿಸ	-10.2363
▁ಅಮೇರಿಕಾ	-10.2363
▁ವರುಷಗಳ	-10.2366
ern	-10.2367
▁ಅವೆ	-10.2368
▁ಬಾಣ	-10.2369
▁ಕೆಡಿಸ	-10.237
ಾನನು	-10.2371
ale	-10.2373
PC	-10.2375
▁ಸುರಿಸ	-10.2376
▁sp	-10.2377
▁ಅವಶ್ಯ	-10.2379
▁status	-10.2379
▁ರಾಸಾಯನಿಕ	-10.2379
▁ಗಿಟಾರ್	-10.2379
▁ಸ್ವರೂಪ	-10.2381
▁ದಹನ	-10.2383
▁ಹಳ್ಳಿ	-10.239
▁ಗೊತ್ತಿಲ್ಲ	-10.2404
▁ಹಿತ್ತಾಳೆಯ	-10.2409
▁ತಿಳಿಯದ	-10.2411
ble	-10.2413
▁ಎಲ್ಲರ	-10.2414
▁ನಿಂದೆ	-10.2414
che	-10.2416
▁41	-10.2417
▁all	-10.2417
br	-10.242
vo	-10.2422
ಸ್ಟೆ	-10.2427
▁ಬಿಗಿ	-10.243
▁ನಮಗ	-10.2431
▁LEWISBURG	-10.2437
▁inmate	-10.2437
▁ಹವಾಮಾನ	-10.2437
▁ಕುಸಿತ	-10.2437
▁ಪತ್ತೆಕಾರಕ	-10.2437
▁ಗ್ರಂಥಾಲಯ	-10.2437
AS	-10.2437
▁ವೈಲ್ಡ್	-10.2438
▁ಉಪವಾಸ	-10.2438
▁ಯೆಹೋಶುವನ	-10.2439
ಭಾವ	-10.2442
▁Unlimited	-10.2449
▁ಪಿಎಚ್ಪಿ	-10.2449
▁ಧರಿಸಿ	-10.245
▁ಗ್ಯಾಂಗ್ಸ್ಟ	-10.2452
▁ಅನುಕೂಲಕರ	-10.2457
▁ಮಹ	-10.2459
▁ಸುಳ್ಳ	-10.2461
▁ಡೇರೆ	-10.2462
▁ಬೆಟ್ಟಗಳ	-10.2464
▁ನಿರಂತರ	-10.2464
▁ಕೂತು	-10.2467
▁ಹತ್ತ	-10.2471
▁ಮಾಡಲಿ	-10.2472
ಲಾರದೆ	-10.2473
▁ಕೋನ	-10.2474
▁Download	-10.2476
▁ಮಹಿಳೆಯರು	-10.2477
▁ವಾಲ್	-10.2477
jo	-10.2488
aucus	-10.2494
▁Congressional	-10.2494
▁ಕುಂದುಕೊರತೆ	-10.2494
▁ಎಸ್ಎಂಯು	-10.2494
▁ಚಾವಣಿ	-10.2494
▁ಯಾಂತ್ರಿಕ	-10.2494
▁ಶಿಕ್ಷೆ	-10.2495
▁ಜ್ಞಾನವನ್ನು	-10.2495
▁Short	-10.2495
▁ಕಳ	-10.2496
▁ಸ್ಲಾಟ್	-10.2496
ರ್ಡ್	-10.2497
ಲ್ಲಿಯೇ	-10.2497
▁ಡಬಲ್	-10.2498
▁Bit	-10.2498
▁ಕರೆಯಲ್ಪಟ್ಟ	-10.2499
▁ಕಾಣುವ	-10.2507
dy	-10.2508
▁ತಾಳ	-10.251
▁ಕ್ರಿಯೆಗಳ	-10.2512
▁ಬೇತ್	-10.2513
▁ಸಾಧನೆ	-10.2513
gg	-10.2517
▁ಮಾಡಬಾರದು	-10.2519
▁ಶಾಲೆಯ	-10.2523
▁ಒಬ್ಬರ	-10.2523
▁ಕುಡಿದ	-10.2527
ಬೇಡಿ	-10.2532
▁ಸಿಂಹಾಸನದ	-10.2536
ಪ್ರಾ	-10.2537
▁ಜೋಡಿಸ	-10.2538
-200	-10.2538
res	-10.2543
ಧಾನ	-10.2547
ಸಾರ	-10.255
▁BLOODS	-10.2552
▁Politics	-10.2552
▁ಬಲಾತ್ಕಾರ	-10.2552
▁ಲುಕಪ್	-10.2552
▁ವ್ಯಾಯಾಮ	-10.2552
.0%	-10.2552
▁ಪ್ರವಾಹ	-10.2554
▁Playing	-10.2557
▁ಪ್ಲಗ್	-10.2559
▁ಅಕ್ಷ	-10.2561
▁ಟ್ರೇ	-10.2566
▁ಓದುವ	-10.2566
▁ಹೊಂದಿರುತ್ತದೆ	-10.2567
ated	-10.2568
▁ತ್ತೇನೆ	-10.2569
rial	-10.257
▁ಗೋತ್ರಗಳ	-10.2572
▁ಕ್ಷೇತ್ರದಲ್ಲಿ	-10.2584
cM	-10.2586
ಶೀ	-10.2596
▁ನವೀಕರಿಸಿದ	-10.2598
▁ಒತ್ತ	-10.26
▁ದೀನ	-10.2601
▁ಇಸ್ರಾಯೇ	-10.2603
ಣ್ಯ	-10.2605
press	-10.2605
▁ದಾವೀ	-10.2608
▁ವೇಗದ	-10.2608
▁Again	-10.261
▁ಒಟ್ಟಾರೆ	-10.261
▁ಸಂಯೋಜಿಸ	-10.261
▁ಬೆಳಗಾವಿ	-10.261
▁ಮುಗಿದ	-10.2611
▁ಕಳವಳ	-10.2611
2013	-10.2612
▁ಗದರಿಸ	-10.2613
▁ಕಡತವನ್ನು	-10.2613
TP	-10.2613
▁ಬಲಗೈ	-10.2613
▁27,	-10.2613
ye	-10.2616
▁ಲಂಬ	-10.2617
lan	-10.2617
▁ಇರಿಸಿ	-10.2618
ಂದಿನಿಂದ	-10.2619
▁ಗ್ರ	-10.2621
▁46	-10.2624
ಕಟ್ಟ	-10.2628
MA	-10.2634
▁ವೃತ್ತ	-10.2637
▁ಸಾಗರ	-10.2637
▁ಬಂಡೆಯ	-10.2638
▁ಕುಡಿಯುವ	-10.264
RI	-10.2645
ಲೆಯ	-10.2645
ಶೆ	-10.2657
▁ಕುಳಿತು	-10.2659
lU	-10.2662
ಂಚ್	-10.2666
▁ಬ್ರೌಸರ್	-10.2668
▁ಹೊಣೆಗಾರಿಕೆ	-10.2668
▁ನೇಮಕ	-10.2668
▁ಅಧೀನ	-10.2669
▁ಸುವ	-10.267
▁ಕೃಪೆಯ	-10.2671
▁Get	-10.2673
▁Watch	-10.2674
▁ಟು	-10.2677
▁ಐಗುಪ್ತ್ಯರ	-10.2678
ಿದವು	-10.2679
ೊಳ	-10.268
ುವುದಕ್ಕೆ	-10.268
▁ಕೊಳ್ಳೆ	-10.268
▁Last	-10.2681
ತಕ್ಕದ್ದು	-10.2685
▁pa	-10.2686
▁ಆಜ್ಞೆಗಳನ್ನು	-10.2689
▁ಸ್ಕ್ರ	-10.2693
ll	-10.2696
▁ಸಮುವೇಲನು	-10.2699
▁War	-10.27
ನಂತೆ	-10.2714
▁ನಡುಗ	-10.2719
▁ಎದ್ದ	-10.2722
▁ರೊಟ್ಟಿಯ	-10.2724
other	-10.2727
▁University	-10.2727
▁ಜೈವಿಕ	-10.2727
▁ಹಿಂದಿರುಗ	-10.2727
▁ಸೈತಾನನ	-10.2727
ಬೇಕೆ	-10.2728
▁ಲಾಗಿನ್	-10.2728
▁You	-10.2729
sion	-10.273
▁Cheat	-10.2731
▁ಸ್ಥಾಪಿತವಾದ	-10.2731
▁ಸಾಧ್ಯವಾಗ	-10.2733
▁ಆಯ್ಕೆಯ	-10.2736
BC	-10.2739
▁ನಾಶನ	-10.2739
ಟಿಕ್	-10.2741
ons	-10.2743
▁ಇವೇ	-10.2745
ಮ್ಮಿ	-10.2745
▁ವಾರದ	-10.275
let	-10.2751
▁ನೇಮಿಸಿದ	-10.2758
▁ತೋರಿಸುತ್ತದೆ	-10.2761
▁ಅಂಥ	-10.2772
ton	-10.2772
CE	-10.2772
▁ಪಟ್ಟಣಗಳಲ್ಲಿ	-10.2781
▁ಬೆವಿಕಂ	-10.2786
▁not	-10.2787
▁ಗುಪ್ತ	-10.2788
▁ಡ್ರೈವ್	-10.2789
att	-10.2789
▁ಸಮಿತಿ	-10.279
bar	-10.279
▁ಕರೆಯಲಾಗುತ್ತದೆ	-10.2791
ಬಾರದೆಂದು	-10.2794
▁ಹುಡುಗ	-10.2799
▁ಸಂಪಾದಿಸ	-10.2801
▁ಬದಿ	-10.2808
▁ಸೇವೆಮಾಡ	-10.2811
ಲಾಗದ	-10.2812
val	-10.2812
▁ಕಂಬ	-10.2815
▁ನಿರಂತರವಾಗಿ	-10.2817
▁ಹರಿಯುವ	-10.282
2.1	-10.2825
its	-10.2826
▁ಕಣ್ಣುಗಳನ್ನು	-10.283
▁ಅಧ	-10.2831
▁ಸಮಸ್ಯೆಗಳನ್ನು	-10.2834
▁ಫಲವನ್ನು	-10.2837
▁ಕಟ್ಟಿಸಿ	-10.2837
tech	-10.2838
▁ಪಾಲಿಸಿ	-10.2846
▁ಅಂತರ್ಜಾಲ	-10.2846
▁ಕಚ್ಚಾ	-10.2846
▁ಪಿಇಟಿ	-10.2846
▁ಶೇಕಡ	-10.2847
▁ಕ್ಯಾಲೆಂಡರ್	-10.2848
ಕ್ತಿ	-10.2849
▁ಉಡುಪು	-10.285
▁49	-10.285
▁ರೂಪದಲ್ಲಿ	-10.2857
▁ಕೋಲು	-10.2858
▁ಮೂವ	-10.2859
ಲ್ಲೆ	-10.2861
web	-10.2862
▁ಕುಕೀಸ್	-10.2863
ಂಧ	-10.2864
▁ನೀಡಿದ	-10.287
▁1.0	-10.288
▁ಒತ್ತಿ	-10.288
ney	-10.2882
▁ಸತ್ತನು	-10.2883
ನಗು	-10.2885
▁2007	-10.2888
▁ಬೇಡಿಕೊಳ್ಳ	-10.289
▁ಬಡವರ	-10.2892
▁2006	-10.2893
▁ಚಿತ್ರದ	-10.2893
▁ಇವರೇ	-10.2894
over	-10.2895
ಗಿದ್ದ	-10.2895
▁ದಾಸನ	-10.2897
▁ಸೇವಕ	-10.2906
▁ಯಾರೊಬ್ಬಾಮನ	-10.2906
▁ಆಂಟೆನಾ	-10.2906
▁ತಾಮ್ರ	-10.2906
▁ಜಿಎಸ್ಟಿ	-10.2907
▁ಜಿಎಸ್ಟಿಆರ್	-10.2907
-25	-10.2908
ದಾರರ	-10.2909
ವಾನ್	-10.291
▁me	-10.291
▁ದ್ದಾನೆ	-10.2915
▁He	-10.2915
▁Man	-10.2916
▁ಒರ	-10.292
▁ಲಕ್ಷಣ	-10.292
▁ಅಂಶಗಳನ್ನು	-10.2922
▁ಅಂತಿಮವಾಗಿ	-10.2922
▁ಎಳೆ	-10.2922
rt	-10.293
▁ಅರಾಮ್ಯರ	-10.2932
EC	-10.2932
ಗೇ	-10.2937
▁ನಯವಾದ	-10.2942
▁ಪಟ್ಟಿಯನ್ನು	-10.2944
▁ಉತ್ಪನ್ನದ	-10.2949
▁ಉತ್ಪನ್ನಗಳನ್ನು	-10.2951
್ಯನ	-10.2952
CT	-10.2953
▁ಸಿಗ	-10.2956
SE	-10.2962
▁CD	-10.2963
▁November	-10.2966
▁ಅಸ್ತಿವಾರ	-10.2966
▁ಝೆಜಿಯಾಂಗ್	-10.2966
▁ನಾಗರಿಕ	-10.2966
▁ರಿಯಾಯಿತಿ	-10.2966
▁ಆವರಿಸುತ್ತದೆ	-10.2966
▁ವಿದೇಶಿ	-10.2967
▁ಜಿಪಿಎಸ್	-10.2967
ಿಗೋಸ್ಕರವೂ	-10.297
▁ವೈರ್	-10.297
ರುವಂತೆ	-10.2973
▁ಅವಮಾನ	-10.2973
▁ತೆಗೆದುಕೊಳ್ಳುವ	-10.2974
▁ದೇವರಾಗಿರುವ	-10.2976
ವನೇ	-10.2976
ಸ್ಟೋ	-10.2984
ಹತ್ತನೆಯ	-10.2984
ಕನ್ನಡ	-10.2986
HE	-10.2989
cha	-10.2999
ರಷ್ಟು	-10.3001
▁ಶಾಶ್ವತ	-10.3003
▁ಮನಸ್ಸ	-10.3005
LC	-10.3009
UN	-10.3009
▁ಉರಿಯ	-10.3013
love	-10.3014
ಿಸುವುದು	-10.3015
ವೃ	-10.3015
▁ನಿಮಿತ್ತವಾಗಿ	-10.3016
▁ನೆಟ್ಟ	-10.3016
AM	-10.3018
▁ಚಲಿಸ	-10.3019
CO	-10.302
▁ಎಲ್ಲವೂ	-10.3022
SP	-10.3022
PA	-10.3023
▁ಅಭ್ಯಾಸ	-10.3027
▁ಕೆಲವೊಮ್ಮೆ	-10.3027
▁ಮೂರ್ಖ	-10.3027
▁ವಿಮೋಚಿಸ	-10.3027
▁ಕಿರೀಟ	-10.3027
▁ರಾಜಕೀಯ	-10.3027
▁ಸ್ಥಾಪನೆ	-10.3027
▁ಸ್ಟೇಟ್ಸ್	-10.3027
ಯಾಯಿತು	-10.3034
ಮಾಡಿಕೊಂಡ	-10.3034
ator	-10.3035
ಲೈನ್	-10.3038
use	-10.304
▁ಬಟನ್	-10.3041
ಂದೂ	-10.3043
▁ಬೇಡಿಕೆ	-10.3043
ಪೂರ್ಣ	-10.3044
▁ಗುಂಡಿಯನ್ನು	-10.305
▁ಮಹತ್ವ	-10.3051
▁ಶಾಖ	-10.3057
▁ಲ್ಲಿಯೂ	-10.3057
ker	-10.3057
▁ಬೆಳೆಸ	-10.3061
tan	-10.3062
ುತ್ತಿವೆ	-10.3063
▁ಮಾರಿ	-10.3064
▁ಹೋಗಲು	-10.3064
▁ಬಳಿಯಿಂದ	-10.3064
▁ಬಾಧ್ಯತೆ	-10.3075
PL	-10.3076
PS	-10.3079
▁ಜೀವನದಲ್ಲಿ	-10.3081
▁ಲಕ್ಷಣಗಳು	-10.3083
▁ಜೊತೆಯಲ್ಲಿ	-10.3087
▁ಡೀಫಾಲ್ಟ್	-10.3088
▁Flv	-10.3088
▁ಮೃದು	-10.3088
▁ಸ್ಟಾಕ್	-10.3088
▁ಮಿಶ್ರಣ	-10.3095
▁ಅನುಮತಿ	-10.3097
▁ಮಾಡುವವರ	-10.3097
▁ದೂತನ	-10.3097
ಬಿಟ್ಟು	-10.3098
▁ಕ್ರಯ	-10.3101
bel	-10.3102
▁ಉದಾ	-10.3103
▁ಪ್ರಮಾಣಿತ	-10.3103
▁ಸ್ಥಳಗಳ	-10.3104
-16	-10.3104
▁ಆತನೇ	-10.3109
▁su	-10.311
05-2018	-10.3111
▁ದರೆ	-10.3113
▁ಕೈಕೊಳ್ಳ	-10.3117
▁2.5	-10.3117
▁ವಿಷಯಗಳ	-10.3119
▁ಅಂಗಳ	-10.3122
▁ಪೂರೈಸ	-10.3123
ಳನ್ನು	-10.3125
ುವದೂ	-10.3126
▁ಹೇಳಲು	-10.3127
fr	-10.3129
▁ಅಬ್	-10.3132
▁ಯಾವನು	-10.3138
▁ಶಿಶು	-10.3144
▁ತಂದರು	-10.3145
▁ಕಾಣಿಸಿಕೊಂಡ	-10.3147
▁ಸುರಕ್ಷತೆ	-10.3149
▁ಗೋಳಾಡ	-10.3149
▁ಸ್ನಾನ	-10.3149
▁ವಸಂತ	-10.3149
▁ಬಡ್ಡಿ	-10.3151
▁ನೆರವೇರ	-10.3151
▁ಬಲಿಷ್ಠ	-10.3153
aw	-10.3153
▁1800	-10.3158
CI	-10.3159
▁ಲೋಕದ	-10.3163
▁ವ್ಯವಸ್ಥೆಯನ್ನು	-10.3167
▁ಆರೋಗ್ಯಕರ	-10.3172
▁ಎಲುಬುಗಳ	-10.3173
ನೆಂದೂ	-10.3182
▁ರಾತ್ರಿಯ	-10.3192
▁ಸ್ಪಾ	-10.3193
▁ದಿನವು	-10.3195
▁ನಿಶ್ಚಯ	-10.32
▁ಬೇಸ್	-10.3202
12)	-10.3204
▁ಕಾನಾನ್	-10.3205
ling	-10.3205
▁ಉತ್ಪಾದಿಸ	-10.3208
long	-10.3208
▁ಅಂತಾರಾಷ್ಟ್ರೀಯ	-10.3211
▁ಚಂದಾದಾರ	-10.3211
▁ಪೊಲೀಸ್	-10.3211
▁ಹೆಜ್ಜೆ	-10.3211
▁ಅಂತರರಾಷ್ಟ್ರೀಯ	-10.3211
▁ಅಗ್ನಿ	-10.3212
ರೇಖೆ	-10.3212
▁ಪದಾರ್ಥ	-10.3213
▁23,	-10.3213
▁Bu	-10.3214
ಭೇದ	-10.322
▁©20	-10.3222
ತ್ತೇ	-10.3226
▁ತಯಾರ	-10.3226
120	-10.3227
▁ಯುಎಸ್	-10.3234
▁ಹವ್ಯಾಸಿ	-10.3234
ning	-10.3239
▁ನ್ಯಾಯಾಧಿಪತಿ	-10.3242
▁ಪ್ರೇಮಿಗಳು	-10.3242
SM	-10.3243
▁ಪೂರೈಕೆದಾರ	-10.3244
▁Cha	-10.3245
▁ಸೂ	-10.3245
▁ಮಾಡಲ್ಪಟ್ಟ	-10.3245
ಗೊಳಿಸಲಾಗಿದೆ	-10.3246
▁ನಿಖರವಾಗಿ	-10.325
▁no	-10.3253
ಾಗಲೀ	-10.3263
▁`	-10.3263
▁ಹೆತ್ತ	-10.3264
▁ಆಮ್ಲ	-10.3264
▁ಜಾನ್	-10.3265
▁(9	-10.3265
SH	-10.327
ಭವ	-10.327
▁ಅಂಶಗಳು	-10.3271
ರ್ಗ	-10.3272
▁ಚಾಲನೆ	-10.3272
▁ಪರಿವರ್ತನೆ	-10.3273
▁ಸಂಶೋಧನಾ	-10.3273
▁ಆಧರಿಸಿ	-10.3273
▁ಧ್ವಜ	-10.3273
▁ಶಿಕ್ಷಿಸ	-10.3275
▁ದೂ	-10.3276
▁Game	-10.3277
5.00	-10.328
▁ನೆಲ	-10.328
ಕೊಂಡನು	-10.3281
▁ಹರಿದು	-10.3283
ನಾಗಿದ್ದಾನೆ	-10.3286
ಂದರೆ	-10.3289
▁ಕರುಣೆಯ	-10.3291
▁ರಾಜ್ಯವು	-10.3292
ದಂಥ	-10.3295
▁ಕುಮಾರರಲ್ಲಿ	-10.3297
ಶೇಷ	-10.3308
▁ಗಾತ್ರದ	-10.331
ಯಾದರೂ	-10.3314
fer	-10.3319
ವಾದರೂ	-10.332
▁ಆಲಯದಲ್ಲಿ	-10.3323
pp	-10.3323
▁ಹುಡುಕಲು	-10.3326
0.1	-10.3334
▁Academy	-10.3335
▁modified	-10.3335
▁ಸೊನಿಟಟೂ	-10.3335
▁ಬ್ರಾಂಡ್	-10.3335
▁ಯೊರ್ದನಿನ	-10.3336
▁ಆಮದು	-10.3336
▁ಪತ್ರಕೋಶ	-10.3336
▁ತೂಗ	-10.3339
▁ಸದಸ್ಯರ	-10.3343
ಾಯಿತ	-10.3349
▁ವ್ಯಾಪಕವಾಗಿ	-10.3351
▁ಮಣ್ಣಿನ	-10.3351
▁ಜೀವಿತ	-10.3354
ಪಿಂಗ್	-10.336
▁ದಿವಸಗಳು	-10.336
hai	-10.3362
▁ಹೊಗಳ	-10.3363
▁ಪುಟ್ಟ	-10.3364
ದ್ದೆ	-10.3364
own	-10.3365
lf	-10.337
ದಾರರು	-10.3371
▁ಮನುಷ್ಯರನ್ನು	-10.3376
▁ಜೀ	-10.3378
ಶ್ರಮ	-10.3386
mu	-10.3389
fl	-10.339
▁ಯೊ	-10.3391
ui	-10.3391
▁ಬಾಯಿಂದ	-10.3395
9.00	-10.3396
ಚ್ಚಿ	-10.3397
▁ಬಂಡವಾಳ	-10.3398
▁ವಾತಾವರಣ	-10.3398
▁ಅಗಾಧ	-10.3398
▁ಹೋಲಿಕೆ	-10.3398
▁ಯಾರಂದರೆ	-10.3399
▁Play	-10.34
▁ಗಣಿತ	-10.3403
ಂಜಿ	-10.3403
▁ಪ್ಯಾಚ್	-10.3404
fin	-10.3404
▁ಕತ್ತರಿಸಿ	-10.3405
▁AM	-10.3407
▁ಕಾಮ	-10.3407
ಹಾಗೆ	-10.3411
ಚೇ	-10.3412
▁ನಂಬಿ	-10.3416
▁ತಿರುಗಿಸ	-10.3417
▁Slots	-10.3419
ಬ್ಯಾಕ್	-10.342
win	-10.3421
▁ಇಸ್ರಾಯೇಲ್ಯರು	-10.3426
code	-10.3426
zip	-10.3429
ಕ್ಕು	-10.3434
▁SD	-10.3434
zh	-10.3442
▁Ac	-10.3442
▁ಕೊಂಡರು	-10.3449
▁125	-10.3453
▁ಅಷ್ಟ	-10.3459
▁ನಿರೋಧಕ	-10.3464
▁ಯೆಹೂದ್ಯರು	-10.3469
▁ಆಜ್ಞಾಪಿಸ	-10.3472
▁+91	-10.3479
▁ಮಾಡಿದ್ದಾರೆ	-10.3481
▁ಫೋರ್	-10.3483
▁ಬುದ್ಧಿವಂತ	-10.3487
▁ಪಾಲನ್ನು	-10.349
MP	-10.3496
▁App	-10.3496
ವರ್ಡ್	-10.3497
ಮಿತ	-10.3497
▁ಸೈನ್ಯದ	-10.3498
king	-10.3502
ware	-10.3505
▁ಹೊಲದಲ್ಲಿ	-10.3511
▁ಖರೀದಿಸ	-10.3513
▁ಭರವಸ	-10.3513
▁ಸೂರ್ಯ	-10.3514
ಿಸಿತು	-10.3517
▁ಬೈಲ	-10.3519
ಜ್ಞಾನ	-10.3521
ಂಟರ್	-10.3521
▁ತಿಳಿಸಿದ	-10.3522
▁recipe	-10.3525
▁ವರ್ಗಾವಣೆ	-10.3525
▁ಷಾನ್ಡಾಂಗ್	-10.3525
▁ಸ್ವತಃ	-10.3525
▁Karn	-10.3525
▁ಸವಾರಿ	-10.3525
▁ಸಿದ್ಧಮಾಡಿ	-10.3526
▁ಬೈಬಲ್	-10.3527
Trans	-10.3527
▁ಆವರಣ	-10.3527
▁will	-10.3529
IP	-10.3529
IL	-10.353
▁ಮಾರ್ಗದರ್ಶಿ	-10.3536
▁ಆಹಾರವನ್ನು	-10.3536
HT	-10.3536
▁ತುಳು	-10.3538
ಡಿಯೊ	-10.3544
Me	-10.3545
ದೇವರ	-10.3552
ವೆಂದೂ	-10.3552
▁ಮುಖ್ಯಸ್ಥರ	-10.3553
ದ್ದಾ	-10.3562
101	-10.3562
ೊಳಕ್ಕೆ	-10.3562
€	-10.3562
▁ಅಲ್ಲದ	-10.3565
▁ವ್ಯಾಪಾರಿ	-10.3566
▁ಸೆರೆ	-10.3566
▁ಹೊಂದಿಲ್ಲ	-10.3585
▁ಗುಣಲಕ್ಷಣ	-10.3589
▁ಫ್ರಾನ್ಸ್	-10.3589
▁ಅಹಾಬನ	-10.3589
▁ಸಂಪಾದಕ	-10.3589
▁ಚೀನೀ	-10.3589
▁option	-10.3591
▁ಪ್ರಪಂಚದ	-10.3595
▁ಯಾವನೂ	-10.3596
▁ಹತ	-10.3598
▁ವಾಟರ್	-10.3599
ನೆಟ್	-10.3602
▁ಹೋಗುವದು	-10.3602
ಪುಟ	-10.3606
▁pre	-10.3607
▁DC	-10.361
NT	-10.3611
ವಾಹ	-10.3617
▁ಕಾರ್ಖಾನೆ	-10.3619
▁Do	-10.3619
-14	-10.3621
▁ಸಂಖ್ಯೆಯ	-10.3625
▁ತುದಿ	-10.3626
ಸ್ಟ್ರಾ	-10.363
▁ಪಟ್ಟಣವು	-10.3631
▁ಕಾರ್ಟ್	-10.3632
tro	-10.3638
▁ಹೆಚ್	-10.3639
▁ಪೌಲನು	-10.3644
ಯ್ಯ	-10.3646
ಜನ್	-10.3647
▁ಬಿಟ್ಟುಬಿಡ	-10.365
್ಲೈ	-10.3651
▁ಜನರಲ್	-10.3653
▁ಗಲಿಲಾಯ	-10.3654
▁ವಿಶ್ಲೇಷಣೆ	-10.3654
▁ಜವಳಿ	-10.3654
▁ಹುಲ್ಲು	-10.3654
▁ಹುಳಿ	-10.3654
▁ಸಮೀಪ	-10.3654
▁ರೆಕ್ಕೆ	-10.3654
ಯಲ್ಲಾ	-10.3655
Change	-10.3658
▁ದೂರದ	-10.3661
▁XXL	-10.3663
▁ಸ್ತುತಿಸಿರಿ	-10.3663
▁ಪೂರೈಸುವ	-10.3663
▁ಆದುಕೊಂಡ	-10.3665
▁ತೋಳ	-10.3667
▁ಐಗುಪ್ತದೇಶದ	-10.367
▁ಕೈಕೊಂಡು	-10.3673
ID	-10.3677
▁Gr	-10.3681
▁ಡ್ರಾ	-10.3683
▁ಗಮನಿಸ	-10.3688
▁ಸಂತ	-10.3691
▁TV	-10.3692
ಉದಾಹರಣೆಗೆ	-10.3695
▁ಈತನ	-10.3698
ಿರುವುದು	-10.3698
▁free	-10.3701
▁ಶ್ರೇಣಿ	-10.3707
್ತಿ	-10.3713
▁ಮಾಂಸವನ್ನು	-10.3714
▁ಹೈಡ್ರಾಲಿಕ್	-10.3719
ಕೃಷ್ಣ	-10.3719
▁ಪ್ಯಾಕೇಜಿಂಗ್	-10.3719
travel	-10.3719
▁ಜರ್ಮನಿ	-10.3719
▁ನಿಂತಿದ್ದ	-10.372
▁ಚೀಯೋನಿನ	-10.372
▁ಗೋಪುರ	-10.3722
▁ಗುಂಪಿನ	-10.3723
▁ತಪ್ಪಿ	-10.3726
FA	-10.373
▁ಕೈಗಳ	-10.3734
cess	-10.3736
▁ಪಡೆಯಬಹುದು	-10.3736
▁ನೆನಸ	-10.3736
ಕೊಂಡಿ	-10.3737
▁ಆಳುವ	-10.3738
ನಲ್ಲ	-10.374
pt	-10.3745
▁Qu	-10.3749
av	-10.3749
▁29,	-10.3749
▁ಪೂರ್ವದ	-10.3752
▁ಹಾಸಿಗೆ	-10.3753
ಕರವಾದ	-10.3757
▁ಕೇಡ	-10.3759
▁ಎಣಿಸಲ್ಪಟ್ಟ	-10.3762
▁ಭಾಗವನ್ನು	-10.3768
▁ನಡು	-10.3774
▁ಕಪ್	-10.3775
▁ದ್ರವ	-10.3776
▁ಮೇಕೆ	-10.3776
ದ್ದೇನಂದರೆ	-10.3777
▁Mon	-10.3779
▁ಹಗೆಮಾಡ	-10.3779
ಿಸುವೆನು	-10.3781
▁ನಂಬಿಗಸ್ತ	-10.3784
▁ಆದರ್ಶ	-10.3785
ತ್ವದ	-10.3787
▁ಬದಲು	-10.3787
▁ಯುಕೆ	-10.3789
MM	-10.379
▁ಎಂದರೆ	-10.379
ಬಿಡು	-10.3792
ಗಲ	-10.3793
▁ಪಿಎನ್	-10.3794
▁ಪದ್ಧತಿ	-10.3795
▁ದೇಶಗಳ	-10.3795
▁ಪೌಲನ	-10.3797
▁ಇಂಟರ್	-10.3798
▁ಬಲ್ಲೆನು	-10.3802
ನಾಮ	-10.3802
▁ವಿಾನ	-10.3803
▁ಇಟ್ಟನು	-10.3804
▁ಕ್ಯೂ	-10.3804
here	-10.3807
KW	-10.3808
▁ವಂತೆ	-10.3813
ೆಲ್ಲರು	-10.3815
ಲಿಲ್ಲವೋ	-10.3816
ುತ್ತಾಳೆ	-10.3821
ಕೂಟ	-10.3825
▁ಕ್ಲಿಪ್	-10.3825
▁ದರೂ	-10.3826
qu	-10.3828
▁ಚಾಚಿ	-10.3832
▁ಸಂಗಡಲೂ	-10.3834
ದ್ದಾನೆ	-10.3839
▁ತಕ್ಕೊಂಡ	-10.3839
▁ಮಾನ್ಯ	-10.3841
-10-20	-10.3843
▁XXX	-10.3847
▁ತಕ್ಷಣ	-10.3848
▁ಹಿಂತಿರುಗ	-10.3849
▁ಪ್ರೊಫೈಲ್	-10.385
▁ತ್ರೈಮಾಸಿಕ	-10.385
▁ಪರಿಕಲ್ಪನೆ	-10.385
▁ಒಡೆದು	-10.385
▁ಎರಕ	-10.3851
888	-10.3852
ಕೊಡುವ	-10.3858
ical	-10.3859
▁ನಿರೀಕ್ಷೆ	-10.386
ಿಗಿಂತಲೂ	-10.3864
▁ಪಡಿಸ	-10.3868
rs	-10.3874
▁ಆಜ್ಞಾಪಿಸಿ	-10.3875
▁ಕಬ್ಬಿಣದ	-10.3877
▁ನಂಬುವ	-10.3878
▁ಸಹೋದರಿಯ	-10.3879
▁ವಾಸವಾಗಿರುವ	-10.3881
▁ಕುದುರೆಗಳ	-10.3882
▁ಸುಟ್ಟು	-10.3884
▁ಪ್ರಮಾಣದಲ್ಲಿ	-10.3884
▁ತಯಾರಿಕೆ	-10.3885
▁ಮಾಹಿತಿಗಾಗಿ	-10.3888
▁51	-10.389
▁ಯೆಹೂದನ	-10.389
▁ಬದಲಾಯಿಸಿ	-10.3891
uck	-10.3898
__	-10.39
▁ರಕ್ತದ	-10.3905
▁ಸ್ವಯಂಚಾಲಿತವಾಗಿ	-10.3906
color	-10.391
ಿಷ್ಠ	-10.3911
▁Christ	-10.3913
▁inmenu	-10.3916
▁ನ್ಯಾಯತೀರ್ಪ	-10.3916
▁ಮೊಡವೆ	-10.3916
▁ಆಯ್ದ	-10.3917
▁ಓಡಿಹೋದ	-10.3918
▁1500	-10.3919
▁ಡ್ರಾಪ್	-10.3924
▁ಕರ್ತನೆಂದು	-10.3926
▁ಪೋಷಕರ	-10.3933
az	-10.3934
▁ಮಾಡಿಕೊಂಡು	-10.3936
ಿರುತ್ತವೆ	-10.3938
▁ಚೀಟ್ಸ್	-10.394
-24	-10.3941
▁ಅಬ್ರಹಾಮನು	-10.3947
▁ಅಗತ್ಯವಿಲ್ಲ	-10.3947
read	-10.395
▁ಉಂಟಾಗಿ	-10.3951
▁ಪ್ರಕಟಣೆಯ	-10.3952
▁ಸತ್ತವರ	-10.3956
ಲಾಗುವುದಿಲ್ಲ	-10.3956
ವಾಸಿ	-10.3957
▁ಲೋಹದ	-10.396
▁ಬಲಿಪೀಠದ	-10.3963
▁ಬಿಡಿ	-10.3967
ಅರಸನ	-10.3969
ಕ್ಷಣ	-10.3975
ಟ್ರಿಕ್	-10.3975
▁ಮಿನಿ	-10.3976
▁ಡೇಟಾವನ್ನು	-10.3981
▁ಸಾಂ	-10.3982
▁ಅಗತ್ಯವಿರುವ	-10.3982
▁ಸ್ಪೀಕರ್	-10.3983
▁ಹೋಂಡಾ	-10.3984
▁ರೇಟೆಡ್	-10.3984
▁ಜನಸಂಖ್ಯೆ	-10.3984
▁ನವೀಕರಿಸ	-10.3994
▁ವಹಿಸ	-10.3994
▁ಇಂಡಿಯಾ	-10.3998
xxx	-10.3998
▁ಒಳ್ಳೇದನ್ನು	-10.3999
ries	-10.4001
▁ಹಿಂಸಿಸ	-10.4004
▁ಕ್ಯಾಪ್	-10.4007
▁ಸಂದೇಶಗಳನ್ನು	-10.4008
nic	-10.4014
▁ಪ್ರವಾದಿಯ	-10.4016
▁ಹಿಟ್	-10.4017
▁ಬಿಂದು	-10.4018
▁ಬುಕ್	-10.4018
▁ಸೌರ	-10.4019
▁ಇಂಗ್ಲೀಷ್	-10.402
▁ವಸ್ತುಗಳು	-10.4022
▁ಕಬ್ಬಿಣ	-10.4022
ಲಾಗ	-10.4025
▁ಕರ್	-10.4025
▁ತತ್ವ	-10.4025
▁ಆಲಯ	-10.4026
▁ಕಲ್ಲುಗಳ	-10.4032
▁ಮೋಡ	-10.4032
low	-10.4034
▁ಅಳವಡಿಸ	-10.4034
▁ಕೊಂದ	-10.4035
▁Pre	-10.4036
ರಾಗಿದ್ದಾರೆ	-10.4036
▁0.1	-10.4041
▁ನಾಶವಾಗುವ	-10.4042
▁ಮಹಿಳೆ	-10.4049
▁Holmbygden	-10.405
▁ಲೈಂಗಿಕ	-10.405
▁ಗುಲಾಬಿ	-10.405
▁ನಿಮಗೋಸ್ಕರ	-10.405
▁ಕಾಳಜಿ	-10.405
▁ಚೀಟು	-10.405
▁ಉಪಕರಣಗಳು	-10.4051
▁ಸೊಲೊ	-10.4051
▁ಬೇಗ	-10.4053
▁VPS	-10.4053
ted	-10.4054
eet	-10.4056
▁ಗಂಡು	-10.4059
ory	-10.4064
▁ತಗ್ಗಿಸ	-10.4066
ಪಾಲ	-10.4068
▁ತಿಳಿಸುವ	-10.4069
ros	-10.4075
▁ಸೇವಿಸುವ	-10.4077
▁ಸಿಕ್ಕಿ	-10.4078
▁ಸಾಕ	-10.4079
ಿರುವದನ್ನು	-10.4086
▁ತಪ್ಪಿಸಿಕೊಳ್ಳ	-10.4087
▁ಚೇರ್	-10.4089
▁ಶಬ್ದವನ್ನು	-10.4089
RC	-10.4089
▁ಚಿನ್ನ	-10.4092
▁06:	-10.4093
ಕೊಳ್ಳುವದಕ್ಕೆ	-10.4093
▁ಪರಲೋಕ	-10.4095
▁Web	-10.4101
ನ್ಯರ	-10.4103
▁ನೈ	-10.4106
▁ವಿದ್ಯುಚ್ಛಕ್ತಿ	-10.4118
▁ಷೆನ್ಜೆನ್	-10.4118
▁ಕೈಗಾರಿಕೆ	-10.4118
▁ವೀಕ್ಷಕ	-10.4118
▁ಸಂರಚನೆ	-10.4118
▁ಕೂಪನ್	-10.4118
▁ಚಾನೆಲ್	-10.4118
group	-10.4118
▁ಆಡಿಯೋ	-10.4119
▁have	-10.412
▁ಸ್ಥಾಪಿಸಲಾಯಿತು	-10.4121
▁(1,5	-10.4123
ಕ್ಕಿಂತಲೂ	-10.4125
▁Go	-10.4127
ುದಿಲ್ಲ	-10.4133
▁ಅಲ್ಪ	-10.4133
ome	-10.4135
▁ಹಗ್ಗ	-10.4136
▁ಕಡೆಯಲ್ಲಿ	-10.4137
▁ಕಂಡುಕೊಳ್ಳ	-10.4138
▁ಬಂಧಿಸ	-10.4142
▁ಇಸ್ರಾಯೇಲ	-10.4143
▁ಮಾದರಿಗಳು	-10.4144
▁ಕೇಳದೆ	-10.4148
▁ಹಸ್ತ	-10.4149
▁ಹಾದಿ	-10.4152
itch	-10.4157
▁si	-10.4159
▁ಹಲಗೆ	-10.4166
▁En	-10.4179
▁ಚೇ	-10.418
ML	-10.418
▁ಶ್ರ	-10.418
ನಾದರೂ	-10.4181
▁ಅವಲಂಬಿಸಿ	-10.4186
▁ಕ್ರಾಫ್ಟ್	-10.4186
▁ಕ್ರೀಡಾ	-10.4186
▁ಶೇಖರಣಾ	-10.4186
▁ಈಹೊತ್ತು	-10.4186
▁ಹೆಬ್ರೋನ	-10.4186
▁ಪಸ್ಕ	-10.4186
▁ಕನಸು	-10.4186
▁ಆಕೆಗೆ	-10.4186
▁ಹಸಿ	-10.4188
▁ಕಾಣಿಸಿಕೊಳ್ಳ	-10.4192
▁ರಮ್ಯ	-10.4193
▁ಬ್ಯಾಗ್	-10.4194
900	-10.4198
▁ಭಾಗವಾಗಿ	-10.4199
ನಾಗಿದ್ದನು	-10.4199
ದಾಯಕ	-10.4202
TS	-10.4203
▁ಗುಪ್ತಪದವನ್ನು	-10.4203
1.5	-10.4204
ama	-10.4206
▁ಅದಕ್ಕ	-10.4207
ಯೇಲನು	-10.4207
▁ಹಗೆ	-10.4208
test	-10.4216
▁Ni	-10.4222
ಾರ್ಡ್	-10.4235
▁ಅನುಮತಿಸ	-10.4235
▁ಹಾರ್	-10.4239
▁Xxx	-10.4239
ಾಡುವ	-10.4242
add	-10.4243
Indian	-10.4252
▁ಬದುಕಿ	-10.4253
▁ಬೆತ್ತಲೆ	-10.4254
▁ಆರೈಕೆ	-10.4254
▁PNG	-10.4254
▁ಕುತ್ತಿಗೆ	-10.4254
ೋತ್ಸವ	-10.4254
▁฿	-10.4255
▁ಅತಿಥಿ	-10.4258
320	-10.4259
▁ವಿಭಾಗಗಳು	-10.4261
▁ಅರಸನನ್ನು	-10.4261
▁ಅನುಮತಿಸುತ್ತದೆ	-10.4263
ವಾರ್	-10.4264
ಜಕ	-10.4268
▁ಮಾರುಕಟ್ಟೆಯಲ್ಲಿ	-10.4271
▁ಸಿಂಹಾಸನ	-10.4273
▁ಸಹೋದರರು	-10.4275
▁ಜಿಲ್ಲಾ	-10.4275
ೋನನು	-10.4278
cre	-10.428
ಬ್ರಾ	-10.4285
▁ಸವಿಾಪಕ್ಕೆ	-10.4285
best	-10.4286
▁ನೀತಿಯನ್ನು	-10.4288
▁ಸಮಾರ್ಯ	-10.4292
ple	-10.4296
ಚಾರ್	-10.43
ುವುದ	-10.4302
▁ಸೇರಿಸಲು	-10.4306
▁ಸೀಮೆ	-10.4313
▁ತಿಳುಕೊಳ್ಳ	-10.4316
ಛ	-10.4321
▁05:	-10.4323
▁ಕಂಪೆನಿ	-10.4323
▁ಹುಟ್ಟ	-10.4323
JPY	-10.4323
▁ದೋಸೆ	-10.4323
▁Tulu	-10.4324
▁ಭವಿಷ್ಯ	-10.4327
▁ಶಾಪಿಂಗ್	-10.4327
ಲಕ್ಷ	-10.4327
▁ಸಾಯಂಕಾಲದ	-10.4327
ಸ್ಟಿಕ್	-10.4332
ಚನೆ	-10.4335
▁ಸಂತತಿಯ	-10.4338
▁New	-10.4338
▁ಆಯ್ಕೆಮಾಡಿ	-10.434
ಂಡೆ	-10.434
▁ಅತ್ಯ	-10.434
▁ವಶ	-10.4347
▁ಖಚಿತಪಡಿಸಿಕೊಳ್ಳ	-10.4349
▁ಪ್ರವೇಶಿಸುವ	-10.4351
▁ಕೋಟಿ	-10.4358
ೆನೋ	-10.4364
ರಾದರು	-10.4366
▁ಆದರ	-10.4368
1.0	-10.4376
ಪೂರ್ವ	-10.4377
MO	-10.4377
▁ಇಳಿಸ	-10.4381
ಖ್	-10.4384
▁ಟೆಕ್ನಾಲಜಿ	-10.4392
▁ಪ್ರದರ್ಶಕ	-10.4392
▁ಬೃಹತ್	-10.4392
▁ಗಂಡಸರ	-10.4392
▁ಪಂದ್ಯ	-10.4392
▁ಸ್ಕೈಪ್	-10.4392
▁ಪರಿವಿಡಿ	-10.4393
▁ಟ್ರ್ಯಾಕ್	-10.4393
so	-10.4394
ಾದರೆ	-10.4396
▁ಮೂಡಣ	-10.4396
▁HTTPS	-10.4398
▁ಆನಂದಿಸಿ	-10.44
ND	-10.4405
▁ವ್ಯಾಪ್ತಿಯ	-10.4405
hk	-10.4406
ವಾದವುಗಳ	-10.4411
▁0.2	-10.4412
▁ಅರ್ಪಿಸಬೇಕು	-10.4415
ally	-10.4416
ಲಾರದ	-10.4418
▁$1	-10.4421
ವಿದ್ಯಾ	-10.4424
HL	-10.4424
▁ಬೇಕೆಂದು	-10.443
▁And	-10.444
▁ಯಂತ್ರದ	-10.4442
▁ಕವಿ	-10.4446
DB	-10.4449
▁ಕೆರ	-10.4452
ಲಾಗುವ	-10.4454
je	-10.4458
ಲಭ್ಯ	-10.4459
▁MP	-10.4459
▁ಸೆರೆಯ	-10.446
▁Antiparos	-10.4462
▁ಗಮನಾರ್ಹ	-10.4462
▁ತುಣುಕು	-10.4462
▁ಫೋಲ್ಡರ್	-10.4462
▁ವಿಶ್ವವಿದ್ಯಾನಿಲಯ	-10.4462
▁ಸೈಟ್ಮ್ಯಾಪ್	-10.4462
▁ತಂಪಾದ	-10.4462
▁ವಿಶ್ವಾಸ	-10.4464
▁ಕರೆದುಕೊಂಡು	-10.4465
▁ವಾಗಿಯೂ	-10.4466
▁ಹೆತ್ತಳು	-10.4467
▁Sexu	-10.4468
▁в	-10.4468
hot	-10.4469
▁ಯೆರೂಸ	-10.4471
▁Comments	-10.4473
▁ವೈನ್	-10.4477
KG	-10.4477
ೀಸ್	-10.4483
▁ರೋಗಿಗಳ	-10.4487
ಯಾಗಲಿ	-10.4488
▁ವ್ಯಕ್ತಿಗಳು	-10.449
▁mod	-10.4492
▁ಅರಸರ	-10.4493
ize	-10.4494
ಹೊಸ	-10.4494
▁ಲೇಖನಗಳು	-10.4503
▁ಬಿಡಿಸಿ	-10.4503
▁ಕಿಟ್	-10.4503
AB	-10.4506
ಸೂಚಿ	-10.4508
ಲ್ಲವೆಂದು	-10.4509
▁ಮಾಡುವದು	-10.4509
ಇನ್	-10.4515
und	-10.4515
ಫಿಕ್	-10.4533
▁CSGO	-10.4533
▁ವಿಜ್ಞಾಪನೆ	-10.4533
▁ಎಪ್ಪತ್ತು	-10.4533
▁ಸಾಮಗ್ರಿ	-10.4533
▁ಸಂಗಾತಿ	-10.4533
▁ಮುಂದುವರಿಸ	-10.4533
▁ಜಗತ್ತಿನ	-10.4533
▁ಅನ್ಯಜನರ	-10.4533
▁ಆತ್ಮನು	-10.4534
▁ಹಾಸ್ಯ	-10.4536
▁ಹೆಡ್	-10.4536
▁ಲವ್	-10.4536
ಗೊಳಿಸುತ್ತದೆ	-10.4536
▁ತೆಗೆದುಕೊಳ್ಳಲು	-10.4536
▁ಹಳ್ಳ	-10.4537
PE	-10.4541
ಿರುವದು	-10.4551
▁ಇಲ್ಲದಿದ್ದರೆ	-10.4553
type	-10.4555
▁ಹೆಚ್ಚಿಸಲು	-10.4557
▁ಸೂಚಿಸುತ್ತದೆ	-10.4557
Com	-10.4557
log	-10.4558
▁ಪಾಳೆಯದ	-10.4561
for	-10.4564
ೆಯು	-10.4567
▁ಧೂಳ	-10.4567
▁ಗಿಯೂ	-10.4568
▁ಭಾರತದಲ್ಲಿ	-10.4577
▁ಕಾಯುವ	-10.4582
▁ಕಾಯಿ	-10.4585
▁ಘಟನೆಗಳು	-10.4586
ಸೈಡ್	-10.4589
2.5	-10.4598
▁Power	-10.46
ಬಿಡುವೆನು	-10.4601
▁ಹೆಚ್ಚಾಗ	-10.4601
▁ಹಸು	-10.4602
▁ಮ್ಯಾಕ್ಸ್	-10.4603
▁ನಿರಾಕರಿಸ	-10.4604
▁ಫರಿಸಾಯರ	-10.4604
▁ನಿರ್ಧಾರ	-10.4604
Electronic	-10.4604
ಸಾಫ್ಟ್	-10.4604
▁button	-10.4604
▁ಸುರುಳಿ	-10.4604
ವಾಸ	-10.4605
▁ಬೇರಿಂಗ್	-10.4606
▁ಸಾಮ್ಯ	-10.4608
ಪೂ	-10.461
▁ನೈಜ	-10.4612
▁ಏಪ್ರಿ	-10.4612
▁Hol	-10.4619
▁ನಿಮಗಾಗಿ	-10.4621
rc	-10.4624
▁ಸೆಲಾ	-10.4626
ಿಕೆಯನ್ನು	-10.4627
▁ಜ್ಞಾನಿಯ	-10.4631
▁ರೋಲ್	-10.4631
▁"%	-10.4639
▁ಅವುಗಳು	-10.4643
▁ಹೊಲಿಗೆ	-10.4644
ಪೂರ	-10.4647
▁ವೀಕ್ಷಿಸ	-10.4652
▁380	-10.4656
▁98	-10.4658
▁ಕುರಿತ	-10.4661
og	-10.4663
ಿರಾ	-10.4663
▁ಇಸ್ರಾಯೇಲಿನಲ್ಲಿ	-10.4664
ರಾಗಿರುವ	-10.4665
▁ಸೆರೆಯಾಗಿ	-10.4667
▁ಭವಿಷ್ಯದ	-10.4671
▁ದೊರೆಯ	-10.4675
▁Tablet	-10.4675
▁ಮುಳ್ಳು	-10.4675
▁ಬಾಳನ	-10.4676
▁ಉಂಟಾಯಿತು	-10.4676
೩	-10.4678
▁ಸಂಪರ್ಕಿಸಬಹುದು	-10.4679
ಕೊಳ್ಳಿ	-10.468
▁ಒಳಗಾಗ	-10.4682
ಮನುಷ್ಯ	-10.4682
999	-10.4685
▁fl	-10.4685
▁ಕಳ್ಳ	-10.4687
▁26,	-10.4687
▁08:	-10.4689
▁ಅರಸನೂ	-10.469
1000	-10.4692
▁ವಿಧಾನಗಳು	-10.47
▁ಆಜ್ಞೆಯ	-10.4703
▁ವಿಧಿಸ	-10.4706
▁ಬರೆಯಲ್ಪಟ್ಟ	-10.4706
mar	-10.4706
▁1.2	-10.4706
page	-10.4709
▁ನಂತಹ	-10.4715
▁ಅಧಿಪತಿಗಳ	-10.472
▁ಜನರಾದ	-10.4721
ಮಂದಿ	-10.4721
ಸುತ್ತೇನೆ	-10.4721
▁ಡಿಸಿ	-10.4727
▁ಹೊಲದ	-10.4732
ness	-10.4735
▁01:	-10.4737
ಔ	-10.4737
▁ಉರಿ	-10.4742
NamePossessive	-10.4747
▁ಆಸ್ಪತ್ರೆ	-10.4747
▁ಜಾಲತಾಣ	-10.4747
▁ವಯಸ್ಸಿನ	-10.4747
▁ಕೈಪಿಡಿ	-10.4747
▁ಸ್ಕೂಲ್	-10.4747
▁ಬ್ರೇಕ್	-10.4747
▁ದಾನಿಯೇಲನ	-10.4747
▁ಮೌಸ್	-10.4748
▁ರಷ್ಯಾ	-10.4748
▁ಸೈಕಲ್	-10.4749
ನೀತಿ	-10.475
hang	-10.4751
PP	-10.4752
▁ಗೋಧಿ	-10.4753
▁ಚೂ	-10.4753
▁ಹೋಲಿಸ	-10.4755
▁Pas	-10.4757
▁ಕಲಾ	-10.4761
thya	-10.4762
▁MT	-10.4763
ತೆಯಿಂದ	-10.4764
▁ಎಳೆಯ	-10.4765
▁ಹೊರಡಿಸಿ	-10.4765
ಯಾಗಿದ್ದು	-10.4767
▁ಇಳಿಯ	-10.4769
▁ಮಂಜೂಷವನ್ನು	-10.4776
ung	-10.4778
▁02:	-10.4781
▁ಮತಗಳನ್ನು	-10.4785
▁ಉಂಟಾಗುವ	-10.4787
▁ಹೋಗಿರಿ	-10.4794
▁ಕ್ಲ	-10.48
▁ಅವರೊಂದಿಗೆ	-10.4802
▁ಸುಧಾರಿಸ	-10.4803
▁ಪ್ರಶ್ನೆಗಳನ್ನು	-10.4805
▁10%	-10.4808
▁ಸಾಧಿಸ	-10.4812
ದವರೂ	-10.4813
▁ಉಡುಗೊರೆ	-10.482
▁ವೈಜ್ಞಾನಿಕ	-10.482
▁ಸಾಮಾನು	-10.482
▁ಚರ್ಚ್	-10.482
▁ಮಗಳಾದ	-10.4821
▁ಸುಖ	-10.4821
▁team	-10.4822
▁ಪತ್ತೆ	-10.4824
▁ಆತ್ಮವು	-10.4825
▁ಉಗ್ರ	-10.4826
▁Th	-10.483
▁ಕುಡಿ	-10.4842
▁ಉಲ್ಲಾಸ	-10.4843
▁MH	-10.4843
-09-20	-10.4843
▁ದಾಸರ	-10.4844
▁ಮಹಾನ್	-10.4855
ದ್ದಾರೆ	-10.4856
▁ಒಳ್ಳೆಯದು	-10.4856
▁ಮಗನೇ	-10.4858
▁ಜೇನು	-10.4859
▁Min	-10.4864
▁ವಿಮೆ	-10.4864
▁ಬರೆಯಲು	-10.4868
▁So	-10.4876
ಯವರ	-10.4882
▁ಕಾರ್ಯಕ್ಷಮತೆ	-10.4893
▁ಬಹುತೇಕ	-10.4893
▁ವೇಳಾಪಟ್ಟಿ	-10.4893
▁ಭಕ್ತಿ	-10.4895
IR	-10.4896
▁ಅಮೆರಿಕ	-10.4897
▁XXXL	-10.4898
▁ಬರೆಯುವ	-10.4899
▁ಅವರೆಲ್ಲರೂ	-10.4902
ರಾಜ್	-10.4902
▁ಕಡ	-10.4919
LN	-10.4925
ವನಾಗಿದ್ದನು	-10.4931
▁ಮೃಗಗಳ	-10.4938
▁ಇಟ್ಟುಕೊಂಡ	-10.4941
▁ರಥಗಳ	-10.4944
▁ಸಂಗ್ರಹಿಸ	-10.4946
▁ಬಲಿಪೀಠ	-10.4958
▁ಸಹೋ	-10.4959
▁ಮೋವಾಬಿನ	-10.4966
▁ರೌದ್ರ	-10.4966
▁ದೃಷ್ಟಿಕೋನ	-10.4966
▁ಚರ್ಚೆ	-10.4966
▁ಮಲ್ಟಿ	-10.4966
ಕೊಳ್ಳುವರು	-10.4971
ಾದ್ಯಂತ	-10.4973
▁ಡ್ಯೂ	-10.4976
▁ಘಟನೆ	-10.4984
▁ಯೋವಾಬನ	-10.4985
ಒಂದು	-10.4986
▁ಕಾಣಿಸುತ್ತದೆ	-10.4987
▁ಪುರುಷರು	-10.4995
▁ಇದ್ದೇನೆ	-10.4996
ಯಾಗುತ್ತದೆ	-10.4997
back	-10.4998
ಾಕಾರದ	-10.5002
▁ವರ್ಣ	-10.5007
▁ಬೀಸ	-10.5008
▁ನಿನ	-10.501
ುತ್ತಿದ್ದೇನೆ	-10.5011
▁ಬಂಡೆ	-10.5011
▁ಪರ್ವತಗಳ	-10.5012
▁ಬಳ	-10.5015
▁new	-10.5022
ಂತ್	-10.5025
▁ವರ್ಧ	-10.5025
▁09:	-10.5026
▁ಅರಮನೆ	-10.5026
car	-10.5026
▁ಸೂಕ್ತವಾದ	-10.5027
ಯಾವ	-10.503
▁ಸ್ಥಳಗಳು	-10.503
▁ಕುಟುಂಬದ	-10.503
▁ಆದಿ	-10.5031
▁ಯನ	-10.5031
▁ಗ್ರಾಂ	-10.5032
▁ಭದ್ರತೆ	-10.5038
▁ಸಿಇ	-10.504
▁ಇಂಜೆಕ್ಷನ್	-10.504
▁ಡೀಲುಗಳು	-10.504
▁ತುರ್ತು	-10.504
▁ಸುವಾಸನೆ	-10.504
▁ಯೆಶಾಯ	-10.504
▁ಅಂಚೆ	-10.504
▁us	-10.5041
-27	-10.5042
ತ್ವವನ್ನು	-10.5042
▁ನಿಲ್ಲುವ	-10.5044
▁ಸಂಬಂಧಪಟ್ಟ	-10.5045
▁ಬ್ಲೂ	-10.5052
▁ಹೆಸರಿ	-10.5054
ಮುಂದೆ	-10.5055
ಭೂಮಿ	-10.5055
▁ಬೆಲ್ಟ್	-10.5055
▁QR	-10.5055
▁ಭಾಗದಲ್ಲಿ	-10.5057
▁ನೀಡುತ್ತವೆ	-10.5057
ದೇವರು	-10.5059
▁ಹೆಚ್ಚಾದ	-10.5062
▁ಆಸ್ಟ್ರೇಲಿಯಾ	-10.5066
ಪೋರ್ಟ್	-10.5069
▁ಸರ್ಕಾರದ	-10.5069
ೆಯಲ್ಲಿ	-10.507
ಪುತ್ರ	-10.5071
122	-10.5072
less	-10.5075
▁ಬೇಡಿ	-10.5083
▁ನಿಖರತೆ	-10.5088
▁ಯೋಹಾನನು	-10.509
▁ಹಾಳುಮಾಡ	-10.5094
▁ತೊಲಗ	-10.5094
▁ಹಾಳು	-10.5094
▁ಸಾಕ್ಷಿಯ	-10.5095
▁ತಜ್ಞ	-10.5095
ನಿಯನ್	-10.5096
▁ಕತ್ತಲ	-10.5097
▁ಬಳಸುತ್ತದೆ	-10.5098
ich	-10.51
ring	-10.5103
▁ಹಾಕಿದರು	-10.5108
▁ಜಗ	-10.5108
▁ಸ್ಪಷ್ಟವಾಗಿ	-10.5109
▁ಪ್ರದೇಶಗಳಲ್ಲಿ	-10.5113
▁ಕಾಲದ	-10.5113
▁Episode	-10.5115
▁ಔತಣ	-10.5115
▁ಮೈಸೂರು	-10.5115
▁ಗೀ	-10.5116
▁ಗ್ರಹಿಕೆ	-10.5117
▁ಬಿಟ್	-10.5118
ಕೊಳ್ಳುತ್ತಾರೆ	-10.5118
▁ಭಾವಿಸುತ್ತೇವೆ	-10.5119
▁ಮಗುವಿನ	-10.5119
▁ಫಲಿತಾಂಶಗಳು	-10.5124
▁ರಾಜ್ಯದಲ್ಲಿ	-10.5125
ತನದ	-10.5126
▁ಟೈಪ್	-10.5129
▁ಪ್ರಜೆ	-10.5131
▁ಪರಾ	-10.5133
▁Jo	-10.5135
▁ಹೇಳಿದ್ದ	-10.5137
ach	-10.5139
ಿರಬಹುದು	-10.514
▁ಅನಿಲ	-10.5141
▁ವಿಧೇಯ	-10.5141
ani	-10.5146
▁ಸ್ತುತಿ	-10.5146
▁ಐಸ್	-10.5152
ಂಡಾ	-10.5156
▁ಚೀಟ್	-10.5163
▁ಇಸ್ರಾಯೇಲನ	-10.5164
▁ಮಾಡುತ್ತಿದ್ದ	-10.5164
▁ಭಯಪಟ್ಟು	-10.5164
▁ಕರೆಯಲ್ಪಡುವ	-10.5165
ಿಸುವದಕ್ಕೆ	-10.5165
▁ಮಾತನಾಡು	-10.5169
ಮೂಲ	-10.5175
ಷ್ಟೆ	-10.5177
▁ಳನ್ನು	-10.5177
▁ವರ್ಷಗಳಲ್ಲಿ	-10.5178
PR	-10.5178
bb	-10.5179
ವನ್ನೇ	-10.518
▁ಬಾಲ್	-10.518
▁ಮೇಲಿನಿಂದ	-10.5183
▁ಏನಾಯಿತಂದರೆ	-10.519
▁ಸೆಕೆಂಡು	-10.519
▁ಸ್ವಾತಂತ್ರ್ಯ	-10.519
▁ಸೌಕರ್ಯ	-10.519
▁ನೌಕರರ	-10.519
▁ಅನುಗುಣವಾಗಿ	-10.519
▁ಹೆಣ್ಣು	-10.519
▁Movie	-10.519
▁ಭಿನ್ನ	-10.5191
▁ಹೇಗಾದರೂ	-10.5191
▁ಸ್ವಚ್ಛ	-10.5192
tablet	-10.5198
{	-10.5209
▁ID	-10.5211
▁ಎಂಬದೇ	-10.5222
▁ಮಂದೆಯ	-10.5223
ref	-10.5223
▁ಮಾಸ್	-10.5224
▁ಪಾದಗಳ	-10.5224
್ಯನು	-10.5224
OD	-10.5225
▁ಕಳೆಯ	-10.5225
2000	-10.5226
ುತ್ತಿದ್ದರೆ	-10.5231
▁ಸೇವ	-10.5233
ುವಿಕೆಯನ್ನು	-10.5237
▁07:	-10.5237
ವನ್ನ	-10.5239
▁ಲೋಹ	-10.5243
▁ಎಲ್ಲವುಗಳ	-10.5245
▁ಸಿಕ್ಕಿದ	-10.5245
▁ನಡಿಸುವ	-10.5253
dd	-10.5254
▁ಯಾವನ	-10.5255
oop	-10.5256
▁ಪರಿಣಾಮಗಳನ್ನು	-10.5265
▁ಕಸ್ದೀಯರ	-10.5266
▁ಗೌಪ್ಯತಾ	-10.5266
▁ಜಾಕ್ಪಾಟ್	-10.5266
▁ಯೌವನಸ್ಥರ	-10.5266
▁ರೇಖಾಚಿತ್ರ	-10.5266
▁ಸ್ಟ್ಯಾಂಡರ್ಡ್	-10.5266
▁ಸ್ಪ್ರಿಂಗ್	-10.5266
▁ಚಲಾಯಿಸ	-10.5266
▁ಗ್ಲಾಸ್	-10.5266
▁ಹೇಗಂದರೆ	-10.5266
▁ಗೃಹ	-10.5266
▁ಪೂರಕ	-10.5266
ಸ್ಟನ್	-10.5266
▁ಅಂದೆನು	-10.5272
▁ಪಾನೀಯ	-10.5272
▁bo	-10.5272
▁ಸನ್ನಿಧಿಯಲ್ಲಿ	-10.5273
▁ಶಿವ	-10.5275
▁ಪೀಠ	-10.5277
▁130	-10.5277
▁Red	-10.5277
▁ನೀಡುತ್ತೇವೆ	-10.5278
ವಂತರ	-10.5278
▁ಬೆರ	-10.528
▁ಎಂಬದು	-10.5283
ಟೆಡ್	-10.5284
http	-10.5291
▁ಓವರ್	-10.5291
pack	-10.5293
▁ಬರುವದು	-10.5298
▁ಕುಗ್ಗಿ	-10.5302
▁ಮೌಲ್ಯವನ್ನು	-10.5306
▁ಚಿಪ್	-10.5309
▁ವಿಷಯದ	-10.5315
ib	-10.5316
▁ಹಾಲು	-10.5323
▁Top	-10.5325
ೆಲ್ಲವೂ	-10.533
ಿಸಿದಾಗ	-10.5334
▁ಉಳಿದವರ	-10.5337
▁ಪರಿವರ್ತಿಸ	-10.5338
ಗೊಳ್ಳುತ್ತದೆ	-10.5339
▁ವ್ಯಾಜ್ಯ	-10.5342
▁Quality	-10.5342
▁ಅಮೋರಿಯರ	-10.5342
▁ಒಬ್ಬರಿಗೊಬ್ಬರು	-10.5342
▁ಪೇಟೆಂಟ್	-10.5342
▁ಟ್ಯಾಂಕ್	-10.5343
▁ಪಂಚ	-10.5344
▁ಆಗಿದ್ದಾನೆ	-10.5345
0.9	-10.5345
phone	-10.5345
▁hack	-10.5346
ಹೀನ	-10.5347
▁ಮಾತನಾಡಲು	-10.5347
▁ನಿಖರವಾದ	-10.5354
▁ಕಿರಿಯ	-10.5355
ಸ್ಥಳ	-10.5357
▁ಈಗಿನ	-10.5361
ಬಳ	-10.5365
ವತಿ	-10.5368
ನಾನ್	-10.5371
▁ಹುಟ್ಟಿ	-10.5373
gh	-10.5374
CS	-10.5376
▁ಪಟ್ಟಣಗಳು	-10.5376
▁ಕೊಂಡನು	-10.5378
▁ಪಟ್ಟಣಗಳನ್ನು	-10.5379
ಕೈ	-10.5381
ction	-10.5382
▁ಪರಿಹಾರಗಳು	-10.5386
▁ಒಡೆಯ	-10.5386
▁On	-10.5387
▁ಇಪ್ಪತ್ತ	-10.5388
ahi	-10.5393
▁ಚಾಚ	-10.5393
wo	-10.5395
▁ಐಗುಪ್ತದೇಶ	-10.5396
▁ಮುರಿಯ	-10.5398
▁ತಂಡದ	-10.5399
650	-10.5399
ava	-10.5399
▁ಕೊಡಲ್ಪಟ್ಟ	-10.5401
ುವಿಕೆಯ	-10.5403
ದುರಾಗಿ	-10.5407
▁ನಿರೀಕ್ಷೆಯ	-10.5407
▁ಕ್ಸ	-10.5407
duct	-10.5415
▁ಅಶ್ಶೂರ	-10.5415
za	-10.5415
▁ತಿಳಿದುಕೊಳ್ಳುವ	-10.5417
ುತ್ತಿದ್ದೇವೆ	-10.5418
▁Gratuit	-10.5419
▁ಡೊಮೈನ್	-10.5419
▁ಇಂಡಸ್ಟ್ರಿ	-10.5419
▁ನೆಬೂಕದ್ನೆಚ್ಚರನ	-10.5419
▁ರಕ್ಷಕ	-10.5419
▁ಸಹಿತವಾಗಿ	-10.5419
▁ವಿಧವೆಯ	-10.5421
▁ಸೇಂಟ್	-10.5424
LD	-10.5429
▁ಕೆಡವಿ	-10.5432
▁ಸವಾಲು	-10.5439
▁ಒಯ್ಯ	-10.5439
▁ಕಲಾವಿದ	-10.5439
▁ನಾಳೆ	-10.544
▁ಸರ್ಪ	-10.544
ಸುವಿಕೆ	-10.5441
▁ಮಾಡಿದವರು	-10.5444
▁ಹುಡುಗಿಯರ	-10.5445
English	-10.5445
▁ಜಾತಿ	-10.5445
hr	-10.5449
ನ್ನಾಗಲೀ	-10.5458
▁ಆಕೆಯನ್ನು	-10.5458
▁ಮೊಲೆ	-10.5463
▁ಬದಲಾವಣೆಗಳನ್ನು	-10.5466
▁ಸ್ತ	-10.5467
▁ಕಿತ್ತು	-10.5469
▁ಉಪಯೋಗಗಳು	-10.5471
chat	-10.5473
med	-10.5474
light	-10.5475
▁SP	-10.5475
▁ಮಂಜೂಷ	-10.5475
▁ಗ್ರಾಹಕರು	-10.5476
▁ಅಂಗಳದ	-10.5478
▁ಶೆಕೆ	-10.5482
▁ಬೇಸಿಗೆ	-10.5488
▁ಒಬ್ಬನೇ	-10.5493
▁ನುಂಗಿ	-10.5494
▁00:	-10.5495
Pirater	-10.5497
▁ಸಿಎನ್ಸಿ	-10.5497
▁ಪೀಳಿಗೆಯ	-10.5497
▁ಯೆಹೋಷಾಫಾಟನ	-10.5497
▁ಅಬ್ರಾಮನ	-10.5497
ದ್ದನ್ನೆಲ್ಲಾ	-10.5499
ೊಬ್ಬನ	-10.5502
▁Piece	-10.5504
▁ಹೆಂಡತಿಯಾದ	-10.5504
ಗೊಳ	-10.5505
ೆಂಟ್	-10.5508
ild	-10.5509
LA	-10.5511
▁ಸೆಕ್ಸ್	-10.5513
▁ಸುಧಾರಿಸಲು	-10.5515
▁ಹಿಡು	-10.5516
▁br	-10.5523
ಕೊಳ್ಳು	-10.5524
ree	-10.5528
ಭೂತ	-10.553
▁ಸಮಯವನ್ನು	-10.5533
▁up	-10.5534
▁ಕಳುಹಿಸು	-10.5557
▁ಸೇರಿಸು	-10.5564
ಗ್ರಾಂ	-10.5564
▁ಸೋಮವಾರ	-10.5565
▁video	-10.5568
ಿದ್ದಾಳೆ	-10.5569
▁ಪ್ರತಿನಿಧಿ	-10.5572
▁ಅನಂತ	-10.5572
ಿಸಿದರೆ	-10.5572
▁ಉಜ್ಜ	-10.5573
ral	-10.5573
-2015	-10.5573
▁ಶಕ್ತಿಯನ್ನು	-10.5574
▁ಸಹೋದರರೂ	-10.5575
WysLuxury	-10.5575
▁TabletWise	-10.5575
▁ನಿರ್ವಹಣಾ	-10.5575
▁ಡೇಟಾಬೇಸ್	-10.5575
▁ಬೆಳಗಿನ	-10.5575
▁ಇಚ್ಛೆ	-10.5575
uenee	-10.5576
▁ಯೋಚನೆ	-10.5576
ದ್ದಲ್ಲ	-10.5576
▁ಹೀಗಿರುವದರಿಂದ	-10.5576
▁ಸಭೆಯಲ್ಲಿ	-10.5576
▁ನಿಗಮ	-10.5576
▁ಹೆಂಡತಿಯನ್ನು	-10.5576
▁ಬಿದಿರು	-10.5577
▁ಬಲಹೀನ	-10.5578
574	-10.5578
ಶ್ಚ	-10.5578
▁ಯೋಬನ	-10.5579
▁ಫರೋಹನು	-10.558
▁ಒಂದನ್ನು	-10.5582
ಯುತ	-10.5583
▁ಮಹಿಳೆಯರ	-10.5584
▁ಭಾವ	-10.5586
ei	-10.5593
ಾಗಿದ್ದಾರೆ	-10.5598
▁Ja	-10.56
▁ಜೂ	-10.56
▁ಮೇರೆಗೆ	-10.5612
▁ಪರಿಣಾಮಕಾರಿಯಾಗಿ	-10.5612
▁ಆಯೋಗ	-10.5615
▁ಪ್ರಾಣಿ	-10.5615
UR	-10.5616
ನೌ	-10.5617
▁El	-10.5617
▁ಮಕ್ಕಳಿಗೂ	-10.5618
▁ಮಾತುಗಳು	-10.5622
▁ಫೈಲ್ಗೆ	-10.5624
ಲಾಗ್	-10.5624
▁ನಗರದ	-10.5626
▁ಬೆಟ್ಟದಲ್ಲಿ	-10.5641
can	-10.5642
▁ಕತ್ತೆ	-10.5648
▁ಡ್ರೈ	-10.5651
▁ಗುರಾಣಿ	-10.5653
▁ವಿಸ್ಮಯ	-10.5653
▁ವಂದನೆ	-10.5653
▁ಕೃತ್ಯಗಳ	-10.5653
▁ಕವಾಟ	-10.5653
▁ಸುತ್ತಲಿರುವ	-10.5654
ಲ್ಲಾಗಲಿ	-10.5657
▁ಪ್ರಯಾಣಿಕರ	-10.5657
HS	-10.5659
rm	-10.5659
▁ಮಣ್ಣ	-10.5664
▁ಉತ್ತಮವಾದ	-10.5665
ನಾಗು	-10.5666
▁ಜನರೆಲ್ಲರೂ	-10.5671
▁ಹೇಳಿದರೆ	-10.5677
▁ಯೋಗ	-10.5678
▁ಎಣ್ಣೆಯ	-10.5682
Plane	-10.5683
▁Can	-10.5684
▁31,	-10.5686
#	-10.5687
▁ಓಡಿಹೋಗಿ	-10.569
▁ಅರಿತ	-10.5691
▁ತರಬೇಕು	-10.5694
ವಾಗುವಂತೆ	-10.5696
▁ಮಾಡಲಿಲ್ಲ	-10.5699
▁ಆಳವಾದ	-10.5701
▁ದತ್ತಾಂಶ	-10.5703
▁ಸಂಸ್ಥೆಗಳು	-10.5704
ಾತನೂ	-10.5706
ರಾಗಿದ್ದೇವೆ	-10.5706
$1	-10.5712
▁ಇಸಾಕನ	-10.5719
RS	-10.5719
▁ಬಲಿಯ	-10.5724
ನಿಶ್	-10.5727
▁ಹೆದರ	-10.5732
б	-10.5733
▁WordPress	-10.5733
▁unlimited	-10.5733
▁ತೀರ್ಮಾನ	-10.5733
▁ವರ್ಗವಿಲ್ಲದ್ದು	-10.5733
▁ಸ್ಟೇನ್ಲೆಸ್	-10.5733
▁ಭಿನ್ನತೆಗಳು	-10.5733
▁ಮುನ್ನೋಟ	-10.5733
▁ದಾರಿಯಲ್ಲಿ	-10.5733
▁ಮೈಕ್ರೋಸಾಫ್ಟ್	-10.5733
▁ಹೋರಾಡ	-10.5734
▁ಶಾಖೆ	-10.5737
▁ಅದಕ್ಕವನು	-10.5738
▁ಯಶಸ್ವಿಯಾಗಿ	-10.5738
▁ಯಾರಿಗೆ	-10.574
map	-10.5741
▁ಒಪ್ಪಿಸಿಕೊಟ್ಟ	-10.5741
▁ಏಳನೇ	-10.5741
▁ತಂದೆಗೆ	-10.5742
▁ಕಾನಾನ್ಯರ	-10.5743
▁ಲ್ಲದೆ	-10.5743
▁ಶ್ರೇಣಿಯ	-10.5747
ary	-10.5748
▁ವಾಸಿ	-10.575
▁ಅಡಗಿಸ	-10.5751
▁ವಿನ್ಯಾಸಗೊಳಿಸ	-10.5752
▁CHF	-10.5759
▁II	-10.5762
▁ಪರಿಣಾಮವಾಗಿ	-10.5762
▁ತಿಳಿದಿರ	-10.5767
▁Ka	-10.577
men	-10.5773
▁ಒಳ್ಳೇದು	-10.5774
ert	-10.5774
▁ಸಮ್ಮುಖ	-10.5776
225	-10.578
▁ಗಾದನ	-10.5781
▁ಕೂದಲಿನ	-10.5783
▁0.3	-10.5786
ಬೇಕಾದದ್ದೇನಂದರೆ	-10.5788
zer	-10.5789
eck	-10.5799
▁ಕೂಲಿ	-10.5805
▁ಕತ್ತಿಯನ್ನು	-10.5806
ನಗರ	-10.5806
▁ಸಾಧನಗಳು	-10.5812
▁ತಲೆಯನ್ನು	-10.5812
▁ರೂಬೇನನ	-10.5813
▁ವರ್ಚುವಲ್	-10.5813
▁ಸಾಹಿತ್ಯ	-10.5813
▁ಪರಿಮಳ	-10.5813
▁ಬೆಸುಗೆ	-10.5813
▁HGH	-10.5813
▁ಪ್ರಸಕ್ತ	-10.5814
▁ಹಿಂಸೆ	-10.5818
▁ಭಾವಿಸುತ್ತೇನೆ	-10.5818
▁ಯುದ್ಧದ	-10.5819
▁ವಧಿಸ	-10.5823
ಮಾರ್ಗ	-10.5824
▁ತಗ್ಗಿನಲ್ಲಿ	-10.5827
▁ನೀರಿನಲ್ಲಿ	-10.5828
ರಾಗಿರ್ರಿ	-10.5828
▁Ev	-10.5828
ಲೈಟ್	-10.5829
▁sex	-10.583
▁ಜು	-10.5834
▁ಡಿಜೆ	-10.5837
▁ಬಲಿಗಾಗಿ	-10.584
▁ಆರಂಭಿಸಲು	-10.5841
▁ರಾಜ್ಯವನ್ನು	-10.5848
▁ಬಾಧ್ಯತೆಯ	-10.5848
ಸಾಧ	-10.5851
bit	-10.5851
▁ಪದರ	-10.5856
▁2018-10-	-10.5857
ding	-10.5857
▁ನಿಖರ	-10.5859
▁ಇತರರು	-10.586
ಔಟ್	-10.5865
ಗಲ್	-10.5866
▁ನೆಂದು	-10.5868
▁ಕೊಡುವನು	-10.5871
▁ಕೆನಡಾದ	-10.5878
kar	-10.5882
▁ಮುಂದಾಗಿ	-10.5884
▁ಬುಧವಾರ	-10.5893
▁ಅಮ್ಮೋನನ	-10.5893
▁ವಲಸೆ	-10.5894
▁ಕೊನೆಯದಾಗಿ	-10.5894
▁ವಾಹಕ	-10.5894
ಭರಿತ	-10.5895
▁ಅಂಚಿನ	-10.5895
▁ಅಣು	-10.5895
▁ಹೇಳಬೇಕು	-10.5896
▁ಸಿಎಎಸ್	-10.5897
ತ್ತದೆ	-10.59
▁ಸಹಯೋಗ	-10.5902
ಾಪ	-10.5903
MB	-10.5909
▁ಮೀರಿ	-10.5909
▁ಕಿಟಕಿಯನ್ನು	-10.591
▁ಬರೆ	-10.5911
▁ಕರಗುವ	-10.5912
▁ತಿಳಿದಿದೆ	-10.5914
red	-10.5915
ಬೇಕೆಂದಿದ್ದ	-10.5915
▁ಅಹೀ	-10.5917
▁ಕೆವಿ	-10.5918
▁ಚೆಲ್ಲ	-10.5923
▁ವಾಟ್	-10.5923
▁ಉಸಿರ	-10.5923
ಚಲ	-10.5924
ini	-10.5936
text	-10.5936
▁ಹಿಜ್ಕೀಯನು	-10.5937
▁ಪ್ರತಿಯೊಬ್ಬನ	-10.5942
ets	-10.5942
▁ಟ್ರಿಪ್	-10.5943
ಮೋನನ	-10.5945
ಮಾನ್	-10.5946
▁ಮಗನೂ	-10.5947
CP	-10.5947
▁ನಾಡಿ	-10.5947
▁ಪಕ್ಷದ	-10.5948
▁ತಿಳಿದಿರುವ	-10.5952
▁ವಿಕಿ	-10.5958
▁ಸರಕಾರ	-10.5962
LT	-10.5968
▁HTTP	-10.5969
ವಾಯು	-10.597
▁೩	-10.5971
▁ಬೆಳಗ	-10.5973
▁My	-10.5974
▁115	-10.5974
▁December	-10.5975
▁ಜೀವದಾಣೆ	-10.5975
▁ಪ್ರೀಮಿಯಂ	-10.5975
▁ಬುಗ್ಗೆ	-10.5975
▁ಸಂವೇದಕ	-10.5975
▁ವೈರ್ಲೆಸ್	-10.5975
▁ಶುಕ್ರವಾರ	-10.5975
▁ಗಾಜಿನ	-10.5975
▁ಫಾರ್ಮುಲಾ	-10.5975
!!!	-10.5975
▁ಕ್ಲಿ	-10.5976
▁ಸೀರಿಯಲ್	-10.5976
▁ಸಮೃದ್ಧಿಯ	-10.5978
tube	-10.5979
▁ಉದ್ದೇಶಗಳಿಗಾಗಿ	-10.598
▁ಖಾತೆಯನ್ನು	-10.598
▁ಉಪದೇಶ	-10.5981
ಪೀ	-10.5982
▁ಬಹುಮಾನ	-10.5986
▁ಯೂದನ	-10.5987
-2016	-10.5988
▁ಯೇಸುವನ್ನು	-10.5989
▁ನಿನಗೂ	-10.5991
ಗೊಡಿಸ	-10.5993
▁ಯಾರಿಗೂ	-10.5993
▁ಪೌ	-10.5993
▁ನೀನೂ	-10.5993
▁ಸಂಚ	-10.5997
▁ವೃತ್ತಿ	-10.6004
FS	-10.6008
▁ಮೋಸಮಾಡು	-10.6008
▁ಸ್ವಾಧೀನಮಾಡಿ	-10.6009
file	-10.601
▁ಆಲಯವನ್ನು	-10.6012
▁ಹಾಸಿಗೆಯ	-10.6014
ಮಂಡಲ	-10.6019
▁ಆಪಲ್	-10.6019
ಿಲ್ಲವಾದರೆ	-10.602
▁ಓಡಿಹೋಗ	-10.602
▁ಪಿನ್	-10.6025
▁ತೆರ	-10.6028
▁ಹಂತದ	-10.6028
▁ಕಟ್ಟಿಗೆ	-10.6029
▁ನಿಯಮಗಳನ್ನು	-10.6029
▁ಕಸ	-10.603
▁ಸಿಂಹದ	-10.6032
▁ಲಾಗ್	-10.6033
▁ರಚಿಸಿದ	-10.6037
ಮೃತ	-10.6046
್ವಿ	-10.6047
qi	-10.6051
▁080	-10.6053
▁out	-10.6053
▁ಸಂಖ್ಯೆಯನ್ನು	-10.6054
▁Company	-10.6057
▁YouTube	-10.6057
▁ತಲಾಂತು	-10.6057
▁ಫ್ರೆಂಚ್	-10.6057
▁ಆಲೋಚಿಸ	-10.6057
▁ವಿಂಗಡಿಸ	-10.6057
ಪ್ಲಗಿನ್	-10.6057
▁ಓಪನ್	-10.6057
▁ಬೇಸರ	-10.6057
▁ಇನ್ನೊಬ್ಬ	-10.6057
▁Opera	-10.6058
▁ಶಾಸ್ತ್ರಿಗಳ	-10.6059
▁ಆರ್ಟ್	-10.6059
▁ಹೊಯ್ಯ	-10.6059
▁ಹೊರಗಿನ	-10.6059
ಬೇಕಾಗಿದೆ	-10.6065
▁ಹಂದಿ	-10.6066
▁Ab	-10.6072
▁ಜಿಬಿ	-10.6079
▁King	-10.608
BO	-10.608
▁ಸಂಯೋಜನೆಗಳು	-10.6083
name	-10.6083
▁ಕಡಿಯ	-10.6084
▁Best	-10.6085
▁ಹಿಡಿಯುವ	-10.6085
ada	-10.6088
▁ಹೇಳಿರಿ	-10.6088
▁ಕದಲ	-10.6095
▁Jun	-10.6095
▁ಅನ್ವಯಿಸ	-10.6097
ಕ್ಷೆ	-10.6097
ೌಂಡ್	-10.6098
▁ನಿತ್ಯವಾದ	-10.61
ಷ್ಟೇ	-10.6104
▁ಬಾಗಲುಗಳ	-10.6106
▁ನೀವ	-10.611
▁ಪರಿಹಾರಗಳನ್ನು	-10.611
▁ಮೌಲ್ಯಮಾಪನ	-10.6116
▁ಹುಟ್ಟುವ	-10.6116
▁1200	-10.6117
▁ಕೇಸ್	-10.6117
▁ಹಸಿದ	-10.6118
▁ಫಿಲಿಷ್ಟಿಯರು	-10.612
ುತ್ತೀಯೋ	-10.6123
▁gr	-10.6127
▁ಹುಟ್ಟಿದನು	-10.6128
rom	-10.6129
▁ಡೆಲ್	-10.613
▁ನಿಗೂ	-10.6131
▁NO	-10.6131
ಜೈ	-10.6132
▁ಸಮೃದ್ಧ	-10.6136
ೇಶ್ವರ	-10.6138
▁ಆಕರ್ಷಕ	-10.6139
▁ಎಸ್ತೇರಳ	-10.6139
▁ಫಿಟ್ಟಿಂಗ್	-10.6139
▁ವಯಸ್ಸು	-10.6139
▁ಶಿಲುಬೆಗೆ	-10.6139
▁ಸ್ಕ್ವೇರ್	-10.6139
▁ಎಷ್ಟರ	-10.6139
▁ರೋಲರ್	-10.614
▁ಗೈಡ್	-10.614
▁ಬೆಟ್ಟಿಂಗ್	-10.6142
bin	-10.6142
▁ಉತ್ಪಾದನೆಯ	-10.6143
▁ಬಿಚ್ಚ	-10.6146
▁Cl	-10.6148
ಕರಣ	-10.6149
▁ಎಲ್ಲರಿಗೂ	-10.615
▁ಆತ್ಮೀಯ	-10.615
uan	-10.6151
▁ವಿವರಗಳನ್ನು	-10.6151
▁ನಾಚಿಕೆಪಡ	-10.6153
ದಷ್ಟು	-10.6154
▁72	-10.6155
▁ಪ್ರಸ್ತಾಪವನ್ನು	-10.6155
▁ಹುಳ	-10.6157
▁ಪ್ಲೇಟ್	-10.616
▁ಪೂರೈಸಲು	-10.6162
▁ಪುರುಷರ	-10.6165
▁ಸಂತೋಷದಿಂದ	-10.617
▁ತಿನ್ನಬೇಕು	-10.6171
▁ಮೌನ	-10.6174
▁ಉಳಿಸಲು	-10.6182
▁ಯಾಜಕರೂ	-10.6187
ಹೋಯಿತು	-10.6189
▁ಬಾಧ್ಯ	-10.6196
ನಾಗಿದ್ದೇನೆ	-10.6197
▁ಕಡತಗಳು	-10.6198
೦೦	-10.6201
ler	-10.6202
▁ಮೆಚ್ಚ	-10.6208
ವಾಣಿ	-10.6221
▁ಎಂದರೇನು	-10.6223
▁ಎಸ್ಎಂಎಸ್	-10.6223
▁ಶ್ರೀಮಂತ	-10.6223
▁ಕೆತ್ತಿದ	-10.6223
▁ಮಲಗುವ	-10.6223
▁kr	-10.6225
▁ಮಿಕ್ಕಾದ	-10.6228
▁ಬೇಗನೆ	-10.6228
▁our	-10.623
▁Live	-10.6234
ಖಂಡ	-10.6236
▁ಬಳಸುತ್ತೇವೆ	-10.6238
▁ಸಂಬಂಧಿಸಿದಂತೆ	-10.6239
▁ಕಾಪಿ	-10.6239
ಕೊಳ್ಳಬಹುದು	-10.6241
8.00	-10.6241
nc	-10.6244
▁ಉಪಯೋಗ	-10.6245
ನ್ನಾಗಿಯೂ	-10.6246
▁ಮಧ್ಯೆ	-10.625
▁ಕೊಡುಗೆಗಳನ್ನು	-10.6251
▁ಘಟಕಗಳು	-10.6254
▁ಹೊಂದಲು	-10.6259
▁ಏನೋ	-10.626
▁ದೃಷ್ಟಿಗೆ	-10.626
ಿಯರ	-10.6263
yo	-10.6263
ಳ್ಳಿ	-10.6267
ku	-10.6271
ುವದಿಲ್ಲವೆಂದು	-10.6271
▁ನಿರ್ಮಿಸಲು	-10.6272
ಿದಳು	-10.6272
–	-10.6276
▁ಖಚಿತಪಡಿಸಿಕೊಳ್ಳಿ	-10.6276
ನಿಮಗೆ	-10.6276
▁ಶಾಂತ	-10.6282
▁ದೂರು	-10.6286
▁ಹೋಗಲಿ	-10.6288
ಕಾಯಿ	-10.629
▁Jin	-10.6295
Pieces	-10.6299
ಡಾರ್	-10.6301
IM	-10.6302
ನಾಗಿದ್ದು	-10.6306
▁ಸಂಪರ್ಕವಿಳಾಸ	-10.6307
▁ಅನುಯಾಯಿಗಳು	-10.6307
▁ಟರ್ಮಿನಲ್	-10.6307
▁ತಾತ್ಕಾಲಿಕ	-10.6307
▁ಬಿಳಾಮನ	-10.6307
▁ಮನುಷ್ಯಪುತ್ರನೇ	-10.6307
▁ಸಗಟು	-10.6307
ი	-10.6307
▁ಊಹಿಸ	-10.6309
▁ಶೀತ	-10.631
▁ಹೊರಟುಹೋಗಿ	-10.6312
▁ನಿನಗ	-10.6314
▁ಶಿಕ್ಷಕರ	-10.6318
▁ವೇರ್	-10.6319
▁ಪುನರ್	-10.6319
▁ಸುತ್ತಿಕೊಂಡ	-10.632
▁ಮಾಡಲಾಗುತ್ತಿದೆ	-10.6324
▁ಉಳ್ಳ	-10.6324
▁ಸೇರಿವೆ	-10.6326
▁ಬಯಸಿದ	-10.6328
▁ರೆಕ್ಕೆಗಳ	-10.6328
▁ಆದರಣೆ	-10.633
▁ಇಎ	-10.633
▁ಇಸ್ರಾಯೇಲನ್ನು	-10.633
cam	-10.6333
ಂದಾ	-10.6341
▁ಮಾರ್ಗಗಳನ್ನು	-10.6343
▁Hot	-10.6344
▁ಮಕ್ಕಳನ್ನೂ	-10.6347
tions	-10.6347
▁ಬರಲಿ	-10.6351
BS	-10.6356
ಝ್	-10.6357
▁ಆಂಟಿ	-10.6358
ಕೊಳ್ಳದೆ	-10.6369
▁ಇಕ್ಕಟ್ಟಿನ	-10.6369
▁ದುರ	-10.6373
▁ನೋಡಿರಿ	-10.6373
▁ಅಮೆರಿಕನ್	-10.6375
ene	-10.6379
▁ಡೇವಿಡ್	-10.638
qui	-10.6383
▁ಕಪ್ಪ	-10.6385
▁ಮಾಡಿದ್ದರಿಂದ	-10.6391
▁ರೆಸಲ್ಯೂಶನ್	-10.6391
▁ಪರಿಮಾಣ	-10.6391
▁about	-10.6391
▁ವಂಚನೆ	-10.6391
▁ಥ್ರೆಡ್	-10.6392
▁ಟೂಲ್	-10.6392
Lights	-10.6392
▁ಅಗ್ಗದ	-10.6393
RO	-10.6394
▁ಫ್ಲವರ್	-10.6395
▁ರೋಡ್	-10.6399
▁ಸ್ನೇಹಿತರು	-10.6399
ಗಳಿದ್ದವು	-10.6402
▁more	-10.6404
▁ಬಟ್ಟೆಗಳನ್ನು	-10.6405
▁ಕಡೇ	-10.641
▁ಕೋಪದ	-10.6412
▁ಮಾಡಿದ್ದೇನೆ	-10.6415
ಅವನ	-10.6416
▁ಅರ್ಥವನ್ನು	-10.6421
▁ಪಡುವ	-10.6421
▁ದೃಢ	-10.6421
▁ವೈದ್ಯರ	-10.6422
▁ಮದ್ಯ	-10.6431
▁10000	-10.6433
ಂಬ್	-10.6436
▁dis	-10.6438
▁ಇರಿಸು	-10.6438
ದೇವ	-10.6439
▁ಸಬ್	-10.644
▁ಟೆಲ್	-10.6443
▁ಹಂಚಿಕೆ	-10.6446
ಜಿಪ್	-10.6455
ಲ್ಪಟ್ಟವು	-10.6455
▁set	-10.6456
▁ದಿಕ್ಕಿನಲ್ಲಿ	-10.6458
▁ಹೇಳಿಕೆ	-10.6459
▁ತೆಗೆದ	-10.646
oll	-10.6461
rop	-10.6461
▁ಹಿಂಬಾಲಿಸಿ	-10.6461
ಚೋ	-10.6462
▁ಇರುವವು	-10.6463
ram	-10.6465
▁ಧರಿಸ	-10.6467
▁ಪಾಲುದಾರರ	-10.6468
ೆಕ್ಟರ್	-10.647
▁ಹೆಂಡತಿಯರ	-10.647
▁ಶೀಘ್ರ	-10.6476
▁Copyright	-10.6477
▁ಅಂಜೂರ	-10.6477
▁ಚಳಿಗಾಲ	-10.6477
▁ಮುಂದುವರಿಯ	-10.6477
▁ವಿಸ್ತಾರ	-10.6477
▁ಮಾತ್ರವಲ್ಲದೆ	-10.6477
▁ಆತಂಕ	-10.6477
▁ವಂಶಾವಳಿ	-10.6477
▁ಪವಿತ್ರಾತ್ಮನ	-10.6477
▁ಮೀನು	-10.648
▁ಅಶ್ಶೂರಿನ	-10.6481
ಾವಧಿ	-10.6482
▁ಇಲ್ಲವೇ	-10.6484
▁ಹೊರಡುವ	-10.6485
▁ಒಳಗೊಂಡಿರುವ	-10.6486
0.5	-10.6489
▁ಹಕ್ಕಿ	-10.6492
▁ನಿಷ್ಕ್ರಿಯ	-10.6495
▁ಕೌಶಲ್ಯ	-10.6495
ಫಲ	-10.6497
▁ಏರಿಯಾ	-10.6501
ಳಾದ	-10.6502
▁ಪರಿಶುದ್ಧವಾದ	-10.6503
ಡೇ	-10.6506
▁ಹರಿಯ	-10.6508
▁ಕಥೆಗಳು	-10.6514
ಸಿಟಿ	-10.6518
▁ಸಿಎಸ್	-10.6522
▁ಯೆಹೂದ್ಯ	-10.6523
ಹೊಂದಾಣಿಕೆ	-10.6533
ಮುಖ್ಯ	-10.6534
▁ಎತ್ತರವಾದ	-10.6539
2.2	-10.6547
kw	-10.6547
heng	-10.6547
▁ಚಿಂತೆ	-10.6547
mark	-10.6552
ವಾಗಿರಬೇಕು	-10.6552
▁ಬಂದರೆ	-10.6554
▁ಕಿರು	-10.6558
▁Rs	-10.6559
▁ವಿಷಯವಾದ	-10.656
г	-10.6563
з	-10.6563
▁ಸಭಾಮಂದಿರ	-10.6563
▁Service	-10.6563
▁ಇತ್ತೀಚೆಗೆ	-10.6563
▁ಎಂಜಿನಿಯರಿಂಗ್	-10.6563
▁ಮುಂದುವರಿದ	-10.6563
▁ಶನಿವಾರ	-10.6563
▁ಕ್ರೀಮ್	-10.6563
▁ಸ್ನಾಯು	-10.6563
▁ಕೀರ್ತಿ	-10.6563
▁ಅಡುಗೆ	-10.6563
▁ಖಚಿತವಾಗಿ	-10.6564
▁ದೇಶದಿಂದ	-10.6564
▁ಹಾಕಲ್ಪಟ್ಟ	-10.6564
count	-10.6565
▁ಕಟ್ಟಿದ	-10.6566
▁ಎಂಥ	-10.6567
▁ವಿನಂತಿ	-10.6569
rad	-10.6573
▁ಹೋಸ್ಟ್	-10.6573
▁ಆರೋನನು	-10.6573
▁ಹಚ್ಚ	-10.6579
ದ್ದೇನು	-10.658
ೊಂದಿಗ	-10.6581
ಬರ್ಗ್	-10.6582
ನೈಟ್	-10.6582
▁ಮಾಡುತ್ತಿರುವ	-10.6583
▁ಯೋಚಿಸಿ	-10.6583
▁ತೋರಿಸುವ	-10.6583
ಧರ	-10.6586
▁ನನಗೂ	-10.6588
gram	-10.6589
▁was	-10.6589
▁ಬೆಲ್	-10.6593
ನಾಗಿದ್ದ	-10.6598
▁ಮರೆತು	-10.66
▁sc	-10.6601
▁my	-10.6603
▁ವಿಧಿ	-10.6603
▁ಮಾಡುವುದ	-10.6607
ಾವಳಿ	-10.6608
="1	-10.6612
▁ಮರೆಯಬೇಡಿ	-10.6613
UI	-10.6616
▁ತಳ	-10.6618
▁ಕಾರಣದಿಂದ	-10.6619
▁ಮಕ್ಕಳೇ	-10.6621
ext	-10.6621
▁ಹಂಚಿಕೊಳ್ಳ	-10.6622
▁RO	-10.6629
▁ಸೂಚಿ	-10.6632
▁ಪ್ರಶ್ನೆಗಳು	-10.6634
▁ಮೇಯಿಸ	-10.6636
ium	-10.6637
ಮೌ	-10.6642
▁ಕಳೆದು	-10.6647
ಲಾರನು	-10.6648
▁ಮಾಡುತ್ತಾ	-10.6649
google	-10.665
▁ಅಂಕಿಅಂಶ	-10.665
▁ಚುನಾವಣೆ	-10.665
▁ಮೊರ್ದೆಕೈ	-10.665
▁ವಾದ್ಯಸಂಗೀತ	-10.665
▁ಗರ್ಭಿಣಿ	-10.665
▁ಲಂಡನ್	-10.665
▁ವರ್ಕರ್ಸ್	-10.665
▁ವಿಜೇತ	-10.665
▁ಸಂಭಾವ್ಯ	-10.665
▁Yobt	-10.665
mobile	-10.665
▁ಆಚರಣೆ	-10.665
▁ಕರುಣಿಸ	-10.665
▁ಭುಜ	-10.665
▁ಸಾವಿರಾರು	-10.665
▁ಹಗಲು	-10.6651
quot	-10.6652
▁ಅಪೊಸ್ತಲರ	-10.6653
▁ತೋರಿಸಲು	-10.6654
▁ಅಗತ್ಯಗಳನ್ನು	-10.6655
PCS	-10.6658
▁ತೋರಿ	-10.6658
iver	-10.6662
ile	-10.6662
▁ಬರುವಾಗ	-10.6664
▁Per	-10.6666
nu	-10.667
My	-10.6673
▁ಜ್ಞಾನಿಗಳ	-10.6677
▁ಮನವಿ	-10.6677
ಗೊಳ್ಳುವ	-10.6678
RT	-10.6679
▁ಪಾಪಮಾಡಿ	-10.6682
▁ಎತ್ತುವ	-10.6685
ಲ್ಪಡುವರು	-10.6688
▁ತಿಳಿದುಕೊಂಡ	-10.6689
▁ಭೂಮಿಗೆ	-10.6692
cap	-10.6695
ಿದ್ದಾನೆಂದು	-10.6696
▁Off	-10.6696
ನಾಥ	-10.6703
▁ಆಯ್ಕೆಗಳು	-10.6703
ೇರನ	-10.6704
▁ಮನಸ್ಸಿನ	-10.6708
ಿರಲು	-10.671
▁ಯೋವಾಬನು	-10.6716
▁ಪ್ರದೇಶದ	-10.6718
▁ಸಂರಚನಾ	-10.6719
▁ವಯಸ್ಕರ	-10.6722
▁ಮಾಡಿದ್ದೀ	-10.6722
ಿರುವದರಿಂದ	-10.6722
▁ಸ್ನೇಹಿತನ	-10.673
ುವದಿಲ್ಲವೋ	-10.6732
▁window	-10.6738
▁ಅಬೀಮೆಲೆಕನ	-10.6738
▁ತಡೆಗಟ್ಟ	-10.6738
▁ಕ್ರಿಸ್ಮಸ್	-10.6738
▁ಆಟಗಾರರು	-10.6738
▁ಬಜೆಟ್	-10.6738
▁ಬೂದಿ	-10.6738
▁ಸದಾಕಾಲ	-10.6739
▁ವರ್ಲ್ಡ್	-10.6739
▁ಯೇಲ್	-10.6739
▁ಮಹಾನಗರ	-10.674
▁National	-10.674
view	-10.6741
▁ಹೂಣಿಟ್ಟರು	-10.6748
ಲ್ಪಟ್ಟಿವೆ	-10.6749
▁ಕ್ರಾಸ್	-10.6758
▁3000	-10.676
▁UK	-10.6767
▁ಹೇಳಿದೆನು	-10.6767
▁ಬದಲಿಸ	-10.6768
▁ಯೆಹೂ	-10.6774
ze	-10.6774
▁ಬರಮಾಡಿ	-10.6779
ೆಂಬದನ್ನು	-10.6781
700	-10.6783
▁ಹಿಂದಟ್ಟ	-10.6785
avi	-10.6786
▁ರಚಿಸಿ	-10.6788
ಸ್ಕ್ರಿಪ್ಟ್	-10.6793
▁ಬೆಳೆ	-10.6799
train	-10.6801
▁ಪ್ಲ	-10.6802
▁21:	-10.6803
▁ಅಧಿಕಾರಿಗಳ	-10.6804
▁ನಾಶಮಾಡುವ	-10.6806
▁ಆಡು	-10.6808
▁ಪರವಾಗಿ	-10.6811
▁ರಕ್ಷಿಸಲು	-10.6812
ಬೆಳ	-10.6813
ಟೆಕ್	-10.6817
▁ಇದ್ದದರಿಂದ	-10.6818
▁Tu	-10.6818
ಂಬೆ	-10.6822
ala	-10.6822
▁ನೆಲೆಗೊಂಡಿ	-10.6822
cent	-10.6824
▁Copyshop	-10.6826
▁Omegle	-10.6826
▁ನೋಂದಾಯಿಸ	-10.6826
▁ದೇವದಾರು	-10.6826
▁check	-10.6827
▁ಶಾಸ್ತ್ರೀಯ	-10.6827
▁ವೈರಸ್	-10.6827
▁ಅಂಚು	-10.6827
▁ಆರ್ಭಟ	-10.6827
▁ವಿಫಲಗೊಂಡಿದೆ	-10.6827
▁ಇರಿಸಿಕೊಳ್ಳಲು	-10.6827
▁ಕುಮಾ	-10.6829
▁ಹೆಂಗಸ	-10.6829
▁ಪ್ರಕೃತಿ	-10.6831
▁ಕ್ಲಬ್	-10.6831
▁ಶಂಕರ	-10.6833
ುವವರೂ	-10.6837
▁GB	-10.6838
fu	-10.6841
▁ಮುಂ	-10.6841
▁ಗೊತ್ತು	-10.6842
▁ಇಟ್ಟುಕೊಳ್ಳ	-10.6843
ದಾದರೆ	-10.6845
▁ಹೆಚ್ಚಿಸಿ	-10.6845
▁ಖರೀದಿಸಲು	-10.6852
▁ಸಾಲಿನ	-10.6856
▁ಸಿಎಡಿ	-10.6861
▁=&	-10.6861
▁Viva	-10.6863
▁ಮಾಡಬೇಕೆಂದು	-10.6866
▁ತೆಗೆದುಹಾಕಿ	-10.6867
ಚಕ	-10.6867
▁ಬೈಕ್	-10.6868
ಪೈ	-10.6869
▁ನಿಮಗ	-10.687
▁ಅಂಟಿ	-10.6871
180	-10.6871
▁ತರಬೇತುದಾರ	-10.6872
star	-10.6874
bra	-10.6878
table	-10.688
ಬೇಕೋ	-10.6882
▁ಮನಸ್ಸಿ	-10.6885
pan	-10.6887
▁ಧ್ಯಾನ	-10.6889
▁ನೋಡಬಹುದು	-10.6891
▁ಹೇಳಿದ್ದೇ	-10.6896
ುವದಕ್ಕ	-10.6897
ಯಿಂಗ್	-10.6898
▁ತಿಳಿಯದೆ	-10.6899
rr	-10.6899
van	-10.6899
ಆತನು	-10.6906
▁ಕೂಡಾ	-10.6908
ö	-10.6916
▁Kazan	-10.6916
▁ಟ್ಯುಟೋರಿಯಲ್	-10.6916
▁ಪರಿವರ್ತಕ	-10.6916
▁HTML	-10.6916
▁ಚಿದ್ಕೀಯನ	-10.6916
▁ಪ್ರಾಯೋಗಿಕ	-10.6916
▁ಹೌಸ್	-10.6916
▁ದೃಢೀಕರಣ	-10.6917
▁online	-10.6918
boss	-10.6919
ರುವುದಿಲ್ಲ	-10.6919
hoo	-10.6919
▁ಬೀಚ್	-10.692
‍ಗಳ	-10.692
▁ಕೂಲಿಂಗ್	-10.6921
▁ಕಾಪಾಡಿ	-10.6922
ಸ್ಥರ	-10.6923
▁ಕರುಣೆಯು	-10.6923
▁ಮಟ್ಟಿಗೂ	-10.6924
▁Read	-10.6925
pg	-10.6925
▁May	-10.6928
▁ವಾಕ್ಯದ	-10.6932
▁ಯಂತ್ರೋಪಕರಣಗಳು	-10.6933
▁ಅರಮನೆಯ	-10.6933
ಫೋನ್	-10.6942
OT	-10.6949
IG	-10.6952
▁ಶೆಲ್	-10.6959
▁ಇಬ್ಬರ	-10.696
▁ಬಲ್ಲೆ	-10.6963
▁Comp	-10.6966
▁ದಾವೀದನನ್ನು	-10.6967
ಟೂ	-10.6971
▁ರಿಯಲ್	-10.6973
▁ಬಳಕೆಗೆ	-10.6974
▁ಭಯಪಟ್ಟ	-10.6974
▁ಮಕ್ಕಳಾದ	-10.6978
▁RM	-10.6979
FL	-10.6984
▁ತೋರಿಸಿದ	-10.6984
▁ಅಮ್ಮ	-10.6986
▁ಮುದ್ರಿಸ	-10.6989
▁ಪ್ರಕ್ರಿಯೆಯ	-10.6992
ಅಥವಾ	-10.6994
ik	-10.6997
ವಾದದ್ದನ್ನು	-10.6998
▁5000	-10.7002
▁ದುಷ್ಟತ್ವ	-10.7005
ುವದಾದರೆ	-10.7005
▁ತೊಳೆದು	-10.7006
▁ಪಾರದರ್ಶಕ	-10.7006
▁ಯುಗಯುಗಕ್ಕೂ	-10.7006
▁ಕ್ರಮವಿಧಿ	-10.7006
▁ಹೆಸರಿಟ್ಟನು	-10.7006
▁ಹೋರಾಟ	-10.7006
▁ಚಾರ್ಜರ್	-10.7006
▁ಫೀಡರ್	-10.7006
▁ಸ್ವಿಚ್	-10.7006
▁ಸೆರೆಮನೆಯ	-10.7006
▁ಬೋಯಿಂಗ್	-10.7007
Sky	-10.7009
▁ಮೇಜಿನ	-10.701
▁ಶ್ರಮೆ	-10.7012
▁ಮರಿಯ	-10.7015
▁ಸೂಕ್ತವಾಗಿದೆ	-10.7018
▁ಸ್ಮರ	-10.7019
▁ಇಸ್ರಾಯೇಲಿಗೆ	-10.7025
ley	-10.703
▁ಇಕ್ಕಟ್ಟ	-10.7031
▁000	-10.7034
▁ಆರಂಭದಲ್ಲಿ	-10.7037
▁ಕೃಪೆಯು	-10.7041
ವರ್ಗ	-10.7041
▁ಅಳೆಯ	-10.7044
link	-10.7045
▁ಮಾಜಿ	-10.7048
▁ನೀತಿಯು	-10.7049
▁ಕೂಡಿಸುವ	-10.7051
ಟ್ರಾ	-10.7051
ಲ್ಪಡುವದಿಲ್ಲ	-10.7056
ping	-10.7064
▁ತೊಡಗ	-10.7065
eas	-10.7067
ಲಾರಂಭಿಸಿ	-10.7069
GA	-10.7072
138	-10.7076
ಮೆನ್	-10.708
▁Ko	-10.7083
▁Or	-10.7088
▁ಅನ್ಯಜನಾಂಗಗಳ	-10.7089
UT	-10.7091
▁ಬೆನ್ಯಾವಿಾನ	-10.7095
▁Infinite	-10.7097
▁ಮುಂಜಾಗ್ರತೆ	-10.7097
▁ಸನ್ನಿವೇಶ	-10.7097
▁ಖರ್ಚು	-10.7097
▁ಡೊಮೇನ್	-10.7097
▁service	-10.7097
▁ಔಟ್ಪುಟ್	-10.7097
▁ಪರಕೀಯ	-10.7097
▁ಪ್ರತಿಷ್ಠೆ	-10.7097
▁ರಬ್ಬರ್	-10.7097
▁ಗ್ರೀನ್	-10.7097
▁ಚಾನಲ್	-10.7097
▁ಆದದ್ದೇನಂದರೆ	-10.7097
▁ಲೇಬಲ್	-10.7097
▁ಮಿರರ್	-10.7097
▁ಹೀಗಿರಲಾಗಿ	-10.7097
▁ನಿರ್ಮೂಲ	-10.7097
▁ಮೂಢ	-10.7098
▁ಮಹತ್ತ	-10.7098
▁Na	-10.7102
ನಂತರ	-10.7106
▁ಜಿಬಿಪಿ	-10.7108
ors	-10.7113
▁ಮೊದಲೇ	-10.7117
ಸ್ತ್ರೀ	-10.7119
▁5.5	-10.7123
▁ಪ್ರೀತಿಸುವ	-10.7124
▁ಬುದ್ಧಿಹೀನ	-10.7133
ವಲ್ಲದ	-10.7134
▁ಬಳಸು	-10.7136
ಲ್ಪಡುವವು	-10.7139
gan	-10.714
cho	-10.7141
▁ಮಾಡುವುದಿಲ್ಲ	-10.7141
0000	-10.7142
km	-10.7143
hua	-10.7153
▁ಹಾದುಹೋಗ	-10.7154
ಖ್ಯಾತ	-10.7156
▁ಮರಳು	-10.7158
▁ಬೆಡ್	-10.7158
▁ತಕ್ಕಂತೆ	-10.7169
▁ವೃದ್ಧಿ	-10.717
▁ಪ್ರಕಾರವೂ	-10.7171
▁ಕೂದಲ	-10.7173
▁ಪಾಪವನ್ನು	-10.7175
▁ಇಸ್ರಾಯೇಲ್ಯರನ್ನು	-10.7178
в	-10.7181
ы	-10.7183
TA	-10.7183
▁Welcome	-10.7187
▁ರಿಸರ್ಚ್	-10.7188
▁ಶಿಪ್ಪಿಂಗ್	-10.7188
▁ಇನ್ಪುಟ್	-10.7188
▁ಗ್ರೂಪ್	-10.7188
▁ಗಡಿಯಾರ	-10.7188
▁ಹೂಣಿಡ	-10.7188
▁ಜರ್ಮನ್	-10.7188
▁ಪೌಡರ್	-10.7189
▁ಸಾಹಸ	-10.7189
▁Yep	-10.7194
▁ಕಾಫಿ	-10.7198
▁ನೀಡಲಾಗುತ್ತದೆ	-10.7199
atercolor	-10.7201
▁(3)	-10.7203
▁ವಾಯ	-10.7204
▁ಖಂಡಿತವಾಗಿಯೂ	-10.7205
VAC	-10.7207
▁ರೇಸ್	-10.7214
▁ನೀನ	-10.7217
WS	-10.7222
▁ವೀಡಿಯೊಗಳನ್ನು	-10.7222
▁ಟ್ರಿ	-10.7224
ಕ್ಷಾ	-10.7225
▁dev	-10.7229
ವನಾಗಿದ್ದಾನೆ	-10.7239
3.0	-10.7239
ಫನ	-10.7241
▁ಹೆಸರಿನಿಂದ	-10.7242
▁CE	-10.7244
▁ಪ್ರಾಯ	-10.7247
▁ಬಡವನ	-10.725
▁4.0	-10.7251
▁ಸಂಪಾದಿಸಿ	-10.7259
ame	-10.7265
ous	-10.7265
▁ಮಾಡಬೇಡ	-10.7266
▁ಕೊಡುತ್ತೇನೆ	-10.7267
ಮಟ್ಟದ	-10.7269
ಬುಕ್	-10.7272
ART	-10.7272
▁ಪರಲೋಕದಲ್ಲಿ	-10.7273
▁ಕಟ್ಟುವ	-10.7274
▁ಉಪಕರಣಗಳನ್ನು	-10.7275
▁ಎಂಡ್	-10.7276
▁ದಾಳಿ	-10.7276
▁MYHH	-10.7281
▁ಸ್ಪರ್ಧೆ	-10.7281
ಚಪ್ಪಾಳೆ	-10.7281
▁ಕ್ಲೈಂಟ್	-10.7281
▁ನೃತ್ಯ	-10.7281
▁ಪಿಡಿಎಫ್	-10.7281
▁ನೇಮಕಾತಿ	-10.7281
▁ಮುತ್ತಿಗೆ	-10.7281
▁ತಂದೆಯನ್ನು	-10.7281
▁ಒಯ್ದ	-10.7282
▁ಇದಕ್ಕಾಗಿ	-10.7282
▁240	-10.7283
▁ಹಾಳಾದ	-10.7284
▁ಪ್ರಸ	-10.7287
ವಾದವುಗಳನ್ನು	-10.7287
▁ಬೇಟೆ	-10.7287
▁ಶಾಲಾ	-10.7288
ಭೋಗ	-10.729
▁ಬಾಧಿಸ	-10.729
▁ಮುಗಿಸ	-10.7292
▁ನೊಗ	-10.7292
ಬೇಕಾದರೆ	-10.7293
▁ಬಲವಾಗಿ	-10.7295
china	-10.7302
▁ಹೇಗ	-10.7308
▁ಬರೆದಿರುವ	-10.7308
ane	-10.7309
tai	-10.7309
▁ಅಭಿಷೇಕಿಸ	-10.7311
ಯಾಗಿತ್ತು	-10.7311
▁ಕುಣಿ	-10.7314
▁ತಿರುಗಿಸಿ	-10.7315
▁900	-10.7322
▁ಕಟ್	-10.7325
▁ವೈರಿಗಳ	-10.7326
▁ಮನೆತನ	-10.7328
MT	-10.7334
ಿರುವುದರಿಂದ	-10.7339
▁ವೈದ್ಯರು	-10.7341
▁Da	-10.7345
ಮೈಲ್	-10.7352
▁ಪರಿಚಯಿಸ	-10.7352
▁ಸದಾ	-10.7355
▁ಚೀಯೋ	-10.7356
▁ಟ್ರೆ	-10.7363
ಧ್ವ	-10.7365
▁ರಷ್ಟು	-10.7365
▁ಉಣ್ಣೆ	-10.7369
ten	-10.7369
▁ಅಕ್ರಮವನ್ನು	-10.7371
▁ತೋಳು	-10.7373
ಕೇಳಲು	-10.7373
ಸುಮಾರು	-10.7373
▁($	-10.7374
▁Changzhou	-10.7374
▁Published	-10.7374
▁ಅನುಮೋದನೆ	-10.7374
▁ಗುವಾಂಗ್ಡಾಂಗ್	-10.7374
▁ತಿರುಕ್ಕುಱಳ್	-10.7374
▁ಅಧಿಸೂಚನೆ	-10.7374
▁ಎದುರಿನಲ್ಲಿ	-10.7374
html	-10.7374
▁ನನಗೋಸ್ಕರ	-10.7374
▁FAQ	-10.7374
WHSR	-10.7375
ಫಿಲ್	-10.7375
▁ಟೇಪ್	-10.7375
TH	-10.7377
▁ಟೂರ್	-10.7378
▁ಲಕ್ಷ್ಯ	-10.7381
▁ಊಟಮಾಡ	-10.7381
▁ಬಾಬೆಲಿಗೆ	-10.7381
▁ಸಂಧಿಸ	-10.7385
III	-10.7386
▁180	-10.7386
▁ಸೇರಿಸಲಾಗಿದೆ	-10.7387
160	-10.7391
▁ಕಂಡೆನು	-10.7392
▁ಘೋಷಿಸ	-10.7392
▁ಎಲೆಕ್ಟ್ರಾನಿಕ್ಸ್	-10.7396
ಿಸುತ್ತಾರೆ	-10.7398
▁ತಪ್ಪಿಸಿಕೊಂಡ	-10.74
▁ಬೊಗ್ಗಿ	-10.7404
▁ಹೀಗಾಗಿ	-10.7405
▁ಅರ್ಪಿಸುವ	-10.7407
-28	-10.7411
▁ಕುಕೀ	-10.7412
▁ಉಲ್ಲೇಖಗಳು	-10.7414
▁ಉಷ್ಣ	-10.7416
▁ವಾಸಮಾಡುವ	-10.7417
▁ತಿಳುಕೊಂಡ	-10.7417
▁ಐಗುಪ್ತಕ್ಕೆ	-10.7418
▁ಮಲ	-10.7419
0.8	-10.7426
▁ಅವಧಿಯಲ್ಲಿ	-10.7427
▁350	-10.7431
235	-10.7435
ಹೋಗು	-10.744
▁ಹುಡುಕುತ್ತಿರುವುದ	-10.744
ವಾಗಿರಲಿ	-10.7444
cat	-10.7449
gn	-10.745
ise	-10.7451
▁ಕಟ್ಟು	-10.746
▁Up	-10.7461
▁ಸ್ಥಳದಿಂದ	-10.7462
▁ಚಟುವಟಿಕೆಗಳು	-10.7462
▁ಉಡುಪುಗಳು	-10.7463
sign	-10.7464
ಮಿನಲ್ಲಿ	-10.7464
▁Evolution	-10.7469
▁ಸರ್ವಶಕ್ತನ	-10.7469
▁ಅಬ್ನೇರನ	-10.7469
▁ನಡವಳಿಕೆ	-10.7469
▁ಪರಿಶೀಲನೆ	-10.7469
▁ಪ್ರಾಚೀನ	-10.7469
▁ಪ್ರಾಮಾಣಿಕ	-10.7469
▁ಮಾಲೀಕತ್ವ	-10.7469
▁ಚರ್ಚಿಸ	-10.7469
▁ವರ್ತಮಾನ	-10.7469
▁ಬಾಹ್ಯ	-10.7469
▁ಒಟ್ಟುಗೂಡಿ	-10.7469
▁ಕಂಡುಬಂದ	-10.7469
Ltd	-10.747
▁ಜಾನ್ಸನ್	-10.747
ಯಾವುದೇ	-10.7471
▁ದ್ದಾರೆ	-10.7471
▁ಹೊತ್ತುಕೊಂಡು	-10.7474
▁ನೋಹನ	-10.7475
Sales	-10.7476
▁ಓದುಗರ	-10.7476
▁ಕೊಳವೆ	-10.7479
▁ದಾಖಲೆಗಳು	-10.748
ಕಾರ್ಯ	-10.7484
▁ಅಸ್ತಿತ್ವ	-10.7484
▁ರಕ್ತವು	-10.7484
▁ದುಷ್ಟನ	-10.7485
NO	-10.7485
▁ಸುರಿಯ	-10.7486
755	-10.7489
▁ಪ್ರಕಾರವಾಗಿಯೂ	-10.7491
▁ಗುಡ್	-10.7493
▁ವ್ಯಾಟ್	-10.7496
ming	-10.7501
▁ಅಂದಾಗ	-10.7504
ಿಸುತ್ತವೆ	-10.7506
▁ಕಲಿತ	-10.7508
▁ದಂಡನೆ	-10.7512
▁ದಾಖಲ	-10.7514
▁NZD	-10.7514
▁ಬೆರಳು	-10.7519
▁ನ್ಯಾಯವನ್ನು	-10.752
ಶುರಾ	-10.7523
del	-10.7529
ಜೊ	-10.7535
▁ಬ್ಲ	-10.7535
▁ಸುಧಾರಿತ	-10.754
▁ಮಾರ್ಕ್	-10.7542
▁ವಿಧಾನವನ್ನು	-10.7549
▁ಕತ್ತರಿಸುವ	-10.7552
▁ದ್ರಾಕ್ಷಾರಸವನ್ನು	-10.7556
0-3	-10.7558
Ma	-10.7561
▁ಬಲವುಳ್ಳ	-10.7563
▁ಒಬ್ಬನೂ	-10.7563
▁ಮತ್ತೊಬ್ಬ	-10.7564
▁ಪಶ್ಚಾತ್ತಾಪ	-10.7564
Description	-10.7564
Private	-10.7564
▁ದೈಹಿಕ	-10.7564
▁ಫಿಟ್ನೆಸ್	-10.7564
▁ಫೆಬ್ರುವರಿ	-10.7564
▁ಸಂಭಾಷಣೆ	-10.7564
▁ಜೀಸಸ್	-10.7564
▁ಇಂಚು	-10.7564
▁ಪಾಸ್ವರ್ಡ್	-10.7565
ಾಗುವಂತೆ	-10.7566
▁ವೈಭವ	-10.7566
board	-10.7566
ಬುದ್ಧಿ	-10.7567
▁ಕೃತಿಗಳು	-10.7567
▁ಹಾಮಾನನ	-10.7568
▁ಪರಿವರ್ತಿಸಿ	-10.7569
▁ಬಳ್ಳಿ	-10.7571
▁ಬ್ರಷ್	-10.7574
▁ರೆಡ್	-10.7578
▁ಸಿಗುತ್ತದೆ	-10.7578
▁ಉದ್ದೇಶಕ್ಕಾಗಿ	-10.7579
▁ನಡೆ	-10.7579
▁ಗ್ರೇಡ್	-10.7579
▁ಕಾಮೆಂಟ್ಗಳು	-10.7581
▁ಮಹಿಳೆಯರಿಗೆ	-10.7583
▁Jet	-10.7587
▁ಮೆಗಾ	-10.7588
▁ಮಾಡಲಾಯಿತು	-10.7588
▁ಬರಲು	-10.7592
▁Mu	-10.7594
ಿಗಾದರೂ	-10.7604
▁ಸ್ಥಾನವನ್ನು	-10.7604
▁ಯೋನಾತಾನನ	-10.7605
▁ಸಮಾರ್ಯದ	-10.7607
▁ಆರಿಸಿಕೊಂಡ	-10.7608
▁ಜಿಮ್	-10.7613
▁ಹೇಳುವರು	-10.7615
ಈಗ	-10.7615
▁ಬಳಕೆದಾರರಿಗೆ	-10.7616
rate	-10.7616
▁ಕೆಜಿ	-10.762
HC	-10.7621
▁ಕ್ರೋ	-10.7622
ವಲ್ಲಾ	-10.7622
▁ಬೇಯಿಸ	-10.7624
▁ಕತ್ತೆಯ	-10.7628
▁ಹಾಳಾಗಿ	-10.7629
ರೋಗ	-10.7632
▁IE	-10.7637
ುವದಕ್ಕೋಸ್ಕರ	-10.7641
▁ಪುಸ್ತಕವನ್ನು	-10.7651
Dv	-10.7656
ದರ್ಜೆ	-10.7656
▁ಒಂದರ	-10.7657
▁ಎಚ್ಚರಿಸ	-10.766
▁ಬಾಗ	-10.766
▁ಉಂಗುರ	-10.766
▁ಸುಜುಕಿ	-10.766
▁ಏಷ್ಯನ್	-10.766
▁ಜನಸಮೂಹ	-10.766
▁ಮುಂಚಿತವಾಗಿ	-10.766
▁ಸಂರಚಿಸು	-10.766
▁Key	-10.7661
▁Charg	-10.7662
▁ಒಪ್ಪಿಕೊಳ್ಳ	-10.7663
▁ಒಂಟೆಗಳ	-10.7663
▁ಜಂಟಿ	-10.7664
▁3.5	-10.7666
▁ಐಗುಪ್ತದಲ್ಲಿ	-10.7667
▁ಬ್ಯಾಂಕ	-10.7668
▁ಕ್ಯಾಂಡಿ	-10.7668
▁ಯೆರೂ	-10.7669
ಿರಲಾಗಿ	-10.767
▁ಕೋರಿಕೆಯ	-10.7671
LL	-10.7671
▁Jan	-10.7672
▁ಪ್ರತಿರೂಪ	-10.7672
▁ಉಳಿಸಿಕೊಳ್ಳ	-10.7674
EM	-10.768
▁Bio	-10.7683
▁ಬಂದಿದ್ದ	-10.7684
ier	-10.7684
▁ಕಳೆದುಕೊಳ್ಳ	-10.7689
▁ಆನಂದಿಸ	-10.7692
ities	-10.7692
ati	-10.7693
ಲೆಂಡ್	-10.7694
145	-10.7694
▁ಅಸ್ವಸ್ಥ	-10.7696
▁ಆಜ್ಞಾ	-10.77
▁ಐಗುಪ್ತದಿಂದ	-10.77
▁ಆಶಿಸ	-10.7701
▁ಚಿಕಿತ್ಸೆಗಳು	-10.7702
▁ಹಾರುವ	-10.7712
ations	-10.7713
ಚೈ	-10.7716
▁ಹೋಗುವಾಗ	-10.7726
▁ಮೂವರು	-10.7727
▁ರೂಂ	-10.7735
ಾತನನ್ನು	-10.7736
▁ಎಸಿ	-10.7738
rit	-10.774
▁ಸುರಕ್ಷಿತವಾಗಿ	-10.7753
ರಿಯನ್	-10.7754
▁ರಕ್ಷಿಸುವ	-10.7754
uch	-10.7755
cal	-10.7755
▁Pay	-10.7756
▁ಮುಟ್ಟಿದ	-10.7757
▁ಹಚ್ಚಿ	-10.7757
▁ಆಮ್ಲಜನಕ	-10.7757
▁ಉಳಿತಾಯ	-10.7757
▁ಒಳಾಂಗಣ	-10.7757
▁ಸಮತೋಲನ	-10.7757
▁ನಿಭಾಯಿಸ	-10.7757
▁ಲಾಬಾನನ	-10.7757
▁ವ್ಯಸನ	-10.7757
View	-10.7757
▁ಕಾರ್ಯದರ್ಶಿಗಳ	-10.7758
▁ಷೇರು	-10.7758
▁ಚಿಂತಿಸ	-10.7759
▁ಚಲನೆ	-10.7761
▁ಸೆಟ್ಟಿಂಗ್	-10.7762
▁ಹ್ಯಾಕರ್	-10.7762
format	-10.7764
▁ಕೊರಿಯಾ	-10.7766
▁ತಕ್ಷಣವೇ	-10.7767
ili	-10.7768
▁ಮಾಸ್ಕ್	-10.7772
▁ಕೇಡಿನ	-10.7778
▁ಸಾಧಿಸಲು	-10.778
▁ನೆಲಕ್ಕೆ	-10.7784
SR	-10.7786
▁ರಚನ	-10.7787
▁ಅನ್ವಯಿಸು	-10.7787
▁has	-10.7789
▁ಪೂರ್ಣವಾಗಿ	-10.7789
▁ಅಧಿಕಾರಿಗಳು	-10.7789
ದಲ್ಲೇ	-10.779
▁ರವರೆಗೆ	-10.7793
▁ಲೆಕ್ಕಿಸ	-10.7795
▁ಹೆಂಡತಿಯಾಗಿ	-10.7798
▁ಜನರನ್ನೂ	-10.78
▁ಪೇತ್ರನ	-10.7801
▁ಸೂರ್ಯನು	-10.7802
ತೈ	-10.7804
350	-10.7807
▁ವಿಷಯವಾಗಿಯೂ	-10.7813
ಸ್ವಾಮಿ	-10.7814
▁ಪ್ರೋ	-10.7815
▁ಸ್ಥಳವು	-10.7817
▁ಮಾರ್ಪಡಿಸ	-10.7818
▁ಮೂಡ	-10.7824
▁ನೂಲು	-10.7827
▁ನಿರ್ಣಯಿಸ	-10.7832
ವಿಂಗ್	-10.7835
▁ಸಮಸ್ಯೆಗಳು	-10.7837
▁ಮುಚ್ಚುವ	-10.7842
6.0	-10.7845
▁WP	-10.7848
▁ಹಂತದಲ್ಲಿ	-10.7848
▁ಕುಳಿ	-10.7852
▁ಅಭ್ಯರ್ಥಿ	-10.7855
▁ಅಲ್ಯೂಮಿನಿಯಂ	-10.7855
▁ಎಲೆಕ್ಟ್ರಿಕ್	-10.7855
▁ಐಷಾರಾಮಿ	-10.7855
▁ಎಣ್ಣೇ	-10.7855
▁ದಯಮಾಡಿ	-10.7855
▁ಮಂಗಳವಾರ	-10.7855
▁ಇಟಲಿ	-10.7856
▁ಆಜ್ಞೆಯನ್ನು	-10.7856
▁ಹುಟ್ಟಿದರು	-10.7857
▁ಆಕಾಶದಿಂದ	-10.7857
▁ಕಣ್ಣೀರ	-10.7857
ual	-10.7857
▁ಬಿಸಾಡ	-10.7858
▁ಲೈಫ್	-10.7862
▁ಬಳಸುವುದನ್ನು	-10.7862
▁ತರಕಾರಿ	-10.7863
▁ಹೊಂದಬಲ್ಲ	-10.7863
▁ಜಾಲರಿ	-10.7864
▁ಕಟ್ಟಿಸಿದನು	-10.7864
ship	-10.7866
nes	-10.7867
New	-10.7867
(1)	-10.7869
▁ಮಾರಾಟಗಾರ	-10.787
ತಂತ್ರ	-10.7871
kanna	-10.7876
▁ಬಾರಿಗೆ	-10.7882
▁ಊರಿನ	-10.7882
▁Bill	-10.7883
▁ಪಟ್ಟಿಯಲ್ಲಿ	-10.7885
tre	-10.7885
▁ಹೊಂದಿದ್ದರೆ	-10.7886
▁Gh	-10.7893
▁ಊರ	-10.7894
▁ಅದಕ್ಕಾಗಿ	-10.7895
▁ಮಾಡುವದಕ್ಕೂ	-10.7896
▁ಘನಪಡಿಸ	-10.7897
▁ಮಾಡುತ್ತೀ	-10.7897
ಒಡೆಯನೇ	-10.7898
▁ತಾವೇ	-10.7902
ಲಿಂಗ	-10.7906
▁ವಿಷಯಗಳಲ್ಲಿ	-10.7919
▁ಜಾರಿ	-10.7923
▁MA	-10.7924
ಗೀ	-10.7931
▁ಸ್ಥಾನದಲ್ಲಿ	-10.7937
▁ಒಪ್ಪಿಸಿಕೊಡ	-10.7937
▁ಮಂಜೂಷದ	-10.7943
ಅಳಿಸಿಬಿಡು	-10.7945
▁January	-10.7954
▁OpenMandriva	-10.7954
▁ಆಳ್ವಿಕೆಯ	-10.7954
▁ಪೀಠೋಪಕರಣ	-10.7954
▁ಫೌಂಡೇಶನ್	-10.7954
▁ಡೈಮಂಡ್	-10.7954
▁SQL	-10.7954
▁ದೆಸೆಯಿಂದ	-10.7954
▁THB	-10.7954
▁ಕೀಲಿಕೈ	-10.7955
▁rich	-10.7955
ದಾಗ್ಯೂ	-10.7955
▁ಏಳನೆಯ	-10.7957
▁ವಂದಿಸ	-10.7957
▁ಪ್ರಾಕ್ಸಿ	-10.7958
▁ಒಂಟಿ	-10.796
▁ಪಾಠ	-10.796
▁ಪರೀಕ್ಷಾ	-10.7961
▁AS	-10.7961
▁ಶುದ್ಧೀಕರಣ	-10.7963
ಂಪು	-10.7969
ಂಶ	-10.797
▁One	-10.7973
ಾಗಿರಲಿ	-10.7975
FF	-10.7977
ature	-10.7978
DM	-10.7979
▁ಬಿಲ್ಲು	-10.7983
ಸ್ಥಿತಿ	-10.7984
ಶಿಪ್	-10.7985
▁ಪ್ರಾಯಶ್ಚಿತ್ತ	-10.7986
▁Page	-10.7986
▁ನಿರ್ಬಂಧ	-10.7987
▁ದರಗಳು	-10.7989
▁ಧರಿಸಿಕೊಂಡ	-10.7989
▁ಕಾಗದದ	-10.7993
ಷೀ	-10.7996
▁ತೆರೆದು	-10.7999
ಮಾಡಿದರು	-10.7999
▁ಸೇರುವ	-10.8
▁ಮೆಮೊರಿ	-10.8001
ಲ್ಪಡುತ್ತವೆ	-10.8003
▁ರಿಲೇ	-10.8005
2011	-10.8005
▁ಕ್ರಿಯೆಗಳು	-10.8009
▁ಅರ್ಹ	-10.8014
▁ಪಕ್ಕ	-10.8014
AY	-10.8015
▁Bar	-10.8018
ಕಾಶ	-10.8018
BA	-10.8018
IE	-10.8024
▁ಕಣ್ಣಿನ	-10.8025
▁ಅಡ್ಡಿ	-10.8025
ski	-10.803
▁ಅಳಿಸಿ	-10.8034
▁ದಹಿಸ	-10.8038
af	-10.8039
▁ಅಡಗಿ	-10.8045
tar	-10.8046
▁ಶಿಕ್ಷಕ	-10.8049
▁ಆತ್ಮವನ್ನು	-10.8052
▁ಟೆಂಪ್ಲೇಟ್	-10.8054
▁ವಿಂಟೇಜ್	-10.8054
▁ಬ್ರೌನ್	-10.8054
▁ಒಕ್ಕೂಟ	-10.8054
▁ಸತ್ತುಹೋದ	-10.8054
▁123456	-10.8055
pc	-10.8057
▁ಟಿಕೆಟ್	-10.806
▁ಸೈನ್ಯಾಧಿಪತಿ	-10.8063
▁ಪರಲೋಕದ	-10.8064
▁ಸ್ವಾಧೀನ	-10.8065
▁ತೋರುತ್ತದೆ	-10.8069
ವೃತ್ತ	-10.8071
▁ಸರ್ಕಾರಿ	-10.8072
▁ಬಲಿಯನ್ನು	-10.8072
ಮನೆ	-10.8073
▁ಪ್ರಾಯದ	-10.8076
▁SMS	-10.8076
▁ನಿರೀಕ್ಷಿಸಿ	-10.8078
▁ಅಪ್ಪಣೆಕೊಟ್ಟ	-10.8082
▁ಅಂತರ್	-10.8087
▁ರದ್ದು	-10.8089
▁(5)	-10.8089
ಷೂ	-10.809
▁ಮುಂದಕ್ಕೆ	-10.8092
zz	-10.8093
▁ಸ್ಥಳಗಳನ್ನು	-10.8106
▁ಟೆಲಿ	-10.8106
▁ಮರಿಗಳ	-10.8109
▁ಕೊಲ್ಲುವ	-10.8111
▁ಅಮೂಲ್ಯ	-10.8115
ಹೈ	-10.8121
▁ಸಾಲಿನಲ್ಲಿ	-10.8124
▁ಮರಿಯಳ	-10.8131
ಜೆನ್	-10.8134
▁ಉಳ	-10.8137
RL	-10.814
ments	-10.8143
ವನಾಗಿಯೂ	-10.8151
wysluxury	-10.8155
▁KPCL	-10.8155
▁Minecraft	-10.8155
▁ಥಾಮಸ್	-10.8155
▁ಸಂಕೀರ್ಣ	-10.8155
▁ಅಭಿಮಾನಿ	-10.8155
▁ಮರುಪಾವತಿ	-10.8155
▁ಯೋಷೀಯನ	-10.8155
▁ಶತಮಾನದ	-10.8155
▁tips	-10.8155
▁ಪೂರ್ತಿ	-10.8155
▁ಸಂಪರ್ಕತಟ	-10.8155
Rider	-10.8155
▁ಎಬಿ	-10.8156
▁ದೂರದರ್ಶನ	-10.8157
▁ಸಂಗತಿಗಳನ್ನು	-10.8157
▁ಪ್ರೆಸ್	-10.8157
▁This	-10.8158
▁ಅಧಿಪತಿಯಾದ	-10.8162
▁ಬೌ	-10.8163
▁ಮಾರ್ಗಗಳಲ್ಲಿ	-10.8172
▁ಕಳುಹಿಸುವ	-10.8173
▁ಲೇವಿಯರು	-10.8173
▁ಹೋಗೋಣ	-10.8174
▁ದುಷ್ಟತನ	-10.818
▁It	-10.8182
▁ಗುಣಮಟ್ಟವನ್ನು	-10.8183
ಗಳಾಗಿದ್ದವು	-10.8187
▁ಹೆಸರುಳ್ಳ	-10.8188
▁ಎಫ್ರಾಯಾಮ್	-10.819
▁160	-10.8191
▁ಬೆಳಕನ್ನು	-10.8192
▁ಕ್ರಿಯೆಗಳನ್ನು	-10.8193
ಿಬ್ಬರ	-10.8193
ಟಿಸಿ	-10.8198
ಮಕ್ಕಳ	-10.82
▁ಮೊಳೆ	-10.8201
list	-10.8201
▁ಇಂಕ್	-10.8203
▁ಕುಳಿತ	-10.8205
lor	-10.8207
▁ಗೆದ್ದ	-10.8209
▁ಮುರಿದ	-10.8211
▁ಕಿಟಕಿಯಲ್ಲಿ	-10.8214
▁ಹಿಜ್ಕೀಯನ	-10.8216
▁ಹಾಳಾಗ	-10.8216
▁ಎಲೆಗಳು	-10.8219
ಾಗಲೂ	-10.8219
▁ನಡಿಸಿದ	-10.822
▁ಸುಂದರವಾದ	-10.8225
▁ತೂ	-10.8225
▁Bra	-10.8228
▁ಕ್ರೆಡಿಟ್ಸ್	-10.8236
ica	-10.8238
days	-10.8241
▁2003	-10.8242
▁ಕಟ್ಟಿಸ	-10.8254
medicine	-10.8257
▁Instagram	-10.8257
▁ಕಾಕ್ಪಿಟ್	-10.8257
▁ಪ್ರಾಜೆಕ್ಟ್	-10.8257
▁ಮಾನಸಾಂತರ	-10.8257
▁ರೆಕಾರ್ಡ್	-10.8257
▁ಸಾಂಸ್ಕೃತಿಕ	-10.8257
▁ತಾಳ್ಮೆ	-10.8257
▁ಪ್ರವೃತ್ತಿ	-10.8257
▁ಫ್ಲಾಟ್	-10.8257
▁ಮುಖ್ಯಾಂಶಗಳು	-10.8257
▁ನೆರಳ	-10.8258
▁ಎಂಬುದರ	-10.8258
▁ಪ್ರಕರಣ	-10.826
▁ಪ್ರೇಕ್ಷಕರ	-10.8261
SGD	-10.8261
▁ಕುಷ್ಠ	-10.8262
▁ಶಬ್ದವು	-10.8271
▁ದ್ರವ್ಯ	-10.8271
▁GST	-10.8273
▁ಮಾನ್ಯತೆ	-10.828
ಬೋರ್ಡ್	-10.8283
▁ಹೊಂದಿದ್ದಾರೆ	-10.8283
ನನಗೆ	-10.8288
▁bet	-10.8292
▁ಮನೆಯಿಂದ	-10.8293
201	-10.8293
ಕ್ಕೇ	-10.8301
▁ಗೇರ್	-10.8306
▁Apps	-10.8312
▁ಪ್ರಾಣಿಗಳ	-10.8312
▁ಪ್ರಾರಂಭಿಸಲು	-10.8313
ಕಾರಕ	-10.8314
ಕೊಳ್ಳುತ್ತದೆ	-10.8316
ಮಾಡಿದನು	-10.8326
▁ಅಭಿಷೇಕ	-10.8327
▁ಆದದ	-10.8335
▁ಮೊರೆ	-10.8342
ದಿಂದಲೇ	-10.8342
▁ಹೆಚ್ಚಿಸುವ	-10.8345
new	-10.8345
▁Slot	-10.8347
▁ಮಂದಿಯನ್ನು	-10.835
▁ಜನರೇ	-10.8351
▁ಪ್ರಮಾಣಪತ್ರವನ್ನು	-10.8351
▁ಯಶಸ್ವಿ	-10.8353
▁ಮುಚ್ಚು	-10.8354
pol	-10.8355
ಇನ್ಸ್ಟಿಟ್ಯೂಟ್	-10.836
▁Jizerou	-10.836
▁Piwigo	-10.836
▁SlotJar	-10.836
▁episode	-10.836
▁years	-10.836
▁ಚಾದೋಕನ	-10.836
▁ಪ್ರಾತಿನಿಧ್ಯ	-10.836
▁ಇದೀಗ	-10.836
▁ಮಾಡ್ಯೂಲ್	-10.836
▁ಜೇಮ್ಸ್	-10.836
▁ಎಲ್ಲಾಜಾರನ	-10.836
▁ಉಪ್ಪು	-10.8361
▁ಕ್ಷಾಮ	-10.8361
▁ದುರ್ಬಲ	-10.8361
▁ಮುಂಬೈ	-10.8361
▁ನಿತ್ಯಜೀವ	-10.8362
▁ಒಳಗಿನ	-10.8362
▁ನಲ್ಲಿರುವ	-10.8363
▁ಅನುವು	-10.8366
▁ಪೌಂಡ್	-10.8366
▁ಔಷಧೀಯ	-10.8367
ುತ್ತೇನೆಂದು	-10.8369
▁ಕೇಳಿದೆನು	-10.8373
We	-10.8373
▁ಫ್ಲೋ	-10.8373
▁ಜನಾಂಗಗಳು	-10.8379
▁ದೇಶದೊಳಗಿಂದ	-10.8379
▁ಕುಂಟ	-10.8382
▁user	-10.8382
▁ಮಿಕ್ಕ	-10.8384
ಮಣಿ	-10.8385
Color	-10.8386
▁San	-10.8393
▁ಪಾಪಗಳನ್ನು	-10.8393
▁ಎಚ್ಚರಿಕೆಯಿಂದ	-10.8393
▁ಪೆಟ್	-10.8398
▁ತ್ತಾರೆ	-10.84
▁ನೀಡಬಹುದು	-10.8404
iva	-10.8405
ುತ್ತಿದ್ದಾಗ	-10.841
▁ತಿಂಗಳಲ್ಲಿ	-10.8411
▁ಭಯಂಕರ	-10.8412
▁ರೆಲ್ಲರ	-10.8418
ಷೇ	-10.8424
▁ಪ್ರಮಾಣಮಾಡಿದ	-10.8427
ection	-10.8428
▁ಚೋ	-10.8433
▁ಫಲಿತಾಂಶಗಳನ್ನು	-10.8435
ವನಿಗೂ	-10.8435
ದನ್ನೆಲ್ಲಾ	-10.846
▁ನಡೆದುಕೊಳ್ಳ	-10.8461
ಹಣ	-10.8462
ುತ್ತಿದ್ದೆ	-10.8463
ಮೂರು	-10.8464
▁ವಾಲ್ಪೇಪರ್	-10.8465
▁Energy	-10.8465
▁ಪಾರಿವಾಳ	-10.8465
▁ಹೊರಾಂಗಣ	-10.8465
▁ಕ್ರಿಯಾತ್ಮಕ	-10.8465
▁ಯೋಜಿತ	-10.8465
▁ತೊರೆದು	-10.8465
▁ಕಿನ್ನರಿ	-10.8465
▁ವಿತರಕ	-10.8465
▁ದುಬೈ	-10.8465
ಿಗರಂ	-10.8465
▁ಸಮ್ಮತಿ	-10.8465
▁ವಿತರಿಸ	-10.8466
▁Porn	-10.8467
▁ದುರ್ಗ	-10.8469
▁ಒಬ್ಬನಾದರೂ	-10.8472
▁ನಿಂತುಕೊಂಡು	-10.8473
▁ಬೆಂಕಿಯು	-10.8475
▁ಬೇಸಿಗೆಯಲ್ಲಿ	-10.8477
▁PRO	-10.8478
▁ಕರೆಯುವ	-10.848
▁ಇಡುವ	-10.8482
▁ರಜಾದಿನಗಳು	-10.8483
Out	-10.8486
ಾಧಿಕಾರಿ	-10.8486
▁ನೀತಿವಂತನು	-10.8489
url	-10.8491
▁ನೀವೂ	-10.8496
್ಯರೂ	-10.85
▁ತಜ್ಞರು	-10.8503
▁ವಿವರವಾದ	-10.8506
▁ಪ್ರಧಾನರು	-10.8508
▁ಕೇಂದ್ರಗಳಲ್ಲಿ	-10.851
▁ಹೇಳಿದ್ದಾನೆ	-10.8511
▁ಉಪಶೀರ್ಷಿಕೆ	-10.8514
▁ಸ್ವೀಕರಿಸಲು	-10.8517
▁Star	-10.8519
▁230	-10.8522
▁ಯೋನಾತಾನನು	-10.8525
HA	-10.8531
▁ಇಳಿದ	-10.854
0.3	-10.8549
▁ಅಂಕಗಳನ್ನು	-10.8549
ಹೊಂದಿ	-10.8555
▁ಕೌಶಲ್ಯಗಳ	-10.8556
▁ಕಲಿಕೆ	-10.8556
▁ಸೃಷ್ಟಿ	-10.8557
▁ದಂಡಿನ	-10.8557
▁ಬೆಂಬಲವನ್ನು	-10.856
ಾಶೆ	-10.8562
review	-10.8565
▁ಪ್ರಕ್ರಿಯೆಯನ್ನು	-10.8566
▁ಪರಾಕ್ರಮಶಾಲಿಗಳ	-10.8566
▁ಐಎಸ್ಒ	-10.857
▁ನಿರ್ಗಮಿಸ	-10.857
▁ಬೇತ್ಲೆಹೇಮ	-10.857
▁ಭೋಜನ	-10.857
▁ಕಸೂತಿ	-10.857
▁ಅಮಾನ್ಯ	-10.857
ಐಡಿಯಾಸ್	-10.8571
▁ರಿಟರ್ನ್	-10.8571
ಫೀಲ್ಡ್	-10.8571
▁Clash	-10.8571
▁ದೇವಸ್ಥಾನ	-10.8573
▁ಸೆಳೆಯ	-10.8574
▁ಕ್ರಷ್	-10.8577
▁Flight	-10.8577
▁ದೃಷ್ಟಿಸ	-10.8578
▁ಸ್ಟೀಮ್	-10.8578
ಾಬಾದ್	-10.8578
▁(4)	-10.8583
▁ಕೋಪವನ್ನು	-10.8591
▁ಎಲ್ಲಾದರ	-10.8594
▁ಹೀರ	-10.8595
▁ಮಾಡಬೇಕಾದ	-10.8597
▁ಗಿಲ್ಯಾದಿನ	-10.8601
▁ರೋಸ್	-10.8604
ದಕ್ಷಿಣ	-10.8605
ವಾಗಿರುತ್ತವೆ	-10.8605
ದ್ದಾನೆಂದು	-10.8605
ದರ್ಶನ	-10.8608
▁ಸುವಾರ್ತೆಯ	-10.8609
▁ಕೀಪ್	-10.8611
1.2	-10.8612
▁ನೆಡ	-10.8616
ಾಗಲೇ	-10.8618
▁ಸಮುವೇಲನ	-10.8621
▁ತುಳಿ	-10.8624
▁ಅಂಟು	-10.8627
SO	-10.8628
▁ಕಾಣಿಕೆಯನ್ನು	-10.8632
▁ಇರುವಾಗ	-10.8634
Show	-10.8636
ify	-10.8636
ನ್ವಯ	-10.864
▁ಸುಟ್ಟ	-10.8641
▁ಸಾಗಿಸ	-10.8646
▁ಕೌ	-10.8648
ಅಂಗಡಿಯಲ್ಲಿ	-10.8652
ಕೊಟ್ಟು	-10.8655
▁ಹಾಕಿದನು	-10.8655
▁ಪ್ರಾಣಕ್ಕೆ	-10.8655
▁ಸ್ವರವನ್ನು	-10.8657
▁ಷ್ಯನ	-10.8657
ಕೊಂಡಿದ್ದೇನೆ	-10.8658
▁ಯೋಜನೆಯನ್ನು	-10.8658
▁ಕಂಡುಹಿಡಿಯ	-10.8659
▁ತಪ್ಪಿಸುವ	-10.866
▁ಮಟ್ಟದಲ್ಲಿ	-10.8666
▁Mac	-10.8668
▁ಹೋದಾಗ	-10.8671
ಮನಿ	-10.8671
▁ಸ್ಟೇ	-10.8673
▁ಕುಂದಿ	-10.8674
▁ಖಿನ್ನತೆ	-10.8676
▁ದಶಮಾಂಶ	-10.8676
▁24*7	-10.8676
▁ದುಬಾರಿ	-10.8676
▁ಪ್ಲಾಸ್ಮಾ	-10.8676
▁ನಮಗೋಸ್ಕರ	-10.8676
▁ಜಾರತ್ವ	-10.8676
▁DVD	-10.8676
▁ಕೊಬ್ಬಿನ	-10.8677
▁ಹಗುರ	-10.8678
direct	-10.8679
▁ಬಯಸುತ್ತೀರಿ	-10.868
▁ರೂಪಾಂತರ	-10.868
▁ಕಡಿತ	-10.8681
▁bug	-10.8682
▁ಯೋಹಾನ	-10.8686
▁ವ್ಯರ್ಥವಾದ	-10.8686
▁ಬಾಯಲ್ಲಿ	-10.8689
▁ಎಎಮ್	-10.8691
▁ಮೇಜು	-10.8693
ುವಿಕೆಯು	-10.8695
▁ಬಳಿಯಲ್ಲಿರುವ	-10.8696
ತ್ರಾ	-10.8697
ಕೊಳ್ಳಲಿ	-10.8698
▁2002	-10.8698
▁HQ	-10.8701
▁ವಿದ್ಯಾರ್ಥಿಗಳಿಗೆ	-10.8701
▁ಹಾಂಗ್	-10.8702
now	-10.8705
▁ಮತ್ತೊಬ್ಬನ	-10.8705
▁ಕಳೆದುಕೊಂಡ	-10.8709
▁ವಿಧವಾದ	-10.8712
▁ಕಂಡುಬರ	-10.8714
▁ತಪ್ಪಿಸಲು	-10.8719
▁ವಂಶ	-10.8728
▁ಬರುತ್ತಾನೆ	-10.8731
sun	-10.8741
GL	-10.8743
▁ಆರಂಭಿಸಿ	-10.8744
▁ಪಾಳೆಯ	-10.8744
▁ಟಗರುಗಳ	-10.8748
▁ಸ್ಥಿತಿಯನ್ನು	-10.8751
▁ದೀರ್ಘಕಾಲದ	-10.8751
▁ವರ್ತಿಸ	-10.8756
▁ಜನಾಂಗಗಳನ್ನು	-10.8756
ಾಗಿದ್ದೇನೆ	-10.8765
ALL	-10.8767
ಲ್ಪಡಬೇಕು	-10.8768
▁ಪರಿಷ್ಕ	-10.8769
ಜೋ	-10.877
▁ಉತ್ಪಾದಕ	-10.8772
emb	-10.8773
▁ತುಂಬಿಸ	-10.8774
▁ಲೆಗ್	-10.8776
0.2	-10.8783
Uncategorised	-10.8784
▁ತ್ಯಾಜ್ಯ	-10.8784
▁ಯೌವನಸ್ಥನ	-10.8784
▁ಶುಭಾಶಯ	-10.8784
▁February	-10.8784
▁casino	-10.8784
▁ಅಕಾಡೆಮಿ	-10.8784
▁ಅಗತ್ಯವಿರುತ್ತದೆ	-10.8784
▁ದಿಕ್ಕಿಲ್ಲದ	-10.8784
▁ದ್ರಾಕ್ಷೇತೋಟ	-10.8784
▁ವರ್ಣರಂಜಿತ	-10.8784
▁ಗೊಂದಲ	-10.8784
ಇಂಟರ್ಫೇಸ್	-10.8784
▁ಸಿನಿಮಾ	-10.8784
▁ಹಳೇ	-10.8784
▁ಶೂನ್ಯ	-10.8784
▁ನಾಲ್ಕನೆಯ	-10.8785
cz	-10.8785
▁ಜಾಲಬಂಧ	-10.8786
ತಾಪ	-10.8786
▁ಪರಾಕ್ರಮಶಾಲಿ	-10.8787
▁ತೊಟ್ಟಿ	-10.8789
▁ನಿಗದಿತ	-10.879
▁ಕಾರಣವಾಗುತ್ತದೆ	-10.8793
▁ನೋಡಿದೆನು	-10.8794
▁ನಿಮಗೂ	-10.88
▁ಹಿಟ್ಟು	-10.8804
▁ಹೆಚ್ಚಿಸುತ್ತದೆ	-10.8804
▁ಖ್ಯಾತಿ	-10.8805
▁ಹುಡುಗನ	-10.8808
▁ಸಹಸ್ರ	-10.8811
ade	-10.8812
▁ತರಲು	-10.8819
ದಿದ್ದರೂ	-10.8823
kin	-10.8831
Free	-10.8833
▁ಗುಪ್ತಪದದ	-10.8834
▁ಬೋಧಕ	-10.8835
▁ಪ್ರೇಮಿಗಳ	-10.8839
▁ಉಪಶೀರ್ಷಿಕೆಗಳು	-10.8841
▁Sch	-10.8846
utt	-10.8847
▁ಗವಿಯ	-10.8848
ಗಿನ	-10.885
▁ತುಂಡ	-10.8853
ಂತಿರುವ	-10.8853
▁ಕನಿಕರ	-10.8855
▁ಕೇಕ್	-10.8855
▁ಮನ್ನಿಸ	-10.8857
▁ಮಾಡುವದಿಲ್ಲ	-10.8858
868	-10.8861
▁ಪದ್ಧತಿಯ	-10.8875
▁ನಡಿಸಿ	-10.8882
▁ನೆರವೇರಿಸ	-10.8888
▁ಪೆನ್	-10.8891
▁ಆತ್ಮನ	-10.8891
Unthank	-10.8892
▁September	-10.8892
▁ಡಿಫ್ಯೂಸರ್	-10.8892
▁ದಶಲಕ್ಷ	-10.8892
▁ಮಹಿಳಾ	-10.8892
▁ವಾಸ್ತವಪ್ರಾಯ	-10.8892
▁ವೀಡಿಯೋ	-10.8892
▁ಸಂಪ್ರದಾಯ	-10.8892
▁ಸಾಧಾರಣ	-10.8892
▁ಸುಮ್ಮನೆ	-10.8892
▁ಕನಿಷ್ಟ	-10.8892
▁ಕನೆಕ್ಟರ್	-10.8892
▁ಸ್ಪೇನ್	-10.8892
▁ಹೆಮ್ಮೆ	-10.8893
▁ಚಾರ್ಜ್	-10.8893
▁ಪ್ರಪಂಚದಾದ್ಯಂತ	-10.8893
▁ನಿನಗೋಸ್ಕರ	-10.8894
▁ತರ್ಕ	-10.8894
▁ವೆಸ್ಟ್	-10.8894
▁ಬಂಧನ	-10.8894
▁what	-10.8895
▁Java	-10.8896
▁ಹಿಂಭಾಗ	-10.8896
▁ಟ್ರಾನ್ಸ್	-10.8897
▁ಟ್ರಸ್ಟ್	-10.8897
▁ಯುಎಸ್ಬಿ	-10.8899
▁ಫೋಟೋಗಳನ್ನು	-10.8899
▁ಹೆಚ್ಚುವರಿಯಾಗಿ	-10.8904
▁ರಾಶಿ	-10.8906
▁ಗಂಜಿ	-10.8908
▁ಉಬ್ಬ	-10.8909
▁ಸುಡಬೇಕು	-10.891
▁ಹೊಂದಿತ್ತು	-10.891
▁ದಂತ	-10.8911
ient	-10.8913
▁ಸೂರೆ	-10.8913
▁ಎಫ್ರಾಯಾಮ	-10.8914
ಬೆಂ	-10.8915
ದ್ದಾಳೆ	-10.8916
ಿಸುತ್ತಾ	-10.8918
▁ಮೆಚ್ಚಿಕೆ	-10.892
▁ಕೆಡವ	-10.8921
ole	-10.8922
TI	-10.8923
▁ಪಾಲ್	-10.8926
▁ಬಳಕೆಯನ್ನು	-10.8926
ಶೋಧ	-10.8929
ಹಂ	-10.8932
ರಿಯಲ್	-10.8934
▁ಉಪಕಾರ	-10.8935
▁ಚಲಿಸುವ	-10.8935
—	-10.8941
▁700	-10.8942
▁ಕೊಡುತ್ತಾನೆ	-10.8942
▁ತ್ತಿದ್ದ	-10.8945
▁ಶವರ್	-10.8945
▁ಹೊದಿಸ	-10.8948
▁ಗ್ಯಾಸ್	-10.8949
Ok	-10.8949
▁Hi	-10.895
▁ಕ್ರೂರ	-10.8952
▁ಕೊಲ್ಲಲ್ಪಟ್ಟ	-10.8953
ಗಳಷ್ಟು	-10.8955
▁ವರ್ಗಾಯಿಸು	-10.8956
▁ನಿರ್ದೇಶಕ	-10.8961
▁ರೂಮ್	-10.8962
ಶೂ	-10.8964
AI	-10.8964
▁ತಿಳಿಸಿದರು	-10.8966
ಿಸಲಾದ	-10.8966
▁ಆನ್ಲೈನ್ನಲ್ಲಿ	-10.8969
mil	-10.897
ಿಸಲಾಗುತ್ತದೆ	-10.8972
-100	-10.8974
▁ಸೇವಕರಿಗೆ	-10.8975
▁ಹಾದುಹೋಗುವ	-10.8984
▁ಸಂಪನ್ಮೂಲಗಳನ್ನು	-10.8994
▁ಶಿಕ್ಷಕರು	-10.8994
▁ಸಾಯಂಕಾಲ	-10.8996
ಮಾಡಬೇಕು	-10.8996
▁ಮೈಕ್ರೋ	-10.9002
▁ಚಿಮುಕಿಸ	-10.9002
download	-10.9002
▁Yuzhno	-10.9002
▁ಅಸೆಂಬ್ಲಿ	-10.9002
▁ಐಪ್ಯಾಡ್	-10.9002
▁ಡಿಟೆಕ್ಟರ್	-10.9002
▁ಮುಖಪುಟಟ್ಯಾಗ್	-10.9002
▁ಹುಟ್ಟುಹಬ್ಬದ	-10.9002
▁Login	-10.9002
▁ಕೆರೂಬಿಗಳ	-10.9002
▁ಪರೋಕ್ಷ	-10.9002
▁ಆಯಿಲ್	-10.9002
▁ಜೂಜಿನ	-10.9002
▁ಕಾಲೇಜ್	-10.9002
▁ಶ್ವಾಸ	-10.9002
▁ವ್ಯಕ್ತಪಡಿಸ	-10.9003
▁Spin	-10.9003
▁ಲಿಯಾಮ್	-10.9003
▁ಖಾತ್ರಿಪಡಿಸಿ	-10.9003
▁ಸಾರಭೂತ	-10.9004
▁ಗುರುವಾರ	-10.9004
▁ಪ್ರೋಮೋ	-10.9004
▁Bangalore	-10.9004
▁LEE	-10.9005
▁ಚಿಗುರ	-10.9006
▁ಗ್ರಂಥ	-10.9006
▁****	-10.9006
▁ಭಾಷೆಯಲ್ಲಿ	-10.9007
▁ರಕ್ಷಣೆಯನ್ನು	-10.9007
▁ಸ್ನೇಹಿತರೊಂದಿಗೆ	-10.9008
▁ಸೂಜಿ	-10.9009
▁ಬಾಟಲ್	-10.9009
▁With	-10.9013
ನಾಡ್	-10.9014
▁ಕಾಯಿಲೆ	-10.9021
▁ಸ್ಟೀ	-10.9022
▁ಕೆನಡಾ	-10.9024
▁ಕಂಪನಿಯಾಗಿದೆ	-10.9025
▁ಹೀಟ್	-10.9026
php	-10.9027
▁ಮಾಡ್	-10.9033
▁ಓಂ	-10.9039
info	-10.9039
▁ದುರ್	-10.904
▁ಟೈರ್	-10.904
▁ಸಮಾಧಿಯ	-10.9043
▁ವಿಭಾಗದಲ್ಲಿ	-10.9044
▁ಅಮೂಲ್ಯವಾದ	-10.9046
▁ಸುಂದರಿ	-10.9046
1.1	-10.9048
▁ಸ್ಪೋ	-10.9053
▁ಆಜ್ಞಾಪಿಸುವ	-10.9059
ಕೊಳ್ಳಲಿಲ್ಲ	-10.906
5000	-10.9062
▁92	-10.9064
ದಿರು	-10.9067
▁ಯಜಮಾನನು	-10.9069
5,000	-10.9073
▁ತಪ್ಪಿಸಿಕೊಂಡು	-10.9074
▁ಹೊಡೆಯುವ	-10.9077
▁ಸೌಲಭ್ಯಗಳನ್ನು	-10.9078
ರಾತ್ರಿ	-10.908
▁ಕಾಡ	-10.9082
ಿರುತ್ತಾರೆ	-10.9085
▁ಅವರೆಲ್ಲರ	-10.9087
ಎಲೀಯನ	-10.9088
▁ನಿಷ್ಕ್ರಿಯಗೊಳಿಸ	-10.909
▁ಆಳಲು	-10.9095
▁ಸಂಗ್ರಹಿಸಿ	-10.9097
rip	-10.9102
ರೈಟ್	-10.9104
▁TS	-10.9108
3.5	-10.9113
▁ಉತ್ತೇಜಿಸ	-10.9113
▁Facebook	-10.9113
▁Nimki	-10.9113
▁ಉತ್ಸವ	-10.9113
▁ರಾಹೇಲಳ	-10.9113
▁ಸಲ್ಯೂಷನ್ಸ್	-10.9113
▁ಸಾವಯವ	-10.9113
Coptic	-10.9113
▁ಪರಿಣತಿ	-10.9113
▁ಮಾಸಿಕ	-10.9114
▁ಪತ್ನಿ	-10.9114
▁SSD	-10.9115
▁ನೋಟವನ್ನು	-10.9115
▁ಹೋಗಬೇಕು	-10.9116
▁ಹಿಟ್ಟಿನ	-10.9116
▁ಚೌಕಟ್ಟು	-10.9116
▁ತ್ವರೆಯಾಗಿ	-10.9117
▁ಕಣಿವೆ	-10.9117
▁ಕತ್ತಲೆಯ	-10.9117
226	-10.912
▁ಮೈಲಿ	-10.912
NC	-10.9124
▁ವಿವಾಹ	-10.9125
head	-10.9125
▁ಕ್ರಿಸ್	-10.9126
▁ತಗ್ಗಿನ	-10.913
▁ಮಾಡಿಸಿದನು	-10.9133
ೆರಡು	-10.9139
Fi	-10.9143
card	-10.9145
▁ಗುಂಪ	-10.9147
▁Post	-10.9149
▁ಊಟಕ್ಕೆ	-10.9149
2.7	-10.9155
▁ಕೂಡಿಕೊಂಡು	-10.9159
▁ಕ್ವಾ	-10.9162
ಬೇಕಿರುವ	-10.9166
£	-10.9167
▁ವಾಸವಾಗಿದ್ದರು	-10.9168
▁ತೀರಿಸುವ	-10.9169
▁ಮಾತಿಗೆ	-10.9173
-720	-10.9175
▁ಸರಳವಾಗಿ	-10.9178
▁ಸೇವಿಸಿ	-10.9186
▁61	-10.919
ಲ್ಲಾದರೂ	-10.9193
ಂಥದ್ದು	-10.9193
▁ಅರ್ಹತೆ	-10.9196
Pro	-10.9196
▁1.1	-10.9204
▁ಇವರನ್ನು	-10.9204
1-2	-10.9208
▁ಬೇರು	-10.9211
▁ಹೊಟ್ಟೆ	-10.9216
ward	-10.9218
▁ತ್ವರೆ	-10.9225
▁ಅದೃಷ್ಟ	-10.9226
▁ಒಬ್ಬರನ್ನೊಬ್ಬರು	-10.9226
▁ಕ್ರೂಷರ್	-10.9226
▁ವಿತರಣಾ	-10.9226
▁ಸಂಕುಚನ	-10.9226
▁ಧನಾತ್ಮಕ	-10.9226
▁ಧಾರ್ಮಿಕ	-10.9226
▁ಬಾಲಾಕನ	-10.9226
▁ಕಾರ್ಯಾಗಾರ	-10.9226
▁ಮುಗಿಯ	-10.9226
▁short	-10.9226
▁ಕೈಯೊಳಗಿಂದ	-10.9226
▁ಸ್ಥಳಾಂತರಿಸ	-10.9226
▁ಜೈಲ್	-10.9226
▁ತಾಪನ	-10.9227
}}	-10.9227
▁ಸಿದನು	-10.9228
▁ಹುಲ್ಲಿನ	-10.9228
TWD	-10.9228
▁ನಾಲ್ಕನೇ	-10.9229
▁ಸೊಂಟ	-10.923
▁ಹೇಬೇ	-10.9231
▁ಪರದೆಯ	-10.9237
▁ವದಕ್ಕೂ	-10.9237
XX	-10.9238
▁ಹೆಗಲ	-10.9241
▁ತೊಳೆಯ	-10.9243
▁Bitcoins	-10.9244
139	-10.9245
II	-10.9246
▁ಹಿಂಡ	-10.9247
▁ಹುಟ್ಟು	-10.9248
ಟೀನ್	-10.9249
▁ನೀಡಲಾಗಿದೆ	-10.9251
▁ದೂರದಲ್ಲಿ	-10.9254
ull	-10.9254
▁ಬಂಧು	-10.9256
▁ಕ್ರಿಸ್ತನಲ್ಲಿ	-10.9259
▁ಉದ್ಯೋಗಿ	-10.9261
▁ಬಾವಿಯ	-10.9262
▁ಉಳಿಯಲು	-10.9263
▁ದೂತರನ್ನು	-10.9267
rg	-10.9272
▁ನೆರವಾಗ	-10.9272
▁ಬರುತ್ತವೆ	-10.9272
▁ಹೇಳುತ್ತದೆ	-10.9272
▁ಬಲಿಪೀಠವನ್ನು	-10.9273
▁ತಿಳಿ	-10.9277
▁ಆರಿಸು	-10.9278
JS	-10.9281
pass	-10.9283
▁ಮುಚ್ಚಿದ	-10.9285
▁BE	-10.9287
▁ಮ್ಯಾನ್	-10.9289
▁ನಿರ್ವಹಣೆಯನ್ನು	-10.9294
▁ಹೋಗುವದಕ್ಕೆ	-10.9294
ಸೆಟ್	-10.9295
▁ನಿಯಂತ್ರಣಾ	-10.9296
▁ಬಂದಿತು	-10.9297
▁ಜೀವಿಸುವ	-10.9302
▁ಕೂತಿದ್ದ	-10.9305
▁ದಾಖಲೆಗಳನ್ನು	-10.9307
▁ಗುಡಾರದಲ್ಲಿ	-10.9311
ಕೊಂಡೆನು	-10.9313
ಪಿಎಸ್	-10.9315
▁ವೈಶಿಷ್ಟ್ಯಗಳನ್ನು	-10.9317
▁ಶವ	-10.9319
-2013	-10.932
▁ಹೆರುವ	-10.9323
▁Lx	-10.9325
▁ಸೇವಕರನ್ನು	-10.9335
≥98%	-10.9339
▁Mallari	-10.9339
▁ಉತ್ಪತ್ತಿ	-10.9339
▁ಎಕ್ಸ್ಪ್ರೆಸ್	-10.9339
▁ಐತಿಹಾಸಿಕ	-10.9339
▁ಕಂಟ್ರೋಲ್	-10.9339
▁ಕಾನ್ಸೆಪ್ಟ್	-10.9339
▁ಕ್ಷೀಣ	-10.9339
▁ತಪಾಸಣೆ	-10.9339
▁ಲೋಕಪಾಲರು	-10.9339
▁Gallery	-10.9339
▁ಪತ್ತೆಹಚ್ಚ	-10.9339
▁ಸ್ಪೀಡ್	-10.9339
▁ಕೆಟಿಎಂ	-10.9339
▁Rights	-10.9339
▁ಮುದುಕನ	-10.9339
▁ಸ್ಪೇಸ್	-10.934
▁ಇಷಯನ	-10.934
▁ಛಾಯಾಚಿತ್ರ	-10.934
▁ಕೊಬ್ಬು	-10.934
▁ರಾಯಲ್	-10.9341
▁ಆಜ್ಞಾಪಿಸಿದನು	-10.9342
ೆಲ್ಲರಿಗೂ	-10.9343
▁ನವೀನ	-10.9343
▁ಶಿಷ್ಯ	-10.9345
▁ಹಕ್ಕುಸ್ವಾಮ್ಯ	-10.9346
▁ಅಗತ್ಯಗಳಿಗಾಗಿ	-10.9347
ition	-10.9353
▁ಹುಚ್ಚ	-10.9354
▁ಸ್ಪಿನ್ಸ್	-10.9357
136	-10.9357
▁ಕೊಡಲಿ	-10.9358
▁ಪ್ರಾಧಿಕಾರ	-10.9365
▁ಹಾಲ್	-10.9371
▁ಹಲಗೆಗಳ	-10.9373
▁ಇಡಬೇಕು	-10.9375
ೋತಿನ	-10.9376
▁ಜನರೆಲ್ಲರ	-10.9378
134	-10.938
▁ಕೊಳಲು	-10.9381
▁Xin	-10.9387
▁ಸೌಲನಿಗೆ	-10.94
cf	-10.9412
▁Nov	-10.9414
▁ನವೀಕರಣಗಳನ್ನು	-10.9414
▁ಹೋತ	-10.9419
▁ಒಪ್ಪಿಕೊಂಡ	-10.9419
▁Sex	-10.9432
▁ತಂದನು	-10.9432
▁ಮಾಡಲಾಗ	-10.9437
▁ಬೇಲಿ	-10.9445
▁ಮುಗಿಸಿದ	-10.9448
ಿಸುವುದ	-10.9449
nm	-10.9454
▁Reserved	-10.9454
▁ತೊಡೆದುಹಾಕಲು	-10.9454
▁ನೋಂದಾಯಿತ	-10.9454
▁ಸ್ಪರ್ಧಾತ್ಮಕ	-10.9454
ಐಚ್ಛಿಕ	-10.9454
▁ಕ್ಯಾನ್ಸರ್	-10.9454
▁ಮಾನದಂಡ	-10.9454
▁ಸಕ್ಕರೆ	-10.9454
▁ಅಚ್ಚು	-10.9455
▁ಎಣಿಕೆ	-10.9455
275	-10.9455
▁ವಿನೋದ	-10.9455
▁ಕೇರಳ	-10.9456
▁ಚಂದ್ರನ	-10.9456
▁ಎಲೀಯನು	-10.9456
ಅಂಕಿ	-10.9457
▁ಸಾರಾಂಶ	-10.9457
▁ಫೈಲ್ಸ್	-10.9458
ಎಸ್ಎಸ್	-10.9459
▁1/2	-10.9463
▁ಹೊಂದಿದ್ದೇವೆ	-10.9465
▁ಧನ್ಯನು	-10.9468
▁ನಗರದಲ್ಲಿ	-10.9468
ifi	-10.9468
ಂಡೋ	-10.9473
▁ಕೊಳ್ಳೆಯ	-10.9483
row	-10.9488
▁GBP	-10.9488
▁ತೆರೆಯಲು	-10.9488
▁ದುಷ್ಟನು	-10.9489
▁ಶಿಷ್ಯರಿಗೆ	-10.9492
▁ಮನೆಯೊಳಗೆ	-10.9495
ен	-10.9502
HP	-10.9505
▁ಒದಗಿಸಿದ	-10.9508
home	-10.9513
▁ಜನರೆಲ್ಲರು	-10.9516
ವಾಗಿದ್ದರೆ	-10.9522
▁ಸಾಮ	-10.9537
dder	-10.9539
▁ಮತ್ತೊಬ್ಬನು	-10.9543
▁2.4	-10.9545
ುವದನ್ನೂ	-10.9547
▁ಇಂಡಿಯ	-10.9548
▁ಸೀಮೋನ	-10.9549
ವನಲ್ಲ	-10.9555
▁ಪ್ರಪಂಚ	-10.9559
▁ವರ್ಷಗಳಿಂದ	-10.9564
AK	-10.9565
▁ಆಗಿದ್ದು	-10.9567
ೀತು	-10.9569
▁ದ್ವಿ	-10.957
▁ಅತ್ಯಧಿಕ	-10.9571
▁ಪ್ರೌಢ	-10.9571
▁ಸ್ನಾತಕೋತ್ತರ	-10.9571
Ethiopian	-10.9571
craft	-10.9571
ಡೆಟ್ರಾಯಿಟ್	-10.9571
▁resources	-10.9571
▁ಟೆಸ್ಟೋಸ್ಟೆರಾನ್	-10.9571
▁ನಿಷೇಧ	-10.9571
▁ಭೌತಿಕ	-10.9571
▁ರಂಧ್ರ	-10.9571
▁ರೆಸ್ಟೋರೆಂಟ್	-10.9571
▁ರೆಹಬ್ಬಾಮನ	-10.9571
▁ಸ್ವಾಸ್ಥ್ಯ	-10.9571
▁ಗ್ರಾಮೀಣ	-10.9571
▁ಮರುದಿನ	-10.9571
▁ಹೆರೋದನ	-10.9571
▁ಆಲ್ಫಾ	-10.9571
▁ಕೌಂಟಿ	-10.9571
CZK	-10.9571
ೊಮ್ಮೆ	-10.9572
▁comp	-10.9575
▁ವಾಲ್ವ್	-10.9576
inch	-10.9579
▁ಹೊಟ್ಟೆಯ	-10.9584
ೇಶ್	-10.9587
▁ಸ್ಥಿರಪಡಿಸ	-10.9588
▁More	-10.9596
-800	-10.9597
▁ಎದೋಮ	-10.9598
▁Han	-10.96
▁ತೂರ	-10.9602
PH	-10.9603
VI	-10.9604
▁ಮೂರ	-10.9604
▁ಸ್ಥಿತಿಯಲ್ಲಿ	-10.9615
▁ಹೇಳಿದಂತೆ	-10.9615
▁Tool	-10.9618
▁ಸಭಾ	-10.9619
▁ಹಾಕಲು	-10.9632
▁ಕತ್ತೆಗಳ	-10.9637
▁ಪ್ಲೇನ್	-10.9642
ಿಸುತ್ತೇವೆ	-10.9644
181	-10.9646
್ರೆಡ್	-10.9652
qua	-10.9654
ಬಂದು	-10.9655
▁ಮಾಡಿದೆನು	-10.9656
▁ಜೀವದಿಂದ	-10.9662
▁ರಾಮ್	-10.9664
ಿದ್ದೇನೆಂದು	-10.967
▁ಪರಿಹರಿಸ	-10.9677
▁ಸನ್ನಿಧಿ	-10.9678
▁ಟ್ರಕ್	-10.9678
▁ಕೊರತೆಯ	-10.968
▁ಯಾರನ್ನು	-10.9681
▁Bet	-10.9681
▁Generator	-10.9688
▁ಅನುಪಾತ	-10.9688
▁ಉಕ್ರೇನ್	-10.9688
▁ಎಪಿಸೋಡ್	-10.9688
▁ಖಾಯಿಲೆ	-10.9688
▁ಪಾತಾಳ	-10.9688
▁ಆಕ್ರಮಣ	-10.9688
▁ಚಿಲ್ಲರೆ	-10.9688
▁ವಿಜೆಟ್	-10.9688
▁ಬಲಗಡೆಯಲ್ಲಿ	-10.9688
▁ಜಿಂಕೆ	-10.9688
▁ಟೋನರು	-10.9688
▁ಈವೆಂಟ್	-10.9688
▁ಮಗುವಿಗೆ	-10.9688
▁roof	-10.9688
▁ಲಭ್ಯವಿಲ್ಲ	-10.9688
▁ಪ್ಲಗ್ಇನ್	-10.9689
▁ಕೃತಕ	-10.9689
▁ಆಸಕ್ತಿದಾಯಕ	-10.9689
▁ಪರಿಯೋಜನೆ	-10.9689
▁ಟ್ರೇಡಿಂಗ್	-10.969
▁Internet	-10.969
▁ಫೇಸ್	-10.969
▁ಬೆನ್ನ	-10.969
▁ದೂಷಿಸ	-10.969
▁ನಿಶ್ಚಿತ	-10.9691
▁ನೆರಳಿನ	-10.9692
▁(0)	-10.9694
▁ಳನ್ನೂ	-10.9697
▁ಪ್ರಸರಣ	-10.9698
▁ಕಡೆಗೂ	-10.9699
▁ಸುಂಕ	-10.9699
▁ಬಲವಂತ	-10.9703
▁ವಿಚಿತ್ರ	-10.9704
▁ನಿಂತಿರುವ	-10.9704
share	-10.9708
▁ಹಂಚಿಕೊಳ್ಳಿ	-10.9708
▁ಮನುಷ್ಯಕುಮಾರನು	-10.9712
▁ಆಟಿಕೆ	-10.9715
▁ಗ್ರೇಟ್	-10.9717
▁ತೆರಳ	-10.9721
▁ಕ್ಲೋ	-10.9723
ute	-10.9724
▁Lu	-10.9725
▁ಕಾಯಿದೆ	-10.9727
▁ವಾದ್ಯ	-10.9728
▁ಮನಸ್ಸಿನಲ್ಲಿ	-10.9729
WM	-10.973
▁ತಿಳಿಯಿರಿ	-10.9733
mat	-10.9736
▁ಅಡಿಗೆ	-10.9741
exe	-10.9742
▁ಲಯ	-10.9742
▁ಆರೋನನೂ	-10.9751
▁ಜನರಿಗೂ	-10.9754
▁ಪ್ರವೇಶಿಸಲು	-10.9755
cks	-10.9768
▁Sub	-10.9769
▁ಮಧ್ಯಾಹ್ನದ	-10.9771
▁ಹೊಂದಿಸಿ	-10.9775
Host	-10.9778
Sc	-10.9781
ಶಾರ್ಟ್	-10.9784
nja	-10.9785
▁ಕ್ರಾ	-10.9786
BB	-10.9786
▁ಮಾರ್ಗದರ್ಶಿಗಳು	-10.9792
▁ವಸ್ತ್ರವನ್ನು	-10.9792
▁ಇಬ್ರಿಯ	-10.9796
▁£5	-10.9801
ರುವದನ್ನು	-10.9803
▁ಅಬ್ರಹಾ	-10.9805
▁ಪುಟ್	-10.9805
▁ಗೋಳಾಟ	-10.9807
EMAIL	-10.9807
▁Streaming	-10.9807
▁ಅಮೆಜಾನ್	-10.9807
▁ಆತಿಥೇಯ	-10.9807
▁ಆರಾಮದಾಯಕ	-10.9807
▁ಏಜೆಂಟ್	-10.9807
▁ಯುರೋಪಿಯನ್	-10.9807
▁Charter	-10.9807
▁ಸಸ್ಯವಿಜ್ಞಾನದ	-10.9807
▁ಸಾಂದ್ರತೆ	-10.9807
▁ಬಾಳಿಕೆ	-10.9807
▁ಅಹಂಕಾರ	-10.9807
ನಿರ್ದೇಶನ	-10.9808
▁ಶೋಧಕ	-10.9808
▁ಭೂಲೋಕದ	-10.9808
▁apk	-10.9808
▁ಜ್ಞಾಪಕಮಾಡಿಕೊಳ್ಳ	-10.9808
▁ಟವರ್	-10.9808
▁ಮೇಲ್ಪಟ್ಟ	-10.9809
▁ಆಯಾಸ	-10.9809
▁ಹೈಟೆಕ್	-10.9809
ಹೀಗೆ	-10.981
▁ನಿದ್ರಿಸ	-10.9811
▁ಇವನನ್ನು	-10.9811
▁who	-10.9814
▁ಸಂಹಾರ	-10.9815
▁ಸಹೋದರರಿಗೆ	-10.9816
ೂನನ	-10.9817
▁ಬರಮಾಡುವೆನು	-10.9818
▁ಕ್ಲಿಕ್ಕಿಸಿ	-10.982
▁ನಡೆಸಿದ	-10.982
▁ತಿಳಿಯಪಡಿಸ	-10.9822
▁ಅಸಾಮಾನ್ಯ	-10.9824
▁ಗೌರವಿಸ	-10.9826
▁ಮಾಡಿಕೊಳ್ಳುವ	-10.9827
ized	-10.9832
izer	-10.9833
▁ವಾಲಾ	-10.9834
ವಾಗುತ್ತವೆ	-10.9837
ೊಂದಿಗೂ	-10.9839
Nm	-10.9844
▁Har	-10.9846
▁ಸುವಾರ್ತೆಯನ್ನು	-10.9848
ಬಿಟ್ಟರು	-10.9849
▁ಮಾಲೀಕರು	-10.9857
side	-10.9859
▁ಬೀದಿಗಳಲ್ಲಿ	-10.9864
wire	-10.9864
▁ಪರೀಕ್ಷಿಸಲು	-10.9865
▁ಯಾಕೋಬನಿಗೆ	-10.9865
205	-10.9867
ಸಾಮಾನ್ಯ	-10.9869
▁ಬಹಿರಂಗ	-10.987
ನಾಡು	-10.987
▁ಲೆಬನೋನಿನ	-10.9874
LI	-10.9875
ಿಫ್ಟ್	-10.9881
down	-10.9893
▁ತ್ವರಿತವಾಗಿ	-10.9894
▁ಅಪ್ಪ	-10.9897
▁ಇವುಗಳಲ್ಲಿ	-10.9897
▁ಅರಿವ	-10.99
▁ಎಲೆಕ್ಟ್ರಾನಿಕ್	-10.99
2-2	-10.9905
▁ಇಸಾಕನು	-10.9907
▁ವವನು	-10.9914
ಪೂರ್ವಕ	-10.9916
▁ನೆಲೆಯಾಗಿ	-10.9917
▁ಹೊಂದಿಕೊಳ್ಳುವ	-10.9918
Ti	-10.992
▁ಕೀಳ	-10.9921
quir	-10.9921
6.5	-10.9921
-2009	-10.9923
125	-10.9924
Shijiazhuang	-10.9928
▁General	-10.9928
▁Royale	-10.9928
▁ಅಸೋಸಿಯೇಷನ್	-10.9928
▁ಆಪರೇಟಿಂಗ್	-10.9928
▁ಕ್ರಿಪ್ಟೋ	-10.9928
▁ಜಾವಾಸ್ಕ್ರಿಪ್ಟ್	-10.9928
▁ದೀಪಸ್ತಂಭ	-10.9928
▁ರೋಬೋಟ್	-10.9928
world	-10.9928
▁ಎಂಜಿನಿಯರ್	-10.9928
▁ಮೂಲತಃ	-10.9928
▁ಅಸಾಧ್ಯ	-10.9928
▁ಕ್ಯಾಂಪಸ್	-10.9928
▁ಗುರುತನ್ನು	-10.9928
▁BMW	-10.9928
script	-10.9928
▁ಕ್ಷೇಮ	-10.9928
▁ಕತ್ತರಿಸ	-10.9928
▁ಕ್ರಾಂತಿ	-10.9928
▁ಸ್ವಾಸ್ತ್ಯವಾಗಿ	-10.9929
▁ಹೊಳಪ	-10.9929
▁ಬಯಸುವಿರಾ	-10.993
▁೧೯	-10.993
▁ಸತ್ತವರೊಳಗಿಂದ	-10.9931
▁ಜೀವಿಸ	-10.9931
▁ಮುಕ್ತಾಯ	-10.9932
(4,2	-10.9933
▁ಆರಂಭಿಸಿದಾಗ	-10.9933
▁ಪಡೆದುಕೊಂಡ	-10.9934
▁ಪ್ರದಾನ	-10.9934
▁RAM	-10.9937
▁Ah	-10.9941
▁ದೊಡ್ಡದಾದ	-10.9943
▁ಹೊಡೆ	-10.9945
▁ಕಲಿಕೆಯ	-10.9945
lli	-10.9946
▁ನಾರಿನ	-10.9947
ಸುವದು	-10.9947
▁ಯೋಹಾನನ	-10.9957
▁ಬರಲಿಲ್ಲ	-10.9959
▁ಗುಪ್ತಪದ	-10.9962
▁ಕೋಪದಿಂದ	-10.9965
ದ್ದದರಿಂದ	-10.9971
▁ಚೂರು	-10.9974
2.0	-10.9976
▁ನಿಮ್ಮೆಲ್ಲರ	-10.9976
▁ದಿಲ್ಲ	-10.9979
▁ಕರೆದನು	-10.9984
▁ಸಂಪುಟ	-10.9988
▁ಪಾಲಕರ	-10.9992
ವಾಗಿರ್ರಿ	-10.9994
▁ಕ್ರಮವಾಗಿ	-10.9996
ಯೋಜನೆ	-10.9998
▁ಬಳಕೆದಾರನ	-10.9999
▁1080	-11
но	-11
ಕುಮಾರ	-11.0003
▁ಪ್ರೋತ್ಸಾಹಿಸ	-11.0006
ಕ್ಕೋಸ್ಕರವೂ	-11.0008
ದೃಶ್ಯ	-11.001
*(	-11.0011
ವಿನ್ಯಾಸ	-11.0011
ಾಗಿರುವದರಿಂದ	-11.0013
ತ್ತೈದ	-11.0014
ದೊಡ್ಡ	-11.0018
▁ಸಭೆಗೆ	-11.0019
elec	-11.0019
▁Shi	-11.0021
▁Sun	-11.0023
CHF	-11.0025
▁ನೀರಿನಿಂದ	-11.0026
▁ದೃಷ್ಟಿಸಿ	-11.0028
▁ಹೋಗುತ್ತೇನೆ	-11.0029
▁ಬಳಿಕ	-11.003
8.5	-11.0033
▁ಕುಣಿಯ	-11.0034
oul	-11.0039
ಕೊಳ್ಳುತ್ತೇನೆ	-11.0046
▁ನುಡಿಯ	-11.0049
▁Babies	-11.005
▁VIDEOS	-11.005
▁ಡಾಕ್ಯುಮೆಂಟ್	-11.005
▁ನಫ್ತಾಲಿ	-11.005
▁ಮೇಲ್ವಿಚಾರಕ	-11.005
▁ಸ್ಕೆಚ್	-11.005
▁complete	-11.005
▁ಸಂತೋಷವಾಗಿರುವಿರಿ	-11.005
▁ಗ್ಯಾಲರಿ	-11.005
▁[2]	-11.005
▁ದಕ್ಷತೆ	-11.005
▁Auto	-11.0052
ವನಾರು	-11.0055
▁ದೂರಸ್ಥ	-11.0058
▁ಸಫಲ	-11.0059
▁ಮಗನಾಗಿರುವ	-11.0059
▁ಬಯಸುತ್ತೇನೆ	-11.006
▁ಅನ್ವೇಷಿಸಲು	-11.0061
▁ನಮೂದಿಸ	-11.0063
▁ಲಕ್ಷಿಸ	-11.0064
ನಿನಗೆ	-11.0067
▁20%	-11.0068
▁ಕೆಆರ್	-11.0076
berg	-11.0077
▁ಕಾಣುವಂತೆ	-11.0078
▁ಅರಸನಾಗಿರುವ	-11.0078
▁ಆಲಯಕ್ಕೆ	-11.0081
▁ದಳ	-11.0082
▁ಶೂರ	-11.0097
▁ಜನಾಂಗಗಳಲ್ಲಿ	-11.0102
▁ಮನಸ್ಸಿಗೆ	-11.0104
▁ವರ್ಗಾಯಿಸ	-11.0104
▁ಸಂಪುಟಗಳು	-11.0106
▁ಟೋಲ್	-11.0107
6.00	-11.0109
▁ಹಿರಿಯರೂ	-11.0112
ವ್ಯವಸ್ಥೆ	-11.0112
▁ಗುರುತಿಸಲು	-11.0114
▁ನಾವೇ	-11.0115
▁ಕಾರ್ಖಾನೆಯ	-11.0116
▁ಹೊಂದಿಕೊಳ್ಳ	-11.0117
▁ಟಿಪ್ಪಣಿ	-11.0117
▁ಬಂದೆನು	-11.0118
▁ಮಹೋನ್ನತನ	-11.012
1-3	-11.0122
▁ಹೇಳಬೇಕಾದ	-11.0127
▁ಅವಶ್ಯಕತೆಗಳನ್ನು	-11.0131
▁ವೃದ್ಧ	-11.0132
▁ವಿಭಾಗಿಸ	-11.0134
▁ಬಂಗಾರದಿಂದ	-11.0147
▁ಕೋಳಿ	-11.0153
▁LF	-11.0155
ь	-11.0158
▁ಘನತೆಯ	-11.0159
▁ಉರಿಯುವ	-11.0159
▁ಸೃಷ್ಟಿಯ	-11.0161
▁ಮಹಿಮೆಯನ್ನು	-11.0162
ಜಾರ್	-11.0165
▁ಅನುಸ್ಥಾಪನ	-11.0165
ದ್ದರಿಂದಲೂ	-11.0172
▁ಬೆಂಗಳೂರಿನ	-11.0173
▁iSpyoo	-11.0173
▁ವಂಚಿತರ	-11.0173
▁ಸಾಧ್ಯವಾದಷ್ಟು	-11.0173
▁internet	-11.0173
▁ಗೇಮಿಂಗ್	-11.0173
▁ಕಾರಣವಾಗಬಹುದು	-11.0173
▁ಸೀನಾಯಿ	-11.0173
▁ಕೊಬ್ಬನ್ನೂ	-11.0173
▁ಕುರುಡರ	-11.0173
ч	-11.0173
▁ಕಾವಲಿನ	-11.0173
▁ಸೈನಿಕರ	-11.0173
▁2018-11-	-11.0173
▁ಕಾರ್ಯಗತಗೊಳಿಸ	-11.0173
▁ಪ್ಯಾರಿಸ್	-11.0173
▁ಬಚ್ಚಿಟ್ಟ	-11.0173
▁ಕನಸಿನ	-11.0173
▁ಕಲಾಯಿ	-11.0174
▁ಪರ್ಪಲ್	-11.0174
▁ಯೊರ್ದನನ್ನು	-11.0175
▁ಆವರ್ತನ	-11.0175
▁ಗೋಲ್ಡ್	-11.0176
porn	-11.0178
▁ಶುಭ	-11.0181
▁ಸ್ಟಾರ್ಟರ್	-11.0181
Plus	-11.0182
▁CNC	-11.0183
▁ಭಯಪಡಬೇಡ	-11.0184
▁ಎಂಬಿಎ	-11.0185
life	-11.0187
▁ತಿನ್ನಬಾರದು	-11.0187
▁ಯಜಮಾನರ	-11.0187
▁ಶಿಶುಗಳಿಗೆ	-11.0189
▁Dong	-11.0197
Room	-11.0201
▁ಮಾಡಬಹುದಾದ	-11.0202
▁ಪರಲೋಕದಿಂದ	-11.0207
server	-11.0207
▁ಸಂಗ್ರಹಣೆ	-11.0218
▁ಲೋಕದಲ್ಲಿ	-11.0221
▁ಬೆಟ್ಟಕ್ಕೆ	-11.0223
FD	-11.0227
▁ಭದ್ರಪಡಿಸು	-11.023
▁ನಿಮಿತ್ತವೂ	-11.0232
▁ಲೀಡ್	-11.0233
▁ಪ್ರತಿಮೆ	-11.0235
ಕೂಡದ	-11.0255
▁ಸ್ವಾಸ್ತ್ಯವನ್ನು	-11.0257
bay	-11.0262
▁ಒಬ್ಬನನ್ನು	-11.0266
▁ಬರುವದಿಲ್ಲ	-11.0269
▁ಸಾಲ್	-11.0275
pur	-11.0278
▁ವಾಸನೆ	-11.0278
GE	-11.0288
▁ಇಲ್ಲವೋ	-11.029
▁ಯೊರ್ದ	-11.0294
generateur	-11.0298
ಡಬ್ಲ್ಯೂ	-11.0298
▁19.12.2018	-11.0298
▁David	-11.0298
▁ಅಂಗಸಂಸ್ಥೆ	-11.0298
▁ಕಾಂಕ್ರೀಟ್	-11.0298
▁ಗಿಲ್ಗಾಲ	-11.0298
▁ಗ್ಯಾಲಕ್ಸಿ	-11.0298
▁ಕಾಂಕರರ್	-11.0298
▁ನೆಚ್ಚಿನ	-11.0298
▁ಸ್ಕೂಟರ್	-11.0298
▁ಗಿದ್ಯೋನನ	-11.0298
▁ನಝರ್	-11.0298
shopify	-11.0298
▁ಮುಂದುವರೆಸಿದರೆ	-11.0299
triche	-11.0299
010	-11.0299
▁ಕೊನೆಗೊಳ್ಳುವ	-11.03
▁ಲಕ್ಷಾಂತರ	-11.0301
▁ಸಂದರ್ಶನ	-11.0301
▁ವದನ್ನು	-11.0302
▁ಯಾವದನ್ನು	-11.0302
ಗಿಂತಲೂ	-11.0308
OU	-11.0308
ANG	-11.0309
yang	-11.0314
FO	-11.0314
▁ದೇಶೀಯ	-11.0319
▁ದೈವ	-11.0319
well	-11.0323
ವೇನಂದರೆ	-11.0325
▁ಇಸ್ರಾಯೇಲೇ	-11.0325
▁ಹೇಳಿದ್ದು	-11.0327
ಿಸದ	-11.0335
ಿಸಿದೆನು	-11.0337
▁any	-11.0337
ವರ್ಣ	-11.0342
tz	-11.0345
char	-11.0345
್ಯತೆ	-11.0353
▁ಪಥ	-11.0359
▁ಮಧ್ಯದಿಂದ	-11.036
ಿಸುತ್ತಾನೆ	-11.0366
▁ಹೆದರಿ	-11.0369
▁0.7	-11.0372
▁ನಿರ್ದಿಷ್ಟವಾಗಿ	-11.0375
▁ರದ್ದುಗೊಳಿಸ	-11.0375
▁ಎಂಬಂತೆ	-11.038
ful	-11.0387
ಥೀಮ್	-11.0395
▁ಹೊಣೆ	-11.0399
▁080-2	-11.04
main	-11.0402
ಯಾಗಿದ್ದನು	-11.0402
ಶಕ್ತಿ	-11.0403
▁ಮಿಶ್ರ	-11.0411
▁ಗತ್	-11.0411
▁Archiv	-11.0422
▁WinPorn	-11.0425
▁ಅಭ್ಯಂತರ	-11.0425
▁ಧೂಮ್ರ	-11.0425
▁ಮಹಾಯಾಜಕನ	-11.0425
▁ಮಿಶ್ರಲೋಹ	-11.0425
▁ವುಡ್ವಿಂಡ್	-11.0425
▁ಸ್ಯಾಮ್ಸಂಗ್	-11.0425
ವಿಡ್ಗೆಟ್	-11.0425
▁ಮಹತ್ಕಾರ್ಯ	-11.0425
▁ಸುತ್ತೋಲೆ	-11.0425
▁ಲೆಕ್ಕಾಚಾರ	-11.0425
▁Rental	-11.0425
▁ಅವೆನ್ಯೂ	-11.0425
▁ಮ್ಯಾಟರ್ಸ್	-11.0425
▁ಅಗುಳಿ	-11.0425
▁ಆಯೋಜಿಸ	-11.0425
▁ಭರ್ತಿ	-11.0425
▁ಆಗುವದೇನಂದರೆ	-11.0425
▁ಕಿಂಗ್ಡೊ	-11.0425
▁ಕೋಲನ್ನು	-11.0425
▁Lucks	-11.0425
▁ಪ್ರೋಟೀನ್	-11.0425
▁ಒಂದುಗೂಡಿಸ	-11.0425
▁ಐದನೇ	-11.0425
▁ಡಿಗ್ರಿ	-11.0425
▁ಆರೋನರ	-11.0425
▁ಎಂಬದಾಗಿ	-11.0426
▁ಫೀಡ್	-11.0426
▁ಮುಳುಗ	-11.0426
▁ಸಹಜವಾಗಿ	-11.0427
▁ಕೈಕೆಲಸ	-11.0428
▁ಎಂಭತ್ತ	-11.0429
▁ಬೂಟ್	-11.0429
▁ಸೆರೆಯಲ್ಲಿ	-11.043
▁ಉತ್ಪಾದಿಸುವ	-11.043
mit	-11.043
▁ನ್ಯಾಯಾಲಯ	-11.043
ೆರ್ರಿ	-11.0431
▁ಹ್ಯಾಂಡ್	-11.0433
ept	-11.0434
ನೆರಳಿನಲ್ಲೇ	-11.0442
▁ಸಹಕಾರಿ	-11.0443
raz	-11.0458
▁ಬರೆಯಿರಿ	-11.046
▁ವಕ್ರ	-11.0461
ುತ್ತಾನೋ	-11.0465
▁ಕನಿಕರಿಸ	-11.0469
ough	-11.0472
▁ವಿಾರಿ	-11.0475
▁Cam	-11.0475
▁ಜಾರಿಗೆ	-11.0479
Media	-11.0488
▁ನೋಡಿದರೆ	-11.0489
▁50%	-11.0494
▁ಕಾಣುತ್ತದೆ	-11.0494
▁ತಿರುಗಾಡ	-11.0497
run	-11.051
ಕೊಳ್ಳುತ್ತಾನೆ	-11.0513
▁4000	-11.0521
▁ಕೊಟ್ಟಿದ್ದಾನೆ	-11.0526
▁ರಿಗೂ	-11.0531
sheng	-11.0536
▁ತುಂಬಿಸಿ	-11.0537
▁ಕಂಡಾಗ	-11.0544
▁1.8	-11.0545
▁ಧನ್ಯವಾದ	-11.0548
▁Foundation	-11.0553
▁Konqueror	-11.0553
▁Stories	-11.0553
▁ತನಿಖಾಧಿಕಾರಿ	-11.0553
▁ನಾವೀನ್ಯತೆ	-11.0553
▁ಸೆರಾಮಿಕ್	-11.0553
▁ಕಿತ್ತಳೆ	-11.0553
▁ನೈತಿಕ	-11.0553
▁ದೆಹಲಿ	-11.0553
▁MYR	-11.0553
▁ಉಗ್ರಾಣ	-11.0553
▁ಗರಿಷ್ಟ	-11.0553
▁ಏರ್ಬಸ್	-11.0553
install	-11.0553
▁ಕಲ್ಲನ್ನು	-11.0553
▁ಗುಡುಗ	-11.0554
▁(2016)	-11.0554
▁ಗ್ರೀಸ್	-11.0554
▁(2012)	-11.0554
▁Class	-11.0554
▁ಒಳಗೊಂಡಿರುತ್ತದೆ	-11.0555
▁ರೂಪಿಸುವ	-11.0556
dian	-11.0557
▁ನೋಡಿದನು	-11.0557
▁ಅಳವಡಿಸಿಕೊಳ್ಳ	-11.0557
▁ಮಧ್ಯಸ್ಥ	-11.0558
▁ಬೈಕು	-11.0559
▁ಇಳುಕೊಂಡ	-11.0562
▁ಸೆರೆಯವರ	-11.0562
▁mol	-11.0563
▁ದಾಖಲಿಸಿದ	-11.0565
▁ಧನ್ಯರು	-11.057
▁ಕೆಲವರನ್ನು	-11.0573
▁ಸಂಪರ್ಕಿಸಲು	-11.0574
ಶೋ	-11.0576
▁ಕೊಟ್ಟಿದ್ದೇನೆ	-11.0579
ational	-11.0583
CAD	-11.0583
ವುಳ್ಳವನಾಗಿ	-11.0588
▁ದೃಢವಾಗಿ	-11.0589
▁Of	-11.0592
▁ಸಾಧಿಸಿ	-11.0593
▁Max	-11.0595
matic	-11.0607
ೀಕರಿಸಿದ	-11.0615
▁ಲೇವಿಯರೂ	-11.0616
ೆಂತಲೂ	-11.0617
ತೊಂಭತ್ತ	-11.0622
▁str	-11.0628
ಪಡೆಯ	-11.0634
▁UA	-11.0636
▁ಕೊಂಡುಕೊಂಡ	-11.0636
ಾಗಿರಬಹುದು	-11.0637
▁ವಿಧೇಯರಾಗ	-11.0638
▁ಇಸ್ರಾಯೇಲ್ಯರಿಗೆ	-11.064
ಮಿನಿ	-11.0649
▁ಗುರಿಯಾಗ	-11.0656
▁ಕೈಕೊಳ್ಳುವ	-11.0657
IST	-11.0665
▁ಸ್ವಸ್ಥಮಾಡ	-11.0667
156	-11.0669
170	-11.0673
00,000	-11.0678
▁ಅಶಕ್ತಗೊಳಿಸ	-11.0683
▁Health	-11.0683
▁Temple	-11.0683
▁ಕಡಲ್ಗಳ್ಳರು	-11.0683
▁ಯಾದೃಚ್ಛಿಕ	-11.0683
▁ವಿಸ್ತೀರ್ಣ	-11.0683
nbsp	-11.0683
▁ಏಕೈಕ	-11.0683
▁ಜೋಡಣೆ	-11.0683
▁ಲೇಪನ	-11.0683
▁ಕುರುಬರ	-11.0683
▁ಬಾಳ್	-11.0683
▁ನೇಯ್ದ	-11.0683
▁ಲಿಫ್ಟ್	-11.0683
▁ನಡುಕಟ್ಟ	-11.0684
▁ಶೋಧನೆ	-11.0684
▁ಮೊಟ್ಟೆ	-11.0687
▁ವಿಜಯ	-11.0689
▁ಸೂತ್ರ	-11.0691
ement	-11.0694
Bike	-11.0696
▁ಹೇಗೋ	-11.0698
▁ಅರ್ಥಮಾಡಿಕೊಳ್ಳಲು	-11.0698
▁Select	-11.07
▁ಕೆಳಗಿರುವ	-11.0703
▁ವೀಣೆ	-11.0704
ನ್ನೆತ್ತಿ	-11.0705
▁ಗುಂಪನ್ನು	-11.0706
▁ವಿಕಾಸ	-11.0707
▁ಕೊಯ್ಯ	-11.0707
▁ಎಫ್ರಾ	-11.0709
▁ಪ್ರೇರೇಪಿಸ	-11.071
1.99	-11.0711
ಮುಸುಕು	-11.0714
▁ಅಡ್ಡಬಿದ್ದು	-11.0717
▁ಜಾಬ್	-11.0723
ಪಕ್ಷ	-11.0726
ಎಲ್ಲಾ	-11.0729
▁ಸಾಗಣೆ	-11.0729
▁ಪಾಲುಗಾರ	-11.0736
cheng	-11.0736
▁ರಾಕ್	-11.0741
ಚ್ಚೆ	-11.0756
▁ತೀರ್ಪ	-11.076
▁ಸಂದರ್ಭ	-11.0763
▁ಹಿಗ್ಗ	-11.0763
ೆರೆದುಕೊಳ್ಳುತ್ತದೆ	-11.0765
▁ಕೆಂಪ	-11.0775
▁ಹೊರಿಸ	-11.0784
COM	-11.0785
158	-11.0786
▁ಗಿದ್ದ	-11.0793
▁ದಮಸ್ಕದ	-11.0805
▁ಮಾರ್ಕ	-11.0807
▁ಅಂಟಿಕೊಳ್ಳ	-11.0808
▁ಕೂಷ	-11.0809
188	-11.0811
▁Fitness	-11.0814
▁Pornoid	-11.0814
▁Udaan	-11.0814
▁cryptocurrency	-11.0814
▁ಛಾಯಾಗ್ರಹಣ	-11.0814
▁ಫೈಬರ್ಗ್ಲಾಸ್	-11.0814
▁ಉಡುಪಿ	-11.0814
▁ಕುರುಬನ	-11.0814
▁ನಮಃ	-11.0814
▁ಅದೇನಂದರೆ	-11.0815
▁ಪತ್ರಿಕಾ	-11.0815
▁[3]	-11.0815
▁Pink	-11.0815
▁ವಕೀಲ	-11.0815
რ	-11.0815
▁ready	-11.0815
▁ಮಾಪನ	-11.0815
▁ಗಿಬೆಯ	-11.0815
▁ಮೊದಲನೆಯದಾಗಿ	-11.0815
▁ರಕ್ತವರ್ಣ	-11.0816
▁RoHS	-11.0816
▁ಎಡಗಡೆ	-11.0817
▁ಯಾವದೂ	-11.0817
▁ವಾಸ್ತವಿಕ	-11.082
GHz	-11.082
▁ಸಾಧ್ಯವಾಗಲಿಲ್ಲ	-11.0824
▁Text	-11.0824
▁Real	-11.0824
▁ಆರ್ಡರ್	-11.0825
▁ರೌಂಡ್	-11.0826
▁ತುಳಿದು	-11.0826
▁ಮಿಷನ್	-11.0829
ಗೊಳಿಸುವಿಕೆ	-11.083
ೇತರ	-11.0831
▁ಬರೆದಿದ್ದಾರೆ	-11.0832
▁ಇದರಿಂದಾಗಿ	-11.0833
▁ಬಾರದೆ	-11.0838
▁ಪಡೆಯುವುದು	-11.0841
▁ವಿರಾಮ	-11.0843
Link	-11.0843
▁ತಿನ್ನುವದಕ್ಕೆ	-11.0845
sky	-11.085
▁ಒಪ್ಪಿಗೆ	-11.0852
ಗೊಂಡಿತು	-11.0852
▁ಸುವಾರ್ತೆ	-11.0854
▁ಕೊಡಲಿಲ್ಲ	-11.086
▁ತಕ್ಕೊಂಡನು	-11.0862
▁ಸಲಹೆಗಾರ	-11.0872
ಯೋನನ	-11.0872
▁sub	-11.0875
▁ಹಿಂದಟ್ಟಿ	-11.0877
▁ರೋಮ್	-11.0879
ಪ್ರೊ	-11.0882
ating	-11.0883
▁ಆಶೆ	-11.0884
▁ಬರುವದಕ್ಕೆ	-11.0886
▁ಇವನೇ	-11.0887
▁ಕತ್ತಲೆ	-11.0888
email	-11.0889
stru	-11.0892
▁ಮಾಲೀಕರ	-11.0892
▁ಪಿತೃ	-11.0892
ನ್ನಿಟ್ಟು	-11.0898
▁ಸಿದ್ಧಪಡಿಸ	-11.09
▁೨೦	-11.0902
dge	-11.0902
4.1	-11.0903
ಮೈನ್	-11.0906
▁ಮೋಶೆಯೂ	-11.0907
▁ಎಲುಬ	-11.0907
ುತ್ತಿದ್ದೀರಿ	-11.0913
▁ಮಾತುಗಳಿಂದ	-11.092
ative	-11.0924
ಧ್ಯಾ	-11.0925
ವಸ್ತು	-11.0926
PI	-11.093
ಸಂಪರ್ಕ	-11.0931
ಪೀಠ	-11.0932
ಮುಂದಿನ	-11.0932
4.3	-11.0936
ಬೋಧ	-11.0943
ಟಿಕಲ್	-11.0946
@163.	-11.0948
XCHARX	-11.0948
karnataka	-11.0948
▁ನಿಯತಕಾಲಿಕ	-11.0948
ಧಾರವಾಡ	-11.0948
▁Pinterest	-11.0948
▁ಇನ್ನೋವೇಟಿವ್	-11.0948
▁ಇಪ್ಪತ್ತೈದು	-11.0948
▁ತನಿಖೆ	-11.0948
▁ಭಾನುವಾರ	-11.0948
▁ಸಾರ್ವತ್ರಿಕ	-11.0948
▁ಸೊಸೈಟಿ	-11.0948
▁cheats	-11.0948
▁ಪಿಲಾತನು	-11.0948
▁ವಿಂಡೊ	-11.0948
▁ಮೆಚ್ಚುಗೆ	-11.0948
▁ಎಳೇ	-11.0948
▁ಮಿದ್ಯಾನ್ಯರ	-11.0948
▁ಮೋಜಿನ	-11.0948
▁ಸಚಿವಾಲಯ	-11.0948
▁ಮಂಜು	-11.0948
▁ಬೆನಾಯನ	-11.0948
MXN	-11.0948
▁ಕರುಳುಗಳ	-11.0949
ಎಸ್ಇಸಿ	-11.0949
EE	-11.0949
▁ಟರ್ಕಿ	-11.0949
rama	-11.0949
▁ರಾಷ್ಟ್ರಪತಿ	-11.0949
▁ಸಂಬಳ	-11.0952
▁ಕತ್ತರಿಸುವುದು	-11.0953
▁ಉಪನಗರಗಳನ್ನೂ	-11.0954
▁ಕಳ್ಳತನ	-11.0954
▁ಉಪಹಾರ	-11.0954
▁ಯೌವನದ	-11.0955
▁ಕೇಂದ್ರೀಕರಿಸ	-11.0956
ಪಟ	-11.0956
ೊಳಗಿನ	-11.0956
cast	-11.0957
ಬಾಕ್ಸ್	-11.0964
Click	-11.0964
ಎಂಬೆಡ	-11.0969
▁ಬದಲಾಯಿಸಬಹುದು	-11.0971
▁ಎಬ್ಬಿಸಿದ	-11.0972
ವುಳ್ಳವರಾಗಿ	-11.0973
▁ಕೆಳಗಿ	-11.0976
eky	-11.0979
▁ಗಡ್ಡ	-11.0979
▁ರೋಮ	-11.0979
▁ZY	-11.0981
ಾಗಿದ್ದಳು	-11.0981
▁ಎಂಎಸ್	-11.0983
▁ಹೇಳಿದ್ದೇನೆ	-11.0988
▁ಮಧ್ಯಾಹ್ನ	-11.0988
▁ಅನುಗ್ರಹಿಸ	-11.0992
▁ಅದರಂತೆಯೇ	-11.0994
▁ಸೇವಕನಿಗೆ	-11.1
▁ದತ್ತಾಂಶವನ್ನು	-11.1
▁ಬಾಗಲನ್ನು	-11.1003
▁ಬೇರೆಯವರ	-11.1005
▁ಈಟಿಯ	-11.1016
ಯುಎಫ್	-11.1018
ham	-11.1018
▁ಅತೀ	-11.1026
▁ತಲುಪಿಸ	-11.1028
ಿಸದೆ	-11.1034
▁ಹೆಸರಿಗೆ	-11.1038
ಗೊಳಿಸಬಹುದು	-11.1048
▁ಜಯಿಸ	-11.105
▁ಜೀವವುಳ್ಳ	-11.1057
▁ಹೊರಡಿಸ	-11.106
ಥೈ	-11.1062
▁ಕೇಳಲಿಲ್ಲ	-11.1062
▁ಕತ್ತಲೆಯಲ್ಲಿ	-11.1064
ache	-11.1066
▁ಕಡಲ	-11.1068
~	-11.1071
ಹೆಸರ	-11.1081
▁ಪ್ರಧಾನಯಾಜಕರ	-11.1083
▁error	-11.1083
▁ಅನಿರೀಕ್ಷಿತ	-11.1083
▁ಅಸಾಧಾರಣ	-11.1083
▁ಉಪಪತ್ನಿ	-11.1083
▁ಕರಾಒಕೆ	-11.1083
▁ಸ್ವೀಡಿಷ್	-11.1083
Social	-11.1083
▁ಷರತ್ತು	-11.1083
▁ತಯಾರಿಕಾ	-11.1083
▁ಸ್ಮೃತಿ	-11.1083
▁ಜಲನಿರೋಧಕ	-11.1083
▁ಭರವಸವಿಡ	-11.1083
▁ಗೆಲ್ಲಲು	-11.1083
▁ನಿರ್ಮಲ	-11.1084
ಾಣಿಕೆಯಾಗುತ್ತದೆಯೆ	-11.1084
▁ದಣಿದ	-11.1085
▁ಅಪರೂಪ	-11.1085
▁ಕಂಡುಬಂದಿಲ್ಲ	-11.1086
▁ಹೋಲಿಸಿದರೆ	-11.1086
ಬೇಕೆಂತಲೂ	-11.1088
▁full	-11.1088
▁ಎತ್ತಿಕೊಂಡು	-11.1092
▁ದಿನವೆಲ್ಲಾ	-11.1093
▁ತಟ್ಟೆ	-11.1094
▁89.00	-11.1095
▁ಸೋಮವಾರದಿಂದ	-11.11
▁ಅಮೆರಿಕಾ	-11.1101
▁ಪರಿಹರಿಸಲು	-11.1102
▁ಇಳುಕೊಳ್ಳ	-11.1103
▁ಕಾಲೇಜುಗಳಿಗೆ	-11.1104
▁ಸೂಟ್	-11.1105
gov	-11.1108
▁ಆಗಿರಬಹುದು	-11.1118
iff	-11.1126
ೊಬ್ಬನೇ	-11.1127
▁ಪ್ರಕಾಶಕ	-11.1131
▁ಲಾರಾ	-11.1131
▁ದೇಹದಲ್ಲಿ	-11.1139
▁ಕಡಿಮೆಯಾಗ	-11.1141
▁ಕ್ರಿಮಿ	-11.1147
▁ಲೋಕಕ್ಕೆ	-11.1151
▁ಲಂಚ	-11.1152
▁ಸೇರಿಸಿಕೊಳ್ಳ	-11.1158
▁ಹಗಲಿ	-11.1168
▁ಪರ್ವತದಲ್ಲಿ	-11.1172
▁ಅರಿಕೆ	-11.1175
▁ಮೋಡ್	-11.1176
▁4.7	-11.1176
ಾಗಿರಲು	-11.1179
ವಾಗಿದ್ದಾರೆ	-11.1179
▁ಹೊದಿಸಿ	-11.118
ಹಗಲ	-11.1183
anda	-11.1186
▁ಕೊಯ್ಯುವ	-11.1199
base	-11.1205
▁ಸಿದ್ಧತೆ	-11.1207
▁ದೋಷವಿಲ್ಲದ	-11.1212
ುತ್ತೀರೋ	-11.1214
▁ನ್ಯಾಯತೀರಿಸುವ	-11.1216
churchofchrist	-11.122
▁ಅಡಚಣೆ	-11.122
ಪ್ರೋಟೋಕಾಲ್	-11.122
▁Mukhiya	-11.122
▁jackpot	-11.122
▁ಅನಾರೋಗ್ಯ	-11.122
▁ಅಮಚ್ಯನ	-11.122
▁ಆಧ್ಯಾತ್ಮಿಕ	-11.122
▁ತಿದ್ದುಪಡಿ	-11.122
▁ದ್ವಾರಪಾಲಕರ	-11.122
▁ನಿಲುವಂಗಿ	-11.122
▁ಪೋರ್ಟಲ್	-11.122
▁ಬೊಕ್ಕಸಗಳ	-11.122
▁ವೃತಾಂತಗಳ	-11.122
▁ಧಾರಕ	-11.122
▁ಚೆಂಡನ್ನು	-11.122
▁ಶುಕ್ರವಾರದವರೆಗೆ	-11.122
▁ಹೊರತೆಗೆಯ	-11.122
▁VPN	-11.122
▁ದುರಸ್ತಿ	-11.122
▁ಇವೆಲ್ಲವುಗಳ	-11.122
▁ಭರವಸವಿಟ್ಟ	-11.122
▁ಬೇರೊಬ್ಬ	-11.122
▁ದುರಾಶೆ	-11.122
▁ವಿಶೇಷಣಗಳು	-11.122
▁ಸುಲಿಗೆ	-11.1221
▁ಬುಟ್ಟಿ	-11.1221
▁ಊರೀಯನ	-11.1221
▁ಲಾಭದಾಯಕ	-11.1222
▁ಸ್ವಭಾವ	-11.1223
▁ಲಾರ್ಡ್	-11.1224
▁ಉಕ್ಕು	-11.1229
▁ತುಪ್ಪ	-11.1231
rpm	-11.1233
▁DIN	-11.1242
▁ಚೀಯೋನ್	-11.1244
▁ಸೆರೆಗೆ	-11.1256
▁ಸೊಲೊಮೋನನಿಗೆ	-11.1259
5.1	-11.126
▁ಹೊಸದಾಗಿ	-11.1261
dot	-11.1265
ಝಿ	-11.127
▁ಪಾರ್ಟಿ	-11.1272
165	-11.1285
▁ಲೇವಿ	-11.1286
860	-11.1286
▁ಹಿತ್ತಾಳೆ	-11.1287
serv	-11.129
▁ಕೀಟ	-11.1294
▁ಒಳಗೊಳ್ಳ	-11.1297
▁ಸೆಕ್ಸ	-11.1308
▁ಕಂಡುಬರುವ	-11.1313
189	-11.1313
▁ಭಯಪಡುವ	-11.1313
▁Vol	-11.1317
ವಾಗುವದಿಲ್ಲ	-11.1333
▁ಹರ್ಷ	-11.1335
ಕ್ರಿಯೆ	-11.1346
▁ಪಾತ್ರೆಯಲ್ಲಿ	-11.1352
each	-11.1353
ಯಾಕಂದರೆ	-11.1355
ಇದಲ್ಲದೆ	-11.1355
▁ಖಚಿತಪಡಿಸ	-11.1357
▁ಅಮಾಲೇಕ್ಯರ	-11.1359
▁ಕಾರ್ಯನಿರ್ವಾಹಕ	-11.1359
▁ಪ್ರತ್ಯಾದಾನ	-11.1359
▁ಸಂರಕ್ಷಣೆ	-11.1359
▁ನಿಟ್ಟಿನಲ್ಲಿ	-11.1359
▁ಇಮೇಜ್	-11.1359
▁ಹಿನ್ನಲೆ	-11.1359
▁ಗೊರಕೆ	-11.1359
▁ಸಫಾರಿ	-11.1359
▁ನಿಕಟ	-11.1359
▁ಮುದ್ರಕ	-11.1359
▁ಅಜರ್ಯನ	-11.1359
ಬಹುದೆಂದು	-11.1359
▁\(	-11.136
▁ಸಲೇಮಿನ	-11.136
▁ಹುಳಿಯಿಲ್ಲದ	-11.136
▁ಮೂಗಿನ	-11.1361
▁wala	-11.1361
▁ಗಟ್ಟಿಯಾಗಿ	-11.1361
▁ನಿಗದಿ	-11.1365
▁ಬೆಳೆಯುತ್ತಿರುವ	-11.1366
▁ಯಂತ್ರಾಂಶ	-11.1368
▁(8)	-11.1368
▁ಪಡೆಯುತ್ತೀರಿ	-11.1368
▁ಫಾಸ್ಟ್	-11.1368
▁ಬ್ಯಾಂಡ್	-11.1371
▁ಗ್ರಾಹಕೀಯ	-11.1373
▁Devi	-11.1373
▁ಹೋಗುತ್ತಿದ್ದ	-11.1375
▁ದೊರೆತನ	-11.1376
▁ಯೇಲ್ಯರ	-11.1384
▁ಉಣ್ಣ	-11.1387
▁ಆಳಿಕೆಯ	-11.139
▁ಜಿಎಸ್	-11.1396
▁4.5	-11.1403
▁ಮೆಶ್	-11.1403
It	-11.1407
▁Job	-11.1408
▁ತಿಳುಕೊಳ್ಳುವ	-11.1409
▁ಕುಮಾರ್ತೆಯರೂ	-11.1415
▁ಎಕ್ಸ	-11.1415
▁ಪ್ರಧಾನರೂ	-11.1423
▁7.5	-11.1429
▁ನೋಡುವದಕ್ಕೆ	-11.143
9.95	-11.1431
▁ಧೂಳಿನ	-11.1435
▁comment	-11.1438
ಫೊ	-11.1438
ಿಸುತ್ತಿದ್ದ	-11.1439
▁Rod	-11.1441
▁ಅರಿವು	-11.1445
▁0.6	-11.1445
▁ಹಾಕಲ್ಪಡ	-11.1447
MPa	-11.1448
ಟ್ರೊ	-11.1455
ender	-11.1457
BL	-11.1471
▁ಸಂಶೋಧಕ	-11.1472
right	-11.1475
BRL	-11.1489
ular	-11.1493
heat	-11.1493
▁ಗುಣುಗುಟ್ಟ	-11.15
▁ಮುಂದುವರೆಯ	-11.15
▁ಸ್ಟೀರಾಯ್ಡ್	-11.15
▁America	-11.15
▁ಚರಿತ್ರೆ	-11.15
▁ನ್ಯೂಯಾರ್ಕ್	-11.15
▁ಪ್ರಕಾಶಮಾನವಾದ	-11.15
▁ಮ್ಯಾನೇಜ್ಮೆಂಟ್	-11.15
▁ಯೂಟ್ಯೂಬ್	-11.15
▁ಸ್ಟುಡಿಯೋ	-11.15
▁ಸ್ಥಾಪಕ	-11.15
▁ನಿವ್ವಳ	-11.15
▁ಫ್ರಾಂಕ್	-11.15
▁ಯೋವಾಷನ	-11.15
NUM	-11.15
▁ಎಜ್ರನ	-11.15
▁ಐನೂರು	-11.15
▁PDF	-11.15
▁ವಾಸ್ತು	-11.15
▁ಶುಚಿ	-11.15
▁College	-11.15
ುವಂತಿಲ್ಲ	-11.1501
▁(2017)	-11.1501
▁ಪ್ರವಾದನೆ	-11.1501
▁ನಾವೆಲ್ಲರೂ	-11.1501
ಭಾಷೆ	-11.1502
▁ಬಿಲ್ಡಿಂಗ್	-11.1503
▁ದಿಕ್ಕು	-11.1504
▁ಬೀಜಿಂಗ್	-11.1506
▁ಲೋಟನ	-11.1506
jiang	-11.1506
▁ತಯಾರಿಸಲಾಗುತ್ತದೆ	-11.1507
▁ಮೋವಾಬ್ಯರ	-11.1508
▁ಹ್ಯಾಂಗ್	-11.1511
anna	-11.1513
▁ಸಾರಳ	-11.1517
▁ಬಯಸುತ್ತಾರೆ	-11.1517
▁MiB	-11.1517
▁ಸಲ್ಲಿಸಲಾಗಿದೆ	-11.1518
▁ಬಾಗಲಲ್ಲಿ	-11.1519
(33)	-11.1529
ಿಸಲಿ	-11.1535
▁6000	-11.1543
▁ಆಜ್ಞಾಪಿಸಿದ್ದ	-11.1543
▁ನಿಯಂತ್ರಿಸಲು	-11.1544
▁ಟ್ರೈ	-11.1544
▁ಕುಮಾರರನ್ನೂ	-11.1545
▁ಹೊಗೆಯ	-11.1548
▁100,000	-11.1552
▁ಕೇರ್	-11.1552
ಬೇಕೆಂದೂ	-11.1554
ವನ್ನಾಗಲಿ	-11.1557
▁Day	-11.1561
you	-11.1573
▁ಅಸಹ್ಯವಾದ	-11.1581
▁ನಾಲ್ಕ	-11.1589
▁ಮಾತನಾಡಿದನು	-11.159
▁ಚದುರ	-11.1596
Shop	-11.1602
▁ಒತ್ತಾಯ	-11.1605
ಎಎಸ್	-11.1621
▁ಅರ್ಥಮಾಡಿಕೊಳ್ಳ	-11.1626
ಮಿತಿ	-11.163
▁ಹೆಂಗಸರ	-11.1638
▁ಆವಿಷ್ಕಾರ	-11.1642
▁ಫ್ಲಾಶ್	-11.1642
▁ಭಾವನಾತ್ಮಕ	-11.1642
▁ಮೀಸಲಾಗಿರುವ	-11.1642
▁DIY	-11.1642
▁ಕೀಲಿಮಣೆ	-11.1642
▁ನಿಬಂಧನೆ	-11.1642
▁ಸಿಲಿಂಡರ್	-11.1643
▁ಹೊರಟುಹೋದನು	-11.1643
▁ಗಿರಣಿ	-11.1643
▁ಆಫೀಸ್	-11.1643
DKK	-11.1643
ಶತಾಧಿಪತಿ	-11.1644
▁ಸೂಳೆಯ	-11.1644
▁ನಾತಾನನ	-11.1645
wood	-11.1645
▁ನೂತನ	-11.1645
ವಸ್ತ್ರ	-11.1647
▁ಅಡವಿ	-11.1648
▁Powered	-11.1649
▁ನನಗಿಂತ	-11.1654
roll	-11.1661
▁ಕೋಲಿನ	-11.1663
▁ಸವಿಾಪಿಸ	-11.1674
▁ಮಾಡೋಣ	-11.1682
▁ಸಂಗ್ರಹಿಸಲು	-11.1683
ಹಾಗಲ್ಲ	-11.1683
▁ಅತಿಯಾದ	-11.1687
meter	-11.1689
▁ಶಾಯಿ	-11.1694
▁ಟಚ್	-11.1701
ಿಸಲ	-11.1706
ಗಾಳಿ	-11.1708
▁ಎನ್ನುವ	-11.1727
▁ಕೆಡವಿಹಾಕ	-11.1728
▁ನಿಧಾನ	-11.173
▁ಮೆಮೊ	-11.1733
877	-11.1734
▁ಪಾಪಿಗಳ	-11.1736
▁5.0	-11.1745
ಕೊಳ್ಳಬಾರದು	-11.1749
▁ತೊಡೆ	-11.1758
ವರ್ಷ	-11.176
▁ತೊಳೆಯುವ	-11.1768
rick	-11.1771
▁ಬೆಂಕಿಯಲ್ಲಿ	-11.1772
▁ಕ್ರೂ	-11.1775
ಬೈಟ್	-11.1781
(6)	-11.1784
ದ್ದಾರೆಂದು	-11.1786
▁ಒಳ್ಳೇದಾಗಿ	-11.1787
▁AASraw	-11.1787
▁Categories	-11.1787
▁Whatsapp	-11.1787
▁ಕಾಂಪೆನ್ಸೇಷನ್	-11.1787
▁ಗೋಲ್ಡನ್	-11.1787
▁ಗ್ರಾಫಿಕ್ಸ್	-11.1787
▁ದೈವೋಕ್ತಿ	-11.1787
▁ನಿಯೋಜಿಸ	-11.1787
▁ಬ್ರೆಜಿಲ್	-11.1787
▁ಸೃಜನಶೀಲ	-11.1787
▁ಕಾರ್ಯವಿಧಾನ	-11.1787
▁ಗಿಲ್ಯಾದ್	-11.1787
▁ನಿರಪರಾಧಿ	-11.1787
▁ಪ್ರೊಸೆಸರ್	-11.1787
▁ನೆನಪು	-11.1787
▁ಮುಂಚಿನ	-11.1787
▁ಪುಷ್ಪ	-11.1787
content	-11.1788
▁ಬಟ್ಟಲು	-11.1788
▁ಮೀಡಿಯಾ	-11.1788
▁admin	-11.1788
▁ತ್ಯಜಿಸ	-11.1788
▁ಫಿಲ್ಮ್	-11.1788
▁SMD	-11.1788
▁ಜೂಲೈ	-11.1789
▁ಮುಂಭಾಗ	-11.1789
▁ಹಿಡುಕೊಂಡು	-11.179
▁ಬ್ರಹ್ಮ	-11.1791
▁ಅಪಾಯಕಾರಿ	-11.1791
▁ಕರುಣಾ	-11.1794
▁ಸಬ್ಬತ್ತು	-11.1796
▁ಹತ್ತನೇ	-11.1799
soft	-11.1803
ಯಾಗಿರುತ್ತದೆ	-11.1805
▁USA	-11.1815
ರಾಗುವರು	-11.1823
▁ಅಧಿಪತಿಯು	-11.1824
▁ತೊಡೆಯ	-11.1831
IO	-11.1834
777	-11.1839
▁Cap	-11.1839
ಮೊದಲ	-11.1844
▁ಇಳಿದುಕೊಂಡ	-11.1845
ಚ್ಚರನ	-11.1846
▁ಅಷ್ಟೇ	-11.1846
ೋತ್ತರ	-11.1854
▁ಏಲಿಯ	-11.1855
blog	-11.1868
▁ಕಪ್ಪೆ	-11.1873
185	-11.1883
▁ಹೊಂದುವಂತೆ	-11.1883
▁ವ್ಯಾಖ್ಯಾನ	-11.1888
▁ಅನ್ವಯಿಸುವ	-11.1889
▁afte	-11.1895
rade	-11.1912
▁ಕೊಂಡುಕೊಳ್ಳ	-11.1913
▁ಸಿಮೆಯೋನನ	-11.1914
▁ಏರಿಕೆ	-11.1914
Player	-11.1917
ст	-11.192
ball	-11.1928
▁ಖಾತ್ರಿ	-11.1934
uff	-11.1934
▁ಅವ್ಮೆಾ	-11.1934
▁ಬಾಷಾನಿನ	-11.1934
▁ಲಗತ್ತಿಸ	-11.1934
▁Decals	-11.1934
▁Sueneé	-11.1934
▁ಆಲೋಚನಾ	-11.1934
▁ಇಸ್ಸಾಕಾರನ	-11.1934
▁ಕಸಬುಟ್ಟಿ	-11.1934
▁ಕೆರೂಬಿಯ	-11.1934
▁ಖರ್ಜೂರ	-11.1934
▁ಡಕ್ಯಾಟಿಯು	-11.1934
▁ಫೋಲ್ಡರನ್ನು	-11.1934
▁ಮನರಂಜನೆ	-11.1934
▁ಸೊಗಸಾದ	-11.1934
▁yobt	-11.1934
▁ಕೃಪಾ	-11.1934
▁ಹ್ಯಾಂಡಲ್	-11.1934
▁ಕಾಲೇಬನ	-11.1934
▁ದಯಪಾಲಿಸ	-11.1934
▁ಗದರಿಕೆ	-11.1934
▁ಶಿಬಿರ	-11.1935
▁ಫ್ಲೈಟ್	-11.1935
▁ಲಿನಕ್ಸ್	-11.1935
fsx	-11.1935
▁ಲೇಯಳ	-11.1936
▁ಪ್ರಾಯವುಳ್ಳ	-11.1937
▁ಅತಿದೊಡ್ಡ	-11.1937
▁just	-11.1937
▁ಮತದಾನ	-11.1937
▁ಅರಾಮಿನ	-11.1937
▁ಹಾಡುಗಾರರ	-11.1939
▁ಒಳಗೊಂಡಿತ್ತು	-11.1939
▁ಫಿಲಿಪ್	-11.194
ನಿಕಲ್	-11.1943
▁ಮಚ್ಚೆ	-11.1943
▁(10)	-11.1945
video	-11.1947
ಇಸ್ರಾಯೇಲ್	-11.1948
▁ಅರ್ಪಿಸಿದನು	-11.1957
ಬೆರಳ	-11.1958
▁ಪಿಎಲ್	-11.1958
▁ಮಾಡುವದನ್ನು	-11.196
▁ಪ್ರೈ	-11.1966
ಿಗೇ	-11.1969
▁ಕಾಲುವೆ	-11.197
▁ವಿವರಿಸುತ್ತದೆ	-11.1976
▁ಬಾಯ್	-11.1977
▁ಸ್ಥಾಪಿಸಿದ	-11.1979
▁ತಿಳಿಯುವದು	-11.198
▁ಕಂಡುಕೊಳ್ಳುವ	-11.1984
ದಿದ್ದಲ್ಲಿ	-11.1993
point	-11.1994
▁ಕರಡಿ	-11.1995
ವೆಲ್ಲವೂ	-11.2001
▁ಭಯಂಕರವಾದ	-11.2009
ious	-11.2012
▁ತೀರಿಸಿದ	-11.2015
▁ಸ್ವೀಕರಿಸಿದ	-11.2023
▁ಪಟ್ಟಣಗಳನ್ನೂ	-11.2024
ION	-11.2042
▁ಸಂಭವಿಸಿದ	-11.2044
shop	-11.2061
▁0.4	-11.2062
▁ಚದರಿಸಿ	-11.2063
▁ಯಜ್ಞವೇದಿ	-11.2073
ಾನುಸಾರ	-11.2074
▁ಯೌವ	-11.2078
111,	-11.2081
▁ಎಫ್ರಾಯಾಮನ	-11.2082
▁ರೆಸಾರ್ಟ್	-11.2084
support	-11.2084
▁August	-11.2084
▁Choose	-11.2084
▁Dropshipping	-11.2084
▁which	-11.2084
▁ಅಹಜ್ಯನ	-11.2084
▁ಆತ್ಮಹತ್ಯೆ	-11.2084
▁ಕೈಚಾಚಿ	-11.2084
▁ನಡೆಸಲ್ಪಡುತ್ತಿದೆ	-11.2084
▁ನಿರೋಧನ	-11.2084
▁ನೆಪೋಮುಕ್	-11.2084
▁ಪ್ಯಾಕೇಜುಗಳ	-11.2084
▁ಫುಟ್ಬಾಲ್	-11.2084
▁ಬ್ರಿಟಿಷ್	-11.2084
▁ವಿಮೋಚನೆ	-11.2084
▁ಅನುಷ್ಠಾನ	-11.2084
▁ಸೇರ್ಪಡೆ	-11.2084
▁ಹೆದ್ದಾರಿ	-11.2084
▁NEMA	-11.2084
▁ಕಾರ್ಬನ್	-11.2084
▁ಘೋರ	-11.2084
▁ವಿಲೇಜ್	-11.2084
▁ಅನುಕ್ರಮ	-11.2084
▁ವಿಾಕನ	-11.2084
ಸ್ಕೀಮ್	-11.2084
Search	-11.2084
▁ಸ್ಮಾರ್ಟ್ಫೋನ್	-11.2084
▁ಹೊಂಚಿ	-11.2085
▁ಎನ್ನುವುದು	-11.2085
▁Posted	-11.2088
▁ಸ್ವರ್ಗ	-11.2089
▁ಪ್ರತಿನಿಧಿಸುತ್ತ	-11.209
▁ಶತ್ರುವಿನ	-11.2091
▁ಅಗತ್ಯವಿದ್ದ	-11.2093
▁ಅನುಸ್ಥಾಪನೆ	-11.2093
▁ನೀಲ	-11.2096
▁ಟೆಸ್ಟ್	-11.2097
▁ನೋಡಲಾಗಿ	-11.21
ಹೌದು	-11.2102
▁ಬಂಗಾರವನ್ನೂ	-11.2103
▁ತಾಜಾ	-11.2104
▁ಸುಟ್ಟುಬಿಟ್ಟ	-11.2106
▁ತೊಲೆ	-11.2106
▁big	-11.2108
▁ಓಟ್ಸ್	-11.211
▁ದಿಕ್ಕಿನ	-11.2118
▁ಕೊಟ್ಟೆನು	-11.2126
ದ್ದೀರಾ	-11.2131
▁ಮಾಡಬೇಡಿರಿ	-11.2136
▁ಉರ್ಲ	-11.2137
▁ಕುಂದ	-11.214
▁ಶಾಶ್ವತವಾಗಿ	-11.2143
▁ಇರುವುದಿಲ್ಲ	-11.2151
▁ನಿಧಾನವಾಗಿ	-11.2152
▁ತಿಳು	-11.216
159	-11.216
▁ಐವತ್ತ	-11.2161
▁ಸ್ಥಗಿತಗೊಳಿಸ	-11.2161
ೇನೆಂದರೆ	-11.218
ಕೊಂಡಿದ್ದಾರೆ	-11.2182
lity	-11.2182
▁ದೊಡ್ಡದಾಗಿ	-11.2188
ದರಿಂದಲೂ	-11.2201
▁ಕೊಬ್ಬಿದ	-11.2205
▁ಸೀಳು	-11.2222
▁discuss	-11.2235
▁ಗಾರ್ಡನ್	-11.2235
▁ಡೆಲಿವರಿ	-11.2235
▁ಹಿಂಜರಿಯಬೇಡಿ	-11.2235
▁ಅಸಡ್ಡೆ	-11.2235
▁ಪ್ರೈವೇಟ್	-11.2235
▁ಕ್ಲೀನ್	-11.2235
▁ದೂಷಣೆ	-11.2235
▁ಪ್ರಾಮುಖ್ಯತೆ	-11.2235
▁ಮಂಗಳೂರು	-11.2235
▁ಕೊಂಡಾಡಿರಿ	-11.2235
▁ರವಾನಿಸ	-11.2235
▁Open	-11.2235
▁ಒಬ್ಬೊಬ್ಬನು	-11.2235
▁ಸಂಘಟನೆ	-11.2235
▁ತರಹದ	-11.2236
▁ನೆರವು	-11.2237
▁ಎಫ್ಎಕ್ಸ್	-11.2239
▁ಉಪನಗರಗಳೂ	-11.2239
unch	-11.2241
▁ಸಚಿವ	-11.2241
▁ವರ್ತಕರ	-11.2241
▁some	-11.2242
▁ರತ್ನ	-11.2242
▁ನೇರಳೆ	-11.2243
▁ಚೀಸ್	-11.2245
▁ಪುನರ	-11.2247
▁ಭಾರೀ	-11.2249
▁ಆರಂಭಿಸಿದರು	-11.2249
▁ಹೊಂದಿರುತ್ತವೆ	-11.225
ಸಂಖ್ಯೆ	-11.2255
ಪ್ರಸ್ತುತ	-11.2257
×	-11.2258
ಅಕ್ಟೋಬರ್	-11.2258
▁ಬಾಧ್ಯವಾಗಿ	-11.2261
▁ಹಾಲಿನ	-11.2273
▁ಜ್ವಾಲೆಯ	-11.2278
▁ಹೆಚ್ಚಿಸಿಕೊಳ್ಳ	-11.2281
2.6	-11.2291
▁ಹೇಳಿದ್ದನ್ನು	-11.2304
ZU	-11.2305
ika	-11.2309
ುವುದಕ್ಕಾಗಿ	-11.231
▁ಸಮಾಧಿಯಲ್ಲಿ	-11.2316
face	-11.2324
▁ಕಡಿದುಹಾಕ	-11.2338
ಪ್ರಾರಂಭವಾಗುತ್ತದೆ	-11.2348
▁ಜೀನ್	-11.2351
ುವದೇನು	-11.2353
▁sw	-11.2362
▁6.5	-11.2365
▁ಕಳುಹಿಸಲ್ಪಟ್ಟ	-11.2371
▁ಕೈಗೊಳ್ಳ	-11.2374
current	-11.2389
▁Business	-11.2389
▁pinterest	-11.2389
▁ಕನ್ವೇಯರ್	-11.2389
▁ಕುತೂಹಲ	-11.2389
▁ತನ್ಮೂಲಕ	-11.2389
▁ದಸ್ತಾವೇಜನ್ನು	-11.2389
▁ಯಶಸ್ಸು	-11.2389
▁ಸಂಯೋಜಿತ	-11.2389
▁ಸರ್ಕ್ಯೂಟ್	-11.2389
▁ಅಪಘಾತ	-11.2389
▁ಆಕರ್ಷಿಸ	-11.2389
▁ಹನ್ನೊಂದು	-11.2389
▁ಪುರಾವೆ	-11.2389
▁ಪ್ರಸಾದ್	-11.2389
▁ಸಹೋದ್ಯೋಗಿ	-11.2389
▁ಚಿಂತನೆ	-11.2389
▁ಮಾಡಿಕೊಡುತ್ತದೆ	-11.2389
▁ಹೊಂಚು	-11.2389
▁Prepar	-11.2389
▁ಬಿರುಕು	-11.2389
▁ಹರಾಜು	-11.2389
▁ಮುದ್ದಿಟ್ಟ	-11.2389
▁ಎನ್ನುವುದನ್ನು	-11.239
▁ಶಾಸನ	-11.239
▁(2015)	-11.239
▁ಯಾಕಂ	-11.239
▁ನೀವೆಲ್ಲರೂ	-11.239
▁ಯಾವದನ್ನೂ	-11.2391
▁ಗಾಢ	-11.2392
▁ಟೆಂಡರ್	-11.2392
▁ಹಿಂದೂ	-11.2394
▁ಕುಣಿಕೆ	-11.2396
▁ಇರ್ರಿ	-11.2396
▁ದಾಖಲಿಸಿದವರು	-11.2397
▁ಜಜ್ಜ	-11.2399
7.2	-11.2401
ುತ್ತಿರಲಿಲ್ಲ	-11.2405
trac	-11.2407
Mail	-11.241
ಪಾಯಿಂಟ್	-11.2422
▁ಮರೆಯಾಗಿ	-11.2424
▁ಬೆಂಬಲಿತ	-11.2431
▁ಪ್ರತಿಯೊ	-11.2436
ವಿಜ್ಞಾನ	-11.2437
▁but	-11.2443
ಉದಾ	-11.2447
▁ಪಾಲಿಸ	-11.2453
▁ಸ್ವಾಧೀನಪಡಿಸಿ	-11.2462
▁ಮರೆತುಬಿಡ	-11.2462
▁ಕರೆಯಲ್ಪಡ	-11.2467
▁ನಿರ್ಮಿಸಿದ	-11.2467
ವರಾಗಿದ್ದಾರೆ	-11.2476
▁ಬಿಡುಗಡೆಯಾಗ	-11.248
▁ಮುಚ್ಚಿಕೊಂಡ	-11.2496
▁ಆವರಿಸಿ	-11.2501
auto	-11.2503
ಾಯೈ	-11.2504
▁ಪ್ರಕಾಶಿಸ	-11.2516
▁ತಿರುಗಿಕೊಂಡ	-11.2531
▁ಬದಿಯಲ್ಲಿ	-11.2534
global	-11.2545
▁CatCollection	-11.2545
▁ಅಲೆಕ್ಸಾ	-11.2545
▁ಅಲ್ಯುಮಿನಿಯಮ್	-11.2545
▁ಅಲ್ಯೂಮಿನಿಯಮ್	-11.2545
▁ಅಳೆದನು	-11.2545
▁ಕವಾಸಕಿ	-11.2545
▁ನಿವಾರಣೆ	-11.2545
▁ಪ್ರಕ್ಷೇಪ	-11.2545
▁ಮೆಟೀರಿಯಲ್	-11.2545
▁ವಾಸ್ತುಶಿಲ್ಪ	-11.2545
▁ವಿದ್ಯುನ್ಮಾನ	-11.2545
▁ಸಿದ್ಧಾಂತ	-11.2545
▁ಸಿಯೆರಾ	-11.2545
ಬೇಕಾಗಿಲ್ಲ	-11.2545
▁ನೆರೆಯವರ	-11.2545
▁ಮಾಪಕ	-11.2545
▁like	-11.2546
▁SEK	-11.2546
▁ವಿದೇಶದಲ್ಲಿ	-11.2546
▁ದೃಶ್ಯಾವಳಿ	-11.2546
house	-11.2548
ಡೀಮನ್	-11.2548
▁ಸುವರ್ಣ	-11.2549
▁ವ್ಯವಸ್ಥಾ	-11.255
▁ಹೊಗಳಿಕೊಳ್ಳ	-11.255
▁Updated	-11.2551
▁ಕಾರಣದಿಂದಾಗಿ	-11.2555
▁ಫ್ಯೂ	-11.2555
▁ಟ್ಯಾಬ್	-11.2556
▁ಮರ್ಮ	-11.2558
▁ಹೊರಬರ	-11.2559
▁ಹೇಳುವದನ್ನು	-11.2562
▁ಒಡ್ಡ	-11.2563
▁ಪಕ್ಕದಲ್ಲಿ	-11.2566
▁ಖೋ	-11.2567
▁ಸಿಕ್ಕಿತು	-11.2567
▁ಪಕ್ಷಿಯ	-11.257
ಯುಳ್ಳವನಾಗಿ	-11.257
▁ಇರಬಾರದು	-11.2571
▁ಲಾಂಗ್	-11.2571
▁ದೃ	-11.2572
▁ಕೆಲವರ	-11.2573
▁ದ್ದನು	-11.2577
▁ದರ್ಜೆಯ	-11.258
ಸಂಬಂಧ	-11.2581
▁ರೊಟ್ಟಿಯನ್ನೂ	-11.2584
hong	-11.259
▁ಮಹಿಮೆಪಡಿಸ	-11.2594
▁ಟಗರು	-11.2598
▁ಕಳುಹಿಸಿಬಿಟ್ಟ	-11.2612
ನ್ಯಾಯಪ್ರಮಾಣವನ್ನು	-11.2614
China	-11.2618
ASS	-11.2634
▁ವಂಶದವ	-11.2636
Sou	-11.264
2-4	-11.2659
▁ಪೋಷಕ	-11.2663
ಒಬ್ಬ	-11.2667
▁ಕಾರ್ಮಿಕರ	-11.2668
▁ಬಲಿಯಾಗಿ	-11.268
▁ಅನುಭವಿಸುವ	-11.2681
▁ಪುತ್ರರ	-11.2682
ಸೆಪ್ಟ	-11.2686
▁ನಿಗದಿಪಡಿಸ	-11.2687
▁ಎದೋಮಿನ	-11.2694
▁ಉಪನಗರ	-11.2697
▁ಅಪೊಸ್ತಲ	-11.2698
▁ಮೋವಾಬ್	-11.2698
▁ದಾಖಲಿಸ	-11.2699
▁ಮಂಜೂ	-11.2701
system	-11.2704
symbols	-11.2704
▁ಉಲ್ಲಂಘನೆ	-11.2704
▁ಪ್ರಾದೇಶಿಕ	-11.2704
▁ರೆಬೆಕ್ಕಳ	-11.2704
▁ವಿಟಮಿನ್	-11.2704
▁ಸಿಮ್ಯುಲೇಟರ್	-11.2704
▁ಹಿಲ್ಕೀಯನ	-11.2704
▁information	-11.2704
▁ಅನುಸರಣೆ	-11.2704
▁ತೇವಾಂಶ	-11.2704
▁ಭ್ರಷ್ಟ	-11.2704
▁ಮೊರೆಯಿಡ	-11.2704
▁ಪೈಲಟ್	-11.2704
▁ಅನುದಾನ	-11.2704
▁ಮತ್ತೊಮ್ಮೆ	-11.2705
▁ಪೂರ್ಣಹೃದಯದಿಂದ	-11.2705
ಪ್ರಜ್ಞೆ	-11.2706
▁ಯೆರಿಕೋವಿನ	-11.2706
760	-11.2706
photo	-11.2707
ಕೈಸರನ	-11.2707
nnel	-11.2708
▁ಜರುಗಿ	-11.2708
▁ಪೂಜೆ	-11.271
▁ರೈತರ	-11.2711
▁ಈಡೇರ	-11.2711
▁ಕ್ಲಾಷ್	-11.2712
ны	-11.2713
ಮೂರ್ತಿ	-11.2715
ather	-11.2716
▁Blog	-11.2716
▁ಕಳವರ	-11.2716
▁Gold	-11.272
House	-11.2721
▁ಕುಮಾರರಿಗೂ	-11.2724
▁ಸ್ನೇಹ	-11.2727
▁ಇರುವದನ್ನು	-11.2736
▁Mix	-11.2739
evel	-11.2742
ಸಾವಿರ	-11.2742
▁ಚಿಕ್ಕದಾಗಿ	-11.2746
▁ಕೂಡಿಬಂದ	-11.275
▁ಆತ್ಮನಿಂದ	-11.2751
▁ಹಾಕಿಕೊಂಡ	-11.2759
space	-11.2759
▁ಯಜಮಾನ	-11.2778
▁ಇಷ್ಮಾಯೇಲನ	-11.278
▁ಅಪಾರ	-11.279
ೆದುರಿಗೆ	-11.2793
ಬೋಧಕನೇ	-11.2793
ುವದಕ್ಕಾಗ	-11.2796
▁ಸಂಸ್ಕರಣ	-11.2803
▁date	-11.2812
▁ನಾಲ್ವ	-11.2812
▁ಗೊತ್ತಾಗ	-11.2821
▁ನೇಮಿಸಲ್ಪಟ್ಟ	-11.2835
▁ಪ್ರಸ್ತಾಪ	-11.2842
ude	-11.2852
ಇಲ್ಸ್	-11.2853
▁ಕ್ಯಾಲೆಂಡರ	-11.2859
▁ಖಂಡಿಸ	-11.2861
▁ಪೌಷ್ಟಿಕ	-11.2865
ಗನುಸಾರವಾಗಿ	-11.2865
▁Accessed	-11.2865
▁lakhs	-11.2865
▁shopping	-11.2865
▁ಛಾವಣಿ	-11.2865
▁ಬಯಸುತ್ತೀರೆ	-11.2865
▁ಬಾಹ್ಯಾಕಾಶ	-11.2865
▁White	-11.2865
▁ಯೀಸ್ಟ್	-11.2865
▁ಬಗೆಗಿನ	-11.2865
▁ಬಜಾಜ್	-11.2865
▁ವಿಕಸನ	-11.2865
▁ಕುರುಡನ	-11.2865
▁ಡಿಸೈನ್	-11.2865
machine	-11.2866
▁ಸೂಚಕಕಾರ್ಯ	-11.2866
▁ನಿಲುವು	-11.2867
▁ವೀರ್ಯ	-11.2867
▁ಒಂದೆರಡು	-11.2867
▁ಅದ್ಭುತಕಾರ್ಯ	-11.2867
▁ಕೊಯ್ದ	-11.2868
▁ಬಿಲಿಯನ್	-11.2868
▁ಹೀರಿಕೊಳ್ಳ	-11.287
▁ತೋಪು	-11.287
ಎಂಎಂ	-11.2872
image	-11.2874
▁ಗೋಚರ	-11.2877
ಐಗುಪ್ತದೇಶದೊಳಗಿಂದ	-11.2877
▁ಉತ್ಪಾದಕತೆ	-11.2882
▁ಮೋವಾ	-11.2885
ಕ್ಕಾದರೂ	-11.2886
▁ಬಿರುಗಾಳಿಯ	-11.2888
▁ವಾಸವಾಗಿರ	-11.289
ಫಿನ್	-11.2895
▁ದೊಳಗಿಂದ	-11.2901
ಗೌಡ	-11.2902
ಕೆಲಸ	-11.2907
»	-11.2909
ವಿವರಣೆ	-11.2909
ಭಾರತ	-11.2913
ಹಳ್ಳಿ	-11.2921
yuan	-11.2932
5.0	-11.2947
▁2.8	-11.295
▁ಬುದ್ಧಿಹೀನನ	-11.2965
ುತ್ತದೋ	-11.2966
▁ಮನಸ್ಸೆ	-11.2967
▁ಹಂಚಿಕೊಂಡ	-11.297
▁ಬರಮಾಡುವ	-11.2974
icker	-11.2979
▁ಕುಳಿತುಕೊಂಡ	-11.2985
(20)	-11.2991
▁ಸುಳ್ಳಾಡ	-11.3003
▁ಅಮೇರಿಕ	-11.3012
▁FREE	-11.3029
▁IFFCO	-11.3029
▁Personal	-11.3029
▁ಕಟ್ಟುನಿಟ್ಟಾಗಿ	-11.3029
▁ಕೆಲವೊಂದು	-11.3029
▁ತೆರೆಸೂಚಕ	-11.3029
▁ಮೂಲಸೌಕರ್ಯ	-11.3029
▁Pocket	-11.3029
▁ಆಘಾತ	-11.3029
▁ಸುಗ್ಗಿಯ	-11.3029
▁ಜಾಮೀನು	-11.3029
▁ಮ್ಯಾಜಿಕ್	-11.3029
▁ಸ್ಕೋರ್	-11.3029
▁MOQ	-11.3029
▁ನಡೆಯಲಿದೆ	-11.3029
▁ಸತತ	-11.303
▁ಪ್ರತಿಭೆ	-11.303
▁ಚೌಕಟ್ಟಿನ	-11.303
▁ಆರನೆಯ	-11.303
▁ಹೊಯ್ದ	-11.3031
ngxiang	-11.3031
▁ODM	-11.3033
▁ಉಂಟುಮಾಡಿದ	-11.3033
▁ವೇತನ	-11.3036
ೊಂದಿಗಿನ	-11.3037
▁ಹೈಪರ್	-11.3037
ಕಾಲಿಕ	-11.3039
▁ಬೇರ್ಪಡಿಸ	-11.3041
▁ಉಳಿಯುವುದು	-11.3042
▁ಅನ್ಯಜನಾಂಗ	-11.3044
▁API	-11.3047
▁Your	-11.3048
▁ಏನೆಂದು	-11.3065
▁ಜನ್ಮ	-11.3069
▁ಪೋಷಿಸ	-11.3077
ಆದದರಿಂದ	-11.3078
▁ದೃಢೀಕರಿಸ	-11.3079
search	-11.308
▁ಸೀಮೆಯಲ್ಲಿ	-11.3081
ಅಂದರೆ	-11.3089
9.5	-11.3091
0/-	-11.3091
▁ಸಂಸ್ಕರಣೆ	-11.3093
▁ಸನ್ಮಾನ	-11.3127
▁ಒಳ್ಳೆ	-11.3132
free	-11.3141
▁ಅನುಗ್ರಹ	-11.3141
2-3	-11.3147
ದದ್ದನ್ನೂ	-11.3161
▁ಹೀಗಿರುವ	-11.3166
▁ಬ್ಲಾ	-11.3184
▁ಯೆರಿಕೋ	-11.3194
svenkate	-11.3196
Gilks	-11.3196
▁Chrome	-11.3196
▁Dariussssss	-11.3196
▁Ostrovsky	-11.3196
▁webtalk	-11.3196
▁ಕಾರ್ಟೂನ್	-11.3196
▁ಕಿರ್ಯತ್	-11.3196
▁ಚಾಕೊಲೇಟ್	-11.3196
▁ಡೆಸ್ಕ್ಟಾಪ್	-11.3196
▁ದುಷ್ಕೃತ್ಯ	-11.3196
▁ಪತ್ತೇದಾರಿ	-11.3196
▁ಬೇರ್ಷೆಬ	-11.3196
▁ಬ್ಲೂಟೂತ್	-11.3196
▁ಹುಬ್ಬಳ್ಳಿ	-11.3196
▁ಕಾನೂನಿನ	-11.3196
▁ಭಂಡಾರ	-11.3196
▁ಅರವತ್ತು	-11.3196
▁ಸೀಹೋನನ	-11.3196
▁ವಿಳಂಬ	-11.3196
▁ಪುರಾತನ	-11.3196
▁ಡಿವಿಡಿ	-11.3196
▁ಬಾರ್ನಬ	-11.3196
/06/	-11.3196
▁ಹೆಚ್ಚಿನವುಗಳಿಗೆ	-11.3197
▁ರಕ್ಷಣಾ	-11.3197
▁ಸಂಸೋನನ	-11.3197
▁ಐರನ್	-11.3197
▁ಗೇರ್ಷೋ	-11.3197
▁Zhong	-11.3198
▁ತಿರುಗಿಬಿದ್ದ	-11.3198
▁ಪಠ್ಯಕ್ರಮ	-11.3199
ೆರವುಗೊಳಿಸಲಾಗಿದೆ	-11.3201
▁ಏಲಾಮ	-11.3206
▁ಪ್ರಕಟಿಸಲಾಗಿದೆ	-11.3209
▁ಎಲ್ಎಲ್	-11.321
▁today	-11.3211
▁how	-11.3219
▁ಕಾರ್ಮಿಕ	-11.3235
ಲಾಗಿರುತ್ತದೆ	-11.3238
▁ನಡೆಯುತ್ತಿರುವ	-11.3244
▁ಗಳಿಗೆಯಲ್ಲಿ	-11.3245
ಸಮಾಧಾನ	-11.3247
ದ್ವಾರ	-11.3259
▁ಸೇರಿಕೊಂಡ	-11.3271
▁ದ್ವೇಷ	-11.3287
▁ಸೃಷ್ಟಿಸಿದ	-11.3299
▁ಬರಹಗಾರ	-11.3302
▁ನಿರ್ಬಂಧಿಸ	-11.3313
guard	-11.3313
▁ಒಯ್ಯಲ್ಪಟ್ಟ	-11.333
▁ಕಷ್ಟಕರ	-11.3332
▁ಜ್ಞಾಪ	-11.3337
▁ನವೆಂ	-11.3345
▁ಸಂತತಿಯವರ	-11.335
lling	-11.3363
▁ಬೋಧನ	-11.3365
▁ಅತಿಥೇಯ	-11.3365
▁ಎದುರುನೋಡಬಹುದು	-11.3365
▁ದಿನನಿತ್ಯದ	-11.3365
▁ಧಾರಾವಾಹಿಗಳಲ್ಲಿ	-11.3365
▁ವಿಶ್ಲೇಷಿಸ	-11.3365
▁ಸುರಕ್ಷತಾ	-11.3365
▁ಸ್ಟೆಪ್ಪರ್	-11.3365
▁ಸ್ಟ್ರೀಮ್	-11.3365
▁ಸ್ಫೂರ್ತಿ	-11.3365
▁ಋಣಾತ್ಮಕ	-11.3365
▁ಕಲ್ಯಾಣ	-11.3365
▁ಸಹಭಾಗಿತ್ವ	-11.3365
ನಿಯಂತ್ರಿತ	-11.3365
▁April	-11.3365
▁ಆಸಾಫನ	-11.3365
▁ತಂದೆತಾಯಿಗಳ	-11.3365
▁ಪರಂಪರೆ	-11.3365
▁ಕಾರ್ಯಾಚರಣಾ	-11.3365
▁ನಮೂದು	-11.3365
▁ಅಡಿಪಾಯ	-11.3365
▁ಆರೋಹಿಸ	-11.3365
▁ಹದಿನಾರು	-11.3365
▁ಮೊಗ್ಗು	-11.3366
hivalli	-11.3366
▁ಕೌಂಟರ್	-11.3366
▁ಮುನ್ನೂರು	-11.3367
▁ಹಾರಾಟ	-11.3368
▁ಪ್ರಯೋಗಾಲಯ	-11.3368
ಇಜ್ರೇ	-11.3368
forex	-11.3369
cord	-11.3369
ಲೊಲ್ಲದೆ	-11.337
▁ಹೊಳೆಯುವ	-11.337
▁when	-11.337
▁ಸವಾರರ	-11.3371
▁ಎಸೆದ	-11.3372
▁ಮಾತುಗಳನ್ನೆಲ್ಲಾ	-11.3375
▁ತೆನೆ	-11.3376
▁ಹೇಗೆಂದರೆ	-11.3379
▁ಐಶ್ವರ್ಯವಂತನ	-11.3379
hum	-11.3383
avo	-11.339
▁ಹಗೆಮಾಡುವ	-11.3406
ಾತ್ರೆ	-11.3416
Casino	-11.3426
ಕರ್ನಾಟಕ	-11.3426
ಇಸ್ರಾಯೇಲಿನ	-11.3426
Today	-11.3427
ಎರಡು	-11.3427
7.5	-11.3439
▁his	-11.3439
▁ಸನ್ಮಾನಿಸ	-11.3439
ೆಡ್ಜ್	-11.3467
▁ಫಿಲಿಷ್ಟಿ	-11.3468
ಪರೀಕ್ಷ	-11.3482
▁ಪ್ರಾಯಶ್ಚಿತ್ತಮಾಡ	-11.3483
▁ಪಾಪಬಲಿ	-11.3489
▁ಆಶೀರ್ವದಿಸಿದ	-11.3495
▁ವ್ಯವಹರಿಸ	-11.3499
▁ಹಾಳಾಗುವ	-11.351
ಕೀವ್	-11.3522
▁ತಯಾರಿಸಿದ	-11.3535
europe	-11.3538
▁30-05-2015	-11.3538
▁inlistbox	-11.3538
▁navigation	-11.3538
▁ಗಡಸುತನ	-11.3538
▁ಮರುಬಳಕೆ	-11.3538
▁ಸಂಯೋಜಕ	-11.3538
▁Machine	-11.3538
▁ಎಬ್ಯಾತಾರನ	-11.3538
▁ತಿಮೊಥೆಯ	-11.3538
▁ಮುಂದುವರೆದ	-11.3538
▁ಮೆಕ್ಸಿಕೋ	-11.3538
ಕ್ಕನುಸಾರವಾಗಿ	-11.3538
▁ರೈಲ್ವೆ	-11.3538
▁ಹೇಳುವುದಾದರೆ	-11.3538
▁ರೇಡಿಯೋ	-11.3538
▁ಹಾರ್ಮೋನ್	-11.3538
▁ಆದೇಶತೆರೆ	-11.3538
▁ದರಿದ್ರ	-11.3538
▁ಗೆದಲ್ಯನ	-11.3538
▁ನೂರಾರು	-11.3538
▁ನೈಜೀರಿಯ	-11.3538
▁ಸಿಪಿಯು	-11.3538
▁ಜೆಕರ್ಯನ	-11.3538
facebook	-11.3538
▁ಡ್ರಾಯಿಂಗ್	-11.3539
▁ಆರುನೂರ	-11.3539
▁ಆದಾಮನ	-11.3539
▁ನಿವಾರಿಸ	-11.354
▁ಚುಚ್ಚ	-11.354
▁ಮಾದಕ	-11.354
▁Hope	-11.3542
ರಚನಾ	-11.3542
▁ಒಪ್ಪುತ್ತೀರಿ	-11.3542
▁ಪ್ರಿಂಟ್	-11.3543
▁ಡೋರ್	-11.3548
▁ಕಪಟ	-11.3548
▁ದೊಡ್ಡದಾಗಿದೆ	-11.3553
▁ಭಯಪಡಬೇಡಿರಿ	-11.3553
▁ದಹನಬಲಿಯನ್ನೂ	-11.3554
▁ಕಟ್ಟಿಕೊಂಡು	-11.3557
▁ಹೊಯಿದ	-11.3562
ಅಯ್ಯಾ	-11.3566
▁ಆಕ್ರಮಿಸ	-11.3566
▁ಎಣ್ಣೆಯನ್ನೂ	-11.3569
▁ತಳ್ಳಿ	-11.3575
▁ನಿಮಿತ್ತವಾಗಿಯೂ	-11.3575
Share	-11.3583
ಬಿಡುತ್ತೇನೆ	-11.3602
ಿಸಬೇಡ	-11.3612
▁ಮಿಂಚು	-11.3621
▁4.8	-11.3628
(40)	-11.3635
▁ಇಸಾಕ	-11.3643
dent	-11.3648
▁ತೃಪ್ತ	-11.3654
▁ದಾಟಿಹೋಗ	-11.3658
್ಯುಲ	-11.3667
▁ಶುದ್ಧೀಕರಿಸ	-11.3671
▁ಬಿರುಗಾಳಿ	-11.3689
ನ್ನುಂಟುಮಾಡ	-11.3701
▁Station	-11.3706
ಲ್ಯನ	-11.371
▁51.0.2830.	-11.3713
▁Brahmins	-11.3713
▁Language	-11.3713
▁London	-11.3713
▁Microsoft	-11.3713
▁Network	-11.3713
▁ಕಂಟೈನರ್	-11.3713
▁ಟ್ರ್ಯಾಕಿಂಗ್	-11.3713
▁ಬ್ಲ್ಯಾಕ್ಜಾಕ್	-11.3713
▁ಮಿಳಿತಾನ್ವಯ	-11.3713
▁ಯೇಹುವು	-11.3713
▁ಅಪರಿಚಿತ	-11.3713
▁ಆಗ್ನೇಯ	-11.3713
▁ದಾಳಿಂಬರ	-11.3713
▁ಪ್ರೇರಣೆ	-11.3713
▁ಮುಂಜಾನೆ	-11.3713
▁ರಾಹುತರ	-11.3713
▁hplc	-11.3713
▁ಥೈಲ್ಯಾಂಡ್	-11.3713
▁ವಿಮೆಗಾರರು	-11.3713
▁ಆಪ್ಟಿಕಲ್	-11.3713
ೆಂಡ್ರುಂದೀಬಱ	-11.3713
▁ಡಿಸ್ಕಿನ	-11.3713
ಥೆರಪಿ	-11.3713
▁Image	-11.3713
xBet	-11.3713
▁ಕಾಯ್ದೆ	-11.3713
▁ಕೊಬ್ಬನ್ನು	-11.3713
▁ಬೆಣ್ಣೆ	-11.3713
▁ಸಜ್ಜು	-11.3713
▁ಶೆಮಾಯನ	-11.3713
position	-11.3714
▁ಅಲ್ಟ್ರಾ	-11.3714
▁ವಿಶ್ವದಾದ್ಯಂತ	-11.3715
▁ಯೊರ್ದನಿಗೆ	-11.3715
▁ಲಭ್ಯತೆ	-11.372
▁ಅಲಂಕರಿಸ	-11.3721
▁ಟಾಯ್	-11.3721
▁ದೃಢಪಡಿಸ	-11.3724
▁ಶಿಲ್ಪ	-11.3728
ಯೊಂದನ್ನು	-11.3728
▁ಕಾಳುಗಳ	-11.3731
▁ಬರುವದನ್ನು	-11.374
ಕಾಮರ್ಸ್	-11.3742
▁ಅನ್ವಯಿಸುತ್ತದೆ	-11.3745
್ರೆಸ್	-11.3748
▁ವ್ಯಕ್ತಿತ್ವ	-11.3752
▁ಹೆದರಿಕೆ	-11.3755
▁ತೊಲಗಿಸ	-11.3763
3.00	-11.3768
room	-11.3782
ಪರಿಶುದ್ಧ	-11.3786
ನಿಶ್ಚಯವಾಗಿ	-11.3786
▁ಜಾಲೀ	-11.3787
▁ಚತುರ	-11.38
▁ನೀಚ	-11.3805
ೇನಂದರೆ	-11.3818
▁ಮೌನವಾಗಿರ	-11.3819
▁ಪಡಿಸುವ	-11.3832
ಾಚಾರ್ಯ	-11.3835
ುವಂಥದ್ದ	-11.3876
iko	-11.3876
▁ಪುನರುತ್ಥಾ	-11.3877
▁86-574-8	-11.3892
▁ಕಲ್ಲೆಸೆಯ	-11.3892
▁ಇಸ್ಪೀಟ್	-11.3892
▁ಎದುರಿನಿಂದ	-11.3892
▁ಕೋಪವನ್ನೆಬ್ಬಿಸ	-11.3892
▁ಜಿಯಾಂಗ್ಸು	-11.3892
▁ಜೀವನಚರಿತ್ರೆ	-11.3892
▁ಪರ್ಯಂತರ	-11.3892
▁ಬೇತೇಲಿನ	-11.3892
▁ಮಹಾವೈಭವದ	-11.3892
▁ಮೆರಾರೀಯ	-11.3892
▁ವಯಸ್ಸಾದ	-11.3892
▁ವಹಿವಾಟು	-11.3892
▁ಶುಷ್ಕ	-11.3892
▁ಸೂಚನಾ	-11.3892
▁ಹಣಕಾಸಿನ	-11.3892
▁ನಿರ್ಗಮನ	-11.3892
▁ಸ್ಫೋಟ	-11.3892
▁ಹಿತ್ತಿಯರ	-11.3892
▁ಚಿಕಿತ್ಸಾ	-11.3892
▁ನಿರ್ವಾತ	-11.3892
▁ಬ್ಲೇಡ್	-11.3892
Films	-11.3892
▁52809	-11.3892
▁Place	-11.3892
▁provide	-11.3892
▁ಗ್ರೀಕ್	-11.3892
▁ಬ್ರಿಟನ್	-11.3892
▁ಇಂಚಿನ	-11.3892
▁ಮಾಲ್ಟಾ	-11.3892
friend	-11.3892
▁Apk	-11.3892
▁ಚಿತ್ರಕಲೆ	-11.3892
▁ತ್ರಾಣ	-11.3892
ವರೆಗಿನ	-11.3892
▁ಶೀಘ್ರದಲ್ಲೇ	-11.3892
rypto	-11.3892
▁ಜನ್ಮದಿನ	-11.3892
▁ಸಂಭ್ರಮ	-11.3893
▁ಎಸೆಯ	-11.3893
▁ಫಿಲಿಪ್ಪನ	-11.3893
▁Technology	-11.3894
▁ಕಳಪೆ	-11.3895
▁ಆಯಲ್ಪಟ್ಟ	-11.3895
▁ಯಾವುದಾದರೂ	-11.3896
▁HDPE	-11.3896
▁ಕಾದುಕೊಂಡ	-11.3898
ಿಂದಲಾದರೂ	-11.3899
▁ಉಪಕ್ರಮ	-11.3899
▁ಜೋರಾಗಿ	-11.3899
▁ಬ್ಲೋ	-11.3902
▁ಷ್ಯರ	-11.3927
▁ನುಂಗಿಬಿಟ್ಟ	-11.3929
6.3	-11.3943
▁ಯುವಕರ	-11.3943
▁8.1	-11.3954
ಗ್ರಾಹಕ	-11.3972
▁ಮೂಡಿಸ	-11.3972
ಲಿಯನ್	-11.4006
-560	-11.4021
▁ಪ್ರತಿಕ್ರಿಯಿಸ	-11.4033
▁ಕಾಗದ	-11.4035
▁ಸ್ಪಿನ್	-11.405
ಿಕೊಂಡಿತು	-11.406
3,0	-11.4061
▁ವರ್ಗೀಕರಿಸ	-11.4062
▁ಗಮ್ಯಸ್ಥಾನ	-11.4074
▁KANNADA	-11.4074
▁Krishna	-11.4074
▁Release	-11.4074
▁Twitter	-11.4074
▁ಆರಾಧನೆ	-11.4074
▁ಉತ್ಕೃಷ್ಟ	-11.4074
▁ಒಳಸಂಚು	-11.4074
▁ಕ್ಯಾಶುಯಲ್	-11.4074
▁ಗಣಿಗಾರಿಕೆ	-11.4074
▁ಗೊತ್ತಿರದ	-11.4074
▁ಟಿಯಾಂಜಿನ್	-11.4074
▁ದಾರ್ಯಾವೆಷನ	-11.4074
▁ಪ್ರವಾಸೋದ್ಯಮ	-11.4074
▁ಬರವಣಿಗೆ	-11.4074
▁ಭಾಷಣ	-11.4074
▁ಮಿಲಿಟರಿ	-11.4074
▁ಯೆಬೂಸಿಯರ	-11.4074
▁ಲ್ಯಾವೆಂಡರ್	-11.4074
▁ವರುಷದವನಾಗಿದ್ದು	-11.4074
▁ಸಂಭವನೀಯತೆ	-11.4074
▁ಸ್ವಾಭಾವಿಕ	-11.4074
▁Wonder	-11.4074
▁ಚೇತರಿಕೆ	-11.4074
▁ಹಡಗಿನ	-11.4074
▁ಬೇರೊಂದು	-11.4074
▁ಲಿನಿನ್	-11.4074
▁ದಶಕದ	-11.4074
▁ಮಂದಿಯಾಗಿದ್ದರು	-11.4074
▁ಕನ್ಯೆಯ	-11.4074
▁ಬ್ರಿಕ್ಸ್	-11.4074
▁ಗುತ್ತಿಗೆ	-11.4074
▁ಕಿಚನ್	-11.4074
ದ್ರಾಕ್ಷ	-11.4074
▁Steel	-11.4074
▁ದ್ರಾಕ್ಷೆಯ	-11.4074
▁ವಿಾಕಾ	-11.4074
▁ಶೇಕೆಲಿನಷ್ಟು	-11.4074
/12/	-11.4074
▁ಕಲಿಕಾ	-11.4075
▁ಸಂಚರಣೆ	-11.4075
▁ಉಜ್ಜೀಯನ	-11.4075
▁ಉಷ್ಣಾಂಶ	-11.4075
▁ಗೂಬೆ	-11.4075
▁ಮಾತುಕತೆ	-11.4075
▁ಕೌಟುಂಬಿಕತೆ	-11.4075
▁skin	-11.4077
▁ಹುದ್ದೆ	-11.4077
power	-11.4077
hydr	-11.408
▁ಸಾಧ್ಯವಾಯಿತು	-11.4082
turn	-11.4082
▁ಹುಣ್ಣ	-11.4084
jpg	-11.4085
▁ಕೂತಿರುವ	-11.409
ಬಿಟ್ಟಿದ್ದೀ	-11.4092
ть	-11.4096
▁know	-11.4097
▁ಪೆನ್ನಿ	-11.4097
▁ಇರಿಸಿದನು	-11.4098
▁ನೂಕ	-11.4103
4.5	-11.4106
▁ಸೀಮೋನನ	-11.4116
▁ಶೆಕೆಮಿನ	-11.4141
ಹಿಡಿದು	-11.4151
▁ಹೂಡಿಕೆದಾರರ	-11.4159
ದಾವೀದನ	-11.4159
▁ಸಲ್ಲಿಸಿದ	-11.4165
ಟ್ರಿಪ್	-11.4165
ನಮಗೆ	-11.4168
▁yr	-11.4174
▁ಪ್ರೇರೇಪಿಸಿದ	-11.4221
▁ಹೆಚ್ಚಿದ	-11.4227
▁ಆರನ್	-11.4241
▁ಖಂಡಿತ	-11.4245
ಞ	-11.4251
▁ಹಣ್ಣಿನ	-11.4258
▁ಮದುವೆಯಾಗ	-11.4258
project	-11.4259
▁instagram	-11.4259
▁PTFE	-11.4259
▁Roulette	-11.4259
▁Virtual	-11.4259
▁ಅಪ್ಗ್ರೇಡ್	-11.4259
▁ಅಭಿಷಿಕ್ತನ	-11.4259
▁ಆಲೂಗಡ್ಡೆ	-11.4259
▁ಇಂಟರ್ನ್ಯಾಷನಲ್	-11.4259
▁ಇಟಾಲಿಯನ್	-11.4259
▁ದಸ್ತಾವೇಜು	-11.4259
▁ನೆರೆಹೊರೆ	-11.4259
▁ಮಧುಮೇಹ	-11.4259
▁ಮಹಾಶಬ್ದ	-11.4259
▁ಮುದ್ರಿತ	-11.4259
▁ರಿಕವರಿ	-11.4259
▁ಹೋಲ್ಡರ್	-11.4259
▁ಬೆತ್ತಲೆತನವನ್ನು	-11.4259
▁ಸಂಪಾದನೆ	-11.4259
▁ಸಂರಕ್ಷಿಸ	-11.4259
▁ಅವರಿಬ್ಬರೂ	-11.4259
▁ವೈಫಲ್ಯ	-11.4259
▁ಸರಿಪಡಿಸಲು	-11.4259
▁ಸ್ಪರ್ಧಿ	-11.4259
▁ಅವಲೋಕನ	-11.4259
▁ಅಲಾಯ್	-11.4259
▁ಸಿಂಪಡಿಸ	-11.4259
▁plus	-11.4259
▁2017-18	-11.426
▁need	-11.426
▁ಸಲ್ಲಿಕೆ	-11.426
ರಾಗಿರುತ್ತಾರೆ	-11.4261
▁ಜಿಟಿಎ	-11.4261
▁ಲಿಬ್ನ	-11.4261
▁ದೇವಕುಮಾರ	-11.4261
▁ತ್ಯಾಗ	-11.4262
version	-11.4262
▁ಕುಶಲ	-11.4262
▁ಯುದ್ಧಸ್ಥರ	-11.4263
▁ಶಕ್ತಿಯುತ	-11.4263
▁ಪೋಕರ್	-11.4268
▁ಪರಿಷತ್	-11.4274
▁ಮಿದ್ಯಾ	-11.4276
▁ಅಂದುಕೊಳ್ಳ	-11.4287
Spot	-11.4296
wei	-11.4321
▁ರೋಗಿಯ	-11.4344
▁ಎಫ್ರಾಯಾಮಿನ	-11.4348
ಹಾಗಾದರೆ	-11.4352
ಪ್ರಕಾಶ	-11.4353
ಪ್ರಸ	-11.4363
▁ಮತ್ತೊಂದ	-11.4395
7.0	-11.4417
▁ತೂರಿನ	-11.4426
▁ಅನ್ವೇಷಿಸ	-11.4431
transposh	-11.4448
▁Creampie	-11.4448
▁Tnaflix	-11.4448
▁ಅಹಷ್ವೇರೋಷನ	-11.4448
▁ಆಯ್ಡರ್ಸ್	-11.4448
▁ಗುವಾಂಗ್ಝೌ	-11.4448
▁ಪಾರಸಿಯ	-11.4448
▁ಪಾಲಿಯೆಸ್ಟರ್	-11.4448
▁ಮೆಸೆಂಜರ್	-11.4448
▁ವಿಯೆಟ್ನಾಂ	-11.4448
▁ಕನಸನ್ನು	-11.4448
▁ಶಿಲುಬೆಯ	-11.4448
▁ಸೋಡಿಯಂ	-11.4448
▁Alpha	-11.4448
▁ಕಿವಿಗೊಟ್ಟ	-11.4448
▁ನಿರೂಪಣೆ	-11.4448
▁ರಿಚರ್ಡ್	-11.4448
ವೈವಿಧ್ಯ	-11.4448
▁ಗುಲಾಮ	-11.4448
▁ಕೆಹಾತನ	-11.4448
▁Spy	-11.4448
▁APK	-11.4448
▁ಪ್ರಳಯ	-11.4448
▁ಬ್ಲಾಗರ್	-11.4448
▁ಡಾರ್ಕ್	-11.4449
▁ಕಾವಲುಗಾರರ	-11.4449
▁(2014)	-11.4449
▁Shame	-11.4449
▁ಯೋಜಿಸ	-11.4451
▁etc	-11.4451
▁2010-2019	-11.4451
▁ಕೋಪಗೊಂಡು	-11.4452
▁gold	-11.4452
▁ಅಂಗಾಂಶ	-11.4452
▁ಉತ್ತರಕೊಟ್ಟು	-11.4452
▁ಮುಚ್ಚಿಕೊಳ್ಳ	-11.4455
print	-11.4455
▁ಉಪಗ್ರಹ	-11.4456
▁ಪರಲೋಕದಲ್ಲಿರುವ	-11.4461
▁ಬೆರಳಿನ	-11.4463
ಾಗಿರದೆ	-11.4468
ಮೇಳ	-11.4474
▁ಸುರಿದ	-11.4481
safe	-11.4484
▁ಮೋಸಗೊಳಿಸ	-11.4491
▁ನಡೆದುಕೊಂಡ	-11.4499
ುವುದಕ್ಕಿಂತ	-11.4528
NZD	-11.4547
motion	-11.4552
▁ಅಂಟಿಕೊಂಡ	-11.4559
▁ಪ್ರಕಟಿಸಿದ	-11.4564
▁ಯೋಜನಾ	-11.4566
▁ಯೇಲ	-11.4569
ವೈಶಿಷ್ಟ್ಯವನ್ನು	-11.4588
▁minutes	-11.464
▁number	-11.464
▁people	-11.464
▁ಕನ್ಸಲ್ಟಿಂಗ್	-11.464
▁ಸುತ್ತಮುತ್ತಲಿನ	-11.464
▁Tianse	-11.464
▁ಕಾರ್ಪೆಟ್	-11.464
▁ಜಾಗ್ರತೆಯಾಗಿ	-11.464
▁ಪಾಕಿಸ್ತಾನ	-11.464
▁ಮುಬಾರಕ್	-11.464
▁ಸದಸ್ಯತ್ವ	-11.464
▁Women	-11.464
▁ಬರ್ಲಿನ್	-11.464
▁ರಾಜಧಾನಿ	-11.464
▁JPG	-11.464
▁ಕ್ಯಾಸಿನೋ	-11.464
▁ಅಮ್ಮೋನ್ಯ	-11.464
▁ಮರುಭೂಮಿ	-11.464
▁ಮಾರ್ಟಿನ್	-11.464
▁ದವಡೆ	-11.464
▁ಕ್ಷೌರ	-11.464
▁ಅಶ್ಯೂರ	-11.464
▁ಸ್ಮಾರಕ	-11.464
▁ಕೇಳಿದ್ದಕ್ಕೆ	-11.464
▁ಪ್ಯಾಟರ್ನ್	-11.464
▁ಸ್ಟ್ರಿಪ್	-11.4641
▁ಸರಿಹೊಂದಿಸ	-11.4641
▁ಮಡಿಕೆ	-11.4641
▁ಳಗಿಂದ	-11.4641
ಹೈಡ್ರೋ	-11.4641
blue	-11.4641
▁ಆತುರ	-11.4642
▁ಬಾಯಾರಿ	-11.4642
▁ವಿಶ್ವಾದ್ಯಂತ	-11.4642
▁ವಿಜ್ಞಾನಿಗಳು	-11.4642
▁ಕೆಡುಕ	-11.4642
▁ವಜ್ರ	-11.4642
▁ಬೆಚ್ಚಗಿನ	-11.4643
▁ನಂಬಿಕೆಯಿಂದಲೇ	-11.4644
▁ಆಯ್ದುಕೊಳ್ಳ	-11.4645
▁ಬಿಲ್ಡರ್	-11.4645
▁ಕರ್ಮೆಲ	-11.4646
▁ಎಫೆಸ	-11.4647
▁Chali	-11.4649
▁ವಂಚಿಸ	-11.4656
▁ಈಚೆಯಲ್ಲಿ	-11.4659
▁ಬಾಲ್ಯದ	-11.4698
ವಸ್ಥೆಯ	-11.4699
▁ಲ್ಯರ	-11.47
ಯಂತ್ರ	-11.471
▁೨೦೦	-11.4715
▁ಸಂತಾನದವರ	-11.4716
▁ಫಿಲಿಷ್ಟಿಯನ	-11.4717
▁ಕೂಡಿಕೊಂಡ	-11.4733
▁ಬಹಿರಂಗಪಡಿಸ	-11.4733
“	-11.4749
▁ದೀರ್ಘಕಾಲ	-11.4793
▁ದೌರ್ಜನ್ಯ	-11.4836
▁ವಿಭಜಕ	-11.4836
▁ತಲತಲಾಂತ	-11.4836
▁Porridge	-11.4836
▁ಅನ್ಲಾಕ್	-11.4836
▁ಆಗಾಗ್ಗೆ	-11.4836
▁ಏಜೆನ್ಸಿ	-11.4836
▁ಚಾಂಪಿಯನ್	-11.4836
▁ತಾಲೀಮು	-11.4836
▁ಪೋರ್ಚುಗಲ್	-11.4836
▁ಬ್ಯಾಕ್ಅಪ್	-11.4836
▁ಮಾಲಿನ್ಯ	-11.4836
▁ಯುಗಯುಗಾಂತರಗಳ	-11.4836
▁ವನ್ಯಜೀವಿ	-11.4836
▁ವಿಪರೀತ	-11.4836
▁ವಿಭಜಿಸ	-11.4836
▁ವೈವಿಧ್ಯಮಯ	-11.4836
▁ವ್ಯವಸಾಯ	-11.4836
▁ಸೂಚ್ಯಂಕ	-11.4836
▁Ningbo	-11.4836
▁Software	-11.4836
▁ಭಕ್ಷ್ಯ	-11.4836
▁ಶಾಫಾನನ	-11.4836
▁ಸರಹದ್ದು	-11.4836
▁ಸೇತುವೆ	-11.4836
▁ಅಲೆದಾಡ	-11.4836
▁ಖನಿಜ	-11.4836
▁July	-11.4836
▁ವೇದನೆ	-11.4836
▁ತದನಂತರ	-11.4836
nsurance	-11.4836
school	-11.4836
▁ಹನನ್ಯ	-11.4836
▁ಎಡ್ಜ್	-11.4836
▁ಸಿನೆಮಾ	-11.4836
▁ಸುಳಿವು	-11.4836
▁(2,4	-11.4836
▁ಪರಿಣಿತ	-11.4836
▁CPU	-11.4836
▁ಒಗೆದು	-11.4836
▁CTN	-11.4836
▁look	-11.4837
▁ಯೆಹೋರಾಮನ	-11.4837
▁ಯಾತನೆ	-11.4837
▁ಕೊರೆಯುವ	-11.4837
▁ತಿರುಪತಿ	-11.4838
▁Review	-11.4838
▁ಬಯಲು	-11.4841
▁ಕುಂಡೆ	-11.4842
font	-11.4848
▁ತಳ್ಳಿಬಿಟ್ಟ	-11.4886
▁ಪ್ರೇಮ	-11.4889
▁ಆಹ್ವಾನಿಸ	-11.4899
ವ್ಯವಸ್ಥ	-11.4922
▁ತೊಡಗಿಸಿಕೊಳ್ಳ	-11.4932
ಂಥವುಗಳನ್ನು	-11.4949
Google	-11.4952
ಜುಲೈ	-11.4957
▁ಸಲಹೆಗಾರರ	-11.4974
▁ಕೌಶಲ	-11.5019
▁ತಳ್ಳಿಬಿಡ	-11.5033
upload	-11.5036
▁Chashmah	-11.5036
▁Multigrain	-11.5036
▁Public	-11.5036
▁Taarak	-11.5036
▁mFortune	-11.5036
▁ಅಡ್ಡಪರಿಣಾಮಗಳ	-11.5036
▁ಅಶ್ಲೀಲ	-11.5036
▁ಇಂಜಿನಿಯರಿಂಗ್	-11.5036
▁ಕ್ರಿಶ್ಚಿಯನ್	-11.5036
▁ಗಲಿಬಿಲಿ	-11.5036
▁ಚಾರ್ಜಿಂಗ್	-11.5036
▁ಜಪಾನಿನ	-11.5036
▁ಡಾಂಗ್ಗುವಾನ್	-11.5036
▁ಡ್ಯುಯಲ್	-11.5036
▁ನಿರ್ಣಾಯಕ	-11.5036
▁ಪುನರಾವರ್ತಿಸ	-11.5036
▁ಮೀನುಗಾರಿಕೆ	-11.5036
▁ಮೆದುಳಿನ	-11.5036
▁ಯಶಸ್ಸನ್ನು	-11.5036
▁ಸಂಕುಚಿತ	-11.5036
▁ಸೂರ್ಯೋದಯ	-11.5036
▁ಸ್ಪಿಂಡಲ್	-11.5036
▁ಸ್ವಿಜರ್ಲ್ಯಾಂಡ್	-11.5036
▁credit	-11.5036
▁ಇಂಗ್ಲೆಂಡ್	-11.5036
▁ಘರ್ಷಣೆ	-11.5036
▁ಪರಿಶೋಧನೆ	-11.5036
▁ಪುನಶ್ಚೇತನ	-11.5036
unjarugiri	-11.5036
▁42-500	-11.5036
▁ಆರ್ಕೇಡ್	-11.5036
▁ಉಪದ್ರವ	-11.5036
▁ಮರಣದಂಡನೆ	-11.5036
▁ಕೋಷ್ಟಕ	-11.5036
▁ರಿಮೋಟ್	-11.5036
▁ವಿಲಕ್ಷಣ	-11.5036
▁ಮಸಾಜ್	-11.5036
▁ಮೊರೆಯಿಟ್ಟ	-11.5036
▁ವೇದಿಯ	-11.5036
▁ಈಗಾಗಲೆ	-11.5036
▁ಮಿಡತೆ	-11.5036
▁ಕೆತ್ತನೆ	-11.5036
▁ಪ್ರಣಯ	-11.5036
▁ಶೀಘ್ರಮಾರ್ಗ	-11.5037
▁ಬೀದರ್	-11.5037
▁ATR	-11.5037
▁ಜೀವನಶೈಲಿ	-11.5037
▁ವದಕ್ಕಾಗಿ	-11.5037
▁ಬಲ್ಬ್	-11.5037
▁0086-574	-11.5037
▁ಬದ್ಧತೆ	-11.5037
▁under	-11.5038
▁ಚಾಲನೆಯಲ್ಲಿರುವ	-11.5038
▁Life	-11.5039
▁ತುಕ್ಕು	-11.5039
▁ಮನಸ್ಸುಳ್ಳವ	-11.5039
▁ಹೊಲೆಮಾಡ	-11.5039
▁Love	-11.504
▁ಮೋಲ್ಡ್	-11.504
▁ಬರೆಯಲ್ಪಟ್ಟಿವೆ	-11.5041
okio	-11.5046
▁ಟ್ರೀ	-11.5054
▁ಪಾಲ್ಗೊಳ್ಳ	-11.5066
2.39	-11.5081
▁ಮೆಚ್ಚಿಸ	-11.5093
▁ಅಸಹ್ಯವಾದವುಗಳ	-11.5123
ಸ್ಥಾಪಿಸ	-11.5151
ಸೈಕ್ಲ	-11.5157
ಸಿಎಡಿ	-11.516
ಬಹುದೋ	-11.5164
▁ಮಾಡಿಸಿಕೊಳ್ಳ	-11.5182
▁ಧನ್ಯ	-11.5183
▁ಆಶೀರ್ವ	-11.5186
dictionary	-11.524
▁RedeLin	-11.524
▁Security	-11.524
▁ಅಜ್ಞಾತ	-11.524
▁ಅವಿಧೇಯ	-11.524
▁ಆಟೋಮೊಬೈಲ್	-11.524
▁ಇಂಡಿಕೇಟರ್ಸ್	-11.524
▁ಇನ್ನೆಂದಿಗೂ	-11.524
▁ಗ್ರ್ಯಾಂಡ್	-11.524
▁ತಾಲೂಕಿನ	-11.524
▁ದುರದೃಷ್ಟವಶಾತ್	-11.524
▁ನ್ಯಾಷನಲ್	-11.524
▁ಮನಸ್ಸಾಕ್ಷಿ	-11.524
▁ವರ್ಣಮಾಲೆಯ	-11.524
▁ಸ್ಪ್ಯಾನಿಷ್	-11.524
▁ಹೈಬ್ರಿಡ್	-11.524
▁ಕಾಲಿಟ್ಟರೆ	-11.524
▁ಜುಮ್ಮಾ	-11.524
▁ನಾರುಮಡಿ	-11.524
▁ಸಮಾರಂಭ	-11.524
field	-11.524
▁ಆಣೆಯಿಟ್ಟು	-11.524
▁ನಿಜನಿಜ	-11.524
▁ಯಾವವಂದರೆ	-11.524
▁ಚನ್ನಮ್ಮ	-11.524
▁ಮೂಷಕ	-11.524
▁Besant	-11.524
▁ಎಎಂಪಿ	-11.524
▁ರಾಬರ್ಟ್	-11.524
▁website	-11.524
▁ಬಿಳೀ	-11.524
▁Battle	-11.524
▁Word	-11.524
123456789101112	-11.524
▁Green	-11.524
▁ಗದ್ದಲ	-11.524
▁ದ್ರಾಕ್ಷಾ	-11.524
▁ದುರ್ಮಾರ್ಗ	-11.5241
▁ನಗ್ನ	-11.5241
▁ಗಣಕಯಂತ್ರ	-11.5241
▁ಫೋಮ್	-11.5242
▁ಯಾಬೇಷ	-11.5242
▁ಆರನೇ	-11.5244
▁ತಡಮಾಡ	-11.5245
▁ಗೊಬ್ಬರ	-11.5245
12345	-11.5246
▁ಬರೆಯಲ್ಪಡಲಿ	-11.5247
▁ಪೂರ್ವಕಾಲದ	-11.5247
▁ಸುಲುಕೊಳ್ಳ	-11.5261
▁ಭಯಪಡುವವರ	-11.5263
ಿರಬಾರದು	-11.5263
▁ಆಂಗ್ಲ	-11.5268
▁ಅದ್ದಿ	-11.5282
fication	-11.5293
▁ಸ್ಕ್ರಿಪ್ಟ	-11.5317
▁ನಂಬಿಕೆಯಿಟ್ಟ	-11.5317
ಪುಸ್ತಕ	-11.5372
ಏಪ್ರಿ	-11.5373
2.40	-11.5402
▁ವಿದ್ಯು	-11.5412
▁Bitcoin	-11.5415
▁ಅಡಗಿಕೊಂಡ	-11.5427
message	-11.5448
▁ಅರ್ಜೆಂಟೀನಾ	-11.5448
▁ಆಮಂತ್ರಣ	-11.5448
▁ಇಪ್ಪತ್ತನಾಲ್ಕು	-11.5448
▁ನಿರರ್ಥಕ	-11.5448
▁ನ್ಯಾಶನಲ್	-11.5448
▁ಮೈಸೂರಿನ	-11.5448
▁ಶಿಷ್ಟಾಚಾರ	-11.5448
▁ಸಂಧಿವಾತ	-11.5448
▁ಹೆಸರಿಟ್ಟಳು	-11.5448
social	-11.5448
▁72-500	-11.5448
▁ಬುದ್ದಲಿ	-11.5448
▁ಭೂಕಂಪ	-11.5448
▁ಸಕಾರಾತ್ಮಕ	-11.5448
▁ಹರಿದಾಡುವ	-11.5448
▁bonus	-11.5448
▁ಎಂಟನೆಯ	-11.5448
▁ಡ್ರೀಮ್	-11.5448
▁ಪಿಕ್ಸೆಲ್	-11.5448
.01.2019	-11.5448
▁ಒಡಿಶಾ	-11.5448
▁ಜೀವಸತ್ವ	-11.5448
▁ಗುಳ್ಳೆ	-11.5448
▁Food	-11.5448
▁ಕಾಸ್ಟಿಂಗ್	-11.5448
filter	-11.5448
▁ಇಜ್ರೇಲಿನ	-11.5448
▁ಯಾವದಂದರೆ	-11.5448
▁ನೇಪಾಳ	-11.5448
▁TGG	-11.5448
▁ಎರಡನೆಯದಾಗಿ	-11.5449
▁ಬಾಟಲಿ	-11.5449
mAh	-11.5449
,00€	-11.5449
▁ಕನ್ನಿಕೆಯ	-11.5449
▁ಉಪ್ಪಿನ	-11.5449
▁ಜಾಡ್ಯ	-11.5449
▁ಬ್ಲ್ಯಾಕ್	-11.5449
▁ಹಣ್ಣಿನಂತಹ	-11.545
▁Shree	-11.545
▁ಬೂದು	-11.545
▁ಬಿಡಿಭಾಗಗಳ	-11.5451
▁ಅಂದ್ರೆ	-11.5451
▁ಅಭಿಮುಖ	-11.5451
▁Body	-11.5451
▁ಕಾಡಿನಲ್ಲಿ	-11.5451
▁ಕಳಂಕ	-11.5451
ವಾಹಿನಿ	-11.5451
▁Colle	-11.5457
▁ಕಂಡುಹಿಡಿದ	-11.5461
ಿದ್ದಾಗ್ಯೂ	-11.5482
▁ಹೇಳಿಕೊಂಡ	-11.5512
▁than	-11.5545
ಕಳುಹಿಸ	-11.555
ಪ್ರಮಾಣ	-11.5588
ರಾಷ್ಟ್ರೀಯ	-11.559
ಪಾರ್ಶ್ವ	-11.559
ನಿರ್ಮಾಣ	-11.5591
ಆರಂಭ	-11.5592
▁ಅಡ್ಡಬಿದ್ದ	-11.5608
▁ಹಾಜರ	-11.5615
▁ದೊರೆತ	-11.5635
▁ವಿಮರ್ಶ	-11.5637
▁ಸ್ಥಾಪಿತ	-11.5649
▁Update	-11.5653
▁ಸೆಪ್ಟೆಂಬರ	-11.5655
▁Tumblr	-11.5661
▁1528113	-11.5661
▁Bepanh	-11.5661
▁Qersdyn	-11.5661
▁Samsung	-11.5661
▁ಅಪಾರ್ಟ್ಮೆಂಟ್	-11.5661
▁ಕಂಟೇನರ್	-11.5661
▁ಕನ್ಸೋಲ್	-11.5661
▁ಗಿಬ್ಯೋನಿ	-11.5661
▁ನಿಸ್ತಂತು	-11.5661
▁ಪ್ರಚೋದಿಸ	-11.5661
▁ಮ್ಯಾನೇಜರ್	-11.5661
▁ಯೂನಿವರ್ಸಿಟಿ	-11.5661
▁ವಿಧಾನಸಭೆ	-11.5661
▁ಹದಿನೈದು	-11.5661
▁ಹೆಷ್ಬೋನಿನ	-11.5661
▁Foshan	-11.5661
▁ಅಂಧಕಾರ	-11.5661
▁ಚೈತನ್ಯ	-11.5661
▁ದಶಾಂಶ	-11.5661
▁ಬೆದರಿಕೆ	-11.5661
▁ಮೆಹ್ತಾ	-11.5661
▁ವಡ್ಡರಾಗಿ	-11.5661
▁ಕರೇಕಳುಹಿಸಿ	-11.5661
▁ಲಘು	-11.5661
▁ಶಲ್ಲೂಮನ	-11.5661
▁DMCA	-11.5661
▁ದಿಗಿಲು	-11.5661
▁ಶಿಖರ	-11.5661
Secret	-11.5661
▁ಪಾಳತಿ	-11.5661
▁ಸ್ಪರ್ಶ	-11.5661
▁[4]	-11.5661
▁ಕ್ಯಾಮರಾ	-11.5661
▁ಗರ್ಲ್ಸ್	-11.5661
▁ಪಕ್ಷಪಾತ	-11.5661
▁Team	-11.5662
▁ಕದಿಯ	-11.5662
▁ಬುಕಿಂಗ್	-11.5662
▁(2013)	-11.5662
▁menu	-11.5663
▁ಡೀಪ್	-11.5663
▁ಜೂಜು	-11.5663
▁ಬಾಬೆಲ	-11.5663
▁ಕೀಬೋರ್ಡ್	-11.5663
▁also	-11.5664
ಮುದ್ರಿಕೆ	-11.5664
▁ದಾಸತ್ವದ	-11.5664
▁ಸೌಮ್ಯ	-11.5664
ology	-11.5666
▁ಎಚ್ಚರಿಕೆಯಾಗಿರ	-11.5668
body	-11.5676
▁ಮರೆತುಬಿಟ್ಟ	-11.5685
burg	-11.5705
ರುವದೆಂದು	-11.5724
▁ಅಲ್ಲಗಳೆ	-11.5731
ಲಾಗುತ್ತಿತ್ತು	-11.5739
ಿಕೊಂಡಿದೆ	-11.5759
ವಾಗಿರಬಹುದು	-11.5761
▁ಕಾಪಾಡಿಕೊಳ್ಳ	-11.5779
ಉಷ್ಣತೆ	-11.5781
ಸಮುದ್ರ	-11.5811
ಕ್ರಿಸ್ತ	-11.5814
ಬಂತು	-11.5814
ವಾಕ್ಯ	-11.5815
ಭಿವೃದ್ಧಿ	-11.5862
▁ಒಡಂಬಡಿ	-11.5874
▁ಕಾವಲು	-11.5878
nanthap	-11.5878
-07-2012	-11.5879
aunchpad	-11.5879
ಮಕೆದೋನ್ಯ	-11.5879
▁(18+)	-11.5879
▁0.9.9.0	-11.5879
▁Swamy	-11.5879
▁ಎಫೋದಿನ	-11.5879
▁ಐಟಿಐಎಲ್	-11.5879
▁ಚಿಕಿತ್ಸಕ	-11.5879
▁ಚೆರೂಯಳ	-11.5879
▁ಡಿಸ್ಕನ್ನು	-11.5879
▁ಪರಿಹಾಸ್ಯ	-11.5879
▁ಮಿಚ್ಪೆ	-11.5879
▁ರಿಪಬ್ಲಿಕ್	-11.5879
▁ಲ್ಯಾಪ್ಟಾಪ್	-11.5879
▁ಸಿಲೂಯೆಟ್	-11.5879
▁ಹದಿನಾಲ್ಕು	-11.5879
▁ಹದಿನೆಂಟು	-11.5879
▁every	-11.5879
▁ಅಡ್ಡಹೆಸರು	-11.5879
▁ಋತುವಿನ	-11.5879
▁ಕಾಂಗ್ರೆಸ್	-11.5879
▁ತತ್ಕ್ಷಣ	-11.5879
▁ಹಾಲಿಡೇ	-11.5879
▁ಉಪನ್ಯಾಸ	-11.5879
▁ಕಾನೂನುಬದ್ಧ	-11.5879
▁ಮನೋಭಾವ	-11.5879
▁ಮೀಸಲಾದ	-11.5879
▁ಸಮರ್ಪಕ	-11.5879
▁ಸೀಸೆರನ	-11.5879
▁ಧ್ಯೇಯ	-11.5879
▁ಅಕೌಂಟ	-11.5879
▁ಕುರ್ಚಿ	-11.5879
▁ಎಂಟನೇ	-11.5879
▁ಇಂಟೆಲ್	-11.5879
church	-11.5879
▁ನೀರಾವರಿ	-11.5879
▁ಹಕ್ಕನ್ನು	-11.5879
▁ಸಿಬಿಡಿ	-11.5879
▁ವಿಮಾನಯಾನ	-11.5879
▁ಸಲಿಕೆ	-11.5879
▁ಸಂಗಮ	-11.5879
▁ಕರತಂದ	-11.588
▁ಎಕರೆ	-11.588
▁ಕಣ್ಣುಗಳನ್ನೆತ್ತಿ	-11.588
▁Driver	-11.588
▁ವ್ಯಥೆಯ	-11.588
▁Multi	-11.588
08-2012	-11.588
▁ಕರಾವಳಿ	-11.588
▁ಕೂಡ್ರಿಸ	-11.588
▁ಎದೋಮ್ಯರ	-11.588
ುತ್ತೇನೋ	-11.5881
▁ಮಂಜಿನ	-11.5881
▁ಹೊಸೆದ	-11.5886
example	-11.5889
▁ಆಲೈಸ	-11.5889
Order	-11.5897
▁ನರಕದ	-11.5903
▁ಸವಾಲ	-11.591
▁ವಯಸ್ಕ	-11.5918
mount	-11.5926
▁Intern	-11.598
▁ಹುಡುಕುತ್ತಿದ್ದ	-11.6001
ೋಪಿಕ್	-11.6026
ಜೂನ್	-11.6041
7.6	-11.6094
ರ್ಮುಲಾ	-11.61
▁Desktop	-11.6101
▁Kasauti	-11.6101
▁ProPorn	-11.6101
▁Retrieved	-11.6101
▁variant	-11.6101
▁ಅಮೂರ್ತ	-11.6101
▁ಇಂಜಿನಿಯರ್	-11.6101
▁ಒಂದಕ್ಕೊಂದು	-11.6101
▁ಒಗ್ಗೂಡಿ	-11.6101
▁ಕುವೆಂಪು	-11.6101
▁ಕೈಗೆಟುಕುವ	-11.6101
▁ಕೌನ್ಸಿಲ್	-11.6101
▁ತಾರ್ಷೀಷ	-11.6101
▁ದ್ವಿಚಕ್ರ	-11.6101
▁ಪ್ರಾಧ್ಯಾಪಕ	-11.6101
▁ಬೆನ್ಹದದನ	-11.6101
▁ಸ್ಫಟಿಕ	-11.6101
▁ಸ್ವಯಂಸೇವಕ	-11.6101
▁Edition	-11.6101
▁ಎಸ್ಇಒ	-11.6101
▁ದಂಡಿಳಿದ	-11.6101
▁ನ್ಯಾಯವಿಚಾರಣೆ	-11.6101
▁ಭಾಗಶಃ	-11.6101
▁ರೋಟರಿ	-11.6101
▁ಸ್ಟ್ರೋಕ್	-11.6101
xNUMX	-11.6101
▁ಕಟಾಕ್ಷ	-11.6101
▁ಸೊಳ್ಳೆ	-11.6101
custom	-11.6101
▁ಕುರಿಮರಿಯಾದಾತನ	-11.6101
▁ಸ್ರಾವ	-11.6101
▁ಹೊರಟುಹೋದರು	-11.6101
▁ಸಂಕೋಲೆ	-11.6101
▁ಬಿಸಿನೆಸ್	-11.6101
mission	-11.6101
▁Sign	-11.6101
▁ಅಲ್ಲಾಹನ	-11.6101
▁ಯೋತಾಮನ	-11.6101
▁ನಲವತ್ತ	-11.6101
▁ಐದನೆಯ	-11.6101
▁ಅಡಾಪ್ಟರ್	-11.6101
▁ವಿಲೀನ	-11.6101
▁ಇಎಸ್ಟಿ	-11.6101
▁shell	-11.6101
▁Intel	-11.6101
▁ಮರುಳು	-11.6102
▁ಗಣೇಶ	-11.6104
Server	-11.6104
admana	-11.6105
Center	-11.6106
▁ಮಂಚದ	-11.6107
▁2016-12-	-11.6107
ಕತ್ತರಿ	-11.6108
charge	-11.613
▁ಸಹಕರಿಸ	-11.6136
▁ಅಗತ್ಯತೆಗಳ	-11.6159
▁ಅತ್ಯುತ್ತಮವಾದವು	-11.6164
▁ಪ್ರೋತ್ಸಾಹ	-11.6182
Disc	-11.6189
▁ತೃಪ್ತಿಯಾಗ	-11.6255
ಪ್ರಯತ್ನಿಸಿ	-11.6273
ಸೈನ್ಯಗಳ	-11.6273
ಕಡಿಮೆ	-11.6274
ಇಸ್ರಾ	-11.6274
ಿಬಿಡುವನು	-11.631
vealed	-11.6328
▁Digital	-11.6328
▁WebHosting	-11.6328
▁available	-11.6328
▁ಅತ್ಯಗತ್ಯ	-11.6328
▁ಅನಾಮಧೇಯ	-11.6328
▁ಫೈರ್ಫಾಕ್ಸ್	-11.6328
▁ವಾರಾಂತ್ಯ	-11.6328
▁ಸಂರಚಿಸಬಹುದು	-11.6328
▁ಸಮಂಜಸವಾದ	-11.6328
▁ಸರ್ವೀಸಸ್	-11.6328
▁ಸಾತ್ವಿಕ	-11.6328
▁ಸೃಜನಾತ್ಮಕ	-11.6328
▁ಸೆರೆಹಿಡಿಯ	-11.6328
▁ಅಭಿವ್ಯಕ್ತಿ	-11.6328
▁ತಿರಸ್ಕಾರ	-11.6328
▁ರೇಡಿಯಲ್	-11.6328
▁ಶಾಂಪೂ	-11.6328
▁ಶ್ರದ್ಧೆ	-11.6328
▁ಸಂಸ್ಥಾಪಕ	-11.6328
▁ಯೇಷೂವನ	-11.6328
▁ವೈಖರಿ	-11.6328
public	-11.6328
▁ಗೊಮೋರ	-11.6328
▁ನಿವಾರಕ	-11.6328
▁ಪ್ರಾರ್ಥನಾ	-11.6328
▁ಸಂದೇಹ	-11.6328
▁ಖಡ್ಗ	-11.6328
▁ಎಂದರ್ಥ	-11.6328
▁ವೆಲ್ಡಿಂಗ್	-11.6328
▁ಜಂಬೂ	-11.6328
▁ಟಾರ್ಕ್	-11.6328
▁ಮುದ್ದಾದ	-11.6328
▁Feed	-11.6328
▁ಮೈಕೆಲ್	-11.6328
▁ಇಲ್ಲಿಯವರೆಗೆ	-11.6328
▁ವೃಕ್ಷ	-11.6328
▁ಜಾರ್ಜ್	-11.6328
▁ಪ್ರಶ್ನಿಸ	-11.6328
▁ಘೋಷಣೆ	-11.6328
▁ಸಂಕಲ್ಪ	-11.6328
▁ಬಯಲಿನ	-11.6329
▁ಇಲ್ಲವಾದರೆ	-11.6329
redhat	-11.6329
▁ಸಿಂಗಲ್	-11.6329
▁ಯತ್ನ	-11.6329
▁ಆಮ್ನಿ	-11.633
▁ಬೆಚ್ಚಗ	-11.6333
$24.	-11.6347
▁ಅಹೀಯನ	-11.6355
▁ಆಡಿದ	-11.6362
▁ಕಾಣೆಯಾಗ	-11.6367
Direct	-11.6403
▁ಪಾಲ್ಗೊಳ್ಳುವವರ	-11.641
▁ಕಳುಹಿ	-11.643
▁ಹಿಗ್ಗಿಸು	-11.6432
▁ಮಂಗಳ	-11.6494
ಶೈಲಿ	-11.6509
Unlimited	-11.6511
ಪಿಎಚ್ಪಿ	-11.6511
ಬಹುಶಃ	-11.6511
ಕೂದಲು	-11.6511
್ದೆಲ್ಲಾದರ	-11.6537
▁ಕಾಯ್ದಿರಿಸ	-11.6558
USMLE	-11.6561
▁ಕುಂಬಾರನ	-11.6561
League	-11.6561
activo	-11.6561
onkani	-11.6561
▁Lawrence	-11.6561
▁Startseite	-11.6561
▁creampie	-11.6561
▁ಅಷ್ಡೋದ	-11.6561
▁ಆಲ್ಕೊಹಾಲ್	-11.6561
▁ಕಿಂಗ್ಡಮ್	-11.6561
▁ಕ್ರಿಯಾಶೀಲ	-11.6561
▁ಟಗರಿನ	-11.6561
▁ಟ್ರಸ್ಟೆಡ್	-11.6561
▁ಡೋಸೇಜ್	-11.6561
▁ಡ್ಯಾಶ್	-11.6561
▁ಪ್ಯಾನಾಸೋನಿಕ್	-11.6561
▁ಪ್ರೊಟೆಕ್ಷನ್	-11.6561
▁ಪ್ರೋಗ್ರಾಮಿಂಗ್	-11.6561
▁ಬೌದ್ಧಿಕ	-11.6561
▁ಬ್ಯಾಕ್ಟೀರಿಯಾ	-11.6561
▁ರಕ್ತಾಪರಾಧ	-11.6561
▁ಶೃಂಗಾರ	-11.6561
▁ಸೂಪರ್ಅಡ್ಮಿನ್	-11.6561
Studio	-11.6561
▁Fruity	-11.6561
▁ಅಮ್ನೋನನ	-11.6561
▁ಕ್ಲೌಡ್	-11.6561
▁ಪಾದರಕ್ಷೆ	-11.6561
▁ಮಾರ್ಪಟ್ಟಿದೆ	-11.6561
▁ರೇಷ್ಮೆ	-11.6561
.05.2018	-11.6561
Antenna	-11.6561
▁ನಿಟ್ಟುಸಿರ	-11.6561
▁ಶೇಕೆಲುಗಳ	-11.6561
▁ಶೇಖರಿಸ	-11.6561
▁Track	-11.6561
▁ಐಪಾಡ್	-11.6561
▁ಕ್ಯಾಂಡಲ್	-11.6561
▁ಲ್ಯಾಟಿನ್	-11.6561
mhz	-11.6561
▁ಯೆಹೋವಾಷನ	-11.6561
▁ಮಾನಿಟರ್	-11.6561
company	-11.6561
▁ನಿರ್ಲಕ್ಷಿಸ	-11.6561
▁ಮೌಂಟ್	-11.6561
▁ಸ್ಪೂಲ್	-11.6561
▁ಎಂದಾದರೂ	-11.6561
▁ಫಾರ್ಮಸಿ	-11.6561
▁ಎಕ್ರೋನ	-11.6561
▁ಲಾಕೀಷ	-11.6561
▁Crack	-11.6561
▁ಅಂತರಾಷ್ಟ್ರೀಯ	-11.6561
▁ಇಪ್ಪತ್ತೆರಡು	-11.6561
▁ಅಳಿದು	-11.6561
▁(2011)	-11.6561
▁ಬೇಟೆಯಾಡ	-11.6562
▁ಎಚ್ಚತ್ತ	-11.6562
▁ಸ್ಟಾಪ್	-11.6562
Blogger	-11.6564
▁ಅನ್ಯಜನಗಳ	-11.6565
▁2019-01-	-11.6565
ಗಂಧದ	-11.6569
▁ದಮಸ್ಕ	-11.6577
Vista	-11.658
▁ಕರಾರು	-11.6582
▁ಓಗನ	-11.661
▁ಒಳ್ಳೇದನ್ನ	-11.6646
▁ದ್ವೇಷಿಸ	-11.667
ರ್ನಿಂಗ್	-11.6672
▁ಸ್ಥಗಿತ	-11.6676
Blockchain	-11.6755
ಪಶ್ಚಿಮ	-11.6755
▁ಹೂಣಿಟ್ಟ	-11.6771
▁ಪ್ರಸ್ತಾಪಿಸ	-11.6787
▁ಪ್ರೇಕ್ಷಕ	-11.679
▁ಮುಂದುವರೆಸ	-11.6797
industry	-11.6799
TRONIC	-11.6799
language	-11.6799
▁591156	-11.6799
▁Firefox	-11.6799
▁Huizhou	-11.6799
▁Ishqbaaz	-11.6799
▁Ttravis	-11.6799
▁Zindagii	-11.6799
▁desktop	-11.6799
▁ಅತ್ಯುನ್ನತ	-11.6799
▁ಅಪೇಕ್ಷೆ	-11.6799
▁ಕ್ರೈಸ್ತ	-11.6799
▁ಕ್ಷಿಪ್ರ	-11.6799
▁ಘಟಸರ್ಪ	-11.6799
▁ಜವೆಗೋಧಿ	-11.6799
▁ಡೆವಲಪರ್	-11.6799
▁ನಿಸ್ಸಂದೇಹವಾಗಿ	-11.6799
▁ನೆಟ್ವರ್ಕಿಂಗ್	-11.6799
▁ಬುಡಕಟ್ಟು	-11.6799
▁ಭೌಗೋಳಿಕ	-11.6799
▁ಮೆಣಸಿನ	-11.6799
▁ರಷ್ಯನ್	-11.6799
▁ವಾಷಿಂಗ್ಟನ್	-11.6799
▁ವಿಧಿಗುಚ್ಛ	-11.6799
▁ಗ್ಯಾರಂಟಿ	-11.6799
▁ಗ್ಲೇಜ್	-11.6799
▁ತೆರವುಗೊಳಿಸಿ	-11.6799
▁ತೆಳುವಾದ	-11.6799
▁ನಾಬಾಲನ	-11.6799
▁ಫಕ್ಕನೆ	-11.6799
▁ಬೊಕ್ಕಸದ	-11.6799
▁ಸನ್ನಿಧಾನ	-11.6799
▁ಸವಲತ್ತು	-11.6799
▁ಚೇಂಬರ್	-11.6799
▁ಶಬ್ಧ	-11.6799
▁ಸ್ವೀಕಾರ	-11.6799
▁ಬೆರೆಸಿದ	-11.6799
▁ಲೂಯಿಸ್	-11.6799
▁ಹುವಾವೇ	-11.6799
▁ಕೆಡಿಎಂ	-11.6799
▁ದುರಸ್ತು	-11.6799
▁ಆನೆಕಲ್ಲ	-11.6799
▁ಟಿಕೇಟ್	-11.6799
▁ಮೋಟಾರು	-11.6799
▁ಕೊರಿಯರ್	-11.6799
▁ಮೆಟ್ಟಲುಗಳ	-11.6799
▁ಡ್ರಿಲ್	-11.6799
▁Oats	-11.6799
▁TLS	-11.6799
▁ಹತರಾದವರ	-11.6799
▁ನಾರ್ತ್	-11.6799
▁ದೀರ್ಘಾವಧಿಯ	-11.6799
▁ರದ್ದತಿ	-11.6799
▁ಕೈಯಾರೆ	-11.6799
▁ಚುರುಕ	-11.6799
▁ಬೋರಲು	-11.6799
▁ವ್ಯಾಜ್ಯವಾಡ	-11.68
▁ಎದ್ದೇಳು	-11.68
▁ಒಲವು	-11.68
steel	-11.6801
ನ್ನೊಳಗೊಂಡ	-11.6801
▁ಅಲ್ಲಾಡಿಸ	-11.6808
5/200	-11.6813
,000/-	-11.6818
▁ಹಕ್ಕಲ	-11.683
Euro	-11.6855
ternal	-11.6931
ಹಾಸನ	-11.6979
ಉತ್ಪನ್ನ	-11.7005
ನಿರ್ದಿಷ್ಟ	-11.7005
ತರುವಾಯ	-11.7005
ಟ್ವಿಟರ್	-11.7005
ಳ್ಳಿಗಾಡಿನಂತಿತ್ತು	-11.7043
▁Instant	-11.7043
▁Travel	-11.7043
▁ಇಸ್ರೇಲ್	-11.7043
▁ಎವಿನ್ರುಡ್	-11.7043
▁ಕಟ್ಟುನಿಟ್ಟಾದ	-11.7043
▁ಕುಷ್ಠರೋಗಿ	-11.7043
▁ಕೃತಜ್ಞತಾಸ್ತುತಿ	-11.7043
▁ಕ್ಯಾಬಿನೆಟ್	-11.7043
▁ಗಿಡಮೂಲಿಕೆ	-11.7043
▁ಗ್ಯಾಂಬ್ಲಿಂಗ್	-11.7043
▁ಟೀಕೆಗಳಿಲ್ಲ	-11.7043
▁ಟೆಂಪ್ಲೇಟು	-11.7043
▁ಟೆಕಶ್ಚರ್	-11.7043
▁ಟ್ರೀಟ್ಮೆಂಟ್	-11.7043
▁ನಿಲುಕಿಸಿಕೊಳ್ಳ	-11.7043
▁ನೇಪಥಿಕ	-11.7043
▁ಭಯಾನಕ	-11.7043
▁ಮಹಾವಿದ್ಯಾಲಯ	-11.7043
▁ರೋಗಲಕ್ಷಣ	-11.7043
▁ಲೆಜೆಂಡ್ಸ್	-11.7043
▁ವೇಗವರ್ಧಕ	-11.7043
▁ಸರ್ಟಿಫೈಡ್	-11.7043
▁ಸುಮ್ಮನಿದ್ದ	-11.7043
▁RFID	-11.7043
▁ಇಂಟರ್ವ್ಯೂ	-11.7043
▁ಐರ್ಲೆಂಡ್	-11.7043
▁ಟೈಮಿಂಗ್	-11.7043
▁ಪ್ರತಿಷ್ಠಿತ	-11.7043
▁ಫ್ರೆಂಡ್	-11.7043
▁ಸೊದೋಮಿನ	-11.7043
▁Credit	-11.7043
▁Hunter	-11.7043
▁ಎಕ್ಸ್ಪರ್ಟ್	-11.7043
Strictly	-11.7043
.08.2018	-11.7043
▁MOMS	-11.7043
▁TOTS	-11.7043
▁ತುರಾಯಿ	-11.7043
▁ಪಂಗಡ	-11.7043
▁ಬಹುಪಾಲು	-11.7043
მ	-11.7043
session	-11.7043
▁ಬುದ್ದಿ	-11.7043
▁Tips	-11.7043
▁ಸುಮ್ಮನಿರ	-11.7043
▁ಆಕೀಷನ	-11.7043
▁99.9	-11.7044
▁ಪ್ರಲಾಪ	-11.7045
▁ಫುಡ್	-11.7045
▁ಯೋರಾಮನ	-11.7045
▁ನೂಲಿನ	-11.7046
Talk	-11.7057
▁ಮಹ್ಲ	-11.7074
▁ಮಾಲಿಕ	-11.7074
▁ಸೋಲಿಸ	-11.7075
ತಿಂಗಳ	-11.7102
Board	-11.7135
ವದೇನಂದರೆ	-11.7189
ೆರನ	-11.7237
▁ರಫ್ತ	-11.7239
ತೊಡಗ	-11.726
ಚಾಲಕ	-11.7261
▁ಮೈಕ್ರೊ	-11.7291
▁ವೆಬ್ಕ್ಯಾಮ್	-11.7293
▁ತಾಲ್ಲೂಕು	-11.7293
SWISSCOIN	-11.7293
▁Heroes	-11.7293
▁Lecrae	-11.7293
▁MySQL	-11.7293
▁weekday	-11.7293
▁ಅನ್ಲಿಮಿಟೆಡ್	-11.7293
▁ಎಎಸ್ಟಿಎಮ್	-11.7293
▁ಡಾಲ್ಫಿನ್	-11.7293
▁ನೆಟ್ಫ್ಲಿಕ್ಸ್	-11.7293
▁ನೈರ್ಮಲ್ಯ	-11.7293
▁ಫೀನೆಹಾಸನ	-11.7293
▁ಫೆಡರಲ್	-11.7293
▁ಬಯಸುತ್ತೀರಾ	-11.7293
▁ಬ್ಲೊಂಡೆ	-11.7293
▁ಮಾನಿಟರಿಂಗ್	-11.7293
▁ಯಶಸ್ಸಿನ	-11.7293
▁ವಲ್ಗ್ಯಾರಿಸ್	-11.7293
▁ಸಿಂಡ್ರೋಮ್	-11.7293
▁ಸಿಗ್ನಲ್	-11.7293
▁ಅಂಗೀಕಾರ	-11.7293
▁ಅಪನಂಬಿಕೆ	-11.7293
▁ಎದುರುಗೊಳ್ಳಲು	-11.7293
▁ಕೌಂಟ್ಡೌನ್	-11.7293
▁ಪ್ರತಿಕೂಲ	-11.7293
▁ಪ್ರತೀಕಾರ	-11.7293
▁ವಿಶ್ಲೇಷಕ	-11.7293
▁ಸ್ಥಾವರ	-11.7293
▁ಹೊರಹೊಮ್ಮ	-11.7293
★	-11.7293
▁ಜಗಳವಾಡ	-11.7293
▁ಹುಚ್ಚುತನ	-11.7293
▁ಗಾಲ್ಫ್	-11.7293
▁ಗ್ರೀಕರ	-11.7293
▁ಪನೀರ್	-11.7293
▁Type	-11.7293
▁ಕ್ರಮೇಣ	-11.7293
▁ಮಧ್ಯಂತರ	-11.7293
▁ಪೀಡಿತ	-11.7293
▁ಲಭ್ಯವಿದ್ದ	-11.7293
1314151617181920	-11.7293
▁ಮಸಾಲೆ	-11.7293
▁ಹಾರ್ದಿಕ	-11.7293
▁ಎದುರಿಗೆ	-11.7293
▁high	-11.7293
▁ಫೋಟೊ	-11.7293
▁vape	-11.7293
▁SVN	-11.7293
▁"0"	-11.7293
▁ಯಾವದನ್ನಾದರೂ	-11.7293
▁ನೀರುಣಿಸ	-11.7293
▁ಭೀತಿ	-11.7293
▁ವಿಸ್ಕಿ	-11.7293
▁Train	-11.7293
▁ಬಡಿದು	-11.7293
multi	-11.7295
▁ಮಾಳಿಗೆಯ	-11.7295
▁ಸೊಸೆಯ	-11.7296
▁ಸಿಂಪರ	-11.73
▁ಕಾದುಕೊಳ್ಳ	-11.7306
strong	-11.7306
▁ಮಸೂರ	-11.7309
ಬಣ್ಣದ	-11.7392
▁creat	-11.7421
▁ಅರಾಮ್ಯ	-11.7436
▁ಹವ್ಯಾಸ	-11.7455
▁ಜ್ವಾಲೆ	-11.7476
▁ತುಳಿಯುವ	-11.7491
▁ಬೋಧಿಸಿದ	-11.7492
ಸೆಪ್ಟೆಂಬರ್	-11.7525
▁ಕೀಟನಾಶಕ	-11.7549
▁ನೊವೊಮಿ	-11.7549
Cleaner	-11.7549
Dynamics	-11.7549
plasma	-11.7549
ಒಬ್ಬಾನೊಬ್ಬ	-11.7549
ಮಿಚಿಗನ್	-11.7549
▁ಅಕ್ತೂಬರ	-11.7549
▁ಎಂಟರ್ಪ್ರೈಸ್	-11.7549
▁ಎಪ್ರಿಲ್	-11.7549
▁ಕಣ್ಣುಗುಡ್ಡೆಯ	-11.7549
▁ಕಾರ್ಯಕರ್ತರು	-11.7549
▁ಕ್ಯಾಲ್ಸಿಯಂ	-11.7549
▁ಗ್ರ್ಯಾಮಿ	-11.7549
▁ಚಳುವಳಿ	-11.7549
▁ತಮಾಷೆಯ	-11.7549
▁ದಾಸವಾಳದ	-11.7549
▁ಬೆಲ್ಜಿಯಂ	-11.7549
▁ಬೆಳ್ಳುಳ್ಳಿ	-11.7549
▁ಮಾಂತ್ರಿಕ	-11.7549
▁ಮಾಕೀರನ	-11.7549
▁ರೆಕಾರ್ಡರ್	-11.7549
▁ಸರಪಣಿಗಳ	-11.7549
▁ಸಾಕುಪ್ರಾಣಿಗಳು	-11.7549
▁ಸಿಲಿಕಾನ್	-11.7549
▁ಹರ್ಪಿಸ್	-11.7549
▁ಹಿವ್ವಿಯರ	-11.7549
▁ಅಜೆಂಡಾ	-11.7549
▁ಕಂಚುಕಿ	-11.7549
▁ದೇಣಿಗೆ	-11.7549
▁ನಕಾರಾತ್ಮಕ	-11.7549
▁ಪ್ರವೀಣ	-11.7549
▁ರಿಜಿಸ್ಟರ್	-11.7549
▁ಲಗತ್ತು	-11.7549
▁ವಿದ್ಯಾಲಯ	-11.7549
▁ವಿನಾಯಿತಿ	-11.7549
▁deposit	-11.7549
▁ಒಳನೋಟ	-11.7549
▁listbox	-11.7549
▁ಆಸ್ಪದ	-11.7549
▁ದಶಕಗಳ	-11.7549
▁ನೈಲಾನ್	-11.7549
▁ಜೀರ್ಣ	-11.7549
▁ಪೋಷಣೆ	-11.7549
▁ಫ್ಯಾಮಿಲಿ	-11.7549
▁ಹಾರ್ಡ್ವೇರ್	-11.7549
▁ಶಕುನ	-11.7549
▁ಸಿಲ್ವರ್	-11.7549
▁ಅಮಲೇರಿ	-11.7549
roduction	-11.7549
▁ಬೂಟು	-11.7549
▁ಆದುದರಿಂದ	-11.755
▁ಸೋಮಾರಿ	-11.755
▁ಕುಪ್ಪೆ	-11.755
Marvel	-11.755
▁ಸಂಕಲನ	-11.755
▁ಅರಿತುಕೊಂಡ	-11.7553
PORT	-11.7554
▁ಪೊರೆಯ	-11.7558
▁ಕಪಟಿಗಳ	-11.7562
▁ಸಡಿಲ	-11.7564
▁ಆಸಕ್ತ	-11.7569
ಾಜ್ಞೆ	-11.7571
▁ಧಾರಣ	-11.7611
▁ಗಿಲ್ಯಾದನ	-11.7614
▁ಅಳಿಸಿಹಾಕು	-11.7617
▁Crea	-11.7641
glaze	-11.7733
▁ಅಲ್ಲಗಳೆಯುವ	-11.7738
ಹಕ್ಕುಸ್ವಾಮ್ಯಗಳು	-11.7796
ಉತ್ತರ	-11.7798
▁Pancham	-11.7812
▁ಮನಮೋಹಕ	-11.7812
▁business	-11.7812
follow	-11.7812
ಚ್ಚಹಸಿರಿನ	-11.7812
▁Amazon	-11.7812
▁Jaishi	-11.7812
▁Mozilla	-11.7812
▁gallery	-11.7812
▁shakti	-11.7812
▁ಅಕ್ವೆರೆಲ್	-11.7812
▁ಅಡ್ಡಬೀಳ	-11.7812
▁ಅನ್ಯೋನ್ಯತೆ	-11.7812
▁ಆಪ್ಟಿಮೈಸೇಶನ್	-11.7812
▁ಕೃತಜ್ಞತೆ	-11.7812
▁ಗೂಢಲಿಪೀಕರಣ	-11.7812
▁ತೆಂಗಿನ	-11.7812
▁ದಾವಣಗೆರೆ	-11.7812
▁ನಜರೇತಿನ	-11.7812
▁ನಮೂದನ್ನು	-11.7812
▁ಪೂರ್ಣಪ್ರಾಣ	-11.7812
▁ಬಾಷ್ಪೀಕರಣ	-11.7812
▁ಮೊಣಕಾಲುಗಳ	-11.7812
▁ರೆಕಾರ್ಡಿಂಗ್	-11.7812
▁ವ್ಯವಸ್ಥಾಪನೆ	-11.7812
▁ಸ್ವೀಡನ್	-11.7812
▁ಹಿಂದುಳಿದ	-11.7812
▁೨೦೧೮	-11.7812
▁Daily	-11.7812
▁first	-11.7812
▁ಅವಲಂಬಿತ	-11.7812
▁ಚೊಕ್ಕ	-11.7812
▁ತಲತಲಾಂತರಕ್ಕೂ	-11.7812
▁ಬ್ಲಾಗಿಂಗ್	-11.7812
▁ಲಜ್ಜೆ	-11.7812
▁ಸಮ್ಮೇಳನ	-11.7812
▁ಸಾಂಕೇತಿಕ	-11.7812
ಖೇಡ	-11.7812
▁ಕೆಳಕಂಡ	-11.7812
▁ಭವ್ಯವಾದ	-11.7812
▁ಹಾರ್ಮೋನು	-11.7812
▁ಬ್ಯಾಡ್ಜ್	-11.7812
▁ಬ್ಯೂಟಿ	-11.7812
ability	-11.7812
▁ನೇಯ್ಗೆ	-11.7812
▁ಬಿನ್ನಹ	-11.7812
article	-11.7812
▁ಉರಿಯೂತ	-11.7812
▁ಉಚ್ಚರಿಸ	-11.7812
▁ಹೊತ್ತಾರೆ	-11.7812
▁ಐಕಾನ್	-11.7812
▁ಠಾಣ	-11.7812
▁ಜಾಗರೂಕ	-11.7812
▁ಹಜಾಯೇಲನ	-11.7812
▁ಸಲೂನ್	-11.7812
ವೊಂದನ್ನು	-11.7812
▁ಗಂಧಕ	-11.7813
▁ಕೋರೆಷನ	-11.7813
▁ಅಂತರಂಗದಲ್ಲಿ	-11.7813
▁ಕರೆತಂದ	-11.7813
▁ತಂಪಾಗಿ	-11.7816
▁ಇಚ್ಛಿಸ	-11.7818
▁ಆರಂಭವಾಗಿರ	-11.7819
▁ನಿರೂಪಿಸ	-11.782
▁ಸುಲುಕೊಂಡ	-11.7823
▁Time	-11.783
▁ಜವಾಬ್ದಾರ	-11.7832
▁ಪುನರುತ್ಥಾನವ	-11.7835
▁ಅಳವಡಿಸಿಕೊಂಡ	-11.7868
▁ಅಭಿಯಾನ	-11.7886
ವರ್ಧನ	-11.7921
▁ಮಹೋನ್ನತ	-11.7928
▁ಸಂಸ್ಕೃತ	-11.7937
▁ಮುಸುಕ	-11.8018
▁ಮನುಷ್ಯಕುಮಾರನ	-11.8027
ಘೋಷ	-11.8035
ನಿರೋಧಕ	-11.8072
ಮಾರಾಟ	-11.8072
ಅಯ್ಯೋ	-11.8072
ಡಿಸೆಂಬರ್	-11.8073
ನವೆಂಬರ್	-11.8073
ಜನವರಿ	-11.8073
▁Support	-11.8082
▁ಪ್ರಶಂಸಿಸ	-11.8082
rikoooo	-11.8082
▁ಪ್ರತಿಬಿಂಬಿಸ	-11.8082
;#8217;	-11.8082
▁2.6.4.17113	-11.8082
▁Antivirus	-11.8082
▁COINFLIP	-11.8082
▁FXCC	-11.8082
▁ProgressPlay	-11.8082
▁Shenzhen	-11.8082
▁blockchain	-11.8082
▁iPhone	-11.8082
▁ಆಟೋಮೋಟಿವ್	-11.8082
▁ಆಸಿಟೇಟ್	-11.8082
▁ಎಕ್ಸ್ಎಕ್ಸ್ಎಲ್	-11.8082
▁ಏರೋಸ್ಪೇಸ್	-11.8082
▁ಕಡಲಾಚೆಯ	-11.8082
▁ಕಾದಂಬರಿ	-11.8082
▁ಕಿಲೋಮೀಟರ್	-11.8082
▁ಕ್ಯಾಲಿಫೋರ್ನಿಯಾ	-11.8082
▁ಟಗರನ್ನು	-11.8082
▁ತಿಳಿವಳಿಕೆ	-11.8082
▁ತುಮಕೂರು	-11.8082
▁ಥಾಯ್ಲೆಂಡ್ನಿಂದ	-11.8082
▁ನಂಡ್ರೊಲೋನ್	-11.8082
▁ನಾಚಿಕೆಗೇಡು	-11.8082
▁ನಿರಾಕರಣೆ	-11.8082
▁ಪ್ರೊಫೆಸರ್	-11.8082
▁ಮೀಸಲಾತಿ	-11.8082
▁ಯೆಹೋಯಾದಾವನ	-11.8082
▁ಶ್ರೀಲಂಕಾ	-11.8082
▁ಸಮಾಲೋಚನೆ	-11.8082
▁ಹೂಣಲ್ಪಟ್ಟನು	-11.8082
▁ಹೊಟ್ಟೇಕಿಚ್ಚು	-11.8082
▁Bible	-11.8082
▁ಬಾದಾಮಿ	-11.8082
▁ತಲಾಂತರ	-11.8082
▁ಬ್ಯಾಂಕಾಕ್	-11.8082
▁ಖೇಡ್ಯ	-11.8082
▁ರಿಬ್ಬನ್	-11.8082
▁ಶ್ರೀಮತಿ	-11.8082
▁ಸಂತೋಷಪಟ್ಟರು	-11.8082
▁ವ್ಯವಸ್ಥಿತ	-11.8083
▁ಮೆಡಿಸಿನ್	-11.8083
/05/20	-11.8083
▁ಜಿಎಸ್ಟಿಯಡಿ	-11.8083
▁ಬುರುಜ	-11.8083
▁visit	-11.8083
▁ಸೆಟಪ್	-11.8083
▁ಗ್ರಿಡ್	-11.8083
ಮೀಥೈಲ್	-11.8083
▁ಥಾಯ್	-11.8083
ದ್ದೆಲ್ಲವನ್ನೂ	-11.8083
ಸ್ಟೈಲ್	-11.8083
▁ಭ್ರಮೆ	-11.8083
▁ಎಲ್ಕಾನನ	-11.8083
Screen	-11.8084
▁ಮೇಲ್ಭಾಗದಲ್ಲಿ	-11.8084
ಆಪ್ಲೆಟ್	-11.8085
▁ಮೊನೊಸ	-11.8086
▁ಹೆಣೆದ	-11.8087
▁ಕಾಯಿನನ	-11.811
krP	-11.8127
▁ಕದಲಿಸ	-11.8138
▁ಕಾದಿರ	-11.8154
▁ವ್ಯಾಖ್ಯಾನಿಸ	-11.8169
▁ಅರುವತ್ತ	-11.8174
ಾಧಿಪತಿಗಳ	-11.8195
▁ಆಸ್ಟ್ರೇಲಿಯ	-11.8264
▁ಉಲ್ಲಾಸಿಸ	-11.8272
ಗಿಲ್ಯಾದಿನಲ್ಲಿರುವ	-11.8278
ವದರಲ್ಲಿಯೂ	-11.8297
▁ಹಿಜ್ಕೀ	-11.8322
▁Water	-11.8323
ಸ್ಥಾಪನ	-11.833
ರಕ್ಷಿತ	-11.836
function	-11.836
health	-11.836
lecrae	-11.836
ಕ್ಯಾನ್ವಾಸ್	-11.836
▁Category	-11.836
▁Cryptocurrency	-11.836
▁Economic	-11.836
▁HdRede	-11.836
▁Webtalk	-11.836
▁gambling	-11.836
▁wagering	-11.836
▁ಅತ್ಯಾಧುನಿಕ	-11.836
▁ಅದೋನೀಯನ	-11.836
▁ಅನಗತ್ಯ	-11.836
▁ಅರಿಜೋನಾ	-11.836
▁ಆತಿಥ್ಯ	-11.836
▁ಉತ್ಥಾಪಿಸ	-11.836
▁ಕ್ಯಾಲ್ಕುಲೇಟರ್	-11.836
▁ಟೊರೆಂಟ್	-11.836
▁ಡಿಸೈನರ್	-11.836
▁ಡೌಗ್ಲಾಸ್	-11.836
▁ದ್ರಾವಣ	-11.836
▁ನಿರ್ಮಾಪಕ	-11.836
▁ಪುನರಾವರ್ತಿತ	-11.836
▁ಪೋರ್ಟಬಲ್	-11.836
▁ಬ್ಯಾಂಡ್ವಿಡ್ತ್	-11.836
▁ಭೂಪ್ರದೇಶ	-11.836
▁ಯೆಹೋಯಾಕೀಮನ	-11.836
▁ಯೆಹೋವಾಹಾಜನ	-11.836
▁ಲೆಸ್ಬಿಯನ್	-11.836
▁ಲ್ಯಾಂಡಿಂಗ್	-11.836
▁ಶಸ್ತ್ರಚಿಕಿತ್ಸೆ	-11.836
▁ಶ್ರವಣಾತೀತ	-11.836
▁ಸಾಂಬ್ರಾಣಿ	-11.836
▁ಸಾಮೂಹಿಕ	-11.836
▁ಸೆಂಟ್ರಲ್	-11.836
▁ಸೇವನಾರ್ಥಿ	-11.836
▁ಅಂತಿಯೋಕ್ಯ	-11.836
▁ಅನಿವಾರ್ಯ	-11.836
▁ಒಕ್ಕಲಿಗ	-11.836
▁ದಿನದರ್ಶಿಕೆ	-11.836
▁ದುಷ್ಕರ್ಮ	-11.836
▁ದೈತ್ಯ	-11.836
▁ನಾಗರೀಕ	-11.836
▁ಬ್ರೇಕಿಂಗ್	-11.836
▁ಹಮಾತಿನ	-11.836
▁ಹುತಾತ್ಮ	-11.836
▁coins	-11.836
▁ಹಿಂತೆಗೆಯ	-11.836
▁ಆಫ್ರಿಕನ್	-11.836
▁ಎಸ್ಟೇಟ್	-11.836
▁ಕ್ರಷರ್	-11.836
▁ಮುಂಬರುವ	-11.836
▁plain	-11.836
▁ಮರುಸ್ಥಾಪಿಸ	-11.836
▁Trust	-11.836
▁ವಿಪತ್ತು	-11.836
▁ಬ್ರೌಸ್	-11.836
▁ಮದ್ಯಪಾನ	-11.836
▁ವಿಶ್ರಮಿಸಿಕೊಳ್ಳ	-11.836
▁2017-06-	-11.836
▁ಆಪ್ಟಿಕ್	-11.836
▁ಬಲಪಾರ್ಶ್ವದಲ್ಲಿ	-11.836
▁ಕೊಂಬನ್ನು	-11.836
▁ಹೋಲುತ್ತದೆ	-11.836
▁ಇದ್ದಾನೋ	-11.836
▁ಸಮತಲ	-11.836
▁ಇನ್ನಿತರ	-11.836
ಫ್ಲೆಕ್ಸ್	-11.836
▁ನಂಬಿಕೆಯಿಡುವ	-11.8362
style	-11.8362
▁ನಿರ್ದೇಶಿಸ	-11.8362
▁ರಿಮ್ಮೋನ	-11.8363
digit	-11.8363
hours	-11.8363
▁ಪರಿಶೋಧಿಸ	-11.8363
▁ಅನ್ಯದೇವರುಗಳ	-11.8364
update	-11.8366
▁ರೂಪುಗೊಂಡ	-11.837
girl	-11.8374
▁ಸಂರಕ್ಷಣಾ	-11.8379
▁ರೂಢಿ	-11.8394
▁ಹರ್ಷಿಸ	-11.8417
▁ಯಂತ್ರೋಪಕರಣ	-11.859
Circle	-11.8646
▁Battery	-11.8646
▁Bollywood	-11.8646
▁Bowflex	-11.8646
▁United	-11.8646
▁Valentine	-11.8646
▁ಅಟ್ಲಾಂಟಾ	-11.8646
▁ಅಧಿನಿಯಮ	-11.8646
▁ಅಲಂಕೃತ	-11.8646
▁ಅಳವಡಿಕೆ	-11.8646
▁ಅಸಾಹೇಲನ	-11.8646
▁ಇಳುವರಿ	-11.8646
▁ಎದುರಾಳಿ	-11.8646
▁ಒಂಭತ್ತನೇ	-11.8646
▁ಕ್ಯಾಟಲಾಗ್	-11.8646
▁ಕ್ಲಾರಿನೆಟ್	-11.8646
▁ಜತೆಗಿನ	-11.8646
▁ಜಸ್ಟಿನ್	-11.8646
▁ಟಕಿಲಾ	-11.8646
▁ತೀಕ್ಷ್ಣ	-11.8646
▁ದುರುಪಯೋಗ	-11.8646
▁ಪ್ರಜಾಪ್ರಭುತ್ವ	-11.8646
▁ಬ್ರಹ್ಮಾಂಡದ	-11.8646
▁ಮುಹಮ್ಮದ್	-11.8646
▁ರಬ್ಷಾಕ	-11.8646
▁ಲಾಂಛನ	-11.8646
▁ಲಿಖಿತ	-11.8646
▁ವೇರಿಯಬಲ್	-11.8646
▁ವ್ಹೀಲ್	-11.8646
▁ಸಂಖ್ಯಾಶಾಸ್ತ್ರ	-11.8646
▁ಸಾಂದರ್ಭಿಕ	-11.8646
▁ಹದಿನೈದನೇ	-11.8646
▁ಹನ್ನೆರಡನೇ	-11.8646
▁ಆಸ್ಟಿನ್	-11.8646
▁ನಿರ್ದೋಷಿ	-11.8646
▁ಭುವನೇಶ್ವರ	-11.8646
Standard	-11.8646
▁ಕರ್ಷಕ	-11.8646
▁ಡ್ರಗ್	-11.8646
▁ಮೈಲೇಜ್	-11.8646
▁ಸ್ಲೈಡ್	-11.8646
▁ಡಬ್ಲೂ	-11.8646
▁ಬೆಡಗಿ	-11.8646
▁ಹಗಲಿರುಳು	-11.8646
▁ದಮ್ಮಡಿ	-11.8646
▁ಯಮಹಾ	-11.8646
▁Europe	-11.8646
▁ಬರ್ನರ್	-11.8646
▁ITIL	-11.8646
▁ಅಮಾನತು	-11.8646
▁ಮೆಷಿನ್	-11.8646
Control	-11.8646
▁great	-11.8646
▁ಈಜಿಪ್ಟ್	-11.8646
▁ವಿಶ್ವಕಪ್	-11.8646
▁DXT	-11.8646
2425262728293031	-11.8646
Follow	-11.8646
▁ವಶಪಡಿಸಿಕೊಂಡ	-11.8646
▁ಕುಲುಮೆ	-11.8646
▁ನಿನೆವೆ	-11.8646
▁ಪ್ರತಿಶತ	-11.8646
▁ಬೇಬ್ಸ್	-11.8646
▁ಮೇಷಕ್	-11.8646
▁ಸರೋವರ	-11.8646
▁ಮುಳ್ಳಿನ	-11.8646
▁Kshet	-11.8646
▁ಹದ್ದಿನ	-11.8646
ಹೃದಯ	-11.8646
▁ಓಡಿಸಿಬಿಟ್ಟ	-11.8647
white	-11.8647
▁ಕಾಮಗಾರಿ	-11.8647
▁ಒಳಪಟ್ಟಿರ	-11.8647
green	-11.8648
▁ತಿರ್ಚ	-11.8648
▁ಆಟವಾಡ	-11.8649
▁ಚಿಕ್ಕಪ್ಪನ	-11.8651
▁ಅರ್ಥೈಸ	-11.8651
Welcome	-11.8651
ಐಗುಪ್ತ	-11.8652
ಕ್ಷೇತ್ರ	-11.8652
ಫೆಬ್ರವರಿ	-11.8653
▁ಹಲಿಗೆಗಳ	-11.8659
ಪ್ರತಿಕ್ರಿಯಿಸುವಾಗ	-11.871
ಎಕ್ಸ್ಎನ್ಎಕ್ಸ್	-11.8717
Admin	-11.8738
▁ಪರಿಗಣಿಸಲಾಗುತ್ತ	-11.8755
savin	-11.8814
▁Hanumagiri	-11.894
▁LOCTITE	-11.894
▁Lockdownlive	-11.894
▁WikiWon	-11.894
▁hookah	-11.894
▁license	-11.894
▁ಅಕ್ರಿಲಿಕ್	-11.894
▁ಅನಿಮೇಷನ್	-11.894
▁ಅಸಿಟೇಟ್	-11.894
▁ಅಹೀತೋಫೆಲನ	-11.894
▁ಆಹ್ಲಾದಕರ	-11.894
▁ಎದೆಪದಕ	-11.894
▁ಕೊಲೆಪಾತಕ	-11.894
▁ಗಾಸ್ಪೆಲ್	-11.894
▁ಛಾಯೆ	-11.894
▁ಜಾನಪದ	-11.894
▁ತಿಯಾತ್ರ್	-11.894
▁ತುಲನಾತ್ಮಕವಾಗಿ	-11.894
▁ನಿಸ್ಸಂಶಯವಾಗಿ	-11.894
▁ನೇಮಿಸಿಕೊಳ್ಳುವುದ	-11.894
▁ಪದವೀಧರ	-11.894
▁ಪ್ರತಿದಂಡನೆ	-11.894
▁ಪ್ರಿಂಟಿಂಗ್	-11.894
▁ಬೋವಜನು	-11.894
▁ಬ್ರೆಜಿಲಿಯನ್	-11.894
▁ಮೊಮ್ಮಗನೂ	-11.894
▁ಯುಎಂಎಕ್ಸ್	-11.894
▁ರಕ್ತದೊತ್ತಡ	-11.894
▁ಲಭ್ಯವಿವೆ	-11.894
▁ಲೇಯರ್ಡ್	-11.894
▁ವಿಾಕಲಳ	-11.894
▁ಶಸ್ತ್ರಾಸ್ತ್ರ	-11.894
▁ಶೇಕಡಾವಾರು	-11.894
▁ಅವಲಂಬನೆ	-11.894
▁ನಿಷಿದ್ಧ	-11.894
▁ಪೋಸ್ಟ್	-11.894
▁ಪ್ರೊಡಕ್ಷನ್	-11.894
▁ಫ್ಯಾಂಟಮ್	-11.894
▁ವಿಮಾನನಿಲ್ದಾಣ	-11.894
▁ಕೀರ್ತಿಸುವೆನು	-11.894
▁ಸಂಸ್ಕಾರಕ	-11.894
▁ಥಿಂಗ್ಸ್	-11.894
▁ಮರುಮಾರಾಟ	-11.894
▁ಲಾಭಾಂಶವನ್ನು	-11.894
.09.2018	-11.894
▁ಗ್ನೋಮ್	-11.894
▁ಪೈಥಾನ್	-11.894
▁ಬಿಜೆಪಿ	-11.894
▁ಬಾರೂಕನ	-11.894
▁ವಿಐಪಿ	-11.894
kshara	-11.894
≤	-11.9268
ಊ	-12.0984
«	-12.3087
©	-12.3087
•	-12.3563
ო	-12.4877
‘	-12.6358
→	-13.3612
±	-13.6707
·	-13.8707
➖	-15.9552
č	-15.9553
п	-15.9554
≥	-15.9555
ಋ	-15.9556
გ	-15.9557
წ	-15.9558
დ	-15.9559
ಱ	-15.956
✔	-15.9561
ೕ	-15.9562
฿	-15.9562
