<unk>	0
<s>	0
</s>	0
▁	-3.21566
.	-3.56824
,	-3.88322
ದ	-4.26528
ರ	-4.74806
ಯ	-4.82095
ಿ	-4.83141
ು	-4.87032
:	-4.94244
ಗಳು	-5.03903
;	-5.09094
ನ	-5.15984
ರ್	-5.27
▁ಮತ್ತು	-5.29708
)	-5.33915
ಸ್	-5.3908
▁ಅ	-5.4305
ಸ	-5.43837
ಕ	-5.44266
s	-5.4647
-	-5.48501
▁ಆ	-5.52481
ನು	-5.54504
ರು	-5.55198
ಗಳನ್ನು	-5.57403
ಗಳ	-5.59085
ವನ್ನು	-5.60181
▁(	-5.60484
ಲ	-5.61361
ನ್	-5.64319
ವ	-5.66626
ವು	-5.70162
ಲ್	-5.73125
ಲು	-5.83524
ಡ	-5.83739
ೇ	-5.87696
ರಿ	-5.89227
ಾ	-5.89334
ಗ	-5.92189
ಮ	-5.92972
ಟ್	-5.95868
ೆ	-5.96172
ುವ	-6.00643
ೂ	-6.01022
ತ	-6.04665
▁ಕ	-6.0566
a	-6.0611
ಕ್	-6.06995
ವಾಗಿ	-6.07924
e	-6.08709
ನ್ನು	-6.0901
▁ಈ	-6.09618
ದಲ್ಲಿ	-6.09709
▁-	-6.09763
▁ನೀವು	-6.12427
ಲಿ	-6.12509
▁ಇ	-6.14602
ಯನ್ನು	-6.15985
▁/	-6.16442
--	-6.20272
ಪ	-6.20342
ರೆ	-6.20724
▁ನಾನು	-6.21268
ಹ	-6.21815
ಗೆ	-6.2271
▁ನನ್ನ	-6.23044
ದು	-6.26426
▁ನಿಮ್ಮ	-6.28164
ಕ್ಕೆ	-6.29542
t	-6.30501
▁ಮ	-6.30721
ಯು	-6.30752
ಳ	-6.31296
▁ನಿನ್ನ	-6.34366
o	-6.34756
▁ಒಂದು	-6.35131
▁1	-6.38128
▁ಮೇಲೆ	-6.39647
y	-6.41845
▁ಹ	-6.43148
▁_	-6.43251
c	-6.43337
i	-6.44171
ಟ	-6.44331
ಡಿ	-6.44537
▁ನ	-6.44949
ಂ	-6.45345
k	-6.45502
ಿಗೆ	-6.45866
▁ಆಗ	-6.46182
d	-6.4695
ಣ	-6.47459
ಪ್	-6.47874
C	-6.48405
S	-6.49141
▁ಎಂದು	-6.49275
▁ಎ	-6.4974
ಸಿ	-6.50231
ವಾದ	-6.5029
g	-6.51345
ಾಗ	-6.51455
ಡ್	-6.51903
▁ತನ್ನ	-6.52192
▁ಅವರು	-6.53257
u	-6.55637
ವಿ	-6.5614
n	-6.56624
ಲ್ಲಿ	-6.58559
?	-6.61258
ೈ	-6.61815
ನೆ	-6.62647
ಮ್	-6.63032
ೋ	-6.63141
l	-6.63318
▁ಮಾಡ	-6.63505
ತಿ	-6.63835
ಯಾ	-6.63857
A	-6.65677
ದೆ	-6.6666
ನಿ	-6.667
▁ಆದರೆ	-6.67061
/	-6.67115
ಬ	-6.68044
in	-6.68365
▁S	-6.69646
P	-6.70075
D	-6.70834
▁ಸ	-6.71282
2	-6.71601
ಯಲ್ಲಿ	-6.71679
M	-6.7197
ಟಿ	-6.72695
▁P	-6.72767
ಗಳಲ್ಲಿ	-6.73807
ೀ	-6.74171
ತ್ತ	-6.74563
ರಾ	-6.74698
3	-6.74863
▁ಬ	-6.75078
00	-6.75415
ುತ್ತದೆ	-6.75918
ವಾ	-6.76264
p	-6.7656
▁ವಿ	-6.78263
▁ಅವನು	-6.78566
ಲೆ	-6.78667
▁ಅವನ	-6.78816
▁2	-6.79403
▁ಅವರ	-6.8013
com	-6.80286
r	-6.81562
b	-6.81712
ಲ್ಲ	-6.81899
▁ನಾವು	-6.81958
▁ನಮ್ಮ	-6.8229
▁ವ	-6.82511
er	-6.83229
ಿನ	-6.83869
▁ತ	-6.84076
ಲಾ	-6.84438
T	-6.85317
▁ಸಂ	-6.86921
▁3	-6.87562
ಷ	-6.885
▁B	-6.90252
▁ಎಲ್ಲಾ	-6.90309
ದಿಂದ	-6.9192
ಶ	-6.9243
▁A	-6.92775
m	-6.9294
ನಾ	-6.93405
▁5	-6.94019
x	-6.9443
▁ಪ್ರ	-6.94629
▁ನೀನು	-6.95355
1	-6.96125
ದ್ದ	-6.96139
್ಯ	-6.96174
▁&	-6.96585
5	-6.96664
ಚ	-6.96676
ar	-6.9692
re	-6.97448
▁ಅಥವಾ	-6.9772
▁ಉ	-6.97844
al	-6.98327
L	-6.98561
▁C	-6.98817
▁ಕರ್ತನು	-6.99819
▁T	-6.99901
E	-7.00363
I	-7.00597
ರೋ	-7.01416
ಕ್ಷ	-7.01715
ವೇ	-7.01827
ಿಸಿ	-7.02681
▁ಬಾ	-7.02939
ಯೂ	-7.03047
on	-7.03719
▁ಇದು	-7.04352
ಾದ	-7.0437
▁ಪ	-7.04386
an	-7.05206
▁ಕಾ	-7.05775
್ಯಾ	-7.06173
4	-7.07587
h	-7.07662
R	-7.09761
ಮಾ	-7.09844
ಜ	-7.11211
ing	-7.11291
ಧ	-7.11309
ವೆ	-7.11496
ಡೆ	-7.11727
▁M	-7.11963
ಳಿ	-7.12258
▁4	-7.13552
ಕೊಳ್ಳ	-7.13635
▁ಹಾ	-7.13937
!	-7.14058
f	-7.15038
ನೇ	-7.15381
ತೆ	-7.15441
▁ಮಾಡಿ	-7.15705
▁ಗ	-7.16907
ನ್ನ	-7.1699
0	-7.17299
ಿತ	-7.17626
▁ಕರ್ತನ	-7.18179
O	-7.18367
್	-7.19286
ಬೇಕು	-7.19388
ನೂ	-7.19735
▁F	-7.19956
▁ಸಿ	-7.19987
▁2018	-7.20078
ಿರುವ	-7.20243
ತ್	-7.20635
%	-7.20687
ೌ	-7.20831
ಿಂದ	-7.20967
ರೂ	-7.21247
▁–	-7.21444
ಳು	-7.21489
ಕೆ	-7.22117
ಬ್	-7.22202
ೆಯ	-7.22446
ಂತ	-7.23617
en	-7.23999
▁ತಮ್ಮ	-7.24187
ಗಳಿಗೆ	-7.24585
amp	-7.25225
B	-7.25866
ಯಿಂದ	-7.26229
F	-7.26336
▁ಅಂದನು	-7.26561
▁$	-7.26638
ch	-7.27295
ವರು	-7.27345
ಂಡ	-7.27954
ಕರ	-7.28733
▁ಜ	-7.28737
H	-7.28809
ೊ	-7.28809
▁"	-7.28909
▁ಹಾಗೆ	-7.3016
ಲೇ	-7.30513
▁ಸಾ	-7.3064
▁ಅದರ	-7.30765
▁ದೇವರ	-7.30826
ಯೇ	-7.30905
ಡು	-7.31029
"	-7.31238
ಿರಿ	-7.31909
ಪಿ	-7.31937
ಿದ್ದ	-7.32204
▁ಏ	-7.32681
ಬಹುದು	-7.33352
20	-7.33417
@	-7.35062
▁ನಾ	-7.35755
ಥ	-7.36149
ವರ	-7.36213
ಿಸುವ	-7.36257
▁ಒ	-7.36726
le	-7.36949
▁ಮೂಲಕ	-7.37642
▁ಕೈ	-7.37945
or	-7.37952
▁L	-7.38498
ವೂ	-7.3924
▁ಮೇ	-7.39463
▁ಆತನು	-7.39516
▁ಕು	-7.39529
▁ಹೇಳ	-7.39622
at	-7.39838
Name	-7.40015
▁H	-7.40353
ವರ್	-7.40354
▁ಅದನ್ನು	-7.40449
▁ಬಿ	-7.40741
G	-7.41268
▁ನಿ	-7.4154
N	-7.41852
▁ದಿನ	-7.41932
▁G	-7.42083
ಗಳನ್ನೂ	-7.42298
ಿದೆ	-7.42483
▁ಕೆ	-7.43039
(	-7.43757
ಜಿ	-7.4403
▁ಹೆ	-7.44508
▁D	-7.44567
▁ಅದು	-7.44604
z	-7.44935
ರಿಯ	-7.45066
ಿಕೆ	-7.4577
ಾಗಿ	-7.46056
ಷ್	-7.46107
ಗ್	-7.46549
▁2017	-7.47114
▁ಸಹ	-7.47701
ಲ್ಪಟ್ಟ	-7.47784
▁ಸು	-7.48369
v	-7.4871
▁ಪಾ	-7.48831
es	-7.48834
ನೋ	-7.49003
▁ಸಂಗಡ	-7.49447
ತನ	-7.49821
ಕೊಂಡ	-7.49981
ಟರ್	-7.50063
▁ನನಗೆ	-7.50241
▁10	-7.50661
▁ಮುಂದೆ	-7.50985
et	-7.51334
ಭ	-7.51659
▁ಮು	-7.51686
▁ಆತನ	-7.52571
▁6	-7.52654
▁ಪ್ರತಿ	-7.52848
7	-7.52858
8	-7.5304
▁W	-7.53458
ನ್ನೂ	-7.54008
ಿಕ	-7.54131
st	-7.54372
▁ಶ	-7.54399
▁ನಿಮಗೆ	-7.54959
ಂಬ	-7.54983
▁ಚ	-7.55578
▁ಡೌನ್ಲೋಡ್	-7.55622
▁ಇಲ್ಲ	-7.55898
ಗಾಗಿ	-7.56171
ra	-7.56317
ಣಿ	-7.5647
ದ್ದು	-7.56479
▁ಬೆ	-7.56536
ಜ್	-7.57276
10	-7.57573
ಪಾ	-7.57774
ಟ್ಟ	-7.57781
it	-7.58009
ಯಾಗಿ	-7.58442
ತಾ	-7.58507
▁ಓ	-7.58595
ri	-7.59115
ಿಂಗ್	-7.59305
V	-7.59438
ಳೆ	-7.59547
▁ನೋಡ	-7.5992
6	-7.5995
ಕಾ	-7.6001
▁ನೆ	-7.60145
ುತ್ತಾರೆ	-7.60323
ಅ	-7.60795
▁K	-7.61155
▁ಮೆ	-7.61461
▁20	-7.61899
▁ಕೆಲಸ	-7.62085
▁ಅವರಿಗೆ	-7.62147
ಬಿ	-7.62165
W	-7.62398
w	-7.62445
▁ಪ್ರಕಾರ	-7.62591
ಗೊಳಿಸ	-7.62632
ಂದ	-7.62998
_	-7.63019
U	-7.63058
ೃ	-7.63477
▁2019	-7.63514
ಮಿ	-7.63761
ಮಾಡ	-7.63973
▁ಹೊಂದ	-7.64103
ಎಸ್	-7.64157
▁ಬಂದ	-7.64229
ಮಾನ	-7.64714
ಸಾ	-7.65062
▁ನಲ್ಲಿ	-7.65638
ed	-7.65918
▁ಯಾವ	-7.65973
▁ಇದ್ದ	-7.66157
ಸು	-7.66359
th	-7.66382
▁ಮಾ	-7.66512
mm	-7.66566
ur	-7.66573
▁ಮಕ್ಕಳ	-7.67072
▁ಅನ್ನು	-7.67107
▁8	-7.67971
▁ಹೊಸ	-7.68076
ಯೋ	-7.68369
ಂತೆ	-7.68669
▁ಹೋಗ	-7.68929
▁ಹೆಚ್ಚು	-7.69168
ವಾಗಿದೆ	-7.69344
ಿಸಿದ	-7.69381
ಲಿಲ್ಲ	-7.69623
ಇ	-7.69624
gt	-7.69736
▁ಬೇ	-7.6978
▁ಮುಖಪುಟ	-7.69825
ಂಚ	-7.6987
▁0	-7.6989
ಕ್ಕ	-7.70082
▁ಮಾಡಿದ	-7.70125
▁ಮಾಡುವ	-7.7018
ಂಟ	-7.70432
ಾಯಿ	-7.70923
ವನ್ನೂ	-7.71159
▁ಅವನಿಗೆ	-7.71199
ವನ	-7.71415
▁R	-7.71877
▁ಸ್ಥಳ	-7.71954
▁ಇರ	-7.72043
K	-7.72133
ಗಿ	-7.72298
▁ಬರ	-7.725
▁ಬಗ್ಗೆ	-7.7258
▁19	-7.72859
▁ಕನ್ನಡ	-7.73072
ic	-7.73424
▁ಕೊ	-7.73514
ಚ್ಚ	-7.73543
▁7	-7.73802
▁+	-7.74725
ುತ್ತೇನೆ	-7.74749
ಂಗ	-7.74835
▁ಮಿ	-7.74903
▁12	-7.75127
ro	-7.75141
ಕೊಂಡು	-7.75201
ತು	-7.7526
▁...	-7.75479
▁ಸೇವೆ	-7.75641
ತ್ತು	-7.75664
▁ಗು	-7.75956
▁ಎಲ್ಲ	-7.76159
ರೀ	-7.76321
▁ಜನರ	-7.76337
ುವುದು	-7.76419
▁ತಾ	-7.76648
▁ಹೊ	-7.76656
ನಾದ	-7.76878
j	-7.77021
ತ್ರ	-7.77121
ೆನು	-7.77166
ಮೆ	-7.7763
▁ಈಗ	-7.77779
ಹಿ	-7.77909
50	-7.77937
ol	-7.77946
01	-7.78232
▁ಯಾವುದೇ	-7.78233
ಲೂ	-7.78569
ಯಾದ	-7.78635
ನೆಯ	-7.78638
▁ಪಟ್ಟಣ	-7.78843
ಣೆ	-7.79448
un	-7.79794
▁ಟ್ಯಾಗ್	-7.79996
▁ನನ್ನನ್ನು	-7.80047
▁ಒಬ್ಬ	-7.80497
ಿತು	-7.80755
ರೇ	-7.80946
▁ಅವರನ್ನು	-7.81414
ುವದಿಲ್ಲ	-7.81577
ಿದನು	-7.81655
▁ನಿನಗೆ	-7.82129
▁ಬಲ	-7.82201
ಮಾಡಿ	-7.82281
▁I	-7.8292
▁E	-7.83068
▁ಕಾರ್ಯ	-7.8312
ಸ್ಥ	-7.8316
ುವದಕ್ಕೆ	-7.83224
ಿದರು	-7.83287
▁U	-7.83449
ುವೆನು	-7.83628
sh	-7.83823
am	-7.83864
ಜೆ	-7.83947
ರಿಗೆ	-7.83957
ಶ್	-7.84005
ಕರ್	-7.8462
▁ಬಳಿಗೆ	-7.8464
il	-7.84736
▁ಬಳಸ	-7.84795
▁ಕಟ್ಟ	-7.84859
▁ಸೆ	-7.84883
▁ಪಿ	-7.85028
▁N	-7.8505
11	-7.85087
▁ಮರ	-7.85156
▁ಗೆ	-7.85164
ಗಾ	-7.85215
ಂಡ್	-7.85778
▁ಕೇಳ	-7.85976
▁ಇರುವ	-7.86087
ವನು	-7.86147
▁ಐ	-7.86439
ಗು	-7.86542
▁ಮಾರ್ಗ	-7.86792
▁ದೊಡ್ಡ	-7.86821
▁J	-7.87101
ಪ್ಪ	-7.87677
▁ಸ್ವ	-7.87931
▁ಹೀಗೆ	-7.88188
9	-7.8863
ನಲ್ಲಿ	-7.88681
▁ಕೋ	-7.89043
ಟೆ	-7.89195
ಗಳಿಂದ	-7.89327
ವ್	-7.89647
ಿಲ್ಲ	-7.89663
ನಿಗೆ	-7.89792
ಗಳೂ	-7.90052
ುತ್ತಾನೆ	-7.90196
ter	-7.90408
▁#	-7.90862
▁O	-7.90868
ಸ್ಟ್	-7.91034
▁ಆಯ್ಕೆ	-7.91043
▁ಇದಲ್ಲದೆ	-7.91086
ಧಿ	-7.91115
ಸೆ	-7.91531
ವಾಗ	-7.91607
ಪಡಿಸ	-7.91618
ೊಂದಿಗೆ	-7.91809
ದಾ	-7.91813
]	-7.91834
▁ಅವನನ್ನು	-7.92315
ಕಾರ	-7.92356
ಿಸಲು	-7.9236
▁2016	-7.92395
▁c	-7.92533
▁the	-7.92702
▁ಜಾ	-7.92882
▁ಕೊಡ	-7.92908
co	-7.93084
▁ಮೇಲ್	-7.93098
ಹಾ	-7.93422
ಕೋ	-7.93566
▁ಪರಿ	-7.93837
▁ಉಚಿತ	-7.94189
▁ವಾ	-7.94193
▁ಯಾಕಂದರೆ	-7.94245
▁ಉತ್ತಮ	-7.94246
▁ವಿಷಯ	-7.94452
ರುವ	-7.94537
▁ದೇವರು	-7.94627
X	-7.9476
ad	-7.95233
▁ನಂತರ	-7.95281
▁ಎಂಬ	-7.95536
08	-7.95619
ುತ್ತವೆ	-7.95705
▁ಉಪ	-7.95798
▁9	-7.95799
ತ್ವ	-7.96095
ಿನಲ್ಲಿ	-7.96255
'	-7.96277
se	-7.96363
ಷ್ಟ	-7.96591
▁ಅಲ್ಲಿ	-7.96619
ಚ್	-7.97098
▁ಮಗನಾದ	-7.97111
ಮ್ಮ	-7.97123
▁ಶಿ	-7.9741
▁ದೇಶ	-7.97433
ಲೋ	-7.97507
▁ಹೋಗಿ	-7.97672
40	-7.97756
ದೇ	-7.97814
el	-7.98014
▁ಹೆಸರು	-7.98267
us	-7.98299
as	-7.98594
▁ಕಿ	-7.98985
▁ಇತರ	-7.99091
▁ಡಿ	-7.99239
ತ್ತಿ	-7.99259
▁ಹೇಗೆ	-7.99434
ುವದು	-7.99694
▁[	-7.99722
▁in	-7.99807
ಎ	-8.00019
ೀಯ	-8.00391
▁ಸಹಾಯ	-8.00479
▁ಅರಸನ	-8.00656
30	-8.00719
▁ಸಂಖ್ಯೆ	-8.00792
▁ನೀಡ	-8.00857
▁ನೀ	-8.0127
▁ಬಂದು	-8.01321
▁ಪಟ್ಟಿ	-8.01354
▁ಚಿತ್ರ	-8.01617
ಟ್ಟು	-8.0166
ma	-8.0182
ಕ್ಸ್	-8.01851
ಫ್	-8.02155
▁ನಮಗೆ	-8.02222
ಣ್ಣ	-8.02392
ಯ್	-8.02506
ಿದ್ದಾರೆ	-8.02597
ಬ್ಬ	-8.02932
ಲೀ	-8.02981
ಕಿ	-8.03016
ಾಗಿರುವ	-8.03238
▁ಭಾಗ	-8.0339
60	-8.03496
▁X	-8.03513
▁ನಿನ್ನನ್ನು	-8.03736
▁ಹಿ	-8.03821
Y	-8.03935
▁ಯೇಸು	-8.04333
▁ಮೊದಲ	-8.04503
▁ಬಹಳ	-8.04661
ಖ	-8.04855
80	-8.04944
ೆಂದು	-8.05013
▁ಹೋ	-8.05149
▁15	-8.05251
ದರಿಂದ	-8.05728
ರಿಸ	-8.06147
ನನ್ನು	-8.06478
is	-8.06669
▁(1	-8.06693
ಳ್ಳ	-8.06815
ಸ್ತ	-8.06883
▁ವರ್ಷದ	-8.07955
ಂಕ	-8.08095
▁ಗಾತ್ರ	-8.08316
ti	-8.0859
ದ್	-8.08651
ಂಗ್	-8.08667
▁ಇಗೋ	-8.08686
ಮೋ	-8.0889
ಾದರೂ	-8.08949
▁ಪ್ರಮಾಣ	-8.08981
▁ದೇವರಾದ	-8.09246
▁ಮೂ	-8.0927
12	-8.09708
▁ವೈ	-8.09804
ಆ	-8.0987
ಗೊಂಡ	-8.09894
ಂದರೆ	-8.10071
ಚಿ	-8.10212
ir	-8.10281
ಕೊಳ್ಳುವ	-8.10874
▁ಕಾಲ	-8.10905
ಂದು	-8.11205
ರನ್ನು	-8.11439
▁*	-8.11651
▁ಹೊರ	-8.11661
▁18	-8.11725
ate	-8.11733
▁ಪುಟ	-8.11735
op	-8.11742
▁ಹೃದಯ	-8.11952
ಘ	-8.11973
▁ಕೊಟ್ಟ	-8.12009
▁ಮಾಡಲು	-8.12411
000	-8.12562
ಗೂ	-8.12851
09	-8.1291
▁ನೋಡಿ	-8.13278
ow	-8.13294
ುತ್ತ	-8.13471
ುವಂತೆ	-8.13669
▁11	-8.13778
▁ಚಾ	-8.13811
ದ್ರ	-8.14016
▁ಕ್ಯಾ	-8.14084
ಫ	-8.14104
oo	-8.14202
▁ಮಾಹಿತಿ	-8.14379
▁ಮುನ್ನ	-8.14417
ದೇಶ	-8.14594
▁24	-8.14987
▁ಇಲ್ಲಿ	-8.15011
▁V	-8.15053
ಯನ್ನೂ	-8.15265
▁ಹುಡುಕ	-8.15313
▁ಹಾಕ	-8.15315
▁ಸಮಯ	-8.15377
ಾಯ	-8.15429
▁ಪೂರ್ಣ	-8.15437
ಿವೆ	-8.1568
▁ಜಿ	-8.15784
▁ಭೂಮಿಯ	-8.15801
▁ಮೂಲ	-8.15844
▁ಎರಡು	-8.16397
▁ದಿನಾಂಕ	-8.16448
ಕ್ತ	-8.16581
05	-8.16755
▁ಭ	-8.16756
▁ಸ್ಪ	-8.17107
ಕ್ಕೂ	-8.17405
ಂಪ	-8.17445
ಂಟ್	-8.17566
▁ಜನರು	-8.17792
ವಿಲ್ಲ	-8.17812
07	-8.17996
▁ಕಡತ	-8.1802
▁ಮಾದರಿ	-8.18035
ಪು	-8.18215
06	-8.18263
▁ಗೋ	-8.18271
te	-8.18618
ಲ್ಲಾ	-8.18822
ಲಾಗಿದೆ	-8.18831
▁ಎಂ	-8.18831
li	-8.19028
ಂಥ	-8.19112
▁ಕರೆ	-8.19234
ವಿನ	-8.19295
ಿದ್ದಾನೆ	-8.19319
ಿಗೂ	-8.19374
▁ಆನ್ಲೈನ್	-8.19432
▁ಶಾ	-8.19487
▁ಮೋ	-8.19638
▁ಕಾಣ	-8.19736
▁ವರ್ಗ	-8.19852
ಕ್ಕಾಗಿ	-8.19957
▁ಹಾಗೂ	-8.20353
▁ಕೂ	-8.20738
ಿದ್ದೇನೆ	-8.20739
▁p	-8.20936
▁to	-8.21381
ನ್ಸ್	-8.21572
▁ಇಸ್ರಾಯೇಲಿನ	-8.21608
▁ಮಾತ್ರ	-8.21744
15	-8.21929
▁ಸಾಧ್ಯ	-8.22212
ul	-8.2226
29	-8.22475
▁ಮೊ	-8.22689
26	-8.22757
me	-8.22806
▁ಬೆಲೆ	-8.23134
ಟಾ	-8.23657
▁ಯಂತ್ರ	-8.24111
▁ಪಾಪ	-8.24195
▁ಗಿ	-8.24259
▁ಪರಿಶುದ್ಧ	-8.24285
di	-8.2429
▁ಬ್ರ	-8.2447
▁ಆದದರಿಂದ	-8.24523
▁ಮನೆಯ	-8.24531
▁ವರುಷ	-8.25169
▁ಉತ್ತರ	-8.25206
ೊಬ್ಬ	-8.25303
ಮೇ	-8.25755
▁ಹಿಂದೆ	-8.25796
ುತ್ತಿದ್ದ	-8.258
ಗಾರ	-8.25807
▁ತು	-8.25948
://	-8.26097
ಪಟ್ಟ	-8.26222
25	-8.26276
▁ಜೀವ	-8.2634
▁ಅನೇಕ	-8.26516
ುತ್ತೇವೆ	-8.26569
▁ಕಾರಣ	-8.26697
ಲ್ಪಡ	-8.26906
▁ನಿರ್	-8.2692
▁ಮುಖ್ಯ	-8.26929
13	-8.26934
▁ಕೆಲವು	-8.27102
▁ಇಮೇಲ್	-8.27159
lt	-8.27169
ಲಿನ	-8.2719
ುತ್ತಾ	-8.27508
▁30	-8.2773
ಬಾ	-8.27768
▁ಫ	-8.27914
▁ಕಡಿಮೆ	-8.28056
▁=	-8.28336
▁ಚಿ	-8.28409
99	-8.28468
▁ಯಾಜಕ	-8.28477
▁ಅವುಗಳ	-8.28649
&	-8.28919
▁ಸೇ	-8.28974
▁and	-8.29177
▁ಮಕ್ಕಳು	-8.29836
▁ಪ್ರಾ	-8.29914
ಹೋಗ	-8.29947
▁ಹೇಳಿದ	-8.29949
16	-8.30228
J	-8.30238
▁m	-8.30462
19	-8.30464
▁©	-8.3048
▁ತೋರಿಸ	-8.30653
▁b	-8.30799
ang	-8.31034
www	-8.31042
▁ದಾ	-8.31166
ತ್ಯ	-8.31179
▁ರಾ	-8.31276
▁ತರ	-8.31334
▁ನ್ಯಾಯ	-8.31376
ದೋ	-8.31508
ಎಂ	-8.31553
18	-8.31658
▁ಹೆಚ್ಚಿನ	-8.32165
▁ಕಂಡು	-8.3219
▁ಟೈಮ್	-8.32224
▁ಸೀ	-8.32328
▁ಟ್ರ	-8.32417
02	-8.32823
▁ಕಂಪನಿ	-8.32855
▁ಸಮ	-8.33086
ಂಜ	-8.33436
▁ಅಲ್ಲ	-8.33807
▁ರಲ್ಲಿ	-8.33927
ುವುದಿಲ್ಲ	-8.34003
▁ಸಂಪರ್ಕ	-8.34004
▁ಮಂದಿ	-8.34119
▁ಉತ್ಪನ್ನಗಳು	-8.34184
▁ಧ	-8.34243
▁of	-8.34709
la	-8.34724
▁ಮನೆ	-8.34799
ha	-8.3504
▁ನೀತಿ	-8.35196
▁Ch	-8.35474
▁ಅಂಗ	-8.35606
▁ಚೀನಾ	-8.35733
ಳೆಯ	-8.35871
ಡಿಯ	-8.36022
ಬೆ	-8.3607
ಾಗಿದ್ದ	-8.36162
ಲೈ	-8.36437
ಲಾಗುತ್ತದೆ	-8.36604
de	-8.36611
ex	-8.36661
ಯೆ	-8.36663
14	-8.3672
ot	-8.36727
▁ಕ್ರ	-8.36769
ಿದಾಗ	-8.36847
▁ಅವ	-8.37071
▁ಪ್ರೀತಿ	-8.37105
ne	-8.37107
▁ಹೇಳಿ	-8.37241
▁ರಾಜ್ಯ	-8.37284
35	-8.37416
▁ಕೂಡ	-8.37438
ಪಡ	-8.37561
▁ಆಹಾರ	-8.37631
ಿದ್ದರೆ	-8.37875
▁ಕೇ	-8.37973
▁ಸೈಟ್	-8.38067
▁ಸಂತೋಷ	-8.38089
”	-8.38288
▁ಅವಳ	-8.38344
ಿಕೆಯ	-8.38521
▁ನೇ	-8.38623
ation	-8.38627
ದ್ಯ	-8.38683
▁16	-8.39071
ಜಾ	-8.39087
ೆಲ್ಲಾ	-8.39292
ದಾರ	-8.39316
ಲ್ಲಿರುವ	-8.39562
▁£	-8.396
ವ್ಯ	-8.39759
▁ರಿಂದ	-8.39767
ಟ್ಟಿ	-8.40169
04	-8.40368
ಜನ	-8.40433
ಿತ್ತು	-8.40539
ುವನು	-8.40703
ಿಸು	-8.40892
▁w	-8.40944
ದ್ದರಿಂದ	-8.40957
▁ಹು	-8.41014
ದಂತೆ	-8.4104
ಷ್ಟು	-8.41353
▁ದೂರವಾಣಿ	-8.41395
▁ಬಣ್ಣ	-8.41435
▁ಜೆ	-8.41502
▁ಯಾರ	-8.41561
he	-8.41572
▁ತಿಳಿಯ	-8.41671
ಬಲ್	-8.41801
ಟೋ	-8.41838
ವೀ	-8.41907
lo	-8.41948
ಿದರೆ	-8.41975
Comment	-8.42153
▁ವೆಬ್ಸೈಟ್	-8.42222
03	-8.42245
▁ನಮ್ಮನ್ನು	-8.42247
▁ವಿರೋಧವಾಗಿ	-8.42418
▁ಪ್ಯಾ	-8.42485
ಲಾದ	-8.4272
▁ಅದಕ್ಕೆ	-8.42821
ನಿಯ	-8.42874
ಬಿಟ್ಟ	-8.42936
ಂಟು	-8.4302
ೊಳಗೆ	-8.43054
▁ಹಾಗೆಯೇ	-8.43132
▁ಬರುವ	-8.43727
▁ದಿವಸ	-8.44129
▁ಮಹಾ	-8.44172
▁'	-8.44251
ಚಾರ	-8.44364
-1	-8.44394
▁ನಿಮ್ಮನ್ನು	-8.44468
ec	-8.44492
▁17	-8.4452
▁ಏನು	-8.44804
▁ಬದಲಾಯಿಸ	-8.45028
id	-8.45068
▁ಮಾತು	-8.45257
▁ಕೀ	-8.4554
ಿನಿಂದ	-8.45785
▁ಕಳುಹಿಸ	-8.45995
▁25	-8.46005
▁ಆತ್ಮ	-8.46032
ಬೇಡ	-8.46139
▁ಎಸ್	-8.46356
▁f	-8.4664
▁ಕಂ	-8.46653
▁ಮೊದಲು	-8.46831
▁ವಿನ್ಯಾಸ	-8.46896
ಾಗಲಿ	-8.46995
▁ವಿಶೇಷ	-8.47041
▁ತೊ	-8.47248
▁2015	-8.47408
▁ತಿಳಿದ	-8.47524
ut	-8.47637
▁ಜನವರಿ	-8.48137
ay	-8.48202
▁ಮುಖ	-8.48444
all	-8.48525
ನಿನ	-8.48598
▁ರೇ	-8.4862
ರಿಸಿ	-8.48714
90	-8.48818
▁ಭಾಷೆ	-8.48872
ಿಸುತ್ತದೆ	-8.48902
ve	-8.48913
ಗ್ಗ	-8.48935
▁ಇಸ್ರಾಯೇಲ್	-8.49253
▁ವಸ್ತು	-8.4932
ಬಾರದು	-8.4943
▁ಪಡೆಯ	-8.49476
▁ಮನುಷ್ಯರ	-8.49689
ಭಾವ	-8.49754
ಕೀ	-8.49776
▁ಪ್ರಾಣ	-8.4992
▁ವ್ಯವಸ್ಥೆ	-8.50008
▁ತಿಂಗಳ	-8.50052
▁ಜನ	-8.50128
▁ಯುದ್ಧ	-8.50142
ಬೀ	-8.50144
▁ದೂರ	-8.50176
▁ಅರಸನಾದ	-8.50201
ಕೃತ	-8.5022
▁ಸೂ	-8.5026
32	-8.50332
▁ನಿಂದ	-8.50403
▁ಐಗುಪ್ತ	-8.50512
▁ತರುವಾಯ	-8.50588
▁ಬಹು	-8.50617
ಟಿಂಗ್	-8.50711
▁ಚಿತ್ರಗಳು	-8.50761
na	-8.50815
▁ಒದಗಿಸ	-8.50969
▁ದೇವ	-8.51054
▁ಅತಿ	-8.51221
ಆರ್	-8.5144
ರಲ್ಲಿ	-8.5144
ಪೆ	-8.51516
28	-8.51528
ಮು	-8.51712
ರೈ	-8.51746
▁»	-8.51758
▁ಅಗತ್ಯ	-8.51875
▁“	-8.51879
ರಾಮ	-8.5196
▁ಕರ್ತನಿಗೆ	-8.52173
hi	-8.52223
▁ಬಿಟ್ಟು	-8.52243
▁13	-8.52245
▁ಇನ್ನೂ	-8.52374
▁Y	-8.5251
▁ಸರಿ	-8.52511
▁ದಿ	-8.52602
▁ತಿಳಿಸ	-8.5289
▁ಫಾರ್	-8.5312
▁ಪು	-8.53221
▁ಸಮಸ್ತ	-8.53374
▁ಮನುಷ್ಯನ	-8.5342
೦	-8.53487
▁100	-8.53544
▁ಆಫ್	-8.53706
▁ನಿಯಮ	-8.53793
▁ಹೊರಗೆ	-8.54339
om	-8.54381
22	-8.54642
▁ಯೆ	-8.54647
ia	-8.54716
▁ಒಂದ	-8.54822
ೊಳಗಿಂದ	-8.54895
ುತ್ತಿರುವ	-8.54914
17	-8.54925
▁ಇದೆ	-8.54926
ಬೇಕ	-8.55149
▁ಹೇಳಿದನು	-8.55293
ಲಾಗಿ	-8.55504
▁ಅವುಗಳನ್ನು	-8.55773
▁ಹೊಂದಿದೆ	-8.56001
ರಾಗಿ	-8.56032
ers	-8.56157
ಕಾಲ	-8.56213
▁ಮಾಡಬಹುದು	-8.56214
▁ಪ್ರವಾದಿ	-8.563
▁ಕೆಟ್ಟ	-8.56443
▁ಆಗಿದೆ	-8.56491
▁ಇನ್	-8.56678
▁ವೀಡಿಯೊ	-8.57194
▁ತಂದೆ	-8.57216
ಶಾ	-8.5722
ke	-8.57331
▁ಕುಮಾರರ	-8.57517
ent	-8.57561
▁ಅಭಿವೃದ್ಧಿ	-8.57597
▁ಯೋಜನೆ	-8.57598
▁ಜ್ಞಾನ	-8.57734
▁14	-8.57832
▁ಇಲ್ಲವೆ	-8.58086
▁ಮಾತನಾಡ	-8.58125
▁ರಕ್ತ	-8.5814
ho	-8.58259
+	-8.58325
▁ಉತ್ಪನ್ನ	-8.58406
▁ಸ್ಟ	-8.5854
▁ಆಳ	-8.58561
▁200	-8.58562
ುವರು	-8.5873
ಮೂ	-8.58931
ಂತಹ	-8.58938
▁ವರ್ಷ	-8.58957
ಎಫ್	-8.58971
▁ಸೇರಿಸ	-8.59017
ಾಗುವ	-8.59092
▁ಸೇರಿ	-8.59113
ೆಂಬ	-8.59239
▁ಖ	-8.59361
’	-8.59634
▁ಚಲನಚಿತ್ರ	-8.59634
▁ಶಕ್ತಿ	-8.59747
24	-8.59834
bo	-8.60034
nd	-8.60396
▁ಜನಾಂಗ	-8.60473
ong	-8.60496
ಬೇಕೆಂದು	-8.60583
▁ಮೂರು	-8.60704
▁@	-8.6083
ುವಿಕೆ	-8.61041
▁ಹಣ	-8.6115
ly	-8.61213
ಧಾ	-8.61367
ಫೋ	-8.61371
▁ಸಾಧನ	-8.61407
ಸಂ	-8.61439
ದ್ದನ್ನು	-8.61588
ಬೇ	-8.61622
▁ಕೇಳಿ	-8.61641
▁ಅತ್ಯುತ್ತಮ	-8.61714
▁ಭೇಟಿಗಳು	-8.61755
▁ಕೊಂಡ	-8.61772
▁ಮನಸ್ಸ	-8.618
▁In	-8.61804
▁ವಾಕ್ಯ	-8.61892
▁ತಿನ್ನ	-8.62006
ಬೇಕಾದ	-8.62038
▁ಬ್ಯಾ	-8.62096
45	-8.6211
ಲ್ಪಡುವ	-8.6224
▁ವರೆಗೆ	-8.62308
▁ತಿರುಗಿ	-8.62366
ಗ್ರ	-8.62429
▁22	-8.62449
▁ಫಿ	-8.62519
▁ಇದನ್ನು	-8.62597
ತೋ	-8.62624
▁ಹೂ	-8.62912
ವರ್ತ	-8.63025
▁ಪದ	-8.63065
ಿಕೊಂಡು	-8.63072
57	-8.63165
ig	-8.63363
21	-8.63469
ನೆಂದು	-8.63625
▁ಕಣ್ಣು	-8.63756
▁ತಲೆ	-8.63881
▁ಮೀ	-8.6395
ಟು	-8.64062
▁ಸಿದ್ಧ	-8.64075
▁ಸ್ಕ	-8.64093
ಪಡಿಸಿ	-8.64097
▁ಯೋ	-8.64142
-20	-8.64382
▁St	-8.644
▁ಹೊರಟು	-8.64474
▁ಗಾ	-8.64651
75	-8.64664
▁ಕೇವಲ	-8.64703
▁ವಿವಿಧ	-8.64875
ಜು	-8.64893
▁ಒಳ	-8.65314
ಮೀ	-8.65372
ta	-8.65469
▁ವ್ಯಕ್ತಿ	-8.65484
▁ರಚಿಸ	-8.6572
▁ಮಾತ	-8.6576
os	-8.65869
▁ತಂದೆಯ	-8.65878
34	-8.6605
▁ಹೇಳುತ್ತಾನೆ	-8.6614
▁ದಾವೀದನ	-8.66212
▁ಸಾವಿರ	-8.66214
▁ಬೋ	-8.6645
▁Re	-8.66492
▁ಜೀವನ	-8.66619
▁%	-8.66888
ಧ್ಯ	-8.6701
▁ಡಾ	-8.67229
▁ಸತ್ತ	-8.67358
▁21	-8.67434
ab	-8.67657
ಃ	-8.6778
ಕ್ಷಣ	-8.6784
ಐ	-8.6791
Q	-8.67915
ವಾಗಿರುವ	-8.68003
ವಳ	-8.68067
um	-8.68145
▁ಕ್ರಿಸ್ತನ	-8.68174
36	-8.68254
▁ಹೋಗುವ	-8.68361
ನೀನು	-8.68627
ವುಳ್ಳ	-8.68683
ರಾದ	-8.68729
Z	-8.68744
ನಾನು	-8.6876
▁2014	-8.68928
▁ನವೆಂಬರ್	-8.69219
▁ಬೆಂಬಲ	-8.69225
ite	-8.69345
ನಿಂದ	-8.69524
ine	-8.696
55	-8.69605
▁h	-8.69692
▁ಏಳು	-8.69708
▁2013	-8.69752
ಫಾ	-8.69923
ಲ್ಲದೆ	-8.70021
▁ತಿರಿಗಿ	-8.70038
್ಯೂ	-8.70298
▁ಕರೆಯ	-8.70371
▁ವಿಮಾನ	-8.7039
▁ಸಾಯ	-8.70473
▁ಮುಚ್ಚ	-8.70555
ಚೀ	-8.70706
▁Kannada	-8.70753
ರಣೆ	-8.70796
ವರಿಗೆ	-8.7084
▁ಆಟ	-8.70945
ಂಕ್	-8.70977
-2	-8.71028
▁ಪೋ	-8.71083
▁ತೆರೆ	-8.71214
▁ಮುಂದ	-8.71251
▁ಪೇ	-8.71358
▁ಕ್ಲ	-8.71451
▁ವರೆಗೂ	-8.71474
ಗೋಸ್ಕರ	-8.7152
ೊಂದು	-8.71575
▁ಉನ್ನತ	-8.71701
▁ಫಲ	-8.71746
ೀಕರಣ	-8.71889
▁ಆತನನ್ನು	-8.71896
▁ಪ್ರಮುಖ	-8.71929
▁Sh	-8.72217
33	-8.72244
▁ಪ್ರಯಾಣ	-8.72352
cm	-8.72396
▁ಸುತ್ತ	-8.72426
500	-8.72488
ಲ್ಲಿಯೂ	-8.72535
▁ಪ್ರದೇಶ	-8.72708
▁ವಿಶ್ವ	-8.72743
ುವವರ	-8.72846
ಭಾ	-8.72913
▁ತೆಗೆದು	-8.72981
▁ಅರ್ಥ	-8.73027
ಎಲ್	-8.73363
▁ವಿಧ	-8.73484
▁ಆಗಸ್ಟ್	-8.73566
ಗೋ	-8.73595
▁ಫ್ರ	-8.73637
▁ಮೈ	-8.73733
▁ವಾಸ	-8.73827
▁ಮೊಬೈಲ್	-8.73856
▁ಸೋ	-8.73856
▁ವಿಳಾಸ	-8.73951
der	-8.73987
▁ಪೋಸ್ಟ್	-8.74181
▁ತಪ್ಪ	-8.74397
▁ಪರಿಣಾಮ	-8.74412
im	-8.74708
ವಾರ	-8.74781
▁ಕೊನೆಯ	-8.74855
ಡಾ	-8.74936
▁ಡಿಸೆಂಬರ್	-8.75002
vi	-8.7507
▁ಹಿಂ	-8.75172
=	-8.75189
ಜೀ	-8.75249
▁ಗ್	-8.75298
▁ಪಾಲ	-8.75302
▁ಬಯಸ	-8.75382
56	-8.75488
▁ಕೇಂದ್ರ	-8.75497
2012	-8.75608
▁ರೂಪ	-8.75771
▁ಸಾಮರ್ಥ್ಯ	-8.75773
ಸ್ಥಾನ	-8.7579
▁ಮಗನ	-8.75818
▁ಅಕ್ಟೋಬರ್	-8.75869
ack	-8.75879
▁ರೀತಿಯ	-8.75927
▁ಮಧ್ಯ	-8.75957
ಿದ್ದೀ	-8.76009
ುವಾಗ	-8.76037
48	-8.7607
▁ಬಲಿ	-8.76158
▁ಉಳಿಸ	-8.76267
▁ಶ್ರೀ	-8.76323
▁ಪರ	-8.76434
▁ಸೈ	-8.76437
37	-8.76456
▁ಕಾರ್	-8.76549
▁ಆಕಾಶ	-8.76553
ಾಂತರ	-8.76577
ಎಚ್	-8.76605
88	-8.7683
ಒ	-8.76947
86	-8.77167
▁ಟೆ	-8.77197
▁ಸಂಪರ್ಕಿಸಿ	-8.77215
▁ಜೊತೆ	-8.77233
▁ನಿಮಿತ್ತ	-8.77333
▁ಬಳಿಯಲ್ಲಿ	-8.77361
▁ಯಾರು	-8.77372
ಕ್ರಮ	-8.77414
▁Z	-8.77444
▁ದುಷ್ಟ	-8.77449
▁ಜೂನ್	-8.77534
▁ರಾತ್ರಿ	-8.77552
▁ಭಯ	-8.77578
▁ಬೇರೆ	-8.77761
▁ಮಾರಾಟ	-8.78222
▁ನ್ಯೂ	-8.78401
▁ಕೋಪ	-8.78429
▁ಕೇಳಿದ	-8.78478
▁ಶುದ್ಧ	-8.7852
▁info	-8.78563
▁ಹೇ	-8.78725
▁ಬೆಟ್ಟ	-8.78746
▁ವೆಬ್	-8.78747
ೀಕರಿಸ	-8.78753
ಗೊಳ್ಳ	-8.78754
ಿಯನ್	-8.78825
▁ಪಡೆದ	-8.78874
ಿಸಿಕೊಂಡ	-8.78909
ಯಾಗಿದೆ	-8.78937
▁ಆದ್ದರಿಂದ	-8.79204
ip	-8.7955
▁ಭೇಟಿ	-8.79571
▁ಇಟ್ಟ	-8.80082
ಶಿ	-8.80125
ಯೋಗ	-8.80137
ತೆಯ	-8.80246
70	-8.80515
▁for	-8.80516
▁ದೇಶದ	-8.80602
▁ಬರೆಯ	-8.80664
▁ವ್ಯಾಪಾರ	-8.80732
▁ಕೋಡ್	-8.80816
▁ಜುಲೈ	-8.80835
▁ಫೋನ್	-8.80861
*	-8.80925
▁ದಿನದಲ್ಲಿ	-8.80982
▁50	-8.81053
and	-8.81079
▁ಬಿಡ	-8.81108
ಿಸಿದನು	-8.81114
▁ಸಮುದ್ರ	-8.81139
ಫೆ	-8.81145
ುತ್ತೀ	-8.81198
ಂಪ್	-8.81204
ag	-8.81265
ೊಂದ	-8.81401
▁Ma	-8.8141
▁ಕರ್ತನೇ	-8.81432
ಮಾಡಿದ	-8.81544
▁ಅರಸನು	-8.81722
▁ನಂಬ	-8.81846
est	-8.82034
ರೊ	-8.82335
ap	-8.82337
▁ಕಡೆ	-8.82516
▁23	-8.82621
▁ನಂಬಿಕೆ	-8.82731
up	-8.82732
▁ಸುಲಭ	-8.82891
ಬಂಧ	-8.82892
▁ಸರಣಿ	-8.82894
▁ಒಳ್ಳೇ	-8.83202
▁ಮ್ಯಾ	-8.83249
▁ಸಮಸ್ಯೆ	-8.83307
ರನ್ನೂ	-8.83342
ಮಾಡುವ	-8.83424
38	-8.83529
▁ಬಳಸಿ	-8.83621
▁ತೂಕ	-8.83733
ಷ್ಠ	-8.83874
em	-8.84014
▁ಅಂಕ	-8.84088
▁ದೃಷ್ಟಿ	-8.84144
▁ಪುಸ್ತಕ	-8.8425
ry	-8.84287
ಿದ್ದೇವೆ	-8.84307
ಕಾರಿ	-8.84323
▁ಹೆಚ್ಚ	-8.84396
▁ನಿಜ	-8.84596
31	-8.84626
va	-8.84981
27	-8.85005
▁ನಡೆಯ	-8.85025
ಹೋದ	-8.85066
▁ವರ್ಷಗಳ	-8.85142
▁ಕುಟುಂಬ	-8.85309
▁ಒಳಗೆ	-8.8534
▁ವಿದ್ಯುತ್	-8.85415
ver	-8.8542
ub	-8.85421
▁ಕೃತಿಸ್ವಾಮ್ಯ	-8.85522
wa	-8.85523
ru	-8.85602
▁ಪ್ರಧಾನ	-8.85602
ಾತ್ಮಕ	-8.85966
58	-8.86
▁ಇಂದ	-8.86073
ಾತನ	-8.86275
▁ಎಕ್ಸ್	-8.86315
ಟೀ	-8.86367
▁ಕ್ಯಾಸಿನೊ	-8.86379
ವೆಂದು	-8.8638
▁Co	-8.86422
▁ಕಳುಹಿಸಿ	-8.86431
pe	-8.86561
ಂಭ	-8.86567
65	-8.86832
▁ಮಾರ್ಚ್	-8.8684
ತೀ	-8.86876
▁ಪೆ	-8.86883
▁2020	-8.86939
23	-8.86969
ಕ್ಕಿಂತ	-8.87
ನೀ	-8.87037
▁ಸಂಬಂಧ	-8.87051
▁ನಿರ್ವಹಣೆ	-8.87243
▁ಅತ್ಯಂತ	-8.87244
▁v	-8.87249
▁ಪತ್ರ	-8.87308
▁ರೂ	-8.87317
▁ಸಹೋದರರ	-8.87571
to	-8.8773
▁ಚಿಕ್ಕ	-8.87778
▁ಜೊತೆಗೆ	-8.8779
ತಕ್ಕ	-8.87811
ದಲ್ಲಿರುವ	-8.8791
age	-8.8793
▁€	-8.88036
▁ಮಧ್ಯದಲ್ಲಿ	-8.88039
95	-8.88092
ಖಾ	-8.88107
▁ಎನ್	-8.88109
▁ನಕ್ಷೆ	-8.88124
▁ಹೋದ	-8.8819
▁ಕಡೆಗೆ	-8.8822
ಎನ್	-8.88514
▁ವಿಂಡೋ	-8.88665
pl	-8.88756
ಹೀ	-8.88801
ಶು	-8.88857
ಲಾರ	-8.88915
ಕಿಂಗ್	-8.88989
ವರನ್ನು	-8.89039
▁ಚಿಕಿತ್ಸೆ	-8.89216
▁ಘಟಕ	-8.89216
▁ನೀಡಿ	-8.89265
‍	-8.89437
▁ತಿಳುವಳಿಕೆ	-8.89437
▁•	-8.89532
▁ಹೌದು	-8.8955
98	-8.89633
▁ಸೌ	-8.89641
▁ನೀರಿನ	-8.89686
39	-8.89701
we	-8.89818
ಷಿ	-8.89936
ದ್ಧ	-8.89966
ಜರ್	-8.90129
▁ಹಾಕಿ	-8.90144
ವಂತ	-8.90172
▁ಉದ್ದ	-8.902
ುತ್ತೀರಿ	-8.90213
▁ಆವೃತ್ತಿ	-8.90224
▁by	-8.90235
▁ಕೂಡಿ	-8.90277
▁ವಿವರ	-8.9032
▁ಲಕ್ಷ	-8.90341
▁ಪೂರ್ವ	-8.90355
ep	-8.90565
▁28	-8.90613
▁ತೆಗೆದುಕೊಳ್ಳ	-8.90633
ಹ್	-8.90639
▁ಅಂದರು	-8.90671
▁ವಿಧಾನ	-8.90767
▁ಭಾರತ	-8.908
ಾಂಶ	-8.90882
ame	-8.90992
ಕೊ	-8.91122
▁ಅದೇ	-8.91154
ಂದಿ	-8.91214
▁ಸಂಸ್ಥೆ	-8.91235
ಷನ್	-8.91262
▁ಅನ್ಯ	-8.91286
▁ಇವೆ	-8.91288
▁ಬಾಗಲ	-8.9155
▁ಡೇ	-8.91664
▁ಊ	-8.91709
▁ವೇಗ	-8.91722
▁ಕತ್ತಿ	-8.91752
ುವುದ	-8.91753
▁http	-8.91822
▁ಏಪ್ರಿಲ್	-8.91908
ಗೊ	-8.91941
ಣಾ	-8.92075
ಜ್ಞ	-8.92205
೧	-8.92364
▁ಫೆಬ್ರವರಿ	-8.92364
ಿಗೋಸ್ಕರ	-8.92372
qu	-8.92488
▁ಒಟ್ಟು	-8.92523
▁ಗಣ	-8.92574
▁ಗುಡಾರ	-8.92593
▁ಮೇಲೆಯೂ	-8.92598
ಥಾ	-8.92737
▁ಪ್ರೊ	-8.92859
ಬೋ	-8.9287
▁ವಿಭಾಗ	-8.92927
▁ಕೆಳಗೆ	-8.92938
wi	-8.9297
▁ಬಳಕೆ	-8.9303
▁ನಿವಾಸಿ	-8.93117
▁ಮನುಷ್ಯನು	-8.93151
ಬೇಡಿ	-8.93178
ಂಡಿ	-8.93186
ವೋ	-8.93254
▁ತಕ್ಕೊಂಡು	-8.93283
▁ತಂದ	-8.93428
▁ಆರಂಭ	-8.93613
ಝ	-8.93628
ಾಗಿಯೂ	-8.93677
ಿದ್ದರು	-8.93793
ದಿಂದಲೂ	-8.93807
ಾಗಿದೆ	-8.93813
▁ಕ್ರಿ	-8.94059
▁ಬದಲಾವಣೆ	-8.94092
▁ಸಲಹೆ	-8.94092
ಿಗಿಂತ	-8.9419
ac	-8.9432
ಂಟಿ	-8.9434
ill	-8.94383
44	-8.94453
▁ಎತ್ತ	-8.94521
▁ದೋಷ	-8.94572
41	-8.94583
2019	-8.95195
▁ಕಿಟಕಿ	-8.95261
ian	-8.95292
ies	-8.95415
sp	-8.95518
▁ಸಭೆಯ	-8.95526
▁ಅಂದರೆ	-8.95591
▁ಸೇವಕರ	-8.95615
▁ಹಿಂದಿನ	-8.95875
▁ಸಾಮಾನ್ಯ	-8.95913
ಹೊ	-8.96028
▁ಹೈ	-8.96047
▁~	-8.96084
▁ತರಬೇತಿ	-8.96087
▁ಇನ್ನು	-8.96213
▁ಅಪ್	-8.96341
▁ರಸ್ತೆ	-8.96446
▁The	-8.96513
59	-8.96539
IN	-8.96601
▁ನಾನೇ	-8.96628
▁ಸರ್ವ	-8.96632
ಫಿ	-8.96661
ಹಾಕ	-8.96742
ya	-8.96771
▁ಒಪ್ಪ	-8.96846
ರಿಗೂ	-8.96908
▁ತೆರೆಯ	-8.9712
ದ್ದಾರೆ	-8.97124
▁ಅವಳು	-8.9713
ದರ್ಶನ	-8.97307
ge	-8.97387
▁ಇದರ	-8.97649
ard	-8.97669
▁ತುಂಬಿ	-8.97672
▁ಲಿಮಿಟೆಡ್	-8.97882
▁ಎಲ್	-8.97883
▁ಮಾಡು	-8.97926
ಕೋಶ	-8.97956
▁ಬೆಳಕ	-8.98008
▁ನಗರ	-8.98083
▁ರೊಟ್ಟಿ	-8.98246
▁you	-8.98259
▁ರಕ್ಷಣೆ	-8.98366
ಶಾಸ್ತ್ರ	-8.9838
▁ನಡೆದ	-8.98522
fi	-8.98873
of	-8.98877
▁ಸ್ವಲ್ಪ	-8.98893
▁°	-8.98912
▁ಆತನಿಗೆ	-8.98933
ಾಲಯ	-8.98942
▁ಸೊ	-8.98998
ight	-8.99098
▁ಫ್ಲ	-8.99154
▁27	-8.99209
▁ಅನುಭವ	-8.99437
▁ಹೇಳುವ	-8.99537
▁ದಾವೀದನು	-8.9967
per	-8.99708
▁ಅವಕಾಶ	-8.99709
▁ಹೆಂಡತಿಯ	-8.99709
▁ಹೊಲ	-8.99716
▁ಅರ್ಪಿಸ	-8.99722
if	-8.99764
53	-8.9992
49	-8.99952
▁ಸಣ್ಣ	-8.99955
ಡೀ	-9.00099
▁ಎದ್ದು	-9.00114
▁ಶೆ	-9.00251
ಳ್ಳಿ	-9.00424
▁ತಿಂಗಳು	-9.00475
▁ಉಳಿದ	-9.00484
42	-9.00611
▁Q	-9.00634
-10	-9.00634
ುವದಕ್ಕೂ	-9.00707
ಬಿಡ	-9.00716
▁ಇವುಗಳ	-9.00793
ಕೊಳ್ಳಲು	-9.0089
▁ಆಲಯ	-9.00918
ನೈ	-9.00926
▁HD	-9.0096
▁ಅದರಲ್ಲಿ	-9.01084
▁ಸೌಲನ	-9.01192
▁ಉಪಕರಣ	-9.01195
▁ಸೇವಕನ	-9.01321
▁ಸೆಪ್ಟೆಂಬರ್	-9.01445
▁ಸಾರ	-9.01464
▁ಗ್ರಾಹಕರ	-9.01481
▁ಸತ್ಯ	-9.01498
▁ಪ್ರವಾಸ	-9.015
▁ಲೆಕ್ಕ	-9.01514
ದ್ದಾನೆ	-9.0172
ನೀವು	-9.01742
ಲಾಯಿತು	-9.01785
ವಾಗಿಯೂ	-9.0182
ug	-9.01897
ನನ್ನೂ	-9.01953
▁ಸಂದೇಶ	-9.02071
▁ಸ್ವಂತ	-9.02193
▁ಬೈ	-9.02252
▁ದೇಶದಲ್ಲಿ	-9.02321
$	-9.0238
▁ವರದಿ	-9.02461
▁ಆಜ್ಞೆ	-9.02583
ನಾಗಿ	-9.02787
q	-9.02819
▁ಆಕೆಯ	-9.02837
▁ಶೇ	-9.02855
▁ಶಿಕ್ಷಣ	-9.02881
▁ವೇಳೆ	-9.02979
ಕೊಡ	-9.03119
ಗ್ರಾ	-9.03208
▁ಇಷ್ಟ	-9.03303
ನನ್ನ	-9.03365
ಲ್ಪ	-9.03455
52	-9.0353
ಗಳಿಗಾಗಿ	-9.03582
▁ಲೇಖನ	-9.03594
▁ಸಂಚಿಕೆ	-9.03595
▁ಜೋ	-9.03612
▁ಬೀಳ	-9.03681
▁ಬ್ಲಾಗ್	-9.03722
▁ಇಸ್ರಾಯೇಲ್ಯರ	-9.03744
▁ಒಂದೇ	-9.03792
▁ಕುರಿತು	-9.03892
▁ಮಾಡುತ್ತದೆ	-9.04003
ದಲ್ಲಿಯೂ	-9.04006
▁ಮಾರ್	-9.04096
ವರೆಗೆ	-9.04135
ಕೊಂಡರು	-9.04318
net	-9.04367
▁ಪ್ರಶ್ನೆ	-9.04493
▁ಲೋ	-9.04505
ನ್ನೆಲ್ಲಾ	-9.04751
▁ಉದ್ದೇಶ	-9.04881
▁ನೀರು	-9.04986
▁ತಂತ್ರಜ್ಞಾನ	-9.0501
▁ಕ್ರಮ	-9.05037
ದರ್ಶಿ	-9.05069
no	-9.05115
▁ಯೆಹೂದದ	-9.0532
▁ಓಡಿ	-9.05381
▁ದೇಹ	-9.05693
▁Mo	-9.05741
▁ಯಾವಾಗಲೂ	-9.05791
89	-9.058
66	-9.05945
da	-9.06204
ವರೂ	-9.06221
▁ಮಾಡಿದನು	-9.06414
▁ಶಬ್ದ	-9.06451
eng	-9.06699
▁ಬಳಿ	-9.06706
▁ಸಾಕ್ಷಿ	-9.06719
47	-9.06849
ವಾಗುತ್ತದೆ	-9.06925
91	-9.07048
org	-9.07051
ಮೊ	-9.07076
ction	-9.07261
▁ರಚಿಸಲಾಗಿದೆ	-9.0728
▁Ro	-9.0734
▁ಅಪರಾಧ	-9.0737
▁ಜಿಲ್ಲೆ	-9.07517
ಠ	-9.07711
ಕ್ಸಿ	-9.08089
▁ಆಟಗಳು	-9.0809
="	-9.08354
ki	-9.0849
▁ಗುಣಮಟ್ಟದ	-9.08524
ಯುಳ್ಳ	-9.08529
▁ಮನೆಯಲ್ಲಿ	-9.08574
ೋಣ	-9.08749
▁ಚೆ	-9.08901
▁ತೆಗೆದುಕೊಂಡು	-9.08902
ವನಾಗಿ	-9.08903
ಚೆ	-9.0893
ತಂತ್ರ	-9.08982
▁ಹಾಗೆಯೂ	-9.08986
▁ಒಪ್ಪಿಸ	-9.09024
▁ಸಮಯದಲ್ಲಿ	-9.09057
▁ಅಡ್ಡ	-9.09108
64	-9.09109
ಪೊ	-9.09228
▁ಮಟ್ಟ	-9.09233
▁ಸುದ್ದಿ	-9.09389
▁ದಾಸ	-9.09392
46	-9.09423
▁ಗೋತ್ರ	-9.0949
▁ನಾಲ್ಕು	-9.09517
ಡಿಸಿ	-9.09532
ಭಾಗ	-9.0956
art	-9.09706
ಈ	-9.09744
▁ಯೆರೂಸಲೇಮಿನ	-9.09754
▁ಪಡೆಯಲು	-9.09786
▁ಗೇ	-9.09786
▁ಮಗನು	-9.09929
68	-9.09933
ಕ್ಕಿ	-9.10013
85	-9.10124
43	-9.10171
ಟನ್	-9.10183
ರೂಪ	-9.10405
ast	-9.10464
▁ಸಮಾಧಾನ	-9.10471
ಸ್ಟರ್	-9.1053
▁is	-9.10684
ಧಾನ	-9.10714
▁ಬ್ಲ	-9.10715
▁ಗಂಟೆಗಳ	-9.10745
51	-9.10766
ಲ್ಡ್	-9.10815
▁ತಪ್ಪಿಸ	-9.1082
ಚಿತ	-9.10846
▁ಬಿದ್ದ	-9.10991
▁ಕೊಡುವ	-9.11167
▁ಮಾಡಲಾಗಿದೆ	-9.1122
▁ಸಂಪೂರ್ಣ	-9.11301
ass	-9.11427
▁ರಾಜ	-9.11441
ph	-9.11459
ತೆಯನ್ನು	-9.11533
ಗಾರರ	-9.11571
▁ಸ್ತ್ರೀಯ	-9.116
▁ಕೈಯಲ್ಲಿ	-9.11609
▁ರಕ್ಷಿಸ	-9.11672
ದಾನ	-9.11707
ant	-9.11765
▁ವಿದ್ಯಾರ್ಥಿ	-9.11988
▁mo	-9.12111
▁ಹಂತ	-9.12198
▁ನಕ್ಷೆಗಳು	-9.1226
о	-9.12266
▁ಯಾಕೆ	-9.12303
▁ಕರ್ತನನ್ನು	-9.12324
ೇನಂದರೆ	-9.12403
77	-9.1245
▁ಯೆಹೂದ	-9.12467
೨	-9.12825
ಚ್ಛ	-9.1285
ಫೈ	-9.12857
▁ಬೆಳ್ಳಿ	-9.1289
74	-9.12973
ಗಳೊಂದಿಗೆ	-9.13053
▁ಪರಿಹಾರ	-9.13108
po	-9.13114
▁ಬದುಕ	-9.13128
ಬೇಡಿರಿ	-9.13175
ಮಿನ	-9.13234
▁ವೀಕ್ಷಣೆ	-9.13246
▁ಗುಣ	-9.13249
—	-9.13387
▁ಆದಾಗ್ಯೂ	-9.13387
▁ಆರೋಗ್ಯ	-9.13387
▁ಔಟ್	-9.13393
▁ವಿರುದ್ಧ	-9.13529
▁ಮಾತನಾಡಿ	-9.13602
ಕೊಟ್ಟ	-9.13817
82	-9.13905
▁No	-9.14078
▁ಸ್ಥಾಪಿಸ	-9.14095
ಟೇ	-9.1412
one	-9.1415
▁ಪಾವತಿ	-9.1427
▁ಮುಂದಿನ	-9.14276
▁ಕಂಡ	-9.14444
ೆಲ್ಲರ	-9.14487
▁ಎತ್ತರ	-9.1461
ER	-9.14646
54	-9.14794
▁ಒಳ್ಳೆಯ	-9.14807
▁ಉದ್ಯಮ	-9.14808
▁ಹೊಂದಿರುವ	-9.1488
▁ಲೋಕ	-9.14945
▁ಚರ್ಮ	-9.151
ment	-9.15121
ುವವನು	-9.15178
ci	-9.15279
▁ಏರ್	-9.15344
▁https	-9.15346
▁ತಯಾರ	-9.15354
▁31	-9.1542
ಯೊ	-9.15505
ುತ್ತಿದೆ	-9.15587
min	-9.15607
▁ಅಪ್ಲಿಕೇಶನ್	-9.15668
▁ಸ್ಥಿರ	-9.1567
ರಿಯಾ	-9.15698
▁ಇವರ	-9.15786
▁ಹೆಲಿಕ್ಸ್	-9.15813
▁ಕೂಗ	-9.15835
▁ಮೊಳ	-9.15899
ort	-9.16062
е	-9.16102
ive	-9.16107
▁ಕುರಿ	-9.1621
▁ಇತ್ಯಾದಿ	-9.16247
▁ಅರಣ್ಯ	-9.16247
ವಾಯಿತು	-9.16327
▁ಜಾಲ	-9.16391
2018	-9.16418
ST	-9.16708
able	-9.16708
ಜ್ಜ	-9.1676
▁ನಿಂತ	-9.16798
ದೊಂದಿಗೆ	-9.16983
tra	-9.1699
▁de	-9.17023
▁ಪ್ರವೇಶಿಸ	-9.17047
▁ಜನರಿಗೆ	-9.17124
▁ಗಮನ	-9.17141
▁ಶತ್ರು	-9.17277
ice	-9.1729
▁ಅಗಲ	-9.17333
▁ಸಾಮಾನ್ಯವಾಗಿ	-9.17336
▁ಭೂ	-9.17398
ect	-9.17483
▁ಅಂಶ	-9.17567
▁ಪಿತೃಗಳ	-9.17708
▁ಖಾತೆ	-9.1809
▁be	-9.18108
ist	-9.18123
▁ಬಿಡುಗಡೆ	-9.1815
▁ವೃತ್ತಿಪರ	-9.1815
▁ರೋಗ	-9.182
▁ಹ್ಯಾ	-9.18288
▁ದಕ್ಷಿಣ	-9.18298
▁ಕ್ಲಿಕ್	-9.18485
ಷಾ	-9.1863
ಇಗೋ	-9.19004
▁Vessoft	-9.19041
▁ಇಪ್ಪತ್ತ	-9.19065
ell	-9.19222
94	-9.19298
ನೊ	-9.19325
▁ಆಧಾರ	-9.19377
▁ಘನ	-9.19578
▁ಬಂದಾಗ	-9.19674
mo	-9.19726
▁ಬರೆದ	-9.19965
▁ವಾರ	-9.19984
▁ಸರಳ	-9.20265
ಗಳಲ್ಲಿಯೂ	-9.20345
▁ಲೇಖಕ	-9.20392
▁ಧ್ವನಿ	-9.20544
ಾಗಿದ್ದು	-9.20663
▁ದಯವಿಟ್ಟು	-9.20695
▁ಸಾರಿ	-9.20834
▁ಹೆಸರಿನ	-9.20852
▁ಕ್ರಿಯೆ	-9.20885
▁ನಿಯಂತ್ರಣ	-9.21151
▁An	-9.21205
▁ನಿರ್ವಹಿಸ	-9.21304
ೆಂದೂ	-9.21534
69	-9.21569
▁ಪ್ರಸ್ತುತ	-9.21609
▁ಏಕ	-9.21977
▁ಕರ್ತನಾದ	-9.22013
▁ಲಾಕ್	-9.2216
ಗ್ರಹ	-9.22273
▁ಊಟ	-9.22355
AR	-9.22368
▁ಗ್ರಾಹಕ	-9.22487
ುವುದನ್ನು	-9.22496
а	-9.2253
ಟೊ	-9.22555
▁2011	-9.22581
▁ಹೊಡೆದ	-9.22583
ಚು	-9.2264
ಂಡರ್	-9.22659
▁ಇವನು	-9.22796
▁ಗಣಕತೆರೆ	-9.22841
▁ಬಂಗಾರ	-9.22841
ೆಲ್ಲರೂ	-9.22879
ಾಯಿತು	-9.23043
pr	-9.23156
▁ಹತ್ತಿರ	-9.23156
▁ಸಂಪೂರ್ಣವಾಗಿ	-9.233
▁ಪಕ್ಷ	-9.23421
▁ವಾಸ್ತವ	-9.23464
▁ಹಾಗು	-9.23505
ಶ್ಚ	-9.23682
76	-9.2375
ಲಭ್ಯ	-9.23769
ಫೀ	-9.23878
SS	-9.23889
×	-9.23931
▁ಅನ್ವಯ	-9.24137
▁ಸ್ಥಳದಲ್ಲಿ	-9.24152
ಾರ್ಡ್	-9.24168
ವಲ್ಲ	-9.24287
87	-9.24458
▁ಭದ್ರ	-9.24496
ವಾಗುವ	-9.24589
▁ಸಹೋದರ	-9.24633
ನ್ನಾಗಿ	-9.24635
ಿದ್ದೀರಿ	-9.24739
▁ಪೀ	-9.24782
our	-9.24993
61	-9.25091
ಂದ್ರ	-9.25105
▁ಇಸ್ರಾಯೇಲ	-9.25133
ವನೂ	-9.25284
AN	-9.25301
▁ಒಡಂಬಡಿಕೆ	-9.25351
ತ್ರಿ	-9.25804
▁ವಿಷಯದಲ್ಲಿ	-9.25805
▁ಮೌಲ್ಯ	-9.25828
▁ಸುಮಾರು	-9.2583
Notification	-9.25988
▁ಸ್ಟ್ರಿಂಗ್	-9.25988
ುವದನ್ನು	-9.26015
▁ಲಾಭ	-9.26017
▁ಕೊಠಡಿ	-9.26148
▁ನಡುವೆ	-9.26149
ಲೊ	-9.26277
▁ವಿವರಣೆ	-9.2637
▁ಮಾರುಕಟ್ಟೆ	-9.26469
▁ಹುಡುಗ	-9.26475
ದ್ದೇನೆ	-9.26541
▁ಮಾಡಬೇಕು	-9.2673
▁ಮೋಶೆಯು	-9.26791
▁ಚಾಟ್	-9.26837
ಾಂಗ	-9.26909
67	-9.26932
ಮೆಂಟ್	-9.26939
lu	-9.26942
▁ಪ್ರಾರಂಭಿಸ	-9.27256
▁ಕಾರ್ಯಕ್ರಮ	-9.27341
▁ಬಿಲ್	-9.27446
ಶೋಧ	-9.27462
▁ಯುರೋ	-9.27511
lot	-9.2758
▁ಔಷಧ	-9.276
▁ಐದು	-9.27625
XL	-9.27626
▁ಇವರು	-9.27665
▁ಬೆಂಕಿಯ	-9.27682
▁ನಡೆಸ	-9.2782
▁ಗೊತ್ತ	-9.27879
tor	-9.27981
ಕ್ತಿ	-9.28055
CO	-9.28415
ity	-9.28452
ಲ್ಲವೋ	-9.28553
▁ಹೋದನು	-9.28559
▁ಮಹಿಮೆ	-9.2858
▁ಹೀಗ	-9.28705
-12	-9.28713
ಿರುತ್ತದೆ	-9.28747
out	-9.28789
▁De	-9.28798
ಾಗಿತ್ತು	-9.28839
▁ಹಕ್ಕುಗಳನ್ನು	-9.28863
▁ಜನರನ್ನು	-9.28884
▁ಲೈಟ್ಸ್	-9.28908
2017	-9.29179
▁ಮೇರೆ	-9.29255
▁ನಿಂತು	-9.29447
ದ್ದಾಗ	-9.2985
▁ಬಡ	-9.29873
▁ಸೈನ್ಯ	-9.29927
▁ಹಳೆಯ	-9.30013
ಿಸಲ್ಪಟ್ಟ	-9.30031
▁ಮರಣ	-9.30126
▁ಸೆಟ್	-9.30681
▁ಹೇಳಿದ್ದೇನಂದರೆ	-9.30735
▁ಕಳೆದ	-9.30788
▁ಹೊರತು	-9.30884
▁ಬಾಯಿ	-9.30925
▁ಡೇಟಾ	-9.30944
▁ಒಬ್ಬನು	-9.31168
▁ಸಿಕ್ಕ	-9.31264
72	-9.31475
▁ಪ್ರವೇಶ	-9.31493
▁ಅಂತರ	-9.3161
▁ಪ್ರಕ್ರಿಯೆ	-9.31746
▁ಯೆರೂಸಲೇಮ	-9.31789
▁ವಿಶ್ವವಿದ್ಯಾಲಯ	-9.31916
ಗಳಿಗೂ	-9.31985
▁ಕರ್ನಾಟಕ	-9.32086
▁ತುಂಬಾ	-9.32256
▁ವಿಷಯವಾಗಿ	-9.32326
ace	-9.32454
ash	-9.32511
96	-9.32598
ಚಿತ್ರ	-9.32744
ಎಮ್	-9.32887
▁ಆರೋನನ	-9.32966
▁ಪುಡಿ	-9.32977
ನ್ನೇ	-9.33046
▁ಅದ್ಭುತ	-9.3311
▁ಫೈಲ್	-9.33128
▁ತಾನು	-9.33229
ವರೆಲ್ಲರ	-9.33262
79	-9.33314
▁ಬೋನಸ್	-9.3346
▁ಮೋಸ	-9.3354
ಿಸಲಾಗಿದೆ	-9.33606
▁ನೇಮಿಸ	-9.33693
▁ಸೈನ್ಯಗಳ	-9.33718
ವರಾಗಿ	-9.33826
▁ಗ್ಯಾಂಗ್	-9.3383
▁ಕಾಯ್ದಿರಿಸಲಾಗಿದೆ	-9.33972
▁ನಾಶ	-9.34099
ಿಸಬಹುದು	-9.3419
mp	-9.34205
▁ರಂದು	-9.34266
▁ಹೀ	-9.34272
ೇಷನ್	-9.34272
▁(_	-9.34436
▁ವಸ್ತ್ರ	-9.34496
CH	-9.34641
▁ಪರೀಕ್ಷೆ	-9.34842
▁ಪ್ರತಿಯೊಬ್ಬ	-9.34843
ತೆಗೆ	-9.34871
▁ರೀತಿಯಲ್ಲಿ	-9.34915
▁ಮಕ್ಕಳಿಗೆ	-9.34992
▁Android	-9.35017
▁ಭರವಸ	-9.35193
▁ಸ್ಥಿತಿ	-9.35193
▁ತೆಗೆದುಹಾಕ	-9.35216
▁ಹೆಚ್ಚಿಸ	-9.35259
mb	-9.35505
ಬಹುದಾದ	-9.35543
▁ಹುಟ್ಟ	-9.35583
▁ಸಕ್ರಿಯ	-9.35721
▁ಕೊಲ್ಲ	-9.35739
▁ಮಾಹಿತಿಯನ್ನು	-9.3591
▁ಬೆಂಗಳೂರು	-9.36072
▁ಆದೇಶ	-9.36182
▁ಓದು	-9.36366
▁86-	-9.364
ov	-9.36552
▁ಟ್ಯಾ	-9.36596
▁ನ್ಯಾಯಪ್ರಮಾಣ	-9.36604
▁ಅಶುದ್ಧ	-9.36604
▁ಸಲ್ಲಿಸ	-9.36663
▁ಮನೆಗೆ	-9.36809
ಲಿಂಗ್	-9.36823
▁ಹಿಡಿದು	-9.36829
▁ವಿರೋಧ	-9.36845
▁ಇಂದು	-9.36864
▁ಅಭಿ	-9.36872
▁ಉದಾಹರಣೆ	-9.36887
и	-9.3696
▁ಪ್ರದರ್ಶನ	-9.37103
ರಾಷ್ಟ್ರೀಯ	-9.37216
iv	-9.37256
▁ತಗ್ಗ	-9.37258
▁ನಡಿಸ	-9.37395
ಢ	-9.37497
▁ವೈಯಕ್ತಿಕ	-9.37497
▁ಹೆಸರನ್ನು	-9.37498
▁ಕುಡಿಯ	-9.37519
▁ವೀಕ್ಷಿಸಲು	-9.37532
ಕಾರ್	-9.37532
▁ಹುಟ್ಟಿದ	-9.37577
▁ಸಭೆ	-9.37634
97	-9.37659
ಿಂದಲೂ	-9.37663
▁ಕಪ್ಪು	-9.37687
▁FSX	-9.37857
▁ಇತ್ತು	-9.37882
▁ನಿಲ್ಲ	-9.37889
▁ಮತ್ತೆ	-9.3799
▁ಹೋದರು	-9.38016
ಉದಾಹರಣೆಗೆ	-9.38111
ನೊಂದಿಗೆ	-9.38234
▁ಇಸ್ರಾ	-9.38406
ನಿಗೂ	-9.38413
62	-9.38561
▁ಸಸ್ಯ	-9.38689
ಕ್ಕೋಸ್ಕರ	-9.38761
▁ನಿಖರ	-9.38763
▁ದಂಡ	-9.38873
▁ಪರ್ವತ	-9.38943
▁ಪಠ್ಯ	-9.38943
▁ಒತ್ತಡ	-9.38945
ber	-9.38976
ಎಕ್ಸ್	-9.39103
(_	-9.39115
▁ಏಕೆಂದರೆ	-9.39125
▁ಪ್ರಯತ್ನಿಸ	-9.39278
▁ತೀರ	-9.39321
▁ಯಾಕೋಬನ	-9.39442
▁ಗ್ಯಾ	-9.39445
▁Google	-9.3949
ಭೂಮಿ	-9.39888
▁__	-9.40077
63	-9.40099
▁ಹೆಚ್ಚಾಗಿ	-9.40117
han	-9.40201
▁ಯೆಹೋ	-9.40223
71	-9.40301
-2018	-9.4035
ಯಿಂದಲೂ	-9.40451
▁ಕಾಮೆಂಟ್	-9.40512
▁ಬದಲಾಗಿ	-9.40543
→	-9.40594
▁ಖಾಸಗಿ	-9.40594
▁ಜ್ಞಾಪಕ	-9.40594
▁ಪ್ರಾರ್ಥನೆ	-9.40594
day	-9.40644
ನಿನ್ನ	-9.40683
▁ಸಂಯೋಜನೆ	-9.40965
▁ಜನಪ್ರಿಯ	-9.40965
▁ಅಧಿಕೃತ	-9.40965
▁ಪ್ರತ್ಯೇಕ	-9.41031
▁ದೇವರಿಗೆ	-9.41251
▁ಕೈಯಿಂದ	-9.41559
ust	-9.41656
▁Pro	-9.41667
▁ದುಃಖ	-9.4171
▁ತಿರುಗ	-9.4177
▁ಸೂಚಿಸ	-9.41776
LE	-9.41821
ಉ	-9.41837
▁ಪಾತ್ರೆ	-9.41901
78	-9.42113
▁ಮಾಧ್ಯಮ	-9.42273
▁ಸೇವಿಸ	-9.42359
▁ನಿರ್ಮಿಸ	-9.42404
▁ನಿಮಿಷ	-9.42462
ಸೆಂ	-9.42683
ುವದಕ್ಕಾಗಿ	-9.42687
ಚಾರ್	-9.42717
ಟ್ಟೆ	-9.42789
ಮುಖ	-9.42859
▁ಇದೇ	-9.42923
lock	-9.43029
▁ಮಲಗ	-9.43043
81	-9.43131
▁ಆಗಿರುತ್ತದೆ	-9.43212
ಲಾಗುತ್ತಿದೆ	-9.43219
ff	-9.43348
ON	-9.43513
▁ವಿಮರ್ಶೆಗಳು	-9.43551
ಾರ್ಥ	-9.43824
▁ಸಂಬಂಧಿಸಿದ	-9.43939
н	-9.44172
▁ಪುರುಷ	-9.44174
ಓ	-9.44216
▁ಬಳಕೆದಾರರ	-9.44384
ಬಿಡುವ	-9.44438
▁ಮಗು	-9.44439
▁ಮೇಲಿನ	-9.44507
▁ಕಷ್ಟ	-9.44517
ವನಿಗೆ	-9.44592
▁ಸ್ವಾ	-9.44594
▁ಅಧಿಕಾರಿ	-9.44606
man	-9.44648
▁Vi	-9.44675
▁ಹತ್ತು	-9.44809
▁ಯುವ	-9.44828
▁ಬೊ	-9.45039
▁ಹದಿ	-9.45147
▁ಉಂಟಾಗ	-9.45182
▁ಗುಣಮಟ್ಟ	-9.45205
▁ಅಧಿಪತಿ	-9.4533
▁ತೈಲ	-9.45339
ಿರಲಿ	-9.45346
▁ಬರಮಾಡ	-9.45408
83	-9.45538
▁ವಿಗ್ರಹ	-9.45679
▁ಯಾವುದ	-9.45834
ಸ್ಟಾ	-9.45862
▁ವಾಸಿಸ	-9.45877
▁ಪರಲೋಕ	-9.45914
▁ತಾಪಮಾನ	-9.46109
▁ಸಂಗ್ರಹ	-9.46178
▁ತಂಡ	-9.4618
ಛ	-9.46269
▁ವೆಚ್ಚ	-9.46325
▁ಆದರೂ	-9.46359
ud	-9.46379
▁ಭಯಪಡ	-9.46447
▁ಇಲ್ಲದೆ	-9.46493
▁ಗಾಳಿ	-9.46529
▁ಕಾರ್ಡ್	-9.4654
ಂತೆಯೂ	-9.47062
SP	-9.47129
ಕೊಳ್ಳಿರಿ	-9.47253
▁ಕಾನೂನು	-9.47292
93	-9.47389
▁ಕರುಣೆ	-9.47492
ೇಶನ್	-9.4754
hat	-9.4763
▁ಉತ್ಪಾದನೆ	-9.47685
▁ಫರೋಹನ	-9.47685
▁ಅನುಸರಿಸ	-9.47686
ಬೂ	-9.47728
ick	-9.47773
▁ಬಳಕೆದಾರ	-9.47904
ಾತ್ಮ	-9.48021
}	-9.48283
▁ಪ್ರತಿಕ್ರಿಯೆ	-9.48483
▁ತೋರ	-9.48503
▁ಹೊರಡ	-9.48567
▁ಇತ್ತೀಚಿನ	-9.48683
▁ಅರಸ	-9.48702
▁ಆರಂಭಿಸ	-9.48715
▁ವಿಜ್ಞಾನ	-9.48797
ಶೀಲ	-9.48841
{	-9.48884
▁ಒಳಗೊಂಡ	-9.48895
▁ನೀಡುತ್ತದೆ	-9.4899
▁ಭಾವಿಸ	-9.48998
▁ಸಾರ್ವಜನಿಕ	-9.49085
▁ಟ್ವಿಟರ್	-9.49085
▁ಡೈ	-9.49086
▁ನಿತ್ಯ	-9.49131
▁ಲೇವಿಯರ	-9.49287
▁ನಿರ್ಮಾಣ	-9.49287
92	-9.49341
▁ಸೂಕ್ತ	-9.49373
▁ಕ್ಷೇತ್ರ	-9.49489
▁with	-9.49492
▁ಯೆಹೂದ್ಯರ	-9.49522
ವೃತ್ತ	-9.49525
▁ಸರ್ಕಾರ	-9.49527
▁ಅಧಿಕಾರ	-9.49646
▁ಕೊಡುಗೆ	-9.49699
▁ಲೋಡ್	-9.4975
▁ಯಾರೂ	-9.50056
▁ಅಡಿಯಲ್ಲಿ	-9.50122
▁ಪ್ರತಿಯೊಂದು	-9.50302
ನೀಯ	-9.50414
▁ದಿವಸದಲ್ಲಿ	-9.50449
▁ನಿರ್ದಿಷ್ಟ	-9.50505
▁ಸೃಷ್ಟಿ	-9.50509
▁ಸ್ವಯಂ	-9.50561
▁ಆಜ್ಞಾಪಿಸ	-9.50648
0,000	-9.50688
▁ಟಾಪ್	-9.50732
▁ಶಿಷ್ಯರ	-9.50915
port	-9.51298
▁ವಿಚಾರಣೆ	-9.51325
▁ಸ್ತುತಿ	-9.51328
▁ಆಜ್ಞಾಪಿಸಿದ	-9.51388
ಗಳನ್ನೆಲ್ಲಾ	-9.51483
▁ಎಚ್ಚರಿಕೆ	-9.51637
▁ಬಯಸುವ	-9.51697
▁ಬದಲಿ	-9.51737
▁ಸೊಲೊಮೋನನ	-9.51738
▁ಜಲವರ್ಣ	-9.51945
▁ಸವಿಾಪ	-9.51945
ಿಸಿಕೊಳ್ಳುವ	-9.52085
▁sales	-9.52153
▁ಹ್ಯಾಕ್	-9.52276
▁Windows	-9.52361
▁ಬಳಸಲಾಗುತ್ತದೆ	-9.52486
2015	-9.52523
▁ಅಪ್ಪಣೆ	-9.52779
▁ಶರೀರ	-9.52784
▁ಸುಂದರ	-9.53106
▁ಮಾನವ	-9.53138
▁ಅಸಹ್ಯ	-9.53197
▁ಕಲ್ಲು	-9.53259
ನಗರ	-9.53263
▁ಶ್ರ	-9.53334
ಾಡುವ	-9.53362
▁ಹೋಸ್ಟಿಂಗ್	-9.53617
	-9.53828
▁ಅಂತ್ಯ	-9.5384
▁ಪಶು	-9.53908
ಿಸಬೇಕು	-9.54165
▁ಪ್ರತ್ಯುತ್ತರವಾಗಿ	-9.54354
▁ಹೊಂದಿರ	-9.54409
▁ಅಗತ್ಯವಿದೆ	-9.54465
ಂತೆಯೇ	-9.54544
ಬಂದ	-9.54614
▁WhatsApp	-9.54676
0.00	-9.54783
▁ನಿಲ್ಲಿಸ	-9.54787
ಜ್ಞಾನ	-9.54855
▁ಅಲಂಕಾರ	-9.5489
▁ಗುಣದರ್ಜೆಯ	-9.5489
▁ನೋಂದಣಿ	-9.5489
▁ಸಾಕಷ್ಟು	-9.54891
ಪಡುವ	-9.55376
▁ಲ್ಯಾ	-9.55404
▁ಟಿವಿ	-9.55417
▁ಎಣ್ಣೆ	-9.55543
▁ನಿಜವಾಗಿಯೂ	-9.55557
▁ಸುತ್ತಲೂ	-9.55847
ನ್ನಾದರೂ	-9.55951
▁ಪರಿಸರ	-9.55986
▁ಸ್ವಯಂಚಾಲಿತ	-9.56179
▁ಸ್ವೀಕರಿಸ	-9.56262
▁ಪೂರೈಕೆ	-9.56395
▁ಯೋಸೇಫನ	-9.56395
▁ಪ್ಲೇ	-9.56673
▁ಹೊತ್ತು	-9.57099
▁ದಾರಿ	-9.57247
New	-9.57502
▁ವ್ಯರ್ಥ	-9.57704
▁ಅನುಮತಿ	-9.57707
▁ಮಾಂಸ	-9.57716
▁ವ್ಯವಹಾರ	-9.57924
▁ಇಳಿದು	-9.57929
▁ದೀಪ	-9.57934
▁ಶಾಲೆ	-9.57982
app	-9.58106
▁ದಹನಬಲಿ	-9.58144
▁ಹಕ್ಕು	-9.58213
с	-9.58365
▁ಎಣಿಸ	-9.58568
▁ನಾಶಮಾಡ	-9.58576
▁ಚಟುವಟಿಕೆ	-9.58586
▁ಅಧ್ಯಯನ	-9.58586
▁ಆಶೀರ್ವದಿಸ	-9.58807
▁ಹಲವಾರು	-9.5903
▁ಮ್ಯಾಕ್	-9.59076
▁ಲೈನ್	-9.59319
▁ಗುಂಪು	-9.59477
▁ಬೆಂಕಿ	-9.59599
▁ಇತಿಹಾಸ	-9.59699
▁ಎಂಬುದನ್ನು	-9.59699
▁ತಂತ್ರಾಂಶ	-9.597
ಾಗಿದ್ದರೆ	-9.59752
log	-9.59806
ವರೆಲ್ಲರೂ	-9.59884
▁Casino	-9.59923
±	-9.59924
▁ಕೆಳಗಿನ	-9.60148
▁pro	-9.60164
▁ನಷ್ಟ	-9.60205
▁ಮತ್ತೊಂದು	-9.60374
▁ತನಗೆ	-9.60459
ಬುದ್ಧಿ	-9.606
▁ಗುರುತು	-9.606
▁ತೋಟ	-9.60818
▁ಆಲೋಚನೆ	-9.60825
▁ಬಟ್ಟೆ	-9.60985
ಯಿಲ್ಲದ	-9.6099
т	-9.61051
▁ಫಿಲಿಷ್ಟಿಯರ	-9.61052
ize	-9.61188
▁ತಂದೆಯಾದ	-9.6119
2016	-9.61194
▁ಬ್ಯಾಟರಿ	-9.61282
▁Tube	-9.61304
▁ಅಮೇರಿಕಾ	-9.61507
▁ದೀರ್ಘ	-9.61507
▁ಪೂರೈಸ	-9.61507
▁ಪವಿತ್ರ	-9.61508
▁ಎಷ್ಟು	-9.61561
\	-9.61736
▁EUR	-9.61736
▁ಹಿನ್ನೆಲೆ	-9.61964
2004	-9.62017
▁ಮೋಟಾರ್	-9.62194
ress	-9.62326
▁ಖರೀದಿಸ	-9.62427
ಗಿಂತ	-9.62546
▁ಪುನರ	-9.62553
1.0	-9.62571
▁ಸಹೋದರನ	-9.6267
▁ಹಿಡಿಯ	-9.62804
▁ಕಠಿಣ	-9.62885
GB	-9.6305
"&	-9.63093
▁ಸ್ಥಳೀಯ	-9.63113
▁ಫಲಿತಾಂಶ	-9.63116
▁ನವೀಕರಿಸಲಾಗಿದೆ	-9.63117
▁ರಚನೆ	-9.6312
▁ಸಂತತಿ	-9.63125
▁from	-9.63349
▁ಹೆಚ್ಚುವರಿ	-9.63361
▁ಪ್ರಾರಂಭ	-9.63377
▁ಬೆಳೆಯ	-9.6358
▁ಠೇವಣಿ	-9.63581
▁ಮುಟ್ಟ	-9.63777
▁ಸರಾಸರಿ	-9.64048
▁ಮುಕ್ತ	-9.64082
act	-9.64236
▁ಪರಿಗಣಿಸ	-9.64282
▁ಖರೀದಿ	-9.64514
▁ಪರಿಶೀಲಿಸ	-9.64529
ಗಳಿಂದಲೂ	-9.64627
▁ಗ್ರಾಮ	-9.64646
▁ದೃಢ	-9.64752
▁ಉಗುರು	-9.64754
▁ನೋಟ	-9.65073
▁ಸೂಚನೆ	-9.65226
▁ಬೆಳಗ	-9.65415
▁ನಾಚಿಕೆ	-9.65464
▁ಹಿರಿಯರ	-9.6554
▁ಕತ್ತರಿಸ	-9.6555
ಬಾರದ	-9.65624
▁ಕಾಣಿಸ	-9.65657
▁ನಿಶ್ಚಯವಾಗಿ	-9.65699
▁ಹುಡುಕುತ್ತಿರುವ	-9.65788
▁ಸಾಮಾಜಿಕ	-9.65937
▁ಆಸಕ್ತಿ	-9.6594
▁ದೂತನ	-9.6594
▁ಸರಿಯಾದ	-9.66083
▁ಬೀದಿ	-9.6618
▁Free	-9.66191
▁ದ್ರಾಕ್ಷೇ	-9.66415
▁ಕುದುರೆ	-9.66419
▁ಗ್ರೇ	-9.66572
▁ಪ್ರಯೋಗ	-9.66646
▁ಅನುಕೂಲ	-9.66655
▁ಕೆಂಪು	-9.66657
pdf	-9.66662
▁ತೆರಿಗೆ	-9.66677
ುವುದರಿಂದ	-9.66818
▁ಅಬ್ರಹಾಮನ	-9.66895
ಔ	-9.67126
▁ಅರ್ಪಣೆ	-9.67136
pcs	-9.67429
▁ತಿಳಿದುಕೊಳ್ಳ	-9.67472
▁ಅವಧಿ	-9.6754
▁ಒಳಗೊಂಡಿದೆ	-9.67692
▁ವೇದಿಕೆ	-9.67865
▁ಪ್ರಕಾಶ	-9.67881
▁ಯೋಚಿಸ	-9.68037
▁ಕಂಪ್ಯೂಟರ್	-9.68106
▁ಸುರಕ್ಷಿತ	-9.6835
▁ಸಂಗೀತ	-9.6835
▁ಬಾಗಿಲ	-9.68498
▁ಸಂದರ್ಭದಲ್ಲಿ	-9.68594
▁ಆಸ್ತಿ	-9.68666
▁ಕನಿಷ್ಠ	-9.6884
▁ಮಹಿಳೆಯರ	-9.69085
▁ಪ್ರವೇಶಪದ	-9.69089
▁ಸ್ನೇಹಿತರ	-9.69133
▁Online	-9.69331
▁ಸ್ವಾಗತ	-9.69358
▁ಪರಿಣಾಮಕಾರಿ	-9.6937
▁ಸ್ಪಷ್ಟ	-9.69492
▁ಲೈವ್	-9.69584
▁ಪ್ರಿಯ	-9.69621
ಹೊಂದಾಣಿಕೆ	-9.69826
▁ದಾಖಲೆ	-9.7002
▁ವೀಕ್ಷಿಸ	-9.7003
▁ದ್ರಾಕ್ಷಾರಸ	-9.70074
▁ಜೈಲು	-9.70078
ವಾಗಿರುತ್ತದೆ	-9.70378
▁ಕೈಗಾರಿಕಾ	-9.70572
▁Hack	-9.70737
▁ಇರಿಸ	-9.70923
ಬೇಕೆಂದ	-9.71033
▁BESCOM	-9.71072
▁ಕೈದಿಗಳ	-9.71077
▁ಪ್ರಾಂತ್ಯ	-9.71324
ಲ್ಯಾಂಡ್	-9.71468
▁ಗರಿಷ್ಠ	-9.71829
▁ಕಾಪಾಡ	-9.71907
▁ಕಚೇರಿ	-9.72081
▁ಹಂಚಿಕೊಳ್ಳ	-9.72082
ಾನನ	-9.72317
▁ಗುರುತಿಸ	-9.72338
▁ರೈಲು	-9.72377
▁ಮತ್ತಷ್ಟು	-9.7259
▁ತಲುಪ	-9.72658
▁ಗರ್ಭ	-9.72772
▁ಪ್ರಮಾಣಪತ್ರ	-9.72845
▁ತಯಾರಕರು	-9.72849
▁ಪರಿಚಯ	-9.72852
▁ವಿನಿಮಯ	-9.73101
▁ರೈಸ್	-9.73166
ದಾಯಕ	-9.73318
▁ಕ್ರೆಡಿಟ್	-9.73357
▁ಫೋಟೋ	-9.73617
▁ಎದುರು	-9.73634
▁ಸ್ನೇಹಿ	-9.73821
English	-9.73872
▁ಶೀರ್ಷಿಕೆ	-9.73872
▁ಉದ್ಯೋಗ	-9.7413
▁ಇನ್ನಷ್ಟು	-9.7439
▁ಮೃಗ	-9.74653
▁ಸಿಂಹ	-9.74679
р	-9.74909
▁ಹಿಂತಿರುಗ	-9.74909
▁ಪೈಪ್	-9.74913
ಹೆಚ್	-9.75118
▁ಪ್ಲಾಸ್ಟಿಕ್	-9.7517
▁ಸಂಗತಿ	-9.75178
▁ಸ್ವಾಸ್ತ್ಯ	-9.75432
▁ಮದುವೆ	-9.7544
▁ಚೌಕ	-9.75721
▁ಸಕಲ	-9.75759
▁ಚದರ	-9.75863
▁ಅಂದಳು	-9.75961
▁ವಿಚಾರಿಸ	-9.76076
ಾನನು	-9.76113
▁ಹನ್ನೆರಡು	-9.76222
▁ಬೆಲೆಪಟ್ಟಿ	-9.76223
0.5	-9.76447
▁ಯೊರ್ದ	-9.76487
▁ಸಂಭವಿಸ	-9.76754
sion	-9.76765
▁ರಥ	-9.76774
▁ಟಿಪ್ಪಣಿಗಳು	-9.77017
▁ಆದಕಾರಣ	-9.77017
▁ಯೆಹೋಶುವನ	-9.77021
▁ವಾಹನ	-9.77034
▁ಬಲಿಪೀಠ	-9.77284
▁+86	-9.77406
▁ಓದಿ	-9.77447
▁ಸಂಶೋಧನೆ	-9.77553
ಾಗಿರಬೇಕು	-9.77932
`	-9.78358
▁ಜಿಎಸ್ಟಿ	-9.78358
▁ಭಾರತೀಯ	-9.78439
▁ಬೀಜ	-9.78586
▁ಪ್ರಯೋಜನ	-9.78628
▁ಯಜಮಾನನ	-9.7863
ಿಸುತ್ತಾ	-9.78762
▁ಕತ್ತಲ	-9.78762
▁ಮಾಡಿಕೊಂಡ	-9.78819
▁ಮಂಜೂಷ	-9.78899
▁ವೈಶಿಷ್ಟ್ಯ	-9.78899
▁ಪರೀಕ್ಷಿಸ	-9.78899
▁ಸಂಪರ್ಕದಲ್ಲಿರಿ	-9.78902
▁ಸಮೂಹ	-9.78902
▁ಅರ್ಧ	-9.78932
▁ವಲಯ	-9.78974
ಪೋರ್ಟ್	-9.78992
▁ಪರಿಪೂರ್ಣ	-9.79171
▁ಸಮಾಧಿ	-9.79173
ಿರಲಿಲ್ಲ	-9.79297
▁ಮೋಶೆಗೆ	-9.79443
▁Play	-9.79445
▁ಮುಂಚೆ	-9.79445
▁ತೀರಿಸ	-9.7975
▁ಗೌರವ	-9.79991
▁ತೊಂದರೆ	-9.80107
▁ಅಳಿಸ	-9.80138
‘	-9.80265
▁ತಾಂತ್ರಿಕ	-9.80265
▁ಗೂಗಲ್	-9.80266
▁ತೆಗೆಯ	-9.80325
▁ಗುಂಡಿ	-9.80401
▁ಡ್ರಾ	-9.80433
▁ಎಬ್ಬಿಸ	-9.80459
▁ಜಾಹೀರಾತು	-9.80541
▁ಎಂದಿಗೂ	-9.80543
▁ಪ್ರಕಟಣೆ	-9.80581
▁ಕುಮಾರ್ತೆಯರ	-9.8064
▁ಐಫೋನ್	-9.80818
zhou	-9.80818
▁ಗಮನಿಸ	-9.80858
▁ತಿಂದು	-9.80863
▁ಉಲ್ಲೇಖ	-9.81094
▁ಆಡಳಿತ	-9.81094
▁ಪ್ರಸಾರ	-9.81104
▁ನೈಸರ್ಗಿಕ	-9.81372
▁ಚೆನ್ನಾಗಿ	-9.81431
▁ಸೌಂದರ್ಯ	-9.8165
▁ಸದಸ್ಯರ	-9.8193
▁ಅಂತಿಮ	-9.8221
ೊಳಗ	-9.82333
▁ಪ್ಲಸ್	-9.82493
▁ಆನಂದ	-9.82704
ಗೊಳಪಡಿಸುವುದ	-9.82772
▁ಬಾಬೆಲಿನ	-9.82773
▁ಹಿಂಬಾಲಿಸ	-9.82773
▁ಐಟಂ	-9.82774
▁ಸೆಂಟರ್	-9.82778
▁ಅರಸುಗಳ	-9.82857
▁ಶೈಲಿ	-9.83058
▁ತಯಾರಿಸ	-9.8348
▁ಯಾವನಾದರೂ	-9.83624
▁ಯಜ್ಞ	-9.83703
▁ನಾಶವಾಗ	-9.83837
form	-9.83907
▁ಫ್ಯಾಕ್ಟರಿ	-9.83907
▁ಆಂಡ್ರಾಯ್ಡ್	-9.84193
▁ಲಭ್ಯವಿರುವ	-9.84207
▁ಅದಕ್ಕ	-9.84415
▁ಸಂಪನ್ಮೂಲ	-9.84479
▁ಸಾಫ್ಟ್ವೇರ್	-9.84479
serv	-9.8451
▁ಅಪಾಯ	-9.84522
ance	-9.8499
▁ಸೆರೆಮನೆ	-9.85055
Kannada	-9.85112
▁ಭಾರ	-9.85194
▁ಸಮೀಕ್ಷೆ	-9.85344
▁ಸೂಪರ್	-9.85348
▁ಉಳಿಯ	-9.85666
▁ನಿಮಗ	-9.85848
▁ಪ್ರಯತ್ನ	-9.85971
▁ಉತ್ತರಕೊಡು	-9.86074
▁ನಿರಂತರ	-9.86216
▁ಮಂಡಳಿ	-9.86218
▁ಹೊಂದಿದ	-9.86453
▁ಆಶ್ಚರ್ಯ	-9.86508
▁Home	-9.8651
▁ಸ್ಟೀಲ್	-9.8651
ೋನನು	-9.86537
▁ಲಿಂಕ್	-9.86538
▁ಅನುವಾದ	-9.86559
ವಾದವುಗಳ	-9.86654
▁ಕಲ್ಪನೆ	-9.86807
▁ನನಗ	-9.86843
▁ಎಂದೆಂದಿಗೂ	-9.87096
▁ಡಿಜಿಟಲ್	-9.87096
▁ಫ್ಯಾಕ್ಸ್	-9.87096
▁ಸೂಚಕ	-9.87098
▁ಪಶ್ಚಿಮ	-9.87391
ದೃಶ್ಯ	-9.87392
೯	-9.87687
▁ವ್ಯಾಪಕ	-9.87687
▁ವಾರ್ಷಿಕ	-9.87984
ಾದ್ಯಂತ	-9.88001
▁ಕೊಂದುಹಾಕ	-9.88281
▁ಚೀಯೋ	-9.88886
▁ಬೋಧಿಸ	-9.88966
▁ಸರಬರಾಜು	-9.89179
▁ರಿವ್ಯೂ	-9.8918
▁ಇಬ್ಬರು	-9.89185
▁ಬಿಡಿಸ	-9.89186
к	-9.8948
ಬೋರ್ಡ್	-9.8952
▁ಹಚ್ಚೆ	-9.9009
▁ವ್ಯಾಪ್ತಿ	-9.9039
▁ಅಮೆರಿಕ	-9.9039
▁ಅಧಿಕ	-9.90668
▁ಧನ್ಯವಾದಗಳು	-9.90694
▁ಅನ್ವಯಿಸ	-9.90906
ಟ್ವೀಟ್	-9.91003
▁ಪರವಾನಗಿ	-9.91307
▁ಮಂದೆ	-9.91357
▁ಪಾರ್ಕ್	-9.91949
▁ಸಮ್ಮುಖ	-9.92233
▁***	-9.92544
▁ಗುಪ್ತಪದ	-9.92544
▁ಫೇಸ್ಬುಕ್	-9.92544
▁title	-9.92544
▁ಚಕ್ರ	-9.92578
▁ಸಬ್ಬತ್	-9.92858
▁ನಿವಾಸ	-9.92998
-05-	-9.93002
▁ಶಿಲೀಂಧ್ರ	-9.93167
▁ನಿರೀಕ್ಷಿಸ	-9.93168
▁ಈಗಾಗಲೇ	-9.93168
▁ನೀತಿವಂತನ	-9.93254
▁ಸಿಂಹಾಸನ	-9.93481
▁ಸ್ಟಾರ್	-9.93835
▁ಸಾಧಿಸ	-9.9409
▁ವಿಶ್ರಾಂತಿ	-9.94111
▁month	-9.94428
▁ಇನ್ನೊಂದು	-9.94428
▁ಎದುರಾಗಿ	-9.9508
▁ಶುಲ್ಕ	-9.95383
▁ಜನರೇಟರ್	-9.95384
ness	-9.95458
▁ದಾಖಲ	-9.9548
▁ಪೂರೈಕೆದಾರರು	-9.95703
▁ಉಪಯೋಗಿಸ	-9.95772
▁search	-9.96025
▁ಎಫ್ರಾಯಾಮ	-9.96025
▁ಯೋಹಾನ	-9.96033
ಸ್ತ್ರೀ	-9.96147
▁ಪ್ರಕಟ	-9.96318
▁ಬೀಟಾ	-9.96353
▁that	-9.96384
ound	-9.96616
▁ಯಜ್ಞವೇದಿಯ	-9.96671
▁ಸುಳ್ಳು	-9.96674
▁ಸ್ತೋತ್ರ	-9.96996
▁ಪೌಲನ	-9.96998
▁ರಾಷ್ಟ್ರ	-9.97181
▁ವಿಫಲ	-9.97324
▁ಕಡಿದು	-9.97339
▁ಎಚ್ಚರ	-9.97443
▁Karnataka	-9.97648
▁ಖಂಡಿತವಾಗಿ	-9.97976
▁ಕುರಿಮರಿ	-9.97987
▁ago	-9.97999
▁ತಕ್ಕೊಳ್ಳ	-9.98125
▁ಇಂಟರ್ನೆಟ್	-9.98305
▁Bonus	-9.98306
▁ಹಸಿರು	-9.98328
0.1	-9.98339
▁ಸಮಾಜ	-9.98641
ಹೋಯಿತು	-9.98672
▁ಉಕ್ಕಿನ	-9.98975
▁ಕರಕೊಂಡು	-9.99012
▁ಚೀಲ	-9.99023
▁ಕಬ್ಬಿಣ	-9.99298
▁ಬೆನ್ಯಾವಿಾನ	-9.99632
▁ಟೇಬಲ್	-9.99634
▁ಧರ್ಮ	-10.0002
▁ಅಳತೆ	-10.004
uck	-10.0043
▁ತ್ವರಿತ	-10.0064
▁ದ್ವಾರ	-10.0064
ನಾಗಿದ್ದಾನೆ	-10.0091
▁ಇಲಾಖೆ	-10.0098
▁ಹಿಡಿದ	-10.0099
kannada	-10.0132
▁ಆರ್ಕೈವ್ಸ್	-10.0132
▁ನಮೂದಿಸ	-10.0132
▁ಯೋಗ್ಯ	-10.0133
▁ಚಿಹ್ನೆ	-10.0166
▁ಅಳವಡಿಸ	-10.0166
▁ಸರಕು	-10.02
▁ಸ್ತಂಭ	-10.02
-02-	-10.0225
▁ಕೆಡಿಇ	-10.0234
ವರೆಗೂ	-10.0249
▁ಸ್ಟ್ರೀಮಿಂಗ್	-10.0268
GenericName	-10.0303
®	-10.0303
▁ಸಂದರ್ಶಕ	-10.0303
▁ಬಾಧ್ಯತೆ	-10.0303
ಪಾಯಿಂಟ್	-10.0304
▁ಕೆಡವ	-10.0321
▁ಕಾಲಾವಧಿ	-10.0337
▁ಲಭ್ಯವಿದೆ	-10.0337
▁XXX	-10.0339
▁ಯಾಕೋಬ	-10.0346
▁ಕಾನಾನ್	-10.0373
▁ನೀತಿವಂತರ	-10.0373
▁ಸ್ವಾಧೀನ	-10.0407
stitute	-10.0442
▁ಸೋರಿಯಾಸಿಸ್	-10.0442
▁SKU	-10.0442
▁ಕೋರ್ಸ್	-10.0444
▁ಭವಿಷ್ಯ	-10.0477
▁ತೃಪ್ತಿ	-10.0477
▁ಎಂಬುದು	-10.0478
▁ವಾಸವಾಗಿದ್ದ	-10.0505
▁ವಿವರಿಸ	-10.051
▁ಆರ್ಥಿಕ	-10.0512
▁0086-	-10.0512
▁ಪ್ರಸಿದ್ಧ	-10.0512
▁ನೆನಪಿ	-10.0519
▁ಅಥವ	-10.0523
▁ವ್ಯವಸ್ಥಾಪಕ	-10.0548
೩	-10.0583
▁ಕಾರ್ಯಾಚರಣೆ	-10.0583
▁ನಿರೀಕ್ಷೆ	-10.0583
▁ಶ್ರೇಷ್ಠ	-10.0583
▁ಆರಾಧಿಸ	-10.0583
▁ಬಾಡಿಗೆ	-10.0585
▁ಟ್ಯಾಬ್ಲೆಟ್	-10.0619
▁ಪ್ರಶಸ್ತಿ	-10.0619
▁ನಿರ್ಣಯ	-10.0619
▁ಪ್ರಕಟಿಸ	-10.062
▁ಹೊಡೆಯ	-10.0621
▁ಶ್ರೇಣಿ	-10.0654
▁ಎದುರಿಸ	-10.0657
▁ಸಂತಾನ	-10.0697
▁ನೇಮಕ	-10.0703
ನಾಗಿದ್ದನು	-10.0722
▁ನಿರ್ಧರಿಸ	-10.0726
▁ಬ್ಲಾಕ್	-10.0726
▁All	-10.0735
▁ವೈದ್ಯಕೀಯ	-10.0762
▁ಘಟನೆ	-10.0762
▁ಧೂಪ	-10.0763
▁ಸಂಪಾದಿಸ	-10.0767
ಏ	-10.0788
▁ಕಾರ್ಯನಿರ್ವಹಿಸ	-10.0798
▁ಹಾಸಿಗೆ	-10.08
▁ತಂತಿ	-10.0801
▁ಜಾಗತಿಕ	-10.0835
▁ಪಾಕವಿಧಾನ	-10.0835
▁ಸುನ್ನತಿ	-10.0835
▁ಭಿನ್ನ	-10.0835
▁start	-10.0835
▁ಐಶ್ವರ್ಯ	-10.0871
▁ಸಲಕರಣೆ	-10.0871
▁Video	-10.0871
▁ಉಡುಪು	-10.0871
▁ಸಂವಹನ	-10.0871
▁ಕಾಲೇಜು	-10.0871
anium	-10.0871
▁ಅಡಗಿ	-10.0899
▁ಆಶೀರ್ವಾದ	-10.0908
▁ಕೊರತೆ	-10.0915
▁ತ್ತಾನೆ	-10.0945
-03-	-10.0971
▁ದೂತರ	-10.0982
▁ನವೀಕರಣ	-10.1019
ವ್ಯವಸ್ಥ	-10.1046
▁ಸ್ಮಾರ್ಟ್	-10.1056
▁ವಿಮರ್ಶೆ	-10.1065
▁ವಿಶಿಷ್ಟ	-10.1093
▁ಎಂಜಿನ್	-10.1093
▁ಪ್ರಭು	-10.1098
▁live	-10.1098
▁ಭಾಷಾ	-10.1102
▁Namibia	-10.1131
▁HTTP	-10.1131
▁ಸುಧಾರಿಸ	-10.1131
ಸಾಫ್ಟ್	-10.1132
▁ಹಿಂದಕ್ಕೆ	-10.117
в	-10.1206
▁ಅವಶ್ಯಕತೆ	-10.1206
▁ಸಮುವೇಲನ	-10.1206
ಪಾರ್ಶ್ವ	-10.1206
▁ಕ್ಷಮಿಸ	-10.1209
▁ಬಲ್ಲೆ	-10.1231
▁TRANSLATORS	-10.1244
▁ಖಚಿತಪಡಿಸಿಕೊಳ್ಳ	-10.1244
ಬಹುದಾಗಿದೆ	-10.1244
▁ಅಪ್ಲೋಡ್	-10.1282
▁ಗ್ರಹಿಸ	-10.1289
▁ಸಂಗ್ರಹಿಸ	-10.1294
·	-10.132
▁ದ್ವೀಪ	-10.132
▁ಮುದ್ರಣ	-10.132
▁ಕಸ್ಟಮ್	-10.1358
▁ಫೈಬರ್	-10.1358
▁ಉಡುಗೆ	-10.1359
л	-10.1397
೫	-10.1397
▁ನ್ಯಾಯತೀರಿಸ	-10.1397
view	-10.1397
▁ವಿಡಿಯೋ	-10.1397
color	-10.1397
▁ನಿದ್ರೆ	-10.1436
ಸಂಪುಟಗಳಲ್ಲಿ	-10.1474
▁ನಿಲ್ದಾಣ	-10.1474
▁ಹೇಳುವದೇನಂದರೆ	-10.1474
ಪೂರ್ವ	-10.1504
▁ಕೃಷಿ	-10.1513
▁ISO	-10.1513
work	-10.1514
▁App	-10.1517
▁Rikoooo	-10.1552
▁ಇಂಧನ	-10.1552
▁ಅಧ್ಯಾಯ	-10.1552
ಬೇಕಾಗುತ್ತದೆ	-10.1552
▁ವಿವೇಕ	-10.1566
▁ನಿಯಂತ್ರಿಸ	-10.1591
«	-10.1591
▁Black	-10.1591
▁ಲೇಸರ್	-10.1591
▁ನೆರವೇರ	-10.1592
▁ಚಾಲಕ	-10.1593
▁ಚಲಿಸ	-10.1598
▁ಚೊಚ್ಚಲ	-10.1631
▁ಸುವಾರ್ತೆ	-10.1631
▁ಪ್ರೇಮಿಗಳ	-10.1631
▁ಹೋಟೆಲ್	-10.167
▁ಐವತ್ತು	-10.167
▁ಹಾಳಾಗ	-10.1698
▁ತುಂಡು	-10.171
é	-10.175
▁ಸಂಸ್ಕೃತಿ	-10.175
▁ರೂಲೆಟ್	-10.175
▁ಒಣಗಿ	-10.1753
▁ತೀವ್ರ	-10.179
▁ಸಮರ್ಪಣೆ	-10.179
▁ಸಮಾರ್ಯ	-10.179
▁ಯೋವಾಬನ	-10.179
ಲಾಗುವುದು	-10.1831
▁ಹಿತ್ತಾಳೆ	-10.187
▁ಮಾನಸಿಕ	-10.187
word	-10.1871
▁ಅನುಭವಿಸ	-10.1879
▁ಅಶ್ಶೂರ	-10.1911
LYP	-10.1911
▁ಅರಮನೆ	-10.1911
೮	-10.1951
▁ಪರಿಚಾರಕ	-10.1951
≤	-10.1992
▁WEEK	-10.1992
▁ಎಲ್ಇಡಿ	-10.1992
▁Phone	-10.1992
▁ಪದ್ಧತಿ	-10.1992
▁ಧೈರ್ಯ	-10.2033
▁ಸಮೃದ್ಧ	-10.2033
▁ಕಾಲ್ಬೆರಳ	-10.2074
▁ಪೆಟ್ಟಿಗೆ	-10.2074
▁ಮನೆತನದವರ	-10.2075
▁ವಿಶ್ವಾಸಾರ್ಹ	-10.2116
EDIA	-10.2116
▁ಗೌಪ್ಯತೆ	-10.2116
▁ಕ್ಯಾಮೆರಾ	-10.2116
▁ಉತ್ಪಾದಿಸ	-10.2157
▁ವಿಭಿನ್ನ	-10.2157
▁ವ್ಯತ್ಯಾಸ	-10.2157
▁ಸಂಕ್ಷಿಪ್ತ	-10.2157
▁გადმოწერა	-10.2157
ville	-10.2157
▁label	-10.2199
▁ಯುನೈಟೆಡ್	-10.2199
▁ವಾಣಿಜ್ಯ	-10.2199
▁ಸುಧಾರಣೆ	-10.2199
▁ಮೂರನೇ	-10.2199
▁October	-10.2241
▁ಅಪೇಕ್ಷಿಸ	-10.2241
▁ವೋಲ್ಟೇಜ್	-10.2283
▁csgo	-10.2325
▁ಉತ್ಸಾಹ	-10.2325
▁ಕಾರ್ಖಾನೆ	-10.2325
▁OEM	-10.2325
▁ಶಿಫಾರಸು	-10.2367
▁ಬಹುಶಃ	-10.2367
▁ಪರಿವರ್ತಿಸ	-10.2372
▁ಶೋಧಿಸ	-10.241
▁ನಾಣ್ಯ	-10.241
ೊಂದಿಗ	-10.2436
▁ಸಮುದಾಯ	-10.2452
▁ಪ್ರತ್ಯಕ್ಷ	-10.2453
▁ಪರ್ಯಾಯ	-10.2453
▁ಒಟ್ಟಾಗಿ	-10.2453
▁ಮುಯ್ಯಿ	-10.2453
▁ಆಣ್ವಿಕ	-10.2495
▁ಕಛೇರಿ	-10.2495
▁ಪ್ಯಾಕೇಜ್	-10.2495
▁ಕುಳಿತು	-10.2496
▁ಆನಂದಿಸ	-10.251
▁ಅಪವಿತ್ರ	-10.2539
▁ಕಸ್ಟಮೈಸ್	-10.2539
▁ಫ್ಯಾಬ್ರಿಕ್	-10.2539
▁ಶಾಶ್ವತ	-10.2539
▁ಸಿಬ್ಬಂದಿ	-10.2539
ಖ್ಯಾತ	-10.2567
▁ನೆಟ್ವರ್ಕ್	-10.2582
▁ಸಿಸ್ಟಮ್	-10.2582
▁ಕುಕೀಗಳನ್ನು	-10.2582
▁ಹೂಡಿಕೆ	-10.2582
▁ಸಂಹರಿಸ	-10.2588
▁ಬೆಳವಣಿಗೆ	-10.2625
▁ರಫ್ತು	-10.2625
à	-10.2846
у	-10.3071
°	-10.3372
€	-10.3619
೪	-10.3633
м	-10.4127
д	-10.4178
೬	-10.454
[	-10.4674
ь	-10.4862
ე	-10.4972
೭	-10.5083
ა	-10.5195
★	-10.5365
ы	-10.5538
#	-10.5857
฿	-10.7114
з	-10.7251
ი	-10.7676
б	-10.8661
ö	-10.8661
г	-10.8741
–	-10.9085
ч	-10.9755
რ	-11.1393
£	-11.1976
~	-11.388
ಞ	-11.4282
»	-11.5718
“	-11.7558
მ	-11.9971
ო	-12.0478
ಊ	-12.3805
©	-12.5896
➖	-12.6362
č	-12.6363
п	-12.6364
≥	-12.6365
ಋ	-12.6366
გ	-12.6367
წ	-12.6368
დ	-12.6369
ಱ	-12.637
✔	-12.6371
ೕ	-12.6372
•	-12.6372
