<unk>	0
<s>	0
</s>	0
▁	-3.39186
.	-3.43054
,	-3.72894
ದ	-4.50699
:	-4.7918
;	-4.93928
ಯ	-4.99157
ು	-5.06224
ಗಳು	-5.07147
ಿ	-5.08422
▁ಮತ್ತು	-5.13803
)	-5.20022
ರ	-5.34868
▁(	-5.48917
ನ	-5.50532
ಗಳನ್ನು	-5.5081
-	-5.5257
ಸ್	-5.57342
s	-5.58022
ವನ್ನು	-5.60526
ಗಳ	-5.63043
ರು	-5.7251
ನು	-5.7931
ವು	-5.80903
▁ಆ	-5.8179
▁ಅ	-5.86482
▁-	-5.91944
▁ಈ	-5.94704
ಕ	-5.95964
▁ನೀವು	-5.96434
ನ್	-5.97625
ಲು	-5.98583
▁/	-6.00105
ಲ್	-6.01463
ರ್	-6.01574
--	-6.04288
▁ನಾನು	-6.05218
▁ನನ್ನ	-6.06544
ನ್ನು	-6.06792
ವ	-6.09043
ಯನ್ನು	-6.12395
ಲ	-6.14459
ಸ	-6.15673
ದಲ್ಲಿ	-6.15939
▁ನಿಮ್ಮ	-6.15991
ರಿ	-6.16974
ುವ	-6.17721
▁ನಿನ್ನ	-6.18394
▁ಒಂದು	-6.19859
▁ಮೇಲೆ	-6.23761
▁_	-6.27033
ಗೆ	-6.2742
▁1	-6.28381
ಲಿ	-6.28919
ೂ	-6.33278
▁ಎಂದು	-6.33315
▁ಆಗ	-6.3643
▁ಅವರು	-6.37147
ಟ್	-6.38834
ಕ್ಕೆ	-6.38928
ಕ್	-6.40682
ವಾಗಿ	-6.41302
▁ತನ್ನ	-6.41351
ಗ	-6.41826
▁ಇ	-6.43254
ರೆ	-6.43507
?	-6.45335
ೇ	-6.45473
ತ	-6.45744
ಿಗೆ	-6.50591
▁ಆದರೆ	-6.51218
ವಾದ	-6.51926
/	-6.52101
ಾ	-6.52933
ಯು	-6.57421
ಲ್ಲಿ	-6.59194
ಸಿ	-6.61136
ದೆ	-6.61678
▁ಅವನು	-6.62422
▁ಅವನ	-6.62675
ಮ	-6.64846
com	-6.65508
C	-6.65953
ದು	-6.66104
▁ನಾವು	-6.66118
▁ನಮ್ಮ	-6.66464
3	-6.68235
2	-6.6892
ಯಲ್ಲಿ	-6.70106
▁ಅವರ	-6.70152
▁S	-6.71221
ಡ್	-6.72574
▁2	-6.72718
ಪ್	-6.73333
ಡ	-6.75011
▁ಎಲ್ಲಾ	-6.75738
ಳ	-6.7591
y	-6.76482
ಗಳಲ್ಲಿ	-6.77756
ೆ	-6.78328
▁3	-6.78896
e	-6.7918
▁ನೀನು	-6.79218
▁5	-6.79791
▁&	-6.80314
ವಿ	-6.80576
ಡಿ	-6.81256
▁ಅಥವಾ	-6.81852
ದಿಂದ	-6.82351
in	-6.82357
ಮ್	-6.83077
▁ಕರ್ತನು	-6.83947
ಾಗ	-6.84178
▁ಕ	-6.8617
D	-6.86429
▁ಮಾಡ	-6.87291
ುತ್ತದೆ	-6.87484
M	-6.87949
▁ನ	-6.87994
▁ಇದು	-6.88151
▁ಮ	-6.8825
ಪ	-6.89816
A	-6.90851
ಿಂದ	-6.90969
S	-6.92175
ಯಾ	-6.93601
▁ಹ	-6.93642
p	-6.94004
n	-6.94031
▁P	-6.94225
d	-6.97601
▁ಸ	-6.97642
▁ವಿ	-6.98214
er	-6.98784
ಯೂ	-7.00604
ಹ	-7.00954
ಂ	-7.01081
1	-7.01463
4	-7.01541
▁ಕರ್ತನ	-7.03129
▁4	-7.0313
i	-7.03225
▁C	-7.03308
!	-7.05484
▁–	-7.05505
ರಾ	-7.05777
x	-7.07541
ಾದ	-7.07555
▁ಎ	-7.08209
▁2018	-7.08272
c	-7.08651
▁A	-7.08954
▁ಮಾಡಿ	-7.0968
ದ್ದ	-7.09866
▁B	-7.10556
▁ಅಂದನು	-7.10672
amp	-7.11104
ನೆ	-7.11766
▁"	-7.12324
▁T	-7.12367
ing	-7.12388
ನಿ	-7.12471
B	-7.12791
k	-7.12806
▁$	-7.1299
▁ಅದರ	-7.13036
ಣ	-7.13635
P	-7.13894
▁ಹಾಗೆ	-7.14113
ಟಿ	-7.14116
▁ತಮ್ಮ	-7.14259
ಗಳಿಗೆ	-7.1517
m	-7.15396
o	-7.1579
"	-7.15981
r	-7.16061
l	-7.16531
ರೋ	-7.16551
ವೇ	-7.17421
a	-7.1789
ಟ	-7.18061
ಬೇಕು	-7.18093
t	-7.18742
ಿನ	-7.18975
▁ಬ	-7.19293
b	-7.19798
ನ್ನೂ	-7.21168
▁ಮೂಲಕ	-7.21608
@	-7.21688
L	-7.22046
T	-7.22971
ನಾ	-7.23429
▁ಆತನು	-7.23471
F	-7.23929
Name	-7.24062
▁ಅದನ್ನು	-7.24513
al	-7.24537
5	-7.2532
ವೂ	-7.27099
ತೆ	-7.27305
ಲ್ಲ	-7.27369
▁ಅದು	-7.27738
u	-7.28077
ೋ	-7.28364
▁ರ	-7.28531
(	-7.28569
ವಾ	-7.28781
ಗಳನ್ನೂ	-7.30379
▁2017	-7.3085
ಬ	-7.31053
%	-7.31269
ೀ	-7.31607
ಳು	-7.32135
g	-7.325
ವೆ	-7.32996
▁ಸಂಗಡ	-7.33522
O	-7.33662
▁ನನಗೆ	-7.34303
00	-7.35601
R	-7.35852
▁ಸಿ	-7.3586
▁ದೇವರ	-7.36249
ಾಗಿ	-7.3652
▁ಆತನ	-7.36553
▁M	-7.37562
h	-7.38304
ಿರಿ	-7.38519
ಶ	-7.38545
an	-7.38662
್	-7.3878
▁F	-7.38819
▁ನಿಮಗೆ	-7.3914
H	-7.39339
f	-7.39542
▁10	-7.39696
▁ತ	-7.40817
ಷ	-7.41479
I	-7.417
▁D	-7.41844
ಯಿಂದ	-7.41981
G	-7.42042
ತ್	-7.42149
ನೂ	-7.42292
ವರು	-7.42301
▁ಮುಂದೆ	-7.42442
ಬಹುದು	-7.42564
▁ಕಾ	-7.42619
ar	-7.42636
ನೇ	-7.42666
▁ಇಲ್ಲ	-7.42679
▁ಬಾ	-7.43064
ಜ	-7.43272
▁G	-7.4365
ಮಾ	-7.43679
ಪಿ	-7.44379
▁6	-7.44799
ಲಾ	-7.44891
ಂತೆ	-7.45302
▁ಅವರಿಗೆ	-7.46119
ch	-7.4612
▁ಸಹ	-7.46164
ಲೆ	-7.46519
▁2019	-7.47063
ಬ್	-7.48038
▁ನಲ್ಲಿ	-7.48086
V	-7.48728
▁ಪ್ರ	-7.49153
w	-7.49577
le	-7.50363
ಲೇ	-7.50637
▁ಗ	-7.50729
▁ಅನ್ನು	-7.51155
ಕಾ	-7.51286
▁ಹೊಸ	-7.51916
mm	-7.52606
▁ಹೆಚ್ಚು	-7.52969
W	-7.52989
N	-7.53033
ರೂ	-7.53257
0	-7.53342
gt	-7.53537
▁ಕೈ	-7.53965
▁ಪ್ರಕಾರ	-7.54118
ಕೆ	-7.5453
ಯೇ	-7.54616
ವಾಗಿದೆ	-7.54987
▁ಅವನಿಗೆ	-7.55218
▁ಡೌನ್ಲೋಡ್	-7.55784
▁ವ	-7.55861
_	-7.56493
▁ಬಗ್ಗೆ	-7.56657
20	-7.56809
▁ಮುಖಪುಟ	-7.57002
ಕೊಳ್ಳ	-7.57015
▁8	-7.57224
▁ಕನ್ನಡ	-7.57334
ೈ	-7.57366
▁ಕೆಲಸ	-7.57468
en	-7.5801
ಜಿ	-7.58288
▁19	-7.58711
▁ಯಾವ	-7.59227
10	-7.59377
▁...	-7.59573
▁ಓ	-7.59973
▁ನಿ	-7.60378
E	-7.6078
ತಿ	-7.60838
▁H	-7.6096
K	-7.61199
ಯಾಗಿ	-7.61334
▁ಈಗ	-7.61623
▁ಪ್ರತಿ	-7.61722
st	-7.61895
▁ಯಾವುದೇ	-7.62405
ತ್ತ	-7.62566
ಳಿ	-7.6275
▁ಉ	-7.62859
ವನ್ನೂ	-7.62865
▁ಗೆ	-7.62978
6	-7.63287
▁ಮಾಡುವ	-7.63531
ನೋ	-7.63807
▁ನನ್ನನ್ನು	-7.64147
▁ಕು	-7.64276
ತನ	-7.64448
8	-7.64653
▁+	-7.65213
▁ಅವರನ್ನು	-7.65382
ವನು	-7.6563
▁7	-7.65712
▁ನಿನಗೆ	-7.66214
ಬಿ	-7.66818
ೌ	-7.66872
z	-7.6742
ಅ	-7.68397
ಕ್ಷ	-7.68542
ಿಸುವ	-7.68581
ಇ	-7.68631
th	-7.68671
▁ಬಳಿಗೆ	-7.687
et	-7.69357
ಲಿಲ್ಲ	-7.69525
▁K	-7.69912
▁ಮೇ	-7.70421
7	-7.70638
ed	-7.70671
▁ಸಂ	-7.70693
ಲ್ಪಟ್ಟ	-7.71056
ೆನು	-7.71551
▁ನಾ	-7.71625
▁ಹೇಳ	-7.71768
or	-7.72109
re	-7.72328
▁ಕೆ	-7.72792
▁ಹೋಗ	-7.7305
ುತ್ತಾರೆ	-7.73105
ಿಸಿ	-7.73116
ುವದಿಲ್ಲ	-7.73227
▁12	-7.7323
ಿರುವ	-7.73632
▁#	-7.74891
11	-7.75095
▁ಇದಲ್ಲದೆ	-7.75162
ಯೋ	-7.7557
ಿದೆ	-7.75607
▁0	-7.75611
▁R	-7.76027
ವರ	-7.76223
▁2016	-7.76303
▁ದೊಡ್ಡ	-7.76312
▁ಅವನನ್ನು	-7.76437
U	-7.76449
▁ಟ್ಯಾಗ್	-7.7663
▁the	-7.76855
▁ಮಕ್ಕಳ	-7.77052
▁ಬೆ	-7.77065
ಜ್	-7.7722
50	-7.77523
▁ದೇವರು	-7.78127
▁ಯಾಕಂದರೆ	-7.78323
▁ಉತ್ತಮ	-7.78323
ನ್ನ	-7.78943
at	-7.79379
ಚ	-7.79587
▁ನಂತರ	-7.79605
ಗಳಿಂದ	-7.80215
ುವದಕ್ಕೆ	-7.80467
ಸ್ಟ್	-7.805
ುತ್ತೇನೆ	-7.80724
▁N	-7.80914
ಗ್	-7.80963
'	-7.81038
it	-7.81172
▁ಮಗನಾದ	-7.81174
▁ಒ	-7.81355
▁W	-7.81442
ಂಬ	-7.81568
▁ಇರುವ	-7.81809
ಂತ	-7.819
▁ಹೋಗಿ	-7.82178
▁ಹೆಸರು	-7.82429
▁ಸು	-7.82462
▁ಬರ	-7.82577
ur	-7.8258
▁ಜ	-7.82686
▁ಮಾಡಿದ	-7.82892
್ಯ	-7.83318
ಮಿ	-7.83408
▁ಹೇಗೆ	-7.83529
ುವುದು	-7.83849
▁ಹೀಗೆ	-7.8404
]	-7.84095
ಷ್	-7.84137
▁9	-7.842
ನಲ್ಲಿ	-7.84496
on	-7.84542
▁ಬಂದು	-7.84829
▁ಆಯ್ಕೆ	-7.84831
ುವೆನು	-7.849
▁ಸಂಖ್ಯೆ	-7.84969
▁ಬಿ	-7.85047
▁E	-7.85451
ಭ	-7.85729
▁ಪಟ್ಟಿ	-7.85889
▁ಮಾ	-7.86238
▁ನಮಗೆ	-7.86314
X	-7.86544
▁ಪ	-7.86684
ಿದನು	-7.87024
ಧ	-7.8706
ಪಾ	-7.87397
ra	-7.87423
ವನ	-7.87432
ವರ್	-7.87526
▁20	-7.8754
▁ಮೆ	-7.87652
ಗಳೂ	-7.87719
ಿದರು	-7.87766
▁ನಿನ್ನನ್ನು	-7.87833
ಿತು	-7.87974
ಕೋ	-7.88056
▁ಜನರ	-7.88212
▁L	-7.88266
ಲೂ	-7.88382
ಿತ	-7.88588
▁ದಿನ	-7.88647
ಯಾದ	-7.88825
el	-7.88838
ಟ್ಟ	-7.88856
v	-7.88895
ಎಸ್	-7.89194
es	-7.89421
▁ಒಬ್ಬ	-7.89963
ಟರ್	-7.90278
▁ಡಿ	-7.90616
▁ಸೇವೆ	-7.90783
ಡು	-7.91363
▁ಉಚಿತ	-7.91533
▁ವರ್ಷದ	-7.91738
ವಾಗ	-7.91892
30	-7.92209
▁J	-7.92209
▁ಗಾತ್ರ	-7.92374
▁ಇಗೋ	-7.92503
▁ಮೇಲ್	-7.92514
▁[	-7.92623
un	-7.92651
▁ದೇವರಾದ	-7.93265
▁ಬಂದ	-7.93507
▁ಮಿ	-7.9359
co	-7.93645
ಮಾಡ	-7.94088
ುತ್ತಾನೆ	-7.94144
▁ಅಲ್ಲಿ	-7.94284
▁ವಿಷಯ	-7.94512
▁ಹೊ	-7.94848
ಿಗೂ	-7.94913
ದೇ	-7.9492
▁15	-7.94978
am	-7.95147
▁*	-7.95225
ರಿಗೆ	-7.95252
▁in	-7.95261
ರೇ	-7.95339
▁ಮಾಡಲು	-7.95904
ro	-7.96111
▁ಬಲ	-7.96487
▁ಕೊಡ	-7.96633
ಮೆ	-7.96897
ಶ್	-7.97868
ುತ್ತವೆ	-7.98395
▁ಮಾಹಿತಿ	-7.98449
ಎ	-7.98511
ಂಡ	-7.98662
ೊಂದಿಗೆ	-7.98721
▁ಸಮಯ	-7.98915
▁ಚಿತ್ರ	-7.98949
▁18	-7.99084
▁I	-7.99139
▁11	-7.99279
▁ಎಲ್ಲ	-7.99371
ಫ್	-7.99574
ri	-7.99878
▁ಪಾ	-8.00063
ಿದ್ದಾರೆ	-8.00297
▁ದಿನಾಂಕ	-8.00529
▁ಎರಡು	-8.00575
ಕೊಂಡ	-8.00582
ಿದ್ದಾನೆ	-8.01241
▁ಮು	-8.0126
▁ಜನರು	-8.0134
▁ಅರಸನ	-8.01477
ಂಗ	-8.01573
▁ಕಾರ್ಯ	-8.01885
▁ಮಾದರಿ	-8.02096
ಸ್ತ	-8.02286
ತು	-8.02763
ಸಾ	-8.02861
▁ಜಾ	-8.02868
ಗಾಗಿ	-8.02962
Y	-8.03046
▁ಎಂಬ	-8.03074
ಪಡಿಸ	-8.03108
▁ಪೂರ್ಣ	-8.03207
ಕಿ	-8.03315
▁ಆನ್ಲೈನ್	-8.03509
ಿದ್ದ	-8.03706
▁ಇತರ	-8.0386
ಸು	-8.03894
▁24	-8.03908
ದ್ದು	-8.03954
12	-8.04067
ಡೆ	-8.04141
▁ಯೇಸು	-8.04201
ಕ್ಕಾಗಿ	-8.04292
▁ಹಾಗೂ	-8.04418
▁ಸ್ಥಳ	-8.04577
ವ್	-8.04592
ಂಚ	-8.04616
ic	-8.04698
9	-8.04917
ಿಕ	-8.04926
ರೀ	-8.05013
▁ಇಲ್ಲಿ	-8.05149
▁ಮುನ್ನ	-8.05193
ೊ	-8.05213
ಜೆ	-8.05353
ರುವ	-8.05417
ಂದು	-8.05576
ಿದ್ದೇನೆ	-8.05579
▁ಇಸ್ರಾಯೇಲಿನ	-8.05619
lt	-8.05893
▁ಭೂಮಿಯ	-8.05936
ಿಕೆ	-8.05956
▁ಐ	-8.06071
ad	-8.06433
▁ಬೆಲೆ	-8.07057
▁ಸಹಾಯ	-8.076
ುವಂತೆ	-8.07803
▁ಪಿ	-8.07967
▁ಯಂತ್ರ	-8.08189
▁ಪರಿಶುದ್ಧ	-8.08362
ರಿಯ	-8.0843
ಯ್	-8.08433
▁ಆದದರಿಂದ	-8.08597
▁ನೋಡ	-8.08653
ಂಗ್	-8.08951
▁O	-8.0941
ಗು	-8.09607
▁ಹಾ	-8.10151
ಕ್ಕ	-8.1017
://	-8.10177
▁ಹಿ	-8.10524
ಯನ್ನೂ	-8.10539
▁ಅನೇಕ	-8.10587
▁ಪುಟ	-8.10607
▁ಕೇಳ	-8.10681
ುವದು	-8.10776
▁ಚ	-8.10886
ತಾ	-8.11036
▁ಬೇ	-8.1113
▁ಭಾಗ	-8.11141
▁ಕೆಲವು	-8.11178
▁ಇದ್ದ	-8.11185
▁ಇಮೇಲ್	-8.11261
sh	-8.1155
▁V	-8.11883
ಿನಲ್ಲಿ	-8.1189
▁=	-8.1195
▁ಕಡಿಮೆ	-8.12133
il	-8.12368
▁and	-8.12425
▁ಜಿ	-8.12519
▁ಮಾತ್ರ	-8.12589
ಣಿ	-8.12743
li	-8.12767
▁ನೋಡಿ	-8.13076
ಕ್ಕೂ	-8.13289
▁ಮಕ್ಕಳು	-8.13395
▁to	-8.13557
▁ನೆ	-8.13602
▁30	-8.14032
80	-8.14194
ಲ್ಲಾ	-8.14198
▁©	-8.14548
▁ಏ	-8.14753
ಕೊಂಡು	-8.14768
▁ಶ	-8.14772
ಷ್ಟ	-8.14952
▁ಉಪ	-8.1512
ಕ್ಸ್	-8.15294
▁ಸಾ	-8.15452
ಿಂಗ್	-8.15674
▁ಕಾರಣ	-8.15695
▁ಹೆಚ್ಚಿನ	-8.16209
▁ಕಿ	-8.16222
▁ಟೈಮ್	-8.16336
ೆಂದು	-8.16565
▁ರಲ್ಲಿ	-8.16654
ೀಯ	-8.16932
▁ಕಂಪನಿ	-8.16988
ಕೊಳ್ಳುವ	-8.17471
▁of	-8.17593
18	-8.17704
▁ಉತ್ಪನ್ನಗಳು	-8.18244
ಂಡ್	-8.18346
▁ಕ್ಯಾ	-8.18583
15	-8.18594
02	-8.19025
▁ನೀತಿ	-8.19256
40	-8.19372
▁c	-8.19564
ಆ	-8.19648
▁ಕೊ	-8.19681
▁ಚೀನಾ	-8.19806
ter	-8.20175
ol	-8.20251
ಸೆ	-8.20257
ಲೀ	-8.20323
ದರಿಂದ	-8.2037
ಮಾಡಿ	-8.20858
▁X	-8.20979
ುತ್ತಾ	-8.21399
ಕರ	-8.21504
▁ಆಹಾರ	-8.21786
25	-8.21832
▁ಸೈಟ್	-8.22013
ನ್ಸ್	-8.22057
ಲಾಗಿದೆ	-8.22083
”	-8.22366
08	-8.22375
ಹಾ	-8.23289
▁£	-8.23636
ಿಸಿದ	-8.23783
▁ಹೊಂದ	-8.23854
▁ಕೋ	-8.23911
ಂಥ	-8.24071
▁ಪಾಪ	-8.24371
▁ದೇಶ	-8.2445
ುವನು	-8.25226
▁ರಿಂದ	-8.25296
▁ನ್ಯಾಯ	-8.25313
▁ದೂರವಾಣಿ	-8.25473
▁16	-8.25909
್ಯಾ	-8.25994
ಣೆ	-8.26025
▁a	-8.26198
us	-8.26229
▁ನಮ್ಮನ್ನು	-8.26342
▁ತಾ	-8.26537
▁ವಿರೋಧವಾಗಿ	-8.26547
ಗಿ	-8.26606
▁ಅದಕ್ಕೆ	-8.26832
ಥ	-8.26836
ಳ್ಳ	-8.27069
ೊಳಗೆ	-8.27094
▁ಹಾಗೆಯೇ	-8.27162
▁ಮನೆ	-8.2737
ಲೋ	-8.27491
ಮೋ	-8.27677
ೃ	-8.27684
60	-8.2776
me	-8.2782
▁ಮಾರ್ಗ	-8.27964
16	-8.28031
▁ಮರ	-8.28061
▁ಏನು	-8.28248
▁ನಿಮ್ಮನ್ನು	-8.28504
ಬೆ	-8.28551
ಗೂ	-8.2889
te	-8.29313
▁ಬರುವ	-8.29363
▁ಹಿಂದೆ	-8.29419
▁17	-8.29585
▁ನೀಡ	-8.2964
▁ಬಹಳ	-8.3011
▁ಮನೆಯ	-8.30447
▁ಸೆ	-8.30537
ಪ್ಪ	-8.30941
▁ವಿನ್ಯಾಸ	-8.30973
▁2015	-8.31174
ಗಾ	-8.31203
ಿಲ್ಲ	-8.31305
▁ಮೊದಲ	-8.31591
▁ಮೂಲ	-8.31701
▁ರಾ	-8.31703
ುತ್ತೇವೆ	-8.31843
▁ಜನವರಿ	-8.32214
ೆಯ	-8.32309
ತ್ತು	-8.32381
01	-8.32448
ne	-8.32673
▁ಮಂದಿ	-8.32816
▁ಭಾಷೆ	-8.3295
▁ಹೇಳಿ	-8.32979
▁b	-8.33152
ದ್	-8.33343
ಬಾರದು	-8.33369
ಸ್ಥ	-8.33587
▁ಇಸ್ರಾಯೇಲ್	-8.33608
99	-8.33774
ತ್ವ	-8.3389
▁ಅರಸನಾದ	-8.34221
▁ದೂರ	-8.3423
07	-8.34254
▁ಬಳಸ	-8.34318
▁ಉತ್ತರ	-8.34346
▁ಸಂಪರ್ಕ	-8.34575
▁ತರುವಾಯ	-8.34668
▁ಚಿತ್ರಗಳು	-8.34669
ಂಟ್	-8.34734
▁ವೈ	-8.34781
&	-8.35
06	-8.35008
▁ಆತ್ಮ	-8.35022
se	-8.35035
ಫ	-8.35059
▁13	-8.35561
j	-8.35568
ಬಾ	-8.35768
▁»	-8.35803
▁“	-8.35929
▁ಕರ್ತನಿಗೆ	-8.36225
▁ಮೊ	-8.36295
▁ಇನ್ನೂ	-8.36361
▁25	-8.36937
19	-8.37214
▁ಪ್ರಮಾಣ	-8.37279
▁ಸಮಸ್ತ	-8.37429
▁ಆಫ್	-8.37535
▁ಮಹಾ	-8.37767
▁ಆರ್	-8.37826
ತ್ರ	-8.38034
▁ಹೆ	-8.3812
ಲ್ಪಡ	-8.38148
▁ಹೊರಗೆ	-8.38293
ಚ್ಚ	-8.38303
la	-8.38457
ನಿಗೆ	-8.38483
▁ತರ	-8.3851
▁ಇದೆ	-8.38801
13	-8.38847
ಕಾರ	-8.3895
▁ಹೇಳಿದನು	-8.39106
ೊಳಗಿಂದ	-8.39146
▁14	-8.39937
▁ಹೊಂದಿದೆ	-8.40003
▁ಅವುಗಳನ್ನು	-8.40094
▁ಮಾಡಬಹುದು	-8.40109
▁ಎಂ	-8.40397
▁ಆಗಿದೆ	-8.40412
J	-8.40414
▁ಹಾಕ	-8.40459
▁ವಾ	-8.40487
-1	-8.40512
▁ತಿಳಿಯ	-8.40708
hi	-8.40859
ಚ್	-8.40904
▁ದಿ	-8.41181
ನನ್ನು	-8.41269
▁ವೀಡಿಯೊ	-8.41272
▁(1	-8.41358
03	-8.41501
▁ಯೋಜನೆ	-8.41675
▁ಕಾಲ	-8.42088
▁ಇಲ್ಲವೆ	-8.42147
ಚಿ	-8.423
▁@	-8.42342
▁ಪಟ್ಟಣ	-8.42458
ಮಾನ	-8.42765
ಾದರೂ	-8.42923
▁ಹೇಳಿದ	-8.43059
+	-8.4309
▁ಹೊರ	-8.43138
ಕು	-8.43158
ಳೆ	-8.43172
▁ವರ್ಷ	-8.43327
as	-8.43542
is	-8.43551
ಯೆ	-8.43568
▁ವೆಬ್ಸೈಟ್	-8.43589
000	-8.43646
▁ಅಲ್ಲ	-8.43691
’	-8.43712
09	-8.43889
ನೆಯ	-8.43938
ation	-8.43947
▁ತೋರಿಸ	-8.43998
▁ಶಕ್ತಿ	-8.44005
▁ವರ್ಗ	-8.44083
▁ಮೂರು	-8.44342
▁w	-8.44364
ಬೇಕೆಂದು	-8.44607
ರನ್ನು	-8.44669
▁ಕೊಟ್ಟ	-8.4472
ಂಟ	-8.44724
▁h	-8.4473
▁%	-8.44906
▁ಕಟ್ಟ	-8.44923
▁ಸಂತೋಷ	-8.44976
17	-8.45145
▁ರಾಜ್ಯ	-8.45303
ಾಗಿರುವ	-8.45508
ದಾ	-8.45535
▁ಬಣ್ಣ	-8.45725
▁ಅತ್ಯುತ್ತಮ	-8.45792
▁ಭೇಟಿಗಳು	-8.45815
▁ವರೆಗೆ	-8.45926
ಗಾರ	-8.46331
ನಾದ	-8.46507
ಲಿನ	-8.46557
all	-8.46583
▁ಬಹು	-8.46599
▁ಇದನ್ನು	-8.46656
ೊಬ್ಬ	-8.46802
▁ಮುಖ್ಯ	-8.46856
ತ್ಯ	-8.46889
ಜಾ	-8.46945
▁ಎಸ್	-8.4705
ತ್ತಿ	-8.4709
▁p	-8.4725
▁ನಿಂದ	-8.47319
ಮ್ಮ	-8.47525
14	-8.47573
▁U	-8.48165
ಿಸಲು	-8.48312
ುವುದಿಲ್ಲ	-8.48423
24	-8.48523
ಲೈ	-8.48666
▁ಹೊರಟು	-8.48711
▁ಕೇವಲ	-8.48779
▁ಭ	-8.48886
05	-8.48905
▁ವಿವಿಧ	-8.48952
ುವಿಕೆ	-8.4899
▁22	-8.49019
▁ಬಿಟ್ಟು	-8.49217
▁ಮಾತನಾಡ	-8.49416
▁ಅತಿ	-8.49498
ದ್ಯ	-8.49543
21	-8.4987
ma	-8.49933
ಲ್ಲಿರುವ	-8.50072
▁ಹೇಳುತ್ತಾನೆ	-8.50165
▁m	-8.5021
▁ಜೀವ	-8.50354
▁'	-8.51023
▁ಜನ	-8.51484
▁ಶಿ	-8.51543
▁ಮೊದಲು	-8.5209
▁ಕ್ರಿಸ್ತನ	-8.52253
ಟಾ	-8.5227
▁21	-8.52312
ay	-8.52444
28	-8.52656
ಧಿ	-8.52687
ನಾನು	-8.52762
▁ಕ್ರ	-8.52823
ಹಿ	-8.52978
ನೀನು	-8.53265
▁ನವೆಂಬರ್	-8.53297
▁ಬೆಂಬಲ	-8.53298
35	-8.53357
▁ಅವು	-8.53426
75	-8.5345
ut	-8.53526
ುವರು	-8.53531
▁2014	-8.53874
▁ತಿರಿಗಿ	-8.54116
▁ಹು	-8.54184
▁ವಿಮಾನ	-8.54225
ir	-8.54376
ha	-8.54398
▁Kannada	-8.54614
▁2013	-8.54739
ವುಳ್ಳ	-8.54744
೦	-8.54757
▁t	-8.54968
ಲಾಗುತ್ತದೆ	-8.55047
ಖ	-8.551
ದಂತೆ	-8.55172
▁ವರೆಗೂ	-8.55368
ಂದ	-8.55706
▁ಉನ್ನತ	-8.55775
▁ಅವುಗಳ	-8.55788
36	-8.558
▁ಕೇಳಿ	-8.55945
▁ಪ್ರಮುಖ	-8.55983
▁ಆತನನ್ನು	-8.55984
cm	-8.5606
www	-8.56184
ly	-8.56265
▁ತಿಳಿಸ	-8.56673
pe	-8.56872
ಐ	-8.56914
ಂಪ	-8.57152
na	-8.57163
▁ತಿಂಗಳ	-8.57293
ಕರ್	-8.57299
▁ಬಿಡ	-8.57354
▁ಅವ	-8.57361
ಬೇಕಾದ	-8.57422
▁ಆಗಸ್ಟ್	-8.5765
ಿದರೆ	-8.57728
▁ಮೊಬೈಲ್	-8.57934
ದ್ದರಿಂದ	-8.57976
▁ಅಭಿವೃದ್ಧಿ	-8.57986
▁ವಿಳಾಸ	-8.58029
55	-8.58085
▁ಏಳು	-8.5809
▁ಪೋಸ್ಟ್	-8.58243
ang	-8.58312
op	-8.5833
▁ರೂಪ	-8.58438
▁ಪರಿಣಾಮ	-8.58493
ate	-8.58823
▁ಕಳುಹಿಸ	-8.58836
di	-8.58932
▁ಡಿಸೆಂಬರ್	-8.59079
▁ಇರ	-8.59291
ಕಾಲ	-8.59308
ಜನ	-8.59338
▁ಮನುಷ್ಯನ	-8.59345
▁v	-8.59407
▁ಕೇಂದ್ರ	-8.59567
lo	-8.59655
▁ಹೋಗುವ	-8.59703
▁ಪರಿ	-8.59857
=	-8.59938
▁ವರುಷ	-8.60024
▁ಅಕ್ಟೋಬರ್	-8.60159
ಕೀ	-8.60588
▁ದೇಶದ	-8.60729
ಂಜ	-8.60732
▁ಸಾವಿರ	-8.60921
▁ಸಾಧನ	-8.61033
▁ಸರಿ	-8.61062
▁ಯಾರು	-8.61104
▁ಎನ್	-8.61204
▁ಜೊತೆ	-8.6132
▁ಸಂಪರ್ಕಿಸಿ	-8.61325
ದೋ	-8.61397
▁ರೀತಿಯ	-8.61445
▁ಬೇರೆ	-8.61453
▁ಜೂನ್	-8.61669
▁ವಿಶೇಷ	-8.61808
▁ಚಾ	-8.61847
ಟೆ	-8.62036
▁ಬಳಿಯಲ್ಲಿ	-8.62248
▁ಮಾರಾಟ	-8.62302
▁Y	-8.62486
ಲಾದ	-8.62538
▁ಶುದ್ಧ	-8.62597
▁info	-8.62652
ಎಂ	-8.62663
▁ಬೆಟ್ಟ	-8.62672
▁ವೆಬ್	-8.62803
▁ಆದ್ದರಿಂದ	-8.63013
86	-8.63069
ex	-8.63246
ಯಾಗಿದೆ	-8.63286
▁ಸ್ಪ	-8.63342
▁f	-8.63461
Comment	-8.6359
▁ಮಾತು	-8.63653
▁ಭೇಟಿ	-8.6367
▁ಜ್ಞಾನ	-8.63772
ಮನ	-8.63801
ವರಿಗೆ	-8.64066
26	-8.64071
▁for	-8.64087
▁Z	-8.64122
37	-8.6419
ಗೋ	-8.64241
▁ದಿನದಲ್ಲಿ	-8.64509
▁50	-8.64583
▁ವಸ್ತು	-8.64628
▁ಕೋಡ್	-8.64689
▁ವ್ಯಾಪಾರ	-8.64811
▁ಜೆ	-8.64822
▁ಜುಲೈ	-8.64912
▁ಫೋನ್	-8.64924
22	-8.64958
▁ಕೂಡ	-8.64971
ಬೇಕ	-8.65088
▁ಅರಸನು	-8.6524
ho	-8.65379
ುತ್ತ	-8.6546
▁ಕರ್ತನೇ	-8.6556
▁ಇನ್	-8.65778
70	-8.65865
▁ಸಹೋದರರ	-8.66096
▁Re	-8.66162
▁ಇಟ್ಟ	-8.66287
▁ಕಡತ	-8.66345
ದ್ರ	-8.6636
ack	-8.66444
▁ಪೆ	-8.66597
▁ನಂಬ	-8.66753
▁ಸರಣಿ	-8.66969
▁23	-8.67075
id	-8.67098
▁ಕಾಣ	-8.67181
48	-8.67276
▁ಅಂಕ	-8.67362
▁ಸಮಸ್ಯೆ	-8.67384
▁ಕಂ	-8.67567
ers	-8.67758
▁ತೂಕ	-8.67804
ುತ್ತೀ	-8.68147
▁ಕೋಪ	-8.68154
ರೊ	-8.68281
▁ಮೋ	-8.68359
ta	-8.68493
de	-8.68637
▁ಫಾರ್	-8.68652
ಗ್ಗ	-8.68727
ru	-8.68763
▁ನಿರ್	-8.68777
▁ಕರೆ	-8.6904
▁ಪ್ರಯಾಣ	-8.6906
▁ಸೇ	-8.69073
ot	-8.69105
ಪಡ	-8.69135
▁ಆಟ	-8.69271
▁ಒಳಗೆ	-8.69338
▁ಕುಟುಂಬ	-8.69386
▁ವರ್ಷಗಳ	-8.69444
ವೆಂದು	-8.69449
▁ವಿದ್ಯುತ್	-8.69493
ಬೇಡ	-8.69585
▁ಕೃತಿಸ್ವಾಮ್ಯ	-8.69599
ಗೊಂಡ	-8.6968
▁ಚಲನಚಿತ್ರ	-8.69823
ಬ್ಬ	-8.70009
23	-8.70041
▁ನೀಡಿ	-8.7009
ುತ್ತಿರುವ	-8.70116
▁ಮೂ	-8.70272
95	-8.70322
65	-8.70345
ಟ್ಟಿ	-8.70371
ry	-8.70392
▁ಕ್ಯಾಸಿನೊ	-8.70456
oo	-8.70537
ವೀ	-8.70601
29	-8.70618
ರಾಮ	-8.70714
▁ಹಣ	-8.70732
04	-8.70784
▁ಮಾರ್ಚ್	-8.70907
▁2020	-8.70936
-2	-8.70967
38	-8.70973
ಂತಹ	-8.71023
▁ನಿರ್ವಹಣೆ	-8.71321
▁ಅತ್ಯಂತ	-8.71321
ಸಂ	-8.71387
▁ಉತ್ಪನ್ನ	-8.71473
▁ಗಿ	-8.71504
ಾಯಿ	-8.71688
ಟ್ಟು	-8.71765
ಘ	-8.71805
ಿನಿಂದ	-8.71814
▁ಆಳ	-8.71847
▁ಜೊತೆಗೆ	-8.71856
▁ಮಧ್ಯದಲ್ಲಿ	-8.71884
▁€	-8.7196
ರಾಗಿ	-8.72042
um	-8.72056
▁ಅರ್ಥ	-8.72079
der	-8.72096
▁ಮನುಷ್ಯರ	-8.72101
▁ನಕ್ಷೆ	-8.7222
▁ಕಡೆಗೆ	-8.72241
▁100	-8.72312
ುವಾಗ	-8.72416
▁ತಂದೆಯ	-8.72463
▁ಯಾ	-8.72596
ti	-8.72687
ul	-8.72709
▁ಶ್ರೀ	-8.72774
ಿಕೆಯ	-8.7295
ಿದಾಗ	-8.73289
▁ಘಟಕ	-8.73293
▁ಚಿಕಿತ್ಸೆ	-8.73293
▁ಮುಖ	-8.73306
‍	-8.73515
▁ತಿಳುವಳಿಕೆ	-8.73515
▁•	-8.73593
▁ಹೌದು	-8.73626
▁ಉದ್ದ	-8.73714
ರಾದ	-8.74026
ಬೇ	-8.74088
▁by	-8.74151
ುತ್ತೀರಿ	-8.74211
▁ಪೂರ್ವ	-8.74243
▁ಆವೃತ್ತಿ	-8.74299
▁ದಾವೀದನ	-8.74306
ia	-8.74402
▁ಅದೇ	-8.7446
▁ತೆಗೆದುಕೊಳ್ಳ	-8.74484
ಿಗೋಸ್ಕರ	-8.74488
▁28	-8.74538
ಾಗಲಿ	-8.74545
▁ನೀರಿನ	-8.74629
▁ವಿಧಾನ	-8.748
▁ಅವಳ	-8.74913
▁ಅಂದರು	-8.74933
▁ನೇ	-8.74965
▁ಅಗತ್ಯ	-8.7498
39	-8.7505
ುತ್ತಿದ್ದ	-8.751
▁ಒಂದ	-8.75111
▁ದೇವ	-8.7518
▁ಶಾ	-8.75206
▁ಮ್ಯಾ	-8.75306
▁ನೀ	-8.75494
▁ಗೋ	-8.75662
▁ತಿನ್ನ	-8.75793
ಿದ್ದೀ	-8.75807
▁ಧ	-8.75862
▁ಪ್ರೀತಿ	-8.75869
ಪು	-8.75894
▁ಏಪ್ರಿಲ್	-8.75986
ap	-8.76027
ಶಿ	-8.76096
*	-8.7619
▁ರೂ	-8.76231
▁ಫೆಬ್ರವರಿ	-8.76441
▁http	-8.76448
ಿವೆ	-8.76488
to	-8.76512
▁ಕೇ	-8.76608
▁ಪರ	-8.76631
ಣ್ಣ	-8.7664
31	-8.76671
▁ಮೇಲೆಯೂ	-8.76697
ಶಾ	-8.76799
ಳೆಯ	-8.76945
▁ವಿಭಾಗ	-8.76977
▁ಮನುಷ್ಯನು	-8.77027
▁ಕೀ	-8.77069
▁Ma	-8.77069
▁ಕೆಳಗೆ	-8.77121
ದ್ದನ್ನು	-8.77152
▁ನಿವಾಸಿ	-8.77287
ಮೀ	-8.77299
ಡಿಯ	-8.77376
ಮೂ	-8.7738
▁ತಕ್ಕೊಂಡು	-8.77525
▁ವ್ಯವಸ್ಥೆ	-8.77635
▁ಲಾ	-8.77781
45	-8.77878
ದ್ಧ	-8.77892
▁ಸೋ	-8.77987
ಿಸು	-8.78021
▁ತೆರೆಯ	-8.78119
27	-8.78152
▁ಬದಲಾವಣೆ	-8.78169
ನಿಂದ	-8.78184
om	-8.78207
ig	-8.7842
▁ತಿರುಗಿ	-8.78549
▁ದೋಷ	-8.78641
▁ಹೈ	-8.78736
▁ಇನ್ನು	-8.78744
▁ಯೆ	-8.78756
▁ಸಿದ್ಧ	-8.78797
Q	-8.78904
ಿತ್ತು	-8.7892
▁ಅಂದರೆ	-8.78949
▁ರಕ್ತ	-8.79025
▁ತಂದೆ	-8.79124
58	-8.79149
▁ಕಿಟಕಿ	-8.79338
ಿಯನ್	-8.79391
▁ಗು	-8.79453
Z	-8.79544
▁ಚಿ	-8.79627
▁ಎಲ್	-8.79655
▁ಸಭೆಯ	-8.79665
ಎಲ್	-8.79683
▁ಸೇವಕರ	-8.79693
im	-8.80078
ವಿನ	-8.80082
▁ಹಿಂದಿನ	-8.80083
▁~	-8.80101
▁ತರಬೇತಿ	-8.80165
ಂಡಿ	-8.80215
ಬಿಟ್ಟ	-8.80257
▁ಸಾಮಾನ್ಯ	-8.8032
44	-8.80355
ಲ್ಲಿಯೂ	-8.80377
▁ತು	-8.80455
▁ನಾನೇ	-8.8047
age	-8.80474
▁ಅವಳು	-8.80524
▁ರಸ್ತೆ	-8.80525
ಟು	-8.80545
▁ವ್ಯಕ್ತಿ	-8.80549
ent	-8.80596
▁ಟಿ	-8.80833
ನೆಂದು	-8.80975
▁ಬಳಸಿ	-8.81079
▁ಸತ್ತ	-8.81172
▁ದರ	-8.81197
▁ನಗರ	-8.81526
ರೈ	-8.81631
▁ಮಾಡು	-8.81793
98	-8.81805
▁ಬಲಿ	-8.8186
▁ಲಿಮಿಟೆಡ್	-8.81959
ವೋ	-8.82026
▁ಮೀ	-8.82075
ಲಾರ	-8.82079
per	-8.82135
▁ಹೊಲ	-8.82157
ದೇಶ	-8.82192
▁The	-8.82265
▁ಯಾರ	-8.82376
▁ರಕ್ಷಣೆ	-8.82444
ರಿಸ	-8.82476
▁ಪದ	-8.82743
▁°	-8.82813
56	-8.82848
▁ಸ್ವಲ್ಪ	-8.82942
▁ಆತನಿಗೆ	-8.82977
▁ಸ್ವ	-8.83131
▁ಸಾಮರ್ಥ್ಯ	-8.83294
▁ಮಧ್ಯ	-8.83325
ಬಂಧ	-8.83325
▁27	-8.8333
▁ದಾವೀದನು	-8.83375
▁ನಿಮಿತ್ತ	-8.83481
ಬು	-8.83599
▁ಹೇಳುವ	-8.83632
▁ಒಳ	-8.83651
-20	-8.8367
▁In	-8.83677
▁ಎದ್ದು	-8.83734
▁ಸಣ್ಣ	-8.83772
▁ಅವಕಾಶ	-8.83786
ಟೋ	-8.8384
▁ಅರ್ಪಿಸ	-8.83842
ಒ	-8.8391
▁ಪ್ರದೇಶ	-8.84014
90	-8.84214
ರಿನ	-8.84233
▁ಒಳ್ಳೇ	-8.84277
▁ಬ್ರ	-8.84453
ಗ್ರ	-8.84482
ow	-8.845
▁ಕಾರ್	-8.84661
▁HD	-8.84803
▁ಡಾ	-8.84821
ುವದಕ್ಕೂ	-8.84958
he	-8.85012
ಫೋ	-8.85058
▁ಉಪಕರಣ	-8.85289
▁ಸತ್ಯ	-8.85428
33	-8.85472
▁ಬರೆಯ	-8.85489
▁ಸೆಪ್ಟೆಂಬರ್	-8.85522
ದಲ್ಲಿರುವ	-8.85558
▁ಅದರಲ್ಲಿ	-8.8557
▁ತೆಗೆದು	-8.85587
▁ದೇಶದಲ್ಲಿ	-8.85618
▁ಯುದ್ಧ	-8.85652
▁ದಿವಸ	-8.85653
ದಿಂದಲೂ	-8.85797
53	-8.85881
ತೆಯ	-8.85934
59	-8.8601
▁ಸ್ವಂತ	-8.86077
ಿದ್ದರೆ	-8.8616
tr	-8.86294
32	-8.86349
ನೀವು	-8.86398
▁ಪಡೆಯ	-8.86428
▁ಇವೆ	-8.865
▁ವರದಿ	-8.86531
▁ಆಜ್ಞೆ	-8.86657
41	-8.86749
▁ಶಿಕ್ಷಣ	-8.86924
▁ವೇಳೆ	-8.87041
ೆವು	-8.87084
ನೀ	-8.87137
▁ಅಪ್	-8.8721
▁ಸೀ	-8.87272
▁ಮಾಡುತ್ತದೆ	-8.87535
34	-8.87552
ಿದ್ದೇವೆ	-8.87564
▁ಒಂದೇ	-8.87592
ಕೊಡ	-8.87615
▁ಲೇಖನ	-8.87672
▁ಸಂಚಿಕೆ	-8.87683
▁ಇಸ್ರಾಯೇಲ್ಯರ	-8.87757
▁ಬ್ಲಾಗ್	-8.878
pl	-8.87934
▁ಕುರಿತು	-8.87959
ಾಯ	-8.87969
▁ಗ್	-8.8799
ಫಿ	-8.88245
ಪಟ್ಟ	-8.88264
▁ನೀರು	-8.88494
▁ಪ್ರಶ್ನೆ	-8.8857
▁ಮಾರ್	-8.88684
▁ತಿಳಿದ	-8.88799
▁re	-8.88837
ವರೆಗೆ	-8.88894
▁ಉದ್ದೇಶ	-8.88958
▁ಯೆಹೂದದ	-8.88972
▁ತಂತ್ರಜ್ಞಾನ	-8.89087
ಗಳಿಗಾಗಿ	-8.89118
▁ಫಲ	-8.89273
▁ಬ್ಯಾ	-8.89279
66	-8.8929
▁ಲೆ	-8.89301
ip	-8.89305
ಷಿ	-8.89355
▁ಒಟ್ಟು	-8.89394
▁ರಾತ್ರಿ	-8.89466
ನನ್ನ	-8.89582
▁ಮಾಡಿದನು	-8.8965
▁ಸೇರಿಸ	-8.89666
ಫಾ	-8.89879
▁ಯಾವಾಗಲೂ	-8.8988
and	-8.89946
▁ಸ್ಟ	-8.9004
▁ಕಡೆ	-8.90059
ಮು	-8.90268
49	-8.90293
ಆರ್	-8.90319
▁ಹೋ	-8.90319
ಹ್	-8.90321
ವಂತ	-8.90451
▁ಶಬ್ದ	-8.90525
ೋಣ	-8.90644
ೀಕರಣ	-8.90696
▁ಸಾಕ್ಷಿ	-8.90789
▁ಕೊಂಡು	-8.90991
▁ಫ	-8.91197
ಡರ್	-8.91318
▁ರಚಿಸಲಾಗಿದೆ	-8.91333
ab	-8.91347
nd	-8.91403
ಕೊ	-8.91441
org	-8.91448
▁ಅಪರಾಧ	-8.91448
▁ಜಿಲ್ಲೆ	-8.91583
ಠ	-8.91808
▁ಬೀ	-8.91889
88	-8.91899
ಜು	-8.91925
▁ಆಟಗಳು	-8.9197
ಗೊಳ್ಳ	-8.92194
▁is	-8.92236
▁ಹೂ	-8.92289
▁ಪು	-8.92292
▁ಗುಣಮಟ್ಟದ	-8.92354
▁ಟೆ	-8.92446
="	-8.92533
ಾರ	-8.92558
▁ಮಟ್ಟ	-8.92624
▁ಮನೆಯಲ್ಲಿ	-8.92799
ಮೇ	-8.92802
ಯುಳ್ಳ	-8.92804
ವಾಗಿಯೂ	-8.93071
▁ಹಾಗೆಯೂ	-8.93073
▁ಸಮಯದಲ್ಲಿ	-8.93092
ಕಿಂಗ್	-8.93137
▁ತೆಗೆದುಕೊಂಡು	-8.93221
ಾಗಿದ್ದ	-8.93222
▁ಸುದ್ದಿ	-8.93462
▁ಗೋತ್ರ	-8.93488
ಿಸುತ್ತದೆ	-8.93559
▁ಪಡೆಯಲು	-8.93593
▁ಹೇ	-8.93601
▁ರೇ	-8.93608
▁ಮಗನು	-8.93665
85	-8.93767
▁ನಾಲ್ಕು	-8.93811
ಾಗಿಯೂ	-8.93819
ಂಕ	-8.93861
▁ದುಷ್ಟ	-8.93886
47	-8.93938
▁ಸಾರ	-8.94034
▁ಬೋ	-8.94075
▁ಸಾಯ	-8.94086
ca	-8.94114
ಾಗುವ	-8.94233
ವನಾಗಿ	-8.94267
ಗಾರರ	-8.94316
52	-8.94434
▁ಹೋದ	-8.94475
▁No	-8.9448
ಈ	-8.945
▁ಸಮಾಧಾನ	-8.94552
ಗೊಳಿಸ	-8.94679
▁ಸಮ	-8.94685
▁200	-8.94839
▁ಕಂಡ	-8.94842
q	-8.94843
ಬೋ	-8.94898
▁29	-8.94929
▁de	-8.95024
ಷ್ಟು	-8.95094
ನಾಗಿ	-8.95142
▁ಮಾಡಲಾಗಿದೆ	-8.95175
▁ಲೋ	-8.95229
▁ಸಂಪೂರ್ಣ	-8.95307
▁ಪುಸ್ತಕ	-8.95358
▁ಹಂತ	-8.95539
ವರನ್ನು	-8.95638
ಂಟು	-8.95652
▁ವಾರ	-8.95684
▁ರಕ್ಷಿಸ	-8.95768
46	-8.95805
▁26	-8.95871
ವರೂ	-8.96104
▁ಜನಾಂಗ	-8.96201
▁ಹೆಂಡತಿಯ	-8.96297
▁ನಕ್ಷೆಗಳು	-8.9631
о	-8.96344
▁ಕರ್ತನನ್ನು	-8.96423
▁ಯಾಕೆ	-8.96433
ಲಾಗಿ	-8.96516
▁ಸುತ್ತ	-8.96521
77	-8.96538
ಲ್ಪಡುವ	-8.96587
ac	-8.96636
ong	-8.96674
▁ಹೊಂದಿರುವ	-8.96749
ತರ	-8.96863
▁ಏರ್	-8.96989
▁ಯೆಹೂದ	-8.97012
▁g	-8.97142
▁ಹುಡುಕ	-8.97151
▁ಪರಿಹಾರ	-8.97194
▁Sh	-8.9731
▁40	-8.97402
ಭಾ	-8.97464
▁ಆದಾಗ್ಯೂ	-8.97465
ರಲ್ಲಿ	-8.97477
43	-8.97801
▁ಎತ್ತರ	-8.97866
68	-8.9788
ಗಳೊಂದಿಗೆ	-8.97889
▁ಫ್ಲ	-8.97958
▁ಕೂ	-8.98069
ನಿಯ	-8.98104
▁on	-8.98165
▁ನಡೆಯ	-8.98215
▁ಹಾಕಿ	-8.98222
▁ಹೆಚ್ಚ	-8.98355
▁ಗಾಗಿ	-8.98397
▁ಕುರಿ	-8.98568
▁ಮುಂದಿನ	-8.98586
ment	-8.98653
▁ಮೈ	-8.98658
▁ಕ್ರಮ	-8.98736
▁ಮೊಳ	-8.98761
▁ಕೈಯಲ್ಲಿ	-8.98834
▁ಜೀವನ	-8.9886
▁ಒಳ್ಳೆಯ	-8.98884
▁ಉದ್ಯಮ	-8.98885
▁ಗಂಟೆಗಳ	-8.99048
ಭಾಗ	-8.9916
ಾಂಶ	-8.99304
▁ವೇಗ	-8.99308
▁https	-8.99363
od	-8.99496
ನೊ	-8.99514
▁ಸೇರಿ	-8.99576
200	-8.9963
ಬಿಡ	-8.99694
▁ಅಪ್ಲಿಕೇಶನ್	-8.99746
▁ಸ್ಥಿರ	-8.99746
▁ಪ್ರವೇಶಿಸ	-8.998
▁ಹೆಲಿಕ್ಸ್	-8.9989
е	-9.00179
ke	-9.00187
▁ಡೆ	-9.0026
▁Co	-9.0028
▁ಊ	-9.00311
▁ಇತ್ಯಾದಿ	-9.00324
▁be	-9.00456
ಂಟಿ	-9.00537
ಿಗಿಂತ	-9.00561
ug	-9.00581
ಃ	-9.00614
ine	-9.00653
ವಾಯಿತು	-9.00709
ದಾಗ	-9.00733
ದೊಂದಿಗೆ	-9.00758
▁ತೊ	-9.00826
ant	-9.00843
ಟಿಂಗ್	-9.0089
net	-9.00968
ರನ್ನೂ	-9.0097
▁ಜನರಿಗೆ	-9.00997
▁ಫಿ	-9.01005
ಕ್ಸಿ	-9.01097
▁31	-9.01112
ತೀ	-9.01122
▁ಅಗಲ	-9.0127
ಕಲ್	-9.0129
▁ಪ್ಯಾ	-9.01322
▁ಹ್ಯಾ	-9.01388
ಿಂದಲೂ	-9.01438
▁ಯೋ	-9.01445
ಂದರೆ	-9.01456
ge	-9.0155
▁ಅಂಶ	-9.01639
ರಿಸಿ	-9.01644
▁ಪಿತೃಗಳ	-9.01785
▁ಸಾಮಾನ್ಯವಾಗಿ	-9.01837
ುವವನು	-9.01875
500	-9.02108
▁ಖಾತೆ	-9.02111
ve	-9.02151
ಾತನ	-9.02161
▁ಹಿಂ	-9.02202
ಬೇಡಿರಿ	-9.02221
ದಲ್ಲಿಯೂ	-9.02226
▁ವೃತ್ತಿಪರ	-9.02228
▁ಬಿಡುಗಡೆ	-9.02228
ಿಕೊಂಡು	-9.02359
ni	-9.0241
ೊಂದು	-9.02417
ವಾಗಿರುವ	-9.02477
ರಳ	-9.02489
ep	-9.02573
ill	-9.02603
▁ಹೃದಯ	-9.02653
▁ಸೂ	-9.02667
51	-9.02767
▁ದಕ್ಷಿಣ	-9.02843
ಟೇ	-9.02849
▁ಉಳಿದ	-9.02997
ಶು	-9.03036
▁Vessoft	-9.03118
up	-9.03128
▁ಒಪ್ಪಿಸ	-9.03172
▁ಚಿಕ್ಕ	-9.03183
▁ಕೊನೆಯ	-9.03236
▁ಮಗನ	-9.03296
ನೈ	-9.03329
▁ಬಂದಾಗ	-9.03365
▁ಘನ	-9.03523
▁ಮನಸ್ಸ	-9.03644
▁ಸಾಲ	-9.03696
ನ್ನಾಗಿ	-9.03747
ಇಗೋ	-9.03758
ೊಂದ	-9.03805
mo	-9.03925
▁ಬರೆದ	-9.03961
ub	-9.0408
▁ಎಕ್ಸ್	-9.04251
▁ತಲೆ	-9.04335
ಿಗಾಗಿ	-9.04423
▁ಸರಳ	-9.04429
▁ಲೇಖಕ	-9.0447
▁ಧ್ವನಿ	-9.04629
▁ದಯವಿಟ್ಟು	-9.04773
▁ಕಳುಹಿಸಿ	-9.04811
ಪಡಿಸಿ	-9.04843
ಪೆ	-9.04851
$	-9.04879
▁ಕ್ರಿಯೆ	-9.04948
ce	-9.04951
▁ತಿ	-9.05117
ಾನ್	-9.0512
▁ನಿಯಂತ್ರಣ	-9.05229
89	-9.05458
▁ಸ್ಥಾನ	-9.0547
69	-9.05479
ಸರ್	-9.05678
ವನೂ	-9.05803
ಟೊ	-9.05983
▁ಪ್ರಸ್ತುತ	-9.06022
▁ಕರ್ತನಾದ	-9.06027
ುವವರ	-9.06117
ಲಾಯಿತು	-9.062
ದಾರ	-9.06307
ಲ್ಪ	-9.06346
82	-9.06419
್ಯೂ	-9.06439
▁ಲಾಕ್	-9.06444
▁2011	-9.06605
а	-9.06609
ya	-9.06709
ಹೀ	-9.06762
▁ಸ್ಥಳದಲ್ಲಿ	-9.06859
▁ಗಣಕತೆರೆ	-9.06918
▁mo	-9.06924
▁ಎಫ್	-9.07006
54	-9.07095
▁ಇವನು	-9.07106
▁ಹತ್ತಿರ	-9.07423
▁ಸಂಪೂರ್ಣವಾಗಿ	-9.0747
▁St	-9.07491
ಂದಿ	-9.07509
76	-9.07551
57	-9.07798
▁ಹಾಗು	-9.07848
ag	-9.07854
ard	-9.0813
ವಳ	-9.08204
▁ಬಿಲ್	-9.08228
ಹೋದ	-9.08282
▁ಮುಚ್ಚ	-9.0832
▁ಕೊಡುವ	-9.08499
ಾರ್	-9.0874
ಸುವ	-9.08752
▁ಉಳಿಸ	-9.08801
ಕ್ಷಣ	-9.08813
▁ಬೈ	-9.08868
vi	-9.08934
ುತ್ತಿದೆ	-9.0902
ಮಾಡಿದ	-9.09035
▁ಭೂ	-9.09156
87	-9.09164
ಕೇ	-9.0932
▁ವಿಷಯದಲ್ಲಿ	-9.0935
▁ಇವರ	-9.09574
94	-9.09603
ER	-9.0968
ಯೋಗ	-9.09741
▁ಇಸ್ರಾಯೇಲ	-9.09747
▁ಅನ್ವಯ	-9.0981
ಸನ್	-9.09846
▁Mo	-9.0985
▁60	-9.09869
▁ಮೌಲ್ಯ	-9.09906
▁ಪ್ರೊ	-9.09911
▁ಇಡ	-9.09926
Notification	-9.10066
▁ಸ್ಟ್ರಿಂಗ್	-9.10066
ಯೊ	-9.10077
ಕಾರಿ	-9.10126
▁ಗಾ	-9.10141
▁ಲಾಭ	-9.10147
os	-9.10161
▁ಪ್ರವಾದಿ	-9.1022
▁ಕೊಠಡಿ	-9.10226
▁ನಡುವೆ	-9.10251
▁ಇಂದ	-9.10355
▁ಚಾಟ್	-9.10378
▁ಶೆ	-9.1042
▁ವಿವರಣೆ	-9.10424
▁ಮಾಡಬೇಕು	-9.1045
▁ಸುಮಾರು	-9.10477
ec	-9.10539
▁ಮಾರುಕಟ್ಟೆ	-9.10546
,000	-9.10601
pa	-9.10703
▁ದಿನಗಳು	-9.1074
ದ್ದೇನೆ	-9.10779
▁ಇವರು	-9.10781
▁ಮತ	-9.10876
ts	-9.10895
em	-9.10913
ive	-9.11035
▁ಬಯಸ	-9.11072
ಿದ್ದರು	-9.11101
ಬರ್	-9.11107
▁ಹೆಚ್ಚಿಸ	-9.1118
ಗೋಸ್ಕರ	-9.11195
▁Q	-9.11246
▁ಐದು	-9.1126
▁ಮೋಶೆಯು	-9.11342
▁—	-9.11361
▁ಕಾರ್ಯಕ್ರಮ	-9.11379
▁ಕುಮಾರರ	-9.11404
ೆಲ್ಲಾ	-9.11456
ವಲ್ಲ	-9.11565
▁ಪ್ರಾ	-9.1163
▁ಕರೆಯ	-9.11634
est	-9.11673
ಎನ್	-9.11705
▁ಲೆಕ್ಕ	-9.11726
ಿದ್ದು	-9.11756
ver	-9.11757
ou	-9.11853
ವಿಲ್ಲ	-9.12031
ವಾರ	-9.12039
67	-9.1205
ell	-9.12092
61	-9.12167
ಕೊಳ್ಳಲು	-9.12299
▁ಯಾಜಕರ	-9.12312
▁ಇಷ್ಟ	-9.12318
ನ್ನೇ	-9.12325
▁ಹೋದನು	-9.1239
ಿಸಿದನು	-9.12627
▁ಜನರನ್ನು	-9.12683
▁ಪಡೆದ	-9.12846
ರಿಯಾ	-9.12849
▁ಹಕ್ಕುಗಳನ್ನು	-9.12899
▁08	-9.12936
▁ಭಯ	-9.13062
▁ಲೈಟ್ಸ್	-9.13137
▁ನಿಂತು	-9.13208
▁ಬ್ಲ	-9.13221
▁ಲೋಕ	-9.13232
ms	-9.13389
▁ವಿಧ	-9.13415
art	-9.13433
▁ಪೋ	-9.13439
▁ಹೀ	-9.13543
▁ಮರಣ	-9.13599
min	-9.13773
▁ಹಳೆಯ	-9.13787
ಬಲ್	-9.13807
▁ಸಂಸ್ಥೆ	-9.13961
▁ಸಲಹೆ	-9.14012
▁ಗ್ರಾಹಕ	-9.14016
▁ಸೆಟ್	-9.14051
sp	-9.1408
ರಣೆ	-9.14093
we	-9.14112
▁De	-9.14115
▁ಟ್ರ	-9.14145
ie	-9.14153
▁ಕ್ರಿ	-9.14162
▁ಔಟ್	-9.14314
ಲಿಂಗ್	-9.14381
▁ಲಕ್ಷ	-9.14431
ಪರ್	-9.14466
ಾಗಿದ್ದು	-9.14507
ೆಂಬ	-9.14593
▁An	-9.1466
ಶಾಸ್ತ್ರ	-9.14814
▁ಹೇಳಿದ್ದೇನಂದರೆ	-9.14822
ಾಗಿದೆ	-9.14892
▁ಕೊಂಡ	-9.14985
▁ಆರಂಭ	-9.15042
▁ಒಬ್ಬನು	-9.15062
ರಾಗ	-9.15068
fi	-9.15172
2018	-9.15289
▁ದಾ	-9.15317
▁ತಂದ	-9.15481
ash	-9.15492
da	-9.15621
▁ಇದರ	-9.15632
▁ವಿಷಯವಾಗಿ	-9.15648
▁ಪ್ರಕ್ರಿಯೆ	-9.15824
▁ಕ್ಲಿಕ್	-9.15827
-12	-9.15899
▁ವಿಶ್ವವಿದ್ಯಾಲಯ	-9.15993
▁ನಿಯಮ	-9.16011
ನ್ನೆಲ್ಲಾ	-9.16015
▁ಅಪ	-9.16035
▁ತಾನು	-9.16089
io	-9.16129
▁ತುಂಬಾ	-9.16436
ಮಿನ	-9.16463
ರಿಗೂ	-9.16463
▁ಕರ್ನಾಟಕ	-9.16495
▁ಸೇರ	-9.16512
ai	-9.16515
▁ಮೋಸ	-9.16631
▁ಪ್ರಧಾನ	-9.16663
ಿಸಿಕೊಂಡ	-9.16668
ci	-9.16694
▁ಅನುಭವ	-9.16727
▁ಪುಡಿ	-9.1675
ಾತ್ಮಕ	-9.16786
ಟ್ಸ್	-9.16796
▁ಮನ	-9.1681
▁ಸುಲಭ	-9.16818
ರ್ಟ್	-9.16823
▁ಕೇಳಿದ	-9.16851
▁ನಾಶ	-9.16853
▁ಕತ್ತಿ	-9.16907
▁ಆರೋನನ	-9.16987
po	-9.17028
▁ಪ್ರವೇಶ	-9.17123
ಜ್ಞ	-9.17151
▁ಅದ್ಭುತ	-9.17188
▁ಫೈಲ್	-9.17196
96	-9.17384
ki	-9.1745
▁ಬೋನಸ್	-9.17534
ೆಲ್ಲರೂ	-9.17609
▁ನಡಿಸ	-9.17699
ದಿದ್ದರೆ	-9.17765
▁ಸೈನ್ಯಗಳ	-9.17807
▁(_	-9.17892
ೆಂದೂ	-9.17918
ಕೊಂಡರು	-9.1796
▁ಸಂಬಂಧ	-9.17982
ದ್ದಾಗ	-9.17986
▁ಕಾಯ್ದಿರಿಸಲಾಗಿದೆ	-9.1805
ತ್ರಿ	-9.18078
ಾವ	-9.18212
ಕೊಟ್ಟ	-9.18258
va	-9.18409
▁ರಂದು	-9.18485
▁ಮಾತನಾಡಿ	-9.18571
▁ಕೊಲ್ಲ	-9.18631
ಧಾ	-9.1864
ಫೆ	-9.18662
ಂಭ	-9.18687
▁ತಿಂಗಳು	-9.18748
ಡಿಂಗ್	-9.18797
no	-9.18806
▁ಮಕ್ಕಳಿಗೆ	-9.18847
▁ಆಕಾಶ	-9.18883
▁ಪರೀಕ್ಷೆ	-9.1892
▁ಅಂಗ	-9.18952
▁×	-9.18952
ಯಂ	-9.18954
▁ರೀತಿಯಲ್ಲಿ	-9.19034
▁Android	-9.19094
▁ಆದೇಶ	-9.19346
79	-9.19395
▁ತೆಗೆದುಹಾಕ	-9.19479
ಜ್ಜ	-9.19549
ನನ್ನೂ	-9.19601
▁ಬಳಕೆ	-9.19622
ಫೈ	-9.19627
ಬಹುದಾದ	-9.19653
▁ಕೆಟ್ಟ	-9.1983
▁ಸ್ಥಿತಿ	-9.1986
▁ಅಡ್ಡ	-9.19973
▁ಮಾಹಿತಿಯನ್ನು	-9.20014
▁ಪಟ್ಟಣದ	-9.2009
▁ಇಂದು	-9.20101
▁ಬೆಂಗಳೂರು	-9.2015
▁ಪ್ರಾಣ	-9.20151
▁ಏಕ	-9.20182
▁ಸ್ಕ	-9.20248
▁ಸಲ್ಲಿಸ	-9.20294
▁ಸಾರಿ	-9.20341
▁ರೊಟ್ಟಿ	-9.20352
▁2012	-9.20424
▁ಕ್ಲ	-9.2053
gr	-9.2056
ಳ್ಳಿ	-9.20595
▁86-	-9.2068
▁ನ್ಯಾಯಪ್ರಮಾಣ	-9.20682
▁ಅಶುದ್ಧ	-9.20682
▁ಮನೆಗೆ	-9.20806
IN	-9.20822
▁ಹಿಡಿದು	-9.20836
▁ಕೊಳ್ಳ	-9.20961
▁ಖ	-9.20977
bo	-9.20994
▁ಇರಿಸ	-9.21025
и	-9.21038
▁ವಿವರ	-9.21052
▁ಪ್ರದರ್ಶನ	-9.2109
▁ಇತ್ತು	-9.21256
▁ಹಾಗ	-9.21282
ಷನ್	-9.21347
▁ದೃಷ್ಟಿ	-9.21372
▁ವೀಕ್ಷಿಸಲು	-9.21459
▁ಕುಡಿಯ	-9.21479
ber	-9.21543
▁ವೈಯಕ್ತಿಕ	-9.21575
▁ಸಭೆ	-9.21616
▁ಹೆಸರನ್ನು	-9.21703
ನ್ಯಾ	-9.21771
ವ್ಯ	-9.21773
▁ಹೋದರು	-9.21852
▁ಹುಟ್ಟಿದ	-9.21899
▁FSX	-9.21957
▁ಕಪ್ಪು	-9.21969
go	-9.21974
ಥಾ	-9.21988
▁ಇಸ್ರಾ	-9.22252
▁ಕೂಡಿ	-9.22319
▁ಸ್ಥಾಪಿಸ	-9.2233
▁ಮತ್ತೆ	-9.22407
ಗಳಲ್ಲಿಯೂ	-9.22491
ಟನ್	-9.22615
▁ಸಮುದ್ರ	-9.22616
ಸ್ಟರ್	-9.22644
one	-9.22791
▁ದಂಡ	-9.22924
▁ಜಾಲ	-9.22935
SS	-9.22994
100	-9.23001
▁ಪಠ್ಯ	-9.2302
▁ಪರ್ವತ	-9.23021
ತೆಯನ್ನು	-9.23024
▁32	-9.23041
ುವುದನ್ನು	-9.23048
▁ಒತ್ತಡ	-9.23075
ೆಯನ್ನು	-9.23171
72	-9.23184
▁ಏಕೆಂದರೆ	-9.23214
▁ಅನ್ಯ	-9.23216
ud	-9.2324
ಲ್ಲದೆ	-9.23264
▁ನಾದ	-9.23277
▁ಬದಲಾಯಿಸ	-9.23328
ಚು	-9.23396
▁ನಡೆಸ	-9.23403
▁ನಿಲ್ಲ	-9.23499
▁Ch	-9.23518
sk	-9.23525
▁Google	-9.23567
ಹು	-9.23597
ರೂಪ	-9.23638
▁ಆರೋಗ್ಯ	-9.23722
▁ಹೆಚ್ಚಾಗಿ	-9.23826
ಎಕ್ಸ್	-9.23829
(_	-9.23901
▁www	-9.24053
▁ಇವುಗಳ	-9.24102
ಡಾ	-9.24105
▁ತೆರೆ	-9.24224
▁__	-9.2423
ಾಲಯ	-9.24258
▁ಯೆಹೋ	-9.24316
▁ಚೆ	-9.24351
ಟ್ಟೆ	-9.24421
ಕಾರ್	-9.24461
ಮೊ	-9.24493
ನಿನ್ನ	-9.24537
mi	-9.24579
▁ಖಾಸಗಿ	-9.24671
▁ಪ್ರಾರ್ಥನೆ	-9.24671
-5	-9.24734
▁you	-9.2474
▁ಕೈಯಿಂದ	-9.24778
▁ರಾಜ	-9.24783
▁ಕಟ್ಟಿ	-9.24834
97	-9.24948
▁ದೇವರಿಗೆ	-9.24993
ಧಾನ	-9.25022
▁ಅಧಿಕೃತ	-9.25042
▁ಸಂಯೋಜನೆ	-9.25042
▁ಜನಪ್ರಿಯ	-9.25042
ನೊಂದಿಗೆ	-9.25093
▁ಒದಗಿಸ	-9.25253
▁ರೋಗ	-9.25265
ೀಕರಿಸ	-9.25355
ುವದನ್ನು	-9.25455
ian	-9.25546
71	-9.25561
ತೆಗೆ	-9.25763
▁ದುಃಖ	-9.25788
ity	-9.25793
ದ್ದಾನೆ	-9.25813
▁ಸೂಚಿಸ	-9.2585
ಬಲ್ಲ	-9.25866
day	-9.25918
▁ಪಾಲು	-9.25967
▁ಸಂದೇಶ	-9.26052
▁ನಿರ್ಮಿಸ	-9.26113
▁ಯುವ	-9.26115
▁→	-9.26211
▁ಸೇವಿಸ	-9.26263
▁ಬದಲಾಗಿ	-9.26298
▁ಮಾಧ್ಯಮ	-9.2635
▁ಪಾತ್ರೆ	-9.26439
ಕ್ಕಿಂತ	-9.26448
▁ನಿಮಿಷ	-9.26539
ಉ	-9.26573
▁ಇದೇ	-9.26613
fe	-9.26659
AN	-9.26815
man	-9.26895
▁ನಿಂತ	-9.26934
▁ಸೇವಕನ	-9.27022
ುವದಕ್ಕಾಗಿ	-9.27036
-8	-9.27047
▁ತುಂಬಿ	-9.27086
ದವರ	-9.2719
▁ಸಂಬಂಧಿಸಿದ	-9.2719
ಜರ್	-9.27234
▁ಆಗಿರುತ್ತದೆ	-9.27259
AR	-9.27334
▁ಬದುಕ	-9.27402
ಾಂ	-9.27534
ಡಿಸಿ	-9.27536
▁ವಿಮರ್ಶೆಗಳು	-9.27618
ದರ್ಶನ	-9.27631
ಂತೆಯೂ	-9.27648
ಿರಲಿ	-9.27671
ೋ	-9.27676
ON	-9.27715
▁ಕಾಲು	-9.27734
▁ಕಷ್ಟ	-9.27829
▁ವಿರುದ್ಧ	-9.27854
2019	-9.27893
if	-9.28009
ಲಾಗುತ್ತಿದೆ	-9.28078
ass	-9.28129
н	-9.2825
▁ಪುರುಷ	-9.28251
lock	-9.28272
▁ಗ್ರಾಹಕರ	-9.28397
bi	-9.28536
▁ಸೊ	-9.28594
▁ಅಧಿಕಾರಿ	-9.28605
able	-9.28767
▁ಹದಿ	-9.28816
ST	-9.28928
ಓ	-9.28964
▁ಎಡ	-9.29004
▁ವಾಕ್ಯ	-9.2901
78	-9.29201
▁ಆರಂಭಿಸ	-9.29298
▁ಅಧಿಪತಿ	-9.29407
▁ತೈಲ	-9.29408
▁ತಂಡ	-9.29453
▁ಹೇಳು	-9.29544
ಾಂತರ	-9.29595
63	-9.29598
▁ಭಾರತ	-9.29606
ವನಾದ	-9.29609
ff	-9.29641
▁ಗುಣಮಟ್ಟ	-9.29642
▁To	-9.29655
▁ವಿಗ್ರಹ	-9.2967
▁ಪಾದ	-9.29721
ಸೆಂ	-9.29763
su	-9.29869
ite	-9.29969
ba	-9.3
▁ಪರಲೋಕ	-9.30002
▁ಮನುಷ್ಯ	-9.3007
▁ಐಗುಪ್ತ	-9.30089
▁ತಾಪಮಾನ	-9.30186
▁ಕಾರ್ಡ್	-9.30243
▁ಹತ್ತು	-9.30248
▁ಇಲ್ಲದೆ	-9.3026
93	-9.30261
ಎಫ್	-9.30311
▁ಏರಿ	-9.30368
▁ವೆಚ್ಚ	-9.30387
▁ಆದರೂ	-9.30401
▁ಒಬ್ಬನ	-9.30429
▁ಡೌನ್ಲೋಡ್ಗಳು	-9.30469
ಹೊ	-9.3051
pr	-9.30538
೨	-9.30577
ಫೀ	-9.30695
ವನಿಗೆ	-9.30697
▁ಪ್ರವಾಸ	-9.30746
▁ಮುಂದ	-9.30747
62	-9.3075
▁ತಲೆಯ	-9.30792
ಭಾವ	-9.3084
ga	-9.30938
ದ್ದೇ	-9.30963
ಯೊಂದಿಗೆ	-9.30983
ನಿನ	-9.3106
▁ಅಂದ	-9.31124
▁ಹೇಳಿದರು	-9.31169
ವಾಗುವ	-9.31172
▁ಬಂದರು	-9.31301
our	-9.31303
83	-9.31333
▁ಕಾನೂನು	-9.31367
81	-9.31372
64	-9.31382
▁ಸಂಗ್ರಹ	-9.31395
▁ಮೇಲಿನ	-9.31455
ಾಯಿತು	-9.31459
▁ಟೈ	-9.31528
ಹಾಕ	-9.31555
ೆಲ್ಲರ	-9.31599
lot	-9.31755
▁ಉತ್ಪಾದನೆ	-9.31762
▁ಫರೋಹನ	-9.31763
▁ಅನುಸರಿಸ	-9.31763
ಜೀ	-9.31823
74	-9.31987
▁ಕಡ	-9.32064
▁k	-9.32187
ೀತ	-9.32245
ವಿಲ್ಲದ	-9.32336
ವರಾಗಿ	-9.3234
}	-9.3236
ಮಾಡುವ	-9.32472
hu	-9.32484
ಸೈ	-9.32488
▁ಪ್ರತಿಕ್ರಿಯೆ	-9.3256
▁ಸೈನ್ಯ	-9.3258
91	-9.32627
▁ಪೀ	-9.32634
▁ಗಮನ	-9.32708
▁ಇತ್ತೀಚಿನ	-9.3276
▁ಗುರಿ	-9.32775
▁ವಿಜ್ಞಾನ	-9.32804
▁ನಂಬಿಕೆ	-9.32825
▁ನೀಡುತ್ತದೆ	-9.32846
ಣಾ	-9.32952
{	-9.32961
▁Pro	-9.32973
▁ಒಳಗೊಂಡ	-9.33001
42	-9.33016
ಂಕ್	-9.33026
▁ನಿತ್ಯ	-9.33096
ಾಗಿತ್ತು	-9.33121
ಝ	-9.33157
▁ಟ್ವಿಟರ್	-9.33162
▁ಸಾರ್ವಜನಿಕ	-9.33162
▁ಪಾಲ	-9.33202
lu	-9.33303
of	-9.33334
▁ನಿರ್ಮಾಣ	-9.33364
ಂಡರ್	-9.33366
▁ಸೂಕ್ತ	-9.3338
ಕ್ಕಿ	-9.33414
ust	-9.3344
fo	-9.3347
▁ಸೇರಿಸಿ	-9.33522
▁ಹುಟ್ಟ	-9.33552
▁ಏಳ	-9.33563
▁ಕ್ಷೇತ್ರ	-9.33566
▁with	-9.33568
ಕ್ತ	-9.33575
▁ಯೆಹೂದ್ಯರ	-9.33589
▁ಅರಸ	-9.33611
▁ಲೋಡ್	-9.33744
▁ಯಾರೂ	-9.33787
▁ದಿವಸದಲ್ಲಿ	-9.33804
▁ಅಧಿಕಾರ	-9.3381
ಾಡ	-9.33864
▁ಸರ್ಕಾರ	-9.33899
▁ಕೊಡುಗೆ	-9.33913
92	-9.33953
mb	-9.34107
▁ಕೆಳ	-9.34188
▁ಹೊಂದಿ	-9.34191
▁ಉಂಟಾಗ	-9.34209
▁ಬಯಸುವ	-9.34234
ಕ್ರಮ	-9.34293
▁ಪ್ರತಿಯೊಂದು	-9.34379
▁ಅಡಿಯಲ್ಲಿ	-9.34508
▁ನಿರ್ದಿಷ್ಟ	-9.34582
▁ಸ್ವಯಂ	-9.34605
port	-9.34682
▁Ro	-9.34745
CH	-9.34772
▁ಟಾಪ್	-9.34882
ತಿಯ	-9.34932
▁ಶಿಷ್ಯರ	-9.34992
ಹೋಗ	-9.35013
▁ಶೂ	-9.35021
ಣೆಯ	-9.35193
ಹೋ	-9.35198
▁ಜನಾಂಗಗಳ	-9.35423
▁ವಿಚಾರಣೆ	-9.35473
be	-9.3548
▁ಮಾನವ	-9.35575
ect	-9.35591
▁ನಿಲ್ಲಿಸ	-9.35625
▁ಎಚ್ಚರಿಕೆ	-9.35661
▁ಗುಣ	-9.35793
▁ಮರದ	-9.35829
▁ತನ್ನನ್ನು	-9.35884
▁ಜಲವರ್ಣ	-9.36023
▁ಸವಿಾಪ	-9.36023
ರ್ಪ	-9.36173
▁(5	-9.36223
▁sales	-9.3624
ph	-9.36262
si	-9.36269
▁ಹ್ಯಾಕ್	-9.36318
ಮರ್	-9.36333
▁Windows	-9.36438
▁ಬಳಸಲಾಗುತ್ತದೆ	-9.36491
▁ದೇಹ	-9.36505
ವರ್ತ	-9.36588
▁ಬಾರಿ	-9.36649
▁ಭೂಮಿ	-9.36755
ting	-9.36758
ಗಳನ್ನೆಲ್ಲಾ	-9.36824
▁ಶರೀರ	-9.36856
▁ಅಪ್ಪಣೆ	-9.36857
ನಗರ	-9.36891
ಂಪ್	-9.37002
▁ಹೋಗು	-9.37023
▁ರಚಿಸ	-9.37051
ಸ್ಟ	-9.37083
ಂತೆಯೇ	-9.37084
▁ಸುಂದರ	-9.37091
▁ನ್ಯೂ	-9.37136
▁ಹೀಗ	-9.37228
▁ಆಜ್ಞಾಪಿಸಿದ	-9.37245
▁ಅಸಹ್ಯ	-9.37274
ಸೇ	-9.37275
▁ಕಲ್ಲು	-9.373
-10	-9.37357
▁ಬಿದ್ದ	-9.37383
▁ಪತ್ರ	-9.37487
▁Me	-9.37573
ಗಳಿಗೂ	-9.37609
▁ಹೋಸ್ಟಿಂಗ್	-9.37695
▁ವಿಂಡೋ	-9.37737
▁ಪಶು	-9.37763
ಧ್ಯ	-9.37876
	-9.37906
▁ಮತ್ತ	-9.3791
▁ಶೇ	-9.37929
▁ಅಂತ್ಯ	-9.37945
ಾಟ	-9.38012
▁ದಾರಿ	-9.38029
▁ನಂಬಿಕೆಯ	-9.38149
ಲರ್	-9.38174
▁ವ್ಯವಸ್ಥೆಯ	-9.38259
ea	-9.384
▁ಪ್ರತ್ಯುತ್ತರವಾಗಿ	-9.38403
84	-9.38472
▁ಅಗತ್ಯವಿದೆ	-9.38554
ನ್ನಾದರೂ	-9.38647
▁500	-9.38715
▁WhatsApp	-9.38754
ಬಿಡುವ	-9.38762
ದಾನ	-9.38959
▁ಗುಣದರ್ಜೆಯ	-9.38967
▁ನೋಂದಣಿ	-9.38967
▁ಸಾಕಷ್ಟು	-9.38967
qu	-9.3901
▁ಸೌ	-9.39018
▁ಸಸ್ಯ	-9.3916
ಕರಣ	-9.39165
▁ಆಲಯ	-9.39183
▁ಡೇಟಾ	-9.39198
ತೋ	-9.39223
ಥೆ	-9.39261
ಡೋ	-9.39262
▁ಆಧಾರ	-9.39313
tra	-9.39322
les	-9.39347
ುವವರು	-9.39436
▁ಲ್ಯಾ	-9.39446
▁ಎಲ್ಲಿ	-9.39519
▁ದಾಸ	-9.39584
▁ದಿನಗಳ	-9.39608
▁ಎಣ್ಣೆ	-9.39612
▁ಟಿವಿ	-9.39636
▁ನಿಜವಾಗಿಯೂ	-9.39668
▁ಹರಿ	-9.39691
▁ಸುತ್ತಲೂ	-9.39884
▁ಅವರಲ್ಲಿ	-9.39905
▁ಬಡ	-9.39989
▁ಪರಿಸರ	-9.40043
ear	-9.40074
ak	-9.4011
ೇಟ್	-9.40141
ವೈ	-9.40157
▁ತಪ್ಪ	-9.40171
▁ವಿಶ್ವ	-9.40199
ಡೀ	-9.40251
▁ಸ್ವಯಂಚಾಲಿತ	-9.40256
▁ಸ್ವೀಕರಿಸ	-9.40273
▁ಗುಡಾರ	-9.40347
▁ದೇವರೇ	-9.40438
gu	-9.40449
▁ಯೋಸೇಫನ	-9.40473
▁ದನು	-9.40534
XL	-9.40572
▁ಯೆರೂಸಲೇಮಿನ	-9.40627
wa	-9.40627
ಚಾ	-9.40661
▁ಸಾಗ	-9.40726
▁ಕಣ್ಣು	-9.40774
▁ನಷ್ಟ	-9.40798
▁ನ್ಯೂಸ್	-9.40867
▁ವೀಕ್ಷಣೆ	-9.40929
▁ವಿಶ್ವದ	-9.40961
▁ಗ್ಯಾ	-9.4099
▁ಮೇಲ	-9.41147
eng	-9.41198
▁ಪ್ಲೇ	-9.41212
2015	-9.41299
▁ಹೊತ್ತು	-9.41304
▁ಕವರ್	-9.4143
ಯಿಂದಲೂ	-9.4147
▁ಭಾಗಗಳು	-9.41518
▁ಜ್ಞಾಪಕ	-9.41561
ಕ್ಷನ್	-9.41588
ಮುಖ	-9.41594
0.00	-9.41675
▁ಶಾಲೆ	-9.41682
▁ನೋಡಿದ	-9.41693
ುವಿರಿ	-9.41723
bu	-9.41741
▁ಕಾರು	-9.41744
▁ಅನುಮತಿ	-9.41782
▁ವ್ಯರ್ಥ	-9.41786
▁ಮಾಂಸ	-9.41787
▁ಏನ	-9.41906
▁ವ್ಯವಹಾರ	-9.42001
▁ಇಳಿದು	-9.42002
▁ಪ್ರೀತಿಸ	-9.4207
▁ನಾಶಮಾಡ	-9.42108
▁ತೋರ	-9.42142
▁ಅಂತ	-9.42176
ಂದ್ರ	-9.42212
ನ್ನೆ	-9.42214
▁ದಹನಬಲಿ	-9.42221
▁ಪಾವತಿ	-9.42239
▁ಕೂಗ	-9.4225
▁ನಡೆದ	-9.42262
▁ಓದು	-9.42264
ty	-9.42277
▁ಮುಚ್ಚಿ	-9.42319
▁ಗುರು	-9.42349
ಿದ್ದನು	-9.42392
▁ನೀಡುವ	-9.42426
ಿರುತ್ತದೆ	-9.42441
с	-9.42442
ಚೀ	-9.42459
▁ಆಕಾಶದ	-9.42497
▁ಮಾತ	-9.42528
-6	-9.42589
ಕೆಟ್	-9.42608
▁ಗೇ	-9.42611
▁ಅಧ್ಯಯನ	-9.42663
▁ಚಟುವಟಿಕೆ	-9.42663
▁j	-9.42672
▁೧	-9.42684
nt	-9.42726
▁Sa	-9.4274
▁ನೋಡುವ	-9.42759
▁ಆಶೀರ್ವದಿಸ	-9.42885
▁Comment	-9.42898
▁ಮ್ಯಾಕ್	-9.43058
ಷೆ	-9.43099
▁ಹಲವಾರು	-9.43107
ಕೊಳ್ಳಿರಿ	-9.43132
ಲೊ	-9.43139
ನಿಗೂ	-9.43231
▁ಲೇವಿಯರ	-9.4329
▁ಪವರ್	-9.43334
▁ಲೈನ್	-9.43368
▁ಬಂದನು	-9.43376
ಲ್ಲೂ	-9.43489
ld	-9.43543
ಸೆಲ್	-9.43551
ಚಿತ	-9.43568
ace	-9.43646
ಕ್ಕೋಸ್ಕರ	-9.43676
▁ಬೆಂಕಿಯ	-9.43754
▁ಇತಿಹಾಸ	-9.43777
▁ತಂತ್ರಾಂಶ	-9.43777
▁ಎಂಬುದನ್ನು	-9.43793
▁ಗುಂಪು	-9.43796
ಶೋಧ	-9.43835
▁ಇವನ	-9.43895
ನೀಯ	-9.43912
ಿದ್ದೀರಿ	-9.43992
ಷ್ಠ	-9.44003
ಸೂ	-9.44064
▁ಮಾಡಿದರು	-9.44182
▁ಕೆಳಗಿನ	-9.44228
ಕೃತಿ	-9.44258
▁Casino	-9.44439
▁ಮತ್ತೊಂದು	-9.44464
▁ತನಗೆ	-9.44495
▁ಗುರುತು	-9.44712
▁ನಿಮ್ಮಲ್ಲಿ	-9.44728
ಡುವ	-9.44826
ಯಲ್ಲಿರುವ	-9.44851
▁ಆಲೋಚನೆ	-9.44903
ಶೆ	-9.44916
▁ವರುಷದ	-9.44964
▁ಪಕ್ಷ	-9.45001
▁ಬಟ್ಟೆ	-9.45004
ಚೆ	-9.45019
ಹೋಗಿ	-9.45042
▁ಅರಣ್ಯ	-9.45043
т	-9.4513
▁ತಂದೆಯಾದ	-9.45155
▁ಫಿಲಿಷ್ಟಿಯರ	-9.45159
▁ವಾಸ	-9.45254
▁ಎಷ್ಟು	-9.45271
▁ಬ್ಯಾಟರಿ	-9.45358
▁Tube	-9.45374
▁±	-9.454
▁ಕೊಟ್ಟನು	-9.45527
ನ್ನಿ	-9.45545
ಚರ್	-9.45562
▁ದೀರ್ಘ	-9.45585
▁ಪೂರೈಸ	-9.45585
-01	-9.45652
ಬರ	-9.45683
\	-9.45813
▁EUR	-9.45813
▁ಕಿವಿ	-9.45821
▁PM	-9.45869
ಟಿಕ್	-9.46014
▁ಹಿನ್ನೆಲೆ	-9.46042
2004	-9.46062
ase	-9.46092
ies	-9.46132
▁pro	-9.46144
▁ಮೋಟಾರ್	-9.46271
▁ಭದ್ರ	-9.4629
73	-9.46297
▁ಕಂಡು	-9.46315
ಷಾ	-9.46333
▁ನಿಗೆ	-9.46375
▁ತೋಟ	-9.46564
▁ಸೌಲನ	-9.46582
▁ವಿಂಡೋಸ್	-9.46686
▁ತಿರುಗ	-9.46703
ಢ	-9.46732
▁ಬರಮಾಡ	-9.46752
▁ಹಿಡಿಯ	-9.46802
▁35	-9.4683
ame	-9.46849
▁ಖರೀದಿ	-9.46883
ಚಾರ	-9.46929
▁ಕಠಿಣ	-9.46963
oc	-9.47056
▁ಸ್ಥಳೀಯ	-9.47084
▁PC	-9.47102
ಬೂ	-9.47169
"&	-9.47177
▁ಫಲಿತಾಂಶ	-9.47194
▁ನವೀಕರಿಸಲಾಗಿದೆ	-9.47203
▁ರಚನೆ	-9.47251
ವಾಗುತ್ತದೆ	-9.47318
▁se	-9.47369
▁ಪೇ	-9.47371
ಪಟ್ಟು	-9.47387
▁from	-9.47426
▁ಹೆಚ್ಚುವರಿ	-9.47432
▁ಗೊತ್ತ	-9.47451
ೇಷನ್	-9.47514
ice	-9.47522
▁ಬೆಳೆಯ	-9.47523
ಲ್ಡ್	-9.47626
▁ನೋಟ	-9.47639
▁ಠೇವಣಿ	-9.47659
▁ಆರಿಸಿ	-9.47689
ಬೇಡಿ	-9.47735
▁ಮುಕ್ತ	-9.47805
ಪತಿ	-9.47839
▁ಇರಲಿ	-9.47846
▁ಬಳಕೆದಾರ	-9.47931
ast	-9.47988
▁ಮೇರೆ	-9.48051
▁ಚೇ	-9.48074
ಎಮ್	-9.48118
▁ಬಾರ್	-9.48122
▁ಸರಾಸರಿ	-9.48125
ಗಿಂತ	-9.48172
▁ಸಮುದ್ರದ	-9.48178
ah	-9.48181
▁ಖರೀದಿಸ	-9.48206
ka	-9.4823
ಪೊ	-9.48301
ತ್ತಾ	-9.48311
ವರೆಲ್ಲರೂ	-9.48311
ಪೋ	-9.48333
▁ನಿರ್ವಹಿಸ	-9.48341
▁ಪರಿಗಣಿಸ	-9.4836
GB	-9.48375
ore	-9.48381
▁ದೇಶವನ್ನು	-9.48461
ಖಾ	-9.4852
ಷನ	-9.48663
tion	-9.4868
ವಾಗಿತ್ತು	-9.48761
▁ಪಡ	-9.48773
▁ದೃಢ	-9.4883
▁ಉಗುರು	-9.4883
▁ಸಿಟಿ	-9.48858
▁ಬಳಿ	-9.49037
೧	-9.49044
▁05	-9.49146
LE	-9.49174
▁ಮಾಡುವೆನು	-9.49183
ಾಗಿದ್ದರೆ	-9.4929
▁ಸೂಚನೆ	-9.4931
▁ನಾಚಿಕೆ	-9.49539
▁ಕತ್ತರಿಸ	-9.49549
▁ತಾಯಿ	-9.49584
ಯೇಲನ	-9.49604
▁ಕೊಳ	-9.49835
ಮೆಂಟ್	-9.49967
▁ಇತರೆ	-9.49995
▁ಸಾಮಾಜಿಕ	-9.50014
▁ಆಸಕ್ತಿ	-9.50015
ಟೀ	-9.50079
▁ನಿಶ್ಚಯವಾಗಿ	-9.50103
▁ಸರಿಯಾದ	-9.50117
▁ಉದಾಹರಣೆಗೆ	-9.50133
hat	-9.50152
▁ಬೀದಿ	-9.50292
▁Free	-9.50318
2016	-9.5036
▁ನೇಮಿಸ	-9.5037
▁ಹೃದಯವು	-9.50386
▁ಇದ್ದರು	-9.50388
ಡೊ	-9.50441
▁ಕುದುರೆ	-9.50494
▁ಮಗ	-9.50513
▁ಪ್ರಯೋಗ	-9.50577
▁ಗ್ರೇ	-9.50652
▁ಕಾಲದಲ್ಲಿ	-9.50667
▁ಕೆಂಪು	-9.50733
pdf	-9.50735
au	-9.50745
end	-9.50759
▁ಆಕೆಯು	-9.50819
▁ಅಕ್ರಮ	-9.50821
▁ತೆರಿಗೆ	-9.50834
ct	-9.50873
▁ಅಬ್ರಹಾಮನ	-9.50982
▁ಅರ್ಪಣೆ	-9.51214
▁Ho	-9.51241
tal	-9.51414
▁ಚರ್ಮ	-9.51415
▁ಮಾತುಗಳನ್ನು	-9.5147
ಗಳಿವೆ	-9.51476
▁ಹೇಳುತ್ತಾರೆ	-9.51478
pcs	-9.51479
▁ಅವಧಿ	-9.51513
ina	-9.51522
▁Vi	-9.51576
AL	-9.51598
▁ತಗ್ಗ	-9.51638
▁01	-9.51667
ಮೈ	-9.51743
▁ಒಳಗೊಂಡಿದೆ	-9.51757
▁ಮಾಡಿದ್ದ	-9.5177
▁ಬಳಸಲು	-9.51777
▁ತೋರಿಸು	-9.51889
▁ಹುಡುಕಿ	-9.51897
ಗೊ	-9.51901
▁ತೀರ	-9.51919
▁ವೇದಿಕೆ	-9.51941
▁ಪ್ರಕಾಶ	-9.5195
ide	-9.51962
▁ಉಳಿಸಿ	-9.52007
▁ಯೋಚಿಸ	-9.52007
▁Po	-9.52033
▁ಗುಡಾರದ	-9.52081
ರೆಂದು	-9.52105
▁ಕಂಪ್ಯೂಟರ್	-9.52183
▁ಸ್ಥಳಕ್ಕೆ	-9.52187
ist	-9.52214
ಲ್ಲವೋ	-9.52249
▁Be	-9.52316
ಪುರ	-9.52355
▁ಬಾಗಿಲ	-9.52387
ಿಟ್ಟು	-9.52421
▁ಸುರಕ್ಷಿತ	-9.52427
▁ಸಂಗೀತ	-9.52427
▁ಕರ	-9.52564
ಹಾರ	-9.52577
▁ಏನೂ	-9.52623
ort	-9.52669
▁ಬಿಳಿ	-9.52699
▁ಪ್ರಾರಂಭಿಸ	-9.52719
▁ಆಸ್ತಿ	-9.52722
▁ಅಭಿ	-9.5273
ಕೃತ	-9.52732
▁ಸಂದರ್ಭದಲ್ಲಿ	-9.52734
ದಾರರ	-9.52746
▁Bo	-9.52831
▁ಎಲೆ	-9.52854
ಶ್ಚ	-9.52862
▁ಕನಿಷ್ಠ	-9.52917
▁ಮೋಶೆಯ	-9.52938
▁ಇರುವದು	-9.53012
▁ಪ್ರವೇಶಪದ	-9.53164
▁ಸ್ನೇಹಿತರ	-9.53205
ಿದ್ದರಿಂದ	-9.53222
▁ಮಹಿಳೆಯರ	-9.53236
ೆಲ್ಲ	-9.53279
mp	-9.53362
▁ಕೌ	-9.53395
▁Online	-9.53409
▁ಸ್ವಾಗತ	-9.53412
▁ಪರಿಣಾಮಕಾರಿ	-9.53439
▁ಸ್ಪಷ್ಟ	-9.53479
▁ಹೊರತು	-9.53493
▁ಕಣ್ಣುಗಳ	-9.53503
my	-9.53547
▁ಲೈವ್	-9.53659
ಹೂ	-9.53728
ಿದ್ದವು	-9.5377
ಂಗಾ	-9.53818
▁ದಾಖಲೆ	-9.53836
▁ಎಂಬಿ	-9.53852
▁ಗ್ಯಾಂಗ್	-9.53886
▁(1)	-9.53898
▁ತಕ್ಕ	-9.53969
MS	-9.54109
▁ದ್ರಾಕ್ಷಾರಸ	-9.54151
▁ಜೈಲು	-9.54152
cl	-9.54166
▁ತಿಳಿದುಕೊಳ್ಳ	-9.54175
▁ದೇವರನ್ನು	-9.54271
ಲ್ಪಟ್ಟಿದೆ	-9.54302
ವಾಗಿರುತ್ತದೆ	-9.54475
▁ಮಳೆ	-9.54478
▁ಎಲೀ	-9.54493
▁ಮಹಿಮೆ	-9.5459
▁ಎಚ್	-9.5462
ಪಲ್	-9.54646
▁ಕೈಗಾರಿಕಾ	-9.54649
▁ಪೈ	-9.54678
▁ತಯಾರಿಸ	-9.54698
▁80	-9.54733
▁Hack	-9.54774
AT	-9.5479
▁ಪ್ರಿಯ	-9.54802
2012	-9.54966
ಬೀ	-9.54972
▁2010	-9.55066
sc	-9.55084
ಮಂ	-9.551
ನಾಗಿರುವ	-9.55113
▁BESCOM	-9.5515
▁ಕೈದಿಗಳ	-9.55152
ick	-9.55192
ಜಕ	-9.55222
▁ತೋ	-9.55334
ಡ್ಡ	-9.55356
▁ಪ್ರಾಂತ್ಯ	-9.55401
▁ಭಯಪಡ	-9.55452
▁ಕಟ್ಟಡ	-9.55498
br	-9.5555
ಗಳಿಂದಲೂ	-9.55582
▁ನಿಯಮಗಳು	-9.55582
▁ನೇರ	-9.55607
▁ಡೈ	-9.55695
ರಣ	-9.55812
▁ಬಹಳವಾಗಿ	-9.55849
▁ಗರಿಷ್ಠ	-9.55906
▁ಕಾಪಾಡ	-9.55933
▁ತಿಳಿದು	-9.56128
▁ಕಚೇರಿ	-9.56159
act	-9.5616
▁ಕಳೆದ	-9.56169
▁ಸರ್	-9.56265
▁09	-9.56336
▁ಡೇ	-9.56365
▁ರೈಲು	-9.56432
▁ಗುರುತಿಸ	-9.56478
ವೃತ್ತ	-9.56564
ಂಡೆ	-9.5658
▁ಮತ್ತಷ್ಟು	-9.56683
ಬೇಕೆಂದ	-9.56687
▁ವಿದ್ಯಾರ್ಥಿ	-9.56801
▁06	-9.5683
▁ಪ್ರಮಾಣಪತ್ರ	-9.56938
್ಮ	-9.56977
▁ಬೀಳ	-9.57005
▁ಕಾಣಿಕೆ	-9.57018
▁ನಿಖರ	-9.57082
▁ತಯಾರಕರು	-9.57112
▁ವಿನಿಮಯ	-9.57178
▁ರೈಸ್	-9.57208
▁ಒದಗಿಸುತ್ತದೆ	-9.57319
▁ಕ್ರೆಡಿಟ್	-9.57434
▁ಔಷಧ	-9.57443
ev	-9.57449
▁ಹೊರಡ	-9.57465
wi	-9.57548
▁ಚದರ	-9.57603
ುತ್ತಿದ್ದರು	-9.57676
▁ಫೋಟೋ	-9.57693
▁ಸ್ನೇಹಿ	-9.57905
ನಾವು	-9.5794
▁ಶೀರ್ಷಿಕೆ	-9.57949
IC	-9.57952
▁ಎತ್ತ	-9.58023
ಕೋಶ	-9.5809
▁ಕುಮಾರರು	-9.58195
▁ಉದ್ಯೋಗ	-9.58208
ಗೊಳಿಸುವ	-9.58316
ಹೆಚ್	-9.5838
ಲ್ಲೇ	-9.58402
▁ಇನ್ನಷ್ಟು	-9.58467
▁ತುಂಬ	-9.58492
▁ತಪ್ಪಿಸ	-9.58515
ಯಿಲ್ಲದ	-9.58606
ure	-9.58621
tri	-9.58658
▁ಜೀವನದ	-9.58714
▁ಮೃಗ	-9.58727
▁ಸಿಂಹ	-9.58741
▁ಪ್ರಭಾವ	-9.58802
▁ಊಟ	-9.58914
ಹೊಂದ	-9.58918
р	-9.58987
IS	-9.59069
▁ಮನುಷ್ಯರು	-9.59105
▁ಪೈಪ್	-9.59112
ಿಂದಲೇ	-9.59159
▁ಪ್ಲಾಸ್ಟಿಕ್	-9.59248
▁ಸಂಗತಿ	-9.5925
che	-9.59284
▁ಸೈ	-9.59487
▁ಕೆಲವರು	-9.59497
▁ಸ್ವಾಸ್ತ್ಯ	-9.5951
▁ಮದುವೆ	-9.59511
▁ಮಾತನ್ನು	-9.59525
ov	-9.59548
▁07	-9.59558
ಿಸಿದರು	-9.59566
▁ಹಬ್ಬ	-9.59577
ight	-9.59579
ದ್ದಾರೆ	-9.59591
▁ತಂದು	-9.59738
▁ಉತ್ತರಿಸಿ	-9.5974
▁ಸಾಧ್ಯ	-9.59758
▁ಚೌಕ	-9.59785
▁ಸಕಲ	-9.59792
ಾಗಿದ್ದರು	-9.59808
▁ಬೀಳುವ	-9.59944
▁ತೀರಿಸ	-9.5996
▁ಅಡಿ	-9.59976
▁ಹಿರಿಯರ	-9.60004
▁ಅಂದಳು	-9.60125
▁ಬಾಯಿ	-9.60155
MP	-9.60209
▁ಹನ್ನೆರಡು	-9.60299
▁ಹಾಕಿದ	-9.60307
▁ಬೆಲೆಪಟ್ಟಿ	-9.60331
iv	-9.60447
▁ಸುಲಭವಾಗಿ	-9.60607
pi	-9.60675
▁ದಿನದ	-9.608
▁ಸೆರೆ	-9.60825
▁ಸಂಭವಿಸ	-9.60829
int	-9.60937
sa	-9.60957
▁ಓದಿ	-9.6099
▁ರಥ	-9.61019
▁ಆದಕಾರಣ	-9.61095
▁ವಾಹನ	-9.61157
▁ಟಿಪ್ಪಣಿಗಳು	-9.61231
ತಕ್ಕ	-9.6124
kg	-9.61264
cc	-9.61297
▁ಬಲಿಪೀಠ	-9.61362
▁ಆಡ	-9.6137
MA	-9.61392
▁ಕಳ	-9.6147
▁+86	-9.61493
▁ಆಕೆಯ	-9.61494
CO	-9.61626
▁ಸಂಶೋಧನೆ	-9.61629
-0	-9.61652
▁ಬಳಕೆದಾರರ	-9.61673
ೈನ್	-9.61689
▁ಮರಳಿ	-9.61775
▁Wi	-9.61819
ಹನ	-9.61958
▁ಕಥೆ	-9.62045
▁1000	-9.62112
ಥಿ	-9.62114
▁ಪ್ರತಿಯೊಬ್ಬ	-9.62129
▁ದೀಪ	-9.62169
ಜೀವ	-9.62185
▁ನಡೆದು	-9.62402
`	-9.62435
▁ಭಾರತೀಯ	-9.62476
▁ಭಾರತದ	-9.6248
▁ಬಿಟ್ಟ	-9.62488
▁ಬರುತ್ತದೆ	-9.62534
▁ಹಾಡ	-9.62565
ree	-9.62589
ಿಸಲಾಗಿದೆ	-9.62651
▁ತೆರೆದ	-9.62696
▁ಪ್ರಯೋಜನ	-9.62706
▁ಯಜಮಾನನ	-9.62706
▁ಗೊ	-9.62734
du	-9.62745
ಮನ್	-9.62751
ಪಟ್ಟಿ	-9.62768
▁ವಸ್ತ್ರ	-9.62841
▁ಅಲ್ಲಿಂದ	-9.6285
▁ಮರೆಯ	-9.62912
▁ಗಣಕ	-9.62924
▁ಮಾಡಿಕೊಳ್ಳ	-9.62964
▁ಮಂಜೂಷ	-9.62977
▁ಪರೀಕ್ಷಿಸ	-9.62977
▁ಸಮೂಹ	-9.62977
▁ಸಂಪರ್ಕದಲ್ಲಿರಿ	-9.62979
▁ಅರ್ಧ	-9.62981
▁ವಲಯ	-9.6299
▁ಕಾಯಿ	-9.62995
ny	-9.63043
ಲ್ಪಡುವದು	-9.63071
▁ಸೌಲನು	-9.63179
▁ಅಳಿಸ	-9.63245
▁ಪರಿಪೂರ್ಣ	-9.63257
▁ಅನ್ನ	-9.6326
▁ಸಮಾಧಿ	-9.63271
tor	-9.63272
▁ಯಾಕೋಬನ	-9.63316
ಪೋರ್ಟ್	-9.63354
▁57	-9.63369
oll	-9.63403
ಸ್ಟಾ	-9.63454
▁ಮುಂಚೆ	-9.63521
ಥ್	-9.63587
▁ಹೇಳಿದ್ದ	-9.63593
▁ಮೋಶೆಗೆ	-9.6365
ಿಸಿಕೊಳ್ಳುವ	-9.6367
▁ವ್ಯ	-9.63679
▁ಶತ್ರು	-9.63697
▁ಭಾವಿಸ	-9.63774
▁ದೇಶಕ್ಕೆ	-9.63927
▁45	-9.63935
ಾತನು	-9.63939
AP	-9.64025
ಳಿಗೆ	-9.64057
▁ತೊಂದರೆ	-9.64091
ವಿದೆ	-9.6418
▁ಎಬ್ಬಿಸ	-9.64182
▁ಮಾಡಿಕೊಂಡ	-9.6432
▁ತಾಂತ್ರಿಕ	-9.64343
▁ಗೂಗಲ್	-9.64343
▁La	-9.64347
▁ವಿಶೇಷವಾಗಿ	-9.64375
▁ತೆಗೆಯ	-9.6438
▁ಗುಂಡಿ	-9.64386
▁ನಿಜ	-9.6443
▁ಐಗುಪ್ತದ	-9.64437
▁ಡ್ರಾ	-9.64495
ಕ್ಕು	-9.64544
▁ಹಕ್ಕು	-9.64592
ವರೆಲ್ಲರ	-9.64601
▁ಜಾಹೀರಾತು	-9.64618
▁ಎಂದಿಗೂ	-9.6462
ವನನ್ನು	-9.6464
▁ಕುಮಾರ್ತೆಯರ	-9.64693
▁ಸ್ವರ	-9.6484
▁ಐಫೋನ್	-9.64895
▁ಕೊಡು	-9.64965
▁ತಿಂದು	-9.64969
್ಯರ	-9.65002
▁Mi	-9.65044
▁ಪರ್	-9.65054
ಕ್ಟ್	-9.65089
0.5	-9.65095
▁ಪ್ರಕಟಣೆ	-9.65099
▁ವಸ್ತುಗಳ	-9.65117
▁ಉಲ್ಲೇಖ	-9.65172
▁ಆಡಳಿತ	-9.65172
RE	-9.65203
▁ತಪ್ಪು	-9.65208
▁ಪ್ರಸಾರ	-9.65227
▁ಕೂಡಿಸ	-9.65238
▁ಮೊದಲನೆಯ	-9.65256
▁ಕಣ	-9.65273
ster	-9.65305
lic	-9.65329
ಿರಲಿಲ್ಲ	-9.65335
▁ನೈಸರ್ಗಿಕ	-9.65449
▁ಯಾಜಕನು	-9.65459
▁ಅದಕ್ಕ	-9.65482
▁ಚೆನ್ನಾಗಿ	-9.65577
▁ಬೆಳ್ಳಿ	-9.65617
▁ವಿಚಾರಿಸ	-9.65669
ಲಭ್ಯ	-9.65719
▁ಸೌಂದರ್ಯ	-9.65728
ಗೊಂಡು	-9.65886
tt	-9.65912
▁ma	-9.6598
sion	-9.65991
ಾಗಿರಬೇಕು	-9.66032
▁ಉದಾಹರಣೆಗಳು	-9.66051
▁ಮಕ್ಕಳೂ	-9.66071
▁ತಾಯಿಯ	-9.66172
▁ಹಂಚ	-9.66222
tic	-9.6624
▁ಸಾಯುವ	-9.66284
▁ಬಾಗಲ	-9.66288
▁ಬೀಜ	-9.66466
out	-9.66507
ಬಹು	-9.66535
▁ವ್ಯಾ	-9.66594
▁ದಪ್ಪ	-9.66712
app	-9.66732
▁ಪ್ಲಸ್	-9.66733
ಲಾಗಿಲ್ಲ	-9.66796
ಾಧ	-9.66817
ಗೊಳಪಡಿಸುವುದ	-9.6685
▁ಹಿಂಬಾಲಿಸ	-9.6685
▁ಬಾಬೆಲಿನ	-9.6685
▁ಐಟಂ	-9.6685
▁ಸೆಂಟರ್	-9.66868
▁ಇದರಿಂದ	-9.66927
ಚಿತ್ರ	-9.67038
uk	-9.67046
▁ಬಂಗಾರ	-9.67056
▁ಅರಸುಗಳ	-9.67083
ext	-9.67088
-2018	-9.67155
ue	-9.67171
ಗೊಳಿಸಲು	-9.67223
▁ಕೇಳುವ	-9.67298
ಚರ	-9.67349
▁ಬೆಳ್ಳಿಯ	-9.67403
Hz	-9.67612
▁ಯಾವನಾದರೂ	-9.67701
▁ಮಾರ	-9.67708
▁ಸ್ಲಾಟ್ಗಳು	-9.67727
▁ಭಾರ	-9.67727
▁ಯಜ್ಞ	-9.67737
▁ಜಾಗ	-9.67746
▁ನೋಡಲು	-9.67811
ee	-9.67868
▁ಫ್ಯಾಕ್ಟರಿ	-9.67985
ಪಡಿಸಿದ	-9.67993
▁ಶೈಲಿ	-9.68029
▁ಹುಡುಕು	-9.68092
ಗ್ರಾ	-9.68122
▁ವಾಕ್ಯವು	-9.68146
▁ಜೆಟ್	-9.68187
▁ತಾನೇ	-9.6824
▁ಸರ್ವರ್	-9.6826
▁ಆಂಡ್ರಾಯ್ಡ್	-9.6827
▁ಲಭ್ಯವಿರುವ	-9.68271
ಗಿರುವ	-9.68399
▁ಪಿಸಿ	-9.68465
▁ಸಂಪನ್ಮೂಲ	-9.68557
▁ಸಾಫ್ಟ್ವೇರ್	-9.68557
▁ಅಪಾಯ	-9.68593
▁ಶ್ರ	-9.68621
line	-9.68636
▁ಜೇ	-9.68717
▁ಹೊಂದಿವೆ	-9.68721
▁ನಿಜವಾದ	-9.68735
ಲೋಕ	-9.68843
▁IP	-9.68843
▁ನಿಮಗ	-9.68863
▁ಟಾ	-9.68911
▁ಫೆ	-9.68941
▁ಬಲವಾದ	-9.68958
▁‘	-9.68998
ಲ್ಯಾಂಡ್	-9.69004
ek	-9.69132
▁ಸೆರೆಮನೆ	-9.69134
2017	-9.69157
▁ಆನಂದ	-9.69198
▁ನಂ	-9.69219
▁ಜೋ	-9.69268
▁ಸಿಕ್ಕ	-9.69272
ock	-9.6932
hen	-9.6933
▁ನನಗ	-9.69341
▁ಬೇಡ	-9.69415
▁ಸಮೀಕ್ಷೆ	-9.69422
ji	-9.69427
ೊಳಗ	-9.69509
form	-9.6952
set	-9.69523
▁ಮಗು	-9.69541
ುವುದ	-9.6955
▁ಬಿಡಿಸ	-9.69629
▁90	-9.6965
▁ಇಪ್ಪತ್ತು	-9.69698
▁ಉಳಿಯ	-9.69718
▁ನದಿಯ	-9.69718
▁ಆಗಿರುವ	-9.69731
▁ಎತ್ತಿ	-9.69829
Kannada	-9.69872
▁ಮುಟ್ಟ	-9.69877
ಗ್ರಹ	-9.69881
▁ಒಪ್ಪ	-9.69882
▁ಕೆಲಸದ	-9.69884
ava	-9.69911
▁ಕೊಟ್ಟು	-9.69982
▁ನಾಶವಾಗ	-9.7001
AS	-9.70026
do	-9.70171
▁ಉತ್ತರಕೊಡು	-9.70179
▁ವೈಶಿಷ್ಟ್ಯ	-9.70278
ತಂತ್ರ	-9.70284
▁ಮಂಡಳಿ	-9.70294
gi	-9.70322
ಸೋ	-9.70365
ಚನ	-9.70467
▁ಆಶ್ಚರ್ಯ	-9.70586
▁ಸ್ಟೀಲ್	-9.70586
▁ಲಿಂಕ್	-9.70596
▁ಅನುವಾದ	-9.70607
ದರಲ್ಲಿ	-9.70618
ಫರ್	-9.70632
▁Home	-9.70668
▁ಗ್ರಾಮ	-9.70788
ಸಾರ	-9.70811
ವಾಗಿವೆ	-9.70874
▁ಕಲ್ಪನೆ	-9.7088
ನ್ಯರ	-9.70888
har	-9.70999
▁ಶೋ	-9.7114
ೇಶನ್	-9.71159
▁ಎಂದೆಂದಿಗೂ	-9.71173
▁ಡಿಜಿಟಲ್	-9.71173
▁ಸೂಚಕ	-9.71174
▁ಫ್ಯಾಕ್ಸ್	-9.71196
▁ಯಾರಾದರೂ	-9.71226
ಯಾಗುವ	-9.71292
log	-9.71297
▁ಕಳುಹಿಸಿದ	-9.71315
▁ಮಲಗ	-9.7137
ುವುದರಿಂದ	-9.71388
ಪೇ	-9.71414
▁ಪಶ್ಚಿಮ	-9.71468
ಪಡುವ	-9.71487
dr	-9.71494
▁ಬಾಗಲು	-9.71547
▁ಪ್ರಾರಂಭ	-9.71612
▁ಕಣ್ಣ	-9.71682
೯	-9.71764
▁ವ್ಯಾಪಕ	-9.71765
▁ದಿವಸಗಳ	-9.71792
▁ಮೆಚ್ಚ	-9.71837
ome	-9.71847
▁ಎರಡೂ	-9.71872
▁ಅನ್ವಯಿಸ	-9.71942
▁ಬದಲಾಯಿಸು	-9.71995
▁ಕೂಡಿಸಿ	-9.72012
▁ತಾಣ	-9.7202
OS	-9.72031
ಗೊಳಿಸು	-9.72045
▁ವಾರ್ಷಿಕ	-9.72061
ಾದ್ಯಂತ	-9.72064
▁ಆಲಯದ	-9.72131
ger	-9.72143
ID	-9.72164
▁Li	-9.72248
ಂತಿ	-9.72248
▁ಹೊಂದಿದ	-9.72294
ance	-9.72297
▁FS	-9.7231
▁ಬಿದ್ದು	-9.72351
▁Ba	-9.72377
▁ಕೊಂದುಹಾಕ	-9.72485
▁ಉಂಟು	-9.72555
▁ಜಲ	-9.72573
▁ಸ್ವಸ್ಥ	-9.7264
▁ಸ್ಥಳಗಳಲ್ಲಿ	-9.72661
son	-9.72689
▁ಸರಿಯಾಗಿ	-9.72691
▁ಸೆರೆಯ	-9.72767
ಹೆ	-9.72849
▁ಬೊ	-9.72942
▁ಬೋಧಿಸ	-9.72982
▁ಫಾ	-9.73038
▁Mar	-9.73045
▁ಟೀ	-9.73089
300	-9.73105
▁ಪಡೆಯಿರಿ	-9.73112
ವಾದವುಗಳ	-9.73228
▁ಹೊಡೆದ	-9.7323
▁ಅರಸನಿಗೆ	-9.73238
▁ರಿವ್ಯೂ	-9.73257
▁ಸರಬರಾಜು	-9.73257
▁ವಿಷಯಗಳನ್ನು	-9.73267
ೋಪ	-9.73283
▁ನೋಡು	-9.73337
▁ಬೆಂಕಿ	-9.73378
▁ಇಬ್ಬರು	-9.73469
ಾಂಗ	-9.73473
▁ಇರಬೇಕು	-9.73515
▁ದುರ್	-9.73516
к	-9.73558
ಬೋರ್ಡ್	-9.7357
▁ಗೋಡೆಯ	-9.73572
▁ಬಳಸುವ	-9.73618
-2019	-9.73624
kn	-9.73647
ans	-9.73677
▁Cl	-9.73797
▁ಕೋರ	-9.73847
▁ಸಕ್ರಿಯ	-9.74004
▁ಲಕ್ಷಣ	-9.74018
ಟೈ	-9.74025
▁ಕೊನೆ	-9.74038
▁ಸ್ಯಾ	-9.74061
▁ಸಾರಿಗೆ	-9.74107
ಹೊಂದಾಣಿಕೆ	-9.74163
▁ಎದುರು	-9.7417
▁ಬಿಸಿ	-9.7418
▁ಇದ್ದನು	-9.74217
▁ಹಚ್ಚೆ	-9.74314
▁ಸರ್ವ	-9.74364
▁ಯೆರೂಸಲೇಮಿನಲ್ಲಿ	-9.74408
▁ಅಮೆರಿಕ	-9.74467
▁ವ್ಯಾಪ್ತಿ	-9.74468
800	-9.74525
▁ಕಲೆ	-9.74552
ಬೈ	-9.74592
▁ಅಂತರ	-9.74603
▁ಮಕ್ಕಳನ್ನು	-9.74613
▁ಅಧಿಕ	-9.7465
▁ಸುಡ	-9.74773
▁ಕುಮಾರ	-9.74914
▁ವಿದ್ಯಾರ್ಥಿಗಳು	-9.74917
▁ಧನ್ಯವಾದಗಳು	-9.74924
ಟ್ವೀಟ್	-9.75079
ಕ್ತಿ	-9.75091
▁ನೆಲೆ	-9.75146
▁ಮೆಚ್ಚಿನ	-9.75158
▁ಸಹೋದರ	-9.75261
▁ನೀಲಿ	-9.75332
▁ಬಾಕ್ಸ್	-9.75379
▁ಸಹೋದರನ	-9.75381
▁ಪರವಾನಗಿ	-9.75385
▁ಮಂದೆ	-9.75399
▁ಹೃದಯದಲ್ಲಿ	-9.75405
▁ಇದ್ದವು	-9.75414
lan	-9.7549
▁ಸಂಘ	-9.75513
▁300	-9.75629
▁ಗ್ರಾಹಕರಿಗೆ	-9.75694
▁ದ್ರಾಕ್ಷೇ	-9.75695
▁ಪ್ರಾಣವನ್ನು	-9.75719
▁ಮೇಘ	-9.75822
▁ಪ್ರಯತ್ನ	-9.75828
ಪ್ರಾ	-9.7587
▁ಕಡತದ	-9.75954
ಶೀಲ	-9.7597
▁ಹೇಳುತ್ತೇನೆ	-9.76005
▁ರಾಜ್ಯದ	-9.76031
fl	-9.761
▁ನೇರವಾಗಿ	-9.76134
▁ಪಾರ್ಕ್	-9.7626
ಗಡೆ	-9.76306
▁ಹೂವಿನ	-9.76351
ಯಲ್ಲಿಯೂ	-9.76373
▁ಹಾರ	-9.76378
▁ಅಬೀ	-9.76392
ಸ್ಥಾನ	-9.76415
ನ್ನಾಗಲಿ	-9.76429
ನಿಯಾ	-9.76453
▁ದಾಟಿ	-9.76469
-7	-9.76491
▁ಪವಿತ್ರ	-9.7662
▁***	-9.76621
▁ಫೇಸ್ಬುಕ್	-9.76621
▁title	-9.76621
▁ಗುಪ್ತಪದ	-9.76622
ಫೇ	-9.76624
▁ಚಕ್ರ	-9.76628
▁ಅವಳನ್ನು	-9.76645
▁ಸಬ್ಬತ್	-9.76701
az	-9.7673
▁ಬದಲಾಯಿಸಲು	-9.76742
▁ವಿವರಿಸ	-9.76782
ಾನನ	-9.7679
್ಯನ	-9.76807
▁ನಿವಾಸ	-9.76858
ದಿರುವ	-9.77015
▁ವದು	-9.7709
▁ಹೊರಟ	-9.7718
▁ನಿರೀಕ್ಷಿಸ	-9.77245
▁ಶಿಲೀಂಧ್ರ	-9.77245
▁ಈಗಾಗಲೇ	-9.77246
▁ನೀತಿವಂತನ	-9.77375
ಾರ್ಥ	-9.77412
▁ವಾಕ್ಯವನ್ನು	-9.7753
▁ಸಿಂಹಾಸನ	-9.77559
ml	-9.77582
▁ಸೇರಿದಂತೆ	-9.77602
▁ಪಂಪ್	-9.77621
▁ಸಾಧಿಸ	-9.77718
▁ಟ್ಯಾಗ್ಗಳು	-9.77867
▁ಹೆಸರಿನ	-9.77869
▁ಸ್ಟಾರ್	-9.77922
▁ಗೋಡೆ	-9.77954
▁ದಾನ	-9.78047
▁ಕೀಲಿ	-9.78172
▁ಕಾಮೆಂಟ್	-9.78176
▁ವಿಶ್ರಾಂತಿ	-9.78189
▁ಎರಡನೇ	-9.78227
▁ಬಹಳಷ್ಟು	-9.78247
▁ಕತ್ತೆ	-9.78297
▁ಶತ್ರುಗಳ	-9.78312
ble	-9.78414
▁ಓಡಿ	-9.78434
▁ಇನ್ನೊಂದು	-9.78505
▁month	-9.78506
ಬ್ರ	-9.7851
▁ಯಾವುದ	-9.78582
▁ಹೊಂದುವ	-9.7865
ಕ್ಯಾ	-9.78714
▁ದುರ	-9.78782
▁ಹೆಸರಿನಲ್ಲಿ	-9.7879
▁ಝ	-9.78831
▁ಹೊಡೆದು	-9.78855
ಎಚ್	-9.78881
▁ಗಾಯ	-9.78966
▁ನೀಡಲು	-9.78978
▁ಫಲಕ	-9.79001
▁ಯುದ್ಧಮಾಡ	-9.79031
EN	-9.79076
▁42	-9.79107
▁ಸೇವೆಗಳು	-9.79125
▁ಎದುರಾಗಿ	-9.79147
ಿರಬಹುದು	-9.79148
cn	-9.79149
▁120	-9.7929
▁ತಾವು	-9.79296
ಲ್ಪಟ್ಟಿತು	-9.79345
rd	-9.79392
▁ಶುಲ್ಕ	-9.7946
▁ಜನರೇಟರ್	-9.79461
ವಿರುವ	-9.79489
▁ವಾಸಮಾಡ	-9.7953
▁ತಲುಪ	-9.79651
ಿದ್ದರೂ	-9.79657
▁ಹುಡುಕುತ್ತಿರುವ	-9.79796
ಸ್ಕರ	-9.79815
-05-	-9.79838
iz	-9.79903
▁ಪೂರೈಕೆದಾರರು	-9.79952
-19	-9.80041
ವರೇ	-9.80066
▁ಎಫ್ರಾಯಾಮ	-9.80102
▁search	-9.80103
▁ಯೋಹಾನ	-9.80105
▁ಸಾಧ್ಯವಿಲ್ಲ	-9.80122
ake	-9.80162
air	-9.80192
▁ಏಕೆ	-9.80249
▁We	-9.80289
▁ಶಾಖ	-9.80295
▁ಬೆಳಕಿನ	-9.80314
▁Bit	-9.80432
ುತ್ತಿದ್ದಾರೆ	-9.80463
▁that	-9.80467
▁ಬೀಟಾ	-9.80473
▁ಪ್ರಾಯ	-9.80493
ಪೀ	-9.80661
▁ಉತ್ಪನ್ನಗಳ	-9.80704
ಲ್ಪಟ್ಟು	-9.80721
▁ಯಜ್ಞವೇದಿಯ	-9.80749
▁ಬಳಸಿಕೊಂಡು	-9.80881
▁po	-9.80896
▁ಉರಿಯ	-9.80937
▁ಯೇಸುವಿನ	-9.80947
2013	-9.80954
▁ಹಿಂದೆಯೇ	-9.80996
▁ಸ್ತೋತ್ರ	-9.81073
▁ಪೌಲನ	-9.81074
TS	-9.81114
use	-9.81133
▁ಕ್ಲಾ	-9.81148
RA	-9.81219
▁ಸುಳ್ಳು	-9.81233
ಾತ್ಮ	-9.81242
▁ಆರಿಸ	-9.81313
▁US	-9.81371
▁ಅಂಗಡಿ	-9.81377
▁ಕಡಿದು	-9.81403
▁ಮಾರ್ಗದರ್ಶನ	-9.81443
▁ರಾಷ್ಟ್ರೀಯ	-9.81445
▁ಸಿದ್ಧಮಾಡ	-9.81471
▁ತನಕ	-9.81485
▁ವಾಸಿಸುವ	-9.81558
▁100%	-9.81603
ens	-9.81676
▁ರಾಷ್ಟ್ರ	-9.81697
old	-9.81703
cre	-9.81716
dy	-9.81719
▁Karnataka	-9.81726
▁ರಚಿಸಲಾದ	-9.81756
OR	-9.81764
▁ಮುದ್ರಿಸಲು	-9.81818
ಗೇ	-9.81825
▁ಪ್ರಕಟ	-9.81826
ಬಂದ	-9.81883
▁ಕೂದಲು	-9.81885
own	-9.81909
▁ವ್ಯಕ್ತಿಯ	-9.81986
ನಾಗಿದ್ದಾನೆ	-9.81993
▁ಖಂಡಿತವಾಗಿ	-9.82054
▁ಕುರಿಮರಿ	-9.82058
ದಾಯಕ	-9.82113
▁ago	-9.82113
▁ತಕ್ಕೊಳ್ಳ	-9.82122
▁ಗಂ	-9.82157
ಸ್ತ್ರೀ	-9.82182
;&	-9.82222
▁ಪೂ	-9.82376
▁ಇಂಟರ್ನೆಟ್	-9.82383
▁Bonus	-9.82383
▁ಹಸಿರು	-9.82391
▁33	-9.82404
ಗಳೆಲ್ಲಾ	-9.82421
ವೆಲ್ಲಾ	-9.82436
0,000	-9.82468
IT	-9.82478
ner	-9.8248
▁ಬಯಸಿದರೆ	-9.8248
▁ಗಿಡ	-9.82613
con	-9.8263
dia	-9.8263
ಚಾರ್	-9.8263
▁'%	-9.82648
top	-9.82662
sta	-9.82705
ಲೆಟ್	-9.82721
ಹೋಯಿತು	-9.82725
ವೆಂಬ	-9.82727
▁ಸೂಪರ್	-9.82738
▁ಇರುತ್ತದೆ	-9.82765
ಲಂ	-9.82798
▁ಸಮಾಜ	-9.82858
ja	-9.82944
▁ಪ್ರಯತ್ನಿಸ	-9.82956
▁ದಿನಗಳಲ್ಲಿ	-9.83014
▁ನೂರ	-9.83045
▁ಉಕ್ಕಿನ	-9.83045
▁ಚೀಲ	-9.83055
▁ಕರಕೊಂಡು	-9.83092
▁ಕತ್ತಿಯಿಂದ	-9.83098
▁ನಿಯಮಿತ	-9.83123
gmail	-9.83154
ರ್ಥ	-9.83176
▁ಪ್ಯಾಕ್	-9.83194
▁ಎಣಿಸ	-9.83236
ವರ್ಡ್	-9.83272
▁ಪೂರೈಕೆ	-9.83299
▁150	-9.83337
▁ಬಳಕೆಯ	-9.83338
ಸಮ	-9.83362
▁ಕಬ್ಬಿಣ	-9.83376
tu	-9.83389
are	-9.83471
ನಿಕ್	-9.83525
ಕೊಳ್ಳಬೇಕು	-9.83656
▁ಪುನರ	-9.83702
▁ಟೇಬಲ್	-9.83711
ara	-9.83745
▁ಪಾಲಿ	-9.83754
▁ವರ್ಗಗಳು	-9.8391
▁ನೀರನ್ನು	-9.83953
▁ಬಳಸಬಹುದು	-9.83973
▁ಕರ್ತ	-9.84007
▁ತಂದೆಯು	-9.84044
▁ಧರ್ಮ	-9.8405
ET	-9.84126
ವರಲ್ಲಿ	-9.84167
ುವುದರ	-9.84175
▁ಹೆಸರ	-9.84176
▁ವಿವರಗಳು	-9.84225
ಲ್ಲೆಲ್ಲಾ	-9.8427
▁your	-9.8427
ction	-9.8429
ವೊ	-9.84327
pm	-9.84394
ish	-9.84398
uck	-9.84407
▁ಅಳತೆ	-9.84415
▁ಸಮಾ	-9.84461
▁OF	-9.84483
▁ಕಣ್ಣುಗಳು	-9.84529
▁ತಿನ್ನುವ	-9.84602
▁ಅನಾ	-9.84602
▁ಗಣ	-9.8463
▁Ad	-9.84658
ೌಂಡ್	-9.84705
ಯನಾದ	-9.84716
▁ತ್ವರಿತ	-9.84716
▁ಕೇಳಿದಾಗ	-9.84733
ನಿಮ್ಮ	-9.84737
▁ಹರಡ	-9.84739
▁Dr	-9.84806
▁con	-9.84812
ಲ್ಪಡುತ್ತದೆ	-9.84824
▁Le	-9.84876
▁ಕೈಗೆ	-9.84911
2014	-9.8498
CA	-9.85043
ಲ್ಲವೇ	-9.85049
▁ಇಲಾಖೆ	-9.85054
▁ಹಿಡಿದ	-9.85147
▁ಹಾಡು	-9.85174
ಲೋನ್	-9.85253
ತ್ತೇ	-9.85272
ಂಟೆ	-9.853
▁ಆಕಾರ	-9.85351
ಕೊಂಡಿದ್ದ	-9.85371
ವಾಗಿದ್ದ	-9.85379
▁ಆರ್ಕೈವ್ಸ್	-9.85393
kannada	-9.85398
▁ಯೋಗ್ಯ	-9.85412
▁ಮಾಡುವುದು	-9.85497
▁ಎತ್ತು	-9.85554
▁ನುಡಿ	-9.8561
▁ಚಿಹ್ನೆ	-9.85733
▁ಅಳವಡಿಸ	-9.85733
▁ಆಜ್ಞಾಪಿಸ	-9.85839
ಯುಕ್ತ	-9.85898
ಟಲ್	-9.85967
▁ಸ್ತಂಭ	-9.86077
▁ಬದಲಿ	-9.86137
▁ಕಂಡುಕೊಂಡ	-9.86183
▁ಅವಳಿಗೆ	-9.86221
▁ಹೋರಿ	-9.86294
▁ಅಂಗಳ	-9.86323
ಂಧ	-9.86335
ರಹಿತ	-9.86344
ನಮ್ಮ	-9.86377
▁ಸರಕು	-9.86402
▁ಕೆಡಿಇ	-9.86417
-02-	-9.86425
▁ಪ್ರತ್ಯೇಕ	-9.86472
▁ಬಂಗಾರದ	-9.86511
▁ಇವುಗಳನ್ನು	-9.86547
▁XS	-9.86624
ುತ್ತಿರುವಾಗ	-9.86652
▁ಇಂದಿನ	-9.86693
▁ಸ್ಟ್ರೀಮಿಂಗ್	-9.8676
▁ಉಚಿತವಾಗಿ	-9.86827
ence	-9.86851
▁ಕೆಡವ	-9.86891
TC	-9.87029
ನೆಂಬ	-9.87089
▁ಪಾತ್ರ	-9.871
GenericName	-9.87105
®	-9.87105
▁ಸಂದರ್ಶಕ	-9.87105
ಪಾಯಿಂಟ್	-9.87115
▁ಸಂಯುಕ್ತ	-9.87152
▁as	-9.87201
ವರೆಗೂ	-9.87237
ರಾಜ	-9.87302
▁Ar	-9.87392
▁ಲಭ್ಯವಿದೆ	-9.87452
ಚ್ಛ	-9.87455
▁XXX	-9.87463
▁ಕಾಲಾವಧಿ	-9.87464
1.0	-9.87504
▁ಗರ್ಭ	-9.87599
▁ತೇ	-9.87725
▁ಮೇಲಕ್ಕೆ	-9.87726
ಿರಬೇಕು	-9.87811
▁ನೀತಿವಂತರ	-9.87814
▁ಮಾರ್ಗವನ್ನು	-9.87887
▁ಬಾಧ್ಯತೆ	-9.87979
▁ಪ್ರಿ	-9.88043
▁are	-9.88084
▁ಪ್ರಮಾಣದ	-9.88129
ಿಲ್ಲದೆ	-9.88134
▁ಪ್ರಕಟಿಸ	-9.88139
▁ಸ್ವಾಧೀನ	-9.88147
▁ಅನ್ನುತ್ತಾನೆ	-9.88195
▁ವಿರೋಧ	-9.88317
▁ಬೆಳಕ	-9.8835
▁ದೇಹದ	-9.88414
▁ಉದಯ	-9.88475
stitute	-9.88497
▁ಸೋರಿಯಾಸಿಸ್	-9.88497
▁SKU	-9.88497
▁ಟ್ರೇ	-9.88511
್ಯಾಕ್	-9.88566
ವ್ಯಾ	-9.88608
ಮ್ಯಾ	-9.88729
▁ಕೋರ್ಸ್	-9.88786
ಛ	-9.88825
▁ವಾಸವಾಗಿದ್ದ	-9.88828
ಬುದ್ಧಿ	-9.88843
▁ತೃಪ್ತಿ	-9.88847
▁ಭವಿಷ್ಯ	-9.88847
▁ಎಂಬುದು	-9.88853
▁ಅಲಂಕಾರಿಕ	-9.88869
▁ವಾಸಿಸ	-9.88876
600	-9.88914
▁ಕೃಪೆಯ	-9.88922
2.5	-9.88955
▁ಮಾಡಿದರೆ	-9.88961
rs	-9.89021
ಹೇ	-9.89041
ಯಾಗಿರುವ	-9.89073
ಲಾಗ್	-9.89086
▁ಪುಟಗಳು	-9.89099
ನಾಗಿದ್ದನು	-9.891
▁ಆರ್ಥಿಕ	-9.892
▁ಪ್ರಸಿದ್ಧ	-9.892
▁0086-	-9.892
▁ನೆನಪಿ	-9.89215
▁ಐಗುಪ್ತದೇಶ	-9.89218
▁ಕಡತಕೋಶ	-9.89224
▁ಸಂಸ್ಥೆಯ	-9.89237
▁ಚರ್ಮದ	-9.89267
▁ಚೀಟ್	-9.89296
▁ಪಟ್ಟಣಗಳ	-9.89298
▁ಕೂಗಿ	-9.89332
ran	-9.89358
▁ವಾಸ್ತವ	-9.89391
▁ಅಥವ	-9.89409
▁ಬೆಂಕಿಯಿಂದ	-9.89456
ok	-9.89463
als	-9.89504
▁ವ್ಯವಸ್ಥಾಪಕ	-9.89553
ಾಡುವ	-9.89557
▁ಹಾರ್	-9.89559
ವಾಗಿದ್ದು	-9.89559
▁ಕೋಟೆ	-9.89569
▁ಟ್ರಾ	-9.89607
▁ಮೇಲಿರುವ	-9.89688
▁ಸಮಾನ	-9.89736
SP	-9.89765
▁ಪರಿಚಯ	-9.89822
▁ಕಾರ್ಯಾಚರಣೆ	-9.89907
▁ನಿರೀಕ್ಷೆ	-9.89907
೩	-9.89908
▁ಶ್ರೇಷ್ಠ	-9.89908
▁ಆರಾಧಿಸ	-9.89908
▁ಬಾಡಿಗೆ	-9.89912
ED	-9.89918
ರಿಂಗ್	-9.89962
▁do	-9.90031
▁ದುಷ್ಟರ	-9.90236
ಔ	-9.90258
▁ಪ್ರಶಸ್ತಿ	-9.90263
▁ಟ್ಯಾಬ್ಲೆಟ್	-9.90263
▁ಹೊಡೆಯ	-9.90268
▁ಸೌಲಭ್ಯ	-9.90274
▁ದೇವಾಲಯ	-9.90294
hy	-9.90314
▁ಸ್ತ್ರೀಯ	-9.9035
▁ಸೃಷ್ಟಿಸ	-9.9039
▁ಶ್ರೇಣಿ	-9.90621
▁ಎದುರಿಸ	-9.90626
▁ಎರಡನೆಯ	-9.90637
ಬುಕ್	-9.90688
ವಾಹ	-9.90855
CE	-9.90887
▁ಚಿತ್ರಗಳನ್ನು	-9.90898
▁ಚಲನಚಿತ್ರಗಳು	-9.90944
ion	-9.90958
▁ಸಂತಾನ	-9.90999
▁ಹೆದರ	-9.91006
▁ಯುರೋಪ್	-9.91087
▁ಇಂತಹ	-9.91156
▁ಪದವಿ	-9.91166
▁ಸ್ಥಳವನ್ನು	-9.91191
▁ದಿವಸಗಳಲ್ಲಿ	-9.91226
▁ಪತ್ರಿಕೆ	-9.91255
▁(12	-9.91277
್ಯಾಂ	-9.91285
▁ನೂರು	-9.91289
▁ಗೌರವ	-9.91334
▁ನಿರ್ಧರಿಸ	-9.91339
▁ಬ್ಲಾಕ್	-9.9134
▁All	-9.91397
▁ಕರೆದ	-9.91404
▁ಪೊ	-9.91427
▁Su	-9.91467
▁ಪ್ರಧಾನರ	-9.91476
▁ಕೊಂಡಿ	-9.91493
▁ಮನೆಯನ್ನು	-9.91513
▁sa	-9.91524
ೋನಿನ	-9.91643
▁ಅಹೀ	-9.91666
▁ಘಟನೆ	-9.917
▁ವೈದ್ಯಕೀಯ	-9.917
▁ಧೂಪ	-9.91702
▁ಹೃದಯದ	-9.91703
▁ಸಂಪಾದಿಸ	-9.91711
▁ನದಿ	-9.91716
▁ಪಟ್ಟಣದಲ್ಲಿ	-9.91745
▁ಹೀಗೆಯೇ	-9.91771
ೆಂದರೆ	-9.91794
▁ಹೆಂಡತಿ	-9.91821
▁ಸಂವಾದ	-9.91984
0.1	-9.92045
▁ವಿರೋಧಿ	-9.92049
▁ಕರೆದು	-9.92051
▁ಕಾರ್ಯನಿರ್ವಹಿಸ	-9.92062
▁ಹಾಸಿಗೆ	-9.92066
▁ತಂತಿ	-9.9215
▁ತಮ್ಮನ್ನು	-9.9217
▁ಹಾಕು	-9.92175
▁ಪಾಕವಿಧಾನ	-9.92426
▁ಜಾಗತಿಕ	-9.92426
▁ಸುನ್ನತಿ	-9.92427
▁start	-9.9243
▁ಕಳುಹಿಸಿದನು	-9.92598
pro	-9.92631
▁ಬಿತ್ತ	-9.92645
ಏ	-9.92648
▁Lo	-9.92674
ಮಾರ್	-9.92704
▁2000	-9.92737
▁ಐಶ್ವರ್ಯ	-9.92791
▁ಸಲಕರಣೆ	-9.92791
▁ಉಡುಪು	-9.92791
▁ಕಾಲೇಜು	-9.92791
▁ಸಂವಹನ	-9.92791
anium	-9.92791
▁Video	-9.92791
ಪತ್ರ	-9.92811
▁ಅಡಗಿ	-9.92839
site	-9.92847
▁ರೆಕ್ಕೆ	-9.92978
▁ಆಶೀರ್ವಾದ	-9.93157
▁ಕೊರತೆ	-9.93178
-04	-9.93187
▁action	-9.93189
▁ಉಪಯೋಗಿಸ	-9.93199
▁ಒತ್ತ	-9.93223
▁ತಿಂಗಳಿನ	-9.93228
▁ಮನಸ್ಸು	-9.93232
▁ತಯಾರ	-9.93249
ari	-9.93266
▁ಪಾಪಮಾಡ	-9.93278
▁ಸೇವಕನಾದ	-9.9332
EL	-9.93434
▁ಫ್ರ	-9.93492
▁ತ್ತಾನೆ	-9.93795
▁ಮಿತಿ	-9.93832
▁Con	-9.93871
▁ದೂತರ	-9.93894
▁ಮೊದಲುಗೊಂಡು	-9.93921
▁ಗಾಳಿ	-9.93965
ಕರ್ತನು	-9.9403
US	-9.94074
▁ಮಾಡಿದಾಗ	-9.94076
▁ಅನುಭವಿಸ	-9.9409
-03-	-9.94107
-22	-9.94132
▁ನಿನಗ	-9.94178
ುದಿಲ್ಲ	-9.94193
▁ಸಿಗ	-9.94196
ಿಸಲ್ಪಟ್ಟ	-9.94211
▁ಎಳೆ	-9.94262
▁ನವೀಕರಣ	-9.94265
▁ಖಾಲಿ	-9.94274
han	-9.94293
ಗೊಳಿಸಲಾಗಿದೆ	-9.94312
▁ಸಿಕ್ಕಿ	-9.94323
▁ಪ್ರಮಾಣೀಕರಣ	-9.94328
▁ನೆಟ್	-9.94354
ನ್ನಾ	-9.94475
▁ಮಗನನ್ನು	-9.94505
ft	-9.94507
▁ಹೆಸರಿ	-9.94509
▁ಆದಾಯ	-9.9459
ಚನೆ	-9.94599
▁ಸ್ಮಾರ್ಟ್	-9.94636
▁ಸಂಗ್ರಹಿಸ	-9.94641
▁ಮೂವ	-9.94713
▁ಸೂರ್ಯನ	-9.94716
▁ವಿಮರ್ಶೆ	-9.94751
▁ಯೆರೂಸಲೇಮಿಗೆ	-9.94787
▁ಬಣ್ಣಗಳು	-9.94813
▁ಆಗಿತ್ತು	-9.94819
▁ಗ್ರಹಿಸ	-9.94822
▁ನೆಲ	-9.94849
400	-9.94899
▁ವಿಶಿಷ್ಟ	-9.95009
▁ಎಂಜಿನ್	-9.9501
▁live	-9.95017
▁ಪ್ರಭು	-9.95027
▁ಯೆರೂಸಲೇಮ	-9.95044
▁ಗಂಟೆ	-9.95045
▁ಭಾಷಾ	-9.9506
ಶನ್	-9.95088
▁ನಾಯಕ	-9.9517
ದೇವರ	-9.95175
▁ಕೇಳಲು	-9.95288
ವಾದದ್ದು	-9.95316
▁HTTP	-9.95383
▁Namibia	-9.95383
▁ಸುಧಾರಿಸ	-9.95384
▁ಹಣವನ್ನು	-9.95553
ಿರುತ್ತವೆ	-9.95553
▁ವಾಸ್ತವವಾಗಿ	-9.95559
ೆನೆಂದು	-9.95567
▁ಹತ್ತಿ	-9.95768
▁ಹಿಂದಕ್ಕೆ	-9.95768
▁ಸ್ವತಂತ್ರ	-9.95778
▁ಸಾಧ್ಯವಾಗಿಲ್ಲ	-9.95783
▁ಭರವಸೆ	-9.95837
atch	-9.95898
ಾರ್ಡ್	-9.95899
-15	-9.95953
ಿಸಬಹುದು	-9.9597
▁ಊಟದ	-9.96049
ವರಾದ	-9.96055
▁ಶಾಪ	-9.96133
в	-9.96137
▁ಸಮುವೇಲನ	-9.96137
▁ಅವಶ್ಯಕತೆ	-9.96137
ಪಾರ್ಶ್ವ	-9.96138
▁ಕ್ಷಮಿಸ	-9.96142
▁ವದಕ್ಕೆ	-9.9616
red	-9.9621
▁Hu	-9.96223
▁ಜನರೆಲ್ಲರ	-9.96237
▁ಕೆಟ್ಟತನ	-9.96241
ರಷ್ಟು	-9.96278
▁ತೆಗೆದುಕೊಂಡ	-9.96281
ಾನನು	-9.96321
▁ಸಹಕಾರ	-9.96321
▁ನೆಲದ	-9.96364
▁TRANSLATORS	-9.96515
ಬಹುದಾಗಿದೆ	-9.96516
▁ಖಚಿತಪಡಿಸಿಕೊಳ್ಳ	-9.96519
▁ಎಲ್ಲರೂ	-9.96524
▁ಭಾವನೆ	-9.96524
▁ಪ್ರಯತ್ನಿಸಿ	-9.96627
▁ಇಂಥ	-9.96712
▁ತಂದೆಗಳ	-9.9672
▁ಹುಡುಗ	-9.96791
▁ಹೊಂದಿರ	-9.96824
▁ಕಡತಗಳನ್ನು	-9.96862
▁Gu	-9.96875
▁ಸಂದೇಶವನ್ನು	-9.96882
ವಿಲ್ಲದೆ	-9.96894
▁ಅಪ್ಲೋಡ್	-9.96896
ನೋಡಿ	-9.9694
▁ಬಲ್ಲೆ	-9.96952
▁ನಕಲಿ	-9.96963
ಕಟ್ಟ	-9.97021
▁so	-9.97137
▁ಹಾನಿ	-9.97197
▁ದ್ವೀಪ	-9.97277
▁ಮುದ್ರಣ	-9.97278
▁ಆಯಾಮ	-9.97285
▁ಅಮೇರಿಕಾದ	-9.974
ಟೆಡ್	-9.97414
▁ಹೃದಯವನ್ನು	-9.97467
▁ಬರಹ	-9.97468
▁ವಿಚಾರ	-9.97499
ook	-9.97536
▁ಹೊಂದಿದ್ದ	-9.97537
▁ವೀಕ್ಷಿಸಿ	-9.97537
▁ರೊಟ್ಟಿಯ	-9.97607
▁ಕೊಂಡಾ	-9.97624
▁ಕಸ್ಟಮ್	-9.97661
▁ಉಡುಗೆ	-9.97661
▁ಆಣೆ	-9.97699
▁ರಕ್ತವನ್ನು	-9.97717
▁ಸಾಧ್ಯವಾಗುತ್ತದೆ	-9.97771
▁ಸಹಾಯಕ	-9.97937
೫	-9.98045
л	-9.98045
▁ನ್ಯಾಯತೀರಿಸ	-9.98045
view	-9.98046
▁ವಿಡಿಯೋ	-9.98046
▁dur	-9.98082
mail	-9.9815
▁ಸೊಲೊಮೋನನ	-9.98186
▁2009	-9.98328
▁ಸಲಹೆಗಳು	-9.98352
▁ನಿದ್ರೆ	-9.98432
heng	-9.98472
ಹಾಕಿ	-9.98477
▁ಬ್ಯಾಂಕ್	-9.98494
▁ವ್ಯಾಸ	-9.98526
▁ಸೇವೆಯನ್ನು	-9.98649
▁ಯಾಜಕ	-9.98661
▁ಫ್ಯಾ	-9.98725
▁ಹಾಳೆ	-9.98763
ಗ್ರಾಂ	-9.98801
PL	-9.98816
▁ನಿಲ್ದಾಣ	-9.98819
▁ಹೇಳುವದೇನಂದರೆ	-9.98819
▁ಓದಲು	-9.98849
ವ್ಯವಸ್ಥ	-9.9886
ಸಂಪುಟಗಳಲ್ಲಿ	-9.98877
▁ವಾಲ್	-9.98908
▁English	-9.98946
▁ಜೀವಿ	-9.9902
ಗೊಳಿಸಿ	-9.99161
▁ಕೃಷಿ	-9.99208
work	-9.9921
▁ISO	-9.99212
▁ಉಪಯೋಗ	-9.99235
ಹಿತ	-9.99245
▁App	-9.99247
▁·	-9.99269
▁ಹಾಳಾಗ	-9.9932
ron	-9.99361
▁ರಸ	-9.99364
▁ಅವುಗಳಲ್ಲಿ	-9.99371
ao	-9.99384
▁ಕೇಳಿದನು	-9.99385
▁ಚಲಿಸ	-9.99426
▁ದೃಶ್ಯ	-9.99497
▁ತಿರು	-9.99584
▁Rikoooo	-9.99599
▁ಅಧ್ಯಾಯ	-9.99599
ಬೇಕಾಗುತ್ತದೆ	-9.99599
▁ಇಂಧನ	-9.99599
▁ಸ್ವಾ	-9.9961
▁ದೂತನು	-9.99612
▁ದೃಷ್ಟಿಯಲ್ಲಿ	-9.9965
▁ವಿವೇಕ	-9.99698
ಪೂರ್ವ	-9.998
▁ಪ್ರದೇಶದಲ್ಲಿ	-9.99839
▁ಹಾರ್ಡ್	-9.99839
ಗೊಳ್ಳುವ	-9.99874
▁ಹಚ್ಚ	-9.99913
«	-9.99991
▁ನಿಯಂತ್ರಿಸ	-9.99991
▁Black	-9.99991
▁ಚಾಲಕ	-9.99994
▁ಲೇಸರ್	-9.99996
zhou	-10
ಾಗುವದು	-10.0014
▁ತಕ್ಷಣ	-10.0016
▁34	-10.0018
▁ಪಾರ್	-10.0024
ೀಕೃತ	-10.003
▁ಕಾರ್ಯವನ್ನು	-10.003
▁ತಡೆಯ	-10.0031
▁ಯುಎಸ್	-10.0031
▁ತರುವ	-10.0035
▁ಯುರೋ	-10.0035
▁ಚೊಚ್ಚಲ	-10.0038
▁ಸುವಾರ್ತೆ	-10.0038
▁ಪ್ರೇಮಿಗಳ	-10.0038
▁ಮುಂದೆಯೂ	-10.0044
▁ಕುಣಿ	-10.005
▁ನಾಲ್ಕ	-10.0057
▁(7	-10.0073
▁ಕರುಣೆ	-10.0074
ಮೇಲ್	-10.0076
▁ಹೋಟೆಲ್	-10.0078
▁ಐವತ್ತು	-10.0078
▁ಕೊಳ್ಳೆ	-10.0078
▁ಕಲಿಯ	-10.0082
ಬಿಟ್ಟನು	-10.0085
▁ಸಾಂ	-10.0091
ವೃ	-10.0108
▁ಟ್ಯಾ	-10.011
▁ಮಾರ್ಗದಲ್ಲಿ	-10.0111
▁ತುಂಡು	-10.0118
▁ಕರುಣೆಯ	-10.0122
SI	-10.0122
▁ಮೇಲ್ಮೈ	-10.0124
▁ಸಾಧ್ಯವಾಗ	-10.0124
▁ಆರಂಭಿಕ	-10.0126
▁Un	-10.0134
TO	-10.0144
ವಾಗಲಿ	-10.0146
ವೆಂದರೆ	-10.0151
▁ವೀಕ್ಷಣೆಗಳು	-10.0154
▁ಸಂಸ್ಕೃತಿ	-10.0158
▁ರೂಲೆಟ್	-10.016
▁Long	-10.0169
▁ಬೆಳಗ	-10.0171
▁ಮೋಶೆ	-10.0181
ದಾಯ	-10.0184
▁ಇಪ್ಪತ್ತ	-10.0187
▁ಪಾವತಿಸ	-10.0195
▁2008	-10.0196
▁ತೀವ್ರ	-10.0197
▁ಯೋವಾಬನ	-10.0197
▁ಸಮರ್ಪಣೆ	-10.0197
▁ಸಮಾರ್ಯ	-10.0198
▁ಮಾನ್ಯ	-10.02
▁ಒಣಗಿ	-10.0203
▁ರುಚಿ	-10.0204
vo	-10.0211
▁ಆಳಿದನು	-10.0212
▁ಮುಖವನ್ನು	-10.0213
ವರಿಗೂ	-10.0218
ೆರಡು	-10.0223
574	-10.0225
ವೆಲ್	-10.0233
▁ನೋಡಿದಾಗ	-10.0238
▁ಒಪ್ಪಂದ	-10.0241
▁ಪ್ರಚಾರ	-10.0248
▁ಸಾಲು	-10.0252
▁ಅರಣ್ಯದಲ್ಲಿ	-10.0253
▁ಮನಸ್ಸೆಯ	-10.0255
▁ಓಡಿಹೋಗ	-10.0255
▁ಐಟಿ	-10.0256
▁ಆಮೇಲೆ	-10.026
gen	-10.0264
▁ಇದ್ದರೆ	-10.0267
ಬಾರದ	-10.0268
ಲಾಗುವುದು	-10.0277
▁ಮಾನಸಿಕ	-10.0278
▁ಹಿತ್ತಾಳೆ	-10.0278
word	-10.0278
▁ಸಲುವಾಗಿ	-10.0279
▁ಅಂಗೀಕರಿಸ	-10.028
▁ದ್ರವ	-10.0282
▁ಮಾಡಲಾಗುತ್ತದೆ	-10.0283
▁ಸೈನ್	-10.0288
▁ಯುಎಸ್ಡಿ	-10.0289
▁By	-10.0298
ುವುದಕ್ಕೆ	-10.0299
▁ಒಡಂಬಡಿಕೆಯ	-10.0304
5%	-10.0306
ಸೀ	-10.0306
▁ಪ್ರವಾದಿಗಳ	-10.0307
▁ಹಾದು	-10.031
▁ಚಿಕ್ಕದು	-10.0315
▁ಅಶ್ಶೂರ	-10.0318
▁ಅರಮನೆ	-10.0318
LYP	-10.0319
▁ಚಿನ್ನದ	-10.0322
▁ರಾತ್ರಿಯಲ್ಲಿ	-10.0329
ank	-10.0333
▁ಗಮನಿಸಿ	-10.0335
▁ಎಮ್	-10.0337
box	-10.0339
▁ತೆರ	-10.0339
▁ನಾಮ	-10.0349
0.3	-10.0358
೮	-10.0359
▁ಪರಿಚಾರಕ	-10.0359
▁ಕಟ್ಟಳೆ	-10.0363
▁ಸಂಚಾರ	-10.0369
New	-10.0372
▁ತೋಳ	-10.0376
-2017	-10.0378
ೇನಂದರೆ	-10.0381
ಂಡಾ	-10.0382
RP	-10.0395
≤	-10.04
▁WEEK	-10.04
▁Phone	-10.04
▁ಎಲ್ಇಡಿ	-10.04
▁ಪದ್ಧತಿ	-10.04
ಣ್ಯ	-10.04
▁64	-10.0419
0.2	-10.0421
▁ಧೈರ್ಯ	-10.0441
▁ಇದ್ದಾನೆ	-10.0444
ಾಯನ	-10.0446
▁ಶಿಶು	-10.0447
▁State	-10.045
▁ಮೀಟರ್	-10.0454
▁ಪ್ರಾಣವು	-10.047
ುವದಕ್ಕಿಂತ	-10.0474
▁ಪ್ರತ್ಯೇಕಿಸ	-10.0477
▁ಕಾಲ್ಬೆರಳ	-10.0482
▁ಪೆಟ್ಟಿಗೆ	-10.0482
▁ಸತ್ತವರ	-10.0482
▁ಮನೆತನದವರ	-10.0483
▁ರೇಟಿಂಗ್	-10.0486
ES	-10.0489
▁ಹತ್ತ	-10.0497
fish	-10.0498
IL	-10.0505
▁ಕಾವ್ಯ	-10.051
▁ಅನುಕೂಲ	-10.0521
▁ಮಿಲ್	-10.0522
▁ಗೌಪ್ಯತೆ	-10.0523
EDIA	-10.0523
▁ವಿಶ್ವಾಸಾರ್ಹ	-10.0523
▁ಕ್ಯಾಮೆರಾ	-10.0523
▁ವಸತಿ	-10.0524
▁ಜೂ	-10.0543
▁250	-10.0544
▁ನಾಟಕ	-10.0544
▁ಕೆಟ್ಟದ್ದನ್ನು	-10.0545
▁ಆನಂದಿಸ	-10.0556
px	-10.0558
cy	-10.0559
MC	-10.056
yl	-10.0561
900	-10.0562
▁ಉತ್ಪಾದಿಸ	-10.0565
▁ವಿಭಿನ್ನ	-10.0565
▁ವ್ಯತ್ಯಾಸ	-10.0565
▁ಸಂಕ್ಷಿಪ್ತ	-10.0565
▁გადმოწერა	-10.0565
ville	-10.0565
▁ಸಂಕಟ	-10.0565
▁ವರುಷದಲ್ಲಿ	-10.0565
▁ಮಾರ್ಗದರ್ಶಿ	-10.0567
▁ಲೈಟ್	-10.0571
ತ್ತೆ	-10.0572
▁ಭಯಪಟ್ಟ	-10.0578
ಗುಣ	-10.0578
ಸೊ	-10.058
▁ಯಾವಾಗ	-10.0582
book	-10.059
▁ವಾಣಿಜ್ಯ	-10.0607
▁label	-10.0607
▁ಯುನೈಟೆಡ್	-10.0607
▁ಸುಧಾರಣೆ	-10.0607
▁ಮೂರನೇ	-10.0607
▁ಬೆಳೆದ	-10.0609
▁ಆಟೋ	-10.0618
▁ಕಾಣಿಸ	-10.0618
▁ದಾವೀದನಿಗೆ	-10.0622
▁ಜನರೂ	-10.0624
▁ಪ್ರಾರಂಭಿಸಿ	-10.063
▁October	-10.0648
▁ಅಪೇಕ್ಷಿಸ	-10.0648
▁ವದಿಲ್ಲ	-10.0649
ಕೊಂಡಿರುವ	-10.0649
▁ಮೂವತ್ತು	-10.0651
▁ಅಕ್ಷರ	-10.0652
ಿಸಬೇಕು	-10.0656
ಗೊಳಿಸಿದ	-10.0657
PA	-10.0658
read	-10.0662
▁ಯುಗ	-10.0667
▁ಗಾಳಿಯ	-10.067
ಸೂಚಿ	-10.0671
▁ಯಾಕೋಬ	-10.0678
▁ಅಂಟಿ	-10.0679
▁ಎದೆ	-10.068
▁ನಡೆಯುವ	-10.0681
ಂದೂ	-10.0686
▁ವೋಲ್ಟೇಜ್	-10.069
▁ಸೂರ್ಯ	-10.0699
▁ಫ್ರೀ	-10.0709
▁ಸಕ್ರಿಯಗೊಳಿಸ	-10.0713
▁ತಿಂಗಳುಗಳು	-10.0718
▁ನಿಜವಾಗಿ	-10.072
ize	-10.0725
▁Ra	-10.0726
▁ಉತ್ಸಾಹ	-10.0733
▁ಕಾರ್ಖಾನೆ	-10.0733
▁csgo	-10.0733
▁OEM	-10.0733
▁ಶೋಧಿಸ	-10.0733
ದರ್ಶಿ	-10.0748
$1	-10.0752
▁ಬಹುಶಃ	-10.0775
▁ಶಿಫಾರಸು	-10.0775
▁ಪರಿವರ್ತಿಸ	-10.0776
▁ನಡು	-10.078
▁ಯಾಜಕನಾದ	-10.0784
▁ಸುಳ್ಳ	-10.0786
▁this	-10.0787
▁ಪ್ರವಾಸಿ	-10.0787
ಅವರು	-10.0806
▁ಹಿಂತಿರುಗಿ	-10.081
▁ಹಲಗೆ	-10.0818
▁ನಾಣ್ಯ	-10.0822
▁ರಚಿಸಲು	-10.0827
ುತ್ತಿತ್ತು	-10.0839
▁ಕಾಡು	-10.0839
▁ಮೆನು	-10.0842
ೇಲನ	-10.0844
▁ಕೂದಲ	-10.0847
ven	-10.0848
ಬ್ಯಾಕ್	-10.0859
▁ಪ್ರತ್ಯಕ್ಷ	-10.086
▁ಸಮುದಾಯ	-10.086
▁ಮುಯ್ಯಿ	-10.086
▁ಒಟ್ಟಾಗಿ	-10.086
▁ಪರ್ಯಾಯ	-10.086
ಬೊ	-10.0863
▁game	-10.0864
▁ಇದಕ್ಕೆ	-10.0867
jo	-10.0873
▁ಕಛೇರಿ	-10.0903
▁ಆಣ್ವಿಕ	-10.0903
▁ಪ್ಯಾಕೇಜ್	-10.0903
▁ಕುಳಿತು	-10.0903
▁ತಮಗೆ	-10.0904
ಖ್ಯಾತ	-10.0912
▁ಕಲಿಸ	-10.0917
▁ತಿಳಿಸಿದ	-10.0922
9.00	-10.0924
▁ಆಸನ	-10.0931
▁ಭರವಸ	-10.0937
▁ಕಸ್ಟಮೈಸ್	-10.0946
▁ಫ್ಯಾಬ್ರಿಕ್	-10.0946
▁ಶಾಶ್ವತ	-10.0946
▁ಅಪವಿತ್ರ	-10.0946
▁ಸಿಬ್ಬಂದಿ	-10.0946
▁ಬಂತು	-10.0947
▁ಅರ್ಜಿ	-10.0947
▁ಬದಿ	-10.0949
▁ಟ್ರಿ	-10.095
ವಾಸಿ	-10.0952
▁ಪ್ರಕಾರವೇ	-10.0959
9.99	-10.096
▁USD	-10.0961
▁ಮಾಡುತ್ತೇನೆ	-10.0961
fa	-10.0969
▁ದಯೆ	-10.0969
ೊಂದಿಗ	-10.0977
light	-10.0978
▁ಬೆಳಕು	-10.0981
▁ವಾರ್	-10.0988
av	-10.0989
▁ಸಿಸ್ಟಮ್	-10.099
▁ನೆಟ್ವರ್ಕ್	-10.099
▁ಹೂಡಿಕೆ	-10.099
▁ಕುಕೀಗಳನ್ನು	-10.099
▁ಸಂಹರಿಸ	-10.099
▁ಕೇಬಲ್	-10.0994
▁ಉಂಟುಮಾಡ	-10.0998
220	-10.1002
ound	-10.1005
▁ಮೂಲೆ	-10.1008
001	-10.1008
-9	-10.1015
ಮಿತ	-10.1016
▁ಹುಡುಗಿ	-10.1024
▁ಇರಲಿಲ್ಲ	-10.1025
ress	-10.1029
▁ಬೆಳವಣಿಗೆ	-10.1033
▁ರಫ್ತು	-10.1033
▁ಮುರಿದು	-10.1033
▁ಹಣ್ಣು	-10.1033
▁ಆಡಲು	-10.1034
▁ಯಾಕೋಬನು	-10.1035
▁(2)	-10.104
ದ್ದೀರಿ	-10.1049
▁ವೆಬ್ಸೈಟ್ನಲ್ಲಿ	-10.1055
ಶ್ರಮ	-10.1064
▁ನಂದರೆ	-10.1067
▁ವ್ಯಭಿಚಾರ	-10.1077
▁ಬೆಳಿಗ್ಗೆ	-10.1077
▁ಸೂಕ್ಷ್ಮ	-10.1077
▁ಇಕ್ಕಟ್ಟ	-10.1078
▁ನಿರ್ವಹಿಸಲು	-10.108
▁ಹುಳಿ	-10.1084
▁ಬಾಲ	-10.1084
ವಳು	-10.1087
▁Web	-10.1087
▁ಕೊನೆಯಲ್ಲಿ	-10.1088
ama	-10.1094
▁Jo	-10.1095
▁ಅವುಗಳಿಗೆ	-10.1101
▁ತಿರುಗಿಸ	-10.1103
▁ತಕ್ಕೊಂಡ	-10.1103
▁ಗಂಡನ	-10.111
▁Ex	-10.1118
▁ನಿಗದಿ	-10.1121
png	-10.1121
▁ಏನಂದರೆ	-10.1123
▁ಶಾಂತಿ	-10.1123
▁For	-10.1124
▁ಉಪಯುಕ್ತ	-10.1124
▁ನೀವೇ	-10.1151
▁ಸ್ಟ್ರೀಟ್	-10.1165
▁ಕಿವಿಗೊಡ	-10.1165
▁ಮುಂತಾದ	-10.1165
▁ವೃದ್ಧ	-10.1165
▁ಅಯ್ಯೋ	-10.1165
▁ಮರೆತು	-10.1165
▁ಪ್ರಬಲ	-10.1165
ಗಿದ್ದ	-10.1169
ಮಾರ್ಗ	-10.117
▁ತಪ್ಪಿಸಿ	-10.1188
▁ಟೆಕ್	-10.1199
▁ಫಾರ್ಮ್	-10.1205
▁ಔಷಧಿ	-10.1207
ೊಡನೆ	-10.121
▁ಇಡೀ	-10.1222
▁ಕಾಮ	-10.1232
▁ಹಿರಿಯ	-10.1233
TE	-10.1236
▁ಸಂತೋಷಪಡ	-10.1242
▁ಕೊಂದು	-10.1246
▁ಹೋಮ್	-10.1246
ಾವಳಿ	-10.1248
▁ಉತ್ಪಾದನಾ	-10.1253
▁ಪ್ರಸ್ತಾಪ	-10.1253
à	-10.1253
▁ಮಿಲಿಯನ್	-10.1253
▁ಪರಿಕರಗಳು	-10.1253
▁ಬೇಸಿಗೆ	-10.1254
▁ವೈದ್ಯರ	-10.1257
▁ಪುಸ್ತಕದಲ್ಲಿ	-10.1258
▁ಹೋದರೆ	-10.1261
▁ಕಾಮೆಂಟ್ಗಳನ್ನು	-10.1266
▁ಕೈಯನ್ನು	-10.1277
▁ಸೊಲೊಮೋನನು	-10.1282
▁ತಯಾರಕ	-10.1282
▁ಅರಿಯ	-10.1283
▁ಸ್ತ್ರೀಯರ	-10.1287
ಹೋಗುವ	-10.1291
▁ಕೈಕೊಳ್ಳ	-10.1296
▁ಅಪ್ಡೇಟ್	-10.1298
▁ದ್ವಾರ	-10.1298
▁ಹಲವು	-10.13
▁ಅಲ್ಲದೆ	-10.1307
▁ಎಂದೂ	-10.1309
ರಾಗಿದ್ದಾರೆ	-10.131
▁ಪ್ರಾಣಿ	-10.1311
▁ಕೇಡು	-10.1313
▁ಆಚರಿಸ	-10.1322
▁ಆಯ್ಕೆಯನ್ನು	-10.1335
ಜ್ಞಾನ	-10.1338
\\\\	-10.1343
▁ಯಥಾರ್ಥ	-10.1343
▁ಯಶಸ್ವಿ	-10.1343
▁ಶೀಘ್ರ	-10.1343
▁ಡೌನ್	-10.1343
▁ನಿಂಗ್ಬೋ	-10.1343
▁ಪ್ರತಿಫಲ	-10.1343
▁04:	-10.1355
▁ನೋವು	-10.1356
ಿರುವಾಗ	-10.1356
▁ಕಾಂ	-10.1358
▁ಯುದ್ಧಕ್ಕೆ	-10.1358
ಾಗಿದ್ದೀ	-10.1364
▁ತುಟಿಗಳ	-10.1369
mon	-10.1373
▁ವಿಷ	-10.1376
ಆಗ	-10.1378
▁ಉಂಟಾದ	-10.138
▁ಕ್ರೀಡೆ	-10.1388
▁ಪ್ರಾಥಮಿಕ	-10.1388
▁ಹಿಜ್ಕೀಯನ	-10.1388
▁ನಾಲಿಗೆ	-10.1389
▁ಗುಡ್ಡ	-10.1391
▁ಲೇವಿಯ	-10.1396
▁can	-10.1403
▁ಉಂಟ	-10.1411
▁ನೀನೇ	-10.1413
ಕರ್ತನ	-10.1413
web	-10.1415
▁ಬಳಕೆದಾರರು	-10.1423
▁ಸ್ಕ್ರೀನ್	-10.1433
▁ಒಮ್ಮೆ	-10.1433
EC	-10.1435
ator	-10.1436
▁ಹೊದಿಕೆ	-10.1437
▁Car	-10.1447
▁ಸಾಕು	-10.1449
▁ಕಂತು	-10.1449
ated	-10.1452
▁ಹಗೆಮಾಡ	-10.1474
▁ಎಲ್ಲವನ್ನೂ	-10.1475
у	-10.1479
▁Photo	-10.1479
▁ತಿರಸ್ಕರಿಸ	-10.1479
▁ಅನುಸ್ಥಾಪಿಸ	-10.1479
▁ಮೂರನೆಯ	-10.1479
▁ಮುದ್ರೆ	-10.1479
▁ಸಂತತಿಯ	-10.1481
▁ಸಮರ್ಪಿಸ	-10.1481
▁ಕೂತುಕೊಂಡ	-10.1481
▁ಹೆಣ	-10.1481
ಬ್ಬಾ	-10.1486
▁ಅಂದುಕೊಂಡ	-10.1487
▁ಚೂ	-10.1488
ಭೂತ	-10.1491
▁ನೀರ	-10.1497
ME	-10.1504
▁ಮಾತನಾಡಿದ	-10.151
▁ಸೇವಾ	-10.1521
key	-10.1524
▁ತುತೂರಿ	-10.1524
▁ತಿಳುಕೊಳ್ಳ	-10.1525
▁ಕೊಲೆ	-10.1529
▁ಸುಟ್ಟು	-10.1541
▁ಬಿಗ್	-10.1545
▁ಸ್ಕ್ರ	-10.1556
time	-10.1566
▁ಯೊರ್ದ	-10.1568
Unlimited	-10.157
▁ಶೈಕ್ಷಣಿಕ	-10.157
▁ಎಷ್ಟೋ	-10.1572
▁ಇದನ್ನೂ	-10.1574
▁KDE	-10.1575
get	-10.1576
▁ಕಂಪ	-10.1584
ವಾಗಿರುವದು	-10.1593
▁ಪ್ರವಾದಿಸ	-10.1601
▁ಸ್ತ್ರೀಯು	-10.1605
ಕುಲ	-10.1612
▁ಸನ್ನಿಧಿ	-10.1616
▁ಚಿಕಾಗೊ	-10.1616
Query	-10.1616
▁ಏಷ್ಯಾ	-10.1616
▁ಮಾಡುವದಕ್ಕೆ	-10.1635
▁ಪಡೆಯುವ	-10.1637
UN	-10.1653
▁400	-10.1654
▁ಬಾಯಿಯ	-10.1656
▁ಆಭರಣ	-10.1662
▁ಸಾಮರ್ಥ್ಯವನ್ನು	-10.1663
▁ವ್ಯಾಧಿ	-10.1666
▁ಮುಖ್ಯವಾಗಿ	-10.1668
ition	-10.1671
ಿದವು	-10.1675
▁ಕಂಡುಕೊಳ್ಳ	-10.168
▁ಸಾಧ್ಯತೆ	-10.1691
▁ಜನರಲ್ಲಿ	-10.1694
ಆದರೆ	-10.1703
▁1.5	-10.1705
▁[...]	-10.1709
▁ವಿಸ್ತರಣೆ	-10.1709
▁ಕೆನಡಾ	-10.1709
▁ತರಗತಿ	-10.1709
ಿರುವುದು	-10.1723
▁ಮಂದಿಯು	-10.1732
ಗೈ	-10.1735
ಬ್ರಾ	-10.1738
▁ಅಲ್ಲಿಗೆ	-10.1741
mg	-10.1746
ಂಟರ್	-10.1752
▁ಉಪಲಬ್ದವಿದೆ	-10.1756
NAME	-10.1756
▁ಇಸಾಕನ	-10.1756
▁Archives	-10.1757
▁ಮಧ್ಯಮ	-10.176
▁ಕಂಡುಹಿಡಿಯಲು	-10.1767
▁ಸಹೋದರನಾದ	-10.1772
ಚೋ	-10.1782
▁ಸ್ಪೈ	-10.179
▁Win	-10.1799
▁ಪರಿಶೀಲಿಸ	-10.1801
▁ನೆರೆಯವನ	-10.1803
▁ಬಟ್ಲರ್	-10.1803
▁ಆಫ್ರಿಕಾ	-10.1803
▁ವಿಸ್ತರಿಸ	-10.1803
▁ಪರಿಶೀಲಿಸಿ	-10.1804
▁ಧೂಳ	-10.1805
▁ಹುಡುಕಾಟ	-10.1806
▁ನಮೂದಿಸಿ	-10.181
▁ಹೋಲಿಸ	-10.1812
▁ತಿಳಿದಿರ	-10.1816
shan	-10.1824
▁ಕರ್	-10.1824
low	-10.1835
ಖಂಡ	-10.1839
▁ಇಲ್ಲಿದೆ	-10.1846
°	-10.1848
▁ಸಂತತಿ	-10.1848
▁ಕೌಶಲ್ಯ	-10.185
▁ಸಾಂಪ್ರದಾಯಿಕ	-10.185
▁ಹಣಕಾಸು	-10.185
▁ಕೊಂಬೆ	-10.185
▁ಪರಿಸ್ಥಿತಿ	-10.1851
▁ಡಾಲರ್	-10.1853
way	-10.186
▁ನಾನೂ	-10.1876
▁ಪ್ರತ್ಯುತ್ತರ	-10.1881
ವರೆಲ್ಲರು	-10.1884
▁ಪ್ಲಾ	-10.1893
▁ನೇರಪ್ರಸಾರ	-10.1897
▁ಟ್ಯೂಬ್	-10.1897
▁Power	-10.1897
▁ಚಾರ್ಟರ್	-10.1897
▁ಚಾಲನೆ	-10.1897
▁ಮಹಡಿ	-10.1898
▁ವಿಧೇಯ	-10.1898
▁News	-10.19
▁ಏನಾದರೂ	-10.1902
▁ಕಳ್ಳ	-10.1905
▁ಕೋರ್	-10.191
▁ಕೇಳಿರಿ	-10.1916
▁ತುಳಿ	-10.1922
▁ಕಲ್ಪಿಸ	-10.1929
▁Air	-10.1943
▁ಹಳದಿ	-10.1945
▁ಅಡವಿಯ	-10.1945
▁ಧಾನ್ಯ	-10.1945
▁ಮೂಲಭೂತ	-10.1947
▁ಹಲ್ಲು	-10.1948
▁ಓಡ	-10.196
▁ಕಡೆಯಿಂದ	-10.1964
▁ರಾಣಿ	-10.1969
▁ಕೂಡಲೆ	-10.1973
▁ಸೃಷ್ಟಿ	-10.1976
▁ಪೂರ್ವನಿಯೋಜಿತ	-10.1993
▁ಹಡಗು	-10.1993
▁ಪೇಪರ್	-10.1995
ull	-10.1998
▁ಮಹಿಮೆಯ	-10.2004
▁ಮಾಡುವಾಗ	-10.2005
RI	-10.2013
▁ಪೇತ್ರನು	-10.2024
▁ಸಂಜೆ	-10.2032
೪	-10.2041
▁ಪರಿಸರವಿನ್ಯಾಸ	-10.2041
ಲಿಲ್ಲವೋ	-10.2046
▁ಹಾಟ್	-10.2048
▁ಅನುಭವವನ್ನು	-10.2048
▁ವಶ	-10.2049
.0%	-10.2078
▁ನಿಯಂತ್ರಕ	-10.2089
▁ನಿಷ್ಕ್ರಿಯ	-10.2089
▁ಪ್ರೋಗ್ರಾಂ	-10.2089
▁ಭಾಗವಹಿಸ	-10.2089
€	-10.2095
▁ಯುಪಿ	-10.2097
▁ಸಂಬಂಧಿತ	-10.21
▁ದತ್ತ	-10.2103
▁You	-10.2115
▁ಕೃಪೆ	-10.2127
▁Mobile	-10.2138
▁ಕಲ್ಲಿನ	-10.2148
▁ಸೀಮೆ	-10.2152
▁ಎಚ್ಚರ	-10.2152
▁ತಡೆ	-10.2158
▁ವಸ್ತ್ರಗಳನ್ನು	-10.2162
▁ಪಕ್ಷಿಗಳ	-10.2169
▁720	-10.217
▁ಬಂದಿದೆ	-10.2181
▁ಹುಡುಕುವ	-10.2181
▁ಹೊತ್ತ	-10.2182
▁India	-10.2185
▁ಪಟ್ಟಣಕ್ಕೆ	-10.2186
▁ಬಾಧೆ	-10.2187
▁ರೀತಿ	-10.2188
ುತ್ತಿದ್ದನು	-10.2203
▁ಇದರಲ್ಲಿ	-10.2205
ಾಗಿರುವದು	-10.2205
ಾಂಕ	-10.2214
▁ಆಜ್ಞಾಪಿಸಿ	-10.2228
▁ಎರಡ	-10.2233
▁ಜಿಎಸ್ಟಿ	-10.2234
▁ಬಾಪ್ತಿಸ್ಮ	-10.2235
▁ವಿಕಿಪೀಡಿಯ	-10.2235
▁ಫ್ರೇಮ್	-10.2235
▁ಬನ್ನಿರಿ	-10.2236
▁ಶೀಟ್	-10.2236
PE	-10.2236
▁೨೦	-10.2236
▁ಡಿಸ್ಕ್	-10.2236
ೋನನು	-10.2243
▁ಒದಗಿಸಲು	-10.2253
▁ಆಚೆ	-10.2255
ಮತ್ತು	-10.2258
OD	-10.2263
ುತ್ತಿಲ್ಲ	-10.2264
▁ಮನೆಯವರ	-10.2268
over	-10.2282
▁ಸುಗಂಧ	-10.2285
▁ಸಂಕೇತ	-10.2285
▁ಪ್ರಗತಿ	-10.2285
▁ಮುಖಾಂತರ	-10.2289
▁ಆಧಾರಿತ	-10.2294
ಿರುವದನ್ನು	-10.2296
▁ಆಯ್ದ	-10.2304
unit	-10.2308
▁ಹೋಗುತ್ತದೆ	-10.2312
ಗೊಂಡಿದೆ	-10.232
▁ಸೋಮವಾರ	-10.2334
▁ನಿರ್ವಾಹಕ	-10.2334
▁ಅಕ್ಷರಶೈಲಿ	-10.2334
▁ಶೇಕಡ	-10.2336
▁ತಿಳಿಯುವ	-10.2336
▁ಬಂಡೆಯ	-10.2339
▁ಶಕ್ತಗೊಳಿಸ	-10.2348
ave	-10.2349
▁600	-10.2351
▁ಹಾಕುವ	-10.2355
▁ನಿಮಿತ್ತವಾಗಿ	-10.2358
▁125	-10.2369
▁ಮೇಲ್ವಿಚಾರಣೆ	-10.2384
▁ಪರಾಕ್ರಮ	-10.2384
▁ದತ್ತಾಂಶ	-10.2385
▁ಯೆಹೋಶುವನು	-10.2389
▁ಪ್ರತಿಯೊಬ್ಬನು	-10.2391
0.0	-10.2402
ತೊಡಗ	-10.2406
ಲಾಗದ	-10.2407
▁ಹಂಚಿಕೊಳ್ಳ	-10.2411
▁ಮಾಡುತ್ತಾರೆ	-10.2411
att	-10.2413
▁ವೆನು	-10.2428
▁ಯಾವುದೆ	-10.243
▁ಉದ್ಯಾನ	-10.2434
▁ಯೋನಾತಾನನ	-10.2434
▁ಏಕಾಂಗಿ	-10.2434
▁ರಹಸ್ಯ	-10.2434
▁ಬೆತ್ತಲೆ	-10.2434
▁ಕೊಂಬು	-10.2434
▁ಭದ್ರತಾ	-10.2441
TP	-10.2448
▁ಚೆಕ್	-10.2457
ಿಸುವುದು	-10.2459
▁ಹಾದುಹೋಗ	-10.2464
▁ದೈನಂದಿನ	-10.2484
▁ನಾಲ್ವತ್ತು	-10.2484
▁ಕೊಡುವೆನು	-10.2487
▁ಪಡೆದುಕೊಳ್ಳ	-10.2489
▁ಮಾಡುತ್ತಾನೆ	-10.2489
▁ಸಮಗ್ರ	-10.249
▁ನೈಜ	-10.2492
▁ಬದಲಾಯಿಸಲಾಗಿದೆ	-10.2492
▁ಮಾಸ್ಟರ್	-10.2496
▁ಒಡೆಯನ	-10.2497
ಮಿಮೀ	-10.2517
▁ಪ್ರತ್ಯೇಕವಾಗಿ	-10.2533
ata	-10.2534
ING	-10.2534
м	-10.2535
▁ಮಾರ್ಕೆಟಿಂಗ್	-10.2535
▁ಆಶ್ರಯ	-10.2535
▁ನಕ್ಷತ್ರ	-10.2535
▁ಅನನ್ಯ	-10.2535
▁ಸದಸ್ಯರು	-10.2535
▁ಸೀಮಿತ	-10.2536
▁ಸ್ತುತಿಸ	-10.2537
▁ನಡುವಿನ	-10.2537
▁ಮುಖ್ಯಸ್ಥರ	-10.2538
▁ಆಂತರಿಕ	-10.2543
▁ಗರ್ವ	-10.2555
▁ಸಮ್ಮುಖದಲ್ಲಿ	-10.2566
ಮಾಡಿಕೊಂಡ	-10.257
▁ಶಪಿಸ	-10.2572
д	-10.2585
▁ಅಭಿಪ್ರಾಯ	-10.2585
▁ಉಷ್ಣ	-10.2585
▁AUD	-10.2586
rial	-10.2587
▁ಮಾಡಲಾದ	-10.259
ಂಜ್	-10.2603
▁ನಾಯಿ	-10.2603
▁pre	-10.2604
▁ಹಿಡು	-10.2623
ಕರ್ತನೇ	-10.2628
The	-10.2635
▁ಖಾತರಿ	-10.2636
▁ತೀರ್ಪು	-10.2636
▁ಯೂನಿವರ್ಸ್	-10.2636
▁ಶುಕ್ರವಾರ	-10.2636
video	-10.2637
▁ಯೇಲಿನ	-10.2638
wise	-10.2642
▁ಎಚ್ಡಿ	-10.266
▁ಇರುವದಿಲ್ಲ	-10.2662
▁ಮನುಷ್ಯನಿಗೆ	-10.2672
▁ಪಡೆದನು	-10.2681
▁ಒಡಂಬಡಿಕೆಯನ್ನು	-10.2687
ಲಾಗಲಿಲ್ಲ	-10.2687
▁ಅನಿಯಮಿತ	-10.2688
▁ಐಒಎಸ್	-10.2688
▁URL	-10.2688
▁ಒಟ್ಟಿಗೆ	-10.2688
▁ಪ್ರತಿನಿಧಿ	-10.2689
▁ಏಸಾವನ	-10.2689
▁ಇದ್ದಾರೆ	-10.2691
ಗಳಾಗಿವೆ	-10.2693
ುದನ್ನು	-10.2694
▁ಎದೋಮ	-10.27
▁ಸಿಹಿ	-10.2702
▁ಕುಮಾರರೂ	-10.2702
▁ಬಾಗಲಿನ	-10.2712
▁ಹಂಚಿಕೊಳ್ಳಲು	-10.2714
▁ಒಣ	-10.2723
ಾಗಿದ್ದರೂ	-10.2733
▁ಹೊಂದಿಕೆ	-10.2735
OP	-10.2739
▁ವಿಫಲ	-10.2739
▁Deposit	-10.2739
▁ಸೆಲ್ಯುಲೈಟ್	-10.2739
▁ಕರೆನ್ಸಿ	-10.2739
▁ಆಮೆನ್	-10.274
▁2005	-10.2741
▁ಪ್ರಾರ್ಥಿಸ	-10.2742
▁ವಾಯು	-10.2745
ಪುತ್ರ	-10.2748
▁2.0	-10.2752
▁ತಿರುಗಿಕೊಂಡು	-10.2755
▁ಇಂಟರ್	-10.2758
CT	-10.2762
▁ಶಕ್ತ	-10.2764
host	-10.2785
▁ಒದಗಿಸುವ	-10.279
▁ಯೆರೆವಿಾಯನ	-10.2791
▁ವರ್ಡ್ಪ್ರೆಸ್	-10.2791
▁ದ್ರೋಹ	-10.2791
▁ಪ್ರತಿರೋಧ	-10.2791
▁ಪ್ರದರ್ಶಿಸ	-10.2791
▁ಆಯುಧ	-10.2792
700	-10.2793
▁Short	-10.2794
▁ಪ್ಯಾಕಿಂಗ್	-10.2796
▁ಕತ್ತಲ	-10.2803
▁ಯಾಜಕನ	-10.2809
2.1	-10.2813
▁ಬದಲಿಗೆ	-10.282
▁ಮೊದಲಿನ	-10.2825
▁ಇರಬಹುದು	-10.2826
iver	-10.2831
▁ಪುನಃ	-10.2843
▁ಸಹಾಯವಾಣಿ	-10.2843
▁ಫ್ಯಾಷನ್	-10.2845
▁ಕೋಣೆ	-10.2879
▁ಮುಗಿಸ	-10.2881
ವಾಗುವದು	-10.2886
▁ಆಧುನಿಕ	-10.2896
▁ಪರಸ್ಪರ	-10.2896
▁ತೊಲಗ	-10.2897
ವನ್ನೆಲ್ಲಾ	-10.2897
▁ತಪ್ಪಿಸಿಕೊಂಡ	-10.2899
▁ಹೊರತುಪಡಿಸಿ	-10.29
▁ಒಂದಾಗಿದೆ	-10.29
ware	-10.2906
▁ಗಳಿಸಿ	-10.2906
▁ವಾಚ್	-10.2912
ೆಲ್ಲವೂ	-10.2928
▁ಮೊತ್ತ	-10.293
▁ಅಂತಿಮ	-10.2932
೬	-10.2948
▁ಅಧಿವೇಶನ	-10.2948
▁ಅಮೂಲ್ಯ	-10.2948
▁ಸಾಂಸ್ಥಿಕ	-10.2948
▁ಎಲೆಕ್ಟ್ರಾನಿಕ್	-10.2948
▁ಬೋಧನೆ	-10.2948
▁ನಮೂನೆ	-10.2948
▁ಪಿವಿಸಿ	-10.2948
▁ಅರ್ಹ	-10.295
▁ಒಂದೊಂದು	-10.2954
▁ಜೋಡಿ	-10.2961
▁ಮಲಗಿ	-10.2981
ಭೂಮಿ	-10.2986
▁ಬೆನ್ಯಾವಿಾನನ	-10.2993
▁ನಿರ್ದೇಶಕರ	-10.2998
DE	-10.3
▁ವಿಕ್ಷನರಿ	-10.3001
▁ಅಧ್ಯಕ್ಷ	-10.3001
▁ಒಯ್ಯ	-10.3002
▁ಪ್ರತಿದಿನ	-10.3002
▁ಬೇತ್	-10.3002
▁ವರ್ತನೆ	-10.3004
▁ಹಿಂದಟ್ಟ	-10.3009
▁ಚಿತ್ತ	-10.3015
▁ಮಾಡುತ್ತೇವೆ	-10.3023
▁ಉಪಶೀರ್ಷಿಕೆ	-10.3054
▁Tewhan	-10.3054
▁ಪರಾಕ್ರಮಶಾಲಿ	-10.3054
▁ವಾಗ್ದಾನ	-10.3054
▁[1]	-10.3054
▁ಸಮರ್ಥ	-10.3057
▁ಒಡಂಬಡಿಕೆ	-10.3074
ಾಯಿತ	-10.3081
tv	-10.3085
▁ಕಪ್ಪ	-10.309
▁ಬಾಧ್ಯ	-10.3095
▁ಹೆಚ್ಚಳ	-10.3097
▁ಇಲಿನಾಯ್ಸ್	-10.3108
▁ಟೌನ್	-10.3108
▁ಸೋಂಕು	-10.3108
▁ಜಪಾನ್	-10.3108
ಬೇಕೆಂಬ	-10.3108
▁ಶಿಕ್ಷಕರ	-10.3109
▁ಪ್ರಥಮ	-10.3109
▁ಸಂಪತ್ತ	-10.311
▁ಇದಾದ	-10.3113
▁ವರ್ಣ	-10.3116
▁USP	-10.3125
▁ಗೇಮ್	-10.3135
▁ಅಭಿವೃದ್ಧಿಪಡಿಸ	-10.3139
[	-10.3151
▁ಬರೆಯಲ್ಪಟ್ಟ	-10.3157
ಪ್ರತಿ	-10.316
▁ಕೇಡನ್ನು	-10.3162
▁ಕರಗಿ	-10.3162
▁ದೋಣಿ	-10.3162
▁ಮತ್ತೊಬ್ಬನ	-10.3163
▁item	-10.3164
▁ಡೇಟಿಂಗ್	-10.3164
▁ಪ್ರೀತಿಮಾಡ	-10.3182
ಾಬನ	-10.3189
▁ಬದುಕುವ	-10.319
▁ಮಾತಾಡ	-10.3193
ತ್ತೀ	-10.3194
▁ವೇಗವಾಗಿ	-10.3211
▁ನಿವಾರಣಾ	-10.3216
▁ಶಾಂಘೈ	-10.3216
▁ಫೈಬರ್	-10.3216
▁ನುಂಗಿ	-10.3217
▁ವಿರುದ್ಧವಾಗಿ	-10.3219
▁ಎಕ್ಸ್ಎಲ್	-10.3221
▁Full	-10.3223
9001	-10.3231
▁ಅಕ್ಕಿ	-10.3237
▁ಭಕ್ತಿ	-10.3241
▁ಹಳ್ಳಿ	-10.3252
▁ಬೇಬಿ	-10.3259
▁ದಾಸಿಯ	-10.3266
▁ಅಲಂಕಾರ	-10.3267
ь	-10.327
▁Xhamster	-10.327
▁ಸಂಶೋಧಕರು	-10.327
▁ಅಬ್ಷಾಲೋಮನ	-10.327
▁ಪೋರ್ನ್	-10.327
▁ಬಳಿಗೂ	-10.3276
▁ದಾಟ	-10.3285
▁ಶೆಕೆ	-10.3289
▁HP	-10.329
▁ಉದಾಹರಣೆ	-10.3297
▁ರೋಷ	-10.3298
ಮೇಲೆ	-10.3314
▁ಎಂಟು	-10.3315
é	-10.3325
▁ಹೆಂಗಸ	-10.3325
▁ಮೆಟಲ್	-10.3331
▁ಕೆಟ್ಟದ್ದ	-10.3357
▁ಮೇರೆಯ	-10.3359
▁ಬಗೆಯ	-10.3369
▁ಇಷ್ಟಪಡ	-10.3371
▁Cha	-10.3372
ე	-10.338
▁ಆದ್ಯತೆ	-10.3381
Trans	-10.3382
▁ನಕಲು	-10.3382
▁ಹರಿಯುವ	-10.3382
ಿದ್ದಾಳೆ	-10.3385
▁mass	-10.3386
ರಾಜ್	-10.339
▁ಎಂಎಂ	-10.3392
▁800	-10.34
TJ	-10.3406
▁ಜವಾಬ್ದಾರಿ	-10.3435
▁ವಿತರಣೆ	-10.3435
▁ಪ್ರಯಾಸ	-10.3435
▁ವಿಶಾಲ	-10.3437
▁ಆಯಿತು	-10.3437
▁ಎರಕ	-10.3438
▁ಅಗತ್ಯವಿರುವ	-10.3446
▁ಪ್ರವಾದಿಯಾದ	-10.3449
PR	-10.3471
▁ಕತ್ತಲೆಯ	-10.3473
▁ಬರಮಾಡಿದ	-10.3479
▁ಬದಲಾಗ	-10.3481
▁ಬೇಡಿಕೊಂಡ	-10.3482
▁ಚೀಯೋ	-10.3486
೭	-10.349
▁ಟ್ಯಾಟೂ	-10.349
ಭ್ರಮ	-10.3491
▁ಕಂಡುಬಂದ	-10.3492
ಗೊಳಿಸುತ್ತದೆ	-10.3508
tool	-10.3515
▁ಸೇವೆಮಾಡ	-10.3518
▁ಅಸ್ತಿತ್ವದಲ್ಲಿ	-10.3544
▁{@}	-10.3546
▁ಕಾರ್ಪೊರೇಟ್	-10.3546
▁ಗಂಭೀರ	-10.3546
▁ಬ್ರ್ಯಾಂಡ್	-10.3546
▁ನಗದು	-10.3547
▁ಹೊರತಾಗಿ	-10.355
▁ತ್ವರೆ	-10.355
land	-10.3555
▁ಸಂದರ್ಭಗಳಲ್ಲಿ	-10.3556
▁03:	-10.3567
▁ಕುಮಾರ್ತೆ	-10.3587
ness	-10.3588
ა	-10.3602
▁ದೆವ್ವ	-10.3602
▁ಫಿಲ್ಟರ್	-10.3602
▁ಕಲಿಕೆ	-10.3609
▁ಕಟ್ಟಿಸಿ	-10.3625
▁ಕಾಣಬಹುದು	-10.3635
here	-10.3639
ುವದಕ್ಕ	-10.3646
▁ಅಮೇರಿಕಾ	-10.3649
▁ಮೊದಲನೇ	-10.3649
▁ಮಾತಿನ	-10.3651
▁not	-10.3658
incarceration	-10.3659
▁ಅಂದಾಜು	-10.3659
▁ವಿದೇಶೀ	-10.3659
▁ಜೆರ್ಸಿ	-10.3659
▁ದೊರಕ	-10.3659
▁ರೀಡರ್	-10.3659
▁ಮೌನ	-10.366
▁ಅನ್ಯಾಯ	-10.3664
101	-10.3665
▁Fly	-10.3699
▁status	-10.3716
▁ಪಿಎಚ್ಪಿ	-10.3716
▁ರಾಸಾಯನಿಕ	-10.3716
▁ಅವಶ್ಯ	-10.3716
▁ಗಿಟಾರ್	-10.3716
▁ಸ್ವರೂಪ	-10.372
▁ದಹನ	-10.3725
▁ಹಾಗಾಗಿ	-10.373
▁ಗೊತ್ತಿಲ್ಲ	-10.3738
1.1	-10.3743
▁ಮರೆಮಾಡ	-10.375
▁ಯೆಹೋಶುವನ	-10.3767
▁ನಿರ್ಣಯ	-10.3769
▁Download	-10.3773
▁LEWISBURG	-10.3773
▁ಗ್ರಂಥಾಲಯ	-10.3773
▁ಪತ್ತೆಕಾರಕ	-10.3773
▁inmate	-10.3773
▁ಹವಾಮಾನ	-10.3773
travel	-10.3773
▁ಕುಸಿತ	-10.3773
▁ದ್ವಿ	-10.3776
▁ಉಪವಾಸ	-10.3776
▁ಅನುಕೂಲಕರ	-10.3777
▁ವೈಲ್ಡ್	-10.3779
▁ಕೂತು	-10.3783
▁ಗ್ಯಾಂಗ್ಸ್ಟ	-10.3785
▁ಸಂಚ	-10.3792
▁ಬಿಗಿ	-10.38
ಿಸುತ್ತಾ	-10.3808
▁ನಿರಂತರ	-10.3808
ಿಗಿಂತಲೂ	-10.381
▁ಡೇರೆ	-10.381
▁ಜೋಡಿಸ	-10.382
▁ಸ್ಲಾಟ್	-10.3825
▁ಗುಂಪ	-10.3827
aucus	-10.383
▁Congressional	-10.383
▁ಕುಂದುಕೊರತೆ	-10.383
▁ಯಾಂತ್ರಿಕ	-10.383
▁ಅರಾಮ್ಯರ	-10.383
▁ಎಸ್ಎಂಯು	-10.383
▁ಚಾವಣಿ	-10.383
▁ಶಿಕ್ಷೆ	-10.3831
▁ಉಲ್ಲಾಸ	-10.3831
▁ಡಬಲ್	-10.3832
160	-10.3843
▁ಕರೆಯಲ್ಪಟ್ಟ	-10.3865
▁ಬೇಡಿಕೊಳ್ಳ	-10.3866
▁ಬಲಪಡಿಸ	-10.3869
press	-10.3873
▁ಬಲಾತ್ಕಾರ	-10.3888
▁BLOODS	-10.3888
▁Politics	-10.3888
▁ವ್ಯಾಯಾಮ	-10.3888
▁ವ್ಯಾಜ್ಯ	-10.3888
▁ಲುಕಪ್	-10.3888
▁ವರ್ಗಾಯಿಸ	-10.389
▁ಬೆಳೆಸ	-10.389
▁Playing	-10.3896
▁ಪ್ರವಾಹ	-10.3897
▁ಪ್ಲಗ್	-10.3899
▁ದೀನ	-10.3901
▁ಹೊಂದಿರುತ್ತದೆ	-10.3912
▁ತ್ತೇನೆ	-10.3914
▁ನವೀಕರಿಸಿದ	-10.3924
ಂದಿನಿಂದ	-10.3932
▁ಸಾಧನೆ	-10.3938
ನಂತರ	-10.3942
▁ದಾವೀ	-10.3946
ы	-10.3946
▁ಒಟ್ಟಾರೆ	-10.3946
▁ಸಂಯೋಜಿಸ	-10.3946
▁Again	-10.3946
▁ಬೆಳಗಾವಿ	-10.3946
▁ಕಳವಳ	-10.3949
▁ಮುಗಿದ	-10.395
▁ಬಲಗೈ	-10.3951
▁ಗದರಿಸ	-10.3956
▁ನಿಂದೆ	-10.3959
▁ಲಂಬ	-10.3962
tech	-10.3971
▁ಪಾಲಿಸಿ	-10.3992
▁ನಮಗ	-10.3994
▁ಬುದ್ಧಿಹೀನ	-10.4005
▁ಅಧೀನ	-10.4005
▁ಬ್ರೌಸರ್	-10.4005
▁ಹೊಣೆಗಾರಿಕೆ	-10.4005
▁ನೇಮಕ	-10.4005
▁ಕನಿಕರ	-10.4008
▁ಐಗುಪ್ತ್ಯರ	-10.4009
▁Watch	-10.4011
▁ಅರಿತ	-10.4012
other	-10.4022
ಸಾಮಾನ್ಯ	-10.4025
ತಕ್ಕದ್ದು	-10.4026
▁Last	-10.4026
que	-10.4037
▁ಸುರಿಸ	-10.4061
▁University	-10.4064
▁ಜೈವಿಕ	-10.4064
▁ಹಿಂದಿರುಗ	-10.4064
▁Cheat	-10.4064
▁ಸೈತಾನನ	-10.4064
duct	-10.4065
▁ಲಾಗಿನ್	-10.4067
▁ಸ್ಥಾಪಿತವಾದ	-10.4068
ಬೇಕೆ	-10.4099
▁ಬೆವಿಕಂ	-10.4123
▁ಗುಪ್ತ	-10.4123
▁ಸಮಿತಿ	-10.4124
▁ಡ್ರೈವ್	-10.4125
ಬಾರದೆಂದು	-10.4127
▁ಕರೆಯಲಾಗುತ್ತದೆ	-10.413
▁ನಿರಂತರವಾಗಿ	-10.4146
▁ನಡುಗ	-10.415
▁ಕೆಡಿಸ	-10.417
▁ಅಂತರ್ಜಾಲ	-10.4182
▁ಪಿಇಟಿ	-10.4182
▁ಕಚ್ಚಾ	-10.4182
▁ಕ್ಯಾಲೆಂಡರ್	-10.4185
ದರ್ಜೆ	-10.4206
▁2006	-10.4238
▁ಯಾರೊಬ್ಬಾಮನ	-10.4242
▁ಆಂಟೆನಾ	-10.4242
▁ತಾಮ್ರ	-10.4243
▁2007	-10.4244
▁ಜಿಎಸ್ಟಿಆರ್	-10.4244
▁ಅಂತಿಮವಾಗಿ	-10.4261
▁ವಾಸವಾಗಿರುವ	-10.4263
▁ಒತ್ತಿ	-10.4268
ಕನ್ನಡ	-10.4273
▁ನೇಮಿಸಿದ	-10.4298
▁ರಿಯಾಯಿತಿ	-10.4302
▁November	-10.4302
▁ಅಸ್ತಿವಾರ	-10.4302
▁ಝೆಜಿಯಾಂಗ್	-10.4302
▁ನಾಗರಿಕ	-10.4302
▁ಜಿಪಿಎಸ್	-10.4302
▁ಆವರಿಸುತ್ತದೆ	-10.4302
▁ವಿದೇಶಿ	-10.4303
▁ಕಂಡುಬರ	-10.4306
▁ನಯವಾದ	-10.4317
▁ಅವಮಾನ	-10.4317
▁ದಾಖಲ	-10.4318
ಪೂರ್ಣ	-10.4327
#	-10.4336
ಹತ್ತನೆಯ	-10.4343
▁ಬಡವರ	-10.4355
▁ಅಭ್ಯಾಸ	-10.4363
▁ಕೆಲವೊಮ್ಮೆ	-10.4363
▁ಸ್ಥಾಪನೆ	-10.4363
▁ವಿಮೋಚಿಸ	-10.4363
▁ಕಿರೀಟ	-10.4363
▁ಮೂರ್ಖ	-10.4363
▁ಸ್ಟೇಟ್ಸ್	-10.4363
▁ಮಹತ್ವ	-10.4363
▁ರಾಜಕೀಯ	-10.4363
love	-10.4387
▁ಬಳಿಯಿಂದ	-10.4388
▁ಬೇಡಿಕೆ	-10.4388
▁ಬಟನ್	-10.439
ುತ್ತಿವೆ	-10.4411
▁ಸಂಪುಟ	-10.4415
▁ದೂತನ	-10.4422
ಿಸುತ್ತಾರೆ	-10.4423
▁ಡೀಫಾಲ್ಟ್	-10.4424
▁ಮಿಶ್ರಣ	-10.4424
▁ಭಯಂಕರ	-10.4424
▁Flv	-10.4424
▁ಮೃದು	-10.4424
▁ಸ್ಟಾಕ್	-10.4425
▁ಕಾಣಿಸಿಕೊಂಡ	-10.4428
▁ಆರೋಗ್ಯಕರ	-10.4433
▁ನೆರವೇರ	-10.4443
▁ಪ್ರಮಾಣಿತ	-10.4455
05-2018	-10.4459
▁CSGO	-10.4485
▁ಸುರಕ್ಷತೆ	-10.4485
▁ಪೋಷಕರ	-10.4485
▁ಎಲುಬುಗಳ	-10.4485
▁ಗೋಳಾಡ	-10.4485
▁ಸ್ನಾನ	-10.4485
▁ವಸಂತ	-10.4486
▁ಬಡ್ಡಿ	-10.4489
▁ಬಲಿಷ್ಠ	-10.4489
▁ಹೊದಿಸ	-10.4492
▁ಪಟ್ಟಣಗಳಲ್ಲಿ	-10.4504
ಯಾಗುತ್ತದೆ	-10.4507
▁ನಿಶ್ಚಯ	-10.4524
-10-20	-10.4531
▁ಕಾನಾನ್	-10.4535
▁ಅಂತಾರಾಷ್ಟ್ರೀಯ	-10.4547
▁ಚಂದಾದಾರ	-10.4547
▁ನ್ಯಾಯಾಧಿಪತಿ	-10.4547
▁ಪೊಲೀಸ್	-10.4547
▁ಹವ್ಯಾಸಿ	-10.4547
▁ಹೆಜ್ಜೆ	-10.4547
▁ಅಂತರರಾಷ್ಟ್ರೀಯ	-10.4547
ಸಿಎಡಿ	-10.4549
▁ಮಣ್ಣಿನ	-10.4549
▁ಅಗ್ನಿ	-10.455
▁ಪದಾರ್ಥ	-10.455
ರೇಖೆ	-10.455
long	-10.4555
▁ತೂಗ	-10.4558
▁ಪುಟ್ಟ	-10.4569
ಭೇದ	-10.4576
▁ಪೂರೈಕೆದಾರ	-10.459
▁ಆಮ್ಲ	-10.4598
▁kr	-10.4601
ಎಲೀಯನ	-10.4607
▁ಪರಿವರ್ತನೆ	-10.4609
▁ಸಂಶೋಧನಾ	-10.4609
▁Christ	-10.4609
▁ಆಧರಿಸಿ	-10.4609
▁ಧ್ವಜ	-10.461
▁ಶಿಕ್ಷಿಸ	-10.4617
▁Game	-10.4627
▁ಉದಾ	-10.4635
▁ಮಾಡುತ್ತಿದ್ದ	-10.4642
5.00	-10.4644
888	-10.4666
▁ಸದಸ್ಯರ	-10.4672
▁Academy	-10.4672
▁modified	-10.4672
▁ಸೊನಿಟಟೂ	-10.4672
▁ಬ್ರಾಂಡ್	-10.4672
▁ಆಮದು	-10.4673
▁ಪತ್ರಕೋಶ	-10.4674
▁ಯೊರ್ದನಿನ	-10.4674
▁ನೆಟ್ಟ	-10.4676
ಧ್ವ	-10.4677
▁ನಿಖರವಾಗಿ	-10.4695
▁Play	-10.4712
ದ್ರಾಕ್ಷ	-10.4734
▁ಪ್ರಾಯಶ್ಚಿತ್ತ	-10.4735
▁ಬಂಡವಾಳ	-10.4735
▁ಮಧ್ಯಾಹ್ನ	-10.4735
▁ವಾತಾವರಣ	-10.4735
▁ಅಗಾಧ	-10.4735
▁ಪರಿಹರಿಸ	-10.4735
▁ಹೋಲಿಕೆ	-10.4735
▁ಮಾಲೀಕರ	-10.4735
▁ಯಾರಂದರೆ	-10.4741
▁ಗಣಿತ	-10.4742
▁ಪ್ಯಾಚ್	-10.4744
▁ಜೀವಿತ	-10.477
code	-10.4775
zip	-10.4784
▁ಪಕ್ಕ	-10.4797
NZD	-10.4798
▁ಬುದ್ಧಿವಂತ	-10.4799
▁ತೊಳೆಯ	-10.4804
▁+91	-10.4813
▁ಫೋರ್	-10.4822
▁ಗಮನಿಸ	-10.4829
ಾವಧಿ	-10.486
▁recipe	-10.4862
▁ವರ್ಗಾವಣೆ	-10.4862
▁ಷಾನ್ಡಾಂಗ್	-10.4862
▁ಸ್ವತಃ	-10.4862
▁Karn	-10.4862
▁ಸವಾರಿ	-10.4862
▁ಆವರಣ	-10.4866
▁ಬೈಬಲ್	-10.4866
▁will	-10.4872
ೊಳಕ್ಕೆ	-10.4872
▁ಹೆತ್ತ	-10.4872
▁ಬಿಟ್ಟುಬಿಡ	-10.4875
▁Qu	-10.4885
ಶೇಷ	-10.4894
▁ಗುಣಲಕ್ಷಣ	-10.4926
▁ಸಂಪಾದಕ	-10.4926
▁ಫ್ರಾನ್ಸ್	-10.4926
▁ಅಹಾಬನ	-10.4926
▁option	-10.4926
▁ಚೀನೀ	-10.4926
▁ಪಾಳೆಯದ	-10.4931
▁free	-10.4932
avi	-10.4955
▁ಹೊಂದಿಲ್ಲ	-10.4966
▁ನಿಂತಿದ್ದ	-10.4974
ಉದಾಹರಣೆಗೆ	-10.498
▁ಉತ್ಪಾದಕ	-10.499
▁ಗಲಿಲಾಯ	-10.499
▁ವಿಶ್ಲೇಷಣೆ	-10.499
▁ಜವಳಿ	-10.499
▁ಸಮೀಪ	-10.4991
▁ಹುಲ್ಲು	-10.4991
Change	-10.4995
▁ಸ್ತುತಿಸಿರಿ	-10.4999
▁XXL	-10.4999
▁ಆದುಕೊಂಡ	-10.5008
▁ಎಣಿಸಲ್ಪಟ್ಟ	-10.5008
ಿಸುವದಕ್ಕೆ	-10.5012
▁ತುದಿ	-10.5026
ೇಶ್ವರ	-10.5029
ಲಾಗುವುದಿಲ್ಲ	-10.5031
▁ಕದಲ	-10.5035
▁ಉಸಿರ	-10.5044
▁ಹೈಡ್ರಾಲಿಕ್	-10.5055
ಕೃಷ್ಣ	-10.5055
▁ಪ್ಯಾಕೇಜಿಂಗ್	-10.5055
▁ಜರ್ಮನಿ	-10.5055
phone	-10.5059
▁ಗೋಪುರ	-10.506
▁ಚೀಯೋನಿನ	-10.5061
cess	-10.5079
▁ನೆನಸ	-10.5096
▁ನಂಬಿಗಸ್ತ	-10.512
▁ಕ್ಲಿಪ್	-10.5122
▁ಆದರ್ಶ	-10.5124
▁ಬದಲು	-10.5128
▁ಯುಕೆ	-10.513
▁ಪಿಎನ್	-10.5134
▁ಟ್ರೆ	-10.5149
ೆಂತಲೂ	-10.5153
ುತ್ತಾಳೆ	-10.5157
ries	-10.5157
▁ಹೊರಡಿಸಿ	-10.5183
▁ಕ್ಯೂ	-10.5185
▁ಪರಿಕಲ್ಪನೆ	-10.5186
▁ತ್ರೈಮಾಸಿಕ	-10.5186
▁ಪ್ರೊಫೈಲ್	-10.5186
▁ಒಡೆದು	-10.5186
ದೊಡ್ಡ	-10.5187
1.5	-10.519
▁ಸಹೋದರಿಯ	-10.5222
▁ತಪ್ಪಿಸಿಕೊಳ್ಳ	-10.5226
▁ತಯಾರಿಕೆ	-10.5245
ಅರಸನ	-10.5252
▁inmenu	-10.5252
▁ನ್ಯಾಯತೀರ್ಪ	-10.5252
▁ಮೊಡವೆ	-10.5253
color	-10.5253
▁ಮಲ್ಟಿ	-10.5253
▁ಓಡಿಹೋದ	-10.5255
Indian	-10.5258
serv	-10.527
▁ಬೇಟೆ	-10.5274
▁ಕೆಲವರ	-10.5275
▁ದಾಸನ	-10.5277
▁ಅಗತ್ಯವಿಲ್ಲ	-10.5294
ದ್ದೇನಂದರೆ	-10.53
▁ಇಂಗ್ಲೀಷ್	-10.5319
▁ಸ್ಪೀಕರ್	-10.5319
▁ಕೀರ್ತಿ	-10.5319
▁ಜನಸಂಖ್ಯೆ	-10.532
▁ಒಳ್ಳೇದನ್ನು	-10.532
▁ಹೋಂಡಾ	-10.5321
▁ರೇಟೆಡ್	-10.5322
▁ನವೀಕರಿಸ	-10.5343
▁ಹಿಂಸಿಸ	-10.5355
▁ಮಹಿಳೆ	-10.5366
ಕ್ಕಿಂತಲೂ	-10.5368
ಪೂರ	-10.5373
xxx	-10.538
▁Holmbygden	-10.5386
▁ಲೈಂಗಿಕ	-10.5386
▁ಗುಲಾಬಿ	-10.5386
▁ನಿಮಗೋಸ್ಕರ	-10.5386
▁VPS	-10.5386
▁ಕಾಳಜಿ	-10.5386
▁ಚೀಟು	-10.5386
ಸೆಪ್ಟ	-10.5387
ೊಮ್ಮೆ	-10.5388
▁ಭಿನ್ನ	-10.5388
▁ಸೊಲೊ	-10.5389
▁ಗಂಡು	-10.5394
▁ಹಿಂತಿರುಗ	-10.5398
▁dis	-10.54
▁ಪ್ಲ	-10.5401
ುವದೂ	-10.5428
▁ವಿಾನ	-10.5431
▁ಅನುಸ್ಥಾಪನ	-10.5454
▁ವಿದ್ಯುಚ್ಛಕ್ತಿ	-10.5454
▁ವೀಕ್ಷಕ	-10.5454
▁ಷೆನ್ಜೆನ್	-10.5454
▁ಕೈಗಾರಿಕೆ	-10.5454
▁ಸಂರಚನೆ	-10.5454
▁ಕೂಪನ್	-10.5454
▁ಚಾನೆಲ್	-10.5454
group	-10.5454
▁ಆಡಿಯೋ	-10.5455
▁have	-10.5458
▁ಸ್ಥಾಪಿಸಲಾಯಿತು	-10.5458
▁(1,5	-10.546
▁ವಹಿಸ	-10.548
▁ಹಾದಿ	-10.5503
್ಲೈ	-10.551
▁ತಗ್ಗಿಸ	-10.5515
▁ಅವಲಂಬಿಸಿ	-10.5522
ಮೌಲ್ಯಮಾಪನ	-10.5522
฿	-10.5522
▁ಕ್ರಾಫ್ಟ್	-10.5522
▁ಶೇಖರಣಾ	-10.5522
▁ಕ್ರೀಡಾ	-10.5522
▁ಈಹೊತ್ತು	-10.5522
▁ಹೆಬ್ರೋನ	-10.5522
▁ಕನಸು	-10.5522
▁ಅರ್ಥಮಾಡಿಕೊಳ್ಳ	-10.5522
▁ಆಕೆಗೆ	-10.5523
▁ಪಸ್ಕ	-10.5523
ಟ್ರಿಕ್	-10.5528
▁Xxx	-10.5529
▁ಗುಂಪಿನ	-10.5533
▁ರಮ್ಯ	-10.5546
Host	-10.5583
ಕೂಟ	-10.5585
6.5	-10.5586
▁ಆರೈಕೆ	-10.559
▁PNG	-10.559
ೋತ್ಸವ	-10.5591
▁ಕುತ್ತಿಗೆ	-10.5591
▁ಅತಿಥಿ	-10.5596
▁ದಾಖಲಿಸಿದ	-10.561
▁ಕಾಣಿಸಿಕೊಳ್ಳ	-10.5615
з	-10.5659
▁Tulu	-10.5659
▁ಕಂಪೆನಿ	-10.5659
JPY	-10.566
▁ದೋಸೆ	-10.566
▁ಶಾಪಿಂಗ್	-10.5664
▁1.2	-10.5683
0.9	-10.5707
▁ಟೆಕ್ನಾಲಜಿ	-10.5729
▁ಪ್ರದರ್ಶಕ	-10.5729
▁ಬೃಹತ್	-10.5729
Welcome	-10.5729
▁ಪಂದ್ಯ	-10.5729
▁ಸ್ಕೈಪ್	-10.5729
▁ಗಂಡಸರ	-10.5729
▁ಮೂಡಣ	-10.5729
▁ಪರಿವಿಡಿ	-10.5729
▁ಟ್ರ್ಯಾಕ್	-10.5731
▁ಅರಿವ	-10.579
▁ಯೆರೂಸ	-10.5798
▁ತುಣುಕು	-10.5799
▁Antiparos	-10.5799
▁ಗಮನಾರ್ಹ	-10.5799
▁ಫೋಲ್ಡರ್	-10.5799
▁ವಿಶ್ವವಿದ್ಯಾನಿಲಯ	-10.5799
▁ಸೈಟ್ಮ್ಯಾಪ್	-10.5799
▁ತಂಪಾದ	-10.5799
▁Sexu	-10.5799
▁ವಿಶ್ವಾಸ	-10.5801
▁ಕರೆದುಕೊಂಡು	-10.5804
▁ಬಂಧಿಸ	-10.5804
▁ಹೆತ್ತಳು	-10.5806
▁ಕರೆಯಲ್ಪಡುವ	-10.5829
▁ಜ್ಞಾನಿಯ	-10.5861
▁ವಿಜ್ಞಾಪನೆ	-10.5869
▁ಸಾಮಗ್ರಿ	-10.5869
▁ಎಪ್ಪತ್ತು	-10.5869
▁ಜಗತ್ತಿನ	-10.5869
▁ಸಂಗಾತಿ	-10.5869
▁ಮುಂದುವರಿಸ	-10.5869
▁ಅನ್ಯಜನರ	-10.5871
▁ಲವ್	-10.5878
▁ಇಟ್ಟುಕೊಂಡ	-10.5882
▁ಹಾಳುಮಾಡ	-10.5886
▁ರೋಗಿಗಳ	-10.5892
▁ಹಾಸ್ಯ	-10.5904
▁ಇಳಿಸ	-10.5907
▁ವಿಧಿಸ	-10.5912
▁ವೀಕ್ಷಿಸ	-10.5938
Electronic	-10.594
▁button	-10.594
▁ಫರಿಸಾಯರ	-10.594
▁ನಿರಾಕರಿಸ	-10.594
▁ನಿರ್ಧಾರ	-10.594
▁ಸುರುಳಿ	-10.594
▁ಸಾಮ್ಯ	-10.5941
ಸಾಫ್ಟ್	-10.5941
▁ಸಚಿವ	-10.5943
▁ಬೇರಿಂಗ್	-10.5946
ಿಬ್ಬರ	-10.5952
▁ಬ್ಯಾಂಕ	-10.5957
ಮನುಷ್ಯ	-10.5969
▁ಸೀಮೋನ	-10.5997
▁ದೊರೆಯ	-10.6011
▁Tablet	-10.6012
▁ಮುಳ್ಳು	-10.6012
▁ಉಂಟಾಯಿತು	-10.6013
▁ಸಂಪರ್ಕಿಸಬಹುದು	-10.6016
▁ಒಳಗಾಗ	-10.6025
▁ಬಾಳನ	-10.6035
ಕುಮಾರ	-10.6061
▁ತುಂಬಿಸ	-10.6065
ი	-10.6083
NamePossessive	-10.6083
▁ವಯಸ್ಸಿನ	-10.6083
▁ಆಸ್ಪತ್ರೆ	-10.6083
▁ಜಾಲತಾಣ	-10.6083
▁ದಾನಿಯೇಲನ	-10.6083
▁ಸ್ಕೂಲ್	-10.6084
▁ಕೈಪಿಡಿ	-10.6084
▁ಬ್ರೇಕ್	-10.6084
▁ಮೌಸ್	-10.6084
▁ರಷ್ಯಾ	-10.6086
▁ಸೈಕಲ್	-10.6087
▁ಕುಷ್ಠ	-10.6099
▁ಉಡುಗೊರೆ	-10.6156
▁ವೈಜ್ಞಾನಿಕ	-10.6156
▁ಚರ್ಚ್	-10.6156
▁ಸಾಮಾನು	-10.6156
▁team	-10.6157
▁ಮಗಳಾದ	-10.6157
sign	-10.6159
quot	-10.6163
▁ಪತ್ತೆ	-10.6163
-09-20	-10.6171
ಿರುತ್ತಾರೆ	-10.6199
▁ಕಲಿತ	-10.6226
▁ಕಾರ್ಯಕ್ಷಮತೆ	-10.6229
▁ಬಹುತೇಕ	-10.6229
▁ವೇಳಾಪಟ್ಟಿ	-10.6229
▁ವರ್ಧ	-10.6234
▁ಉಳಿದವರ	-10.6296
▁ಮೋವಾಬಿನ	-10.6302
▁ರೌದ್ರ	-10.6302
▁ದೃಷ್ಟಿಕೋನ	-10.6302
▁ಚರ್ಚೆ	-10.6302
▁ಒಡೆಯ	-10.6317
▁ಡ್ಯೂ	-10.632
▁ಕಾಣಿಸುತ್ತದೆ	-10.633
ಮುಂದೆ	-10.634
ರಾಗಿದ್ದೇವೆ	-10.6373
▁ಅನ್ವೇಷಿಸ	-10.6376
▁ಇಂಜೆಕ್ಷನ್	-10.6376
▁ಬಹಿರಂಗ	-10.6376
▁ಸುವಾಸನೆ	-10.6376
▁ಡೀಲುಗಳು	-10.6376
▁ತುರ್ತು	-10.6376
▁ಯೆಶಾಯ	-10.6377
▁ಅಂಚೆ	-10.6379
▁ಸಂಬಂಧಪಟ್ಟ	-10.6383
ಾಕಾರದ	-10.6433
▁Episode	-10.6451
▁ಔತಣ	-10.6451
▁ಮೈಸೂರು	-10.6451
▁ಗ್ರಹಿಕೆ	-10.6452
▁ಮಗುವಿನ	-10.6457
▁ಭಾವಿಸುತ್ತೇವೆ	-10.6458
soft	-10.6468
▁ಸ್ತುತಿ	-10.6514
▁ಏನಾಯಿತಂದರೆ	-10.6526
▁ಸೆಕೆಂಡು	-10.6526
▁ಸ್ವಾತಂತ್ರ್ಯ	-10.6526
▁ಅನುಗುಣವಾಗಿ	-10.6526
▁ನೌಕರರ	-10.6526
▁ಹೇಗಾದರೂ	-10.6526
▁ಸೌಕರ್ಯ	-10.6526
▁ಹೆಣ್ಣು	-10.6526
▁Movie	-10.6526
▁ಸ್ವಚ್ಛ	-10.6529
▁ಅನಿಲ	-10.6536
http	-10.6572
▁ಅನ್ಯಜನಾಂಗಗಳ	-10.6602
▁ಕಸ್ದೀಯರ	-10.6602
▁ಗೌಪ್ಯತಾ	-10.6602
▁ಜಾಕ್ಪಾಟ್	-10.6602
▁ಯೌವನಸ್ಥರ	-10.6602
▁ರೇಖಾಚಿತ್ರ	-10.6602
▁ಸ್ಟ್ಯಾಂಡರ್ಡ್	-10.6602
▁ಸ್ಪ್ರಿಂಗ್	-10.6602
▁ಹೇಗಂದರೆ	-10.6602
▁ಚಲಾಯಿಸ	-10.6602
▁ಗ್ಲಾಸ್	-10.6602
▁ಪೂರಕ	-10.6603
▁ದಹಿಸ	-10.6618
▁ಕುಗ್ಗಿ	-10.6657
▁Quality	-10.6678
▁ಅಸ್ವಸ್ಥ	-10.6678
▁ಪೇಟೆಂಟ್	-10.6678
▁ಒಬ್ಬರಿಗೊಬ್ಬರು	-10.6678
▁ಪ್ರೇರೇಪಿಸ	-10.6678
▁ಅಮೋರಿಯರ	-10.6678
▁ಟ್ಯಾಂಕ್	-10.668
▁ಎಲ್ಲವುಗಳ	-10.6681
ಬೇಕಾದದ್ದೇನಂದರೆ	-10.6681
board	-10.6684
hang	-10.6688
English	-10.673
▁Gratuit	-10.6755
▁ಡೊಮೈನ್	-10.6755
▁ನೆಬೂಕದ್ನೆಚ್ಚರನ	-10.6755
▁ಇಂಡಸ್ಟ್ರಿ	-10.6755
▁ಕಲಾವಿದ	-10.6756
▁ರಕ್ಷಕ	-10.6756
▁ಸಹಿತವಾಗಿ	-10.6756
▁ವಿಧವೆಯ	-10.676
▁ಹುಡುಗಿಯರ	-10.6794
Pirater	-10.6833
▁ಯೆಹೋಷಾಫಾಟನ	-10.6833
▁ಸಿಎನ್ಸಿ	-10.6833
▁ಅಬ್ರಾಮನ	-10.6833
▁ಪೀಳಿಗೆಯ	-10.6833
▁Piece	-10.6842
ಿಸುತ್ತವೆ	-10.6879
ಮೋನನ	-10.688
WysLuxury	-10.6911
▁TabletWise	-10.6911
▁ನಿರ್ವಹಣಾ	-10.6911
▁ಹೀಗಿರುವದರಿಂದ	-10.6911
▁ಡೇಟಾಬೇಸ್	-10.6911
▁ಡೇವಿಡ್	-10.6911
▁ಬಿದಿರು	-10.6911
uenee	-10.6912
▁ಇಚ್ಛೆ	-10.6912
▁ಯೋಚನೆ	-10.6914
▁ನಿಗಮ	-10.6916
▁Comp	-10.6924
▁ಯೋಬನ	-10.6924
▁ದೊಡ್ಡದಾಗಿ	-10.695
▁ಡ್ರೈ	-10.6989
▁ಗಿಲ್ಯಾದಿನ	-10.699
▁ವಿಸ್ಮಯ	-10.699
▁ಗುರಾಣಿ	-10.699
▁ವಂದನೆ	-10.699
▁ಸುತ್ತಲಿರುವ	-10.699
▁ಕೃತ್ಯಗಳ	-10.699
▁ಕವಾಟ	-10.699
▁ಪ್ರಯಾಣಿಕರ	-10.6995
б	-10.7069
ö	-10.7069
▁WordPress	-10.7069
▁unlimited	-10.7069
▁ವರ್ಗವಿಲ್ಲದ್ದು	-10.7069
▁ಸ್ಟೇನ್ಲೆಸ್	-10.7069
▁ತೀರ್ಮಾನ	-10.7069
▁ಒಪ್ಪಿಸಿಕೊಟ್ಟ	-10.7069
▁ಭಿನ್ನತೆಗಳು	-10.7069
▁ಮುನ್ನೋಟ	-10.7069
▁ಮೈಕ್ರೋಸಾಫ್ಟ್	-10.7069
▁ಹೋರಾಡ	-10.7072
▁ಕಾನಾನ್ಯರ	-10.7086
▁ಸಮ್ಮುಖ	-10.71
ಿಲ್ಲವಾದರೆ	-10.7121
▁ಗಾದನ	-10.7125
▁ರಚಿಸಿದ	-10.7135
▁ರೂಬೇನನ	-10.7149
▁ವರ್ಚುವಲ್	-10.7149
▁ಸಾಹಿತ್ಯ	-10.7149
▁HGH	-10.7149
▁ಪ್ರಸಕ್ತ	-10.7149
г	-10.7149
▁ಪರಿಮಳ	-10.7149
▁ಬೆಸುಗೆ	-10.7149
▁ಸರಕಾರ	-10.7165
▁ವಧಿಸ	-10.7178
▁2018-10-	-10.7181
ರಾಗಿರ್ರಿ	-10.7184
▁ಸಮೃದ್ಧಿಯ	-10.7209
▁ಬುಧವಾರ	-10.723
▁ಅಮ್ಮೋನನ	-10.723
▁ಸಿಎಎಸ್	-10.723
▁ವಲಸೆ	-10.723
▁ಕೊನೆಯದಾಗಿ	-10.723
▁ಅಡ್ಡಬಿದ್ದ	-10.7231
▁ವಾಹಕ	-10.7233
ಭರಿತ	-10.7236
▁ಅಣು	-10.7237
▁ಅಂಚಿನ	-10.7252
▁ಕರಗುವ	-10.7259
tube	-10.7284
ೆಕ್ಟರ್	-10.7308
▁ಶಿಕ್ಷಕ	-10.731
▁December	-10.7311
▁ಪ್ರೀಮಿಯಂ	-10.7311
▁ಫಾರ್ಮುಲಾ	-10.7311
▁ವೈರ್ಲೆಸ್	-10.7311
▁ಸಂವೇದಕ	-10.7311
▁ಜೀವದಾಣೆ	-10.7311
▁ಬುಗ್ಗೆ	-10.7311
▁ಸೀರಿಯಲ್	-10.7311
▁ಯೆರಿಕೋ	-10.7311
ಿಸುತ್ತಿದ್ದ	-10.7311
▁ಗಾಜಿನ	-10.7311
!!!	-10.7311
▁ಕಾರ್ಮಿಕ	-10.7312
ಲಾರಂಭಿಸಿ	-10.7319
▁ಯೂದನ	-10.7337
ಗೊಡಿಸ	-10.7349
▁ಮುಂದುವರೆಸ	-10.7393
▁YouTube	-10.7393
▁ತಲಾಂತು	-10.7393
▁ಫ್ರೆಂಚ್	-10.7393
▁Company	-10.7393
▁ಆಲೋಚಿಸ	-10.7393
▁ವಯಸ್ಕರ	-10.7393
▁ಇನ್ನೊಬ್ಬ	-10.7393
ಪ್ಲಗಿನ್	-10.7393
▁ವಿಂಗಡಿಸ	-10.7393
▁ಮನುಷ್ಯಕುಮಾರನ	-10.7393
▁ಓಪನ್	-10.7393
▁ಹೊಯ್ಯ	-10.7394
▁ಬೇಸರ	-10.7394
▁ಹೊರಗಿನ	-10.7397
▁ಶಾಸ್ತ್ರಿಗಳ	-10.7397
▁Opera	-10.7397
ಮಂಡಲ	-10.7415
ಹೆಸರ	-10.7417
▁ಆಕರ್ಷಕ	-10.7476
▁ಎಸ್ತೇರಳ	-10.7476
▁ವಯಸ್ಸು	-10.7476
▁ಶಿಲುಬೆಗೆ	-10.7476
▁ಸ್ಕ್ವೇರ್	-10.7476
▁ಫಿಟ್ಟಿಂಗ್	-10.7476
▁ಎಷ್ಟರ	-10.7476
▁ಗೈಡ್	-10.7476
▁ರೋಲರ್	-10.7477
▁ಎಂದರೇನು	-10.7559
▁ಎಸ್ಎಂಎಸ್	-10.7559
▁ಮಿಕ್ಕಾದ	-10.7559
▁ಶ್ರೀಮಂತ	-10.7559
▁ಕೆತ್ತಿದ	-10.7559
–	-10.7561
ನಿಮಗೆ	-10.7562
▁ಸಮೃದ್ಧ	-10.758
▁ಅನಂತ	-10.7594
ಮೃತ	-10.7605
8.00	-10.7612
Pieces	-10.7632
▁ದಮಸ್ಕ	-10.7643
▁ಅನುಯಾಯಿಗಳು	-10.7643
▁ಟರ್ಮಿನಲ್	-10.7643
▁ತಾತ್ಕಾಲಿಕ	-10.7643
▁ಬಿರುಗಾಳಿ	-10.7643
▁ಬಿಳಾಮನ	-10.7643
▁ಮನುಷ್ಯಪುತ್ರನೇ	-10.7643
▁ಸಂಪರ್ಕವಿಳಾಸ	-10.7643
▁ದೊರೆತ	-10.7643
▁ಸಗಟು	-10.7643
▁ಸುತ್ತಿಕೊಂಡ	-10.7666
▁ಊಹಿಸ	-10.7688
▁ಥ್ರೆಡ್	-10.7728
▁ರೆಸಲ್ಯೂಶನ್	-10.7728
▁ಪರಿಮಾಣ	-10.7728
▁ಟೂಲ್	-10.7728
▁about	-10.7728
▁ವಂಚನೆ	-10.7728
Lights	-10.7729
▁ಅಗ್ಗದ	-10.7733
▁ವಂಶಾವಳಿ	-10.7813
▁Copyright	-10.7813
▁ಅಂಜೂರ	-10.7813
▁ಚಳಿಗಾಲ	-10.7813
▁ಮುಂದುವರಿಯ	-10.7813
▁ವಿಸ್ತಾರ	-10.7813
▁ಮಾತ್ರವಲ್ಲದೆ	-10.7813
▁ಆತಂಕ	-10.7813
▁ಪವಿತ್ರಾತ್ಮನ	-10.7813
▁ಭಯಪಡಬೇಡ	-10.7869
▁ಸಭಾಮಂದಿರ	-10.7899
▁Service	-10.7899
▁ಇತ್ತೀಚೆಗೆ	-10.7899
▁ಎಂಜಿನಿಯರಿಂಗ್	-10.7899
▁ಮುಂದುವರಿದ	-10.7899
▁ಶನಿವಾರ	-10.7899
▁ಸ್ನಾಯು	-10.7899
▁ಕ್ರೀಮ್	-10.7899
▁ಖಚಿತವಾಗಿ	-10.7899
NUM	-10.79
▁ಅಡುಗೆ	-10.79
count	-10.7903
▁ವಿನಂತಿ	-10.7909
▁ಮೇಯಿಸ	-10.7934
google	-10.7986
▁ಚುನಾವಣೆ	-10.7986
▁ಮೊರ್ದೆಕೈ	-10.7986
▁ವಿಜೇತ	-10.7986
▁Yobt	-10.7986
▁ಅಂಕಿಅಂಶ	-10.7986
▁ವಾದ್ಯಸಂಗೀತ	-10.7986
▁ವರ್ಕರ್ಸ್	-10.7986
▁ಸಂಭಾವ್ಯ	-10.7986
▁ಗರ್ಭಿಣಿ	-10.7986
▁ಲಂಡನ್	-10.7986
▁ಕರುಣಿಸ	-10.7986
▁ಆಚರಣೆ	-10.7987
▁ಭುಜ	-10.7987
▁ಸಾವಿರಾರು	-10.7987
▁ಹಗಲು	-10.7988
ಸ್ಕ್ರಿಪ್ಟ್	-10.8074
▁window	-10.8074
▁ಅಬೀಮೆಲೆಕನ	-10.8074
▁ಕ್ರಿಸ್ಮಸ್	-10.8074
▁ಸದಾಕಾಲ	-10.8074
▁National	-10.8074
craft	-10.8074
▁ತಡೆಗಟ್ಟ	-10.8074
▁ಆಟಗಾರರು	-10.8074
▁ವರ್ಲ್ಡ್	-10.8075
▁ಬಜೆಟ್	-10.8075
▁ಬೂದಿ	-10.8075
ೆಂಬದನ್ನು	-10.8075
▁ಸಂರಚನಾ	-10.8134
▁ಜ್ಞಾನಿಗಳ	-10.8149
▁Copyshop	-10.8163
▁Omegle	-10.8163
▁ಅದೃಷ್ಟ	-10.8163
▁ನೋಂದಾಯಿಸ	-10.8163
▁check	-10.8163
ч	-10.8163
▁ದೇವದಾರು	-10.8163
▁ಆರ್ಭಟ	-10.8163
▁ಶಾಸ್ತ್ರೀಯ	-10.8163
▁ವಿಫಲಗೊಂಡಿದೆ	-10.8163
▁ವೈರಸ್	-10.8165
▁ಅಂಚು	-10.8165
▁ಧ್ಯಾನ	-10.8174
ಕಳುಹಿಸ	-10.8192
▁ನೆಲೆಗೊಂಡಿ	-10.8192
▁ಶಂಕರ	-10.8199
▁ಚಿದ್ಕೀಯನ	-10.8252
▁ಟ್ಯುಟೋರಿಯಲ್	-10.8252
▁ಪ್ರಾಯೋಗಿಕ	-10.8252
▁HTML	-10.8252
▁Kazan	-10.8252
▁ಪರಿವರ್ತಕ	-10.8252
boss	-10.8254
ಅಥವಾ	-10.8279
▁ಇಬ್ಬರ	-10.83
ಾಧಿಕಾರಿ	-10.8305
▁ಮುದ್ರಿಸ	-10.8318
▁Update	-10.8342
▁ಪಾರದರ್ಶಕ	-10.8342
▁ಯುಗಯುಗಕ್ಕೂ	-10.8342
▁ತೊಳೆದು	-10.8342
▁ಕ್ರಮವಿಧಿ	-10.8342
▁ಹೆಸರಿಟ್ಟನು	-10.8342
▁ಹೋರಾಟ	-10.8342
▁ಚಾರ್ಜರ್	-10.8342
▁ಬೋಯಿಂಗ್	-10.8342
▁ಸ್ವಿಚ್	-10.8342
▁ಫೀಡರ್	-10.8342
▁ಅಚ್ಚು	-10.8344
▁ಮೇಜಿನ	-10.8352
▁ಬೆನ್ಯಾವಿಾನ	-10.8355
Sky	-10.836
▁ಫಿಲಿಷ್ಟಿ	-10.8421
▁ಡೊಮೇನ್	-10.8433
▁Infinite	-10.8433
▁ಮುಂಜಾಗ್ರತೆ	-10.8433
▁ಸನ್ನಿವೇಶ	-10.8433
▁ಖರ್ಚು	-10.8433
▁ಔಟ್ಪುಟ್	-10.8433
▁service	-10.8433
▁ಪ್ರತಿಷ್ಠೆ	-10.8433
▁ಗ್ರೀನ್	-10.8433
▁ಪರಕೀಯ	-10.8433
▁ರಬ್ಬರ್	-10.8433
▁ಆದದ್ದೇನಂದರೆ	-10.8433
▁ಚಾನಲ್	-10.8434
▁ಲೇಬಲ್	-10.8434
▁ಮಿರರ್	-10.8435
▁ಹಗಲಿ	-10.8443
▁ಪರಿಚಯಿಸ	-10.8455
▁ಗಡಿಯಾರ	-10.8525
▁ರಿಸರ್ಚ್	-10.8525
▁ಶಿಪ್ಪಿಂಗ್	-10.8525
▁ಇನ್ಪುಟ್	-10.8525
▁ಗ್ರೂಪ್	-10.8525
▁ಜರ್ಮನ್	-10.8525
▁ಹೂಣಿಡ	-10.8525
atercolor	-10.8525
ಿರುವುದರಿಂದ	-10.8525
▁ಸಾಹಸ	-10.8527
▁ಅಭಿಷೇಕಿಸ	-10.853
▁ಸ್ಮರ	-10.8532
▁ಬಯಸಿದ	-10.8583
▁MYHH	-10.8617
▁ಸ್ಪರ್ಧೆ	-10.8617
ಚಪ್ಪಾಳೆ	-10.8617
▁ಕ್ಲೈಂಟ್	-10.8617
▁ನೇಮಕಾತಿ	-10.8617
▁ಪಿಡಿಎಫ್	-10.8617
▁ನೃತ್ಯ	-10.8617
▁ಮುತ್ತಿಗೆ	-10.8617
▁ಉಣ್ಣೆ	-10.8618
III	-10.8618
▁ಹಾಳಾದ	-10.8618
▁ತಿಳುಕೊಂಡ	-10.8618
▁ಹುಡುಕುತ್ತಿರುವುದ	-10.862
▁ಒಯ್ದ	-10.8622
▁ಹರ್ಷ	-10.8625
▁ಕಳೆದುಕೊಳ್ಳ	-10.8625
ಭೋಗ	-10.8648
ಸುಮಾರು	-10.8658
ಕೇಳಲು	-10.8659
▁ಬಾಧಿಸ	-10.8664
▁Changzhou	-10.8711
▁Published	-10.8711
▁ಅಧಿಸೂಚನೆ	-10.8711
▁ಗುವಾಂಗ್ಡಾಂಗ್	-10.8711
▁ತಿರುಕ್ಕುಱಳ್	-10.8711
WHSR	-10.8711
▁ಅನುಮೋದನೆ	-10.8711
▁ಎದುರಿನಲ್ಲಿ	-10.8711
▁ಘೋಷಿಸ	-10.8711
▁FAQ	-10.8711
▁ಟೂರ್	-10.8711
html	-10.8711
▁ನನಗೋಸ್ಕರ	-10.8711
ಇಜ್ರೇ	-10.8714
▁ಬೊಗ್ಗಿ	-10.8749
▁ಆಜ್ಞಾ	-10.8751
▁ಬೆರಳು	-10.8753
▁ಸಂಧಿಸ	-10.8754
ಯಾವುದೇ	-10.8756
0.8	-10.8768
▁ಮುಟ್ಟಿದ	-10.8791
▁ವೈರಿಗಳ	-10.88
▁ಅಬ್ನೇರನ	-10.8805
▁Evolution	-10.8805
▁ನಡವಳಿಕೆ	-10.8805
▁ಪರಿಶೀಲನೆ	-10.8805
▁ಪ್ರಾಮಾಣಿಕ	-10.8805
▁ಮಾಲೀಕತ್ವ	-10.8805
▁ಸರ್ವಶಕ್ತನ	-10.8805
▁ಪ್ರಾಚೀನ	-10.8805
▁ಚರ್ಚಿಸ	-10.8805
▁ವರ್ತಮಾನ	-10.8805
▁ಬಾಹ್ಯ	-10.8805
▁ಒಟ್ಟುಗೂಡಿ	-10.8806
▁ನೋಹನ	-10.8807
Ltd	-10.8808
▁ಅಸ್ತಿತ್ವ	-10.8809
▁ನಿರ್ಣಯಿಸ	-10.8811
Sales	-10.8821
▁ಓದುಗರ	-10.8826
ಅಳಿಸಿಬಿಡು	-10.8891
Description	-10.89
▁ಜ್ವಾಲೆ	-10.89
▁ದೈಹಿಕ	-10.89
▁ಪಶ್ಚಾತ್ತಾಪ	-10.89
▁ಫಿಟ್ನೆಸ್	-10.89
▁ಫೆಬ್ರುವರಿ	-10.89
▁ವ್ಯಾಖ್ಯಾನ	-10.89
▁ಸಂಭಾಷಣೆ	-10.89
Private	-10.89
▁ಜೀಸಸ್	-10.89
▁ಇಂಚು	-10.8902
▁ಹಾಮಾನನ	-10.8913
▁ಲೆಕ್ಕಿಸ	-10.8939
▁ಎಚ್ಚರಿಸ	-10.8947
▁ಉಂಗುರ	-10.8996
▁ಜನಸಮೂಹ	-10.8996
▁ಮುಂಚಿತವಾಗಿ	-10.8996
▁ಏಷ್ಯನ್	-10.8996
▁ಸುಜುಕಿ	-10.8996
Uncategorised	-10.8996
▁Key	-10.8997
▁ಸಂರಚಿಸು	-10.8997
▁Charg	-10.8999
▁ಒಪ್ಪಿಕೊಳ್ಳ	-10.9002
▁ಬ್ರಹ್ಮ	-10.9002
▁ಒಂಟೆಗಳ	-10.9002
ುವದಕ್ಕೋಸ್ಕರ	-10.9043
▁ಉಳಿತಾಯ	-10.9093
▁ಒಳಾಂಗಣ	-10.9093
▁ಸಮತೋಲನ	-10.9093
▁ಆಮ್ಲಜನಕ	-10.9093
▁ಷೇರು	-10.9093
▁ನಿಭಾಯಿಸ	-10.9093
▁ಮೆಮೊರಿ	-10.9094
▁ಲಾಬಾನನ	-10.9094
▁ಕಾರ್ಯದರ್ಶಿಗಳ	-10.9094
View	-10.9094
▁ಕಾಗದದ	-10.9094
▁ವ್ಯಸನ	-10.9094
▁ಪರೀಕ್ಷಾ	-10.9094
▁ಚಿಂತಿಸ	-10.9097
▁ಚಲನೆ	-10.9098
ology	-10.9098
▁ಮರಿಯಳ	-10.9102
▁ಆಶಿಸ	-10.9124
▁ಪೇತ್ರನ	-10.913
ಸ್ವಾಮಿ	-10.9142
kanna	-10.919
▁ಅಭ್ಯರ್ಥಿ	-10.9191
▁ಅಲ್ಯೂಮಿನಿಯಂ	-10.9191
▁ಎಲೆಕ್ಟ್ರಿಕ್	-10.9191
▁ಐಷಾರಾಮಿ	-10.9191
▁ಮಂಗಳವಾರ	-10.9191
▁ದ್ವೇಷ	-10.9191
▁ಎಣ್ಣೇ	-10.9192
▁ಹಣ್ಣಿನ	-10.9192
▁ದಯಮಾಡಿ	-10.9192
▁ಇಟಲಿ	-10.9193
▁ಕಣ್ಣೀರ	-10.9197
▁ಬಿಸಾಡ	-10.9198
ಸ್ಥಿತಿ	-10.9287
▁January	-10.929
▁OpenMandriva	-10.929
▁ಆಳ್ವಿಕೆಯ	-10.929
▁ಪೀಠೋಪಕರಣ	-10.929
▁ಫೌಂಡೇಶನ್	-10.929
▁ಡೈಮಂಡ್	-10.929
▁ಕೀಲಿಕೈ	-10.929
▁SQL	-10.9291
▁ದೆಸೆಯಿಂದ	-10.9291
▁THB	-10.9291
▁ವಂದಿಸ	-10.9303
ಒಡೆಯನೇ	-10.9348
▁123456	-10.939
▁ಟೆಂಪ್ಲೇಟ್	-10.939
▁ವಿಂಟೇಜ್	-10.939
▁ಸೈನ್ಯಾಧಿಪತಿ	-10.939
▁ಒಕ್ಕೂಟ	-10.9391
▁ಸತ್ತುಹೋದ	-10.9391
▁ಬ್ರೌನ್	-10.9391
ಿಗಾದರೂ	-10.9469
▁ಬೇಯಿಸ	-10.9489
wysluxury	-10.9491
▁KPCL	-10.9491
▁Minecraft	-10.9491
▁ಮರುಪಾವತಿ	-10.9491
▁ಯೋಷೀಯನ	-10.9491
▁ಸಂಕೀರ್ಣ	-10.9491
▁ಥಾಮಸ್	-10.9491
▁ಶತಮಾನದ	-10.9492
▁ಸಿಮೆಯೋನ	-10.9492
▁tips	-10.9492
▁ಪೂರ್ತಿ	-10.9492
▁ಅಭಿಮಾನಿ	-10.9492
▁ಸಂಪರ್ಕತಟ	-10.9492
Rider	-10.9492
▁ಪ್ರೆಸ್	-10.9494
ಮಕ್ಕಳ	-10.9501
ಸ್ಥಾಪಿಸ	-10.9551
▁ತಾಳ್ಮೆ	-10.9594
▁Instagram	-10.9594
▁ಕಾಕ್ಪಿಟ್	-10.9594
▁ಪ್ರಾಜೆಕ್ಟ್	-10.9594
▁ಮಾನಸಾಂತರ	-10.9594
▁ರೆಕಾರ್ಡ್	-10.9594
▁ಸಾಂಸ್ಕೃತಿಕ	-10.9594
medicine	-10.9594
▁ಮುಖ್ಯಾಂಶಗಳು	-10.9594
▁ಪ್ರವೃತ್ತಿ	-10.9594
▁ಫ್ಲಾಟ್	-10.9594
▁ಎಂಬುದರ	-10.9595
SGD	-10.9602
▁Jizerou	-10.9697
▁Piwigo	-10.9697
▁SlotJar	-10.9697
▁episode	-10.9697
▁ಪ್ರಾತಿನಿಧ್ಯ	-10.9697
▁years	-10.9697
▁ಇದೀಗ	-10.9697
▁ಚಾದೋಕನ	-10.9697
▁ಕ್ಷಾಮ	-10.9697
▁ಮುಂಬೈ	-10.9697
▁ಜೇಮ್ಸ್	-10.9697
▁ಮಾಡ್ಯೂಲ್	-10.9697
▁ಎಲ್ಲಾಜಾರನ	-10.9697
▁ಉಪ್ಪು	-10.9697
▁ಒಳಗಿನ	-10.97
Color	-10.9701
▁ಅಭಿಷೇಕ	-10.9794
▁ವಾಲ್ಪೇಪರ್	-10.9801
▁Energy	-10.9801
▁ಪಾರಿವಾಳ	-10.9801
რ	-10.9801
▁ಹೊರಾಂಗಣ	-10.9801
▁ಕ್ರಿಯಾತ್ಮಕ	-10.9801
▁ಯೋಜಿತ	-10.9801
▁ತಜ್ಞರು	-10.9801
▁ತೊರೆದು	-10.9801
▁ಕಿನ್ನರಿ	-10.9801
▁ಸಮ್ಮತಿ	-10.9801
▁ವಿತರಕ	-10.9801
ಿಗರಂ	-10.9803
▁PRO	-10.9806
▁ವಿತರಿಸ	-10.9807
▁Porn	-10.9808
▁ಬೆಚ್ಚಗ	-10.9809
ಶೈಲಿ	-10.989
ದಕ್ಷಿಣ	-10.989
▁ಬೇತ್ಲೆಹೇಮ	-10.9906
▁ಐಎಸ್ಒ	-10.9906
▁ನಿರ್ಗಮಿಸ	-10.9906
▁ಭೋಜನ	-10.9906
ಐಡಿಯಾಸ್	-10.9906
▁ಸ್ಟೀಮ್	-10.9906
▁ಕಸೂತಿ	-10.9906
▁ಅಮಾನ್ಯ	-10.9906
▁ರಿಟರ್ನ್	-10.9906
▁ಕಳೆದುಕೊಂಡ	-10.9909
ಾಬಾದ್	-10.9914
▁ಷ್ಯನ	-10.9924
▁ಕಂಡುಹಿಡಿಯ	-10.9987
▁ಖಿನ್ನತೆ	-11.0012
▁ದಶಮಾಂಶ	-11.0012
▁ಪುನರುತ್ಥಾ	-11.0012
▁24*7	-11.0012
▁ಪ್ಲಾಸ್ಮಾ	-11.0012
▁ದುಬಾರಿ	-11.0012
▁ನಮಗೋಸ್ಕರ	-11.0013
▁DVD	-11.0013
▁ಜಾರತ್ವ	-11.0013
▁ಅನುಗ್ರಹಿಸ	-11.0013
direct	-11.0014
▁ಕೊಬ್ಬಿನ	-11.0019
ಅಂಗಡಿಯಲ್ಲಿ	-11.0036
Click	-11.0061
▁ಅಕಾಡೆಮಿ	-11.012
▁February	-11.012
▁casino	-11.012
▁ತ್ಯಾಜ್ಯ	-11.012
▁ದಿಕ್ಕಿಲ್ಲದ	-11.012
▁ದ್ರಾಕ್ಷೇತೋಟ	-11.012
▁ಯೌವನಸ್ಥನ	-11.012
▁ವರ್ಣರಂಜಿತ	-11.012
▁ಶುಭಾಶಯ	-11.012
▁ಅಗತ್ಯವಿರುತ್ತದೆ	-11.012
ಇಂಟರ್ಫೇಸ್	-11.012
▁ಗೊಂದಲ	-11.012
▁ಸಿನಿಮಾ	-11.012
Show	-11.0128
ುವಂಥದ್ದ	-11.0146
▁ಬೋಧಕ	-11.0158
▁ಮನ್ನಿಸ	-11.0159
▁ವರ್ತಿಸ	-11.0159
ರಾಷ್ಟ್ರೀಯ	-11.0222
—	-11.0223
▁September	-11.0229
▁ಡಿಫ್ಯೂಸರ್	-11.0229
▁ದಶಲಕ್ಷ	-11.0229
▁ಮಹಿಳಾ	-11.0229
▁ವೀಡಿಯೋ	-11.0229
▁ಸಂಪ್ರದಾಯ	-11.0229
▁ಸಾಧಾರಣ	-11.0229
Unthank	-11.0229
▁ವಾಸ್ತವಪ್ರಾಯ	-11.0229
▁ಸುಮ್ಮನೆ	-11.0229
▁ಕನೆಕ್ಟರ್	-11.0229
▁ಕನಿಷ್ಟ	-11.0229
▁ಹೆಮ್ಮೆ	-11.0229
▁ನಿನಗೋಸ್ಕರ	-11.0229
▁ಸ್ಪೇನ್	-11.0229
▁ನಿರ್ದೇಶಕ	-11.0234
▁ನೆರವೇರಿಸ	-11.0304
▁ಪರಿಷ್ಕ	-11.0338
▁ಮೈಕ್ರೋ	-11.0338
download	-11.0339
▁Bangalore	-11.0339
▁Yuzhno	-11.0339
▁ಅಸೆಂಬ್ಲಿ	-11.0339
▁ಐಪ್ಯಾಡ್	-11.0339
▁ಚಿಮುಕಿಸ	-11.0339
▁ಡಿಟೆಕ್ಟರ್	-11.0339
▁ಮುಖಪುಟಟ್ಯಾಗ್	-11.0339
▁ಹುಟ್ಟುಹಬ್ಬದ	-11.0339
▁ಶ್ವಾಸ	-11.0339
▁Login	-11.0339
▁ಕೆರೂಬಿಗಳ	-11.0339
▁ಪ್ರೋಮೋ	-11.0339
▁ಪರೋಕ್ಷ	-11.0339
▁ಕಾಲೇಜ್	-11.0339
▁ಆಯಿಲ್	-11.0339
▁ಇಬ್ರಿಯ	-11.0339
▁ಜೂಜಿನ	-11.0339
▁ವ್ಯಕ್ತಪಡಿಸ	-11.0339
▁ಚಿಗುರ	-11.0348
▁ಉತ್ಸವ	-11.045
▁Facebook	-11.045
▁Nimki	-11.045
▁ಉತ್ತೇಜಿಸ	-11.045
▁ರಾಹೇಲಳ	-11.045
▁ಸಲ್ಯೂಷನ್ಸ್	-11.045
▁ಸಾವಯವ	-11.045
Coptic	-11.045
▁ಪರಿಣತಿ	-11.045
▁ಪತ್ನಿ	-11.0451
£	-11.0452
▁ಹಿಟ್ಟಿನ	-11.0459
▁ತಲತಲಾಂತ	-11.0562
▁ಒಬ್ಬರನ್ನೊಬ್ಬರು	-11.0562
▁ಕ್ರೂಷರ್	-11.0562
▁ಧಾರ್ಮಿಕ	-11.0562
~	-11.2356
ಞ	-11.2689
×	-11.3543
»	-11.4194
“	-11.6034
მ	-11.8379
★	-11.8629
ო	-11.8885
ಊ	-12.2273
©	-12.4371
•	-12.4848
‘	-12.7643
→	-13.4897
±	-13.7992
➖	-13.9982
č	-13.9983
п	-13.9984
≥	-13.9985
ಋ	-13.9986
გ	-13.9987
წ	-13.9988
დ	-13.9989
ಱ	-13.999
✔	-13.9991
·	-13.9992
ೕ	-13.9992
