<unk>	0
<s>	0
</s>	0
.	-3.36248
▁	-3.49028
,	-3.65358
ದ	-4.6934
:	-4.72672
;	-4.86038
▁ಮತ್ತು	-5.05723
ು	-5.11014
ಗಳು	-5.1237
)	-5.14999
ಯ	-5.20641
ಿ	-5.27811
▁(	-5.45655
-	-5.53389
ಗಳನ್ನು	-5.55425
s	-5.61183
ರ	-5.63113
ವನ್ನು	-5.69417
ಗಳ	-5.70156
ನ	-5.73642
ಸ್	-5.75856
ರು	-5.81799
ವು	-5.82628
▁-	-5.83663
▁ಆ	-5.88183
▁ನೀವು	-5.8834
▁ಈ	-5.89825
▁/	-5.91746
--	-5.96221
▁ನಾನು	-5.97101
ನು	-5.97649
▁ನನ್ನ	-5.98173
▁ನಿಮ್ಮ	-6.07903
▁ನಿನ್ನ	-6.10307
▁ಒಂದು	-6.11803
ನ್ನು	-6.13151
▁ಅ	-6.13451
▁ಮೇಲೆ	-6.15678
ಲು	-6.16347
▁_	-6.18714
ಯನ್ನು	-6.18802
ನ್	-6.20844
▁1	-6.24375
▁ಎಂದು	-6.25226
ಕ	-6.25911
ದಲ್ಲಿ	-6.26479
▁ಆಗ	-6.28773
▁ಅವರು	-6.28989
ರ್	-6.32215
ಲ್	-6.32372
▁ತನ್ನ	-6.33279
ುವ	-6.35153
ಗೆ	-6.36186
ಕ್ಕೆ	-6.36563
ವ	-6.36967
?	-6.37261
ೂ	-6.41459
▁ಆದರೆ	-6.43135
ಸ	-6.4514
ಿಗೆ	-6.46366
ರಿ	-6.46426
ಲ	-6.46488
ವಾಗಿ	-6.48434
/	-6.50138
ಲಿ	-6.50233
ಲ್ಲಿ	-6.52498
▁ಅವನು	-6.54346
▁ಅವನ	-6.5453
▁ಇ	-6.54637
▁ನಾವು	-6.58
com	-6.60165
▁ನಮ್ಮ	-6.61057
ವಾದ	-6.61636
ಯು	-6.63551
ಕ್	-6.63788
ರೆ	-6.63866
ದೆ	-6.64586
▁2	-6.65694
▁ಅವರ	-6.65861
2	-6.67339
▁ಎಲ್ಲಾ	-6.67516
ೇ	-6.68121
3	-6.69986
▁ನೀನು	-6.71063
ಾ	-6.71459
ಸಿ	-6.71478
▁&	-6.72116
ಟ್	-6.7345
▁ಅಥವಾ	-6.73771
▁ಕರ್ತನು	-6.75817
ಗ	-6.76418
▁5	-6.77083
ಗಳಲ್ಲಿ	-6.77915
ಿಂದ	-6.78771
▁ಇದು	-6.80098
ಯಲ್ಲಿ	-6.81129
▁3	-6.81902
ದಿಂದ	-6.84772
ತ	-6.8723
ಮ	-6.87667
▁S	-6.87879
y	-6.89218
ಾಗ	-6.90542
ದು	-6.93105
ಮ್	-6.94107
C	-6.96815
!	-6.9741
▁–	-6.97423
▁ಕರ್ತನ	-6.98138
ುತ್ತದೆ	-6.98943
ಡ್	-6.99617
D	-6.99651
▁2018	-7.00143
4	-7.00302
ವಿ	-7.00462
d	-7.00924
ಯೂ	-7.01096
▁4	-7.02529
▁ಅಂದನು	-7.02577
e	-7.03591
▁ನ	-7.04128
A	-7.0435
amp	-7.05043
ನ್ನೂ	-7.05529
▁$	-7.05796
▁ಹಾಗೆ	-7.0612
▁ತಮ್ಮ	-7.06193
▁ಮಾಡಿ	-7.06838
▁ಅದರ	-7.07434
▁"	-7.07647
ಪ್	-7.07816
▁P	-7.08418
in	-7.08498
▁ಮ	-7.08514
"	-7.08795
ಡಿ	-7.09965
ೆ	-7.1028
ಗಳಿಗೆ	-7.10786
1	-7.12239
▁C	-7.1342
▁ಮೂಲಕ	-7.13512
ಳ	-7.13566
@	-7.13918
▁ಕ	-7.1542
▁ಆತನು	-7.15448
▁ಅದನ್ನು	-7.16434
m	-7.16871
ದ್ದ	-7.17635
▁ಅದು	-7.19411
ಡ	-7.2096
ಯಾ	-7.20974
▁T	-7.21585
S	-7.21829
x	-7.22136
ಟಿ	-7.22414
▁2017	-7.22681
p	-7.2323
n	-7.24007
u	-7.2407
er	-7.25872
ವೇ	-7.26287
▁ನನಗೆ	-7.26303
5	-7.26355
▁A	-7.26778
▁ವಿ	-7.26917
ಗಳನ್ನೂ	-7.27152
ಿರಿ	-7.27173
ಾದ	-7.27444
ಬೇಕು	-7.27926
ಂ	-7.2811
ಪ	-7.28356
▁ಸ	-7.28969
(	-7.28999
▁ಸಂಗಡ	-7.29689
b	-7.29931
ಹ	-7.29958
▁ಬ	-7.29992
▁B	-7.30284
ವೂ	-7.30534
ing	-7.30821
▁ನಿಮಗೆ	-7.31045
▁ಹ	-7.31284
F	-7.31596
▁ದೇವರ	-7.3287
Name	-7.33007
▁ಆತನ	-7.33138
i	-7.33282
B	-7.33362
ರಾ	-7.3364
▁ಮುಂದೆ	-7.34346
ಲ್ಲ	-7.34555
ನಿ	-7.35383
c	-7.35583
▁ಎ	-7.35586
ಣ	-7.36721
▁10	-7.36729
a	-7.37226
▁6	-7.37653
▁ಅವರಿಗೆ	-7.38017
▁ರ	-7.38816
▁2019	-7.38873
t	-7.38945
▁ನಲ್ಲಿ	-7.39483
%	-7.39933
ವರು	-7.41052
ಟ	-7.4156
ಬಹುದು	-7.42471
M	-7.4263
▁ಅನ್ನು	-7.42692
್	-7.44682
ತೆ	-7.44709
▁ಹೆಚ್ಚು	-7.44746
ರೋ	-7.45093
▁ಹೊಸ	-7.45346
▁ಸಿ	-7.45347
ನಾ	-7.45895
gt	-7.45942
▁ಮಾಡ	-7.46026
l	-7.46242
O	-7.46803
▁ಅವನಿಗೆ	-7.47141
mm	-7.47384
00	-7.47738
▁ಡೌನ್ಲೋಡ್	-7.47743
▁ತ	-7.48308
▁ಬಗ್ಗೆ	-7.48582
▁ಮುಖಪುಟ	-7.48928
▁8	-7.48993
▁ಕನ್ನಡ	-7.4924
▁ಪ್ರಕಾರ	-7.49657
▁ಇಲ್ಲ	-7.49926
ನೆ	-7.50354
▁ಸಹ	-7.50621
T	-7.51232
▁...	-7.51504
▁19	-7.51523
L	-7.51535
al	-7.5156
o	-7.51578
G	-7.51635
P	-7.51951
▁F	-7.52081
V	-7.52353
ವಾಗಿದೆ	-7.52477
r	-7.53808
▁ಯಾವುದೇ	-7.54315
ತ್	-7.54386
ವನ್ನೂ	-7.54673
ಾಗಿ	-7.55482
W	-7.55523
8	-7.55923
▁ನನ್ನನ್ನು	-7.56002
▁ಗೆ	-7.56536
▁+	-7.56942
▁ಅವರನ್ನು	-7.57226
ವಾ	-7.57273
▁ಈಗ	-7.58031
▁ಕೆಲಸ	-7.58071
▁ನಿನಗೆ	-7.58131
ಲೇ	-7.58223
▁ಓ	-7.58755
g	-7.59227
ೋ	-7.59447
_	-7.59477
ಳು	-7.59583
ಷ	-7.59585
10	-7.59791
ಮಾ	-7.60603
▁ಬಳಿಗೆ	-7.6063
▁7	-7.61854
ವೆ	-7.62007
ಪಿ	-7.62019
▁D	-7.62391
ಯೇ	-7.64019
h	-7.64387
ಲಾ	-7.64695
ಕೆ	-7.65099
▁ಪ್ರತಿ	-7.65777
k	-7.66083
N	-7.66378
▁G	-7.66447
ನೇ	-7.66513
▁#	-7.66749
ಂತೆ	-7.66805
ಯಿಂದ	-7.66943
▁ಇದಲ್ಲದೆ	-7.67178
ಬ	-7.67356
en	-7.67392
ಶ	-7.67393
▁2016	-7.67926
R	-7.68072
▁ಅವನನ್ನು	-7.68298
▁ಟ್ಯಾಗ್	-7.68588
an	-7.68661
▁12	-7.68815
ವನು	-7.6882
▁the	-7.69061
ುತ್ತಾರೆ	-7.69306
6	-7.69318
▁ಗ	-7.69718
ಲಿಲ್ಲ	-7.69886
▁ದೇವರು	-7.70158
▁ಉತ್ತಮ	-7.70248
ಲೆ	-7.70333
▁ಯಾಕಂದರೆ	-7.70341
7	-7.70365
▁ಯಾವ	-7.70702
▁K	-7.70951
ವರ	-7.70988
▁ನಂತರ	-7.71427
▁ದೊಡ್ಡ	-7.71551
▁ಮಾಡುವ	-7.71563
H	-7.71843
ಬ್	-7.72026
f	-7.7229
▁ಬಾ	-7.72498
▁ಮಗನಾದ	-7.73087
'	-7.7327
▁ಕೈ	-7.73472
▁ಇರುವ	-7.74536
▁M	-7.74674
▁ಮೇ	-7.75231
▁ಹೇಗೆ	-7.75644
ರೂ	-7.75746
ಿನ	-7.75827
▁ಹೀಗೆ	-7.7594
ಗಳಿಂದ	-7.76025
0	-7.76306
▁ಬಂದು	-7.76665
▁ಸಂಖ್ಯೆ	-7.76886
ಜ	-7.77017
ಿದೆ	-7.77144
▁9	-7.77144
ುವದಕ್ಕೆ	-7.77192
ುವುದು	-7.7794
ನೂ	-7.77995
▁ಬರ	-7.78155
▁ಹೋಗಿ	-7.78189
▁ನಮಗೆ	-7.78238
11	-7.78332
▁20	-7.78835
ಿರುವ	-7.789
▁ನಿನ್ನನ್ನು	-7.79676
ುವದಿಲ್ಲ	-7.79756
▁ಮಾಡಿದ	-7.79879
ತ್ತ	-7.80069
th	-7.80079
ಕಾ	-7.80655
ೀ	-7.80671
▁ವ	-7.80683
ಅ	-7.80735
ಿದನು	-7.80839
ಿಸುವ	-7.80922
▁ಹೋಗ	-7.81035
ಲ್ಪಟ್ಟ	-7.81363
ಿತು	-7.8152
ನಲ್ಲಿ	-7.81621
K	-7.81661
▁R	-7.81851
le	-7.8229
ed	-7.82515
▁ವರ್ಷದ	-7.83159
▁ಉಚಿತ	-7.83452
]	-7.83457
w	-7.83706
▁ಮಕ್ಕಳ	-7.83993
▁ಮೇಲ್	-7.84234
ಜಿ	-7.84284
▁ಗಾತ್ರ	-7.84298
▁ಇಗೋ	-7.84312
▁ಹೇಳ	-7.84411
▁H	-7.84547
ar	-7.84783
▁ದೇವರಾದ	-7.85168
20	-7.85256
ುವೆನು	-7.85301
▁ಅಲ್ಲಿ	-7.85638
▁ಪಟ್ಟಿ	-7.86154
X	-7.86654
▁*	-7.86869
▁ಕೆ	-7.87239
▁ಮಾಡಲು	-7.87407
▁ಹೆಸರು	-7.8744
ಬಿ	-7.87949
et	-7.88101
ಕೊಳ್ಳ	-7.88449
z	-7.88608
ುತ್ತಾನೆ	-7.88787
50	-7.88947
st	-7.89184
ಗಳೂ	-7.8964
▁ಒಬ್ಬ	-7.89804
ಿಸಿ	-7.89848
ಿದರು	-7.89944
ುತ್ತೇನೆ	-7.90189
▁ಬಂದ	-7.90348
▁ಸಮಯ	-7.90734
ಯಾಗಿ	-7.91073
▁in	-7.91202
ur	-7.91321
ನೋ	-7.91359
ಇ	-7.91421
co	-7.91928
▁0	-7.92041
▁ದಿನಾಂಕ	-7.92454
▁ಸಂ	-7.92566
▁ಎರಡು	-7.92594
▁15	-7.926
▁[	-7.92643
ಕೋ	-7.92731
▁ಜನರು	-7.93106
▁11	-7.93606
▁ಚಿತ್ರ	-7.93873
30	-7.93893
▁ಉ	-7.9392
▁ಮಾದರಿ	-7.94017
ಮಿ	-7.94276
▁W	-7.94302
▁ಆಯ್ಕೆ	-7.94577
ಎಸ್	-7.95003
E	-7.95042
▁ಪೂರ್ಣ	-7.95104
ಯಾದ	-7.95171
ೆನು	-7.95249
ೈ	-7.95285
▁ಆನ್ಲೈನ್	-7.95435
▁24	-7.95619
I	-7.95689
▁ಇತರ	-7.95793
▁ಕಾ	-7.95962
▁ಯೇಸು	-7.96131
▁ಇಲ್ಲಿ	-7.96147
▁ಹಾಗೂ	-7.96311
or	-7.96325
ಂತ	-7.96764
ಜ್	-7.96806
▁ಜನರ	-7.96829
▁18	-7.97477
▁E	-7.97863
▁ಮುನ್ನ	-7.97943
ಎ	-7.98344
▁ಕೊಡ	-7.98464
▁ಬೆ	-7.98509
▁ಮಾಹಿತಿ	-7.98671
ಲೂ	-7.98794
v	-7.98874
lt	-7.98907
ಿಗೂ	-7.98947
▁ಬೆಲೆ	-7.98949
ರಿಗೆ	-7.98995
U	-7.99079
ತಿ	-7.99147
▁ಸಹಾಯ	-7.99576
▁ನಿ	-8.0022
▁L	-8.00282
▁ಪರಿಶುದ್ಧ	-8.00386
▁ಆದದರಿಂದ	-8.00626
▁ದಿನ	-8.00732
es	-8.01221
▁ಸು	-8.01293
://	-8.02102
▁ಪುಟ	-8.02167
ಿತ	-8.0288
ದೇ	-8.03063
▁ಒ	-8.03069
▁N	-8.03113
▁ಕೆಲವು	-8.03136
▁ಇಮೇಲ್	-8.03183
▁ಪಿ	-8.03389
▁and	-8.04061
ುತ್ತವೆ	-8.04262
▁ನೋಡಿ	-8.04387
▁ಮಾತ್ರ	-8.04587
ಗ್	-8.04646
ಿದ್ದಾನೆ	-8.04683
▁ಬಲ	-8.0482
▁ಬಿ	-8.05042
▁ಮಕ್ಕಳು	-8.05158
▁ಇಸ್ರಾಯೇಲಿನ	-8.05163
ಸು	-8.05207
▁ಪ್ರ	-8.05241
▁to	-8.05365
ವನ	-8.05386
▁ಸೇವೆ	-8.05562
ಕಿ	-8.05677
Y	-8.058
12	-8.06247
▁ಡಿ	-8.06331
ಡೆ	-8.067
▁ನೋಡ	-8.06817
ಚ	-8.073
ಟರ್	-8.07755
re	-8.07949
▁ರಲ್ಲಿ	-8.08237
▁ಟೈಮ್	-8.0825
ತನ	-8.08441
ಕ್ಷ	-8.08517
ri	-8.08531
▁ಕಡಿಮೆ	-8.0882
▁ಅರಸನ	-8.09007
▁ನಾ	-8.09074
ಂಗ್	-8.09544
on	-8.09563
▁of	-8.09676
ಗಾಗಿ	-8.09862
it	-8.10015
▁ಉತ್ಪನ್ನಗಳು	-8.10018
ತು	-8.10033
ುವಂತೆ	-8.10202
ಕ್ಕಾಗಿ	-8.10422
▁=	-8.10616
▁ಮೆ	-8.10653
▁I	-8.10661
ಕ್ಕೂ	-8.11025
▁V	-8.11138
▁30	-8.11339
9	-8.11386
ಡು	-8.11487
▁ಸ್ಥಳ	-8.11604
▁ಚೀನಾ	-8.11732
▁ಹೆಚ್ಚಿನ	-8.11936
ಲಾಗಿದೆ	-8.11986
ಳಿ	-8.1255
ಯನ್ನೂ	-8.12845
40	-8.12938
▁ಜಾ	-8.13026
ಿದ್ದ	-8.1337
ವ್	-8.13424
18	-8.13499
ಂಬ	-8.13826
ಿದ್ದಾರೆ	-8.1391
▁ಸೈಟ್	-8.13919
▁ಅನೇಕ	-8.13926
▁X	-8.14002
”	-8.14291
ಫ್	-8.14466
▁ಪ	-8.1517
ಸ್ಟ್	-8.15244
ವಾಗ	-8.1527
▁£	-8.15543
ಧ	-8.15962
ಿದ್ದೇನೆ	-8.16029
08	-8.1613
ch	-8.16581
▁©	-8.16946
ಯೋ	-8.17091
ಸಾ	-8.17121
ುತ್ತಾ	-8.17321
▁ರಿಂದ	-8.17341
▁ದೂರವಾಣಿ	-8.174
ಶ್	-8.17425
▁ಕಾರ್ಯ	-8.17515
ದ್ದು	-8.17589
ra	-8.17825
ಟ್ಟ	-8.1786
▁ಎಂಬ	-8.17956
ರೇ	-8.18075
▁16	-8.18095
▁ನಮ್ಮನ್ನು	-8.18165
el	-8.18188
▁ವಿರೋಧವಾಗಿ	-8.18507
▁ಅದಕ್ಕೆ	-8.18731
un	-8.18793
ೊಳಗೆ	-8.19027
15	-8.19062
▁ಹಾಗೆಯೇ	-8.19072
at	-8.19455
ಂಗ	-8.19664
ಮಾಡ	-8.19678
ಮೆ	-8.19698
60	-8.19928
▁ಏನು	-8.19978
ೌ	-8.20072
▁ನಿಮ್ಮನ್ನು	-8.20303
ರೀ	-8.20773
ನ್ನ	-8.2088
▁ಮನೆಯ	-8.20881
▁ಎಲ್ಲ	-8.21005
▁ಹಿಂದೆ	-8.21307
▁ಯಂತ್ರ	-8.21366
▁ವಿಷಯ	-8.21427
ುವದು	-8.21491
ರುವ	-8.21712
ಷ್	-8.2183
▁ಬಹಳ	-8.21871
▁2015	-8.22489
▁ಐ	-8.23062
▁ವಿನ್ಯಾಸ	-8.23079
ಸೆ	-8.23222
▁ಮೂಲ	-8.2359
▁ಮೊದಲ	-8.23862
80	-8.24102
▁ಜನವರಿ	-8.24139
▁ನ್ಯಾಯ	-8.24203
▁ಆಹಾರ	-8.24605
▁ಹಾ	-8.24775
ಿಕ	-8.24811
▁ಭಾಷೆ	-8.24875
▁ಇದ್ದ	-8.24982
▁a	-8.25617
▁ಕು	-8.25625
▁ಇಸ್ರಾಯೇಲ್	-8.2563
▁ಅರಸನಾದ	-8.26089
▁ಉತ್ತರ	-8.26196
▁ಕಾರಣ	-8.26307
▁ಚಿತ್ರಗಳು	-8.2652
▁ತರುವಾಯ	-8.26592
▁ಸಂಪರ್ಕ	-8.26671
ಗೂ	-8.26806
▁»	-8.27714
▁“	-8.27843
ಭ	-8.27856
▁ಉಪ	-8.27887
19	-8.27897
▁ಮರ	-8.27932
ಆ	-8.28038
ro	-8.2806
ಪಾ	-8.28104
▁ಕರ್ತನಿಗೆ	-8.28153
▁ಭೂಮಿಯ	-8.28186
▁ಇನ್ನೂ	-8.28252
▁ಮನೆ	-8.2841
▁25	-8.28434
ಿಂಗ್	-8.28507
ಕ್ಕ	-8.28688
▁ಸಮಸ್ತ	-8.29346
▁ಆಫ್	-8.29351
us	-8.29379
ತಾ	-8.29568
▁ಮಾ	-8.29711
sh	-8.29718
ಲೋ	-8.2975
▁ಮಿ	-8.29929
▁ಹೊರಗೆ	-8.30188
▁ಇದೆ	-8.30496
▁13	-8.30582
ಿಕೆ	-8.30582
▁ಹೇಳಿದನು	-8.30927
ೊ	-8.31451
▁c	-8.3151
▁14	-8.31746
se	-8.3185
▁ಹೊಂದಿದೆ	-8.3188
▁ಮಾಡಬಹುದು	-8.31901
▁ಚ	-8.31903
▁ಅವುಗಳನ್ನು	-8.31986
ನ್ಸ್	-8.32174
ುವನು	-8.32271
▁ಆಗಿದೆ	-8.32328
▁ಕೇಳ	-8.32666
J	-8.32711
ಜೆ	-8.32991
▁ನೆ	-8.33197
▁@	-8.33253
16	-8.33573
ಲ್ಲಾ	-8.33786
ಂಡ	-8.34114
ಿಸಿದ	-8.34179
▁ಕಾಲ	-8.34208
07	-8.34269
ಬಾ	-8.34541
▁%	-8.34542
▁ದೂರ	-8.34572
ೀಯ	-8.34634
06	-8.34705
▁ಮಾರ್ಗ	-8.34806
▁ಜಿ	-8.34997
▁ಇಲ್ಲವೆ	-8.35205
ter	-8.35296
ೊಂದಿಗೆ	-8.35485
▁ವೆಬ್ಸೈಟ್	-8.35514
▁ಹೇಳಿ	-8.35531
’	-8.35637
▁ಜ	-8.35956
▁ಮೂರು	-8.36113
li	-8.36194
▁ಎಂ	-8.36257
▁ಭಾಗ	-8.36371
&	-8.36454
▁ಪಾ	-8.36649
ೆಂದು	-8.36681
01	-8.3685
▁(1	-8.36941
▁ಕೊ	-8.36999
▁ವರೆಗೆ	-8.37196
la	-8.37525
▁ಭೇಟಿಗಳು	-8.37712
▁ಅತ್ಯುತ್ತಮ	-8.37717
ಮಾಡಿ	-8.37736
▁ಬರುವ	-8.37793
▁ಸಾ	-8.3786
ನಾದ	-8.38007
25	-8.38061
ಪಡಿಸ	-8.38295
▁ಇದನ್ನು	-8.38574
ಲ್ಲಿರುವ	-8.38624
ಕ್ಸ್	-8.38988
ಬಾರದು	-8.39046
▁ನಿಂದ	-8.39054
▁ಕಂಪನಿ	-8.39074
▁ಆರ್	-8.39259
+	-8.39295
ದ್	-8.39628
ಕೊಂಡ	-8.39662
te	-8.40102
02	-8.40158
▁ಶ	-8.40243
▁ಕೇವಲ	-8.40704
▁ವಿವಿಧ	-8.40877
▁17	-8.41007
▁ಅತಿ	-8.41056
ಗು	-8.41155
▁ಕಿ	-8.41157
ol	-8.41175
ಫ	-8.41222
ಹಾ	-8.41336
13	-8.41508
▁ಬಿಟ್ಟು	-8.41545
▁O	-8.41723
▁ಪಾಪ	-8.41947
ic	-8.41967
j	-8.42013
▁ಹೇಳುತ್ತಾನೆ	-8.42079
▁'	-8.4234
▁ಜನ	-8.4255
▁ಹೊರ	-8.4267
ತ್ತು	-8.435
ರಿಯ	-8.43707
ರನ್ನು	-8.43926
▁ಮೊದಲು	-8.43976
▁ಅವು	-8.43991
▁ಹಾಕ	-8.44012
▁J	-8.44111
21	-8.44528
▁21	-8.4454
ನಾನು	-8.44573
▁ಅಲ್ಲ	-8.45024
ಂಡ್	-8.45033
▁ಬೆಂಬಲ	-8.45222
▁ನವೆಂಬರ್	-8.45222
▁ಕೇಳಿ	-8.4531
ನೀನು	-8.45433
▁ನೀತಿ	-8.4556
▁ಮು	-8.45601
▁2014	-8.45644
99	-8.45793
ವರ್	-8.45959
ಗಾರ	-8.46041
▁ತಿರಿಗಿ	-8.46041
ಷ್ಟ	-8.46152
ಬೇಕೆಂದು	-8.4626
ಕರ	-8.46292
▁Kannada	-8.46442
▁ಜೀವ	-8.46509
▁2013	-8.46567
▁ಮಂದಿ	-8.46891
35	-8.47028
▁ಹೊಂದ	-8.47043
್ಯಾ	-8.47103
▁ವರೆಗೂ	-8.47213
▁ಎಸ್	-8.47398
▁ಅವುಗಳ	-8.47634
▁ಉನ್ನತ	-8.47699
cm	-8.47769
ಯ್	-8.47771
▁ಸಂತೋಷ	-8.47793
-1	-8.47817
▁ಆತನನ್ನು	-8.47826
am	-8.47891
▁ಪ್ರಮುಖ	-8.47908
ೃ	-8.48175
ಂಥ	-8.4827
www	-8.48418
05	-8.48513
09	-8.48536
ದಂತೆ	-8.48568
ಪ್ಪ	-8.48728
್ಯ	-8.48913
▁ವಿಮಾನ	-8.49243
ಗಾ	-8.49303
▁ಆಗಸ್ಟ್	-8.49462
▁ಬಹು	-8.49472
▁ಏಳು	-8.49487
▁ತಿಂಗಳ	-8.49581
▁ಮೊಬೈಲ್	-8.49859
▁ವಿಳಾಸ	-8.49954
▁ವೀಡಿಯೊ	-8.50118
▁ಪೋಸ್ಟ್	-8.50156
ುವುದಿಲ್ಲ	-8.50156
▁ಅಭಿವೃದ್ಧಿ	-8.50215
ang	-8.50227
ನಿಗೆ	-8.50489
▁ಇರ	-8.50497
▁ಕಳುಹಿಸ	-8.50507
▁ಡಿಸೆಂಬರ್	-8.51004
24	-8.51446
▁ಕೇಂದ್ರ	-8.51489
▁ವರ್ಷ	-8.51701
▁ತಾ	-8.51707
▁b	-8.5182
▁ಮುಖ್ಯ	-8.51957
ದರಿಂದ	-8.51991
▁ಅಕ್ಟೋಬರ್	-8.52065
=	-8.5217
▁ದಿ	-8.52277
▁ಕೊಟ್ಟ	-8.52414
ತ್ರ	-8.526
▁ವರ್ಗ	-8.52685
▁ಯಾರು	-8.52772
ುತ್ತೇವೆ	-8.52999
▁ಸಾಧನ	-8.53046
ಗಿ	-8.53165
▁ರೀತಿಯ	-8.53196
▁ಸಂಪರ್ಕಿಸಿ	-8.53251
▁t	-8.53419
▁ಜೂನ್	-8.53581
ಐ	-8.53724
▁ಹೊ	-8.54064
▁ಹೇಳಿದ	-8.54307
▁50	-8.54426
ಣಿ	-8.5446
ೊಳಗಿಂದ	-8.54513
▁ವೆಬ್	-8.54725
▁ದೇಶ	-8.54733
ation	-8.54782
▁info	-8.54851
▁ಆದ್ದರಿಂದ	-8.549
ಬೆ	-8.55105
ಜಾ	-8.55209
▁ತರ	-8.55277
▁ಕಟ್ಟ	-8.55451
▁ಬಣ್ಣ	-8.55606
▁ಭೇಟಿ	-8.55628
ದ್ದರಿಂದ	-8.55729
▁Z	-8.55791
Comment	-8.55829
26	-8.55831
ೆಯ	-8.55844
ಮೋ	-8.56056
ಂಟ್	-8.56079
ನನ್ನು	-8.56203
▁ದಿನದಲ್ಲಿ	-8.56272
▁v	-8.56323
▁ಬಳಸ	-8.56384
ad	-8.56477
28	-8.56501
▁ಕೋಡ್	-8.56552
ಸ್ತ	-8.56671
▁ರಾ	-8.56705
▁ಜುಲೈ	-8.56838
▁ಅರಸನು	-8.56877
ಕೊಂಡು	-8.57042
▁for	-8.57109
14	-8.57116
▁ಕರ್ತನೇ	-8.57243
▁ಫೋನ್	-8.5725
▁ಇನ್	-8.57258
ay	-8.57386
86	-8.57464
ಂಟ	-8.57834
ly	-8.57895
pe	-8.5827
▁ನೀಡ	-8.58349
▁ಹೊರಟು	-8.58482
▁ಮಾತು	-8.58614
▁ಸರಣಿ	-8.58899
ತ್ಯ	-8.59051
17	-8.5917
ಿಸಲು	-8.59259
▁23	-8.5933
il	-8.59395
▁ತೂಕ	-8.59728
▁ಕ್ಯಾ	-8.59768
id	-8.60063
is	-8.60193
▁ಫಾರ್	-8.6042
03	-8.60689
▁ಕರೆ	-8.60734
ವರಿಗೆ	-8.60752
▁ಬೇರೆ	-8.60808
▁ಪ್ರಯಾಣ	-8.60987
▁ಹೋಗುವ	-8.60995
▁ವಿಶೇಷ	-8.61224
▁ಒಳಗೆ	-8.61237
▁ವಿದ್ಯುತ್	-8.61418
▁ಕೃತಿಸ್ವಾಮ್ಯ	-8.61524
▁U	-8.61705
29	-8.61724
▁ಚಲನಚಿತ್ರ	-8.61782
ಯಾಗಿದೆ	-8.62322
▁ಮಹಾ	-8.62361
▁ಕ್ಯಾಸಿನೊ	-8.62381
▁ಆತ್ಮ	-8.62712
▁ಅಂಕ	-8.62732
▁ಏ	-8.62752
04	-8.62788
▁ಮಾರ್ಚ್	-8.62822
▁2020	-8.62835
▁p	-8.63036
▁ತಂದೆಯ	-8.63106
ಕು	-8.63163
▁ಬಳಿಯಲ್ಲಿ	-8.63206
▁ನಿರ್ವಹಣೆ	-8.63246
▁ಅತ್ಯಂತ	-8.63246
ಣೆ	-8.63371
▁ರಾಜ್ಯ	-8.63476
000	-8.63545
ಿಲ್ಲ	-8.63555
▁ಮೊ	-8.63558
▁ಸರಿ	-8.63602
▁ಮಧ್ಯದಲ್ಲಿ	-8.63658
▁ಜೊತೆಗೆ	-8.63733
▁ಎನ್	-8.63796
▁€	-8.63809
▁Y	-8.63843
ಳೆ	-8.6389
▁ಅರ್ಥ	-8.63962
ುವರು	-8.64032
▁ಕಡೆಗೆ	-8.64076
▁ನಕ್ಷೆ	-8.64191
23	-8.64203
▁ಕಂ	-8.64214
▁22	-8.64287
ಂದ	-8.64328
ಚ್	-8.64601
ಗೋ	-8.64658
▁ಮಾರಾಟ	-8.64799
ಕೊಳ್ಳುವ	-8.64803
▁ಶುದ್ಧ	-8.65099
▁ಕ್ರಿಸ್ತನ	-8.65115
ದೋ	-8.6513
▁ಘಟಕ	-8.65219
▁ಚಿಕಿತ್ಸೆ	-8.65219
‍	-8.6544
▁ತಿಳುವಳಿಕೆ	-8.6544
▁ಉದ್ದ	-8.65493
▁•	-8.65511
di	-8.65571
ಲ್ಲಿಯೂ	-8.65609
ವುಳ್ಳ	-8.65642
▁ಶ್ರೀ	-8.65675
lo	-8.65727
▁ಹೌದು	-8.65775
22	-8.65809
ಯೆ	-8.66191
▁ಆವೃತ್ತಿ	-8.66221
▁ದಾವೀದನ	-8.66437
▁ಅವಳ	-8.66457
▁ದೇಶದ	-8.666
▁by	-8.66729
▁ಶಕ್ತಿ	-8.66737
▁ಅಂದರು	-8.66752
65	-8.66813
▁ಬೇ	-8.66914
▁ಪ್ರೀತಿ	-8.6737
▁ಅದೇ	-8.67382
ಗೊಂಡ	-8.67477
▁ಹಣ	-8.67884
▁ಏಪ್ರಿಲ್	-8.67912
ಟಾ	-8.68134
▁ಜೆ	-8.68179
ಎಂ	-8.68229
▁http	-8.68338
ಿನಲ್ಲಿ	-8.68471
▁ಫೆಬ್ರವರಿ	-8.68486
▁ಮೇಲೆಯೂ	-8.68619
▁ಹೆ	-8.68678
▁ಮನುಷ್ಯನು	-8.6876
▁m	-8.68779
▁ಕೆಳಗೆ	-8.69022
▁ಅವ	-8.69036
ಬೇಡ	-8.69037
▁ಪ್ರಮಾಣ	-8.69222
ate	-8.69225
ers	-8.69234
▁ತಕ್ಕೊಂಡು	-8.69443
ಲೀ	-8.69484
▁100	-8.6969
▁ತೆರೆಯ	-8.69873
▁ಇನ್ನು	-8.70059
▁ಬದಲಾವಣೆ	-8.70095
ir	-8.70343
▁ದೋಷ	-8.70565
ಪಡ	-8.70617
95	-8.70652
▁ಅಂದರೆ	-8.70684
▁ಮನುಷ್ಯನ	-8.70723
▁ಜೊತೆ	-8.70762
ವಿನ	-8.71053
ut	-8.71147
▁ಕೀ	-8.71149
▁ವರುಷ	-8.71157
ಂದು	-8.71343
31	-8.71389
ಹಿ	-8.71415
ುವಿಕೆ	-8.71498
ಲ್ಪಡ	-8.71724
Z	-8.7178
ದ್ಯ	-8.71871
▁ಕೋ	-8.71925
▁ಹಿಂದಿನ	-8.71927
▁ಸಾಮಾನ್ಯ	-8.71946
▁~	-8.71999
ಿದರೆ	-8.72042
▁ತರಬೇತಿ	-8.7209
▁ಬಳಸಿ	-8.72331
▁ನಾನೇ	-8.72337
▁ಅವಳು	-8.72369
ಲಾಗುತ್ತದೆ	-8.72377
ಚಿ	-8.72391
▁ರಸ್ತೆ	-8.72449
▁ಭ	-8.72487
▁ಎಲ್	-8.72736
▁h	-8.7285
ರೊ	-8.72941
▁ಪದ	-8.72951
▁ನಗರ	-8.73121
ುತ್ತಿರುವ	-8.73395
ru	-8.73863
▁ಲಿಮಿಟೆಡ್	-8.73884
▁ವ್ಯಾಪಾರ	-8.73977
im	-8.73988
▁ಮಾಡು	-8.7414
58	-8.74212
▁ಪೆ	-8.74284
ಳ್ಳ	-8.74341
▁27	-8.74474
▁°	-8.74658
▁ಜ್ಞಾನ	-8.74786
▁ಸ್ವಲ್ಪ	-8.74863
▁ಆತನಿಗೆ	-8.74894
▁ನೀಡಿ	-8.74941
ಲಾದ	-8.7498
▁ರಕ್ತ	-8.7505
▁The	-8.75066
ನೆಂದು	-8.75131
▁ಸಾಮರ್ಥ್ಯ	-8.75251
▁ದಾವೀದನು	-8.75267
▁ನಂಬ	-8.75273
೦	-8.75364
▁ಲಾ	-8.75459
me	-8.7556
▁ಸಣ್ಣ	-8.75651
▁ಸೆ	-8.75682
▁ನಿಮಿತ್ತ	-8.75706
▁ಅವಕಾಶ	-8.75712
▁ಎದ್ದು	-8.7573
90	-8.75863
ತ್ವ	-8.76053
▁ರೂ	-8.76211
ನಿಂದ	-8.76277
ತ್ತಿ	-8.76512
▁HD	-8.76602
▁ದೇಶದಲ್ಲಿ	-8.76999
de	-8.77017
▁ಮಾತನಾಡ	-8.77098
ುತ್ತೀರಿ	-8.77115
▁ಕೂಡ	-8.77238
▁ಸತ್ಯ	-8.77288
ಕರ್	-8.77376
▁ಯುದ್ಧ	-8.77444
▁ಸೆಪ್ಟೆಂಬರ್	-8.77448
▁ಯೋಜನೆ	-8.77563
▁ಹೇಳುವ	-8.77742
▁ಅದರಲ್ಲಿ	-8.7785
53	-8.77874
▁ಇವೆ	-8.77962
▁ಸ್ವಂತ	-8.77989
▁ರೂಪ	-8.78
ma	-8.78027
▁f	-8.78224
ul	-8.78242
▁ವರದಿ	-8.78455
▁ಕಡತ	-8.78481
32	-8.78528
ನೀವು	-8.78576
▁ಸಿದ್ಧ	-8.78792
ೆವು	-8.78833
▁ಶಿಕ್ಷಣ	-8.78836
▁ಯೆಹೂದದ	-8.78863
75	-8.78882
▁ವೇಳೆ	-8.78963
▁ಮಾಡುತ್ತದೆ	-8.79053
▁ಒಂದೇ	-8.79454
▁ತೆಗೆದು	-8.79543
▁ಸಂಚಿಕೆ	-8.79606
as	-8.79682
▁ಬ್ಲಾಗ್	-8.79725
*	-8.79767
ದಿಂದಲೂ	-8.799
▁ಕುರಿತು	-8.79977
▁ಸೋ	-8.80013
▁ನೀರು	-8.80176
ta	-8.80262
ಕಾರ	-8.80323
Q	-8.80332
▁ಸಾವಿರ	-8.80574
▁ನೀರಿನ	-8.80623
▁ಟಿ	-8.80737
▁ತಂತ್ರಜ್ಞಾನ	-8.81014
▁ಮಾಡಿದನು	-8.81245
ನನ್ನ	-8.81252
▁ಒಟ್ಟು	-8.81298
ಿದ್ದೀ	-8.81312
▁ಯಾವಾಗಲೂ	-8.81804
ಶಾ	-8.81885
▁ಬಲಿ	-8.81913
▁ಕುಟುಂಬ	-8.81917
▁ಸಭೆಯ	-8.81976
▁ವರ್ಷಗಳ	-8.821
▁ಮನುಷ್ಯರ	-8.82115
▁ತಿರುಗಿ	-8.82135
ುತ್ತೀ	-8.82184
34	-8.82208
ಆರ್	-8.82418
ಸಂ	-8.8243
ne	-8.82481
ದಾ	-8.82492
▁ವ್ಯವಸ್ಥೆ	-8.82693
▁ಸಾಕ್ಷಿ	-8.82713
ುತ್ತ	-8.82795
▁ಸ್ವ	-8.82811
ಲಿನ	-8.82841
▁ತಿನ್ನ	-8.83005
▁ದೇವ	-8.83061
▁ರಚಿಸಲಾಗಿದೆ	-8.83259
▁ತಿಳಿಯ	-8.83312
▁ಹಿ	-8.83352
▁ಅಪರಾಧ	-8.83373
▁ಫ	-8.83462
▁ಕಾಣ	-8.83523
ಟು	-8.83546
▁ಒಳ	-8.83567
▁ಆಟಗಳು	-8.83659
org	-8.83679
88	-8.83687
ರಾದ	-8.83721
49	-8.83789
56	-8.83977
to	-8.84008
55	-8.84033
▁ಗುಣಮಟ್ಟದ	-8.84098
▁ಅಪ್	-8.84112
hi	-8.84159
ಾಗಿರುವ	-8.84194
▁ಡ	-8.84274
ಜನ	-8.84274
85	-8.84319
ದ್ದನ್ನು	-8.84478
▁No	-8.8451
ಕಾಲ	-8.8472
66	-8.84757
▁ಸೀ	-8.84796
ಿಂದಲೂ	-8.84839
▁ಕೋಪ	-8.84877
ಿಗೋಸ್ಕರ	-8.84888
▁ಮನೆಯಲ್ಲಿ	-8.84924
ia	-8.84937
▁ಸಮಯದಲ್ಲಿ	-8.84951
▁ಹಾಗೆಯೂ	-8.84997
▁w	-8.85087
▁ತೆಗೆದುಕೊಂಡು	-8.85134
od	-8.85248
▁ಮಗನು	-8.8527
ಯುಳ್ಳ	-8.8527
▁200	-8.85319
▁ಸುದ್ದಿ	-8.85386
▁ಪಡೆಯಲು	-8.85429
▁ಹೋದ	-8.8544
▁ಪರ	-8.85493
▁ನಾಲ್ಕು	-8.85577
▁ನೇ	-8.85581
ha	-8.85633
ಮೀ	-8.85702
▁ಮೋ	-8.85711
▁is	-8.8581
▁ತೋರಿಸ	-8.85923
▁ಅಗತ್ಯ	-8.86062
▁ತಿಳಿಸ	-8.86196
37	-8.86438
ಲ್ಪಡುವ	-8.86566
36	-8.86707
ಈ	-8.86753
▁ಸಂಪೂರ್ಣ	-8.86762
ಎಲ್	-8.86766
70	-8.8683
ಧಿ	-8.86834
45	-8.86913
▁ಕಿಟಕಿ	-8.86952
ಷ್ಟು	-8.86959
▁ವಾ	-8.86987
▁ಪೂರ್ವ	-8.86996
▁ಮಾಡಲಾಗಿದೆ	-8.87006
47	-8.87084
▁ಸಹೋದರರ	-8.87088
ವರೂ	-8.8715
▁re	-8.87191
▁ಹಂತ	-8.87205
27	-8.87334
ಾದರೂ	-8.87352
▁ಸುತ್ತ	-8.87477
▁ಪುಸ್ತಕ	-8.87506
▁40	-8.87618
▁ರಕ್ಷಿಸ	-8.87629
ಮ್ಮ	-8.87666
▁ಜನಾಂಗ	-8.87705
▁29	-8.87822
▁26	-8.87897
ಿಸು	-8.87991
▁ಪಟ್ಟಣ	-8.88034
ವರನ್ನು	-8.88104
▁ನಕ್ಷೆಗಳು	-8.88193
▁ಕರ್ತನನ್ನು	-8.88199
▁ಗಾಗಿ	-8.88312
▁ಯಾಕೆ	-8.88328
▁ಹು	-8.8833
ನಾಗಿ	-8.88334
▁ವಸ್ತು	-8.8847
ಘ	-8.88519
▁ಒಂದ	-8.88546
33	-8.88569
ದಲ್ಲಿರುವ	-8.88584
▁Re	-8.88666
ti	-8.88733
98	-8.89016
46	-8.89047
ಮನ	-8.89069
ೊಬ್ಬ	-8.89082
▁ಪರಿಹಾರ	-8.89115
ot	-8.89126
▁ಹೊಂದಿರುವ	-8.8916
ಬ್ಬ	-8.89196
▁ಕ್ರಮ	-8.89207
▁ಹಾಕಿ	-8.89291
▁ಆದಾಗ್ಯೂ	-8.89439
▁ತಂದೆ	-8.89478
ನೆಯ	-8.89494
48	-8.8953
▁ದರ	-8.89578
▁g	-8.89656
ುವದಕ್ಕೂ	-8.89665
ರಾಗಿ	-8.89728
▁ಪರಿ	-8.89924
▁ಕೊಂಡು	-8.89927
▁ಕೈಯಲ್ಲಿ	-8.90046
▁ವಿಧಾನ	-8.9009
▁ಬೋ	-8.90145
ವೋ	-8.90245
ಕೊ	-8.90365
▁ಮುಂದಿನ	-8.90441
ಿದಾಗ	-8.90455
▁ಡಾ	-8.90803
▁ಉದ್ಯಮ	-8.9081
ಗಳೊಂದಿಗೆ	-8.90839
▁ಗಂಟೆಗಳ	-8.90919
na	-8.90965
ಾಯಿ	-8.91102
77	-8.91137
ಿತ್ತು	-8.91186
▁ಮಧ್ಯ	-8.91203
68	-8.91238
▁https	-8.91273
▁ಬಿಡ	-8.91304
ುವಾಗ	-8.91357
der	-8.9144
ಬೇಕಾದ	-8.91534
um	-8.91589
ಬೇ	-8.91604
and	-8.91654
▁ಅಪ್ಲಿಕೇಶನ್	-8.91671
▁ಹೆಲಿಕ್ಸ್	-8.91815
ಣ್ಣ	-8.91988
ದೊಂದಿಗೆ	-8.92064
52	-8.9207
▁ದಿವಸ	-8.9208
ಂಕ	-8.9208
о	-8.92104
▁ಆಟ	-8.92152
ac	-8.92153
▁ಇತ್ಯಾದಿ	-8.92249
ವಾಯಿತು	-8.92469
▁ಜನರಿಗೆ	-8.92861
▁31	-8.92892
▁ಸತ್ತ	-8.92986
ಬೋ	-8.93087
▁ಅಗಲ	-8.93154
▁ಕೊನೆಯ	-8.93639
▁ಪ್ರದೇಶ	-8.9399
ig	-8.94032
▁ಸಾಮಾನ್ಯವಾಗಿ	-8.94043
ಥ	-8.94111
▁ವೃತ್ತಿಪರ	-8.94154
ಂಚ	-8.94178
▁ಹೃದಯ	-8.94194
▁ಹೈ	-8.94247
ent	-8.94254
▁ಉಳಿದ	-8.94526
▁ಮುಖ	-8.94641
▁ದಕ್ಷಿಣ	-8.94725
ಗೊಳಿಸ	-8.94855
ಾಗಿಯೂ	-8.94939
ಸ್ಥ	-8.95009
▁Vessoft	-8.95044
▁ಅರ್ಪಿಸ	-8.95168
▁ಬಂದಾಗ	-8.95239
▁ವ್ಯಕ್ತಿ	-8.95341
ಮಾನ	-8.95567
ಗಾರರ	-8.95828
ಇಗೋ	-8.95977
ಶಿ	-8.95982
ಂಜ	-8.96087
ry	-8.96107
ವೆಂದು	-8.96141
▁ಸರಳ	-8.96322
▁ಯಾ	-8.96348
▁ಲೇಖಕ	-8.96395
▁ಆಳ	-8.96434
ೋಣ	-8.9644
▁28	-8.96458
ಬೇಡಿರಿ	-8.96482
▁ಧ್ವನಿ	-8.96554
▁ದಯವಿಟ್ಟು	-8.96698
89	-8.96745
▁ಸ್ಥಾನ	-8.96834
$	-8.96848
mo	-8.96893
ong	-8.96914
ರಲ್ಲಿ	-8.96922
▁ಪಿತೃಗಳ	-8.96997
▁ಕಳುಹಿಸಿ	-8.971
▁ಚಾ	-8.97148
▁ನಿಯಂತ್ರಣ	-8.97154
69	-8.97193
ನೀ	-8.97261
▁ಉಪಕರಣ	-8.97636
ತೆಯ	-8.97668
ಮು	-8.97668
▁ಗ್	-8.97695
ಿಸುತ್ತದೆ	-8.9782
▁ಕರ್ತನಾದ	-8.97836
▁ಗೋ	-8.97845
ಿದ್ದರೆ	-8.97869
▁ಪ್ರಸ್ತುತ	-8.97916
▁ನಡೆಯ	-8.98282
▁ಲಾಕ್	-8.98291
▁ಮುಚ್ಚ	-8.983
ುತ್ತಿದ್ದ	-8.98302
44	-8.9832
▁ಎಫ್	-8.98608
ಷಿ	-8.98677
▁ಸ್ಥಳದಲ್ಲಿ	-8.98833
▁ಇವನು	-8.98844
▁ಗಣಕತೆರೆ	-8.98844
▁ವಿಭಾಗ	-8.98856
▁ಸಮ	-8.98866
ವಾಗಿರುವ	-8.99034
▁2011	-8.99233
ce	-8.99256
▁ಇಡ	-8.9929
▁ಹತ್ತಿರ	-8.99301
▁ಸೇವಕರ	-8.99344
ಲೈ	-8.99405
▁ಯಾರ	-8.99448
▁ಹಾಗು	-8.99482
ಬಿಟ್ಟ	-8.99557
▁ಲೇಖನ	-8.99647
▁ಸಂಪೂರ್ಣವಾಗಿ	-8.99927
op	-9.00012
▁ಏರ್	-9.00264
▁ವಿಷಯದಲ್ಲಿ	-9.00275
all	-9.00457
▁ಅನ್ವಯ	-9.00481
▁ಪಡೆಯ	-9.00578
▁60	-9.00612
76	-9.00754
▁Ma	-9.00785
ಿದ್ದು	-9.00817
tr	-9.00844
▁ಮೊಳ	-9.00895
ುತ್ತಿದೆ	-9.00914
pl	-9.0094
ho	-9.01049
38	-9.01086
▁ಶಿ	-9.01171
57	-9.01445
="	-9.01479
ಂಪ	-9.0164
▁ಇಂದ	-9.0188
39	-9.0191
▁ಮೈ	-9.01939
▁ಇಸ್ರಾಯೇಲ್ಯರ	-9.01964
Notification	-9.01991
▁ಸ್ಟ್ರಿಂಗ್	-9.01991
▁ಮಾಡಬೇಕು	-9.01998
▁ಸ್ಪ	-9.02018
ಕಲ್	-9.0202
ಯರ್	-9.0204
▁ಚಾಟ್	-9.02143
▁ಕೊಠಡಿ	-9.02151
▁ನಡುವೆ	-9.02163
▁ದಿನಗಳು	-9.02174
▁ಪ್ರವಾದಿ	-9.02246
▁ಕಂಡ	-9.02324
▁ಸುಮಾರು	-9.02349
▁ಇವರು	-9.02433
▁ವಿವರಣೆ	-9.02632
41	-9.02698
ಂತಹ	-9.02802
ಒ	-9.02803
▁ಎಕ್ಸ್	-9.0286
▁ಕರೆಯ	-9.02879
▁ಪ್ರಶ್ನೆ	-9.0289
▁be	-9.02945
ದ್ಧ	-9.02992
▁ಒಳ್ಳೇ	-9.03004
▁ನಿವಾಸಿ	-9.03008
▁ಐದು	-9.03028
ಾರ	-9.03059
▁—	-9.0324
▁ಮೋಶೆಯು	-9.03242
ಾಗಲಿ	-9.0325
87	-9.03258
▁ಮ್ಯಾ	-9.03296
ೆಂಬ	-9.03355
ರಿನ	-9.03424
ವಲ್ಲ	-9.03445
ಂಟು	-9.0347
ಟ್ಟಿ	-9.04049
ment	-9.04076
▁ಶಬ್ದ	-9.04081
▁ತಿಳಿದ	-9.04168
ದಾಗ	-9.04195
▁ಹೋದನು	-9.04247
▁ಬಿಡುಗಡೆ	-9.04293
▁ಜನರನ್ನು	-9.0444
▁ಸಮಸ್ಯೆ	-9.04478
ುವವನು	-9.04557
▁ಇಷ್ಟ	-9.04562
ವನೂ	-9.04646
ಿವೆ	-9.04741
▁Name	-9.04752
▁ಹಕ್ಕುಗಳನ್ನು	-9.04814
▁ಸ್ಥಿರ	-9.04828
▁ಲೈಟ್ಸ್	-9.0504
ಿಗಾಗಿ	-9.05101
ಹ್	-9.0511
▁ವಿಷಯವಾಗಿ	-9.05173
▁ಉತ್ಪನ್ನ	-9.05236
ವಾಗಿಯೂ	-9.0528
▁ತೆಗೆದುಕೊಳ್ಳ	-9.05285
ೆಲ್ಲಾ	-9.05334
▁ರಾತ್ರಿ	-9.05408
▁ರಕ್ಷಣೆ	-9.05478
ex	-9.0557
▁ಹಳೆಯ	-9.05616
ve	-9.05676
▁ಫಲ	-9.05704
▁ಆರಂಭ	-9.05933
ಟ್ಟು	-9.05958
▁ಸಲಹೆ	-9.05971
▁ಸಂಸ್ಥೆ	-9.06031
▁on	-9.06041
▁ಗ್ರಾಹಕ	-9.06142
-2	-9.06186
ell	-9.0635
е	-9.06396
ಿಕೆಯ	-9.06421
he	-9.0651
ದಲ್ಲಿಯೂ	-9.06526
▁ಒಬ್ಬನು	-9.0656
ಪಟ್ಟ	-9.06574
▁ಚಿಕ್ಕ	-9.06609
▁ಹೇಳಿದ್ದೇನಂದರೆ	-9.06746
▁ಔಟ್	-9.06866
▁ಯೆ	-9.06875
67	-9.06982
82	-9.07443
ಬು	-9.07467
▁ಹೋ	-9.07546
ವನಾಗಿ	-9.07619
▁ಎತ್ತರ	-9.07644
▁ಇದರ	-9.07691
▁ತಾನು	-9.07709
▁ಪ್ರಕ್ರಿಯೆ	-9.07753
▁ಗಾ	-9.07765
ವರೆಗೆ	-9.07893
▁ಕ್ಲಿಕ್	-9.07899
▁ವಿಶ್ವವಿದ್ಯಾಲಯ	-9.07919
ನ್ನಾಗಿ	-9.07937
▁ತೊ	-9.07937
▁ನಿಯಮ	-9.07973
▁ಭಯ	-9.08113
▁ವಿಧ	-9.08301
▁ತುಂಬಾ	-9.08342
▁ಕರ್ನಾಟಕ	-9.08389
▁ಸ್ಟ	-9.08454
ver	-9.08477
▁ಸುಲಭ	-9.08498
▁ಪುಡಿ	-9.08576
▁ಅನುಭವ	-9.08614
▁ಲೆಕ್ಕ	-9.08799
▁ಪಟ್ಟಣದ	-9.08892
▁ಆರೋನನ	-9.08893
61	-9.08896
ap	-9.08928
▁ಮಾತನಾಡಿ	-9.09005
▁ಅದ್ಭುತ	-9.09113
ಗೊಳ್ಳ	-9.09267
▁ಸೈನ್ಯಗಳ	-9.09369
▁(_	-9.09387
▁ಬೋನಸ್	-9.09458
▁ಜೀವನ	-9.09667
os	-9.09719
▁ಸಂಬಂಧ	-9.09778
▁ಅಂಗ	-9.09832
vi	-9.0985
ಖ	-9.09878
ಲ್ಸ್	-9.09925
▁ಕಾಯ್ದಿರಿಸಲಾಗಿದೆ	-9.09978
▁ಪ್ರಧಾನ	-9.10008
▁ರಂದು	-9.1026
ೊಂದ	-9.10284
2018	-9.10288
▁ಪು	-9.10297
per	-9.10334
▁ಕಾರ್	-9.10388
-12	-9.10466
-20	-9.10501
ಟಿಂಗ್	-9.1057
▁ಕೆಟ್ಟ	-9.10582
▁ತಿಂಗಳು	-9.10652
а	-9.1067
▁ಮಕ್ಕಳಿಗೆ	-9.10703
79	-9.10753
▁ಬ್ಯಾ	-9.10773
▁×	-9.10842
▁ಪರೀಕ್ಷೆ	-9.10847
▁ತಿ	-9.10882
▁ರೀತಿಯಲ್ಲಿ	-9.10984
▁Android	-9.1102
96	-9.11118
net	-9.11247
ಿದ್ದರು	-9.11269
em	-9.1127
ಸರ್	-9.11278
▁ತೆಗೆದುಹಾಕ	-9.11422
▁2012	-9.11539
ಬಹುದಾದ	-9.11577
no	-9.11672
▁ಸಾರಿ	-9.11723
▁ಇಂದು	-9.11727
59	-9.11757
▁ಮಾಹಿತಿಯನ್ನು	-9.11835
▁ಬೆಂಗಳೂರು	-9.12075
ಭಾ	-9.12143
▁ಸಲ್ಲಿಸ	-9.12145
▁ಪ್ರಾಣ	-9.12146
ip	-9.12201
▁De	-9.12217
▁ಆಕಾಶ	-9.12222
▁ಸಾರ	-9.12305
ಟೆ	-9.12484
▁ಅಶುದ್ಧ	-9.12607
▁ಮನೆಗೆ	-9.12656
▁ಯೋ	-9.12679
▁ಮೀ	-9.1271
▁ಒಳ್ಳೆಯ	-9.12743
▁ರೇ	-9.12763
q	-9.12766
▁ನಾದ	-9.12817
▁ಪ್ರದರ್ಶನ	-9.12969
▁ಹಿಡಿದು	-9.13063
▁ಇತ್ತು	-9.13077
▁ಟೆ	-9.13102
▁ವೈ	-9.13171
ಪು	-9.13333
▁ವೀಕ್ಷಿಸಲು	-9.13374
▁ತಲೆ	-9.13424
ge	-9.13451
▁ಪರಿಣಾಮ	-9.13496
▁ಬರೆದ	-9.135
▁ವೈಯಕ್ತಿಕ	-9.135
ci	-9.13516
▁ಇಟ್ಟ	-9.13613
▁ಹೆಸರನ್ನು	-9.13627
ER	-9.13658
ಾಗಿದ್ದ	-9.1367
ಗಳಿಗಾಗಿ	-9.13707
▁ಹೋದರು	-9.13731
▁ಕಪ್ಪು	-9.13879
▁FSX	-9.13883
▁ಖಾತೆ	-9.14021
▁ಬದಲಾಯಿಸ	-9.14039
▁ಸ್ಥಾಪಿಸ	-9.14139
▁ಮತ್ತೆ	-9.14254
▁32	-9.14338
ರಾಮ	-9.14421
ಕಾರಿ	-9.1446
▁ಲಾಭ	-9.14497
ಎನ್	-9.145
▁ಗು	-9.14538
▁ಭೂ	-9.14757
ಾರ್	-9.14763
▁ಪಠ್ಯ	-9.14945
▁ಪರ್ವತ	-9.14946
ಾಗುವ	-9.14949
▁ಒತ್ತಡ	-9.14968
ill	-9.1497
ುವದನ್ನು	-9.15062
▁ಪ್ಯಾ	-9.15098
▁ಏಕೆಂದರೆ	-9.15136
▁ಪ್ರವೇಶ	-9.15192
ಿನಿಂದ	-9.1535
▁www	-9.15369
ag	-9.15377
▁ಪ್ರೊ	-9.15387
▁ಆರೋಗ್ಯ	-9.15423
43	-9.15477
▁ಸಾಯ	-9.15552
ಲಾಯಿತು	-9.15609
▁ಇವುಗಳ	-9.15727
▁Google	-9.1577
▁ಉದ್ದೇಶ	-9.15818
▁ಸಮುದ್ರ	-9.15841
100	-9.15967
▁ಸಮಾಧಾನ	-9.15988
(_	-9.16095
art	-9.16195
▁ಹುಡುಕ	-9.16201
200	-9.16204
▁ತೆರೆ	-9.16242
ಹೋದ	-9.16246
▁In	-9.16259
▁ಜಿಲ್ಲೆ	-9.16325
▁ತು	-9.16333
▁Co	-9.16335
▁08	-9.16346
ವಂತ	-9.16421
▁ಬ್ರ	-9.16446
▁ಖಾಸಗಿ	-9.16597
▁ಪ್ರಾರ್ಥನೆ	-9.16597
▁ಕೈಯಿಂದ	-9.16613
ತರ	-9.16656
▁k	-9.16681
ನಿನ್ನ	-9.16688
▁you	-9.16723
▁ಬರೆಯ	-9.16745
ಪೆ	-9.16891
▁ದೇವರಿಗೆ	-9.16894
-5	-9.16964
▁ಅಧಿಕೃತ	-9.16967
▁ಜನಪ್ರಿಯ	-9.16967
▁ಸಂಯೋಜನೆ	-9.16973
▁ಸ್ಥಿತಿ	-9.16984
ರನ್ನೂ	-9.17015
51	-9.17027
ow	-9.17037
ki	-9.17051
▁ಡೆ	-9.1709
ದ್ರ	-9.17147
ಧಾ	-9.17223
ನೊ	-9.17254
ಿಕೊಂಡು	-9.17373
ರಾಗ	-9.17593
ab	-9.17609
▁ಯುವ	-9.17684
▁ದುಃಖ	-9.17713
ಶಾಸ್ತ್ರ	-9.17839
ುವದಕ್ಕಾಗಿ	-9.17851
71	-9.17888
ುವವರ	-9.17912
ವಳ	-9.17953
ಕ್ಕಿಂತ	-9.17987
ಕೊಂಡರು	-9.17999
▁ಸೂ	-9.18044
ಾಯ	-9.18048
▁ಗಿ	-9.18106
▁→	-9.18132
▁ಬದಲಾಗಿ	-9.18191
▁ಪಾತ್ರೆ	-9.18293
▁ಇದೇ	-9.18376
▁ನಿಂತ	-9.18387
ರೈ	-9.18424
▁ಹೆಚ್ಚಾಗಿ	-9.18502
▁ಕೊಡುವ	-9.18538
▁__	-9.18583
97	-9.18597
▁ಕಾಲು	-9.18679
ಮೇ	-9.18833
▁ಸೇರಿಸ	-9.1887
▁de	-9.18976
▁ಆಗಿರುತ್ತದೆ	-9.19175
ಕೇ	-9.19262
ಕಿಂಗ್	-9.19315
ಿಯನ್	-9.19332
▁ಸೇರ	-9.1945
▁ಸ್ಕ	-9.19488
▁ಪಡೆದ	-9.19525
▁ವಿಮರ್ಶೆಗಳು	-9.19526
▁ಕಷ್ಟ	-9.19586
fe	-9.19613
ine	-9.19697
ಟೊ	-9.19746
▁ವಿರುದ್ಧ	-9.19766
up	-9.1979
ack	-9.19928
ou	-9.19932
▁ಪ್ರವಾಸ	-9.19988
ಯೊಂದಿಗೆ	-9.2003
▁ಅಡ್ಡ	-9.20099
▁ಗ್ರಾಹಕರ	-9.20412
▁ಬಿಲ್	-9.20417
▁ಅಧಿಕಾರಿ	-9.2044
oo	-9.20638
ie	-9.20677
▁ಇವರ	-9.20692
▁ಲೆ	-9.20772
ಭಾಗ	-9.20848
▁ವಾಕ್ಯ	-9.20895
▁ತಂಡ	-9.21132
ಓ	-9.21208
ಗಳಲ್ಲಿಯೂ	-9.21288
▁ತೈಲ	-9.21333
74	-9.2135
▁ವಿಗ್ರಹ	-9.21571
-8	-9.21674
▁ಹೇ	-9.2168
▁ಸಭೆ	-9.21791
▁ಆದೇಶ	-9.21795
▁ಹೊಲ	-9.2182
▁ಗುಣಮಟ್ಟ	-9.21832
ಗ್ಗ	-9.21932
ದಾರ	-9.22051
▁ಇಲ್ಲದೆ	-9.22056
▁ಕಾರ್ಡ್	-9.22098
▁ತಾಪಮಾನ	-9.22111
▁ಹತ್ತು	-9.22122
▁ಹೇಳು	-9.22146
▁ಡೌನ್ಲೋಡ್ಗಳು	-9.22201
▁ವೆಚ್ಚ	-9.22309
▁ನಿಂತು	-9.22328
▁ಹ್ಯಾ	-9.22465
ಎಫ್	-9.22502
83	-9.22518
▁ಆದರೂ	-9.22558
▁ಕೂಡಿ	-9.22601
78	-9.22658
ವಿಲ್ಲ	-9.22799
▁ಹೇಳಿದರು	-9.22857
▁ಬಂದರು	-9.23045
▁86-	-9.23058
ವರಾಗಿ	-9.233
ಂತೆಯೂ	-9.23338
64	-9.23398
om	-9.23432
▁ಕ್ರ	-9.23545
ber	-9.23628
ೋ	-9.23688
▁ಫರೋಹನ	-9.23688
▁ಉತ್ಪಾದನೆ	-9.23688
▁ಸಾಲ	-9.23697
ub	-9.23884
93	-9.23952
ud	-9.2399
ant	-9.2405
и	-9.24086
ಬಿಡ	-9.24147
▁ಮನುಷ್ಯ	-9.24214
▁ಸೆಟ್	-9.24399
ಾಂಶ	-9.24482
▁ಆಜ್ಞಾಪಿಸಿದ	-9.24505
▁ಗಮನ	-9.24622
54	-9.24639
▁ಬಾರಿ	-9.24645
▁ನೀಡುತ್ತದೆ	-9.24662
▁ಇತ್ತೀಚಿನ	-9.24686
▁ವಿಜ್ಞಾನ	-9.24718
one	-9.24789
▁ಏಕ	-9.24849
ಃ	-9.24886
ca	-9.24929
▁ರೋಗ	-9.25006
▁ಟ್ವಿಟರ್	-9.25088
▁ಸಾರ್ವಜನಿಕ	-9.25088
our	-9.2525
bo	-9.25322
ಯೊ	-9.25354
▁ಮೌಲ್ಯ	-9.25355
▁with	-9.25492
81	-9.25495
ಹೋಗ	-9.25509
▁ದಿವಸದಲ್ಲಿ	-9.25552
▁ಯಾರೂ	-9.25573
▁ಲೋಡ್	-9.25575
▁ನಿರ್ಮಾಣ	-9.25577
▁Mo	-9.25588
▁ರಾಜ	-9.25654
▁ಸರ್ಕಾರ	-9.25776
▁ಪಾದ	-9.25786
▁ಕೊಡುಗೆ	-9.25823
▁ಅಧಿಕಾರ	-9.25829
ನಿಯ	-9.25885
ಜು	-9.26078
▁ಮರದ	-9.26081
ಡಾ	-9.26132
ಲ್ಲದೆ	-9.26162
ದೇಶ	-9.26223
▁ನಂಬಿಕೆಯ	-9.26281
ದ್ದಾಗ	-9.26298
▁ಪ್ರತಿಯೊಂದು	-9.26304
man	-9.26307
▁ಅಡಿಯಲ್ಲಿ	-9.26386
500	-9.26395
ಸುವ	-9.26465
▁(5	-9.26555
▁ಕೊಂಡ	-9.26673
42	-9.26707
▁ನಿರ್ದಿಷ್ಟ	-9.2676
▁ಟಾಪ್	-9.26779
62	-9.26854
ash	-9.26867
▁ಮತ	-9.26885
ard	-9.26914
▁ಖ	-9.2701
ವನಿಗೆ	-9.27061
91	-9.27155
ವ್ಯ	-9.27317
▁ಘನ	-9.27337
▁ವಿಚಾರಣೆ	-9.27393
▁ಗುಣ	-9.27402
▁ವೇಗ	-9.27437
ಫಾ	-9.27487
63	-9.27503
▁ತನ್ನನ್ನು	-9.2752
ಪಡಿಸಿ	-9.27578
ೀಕರಣ	-9.27689
▁ಬಿದ್ದ	-9.27891
▁ಜಲವರ್ಣ	-9.27948
▁ಸೇ	-9.27968
▁ಜನಾಂಗಗಳ	-9.27974
go	-9.27991
ಿಗಿಂತ	-9.2801
84	-9.28022
▁ಕೊಲ್ಲ	-9.28067
ಪರ್	-9.28092
▁ಹ್ಯಾಕ್	-9.28128
ಬೇಕ	-9.2815
age	-9.28154
▁sales	-9.28164
ಾಗಿತ್ತು	-9.28256
ಂಕ್	-9.28259
▁St	-9.28301
▁Windows	-9.28363
po	-9.28365
▁Sh	-9.28377
▁ಮೂ	-9.28388
▁ಬಳಸಲಾಗುತ್ತದೆ	-9.28397
▁ನಂಬಿಕೆ	-9.28448
ಂಡಿ	-9.28489
ವಿಲ್ಲದ	-9.28537
▁ಹೋಗು	-9.28582
▁ಶರೀರ	-9.28781
▁ರಚಿಸ	-9.28812
IN	-9.28941
▁ಸುಂದರ	-9.28998
▁ಎಲ್ಲಿ	-9.29004
▁ನ್ಯೂ	-9.29027
ts	-9.29058
▁ಮಾರುಕಟ್ಟೆ	-9.29106
ವನಾದ	-9.2917
ಲರ್	-9.29196
▁ಅಸಹ್ಯ	-9.29199
▁ಕಲ್ಲು	-9.29215
ಡರ್	-9.29216
▁ಅನ್ಯ	-9.29237
AN	-9.29247
ಉ	-9.29289
ಟ್ಸ್	-9.29299
▁ದೇಹ	-9.29325
ಂತೆಯೇ	-9.29353
mi	-9.2942
▁ಮಾರ್	-9.2944
ive	-9.29597
72	-9.29611
▁ಹೋಸ್ಟಿಂಗ್	-9.2962
▁ವಿಂಡೋ	-9.29726
-10	-9.2979
	-9.29831
▁ಅಂತ್ಯ	-9.2985
ಹಾಕ	-9.29875
▁500	-9.29908
ಗಳನ್ನೆಲ್ಲಾ	-9.29916
ಕೊಟ್ಟ	-9.29974
92	-9.30031
ಮಾಡಿದ	-9.30138
da	-9.30138
▁ದಿನಗಳ	-9.30285
▁ಪ್ರತ್ಯುತ್ತರವಾಗಿ	-9.30323
▁ಅಗತ್ಯವಿದೆ	-9.30478
ನ್ನಾದರೂ	-9.3054
ಕ್ಸಿ	-9.30621
▁WhatsApp	-9.30679
ಾಟ	-9.30726
▁ಗುಣದರ್ಜೆಯ	-9.30893
▁ನೋಂದಣಿ	-9.30893
▁ಸಾಕಷ್ಟು	-9.30897
ಮೊ	-9.30969
ಡಿಯ	-9.30971
▁ಸಸ್ಯ	-9.30991
▁ಕೂಗ	-9.31147
▁ಯೆರೂಸಲೇಮಿನ	-9.31171
pa	-9.31309
ಡೀ	-9.31438
ಷನ್	-9.31449
▁ಟಿವಿ	-9.31498
▁ಮಾನವ	-9.3158
▁ನಿಜವಾಗಿಯೂ	-9.3159
ಕೊಡ	-9.31597
ನನ್ನೂ	-9.31613
ಸ್ಟ	-9.31752
▁ಸುತ್ತಲೂ	-9.31803
ಚ್ಚ	-9.31821
▁ಮೋಸ	-9.31886
▁ಅವರಲ್ಲಿ	-9.31908
ತೆಯನ್ನು	-9.31935
ೀಕರಿಸ	-9.31965
▁ಪರಿಸರ	-9.31965
▁ನಡೆಸ	-9.31981
▁ದೇವರೇ	-9.32056
▁ವಿಶ್ವ	-9.32091
ya	-9.32111
nd	-9.32123
▁ಶೆ	-9.32149
▁ದನು	-9.322
ಚೀ	-9.32229
XL	-9.32263
CH	-9.32288
,000	-9.32289
▁Q	-9.32301
ian	-9.32346
ಟನ್	-9.32346
▁ನಷ್ಟ	-9.32348
▁ಕಾರು	-9.324
ನ್ನೆಲ್ಲಾ	-9.32434
ಕೀ	-9.32596
▁ಆಕಾಶದ	-9.32657
▁ಭಾಗಗಳು	-9.32682
▁ನ್ಯೂಸ್	-9.32726
▁ಕುಮಾರರ	-9.32803
▁ಕಾನೂನು	-9.32833
ೊಂದು	-9.3288
▁ವೀಕ್ಷಣೆ	-9.32888
▁ವಿಶ್ವದ	-9.32919
▁ಕವರ್	-9.33035
ಿದ್ದೇವೆ	-9.33058
0.00	-9.3307
ತೀ	-9.33075
ಸ್ಟರ್	-9.33119
▁ಗುಡಾರ	-9.33133
ಮಾಡುವ	-9.33181
ಸನ್	-9.33247
▁ನೀಡುವ	-9.33373
▁ಜ್ಞಾಪಕ	-9.3353
▁ಕೊಳ್ಳ	-9.33562
▁ಶಾ	-9.33591
▁ತಲೆಯ	-9.33633
ite	-9.33728
▁ಮೇಲ	-9.33762
ms	-9.33829
ba	-9.33838
ಗ್ರ	-9.33908
▁ವ್ಯವಹಾರ	-9.33926
ನ್ನೇ	-9.33946
▁ಪಾವತಿ	-9.33997
ವಾಗುವ	-9.3404
▁ಇಳಿದು	-9.34053
ga	-9.34059
▁ದಹನಬಲಿ	-9.34147
▁ಬಯಸ	-9.3415
▁ಲೇವಿಯರ	-9.34231
▁ಫೈಲ್	-9.34248
▁ಏನ	-9.34315
▁ನೋಡುವ	-9.34366
ಲೊ	-9.34368
▁ಆಜ್ಞೆ	-9.34381
▁ಹೀ	-9.34403
2019	-9.34403
▁ನಡೆದ	-9.34456
▁ಅಧ್ಯಯನ	-9.34589
▁ಚಟುವಟಿಕೆ	-9.34589
73	-9.34623
▁ಬೆಂಕಿಯ	-9.34749
▁ಆಶೀರ್ವದಿಸ	-9.34878
▁ಬಂದನು	-9.35016
▁ಹಲವಾರು	-9.35033
▁ನಿಗೆ	-9.35036
▁ಪವರ್	-9.3506
sp	-9.35096
ಬರ್	-9.35377
▁ಸೇರಿ	-9.35389
min	-9.35452
▁ಹುಟ್ಟಿದ	-9.35467
▁ಒದಗಿಸ	-9.35474
▁ಮಾಡಿದರು	-9.35621
▁ಇತಿಹಾಸ	-9.35702
▁ಗುಂಪು	-9.35707
▁ತಂತ್ರಾಂಶ	-9.35707
▁ಎಂಬುದನ್ನು	-9.35715
▁ಕಟ್ಟಿ	-9.35878
▁ಧ	-9.3594
▁ಮಾತ	-9.3601
ke	-9.36039
ಲಾಗಿ	-9.36081
ರಿಸ	-9.36126
ಕ್ಕೋಸ್ಕರ	-9.36127
io	-9.36136
▁ಕೆಳಗಿನ	-9.36152
▁ಸ್ವಯಂ	-9.36168
ity	-9.3632
▁Casino	-9.36324
ty	-9.36343
▁ಮತ್ತೊಂದು	-9.36384
▁ತನಗೆ	-9.36502
▁ಫಿ	-9.36517
▁j	-9.36576
▁ಗುರುತು	-9.36622
ಕ್ತ	-9.36706
▁ಲೈನ್	-9.36748
ಟೇ	-9.36775
▁ಆಲೋಚನೆ	-9.36828
ನೈ	-9.36849
▁ನೀ	-9.36863
▁ಅರಣ್ಯ	-9.36868
▁ಬಟ್ಟೆ	-9.3687
▁ಮುಚ್ಚಿ	-9.36978
▁ತಂದೆಯಾದ	-9.37034
▁ಫಿಲಿಷ್ಟಿಯರ	-9.37078
if	-9.37079
ಪೋ	-9.37125
▁ನಿಮ್ಮಲ್ಲಿ	-9.3713
▁ಎಷ್ಟು	-9.37163
▁ಕೊಟ್ಟನು	-9.37208
ಜ್ಞ	-9.37228
ಂಪ್	-9.37278
▁ಬ್ಯಾಟರಿ	-9.37283
▁ರೊಟ್ಟಿ	-9.37296
▁Tube	-9.37298
▁ಹೆಚ್ಚಿಸ	-9.37304
▁±	-9.37322
ಬಲ್	-9.37365
▁ಬಳಕೆ	-9.37369
▁ದೃಷ್ಟಿ	-9.37427
94	-9.37477
ಹು	-9.37506
▁ದೀರ್ಘ	-9.3751
ಾಂ	-9.37613
ದವರ	-9.37645
day	-9.37691
▁ಯೆಹೂದ	-9.37698
ಲ್ಪ	-9.37699
▁ಎಡ	-9.37732
▁35	-9.37735
▁EUR	-9.3775
ಡಿಂಗ್	-9.37768
-01	-9.37788
ನಿನ	-9.3791
್ಯೂ	-9.37964
▁ಹಿನ್ನೆಲೆ	-9.37967
▁ಪೇ	-9.38125
ting	-9.38177
▁ಮೋಟಾರ್	-9.38197
ವೀ	-9.38322
2004	-9.38324
ಬಲ್ಲ	-9.38353
с	-9.38427
ಿದ್ದೀರಿ	-9.38474
ಮಿನ	-9.38494
▁ಸೌಲನ	-9.3853
▁ವಿಂಡೋಸ್	-9.38541
▁ತೋಟ	-9.38562
-6	-9.38658
▁ಸಮುದ್ರದ	-9.38772
tal	-9.3878
▁PM	-9.38839
▁ಕಠಿಣ	-9.38888
lu	-9.38895
si	-9.38897
▁ಸ್ಥಳೀಯ	-9.38972
ಗಳಿಗೂ	-9.39016
ದಿದ್ದರೆ	-9.39023
"&	-9.39106
▁ನವೀಕರಿಸಲಾಗಿದೆ	-9.3913
▁ರಚನೆ	-9.39307
▁from	-9.39356
▁ಬೆಳೆಯ	-9.39392
ice	-9.39445
ಫಿ	-9.39457
▁ತಂದ	-9.39491
ah	-9.39528
▁ಠೇವಣಿ	-9.39584
ಲ್ಲವೋ	-9.39644
ON	-9.3966
▁ಇರಲಿ	-9.39668
ಲಿಂಗ್	-9.39771
▁ಸಂಗ್ರಹ	-9.39822
▁ದೇಶವನ್ನು	-9.39908
▁ಕಾರ್ಯಕ್ರಮ	-9.39944
ast	-9.39976
▁ಸೇರಿಸಿ	-9.4003
▁ಸರಾಸರಿ	-9.40051
▁ಲೋಕ	-9.40059
▁ಬಳಕೆದಾರ	-9.40141
ದ್ದೇನೆ	-9.40167
ಿಗ	-9.40233
▁ಪರಿಗಣಿಸ	-9.40285
▁ನಿರ್ವಹಿಸ	-9.40308
▁ಕ್ರಿಯೆ	-9.40363
sk	-9.40575
▁ಸಿಟಿ	-9.40602
▁ಗುರಿ	-9.40739
▁ಮಾಡುವೆನು	-9.40751
▁ಉಗುರು	-9.40755
▁ಪೋ	-9.40836
ಫೋ	-9.40917
▁ವಿವರ	-9.4097
▁ಇವನ	-9.411
ಾತನ	-9.4115
ಾಗಿದ್ದರೆ	-9.41165
▁ಸೂಚನೆ	-9.41231
▁ತಾಯಿ	-9.41333
ಾಗಿದೆ	-9.41335
ai	-9.4138
▁Pro	-9.41492
ಟೋ	-9.41569
ಪಟ್ಟು	-9.41646
▁ಪಾಲು	-9.41714
▁ಇತರೆ	-9.41768
▁ಪ್ರಾ	-9.41803
ph	-9.41842
ಥಾ	-9.41856
▁ಯಿಂದ	-9.41878
▁ಉದಾಹರಣೆಗೆ	-9.41936
▁ಸಾಮಾಜಿಕ	-9.4194
▁ಇದ್ದರು	-9.41955
mb	-9.42017
▁ಸರಿಯಾದ	-9.42021
▁ಬೀದಿ	-9.42198
▁ನಿಶ್ಚಯವಾಗಿ	-9.42423
▁ಕಾಲದಲ್ಲಿ	-9.42442
▁ಪ್ರಯೋಗ	-9.42444
ರೆಂದು	-9.42508
ಯಿಂದಲೂ	-9.42511
▁ಆಕೆಯು	-9.42537
ನ್ನಿ	-9.4256
▁ನೋಟ	-9.42573
ಂದ್ರ	-9.42603
▁ಅಕ್ರಮ	-9.42605
▁ಅಧಿಪತಿ	-9.42621
port	-9.42642
▁ಕೆಂಪು	-9.42658
▁Ch	-9.42663
▁ಚಿ	-9.42668
▁ತೆರಿಗೆ	-9.42711
ಾನ್	-9.42713
▁ಭಾರತ	-9.42729
pdf	-9.42733
eng	-9.42763
ಕ್ಷನ್	-9.42795
▁ವ್ಯವಸ್ಥೆಯ	-9.42818
▁Free	-9.42887
т	-9.42898
ೆಲ್ಲರೂ	-9.42962
▁ಹುಡುಕಿ	-9.43015
▁ಗುಡಾರದ	-9.43047
▁80	-9.43068
▁ಕೆಳ	-9.43103
ವಾಗಿತ್ತು	-9.43109
▁ಅರ್ಪಣೆ	-9.43139
▁ತೋ	-9.43192
be	-9.43234
cl	-9.43305
▁ಮಾತುಗಳನ್ನು	-9.43321
▁ಹೇಳುತ್ತಾರೆ	-9.4336
▁mo	-9.43371
ಾವ	-9.43383
▁ಬಳಸಲು	-9.43401
▁ಬಯಸುವ	-9.43469
ತಿಯ	-9.43554
▁ಒಳಗೊಂಡಿದೆ	-9.43661
ಜರ್	-9.43711
▁ಹೃದಯವು	-9.43722
ಗಳಿವೆ	-9.43789
▁ಚರ್ಮ	-9.43828
▁ವೇದಿಕೆ	-9.43866
ST	-9.43895
▁ಯೋಚಿಸ	-9.43899
ಫೆ	-9.43966
▁ಸ್ಥಳಕ್ಕೆ	-9.4402
▁Me	-9.441
▁ಕಂಪ್ಯೂಟರ್	-9.44109
▁ಇಸ್ರಾ	-9.4416
▁ಕೇ	-9.44215
▁ಸಂಗೀತ	-9.44352
▁ಸುರಕ್ಷಿತ	-9.44352
▁ಪಡ	-9.44385
▁ಏನೂ	-9.44386
▁ಎಲೆ	-9.44479
ಬೀ	-9.44565
▁ಆಸ್ತಿ	-9.44628
ಿರುತ್ತದೆ	-9.44636
ೇಷನ್	-9.44643
▁ಸಂದರ್ಭದಲ್ಲಿ	-9.44655
ರ್ಟ್	-9.44663
ರಿಯಾ	-9.44664
▁ಇರುವದು	-9.4475
▁ಎಂಬಿ	-9.44822
▁ಮಳೆ	-9.44838
▁ಕನಿಷ್ಠ	-9.44842
ತೋ	-9.4492
▁ಬಿಳಿ	-9.4493
▁ಸಂಬಂಧಿಸಿದ	-9.45037
▁ಪ್ರಾರಂಭಿಸ	-9.45063
▁ಪ್ರವೇಶಪದ	-9.45089
▁ಪತ್ರ	-9.45128
ಮರ್	-9.45146
▁Online	-9.45335
▁ಸ್ವಾಗತ	-9.45337
bi	-9.45341
ಠ	-9.45369
ನ್ಯಾ	-9.45381
▁ಹೊರತು	-9.454
▁ತೀರ	-9.45518
▁ಮೋಶೆಯ	-9.45522
▁ಲೈವ್	-9.45601
ಲನ	-9.45645
▁ದಾಖಲೆ	-9.45674
▁ಗ್ಯಾಂಗ್	-9.45787
ವೈ	-9.45838
▁ನಾಶ	-9.45854
ಲಾಗುತ್ತಿದೆ	-9.459
▁ದೇವರನ್ನು	-9.45967
au	-9.46051
▁ಹೆಚ್ಚ	-9.46075
▁ದ್ರಾಕ್ಷಾರಸ	-9.46077
▁ಜೈಲು	-9.46079
▁09	-9.46117
▁PC	-9.46158
ಕೊಳ್ಳಿರಿ	-9.46231
▁ಖರೀದಿ	-9.46284
-0	-9.46299
ವಾಗಿರುತ್ತದೆ	-9.46354
▁ಬೀಳ	-9.4644
ಳೆಯ	-9.4647
ುವವರು	-9.46494
ಚು	-9.4651
ಚೆ	-9.46552
▁ಕೈಗಾರಿಕಾ	-9.46575
▁(1)	-9.46594
▁ಪ್ರಿಯ	-9.46621
▁Hack	-9.46627
▁ತುಂಬ	-9.4668
▁ಭಯಪಡ	-9.46746
▁ನೇರ	-9.46761
▁ತಯಾರಿಸ	-9.46831
ಾತ್ಮಕ	-9.46838
ಾಲಯ	-9.46886
▁2010	-9.47002
▁ಬಳಿ	-9.4706
▁BESCOM	-9.47075
▁ಕೈದಿಗಳ	-9.47076
▁ಮಹಿಮೆ	-9.47116
▁ಕಟ್ಟಡ	-9.4726
▁ಪ್ರವೇಶಿಸ	-9.47318
▁ನಿಯಮಗಳು	-9.47455
▁ಸ್ವೀಕರಿಸ	-9.47637
ರಣ	-9.47725
▁ಗರಿಷ್ಠ	-9.47831
ep	-9.47875
ಚಾರ	-9.48034
▁ಕಳೆದ	-9.48082
▁ಕಚೇರಿ	-9.48085
bu	-9.48135
ಬರ	-9.48237
ಲಾರ	-9.48248
▁ಶೂ	-9.48263
н	-9.48326
▁ಬಹಳವಾಗಿ	-9.48351
▁ಗುರುತಿಸ	-9.4837
ಂಭ	-9.48416
▁ಚದರ	-9.48429
▁ರೈಲು	-9.48491
▁ಸೂಚಿಸ	-9.48603
▁ಮತ್ತಷ್ಟು	-9.48606
pr	-9.48628
▁ಕಾಣಿಕೆ	-9.48661
ಲ್ಪಟ್ಟಿದೆ	-9.48664
ರಿಗೂ	-9.48716
▁ವಿದ್ಯಾರ್ಥಿ	-9.48762
▁ಆಡ	-9.4881
▁An	-9.48842
▁ಪ್ರಮಾಣಪತ್ರ	-9.48858
▁ಕುರಿ	-9.48914
▁ತಯಾರಕರು	-9.49021
▁ಒಪ್ಪಿಸ	-9.49024
▁ವಿನಿಮಯ	-9.49103
ಚರ್	-9.49113
▁ಒದಗಿಸುತ್ತದೆ	-9.49209
▁ವರುಷದ	-9.49242
▁ದಾ	-9.49313
ನಾವು	-9.49327
▁ರೈಸ್	-9.49334
▁ಕ್ರೆಡಿಟ್	-9.4936
ಿಂದಲೇ	-9.49395
ಸೇ	-9.4946
est	-9.49514
ದರೂ	-9.49521
AR	-9.49553
▁ಡೇ	-9.49592
▁ಮೇಲಿನ	-9.49611
▁ಫೋಟೋ	-9.49617
▁ತಪ್ಪಿಸ	-9.49685
ide	-9.49747
▁ಕುಮಾರರು	-9.49818
▁ಶೀರ್ಷಿಕೆ	-9.49875
▁ಎಚ್ಚರಿಕೆ	-9.49885
▁ಕಂಡು	-9.4991
▁ಶೇ	-9.50057
▁ಎಲೀ	-9.50087
▁ಉದ್ಯೋಗ	-9.50133
ಾಡ	-9.50139
▁ಕರ	-9.50158
ಿದ್ದನು	-9.50303
ೆಲ್ಲರ	-9.50308
▁ನೇಮಿಸ	-9.50319
we	-9.50342
▁ಇನ್ನಷ್ಟು	-9.50392
▁ಕಿವಿ	-9.50451
ುತ್ತಿದ್ದರು	-9.50587
▁ಸಿಂಹ	-9.50661
▁ಮನುಷ್ಯರು	-9.50682
▁ಪ್ರಭಾವ	-9.50683
▁ನಿಲ್ಲ	-9.50738
▁ಬೈ	-9.50745
▁ಸಾಧ್ಯ	-9.50885
р	-9.50912
▁Ro	-9.50984
▁ಪೈಪ್	-9.50987
▁ಕುಡಿಯ	-9.51013
▁ಸಂದೇಶ	-9.51016
೧	-9.51039
▁ಹಿರಿಯರ	-9.51043
ಹೀ	-9.51141
್ಯರ	-9.51144
▁ಪ್ಲಾಸ್ಟಿಕ್	-9.51175
▁ಸಂಗತಿ	-9.51175
▁ತಂದು	-9.51203
ld	-9.51214
▁ಪರಲೋಕ	-9.51223
▁ತೋರಿಸು	-9.51343
nt	-9.51356
▁ಹಬ್ಬ	-9.5136
▁Bo	-9.51363
ni	-9.51369
▁ಮಗನ	-9.5139
▁ಕೆಲವರು	-9.51424
▁ಮಾತನ್ನು	-9.51425
▁ಸ್ವಾಸ್ತ್ಯ	-9.51435
▁ಲೋ	-9.51579
ಗಿಂತ	-9.51649
▁ಉತ್ತರಿಸಿ	-9.51702
▁ಸಕಲ	-9.51705
▁ವಾಸ	-9.51765
▁ಬದುಕ	-9.51867
ಯಲ್ಲಿರುವ	-9.51896
ಚಾ	-9.51976
▁ಅಂದಳು	-9.51994
ka	-9.52117
▁ಹಾಡ	-9.52149
▁ದಿನದ	-9.52184
▁ಹನ್ನೆರಡು	-9.52225
▁07	-9.52247
▁ಬೆಲೆಪಟ್ಟಿ	-9.52256
▁ಅಪ್ಪಣೆ	-9.52263
ek	-9.52269
▁ಗೊತ್ತ	-9.52322
ಗಳಿಂದಲೂ	-9.52435
ಡೋ	-9.52595
▁ಬೀಳುವ	-9.52633
▁ಓದಿ	-9.52709
va	-9.52751
kg	-9.52905
▁ಸುಲಭವಾಗಿ	-9.52913
▁ಎಚ್	-9.52923
▁ಬಿಟ್ಟ	-9.52941
ಕೊಳ್ಳಲು	-9.53001
▁ಆದಕಾರಣ	-9.5302
▁ವಾಹನ	-9.53053
▁ಟಿಪ್ಪಣಿಗಳು	-9.53149
▁ಮತ್ತ	-9.53158
▁ಬಡ	-9.53215
▁ಬಳಕೆದಾರರ	-9.53329
▁ಮರಳಿ	-9.53384
▁ಕೂ	-9.53389
▁+86	-9.53425
ತಕ್ಕ	-9.53462
tion	-9.53509
▁ಸಂಶೋಧನೆ	-9.53554
ೇಟ್	-9.53608
ಂಡರ್	-9.53658
AT	-9.53726
▁ಅನ್ನ	-9.53802
▁ತೀರಿಸ	-9.53864
▁ಕಥೆ	-9.53902
▁ಟೈ	-9.54088
▁ಪೀ	-9.54094
▁ದೀಪ	-9.541
▁ಬೆಟ್ಟ	-9.54138
▁57	-9.54215
▁೧	-9.54224
್ಮ	-9.54234
▁ಮರಣ	-9.54293
▁ಬರುತ್ತದೆ	-9.54356
▁ಭಾರತೀಯ	-9.54388
▁45	-9.54392
ee	-9.54411
ಸೂ	-9.54444
ನಾಗಿರುವ	-9.54448
ಷಾ	-9.54488
▁ನಿರ್	-9.54538
ಲ್ಪಡುವದು	-9.54628
▁ಯಾಕೋಬನ	-9.54634
▁ಪ್ರಯೋಜನ	-9.54652
ff	-9.54666
▁ಸೇವಿಸ	-9.54671
▁ಟ್ರ	-9.54673
ಭಾವ	-9.54694
▁ತೆರೆದ	-9.5471
ವಿದೆ	-9.54727
▁ಗಣಕ	-9.54766
▁ಡೈ	-9.54779
SS	-9.54837
▁ಅಲ್ಲಿಂದ	-9.54838
▁ಸಮೂಹ	-9.54902
▁ಸಂಪರ್ಕದಲ್ಲಿರಿ	-9.54903
▁ಕಳ	-9.54904
▁ಅರ್ಧ	-9.54904
▁ವಲಯ	-9.54908
ಷೆ	-9.54972
ಹನ	-9.55046
▁ಸೌಲನು	-9.5507
▁Ba	-9.55087
▁ಪರೀಕ್ಷಿಸ	-9.55119
ಕ್ಟ್	-9.55128
ಣೆಯ	-9.55161
▁ಪರಿಪೂರ್ಣ	-9.5518
▁ಸಮಾಧಿ	-9.55186
ಿಸಿದನು	-9.55196
▁ಅಂತ	-9.55251
ಟೀ	-9.55306
▁ಬಾಯಿ	-9.55331
▁ವಸ್ತ್ರ	-9.55358
▁ಮುಂಚೆ	-9.55446
ಿಸಿಕೊಂಡ	-9.55499
▁ಊ	-9.55509
▁ಮೋಶೆಗೆ	-9.55566
▁ದೇಶಕ್ಕೆ	-9.55647
\	-9.55717
ಕ್ಕು	-9.55754
▁ಮಟ್ಟ	-9.558
▁ಲ್ಯಾ	-9.5583
▁ಹೂ	-9.55871
ರಳ	-9.55939
ಲ್ಲೂ	-9.55991
▁ತೊಂದರೆ	-9.56004
ಷನ	-9.56037
▁ಎಬ್ಬಿಸ	-9.56072
▁ಏರಿ	-9.56091
ಳ್ಳಿ	-9.56144
▁ವಿಶೇಷವಾಗಿ	-9.56251
▁ಗೂಗಲ್	-9.56268
▁ತಾಂತ್ರಿಕ	-9.56268
▁ತೆಗೆಯ	-9.56283
ಚರ	-9.56285
▁ಬೀಜ	-9.56388
mp	-9.56407
▁ಸಾಯುವ	-9.56426
▁ಹಕ್ಕು	-9.56501
ಸ್ಟಾ	-9.56506
▁ವ್ಯರ್ಥ	-9.56541
▁ಜಾಹೀರಾತು	-9.56544
▁ಎಂದಿಗೂ	-9.56545
▁ಕುಮಾರ್ತೆಯರ	-9.566
▁ತಪ್ಪು	-9.56662
▁ಬೆಳ್ಳಿಯ	-9.56671
ಗೊಳಿಸುವ	-9.56714
▁ಐಫೋನ್	-9.5683
▁ತಿಂದು	-9.56855
uk	-9.56943
▁ಬೇಡ	-9.57017
ತ್ರಿ	-9.57025
▁pro	-9.57059
▁ಉಲ್ಲೇಖ	-9.57097
ಕ್ರಮ	-9.57102
▁ಶತ್ರು	-9.57121
▁ಪ್ರಸಾರ	-9.57122
ass	-9.57126
ೆಯನ್ನು	-9.57277
▁ಯಾಜಕನು	-9.57299
▁ಆಡಳಿತ	-9.57362
▁ನೈಸರ್ಗಿಕ	-9.57375
out	-9.57385
▁ಚೆನ್ನಾಗಿ	-9.57477
ನಗರ	-9.57609
▁ಸೌಂದರ್ಯ	-9.57653
▁ಮಾಡಿಕೊಳ್ಳ	-9.57665
▁ಮಕ್ಕಳೂ	-9.57741
▁ವಿಚಾರಿಸ	-9.57828
▁ಟಾ	-9.5785
▁ಸ್ವರ	-9.57938
▁ಉದಾಹರಣೆಗಳು	-9.57959
▁ತಾಯಿಯ	-9.58152
▁Mi	-9.58152
▁ಮನ	-9.58167
gr	-9.58299
ಚಿತ	-9.58326
ov	-9.58328
▁ಕಡೆ	-9.5836
ick	-9.58397
ಯಂ	-9.58421
ಮೂ	-9.58436
ಮನ್	-9.58437
▁ಯಾಜಕರ	-9.58448
ec	-9.58506
▁ಅಳಿಸ	-9.58562
▁ದಪ್ಪ	-9.58577
▁ಪ್ಲಸ್	-9.5862
▁ಇದರಿಂದ	-9.58709
▁ಬಾಬೆಲಿನ	-9.58775
▁ಹಿಂಬಾಲಿಸ	-9.58775
▁ಐಟಂ	-9.58776
ಗೊಳಪಡಿಸುವುದ	-9.58776
▁ಸೆಂಟರ್	-9.58806
▁ಜಾಲ	-9.58817
ಲಾಗಿಲ್ಲ	-9.58846
ಮೆಂಟ್	-9.58878
▁ಗೋತ್ರ	-9.58881
ಕೆಟ್	-9.58892
▁ಅರಸುಗಳ	-9.58902
-2018	-9.58983
▁ಕೆಲಸದ	-9.59012
ಗೊಂಡು	-9.59025
▁ಜಾಗ	-9.59045
▁ನಡಿಸ	-9.59064
tor	-9.59109
ವಾರ	-9.59147
▁ಬಾಗಲ	-9.59158
▁To	-9.59167
▁ಅಂಶ	-9.59205
ಣಾ	-9.59348
▁ನೋಡಲು	-9.59462
▁ಹೊತ್ತು	-9.59468
▁ಅಪ	-9.59476
▁ಭಾರ	-9.59489
ಡುವ	-9.59524
ug	-9.59542
▁ಹುಡುಕು	-9.59578
▁ಕೊಡು	-9.59597
ಂಗಾ	-9.59616
ಎಕ್ಸ್	-9.59635
▁ಸ್ಲಾಟ್ಗಳು	-9.59636
▁ಯಾವನಾದರೂ	-9.59642
▁ನಂ	-9.59689
Hz	-9.59779
▁ಮಾಡಿದ್ದ	-9.59827
▁ಕಣ್ಣುಗಳ	-9.59842
▁ಶೈಲಿ	-9.5987
▁ಮುಟ್ಟ	-9.59871
▁ಇರಿಸ	-9.59887
▁ಜೆಟ್	-9.599
▁ಫ್ಯಾಕ್ಟರಿ	-9.5991
gu	-9.59945
ಚಿತ್ರ	-9.5999
▁ನಾಶಮಾಡ	-9.60011
▁ತಾನೇ	-9.60056
▁ವಾಕ್ಯವು	-9.60063
▁ಸರ್ವರ್	-9.60081
ans	-9.6018
ji	-9.60187
▁ಆಂಡ್ರಾಯ್ಡ್	-9.60196
▁ಲಭ್ಯವಿರುವ	-9.60196
▁ನಿರ್ಮಿಸ	-9.60274
▁ಮಾಧ್ಯಮ	-9.60431
▁ದಾರಿ	-9.60468
▁ಅಪಾಯ	-9.60479
▁ಸಂಪನ್ಮೂಲ	-9.60482
▁ಸಾಫ್ಟ್ವೇರ್	-9.60482
pi	-9.60522
▁ಹೊಂದಿವೆ	-9.60559
▁ತಿರುಗ	-9.60598
▁90	-9.60607
▁ನಿಜವಾದ	-9.60617
▁ಬಲವಾದ	-9.60639
▁ಕ್ರಿ	-9.60755
set	-9.6076
▁ಕೇಳುವ	-9.60767
ock	-9.60768
IS	-9.60857
▁ನದಿಯ	-9.60898
▁ಎತ್ತಿ	-9.60904
▁‘	-9.60909
ster	-9.60931
▁ಬಂಗಾರ	-9.61017
▁ಸೆರೆಮನೆ	-9.61058
▁ಮುಕ್ತ	-9.61178
ev	-9.61315
▁ಸಮೀಕ್ಷೆ	-9.61347
▁ಕೊಟ್ಟು	-9.61469
▁ಇಪ್ಪತ್ತು	-9.6149
my	-9.61496
ಯ್ಯ	-9.61536
▁ದುಷ್ಟ	-9.61545
cc	-9.61647
▁ಉಳಿಯ	-9.61663
▁ಒಬ್ಬನ	-9.61664
▁ಜೋ	-9.61712
ಫರ್	-9.61713
ಮೈ	-9.61724
ಪಟ್ಟಿ	-9.61736
▁ಶೋ	-9.61883
▁ಹೊಂದಿದ	-9.61952
ವರೆಲ್ಲರೂ	-9.6197
ಿಸಿದರು	-9.62
▁ಪಿಸಿ	-9.62053
Kannada	-9.62109
ಥೆ	-9.62147
ವಾಗಿವೆ	-9.62183
ಿದ್ದರಿಂದ	-9.62186
ಹೆ	-9.62213
ace	-9.62214
▁ಮಂಡಳಿ	-9.6222
▁IP	-9.6226
▁ಉತ್ತರಕೊಡು	-9.62313
▁ಫಾ	-9.62326
▁ಜೀವನದ	-9.62417
▁ನೋಡಿದ	-9.6249
▁ಆಶ್ಚರ್ಯ	-9.62511
▁ಸ್ಟೀಲ್	-9.62512
ak	-9.62516
▁ಲಿಂಕ್	-9.62518
▁ಅನುವಾದ	-9.62522
▁Home	-9.62555
ಯೋಗ	-9.62558
gi	-9.62593
son	-9.62628
ear	-9.62721
sa	-9.62758
▁ಕಲ್ಪನೆ	-9.62805
ುವುದರಿಂದ	-9.62805
▁ಗ್ರಾಮ	-9.6282
▁ಕಳುಹಿಸಿದ	-9.62855
▁ಬಾರ್	-9.62856
▁ಹಿಂ	-9.62912
▁ಸೈನ್ಯ	-9.62934
ಟೈ	-9.62973
▁ಪ್ರಾರಂಭ	-9.62975
ಂದರೆ	-9.62983
ಾಯಿತು	-9.63036
▁ಪ್ಲೇ	-9.63051
ಪುರ	-9.63077
▁ಎಂದೆಂದಿಗೂ	-9.63099
▁ಡಿಜಿಟಲ್	-9.63099
▁ಸೂಚಕ	-9.63099
▁ಫ್ಯಾಕ್ಸ್	-9.63116
▁ಯಾರಾದರೂ	-9.63125
ust	-9.6315
▁ಆನಂದ	-9.63189
ಲ್ಲೇ	-9.63191
IC	-9.63252
▁ನಿಮಿಷ	-9.63257
▁ಹೆಚ್ಚುವರಿ	-9.63362
ಮುಖ	-9.63411
▁ಬಾಗಲು	-9.63435
▁ಪೈ	-9.6345
tu	-9.63535
ಳಿಗೆ	-9.63587
ಗೋಸ್ಕರ	-9.63659
ಥ್	-9.63687
▁ತಾಣ	-9.63742
▁ಪಶ್ಚಿಮ	-9.63768
▁ಎರಡೂ	-9.63788
▁ವಿವರಿಸ	-9.63826
of	-9.63897
▁ಐಗುಪ್ತದ	-9.6391
▁ವಾರ್ಷಿಕ	-9.63987
▁ಪ್ರೀತಿಸ	-9.6404
▁ಬರಮಾಡ	-9.64064
ಸ್ಕರ	-9.64064
▁FS	-9.64083
▁ಬಿದ್ದು	-9.64165
▁ಕೂಡಿಸಿ	-9.64185
▁ಅಭಿ	-9.64217
▁ಸಹೋದರನ	-9.64217
▁ಸ್ಥಳಗಳಲ್ಲಿ	-9.64289
ಾಂತರ	-9.64344
▁se	-9.64351
▁ಉಂಟು	-9.64363
▁ಕೇಳಿದ	-9.64375
▁ಕೊಂದುಹಾಕ	-9.64425
▁ಯಜಮಾನನ	-9.6446
▁ನ್ಯಾಯಪ್ರಮಾಣ	-9.6451
▁ವಿಷಯಗಳನ್ನು	-9.64515
▁ಆಸಕ್ತಿ	-9.6458
▁ಗೋಡೆಯ	-9.64604
ಿರಲಿಲ್ಲ	-9.64621
▁ಆರಿಸಿ	-9.64664
ುವುದನ್ನು	-9.64822
▁ಬೋಧಿಸ	-9.64902
▁ಪಡೆಯಿರಿ	-9.65017
▁ಅರಸನಿಗೆ	-9.6505
▁ರಿವ್ಯೂ	-9.65182
▁ಸರಬರಾಜು	-9.65182
▁ಹೊಡೆದ	-9.65183
▁ದಾನ	-9.65299
▁ಸರಿಯಾಗಿ	-9.65306
▁ಹೊಂದುವ	-9.65308
int	-9.65372
▁ಇಬ್ಬರು	-9.65385
▁ಇರಬೇಕು	-9.65408
▁ಓದು	-9.65431
-2019	-9.65438
▁ಅಡಿ	-9.65461
▁1000	-9.65494
▁ಅರಸ	-9.65512
ಾತನು	-9.65521
ect	-9.65575
▁ಬಿಸಿ	-9.65623
▁ಇದ್ದನು	-9.65628
ಹೊಂದ	-9.65633
▁ಮುಂದ	-9.65645
ಹೋ	-9.65708
▁ಪಕ್ಷ	-9.65833
ದರಲ್ಲಿ	-9.65859
▁ಸಾರಿಗೆ	-9.65878
▁ಕಲೆ	-9.65941
▁ಸಕ್ರಿಯ	-9.65985
▁ಬದಲಾಯಿಸು	-9.65991
ಹಾರ	-9.66012
▁ಕುಮಾರ	-9.66054
▁ಕಡತದ	-9.66075
▁ಎದುರು	-9.66092
▁ಮ್ಯಾಕ್	-9.66142
▁ಅಂತರ	-9.66158
ಪಡಿಸಿದ	-9.66177
▁ಆಗಿರುವ	-9.66191
▁ಹಚ್ಚೆ	-9.66208
▁ಮಕ್ಕಳನ್ನು	-9.66212
▁ಅನ್ವಯಿಸ	-9.66245
▁ವ್ಯಾಪ್ತಿ	-9.66393
ುವಿರಿ	-9.66397
▁ಮಗ	-9.66461
▁ಬೆಂಕಿ	-9.66468
ಾಗಿದ್ದು	-9.66485
▁ನಿಲ್ಲಿಸ	-9.66523
▁ಐಗುಪ್ತ	-9.66527
▁ಅಧಿಕ	-9.66576
▁ಮದುವೆ	-9.66704
▁ನೋಡು	-9.66761
▁ವಿದ್ಯಾರ್ಥಿಗಳು	-9.668
▁ಧನ್ಯವಾದಗಳು	-9.66842
▁ನೀಲಿ	-9.66926
ಟ್ವೀಟ್	-9.67003
▁ಇದ್ದವು	-9.6701
▁ಯೆಹೂದ್ಯರ	-9.67018
▁ಮೆಚ್ಚಿನ	-9.6702
ಥಿ	-9.67094
▁ಪ್ರಯತ್ನ	-9.67158
▁La	-9.67161
▁ಬಾಕ್ಸ್	-9.67168
▁ಎತ್ತ	-9.67237
▁ಪರವಾನಗಿ	-9.6731
▁ವಾರ	-9.6733
▁ಹೃದಯದಲ್ಲಿ	-9.67352
▁ನೋ	-9.67402
ಬಂದ	-9.67411
ಪತಿ	-9.67559
▁ಪ್ರಾಣವನ್ನು	-9.67589
▁ದ್ರಾಕ್ಷೇ	-9.67619
▁ಗ್ರಾಹಕರಿಗೆ	-9.67626
▁ಮೇಘ	-9.67713
▁ಯೆರೂಸಲೇಮಿನಲ್ಲಿ	-9.67752
▁ಹೆಸರ	-9.67765
▁ಭಾರತದ	-9.6781
▁ಹೇಳುತ್ತೇನೆ	-9.67846
ಢ	-9.67917
ಗೊಳಿಸಲು	-9.68126
▁ಪಾರ್ಕ್	-9.68137
ನ್ನಾಗಲಿ	-9.68201
▁ಹೂವಿನ	-9.68256
▁ಲಕ್ಷ	-9.68262
▁ಕ್ಷೇತ್ರ	-9.6834
▁ನೇರವಾಗಿ	-9.68347
▁ವದು	-9.68375
▁ಫ್ಲ	-9.68376
▁ವೈಶಿಷ್ಟ್ಯ	-9.6841
▁ಶತ್ರುಗಳ	-9.68526
▁ಅವಳನ್ನು	-9.68529
ob	-9.68537
▁ಪವಿತ್ರ	-9.68545
▁title	-9.68546
▁ಫೇಸ್ಬುಕ್	-9.68548
▁ಚಕ್ರ	-9.6855
▁ಸಬ್ಬತ್	-9.68591
▁ಬದಲಾಯಿಸಲು	-9.68595
▁ಸೌ	-9.68619
su	-9.68668
▁ನಿವಾಸ	-9.68686
ಾಗಿದ್ದರು	-9.68704
▁ದಾಟಿ	-9.68894
har	-9.68984
▁ಹೊರಟ	-9.68985
▁ತಲುಪ	-9.69037
▁ರಾಮ	-9.69053
ರ್ಗ	-9.69077
▁Be	-9.6916
▁ನಿರೀಕ್ಷಿಸ	-9.6917
▁ಶಿಲೀಂಧ್ರ	-9.6917
▁ಈಗಾಗಲೇ	-9.69171
▁ಯೆಹೋ	-9.6918
▁ಸೊ	-9.692
▁ನೀತಿವಂತನ	-9.69231
▁ವಾಕ್ಯವನ್ನು	-9.69404
▁ಬೆಳ್ಳಿ	-9.69411
▁ಕೊಳ	-9.69439
▁ಬಳಕೆಯ	-9.69443
ist	-9.69466
ಾತ್ಮ	-9.6949
▁ಪಂಪ್	-9.69527
▁ಟ್ಯಾಗ್ಗಳು	-9.69539
▁ಸೇರಿದಂತೆ	-9.69542
ml	-9.69604
▁ಕಾಯ	-9.6961
act	-9.69759
ಡಿಸಿ	-9.69786
▁ಡೇಟಾ	-9.69796
▁ಸ್ಟಾರ್	-9.69835
▁ಯಾವುದ	-9.69992
▁ಒಪ್ಪ	-9.70007
▁ಸೇವೆಗಳು	-9.7005
▁ಬ್ಲ	-9.70052
ಕೊಂಡನು	-9.70053
▁ಝ	-9.70055
▁ಕಾಮೆಂಟ್	-9.70082
cn	-9.70113
▁ವಿಶ್ರಾಂತಿ	-9.70114
▁ಎರಡನೇ	-9.70144
ವರೆಲ್ಲರ	-9.70164
▁Li	-9.70174
▁ಬಹಳಷ್ಟು	-9.70177
▁ಕತ್ತೆ	-9.70185
300	-9.70319
app	-9.70336
▁ಗಾಯ	-9.70374
▁ಸಾಧಿಸ	-9.70421
▁ಇನ್ನೊಂದು	-9.7043
▁month	-9.70431
▁ನೀಡಲು	-9.70435
▁ಸ್ನೇಹಿತರ	-9.70451
ಿಯೋ	-9.70452
▁ನಿಜ	-9.70469
▁ವ್ಯಕ್ತಿಯ	-9.7047
end	-9.70524
ನೊಂದಿಗೆ	-9.70525
▁ಓಡಿ	-9.70557
ಜ್ಜ	-9.70593
▁ಹೆಸರಿನಲ್ಲಿ	-9.70608
ವನನ್ನು	-9.7065
▁ಮಾರ	-9.70664
ಎಚ್	-9.70708
▁ಹೊಡೆದು	-9.70749
▁ಫಲಕ	-9.70768
▁ಗೋಡೆ	-9.70794
▁ತಾವು	-9.70798
▁ಸೇವಕನ	-9.70888
ಬೂ	-9.70888
ಂತಿ	-9.70938
ies	-9.71012
sion	-9.71026
▁ಬಳಸುವ	-9.71034
▁ಎದುರಾಗಿ	-9.71114
▁ಸೈ	-9.71115
▁ಸಿಕ್ಕ	-9.71163
▁ಬೆಳಕಿನ	-9.71213
▁ಯುದ್ಧಮಾಡ	-9.7128
▁ಪ್ರಾಯ	-9.71358
▁ದೃಢ	-9.71376
▁ಶುಲ್ಕ	-9.71386
▁ಜನರೇಟರ್	-9.71386
ಿದ್ದರೂ	-9.71461
▁ಹುಡುಕುತ್ತಿರುವ	-9.71476
▁ತುಂಬಿ	-9.7157
ಹೋಗಿ	-9.71657
▁ಸ್ವಯಂಚಾಲಿತ	-9.71752
sc	-9.71849
▁ಪೂರೈಕೆದಾರರು	-9.71865
▁ಅನುಸರಿಸ	-9.71878
▁as	-9.71907
▁Comment	-9.71933
▁ಬೀ	-9.71934
▁ಏಕೆ	-9.71977
▁ಸಾಧ್ಯವಿಲ್ಲ	-9.72044
▁ಹೀಗ	-9.72084
ೇಶನ್	-9.721
ಬಂಧ	-9.72173
▁ರುವ	-9.72293
▁ಬೀಟಾ	-9.72368
▁We	-9.72372
▁that	-9.72373
▁ಉಳಿಸಿ	-9.72414
▁ಉರಿಯ	-9.7246
do	-9.72534
▁ಕ್ಲಾ	-9.72579
▁ಸಿದ್ಧಮಾಡ	-9.7258
ುತ್ತಿದ್ದಾರೆ	-9.72581
▁search	-9.72618
▁ದಂಡ	-9.72633
▁ದುಷ್ಟರ	-9.72691
▁300	-9.72728
▁ಸಂಭವಿಸ	-9.72743
▁ಬಳಸಿಕೊಂಡು	-9.72759
▁ಫೆ	-9.72823
▁ಯೇಸುವಿನ	-9.72832
▁ಹಿಂದೆಯೇ	-9.72898
ವಾಗುತ್ತದೆ	-9.72913
ಪಡುವ	-9.72937
-19	-9.7294
ಲೆಟ್	-9.72991
▁ಸ್ತೋತ್ರ	-9.72999
▁ಹಿಡಿಯ	-9.73064
▁ಸುಳ್ಳು	-9.73135
▁ಅವಧಿ	-9.73165
▁ಅಂಗಡಿ	-9.73236
▁ಕಣ್ಣು	-9.73248
▁ರಾಷ್ಟ್ರೀಯ	-9.73266
▁ಗ್ರೇ	-9.73269
▁ಕಡಿದು	-9.73326
▁ಮಾರ್ಗದರ್ಶನ	-9.73332
▁ರಾಜ್ಯದ	-9.7338
ಮಂ	-9.73391
▁33	-9.73417
▁ಆರಿಸ	-9.73459
▁Sa	-9.73464
▁100%	-9.73502
▁ತನಕ	-9.73522
ದಾನ	-9.73535
▁ಕೂದಲು	-9.73541
▁ಇಲ್ಲದ	-9.73624
▁Karnataka	-9.73651
▁ರಚಿಸಲಾದ	-9.73677
▁ಮುದ್ರಿಸಲು	-9.73728
ao	-9.73775
▁ಪೂ	-9.73823
ವರಲ್ಲಿ	-9.73857
▁ಚೆ	-9.73863
ಶು	-9.73918
ವಿರುವ	-9.74003
ಲ್ಪಟ್ಟಿತು	-9.74019
▁ago	-9.74028
▁ತಕ್ಕೊಳ್ಳ	-9.74028
▁Mar	-9.74051
;&	-9.74094
▁ವಾಸಿಸುವ	-9.74152
▁ತಪ್ಪ	-9.74254
▁Bonus	-9.74308
▁ಇಂಟರ್ನೆಟ್	-9.74311
▁ಹಸಿರು	-9.74312
▁ಬಯಸಿದರೆ	-9.74382
old	-9.7443
own	-9.74498
▁'%	-9.74551
▁ಎಣಿಸ	-9.74586
▁ಆರಂಭಿಸ	-9.7459
ct	-9.74621
▁ಇರುತ್ತದೆ	-9.74639
▁ಸೂಪರ್	-9.74655
▁ದಿನಗಳಲ್ಲಿ	-9.74661
▁ಸಮಾಜ	-9.74672
▁ತಿನ್ನುವ	-9.74709
▁ಒಳಗೊಂಡ	-9.7475
▁ಪ್ರಕಟ	-9.74808
▁ಪ್ಯಾಕ್	-9.74822
AP	-9.7486
▁ನೀತಿಯ	-9.74863
▁ma	-9.74886
▁ಮಾಂಸ	-9.74969
▁ಉಕ್ಕಿನ	-9.7497
▁ಚೀಲ	-9.74977
▁ಹೆಂಡತಿಯ	-9.74986
▁ಕರಕೊಂಡು	-9.74997
▁ಗ್ಯಾ	-9.75031
▁ನಿಯಮಿತ	-9.75035
gmail	-9.75074
ಗ್ರಾ	-9.75155
ಗ್ರಹ	-9.75185
2013	-9.75195
▁ಗೊ	-9.75252
▁ಪೂರೈಕೆ	-9.7534
▁ವರ್ಗಗಳು	-9.75342
▁ಪಟ್ಟಣಗಳ	-9.75368
▁ಸ್ಯಾ	-9.75507
▁ಟೇಬಲ್	-9.75636
ಲ್ಲೆಲ್ಲಾ	-9.75662
▁ಪ್ರತಿಕ್ರಿಯೆ	-9.75716
▁ವಿವರಗಳು	-9.75795
▁ತಂದೆಯು	-9.75799
▁ನೀರನ್ನು	-9.75809
▁ಬಳಸಬಹುದು	-9.75831
▁ಸರ್ವ	-9.75842
▁ಮನಸ್ಸ	-9.75849
▁ಕಣ್ಣುಗಳು	-9.75954
▁ಧರ್ಮ	-9.75972
▁con	-9.7601
▁ಬಂಗಾರದ	-9.76017
▁ಫಲಿತಾಂಶ	-9.76044
ble	-9.76118
▁ಯಜ್ಞವೇದಿಯ	-9.76121
▁your	-9.76129
▁ಉಳಿಸ	-9.76144
▁120	-9.76152
ವೆಲ್ಲಾ	-9.76199
▁OF	-9.76246
ತ್ತೇ	-9.76293
}	-9.76293
ನಿಗೂ	-9.76489
▁ಕೇಳಿದಾಗ	-9.76524
ny	-9.76524
RE	-9.76557
ಲ್ಪಡುತ್ತದೆ	-9.76568
▁ಪ್ರಯತ್ನಿಸ	-9.76579
▁Ad	-9.76586
▁ಗೇ	-9.76597
▁ತ್ವರಿತ	-9.76641
▁at	-9.76649
▁ಮಗು	-9.76657
air	-9.76675
ಯಾಗುವ	-9.76709
▁ಆಕಾರ	-9.7671
▁ಕತ್ತಿಯಿಂದ	-9.768
ನಿಮ್ಮ	-9.76814
▁ಹೋರಿ	-9.76849
kn	-9.76875
ದ್ದಾರೆ	-9.76897
ೆಂದೂ	-9.76915
▁ಅಳತೆ	-9.76954
▁ತಕ್ಕ	-9.76956
▁ಇಲಾಖೆ	-9.76979
▁ಟೀ	-9.76985
ರಣೆ	-9.76985
ಲ್ಲವೇ	-9.77008
▁ಎಣ್ಣೆ	-9.77029
▁ನುಡಿ	-9.77125
ನಿಕ್	-9.77167
▁ಹಾಡು	-9.7719
ಗಳೆಲ್ಲಾ	-9.7722
▁ಇಂದಿನ	-9.7724
ಝ	-9.77288
ಯುಕ್ತ	-9.77305
▁ಮಾಡುವುದು	-9.7731
▁ಆರ್ಕೈವ್ಸ್	-9.77318
kannada	-9.77323
▁ಯೋಗ್ಯ	-9.77327
▁ಯಜ್ಞ	-9.77343
ಬಿಡುವ	-9.7745
ಕೃತ	-9.77474
▁ವಾಸಿಸ	-9.77559
▁ಮೂವ	-9.77605
▁ಚಿಹ್ನೆ	-9.77658
ase	-9.7766
್ಯಾಂ	-9.77732
ight	-9.77764
du	-9.77791
▁ಕರ್ತ	-9.77839
log	-9.77857
▁ಅಬೀ	-9.77967
▁ಕಂಡುಕೊಂಡ	-9.77982
▁ಸ್ತಂಭ	-9.78
▁Vi	-9.78025
ake	-9.78047
ವರ್ತ	-9.78081
▁ಪ್ರತ್ಯೇಕ	-9.7814
▁ಅವಳಿಗೆ	-9.78159
▁ಅಂಗಳ	-9.78167
ಲೋಕ	-9.78267
ರಹಿತ	-9.7828
▁are	-9.78293
▁ಔಷಧ	-9.78307
▁ಕೆಡಿಇ	-9.78342
MS	-9.78436
▁ಇವುಗಳನ್ನು	-9.78436
▁ವಿರೋಧ	-9.78437
ಸೋ	-9.78442
ಹೊ	-9.78445
▁Dr	-9.78529
▁Ho	-9.78554
▁ಹರಡ	-9.78604
▁ಸ್ಟ್ರೀಮಿಂಗ್	-9.78686
▁ಹೊಂದಿರ	-9.78723
ರಿಸಿ	-9.78744
▁ಉಚಿತವಾಗಿ	-9.78772
ಟಿಕ್	-9.7878
▁ವಸ್ತುಗಳ	-9.78814
▁ಸರ್	-9.78835
ಲ್ಯಾಂಡ್	-9.78841
▁ದೇಹದ	-9.78845
ನಿಯಾ	-9.78977
GenericName	-9.79031
®	-9.79031
▁ಸಂದರ್ಶಕ	-9.79031
▁ಸಂಯುಕ್ತ	-9.79068
▁ಪಾತ್ರ	-9.79092
ವರೆಗೂ	-9.79108
▁36	-9.79122
▁ಸರಕು	-9.79212
ದ್ದೇ	-9.79222
▁XS	-9.79254
ವಾಗಿದ್ದ	-9.79304
▁ಲಭ್ಯವಿದೆ	-9.79377
ತೆಗೆ	-9.79383
▁ಕಾಲಾವಧಿ	-9.7939
▁ಮಾರ್ಗವನ್ನು	-9.79418
▁ಗರ್ಭ	-9.79459
▁ಉತ್ಪನ್ನಗಳ	-9.79482
▁ಟೋ	-9.79511
▁ಪ್ರಕಟಿಸ	-9.79522
▁ಸಹೋದರ	-9.79538
pm	-9.79546
ಯನಾದ	-9.796
್ಯಾಕ್	-9.79606
ನ್ನೆ	-9.79607
▁ಮೇಲಕ್ಕೆ	-9.79653
▁ಹಿಡಿದ	-9.79667
▁do	-9.7968
ಗೊಳಿಸು	-9.79728
▁ನೀತಿವಂತರ	-9.79742
-02-	-9.79857
▁ಆಲಯದ	-9.79861
ue	-9.79875
▁ಕತ್ತಿ	-9.7992
ವ್ಯಾ	-9.80052
▁ಅನ್ನುತ್ತಾನೆ	-9.80123
▁ಉದಯ	-9.80174
▁am	-9.8019
▁ಶಾಲೆ	-9.80241
1.0	-9.80362
▁ಪ್ರಧಾನರ	-9.8038
▁ಆಧಾರ	-9.80411
▁ಸೋರಿಯಾಸಿಸ್	-9.80422
▁SKU	-9.80422
stitute	-9.80422
LE	-9.80464
▁ಚರ್ಮದ	-9.80481
ಯಿಲ್ಲದ	-9.80507
IT	-9.80654
▁05	-9.80663
▁ಕೋರ್ಸ್	-9.80663
▁ಹಾಗ	-9.8067
ea	-9.80684
▁ಮಾಡಿದರೆ	-9.80686
ಗರ್	-9.80738
ಲಾಗ್	-9.80763
▁ಭವಿಷ್ಯ	-9.80773
▁ಎಂಬುದು	-9.80776
▁ಕೋಟೆ	-9.80781
▁ಅಲಂಕಾರಿಕ	-9.8079
▁ದಿವಸಗಳ	-9.80823
▁ಮೊದಲನೆಯ	-9.80838
▁ಪುಟಗಳು	-9.80839
▁ಸಂಸ್ಥೆಯ	-9.80855
ಕ್ಕಿ	-9.80889
▁ತೃಪ್ತಿ	-9.809
▁ಪೊ	-9.81009
▁ವಾಸವಾಗಿದ್ದ	-9.81031
ner	-9.81047
▁ಪ್ರಸಿದ್ಧ	-9.81125
▁ಆರ್ಥಿಕ	-9.81125
▁0086-	-9.81125
▁ಕಡತಕೋಶ	-9.81136
▁ನೆನಪಿ	-9.81137
▁ಸಮಾನ	-9.81146
▁150	-9.81158
▁ತಿಳಿದುಕೊಳ್ಳ	-9.8118
tt	-9.8123
▁ಪರಿಚಯ	-9.81268
▁37	-9.81297
ವಾಗಿದ್ದು	-9.8132
▁ವಾಸ್ತವ	-9.81326
▁ಥ	-9.81354
▁ಅಥವ	-9.81358
ಯಲ್ಲಿಯೂ	-9.81363
▁ಬೆಳಕ	-9.81445
▁ವ್ಯವಸ್ಥಾಪಕ	-9.81478
▁ಬೆಂಕಿಯಿಂದ	-9.81495
▁ಮೇರೆ	-9.8151
ಿಡ	-9.81634
con	-9.81672
▁ಮೇಲಿರುವ	-9.81719
▁ಉಪಯೋಗಿಸ	-9.81772
▁ಆಜ್ಞಾಪಿಸ	-9.81783
▁ಬಿತ್ತ	-9.81811
OS	-9.81814
▁ಶ್ರೇಷ್ಠ	-9.81833
೩	-9.81833
▁ಕಾರ್ಯಾಚರಣೆ	-9.81833
▁ಆರಾಧಿಸ	-9.81833
▁ಬಾಡಿಗೆ	-9.81835
ಬುಕ್	-9.81923
▁so	-9.82039
▁ಹೆದರ	-9.8205
ಲ್ಪಟ್ಟು	-9.82082
▁sa	-9.82144
▁ಟ್ಯಾಬ್ಲೆಟ್	-9.82189
▁ಪ್ರಶಸ್ತಿ	-9.82189
▁ಸೌಲಭ್ಯ	-9.82193
▁ಹೊಡೆಯ	-9.82193
ಲಾಗ	-9.82209
▁ದೇವಾಲಯ	-9.8221
ಡೊ	-9.82231
ಾಂಗ	-9.82268
CE	-9.82272
▁ಗೌರವ	-9.8231
▁ಗುರು	-9.82341
▁ದಾಸ	-9.82447
ಬ್ರ	-9.82448
ವೆಂಬ	-9.82485
▁ಹೃದಯದ	-9.82513
▁ಸೃಷ್ಟಿಸ	-9.8254
▁ಶ್ರೇಣಿ	-9.82546
▁ಎದುರಿಸ	-9.82548
▁ಎರಡನೆಯ	-9.82556
▁ಸ್ಥಳವನ್ನು	-9.82598
▁ಪ್ರಿ	-9.82607
▁ಚಿತ್ರಗಳನ್ನು	-9.8261
ುತ್ತಿರುವಾಗ	-9.82643
lan	-9.82655
▁ಚಲನಚಿತ್ರಗಳು	-9.82757
▁ನಿತ್ಯ	-9.82801
▁ಹೊಂದಿ	-9.82855
▁ದಿವಸಗಳಲ್ಲಿ	-9.82863
ಲಂ	-9.82869
▁ಇಂತಹ	-9.82869
dr	-9.82895
▁ಪಟ್ಟಣದಲ್ಲಿ	-9.82933
600	-9.82945
▁ಸಂತಾನ	-9.82948
▁ತೋರ	-9.82962
▁ನೂರು	-9.82969
▁ಯುರೋಪ್	-9.82981
ran	-9.83042
▁ಶಿಷ್ಯರ	-9.83055
▁or	-9.8309
▁ಪತ್ರಿಕೆ	-9.83107
ೊಳಗ	-9.83125
▁ಕರೆದ	-9.83132
▁ಕೊಂಡಿ	-9.83175
▁ಮನೆಯನ್ನು	-9.83188
▁ಪರಿಣಾಮಕಾರಿ	-9.83246
▁ನಿರ್ಧರಿಸ	-9.83264
▁ಬ್ಲಾಕ್	-9.83264
ort	-9.83286
fi	-9.8329
▁ಪದವಿ	-9.83397
▁ಸಂವಾದ	-9.83462
ೈನ್	-9.83515
ore	-9.83531
▁ಸೂರ್ಯನ	-9.83537
▁Su	-9.83566
▁ಕಣ	-9.83587
AL	-9.83605
▁ವೈದ್ಯಕೀಯ	-9.83625
▁ಧೂಪ	-9.83626
▁ಹೀಗೆಯೇ	-9.83657
▁ಸಂಪಾದಿಸ	-9.83717
ಸಮ	-9.83732
▁ಹಾಕು	-9.83736
▁ಪ್ರಕಾಶ	-9.8374
ೆಲ್ಲ	-9.83757
ಿಲ್ಲದೆ	-9.83809
rd	-9.83832
ion	-9.83832
▁ಕರೆದು	-9.83849
▁ತಿಂಗಳಿನ	-9.83851
▁ತಮ್ಮನ್ನು	-9.83851
ಿರಬೇಕು	-9.83925
oc	-9.83962
▁ಕಾರ್ಯನಿರ್ವಹಿಸ	-9.83987
▁ಹಾಸಿಗೆ	-9.8399
▁ತಂತಿ	-9.84056
2012	-9.84057
▁ನಡೆದು	-9.84075
▁ಊಟ	-9.84135
2014	-9.84163
ದಿರುವ	-9.84178
▁ನದಿ	-9.84181
ೋನ್	-9.84337
▁ಪಾಕವಿಧಾನ	-9.84351
▁ಜಾಗತಿಕ	-9.84351
▁ಸುನ್ನತಿ	-9.84352
▁start	-9.84359
ure	-9.84412
ಿಸಲಾಗಿದೆ	-9.84421
▁ಕಳುಹಿಸಿದನು	-9.8447
▁ತಿಳಿದು	-9.84497
ಧ್ಯ	-9.84505
ens	-9.84525
ನೀಯ	-9.84664
▁ಉಡುಪು	-9.84716
▁ಸಲಕರಣೆ	-9.84716
▁ಕಾಲೇಜು	-9.84716
▁ಸಂವಹನ	-9.84716
▁Video	-9.84717
anium	-9.84753
▁ಬೇಕಾದ	-9.84764
▁ಕೃಪೆಯ	-9.84775
▁ಕೂಗಿ	-9.84798
▁ರೆಕ್ಕೆ	-9.84847
▁ಹಾರ	-9.84877
ರ್ಪ	-9.8494
ಬೇಡಿ	-9.84987
▁ಮಾಡಿಕೊಂಡ	-9.8502
hen	-9.85032
ಹಿತ	-9.85068
▁ಆಶೀರ್ವಾದ	-9.85095
▁action	-9.85101
▁ಕೊರತೆ	-9.85102
▁Gu	-9.85106
-04	-9.85119
▁ಭೂಮಿ	-9.85162
als	-9.85178
▁ಸೇವಕನಾದ	-9.85178
ಸಾರ	-9.85211
▁Ra	-9.85274
lic	-9.85371
ಸೆಂ	-9.85379
▁ಮಿತಿ	-9.85386
▁ಗ್ರಹಿಸ	-9.85415
▁ಪ್ರಮಾಣದ	-9.85547
▁All	-9.85569
MA	-9.85612
▁Ar	-9.8562
ಡ್ಸ್	-9.85644
▁ಶಾಪ	-9.85666
▁ವಿರೋಧಿ	-9.85697
▁ತ್ತಾನೆ	-9.85721
ಶನ್	-9.85776
к	-9.85819
▁01	-9.85821
▁ದೂತರ	-9.85836
▁ಮೊದಲುಗೊಂಡು	-9.85848
ish	-9.85861
▁ಹಾಕಿದ	-9.85903
▁ರೈ	-9.85938
ಸೈ	-9.85955
▁2000	-9.85983
AS	-9.86018
ಮನು	-9.86052
▁ನೆಲದ	-9.86061
▁ಸ್ಪಷ್ಟ	-9.86084
▁ಸ್ನೇಹಿ	-9.86124
▁ಮಗನನ್ನು	-9.86151
▁ಅನುಭವಿಸ	-9.86168
▁ಬಣ್ಣಗಳು	-9.86168
▁ನವೀಕರಣ	-9.86189
▁ಖಾಲಿ	-9.86195
▁ಕುದುರೆ	-9.86197
▁ಪ್ರಮಾಣೀಕರಣ	-9.8622
ಕರ್ತನು	-9.86258
ance	-9.8628
▁ತಂದೆಗಳ	-9.86285
ಖಾ	-9.86327
ೀತ	-9.86358
▁ಆದಾಯ	-9.86484
TS	-9.86497
▁ಕೇಳಲು	-9.86514
ಂಟೆ	-9.86537
▁ಅನಾ	-9.8658
ವರಾದ	-9.86588
▁ಆಗಿತ್ತು	-9.86677
ara	-9.86695
▁ಯೆರೂಸಲೇಮಿಗೆ	-9.86716
fo	-9.86719
▁ವಿಮರ್ಶೆ	-9.86743
▁ಬೊ	-9.86745
ಕ್ಯಾ	-9.86778
▁ನಾಚಿಕೆ	-9.86837
ೆನೆಂದು	-9.86925
▁ವಿಶಿಷ್ಟ	-9.86934
▁ಎಂಜಿನ್	-9.86935
▁live	-9.86939
▁ಪ್ರಭು	-9.86941
೨	-9.86946
▁ಭಾಷಾ	-9.86967
▁ನಾಯಕ	-9.8701
▁ಊಟದ	-9.87024
▁ಯೋಸೇಫನ	-9.87079
ತನು	-9.8708
▁ಗಂಟೆ	-9.87082
ಕಾರ್ಯ	-9.87087
br	-9.871
ಮ್ಯಾ	-9.87141
▁ಬಿಡಿಸ	-9.87183
ಫೀ	-9.87211
▁ವ್ಯ	-9.87284
▁ಹಣವನ್ನು	-9.87305
▁Namibia	-9.87309
▁ಪ್ರಯತ್ನಿಸಿ	-9.87312
▁(12	-9.87386
▁ಭರವಸೆ	-9.87411
400	-9.87421
▁ಪುರುಷ	-9.87439
▁ಸೆರೆಯ	-9.87471
ಹೂ	-9.87471
▁ವಾಸ್ತವವಾಗಿ	-9.87472
ಾಧ	-9.87492
ನೆಂಬ	-9.87589
ಕ್ತಿ	-9.8759
che	-9.87597
ಯೇಲನ	-9.87609
2017	-9.87628
▁ಯೆರೂಸಲೇಮ	-9.8763
▁ಹಿಂದಕ್ಕೆ	-9.87689
▁ಸ್ವತಂತ್ರ	-9.8769
▁ಸಾಧ್ಯವಾಗಿಲ್ಲ	-9.87702
▁US	-9.87712
▁ಮಟ್ಟದ	-9.8778
▁ಗೋಸ್ಕರ	-9.87787
dy	-9.87804
▁ಗಾಳಿ	-9.87833
▁ಅಬ್ರಹಾಮನ	-9.87842
ರಷ್ಟು	-9.8788
▁ಜಲ	-9.87897
ಾರ್ಡ್	-9.87905
▁ಸಂಗ್ರಹಿಸ	-9.87941
ರಾಯ	-9.87975
800	-9.88036
ಜೀವ	-9.88057
▁ಅವಶ್ಯಕತೆ	-9.88063
▁ಕ್ಷಮಿಸ	-9.88065
▁ವದಕ್ಕೆ	-9.88076
ಾತ	-9.88116
▁ಕೆಟ್ಟತನ	-9.8813
ಪ್ತ	-9.88135
▁ಸಹಕಾರ	-9.88153
ರೂಪ	-9.88177
▁ಜೀ	-9.88239
▁ಸರ	-9.88266
ಬೇಕೆಂದ	-9.88323
-03-	-9.8838
▁ಎಲ್ಲರೂ	-9.88405
▁ಏಳ	-9.8842
▁TRANSLATORS	-9.88441
ಬಹುದಾಗಿದೆ	-9.88441
▁ಭಾವನೆ	-9.88445
▁ಕಡತಗಳನ್ನು	-9.8846
▁ಗಿಡ	-9.88476
SP	-9.88485
▁ಹಾನಿ	-9.88511
▁ಸಂದೇಶವನ್ನು	-9.88552
ft	-9.88553
ದಾಯ	-9.88581
ree	-9.88657
▁70	-9.88686
ನೋಡಿ	-9.88721
qu	-9.88737
wa	-9.88739
▁ಹತ್ತಿ	-9.88775
ಗೊ	-9.8879
▁ಅಪ್ಲೋಡ್	-9.88821
▁ಕೂಡಿಸ	-9.8884
▁ನಕಲಿ	-9.8886
▁ವಿಚಾರ	-9.88877
ವಿಲ್ಲದೆ	-9.88881
▁ಸೆರೆ	-9.88938
ಾನನ	-9.8899
hu	-9.8899
ಟ್ಟೆ	-9.88992
hy	-9.89097
▁ಬರಹ	-9.89171
les	-9.89179
▁ದ್ವೀಪ	-9.89203
▁ಮುದ್ರಣ	-9.89203
▁ಆಯಾಮ	-9.89207
▁ವೀಕ್ಷಿಸಿ	-9.8927
▁ಹೃದಯವನ್ನು	-9.89306
▁ಹೇಳಿದ್ದ	-9.89352
ಎಮ್	-9.8943
▁ಸಹಾಯಕ	-9.89442
ಪೇ	-9.89443
ಶೀಲ	-9.89454
ಕೊಂಡಿದ್ದ	-9.89465
▁ರಕ್ತವನ್ನು	-9.89493
atch	-9.89501
▁ಅಮೇರಿಕಾದ	-9.89501
▁ಕಸ್ಟಮ್	-9.89586
▁ಉಡುಗೆ	-9.89586
ನಮ್ಮ	-9.89607
▁ಕೊಳ್ಳುವ	-9.89624
▁ತೆಗೆದುಕೊಂಡ	-9.89666
▁ಸಾಧ್ಯವಾಗುತ್ತದೆ	-9.89682
▁po	-9.89773
▁ಹಾಳೆ	-9.8978
▁ರಸ	-9.89849
▁ಲೀ	-9.89882
೫	-9.8997
▁ನ್ಯಾಯತೀರಿಸ	-9.8997
view	-9.89971
▁ವಿಡಿಯೋ	-9.89971
▁ಕುರಿಮರಿ	-9.89973
▁ಸವಿಾಪ	-9.89994
▁dur	-9.9
-15	-9.90024
▁ಪಾರ್	-9.9007
▁ಸಂಘ	-9.90071
▁ಮಾಡಿದಾಗ	-9.90121
▁ಸೊಲೊಮೋನನ	-9.9014
yl	-9.90151
▁ಸಲಹೆಗಳು	-9.90199
▁2009	-9.90237
▁ವ್ಯಾಸ	-9.90275
▁ಸೇವೆಯನ್ನು	-9.90326
ಗ್ರಾಂ	-9.90332
▁ನಿದ್ರೆ	-9.90357
▁Con	-9.90391
▁34	-9.90398
▁ಬ್ಯಾಂಕ್	-9.9041
mail	-9.90618
ದೀ	-9.90661
▁English	-9.90714
▁ಇಂಥ	-9.90718
▁ನರ	-9.90718
ತಿನ	-9.90743
▁ನಿಲ್ದಾಣ	-9.90744
▁ಹೇಳುವದೇನಂದರೆ	-9.90744
▁ಓದಲು	-9.90764
▁ಹಾಳಾಗ	-9.90789
ಸಂಪುಟಗಳಲ್ಲಿ	-9.90808
ಪರ	-9.90867
▁ಕೇಳಿದನು	-9.90899
▁ಫ್ಯಾ	-9.90908
ವಾದದ್ದು	-9.90938
GB	-9.90955
ಲ್ಟ್	-9.91007
CA	-9.91022
ಗೇ	-9.91083
▁ಕೃಷಿ	-9.91133
▁ISO	-9.91136
▁·	-9.91188
ಗಿರುವ	-9.91189
▁App	-9.91224
▁42	-9.9123
▁ಚಲಿಸ	-9.91246
US	-9.91297
▁ದೃಶ್ಯ	-9.91335
▁ದೃಷ್ಟಿಯಲ್ಲಿ	-9.91369
▁48	-9.91408
▁ಫೈ	-9.91414
TC	-9.9143
ೆಂದರೆ	-9.91437
ಸೀ	-9.91448
▁ಕರುಣೆ	-9.91475
ook	-9.91487
▁ಕಾರ್ಯವನ್ನು	-9.91508
▁ತಿರು	-9.91514
▁ದೂತನು	-9.91522
▁Rikoooo	-9.91524
▁ಅಧ್ಯಾಯ	-9.91524
ಬೇಕಾಗುತ್ತದೆ	-9.91524
▁ಇಂಧನ	-9.91524
fa	-9.91548
▁ಪ್ರದೇಶದಲ್ಲಿ	-9.91561
▁ಅವುಗಳಲ್ಲಿ	-9.9158
▁ವಿವೇಕ	-9.91583
▁ನೂರ	-9.91598
lock	-9.91637
▁ಹಾರ್ಡ್	-9.91671
EL	-9.91723
ಪ್ರಾ	-9.91729
ok	-9.91765
▁ಕೊಳ್ಳೆ	-9.91827
ವೊ	-9.9188
▁ಹದಿ	-9.91903
೯	-9.91909
▁ನಿಯಂತ್ರಿಸ	-9.91916
▁Black	-9.91916
▁ಚಾಲಕ	-9.91917
▁ತಡೆಯ	-9.91917
▁ಲೇಸರ್	-9.9192
▁ತರುವ	-9.9192
▁ಸ್ವಸ್ಥ	-9.91961
▁ಎಮ್	-9.91972
▁ಗಣ	-9.92009
ET	-9.92041
▁ಕುಣಿ	-9.92096
▁ತನ	-9.92106
ಬಿಟ್ಟನು	-9.92216
▁ಮರೆಯ	-9.92224
▁ಯುರೋ	-9.92274
▁ಚೊಚ್ಚಲ	-9.9231
▁ಸುವಾರ್ತೆ	-9.9231
ಯಾಗಿರುವ	-9.92317
▁ಮುಂದೆಯೂ	-9.92358
▁ಮಾನ	-9.92451
▁ಮಾರ್ಗದಲ್ಲಿ	-9.92503
▁ಪ್ರತಿಯೊಬ್ಬ	-9.9253
OR	-9.92564
ಿಸಿಕೊಳ್ಳುವ	-9.92611
ಶೆ	-9.9268
▁ಕೈಗೆ	-9.92683
▁ಹೋಟೆಲ್	-9.92705
▁ಕಲಿಯ	-9.92725
▁ಮೋಶೆ	-9.92731
ಮೇಲ್	-9.92818
▁ಐವತ್ತು	-9.92873
▁ಜೀವಿ	-9.92937
▁ಟ್ಯಾ	-9.92942
ವೃ	-9.92994
ಂಧ	-9.93095
-05-	-9.93128
▁ಮೇಲ್ಮೈ	-9.93157
▁ಆರಂಭಿಕ	-9.93167
ವಾಗಲಿ	-9.93184
▁೨	-9.93298
▁ತುಂಡು	-9.93332
▁ಸಾಲು	-9.93356
▁ವೀಕ್ಷಣೆಗಳು	-9.93399
ಡ್ಡ	-9.93403
▁Un	-9.93423
▁ದರ್ಶನ	-9.93446
ವೆಂದರೆ	-9.93492
▁ಸಂಸ್ಕೃತಿ	-9.935
▁ರೂಲೆಟ್	-9.93521
ಿಟ್ಟು	-9.93584
▁Long	-9.93594
▁ಮುಖವನ್ನು	-9.9362
ಮಾಡು	-9.93642
0,000	-9.93656
▁ಬೇಕ	-9.93706
▁(7	-9.93723
▁su	-9.93731
ix	-9.93734
cy	-9.9378
▁ಮೃಗ	-9.93815
▁ಕಡ	-9.93889
▁ಒಣಗಿ	-9.93891
▁ತೀವ್ರ	-9.939
▁ಯೋವಾಬನ	-9.939
▁ಸಮರ್ಪಣೆ	-9.939
▁ಸಮಾರ್ಯ	-9.93902
▁2008	-9.93909
▁ಒಡಂಬಡಿಕೆಯ	-9.93915
▁ಸೂಕ್ತ	-9.93923
▁ರುಚಿ	-9.93937
▁Le	-9.93974
▁ಆಳಿದನು	-9.94009
▁By	-9.94158
▁ಪಾವತಿಸ	-9.94186
▁ನೋಡಿದಾಗ	-9.94211
▁ಇದ್ದರೆ	-9.94224
▁ವ್ಯಾ	-9.94228
▁ಸಾಧ್ಯವಾಗ	-9.94263
az	-9.94322
▁ಒಪ್ಪಂದ	-9.94325
▁ಹತ್ತ	-9.94343
▁ಕರುಣೆಯ	-9.94354
▁ಪ್ರಚಾರ	-9.94355
▁ಪಶು	-9.94356
▁ಮನಸ್ಸೆಯ	-9.94362
ೆರಡು	-9.94369
▁ಸೈನ್	-9.94373
able	-9.94404
▁ನಿವಾಸಿಗಳ	-9.94428
ವರೇ	-9.94474
▁ಮಾಡಲಾಗುತ್ತದೆ	-9.94495
▁ಆಮೇಲೆ	-9.94508
▁ತೋಳ	-9.94558
▁ಪ್ರವಾದಿಗಳ	-9.94597
▁Se	-9.94599
▁06	-9.94607
ವೆಲ್	-9.94624
ಪತ್ರ	-9.94626
▁ಅರಣ್ಯದಲ್ಲಿ	-9.94636
▁ಮಾನಸಿಕ	-9.94705
▁ಸಲುವಾಗಿ	-9.9471
word	-9.94712
ಲಾಗುವುದು	-9.94744
▁ಯುಎಸ್ಡಿ	-9.94759
▁ಗಮನಿಸಿ	-9.94827
▁ಕೀಲಿ	-9.94832
▁ಲೈ	-9.94842
▁ಆಕೆಯ	-9.94864
ರ್ಥ	-9.94868
ತ್ತಾ	-9.94934
▁ಚಿಕ್ಕದು	-9.94956
-2017	-9.94963
▁ಕಟ್ಟಳೆ	-9.94981
▁ಪಾಲಿ	-9.94996
▁17,	-9.95043
ina	-9.95107
LYP	-9.95111
ಂಡೆ	-9.95124
▁ಹಾದು	-9.95194
ಿದ್ದವು	-9.95213
ng	-9.95281
han	-9.95288
▁ರಾತ್ರಿಯಲ್ಲಿ	-9.95356
▁ಸಂಚಾರ	-9.95448
▁ಪಾಲ	-9.95463
ುವುದ	-9.95466
box	-9.95467
▁ನಾಮ	-9.95478
▁ಪರಿಚಾರಕ	-9.95516
ಾರ್ಥ	-9.95531
ರಿಂಗ್	-9.9554
▁ಸಾವಿರದ	-9.95631
New	-9.95643
▁ಅಂದ	-9.95689
ುವುದರ	-9.95727
▁ಮಿಲ್	-9.9588
▁ಸ್ಥಳದ	-9.95903
▁WEEK	-9.95925
▁Phone	-9.95925
▁ಎಲ್ಇಡಿ	-9.95925
▁ಪದ್ಧತಿ	-9.95925
ಾದ್ಯಂತ	-9.95944
ಗುಣ	-9.9596
ವಾಸಿ	-9.95963
ವರಿಗೂ	-9.95969
▁ನೆಲೆ	-9.96046
▁ಕೇಳು	-9.9613
▁ಆಟದ	-9.96185
ಗಡೆ	-9.9619
▁ಅಹೀ	-9.96305
▁ಧೈರ್ಯ	-9.96334
ಫೈ	-9.96335
▁ಶಿಶು	-9.96353
▁ಗಾಳಿಯ	-9.96393
▁State	-9.964
▁ಮೀಟರ್	-9.96409
iv	-9.96486
ರಾಜ	-9.96501
ko	-9.96567
▁ಜೂ	-9.96583
▁ಪ್ರಾಣವು	-9.96613
▁ನೊಂದಿಗೆ	-9.96638
hat	-9.9667
▁ಕಾಲ್ಬೆರಳ	-9.96746
▁ಪೆಟ್ಟಿಗೆ	-9.96746
▁ರೇಟಿಂಗ್	-9.96774
▁64	-9.9682
fish	-9.96838
▁ಪ್ರತ್ಯೇಕಿಸ	-9.96846
ron	-9.96872
▁ಕಾವ್ಯ	-9.96926
▁ಅನುಕೂಲ	-9.97011
EN	-9.97099
wo	-9.97149
▁ವಿಶ್ವಾಸಾರ್ಹ	-9.97159
▁ಗೌಪ್ಯತೆ	-9.97159
▁ಕ್ಯಾಮೆರಾ	-9.97159
▁ವಸತಿ	-9.9716
EDIA	-9.97163
ence	-9.9717
▁ಮನೆತನದವರ	-9.97208
▁ವರುಷದಲ್ಲಿ	-9.97224
್ಯನ	-9.97233
▁ನಾಟಕ	-9.97258
ಾಗಿರಬೇಕು	-9.97266
ಿಲ್ಲದ	-9.97309
ಬಹು	-9.97341
▁ಕೆಟ್ಟದ್ದನ್ನು	-9.97354
▁ಯಾವಾಗ	-9.97362
▁ಹುಟ್ಟ	-9.97389
220	-9.97399
▁ಕೊನೆ	-9.97416
▁ಭಾವಿಸ	-9.97526
ುವದಕ್ಕಿಂತ	-9.97541
▁{	-9.9755
▁ವಿಭಿನ್ನ	-9.97574
▁ವ್ಯತ್ಯಾಸ	-9.97574
▁ಸಂಕ್ಷಿಪ್ತ	-9.97574
▁ಉತ್ಪಾದಿಸ	-9.97574
▁გადმოწერა	-9.97574
ville	-9.97574
▁ಸಂಕಟ	-9.97575
▁ತಂತ್ರ	-9.97593
▁ಮಾರ್ಗದರ್ಶಿ	-9.97597
▁ಸ್ತ್ರೀ	-9.97614
▁ರಥ	-9.9766
ಸೊ	-9.97719
ದ್ದೆ	-9.97732
▁ಜನರೂ	-9.9775
▁ಲೈಟ್	-9.97809
ನ್ಯರ	-9.9781
▁(6	-9.97815
ಾಗುವದು	-9.97823
▁ನಾನ	-9.97845
ಮಾರ್	-9.97857
▁ಎತ್ತು	-9.97946
▁ಯುನೈಟೆಡ್	-9.97991
▁ವಾಣಿಜ್ಯ	-9.97991
▁ಸುಧಾರಣೆ	-9.97991
▁label	-9.97991
▁ಮೂರನೇ	-9.97991
▁ಬೆಳೆದ	-9.98007
900	-9.981
▁ದಾವೀದನಿಗೆ	-9.98159
ES	-9.98251
▁ಯೋಜನೆಯ	-9.98314
ಸೂಚಿ	-9.98334
▁ಶೋಧಿಸ	-9.98343
▁ಪ್ರಾರಂಭಿಸಿ	-9.9835
▁October	-9.98409
▁ಅಪೇಕ್ಷಿಸ	-9.98409
▁ವದಿಲ್ಲ	-9.98413
IL	-9.98418
▁ಮೂವತ್ತು	-9.98436
▁ಕಣ್ಣ	-9.98445
cre	-9.98567
▁ಕಾಂ	-9.98584
ಹೇ	-9.98733
▁ಮೆನು	-9.98758
▁ಯುಗ	-9.98761
▁ವೋಲ್ಟೇಜ್	-9.98829
▁ಫ್ರೀ	-9.98961
▁ಸಕ್ರಿಯಗೊಳಿಸ	-9.98974
▁ನಿಜವಾಗಿ	-9.98996
ರೊಂದಿಗೆ	-9.99001
▁ತಿಂಗಳುಗಳು	-9.99027
▁ಸುಡ	-9.99044
mon	-9.99146
pro	-9.99164
▁ಉತ್ಸಾಹ	-9.99251
▁OEM	-9.99251
▁ಕಾರ್ಖಾನೆ	-9.99251
▁csgo	-9.99252
ದರ್ಶಿ	-9.99331
ದ್ದೀರಿ	-9.99359
▁ಅಕ್ಷರ	-9.99375
▁ಅಂಗೀಕರಿಸ	-9.99379
▁ಆಣೆ	-9.99388
▁ಕಾಪಾಡ	-9.99551
use	-9.99566
▁ಪರ್	-9.99614
▁ಸುಳ್ಳ	-9.99667
▁ಶಿಫಾರಸು	-9.99675
▁ಪರಿವರ್ತಿಸ	-9.99681
▁ಯಾಕೋಬ	-9.99745
▁ಯಾಜಕನಾದ	-9.99755
▁this	-9.99761
▁ಕಾಣಿಸ	-9.99773
tra	-9.99851
▁ಆಲಯ	-9.99871
ೀಕೃತ	-9.99878
▁0.5	-9.99927
▁ಕೋರ	-9.9996
ವಳು	-9.99966
new	-9.99993
▁ಹಲಗೆ	-10.001
▁ರಚಿಸಲು	-10.0011
ಬೊ	-10.0012
▁sp	-10.0013
▁ನಾಣ್ಯ	-10.0013
▁Pa	-10.0016
ಅವರು	-10.0018
▁ಕಲಿಸ	-10.0019
ುತ್ತಿತ್ತು	-10.0019
-%	-10.002
▁ಬಹುಶಃ	-10.0023
TO	-10.0023
▁ಕಾಯಿ	-10.0024
▁ಟ್ರಿ	-10.0029
ED	-10.0042
001	-10.0045
▁ಆಸನ	-10.0052
▁ಪ್ರತ್ಯಕ್ಷ	-10.0053
▁ಸಮುದಾಯ	-10.0053
▁ಒಟ್ಟಾಗಿ	-10.0053
▁ಪರ್ಯಾಯ	-10.0053
ಂಗಿ	-10.0055
▁game	-10.0056
▁ದನ	-10.0057
▁ಇದಕ್ಕೆ	-10.0058
ಕೊಳ್ಳಬೇಕು	-10.0066
▁ಸೇವೆಯ	-10.007
▁ಸ್ತ್ರೀಯರ	-10.0072
▁Wi	-10.0087
л	-10.0096
▁ಆಣ್ವಿಕ	-10.0096
▁ಕಛೇರಿ	-10.0096
▁ಪ್ಯಾಕೇಜ್	-10.0096
▁ಫ್ರ	-10.0096
▁ತಮಗೆ	-10.0096
▁per	-10.01
9.00	-10.0101
fl	-10.0105
▁250	-10.0107
-9	-10.011
▁ಬದಿ	-10.011
▁ಕಾಡು	-10.0115
ಪೊ	-10.0116
ger	-10.012
▁ಹೆಸರಿನ	-10.0122
▁ಕುಳಿತು	-10.0123
▁«	-10.0125
ೊಂದಿಗ	-10.013
▁ನಡೆಯುವ	-10.0131
▁ಹಿಂತಿರುಗಿ	-10.0133
▁ಅಪವಿತ್ರ	-10.0139
▁ಕಸ್ಟಮೈಸ್	-10.0139
▁ಫ್ಯಾಬ್ರಿಕ್	-10.0139
▁ಶಾಶ್ವತ	-10.0139
▁ಸಿಬ್ಬಂದಿ	-10.0139
▁ಅರ್ಜಿ	-10.0139
▁ಬಂತು	-10.0139
▁ಪ್ರಕಾರವೇ	-10.014
{	-10.0141
-7	-10.0145
▁USD	-10.015
▁ದಯೆ	-10.0151
▁ಮೂಲೆ	-10.0152
▁ಹುಡುಗಿ	-10.0153
▁ಪರಿಣಾಮಗಳು	-10.0153
tri	-10.0154
ಲೋನ್	-10.0157
ಲ್ಡ್	-10.0165
ುದಿಲ್ಲ	-10.0168
▁ಬೆಳಕು	-10.0169
▁ರಾಷ್ಟ್ರ	-10.0179
▁***	-10.0181
▁ಸಿಸ್ಟಮ್	-10.0182
▁ಹೂಡಿಕೆ	-10.0182
▁ನೆಟ್ವರ್ಕ್	-10.0182
▁ಸಂಹರಿಸ	-10.0183
▁ಕೇಬಲ್	-10.0184
▁ಕೈಕೊಳ್ಳ	-10.0188
▁ಉಂಟುಮಾಡ	-10.0192
ank	-10.0193
▁ಮಂಜೂಷ	-10.0193
ನ್ನಾ	-10.0199
ಯಂತೆ	-10.0199
▁ಕುಕೀಗಳನ್ನು	-10.02
her	-10.0203
▁ಇರಲಿಲ್ಲ	-10.0216
▁ಯಾಕೋಬನು	-10.0218
▁ಆಡಲು	-10.0219
gen	-10.0223
▁Car	-10.0224
▁ಕ್ರಿಯೆಗಳ	-10.0224
▁ಚೌಕ	-10.0225
▁ಬೆಳವಣಿಗೆ	-10.0226
▁ರಫ್ತು	-10.0226
▁ಹಣ್ಣು	-10.0226
▁ವಾರ್	-10.0232
▁(2)	-10.0233
▁For	-10.0233
▁ನಂದರೆ	-10.024
▁ವೆಬ್ಸೈಟ್ನಲ್ಲಿ	-10.0247
▁ಮುರಿದು	-10.0251
oll	-10.0253
▁ಕೆಲಸವನ್ನು	-10.0264
▁ನಿರ್ವಹಿಸಲು	-10.0265
▁ಸೂಕ್ಷ್ಮ	-10.0269
▁ಬೆಳಿಗ್ಗೆ	-10.0269
▁ವ್ಯಭಿಚಾರ	-10.0269
▁ಇಕ್ಕಟ್ಟ	-10.027
▁ಗಂಡನ	-10.028
▁ತಿಳಿಸಿದ	-10.0281
av	-10.0281
iz	-10.0285
▁ಕೊನೆಯಲ್ಲಿ	-10.0289
▁ಅಳ	-10.0292
ext	-10.0292
▁Po	-10.0296
▁ಬೆಟ್ಟದ	-10.0297
▁ಹೊರಡ	-10.0297
▁ಅವುಗಳಿಗೆ	-10.0298
▁38	-10.0299
▁ತಕ್ಕೊಂಡ	-10.0299
ಬೈ	-10.0312
CO	-10.0312
▁ಏನಂದರೆ	-10.0314
▁ಉಪಯುಕ್ತ	-10.0316
9.99	-10.0327
▁ಸಂತೋಷಪಡ	-10.0332
px	-10.0332
▁ತಪ್ಪಿಸಿ	-10.0334
▁ನೀವೇ	-10.0337
▁ಅರಿಯ	-10.0347
▁ಶಾಂತಿ	-10.0349
png	-10.0351
▁ಮಾತನಾಡಿದ	-10.0351
▁ಸ್ಟ್ರೀಟ್	-10.0357
▁ಕಿವಿಗೊಡ	-10.0357
▁ಮುಂತಾದ	-10.0357
▁ಅಯ್ಯೋ	-10.0357
▁ಮರೆತು	-10.0357
▁ಔಷಧಿ	-10.0358
ja	-10.0359
▁ಪ್ರಬಲ	-10.036
▁ವಿಷ	-10.0364
▁ಹೆಣ	-10.0365
ಪೂರ್ವ	-10.0365
▁ಕೌ	-10.0365
ಬಿಟ್ಟು	-10.0368
ಗೊಳಿಸಲಾಗಿದೆ	-10.0369
▁ಹಾರ್	-10.037
▁ಬಲಿಪೀಠ	-10.0371
ಳಿಯ	-10.0371
▁3.0	-10.0375
ಮಾರ್ಗ	-10.0382
▁75	-10.0387
▁ಕೈಯನ್ನು	-10.0389
ks	-10.0392
ಕೊಂಡಿ	-10.0394
ದ್ದಾನೆ	-10.0395
ೊಡನೆ	-10.0402
▁ಇಡೀ	-10.0403
AC	-10.0409
▁28,	-10.0417
ಪಾದ	-10.0419
TE	-10.0426
▁ಹೋಮ್	-10.0427
ತ್ತೆ	-10.0427
▁ತಯಾರಕ	-10.0435
▁ಮನಸ್ಸು	-10.0435
line	-10.0438
site	-10.0439
get	-10.0439
ಾವಳಿ	-10.0439
▁ಪುಸ್ತಕದಲ್ಲಿ	-10.0444
à	-10.0446
▁ಉತ್ಪಾದನಾ	-10.0446
▁ಮಿಲಿಯನ್	-10.0446
▁ಪರಿಕರಗಳು	-10.0446
▁ಕೊಂದು	-10.0446
▁ವೈದ್ಯರ	-10.0447
ಕೃತಿ	-10.0448
▁ಸ್ತ್ರೀಯ	-10.045
▁02	-10.0453
▁ಫಾರ್ಮ್	-10.0454
ಏ	-10.0455
▁ಕಾಮೆಂಟ್ಗಳನ್ನು	-10.0456
▁ಹೋದರೆ	-10.0457
▁ಚಿನ್ನದ	-10.0458
▁ಅಲ್ಲದೆ	-10.0469
▁ಟೆಕ್	-10.047
▁ಸೊಲೊಮೋನನು	-10.0471
▁ಹಾಗಾದರೆ	-10.0473
▁ಪ್ರಾಣಿ	-10.0475
ಸ್ಥಾನ	-10.0477
▁ಕಾರ್ಯಗಳನ್ನು	-10.0478
▁ಆಯ್ಕೆಯನ್ನು	-10.0481
▁ಮಾಡದೆ	-10.0485
▁ಅಪ್ಡೇಟ್	-10.049
▁ದ್ವಾರ	-10.0491
▁ಹಲವು	-10.0491
ox	-10.0493
ari	-10.0494
▁ಎಂದೂ	-10.0496
ನೆಟ್	-10.0496
ಫೇ	-10.0497
▁ex	-10.0508
▁ಬಾಯಿಯ	-10.051
▁ಆಚರಿಸ	-10.0516
ಆಗ	-10.0522
\\\\	-10.0535
▁ಯಥಾರ್ಥ	-10.0535
▁ನಿಂಗ್ಬೋ	-10.0535
▁ಡೌನ್	-10.0535
▁ಪ್ರತಿಫಲ	-10.0535
ಷ್ಠ	-10.0537
▁ಕೇಡು	-10.0538
▁ಹಿರಿಯ	-10.0542
▁04:	-10.0547
ಗಿದ್ದ	-10.0548
ದ್ದೇವೆ	-10.0549
ಕುಲ	-10.055
▁ತುಟಿಗಳ	-10.0551
▁ಯುದ್ಧಕ್ಕೆ	-10.0552
ಜ್ಞಾನ	-10.0564
▁ಉಂಟಾದ	-10.0565
▁ಕ್ರೀಡೆ	-10.058
▁ಪ್ರಾಥಮಿಕ	-10.058
▁ನಾಲಿಗೆ	-10.0581
▁ಪ್ರವಾಸಿ	-10.0583
▁ನೋವು	-10.0587
▁ನೀನೇ	-10.059
▁ಗುಡ್ಡ	-10.059
▁ತಿಳಿಯುವ	-10.0597
▁Hu	-10.0597
ಹಾಕಿ	-10.0598
▁ಪಾಸ್	-10.06
▁ತೇ	-10.0604
▁ಬಳಕೆದಾರರು	-10.0604
ಹೋಗುವ	-10.0607
▁Lo	-10.0618
pp	-10.0622
▁ಸ್ಕ್ರೀನ್	-10.0626
▁ಒಮ್ಮೆ	-10.0626
▁ಹೊದಿಕೆ	-10.0627
ಕರ್ತನ	-10.0629
▁ಚೂ	-10.0632
ಣ್ಯ	-10.0634
▁ಕಂತು	-10.0639
ಿರಬಹುದು	-10.064
▁ರಕ್ಷಣೆಯ	-10.0651
ME	-10.0652
ress	-10.0655
▁ಕಂಪ	-10.0655
▁ಎಲ್ಲವನ್ನೂ	-10.066
MP	-10.0661
▁ಭದ್ರ	-10.0664
▁ಪಡೆಯುವ	-10.0666
▁ಬಿಗ್	-10.0668
▁ತಿರಸ್ಕರಿಸ	-10.0671
▁ಮೂರನೆಯ	-10.0671
▁ಅನುಸ್ಥಾಪಿಸ	-10.0671
▁ಮುದ್ರೆ	-10.0671
▁Photo	-10.0671
ಬಾರದ	-10.0672
▁ಸಮರ್ಪಿಸ	-10.0673
▁ಅಂದುಕೊಂಡ	-10.0675
▁ಸಂತತಿಯ	-10.0679
▁ಕೂತುಕೊಂಡ	-10.0685
▁ಚೇ	-10.0689
▁ಸೆಲ್	-10.069
▁ಅದರಿಂದ	-10.0691
ಪರಿ	-10.0692
ರಾನ್	-10.0693
key	-10.0695
▁ಯರ	-10.07
ಚೋ	-10.07
▁ಸೆಂ	-10.0702
ಕೊಂಡಿರುವ	-10.0703
ಿಸಲ್ಪಟ್ಟ	-10.0709
▁ಓಡ	-10.0711
▁Ha	-10.0714
▁ತುತೂರಿ	-10.0717
▁ತಿಳುಕೊಳ್ಳ	-10.0717
▁ಸುಟ್ಟು	-10.0726
2016	-10.074
ಿಸಬೇಕು	-10.0743
▁ವಾಗ	-10.0744
ls	-10.0744
▁can	-10.075
▁ಮಾಡಿರಿ	-10.0758
▁ಶೈಕ್ಷಣಿಕ	-10.0763
▁ಎಷ್ಟೋ	-10.0764
▁ಇದನ್ನೂ	-10.0765
▁KDE	-10.0767
▁ಪ್ರಾಂತ್ಯದ	-10.0767
▁ಮಾಡುವದಕ್ಕೆ	-10.0776
▁ಪ್ರವಾದಿಸ	-10.0777
▁ಲೇವಿಯ	-10.0791
▁400	-10.0794
▁ಏರ	-10.0794
▁ಸ್ತ್ರೀಯು	-10.0794
ಯಾನ್	-10.0797
▁ವರ್ಷಗಳು	-10.0798
▁ಸೇವಾ	-10.0799
▁ಕೃಪೆ	-10.0801
▁ಉಂಟಾಗ	-10.0802
ಂಟರ್	-10.0808
dia	-10.0809
▁ಚಿಕಾಗೊ	-10.0809
Query	-10.0809
▁ಏಷ್ಯಾ	-10.0809
ಜೀ	-10.0831
▁ಮಲಗ	-10.0832
▁ಬಿಡುವ	-10.0837
ವಾಗಿರುವದು	-10.0843
▁ಸಾಮರ್ಥ್ಯವನ್ನು	-10.0844
RP	-10.0846
ಾಯನ	-10.0848
for	-10.085
ಛ	-10.0853
▁ಮನು	-10.0853
▁ಕಂಡುಕೊಳ್ಳ	-10.0854
▁ಆಭರಣ	-10.0855
▁ವ್ಯಾಧಿ	-10.0857
▁ಇಸ್ರಾಯೇಲ	-10.0858
mg	-10.086
ound	-10.0862
ಿರುವಾಗ	-10.0863
▁ಮಾಡುತ್ತೇನೆ	-10.0864
ಹರ	-10.0869
▁Win	-10.0871
▁1.5	-10.0874
▁ಮುಖ್ಯವಾಗಿ	-10.0876
ven	-10.0877
▁ಕೋರ್	-10.0877
-22	-10.0884
▁ಜನರಲ್ಲಿ	-10.0885
▁ಪೋರ್ಟ್	-10.0886
▁ಸಮಾ	-10.0891
ಂದಿ	-10.0894
▁ಐಶ್ವರ್ಯ	-10.0895
▁ಬಾಗಿಲ	-10.0896
▁ಸಾಧ್ಯತೆ	-10.0898
ಿರುವುದು	-10.0901
▁[...]	-10.0902
▁ವಿಸ್ತರಣೆ	-10.0902
▁ತರಗತಿ	-10.0902
▁ಮಂದಿಯು	-10.0907
ಪಿಸಿ	-10.0907
▁ಅಲ್ಲಿಗೆ	-10.0914
ಯನೂ	-10.0914
▁ಇದ್ದಾನೆ	-10.0916
▁ಎಫ್ರಾಯಾಮ	-10.0923
ಆದರೆ	-10.0927
0.3	-10.093
ali	-10.0934
ಭಿ	-10.0936
ಚನ	-10.0937
▁55	-10.0937
time	-10.0944
▁ಪರಿಶೀಲಿಸಿ	-10.0944
▁ದೇಶವು	-10.0947
▁ಉಪಲಬ್ದವಿದೆ	-10.0948
▁ಇಸಾಕನ	-10.0948
NAME	-10.0948
▁Archives	-10.0949
▁ಮಧ್ಯಮ	-10.0954
▁ಗೋತ್ರದ	-10.0957
▁ಹೊತ್ತ	-10.0957
▁ಕಂಡುಹಿಡಿಯಲು	-10.0958
▁ಸಹೋದರನಾದ	-10.0963
▁ಸ್ಪೈ	-10.0965
▁ಯಾಜಕ	-10.0966
▁AC	-10.0967
▁ಹೊಂದಾಣಿಕೆ	-10.0972
ಜಕ	-10.0973
▁ಕಾಮ	-10.0977
▁ಕಳ್ಳ	-10.0986
ata	-10.0987
▁ನೆರೆಯವನ	-10.0995
▁ಬಟ್ಲರ್	-10.0995
▁ಆಫ್ರಿಕಾ	-10.0995
▁ವಿಸ್ತರಿಸ	-10.0995
▁ಜೇ	-10.0997
▁ಧೂಳ	-10.0997
▁ಹುಡುಕಾಟ	-10.0997
▁ನಮೂದಿಸಿ	-10.1001
▁ಹಗೆಮಾಡ	-10.1001
zhou	-10.1001
ದಿನ	-10.1004
▁ಪ್ರಕಟಣೆ	-10.1011
ID	-10.1015
top	-10.1017
low	-10.1019
▁ಇಲ್ಲಿದೆ	-10.1024
cu	-10.1028
the	-10.1031
▁ಡ್ರಾ	-10.1032
▁≤	-10.1042
▁ಸಂತತಿ	-10.1042
ಕೋಶ	-10.1042
▁ಸಾಂಪ್ರದಾಯಿಕ	-10.1042
▁ಹಣಕಾಸು	-10.1042
▁ಪರಿಸ್ಥಿತಿ	-10.1043
▁ಕೊಂಬೆ	-10.1044
▁ಕೌಶಲ್ಯ	-10.1045
MC	-10.1045
▁ಡಾಲರ್	-10.1046
▁ಪರಿಶೀಲಿಸ	-10.1046
▁ನಾನೂ	-10.1047
▁110	-10.1052
ize	-10.1058
▁ಜಯ	-10.1059
▁ಅಮೆರಿಕ	-10.106
ಾಗಿದ್ದೀ	-10.1061
ಲ್ಪಡಲಿ	-10.1064
▁ಇಟ್ಟು	-10.1065
▁ವಾಸಮಾಡ	-10.1065
▁ಉಂಟ	-10.1067
▁ಕೇಳಿರಿ	-10.1069
°	-10.1072
pcs	-10.1072
▁ಪ್ರತ್ಯುತ್ತರ	-10.1074
▁ವಿಷಯವನ್ನು	-10.1075
by	-10.1075
▁ಉಳಿಸು	-10.1077
ಗಳಿಗಿಂತ	-10.1079
▁ಮಹಿಮೆಯ	-10.1082
cha	-10.1086
у	-10.109
▁ಟ್ಯೂಬ್	-10.109
▁ನೇರಪ್ರಸಾರ	-10.109
▁Power	-10.109
▁ಚಾರ್ಟರ್	-10.109
▁ಚಾಲನೆ	-10.109
▁ಪಟ್ಟ	-10.109
▁News	-10.1092
▁ಆಯ್ಕೆಗಳನ್ನು	-10.1094
▁ಏನಾದರೂ	-10.1094
▁ಹೆಂಡತಿ	-10.1099
▁ಮಹಡಿ	-10.1101
5%	-10.1101
▁ಕಲ್ಪಿಸ	-10.1113
▁ಜಿಲ್ಲೆಯ	-10.1114
▁Air	-10.1119
`	-10.112
2015	-10.1123
pt	-10.1132
▁ದತ್ತ	-10.1133
ಕಾರ್	-10.1136
▁ಮಾಡುವಾಗ	-10.1137
▁ಹಳದಿ	-10.1137
▁ಧಾನ್ಯ	-10.1137
▁ಅಡವಿಯ	-10.1137
▁ಹಚ್ಚ	-10.1138
▁ಸೃಷ್ಟಿ	-10.1138
▁ಮುಯ್ಯಿ	-10.1138
▁ಹಲ್ಲು	-10.1139
▁ಮೂಲಭೂತ	-10.1139
tic	-10.1144
▁ವರ್	-10.1147
▁ರಾಣಿ	-10.115
▁ತುಳಿ	-10.1152
ಹೆಚ್	-10.1154
▁ಮಂದಿರ	-10.1155
▁ಕೂಡಲೆ	-10.1155
res	-10.1159
0.0	-10.1165
▁ಹಾಟ್	-10.1169
▁ಹುಡುಕುವ	-10.117
▁ಕಡೆಯಿಂದ	-10.1173
RA	-10.1182
ಚ್ಛ	-10.1182
▁ಪೂರ್ವನಿಯೋಜಿತ	-10.1185
▁ಹಡಗು	-10.1185
ಬಳ	-10.1185
▁ಪೇಪರ್	-10.1187
ಗೊಳಿಸಿದ	-10.119
ಸೆಲ್	-10.1194
▁ನನಗ	-10.1198
▁ಸಂಜೆ	-10.1207
ಮಿತ	-10.121
ುತ್ತಿದ್ದನು	-10.1211
▁ರೊಟ್ಟಿಯ	-10.1214
▁ಪೇತ್ರನು	-10.1215
▁CO	-10.1218
▁ಗಂ	-10.122
vo	-10.1227
▁ಅನುಭವವನ್ನು	-10.1232
೪	-10.1233
೮	-10.1233
▁ಪರಿಸರವಿನ್ಯಾಸ	-10.1234
-17	-10.124
▁ಪಾಯಿಂಟ್	-10.1256
way	-10.1256
▁ಕಂಪನಿಯ	-10.126
wi	-10.1267
▁ಮುಖದ	-10.1275
▁ನಿಮಗ	-10.1278
▁ನಿಯಂತ್ರಕ	-10.1282
▁ಭಾಗವಹಿಸ	-10.1282
▁ಪ್ರೋಗ್ರಾಂ	-10.1282
▁ಸಂಬಂಧಿತ	-10.1291
▁ಯುಪಿ	-10.1296
▁Al	-10.1305
ಪೀಠ	-10.1311
▁ಎದೆ	-10.1312
€	-10.1322
▁ಕ್ಷಣ	-10.1322
▁44	-10.1325
ams	-10.1329
▁ಕಂಪನಿಗಳು	-10.1329
▁Mobile	-10.133
▁ಪಕ್ಷಿಗಳ	-10.1331
rs	-10.1332
▁we	-10.1332
▁ಕಲ್ಲಿನ	-10.1337
▁ಸೀಮೆ	-10.1341
▁ಪಟ್ಟಣಕ್ಕೆ	-10.1341
▁ಸಂತ	-10.1342
▁ವಸ್ತ್ರಗಳನ್ನು	-10.1351
red	-10.1368
▁ಬಂದಿದೆ	-10.137
▁03	-10.1372
ern	-10.1372
▁ತಡೆ	-10.1377
▁me	-10.1378
▁ಬಾಧೆ	-10.1379
▁ಒಪ್ಪಿಸಿ	-10.1382
▁Ji	-10.1384
▁ಎಚ್ಚರ	-10.1391
ಂಜ್	-10.1397
▁ಇದರಲ್ಲಿ	-10.1399
▁India	-10.1401
ama	-10.1404
▁720	-10.1404
jo	-10.1412
▁ಆಟೋ	-10.1412
▁ಎರಡ	-10.1424
▁ಒದಗಿಸಲು	-10.1425
▁ಜಿಎಸ್ಟಿ	-10.1426
▁ಬಾಪ್ತಿಸ್ಮ	-10.1428
▁ವಿಕಿಪೀಡಿಯ	-10.1428
▁ಫ್ರೇಮ್	-10.1428
▁ಬನ್ನಿರಿ	-10.1428
▁ಡಿಸ್ಕ್	-10.1428
▁ಶೀಟ್	-10.1428
▁ನಿಮಿತ್ತವಾಗಿ	-10.143
▁ಆಚೆ	-10.1434
ುತ್ತಿಲ್ಲ	-10.1446
ಮತ್ತು	-10.1448
▁ಅತ್ತ	-10.1458
▁ಮನೆಯವರ	-10.1458
▁ರೀತಿ	-10.146
▁ಹೋಗುತ್ತದೆ	-10.1474
▁ಸಂಕೇತ	-10.1477
▁ಸುಗಂಧ	-10.1477
▁ಪ್ರಗತಿ	-10.1478
▁ಐಟಿ	-10.1479
▁ಮುಖಾಂತರ	-10.1479
▁ಆಧಾರಿತ	-10.1482
▁Do	-10.1483
▁22,	-10.1483
▁pcs	-10.1497
▁600	-10.1508
ಟಲ್	-10.1525
▁ಸ್ಮಾರ್ಟ್	-10.1526
▁ನಿರ್ವಾಹಕ	-10.1527
▁ಸೋಮವಾರ	-10.1527
▁ಅಕ್ಷರಶೈಲಿ	-10.1527
▁ಶೇಕಡ	-10.1528
-25	-10.1528
ವಾದವುಗಳ	-10.1532
ುದನ್ನು	-10.1535
▁ಶಕ್ತಗೊಳಿಸ	-10.154
▁ಅಧ	-10.1543
▁ಮೇರೆಯ	-10.1546
OD	-10.1551
▁ಇಪ್ಪತ್ತ	-10.1552
ಾಗಿರುವದು	-10.1555
▁ಕೊಂಡಾ	-10.1571
▁So	-10.1571
▁ಮೇಲ್ವಿಚಾರಣೆ	-10.1576
▁ಪರಾಕ್ರಮ	-10.1577
▁ದತ್ತಾಂಶ	-10.1577
mes	-10.1578
▁ಚೆಕ್	-10.1579
▁ವೆನು	-10.1579
▁ಯೆಹೋಶುವನು	-10.1579
▁ಸಾಗ	-10.1586
over	-10.1589
▁ಪ್ರತಿಯೊಬ್ಬನು	-10.1595
▁ಥೀಮ್	-10.1596
▁125	-10.1597
▁ಹಂಚಿಕೊಳ್ಳ	-10.1606
▁ನಾಶವಾಗ	-10.1607
▁ಪ್ರತಿಕ್ರಿಯೆಗಳು	-10.1616
▁ಮಾಡುತ್ತಾರೆ	-10.1618
▁ಒಡೆಯನ	-10.1621
▁ಉದ್ಯಾನ	-10.1626
▁ಯೋನಾತಾನನ	-10.1626
▁ರಹಸ್ಯ	-10.1626
▁ಏಕಾಂಗಿ	-10.1626
▁ಕೊಂಬು	-10.1627
work	-10.1629
▁ಭದ್ರತಾ	-10.1629
ಮಿಮೀ	-10.1631
ೌಂಡ್	-10.1633
▁ಮಂದೆ	-10.1657
▁ಗುಂಡಿ	-10.1659
▁You	-10.166
▁ತಯಾರ	-10.1661
▁ಸ್ವಾ	-10.1663
▁ಯೋಜನೆಗಳು	-10.1666
ಗೊಂಡಿದೆ	-10.1667
▁ಕೊಡುವೆನು	-10.167
▁94	-10.1672
PE	-10.1673
▁ಎದ್ದ	-10.1674
▁ಯಾವುದೆ	-10.1676
▁ದೈನಂದಿನ	-10.1677
▁ನಾಲ್ವತ್ತು	-10.1677
▁ಹಾಕುವ	-10.1677
▁ತುಂಬಿದ	-10.1678
▁ಸಮಗ್ರ	-10.168
▁ಪಡೆದುಕೊಳ್ಳ	-10.168
▁ಮಾಸ್ಟರ್	-10.1683
▁ಬದಲಾಯಿಸಲಾಗಿದೆ	-10.1685
▁ಹೂವು	-10.1685
▁ವಾರಗಳ	-10.1687
ING	-10.169
unit	-10.17
ಯೆಂದು	-10.1701
▁HP	-10.1707
ಾಂಕ	-10.171
ಕರಣ	-10.1715
lot	-10.1716
ುವುದಕ್ಕೆ	-10.1722
▁ಮಾತನಾಡುವ	-10.1722
ana	-10.1725
▁ಸದಸ್ಯರು	-10.1725
м	-10.1727
▁ಆಶ್ರಯ	-10.1727
▁ಮಾರ್ಕೆಟಿಂಗ್	-10.1727
▁ಅನನ್ಯ	-10.1727
▁ನಕ್ಷತ್ರ	-10.1727
▁ಬಾಗಲಿನ	-10.1728
▁ಸೀಮಿತ	-10.1729
▁ನಡುವಿನ	-10.1729
ker	-10.173
▁ಆಂತರಿಕ	-10.1731
▁Fi	-10.1731
▁ಸ್ತುತಿಸ	-10.1738
▁ಮಕ್ಕಳಲ್ಲಿ	-10.174
▁ಹಿಡು	-10.1742
▁Jo	-10.1743
ಿಸಬಹುದು	-10.1743
▁ಗರ್ವ	-10.1745
▁ಪ್ರತ್ಯೇಕವಾಗಿ	-10.1745
▁ಮಾಡಲಾದ	-10.1752
▁ಸಮ್ಮುಖದಲ್ಲಿ	-10.1757
ನಂತೆ	-10.177
▁ನಾಯಿ	-10.1771
▁ಶಿಷ್ಯರು	-10.1775
PM	-10.1775
ಂಡು	-10.1775
▁ಅಭಿಪ್ರಾಯ	-10.1778
▁AUD	-10.1778
▁ಪಶುಗಳ	-10.1779
ated	-10.178
ನಾಗಿದ್ದಾನೆ	-10.1781
▁Ex	-10.1784
PL	-10.1784
-30	-10.179
ಿರಲಿ	-10.1792
▁ಯಾಜಕನ	-10.1801
▁ಮಲಗಿ	-10.1802
ಬಲ	-10.1802
ಚೇ	-10.1813
▁ಮಾಡುತ್ತಾನೆ	-10.1818
ಪುತ್ರ	-10.1818
▁ಶಪಿಸ	-10.1818
The	-10.1822
▁ಖಂಡಿತವಾಗಿ	-10.1824
▁ಖಾತರಿ	-10.1829
▁ಯೂನಿವರ್ಸ್	-10.1829
▁ಯೇಲಿನ	-10.183
video	-10.183
wise	-10.1832
▁ಮಾರ್ಗವಾಗಿ	-10.184
▁ಬಾಗಿಲು	-10.1844
▁ಎಚ್ಡಿ	-10.1845
▁ಪಡೆದನು	-10.1847
ಕರ್ತನೇ	-10.1847
ಂಟಿ	-10.1852
▁ಮನುಷ್ಯನಿಗೆ	-10.1852
▁ತೀರ್ಪು	-10.1852
Re	-10.1864
▁ಸಿಹಿ	-10.1864
ಗಳಾಗಿವೆ	-10.1865
▁ಒದಗಿಸುವ	-10.1866
▁ಮೊದಲಿನ	-10.1869
▁ಕುಮಾರರೂ	-10.1875
▁ಒಡಂಬಡಿಕೆಯನ್ನು	-10.1876
▁ಅನಿಯಮಿತ	-10.188
▁ಐಒಎಸ್	-10.188
▁ಒಟ್ಟಿಗೆ	-10.188
▁URL	-10.188
▁ಏಸಾವನ	-10.1881
ದಾರರ	-10.1883
▁ಒಣ	-10.1885
ಲಾಗಲಿಲ್ಲ	-10.1886
▁ಹೊಂದಿಕೆ	-10.1889
▁ಎದೋಮ	-10.1889
▁Cha	-10.1889
▁ವಾಯು	-10.1894
ತ್ತೀ	-10.1901
▁ಹಂಚಿಕೊಳ್ಳಲು	-10.1902
gg	-10.1911
▁ಯೋಸೇಫನು	-10.1912
▁ಬಣ್ಣದ	-10.1916
SI	-10.1925
▁ಚಿತ್ತ	-10.1926
▁ವಿಫಲ	-10.1932
▁2005	-10.1932
▁Deposit	-10.1932
▁ಸೆಲ್ಯುಲೈಟ್	-10.1932
▁ಕರೆನ್ಸಿ	-10.1932
▁ಪ್ರಾರ್ಥಿಸ	-10.1933
▁ಕಾಣುವ	-10.1936
DE	-10.1937
▁ತಿರುಗಿಕೊಂಡು	-10.1941
ning	-10.1942
▁ಶಕ್ತ	-10.1942
▁ವೀಡಿಯೊಗಳು	-10.1946
▁ಆಮೆನ್	-10.1948
▁ಇಂಟರ್	-10.1948
▁ಸೇವಕನು	-10.1948
MO	-10.1952
▁ತಿಳಿಯಲು	-10.1961
ದಾರರು	-10.1962
▁pre	-10.1965
▁name	-10.1968
▁59	-10.1972
land	-10.1974
host	-10.1976
chi	-10.1977
▁ಶಕ್ತಿಯ	-10.1977
▁ಕ್ರಿಸ್ತನು	-10.198
▁ಹಿಮ	-10.1983
▁ಯೆರೆವಿಾಯನ	-10.1984
▁ವರ್ಡ್ಪ್ರೆಸ್	-10.1984
▁ದ್ರೋಹ	-10.1984
▁ಪ್ರತಿರೋಧ	-10.1984
▁ಪ್ರದರ್ಶಿಸ	-10.1984
▁ಆಯುಧ	-10.1984
▁Short	-10.1985
IA	-10.1985
▁ಪ್ಯಾಕಿಂಗ್	-10.1987
▁ಆಜ್ಞಾಪಿಸಿ	-10.1987
▁ಕತ್ತಲ	-10.1987
▁ಕೋಣೆ	-10.199
▁ತಗ್ಗ	-10.1991
▁ನಡ	-10.1994
▁ಬದಲಿಗೆ	-10.2
men	-10.2001
▁Di	-10.2006
▁ಅನುಸರಿಸಿ	-10.2008
ವನೇ	-10.201
▁ಮಹ	-10.2012
▁ಇರಬಹುದು	-10.2017
▁2.0	-10.2019
▁ಅಂತಹ	-10.202
▁39	-10.2022
▁ಪ್ರಮಾಣವನ್ನು	-10.2032
▁ಪುನಃ	-10.2036
▁ಫ್ಯಾಷನ್	-10.2037
▁ಸಹಾಯವಾಣಿ	-10.2038
ಾಗಿದ್ದರೂ	-10.2041
▁ಟ್ರಾ	-10.2041
▁ತಪ್ಪಿಸಿಕೊಂಡ	-10.2049
ಾನನು	-10.205
ವನ್ನೆಲ್ಲಾ	-10.2051
▁ಬಾಲ	-10.2054
▁ಇಸ್ರಾಯೇ	-10.2055
▁ಪ್ರವೇಶಿಸಿ	-10.2057
▁ನಿಮಿಷಗಳ	-10.206
ದಿರಲಿ	-10.2063
▁ಪಾಪಮಾಡ	-10.2067
ಲ್ಲೆ	-10.207
aw	-10.2078
.0%	-10.2081
ren	-10.2082
▁ಪಾಪದ	-10.2082
▁ಆಧುನಿಕ	-10.2088
▁ಪರಸ್ಪರ	-10.2088
▁ತೊಲಗ	-10.2089
▁ಒಂದಾಗಿದೆ	-10.2091
▁ಹೊರತುಪಡಿಸಿ	-10.2092
xi	-10.2092
ಇದು	-10.2095
▁ವಾಚ್	-10.2095
▁ಪಡಿಸ	-10.2097
ware	-10.2103
▁ಜೋಡಿ	-10.2104
▁ಹೊಂದಿದ್ದ	-10.2107
▁ಮೊತ್ತ	-10.2108
▁ಇರುವದಿಲ್ಲ	-10.2109
ಷ್ಟೇ	-10.2114
ame	-10.2124
ಿಸಿಕೊಂಡು	-10.2125
▁ಅಂತಿಮ	-10.2125
▁ಬದುಕುವ	-10.2126
700	-10.2136
ಾಬನ	-10.214
▁ಅಮೂಲ್ಯ	-10.2141
೬	-10.2141
▁ಅಧಿವೇಶನ	-10.2141
▁ಸಾಂಸ್ಥಿಕ	-10.2141
▁ಬೋಧನೆ	-10.2141
▁ನಮೂನೆ	-10.2141
▁ಪಿವಿಸಿ	-10.2141
▁ಒಂದೊಂದು	-10.2144
್ಲೈ	-10.2146
▁ಗಳಿಸಿ	-10.215
▁ಬೆನ್ಯಾವಿಾನನ	-10.215
▁ತಿಳಿಸಿ	-10.2155
▁ನಿರ್ದೇಶಕರ	-10.2157
ಂಡಾ	-10.2158
▁ಇದ್ದಾರೆ	-10.2162
▁ಶಿಕ್ಷಕರ	-10.2164
▁ಬೇತ್	-10.2167
▁ಖರೀದಿಸಿ	-10.2169
▁ಕಾರ್ಯಕ್ರಮಗಳು	-10.217
▁ಮಾಡುತ್ತೇವೆ	-10.2172
▁ಭೂಮಿಯಲ್ಲಿ	-10.2174
▁ನಮ್ಮೊಂದಿಗೆ	-10.2175
ರೇಟ್	-10.2182
2.1	-10.2184
iver	-10.2188
▁ಪ್ಲಾ	-10.2191
ವರ್ಡ್	-10.2193
▁ವಿಕ್ಷನರಿ	-10.2194
▁ಅಧ್ಯಕ್ಷ	-10.2194
ಏಪ್ರಿ	-10.2195
▁ವರ್ತನೆ	-10.2195
ಾದರೋ	-10.2196
▁ಹಿಂದಟ್ಟ	-10.2198
▁ಪ್ರತಿದಿನ	-10.22
▁ಒಯ್ಯ	-10.22
OP	-10.2203
ಧಾನ	-10.2211
ೆಲ್ಲವೂ	-10.2212
▁ವಸ್ತುಗಳನ್ನು	-10.2216
ವಾಗುವದು	-10.2227
▁ಪ್ರೀತಿಮಾಡ	-10.2234
▁ಕೋಶ	-10.2239
▁ಊದ	-10.2243
574	-10.2245
▁ಉಪಶೀರ್ಷಿಕೆ	-10.2247
▁Tewhan	-10.2247
▁ಪರಾಕ್ರಮಶಾಲಿ	-10.2247
▁ವಾಗ್ದಾನ	-10.2247
▁[1]	-10.2247
▁ಸಮರ್ಥ	-10.2249
▁Ge	-10.2254
heng	-10.2255
ಕ್ಷಣ	-10.2257
▁ಹೆಚ್ಚಳ	-10.2264
eg	-10.2274
ಬೇಕೆಂಬ	-10.2274
its	-10.2277
ಲೈನ್	-10.2281
▁ಕೆಲ	-10.2287
ರಾಜ್	-10.2287
▁ಅಳವಡಿಸ	-10.2298
▁ಇಲಿನಾಯ್ಸ್	-10.23
▁ಟೌನ್	-10.23
▁ಸೋಂಕು	-10.23
▁ಜಪಾನ್	-10.23
▁ಪ್ರಥಮ	-10.2301
▁ಸಂಪತ್ತ	-10.2301
▁ಇದಾದ	-10.2303
tv	-10.231
▁USP	-10.2311
ತೇ	-10.2311
▁ಬಾಧ್ಯ	-10.2314
ator	-10.2314
ಲಿಯಾ	-10.2315
ಲಿಲ್ಲವೋ	-10.2315
▁ಗೇಮ್	-10.2317
▁ನೀರ	-10.2318
ಗೊಳಿಸಿ	-10.2322
▁ಕೋಪವು	-10.2324
▁ಕೇಳಿದರು	-10.2328
tro	-10.2332
-16	-10.2333
PA	-10.2335
ಚ್ಚಿ	-10.234
▁43	-10.2342
▁ಕರಗಿ	-10.2343
▁ದಾಟ	-10.2346
▁ನಿಲ್ಲಿಸಿ	-10.235
▁ದೋಣಿ	-10.2354
▁item	-10.2356
▁ಡೇಟಿಂಗ್	-10.2356
▁ಅಭಿವೃದ್ಧಿಪಡಿಸ	-10.2359
▁ಮಾಡುವನು	-10.236
ಗತ	-10.2362
▁ವೇಗವಾಗಿ	-10.2363
ಪೀ	-10.2369
[	-10.2375
▁ಮಾತಾಡ	-10.2377
▁ಬೋರ್ಡ್	-10.2377
▁ವೀ	-10.2389
▁ಅಕ್ಕಿ	-10.239
ಬ್ಬಾ	-10.2392
▁all	-10.2397
ಿದವು	-10.2399
▁ನಿವಾರಣಾ	-10.2408
▁ಶಾಂಘೈ	-10.2408
▁ಫೈಬರ್	-10.2409
▁ನುಂಗಿ	-10.241
▁ಒಡಂಬಡಿಕೆ	-10.2411
▁ಕೊಲೆ	-10.2412
▁Full	-10.2412
▁ಎಕ್ಸ್ಎಲ್	-10.2413
▁ಸಮಾಧಾನದ	-10.2414
▁ವಿರುದ್ಧವಾಗಿ	-10.2416
ಶ್ಚ	-10.2419
▁ಕೊಡಬೇಕು	-10.242
rt	-10.2423
▁ಶ್ರ	-10.2423
▁ಯಂತ್ರಗಳು	-10.2425
ರಾಗಿದ್ದಾರೆ	-10.2426
▁ಬೇಬಿ	-10.2427
▁ಪಟ್ಟಣವನ್ನು	-10.243
▁ಭಕ್ತಿ	-10.243
▁ಭೂಮಿಯನ್ನು	-10.2431
ile	-10.2436
ಪ್ರತಿ	-10.2437
▁ಮಾತಿನ	-10.2439
▁ದಾಸಿಯ	-10.2441
▁Web	-10.2448
203	-10.245
9001	-10.2453
▁ಅಲಂಕಾರ	-10.246
▁ಮನುಷ್ಯನನ್ನು	-10.246
▁ವರ್ಗದಲ್ಲಿ	-10.246
▁Xhamster	-10.2462
▁ಅಬ್ಷಾಲೋಮನ	-10.2462
▁ಪೋರ್ನ್	-10.2463
ಭವ	-10.2466
▁ಕ್ರಿಸ್ತ	-10.2467
▁ಬಳಿಗೂ	-10.2472
que	-10.2474
▁ಸಂಶೋಧಕರು	-10.2474
▁ಶೆಕೆ	-10.2475
▁ಭೂಮಿಯು	-10.2476
▁Blockchain	-10.2477
ಗೈ	-10.2478
▁ರೋಷ	-10.248
form	-10.2481
▁800	-10.2485
ವರೆಲ್ಲರು	-10.2488
▁ಎಂಟು	-10.2494
▁ಉದಾಹರಣೆ	-10.2495
ಕಾಂ	-10.2496
ome	-10.2503
▁ಕೈಗಳನ್ನು	-10.2507
▁ಮರಣದ	-10.2509
▁ಬಗೆಯ	-10.2515
é	-10.2517
▁ಹೆಂಗಸ	-10.2517
▁ಮೆಟಲ್	-10.2521
▁ದಿನಕ್ಕೆ	-10.2521
ಅವನು	-10.2523
▁ಮಾಧ್ಯಮವನ್ನು	-10.2527
▁ಬರಮಾಡಿದ	-10.2528
ಮೇಲೆ	-10.2529
▁ಕೇಡನ್ನು	-10.2537
▁ಸೇವೆಗಳನ್ನು	-10.2537
▁ಗಡಿ	-10.2542
▁ಅನೇಕರು	-10.2546
book	-10.2552
ark	-10.2552
▁ಹೋಯಿತು	-10.2552
▁54	-10.2569
ე	-10.2572
▁ಆದ್ಯತೆ	-10.2573
▁ನಕಲು	-10.2573
Trans	-10.2574
▁mass	-10.2576
▁ಎಂಎಂ	-10.2584
TJ	-10.2586
▁ಇಷ್ಟಪಡ	-10.2586
▁ನೆಟ್	-10.259
ಗೊಳ್ಳುವ	-10.26
▁ಬಾಲ್	-10.2608
▁ಆಧಾರದ	-10.2616
▁ಕಾರಣದಿಂದ	-10.2619
▁ಬದಲಾಗ	-10.262
▁ಕಪ್ಪ	-10.2627
▁ವಿತರಣೆ	-10.2627
▁ಪ್ರಯಾಸ	-10.2627
▁ವಿಶಾಲ	-10.2629
▁ಸೇರಿದ	-10.2629
▁ಆಯಿತು	-10.2629
▁ಸೇವೆಮಾಡ	-10.263
▁ದೇಶಗಳಲ್ಲಿ	-10.2633
▁ಪ್ರವಾದಿಯಾದ	-10.264
▁ಸಮಸ್ಯೆಯನ್ನು	-10.2642
▁ಬೀರ	-10.265
▁ಜವಾಬ್ದಾರಿ	-10.2651
150	-10.2651
ೋನನು	-10.2651
▁ಪಾರ್ಶ್ವ	-10.2655
▁ಕತ್ತಲೆಯ	-10.2657
ತಾನ	-10.2665
▁ಹರಿ	-10.2666
ಬ್ರಾ	-10.2666
▁ಬೇಡಿಕೊಂಡ	-10.267
▁ಬುದ್ಧಿ	-10.2672
ವರ್ಕ್	-10.2672
▁ಲೋಕದ	-10.2672
▁ಪ್ರಾಂತ್ಯ	-10.2677
ಯುತ	-10.2678
▁ಕಡೆಯ	-10.2679
▁ಚೀಯೋ	-10.268
೭	-10.2683
▁ಟ್ಯಾಟೂ	-10.2683
▁ಹರ	-10.2683
ಭ್ರಮ	-10.2683
▁Ni	-10.2686
▁ತೋರಿಸಿ	-10.2694
tool	-10.2699
▁ಹಿಡಿ	-10.27
▁ಹಂಚ	-10.2701
CM	-10.2702
▁ಸೂರ್ಯ	-10.2703
▁ಮಾಡಿದ್ದಾನೆ	-10.2711
PS	-10.272
▁ಸಾಕು	-10.2721
ction	-10.273
д	-10.2739
▁{@}	-10.2739
▁ಕಾರ್ಪೊರೇಟ್	-10.2739
▁ಗಂಭೀರ	-10.2739
▁ಬ್ರ್ಯಾಂಡ್	-10.2739
▁ನಗದು	-10.2739
250	-10.2741
▁ಹೊರತಾಗಿ	-10.2741
▁ಕೊಟ್ಟರು	-10.2746
▁ಕಾಲ್	-10.2746
▁ಸಂದರ್ಭಗಳಲ್ಲಿ	-10.2748
ಮ್ಮಿ	-10.2749
▁ಹೆಚ್	-10.2755
are	-10.2761
▁ಬದಲಿ	-10.2775
▁ವ್ಯಾಪಕ	-10.278
▁ಕುಮಾರ್ತೆ	-10.2784
ುವದಕ್ಕ	-10.2784
▁41	-10.2788
▁ಕತ್ತಿಯ	-10.279
ა	-10.2795
TP	-10.2795
▁ದೆವ್ವ	-10.2795
▁ಫಿಲ್ಟರ್	-10.2795
SH	-10.2797
▁ಕಲಿಕೆ	-10.2798
▁ನೀವ	-10.2801
▁ಅಸ್ತಿತ್ವದಲ್ಲಿ	-10.2804
▁ಅಕ್ಷ	-10.2805
▁ಬಾಸ್	-10.2812
ಗಾದ	-10.2813
▁ಸೇವಕರು	-10.2814
▁ವಿಷಯಗಳು	-10.2814
▁ಕೆಟ್ಟದ್ದ	-10.2815
▁ರೊಟ್ಟಿಯನ್ನು	-10.2815
lin	-10.282
▁not	-10.282
▁ಕಾಣಬಹುದು	-10.282
mer	-10.2821
▁ಮೊದಲನೇ	-10.2832
▁ಹಳ್ಳಿ	-10.2838
▁ಕುರಿಗಳ	-10.2841
ics	-10.2842
shan	-10.2847
ಲಭ್ಯ	-10.2848
incarceration	-10.2851
▁ಅಂದಾಜು	-10.2851
▁ವಿದೇಶೀ	-10.2851
▁ಜೆರ್ಸಿ	-10.2852
▁ದೊರಕ	-10.2852
▁ರೀಡರ್	-10.2852
▁ಅನ್ಯಾಯ	-10.2855
ಲಾಗದ	-10.2855
▁03:	-10.2858
ಿರುವದನ್ನು	-10.2861
ದ್ದೂ	-10.2861
▁ಅಂಥ	-10.2864
▁ಇದ್ದು	-10.2868
▁ಅಮೇರಿಕಾ	-10.287
ton	-10.2871
▁ಕೈದು	-10.2872
ted	-10.2872
▁ಯೋಹಾನ	-10.2883
▁Fly	-10.2883
ೆಲ್ಲರು	-10.2884
SA	-10.2893
In	-10.2893
ಸ್ಟೆ	-10.2893
▁ಹೆಸರುಗಳು	-10.2894
▁ಹಾಗಾಗಿ	-10.2896
▁ಯಾಜಕರು	-10.2896
▁ವೈಟ್	-10.29
ಪಾಲ	-10.2903
▁ಸಂಚ	-10.2903
▁ಅವಶ್ಯ	-10.2908
▁status	-10.2908
▁ರಾಸಾಯನಿಕ	-10.2908
▁ಗಿಟಾರ್	-10.2908
▁ಪಿಎಚ್ಪಿ	-10.2908
▁ಸ್ವರೂಪ	-10.2911
▁ಕರ್	-10.2914
▁ದಹನ	-10.2914
ಾಡುವ	-10.2919
▁ಅವೆ	-10.2921
▁ವರುಷಗಳ	-10.2923
▁ನಿರ್ಣಯ	-10.2926
fu	-10.2929
▁ಐಡಿ	-10.293
▁ಗುಪ್ತಪದ	-10.2932
▁ಬಾಣ	-10.2934
▁ಮರೆಮಾಡ	-10.2936
ಕರವಾದ	-10.2938
▁ಮುಖ್ಯಸ್ಥ	-10.2939
▁ಬಿಗಿ	-10.2946
uck	-10.2946
▁ಧರಿಸಿ	-10.2948
▁ಗೊತ್ತಿಲ್ಲ	-10.2949
▁ಮಾಡುವವರ	-10.2952
▁ಕೂತು	-10.2954
▁ನಿಂದೆ	-10.2956
ಪಲ್	-10.2957
▁ಹಿತ್ತಾಳೆಯ	-10.2958
mar	-10.2959
let	-10.2961
ೇನಂದರೆ	-10.2962
▁ಯೆಹೋಶುವನ	-10.2962
▁Download	-10.2965
▁LEWISBURG	-10.2965
▁ಹವಾಮಾನ	-10.2965
▁inmate	-10.2965
travel	-10.2965
▁ಕುಸಿತ	-10.2965
▁ಪತ್ತೆಕಾರಕ	-10.2966
▁ಉಪವಾಸ	-10.2966
▁ಗ್ರಂಥಾಲಯ	-10.2966
▁ವೈಲ್ಡ್	-10.2967
▁ಹೊಟ್ಟೆ	-10.2968
▁ಕುಟುಂಬಗಳ	-10.2969
▁ಬಲಪಡಿಸ	-10.2971
▁ಸುರಿಸ	-10.2975
ಕಟ್ಟ	-10.2978
▁ಗ್ಯಾಂಗ್ಸ್ಟ	-10.298
▁Unlimited	-10.2982
▁ವಿಷಯಗಳ	-10.2983
▁ಅನುಕೂಲಕರ	-10.2986
ling	-10.299
ಜನ್	-10.299
▁ನಿರಂತರ	-10.2993
▁ಡೇರೆ	-10.2995
PC	-10.2998
▁ಹೆಸರಿ	-10.2999
▁ವಶ	-10.3003
ಲಾರದೆ	-10.3004
▁ಜನರೆಲ್ಲರ	-10.3005
▁ಮಹಿಳೆಯರು	-10.301
ಿರುತ್ತವೆ	-10.3013
ಂದಿನಿಂದ	-10.3017
101	-10.302
▁ಸ್ಲಾಟ್	-10.3021
aucus	-10.3023
▁Congressional	-10.3023
▁ಕುಂದುಕೊರತೆ	-10.3023
▁ಚಾವಣಿ	-10.3023
▁ಯಾಂತ್ರಿಕ	-10.3023
▁ಅರಾಮ್ಯರ	-10.3023
▁ಎಸ್ಎಂಯು	-10.3023
▁ಉಲ್ಲಾಸ	-10.3023
▁ಶಿಕ್ಷೆ	-10.3024
▁ಡಬಲ್	-10.3027
ಮಿಕ್	-10.3029
sta	-10.3033
▁ಜ್ಞಾನವನ್ನು	-10.3038
▁ಬೇಡಿಕೊಳ್ಳ	-10.304
▁ಕುಡಿದ	-10.3043
▁ಎಲ್ಲರ	-10.3046
▁ಕೆಡಿಸ	-10.3051
▁ಜೋಡಿಸ	-10.3051
▁ವಾಲ್	-10.3054
▁ಕರೆಯಲ್ಪಟ್ಟ	-10.3058
▁Bit	-10.306
ಮಾಡಿಕೊಂಡ	-10.3061
▁ಮಾಡಬಾರದು	-10.3062
▁ಮನಸ್ಸಿನ	-10.3063
MI	-10.3067
tech	-10.3071
ೋನಿನ	-10.3072
und	-10.3073
▁ಮಾಡಲಿ	-10.3077
▁BLOODS	-10.3081
▁Politics	-10.3081
▁ಬಲಾತ್ಕಾರ	-10.3081
▁ವ್ಯಾಯಾಮ	-10.3081
▁ಲುಕಪ್	-10.3081
▁ವರ್ಗಾಯಿಸ	-10.3082
▁ಬೆಳೆಸ	-10.3082
▁ಸಾಧನೆ	-10.3083
▁ಪ್ರವಾಹ	-10.3084
▁Playing	-10.3087
▁ಪ್ಲಗ್	-10.3088
▁ಕುಡಿಯುವ	-10.3093
era	-10.3097
▁ನ್ಯಾಯಪ್ರಮಾಣದ	-10.3101
▁ಹೊಂದಿರುತ್ತದೆ	-10.3101
▁ತಿಳಿಯದ	-10.3108
▁ಟ್ರೇ	-10.3108
ಶ್ರಮ	-10.3116
▁ಕ್ಷೇತ್ರದಲ್ಲಿ	-10.3119
▁ತ್ತೇನೆ	-10.3122
▁ನವೀಕರಿಸಿದ	-10.3123
▁ನಮಗ	-10.3126
NE	-10.3128
▁ಸಿಕ್ಕಿ	-10.313
ದೇವರು	-10.3131
▁ದಾವೀ	-10.3136
ы	-10.3139
▁ಒಟ್ಟಾರೆ	-10.3139
▁ಸಂಯೋಜಿಸ	-10.3139
▁ಬೆಳಗಾವಿ	-10.3139
▁Again	-10.3139
▁ಮುಗಿದ	-10.314
▁ಕಳವಳ	-10.3141
▁ಬಲಗೈ	-10.3142
▁ದೀನ	-10.3142
▁ಗದರಿಸ	-10.3143
ಂಚ್	-10.3143
▁ಲಂಬ	-10.3149
ಶೀ	-10.315
fer	-10.3156
0.1	-10.3156
press	-10.3158
▁ಸಿಂಹಾಸನದ	-10.3158
▁ಪಾಲಿಸಿ	-10.3162
▁ವೃತ್ತ	-10.3164
cM	-10.3166
CT	-10.3167
SE	-10.3172
▁Pre	-10.3175
▁ಕಡತವನ್ನು	-10.3177
-24	-10.3185
▁ಬಳ	-10.3191
▁ಇರಿಸಿ	-10.3196
▁Th	-10.3197
▁ಬ್ರೌಸರ್	-10.3197
▁ಹೊಣೆಗಾರಿಕೆ	-10.3197
▁ನೇಮಕ	-10.3197
▁ಅಧೀನ	-10.3197
▁ಬುದ್ಧಿಹೀನ	-10.3198
▁ಸಾಗರ	-10.3199
▁ಐಗುಪ್ತ್ಯರ	-10.32
▁ಕೋನ	-10.32
▁Watch	-10.3203
ಿಸುವುದು	-10.3211
lU	-10.3212
ತಕ್ಕದ್ದು	-10.3213
▁Last	-10.3213
ೇಲನ	-10.3219
▁Get	-10.3222
▁ಬಂಡೆಯ	-10.3227
▁ಗುಂಪ	-10.3229
▁ಸಮುವೇಲನು	-10.3231
▁ಸ್ಕ್ರ	-10.3231
▁ಗೋತ್ರಗಳ	-10.3231
AM	-10.3241
▁ಶಾಲೆಯ	-10.3241
▁ಆಜ್ಞೆಗಳನ್ನು	-10.3242
▁ನಡುಗ	-10.3242
▁51	-10.3243
▁ನಾವ	-10.3244
other	-10.3245
▁ಎಣ್ಣೆಯ	-10.3247
ಬೇಕೆ	-10.3248
ಸಾಮಾನ್ಯ	-10.3254
▁ಹುಡುಗ	-10.3254
▁University	-10.3256
▁ಜೈವಿಕ	-10.3256
▁Cheat	-10.3256
▁ಹಿಂದಿರುಗ	-10.3256
▁ಸೈತಾನನ	-10.3256
▁ಲಾಗಿನ್	-10.3258
▁ಪೂರ್ವದ	-10.3259
rial	-10.326
▁ಸ್ಥಾಪಿತವಾದ	-10.326
▁ಹರಿಯುವ	-10.326
UN	-10.3263
CI	-10.3269
▁War	-10.3272
▁ನಾಶನ	-10.3274
▁ವೇಗದ	-10.3278
ale	-10.3283
rad	-10.3292
lf	-10.3297
▁ತೋರಿಸುತ್ತದೆ	-10.3298
web	-10.33
ಿಗಿಂತಲೂ	-10.3302
-14	-10.3303
ಪಿಂಗ್	-10.3311
ೋಪ	-10.3313
▁ಬೆವಿಕಂ	-10.3315
▁ಸಮಿತಿ	-10.3316
▁ಗುಪ್ತ	-10.3317
▁ಡ್ರೈವ್	-10.3317
SM	-10.3318
▁ಕರೆಯಲಾಗುತ್ತದೆ	-10.3321
ಬಾರದೆಂದು	-10.3322
▁ಹತ	-10.3325
▁ಇವೇ	-10.3329
▁ಒತ್ತಿ	-10.3329
ಬಿಡು	-10.333
▁ನಿರಂತರವಾಗಿ	-10.3346
▁ಕಣ್ಣುಗಳನ್ನು	-10.3372
▁ಕಂಬ	-10.3374
▁ಅಂತರ್ಜಾಲ	-10.3375
▁ಕಚ್ಚಾ	-10.3375
▁ಪಿಇಟಿ	-10.3375
▁ಕ್ಯಾಲೆಂಡರ್	-10.3377
▁ಫಲವನ್ನು	-10.3377
▁ದೂ	-10.338
▁ಬರೆಯಲ್ಪಟ್ಟ	-10.3383
▁ಆಜ್ಞೆಯ	-10.3386
ದರ್ಜೆ	-10.3387
bar	-10.3388
ney	-10.3389
▁ವಾರದ	-10.339
car	-10.339
▁ಕುಕೀಸ್	-10.3395
▁ಸಮಸ್ಯೆಗಳನ್ನು	-10.3397
▁ರೂಪದಲ್ಲಿ	-10.3413
BC	-10.3419
▁pa	-10.3419
▁ಒತ್ತ	-10.3419
▁ಸತ್ತನು	-10.3421
ಾಗಿದ್ದಾರೆ	-10.3424
ave	-10.3425
▁ಕೋಲು	-10.3426
▁ಓದುವ	-10.3427
▁2007	-10.3429
▁2006	-10.343
▁ಶೀಘ್ರ	-10.3435
▁ಯಾರೊಬ್ಬಾಮನ	-10.3435
▁ಆಂಟೆನಾ	-10.3435
▁ತಾಮ್ರ	-10.3435
▁ಇವರೇ	-10.3436
▁ಜಿಎಸ್ಟಿಆರ್	-10.3436
▁ಲಕ್ಷಣ	-10.3448
▁ಅಂತಿಮವಾಗಿ	-10.3452
▁ಎಳೆ	-10.3453
▁ಅಂಶಗಳನ್ನು	-10.3457
▁ಬಡವರ	-10.3461
160	-10.3466
ಿಗೋಸ್ಕರವೂ	-10.3471
pg	-10.3474
▁ಪಟ್ಟಣಗಳಲ್ಲಿ	-10.3478
▁ನಯವಾದ	-10.3485
RI	-10.3486
▁ಉತ್ಪನ್ನಗಳನ್ನು	-10.3494
ಕನ್ನಡ	-10.3495
▁ದಾಸನ	-10.3495
▁November	-10.3495
▁ಅಸ್ತಿವಾರ	-10.3495
▁ಝೆಜಿಯಾಂಗ್	-10.3495
▁ನಾಗರಿಕ	-10.3495
▁ರಿಯಾಯಿತಿ	-10.3495
▁ಜಿಪಿಎಸ್	-10.3495
▁ಆವರಿಸುತ್ತದೆ	-10.3495
▁ವಿದೇಶಿ	-10.3495
▁ವೈರ್	-10.3496
▁ಕಂಡುಬರ	-10.3497
▁ಅವಮಾನ	-10.3502
▁ದೇವರಾಗಿರುವ	-10.3504
▁ಪಟ್ಟಿಯನ್ನು	-10.3504
▁CD	-10.352
▁ಕಟ್ಟಿಸಿ	-10.3522
ಸ್ಟೋ	-10.3523
ye	-10.3523
ಹತ್ತನೆಯ	-10.3524
att	-10.3525
▁ಉತ್ಪನ್ನದ	-10.3533
▁ತೆಗೆದುಕೊಳ್ಳುವ	-10.3548
ಪೂರ್ಣ	-10.3551
▁ಎಲ್ಲವೂ	-10.3553
love	-10.3554
▁ಅಭ್ಯಾಸ	-10.3555
▁ಕಿರೀಟ	-10.3555
▁ಕೆಲವೊಮ್ಮೆ	-10.3555
▁ಮೂರ್ಖ	-10.3556
▁ವಿಮೋಚಿಸ	-10.3556
▁ಸ್ಟೇಟ್ಸ್	-10.3556
▁ರಾಜಕೀಯ	-10.3556
▁ಸ್ಥಾಪನೆ	-10.3556
ನಗು	-10.3556
▁ಬೇಡಿಕೆ	-10.3557
▁ಮುಖ್ಯಸ್ಥರ	-10.356
▁ಶಾಖ	-10.3569
▁ಮಹತ್ವ	-10.357
▁ಪೂರೈಸ	-10.3572
▁ಹೊದಿಸ	-10.3574
▁ಬಟನ್	-10.3575
LC	-10.3577
▁Man	-10.358
▁ಗುಂಡಿಯನ್ನು	-10.3581
▁2.5	-10.3583
▁ರಾತ್ರಿಯ	-10.3584
▁ಬಳಿಯಿಂದ	-10.3584
▁ಸ್ವಾಧೀನ	-10.359
ುತ್ತಿವೆ	-10.359
▁ನೇಮಿಸಿದ	-10.3592
ನಾಮ	-10.3597
ಯಾಯಿತು	-10.3598
ory	-10.3601
▁ಪುಟ್ಟ	-10.3606
▁ನೀಡಿದ	-10.3606
ನೆಂದೂ	-10.3608
▁ಸಂಪುಟ	-10.361
▁ನೆಟ್ಟ	-10.361
▁ಅಂಟಿ	-10.3611
▁ದ್ದಾನೆ	-10.3613
▁ಲಕ್ಷಣಗಳು	-10.3616
▁ಡೀಫಾಲ್ಟ್	-10.3616
▁Flv	-10.3617
▁ಮೃದು	-10.3617
▁ಭಯಂಕರ	-10.3617
▁ಸ್ಟಾಕ್	-10.3617
▁ಜೀವನದಲ್ಲಿ	-10.3621
▁ದೂತನ	-10.3622
▁ಮಿಶ್ರಣ	-10.3625
ಲಿಂಗ	-10.3628
▁ಪ್ರಮಾಣಿತ	-10.3634
▁ಅನುಮತಿ	-10.3634
read	-10.3636
▁ಮಾರಿ	-10.3638
IP	-10.3641
PR	-10.3642
ವ್ಯವಸ್ಥ	-10.3643
05-2018	-10.3644
▁ತಾಳ	-10.3644
▁1800	-10.3651
-200	-10.3651
▁ಕಾಣಿಸಿಕೊಂಡ	-10.3661
▁ಜೊತೆಯಲ್ಲಿ	-10.3665
▁ನೆರವೇರ	-10.3666
▁ಸುರಕ್ಷತೆ	-10.3678
▁ಗೋಳಾಡ	-10.3678
▁ಸ್ನಾನ	-10.3678
▁ವಸಂತ	-10.3678
▁ಸಿಗ	-10.3678
▁ಬಡ್ಡಿ	-10.368
▁ಬಲಿಷ್ಠ	-10.3683
▁ಉಷ್ಣ	-10.3683
▁ಉದಾ	-10.3684
long	-10.3688
▁ಆತನೇ	-10.369
್ರಿ	-10.3692
▁ತಂದರು	-10.3696
▁ದರೆ	-10.3696
▁ಯಾವನು	-10.3698
▁ಆರೋಗ್ಯಕರ	-10.3701
▁ಒರ	-10.3702
▁ಹೋಗಲು	-10.3702
▁ಯಜಮಾನ	-10.3703
▁ಎಲುಬುಗಳ	-10.3704
▁ವ್ಯವಸ್ಥೆಯನ್ನು	-10.3707
ಿಸಿತು	-10.3712
EC	-10.3718
▁ನಿಶ್ಚಯ	-10.372
▁ಬಾಧ್ಯತೆ	-10.372
▁ಸೇವಕ	-10.3723
▁Gr	-10.3728
▁ಕಾನಾನ್	-10.3733
king	-10.3734
▁ಅಂತಾರಾಷ್ಟ್ರೀಯ	-10.374
▁ಚಂದಾದಾರ	-10.374
▁ಪೊಲೀಸ್	-10.374
▁ಹವ್ಯಾಸಿ	-10.374
▁ಹೆಜ್ಜೆ	-10.374
▁ಅಂತರರಾಷ್ಟ್ರೀಯ	-10.374
ರೇಖೆ	-10.3741
▁ಅಗ್ನಿ	-10.3741
ಸಿಎಡಿ	-10.3741
▁ಪದಾರ್ಥ	-10.3742
▁ತಿರುಗಿಸ	-10.3744
▁ತೂಗ	-10.3746
▁ದಿನವು	-10.3747
ಪೂರ	-10.3749
hai	-10.375
▁ಹೇಳಲು	-10.3753
ಸ್ಟ್ರಾ	-10.3755
ಭೇದ	-10.3755
▁©20	-10.3757
▁ಕ್ರಯ	-10.376
▁ಪೂರೈಕೆದಾರ	-10.3764
▁ಯುಎಸ್	-10.3765
▁ನಿಖರವಾಗಿ	-10.3772
▁ನ್ಯಾಯಾಧಿಪತಿ	-10.3772
▁ಪ್ರೇಮಿಗಳು	-10.3774
Me	-10.3776
win	-10.3781
ವನ್ನೇ	-10.3788
5.00	-10.3789
ದೇವರ	-10.3793
▁ಆಮ್ಲ	-10.3793
▁ಬೇಸ್	-10.3795
▁ಪರಿವರ್ತನೆ	-10.3802
▁ಸಂಶೋಧನಾ	-10.3802
▁ಆಧರಿಸಿ	-10.3802
▁ಧ್ವಜ	-10.3802
▁ಶಿಕ್ಷಿಸ	-10.3806
val	-10.3806
▁ಕತ್ತರಿಸ	-10.3807
ಯೇಲನು	-10.3808
▁ಅಂಶಗಳು	-10.3809
▁Game	-10.3809
▁ಹರಿದು	-10.3814
▁ಶಿವ	-10.3816
ಡಾರ್	-10.3818
▁ನೆಲ	-10.3823
▁`	-10.3824
ಹೀನ	-10.3827
ೊಳ	-10.3832
ಗೊಳ್ಳುತ್ತದೆ	-10.3835
ುವದೂ	-10.384
▁ರಾಜ್ಯವು	-10.3846
ಔ	-10.3852
▁ಹೆತ್ತ	-10.386
▁Academy	-10.3864
▁modified	-10.3864
▁ಸೊನಿಟಟೂ	-10.3864
▁ಬ್ರಾಂಡ್	-10.3864
▁ಆಮದು	-10.3865
▁ಪತ್ರಕೋಶ	-10.3865
▁ಯೊರ್ದನಿನ	-10.3865
▁ಸದಸ್ಯರ	-10.3867
HE	-10.3867
▁ಪಕ್ಕ	-10.3872
▁ಹುಡುಕಲು	-10.3874
▁ಕುಮಾರರಲ್ಲಿ	-10.3876
▁ವ್ಯಾಪಕವಾಗಿ	-10.3881
▁ಕಾಪಾಡಿ	-10.3883
ಧ್ವ	-10.3888
ele	-10.389
▁kr	-10.3891
▁ಆಲಯದಲ್ಲಿ	-10.3894
▁ಅಬ್	-10.3906
ಾಯಿತ	-10.391
fin	-10.3911
▁ದುರ	-10.3912
▁ಮನುಷ್ಯರನ್ನು	-10.3913
▁ಬಾಯಿಂದ	-10.3916
▁ದಿವಸಗಳು	-10.3917
▁Play	-10.3922
▁ಮಣ್ಣಿನ	-10.3924
ಶೇಷ	-10.3925
▁(9	-10.3925
▁ಬಂಡವಾಳ	-10.3927
▁ಪ್ರಾಯಶ್ಚಿತ್ತ	-10.3927
▁ಮಧ್ಯಾಹ್ನ	-10.3927
▁ಮಾಲೀಕರ	-10.3927
▁ವಾತಾವರಣ	-10.3927
▁ಅಗಾಧ	-10.3927
▁ಹೋಲಿಕೆ	-10.3927
▁ಪರಿಹರಿಸ	-10.3929
▁ಯಾರಂದರೆ	-10.393
ಾವಧಿ	-10.3931
▁ಮತ್ತೊಬ್ಬನ	-10.3933
▁ಗಣಿತ	-10.3933
▁ಪ್ಯಾಚ್	-10.3933
ಹಾಗೆ	-10.3939
120	-10.3941
▁ಜೀವಿತ	-10.3946
▁Slots	-10.3954
ವಾದರೂ	-10.3957
▁He	-10.3962
zip	-10.3962
▁ಹೊಗಳ	-10.3963
code	-10.3966
▁ಬೆಟ್ಟಗಳ	-10.3966
ವಾನ್	-10.3969
KW	-10.3986
▁ಮಾಡಲ್ಪಟ್ಟ	-10.399
▁ಸ್ಪಾ	-10.399
NZD	-10.3991
▁ತೊಳೆಯ	-10.3993
▁ಹೊಲದಲ್ಲಿ	-10.3993
▁ನಿರೋಧಕ	-10.3997
ಾಗಲೀ	-10.3998
duct	-10.3999
▁ಫೋರ್	-10.4003
▁+91	-10.4007
ಲ್ಲವೆಂದು	-10.4008
ಯಾಗಲಿ	-10.4009
▁ಯೆಹೂದ್ಯರು	-10.4011
▁ಬುದ್ಧಿವಂತ	-10.4014
▁ಕಪ್	-10.402
▁ಜಾನ್	-10.4022
▁ಗೇರ್	-10.4026
▁ಪಾಲನ್ನು	-10.4027
ಯಲ್ಲಾ	-10.403
▁ಭರವಸ	-10.4036
ುವಿಕೆಯನ್ನು	-10.4037
▁ಹಸ್ತ	-10.4039
▁AM	-10.404
▁ಇಸ್ರಾಯೇಲ್ಯರು	-10.404
▁ಮಾಡಿದ್ದಾರೆ	-10.4043
ಿಸುವೆನು	-10.4045
▁recipe	-10.4054
▁ವರ್ಗಾವಣೆ	-10.4054
▁ಷಾನ್ಡಾಂಗ್	-10.4054
▁ಸ್ವತಃ	-10.4054
▁Karn	-10.4054
▁ಸವಾರಿ	-10.4054
▁ಬೈಬಲ್	-10.4056
▁ಆವರಣ	-10.4057
▁ಕದಲ	-10.4057
▁will	-10.406
▁SD	-10.4063
▁Post	-10.4072
▁ಖರೀದಿಸ	-10.4073
▁ತುಳು	-10.4075
ಯಾದರೂ	-10.4076
ವೆಂದೂ	-10.4077
▁ಗಮನಿಸ	-10.4078
▁ಕತ್ತರಿಸಿ	-10.4084
▁೨೦	-10.4084
▁Qu	-10.4085
ೊಳಕ್ಕೆ	-10.409
▁ಆಹಾರವನ್ನು	-10.4091
ಡಿಯೊ	-10.4103
▁ಸೈನ್ಯದ	-10.4114
▁ಗುಣಲಕ್ಷಣ	-10.4118
▁ಫ್ರಾನ್ಸ್	-10.4118
▁ಅಹಾಬನ	-10.4118
▁ಸಂಪಾದಕ	-10.4118
▁option	-10.4118
▁ಚೀನೀ	-10.4118
▁ಪಾಳೆಯದ	-10.412
▁ಹೊಂದಿಕೊಳ್ಳ	-10.412
▁free	-10.4121
▁ಯಾವನೂ	-10.4124
▁ಹೊಂದಿಲ್ಲ	-10.4126
ಂಜಿ	-10.4131
▁ವ್ಯಾಪಾರಿ	-10.4133
▁ವಾಟರ್	-10.4134
▁в	-10.4137
ಪುಟ	-10.4152
▁Ac	-10.4153
▁ಹೋಗುವದು	-10.4154
ಕೈ	-10.4157
▁ನಿರೀಕ್ಷೆ	-10.4159
ಬ್ಯಾಕ್	-10.4172
▁ಕಾರ್ಟ್	-10.4173
▁ತುದಿ	-10.4177
▁ಪೌಲನು	-10.4178
▁ಬಿಟ್ಟುಬಿಡ	-10.418
ನಿಯನ್	-10.4181
▁ಉತ್ಪಾದಕ	-10.4183
▁ಗಲಿಲಾಯ	-10.4183
▁ವಿಶ್ಲೇಷಣೆ	-10.4183
▁ಜವಳಿ	-10.4183
▁ಹುಲ್ಲು	-10.4183
▁ಸಮೀಪ	-10.4183
Change	-10.4187
▁ಪಟ್ಟಣವು	-10.419
▁XXL	-10.4192
▁ಸ್ತುತಿಸಿರಿ	-10.4192
▁ತಪ್ಪಿ	-10.4193
▁ಆದುಕೊಂಡ	-10.4193
▁DC	-10.4203
▁ಕೇಡ	-10.4204
ಉದಾಹರಣೆಗೆ	-10.4204
▁ಕೈಕೊಂಡು	-10.4211
▁MP	-10.4214
▁ಉಸಿರ	-10.4214
AB	-10.4218
bel	-10.422
▁ಅಡಗಿ	-10.4223
ಲಾಗುವುದಿಲ್ಲ	-10.4233
▁ಹುಳಿ	-10.4235
▁ಪ್ರಪಂಚದ	-10.4237
▁ಜನರಲ್	-10.4243
ries	-10.4246
ಕೃಷ್ಣ	-10.4248
▁ಜರ್ಮನಿ	-10.4248
▁ಪ್ಯಾಕೇಜಿಂಗ್	-10.4248
▁ಹೈಡ್ರಾಲಿಕ್	-10.4248
▁ಮಾಂಸವನ್ನು	-10.4249
ಸ್ಥರ	-10.425
▁ಗೋಪುರ	-10.4251
phone	-10.4251
▁ಚೀಯೋನಿನ	-10.4251
▁TV	-10.4254
▁ನಿಂತಿದ್ದ	-10.426
cess	-10.4261
▁ಪಡೆಯಬಹುದು	-10.4272
▁ಪೂರೈಸುವ	-10.4272
▁ನೆನಸ	-10.4274
-10-20	-10.4275
▁ಎಣಿಸಲ್ಪಟ್ಟ	-10.428
ಪೋರ್ಟ್	-10.428
▁ಮೋಡ	-10.428
ical	-10.4282
ವಾಹ	-10.4286
▁Hol	-10.4286
▁ತಗ್ಗಿಸ	-10.4288
▁ಮದ್ಯ	-10.4297
ಕೊಳ್ಳುವರು	-10.4301
-27	-10.4307
▁ದ್ರವ	-10.4312
ಸಾಧ	-10.4313
▁ನಂಬಿಗಸ್ತ	-10.4313
▁ಆದರ್ಶ	-10.4315
▁ಬದಲು	-10.4317
▁ಯುಕೆ	-10.432
▁ಪೌಲನ	-10.4321
▁ಭಾಗವನ್ನು	-10.4322
▁ಮೇಕೆ	-10.4322
▁ಪಿಎನ್	-10.4325
add	-10.4326
▁ಎಂದರೆ	-10.4328
HT	-10.4329
▁ಚಾಚಿ	-10.4329
▁Mon	-10.4331
▁ಬಲ್ಲೆನು	-10.4332
▁ದುಷ್ಟನ	-10.4336
▁ಕ್ಲಿಪ್	-10.4339
▁ಇಟ್ಟನು	-10.4342
ral	-10.4343
▁ಹಿಟ್	-10.4347
▁ಕ್ಯೂ	-10.4348
ುತ್ತಾಳೆ	-10.4349
▁ಸತ್ತವರ	-10.4364
here	-10.4365
▁ಈತನ	-10.4367
ಕೊಳ್ಳುವದಕ್ಕೆ	-10.4369
ಜಿಪ್	-10.4372
▁XXX	-10.4373
▁ಮಾನ್ಯ	-10.4375
▁ಮಿನಿ	-10.4375
yo	-10.4376
ದೊಡ್ಡ	-10.4378
▁ಪರಿಕಲ್ಪನೆ	-10.4379
▁ತ್ರೈಮಾಸಿಕ	-10.4379
▁ಪ್ರೊಫೈಲ್	-10.4379
▁ಒಡೆದು	-10.4379
▁ತಕ್ಷಣ	-10.4379
▁ಎರಕ	-10.438
▁ನಡು	-10.4382
ani	-10.4383
▁ಹಿಂತಿರುಗ	-10.4388
▁ಸಂಗಡಲೂ	-10.439
__	-10.4403
888	-10.4403
▁ಮಾಹಿತಿಗಾಗಿ	-10.4414
▁ಸಹೋದರಿಯ	-10.4415
serv	-10.4416
▁ತಯಾರಿಕೆ	-10.4416
Indian	-10.4417
2011	-10.4422
▁ವಿಾನ	-10.4423
▁ಪ್ರಮಾಣದಲ್ಲಿ	-10.4429
▁1500	-10.4433
▁ಕಬ್ಬಿಣದ	-10.4433
▁ಸ್ವಯಂಚಾಲಿತವಾಗಿ	-10.4435
▁Christ	-10.4442
▁ಅದಕ್ಕ	-10.4444
▁ಚಿನ್ನ	-10.4445
▁inmenu	-10.4445
▁ನ್ಯಾಯತೀರ್ಪ	-10.4445
▁ಮೊಡವೆ	-10.4445
color	-10.4445
▁ಓಡಿಹೋದ	-10.4447
ುತ್ತಿದ್ದರೆ	-10.4448
▁ಆಯ್ದ	-10.4448
ಕೂಟ	-10.4456
▁ಕರ್ತನೆಂದು	-10.4456
▁ಡ್ರಾಪ್	-10.4457
fr	-10.4458
▁ಪೋಷಕರ	-10.446
▁ವಂತೆ	-10.446
ಕ್ಕಿಂತಲೂ	-10.4462
MM	-10.4465
tan	-10.4469
ally	-10.447
▁ಚೀಟ್ಸ್	-10.4473
▁ಯೆಹೂದನ	-10.4474
ಅರಸನ	-10.4475
▁ಗುಂಪಿನ	-10.4479
▁$1	-10.448
ನಾಗಿದ್ದನು	-10.448
IR	-10.4481
▁ಅಗತ್ಯವಿಲ್ಲ	-10.4485
▁ಅಬ್ರಹಾಮನು	-10.4485
ಸುವಿಕೆ	-10.4493
▁ಪ್ರಕಟಣೆಯ	-10.4494
▁ಅಗತ್ಯವಿರುವ	-10.4499
▁ಕ್ಯಾಪ್	-10.4499
▁ಮಾಡಿಕೊಂಡು	-10.4504
▁ಬಿಡಿ	-10.4507
▁ಲೋಹದ	-10.451
▁ಇಂಗ್ಲೀಷ್	-10.4512
▁ಸ್ಪೀಕರ್	-10.4512
▁ಒಳ್ಳೇದನ್ನು	-10.4512
▁ಜನಸಂಖ್ಯೆ	-10.4513
▁ರೇಟೆಡ್	-10.4513
▁ಕೀರ್ತಿ	-10.4513
▁ಹೋಂಡಾ	-10.4513
▁ವಾಸವಾಗಿರುವ	-10.4514
ತ್ವವನ್ನು	-10.4516
▁ಡೇಟಾವನ್ನು	-10.4517
▁ಇಂಡಿಯಾ	-10.4522
▁ಕಬ್ಬಿಣ	-10.4523
ವಾರ್	-10.4524
▁ಹಿಂಸಿಸ	-10.4526
▁ನವೀಕರಿಸ	-10.4527
▁ತಪ್ಪಿಸಿಕೊಳ್ಳ	-10.4529
ತೊಡಗ	-10.453
xxx	-10.4544
▁ಸಂದೇಶಗಳನ್ನು	-10.4544
▁0.1	-10.4549
ಲಾರದ	-10.455
▁ಬಿಂದು	-10.4553
ದ್ದೇನಂದರೆ	-10.4558
ಂದೂ	-10.4562
ಸೆಪ್ಟ	-10.4563
ಂತ್	-10.4565
▁ಸೌರ	-10.4566
ಮಂದಿ	-10.4567
▁ನಾಶವಾಗುವ	-10.4571
▁ಮಹಿಳೆ	-10.4577
▁ಲೈಂಗಿಕ	-10.4579
▁ಗುಲಾಬಿ	-10.4579
▁ನಿಮಗೋಸ್ಕರ	-10.4579
▁Holmbygden	-10.4579
▁ಕಾಳಜಿ	-10.4579
▁ಚೀಟು	-10.4579
ೊಮ್ಮೆ	-10.458
ಇನ್	-10.458
▁ಸೊಲೊ	-10.458
▁ವಸ್ತುಗಳು	-10.4582
▁ಭಿನ್ನ	-10.4582
▁VPS	-10.4583
▁ವಹಿಸ	-10.4586
RC	-10.4586
▁ತತ್ವ	-10.4588
▁ಗಂಡು	-10.459
▁ಚೇರ್	-10.4606
▁ಭಾಗವಾಗಿ	-10.4606
▁ತಿಳಿಸುವ	-10.4614
ಕೊಡುವ	-10.4616
▁06:	-10.4617
▁ಬಲಿಪೀಠದ	-10.4627
ati	-10.4627
ML	-10.4633
▁ಉಪಕರಣಗಳು	-10.4639
ಿಷ್ಠ	-10.4639
▁ಕುದುರೆಗಳ	-10.4645
▁ಕೈಗಾರಿಕೆ	-10.4646
▁ವಿದ್ಯುಚ್ಛಕ್ತಿ	-10.4646
▁ಷೆನ್ಜೆನ್	-10.4646
▁ಸಂರಚನೆ	-10.4646
▁ಅನುಸ್ಥಾಪನ	-10.4646
▁ವೀಕ್ಷಕ	-10.4646
▁ಕೂಪನ್	-10.4646
▁ಚಾನೆಲ್	-10.4646
group	-10.4647
▁ಅಲ್ಪ	-10.4648
▁ಆಡಿಯೋ	-10.4648
▁have	-10.4649
▁ಸ್ಥಾಪಿಸಲಾಯಿತು	-10.465
▁ಶಬ್ದವನ್ನು	-10.4651
▁(1,5	-10.4652
▁ನಂಬುವ	-10.4655
cam	-10.4655
zz	-10.4667
▁ಐಗುಪ್ತದೇಶದ	-10.4668
▁ಹಗ್ಗ	-10.467
ಟ್ರಿಕ್	-10.4678
320	-10.4687
▁ಕೇಳದೆ	-10.469
▁ಸಿಂಹಾಸನ	-10.4692
▁ಹಾದಿ	-10.4693
▁ಉಂಟಾಗಿ	-10.4694
▁ಕಡೆಯಲ್ಲಿ	-10.4695
ಗೊಳ	-10.4696
▁ಬೇಗ	-10.4702
▁ಬಂಧಿಸ	-10.4704
▁ಪ್ಲ	-10.4708
▁ಶೇಖರಣಾ	-10.4714
ಮೌಲ್ಯಮಾಪನ	-10.4714
▁ಅವಲಂಬಿಸಿ	-10.4714
▁ಕ್ರಾಫ್ಟ್	-10.4714
▁ಕ್ರೀಡಾ	-10.4714
▁ಈಹೊತ್ತು	-10.4714
▁ಹೆಬ್ರೋನ	-10.4714
▁ಕನಸು	-10.4715
▁ಅರ್ಥಮಾಡಿಕೊಳ್ಳ	-10.4715
▁ಪಸ್ಕ	-10.4715
▁ಆಕೆಗೆ	-10.4715
▁ಕೊಂದ	-10.4722
▁ಬ್ಯಾಗ್	-10.4727
ಿಯರ	-10.4727
ಚ್ಚೆ	-10.4728
bra	-10.473
▁ರಮ್ಯ	-10.4731
ಮೌ	-10.4733
▁ನಿನಗ	-10.4734
itch	-10.4743
▁ಕಾಣಿಸಿಕೊಳ್ಳ	-10.4747
ದಾಯಕ	-10.4747
▁Xxx	-10.475
▁ಅನುಮತಿಸ	-10.4754
ಬೋರ್ಡ್	-10.4754
▁ಗುಪ್ತಪದವನ್ನು	-10.4755
ಸುತ್ತೇನೆ	-10.4758
▁ಜು	-10.4761
▁ಆಳುವ	-10.4763
ಬಿಡುವೆನು	-10.4766
ಲಾಗುವ	-10.4768
FA	-10.4778
▁Cl	-10.4778
1.5	-10.4782
ь	-10.4783
▁ಬೆತ್ತಲೆ	-10.4783
▁ಆರೈಕೆ	-10.4783
▁PNG	-10.4783
ೋತ್ಸವ	-10.4783
▁ಕುತ್ತಿಗೆ	-10.4783
▁฿	-10.4784
▁ಅತಿಥಿ	-10.4788
▁ಅನುಮತಿಸುತ್ತದೆ	-10.4792
▁Go	-10.4793
▁ಜಿಲ್ಲಾ	-10.4808
IM	-10.4809
▁ಮಾರುಕಟ್ಟೆಯಲ್ಲಿ	-10.4814
▁ಸವಿಾಪಕ್ಕೆ	-10.4814
test	-10.4816
▁ಅರಸನನ್ನು	-10.4818
TH	-10.4825
▁ಆಯ್ಕೆಮಾಡಿ	-10.4836
▁05:	-10.4842
▁ವಿಭಾಗಗಳು	-10.4843
▁ನೀತಿಯನ್ನು	-10.4848
▁Tulu	-10.4852
▁ಕಂಪೆನಿ	-10.4852
JPY	-10.4852
▁ದೋಸೆ	-10.4852
▁ಹೇಗ	-10.4852
▁ಶಾಪಿಂಗ್	-10.4857
▁ಸೇರಿಸಲು	-10.4866
▁ಸಹೋದರರು	-10.4868
▁ಖಚಿತಪಡಿಸಿಕೊಳ್ಳ	-10.4871
best	-10.4882
್ತಿ	-10.4886
ಲೆಂಡ್	-10.4888
▁0.2	-10.4892
ui	-10.4894
ತೆಯಿಂದ	-10.4894
▁ಸಾಕ	-10.4894
MB	-10.4898
6.5	-10.4901
ಸ್ಟಿಕ್	-10.4919
▁ಹಗೆ	-10.492
▁ಟೆಕ್ನಾಲಜಿ	-10.4921
▁ಪ್ರದರ್ಶಕ	-10.4921
▁ಬೃಹತ್	-10.4921
Welcome	-10.4921
▁ಗಂಡಸರ	-10.4921
▁ಪಂದ್ಯ	-10.4921
▁ಸ್ಕೈಪ್	-10.4921
▁ಪರಿವಿಡಿ	-10.4921
▁ಟ್ರ್ಯಾಕ್	-10.4923
▁ಮೂಡಣ	-10.4926
▁ಆನಂದಿಸಿ	-10.4926
▁ಸೇವ	-10.4927
▁HTTPS	-10.4928
ಗೊಳಿಸುತ್ತದೆ	-10.4936
ರಾದರು	-10.4946
PP	-10.4949
gh	-10.4951
▁ಅರ್ಪಿಸಬೇಕು	-10.4954
ಲಕ್ಷ	-10.4954
▁ದಾಖಲಿಸಿದ	-10.4962
ರಾಗಿರುವ	-10.4963
ಟೆಡ್	-10.497
DB	-10.4974
▁ಮನಸ್ಸಿ	-10.4978
▁ಕೋಟಿ	-10.4982
hk	-10.4984
ಚನೆ	-10.4987
▁ಗಮನಾರ್ಹ	-10.4991
▁Antiparos	-10.4991
▁ತುಣುಕು	-10.4991
▁ಫೋಲ್ಡರ್	-10.4991
▁ವಿಶ್ವವಿದ್ಯಾನಿಲಯ	-10.4991
▁ಸೈಟ್ಮ್ಯಾಪ್	-10.4991
▁ತಂಪಾದ	-10.4991
▁Sexu	-10.4991
▁ವಿಶ್ವಾಸ	-10.4993
▁ಭಾರತದಲ್ಲಿ	-10.4995
▁ಕರೆದುಕೊಂಡು	-10.4995
▁ಹೆತ್ತಳು	-10.4997
▁ಯೆರೂಸ	-10.5002
NT	-10.5004
▁Comments	-10.5009
▁ಸೇವಿಸುವ	-10.5011
▁And	-10.5012
HL	-10.5014
▁ವೈನ್	-10.5023
ಕುಮಾರ	-10.5023
ಹೊಸ	-10.5023
list	-10.5027
▁MT	-10.5029
▁ಇಳಿಸ	-10.5032
0.9	-10.5034
▁ಬಿಡಿಸಿ	-10.5036
cho	-10.5037
▁ಕಿಟ್	-10.5039
KG	-10.5039
▁ರೋಗಿಗಳ	-10.5045
▁mod	-10.5046
▁ಲೇಖನಗಳು	-10.505
▁ಸಾಯಂಕಾಲದ	-10.505
▁ಅರಸರ	-10.5052
▁ಸಾಂ	-10.5053
▁ವ್ಯಕ್ತಿಗಳು	-10.5061
▁CSGO	-10.5062
▁ವಿಜ್ಞಾಪನೆ	-10.5062
▁ಸಾಮಗ್ರಿ	-10.5062
▁ಎಪ್ಪತ್ತು	-10.5062
▁ಸಂಗಾತಿ	-10.5062
▁ಮುಂದುವರಿಸ	-10.5062
▁ಜಗತ್ತಿನ	-10.5062
ಚಾರ್	-10.5062
▁ಕವಿ	-10.5063
▁ಅನ್ಯಜನರ	-10.5063
2.5	-10.5063
▁ಹಳ್ಳ	-10.5065
▁ಲವ್	-10.5067
▁ನೈಜ	-10.5069
▁1.2	-10.507
▁ಮಾಡುವದು	-10.5078
▁ಮಾಡುತ್ತಿದ್ದ	-10.508
▁ಇಲ್ಲದಿದ್ದರೆ	-10.5082
▁ಹಾಸ್ಯ	-10.5083
▁ತೆಗೆದುಕೊಳ್ಳಲು	-10.5085
▁ಸೂಚಿಸುತ್ತದೆ	-10.5087
▁ಬರೆಯುವ	-10.5088
▁ಆತ್ಮನು	-10.5088
ಟೆಕ್	-10.5093
▁ಹೆಡ್	-10.5094
▁ಗಿಯೂ	-10.51
ring	-10.5105
▁ದುರ್	-10.5106
▁ಬದುಕಿ	-10.5108
ಯಾಗಿದ್ದು	-10.511
▁ಹೊರಡಿಸಿ	-10.5113
▁ತುಂಬಿಸ	-10.5114
▁ಘಟನೆಗಳು	-10.5119
▁ಬೈಲ	-10.5126
ಫಿಕ್	-10.513
▁ಹೆಚ್ಚಿಸಲು	-10.5131
▁ಫರಿಸಾಯರ	-10.5133
▁button	-10.5133
▁ನಿರಾಕರಿಸ	-10.5133
▁ನಿರ್ಧಾರ	-10.5133
Electronic	-10.5133
ಸಾಫ್ಟ್	-10.5133
▁ಸಾಮ್ಯ	-10.5133
▁ಸುರುಳಿ	-10.5133
▁ಬೇರಿಂಗ್	-10.5136
▁ಬ್ಯಾಂಕ	-10.5141
▁ಮ್ಯಾಕ್ಸ್	-10.5146
ness	-10.5152
ೆನೋ	-10.5153
▁ಜ್ಞಾನಿಯ	-10.5157
ಖ್	-10.5159
▁ಸೆಲಾ	-10.5162
ಿರುತ್ತಾರೆ	-10.5162
▁ನಿಮಗಾಗಿ	-10.5164
▁ಕಾಯುವ	-10.5166
▁ವೀಕ್ಷಿಸ	-10.517
▁ರೋಲ್	-10.5171
೦೦	-10.5181
▁"%	-10.5186
▁ಇಸ್ರಾಯೇಲಿನಲ್ಲಿ	-10.5186
ಮನುಷ್ಯ	-10.5187
▁ಹೊಲಿಗೆ	-10.519
999	-10.5191
▁ಕುರಿತ	-10.5192
▁ಸೀಮೋನ	-10.5199
▁ದೊರೆಯ	-10.5204
▁Tablet	-10.5204
▁ಮುಳ್ಳು	-10.5204
ಸೈಡ್	-10.5204
▁ಉಂಟಾಯಿತು	-10.5205
▁ಸಂಪರ್ಕಿಸಬಹುದು	-10.5208
▁Min	-10.521
▁ಕರೆಯಲ್ಪಡುವ	-10.521
▁ಬಾಳನ	-10.5211
▁ಒಳಗಾಗ	-10.5223
▁ಸೆರೆಯಾಗಿ	-10.523
ಜೈ	-10.5234
▁ಕೆಲವರ	-10.5238
▁ಹಸು	-10.524
▁380	-10.5247
▁ನಂತಹ	-10.5248
ಿಸುವದಕ್ಕೆ	-10.5253
▁ಅರಸನೂ	-10.5257
▁01:	-10.526
ಷ್ಟೆ	-10.5267
je	-10.5271
▁ಹೆಚ್ಚಾಗ	-10.5273
mark	-10.5274
ი	-10.5276
NamePossessive	-10.5276
▁ಜಾಲತಾಣ	-10.5276
▁ವಯಸ್ಸಿನ	-10.5276
▁ಆಸ್ಪತ್ರೆ	-10.5276
▁ಕೈಪಿಡಿ	-10.5276
▁ಸ್ಕೂಲ್	-10.5276
▁ಬ್ರೇಕ್	-10.5276
▁ದಾನಿಯೇಲನ	-10.5276
▁ಮೌಸ್	-10.5277
▁ರಷ್ಯಾ	-10.5277
▁ಸೈಕಲ್	-10.5279
▁ಜನರಾದ	-10.5279
▁ಅರಮನೆ	-10.5281
▁ಗೋಧಿ	-10.5283
▁ಹೋಲಿಸ	-10.5289
▁ವಿಧಾನಗಳು	-10.529
▁ಆದರ	-10.5292
▁ಪ್ರವೇಶಿಸುವ	-10.5295
ನೀತಿ	-10.5298
ಕೊಳ್ಳುತ್ತಾರೆ	-10.5301
▁02:	-10.5302
thya	-10.5302
▁ಇಳಿಯ	-10.5303
page	-10.5306
ಿದ್ದಾಳೆ	-10.5313
▁ಎಳೆಯ	-10.5315
▁ಅವರೊಂದಿಗೆ	-10.5321
▁ಸುಧಾರಿಸ	-10.5327
ಲ್ಪಟ್ಟಿವೆ	-10.5329
UT	-10.533
▁ಮಂಜೂಷವನ್ನು	-10.5332
ನೌ	-10.5339
▁ಮತಗಳನ್ನು	-10.5342
▁ಉಡುಗೊರೆ	-10.5348
▁ವೈಜ್ಞಾನಿಕ	-10.5348
▁ಚರ್ಚ್	-10.5349
▁ಸಾಮಾನು	-10.5349
▁ಮಗಳಾದ	-10.5349
▁team	-10.5351
quot	-10.5352
▁10%	-10.5352
▁ಪತ್ತೆ	-10.5353
sign	-10.5354
▁ಉಂಟಾಗುವ	-10.5354
▁MH	-10.5356
▁ಉಗ್ರ	-10.5361
▁ಸುಖ	-10.5369
-09-20	-10.5369
122	-10.5377
▁ಪ್ರಶ್ನೆಗಳನ್ನು	-10.5378
▁ವರ್ಣ	-10.5383
▁ಕಲಿತ	-10.5387
▁ಜೇನು	-10.5389
▁ಒಳ್ಳೆಯದು	-10.5391
▁ಮಗನೇ	-10.5394
▁ಡಿಸಿ	-10.5396
▁ಕಾಡ	-10.5399
▁ಐಗುಪ್ತದೇಶ	-10.5401
▁ಹೋಗಿರಿ	-10.5407
UR	-10.5409
▁ಮಹಾನ್	-10.5413
▁ಇಟ್ಟುಕೊಂಡ	-10.5418
▁ಯೊರ್ದ	-10.5418
▁Bitcoin	-10.5421
▁ಕಾರ್ಯಕ್ಷಮತೆ	-10.5421
▁ವೇಳಾಪಟ್ಟಿ	-10.5421
▁ಬಹುತೇಕ	-10.5421
▁ವಿಮೆ	-10.5425
▁XXXL	-10.5427
ade	-10.543
hot	-10.5432
▁ಬರೆಯಲು	-10.5432
▁ವರ್ಧ	-10.5433
CS	-10.5447
▁ರಥಗಳ	-10.545
▁ಅವರೆಲ್ಲರೂ	-10.5453
▁ಕುಡಿ	-10.5463
ವನಾಗಿದ್ದನು	-10.5463
▁ಬಂಡೆ	-10.5471
zh	-10.5489
▁ವಿಧಿಸ	-10.5493
▁ಮೋವಾಬಿನ	-10.5495
▁ರೌದ್ರ	-10.5495
▁ದೃಷ್ಟಿಕೋನ	-10.5495
▁ಚರ್ಚೆ	-10.5495
ಒಂದು	-10.5495
▁ಮಲ್ಟಿ	-10.5495
▁ಕಲಾ	-10.5496
▁ನಿಧಾನ	-10.55
▁ಆತ್ಮವು	-10.5501
▁ಘಟನೆ	-10.5509
▁ಡ್ಯೂ	-10.551
▁ಕಾಣಿಸುತ್ತದೆ	-10.5518
▁ಭದ್ರತೆ	-10.5519
ಯಾಗುತ್ತದೆ	-10.5519
▁ಸ್ಪಷ್ಟವಾಗಿ	-10.5525
light	-10.5525
▁ಪುರುಷರು	-10.5533
▁ಇದ್ದೇನೆ	-10.555
ಾಕಾರದ	-10.5552
Com	-10.5557
▁ನಿಗದಿ	-10.5559
▁ಸೂಕ್ತವಾದ	-10.556
ಭೂಮಿ	-10.5563
ಮುಂದೆ	-10.5564
oop	-10.5565
▁ಸಹೋ	-10.5567
▁ಹಾಳುಮಾಡ	-10.5568
ುತ್ತಿದ್ದೇನೆ	-10.5568
▁ಬಹಿರಂಗ	-10.5569
▁ಅನ್ವೇಷಿಸ	-10.5569
▁ಇಂಜೆಕ್ಷನ್	-10.5569
▁ಸುವಾಸನೆ	-10.5569
▁ಡೀಲುಗಳು	-10.5569
▁ತುರ್ತು	-10.5569
▁ಯೆಶಾಯ	-10.5569
▁ಆದಿ	-10.5569
▁ಅಂಚೆ	-10.557
▁ಸಂಬಂಧಪಟ್ಟ	-10.5574
▁ಬೆಲ್ಟ್	-10.5576
▁ಸಿಇ	-10.5582
RT	-10.5583
▁ಮೃಗಗಳ	-10.5585
▁QR	-10.5586
▁ಹೆಚ್ಚಾದ	-10.5591
▁ನೀಡುತ್ತವೆ	-10.5592
▁ಆಸ್ಟ್ರೇಲಿಯಾ	-10.5593
back	-10.5599
▁ಯೋಹಾನನು	-10.5603
nic	-10.5606
▁ಬೀಸ	-10.5607
▁ನಿಖರತೆ	-10.5608
▁ಬ್ಲೂ	-10.5608
▁Ev	-10.5616
can	-10.5617
▁ಭಾಗದಲ್ಲಿ	-10.5619
▁Can	-10.5623
each	-10.5628
▁ನಿಲ್ಲುವ	-10.563
755	-10.5635
▁ಬಳಸುತ್ತದೆ	-10.5637
now	-10.5641
▁Episode	-10.5644
▁ಔತಣ	-10.5644
▁ಮೈಸೂರು	-10.5644
▁ಗ್ರಹಿಕೆ	-10.5644
ುತ್ತಿದ್ದೇವೆ	-10.5646
▁ಭಾವಿಸುತ್ತೇವೆ	-10.5647
▁ಮಗುವಿನ	-10.5648
▁Pas	-10.5655
▁ID	-10.5656
▁ಪ್ರದೇಶಗಳಲ್ಲಿ	-10.5656
▁ಹಾಕಿದರು	-10.5661
▁ಅರಿತ	-10.5662
▁ಗೀ	-10.5666
▁ಟೈಪ್	-10.5668
▁El	-10.5672
▁ಪ್ರಜೆ	-10.5674
▁ಒಡೆಯ	-10.5683
▁ಉಳಿದವರ	-10.5683
▁ಚೀಟ್	-10.5688
ition	-10.5689
▁ಅನಿಲ	-10.5689
▁ಮೇಲಿನಿಂದ	-10.569
▁ಸ್ತುತಿ	-10.5692
▁ಜಗ	-10.5692
▁ಭಯಪಟ್ಟು	-10.5698
▁ಹಾಳು	-10.5698
▁ಫಲಿತಾಂಶಗಳು	-10.5702
▁ಬಿಟ್	-10.5708
▁ವಿಧೇಯ	-10.5717
▁ವರ್ಷಗಳಲ್ಲಿ	-10.5717
▁ಏನಾಯಿತಂದರೆ	-10.5719
▁ಸೆಕೆಂಡು	-10.5719
▁ಸ್ವಾತಂತ್ರ್ಯ	-10.5719
▁ಸೌಕರ್ಯ	-10.5719
▁ನೌಕರರ	-10.5719
▁ಅನುಗುಣವಾಗಿ	-10.5719
▁ಹೆಣ್ಣು	-10.5719
▁Movie	-10.5719
▁ಹೇಗಾದರೂ	-10.572
less	-10.5721
▁ಸ್ವಚ್ಛ	-10.5721
tablet	-10.5727
▁ರಾಜ್ಯದಲ್ಲಿ	-10.5729
▁ರೋಮ	-10.5735
ala	-10.5742
ಚೈ	-10.5743
▁ಲೋಹ	-10.5746
ದ್ದನ್ನೆಲ್ಲಾ	-10.5747
▁ಹಸಿದ	-10.5749
▁ಎಂಬದೇ	-10.5756
▁00:	-10.5778
▁ಎಲ್ಲವುಗಳ	-10.5778
ಸ್ಥಳ	-10.5794
▁ಕಸ್ದೀಯರ	-10.5795
▁ಗೌಪ್ಯತಾ	-10.5795
▁ಜಾಕ್ಪಾಟ್	-10.5795
▁ಯೌವನಸ್ಥರ	-10.5795
▁ರೇಖಾಚಿತ್ರ	-10.5795
▁ಸ್ಟ್ಯಾಂಡರ್ಡ್	-10.5795
▁ಸ್ಪ್ರಿಂಗ್	-10.5795
▁ಚಲಾಯಿಸ	-10.5795
▁ಗ್ಲಾಸ್	-10.5795
▁ಹೇಗಂದರೆ	-10.5795
▁ಪೂರಕ	-10.5795
http	-10.5796
zer	-10.5796
▁ಕಳೆಯ	-10.5798
▁ಪಾನೀಯ	-10.58
ರಾಗಿದ್ದೇವೆ	-10.5801
▁ಅಂದೆನು	-10.5801
▁ದಹಿಸ	-10.5804
▁ಪರಿಣಾಮಗಳನ್ನು	-10.5807
▁ನೀಡುತ್ತೇವೆ	-10.5809
▁ಕೆಡವಿ	-10.581
▁Red	-10.5811
▁ಸನ್ನಿಧಿಯಲ್ಲಿ	-10.5819
hang	-10.5819
ref	-10.5827
ಮೂಲ	-10.583
▁ಚಿಪ್	-10.5832
▁ಎಂಬದು	-10.5833
pack	-10.5835
RS	-10.5836
▁ಓವರ್	-10.5838
▁ಕುಗ್ಗಿ	-10.5841
▁ಮೌಲ್ಯವನ್ನು	-10.5846
▁ಬರುವದು	-10.5859
ಫೋನ್	-10.5861
▁ಸಿಕ್ಕಿದ	-10.5864
ram	-10.5864
▁Bra	-10.5865
▁Top	-10.587
▁ವ್ಯಾಜ್ಯ	-10.5871
▁Quality	-10.5871
▁ಒಬ್ಬರಿಗೊಬ್ಬರು	-10.5871
▁ಪೇಟೆಂಟ್	-10.5871
▁ಅಮೋರಿಯರ	-10.5871
▁ಅಸ್ವಸ್ಥ	-10.5871
▁ಪ್ರೇರೇಪಿಸ	-10.5871
ಕಾರಕ	-10.5872
▁ಟ್ಯಾಂಕ್	-10.5873
board	-10.5874
▁hack	-10.5878
▁ದಾಸರ	-10.5883
▁ನಿಖರವಾದ	-10.5884
ನೈಟ್	-10.5891
▁ಕಿರಿಯ	-10.5894
ava	-10.5905
650	-10.5906
ಬೇಕಾದದ್ದೇನಂದರೆ	-10.591
▁ಮಾತನಾಡಲು	-10.5922
▁ಈಗಿನ	-10.5933
▁ಪಂಚ	-10.5933
▁ಪರಲೋಕದಲ್ಲಿ	-10.5936
▁ಹಾಲು	-10.5943
▁ಅಶ್ಶೂರ	-10.5943
ung	-10.5944
▁Gratuit	-10.5948
▁ಇಂಡಸ್ಟ್ರಿ	-10.5948
▁ಡೊಮೈನ್	-10.5948
▁ನೆಬೂಕದ್ನೆಚ್ಚರನ	-10.5948
▁ರಕ್ಷಕ	-10.5948
▁ಮುರಿಯ	-10.5948
▁ಸವಾಲು	-10.5948
▁ಸಹಿತವಾಗಿ	-10.5948
▁ವಿಧವೆಯ	-10.5951
ನ್ನಾಗಲೀ	-10.5951
English	-10.5954
▁ಸೇಂಟ್	-10.5955
▁ಫ್ಲೋ	-10.5962
▁ಕಲಾವಿದ	-10.5965
ND	-10.5968
▁ಮಾಡಿದವರು	-10.5976
▁comp	-10.5977
▁ಹುಡುಗಿಯರ	-10.5978
▁ಪಟ್ಟಣಗಳನ್ನು	-10.5979
▁ಮೊಲೆ	-10.5981
▁ನಾಳೆ	-10.5984
▁ಸರ್ಪ	-10.5988
▁ಆಕೆಯನ್ನು	-10.5991
▁ಚಾಚ	-10.5996
▁ಕ್ಸ	-10.5997
▁ಉಪಯೋಗಗಳು	-10.6003
ದುರಾಗಿ	-10.601
LD	-10.6013
▁ಕಿತ್ತು	-10.6014
▁ಬೇಸಿಗೆ	-10.6015
▁ಕ್ಲ	-10.6017
Pirater	-10.6025
▁ರಜಾದಿನಗಳ	-10.6025
▁ಸಿಎನ್ಸಿ	-10.6025
▁ಯೆಹೋಷಾಫಾಟನ	-10.6025
▁ಪೀಳಿಗೆಯ	-10.6025
▁ಅಬ್ರಾಮನ	-10.6026
▁Piece	-10.6031
▁ಹೆಂಡತಿಯಾದ	-10.6042
1000	-10.6045
▁ಸೆಕ್ಸ್	-10.6045
ನಾನ್	-10.6046
ದಾದರೆ	-10.6047
▁ಸುಧಾರಿಸಲು	-10.6048
▁ಒಬ್ಬನೇ	-10.6051
▁ಪರಾ	-10.6053
-2015	-10.6056
ಲ್ಲಾಗಲಿ	-10.6058
ಮಿನಲ್ಲಿ	-10.6081
225	-10.6082
▁ನಡಿಸುವ	-10.6097
▁ಟ್ರೆ	-10.6099
▁ಉಜ್ಜ	-10.6099
▁ಪ್ರತಿನಿಧಿ	-10.6102
eck	-10.6102
▁II	-10.6103
WysLuxury	-10.6103
▁TabletWise	-10.6103
▁ನಿರ್ವಹಣಾ	-10.6103
▁ಡೇಟಾಬೇಸ್	-10.6103
▁ಇಚ್ಛೆ	-10.6104
▁ಹೀಗಿರುವದರಿಂದ	-10.6104
uenee	-10.6104
▁ಯೋಚನೆ	-10.6105
▁ನಿಗಮ	-10.6106
▁ಬಿದಿರು	-10.6106
▁ಮಹಿಳೆಯರ	-10.6108
▁ಬಲಹೀನ	-10.6108
▁ಯೋಬನ	-10.611
▁ಹೆಂಡತಿಯನ್ನು	-10.6111
med	-10.6111
▁ಪರಿಣಾಮಕಾರಿಯಾಗಿ	-10.6112
▁ಹುಚ್ಚ	-10.6115
▁ಸಭೆಯಲ್ಲಿ	-10.6123
▁ಬೆಳಗಿನ	-10.6124
▁ಶಕ್ತಿಯನ್ನು	-10.6125
▁ಸಹೋದರರೂ	-10.6128
▁ಮೇರೆಗೆ	-10.6142
▁ಒಂದನ್ನು	-10.6146
▁On	-10.6152
▁ಮಣ್ಣ	-10.6155
ವಂತರ	-10.6156
▁ಮಕ್ಕಳಿಗೂ	-10.6158
▁ಓಡಿಹೋಗಿ	-10.6158
▁ತಿಳಿದಿರ	-10.6164
▁ಫೈಲ್ಗೆ	-10.6165
ich	-10.6173
ವಾದವುಗಳನ್ನು	-10.6178
▁ಆಯೋಗ	-10.618
▁ಡ್ರೈ	-10.618
▁ವಿಸ್ಮಯ	-10.6182
▁ಗುರಾಣಿ	-10.6182
▁ವಂದನೆ	-10.6182
▁ಸುತ್ತಲಿರುವ	-10.6182
▁ಕೃತ್ಯಗಳ	-10.6182
▁ಕವಾಟ	-10.6182
▁ಪ್ರಯಾಣಿಕರ	-10.6186
CP	-10.6187
▁ಮಾಡಿದ್ದರಿಂದ	-10.6191
#	-10.6196
bit	-10.6197
ild	-10.6197
▁ನಿರೀಕ್ಷೆಯ	-10.6211
cent	-10.6213
▁ಮಂದೆಯ	-10.6215
▁ಜನರೆಲ್ಲರೂ	-10.6216
▁ಪರಿಣಾಮವಾಗಿ	-10.6219
ಭೂತ	-10.6235
▁ಹೇಳಿದರೆ	-10.6235
▁My	-10.6238
▁ತರಬೇಕು	-10.6239
▁ಅನಂತ	-10.6239
ಿಲ್ಲವಾದರೆ	-10.6244
ವಾದದ್ದನ್ನು	-10.6245
▁ಬೆಟ್ಟದಲ್ಲಿ	-10.6248
chat	-10.6248
▁ಆಳವಾದ	-10.6254
▁ಮತ್ತೊಬ್ಬ	-10.6258
▁ಶಾಖೆ	-10.626
ಾತನೂ	-10.6261
б	-10.6262
ö	-10.6262
▁WordPress	-10.6262
▁unlimited	-10.6262
▁ತೀರ್ಮಾನ	-10.6262
▁ವರ್ಗವಿಲ್ಲದ್ದು	-10.6262
▁ಸ್ಟೇನ್ಲೆಸ್	-10.6262
▁ಭಿನ್ನತೆಗಳು	-10.6262
▁ಮುನ್ನೋಟ	-10.6262
▁ಮೈಕ್ರೋಸಾಫ್ಟ್	-10.6262
▁ಒಪ್ಪಿಸಿಕೊಟ್ಟ	-10.6263
▁ಹೋರಾಡ	-10.6263
▁ಅದಕ್ಕವನು	-10.6267
▁ಯಶಸ್ವಿಯಾಗಿ	-10.6268
▁ಕುಂದಿ	-10.627
▁ಏಳನೇ	-10.6272
▁ಕಾನಾನ್ಯರ	-10.6274
▁ಬಾಧ್ಯತೆಯ	-10.6277
▁ತಂದೆಗೆ	-10.628
$1	-10.6284
▁NO	-10.6284
▁ಯಾರಿಗೆ	-10.6285
▁ದಾರಿಯಲ್ಲಿ	-10.6285
ವಾಗುವಂತೆ	-10.6287
ಗಳಿದ್ದವು	-10.6288
▁ಸಮ್ಮುಖ	-10.6294
▁Ja	-10.6295
hr	-10.6299
▁ಇಸ್ರಾಯೇಲನ	-10.6308
▁ಒಳ್ಳೇದು	-10.6313
▁dis	-10.6316
ುವದಿಲ್ಲವೆಂದು	-10.6318
▁ಗಾದನ	-10.6322
▁ಕೂದಲಿನ	-10.6325
▁ಮಾಡಲಿಲ್ಲ	-10.6327
rc	-10.6338
▁ಕತ್ತಿಯನ್ನು	-10.6341
▁ರೂಬೇನನ	-10.6342
▁ವರ್ಚುವಲ್	-10.6342
▁ಸಾಹಿತ್ಯ	-10.6342
▁ಪರಿಮಳ	-10.6342
▁ಪ್ರಸಕ್ತ	-10.6342
▁ಬೆಸುಗೆ	-10.6342
▁HGH	-10.6342
▁ತಗ್ಗಿನಲ್ಲಿ	-10.6346
▁ಭಾವಿಸುತ್ತೇನೆ	-10.6349
▁ಹಿಂಸೆ	-10.6349
▁ತಲೆಯನ್ನು	-10.6354
▁ಹುಟ್ಟಿ	-10.6355
▁ಕೂಲಿ	-10.6358
▁ತಿಳಿದುಕೊಳ್ಳುವ	-10.6359
▁ವಧಿಸ	-10.6359
map	-10.636
ರಾಗಿರ್ರಿ	-10.6365
▁ಡಿಜೆ	-10.6376
ಔಟ್	-10.6376
▁ಬಲಿಗಾಗಿ	-10.6378
▁ನೀರಿನಲ್ಲಿ	-10.6383
▁2018-10-	-10.6385
▁sex	-10.6391
▁ರಚಿಸಿದ	-10.64
▁ಆರಂಭಿಸಲು	-10.6403
▁ನಿಖರ	-10.6405
ವತಿ	-10.6407
▁ಕೊಡುವನು	-10.6422
▁ಬುಧವಾರ	-10.6422
▁ಅಮ್ಮೋನನ	-10.6422
▁ಸಿಎಎಸ್	-10.6422
▁ವಲಸೆ	-10.6422
▁ಕೊನೆಯದಾಗಿ	-10.6423
▁ಅಡ್ಡಬಿದ್ದ	-10.6423
▁ವಾಹಕ	-10.6423
▁ಸಮೃದ್ಧಿಯ	-10.6423
ಭರಿತ	-10.6424
▁ಅಣು	-10.6426
▁ಅಂಚಿನ	-10.6426
▁ಪೆಟ್	-10.6433
▁ಸಹಯೋಗ	-10.6438
▁ತಿಳಿದಿದೆ	-10.6443
▁ಕರಗುವ	-10.6446
ull	-10.6447
▁ಹೇಳಬೇಕು	-10.6453
▁ಕಿಟಕಿಯನ್ನು	-10.6463
▁ಕೆನಡಾದ	-10.6465
▁ಹಿಜ್ಕೀಯನು	-10.647
▁ಚೆಲ್ಲ	-10.6471
rop	-10.6483
▁ಮಗನೂ	-10.6485
-2016	-10.6492
▁ಕೆವಿ	-10.6496
▁HTTP	-10.6496
▁ಶುಕ್ರವಾರ	-10.6503
▁December	-10.6503
▁ಜೀವದಾಣೆ	-10.6503
▁ಪ್ರೀಮಿಯಂ	-10.6503
▁ಫಾರ್ಮುಲಾ	-10.6503
▁ಬುಗ್ಗೆ	-10.6503
▁ಸಂವೇದಕ	-10.6503
▁ವೈರ್ಲೆಸ್	-10.6503
▁ಸೀರಿಯಲ್	-10.6504
▁ಯೆರಿಕೋ	-10.6504
▁ಗಾಜಿನ	-10.6504
▁ಕಾರ್ಮಿಕ	-10.6504
!!!	-10.6504
ಲಾರಂಭಿಸಿ	-10.6507
HS	-10.6508
▁ಉದ್ದೇಶಗಳಿಗಾಗಿ	-10.6508
▁ದೊಡ್ಡದಾಗಿ	-10.6512
van	-10.6512
▁ಉಪದೇಶ	-10.6514
ನ್ನೆತ್ತಿ	-10.6514
▁ಮುಂದಾಗಿ	-10.6515
▁ಬಹುಮಾನ	-10.6515
▁ಖಾತೆಯನ್ನು	-10.6516
avi	-10.6516
▁ಯೂದನ	-10.6519
▁ನೀನೂ	-10.6519
▁ವಾಟ್	-10.6521
ಗೊಡಿಸ	-10.6523
▁ನಿನಗೂ	-10.6523
▁ಯಾರಿಗೂ	-10.6527
kar	-10.6527
▁ಸರಕಾರ	-10.6528
tube	-10.6529
▁ಪೌ	-10.6532
▁ಮೋಸಮಾಡು	-10.6536
▁ನಾಡಿ	-10.6538
▁ಸ್ವಾಧೀನಮಾಡಿ	-10.6539
▁ಕ್ಲಿ	-10.6543
▁ಆಪಲ್	-10.6547
▁ವೃತ್ತಿ	-10.6552
qi	-10.6559
ಮಂಡಲ	-10.6565
▁ಆಲಯವನ್ನು	-10.6569
▁ಓಡಿಹೋಗ	-10.6571
text	-10.6572
▁ತಿಳಿದಿರುವ	-10.6572
file	-10.6573
ನಾಗಿದ್ದು	-10.6574
ಿಸುತ್ತಾರೆ	-10.6578
▁Company	-10.6585
▁YouTube	-10.6585
▁ತಲಾಂತು	-10.6585
▁ಫ್ರೆಂಚ್	-10.6585
▁ಆಲೋಚಿಸ	-10.6585
▁ಇನ್ನೊಬ್ಬ	-10.6586
▁ವಯಸ್ಕರ	-10.6586
▁ವಿಂಗಡಿಸ	-10.6586
ಪ್ಲಗಿನ್	-10.6586
▁ಓಪನ್	-10.6586
▁ಮನುಷ್ಯಕುಮಾರನ	-10.6586
▁ಬೇಸರ	-10.6586
▁ಹೊರಗಿನ	-10.6587
▁Opera	-10.6588
▁ಶಾಸ್ತ್ರಿಗಳ	-10.6588
▁ಹೊಯ್ಯ	-10.6591
ಬೇಕಾಗಿದೆ	-10.6596
▁ಹಂದಿ	-10.6598
▁ಬೆಳಗ	-10.6603
ವಾಗಿರಲಿ	-10.6604
ುತ್ತೀಯೋ	-10.6604
▁ಹಿಡಿಯುವ	-10.6607
▁ಮೀರಿ	-10.6607
▁ಕಟ್ಟಿಗೆ	-10.6614
▁ತೆರ	-10.6615
▁Best	-10.6619
▁ಜಿಬಿ	-10.6621
▁ಕಡಿಯ	-10.6624
ೇಶ್ವರ	-10.6626
▁Jun	-10.6628
▁ಸಂತೋಷದಿಂದ	-10.6631
▁King	-10.6636
▁ನಿತ್ಯವಾದ	-10.6639
ಕ್ಷೆ	-10.6649
▁WP	-10.6655
ಮೋನನ	-10.6657
▁080	-10.6658
name	-10.6667
ದ್ದೇನು	-10.6667
▁ಆಕರ್ಷಕ	-10.6668
▁ಎಸ್ತೇರಳ	-10.6668
▁ವಯಸ್ಸು	-10.6668
▁ಶಿಲುಬೆಗೆ	-10.6668
▁ಸ್ಕ್ವೇರ್	-10.6668
▁ಫಿಟ್ಟಿಂಗ್	-10.6668
▁ಎಷ್ಟರ	-10.6668
▁ರೋಲರ್	-10.6669
▁ಗೈಡ್	-10.6669
ನಾದರೂ	-10.667
▁ಬೆಟ್ಟಿಂಗ್	-10.6675
BO	-10.6678
ನ್ನಾಗಿಯೂ	-10.6682
▁ಎಲ್ಲರಿಗೂ	-10.6682
▁ಡೆಲ್	-10.6684
▁ಆತ್ಮೀಯ	-10.6686
▁ಮೌನ	-10.6687
▁ಬಿಚ್ಚ	-10.6687
▁ಹುಟ್ಟಿದನು	-10.6688
▁ಹುಟ್ಟುವ	-10.669
ಮಾನ್	-10.6691
▁ಹೇಳಿರಿ	-10.6693
▁1200	-10.6697
▁ಪೂರೈಸಲು	-10.6697
▁ಪ್ರಸ್ತಾಪವನ್ನು	-10.6697
▁ಕೇಸ್	-10.6698
ಬೇಕೆಂದಿದ್ದ	-10.6698
ಹೋಯಿತು	-10.6698
▁ಪ್ಲೇಟ್	-10.6703
▁ತಿನ್ನಬೇಕು	-10.6711
▁ಶಿಕ್ಷಕ	-10.6715
▁ವಿವರಗಳನ್ನು	-10.6719
▁ಉಳಿಸಲು	-10.6721
▁ಯಾಜಕರೂ	-10.6724
▁ಆರ್ಟ್	-10.6739
ಮೃತ	-10.6745
▁ಸಮೃದ್ಧ	-10.675
▁ಎಂದರೇನು	-10.6751
▁ಎಸ್ಎಂಎಸ್	-10.6751
▁ಶ್ರೀಮಂತ	-10.6751
▁ಕೆತ್ತಿದ	-10.6752
▁ಮಿಕ್ಕಾದ	-10.6757
▁ಹಿಗ್ಗ	-10.6758
▁ಬೇಗನೆ	-10.6758
▁ಪುರುಷರ	-10.6763
▁ಬಳಸುತ್ತೇವೆ	-10.6768
▁ಸಂಬಂಧಿಸಿದಂತೆ	-10.6768
▁RO	-10.6768
▁Live	-10.6769
ಝ್	-10.6774
–	-10.6785
ನಿಮಗೆ	-10.6785
▁ಅಡಗಿಸ	-10.6787
▁ಸುತ್ತಿಕೊಂಡ	-10.6791
▁ಕಾಪಿ	-10.6797
▁ಏನೋ	-10.6799
▁ಮಧ್ಯೆ	-10.68
8.00	-10.6802
▁ಮೆಚ್ಚ	-10.6808
ವಾಣಿ	-10.6808
▁ಶಾಂತ	-10.6811
▁ಖಚಿತಪಡಿಸಿಕೊಳ್ಳಿ	-10.6813
▁ನಿರ್ಮಿಸಲು	-10.6814
▁ದೃಷ್ಟಿಗೆ	-10.6815
▁ಮಾಡುವುದ	-10.6821
▁ಪ್ರೋ	-10.6826
▁ಹೇಳಿಕೆ	-10.6827
Pieces	-10.6829
ಕಾಯಿ	-10.6833
▁ಅನುಯಾಯಿಗಳು	-10.6835
▁ಟರ್ಮಿನಲ್	-10.6835
▁ತಾತ್ಕಾಲಿಕ	-10.6835
▁ದಮಸ್ಕ	-10.6835
▁ದೊರೆತ	-10.6835
▁ಬಿರುಗಾಳಿ	-10.6835
▁ಬಿಳಾಮನ	-10.6835
▁ಮನುಷ್ಯಪುತ್ರನೇ	-10.6835
▁ಮಹೋನ್ನತ	-10.6835
▁ಸಂಪರ್ಕವಿಳಾಸ	-10.6835
▁ಸಗಟು	-10.6836
▁ಹೊರಟುಹೋಗಿ	-10.6841
▁ಶೀತ	-10.6841
▁ಪ್ರತಿಯೊಬ್ಬನ	-10.6842
▁ಪುನರ್	-10.6849
▁ವೇರ್	-10.6852
▁ಮಾಡಲಾಗುತ್ತಿದೆ	-10.6855
ದಾಗ್ಯೂ	-10.6858
▁ಆದರಣೆ	-10.6859
▁ಸೇರಿವೆ	-10.686
▁ಊಹಿಸ	-10.686
▁ಉಳ್ಳ	-10.6861
ಿಸುತ್ತವೆ	-10.6862
▁ಪುನರ	-10.6869
▁ಹೇಳಿದ್ದೇ	-10.6873
▁ಇಸ್ರಾಯೇಲನ್ನು	-10.6873
▁ಬರುವಾಗ	-10.6879
rom	-10.6882
▁ಉಪಯೋಗ	-10.6882
ಖಂಡ	-10.6883
▁Hot	-10.689
▁ಆಂಟಿ	-10.6894
▁ನಿಗೂ	-10.6902
▁ಡೇವಿಡ್	-10.691
ವಾಗಿರಬೇಕು	-10.6915
▁ರೆಸಲ್ಯೂಶನ್	-10.692
▁ಟಗರುಗಳ	-10.692
▁ಪರಿಮಾಣ	-10.692
▁ಟೂಲ್	-10.692
▁ವಂಚನೆ	-10.692
▁about	-10.692
▁ಥ್ರೆಡ್	-10.6921
Lights	-10.6921
▁ಅಗ್ಗದ	-10.6922
▁ಫ್ಲವರ್	-10.6926
▁ಹುಳ	-10.6929
▁ಬಿಲ್ಲು	-10.693
▁ರೋಡ್	-10.6931
BS	-10.6935
▁ಯೆಹೂದ್ಯ	-10.6936
▁10000	-10.6936
▁ಹೆಂಡತಿಯರ	-10.6938
▁more	-10.694
▁ಇದ್ದದರಿಂದ	-10.6944
▁ಕಡೇ	-10.6947
▁ದಿಕ್ಕಿನಲ್ಲಿ	-10.6969
▁ನಿಷ್ಕ್ರಿಯ	-10.6973
ುವದಿಲ್ಲವೋ	-10.6973
▁ಅಮೆರಿಕನ್	-10.6973
ಿದ್ದಾನೆಂದು	-10.6976
0.5	-10.6979
ಂಬ್	-10.6982
▁ಹಂಚಿಕೆ	-10.6985
▁ಮಾಡಬೇಡ	-10.6986
▁ತೆಗೆದ	-10.6988
eas	-10.6991
2000	-10.6993
▁ಮಾಡಿದ್ದೇನೆ	-10.6993
▁ಧರಿಸ	-10.7003
ಿದಳು	-10.7003
▁Copyright	-10.7006
▁ಅಂಜೂರ	-10.7006
▁ವಿಸ್ತಾರ	-10.7006
▁ಚಳಿಗಾಲ	-10.7006
▁ಮುಂದುವರಿಯ	-10.7006
▁ಮಾತ್ರವಲ್ಲದೆ	-10.7006
▁ಆತಂಕ	-10.7006
▁ಪವಿತ್ರಾತ್ಮನ	-10.7006
▁ವಂಶಾವಳಿ	-10.7006
▁ಅಶ್ಶೂರಿನ	-10.7011
▁ಟೆಲ್	-10.7012
ahi	-10.7014
▁ಒಳಗೊಂಡಿರುವ	-10.7015
▁ಪಾಲುದಾರರ	-10.7019
IG	-10.7026
▁ನಾಚಿಕೆಪಡ	-10.7028
ಅವನ	-10.7031
▁ಸಬ್	-10.7032
▁ಏರಿಯಾ	-10.7036
▁ಹಕ್ಕಿ	-10.7036
kw	-10.7038
▁ಭಯಪಡಬೇಡ	-10.704
ಮುಖ್ಯ	-10.7043
3.0	-10.7046
ಹೊಂದಾಣಿಕೆ	-10.7047
ಪ್ರಸ	-10.705
▁ಅಪ್ಪ	-10.705
▁ಮಾಡುತ್ತಾ	-10.706
ೆಕ್ಟರ್	-10.706
FL	-10.7072
▁ಎತ್ತರವಾದ	-10.7075
▁ಚಿಂತೆ	-10.7075
▁ಮೇಯಿಸ	-10.708
▁ದೇಶದಿಂದ	-10.7082
ುವದಾದರೆ	-10.7083
▁ಹೊರಡುವ	-10.7085
▁ತಿಳಿದುಕೊಂಡ	-10.7085
г	-10.7092
з	-10.7092
▁Service	-10.7092
▁ಇತ್ತೀಚೆಗೆ	-10.7092
▁ಎಂಜಿನಿಯರಿಂಗ್	-10.7092
▁ಮುಂದುವರಿದ	-10.7092
▁ಸಭಾಮಂದಿರ	-10.7092
▁ಶನಿವಾರ	-10.7092
▁ಕ್ರೀಮ್	-10.7092
▁ಸ್ನಾಯು	-10.7092
▁ಅಡುಗೆ	-10.7092
▁ಖಚಿತವಾಗಿ	-10.7093
count	-10.7095
gram	-10.7095
="1	-10.7097
▁ವಿನಂತಿ	-10.7099
▁ಹೋಸ್ಟ್	-10.7107
▁ಮಲಗುವ	-10.7113
▁was	-10.7115
▁3000	-10.7116
ಬರ್ಗ್	-10.7119
▁ನನಗೂ	-10.7122
▁ಮರೆಯಬೇಡಿ	-10.7147
▁ಮಾಡುತ್ತಿರುವ	-10.7154
GL	-10.7159
▁Slot	-10.7161
▁ಇಟ್ಟುಕೊಳ್ಳ	-10.7163
LN	-10.7167
▁ಅಪೊಸ್ತಲರ	-10.7171
▁ಮಾಡಿದ್ದೀ	-10.7175
▁ಅಂಕಿಅಂಶ	-10.7179
▁ಚುನಾವಣೆ	-10.7179
▁ಮೊರ್ದೆಕೈ	-10.7179
▁ವಾದ್ಯಸಂಗೀತ	-10.7179
▁ವಿಜೇತ	-10.7179
▁ಸಂಭಾವ್ಯ	-10.7179
▁ವರ್ಕರ್ಸ್	-10.7179
▁ಗರ್ಭಿಣಿ	-10.7179
▁ಲಂಡನ್	-10.7179
▁Yobt	-10.7179
google	-10.7179
▁ಕರುಣಿಸ	-10.7179
▁ಆಚರಣೆ	-10.7179
▁ಭುಜ	-10.7179
▁ಸಾವಿರಾರು	-10.7179
▁ಹಗಲು	-10.718
▁Off	-10.7187
ಲಾರನು	-10.7187
▁ಬದಲಿಸ	-10.7189
PCS	-10.7191
LT	-10.7196
▁ಹಾಕಲ್ಪಟ್ಟ	-10.7202
00,000	-10.7204
▁ಮನವಿ	-10.7211
▁ಭೂಮಿಗೆ	-10.7222
▁ಹರಿಯ	-10.7232
▁ಜ್ಞಾನಿಗಳ	-10.7238
ಹೈ	-10.7241
0.2	-10.7241
▁ಸ್ನೇಹಿತನ	-10.7256
▁ಎತ್ತುವ	-10.7265
▁window	-10.7267
▁ಅಬೀಮೆಲೆಕನ	-10.7267
▁ಕ್ರಿಸ್ಮಸ್	-10.7267
craft	-10.7267
▁National	-10.7267
▁ತಡೆಗಟ್ಟ	-10.7267
▁ಆಟಗಾರರು	-10.7267
▁ಯೇಲ್	-10.7267
▁ಬಜೆಟ್	-10.7267
▁ಬೂದಿ	-10.7267
▁ವರ್ಲ್ಡ್	-10.7268
hua	-10.7268
▁ಸದಾಕಾಲ	-10.7268
▁ಸಂರಚನಾ	-10.727
▁ಮಹಾನಗರ	-10.7272
▁ಹೂಣಿಟ್ಟರು	-10.7278
138	-10.7279
UI	-10.728
▁ಕ್ರಾಸ್	-10.729
ಿರಲು	-10.7295
ada	-10.7295
▁ಹೇಳಿದೆನು	-10.73
▁UK	-10.7302
ಸ್ಕ್ರಿಪ್ಟ್	-10.7319
▁ತೋರಿಸುವ	-10.733
ುತ್ತೇನೆಂದು	-10.735
▁ಬಯಸಿದ	-10.7352
▁ಯೆಹೂ	-10.7353
▁Copyshop	-10.7355
▁Omegle	-10.7355
▁ಅದೃಷ್ಟ	-10.7355
▁ನೋಂದಾಯಿಸ	-10.7355
▁ದೇವದಾರು	-10.7355
▁check	-10.7355
▁ಆರ್ಭಟ	-10.7355
▁ಶಾಸ್ತ್ರೀಯ	-10.7355
▁ವೈರಸ್	-10.7356
▁ವಿಫಲಗೊಂಡಿದೆ	-10.7356
▁ಅಂಚು	-10.7356
▁ಇರಿಸಿಕೊಳ್ಳಲು	-10.7356
▁ಕ್ಲಬ್	-10.7361
▁ಪ್ರಕೃತಿ	-10.7361
▁ಧ್ಯಾನ	-10.7362
train	-10.7362
▁ಶಂಕರ	-10.7372
▁ಪಾಪಮಾಡಿ	-10.7377
▁Viva	-10.7381
▁ಖರೀದಿಸಲು	-10.7385
▁=&	-10.7388
▁ನೆಲೆಗೊಂಡಿ	-10.7391
table	-10.7392
ೆಂಬದನ್ನು	-10.7393
▁GB	-10.7405
ium	-10.7406
▁ಮಾಡಬೇಕೆಂದು	-10.7411
ಆತನು	-10.7416
▁ಬೈಕ್	-10.7421
▁ಸಾಲಿನ	-10.7434
▁ಎಂಥ	-10.7441
ಂಬೆ	-10.7441
▁ನೋಡಬಹುದು	-10.7442
▁Kazan	-10.7444
▁ಟ್ಯುಟೋರಿಯಲ್	-10.7444
▁ಪ್ರಾಯೋಗಿಕ	-10.7444
▁ಚಿದ್ಕೀಯನ	-10.7444
▁HTML	-10.7444
▁ಪರಿವರ್ತಕ	-10.7444
boss	-10.7446
▁ಕೂಡಾ	-10.7446
▁online	-10.7447
▁ದೃಢೀಕರಣ	-10.7447
▁ಬೀಚ್	-10.7449
ನಂತರ	-10.7451
▁ಕೂಲಿಂಗ್	-10.7451
▁ಕ್ವಾ	-10.7453
▁ತಿಳಿಯದೆ	-10.7455
▁ಪ್ರೀತಿಸುವ	-10.7456
▁ಮಟ್ಟಿಗೂ	-10.7456
▁Read	-10.7458
▁ಯಂತ್ರೋಪಕರಣಗಳು	-10.7463
ಬೇಕೋ	-10.7482
ನಾಥ	-10.7487
▁ಇಬ್ಬರ	-10.7487
▁ಬಲ್ಲೆ	-10.7489
▁Comp	-10.7489
▁ಭಯಪಟ್ಟ	-10.7496
ಅಥವಾ	-10.7502
▁ಶೆಲ್	-10.7503
▁May	-10.7504
▁ಬಳಕೆಗೆ	-10.7513
▁ಮುದ್ರಿಸ	-10.7514
▁ದುಷ್ಟತ್ವ	-10.752
ಷೀ	-10.752
ಿರುವದರಿಂದ	-10.7531
link	-10.7531
1.1	-10.7534
▁ಪಾರದರ್ಶಕ	-10.7534
▁ಯುಗಯುಗಕ್ಕೂ	-10.7534
▁ಕ್ರಮವಿಧಿ	-10.7534
▁ತೊಳೆದು	-10.7534
▁ಹೆಸರಿಟ್ಟನು	-10.7534
▁ಚಾರ್ಜರ್	-10.7534
▁ಹೋರಾಟ	-10.7534
▁ಫೀಡರ್	-10.7534
▁ಬೋಯಿಂಗ್	-10.7535
▁ಸ್ವಿಚ್	-10.7535
▁Update	-10.7535
▁ಅಚ್ಚು	-10.7535
▁ಮೇಜಿನ	-10.754
Sky	-10.754
▁ಶ್ರಮೆ	-10.7542
ಲ್ಪಡುವದಿಲ್ಲ	-10.7545
▁ಸೂಕ್ತವಾಗಿದೆ	-10.7547
▁ಇಸ್ರಾಯೇಲಿಗೆ	-10.7563
ನಿಶ್	-10.7566
▁ನಾಶಮಾಡುವ	-10.7568
IE	-10.7568
rr	-10.7578
▁ಸ್ಮರ	-10.7582
▁5.5	-10.7595
▁ಮಾಜಿ	-10.7597
▁RM	-10.7605
▁ಬೆನ್ಯಾವಿಾನ	-10.7609
▁ಅಳೆಯ	-10.7616
▁ಫಿಲಿಷ್ಟಿ	-10.7616
▁ಸನ್ನಿವೇಶ	-10.7625
▁ಔಟ್ಪುಟ್	-10.7625
▁ಖರ್ಚು	-10.7625
▁ಡೊಮೇನ್	-10.7625
▁ಮುಂಜಾಗ್ರತೆ	-10.7625
▁Infinite	-10.7625
▁service	-10.7625
▁ಪ್ರತಿಷ್ಠೆ	-10.7625
▁ಗ್ರೀನ್	-10.7625
▁ಪರಕೀಯ	-10.7625
▁ರಬ್ಬರ್	-10.7625
▁ಆದದ್ದೇನಂದರೆ	-10.7626
▁ಚಾನಲ್	-10.7626
▁ಹೀಗಿರಲಾಗಿ	-10.7626
▁ಲೇಬಲ್	-10.7626
▁ಮಿರರ್	-10.7626
▁ನಿರ್ಮೂಲ	-10.7626
▁ಮೂಢ	-10.7628
▁ಹಗಲಿ	-10.7629
▁ಜಿಬಿಪಿ	-10.7631
0-3	-10.7634
ಸ್ತ್ರೀ	-10.7635
▁ಮಹತ್ತ	-10.7639
star	-10.7646
▁ಹಾದುಹೋಗ	-10.7647
▁ಅನ್ಯಜನಾಂಗಗಳ	-10.7667
▁dev	-10.7679
ಖ್ಯಾತ	-10.7681
▁ಬರಮಾಡಿ	-10.7682
▁ಕೂದಲ	-10.7683
▁ಮಾಡುವುದಿಲ್ಲ	-10.7687
в	-10.7689
▁ತಕ್ಕಂತೆ	-10.7703
▁ತಿರುಗಿಸಿ	-10.7707
qui	-10.7716
▁ರಿಸರ್ಚ್	-10.7717
▁ಇನ್ಪುಟ್	-10.7717
▁ಶಿಪ್ಪಿಂಗ್	-10.7717
▁ಗ್ರೂಪ್	-10.7717
▁ಗಡಿಯಾರ	-10.7717
▁ಹೂಣಿಡ	-10.7717
▁ಜರ್ಮನ್	-10.7717
atercolor	-10.7718
▁ಪೌಡರ್	-10.7718
▁ಸಾಹಸ	-10.7719
▁Yep	-10.7724
ವನಾಗಿದ್ದಾನೆ	-10.7729
▁ನೀಡಲಾಗುತ್ತದೆ	-10.7731
▁(3)	-10.7732
▁ಕಾಫಿ	-10.7732
▁ಖಂಡಿತವಾಗಿಯೂ	-10.7735
VAC	-10.7738
▁ಮನೆತನ	-10.7744
▁ಹೆಸರಿನಿಂದ	-10.7745
ಿರುವುದರಿಂದ	-10.7749
▁ಪರಿಚಯಿಸ	-10.7772
▁ಅಭಿಷೇಕಿಸ	-10.7776
ಮಟ್ಟದ	-10.7784
▁ಕೂಡಿಸುವ	-10.7789
▁ಮುಗಿಸ	-10.7792
▁ಅರಮನೆಯ	-10.7803
▁ವೃದ್ಧಿ	-10.7809
ಚಪ್ಪಾಳೆ	-10.781
▁ಸ್ಪರ್ಧೆ	-10.781
▁MYHH	-10.781
▁ಕ್ಲೈಂಟ್	-10.781
▁ಪಿಡಿಎಫ್	-10.781
▁ನೃತ್ಯ	-10.781
▁ನೇಮಕಾತಿ	-10.781
▁ಮುತ್ತಿಗೆ	-10.781
▁ಉಣ್ಣೆ	-10.781
▁ಹಾಳಾದ	-10.781
▁ತಿಳುಕೊಂಡ	-10.781
▁ಇದಕ್ಕಾಗಿ	-10.7812
▁ಒಯ್ದ	-10.7812
▁ದ್ವಿ	-10.7812
▁ಹರ್ಷ	-10.7813
▁ದಾಳಿ	-10.7814
▁ಕಳೆದುಕೊಳ್ಳ	-10.7816
▁ಬೇಟೆ	-10.7819
china	-10.7819
▁ಶಾಲಾ	-10.7821
ಭೋಗ	-10.7824
▁ಬಾಧಿಸ	-10.7826
▁ನೊಗ	-10.7826
▁ಹೆಂಡತಿಯಾಗಿ	-10.7831
▁More	-10.7837
▁4.0	-10.7844
▁ಬರೆದಿರುವ	-10.7845
0.8	-10.7856
▁Shi	-10.7858
▁ವೈರಿಗಳ	-10.787
▁ಊಟಮಾಡ	-10.7871
▁ಹುಡುಕುತ್ತಿರುವುದ	-10.7871
ಕೇಳಲು	-10.7882
ಸುಮಾರು	-10.7882
III	-10.7884
▁ಬಡವನ	-10.7886
▁ಅಸ್ತಿತ್ವ	-10.7889
▁ಬಲವುಳ್ಳ	-10.7893
▁Changzhou	-10.7903
▁Published	-10.7903
▁ಅನುಮೋದನೆ	-10.7903
▁ಗುವಾಂಗ್ಡಾಂಗ್	-10.7903
▁ಘೋಷಿಸ	-10.7903
▁ತಿರುಕ್ಕುಱಳ್	-10.7903
▁ಬಾಬೆಲಿಗೆ	-10.7903
▁ಅಧಿಸೂಚನೆ	-10.7903
▁ಎದುರಿನಲ್ಲಿ	-10.7903
▁ಟೂರ್	-10.7903
html	-10.7903
▁FAQ	-10.7903
▁ನನಗೋಸ್ಕರ	-10.7903
WHSR	-10.7903
▁ಟೇಪ್	-10.7904
▁ಲಕ್ಷ್ಯ	-10.791
▁ಸೇರಿಸಲಾಗಿದೆ	-10.792
▁ಕಂಡೆನು	-10.7925
▁ಸಂಧಿಸ	-10.7925
▁ಎಲೆಕ್ಟ್ರಾನಿಕ್ಸ್	-10.7928
▁ಬೆರಳು	-10.793
▁ಬೊಗ್ಗಿ	-10.7932
▁ಸದಾ	-10.7933
▁ಕುಕೀ	-10.7939
▁ಹೀಗಾಗಿ	-10.7947
tai	-10.7955
ART	-10.7956
▁ಐಗುಪ್ತಕ್ಕೆ	-10.7956
▁Or	-10.7957
rate	-10.7958
▁ಅವಧಿಯಲ್ಲಿ	-10.7963
▁ತೋರಿಸಿದ	-10.7965
ಯಾವುದೇ	-10.798
▁Evolution	-10.7997
▁ಅಬ್ನೇರನ	-10.7997
▁ನಡವಳಿಕೆ	-10.7997
▁ಪರಿಶೀಲನೆ	-10.7997
▁ಪ್ರಾಮಾಣಿಕ	-10.7997
▁ಮಾಲೀಕತ್ವ	-10.7997
▁ಸರ್ವಶಕ್ತನ	-10.7997
▁ಪ್ರಾಚೀನ	-10.7997
▁ವರ್ತಮಾನ	-10.7998
▁ಚರ್ಚಿಸ	-10.7998
▁ಬಾಹ್ಯ	-10.7998
▁ಒಟ್ಟುಗೂಡಿ	-10.7998
▁ಕಂಡುಬಂದ	-10.7998
▁ಜಾನ್ಸನ್	-10.7999
Ltd	-10.8
▁ಉಳಿಸಿಕೊಳ್ಳ	-10.8002
▁ಹೊತ್ತುಕೊಂಡು	-10.8004
▁ನೋಹನ	-10.8005
Sales	-10.8006
▁ಓದುಗರ	-10.8008
ುವದಕ್ಕೋಸ್ಕರ	-10.8009
ಾಗಿರಬಹುದು	-10.8011
▁ಕೊಳವೆ	-10.8013
▁ಅಂದಾಗ	-10.8022
▁ಪ್ರಕಾರವಾಗಿಯೂ	-10.8029
▁ಗುಡ್	-10.8032
▁ವ್ಯಾಟ್	-10.8033
▁ಸುರಿಯ	-10.8036
▁ದಂಡನೆ	-10.8046
▁ಎಚ್ಚರಿಸ	-10.805
▁ನಿರ್ಣಯಿಸ	-10.8063
ಬೆಳ	-10.8063
ಬುದ್ಧಿ	-10.8076
▁ದಾಖಲ	-10.8076
Description	-10.8093
Private	-10.8093
▁ಜ್ವಾಲೆ	-10.8093
▁ದೈಹಿಕ	-10.8093
▁ಪಶ್ಚಾತ್ತಾಪ	-10.8093
▁ಫಿಟ್ನೆಸ್	-10.8093
▁ಫೆಬ್ರುವರಿ	-10.8093
▁ವ್ಯಾಖ್ಯಾನ	-10.8093
▁ಸಂಭಾಷಣೆ	-10.8093
▁ಜೀಸಸ್	-10.8093
▁ಲೆಕ್ಕಿಸ	-10.8093
▁ಇಂಚು	-10.8093
▁ಪಾಸ್ವರ್ಡ್	-10.8094
▁Up	-10.8094
▁ವೈಭವ	-10.8095
ಶುರಾ	-10.8095
▁ಕೃತಿಗಳು	-10.8097
▁ಹಾಮಾನನ	-10.8098
▁ಮರಳು	-10.8101
▁ವಾಸಮಾಡುವ	-10.8102
▁ಬ್ರಷ್	-10.8107
▁ಸಿಗುತ್ತದೆ	-10.8108
▁ಮಾರ್ಕ್	-10.8108
cap	-10.8109
▁ಉದ್ದೇಶಕ್ಕಾಗಿ	-10.8109
▁ಮಹಿಳೆಯರಿಗೆ	-10.8112
▁ರೆಡ್	-10.8116
▁ಬಳ್ಳಿ	-10.8117
▁ಗ್ರೇಡ್	-10.812
▁ಮಾಡಲಾಯಿತು	-10.8123
▁Jan	-10.8123
▁ಮೆಗಾ	-10.8125
▁3.5	-10.813
ದಿರು	-10.813
ೂನನ	-10.813
ough	-10.8133
▁Jet	-10.8135
▁ಕತ್ತರಿಸುವ	-10.8136
ities	-10.8142
ಫಿಲ್	-10.8153
▁ಆನಂದಿಸ	-10.8153
▁ಪ್ರಸ್ತಾಪ	-10.8155
ಮೆನ್	-10.8156
ಅಳಿಸಿಬಿಡು	-10.8163
▁ಆರಿಸಿಕೊಂಡ	-10.8175
▁ಕ್ರೋ	-10.8182
ದ್ರಾಕ್ಷ	-10.8189
ч	-10.8189
▁ಉಂಗುರ	-10.8189
▁ಜನಸಮೂಹ	-10.8189
▁ಮುಂಚಿತವಾಗಿ	-10.8189
▁ಏಷ್ಯನ್	-10.8189
▁ಸುಜುಕಿ	-10.8189
▁Key	-10.8189
▁ಸಂರಚಿಸು	-10.8189
▁Charg	-10.8191
▁ಕೋರಿಕೆಯ	-10.8192
▁ಒಂಟೆಗಳ	-10.8193
▁ಒಪ್ಪಿಕೊಳ್ಳ	-10.8194
▁ಜಂಟಿ	-10.8194
ಿಸಲಾಗುತ್ತದೆ	-10.8195
ಿರಲಾಗಿ	-10.8196
▁ಕ್ಯಾಂಡಿ	-10.8198
▁ಯೆರೂ	-10.82
▁ಪ್ರತಿರೂಪ	-10.8201
PH	-10.8201
▁ಐಗುಪ್ತದಿಂದ	-10.8206
ಲ್ಪಡುತ್ತವೆ	-10.8215
ಿಗಾದರೂ	-10.822
▁Bio	-10.8222
▁ಒತ್ತಾಯ	-10.823
▁IE	-10.824
▁ಆಶಿಸ	-10.824
▁ಮುಟ್ಟಿದ	-10.8247
▁ಆಜ್ಞಾ	-10.8249
145	-10.8251
1-2	-10.8257
ಜೊ	-10.8266
▁ಆಮ್ಲಜನಕ	-10.8286
▁ಉಳಿತಾಯ	-10.8286
▁ಒಳಾಂಗಣ	-10.8286
▁ಸಮತೋಲನ	-10.8286
▁ಷೇರು	-10.8286
▁ನಿಭಾಯಿಸ	-10.8286
▁ಮೆಮೊರಿ	-10.8286
▁ಲಾಬಾನನ	-10.8286
▁ಕಾಗದದ	-10.8286
View	-10.8286
▁ಕಾರ್ಯದರ್ಶಿಗಳ	-10.8286
▁ವ್ಯಸನ	-10.8286
▁ಮಾಸ್ಕ್	-10.8286
▁ರೂಂ	-10.8287
▁ಚಿಂತಿಸ	-10.8288
▁ಚಲನೆ	-10.8288
▁ಮರಿಯಳ	-10.829
ology	-10.8291
▁ಸೆಟ್ಟಿಂಗ್	-10.8291
▁ಹ್ಯಾಕರ್	-10.8294
▁ಊರಿನ	-10.8295
▁ತಕ್ಷಣವೇ	-10.8296
▁ಕೊರಿಯಾ	-10.8298
▁ಹಾರುವ	-10.8305
ಮೈಲ್	-10.8311
▁ನೆಲಕ್ಕೆ	-10.8313
▁ರಚನ	-10.8323
▁ಪೇತ್ರನ	-10.8325
▁ಬಂದಿದ್ದ	-10.8325
▁has	-10.8327
▁ರವರೆಗೆ	-10.8328
ಿದ್ದೇನೆಂದು	-10.8336
ಸ್ವಾಮಿ	-10.8351
▁ಬೇಯಿಸ	-10.8353
▁ನೂಲು	-10.8373
ತಂತ್ರ	-10.8375
(1)	-10.8378
kanna	-10.8383
▁ಅಭ್ಯರ್ಥಿ	-10.8384
▁ಅಲ್ಯೂಮಿನಿಯಂ	-10.8384
▁ಎಲೆಕ್ಟ್ರಿಕ್	-10.8384
▁ಐಷಾರಾಮಿ	-10.8384
▁ಮಂಗಳವಾರ	-10.8384
▁ದ್ವೇಷ	-10.8384
▁ಎಣ್ಣೇ	-10.8384
▁ಹಣ್ಣಿನ	-10.8384
▁ದಯಮಾಡಿ	-10.8384
▁ಇಟಲಿ	-10.8385
▁ಕಣ್ಣೀರ	-10.8386
▁ಬಿಸಾಡ	-10.8388
▁ವ್ಯವಸ್ಥಾ	-10.8388
▁ಬಳಸುವುದನ್ನು	-10.8391
▁ಲೈಫ್	-10.8392
▁ಹೊಂದಬಲ್ಲ	-10.8393
▁ತರಕಾರಿ	-10.8395
▁ಕಟ್ಟಿಸಿದನು	-10.8396
ship	-10.8403
soft	-10.8407
ಎಸ್ಎಸ್	-10.8409
Host	-10.841
▁ಕುಳಿ	-10.8411
▁ಮಾರ್ಪಡಿಸ	-10.8415
▁ಹೊಂದಿದ್ದರೆ	-10.8422
▁Bill	-10.8423
▁ಮಾಡುವದಕ್ಕೂ	-10.8425
▁ಅದಕ್ಕಾಗಿ	-10.8429
format	-10.8429
ಒಡೆಯನೇ	-10.8443
▁ಜಾಲರಿ	-10.8447
▁ಒಪ್ಪಿಸಿಕೊಡ	-10.8451
▁ಘನಪಡಿಸ	-10.8453
▁ಮಾರಾಟಗಾರ	-10.8466
ಾಗಿರಲಿ	-10.8472
▁ಕೇಡಿನ	-10.8478
▁January	-10.8483
▁OpenMandriva	-10.8483
▁ಆಳ್ವಿಕೆಯ	-10.8483
▁ಪೀಠೋಪಕರಣ	-10.8483
▁ಫೌಂಡೇಶನ್	-10.8483
▁ಡೈಮಂಡ್	-10.8483
▁SQL	-10.8483
▁ದೆಸೆಯಿಂದ	-10.8483
▁THB	-10.8483
▁ಕೀಲಿಕೈ	-10.8484
▁rich	-10.8485
▁ವಂದಿಸ	-10.8486
▁ಏಳನೆಯ	-10.8487
▁ಪರೀಕ್ಷಾ	-10.8487
▁ಪ್ರಾಕ್ಸಿ	-10.8487
▁ಒಂಟಿ	-10.849
ಸ್ಥಿತಿ	-10.8491
▁ಶುದ್ಧೀಕರಣ	-10.8491
▁ಪಾಠ	-10.8493
▁ರಿಲೇ	-10.8497
ature	-10.8511
▁One	-10.8512
▁ಅರ್ಹ	-10.8515
ವಾಗಿರ್ರಿ	-10.8516
▁Page	-10.8527
▁ಧರಿಸಿಕೊಂಡ	-10.8537
ಗಳಾಗಿದ್ದವು	-10.8547
▁ನಿರ್ಬಂಧ	-10.8568
ಶಿಪ್	-10.8574
ಿಸಲಾದ	-10.8582
▁ಟೆಂಪ್ಲೇಟ್	-10.8583
▁ವಿಂಟೇಜ್	-10.8583
▁ಬ್ರೌನ್	-10.8583
▁ಒಕ್ಕೂಟ	-10.8583
▁ಸತ್ತುಹೋದ	-10.8583
▁123456	-10.8584
▁ಅಪ್ಪಣೆಕೊಟ್ಟ	-10.8587
▁ಟಿಕೆಟ್	-10.8589
▁ಸೈನ್ಯಾಧಿಪತಿ	-10.8591
▁ತೋರುತ್ತದೆ	-10.8609
▁SMS	-10.8615
6.0	-10.8631
▁ಸಾಲಿನಲ್ಲಿ	-10.865
▁ಮೂಡ	-10.8656
▁ನೆರಳ	-10.8657
ASS	-10.8675
wysluxury	-10.8684
▁KPCL	-10.8684
▁ಥಾಮಸ್	-10.8684
▁ಮರುಪಾವತಿ	-10.8684
▁ಶತಮಾನದ	-10.8684
▁ಸಂಕೀರ್ಣ	-10.8684
▁Minecraft	-10.8684
▁ಯೋಷೀಯನ	-10.8684
▁ಅಭಿಮಾನಿ	-10.8684
▁ಸಿಮೆಯೋನ	-10.8684
▁tips	-10.8684
▁ಪೂರ್ತಿ	-10.8684
▁ಸಂಪರ್ಕತಟ	-10.8684
Rider	-10.8684
▁ದೂರದರ್ಶನ	-10.8686
▁ಪ್ರೆಸ್	-10.8687
▁This	-10.8687
▁ಕಣ್ಣಿನ	-10.8688
ವೃತ್ತ	-10.8691
▁ದುಷ್ಟತನ	-10.8695
▁ಅಧಿಪತಿಯಾದ	-10.8699
ಮಕ್ಕಳ	-10.8705
▁ಹೋಗೋಣ	-10.8711
▁ಹೆಸರುಳ್ಳ	-10.8716
▁ಹಿಜ್ಕೀಯನ	-10.8725
▁ಕುಳಿತ	-10.8735
▁ಮುರಿದ	-10.8741
▁ಮೊಳೆ	-10.8755
medicine	-10.8786
▁Instagram	-10.8786
▁ಕಾಕ್ಪಿಟ್	-10.8786
▁ತಾಳ್ಮೆ	-10.8786
▁ಪ್ರಾಜೆಕ್ಟ್	-10.8786
▁ಮಾನಸಾಂತರ	-10.8786
▁ರೆಕಾರ್ಡ್	-10.8786
▁ಸಾಂಸ್ಕೃತಿಕ	-10.8786
▁ಪ್ರವೃತ್ತಿ	-10.8786
▁ಫ್ಲಾಟ್	-10.8786
▁ಮುಖ್ಯಾಂಶಗಳು	-10.8786
▁ಎಂಬುದರ	-10.8787
ಾಗಿರುವದರಿಂದ	-10.8788
▁ದ್ರವ್ಯ	-10.8791
SGD	-10.8791
▁ಕುಷ್ಠ	-10.8792
▁ಪ್ರಕರಣ	-10.8793
▁ಪ್ರೇಕ್ಷಕರ	-10.8795
ನನಗೆ	-10.8801
ುತ್ತಿದ್ದೆ	-10.8803
▁ಮಾನ್ಯತೆ	-10.8803
▁GST	-10.8807
▁user	-10.8819
▁ಹೊಂದಿದ್ದಾರೆ	-10.8844
▁ಪ್ರಮಾಣಮಾಡಿದ	-10.8848
elec	-10.8852
ಿಬ್ಬರ	-10.8869
▁ಯಶಸ್ವಿ	-10.888
▁ಮಾಡಬೇಕಾದ	-10.8887
▁Jizerou	-10.8889
▁Piwigo	-10.8889
▁SlotJar	-10.8889
▁ಪ್ರಾತಿನಿಧ್ಯ	-10.8889
▁episode	-10.8889
▁years	-10.8889
▁ಕ್ಷಾಮ	-10.8889
▁ಚಾದೋಕನ	-10.8889
▁ಮುಂಬೈ	-10.8889
▁ಮಾಡ್ಯೂಲ್	-10.8889
▁ಇದೀಗ	-10.8889
▁ಜೇಮ್ಸ್	-10.8889
▁ಎಲ್ಲಾಜಾರನ	-10.8889
▁ಉಪ್ಪು	-10.8889
▁ದುರ್ಬಲ	-10.889
ಿಸುತ್ತಾ	-10.889
▁ಒಳಗಿನ	-10.889
▁ನಿತ್ಯಜೀವ	-10.8891
Color	-10.8893
▁ಔಷಧೀಯ	-10.8897
▁ಅನುವು	-10.8898
▁ಪೌಂಡ್	-10.8898
▁ಕೇಳಿದೆನು	-10.8903
▁ದೇಶದೊಳಗಿಂದ	-10.8908
▁ಎಚ್ಚರಿಕೆಯಿಂದ	-10.8909
▁ತ್ತಾರೆ	-10.8922
▁ನಡಿಸಿದ	-10.8924
▁ಅಭಿಷೇಕ	-10.8927
▁ಎಫ್ರಾಯಾಮ್	-10.8946
▁ಮಿಕ್ಕ	-10.8953
რ	-10.8993
▁Energy	-10.8993
▁ಪಾರಿವಾಳ	-10.8993
▁ವಾಲ್ಪೇಪರ್	-10.8993
▁ಹೊರಾಂಗಣ	-10.8993
▁ಕ್ರಿಯಾತ್ಮಕ	-10.8993
▁ಯೋಜಿತ	-10.8993
▁ತೊರೆದು	-10.8993
▁ತಜ್ಞರು	-10.8993
▁ಕಿನ್ನರಿ	-10.8993
▁ಸಮ್ಮತಿ	-10.8994
▁ವಿತರಕ	-10.8994
ಿಗರಂ	-10.8994
▁ದುಬೈ	-10.8994
▁ಬೆಚ್ಚಗ	-10.8996
▁Porn	-10.8996
▁ವಿತರಿಸ	-10.8997
▁PRO	-10.8998
▁ಒಬ್ಬನಾದರೂ	-10.9003
▁ನಿಂತುಕೊಂಡು	-10.9004
ಾಧಿಕಾರಿ	-10.9005
▁ಬೇಸಿಗೆಯಲ್ಲಿ	-10.9008
ವಾಗಿರುತ್ತವೆ	-10.9012
▁ಅವರೆಲ್ಲರ	-10.9013
▁str	-10.9042
▁ನಡೆದುಕೊಳ್ಳ	-10.9044
▁ನೀವೂ	-10.9056
▁ಬಳಿಯಲ್ಲಿರುವ	-10.9065
▁ಇಳಿದ	-10.9073
ALL	-10.908
▁ಕುಂಟ	-10.9083
row	-10.9084
ಿಸುತ್ತಿದ್ದ	-10.9085
▁ನಿರ್ಗಮಿಸ	-10.9099
▁ಬೇತ್ಲೆಹೇಮ	-10.9099
▁ಭೋಜನ	-10.9099
▁ಐಎಸ್ಒ	-10.9099
▁ಸ್ಟೀಮ್	-10.9099
▁ಕಸೂತಿ	-10.9099
▁ಅಮಾನ್ಯ	-10.9099
▁ರಿಟರ್ನ್	-10.9099
▁ಮರಿಗಳ	-10.9099
▁ಕಟ್ಟಿಸ	-10.91
ಐಡಿಯಾಸ್	-10.91
ಫೀಲ್ಡ್	-10.91
▁Clash	-10.91
▁ಕಳೆದುಕೊಂಡ	-10.9101
▁ದೇವಸ್ಥಾನ	-10.9102
▁ಸೆಳೆಯ	-10.9106
▁Flight	-10.9107
▁ಷ್ಯನ	-10.9109
ಾಬಾದ್	-10.9109
▁(4)	-10.9111
▁ಕ್ರಷ್	-10.9113
ಶೈಲಿ	-10.9113
ದಕ್ಷಿಣ	-10.9114
ದರ್ಶನ	-10.9117
▁ಗಿಲ್ಯಾದಿನ	-10.9136
▁Star	-10.9142
▁ಸಮುವೇಲನ	-10.9144
nja	-10.9151
2.7	-10.9156
▁ರೋಸ್	-10.9158
ಾಶೆ	-10.9164
5,000	-10.9181
▁ಕಂಡುಹಿಡಿಯ	-10.9184
▁ದುರ್ಗ	-10.9187
1.2	-10.9202
▁ದಶಮಾಂಶ	-10.9205
▁ಖಿನ್ನತೆ	-10.9205
▁ಪುನರುತ್ಥಾ	-10.9205
▁24*7	-10.9205
▁ಪ್ಲಾಸ್ಮಾ	-10.9205
▁ದುಬಾರಿ	-10.9205
▁ನಮಗೋಸ್ಕರ	-10.9205
▁ಜಾರತ್ವ	-10.9205
▁DVD	-10.9205
▁ಕೊಬ್ಬಿನ	-10.9207
▁ಹಗುರ	-10.9207
direct	-10.921
▁ರೂಪಾಂತರ	-10.9211
▁ಬಯಸುತ್ತೀರಿ	-10.9212
▁ಕಡಿತ	-10.9214
ಿಸುತ್ತೇವೆ	-10.9215
▁bug	-10.9215
▁ಲೆಗ್	-10.9215
Show	-10.922
ಅಂಗಡಿಯಲ್ಲಿ	-10.922
▁ಸಾಯಂಕಾಲ	-10.9222
▁ಎಎಮ್	-10.9223
Click	-10.9228
▁ಮೇಜು	-10.9229
Out	-10.9231
ಿಸುತ್ತಾನೆ	-10.9255
▁ವಂಶ	-10.9273
▁ದಂಡಿನ	-10.9282
▁ವರ್ತಿಸ	-10.93
Uncategorised	-10.9312
▁ದ್ರಾಕ್ಷೇತೋಟ	-10.9312
▁ಶುಭಾಶಯ	-10.9312
▁February	-10.9312
▁casino	-10.9312
▁ಅಕಾಡೆಮಿ	-10.9312
▁ಅಗತ್ಯವಿರುತ್ತದೆ	-10.9312
▁ತ್ಯಾಜ್ಯ	-10.9312
▁ದಿಕ್ಕಿಲ್ಲದ	-10.9312
▁ಯೌವನಸ್ಥನ	-10.9312
▁ವರ್ಣರಂಜಿತ	-10.9312
▁ಗೊಂದಲ	-10.9313
ಇಂಟರ್ಫೇಸ್	-10.9313
▁ಸಿನಿಮಾ	-10.9313
▁ಹಳೇ	-10.9313
▁ಶೂನ್ಯ	-10.9313
▁ನಾಲ್ಕನೆಯ	-10.9314
▁ಜಾಲಬಂಧ	-10.9315
▁ವ್ಯರ್ಥವಾದ	-10.9315
▁ಕಾರಣವಾಗುತ್ತದೆ	-10.9321
▁ತೊಟ್ಟಿ	-10.9321
▁ವೃದ್ಧ	-10.9323
▁ನೋಡಿದೆನು	-10.9327
▁ನಿಗದಿತ	-10.9328
▁ಖ್ಯಾತಿ	-10.9335
▁ಮನ್ನಿಸ	-10.9337
▁ಹಿಟ್ಟು	-10.9343
▁ಸಹಸ್ರ	-10.9352
Free	-10.9354
▁ಬೋಧಕ	-10.936
▁ಪ್ರೇಮಿಗಳ	-10.9361
▁ಪರಿಷ್ಕ	-10.9381
▁ಶಿಷ್ಯ	-10.9382
▁ತುಂಡ	-10.9389
ದ್ದಾನೆಂದು	-10.9391
▁ಸಾಗಿಸ	-10.9406
▁ಗವಿಯ	-10.942
▁ಸಾಧಾರಣ	-10.9421
▁September	-10.9421
▁ಡಿಫ್ಯೂಸರ್	-10.9421
▁ದಶಲಕ್ಷ	-10.9421
▁ಮಹಿಳಾ	-10.9421
▁ಸಂಪ್ರದಾಯ	-10.9421
Unthank	-10.9421
▁ವಾಸ್ತವಪ್ರಾಯ	-10.9421
▁ವೀಡಿಯೋ	-10.9421
▁ಸುಮ್ಮನೆ	-10.9421
▁ಕನೆಕ್ಟರ್	-10.9421
▁ಕನಿಷ್ಟ	-10.9421
▁ನಿನಗೋಸ್ಕರ	-10.9421
▁ಹೆಮ್ಮೆ	-10.9421
▁ಸ್ಪೇನ್	-10.9421
▁ಚಾರ್ಜ್	-10.9421
▁ಪ್ರಪಂಚದಾದ್ಯಂತ	-10.9422
▁ವೆಸ್ಟ್	-10.9424
▁ತರ್ಕ	-10.9424
▁ಬಂಧನ	-10.9425
▁ಹಿಂಭಾಗ	-10.9425
▁Java	-10.9425
▁what	-10.9425
ен	-10.9426
▁ಟ್ರಾನ್ಸ್	-10.9426
ಿಸುವುದ	-10.9428
▁ಯುಎಸ್ಬಿ	-10.9428
ಶೋಧ	-10.943
▁ಟ್ರಸ್ಟ್	-10.9433
▁ಹೆಚ್ಚುವರಿಯಾಗಿ	-10.9435
▁ರಾಶಿ	-10.9439
▁ಗಂಜಿ	-10.9439
▁ಸುಡಬೇಕು	-10.9439
▁ನೆರವೇರಿಸ	-10.9442
▁ಹೊಂದಿತ್ತು	-10.9444
ರಾಷ್ಟ್ರೀಯ	-10.9446
—	-10.9447
▁ಶವರ್	-10.945
▁ಉಬ್ಬ	-10.9453
ection	-10.9454
▁ಹುಡುಗನ	-10.9456
cheng	-10.9456
▁ಮೆಚ್ಚಿಕೆ	-10.9467
▁ಕೆನಡಾ	-10.9474
▁ತ್ತಿದ್ದ	-10.9498
▁ನಿರ್ದೇಶಕ	-10.9498
▁ಕೊಲ್ಲಲ್ಪಟ್ಟ	-10.9499
ಿಸಲಿ	-10.9503
▁2.4	-10.9506
▁ಉಪಕಾರ	-10.9512
139	-10.952
▁ಗ್ರಂಥ	-10.9531
▁ಮೈಕ್ರೋ	-10.9531
download	-10.9531
▁Bangalore	-10.9531
▁Yuzhno	-10.9531
▁ಅಸೆಂಬ್ಲಿ	-10.9531
▁ಐಪ್ಯಾಡ್	-10.9531
▁ಡಿಟೆಕ್ಟರ್	-10.9531
▁ಮುಖಪುಟಟ್ಯಾಗ್	-10.9531
▁ಶ್ವಾಸ	-10.9531
▁ಹುಟ್ಟುಹಬ್ಬದ	-10.9531
▁Login	-10.9531
▁ಚಿಮುಕಿಸ	-10.9531
▁ಕೆರೂಬಿಗಳ	-10.9531
▁ಪರೋಕ್ಷ	-10.9531
▁ಆಯಿಲ್	-10.9531
▁ಕಾಲೇಜ್	-10.9531
▁ಇಬ್ರಿಯ	-10.9531
▁ಜೂಜಿನ	-10.9531
▁LEE	-10.9531
▁ವ್ಯಕ್ತಪಡಿಸ	-10.9531
▁ಲಿಯಾಮ್	-10.9532
▁ಖಾತ್ರಿಪಡಿಸಿ	-10.9532
▁ಹಾದುಹೋಗುವ	-10.9532
▁ಸಾರಭೂತ	-10.9533
▁Spin	-10.9533
▁ಗುರುವಾರ	-10.9533
▁ಪ್ರೋಮೋ	-10.9534
▁ಚಿಗುರ	-10.9534
▁****	-10.9535
▁ಸ್ನೇಹಿತರೊಂದಿಗೆ	-10.9539
▁ಬಾಟಲ್	-10.9542
▁With	-10.9542
▁ಕಾಯಿಲೆ	-10.9543
▁ಸೂಜಿ	-10.9555
ುವದನ್ನೂ	-10.956
▁ಕನಿಕರ	-10.9586
▁Facebook	-10.9642
▁ಉತ್ತೇಜಿಸ	-10.9642
▁ಉತ್ಸವ	-10.9642
▁ರಾಹೇಲಳ	-10.9642
▁ಸಲ್ಯೂಷನ್ಸ್	-10.9642
▁ಸಾವಯವ	-10.9642
Coptic	-10.9642
▁Nimki	-10.9642
▁ಪರಿಣತಿ	-10.9642
▁ಮಾಸಿಕ	-10.9643
▁ಪತ್ನಿ	-10.9643
▁SSD	-10.9644
▁ಚೌಕಟ್ಟು	-10.9645
▁ಕಣಿವೆ	-10.9646
▁ತ್ವರೆಯಾಗಿ	-10.9646
▁ಹಿಟ್ಟಿನ	-10.9646
▁ವಿವಾಹ	-10.9657
▁ಕೂಡಿಕೊಂಡು	-10.9662
▁ಮಾಡಿಸಿದನು	-10.9667
▁ಎಕ್ಸ	-10.9672
-720	-10.9674
▁ಕೆಡವ	-10.9675
£	-10.9676
head	-10.9676
▁ನಿಷ್ಕ್ರಿಯಗೊಳಿಸ	-10.9685
▁ತಗ್ಗಿನ	-10.9702
▁ಅರ್ಹತೆ	-10.9721
ಎಲೀಯನ	-10.9725
info	-10.9751
▁ತ್ವರೆ	-10.9754
▁ತಲತಲಾಂತ	-10.9755
▁ಒಬ್ಬರನ್ನೊಬ್ಬರು	-10.9755
▁ಕ್ರೂಷರ್	-10.9755
▁ಧನಾತ್ಮಕ	-10.9755
▁ವಿತರಣಾ	-10.9755
▁ಸಂಕುಚನ	-10.9755
▁ಧಾರ್ಮಿಕ	-10.9755
▁ಕಾರ್ಯಾಗಾರ	-10.9755
▁ಬಾಲಾಕನ	-10.9755
▁short	-10.9755
▁ತಾಪನ	-10.9755
▁ಮುಗಿಯ	-10.9755
▁ಕೈಯೊಳಗಿಂದ	-10.9755
▁ವದಕ್ಕೂ	-10.9755
▁ಜೈಲ್	-10.9755
▁ಸ್ಥಳಾಂತರಿಸ	-10.9756
}}	-10.9757
▁ಹುಲ್ಲಿನ	-10.9758
▁ನಾಲ್ಕನೇ	-10.9758
TWD	-10.9758
▁ಸೊಂಟ	-10.9762
▁ಹೇಬೇ	-10.9763
136	-10.9768
▁ಹೆಗಲ	-10.9777
3.5	-10.9791
▁ಬಂಧು	-10.9798
▁ಹೆರುವ	-10.9807
▁ಗಡ್ಡ	-10.981
right	-10.9811
ೀಕರಿಸಿದ	-10.9814
ಂಥದ್ದು	-10.9815
▁ನೆರವಾಗ	-10.9819
ward	-10.982
▁ಕೂತಿದ್ದ	-10.9845
4.1	-10.9864
▁Gallery	-10.9868
≥98%	-10.9868
▁Mallari	-10.9868
▁ಉತ್ಪತ್ತಿ	-10.9868
▁ಎಕ್ಸ್ಪ್ರೆಸ್	-10.9868
▁ಐತಿಹಾಸಿಕ	-10.9868
▁ಕಂಟ್ರೋಲ್	-10.9868
▁ಕಾನ್ಸೆಪ್ಟ್	-10.9868
▁ಕ್ಷೀಣ	-10.9868
▁ಛಾಯಾಚಿತ್ರ	-10.9868
▁ತಪಾಸಣೆ	-10.9868
▁ಪತ್ತೆಹಚ್ಚ	-10.9868
▁ಲೋಕಪಾಲರು	-10.9868
▁ಕೆಟಿಎಂ	-10.9868
▁ಸ್ಪೀಡ್	-10.9868
▁Rights	-10.9868
▁ಸ್ಪೇಸ್	-10.9868
▁ಇಷಯನ	-10.9868
▁ಕೊಬ್ಬು	-10.9869
▁ಮುದುಕನ	-10.987
▁ರಾಯಲ್	-10.9871
▁ನವೀನ	-10.9874
▁ಹಕ್ಕುಸ್ವಾಮ್ಯ	-10.9875
▁ಅಗತ್ಯಗಳಿಗಾಗಿ	-10.9877
▁ಹಿಂಡ	-10.9885
▁ಪ್ರಪಂಚ	-10.9886
▁ಪ್ರಾಧಿಕಾರ	-10.9897
▁ಒದಗಿಸಿದ	-10.9975
▁1/2	-10.9978
▁Reserved	-10.9983
▁ಇಷ್ಮಾಯೇಲ	-10.9983
▁ತೊಡೆದುಹಾಕಲು	-10.9983
▁ಧನ್ಯನು	-10.9983
▁ನೋಂದಾಯಿತ	-10.9983
▁ಸ್ಪರ್ಧಾತ್ಮಕ	-10.9983
▁ಕ್ಯಾನ್ಸರ್	-10.9983
ಐಚ್ಛಿಕ	-10.9983
▁ಮಾನದಂಡ	-10.9983
▁ಸಕ್ಕರೆ	-10.9983
▁ಎಣಿಕೆ	-10.9984
▁ವಿನೋದ	-10.9985
▁ಚಂದ್ರನ	-10.9985
▁ಎಲೀಯನು	-10.9986
▁ಕೇರಳ	-10.9987
▁ಸಾರಾಂಶ	-10.999
▁ಹೊಂದಿದ್ದೇವೆ	-10.9996
▁ಒಪ್ಪಿಕೊಂಡ	-11
▁GBP	-11.0017
▁ಮುಗಿಸಿದ	-11.0019
ಸ್ಥಾಪಿಸ	-11.0027
home	-11.0087
▁ಇಂಡಿಯ	-11.0087
▁ಅತ್ಯಧಿಕ	-11.0099
▁ನಿಷೇಧ	-11.0099
▁ಭೌತಿಕ	-11.0099
▁ರಂಧ್ರ	-11.0099
▁ಸ್ವಾಸ್ಥ್ಯ	-11.0099
Ethiopian	-11.0099
ಡೆಟ್ರಾಯಿಟ್	-11.0099
▁resources	-11.0099
▁ಟೆಸ್ಟೋಸ್ಟೆರಾನ್	-11.0099
▁ಪ್ರೌಢ	-11.0099
▁ರೆಸ್ಟೋರೆಂಟ್	-11.0099
▁ರೆಹಬ್ಬಾಮನ	-11.0099
▁ಸ್ನಾತಕೋತ್ತರ	-11.0099
▁ಗ್ರಾಮೀಣ	-11.01
▁ಮರುದಿನ	-11.01
▁ಹೆರೋದನ	-11.01
▁ಆಲ್ಫಾ	-11.01
CZK	-11.01
▁ಕೌಂಟಿ	-11.01
▁ವಾಲ್ವ್	-11.0105
▁Tool	-11.011
ಿಸದೆ	-11.0155
▁ಸ್ಥಿರಪಡಿಸ	-11.0158
▁ಸನ್ನಿಧಿ	-11.018
▁Generator	-11.0217
▁ಅನುಪಾತ	-11.0217
▁ಉಕ್ರೇನ್	-11.0217
▁ಎಪಿಸೋಡ್	-11.0217
▁ಖಾಯಿಲೆ	-11.0217
▁ಪಾತಾಳ	-11.0217
▁ಆಕ್ರಮಣ	-11.0217
▁ಚಿಲ್ಲರೆ	-11.0217
▁ವಿಜೆಟ್	-11.0217
▁ಈವೆಂಟ್	-11.0217
▁ಬಲಗಡೆಯಲ್ಲಿ	-11.0217
▁ಮಗುವಿಗೆ	-11.0217
▁ಜಿಂಕೆ	-11.0217
▁roof	-11.0217
▁ಲಭ್ಯವಿಲ್ಲ	-11.0217
▁ಟೋನರು	-11.0217
▁ಪ್ರಸರಣ	-11.0218
▁ಪ್ಲಗ್ಇನ್	-11.0218
▁ಆಸಕ್ತಿದಾಯಕ	-11.0218
್ರೆಡ್	-11.0218
▁ಪರಿಯೋಜನೆ	-11.0218
▁ಟ್ರೇಡಿಂಗ್	-11.0219
▁ಕೃತಕ	-11.0219
▁Internet	-11.0219
▁ಫೇಸ್	-11.0219
▁ನಿಶ್ಚಿತ	-11.022
▁ದೂಷಿಸ	-11.0222
▁(0)	-11.0223
▁ಅಲ್ಲಗಳೆ	-11.0226
▁ಲಕ್ಷಿಸ	-11.0226
▁ಕಡೆಗೂ	-11.0228
▁ಳನ್ನೂ	-11.023
share	-11.0246
▁ಕ್ಲೋ	-11.0252
▁ವಾದ್ಯ	-11.0275
ಪಾರ್ಶ್ವ	-11.0276
2.0	-11.0288
▁ತೆರಳ	-11.0291
▁ಗೌರವಿಸ	-11.0296
ಶಾರ್ಟ್	-11.031
▁1.1	-11.0312
▁ನಡೆಸಿದ	-11.0333
▁ಅಬ್ರಹಾ	-11.0333
EMAIL	-11.0336
▁Streaming	-11.0336
▁ಅಮೆಜಾನ್	-11.0336
▁ಆತಿಥೇಯ	-11.0336
▁ಯುರೋಪಿಯನ್	-11.0336
▁ಸಸ್ಯವಿಜ್ಞಾನದ	-11.0336
▁ಅಹಂಕಾರ	-11.0336
▁ಆರಾಮದಾಯಕ	-11.0336
▁ಏಜೆಂಟ್	-11.0336
▁ಗೋಳಾಟ	-11.0336
▁Charter	-11.0336
▁ಸಾಂದ್ರತೆ	-11.0336
▁ಬಾಳಿಕೆ	-11.0336
ನಿರ್ದೇಶನ	-11.0336
▁ಜ್ಞಾಪಕಮಾಡಿಕೊಳ್ಳ	-11.0337
▁ಶೋಧಕ	-11.0337
▁apk	-11.0337
▁ಕ್ಲಿಕ್ಕಿಸಿ	-11.0337
▁ಆಯಾಸ	-11.0338
▁ಹೈಟೆಕ್	-11.0338
▁ಟವರ್	-11.0339
▁ನಿದ್ರಿಸ	-11.0341
▁who	-11.0348
▁ಸಂಹಾರ	-11.0351
▁ಪಾಲಕರ	-11.0362
▁ನೆರಳಿನ	-11.0381
ಿಸದ	-11.0383
ವುಳ್ಳವನಾಗಿ	-11.0383
ೋತಿನ	-11.0389
▁ನೆಲೆಯಾಗಿ	-11.0397
-2009	-11.0405
▁ಕ್ರಾ	-11.0407
wire	-11.041
▁ಎಲೆಕ್ಟ್ರಾನಿಕ್	-11.0425
ಿಫ್ಟ್	-11.0426
izer	-11.0426
▁ಲೆಬನೋನಿನ	-11.0427
Shijiazhuang	-11.0457
▁General	-11.0457
▁Royale	-11.0457
▁ಅಸೋಸಿಯೇಷನ್	-11.0457
▁ಆಪರೇಟಿಂಗ್	-11.0457
▁ಎಂಜಿನಿಯರ್	-11.0457
▁ಕ್ರಿಪ್ಟೋ	-11.0457
▁ಜಾವಾಸ್ಕ್ರಿಪ್ಟ್	-11.0457
▁ದೀಪಸ್ತಂಭ	-11.0457
script	-11.0457
▁ರೋಬೋಟ್	-11.0457
▁ಮೂಲತಃ	-11.0457
▁ಅಸಾಧ್ಯ	-11.0457
▁ಕ್ಯಾಂಪಸ್	-11.0457
▁ಕ್ಷೇಮ	-11.0457
world	-11.0457
▁ಗುರುತನ್ನು	-11.0457
▁BMW	-11.0457
▁ಬಯಸುವಿರಾ	-11.0457
▁ಕ್ರಾಂತಿ	-11.0457
▁ಚುಚ್ಚ	-11.0458
▁೧೯	-11.0459
▁ಹೊಳಪ	-11.0459
▁ಸತ್ತವರೊಳಗಿಂದ	-11.046
▁ಪಡೆದುಕೊಂಡ	-11.0461
▁ಮುಕ್ತಾಯ	-11.0461
(4,2	-11.0462
▁ಆರಂಭಿಸಿದಾಗ	-11.0462
▁RAM	-11.0466
▁ಪ್ರದಾನ	-11.0468
▁ದೊಡ್ಡದಾದ	-11.0478
ಯೋಜನೆ	-11.0505
quir	-11.0506
ದೃಶ್ಯ	-11.0515
ವಿನ್ಯಾಸ	-11.0519
ಪಾಯಿಂಟ್	-11.0531
ಅಂಕಿ	-11.0533
▁ಪ್ರೋತ್ಸಾಹಿಸ	-11.0544
▁ನಮೂದಿಸ	-11.0564
▁Babies	-11.0579
▁VIDEOS	-11.0579
▁ಡಾಕ್ಯುಮೆಂಟ್	-11.0579
▁ನಫ್ತಾಲಿ	-11.0579
▁ಮೇಲ್ವಿಚಾರಕ	-11.0579
▁ಸಂತೋಷವಾಗಿರುವಿರಿ	-11.0579
▁complete	-11.0579
▁ಸ್ಕೆಚ್	-11.0579
▁[2]	-11.0579
▁ಗ್ಯಾಲರಿ	-11.0579
▁ದಕ್ಷತೆ	-11.0579
▁ರದ್ದುಗೊಳಿಸ	-11.0583
▁Auto	-11.0584
ವನಾರು	-11.0587
Media	-11.0588
▁ಮಗನಾಗಿರುವ	-11.0588
8.5	-11.061
▁ಟಿಪ್ಪಣಿ	-11.0642
nnel	-11.0651
ದ್ದಾಳೆ	-11.0659
▁0.7	-11.0666
▁ಘನತೆಯ	-11.0688
▁iSpyoo	-11.0702
▁ಬೆಂಗಳೂರಿನ	-11.0702
▁ವಂಚಿತರ	-11.0702
▁internet	-11.0702
▁ಗೇಮಿಂಗ್	-11.0702
▁ಸಾಧ್ಯವಾದಷ್ಟು	-11.0702
▁ಕಾರಣವಾಗಬಹುದು	-11.0702
▁ಸೈನಿಕರ	-11.0702
▁ಸೀನಾಯಿ	-11.0702
▁ಕಾರ್ಯಗತಗೊಳಿಸ	-11.0702
▁ಕಾವಲಿನ	-11.0702
▁ಕೊಬ್ಬನ್ನೂ	-11.0702
▁ಕುರುಡರ	-11.0702
▁2018-11-	-11.0702
ೆರೆದುಕೊಳ್ಳುತ್ತದೆ	-11.0702
▁ಕನಸಿನ	-11.0702
▁ಬಚ್ಚಿಟ್ಟ	-11.0702
▁ಪ್ಯಾರಿಸ್	-11.0702
▁CNC	-11.0703
▁ಕಲಾಯಿ	-11.0703
▁ಪರ್ಪಲ್	-11.0703
▁ಆವರ್ತನ	-11.0704
▁ಯೊರ್ದನನ್ನು	-11.0705
▁ಗೋಲ್ಡ್	-11.0706
Plus	-11.0707
porn	-11.0708
6.00	-11.071
▁ಶುಭ	-11.0714
1-3	-11.0733
▁ಸಂಗ್ರಹಣೆ	-11.0754
▁ವಿಭಾಗಿಸ	-11.0756
▁ಕನಿಕರಿಸ	-11.0765
▁ಅರಿವ	-11.0768
Room	-11.0775
ಕೂಡದ	-11.0807
▁ಭದ್ರಪಡಿಸು	-11.0811
generateur	-11.0827
ಡಬ್ಲ್ಯೂ	-11.0827
▁19.12.2018	-11.0827
▁ಅಂಗಸಂಸ್ಥೆ	-11.0827
▁ಕಾಂಕ್ರೀಟ್	-11.0827
▁David	-11.0827
▁ಕಾಂಕರರ್	-11.0827
▁ಗ್ಯಾಲಕ್ಸಿ	-11.0827
▁ಗಿಲ್ಗಾಲ	-11.0827
shopify	-11.0827
▁ನೆಚ್ಚಿನ	-11.0827
▁ಸ್ಕೂಟರ್	-11.0827
▁ಗಿದ್ಯೋನನ	-11.0827
▁ನಝರ್	-11.0827
ಮುಸುಕು	-11.0827
▁ಮುಂದುವರೆಸಿದರೆ	-11.0828
triche	-11.0829
▁ಲಕ್ಷಾಂತರ	-11.083
▁ಸಂದರ್ಶನ	-11.0831
▁ಯಾವದನ್ನು	-11.0833
▁ವದನ್ನು	-11.0833
▁ದೈವ	-11.0844
▁any	-11.0847
▁ಕೊನೆಗೊಳ್ಳುವ	-11.0859
▁ಧನ್ಯವಾದ	-11.0894
ಥೀಮ್	-11.0904
▁ಮಿಶ್ರ	-11.0936
▁Archiv	-11.0951
▁080-2	-11.0953
▁WinPorn	-11.0954
▁ಕೈಕೆಲಸ	-11.0954
▁ಮಹಾಯಾಜಕನ	-11.0954
▁ಮಿಶ್ರಲೋಹ	-11.0954
▁ವುಡ್ವಿಂಡ್	-11.0954
▁ಸ್ಯಾಮ್ಸಂಗ್	-11.0954
ವಿಡ್ಗೆಟ್	-11.0954
▁ಅಭ್ಯಂತರ	-11.0954
▁ಆಗುವದೇನಂದರೆ	-11.0954
▁ಧೂಮ್ರ	-11.0954
▁ಪ್ರೋಟೀನ್	-11.0954
▁ಮಹತ್ಕಾರ್ಯ	-11.0954
▁ಲೆಕ್ಕಾಚಾರ	-11.0954
▁Lucks	-11.0954
▁ಸುತ್ತೋಲೆ	-11.0954
▁Rental	-11.0954
ಯಾಗಿದ್ದನು	-11.0954
▁ಅವೆನ್ಯೂ	-11.0954
▁ಆಯೋಜಿಸ	-11.0954
▁ಮ್ಯಾಟರ್ಸ್	-11.0954
▁ಭರ್ತಿ	-11.0954
▁ಅಗುಳಿ	-11.0954
▁ಕಿಂಗ್ಡೊ	-11.0954
▁ಕೋಲನ್ನು	-11.0954
▁ಒಂದುಗೂಡಿಸ	-11.0954
▁ಡಿಗ್ರಿ	-11.0954
▁ಆರೋನರ	-11.0954
▁ಐದನೇ	-11.0954
▁ಎಂಬದಾಗಿ	-11.0955
▁ಫೀಡ್	-11.0955
▁ಮುಳುಗ	-11.0955
▁ಎಂಭತ್ತ	-11.0956
▁ಸಹಜವಾಗಿ	-11.0956
▁ಬೂಟ್	-11.096
▁ಗುರಿಯಾಗ	-11.0972
ನೆರಳಿನಲ್ಲೇ	-11.0977
▁ವಕ್ರ	-11.0996
▁ವಿಾರಿ	-11.1012
▁ತಿರುಗಾಡ	-11.1021
▁ಸ್ವಸ್ಥಮಾಡ	-11.1053
▁ನಾವೀನ್ಯತೆ	-11.1082
▁Foundation	-11.1082
▁Konqueror	-11.1082
▁Stories	-11.1082
▁ತನಿಖಾಧಿಕಾರಿ	-11.1082
▁ನೈತಿಕ	-11.1082
▁ಸೆರಾಮಿಕ್	-11.1082
▁ಕಿತ್ತಳೆ	-11.1082
▁ಉಗ್ರಾಣ	-11.1082
▁ದೆಹಲಿ	-11.1082
▁MYR	-11.1082
▁ಗ್ರೀಸ್	-11.1082
▁ಗರಿಷ್ಟ	-11.1082
▁ಏರ್ಬಸ್	-11.1082
install	-11.1082
▁ಗುಡುಗ	-11.1082
▁(2016)	-11.1082
▁ಕಲ್ಲನ್ನು	-11.1083
▁(2012)	-11.1083
▁Class	-11.1083
▁ಒಳಗೊಂಡಿರುತ್ತದೆ	-11.1085
▁ವಿಧೇಯರಾಗ	-11.1087
▁ಅಳವಡಿಸಿಕೊಳ್ಳ	-11.1087
▁ಕೆಳಗಿರುವ	-11.1087
matic	-11.1097
▁ಇಳುಕೊಂಡ	-11.1098
ತೊಂಭತ್ತ	-11.1104
▁4.7	-11.1135
▁ಸೇರಿಸಿಕೊಳ್ಳ	-11.1137
▁ಸವಿಾಪಿಸ	-11.1145
▁ಕಡಿಮೆಯಾಗ	-11.1153
▁ಅಶಕ್ತಗೊಳಿಸ	-11.1212
▁Health	-11.1212
▁Temple	-11.1212
▁ಕಡಲ್ಗಳ್ಳರು	-11.1212
▁ಯಾದೃಚ್ಛಿಕ	-11.1212
▁ವಿಸ್ತೀರ್ಣ	-11.1212
nbsp	-11.1212
▁ಜೋಡಣೆ	-11.1212
▁ಏಕೈಕ	-11.1212
▁ಲೇಪನ	-11.1212
▁ಕುರುಬರ	-11.1212
▁ಬಾಳ್	-11.1212
▁ವಿಾಕಾ	-11.1212
▁ನೇಯ್ದ	-11.1212
▁ಲಿಫ್ಟ್	-11.1212
▁ನಡುಕಟ್ಟ	-11.1213
▁ಶೋಧನೆ	-11.1213
▁ಮೊಟ್ಟೆ	-11.1218
Bike	-11.1221
▁ವಿಜಯ	-11.1223
Euro	-11.1226
ದ್ದಾರೆಂದು	-11.123
ೆರ್ರಿ	-11.123
▁ವೀಣೆ	-11.1235
▁Select	-11.1235
1.99	-11.124
▁ವಿಕಾಸ	-11.1251
▁ಸಾಗಣೆ	-11.1262
▁ತೀರ್ಪ	-11.1283
ೆಂತಲೂ	-11.1289
▁ಸಂದರ್ಭ	-11.1289
9.95	-11.1321
▁Fitness	-11.1343
▁Pornoid	-11.1343
▁cryptocurrency	-11.1343
▁ಛಾಯಾಗ್ರಹಣ	-11.1343
▁ಫೈಬರ್ಗ್ಲಾಸ್	-11.1343
▁Udaan	-11.1343
▁ರಕ್ತವರ್ಣ	-11.1343
▁ಉಡುಪಿ	-11.1343
▁ಕುರುಬನ	-11.1343
▁ನಮಃ	-11.1343
▁[3]	-11.1343
▁ಪತ್ರಿಕಾ	-11.1343
▁Pink	-11.1343
▁ವಕೀಲ	-11.1343
▁ಅದೇನಂದರೆ	-11.1344
▁ready	-11.1344
▁ಮೊದಲನೆಯದಾಗಿ	-11.1344
▁ಗಿಬೆಯ	-11.1344
▁ಮಾಪನ	-11.1344
▁RoHS	-11.1344
▁ಎಡಗಡೆ	-11.1346
▁ಯಾವದೂ	-11.1348
▁ಬಾರದೆ	-11.1375
Link	-11.1384
ವಸ್ತು	-11.1435
▁ಎಲುಬ	-11.1438
▁ಅಂಟಿಕೊಳ್ಳ	-11.144
ಸಂಪರ್ಕ	-11.1441
ಮುಂದಿನ	-11.1441
karnataka	-11.1477
▁ನಿಯತಕಾಲಿಕ	-11.1477
XCHARX	-11.1477
ಧಾರವಾಡ	-11.1477
▁cheats	-11.1477
▁ಇನ್ನೋವೇಟಿವ್	-11.1477
▁ತನಿಖೆ	-11.1477
▁ಭಾನುವಾರ	-11.1477
▁ಮಿದ್ಯಾನ್ಯರ	-11.1477
▁ಸಾರ್ವತ್ರಿಕ	-11.1477
▁ಸೊಸೈಟಿ	-11.1477
@163.	-11.1477
▁Pinterest	-11.1477
▁ಇಪ್ಪತ್ತೈದು	-11.1477
▁ವಿಂಡೊ	-11.1477
▁ಮೆಚ್ಚುಗೆ	-11.1477
▁ಎಳೇ	-11.1477
▁ಮಂಜು	-11.1477
▁ಮೋಜಿನ	-11.1477
▁ಸಚಿವಾಲಯ	-11.1477
▁ಕರುಳುಗಳ	-11.1477
MXN	-11.1477
▁ಬೆನಾಯನ	-11.1477
ಎಸ್ಇಸಿ	-11.1478
▁ರಾಷ್ಟ್ರಪತಿ	-11.1479
▁ಟರ್ಕಿ	-11.1479
▁ಪಿತೃ	-11.148
5.1	-11.1482
▁ಯೌವನದ	-11.1488
▁ಅನುಗ್ರಹಿಸ	-11.1494
▁ಬೇರೆಯವರ	-11.1536
ಾಗಿರಲು	-11.1556
▁ಜಯಿಸ	-11.156
~	-11.158
▁ಕೊಂಡುಕೊಳ್ಳ	-11.1594
ಹೆಸರ	-11.1596
▁ಅಸಾಧಾರಣ	-11.1612
▁ಉಪಪತ್ನಿ	-11.1612
▁error	-11.1612
▁ಅನಿರೀಕ್ಷಿತ	-11.1612
▁ಕರಾಒಕೆ	-11.1612
▁ಪ್ರಧಾನಯಾಜಕರ	-11.1612
▁ಸ್ವೀಡಿಷ್	-11.1612
▁ಷರತ್ತು	-11.1612
Social	-11.1612
▁ತಯಾರಿಕಾ	-11.1612
▁ಸ್ಮೃತಿ	-11.1612
▁ಜಲನಿರೋಧಕ	-11.1612
▁ಭರವಸವಿಡ	-11.1612
▁ಗೆಲ್ಲಲು	-11.1612
ಾಣಿಕೆಯಾಗುತ್ತದೆಯೆ	-11.1612
▁ನಿರ್ಮಲ	-11.1613
▁ದಣಿದ	-11.1614
▁ಅಪರೂಪ	-11.1614
▁ಅರಿಕೆ	-11.1614
▁ಕಂಡುಬಂದಿಲ್ಲ	-11.1614
▁full	-11.1615
▁ಹೋಲಿಸಿದರೆ	-11.1615
ಬೇಕೆಂತಲೂ	-11.1617
▁ಇಳುಕೊಳ್ಳ	-11.1634
▁ಈಟಿಯ	-11.1637
▁ಲಂಚ	-11.1713
churchofchrist	-11.1749
▁ದ್ವಾರಪಾಲಕರ	-11.1749
ಪ್ರೋಟೋಕಾಲ್	-11.1749
▁Mukhiya	-11.1749
▁jackpot	-11.1749
▁ಅಡಚಣೆ	-11.1749
▁ಅನಾರೋಗ್ಯ	-11.1749
▁ಅಮಚ್ಯನ	-11.1749
▁ಆಧ್ಯಾತ್ಮಿಕ	-11.1749
▁ತಿದ್ದುಪಡಿ	-11.1749
▁ನಿಲುವಂಗಿ	-11.1749
▁ಪೋರ್ಟಲ್	-11.1749
▁ವೃತಾಂತಗಳ	-11.1749
▁ಬೊಕ್ಕಸಗಳ	-11.1749
▁ಚೆಂಡನ್ನು	-11.1749
▁ಧಾರಕ	-11.1749
▁ಶುಕ್ರವಾರದವರೆಗೆ	-11.1749
▁ಊರೀಯನ	-11.1749
▁ಬೇರೊಬ್ಬ	-11.1749
▁ಹೊರತೆಗೆಯ	-11.1749
▁VPN	-11.1749
▁ಇವೆಲ್ಲವುಗಳ	-11.1749
▁ಭರವಸವಿಟ್ಟ	-11.1749
▁ದುರಸ್ತಿ	-11.1749
▁ದುರಾಶೆ	-11.1749
▁ವಿಶೇಷಣಗಳು	-11.1749
▁ಬುಟ್ಟಿ	-11.175
▁ಸುಲಿಗೆ	-11.175
▁ಲಾಭದಾಯಕ	-11.1751
▁ಸೆಕ್ಸ	-11.1759
▁ಹಿತ್ತಾಳೆ	-11.1765
▁7.5	-11.1775
▁ತಲುಪಿಸ	-11.1813
ಎಂಬೆಡ	-11.1829
▁ಹೊರಡಿಸ	-11.183
ಕ್ರಿಯೆ	-11.185
ಯಾಕಂದರೆ	-11.1864
ಇದಲ್ಲದೆ	-11.1864
▁ಖಚಿತಪಡಿಸ	-11.1886
▁ಅಮಾಲೇಕ್ಯರ	-11.1888
▁ಕಾರ್ಯನಿರ್ವಾಹಕ	-11.1888
▁ಪ್ರತ್ಯಾದಾನ	-11.1888
▁ಸಂರಕ್ಷಣೆ	-11.1888
▁ಹಿನ್ನಲೆ	-11.1888
▁ನಿಟ್ಟಿನಲ್ಲಿ	-11.1888
▁ಇಮೇಜ್	-11.1888
▁ಗೊರಕೆ	-11.1888
▁ಸಫಾರಿ	-11.1888
▁ನಿಕಟ	-11.1888
▁ಮುದ್ರಕ	-11.1888
ಬಹುದೆಂದು	-11.1888
▁ಅಜರ್ಯನ	-11.1888
▁\(	-11.1889
▁ಹುಳಿಯಿಲ್ಲದ	-11.1889
BRL	-11.1889
▁ಸಲೇಮಿನ	-11.189
▁ಗಟ್ಟಿಯಾಗಿ	-11.189
▁ಮೂಗಿನ	-11.189
▁wala	-11.1891
▁comment	-11.1891
▁ಯೇಲ್ಯರ	-11.1906
▁0.6	-11.1962
ೇನೆಂದರೆ	-11.1966
▁ಹೊಸದಾಗಿ	-11.1984
(6)	-11.199
▁ಅರಿವು	-11.1994
▁ಸಂಶೋಧಕ	-11.1998
ುವಂತಿಲ್ಲ	-11.2019
▁ಗುಣುಗುಟ್ಟ	-11.2028
▁America	-11.2028
▁ಚರಿತ್ರೆ	-11.2028
▁ನ್ಯೂಯಾರ್ಕ್	-11.2028
▁ಫ್ರಾಂಕ್	-11.2028
▁ಮುಂದುವರೆಯ	-11.2028
▁ಮೋವಾಬ್ಯರ	-11.2028
▁ಮ್ಯಾನೇಜ್ಮೆಂಟ್	-11.2028
▁ಯೂಟ್ಯೂಬ್	-11.2028
▁ಯೋವಾಷನ	-11.2028
▁ಸ್ಟೀರಾಯ್ಡ್	-11.2028
▁ಸ್ಟುಡಿಯೋ	-11.2028
▁ಸ್ಥಾಪಕ	-11.2028
▁ನಿವ್ವಳ	-11.2028
▁ಪ್ರಕಾಶಮಾನವಾದ	-11.2028
NUM	-11.2029
▁ಎಜ್ರನ	-11.2029
▁ಐನೂರು	-11.2029
▁PDF	-11.2029
▁ಶುಚಿ	-11.2029
ಅಡಾಪ್ಟ	-11.2029
▁ವಾಸ್ತು	-11.2029
▁College	-11.2029
▁(2017)	-11.2029
▁ಪ್ರವಾದನೆ	-11.203
▁ನಾವೆಲ್ಲರೂ	-11.2031
▁ಲೋಟನ	-11.2037
(33)	-11.2056
▁ಐವತ್ತ	-11.2093
▁ಹೊಗೆಯ	-11.2095
▁ನಾಲ್ಕ	-11.2116
ದ್ದೀರಾ	-11.2124
▁ಚದುರ	-11.215
ವಸ್ತ್ರ	-11.2161
▁ಆವಿಷ್ಕಾರ	-11.2171
▁ನಿಬಂಧನೆ	-11.2171
▁ಭಾವನಾತ್ಮಕ	-11.2171
▁ಮೀಸಲಾಗಿರುವ	-11.2171
▁ವ್ಯವಹರಿಸ	-11.2171
▁ಫ್ಲಾಶ್	-11.2171
▁ಕೀಲಿಮಣೆ	-11.2171
▁DIY	-11.2171
▁ಹೊರಟುಹೋದನು	-11.2171
▁ಸಿಲಿಂಡರ್	-11.2171
▁ಗಿರಣಿ	-11.2171
▁ನನಗಿಂತ	-11.2171
▁ಆಫೀಸ್	-11.2172
DKK	-11.2172
ಶತಾಧಿಪತಿ	-11.2173
▁ನಾತಾನನ	-11.2174
▁ನೂತನ	-11.2175
Shop	-11.2195
▁ಕೆಡವಿಹಾಕ	-11.2249
▁ಟಚ್	-11.2256
ಹಾಗಲ್ಲ	-11.2286
▁ಎನ್ನುವ	-11.2299
▁ಪ್ರೊಸೆಸರ್	-11.2316
▁AASraw	-11.2316
▁Categories	-11.2316
▁Whatsapp	-11.2316
▁ಕಾಂಪೆನ್ಸೇಷನ್	-11.2316
▁ಗೋಲ್ಡನ್	-11.2316
▁ಗ್ರಾಫಿಕ್ಸ್	-11.2316
▁ಬ್ರೆಜಿಲ್	-11.2316
▁ಸೃಜನಶೀಲ	-11.2316
▁ಕಾರ್ಯವಿಧಾನ	-11.2316
▁ಗಿಲ್ಯಾದ್	-11.2316
▁ದೈವೋಕ್ತಿ	-11.2316
▁ನಿಯೋಜಿಸ	-11.2316
▁ನಿರಪರಾಧಿ	-11.2316
▁ಮುಂಚಿನ	-11.2316
content	-11.2316
▁ಮುಂಭಾಗ	-11.2316
▁ನೆನಪು	-11.2316
▁ಪುಷ್ಪ	-11.2316
▁ಮೀಡಿಯಾ	-11.2316
▁ಬಟ್ಟಲು	-11.2317
▁admin	-11.2317
▁ತ್ಯಜಿಸ	-11.2317
▁ಫಿಲ್ಮ್	-11.2317
▁SMD	-11.2317
photo	-11.2319
▁ಕರುಣಾ	-11.232
▁ಬ್ರಹ್ಮ	-11.2322
ವಸ್ಥೆಯ	-11.2325
▁ಏಲಿಯ	-11.2339
▁afte	-11.2342
roll	-11.2352
0/-	-11.2373
ಯಾಗಿರುತ್ತದೆ	-11.2378
ಮೊದಲ	-11.2385
▁ಹೆಚ್ಚಿಸಿಕೊಳ್ಳ	-11.2389
ೋತ್ತರ	-11.2396
ಚ್ಚರನ	-11.2398
▁ಪಾಪಿಗಳ	-11.2432
▁ಸಂಭವಿಸಿದ	-11.2432
ಇಸ್ರಾಯೇಲ್	-11.2457
Player	-11.2459
▁ಖಾತ್ರಿ	-11.2462
▁ಆಲೋಚನಾ	-11.2463
▁Decals	-11.2463
▁Sueneé	-11.2463
▁ಅವ್ಮೆಾ	-11.2463
▁ಇಸ್ಸಾಕಾರನ	-11.2463
▁ಕಸಬುಟ್ಟಿ	-11.2463
▁ಕೆರೂಬಿಯ	-11.2463
▁ಖರ್ಜೂರ	-11.2463
▁ಡಕ್ಯಾಟಿಯು	-11.2463
▁ಫೋಲ್ಡರನ್ನು	-11.2463
▁ಬಾಷಾನಿನ	-11.2463
▁ಮನರಂಜನೆ	-11.2463
▁ಲಗತ್ತಿಸ	-11.2463
▁ಸೊಗಸಾದ	-11.2463
▁yobt	-11.2463
▁ಗದರಿಕೆ	-11.2463
▁ಫ್ಲೈಟ್	-11.2463
▁ಹ್ಯಾಂಡಲ್	-11.2463
▁ಕಾಲೇಬನ	-11.2463
▁ದಯಪಾಲಿಸ	-11.2463
▁ಕೃಪಾ	-11.2463
▁ಶಿಬಿರ	-11.2463
▁ಲಿನಕ್ಸ್	-11.2464
▁ಲೇಯಳ	-11.2466
fsx	-11.2466
▁ಫಿಲಿಪ್	-11.2468
▁ಅರಾಮಿನ	-11.2471
ದಿದ್ದಲ್ಲಿ	-11.2522
▁0.4	-11.2525
▁ಯಜ್ಞವೇದಿ	-11.2545
ಾನುಸಾರ	-11.2597
▁ಯೌವ	-11.2604
ಹೌದು	-11.2611
▁ವಿಮೋಚನೆ	-11.2612
▁August	-11.2613
▁Dropshipping	-11.2613
▁ಅನುಷ್ಠಾನ	-11.2613
▁ಅಹಜ್ಯನ	-11.2613
▁ಆತ್ಮಹತ್ಯೆ	-11.2613
▁ನಡೆಸಲ್ಪಡುತ್ತಿದೆ	-11.2613
▁ನಿರೋಧನ	-11.2613
▁ನೆಪೋಮುಕ್	-11.2613
▁ಪ್ಯಾಕೇಜುಗಳ	-11.2613
▁ಫುಟ್ಬಾಲ್	-11.2613
▁ಬ್ರಿಟಿಷ್	-11.2613
▁ರೆಸಾರ್ಟ್	-11.2613
▁ಸೇರ್ಪಡೆ	-11.2613
▁ಹೆದ್ದಾರಿ	-11.2613
▁which	-11.2613
▁Choose	-11.2613
▁ಕೈಚಾಚಿ	-11.2613
▁NEMA	-11.2613
support	-11.2613
▁ಕಾರ್ಬನ್	-11.2613
▁ವಿಲೇಜ್	-11.2613
▁ಘೋರ	-11.2613
▁ವಿಾಕನ	-11.2613
▁ಅನುಕ್ರಮ	-11.2613
▁ಎನ್ನುವುದು	-11.2613
ಸ್ಕೀಮ್	-11.2613
Search	-11.2613
▁ಸ್ಮಾರ್ಟ್ಫೋನ್	-11.2613
▁ಹೊಂಚಿ	-11.2614
▁ಪ್ರತಿನಿಧಿಸುತ್ತ	-11.2617
▁ಅಗತ್ಯವಿದ್ದ	-11.2624
▁ಸ್ಥಗಿತಗೊಳಿಸ	-11.2661
▁ದಿಕ್ಕಿನ	-11.2677
ುವದೇನು	-11.2685
▁ಉರ್ಲ	-11.2725
▁ಸ್ವೀಕರಿಸಿದ	-11.2741
ಸಂಖ್ಯೆ	-11.2763
▁discuss	-11.2764
▁ಡೆಲಿವರಿ	-11.2764
▁ಪ್ರೈವೇಟ್	-11.2764
▁ಮಂಗಳೂರು	-11.2764
▁ಹಿಂಜರಿಯಬೇಡಿ	-11.2764
▁ಅಸಡ್ಡೆ	-11.2764
▁ಗಾರ್ಡನ್	-11.2764
▁ಸ್ವೀಕಾರ	-11.2764
▁ಕ್ಲೀನ್	-11.2764
▁ಪ್ರಾಮುಖ್ಯತೆ	-11.2764
▁ದೂಷಣೆ	-11.2764
▁ಕೊಂಡಾಡಿರಿ	-11.2764
▁ರವಾನಿಸ	-11.2764
▁ಒಬ್ಬೊಬ್ಬನು	-11.2764
▁ಸಂಘಟನೆ	-11.2764
▁Open	-11.2764
▁ವರ್ತಕರ	-11.2765
▁ತರಹದ	-11.2765
▁ನೆರವು	-11.2766
×	-11.2767
ಪ್ರಸ್ತುತ	-11.2767
ಅಕ್ಟೋಬರ್	-11.2767
▁ಸಚಿವ	-11.277
▁ರತ್ನ	-11.2773
ಪ್ರಾರಂಭವಾಗುತ್ತದೆ	-11.2865
▁ಕೊಬ್ಬಿದ	-11.2869
▁ಬಿಡುಗಡೆಯಾಗ	-11.2882
current	-11.2918
▁pinterest	-11.2918
▁ಅಪಘಾತ	-11.2918
▁ಕನ್ವೇಯರ್	-11.2918
▁ತನ್ಮೂಲಕ	-11.2918
▁ದಸ್ತಾವೇಜನ್ನು	-11.2918
▁ಯಶಸ್ಸು	-11.2918
▁ಸಂಯೋಜಿತ	-11.2918
▁ಸರ್ಕ್ಯೂಟ್	-11.2918
▁ಸಹೋದ್ಯೋಗಿ	-11.2918
▁Business	-11.2918
▁ಹನ್ನೊಂದು	-11.2918
▁ಕುತೂಹಲ	-11.2918
▁ಪ್ರಸಾದ್	-11.2918
▁ಪುರಾವೆ	-11.2918
▁ಆಕರ್ಷಿಸ	-11.2918
▁ಮಾಡಿಕೊಡುತ್ತದೆ	-11.2918
▁ಚಿಂತನೆ	-11.2918
▁ಹೊಂಚು	-11.2918
▁ಬಿರುಕು	-11.2918
▁Prepar	-11.2918
▁ಹರಾಜು	-11.2918
▁ಎನ್ನುವುದನ್ನು	-11.2918
▁ಮುದ್ದಿಟ್ಟ	-11.2918
▁(2015)	-11.2919
▁ಶಾಸನ	-11.2919
▁ಯಾಕಂ	-11.2919
▁ಹಿಂದೂ	-11.2923
▁ಒಳ್ಳೇದಾಗಿ	-11.2924
▁ಇರ್ರಿ	-11.2927
▁ನಿರ್ಮಿಸಿದ	-11.2938
Mail	-11.3017
▁ಆವರಿಸಿ	-11.3025
global	-11.3074
▁CatCollection	-11.3074
▁ಅಲೆಕ್ಸಾ	-11.3074
▁ಅಲ್ಯುಮಿನಿಯಮ್	-11.3074
▁ಅಲ್ಯೂಮಿನಿಯಮ್	-11.3074
▁ಕವಾಸಕಿ	-11.3074
▁ಪ್ರಕ್ಷೇಪ	-11.3074
▁ವಾಸ್ತುಶಿಲ್ಪ	-11.3074
▁ವಿದ್ಯುನ್ಮಾನ	-11.3074
▁ಮೆಟೀರಿಯಲ್	-11.3074
▁ಅಳೆದನು	-11.3074
▁ನಿವಾರಣೆ	-11.3074
▁ಸಿಯೆರಾ	-11.3074
▁ಸಿದ್ಧಾಂತ	-11.3074
ಬೇಕಾಗಿಲ್ಲ	-11.3074
▁ಮಾಪಕ	-11.3074
▁ಸುವರ್ಣ	-11.3075
▁SEK	-11.3075
▁like	-11.3075
▁ವಿದೇಶದಲ್ಲಿ	-11.3075
▁ಹೊಗಳಿಕೊಳ್ಳ	-11.3079
ಕಳುಹಿಸ	-11.3082
್ಯುಲ	-11.3116
▁ಪಕ್ಷಿಯ	-11.3121
▁ವಂಶದವ	-11.3137
China	-11.3157
▁ವಾಸವಾಗಿರ	-11.3193
▁ಪೋಷಕ	-11.3197
▁ಮಂಜೂ	-11.3228
symbols	-11.3233
system	-11.3233
▁information	-11.3233
▁ಅನುಸರಣೆ	-11.3233
▁ಪೂರ್ಣಹೃದಯದಿಂದ	-11.3233
▁ಪ್ರಾದೇಶಿಕ	-11.3233
▁ಭ್ರಷ್ಟ	-11.3233
▁ಮೊರೆಯಿಡ	-11.3233
▁ಸಿಮ್ಯುಲೇಟರ್	-11.3233
▁ಹಿಲ್ಕೀಯನ	-11.3233
▁ಉಲ್ಲಂಘನೆ	-11.3233
▁ತೇವಾಂಶ	-11.3233
▁ರೆಬೆಕ್ಕಳ	-11.3233
▁ವಿಟಮಿನ್	-11.3233
▁ಪೈಲಟ್	-11.3233
▁ಅನುದಾನ	-11.3233
▁ಈಡೇರ	-11.3233
ಪ್ರಜ್ಞೆ	-11.3237
ಕೈಸರನ	-11.3239
ಮೂರ್ತಿ	-11.3239
▁ಜರುಗಿ	-11.3241
▁ಅಪೊಸ್ತಲ	-11.3248
ಸಾವಿರ	-11.3251
▁ಸ್ನೇಹ	-11.3258
House	-11.3262
▁ಪ್ರಕಾಶಿಸ	-11.3283
▁ದಾಖಲಿಸ	-11.33
ಬೋಧಕನೇ	-11.3324
▁ಕ್ಯಾಲೆಂಡರ	-11.3388
ಐಗುಪ್ತದೇಶದೊಳಗಿಂದ	-11.3391
▁ಖಂಡಿಸ	-11.3394
▁ಪೌಷ್ಟಿಕ	-11.3394
▁Accessed	-11.3394
▁White	-11.3394
▁lakhs	-11.3394
▁shopping	-11.3394
▁ಛಾವಣಿ	-11.3394
▁ಬಗೆಗಿನ	-11.3394
▁ಬಯಸುತ್ತೀರೆ	-11.3394
▁ಬಾಹ್ಯಾಕಾಶ	-11.3394
▁ಯೀಸ್ಟ್	-11.3394
▁ಬಜಾಜ್	-11.3394
▁ವಿಕಸನ	-11.3394
machine	-11.3394
▁ಡಿಸೈನ್	-11.3394
▁ಕುರುಡನ	-11.3396
▁ವೀರ್ಯ	-11.3396
▁ಹೀರಿಕೊಳ್ಳ	-11.3397
▁ಕೊಯ್ದ	-11.3399
»	-11.3417
ವಿವರಣೆ	-11.3417
ಭಾರತ	-11.3426
ಗೌಡ	-11.3454
▁ಹಂಚಿಕೊಂಡ	-11.346
▁ಅನ್ಯಜನಾಂಗ	-11.3484
(20)	-11.3508
ೆದುರಿಗೆ	-11.3512
ುವಂಥದ್ದ	-11.3537
▁ಅಮೇರಿಕ	-11.3539
▁ತೆರೆಸೂಚಕ	-11.3558
▁ಮೂಲಸೌಕರ್ಯ	-11.3558
▁IFFCO	-11.3558
▁Personal	-11.3558
▁ಕಟ್ಟುನಿಟ್ಟಾಗಿ	-11.3558
▁FREE	-11.3558
▁ಕೆಲವೊಂದು	-11.3558
▁ಆಘಾತ	-11.3558
▁ಸುಗ್ಗಿಯ	-11.3558
▁ಜಾಮೀನು	-11.3558
▁ಮ್ಯಾಜಿಕ್	-11.3558
▁ಸ್ಕೋರ್	-11.3558
▁MOQ	-11.3558
▁ನಡೆಯಲಿದೆ	-11.3558
▁ಸತತ	-11.3559
▁ಪ್ರತಿಭೆ	-11.3559
▁ಚೌಕಟ್ಟಿನ	-11.3559
▁ಆರನೆಯ	-11.3559
ngxiang	-11.356
▁ಹೊಯ್ದ	-11.3561
▁ಬೇರ್ಪಡಿಸ	-11.3576
ಆದದರಿಂದ	-11.3587
search	-11.3589
▁ಪೋಷಿಸ	-11.362
▁ಒಳ್ಳೆ	-11.3666
▁ರಕ್ಷಣಾ	-11.3691
▁ಅನುಗ್ರಹ	-11.3704
▁webtalk	-11.3725
Gilks	-11.3725
svenkate	-11.3725
▁Dariussssss	-11.3725
▁Ostrovsky	-11.3725
▁ಅರವತ್ತು	-11.3725
▁ಕಾರ್ಟೂನ್	-11.3725
▁ಕಿರ್ಯತ್	-11.3725
▁ಚಾಕೊಲೇಟ್	-11.3725
▁ಡೆಸ್ಕ್ಟಾಪ್	-11.3725
▁ದುಷ್ಕೃತ್ಯ	-11.3725
▁ಪತ್ತೇದಾರಿ	-11.3725
▁ಬೇರ್ಷೆಬ	-11.3725
▁ಬ್ಲೂಟೂತ್	-11.3725
▁ಹುಬ್ಬಳ್ಳಿ	-11.3725
▁Chrome	-11.3725
▁ಭಂಡಾರ	-11.3725
▁ಕಾನೂನಿನ	-11.3725
▁ಸೀಹೋನನ	-11.3725
▁ವಿಳಂಬ	-11.3725
▁ಪುರಾತನ	-11.3725
▁ಡಿವಿಡಿ	-11.3725
▁ಬಾರ್ನಬ	-11.3725
/06/	-11.3725
▁ಹೆಚ್ಚಿನವುಗಳಿಗೆ	-11.3725
▁ಸಂಸೋನನ	-11.3726
▁ತಿರುಗಿಬಿದ್ದ	-11.3727
ೆರವುಗೊಳಿಸಲಾಗಿದೆ	-11.3729
▁ಸನ್ಮಾನ	-11.3732
▁ಏಲಾಮ	-11.3739
▁ನಿರ್ಬಂಧಿಸ	-11.3753
ನ್ನುಂಟುಮಾಡ	-11.3758
ಸಮಾಧಾನ	-11.3758
Today	-11.3793
▁ಜ್ಞಾಪ	-11.3861
ನ್ಯಾಯಪ್ರಮಾಣವನ್ನು	-11.3878
▁ಸನ್ಮಾನಿಸ	-11.389
ನಿಯಂತ್ರಿತ	-11.3894
▁ಅತಿಥೇಯ	-11.3894
▁ಋಣಾತ್ಮಕ	-11.3894
▁ಎದುರುನೋಡಬಹುದು	-11.3894
▁ದಿನನಿತ್ಯದ	-11.3894
▁ಧಾರಾವಾಹಿಗಳಲ್ಲಿ	-11.3894
▁ವಿಶ್ಲೇಷಿಸ	-11.3894
▁ಸುರಕ್ಷತಾ	-11.3894
▁ಸ್ಟೆಪ್ಪರ್	-11.3894
▁ಕಲ್ಯಾಣ	-11.3894
▁ಸಹಭಾಗಿತ್ವ	-11.3894
▁ಸ್ಟ್ರೀಮ್	-11.3894
▁ಸ್ಫೂರ್ತಿ	-11.3894
▁April	-11.3894
▁ಆಸಾಫನ	-11.3894
▁ತಂದೆತಾಯಿಗಳ	-11.3894
▁ಪರಂಪರೆ	-11.3894
▁ಕಾರ್ಯಾಚರಣಾ	-11.3894
▁ಆರೋಹಿಸ	-11.3894
▁ನಮೂದು	-11.3894
▁ಅಡಿಪಾಯ	-11.3894
▁ಹದಿನಾರು	-11.3894
▁ಮೊಗ್ಗು	-11.3894
hivalli	-11.3894
ಇಜ್ರೇ	-11.3898
▁ಹೊಳೆಯುವ	-11.3898
▁ಸವಾರರ	-11.3904
▁ಐಶ್ವರ್ಯವಂತನ	-11.3919
▁ನವೆಂ	-11.3929
Casino	-11.3934
ಕರ್ನಾಟಕ	-11.3935
ಇಸ್ರಾಯೇಲಿನ	-11.3935
ಎರಡು	-11.3936
▁ಚಿಕ್ಕದಾಗಿ	-11.3946
ೆಡ್ಜ್	-11.4008
▁ಪಾಪಬಲಿ	-11.402
facebook	-11.4067
▁30-05-2015	-11.4067
▁inlistbox	-11.4067
▁navigation	-11.4067
▁ಗಡಸುತನ	-11.4067
▁ತಿಮೊಥೆಯ	-11.4067
▁ಮರುಬಳಕೆ	-11.4067
▁ಸಂಯೋಜಕ	-11.4067
europe	-11.4067
▁Machine	-11.4067
▁ಎಬ್ಯಾತಾರನ	-11.4067
▁ಮುಂದುವರೆದ	-11.4067
▁ಮೆಕ್ಸಿಕೋ	-11.4067
ಕ್ಕನುಸಾರವಾಗಿ	-11.4067
▁ಗೆದಲ್ಯನ	-11.4067
▁ಹೇಳುವುದಾದರೆ	-11.4067
▁ರೇಡಿಯೋ	-11.4067
▁ರೈಲ್ವೆ	-11.4067
▁ಹಾರ್ಮೋನ್	-11.4067
▁ಆದೇಶತೆರೆ	-11.4067
▁ದರಿದ್ರ	-11.4067
▁ನೂರಾರು	-11.4067
▁ಜೆಕರ್ಯನ	-11.4067
▁ನೈಜೀರಿಯ	-11.4067
▁ಸಿಪಿಯು	-11.4067
▁ಆರುನೂರ	-11.4068
▁ಆದಾಮನ	-11.4068
▁ನಿವಾರಿಸ	-11.4069
ರಚನಾ	-11.4079
ಪರೀಕ್ಷ	-11.4095
▁ಹೊಯಿದ	-11.4102
Share	-11.4121
ಅಯ್ಯಾ	-11.4124
ಾತ್ರೆ	-11.4137
▁ತೃಪ್ತ	-11.4178
▁ಅಲಂಕರಿಸ	-11.4191
▁ಮಿಂಚು	-11.4212
ೆಂಡ್ರುಂದೀಬಱ	-11.4242
▁51.0.2830.	-11.4242
▁Brahmins	-11.4242
▁Language	-11.4242
▁London	-11.4242
▁Microsoft	-11.4242
▁hplc	-11.4242
▁ಆಪ್ಟಿಕಲ್	-11.4242
▁ಕಂಟೈನರ್	-11.4242
▁ಟ್ರ್ಯಾಕಿಂಗ್	-11.4242
▁ಬ್ಲ್ಯಾಕ್ಜಾಕ್	-11.4242
▁ಮಿಳಿತಾನ್ವಯ	-11.4242
▁ಯೇಹುವು	-11.4242
▁Network	-11.4242
▁ಅಪರಿಚಿತ	-11.4242
▁ಥೈಲ್ಯಾಂಡ್	-11.4242
▁ಮುಂಜಾನೆ	-11.4242
▁ರಾಹುತರ	-11.4242
▁ಆಗ್ನೇಯ	-11.4242
▁ದಾಳಿಂಬರ	-11.4242
▁ಪ್ರೇರಣೆ	-11.4242
▁ವಿಮೆಗಾರರು	-11.4242
▁ಅಲ್ಟ್ರಾ	-11.4242
▁Image	-11.4242
▁ಡಿಸ್ಕಿನ	-11.4242
ಥೆರಪಿ	-11.4242
▁ಕಾಯ್ದೆ	-11.4242
xBet	-11.4242
▁ಶೆಮಾಯನ	-11.4242
▁ಸಜ್ಜು	-11.4242
▁ಬೆಣ್ಣೆ	-11.4242
▁ಕೊಬ್ಬನ್ನು	-11.4242
position	-11.4243
ಕಾಮರ್ಸ್	-11.4245
▁ಲಭ್ಯತೆ	-11.4251
▁ಕಾಳುಗಳ	-11.4272
ನಿಶ್ಚಯವಾಗಿ	-11.4295
ಪರಿಶುದ್ಧ	-11.4295
ಾಚಾರ್ಯ	-11.4373
▁ಮೌನವಾಗಿರ	-11.4384
▁ಮೂಡಿಸ	-11.4411
▁ಇಸ್ಪೀಟ್	-11.4421
▁ಎದುರಿನಿಂದ	-11.4421
▁ಕಲ್ಲೆಸೆಯ	-11.4421
▁ಕೋಪವನ್ನೆಬ್ಬಿಸ	-11.4421
▁ಜನ್ಮದಿನ	-11.4421
▁ಜಿಯಾಂಗ್ಸು	-11.4421
▁ಜೀವನಚರಿತ್ರೆ	-11.4421
▁ತ್ರಾಣ	-11.4421
▁ಪರ್ಯಂತರ	-11.4421
▁ಬೇತೇಲಿನ	-11.4421
▁ಮಹಾವೈಭವದ	-11.4421
▁ಮೆರಾರೀಯ	-11.4421
▁ವಯಸ್ಸಾದ	-11.4421
▁ವಹಿವಾಟು	-11.4421
▁ಸ್ಫೋಟ	-11.4421
▁ಹಣಕಾಸಿನ	-11.4421
▁86-574-8	-11.4421
▁ನಿರ್ಗಮನ	-11.4421
▁ಶುಷ್ಕ	-11.4421
ವರೆಗಿನ	-11.4421
▁ಶೀಘ್ರದಲ್ಲೇ	-11.4421
▁ಚಿಕಿತ್ಸಾ	-11.4421
▁ಸೂಚನಾ	-11.4421
▁ಹಿತ್ತಿಯರ	-11.4421
▁52809	-11.4421
▁ಗ್ರೀಕ್	-11.4421
▁ನಿರ್ವಾತ	-11.4421
▁Place	-11.4421
▁ಬ್ರಿಟನ್	-11.4421
▁provide	-11.4421
Films	-11.4421
▁ಇಂಚಿನ	-11.4421
▁ಮಾಲ್ಟಾ	-11.4421
▁ಬ್ಲೇಡ್	-11.4421
friend	-11.4421
▁Apk	-11.4421
▁ಧ್ಯೇಯ	-11.4421
▁ಚಿತ್ರಕಲೆ	-11.4421
rypto	-11.4421
▁ಫಿಲಿಪ್ಪನ	-11.4423
▁ಕಾದುಕೊಂಡ	-11.4429
▁ಚತುರ	-11.4458
▁ಆಕ್ರಮಿಸ	-11.4471
ಗ್ರಾಹಕ	-11.4477
▁ಪ್ರತಿಕ್ರಿಯಿಸ	-11.4558
▁KANNADA	-11.4602
▁Krishna	-11.4602
▁Release	-11.4602
▁Twitter	-11.4602
▁ಆರಾಧನೆ	-11.4602
▁ಉತ್ಕೃಷ್ಟ	-11.4602
▁ಒಳಸಂಚು	-11.4602
▁ಕ್ಯಾಶುಯಲ್	-11.4602
▁ಗಣಿಗಾರಿಕೆ	-11.4602
▁ಗಮ್ಯಸ್ಥಾನ	-11.4602
▁ಟಿಯಾಂಜಿನ್	-11.4602
▁ದಾರ್ಯಾವೆಷನ	-11.4602
▁ಪ್ರವಾಸೋದ್ಯಮ	-11.4602
▁ಬರವಣಿಗೆ	-11.4602
▁ಭಾಷಣ	-11.4602
▁ಮಿಲಿಟರಿ	-11.4602
▁ಯೆಬೂಸಿಯರ	-11.4602
▁ಲ್ಯಾವೆಂಡರ್	-11.4602
▁ವರುಷದವನಾಗಿದ್ದು	-11.4602
▁ಶೇಕೆಲಿನಷ್ಟು	-11.4602
▁ಸಂಭವನೀಯತೆ	-11.4602
▁ಸ್ವಾಭಾವಿಕ	-11.4602
▁Wonder	-11.4602
▁ಗೊತ್ತಿರದ	-11.4602
▁ಚೇತರಿಕೆ	-11.4602
▁ಹಡಗಿನ	-11.4602
▁ಕನ್ಯೆಯ	-11.4603
▁ಬೇರೊಂದು	-11.4603
▁ಮಂದಿಯಾಗಿದ್ದರು	-11.4603
▁ಲಿನಿನ್	-11.4603
▁ಬ್ರಿಕ್ಸ್	-11.4603
▁ದಶಕದ	-11.4603
▁ಗುತ್ತಿಗೆ	-11.4603
▁ಕಿಚನ್	-11.4603
▁Steel	-11.4603
▁ದ್ರಾಕ್ಷೆಯ	-11.4603
▁ಕಲಿಕಾ	-11.4603
▁ಉಜ್ಜೀಯನ	-11.4604
್ರೆಸ್	-11.4604
power	-11.4607
ಿಂದಲಾದರೂ	-11.4612
turn	-11.4614
▁ಕೂತಿರುವ	-11.4621
ಹಿಡಿದು	-11.4661
ದಾವೀದನ	-11.4667
▁ಖಂಡಿತ	-11.4772
ಞ	-11.4782
▁ಮದುವೆಯಾಗ	-11.4784
project	-11.4788
▁PTFE	-11.4788
▁Roulette	-11.4788
▁Virtual	-11.4788
▁instagram	-11.4788
▁ಅಪ್ಗ್ರೇಡ್	-11.4788
▁ಅಭಿಷಿಕ್ತನ	-11.4788
▁ಆಲೂಗಡ್ಡೆ	-11.4788
▁ಇಂಟರ್ನ್ಯಾಷನಲ್	-11.4788
▁ಇಟಾಲಿಯನ್	-11.4788
▁ದಸ್ತಾವೇಜು	-11.4788
▁ಮಧುಮೇಹ	-11.4788
▁ರಿಕವರಿ	-11.4788
▁ನೆರೆಹೊರೆ	-11.4788
▁ಮಹಾಶಬ್ದ	-11.4788
▁ಮುದ್ರಿತ	-11.4788
▁ವೈಫಲ್ಯ	-11.4788
▁ಹೋಲ್ಡರ್	-11.4788
▁ಬೆತ್ತಲೆತನವನ್ನು	-11.4788
▁ಅವರಿಬ್ಬರೂ	-11.4788
▁ಸಂಪಾದನೆ	-11.4788
▁ಸಂರಕ್ಷಿಸ	-11.4788
▁ಸರಿಪಡಿಸಲು	-11.4788
▁ಅವಲೋಕನ	-11.4788
▁ಅಲಾಯ್	-11.4788
▁ಸಿಂಪಡಿಸ	-11.4788
▁ಸ್ಪರ್ಧಿ	-11.4788
▁ಲಿಬ್ನ	-11.479
▁ಜಿಟಿಎ	-11.4791
Spot	-11.4792
▁ಕುಶಲ	-11.4794
▁ಪರಿಷತ್	-11.4815
▁ಅಂದುಕೊಳ್ಳ	-11.4816
ಹಾಗಾದರೆ	-11.4861
ಪ್ರಕಾಶ	-11.4861
▁ಆಹ್ವಾನಿಸ	-11.4976
▁Creampie	-11.4976
▁Tnaflix	-11.4976
▁ಅಹಷ್ವೇರೋಷನ	-11.4976
▁ಆಯ್ಡರ್ಸ್	-11.4976
▁ಗುವಾಂಗ್ಝೌ	-11.4976
▁ಪಾಲಿಯೆಸ್ಟರ್	-11.4976
▁ಮೆಸೆಂಜರ್	-11.4976
▁ವಿಯೆಟ್ನಾಂ	-11.4976
transposh	-11.4976
▁ಕನಸನ್ನು	-11.4976
▁ರಿಚರ್ಡ್	-11.4976
▁Alpha	-11.4976
▁ಪಾರಸಿಯ	-11.4976
▁ಶಿಲುಬೆಯ	-11.4976
▁ಸೋಡಿಯಂ	-11.4976
▁ಕಿವಿಗೊಟ್ಟ	-11.4976
▁ನಿರೂಪಣೆ	-11.4976
▁ಬ್ಲಾಗರ್	-11.4976
ವೈವಿಧ್ಯ	-11.4976
▁ಗುಲಾಮ	-11.4977
▁ಕೆಹಾತನ	-11.4977
▁APK	-11.4977
▁ಬೆರಳಿನ	-11.4978
▁ಯೋಜಿಸ	-11.498
▁ಯೋಜನಾ	-11.5104
▁minutes	-11.5169
▁number	-11.5169
▁people	-11.5169
▁ಕನ್ಸಲ್ಟಿಂಗ್	-11.5169
▁ಜಾಗ್ರತೆಯಾಗಿ	-11.5169
▁ಮುಬಾರಕ್	-11.5169
▁ಸದಸ್ಯತ್ವ	-11.5169
▁ಸುತ್ತಮುತ್ತಲಿನ	-11.5169
▁ಅಮ್ಮೋನ್ಯ	-11.5169
▁ಪಾಕಿಸ್ತಾನ	-11.5169
▁Tianse	-11.5169
▁ಕಾರ್ಪೆಟ್	-11.5169
▁ಕ್ಷೌರ	-11.5169
▁ಬರ್ಲಿನ್	-11.5169
▁Women	-11.5169
▁ರಾಜಧಾನಿ	-11.5169
▁JPG	-11.5169
▁ಕ್ಯಾಸಿನೋ	-11.5169
▁ಮರುಭೂಮಿ	-11.5169
▁ದವಡೆ	-11.5169
▁ಮಾರ್ಟಿನ್	-11.5169
▁ಅಶ್ಯೂರ	-11.5169
▁ಸ್ಮಾರಕ	-11.5169
▁ಪ್ಯಾಟರ್ನ್	-11.5169
▁ಸರಿಹೊಂದಿಸ	-11.517
▁ಳಗಿಂದ	-11.517
ಹೈಡ್ರೋ	-11.5171
▁ಕೆಡುಕ	-11.5171
blue	-11.5172
▁ಆಯ್ದುಕೊಳ್ಳ	-11.5172
▁ಎಫೆಸ	-11.5179
▁ಕರ್ಮೆಲ	-11.518
▁ವಂಚಿಸ	-11.5195
“	-11.5257
▁ಏಜೆನ್ಸಿ	-11.5365
▁ಚಾಂಪಿಯನ್	-11.5365
▁Porridge	-11.5365
▁Software	-11.5365
▁ಅನ್ಲಾಕ್	-11.5365
▁ಆಗಾಗ್ಗೆ	-11.5365
▁ತಾಲೀಮು	-11.5365
▁ದೌರ್ಜನ್ಯ	-11.5365
▁ಪೋರ್ಚುಗಲ್	-11.5365
▁ಬ್ಯಾಕ್ಅಪ್	-11.5365
▁ಭಕ್ಷ್ಯ	-11.5365
▁ಯುಗಯುಗಾಂತರಗಳ	-11.5365
▁ವನ್ಯಜೀವಿ	-11.5365
▁ವಿಪರೀತ	-11.5365
▁ವಿಭಜಕ	-11.5365
▁ವಿಭಜಿಸ	-11.5365
▁ವೈವಿಧ್ಯಮಯ	-11.5365
▁ವ್ಯವಸಾಯ	-11.5365
▁ಸೂಚ್ಯಂಕ	-11.5365
▁ಮಾಲಿನ್ಯ	-11.5365
▁ಸರಹದ್ದು	-11.5365
▁Ningbo	-11.5365
▁ಶಾಫಾನನ	-11.5365
▁ಸೇತುವೆ	-11.5365
▁ಖನಿಜ	-11.5365
▁ಅಲೆದಾಡ	-11.5365
▁July	-11.5365
nsurance	-11.5365
▁ತದನಂತರ	-11.5365
▁ವೇದನೆ	-11.5365
▁ಕೊರೆಯುವ	-11.5365
▁ಹನನ್ಯ	-11.5365
school	-11.5365
▁ಸಿನೆಮಾ	-11.5365
▁(2,4	-11.5365
▁ಎಡ್ಜ್	-11.5365
▁ಪರಿಣಿತ	-11.5365
▁CPU	-11.5365
▁CTN	-11.5365
▁ಯಾತನೆ	-11.5366
▁ಯೆಹೋರಾಮನ	-11.5366
▁ತೊಡಗಿಸಿಕೊಳ್ಳ	-11.5369
▁ಮೆಚ್ಚಿಸ	-11.546
Google	-11.5461
▁ಕೌಶಲ	-11.5555
upload	-11.5565
▁Chashmah	-11.5565
▁Multigrain	-11.5565
▁Public	-11.5565
▁Taarak	-11.5565
▁mFortune	-11.5565
▁ಅಡ್ಡಪರಿಣಾಮಗಳ	-11.5565
▁ಅಶ್ಲೀಲ	-11.5565
▁ಇಂಜಿನಿಯರಿಂಗ್	-11.5565
▁ಕ್ರಿಶ್ಚಿಯನ್	-11.5565
▁ಗಲಿಬಿಲಿ	-11.5565
▁ಘರ್ಷಣೆ	-11.5565
▁ಚಾರ್ಜಿಂಗ್	-11.5565
▁ಡಾಂಗ್ಗುವಾನ್	-11.5565
▁ಡ್ಯುಯಲ್	-11.5565
▁ನಿರ್ಣಾಯಕ	-11.5565
▁ಪುನರಾವರ್ತಿಸ	-11.5565
▁ಮೀನುಗಾರಿಕೆ	-11.5565
▁ಮೊರೆಯಿಟ್ಟ	-11.5565
▁ಯಶಸ್ಸನ್ನು	-11.5565
▁ಸೂರ್ಯೋದಯ	-11.5565
▁ಸ್ಪಿಂಡಲ್	-11.5565
▁ಸ್ವಿಜರ್ಲ್ಯಾಂಡ್	-11.5565
▁ಜಪಾನಿನ	-11.5565
▁ಪರಿಶೋಧನೆ	-11.5565
▁ಮೆದುಳಿನ	-11.5565
▁ರಿಮೋಟ್	-11.5565
▁ಸಂಕುಚಿತ	-11.5565
unjarugiri	-11.5565
▁42-500	-11.5565
▁ಇಂಗ್ಲೆಂಡ್	-11.5565
▁credit	-11.5565
▁ಆರ್ಕೇಡ್	-11.5565
▁ಮರಣದಂಡನೆ	-11.5565
▁ಉಪದ್ರವ	-11.5565
▁ವಿಲಕ್ಷಣ	-11.5565
▁ಕೋಷ್ಟಕ	-11.5565
▁ಮಸಾಜ್	-11.5565
▁ವೇದಿಯ	-11.5565
▁ಮಿಡತೆ	-11.5565
▁ಕೆತ್ತನೆ	-11.5566
მ	-11.7571
★	-11.7821
ო	-11.8078
≤	-11.9776
ಊ	-12.15
«	-12.3595
©	-12.3596
•	-12.4072
‘	-12.6867
→	-13.4121
±	-13.7216
·	-13.9216
➖	-16.0062
č	-16.0063
п	-16.0064
≥	-16.0065
ಋ	-16.0066
გ	-16.0067
წ	-16.0068
დ	-16.0069
ಱ	-16.007
✔	-16.0071
ೕ	-16.0072
฿	-16.0072
