<unk>	0
<s>	0
</s>	0
<0x00>	0
<0x01>	0
<0x02>	0
<0x03>	0
<0x04>	0
<0x05>	0
<0x06>	0
<0x07>	0
<0x08>	0
<0x09>	0
<0x0A>	0
<0x0B>	0
<0x0C>	0
<0x0D>	0
<0x0E>	0
<0x0F>	0
<0x10>	0
<0x11>	0
<0x12>	0
<0x13>	0
<0x14>	0
<0x15>	0
<0x16>	0
<0x17>	0
<0x18>	0
<0x19>	0
<0x1A>	0
<0x1B>	0
<0x1C>	0
<0x1D>	0
<0x1E>	0
<0x1F>	0
<0x20>	0
<0x21>	0
<0x22>	0
<0x23>	0
<0x24>	0
<0x25>	0
<0x26>	0
<0x27>	0
<0x28>	0
<0x29>	0
<0x2A>	0
<0x2B>	0
<0x2C>	0
<0x2D>	0
<0x2E>	0
<0x2F>	0
<0x30>	0
<0x31>	0
<0x32>	0
<0x33>	0
<0x34>	0
<0x35>	0
<0x36>	0
<0x37>	0
<0x38>	0
<0x39>	0
<0x3A>	0
<0x3B>	0
<0x3C>	0
<0x3D>	0
<0x3E>	0
<0x3F>	0
<0x40>	0
<0x41>	0
<0x42>	0
<0x43>	0
<0x44>	0
<0x45>	0
<0x46>	0
<0x47>	0
<0x48>	0
<0x49>	0
<0x4A>	0
<0x4B>	0
<0x4C>	0
<0x4D>	0
<0x4E>	0
<0x4F>	0
<0x50>	0
<0x51>	0
<0x52>	0
<0x53>	0
<0x54>	0
<0x55>	0
<0x56>	0
<0x57>	0
<0x58>	0
<0x59>	0
<0x5A>	0
<0x5B>	0
<0x5C>	0
<0x5D>	0
<0x5E>	0
<0x5F>	0
<0x60>	0
<0x61>	0
<0x62>	0
<0x63>	0
<0x64>	0
<0x65>	0
<0x66>	0
<0x67>	0
<0x68>	0
<0x69>	0
<0x6A>	0
<0x6B>	0
<0x6C>	0
<0x6D>	0
<0x6E>	0
<0x6F>	0
<0x70>	0
<0x71>	0
<0x72>	0
<0x73>	0
<0x74>	0
<0x75>	0
<0x76>	0
<0x77>	0
<0x78>	0
<0x79>	0
<0x7A>	0
<0x7B>	0
<0x7C>	0
<0x7D>	0
<0x7E>	0
<0x7F>	0
<0x80>	0
<0x81>	0
<0x82>	0
<0x83>	0
<0x84>	0
<0x85>	0
<0x86>	0
<0x87>	0
<0x88>	0
<0x89>	0
<0x8A>	0
<0x8B>	0
<0x8C>	0
<0x8D>	0
<0x8E>	0
<0x8F>	0
<0x90>	0
<0x91>	0
<0x92>	0
<0x93>	0
<0x94>	0
<0x95>	0
<0x96>	0
<0x97>	0
<0x98>	0
<0x99>	0
<0x9A>	0
<0x9B>	0
<0x9C>	0
<0x9D>	0
<0x9E>	0
<0x9F>	0
<0xA0>	0
<0xA1>	0
<0xA2>	0
<0xA3>	0
<0xA4>	0
<0xA5>	0
<0xA6>	0
<0xA7>	0
<0xA8>	0
<0xA9>	0
<0xAA>	0
<0xAB>	0
<0xAC>	0
<0xAD>	0
<0xAE>	0
<0xAF>	0
<0xB0>	0
<0xB1>	0
<0xB2>	0
<0xB3>	0
<0xB4>	0
<0xB5>	0
<0xB6>	0
<0xB7>	0
<0xB8>	0
<0xB9>	0
<0xBA>	0
<0xBB>	0
<0xBC>	0
<0xBD>	0
<0xBE>	0
<0xBF>	0
<0xC0>	0
<0xC1>	0
<0xC2>	0
<0xC3>	0
<0xC4>	0
<0xC5>	0
<0xC6>	0
<0xC7>	0
<0xC8>	0
<0xC9>	0
<0xCA>	0
<0xCB>	0
<0xCC>	0
<0xCD>	0
<0xCE>	0
<0xCF>	0
<0xD0>	0
<0xD1>	0
<0xD2>	0
<0xD3>	0
<0xD4>	0
<0xD5>	0
<0xD6>	0
<0xD7>	0
<0xD8>	0
<0xD9>	0
<0xDA>	0
<0xDB>	0
<0xDC>	0
<0xDD>	0
<0xDE>	0
<0xDF>	0
<0xE0>	0
<0xE1>	0
<0xE2>	0
<0xE3>	0
<0xE4>	0
<0xE5>	0
<0xE6>	0
<0xE7>	0
<0xE8>	0
<0xE9>	0
<0xEA>	0
<0xEB>	0
<0xEC>	0
<0xED>	0
<0xEE>	0
<0xEF>	0
<0xF0>	0
<0xF1>	0
<0xF2>	0
<0xF3>	0
<0xF4>	0
<0xF5>	0
<0xF6>	0
<0xF7>	0
<0xF8>	0
<0xF9>	0
<0xFA>	0
<0xFB>	0
<0xFC>	0
<0xFD>	0
<0xFE>	0
<0xFF>	0
्य	-0
्या	-1
▁क	-2
▁आ	-3
▁त	-4
▁म	-5
▁प	-6
▁स	-7
ला	-8
्र	-9
▁व	-10
ार	-11
▁अ	-12
▁ह	-13
▁न	-14
ही	-15
हे	-16
ात	-17
र्	-18
▁आहे	-19
▁द	-20
ां	-21
ले	-22
▁ज	-23
▁त्या	-24
▁य	-25
च्या	-26
▁कर	-27
▁ब	-28
ाही	-29
्ह	-30
▁श	-31
क्	-32
▁प्र	-33
वा	-34
ता	-35
चा	-36
ना	-37
ती	-38
ून	-39
▁आण	-40
ली	-41
ची	-42
िक	-43
▁हो	-44
सा	-45
▁आणि	-46
▁ग	-47
▁र	-48
चे	-49
▁ए	-50
▁का	-51
स्	-52
ते	-53
▁अस	-54
ने	-55
ल्या	-56
▁मा	-57
ित	-58
▁नाही	-59
ण्या	-60
▁वि	-61
▁उ	-62
ाव	-63
▁एक	-64
▁आप	-65
त्	-66
ठी	-67
▁ख	-68
▁वा	-69
▁स्	-70
▁घ	-71
ंत	-72
▁ल	-73
▁तु	-74
मा	-75
▁भ	-76
▁ते	-77
क्ष	-78
▁के	-79
▁या	-80
▁म्ह	-81
री	-82
▁त्यां	-83
नी	-84
साठी	-85
▁च	-86
ाय	-87
▁म्हण	-88
▁सं	-89
▁इ	-90
▁फ	-91
तो	-92
वर	-93
▁पा	-94
्ये	-95
▁दे	-96
्ट	-97
▁मी	-98
म्	-99
हि	-100
णार	-101
▁हे	-102
ाला	-103
िं	-104
▁(	-105
▁दि	-106
▁नि	-107
▁झ	-108
णे	-109
▁पु	-110
ल्	-111
▁मु	-112
र्व	-113
▁पर	-114
▁आहेत	-115
तात	-116
ळे	-117
▁सु	-118
▁जा	-119
▁सा	-120
द्	-121
ील	-122
का	-123
रा	-124
▁ये	-125
▁रा	-126
कार	-127
ध्ये	-128
पा	-129
णी	-130
▁को	-131
▁ट	-132
ष्ट	-133
ंद	-134
या	-135
म्ही	-136
▁शक	-137
शी	-138
मु	-139
▁काही	-140
णा	-141
▁ड	-142
▁ला	-143
▁तो	-144
श्	-145
▁सर्व	-146
स्त	-147
ेल	-148
ोक	-149
▁माझ	-150
ेळ	-151
ान	-152
▁1	-153
▁हा	-154
▁कार	-155
▁तुम	-156
▁पण	-157
मी	-158
ांग	-159
जे	-160
▁काय	-161
▁झा	-162
व्ह	-163
वि	-164
▁तर	-165
ेत	-166
▁मि	-167
▁आपल्या	-168
▁2	-169
धी	-170
से	-171
▁आपण	-172
वी	-173
्री	-174
्यां	-175
▁करण्या	-176
▁मला	-177
पर	-178
▁ठ	-179
▁होते	-180
▁की	-181
मध्ये	-182
▁ती	-183
दा	-184
मुळे	-185
▁वर्	-186
डे	-187
..	-188
की	-189
ांना	-190
ोन	-191
▁बा	-192
▁ही	-193
शा	-194
▁ति	-195
थे	-196
मे	-197
▁लोक	-198
रो	-199
▁‘	-200
क्त	-201
हा	-202
ार्	-203
रे	-204
▁ध	-205
▁स्व	-206
चार	-207
▁मो	-208
▁असे	-209
वे	-210
द्ध	-211
▁आम	-212
ंग	-213
िय	-214
लं	-215
कर	-216
▁दु	-217
▁जात	-218
्रा	-219
न्	-220
ंतर	-221
▁वर्ष	-222
▁सम	-223
दी	-224
ेट	-225
लाह	-226
▁उत्	-227
ारी	-228
वड	-229
▁कु	-230
▁प्रत	-231
ोड	-232
ेव	-233
▁मिळ	-234
▁-	-235
र्ण	-236
▁कोण	-237
▁केले	-238
▁भा	-239
ंड	-240
▁अध	-241
त्र	-242
▁सुर	-243
▁आता	-244
▁किं	-245
टी	-246
▁गो	-247
ोग	-248
मान	-249
प्र	-250
▁आज	-251
तर	-252
्हाला	-253
दे	-254
▁होती	-255
▁"	-256
▁माझ्या	-257
िका	-258
बा	-259
▁ना	-260
▁आम्ही	-261
▁त्यांना	-262
ोल	-263
▁व्य	-264
नु	-265
▁लाग	-266
▁घे	-267
▁१	-268
▁तुम्ही	-269
▁दिव	-270
▁होता	-271
िंग	-272
दल	-273
▁म्हणून	-274
▁उप	-275
▁सांग	-276
तील	-277
स्ट	-278
▁वाट	-279
▁वेळ	-280
स्थ	-281
in	-282
ळी	-283
ल्लाह	-284
पू	-285
...	-286
त्या	-287
ांनी	-288
▁म्हणजे	-289
▁कि	-290
सून	-291
▁करा	-292
ित्र	-293
वळ	-294
▁त्यांच्या	-295
▁गे	-296
▁त्यामुळे	-297
▁वे	-298
ंब	-299
▁किंवा	-300
ूप	-301
जी	-302
र्थ	-303
कडे	-304
्यात	-305
व्हा	-306
ईल	-307
▁विचार	-308
प्	-309
▁मह	-310
डी	-311
ावर	-312
▁जे	-313
▁ऑ	-314
▁झाले	-315
▁चा	-316
▁“	-317
er	-318
ांच्या	-319
द्या	-320
▁शि	-321
क्षा	-322
▁20	-323
▁अधिक	-324
्हा	-325
क्र	-326
जा	-327
▁थ	-328
▁काम	-329
गा	-330
▁त्याला	-331
▁दोन	-332
चं	-333
िया	-334
भा	-335
▁गु	-336
नेक	-337
▁क्	-338
▁वापर	-339
पे	-340
ळा	-341
▁अनेक	-342
▁स्वत	-343
च्	-344
वास	-345
ar	-346
ांची	-347
ण्यासाठी	-348
▁पू	-349
नि	-350
▁केली	-351
▁परि	-352
▁चांग	-353
ष्	-354
लो	-355
ातील	-356
an	-357
▁त्यांनी	-358
खा	-359
▁ने	-360
▁प्रे	-361
ऱ्या	-362
ब्	-363
on	-364
क्स	-365
गी	-366
ति	-367
ायला	-368
र्म	-369
▁खा	-370
▁दिवस	-371
्ञ	-372
▁तुम्हाला	-373
▁गोष्ट	-374
▁मध्ये	-375
▁3	-376
▁कधी	-377
ारा	-378
▁:	-379
्यंत	-380
▁करू	-381
▁ओ	-382
रु	-383
▁एका	-384
▁भार	-385
00	-386
सार	-387
टर	-388
▁पाहि	-389
ोर	-390
▁आले	-391
के	-392
बर	-393
▁खूप	-394
▁केला	-395
st	-396
▁त्याच्या	-397
▁पुढ	-398
▁कारण	-399
▁राज	-400
▁सह	-401
at	-402
▁पुन	-403
▁आय	-404
ांचा	-405
▁असा	-406
▁२	-407
शन	-408
▁जी	-409
ंत्र	-410
ोज	-411
▁आह	-412
ंध	-413
िन	-414
▁से	-415
नंतर	-416
ऊन	-417
▁'	-418
्रे	-419
▁तुमच्या	-420
पासून	-421
▁खेळ	-422
▁घेत	-423
▁मान	-424
ोध	-425
ूल	-426
▁वाढ	-427
▁तरी	-428
▁स्थ	-429
ावे	-430
ोट	-431
▁महि	-432
ांत	-433
▁सग	-434
▁असते	-435
▁प्रत्ये	-436
▁तेव्हा	-437
लां	-438
शि	-439
दार	-440
▁राह	-441
वार	-442
ृत	-443
▁लि	-444
▁&	-445
▁?	-446
gt	-447
पी	-448
ण्यात	-449
ण्याची	-450
तं	-451
क्षण	-452
▁आमच्या	-453
▁ले	-454
▁ठेव	-455
▁फक्त	-456
▁शा	-457
धार	-458
▁अनु	-459
ूर	-460
or	-461
▁प्रकार	-462
्यक	-463
▁दा	-464
▁सर	-465
▁अल्लाह	-466
▁झाला	-467
▁मोठ	-468
▁पहि	-469
ात्र	-470
हिती	-471
▁असेल	-472
क्ती	-473
▁तुझ	-474
en	-475
▁क्ष	-476
▁नाहीत	-477
▁माहिती	-478
▁करण्यासाठी	-479
कड	-480
पाद	-481
▁तू	-482
ांचे	-483
द्दल	-484
▁मार्	-485
▁बोल	-486
ग्	-487
▁देश	-488
▁ता	-489
सं	-490
▁आव	-491
▁कमी	-492
सर	-493
▁अभ	-494
माण	-495
▁प्रा	-496
▁नव्ह	-497
▁मद	-498
लेल्या	-499
▁करून	-500
▁यु	-501
▁201	-502
▁S	-503
▁/	-504
सी	-505
▁पो	-506
▁प्रत्येक	-507
▁स्वतः	-508
ंप	-509
िती	-510
▁झाली	-511
टे	-512
रात	-513
▁नवी	-514
▁गा	-515
ताना	-516
▁तय	-517
ज्ञ	-518
रव	-519
िल	-520
▁तसे	-521
▁कुठ	-522
▁आवड	-523
▁सो	-524
▁A	-525
▁.	-526
▁विक	-527
शे	-528
▁जग	-529
▁5	-530
▁दिस	-531
▁करत	-532
▁C	-533
रिक	-534
es	-535
▁कार्य	-536
खी	-537
▁चाल	-538
▁व्यव	-539
▁त्यात	-540
▁करणार	-541
▁मे	-542
त्वा	-543
▁नस	-544
्याय	-545
मद	-546
देश	-547
▁4	-548
▁माण	-549
▁आपल्याला	-550
ुक	-551
▁माग	-552
al	-553
द्धा	-554
▁ऐ	-555
ाप	-556
च्छ	-557
▁निय	-558
▁P	-559
▁विश्	-560
▁बदल	-561
▁पड	-562
▁उत्पाद	-563
▁अशा	-564
▁गोष्टी	-565
▁व्या	-566
▁नवीन	-567
▁प्रश्	-568
वात	-569
षय	-570
ोत	-571
▁पूर्ण	-572
▁अज	-573
चित	-574
▁चित्र	-575
्यू	-576
▁इतर	-577
▁पुन्हा	-578
▁आठ	-579
ंतु	-580
▁करतो	-581
▁तयार	-582
वाद	-583
टा	-584
▁वेग	-585
▁कॅ	-586
पणे	-587
्ल	-588
▁गर	-589
ाले	-590
ूक	-591
्ही	-592
श्यक	-593
▁दुस	-594
पर्यंत	-595
▁त्याने	-596
▁लक्ष	-597
श्वर	-598
ये	-599
▁मदत	-600
वाय	-601
▁प्रय	-602
▁मुह	-603
ॉल	-604
▁दर	-605
▁असतात	-606
▁होणार	-607
ुन	-608
म्मद	-609
▁होत	-610
ंच	-611
▁बघ	-612
▁जीव	-613
को	-614
▁करण्यात	-615
बद्दल	-616
▁असतो	-617
▁करणे	-618
▁मुहम्मद	-619
ur	-620
▁किती	-621
▁वाच	-622
लेले	-623
▁वर	-624
▁पाह	-625
▁आवश्यक	-626
▁निवड	-627
▁बन	-628
मध	-629
▁आली	-630
it	-631
पेक्षा	-632
▁ह्या	-633
▁जाते	-634
▁काळ	-635
▁पाहिजे	-636
▁परंतु	-637
▁जास्त	-638
▁असल्या	-639
▁येथे	-640
िट	-641
दर्	-642
▁शोध	-643
साय	-644
्यांना	-645
le	-646
▁सर्वात	-647
्स	-648
डा	-649
▁शकते	-650
▁छ	-651
ीत	-652
▁व्ह	-653
▁हात	-654
▁स्प	-655
▁मात्र	-656
▁ची	-657
▁काढ	-658
▁आला	-659
ंट	-660
▁,	-661
▁अमे	-662
हर	-663
▁ज्या	-664
▁!	-665
am	-666
▁सुरू	-667
▁अर्थ	-668
रोबर	-669
▁प्रति	-670
▁t	-671
ic	-672
▁प्रश्न	-673
▁क्र	-674
▁टा	-675
ियन	-676
▁स्ट	-677
▁मग	-678
द्य	-679
▁होतो	-680
हित	-681
▁M	-682
अर	-683
धा	-684
▁रे	-685
▁परत	-686
▁शकता	-687
▁आई	-688
न्य	-689
▁होईल	-690
▁संप	-691
▁कंप	-692
▁मुख	-693
▁तसेच	-694
▁भेट	-695
▁T	-696
▁–	-697
ष्ठ	-698
▁कोणी	-699
▁पे	-700
▁मार्ग	-701
▁सुरु	-702
नंद	-703
▁आहोत	-704
गत	-705
="	-706
ातून	-707
पट	-708
▁पुस्त	-709
बत	-710
▁तीन	-711
▁भाग	-712
िर	-713
ॅट	-714
▁d	-715
मार	-716
िस	-717
हेर	-718
▁केवळ	-719
▁देव	-720
वारी	-721
▁घड	-722
▁नाव	-723
▁निर्	-724
▁शकतो	-725
ल्प	-726
▁पै	-727
▁शिक	-728
▁सरकार	-729
om	-730
ख्या	-731
ष्य	-732
त्न	-733
पु	-734
▁देवा	-735
पूर्ण	-736
तम	-737
क्ट	-738
▁सि	-739
▁घ्या	-740
▁समज	-741
▁योग	-742
र्वी	-743
त्ता	-744
जार	-745
▁कोणत्या	-746
ण्याचा	-747
र्क	-748
सु	-749
▁लेख	-750
▁वै	-751
▁साम	-752
▁शब्	-753
▁विद्या	-754
▁करतात	-755
ावी	-756
▁भाष	-757
▁ऐक	-758
इन	-759
बंध	-760
▁अशी	-761
▁डि	-762
▁आयु	-763
▁सांगित	-764
▁प्रयत्न	-765
मेश्वर	-766
▁रु	-767
▁आपले	-768
▁जो	-769
जन	-770
▁आनंद	-771
टक	-772
खे	-773
ांसाठी	-774
▁आम्हाला	-775
▁जवळ	-776
ध्य	-777
20	-778
▁येत	-779
स्ता	-780
ळ्या	-781
िम	-782
हमी	-783
▁मुल	-784
▁ओळ	-785
▁माझा	-786
▁अमेरिक	-787
▁दाख	-788
▁घा	-789
▁होऊ	-790
▁समा	-791
▁चे	-792
▁सोड	-793
बी	-794
डि	-795
▁देख	-796
▁नेहमी	-797
▁च्या	-798
ेळी	-799
▁अप	-800
▁अव	-801
▁शकत	-802
▁अजून	-803
तु	-804
भव	-805
▁B	-806
▁भर	-807
▁तुला	-808
▁परमेश्वर	-809
तीय	-810
ed	-811
▁त्याचा	-812
▁6	-813
र्ष	-814
ायचे	-815
▁घर	-816
▁कॉ	-817
ing	-818
▁१९	-819
▁शेव	-820
▁त्याचे	-821
▁गरज	-822
▁मुख्य	-823
ांमध्ये	-824
▁माझे	-825
लेली	-826
त्व	-827
शेष	-828
▁ई	-829
▁दो	-830
▁शब्द	-831
▁पुढे	-832
तरी	-833
▁मुलां	-834
००	-835
▁तिला	-836
▁डो	-837
▁सेवा	-838
▁त्यांचे	-839
▁असं	-840
लेला	-841
ध्या	-842
▁करता	-843
▁H	-844
नात	-845
क्षित	-846
▁खरे	-847
▁नव	-848
▁व्यक्ती	-849
▁कसे	-850
▁जाण	-851
करण	-852
▁बाहेर	-853
▁द्या	-854
re	-855
▁माझी	-856
▁प्रेम	-857
कडून	-858
▁करते	-859
▁म्हणाला	-860
क्रम	-861
▁नंतर	-862
▁बस	-863
ou	-864
ंदा	-865
▁बंद	-866
वून	-867
▁पाठ	-868
लय	-869
ृष्ट	-870
▁इत	-871
दान	-872
▁कृ	-873
म्या	-874
▁इथे	-875
प्त	-876
▁निर्ण	-877
▁त्यांची	-878
्रीय	-879
माणे	-880
ंदर	-881
▁म्हणाले	-882
काश	-883
्यु	-884
▁D	-885
▁विशेष	-886
षित	-887
▁गेले	-888
मत	-889
▁टी	-890
ात्री	-891
▁त्याची	-892
▁तिच्या	-893
र्च	-894
▁F	-895
ॅक	-896
▁इच्छ	-897
▁अति	-898
ूत	-899
▁श्री	-900
णाऱ्या	-901
▁राष्ट	-902
ol	-903
्व	-904
▁म्हणजेच	-905
दर	-906
र्त	-907
▁जर	-908
▁कंपनी	-909
▁c	-910
▁(1	-911
योग	-912
ठा	-913
▁ठर	-914
वढ	-915
▁ओळख	-916
▁अग	-917
▁विश्वास	-918
is	-919
िव	-920
लक	-921
▁I	-922
▁सुरुवात	-923
▁R	-924
▁_	-925
र्स	-926
▁मत	-927
स्क	-928
▁पहिल्या	-929
▁जाऊ	-930
हु	-931
▁नका	-932
▁रस	-933
▁लोकांना	-934
▁३	-935
▁महत्	-936
ion	-937
▁पृ	-938
▁चीन	-939
▁शे	-940
▁रो	-941
गार	-942
▁सी	-943
धान	-944
पूर्वी	-945
▁चांगले	-946
....	-947
▁10	-948
मि	-949
▁7	-950
▁डॉ	-951
▁मृत	-952
ac	-953
▁मित्र	-954
art	-955
▁योग्य	-956
▁G	-957
ंद्र	-958
▁मू	-959
पास	-960
▁साध	-961
▁पाणी	-962
▁तुझ्या	-963
▁...	-964
▁प्रमाण	-965
▁0	-966
▁दिली	-967
हान	-968
▁अंत	-969
▁s	-970
▁परिणा	-971
▁ठिका	-972
▁विषय	-973
बरोबर	-974
▁8	-975
▁शु	-976
▁फाय	-977
▁कळ	-978
▁निर्णय	-979
एस	-980
ार्थ	-981
he	-982
▁थोड	-983
सह	-984
▁देखील	-985
पण	-986
▁संबंध	-987
▁येणार	-988
▁दिले	-989
▁बे	-990
ण्यास	-991
▁माही	-992
▁प्रभ	-993
▁9	-994
▁सत	-995
▁तिथे	-996
ंभ	-997
▁सल	-998
▁N	-999
प्रमाणे	-1000
ांड	-1001
इट	-1002
स्था	-1003
▁पुस्तक	-1004
▁खर	-1005
▁औ	-1006
▁पि	-1007
lt	-1008
न्स	-1009
▁कुठे	-1010
▁प्रवास	-1011
मक	-1012
ल्ल	-1013
▁जीवन	-1014
्रि	-1015
▁उत्तर	-1016
्यांनी	-1017
▁मार	-1018
▁संघ	-1019
▁वाटते	-1020
▁यात	-1021
▁चार	-1022
▁घेऊन	-1023
च्च	-1024
et	-1025
▁वेळी	-1026
ोत्	-1027
गे	-1028
▁’	-1029
▁शक्य	-1030
वत	-1031
▁त्यांचा	-1032
था	-1033
ांवर	-1034
त्री	-1035
त्ती	-1036
▁चित्रपट	-1037
▁लव	-1038
▁शकतात	-1039
ॉट	-1040
▁माहीत	-1041
▁मरा	-1042
ंना	-1043
नला	-1044
▁कोणत्याही	-1045
वान	-1046
▁प्रेषित	-1047
▁जु	-1048
▁सगळ	-1049
▁मुली	-1050
▁बो	-1051
▁पाच	-1052
▁st	-1053
▁भारतीय	-1054
श्च	-1055
▁W	-1056
▁फे	-1057
रील	-1058
▁रसूल	-1059
▁सू	-1060
र्ज	-1061
भाग	-1062
▁ग्रा	-1063
न्न	-1064
▁त्यानंतर	-1065
कीय	-1066
▁येईल	-1067
ोप	-1068
ाने	-1069
▁परिणाम	-1070
▁आपला	-1071
मान्य	-1072
पूर	-1073
हो	-1074
सम	-1075
▁माल	-1076
▁झाल्या	-1077
▁आहात	-1078
दू	-1079
▁p	-1080
क्षक	-1081
▁19	-1082
▁डा	-1083
▁गुण	-1084
▁नियम	-1085
as	-1086
▁b	-1087
▁केल्या	-1088
वले	-1089
▁फार	-1090
सि	-1091
▁४	-1092
शय	-1093
▁आपली	-1094
ांब	-1095
वण	-1096
▁आरो	-1097
▁घट	-1098
▁दिला	-1099
▁विद्यार्थ	-1100
▁रंग	-1101
▁यांच्या	-1102
न्या	-1103
▁एखा	-1104
▁आणखी	-1105
ग्न	-1106
मधील	-1107
▁सुंदर	-1108
▁योज	-1109
▁जातो	-1110
रण	-1111
▁L	-1112
▁लहान	-1113
▁यांनी	-1114
▁म्हणतात	-1115
ीर	-1116
▁सांगितले	-1117
‍या	-1118
▁करायला	-1119
▁इं	-1120
▁बहु	-1121
▁खाली	-1122
▁महा	-1123
र्ट	-1124
▁ब्ल	-1125
ंबर	-1126
डर	-1127
▁करण्याची	-1128
▁राहि	-1129
▁अल्लाहचे	-1130
▁ठे	-1131
▁अभ्या	-1132
ज्ञान	-1133
▁लवकर	-1134
नो	-1135
्यावर	-1136
▁जन्	-1137
ुल्लाह	-1138
ro	-1139
अम्	-1140
▁दूर	-1141
▁समस	-1142
▁इल्ल	-1143
▁इलाह	-1144
▁इल्लल्लाह	-1145
▁रसूलुल्लाह	-1146
▁सलअम्	-1147
▁शरी	-1148
ात्	-1149
विध	-1150
स्थिती	-1151
▁पी	-1152
ब्ध	-1153
▁संक	-1154
▁निर्माण	-1155
▁दोघ	-1156
▁उत्पादन	-1157
▁हि	-1158
▁सार	-1159
▁आधी	-1160
▁करीत	-1161
‍य	-1162
▁पॅ	-1163
▁घरी	-1164
सुद्धा	-1165
▁जाणार	-1166
▁m	-1167
ूस	-1168
तिहा	-1169
बल	-1170
नं	-1171
ण्याचे	-1172
▁पाव	-1173
▁गेल्या	-1174
▁वर्षे	-1175
लब्ध	-1176
ुकी	-1177
▁२०	-1178
नल	-1179
▁अनुभव	-1180
व्य	-1181
▁भाव	-1182
▁पुर	-1183
पै	-1184
▁दोन्ही	-1185
▁E	-1186
▁उपलब्ध	-1187
वू	-1188
▁संपूर्ण	-1189
सो	-1190
▁आत्	-1191
▁लढ	-1192
el	-1193
ad	-1194
▁५	-1195
▁लिहि	-1196
▁महत्त्वा	-1197
ंची	-1198
▁बु	-1199
एल	-1200
▁पुढील	-1201
्हे	-1202
▁नो	-1203
▁ऑफ	-1204
ग्र	-1205
कि	-1206
▁दर्	-1207
्यांची	-1208
शील	-1209
▁दिवशी	-1210
गर	-1211
ायक	-1212
▁सद	-1213
▁मोठा	-1214
ांध	-1215
▁कराय	-1216
▁गेला	-1217
ाली	-1218
▁पासून	-1219
ॉन	-1220
▁येते	-1221
रुष	-1222
▁उच्च	-1223
▁कदा	-1224
दर्श	-1225
क्टर	-1226
ईट	-1227
वाह	-1228
थम	-1229
▁मुला	-1230
क्क	-1231
▁मोठ्या	-1232
il	-1233
▁अगदी	-1234
ृती	-1235
पणा	-1236
क्की	-1237
▁टे	-1238
▁पद	-1239
▁पुरव	-1240
▁पार	-1241
▁ग्र	-1242
स्कार	-1243
▁पाय	-1244
▁लक्षात	-1245
▁टाक	-1246
वारे	-1247
णं	-1248
id	-1249
▁वाह	-1250
▁व्यवसाय	-1251
▁पैसे	-1252
▁शेत	-1253
▁मराठी	-1254
वेळी	-1255
मला	-1256
घड	-1257
र्ग	-1258
चना	-1259
▁कदाचित	-1260
▁सुद्धा	-1261
▁असू	-1262
कांना	-1263
ेत्र	-1264
▁कसा	-1265
▁रात्री	-1266
▁नव्हते	-1267
नुसार	-1268
ूम	-1269
▁चांगला	-1270
्यक्ष	-1271
▁[	-1272
▁ठिकाणी	-1273
खर	-1274
▁हजार	-1275
▁महारा	-1276
and	-1277
ंचा	-1278
▁सगळे	-1279
▁खर्च	-1280
ईन	-1281
एक्स	-1282
▁विविध	-1283
▁जातात	-1284
▁प्रकाश	-1285
▁सात	-1286
टु	-1287
▁start	-1288
▁सुरक्षित	-1289
स्त्र	-1290
ावि	-1291
रोध	-1292
व्या	-1293
द्र	-1294
"&	-1295
▁dur	-1296
▁वाचा	-1297
▁नक्की	-1298
रक	-1299
णारा	-1300
तीत	-1301
▁एकत्र	-1302
).	-1303
▁आर	-1304
oo	-1305
▁रि	-1306
▁मनु	-1307
भे	-1308
▁अभि	-1309
काळी	-1310
▁पत्र	-1311
▁पक्ष	-1312
शिष्ट	-1313
▁मन	-1314
▁फोन	-1315
▁वेळा	-1316
▁स्पष्ट	-1317
यु	-1318
▁स्वा	-1319
▁तास	-1320
▁ऑनला	-1321
▁राजा	-1322
एम	-1323
तिहास	-1324
▁अभ्यास	-1325
▁f	-1326
▁सध्या	-1327
10	-1328
पैकी	-1329
▁नोक	-1330
काळ	-1331
लि	-1332
फ्ट	-1333
▁बांध	-1334
▁पुरुष	-1335
▁त्याच	-1336
▁अतिशय	-1337
▁थांब	-1338
षयी	-1339
ित्	-1340
▁स्थान	-1341
▁जोड	-1342
▁वर्षां	-1343
▁असलेल्या	-1344
पड	-1345
▁याचा	-1346
▁जि	-1347
▁काहीतरी	-1348
ंबई	-1349
▁खरेदी	-1350
ष्या	-1351
▁शेतक	-1352
्यांच्या	-1353
▁त्यासाठी	-1354
▁सामान्य	-1355
▁जण	-1356
▁जेव्हा	-1357
▁उदा	-1358
▁शह	-1359
▁ब्र	-1360
▁साठी	-1361
लाम	-1362
▁चर्	-1363
▁इंग	-1364
भर	-1365
▁उत्तम	-1366
▁वाटत	-1367
▁हवे	-1368
▁नये	-1369
▁वर्षी	-1370
इल	-1371
लाय	-1372
▁भारतात	-1373
▁माणूस	-1374
▁यश	-1375
िंक	-1376
▁राज्य	-1377
▁खु	-1378
जवळ	-1379
डिओ	-1380
ent	-1381
▁टॉ	-1382
रि	-1383
णारे	-1384
▁w	-1385
▁मृत्यू	-1386
▁फु	-1387
▁चांगली	-1388
▁ट्र	-1389
▁चौ	-1390
▁फा	-1391
▁आहेस	-1392
वेश	-1393
लिक	-1394
▁नाग	-1395
धिक	-1396
▁हिं	-1397
▁निघ	-1398
▁म्हट	-1399
▁मुंबई	-1400
ot	-1401
▁एवढ	-1402
▁व्हि	-1403
▁मोठी	-1404
स्य	-1405
ोष	-1406
▁कुटु	-1407
ल्ला	-1408
लन	-1409
▁कधीच	-1410
▁पद्ध	-1411
▁खात	-1412
म्यान	-1413
▁शहर	-1414
▁काळजी	-1415
▁लग्न	-1416
▁महिला	-1417
ag	-1418
▁शिक्षण	-1419
▁गाडी	-1420
▁शेवटी	-1421
▁विसर	-1422
▁अॅ	-1423
र्ड	-1424
▁गेली	-1425
डू	-1426
▁समस्या	-1427
▁12	-1428
▁मर	-1429
▁200	-1430
▁अं	-1431
ळेल	-1432
▁आधार	-1433
ch	-1434
▁घेतला	-1435
▁ग्राह	-1436
▁देऊ	-1437
▁परिस्थिती	-1438
▁तेथे	-1439
▁वास्त	-1440
झा	-1441
मता	-1442
▁कधीही	-1443
▁एकदा	-1444
▁तुमचा	-1445
ांक	-1446
ab	-1447
ay	-1448
ूण	-1449
▁त्यावर	-1450
▁नको	-1451
▁संर	-1452
▁आठवड	-1453
▁घाल	-1454
▁वस्त	-1455
▁यामुळे	-1456
स्थाप	-1457
सन	-1458
▁O	-1459
▁भारता	-1460
▁मशी	-1461
▁जाईल	-1462
▁लाख	-1463
▁मुलगा	-1464
▁भाषा	-1465
पत्र	-1466
बाबत	-1467
50	-1468
ध्यम	-1469
▁मज	-1470
▁अड	-1471
संग	-1472
▁असून	-1473
ल्पना	-1474
कु	-1475
▁येतो	-1476
र्य	-1477
▁याची	-1478
of	-1479
व्ही	-1480
▁देशा	-1481
▁घेऊ	-1482
्टी	-1483
▁औष	-1484
ल्ड	-1485
▁डी	-1486
▁सुधार	-1487
ंनी	-1488
नेट	-1489
▁स्त्र	-1490
सारखे	-1491
▁काहीही	-1492
्वी	-1493
▁जाणून	-1494
मो	-1495
▁सत्य	-1496
▁वृ	-1497
▁”	-1498
:1	-1499
▁तुमची	-1500
▁पुरवठा	-1501
▁जन	-1502
ंज	-1503
▁ज्ञ	-1504
▁कर्म	-1505
▁स्त्री	-1506
▁अजूनही	-1507
▁पत्	-1508
नाचा	-1509
▁संपर्क	-1510
▁प्रवेश	-1511
्याने	-1512
▁हवा	-1513
स्प	-1514
▁व्यक्त	-1515
▁क्षेत्र	-1516
▁रुप	-1517
▁मशीन	-1518
▁सै	-1519
बाब	-1520
मंत	-1521
▁अश	-1522
▁उदाहर	-1523
भार	-1524
▁गाव	-1525
▁विमान	-1526
▁खो	-1527
▁संख्या	-1528
निक	-1529
▁इस	-1530
▁‘‘	-1531
▁खेळा	-1532
▁प्रक्र	-1533
▁दृष्ट	-1534
▁उद्या	-1535
फा	-1536
▁मध	-1537
▁in	-1538
▁माहित	-1539
▁कोणती	-1540
▁मुले	-1541
▁तुमचे	-1542
▁बाज	-1543
▁असताना	-1544
▁नोकरी	-1545
▁नव्हता	-1546
▁याव	-1547
▁अत	-1548
▁अन्य	-1549
▁संधी	-1550
ri	-1551
▁तरीही	-1552
▁होतात	-1553
▁कला	-1554
▁शेवट	-1555
▁वेब	-1556
इड	-1557
000	-1558
▁सर्वोत्	-1559
राव	-1560
▁नेहमीच	-1561
▁डॉक्टर	-1562
▁बात	-1563
▁प्	-1564
▁विका	-1565
क्षि	-1566
▁करण्यास	-1567
फी	-1568
गु	-1569
▁निवडण	-1570
▁करण्याचा	-1571
▁बी	-1572
ंच्या	-1573
▁तिने	-1574
वाज	-1575
▁समाज	-1576
▁स्वी	-1577
वली	-1578
▁स्थाप	-1579
▁डाउ	-1580
▁यासाठी	-1581
▁खास	-1582
▁येश	-1583
▁)	-1584
द्योग	-1585
नलोड	-1586
त्त	-1587
▁देत	-1588
▁योजना	-1589
▁माणसा	-1590
▁पाहिले	-1591
▁प्राप्त	-1592
▁घेतली	-1593
जर	-1594
▁बाब	-1595
▁२०१	-1596
▁नियंत्र	-1597
ॉक	-1598
▁उपचार	-1599
ाच्या	-1600
▁महत्वा	-1601
▁प्रक	-1602
ष्यात	-1603
▁राष्ट्र	-1604
▁जन्म	-1605
र्ध	-1606
▁डाउनलोड	-1607
▁ऑनलाइन	-1608
▁पृथ	-1609
▁बॉ	-1610
▁जिल	-1611
▁महाराष्ट	-1612
▁करावे	-1613
▁इतिहास	-1614
देशी	-1615
un	-1616
शोध	-1617
ियम	-1618
▁अन	-1619
▁प्रथम	-1620
▁महान	-1621
▁डेट	-1622
षण	-1623
▁निर्म	-1624
्ड	-1625
▁मागे	-1626
तू	-1627
.”	-1628
ॅन	-1629
▁एकमे	-1630
▁शांत	-1631
▁अमेरिके	-1632
यं	-1633
▁बि	-1634
▁मिळाले	-1635
प्ट	-1636
▁15	-1637
▁समु	-1638
▁आकार	-1639
▁उघड	-1640
कारी	-1641
▁झोप	-1642
▁जेव	-1643
शिवाय	-1644
राष्ट	-1645
ळून	-1646
पो	-1647
▁विरोध	-1648
मारे	-1649
▁इच्छा	-1650
▁(2	-1651
▁दिसत	-1652
नाही	-1653
ow	-1654
▁गर्	-1655
▁कशी	-1656
▁कार्यक्रम	-1657
्यांचे	-1658
▁बाजार	-1659
▁पृथ्वी	-1660
ाचा	-1661
हून	-1662
ॉग	-1663
▁शाळे	-1664
▁काहीच	-1665
▁ठेवा	-1666
▁पर्यंत	-1667
▁व्याप	-1668
us	-1669
श्र	-1670
एन	-1671
▁प्रकारे	-1672
▁मंद	-1673
▁*	-1674
▁संगी	-1675
12	-1676
▁नव्हती	-1677
▁येतात	-1678
्यांचा	-1679
फे	-1680
▁मिनि	-1681
श्चित	-1682
▁शरीर	-1683
▁नावा	-1684
वला	-1685
▁नोंद	-1686
▁परी	-1687
ायचं	-1688
▁लागेल	-1689
▁औषध	-1690
मुख	-1691
▁प्रशि	-1692
▁जागा	-1693
▁धर्म	-1694
▁होतं	-1695
भाव	-1696
विषयी	-1697
▁रोज	-1698
▁तंत्र	-1699
▁चर्चा	-1700
▁मुलगी	-1701
▁मोठे	-1702
▁आयुष्य	-1703
▁पोस्ट	-1704
hi	-1705
▁वाईट	-1706
्हां	-1707
ळू	-1708
▁भवि	-1709
▁महिन	-1710
सोबत	-1711
▁पर्याय	-1712
तीने	-1713
जय	-1714
गण	-1715
▁हवी	-1716
▁शक्ती	-1717
▁स्वप्	-1718
वादी	-1719
▁सुमारे	-1720
▁अत्यंत	-1721
▁घरात	-1722
▁पृष्ठ	-1723
▁किंमत	-1724
▁केंद्र	-1725
▁म्हणतो	-1726
▁हेच	-1727
▁11	-1728
▁एस	-1729
रू	-1730
30	-1731
▁पुरस्कार	-1732
▁दरम्यान	-1733
▁धन्य	-1734
▁डे	-1735
ation	-1736
▁उपयोग	-1737
ध्	-1738
द्वारे	-1739
▁फॅ	-1740
▁आंतर	-1741
लाव	-1742
▁कुटुंब	-1743
▁पोल	-1744
▁एखाद्या	-1745
▁आरोग	-1746
▁मिळेल	-1747
amp	-1748
▁विभाग	-1749
रोप	-1750
▁ख्रि	-1751
▁फोट	-1752
▁टि	-1753
जिक	-1754
▁सर्वोत्तम	-1755
▁सामा	-1756
▁६	-1757
▁18	-1758
▁बद	-1759
▁#	-1760
ृत्ती	-1761
▁K	-1762
्रिक	-1763
▁बाळ	-1764
▁संशोध	-1765
▁भाज	-1766
दु	-1767
ठीण	-1768
वेग	-1769
▁कामा	-1770
os	-1771
▁करताना	-1772
▁घेतले	-1773
▁तरु	-1774
▁यावर	-1775
ut	-1776
▁V	-1777
▁गुणव	-1778
ाती	-1779
ाची	-1780
गि	-1781
हार	-1782
▁स्टे	-1783
िश	-1784
▁कठीण	-1785
▁+	-1786
▁जिंक	-1787
ंचे	-1788
▁मंड	-1789
विले	-1790
ec	-1791
तून	-1792
▁संदेश	-1793
▁कप	-1794
ँड	-1795
▁चुकी	-1796
ल्यावर	-1797
▁लागले	-1798
समोर	-1799
▁बाय	-1800
▁पत्नी	-1801
स्ट्र	-1802
णारी	-1803
दर्शन	-1804
▁एकूण	-1805
▁त्यावेळी	-1806
▁दुसऱ्या	-1807
▁l	-1808
▁चि	-1809
▁चांगल्या	-1810
▁आढ	-1811
लेट	-1812
ात्मक	-1813
▁कार्या	-1814
▁संबंधित	-1815
▁मूल	-1816
▁देशात	-1817
ir	-1818
प्रे	-1819
▁गाय	-1820
हू	-1821
ल्स	-1822
▁आवाज	-1823
▁नुक	-1824
▁उपाय	-1825
▁बरोबर	-1826
नाची	-1827
19	-1828
▁बॅ	-1829
iv	-1830
▁कोणाला	-1831
प्प	-1832
▁येशू	-1833
▁प्रभाव	-1834
▁of	-1835
▁पहिला	-1836
ोडे	-1837
▁म्हटले	-1838
▁टॅट	-1839
▁इस्रा	-1840
राष्ट्रीय	-1841
▁मुलांना	-1842
णाली	-1843
नावर	-1844
▁h	-1845
शिया	-1846
ाता	-1847
सिक	-1848
▁१०	-1849
नाला	-1850
▁U	-1851
▁वी	-1852
nd	-1853
▁कोणा	-1854
▁असल्याचे	-1855
ण्याच्या	-1856
▁खेळाडू	-1857
▁प्रो	-1858
▁मुद्	-1859
वं	-1860
वेअर	-1861
▁सर्	-1862
▁देण्यात	-1863
▁वस्तू	-1864
▁आत्म	-1865
▁भारत	-1866
▁सापड	-1867
न्हा	-1868
▁येऊ	-1869
▁त्यातून	-1870
▁असतील	-1871
ंभीर	-1872
em	-1873
▁मान्य	-1874
▁दुर्	-1875
▁टॅ	-1876
▁घरा	-1877
पि	-1878
.0	-1879
आय	-1880
दारी	-1881
▁अमेरिकन	-1882
15	-1883
▁कल्पना	-1884
स्ती	-1885
▁आक	-1886
▁धन्यवाद	-1887
किस्ता	-1888
मधून	-1889
▁आठव	-1890
▁माध्यम	-1891
ष्क	-1892
शल	-1893
▁गंभीर	-1894
▁नागरिक	-1895
ॅम	-1896
16	-1897
युक्त	-1898
▁विकास	-1899
▁स्क	-1900
▁बँ	-1901
▁समर्थ	-1902
क्षणा	-1903
तः	-1904
▁होत्या	-1905
▁लाभ	-1906
:2	-1907
▁30	-1908
▁पहा	-1909
▁यांना	-1910
लंब	-1911
▁सॉ	-1912
ावेश	-1913
मेल	-1914
▁अधिकार	-1915
▁मॉ	-1916
▁उत्पादने	-1917
वरील	-1918
वित्र	-1919
बे	-1920
▁वेगवेग	-1921
▁स्थिती	-1922
▁द्	-1923
▁फोटो	-1924
▁ग्राहक	-1925
▁केलेल्या	-1926
▁टॅटू	-1927
▁सौ	-1928
यू	-1929
नाच्या	-1930
▁घ्याय	-1931
▁छोट	-1932
▁सकाळी	-1933
18	-1934
धारण	-1935
ाचे	-1936
▁न्या	-1937
▁J	-1938
▁वेळे	-1939
▁सदस्य	-1940
op	-1941
क्षे	-1942
▁स्वीकार	-1943
▁जगात	-1944
▁विक्री	-1945
▁युद्ध	-1946
लोक	-1947
दि	-1948
▁व्याव	-1949
▁एक्स	-1950
▁पूर्व	-1951
▁आमचे	-1952
स्वी	-1953
▁प्रणाली	-1954
▁कोणते	-1955
नक	-1956
▁जबाब	-1957
चित्र	-1958
▁पेक्षा	-1959
▁नेत	-1960
▁सहन	-1961
्हांला	-1962
▁साहित	-1963
▁नसते	-1964
▁»	-1965
पया	-1966
▁७	-1967
▁व्हिडिओ	-1968
िता	-1969
माव	-1970
▁भाऊ	-1971
ap	-1972
डक	-1973
तन	-1974
▁करावा	-1975
▁उद्	-1976
▁साली	-1977
4)	-1978
ex	-1979
▁मुक्त	-1980
▁प्रक्रिया	-1981
▁प्रसि	-1982
▁बद्दल	-1983
ल्वे	-1984
णार्	-1985
चन	-1986
▁इंग्र	-1987
▁मोबा	-1988
▁दक्षि	-1989
▁जगातील	-1990
क्षम	-1991
▁पोलिस	-1992
▁नव्हे	-1993
विक	-1994
मन	-1995
▁पाकिस्ता	-1996
▁शिक्षक	-1997
ers	-1998
▁ठा	-1999
▁महाराष्ट्र	-2000
ल्ले	-2001
3)	-2002
ड्या	-2003
▁खरो	-2004
▁देतो	-2005
▁घटना	-2006
▁व्यवस्थाप	-2007
▁and	-2008
▁आत	-2009
▁मै	-2010
oc	-2011
▁पट	-2012
▁प्रतिक	-2013
्रास	-2014
▁डिझा	-2015
▁क्षमा	-2016
▁ट्रे	-2017
चणी	-2018
▁the	-2019
▁मॅ	-2020
▁14	-2021
▁यावेळी	-2022
▁एकच	-2023
▁काल	-2024
▁मनुष्य	-2025
▁समावेश	-2026
र्न	-2027
▁पोहो	-2028
▁राष्ट्रीय	-2029
▁कृपया	-2030
▁बोलत	-2031
▁क्रम	-2032
▁लवकरच	-2033
▁सूर	-2034
स्थित	-2035
▁क्षमता	-2036
▁तुझे	-2037
▁बाजू	-2038
▁जपा	-2039
▁16	-2040
▁संगीत	-2041
▁थे	-2042
▁रेल्वे	-2043
ांशी	-2044
▁इंटर	-2045
▁शक्यता	-2046
▁तार	-2047
▁आंतरराष्ट्रीय	-2048
▁कश	-2049
▁दुसरा	-2050
ess	-2051
▁सोडून	-2052
्रु	-2053
▁मिळाली	-2054
▁सां	-2055
ूट	-2056
▁एकाच	-2057
लंड	-2058
▁सहा	-2059
▁लांब	-2060
▁दृष्टी	-2061
▁पवित्र	-2062
▁भूम	-2063
▁आयुष्यात	-2064
▁ठरव	-2065
▁निरा	-2066
▁२००	-2067
▁९	-2068
▁जादू	-2069
ज्	-2070
▁तेच	-2071
णात	-2072
▁वाज	-2073
▁संरक्षण	-2074
▁उठ	-2075
▁कोर	-2076
▁विद्यार्थी	-2077
▁13	-2078
नाचे	-2079
1)	-2080
’.	-2081
▁आमची	-2082
▁मिळत	-2083
▁खरोखर	-2084
ंक	-2085
र्थिक	-2086
▁सामाजिक	-2087
▁सोपे	-2088
▁पुरवठादार	-2089
ेन	-2090
▁बरे	-2091
भूत	-2092
▁दहा	-2093
▁गुंत	-2094
▁उद्योग	-2095
ल्ली	-2096
वय	-2097
▁स्वर	-2098
▁$	-2099
▁चिं	-2100
ig	-2101
▁प्ल	-2102
▁करु	-2103
▁लागली	-2104
▁चेह	-2105
्याची	-2106
्याच्या	-2107
▁सुरक्षा	-2108
▁जाऊन	-2109
पीठ	-2110
▁फायदा	-2111
▁व्यावसाय	-2112
▁तपास	-2113
▁डेटा	-2114
▁शाळा	-2115
नाने	-2116
▁आश्च	-2117
▁आजही	-2118
▁निश्चित	-2119
यला	-2120
स्थे	-2121
▁2018	-2122
▁बनव	-2123
▁विचारले	-2124
▁उत्पादक	-2125
नीय	-2126
▁प्रमाणात	-2127
गाव	-2128
▁तुल	-2129
7)	-2130
▁करायचे	-2131
▁दी	-2132
▁दर्श	-2133
हन	-2134
लंय	-2135
▁एम	-2136
ंदाज	-2137
पथ	-2138
▁८	-2139
▁युरोप	-2140
▁आर्थिक	-2141
▁होय	-2142
▁वर्ग	-2143
▁प्रार्थ	-2144
क्‍	-2145
सर्ग	-2146
▁स्वागत	-2147
▁सुट	-2148
गिरी	-2149
ज्ञा	-2150
▁असणार	-2151
▁रक्त	-2152
फत	-2153
▁कशा	-2154
▁100	-2155
मती	-2156
▁येथ	-2157
▁तरुण	-2158
रणा	-2159
um	-2160
▁वेगळे	-2161
▁•	-2162
▁पाऊ	-2163
▁खालील	-2164
▁अधिकारी	-2165
▁मागणी	-2166
▁तिस	-2167
वाला	-2168
वाई	-2169
▁असल्यास	-2170
▁ऱ	-2171
▁व्यावसायिक	-2172
लित	-2173
ायची	-2174
▁अह	-2175
▁अर्	-2176
▁लाव	-2177
▁म्हणूनच	-2178
▁अरे	-2179
ार्व	-2180
ष्ण	-2181
प्रिय	-2182
▁स्वयं	-2183
▁विजय	-2184
यर	-2185
▁स्वतःला	-2186
▁साइट	-2187
▁होऊन	-2188
कर्	-2189
ोजन	-2190
तोय	-2191
▁वड	-2192
जाव	-2193
▁लागू	-2194
गड	-2195
▁ज्ञान	-2196
▁इस्राएल	-2197
▁पूर्णपणे	-2198
▁खरंच	-2199
▁राजकार	-2200
▁माझ्यासाठी	-2201
▁वय	-2202
▁17	-2203
▁विवाह	-2204
▁आशा	-2205
▁करेल	-2206
▁वजन	-2207
im	-2208
्याला	-2209
▁आवश्यकता	-2210
▁सर्वांना	-2211
▁वैशिष्ट	-2212
▁रुग्	-2213
▁वार	-2214
वायला	-2215
▁दिवसा	-2216
ांतर	-2217
▁जर्म	-2218
वासा	-2219
▁विकत	-2220
▁इच्छित	-2221
▁दुसरी	-2222
▁कोणीही	-2223
▁वाटतं	-2224
▁न्याया	-2225
▁कौ	-2226
ीन	-2227
▁अधिका	-2228
वणूक	-2229
▁g	-2230
िनो	-2231
र्‍या	-2232
▁पहिल्यांदा	-2233
लट	-2234
▁काळात	-2235
▁त्रास	-2236
av	-2237
▁पकड	-2238
▁ढ	-2239
▁दाखव	-2240
▁देते	-2241
▁खोली	-2242
▁लागते	-2243
खाली	-2244
ंडी	-2245
सान	-2246
▁स्वप्न	-2247
▁म्हणा	-2248
2)	-2249
▁पोहोच	-2250
13	-2251
▁चालू	-2252
▁अस्त	-2253
▁सॉफ्ट	-2254
▁स्त्रिय	-2255
▁बै	-2256
क्य	-2257
▁फॉ	-2258
5)	-2259
▁संस्क	-2260
▁भाजप	-2261
मिक	-2262
▁साहित्य	-2263
क्के	-2264
▁महिलां	-2265
▁इथ	-2266
▁याचे	-2267
▁करावी	-2268
▁आलो	-2269
▁प्रदान	-2270
▁यादी	-2271
ीला	-2272
▁संस्था	-2273
▁नेम	-2274
भागी	-2275
▁कर्त	-2276
ub	-2277
▁उत्स	-2278
▁घटक	-2279
ुल	-2280
डिया	-2281
शियन	-2282
▁पहिली	-2283
ताही	-2284
▁देणार	-2285
▁कोटी	-2286
र्ती	-2287
▁पुणे	-2288
पती	-2289
6)	-2290
टेड	-2291
▁सगळ्या	-2292
▁आरोग्य	-2293
▁यू	-2294
▁24	-2295
▁बाकी	-2296
ल्यास	-2297
रोज	-2298
▁हस	-2299
▁भी	-2300
.5	-2301
र्गत	-2302
दाय	-2303
घा	-2304
▁करुन	-2305
▁तेवढ	-2306
▁गेल	-2307
▁25	-2308
▁श्रे	-2309
▁राजकीय	-2310
▁याला	-2311
रुद्ध	-2312
▁झालेल्या	-2313
ध्द	-2314
▁अम	-2315
ृह	-2316
▁तुझी	-2317
▁आश्चर्य	-2318
▁एल	-2319
ृश	-2320
▁फि	-2321
▁शत्र	-2322
▁पावडर	-2323
दय	-2324
ुत	-2325
▁एफ	-2326
14	-2327
▁कायदा	-2328
8)	-2329
▁न्याय	-2330
ame	-2331
▁प्रार्थना	-2332
▁तसा	-2333
17	-2334
▁प्रसिद्ध	-2335
वाल	-2336
्याचा	-2337
▁तत्	-2338
▁इमार	-2339
▁साथ	-2340
काम	-2341
▁सांगतो	-2342
▁कॅस	-2343
▁यांचे	-2344
▁प्रयोग	-2345
▁गॅ	-2346
ृत्वा	-2347
▁to	-2348
▁मानले	-2349
▁धाव	-2350
आर	-2351
▁इंग्रजी	-2352
▁रस्त	-2353
चारी	-2354
▁पुरे	-2355
▁धो	-2356
▁तिचा	-2357
▁धा	-2358
▁शेतकऱ	-2359
▁शपथ	-2360
▁लेखक	-2361
ॉप	-2362
▁समोर	-2363
ov	-2364
रिक्त	-2365
▁n	-2366
▁भरपूर	-2367
▁असत	-2368
▁कम	-2369
ग्री	-2370
▁प्रशिक्षण	-2371
▁कशाला	-2372
श्‍	-2373
▁प्रमुख	-2374
▁केलेले	-2375
▁नियंत्रण	-2376
▁मते	-2377
▁बहुते	-2378
),	-2379
▁सतत	-2380
▁सिद्ध	-2381
ांती	-2382
▁नाहीये	-2383
▁ड्र	-2384
▁तित	-2385
▁पुढच्या	-2386
लेस	-2387
com	-2388
ड्	-2389
▁मांड	-2390
▁अंतिम	-2391
▁चौक	-2392
▁मिळणार	-2393
ter	-2394
ँग	-2395
चर	-2396
▁अध्यक्ष	-2397
ढे	-2398
▁सार्व	-2399
▁आफ	-2400
▁एच	-2401
▁लागला	-2402
▁तुम्हांला	-2403
▁थोडा	-2404
▁पालक	-2405
▁मध्य	-2406
est	-2407
▁दक्षिण	-2408
▁घात	-2409
▁डिझाइन	-2410
लया	-2411
▁हॉट	-2412
▁प्रत्यक्ष	-2413
▁खात्री	-2414
og	-2415
▁गण	-2416
ुर	-2417
▁ऊ	-2418
▁सगळं	-2419
▁ब्लॅक	-2420
▁हाय	-2421
▁मिळाला	-2422
▁अन्न	-2423
▁मागील	-2424
▁वापरले	-2425
9)	-2426
▁समान	-2427
▁Y	-2428
▁मिनिट	-2429
दिव	-2430
▁सॉफ्टवेअर	-2431
क्या	-2432
▁द्याय	-2433
ack	-2434
रीत	-2435
▁यंत्र	-2436
▁महिन्या	-2437
▁लोकांनी	-2438
▁कार्ड	-2439
▁आल्या	-2440
▁अर्थात	-2441
▁प्रशा	-2442
▁कर्ज	-2443
▁जल	-2444
▁लोकप्रिय	-2445
▁बहुतेक	-2446
जरा	-2447
मेंट	-2448
80	-2449
▁असता	-2450
▁घाबर	-2451
▁खरं	-2452
▁नक्कीच	-2453
▁खरा	-2454
▁वेबसा	-2455
क्शन	-2456
▁नै	-2457
म्प	-2458
▁पात	-2459
त्रिक	-2460
▁थोडे	-2461
▁ऑस्ट्र	-2462
▁(3	-2463
जि	-2464
.2	-2465
▁टॉम	-2466
विता	-2467
▁यांचा	-2468
▁मनात	-2469
▁टक्के	-2470
▁दिसते	-2471
▁तुझा	-2472
▁यांची	-2473
ra	-2474
आप	-2475
ंगा	-2476
▁वडील	-2477
द्धी	-2478
▁डॉल	-2479
▁नुकसान	-2480
▁साव	-2481
▁विद्यापीठ	-2482
जण	-2483
▁विश्व	-2484
▁भूमिका	-2485
▁दरवा	-2486
▁संगण	-2487
मार्	-2488
▁प्रती	-2489
▁a	-2490
कृष्ट	-2491
द्द	-2492
▁X	-2493
वेत	-2494
घात	-2495
▁रह	-2496
▁प्रदेश	-2497
▁धु	-2498
▁अनेकदा	-2499
▁आग	-2500
60	-2501
ia	-2502
▁करणारे	-2503
▁चुक	-2504
सारखा	-2505
▁लढा	-2506
बॉल	-2507
▁समजून	-2508
▁सर्वा	-2509
व्यव	-2510
णि	-2511
▁धोर	-2512
▁कॅसिनो	-2513
▁पुनराव	-2514
दर्भ	-2515
्रेस	-2516
▁ऍ	-2517
▁व्हा	-2518
वित	-2519
▁१८	-2520
▁नदी	-2521
ळं	-2522
गतिक	-2523
▁दोघे	-2524
▁स्टील	-2525
▁2019	-2526
विण्यासाठी	-2527
डून	-2528
▁असणे	-2529
नेत	-2530
▁नसेल	-2531
ायचा	-2532
▁प्रकल्प	-2533
▁मॉड	-2534
▁गुणवत्ता	-2535
▁विमा	-2536
▁श्र	-2537
▁इतके	-2538
ोबर	-2539
▁जवळपास	-2540
▁काढून	-2541
िब	-2542
th	-2543
▁रूप	-2544
लब	-2545
▁50	-2546
▁परा	-2547
▁उतर	-2548
▁संस्कृती	-2549
▁शत्रू	-2550
▁सेक्स	-2551
▁मोफत	-2552
▁आकर्ष	-2553
माझ	-2554
संब	-2555
हेब	-2556
▁थेट	-2557
टन	-2558
▁शिव	-2559
▁पहिले	-2560
▁दाखल	-2561
वता	-2562
▁जाग	-2563
▁घेणे	-2564
▁शहरात	-2565
नाम	-2566
▁फ्र	-2567
▁केलं	-2568
लात	-2569
▁खूपच	-2570
▁दुका	-2571
▁रोजी	-2572
ाते	-2573
अल	-2574
व्हर	-2575
▁चिंता	-2576
▁वर्ण	-2577
▁इतकी	-2578
▁भि	-2579
▁शाळेत	-2580
▁तंत्रज्ञान	-2581
▁राहणार	-2582
षा	-2583
▁गुरु	-2584
▁जून	-2585
▁दिन	-2586
▁मतदान	-2587
▁१५	-2588
▁लोकां	-2589
मीन	-2590
▁पैसा	-2591
भू	-2592
ल्याने	-2593
▁कोणताही	-2594
▁तप	-2595
▁मिळा	-2596
▁वेगळी	-2597
▁यशस्वी	-2598
▁गट	-2599
40	-2600
▁फिर	-2601
▁मां	-2602
▁स्वच्छ	-2603
▁॥	-2604
▁उमे	-2605
▁तिचे	-2606
िटल	-2607
▁करायची	-2608
वीस	-2609
▁ब्लॉग	-2610
ul	-2611
▁याच	-2612
▁शकेल	-2613
ct	-2614
▁नकार	-2615
▁देतात	-2616
▁कुठून	-2617
▁कपडे	-2618
▁y	-2619
▁बर	-2620
▁re	-2621
मंत्री	-2622
▁वाद	-2623
त्ते	-2624
▁म्हणाली	-2625
ht	-2626
ोस	-2627
▁यहू	-2628
▁सिं	-2629
▁अंदाज	-2630
ate	-2631
▁घोष	-2632
▁फ्रे	-2633
:3	-2634
▁विशिष्ट	-2635
सित	-2636
▁लो	-2637
▁साधारण	-2638
▁असलेले	-2639
स्व	-2640
▁आढळ	-2641
▁परवान	-2642
ढी	-2643
▁असल्याने	-2644
▁काळा	-2645
▁सांगा	-2646
्याचे	-2647
-2	-2648
देख	-2649
माला	-2650
▁कालाव	-2651
▁तिथ	-2652
▁डोळे	-2653
▁निर	-2654
▁कोणतीही	-2655
▁पर्यावर	-2656
▁पदार्थ	-2657
▁न्यू	-2658
▁आवडते	-2659
▁पास	-2660
दर्शक	-2661
▁जाहि	-2662
▁ऑक्ट	-2663
लास	-2664
ंधी	-2665
▁दोष	-2666
त्कार	-2667
स्टिक	-2668
▁विस्त	-2669
▁कालावधी	-2670
▁पाहू	-2671
ग्रह	-2672
लयात	-2673
one	-2674
▁स्पर्	-2675
▁समर्थन	-2676
क्तिक	-2677
▁जिल्हा	-2678
▁सहज	-2679
▁तथ	-2680
▁इंटरनेट	-2681
▁मोबाइल	-2682
िके	-2683
▁आदेश	-2684
="2	-2685
▁धर	-2686
.9	-2687
साद	-2688
▁जागतिक	-2689
▁कुणी	-2690
▁दररोज	-2691
▁प्राणी	-2692
भि	-2693
▁काग	-2694
▁चु	-2695
▁तिची	-2696
ंडा	-2697
ठीक	-2698
जनिक	-2699
▁किमान	-2700
▁शी	-2701
▁एन	-2702
ळ्यात	-2703
▁दात	-2704
यक्तिक	-2705
ांत्रिक	-2706
▁उमेद	-2707
▁चूक	-2708
▁भू	-2709
▁यो	-2710
▁साधन	-2711
गो	-2712
▁जाने	-2713
▁बातम्या	-2714
कारक	-2715
▁कथा	-2716
▁संशोधन	-2717
▁कार्यक	-2718
▁तसं	-2719
ang	-2720
▁भावना	-2721
▁जसे	-2722
्यांवर	-2723
ंटी	-2724
▁In	-2725
▁उपस्थित	-2726
क्का	-2727
आधी	-2728
▁तेल	-2729
▁मर्या	-2730
▁ऑस्ट्रेल	-2731
▁v	-2732
ep	-2733
▁निर्मिती	-2734
कूल	-2735
▁माझ्याकडे	-2736
▁स्थानिक	-2737
स्टर	-2738
▁आठवड्यात	-2739
▁शै	-2740
▁वात	-2741
कल	-2742
करणे	-2743
▁प्रेरणा	-2744
▁वित	-2745
▁आतापर्यंत	-2746
ान्स	-2747
▁वर्षांपूर्वी	-2748
राम	-2749
▁कस	-2750
ोरी	-2751
देखील	-2752
▁प्रकारच्या	-2753
▁मूळ	-2754
▁मानवी	-2755
ly	-2756
▁करण्याचे	-2757
▁मिळते	-2758
▁सेव	-2759
कां	-2760
▁कर्मचारी	-2761
▁वीर	-2762
▁देणे	-2763
▁समुद्र	-2764
▁कर्	-2765
▁सगळी	-2766
राच्या	-2767
▁सेट	-2768
▁अर्ज	-2769
▁पाकिस्तान	-2770
▁महत्त्वाचे	-2771
ome	-2772
▁जिव	-2773
▁दिवा	-2774
▁झालं	-2775
ड्र	-2776
▁गेलो	-2777
▁2017	-2778
्रेड	-2779
पूर्व	-2780
▁वेगळा	-2781
▁जाहिरात	-2782
▁हातात	-2783
ob	-2784
▁आकाश	-2785
▁क्रमांक	-2786
▁त्यातील	-2787
▁परवानगी	-2788
▁घेतो	-2789
▁1.	-2790
काही	-2791
▁मजा	-2792
▁ऑक्टोबर	-2793
▁आवडत	-2794
▁सूचना	-2795
ोनस	-2796
▁प्रिय	-2797
▁१२	-2798
्टर	-2799
11	-2800
ठे	-2801
तिक	-2802
नासाठी	-2803
▁लाल	-2804
दायक	-2805
▁शिवाय	-2806
▁मुद्दा	-2807
क्षी	-2808
णाला	-2809
▁मोदी	-2810
▁होणे	-2811
ेड	-2812
क्ति	-2813
▁मागा	-2814
▁फ्ल	-2815
▁महत्त्व	-2816
▁ईश्वर	-2817
▁जानेवारी	-2818
▁सार्वजनिक	-2819
लिंग	-2820
▁गां	-2821
गाने	-2822
क्टरी	-2823
▁मंत्र	-2824
ल्क	-2825
▁वडि	-2826
▁हु	-2827
▁केस	-2828
▁आज्ञ	-2829
तुम्ही	-2830
▁नव्या	-2831
▁वैयक्तिक	-2832
▁मुलं	-2833
▁सक्षम	-2834
▁पूर्वी	-2835
▁आईची	-2836
▁प्रस्ता	-2837
▁वाग	-2838
बु	-2839
▁कट	-2840
▁करार	-2841
रित	-2842
▁पार्	-2843
▁कोड	-2844
▁th	-2845
▁समिती	-2846
▁आमचा	-2847
▁मार्च	-2848
नाव	-2849
▁टो	-2850
एफ	-2851
▁आध	-2852
▁अचा	-2853
▁अंग	-2854
▁बँक	-2855
”.	-2856
▁सल्ला	-2857
▁दार	-2858
▁संकेत	-2859
▁अपेक्षा	-2860
ist	-2861
▁असले	-2862
लीन	-2863
▁प्रकारचे	-2864
▁सहभागी	-2865
▁फरक	-2866
od	-2867
▁विधान	-2868
if	-2869
▁थोडी	-2870
परा	-2871
▁बोनस	-2872
▁किलो	-2873
▁महिन्यात	-2874
ताच	-2875
▁उच	-2876
▁येथील	-2877
▁स्वतंत्र	-2878
▁इतका	-2879
▁कायम	-2880
▁माय	-2881
▁दृश	-2882
▁जिल्ह	-2883
▁ठेवले	-2884
▁सिने	-2885
▁संदर्भ	-2886
▁कॉल	-2887
▁वेगवेगळ्या	-2888
्यातील	-2889
▁माध्यमातून	-2890
▁सामना	-2891
▁रड	-2892
बो	-2893
▁मनुष्या	-2894
▁बैठ	-2895
प्पा	-2896
शास्त्र	-2897
लेज	-2898
▁महत्वाचे	-2899
▁प्रतिक्र	-2900
▁राहिले	-2901
▁अचानक	-2902
▁अंतर	-2903
▁£	-2904
▁माणस	-2905
पद	-2906
▁बाळा	-2907
▁प्रभावी	-2908
▁करणारा	-2909
-0	-2910
भरात	-2911
ुनिक	-2912
▁खोट	-2913
▁डोक	-2914
▁स्पर्ध	-2915
ment	-2916
▁सलाम	-2917
▁हवं	-2918
▁अक्ष	-2919
▁उदाहरण	-2920
▁आयुष्या	-2921
▁हाच	-2922
▁पॉ	-2923
▁क्षण	-2924
▁दुष्	-2925
▁मतदार	-2926
काच्या	-2927
▁चाचणी	-2928
▁होण्याची	-2929
▁दिसून	-2930
विधा	-2931
;&	-2932
▁चंद्र	-2933
▁विकसित	-2934
▁प्रच	-2935
▁असेही	-2936
▁जेवण	-2937
▁चढ	-2938
ip	-2939
▁जगा	-2940
▁द्वारे	-2941
▁थंड	-2942
ाहीर	-2943
▁कविता	-2944
▁पां	-2945
▁वस	-2946
्यांसाठी	-2947
म्स	-2948
▁पुस्तके	-2949
▁प्रकरण	-2950
लीस	-2951
▁हॉ	-2952
कॉ	-2953
▁जिवंत	-2954
▁वडिलां	-2955
▁दुसरे	-2956
▁रवि	-2957
▁मंत	-2958
सरी	-2959
70	-2960
arat	-2961
▁टीव्ही	-2962
मिनी	-2963
▁महिने	-2964
▁22	-2965
सारखी	-2966
▁ताप	-2967
▁रुपये	-2968
▁रात्र	-2969
▁स्मार	-2970
ल्यानंतर	-2971
टली	-2972
्लो	-2973
▁ऋ	-2974
▁राहू	-2975
▁बरेच	-2976
▁ब्रिट	-2977
▁करायचा	-2978
▁नोंदणी	-2979
▁पुनरावलोक	-2980
लेक्ट	-2981
ine	-2982
▁आधारित	-2983
▁ठेवली	-2984
▁बाबतीत	-2985
▁ठीक	-2986
▁कल	-2987
▁पाऊस	-2988
▁हार्	-2989
▁पद्धती	-2990
▁इंड	-2991
▁रोग	-2992
वणे	-2993
▁सांगत	-2994
▁आत्ता	-2995
▁कारवाई	-2996
▁घोषणा	-2997
▁जबाबदारी	-2998
▁येऊन	-2999
नांसाठी	-3000
ंदी	-3001
▁अंतर्गत	-3002
-20	-3003
सू	-3004
▁राही	-3005
▁पाप	-3006
ूने	-3007
▁अवलंब	-3008
ळात	-3009
▁मॉडेल	-3010
▁अमेरिकेत	-3011
लै	-3012
प्रयोग	-3013
▁श्रीमंत	-3014
▁स्थापना	-3015
▁शो	-3016
▁साजरा	-3017
▁आपल्याकडे	-3018
▁पंत	-3019
स्थान	-3020
▁उन्हा	-3021
▁लागणार	-3022
पुढे	-3023
▁मंग	-3024
परि	-3025
वाने	-3026
वजी	-3027
▁हीच	-3028
▁देऊन	-3029
य़	-3030
ost	-3031
▁संवाद	-3032
▁टाळ	-3033
प्रधान	-3034
▁कारखा	-3035
▁सत्ता	-3036
ाविष्ट	-3037
45	-3038
▁लागतो	-3039
ारंभ	-3040
▁अंध	-3041
ेशन	-3042
▁दिल्ली	-3043
करी	-3044
▁वर्षात	-3045
च्य	-3046
याच्या	-3047
▁फुट	-3048
ce	-3049
▁सूर्य	-3050
ak	-3051
ायर	-3052
▁मालिका	-3053
▁वेबसाइट	-3054
र्मा	-3055
▁नाश	-3056
▁बघा	-3057
▁जुन	-3058
णार्थ	-3059
िकेट	-3060
रिका	-3061
ेच	-3062
▁फॅक्टरी	-3063
बि	-3064
▁कलाकार	-3065
▁समाविष्ट	-3066
▁नी	-3067
▁जाहीर	-3068
▁व्यवस्था	-3069
▁झालेले	-3070
त्रा	-3071
मच्या	-3072
▁निवडणूक	-3073
▁वातावर	-3074
▁दर्जा	-3075
▁कागद	-3076
".	-3077
दित	-3078
▁देवाने	-3079
लियन	-3080
▁करतील	-3081
ंबा	-3082
ew	-3083
▁विज्ञान	-3084
▁सुरवात	-3085
ous	-3086
करिता	-3087
▁संगणक	-3088
▁परिव	-3089
.3	-3090
▁दू	-3091
▁फायदे	-3092
वासी	-3093
▁शास	-3094
▁गुंतवणूक	-3095
▁पातळी	-3096
▁माझ्यावर	-3097
गेच	-3098
ारीख	-3099
काल	-3100
▁ब्रा	-3101
ोजित	-3102
▁केलेली	-3103
ल्लेख	-3104
वण्यासाठी	-3105
ॅप	-3106
▁असो	-3107
ोब	-3108
▁नियमित	-3109
▁देवाच्या	-3110
▁झालेली	-3111
▁कमा	-3112
▁कं	-3113
▁आधीच	-3114
▁दुप	-3115
▁वॉ	-3116
रत	-3117
▁वं	-3118
▁सादर	-3119
▁जर्मनी	-3120
बूत	-3121
▁वन	-3122
म्ह	-3123
▁शोधत	-3124
...]	-3125
▁झालो	-3126
वरून	-3127
प्टे	-3128
सारख्या	-3129
▁असेच	-3130
रीब	-3131
▁हल	-3132
▁आलं	-3133
▁लगेच	-3134
▁डॉलर	-3135
▁उत्कृष्ट	-3136
शाही	-3137
प्रिल	-3138
▁स्ल	-3139
र्षी	-3140
▁में	-3141
▁सोबत	-3142
▁म्हणत	-3143
▁कोणतेही	-3144
▁कामगिरी	-3145
▁तोंड	-3146
▁St	-3147
▁सर्वाधिक	-3148
▁वळ	-3149
व्हे	-3150
णाचा	-3151
▁असलेली	-3152
▁जमीन	-3153
▁धोका	-3154
▁वैद्य	-3155
▁भविष्य	-3156
▁आफ्रिक	-3157
वेळ	-3158
▁वाटले	-3159
▁[...]	-3160
▁वर्षा	-3161
्म	-3162
नाय	-3163
▁राहतात	-3164
▁पाड	-3165
▁रचना	-3166
▁क्लिक	-3167
▁इलेक्ट	-3168
▁जवळजवळ	-3169
ांश	-3170
▁परिष	-3171
▁वर्त	-3172
ant	-3173
राज	-3174
▁स्वात	-3175
▁निक	-3176
▁होतील	-3177
▁अनुप्रयोग	-3178
▁खि	-3179
▁वीर्य	-3180
▁निका	-3181
▁is	-3182
प्टेंबर	-3183
▁यातनांसाठी	-3184
▁स्म	-3185
▁Ch	-3186
▁ऑपर	-3187
▁निव	-3188
up	-3189
गती	-3190
▁आरोप	-3191
▁चेहरा	-3192
▁जाता	-3193
कला	-3194
ाया	-3195
▁उभ	-3196
ित्व	-3197
▁स्वातंत्र	-3198
एच	-3199
▁पश्च	-3200
ूल्य	-3201
▁व्यवहार	-3202
▁जमिनी	-3203
▁आवृत्ती	-3204
▁पाळ	-3205
▁माझं	-3206
▁जुन्या	-3207
▁बंध	-3208
▁सामग्री	-3209
▁हत्या	-3210
▁2015	-3211
न्हे	-3212
▁चर्च	-3213
ik	-3214
▁घेता	-3215
▁धोरण	-3216
▁अमेरिका	-3217
▁जरा	-3218
प्स	-3219
आम्ही	-3220
▁एप्रिल	-3221
▁23	-3222
देशीर	-3223
▁ऑर्	-3224
▁जम	-3225
▁प्रतिक्रिया	-3226
▁बातमी	-3227
▁उल्लेख	-3228
mm	-3229
शु	-3230
▁दिवसात	-3231
▁तारीख	-3232
▁पत्रकार	-3233
प्रा	-3234
▁परीक्षा	-3235
▁कामे	-3236
▁त्यांच्यावर	-3237
▁बाबा	-3238
▁मंदिर	-3239
,000	-3240
▁पंतप्रधान	-3241
विश्	-3242
▁Q	-3243
▁पह	-3244
▁आंद	-3245
▁सप्टेंबर	-3246
▁वाहन	-3247
दन	-3248
▁Re	-3249
▁पर्य	-3250
०००	-3251
▁असतं	-3252
▁बाजूला	-3253
▁बाल	-3254
▁हक्क	-3255
▁सहकार	-3256
▁क्रिकेट	-3257
are	-3258
▁उभे	-3259
▁अद्या	-3260
▁आत्मा	-3261
▁शुद्ध	-3262
out	-3263
▁मोज	-3264
▁कामगार	-3265
ity	-3266
▁येतील	-3267
▁कायद्या	-3268
▁शत	-3269
▁मूर्	-3270
▁प्रकाशित	-3271
▁तयारी	-3272
▁लिहिले	-3273
कृत	-3274
▁तिक	-3275
▁गरीब	-3276
▁अशाच	-3277
▁नेट	-3278
ऱ्यांना	-3279
काने	-3280
▁याबाबत	-3281
▁लोकसं	-3282
▁नम	-3283
▁स्वरूप	-3284
▁2014	-3285
▁पाहून	-3286
साहेब	-3287
▁वापरकर्	-3288
▁१९९	-3289
▁सायक	-3290
पाक	-3291
ुस	-3292
▁हॉटेल	-3293
▁मात	-3294
▁माणसे	-3295
▁हृ	-3296
णाची	-3297
▁पित	-3298
ॉइड	-3299
▁अनि	-3300
▁पद्धत	-3301
ext	-3302
▁मजबूत	-3303
▁झालेला	-3304
▁सुधारणा	-3305
आणि	-3306
▁2.	-3307
▁वाढत	-3308
णाच्या	-3309
यात	-3310
arathi	-3311
▁कराव	-3312
▁त्व	-3313
च्छा	-3314
एक	-3315
▁साधा	-3316
वते	-3317
▁सुख	-3318
▁त्याबद्दल	-3319
चकारी	-3320
▁नाटक	-3321
▁28	-3322
▁आठवण	-3323
▁व्यवस्थापन	-3324
चक	-3325
▁21	-3326
▁आधुनिक	-3327
▁वर्षांत	-3328
▁रद्द	-3329
▁गावात	-3330
act	-3331
▁पुत्र	-3332
चत	-3333
="3	-3334
▁दह	-3335
▁आंदोल	-3336
▁वर्णन	-3337
▁खरी	-3338
▁विष	-3339
▁आज्ञा	-3340
र्जा	-3341
▁प्रतिसाद	-3342
पोर्ट	-3343
▁स्वतःच्या	-3344
शाली	-3345
चय	-3346
▁त्यानुसार	-3347
▁भांड	-3348
▁री	-3349
▁पात्र	-3350
▁सोय	-3351
▁मंदि	-3352
▁जिथे	-3353
▁ऑफर	-3354
▁40	-3355
▁व्याया	-3356
▁व्यापार	-3357
▁जादूगार	-3358
▁सोन	-3359
▁लागतात	-3360
संगी	-3361
वेल	-3362
▁भागात	-3363
ियर	-3364
ंवर	-3365
▁दै	-3366
▁समाजा	-3367
▁2016	-3368
र्घ	-3369
ळक	-3370
▁छान	-3371
पिचकारी	-3372
ort	-3373
सल	-3374
‍न	-3375
▁कॉलेज	-3376
▁गांधी	-3377
मंत्र	-3378
▁स्ना	-3379
झर	-3380
तंय	-3381
▁सरकारने	-3382
▁उलट	-3383
▁झाड	-3384
▁घेण्यासाठी	-3385
▁चहा	-3386
▁सांगतात	-3387
लाच	-3388
▁अस्तित्	-3389
▁कुठल्या	-3390
शीर	-3391
▁रू	-3392
ापि	-3393
फोन	-3394
▁बघित	-3395
▁गौ	-3396
▁पोट	-3397
▁वापरा	-3398
▁वैद्यकीय	-3399
▁लढाई	-3400
▁ऐकले	-3401
▁नमु	-3402
याची	-3403
▁संघट	-3404
▁मानसिक	-3405
▁त्	-3406
▁उमेदवार	-3407
▁कोणीतरी	-3408
▁स्मार्ट	-3409
टो	-3410
▁प्रचंड	-3411
▁मुलाला	-3412
▁कृत	-3413
▁सभा	-3414
देव	-3415
90	-3416
डिय	-3417
▁करणाऱ्या	-3418
▁वीर्यपिचकारी	-3419
▁राख	-3420
▁दुरु	-3421
▁पॉल	-3422
▁धार	-3423
▁फेस	-3424
सभा	-3425
काची	-3426
▁लग्	-3427
▁बोलाय	-3428
▁गि	-3429
▁व्ही	-3430
वरित	-3431
▁फिल	-3432
▁निकाल	-3433
▁नष्ट	-3434
▁नंबर	-3435
▁ओळखले	-3436
▁सर्वच	-3437
67	-3438
ीय	-3439
▁उत्प	-3440
ळत	-3441
▁पवार	-3442
.8	-3443
▁उदाहरणार्थ	-3444
▁नगर	-3445
▁अल	-3446
▁कोणता	-3447
वतो	-3448
vi	-3449
▁चौकशी	-3450
▁कठ	-3451
▁सरकारी	-3452
▁साय	-3453
▁मूवीस	-3454
▁चाह	-3455
▁आजच्या	-3456
▁तथापि	-3457
दै	-3458
वल	-3459
▁आजार	-3460
नाथ	-3461
▁विजे	-3462
▁पं	-3463
▁सारे	-3464
पटा	-3465
25	-3466
▁बोला	-3467
our	-3468
▁वाहत	-3469
▁नाम	-3470
▁बहि	-3471
▁प्रतिमा	-3472
▁वर्षांचा	-3473
धन	-3474
ies	-3475
ब्रु	-3476
रोधी	-3477
▁टीम	-3478
▁उपकरणे	-3479
कात	-3480
ear	-3481
▁मेट	-3482
▁शुक्र	-3483
वर्क	-3484
▁सुविधा	-3485
▁नसतो	-3486
▁जहा	-3487
▁अद्याप	-3488
▁अटक	-3489
▁डोंग	-3490
▁मासे	-3491
▁प्रेमा	-3492
▁हरव	-3493
▁दिवसां	-3494
▁राहिला	-3495
▁26	-3496
▁शं	-3497
▁३०	-3498
▁पाट	-3499
▁वास्तविक	-3500
टालियन	-3501
▁लोकांच्या	-3502
क्रिय	-3503
▁लागत	-3504
43	-3505
नेल	-3506
▁कळत	-3507
▁जनते	-3508
▁आवडेल	-3509
▁बार	-3510
▁प्रतिष्ठ	-3511
Name	-3512
▁वचन	-3513
▁वरील	-3514
ळीत	-3515
▁कै	-3516
▁शेती	-3517
▁मूल्य	-3518
▁क्षेत्रात	-3519
सर्गिक	-3520
▁डोस	-3521
▁विद्य	-3522
ांमुळे	-3523
▁निघून	-3524
▁शकणार	-3525
▁तुमच्यासाठी	-3526
ुम	-3527
बुक	-3528
▁प्ला	-3529
▁शेअर	-3530
▁on	-3531
▁तपशील	-3532
▁छोट्या	-3533
▁जख	-3534
ry	-3535
▁जंग	-3536
▁अवलंबून	-3537
▁FS	-3538
▁त्याचं	-3539
ॉब	-3540
▁गरम	-3541
▁घेणार	-3542
▁शिक्षा	-3543
▁गड	-3544
▁वग	-3545
▁अखे	-3546
▁नकोस	-3547
्यांमध्ये	-3548
णीय	-3549
ांनो	-3550
▁प्रारंभ	-3551
▁ऑफिस	-3552
▁ग्री	-3553
▁सैनिक	-3554
▁पावसा	-3555
▁मधील	-3556
▁वापरून	-3557
ive	-3558
▁जेथे	-3559
▁संत	-3560
75	-3561
▁मार्गदर्शन	-3562
▁नेते	-3563
▁मिळू	-3564
▁अधिकृत	-3565
▁हस्त	-3566
▁स्वयंपाक	-3567
▁कसं	-3568
ian	-3569
gle	-3570
ब्रुवारी	-3571
▁राहील	-3572
रावा	-3573
▁सुपर	-3574
▁दश	-3575
▁आस	-3576
▁लप	-3577
▁असाल	-3578
▁Home	-3579
▁सांगू	-3580
▁विभा	-3581
▁लिह	-3582
▁सर्वसा	-3583
मिन	-3584
▁गरजे	-3585
▁तपासणी	-3586
:5	-3587
▁भ्र	-3588
▁पुनर्	-3589
all	-3590
पुर	-3591
▁रोख	-3592
▁प्रकारची	-3593
स्टी	-3594
याचा	-3595
गस्ट	-3596
▁डाय	-3597
▁उपक्रम	-3598
▁भग	-3599
▁इन्	-3600
▁सारखे	-3601
▁माणसाला	-3602
▁’’	-3603
णासाठी	-3604
▁अण	-3605
▁२५	-3606
▁कॅमे	-3607
▁याबद्दल	-3608
▁देईल	-3609
याचे	-3610
▁जपान	-3611
▁फस	-3612
▁for	-3613
वन	-3614
▁टिप्प	-3615
मर	-3616
▁जपानी	-3617
नामूल्य	-3618
्याच	-3619
▁गुरू	-3620
end	-3621
▁भीती	-3622
▁देण्यासाठी	-3623
क्कम	-3624
▁प्रस्ताव	-3625
▁पेट	-3626
▁पूजा	-3627
▁वास्तव	-3628
्लंड	-3629
▁अपघात	-3630
:0	-3631
▁सन्	-3632
फार	-3633
▁पर्व	-3634
▁An	-3635
क्यात	-3636
65	-3637
▁राहतो	-3638
▁नैसर्गिक	-3639
▁Pre	-3640
▁प्री	-3641
▁भागी	-3642
ंडे	-3643
▁थक	-3644
▁Goo	-3645
▁विनामूल्य	-3646
क्ता	-3647
'.	-3648
▁पोलीस	-3649
▁तल	-3650
▁कॅन	-3651
42	-3652
ain	-3653
▁सवय	-3654
▁जुलै	-3655
▁परमेश्वराने	-3656
iz	-3657
शेने	-3658
▁बघत	-3659
▁हर	-3660
▁कार्	-3661
▁शेतकरी	-3662
▁कॅम	-3663
मिटेड	-3664
▁दरवाजा	-3665
48	-3666
▁दुख	-3667
▁फेब्रुवारी	-3668
लाही	-3669
▁पसर	-3670
▁अथ	-3671
▁ग्रं	-3672
▁दोघेही	-3673
▁मीटर	-3674
▁त्यांच्याकडे	-3675
▁लिमिटेड	-3676
▁अभिने	-3677
▁जीवनात	-3678
ख्ये	-3679
▁आनंदी	-3680
▁काप	-3681
▁प्ले	-3682
▁निर्देश	-3683
▁त्यामुळेच	-3684
अप	-3685
ंसाठी	-3686
ind	-3687
▁इरा	-3688
▁एकमेक	-3689
▁भारतातील	-3690
▁तोच	-3691
▁महत्त्वाचा	-3692
▁मुख्यमंत्री	-3693
▁११	-3694
▁इटालियन	-3695
▁तक्र	-3696
▁संपाद	-3697
▁दुपारी	-3698
ळव	-3699
मागे	-3700
qu	-3701
मय	-3702
षी	-3703
▁शिक्षणा	-3704
▁१००	-3705
▁पाहा	-3706
माग	-3707
साह	-3708
▁देशातील	-3709
ard	-3710
▁लोकांची	-3711
▁अभिमान	-3712
पुट	-3713
▁साधने	-3714
▁शनि	-3715
काय	-3716
▁स्लॉट	-3717
▁खाते	-3718
▁हल्ला	-3719
▁उपयुक्त	-3720
कधी	-3721
▁चर	-3722
▁लोकांचा	-3723
चो	-3724
ast	-3725
▁करील	-3726
▁केलेला	-3727
ुसार	-3728
▁ठिकाण	-3729
▁वाढदिव	-3730
▁विश्ले	-3731
▁चम	-3732
▁पुनरावलोकन	-3733
▁जोर	-3734
्रो	-3735
विण्यात	-3736
▁अली	-3737
ह्य	-3738
▁मूर्ख	-3739
▁तशी	-3740
▁करीन	-3741
▁चित्रपटा	-3742
1.	-3743
ंगिक	-3744
▁पर्यावरण	-3745
▁उंच	-3746
▁शास्त्र	-3747
68	-3748
▁लॅ	-3749
घर	-3750
▁श्रेणी	-3751
▁वायर	-3752
ंमध्ये	-3753
▁यानंतर	-3754
eb	-3755
▁रुपय	-3756
▁मोक	-3757
▁इंग्लंड	-3758
व्हान	-3759
▁पांढ	-3760
▁निवडणुकी	-3761
पाल	-3762
▁''	-3763
ेटिंग	-3764
??	-3765
▁पडले	-3766
▁स्थिर	-3767
▁=	-3768
▁प्रशास	-3769
ill	-3770
▁राहा	-3771
▁व्यायाम	-3772
ांपेक्षा	-3773
▁दृष्टीने	-3774
▁ऑगस्ट	-3775
▁नॅ	-3776
▁डिसे	-3777
▁केंद	-3778
▁मंज	-3779
▁कार्यालय	-3780
▁घ्यायला	-3781
able	-3782
चाही	-3783
शत	-3784
्राम	-3785
▁टिक	-3786
▁अहवाल	-3787
▁विस्तार	-3788
▁क्ल	-3789
▁दिल्या	-3790
▁कां	-3791
▁सरळ	-3792
▁मोड	-3793
▁निधी	-3794
▁मंडळी	-3795
▁27	-3796
▁उचल	-3797
▁कारणे	-3798
ायी	-3799
▁हाती	-3800
ाविषयी	-3801
एमएक्स	-3802
▁संयुक्त	-3803
▁And	-3804
▁अपे	-3805
▁कंपन	-3806
ide	-3807
ृत्त	-3808
▁मंगळ	-3809
राने	-3810
ौल	-3811
ऐवजी	-3812
स्टे	-3813
▁पडला	-3814
▁मदती	-3815
▁योजने	-3816
ष्कळ	-3817
▁देता	-3818
47	-3819
बॉ	-3820
▁(5	-3821
▁याप्र	-3822
▁मरण	-3823
▁कराल	-3824
▁गायब	-3825
▁पालन	-3826
99	-3827
ोटा	-3828
व्हि	-3829
संबंधी	-3830
▁रुग्ण	-3831
▁बुद्ध	-3832
ev	-3833
णाचे	-3834
▁ठार	-3835
▁पती	-3836
▁r	-3837
संघ	-3838
▁वर्षांपासून	-3839
▁फो	-3840
धानी	-3841
▁अन्	-3842
▁संघर्ष	-3843
▁समाधान	-3844
बाहेर	-3845
▁प्रश्‍न	-3846
▁जमा	-3847
▁हाता	-3848
तळ	-3849
सेस	-3850
▁प्रगती	-3851
▁अटी	-3852
▁जाती	-3853
▁चिक	-3854
▁2013	-3855
▁उत्त	-3856
काचे	-3857
▁रशियन	-3858
▁बऱ्या	-3859
▁अर्थव्यव	-3860
▁कोणालाही	-3861
▁कॉफी	-3862
▁सायकल	-3863
ल्ल्या	-3864
▁डिसेंबर	-3865
▁वेद	-3866
▁तापमान	-3867
▁हिंदू	-3868
▁सगळ्यांना	-3869
ष्टा	-3870
▁दिसतात	-3871
▁दीर्घ	-3872
आता	-3873
▁महिना	-3874
▁स्पर्धा	-3875
पक	-3876
▁3.	-3877
▁गुन्हा	-3878
मंड	-3879
ब्ल	-3880
▁पॅके	-3881
▁संध्या	-3882
▁ब्रिटिश	-3883
▁कने	-3884
▁इन	-3885
निधी	-3886
▁फ्रान्स	-3887
63	-3888
▁कार्यरत	-3889
23	-3890
▁फळ	-3891
▁जरी	-3892
▁होण्यासाठी	-3893
▁अतिरिक्त	-3894
▁बदला	-3895
▁शीर्ष	-3896
▁आव्हान	-3897
▁वाचन	-3898
▁शिवसे	-3899
ेद	-3900
▁लक्ष्य	-3901
▁बरा	-3902
मेन	-3903
▁ताल	-3904
▁पुष्कळ	-3905
▁नाकार	-3906
▁महाराज	-3907
ूड	-3908
ust	-3909
▁चां	-3910
▁मालम	-3911
▁रशिया	-3912
▁राजकारण	-3913
▁म्हणता	-3914
वती	-3915
ांकडे	-3916
िबात	-3917
स्ते	-3918
इस	-3919
▁वाजता	-3920
▁मिळवा	-3921
▁तेथ	-3922
▁कुत्र	-3923
▁परिपूर्ण	-3924
▁पत्ता	-3925
ावून	-3926
क्‍य	-3927
चीन	-3928
▁घेतात	-3929
▁इमारत	-3930
पन	-3931
सळ	-3932
▁Z	-3933
▁विद्यार्थ्यांना	-3934
ong	-3935
म्हण	-3936
▁अजिबात	-3937
▁श्	-3938
▁x	-3939
▁लै	-3940
▁काँग	-3941
▁वाहतूक	-3942
काचा	-3943
▁अत्या	-3944
▁Google	-3945
वक	-3946
▁त्याच्यावर	-3947
▁दूध	-3948
जक	-3949
▁कुठले	-3950
▁अद्	-3951
ore	-3952
▁दिलेल्या	-3953
शले	-3954
ile	-3955
्राच्या	-3956
पान	-3957
ावरील	-3958
▁स्वतःची	-3959
प्रकार	-3960
▁ली	-3961
▁जलद	-3962
▁पान	-3963
ूचे	-3964
▁ईमान	-3965
▁पॅंटी	-3966
▁स्वातंत्र्य	-3967
▁निवडा	-3968
▁महत्त्वाची	-3969
▁तिथेच	-3970
▁खरोखरच	-3971
▁मुद	-3972
▁बोलू	-3973
▁आत्मह	-3974
▁%	-3975
▁ताब	-3976
69	-3977
▁घोड	-3978
फि	-3979
▁चालत	-3980
्‍या	-3981
▁फ्रेंच	-3982
▁आणले	-3983
र्‍य	-3984
▁बिल	-3985
नंती	-3986
णीव	-3987
▁अद्य	-3988
▁ज्यामुळे	-3989
लेख	-3990
▁गुन्हे	-3991
▁बाजारात	-3992
▁रस्त्यावर	-3993
▁अंम	-3994
▁मिनिटे	-3995
▁दावी	-3996
▁सांभा	-3997
▁गती	-3998
ानंतर	-3999
▁नसतात	-4000
▁अल्	-4001
▁एकही	-4002
ock	-4003
▁दिवसांत	-4004
▁मना	-4005
▁रक्कम	-4006
ुरी	-4007
▁ईमेल	-4008
ोटी	-4009
▁उर	-4010
▁ताक	-4011
णास	-4012
खंड	-4013
व्र	-4014
▁शक्ति	-4015
▁दौ	-4016
▁फॉर्म	-4017
▁घडले	-4018
ha	-4019
▁रस्ता	-4020
प्ती	-4021
हाय	-4022
तिरिक्त	-4023
▁१४	-4024
▁व्यक्ति	-4025
▁पक्षी	-4026
दम	-4027
▁उड	-4028
▁सामर्थ	-4029
▁संस्थे	-4030
▁आपल्यासाठी	-4031
▁विनंती	-4032
तुम	-4033
▁अनुवाद	-4034
▁आलेल्या	-4035
विणे	-4036
▁मोटर	-4037
▁बॉक्स	-4038
▁पाण्या	-4039
▁सन	-4040
ाराचा	-4041
▁असावे	-4042
▁बर्	-4043
▁अभिन	-4044
▁उज	-4045
▁हृदय	-4046
▁यातून	-4047
ण्यापूर्वी	-4048
▁ज्यांना	-4049
▁29	-4050
▁कृती	-4051
▁त्यांच्यासाठी	-4052
▁शहा	-4053
वीत	-4054
22	-4055
▁@	-4056
▁करायचं	-4057
▁चर्चे	-4058
▁कशासाठी	-4059
▁और	-4060
ठ्	-4061
▁काँग्रेस	-4062
▁60	-4063
▁पोह	-4064
ऊक	-4065
राचा	-4066
▁स्तर	-4067
▁ठेवला	-4068
▁तुलनेत	-4069
▁घ्यावे	-4070
▁१९७	-4071
▁दब	-4072
▁कुणाला	-4073
फर	-4074
▁पॅक	-4075
▁५०	-4076
▁दुः	-4077
पृ	-4078
जिन	-4079
▁पक्षा	-4080
▁वाटेल	-4081
▁पदवी	-4082
▁असली	-4083
▁द्र	-4084
▁नारा	-4085
▁आदर्श	-4086
थी	-4087
नास	-4088
▁मार्क	-4089
▁एअर	-4090
▁फिट	-4091
▁लेखन	-4092
▁रहा	-4093
▁प्रत्यक्षात	-4094
▁खंड	-4095
▁उत्सुक	-4096
▁राम	-4097
▁बदलले	-4098
▁डिज	-4099
▁ऐकून	-4100
▁अच	-4101
▁परिसर	-4102
oin	-4103
▁चॅ	-4104
▁गुप्त	-4105
▁वातावरण	-4106
बाई	-4107
▁एके	-4108
▁विंड	-4109
पूर्वक	-4110
▁पृथ्वीवर	-4111
▁माफ	-4112
▁दावा	-4113
▁राज्यात	-4114
ont	-4115
▁एखादा	-4116
▁हमी	-4117
▁परिस्थितीत	-4118
▁ग्राहकांना	-4119
अरे	-4120
▁2020	-4121
वायचे	-4122
▁स्पॅ	-4123
▁नेटवर्क	-4124
▁बांधकाम	-4125
▁आमदार	-4126
▁नाते	-4127
▁जावे	-4128
▁ऊर्जा	-4129
▁धर्मा	-4130
▁वर्तमान	-4131
▁पद्धतीने	-4132
▁फेसबुक	-4133
▁कच	-4134
▁म्हणते	-4135
▁प्रदर्शन	-4136
▁सदस	-4137
ध्यक्ष	-4138
▁प्रक्रिय	-4139
▁प्रका	-4140
▁तोड	-4141
▁नऊ	-4142
स्थळ	-4143
नुकूल	-4144
▁बघायला	-4145
आपण	-4146
गृह	-4147
ज्ज	-4148
दाचा	-4149
▁औषधे	-4150
▁दिशा	-4151
माझ्या	-4152
▁ख्रिस्ता	-4153
ल्याचे	-4154
▁वाटतो	-4155
तेने	-4156
▁धात	-4157
कालीन	-4158
▁उद्देश	-4159
▁सुरुवातीला	-4160
ांचं	-4161
णू	-4162
▁अशक्य	-4163
▁ऑनलाईन	-4164
▁स्वतःचे	-4165
▁मानव	-4166
▁तांत्रिक	-4167
लक्ष	-4168
▁स्पे	-4169
▁ट्रेन	-4170
पात	-4171
▁विषयी	-4172
▁नव्हतं	-4173
फॉ	-4174
निश	-4175
मीटर	-4176
▁युनि	-4177
▁डोळ	-4178
▁अनुभ	-4179
▁परमेश्वरा	-4180
▁विमानतळ	-4181
4.	-4182
▁घेण्यात	-4183
▁परिवर्त	-4184
77	-4185
▁ग्	-4186
▁चल	-4187
ks	-4188
▁नाणी	-4189
▁१७	-4190
वतात	-4191
▁विध	-4192
घाडी	-4193
▁आयोजित	-4194
▁आमच्याकडे	-4195
▁संपत्ती	-4196
▁सांगितलं	-4197
िपी	-4198
ांकडून	-4199
▁प्रसार	-4200
▁फी	-4201
जावणी	-4202
▁शुल्क	-4203
▁दिवाळी	-4204
▁मंत्री	-4205
▁सिनेमा	-4206
▁बचत	-4207
िकल	-4208
▁भु	-4209
▁आहार	-4210
▁गोळा	-4211
▁सरा	-4212
षे	-4213
ith	-4214
ाव्या	-4215
▁स्थापन	-4216
लबजावणी	-4217
भूमी	-4218
▁तुलना	-4219
रुशले	-4220
▁देवी	-4221
धारकांना	-4222
▁बाई	-4223
▁गोल	-4224
▁जॉन	-4225
▁।	-4226
▁खाऊ	-4227
▁असलेला	-4228
icle	-4229
एनयू	-4230
ect	-4231
शोर	-4232
कुम	-4233
▁कर्मचा	-4234
▁देवाची	-4235
ख्य	-4236
▁दया	-4237
▁चला	-4238
▁याच्या	-4239
पित	-4240
ावा	-4241
हेत	-4242
▁सोम	-4243
▁अधिकाऱ	-4244
▁क्रिया	-4245
डो	-4246
▁i	-4247
ृत्व	-4248
▁असावा	-4249
▁भाषे	-4250
▁कान	-4251
▁नाय	-4252
▁उंची	-4253
▁पॅकेज	-4254
▁डिजिटल	-4255
▁होम	-4256
▁ओर	-4257
एनयूएमएक्स	-4258
▁पाहिजेत	-4259
▁चोर	-4260
▁देवाला	-4261
▁कर्तृत्वा	-4262
▁आलेले	-4263
▁वाटलं	-4264
▁फुटबॉल	-4265
▁वृत्त	-4266
▁हजारो	-4267
tt	-4268
स्तीत	-4269
▁नावे	-4270
▁मिश्र	-4271
▁करणारी	-4272
णाऱ	-4273
त्य	-4274
▁निरी	-4275
▁विचित्र	-4276
ब्र	-4277
रित्या	-4278
▁संब	-4279
विरुद्ध	-4280
मित्	-4281
▁हेही	-4282
▁गर्भ	-4283
▁अंमलबजावणी	-4284
▁गेम	-4285
▁खोलीत	-4286
▁अस्तित्वात	-4287
ोरे	-4288
-3	-4289
▁कहा	-4290
▁कार्यकर्	-4291
बाद	-4292
ांस	-4293
▁त्यामध्ये	-4294
▁आदर	-4295
▁k	-4296
▁प्रोत्	-4297
▁रक्षण	-4298
▁भय	-4299
खान	-4300
नेस	-4301
▁कुटुंबा	-4302
roid	-4303
▁फॅट	-4304
▁जगभर	-4305
▁j	-4306
▁मिळतो	-4307
ड्डा	-4308
▁त्यास	-4309
ार्‍य	-4310
▁ध्या	-4311
▁जाणीव	-4312
थमिक	-4313
तिहासिक	-4314
▁आहेच	-4315
▁प्रदर्श	-4316
▁झाल्यानंतर	-4317
▁रॉ	-4318
गल	-4319
▁कठोर	-4320
▁एकमेकांना	-4321
▁१६	-4322
▁अर्ध	-4323
▁तेही	-4324
▁चलन	-4325
ial	-4326
▁रोल	-4327
▁स्टार	-4328
▁गाणी	-4329
▁हवाई	-4330
ाविद्या	-4331
pp	-4332
her	-4333
▁पाहत	-4334
ube	-4335
▁लिहित	-4336
▁दुसर्‍या	-4337
▁जॉ	-4338
▁मीडिया	-4339
कीत	-4340
तार	-4341
▁Next	-4342
कृ	-4343
▁ध्ये	-4344
▁ऑस्ट्रेलिया	-4345
द्योगिक	-4346
49	-4347
▁मार्गदर्शक	-4348
▁इमारती	-4349
▁घेण्याची	-4350
▁प्रकारचा	-4351
राची	-4352
▁पगार	-4353
▁दुकान	-4354
कील	-4355
▁दृश्य	-4356
ईप	-4357
▁बचा	-4358
▁सेक	-4359
▁देण्याची	-4360
वाची	-4361
▁खाज	-4362
▁तीव्र	-4363
▁शुभे	-4364
▁चुकीचे	-4365
▁हळू	-4366
▁माफी	-4367
ैर	-4368
▁तुमच्याकडे	-4369
पासूनच	-4370
▁उभा	-4371
▁सानुकूल	-4372
सभे	-4373
स्फ	-4374
▁कोट	-4375
स्कृत	-4376
्यातून	-4377
▁सांगते	-4378
चालक	-4379
▁art	-4380
▁वर्षांची	-4381
▁विसरू	-4382
▁वैशिष्ट्ये	-4383
भो	-4384
▁मोट	-4385
▁पाया	-4386
▁जातील	-4387
▁सर्वकाही	-4388
▁विश्लेषण	-4389
▁घड्या	-4390
▁करतोय	-4391
▁स्ट्र	-4392
▁इस्	-4393
▁सगळेच	-4394
▁अब	-4395
▁क्रेड	-4396
कट	-4397
▁प्रतिबंध	-4398
ell	-4399
▁१९८	-4400
▁क्रेडिट	-4401
मीर	-4402
▁जायचे	-4403
राचे	-4404
▁ध्व	-4405
▁हायड्र	-4406
वण्यात	-4407
ईड	-4408
:00	-4409
▁अशीच	-4410
▁वैशिष्ट्य	-4411
▁आघाडी	-4412
▁अट	-4413
▁यरुशले	-4414
▁प्राण्या	-4415
बियन	-4416
▁इत्या	-4417
▁वाचून	-4418
▁Sh	-4419
▁बेट	-4420
योग्य	-4421
कारात्मक	-4422
29	-4423
▁भाषेत	-4424
▁प्राथमिक	-4425
्रीन	-4426
मावतो	-4427
ज्य	-4428
टपुट	-4429
▁199	-4430
▁दगड	-4431
▁संस्थ	-4432
वलं	-4433
▁4.	-4434
▁प्रमाणपत्र	-4435
▁याप्रसंगी	-4436
िव्ह	-4437
▁अभ्यासक्रम	-4438
▁बहुत	-4439
▁नजर	-4440
ीच्या	-4441
वेदन	-4442
▁com	-4443
▁पाटील	-4444
▁लॉ	-4445
▁(20	-4446
▁झो	-4447
ीकरण	-4448
▁सिंग	-4449
लोड	-4450
लिके	-4451
▁रुग्णा	-4452
▁कर्तृत्वाला	-4453
▁त्यापैकी	-4454
▁संकल्पना	-4455
vious	-4456
▁Ind	-4457
▁विरोधी	-4458
करे	-4459
▁आपलं	-4460
ांनाही	-4461
▁कारखाना	-4462
आम	-4463
▁जागे	-4464
▁कुठेही	-4465
▁चमत्कार	-4466
▁जाणे	-4467
गम	-4468
hat	-4469
२०	-4470
▁अभिय	-4471
ांपैकी	-4472
▁एकत्रित	-4473
ूह	-4474
प्रति	-4475
,,	-4476
pt	-4477
▁धक्का	-4478
िन्ह	-4479
▁भाषण	-4480
▁कृपा	-4481
क्षणिक	-4482
तीन	-4483
▁अ‍	-4484
पृष्ठ	-4485
28	-4486
▁दुसर	-4487
श्व	-4488
▁सक्रिय	-4489
जो	-4490
णेकर	-4491
ीस	-4492
ud	-4493
▁घो	-4494
देशा	-4495
▁सर्वे	-4496
▁केल्यानंतर	-4497
बळ	-4498
ंटर	-4499
▁स्वय	-4500
▁हिंदु	-4501
▁देवाचे	-4502
▁प्रोत्सा	-4503
▁लोकसंख्या	-4504
▁ऐतिहासिक	-4505
73	-4506
▁लु	-4507
▁बळी	-4508
▁हॅ	-4509
▁गमाव	-4510
▁by	-4511
वणार	-4512
डीत	-4513
▁परिषद	-4514
▁नाट	-4515
डन	-4516
्येक	-4517
▁प्रोफा	-4518
▁सन्मान	-4519
▁Previous	-4520
क्रमा	-4521
▁नाहीस	-4522
कूर	-4523
▁राहत	-4524
▁औद्योगिक	-4525
▁वकील	-4526
▁तीच	-4527
▁The	-4528
▁पराभव	-4529
ee	-4530
▁प्रचार	-4531
▁झाल्यावर	-4532
▁यातील	-4533
सद	-4534
▁पडत	-4535
▁शाळ	-4536
▁अजमावतो	-4537
▁ईमानधारकांना	-4538
▁गोळी	-4539
▁बऱ्याच	-4540
ah	-4541
ातच	-4542
▁१३	-4543
▁जबाबदार	-4544
चाल	-4545
किंग	-4546
▁प्रत्येकाला	-4547
कून	-4548
▁साखर	-4549
दरम्यान	-4550
ार्मिक	-4551
orn	-4552
▁कित	-4553
नर	-4554
▁पळ	-4555
▁उत्पन्न	-4556
▁मालक	-4557
ans	-4558
▁माणसं	-4559
▁तत्त्व	-4560
▁आत्महत्या	-4561
▁वंश	-4562
▁भौ	-4563
▁अँ	-4564
▁ज्याला	-4565
▁आवडतात	-4566
शीर्	-4567
▁पुरेसे	-4568
▁लैंगिक	-4569
कडील	-4570
्राइ	-4571
▁थर	-4572
▁FSX	-4573
▁बसला	-4574
वीन	-4575
▁आख	-4576
▁क्रि	-4577
▁इतक्या	-4578
46	-4579
▁त्याच्याकडे	-4580
ुका	-4581
▁सकारात्मक	-4582
ox	-4583
तेचा	-4584
▁शुभेच्छा	-4585
च्यूर	-4586
्युमिन	-4587
▁Android	-4588
▁(8	-4589
घे	-4590
ैव	-4591
▁फाइल	-4592
खं	-4593
▁बट	-4594
▁उत्तरे	-4595
▁महाविद्या	-4596
▁म्हणणे	-4597
▁१९४	-4598
▁जायला	-4599
▁रविवारी	-4600
▁भविष्यात	-4601
ंता	-4602
तेय	-4603
▁खाजगी	-4604
▁प्रभु	-4605
▁पुस्तकं	-4606
▁समुदाय	-4607
▁१९६	-4608
▁ठेवू	-4609
▁निवडून	-4610
▁अडचणी	-4611
व्हेंबर	-4612
ढा	-4613
▁31	-4614
▁दबाव	-4615
▁बहिणी	-4616
शिय	-4617
▁कंपन्या	-4618
ंचलित	-4619
▁धातू	-4620
▁पार्टी	-4621
्वि	-4622
▁इथेच	-4623
▁फारच	-4624
▁वापरली	-4625
▁इत्यादी	-4626
▁देशाच्या	-4627
▁प्लास्टिक	-4628
▁बदलू	-4629
वाना	-4630
विला	-4631
ress	-4632
▁संभाव	-4633
▁पौ	-4634
▁--	-4635
▁महाग	-4636
शक्ती	-4637
▁जय	-4638
▁वाक्य	-4639
▁आंब	-4640
ताय	-4641
▁ग्रह	-4642
▁प्रशासन	-4643
डप	-4644
▁मुस्	-4645
▁बॅग	-4646
▁ट्रॅ	-4647
▁असूनही	-4648
▁करण्याच्या	-4649
▁द्यावे	-4650
▁युरोपियन	-4651
तच	-4652
लच्या	-4653
रुन	-4654
▁अपय	-4655
▁राग	-4656
▁सर्व्ह	-4657
▁प्रमाणे	-4658
▁क्री	-4659
्युमिनियम	-4660
▁article	-4661
▁होई	-4662
▁अथवा	-4663
▁शैक्षणिक	-4664
uc	-4665
▁अखेर	-4666
्यासाठी	-4667
▁बॅट	-4668
ांपासून	-4669
ren	-4670
यास	-4671
वाचा	-4672
▁मान्यता	-4673
▁हाल	-4674
▁कॅमेरा	-4675
▁धार्मिक	-4676
▁तुमच्यासमोर	-4677
▁निर्माता	-4678
ail	-4679
▁तलवार	-4680
▁एखादी	-4681
▁सूची	-4682
जीव	-4683
वृत्ती	-4684
ie	-4685
▁लॉग	-4686
▁म्हणालो	-4687
▁स्वतःचा	-4688
▁बायको	-4689
ावरून	-4690
▁शोधा	-4691
.00	-4692
▁कधीकधी	-4693
▁वितरण	-4694
▁नोव्हेंबर	-4695
▁अचूक	-4696
▁आशिया	-4697
▁मारले	-4698
▁स्टिर	-4699
▁सरासरी	-4700
▁अधि	-4701
शाळा	-4702
ोत्स	-4703
▁आशीर्	-4704
ोदर	-4705
कांनी	-4706
▁कोल	-4707
▁उपास	-4708
▁मैत्री	-4709
▁स्वयंचलित	-4710
▁प्राचीन	-4711
जू	-4712
▁पाठी	-4713
▁यूएस	-4714
▁सत्या	-4715
▁वापरू	-4716
मुळं	-4717
▁उभार	-4718
▁साठ	-4719
ृष्टी	-4720
▁रोम	-4721
▁राणी	-4722
▁अवि	-4723
▁उड्डा	-4724
▁ठेवून	-4725
ric	-4726
▁राहते	-4727
▁कायदेशीर	-4728
▁शारी	-4729
▁पाहिला	-4730
वर्	-4731
▁दहशत	-4732
▁सगळ्यात	-4733
वरा	-4734
▁दिसतो	-4735
णार्‍या	-4736
▁गोड	-4737
▁शेवटच्या	-4738
ताने	-4739
▁छोटी	-4740
▁भविष्या	-4741
मात	-4742
▁आरा	-4743
▁विरुद्ध	-4744
▁Bl	-4745
▁आपो	-4746
hy	-4747
▁हवेत	-4748
▁आठवत	-4749
200	-4750
▁आरोपी	-4751
ord	-4752
▁दरव	-4753
कृती	-4754
▁नग	-4755
सर्व	-4756
्ज	-4757
▁प्रवाह	-4758
कर्त	-4759
▁प्रेमात	-4760
कडा	-4761
▁नेता	-4762
▁वाढते	-4763
▁म्हणू	-4764
▁दिशेने	-4765
▁मोबाईल	-4766
ook	-4767
▁मध्यम	-4768
लेल	-4769
▁आपोआप	-4770
▁बायबल	-4771
य़ा	-4772
▁जागी	-4773
▁सीमा	-4774
▁ऐकू	-4775
▁पळून	-4776
▁ऑपरेशन	-4777
▁साक्ष	-4778
▁विरोधात	-4779
मू	-4780
पेक्ष	-4781
ज्ञानिक	-4782
▁राहिली	-4783
▁वीज	-4784
▁पश्चिम	-4785
▁फिल्टर	-4786
▁धी	-4787
▁बैठक	-4788
▁मेच्यूर	-4789
▁व्यापारी	-4790
▁देशांमध्ये	-4791
्यूब	-4792
▁बसून	-4793
▁वाढदिवस	-4794
चि	-4795
▁मजकूर	-4796
,”	-4797
▁इंजिन	-4798
▁अपेक्षित	-4799
ांसह	-4800
▁गोंध	-4801
▁शारीरिक	-4802
दाच्या	-4803
▁केल्यास	-4804
▁सामर्थ्य	-4805
▁be	-4806
▁शंका	-4807
▁बोलणे	-4808
▁आकर्षक	-4809
▁जास्तीत	-4810
▁न्यायालया	-4811
38	-4812
▁लोकशाही	-4813
दायी	-4814
▁विकिपी	-4815
▁शेवटचा	-4816
24	-4817
ib	-4818
▁मेरी	-4819
▁साचा	-4820
▁स्त्रिया	-4821
▁तिसऱ्या	-4822
▁अर	-4823
▁you	-4824
▁अगोदर	-4825
▁कारणा	-4826
▁सौंदर	-4827
▁कमाल	-4828
▁नात	-4829
▁व्हायला	-4830
,"	-4831
रेट	-4832
सात	-4833
▁आलेली	-4834
▁अन्यथा	-4835
स्टिंग	-4836
▁पाहता	-4837
▁व्यवसा	-4838
▁एज	-4839
▁गर्दी	-4840
▁असला	-4841
▁मुलाख	-4842
मह	-4843
▁ध्येय	-4844
▁जुळ	-4845
▁गृह	-4846
ेतरी	-4847
▁स्क्रीन	-4848
▁करणं	-4849
▁आक्रम	-4850
▁ज्ञा	-4851
ऱ्यावर	-4852
▁राष्ट्रवादी	-4853
▁भूक	-4854
▁सुच	-4855
▁गुला	-4856
▁महत्व	-4857
▁कायदे	-4858
▁स्टिरॉइड	-4859
▁आजचा	-4860
▁मर्यादित	-4861
▁२४	-4862
▁खरच	-4863
▁पोच	-4864
▁छाया	-4865
मोन	-4866
▁चोरी	-4867
▁केंद्रित	-4868
▁आभार	-4869
▁विश्‍	-4870
▁जेणेकर	-4871
’,	-4872
▁तक्रार	-4873
▁सांगता	-4874
▁प्रेक्षक	-4875
66	-4876
▁ऱ्हा	-4877
▁पेपर	-4878
▁द्यायला	-4879
▁अस्तित्व	-4880
▁हट	-4881
▁वार्	-4882
वाच्या	-4883
▁यंत्रणा	-4884
▁सहाय	-4885
▁e	-4886
▁ज्यात	-4887
▁नावाने	-4888
ंवार	-4889
▁(10	-4890
▁काढले	-4891
ावं	-4892
▁जतन	-4893
▁एकमेव	-4894
-1	-4895
्रम	-4896
▁असल्यामुळे	-4897
▁ः	-4898
▁जर्मन	-4899
▁०	-4900
अभि	-4901
▁फायबर	-4902
▁घरे	-4903
▁समजले	-4904
▁मल	-4905
▁इंजे	-4906
▁त्यांच्याशी	-4907
क्सी	-4908
▁बला	-4909
▁याय	-4910
▁ताकद	-4911
धर्म	-4912
मधे	-4913
सर्	-4914
▁आजवर	-4915
▁लांबी	-4916
▁मूर्ती	-4917
▁वर्षांच्या	-4918
▁ab	-4919
79	-4920
▁थोडक्यात	-4921
▁उशीर	-4922
▁डोंगर	-4923
▁प्याय	-4924
ish	-4925
▁यहूदी	-4926
▁व्याख्या	-4927
▁संप्रे	-4928
▁उघ	-4929
▁नॉ	-4930
हेरी	-4931
योज	-4932
▁प्रवासा	-4933
▁त्यापेक्षा	-4934
▁Com	-4935
ांबद्दल	-4936
▁वारंवार	-4937
▁हेतू	-4938
▁नियोजन	-4939
▁सहकारी	-4940
पत	-4941
▁संभाव्य	-4942
▁संकेतस्थळ	-4943
माने	-4944
▁जुनी	-4945
▁बाग	-4946
▁साध्य	-4947
▁विषयावर	-4948
▁ऱ्ह	-4949
▁येणे	-4950
▁प्रवासी	-4951
▁लंड	-4952
▁लोकांचे	-4953
▁एवढी	-4954
▁सर्वांत	-4955
कं	-4956
ens	-4957
दंब	-4958
ष्टी	-4959
▁मूलभूत	-4960
वादन	-4961
▁नेतृत्व	-4962
विली	-4963
▁भिं	-4964
▁प्रश	-4965
▁प्रिं	-4966
▁विशेषतः	-4967
▁सण	-4968
▁सर्वांनी	-4969
▁पंच	-4970
▁ठेवणे	-4971
स्कर	-4972
ग्रस्त	-4973
▁वयाच्या	-4974
78	-4975
वाश	-4976
वावे	-4977
▁आवडी	-4978
▁शिफार	-4979
बन	-4980
▁ओढ	-4981
ाराच्या	-4982
▁नियंत्रित	-4983
ेट्स	-4984
▁अॅल	-4985
▁भागीदार	-4986
age	-4987
▁पंप	-4988
▁एवढे	-4989
एक्सएक्स	-4990
▁भगवान	-4991
35	-4992
▁रण	-4993
▁चांगलं	-4994
यन	-4995
▁नव्याने	-4996
▁मृत्यु	-4997
▁माती	-4998
▁सूत्र	-4999
▁सैन्या	-5000
▁चुका	-5001
▁राजधानी	-5002
44	-5003
▁१९५	-5004
माणिक	-5005
▁मुलांसाठी	-5006
ॅश	-5007
ित्रा	-5008
▁Ar	-5009
▁जहाज	-5010
▁टप्प	-5011
▁घ्यावी	-5012
39	-5013
▁उल	-5014
▁संच	-5015
▁आराम	-5016
▁वेगळ्या	-5017
▁आशीर्वाद	-5018
▁स्वस्त	-5019
्टा	-5020
ight	-5021
ुप	-5022
▁शांतता	-5023
▁बॉल	-5024
▁यापूर्वी	-5025
▁कच्	-5026
▁Al	-5027
▁खाणार	-5028
▁चो	-5029
▁स्टेशन	-5030
▁तोपर्यंत	-5031
▁विशेषत	-5032
▁अंधार	-5033
▁प्रोफाइल	-5034
एसटी	-5035
▁थोड्या	-5036
▁मालमत्ता	-5037
▁यामध्ये	-5038
▁सेल	-5039
▁प्लॅ	-5040
क्षमता	-5041
▁पोलिसांनी	-5042
शास्त	-5043
ass	-5044
▁35	-5045
निर्	-5046
▁पडली	-5047
▁;	-5048
▁उर्	-5049
▁....	-5050
र्चा	-5051
▁आईला	-5052
▁दिग्	-5053
▁जखमी	-5054
▁सजाव	-5055
▁नृत	-5056
▁विद्युत	-5057
▁युवा	-5058
▁बंदी	-5059
ंपरा	-5060
▁कहाणी	-5061
ंडू	-5062
विश्वास	-5063
▁स्नायू	-5064
ps	-5065
▁नियु	-5066
▁रेकॉ	-5067
▁वर्षांनी	-5068
▁वैज्ञानिक	-5069
▁४०	-5070
▁कडे	-5071
▁उष्ण	-5072
▁कुठेतरी	-5073
▁वाचायला	-5074
▁एवढा	-5075
▁तुमचं	-5076
▁पाहायला	-5077
टका	-5078
▁500	-5079
▁भिन्न	-5080
▁दशल	-5081
▁वृक्ष	-5082
▁सहमत	-5083
▁मिळतात	-5084
सनीय	-5085
▁सच	-5086
तीचे	-5087
▁विकासा	-5088
▁जाण्यासाठी	-5089
▁पहिल्यांदाच	-5090
▁पुटपुट	-5091
▁तळ	-5092
▁बघू	-5093
▁आलेला	-5094
▁शस्त्र	-5095
▁शर	-5096
▁पॉलि	-5097
▁मिळून	-5098
ंदू	-5099
वाचे	-5100
▁गोप	-5101
▁सत्ते	-5102
▁इटली	-5103
▁प्रमाणावर	-5104
▁चेक	-5105
▁दुर्दै	-5106
डकी	-5107
▁युद्धा	-5108
▁मीच	-5109
▁कचरा	-5110
▁कौशल	-5111
▁गप्पा	-5112
स्कृतिक	-5113
ंडर	-5114
▁आश्चर्यकारक	-5115
पाळ	-5116
▁आंदोलन	-5117
णाव	-5118
ासाठी	-5119
▁कागदपत्र	-5120
▁कॉपी	-5121
ok	-5122
णाम	-5123
▁sh	-5124
श्‍य	-5125
▁ठाकरे	-5126
▁ऑर्डर	-5127
▁टेस्ट	-5128
▁स्टेन	-5129
▁दशलक्ष	-5130
▁नाहीतर	-5131
▁पिढी	-5132
▁त्वरित	-5133
पिंग	-5134
ंपर	-5135
▁कसो	-5136
▁बांग	-5137
▁शकले	-5138
▁पुटपुटत	-5139
ug	-5140
देशात	-5141
▁सोप	-5142
▁गांड	-5143
▁मंडळ	-5144
ite	-5145
▁दुर्लक्ष	-5146
टाई	-5147
▁हाताळ	-5148
▁साफ	-5149
ायचंय	-5150
▁अंडी	-5151
▁ऱ्ही	-5152
मस	-5153
rol	-5154
▁प्रतीक्षा	-5155
र्भ	-5156
्ला	-5157
▁फूट	-5158
▁ऱ्हाम	-5159
▁ऱ्हीम	-5160
▁ऱ्हुम	-5161
▁तुमच्यासमोरची	-5162
▁करी	-5163
▁सुखी	-5164
▁वेदना	-5165
▁बदलत	-5166
▁म्हटलं	-5167
ूळ	-5168
▁खेळत	-5169
▁फिल्	-5170
▁आठवणी	-5171
▁Un	-5172
▁भाग्य	-5173
▁त्यांचं	-5174
तेची	-5175
▁शैली	-5176
▁आदि	-5177
▁नाराज	-5178
झे	-5179
▁जन्माला	-5180
▁कार्यकर्त	-5181
▁विकिपीडिया	-5182
▁पाहण्यासाठी	-5183
▁नमुना	-5184
शन्स	-5185
▁ब्रे	-5186
▁फल	-5187
▁सांगणार	-5188
स्टेर	-5189
▁गोपनीय	-5190
▁शेतकऱ्यांना	-5191
पाई	-5192
▁दुष्काळ	-5193
▁कडून	-5194
▁ट्रेड	-5195
वंत	-5196
▁मर्यादा	-5197
ांतील	-5198
▁स्क्र	-5199
लर	-5200
▁100%	-5201
▁सामील	-5202
▁दरवर्षी	-5203
▁बारा	-5204
जॉब	-5205
▁जित	-5206
▁मनोर	-5207
▁सहकार्य	-5208
सलमान	-5209
▁जाण्याची	-5210
नेने	-5211
पट्टी	-5212
▁गैर	-5213
▁टाय	-5214
▁मालकी	-5215
▁प्रदर्शित	-5216
ff	-5217
त्तर	-5218
▁पोर्ट	-5219
▁दिवसांनी	-5220
ांतून	-5221
▁स्वि	-5222
▁बौ	-5223
▁En	-5224
▁ठेवतो	-5225
▁देईन	-5226
▁प्रामाणिक	-5227
▁बोट	-5228
▁सोने	-5229
▁शुक्रवारी	-5230
षिक	-5231
▁पासपोर्ट	-5232
्राचे	-5233
▁मुख्यमंत्र	-5234
ॉर्क	-5235
▁कुठल्याही	-5236
72	-5237
फॉर्म	-5238
▁आजी	-5239
लिम	-5240
सरण	-5241
▁मानक	-5242
▁अनुकूल	-5243
षक	-5244
राट	-5245
▁मेल	-5246
▁कसोटी	-5247
ld	-5248
संगत	-5249
ue	-5250
लाल	-5251
▁कोठे	-5252
ल्डिंग	-5253
▁स्टेनलेस	-5254
▁गाठ	-5255
▁मिमी	-5256
▁:-	-5257
▁दिलेली	-5258
वायचा	-5259
ree	-5260
▁प्रदू	-5261
▁टेबल	-5262
▁वापरत	-5263
रिस	-5264
▁45	-5265
▁गाड	-5266
▁भिंती	-5267
▁गाणे	-5268
▁हिंदी	-5269
▁परंपरा	-5270
▁उम	-5271
शार	-5272
▁होणारे	-5273
दोन	-5274
सारखं	-5275
ायु	-5276
ृत्वाचा	-5277
तिहासा	-5278
▁श्वास	-5279
▁गरजेचे	-5280
▁शक्तिशाली	-5281
▁मागित	-5282
▁सैन्य	-5283
▁हार्ड	-5284
▁साक्षी	-5285
▁छोटे	-5286
▁चार्	-5287
▁पिता	-5288
▁ख्रिस्त	-5289
▁निसर्ग	-5290
▁झाल्यास	-5291
▁आमच्याशी	-5292
▁तंत्रज्ञा	-5293
▁(9	-5294
▁नोट	-5295
▁गुणवंत	-5296
▁मुलांच्या	-5297
टीन	-5298
▁कादंब	-5299
▁फाईल	-5300
▁लेखा	-5301
▁अर्पण	-5302
,’	-5303
तेचे	-5304
▁पाऊल	-5305
▁1,	-5306
▁al	-5307
▁तिसरा	-5308
रस	-5309
ल्फ	-5310
▁अमेरिकेच्या	-5311
▁हवामान	-5312
▁दृष्टिक	-5313
▁चुकीच्या	-5314
कडी	-5315
▁bl	-5316
▁अस्व	-5317
▁देवाचा	-5318
कारण	-5319
▁कव्हर	-5320
▁मेहन	-5321
ताप	-5322
▁समृ	-5323
▁साख	-5324
▁घाला	-5325
▁टाकले	-5326
▁क्ला	-5327
▁शकतील	-5328
न्यात	-5329
▁कोणीच	-5330
▁एशियन	-5331
▁मुळात	-5332
्रोल	-5333
▁बर्याच	-5334
pl	-5335
फेक्ट	-5336
ID	-5337
ber	-5338
▁पाळी	-5339
▁वनस्प	-5340
ूनच	-5341
▁याजक	-5342
▁दर्शन	-5343
▁सांस्कृतिक	-5344
▁बाद	-5345
▁कळले	-5346
▁भेटी	-5347
▁असावी	-5348
▁शांती	-5349
▁भारताच्या	-5350
▁अफ	-5351
सेवक	-5352
▁बहुतांश	-5353
खल	-5354
ौक	-5355
िष्ठ	-5356
याने	-5357
▁निष्	-5358
स्थेत	-5359
▁भेटायला	-5360
आज	-5361
बद्ध	-5362
▁भूत	-5363
▁ऑटो	-5364
▁त्वचा	-5365
▁2012	-5366
▁कामात	-5367
▁प्रकाशन	-5368
▁इतिहासा	-5369
▁पोर्	-5370
▁किलोमीटर	-5371
."	-5372
▁हॉस्प	-5373
▁परमेश्वराच्या	-5374
▁मिसर	-5375
▁सिस्ट	-5376
▁प्रोत्साहन	-5377
▁गंध	-5378
▁सिटी	-5379
▁सांभाळ	-5380
▁संध्याकाळी	-5381
प्ता	-5382
▁वाघ	-5383
क्षेप	-5384
▁पाईप	-5385
▁आपणास	-5386
िंप	-5387
▁सहसा	-5388
▁नृत्य	-5389
▁लिफ्ट	-5390
▁महिन्यां	-5391
▁सर्वेक्षण	-5392
ure	-5393
▁बोलतो	-5394
ल्यामुळे	-5395
वै	-5396
▁देखभा	-5397
▁व्याज	-5398
▁कृतज्ञ	-5399
▁Cl	-5400
▁विन	-5401
मार्ग	-5402
▁व्यक्तिम	-5403
▁खोल	-5404
ांमधील	-5405
▁गं	-5406
▁संकट	-5407
▁काढला	-5408
▁देशाची	-5409
▁आवडतं	-5410
▁पाण्यात	-5411
सलाम	-5412
▁अल्प	-5413
▁उद्य	-5414
▁प्राण	-5415
▁32	-5416
EB	-5417
अस्	-5418
▁ठाऊक	-5419
▁नेमके	-5420
▁गुलाम	-5421
="5	-5422
▁येणाऱ्या	-5423
टिंग	-5424
▁सुव	-5425
▁महाराष्ट्रात	-5426
▁बोलताना	-5427
▁राहुल	-5428
गाच्या	-5429
▁मुद्दे	-5430
▁लावून	-5431
▁२१	-5432
ज्या	-5433
▁उद्ध	-5434
▁80	-5435
▁तुमच्यावर	-5436
▁वस्तु	-5437
▁त्यांच्यात	-5438
orm	-5439
...!	-5440
▁अपवाद	-5441
▁आरक्षण	-5442
▁आड	-5443
बरी	-5444
▁खान	-5445
▁अपरा	-5446
▁ग्लास	-5447
▁रस्ते	-5448
▁स्वतःच	-5449
▁चेंडू	-5450
▁प्रगत	-5451
▁पांढरा	-5452
▁रेकॉर्ड	-5453
िणी	-5454
▁साइड	-5455
कॅम	-5456
▁कर्तव्य	-5457
▁परिणामी	-5458
▁टिप्पण्या	-5459
▁जेणेकरून	-5460
▁गुणवंतांच्या	-5461
ट्र	-5462
▁राजे	-5463
▁पाउ	-5464
▁मुसलमान	-5465
ाराची	-5466
▁याशिवाय	-5467
▁नवे	-5468
ऱ्यात	-5469
▁छायाचित्र	-5470
▁दातृत्वाचा	-5471
▁मनो	-5472
▁चूचे	-5473
वर्ड	-5474
▁बौद्ध	-5475
▁लिहून	-5476
▁पडतो	-5477
▁दिलेला	-5478
▁तात्	-5479
▁बोलता	-5480
भवती	-5481
62	-5482
▁परिवर्तन	-5483
▁झे	-5484
वर्ष	-5485
▁राष्ट्रा	-5486
तेच्या	-5487
▁ख्रिश्च	-5488
▁लागल्या	-5489
▁आजपर्यंत	-5490
बंदी	-5491
▁आर्	-5492
▁टिपा	-5493
▁निराश	-5494
33	-5495
▁Ad	-5496
▁दुःख	-5497
▁घ्याल	-5498
▁अॅल्युमिनियम	-5499
ical	-5500
दाची	-5501
▁चिन्ह	-5502
हीत	-5503
▁ग्रंथ	-5504
▁निराशा	-5505
▁सुरूवात	-5506
▁प्रतिनिधी	-5507
ंस	-5508
▁आश्र	-5509
ऱ्याला	-5510
▁खड	-5511
▁क्रीडा	-5512
▁वापरकर्त	-5513
▁अडथ	-5514
▁बराच	-5515
▁वनस्पती	-5516
▁90	-5517
▁विल	-5518
▁Post	-5519
▁दर्जाचे	-5520
▁शोधण्यासाठी	-5521
▁करण्यापूर्वी	-5522
▁बॅटरी	-5523
चिक	-5524
▁ताण	-5525
वडि	-5526
▁पिक	-5527
▁स्वर्ग	-5528
▁स्वामी	-5529
▁धम	-5530
▁कोरिया	-5531
▁मायक्र	-5532
▁ट्वि	-5533
▁गाड्या	-5534
▁करि	-5535
▁मोह	-5536
▁यंदा	-5537
▁परदेशी	-5538
▁अग्	-5539
▁टाइ	-5540
▁झु	-5541
▁वाचले	-5542
दला	-5543
▁उत्सव	-5544
्येष्ठ	-5545
▁इस्लाम	-5546
▁प्लॅस्टिक	-5547
▁भो	-5548
▁गौरव	-5549
▁राहून	-5550
▁चित्रे	-5551
):	-5552
र्द	-5553
श्‍यक	-5554
▁बनले	-5555
येत	-5556
▁अभिवाद	-5557
▁शासन	-5558
▁क्षेत	-5559
.1	-5560
▁तितके	-5561
अभिवादन	-5562
जारी	-5563
▁नार	-5564
▁रेड	-5565
▁अनंत	-5566
▁अब्	-5567
▁हरक	-5568
▁शकलो	-5569
▁स्टॉक	-5570
▁अ‍ॅ	-5571
तीचा	-5572
▁रेडिओ	-5573
▁खासदार	-5574
▁असाच	-5575
▁महिलांना	-5576
वेळा	-5577
▁रोड	-5578
ज्ज्ञ	-5579
▁मुस्लिम	-5580
▁सौंदर्य	-5581
▁स्थापित	-5582
eng	-5583
▁आवडतो	-5584
▁तेव्हापासून	-5585
▁Pro	-5586
▁लिंग	-5587
अलय	-5588
▁कल्प	-5589
▁अभिवादनाला	-5590
ino	-5591
अलयकुम	-5592
▁स्पॅनिश	-5593
▁प्रतिअभिवादन	-5594
▁त्याप्रमाणे	-5595
▁मिश्रण	-5596
ne	-5597
▁संदे	-5598
न्ह	-5599
र्जी	-5600
▁देय	-5601
▁मोशे	-5602
▁ठेवण्यात	-5603
▁द्व	-5604
▁सदैव	-5605
▁मासिक	-5606
▁योगदान	-5607
ोलिक	-5608
▁दिलं	-5609
▁सकाळ	-5610
▁खायला	-5611
▁जनावर	-5612
▁इलेक्ट्र	-5613
▁देशाला	-5614
▁सर्वो	-5615
▁संघटना	-5616
▁जै	-5617
▁जगभरातील	-5618
▁आमच्यासाठी	-5619
▁यायला	-5620
▁शिष्य	-5621
▁बँके	-5622
▁सोयी	-5623
लीत	-5624
वर्ध	-5625
▁खासगी	-5626
▁ब्रँड	-5627
▁सहभाग	-5628
▁मुंबईत	-5629
▁विधानसभा	-5630
ौढ	-5631
▁ठराव	-5632
▁लिंक	-5633
▁खुश	-5634
37	-5635
लिन	-5636
▁un	-5637
▁जेट	-5638
▁स्थित	-5639
▁प्रसंग	-5640
▁सांगण्यात	-5641
म्य	-5642
▁ख्रिश्चन	-5643
',	-5644
▁खाच	-5645
यो	-5646
▁नां	-5647
इत	-5648
▁तसंच	-5649
▁करेन	-5650
▁आमंत्र	-5651
श्री	-5652
▁वसंत	-5653
▁दरवाजे	-5654
▁वर्षाच्या	-5655
▁युरो	-5656
भारी	-5657
▁दिसले	-5658
▁कित्येक	-5659
क्झ	-5660
▁वापरला	-5661
▁चमक	-5662
विदा	-5663
▁पाहिलं	-5664
▁त्याचबरोबर	-5665
ट्स	-5666
जाती	-5667
▁है	-5668
▁कुल	-5669
▁सेवे	-5670
▁शरीरात	-5671
▁स्थितीत	-5672
ंदर्भ	-5673
▁आसपास	-5674
▁कोरियन	-5675
▁उन्हाळ्यात	-5676
▁खरेच	-5677
▁द्रा	-5678
▁सगळा	-5679
▁प्राधान	-5680
▁जाहिराती	-5681
▁दंड	-5682
▁समजत	-5683
▁अण्	-5684
रूप	-5685
ावत	-5686
▁गणे	-5687
▁शुभ	-5688
विन	-5689
▁कॅनडा	-5690
▁जगभरात	-5691
हळू	-5692
हेही	-5693
▁शोधू	-5694
िंबा	-5695
▁इराण	-5696
▁05	-5697
▁अक्षर	-5698
▁व्यास	-5699
नगर	-5700
फ्रे	-5701
वाडी	-5702
▁नवा	-5703
आपल्या	-5704
▁वर्षांनंतर	-5705
ोजक	-5706
धारित	-5707
▁उत्साह	-5708
▁बलात्कार	-5709
▁भया	-5710
▁येत्या	-5711
-5	-5712
▁जळ	-5713
▁घालून	-5714
▁भौतिक	-5715
निस	-5716
▁मॅन	-5717
▁मंजूर	-5718
▁मिळवून	-5719
वडिलां	-5720
▁पुनर्व	-5721
गामी	-5722
▁प्रोग	-5723
▁विदेशी	-5724
्रोत	-5725
▁तृ	-5726
▁स्था	-5727
पणी	-5728
▁दिवसभर	-5729
लरी	-5730
कोण	-5731
जरी	-5732
▁रच	-5733
▁लोकांसाठी	-5734
हीण	-5735
धिकारी	-5736
नमध्ये	-5737
धर	-5738
वणी	-5739
▁कृषी	-5740
▁कारखाने	-5741
▁एक्सएनयूएमएक्स	-5742
▁एवढेच	-5743
िप	-5744
दूत	-5745
▁वाक	-5746
ory	-5747
बार	-5748
▁कष्ट	-5749
▁निर्यात	-5750
▁मजे	-5751
▁डेटिंग	-5752
ink	-5753
▁सुल	-5754
▁ड्राइ	-5755
▁संख्ये	-5756
पाशी	-5757
▁होणाऱ्या	-5758
▁काश्	-5759
▁पिढ	-5760
▁रोजगार	-5761
वाणी	-5762
▁You	-5763
ai	-5764
▁दादा	-5765
▁इलेक्ट्रिक	-5766
टू	-5767
▁बेल	-5768
▁पीसी	-5769
▁मुदत	-5770
-8	-5771
जरे	-5772
विषय	-5773
▁बोलतात	-5774
▁अभ्यासा	-5775
▁सुरक्षे	-5776
▁म्हणायचे	-5777
▁प्रभू	-5778
▁सरकारला	-5779
साक्ष	-5780
▁अवघड	-5781
▁ag	-5782
▁महत्वाचा	-5783
▁हॉस्पिटल	-5784
▁मेंढ	-5785
▁म्हणाल्या	-5786
▁काळी	-5787
▁पर्वत	-5788
▁सामने	-5789
करणी	-5790
▁अध्या	-5791
▁आदिवासी	-5792
▁खुप	-5793
▁सावर	-5794
▁बुध	-5795
▁अपमान	-5796
oy	-5797
="1	-5798
ave	-5799
▁ज्येष्ठ	-5800
▁शां	-5801
ब्ल्यू	-5802
▁आल्यावर	-5803
▁गर्भवती	-5804
१९	-5805
▁Ph	-5806
त्वे	-5807
प्रेस	-5808
▁डाऊन	-5809
▁किशोर	-5810
संत	-5811
रिया	-5812
▁आयोग	-5813
▁एकटे	-5814
▁सेकंद	-5815
▁अर्थातच	-5816
▁मित्रांनो	-5817
▁पसं	-5818
▁ज्यांनी	-5819
▁बरी	-5820
▁घटने	-5821
▁विंडोज	-5822
▁चरबी	-5823
िनी	-5824
▁अंक	-5825
व्यात	-5826
▁बचाव	-5827
▁आवश्‍यक	-5828
▁वर्षाचा	-5829
:/	-5830
▁लावला	-5831
▁अनेकांना	-5832
6.	-5833
▁Sp	-5834
▁आपाप	-5835
▁बघून	-5836
▁बाबी	-5837
▁ट्यूब	-5838
▁माझ्याशी	-5839
▁व्यक्तीला	-5840
इंग	-5841
▁बाप	-5842
▁स्पर्श	-5843
▁माहितीसाठी	-5844
▁दिसेल	-5845
se	-5846
▁शिवा	-5847
्‍य	-5848
▁70	-5849
वितीय	-5850
वण्याची	-5851
▁घड्याळ	-5852
▁साम्रा	-5853
▁यरुशलेम	-5854
▁ठरले	-5855
▁मानतो	-5856
▁एकट	-5857
▁सामान	-5858
फो	-5859
रेख	-5860
▁आकडे	-5861
▁निष्क	-5862
▁टक्क	-5863
▁वाचक	-5864
▁नकारात्मक	-5865
▁अडक	-5866
▁वित्	-5867
प्रकारे	-5868
ts	-5869
ash	-5870
▁कॉर्	-5871
▁दोघांनी	-5872
▁वेगवेगळे	-5873
▁घडत	-5874
▁दान	-5875
▁धमकी	-5876
://	-5877
▁वयात	-5878
▁बाह्य	-5879
▁लाखो	-5880
ational	-5881
▁प्रौढ	-5882
▁निरीक्षण	-5883
ण्यापेक्षा	-5884
▁खे	-5885
▁हिर	-5886
प्रत	-5887
32	-5888
श्या	-5889
▁दारू	-5890
ष्टाचार	-5891
▁२२	-5892
▁मिळविण्यासाठी	-5893
▁संभा	-5894
▁हरकत	-5895
▁खोटे	-5896
▁जोडी	-5897
परिणाम	-5898
▁विचारला	-5899
▁महत्वाची	-5900
भेत	-5901
िकार	-5902
▁एकटी	-5903
▁खाद्य	-5904
▁मुद्र	-5905
▁घेते	-5906
▁वाढली	-5907
▁ठरवले	-5908
फन	-5909
▁आद	-5910
श्वास	-5911
▁मस्क	-5912
▁राखी	-5913
त्याने	-5914
▁मेंदू	-5915
▁नीट	-5916
64	-5917
▁लष्क	-5918
चाच	-5919
▁तसाच	-5920
द्यावर	-5921
▁सांगितली	-5922
▁बहुधा	-5923
▁मंत्रा	-5924
marathi	-5925
▁ख्रिस्ती	-5926
▁दुष्ट	-5927
▁घ्यावा	-5928
▁पुस्तकात	-5929
▁सर्वसाधारण	-5930
घट	-5931
ण्याचं	-5932
▁तारखे	-5933
▁समाजात	-5934
="0	-5935
त्मिक	-5936
▁त्रु	-5937
▁शिकार	-5938
▁दुरुस्ती	-5939
▁ब्लो	-5940
▁लोकं	-5941
ice	-5942
lot	-5943
मरा	-5944
▁विनो	-5945
▁शनिवारी	-5946
वृत्त	-5947
▁आठवडे	-5948
▁क्षणी	-5949
▁इंजेक्शन	-5950
74	-5951
▁an	-5952
ज्ञात	-5953
▁रिअल	-5954
▁शिल्	-5955
▁दिलेले	-5956
▁जुना	-5957
▁ट्रॅक	-5958
▁बोलला	-5959
जनक	-5960
ठ्ठ	-5961
▁सजावट	-5962
▁याने	-5963
▁स्थळ	-5964
▁इतरांना	-5965
उन	-5966
▁सारख्या	-5967
▁टीका	-5968
▁मतदा	-5969
▁पाठविले	-5970
▁ठेवण्यासाठी	-5971
▁विज	-5972
▁सुट्टी	-5973
▁Marathi	-5974
▁आत्म्या	-5975
ST	-5976
▁न्य	-5977
▁मुलांची	-5978
संबंध	-5979
app	-5980
▁व्यस्त	-5981
▁संदर्भात	-5982
▁कार्यकर्ते	-5983
▁5.	-5984
▁आढळले	-5985
▁बोलले	-5986
▁पाहिली	-5987
▁Read	-5988
सायनिक	-5989
▁उपकरण	-5990
▁कामाला	-5991
▁शिफारस	-5992
98	-5993
निया	-5994
▁गॅस	-5995
▁मुलीला	-5996
▁लोट	-5997
▁प्लॅट	-5998
बू	-5999
▁सोपा	-6000
ऊस	-6001
मुख्या	-6002
ल्डर	-6003
▁कटिंग	-6004
▁ताब्यात	-6005
▁हिंसा	-6006
▁हळूहळू	-6007
▁असल्याची	-6008
rom	-6009
▁लाइ	-6010
▁कार्यक्षमता	-6011
शिक	-6012
▁पाण्याची	-6013
▁अभिनेत्री	-6014
▁बाटली	-6015
ood	-6016
क्षेत	-6017
ॉकलेट	-6018
▁मंगळवारी	-6019
▁व्हावे	-6020
▁लिखा	-6021
▁वेगळं	-6022
▁नागरिकांना	-6023
वायची	-6024
▁रहस्य	-6025
▁त्रुटी	-6026
▁कंटा	-6027
▁स्टो	-6028
झील	-6029
▁सवल	-6030
▁""	-6031
▁देण	-6032
▁संग्रह	-6033
▁याद	-6034
▁तुम्हा	-6035
ss	-6036
फल	-6037
▁वध	-6038
▁फिल्म	-6039
▁आठवडा	-6040
▁समाप्त	-6041
श्य	-6042
हाण	-6043
▁इंध	-6044
▁दाखवून	-6045
▁होण्यास	-6046
▁sp	-6047
▁खिडकी	-6048
▁सर्वत्र	-6049
▁मिनी	-6050
वण्याचा	-6051
▁सेवक	-6052
▁दावीद	-6053
▁रूपांतर	-6054
▁तब्	-6055
▁धान	-6056
▁तेथील	-6057
▁दुरुस्त	-6058
▁पाल	-6059
▁Qu	-6060
▁चक	-6061
िंग्ज	-6062
▁यावे	-6063
cy	-6064
nl	-6065
▁असती	-6066
▁असाय	-6067
▁धावा	-6068
▁मस्त	-6069
यत	-6070
▁दुसरीकडे	-6071
▁घडली	-6072
▁वेबकॅम	-6073
▁त्यांच्याबरोबर	-6074
▁टन	-6075
ळाचे	-6076
▁ऐकत	-6077
▁झडप	-6078
▁वृद्ध	-6079
▁सुसंगत	-6080
टम	-6081
िटी	-6082
म्हणजे	-6083
ert	-6084
ick	-6085
▁तारे	-6086
▁धोकादायक	-6087
द्रा	-6088
▁प्या	-6089
▁पाहतो	-6090
▁सर्व्हर	-6091
▁सर्वोच्च	-6092
करता	-6093
▁आजकाल	-6094
▁नावाचा	-6095
▁उभी	-6096
▁मित्रा	-6097
▁pro	-6098
▁बहीण	-6099
▁व्यापक	-6100
▁सर्वजण	-6101
योजना	-6102
▁निश्‍	-6103
▁चिनी	-6104
▁भव्य	-6105
▁वेगाने	-6106
▁संवेदन	-6107
ह्म	-6108
स्टार	-6109
▁त्यामुळं	-6110
▁ईश्वरसाक्ष	-6111
पार	-6112
रोग	-6113
▁वगळ	-6114
▁भयानक	-6115
▁कितीही	-6116
▁कौशल्य	-6117
फु	-6118
▁डोके	-6119
▁कुमार	-6120
ण्यासारखे	-6121
▁स्वच्छता	-6122
▁कोक	-6123
▁स्तु	-6124
▁बर्‍या	-6125
95	-6126
▁आरंभ	-6127
▁पैश	-6128
▁गांडच	-6129
दोष	-6130
शर	-6131
ध्दा	-6132
▁बिघड	-6133
ary	-6134
▁आम्हा	-6135
फेक्ट्स	-6136
ंव्हा	-6137
▁बुद्धी	-6138
▁संशोधक	-6139
AR	-6140
aw	-6141
णूक	-6142
▁वेळेस	-6143
▁रासायनिक	-6144
▁पिश	-6145
▁गोंधळ	-6146
▁पर्यटक	-6147
▁स्त्रियांना	-6148
▁टोक	-6149
▁फुल	-6150
शाल	-6151
▁तुरु	-6152
▁श्रेष्ठ	-6153
▁htt	-6154
▁चुंब	-6155
ॅक्स	-6156
▁कथ	-6157
▁गणेश	-6158
▁घेण्याचा	-6159
▁खां	-6160
▁ग्ल	-6161
▁पाक	-6162
▁सिल	-6163
सत्ता	-6164
▁स्पष्टपणे	-6165
▁विर	-6166
▁गोंद	-6167
▁तज्ञ	-6168
झी	-6169
▁ओरड	-6170
▁सोशल	-6171
▁कृष्ण	-6172
दो	-6173
▁तेज	-6174
▁येथून	-6175
▁मौ	-6176
▁शास्त	-6177
▁आफ्रिके	-6178
▁नौ	-6179
पादन	-6180
▁अका	-6181
▁जातं	-6182
▁ग्राम	-6183
▁कुत्रा	-6184
▁लढत	-6185
▁गांडचटाई	-6186
yl	-6187
▁it	-6188
मेट	-6189
▁छाप	-6190
ंम	-6191
वाहन	-6192
▁समी	-6193
्रिका	-6194
▁शक्‍य	-6195
▁जोरदार	-6196
▁कुणा	-6197
▁वाटा	-6198
▁चांदी	-6199
▁प्रामुख्या	-6200
ेतून	-6201
▁कळेल	-6202
▁कारखान	-6203
▁घेण्यास	-6204
AT	-6205
▁केव्हा	-6206
▁चॉकलेट	-6207
ram	-6208
▁आफ्रिकन	-6209
ैर्य	-6210
▁डाऊनलोड	-6211
ंगे	-6212
जित	-6213
▁अर्थव्यवस्था	-6214
ult	-6215
गाचा	-6216
▁एकटा	-6217
▁फ्लॅट	-6218
▁त्यानं	-6219
▁शासकीय	-6220
▁संप्रेरक	-6221
जात	-6222
जरात	-6223
▁डोळ्या	-6224
▁वेळेवर	-6225
▁घेतल्या	-6226
▁राज्यातील	-6227
▁इंच	-6228
▁चक्र	-6229
▁महिले	-6230
▁कर्मचाऱ	-6231
▁छोटा	-6232
▁चुकीचा	-6233
▁यहो	-6234
▁वर्षं	-6235
▁दुष्परिणाम	-6236
▁ओला	-6237
▁Th	-6238
▁एकदम	-6239
▁देण्याचा	-6240
ळाची	-6241
▁नुस	-6242
▁यापुढे	-6243
▁ड्राय	-6244
▁त्याचप्रमाणे	-6245
▁पॉवर	-6246
तीच्या	-6247
▁अश्	-6248
लीकडे	-6249
▁सोमवारी	-6250
ळणी	-6251
▁कपड	-6252
▁येशूने	-6253
▁वर्गात	-6254
चण	-6255
▁याआधी	-6256
▁राष्ट्रपती	-6257
▁अद्यतन	-6258
तेत	-6259
ूम्र	-6260
▁आयात	-6261
▁निघा	-6262
▁आभारी	-6263
▁मिळतील	-6264
▁कडक	-6265
ोळ	-6266
▁बोर्ड	-6267
▁रागाव	-6268
▁पेय	-6269
▁विवे	-6270
▁संतु	-6271
▁सेना	-6272
▁मिळवू	-6273
प्रमाणेच	-6274
▁नमस्कार	-6275
▁प्रामुख्याने	-6276
कोन	-6277
▁सब	-6278
▁WEB	-6279
▁कर्क	-6280
▁किमी	-6281
▁पॅंटीस	-6282
▁संगीता	-6283
▁एसी	-6284
▁टॅग	-6285
थर	-6286
▁कधीतरी	-6287
▁गीत	-6288
▁आणून	-6289
▁समर्	-6290
▁निवास	-6291
▁परिचय	-6292
▁स्रोत	-6293
कू	-6294
▁चालले	-6295
▁महायु	-6296
▁डिव्हा	-6297
▁संकल्प	-6298
माल	-6299
▁पार्क	-6300
▁मेहनत	-6301
▁देशाचे	-6302
▁असल्याचा	-6303
मुक	-6304
▁घन	-6305
▁श्या	-6306
ानुसार	-6307
▁विचारलं	-6308
ग्ज	-6309
lect	-6310
▁घोषित	-6311
▁इंडिया	-6312
▁विचारा	-6313
▁बोलायला	-6314
▁नव्हतो	-6315
▁प्रक्रिये	-6316
स्टा	-6317
स्तव	-6318
▁अना	-6319
बॉलिक	-6320
▁नाहीच	-6321
▁अन्याय	-6322
▁मराठ	-6323
▁मांस	-6324
▁वाटू	-6325
धीश	-6326
▁ch	-6327
▁विसरून	-6328
ंदन	-6329
डियो	-6330
्लिश	-6331
▁or	-6332
गुती	-6333
▁हून	-6334
▁पातळीवर	-6335
ड्स	-6336
ater	-6337
▁दुब	-6338
त्त्व	-6339
विषयक	-6340
▁खराब	-6341
▁सावध	-6342
▁तुरुंग	-6343
▁मूल्या	-6344
▁अत्याचार	-6345
▁गोपनीयता	-6346
तुला	-6347
▁ब्रि	-6348
▁विवा	-6349
▁वरच्या	-6350
▁मार्गाने	-6351
▁Pl	-6352
ांमधून	-6353
▁गरजा	-6354
▁प्रभावित	-6355
▁वापरकर्ते	-6356
ंतू	-6357
ध्व	-6358
गाचे	-6359
भोवती	-6360
▁प्रॉ	-6361
▁लागवड	-6362
▁वापरकर्ता	-6363
▁जप	-6364
ated	-6365
▁पडू	-6366
▁शेवटचे	-6367
▁अस्वस्थ	-6368
▁सरकारच्या	-6369
.)	-6370
76	-6371
मै	-6372
नाश	-6373
▁बनला	-6374
▁भ्रष्टाचार	-6375
साध	-6376
▁बाळग	-6377
▁घरातील	-6378
?”	-6379
ांबरोबर	-6380
▁Tr	-6381
▁६०	-6382
▁स्टी	-6383
▁वाटतंय	-6384
दाने	-6385
▁भारी	-6386
▁अंश	-6387
▁सदर	-6388
▁more	-6389
▁दिसू	-6390
▁आफ्रिका	-6391
▁1)	-6392
नामा	-6393
▁1000	-6394
▁टाका	-6395
▁ज्याने	-6396
ere	-6397
▁नक	-6398
▁तिकी	-6399
▁गायन	-6400
▁उड्डाण	-6401
▁किंमती	-6402
ळीस	-6403
▁फार्	-6404
▁निमित्	-6405
▁सगळीकडे	-6406
▁मिल	-6407
▁सोडले	-6408
▁दृष्टिकोन	-6409
▁शिर	-6410
्युअल	-6411
▁देखभाल	-6412
▁परवाना	-6413
▁शॉ	-6414
क्‍त	-6415
ght	-6416
▁दृश्ये	-6417
ire	-6418
▁राब	-6419
▁रक्ता	-6420
AS	-6421
▁साह	-6422
▁कळलं	-6423
▁अर्धा	-6424
धारी	-6425
▁दोषी	-6426
▁घरगुती	-6427
▁00	-6428
▁एर	-6429
▁वास	-6430
दिष्ट	-6431
▁जोशी	-6432
▁नेले	-6433
पल	-6434
ach	-6435
▁शब्दात	-6436
ark	-6437
ियो	-6438
▁33	-6439
▁शास्त्रज्ञ	-6440
पाट	-6441
रोधक	-6442
▁निधन	-6443
▁मंदिरात	-6444
ंजक	-6445
स्तर	-6446
▁तिर	-6447
▁खातो	-6448
▁लागतील	-6449
लाच्या	-6450
▁आश्वास	-6451
▁बांगला	-6452
▁चित्रपटात	-6453
म्ब	-6454
्यो	-6455
▁2)	-6456
र्या	-6457
▁अॅना	-6458
ise	-6459
IN	-6460
लू	-6461
गरी	-6462
▁कब	-6463
▁तब्बल	-6464
▁निदान	-6465
▁साइटवर	-6466
▁जड	-6467
र्दी	-6468
नच्या	-6469
▁सिस्टम	-6470
41	-6471
स्पर	-6472
▁उदाहरणे	-6473
भुत	-6474
▁जीएसटी	-6475
▁इथं	-6476
▁पाने	-6477
▁साहेब	-6478
▁अमेरिकेतील	-6479
85	-6480
▁प्रोजे	-6481
▁हाताने	-6482
क्सा	-6483
▁जाव	-6484
▁बॉडी	-6485
▁होईपर्यंत	-6486
▁ष	-6487
▁माजी	-6488
व्हर्स	-6489
▁द्वारा	-6490
▁वार्षिक	-6491
▁स्वरूपात	-6492
▁लघ	-6493
ळाच्या	-6494
▁फसवणूक	-6495
▁स्त्रोत	-6496
ोषण	-6497
धारक	-6498
▁वाढी	-6499
▁आवडता	-6500
ery	-6501
▁वापरतात	-6502
▁सेंट	-6503
▁सोपी	-6504
▁विराट	-6505
रल	-6506
▁डॅ	-6507
▁सराव	-6508
▁लक्षणे	-6509
▁प्लॅटफॉर्म	-6510
orld	-6511
▁धुवून	-6512
खावा	-6513
▁अज्ञात	-6514
▁परिवार	-6515
ator	-6516
▁ऐका	-6517
यंकर	-6518
्रिस	-6519
▁मुलींना	-6520
▁आध्या	-6521
▁बॅक	-6522
▁साधारणपणे	-6523
शू	-6524
▁योजन	-6525
▁टॉमला	-6526
▁कादंबरी	-6527
ैरे	-6528
▁खट	-6529
▁आभा	-6530
asino	-6531
▁धूम्र	-6532
▁साकार	-6533
▁कोल्हा	-6534
▁प्राधान्य	-6535
▁कलम	-6536
▁समजू	-6537
▁उर्वरित	-6538
▁उपस्थिती	-6539
▁शिवाजी	-6540
erv	-6541
ळकर	-6542
▁बनवि	-6543
▁दिसणार	-6544
▁आकर्षित	-6545
ेलिक	-6546
▁निष्कर्ष	-6547
ंसा	-6548
▁जॅक	-6549
▁माझ्याबरोबर	-6550
▁घडते	-6551
▁हंगा	-6552
▁परिषदे	-6553
▁पूरक	-6554
▁खून	-6555
▁साप	-6556
▁अडचण	-6557
बॅ	-6558
वीर	-6559
▁परमेश्वराला	-6560
ऑन	-6561
यल	-6562
वाड	-6563
▁बळ	-6564
▁बोललो	-6565
▁पृष्ठभाग	-6566
▁पॅरिस	-6567
▁बदलून	-6568
ंशी	-6569
▁पॅकिंग	-6570
▁त्याऐवजी	-6571
▁आत्मविश्वास	-6572
सेवा	-6573
▁राय	-6574
ावेळी	-6575
▁तुकडे	-6576
▁लिहिली	-6577
▁टाळण्यासाठी	-6578
ईक	-6579
मीण	-6580
ल्याण	-6581
▁तट	-6582
▁थां	-6583
▁दाब	-6584
▁धोक	-6585
▁भरून	-6586
▁आजारी	-6587
▁टिप्पणी	-6588
फ्	-6589
▁ठरला	-6590
▁अवय	-6591
▁What	-6592
मारी	-6593
▁वाटे	-6594
▁करिअर	-6595
▁वेत	-6596
▁विश्र	-6597
ल्लं	-6598
ाराचे	-6599
▁संचालक	-6600
▁असामान्य	-6601
▁व्यवस्थित	-6602
▁अग्र	-6603
▁पुरावा	-6604
▁अक	-6605
▁विरोधक	-6606
▁शौ	-6607
▁कात	-6608
▁खेळू	-6609
▁सीएन	-6610
माच्या	-6611
▁जाणारे	-6612
▁सामान्यतः	-6613
▁उद	-6614
▁नर	-6615
▁क्षम	-6616
▁मिळालं	-6617
OS	-6618
ef	-6619
रेशन	-6620
▁अँड	-6621
▁कवी	-6622
▁टॉप	-6623
▁स्वभाव	-6624
स्को	-6625
टल	-6626
▁काढली	-6627
▁वेस्ट	-6628
उत्	-6629
▁पूल	-6630
्राचा	-6631
▁36	-6632
आमच्या	-6633
▁आध्यात्मिक	-6634
▁त्याच्याशी	-6635
▁पार्श्व	-6636
▁48	-6637
▁अर्थाने	-6638
▁क्लब	-6639
▁गणित	-6640
▁सुलभ	-6641
ध्यापक	-6642
▁स्थला	-6643
भेद	-6644
भाषा	-6645
क्किंग	-6646
क्षेत्र	-6647
पीठा	-6648
▁Tag	-6649
▁हुशार	-6650
▁तपा	-6651
▁येतं	-6652
▁नॅस्टी	-6653
▁स्पर्धे	-6654
ond	-6655
राळ	-6656
मुक्त	-6657
▁पाठवले	-6658
▁लोड	-6659
▁कोणाची	-6660
ंटा	-6661
▁ओळखत	-6662
▁बाजूने	-6663
लीज	-6664
ance	-6665
यासाठी	-6666
▁इतकेच	-6667
▁मांजर	-6668
▁येण्याची	-6669
▁रॅ	-6670
र्लंड	-6671
▁शिवसेने	-6672
▁मुख्यपृष्ठ	-6673
िले	-6674
▁पथ	-6675
▁कमीत	-6676
▁पध्द	-6677
▁बदलली	-6678
▁शोधून	-6679
▁गुजरात	-6680
▁मोटार	-6681
▁वरिष्ठ	-6682
कस	-6683
▁तरच	-6684
▁सुग	-6685
नायटेड	-6686
▁वेळेत	-6687
▁तिकीट	-6688
▁पकडले	-6689
▁सुटका	-6690
ॉस	-6691
ियल	-6692
िंदू	-6693
▁डाव	-6694
▁with	-6695
▁आर्ट	-6696
▁परमेश्वराचा	-6697
डतो	-6698
ेडकर	-6699
89	-6700
ows	-6701
▁कंपनीच्या	-6702
िओ	-6703
▁भाड	-6704
▁मिस	-6705
▁संग्र	-6706
▁मुलगे	-6707
▁चीनमध्ये	-6708
उंट	-6709
तुक	-6710
लये	-6711
▁धैर्य	-6712
▁बाळाला	-6713
▁देण्यास	-6714
▁जरूर	-6715
▁वगैरे	-6716
▁पूर	-6717
▁क्लि	-6718
▁आम्हांला	-6719
▁300	-6720
▁पीक	-6721
▁नागपूर	-6722
▁सेवानि	-6723
▁सूट	-6724
▁महत्त्वपूर्ण	-6725
ोलोन	-6726
ोस्टेर	-6727
▁ऐकायला	-6728
नेही	-6729
दृष्ट	-6730
▁जमिनीवर	-6731
▁संवेदनशील	-6732
द्दी	-6733
पूस	-6734
▁ago	-6735
▁तुट	-6736
▁तिकडे	-6737
▁रविवार	-6738
लाग	-6739
वेष	-6740
FP	-6741
▁ऑफीस	-6742
▁चीनी	-6743
ांत्रिकी	-6744
धव	-6745
शनल	-6746
▁गी	-6747
▁बर्फ	-6748
स्थापित	-6749
आई	-6750
डिस्ट	-6751
ांडे	-6752
▁शंभ	-6753
27	-6754
AN	-6755
▁इंधन	-6756
▁बंधन	-6757
▁कार्बन	-6758
▁वीस	-6759
▁सुनि	-6760
▁स्टेर	-6761
▁स्पष्टीकरण	-6762
▁दिवसांपूर्वी	-6763
▁(4	-6764
▁0.	-6765
▁भयंकर	-6766
ions	-6767
णाने	-6768
क्रेलिक	-6769
▁परस्पर	-6770
▁मतदारसंघ	-6771
काळात	-6772
▁मोहि	-6773
▁तालुक	-6774
▁अनुसरण	-6775
ons	-6776
ंपार	-6777
▁गार्	-6778
ाराने	-6779
▁प्रस	-6780
▁ख्रिस	-6781
▁इश	-6782
▁पडतात	-6783
▁शेवटची	-6784
nt	-6785
▁शहरे	-6786
▁कार्यक्रमा	-6787
▁आंध	-6788
▁टेप	-6789
▁शरद	-6790
--	-6791
ower	-6792
▁सोह	-6793
▁शेतात	-6794
▁महाविद्यालय	-6795
▁पूर्वज	-6796
▁जाण्याचा	-6797
किं	-6798
▁१९३	-6799
▁निरोप	-6800
▁देशासाठी	-6801
▁जिल्ह्यातील	-6802
34	-6803
▁समूह	-6804
ics	-6805
ंगी	-6806
ॉनिक	-6807
भक्त	-6808
वाट	-6809
▁Ex	-6810
▁अश्या	-6811
▁स्मरण	-6812
▁उष्णता	-6813
▁श्रद्धा	-6814
्टे	-6815
▁38	-6816
▁चाच	-6817
▁लावले	-6818
▁प्रवाश	-6819
ीम	-6820
▁अनो	-6821
▁उच्	-6822
▁नसा	-6823
▁लाय	-6824
▁ग्रामीण	-6825
▁प्रत्येकजण	-6826
ण्ड	-6827
ener	-6828
▁यूके	-6829
साच्या	-6830
शै	-6831
▁२६	-6832
▁फोड	-6833
यॉर्क	-6834
▁पाठवा	-6835
▁उपयोगी	-6836
▁विश्‍वास	-6837
▁शाखा	-6838
रीज	-6839
▁मेटल	-6840
त्रिणी	-6841
▁केल्याने	-6842
sp	-6843
▁जुग	-6844
▁2011	-6845
▁युनायटेड	-6846
यिक	-6847
55	-6848
eg	-6849
▁राष्ट्राध्यक्ष	-6850
▁निराकरण	-6851
▁वेबसाईट	-6852
जीत	-6853
वळा	-6854
वल्या	-6855
▁गोष्टींचा	-6856
प्टर	-6857
▁किर	-6858
▁पॅकेजिंग	-6859
▁निघाले	-6860
▁भारताने	-6861
ॉर	-6862
चरण	-6863
ातही	-6864
▁उघडा	-6865
▁राखीव	-6866
दिन	-6867
पाच्या	-6868
▁ध्यान	-6869
oll	-6870
जोग	-6871
क्चर	-6872
लिंगी	-6873
▁जनता	-6874
▁पहात	-6875
▁पेशी	-6876
▁असतांना	-6877
▁वृत्तपत्र	-6878
बोध	-6879
▁निरो	-6880
▁निळा	-6881
▁स्पी	-6882
ina	-6883
तेच	-6884
▁नाश्	-6885
▁तुम्हीच	-6886
▁साडे	-6887
71	-6888
विं	-6889
▁हानी	-6890
▁बोलणार	-6891
▁जीवनाचा	-6892
ER	-6893
▁घोडे	-6894
▁राहतील	-6895
ey	-6896
क्षणासाठी	-6897
▁गृ	-6898
▁बरं	-6899
▁खोटं	-6900
▁फ्री	-6901
▁अवस्था	-6902
▁मुलांनी	-6903
क्ष्म	-6904
▁उपासना	-6905
▁चालणार	-6906
▁केबल	-6907
▁गर्व	-6908
▁प्रशिक्षक	-6909
▁No	-6910
▁ट्रि	-6911
▁शिल्लक	-6912
▁मिर	-6913
▁कुकी	-6914
▁करीता	-6915
▁ऑक्स	-6916
▁अद्वितीय	-6917
▁तुझ्यावर	-6918
▁लाज	-6919
▁साहाय	-6920
▁राहिलो	-6921
▁सुरक्षितता	-6922
बला	-6923
▁तुझ्यासाठी	-6924
ुण	-6925
वेद	-6926
▁पटक	-6927
▁भास	-6928
पालिके	-6929
▁निसर्	-6930
▁ad	-6931
▁वैध	-6932
▁आवडला	-6933
▁तज्ज्ञ	-6934
▁द्यावा	-6935
५०	-6936
▁उत्ते	-6937
▁विस्तृत	-6938
▁भूमी	-6939
▁काढणे	-6940
▁ग्रीक	-6941
▁द्यावी	-6942
▁फिटनेस	-6943
▁तिच्यावर	-6944
▁फर	-6945
त्ये	-6946
▁रिका	-6947
▁झाल्याने	-6948
▁तूच	-6949
▁शूट	-6950
▁??	-6951
स्वा	-6952
▁वाया	-6953
▁प्रदेशात	-6954
राण	-6955
▁आंबेडकर	-6956
▁कुटुंबीय	-6957
36	-6958
▁मुळे	-6959
▁प्लेट	-6960
ix	-6961
लंबित	-6962
▁तणाव	-6963
▁यापैकी	-6964
▁न्यायालय	-6965
/20	-6966
▁घडवून	-6967
▁दृष्टीकोन	-6968
▁बघतो	-6969
▁दिसला	-6970
▁विचारू	-6971
▁शनिवार	-6972
▁आवडली	-6973
▁बंदूक	-6974
▁कोर्स	-6975
▁प्राय	-6976
old	-6977
दाचे	-6978
▁झाडे	-6979
▁धाड	-6980
▁ठरते	-6981
▁साता	-6982
▁पॅनेल	-6983
▁सांगितल्या	-6984
▁बुड	-6985
▁प्रां	-6986
,.	-6987
21	-6988
ण्याला	-6989
▁कौतुक	-6990
▁कॉर्पो	-6991
▁निश्‍चित	-6992
ानु	-6993
थ्या	-6994
▁चंद	-6995
▁विश्रांती	-6996
उट	-6997
▁धन	-6998
▁ठरेल	-6999
ारे	-7000
▁बदलला	-7001
EM	-7002
▁शहरा	-7003
▁डिव्हाइस	-7004
मग	-7005
पुढ	-7006
बड	-7007
ank	-7008
ann	-7009
ायरस	-7010
▁2010	-7011
▁फेरी	-7012
▁विजयी	-7013
▁सामायिक	-7014
ायचो	-7015
▁मधु	-7016
▁सर्वश	-7017
▁सारखी	-7018
निय	-7019
▁अवयव	-7020
▁घ्यायची	-7021
▁स्फ	-7022
▁२०१९	-7023
ंपारिक	-7024
ण्यावर	-7025
भारतीय	-7026
▁जगाला	-7027
▁शिपिंग	-7028
▁फ्रेम	-7029
▁इस्राए	-7030
▁घाई	-7031
शिंग	-7032
▁हॉल	-7033
▁काढू	-7034
▁दस्त	-7035
▁जायचं	-7036
▁इंग्रज	-7037
ED	-7038
्राट	-7039
▁लेखात	-7040
▁सांगायला	-7041
▁06	-7042
चाकी	-7043
▁आणली	-7044
▁फक्किंग	-7045
खित	-7046
▁शिकत	-7047
▁दक्षिणे	-7048
▁अवघ	-7049
▁चॅनेल	-7050
▁नाशिक	-7051
▁सांगून	-7052
▁माणसाने	-7053
▁महत्त्वाचं	-7054
ster	-7055
▁आकर्षण	-7056
ence	-7057
▁तला	-7058
▁याको	-7059
▁जाताना	-7060
▁पाठिंबा	-7061
▁सोल	-7062
च्योर	-7063
▁गायक	-7064
▁धोनी	-7065
▁दिसली	-7066
▁ज्यामध्ये	-7067
▁are	-7068
▁घट्ट	-7069
▁वाचत	-7070
▁ऑर्जी	-7071
▁तेवढा	-7072
▁नमू	-7073
▁बुद्धि	-7074
धीन	-7075
▁आणू	-7076
▁निवडले	-7077
26	-7078
कोर	-7079
्टो	-7080
▁बल	-7081
धिका	-7082
र्फे	-7083
▁शतक	-7084
विधान	-7085
▁आवाहन	-7086
▁विचारात	-7087
स्पद	-7088
▁तुझं	-7089
▁पसंती	-7090
ॅनड्	-7091
▁भावन	-7092
▁आढावा	-7093
▁धूम्रपान	-7094
...?	-7095
rypt	-7096
क्‍टर	-7097
ोत्सव	-7098
रीस	-7099
शाची	-7100
पुरुष	-7101
स्फोट	-7102
िंब	-7103
सेट	-7104
न्सी	-7105
▁बेड	-7106
प्रथम	-7107
▁वरून	-7108
संदर्भ	-7109
▁तपासा	-7110
''	-7111
्यून	-7112
▁इजि	-7113
कासाठी	-7114
नानंतर	-7115
▁about	-7116
▁किल्ला	-7117
▁असणाऱ्या	-7118
▁खू	-7119
▁अॅनाबॉलिक	-7120
ेलर	-7121
ल्यात	-7122
▁भेटलो	-7123
▁निविदा	-7124
ोडी	-7125
विरोध	-7126
ण्याआधी	-7127
▁परीक्षे	-7128
Tube	-7129
▁कॉन्	-7130
az	-7131
100	-7132
▁पार्ट	-7133
▁स्कूल	-7134
▁महत्त्वाच्या	-7135
ase	-7136
म्मत	-7137
र्णी	-7138
िकॉन	-7139
ोग्रा	-7140
▁पुण्यात	-7141
Com	-7142
▁US	-7143
▁शिकवण	-7144
▁कॉम	-7145
▁2009	-7146
▁वापरता	-7147
▁डॉलर्स	-7148
गन	-7149
▁कसले	-7150
▁पॉलिसी	-7151
ax	-7152
खु	-7153
दास	-7154
▁गंमत	-7155
्यांशी	-7156
▁प्रेस	-7157
▁आत्ताच	-7158
▁माझ्यात	-7159
बंद	-7160
▁कोसळ	-7161
▁दुवा	-7162
▁देखावा	-7163
▁निवडणुकीत	-7164
पेक्षाही	-7165
▁मित्रांना	-7166
्‍	-7167
▁आणी	-7168
▁फळे	-7169
▁नातेवाई	-7170
ताला	-7171
▁दफन	-7172
▁द्रव	-7173
.,	-7174
ापत्र	-7175
▁year	-7176
▁गर्ल	-7177
▁संपर्कात	-7178
वाही	-7179
▁पार्श्वभूमी	-7180
१०	-7181
काला	-7182
▁नसल्याने	-7183
▁कार्यकारी	-7184
86	-7185
▁काश्मीर	-7186
▁प्रतिकार	-7187
ानं	-7188
▁तिथून	-7189
sh	-7190
▁पसंत	-7191
▁शकतं	-7192
▁दुसर्या	-7193
▁स्टिरॉइड्स	-7194
ान्	-7195
▁दाखवा	-7196
▁ज्याचा	-7197
पालिका	-7198
▁अंतर्	-7199
▁कनेक्ट	-7200
▁प्रथ	-7201
▁प्रीम	-7202
▁निरोगी	-7203
▁रुग्णालयात	-7204
▁राजकारणात	-7205
ठिका	-7206
▁पर्यटन	-7207
▁सामन्यात	-7208
▁स्थलांतर	-7209
▁प्रोग्राम	-7210
▁सत्र	-7211
▁पारंपारिक	-7212
▁२३	-7213
▁न्यडिस्ट	-7214
▁थोर	-7215
▁मारली	-7216
▁सातारा	-7217
▁नॉन	-7218
▁घोटा	-7219
डम	-7220
त्रिम	-7221
निष्ठ	-7222
▁त्वचे	-7223
▁मुख्या	-7224
▁सापडले	-7225
▁गुणधर्म	-7226
शः	-7227
ंती	-7228
▁(7	-7229
▁समस्ये	-7230
▁त्यातही	-7231
▁न्यूयॉर्क	-7232
▁फड	-7233
▁देशाचा	-7234
▁संशय	-7235
▁प्रदूषण	-7236
▁अर्थव्यवस्थे	-7237
▁तत्व	-7238
▁युनिट	-7239
▁मानतात	-7240
▁होण्याचा	-7241
▁डबल	-7242
▁देह	-7243
▁लिहा	-7244
▁अब्रा	-7245
▁झाल्याचे	-7246
▁at	-7247
ार्थी	-7248
▁लेझर	-7249
▁उघडले	-7250
▁घरच्या	-7251
▁सुधारित	-7252
ॉफ्ट	-7253
▁गाज	-7254
▁टीन	-7255
▁देणगी	-7256
▁दुहेरी	-7257
▁कार्यक्षम	-7258
▁लोकसंख्ये	-7259
▁2,	-7260
▁सलग	-7261
▁सौर	-7262
सिद्ध	-7263
ays	-7264
▁बंग	-7265
क्रेन	-7266
▁उद्भव	-7267
नेच	-7268
्मक	-7269
▁ओळखी	-7270
अल्लाह	-7271
▁India	-7272
▁इतिहासात	-7273
▁जिल्ह्यात	-7274
व्हीसी	-7275
▁अभिनय	-7276
सायला	-7277
▁कमाई	-7278
▁पडणार	-7279
▁शिकलो	-7280
▁देवदूत	-7281
▁त्यांच्याकडून	-7282
लग्न	-7283
▁नित	-7284
▁पुढा	-7285
ोम	-7286
▁शिं	-7287
▁पाण्याचे	-7288
▁विश्वासा	-7289
माचा	-7290
▁भारताला	-7291
लॅ	-7292
oft	-7293
चीत	-7294
▁अंदा	-7295
▁ऐकतो	-7296
▁व्हायचे	-7297
▁स्वयंसेवक	-7298
न्ट	-7299
्राची	-7300
▁फ्लो	-7301
▁गुरूवार	-7302
▁प्रतिष्ठा	-7303
न्यु	-7304
र्वा	-7305
खालील	-7306
▁खरंतर	-7307
▁2008	-7308
▁आयटम	-7309
▁संमेल	-7310
olog	-7311
......	-7312
▁असंख्य	-7313
ations	-7314
▁अभियांत्रिकी	-7315
निध	-7316
▁55	-7317
ार्ह	-7318
▁खऱ्या	-7319
▁पोलिसांना	-7320
ेटर	-7321
शाचा	-7322
▁बालक	-7323
▁साखळी	-7324
▁अधिकाधिक	-7325
▁९०	-7326
ऱ्याची	-7327
▁आयफोन	-7328
▁कनेक्शन	-7329
▁लिहायला	-7330
▁New	-7331
▁बसले	-7332
▁कुठली	-7333
▁चालेल	-7334
▁वाढले	-7335
▁वर्ल्ड	-7336
▁क्षेत्रातील	-7337
les	-7338
per	-7339
▁होताना	-7340
IS	-7341
].	-7342
▁पशु	-7343
वृ	-7344
▁6.	-7345
▁उग	-7346
▁आपणच	-7347
▁कॉपीरा	-7348
▁कण	-7349
▁कॅस्टिंग	-7350
एट	-7351
गुरु	-7352
न्ना	-7353
▁समजा	-7354
▁सिंह	-7355
ताच्या	-7356
▁भारताचा	-7357
▁पाळीव	-7358
▁मिळवि	-7359
्मी	-7360
▁ओळी	-7361
▁कर्ण	-7362
▁सर्वोत्कृष्ट	-7363
ph	-7364
सिड	-7365
tern	-7366
नाटक	-7367
▁हार	-7368
क्सिक	-7369
▁पाउडर	-7370
-4	-7371
88	-7372
णीत	-7373
▁कामका	-7374
▁त्याग	-7375
▁लावली	-7376
▁वाहून	-7377
▁होणारा	-7378
▁स्पर्धेत	-7379
▁चुकीची	-7380
ांपर्यंत	-7381
िकेत	-7382
▁हुक	-7383
ल्लंघ	-7384
▁खाणे	-7385
▁मरणार	-7386
▁सर्वांचे	-7387
▁खुला	-7388
▁देण्याचे	-7389
▁नेतृत्वा	-7390
▁साधना	-7391
▁प्रकृती	-7392
▁गुन्हेगार	-7393
▁प्रजा	-7394
▁ब्रेक	-7395
▁कंपनीने	-7396
▁पोहच	-7397
▁कामासाठी	-7398
▁सुनिश्चित	-7399
?"	-7400
itt	-7401
????	-7402
गाची	-7403
शाचे	-7404
▁150	-7405
व्हीडी	-7406
▁चालते	-7407
▁सूचित	-7408
वाच	-7409
लाचा	-7410
▁पुत	-7411
▁आजची	-7412
▁जोडले	-7413
▁शिक्ष	-7414
▁लोकसभा	-7415
▁दुकानात	-7416
▁आं	-7417
▁अनुदान	-7418
▁क्रांती	-7419
7.	-7420
▁Am	-7421
▁२७	-7422
▁बोलाव	-7423
▁बाजारपे	-7424
▁शेतकर्‍य	-7425
▁टेस्टोस्टेर	-7426
▁वाटली	-7427
▁श्रील	-7428
▁पुरेसा	-7429
▁वापरणे	-7430
▁घ्यायचे	-7431
घोळ	-7432
ंदाजी	-7433
▁गावा	-7434
▁चाहत	-7435
ऱ्यांनी	-7436
तुम्हाला	-7437
पद्ध	-7438
="2.	-7439
लेक्स	-7440
▁परवड	-7441
▁मराठा	-7442
▁कोठ	-7443
कुमार	-7444
सायकल	-7445
▁लवचिक	-7446
ets	-7447
मास	-7448
स्‍	-7449
▁फॅशन	-7450
▁99	-7451
बाजू	-7452
बाबा	-7453
▁जबर	-7454
▁थोडं	-7455
▁वाय	-7456
▁वेतन	-7457
▁बाबेल	-7458
▁मागच्या	-7459
▁नियुक्ती	-7460
वट	-7461
▁चरण	-7462
▁कच्चा	-7463
▁परदेशात	-7464
▁ज्याच्या	-7465
जेट	-7466
▁3)	-7467
▁विचारत	-7468
वाढ	-7469
▁कैद	-7470
▁लॉक	-7471
▁आपल्यावर	-7472
▁सांगायचे	-7473
वो	-7474
▁हळ	-7475
▁धडा	-7476
▁तारा	-7477
▁बदली	-7478
▁डेस्क	-7479
▁प्रांत	-7480
▁शहरातील	-7481
▁सूक्ष्म	-7482
▁पाण्याचा	-7483
▁कार्यालयात	-7484
▁तितकी	-7485
▁लागलो	-7486
ace	-7487
▁८०	-7488
▁संस	-7489
▁मिळव	-7490
▁अद्भुत	-7491
विते	-7492
स्सा	-7493
▁ठरली	-7494
▁दौरा	-7495
▁ड्राइव्ह	-7496
हास	-7497
▁Te	-7498
सागर	-7499
▁तेथून	-7500
▁लॉगिन	-7501
▁स्विच	-7502
▁आशियाई	-7503
ॉजी	-7504
▁le	-7505
▁दृ	-7506
▁लॉट	-7507
होस	-7508
▁झाडा	-7509
▁२०१७	-7510
▁आणण्यासाठी	-7511
fl	-7512
▁(6	-7513
लाची	-7514
त्त्वा	-7515
्यतिरिक्त	-7516
te	-7517
▁सर्वांनाच	-7518
शाळे	-7519
▁सहजपणे	-7520
किंवा	-7521
▁गुंडा	-7522
▁जाणतो	-7523
▁धड	-7524
माची	-7525
सिंग	-7526
▁आयोजन	-7527
▁इथल्या	-7528
▁बर्‍याच	-7529
▁सिलिकॉन	-7530
▁भोग	-7531
▁आणला	-7532
क्रिया	-7533
▁लोकसभे	-7534
▁परिसरात	-7535
▁भारताचे	-7536
मुळेच	-7537
▁डिस्क	-7538
▁नावाच्या	-7539
्टन	-7540
▁जणू	-7541
▁आयटी	-7542
▁परमेश्वराची	-7543
डीओ	-7544
लाचे	-7545
▁मास्टर	-7546
▁समजावून	-7547
▁खालीलप्रमाणे	-7548
▁42	-7549
▁:)	-7550
▁दीड	-7551
▁काढा	-7552
▁अण्णा	-7553
▁प्रकरणात	-7554
परी	-7555
▁घोडा	-7556
▁धरून	-7557
ऱ्याने	-7558
▁म्हणे	-7559
▁पर्यायी	-7560
▁माणसांना	-7561
▁प्राध्यापक	-7562
कत	-7563
ेय	-7564
▁08	-7565
सेना	-7566
▁संय	-7567
ित्री	-7568
▁पाहु	-7569
▁टॉमने	-7570
▁ज्यांच्या	-7571
िर्म	-7572
▁तिथं	-7573
▁बरीच	-7574
▁विषा	-7575
▁तेव्ह	-7576
▁उल्लंघ	-7577
्वल	-7578
वाले	-7579
▁शौल	-7580
▁कमतर	-7581
▁नसता	-7582
▁साइन	-7583
स्बियन	-7584
परमेश्वर	-7585
▁केंद्रीय	-7586
▁विश्वसनीय	-7587
▁ऑस्ट्रेलिय	-7588
टिक	-7589
▁सॅ	-7590
चाली	-7591
साला	-7592
▁बुक	-7593
▁तिचं	-7594
▁क्लॅ	-7595
▁ठेवतात	-7596
ork	-7597
्यांत	-7598
▁खाल्ले	-7599
▁स्टोअर	-7600
दृष्ट्या	-7601
▁युक्रेन	-7602
▁ट्रेडिंग	-7603
▁सध्याच्या	-7604
ंके	-7605
▁he	-7606
योगी	-7607
▁बजाव	-7608
▁स्मृती	-7609
▁डीव्हीडी	-7610
▁इंट	-7611
▁अनुय	-7612
▁नसून	-7613
▁पेर	-7614
▁आयपी	-7615
▁विज्ञा	-7616
ild	-7617
iss	-7618
महा	-7619
पाची	-7620
▁नेवा	-7621
▁बिया	-7622
राष्ट्र	-7623
▁बघितले	-7624
▁मुलांचे	-7625
▁जुने	-7626
▁तरतू	-7627
▁सवलत	-7628
▁आवडले	-7629
▁वाचली	-7630
▁स्नान	-7631
▁संक्रम	-7632
ग्रा	-7633
वेळे	-7634
▁चॅट	-7635
▁जसा	-7636
▁राव	-7637
ल्याचा	-7638
▁साद	-7639
▁रिंग	-7640
▁झालाय	-7641
टीत	-7642
urren	-7643
ळणे	-7644
▁(15	-7645
अस	-7646
="4	-7647
▁भेद	-7648
निर्म	-7649
▁कितीतरी	-7650
▁महिन्यांत	-7651
▁am	-7652
वडील	-7653
▁मनी	-7654
▁वॉल	-7655
▁ट्रक	-7656
▁ठरणार	-7657
▁जवळच्या	-7658
▁तशीच	-7659
▁राजी	-7660
शान	-7661
डतोब	-7662
शाच्या	-7663
▁राहावे	-7664
भु	-7665
-10	-7666
ृश्य	-7667
जु	-7668
man	-7669
पाचे	-7670
याला	-7671
▁बटण	-7672
▁कृत्रिम	-7673
▁घ्यायचा	-7674
ूर्त	-7675
▁अशु	-7676
▁परता	-7677
िमे	-7678
▁उशि	-7679
io	-7680
ळले	-7681
कल्प	-7682
▁चिर	-7683
▁बेस	-7684
ायच्या	-7685
▁म्हणावे	-7686
माझे	-7687
▁तृतीय	-7688
▁बनवले	-7689
▁द्यायचे	-7690
▁गेल्यावर	-7691
दाब	-7692
▁लाट	-7693
▁संदेष्ट	-7694
हारी	-7695
▁दिनांक	-7696
▁विसरले	-7697
▁शिवसेना	-7698
▁पॅंटीहोस	-7699
▁खुले	-7700
▁डोळा	-7701
▁शंभर	-7702
▁सवाल	-7703
▁घातली	-7704
▁टेनिस	-7705
ateg	-7706
तावर	-7707
▁विप	-7708
▁सापडला	-7709
▁पीव्हीसी	-7710
▁कागदपत्रे	-7711
▁फाशी	-7712
▁प्रकट	-7713
▁देशांत	-7714
▁बांधले	-7715
▁’,	-7716
▁तीस	-7717
मार्क	-7718
चने	-7719
मुली	-7720
▁कॅश	-7721
▁आचार	-7722
्यांकडे	-7723
▁cl	-7724
▁अवघ्या	-7725
▁वर्षीय	-7726
▁हल्ल्या	-7727
▁निश्चितच	-7728
वज	-7729
▁खेळायला	-7730
▁अख	-7731
▁७०	-7732
गुरू	-7733
▁वळण	-7734
▁रहात	-7735
▁फारसे	-7736
▁गुंतवण	-7737
▁त्याच्याबरोबर	-7738
▁अॅड	-7739
ऱ्याचे	-7740
▁वाटला	-7741
▁कल्याण	-7742
स्तान	-7743
▁ब्राउ	-7744
▁बैठकीत	-7745
▁व्यक्तिगत	-7746
सेफ	-7747
▁tr	-7748
▁आमचं	-7749
▁दोनदा	-7750
,–	-7751
्यूम	-7752
▁विभागात	-7753
▁शिकायला	-7754
▁उद्दिष्ट	-7755
▁प्रेमाची	-7756
une	-7757
▁ग्रुप	-7758
▁असायला	-7759
▁पासवर्ड	-7760
▁Slot	-7761
▁मुलाखत	-7762
▁ग्रॅनड्	-7763
▁ताबडतोब	-7764
▁तेव्हाच	-7765
गडा	-7766
▁त्र	-7767
▁चिंत	-7768
▁अभिनेता	-7769
गट	-7770
▁34	-7771
▁शू	-7772
▁उदय	-7773
▁पडता	-7774
▁विशाल	-7775
▁किन	-7776
श्‍वर	-7777
▁रांग	-7778
▁साधे	-7779
▁समजते	-7780
▁समृद्ध	-7781
हेड	-7782
▁अस्थ	-7783
▁शकला	-7784
▁जुगार	-7785
▁इफेक्ट्स	-7786
▁इलेक्ट्रॉनिक	-7787
▁मधे	-7788
▁धान्य	-7789
▁चर्चेत	-7790
▁जाणाऱ्या	-7791
ण्य	-7792
▁चव	-7793
बोर्ड	-7794
स्पष्ट	-7795
▁सुनाव	-7796
▁महानगर	-7797
▁सीएनसी	-7798
द्रो	-7799
ग्राम	-7800
▁सारा	-7801
▁साला	-7802
▁उच्चार	-7803
▁निर्दोष	-7804
▁2000	-7805
▁जारी	-7806
▁भेटले	-7807
▁यात्रा	-7808
▁आनंदाने	-7809
▁iP	-7810
ांकित	-7811
्युले	-7812
▁चालक	-7813
▁शर्य	-7814
मेच्योर	-7815
▁एवढ्या	-7816
▁मदतीने	-7817
▁उद्योजक	-7818
(2	-7819
port	-7820
▁अस्	-7821
▁हसत	-7822
▁विपण	-7823
▁गोष्टीं	-7824
▁बाळासाहेब	-7825
TC	-7826
▁गाणं	-7827
▁भक्त	-7828
▁वाचू	-7829
▁नैतिक	-7830
▁अंतरावर	-7831
▁वाचता	-7832
▁निघाला	-7833
पुरव	-7834
▁एकतर	-7835
▁पडून	-7836
▁सज्ज	-7837
▁इजिप्त	-7838
▁क्रिस्ट	-7839
▁कोल्हापूर	-7840
▁गुड	-7841
▁तितका	-7842
वरण	-7843
▁ठाम	-7844
▁पदा	-7845
▁चळव	-7846
▁वेध	-7847
▁लाइन	-7848
नामुळे	-7849
▁हस्तांतर	-7850
▁ऑस्ट्रेलियन	-7851
व्हिड	-7852
▁डिझाईन	-7853
▁देणारे	-7854
▁सुवर्ण	-7855
ऱ्याच्या	-7856
...”	-7857
form	-7858
▁घटन	-7859
▁पाठलाग	-7860
▁स्तुती	-7861
▁सर्वांसाठी	-7862
फळ	-7863
अंत	-7864
साम	-7865
▁इस्राएलच्या	-7866
uct	-7867
ावले	-7868
▁नेमक	-7869
▁श्यामला	-7870
▁सुरुवाती	-7871
बहु	-7872
▁तरतूद	-7873
▁वर्तन	-7874
▁होतीस	-7875
▁था	-7876
पाने	-7877
माचे	-7878
पदार्थ	-7879
स्ट्री	-7880
▁म्हात	-7881
▁स्तरावर	-7882
चु	-7883
स्टेट	-7884
▁आवडत्या	-7885
▁मार्केट	-7886
▁कालावधीत	-7887
1,	-7888
▁ex	-7889
▁आजू	-7890
▁बनाव	-7891
:10	-7892
▁CO	-7893
र्वे	-7894
▁फेर	-7895
▁बना	-7896
▁नोकर	-7897
ryptoc	-7898
▁पात्रता	-7899
▁युद्धात	-7900
▁स्तन	-7901
2.	-7902
cl	-7903
▁नक्ष	-7904
आम्हाला	-7905
▁संपादक	-7906
▁75	-7907
▁दम	-7908
▁सिद्धांत	-7909
ryptocurren	-7910
पाला	-7911
वारा	-7912
▁आयुक्त	-7913
▁त्यातच	-7914
▁निवडणुका	-7915
११	-7916
▁07	-7917
▁शाई	-7918
▁नागरी	-7919
▁निवृत्ती	-7920
▁काटे	-7921
▁मिशन	-7922
▁मलाही	-7923
▁Casino	-7924
▁अद	-7925
बाह्य	-7926
ंबद्दल	-7927
▁आपणही	-7928
▁लोकांशी	-7929
pr	-7930
वानी	-7931
▁मनोरंजक	-7932
▁संविधान	-7933
▁आकडेवारी	-7934
▁पुनरावलोकने	-7935
ेटा	-7936
/-	-7937
▁लिही	-7938
ंपरिक	-7939
▁सभाग	-7940
▁पूर्वे	-7941
▁गुरुवारी	-7942
तान	-7943
▁फ़	-7944
▁अक्षय	-7945
▁गणपती	-7946
▁नसतील	-7947
बोल	-7948
▁बिग	-7949
ायण	-7950
िंग्स	-7951
▁दुबई	-7952
▁विधी	-7953
ठिकाणी	-7954
▁पावले	-7955
▁राहणे	-7956
anc	-7957
osit	-7958
▁अशोक	-7959
▁त्रि	-7960
▁दत्त	-7961
▁आग्रह	-7962
▁बिंदू	-7963
▁वर्षांचे	-7964
▁इथून	-7965
▁संरक्षित	-7966
▁मार्गदर्श	-7967
▁विक्रीसाठी	-7968
पक्	-7969
व्हल	-7970
्यूल	-7971
▁भिंत	-7972
▁गोल्ड	-7973
▁नावाची	-7974
▁प्रोजेक्ट	-7975
ेलि	-7976
▁बिन	-7977
चारिक	-7978
▁भरती	-7979
▁निष्ठ	-7980
प्ताह	-7981
▁असंच	-7982
▁बघता	-7983
नामध्ये	-7984
▁असल्याचं	-7985
▁अपयश	-7986
▁लंडन	-7987
▁हिवा	-7988
▁जेम्स	-7989
िण	-7990
ual	-7991
न्ड	-7992
▁कॉम्	-7993
ांविषयी	-7994
▁महिन्याच्या	-7995
▁याचं	-7996
निमित्	-7997
▁कड	-7998
▁इकडे	-7999
यी	-8000
▁अभिव	-8001
कले	-8002
देवी	-8003
▁कापड	-8004
▁मुळी	-8005
▁पुढचा	-8006
्यांकडून	-8007
▁न्यायालयात	-8008
▁04	-8009
▁असुर	-8010
▁इशारा	-8011
▁राहात	-8012
▁द्राक्ष	-8013
पीय	-8014
▁वेदी	-8015
▁शहरी	-8016
बरोबरच	-8017
▁विपणन	-8018
▁अंदाजे	-8019
ब्द	-8020
▁जबरद	-8021
▁वाढू	-8022
▁अतिरे	-8023
▁चाचण्या	-8024
4"&	-8025
:11	-8026
ापन	-8027
ून्य	-8028
▁Hol	-8029
▁त्यावरून	-8030
▁भाड्याने	-8031
▁चै	-8032
▁ऑडिओ	-8033
▁मैदा	-8034
▁संस्कार	-8035
एमएस	-8036
▁आढळून	-8037
▁कामावर	-8038
▁वाटतात	-8039
▁विद्यापीठा	-8040
▁प्रि	-8041
▁यादीत	-8042
mg	-8043
कास	-8044
ळाचा	-8045
▁एक्	-8046
▁सचिन	-8047
▁निषे	-8048
▁लॉटरी	-8049
▁मालिके	-8050
▁विक्रम	-8051
▁जगाच्या	-8052
देह	-8053
▁तस	-8054
कांत	-8055
▁मेड	-8056
▁सर्वसामान्य	-8057
▁रबर	-8058
▁कोंब	-8059
▁दोघी	-8060
▁वाहि	-8061
▁सुधारण्यासाठी	-8062
▁pl	-8063
▁उस	-8064
▁भटक	-8065
▁काळे	-8066
▁ठेवत	-8067
▁वॉटर	-8068
▁व्यवस्थापक	-8069
शीत	-8070
ोडा	-8071
ited	-8072
▁जुगाराचा	-8073
▁यापेक्षा	-8074
बस	-8075
ळवळ	-8076
स्म	-8077
▁37	-8078
▁जॉर्ज	-8079
कोळ	-8080
▁ट्विटर	-8081
▁ऋतू	-8082
▁करावं	-8083
▁खर्चा	-8084
▁प्यायला	-8085
▁नसलेल्या	-8086
▁व्यवस्थापित	-8087
:13	-8088
▁लिखाण	-8089
▁संसार	-8090
▁वृत्ती	-8091
▁सल्लागार	-8092
▁ढकल	-8093
▁मनाला	-8094
▁मराठीत	-8095
▁रडत	-8096
▁प्रतिनिध	-8097
▁तुझ्याकडे	-8098
▁पाकिस्तानी	-8099
विष्ट	-8100
▁आईने	-8101
▁युती	-8102
▁शकाल	-8103
ोसॉफ्ट	-8104
▁ध्वनी	-8105
वितो	-8106
ंधरा	-8107
▁ओळखतो	-8108
▁तेवढे	-8109
▁संलग्न	-8110
ंट्स	-8111
ments	-8112
▁जाळी	-8113
प्राप्ती	-8114
▁शांतपणे	-8115
▁रेट	-8116
▁विना	-8117
▁याविषयी	-8118
-19	-8119
obile	-8120
▁कृष्	-8121
▁देणारा	-8122
▁निकाला	-8123
▁विश्वच	-8124
ge	-8125
शो	-8126
न्सर	-8127
▁सायं	-8128
▁जाणवत	-8129
▁ठरू	-8130
▁लेवी	-8131
▁व्हॅ	-8132
संख्या	-8133
▁मेक्सिक	-8134
▁लक्षणीय	-8135
ys	-8136
नील	-8137
शैली	-8138
▁इंजि	-8139
▁प्रभा	-8140
▁कोणाच्या	-8141
▁मनापासून	-8142
ors	-8143
फिक	-8144
▁होणारी	-8145
▁आपल्याच	-8146
▁गोष्टींची	-8147
▁न्यायालयाने	-8148
oad	-8149
ोने	-8150
ॅटिन	-8151
▁कंट	-8152
▁खबर	-8153
▁ऐवजी	-8154
▁वक्त	-8155
▁क्लाय	-8156
▁चाळीस	-8157
▁वाढला	-8158
▁जणांना	-8159
▁डेटिंगचा	-8160
ध्वनी	-8161
▁निघालो	-8162
-6	-8163
▁बोली	-8164
▁सारखा	-8165
▁लष्करी	-8166
▁तेंव्हा	-8167
▁कुलक	-8168
▁तथ्य	-8169
विण्याची	-8170
:14	-8171
▁(19	-8172
ंकन	-8173
▁Sc	-8174
▁अॅप	-8175
नात्मक	-8176
▁चाहते	-8177
▁बदलाय	-8178
▁वापरतो	-8179
▁बाबासाहेब	-8180
:15	-8181
ंजन	-8182
▁दाद	-8183
▁स्त	-8184
▁वर्गी	-8185
▁सामोरे	-8186
▁शहराच्या	-8187
▁युनिव्हर्स	-8188
जली	-8189
over	-8190
लाइन	-8191
▁तेवढी	-8192
▁प्रथमच	-8193
▁विचारतो	-8194
▁त्याच्यासाठी	-8195
पणाने	-8196
▁ओल्ड	-8197
▁कायद	-8198
तुमच्या	-8199
▁गेलेले	-8200
▁विद्यार्थ्यांनी	-8201
ावली	-8202
▁400	-8203
▁२०१४	-8204
▁द्वेष	-8205
▁मानला	-8206
.’	-8207
▁अरु	-8208
▁चेहरे	-8209
▁लक्षण	-8210
ण्यातील	-8211
▁भारताची	-8212
पाठ	-8213
▁युग	-8214
लांना	-8215
▁वाचतो	-8216
▁अमेरिकी	-8217
▁सगळ्यांनी	-8218
:16	-8219
▁अय	-8220
▁उभय	-8221
वायचं	-8222
विश्व	-8223
जून	-8224
▁कळते	-8225
▁प्रिंटर	-8226
▁भक्ती	-8227
▁परीक्षण	-8228
नियन	-8229
▁जवान	-8230
▁इच्छुक	-8231
▁अमेरिकेचे	-8232
▁घातले	-8233
▁इच्छितो	-8234
The	-8235
मुखी	-8236
▁रहि	-8237
▁कर्नाटक	-8238
▁अनेकांनी	-8239
िमा	-8240
▁शल	-8241
▁नफा	-8242
▁गाडीत	-8243
▁दहशतवाद	-8244
▁मागितली	-8245
▁व्यतिरिक्त	-8246
▁=&	-8247
▁कारणी	-8248
▁प्रीमियम	-8249
ww	-8250
गुण	-8251
प्पट	-8252
▁सभासद	-8253
मराठी	-8254
साधने	-8255
खीम	-8256
सला	-8257
वर्धन	-8258
▁आगमन	-8259
▁सावधान	-8260
फाय	-8261
▁ऑन	-8262
▁Wind	-8263
▁मॅन्यु	-8264
▁डॉक्‍टर	-8265
लेय	-8266
िवस	-8267
▁४५	-8268
="1.	-8269
▁स्वार	-8270
▁विजेते	-8271
तीच	-8272
्रीम	-8273
▁वाळू	-8274
▁चव्हा	-8275
UG	-8276
:12	-8277
चेच	-8278
मानी	-8279
ात्मा	-8280
▁कुकीज	-8281
▁टॅग्ज	-8282
▁विकले	-8283
▁वेबसाइटवर	-8284
भाष	-8285
▁क्व	-8286
▁अडथळा	-8287
▁अद्यय	-8288
पाप	-8289
भोग	-8290
पीएस	-8291
▁बंड	-8292
हिता	-8293
▁लघु	-8294
▁दस्तऐ	-8295
▁पुरात	-8296
▁तक्रारी	-8297
▁नसल्यास	-8298
▁अमेरिकेला	-8299
MS	-8300
१२	-8301
▁पडेल	-8302
▁व्हे	-8303
▁कारकि	-8304
▁प्रकल्	-8305
▁क्रियाकला	-8306
ives	-8307
▁गडद	-8308
▁पेश	-8309
▁विक्र	-8310
▁चळवळ	-8311
▁मोकळे	-8312
▁सक्ती	-8313
▁नाश्ता	-8314
▁कुलकर्णी	-8315
▁घडलं	-8316
▁खोल्या	-8317
▁उत्सुकता	-8318
वाडा	-8319
▁फटका	-8320
▁वाळव	-8321
त्याला	-8322
▁नेमका	-8323
▁ग्रंथा	-8324
▁याव्यतिरिक्त	-8325
▁मॅक	-8326
▁कारा	-8327
▁फुले	-8328
ल्याची	-8329
Comment	-8330
▁डॉक्टरांनी	-8331
IC	-8332
▁उपा	-8333
GH	-8334
▁रम	-8335
▁सभे	-8336
▁तारण	-8337
▁शिका	-8338
डब्ल्यू	-8339
▁पुनरावृत्ती	-8340
me	-8341
्ले	-8342
▁मारहाण	-8343
▁उल्लंघन	-8344
air	-8345
▁गॉ	-8346
सीसी	-8347
▁विण	-8348
▁धारण	-8349
▁रसाय	-8350
▁वारा	-8351
▁साथी	-8352
नेच्या	-8353
rat	-8354
चेही	-8355
▁साल	-8356
▁खेळी	-8357
▁कृतज्ञता	-8358
OR	-8359
ंका	-8360
ोबा	-8361
▁कारकी	-8362
▁येण्या	-8363
:-	-8364
स्थापक	-8365
▁लोकांमध्ये	-8366
कडं	-8367
▁टॅब	-8368
▁निश्च	-8369
▁पारंपरिक	-8370
▁स्मार्टफोन	-8371
="3.	-8372
▁जेल	-8373
▁संबोध	-8374
▁येशूला	-8375
▁वर्षभर	-8376
▁Win	-8377
▁गिर	-8378
▁वाळ	-8379
▁आठवते	-8380
▁ओलांड	-8381
हली	-8382
ितो	-8383
्वळ	-8384
▁सश	-8385
▁आचरण	-8386
▁दैनंद	-8387
▁विनोद	-8388
▁जागेवर	-8389
▁पोर्तु	-8390
▁भागीदारी	-8391
▁मायक्रोसॉफ्ट	-8392
▁शोक	-8393
शीच	-8394
▁जाल	-8395
▁कमाव	-8396
▁नमूद	-8397
▁सुनावणी	-8398
▁वर्षानंतर	-8399
▁गणना	-8400
▁ज्यो	-8401
▁बदलणार	-8402
▁प्रशासकीय	-8403
हरू	-8404
ारास	-8405
▁येणारा	-8406
▁विलक्षण	-8407
▁आमच्यावर	-8408
▁फायदेशीर	-8409
www	-8410
▁रिक्त	-8411
▁पलीकडे	-8412
खड	-8413
रेश	-8414
▁गळ	-8415
जिंग	-8416
▁मतभेद	-8417
▁उजव्या	-8418
टोन	-8419
▁चालला	-8420
▁ठेवता	-8421
ya	-8422
▁अवै	-8423
▁this	-8424
▁ब्लॉक	-8425
▁गोळ्या	-8426
▁कंपनीचे	-8427
ings	-8428
▁उशी	-8429
फ्रेंड	-8430
▁कोर्ट	-8431
▁येतोय	-8432
▁कारणीभूत	-8433
▁क्रियाकलाप	-8434
▁राक्ष	-8435
:6	-8436
▁sm	-8437
▁हिम्मत	-8438
▁अद्ययावत	-8439
जोब	-8440
बेल	-8441
▁बनली	-8442
▁पारदर्शक	-8443
कथा	-8444
▁खत	-8445
▁उडी	-8446
▁याज	-8447
ष्कार	-8448
▁आठवले	-8449
▁जोखीम	-8450
▁काहींना	-8451
▁असण्याची	-8452
▁मार्गावर	-8453
▁गुंता	-8454
▁निषेध	-8455
▁पाठवू	-8456
:18	-8457
▁नाट्य	-8458
▁मजेदार	-8459
▁त्याहून	-8460
▁निवृत्त	-8461
▁सर्वप्रथम	-8462
(1	-8463
▁छळ	-8464
▁नमुने	-8465
▁इंग्लिश	-8466
App	-8467
उदा	-8468
वर्ग	-8469
▁माघ	-8470
▁घेईल	-8471
▁तिसरी	-8472
क्षिप्त	-8473
▁आपत्ती	-8474
▁दुचाकी	-8475
▁विषाणू	-8476
▁त्यातूनच	-8477
we	-8478
▁टू	-8479
▁काला	-8480
▁तोही	-8481
▁निकष	-8482
रात्री	-8483
▁घेताना	-8484
▁वेगवान	-8485
▁तुम्हां	-8486
वावर	-8487
chain	-8488
▁वर्च	-8489
▁किमती	-8490
▁आजूबाजू	-8491
▁सही	-8492
▁आगामी	-8493
▁आईच्या	-8494
▁कमतरता	-8495
▁जिंकली	-8496
▁कुटुंबातील	-8497
▁लोग	-8498
▁पुरेशी	-8499
▁वडिलांना	-8500
1"	-8501
▁तै	-8502
सभेत	-8503
▁थीम	-8504
ौकिया	-8505
▁देताना	-8506
पत्	-8507
▁टच	-8508
पाचा	-8509
umb	-8510
▁02	-8511
▁बसत	-8512
▁२०११	-8513
▁टाकून	-8514
▁भाषांतर	-8515
▁राहण्याची	-8516
▁रात्रीच्या	-8517
माज	-8518
▁रवी	-8519
▁स्टॅ	-8520
▁ठरविले	-8521
▁दिवसातून	-8522
हशा	-8523
▁39	-8524
▁ठळक	-8525
▁अभाव	-8526
▁आतील	-8527
▁टर्म	-8528
्यामध्ये	-8529
▁माणसाच्या	-8530
्वा	-8531
▁01	-8532
▁मातृ	-8533
▁असणारे	-8534
▁म्हणाल	-8535
▁संबंधी	-8536
धित	-8537
▁एनल	-8538
▁स्टेप	-8539
▁परिवहन	-8540
▁निवडणुक	-8541
▁समुद्रात	-8542
चल	-8543
पौ	-8544
दात	-8545
ताचे	-8546
मेशन	-8547
▁मेन	-8548
▁जाधव	-8549
▁बनवू	-8550
गारी	-8551
▁पलि	-8552
▁बळक	-8553
▁भले	-8554
▁एचडी	-8555
▁येईन	-8556
▁रिपोर्ट	-8557
▁देणाऱ्या	-8558
▁दड	-8559
द्री	-8560
ताहेत	-8561
▁अपार	-8562
▁गेलं	-8563
▁सोडली	-8564
▁येणारे	-8565
▁किल्ल्या	-8566
▁निश्चितपणे	-8567
▁प्रतिनिधित्व	-8568
▁चिकट	-8569
▁ट्रम्प	-8570
१८	-8571
कर्ता	-8572
▁हत्ती	-8573
णाऱ्यांना	-8574
्यव	-8575
▁हवंय	-8576
▁फोनवर	-8577
▁निव्वळ	-8578
af	-8579
▁३५	-8580
▁मले	-8581
▁मौल	-8582
▁येई	-8583
▁तिच्याशी	-8584
एशन	-8585
िक्स	-8586
▁संजय	-8587
▁तरुणी	-8588
▁पत्रक	-8589
rain	-8590
टेबल	-8591
▁दखल	-8592
▁लोह	-8593
▁प्लग	-8594
▁वाचला	-8595
▁यावर्षी	-8596
▁आयुष्यातील	-8597
▁चतु	-8598
्यवान	-8599
▁इतकं	-8600
पुरवठा	-8601
▁क्लायंट	-8602
▁डेव्हिड	-8603
▁उशिरा	-8604
▁कर्जा	-8605
▁इच्छिता	-8606
▁एकमेकां	-8607
▁शुक्रवार	-8608
arm	-8609
▁खाण	-8610
▁सवयी	-8611
▁सारी	-8612
▁सोला	-8613
▁वाटचाल	-8614
िने	-8615
▁फर्	-8616
▁बसलो	-8617
▁आक्रमण	-8618
▁जंगलात	-8619
▁तितक्या	-8620
▁घेतलेल्या	-8621
▁03	-8622
▁धरण	-8623
▁पिन	-8624
ंडेशन	-8625
▁मानस	-8626
▁लाइट	-8627
▁उपकार	-8628
▁दशकात	-8629
▁एमेच्योर	-8630
▁आगी	-8631
▁ओळखला	-8632
▁घातला	-8633
विण्याचा	-8634
▁IS	-8635
▁सेंटर	-8636
▁चव्हाण	-8637
▁बुद्धिमान	-8638
ool	-8639
रुप	-8640
वाब	-8641
▁सचिव	-8642
▁दुर्घट	-8643
-9	-8644
पॉ	-8645
िंद	-8646
▁वारसा	-8647
विरोधात	-8648
8.	-8649
्यूट	-8650
▁टीप	-8651
▁धमक	-8652
▁नवीनतम	-8653
ockchain	-8654
▁वाढत्या	-8655
सेन	-8656
भूती	-8657
▁इंद	-8658
▁खडक	-8659
▁मद्य	-8660
▁किरकोळ	-8661
▁कुणीही	-8662
टॉप	-8663
ताची	-8664
नवीन	-8665
▁करताय	-8666
▁सोडणार	-8667
ांद्वारे	-8668
▁फायद्या	-8669
▁व्यवसायात	-8670
▁कळे	-8671
▁रॉक	-8672
▁years	-8673
▁दिवसाची	-8674
▁त्यांनाही	-8675
▁संध्याकाळ	-8676
TM	-8677
बेस	-8678
▁ac	-8679
▁झालंय	-8680
▁ठिकाणे	-8681
कमी	-8682
▁मेक	-8683
▁प्रत्येकी	-8684
▁अजित	-8685
▁थांबा	-8686
▁वापरुन	-8687
▁कारणास्तव	-8688
▁व्यक्तीच्या	-8689
der	-8690
FPUG	-8691
▁आवा	-8692
सोबतच	-8693
▁नायक	-8694
▁भाडे	-8695
▁उचलाल	-8696
▁अखेरीस	-8697
▁संपला	-8698
▁वित्तीय	-8699
▁टप्प्यात	-8700
▁समाजातील	-8701
aceb	-8702
▁घेतलं	-8703
▁रंगीत	-8704
▁अहवाला	-8705
▁आश्वासन	-8706
▁भागातील	-8707
▁आयुष्यभर	-8708
▁व्यवस्थे	-8709
▁तिच्याकडे	-8710
▁मनुष्याला	-8711
ale	-8712
वेज	-8713
▁that	-8714
▁म्हणुन	-8715
▁सावरकर	-8716
▁प्रशंसा	-8717
डियन	-8718
वस्त	-8719
▁जगत	-8720
▁Inst	-8721
मधल्या	-8722
स्थानी	-8723
▁रीतीने	-8724
▁डॉक्टरांना	-8725
yp	-8726
िशन	-8727
माफी	-8728
सुंदर	-8729
▁नुसार	-8730
▁शास्त्रीय	-8731
ोटे	-8732
्यम	-8733
▁ढग	-8734
▁रेखा	-8735
CC	-8736
UM	-8737
ane	-8738
▁फॅब	-8739
▁एजंट	-8740
▁सोडा	-8741
▁चालली	-8742
▁देतील	-8743
▁सुगंध	-8744
मकु	-8745
▁बॅंग	-8746
▁भेटू	-8747
▁खेळला	-8748
▁पिशवी	-8749
▁ख्रिसमस	-8750
/0	-8751
अभ	-8752
7"&	-8753
निरा	-8754
मोंम	-8755
्विक	-8756
▁बोध	-8757
▁टाकी	-8758
▁दिवसांपासून	-8759
निमय	-8760
▁चांद	-8761
▁हार्मोन	-8762
▁सफर	-8763
▁खुर्	-8764
▁घातक	-8765
च्छे	-8766
▁टिट	-8767
▁ऐकली	-8768
▁सलमान	-8769
▁शेजारी	-8770
शब्द	-8771
▁लोन	-8772
▁तांब	-8773
▁Whats	-8774
▁अयोग्य	-8775
▁कंपनीत	-8776
:20	-8777
▁समर्पित	-8778
ym	-8779
हरी	-8780
▁us	-8781
▁ज्याची	-8782
▁लोट्टो	-8783
▁अरेबियन	-8784
▁दस्तऐवज	-8785
▁निमित्ताने	-8786
▁राहण्यासाठी	-8787
्यास	-8788
▁लिं	-8789
▁सुम	-8790
पुस्त	-8791
▁वाळवंट	-8792
▁जोपर्यंत	-8793
िमंड	-8794
▁टाळा	-8795
▁माता	-8796
▁मोठं	-8797
▁येथेच	-8798
▁असुरक्षित	-8799
िटे	-8800
▁पडते	-8801
▁विकली	-8802
▁त्यातले	-8803
olut	-8804
ठ्या	-8805
▁120	-8806
▁बसू	-8807
▁अपयशी	-8808
तीची	-8809
▁post	-8810
ंग्रेस	-8811
मिळ	-8812
स्टन	-8813
▁वाढेल	-8814
▁संपली	-8815
▁होण्या	-8816
▁दैनंदिन	-8817
▁वर्षाची	-8818
▁मिळवण्यासाठी	-8819
3.	-8820
▁केर	-8821
▁गार	-8822
▁अग्नी	-8823
▁टाकली	-8824
▁उपग्रह	-8825
▁भाजपला	-8826
नेचा	-8827
▁तुळ	-8828
▁पेंट	-8829
▁वेळो	-8830
▁मिळाल्या	-8831
▁राहणाऱ्या	-8832
EN	-8833
एएस	-8834
िवूड	-8835
▁बूट	-8836
▁मैदान	-8837
▁वस्ती	-8838
मध्येही	-8839
▁आजपासून	-8840
att	-8841
ode	-8842
▁सख	-8843
ष्कर	-8844
▁अपरि	-8845
▁संपु	-8846
तेसाठी	-8847
▁दैनिक	-8848
लांच्या	-8849
▁दाखवले	-8850
▁देखरेख	-8851
▁आईवडिलां	-8852
अधिक	-8853
करीता	-8854
तातील	-8855
▁आजचे	-8856
▁तर्क	-8857
▁सागर	-8858
▁साधक	-8859
▁आक्रमक	-8860
▁संग्रहा	-8861
ज़	-8862
पाइ	-8863
▁सोसाय	-8864
▁अवस्थेत	-8865
▁मिळालेली	-8866
▁जनरल	-8867
▁करणाऱ	-8868
▁आमंत्रण	-8869
▁कुटुंबिय	-8870
▁तुमच्यात	-8871
▁प्रमाणित	-8872
टेट	-8873
नान	-8874
▁et	-8875
▁कामाचा	-8876
▁प्रविष्ट	-8877
▁ड्रायव्हर	-8878
ंही	-8879
चीही	-8880
▁मुळ	-8881
riend	-8882
▁अवैध	-8883
▁आरामद	-8884
▁पकडून	-8885
▁अनुभवी	-8886
▁बॅंगिंग	-8887
▁लोकांवर	-8888
▁Be	-8889
अर्थ	-8890
बर्ग	-8891
▁(18	-8892
▁हाऊस	-8893
▁सांगली	-8894
▁गुणवत्ते	-8895
▁मदतीसाठी	-8896
▁सातत्याने	-8897
els	-8898
अमे	-8899
नेवाला	-8900
▁पाहणे	-8901
▁मिळणे	-8902
▁रेस्ट	-8903
1"&	-8904
पुन	-8905
▁गेट	-8906
▁विद्यमान	-8907
▁पाण्याच्या	-8908
gl	-8909
गीय	-8910
पदी	-8911
टुंब	-8912
▁Cont	-8913
▁पाठव	-8914
सत्ताक	-8915
▁भरपाई	-8916
▁अब्राहा	-8917
ET	-8918
▁ऑल	-8919
▁गू	-8920
▁वंशज	-8921
ॅड	-8922
फ्र	-8923
▁रूम	-8924
acebook	-8925
▁जाणारी	-8926
▁लिहितो	-8927
▁चांगलाच	-8928
▁हालचाली	-8929
▁(1)	-8930
▁करण	-8931
▁घसर	-8932
▁Windows	-8933
▁मुलांचा	-8934
▁as	-8935
abol	-8936
साधन	-8937
ॅटिक	-8938
▁Act	-8939
▁मेळ	-8940
▁नोटा	-8941
▁राशी	-8942
▁करतेय	-8943
▁झाकून	-8944
▁पुढाकार	-8945
▁गंभीरपणे	-8946
▁गेलेल्या	-8947
▁मौल्यवान	-8948
▁मिळालेल्या	-8949
▁con	-8950
▁विस	-8951
▁अब्ज	-8952
▁पैकी	-8953
▁मधून	-8954
▁शिकव	-8955
▁बोलली	-8956
▁वेगवेगळी	-8957
ंबरोबर	-8958
चार्‍य	-8959
▁काढण्यात	-8960
-12	-8961
ओबी	-8962
▁ww	-8963
श्‍च	-8964
▁ठोक	-8965
नीकरण	-8966
▁घाऊक	-8967
▁पुनरु	-8968
▁सांगणे	-8969
▁कारकिर्दी	-8970
ho	-8971
▁भट	-8972
माझी	-8973
▁विकार	-8974
शिव	-8975
▁cont	-8976
▁वेळोवेळी	-8977
▁www	-8978
▁तात	-8979
▁टप्पा	-8980
▁जपानीस	-8981
▁गुंतवणूकदार	-8982
▁परमेश्वराचे	-8983
नाशी	-8984
मागचे	-8985
▁धावत	-8986
▁मेट्रो	-8987
uk	-8988
▁मृ	-8989
ापूर	-8990
▁पुर्ण	-8991
▁काढण्यासाठी	-8992
▁किरण	-8993
▁अपराध	-8994
▁तिथल्या	-8995
▁सर्वांची	-8996
मॅ	-8997
▁सद्	-8998
▁सर्क	-8999
स्वामी	-9000
▁बोलून	-9001
PS	-9002
ll	-9003
धु	-9004
▁२८	-9005
▁नाच	-9006
▁रत्	-9007
▁शब्दांत	-9008
▁वास्तव्य	-9009
क्षर	-9010
▁Aut	-9011
▁Top	-9012
▁जगू	-9013
▁होतोय	-9014
▁अद्यतनित	-9015
▁नसल्याचे	-9016
rop	-9017
दीप	-9018
झ्या	-9019
▁असेन	-9020
▁दोघांना	-9021
▁मुलाच्या	-9022
xx	-9023
ित्झ	-9024
▁शाश्	-9025
ich	-9026
बाजी	-9027
माझा	-9028
▁एम्	-9029
▁चिड	-9030
▁IFPUG	-9031
▁समलिंगी	-9032
▁सरकारची	-9033
rad	-9034
अर्स	-9035
लेंडर	-9036
▁यज्ञ	-9037
▁सापडली	-9038
टीस	-9039
भाऊ	-9040
स्पे	-9041
▁अंत्य	-9042
▁मधुमे	-9043
▁देणारी	-9044
डॉ	-9045
15)	-9046
ign	-9047
ावेत	-9048
▁एखादे	-9049
▁स्पेन	-9050
▁स्फोट	-9051
▁पुरावे	-9052
▁कॉपीराइट	-9053
als	-9054
▁ठरत	-9055
टीच्या	-9056
▁शोधात	-9057
▁महामंड	-9058
▁प्रसन्न	-9059
▁मैत्रिणी	-9060
▁व्यासपीठ	-9061
▁प्रसिद्धी	-9062
▁दुर्दैवाने	-9063
▁प्रत्येकाने	-9064
▁बनवण्यासाठी	-9065
▁पिऊ	-9066
▁नयेत	-9067
▁मदतीची	-9068
▁जाडी	-9069
चंद	-9070
संप	-9071
▁(13	-9072
▁केक	-9073
▁धीर	-9074
▁जवळचे	-9075
▁फ्लॅश	-9076
▁वगळता	-9077
▁गुलाबी	-9078
▁cryptocurren	-9079
३०	-9080
▁Man	-9081
▁गाढ	-9082
▁मसा	-9083
▁फ्ला	-9084
▁इच्छे	-9085
▁काढता	-9086
▁विचारतात	-9087
▁वातावरणात	-9088
IV	-9089
3"&	-9090
ळला	-9091
▁२०१०	-9092
▁२०१६	-9093
▁पायलट	-9094
▁मागण्या	-9095
एक्सएनयूएमएक्स	-9096
ारीत	-9097
▁वाव	-9098
58	-9099
▁Day	-9100
▁गुगल	-9101
▁दाखवतो	-9102
▁दाखवली	-9103
क्से	-9104
▁फुक	-9105
हाच्या	-9106
▁आभासी	-9107
▁पाहात	-9108
▁शतकात	-9109
▁कामाचे	-9110
▁शिकवले	-9111
▁संभाषण	-9112
▁राहायला	-9113
▁पालकांना	-9114
झो	-9115
▁घुस	-9116
▁दास	-9117
▁तेरा	-9118
▁म्यु	-9119
▁जागृत	-9120
▁डोक्यावर	-9121
▁करणार्‍या	-9122
▁चेहऱ्यावर	-9123
ग्ध	-9124
reat	-9125
▁विधेय	-9126
▁ज्याचे	-9127
प्रसिद्ध	-9128
बाळ	-9129
दुखी	-9130
▁एकूणच	-9131
▁ठराविक	-9132
▁संपादन	-9133
▁डोळ्यात	-9134
▁बुधवारी	-9135
▁रात्रभर	-9136
,:	-9137
▁ठाणे	-9138
▁दुवे	-9139
ण्याने	-9140
▁टाकला	-9141
▁भावनिक	-9142
▁स्वप्ने	-9143
▁कॉंग्रेस	-9144
(12	-9145
▁4)	-9146
▁कळा	-9147
▁फंड	-9148
बाबतीत	-9149
▁कोहली	-9150
▁आकाशात	-9151
▁भांडवल	-9152
▁नातेवाईक	-9153
▁कारणांमुळे	-9154
▁तिच्यासाठी	-9155
हात	-9156
▁कॅलि	-9157
▁वळून	-9158
▁दिवसांच्या	-9159
▁पृथ्वीवरील	-9160
ips	-9161
हीम	-9162
▁Che	-9163
▁चालना	-9164
▁बनावट	-9165
▁सुविध	-9166
काळा	-9167
▁आकडा	-9168
▁जागर	-9169
▁ब्रिटन	-9170
▁युनियन	-9171
▁तुमच्याशी	-9172
ime	-9173
▁शॉट	-9174
▁विहि	-9175
▁रुंदी	-9176
▁बांगलादेशी	-9177
:30	-9178
प्राय	-9179
▁बेस्ट	-9180
▁विंडो	-9181
▁चंद्रावर	-9182
▁सोयीस्कर	-9183
▁निर्धारित	-9184
:17	-9185
▁App	-9186
▁पिंप	-9187
▁दुप्पट	-9188
▁गुंतागु	-9189
▁त्याकडे	-9190
▁महत्वाच्या	-9191
▁Br	-9192
▁Mar	-9193
▁अहो	-9194
▁टिका	-9195
▁निवडू	-9196
▁नावावर	-9197
▁तुरुंगात	-9198
ft	-9199
▁घु	-9200
▁सील	-9201
▁Free	-9202
▁त्यालाही	-9203
न्ही	-9204
▁निग	-9205
▁फूल	-9206
▁बनवा	-9207
▁मजला	-9208
▁तिरस्कार	-9209
▁प्रत्येकाच्या	-9210
▁Air	-9211
▁पॅड	-9212
▁हेड	-9213
▁चळवळी	-9214
▁खात्यात	-9215
सक	-9216
org	-9217
ताचा	-9218
▁दीप	-9219
▁कबूल	-9220
▁आव्हा	-9221
▁3,	-9222
▁दल	-9223
▁थंडी	-9224
▁वागण	-9225
▁साधी	-9226
▁क्लासिक	-9227
लेन	-9228
िजन	-9229
ound	-9230
▁शंकर	-9231
▁कापूस	-9232
▁संघटन	-9233
▁जाणारा	-9234
बीआय	-9235
▁Pol	-9236
▁लागे	-9237
▁अवश्य	-9238
▁काळ्या	-9239
थेन	-9240
▁पिं	-9241
▁बुर	-9242
▁सिंगापूर	-9243
▁हायड्रोलिक	-9244
▁65	-9245
माही	-9246
▁तलाव	-9247
▁भ्रम	-9248
▁सरदार	-9249
▁यावरून	-9250
bl	-9251
:19	-9252
cri	-9253
▁आसन	-9254
▁ह्र	-9255
amster	-9256
▁तेथेच	-9257
▁स्वतःवर	-9258
▁सुरवातीला	-9259
▁वापरण्यासाठी	-9260
तुल	-9261
भरा	-9262
लील	-9263
वर्ती	-9264
▁आक्र	-9265
▁पायऱ्या	-9266
▁विवाहित	-9267
ित्झर्लंड	-9268
ism	-9269
लीचा	-9270
संग्र	-9271
▁संचय	-9272
▁कार्यशाळा	-9273
धि	-9274
▁अरब	-9275
▁कुशल	-9276
▁अंगावर	-9277
2"	-9278
AL	-9279
सीय	-9280
िटार	-9281
▁Res	-9282
▁घडू	-9283
▁देवता	-9284
▁जाण्यास	-9285
:4	-9286
EC	-9287
ove	-9288
▁Gu	-9289
Porn	-9290
▁हसू	-9291
▁साधू	-9292
सारखेच	-9293
▁फायली	-9294
्यूनंतर	-9295
▁राजाने	-9296
▁ह्याचा	-9297
▁चित्रकार	-9298
▁३१	-9299
-200	-9300
▁आणखीन	-9301
▁कंट्रोल	-9302
▁मॅन्युअल	-9303
▁काळजीपूर्वक	-9304
फाई	-9305
शेल	-9306
▁आळ	-9307
पश्च	-9308
पाणी	-9309
मध्येच	-9310
रेंद्र	-9311
▁अलीकडे	-9312
▁कार्ये	-9313
▁कोणालाच	-9314
▁पृथ्वीच्या	-9315
लामी	-9316
▁टोय	-9317
▁यहूदा	-9318
निर्माण	-9319
▁घरातून	-9320
▁स्टेपमोंम	-9321
▁your	-9322
कुल	-9323
▁पेन	-9324
▁ठेवते	-9325
एवढ	-9326
हरण	-9327
▁रिच	-9328
▁दलित	-9329
▁अवमान	-9330
▁लाकडी	-9331
▁त्याबाबत	-9332
दिक	-9333
ॉईड	-9334
▁चालव	-9335
▁पंचा	-9336
▁लेडी	-9337
▁परंतू	-9338
▁वेळात	-9339
▁संरचना	-9340
संदर्भात	-9341
▁ऐक्रेलिक	-9342
▁सर्वांचा	-9343
कडो	-9344
पंच	-9345
▁Fl	-9346
▁विसरलो	-9347
▁केल्यावर	-9348
▁यांच्यात	-9349
ँगबॉ	-9350
▁डिझ	-9351
नुष्य	-9352
ांसोबत	-9353
▁दुसरं	-9354
▁निवडी	-9355
RO	-9356
▁ठेवी	-9357
▁कारभार	-9358
▁गर्भात	-9359
▁बाट	-9360
▁घेईन	-9361
▁प्लॅन	-9362
▁वेगळीच	-9363
▁AP	-9364
पक्ष	-9365
▁टोपी	-9366
▁शहाण	-9367
्रिक्स	-9368
▁गिटार	-9369
▁ग्रीन	-9370
▁मुद्रण	-9371
▁कर्जमाफी	-9372
▁स्थानावर	-9373
oz	-9374
gen	-9375
डीच	-9376
▁ऑप्ट	-9377
▁निबंध	-9378
क्तिमान	-9379
▁विनिमय	-9380
▁गावातील	-9381
▁मृत्यूनंतर	-9382
लाइ	-9383
लांची	-9384
▁२००९	-9385
मार्फत	-9386
▁यांच्याशी	-9387
▁Ab	-9388
="4.	-9389
नायक	-9390
▁रक्	-9391
ideos	-9392
▁ट्रान्स	-9393
ंकर	-9394
करणा	-9395
▁2005	-9396
▁Hack	-9397
▁झोपे	-9398
▁रोलर	-9399
▁म्हणतील	-9400
▁कर्मचार्‍य	-9401
AC	-9402
mat	-9403
▁मऊ	-9404
itle	-9405
चकित	-9406
जीवन	-9407
मिशन	-9408
▁काउ	-9409
▁लाक	-9410
यांना	-9411
▁मनसे	-9412
▁ओळखता	-9413
▁निँगबॉ	-9414
▁श्रीकृ	-9415
▁वर्षापूर्वी	-9416
पळ	-9417
१५	-9418
ari	-9419
▁09	-9420
घरात	-9421
▁800	-9422
▁अले	-9423
ating	-9424
▁नोंदणीकृत	-9425
▁महापालिके	-9426
:8	-9427
जप	-9428
.99	-9429
हीन	-9430
पत्नी	-9431
विरोधी	-9432
▁उपदेश	-9433
▁घडणार	-9434
▁भाकरी	-9435
▁रेस्टॉर	-9436
टात	-9437
▁अपु	-9438
▁अरेरे	-9439
▁फॅब्रिक	-9440
▁त्याविषयी	-9441
▁साम्राज्य	-9442
▁वाढविण्यासाठी	-9443
▁7.	-9444
▁नरक	-9445
▁ग्लो	-9446
▁चौरस	-9447
▁बॅंक	-9448
▁असतानाच	-9449
प्रतिनिधी	-9450
▁स्वित्झर्लंड	-9451
yst	-9452
कंच	-9453
मिता	-9454
▁नशी	-9455
लांचा	-9456
▁लोगो	-9457
▁सहाय्यक	-9458
षि	-9459
▁कव	-9460
▁ओपन	-9461
धिकार	-9462
▁देण्या	-9463
▁मिळवली	-9464
▁लहानपणी	-9465
▁आपापल्या	-9466
▁करणार्या	-9467
▁मिनिटांत	-9468
6"	-9469
ॅमर	-9470
र्मि	-9471
▁शिष	-9472
ंदिवस	-9473
▁काठी	-9474
▁२०१८	-9475
▁जिंकले	-9476
▁IP	-9477
स्मा	-9478
्राय	-9479
▁बॉस	-9480
▁कक्ष	-9481
▁घडला	-9482
▁सामन्या	-9483
AD	-9484
IT	-9485
▁टेक	-9486
▁भान	-9487
▁नावं	-9488
▁होंडा	-9489
ins	-9490
und	-9491
▁आल	-9492
▁धूळ	-9493
▁पडलो	-9494
▁विक्रे	-9495
co	-9496
डक्या	-9497
▁खाऊन	-9498
▁शीर्षक	-9499
▁आदी	-9500
▁डिस्	-9501
▁दागि	-9502
▁मॅने	-9503
▁भाविक	-9504
विण्यास	-9505
▁म्हणेल	-9506
▁सांगितला	-9507
▁स्वीकारले	-9508
▁कोप	-9509
▁यहु	-9510
▁बेल्	-9511
▁पराभूत	-9512
▁येताना	-9513
▁शरीराच्या	-9514
In	-9515
▁रिम	-9516
▁अमर्या	-9517
▁द्यायची	-9518
▁वेळापत्र	-9519
atch	-9520
हिणी	-9521
▁act	-9522
▁घेव	-9523
▁ग्रे	-9524
▁सुदै	-9525
▁घेतील	-9526
▁तुकडा	-9527
▁बसणार	-9528
ावयास	-9529
▁जाईन	-9530
▁लाकूड	-9531
▁अमेरिकेचा	-9532
▁प्रस्थापित	-9533
गोल	-9534
▁भाजी	-9535
▁इतरही	-9536
▁मुलीच्या	-9537
▁स्वतःहून	-9538
▁महिन्याला	-9539
hone	-9540
▁आतं	-9541
▁मास	-9542
▁१९२	-9543
ब्लिक	-9544
▁बहुसं	-9545
▁मागतो	-9546
▁शून्य	-9547
▁अशुद्ध	-9548
▁निलंबित	-9549
▁त्यापासून	-9550
▁बदलण्याची	-9551
ml	-9552
▁ध्वज	-9553
▁नदीच्या	-9554
▁रिस	-9555
▁लाड	-9556
▁2007	-9557
▁गप्प	-9558
▁लेसर	-9559
▁एफओबी	-9560
▁पुढची	-9561
▁वास्तू	-9562
▁यां	-9563
nline	-9564
▁अंधारात	-9565
▁माझ्याकडून	-9566
:23	-9567
red	-9568
वडी	-9569
▁not	-9570
▁रोट	-9571
▁सच्	-9572
▁सनात	-9573
संपादन	-9574
▁योसेफ	-9575
▁सिग्न	-9576
▁राक्षस	-9577
▁राजाला	-9578
शास्त्रज्ञ	-9579
▁क्रमांकावर	-9580
▁व्यक्तींना	-9581
माय	-9582
▁लस	-9583
राजे	-9584
▁250	-9585
▁जोडा	-9586
▁पाही	-9587
▁बारी	-9588
▁मल्टी	-9589
▁Mobile	-9590
▁क्वचित	-9591
▁सभागृह	-9592
▁सभ	-9593
▁कुर	-9594
▁पोक	-9595
▁५००	-9596
▁बाईक	-9597
▁आंघोळ	-9598
▁जगाचा	-9599
▁स्थानक	-9600
▁प्रस्तावित	-9601
1-	-9602
पैल	-9603
ates	-9604
महारा	-9605
▁चौकट	-9606
▁लावू	-9607
▁सिंगल	-9608
▁घराच्या	-9609
▁सरकारचा	-9610
4"	-9611
▁43	-9612
चांग	-9613
▁मॅट	-9614
▁समाय	-9615
▁घाबरत	-9616
▁वडिलांनी	-9617
▁महाराष्ट्रातील	-9618
cs	-9619
▁from	-9620
पुरावा	-9621
▁टॅक्सी	-9622
riv	-9623
▁do	-9624
▁up	-9625
र्तन	-9626
वापर	-9627
साचे	-9628
न्सिंग	-9629
▁ह्यात	-9630
ोग्राफी	-9631
▁मृतदेह	-9632
▁महायुद्ध	-9633
ams	-9634
असे	-9635
शाख	-9636
िये	-9637
▁41	-9638
▁नवर	-9639
▁हजर	-9640
▁नाणे	-9641
▁https	-9642
▁विष्ण	-9643
▁शिकले	-9644
▁घेण्या	-9645
▁स्थायी	-9646
गिंग	-9647
तीला	-9648
▁बरो	-9649
ember	-9650
▁सामु	-9651
▁संघात	-9652
▁नियुक्त	-9653
▁सायंकाळी	-9654
▁कार्यालया	-9655
:7	-9656
12)	-9657
eal	-9658
▁एटी	-9659
▁छंद	-9660
ार्पण	-9661
▁कसली	-9662
▁संपत	-9663
▁हिंमत	-9664
▁तालुका	-9665
पक्व	-9666
हाने	-9667
▁पोटात	-9668
▁तुम्हीही	-9669
▁महामार्ग	-9670
row	-9671
▁युवक	-9672
▁वाहने	-9673
▁नं	-9674
▁जंगल	-9675
▁वतीने	-9676
▁साधला	-9677
▁चौथ्या	-9678
▁फलंदाज	-9679
▁विदर्भ	-9680
▁श्रीमती	-9681
▁वर्षभरात	-9682
▁त्यातल्या	-9683
▁२९	-9684
ऱ्हा	-9685
हाचा	-9686
▁OEM	-9687
विल्या	-9688
▁प्रमा	-9689
शिक्षित	-9690
",	-9691
ahar	-9692
ablet	-9693
रुध्द	-9694
▁मुळीच	-9695
▁श्रेय	-9696
▁सादरी	-9697
त्याच्या	-9698
▁घटस्फोट	-9699
▁इंग्रजीत	-9700
onus	-9701
पर्य	-9702
▁कोन	-9703
▁पॉइ	-9704
▁यहूद	-9705
▁स्क्	-9706
▁उमेदवारी	-9707
▁प्रश्नांची	-9708
▁प्रजासत्ताक	-9709
▁सदा	-9710
स्केट	-9711
▁प्लीज	-9712
▁विमाने	-9713
▁रक्तदाब	-9714
▁एड	-9715
डीने	-9716
▁हेर	-9717
▁Holm	-9718
▁वाटप	-9719
▁उद्धव	-9720
▁मंजुरी	-9721
▁चीनच्या	-9722
अन	-9723
500	-9724
:22	-9725
▁49	-9726
दित्य	-9727
बिनेट	-9728
▁विपरीत	-9729
१६	-9730
ोपचार	-9731
▁अधिन	-9732
▁पैलू	-9733
म्हणून	-9734
▁कट्टर	-9735
▁??????	-9736
▁संसर्ग	-9737
▁प्रसंगी	-9738
▁रुग्णांना	-9739
59	-9740
eld	-9741
▁CS	-9742
ount	-9743
मलात	-9744
▁दवा	-9745
▁बर्न	-9746
▁२०१२	-9747
▁बेकाय	-9748
▁सोहळा	-9749
्न	-9750
र्की	-9751
लाने	-9752
▁फाइ	-9753
वश्यक	-9754
▁बेबी	-9755
▁लिहू	-9756
▁लष्कर	-9757
▁संकलन	-9758
▁क्रमां	-9759
▁सहाय्य	-9760
थुन	-9761
▁Bit	-9762
▁फिरव	-9763
▁त्याही	-9764
▁आत्तापर्यंत	-9765
ुड	-9766
▁em	-9767
क्कर	-9768
स्वर	-9769
▁भरव	-9770
दिवशी	-9771
▁हेलिक	-9772
▁प्रतीक	-9773
__	-9774
ार्ड	-9775
▁वन्य	-9776
प्रकाश	-9777
▁कांही	-9778
▁क्रूर	-9779
▁त्याशिवाय	-9780
lex	-9781
रोधा	-9782
शाने	-9783
धारणा	-9784
हेरील	-9785
▁आतंक	-9786
▁कार्यवाही	-9787
पाच	-9788
ोजे	-9789
▁सवि	-9790
▁दुखा	-9791
▁शर्ट	-9792
▁क्रॉस	-9793
▁नेमकी	-9794
▁आक्षेप	-9795
▁मिनिटात	-9796
▁XX	-9797
▁Name	-9798
▁अजुन	-9799
▁वावर	-9800
▁घेऊया	-9801
▁जातोय	-9802
▁पंधरा	-9803
▁समागम	-9804
▁ताज्या	-9805
(3	-9806
जन्य	-9807
▁तरूण	-9808
▁स्टा	-9809
▁द्यायचा	-9810
▁विश्वासार्ह	-9811
▁सेवानिवृत्त	-9812
जल	-9813
••	-9814
लीम	-9815
▁झट	-9816
ॉलिक	-9817
▁कोळ	-9818
▁संभव	-9819
▁दुपार	-9820
▁वंचित	-9821
▁आपल्यात	-9822
▁कॅबिनेट	-9823
▁दहशतवादी	-9824
कप	-9825
ळख	-9826
own	-9827
▁वज	-9828
गण्य	-9829
बाणी	-9830
▁600	-9831
▁कले	-9832
▁शोष	-9833
भाविक	-9834
▁पंजा	-9835
▁मानली	-9836
▁बायोडे	-9837
▁सोमवार	-9838
▁निमंत्र	-9839
▁शरीराला	-9840
▁सर्वांच्या	-9841
87	-9842
कता	-9843
विचार	-9844
विशेष	-9845
▁२०१५	-9846
▁जवळून	-9847
▁वाढवा	-9848
▁शालेय	-9849
▁अनुयायी	-9850
▁दिल्लीत	-9851
▁रिझ	-9852
▁वेड	-9853
▁हृद	-9854
▁कॅम्प	-9855
▁तिन्ही	-9856
▁शासनाने	-9857
सरा	-9858
सीन	-9859
▁जिम	-9860
▁वायू	-9861
▁सूर्या	-9862
रेज	-9863
ग्रॅ	-9864
ंक्शन	-9865
▁हम	-9866
▁(30	-9867
▁मंच	-9868
ought	-9869
▁राणे	-9870
▁चालणे	-9871
▁शरीरा	-9872
▁समजेल	-9873
▁तेजस्वी	-9874
▁देशांच्या	-9875
▁वापरासाठी	-9876
ife	-9877
▁गत	-9878
▁एन्	-9879
▁भीषण	-9880
▁वसाह	-9881
▁ड्रॉप	-9882
▁तात्पुर	-9883
▁मुख्यतः	-9884
▁साहाय्य	-9885
▁हार्डवेअर	-9886
▁वर्षांमध्ये	-9887
0)	-9888
:21	-9889
▁तड	-9890
▁परम	-9891
▁ठरतो	-9892
▁बंगा	-9893
▁भरले	-9894
▁मानत	-9895
▁ज्ञात	-9896
▁उपाययोजना	-9897
ास	-9898
जेस	-9899
▁तब	-9900
साची	-9901
▁अहि	-9902
▁चौथा	-9903
▁गुन्ह	-9904
▁वाढणार	-9905
▁बोलावले	-9906
▁उन्हाळ्या	-9907
▁मूल्यांकन	-9908
▁टेस्टोस्टेरॉन	-9909
16)	-9910
क्रि	-9911
▁अभय	-9912
▁Arch	-9913
▁मिली	-9914
▁करशील	-9915
▁डाव्या	-9916
▁शाश्वत	-9917
▁प्रकरणी	-9918
▁जीवनशैली	-9919
▁खेळाडूंना	-9920
टीश	-9921
वेन	-9922
asht	-9923
▁लावा	-9924
▁ट्रिप	-9925
▁आठवड्यातून	-9926
▁कारणांसाठी	-9927
▁वापरकर्त्यांना	-9928
▁प्रद	-9929
व्याची	-9930
▁पायरी	-9931
▁महासागर	-9932
▁रुपयांची	-9933
▁एक्सप्रेस	-9934
▁न्यायाधीश	-9935
NUM	-9936
▁बसा	-9937
कुमारी	-9938
▁ग्रेड	-9939
▁बायका	-9940
▁मोटर्स	-9941
▁बायोडेटा	-9942
▁राजीनामा	-9943
▁आल्यानंतर	-9944
▁त्याचवेळी	-9945
▁स्वतःसाठी	-9946
▁प्रतिबंधित	-9947
ूपी	-9948
▁कळू	-9949
▁पद्	-9950
▁अल्ब	-9951
▁दिवे	-9952
▁सविस्तर	-9953
▁भाषांमध्ये	-9954
ron	-9955
वाल्या	-9956
▁आधारे	-9957
▁फारसा	-9958
▁सौम्य	-9959
▁काळातील	-9960
bo	-9961
iang	-9962
▁मीही	-9963
▁देशमुख	-9964
▁मिळवले	-9965
han	-9966
▁पत	-9967
ॅक्ट	-9968
▁अवर	-9969
▁हेल्	-9970
▁डिग्री	-9971
▁लिहिलेले	-9972
▁अमेरिकेने	-9973
fo	-9974
▁प्रेरणादायी	-9975
उस	-9976
▁कँ	-9977
▁कुण	-9978
▁चाक	-9979
▁चाहता	-9980
▁जागरूक	-9981
▁ठेवायला	-9982
▁कुटुंबात	-9983
ाई	-9984
ike	-9985
वणं	-9986
▁de	-9987
▁शाह	-9988
▁छाती	-9989
पद्धती	-9990
52	-9991
:9	-9992
झेशन	-9993
▁द्वि	-9994
▁जायची	-9995
▁बदलते	-9996
▁लागलं	-9997
▁निर्णायक	-9998
oub	-9999
ष्‍	-10000
▁मेज	-10001
ार्‍या	-10002
▁शूटिंग	-10003
▁कामाच्या	-10004
▁वापरल्या	-10005
▁इंटरनेटवर	-10006
ose	-10007
2004	-10008
जिकच	-10009
▁Dec	-10010
▁नसे	-10011
▁घालू	-10012
▁राहता	-10013
▁विवेक	-10014
▁तथा	-10015
स्पर्	-10016
▁वाईन	-10017
▁महात्मा	-10018
▁मुखपृष्ठ	-10019
▁44	-10020
▁कंटे	-10021
▁देवळ	-10022
▁मारा	-10023
▁सुखा	-10024
▁हल्ली	-10025
▁Online	-10026
▁कोणाचा	-10027
▁डेस्कटॉप	-10028
एमसी	-10029
▁(12	-10030
विद्या	-10031
▁करतोस	-10032
▁संपले	-10033
▁मध्यभागी	-10034
▁लेखी	-10035
▁आकृती	-10036
▁वीडिय	-10037
नावश्यक	-10038
▁माहीती	-10039
▁रेडहेड	-10040
विश्वसनीय	-10041
▁सानुकूलित	-10042
कोश	-10043
मकुवत	-10044
▁पहाटे	-10045
▁हव्या	-10046
▁राज्यक	-10047
▁रुपांतर	-10048
▁लक्ष्मी	-10049
ंथ	-10050
लाला	-10051
▁गटा	-10052
लांनी	-10053
▁ग्रॅम	-10054
▁व्यापा	-10055
▁न्यूझील	-10056
▁व्हिडीओ	-10057
oooo	-10058
▁२०१३	-10059
▁पहिलाच	-10060
▁बोलायचे	-10061
▁दीर्घकालीन	-10062
म्र	-10063
वूड	-10064
▁छाव	-10065
▁सिर	-10066
मुख्य	-10067
▁नसतं	-10068
▁बेल्ट	-10069
▁मनाने	-10070
▁आरक्षणा	-10071
▁शक्‍यता	-10072
▁संस्कृत	-10073
वाहि	-10074
▁स्तं	-10075
▁बैठकी	-10076
▁सिंचन	-10077
▁सर्वशक्तिमान	-10078
लस	-10079
ake	-10080
▁Of	-10081
रेटर	-10082
▁जाळ	-10083
मुवेल	-10084
▁असणारा	-10085
▁मालमत्ते	-10086
▁एकमेकांच्या	-10087
लँड	-10088
▁याकडे	-10089
▁गल	-10090
र्जे	-10091
▁झाक	-10092
▁मेष	-10093
▁हॉटे	-10094
्यांचं	-10095
▁ठरवलं	-10096
▁होतास	-10097
▁अनुमती	-10098
▁घोटाळा	-10099
▁मेडिकल	-10100
▁ब्रिटीश	-10101
Bet	-10102
hip	-10103
डिशन	-10104
ांकन	-10105
▁अम्	-10106
▁आयडी	-10107
▁आर्क	-10108
▁उठून	-10109
▁जवळच	-10110
▁धागा	-10111
▁हिरव	-10112
▁पेत्र	-10113
▁व्हाल	-10114
▁ठेवावे	-10115
▁खालच्या	-10116
▁स्वयंपाकघर	-10117
फाट	-10118
▁आट	-10119
▁नकळत	-10120
▁प्रव	-10121
▁अमराव	-10122
▁कार्ट	-10123
▁शिंदे	-10124
▁समजूत	-10125
▁ह्याला	-10126
▁उत्साही	-10127
▁उभयलिंग	-10128
▁पहिल्याच	-10129
▁मेक्सिको	-10130
min	-10131
ized	-10132
▁शस्त	-10133
िर्मया	-10134
▁World	-10135
▁तुर्क	-10136
▁सुरेश	-10137
▁होताच	-10138
▁जनतेला	-10139
▁अधिकाऱ्यांनी	-10140
,'	-10141
3"	-10142
19)	-10143
डकरी	-10144
▁वाड	-10145
▁असलं	-10146
▁ओळखा	-10147
▁कुंभ	-10148
▁कंपनीला	-10149
▁आमंत्रित	-10150
ूष	-10151
▁सफल	-10152
▁३००	-10153
▁ग्रॅ	-10154
▁नशीब	-10155
▁एकटाच	-10156
▁नकाशा	-10157
▁शेकडो	-10158
▁चांगलीच	-10159
सुर	-10160
र्मी	-10161
▁याकोब	-10162
▁स्वीडन	-10163
▁जेवायला	-10164
▁खेच	-10165
ित्सा	-10166
▁2006	-10167
▁दरवाज	-10168
▁पेपैल	-10169
▁यात्रे	-10170
▁पत्नीला	-10171
▁स्त्रियांच्या	-10172
साई	-10173
िकास	-10174
▁उठला	-10175
▁जीवा	-10176
▁प्रथा	-10177
▁कमकुवत	-10178
▁पुष्टी	-10179
▁महिलांसाठी	-10180
▁पुढीलप्रमाणे	-10181
क्‍ट	-10182
क्रांती	-10183
▁साम्राज	-10184
ेश	-10185
लाई	-10186
▁रक	-10187
▁शॅ	-10188
cess	-10189
चार्य	-10190
देशिक	-10191
्यांसह	-10192
▁कामाची	-10193
▁नसताना	-10194
▁वीडियोस	-10195
चीच	-10196
तुकी	-10197
तेला	-10198
▁ठोस	-10199
▁हाक	-10200
▁गावी	-10201
▁स्टु	-10202
▁केलंय	-10203
▁स्टेट	-10204
क्सेसरी	-10205
प्राप्त	-10206
▁बॉलिवूड	-10207
▁यांच्यावर	-10208
▁अशाप्रकारे	-10209
▁तुमच्याबरोबर	-10210
mp	-10211
:25	-10212
रेन	-10213
साळ	-10214
▁बड	-10215
▁मिट	-10216
▁मिसळ	-10217
▁समाधानी	-10218
▁झाल्यामुळे	-10219
ES	-10220
▁नीति	-10221
▁वाढव	-10222
▁खातात	-10223
▁दोघांनाही	-10224
▁वर्षापासून	-10225
सै	-10226
▁Fr	-10227
वेशन	-10228
▁रॉब	-10229
▁अखंड	-10230
▁टेलि	-10231
टुंबिक	-10232
▁असणारी	-10233
▁इस्राय	-10234
▁सिग्नल	-10235
▁स्वाभाविक	-10236
ON	-10237
ंनो	-10238
प्री	-10239
▁आनंदात	-10240
▁लवकरात	-10241
▁शक्यतो	-10242
▁सापडेल	-10243
घाय	-10244
▁नग्न	-10245
▁अपलोड	-10246
▁असोसि	-10247
व्यवस्था	-10248
▁अनिश्चित	-10249
झन	-10250
ईंग	-10251
दादा	-10252
तुझ्या	-10253
▁मारून	-10254
Hamster	-10255
▁पहायला	-10256
▁फोल्डर	-10257
▁सेक्सी	-10258
▁चांगलेच	-10259
▁सुमारास	-10260
▁संगीतकार	-10261
आन	-10262
▁can	-10263
ional	-10264
▁असंही	-10265
▁दुनिया	-10266
▁सम्राट	-10267
▁आधारावर	-10268
▁बास्केट	-10269
▁माणसाचा	-10270
▁एकमेकांशी	-10271
▁स्टॉकिंग्स	-10272
उंड	-10273
रपी	-10274
ेटी	-10275
▁खोद	-10276
▁मुर	-10277
▁१९०	-10278
▁http	-10279
▁टिळक	-10280
▁अवकाश	-10281
▁हातून	-10282
▁प्रजाती	-10283
▁रुग्णालय	-10284
गाडी	-10285
ांडर	-10286
▁धीरे	-10287
▁फॅक्स	-10288
▁अंतराळ	-10289
▁संख्येने	-10290
▁होण्याचे	-10291
ele	-10292
ताई	-10293
▁(_	-10294
तायत	-10295
ष्मा	-10296
सीबी	-10297
▁वेल	-10298
कार्य	-10299
▁तिसरे	-10300
▁कुत्रे	-10301
▁गेलेली	-10302
▁विरोधा	-10303
][	-10304
▁हौ	-10305
▁दिल	-10306
▁नवं	-10307
▁पातळ	-10308
▁बक्षी	-10309
▁परतावा	-10310
▁ब्राह्म	-10311
▁समाजाला	-10312
▁विषयांवर	-10313
▁तह	-10314
▁res	-10315
▁अदा	-10316
▁हित	-10317
▁इंद्र	-10318
▁दाखवला	-10319
▁बँकिंग	-10320
▁बाजारपेठ	-10321
▁अविश्वसनीय	-10322
▁येण्यासाठी	-10323
6"&	-10324
▁56	-10325
▁Dep	-10326
▁कृपे	-10327
▁भोजन	-10328
संस्कार	-10329
▁तेवढेच	-10330
▁भविष्यातील	-10331
ैकी	-10332
▁काठ	-10333
▁अँटी	-10334
▁अर्थसं	-10335
▁थांबवू	-10336
▁वॉशिंग	-10337
▁शमुवेल	-10338
▁सुवार्	-10339
▁4,	-10340
▁पंड	-10341
▁फडण	-10342
▁परंपर	-10343
▁बेल्ज	-10344
▁अनुकरण	-10345
▁क्षेत्रा	-10346
▁म्हणायला	-10347
▁मंत्रालया	-10348
fer	-10349
फिल	-10350
▁Le	-10351
▁समन्	-10352
▁WhatsApp	-10353
▁कॉर्पोरेट	-10354
eed	-10355
धीर	-10356
▁खेड	-10357
▁सत्	-10358
वर्षी	-10359
▁परतले	-10360
▁कृष्णा	-10361
▁संस्थान	-10362
▁Facebook	-10363
▁आश्चर्यचकित	-10364
yn	-10365
झॉन	-10366
तेस	-10367
▁डु	-10368
▁३६	-10369
▁व्र	-10370
▁दिशे	-10371
▁भाग्यवान	-10372
▁संस्थापक	-10373
▁माझ्याजवळ	-10374
84	-10375
ett	-10376
पौर	-10377
▁खूश	-10378
▁ऐकला	-10379
▁टेक्	-10380
▁खेळात	-10381
▁नवशिक	-10382
नाबद्दल	-10383
्युत्तर	-10384
▁दागिने	-10385
▁अनंतकाळ	-10386
▁ब्लोजॉब	-10387
▁दिग्दर्शक	-10388
▁करण्यासारखे	-10389
:24	-10390
ग्स	-10391
चेल	-10392
▁एकी	-10393
▁लाँ	-10394
पत्ता	-10395
▁शॉवर	-10396
▁यालाच	-10397
▁आयपीएल	-10398
▁पृष्ठे	-10399
AM	-10400
▁मेण	-10401
वेळेस	-10402
▁आणते	-10403
▁पोषण	-10404
▁शिस्त	-10405
▁लिहिता	-10406
▁सोलापूर	-10407
खडा	-10408
लीला	-10409
▁घाट	-10410
▁डॉट	-10411
वलेले	-10412
▁चेता	-10413
▁छत्र	-10414
▁देवत	-10415
▁बँका	-10416
▁अपहरण	-10417
▁आयुर्व	-10418
▁कॉन्फि	-10419
ideo	-10420
▁पन्	-10421
▁फेक	-10422
नाकडे	-10423
▁शिखर	-10424
णार्या	-10425
नेडियन	-10426
▁लिहीत	-10427
▁पाठवून	-10428
▁प्रभाग	-10429
▁स्प्रे	-10430
▁मॉड्यूल	-10431
▁कौटुंबिक	-10432
▁वापरण्यात	-10433
ईम	-10434
खरे	-10435
पाय	-10436
▁1/	-10437
▁अको	-10438
▁थाय	-10439
▁लेदर	-10440
▁रेटिंग	-10441
▁क्रिस्टल	-10442
▁पाकिस्तानात	-10443
१४	-10444
▁46	-10445
▁चट	-10446
न्नई	-10447
▁दुकाने	-10448
▁साधारणतः	-10449
57	-10450
भी	-10451
जाने	-10452
▁नवरा	-10453
▁जळगाव	-10454
▁पट्टी	-10455
▁निघाली	-10456
र्नस्टार	-10457
ाविरुद्ध	-10458
▁मिळालेले	-10459
▁संक्षिप्त	-10460
▁शेतकऱ्यांच्या	-10461
ंझ	-10462
ott	-10463
▁मॅच	-10464
▁अरबी	-10465
ॅक्यूम	-10466
▁कारणासाठी	-10467
Ch	-10468
▁सज	-10469
कार्	-10470
▁For	-10471
▁एकर	-10472
▁मोन	-10473
ology	-10474
वर्षे	-10475
▁खेळतो	-10476
▁भेटला	-10477
▁थांबला	-10478
▁बांधून	-10479
भाई	-10480
कारा	-10481
▁तिघ	-10482
▁महे	-10483
▁काका	-10484
▁दुधा	-10485
▁नेवासा	-10486
▁अशावेळी	-10487
eop	-10488
बिट	-10489
ुती	-10490
ायरल	-10491
▁गति	-10492
▁यार	-10493
▁अपंग	-10494
▁दोनच	-10495
▁मोहीम	-10496
▁निरनिरा	-10497
▁युरोपीय	-10498
:26	-10499
न्म	-10500
▁इराक	-10501
▁कोणाचे	-10502
▁खेळणार	-10503
तेवर	-10504
र्ता	-10505
▁सीट	-10506
▁कारणं	-10507
▁आदित्य	-10508
▁पालिके	-10509
▁जिंकणार	-10510
▁स्टेट्स	-10511
▁फेसबुकवर	-10512
▁प्रभावीपणे	-10513
rap	-10514
वयीन	-10515
▁आणा	-10516
▁कूप	-10517
रीच्या	-10518
्टमेंट	-10519
▁अधिकच	-10520
▁नेमकं	-10521
ंडस	-10522
अनु	-10523
▁डाग	-10524
▁पदवीधर	-10525
▁त्यातला	-10526
▁ब्राउझर	-10527
सत	-10528
earch	-10529
▁क्लो	-10530
▁चॅनल	-10531
▁वायु	-10532
▁आण्विक	-10533
▁विधानसभे	-10534
2,	-10535
प्ले	-10536
रियन	-10537
ॉकिंग	-10538
तेव्हा	-10539
रीत्या	-10540
▁जोडणी	-10541
▁टिकाऊ	-10542
▁मोकळा	-10543
▁आधीच्या	-10544
▁कर्णधार	-10545
▁नरेंद्र	-10546
▁प्राधिक	-10547
▁नियमितपणे	-10548
गडी	-10549
ित्त	-10550
▁केरळ	-10551
▁अपराधी	-10552
▁पहिलीच	-10553
▁पाठवला	-10554
▁प्रतिब	-10555
▁बाटल्या	-10556
ॉय	-10557
्रीट	-10558
▁बेथ	-10559
▁तिनं	-10560
▁मेला	-10561
▁आश्चर	-10562
▁रोमां	-10563
▁वीडियो	-10564
▁बहुसंख्य	-10565
▁न्यूझीलंड	-10566
▁प्रादेशिक	-10567
▁मिळण्याची	-10568
tr	-10569
▁]	-10570
व्ये	-10571
▁अणु	-10572
वितात	-10573
ारासाठी	-10574
▁संक्रमण	-10575
▁डोंगरावर	-10576
▁धाक	-10577
मित्र	-10578
▁टाकू	-10579
▁वाढवू	-10580
▁कामकाज	-10581
▁पुस्तका	-10582
▁त्यांच्याच	-10583
▁प्रशिक्षित	-10584
▁वर्तमानपत्र	-10585
▁स्पर्धात्मक	-10586
साहित	-10587
▁भावा	-10588
▁नाहीय	-10589
निमित्त	-10590
▁पाठीशी	-10591
▁अपघातात	-10592
▁क्लॅसिक	-10593
ely	-10594
तीर्ण	-10595
▁कपूर	-10596
▁यादव	-10597
साव्या	-10598
▁गुलाब	-10599
▁वाहतुकी	-10600
▁सांगावे	-10601
isc	-10602
ital	-10603
श्रम	-10604
▁जैन	-10605
▁टॉवर	-10606
▁स्वरु	-10607
▁त्यांत	-10608
▁थांबवा	-10609
▁योजनेचा	-10610
▁डॅन्सिंग	-10611
वळी	-10612
वाइ	-10613
्युट	-10614
▁भात	-10615
▁कंटाळ	-10616
▁पुढचे	-10617
▁शब्दाचा	-10618
▁अमेरिकेची	-10619
ँक	-10620
जोड	-10621
▁तां	-10622
▁उशीरा	-10623
oh	-10624
▁XXX	-10625
▁कंड	-10626
▁तंत	-10627
▁अष्ट	-10628
ांवरील	-10629
▁फडणवीस	-10630
▁मुक्ती	-10631
▁तात्काळ	-10632
प्रत्यक्ष	-10633
ांप्रमाणे	-10634
▁डब	-10635
नेला	-10636
▁नसत	-10637
▁आढळतात	-10638
▁म्हणूनही	-10639
▁गोष्टींवर	-10640
61	-10641
ier	-10642
बीर	-10643
स्तंभ	-10644
पचारिक	-10645
▁दाखवू	-10646
ंचं	-10647
▁ऋतु	-10648
▁पोत	-10649
▁गॅगिंग	-10650
▁तितकेच	-10651
▁वापरात	-10652
▁साऱ्या	-10653
▁ब्राझील	-10654
▁कार्यक्रमात	-10655
be	-10656
ळखी	-10657
प्पर	-10658
क्‍या	-10659
तोत्र	-10660
पुत्र	-10661
वस्तू	-10662
▁पॉली	-10663
पुन्हा	-10664
▁दुर्ग	-10665
▁हिस्सा	-10666
निर्मिती	-10667
कथ	-10668
2"&	-10669
▁सॅम	-10670
▁नमाज	-10671
▁ह्याच	-10672
▁पुनर्प्राप्ती	-10673
ats	-10674
पहि	-10675
ents	-10676
ार्क	-10677
▁बहा	-10678
पणाचा	-10679
▁अनुप	-10680
▁माना	-10681
▁रशिय	-10682
व्हिंग	-10683
▁एकटीच	-10684
▁वित्त	-10685
▁ज्योति	-10686
▁वेळेला	-10687
▁PM	-10688
▁10.	-10689
▁Rik	-10690
▁कोकण	-10691
▁संकुल	-10692
१७	-10693
डीस	-10694
ंगबॅ	-10695
▁पंख	-10696
जनशील	-10697
▁ब्रश	-10698
▁ग्रेट	-10699
▁लिलाव	-10700
▁माहितीचा	-10701
▁हायड्रॉलिक	-10702
शिप	-10703
▁रथ	-10704
▁जर्	-10705
▁तंब	-10706
▁होळी	-10707
▁मुलाची	-10708
aharasht	-10709
▁स्वाक्ष	-10710
▁आफ्रिकेत	-10711
▁जीवनातील	-10712
▁अधिकाऱ्यांना	-10713
्राने	-10714
▁२००४	-10715
▁घेतलेले	-10716
▁शेतकऱ्यांनी	-10717
इम	-10718
ंगळ	-10719
यान	-10720
▁ro	-10721
▁तंद	-10722
▁गियर	-10723
▁विवरण	-10724
▁संमती	-10725
▁पेट्रोल	-10726
rup	-10727
ages	-10728
▁0.0	-10729
▁युव	-10730
▁कलाम	-10731
▁चित्री	-10732
▁जबरदस्त	-10733
ict	-10734
ह्या	-10735
राज्य	-10736
▁पकडला	-10737
▁लागतं	-10738
▁स्तंभ	-10739
▁असावेत	-10740
▁काहीजण	-10741
▁गेलेला	-10742
▁नव्हत्या	-10743
▁मासेमारी	-10744
▁मुख्यालय	-10745
10)	-10746
डित	-10747
ered	-10748
निअर	-10749
▁खाता	-10750
▁संसदे	-10751
त्यांना	-10752
▁लिहिला	-10753
्यांपैकी	-10754
▁राजकुमारी	-10755
बिया	-10756
▁फेड	-10757
▁औषधा	-10758
▁भागा	-10759
दिवसीय	-10760
▁हत्ये	-10761
▁आठवड्या	-10762
▁आणीबाणी	-10763
▁त्याआधी	-10764
▁आमच्याबरोबर	-10765
:01	-10766
pot	-10767
महि	-10768
▁कॅप्	-10769
▁बजेट	-10770
ंगबॅंग	-10771
प्रेमी	-10772
्युलेटर	-10773
▁काहीसे	-10774
▁थांबले	-10775
▁पाहूया	-10776
▁माणसाचे	-10777
▁वापरण्यास	-10778
दरा	-10779
विड	-10780
▁Ac	-10781
ित्या	-10782
▁येणारी	-10783
एनएक्सएक्स	-10784
ged	-10785
ids	-10786
नीस	-10787
पीए	-10788
भारत	-10789
लेशन	-10790
षणात	-10791
▁अमित	-10792
▁औषधी	-10793
ातल्या	-10794
पेक्षित	-10795
▁पलिष्ट	-10796
▁शरीरावर	-10797
ars	-10798
▁उंचा	-10799
▁तलाक	-10800
त्त्या	-10801
▁कंटेनर	-10802
▁वापरते	-10803
▁व्हायरस	-10804
9.	-10805
ॉड	-10806
▁ऋण	-10807
बांध	-10808
▁उमट	-10809
▁लँड	-10810
▁आणणे	-10811
▁कळवा	-10812
▁गावे	-10813
▁यायचे	-10814
▁शोधणे	-10815
▁दुर्दैवी	-10816
▁शाळेच्या	-10817
ath	-10818
साचा	-10819
▁ट्रेलर	-10820
▁नारायण	-10821
▁कुठलाही	-10822
▁तुलनेने	-10823
▁त्यालाच	-10824
▁राज्याच्या	-10825
RL	-10826
ोरा	-10827
▁संसद	-10828
▁स्कॉट	-10829
▁हरवले	-10830
▁प्रत्य	-10831
▁स्ट्रॅप	-10832
ोर्ट	-10833
▁पडदा	-10834
▁इंडियन	-10835
▁ब्रह्म	-10836
▁YouTube	-10837
▁दोघांच्या	-10838
res	-10839
▁फौ	-10840
नेचे	-10841
ल्हे	-10842
शोरी	-10843
▁here	-10844
▁करतांना	-10845
▁मुलांवर	-10846
▁राजाच्या	-10847
▁शस्त्रक्रिया	-10848
56	-10849
▁निम्	-10850
▁Bonus	-10851
▁कळणार	-10852
▁ग्लॅमर	-10853
▁चेन्नई	-10854
▁अधिनियम	-10855
▁पूर्णतः	-10856
▁हस्तक्षेप	-10857
▁हॉस्पिटलमध्ये	-10858
▁महिन्यांपूर्वी	-10859
गाय	-10860
दाद	-10861
▁भे	-10862
▁रान	-10863
▁लुट	-10864
▁खेळले	-10865
▁बनवून	-10866
▁मांडणी	-10867
▁धातूंचे	-10868
▁घराबाहेर	-10869
PC	-10870
oss	-10871
▁All	-10872
▁घडेल	-10873
मूर्ती	-10874
▁नेपाळ	-10875
▁अनोळखी	-10876
▁नेमणूक	-10877
▁कलाकृती	-10878
▁पाठपुरावा	-10879
▁साक्षीदार	-10880
led	-10881
uit	-10882
oint	-10883
स्या	-10884
▁जनक	-10885
▁हाड	-10886
▁अडीच	-10887
▁पुरूष	-10888
▁मिळवला	-10889
▁साध्या	-10890
▁कर्करोग	-10891
▁बोलायचं	-10892
अहो	-10893
दमी	-10894
क्कल	-10895
▁ओबी	-10896
▁ब्लू	-10897
outube	-10898
▁यांत्रिक	-10899
▁राजकारणी	-10900
▁मंत्रिमंड	-10901
ड्डी	-10902
▁पारित	-10903
▁रक्षक	-10904
▁त्यातली	-10905
▁खांद्यावर	-10906
▁QR	-10907
▁en	-10908
प्ति	-10909
▁बैल	-10910
▁किना	-10911
▁पीटर	-10912
▁बारीक	-10913
▁चिन्हे	-10914
ल्यासारखे	-10915
▁महिलांनी	-10916
▁मध्यवर्ती	-10917
97	-10918
18)	-10919
िस्ट	-10920
▁अला	-10921
▁आर्द्र	-10922
▁पन्नास	-10923
eth	-10924
नेर	-10925
▁घडा	-10926
▁बनू	-10927
▁वसु	-10928
बॉक्स	-10929
र्तता	-10930
▁केवढ	-10931
▁पितो	-10932
▁२००८	-10933
▁पोशाख	-10934
▁टॉपलेस	-10935
▁हालचाल	-10936
▁पाण्याने	-10937
▁धक्कादायक	-10938
5.	-10939
नाक	-10940
लोकन	-10941
▁(2)	-10942
right	-10943
पुढील	-10944
▁दाबा	-10945
▁स्कॅन	-10946
▁वेल्डिंग	-10947
▁कार्यकर्ता	-10948
पीत	-10949
ग्ने	-10950
▁पीत	-10951
▁शाप	-10952
रूद्ध	-10953
▁बनाय	-10954
▁साडी	-10955
अमेरिक	-10956
ऱ्यांची	-10957
▁व्यक्तीचा	-10958
▁इतिहासातील	-10959
▁मनुष्याच्या	-10960
▁कोर्	-10961
▁लेबल	-10962
▁उर्जा	-10963
▁क्षणात	-10964
▁दिवसांचा	-10965
54	-10966
ene	-10967
ern	-10968
विधी	-10969
▁per	-10970
प्रभु	-10971
▁अध्य	-10972
▁काढत	-10973
▁शकली	-10974
▁माउंट	-10975
▁परिधान	-10976
▁हेलिकॉ	-10977
US	-10978
लेम	-10979
फक्त	-10980
▁आजच	-10981
▁डिल	-10982
▁चालतो	-10983
▁स्पीड	-10984
▁एसएमएस	-10985
▁स्क्रू	-10986
▁स्वतंत्रपणे	-10987
चेंज	-10988
▁नूत	-10989
▁उतार	-10990
▁खेळणी	-10991
▁अपूर्ण	-10992
▁घेतलेला	-10993
▁प्रश्नः	-10994
▁आयुष्याचा	-10995
▁प्रयोगशाळा	-10996
▁HGH	-10997
▁reg	-10998
▁निः	-10999
इंग्र	-11000
▁डीसी	-11001
▁नविन	-11002
वर्गीय	-11003
▁पश्चिमे	-11004
▁लिहितात	-11005
▁टीव्हीवर	-11006
▁ट्राय	-11007
▁व्हाइट	-11008
▁गुंडाळी	-11009
▁लग्नाला	-11010
्त	-11011
hor	-11012
मोर	-11013
मात्र	-11014
▁अनाथ	-11015
▁बंधू	-11016
▁अभ्यागत	-11017
▁नट	-11018
▁cor	-11019
कालिक	-11020
▁घडून	-11021
▁जप्त	-11022
▁प्रधान	-11023
▁उत्तीर्ण	-11024
▁कारणामुळे	-11025
ेतर	-11026
ंपैकी	-11027
▁शाका	-11028
▁प्रवा	-11029
▁योहान	-11030
▁राखून	-11031
▁विलंब	-11032
▁स्वरा	-11033
▁डब्ल्यू	-11034
▁सगळ्याच	-11035
▁सुदैवाने	-11036
▁सगळ्यांनाच	-11037
लची	-11038
यंती	-11039
▁Pay	-11040
▁गाई	-11041
▁पोर	-11042
चंद्र	-11043
▁देवो	-11044
▁लाँच	-11045
▁सीमे	-11046
▁अवशेष	-11047
▁क्लिन	-11048
▁ठरवून	-11049
▁भांडण	-11050
▁पक्षात	-11051
▁परिचित	-11052
▁बक्षीस	-11053
▁येण्यास	-11054
▁संसाधने	-11055
▁घेण्याचे	-11056
▁शरीरातील	-11057
▁निर्देशांक	-11058
▁खनि	-11059
▁शॉप	-11060
▁एकदाच	-11061
▁कॉम्प	-11062
▁पाचवा	-11063
▁व्हील	-11064
▁संपादित	-11065
▁विश्वचषक	-11066
क्‍स	-11067
▁पाण	-11068
▁जोडप	-11069
▁नर्स	-11070
अंतर्गत	-11071
▁मुलाचा	-11072
▁आयुष्याची	-11073
तला	-11074
फेस	-11075
▁ढा	-11076
पंचा	-11077
मोडी	-11078
राजा	-11079
ाराम	-11080
▁गात	-11081
▁बिट	-11082
▁हँड	-11083
पणाची	-11084
्युटर	-11085
▁गोवा	-11086
▁२०००	-11087
▁महापौर	-11088
▁वेळाने	-11089
▁शांघाय	-11090
▁कंपनीची	-11091
▁अमर्यादित	-11092
▁वाचण्यासाठी	-11093
IL	-11094
day	-11095
ubl	-11096
ंदे	-11097
विच	-11098
▁47	-11099
▁दूत	-11100
▁विद्	-11101
▁प्रबोध	-11102
▁मांडले	-11103
▁व्हिसा	-11104
▁यंत्रणे	-11105
कॅ	-11106
बध	-11107
ownl	-11108
ोरेज	-11109
▁वाई	-11110
▁स्ला	-11111
▁हंगे	-11112
▁वितरित	-11113
▁सुध्दा	-11114
▁डोक्यात	-11115
▁प्रतिबिंब	-11116
▁रिट	-11117
▁क्रे	-11118
▁रूग्	-11119
imited	-11120
▁प्लेयर	-11121
▁मंगळवार	-11122
▁शरीराचे	-11123
▁प्रवृत्ती	-11124
▁पाकिस्तानला	-11125
नेची	-11126
▁Porn	-11127
▁सोडू	-11128
▁मुलाचे	-11129
▁एकेकाळी	-11130
▁स्टेरॉइड	-11131
आला	-11132
ific	-11133
ऱ्हे	-11134
▁आवर	-11135
च्‍या	-11136
▁अभिमा	-11137
▁अधिवेशन	-11138
▁देशद्रो	-11139
▁प्रकरणे	-11140
▁कालबाह्य	-11141
▁तुझ्याशी	-11142
▁व्यक्तीने	-11143
विना	-11144
▁आलाय	-11145
▁व्यसन	-11146
▁जनरेटर	-11147
▁थोडेसे	-11148
82	-11149
रोदर	-11150
▁आम्	-11151
▁पडणे	-11152
त्याचे	-11153
▁शर्यत	-11154
▁Tablet	-11155
▁बघितला	-11156
▁बर्लिन	-11157
▁समजतात	-11158
▁प्रक्षे	-11159
▁वर्गीकरण	-11160
!”	-11161
उप	-11162
तोल	-11163
सिस	-11164
▁घरं	-11165
▁पदे	-11166
▁बसली	-11167
▁सोडत	-11168
▁जवळचा	-11169
▁बागेत	-11170
▁वाटून	-11171
स्थितीत	-11172
▁इंडोने	-11173
▁थोडासा	-11174
▁मोठय़ा	-11175
▁खबरदारी	-11176
▁तत्त्वे	-11177
▁गोष्टीचा	-11178
ईने	-11179
डेट	-11180
▁Jan	-11181
निक्स	-11182
विणार	-11183
▁कामं	-11184
▁फेकून	-11185
▁बनवते	-11186
▁तलवारी	-11187
▁निष्ठा	-11188
▁thought	-11189
▁हिरव्या	-11190
▁नवशिक्या	-11191
▁प्रेमाने	-11192
ternational	-11193
▁प्रक्रियेत	-11194
aj	-11195
gh	-11196
इज	-11197
▁उब	-11198
धुनिक	-11199
हारिक	-11200
ियमित	-11201
▁उदार	-11202
▁एवढं	-11203
▁स्कू	-11204
करांना	-11205
▁पावला	-11206
▁पिवळा	-11207
▁कशामुळे	-11208
▁देशभरात	-11209
▁स्वारस्य	-11210
▁8.	-11211
नाचं	-11212
स्मर	-11213
▁दाट	-11214
च्छिक	-11215
▁अगदीच	-11216
▁करूया	-11217
▁जन्मद	-11218
▁गोलंदाज	-11219
▁ग्रॅनड्मा	-11220
▁त्यांच्याबद्दल	-11221
छा	-11222
ईडी	-11223
खोर	-11224
▁साई	-11225
▁थायलंड	-11226
▁पालकांनी	-11227
▁वेळापत्रक	-11228
वार्य	-11229
▁केळी	-11230
▁माले	-11231
▁एवढंच	-11232
▁कुठला	-11233
▁संपणार	-11234
विलेल्या	-11235
▁नाकारले	-11236
ऱ्यांच्या	-11237
▁मध्यरात्री	-11238
53	-11239
ung	-11240
टिल	-11241
थान	-11242
▁Red	-11243
▁जां	-11244
▁भरत	-11245
▁विख	-11246
▁उरले	-11247
▁रसिक	-11248
▁द्वार	-11249
▁यूएसए	-11250
▁अध्याय	-11251
ण्यापासून	-11252
सूर	-11253
होय	-11254
▁बग	-11255
mail	-11256
▁ठेऊ	-11257
▁दृढ	-11258
▁नम्र	-11259
▁बाबत	-11260
▁अभियंता	-11261
लग	-11262
rou	-11263
बदल	-11264
मेश	-11265
वरुन	-11266
शियल	-11267
▁सिम	-11268
▁अवरोध	-11269
स्मरणीय	-11270
▁साहजिकच	-11271
▁स्टोरेज	-11272
▁कुटुंबाला	-11273
▁मनुष्याचा	-11274
ंटे	-11275
▁De	-11276
▁करे	-11277
लैंगिक	-11278
▁बनवली	-11279
▁संताप	-11280
▁भेटणार	-11281
▁वास्तु	-11282
▁सदस्यता	-11283
ept	-11284
डीए	-11285
सज्ज	-11286
▁बटा	-11287
मेनियन	-11288
▁चमकदार	-11289
▁उन्हाळा	-11290
▁मायक्रो	-11291
▁कार्यान्	-11292
नॅ	-11293
मृत	-11294
▁im	-11295
▁me	-11296
शीला	-11297
▁मत्	-11298
▁वडी	-11299
▁एसटी	-11300
▁कूपन	-11301
ऱ्याचा	-11302
▁जाणवले	-11303
▁पुनरुत्	-11304
▁समाजाच्या	-11305
chn	-11306
नवे	-11307
▁भरा	-11308
▁खाती	-11309
▁थकवा	-11310
ात्ताप	-11311
▁सेवेत	-11312
▁म्हणेन	-11313
▁ऑक्सिजन	-11314
▁मनोरंजन	-11315
▁रोमन	-11316
▁सहका	-11317
▁उभ्या	-11318
▁चुकले	-11319
▁दिवसे	-11320
▁समजतो	-11321
▁क्रमाने	-11322
▁सोसायटी	-11323
▁गुंतवणुकी	-11324
CO	-11325
kg	-11326
▁शीट	-11327
भागीय	-11328
▁धडपड	-11329
▁पुरा	-11330
▁माणुस	-11331
▁शर्मा	-11332
▁शांति	-11333
▁सनातन	-11334
▁Rikoooo	-11335
ल्याशिवाय	-11336
▁उपलब्धता	-11337
▁शिक्षणाचा	-11338
िना	-11339
▁कोश	-11340
▁भाई	-11341
बहुना	-11342
▁सभेत	-11343
▁हिरो	-11344
▁मिळायला	-11345
20)	-11346
▁नळी	-11347
▁निख	-11348
र्मिळ	-11349
▁ऍसिड	-11350
▁काचे	-11351
▁सामन	-11352
▁विठ्ठ	-11353
▁नाराजी	-11354
▁बाहेरून	-11355
▁ठेवण्याची	-11356
▁वैशिष्ट्यांचे	-11357
:28	-11358
देन	-11359
▁उत	-11360
▁गाळ	-11361
▁एसजी	-11362
▁बळकट	-11363
▁२००६	-11364
माध्यम	-11365
▁शिल्प	-11366
▁जाणवते	-11367
▁दिवसाला	-11368
▁देशातून	-11369
box	-11370
▁We	-11371
▁jack	-11372
▁जितके	-11373
▁परकीय	-11374
▁रसायन	-11375
▁ईश्‍वर	-11376
▁कृत्ये	-11377
▁कमीतकमी	-11378
▁आपल्याशी	-11379
▁हॉटेलमध्ये	-11380
Cl	-11381
▁निवडक	-11382
▁फलंदाजी	-11383
ky	-11384
urn	-11385
्रू	-11386
किरी	-11387
हाची	-11388
▁अंड	-11389
▁एली	-11390
▁अफगा	-11391
▁चार्ट	-11392
▁ज्ञानी	-11393
▁बियाणे	-11394
▁वागणूक	-11395
▁व्हावी	-11396
▁आव्हाने	-11397
▁अभिप्राय	-11398
पटू	-11399
िकट	-11400
मेझॉन	-11401
▁कसला	-11402
▁कस्त	-11403
▁निवासी	-11404
▁समारंभ	-11405
▁स्त्रियांसाठी	-11406
001	-11407
लोर	-11408
निचर	-11409
▁ind	-11410
▁लाद	-11411
लांचे	-11412
▁ग्रीस	-11413
▁गांधीजी	-11414
▁देशांनी	-11415
▁क्रमवारी	-11416
▁मिळालेला	-11417
▁हिंसाचार	-11418
▁महत्वपूर्ण	-11419
▁यांच्याकडे	-11420
▁आरोग्यासाठी	-11421
▁त्यांच्यासोबत	-11422
DF	-11423
▁te	-11424
हरोन	-11425
▁पर्	-11426
▁करायचो	-11427
▁निवडलेल्या	-11428
जाग	-11429
न्शन	-11430
▁pre	-11431
च्छेद	-11432
पक्षी	-11433
▁जगणे	-11434
▁पटेल	-11435
▁गरोदर	-11436
▁वेगळेच	-11437
▁सेटिंग्ज	-11438
▁विमानतळावर	-11439
२५	-11440
ium	-11441
▁वकि	-11442
क्झरी	-11443
▁नॉटी	-11444
दृष्टी	-11445
▁अनुसू	-11446
▁सावंत	-11447
▁अकादमी	-11448
▁प्रीति	-11449
▁मुलीचे	-11450
▁उद्योगात	-11451
▁समोरच्या	-11452
बिन	-11453
हाचे	-11454
िद्र	-11455
▁अधीन	-11456
▁आणतो	-11457
▁फिरत	-11458
▁बसतो	-11459
▁ड्रेस	-11460
क्सेसरीज	-11461
▁प्रश्नच	-11462
▁मुद्दाम	-11463
▁म्हणणार	-11464
▁चिकित्सा	-11465
▁माध्यमिक	-11466
ana	-11467
▁64	-11468
▁Or	-11469
ॉट्स	-11470
▁मिरव	-11471
▁योनी	-11472
▁वर्क	-11473
▁दिलासा	-11474
▁दुर्मिळ	-11475
▁यामागचे	-11476
83	-11477
शेत	-11478
सिं	-11479
▁माध	-11480
▁लठ्ठ	-11481
▁वादळ	-11482
▁काव्य	-11483
▁अग्रगण्य	-11484
▁अनावश्यक	-11485
▁मंदिराच्या	-11486
▁cryptocurrency	-11487
ॅग	-11488
▁rep	-11489
▁इजा	-11490
▁दशक	-11491
▁प्रण	-11492
ategor	-11493
▁केव्ह	-11494
df	-11495
२६	-11496
▁उध	-11497
स्वत	-11498
▁आका	-11499
▁येता	-11500
▁होईना	-11501
▁तत्काळ	-11502
▁विसरणार	-11503
▁एकदिवसीय	-11504
RE	-11505
-11	-11506
र्र	-11507
▁आगा	-11508
ष्टात	-11509
▁doub	-11510
▁घंटा	-11511
▁वाणी	-11512
▁सीडी	-11513
▁१९९०	-11514
▁जीवनस	-11515
▁दर्शक	-11516
▁सापडत	-11517
▁किंबहुना	-11518
▁माझ्यापेक्षा	-11519
जान	-11520
▁ev	-11521
▁रज	-11522
ystem	-11523
▁आग्र	-11524
▁मेगा	-11525
▁वयोग	-11526
ownload	-11527
▁एकाग्र	-11528
▁कालांत	-11529
▁गोंदणे	-11530
▁ठेवणार	-11531
▁प्रस्त	-11532
▁फर्निचर	-11533
▁टाकण्यात	-11534
▁तुम्हांस	-11535
▁जपानमध्ये	-11536
▁मुंबईच्या	-11537
▁शिक्षणासाठी	-11538
जळ	-11539
▁Con	-11540
▁मोब	-11541
गृहात	-11542
▁उलगड	-11543
▁कापून	-11544
▁सुरूच	-11545
▁लक्झरी	-11546
▁व्यावहारिक	-11547
▁शिष्यवृत्ती	-11548
ros	-11549
्रेशन	-11550
▁बनते	-11551
दारांना	-11552
▁आम्हीच	-11553
▁सर्वसाधारणपणे	-11554
ूनही	-11555
▁तोटा	-11556
▁ग्रूप	-11557
▁चाललो	-11558
▁बदलणे	-11559
▁कुणालाही	-11560
▁गोष्टीची	-11561
▁मोठ्याने	-11562
▁वडिलांच्या	-11563
ईत	-11564
िग	-11565
केल	-11566
बॉय	-11567
ject	-11568
ळाशी	-11569
▁	-11570
ा	-11571
्	-11572
त	-11573
र	-11574
े	-11575
ी	-11576
क	-11577
य	-11578
ल	-11579
ह	-11580
न	-11581
स	-11582
व	-11583
म	-11584
ि	-11585
प	-11586
च	-11587
ं	-11588
.	-11589
ण	-11590
आ	-11591
ो	-11592
द	-11593
ु	-11594
ज	-11595
ग	-11596
श	-11597
ू	-11598
ट	-11599
अ	-11600
ब	-11601
ड	-11602
,	-11603
ध	-11604
ळ	-11605
ष	-11606
ख	-11607
ठ	-11608
भ	-11609
ए	-11610
थ	-11611
घ	-11612
e	-11613
झ	-11614
फ	-11615
a	-11616
t	-11617
उ	-11618
1	-11619
0	-11620
इ	-11621
o	-11622
?	-11623
i	-11624
r	-11625
2	-11626
n	-11627
-	-11628
s	-11629
:	-11630
ॉ	-11631
)	-11632
(	-11633
ई	-11634
ॅ	-11635
ढ	-11636
l	-11637
ृ	-11638
3	-11639
ऊ	-11640
"	-11641
5	-11642
d	-11643
!	-11644
ै	-11645
4	-11646
c	-11647
u	-11648
m	-11649
g	-11650
h	-11651
9	-11652
6	-11653
8	-11654
‘	-11655
7	-11656
१	-11657
;	-11658
०	-11659
’	-11660
p	-11661
ऱ	-11662
'	-11663
ओ	-11664
y	-11665
२	-11666
S	-11667
ऑ	-11668
b	-11669
/	-11670
छ	-11671
“	-11672
A	-11673
&	-11674
C	-11675
‍	-11676
ः	-11677
ौ	-11678
P	-11679
f	-11680
ञ	-11681
T	-11682
k	-11683
९	-11684
M	-11685
v	-11686
”	-11687
w	-11688
D	-11689
५	-11690
I	-11691
ऐ	-11692
B	-11693
E	-11694
R	-11695
३	-11696
४	-11697
N	-11698
H	-11699
F	-11700
ँ	-11701
G	-11702
=	-11703
L	-11704
_	-11705
O	-11706
–	-11707
८	-11708
x	-11709
६	-11710
७	-11711
W	-11712
%	-11713
औ	-11714
U	-11715
]	-11716
[	-11717
V	-11718
K	-11719
X	-11720
z	-11721
*	-11722
+	-11723
J	-11724
Y	-11725
j	-11726
़	-11727
#	-11728
•	-11729
»	-11730
$	-11731
Q	-11732
॥	-11733
ऍ	-11734
@	-11735
Z	-11736
ऋ	-11737
£	-11738
।	-11739
q	-11740
