<unk>	0
<s>	0
</s>	0
▁ਸ	-0
▁ਕ	-1
▁ਹ	-2
▁ਦ	-3
▁ਵ	-4
▁ਨ	-5
▁ਪ	-6
▁ਅ	-7
▁ਲ	-8
▁ਮ	-9
ਾਰ	-10
▁ਜ	-11
ਤੇ	-12
▁ਇ	-13
▁ਹੈ	-14
▁ਬ	-15
▁ਤ	-16
ੂੰ	-17
ਾਂ	-18
ਸ਼	-19
▁ਵਿ	-20
ਾਲ	-21
▁ਦੇ	-22
▁ਕਰ	-23
ਾਈ	-24
▁ਨੂੰ	-25
▁ਲਈ	-26
▁ਰ	-27
in	-28
▁ਅਤੇ	-29
ਾਨ	-30
▁ਆ	-31
੍ਰ	-32
▁ਗ	-33
▁1	-34
▁2	-35
▁ਦੀ	-36
ਿਆ	-37
▁ਫ	-38
▁ਚ	-39
▁ਉ	-40
ਰੀ	-41
ੱਕ	-42
ਜ਼	-43
er	-44
on	-45
▁ਟ	-46
▁ਡ	-47
ੱਚ	-48
an	-49
▁(	-50
ਦਾ	-51
ਤਾ	-52
ਿੰ	-53
▁ਹੋ	-54
me	-55
▁ਕਿ	-56
ਾਇ	-57
▁ਵਿੱਚ	-58
▁ਖ	-59
▁C	-60
ਤੀ	-61
00	-62
at	-63
ਰਾ	-64
▁ਪ੍ਰ	-65
ਿੱ	-66
01	-67
▁ਤੁ	-68
▁ਕਰਨ	-69
▁ਸ਼	-70
it	-71
ੀਂ	-72
▁ਕੀ	-73
or	-74
▁ਦਾ	-75
▁ਨਾਲ	-76
▁ਇੱਕ	-77
ਦੇ	-78
▁ਐ	-79
ਟਰ	-80
ੋਂ	-81
es	-82
▁S	-83
▁-	-84
▁ਜਾ	-85
▁ਹਨ	-86
ੈਕ	-87
ar	-88
om	-89
▁ਇਸ	-90
ਲਾ	-91
ਿਕ	-92
ੀਨ	-93
▁ਸਕ	-94
▁ਸੰ	-95
ਾਡ	-96
st	-97
ਵੇ	-98
▁/	-99
▁ਭ	-100
ੀਆ	-101
ਸਟ	-102
▁'	-103
al	-104
▁t	-105
ੁੱ	-106
ਿਲ	-107
▁201	-108
en	-109
ame	-110
▁ਤੁਹ	-111
ੈਟ	-112
▁ਤੇ	-113
ਿੰਗ	-114
▁ਇਹ	-115
ਸ਼ਨ	-116
▁in	-117
ਟੀ	-118
ਰੇ	-119
▁P	-120
ਾਨੂੰ	-121
ਾਹ	-122
▁k	-123
▁ਕੋ	-124
ਾਪ	-125
▁ਵਿਚ	-126
▁ਯ	-127
un	-128
ion	-129
le	-130
ਲੇ	-131
▁ਸਮ	-132
ਣਾ	-133
ic	-134
ਵਾ	-135
ਿਰ	-136
▁T	-137
ਕਾਰ	-138
▁ਵਰ	-139
▁3	-140
੍ਹ	-141
ਤਰ	-142
▁ਕਰੋ	-143
▁ਵੀ	-144
▁M	-145
▁A	-146
ਲੀ	-147
▁ਨਹ	-148
ੱਖ	-149
am	-150
ਨਾ	-151
▁ਆਪ	-152
ੁੰ	-153
ਵਰ	-154
ਦੀ	-155
gm	-156
▁ਪਰ	-157
▁D	-158
▁kgm	-159
▁,	-160
..	-161
re	-162
▁c	-163
▁G	-164
▁ਜੋ	-165
ਣੇ	-166
ਾਰੇ	-167
ੈਂ	-168
ੋਲ	-169
ਿਸ	-170
ੋਰ	-171
▁ਕੰ	-172
ਫ਼	-173
ੋਗ	-174
Name	-175
ਨੀ	-176
▁ਨਹੀਂ	-177
ੰਗ	-178
ਾਡੇ	-179
▁ਮੁ	-180
▁ਤੋਂ	-181
ਡੀ	-182
ਾਮ	-183
▁s	-184
▁ਸਰ	-185
he	-186
ੁਰ	-187
▁#	-188
...	-189
ਿਹ	-190
ਜਾ	-191
ਕਸ	-192
ਪਾ	-193
▁H	-194
▁ਜਾਂ	-195
ing	-196
▁p	-197
ac	-198
is	-199
ol	-200
▁5	-201
ਾਸ	-202
▁ਸੀ	-203
▁।	-204
ੇਲ	-205
ੋਨ	-206
▁ਕਾਰ	-207
ਬਰ	-208
el	-209
ੱਟ	-210
▁B	-211
ਿਨ	-212
▁ਕੀਤਾ	-213
▁4	-214
▁ਕੇ	-215
ੀਆਂ	-216
ਬੀ	-217
▁ਘ	-218
ੋਜ	-219
ੈਨ	-220
ਸੀਂ	-221
ab	-222
ur	-223
▁L	-224
ੋਡ	-225
ੈਟੂ	-226
▁ਤੁਹਾਨੂੰ	-227
▁E	-228
men	-229
▁ਵੇ	-230
ਾਇਲ	-231
▁ਟੈਟੂ	-232
as	-233
et	-234
ਟਾ	-235
ਕੇ	-236
com	-237
ਿਤ	-238
ੰਦ	-239
▁R	-240
ੱਗ	-241
▁F	-242
ਾਈਟ	-243
▁ਕੁ	-244
ਸੀ	-245
▁w	-246
▁ਪੰ	-247
ed	-248
▁I	-249
▁ਆਪਣੇ	-250
ro	-251
▁ਈ	-252
▁"	-253
▁d	-254
ਣੀ	-255
▁ਇੰ	-256
▁_	-257
ੂਰ	-258
ਪਰ	-259
ਡਰ	-260
il	-261
▁f	-262
ੁਣ	-263
us	-264
ਨਲ	-265
▁ਡਾ	-266
▁ਵਰਤ	-267
ਗਾ	-268
▁ਨੇ	-269
ੁਆ	-270
▁N	-271
▁W	-272
▁ਹੋਰ	-273
▁ਗਿਆ	-274
ਕੀ	-275
▁ਛ	-276
ment	-277
ਅਰ	-278
▁n	-279
ਕਾ	-280
ਮੀ	-281
ੈਸ	-282
▁ਰਹ	-283
▁ਵੱ	-284
ੌਰ	-285
ੇਸ਼	-286
▁b	-287
▁ਸਿ	-288
ਉਣ	-289
▁ਇਕ	-290
ਾਈਨ	-291
▁&	-292
▁ਜ਼	-293
▁ਕਿਸ	-294
ੋਟ	-295
ad	-296
▁ਫਾਇਲ	-297
op	-298
ag	-299
▁ਲੋ	-300
and	-301
▁0	-302
▁ਸਾਡੇ	-303
ੇਟ	-304
ot	-305
ਾਗ	-306
ਕਰ	-307
ec	-308
▁ਜਾਣ	-309
▁ਤੁਸੀਂ	-310
▁O	-311
▁ਜੇ	-312
▁ਪਹ	-313
▁U	-314
▁ਸੁ	-315
▁ਨਿ	-316
tion	-317
▁ਬਹ	-318
▁6	-319
ਆਂ	-320
▁h	-321
ਮਾ	-322
ia	-323
ity	-324
▁ਉਤ	-325
ਾਰੀ	-326
20	-327
▁ਪੰਜਾ	-328
▁8	-329
ut	-330
▁ਬਹੁ	-331
ਵਾਂ	-332
ਪਾਦ	-333
▁ਉਹ	-334
▁m	-335
▁ਸਟ	-336
▁K	-337
▁ਸਹ	-338
▁ਹੀ	-339
▁ਡਿ	-340
▁ਪੰਜਾਬੀ	-341
▁ਸਕਦਾ	-342
▁ਧ	-343
▁ਪਾ	-344
▁ਕੋਈ	-345
omment	-346
▁ਵਾਲ	-347
▁ਉੱ	-348
ri	-349
of	-350
▁ਉਤਪਾਦ	-351
ੇਜ	-352
▁ਮੁੱ	-353
ਕਾਰੀ	-354
ੈਕਟ	-355
▁ਸਾ	-356
▁ਵੇਖ	-357
▁ਲਿ	-358
ਯੋਗ	-359
▁ਨਾ	-360
ow	-361
ੂਲ	-362
▁ਬਹੁਤ	-363
▁ਖੇ	-364
ੱਥ	-365
ch	-366
ੱਸ	-367
▁ਸਾਰੇ	-368
▁ਦੁਆ	-369
ਾਅ	-370
▁ਬਾਰੇ	-371
ਵੀ	-372
▁ਸਥ	-373
ੰਡ	-374
▁V	-375
▁7	-376
▁ਸਭ	-377
▁ਸਪ	-378
▁ਸਾਨੂੰ	-379
ੱਲ	-380
▁ਬਣਾ	-381
▁ਚਾਹ	-382
▁ਡੀ	-383
ੰਬਰ	-384
amp	-385
▁ਯੂ	-386
▁ਵਧ	-387
▁ਦੁਆਰਾ	-388
▁ਸ਼ਾਮ	-389
▁ਮੋ	-390
▁ਅਸ	-391
ਜੀ	-392
▁...	-393
▁ਤੌਰ	-394
000	-395
ਕਲ	-396
▁ਉਸ	-397
ਵਾਈ	-398
ਵੇਂ	-399
mm	-400
▁–	-401
▁ਜੀ	-402
ਦਰ	-403
ay	-404
▁ਏ	-405
▁@	-406
▁ਵੈ	-407
▁ਅਨ	-408
▁ਟੈ	-409
▁ਮਹ	-410
em	-411
▁l	-412
ੱਬ	-413
▁ਤੁਹਾਡੇ	-414
▁g	-415
▁$	-416
ਬੰ	-417
ੁਕ	-418
▁ਮਸ਼	-419
ਾਤ	-420
▁%	-421
50	-422
ਿਟ	-423
▁ਮੈਨ	-424
▁the	-425
▁ਸਕਦੇ	-426
id	-427
▁ਕੀਤੀ	-428
▁ਦਿੱ	-429
▁9	-430
gt	-431
੍ਹਾਂ	-432
ੁਰੂ	-433
▁ਥ	-434
ation	-435
ਿਆਂ	-436
▁X	-437
▁12	-438
ੇਨ	-439
-1	-440
▁ਤੱਕ	-441
ਬਲ	-442
ਨਲੋਡ	-443
ਹਾ	-444
▁ਮੌ	-445
▁ਉਪ	-446
ang	-447
fo	-448
ir	-449
▁10	-450
ਲਾਈ	-451
▁ਕੰਮ	-452
201	-453
ਬੰਧ	-454
ੈਲ	-455
ess	-456
ਿਪ	-457
oo	-458
ੇਸ	-459
ੈੱਟ	-460
▁ਰਹੇ	-461
▁ਨਿਰ	-462
ੜੀ	-463
ਿਊ	-464
ਿਸ਼	-465
▁ਚੀਨ	-466
▁+	-467
▁ਰਾ	-468
▁J	-469
▁ਹੁੰ	-470
▁ਮਸ਼ੀਨ	-471
ਦਾਰ	-472
ਨੇ	-473
ਮੇਲ	-474
ter	-475
ਕਸ਼	-476
▁ਪਹਿਲ	-477
▁ਤਾਂ	-478
ਧਾਰ	-479
▁ਆਈ	-480
jab	-481
Comment	-482
▁ਖੋਜ	-483
ਿਆਰ	-484
os	-485
unjab	-486
▁ਜਾਣਕਾਰੀ	-487
.0	-488
▁ਕੁਝ	-489
▁ਓ	-490
▁a	-491
▁20	-492
ist	-493
ਸਤ	-494
ਡੀਓ	-495
▁info	-496
▁ਪੀ	-497
ੋਰਟ	-498
▁ਕਲ	-499
▁ਕੰਪ	-500
ਸਟਮ	-501
ਜੇ	-502
ਾਪਤ	-503
ੜੇ	-504
▁2018	-505
▁ਜਦ	-506
▁ਡਾਊ	-507
ul	-508
ਿਹਾ	-509
▁ਗਲ	-510
▁ਸਿਰ	-511
ਵੇਗਾ	-512
ੰਤ	-513
ੁੱਕ	-514
▁ਕਰਦਾ	-515
um	-516
ਰਮ	-517
ੰਤਰ	-518
ran	-519
▁ਸੇ	-520
ਿਵ	-521
ਫ਼ਤ	-522
▁ਵਿਸ਼	-523
10	-524
ੋਮ	-525
▁ਚੋ	-526
▁ਡਾਊਨਲੋਡ	-527
ਗੀ	-528
ਜ਼ਰ	-529
ip	-530
ਾਈਲ	-531
▁ਸ਼ਾਮਲ	-532
▁ਹਾਂ	-533
ra	-534
ਾਇਆ	-535
▁ਸਾਲ	-536
▁ਕਾਲ	-537
tt	-538
her	-539
▁ਸ਼ੁਰੂ	-540
▁name	-541
▁to	-542
ਪੀ	-543
▁ਅੱ	-544
▁ਮੇ	-545
ੇਸ਼ਨ	-546
ਜੂ	-547
▁ਨਵ	-548
ig	-549
ex	-550
▁ਮੁਫ਼ਤ	-551
▁ਉੱਤੇ	-552
ਮਾਨ	-553
City	-554
▁ਰੰਗ	-555
▁ਪੂ	-556
ਬਾ	-557
ਭਾ	-558
▁ਵੱਧ	-559
▁ਪੇਸ਼	-560
ਯੂ	-561
ਾਇਰ	-562
ou	-563
▁ਲੈ	-564
▁of	-565
▁ਰੱਖ	-566
▁ਮੁੱਖ	-567
▁ਸੂ	-568
▁ਕਿਸੇ	-569
▁st	-570
ਉਂ	-571
▁ਵੱਖ	-572
▁ਮਾਰ	-573
▁*	-574
▁ਮੈ	-575
▁ਮੈਂ	-576
ਰੋ	-577
ers	-578
▁ਪ੍ਰਾਪਤ	-579
▁ਪੈ	-580
▁ਰੂ	-581
▁ਚੋਣ	-582
▁ਕਰਦੇ	-583
ਮਤ	-584
▁ਲੇ	-585
▁ਵਰਤੋਂ	-586
ਾਨੀ	-587
oun	-588
ਪਰਕ	-589
▁ਮੈਨੂੰ	-590
ate	-591
▁ਚੁਣ	-592
▁ਨਾਂ	-593
ਜ਼ੀ	-594
ਿੱਕ	-595
▁ਸੋ	-596
▁ਕਰਨਾ	-597
▁ਬੀ	-598
iv	-599
ind	-600
▁ਰਿਹਾ	-601
▁un	-602
▁ਚਿੱ	-603
▁ਅਨੁ	-604
▁ਸੰਪਰਕ	-605
ent	-606
▁ਬਦ	-607
▁ਟਰ	-608
▁ਦਿਨ	-609
▁ਲਾਗ	-610
▁ਬਣ	-611
▁ਪੋ	-612
▁ਲੋੜ	-613
.5	-614
▁ਵਾਰ	-615
ੱਡ	-616
▁ਸਿਸਟਮ	-617
▁ਮਿਲ	-618
ਿਡ	-619
▁ਸਵ	-620
if	-621
ਚਨਾ	-622
ong	-623
ੜ੍ਹ	-624
▁ਵਿਕ	-625
▁ਅਗ	-626
ੰਦਰ	-627
.1	-628
▁ਪੱ	-629
30	-630
ਸਾ	-631
▁ਐਕਸ	-632
ਸ਼ੀ	-633
▁ਕਾਪ	-634
▁ਘੱਟ	-635
ਜਨ	-636
▁ਦੋ	-637
ack	-638
ਾਡੀ	-639
▁ਸੇਵਾ	-640
▁2019	-641
▁ਜਨ	-642
▁Name	-643
▁ਫੋਨ	-644
ਟੇ	-645
▁2017	-646
▁ਖੇਡ	-647
▁ਕਿਸਮ	-648
ast	-649
▁for	-650
ਾਰਮ	-651
ਾਲੀ	-652
th	-653
▁ਦਰ	-654
ਐਸ	-655
▁ਟੀ	-656
▁ਦਿ	-657
▁19	-658
▁ਮੌਜੂ	-659
ਿੰਟ	-660
▁ਆਰ	-661
▁ਠ	-662
▁US	-663
ਨਾਂ	-664
ce	-665
▁ਕੈ	-666
▁.	-667
ob	-668
▁ਭਾਰ	-669
ttp	-670
▁ਤਕ	-671
▁ਕਮ	-672
▁ਹਰ	-673
ਥੇ	-674
ount	-675
▁ਵਾ	-676
▁ਅਧ	-677
.2	-678
ਖਿਆ	-679
▁ਰੀ	-680
▁©	-681
▁ਅਸੀਂ	-682
ap	-683
▁ਸੰਭ	-684
▁ਸੁਰ	-685
ਾਅਦ	-686
ੋਕ	-687
ਸਾਈਟ	-688
▁ਝ	-689
▁ਵਧੀਆ	-690
▁ਹੋਣ	-691
▁ਬਾਅਦ	-692
▁ਐਪ	-693
▁ਤਰ	-694
ੀਰ	-695
ੱਤ	-696
im	-697
ਅਮ	-698
ine	-699
▁200	-700
▁ਕਰਕੇ	-701
oc	-702
punjab	-703
80	-704
ਕਟ	-705
-2	-706
60	-707
ੇਂ	-708
ts	-709
▁ਜਿਸ	-710
▁ਐਲ	-711
ਕਿ	-712
▁ਚਾਹੁੰ	-713
ੈਂਟ	-714
▁ਅਪ	-715
▁ਹਟਾ	-716
ub	-717
▁ਔ	-718
ਨਲਾਈਨ	-719
▁v	-720
ਨ੍ਹਾਂ	-721
▁:	-722
▁ਪਿ	-723
▁ਐਸ	-724
od	-725
▁ਲੋਕ	-726
ਵਰੀ	-727
ਾਰਕ	-728
qu	-729
ੋਤ	-730
age	-731
option	-732
▁ਵੇਖੋ	-733
ੁੱਲ	-734
ew	-735
ਿਹਤ	-736
▁ਜਾਵੇਗਾ	-737
▁ਗਰ	-738
ਫਟ	-739
▁ਪਲ	-740
▁24	-741
12	-742
▁ਲੰ	-743
ell	-744
▁ਮਾਡ	-745
▁ਵਿਚਾਰ	-746
▁ਨਕਸ਼	-747
▁ਯੋਗ	-748
ੈਕਸ	-749
ov	-750
▁ਚਿੱਤਰ	-751
▁ਬਦਲ	-752
▁ਉੱਚ	-753
▁ਭੇਜ	-754
▁ਲਾ	-755
▁and	-756
art	-757
▁unit	-758
▁15	-759
▁ਹਾਲ	-760
ੱਥੇ	-761
ੰਨ	-762
:/	-763
):	-764
ਖਾ	-765
▁ਮੀ	-766
ਡਾ	-767
▁ਅਮ	-768
://	-769
▁ਵੀਡੀਓ	-770
▁ਸਹਾਇ	-771
ੱਗੇ	-772
▁ਪਹਿਲਾਂ	-773
▁Y	-774
lt	-775
▁ਕੰਪਨੀ	-776
▁100	-777
hat	-778
▁r	-779
▁ਫੋਲ	-780
▁ਬਣਾਉਣ	-781
▁ਸਿਹਤ	-782
▁ਮਨ	-783
▁ਮਾਡਲ	-784
▁ਬੰਦ	-785
eg	-786
▁re	-787
▁ਬਾਹ	-788
ort	-789
ak	-790
▁ਆਮ	-791
ਭਾਵ	-792
ਗੇ	-793
▁ਸਟੀ	-794
▁ਆਕਾਰ	-795
▁ਦੀਆਂ	-796
▁2016	-797
▁ਪੋਸਟ	-798
ep	-799
ਿਤੀ	-800
86	-801
▁ਗਈ	-802
▁ਕਾ	-803
▁ਚਾਹੀ	-804
▁ਬਾ	-805
▁ਕਲਾ	-806
▁ਫੋਲਡਰ	-807
40	-808
ਜ਼ਾ	-809
▁ਸੁਰੱਖ	-810
ੰਡੋ	-811
ਗਤ	-812
ਮਰ	-813
ਵਾਦ	-814
▁ਭਾ	-815
ਚਰ	-816
▁(1	-817
ੀਨੀ	-818
ਵੇਅਰ	-819
▁ਬੇ	-820
▁ਹੇ	-821
ਖਣ	-822
ਫਿਕ	-823
ਦਦ	-824
▁am	-825
ik	-826
▁ਵੈੱਬ	-827
ਟਰੀ	-828
▁y	-829
ਰਤ	-830
ਿਣ	-831
▁ਖੇਤਰ	-832
▁ਪਤਾ	-833
ਗਰ	-834
▁ਦਿੱਤਾ	-835
ian	-836
▁18	-837
▁http	-838
uc	-839
▁ਬਲ	-840
ੂਨ	-841
ain	-842
▁Con	-843
▁ਵਿਆ	-844
▁ਢ	-845
est	-846
▁ਸਿੱ	-847
ਅਨ	-848
▁ਫਰ	-849
ਸਾਰ	-850
▁11	-851
ਇਨ	-852
▁Z	-853
▁ਤਿਆਰ	-854
▁ਸਰਵਰ	-855
▁ਚਾਹੁੰਦੇ	-856
▁ਗ੍ਰ	-857
▁ਵਿੰਡੋ	-858
ਿੱਪ	-859
ly	-860
▁Sh	-861
▁ਨੰਬਰ	-862
▁ਖੋਲ	-863
▁ਗਲਤੀ	-864
▁ਕੋਡ	-865
▁ਚੁਣੋ	-866
▁ਡਾਟਾ	-867
▁ਉਦ	-868
▁ਜਦੋਂ	-869
▁ਸੁਨੇ	-870
up	-871
▁ਇੱਥੇ	-872
▁ਵਾਲੇ	-873
ਰਾਮ	-874
▁it	-875
ਕਤੀ	-876
ond	-877
▁[	-878
▁In	-879
▁ਹੁਣ	-880
rans	-881
ਕੋ	-882
▁ਮਾ	-883
▁ਮੋਬ	-884
▁ਉਨ੍ਹਾਂ	-885
ਵਾਨ	-886
▁e	-887
ਿਮ	-888
▁ਹਿੱ	-889
▁ਕ੍ਰ	-890
(_	-891
▁ਪਾਸ	-892
▁ਤਾ	-893
▁ਦਸ	-894
▁ਅੰਦਰ	-895
▁ਸਿਰਫ	-896
ਾਡਾ	-897
-0	-898
▁30	-899
▁ਪੈਕ	-900
▁ਜੁ	-901
▁ਹੇਠ	-902
og	-903
▁Q	-904
ਤਮ	-905
:%	-906
▁ਕੋਲ	-907
▁ਇੰਟਰ	-908
▁ਗਏ	-909
ਵਲ	-910
ਂਡ	-911
ਦੇਸ਼	-912
ਬੇ	-913
▁ਡਰ	-914
▁Comment	-915
AN	-916
ਮੇ	-917
ox	-918
ric	-919
▁ਪਲੇ	-920
ੀਕ	-921
ਸ਼ਾ	-922
ਬੁੱਕ	-923
av	-924
▁ਪੁ	-925
▁ਫੀ	-926
optional	-927
15	-928
ਿਆਨ	-929
▁ਜਾਂਦਾ	-930
eat	-931
▁ਕੀਤੇ	-932
▁ਮੌਜੂਦਾ	-933
one	-934
ile	-935
▁ਛੱਡ	-936
▁ਡਿਜ਼	-937
▁ਪੜ੍ਹ	-938
▁ਸਰੋਤ	-939
ੱਗਰੀ	-940
▁ਉਪਲ	-941
▁St	-942
ੀਰਾਈਟ	-943
▁ਮੁੜ	-944
ਡੇ	-945
▁ਕਾਪੀਰਾਈਟ	-946
ੈਕਟਰੀ	-947
▁ਸਮਰ	-948
▁ਸੰਰ	-949
ਾਰਡ	-950
ਸੇ	-951
ੋਜੀ	-952
▁ਆਟ	-953
ੁੱਟ	-954
ਇਆ	-955
▁£	-956
▁ਸਨ	-957
ਕਤ	-958
yp	-959
▁ਆਨਲਾਈਨ	-960
ਾਈਡ	-961
▁ਪਿਛ	-962
▁ਡਿਸ	-963
ਅਲ	-964
▁ਅਲ	-965
ਟਲ	-966
.3	-967
▁ਅੱਗੇ	-968
▁Ch	-969
sh	-970
▁ਹੁੰਦਾ	-971
ਾਈਪ	-972
ੋਸ	-973
▁ਮੁੱਲ	-974
ਐੱ	-975
ard	-976
▁ਲੱ	-977
▁ਸਤ	-978
▁ਸਹਿ	-979
▁ਸੰਭਾਲ	-980
ਅਤ	-981
ੁਨ	-982
ਾਲਰ	-983
ਵੱ	-984
ਚਾਰ	-985
▁2015	-986
ਰਨ	-987
▁ਅਣ	-988
ਰੀਕਾ	-989
▁ਫਿਲ	-990
▁ਉਦਯੋਗ	-991
▁ਤਬ	-992
▁ਪੁੱ	-993
▁ਰੂਪ	-994
▁ਆਪਣੀ	-995
our	-996
.9	-997
eb	-998
▁ਸਮੱਗਰੀ	-999
ail	-1000
11	-1001
▁ਵੈਬ	-1002
XL	-1003
▁ਫਾਇਲਾਂ	-1004
▁ਕੀਮਤ	-1005
▁50	-1006
▁ਸਫ਼	-1007
ਰੀਨ	-1008
▁ਕਿਰ	-1009
▁ਸੰਰਚਨਾ	-1010
▁ਇਲਾ	-1011
▁ਚੰਗ	-1012
▁ਮਦਦ	-1013
▁ਟਰੈਕ	-1014
▁ਆਸ	-1015
▁ਖੁ	-1016
▁16	-1017
able	-1018
▁ਖ਼	-1019
▁ਗੁਣ	-1020
▁ਪੇ	-1021
▁ਮੇਲ	-1022
are	-1023
▁ਸਾਈਟ	-1024
▁ਚਾਹੀਦਾ	-1025
ਟੀਫਿਕ	-1026
ਪੂਰ	-1027
▁ਨਿਰਮਾ	-1028
▁ਕਈ	-1029
▁ਅੱਪ	-1030
ੈਮ	-1031
ਬਾਰ	-1032
▁ਫਾਰਮ	-1033
ਦਾਨ	-1034
▁ਫੇਸ	-1035
ht	-1036
ਮੈਂਟ	-1037
▁ਡਾਲਰ	-1038
ਾਹਕ	-1039
▁ਸੈਟ	-1040
▁ਪੋਰਟ	-1041
▁ਨੀ	-1042
▁ਅਜ	-1043
▁ਪੂਰੀ	-1044
▁ਸਮੇਂ	-1045
ਵਿ	-1046
▁ਰੋ	-1047
ill	-1048
▁ਸਲਾ	-1049
▁ਸਟੀਲ	-1050
▁ac	-1051
▁ਨਿਯ	-1052
▁13	-1053
▁ਇਨ	-1054
▁ਘਰ	-1055
▁ਵਿਸ਼ੇਸ਼	-1056
ਵਰਕ	-1057
ener	-1058
ਾਰਟ	-1059
▁ਚਲਾ	-1060
ਿੰਨ	-1061
▁ਸਾਫਟ	-1062
ਟਿੰਗ	-1063
int	-1064
▁ਮੇਰੇ	-1065
ਚੀ	-1066
▁ਤਬਦੀ	-1067
▁ਪਸ	-1068
▁ਦੌਰ	-1069
200	-1070
▁ਖੋਲ੍ਹ	-1071
ੈਰ	-1072
ld	-1073
▁ਫੇਸਬੁੱਕ	-1074
▁ਨਾਮ	-1075
ਡੇਟ	-1076
▁ਜੇਕਰ	-1077
▁USA	-1078
▁ਬਾਲ	-1079
indow	-1080
PS	-1081
▁ਮੋਬਾਈਲ	-1082
ੱਪ	-1083
itle	-1084
▁14	-1085
his	-1086
▁ਦਿੰ	-1087
▁ਵਪ	-1088
▁ਜ਼ਰ	-1089
▁ਟੈਗ	-1090
▁ਤੁਹਾਡੀ	-1091
▁ਮਹੀਨ	-1092
▁ਗੱਲ	-1093
▁ਦੂ	-1094
ect	-1095
▁ਖਾ	-1096
ear	-1097
ਿਟੀ	-1098
▁ਦੇਖ	-1099
▁ਪ੍ਰਬੰਧ	-1100
ਸਥ	-1101
iz	-1102
ੀਮ	-1103
▁ਗਾਹਕ	-1104
▁ਸਥਾਨ	-1105
▁ਲਾਈਨ	-1106
rip	-1107
▁ਜਿ	-1108
ੈੱਸ	-1109
ਪ੍ਰ	-1110
ib	-1111
▁ਜਿੱ	-1112
eather	-1113
ੈਸ਼ਨ	-1114
▁ਫੋਟ	-1115
ੈਕਸ਼ਨ	-1116
▁is	-1117
16	-1118
▁ਲੇਖ	-1119
▁ਲੱਭ	-1120
▁ਸਾਫਟਵੇਅਰ	-1121
ਵਾਰ	-1122
ੜਾ	-1123
▁ਟਿੱਪ	-1124
25	-1125
IF	-1126
▁trans	-1127
▁ਖਾਸ	-1128
ਵਨ	-1129
ੰਕ	-1130
35	-1131
▁ਦਿਓ	-1132
="	-1133
▁ਪ੍ਰਤੀ	-1134
oft	-1135
▁ਬਿ	-1136
▁ਦੌਰਾਨ	-1137
▁ਕਾਰਜ	-1138
▁units	-1139
.00	-1140
ant	-1141
▁ਵੇਰ	-1142
nd	-1143
ਟਰੋਲ	-1144
▁ਬ੍ਰ	-1145
ਹਿ	-1146
▁ਹੈਕ	-1147
ਲੀਕੇ	-1148
▁ਘੰ	-1149
▁ਬੱਚ	-1150
▁ਸਰਟੀਫਿਕ	-1151
ਧਾਰਨ	-1152
ਾਤਰਾ	-1153
▁ਬਾਹਰ	-1154
all	-1155
ਹਿਰ	-1156
ੱਧ	-1157
ies	-1158
ਚਾ	-1159
▁ਨਵਾਂ	-1160
-8	-1161
45	-1162
ੁਲ	-1163
▁ਵਰਤਿਆ	-1164
-201	-1165
SL	-1166
▁ਚਾਰ	-1167
▁amount	-1168
▁ਕਾਰਵਾਈ	-1169
▁ਈਮੇਲ	-1170
75	-1171
ਆਰ	-1172
▁ਆਦ	-1173
ud	-1174
ਮੇਸ਼	-1175
ish	-1176
ਿੱਕਰ	-1177
▁ਠੀਕ	-1178
ਥੀ	-1179
▁25	-1180
▁ਬੈ	-1181
▁ਜੰਤਰ	-1182
AT	-1183
19	-1184
▁ਪੁੱਛ	-1185
▁ਵਾਲੀ	-1186
▁pro	-1187
__	-1188
ਾਇਨ	-1189
੍ਹਾ	-1190
▁ਕੰਟਰੋਲ	-1191
▁ਫ਼	-1192
wor	-1193
▁ਪਲੱਗ	-1194
ਛਾ	-1195
ji	-1196
▁ਨੈੱਟ	-1197
▁ਕੋਰ	-1198
▁ਵਿਕਰੀ	-1199
▁ਇੰਸਟ	-1200
ial	-1201
ਨਾਲ	-1202
ਕੂ	-1203
▁us	-1204
70	-1205
▁ਫਲ	-1206
esc	-1207
ੋਰਡ	-1208
out	-1209
▁ਕੂ	-1210
▁ਸਾਰ	-1211
▁ਸੋਧ	-1212
ਵੱਤਾ	-1213
ont	-1214
),	-1215
ੁੱਧ	-1216
ry	-1217
▁ਕਿਰਪਾ	-1218
ey	-1219
▁ਕੁਨ	-1220
▁ਰੇ	-1221
▁ਸਹਿਯੋਗ	-1222
ev	-1223
ਸਪ	-1224
▁ਪਾਲ	-1225
▁ਪਰਿਵ	-1226
▁ਸਟਿੱਕਰ	-1227
▁ਤਰ੍ਹਾਂ	-1228
ੈਡ	-1229
OR	-1230
per	-1231
▁€	-1232
ੋਰਨ	-1233
▁ਹਾਈ	-1234
▁ਸਮੀ	-1235
stell	-1236
▁ਵਿਕਾਸ	-1237
▁ਪਾਣੀ	-1238
ੁੱਖ	-1239
▁2014	-1240
stellation	-1241
▁ਚੌ	-1242
ਦੀਆਂ	-1243
ਮੀਟਰ	-1244
co	-1245
▁ਭਾਗ	-1246
▁weather	-1247
▁ਵੈੱਬਸਾਈਟ	-1248
▁ਅਰ	-1249
▁ਖਰੀ	-1250
▁ਲੰਬ	-1251
▁ਪਹੁੰ	-1252
▁Constellation	-1253
ਸਰ	-1254
▁2013	-1255
nl	-1256
ੇਅਰ	-1257
▁ਪੂਰਾ	-1258
▁ਸਿਖ	-1259
ਪਨ	-1260
ੰਟ	-1261
▁ਸ਼ਾਨ	-1262
▁ਸੁਰੱਖਿਆ	-1263
▁ਸਵਾਲ	-1264
.6	-1265
▁ਵੱਡੇ	-1266
olor	-1267
28	-1268
▁ਮਿਆ	-1269
▁ਐਪਲੀਕੇ	-1270
asin	-1271
▁ਫਿਰ	-1272
ass	-1273
▁ਨੌ	-1274
▁ਟ੍ਰ	-1275
ੋਗਰਾਮ	-1276
▁ਸ਼ਾਮਿਲ	-1277
▁ਨਕਸ਼ਾ	-1278
▁ਪਰਿਵਾਰ	-1279
ug	-1280
▁ਗੁਣਵੱਤਾ	-1281
eng	-1282
-5	-1283
ੱਦ	-1284
▁ਸੈੱਟ	-1285
ਸ਼ਟਰੀ	-1286
▁title	-1287
ME	-1288
▁“	-1289
ੁੱਪ	-1290
DE	-1291
▁ਗੁ	-1292
pl	-1293
▁by	-1294
ਿਲਾ	-1295
org	-1296
ੈਂਡ	-1297
▁ਲੱਗ	-1298
▁ਸਹਾਇਕ	-1299
▁ਲਿਮ	-1300
▁ਫੋਟੋ	-1301
.4	-1302
▁ਲੋਡ	-1303
▁ਵਿਅ	-1304
orn	-1305
ਿੰਦ	-1306
▁ਯੂਰ	-1307
ਵਾਬ	-1308
ਫਲ	-1309
▁2020	-1310
▁ਸ਼ਾਨਦਾਰ	-1311
▁ਸੰਦ	-1312
ੂਰੀ	-1313
ਐਨ	-1314
ਾਨਾ	-1315
erv	-1316
▁GIF	-1317
ਟਨ	-1318
▁ਤਾਪ	-1319
▁ਸੈਟਿੰਗ	-1320
▁ਭੁ	-1321
ੈਟਿਕ	-1322
▁pl	-1323
cm	-1324
ition	-1325
▁ਰਹੀ	-1326
▁ਵੈਬਸਾਈਟ	-1327
▁ਲਿਖ	-1328
▁ਹੱਕ	-1329
ext	-1330
▁action	-1331
ਿਕਾਰ	-1332
▁x	-1333
▁ਪਾਰ	-1334
▁ਵੇਖਾ	-1335
ide	-1336
▁ਵਰਤਣ	-1337
▁ਤਾਪਮਾਨ	-1338
.8	-1339
▁17	-1340
24	-1341
ਉਟ	-1342
ੋਰੇ	-1343
ੋਨਸ	-1344
,000	-1345
▁ਆਟੋਮ	-1346
▁ਜਵਾਬ	-1347
▁ਭਾਰਤ	-1348
▁ਸਥਿਤੀ	-1349
unjabi	-1350
▁ਕਲਿੱਕ	-1351
▁=	-1352
▁ਬੈਕ	-1353
ct	-1354
ਜਰ	-1355
▁ਇਮ	-1356
▁ਕਾਰਨ	-1357
pr	-1358
ਉਣਾ	-1359
▁ਬਣਾਇਆ	-1360
NA	-1361
ਪਕ	-1362
end	-1363
ਧਰ	-1364
▁•	-1365
-3	-1366
ost	-1367
▁ਪ੍ਰਭਾਵ	-1368
▁City	-1369
ਿੱਛ	-1370
▁ਭਾਸ਼ਾ	-1371
▁ਤਕਨੀ	-1372
▁ਪਹੁੰਚ	-1373
▁ਨੈੱਟਵਰਕ	-1374
ਵਰਡ	-1375
▁ਕੋਸ਼	-1376
▁ਹਟਾਓ	-1377
ai	-1378
▁60	-1379
ਹੇ	-1380
▁ਵਾਪ	-1381
▁ਉਤਪਾਦਨ	-1382
▁ਵਰਜਨ	-1383
▁ਹੋਵੇ	-1384
att	-1385
▁ਜਾਰੀ	-1386
▁ਪਲੱਗਇਨ	-1387
indows	-1388
▁ਐਪਲੀਕੇਸ਼ਨ	-1389
▁ਲਾਗੂ	-1390
▁ਪੌ	-1391
▁ਵਿਅਕਤੀ	-1392
ਿਅਤ	-1393
ੁਕੂਲ	-1394
ਿਪਟ	-1395
▁ਪਲਾ	-1396
▁ਮਾਲ	-1397
▁transl	-1398
▁ਖਰੀਦ	-1399
ਲੋ	-1400
▁ਢੰਗ	-1401
ਡੀਆ	-1402
ਿਕਾ	-1403
▁ਬੋਨਸ	-1404
▁ਬਿੱ	-1405
▁ਨਹੀ	-1406
SS	-1407
▁item	-1408
ਸ਼ਣ	-1409
ਤਾਰ	-1410
).	-1411
ਿਸੂ	-1412
▁ਤਬਦੀਲ	-1413
▁00	-1414
▁ਨਿਊ	-1415
ੰਮ	-1416
ription	-1417
13	-1418
▁ਹੋਏ	-1419
ator	-1420
▁ਸਾਡੀ	-1421
▁ਕਰੇ	-1422
▁ਘੰਟੇ	-1423
ੜਾਈ	-1424
▁ਬਰ	-1425
land	-1426
▁ਜੂਨ	-1427
ੋਜਨ	-1428
▁ਪੋਰਨ	-1429
▁ਵਿੱਚੋਂ	-1430
ਧੀ	-1431
ree	-1432
ਾਈਵ	-1433
▁ਪ੍ਰਦਾਨ	-1434
ਪਤ	-1435
▁ਆਦਿ	-1436
▁ਦੇਸ਼	-1437
ive	-1438
ਐਕਸ	-1439
▁ਜਿਵੇਂ	-1440
▁ਫੈਕਟਰੀ	-1441
escription	-1442
▁ਆਖ	-1443
▁ਸਮਾਂ	-1444
ਾਈਮ	-1445
▁ਰਾਖ	-1446
ੈਨਲ	-1447
ਿਣਤੀ	-1448
▁ਮੁਹ	-1449
ਐਲ	-1450
ww	-1451
ਸ਼ਕ	-1452
ਗਤਾਨ	-1453
▁ਅੰਗ	-1454
▁ਹੱਲ	-1455
▁Windows	-1456
ED	-1457
▁OF	-1458
▁ਦੁ	-1459
▁ਪੇਸ਼ਕਸ਼	-1460
▁ਅਨੁਕੂਲ	-1461
▁ਭੁਗਤਾਨ	-1462
ੂਤ	-1463
ਗਲ	-1464
18	-1465
▁°	-1466
punjabi	-1467
▁com	-1468
99	-1469
ls	-1470
ome	-1471
ਵਿੱ	-1472
▁ਇੰਸਟਾਲ	-1473
▁ਸੂਚੀ	-1474
▁ਬਿਲ	-1475
▁ਦਬ	-1476
▁~	-1477
menu	-1478
▁ਡਿਸਕ	-1479
www	-1480
▁ਅੰਤਰ	-1481
▁ਹੋਇਆ	-1482
▁ਵਿਦ	-1483
ਟਿਡ	-1484
▁ਅਜਿਹ	-1485
▁ਕਿਉਂ	-1486
de	-1487
ਿਕਸ	-1488
)...	-1489
ਿੰਕ	-1490
AR	-1491
io	-1492
▁ਅੱਪਡੇਟ	-1493
ੁਣੇ	-1494
▁ਤਸ	-1495
ber	-1496
oin	-1497
▁TR	-1498
▁ਅਨੁਵਾਦ	-1499
ust	-1500
▁ਐਮ	-1501
▁ਸੱ	-1502
੍ਰੇ	-1503
▁22	-1504
▁ਦੇਣ	-1505
ੋਪ	-1506
▁ਗਿਣਤੀ	-1507
▁ਸੁਨੇਹਾ	-1508
▁on	-1509
▁Can	-1510
▁ਟਿੱਪਣੀ	-1511
2)	-1512
▁me	-1513
▁ਚੱਲ	-1514
▁ਟੈਸਟ	-1515
ਪੋਰਟ	-1516
▁ਰਾਜ	-1517
▁i	-1518
box	-1519
▁ਵਪਾਰ	-1520
▁ਕਿਹਾ	-1521
ਖੇ	-1522
੍ਯੂ	-1523
ਲਕ	-1524
▁ਹੁੰਦੇ	-1525
▁{	-1526
▁ਸਰਟੀਫਿਕੇਟ	-1527
▁ਲਿਆ	-1528
▁ਪਾਵਰ	-1529
▁ਸਮਰੱਥ	-1530
▁ਰਾਹ	-1531
ੈਪ	-1532
▁ਸਕਦੀ	-1533
ਾਈਜ਼	-1534
▁ਮੋਟਰ	-1535
▁ਨਕਸ਼ੇ	-1536
▁ਸ਼ਹਿਰ	-1537
ੱਸਿਆ	-1538
▁ਗਰੁੱਪ	-1539
se	-1540
▁ਫਾਈ	-1541
▁ਅਮਰੀਕਾ	-1542
ਕੀਜ਼	-1543
asino	-1544
ੋਫ	-1545
ash	-1546
ਕਤੂ	-1547
▁Punjabi	-1548
23	-1549
ੇਰੇ	-1550
▁ਐਕ	-1551
▁ਚੀ	-1552
▁ਜਨਵਰੀ	-1553
▁ਨਿਰਮਾਤਾ	-1554
▁ਲੀ	-1555
▁ਜਿਹ	-1556
▁ਸਮਝ	-1557
ice	-1558
ਸਥਾ	-1559
ਿਆਦਾ	-1560
▁ਕੁੰ	-1561
▁ਫਰਵਰੀ	-1562
ਕਤੂਬਰ	-1563
▁ਤੁਹਾਡਾ	-1564
90	-1565
ਤਕ	-1566
▁ਲਾਭ	-1567
▁ਜੁਲਾਈ	-1568
ith	-1569
▁ਜੀਵਨ	-1570
▁ਨਵੇਂ	-1571
ੁੰਦਰ	-1572
▁ਲੜੀ	-1573
▁ਲਿਮਟਿਡ	-1574
▁40	-1575
▁ਯੂਜ਼ਰ	-1576
ਬਨ	-1577
pp	-1578
ਕ੍ਰ	-1579
▁Ph	-1580
▁ਰਸ	-1581
▁KDE	-1582
▁ਯੂਨੀ	-1583
▁ਨਤੀ	-1584
▁ਡੈਸ	-1585
▁ਕਾਰਡ	-1586
ATOR	-1587
.7	-1588
ੱਬਧ	-1589
▁ਦਿੱਤੀ	-1590
▁Sl	-1591
ie	-1592
ਰੀਆ	-1593
▁ਤਾਜ਼ਾ	-1594
▁wor	-1595
▁ਲਾਲ	-1596
▁TRAN	-1597
▁ਐਡਰ	-1598
▁ਲਿਸਟ	-1599
▁ਦਿਲ	-1600
▁ਪੈਕੇਜ	-1601
-6	-1602
ਾਜ	-1603
▁ਉਪਲੱਬਧ	-1604
ite	-1605
▁ਲਗ	-1606
▁ਰਿਪ	-1607
ATORS	-1608
▁ਸਤੰਬਰ	-1609
SLATORS	-1610
▁TRANSLATORS	-1611
▁ਐਂ	-1612
ada	-1613
ਐੱਮ	-1614
▁ਅੰਤ	-1615
▁ਉਹਨਾਂ	-1616
ue	-1617
▁ਸੌ	-1618
▁ਸਹਾਇਤਾ	-1619
▁ਕੇਵਲ	-1620
▁ਆਟੋਮੈਟਿਕ	-1621
▁ਅਗਸਤ	-1622
IN	-1623
ਾਲੇ	-1624
▁ਮਈ	-1625
▁ਇੰਜ	-1626
▁ਕੈਲ	-1627
▁ਮਹੀਨੇ	-1628
ase	-1629
ਵੇਟ	-1630
ure	-1631
ੈਸ਼	-1632
▁ਅਕਤੂਬਰ	-1633
HF	-1634
▁ਕੇਂ	-1635
ton	-1636
▁123	-1637
▁ਹੁੰਦੀ	-1638
ਵੋ	-1639
ਣੀਆਂ	-1640
ore	-1641
ਕਟਾਪ	-1642
eneric	-1643
ਜਵਾਨ	-1644
▁ਟੈਕ	-1645
▁ਨਿੱ	-1646
14	-1647
sp	-1648
▁ਨੁ	-1649
▁ਕਿਵੇਂ	-1650
ock	-1651
▁ਫਿਲਟਰ	-1652
ੀਆਈ	-1653
▁ਵਰਗ	-1654
▁ਵੇਰਵਾ	-1655
ਧਾਨ	-1656
▁ਬਰਾ	-1657
ਵੱਖ	-1658
▁ਰੇਲ	-1659
▁ਜਾਂਚ	-1660
▁ਪਸੰਦ	-1661
▁ਬਣਾਓ	-1662
▁ਭੇਜੋ	-1663
▁ਜੋੜ	-1664
▁ਖਾਲੀ	-1665
▁ਸਕਰੀਨ	-1666
26	-1667
▁ਨ੍ਯੂ	-1668
ਬਦ	-1669
▁le	-1670
▁ਸਹੀ	-1671
▁ਪਾਈਪ	-1672
▁LED	-1673
▁ਸ਼ੀ	-1674
▁ਮਿਲੀ	-1675
▁ਟੈਲੀ	-1676
▁ਯਾਤਰਾ	-1677
▁ਤਕਨੀਕੀ	-1678
▁ਕੋਸ਼ਿਸ਼	-1679
▁ਦਿੰਦਾ	-1680
▁ਭਰ	-1681
▁ਸਿੰ	-1682
ਾਊ	-1683
▁ਡੈਸਕਟਾਪ	-1684
enericName	-1685
▁ਮੰ	-1686
▁ਸਾਹ	-1687
▁ਡਿਜ਼ਾਈਨ	-1688
.,	-1689
▁ਮੰਨ	-1690
▁ਇਲਾਜ	-1691
ੋਜੈਕਟ	-1692
▁86	-1693
abel	-1694
▁ਛੋਟ	-1695
▁ਆਖਰੀ	-1696
▁ਸਮੀਖਿਆ	-1697
▁ਜਿੱਥੇ	-1698
ym	-1699
▁ਯਕ	-1700
▁ਅਸਲ	-1701
▁ਤੁਰ	-1702
ph	-1703
▁ਕਾਰੋ	-1704
▁(3	-1705
▁ਮਾਰਚ	-1706
▁ਸਮਰੱਥਾ	-1707
ff	-1708
▁ਦਬਾਅ	-1709
▁No	-1710
▁ਲਗਾ	-1711
▁ਸਬ	-1712
▁ਸੰਚਾਰ	-1713
29	-1714
17	-1715
ਦਾਹ	-1716
▁ਜਾਓ	-1717
TM	-1718
ੰਡਰ	-1719
▁ਰੱਖੋ	-1720
ਮਾਂ	-1721
▁ਮੌਜੂਦ	-1722
▁Al	-1723
▁j	-1724
▁»	-1725
▁ਮਿੰਟ	-1726
ark	-1727
▁ਯਾ	-1728
▁what	-1729
▁ਅਪ੍ਰ	-1730
▁ਰੁ	-1731
ੇਲ੍ਹ	-1732
▁ਨਵੀਂ	-1733
ss	-1734
ਤਾਂ	-1735
▁The	-1736
▁Sp	-1737
▁ਅੱਜ	-1738
ise	-1739
▁ਸਪਲ	-1740
▁ਪਾਠ	-1741
▁ਪ੍ਰਸ	-1742
ਿਸਟ	-1743
▁ਕਨ	-1744
▁Vess	-1745
▁Vessoft	-1746
ings	-1747
ng	-1748
▁ch	-1749
▁ਚਮ	-1750
▁ਮਹੱਤ	-1751
▁al	-1752
▁ਧਿਆਨ	-1753
we	-1754
ਧਾ	-1755
ਾਂਡ	-1756
▁ਬੱਚੇ	-1757
▁ਤਕਨਾਲ	-1758
▁ਨੌਜਵਾਨ	-1759
▁ਐਨ	-1760
gle	-1761
ੈਕਟ੍ਰ	-1762
▁ਨਵੰਬਰ	-1763
▁ਕਰੇਗਾ	-1764
ina	-1765
ਾਇਡ	-1766
ਸ਼ਨੀ	-1767
▁cond	-1768
65	-1769
ਮੂ	-1770
▁ਮਿਨ	-1771
▁ਲੈਣ	-1772
ਈਆ	-1773
any	-1774
ook	-1775
▁21	-1776
▁ਰਿ	-1777
act	-1778
ਵਾਸ	-1779
▁ਝਲਕ	-1780
▁sh	-1781
ਪੂਰਨ	-1782
▁ਪੱਧਰ	-1783
ਤਲ	-1784
atch	-1785
ਪੁੱਟ	-1786
▁ਪਿਛਲੇ	-1787
ਵਰਸ	-1788
▁ਗੂ	-1789
ਸਟਿਕ	-1790
ਚੇ	-1791
ਬੋ	-1792
▁ਅਪ੍ਰੈਲ	-1793
▁ਚੌੜਾਈ	-1794
▁ਭੋਜਨ	-1795
▁ਸਥਾਪ	-1796
▁23	-1797
ਡਿੰਗ	-1798
oll	-1799
▁ਲਾਇ	-1800
"&	-1801
ਐਮ	-1802
ਵੀਰ	-1803
▁Ar	-1804
▁ਸਕਿਆ	-1805
ult	-1806
▁ਹਵਾਈ	-1807
der	-1808
ick	-1809
▁'%	-1810
▁ਪਰਬੰਧ	-1811
▁ਸੁਰੱਖਿਅਤ	-1812
▁ਬੁ	-1813
ੀਨੋ	-1814
▁ਸਪਲਾਇਰ	-1815
▁ਪ੍ਰੋਗਰਾਮ	-1816
ਕਰਣ	-1817
ੈਕਟਰ	-1818
ਤਰੀ	-1819
ੈੱਕ	-1820
▁28	-1821
▁label	-1822
uk	-1823
▁ਛੁ	-1824
▁ਅੱਖ	-1825
ਲੇਟ	-1826
▁ਕੱਟ	-1827
▁ਸਰਕਾਰ	-1828
▁ਪਾਸਵਰਡ	-1829
ਹਾਜ਼	-1830
ਜਲੀ	-1831
▁ਟਾਈਮ	-1832
▁ਕੁੰਜੀ	-1833
:00	-1834
▁ਗਤੀ	-1835
▁ਸੈਂ	-1836
ver	-1837
▁ਸਪਲਾਈ	-1838
▁ਕੁਨੈਕਸ਼ਨ	-1839
▁ਮਿਤੀ	-1840
▁ਮਿੱ	-1841
ਜ਼ੇ	-1842
▁ਰੋਕ	-1843
74	-1844
ਫੋਨ	-1845
ਾਇਟ	-1846
੍ਰੀ	-1847
atus	-1848
▁ਤਰੀ	-1849
▁ਡਾਇਰ	-1850
▁ਸਲਾਟ	-1851
ੂਮ	-1852
hen	-1853
ੱਡੀ	-1854
ਕਾਸ਼	-1855
▁ਬਦਲੋ	-1856
▁ਅਜਿਹੇ	-1857
▁ਦਸੰਬਰ	-1858
▁×	-1859
▁ਗੋਲ	-1860
ype	-1861
ਾਂਸ	-1862
▁ਵਿਗ	-1863
SO	-1864
ef	-1865
▁GPS	-1866
ਹਿੰ	-1867
ਫੀ	-1868
ਲਾਸ	-1869
▁ਸਰਵ	-1870
ਾਲਾ	-1871
▁ਹਿੱਸੇ	-1872
▁ਓਪ	-1873
▁ਮੂਲ	-1874
▁ਰੋਡ	-1875
▁ਮਹੱਤਵ	-1876
ਖ਼	-1877
▁ਤੋ	-1878
76	-1879
ੈਗ	-1880
▁z	-1881
rig	-1882
ਤਾਬ	-1883
▁ਪੂਰ	-1884
▁ਲੰਬਾਈ	-1885
▁ਕਿਉਂਕਿ	-1886
▁ਸਮੱਸਿਆ	-1887
ੇਰ	-1888
▁ਨਿੱਜੀ	-1889
▁ਅਨੁਸਾਰ	-1890
irls	-1891
▁ਟੂਲ	-1892
▁ਗੁਰੂ	-1893
▁ਮੱ	-1894
▁ਲਾਈਟ	-1895
▁ਹਮੇਸ਼	-1896
▁ਯੂਨੀਵਰਸ	-1897
ਹੀ	-1898
ਤਾਵੇ	-1899
sthis	-1900
▁ਕੁੱਲ	-1901
▁ਪੁਰਾ	-1902
▁whatsthis	-1903
▁ਟੇ	-1904
▁ਰਾਖਵੇਂ	-1905
ets	-1906
▁ਇਲ	-1907
ੋਜਨਾ	-1908
▁ਜਹਾਜ਼	-1909
ah	-1910
ਬਧ	-1911
▁ਚਾਲ	-1912
▁ਲਿੰਕ	-1913
ਰੀਜ਼	-1914
ੇਟਿੰਗ	-1915
ru	-1916
ੋਰੀ	-1917
▁ਸੁਨੇਹੇ	-1918
▁ਤਕਨਾਲੋਜੀ	-1919
▁ਵਿਸ਼ੇਸ਼ਤਾ	-1920
▁ਵਧਾ	-1921
▁ਪਹਿਲੀ	-1922
▁ਮੈਨੇਜ	-1923
▁ਜ਼ਰੂਰੀ	-1924
▁condition	-1925
▁ਮਾਪ	-1926
▁ਸਫ਼ਾ	-1927
▁ਹੋਈ	-1928
▁ਗਲਤ	-1929
▁ਭਰੋ	-1930
▁ਇਕੱ	-1931
▁ਕਾਲੇ	-1932
▁ਵਾਪਸ	-1933
▁ਸਧਾਰਨ	-1934
▁ਬਾਲਗ	-1935
▁ਪਲਾਸਟਿਕ	-1936
ram	-1937
rance	-1938
▁ਕਰਦੀ	-1939
▁ਸ਼ਬਦ	-1940
▁ਡਿਜ਼ਾਇਨ	-1941
▁ਥੀਮ	-1942
▁ਸਿਲ	-1943
▁ਕਾਰੋਬਾਰ	-1944
ok	-1945
ਨੂੰ	-1946
▁you	-1947
ech	-1948
ress	-1949
▁ਸਬੰਧ	-1950
▁ਸੰਭਾਲੋ	-1951
▁ਤਸਵੀਰ	-1952
▁ਬਿਜਲੀ	-1953
98	-1954
ਿੱਚ	-1955
▁ww	-1956
▁www	-1957
▁ਸੰਬੰਧ	-1958
-4	-1959
eger	-1960
▁ਲੋਕਾਂ	-1961
ਅੱਪ	-1962
ਰੀਰ	-1963
▁ਉਮਰ	-1964
▁ਉਪਲਬਧ	-1965
▁ਵਧੇਰੇ	-1966
▁Casino	-1967
▁ਟੀਮ	-1968
▁CD	-1969
▁500	-1970
▁ਕਾਨੂੰ	-1971
▁ਦਿੱਤੇ	-1972
▁ਯਕੀਨੀ	-1973
▁ਦਸਤਾਵੇ	-1974
21	-1975
ੰਸ	-1976
▁ਡੇ	-1977
oogle	-1978
▁ਨੁਕਸ	-1979
ight	-1980
▁ਪੈਦਾ	-1981
▁ਪ੍ਰਬੰਧਨ	-1982
HFW	-1983
ire	-1984
▁ਕੇਂਦਰ	-1985
ਲਟੀ	-1986
▁ਸਰਕਾਰੀ	-1987
ਿਸਟਰ	-1988
TS	-1989
ref	-1990
▁ਵਜ	-1991
integer	-1992
▁ਟਿਊ	-1993
ਕਾਨ	-1994
ਬੱਧ	-1995
▁1.	-1996
ime	-1997
ੈਂਕ	-1998
▁ਯੂਨ	-1999
▁ਫੇਲ੍ਹ	-2000
ach	-2001
▁Canada	-2002
uss	-2003
▁ਸੁੰਦਰ	-2004
iew	-2005
▁ਆਵਾ	-2006
▁ਕਵਰ	-2007
▁Pl	-2008
▁ਬਟਨ	-2009
▁ਵੱਡਾ	-2010
▁ਤਰੀਕੇ	-2011
▁ਛੋ	-2012
▁ਲੜ	-2013
▁ਧੰਨ	-2014
▁ਮਾਸ	-2015
ਪਾਓ	-2016
▁ਛੋਟੇ	-2017
▁ਵਿਆਪਕ	-2018
ਂਟ	-2019
▁ਲਿਖਣ	-2020
ਸ਼ਲ	-2021
▁ਤਜਰ	-2022
▁ਇੰਟਰਨ	-2023
▁ਨਿਗਰ	-2024
▁ਯੋਜਨਾ	-2025
▁ਰਾਸ਼ਟਰੀ	-2026
yn	-2027
ਲੋਂ	-2028
▁ph	-2029
ੈਸੀਨੋ	-2030
▁ਵੱਡੀ	-2031
▁ਮਿਆਰੀ	-2032
▁ਚੇ	-2033
▁ਆਈਟ	-2034
▁ਮੰਗ	-2035
▁ਇਮੋਜੀ	-2036
▁ਕੂਕੀਜ਼	-2037
▁ਪੈਸ	-2038
27	-2039
▁ਕੋਰਸ	-2040
▁ਸਰਵਿਸ	-2041
▁ਯੂਨੀਵਰਸਿਟੀ	-2042
33	-2043
55	-2044
▁ਬੁੱਕ	-2045
emo	-2046
▁ਰਜ	-2047
▁ਵੇਖਣ	-2048
▁ਜਾਂਦੀ	-2049
oad	-2050
▁Com	-2051
▁ਜ਼ਿਆਦਾ	-2052
▁ਉਦਯੋਗਿਕ	-2053
▁ਕਦੇ	-2054
▁ਮਾਈ	-2055
LO	-2056
▁ਜ਼ਿਲ	-2057
▁ਤਿੰਨ	-2058
▁ਪਿਆਰ	-2059
ood	-2060
ਾਂਗ	-2061
▁ਫੀਚਰ	-2062
▁ਹਾਲਤ	-2063
▁ਸੁਧਾਰ	-2064
▁ਐਡਰੈੱਸ	-2065
ਰਾਕ	-2066
▁sp	-2067
▁ਦਸਤਾਵੇਜ਼	-2068
yl	-2069
▁ਔਰਤ	-2070
▁ਟੈਟੂਕ	-2071
--	-2072
ਾਈਵੇਟ	-2073
▁ਮਾਰਕੀ	-2074
▁ਮੈਨੇਜਰ	-2075
ਮਾਣ	-2076
▁ਵਜੋਂ	-2077
ਭੋਗ	-2078
▁ਨਿਸ਼	-2079
opy	-2080
▁ਚੀਜ਼	-2081
ਿੱਧ	-2082
▁ਪ੍ਰੀ	-2083
▁ਸੰਭਵ	-2084
:0	-2085
ux	-2086
▁ਅੰਕ	-2087
ੋਲਟ	-2088
▁ਤੁਰੰਤ	-2089
▁ਅਧਿਕਾਰ	-2090
▁ਸਿਖਲਾਈ	-2091
▁26	-2092
▁ਬਲਾ	-2093
▁ਟਿਕਾ	-2094
▁ਟੈਕਸਟ	-2095
ੌਲ	-2096
ਾਰਾ	-2097
▁Hol	-2098
▁ਸਾਂ	-2099
obile	-2100
▁ਦਵਾਈ	-2101
▁ਵਿਕਸ	-2102
▁ਹਾ	-2103
▁ਬਾਰ	-2104
▁ਪਲੇਟ	-2105
emoji	-2106
▁ਸ਼ੇਅਰ	-2107
▁ਹੋਸਟ	-2108
▁ਜ਼ਰੂਰ	-2109
▁ਓਪਰੇ	-2110
ਛਾਣ	-2111
▁Pro	-2112
erm	-2113
ool	-2114
▁ਛੁਪਾਓ	-2115
▁ਸ਼੍ਰੇ	-2116
▁ਸੰਸਾਰ	-2117
ੋਂਟ	-2118
ਉਂਦਾ	-2119
▁ਵਜੇ	-2120
▁ਪੇਸ਼ੇ	-2121
ਜ਼ਨ	-2122
▁ਕਾਪੀ	-2123
▁ਵੇਖਾਓ	-2124
▁ਹਿੱਸਾ	-2125
▁ਸੰਗੀ	-2126
orm	-2127
ਕਰਨ	-2128
▁ਮੀਟਰ	-2129
ਪੇ	-2130
ਰਚ	-2131
.201	-2132
▁ਕੈਮ	-2133
▁ਥਾਂ	-2134
▁ਮੁਹੱ	-2135
▁ਸਲਾਹ	-2136
▁ਹੇਠਾਂ	-2137
59	-2138
▁ਤੇਲ	-2139
▁ਆਡੀਓ	-2140
▁ਭਲਾਈ	-2141
▁ਰੱਖਣ	-2142
▁https	-2143
▁ਚੈੱਕ	-2144
▁ਹਾਰਡ	-2145
▁ਉਪਭੋਗ	-2146
ਫਰ	-2147
▁world	-2148
RL	-2149
▁do	-2150
▁ਸਾਡਾ	-2151
▁ਸੀਮਾ	-2152
GenericName	-2153
ix	-2154
real	-2155
▁ਬਿਨ	-2156
▁ਇਲੈਕਟ੍ਰ	-2157
▁XX	-2158
▁ਜਾਵੇ	-2159
38	-2160
▁be	-2161
▁ਸਿਟੀ	-2162
▁ਹੋਣਾ	-2163
▁ਪੋਰਟਲ	-2164
▁ਸੰਗੀਤ	-2165
▁ਨਿਗਰਾਨੀ	-2166
ਫਤ	-2167
ines	-2168
▁ਸਰੀਰ	-2169
ace	-2170
▁ਜਰ	-2171
▁ਉਦਾਹ	-2172
▁ਮੁਹੱਈਆ	-2173
ਗਰੀ	-2174
▁ਰਾਹੀਂ	-2175
▁ਰਿਕ	-2176
ਫ਼ੀ	-2177
▁ਆਉਟ	-2178
ania	-2179
▁ਜਾਂਦੇ	-2180
▁ਪ੍ਰੋਜੈਕਟ	-2181
▁ਸੁਝ	-2182
az	-2183
ਲੂ	-2184
▁(%	-2185
▁ਮਾਹ	-2186
▁ਫਾਈਬਰ	-2187
▁ਖੋਲ੍ਹੋ	-2188
▁ਰਿਪੋਰਟ	-2189
ਜ਼ਬ	-2190
▁Ad	-2191
▁ਕੌ	-2192
▁ਮੁਕ	-2193
ablet	-2194
ਠੇ	-2195
▁ਫੋਂਟ	-2196
▁ਸ਼ੈ	-2197
▁ਇਤ	-2198
▁ਵਾਸ	-2199
▁ਕਲਾਸ	-2200
▁ਇਹਨਾਂ	-2201
▁//	-2202
▁ਮੇਨ	-2203
ਐੱਨ	-2204
▁ਮਰ	-2205
▁New	-2206
▁ਦਿਵ	-2207
▁ਦੱਸ	-2208
ml	-2209
ord	-2210
rom	-2211
▁ਨਮੂ	-2212
▁ਅਗਵਾਈ	-2213
▁ਸ਼ੁਰੂਆ	-2214
▁ਅਸਲੀ	-2215
ecast	-2216
▁27	-2217
/201	-2218
36	-2219
▁forecast	-2220
▁ਸੂਚਨਾ	-2221
▁ਪੇਸ਼ੇਵਰ	-2222
▁ਬੋਰਡ	-2223
▁ਮਨੁੱਖ	-2224
▁ਪੜ	-2225
▁ਬਚ	-2226
▁ਸਲ	-2227
▁ਤੇਜ਼	-2228
▁ਸ਼ਕਤੀ	-2229
▁ਹੋਵੇਗਾ	-2230
▁ਮਿ	-2231
▁ਨੀਤੀ	-2232
▁--	-2233
▁ਸੋਚ	-2234
ipp	-2235
▁ਰੌ	-2236
ject	-2237
-15	-2238
▁ਫੈ	-2239
▁ਖਿਡ	-2240
4)	-2241
rit	-2242
ਕਲਪ	-2243
▁ਡਾਈ	-2244
▁ਸਾਮ	-2245
▁ਕੁਦਰ	-2246
▁ਸਮਾਜ	-2247
▁ਸ਼ੁੱਧ	-2248
▁ਹਮੇਸ਼ਾ	-2249
8)	-2250
ਕਟਰ	-2251
▁not	-2252
22	-2253
▁ਇਕਾਈ	-2254
▁ਸਿੰਘ	-2255
39	-2256
te	-2257
ari	-2258
▁ਹੱਥ	-2259
▁ਵਿਚਕਾਰ	-2260
ੰਭ	-2261
▁ਪੰਨਾ	-2262
▁ਮੈਟ	-2263
color	-2264
▁Cl	-2265
▁ਸਫ	-2266
",	-2267
ee	-2268
ਮੁ	-2269
ots	-2270
ੰਦੀ	-2271
ited	-2272
▁ਵਾਇਰ	-2273
▁ਸ਼੍ਰੇਣੀ	-2274
ys	-2275
old	-2276
ਕਿਰ	-2277
▁ISO	-2278
▁ਟਰੈਕਰ	-2279
CH	-2280
100	-2281
ਰੇਟਰ	-2282
▁ਪਹਿਲੇ	-2283
ens	-2284
ਊਂਡ	-2285
▁ਕਮਾਂਡ	-2286
▁start	-2287
VD	-2288
ਾਲਟ	-2289
▁ਕਾਰਪ	-2290
▁ਦੋਸਤ	-2291
▁ਕੈਸੀਨੋ	-2292
▁ਪ੍ਰਦਰ	-2293
▁ਡਾਇਰੈਕਟਰੀ	-2294
ces	-2295
ਕਸੀ	-2296
▁ਦਿਵਸ	-2297
CO	-2298
ਸਲ	-2299
▁ਸਕੂਲ	-2300
▁ag	-2301
▁ਰੋਲ	-2302
▁ਰਜਿਸਟਰ	-2303
ary	-2304
▁ਅਧੀਨ	-2305
ੌਗ	-2306
▁ਸਵੀ	-2307
▁ਜਿਨ	-2308
▁ਸੰਗ	-2309
▁ਵਿਆਹ	-2310
▁ਸੁਝਾਅ	-2311
ਤੂ	-2312
ਨਾਮ	-2313
▁ਮੇਰੀ	-2314
ਾਰਤ	-2315
▁ਚੰਗੀ	-2316
iff	-2317
▁ਪਤ	-2318
▁ਨੋਟ	-2319
aw	-2320
eed	-2321
ਜਾਣ	-2322
▁ਅਫ	-2323
▁ਮੋਡ	-2324
▁ਪਛਾਣ	-2325
▁inmenu	-2326
\\	-2327
▁29	-2328
▁Bl	-2329
ਯੂਆਰ	-2330
▁ਡਿਫ	-2331
vin	-2332
▁ਸਟੋਰ	-2333
▁ਸ਼ੀਟ	-2334
▁ਪੜ੍ਹੋ	-2335
LE	-2336
ਚਕ	-2337
▁he	-2338
▁ਵਾਲਾ	-2339
ੂਹ	-2340
ਟਰਨ	-2341
ਡਿਆ	-2342
▁ਜਰਮ	-2343
▁ਡਬਲ	-2344
▁ਨਿਰਮਾਣ	-2345
ks	-2346
▁ਸੰਸਥਾ	-2347
ਉਂਦੇ	-2348
▁list	-2349
▁ਚੰਗਾ	-2350
▁ਈਯੂਆਰ	-2351
▁ਪ੍ਰਸਿੱਧ	-2352
CE	-2353
ਦਮ	-2354
ich	-2355
▁An	-2356
▁ਟੈਬ	-2357
▁ਮੈਡੀ	-2358
▁ਉਪਕਰਣ	-2359
▁ਐਚ	-2360
▁ਫਾਰਮੈਟ	-2361
ਸ਼ੀਆ	-2362
▁ਨਤੀਜੇ	-2363
▁80	-2364
▁th	-2365
ਦਾਰਥ	-2366
▁ਪਦਾਰਥ	-2367
▁ਖਤਮ	-2368
▁ਪਾਊ	-2369
▁user	-2370
▁ਧੋ	-2371
ਜ਼ਿਟ	-2372
ੂਨੀ	-2373
▁ਡਾਉ	-2374
ake	-2375
ੱਖਣ	-2376
▁ਪੱਤਰ	-2377
▁ਅਕ	-2378
▁ਉਲ	-2379
▁ਗੋ	-2380
ਵਾਈਸ	-2381
ਪਰੈਸ	-2382
▁ਹਵਾ	-2383
▁ਮਹੱਤਵਪੂਰਨ	-2384
ne	-2385
▁ਹਵ	-2386
____	-2387
▁ਜੇਨ	-2388
▁ਕਹਿੰ	-2389
77	-2390
put	-2391
▁ਖ਼ੁ	-2392
▁ਸਾਫ਼	-2393
▁ਮਾਮ	-2394
ਧਾਰਿਤ	-2395
▁ਪਾਊਡਰ	-2396
ਛੀ	-2397
▁1,	-2398
ੁਕਤ	-2399
▁300	-2400
▁ਕਾਫ਼ੀ	-2401
▁ਇੰਪੋਰਟ	-2402
500	-2403
ਸ਼ਟ	-2404
▁ਸੱਚ	-2405
▁ਕਸਟਮ	-2406
MA	-2407
▁1'	-2408
▁ਕੰਪਿਊ	-2409
▁ਮੰਨਿਆ	-2410
▁ਡਾਉਨਲੋਡ	-2411
88	-2412
▁‘	-2413
▁ਡੌ	-2414
▁ਟੈਗਸ	-2415
▁ਊ	-2416
▁ad	-2417
ਸ਼ੀਲ	-2418
▁ਯਾਦ	-2419
▁ਪਰਿੰਟ	-2420
ਗੁ	-2421
▁ਨਿਵੇ	-2422
▁ਵਰਗੇ	-2423
5)	-2424
▁ਚੁ	-2425
▁ਵੋਲਟ	-2426
▁ਆਸਾਨ	-2427
▁ਵਿਰੋ	-2428
ert	-2429
ਿਲੀ	-2430
▁ਕੱ	-2431
ਿੰਦੂ	-2432
▁are	-2433
ਲੇਸ਼ਨ	-2434
▁ਘੱਟੋ	-2435
▁ਡਿਵਾਈਸ	-2436
ੰਟੀ	-2437
▁or	-2438
ਜ਼ਾਰ	-2439
ਥਨ	-2440
ery	-2441
ਗਿੱਛ	-2442
▁ਹਰੇ	-2443
▁ਫਾਈਲ	-2444
▁ਯੂਨਿਟ	-2445
▁ਧੰਨਵਾਦ	-2446
▁IP	-2447
▁Copy	-2448
▁ਨੁਕਸਾਨ	-2449
ੇਮ	-2450
▁ਭੂ	-2451
▁ਕੇਸ	-2452
ਕਿਰਿਆ	-2453
▁ਮੁਫਤ	-2454
▁ਮੇਨੂ	-2455
ਐਚ	-2456
ਤਾਲ	-2457
▁an	-2458
▁ਅੱਖਰ	-2459
▁ਬਾਕਸ	-2460
ਦਾਇ	-2461
▁ਪਾਰਟੀ	-2462
▁ਲੱਗਦਾ	-2463
own	-2464
▁ਮਾਊ	-2465
▁ਸਰਵੇ	-2466
ਿਜ਼	-2467
▁ਐਫ	-2468
hats	-2469
▁ਸਪੀ	-2470
▁ਬਿਨਾਂ	-2471
▁ਸਕ੍ਰ	-2472
▁ਪ੍ਰਾਈਵੇਟ	-2473
ated	-2474
▁ਪਾਰਕ	-2475
▁ਸਾਂਝ	-2476
ਊਲ	-2477
ਬ੍ਰ	-2478
▁ਚਲਾਓ	-2479
OS	-2480
▁ਕੈਨ	-2481
.)	-2482
▁dur	-2483
▁ਰੱਦ	-2484
▁ਪਸੰਦੀ	-2485
46	-2486
ਸਟੀ	-2487
▁ਛੇ	-2488
▁ਡਿਫਾਲਟ	-2489
▁ਗੈਰ	-2490
▁status	-2491
tte	-2492
▁ਕੱਪ	-2493
▁ਸਵੈ	-2494
ੈਟਰੀ	-2495
▁ਔਸਤ	-2496
▁ਰੋਜ਼	-2497
▁ਕਾਰਬਨ	-2498
▁ਅੰਦਰੂਨੀ	-2499
ਕਰੇ	-2500
ਚਿਤ	-2501
▁ਰੈ	-2502
NASS	-2503
▁ਬੈਗ	-2504
port	-2505
▁Mar	-2506
▁ਕੁਆ	-2507
▁cont	-2508
▁ਨਿਯਮ	-2509
ਕੂਮੈਂਟ	-2510
ਪਾਜ਼ਿਟ	-2511
▁Mobile	-2512
▁ਕੈਲੰਡਰ	-2513
▁ਵਿਦਿਆਰ	-2514
,.	-2515
ale	-2516
ute	-2517
ਬੋਰਡ	-2518
▁Phone	-2519
▁ਪਰਮੇਸ਼	-2520
ਲੇਅ	-2521
ੰਮਲ	-2522
▁ਪਿੱਛ	-2523
▁ਯਿਸੂ	-2524
ਲਾਗ	-2525
▁ex	-2526
▁ਡਿਪਾਜ਼ਿਟ	-2527
pa	-2528
ions	-2529
uang	-2530
▁ਪੱਟੀ	-2531
▁ਡਾਕਟਰ	-2532
ਤਨ	-2533
ਿਯ	-2534
ਿਸਤ	-2535
▁ago	-2536
▁tool	-2537
LONASS	-2538
▁ਆਈਕਾਨ	-2539
▁ਜ਼ਿਲ੍ਹਾ	-2540
1,	-2541
ory	-2542
uit	-2543
▁ਚਾਲੂ	-2544
ਕੁ	-2545
net	-2546
onth	-2547
▁ਪੈਕਿੰਗ	-2548
▁ਜੇਨਰੇਟਰ	-2549
ਕੋਡ	-2550
▁but	-2551
▁ਬਾਹਰੀ	-2552
▁ਕਲਾਕਾਰ	-2553
ownl	-2554
▁kde	-2555
▁1000	-2556
▁ਨੇੜੇ	-2557
ਮੀਨ	-2558
▁90	-2559
▁ਬਸ	-2560
▁ਚਾਨ	-2561
▁ਪ੍ਰਕਾਸ਼	-2562
ਯਾਤ	-2563
▁ਮੈਕ	-2564
▁ਵਰਡ	-2565
-2018	-2566
▁ਆਪਣਾ	-2567
▁ਇਲਾਵਾ	-2568
▁ਟੈਟੂਸ	-2569
Ind	-2570
ਕਾਂ	-2571
ਰਜਾ	-2572
▁ਉੱਪਰ	-2573
imited	-2574
▁ਪਿਛਲਾ	-2575
▁ਵਿਕਲਪ	-2576
▁ਪ੍ਰਕਿਰਿਆ	-2577
▁Fl	-2578
▁sub	-2579
3)	-2580
tr	-2581
ਪਲ	-2582
ਅੰਦਰ	-2583
▁Free	-2584
4,	-2585
be	-2586
ਧੂ	-2587
▁ਪੌਦਾ	-2588
▁ਕਾਰਪੋਰੇ	-2589
▁ਵਾਤਾ	-2590
▁ਪਿੱਛੇ	-2591
ਦਨ	-2592
ਪਟ	-2593
ਭਰ	-2594
ਿਸੂਸ	-2595
▁with	-2596
6)	-2597
▁ਆਇ	-2598
rain	-2599
▁ਲੜੋ	-2600
▁ਸਕੀ	-2601
▁ਚੈਨਲ	-2602
▁ਸਿਰਫ਼	-2603
,,	-2604
ਏਥੇ	-2605
ਾਵਰ	-2606
http	-2607
urop	-2608
▁ਨਿੰਗ	-2609
▁ਵਿੰਡੋਜ਼	-2610
ੀਨੀਅਮ	-2611
▁ਮਹਿਸੂਸ	-2612
▁ਕੰਪਿਊਟਰ	-2613
▁Un	-2614
▁ਧਾਤ	-2615
▁Whats	-2616
▁ਘਟਾ	-2617
▁ਮੱਧ	-2618
▁ਫਿਲਮ	-2619
▁ਮੁਕੰਮਲ	-2620
78	-2621
ਿਓ	-2622
ater	-2623
ਿਹਾਸ	-2624
▁ਬਿਹ	-2625
ਭਵ	-2626
ਫੇਸ	-2627
ਮਾਲ	-2628
▁"%	-2629
onus	-2630
▁ਮਤਲ	-2631
▁ਯੂਰਪ	-2632
੍ਟ	-2633
eal	-2634
▁ਅਵ	-2635
▁ਐੱ	-2636
▁ਦੂਰ	-2637
▁ਪੈਨਲ	-2638
▁ਵਲੋਂ	-2639
▁ਸਿੱਖਿਆ	-2640
ube	-2641
ੂਰਜ	-2642
▁ਵੰਡ	-2643
han	-2644
▁pric	-2645
▁ਸਿੰਗ	-2646
48	-2647
kg	-2648
ਆਈ	-2649
▁And	-2650
▁ਸੁਆ	-2651
▁ਮਤਲਬ	-2652
▁ਸਾਈਨ	-2653
1)	-2654
tip	-2655
ਗਰਮ	-2656
▁NA	-2657
ਟੀਕਲ	-2658
▁ਪ੍ਰੋ	-2659
▁ਬਿੱਲ	-2660
▁option	-2661
af	-2662
▁ਨਿੰਗਬੋ	-2663
NI	-2664
ਅੰਤ	-2665
ਰਾਬ	-2666
▁You	-2667
ਕੁਲ	-2668
ਚਾਈ	-2669
▁ਸਾਈਜ਼	-2670
▁ਵਾਤਾਵਰ	-2671
ਭਗ	-2672
ਸੂ	-2673
▁as	-2674
▁ਹਲ	-2675
ਰੇਜ਼ੀ	-2676
49	-2677
DF	-2678
ero	-2679
ੱਕਰ	-2680
▁45	-2681
▁ਗਠ	-2682
▁ਬੀਟਾ	-2683
▁ਸਹੂਲ	-2684
▁DVD	-2685
ownload	-2686
▁ਇਤਿਹਾਸ	-2687
ਠਾ	-2688
ੇਡ	-2689
▁URL	-2690
▁gre	-2691
▁ਬਾਈ	-2692
row	-2693
▁ਤੀ	-2694
ੈਡਿਟ	-2695
▁col	-2696
elist	-2697
▁ਗਾਈਡ	-2698
ਸਮ	-2699
▁ਓਹ	-2700
▁ਸੈ	-2701
▁ਆਟੋ	-2702
▁100%	-2703
▁ਗਲਾਸ	-2704
uct	-2705
▁ਏਜ	-2706
▁ਜਲ	-2707
ੰਕਸ਼ਨ	-2708
▁ਨੇਵੀ	-2709
▁ਸਥਿਤ	-2710
▁ਪਰਮੇਸ਼ੁਰ	-2711
▁?	-2712
ੱਤੀ	-2713
▁ਸੁਣ	-2714
▁(201	-2715
▁Hack	-2716
▁ਪਾਸੇ	-2717
▁ਲਗਾਤਾਰ	-2718
ales	-2719
▁ਏਅਰ	-2720
▁ਹੁਣੇ	-2721
▁ਚਲਾਉਣ	-2722
Hz	-2723
ma	-2724
TML	-2725
ele	-2726
ics	-2727
world	-2728
▁Tablet	-2729
ਬੇਸ	-2730
list	-2731
▁ਇੰਜਣ	-2732
▁ਕ੍ਰਮ	-2733
▁ਗ੍ਰੀਨ	-2734
▁ਪੜ੍ਹਨ	-2735
▁ਡਾਈਲਾਗ	-2736
▁ਘਟ	-2737
▁ਸੰਤ	-2738
ਰਲ	-2739
ink	-2740
ਵਾਹ	-2741
ੈਂਸ	-2742
▁HD	-2743
▁ਗਨ	-2744
ੱਖਣੀ	-2745
▁ਡ੍ਰ	-2746
▁ਸਤਰ	-2747
▁ਊਰਜਾ	-2748
ਮੀਨੀਅਮ	-2749
▁ਰੱਖਿਆ	-2750
ਵਟ	-2751
ੜਨ	-2752
▁Qu	-2753
▁ਕੈਮਰਾ	-2754
37	-2755
bl	-2756
ੀਏ	-2757
▁ਦਸਤ	-2758
▁ਕੱਟਣ	-2759
▁ਪੈਰਾ	-2760
▁ਮਹਾਨ	-2761
ਰਾਸ਼ਟਰੀ	-2762
▁france	-2763
▁ਵਿਕਸਿਤ	-2764
▁ਸੇਵਾਵਾਂ	-2765
PC	-2766
ੈਚ	-2767
▁ਨਕ	-2768
▁ਜਨਮ	-2769
▁ਟਿਊਬ	-2770
32	-2771
96	-2772
ਫ਼ੋਨ	-2773
▁ਗੱਡੀ	-2774
▁ਤਾਕਤ	-2775
ountry	-2776
47	-2777
▁ਬਲੌਗ	-2778
▁ਮਨਜ਼	-2779
▁ਲੇਜ਼ਰ	-2780
▁ਸਮਾਰਟ	-2781
enter	-2782
▁state	-2783
▁ਬਿਹਤਰ	-2784
▁ਆਉਟਪੁੱਟ	-2785
ck	-2786
zer	-2787
▁ਮਿਆਦ	-2788
▁ਸਥਿਰ	-2789
US	-2790
▁ਛੋਟਾ	-2791
▁ਰਿਕਾਰਡ	-2792
:5	-2793
arn	-2794
▁ਵ੍ਹ	-2795
▁ਮੰਜ਼	-2796
The	-2797
▁ਆਈਟਮ	-2798
▁ਬੈਟਰੀ	-2799
▁ਸਥਾਨਕ	-2800
▁ਸਟੇਸ਼ਨ	-2801
▁ਵਰਡਪਰੈਸ	-2802
▁ਡੌਕੂਮੈਂਟ	-2803
ਾਂਟ	-2804
▁2011	-2805
hu	-2806
ਲਡ	-2807
▁—	-2808
ਾਨੇ	-2809
▁ਗੂਗਲ	-2810
▁ਚੁੰ	-2811
▁ਜਾਣਾ	-2812
▁ਲੇਖਕ	-2813
▁ਸ਼ੈਸ਼ਨ	-2814
▁cl	-2815
▁2,	-2816
▁ਬੋ	-2817
ਾਇਦਾ	-2818
▁your	-2819
▁ਦਿਲਚ	-2820
▁ਸਕਿੰਟ	-2821
▁ਸਰਗਰਮ	-2822
▁ਸਰਵੇਖਣ	-2823
bo	-2824
ਕਸਰ	-2825
▁2.	-2826
▁ਜਗ	-2827
▁ਚਾਨਣ	-2828
▁ਕੁਦਰਤੀ	-2829
▁ਅੰਗਰੇਜ਼ੀ	-2830
ਖਤ	-2831
ਤਾਵ	-2832
▁ਦੇਖੋ	-2833
▁ਵੇਲੇ	-2834
▁ਸਟਰੀ	-2835
▁ਸਿੱਖ	-2836
▁ਪ੍ਰੋਟ	-2837
ਫੇ	-2838
ਾਇਵ	-2839
ੁਅਲ	-2840
▁ਐਲਬ	-2841
▁ਦੁਨ	-2842
ha	-2843
ੁਆਇ	-2844
▁ਦੌ	-2845
▁ਸਿਆ	-2846
▁ਫੈਕਸ	-2847
▁ਭੇਜਣ	-2848
.99	-2849
bab	-2850
ਘਾਈ	-2851
ਮੀਦ	-2852
ਿਊਟ	-2853
▁ਗਲੋ	-2854
▁ਬੱਗ	-2855
▁porn	-2856
▁ਰਚਨਾ	-2857
▁pricelist	-2858
▁ਸਿਖਰ	-2859
▁ਵਾਸਤੇ	-2860
▁Google	-2861
ਚਾਲ	-2862
▁Co	-2863
▁ਗੀ	-2864
iang	-2865
▁ਵੱਲ	-2866
▁ਉਮੀਦ	-2867
▁ਮੋਡੀ	-2868
▁ਲਾਈਵ	-2869
▁ਅਣਜਾਣ	-2870
-10	-2871
▁1:	-2872
▁ਅਡ	-2873
▁ਦਬਾ	-2874
▁ਵਿਲ	-2875
▁ਚੀਨੀ	-2876
2,	-2877
31	-2878
ਫਾ	-2879
ਿੰਟਰ	-2880
▁ਸੈਂਟਰ	-2881
TT	-2882
roup	-2883
▁ਸ਼ੋ	-2884
▁ਗਰਮੀ	-2885
▁ਕਿਤਾਬ	-2886
▁ਭਾਰਤੀ	-2887
MS	-2888
cc	-2889
rad	-2890
ੋਗੇ	-2891
oule	-2892
▁ਟਰੇ	-2893
ਵਿੱਟਰ	-2894
▁ਫੁੱਲ	-2895
▁ਇੰਟਰਫੇਸ	-2896
▁ਅੰਤਰਰਾਸ਼ਟਰੀ	-2897
▁ਜ਼ਰੂਰਤ	-2898
Sh	-2899
ਧੇ	-2900
ੋਜ਼	-2901
▁ਪੁਰ	-2902
▁ਕੇਬਲ	-2903
▁ਜਿੱਤ	-2904
user	-2905
▁ਹਰੇਕ	-2906
ER	-2907
ਸਕ	-2908
ans	-2909
ਆਉਟ	-2910
▁ਐਡ	-2911
▁120	-2912
▁ਹੈਰ	-2913
ੋਫਾਇਲ	-2914
▁ਫੰਕਸ਼ਨ	-2915
ਿਜ	-2916
ਕੋਈ	-2917
ੀਨਾ	-2918
....	-2919
here	-2920
▁type	-2921
▁ਅੰ	-2922
NAME	-2923
ting	-2924
▁syn	-2925
right	-2926
▁ਚੁਣੇ	-2927
▁ਮਾਲਕ	-2928
▁ਸਫ਼ੇ	-2929
▁ਵਿਸ਼ਵ	-2930
▁ਕੀਤੀਆਂ	-2931
▁70	-2932
▁ਮੁਕਾ	-2933
ave	-2934
ਭਾਗ	-2935
ਹਾਰ	-2936
rack	-2937
ਾਈਕਲ	-2938
▁ਗਰਮ	-2939
▁ਪਰਿ	-2940
earch	-2941
jiang	-2942
▁NAME	-2943
▁ਮੈਡੀਕਲ	-2944
34	-2945
ays	-2946
iss	-2947
vel	-2948
▁ID	-2949
ਸ਼ਾਹ	-2950
▁HTML	-2951
▁ਪੈਸੇ	-2952
▁ਲਗਭਗ	-2953
▁ਰੇਟਿੰਗ	-2954
▁ਸ਼ੁੱਧਤਾ	-2955
ece	-2956
oHFW	-2957
▁0086	-2958
atching	-2959
AS	-2960
▁CO	-2961
▁Ind	-2962
▁ਵਾਹ	-2963
▁ਅਕਸਰ	-2964
▁ਸਮੂਹ	-2965
▁ਅਨੁਭਵ	-2966
▁ਬਿੰਦੂ	-2967
▁ਵੱਖਰੇ	-2968
▁Comments	-2969
ਸਨ	-2970
ਦਰੀ	-2971
੍ਹੇ	-2972
angu	-2973
▁che	-2974
▁ਖੁੱਲ	-2975
▁translation	-2976
95	-2977
▁ਟੁਕ	-2978
▁ਫਰੇ	-2979
▁ਫੋਰ	-2980
▁ਡਿਸਪ	-2981
▁color	-2982
▁description	-2983
ਖੀ	-2984
wit	-2985
▁35	-2986
▁ਅਸਰ	-2987
▁ਸੁਪਰ	-2988
▁Bonus	-2989
oulette	-2990
▁ਸਾਰੀਆਂ	-2991
▁ਪਸੰਦੀਦਾ	-2992
▁ਵਿਦਿਆਰਥੀ	-2993
und	-2994
▁ਗੈਸ	-2995
▁ਗੁਪਤ	-2996
▁button	-2997
▁ਕ੍ਰੈਡਿਟ	-2998
▁ਡਾਟਾਬੇਸ	-2999
cl	-3000
ਿੰਡ	-3001
▁ਅਜੇ	-3002
▁ਮਾਰਕੀਟ	-3003
ize	-3004
ਰਾਏ	-3005
ਸ਼ਤ	-3006
▁ਰੱ	-3007
stag	-3008
ਮਾਰਕ	-3009
▁Man	-3010
▁ਉਪਰ	-3011
▁ਬਚਾ	-3012
▁ਵੇਚ	-3013
▁ਦੂਜੇ	-3014
▁ਯੂਰੋ	-3015
▁Roulette	-3016
ੜੀਆਂ	-3017
▁int	-3018
ction	-3019
bia	-3020
ਜਾਈ	-3021
▁ਆਨ	-3022
▁Eng	-3023
▁ਐਪਸ	-3024
▁ਵਾਧੂ	-3025
pc	-3026
ous	-3027
▁ਕਾਮ	-3028
▁ਡੋਮ	-3029
▁ਲੱਕ	-3030
▁ਜ਼ੋਨ	-3031
▁ਤਜਰਬੇ	-3032
▁ਹਟਾਉਣ	-3033
ੈਕਚਰ	-3034
▁con	-3035
ਤਾਵਾਂ	-3036
▁ਚੁਣਿਆ	-3037
▁ਟੈਲੀਫ਼ੋਨ	-3038
riv	-3039
ਰੇਡ	-3040
▁et	-3041
▁ਗੇਮ	-3042
▁ਰਹਿੰ	-3043
▁ਓਪਨ	-3044
▁ਰਹਿਣ	-3045
▁ਸਾਰੀ	-3046
▁ਵੇਰਵੇ	-3047
AC	-3048
onym	-3049
ਿੰਮੇ	-3050
▁ਆਕਰ	-3051
▁ਤਾਰ	-3052
▁ਸਫਲ	-3053
▁ਤਬਦੀਲੀ	-3054
68	-3055
▁±	-3056
▁ro	-3057
▁dis	-3058
▁ਭਾਈ	-3059
ollow	-3060
ਤੇਮਾਲ	-3061
੍ਰਿਸ਼	-3062
▁dist	-3063
▁ਮੰਤਰ	-3064
▁ਖਿਡਾਰੀ	-3065
9)	-3066
▁ਅਧਿ	-3067
▁ਲਵੋ	-3068
▁ਅਪਡੇਟ	-3069
▁ਦੱਖਣੀ	-3070
▁ਨਿਵੇਸ਼	-3071
▁o	-3072
▁Am	-3073
▁De	-3074
▁mod	-3075
▁ਸ਼ਰਤ	-3076
▁ਸੰਗਠ	-3077
▁ਜ਼ਮੀਨ	-3078
▁ਉਪਦੇਸ਼	-3079
▁ਮੋਡੀਊਲ	-3080
ank	-3081
ਬਾਲ	-3082
▁ਸਵਿੱਚ	-3083
ੁਟ	-3084
ਗਰਾ	-3085
icro	-3086
▁ਭਾਵ	-3087
▁ਟਾਈਪ	-3088
▁ਮਾਤਰਾ	-3089
▁01	-3090
ical	-3091
▁ਹਫ਼	-3092
▁plain	-3093
▁ਟੈਟੂਹ	-3094
▁ਖੋਲ੍ਹਣ	-3095
▁ਇਸਤੇਮਾਲ	-3096
▁ਜਿਨ੍ਹਾਂ	-3097
ID	-3098
app	-3099
ਵਿਕ	-3100
▁org	-3101
ussia	-3102
▁ਉਚਾਈ	-3103
▁ਵਿਕੀ	-3104
▁Girls	-3105
-20	-3106
ium	-3107
▁ਇੰਡ	-3108
▁ਵਾਲਵ	-3109
ET	-3110
red	-3111
ਬਾਤ	-3112
ਹਿਤ	-3113
ates	-3114
▁ਛੱਤ	-3115
▁ਗਨੋਮ	-3116
▁ਚੱਕਰ	-3117
▁ਟਿਕਾਣਾ	-3118
▁ਵਿਗਿਆਨ	-3119
▁ਪ੍ਰਦਰਸ਼ਨ	-3120
EM	-3121
੍ਸ	-3122
ung	-3123
▁Holm	-3124
▁ਉੱਥੇ	-3125
▁tooltip	-3126
97	-3127
ਕਮ	-3128
ਸਤੀ	-3129
▁Im	-3130
▁ਚਲ	-3131
▁ਧੁ	-3132
work	-3133
▁ਐਕਟ	-3134
▁2010	-3135
▁ਅਸਫਲ	-3136
▁ਐਲਬਮ	-3137
▁ਫਰੇਮ	-3138
anguage	-3139
by	-3140
ll	-3141
ann	-3142
▁ਆਲ	-3143
osit	-3144
▁ਜੰਗ	-3145
▁ਡੂੰ	-3146
ments	-3147
▁ਜੈੱਟ	-3148
Country	-3149
ਕਸਦ	-3150
ੈਂਡਰ	-3151
▁150	-3152
▁USD	-3153
▁ਰਿਮ	-3154
ੀਨੀਅਰ	-3155
▁ਲੇਬਲ	-3156
ਿਬ	-3157
ico	-3158
ove	-3159
▁ਲਾਇਬ	-3160
▁input	-3161
▁ਜਗ੍ਹਾ	-3162
▁ਨਿਰਭਰ	-3163
▁ਸਟੋਰੇ	-3164
ਪਸ	-3165
ਯੁਕਤ	-3166
ਿਸ਼ਨ	-3167
001	-3168
ਐੱਸ	-3169
over	-3170
▁ਪੀਸੀ	-3171
▁ਐਕਸਐਲ	-3172
▁ਵਿਲੱਖਣ	-3173
▁ਧਰ	-3174
lish	-3175
▁ਪੰਪ	-3176
▁ਧੋਖਾ	-3177
▁ਲੋਕਲ	-3178
▁ਅਧਿਐਨ	-3179
▁ਡਿਗਰੀ	-3180
uf	-3181
ੇਤ	-3182
ਮੀਰ	-3183
ੱਬੇ	-3184
▁ਮਕਸਦ	-3185
▁ਸਾਜ਼	-3186
▁ਮੀਡੀਆ	-3187
▁ਪ੍ਰਿੰਟ	-3188
ੂਟ	-3189
▁ਉਡੀ	-3190
▁ਕੈਨੇ	-3191
▁ਸਪੀਡ	-3192
▁ਸੱਜੇ	-3193
▁ਲਾਗਇਨ	-3194
▁ਸਹੂਲਤ	-3195
che	-3196
ਲੇਖ	-3197
ideo	-3198
▁ਹੈਲ	-3199
▁Hond	-3200
▁ਬਿਲਕੁਲ	-3201
44	-3202
▁Gr	-3203
onyms	-3204
ਸ਼ਾਲੀ	-3205
▁ਬੇਅੰਤ	-3206
ication	-3207
▁ਸੀਰੀਜ਼	-3208
▁31	-3209
jatt	-3210
▁ਕੱਚ	-3211
▁ਖੁਦ	-3212
ਪੀਡੀਆ	-3213
▁ਦਿੱਖ	-3214
▁ਸੂਬੇ	-3215
▁synonyms	-3216
ਰਣ	-3217
ਮਾਰ	-3218
▁AC	-3219
▁ਹੌ	-3220
▁ਐਡੀ	-3221
▁ਫੀਡ	-3222
▁ਬਰਾਊ	-3223
▁ਵਾਂਗ	-3224
▁ਵਿਆਸ	-3225
▁ਮਹਿਲਾ	-3226
▁ਸਥਾਪਿਤ	-3227
▁matching	-3228
0}	-3229
ਗ੍ਰ	-3230
ੱਕੀ	-3231
▁Ex	-3232
ਿੰਨੀ	-3233
▁ਪੈਰ	-3234
▁menu	-3235
▁ਚਮੜੀ	-3236
▁ਬਦਲਣ	-3237
▁ਚਾਹੁੰਦਾ	-3238
sa	-3239
Serv	-3240
▁ਬੋਤ	-3241
▁ਮੋਟ	-3242
▁ਸਟਾ	-3243
igh	-3244
ੈਸ਼ਨਲ	-3245
▁that	-3246
▁ਮੇਰਾ	-3247
▁ਭਰੋਸੇ	-3248
▁ਵਧਾਉਣ	-3249
▁translate	-3250
ax	-3251
▁ਜਪ	-3252
ਜ਼ਾਨ	-3253
▁ਪੋਲ	-3254
▁ਰਾਤ	-3255
▁ਵਰਤੋ	-3256
▁ਏਸ਼ੀਆ	-3257
▁ਉਦਾਹਰਨ	-3258
Pa	-3259
▁reg	-3260
▁ਕੱਢ	-3261
▁ਮਲਟੀ	-3262
▁ਸਾਮਾਨ	-3263
ਡਨ	-3264
ign	-3265
les	-3266
▁+86	-3267
▁ਕਦਮ	-3268
▁ਸਾਧ	-3269
▁Honda	-3270
▁ਇਨ੍ਹਾਂ	-3271
▁ਔਨਲਾਈਨ	-3272
oy	-3273
ਨਟ	-3274
ere	-3275
▁ਲੁ	-3276
▁ਇੰਚ	-3277
▁ਬੇਨ	-3278
ਨਾਵਾਂ	-3279
▁this	-3280
▁ਅਮਰੀ	-3281
ਤਮਕ	-3282
▁ਹੁਕ	-3283
▁ਕਮਰੇ	-3284
▁ਲਾਗਤ	-3285
punjabis	-3286
GB	-3287
ੰਬ	-3288
ਹੂਰ	-3289
onia	-3290
ures	-3291
▁year	-3292
▁ਤਾਰੀ	-3293
▁month	-3294
▁ਨਿਰਦੇਸ਼	-3295
nline	-3296
▁ਅਗਲਾ	-3297
eposit	-3298
▁ਡੋਮੇਨ	-3299
▁ਰੌਸ਼ਨੀ	-3300
min	-3301
▁ਗਣ	-3302
▁ਥੋ	-3303
▁ind	-3304
▁ਮਾਨ	-3305
▁ਪੇਜ਼	-3306
▁ਮਜ਼ਬ	-3307
▁ਹੋਟਲ	-3308
▁ਲਿਖਿਆ	-3309
▁ਗੱਲਬਾਤ	-3310
/0	-3311
ati	-3312
ਾਇਮ	-3313
ਤਾਵਨੀ	-3314
iffuser	-3315
▁ਵਿਕੀਪੀਡੀਆ	-3316
":	-3317
;&	-3318
▁32	-3319
▁En	-3320
▁Red	-3321
▁ਜਾਨ	-3322
▁ਲੈਂ	-3323
▁ਨਿਊਜ਼	-3324
▁ਨਿਸ਼ਾਨ	-3325
▁ਕਾਨੂੰਨੀ	-3326
▁ਮਸ਼ੀਨਰੀ	-3327
ਦਾਂ	-3328
▁ar	-3329
▁ਅਕਾ	-3330
▁ਚੁੱਕ	-3331
▁ਚਾਰਟਰ	-3332
ਐਫ	-3333
ਾਂਕਿ	-3334
▁ਉਸੇ	-3335
▁ਬਜਾ	-3336
▁ਸੋਲ	-3337
▁ਅਗਲੇ	-3338
ੂਪ	-3339
urn	-3340
▁ਆਧ	-3341
▁ਆਉਣ	-3342
▁ਪੱਛ	-3343
▁ਸਕੇ	-3344
▁ਬਲੈਕ	-3345
▁ਸੰਯੁਕਤ	-3346
ica	-3347
unn	-3348
Coin	-3349
ਫਾਰਮ	-3350
▁Lex	-3351
▁ਇਸੇ	-3352
▁ਮੈਮ	-3353
▁ਮੁਕਾਬ	-3354
▁ਵਾਤਾਵਰਣ	-3355
▁ਸਰਟੀਫਿਕੇਸ਼ਨ	-3356
▁FS	-3357
▁ਆਗ	-3358
ਬੀਅਨ	-3359
ੁਨਿਕ	-3360
ilipp	-3361
▁XXXL	-3362
▁ਜ਼ਿੰਮੇ	-3363
▁!	-3364
300	-3365
▁ਆਫ	-3366
ੇਨਜ਼	-3367
▁ਟਾਪ	-3368
▁ਰੂਟ	-3369
▁ਚੰਗੇ	-3370
▁ਦੇਖਣ	-3371
▁ਮਹੀਨਾ	-3372
▁ਰਿਮੋਟ	-3373
stagram	-3374
▁ਚੇਤਾਵਨੀ	-3375
ilippines	-3376
-7	-3377
ਇਸ	-3378
form	-3379
quot	-3380
▁ਕਿਉ	-3381
▁ਜਨਤਕ	-3382
▁ਚੋਣਾਂ	-3383
▁ਸਮਰਥਨ	-3384
▁ਮਸ਼ਹੂਰ	-3385
▁ਹਾਲਾਂਕਿ	-3386
RO	-3387
.000	-3388
ਸ਼ਟੀ	-3389
▁ਆਕਸੀ	-3390
▁ਪੁਰਾਣੇ	-3391
▁ਪ੍ਰਮਾਣ	-3392
ury	-3393
ਾਊਨ	-3394
▁ਆਇਆ	-3395
▁ਫਿਟ	-3396
▁ਮੰਤ	-3397
ਿੰਦਗੀ	-3398
▁ਓਹਲੇ	-3399
▁ਲੱਕੜ	-3400
▁ਮੋਬਾਇਲ	-3401
▁ਹੋਸਟਿੰਗ	-3402
med	-3403
ois	-3404
ਲਾਂ	-3405
▁ਅਦ	-3406
ਾਰਨਾ	-3407
▁ਡਿਸਪਲੇਅ	-3408
▁ਇੰਟਰਨੈੱਟ	-3409
PI	-3410
▁Sc	-3411
▁ਪਰਾ	-3412
▁ਫੈਸ	-3413
▁ਸਕਰ	-3414
▁ਕਾਲਾ	-3415
▁ਮਿਸ਼	-3416
ge	-3417
ty	-3418
eld	-3419
ger	-3420
yst	-3421
ages	-3422
ਦਿਆਂ	-3423
▁ਤੱਤ	-3424
▁ਸੈਕ	-3425
▁Long	-3426
▁ਮੰਤਰਾਲੇ	-3427
to	-3428
▁08	-3429
▁res	-3430
▁ਮੈਟਲ	-3431
▁ਗਲੋਬਲ	-3432
▁ਵਪਾਰਕ	-3433
▁ਵਿਰੋਧੀ	-3434
▁ਸਕ੍ਰਿਪਟ	-3435
ਠੀ	-3436
key	-3437
uan	-3438
▁ਨੋ	-3439
▁Det	-3440
▁ਮੈਕਸ	-3441
ਗਰਾਊਂਡ	-3442
▁ਆਵਾਜਾਈ	-3443
NC	-3444
ਕਰੀ	-3445
ਦਰਾ	-3446
ਸਟਰ	-3447
▁can	-3448
▁ਸਜਾ	-3449
▁Arch	-3450
▁ਛੱਡੋ	-3451
▁ਹੁਕਮ	-3452
▁ਪਰੋਫਾਇਲ	-3453
ਨਰ	-3454
ਿੱਟ	-3455
▁ਛਾਪ	-3456
▁ਲੰਬੇ	-3457
ਖੇਪ	-3458
▁05	-3459
▁ਚੂ	-3460
ives	-3461
▁Zhe	-3462
▁ਉਲਟ	-3463
▁ਕੋਨ	-3464
▁ਨਜ਼ਰ	-3465
▁ਮੌਕਾ	-3466
▁ਤੇਜ਼ੀ	-3467
▁ਮੈਂਬਰ	-3468
▁ਸੰਭਾਵ	-3469
▁ਅਲਮੀਨੀਅਮ	-3470
IS	-3471
▁3.	-3472
India	-3473
▁ਇਸਦੇ	-3474
▁ਸੰਖੇਪ	-3475
85	-3476
fl	-3477
zh	-3478
ਜਬ	-3479
-01	-3480
ush	-3481
▁0.	-3482
ower	-3483
▁ਕਰਨੀ	-3484
QL	-3485
ਭੂ	-3486
ਿਅਮ	-3487
▁36	-3488
▁OS	-3489
▁ਅਟ	-3490
ੇਲੀਆ	-3491
▁ਗੈਲ	-3492
▁ਤਲਾ	-3493
▁ਪਿੱ	-3494
▁Serv	-3495
▁from	-3496
▁ਬਿਨਾ	-3497
▁ਪਾਲਣਾ	-3498
▁ਪਰੋਗਰਾਮ	-3499
▁ਵਿਸ਼ਵਾਸ	-3500
ਿੱਡ	-3501
▁ਲਾਈ	-3502
▁Coin	-3503
▁ਸਮੇਤ	-3504
▁ਵਿਗਿਆ	-3505
▁Online	-3506
ya	-3507
ਪੰ	-3508
jec	-3509
▁rep	-3510
▁ਖੁਸ਼	-3511
▁Slots	-3512
▁ਟਰਾਂਸ	-3513
▁English	-3514
▁philippines	-3515
▁1%	-3516
ਵਿੱਖ	-3517
▁ਬੋਲ	-3518
▁ਟਿੱਪਣੀਆਂ	-3519
ons	-3520
ਵਾਇ	-3521
ਪੂਰਣ	-3522
ੰਡਾਰ	-3523
▁ਗੁੰ	-3524
▁ਮਿਸ	-3525
ਗੇਸ਼ਨ	-3526
▁ਬਲਾਕ	-3527
▁ਕਨੈਕਟ	-3528
▁ਮਾਈਕਰ	-3529
▁ਬਰਾਊਜ਼ਰ	-3530
▁Zhejiang	-3531
;/	-3532
ਮੋ	-3533
▁3,	-3534
▁ab	-3535
▁(1)	-3536
▁lex	-3537
▁ਖਾਤਾ	-3538
▁ਖਾਤੇ	-3539
▁ਟੈਂਕ	-3540
▁ਸੰਕੇ	-3541
▁ਚਾਹੀਦੀ	-3542
▁ਸਮਾਜਿਕ	-3543
Uri	-3544
umn	-3545
ੇਨਰ	-3546
▁(5	-3547
▁ਅਕਾਰ	-3548
▁ਪੇਪਰ	-3549
▁ਭੰਡਾਰ	-3550
▁ਮੰਤਰੀ	-3551
▁ਵਿਡੀਓ	-3552
▁ਸਾਲਾਂ	-3553
UriServ	-3554
▁ਪ੍ਰਕਾਸ਼ਿਤ	-3555
▁LexUriServ	-3556
3.	-3557
ifi	-3558
.0.2	-3559
▁ਘੁੰ	-3560
ਲੇਸ਼ਣ	-3561
▁ਨੀਲਾ	-3562
ਚਨ	-3563
▁ਸਾਫ	-3564
▁2000	-3565
▁ਸੂਰਜ	-3566
▁ਆਵਾਜ਼	-3567
▁ਸ਼ੈਲੀ	-3568
▁Description	-3569
▁GTS	-3570
▁ਦੰਦ	-3571
lease	-3572
▁ਅਫਰੀਕਾ	-3573
▁ਸਥਾਪਨਾ	-3574
ka	-3575
oss	-3576
▁cam	-3577
▁ਟੂਰ	-3578
▁ਸਾਥੀ	-3579
▁ਪ੍ਰੈਸ	-3580
▁ਮਜ਼ਬੂਤ	-3581
▁ਉਤਪਾਦਾਂ	-3582
ਰਸ	-3583
ਿਉ	-3584
▁fl	-3585
ones	-3586
ਤੀਆਂ	-3587
▁per	-3588
▁ਪਹਾ	-3589
icial	-3590
ੈਨਸ਼ਨ	-3591
▁ਚਾਰਜ	-3592
▁ਮੈਮੋਰੀ	-3593
XX	-3594
ਜੋ	-3595
cut	-3596
ਵੈਲ	-3597
▁CP	-3598
▁PC	-3599
▁ਟੇਪ	-3600
▁ਕਿਉਕਿ	-3601
▁ਬੱਚਿਆਂ	-3602
▁Deposit	-3603
ky	-3604
ੂਫ	-3605
੍ਲ	-3606
day	-3607
ਓਐਸ	-3608
▁ਹਟ	-3609
word	-3610
▁ਅਣੂ	-3611
▁ਨਵੀਨ	-3612
▁ਭਵਿੱਖ	-3613
▁ਸਿੰਗਲ	-3614
▁ਆਧੁਨਿਕ	-3615
7)	-3616
72	-3617
PG	-3618
▁Br	-3619
▁ਪੰਜ	-3620
▁ਮਾਣ	-3621
▁ਧਰਤੀ	-3622
▁ਲੋੜੀ	-3623
▁ਦ੍ਰਿਸ਼	-3624
▁distric	-3625
den	-3626
ett	-3627
▁ਚਾ	-3628
ੋਸੈਸ	-3629
▁PDF	-3630
▁ਬੁਰੇ	-3631
▁ਕਿਰਾਏ	-3632
▁ਕੱਪੜੇ	-3633
▁ਹਫ਼ਤੇ	-3634
▁window	-3635
▁ਅਮਰੀਕੀ	-3636
▁ਕਹਾ	-3637
acher	-3638
ਦੇਸ਼ੀ	-3639
ਾਈਡ੍ਰ	-3640
▁ਲਿਖੋ	-3641
andong	-3642
▁ਮਿਲੀਮੀਟਰ	-3643
ars	-3644
▁ਹਮ	-3645
less	-3646
▁ਫੀਸ	-3647
▁ਰੱਦੀ	-3648
▁ਮਾਮਲੇ	-3649
▁ਮੀਡਿਆ	-3650
▁ਪ੍ਰਯੋਗ	-3651
▁ਸ਼ਰਤਾਂ	-3652
▁ਓਪਰੇਸ਼ਨ	-3653
▁р	-3654
ਫ਼ਾ	-3655
▁wh	-3656
▁ਥਰ	-3657
▁ਨੰ	-3658
▁ਅਰਥ	-3659
▁ਆਸਟਰ	-3660
▁ਤਹਿਤ	-3661
▁ਸ਼ੁਰੂਆਤ	-3662
▁)	-3663
▁48	-3664
ਬੰਦੀ	-3665
ਰਮੀਨ	-3666
ਵੀਸੀ	-3667
▁Che	-3668
▁ਐਪਲ	-3669
▁ਕਰਮ	-3670
▁2012	-3671
▁Comp	-3672
▁ਟੀਕਾ	-3673
▁Shandong	-3674
▁districts	-3675
ੜਕ	-3676
ਊਂਟ	-3677
ਕਤਾ	-3678
▁ਹਫ	-3679
rist	-3680
ਾਇਦੇ	-3681
▁ਸਾਵ	-3682
▁ਹਾਸ	-3683
▁ਆਧਾਰ	-3684
▁ਬਣਾਈ	-3685
ੇਨਜ਼ੇਨ	-3686
▁girls	-3687
GLONASS	-3688
▁ਖ਼ੁਰਾਕ	-3689
▁ਮਨਜ਼ੂਰ	-3690
AL	-3691
iet	-3692
man	-3693
▁1)	-3694
▁Or	-3695
▁ਅਹ	-3696
ware	-3697
ਲੈਂਡ	-3698
▁ਦਾਖ	-3699
▁ਸੈਲ	-3700
istan	-3701
▁text	-3702
▁ਦਿੰਦੇ	-3703
ਟੋ	-3704
oul	-3705
ੰਜਨ	-3706
▁ਅਖ	-3707
▁OEM	-3708
▁ਦਾਨ	-3709
▁ਮੋਹ	-3710
▁ਮਜ਼ੇ	-3711
▁ਖਰੀਦਣ	-3712
▁ਮੰਜ਼ਿਲ	-3713
▁ਵ੍ਹਾਈਟ	-3714
▁Download	-3715
App	-3716
ins	-3717
▁EH	-3718
ians	-3719
ੁਨਿਆ	-3720
▁ਪਿਆ	-3721
▁Tian	-3722
▁ਕਿਲੋ	-3723
▁ਵਾਹਨ	-3724
▁ਸੰਭਾਲਣ	-3725
▁Op	-3726
▁ਉਡੀਕ	-3727
▁ਸਬੰਧਤ	-3728
▁ਨਿਰਯਾਤ	-3729
▁ਵੋਲਟੇਜ	-3730
▁ਸਿਰਲੇਖ	-3731
▁ਜ਼ਿੰਦਗੀ	-3732
250	-3733
▁Sm	-3734
▁key	-3735
▁net	-3736
▁ਮਸੀ	-3737
▁ਟੈਕਸ	-3738
ficial	-3739
AP	-3740
ਖ਼ਤ	-3741
▁at	-3742
▁ਬਿਮ	-3743
ruity	-3744
▁ਅਸਮਰ	-3745
▁ਸਪੇਸ	-3746
▁group	-3747
▁ਟੈਟੂਬ	-3748
▁ਆਕਸੀਜਨ	-3749
▁ਮਜ਼ੇਦਾਰ	-3750
3,	-3751
ms	-3752
▁੨	-3753
▁ob	-3754
▁ਜੀਵ	-3755
▁ਵਿਵ	-3756
IL	-3757
ੰਢ	-3758
ene	-3759
pro	-3760
ਾਨਕ	-3761
line	-3762
▁0.1	-3763
▁400	-3764
▁ਸਤਹ	-3765
▁ਪਲੇਅ	-3766
▁ਵਿਭਾਗ	-3767
▁ਹਾਲਾਤ	-3768
▁ਕਾਨੂੰਨ	-3769
ਫਾਰ	-3770
▁ਕੰਟ	-3771
▁ਸਵਾ	-3772
▁ਪਰਿਵਰ	-3773
▁ਕੈਨੇਡਾ	-3774
▁ਪੀਵੀਸੀ	-3775
69	-3776
ਹੋ	-3777
ਭਾਲ	-3778
ਵੀਂ	-3779
ੈਰੀ	-3780
▁ਕਸ	-3781
ਉਂਦੀ	-3782
ਦਾਰੀ	-3783
▁1.5	-3784
▁dev	-3785
▁ਜੁੜ	-3786
ermany	-3787
▁ਬੁਨਿਆ	-3788
▁provin	-3789
▁ਸ਼ੇਨਜ਼ੇਨ	-3790
▁ਜਾਲ	-3791
▁ਬਕਸ	-3792
▁ਬੀਮਾ	-3793
▁Micro	-3794
▁ਅਜਿਹਾ	-3795
▁ਪ੍ਰਧਾਨ	-3796
ਐਂਡ	-3797
▁ਅਧਿਕ	-3798
▁ਮਨੋਰ	-3799
▁ਪ੍ਰਸ਼	-3800
▁ਹਾਈਡ੍ਰ	-3801
▁Detacher	-3802
St	-3803
ਘਾ	-3804
ਬੜ	-3805
exy	-3806
ਗਾਰ	-3807
ੱਕਾ	-3808
▁ਜਦਕਿ	-3809
▁ਯੂਕੇ	-3810
▁ਜਿਹੜੇ	-3811
▁ਪਲੇਅਰ	-3812
▁ਪੈਟਰਨ	-3813
▁ਰੋਸ਼ਨੀ	-3814
▁ਰੋਜ਼ਾਨਾ	-3815
▁ਬੈਕਗਰਾਊਂਡ	-3816
AD	-3817
ips	-3818
oot	-3819
rev	-3820
ਬਰਗ	-3821
▁Be	-3822
ਿਸ਼ਾ	-3823
▁Play	-3824
▁ਮੌਸਮ	-3825
▁ਆਈਫੋਨ	-3826
▁ਤਾਰੀਖ	-3827
▁ਪਾਲਤੂ	-3828
▁ਯੂਕਰੇ	-3829
▁regions	-3830
-9	-3831
ੌਨ	-3832
res	-3833
ਪਰੀ	-3834
ਬਰੀ	-3835
▁ਗੀਤ	-3836
▁star	-3837
▁ਟਾਊਨ	-3838
▁ਬਣਾਉ	-3839
▁ਬੇਨਤੀ	-3840
▁ਇੰਪੁੱਟ	-3841
▁ਦੇਖਭਾਲ	-3842
▁ਹਾਰਡਵੇਅਰ	-3843
CD	-3844
▁USB	-3845
▁ਗਾਰ	-3846
▁ਖੱਬੇ	-3847
ortcut	-3848
▁ਸਥਾਪਤ	-3849
▁ਕਹਿੰਦੇ	-3850
▁ਨਿਰਧਾਰਨ	-3851
▁provinces	-3852
8,	-3853
UM	-3854
▁ਗ਼	-3855
▁ਟਾ	-3856
▁ਉੱਤਰੀ	-3857
▁ਚੀਜ਼ਾਂ	-3858
▁ਵਿਦੇਸ਼ੀ	-3859
▁ਭਰੋਸੇਯੋਗ	-3860
CHI	-3861
▁count	-3862
▁ਸੰਪਾਦ	-3863
▁ਸਵੀਕਾਰ	-3864
ubl	-3865
ੱਕੇ	-3866
ence	-3867
▁ਨਿਕ	-3868
▁ਲੈਸ	-3869
▁game	-3870
▁ital	-3871
▁ਲਾਇਸ	-3872
▁ਆਸਾਨੀ	-3873
▁ਪਰਬੰਧਕ	-3874
ਜਨਕ	-3875
▁Ap	-3876
▁HTT	-3877
▁ਸ਼ਾ	-3878
ੁਆਇੰਟ	-3879
▁Post	-3880
▁ਸਕੀਮ	-3881
▁lists	-3882
▁ਐਕਸ਼ਨ	-3883
▁ਸਾਹਿਬ	-3884
▁ਕੁਨੈਕਟ	-3885
▁ਪ੍ਰਸਾਰ	-3886
▁ਸਟੋਰੇਜ਼	-3887
UR	-3888
aton	-3889
ਚਿਊਟ	-3890
ਰੇਰੀ	-3891
▁800	-3892
▁Web	-3893
▁ਰੋਗ	-3894
-2019	-3895
uxury	-3896
▁Fran	-3897
▁ਗਿਆਨ	-3898
▁ਗੁਲਾ	-3899
▁ਪ੍ਰਣ	-3900
▁ਭਾਰੀ	-3901
▁ਹਟਾਉ	-3902
▁ਕੁਸ਼ਲ	-3903
▁ਵਿਸ਼ਲੇਸ਼ਣ	-3904
ਫ਼ਲ	-3905
▁250	-3906
▁600	-3907
▁ਹਾਰ	-3908
ਬਾਜ਼ੀ	-3909
▁need	-3910
enz	-3911
ੇਂਜ	-3912
▁55	-3913
▁ur	-3914
ਮੇਜ਼	-3915
ਲੀਜ਼	-3916
▁ਅਮਨ	-3917
▁ਲਾਕ	-3918
ating	-3919
▁ਗਠਿਤ	-3920
▁ਪ੍ਰਗ	-3921
▁ਸਾਹਮ	-3922
▁ਪ੍ਰਭਾ	-3923
ਭਿਆ	-3924
ਮੈਨ	-3925
ਵਿਊ	-3926
atal	-3927
ਸਟ੍ਰ	-3928
▁Squ	-3929
▁ਚੁੰਬ	-3930
▁ਦਿਖਾ	-3931
▁ਰੇਖਾ	-3932
▁ਉਦੇਸ਼	-3933
▁ਵਾਲੀਆਂ	-3934
▁ਮੁਕਾਬਲੇ	-3935
ਇਲ	-3936
ਮਲ	-3937
400	-3938
ੈਂਪ	-3939
▁EN	-3940
▁ਜੂ	-3941
ਦਾਇਕ	-3942
ਬਾਰਾ	-3943
▁ਦਰਸਾ	-3944
▁ਟਵਿੱਟਰ	-3945
▁ਸ਼ੁਰੂਆਤੀ	-3946
89	-3947
sc	-3948
ਨਿ	-3949
let	-3950
ull	-3951
ੋਨੋ	-3952
▁AS	-3953
▁ਚਰ	-3954
MoHFW	-3955
NIHFW	-3956
▁ਪਿਤਾ	-3957
▁ਬਜਾਏ	-3958
▁ਸਕੈਨ	-3959
▁ਹੋਵੇਗੀ	-3960
bu	-3961
ala	-3962
enn	-3963
err	-3964
▁5.	-3965
▁ਜੈ	-3966
▁ਪੱਖ	-3967
▁ਖਿੱਚ	-3968
▁ਟਾਪੂ	-3969
lex	-3970
olog	-3971
ੈਸ਼ਰ	-3972
▁Air	-3973
▁Win	-3974
▁ਦਰਸ਼ਕ	-3975
▁ਸਿਫਾਰ	-3976
▁ਸੰਕੇਤ	-3977
▁ਬਿਲਡਿੰਗ	-3978
66	-3979
anc	-3980
rop	-3981
ਾਗਰ	-3982
▁(2	-3983
▁bl	-3984
▁ਲੌ	-3985
ਚੁਅਲ	-3986
▁ਆਈਓਐਸ	-3987
▁ਲਾਇਬਰੇਰੀ	-3988
ਟਸ	-3989
uts	-3990
ਕੇਚ	-3991
▁On	-3992
▁ਆਲੇ	-3993
▁ਘਰੇ	-3994
▁ਦਿਖ	-3995
▁ਰੇਟ	-3996
jects	-3997
▁ਪਿੰਡ	-3998
▁ਰਿਸ਼	-3999
▁ਅਸਮਰੱਥ	-4000
▁ਦੇਵੇਗਾ	-4001
▁ਵਾਲੀਅਮ	-4002
▁Copyright	-4003
td	-4004
ਮਿਤ	-4005
▁MS	-4006
▁ਮਲ	-4007
ਗੀਆਂ	-4008
ਬਰਿਕ	-4009
▁ਸ਼ੰ	-4010
▁mess	-4011
▁ਈਮੇਜ਼	-4012
▁ਮਨੁੱਖੀ	-4013
▁ਬੁੱਕਮਾਰਕ	-4014
-12	-4015
ata	-4016
▁em	-4017
wood	-4018
▁pref	-4019
▁ਆਰਡਰ	-4020
▁ਲੱਗੇ	-4021
▁ਉਸਾਰੀ	-4022
BC	-4023
ਡ਼	-4024
ਜ਼ੂ	-4025
ਦੁਆ	-4026
▁4.	-4027
▁My	-4028
▁220	-4029
▁dep	-4030
▁ਸਾਇ	-4031
ਿਪਿੰਗ	-4032
▁ਫੁੱਟ	-4033
▁ਜਰਮਨੀ	-4034
▁ਨਮੂਨੇ	-4035
▁ਪਰਮਾਣ	-4036
▁ਪ੍ਰਾਪ	-4037
▁ਪੁਸ਼ਟੀ	-4038
▁ਲੰਬਕਾਰ	-4039
6.	-4040
ਪਾਸ	-4041
ਰਾਂ	-4042
outh	-4043
ਐਨਸੀ	-4044
▁Oct	-4045
▁ਮੈਰਾ	-4046
▁Eaton	-4047
▁ਲੱਭਿਆ	-4048
Cl	-4049
ੈੱਡ	-4050
▁ਜਿੰ	-4051
▁ਪਬਲ	-4052
▁href	-4053
▁ਟਰਮੀਨ	-4054
▁ਧਾਰਨਾ	-4055
▁ਫਾਇਦੇ	-4056
▁ਸਾਰਣੀ	-4057
▁ਆਪਣੀਆਂ	-4058
▁ਉਤਸ਼ਾਹ	-4059
ron	-4060
ੰਡੇ	-4061
▁99	-4062
▁im	-4063
ance	-4064
atic	-4065
▁ਨਕਲ	-4066
▁ਵਰਣ	-4067
▁ਕਾਫੀ	-4068
▁inter	-4069
▁ਘਰੇਲੂ	-4070
▁ਬਦਲਿਆ	-4071
▁Center	-4072
▁column	-4073
▁ਪਲੇਟਫਾਰਮ	-4074
ਅਪ	-4075
ਿਸਮ	-4076
ਸਪੈਮ	-4077
ਿੱਲੀ	-4078
▁ਚੈਕ	-4079
eroon	-4080
ਾਜੈਕਟ	-4081
ਿਸਤਾਨ	-4082
▁ਕਰਵਾ	-4083
▁sales	-4084
▁ਅਸਫ਼ਲ	-4085
▁ਔਰਤਾਂ	-4086
▁ਦੁਨੀਆ	-4087
▁ਓਪਰੇਟਿੰਗ	-4088
yd	-4089
ਜ਼ੌ	-4090
▁04	-4091
▁07	-4092
▁sl	-4093
▁ਫੋ	-4094
ਵਾਰੀ	-4095
▁(2)	-4096
▁3.0	-4097
▁ਜਾਪ	-4098
▁ਸਾਰਾ	-4099
▁ਹੌਲੀ	-4100
▁ਮਿੱਤਰ	-4101
▁ਅੰਤਰਾਲ	-4102
▁ਪ੍ਰਾਜੈਕਟ	-4103
Pl	-4104
duc	-4105
ੰਡਾ	-4106
▁af	-4107
▁ਉਥੇ	-4108
▁ਗੁਆ	-4109
raine	-4110
ਸਾਈਕਲ	-4111
▁ਡਰਾਇ	-4112
▁ਤਜਰਬਾ	-4113
▁ਟੈਲੀਫੋਨ	-4114
▁WhatsApp	-4115
91	-4116
ਮਕ	-4117
▁≤	-4118
ais	-4119
als	-4120
ਅਤੇ	-4121
▁XM	-4122
▁ਸਦ	-4123
▁hPa	-4124
▁ਤਰਲ	-4125
▁ਸ਼ੂ	-4126
▁ਪਲੱਸ	-4127
▁ਨਿਯਮਤ	-4128
▁Fruity	-4129
▁ਪਾਰਟੀਸ਼ਨ	-4130
!&	-4131
RE	-4132
ਸੰ	-4133
ਪਤੀ	-4134
▁1"	-4135
▁de	-4136
ਿਆਰੀ	-4137
▁19,	-4138
▁ਆਦਰ	-4139
▁ਗਰਾ	-4140
▁ਮੌਤ	-4141
oison	-4142
▁ਆਨੰਦ	-4143
▁ਕਤਾਰ	-4144
▁ਹਵਾਲਾ	-4145
▁ਫੈਬਰਿਕ	-4146
▁ਸੰਬੰਧਿਤ	-4147
▁ਨੇਵੀਗੇਸ਼ਨ	-4148
HP	-4149
ft	-4150
its	-4151
▁It	-4152
▁ਨੈ	-4153
dong	-4154
▁ਜਰਮਨ	-4155
▁ਮੱਛੀ	-4156
▁ਖਰੀਦੋ	-4157
▁ਜਾਇਦਾ	-4158
▁ਆਸਟਰੇਲੀਆ	-4159
ਪੋ	-4160
ੀਲ	-4161
▁\	-4162
ana	-4163
▁WP	-4164
----	-4165
2019	-4166
play	-4167
ਲਾਈਨ	-4168
ਾਈਵਰ	-4169
▁ਤੁਲ	-4170
▁ਨੈਟ	-4171
▁ਬੀਜ	-4172
egion	-4173
spamp	-4174
▁ਬਾਕੀ	-4175
▁ਬਿੱਟ	-4176
spampoison	-4177
PE	-4178
ਚਲ	-4179
esb	-4180
▁75	-4181
▁ਲੂ	-4182
\\\\	-4183
▁ਸਾਬ	-4184
urope	-4185
▁ਮੈਬਾ	-4186
▁ਚਿੱਟੇ	-4187
▁ਟੈਟੂਦ	-4188
▁ਪ੍ਰੋਫ	-4189
▁ਸਫਲਤਾ	-4190
▁ਮਨੋਰੰਜਨ	-4191
▁ਸ਼ਿਪਿੰਗ	-4192
ਾਇਣ	-4193
ਮੁੱਖ	-4194
ਿੱਪਰ	-4195
▁ਐਸਿਡ	-4196
▁ਚੋਟੀ	-4197
▁ਬੈਂਕ	-4198
▁ਉਪਭੋਗੀ	-4199
▁ਸ਼ੰਘਾਈ	-4200
Shortcut	-4201
ਾਂਤ	-4202
▁ਕੰਧ	-4203
▁ਮੁੰ	-4204
inter	-4205
▁ਮਿਲਾ	-4206
▁ਸਮਾਨ	-4207
▁ਟੈਟੂਚ	-4208
nlimited	-4209
CC	-4210
edia	-4211
ream	-4212
wise	-4213
▁ਅਧਾਰ	-4214
ਪ੍ਰਭਾਵ	-4215
▁ਡਿਵੈਲ	-4216
▁ਮਿਲਿਆ	-4217
▁ਸਾਵਧਾਨ	-4218
▁subjects	-4219
▁ਪੈਰਾਮੀਟਰ	-4220
Qu	-4221
li	-4222
ama	-4223
arb	-4224
ਹਰਾ	-4225
▁(0	-4226
▁Hot	-4227
▁{0}	-4228
ਿੰਨ੍ਹ	-4229
▁ਕਰਾਂ	-4230
▁ਪੂਰੇ	-4231
▁ਨਮੂਨਾ	-4232
▁ਬਣਾਉਣਾ	-4233
ਪਿ	-4234
pcs	-4235
ਮੰਦ	-4236
▁ਓਰ	-4237
▁add	-4238
▁ਲੀਨ	-4239
▁ਅਧਿਆ	-4240
▁ਕਾਲਮ	-4241
▁ਭੁੱਲ	-4242
▁ਸਕੇਲ	-4243
▁ਸਪੈਮ	-4244
▁ਇੰਕ੍ਰ	-4245
▁ਖੁਰਾਕ	-4246
▁ਭੇਜਿਆ	-4247
uangdong	-4248
▁ਟੈਟੂਹੱਥ	-4249
▁ਮੈਰਾਕੇਚ	-4250
▁Archives	-4251
IT	-4252
MM	-4253
ats	-4254
...]	-4255
Wise	-4256
ੁਕਾਨ	-4257
▁Bit	-4258
▁ਰਬੜ	-4259
board	-4260
▁ਵਾਟਰ	-4261
,%	-4262
Ch	-4263
ਯਾ	-4264
ਰੀਏ	-4265
cess	-4266
roid	-4267
ਵਿੰਗ	-4268
ਸ਼ਕਲ	-4269
▁Mac	-4270
▁ਇਕੱਠੇ	-4271
▁cameroon	-4272
41	-4273
ੁੱਝ	-4274
▁Th	-4275
▁ਘਣ	-4276
ਲੇਟਰ	-4277
▁ਹਿੰ	-4278
▁ਦੌਰਾ	-4279
▁check	-4280
▁ਇਮਾਰਤ	-4281
▁ਰਸਾਇਣ	-4282
▁inlist	-4283
▁ਸੀਐਨਸੀ	-4284
42	-4285
ao	-4286
ਤਿ	-4287
orp	-4288
ਲਾਅ	-4289
ਲੋਡ	-4290
▁06	-4291
▁ਬਕ	-4292
▁0.0	-4293
▁Cal	-4294
attoo	-4295
ੈਂਡਰਡ	-4296
▁ਬ੍ਰਾ	-4297
▁ਟੈਟੂਵ	-4298
esbians	-4299
▁object	-4300
▁ਜਾਇਦਾਦ	-4301
▁ਟਰਮੀਨਲ	-4302
67	-4303
ੋਈ	-4304
ੰਪ	-4305
▁DN	-4306
▁ਟੋ	-4307
ਜਿਆਂ	-4308
▁0.5	-4309
▁Col	-4310
▁ਐੱਸ	-4311
▁ਪਰਤ	-4312
▁ਡਰੱਗ	-4313
▁ਵਰਤੇ	-4314
▁ਸ਼ਾਇ	-4315
▁TabletWise	-4316
▁ਕਾਰਪੋਰੇਸ਼ਨ	-4317
ਟਕ	-4318
enc	-4319
ਿੱਲ	-4320
▁qu	-4321
▁ਮਜਬ	-4322
▁ਮਾਰਗ	-4323
▁ਰਿੰਗ	-4324
▁ਲੱਭਣ	-4325
▁ਵਾਧਾ	-4326
▁years	-4327
▁ਤਰੱਕੀ	-4328
▁ਸਿੱਧੇ	-4329
▁ਸੰਭਾਵਨਾ	-4330
ਗਨ	-4331
ath	-4332
mer	-4333
▁sc	-4334
▁Res	-4335
▁ਐਂਡ	-4336
▁ਚੈਟ	-4337
▁ਸਟਰ	-4338
▁ਗ੍ਰੇ	-4339
▁Image	-4340
▁[...]	-4341
▁ਸੁਆਗਤ	-4342
▁ਹਵਾਲੇ	-4343
▁ਇੰਸਟਾਲੇਸ਼ਨ	-4344
ਐਂ	-4345
ੈਣ	-4346
▁ਆਤ	-4347
ਰੀਅਰ	-4348
੍ਰਿਤ	-4349
press	-4350
▁ਘਟਨਾ	-4351
▁ਟੇਬਲ	-4352
▁ਵਿਸ਼ੇਸ਼ਤਾਵਾਂ	-4353
ode	-4354
ral	-4355
ager	-4356
▁ਚਿੰ	-4357
▁ਰਕਮ	-4358
▁Slot	-4359
ੂਫੈਕਚਰ	-4360
▁ਅਸਮਾਨ	-4361
▁ਦਿਸ਼ਾ	-4362
▁ਮੁਦਰਾ	-4363
▁ਦੁਬਾਰਾ	-4364
▁ਮੈਨੂਫੈਕਚਰ	-4365
ON	-4366
BAR	-4367
els	-4368
ose	-4369
▁Zh	-4370
▁ਛਾ	-4371
ਰੀਆਈ	-4372
▁ਟਾਇ	-4373
ravel	-4374
▁ਉੱਲੀ	-4375
▁ਤੁਲਨਾ	-4376
▁ਮਿੰਨੀ	-4377
▁ਮਾਈਕਰੋ	-4378
________	-4379
▁inlistbox	-4380
TP	-4381
ਕਨ	-4382
ਬੈਕ	-4383
▁*.	-4384
▁09	-4385
▁37	-4386
▁SD	-4387
ober	-4388
▁XXL	-4389
▁ਕੋਣ	-4390
ities	-4391
ufact	-4392
▁ਬਸੰਤ	-4393
▁ਸ਼ੁਕ	-4394
▁ਮੁਤਾਬ	-4395
▁ਸੰਚਾਲ	-4396
▁ਅਕਾਊਂਟ	-4397
▁ਚਿੰਨ੍ਹ	-4398
▁ਡੇਟਿੰਗ	-4399
61	-4400
ਿਅ	-4401
nam	-4402
▁MY	-4403
-200	-4404
itor	-4405
ਰੀਆਂ	-4406
umber	-4407
▁Page	-4408
▁ਪੰਜਾਬ	-4409
▁ਯੋਗਤਾ	-4410
▁ਆਕਰਸ਼ਣ	-4411
▁ਲਾਈਟਿੰਗ	-4412
▁counties	-4413
PM	-4414
ike	-4415
top	-4416
ਘੱਟ	-4417
ਬਾਦ	-4418
▁2:	-4419
reak	-4420
ਟੇਰਾ	-4421
ਨਿਟੀ	-4422
▁App	-4423
▁ਇਕੋ	-4424
ember	-4425
▁ਕੰਪਨ	-4426
▁ਜਾਣਿਆ	-4427
▁ਯੋਗਦਾਨ	-4428
▁ਸਟੈਂਡਰਡ	-4429
la	-4430
ੌਕ	-4431
➖➖	-4432
ੈਨੀ	-4433
▁ਚਿ	-4434
soft	-4435
▁ਠੋਸ	-4436
▁ਸਿਗ	-4437
ystem	-4438
▁ਅਖੀਰ	-4439
▁ਭੂਰੇ	-4440
▁ਹਲਕਾ	-4441
▁ਕਲਿੱਪ	-4442
▁ਮੋਟਾਈ	-4443
▁ਕਲਾਸਿਕ	-4444
▁ਜਾਵੇਗੀ	-4445
▁ਬੈਕਅੱਪ	-4446
tic	-4447
ਤਿਕ	-4448
▁4,	-4449
▁uk	-4450
▁up	-4451
▁ਕਦਰ	-4452
▁ਟੋਨ	-4453
▁ਦਫ਼	-4454
▁ਪੀਣ	-4455
ਟਲਾਂਟ	-4456
▁Sexy	-4457
▁here	-4458
▁ਮੱਦਦ	-4459
▁ਰੀਅਲ	-4460
▁ਪੱਛਮੀ	-4461
▁ਦਿਲਚਸਪ	-4462
▁ਮਾਰਕੀਟਿੰਗ	-4463
58	-4464
OP	-4465
su	-4466
ਸਟਨ	-4467
▁ਦਫ	-4468
▁ਆਰਥ	-4469
▁ਫੁਟ	-4470
▁ਸਦੀ	-4471
▁ਗੋਲੀ	-4472
▁ਪਹਾੜ	-4473
▁ਜਿਆਦਾ	-4474
▁ਸੰਗਠਨ	-4475
ਸਟੈਨਸ਼ਨ	-4476
DM	-4477
xx	-4478
yle	-4479
▁34	-4480
▁pu	-4481
ypro	-4482
▁ਕੈਟ	-4483
▁ਮੋਮ	-4484
▁ਖੇਡਣ	-4485
▁ਬਣਤਰ	-4486
▁ਵਰਤੀ	-4487
▁ਸਾਇਟ	-4488
▁ਕੰਟੇਨਰ	-4489
▁ਐਕਸਪੋਰਟ	-4490
raz	-4491
urb	-4492
ਾਸਾ	-4493
ੱਸਟ	-4494
ange	-4495
ound	-4496
▁ਰਹਿ	-4497
▁Last	-4498
▁Tech	-4499
▁ਦੁਕਾਨ	-4500
ational	-4501
▁ਵੇਖਾਉਣ	-4502
▁ਪ੍ਰਣਾਲੀ	-4503
ification	-4504
▁ਇੰਜੀਨੀਅਰ	-4505
ੈਦ	-4506
+00	-4507
hek	-4508
▁how	-4509
▁ਚਮਕ	-4510
▁ਰੀਡ	-4511
▁ਛੇਤੀ	-4512
▁ਸਟੀਕਰ	-4513
▁ਬੈਕਐਂਡ	-4514
▁ਹਾਈਬ੍ਰ	-4515
▁ਵਿਗਿਆਪਨ	-4516
▁28,	-4517
▁Min	-4518
▁Home	-4519
▁ਧਾਤੂ	-4520
▁ਕੁਕੀਜ਼	-4521
▁ਕਾਰਪੋਰੇਟ	-4522
Sp	-4523
ife	-4524
uck	-4525
ੰਭੀਰ	-4526
▁FSX	-4527
▁ਆਲਮ	-4528
▁ਕੂਲ	-4529
▁ਮੈਚ	-4530
▁ਉਪਯੋਗ	-4531
▁ਤਰੀਕਾ	-4532
▁ਸ਼ਾਇਦ	-4533
artments	-4534
▁ਛਪ	-4535
ੌਲਿਕ	-4536
▁ਅਦਾ	-4537
▁ਡੈਮ	-4538
▁ਬਾਇ	-4539
vince	-4540
▁comp	-4541
▁have	-4542
▁ਗਈਆਂ	-4543
▁ਸੂਚਕ	-4544
+00:00	-4545
▁ਅਲਾਰਮ	-4546
▁ਗੰਭੀਰ	-4547
▁ਟੁਕੜੇ	-4548
▁ਸਵਾਗਤ	-4549
▁ਸਾਜ਼ੋ	-4550
▁Diffuser	-4551
▁ਜ਼ਿਆਦਾਤਰ	-4552
lin	-4553
ਸਪੀ	-4554
▁ਆਏ	-4555
ਜੀਟਲ	-4556
ਫਲਾਈ	-4557
ਸ਼ਿਤ	-4558
▁Nov	-4559
▁ਗਦਾ	-4560
▁ਚਰਚ	-4561
▁Game	-4562
▁Open	-4563
▁ਆਯੋਗ	-4564
▁ਏਜੰਟ	-4565
▁ਰੂਸੀ	-4566
▁ਹਫਤੇ	-4567
▁ਦਸਤਖਤ	-4568
▁ਪਬਲਿਕ	-4569
▁ਲਾਗਿਨ	-4570
▁ਉਦਾਹਰਣ	-4571
▁ਉਪਭੋਗਤਾ	-4572
79	-4573
▁u	-4574
oto	-4575
ਜਾਂ	-4576
ਦਿਨ	-4577
▁ਵਸ	-4578
ਈਮੇਲ	-4579
ਸਟਰੀ	-4580
▁18+	-4581
▁all	-4582
▁ਏਪੀ	-4583
▁ਦਰਜ	-4584
▁ਫਾਰ	-4585
▁2009	-4586
▁ਜਨਰਲ	-4587
▁ਮੌਕੇ	-4588
ਭੁ	-4589
wed	-4590
ੱਬਾ	-4591
oooo	-4592
ould	-4593
▁ਚੇਨ	-4594
▁ਕੁੜੀ	-4595
verter	-4596
▁ਪੁੱਛੋ	-4597
▁ਭਰੋਸਾ	-4598
.-	-4599
ei	-4600
agn	-4601
byg	-4602
ott	-4603
ੱਲੇ	-4604
▁SK	-4605
▁Jet	-4606
▁ਕਿਊ	-4607
▁ਕੈਪ	-4608
▁ਬੁਰ	-4609
▁ਰੋਮ	-4610
▁ਸੜਕ	-4611
ਜ਼ੂਕੀ	-4612
▁does	-4613
▁ਗ੍ਰਹਿ	-4614
▁ਦਫ਼ਤਰ	-4615
▁ਮਾਹਿਰ	-4616
▁ਸਜਾਵਟ	-4617
ufactur	-4618
▁ਸੁਜ਼ੂਕੀ	-4619
▁ਇਲੈਕਟ੍ਰਿਕ	-4620
ਗੋ	-4621
ild	-4622
way	-4623
ਇੱਕ	-4624
ਬਾਇ	-4625
▁ਖਿ	-4626
ਪਰੀਤ	-4627
▁All	-4628
▁new	-4629
▁ਚਿਹ	-4630
▁ਰਿਹ	-4631
ਰੇਸ਼ਨ	-4632
▁ਡਿਜੀਟਲ	-4633
ST	-4634
aj	-4635
led	-4636
▁Re	-4637
fish	-4638
lect	-4639
ਕਿੰਗ	-4640
ਲਿੰਗ	-4641
▁them	-4642
▁ਅਦਾਲ	-4643
▁ਦਿਨਾਂ	-4644
▁Germany	-4645
▁October	-4646
yprovince	-4647
▁ਇਲੈਕਟ੍ਰਾਨ	-4648
▁departments	-4649
▁italyprovince	-4650
ਰਟੀ	-4651
ੋਨੇ	-4652
▁AT	-4653
▁Ri	-4654
▁Tr	-4655
iber	-4656
ਖਿਆਂ	-4657
ਵਿੱਚ	-4658
▁ਸਾਧਨ	-4659
▁ਜਾਣਦੇ	-4660
——	-4661
ਿਅਰ	-4662
▁2)	-4663
▁ਥੋਕ	-4664
▁ਇਸਦਾ	-4665
▁ਕਾਰਟ	-4666
▁ਵਿਜ਼	-4667
▁ਐਂਟਰੀ	-4668
▁ਨੌਕਰੀ	-4669
▁search	-4670
▁Android	-4671
▁ਇੰਟਰਵਿਊ	-4672
▁ਹਾਈਡ੍ਰੌਲਿਕ	-4673
ਮਨ	-4674
jin	-4675
ਾਸਨ	-4676
▁1/	-4677
▁ਗਿ	-4678
▁ਕਹਿ	-4679
▁ਖਪਤ	-4680
▁ਦਾਅ	-4681
▁ਬੇਸ	-4682
irect	-4683
▁86-5	-4684
▁ਦੂਜਾ	-4685
▁ਬੋਤਲ	-4686
▁ਰਸੋਈ	-4687
▁ਸੌਖਾ	-4688
ਟਰਫਲਾਈ	-4689
▁ਸਿੱਧਾ	-4690
▁ਪਰਿੰਟਰ	-4691
▁ਪ੍ਰਮੁੱਖ	-4692
▁ਬੁਨਿਆਦੀ	-4693
755	-4694
ਸੀਏ	-4695
▁Ne	-4696
ason	-4697
orth	-4698
▁110	-4699
▁Aut	-4700
▁fil	-4701
▁ਗੁਰ	-4702
ublic	-4703
▁find	-4704
▁ਪ੍ਰੇਰ	-4705
▁ਭਾਵਨਾ	-4706
ਡਿੱ	-4707
ਡੈਸ	-4708
▁ed	-4709
ateg	-4710
shop	-4711
ਾਰਟੀ	-4712
▁22,	-4713
▁ਕੋੜ	-4714
▁ਖਰਚ	-4715
ਵਾਇਤੀ	-4716
▁ਕਿੱਟ	-4717
▁ਮਾਰਕ	-4718
▁ਵੇਚਣ	-4719
▁Trans	-4720
▁ਚਲਾਇਆ	-4721
▁greece	-4722
▁ਮੁਤਾਬਕ	-4723
Language	-4724
ਬਸ	-4725
▁੧	-4726
iki	-4727
▁gu	-4728
ਨੇਟਰ	-4729
▁ਕਰਾ	-4730
=\\\\	-4731
▁ਉੱਤਰ	-4732
▁ਕੂਪਨ	-4733
ਸ਼ੀਲਤਾ	-4734
▁ਬਚਾਉਣ	-4735
71	-4736
ecur	-4737
ਸਟੋਰ	-4738
▁ਪੁਲ	-4739
▁ਪੂਲ	-4740
▁ਰੁਝ	-4741
ਿਪਸ਼ਨ	-4742
▁ਕਲੱਬ	-4743
▁ਗਾਰਡ	-4744
▁ਛਾਤੀ	-4745
▁ਮਾਹਰ	-4746
▁ਸ਼ਰਾਬ	-4747
5,	-4748
MB	-4749
800	-4750
ane	-4751
▁ਆਯ	-4752
▁ਖਰ	-4753
ਾਈਆਂ	-4754
▁ਨਕਦ	-4755
▁ਆਰਾਮ	-4756
▁ਪਾਰਟ	-4757
▁ਰੀਡਰ	-4758
▁ਰੋਕਣ	-4759
bygden	-4760
▁ਅਣਡਿੱ	-4761
▁ਐਕਟਿਵ	-4762
▁ਵਿਧਾਨ	-4763
▁ਆਈਟਮਾਂ	-4764
▁ਅਮਨਪਰੀਤ	-4765
▁ਪਰੋਜੈਕਟ	-4766
▁ਸਿਫਾਰਸ਼	-4767
▁Microsoft	-4768
ਇਹ	-4769
▁·	-4770
rap	-4771
ਪਾਲ	-4772
ੋਮੋ	-4773
▁PR	-4774
ilic	-4775
ster	-4776
ੋਗ੍ਰ	-4777
▁son	-4778
▁ਕੁਰ	-4779
ebook	-4780
▁ਮਸੀਹ	-4781
▁ਸਟ੍ਰ	-4782
▁ਜਾਨਵਰ	-4783
▁ਟੈਟੂਮ	-4784
▁ਵਾਇਰਲ	-4785
ਟਲਾਂਟਿਕ	-4786
▁ਗਾਹਕਾਂ	-4787
▁ਯੂਕਰੇਨ	-4788
▁Unlimited	-4789
TC	-4790
ors	-4791
ven	-4792
▁Sk	-4793
▁ਬਗ	-4794
▁12:	-4795
▁ਆਪੋ	-4796
▁ਐੱਮ	-4797
▁ਬਾਗ	-4798
▁ਸੱਟ	-4799
▁take	-4800
▁ਤਲਾਸ਼	-4801
▁ਕਮਿਸ਼ਨ	-4802
▁ਬਾਜ਼ਾਰ	-4803
▁GenericName	-4804
-04	-4805
ual	-4806
ਧਾਰਤ	-4807
ੜ੍ਹੇ	-4808
▁ਡਿਜ	-4809
▁ਬਲੂ	-4810
▁ਛੋਟੀ	-4811
▁ਸਮਝਣ	-4812
▁ਕਰੈਸ਼	-4813
▁ਘਟਾਉਣ	-4814
▁ਕਹਿੰਦਾ	-4815
▁ਰਵਾਇਤੀ	-4816
▁ਪ੍ਰੋਸੈਸ	-4817
EL	-4818
era	-4819
ify	-4820
ਖਿਅਤ	-4821
▁tur	-4822
▁ਕਿੰ	-4823
▁ਬੁਲ	-4824
▁ਹੁਨ	-4825
▁Word	-4826
▁ਵਿਦਜ	-4827
▁ਅਕਾਇਵ	-4828
▁ਬਰਾਬਰ	-4829
▁ਸਿੱਖਣ	-4830
▁ਡਰਾਈਵਰ	-4831
▁ਕੰਟਰੋਲਰ	-4832
amb	-4833
osh	-4834
ਸ਼ੇ	-4835
▁(4	-4836
▁Psa	-4837
▁ਸਭਾ	-4838
▁ਵਿਸਥ	-4839
witter	-4840
▁ਮੈਨੂਫੈਕਚਰਜ਼	-4841
56	-4842
@}	-4843
ਦੂ	-4844
SQL	-4845
air	-4846
ਟਿਕ	-4847
ਸ਼ੂ	-4848
▁Hu	-4849
▁Te	-4850
▁ਟਨ	-4851
0000	-4852
ਲੇਟੀ	-4853
▁{@}	-4854
▁ਨਾਚ	-4855
Query	-4856
▁Franç	-4857
▁ਆਰਥਿਕ	-4858
▁ਲੋੜੀਂ	-4859
▁ਮੁਸ਼ਕਲ	-4860
ੋਲਨ	-4861
▁(10	-4862
▁ਦਰਦ	-4863
ified	-4864
▁ਨੈਟਵਰਕ	-4865
KW	-4866
bol	-4867
ਡਿਓ	-4868
ੈਸਟ	-4869
▁ਕਪ	-4870
▁ਹਥ	-4871
name	-4872
oint	-4873
ਗਰੇਡ	-4874
ਸ਼ਿਪ	-4875
▁Pay	-4876
▁ਪੇਜ	-4877
▁play	-4878
▁ਦੋਨੋ	-4879
▁ਪੈਸਾ	-4880
▁ਵਿਧੀ	-4881
ietnam	-4882
▁ਦੇਖਿਆ	-4883
▁ਫੈਸਲਾ	-4884
ਖਿਆਂਵਾਂ	-4885
▁ਗਾਰੰਟੀ	-4886
▁Lesbians	-4887
zip	-4888
ਗੇਟ	-4889
ਸੰਗ	-4890
ache	-4891
ਗੁਲਾ	-4892
ਰਾਜ਼	-4893
▁Apr	-4894
▁ਕਿਨ	-4895
▁ਮੋਲ	-4896
▁ਚੱਲਣ	-4897
▁ਨੀਲੇ	-4898
▁ਸਫਾਈ	-4899
▁ਹੈਲਪ	-4900
▁ਐਡੀਟਰ	-4901
acebook	-4902
▁Europe	-4903
▁ਖੋਜਕਾਰ	-4904
pm	-4905
600	-4906
ੈਂਚ	-4907
▁03	-4908
ਚਾਰੀ	-4909
▁1.0	-4910
ffice	-4911
▁when	-4912
▁ਤੁਸੀ	-4913
▁ਦਰਜਾ	-4914
▁ਮਿਲੇ	-4915
▁ਦੁਆਲੇ	-4916
▁ਫੈਸ਼ਨ	-4917
▁ਕਾਪਿਅਰ	-4918
▁ਸਕਦੀਆਂ	-4919
▁ਸੁਰਖਿਅਤ	-4920
▁ਜ਼ਿੰਮੇਵਾਰੀ	-4921
▁ਸਮੀਖਿਆਂਵਾਂ	-4922
ps	-4923
੦੦	-4924
24.	-4925
jan	-4926
▁7,	-4927
▁ਇੱ	-4928
ingd	-4929
ਰਵਾਰ	-4930
▁CNC	-4931
▁Pol	-4932
▁ਨਾਇ	-4933
▁ਸੰਸ	-4934
▁ਐਂਟੀ	-4935
▁ਕਲੀਨ	-4936
▁ਟਰੱਕ	-4937
▁ਦੇਣਾ	-4938
▁ਮਾਨੀ	-4939
▁ਵਰਣਨ	-4940
▁ਸਟਾਰ	-4941
▁ਸਫੈਦ	-4942
▁vietnam	-4943
iy	-4944
oh	-4945
ਪੱ	-4946
ਰੂ	-4947
ਣਾਅ	-4948
ਦਾਈ	-4949
▁.:	-4950
▁ਮਕ	-4951
▁380	-4952
▁Des	-4953
▁ਬੇਹ	-4954
▁ਪੰਨੇ	-4955
▁ਏਪੀਕੇ	-4956
▁ਟਿਕਾਣੇ	-4957
▁ਪੁਆਇੰਟ	-4958
▁prefect	-4959
▁ਨਿਰਧਾਰਤ	-4960
▁ਸ਼ੂਟਿੰਗ	-4961
▁Français	-4962
2.	-4963
IP	-4964
ੰਸੀ	-4965
▁5,	-4966
▁ਰਲ	-4967
ਡੈਸਕ	-4968
ਵਿਧਾ	-4969
▁125	-4970
▁For	-4971
▁ਆਰਕ	-4972
▁ਇੱਟ	-4973
▁ਪੈਚ	-4974
▁ਵੋਟ	-4975
▁ਅੰਦਾ	-4976
▁ਟਾਈਟ	-4977
▁ਵਿਖੇ	-4978
▁ਸਕੋਰ	-4979
lywood	-4980
▁ਕਿੱਥੇ	-4981
▁ਸੋਸ਼ਲ	-4982
▁ਹੈਰਾਨ	-4983
▁probab	-4984
▁ਮਾਨੀਟਰ	-4985
▁ਵਿਸਥਾਰ	-4986
▁prefectures	-4987
84	-4988
sk	-4989
ਤੁ	-4990
bai	-4991
eel	-4992
ਸਾਮ	-4993
apan	-4994
▁Esp	-4995
▁par	-4996
▁ਅਸਥ	-4997
▁ਬੱਸ	-4998
▁ਮੈਪ	-4999
▁ਰੁਪ	-5000
▁ਮਿੱਲ	-5001
▁ਸਟੇਟ	-5002
▁probably	-5003
63	-5004
CM	-5005
EN	-5006
KG	-5007
ਰਾਸ	-5008
ਡੀਅਮ	-5009
▁API	-5010
▁Not	-5011
▁unl	-5012
▁ਢਾਂ	-5013
ology	-5014
▁ਆਦਰਸ਼	-5015
▁ਇਸਨੂੰ	-5016
▁ਸਿਗਨਲ	-5017
▁ਹੈਲਪਡੈਸਕ	-5018
▁Holmbygden	-5019
87	-5020
SA	-5021
añ	-5022
NUM	-5023
▁**	-5024
Tube	-5025
acks	-5026
orea	-5027
ਪੇਪਰ	-5028
▁ਲੱਖ	-5029
▁ਸਪੱ	-5030
▁file	-5031
▁ਧੁਨੀ	-5032
▁ਲੱਭੋ	-5033
▁great	-5034
▁sonit	-5035
▁sonitattoo	-5036
ਘਰ	-5037
ade	-5038
ਜੂਦ	-5039
ਪੁਰ	-5040
ਿਕਟ	-5041
ੂਜ਼	-5042
▁ਪਕ	-5043
ਜ਼ਮਾ	-5044
ਬਾਰਕ	-5045
▁amp	-5046
▁ਕਲਰ	-5047
▁ਜੈਕ	-5048
▁ਮੁਰ	-5049
▁2008	-5050
▁some	-5051
▁will	-5052
▁ਗੇਮਸ	-5053
▁ਡੇਟਾ	-5054
▁ਮਾਊਸ	-5055
▁ਪੁਰਸ਼	-5056
▁ਵਿੱਤੀ	-5057
▁France	-5058
CT	-5059
GH	-5060
HH	-5061
arm	-5062
▁Gu	-5063
▁000	-5064
▁21,	-5065
▁Top	-5066
▁ਫਰੀ	-5067
▁ਵਿਹ	-5068
redit	-5069
ਦੁਆਲੇ	-5070
ਰਨਿੰਗ	-5071
▁ਕਰੀਏ	-5072
▁ਪੜਾਅ	-5073
▁ਮੁਲਾ	-5074
▁Jiang	-5075
▁ਪਹਿਲਾ	-5076
▁ਸਟਰੀਟ	-5077
▁ਸੰਪਾਦਕ	-5078
▁ਪ੍ਰਿੰਟਰ	-5079
43	-5080
kw	-5081
ਜ਼ਲ	-5082
ਡਜ਼	-5083
ੋਗੋ	-5084
▁Ab	-5085
▁QR	-5086
ੜ੍ਹਾ	-5087
▁2.0	-5088
▁20,	-5089
▁Net	-5090
▁pol	-5091
▁ਕਿਹ	-5092
▁ਝਰੋ	-5093
ocket	-5094
ਜ਼ਾਰੀ	-5095
ਾਡੀਆਂ	-5096
▁ਐਲਾਨ	-5097
▁ਟੋਨਰ	-5098
▁ਦਫਤਰ	-5099
▁ਵਾਈਨ	-5100
▁India	-5101
▁ਲਿਖਣਾ	-5102
▁ਸਲਾਇਡ	-5103
▁ਮੁਬਾਰਕ	-5104
▁ਵਾਲਪੇਪਰ	-5105
▁ਮੋਟਰਸਾਈਕਲ	-5106
TO	-5107
ser	-5108
ਪੇਕ	-5109
raph	-5110
▁she	-5111
▁ਉਡਾ	-5112
▁ਸੋਮ	-5113
india	-5114
ੁੰਦਰੀ	-5115
▁3200	-5116
▁page	-5117
▁ਪਤਨੀ	-5118
▁ਸੈੱਲ	-5119
▁ਸੋਨੇ	-5120
▁ਚਿਹਰੇ	-5121
▁ਪੜਤਾਲ	-5122
▁ਰੱਖਦਾ	-5123
▁ਲੁਟੇਰਾ	-5124
▁ਦਿਲਚਸਪੀ	-5125
ufacturer	-5126
mp	-5127
ਬੂ	-5128
ਵੈ	-5129
ਕਾਲ	-5130
▁We	-5131
▁ਰਮ	-5132
ੋਕਾਲ	-5133
▁10,	-5134
▁Wor	-5135
▁ਇਕਸ	-5136
▁ਥਰਮ	-5137
aters	-5138
▁2005	-5139
▁ਕਾਸਟ	-5140
▁ਚੇਅਰ	-5141
▁ਤੀਬਰ	-5142
▁ਨਾਈਟ	-5143
▁Españ	-5144
▁class	-5145
▁ਪ੍ਰਗਟ	-5146
▁ਰਹਿੰਦੇ	-5147
▁ਸ਼ੁਕੀਨ	-5148
▁ਡਿਵੈਲਪਰ	-5149
▁ਤਬਦੀਲੀਆਂ	-5150
▁ਪ੍ਰਭਾਵਿਤ	-5151
▁ਪ੍ਰਾਪਰਟੀ	-5152
▁ਪ੍ਰਭਾਵਸ਼ਾਲੀ	-5153
AM	-5154
ta	-5155
ela	-5156
str	-5157
▁AM	-5158
▁MP	-5159
ense	-5160
tern	-5161
usic	-5162
ਭਾਵੀ	-5163
▁2.5	-5164
▁Jav	-5165
▁ਪੇਚ	-5166
▁ਭਰਨ	-5167
▁ਰਿਸ	-5168
anges	-5169
ਿਟਿਸ਼	-5170
▁ਦਰਵਾ	-5171
▁about	-5172
▁ਕਾਰਗੁ	-5173
▁ਸਟਰੀਮ	-5174
▁ਸਾਂਝਾ	-5175
▁ਸਿਲਾਈ	-5176
▁ਇੰਡੈਕਸ	-5177
▁ਪੇਸ਼ਾਵਰ	-5178
64	-5179
TD	-5180
gy	-5181
ਿਚ	-5182
aly	-5183
une	-5184
ੋਕੜ	-5185
▁Me	-5186
▁ਬੂ	-5187
face	-5188
zhou	-5189
ਕਾਉਣ	-5190
ਭਿਆਸ	-5191
▁ਅਰਬ	-5192
▁ਰੀਲ	-5193
▁ਵੈਲ	-5194
▁ਸੀਟ	-5195
ivers	-5196
▁ਐਕਸਚ	-5197
▁ਜੋੜੇ	-5198
▁ਨਤੀਜਾ	-5199
▁ਰੱਖਦੇ	-5200
▁ਵੱਲੋਂ	-5201
▁ਸੁਵਿਧਾ	-5202
▁ਤਸਵੀਰਾਂ	-5203
In	-5204
UD	-5205
uj	-5206
ੰਨਾ	-5207
isco	-5208
ਕਾਸਟ	-5209
ਫਿਕਸ	-5210
▁ਅੱਗ	-5211
▁ਐਨੀ	-5212
▁ਦਾਗ	-5213
▁ਰਹੋ	-5214
ਸ਼ੀਆਈ	-5215
▁ਚੁਣੀ	-5216
▁ਦੂਰੀ	-5217
▁ਫਾਰੇ	-5218
▁ਸਖ਼ਤ	-5219
▁ਸੁੱਟ	-5220
▁ਅਭਿਆਸ	-5221
▁ਪ੍ਰਭੂ	-5222
▁ਵੀਡਿਓ	-5223
▁ਅਨੁਮਾਨ	-5224
▁ਪ੍ਰਸ਼ਨ	-5225
▁ਸਪੱਸ਼ਟ	-5226
▁Company	-5227
▁ਪਰਿਵਰਤਨ	-5228
▁ਹੁੰਦੀਆਂ	-5229
▁ਕਿਲੋਮੀਟਰ	-5230
▁Guangdong	-5231
Description	-5232
wa	-5233
yc	-5234
ਏਟ	-5235
ਟੂ	-5236
ਸੁ	-5237
alv	-5238
ਸ਼ਰ	-5239
ਿਕਰ	-5240
▁6,	-5241
▁12,	-5242
▁180	-5243
▁ਪੈਨ	-5244
▁ਮਿਰ	-5245
other	-5246
▁Cent	-5247
▁Hong	-5248
▁ਆਦਮੀ	-5249
▁ਕਿਤੇ	-5250
▁ਫਲੈਟ	-5251
▁ਸ੍ਰੀ	-5252
quotes	-5253
ritain	-5254
▁ਅੰਕੜੇ	-5255
▁ਡਰਾਈਵ	-5256
▁ਸਮੁੰਦਰੀ	-5257
-30	-5258
ਵਰੇ	-5259
ਾਰਥ	-5260
▁44	-5261
▁CS	-5262
▁en	-5263
▁ਗਾ	-5264
ario	-5265
ਟੈਟੂ	-5266
▁101	-5267
▁ਫ੍ਰ	-5268
▁ਬਾਵ	-5269
▁ਬੈਲ	-5270
▁ਮੈਗ	-5271
▁ਹਰਾ	-5272
▁ਆਗਿਆ	-5273
▁ਮਾਤਾ	-5274
action	-5275
▁ਨਾਲੋਂ	-5276
▁ਲੀਨਕਸ	-5277
▁message	-5278
▁ਐਕਸਚੇਂਜ	-5279
▁ਵਿਦਜੈੱਟ	-5280
ਮਣ	-5281
ੌਪ	-5282
ੰਧ	-5283
▁→	-5284
ਊਟਰ	-5285
ites	-5286
▁Pre	-5287
▁ਚਿਲ	-5288
▁ਡੀਬ	-5289
▁ਰਿਵ	-5290
▁ਬਾਈਕ	-5291
▁ਪਰਭਾਵ	-5292
▁ਫਾਇਲ਼	-5293
▁ਸਹਿਮਤ	-5294
▁ਬਾਵਜੂਦ	-5295
▁ਰਮਜ਼ਾਨ	-5296
▁GLONASS	-5297
▁ਸੁੰਦਰਤਾ	-5298
▁ਕਾਰਗੁਜ਼ਾਰੀ	-5299
SH	-5300
456	-5301
Pro	-5302
ora	-5303
ਟੋਰ	-5304
ਰਜੀ	-5305
▁Wi	-5306
ider	-5307
ਡੀਅਨ	-5308
▁24,	-5309
▁Rik	-5310
▁ਪਾਓ	-5311
▁ਅਟੈਚ	-5312
▁ਜਲਦੀ	-5313
▁ਨਕਲੀ	-5314
▁ਯਾਕੂ	-5315
▁ਇੰਕੋਡ	-5316
▁ਨੋਟਿਸ	-5317
▁ਵਿਰੋਧ	-5318
▁ਸਿਆਣੇ	-5319
▁ਹਟਾਇਆ	-5320
▁ਜਰਨੇਟਰ	-5321
▁unlimited	-5322
::	-5323
RC	-5324
ਖਮ	-5325
ier	-5326
rid	-5327
ਪਨਾ	-5328
ਰਾਜ	-5329
▁33	-5330
▁II	-5331
▁ਟੂ	-5332
▁ਮੂ	-5333
ault	-5334
ized	-5335
ques	-5336
ਾਤਮਕ	-5337
▁10:	-5338
▁XXX	-5339
ਸਾਮਾਨ	-5340
ਾਰੀਆਂ	-5341
▁ਜਿਹੇ	-5342
▁ਪਰੋਟ	-5343
▁ਵੱਧੋ	-5344
ecurity	-5345
▁ਕਰਮਚਾਰੀ	-5346
ਕਣ	-5347
ਾਸਕ	-5348
▁PS	-5349
▁TS	-5350
ents	-5351
ਵਾਦੀ	-5352
▁PHP	-5353
▁ਇੰਦ	-5354
-2017	-5355
Press	-5356
ਬਾਇਲੀ	-5357
▁Riad	-5358
▁ਟਾਇਲ	-5359
▁ਲੈਪਟ	-5360
asinos	-5361
ਕਿਸਤਾਨ	-5362
▁ਐਪਲਿਟ	-5363
▁ਚੱਲਦਾ	-5364
▁ਦੱਸਿਆ	-5365
▁ਬਦਲਾਅ	-5366
▁ਬਿੱਲੀ	-5367
▁ਵਿਸ਼ਾ	-5368
▁ਸ਼ੈੱਲ	-5369
▁ਸਾਊਂਡ	-5370
▁ਮਿਸ਼ਰਤ	-5371
▁ਵਿਅਕਤੀਗਤ	-5372
6,	-5373
ZK	-5374
ਉਡ	-5375
ਲਰ	-5376
▁4:	-5377
▁ਵੂ	-5378
rica	-5379
▁SKU	-5380
▁ਠੰਢ	-5381
▁Tool	-5382
▁comm	-5383
▁ਤਣਾਅ	-5384
▁ਫੋਕਸ	-5385
▁ਬਾਇਓ	-5386
▁europ	-5387
▁ਮਰੀਜ਼	-5388
▁ਮੋਹਰੀ	-5389
▁ਯਾਕੂਬ	-5390
▁ਰਿਹਾਇ	-5391
▁ਵਿਸ਼ੇ	-5392
▁ਸੰਤੁਲ	-5393
▁turkey	-5394
▁ਰੀਲਿਜ਼	-5395
▁ਸਾਲਾਨਾ	-5396
▁britain	-5397
▁ਸਾਵਧਾਨੀਆਂ	-5398
-11	-5399
bar	-5400
ਜ਼ਤ	-5401
ਲਜ਼	-5402
▁38	-5403
▁54	-5404
▁we	-5405
ੈਸਟਰ	-5406
▁Mon	-5407
▁ਤੋਹ	-5408
▁ਬਰਤ	-5409
▁ਸਲੋ	-5410
▁time	-5411
▁ਪੂਰਨ	-5412
▁ਰਾਜਾ	-5413
▁ਖੁਸ਼ੀ	-5414
▁ਸ਼ਾਰਟ	-5415
ategory	-5416
▁Rikoooo	-5417
▁ਹਾਈਬ੍ਰਾਇਡ	-5418
."	-5419
ਥਰ	-5420
900	-5421
▁85	-5422
▁Le	-5423
urch	-5424
ਬਾਰੀ	-5425
▁ICO	-5426
▁sup	-5427
▁ਲਾਂ	-5428
▁ਸ੍ਰ	-5429
▁ਕੁੱਝ	-5430
ailand	-5431
▁ਜਪਾਨੀ	-5432
▁ਟੈਟੂਪ	-5433
▁ਬਹੁਤੇ	-5434
▁ਸਬਸਟੀ	-5435
▁ਅਧਿਕਤਮ	-5436
▁ਚੁੰਬਕੀ	-5437
▁ਲੈਪਟਾਪ	-5438
▁ਸੰਚਾਰਨ	-5439
▁Español	-5440
▁ਲੈਸਬੀਅਨ	-5441
▁Whatsapp	-5442
▁ਸਬਸਟੀਚਿਊਟ	-5443
sm	-5444
ern	-5445
ole	-5446
▁..	-5447
▁42	-5448
ਵਾਟਰ	-5449
▁Sup	-5450
▁ਅਸੀ	-5451
lands	-5452
▁ਪ੍ਰੇ	-5453
▁ਬੁੱਧ	-5454
▁ਹਾਸਲ	-5455
▁ਕਹਾਣੀ	-5456
▁ਗੋਲਡਨ	-5457
▁ਮੁੱਦੇ	-5458
▁ਰਾਊਟਰ	-5459
▁ਸ਼ਾਵਰ	-5460
▁ਕੁਆਲਟੀ	-5461
▁ਸਕਰਿਪਟ	-5462
▁ਹੈਰਾਨੀ	-5463
ਟੀਫਿਕੇਸ਼ਨ	-5464
!!	-5465
ਬਈ	-5466
ਸੋ	-5467
ਕੱਟ	-5468
ਟ੍ਰ	-5469
ਪਿਕ	-5470
ਾਮਾ	-5471
ੱਡੇ	-5472
▁77	-5473
▁ਝਾ	-5474
inst	-5475
▁0.2	-5476
▁17,	-5477
▁SMS	-5478
▁str	-5479
▁ਪਹਿ	-5480
▁ਪਾਪ	-5481
▁ਵਿਰ	-5482
▁ਸਵੇ	-5483
atuit	-5484
ਗ੍ਰਾਮ	-5485
▁hack	-5486
▁ਮੁਸਲ	-5487
▁ਮੱਧਮ	-5488
▁Gener	-5489
▁ਵੱਖਰਾ	-5490
▁ਹਜ਼ਾਰ	-5491
▁Server	-5492
▁ਪਲਾਜ਼ਮਾ	-5493
cn	-5494
ਪਾਤ	-5495
▁ਡੁ	-5496
ness	-5497
sard	-5498
ਚਾਰੇ	-5499
੍ਰੀਟ	-5500
▁Duc	-5501
▁eur	-5502
▁ਗਰਭ	-5503
▁ਸਮੁ	-5504
ialog	-5505
inder	-5506
▁MYHH	-5507
▁ਅਪਰਾ	-5508
▁ਇੱਛਾ	-5509
▁ਬਗੈਰ	-5510
▁ਅਵਸਥਾ	-5511
▁ਟਾਈਟਲ	-5512
▁ਡੀਬੱਗ	-5513
▁ਨਿਯੰਤਰ	-5514
▁ਫਿਟਿੰਗ	-5515
▁ਵਿਜ਼ਟਰ	-5516
▁ਕੁਸ਼ਲਤਾ	-5517
▁official	-5518
▁ਕਲਿੱਪਬੋਰਡ	-5519
9,	-5520
EC	-5521
Fi	-5522
ਜਿ	-5523
ੁਮ	-5524
ੋਹ	-5525
ਾਪਸ	-5526
▁GB	-5527
▁MT	-5528
▁iP	-5529
▁ਅਚ	-5530
▁ਤਨ	-5531
aint	-5532
item	-5533
ਫੁੱਲ	-5534
ਬਾਦੀ	-5535
ਮਿਲੀ	-5536
▁1.2	-5537
▁Acc	-5538
▁CPU	-5539
▁usa	-5540
perty	-5541
▁ਅਮੀਰ	-5542
▁ਬਣਾਏ	-5543
▁ਸੱਦਾ	-5544
▁ਚਿੰਤਾ	-5545
▁ਮਜਬੂਰ	-5546
▁ਵਿਚੋਂ	-5547
▁ਵੇਖਿਆ	-5548
▁ਰਿਸ਼ਤੇ	-5549
atalonia	-5550
▁Gratuit	-5551
▁ਇੰਟਰਨੈਟ	-5552
▁ਖੋਲ੍ਹਿਆ	-5553
Ad	-5554
150	-5555
ਡ੍ਰ	-5556
ਰੋਨ	-5557
ੂੰਹ	-5558
▁58	-5559
▁65	-5560
mark	-5561
▁SSL	-5562
▁ਪੁੰ	-5563
ਸਪਤਾਲ	-5564
▁ਉਦੋਂ	-5565
▁ਕੋਰਟ	-5566
▁ਜੋੜੋ	-5567
▁ਡੂੰਘ	-5568
▁Cisco	-5569
▁ਰੇਡੀਓ	-5570
▁ਸਟਾਈਲ	-5571
▁Ducati	-5572
▁ਪਾਬੰਦੀ	-5573
▁Tianjin	-5574
▁ਰਜਿਸਟਰੇਸ਼ਨ	-5575
lp	-5576
-08	-5577
▁02	-5578
unny	-5579
▁Car	-5580
▁ਡਾਇ	-5581
▁ਤੂੰ	-5582
▁ਕਲਿਕ	-5583
▁ਟੀਵੀ	-5584
▁ਰੋਲਰ	-5585
▁ਹੋਵੋ	-5586
baijan	-5587
irater	-5588
onesia	-5589
▁puert	-5590
▁ਇਕਸਾਰ	-5591
▁ਖੇਡਾਂ	-5592
▁Please	-5593
▁ਅਧਾਰਿਤ	-5594
▁ਕੰਪਨੀਆਂ	-5595
.15	-5596
ask	-5597
con	-5598
tle	-5599
urg	-5600
ਵਾਲ	-5601
ੰਮਤ	-5602
star	-5603
ਤੰਤਰ	-5604
ਬੱਤੀ	-5605
ਸ਼ਟਰ	-5606
ੜ੍ਹੀ	-5607
▁rom	-5608
▁ਓਵਰ	-5609
▁ਬਣਨ	-5610
ature	-5611
orico	-5612
▁ਇੱਕੋ	-5613
▁ਖੇਤੀ	-5614
▁ਖੋਜੋ	-5615
▁ਮਿਆਰ	-5616
arques	-5617
▁ਵਿਕਸਤ	-5618
▁ਗੁਲਾਬੀ	-5619
▁ਪਿਛੋਕੜ	-5620
▁ਪ੍ਰਸ਼ਾਸਨ	-5621
▁puertorico	-5622
ਡੋ	-5623
fig	-5624
urr	-5625
ਤੀਤ	-5626
ਧਤਾ	-5627
▁9,	-5628
▁9:	-5629
▁By	-5630
▁no	-5631
reet	-5632
site	-5633
ਿੱਟੇ	-5634
▁11,	-5635
▁15,	-5636
▁ਕੌਣ	-5637
▁ਦਹਾ	-5638
▁ਫਾਲ	-5639
break	-5640
▁ਛਪਾਈ	-5641
▁ਫਿੱਟ	-5642
▁ਸਲੋਟ	-5643
▁ਪਲੇਅਲ	-5644
▁ਵਾਲਿਟ	-5645
▁ਵੂਵਾਨ	-5646
▁ਅੱਪਲੋਡ	-5647
ਮਿਲੀਮੀਟਰ	-5648
▁ਸਿਰਨਾਵਾਂ	-5649
▁comarques	-5650
53	-5651
PL	-5652
acc	-5653
opp	-5654
ਫ਼ੇ	-5655
ੰਦਨ	-5656
ਾਮਿਨ	-5657
▁ਕਾਗ	-5658
elded	-5659
▁ਇਨਾਮ	-5660
▁ਜਪਾਨ	-5661
▁ਤਰਾਂ	-5662
▁ਆਰਜ਼ੀ	-5663
▁ਮਾਸਟਰ	-5664
▁ਵੋਲਟਜ	-5665
▁ਆਧਾਰਿਤ	-5666
▁ਫਾਰੇਕਸ	-5667
▁ਮੋਮਬੱਤੀ	-5668
▁ਪ੍ਰਿੰਟਿੰਗ	-5669
▁ਨੋਟੀਫਿਕੇਸ਼ਨ	-5670
59:	-5671
ams	-5672
rol	-5673
ੁੰਨ	-5674
▁3:	-5675
▁SH	-5676
▁XP	-5677
ਉਦਾਹ	-5678
ਮੁੱਚ	-5679
▁Sch	-5680
▁ਇਜਾ	-5681
▁ਨਜ਼	-5682
▁ਪੈਂ	-5683
▁ਪੀਲਾ	-5684
▁ਪ੍ਰਾ	-5685
▁ਕਿਰਾਇਆ	-5686
▁ਜ਼ਿੱਪਰ	-5687
▁ਅੱਪਗਰੇਡ	-5688
);	-5689
94	-5690
ਦੋ	-5691
LEX	-5692
for	-5693
ਧੀਆ	-5694
ਰੋਰ	-5695
ਾਮੀ	-5696
▁64	-5697
▁ਫੌ	-5698
cute	-5699
▁Cor	-5700
▁uri	-5701
▁ਟੋਟ	-5702
▁ਪਾਈ	-5703
▁ਭੂਮ	-5704
▁ਮੋਨ	-5705
▁੨੦੦	-5706
tario	-5707
▁ਆਤਮਾ	-5708
▁ਐਂਡਰ	-5709
▁ਵਰਕਰ	-5710
▁ਐਡਰੱਸ	-5711
▁ਡਿਜ਼ੀ	-5712
▁ਰੱਖਣਾ	-5713
▁ਸੀਮਿਤ	-5714
unction	-5715
▁ਲਾਭਦਾਇਕ	-5716
82	-5717
ੱਜ	-5718
-18	-5719
ਕੋਨ	-5720
ਨਿਰ	-5721
▁eu	-5722
2020	-5723
cont	-5724
reen	-5725
ਲਿਟੀ	-5726
ਵਾਸੀ	-5727
▁ਚਾਪ	-5728
▁ਪੱਥ	-5729
▁ਫ਼ਰ	-5730
▁Best	-5731
▁ਵਰਗਾ	-5732
▁ਆਰਕਾਈਵ	-5733
▁ਖੇਤਰਾਂ	-5734
▁ਪ੍ਰੇਮੀ	-5735
▁ਮੀਟਿੰਗ	-5736
▁ਲਾਇਸੰਸ	-5737
▁ਹਸਪਤਾਲ	-5738
ailbreak	-5739
▁ਬਣਾਉਂਦਾ	-5740
▁ਪਲੇਅਲਿਸਟ	-5741
7,	-5742
pt	-5743
px	-5744
ਛਣ	-5745
ੂਫ਼	-5746
▁CI	-5747
▁ਫਾ	-5748
▁ਮਦ	-5749
unic	-5750
ੁੱਟੀ	-5751
▁CZK	-5752
ambia	-5753
▁size	-5754
▁ਕਮਰਾ	-5755
▁ਕਮਿਊ	-5756
▁Short	-5757
▁ਹਿੰਸਾ	-5758
bs	-5759
ਝਲ	-5760
ਪਿਛ	-5761
▁ਔਰ	-5762
ible	-5763
ਜੈਕਟ	-5764
▁XML	-5765
▁has	-5766
▁ਬੈਠ	-5767
▁ਰੀਫ	-5768
ource	-5769
▁serv	-5770
▁ਫਾਇਰ	-5771
▁ਲਿਖੀ	-5772
▁ਗੈਲਰੀ	-5773
▁ਕਿਸਮਾਂ	-5774
▁ਟਿਊਟੋਰ	-5775
▁ਪ੍ਰੀਮੀ	-5776
▁ਮੁਰੰਮਤ	-5777
▁ਭਾਈਚਾਰੇ	-5778
▁ਸਹਿਯੋਗੀ	-5779
▁ਪਰੋਟੋਕਾਲ	-5780
▁translations	-5781
gu	-5782
ING	-5783
ler	-5784
ਤਾਨ	-5785
ਭੁਜ	-5786
ਰੇਟ	-5787
▁(6	-5788
▁Is	-5789
▁ir	-5790
ingh	-5791
ucks	-5792
▁bet	-5793
▁ਅਫ਼	-5794
▁ਟੈਪ	-5795
▁ਫੰਡ	-5796
/2018	-5797
0059:	-5798
CELEX	-5799
ights	-5800
▁Mast	-5801
▁ਕੈਸ਼	-5802
▁ਨਿਯਤ	-5803
itemap	-5804
▁32001	-5805
▁ਵਰਤਦਾ	-5806
▁europa	-5807
▁ਮੁਲਾਕਾ	-5808
▁ਸੰਪੂਰਨ	-5809
▁Ontario	-5810
▁ਪ੍ਰਸਾਰਣ	-5811
▁republic	-5812
▁WordPress	-5813
▁translated	-5814
1-	-5815
kn	-5816
nm	-5817
ਬੰਦ	-5818
ਿਅਨ	-5819
▁6.	-5820
▁ਸਸ	-5821
ouse	-5822
ular	-5823
ਮੇਲਨ	-5824
ੋਗਰਾ	-5825
▁ਪਾਨ	-5826
▁ਬੇਲ	-5827
▁ਵਾਈ	-5828
ਵਿੱਤਰ	-5829
▁ਤਰਜੀ	-5830
▁ਦਾਖਲ	-5831
▁ਦੱਸੋ	-5832
▁ਬਕਸੇ	-5833
▁ਸੰਕਟ	-5834
▁Hotel	-5835
▁Spain	-5836
▁ਗੁੰਝਲ	-5837
▁ਪੁੱਤਰ	-5838
▁ਲੋੜਾਂ	-5839
▁ਕ੍ਰਿਸਮ	-5840
▁ਟੈਸਟਿੰਗ	-5841
TI	-5842
fs	-5843
Ltd	-5844
ika	-5845
uff	-5846
ਸਿਸ	-5847
▁%(	-5848
ਕਰਤਾ	-5849
ਤਰੀਨ	-5850
ਸਟੇਟ	-5851
▁(12	-5852
▁14,	-5853
▁23,	-5854
▁Met	-5855
▁Vir	-5856
▁ਆਈਪ	-5857
▁ਕਲੀ	-5858
▁ਗਰੀ	-5859
▁ਤੱਥ	-5860
▁ਫੈਲ	-5861
▁ਹਾਊ	-5862
▁ਆਜ਼ਾ	-5863
▁ਗੋਰੀ	-5864
▁ਲੈਵਲ	-5865
▁ਸ਼ਕਲ	-5866
enzhen	-5867
google	-5868
▁Adder	-5869
▁HTTPS	-5870
▁ਕਲਾਇਟ	-5871
▁ਤੁਹਾਨ	-5872
▁ਥਰਿੱਡ	-5873
▁ਯੂਰਪੀ	-5874
▁ਰਹੀਆਂ	-5875
▁Instagram	-5876
ਲਸ	-5877
-05	-5878
hts	-5879
ote	-5880
ੌਤੀ	-5881
▁8,	-5882
▁8:	-5883
▁op	-5884
▁ਆਬ	-5885
▁ੂੰ	-5886
ille	-5887
ital	-5888
mail	-5889
ਰੀਅਲ	-5890
ਵੋਗੇ	-5891
ਹੰਨਾ	-5892
ੋਲਿਕ	-5893
▁16,	-5894
▁ਰੂਮ	-5895
▁ਸਲੀ	-5896
ateur	-5897
error	-5898
ੈਨੀਕਲ	-5899
▁1200	-5900
▁3000	-5901
▁ਆਯਾਤ	-5902
▁ਕਸਰਤ	-5903
▁ਕਾਰਬ	-5904
▁ਚਿੜੀ	-5905
▁ਪਿੰਨ	-5906
▁ਸਮਰਪ	-5907
▁ਹਲਕੇ	-5908
essive	-5909
▁ਵੰਡਿਆ	-5910
▁ਹੋਣਗੇ	-5911
▁waters	-5912
▁ਖੁੱਲ੍ਹ	-5913
▁ਨਵੀਨਤਮ	-5914
▁ਵਿਦੇਸ਼	-5915
▁ਸੰਮੇਲਨ	-5916
▁catalonia	-5917
▁ਮਹੱਤਵਪੂਰਣ	-5918
FA	-5919
mo	-5920
ਉਸ	-5921
akh	-5922
ੈਗਨ	-5923
੍ਬਰ	-5924
ੰਗੀ	-5925
▁Gl	-5926
▁Pr	-5927
▁ਅਥ	-5928
▁set	-5929
▁ਜੁੱ	-5930
▁ਡਿਲ	-5931
▁ਨਿਪ	-5932
▁ਜੋੜਨ	-5933
▁ਲੱਛਣ	-5934
▁ਸਟਾਕ	-5935
▁Enter	-5936
▁ਆਦੇਸ਼	-5937
▁ਕੰਪ੍ਰ	-5938
▁ਘੁੰਮਾ	-5939
▁ਜਾਣਗੇ	-5940
▁ਟਾਕਰੇ	-5941
▁ਬਾਈਬਲ	-5942
▁ਸਲੇਟੀ	-5943
▁ਬਿਮਾਰੀ	-5944
▁ਲਰਨਿੰਗ	-5945
▁ਵਿਸ਼ਾਲ	-5946
▁ਸਮੁੰਦਰ	-5947
▁ਡਿਜ਼ੀਟਲ	-5948
ੰਜ	-5949
ਪੱਖ	-5950
ਵਿਨ	-5951
▁Do	-5952
▁ਫੇ	-5953
Poss	-5954
izer	-5955
ਗਰਦਨ	-5956
ਛਾਤੀ	-5957
ੜੇਗਾ	-5958
▁(20	-5959
▁etc	-5960
▁ਮਿਕ	-5961
▁ਰੈਗ	-5962
arter	-5963
▁Port	-5964
▁azer	-5965
▁ਹਾਊਸ	-5966
▁ਭਾਵੇਂ	-5967
▁russia	-5968
▁ਇਜਾਜ਼ਤ	-5969
▁ਦਵਾਈਆਂ	-5970
NamePoss	-5971
▁ਪ੍ਰਤੀਨਿ	-5972
▁ਬੇਹਤਰੀਨ	-5973
▁Shenzhen	-5974
▁ਵਾਇਰਲੈੱਸ	-5975
▁ਸਮੱਸਿਆਵਾਂ	-5976
▁azerbaijan	-5977
NamePossessive	-5978
',	-5979
73	-5980
RA	-5981
ਆਪ	-5982
.30	-5983
.95	-5984
arp	-5985
umm	-5986
ਇੰਗ	-5987
ਦਾਸ	-5988
ਾਹੀ	-5989
▁NO	-5990
▁SE	-5991
▁SM	-5992
ਥੀਆਂ	-5993
ਰੀਬਨ	-5994
ੈਪਟਰ	-5995
▁130	-5996
▁Get	-5997
▁ext	-5998
▁ਭਾਲ	-5999
https	-6000
ymbol	-6001
ਪਿਛਲੇ	-6002
▁1500	-6003
▁word	-6004
▁ਕਿਸ਼	-6005
▁ਪੱਥਰ	-6006
▁ਰੋਕੋ	-6007
▁ਅਜਿਹੀ	-6008
▁ਡਰਾਇਵ	-6009
▁ਸੰਤਰੀ	-6010
▁ਅਦਾਕਾਰ	-6011
ੁਸ	-6012
.06	-6013
aid	-6014
aun	-6015
ਦੀਕ	-6016
ੰਗਾ	-6017
▁59	-6018
▁At	-6019
▁Bow	-6020
▁Dec	-6021
▁ਜਾਇ	-6022
.2018	-6023
▁ਥੱਲੇ	-6024
▁ਮਿਲਣ	-6025
▁ਸੀਬੀ	-6026
ection	-6027
▁ਤਿਆਰੀ	-6028
▁ਪੁਲਿਸ	-6029
▁ਨੈਸ਼ਨਲ	-6030
▁ਸੰਤੁਲਨ	-6031
UI	-6032
gl	-6033
ke	-6034
ਇਕ	-6035
.08	-6036
▁39	-6037
▁Ge	-6038
▁RF	-6039
ਨੀਚਰ	-6040
ਿਕੈਮ	-6041
▁Tel	-6042
▁use	-6043
▁ਦੁਰ	-6044
/2019	-6045
ਵੇਸ਼ਨ	-6046
▁ਕੇਅਰ	-6047
▁ਫਲੈਗ	-6048
▁Squir	-6049
▁ਅਚਾਨਕ	-6050
▁ਦਿੰਦੀ	-6051
▁ਮਾਊਂਟ	-6052
▁ਸ਼ੁੱਕ	-6053
▁number	-6054
▁ਪਵਿੱਤਰ	-6055
▁ਸਪੈਕਟ੍ਰ	-6056
▁ਸੰਚਾਲਿਤ	-6057
ren	-6058
xml	-6059
ਅੱਖ	-6060
ਮਿਲ	-6061
ਰੇਨ	-6062
ਵਾਕ	-6063
ਵਿਡ	-6064
▁ਆਂ	-6065
▁ਇਟ	-6066
aire	-6067
ipal	-6068
shan	-6069
▁(1,	-6070
▁0.3	-6071
▁May	-6072
▁bel	-6073
▁mol	-6074
▁ਕੁਲ	-6075
▁ਬੀਚ	-6076
▁ਸਪਾ	-6077
arrow	-6078
ators	-6079
ornia	-6080
▁ਕਪਾਹ	-6081
▁ਚਰਚਾ	-6082
▁ਜਰੂਰ	-6083
▁ਸਕਾਰ	-6084
▁ਪਿੱਤਲ	-6085
▁ਮਦੀਨਾ	-6086
ollywood	-6087
▁ਮੁਸਲਮਾਨ	-6088
▁interface	-6089
Ex	-6090
ра	-6091
iao	-6092
▁57	-6093
▁ਜਮ	-6094
▁ਡੈ	-6095
rome	-6096
ਅੱਗੇ	-6097
▁ਕਮਰ	-6098
▁ਧਰਮ	-6099
▁(200	-6100
▁Cont	-6101
▁ਉਸਦੇ	-6102
▁ਐਨੀਮ	-6103
▁ਛੱਡਣ	-6104
▁ਦਾਇਰ	-6105
rivate	-6106
ਉਦਾਹਰਨ	-6107
▁Techn	-6108
▁train	-6109
▁ਕਾਗਜ਼	-6110
▁ਫਾਰਮੂ	-6111
▁ਸੰਪਤੀ	-6112
▁ਕਾਰਟੂਨ	-6113
▁ਹਟਾਉਣਾ	-6114
unicipal	-6115
▁YouTube	-6116
▁ਇੰਦਰਾਜ਼	-6117
▁ਸੰਭਾਲਿਆ	-6118
BS	-6119
KA	-6120
WS	-6121
pi	-6122
▁฿	-6123
uch	-6124
ਮਾਗ	-6125
▁52	-6126
▁DC	-6127
▁MH	-6128
▁Up	-6129
▁ਘਾ	-6130
ਕਿਤਾ	-6131
ਲਾਮੀ	-6132
ਸ਼ੇਰ	-6133
ੰਦਰੁ	-6134
▁18,	-6135
▁ਪੋਰ	-6136
▁ਰਵੱ	-6137
▁ਲੈਟ	-6138
▁ਸੁਨ	-6139
ative	-6140
ਹਿੰਦੀ	-6141
▁ਅਗਲੀ	-6142
▁ਆਇਰਨ	-6143
▁ਗਣਨਾ	-6144
▁ਦੂਜੀ	-6145
▁ਬਿਸਤ	-6146
▁ਵਾਰੀ	-6147
▁ਸਟਾਫ	-6148
▁spain	-6149
▁ਉਸਨੂੰ	-6150
▁ਕੁਦਰਤ	-6151
▁ਟਾਇਟਲ	-6152
▁ਬ੍ਰਾਊ	-6153
▁ਜਨਮਦਿਨ	-6154
▁ਫਰਨੀਚਰ	-6155
▁ਰਹਿੰਦਾ	-6156
▁ਸ਼ਿਕਾਰ	-6157
▁ਕੁਆਲਿਟੀ	-6158
▁ਕ੍ਰਿਸਮਸ	-6159
▁ਪ੍ਰੀਖਿਆ	-6160
▁ਮੁਲਾਕਾਤ	-6161
▁ਵਾਟਰਪ੍ਰ	-6162
▁ਇੰਕ੍ਰਿਪਟ	-6163
GO	-6164
ਸਫ	-6165
="1	-6166
ਨਿਊ	-6167
ਪੇਟ	-6168
ਰਿਪ	-6169
▁47	-6170
1000	-6171
ugin	-6172
ਜ਼ਰੀ	-6173
ਜ਼ੀਲ	-6174
ਵੇਗੀ	-6175
ਿਕਤਾ	-6176
▁13,	-6177
▁3.5	-6178
▁our	-6179
▁ਐਸੀ	-6180
▁ਦੱਬ	-6181
ਸ਼ੀਅਨ	-6182
▁News	-6183
▁ਅਤੀਤ	-6184
▁ਆਰਮੀ	-6185
▁ਜਿਹਾ	-6186
▁ਤਾਰਾ	-6187
▁ਲੰਮੇ	-6188
▁2019.	-6189
▁ਚਿੜੀਏ	-6190
▁ਦਿਮਾਗ	-6191
▁ਆਬਜੈਕਟ	-6192
▁ਏਸ਼ੀਆਈ	-6193
▁ਸੋਡੀਅਮ	-6194
▁ਨਤੀਜਿਆਂ	-6195
▁ਮਕੈਨੀਕਲ	-6196
▁ਇਲੈਕਟ੍ਰਾਨਿਕ	-6197
eer	-6198
ਨੀਆ	-6199
▁CE	-6200
▁ਤਲ	-6201
▁***	-6202
▁def	-6203
▁one	-6204
▁ਕਵਿ	-6205
▁ਟਾਈ	-6206
▁ਭਰਾ	-6207
▁ਮਿਹ	-6208
▁ਰਿਆ	-6209
▁ਰੇਤ	-6210
▁ਰੋਟ	-6211
▁bear	-6212
▁ਗੋਲਡ	-6213
▁ਫਿਟਨ	-6214
▁ਮੁੱਢ	-6215
▁ਹਾਰਮ	-6216
ੋਗ੍ਰਾਮ	-6217
▁MySQL	-6218
▁ਆਕਾਸ਼	-6219
ਸੂਲੇਸ਼ਨ	-6220
▁ਕਰਾਂਗੇ	-6221
▁ਵਿਰੁੱਧ	-6222
▁ਸ਼ੋਸ਼ਣ	-6223
▁ਸੈਕਰੋਨ	-6224
▁ਸੰਭਾਵੀ	-6225
▁ukraine	-6226
▁Jailbreak	-6227
AY	-6228
NT	-6229
ка	-6230
306	-6231
▁66	-6232
▁Dr	-6233
posh	-6234
unit	-6235
ਕਾਵਟ	-6236
ਿਵਰੀ	-6237
▁Mat	-6238
▁ਕੈਂ	-6239
▁ਕੰਨ	-6240
▁ਪਰੇ	-6241
▁ਫਾਊ	-6242
▁ਕਾਲਜ	-6243
▁ਗਰੇਡ	-6244
▁ਚਾਰਟ	-6245
ations	-6246
▁Video	-6247
▁ਜੁੜਿਆ	-6248
▁ਪਰਾਪਤ	-6249
▁ਸਨਮਾਨ	-6250
▁welded	-6251
▁ਆਪਟੀਕਲ	-6252
▁ਖਿੜੇਗਾ	-6253
▁ਟੂਲਬਾਰ	-6254
▁ਡੂੰਘਾਈ	-6255
▁ਦਰਵਾਜ਼ੇ	-6256
ਇਡ	-6257
ਗੂ	-6258
ੌਂ	-6259
ਭੈਣ	-6260
ਹਿਣ	-6261
▁0,	-6262
▁MB	-6263
▁tr	-6264
▁ਕ਼	-6265
▁ਲਓ	-6266
ithu	-6267
ters	-6268
ਧਾਨੀ	-6269
▁199	-6270
▁ਉਸਨੇ	-6271
▁ਖ਼ਬਰ	-6272
▁ਗ਼ੈਰ	-6273
▁ਦਬਾਓ	-6274
▁ਫੈਲਾ	-6275
▁ਵਿੱਤ	-6276
▁ਸੋਲਰ	-6277
▁Cheat	-6278
▁gener	-6279
▁ਪੋਸ਼ਣ	-6280
▁ਮੈਕਸੀ	-6281
▁ਸਾਇੰਸ	-6282
ilicone	-6283
▁ਕੈਰੀਅਰ	-6284
▁ਲੜੀਬੱਧ	-6285
▁ਸਿਲੰਡਰ	-6286
ithuania	-6287
iversity	-6288
▁ਅਟੈਚਮੈਂਟ	-6289
▁ਉਤਸ਼ਾਹਿਤ	-6290
▁ਗੁੰਝਲਦਾਰ	-6291
ba	-6292
ਸਿ	-6293
-03	-6294
ਦਾਓ	-6295
ਸਿਰ	-6296
ੰਡਨ	-6297
▁Et	-6298
▁Uk	-6299
2018	-6300
read	-6301
ਕੀਅਤ	-6302
ਸਟੀਵ	-6303
ਹਿਰੀ	-6304
ਹੀਰਾ	-6305
ੇਨਨਾ	-6306
▁240	-6307
▁app	-6308
▁ਖਾਣ	-6309
▁ਗੋਪ	-6310
▁ਟਾਰ	-6311
▁ਥੰਮ	-6312
▁ਨਮੀ	-6313
▁ਸੂਟ	-6314
▁ਹੋਮ	-6315
▁Conc	-6316
▁ਪਹਿਨ	-6317
▁ਪਾਲਣ	-6318
▁ਸਥਾਈ	-6319
▁ਸਦੱਸ	-6320
▁ਸਬੂਤ	-6321
▁Italy	-6322
▁ਓਰਪੇਕ	-6323
▁ਤੰਦਰੁ	-6324
▁ਹੋਵੋਗੇ	-6325
▁ਡਿਜਿਕੈਮ	-6326
▁ਪ੍ਰਬੰਧਕ	-6327
▁bearings	-6328
▁≥	-6329
.10	-6330
203	-6331
amm	-6332
ple	-6333
the	-6334
ੁੱਥ	-6335
▁FM	-6336
▁ਗੈ	-6337
▁ਰਣ	-6338
hone	-6339
ican	-6340
ਪੰਛੀ	-6341
ਫੇਦਰ	-6342
ਹਾਥੀ	-6343
▁Val	-6344
▁ਇਥੇ	-6345
▁ਗੁੱ	-6346
▁ਪੋਡ	-6347
▁ਫੇਰ	-6348
▁ਮਾਂ	-6349
ਗਿੱਟੇ	-6350
ਰਾਸ਼ੀ	-6351
▁head	-6352
▁ਉਡਾਣ	-6353
▁ਦਬਾਉ	-6354
▁ਦੁੱਧ	-6355
▁ਨਾਗਰ	-6356
ਿੰਗਦਾਓ	-6357
▁Photo	-6358
▁ਤਕਨੀਕ	-6359
▁ਯੂਹੰਨਾ	-6360
▁ਸਾਹਮਣਾ	-6361
▁ਸੰਪੂਰਣ	-6362
▁ਸੰਬੰਧੀ	-6363
▁romania	-6364
▁ਕੰਪ੍ਰੈਸ਼ਰ	-6365
,"	-6366
3-	-6367
62	-6368
IC	-6369
LS	-6370
RS	-6371
406	-6372
ਈਗਲ	-6373
ਤਾਜ	-6374
ੈਟਰ	-6375
ards	-6376
ਅਨੰਤ	-6377
ਜ਼ੀਨ	-6378
ਜੀਆਂ	-6379
ਲਿਆਂ	-6380
ਵਾਸਾ	-6381
▁700	-6382
▁Hat	-6383
▁Jin	-6384
▁ਨਰਸ	-6385
▁ਸੀਲ	-6386
ਗੁਲਾਬ	-6387
▁Cast	-6388
▁Comm	-6389
▁ਪਸ਼ੂ	-6390
▁ਫਿਕਸ	-6391
▁ਲਗਦਾ	-6392
▁ਸਪੇਨ	-6393
▁ਸਫ਼ਰ	-6394
▁ਸਭਿਆ	-6395
ਵਾਸਾਕੀ	-6396
▁ਆਬਾਦੀ	-6397
▁ਛੁੱਟੀ	-6398
▁ਜੋੜਿਆ	-6399
Pirater	-6400
▁ਮੋਲਡਿੰਗ	-6401
▁ਇੰਟਰਨੈਸ਼ਨਲ	-6402
਼ਾ	-6403
▁♪	-6404
113	-6405
hum	-6406
ਨੀਯ	-6407
ਰੋਕ	-6408
▁(8	-6409
▁ਕਢ	-6410
ient	-6411
ਐਂਕਰ	-6412
ਕਾਲੀ	-6413
ਜੋੜੇ	-6414
ਾਵਾਂ	-6415
ੰਪਾਸ	-6416
▁900	-6417
▁dom	-6418
▁ਬਚਣ	-6419
▁ਬੂਟ	-6420
ੰਗਜ਼ੌ	-6421
▁2006	-6422
▁ਖਰਾਬ	-6423
▁ਹਿੱਟ	-6424
ਲੀਮੈਂਟ	-6425
▁April	-6426
▁ਅਦਾਲਤ	-6427
▁ਡਬਲਯੂ	-6428
▁Posted	-6429
▁ਡਰਾਇੰਗ	-6430
▁ਪੁਰਾਣਾ	-6431
▁ਕਾਵਾਸਾਕੀ	-6432
▁ਪ੍ਰਭਾਵਾਂ	-6433
▁ਭਾਸ਼ਾਵਾਂ	-6434
▁ਸ਼ਕਤੀਸ਼ਾਲੀ	-6435
br	-6436
iB	-6437
tv	-6438
ਹਲ	-6439
ਜਿੱ	-6440
ਨਾਕ	-6441
ਵਿਲ	-6442
ੇਬਲ	-6443
ੱਡਰ	-6444
▁TV	-6445
oken	-6446
ਜ਼ਮੀ	-6447
ਸੀਰੋ	-6448
▁(4,	-6449
▁350	-6450
▁Lin	-6451
▁ਗੇਟ	-6452
▁ਲੀਡ	-6453
▁ਲੱਤ	-6454
ected	-6455
▁disc	-6456
▁magn	-6457
▁ਗੈਲਨ	-6458
▁ਟਾਸਕ	-6459
▁ਲੋਗੋ	-6460
Region	-6461
rights	-6462
▁ਗ੍ਰਾਮ	-6463
▁ਚਿੱਟਾ	-6464
▁ਮਾਨਤਾ	-6465
▁ਲੈਂਦੇ	-6466
▁ਫਾਰਮਾਸ	-6467
▁ਸਮਰਪਿਤ	-6468
▁ਸਾਹਮਣੇ	-6469
▁ਐਟਲਾਂਟਿਕ	-6470
▁ਕ਼ਿੰਗਦਾਓ	-6471
FS	-6472
OD	-6473
ki	-6474
no	-6475
pg	-6476
▁с	-6477
-14	-6478
tur	-6479
ਕੀਟ	-6480
ਹੋਰ	-6481
ੂਲਰ	-6482
2005	-6483
ador	-6484
illa	-6485
ydro	-6486
ਐਮਐਸ	-6487
▁1.8	-6488
▁Heb	-6489
▁ਕੱਦ	-6490
▁ਤਿੱ	-6491
▁ਸਵਰ	-6492
▁ਸੈਮ	-6493
babwe	-6494
erson	-6495
ustom	-6496
▁....	-6497
▁Oper	-6498
▁ਐਚਡੀ	-6499
▁ਫ੍ਰੀ	-6500
▁ਸਮਝੌ	-6501
▁ਸੰਵੇ	-6502
▁ਹੈਂਡ	-6503
review	-6504
▁2019,	-6505
▁ਇਕੱਠਾ	-6506
▁ਫੁਟਕਲ	-6507
▁ਸਮਾਪਤ	-6508
▁ਸਮੁੱਚ	-6509
imbabwe	-6510
▁ਪਰਾਕਸੀ	-6511
,000,000	-6512
▁ਪੋਡਕਾਸਟ	-6513
▁ਬਰਾਸੀਰੋ	-6514
▁ਮਹੀਨਿਆਂ	-6515
▁ਰਜਿਸਟਰਡ	-6516
▁ਹਮੇਸ਼ਾਂ	-6517
▁ਜ਼ਿੰਮੇਵਾਰ	-6518
▁ਪ੍ਰੋਸੈਸਿੰਗ	-6519
ES	-6520
ਅਸ	-6521
ਿਗ	-6522
-16	-6523
ags	-6524
agu	-6525
eek	-6526
oet	-6527
ਿਸੀ	-6528
▁NE	-6529
▁ST	-6530
▁ਿਲ	-6531
0.00	-6532
irst	-6533
ਨੀਤੀ	-6534
▁27,	-6535
▁ਧਮਾ	-6536
▁ਬਣੇ	-6537
▁ਰੁਕ	-6538
ealth	-6539
email	-6540
ਾਈਲੋਨ	-6541
▁ਲੱਭੀ	-6542
▁ਹੈਕਰ	-6543
ਟਵਿੱਟਰ	-6544
▁ਪੂਰਬੀ	-6545
ifornia	-6546
▁ਕੋਸ਼ਿਸ	-6547
▁ਵਾਲਿਆਂ	-6548
▁ਸੀਬੀਡੀ	-6549
▁ਫਾਰਮੂਲਾ	-6550
▁modified	-6551
▁thailand	-6552
▁ਬ੍ਰਿਟਿਸ਼	-6553
PN	-6554
▁`	-6555
ble	-6556
ept	-6557
ley	-6558
lor	-6559
ਕਿਊ	-6560
ਹਣੀ	-6561
ਿਅਲ	-6562
ੇਨੀ	-6563
ੰਡਲ	-6564
ੰਡੀ	-6565
▁Gh	-6566
▁KO	-6567
▁ਬੌ	-6568
ghan	-6569
ਧੀਆਂ	-6570
▁Aqu	-6571
▁Jan	-6572
▁out	-6573
▁tab	-6574
▁ਅਪਰ	-6575
▁ਡਰਾ	-6576
▁ਪੇਂ	-6577
▁ਵੁਰ	-6578
ਐਮਐਕਸ	-6579
▁2007	-6580
▁View	-6581
▁part	-6582
▁ਡੱਬਾ	-6583
▁ਸ਼ਿਕ	-6584
▁Brand	-6585
▁Viber	-6586
▁ਬੁਰਸ਼	-6587
▁ਲੇਆਉਟ	-6588
▁ਪੜ੍ਹਿਆ	-6589
▁ਰਾਸ਼ਟਰ	-6590
▁ਡਿਲਿਵਰੀ	-6591
▁ਤੁਹਾਡੀਆਂ	-6592
HS	-6593
go	-6594
ਊਨ	-6595
ਹੂ	-6596
USD	-6597
ਟਰਸ	-6598
ਡਬਲ	-6599
▁GP	-6600
▁ਝੂ	-6601
▁ਹੁ	-6602
ding	-6603
ਜ਼ੁਰ	-6604
▁des	-6605
▁php	-6606
▁ਖੂਨ	-6607
▁ਜਾਰ	-6608
▁ਬੁਣ	-6609
▁ਮੁਆ	-6610
▁ਵਚਨ	-6611
▁ਸ਼ਰ	-6612
▁ਸ਼ੇ	-6613
▁ਸੂਈ	-6614
ility	-6615
known	-6616
▁Mark	-6617
▁Porn	-6618
▁ਕੈਪਸ	-6619
▁ਕੱਚੇ	-6620
▁ਫਲੋਰ	-6621
▁ਸਮੇਟ	-6622
ograph	-6623
▁ਰੁਝਾਨ	-6624
Punjabi	-6625
weather	-6626
▁zambia	-6627
▁ਟੋਟੂਜ਼	-6628
▁textbox	-6629
▁ਟੈਟੂਪੈਰ	-6630
▁ਟੈਟੂਭੈਣ	-6631
▁ਟੈਟੂਰਿਪ	-6632
▁ਦੋਸਤਾਨਾ	-6633
▁ਕਾਰਜਕਾਰੀ	-6634
▁ਸ਼ਾਰਟਕੱਟ	-6635
81	-6636
mg	-6637
pe	-6638
ਊਟ	-6639
can	-6640
vir	-6641
ੰਟਰ	-6642
▁Ed	-6643
▁Pi	-6644
▁ਵਹ	-6645
link	-6646
ongt	-6647
utes	-6648
weet	-6649
ਗਰਮੀ	-6650
ਨੀਕੀ	-6651
ਵੈਂਟ	-6652
ੋਪੜੀ	-6653
▁Cap	-6654
▁Dig	-6655
▁spr	-6656
▁ਦੇਵ	-6657
▁ਬਾਦ	-6658
▁West	-6659
▁ਗੇਅਰ	-6660
▁ਟੈਂਪ	-6661
▁ਫ਼ੈਸ	-6662
ceania	-6663
ources	-6664
▁ਮਿਸ਼ਨ	-6665
▁ਗੋਪਨੀਯ	-6666
▁ਪੇਸ਼ਗੀ	-6667
▁ਮਲਕੀਅਤ	-6668
▁ਲਾਜ਼ਮੀ	-6669
▁ਜਾਣਗੀਆਂ	-6670
▁ਫਿਟਿੰਗਸ	-6671
QShortcut	-6672
ghanistan	-6673
▁ਟੈਟੂਗਰਦਨ	-6674
▁ਟੈਟੂਸੂਰਜ	-6675
▁municipal	-6676
▁ਇਕਸਟੈਨਸ਼ਨ	-6677
51	-6678
TH	-6679
UN	-6680
Un	-6681
uy	-6682
ਧਕ	-6683
2.1	-6684
aan	-6685
alk	-6686
ino	-6687
ysL	-6688
ਬੋਟ	-6689
ਭਾਰ	-6690
ਮੀਕ	-6691
▁es	-6692
▁kr	-6693
.200	-6694
ista	-6695
neum	-6696
ther	-6697
ਚਾਰਕ	-6698
ਬਾੜੀ	-6699
ਮਾਨੇ	-6700
▁650	-6701
▁Adv	-6702
▁Dis	-6703
▁Ret	-6704
▁Sun	-6705
▁aut	-6706
▁ਚੌਕ	-6707
▁ਡਿਪ	-6708
▁ਥਾਮ	-6709
▁ਪਾਥ	-6710
▁ਰੂਸ	-6711
▁ਵਕੀ	-6712
▁ਸ੍ਟ	-6713
ducts	-6714
icker	-6715
prise	-6716
ਐਕਸਐਲ	-6717
ਮਰਦਾਂ	-6718
▁East	-6719
▁ਇਟਲੀ	-6720
▁ਬਿਆਨ	-6721
▁ਮਿਰਰ	-6722
▁ਵਰਤਦੇ	-6723
▁ਸਰੀਰਕ	-6724
▁ਸੈਂਟੀ	-6725
▁ਭੂਮਿਕਾ	-6726
▁ਲੋੜੀਦੀ	-6727
▁ਿਲਵਿੰਗ	-6728
▁ਕੁਨੈਕਟਰ	-6729
▁ਟੈਟੂਦਿਲ	-6730
▁Property	-6731
▁ਟੈਟੂਫੇਦਰ	-6732
▁California	-6733
▁ਟੈਟੂਕਬਾਇਲੀ	-6734
▁municipalities	-6735
2-	-6736
zz	-6737
.01	-6738
ypt	-6739
▁!!	-6740
▁41	-6741
▁6:	-6742
▁ਬਜ	-6743
atab	-6744
rade	-6745
ween	-6746
ਫੀਲਡ	-6747
▁ant	-6748
▁min	-6749
▁ਐੱਨ	-6750
▁ਕਮੀ	-6751
▁ਚਾਈ	-6752
▁ਸਕੂ	-6753
arnar	-6754
ombia	-6755
ਵਾਂਗੇ	-6756
▁ਅਲਕੋ	-6757
▁ਲੰਡਨ	-6758
▁ਸਹਿਣ	-6759
▁ਹਾਈਲ	-6760
ersion	-6761
▁ਅਵਾਰਡ	-6762
▁ਇਨਕਾਰ	-6763
▁ਗਰਿੱਡ	-6764
▁ਚੁਦਾਈ	-6765
▁ਪਵੇਗਾ	-6766
▁ਰੇਲਵੇ	-6767
▁ਸਾਈਕਲ	-6768
▁Follow	-6769
▁ਜਿਹਨਾਂ	-6770
▁ਵਾਰੰਟੀ	-6771
ysLuxury	-6772
▁ਟੈਟੂਟੈਟੂ	-6773
▁lithuania	-6774
)।	-6775
54	-6776
LC	-6777
NO	-6778
ਨਤ	-6779
▁★	-6780
-60	-6781
.07	-6782
hua	-6783
ਖਤੀ	-6784
▁Ac	-6785
▁gr	-6786
▁ਖੋ	-6787
▁ਵੋ	-6788
roat	-6789
view	-6790
ਬਾਲਗ	-6791
ਵਾਨਾ	-6792
ਸੈੱਟ	-6793
ਿਹਾਰ	-6794
▁AUD	-6795
▁Leg	-6796
▁Mer	-6797
▁att	-6798
▁rem	-6799
▁ਐਲਈ	-6800
▁ਗਲੀ	-6801
▁ਨਰਮ	-6802
▁ਬਰਫ	-6803
▁ਮਹਿ	-6804
▁ਵਿਟ	-6805
elect	-6806
▁Mach	-6807
▁Mult	-6808
▁ਕਾਰਕ	-6809
▁ਕੌਮੀ	-6810
▁ਛਾਪੋ	-6811
▁ਜਾਵਾ	-6812
▁ਮੋਰੀ	-6813
▁ਰੈਜ਼	-6814
▁ਸਪਿਨ	-6815
ਤਕਨੀਕੀ	-6816
▁china	-6817
▁©2005	-6818
▁ਕਹਿਣਾ	-6819
▁ਗਤੀਵਿ	-6820
▁ਟੁਕੜਾ	-6821
▁ਮਹਿੰਗ	-6822
▁123456	-6823
▁Karnar	-6824
▁device	-6825
▁ਦੁਨੀਆਂ	-6826
▁ਰਿਕਵਰੀ	-6827
▁ਐਕਸਐਕਸਐਲ	-6828
▁ਟੈਟੂਵਾਟਰ	-6829
▁ਟੈਟੂਸਟੀਵ	-6830
▁ਟੈਟੂਸ਼ੇਰ	-6831
▁ਟੈਟੂਹੇਨਨਾ	-6832
▁©2005-2018	-6833
02	-6834
PY	-6835
zu	-6836
ਣੂ	-6837
aut	-6838
erb	-6839
get	-6840
oon	-6841
ਨੇਲ	-6842
ੈਸਰ	-6843
▁56	-6844
▁Hd	-6845
▁ਕਟ	-6846
-800	-6847
ktop	-6848
ਸ਼ਾਨ	-6849
▁26,	-6850
▁4.0	-6851
▁car	-6852
▁ਕਿਲ	-6853
▁ਲੁਕ	-6854
▁ਵਸਤ	-6855
ality	-6856
gmail	-6857
iness	-6858
▁form	-6859
▁ਇਸ਼ਨ	-6860
▁ਨਿਕਲ	-6861
▁ਫੋਰਸ	-6862
▁ਸੁਣਨ	-6863
ipedia	-6864
tablet	-6865
▁ਤਸਦੀਕ	-6866
▁ਦਿਖਾਈ	-6867
▁ਅਨੁਪਾਤ	-6868
▁ਕਰਦੀਆਂ	-6869
▁ਡੇਬੀਅਨ	-6870
▁ਨਵੀਨਤਾ	-6871
▁ਪਹੁੰਚਣ	-6872
▁ਵਰਟੀਕਲ	-6873
▁ਮਨਜ਼ੂਰੀ	-6874
▁ਵੁਰਚੁਅਲ	-6875
▁ਸੱਚਮੁੱਚ	-6876
▁ਅਨੁਕੂਲਤਾ	-6877
▁ਟੈਟੂਕਰਾਸ	-6878
▁ਟੈਟੂਚੈਰੀ	-6879
▁ਟੈਟੂਹੀਰਾ	-6880
▁ਪ੍ਰੀਮੀਅਮ	-6881
▁ਸਪੈਕਟ੍ਰਮ	-6882
▁ਸਰਵਿਸਿਜ਼	-6883
▁Squirting	-6884
▁ਟੈਟੂਕੰਪਾਸ	-6885
▁ਸ਼ੁੱਕਰਵਾਰ	-6886
▁ਟੈਟੂਮਹਿੰਦੀ	-6887
▁ਟੈਟੂਬਟਰਫਲਾਈ	-6888
DN	-6889
ਮਾਇ	-6890
▁51	-6891
▁FA	-6892
▁if	-6893
ਸੂਸੀ	-6894
ਿੱਕੀ	-6895
▁25,	-6896
▁Ant	-6897
▁fin	-6898
▁ਈਸਟ	-6899
▁ਕਰੀ	-6900
▁ਕਸ਼	-6901
▁ਘੜੀ	-6902
▁ਟੋਕ	-6903
▁ਸਖਤ	-6904
ੁੜੀਆਂ	-6905
▁post	-6906
▁ਜਰਨਲ	-6907
▁ਬਲਾਗ	-6908
▁ਲਿਖੇ	-6909
hereum	-6910
▁Hebei	-6911
▁there	-6912
▁ਦੁਹਰਾ	-6913
▁ਲਿਮਿਟ	-6914
▁ਇਸ਼ਨਾਨ	-6915
▁ਐਕਸਪ੍ਰ	-6916
▁ਟ੍ਰਾਂਸ	-6917
▁ਸਬੰਧਿਤ	-6918
▁ਸਿੰਗਾਪ	-6919
▁ਦਿੱਤੀਆਂ	-6920
▁Ethereum	-6921
▁ਟੈਟੂਫੁੱਲ	-6922
▁ਟੈਟੂਗੁਲਾਬ	-6923
CS	-6924
aq	-6925
ਡਲ	-6926
ੇਕ	-6927
:03	-6928
ead	-6929
pan	-6930
ਤੁਹ	-6931
ਵਿਗ	-6932
ਹਾਸ	-6933
▁3)	-6934
▁NU	-6935
▁SA	-6936
▁UK	-6937
▁id	-6938
▁ਖਤ	-6939
ਵਰੇਜ	-6940
ਸਾਰੇ	-6941
ੋਸੀਏ	-6942
੍ਬਰ੍	-6943
▁11:	-6944
▁ਇਹੀ	-6945
▁ਐੱਚ	-6946
▁ਬੇਰ	-6947
▁ਯਹੋ	-6948
▁ਲਟਕ	-6949
utter	-6950
▁This	-6951
▁ਕੱਚਾ	-6952
▁ਠੰਡਾ	-6953
▁ਮੂੰਹ	-6954
▁ਸਲਾਈ	-6955
▁MoHFW	-6956
▁Smart	-6957
▁South	-6958
▁error	-6959
▁ਲਗਾਉਣ	-6960
▁ਅਲਕੋਹਲ	-6961
▁ਬ੍ਰਾਂਡ	-6962
▁ਮੁਹਾਰਤ	-6963
▁ਵਰਚੁਅਲ	-6964
▁ਵਿਵਸਥਾ	-6965
▁ਸੁਤੰਤਰ	-6966
neumatic	-6967
official	-6968
▁magnets	-6969
▁ਐਂਡਰਾਇਡ	-6970
▁ਟੈਟੂਕਮਲ	-6971
▁ਟੈਟੂਤਾਜ	-6972
▁ਪ੍ਰੋਟੀਨ	-6973
▁colombia	-6974
▁ਟੈਟੂਚੰਦਨ	-6975
▁ਟੈਟੂਗਿੱਟੇ	-6976
▁ਟੈਟੂਬਿੱਲੀ	-6977
▁Manufacturer	-6978
IM	-6979
PP	-6980
ਸਣ	-6981
▁q	-6982
▁Φ	-6983
-19	-6984
-21	-6985
120	-6986
agg	-6987
ecu	-6988
ict	-6989
xxx	-6990
ਏਗਾ	-6991
ਟੇਟ	-6992
ੁੱਡ	-6993
▁TH	-6994
▁To	-6995
▁Wh	-6996
▁ਭੀ	-6997
9001	-6998
alls	-6999
ਦਾਤਾ	-7000
▁Ang	-7001
▁PAR	-7002
▁ਦਿਉ	-7003
▁ਪਤੀ	-7004
▁ਬੰਗ	-7005
▁HTTP	-7006
▁Tank	-7007
▁ਥਰਮਲ	-7008
▁ਲੇਅਰ	-7009
▁ਸਰਕਟ	-7010
▁ਸਾਬਤ	-7011
▁ਹਾਲੇ	-7012
▁ਹੁਨਰ	-7013
christ	-7014
▁Deuts	-7015
▁ਆਉਂਦੇ	-7016
▁ਕਲਾਉਡ	-7017
▁ਕੈਲਕੂ	-7018
▁ਚਾਰਜਰ	-7019
▁ਤਰਜੀਹ	-7020
▁ਪ੍ਰੋਡ	-7021
▁ਭੁੱਲੋ	-7022
▁ਮਿਲਦਾ	-7023
▁ਮਿਸਾਲ	-7024
▁ਸਮਗਰੀ	-7025
▁ਸੋਚਦੇ	-7026
atabase	-7027
▁ਵਰਤਮਾਨ	-7028
▁ਸੋਮਵਾਰ	-7029
▁Casinos	-7030
▁ਟੈਟੂਦੂਤ	-7031
▁ਲੰਬਕਾਰੀ	-7032
▁ਟੈਟੂਛਾਤੀ	-7033
▁ਟੈਟੂਜੋੜੇ	-7034
▁ਟੈਟੂਹਾਥੀ	-7035
▁ਟੈਟੂਕੁੜੀਆਂ	-7036
1}	-7037
JS	-7038
PA	-7039
ਡਮ	-7040
ੰਘ	-7041
ida	-7042
rew	-7043
ਲਿਨ	-7044
ਸੋਲ	-7045
▁Af	-7046
▁RE	-7047
▁av	-7048
▁er	-7049
9.00	-7050
evel	-7051
ਪੇਸ਼	-7052
ਰੀਅਮ	-7053
ਲਾਸਾ	-7054
ਲਿਸਟ	-7055
▁0.6	-7056
▁212	-7057
▁pre	-7058
▁ਅਡਜ	-7059
▁ਐਮਾ	-7060
▁ਕੈਡ	-7061
▁ਫੜਨ	-7062
ਜਿਵੇਂ	-7063
ਦਰਸ਼ੀ	-7064
ਪਲੀਕੇ	-7065
ਮੈਨੂੰ	-7066
ਾਇਬਰਗ	-7067
▁ਕਾਂਗ	-7068
▁ਖੋਜੀ	-7069
▁ਜੁੜੇ	-7070
▁ਭੇਜੇ	-7071
▁ਯਕੀਨ	-7072
▁ਸਰੂਪ	-7073
▁ਸ਼ਨੀ	-7074
▁Cheng	-7075
▁ਆਰਪਿਕ	-7076
▁ਕਰੋਗੇ	-7077
▁ਫਾਈਨਲ	-7078
▁ਰੀਲੇਅ	-7079
ਾਰਟਮੈਂਟ	-7080
▁ਅਧਿਆਪਕ	-7081
▁ਨਾਗਰਿਕ	-7082
▁ਰੀਲੀਜ਼	-7083
▁ਸਰਗਰਮੀ	-7084
▁ਸੈੱਟਅੱਪ	-7085
▁National	-7086
▁ਕਮਿਊਨਿਟੀ	-7087
▁ਖੇਤੀਬਾੜੀ	-7088
▁ਟੈਟੂਵਧੀਆ	-7089
▁ਟੈਟੂਰਾਸ਼ੀ	-7090
▁ਮਿਲੀਗ੍ਰਾਮ	-7091
▁Copyrights	-7092
▁ਵਾਟਰਪ੍ਰੂਫ਼	-7093
▁ਇੰਜੀਨੀਅਰਿੰਗ	-7094
ca	-7095
gin	-7096
ਚੂਨ	-7097
ਮੈਪ	-7098
ਸਵੀ	-7099
ੰਦਾ	-7100
▁72	-7101
▁Ag	-7102
▁PM	-7103
▁ਗੱ	-7104
ੋਜਿਤ	-7105
ੋਮੁਕ	-7106
▁29,	-7107
▁VPS	-7108
▁lib	-7109
▁ਕੰਬ	-7110
▁ਗਹਿ	-7111
▁ਹੱਬ	-7112
cache	-7113
older	-7114
▁CIBC	-7115
▁ਪਾਉਣ	-7116
▁ਪਿਕਸ	-7117
▁ਲਾਈਸ	-7118
▁ਵਿਖਾ	-7119
ealand	-7120
tonika	-7121
▁World	-7122
▁ਇਲਾਕੇ	-7123
▁ਬ੍ਰਾਉ	-7124
ettings	-7125
▁travel	-7126
▁ਅਸਰਦਾਰ	-7127
▁ਐਸੋਸੀਏ	-7128
▁ਕੀਬੋਰਡ	-7129
▁ਪ੍ਰੋਮੋ	-7130
ਾਇਬਰਗਲਾਸ	-7131
▁between	-7132
▁keyword	-7133
▁ਇਤਿਹਾਸਕ	-7134
▁ਟੈਟੂਅੱਖ	-7135
▁ਟੈਟੂਈਗਲ	-7136
▁ਨਿਪੋਮੁਕ	-7137
▁ਮੌਜੂਦਗੀ	-7138
▁ਟੈਟੂਪੰਛੀ	-7139
▁ਟੈਟੂਵਾਪਸ	-7140
▁Teltonika	-7141
▁ਟੈਟੂਮਰਦਾਂ	-7142
52	-7143
;#	-7144
TF	-7145
]:	-7146
ds	-7147
ii	-7148
ali	-7149
lik	-7150
ਕਿਉ	-7151
ਗਤੀ	-7152
ਬਿਲ	-7153
▁7.	-7154
▁DI	-7155
NUMX	-7156
udio	-7157
ਕਿਆਂ	-7158
ਥਰੂਮ	-7159
ਾਂਤੀ	-7160
▁1.1	-7161
▁10%	-7162
▁30,	-7163
▁360	-7164
▁cor	-7165
▁ਆਫ਼	-7166
▁ਈਵੇ	-7167
▁ਡਿਊ	-7168
▁ਸਾਊ	-7169
inger	-7170
tions	-7171
▁ਖੇਡੋ	-7172
▁ਗੁੰਮ	-7173
▁ਦੱਖਣ	-7174
▁ਬਨਾਮ	-7175
▁ਲੌਰਾ	-7176
▁ਸਫ਼ਲ	-7177
asting	-7178
ਂਡੇਸ਼ਨ	-7179
ਮੀਕੋਲਨ	-7180
▁ਫੈਸਲੇ	-7181
▁ਸਿੱਖੋ	-7182
▁ਖ਼ੁਸ਼ੀ	-7183
▁ਦਿਖਾਇਆ	-7184
▁ਵਰਕਿੰਗ	-7185
▁ਅਣਡਿੱਠਾ	-7186
▁ਮੈਗਜ਼ੀਨ	-7187
▁ਵਿਟਾਮਿਨ	-7188
▁diffuser	-7189
4.	-7190
],	-7191
au	-7192
df	-7193
ਏਲ	-7194
:02	-7195
ਜਾਮ	-7196
ਵੱਧ	-7197
ਸਾਇ	-7198
▁Av	-7199
▁MO	-7200
▁TG	-7201
▁ਧੂ	-7202
▁ਲਏ	-7203
2000	-7204
▁ਬੈਨ	-7205
▁ਮਰਦ	-7206
▁ਲਚਕ	-7207
▁ਲੂਤ	-7208
▁ਸਿਤ	-7209
▁ASTM	-7210
▁ਘਣਤਾ	-7211
▁ਪੱਕਾ	-7212
▁ਬਕਸਾ	-7213
▁ਬੋਲੀ	-7214
▁ਸੰਤੁ	-7215
▁ਸਟਾਰਟ	-7216
▁ਸਿਲੀਕ	-7217
▁Concox	-7218
▁proper	-7219
▁ਲਗਜ਼ਰੀ	-7220
▁ਟੈਟੂਅਨੰਤ	-7221
▁ਪਾਕਿਸਤਾਨ	-7222
▁QShortcut	-7223
▁ਪਰਮਾਣਕਿਤਾ	-7224
CI	-7225
gh	-7226
110	-7227
Bet	-7228
fer	-7229
ਖਾਹ	-7230
ਫ਼ਰ	-7231
ੋਰਸ	-7232
▁49	-7233
▁ਘੋ	-7234
ield	-7235
▁160	-7236
▁see	-7237
▁ਨਾਰ	-7238
geria	-7239
ਜ਼ਿੰਗ	-7240
▁prot	-7241
▁ਤੀਜੀ	-7242
▁ਥਾਮਸ	-7243
▁ਬੇਬੀ	-7244
▁ਭਾਈਵ	-7245
ashion	-7246
should	-7247
▁ਕਰਨਗੇ	-7248
▁ਕੋਲੰਬ	-7249
▁ਗਾਰਡਨ	-7250
▁ਗੇਮਜ਼	-7251
▁ਪਾਰਟਸ	-7252
▁ਹਵਾਈਅ	-7253
▁Health	-7254
▁Region	-7255
▁ਥੰਮਨੇਲ	-7256
▁ਬਾਥਰੂਮ	-7257
▁ਜ਼ਿਲ੍ਹੇ	-7258
▁ਟੈਟੂਐਂਕਰ	-7259
▁indonesia	-7260
1.	-7261
93	-7262
GE	-7263
ਂਗ	-7264
ਨਸ	-7265
ੋਵ	-7266
eep	-7267
hai	-7268
ola	-7269
thi	-7270
use	-7271
ਿਯਾ	-7272
▁43	-7273
▁AL	-7274
▁As	-7275
▁DR	-7276
▁Sn	-7277
▁Sw	-7278
▁el	-7279
tech	-7280
ules	-7281
ਾਂਗਾ	-7282
▁450	-7283
▁HGH	-7284
▁cre	-7285
▁ਕੱਲ	-7286
▁ਯਾਤ	-7287
▁ਵਾਚ	-7288
▁ਹਰੀ	-7289
trans	-7290
▁Bill	-7291
▁ਖਿਲਾ	-7292
▁ਜ਼ੋਰ	-7293
▁ਬਦਲੀ	-7294
▁ਮੰਮੀ	-7295
▁ਸਾਕਟ	-7296
follow	-7297
ustral	-7298
▁Opera	-7299
▁Power	-7300
▁ਈਵੇਲੂ	-7301
▁ਕੈਮਰੇ	-7302
▁ਜਾਣਦਾ	-7303
▁ਤਨਖਾਹ	-7304
▁ਫਾਇਦਾ	-7305
▁ਮਿਲਦੀ	-7306
▁ਸੈਕਟਰ	-7307
▁ਨਿਰਪੱਖ	-7308
▁sprites	-7309
tabletwise	-7310
▁ਫਾਊਂਡੇਸ਼ਨ	-7311
▁University	-7312
sw	-7313
ਢੇ	-7314
ੋਬ	-7315
▁🙏	-7316
Com	-7317
asy	-7318
ਉਦਾ	-7319
ਚੀਨ	-7320
ਡਨੀ	-7321
▁88	-7322
▁98	-7323
▁RO	-7324
adio	-7325
amen	-7326
ਹਿਆਂ	-7327
▁(3)	-7328
▁850	-7329
▁ਗਠਨ	-7330
▁ਜ਼ੀ	-7331
▁ਪੇਟ	-7332
▁ਰੂਹ	-7333
▁ਰੇਸ	-7334
755-2	-7335
ideos	-7336
▁Gold	-7337
▁ਖ਼ਾਸ	-7338
▁ਖਿਡੌ	-7339
▁ਜਾਦਾ	-7340
▁ਜੁੜਨ	-7341
▁ਡਿਲੀ	-7342
▁ਡੈਮਨ	-7343
▁ਲਾਈਫ	-7344
▁ਲੱਗਾ	-7345
▁North	-7346
▁ਅਰਜ਼ੀ	-7347
▁ਫਲੈਸ਼	-7348
▁ਮਾਰਿਆ	-7349
▁ਮਿਕਸਰ	-7350
▁ਮੇਜ਼ਬ	-7351
▁ਮੰਜ਼ਲ	-7352
▁ਸਾਂਝੇ	-7353
ization	-7354
▁ਟੈਪਲੇਟ	-7355
▁ਦੇਸ਼ਾਂ	-7356
▁ਪ੍ਰਚਾਰ	-7357
▁ਯਹੋਵਾਹ	-7358
▁ਸ਼ਨੀਵਾਰ	-7359
▁ਵਿਅਕਤੀਆਂ	-7360
BO	-7361
FL	-7362
hi	-7363
ਬਤ	-7364
ਸਭ	-7365
-50	-7366
lot	-7367
oud	-7368
ris	-7369
ume	-7370
▁El	-7371
▁HP	-7372
▁ਗੇ	-7373
alam	-7374
aper	-7375
back	-7376
miss	-7377
ਨਿੰਗ	-7378
▁750	-7379
▁Est	-7380
▁Str	-7381
ender	-7382
razil	-7383
▁swit	-7384
▁ਨਾਤੇ	-7385
▁ਪਾਇਆ	-7386
▁ਮਾਊਟ	-7387
▁ਰਾਇਲ	-7388
▁ਲੜਾਈ	-7389
▁10000	-7390
▁ਅਮਰੋਕ	-7391
▁ਪੜ੍ਹੇ	-7392
▁ਰਿਵਿਊ	-7393
▁ਪ੍ਰਾਰਥ	-7394
▁ਹਾਰਮੋਨ	-7395
▁network	-7396
▁ਪ੍ਰਦੇਸ਼	-7397
▁ਕਾਰਵਾਈਆਂ	-7398
▁ਗੋਪਨੀਯਤਾ	-7399
RW	-7400
cd	-7401
ੱਰ	-7402
-06	-7403
:86	-7404
ਟੀਫ	-7405
ਿਅਕ	-7406
ਿਆਈ	-7407
ੈਰਾ	-7408
ੋਨੀ	-7409
▁NY	-7410
▁ਗਿਟ	-7411
▁ਜੁਰ	-7412
▁ਵੈਨ	-7413
econd	-7414
unity	-7415
▁more	-7416
▁ਅਪਣਾ	-7417
▁ਕਮਜ਼	-7418
▁ਜੇਤੂ	-7419
▁ਪੌਦੇ	-7420
▁ਬ੍ਰਹ	-7421
orphek	-7422
russia	-7423
▁ਖੋਲਦਾ	-7424
▁ਮਾਹੌਲ	-7425
▁ਐਡੀਸ਼ਨ	-7426
▁ਫੋਟੋਆਂ	-7427
▁ਸਮਕਾਲੀ	-7428
▁ਸਲੋਵਾਕ	-7429
▁Masturb	-7430
▁ਐਮਾਜ਼ਾਨ	-7431
punjabist	-7432
▁ਇਨਸੂਲੇਸ਼ਨ	-7433
▁ਸੈਂਟੀਮੀਟਰ	-7434
▁Tabletwise	-7435
▁ਪ੍ਰੋਗਰਾਮਿੰਗ	-7436
HD	-7437
rd	-7438
ਗੜ	-7439
ਹਰ	-7440
ਿਫ	-7441
▁п	-7442
-13	-7443
.12	-7444
/10	-7445
lay	-7446
que	-7447
ਦੋਂ	-7448
ਿਕੋ	-7449
▁-%	-7450
▁46	-7451
▁5:	-7452
▁DJ	-7453
▁Go	-7454
amin	-7455
odel	-7456
olia	-7457
otal	-7458
ਧਾਰਣ	-7459
▁Key	-7460
▁Mag	-7461
▁ਬੰਨ	-7462
▁ਵੇਲ	-7463
ਕੇਸ਼ਨ	-7464
ਸ਼ੀਅਮ	-7465
ੋਨੇਸ਼	-7466
▁ਖਰਚੇ	-7467
▁ਘਟਾਓ	-7468
▁ਫਰੰਟ	-7469
▁ਬੈਲਟ	-7470
▁ਵਕੀਲ	-7471
▁ਹਾਂਗ	-7472
▁learn	-7473
▁short	-7474
▁ਆਈਪੈਡ	-7475
▁ਇੰਸਟੀ	-7476
▁ਗਿਟਾਰ	-7477
▁ਪਾਲਸੀ	-7478
▁ਵਰਤਣਾ	-7479
▁ਵਾਇਰਸ	-7480
▁ਡਰਾਇਵਰ	-7481
▁ਪਾਲਿਸੀ	-7482
▁ਲਾਈਨਾਂ	-7483
▁ਵਚਨਬੱਧ	-7484
▁Ukraine	-7485
▁ਲਾਇਸੈਂਸ	-7486
▁ਸਲਾਹਕਾਰ	-7487
▁ਈਵੇਲੂਸ਼ਨ	-7488
▁ਬ੍ਰਾਉਜ਼ਰ	-7489
▁ਸੁਵਿਧਾਜਨਕ	-7490
HZ	-7491
ea	-7492
-00	-7493
-24	-7494
.90	-7495
REE	-7496
new	-7497
par	-7498
udi	-7499
ਅੱਤ	-7500
ਵਿਆ	-7501
▁95	-7502
▁GT	-7503
▁SV	-7504
▁sm	-7505
▁ਆਓ	-7506
▁ਈਦ	-7507
anda	-7508
ends	-7509
head	-7510
orts	-7511
ਚੀਆਂ	-7512
▁PRO	-7513
▁Tum	-7514
▁ਏਕੀ	-7515
▁ਖਬਰ	-7516
▁ਪੀਹ	-7517
weden	-7518
▁ਕੰਪਰ	-7519
▁ਖਾਣਾ	-7520
▁ਨਾਜ਼	-7521
▁ਪਰਦੇ	-7522
▁ਪਿੱਠ	-7523
▁ਬਲੱਡ	-7524
▁ਵਜ਼ਨ	-7525
▁ਹੱਲ਼	-7526
church	-7527
▁domin	-7528
▁ਸਕੂਟਰ	-7529
ਕਰਤਾਵਾਂ	-7530
▁ਕੇਂਦਰੀ	-7531
▁ਪੁਰਾਣੀ	-7532
▁ਮਿਲੀਅਨ	-7533
▁ਸੁਧਾਰਨ	-7534
--------	-7535
▁Jiangsu	-7536
▁ਵਾਤਾਵਰਨ	-7537
▁Enterprise	-7538
▁ਸੈਕਰੋਨਾਈਜ਼	-7539
YA	-7540
}}	-7541
ੌਸ	-7542
AND	-7543
bum	-7544
sid	-7545
ysl	-7546
ਮਤੀ	-7547
ਿਕਨ	-7548
ੱਡਾ	-7549
▁7:	-7550
Porn	-7551
eces	-7552
ices	-7553
ਪੰਜਾ	-7554
ਾਰੀਓ	-7555
▁day	-7556
▁ਪਿੰ	-7557
▁ਮੈਸ	-7558
▁ਸਿਧ	-7559
▁ਸੈਨ	-7560
ample	-7561
anced	-7562
icine	-7563
ੋਟਾਈਪ	-7564
▁ਉੱਤਮ	-7565
▁ਵਾਪਰ	-7566
ਉਂਦੀਆਂ	-7567
▁Holid	-7568
▁Vista	-7569
▁ਪ੍ਰਕਾ	-7570
▁ਵਿਹੜੇ	-7571
ਸ਼ਤਿਹਾਰ	-7572
▁ਤੋਹਫ਼ੇ	-7573
▁ਰਿਪੋਜ਼	-7574
▁ਸਮੀਕਰਨ	-7575
▁ਸੰਵੇਦਨ	-7576
▁KOffice	-7577
▁ਖੁੱਲ੍ਹੇ	-7578
▁ਜਾਂਦੀਆਂ	-7579
▁ਪ੍ਰੋਡਕਟ	-7580
▁ਪ੍ਰਾਰਥਨਾ	-7581
SD	-7582
ape	-7583
ely	-7584
ney	-7585
ude	-7586
ਕਰਾ	-7587
ਯੁਮ	-7588
ੁਆਰ	-7589
▁MI	-7590
▁TC	-7591
▁ਏਸ	-7592
▁ਝਟ	-7593
▁ਨਰ	-7594
stan	-7595
ਦੋਜ਼	-7596
ਮਾਨਾ	-7597
▁Lit	-7598
▁doc	-7599
▁ਅਤਿ	-7600
▁ਕੁਇ	-7601
▁ਚੰਦ	-7602
▁ਜਿਮ	-7603
▁ਭੀੜ	-7604
▁ਵੈਟ	-7605
▁ਸੈਰ	-7606
▁ਸੰਘ	-7607
-2020	-7608
2006.	-7609
ਪਾਰਟੀ	-7610
▁5000	-7611
▁Xbox	-7612
▁ਅਨੰਦ	-7613
▁ਅਹਿਮ	-7614
▁ਟਿਕਟ	-7615
▁ਬਰਤਨ	-7616
▁ਬਿਹਤ	-7617
▁ਸਾਈਡ	-7618
▁ਅਸਟੇਟ	-7619
▁ਆਰਕੀਟ	-7620
▁ਜਿਸਦਾ	-7621
▁ਰਿਸਰਚ	-7622
▁ਕਸ਼ਮੀਰ	-7623
▁ਸਕ੍ਰੀਨ	-7624
▁Deutsch	-7625
▁ਬਣਾਉਂਦੇ	-7626
▁ਕੈਲਕੂਲੇਟਰ	-7627
▁ਜ਼ਮੀਨਦੋਜ਼	-7628
▁ਹੈਰਾਨੀਜਨਕ	-7629
▁ਪ੍ਰੋਟੋਟਾਈਪ	-7630
CN	-7631
ਥਾ	-7632
ਵਕ	-7633
-88	-7634
Spy	-7635
gar	-7636
ਕੇਟ	-7637
ਪੇਸ	-7638
ਬਰਟ	-7639
ਸਾਨ	-7640
ਾਇਤ	-7641
▁76	-7642
▁EX	-7643
oney	-7644
▁Int	-7645
▁Xin	-7646
▁art	-7647
▁est	-7648
▁ਆਰਟ	-7649
▁ਜਾਉ	-7650
light	-7651
ਾਇਮਰੀ	-7652
▁Coil	-7653
▁ਖਾਣੇ	-7654
▁ਨੈਵੀ	-7655
▁ਪਾਰਸ	-7656
▁zaire	-7657
▁ਰੋਬੋਟ	-7658
▁ਵਰਕਸ਼	-7659
▁ਵੱਖਰੀ	-7660
▁online	-7661
▁states	-7662
▁ਜਾਸੂਸੀ	-7663
▁ਵਿਗਿਆਨਕ	-7664
▁ਸਭਿਆਚਾਰ	-7665
▁ਸ੍ਟ੍ਰੀਟ	-7666
▁ਇਸ਼ਤਿਹਾਰ	-7667
▁ਕਾਰੋਬਾਰੀ	-7668
▁dominican	-7669
▁ਰਿਪੋਜ਼ਟਰੀ	-7670
▁ਫ਼ਾਇਬਰਗਲਾਸ	-7671
▁PropertyName	-7672
$1	-7673
83	-7674
BT	-7675
ਂਸ	-7676
ਥਮ	-7677
ੈੱ	-7678
-09	-7679
-86	-7680
wee	-7681
ਿਜੀ	-7682
ੂਆਂ	-7683
▁LD	-7684
▁TK	-7685
▁ਈਰ	-7686
Time	-7687
ious	-7688
life	-7689
obal	-7690
udan	-7691
ਵੇਸ਼	-7692
ਾਪਟਰ	-7693
ਿਮਤੀ	-7694
▁tem	-7695
▁ਐੱਫ	-7696
▁ਔਪਟ	-7697
▁ਗਿਰ	-7698
▁ਚਿਪ	-7699
▁ਨਿਗ	-7700
▁ਸਟੂ	-7701
aster	-7702
enezu	-7703
ਕ੍ਰਿਤ	-7704
▁Cann	-7705
▁tips	-7706
▁ਖ਼ਤਮ	-7707
▁ਖੋਲੋ	-7708
▁ਦੁਬਈ	-7709
▁ਪੱਤਾ	-7710
ungary	-7711
▁2018,	-7712
▁Inter	-7713
▁ਕੈਟਾਲ	-7714
▁ਖੁਸ਼ਕ	-7715
▁ਗੋਲ਼ਾ	-7716
▁ਜਾਵਾਸ	-7717
▁ਰਵੱਈਆ	-7718
2019-04	-7719
▁0086-5	-7720
▁ਨਾਜ਼ੁਕ	-7721
▁ਰਸਾਇਣਕ	-7722
▁ਲਾਈਟਾਂ	-7723
▁ਸੰਗਠਿਤ	-7724
enezuela	-7725
▁Service	-7726
▁category	-7727
▁ਇੰਜੈਕਸ਼ਨ	-7728
▁ਬਿਮਾਰੀਆਂ	-7729
OL	-7730
ен	-7731
ਅਧ	-7732
-17	-7733
{0}	-7734
ਕਲਾ	-7735
ਖਿਕ	-7736
ਟਰੋ	-7737
ਲੇਡ	-7738
ੈਰੇ	-7739
▁IC	-7740
ency	-7741
info	-7742
rint	-7743
ਚਾਰਜ	-7744
ਟਿਆਂ	-7745
ਸਫੋਟ	-7746
ਿਆਨਕ	-7747
▁CSS	-7748
▁ODM	-7749
▁ਕਾਨ	-7750
▁ਧੁੰ	-7751
▁ਫਰਕ	-7752
▁ਲੈਬ	-7753
▁ਸੂਰ	-7754
➖➖➖➖	-7755
xiang	-7756
ਜ਼ੀਅਮ	-7757
ਵੇਟਿਵ	-7758
▁ਉਸਦੀ	-7759
▁ਟੀਚਾ	-7760
▁ਮੰਗਲ	-7761
▁ਵਸਰਾ	-7762
▁ਸਜ਼ਾ	-7763
ਪਲੀਕੇਟ	-7764
▁Media	-7765
▁ਗੱਲਾਂ	-7766
▁ਚਾਈਨਾ	-7767
▁ਜ਼ਿਕਰ	-7768
▁ਦਿੱਲੀ	-7769
▁ਵ੍ਹੀਲ	-7770
usiness	-7771
▁ਚੁਣੌਤੀ	-7772
▁ਵਿਸਫੋਟ	-7773
interest	-7774
ustralia	-7775
ysluxury	-7776
▁ਨਿਵੇਸ਼ਕ	-7777
▁ਫੋਟੋਗਰਾ	-7778
▁ਰਚਨਾਤਮਕ	-7779
▁ਰਿਹਾਇਸ਼	-7780
▁zimbabwe	-7781
▁ਡੁਪਲੀਕੇਟ	-7782
▁ਸਫਲਤਾਪੂਰ	-7783
.”	-7784
PR	-7785
SM	-7786
ਆਨ	-7787
ugu	-7788
ਲੀਟ	-7789
ਹਾਂ	-7790
ਾਹਰ	-7791
ੁਰਾ	-7792
▁8.	-7793
▁ਵਲ	-7794
▁ਹਿ	-7795
ਫਾਕਸ	-7796
ੈਕਸੀ	-7797
▁Pet	-7798
▁man	-7799
▁ਕਮਿ	-7800
▁ਬੋਸ	-7801
▁ਸਕਣ	-7802
Class	-7803
▁Live	-7804
▁Yout	-7805
▁ਗਵਾਹ	-7806
▁ਚੁਣਨ	-7807
Dialog	-7808
arator	-7809
▁Black	-7810
▁ਗਹਿਣੇ	-7811
▁ਗ੍ਰੇਡ	-7812
▁ਸਕਾਈਪ	-7813
sitemap	-7814
▁ਕਿਨਾਰੇ	-7815
▁ਲੱਗੇਗਾ	-7816
formation	-7817
▁Inverter	-7818
▁ਇੰਕੋਡਿੰਗ	-7819
▁ਐਨੀਮੇਸ਼ਨ	-7820
▁ਪੇਸ਼ਕਾਰੀ	-7821
▁ਫਾਇਰਫਾਕਸ	-7822
1$	-7823
2$	-7824
NG	-7825
na	-7826
.11	-7827
fil	-7828
ner	-7829
raw	-7830
rib	-7831
ਗਿਟ	-7832
ਸਾਈ	-7833
ਸਿਕ	-7834
▁br	-7835
▁te	-7836
-100	-7837
ਚਲਿਤ	-7838
▁5.5	-7839
▁get	-7840
▁ਆਈਸ	-7841
▁ਖਾਂ	-7842
▁ਬਰੇ	-7843
▁ਰਾਅ	-7844
▁ਵਾਅ	-7845
▁ਵੇਹ	-7846
▁ਵੱਡ	-7847
Rider	-7848
bject	-7849
uctor	-7850
ਕ੍ਰੀਨ	-7851
▁Bing	-7852
▁More	-7853
▁extr	-7854
▁ਕਾਨੇ	-7855
▁ਪੀਟੀ	-7856
▁ਪੂਰਬ	-7857
▁ਬਾਲਣ	-7858
▁ਰੂਬਲ	-7859
▁ਲੋਹੇ	-7860
▁ਵਰਗੀ	-7861
▁ਸਵਰਗ	-7862
▁ਸੁਆਦ	-7863
▁ਹਮਲੇ	-7864
▁ਹੈਲੋ	-7865
▁radio	-7866
▁ਆਉਂਦੀ	-7867
▁ਜੰਗਲੀ	-7868
▁Access	-7869
▁Valent	-7870
▁ਕੀਮਤਾਂ	-7871
▁ਚਾਹੀਦੇ	-7872
▁ਪਰਬੰਧਨ	-7873
▁ਵਿਵਹਾਰ	-7874
▁ਸੀਰੀਅਲ	-7875
▁address	-7876
▁ਕੈਟਾਲਾਗ	-7877
▁ਉਤਪਾਦਕਤਾ	-7878
▁ਐਲਮੀਨੀਅਮ	-7879
▁ਪ੍ਰਾਇਮਰੀ	-7880
▁ਪ੍ਰੋਫਾਈਲ	-7881
▁ਇੰਸਟੀਚਿਊਟ	-7882
▁Technology	-7883
▁ਸਹਿਣਸ਼ੀਲਤਾ	-7884
dh	-7885
та	-7886
-02	-7887
-25	-7888
.40	-7889
pat	-7890
rim	-7891
ros	-7892
ਤੁਰ	-7893
▁If	-7894
▁fa	-7895
▁ਆਉ	-7896
▁ਫੂ	-7897
MAIL	-7898
roll	-7899
xico	-7900
ਸੀਡੀ	-7901
————	-7902
▁2.2	-7903
▁Arm	-7904
▁ent	-7905
▁val	-7906
▁ਨੱਥ	-7907
ental	-7908
ਤਾਹਾਸ	-7909
ਦਾਇਗੀ	-7910
▁1998	-7911
▁Brit	-7912
▁ਅਸਾਨ	-7913
▁ਕੈਲੀ	-7914
▁ਗੂੜਾ	-7915
▁ਟਾਇਰ	-7916
▁ਟੈਬਲ	-7917
▁ਠੰਡੇ	-7918
▁ਡਾਊਨ	-7919
▁ਮੁਕਤ	-7920
▁ਲਿਫਟ	-7921
▁ਜ਼ਰੀਏ	-7922
▁ਪੋਰ੍ਟ	-7923
▁ਮੁਕੱਦ	-7924
▁ਲਿਆਉਣ	-7925
▁ਹੇਠਲੇ	-7926
aterial	-7927
stRider	-7928
▁casino	-7929
▁ਐਸਐਮਐਸ	-7930
▁ਐਸੀਟੇਟ	-7931
▁ਚੁਣੀਆਂ	-7932
▁ਨਾਈਲੋਨ	-7933
▁ਨਿਯਮਾਂ	-7934
punjabim	-7935
▁ਪ੍ਰੇਰਿਤ	-7936
▁ਸੂਚੀਬੱਧ	-7937
wysluxury	-7938
▁silicone	-7939
▁ਦਰਸਾਉਂਦਾ	-7940
▁ਫਾਰਮਾਸਿਊ	-7941
▁venezuela	-7942
▁afghanistan	-7943
AB	-7944
IG	-7945
OC	-7946
-07	-7947
anj	-7948
oid	-7949
omb	-7950
ਆਰਾ	-7951
ਡ਼ੋ	-7952
ਿੱਗ	-7953
▁78	-7954
▁UI	-7955
▁di	-7956
ills	-7957
ours	-7958
ਗਜਾਮ	-7959
ਸੈਕਸ	-7960
▁acc	-7961
▁ਅਨਾ	-7962
▁ਡੋਰ	-7963
▁ਥਾਈ	-7964
▁ਹਥੌ	-7965
▁ਹੈਂ	-7966
Spyoo	-7967
ਭਾਸ਼ਾ	-7968
▁NUKA	-7969
▁Tric	-7970
▁ਅਹਿਸ	-7971
▁ਕਰਨੇ	-7972
▁ਕਰਸਰ	-7973
▁ਜਾਗਰ	-7974
▁ਝਾੜੀ	-7975
▁ਪੱਛਮ	-7976
lement	-7977
ulator	-7978
▁shopp	-7979
▁which	-7980
▁ਅੱਖਾਂ	-7981
▁ਗਰੰਟੀ	-7982
▁ਥਾਵਾਂ	-7983
▁ਦਹਾਕਾ	-7984
▁ਦੋਵੇਂ	-7985
▁ਮਿੱਠੇ	-7986
▁ਸਾਬਕਾ	-7987
▁ਸਿਆਹੀ	-7988
eration	-7989
zerland	-7990
▁ਅਥਾਰਟੀ	-7991
▁ਟੈਬਲਿਟ	-7992
▁ਸੈਮਸੰਗ	-7993
▁ਲਾਈਸੈਂਸ	-7994
▁ਪ੍ਰਤੀਸ਼ਤ	-7995
▁ਪ੍ਰਦਰਸ਼ਨੀ	-7996
▁ਫਾਰਮਾਸਿਊਟੀਕਲ	-7997
4-	-7998
57	-7999
OT	-8000
QF	-8001
yr	-8002
ਉਨ	-8003
▁н	-8004
▁●	-8005
010	-8006
212	-8007
ift	-8008
ਬਿਨ	-8009
ਮਾਈ	-8010
ੈਵਲ	-8011
▁KD	-8012
▁Rd	-8013
▁ਧਨ	-8014
umin	-8015
ਸਾਇਟ	-8016
ਾਮਿਲ	-8017
▁%1$	-8018
▁Job	-8019
▁Nav	-8020
▁SQL	-8021
▁due	-8022
▁was	-8023
▁ਅਪਾ	-8024
▁ਖੰਭ	-8025
▁ਬਾਂ	-8026
▁ਭੰਗ	-8027
▁ਮਾਧ	-8028
▁ਮੁਢ	-8029
round	-8030
ਕੁਸ਼ਲ	-8031
▁FREE	-8032
▁free	-8033
▁prog	-8034
▁ਅਯੋਗ	-8035
▁ਇੰਡੀ	-8036
▁ਨੱਥੀ	-8037
▁ਰੈਗੂ	-8038
▁ਲਹਿਰ	-8039
▁ਲੈਣਾ	-8040
▁Style	-8041
▁Tumbl	-8042
▁ਆਸਟ੍ਰ	-8043
▁ਨਵੀਨੀ	-8044
▁ਸਪੇਨੀ	-8045
▁ਸਵੀਡਨ	-8046
ਯੂਐਮਐਕਸ	-8047
▁ਅਡੈਪਟਰ	-8048
▁ਅਹਿਸਾਸ	-8049
▁ਕਲੀਨਿਕ	-8050
▁ਨਾਬਾਲਗ	-8051
▁ਪ੍ਰਵਾਨ	-8052
▁ਸਮਝੌਤੇ	-8053
medicine	-8054
▁algeria	-8055
▁ਟੈਂਪਲੇਟ	-8056
▁ਨਿਯੰਤਰਣ	-8057
ingdirect	-8058
LD	-8059
Sc	-8060
TN	-8061
so	-8062
ਚੋ	-8063
ਮੌ	-8064
-22	-8065
.16	-8066
Con	-8067
des	-8068
eli	-8069
ody	-8070
oos	-8071
ਿਫਟ	-8072
▁',	-8073
▁(7	-8074
▁AD	-8075
▁GM	-8076
CHAR	-8077
Free	-8078
itch	-8079
ਨਾਮਾ	-8080
▁cap	-8081
▁lat	-8082
▁ਇੰਝ	-8083
▁ਗਲੇ	-8084
▁ਵਿਨ	-8085
▁ਹੱਦ	-8086
0000.	-8087
actor	-8088
optic	-8089
overs	-8090
ੱਕਯੁਮ	-8091
▁like	-8092
▁ਚਲਾਉ	-8093
▁ਟੁੱਟ	-8094
▁ਪੂਰਕ	-8095
▁ਬੀਅਰ	-8096
▁ਵਹਾਅ	-8097
▁ਵਿੰਡ	-8098
Indian	-8099
▁China	-8100
▁ਜੈਵਿਕ	-8101
▁ਵੀਜ਼ਾ	-8102
▁ਸਟਾਇਲ	-8103
▁+0000.	-8104
▁ਕੰਪਾਇਲ	-8105
▁ਬਿਸਤਰੇ	-8106
▁ਸਥਿਰਤਾ	-8107
▁ਅੰਦਾਜ਼ਾ	-8108
▁ਚਿੱਤਰਾਂ	-8109
▁ਵਿਚਾਰਾਂ	-8110
▁ਵੈੱਕਯੁਮ	-8111
▁ਪ੍ਰਮਾਣਿਤ	-8112
▁resources	-8113
▁ਇੰਕ੍ਰਿਪਸ਼ਨ	-8114
▁Notification	-8115
WM	-8116
ਚੂ	-8117
ਮਈ	-8118
▁”	-8119
410	-8120
You	-8121
bit	-8122
log	-8123
oph	-8124
wan	-8125
ਪਾਟ	-8126
ਫੇਕ	-8127
ਬਰਾ	-8128
▁CR	-8129
▁cr	-8130
▁mm	-8131
▁sk	-8132
char	-8133
ever	-8134
ਡਿਆਈ	-8135
ਦੀਕੀ	-8136
▁%2$	-8137
▁0.7	-8138
▁Cos	-8139
▁Del	-8140
▁PTO	-8141
▁ਨਗਰ	-8142
▁ਪਕੜ	-8143
▁ਬਚਨ	-8144
▁ਰਾਮ	-8145
▁ਲਾਹ	-8146
▁RFID	-8147
▁conn	-8148
▁ਅਰਬੀ	-8149
▁ਜਸ਼ਨ	-8150
▁ਡਾਕੂ	-8151
▁ਨਾਨਕ	-8152
▁ਸੇਂਟ	-8153
▁ਸੰਗਤ	-8154
andard	-8155
enmark	-8156
▁Train	-8157
▁ਅਧਿਆਇ	-8158
▁ਇਕੱਲੇ	-8159
▁ਐਲਰਜੀ	-8160
▁ਚੁੰਬਕ	-8161
▁ਪਿਕਸਲ	-8162
▁ਬੁਣਾਈ	-8163
▁ਵਿਰਾਮ	-8164
▁brazil	-8165
▁ਪ੍ਰੋਫ਼	-8166
▁ਸੰਭਾਲੀ	-8167
Database	-8168
▁hungary	-8169
▁ਡਿਲੀਵਰੀ	-8170
▁ਲੋੜੀਂਦੇ	-8171
▁Pinterest	-8172
92	-8173
VS	-8174
xt	-8175
▁	-8176
.35	-8177
esh	-8178
ੈਚਰ	-8179
ੋਕਤ	-8180
▁CC	-8181
▁CH	-8182
▁ic	-8183
Chat	-8184
emon	-8185
phek	-8186
ਖੇਤਰ	-8187
ਵੱਡੇ	-8188
▁2.8	-8189
▁CAS	-8190
▁Fre	-8191
▁KTM	-8192
▁Log	-8193
▁Max	-8194
▁Rev	-8195
▁ਗਰੇ	-8196
▁ਡੈਨ	-8197
▁ਦਰਮ	-8198
▁ਲਿਨ	-8199
▁ਸਰੋ	-8200
Sales	-8201
ਜ਼ਗਾਰ	-8202
ਦਾਰਾਂ	-8203
ਿਤਿਜੀ	-8204
▁Deep	-8205
▁Flor	-8206
▁Time	-8207
▁Txxx	-8208
▁plus	-8209
▁ਜਿਹੀ	-8210
▁ਟੀਚੇ	-8211
▁ਡਿੱਗ	-8212
▁ਰੁਪਏ	-8213
▁ਰੇਸ਼	-8214
▁ਵਧਾਓ	-8215
▁ਸਾਇਨ	-8216
urrent	-8217
▁Alber	-8218
▁Piece	-8219
▁ਕਿਊਰੀ	-8220
▁ਤੱਤਾਂ	-8221
▁ਦਰਸ਼ਨ	-8222
▁ਨੁਮਾਇ	-8223
▁ਪੁੱਛਣ	-8224
▁ਮੁਅੱਤ	-8225
▁ਹੇਠਲੀ	-8226
▁Russia	-8227
▁mexico	-8228
▁ਅਡਜੱਸਟ	-8229
▁ਮਾਧਿਅਮ	-8230
▁ਮਿਸ਼ਰਣ	-8231
▁ਰੁਕਾਵਟ	-8232
▁ਸਹਿਮਤੀ	-8233
▁ਅਨੁਵਾਦਕ	-8234
▁ਪਰਾਈਵੇਟ	-8235
▁ਬਿਹਤਰੀਨ	-8236
▁ਐਸੋਸੀਏਸ਼ਨ	-8237
ontDatabase	-8238
▁ਟਰਾਂਸਲੇਸ਼ਨ	-8239
du	-8240
ੀਸ	-8241
320	-8242
ILE	-8243
afe	-8244
ano	-8245
aur	-8246
hor	-8247
ism	-8248
now	-8249
ਲਾਕ	-8250
ਵਟੀ	-8251
ਿਲੇ	-8252
ਿੰਸ	-8253
ੱਲੀ	-8254
▁my	-8255
▁ਮਸ	-8256
andy	-8257
atur	-8258
ibbe	-8259
inch	-8260
ling	-8261
oupl	-8262
raft	-8263
rail	-8264
ਜ਼ਦਾ	-8265
ੈਂਸੀ	-8266
ੜਿਆਂ	-8267
▁Mid	-8268
▁Non	-8269
▁any	-8270
▁web	-8271
▁ਅੱਠ	-8272
▁ਇਸ਼	-8273
▁ਓਧਰ	-8274
▁ਰਾਇ	-8275
.2015	-8276
ਕਰਿਪਟ	-8277
ਡਬਲਯੂ	-8278
ਸ਼ਿੰਗ	-8279
ਿਉਹਾਰ	-8280
▁Cute	-8281
▁Tail	-8282
▁ਚੁੱਪ	-8283
▁ਚੇਲੇ	-8284
▁ਜਾਣੋ	-8285
▁ਪੀਲੇ	-8286
▁ਮੈਟਾ	-8287
ਕੈਸੀਨੋ	-8288
▁Share	-8289
▁japan	-8290
▁sudan	-8291
▁ਜਿਨਸੀ	-8292
▁ਸੰਗ੍ਰ	-8293
osition	-8294
▁Tumblr	-8295
▁ਇਤਾਹਾਸ	-8296
▁ਦੋਸਤਾਂ	-8297
▁listbox	-8298
▁ਕਾਰਬਾਈਡ	-8299
▁Copyshop	-8300
▁November	-8301
▁ਸਿੰਗਾਪੁਰ	-8302
km	-8303
ਓਂ	-8304
▁’	-8305
/12	-8306
:53	-8307
ily	-8308
ਡੀਈ	-8309
ਮੈਂ	-8310
ਰੇਅ	-8311
▁53	-8312
▁Di	-8313
▁IN	-8314
▁cs	-8315
▁ਦਲ	-8316
ebec	-8317
lean	-8318
qing	-8319
ੁੱਗੀ	-8320
▁Die	-8321
▁Ref	-8322
▁ਉਤੇ	-8323
eason	-8324
oetry	-8325
▁Mall	-8326
▁mark	-8327
▁ਉਲੰਘ	-8328
▁ਕਲੋਰ	-8329
▁ਚੜ੍ਹ	-8330
▁ਠੰਢਾ	-8331
▁ਹਾਸੇ	-8332
Casino	-8333
throat	-8334
▁Slack	-8335
▁ਅਪਰਾਧ	-8336
▁ਅਪਵਾਦ	-8337
▁ਕਲਪਨਾ	-8338
▁ਕਵਰੇਜ	-8339
▁ਟੈਸਟਰ	-8340
▁ਪੁੱਛੇ	-8341
▁ਭਾਗਾਂ	-8342
▁ਅਦਾਇਗੀ	-8343
▁ਖਿਤਿਜੀ	-8344
▁ਖੁਲਾਸਾ	-8345
▁ਘੰਟਿਆਂ	-8346
▁ਟੈਬਲੇਟ	-8347
▁ਬਹੁਭੁਜ	-8348
▁discuss	-8349
▁ਲਾਇਬ੍ਰੇ	-8350
________________	-8351
WD	-8352
▁🇴	-8353
-35	-8354
-40	-8355
ਡੋਰ	-8356
▁=&	-8357
▁PA	-8358
▁ap	-8359
▁ਏਮ	-8360
'000	-8361
cent	-8362
icle	-8363
itel	-8364
lock	-8365
time	-8366
yaan	-8367
ਿਆਣਾ	-8368
ੋਟਿਵ	-8369
ੱਕਰੀ	-8370
▁Gen	-8371
▁bug	-8372
▁nym	-8373
▁ਕਟਰ	-8374
▁ਕਰਵ	-8375
▁ਦੇਰ	-8376
▁ਨਦੀ	-8377
▁ਫੈਨ	-8378
▁ਬੀਮ	-8379
▁ਲੂੰ	-8380
▁ਸਮੂ	-8381
▁ਸਰਬ	-8382
▁ਸਾਈ	-8383
▁Text	-8384
▁rich	-8385
▁ਅਸੂਲ	-8386
▁ਐਕਸਗ	-8387
▁ਕਮਾਈ	-8388
▁ਰੇਡੀ	-8389
▁ਵੰਡੋ	-8390
▁ਸ਼ੈਲ	-8391
▁ਹਮਲਾ	-8392
rowser	-8393
ਾਈਲੈਂਡ	-8394
ਿਊਟੁੱਥ	-8395
▁ਅਪਾਚੇ	-8396
▁ਕੁਆਇਲ	-8397
▁ਕੇਡੀਈ	-8398
▁ਖੁਦਾਈ	-8399
▁ਜ਼ੀਰੋ	-8400
▁ਡਰੈੱਸ	-8401
▁ਦੋਵਾਂ	-8402
▁86-574	-8403
▁mobile	-8404
▁sweden	-8405
▁ਫੋਲਡਰਾਂ	-8406
ਐਨਯੂਐਮਐਕਸ	-8407
▁facebook	-8408
▁ਇੰਡੋਨੇਸ਼	-8409
▁ਐਪਲੀਕੇਸ਼	-8410
▁Generator	-8411
▁protected	-8412
▁ਐਕਸਟੈਨਸ਼ਨ	-8413
▁shoppingdirect	-8414
VI	-8415
da	-8416
tn	-8417
va	-8418
ਘਨ	-8419
ਝਾ	-8420
.04	-8421
irc	-8422
ugh	-8423
ਜਰਮ	-8424
▁Ro	-8425
▁TM	-8426
ores	-8427
ਭੂਮੀ	-8428
▁3.2	-8429
▁4.5	-8430
▁720	-8431
▁Mel	-8432
▁mar	-8433
▁ਆਪਸ	-8434
▁ਡਿਕ	-8435
▁ਦੂਸ	-8436
▁ਮਿਊ	-8437
▁ਸ਼ੁ	-8438
merce	-8439
thiop	-8440
title	-8441
▁1100	-8442
▁ਇਸਦੀ	-8443
▁ਐਕਟੀ	-8444
▁ਕਰਤਾ	-8445
▁ਪੱਤੇ	-8446
▁ਬਾਹੀ	-8447
▁ਲੀਅਮ	-8448
▁ਸੌਦੇ	-8449
▁other	-8450
▁ਏਜੰਸੀ	-8451
▁ਕਾਰਟਰ	-8452
▁ਕਿਡਜ਼	-8453
▁ਜਾਗਰੂ	-8454
▁ਦਾਅਵਾ	-8455
▁ਦਾਖਲੇ	-8456
▁ਨੈਤਿਕ	-8457
▁ਬਕਵਾਸ	-8458
▁ਬੁੱਧੀ	-8459
▁ਬੇਤਾਰ	-8460
▁ਬ੍ਰੇਕ	-8461
▁ਮਿਹਨਤ	-8462
▁ਲੈਟਿਨ	-8463
▁ਸਪੀਕਰ	-8464
▁ਸਰਟੀਫ	-8465
▁Chrome	-8466
▁ਉਪਰੋਕਤ	-8467
▁ਤਿਉਹਾਰ	-8468
▁ਬੀਜਿੰਗ	-8469
▁ਰੰਗਦਾਰ	-8470
▁ਸ਼ੀਸ਼ੇ	-8471
▁ਕੋਲੰਬੀਆ	-8472
▁ਰਾਜਧਾਨੀ	-8473
▁ਹਾਈਲਾਈਟ	-8474
▁download	-8475
▁security	-8476
▁ਪ੍ਰੋਫ਼ਾਈਲ	-8477
▁ਖੋਜਕਰਤਾਵਾਂ	-8478
▁ਪ੍ਰਤੀਨਿਧਤਾ	-8479
08	-8480
RT	-8481
wh	-8482
ਜੁ	-8483
COM	-8484
ini	-8485
isc	-8486
met	-8487
ਕਸੇ	-8488
ਜਰੀ	-8489
ਬੇਟ	-8490
ਯੂਬ	-8491
ਸਿਆ	-8492
ੈਲੀ	-8493
▁dd	-8494
▁sa	-8495
▁ਰਖ	-8496
Play	-8497
rive	-8498
shar	-8499
very	-8500
ਡਾਟਾ	-8501
ਪਸੰਦ	-8502
ਬਾਣੀ	-8503
ਹਵਾਈ	-8504
ਾਇਤੀ	-8505
▁Ins	-8506
▁Per	-8507
▁alb	-8508
▁ਇਰਾ	-8509
▁ਕੇਟ	-8510
▁ਵਰਕ	-8511
▁ਸਿਨ	-8512
▁ਸੁੱ	-8513
eting	-8514
ieces	-8515
orway	-8516
▁Amaz	-8517
▁best	-8518
▁date	-8519
▁pres	-8520
▁ਆਫਿਸ	-8521
▁ਉੱਚੇ	-8522
▁ਜਨਤਾ	-8523
▁ਮੰਚਨ	-8524
ਗਜਾਮੀਨ	-8525
▁Linux	-8526
▁dream	-8527
▁users	-8528
▁ਝਰੋਖਾ	-8529
▁ਡਿਊਟੀ	-8530
▁ਡ੍ਰੈਗ	-8531
▁ਮਿੱਟੀ	-8532
▁ਮੁਹਿੰ	-8533
▁ਸਪਸ਼ਟ	-8534
▁ਸੀਜ਼ਨ	-8535
▁ਸੈਕਰੋ	-8536
ਕੁਸ਼ਲਤਾ	-8537
▁CentOS	-8538
▁Credit	-8539
▁Pocket	-8540
▁ਟਾਰਗੇਟ	-8541
▁ਪਰੋਸੈਸ	-8542
▁ਸੈਲਾਨੀ	-8543
▁ਹੀਟਿੰਗ	-8544
▁Holiday	-8545
▁ਥਾਈਲੈਂਡ	-8546
▁ਬਾਦਸ਼ਾਹ	-8547
▁ਵਸਰਾਵਿਕ	-8548
▁ਵੈਲਡਿੰਗ	-8549
ਗਜਾਮੀਨੈਸ਼ਨ	-8550
▁Slackware	-8551
▁Deepthroat	-8552
punjabiquotes	-8553
ye	-8554
ਅਗ	-8555
ਉਹ	-8556
ਨੌ	-8557
ੱਭ	-8558
112	-8559
hed	-8560
кра	-8561
ਕਾਸ	-8562
▁CA	-8563
▁MM	-8564
aish	-8565
asms	-8566
esel	-8567
inal	-8568
love	-8569
wing	-8570
ਚੈਚਰ	-8571
▁70%	-8572
▁Blu	-8573
▁Fil	-8574
▁Ltd	-8575
▁loc	-8576
▁ਅਤਰ	-8577
▁ਇੰਗ	-8578
▁ਘਾਟ	-8579
▁ਤੰਗ	-8580
▁ਸਤਿ	-8581
arbon	-8582
arium	-8583
rapon	-8584
ution	-8585
ਖੋਪੜੀ	-8586
ਸਾਨੂੰ	-8587
▁Java	-8588
▁Plan	-8589
▁iran	-8590
▁view	-8591
▁ਕਰਾਸ	-8592
▁ਕੀੜੇ	-8593
▁ਜ਼ੂਮ	-8594
▁ਜਾਣਨ	-8595
▁ਟਾਵਰ	-8596
▁ਧੁੰਦ	-8597
▁ਪਿੰਜ	-8598
▁ਫ਼ਿਲ	-8599
▁ਬਣਿਆ	-8600
▁ਮਾਸਕ	-8601
▁ਮੰਦਰ	-8602
▁ਸਨੈਪ	-8603
▁ਸੱਜਾ	-8604
ੁਆਰਿਅਮ	-8605
▁Class	-8606
▁vesel	-8607
▁ਖਿਲਾਫ	-8608
▁ਪੇਪਾਲ	-8609
▁ਬਦਲਣਾ	-8610
ਵਰਡਪਰੈਸ	-8611
▁System	-8612
▁cheats	-8613
▁extrud	-8614
▁ਕੋਨਕਿਉ	-8615
▁ਫੀਡਬੈਕ	-8616
▁ਸਥਾਨਾਂ	-8617
ofchrist	-8618
thiopian	-8619
▁Mallari	-8620
▁command	-8621
▁ਅਧਿਕਾਰੀ	-8622
▁ਕੁੰਜੀਆਂ	-8623
▁ਸਿਹਤਮੰਦ	-8624
▁ਤੰਦਰੁਸਤੀ	-8625
▁ਨਿਰਧਾਰਿਤ	-8626
▁ਬਲਿਊਟੁੱਥ	-8627
▁ਸਕਾਰਾਤਮਕ	-8628
▁ਸੁਨੇਹਿਆਂ	-8629
yaanipedia	-8630
▁veselitel	-8631
▁;	-8632
▁🇱	-8633
▁📱	-8634
1.0	-8635
jit	-8636
usa	-8637
ves	-8638
win	-8639
▁("	-8640
▁=%	-8641
▁Of	-8642
▁eg	-8643
ists	-8644
lien	-8645
ਟਰੇਟ	-8646
ਰੀਖਣ	-8647
▁(0)	-8648
▁1.6	-8649
▁140	-8650
▁30%	-8651
▁CHF	-8652
▁Rom	-8653
▁Spr	-8654
▁Und	-8655
▁ਅਜੀ	-8656
▁ਅਧੂ	-8657
▁ਆਊਟ	-8658
▁ਤ੍ਰ	-8659
▁ਦਾਤ	-8660
▁ਪਿਘ	-8661
:86-0	-8662
ਦਦਾਰੀ	-8663
ਮੁਫ਼ਤ	-8664
ਸਾਇਟੀ	-8665
ੇਲੀਆਈ	-8666
▁ਘੰਟਾ	-8667
▁ਤਾਰੇ	-8668
▁ਤਾਲਾ	-8669
▁ਤੋੜਨ	-8670
▁ਪੁੰਪ	-8671
▁ਲਾਇਨ	-8672
▁ਸੁੱਖ	-8673
intage	-8674
reland	-8675
ਡ੍ਰੈਗਨ	-8676
▁email	-8677
▁ਅਸੈੱਸ	-8678
▁ਆਈਡੀਆ	-8679
▁ਜਾਪਦਾ	-8680
▁ਵਪਾਰੀ	-8681
▁ਵਾਪਿਸ	-8682
▁ਵੇਖਣਾ	-8683
▁ਸਵੇਰੇ	-8684
▁ਸਿੱਕੇ	-8685
▁ਹਾਲੀਆ	-8686
▁Quebec	-8687
▁iSpyoo	-8688
▁ਇਕਾਈਆਂ	-8689
▁ਮੈਨੁਅਲ	-8690
▁ਲਿਮਿਟਡ	-8691
▁ਵਿਆਖਿਆ	-8692
punjabip	-8693
▁Charter	-8694
▁Products	-8695
▁ਪਾਰਦਰਸ਼ੀ	-8696
▁ਸਟਰੀਮਿੰਗ	-8697
ਐਗਜਾਮੀਨੈਸ਼ਨ	-8698
▁ਡਾਇਰੈਕਟਰੀਆਂ	-8699
*_	-8700
ZD	-8701
fm	-8702
ve	-8703
сь	-8704
ਆਲ	-8705
.20	-8706
pad	-8707
rus	-8708
ਪਲੇ	-8709
ਹੱਦ	-8710
ਿਯਲ	-8711
▁ਤਦ	-8712
flex	-8713
ਯਾਰਕ	-8714
ਾਈਵੇ	-8715
▁215	-8716
▁230	-8717
▁ang	-8718
▁top	-8719
▁{1}	-8720
▁ਏਧਰ	-8721
▁ਕਾਬ	-8722
▁ਜੇਬ	-8723
▁ਦੂਤ	-8724
▁ਪੀੜ	-8725
▁ਸੇਲ	-8726
▁ਹੋਲ	-8727
Title	-8728
ਕਾਰਾਂ	-8729
ਟੇਸ਼ਨ	-8730
ਸ਼ਨਜ਼	-8731
੍ਬਰ੍ਨ	-8732
▁Duct	-8733
▁back	-8734
▁city	-8735
▁ਕਨਵਰ	-8736
▁ਗਿੱਲ	-8737
▁ਜਾਰਜ	-8738
▁ਥੋੜਾ	-8739
▁ਦੱਬੋ	-8740
▁ਪਹੀਏ	-8741
▁ਪੂਰਵ	-8742
▁ਫੋਰਮ	-8743
▁ਮਾਣੋ	-8744
▁ਰਾਖਵ	-8745
▁ਸ਼ੋਅ	-8746
▁Sharp	-8747
▁ਕਿੰਨਾ	-8748
▁Flight	-8749
▁follow	-8750
▁ਇੰਡੀਕੇ	-8751
▁ਦਸਤਾਨੇ	-8752
herlands	-8753
punjabiv	-8754
▁context	-8755
▁twitter	-8756
▁ਮੇਜ਼ਬਾਨ	-8757
ਕ੍ਰੀਨਚੈਚਰ	-8758
▁ਆਟੋਮੋਟਿਵ	-8759
▁ਐਕੁਆਰਿਅਮ	-8760
▁ਸੰਸਥਾਵਾਂ	-8761
▁instagram	-8762
Dv	-8763
MY	-8764
XT	-8765
fr	-8766
gg	-8767
ਹੈ	-8768
▁👉	-8769
/11	-8770
ਐਕਟ	-8771
ਗਾਨ	-8772
ਿਯਮ	-8773
ੋਖਾ	-8774
▁1@	-8775
▁ZY	-8776
iled	-8777
irus	-8778
lant	-8779
omat	-8780
ਜਿੱਠ	-8781
ਬਾਕਸ	-8782
▁Sub	-8783
▁War	-8784
▁edu	-8785
▁ਉਪਾ	-8786
▁ਖੰਡ	-8787
▁ਦੁਪ	-8788
▁ਬੈਰ	-8789
▁ਰੋਸ	-8790
▁ਸੱਤ	-8791
esson	-8792
ories	-8793
owder	-8794
river	-8795
ਘੁੱਗੀ	-8796
▁2500	-8797
▁iPod	-8798
▁ਏਰੀਆ	-8799
▁ਕਰੀਮ	-8800
▁ਕਾਇਮ	-8801
▁ਗਰੀਨ	-8802
▁ਜੋੜਾ	-8803
▁ਦੌਰੇ	-8804
▁ਬਦਲੇ	-8805
▁ਬਲੇਡ	-8806
▁ਰਸਤੇ	-8807
ਨਟਾਰੀਓ	-8808
▁ਅਪਰੈਲ	-8809
▁ਚਿਲਡਰ	-8810
▁ਜੁੱਤੀ	-8811
▁ਨਜਿੱਠ	-8812
▁ਨਿਯੰਤ	-8813
▁ਪ੍ਰੇਮ	-8814
▁ਰਿਜ਼ਰ	-8815
▁ਰੇਖਿਕ	-8816
▁ਸ਼੍ਰੀ	-8817
ਜ਼ੀਲੈਂਡ	-8818
▁ਕਮਜ਼ੋਰ	-8819
▁ਗਲੈਕਸੀ	-8820
▁ਜਿਸਨੂੰ	-8821
▁ਮਾਜ਼ਦਾ	-8822
▁flicker	-8823
▁ਵਰਕਸ਼ਾਪ	-8824
▁ਮੇਲ੍ਬਰ੍ਨ	-8825
▁ਗਤੀਵਿਧੀਆਂ	-8826
▁ਜਾਵਾਸਕਰਿਪਟ	-8827
▁switzerland	-8828
QFontDatabase	-8829
/5	-8830
GL	-8831
RI	-8832
RP	-8833
VE	-8834
ਆਮ	-8835
ਊਸ	-8836
ਜਸ	-8837
ਲਈ	-8838
acy	-8839
ham	-8840
ਗੋਲ	-8841
ਦੇਹ	-8842
ਬਿਊ	-8843
ੋਲੇ	-8844
ੜਗਾ	-8845
▁XL	-8846
▁mx	-8847
▁vk	-8848
ally	-8849
free	-8850
rict	-8851
ross	-8852
wiki	-8853
ਕਾਰਾ	-8854
ਜਰਜ਼	-8855
ਣਯੋਗ	-8856
ਬਾਨੀ	-8857
੍ਲਿਨ	-8858
▁(4)	-8859
▁0.4	-8860
▁Off	-8861
▁ਉੱਡ	-8862
▁ਝੀਲ	-8863
▁ਧੂੜ	-8864
▁ਬੁੱ	-8865
▁ਭੈਣ	-8866
▁ਵੋਲ	-8867
oress	-8868
preet	-8869
ਕਾਲੀਨ	-8870
ਤਰਨਾਕ	-8871
ਲਾਂਕਣ	-8872
ਵਿਜ਼ਨ	-8873
▁1080	-8874
▁1800	-8875
▁6000	-8876
▁Dong	-8877
▁Javi	-8878
▁mult	-8879
▁used	-8880
▁week	-8881
▁ਅੰਡਰ	-8882
▁ਕੂਲਰ	-8883
▁ਗਿਫਟ	-8884
▁ਘੁੰਮ	-8885
▁ਜਾਣੇ	-8886
▁ਪੋਲੀ	-8887
▁ਬਾਬਾ	-8888
▁ਭਿੰਨ	-8889
▁ਲੂੰਡ	-8890
▁ਸੇਵਰ	-8891
Coptic	-8892
Please	-8893
ession	-8894
▁ਅਸਥਾਈ	-8895
▁ਈਵੈਂਟ	-8896
▁ਕਰੇਗੀ	-8897
▁ਗਣਰਾਜ	-8898
▁ਪਰਚੂਨ	-8899
▁ਪੈਰਿਸ	-8900
▁ਭੇਜਣਾ	-8901
▁ਯਾਤਰੀ	-8902
▁ਵਾਪਸੀ	-8903
▁ਵਿਚਲੇ	-8904
▁ਸਕੋਗੇ	-8905
▁ਸੰਕਲਪ	-8906
▁ਆਯੋਜਿਤ	-8907
▁ਚੀਟਿੰਗ	-8908
▁ਲੋੜੀਦਾ	-8909
▁ਵਰਕਰਜ਼	-8910
▁ਵਿਦਗਿਟ	-8911
▁ਸ਼ਾਂਤੀ	-8912
▁British	-8913
▁Twitter	-8914
▁ਗਰਾਫਿਕਸ	-8915
▁ਚਾੰਗਜ਼ੌ	-8916
▁ਮੁਲਾਂਕਣ	-8917
▁ਸਹੂਲਤਾਂ	-8918
▁inductor	-8919
▁ਨਵੀਨੀਕਰਨ	-8920
▁ਬ੍ਰਾਊਜ਼ਰ	-8921
bjectClass	-8922
▁Tailoress	-8923
punjabisuit	-8924
▁transaction	-8925
їн	-8926
130	-8927
Box	-8928
VAC	-8929
eck	-8930
ira	-8931
itt	-8932
mes	-8933
mos	-8934
rec	-8935
via	-8936
ਕਿਨ	-8937
ਾਇਕ	-8938
ੁਦਾ	-8939
▁Du	-8940
▁Em	-8941
Cash	-8942
berg	-8943
book	-8944
html	-8945
load	-8946
type	-8947
ugal	-8948
їнсь	-8949
ਐਸਐਸ	-8950
ਸਾਫਟ	-8951
ਸਿਰਫ	-8952
ਹਿਲਾ	-8953
ਾਂਸਪ	-8954
ਿੱਧੇ	-8955
ੌਂਡੀ	-8956
▁CPA	-8957
▁Day	-8958
▁Mod	-8959
▁Tur	-8960
▁ਅੱਤ	-8961
▁ਘਾਹ	-8962
▁ਮੀਲ	-8963
▁ਵਾਕ	-8964
acter	-8965
ayari	-8966
ecoin	-8967
eland	-8968
ences	-8969
panel	-8970
ੜਗਾਓਂ	-8971
▁0.00	-8972
▁86-1	-8973
▁ਜੀਪੀ	-8974
▁ਤਬਾਦ	-8975
▁ਪੰਛੀ	-8976
▁ਲਪੇਟ	-8977
▁ਵੱਖੋ	-8978
▁ਸਮਾਗ	-8979
▁ਸੈਕਸ	-8980
▁Colum	-8981
▁ਟ੍ਰੇਨ	-8982
▁ਦਰਿਸ਼	-8983
▁ਫਰਾਂਸ	-8984
▁ਰਿਟਰਨ	-8985
▁ਰੋਟਰੀ	-8986
країнсь	-8987
ੈਮੀਕੋਲਨ	-8988
▁ਅਕੌਂਡੀ	-8989
▁ਖਿਡੌਣੇ	-8990
▁ਖੋਲ੍ਹੀ	-8991
▁ਤੀਬਰਤਾ	-8992
▁ਪੀੜ੍ਹੀ	-8993
▁ਫਾਈਲਾਂ	-8994
▁ਬ੍ਰਹਿਮ	-8995
▁ਯੂਨੀਅਨ	-8996
▁ਰੌਜਰਜ਼	-8997
▁ਪੋਲਿਸਟਰ	-8998
▁ਵਿਦਿਆਰਥੀਆਂ	-8999
PK	-9000
oz	-9001
ਇੰ	-9002
ਤਗ	-9003
21)	-9004
Man	-9005
Red	-9006
add	-9007
emb	-9008
ਤ੍ਰ	-9009
ਫਿਨ	-9010
ਭਾਸ	-9011
ੇਟੀ	-9012
▁(*	-9013
▁Er	-9014
▁Kh	-9015
▁LC	-9016
▁TP	-9017
▁UV	-9018
▁sf	-9019
▁ਐਟ	-9020
rime	-9021
ਵਾਇਰ	-9022
▁210	-9023
▁4.4	-9024
▁86-	-9025
▁DRO	-9026
▁Dog	-9027
▁Mus	-9028
▁Roy	-9029
▁don	-9030
▁ਥ੍ਰ	-9031
▁ਮਿਡ	-9032
/2020	-9033
CHARX	-9034
elash	-9035
▁Type	-9036
▁help	-9037
▁mail	-9038
▁over	-9039
▁spec	-9040
▁ਕੋਨੇ	-9041
▁ਦੋਸ਼	-9042
▁ਲੰਬੀ	-9043
▁ਸਾਗਰ	-9044
▁ਹੈੱਡ	-9045
ਾਈਵੇਸੀ	-9046
▁escom	-9047
▁first	-9048
▁ਅੱਯੂਬ	-9049
▁ਡੂੰਘੀ	-9050
▁ਢਾਂਚਾ	-9051
▁ਪੈਂਦਾ	-9052
artment	-9053
▁Orphek	-9054
▁credit	-9055
▁ਅਡਾਪਟਰ	-9056
▁ਉਲੰਘਣਾ	-9057
▁ਕੋਰੀਆਈ	-9058
▁ਪਹੁੰਚਾ	-9059
▁ਸਟੋਰੇਜ	-9060
▁Alberta	-9061
▁Website	-9062
▁changes	-9063
▁support	-9064
▁ਪ੍ਰੈਸ਼ਰ	-9065
▁ਮਸ਼ੀਨਾਂ	-9066
▁ਮਾਮਲਿਆਂ	-9067
країнська	-9068
▁dreambox	-9069
▁Pneumatic	-9070
▁ਟੈਟੂਸਕ੍ਰੀਨਚੈਚਰ	-9071
?"	-9072
ja	-9073
ੇਦ	-9074
ੇਵ	-9075
015	-9076
ANG	-9077
bet	-9078
dil	-9079
rak	-9080
url	-9081
ਉਂਟ	-9082
ਟਿਵ	-9083
ਥਾਮ	-9084
ਰਾਤ	-9085
ਰੰਗ	-9086
▁82	-9087
▁94	-9088
▁IT	-9089
▁PE	-9090
▁fr	-9091
▁ਠਾ	-9092
SHYA	-9093
ongs	-9094
otor	-9095
road	-9096
umma	-9097
xBet	-9098
▁8.1	-9099
▁San	-9100
▁Sol	-9101
▁ਅਸ਼	-9102
▁ਚੱਟ	-9103
▁ਛੂਟ	-9104
▁ਜਾਬ	-9105
▁ਜੂਆ	-9106
▁ਧੁਰ	-9107
▁ਪਾਉ	-9108
▁ਬਰਨ	-9109
▁ਮੱਛ	-9110
▁ਵਾਟ	-9111
ਟਰੈਕਟ	-9112
ਪੂਰਬੀ	-9113
▁Pack	-9114
▁Soft	-9115
▁ਉਚਿਤ	-9116
▁ਐਕਸਟ	-9117
▁ਕਢਾਈ	-9118
▁ਟਕਰਾ	-9119
▁ਡਰੇਨ	-9120
▁ਡਾਇਨ	-9121
▁ਧੁਰਾ	-9122
▁ਨਿਆਂ	-9123
▁ਮੋਹਰ	-9124
Pieces	-9125
ortune	-9126
▁Clash	-9127
▁Elect	-9128
▁Zhong	-9129
▁ਪੋਸਟਰ	-9130
▁ਰੁਪਇਆ	-9131
▁ਸਰਹੱਦ	-9132
▁ਸ਼ਾਖਾ	-9133
▁ਸੋਚਿਆ	-9134
content	-9135
ongolia	-9136
▁africa	-9137
▁ਗ੍ਰਾਹਕ	-9138
▁ਪੀਸੀਬੀ	-9139
▁ਰਿਸ਼ਤਾ	-9140
▁ਲਚਕਦਾਰ	-9141
SHYAlien	-9142
▁albania	-9143
▁ਨਿਸ਼ਚਿਤ	-9144
▁ਪਰਿਵਰਤਕ	-9145
▁ਵਾਸ਼ਿੰਗ	-9146
▁ਸ਼ਿਕਾਇਤ	-9147
Ethiopian	-9148
▁Columbia	-9149
▁ਐਕਸਪ੍ਰੈਸ	-9150
▁ਕਸਟਮਾਈਜ਼	-9151
▁ਬ੍ਰਹਿਮੰਡ	-9152
▁ਟੈਟੂਡ੍ਰੈਗਨ	-9153
Ar	-9154
CF	-9155
FF	-9156
KD	-9157
UT	-9158
WA	-9159
gn	-9160
ਗ਼	-9161
▁←	-9162
999	-9163
="0	-9164
irl	-9165
ker	-9166
mar	-9167
ਐਫਈ	-9168
ਟੀਏ	-9169
ਤੀਨ	-9170
ਮਿਸ	-9171
ਿੱਜ	-9172
ੇਲਰ	-9173
▁68	-9174
▁IS	-9175
This	-9176
View	-9177
quip	-9178
rank	-9179
ਤਵਾਰ	-9180
ਲੀਅਮ	-9181
ਾਨੀਆ	-9182
▁170	-9183
▁509	-9184
▁ਅੰਮ	-9185
▁ਜੱਜ	-9186
▁ਦੀਪ	-9187
▁ਨਾਨ	-9188
▁ਪੰਚ	-9189
▁ਮਨਾ	-9190
▁ਮਨੀ	-9191
▁ਮਨੋ	-9192
▁ਲੈਪ	-9193
▁ਲੌਗ	-9194
▁ਸੁੰ	-9195
25028	-9196
China	-9197
ument	-9198
ਐਕਸਯੂ	-9199
▁****	-9200
▁Spec	-9201
▁char	-9202
▁pack	-9203
▁prov	-9204
▁ਅਲੱਗ	-9205
▁ਜਿਨਾ	-9206
▁ਪੀਟਰ	-9207
▁ਪੱਖਾ	-9208
▁ਫੀਲਡ	-9209
▁ਬੈਸ਼	-9210
▁ਭਰਿਆ	-9211
▁ਮੁਨਾ	-9212
▁ਵਿਆਜ	-9213
▁ਸਸਤਾ	-9214
▁Strip	-9215
▁ਐਲਈਡੀ	-9216
▁ਖੋਜਿਆ	-9217
▁ਖੜ੍ਹੇ	-9218
▁ਝਰੋਖੇ	-9219
▁ਦੱਸਦੀ	-9220
▁ਮਾਮਲਾ	-9221
▁ਮੁਢਲੇ	-9222
▁ਵਾਅਦਾ	-9223
▁ਹਥਿਆਰ	-9224
▁ਹਥੌੜੇ	-9225
▁cpanel	-9226
▁ਘੁੰਮਾਓ	-9227
▁ਥੋੜ੍ਹਾ	-9228
▁ਨਾਈਟ੍ਰ	-9229
▁ਨਿਯੁਕਤ	-9230
▁ਪੜ੍ਹਾਈ	-9231
▁ਮਾਨਸਿਕ	-9232
▁ਸਜਾਵਟੀ	-9233
▁ਸਮੁੱਚੇ	-9234
▁ਸਾਈਟਾਂ	-9235
▁Bowflex	-9236
▁trainer	-9237
▁ਕਾਰਟਰੇਜ	-9238
▁ਪਲੇਅਬੈਕ	-9239
▁ਪੁਰਸ਼ਾਂ	-9240
▁ਪੋਰਟੇਬਲ	-9241
▁ਮਰੀਜ਼ਾਂ	-9242
▁ਵਿਗਿਆਨੀ	-9243
▁ਜ਼ਰੂਰਤਾਂ	-9244
▁ਫਾਇਦੇਮੰਦ	-9245
▁ਟਿਊਟੋਰਿਯਲ	-9246
:"	-9247
IA	-9248
UA	-9249
wp	-9250
ਓਸ	-9251
ਯਨ	-9252
220	-9253
Jar	-9254
Res	-9255
ara	-9256
cre	-9257
och	-9258
udd	-9259
yan	-9260
ਕਾਮ	-9261
▁'.	-9262
▁TN	-9263
▁ਫੜ	-9264
-300	-9265
XXXX	-9266
arts	-9267
oven	-9268
ribe	-9269
unes	-9270
ਪ੍ਰੋ	-9271
ਵੀਡੀ	-9272
ੋਲੋਨ	-9273
▁(28	-9274
▁6.0	-9275
▁7.5	-9276
▁DRK	-9277
▁VPN	-9278
▁ecu	-9279
▁ins	-9280
▁ਢੁਕ	-9281
▁ਬਿਟ	-9282
▁ਲੈਨ	-9283
rench	-9284
ਾਈਨਰੀ	-9285
ਾਡਾਟਾ	-9286
▁2003	-9287
▁2004	-9288
▁ਅਣਜਾ	-9289
▁ਉਭਾਰ	-9290
▁ਐਨਾਲ	-9291
▁ਕੋਨਾ	-9292
▁ਡਾਕਟ	-9293
▁ਢੁੱਕ	-9294
▁ਬੇਸ਼	-9295
▁ਬੱਡੀ	-9296
▁ਸ਼ਾਪ	-9297
▁ਸੌਦਾ	-9298
▁ਹਟਾਏ	-9299
▁ਹਦਾਇ	-9300
ਜੀਰੀਆਈ	-9301
▁Posts	-9302
▁Tools	-9303
▁heels	-9304
▁ਆਉਂਦਾ	-9305
▁ਖੇਤਰੀ	-9306
▁ਟ੍ਰੇਡ	-9307
▁ਢਾਂਚੇ	-9308
▁ਨਵੀਆਂ	-9309
▁ਪਿਛਲੀ	-9310
8025028	-9311
angeset	-9312
shopify	-9313
▁(2015)	-9314
▁ਅਸਿੱਧੇ	-9315
▁ਆਜ਼ਾਦੀ	-9316
▁ਨਿਲਾਮੀ	-9317
▁ਮਹਿਮਾਨ	-9318
▁ਮਿਲਿਅਨ	-9319
▁ਰਣਨੀਤੀ	-9320
▁ਸੰਬੰਧਤ	-9321
▁ਹਾਲਤਾਂ	-9322
▁SlotJar	-9323
▁ecuador	-9324
▁finland	-9325
▁ਟੈਟੂਮੋਰ	-9326
instagram	-9327
▁language	-9328
▁properly	-9329
▁ਅਧਿਕਾਰਾਂ	-9330
▁ਡਾਇਰੈਕਟਰ	-9331
▁ਪਿੱਠਭੂਮੀ	-9332
▁Changeset	-9333
▁ਟੈਟੂਖੋਪੜੀ	-9334
▁ਟੈਟੂਘੁੱਗੀ	-9335
▁ਪ੍ਰੋਟੈਕਸ਼ਨ	-9336
▁ਸੰਵੇਦਨਸ਼ੀਲ	-9337
▁ਟੈਟੂਸੈਮੀਕੋਲਨ	-9338
DA	-9339
It	-9340
LP	-9341
Or	-9342
TY	-9343
VA	-9344
▁🔥	-9345
😂😂	-9346
.14	-9347
235	-9348
50,	-9349
706	-9350
ein	-9351
ese	-9352
ulf	-9353
ਟੇਡ	-9354
ਬਣਾ	-9355
ਬੁਕ	-9356
ਲੀਲ	-9357
ੈਜੂ	-9358
▁(9	-9359
▁BS	-9360
▁CF	-9361
▁Id	-9362
coin	-9363
estb	-9364
ਟਰਾਂ	-9365
ਬੈੱਡ	-9366
ਵਾਲਾ	-9367
▁(60	-9368
▁04:	-9369
▁ATV	-9370
▁ਇੰਕ	-9371
▁ਬੂਥ	-9372
▁ਭਾਅ	-9373
▁ਰਿਫ	-9374
▁ਲੰਘ	-9375
/2016	-9376
Admin	-9377
engal	-9378
oshan	-9379
rader	-9380
▁2002	-9381
▁Back	-9382
▁Mess	-9383
▁Wiki	-9384
▁only	-9385
▁role	-9386
▁ਅਕੈਡ	-9387
▁ਆਮਦਨ	-9388
▁ਕਲਾਂ	-9389
▁ਗਣਿਤ	-9390
▁ਪਲਾਨ	-9391
▁ਪੌਂਡ	-9392
▁ਫ਼ੋਨ	-9393
▁ਬੁਰਾ	-9394
▁ਸ਼ੌਕ	-9395
▁ਸ਼ੱਕ	-9396
▁ਸੰਸਥ	-9397
▁ਹੋਣੀ	-9398
ਤਕਰੀਬਨ	-9399
▁aalam	-9400
▁track	-9401
▁ਕੀਮਤੀ	-9402
▁ਚੁੱਕਣ	-9403
▁ਪਰਸ਼ਾ	-9404
▁ਸਿਲਵਰ	-9405
▁ਸੁਪਨਾ	-9406
▁ਹੈੱਡਰ	-9407
mission	-9408
▁Lesson	-9409
▁Square	-9410
▁ਕਾਰਜਾਂ	-9411
▁ਕ੍ਰਿਪਟ	-9412
▁ਦਿਖਾਉਣ	-9413
▁ਪੈਮਾਨੇ	-9414
▁ਪ੍ਰਕਾਰ	-9415
▁ਲੋੜੀਦੇ	-9416
▁ਵੇਖਾਇਆ	-9417
▁ਸਟਾਰਟਰ	-9418
▁Ductile	-9419
▁ਕਹਾਣੀਆਂ	-9420
▁ਨਿਸ਼ਾਨਾ	-9421
▁ਪਦਾਰਥਾਂ	-9422
▁ਫਰੇਮਵਰਕ	-9423
▁ਸੰਗ੍ਰਹਿ	-9424
plication	-9425
▁Valentines	-9426
▁information	-9427
▁ਕਾਰਜਕੁਸ਼ਲਤਾ	-9428
??	-9429
lu	-9430
oe	-9431
ਜਕ	-9432
ਜਤ	-9433
ਢੀ	-9434
▁в	-9435
-27	-9436
10)	-9437
ici	-9438
ona	-9439
ony	-9440
orr	-9441
oth	-9442
trl	-9443
uid	-9444
ਸੀਆ	-9445
ਿਪੀ	-9446
ੰਦੇ	-9447
ੰਭਵ	-9448
▁(£	-9449
▁LO	-9450
▁।%	-9451
▁ਸ੍	-9452
enna	-9453
iant	-9454
pack	-9455
xing	-9456
ਲੀਅਤ	-9457
ੈਫਿਕ	-9458
▁0.8	-9459
▁One	-9460
▁inv	-9461
▁mem	-9462
▁sur	-9463
▁ਔਖਾ	-9464
▁ਕੈਸ	-9465
▁ਨੀਂ	-9466
▁ਪੜਨ	-9467
▁ਬਣੋ	-9468
▁ਬੈਂ	-9469
▁ਮਲੇ	-9470
▁ਮੋਰ	-9471
ਜ਼ੁਰਗ	-9472
▁File	-9473
▁Main	-9474
▁port	-9475
▁ਕਿੰਗ	-9476
▁ਖੋਜਣ	-9477
▁ਚਰਬੀ	-9478
▁ਚਲਾਏ	-9479
▁ਮਾਪੇ	-9480
▁ਰੁੱਖ	-9481
▁ਲੰਮੀ	-9482
▁ਸਰਦੀ	-9483
▁ਹਿਲਾ	-9484
Plugin	-9485
patial	-9486
ਪੰਜਾਬੀ	-9487
▁share	-9488
▁south	-9489
▁tense	-9490
▁ਇਕੱਤਰ	-9491
▁ਕੈਟਾਗ	-9492
▁ਕੱਲ੍ਹ	-9493
▁ਨਾਇਰਾ	-9494
▁ਰਜਿਸਟ	-9495
▁ਰਾਜਾਂ	-9496
▁ਲਗਾਇਆ	-9497
▁ਲਾਂਚਰ	-9498
▁ਸੋਹਣੀ	-9499
▁Triche	-9500
▁ਦੁਪਹਿਰ	-9501
▁ਪਿੰਜਰੇ	-9502
▁ਫਿਟਨੈਸ	-9503
▁ਸਟੂਡੀਓ	-9504
estbengal	-9505
pollywood	-9506
▁ਖਰੀਦਦਾਰੀ	-9507
▁Transposh	-9508
▁ਕੋਨਕਿਉਰੋਰ	-9509
▁ਸਫਲਤਾਪੂਰਕ	-9510
▁generateur	-9511
SI	-9512
eu	-9513
ਅਟ	-9514
▁↑	-9515
ken	-9516
web	-9517
ਕੈਮ	-9518
ਟਿਨ	-9519
ਤੋਂ	-9520
ਦਿਲ	-9521
ਲਾਮ	-9522
ਸੋਸ	-9523
ਹਾਈ	-9524
▁ht	-9525
▁pm	-9526
▁ਇਰ	-9527
▁ਜੰ	-9528
-240	-9529
amer	-9530
iana	-9531
ਕਿਸਮ	-9532
ਨੀਅਰ	-9533
ਮਿੰਟ	-9534
ਮੀਕਲ	-9535
ਰੋਮਾ	-9536
ਸੀਸੀ	-9537
▁(23	-9538
▁(25	-9539
▁2.6	-9540
▁5.0	-9541
▁877	-9542
▁Apg	-9543
▁Cre	-9544
▁Pan	-9545
▁ਇਨੋ	-9546
▁ਇੱਥ	-9547
▁ਉਤਰ	-9548
▁ਤੋੜ	-9549
▁ਬਣੀ	-9550
▁ਵਸੀ	-9551
▁ਵਾੜ	-9552
annel	-9553
▁1300	-9554
▁Dark	-9555
▁Sand	-9556
▁Zhen	-9557
▁cell	-9558
▁ktur	-9559
▁meth	-9560
▁ਜੰਗਲ	-9561
▁ਦਸਤੀ	-9562
▁ਬਰਫ਼	-9563
▁ਮਿਕਸ	-9564
▁ਮੁਹਾ	-9565
▁ਰਸਤਾ	-9566
▁ਲਾਸਾ	-9567
▁ਲੱਗਣ	-9568
▁ਸ਼ੇਡ	-9569
▁ਹੀਰੋ	-9570
ingers	-9571
▁Korea	-9572
▁Metat	-9573
▁ਕਮੇਟੀ	-9574
▁ਕਿਰਿਆ	-9575
▁ਕੈਂਸਰ	-9576
▁ਟਰੱਸਟ	-9577
▁ਡੂੰਘੇ	-9578
▁ਪਾਈਥਨ	-9579
▁ਪਿਆਰੇ	-9580
▁ਬਾਰਡਰ	-9581
▁ਰਾਖਵੇ	-9582
▁ਹਰੀਜ਼	-9583
▁ਖ਼ਬਰਾਂ	-9584
▁ਨਿਯਮਿਤ	-9585
▁ਬਾਈਨਰੀ	-9586
▁ਮੁਹਿੰਮ	-9587
▁ਸਰੋਤਾਂ	-9588
▁ਸਿਤਾਰੇ	-9589
eptember	-9590
▁kturtle	-9591
▁ਟਰੈਕਿੰਗ	-9592
▁ਪੀਟੀਐਫਈ	-9593
▁ਰੁਜ਼ਗਾਰ	-9594
▁ਅਨੁਕੂਲਿਤ	-9595
▁ਬ੍ਰਾਜ਼ੀਲ	-9596
▁ਹਵਾਈਅੱਡਾ	-9597
▁ਸੰਕਟਕਾਲੀਨ	-9598
▁Metatrader	-9599
▁translator	-9600
ti	-9601
ਬੁ	-9602
101	-9603
40)	-9604
ਕਲੀ	-9605
ਫਰੀ	-9606
ਿਸਾ	-9607
ੁਆਨ	-9608
ੇਰਾ	-9609
੍ਲੁ	-9610
▁5%	-9611
▁co	-9612
▁ਧੀ	-9613
agon	-9614
engt	-9615
heel	-9616
tele	-9617
ਲਾਈਟ	-9618
ਾਲਵੀ	-9619
▁13:	-9620
▁CVS	-9621
▁She	-9622
▁Sim	-9623
▁Wel	-9624
▁det	-9625
▁red	-9626
▁ਕਮਾ	-9627
▁ਕੈਥ	-9628
▁ਜਜਸ	-9629
▁ਡਿਟ	-9630
▁ਦਿਸ	-9631
▁ਨਾਈ	-9632
▁ਬਾਸ	-9633
▁ਬੋਰ	-9634
▁ਸੰਪ	-9635
build	-9636
ubric	-9637
ਭਾਸੀਏ	-9638
ੇਲਾਈਟ	-9639
▁COMM	-9640
▁DROP	-9641
▁Rain	-9642
▁Rock	-9643
▁URLs	-9644
▁With	-9645
▁ਅੱਡੇ	-9646
▁ਆਇਆਂ	-9647
▁ਕਲੋਨ	-9648
▁ਗੁਣਾ	-9649
▁ਜਕਸੇ	-9650
▁ਜੋਖਮ	-9651
▁ਤਿੱਕ	-9652
▁ਨਿਜੀ	-9653
▁ਪੇਸਟ	-9654
▁ਭਾਸਾ	-9655
▁ਵੈਸਟ	-9656
▁ਸਵੇਰ	-9657
▁ਸ਼ੋਰ	-9658
▁ਸਿਵਲ	-9659
ibbean	-9660
yelash	-9661
▁Skype	-9662
▁reply	-9663
▁ਐਕਸਯੂ	-9664
▁ਕੋਰੀਆ	-9665
▁ਗਰਾਫ਼	-9666
▁ਜਵਿੱਚ	-9667
▁ਦਬ੍ਲੁ	-9668
▁ਦੇਖਦੇ	-9669
▁ਧਮਾਕਾ	-9670
▁ਮਰਦਾਂ	-9671
▁ਸਿਆਸੀ	-9672
▁system	-9673
▁ਅਕੈਡਮੀ	-9674
▁ਅਜਿਕਾਰ	-9675
▁ਇਸ਼ਾਰਾ	-9676
▁ਚੋਣਕਾਰ	-9677
▁ਬਿੱਲੀਆ	-9678
▁ਮੁਅੱਤਲ	-9679
▁ਸ਼ਬਦਾਂ	-9680
▁ਸੈਕਸ਼ਨ	-9681
▁ਸੈਟਅੱਪ	-9682
▁display	-9683
▁ਡਾਇਰੈਕਟ	-9684
▁ਦੁਭਾਸੀਏ	-9685
▁ਨਿਊਯਾਰਕ	-9686
▁ਪ੍ਰਭਾਵੀ	-9687
▁ਯੂਕਰੇਨੀ	-9688
▁ਸਲੋਵਾਕੀਆ	-9689
punjabistatus	-9690
▁ਐਕਸਐਨਯੂਐਮਐਕਸ	-9691
")	-9692
%)	-9693
gr	-9694
my	-9695
ਲਿ	-9696
ਿੜ	-9697
′′	-9698
.).	-9699
:06	-9700
MAP	-9701
New	-9702
ait	-9703
bin	-9704
ikh	-9705
off	-9706
ump	-9707
ਧਰੀ	-9708
ਮੁਖ	-9709
ਵਲੀ	-9710
ੋਂਗ	-9711
ੰਟਸ	-9712
▁62	-9713
▁83	-9714
▁Cr	-9715
▁Li	-9716
▁aw	-9717
▁ge	-9718
▁ਇਗ	-9719
▁ਉਠ	-9720
▁ਨਸ	-9721
ella	-9722
ript	-9723
ਡਿਅਮ	-9724
ਫਰੰਸ	-9725
ਵਰਤੀ	-9726
ਹਾਊਸ	-9727
ੋਕੋਲ	-9728
▁190	-9729
▁2.9	-9730
▁280	-9731
▁31,	-9732
▁NZD	-9733
▁Pos	-9734
▁her	-9735
▁rec	-9736
▁ਅਪੀ	-9737
▁ਅਲੀ	-9738
▁ਇਕਰ	-9739
▁ਉਹੀ	-9740
▁ਕਰੂ	-9741
▁ਜੰਮ	-9742
▁ਨਿਹ	-9743
▁ਫਲਾ	-9744
▁ਮਰਨ	-9745
▁ਯਾਰ	-9746
▁ਲਾਟ	-9747
▁ਵੱਟ	-9748
▁ਸਸਪ	-9749
Video	-9750
endar	-9751
ਐਕਟਿਵ	-9752
▁Quec	-9753
▁just	-9754
▁ਅਜੀਬ	-9755
▁ਆਰੀਆ	-9756
▁ਕਾਲੀ	-9757
▁ਕੱਢਣ	-9758
▁ਮੋਟੋ	-9759
▁ਮੱਤੀ	-9760
Reason	-9761
ਅਧਾਰਿਤ	-9762
ਨੇਡਿਆਈ	-9763
▁rules	-9764
▁ਇਨਸਾਨ	-9765
▁ਪੁਰਤਗ	-9766
▁ਬਲਾੱਗ	-9767
▁ਬੰਨ੍ਹ	-9768
▁ਮਸੀਹੀ	-9769
▁ਮੁੰਡੇ	-9770
▁ਵੇਰੀਏ	-9771
▁ਸਪੋਰਟ	-9772
▁ਸਰਜਰੀ	-9773
▁ਸੱਭਿਆ	-9774
▁ਹਾਈਡਰ	-9775
ailable	-9776
lection	-9777
ਗ੍ਰੇਸ਼ਨ	-9778
▁ਗਲਤੀਆਂ	-9779
▁ਬਜ਼ੁਰਗ	-9780
▁ਕਾਨਫਰੰਸ	-9781
▁ਘਟਨਾਵਾਂ	-9782
▁ਸਾਈਟਮੈਪ	-9783
658025028	-9784
▁Queclink	-9785
▁extruder	-9786
▁ਆਰਕੀਟੈਕਚਰ	-9787
▁ਟਿਊਟੋਰਿਅਲ	-9788
▁ਪ੍ਰਾਈਵੇਸੀ	-9789
kt	-9790
nc	-9791
ਊਂ	-9792
ੈਬ	-9793
280	-9794
ids	-9795
orb	-9796
ਕਦੇ	-9797
ਜੀਵ	-9798
ਡਿਊ	-9799
▁"(	-9800
▁91	-9801
▁96	-9802
▁He	-9803
▁Yu	-9804
▁£5	-9805
▁ਕਬ	-9806
▁ਲ਼	-9807
cast	-9808
file	-9809
suit	-9810
ਤਰਤੀ	-9811
ਲੀਅਨ	-9812
ਸ਼ਾਟ	-9813
▁1.3	-9814
▁Cut	-9815
▁Scr	-9816
▁sol	-9817
▁ਖੋਰ	-9818
▁ਗ਼ਲ	-9819
▁ਧਿਰ	-9820
▁ਨੇੜ	-9821
▁ਪੂੰ	-9822
ਕਸਾਈਡ	-9823
ਿਨਕਾਸ	-9824
▁Camp	-9825
▁Pric	-9826
▁plan	-9827
▁requ	-9828
▁they	-9829
▁ਘੰਟੀ	-9830
▁ਟ੍ਰੀ	-9831
▁ਡੈਸ਼	-9832
▁ਬੇਦਾ	-9833
▁ਮੰਡਲ	-9834
▁ਰੇਂਜ	-9835
▁ਵਿਸਤ	-9836
roller	-9837
ਿਸ਼ਚਿਤ	-9838
▁their	-9839
▁ਕਲੀਨਰ	-9840
▁ਜਿੰਨਾ	-9841
▁ਤੁਰਕੀ	-9842
▁ਨਿਰਵਿ	-9843
▁ਮੁਸ਼ਕ	-9844
▁ਸਿੱਧੀ	-9845
charger	-9846
wedding	-9847
▁Rental	-9848
▁ਬੁਨਿਆਦ	-9849
quipment	-9850
▁COMMAND	-9851
▁Youtube	-9852
▁element	-9853
▁ਕ੍ਰਮਬੱਧ	-9854
▁ਪ੍ਰਵੇਸ਼	-9855
▁settings	-9856
▁ਕੇਨੇਡਿਆਈ	-9857
▁ਟ੍ਰਾਂਸਫਰ	-9858
▁ਪ੍ਰਵਾਨਗੀ	-9859
▁ਪ੍ਰੋਫਾਇਲ	-9860
▁ਕਿਲੋਗ੍ਰਾਮ	-9861
▁ਉਪਭੋਗਤਾਵਾਂ	-9862
▁ਮਾਈਕਰੋਸਾਫਟ	-9863
CA	-9864
KY	-9865
We	-9866
["	-9867
yb	-9868
223	-9869
:04	-9870
ahi	-9871
eop	-9872
not	-9873
rik	-9874
▁63	-9875
▁DM	-9876
▁FL	-9877
▁PP	-9878
▁SL	-9879
▁{{	-9880
▁ਏਲ	-9881
date	-9882
host	-9883
ilks	-9884
lear	-9885
usta	-9886
ਆਪਣੇ	-9887
ਜਿੰਗ	-9888
ਪੁਰਾ	-9889
▁0.9	-9890
▁Aug	-9891
▁Feb	-9892
▁Jun	-9893
▁LCD	-9894
▁Org	-9895
▁Ult	-9896
▁ref	-9897
▁ਓਵਨ	-9898
▁ਕਾਸ	-9899
▁ਕੇਪ	-9900
▁ਫੈਟ	-9901
▁ਮੇਟ	-9902
▁ਲਿਓ	-9903
.2016	-9904
Trans	-9905
esome	-9906
puter	-9907
▁CSGO	-9908
▁Heng	-9909
▁Oven	-9910
▁Team	-9911
▁Tube	-9912
▁pass	-9913
▁ਅਫਸਰ	-9914
▁ਆਈਟੀ	-9915
▁ਐਕਸ਼	-9916
▁ਛੁੱਟ	-9917
▁ਡਰੈਸ	-9918
▁ਪਾਠਕ	-9919
▁ਫਾਸਟ	-9920
▁ਬੈਂਡ	-9921
▁ਵੰਡਣ	-9922
ਫਟਵੇਅਰ	-9923
▁ਅਸੰਭਵ	-9924
▁ਆਜ਼ਾਦ	-9925
▁ਇੰਡੀਆ	-9926
▁ਐਤਵਾਰ	-9927
▁ਗੁੱਸੇ	-9928
▁ਸੋਧਿਆ	-9929
telecom	-9930
▁ਡਾਕਟਰੀ	-9931
▁ਨਿਰੀਖਣ	-9932
▁ਮੀਡਿਅਮ	-9933
▁ਰੋਕਥਾਮ	-9934
▁ਸੁਕਾਉਣ	-9935
▁Digital	-9936
▁content	-9937
▁ਅੰਮ੍ਰਿਤ	-9938
▁ਪ੍ਰਦਾਤਾ	-9939
▁ਮੁਸ਼ਕਿਲ	-9940
▁ਜਾਗਰੂਕਤਾ	-9941
▁Navtelecom	-9942
▁ਪ੍ਰਮਾਣਿਕਤਾ	-9943
.50	-9944
156	-9945
LAN	-9946
awa	-9947
ena	-9948
ili	-9949
oxy	-9950
ras	-9951
tes	-9952
val	-9953
ਮਨੀ	-9954
ੂਰਤ	-9955
ੈਲੋ	-9956
▁OR	-9957
▁RM	-9958
▁TD	-9959
▁px	-9960
▁ਪਟ	-9961
aker	-9962
ools	-9963
ooth	-9964
pers	-9965
tual	-9966
ward	-9967
ਨੀਤਕ	-9968
ਪਛਾਣ	-9969
ਵਿਸ਼	-9970
ੰਦਗੀ	-9971
ੰਪਰਾ	-9972
▁14:	-9973
▁MOQ	-9974
▁Reg	-9975
▁bur	-9976
▁ਅੰਦ	-9977
▁ਫਰਮ	-9978
▁ਫਾਸ	-9979
▁ਮੀਨ	-9980
▁ਮੈਥ	-9981
▁ਮੋੜ	-9982
▁ਲੰਗ	-9983
anger	-9984
▁4000	-9985
▁High	-9986
▁Iris	-9987
▁inst	-9988
▁read	-9989
▁ਅੰਡੇ	-9990
▁ਕਾਮੇ	-9991
▁ਜ਼ਖ਼	-9992
▁ਧਾਰਕ	-9993
▁ਭਾਗੀ	-9994
▁ਸ਼ੈਡ	-9995
▁ਹਾਥੀ	-9996
olding	-9997
ਪਰਾਈਜ਼	-9998
▁ਜੁਡ਼ੋ	-9999
▁ਦੂਸਰੇ	-10000
▁ਪਹਿਰਾ	-10001
▁ਸਮੇਟੋ	-10002
agering	-10003
▁string	-10004
▁ਕਿਸ਼ਤੀ	-10005
▁ਕੈਮੀਕਲ	-10006
▁ਡਿਸਟਰੀ	-10007
▁ਬੇਤਰਤੀ	-10008
▁ਸਾਧਨਾਂ	-10009
▁ਇੰਡਸਟਰੀ	-10010
▁ਟਰੇਨਿੰਗ	-10011
▁ਡਿਟੈਕਟਰ	-10012
▁ਸੰਤੁਸ਼ਟ	-10013
▁ਪ੍ਰਯੋਗਾਂ	-10014
▁caribbean	-10015
▁ਨਾਈਟ੍ਰੋਜਨ	-10016
".	-10017
/7	-10018
но	-10019
ਧਨ	-10020
ਮਸ	-10021
.65	-10022
/01	-10023
10,	-10024
606	-10025
Cal	-10026
PEG	-10027
ani	-10028
ems	-10029
obo	-10030
reg	-10031
ਚਿੱ	-10032
ਟਾਂ	-10033
ਿਲੋ	-10034
ੋਡਰ	-10035
▁($	-10036
▁FX	-10037
▁XR	-10038
▁li	-10039
comm	-10040
quer	-10041
ਟਾਈਮ	-10042
ਾਪਤੀ	-10043
ੱਸ਼ਰ	-10044
▁20%	-10045
▁315	-10046
▁FAQ	-10047
▁GAL	-10048
▁LTD	-10049
▁OFF	-10050
▁ਦਰਾ	-10051
▁ਰੱਬ	-10052
Gilks	-10053
eller	-10054
erved	-10055
ulose	-10056
ੋਪਿਕਸ	-10057
▁diff	-10058
▁line	-10059
▁ਉੱਚੀ	-10060
▁ਧਾਰਮ	-10061
▁ਨੇਤਾ	-10062
▁ਫੇਜ਼	-10063
▁ਬੱਚਾ	-10064
▁ਰੀਵਰ	-10065
▁ਰੋਧਕ	-10066
▁ਲੰਬਾ	-10067
ettext	-10068
ically	-10069
ਬਿਊਸ਼ਨ	-10070
▁Plane	-10071
▁value	-10072
▁ਖ਼ੁਸ਼	-10073
▁ਨਾਰਵੇ	-10074
▁ਮਾਈਕਲ	-10075
▁ਸੁਸਤੀ	-10076
▁Refrig	-10077
▁config	-10078
▁method	-10079
▁ਵਾੱਸ਼ਰ	-10080
▁Estonia	-10081
▁General	-10082
▁Machine	-10083
▁comment	-10084
▁default	-10085
▁oceania	-10086
▁ਇਕਸਾਰਤਾ	-10087
▁ਕ੍ਰਿਸ਼ਨ	-10088
▁ਨਿਰਵਿਘਨ	-10089
▁ਮੰਗਲਵਾਰ	-10090
▁ਸਿਲੀਕੋਨ	-10091
▁ਤਜਰਬੇਕਾਰ	-10092
▁ਫੋਟੋਗਰਾਫ਼	-10093
▁ਸਮੀਖਿਆਵਾਂ	-10094
▁ਇੰਟਰਪਰਾਈਜ਼	-10095
++	-10096
/-	-10097
/3	-10098
BA	-10099
EP	-10100
FC	-10101
GS	-10102
GT	-10103
uz	-10104
ко	-10105
ਿਦ	-10106
ੱਠ	-10107
”.	-10108
▁У	-10109
12)	-10110
ISO	-10111
elo	-10112
gur	-10113
son	-10114
ਔਰਤ	-10115
ਜਾਓ	-10116
ਦਗੀ	-10117
ਨਲਡ	-10118
ਪੀਨ	-10119
ਫ੍ਰ	-10120
ਸੰਭ	-10121
ਾਇਸ	-10122
▁''	-10123
▁67	-10124
▁GV	-10125
▁Ha	-10126
▁Ji	-10127
▁KB	-10128
▁Pa	-10129
▁SP	-10130
▁__	-10131
-500	-10132
down	-10133
eric	-10134
uras	-10135
ਤਿਆਂ	-10136
▁(8)	-10137
▁115	-10138
▁2.4	-10139
▁Bad	-10140
▁Def	-10141
▁Haw	-10142
▁Neo	-10143
▁Now	-10144
▁POR	-10145
▁RAM	-10146
▁ਅਣਗ	-10147
▁ਇਮੀ	-10148
▁ਤਾਇ	-10149
.0.30	-10150
Token	-10151
proof	-10152
ville	-10153
ਜ਼ੀਆਂ	-10154
ੇਲ੍ਹੇ	-10155
▁IMAP	-10156
▁Inst	-10157
▁Real	-10158
▁also	-10159
▁book	-10160
▁coin	-10161
▁ਕੇਰਲ	-10162
▁ਕੋਰਲ	-10163
▁ਖ਼ਰੀ	-10164
▁ਚੂਚਕ	-10165
▁ਦਰਾੜ	-10166
▁ਪੁੰਜ	-10167
▁ਫੌਜੀ	-10168
▁ਮਕਾਨ	-10169
▁ਯੋਗਾ	-10170
▁ਰੰਗਤ	-10171
ipping	-10172
ੇਬਾਜ਼ੀ	-10173
▁image	-10174
▁north	-10175
▁ਕਿਹੜਾ	-10176
▁ਕੇਸਾਂ	-10177
▁ਛੱਡਿਆ	-10178
▁ਬਕਾਇਆ	-10179
▁ਸਕਰੋਲ	-10180
▁ਸਪੈਸ਼	-10181
▁ਸੂਰਜੀ	-10182
▁ਹਾਰਲੇ	-10183
ushless	-10184
▁Office	-10185
▁Punjab	-10186
▁latvia	-10187
▁symbol	-10188
▁ਇਤਾਲਵੀ	-10189
▁ਤਕਰੀਬਨ	-10190
▁ਤਿੱਕੜੀ	-10191
▁ਪੌਦਿਆਂ	-10192
▁ਬਰ੍ਲਿਨ	-10193
▁ਭਾਈਵਾਲ	-10194
▁ਮਾਈਕ੍ਰ	-10195
▁ਮੁੱਢਲੀ	-10196
▁ਵਾਸੀਆਂ	-10197
▁ਸਵੀਡਨੀ	-10198
▁ਬਟਰਫਲਾਈ	-10199
▁ਮੁੱਦਿਆਂ	-10200
▁ਕੈਲਸ਼ੀਅਮ	-10201
▁ਯੋਜਨਾਵਾਂ	-10202
▁ਇੰਟਰਐਕਟਿਵ	-10203
▁ImagePlugin	-10204
05	-10205
mA	-10206
xy	-10207
ਊਦ	-10208
ਪਹ	-10209
ਲੰ	-10210
ਵਤ	-10211
.03	-10212
:05	-10213
gen	-10214
olt	-10215
ork	-10216
rav	-10217
ria	-10218
ਕਾਓ	-10219
ਣਿਆ	-10220
ਨਿਆ	-10221
ਫੇਟ	-10222
ਰਾਦ	-10223
ਰੀਓ	-10224
ੂੰਦ	-10225
ੇਗਾ	-10226
੍ਟੇ	-10227
ੰਗੇ	-10228
ੱਟੀ	-10229
▁DA	-10230
▁KM	-10231
▁Ma	-10232
▁ਭਗ	-10233
Book	-10234
Card	-10235
aver	-10236
ilun	-10237
iper	-10238
ries	-10239
ਕਸ਼ਨ	-10240
ਵਾਉਣ	-10241
ੰਟਾਂ	-10242
▁Cat	-10243
▁Hun	-10244
▁Rem	-10245
▁Sur	-10246
▁fre	-10247
▁ਟੈਨ	-10248
▁ਡਾਕ	-10249
▁ਦੌੜ	-10250
▁ਬੇਜ	-10251
▁ਯੇਨ	-10252
▁ਰਿਟ	-10253
▁ਸਿਕ	-10254
atche	-10255
orgia	-10256
otion	-10257
thing	-10258
ਜੇਸ਼ਨ	-10259
ਸੰਭਾਲ	-10260
ੋਰਨੀਆ	-10261
▁ਅੰਬਰ	-10262
▁ਉੱਚਾ	-10263
▁ਖਤਰੇ	-10264
▁ਚੁਸਤ	-10265
▁ਚੰਡੀ	-10266
▁ਜਾਣੀ	-10267
▁ਜਾਣੂ	-10268
▁ਡਾਟੇ	-10269
▁ਬੀਬੀ	-10270
▁ਮੋਢੇ	-10271
▁ਲਕਸ਼	-10272
▁ਲੀਡਰ	-10273
▁ਸਸਤੀ	-10274
▁ਹੈਕਸ	-10275
ington	-10276
▁1-800	-10277
▁Light	-10278
▁ਅਰੋਮਾ	-10279
▁ਅਸੀਮਤ	-10280
▁ਐਕਸੈਸ	-10281
▁ਕਿਸਾਨ	-10282
▁ਦਬਾਉਣ	-10283
▁ਨਿਵਾਸ	-10284
▁ਪਹਾੜੀ	-10285
▁ਰੇਸ਼ਮ	-10286
▁ਲੱਗਿਆ	-10287
▁ਸਕੈਨਰ	-10288
▁ਸੁਣਿਆ	-10289
▁ਆਕਰਸ਼ਕ	-10290
▁ਚਮਕਦਾਰ	-10291
▁ਪੁਰਾਤਨ	-10292
▁ਪੁੱਛਿਆ	-10293
▁ਮਲਟੀਪਲ	-10294
▁ਸਾਰਿਆਂ	-10295
▁ਸੰਚਲਿਤ	-10296
▁ਸੰਰਚਿਤ	-10297
▁ਪ੍ਰਾਚੀਨ	-10298
▁ਸਰਵਿਸਾਂ	-10299
▁ਪੁੱਛਗਿੱਛ	-10300
▁ਬਾਇਓਡਾਟਾ	-10301
▁ਬੁੱਧੀਮਾਨ	-10302
▁ਸੈਟੇਲਾਈਟ	-10303
▁ਸੱਟੇਬਾਜ਼ੀ	-10304
▁ObjectClass	-10305
FO	-10306
HC	-10307
db	-10308
sd	-10309
то	-10310
ਨਵ	-10311
ੱਫ	-10312
▁}	-10313
.33	-10314
@16	-10315
PGP	-10316
har	-10317
ota	-10318
ਉਣੀ	-10319
ਕੰਮ	-10320
ਲੱਭ	-10321
ਵਿਰ	-10322
▁",	-10323
▁$1	-10324
▁Ta	-10325
▁Xi	-10326
ands	-10327
atem	-10328
ific	-10329
nect	-10330
reat	-10331
wide	-10332
ਟੇਬਲ	-10333
ਸੁਪਰ	-10334
▁(5)	-10335
▁365	-10336
▁Cob	-10337
▁Doc	-10338
▁Kon	-10339
▁bul	-10340
▁ret	-10341
▁ਅਰਧ	-10342
▁ਈਮੋ	-10343
▁ਖ਼ਤ	-10344
▁ਗੋਦ	-10345
▁ਟੋਰ	-10346
▁ਰਾਈ	-10347
▁ਰੈਪ	-10348
▁ਲਸਣ	-10349
@163.	-10350
ewala	-10351
insta	-10352
ੋਲੋਜੀ	-10353
▁Alam	-10354
▁mach	-10355
▁want	-10356
▁ਇੰਜਨ	-10357
▁ਉਪਾਅ	-10358
▁ਤੇਰੇ	-10359
▁ਦਾਊਦ	-10360
▁ਨਿਰਾ	-10361
▁ਪੋਕਰ	-10362
▁ਫੀਡਰ	-10363
▁ਬਜਾਜ	-10364
▁ਮਾਈਨ	-10365
▁ਮੂਵੀ	-10366
▁ਸਟੀਰ	-10367
▁ਸੀਮਤ	-10368
▁ਸੋਧੋ	-10369
▁ਸੌਨਾ	-10370
amsung	-10371
iction	-10372
ypress	-10373
ਕਿਊਰੋਰ	-10374
▁brack	-10375
▁ਕੱਟਣਾ	-10376
▁ਜਿੱਤਣ	-10377
▁ਬਰੈਕਟ	-10378
▁ਮਿਲਦੇ	-10379
▁ਵੈਟਰਨ	-10380
▁ਸਮਝਿਆ	-10381
▁ਸੂਚਿਤ	-10382
▁ਹੈਂਡਰ	-10383
ography	-10384
▁Royale	-10385
▁Zhongt	-10386
▁ਕਰਦਿਆਂ	-10387
▁ਕੈਪਸੂਲ	-10388
▁ਜੰਤਰਾਂ	-10389
▁ਠੇਲ੍ਹੇ	-10390
▁ਵਿਦਿਅਕ	-10391
▁ਸਪੈਕਟਰ	-10392
▁ਸਸਪੈਂਡ	-10393
▁ਕਾਸਟਿੰਗ	-10394
▁ਖਰੀਦਦਾਰ	-10395
▁ਖੁੱਲ੍ਹਣ	-10396
▁ਪ੍ਰਾਪਤੀ	-10397
▁ਬਿੱਟਰੇਟ	-10398
▁ਮੈਂਬਰਾਂ	-10399
▁ਲਿਖਣਯੋਗ	-10400
▁brackets	-10401
▁mongolia	-10402
▁ਅਤੇਿਨਕਾਸ	-10403
▁ਦ੍ਰਿਸ਼ਟੀ	-10404
▁ਰਿਹਾਇਸ਼ੀ	-10405
▁ਕੋਨਕਿਊਰੋਰ	-10406
▁ServerName	-10407
▁Українська	-10408
▁ServerAdmin	-10409
09	-10410
mk	-10411
ui	-10412
ਹਨ	-10413
੍ਕ	-10414
▁д	-10415
▁и	-10416
RAR	-10417
Tag	-10418
aon	-10419
ful	-10420
hou	-10421
uge	-10422
ule	-10423
ਗੁਣ	-10424
ਬਰਨ	-10425
ਵਿਚ	-10426
ਸ਼ੋ	-10427
ਾਣੂ	-10428
ੇਂਟ	-10429
ੋਟੋ	-10430
ੋਲਡ	-10431
ੋਸਟ	-10432
ੰਤੂ	-10433
▁74	-10434
▁MA	-10435
▁PO	-10436
▁RA	-10437
▁Si	-10438
▁ਕਣ	-10439
-150	-10440
peri	-10441
ਦਮਿਕ	-10442
ਮਾਲਾ	-10443
ਰਾਸਤ	-10444
ਸ਼ੋਰ	-10445
ਾਰਨੀ	-10446
ਿੰਦਰ	-10447
ੋਡੀਆ	-10448
▁(15	-10449
▁316	-10450
▁4.2	-10451
▁GUI	-10452
▁LLC	-10453
▁POP	-10454
▁Ser	-10455
▁Tue	-10456
▁air	-10457
▁deb	-10458
▁dec	-10459
▁ਅਮੀ	-10460
▁ਐੱਲ	-10461
▁ਕਤਲ	-10462
▁ਟਕਸ	-10463
▁ਪੋਪ	-10464
▁ਪੌਲ	-10465
▁ਮਰੇ	-10466
▁ਯਤਨ	-10467
▁ਰਨਰ	-10468
▁ਸੌਣ	-10469
-1000	-10470
9001,	-10471
Trade	-10472
amboo	-10473
hacks	-10474
ੰਟੀਅਰ	-10475
▁Face	-10476
▁Full	-10477
▁host	-10478
▁mode	-10479
▁most	-10480
▁ਕਲਾਇ	-10481
▁ਕਲੀਸ	-10482
▁ਗ੍ਰੰ	-10483
▁ਦੁਸ਼	-10484
▁ਦੇਰੀ	-10485
▁ਪਹੀਆ	-10486
▁ਬਾਈਟ	-10487
▁ਮਿਲ੍	-10488
▁ਰਿਆਲ	-10489
▁ਰੀਫ਼	-10490
▁ਸ਼ਾਟ	-10491
▁ਸੂਬਾ	-10492
ulture	-10493
ਚਾਰੀਆਂ	-10494
▁Contr	-10495
▁ਟ੍ਰੈਡ	-10496
▁ਪ੍ਰਤਿ	-10497
▁ਭਰਪੂਰ	-10498
▁ਮਜਬੂਤ	-10499
▁ਮੋਨੋਸ	-10500
▁ਵਾਲਾਂ	-10501
▁ਸਵਾਰੀ	-10502
▁Africa	-10503
▁Bamboo	-10504
▁ਕਰਾਂਗਾ	-10505
▁ਕ੍ਰਿਸਟ	-10506
▁ਥੋੜ੍ਹੇ	-10507
▁ਲੀਨੀਅਰ	-10508
▁ਵੱਡੀਆਂ	-10509
▁ਸਟਿੱਪਰ	-10510
▁Strapon	-10511
▁quality	-10512
▁ਕਿਤਾਬਾਂ	-10513
▁ਆਰਾਮਦਾਇਕ	-10514
▁ਪ੍ਰਕਾਸ਼ਨ	-10515
▁wordpress	-10516
▁controller	-10517
▁ਇਲੈਕਟ੍ਰਾਨਿਕਸ	-10518
"]	-10519
LL	-10520
VC	-10521
do	-10522
ਉਤ	-10523
ਛੇ	-10524
ਡੌ	-10525
▁¥	-10526
123	-10527
="2	-10528
="3	-10529
IFF	-10530
coc	-10531
hib	-10532
hol	-10533
ope	-10534
rot	-10535
upt	-10536
ਅੱਠ	-10537
ਦੰਡ	-10538
ਬਾਨ	-10539
ਮਰਨ	-10540
ਸਿਲ	-10541
ਹਰੀ	-10542
▁ਜੌ	-10543
▁ਤੈ	-10544
▁ਬਖ	-10545
Site	-10546
anta	-10547
arth	-10548
aser	-10549
fect	-10550
ique	-10551
ਏਸ਼ਨ	-10552
ਗੜ੍ਹ	-10553
ਵਿਆਂ	-10554
ਾਹਕੀ	-10555
ੋਨੀਆ	-10556
▁-20	-10557
▁Dia	-10558
▁GBP	-10559
▁Ham	-10560
▁Jul	-10561
▁SMD	-10562
▁Sky	-10563
▁who	-10564
▁ਅਮਰ	-10565
▁ਆਫਲ	-10566
▁ਇਨਫ	-10567
▁ਕਲਮ	-10568
▁ਖੁੱ	-10569
▁ਗਾਇ	-10570
▁ਤਾਲ	-10571
▁ਪਤੇ	-10572
▁ਬਜਟ	-10573
▁ਬੁਝ	-10574
▁ਸਫਾ	-10575
aries	-10576
astic	-10577
itive	-10578
utton	-10579
ੈਂਸ਼ਨ	-10580
੍ਰਿਪਟ	-10581
▁Blue	-10582
▁Dari	-10583
▁Make	-10584
▁Wash	-10585
▁days	-10586
▁fauc	-10587
▁peru	-10588
▁ਕੋਇਲ	-10589
▁ਗਾਮਾ	-10590
▁ਚਿਲਰ	-10591
▁ਚੇਪੋ	-10592
▁ਨਹੁੰ	-10593
▁ਪੀਡੀ	-10594
▁ਪੁਸਤ	-10595
▁ਫਰਮਾ	-10596
▁ਸਮਰਥ	-10597
▁ਸਾਊਥ	-10598
▁ਸੀਡੀ	-10599
format	-10600
ingdom	-10601
ondale	-10602
ਾਈਡਿੰਗ	-10603
▁Color	-10604
▁Crack	-10605
▁Funny	-10606
▁egypt	-10607
▁files	-10608
▁ਗਰਲਜ਼	-10609
▁ਗੇਟਵੇ	-10610
▁ਚੱਲਦੀ	-10611
▁ਪਹਿਨਣ	-10612
▁ਫੀਸਦੀ	-10613
▁ਬ੍ਰਿਜ	-10614
▁ਮੁੰਡਾ	-10615
▁ਸਾਇਜ਼	-10616
▁ਸੋਲਯੂ	-10617
atemala	-10618
▁0086-1	-10619
▁Agusta	-10620
▁Beilun	-10621
▁Christ	-10622
▁ਕੂਲਿੰਗ	-10623
▁ਖਰੀਦਿਆ	-10624
▁ਜਮ੍ਹਾਂ	-10625
▁ਨਿਰੰਤਰ	-10626
▁ਪ੍ਰਮੁਖ	-10627
▁ਮਹਿੰਗਾ	-10628
▁ਮੈਂਬਰੀ	-10629
▁ਸੰਦੇਸ਼	-10630
▁Aprilia	-10631
▁ਉਪਯੋਗਤਾ	-10632
▁ਐਲੀਮੈਂਟ	-10633
▁ਛੁੱਟੀਆਂ	-10634
▁ਨਜ਼ਦੀਕੀ	-10635
▁ਮਾਸਪੇਸ਼	-10636
▁ਮੈਕਸੀਕਨ	-10637
▁ਮੈਕਸੀਕੋ	-10638
▁Accessed	-10639
▁ਅਟਲਾਂਟਿਕ	-10640
▁ਪ੍ਰੋਸੈਸਰ	-10641
:86-0755-2	-10642
▁ਕਰਮਚਾਰੀਆਂ	-10643
gyaanipedia	-10644
▁Cannondale	-10645
▁ਪ੍ਰੋਗਰਾਮਾਂ	-10646
▁ਡਿਸਟਰੀਬਿਊਸ਼ਨ	-10647
0)	-10648
ze	-10649
ਕੌ	-10650
ਦਿ	-10651
ਾਯ	-10652
▁❤	-10653
-23	-10654
iol	-10655
isk	-10656
mit	-10657
tad	-10658
uba	-10659
ਬੀਆ	-10660
ਾਂਚ	-10661
੍ਜ਼	-10662
▁2%	-10663
▁69	-10664
▁Ko	-10665
▁LI	-10666
▁Lu	-10667
▁QC	-10668
▁TO	-10669
▁bi	-10670
▁ep	-10671
▁ਏਕ	-10672
▁ਖਣ	-10673
▁ਵਕ	-10674
▁ਸਯ	-10675
OSKY	-10676
ways	-10677
ਜੂਤਾ	-10678
ਡਾਊਨ	-10679
ਪ੍ਰੀ	-10680
ਮਾਟਰ	-10681
▁(18	-10682
▁(86	-10683
▁304	-10684
▁APC	-10685
▁BCE	-10686
▁Med	-10687
▁ਕਿਫ	-10688
▁ਫਸਲ	-10689
▁ਭਾਫ	-10690
▁ਲਾਸ	-10691
▁ਸੁਪ	-10692
▁ਹੁਈ	-10693
Print	-10694
aguay	-10695
efore	-10696
illon	-10697
izing	-10698
media	-10699
▁Feng	-10700
▁Mass	-10701
▁soft	-10702
▁ਅੱਧੇ	-10703
▁ਕੱਢੋ	-10704
▁ਚਾਕੂ	-10705
▁ਚੋਰੀ	-10706
▁ਜਾਦੂ	-10707
▁ਡਿਪਰ	-10708
▁ਪੀੜਤ	-10709
▁ਯੁੱਧ	-10710
▁ਯੰਤਰ	-10711
▁ਵਾਈਡ	-10712
▁ਸਵਿਚ	-10713
asonic	-10714
▁2018.	-10715
▁PORNO	-10716
▁every	-10717
▁ਆਸਮਾਨ	-10718
▁ਉਡੀਕੋ	-10719
▁ਐਕਸਪੋ	-10720
▁ਜ਼ਿੰਕ	-10721
▁ਦੱਸਦਾ	-10722
▁ਰਲਵੇਂ	-10723
▁ਸਮਾਗਮ	-10724
▁ਸਲਾਈਡ	-10725
▁ਸਾਹਿਤ	-10726
▁ਸੁਰਖੀ	-10727
▁ਹਨੇਰੇ	-10728
▁ਹਫ਼ਤਾ	-10729
▁ਹਾਜ਼ਰ	-10730
ILEOSKY	-10731
ireless	-10732
itional	-10733
ਕਾਰਾਤਮਕ	-10734
▁filter	-10735
▁norway	-10736
▁ਆਂਜੂਤਾ	-10737
▁ਉਤਪਾਦਕ	-10738
▁ਜਾਪਾਨੀ	-10739
▁ਜੈਕਪਾਟ	-10740
▁ਬੁਲਗਾਰ	-10741
irection	-10742
oosewala	-10743
▁gettext	-10744
▁service	-10745
▁ਹਾਊਸਿੰਗ	-10746
uddypress	-10747
▁ਆਟੋਮੇਸ਼ਨ	-10748
2019-04-10	-10749
▁GALILEOSKY	-10750
▁ਮੋਨੋਸੋਪਿਕਸ	-10751
▁ਸ਼੍ਰੇਣੀਬੱਧ	-10752
churchofchrist	-10753
03	-10754
kh	-10755
nu	-10756
sz	-10757
ਮੈ	-10758
ਵਸ	-10759
ਵੂ	-10760
-70	-10761
.34	-10762
350	-10763
700	-10764
769	-10765
VER	-10766
dle	-10767
fix	-10768
udy	-10769
umb	-10770
ync	-10771
ਚਕੀ	-10772
ਨਜ਼	-10773
ਵੀਆ	-10774
ਾਗਤ	-10775
ਾਰੂ	-10776
ੰਸਾ	-10777
ੱਤਰ	-10778
▁$0	-10779
▁79	-10780
▁89	-10781
▁Ev	-10782
▁MX	-10783
▁cd	-10784
▁da	-10785
▁se	-10786
▁ਪਏ	-10787
▁ਬਟ	-10788
▁ਿਚ	-10789
blog	-10790
ribu	-10791
rill	-10792
ssss	-10793
wind	-10794
ਾਇਜ਼	-10795
ਾਇਲਟ	-10796
▁(30	-10797
▁(50	-10798
▁00:	-10799
▁16:	-10800
▁Ban	-10801
▁Bir	-10802
▁Cas	-10803
▁Lan	-10804
▁Lat	-10805
▁Led	-10806
▁PJS	-10807
▁end	-10808
▁guy	-10809
▁sep	-10810
▁ਚਲੇ	-10811
▁ਜਾਏ	-10812
▁ਟੋਲ	-10813
▁ਠਾਠ	-10814
▁ਡੈਲ	-10815
▁ਬਲੌ	-10816
▁ਮੀਟ	-10817
▁ਰਗੜ	-10818
▁ਵਿੰ	-10819
-2016	-10820
Total	-10821
XNUMX	-10822
alays	-10823
guard	-10824
ruary	-10825
trend	-10826
white	-10827
ਵਿਕਰੀ	-10828
ਸ਼ੁਦਾ	-10829
ਾਇਮੰਡ	-10830
ਿਟ੍ਟੇ	-10831
ੈਰੇਪੀ	-10832
▁1999	-10833
▁2001	-10834
▁Cart	-10835
▁ICOs	-10836
▁Trac	-10837
▁erot	-10838
▁make	-10839
▁nick	-10840
▁past	-10841
▁slot	-10842
▁ਆਤੰਕ	-10843
▁ਕੁੱਕ	-10844
▁ਚਾਹੋ	-10845
▁ਡੈਮੋ	-10846
▁ਨਾਨੀ	-10847
▁ਪਰਦਾ	-10848
▁ਫਿੰਗ	-10849
▁ਬੋਲਣ	-10850
▁ਮਾਡਮ	-10851
▁ਮਿਸਰ	-10852
▁ਮੀਮੋ	-10853
▁ਵੈਲੇ	-10854
▁ਵੋਟਰ	-10855
▁ਸਿਰਜ	-10856
queror	-10857
ਵਿਗਿਆਨ	-10858
ਿੱਪਿੰਗ	-10859
▁Chang	-10860
▁korea	-10861
▁ਕਿਸਮਤ	-10862
▁ਖੋਲਿਆ	-10863
▁ਚੁੰਘਾ	-10864
▁ਜੀਟੀਏ	-10865
▁ਦਰਮਿਆ	-10866
▁ਪਾਰਸਰ	-10867
▁ਫੈਲਾਓ	-10868
▁ਬੁਲੇਟ	-10869
▁ਮਹਿੰਦ	-10870
▁ਰੰਗਾਂ	-10871
▁ਵਿਹਾਰ	-10872
▁ਵੈਕਟਰ	-10873
▁ਸਿੱਕਾ	-10874
Preview	-10875
alaysia	-10876
ussssss	-10877
▁ਚਲਾਉਣਾ	-10878
▁ਸਿਧਾਂਤ	-10879
▁Vintage	-10880
▁zealand	-10881
▁ਕਿਫਾਇਤੀ	-10882
▁ਕੰਬੋਡੀਆ	-10883
▁ਡਿਸਚਾਰਜ	-10884
▁ਦੇਖਾਂਗਾ	-10885
▁ਨੈਵੀਗੇਟ	-10886
▁ਵੇਖਾਉਦਾ	-10887
▁ਸ਼ਾਪਿੰਗ	-10888
Guangdong	-10889
▁Advanced	-10890
▁document	-10891
▁paraguay	-10892
▁available	-10893
▁guatemala	-10894
▁connection	-10895
▁Dariussssss	-10896
▁ਐਪਲੀਕੇਸ਼ਨਾਂ	-10897
FT	-10898
cs	-10899
sl	-10900
ਈਏ	-10901
ਖੋ	-10902
ਛੂ	-10903
ਹੌ	-10904
-80	-10905
.02	-10906
MSN	-10907
adi	-10908
aii	-10909
cer	-10910
urs	-10911
vis	-10912
ਜਾਨ	-10913
ਬਾਬ	-10914
ਬਿਕ	-10915
ਰਮਰ	-10916
ਰੇਲ	-10917
ੇਤਰ	-10918
ੇਸੀ	-10919
ੈਸੀ	-10920
ੋਜਰ	-10921
▁(+	-10922
▁2-	-10923
▁71	-10924
▁KR	-10925
▁KY	-10926
▁Mc	-10927
▁iT	-10928
▁ki	-10929
4000	-10930
anie	-10931
burg	-10932
otan	-10933
yang	-10934
ਪੱਤਰ	-10935
ਬਿੰਦ	-10936
ਸਾਰੀ	-10937
ੋਸਿਸ	-10938
▁50%	-10939
▁Bar	-10940
▁Bro	-10941
▁Rec	-10942
▁Sin	-10943
▁ਅਜ਼	-10944
▁ਐਲੀ	-10945
▁ਘਾਤ	-10946
▁ਤਹਿ	-10947
▁ਦੁਖ	-10948
▁ਪਾਗ	-10949
▁ਫੂਡ	-10950
▁ਬੈਚ	-10951
▁ਰੀਸ	-10952
▁ਰੈਕ	-10953
▁ਹੈਡ	-10954
aring	-10955
found	-10956
ਮਿਸਾਲ	-10957
ਮੈਟਿਕ	-10958
ਸੇਸ਼ਨ	-10959
ੋਗ੍ਰਾ	-10960
▁(15)	-10961
▁1997	-10962
▁Hero	-10963
▁MIME	-10964
▁Read	-10965
▁home	-10966
▁html	-10967
▁shel	-10968
▁work	-10969
▁ਐਮਵੀ	-10970
▁ਕਰਨਲ	-10971
▁ਕੁਵੈ	-10972
▁ਖੱਬਾ	-10973
▁ਚਮੜੇ	-10974
▁ਡਾਇਲ	-10975
▁ਪਤਲਾ	-10976
▁ਯੂਐਸ	-10977
▁ਲੈਂਪ	-10978
▁ਸਿੰਥ	-10979
Socket	-10980
omatic	-10981
symbol	-10982
ਖਮੰਟਾਂ	-10983
▁Capac	-10984
▁Other	-10985
▁Sound	-10986
▁ਕਨਸੋਲ	-10987
▁ਡੀਜ਼ਲ	-10988
▁ਨਿਕਾਰ	-10989
▁ਰਿਬੇਟ	-10990
▁ਸਪੇਅਰ	-10991
▁ਹੋਈਆਂ	-10992
rasonic	-10993
ਗੁਣਵੱਤਾ	-10994
▁(2016)	-10995
▁ਕਨਵਰਟਰ	-10996
▁ਚਿਟ੍ਟੇ	-10997
▁ਦੂਜਿਆਂ	-10998
▁ਧਾਰਮਿਕ	-10999
▁ਨਜਿੱਠਣ	-11000
▁ਨਮੂਦਾਰ	-11001
▁ਬਿਲਿੰਗ	-11002
▁ਮੇਲਿੰਗ	-11003
▁ਸਮਾਪਤੀ	-11004
▁ਸੁਪ੍ਰੋ	-11005
▁ਸੁੱਖਾਂ	-11006
▁Samsung	-11007
▁ireland	-11008
▁ਉਪਕਰਣਾਂ	-11009
▁ਐਂਟਰੀਆਂ	-11010
▁ਕਲੀਸਿਯਾ	-11011
▁ਪਰੇਸ਼ਾਨ	-11012
▁ਸਵਿੱਚਾਂ	-11013
▁ਪਹੁੰਚਯੋਗ	-11014
▁ਸਮਾਰਟਫੋਨ	-11015
▁ਕੰਪਨਸੇਸ਼ਨ	-11016
▁ਲਾਇਬ੍ਰੇਰੀ	-11017
▁ਨਿਊਜ਼ੀਲੈਂਡ	-11018
▁ਰਿਜ਼ਰਵੇਸ਼ਨ	-11019
▁ਸੁਪ੍ਰੋਖਮੰਟਾਂ	-11020
punjabisingers	-11021
.:	-11022
GA	-11023
GP	-11024
NE	-11025
ho	-11026
ਪਣ	-11027
ੁਤ	-11028
.05	-11029
.18	-11030
.25	-11031
.26	-11032
105	-11033
MPa	-11034
aff	-11035
cal	-11036
cel	-11037
iac	-11038
ivo	-11039
leg	-11040
yte	-11041
ਐੱਫ	-11042
ਕੋਣ	-11043
ਚਰਡ	-11044
ਬਿੰ	-11045
ਿਆਤ	-11046
ੁੱਗ	-11047
▁AN	-11048
▁BM	-11049
▁Fr	-11050
▁LE	-11051
▁ev	-11052
▁pr	-11053
ames	-11054
atts	-11055
auna	-11056
ford	-11057
ocus	-11058
ਚੀਨੀ	-11059
ਮਬਰਗ	-11060
ਮੈਟਰ	-11061
▁(3,	-11062
▁Act	-11063
▁Bel	-11064
▁Box	-11065
▁Daq	-11066
▁Hel	-11067
▁UAD	-11068
▁may	-11069
▁ult	-11070
▁ਟੱਚ	-11071
▁ਠੱਗ	-11072
▁ਪਿਕ	-11073
▁ਬੰਧ	-11074
▁ਵਧਣ	-11075
▁ਵੀਰ	-11076
▁ਵੇਵ	-11077
▁ਹੰਗ	-11078
ifier	-11079
power	-11080
unner	-11081
ਕ੍ਰਿਆ	-11082
ਦਰਸ਼ਨ	-11083
ਸਿਸਟਮ	-11084
▁Auto	-11085
▁Blog	-11086
▁WiFi	-11087
▁data	-11088
▁sign	-11089
▁ਅਨੰਤ	-11090
▁ਅਰਜਨ	-11091
▁ਆਉਟਲ	-11092
▁ਗਰਭਵ	-11093
▁ਗਿਰੀ	-11094
▁ਧੁਰੇ	-11095
▁ਪਿਘਲ	-11096
▁ਬਚਾਅ	-11097
▁ਬਦਲਾ	-11098
▁ਲਿਨਨ	-11099
▁ਲੰਮਾ	-11100
▁ਸਸਤੇ	-11101
▁ਹੀਟਰ	-11102
▁ਹੋਣੇ	-11103
amaica	-11104
evelop	-11105
upload	-11106
▁Grand	-11107
▁ਔਰਫੇਕ	-11108
▁ਚੱਟਾਨ	-11109
▁ਟਮਾਟਰ	-11110
▁ਤਿੱਖਾ	-11111
▁ਪਲਾਂਟ	-11112
▁ਪਹਿਲੂ	-11113
▁ਪਿਸਟਨ	-11114
▁ਰਸਾਲੇ	-11115
▁ਰੋਕਣਾ	-11116
▁ਸਥਾਪਨ	-11117
symbols	-11118
▁Review	-11119
▁Rights	-11120
▁United	-11121
▁folder	-11122
▁person	-11123
▁source	-11124
▁ਅੱਖਰਾਂ	-11125
▁ਆਰਐਸਐਸ	-11126
▁ਡਾਇਮੰਡ	-11127
▁present	-11128
▁version	-11129
▁ਗੁੜਗਾਓਂ	-11130
▁ਮੁਕਾਬਲਾ	-11131
▁messages	-11132
▁ਪੈਕੇਜਿੰਗ	-11133
▁UADescription	-11134
FP	-11135
KS	-11136
\)	-11137
fa	-11138
mi	-11139
rc	-11140
ਘੇ	-11141
ਨਹ	-11142
▁м	-11143
/03	-11144
160	-11145
180	-11146
33)	-11147
For	-11148
arh	-11149
ayD	-11150
ਂਡੋ	-11151
ਈਵੀ	-11152
ਉਂਡ	-11153
ਕਰਮ	-11154
ਕੈਪ	-11155
ਬੂਰ	-11156
ਰਾਹ	-11157
ਿਨਰ	-11158
ਿਸਰ	-11159
ੱਕਣ	-11160
▁#&	-11161
▁87	-11162
▁cm	-11163
▁gl	-11164
▁go	-11165
▁so	-11166
▁ਕਠ	-11167
▁ਤਜ	-11168
▁ਦਹ	-11169
olds	-11170
ship	-11171
ਪੋਰੇ	-11172
ਭਾਰਤ	-11173
▁2.1	-11174
▁Art	-11175
▁Bul	-11176
▁Rep	-11177
▁arg	-11178
▁kon	-11179
▁ਆਸਟ	-11180
▁ਉਤਸ	-11181
▁ਏਜਡ	-11182
▁ਗਿੱ	-11183
▁ਛੇੜ	-11184
▁ਜੇਕ	-11185
▁ਡਾਲ	-11186
▁ਨੋਡ	-11187
▁ਮਿਥ	-11188
▁ਰਾਏ	-11189
▁ਲ਼ਈ	-11190
▁ਲੂਪ	-11191
▁ਵਿਖ	-11192
eople	-11193
garia	-11194
ouple	-11195
video	-11196
ਤਾਲਾਪ	-11197
ਨਟਾਈਨ	-11198
ਪਮੈਂਟ	-11199
ਮੇਨਲਡ	-11200
ਿੰਗਜ਼	-11201
ੈੱਸ਼ਨ	-11202
▁Bank	-11203
▁Daqi	-11204
▁Drop	-11205
▁Jack	-11206
▁King	-11207
▁LEDs	-11208
▁Phot	-11209
▁Turn	-11210
▁turn	-11211
▁ਇਮਾਨ	-11212
▁ਕਰੀਬ	-11213
▁ਟਿਸ਼	-11214
▁ਧਾਰਾ	-11215
▁ਨੰਗੀ	-11216
▁ਪੀਯੂ	-11217
▁ਬਚਾਓ	-11218
▁ਭਰਤੀ	-11219
▁ਮਾਪਣ	-11220
▁ਲੈਂਡ	-11221
▁ਵਾਜਬ	-11222
▁ਵਾਧੇ	-11223
▁ਸ਼ਾਹ	-11224
sidhum	-11225
ਫੋਰਨੀਆ	-11226
▁Coins	-11227
▁ਅਧੂਰਾ	-11228
▁ਕਿੰਨੀ	-11229
▁ਕੱਢਣਾ	-11230
▁ਖਿੱਚਣ	-11231
▁ਜਿਹੜਾ	-11232
▁ਫਰਿੱਜ	-11233
▁ਫਰੈਂਚ	-11234
▁ਭਿਆਨਕ	-11235
▁ਮਾਰਦੇ	-11236
▁ਮੁਕਤੀ	-11237
▁ਸਧਾਰਣ	-11238
▁ਸਰੋਵਰ	-11239
▁ਸ਼ਰੀਰ	-11240
▁ਸ਼ਿੰਗ	-11241
▁ਸੁਪਨੇ	-11242
▁ਸੁਰੰਗ	-11243
▁Foshan	-11244
▁memory	-11245
▁ਡੀਵੀਡੀ	-11246
▁ਤਬਾਦਲਾ	-11247
▁ਮਾਲਕਾਂ	-11248
sitemaps	-11249
▁Classic	-11250
▁Scratch	-11251
▁contact	-11252
▁current	-11253
▁minutes	-11254
▁ਅਕਾਦਮਿਕ	-11255
▁ਅਨੁਸਾਰੀ	-11256
▁ਟਰਾਂਸਫਰ	-11257
ਅਪਾਰਟਮੈਂਟ	-11258
▁blasting	-11259
▁ਖਿਡਾਰੀਆਂ	-11260
▁ਵਾਰਤਾਲਾਪ	-11261
▁ਇੰਟਰਵਿਊਜ਼	-11262
▁ਭਵਿੱਖਬਾਣੀ	-11263
▁ਵੈਲੇਨਟਾਈਨ	-11264
▁buddypress	-11265
▁ਇੰਡੋਨੇਸ਼ੀਆ	-11266
06	-11267
Fl	-11268
MI	-11269
My	-11270
ij	-11271
ст	-11272
ਗਣ	-11273
▁【	-11274
.91	-11275
002	-11276
16)	-11277
380	-11278
KGS	-11279
MHz	-11280
Win	-11281
col	-11282
gov	-11283
sav	-11284
tor	-11285
uko	-11286
ਐਰੀ	-11287
ਗੋਂ	-11288
ਡੀਨ	-11289
ਪੁਟ	-11290
ਲੇਸ	-11291
ਵਰਾ	-11292
ੀਨਿ	-11293
▁Bu	-11294
▁PL	-11295
▁\(	-11296
▁ਡੂ	-11297
acth	-11298
ains	-11299
ants	-11300
days	-11301
duct	-11302
gang	-11303
iver	-11304
ਮਤਿਹ	-11305
ਰਾਜਾ	-11306
ਵੇਟਰ	-11307
▁(*.	-11308
▁4.3	-11309
▁CET	-11310
▁EUR	-11311
▁Hyp	-11312
▁ITS	-11313
▁Pat	-11314
▁ads	-11315
▁ਛੁਟ	-11316
▁ਪ੍ਹ	-11317
▁ਫ਼ੌ	-11318
▁ਬੋਟ	-11319
▁ਮੇਜ	-11320
▁ਯਹੂ	-11321
▁ਸਪਰ	-11322
EMAIL	-11323
accel	-11324
ching	-11325
stein	-11326
ਫਰਬਰੀ	-11327
ਬਣਾਉਣ	-11328
ੈਜੂਏਟ	-11329
ੋਨਿਕਸ	-11330
ੜੀਦਾਰ	-11331
▁Cell	-11332
▁LDAP	-11333
▁Xing	-11334
▁open	-11335
▁ਕਾਪਰ	-11336
▁ਖਣਿਜ	-11337
▁ਚਤੁਰ	-11338
▁ਜਜ਼ਬ	-11339
▁ਪੁਨਰ	-11340
▁ਪੋਥੀ	-11341
▁ਰੈਸਟ	-11342
▁ਰੱਖੀ	-11343
▁ਲਾਂਚ	-11344
▁ਸਕੇਟ	-11345
▁ਸਕੋਪ	-11346
▁ਸੈਮੀ	-11347
▁ਹੀਰੇ	-11348
/2019)	-11349
Result	-11350
sardar	-11351
ਮਤਿਹਾਨ	-11352
▁Music	-11353
▁level	-11354
▁ਆਸਤੀਨ	-11355
▁ਕੌਂਡੋ	-11356
▁ਕੰਮਕਾ	-11357
▁ਗੁਣਾਂ	-11358
▁ਗੂਜ਼ੀ	-11359
▁ਜਰੂਰੀ	-11360
▁ਜਿਸਦੇ	-11361
▁ਟਕਰਾਅ	-11362
▁ਪੂਰਤੀ	-11363
▁ਬਰਲਿਨ	-11364
▁ਬਿਲਡਰ	-11365
▁ਮਿਲਾਨ	-11366
▁ਸਟੱਡੀ	-11367
▁ਸਬਜ਼ੀ	-11368
▁ਸ਼ਾਂਤ	-11369
▁ਸੈਕੰਡ	-11370
▁ਹਾਈਪਰ	-11371
ਤੁਹਾਨੂੰ	-11372
ਾਂਸਪੋਰਟ	-11373
▁exacth	-11374
▁poland	-11375
▁ਅਣਜਾਣੀ	-11376
▁ਪਰੰਪਰਾ	-11377
▁ਮਹੱਤਤਾ	-11378
▁ਮੈਡੀਊਲ	-11379
▁ਰੋਲਿੰਗ	-11380
▁ਸਯਾਈਆਂ	-11381
punjabic	-11382
punjabil	-11383
▁Eyelash	-11384
▁Kingdom	-11385
▁Suntech	-11386
▁awesome	-11387
▁ਇਮਤਿਹਾਨ	-11388
▁ਜੁਰਮਾਨਾ	-11389
▁ਬੱਗਫਿਕਸ	-11390
▁ਹਰੀਜ਼ਟਲ	-11391
WysLuxury	-11392
ifunction	-11393
▁February	-11394
▁Reserved	-11395
▁Training	-11396
▁portugal	-11397
▁ਟੈਕਸਟਾਈਲ	-11398
▁ਮਿਊਜ਼ੀਅਮ	-11399
▁ਸਪਲੀਮੈਂਟ	-11400
▁ਹਵਾਬਾਜ਼ੀ	-11401
▁Australia	-11402
▁WysLuxury	-11403
▁ਨਿਯੰਤ੍ਰਿਤ	-11404
▁exacthacks	-11405
▁ਨਵੀਨਤਾਕਾਰੀ	-11406
CR	-11407
Co	-11408
Nm	-11409
Th	-11410
ਖਰ	-11411
ੳਨ	-11412
-36	-11413
125	-11414
360	-11415
45)	-11416
:15	-11417
Mpa	-11418
Won	-11419
oba	-11420
wmk	-11421
ਉੱਚ	-11422
ਟਿਊ	-11423
ਟੀਨ	-11424
ੰਜ਼	-11425
ੱਟਲ	-11426
▁DH	-11427
▁JT	-11428
▁SW	-11429
▁ਝੁ	-11430
phot	-11431
porn	-11432
rick	-11433
waad	-11434
ਜ਼ੋਨ	-11435
ਜਾਤੀ	-11436
ਤਿੰਨ	-11437
ਧਾਰੀ	-11438
ਫਤਾਰ	-11439
ਸ਼ਣਾ	-11440
ਸ਼ੀਏ	-11441
ਿੰਡਲ	-11442
ੈਨਿਕ	-11443
▁128	-11444
▁225	-11445
▁320	-11446
▁4.7	-11447
▁Bal	-11448
▁Buy	-11449
▁Cer	-11450
▁Pal	-11451
▁SVN	-11452
▁THB	-11453
▁TOP	-11454
▁vis	-11455
▁ਉਠਾ	-11456
▁ਕਸਰ	-11457
▁ਜੀਨ	-11458
▁ਥਰਡ	-11459
▁ਮੁਸ	-11460
▁ਵਿਭ	-11461
▁ਸੌਂ	-11462
falls	-11463
ਕਾਨੂੰ	-11464
ਨੀਸ਼ਨ	-11465
ੈਕਲਟੀ	-11466
ੋਸੈੱਸ	-11467
▁Miss	-11468
▁bott	-11469
▁cons	-11470
▁hard	-11471
▁hond	-11472
▁long	-11473
▁ਅੰਤਮ	-11474
▁ਕੁਚਲ	-11475
▁ਜੰਮੂ	-11476
▁ਟੈਕਨ	-11477
▁ਡੀਸੀ	-11478
▁ਤਬਾਹ	-11479
▁ਦਿਹਾ	-11480
▁ਬੈੱਡ	-11481
▁ਮੇਜ਼	-11482
▁ਵਰਲਡ	-11483
▁ਸਗੋਂ	-11484
ਆਨਲਾਈਨ	-11485
▁Games	-11486
▁Group	-11487
▁Logik	-11488
▁Sweet	-11489
▁Villa	-11490
▁Water	-11491
▁ਅਗਿਆਤ	-11492
▁ਅਨੁਸੂ	-11493
▁ਇਕੱਠੀ	-11494
▁ਕਿੰਨੇ	-11495
▁ਕੇਮੇਲ	-11496
▁ਗਿਰੋਹ	-11497
▁ਝਿੱਲੀ	-11498
▁ਡੇਵਿਡ	-11499
▁ਪਰਿਸਰ	-11500
▁ਫਾਲਤੂ	-11501
▁ਬੇਲਚਾ	-11502
▁ਯੂਰੋਪ	-11503
▁ਰਹੇਗਾ	-11504
▁ਰਿਚਰਡ	-11505
▁ਲੈਂਦਾ	-11506
▁ਸਫ਼ਾਈ	-11507
▁ਸਿਈਵੀ	-11508
▁ਹਿੰਦੂ	-11509
▁(2014)	-11510
▁Armati	-11511
▁Hawaii	-11512
▁eaccel	-11513
▁format	-11514
▁iTunes	-11515
▁select	-11516
▁xcache	-11517
▁ਮਲਟੀਮੀ	-11518
▁ਮਾਪਿਆਂ	-11519
▁ਮੁਕਾਬਲ	-11520
▁ਮੋਟਰਜ਼	-11521
ਡੌਕੂਮੈਂਟ	-11522
▁Browser	-11523
▁WikiWon	-11524
▁antenna	-11525
▁options	-11526
▁weekday	-11527
▁ਇਗਨੀਸ਼ਨ	-11528
▁ਉਤਸ਼ਾਹਤ	-11529
▁ਫੁੱਟਬਾਲ	-11530
ictionary	-11531
▁Material	-11532
▁Security	-11533
▁playlist	-11534
▁wagering	-11535
▁ਐਕਸਟਰੈਕਟ	-11536
▁ਪ੍ਰੋਡਕਟਸ	-11537
▁konqueror	-11538
▁ਵੈਬਸਾਈਟਾਂ	-11539
▁ਆਸਟ੍ਰੇਲੀਆਈ	-11540
▁eaccelarator	-11541
;%	-11542
BP	-11543
DB	-11544
SW	-11545
vi	-11546
ਈਓ	-11547
ਚਤ	-11548
ਿੀ	-11549
ੱਮ	-11550
▁	-11551
115	-11552
210	-11553
Air	-11554
ETH	-11555
emp	-11556
icy	-11557
inc	-11558
sar	-11559
sch	-11560
ਚੋਂ	-11561
ਜਤਾ	-11562
ਜਿਸ	-11563
ਟਾਕ	-11564
ਪੱਛ	-11565
ਬਾਈ	-11566
ਸਕੇ	-11567
ਸਟਾ	-11568
ਿਆਲ	-11569
▁84	-11570
▁Dc	-11571
▁Kn	-11572
2017	-11573
amps	-11574
herm	-11575
maan	-11576
ning	-11577
page	-11578
pend	-11579
text	-11580
ਵੋਲਟ	-11581
▁---	-11582
▁1:%	-11583
▁2.3	-11584
▁3.6	-11585
▁Fac	-11586
▁Lib	-11587
▁Mov	-11588
▁Par	-11589
▁TUR	-11590
▁cal	-11591
▁now	-11592
▁var	-11593
▁ਖਿੱ	-11594
▁ਜਣੇ	-11595
▁ਜੈਸ	-11596
▁ਨੱਕ	-11597
▁ਪੋਟ	-11598
▁ਬੁਕ	-11599
▁ਬੱਦ	-11600
▁ਮਗਰ	-11601
▁ਲੂਣ	-11602
▁ਹੀਟ	-11603
ailer	-11604
cheme	-11605
iller	-11606
ofthe	-11607
tease	-11608
ਜੀਰੀਆ	-11609
▁1600	-11610
▁Gear	-11611
▁Give	-11612
▁Meit	-11613
▁Sask	-11614
▁ਉਸਦਾ	-11615
▁ਕਹਿਣ	-11616
▁ਖਰਾਦ	-11617
▁ਖਾਕੇ	-11618
▁ਗਰੀਬ	-11619
▁ਗੋਲਫ	-11620
▁ਦਰਿਆ	-11621
▁ਨੌਕਰ	-11622
▁ਪੇਂਡ	-11623
▁ਬਰੇਕ	-11624
▁ਬੱਚਤ	-11625
▁ਭਾਫ਼	-11626
▁ਮਾਰੇ	-11627
▁ਮਿਲਿ	-11628
▁ਮੁਆਵ	-11629
▁ਰਾਣੀ	-11630
▁ਸਕਰਟ	-11631
▁ਸਵਾਰ	-11632
ground	-11633
stream	-11634
ਿਸਤਾਨੀ	-11635
▁Steel	-11636
▁burma	-11637
▁micro	-11638
▁ਇਸਤਰੀ	-11639
▁ਇੱਥੋਂ	-11640
▁ਉਪਰੰਤ	-11641
▁ਜਾਮਨੀ	-11642
▁ਪਰਵਾਹ	-11643
▁ਪਰੋਮੋ	-11644
▁ਪੂੰਜੀ	-11645
▁ਰਹਿਣਾ	-11646
▁ਸੁਮੇਲ	-11647
eatrain	-11648
uration	-11649
▁Heroes	-11650
▁before	-11651
▁contin	-11652
▁ਅਟਾਰਨੀ	-11653
▁ਅਸਧਾਰਨ	-11654
▁ਕਨਵੇਅਰ	-11655
▁ਕਰੂਜ਼ਰ	-11656
▁ਛੋਟੀਆਂ	-11657
▁ਦੁਹਰਾਓ	-11658
▁ਦੇਵੇਗੀ	-11659
▁ਰੋਗਾਣੂ	-11660
▁ਸ਼ੈਤਾਨ	-11661
▁ਹਾਸ਼ੀਆ	-11662
atchewan	-11663
jattwaad	-11664
▁Control	-11665
▁OpenPGP	-11666
▁Virtual	-11667
▁jamaica	-11668
▁ਉਨਟਾਰੀਓ	-11669
▁ਦਿੰਦੀਆਂ	-11670
▁Meitrack	-11671
▁Zhongtai	-11672
▁bulgaria	-11673
▁honduras	-11674
▁ਪ੍ਰਤੀਬਿੰ	-11675
▁September	-11676
▁ਦਸਤਾਵੇਜ਼ਾਂ	-11677
▁securityfix	-11678
▁Saskatchewan	-11679
GI	-11680
IR	-11681
ML	-11682
cz	-11683
kW	-11684
kl	-11685
ਬਿ	-11686
▁◆	-11687
-28	-11688
122	-11689
355	-11690
NIL	-11691
elf	-11692
eth	-11693
igs	-11694
omi	-11695
sub	-11696
ਅਲੀ	-11697
ਕੋਪ	-11698
ਛਾੜ	-11699
ਜੀਲ	-11700
ਦਰਭ	-11701
ਿਰਲ	-11702
ੀਆਰ	-11703
੍ਕੋ	-11704
▁Je	-11705
▁La	-11706
▁	-11707
ਾ	-11708
ਰ	-11709
ਸ	-11710
ਕ	-11711
ੀ	-11712
ੇ	-11713
ਨ	-11714
ਲ	-11715
ਿ	-11716
ਤ	-11717
ਹ	-11718
ਦ	-11719
e	-11720
ਵ	-11721
ੋ	-11722
ਪ	-11723
ਮ	-11724
ਟ	-11725
ੰ	-11726
a	-11727
ੱ	-11728
ਜ	-11729
i	-11730
ੈ	-11731
o	-11732
t	-11733
n	-11734
.	-11735
ਂ	-11736
,	-11737
ਬ	-11738
਼	-11739
ੂ	-11740
ੁ	-11741
r	-11742
ਗ	-11743
0	-11744
s	-11745
ਅ	-11746
ਡ	-11747
ਆ	-11748
ਈ	-11749
ਇ	-11750
ਚ	-11751
m	-11752
1	-11753
l	-11754
ਣ	-11755
2	-11756
c	-11757
-	-11758
u	-11759
ਫ	-11760
ਖ	-11761
g	-11762
:	-11763
d	-11764
p	-11765
h	-11766
੍	-11767
ਉ	-11768
5	-11769
C	-11770
3	-11771
)	-11772
(	-11773
S	-11774
ਧ	-11775
y	-11776
k	-11777
ਭ	-11778
4	-11779
b	-11780
8	-11781
/	-11782
6	-11783
f	-11784
ਐ	-11785
9	-11786
w	-11787
A	-11788
P	-11789
N	-11790
7	-11791
ਯ	-11792
T	-11793
ੜ	-11794
D	-11795
ਥ	-11796
M	-11797
ੌ	-11798
।	-11799
'	-11800
L	-11801
_	-11802
E	-11803
v	-11804
R	-11805
ਓ	-11806
I	-11807
G	-11808
"	-11809
H	-11810
F	-11811
B	-11812
O	-11813
%	-11814
ਊ	-11815
ਛ	-11816
ਏ	-11817
;	-11818
x	-11819
W	-11820
ਘ	-11821
@	-11822
U	-11823
X	-11824
#	-11825
j	-11826
K	-11827
ਝ	-11828
V	-11829
&	-11830
ਠ	-11831
z	-11832
!	-11833
?	-11834
J	-11835
+	-11836
$	-11837
Y	-11838
–	-11839
*	-11840
Q	-11841
=	-11842
ਢ	-11843
q	-11844
Z	-11845
ਔ	-11846
©	-11847
[	-11848
]	-11849
£	-11850
\	-11851
°	-11852
€	-11853
}	-11854
{	-11855
”	-11856
“	-11857
•	-11858
~	-11859
а	-11860
—	-11861
»	-11862
×	-11863
р	-11864
’	-11865
е	-11866
о	-11867
੦	-11868
и	-11869
н	-11870
‘	-11871
с	-11872
➖	-11873
т	-11874
к	-11875
੨	-11876
੧	-11877
±	-11878
®	-11879
≤	-11880
🙏	-11881
·	-11882
л	-11883
`	-11884
️	-11885
é	-11886
ç	-11887
в	-11888
м	-11889
😂	-11890
ñ	-11891
→	-11892
ö	-11893
★	-11894
д	-11895
≥	-11896
п	-11897
੩	-11898
ੳ	-11899
ä	-11900
′	-11901
੯	-11902
฿	-11903
у	-11904
	-11905
Φ	-11906
ь	-11907
å	-11908
з	-11909
♪	-11910
👉	-11911
❤	-11912
👇	-11913
ā	-11914
­	-11915
॥	-11916
б	-11917
🚩	-11918
੮	-11919
💓	-11920
я	-11921
੫	-11922
ੲ	-11923
й	-11924
ü	-11925
μ	-11926
◆	-11927
г	-11928
●	-11929
✔	-11930
🔰	-11931
ч	-11932
	-11933
੪	-11934
🇴	-11935
🇱	-11936
📱	-11937
🔥	-11938
੬	-11939
ї	-11940
←	-11941
😍	-11942
¥	-11943
↑	-11944
🌟	-11945
	-11946
੭	-11947
â	-11948
í	-11949
У	-11950
á	-11951
à	-11952
ы	-11953
❖	-11954
^	-11955
ã	-11956
č	-11957
š	-11958
💥	-11959
«	-11960
α	-11961
🏻	-11962
【	-11963
】	-11964
Ω	-11965
ी	-11966
😘	-11967
ѕ	-11968
ī	-11969
	-11970
ж	-11971
द	-11972
中	-11973
👌	-11974
§	-11975
ि	-11976
💖	-11977
😊	-11978
ó	-11979
✅	-11980
文	-11981
🤣	-11982
ह	-11983
ê	-11984
ъ	-11985
、	-11986
🇫	-11987
🍁	-11988
̈	-11989
🇼	-11990
х	-11991
і	-11992
្	-11993
ų	-11994
φ	-11995
ц	-11996
