<unk>	0
<s>	0
</s>	0
▁ਸ	-0
▁ਕ	-1
▁ਹ	-2
▁ਦ	-3
▁ਵ	-4
▁ਨ	-5
▁ਪ	-6
▁ਅ	-7
▁ਲ	-8
▁ਮ	-9
ਾਰ	-10
▁ਜ	-11
ਤੇ	-12
▁ਇ	-13
▁ਹੈ	-14
▁ਬ	-15
▁ਤ	-16
ੂੰ	-17
ਾਂ	-18
ਸ਼	-19
▁ਵਿ	-20
ਾਲ	-21
▁ਦੇ	-22
▁ਕਰ	-23
ਾਈ	-24
▁ਨੂੰ	-25
▁ਲਈ	-26
▁ਰ	-27
in	-28
▁ਅਤੇ	-29
ਾਨ	-30
▁ਆ	-31
੍ਰ	-32
▁ਗ	-33
▁1	-34
▁2	-35
▁ਦੀ	-36
ਿਆ	-37
▁ਫ	-38
▁ਚ	-39
▁ਉ	-40
ਰੀ	-41
ੱਕ	-42
ਜ਼	-43
er	-44
on	-45
▁ਟ	-46
▁ਡ	-47
ੱਚ	-48
an	-49
▁(	-50
ਦਾ	-51
ਤਾ	-52
ਿੰ	-53
▁ਹੋ	-54
me	-55
▁ਕਿ	-56
ਾਇ	-57
▁ਵਿੱਚ	-58
▁ਖ	-59
▁C	-60
ਤੀ	-61
00	-62
at	-63
ਰਾ	-64
▁ਪ੍ਰ	-65
ਿੱ	-66
01	-67
▁ਤੁ	-68
▁ਕਰਨ	-69
▁ਸ਼	-70
it	-71
ੀਂ	-72
▁ਕੀ	-73
or	-74
▁ਦਾ	-75
▁ਨਾਲ	-76
▁ਇੱਕ	-77
ਦੇ	-78
▁ਐ	-79
ਟਰ	-80
ੋਂ	-81
es	-82
▁S	-83
▁-	-84
▁ਜਾ	-85
▁ਹਨ	-86
ੈਕ	-87
ar	-88
om	-89
▁ਇਸ	-90
ਲਾ	-91
ਿਕ	-92
ੀਨ	-93
▁ਸਕ	-94
▁ਸੰ	-95
ਾਡ	-96
st	-97
ਵੇ	-98
▁/	-99
▁ਭ	-100
ੀਆ	-101
ਸਟ	-102
▁'	-103
al	-104
▁t	-105
ੁੱ	-106
ਿਲ	-107
▁201	-108
en	-109
ame	-110
▁ਤੁਹ	-111
ੈਟ	-112
▁ਤੇ	-113
ਿੰਗ	-114
▁ਇਹ	-115
ਸ਼ਨ	-116
▁in	-117
ਟੀ	-118
ਰੇ	-119
▁P	-120
ਾਨੂੰ	-121
ਾਹ	-122
▁k	-123
▁ਕੋ	-124
ਾਪ	-125
▁ਵਿਚ	-126
▁ਯ	-127
un	-128
ion	-129
le	-130
ਲੇ	-131
▁ਸਮ	-132
ਣਾ	-133
ic	-134
ਵਾ	-135
ਿਰ	-136
▁T	-137
ਕਾਰ	-138
▁ਵਰ	-139
▁3	-140
੍ਹ	-141
ਤਰ	-142
▁ਕਰੋ	-143
▁ਵੀ	-144
▁M	-145
▁A	-146
ਲੀ	-147
▁ਨਹ	-148
ੱਖ	-149
am	-150
ਨਾ	-151
▁ਆਪ	-152
ੁੰ	-153
ਵਰ	-154
ਦੀ	-155
gm	-156
▁ਪਰ	-157
▁D	-158
▁kgm	-159
▁,	-160
..	-161
re	-162
▁c	-163
▁G	-164
▁ਜੋ	-165
ਣੇ	-166
ਾਰੇ	-167
ੈਂ	-168
ੋਲ	-169
ਿਸ	-170
ੋਰ	-171
▁ਕੰ	-172
ਫ਼	-173
ੋਗ	-174
Name	-175
ਨੀ	-176
▁ਨਹੀਂ	-177
ੰਗ	-178
ਾਡੇ	-179
▁ਮੁ	-180
▁ਤੋਂ	-181
ਡੀ	-182
ਾਮ	-183
▁s	-184
▁ਸਰ	-185
he	-186
ੁਰ	-187
▁#	-188
...	-189
ਿਹ	-190
ਜਾ	-191
ਕਸ	-192
ਪਾ	-193
▁H	-194
▁ਜਾਂ	-195
ing	-196
▁p	-197
ac	-198
is	-199
ol	-200
▁5	-201
ਾਸ	-202
▁ਸੀ	-203
▁।	-204
ੇਲ	-205
ੋਨ	-206
▁ਕਾਰ	-207
ਬਰ	-208
el	-209
ੱਟ	-210
▁B	-211
ਿਨ	-212
▁ਕੀਤਾ	-213
▁4	-214
▁ਕੇ	-215
ੀਆਂ	-216
ਬੀ	-217
▁ਘ	-218
ੋਜ	-219
ੈਨ	-220
ਸੀਂ	-221
ab	-222
ur	-223
▁L	-224
ੋਡ	-225
ੈਟੂ	-226
▁ਤੁਹਾਨੂੰ	-227
▁E	-228
men	-229
▁ਵੇ	-230
ਾਇਲ	-231
▁ਟੈਟੂ	-232
as	-233
et	-234
ਟਾ	-235
ਕੇ	-236
com	-237
ਿਤ	-238
ੰਦ	-239
▁R	-240
ੱਗ	-241
▁F	-242
ਾਈਟ	-243
▁ਕੁ	-244
ਸੀ	-245
▁w	-246
▁ਪੰ	-247
ed	-248
▁I	-249
▁ਆਪਣੇ	-250
ro	-251
▁ਈ	-252
▁"	-253
▁d	-254
ਣੀ	-255
▁ਇੰ	-256
▁_	-257
ੂਰ	-258
ਪਰ	-259
ਡਰ	-260
il	-261
▁f	-262
ੁਣ	-263
us	-264
ਨਲ	-265
▁ਡਾ	-266
▁ਵਰਤ	-267
ਗਾ	-268
▁ਨੇ	-269
ੁਆ	-270
▁N	-271
▁W	-272
▁ਹੋਰ	-273
▁ਗਿਆ	-274
ਕੀ	-275
▁ਛ	-276
ment	-277
ਅਰ	-278
▁n	-279
ਕਾ	-280
ਮੀ	-281
ੈਸ	-282
▁ਰਹ	-283
▁ਵੱ	-284
ੌਰ	-285
ੇਸ਼	-286
▁b	-287
▁ਸਿ	-288
ਉਣ	-289
▁ਇਕ	-290
ਾਈਨ	-291
▁&	-292
▁ਜ਼	-293
▁ਕਿਸ	-294
ੋਟ	-295
ad	-296
▁ਫਾਇਲ	-297
op	-298
ag	-299
▁ਲੋ	-300
and	-301
▁0	-302
▁ਸਾਡੇ	-303
ੇਟ	-304
ot	-305
ਾਗ	-306
ਕਰ	-307
ec	-308
▁ਜਾਣ	-309
▁ਤੁਸੀਂ	-310
▁O	-311
▁ਜੇ	-312
▁ਪਹ	-313
▁U	-314
▁ਸੁ	-315
▁ਨਿ	-316
tion	-317
▁ਬਹ	-318
▁6	-319
ਆਂ	-320
▁h	-321
ਮਾ	-322
ia	-323
ity	-324
▁ਉਤ	-325
ਾਰੀ	-326
20	-327
▁ਪੰਜਾ	-328
▁8	-329
ut	-330
▁ਬਹੁ	-331
ਵਾਂ	-332
ਪਾਦ	-333
▁ਉਹ	-334
▁m	-335
▁ਸਟ	-336
▁K	-337
▁ਸਹ	-338
▁ਹੀ	-339
▁ਡਿ	-340
▁ਪੰਜਾਬੀ	-341
▁ਸਕਦਾ	-342
▁ਧ	-343
▁ਪਾ	-344
▁ਕੋਈ	-345
omment	-346
▁ਵਾਲ	-347
▁ਉੱ	-348
ri	-349
of	-350
▁ਉਤਪਾਦ	-351
ੇਜ	-352
▁ਮੁੱ	-353
ਕਾਰੀ	-354
ੈਕਟ	-355
▁ਸਾ	-356
▁ਵੇਖ	-357
▁ਲਿ	-358
ਯੋਗ	-359
▁ਨਾ	-360
ow	-361
ੂਲ	-362
▁ਬਹੁਤ	-363
▁ਖੇ	-364
ੱਥ	-365
ch	-366
ੱਸ	-367
▁ਸਾਰੇ	-368
▁ਦੁਆ	-369
ਾਅ	-370
▁ਬਾਰੇ	-371
ਵੀ	-372
▁ਸਥ	-373
ੰਡ	-374
▁V	-375
▁7	-376
▁ਸਭ	-377
▁ਸਪ	-378
▁ਸਾਨੂੰ	-379
ੱਲ	-380
▁ਬਣਾ	-381
▁ਚਾਹ	-382
▁ਡੀ	-383
ੰਬਰ	-384
amp	-385
▁ਯੂ	-386
▁ਵਧ	-387
▁ਦੁਆਰਾ	-388
▁ਸ਼ਾਮ	-389
▁ਮੋ	-390
▁ਅਸ	-391
ਜੀ	-392
▁...	-393
▁ਤੌਰ	-394
000	-395
ਕਲ	-396
▁ਉਸ	-397
ਵਾਈ	-398
ਵੇਂ	-399
mm	-400
▁–	-401
▁ਜੀ	-402
ਦਰ	-403
ay	-404
▁ਏ	-405
▁@	-406
▁ਵੈ	-407
▁ਅਨ	-408
▁ਟੈ	-409
▁ਮਹ	-410
em	-411
▁l	-412
ੱਬ	-413
▁ਤੁਹਾਡੇ	-414
▁g	-415
▁$	-416
ਬੰ	-417
ੁਕ	-418
▁ਮਸ਼	-419
ਾਤ	-420
▁%	-421
50	-422
ਿਟ	-423
▁ਮੈਨ	-424
▁the	-425
▁ਸਕਦੇ	-426
id	-427
▁ਕੀਤੀ	-428
▁ਦਿੱ	-429
▁9	-430
gt	-431
੍ਹਾਂ	-432
ੁਰੂ	-433
▁ਥ	-434
ation	-435
ਿਆਂ	-436
▁X	-437
▁12	-438
ੇਨ	-439
-1	-440
▁ਤੱਕ	-441
ਬਲ	-442
ਨਲੋਡ	-443
ਹਾ	-444
▁ਮੌ	-445
▁ਉਪ	-446
ang	-447
fo	-448
ir	-449
▁10	-450
ਲਾਈ	-451
▁ਕੰਮ	-452
201	-453
ਬੰਧ	-454
ੈਲ	-455
ess	-456
ਿਪ	-457
oo	-458
ੇਸ	-459
ੈੱਟ	-460
▁ਰਹੇ	-461
▁ਨਿਰ	-462
ੜੀ	-463
ਿਊ	-464
ਿਸ਼	-465
▁ਚੀਨ	-466
▁+	-467
▁ਰਾ	-468
▁J	-469
▁ਹੁੰ	-470
▁ਮਸ਼ੀਨ	-471
ਦਾਰ	-472
ਨੇ	-473
ਮੇਲ	-474
ter	-475
ਕਸ਼	-476
▁ਪਹਿਲ	-477
▁ਤਾਂ	-478
ਧਾਰ	-479
▁ਆਈ	-480
jab	-481
Comment	-482
▁ਖੋਜ	-483
ਿਆਰ	-484
os	-485
unjab	-486
▁ਜਾਣਕਾਰੀ	-487
.0	-488
▁ਕੁਝ	-489
▁ਓ	-490
▁a	-491
▁20	-492
ist	-493
ਸਤ	-494
ਡੀਓ	-495
▁info	-496
▁ਪੀ	-497
ੋਰਟ	-498
▁ਕਲ	-499
▁ਕੰਪ	-500
ਸਟਮ	-501
ਜੇ	-502
ਾਪਤ	-503
ੜੇ	-504
▁2018	-505
▁ਜਦ	-506
▁ਡਾਊ	-507
ul	-508
ਿਹਾ	-509
▁ਗਲ	-510
▁ਸਿਰ	-511
ਵੇਗਾ	-512
ੰਤ	-513
ੁੱਕ	-514
▁ਕਰਦਾ	-515
um	-516
ਰਮ	-517
ੰਤਰ	-518
ran	-519
▁ਸੇ	-520
ਿਵ	-521
ਫ਼ਤ	-522
▁ਵਿਸ਼	-523
10	-524
ੋਮ	-525
▁ਚੋ	-526
▁ਡਾਊਨਲੋਡ	-527
ਗੀ	-528
ਜ਼ਰ	-529
ip	-530
ਾਈਲ	-531
▁ਸ਼ਾਮਲ	-532
▁ਹਾਂ	-533
ra	-534
ਾਇਆ	-535
▁ਸਾਲ	-536
▁ਕਾਲ	-537
tt	-538
her	-539
▁ਸ਼ੁਰੂ	-540
▁name	-541
▁to	-542
ਪੀ	-543
▁ਅੱ	-544
▁ਮੇ	-545
ੇਸ਼ਨ	-546
ਜੂ	-547
▁ਨਵ	-548
ig	-549
ex	-550
▁ਮੁਫ਼ਤ	-551
▁ਉੱਤੇ	-552
ਮਾਨ	-553
City	-554
▁ਰੰਗ	-555
▁ਪੂ	-556
ਬਾ	-557
ਭਾ	-558
▁ਵੱਧ	-559
▁ਪੇਸ਼	-560
ਯੂ	-561
ਾਇਰ	-562
ou	-563
▁ਲੈ	-564
▁of	-565
▁ਰੱਖ	-566
▁ਮੁੱਖ	-567
▁ਸੂ	-568
▁ਕਿਸੇ	-569
▁st	-570
ਉਂ	-571
▁ਵੱਖ	-572
▁ਮਾਰ	-573
▁*	-574
▁ਮੈ	-575
▁ਮੈਂ	-576
ਰੋ	-577
ers	-578
▁ਪ੍ਰਾਪਤ	-579
▁ਪੈ	-580
▁ਰੂ	-581
▁ਚੋਣ	-582
▁ਕਰਦੇ	-583
ਮਤ	-584
▁ਲੇ	-585
▁ਵਰਤੋਂ	-586
ਾਨੀ	-587
oun	-588
ਪਰਕ	-589
▁ਮੈਨੂੰ	-590
ate	-591
▁ਚੁਣ	-592
▁ਨਾਂ	-593
ਜ਼ੀ	-594
ਿੱਕ	-595
▁ਸੋ	-596
▁ਕਰਨਾ	-597
▁ਬੀ	-598
iv	-599
ind	-600
▁ਰਿਹਾ	-601
▁un	-602
▁ਚਿੱ	-603
▁ਅਨੁ	-604
▁ਸੰਪਰਕ	-605
ent	-606
▁ਬਦ	-607
▁ਟਰ	-608
▁ਦਿਨ	-609
▁ਲਾਗ	-610
▁ਬਣ	-611
▁ਪੋ	-612
▁ਲੋੜ	-613
.5	-614
▁ਵਾਰ	-615
ੱਡ	-616
▁ਸਿਸਟਮ	-617
▁ਮਿਲ	-618
ਿਡ	-619
▁ਸਵ	-620
if	-621
ਚਨਾ	-622
ong	-623
ੜ੍ਹ	-624
▁ਵਿਕ	-625
▁ਅਗ	-626
ੰਦਰ	-627
.1	-628
▁ਪੱ	-629
30	-630
ਸਾ	-631
▁ਐਕਸ	-632
ਸ਼ੀ	-633
▁ਕਾਪ	-634
▁ਘੱਟ	-635
ਜਨ	-636
▁ਦੋ	-637
ack	-638
ਾਡੀ	-639
▁ਸੇਵਾ	-640
▁2019	-641
▁ਜਨ	-642
▁Name	-643
▁ਫੋਨ	-644
ਟੇ	-645
▁2017	-646
▁ਖੇਡ	-647
▁ਕਿਸਮ	-648
ast	-649
▁for	-650
ਾਰਮ	-651
ਾਲੀ	-652
th	-653
▁ਦਰ	-654
ਐਸ	-655
▁ਟੀ	-656
▁ਦਿ	-657
▁19	-658
▁ਮੌਜੂ	-659
ਿੰਟ	-660
▁ਆਰ	-661
▁ਠ	-662
▁US	-663
ਨਾਂ	-664
ce	-665
▁ਕੈ	-666
▁.	-667
ob	-668
▁ਭਾਰ	-669
ttp	-670
▁ਤਕ	-671
▁ਕਮ	-672
▁ਹਰ	-673
ਥੇ	-674
ount	-675
▁ਵਾ	-676
▁ਅਧ	-677
.2	-678
ਖਿਆ	-679
▁ਰੀ	-680
▁©	-681
▁ਅਸੀਂ	-682
ap	-683
▁ਸੰਭ	-684
▁ਸੁਰ	-685
ਾਅਦ	-686
ੋਕ	-687
ਸਾਈਟ	-688
▁ਝ	-689
▁ਵਧੀਆ	-690
▁ਹੋਣ	-691
▁ਬਾਅਦ	-692
▁ਐਪ	-693
▁ਤਰ	-694
ੀਰ	-695
ੱਤ	-696
im	-697
ਅਮ	-698
ine	-699
▁200	-700
▁ਕਰਕੇ	-701
oc	-702
punjab	-703
80	-704
ਕਟ	-705
-2	-706
▁	-707
ਾ	-708
ਰ	-709
ਸ	-710
ਕ	-711
ੀ	-712
ੇ	-713
ਨ	-714
ਲ	-715
ਿ	-716
ਤ	-717
ਹ	-718
ਦ	-719
e	-720
ਵ	-721
ੋ	-722
ਪ	-723
ਮ	-724
ਟ	-725
ੰ	-726
a	-727
ੱ	-728
ਜ	-729
i	-730
ੈ	-731
o	-732
t	-733
n	-734
.	-735
ਂ	-736
,	-737
ਬ	-738
਼	-739
ੂ	-740
ੁ	-741
r	-742
ਗ	-743
0	-744
s	-745
ਅ	-746
ਡ	-747
ਆ	-748
ਈ	-749
ਇ	-750
ਚ	-751
m	-752
1	-753
l	-754
ਣ	-755
2	-756
c	-757
-	-758
u	-759
ਫ	-760
ਖ	-761
g	-762
:	-763
d	-764
p	-765
h	-766
੍	-767
ਉ	-768
5	-769
C	-770
3	-771
)	-772
(	-773
S	-774
ਧ	-775
y	-776
k	-777
ਭ	-778
4	-779
b	-780
8	-781
/	-782
6	-783
f	-784
ਐ	-785
9	-786
w	-787
A	-788
P	-789
N	-790
7	-791
ਯ	-792
T	-793
ੜ	-794
D	-795
ਥ	-796
M	-797
ੌ	-798
।	-799
'	-800
L	-801
_	-802
E	-803
v	-804
R	-805
ਓ	-806
I	-807
G	-808
"	-809
H	-810
F	-811
B	-812
O	-813
%	-814
ਊ	-815
ਛ	-816
ਏ	-817
;	-818
x	-819
W	-820
ਘ	-821
@	-822
U	-823
X	-824
#	-825
j	-826
K	-827
ਝ	-828
V	-829
&	-830
ਠ	-831
z	-832
!	-833
?	-834
J	-835
+	-836
$	-837
Y	-838
–	-839
*	-840
Q	-841
=	-842
ਢ	-843
q	-844
Z	-845
ਔ	-846
©	-847
[	-848
]	-849
£	-850
\	-851
°	-852
€	-853
}	-854
{	-855
”	-856
“	-857
•	-858
~	-859
а	-860
—	-861
»	-862
×	-863
р	-864
’	-865
е	-866
о	-867
੦	-868
и	-869
н	-870
‘	-871
с	-872
➖	-873
т	-874
к	-875
੨	-876
੧	-877
±	-878
®	-879
≤	-880
🙏	-881
·	-882
л	-883
`	-884
️	-885
é	-886
ç	-887
в	-888
м	-889
😂	-890
ñ	-891
→	-892
ö	-893
★	-894
д	-895
≥	-896
п	-897
੩	-898
ੳ	-899
ä	-900
′	-901
੯	-902
฿	-903
у	-904
	-905
Φ	-906
ь	-907
å	-908
з	-909
♪	-910
👉	-911
❤	-912
👇	-913
ā	-914
­	-915
॥	-916
б	-917
🚩	-918
੮	-919
💓	-920
я	-921
੫	-922
ੲ	-923
й	-924
ü	-925
μ	-926
◆	-927
г	-928
●	-929
✔	-930
🔰	-931
ч	-932
	-933
੪	-934
🇴	-935
🇱	-936
📱	-937
🔥	-938
੬	-939
ї	-940
←	-941
😍	-942
¥	-943
↑	-944
🌟	-945
	-946
੭	-947
â	-948
í	-949
У	-950
á	-951
à	-952
ы	-953
❖	-954
^	-955
ã	-956
č	-957
š	-958
💥	-959
«	-960
α	-961
🏻	-962
【	-963
】	-964
Ω	-965
ी	-966
😘	-967
ѕ	-968
ī	-969
	-970
ж	-971
द	-972
中	-973
👌	-974
§	-975
ि	-976
💖	-977
😊	-978
ó	-979
✅	-980
文	-981
🤣	-982
ह	-983
ê	-984
ъ	-985
、	-986
🇫	-987
🍁	-988
̈	-989
🇼	-990
х	-991
і	-992
្	-993
ų	-994
φ	-995
ц	-996
