<unk>	0
<s>	0
</s>	0
▁ਸ	-0
▁ਕ	-1
▁ਹ	-2
▁ਦ	-3
▁ਵ	-4
▁ਨ	-5
▁ਪ	-6
▁ਅ	-7
▁ਲ	-8
▁ਮ	-9
ਾਰ	-10
▁ਜ	-11
ਤੇ	-12
▁ਇ	-13
▁ਹੈ	-14
▁ਬ	-15
▁ਤ	-16
ੂੰ	-17
ਾਂ	-18
ਸ਼	-19
▁ਵਿ	-20
ਾਲ	-21
▁ਦੇ	-22
▁ਕਰ	-23
ਾਈ	-24
▁ਨੂੰ	-25
▁ਲਈ	-26
▁ਰ	-27
in	-28
▁ਅਤੇ	-29
ਾਨ	-30
▁ਆ	-31
੍ਰ	-32
▁ਗ	-33
▁1	-34
▁2	-35
▁ਦੀ	-36
ਿਆ	-37
▁ਫ	-38
▁ਚ	-39
▁ਉ	-40
ਰੀ	-41
ੱਕ	-42
ਜ਼	-43
er	-44
on	-45
▁ਟ	-46
▁ਡ	-47
ੱਚ	-48
an	-49
▁(	-50
ਦਾ	-51
ਤਾ	-52
ਿੰ	-53
▁ਹੋ	-54
me	-55
▁ਕਿ	-56
ਾਇ	-57
▁ਵਿੱਚ	-58
▁ਖ	-59
▁C	-60
ਤੀ	-61
00	-62
at	-63
ਰਾ	-64
▁ਪ੍ਰ	-65
ਿੱ	-66
01	-67
▁ਤੁ	-68
▁ਕਰਨ	-69
▁ਸ਼	-70
it	-71
ੀਂ	-72
▁ਕੀ	-73
or	-74
▁ਦਾ	-75
▁ਨਾਲ	-76
▁ਇੱਕ	-77
ਦੇ	-78
▁ਐ	-79
ਟਰ	-80
ੋਂ	-81
es	-82
▁S	-83
▁-	-84
▁ਜਾ	-85
▁ਹਨ	-86
ੈਕ	-87
ar	-88
om	-89
▁ਇਸ	-90
ਲਾ	-91
ਿਕ	-92
ੀਨ	-93
▁ਸਕ	-94
▁ਸੰ	-95
ਾਡ	-96
st	-97
ਵੇ	-98
▁/	-99
▁ਭ	-100
ੀਆ	-101
ਸਟ	-102
▁'	-103
al	-104
▁t	-105
ੁੱ	-106
ਿਲ	-107
▁201	-108
en	-109
ame	-110
▁ਤੁਹ	-111
ੈਟ	-112
▁ਤੇ	-113
ਿੰਗ	-114
▁ਇਹ	-115
ਸ਼ਨ	-116
▁in	-117
ਟੀ	-118
ਰੇ	-119
▁P	-120
ਾਨੂੰ	-121
ਾਹ	-122
▁k	-123
▁ਕੋ	-124
ਾਪ	-125
▁ਵਿਚ	-126
▁ਯ	-127
un	-128
ion	-129
le	-130
ਲੇ	-131
▁ਸਮ	-132
ਣਾ	-133
ic	-134
ਵਾ	-135
ਿਰ	-136
▁T	-137
ਕਾਰ	-138
▁ਵਰ	-139
▁3	-140
੍ਹ	-141
ਤਰ	-142
▁ਕਰੋ	-143
▁ਵੀ	-144
▁M	-145
▁A	-146
ਲੀ	-147
▁ਨਹ	-148
ੱਖ	-149
am	-150
ਨਾ	-151
▁ਆਪ	-152
ੁੰ	-153
ਵਰ	-154
ਦੀ	-155
gm	-156
▁ਪਰ	-157
▁D	-158
▁kgm	-159
▁,	-160
..	-161
re	-162
▁c	-163
▁G	-164
▁ਜੋ	-165
ਣੇ	-166
ਾਰੇ	-167
ੈਂ	-168
ੋਲ	-169
ਿਸ	-170
ੋਰ	-171
▁ਕੰ	-172
ਫ਼	-173
ੋਗ	-174
Name	-175
ਨੀ	-176
▁ਨਹੀਂ	-177
ੰਗ	-178
ਾਡੇ	-179
▁ਮੁ	-180
▁ਤੋਂ	-181
ਡੀ	-182
ਾਮ	-183
▁s	-184
▁ਸਰ	-185
he	-186
ੁਰ	-187
▁#	-188
...	-189
ਿਹ	-190
ਜਾ	-191
ਕਸ	-192
ਪਾ	-193
▁H	-194
▁ਜਾਂ	-195
ing	-196
▁p	-197
ac	-198
is	-199
ol	-200
▁5	-201
ਾਸ	-202
▁ਸੀ	-203
▁।	-204
ੇਲ	-205
ੋਨ	-206
▁ਕਾਰ	-207
ਬਰ	-208
el	-209
ੱਟ	-210
▁B	-211
ਿਨ	-212
▁ਕੀਤਾ	-213
▁4	-214
▁ਕੇ	-215
ੀਆਂ	-216
ਬੀ	-217
▁ਘ	-218
ੋਜ	-219
ੈਨ	-220
ਸੀਂ	-221
ab	-222
ur	-223
▁L	-224
ੋਡ	-225
ੈਟੂ	-226
▁ਤੁਹਾਨੂੰ	-227
▁E	-228
men	-229
▁ਵੇ	-230
ਾਇਲ	-231
▁ਟੈਟੂ	-232
as	-233
et	-234
ਟਾ	-235
ਕੇ	-236
com	-237
ਿਤ	-238
ੰਦ	-239
▁R	-240
ੱਗ	-241
▁F	-242
ਾਈਟ	-243
▁ਕੁ	-244
ਸੀ	-245
▁w	-246
▁ਪੰ	-247
ed	-248
▁I	-249
▁ਆਪਣੇ	-250
ro	-251
▁ਈ	-252
▁"	-253
▁d	-254
ਣੀ	-255
▁ਇੰ	-256
▁_	-257
ੂਰ	-258
ਪਰ	-259
ਡਰ	-260
il	-261
▁f	-262
ੁਣ	-263
us	-264
ਨਲ	-265
▁ਡਾ	-266
▁ਵਰਤ	-267
ਗਾ	-268
▁ਨੇ	-269
ੁਆ	-270
▁N	-271
▁W	-272
▁ਹੋਰ	-273
▁ਗਿਆ	-274
ਕੀ	-275
▁ਛ	-276
ment	-277
ਅਰ	-278
▁n	-279
ਕਾ	-280
ਮੀ	-281
ੈਸ	-282
▁ਰਹ	-283
▁ਵੱ	-284
ੌਰ	-285
ੇਸ਼	-286
▁b	-287
▁ਸਿ	-288
ਉਣ	-289
▁ਇਕ	-290
ਾਈਨ	-291
▁&	-292
▁ਜ਼	-293
▁ਕਿਸ	-294
ੋਟ	-295
ad	-296
▁ਫਾਇਲ	-297
op	-298
ag	-299
▁ਲੋ	-300
and	-301
▁0	-302
▁ਸਾਡੇ	-303
ੇਟ	-304
ot	-305
ਾਗ	-306
ਕਰ	-307
ec	-308
▁ਜਾਣ	-309
▁ਤੁਸੀਂ	-310
▁O	-311
▁ਜੇ	-312
▁ਪਹ	-313
▁U	-314
▁ਸੁ	-315
▁ਨਿ	-316
tion	-317
▁ਬਹ	-318
▁6	-319
ਆਂ	-320
▁h	-321
ਮਾ	-322
ia	-323
ity	-324
▁ਉਤ	-325
ਾਰੀ	-326
20	-327
▁ਪੰਜਾ	-328
▁8	-329
ut	-330
▁ਬਹੁ	-331
ਵਾਂ	-332
ਪਾਦ	-333
▁ਉਹ	-334
▁m	-335
▁ਸਟ	-336
▁K	-337
▁ਸਹ	-338
▁ਹੀ	-339
▁ਡਿ	-340
▁ਪੰਜਾਬੀ	-341
▁ਸਕਦਾ	-342
▁ਧ	-343
▁ਪਾ	-344
▁ਕੋਈ	-345
omment	-346
▁ਵਾਲ	-347
▁ਉੱ	-348
ri	-349
of	-350
▁ਉਤਪਾਦ	-351
ੇਜ	-352
▁ਮੁੱ	-353
ਕਾਰੀ	-354
ੈਕਟ	-355
▁ਸਾ	-356
▁ਵੇਖ	-357
▁ਲਿ	-358
ਯੋਗ	-359
▁ਨਾ	-360
ow	-361
ੂਲ	-362
▁ਬਹੁਤ	-363
▁ਖੇ	-364
ੱਥ	-365
ch	-366
ੱਸ	-367
▁ਸਾਰੇ	-368
▁ਦੁਆ	-369
ਾਅ	-370
▁ਬਾਰੇ	-371
ਵੀ	-372
▁ਸਥ	-373
ੰਡ	-374
▁V	-375
▁7	-376
▁ਸਭ	-377
▁ਸਪ	-378
▁ਸਾਨੂੰ	-379
ੱਲ	-380
▁ਬਣਾ	-381
▁ਚਾਹ	-382
▁ਡੀ	-383
ੰਬਰ	-384
amp	-385
▁ਯੂ	-386
▁ਵਧ	-387
▁ਦੁਆਰਾ	-388
▁ਸ਼ਾਮ	-389
▁ਮੋ	-390
▁ਅਸ	-391
ਜੀ	-392
▁...	-393
▁ਤੌਰ	-394
000	-395
ਕਲ	-396
▁ਉਸ	-397
ਵਾਈ	-398
ਵੇਂ	-399
mm	-400
▁–	-401
▁ਜੀ	-402
ਦਰ	-403
ay	-404
▁ਏ	-405
▁@	-406
▁ਵੈ	-407
▁ਅਨ	-408
▁ਟੈ	-409
▁ਮਹ	-410
em	-411
▁l	-412
ੱਬ	-413
▁ਤੁਹਾਡੇ	-414
▁g	-415
▁$	-416
ਬੰ	-417
ੁਕ	-418
▁ਮਸ਼	-419
ਾਤ	-420
▁%	-421
50	-422
ਿਟ	-423
▁ਮੈਨ	-424
▁the	-425
▁ਸਕਦੇ	-426
id	-427
▁ਕੀਤੀ	-428
▁ਦਿੱ	-429
▁9	-430
gt	-431
੍ਹਾਂ	-432
ੁਰੂ	-433
▁ਥ	-434
ation	-435
ਿਆਂ	-436
▁X	-437
▁12	-438
ੇਨ	-439
-1	-440
▁ਤੱਕ	-441
ਬਲ	-442
ਨਲੋਡ	-443
ਹਾ	-444
▁ਮੌ	-445
▁ਉਪ	-446
ang	-447
fo	-448
ir	-449
▁10	-450
ਲਾਈ	-451
▁ਕੰਮ	-452
201	-453
ਬੰਧ	-454
ੈਲ	-455
ess	-456
ਿਪ	-457
oo	-458
ੇਸ	-459
ੈੱਟ	-460
▁ਰਹੇ	-461
▁ਨਿਰ	-462
ੜੀ	-463
ਿਊ	-464
ਿਸ਼	-465
▁ਚੀਨ	-466
▁+	-467
▁ਰਾ	-468
▁J	-469
▁ਹੁੰ	-470
▁ਮਸ਼ੀਨ	-471
ਦਾਰ	-472
ਨੇ	-473
ਮੇਲ	-474
ter	-475
ਕਸ਼	-476
▁ਪਹਿਲ	-477
▁ਤਾਂ	-478
ਧਾਰ	-479
▁ਆਈ	-480
jab	-481
Comment	-482
▁ਖੋਜ	-483
ਿਆਰ	-484
os	-485
unjab	-486
▁ਜਾਣਕਾਰੀ	-487
.0	-488
▁ਕੁਝ	-489
▁ਓ	-490
▁a	-491
▁20	-492
ist	-493
ਸਤ	-494
ਡੀਓ	-495
▁info	-496
▁ਪੀ	-497
ੋਰਟ	-498
▁ਕਲ	-499
▁ਕੰਪ	-500
ਸਟਮ	-501
ਜੇ	-502
ਾਪਤ	-503
ੜੇ	-504
▁2018	-505
▁ਜਦ	-506
▁ਡਾਊ	-507
ul	-508
ਿਹਾ	-509
▁ਗਲ	-510
▁ਸਿਰ	-511
ਵੇਗਾ	-512
ੰਤ	-513
ੁੱਕ	-514
▁ਕਰਦਾ	-515
um	-516
ਰਮ	-517
ੰਤਰ	-518
ran	-519
▁ਸੇ	-520
ਿਵ	-521
ਫ਼ਤ	-522
▁ਵਿਸ਼	-523
10	-524
ੋਮ	-525
▁ਚੋ	-526
▁ਡਾਊਨਲੋਡ	-527
ਗੀ	-528
ਜ਼ਰ	-529
ip	-530
ਾਈਲ	-531
▁ਸ਼ਾਮਲ	-532
▁ਹਾਂ	-533
ra	-534
ਾਇਆ	-535
▁ਸਾਲ	-536
▁ਕਾਲ	-537
tt	-538
her	-539
▁ਸ਼ੁਰੂ	-540
▁name	-541
▁to	-542
ਪੀ	-543
▁ਅੱ	-544
▁ਮੇ	-545
ੇਸ਼ਨ	-546
ਜੂ	-547
▁ਨਵ	-548
ig	-549
ex	-550
▁ਮੁਫ਼ਤ	-551
▁ਉੱਤੇ	-552
ਮਾਨ	-553
City	-554
▁ਰੰਗ	-555
▁ਪੂ	-556
ਬਾ	-557
ਭਾ	-558
▁ਵੱਧ	-559
▁ਪੇਸ਼	-560
ਯੂ	-561
ਾਇਰ	-562
ou	-563
▁ਲੈ	-564
▁of	-565
▁ਰੱਖ	-566
▁ਮੁੱਖ	-567
▁ਸੂ	-568
▁ਕਿਸੇ	-569
▁st	-570
ਉਂ	-571
▁ਵੱਖ	-572
▁ਮਾਰ	-573
▁*	-574
▁ਮੈ	-575
▁ਮੈਂ	-576
ਰੋ	-577
ers	-578
▁ਪ੍ਰਾਪਤ	-579
▁ਪੈ	-580
▁ਰੂ	-581
▁ਚੋਣ	-582
▁ਕਰਦੇ	-583
ਮਤ	-584
▁ਲੇ	-585
▁ਵਰਤੋਂ	-586
ਾਨੀ	-587
oun	-588
ਪਰਕ	-589
▁ਮੈਨੂੰ	-590
ate	-591
▁ਚੁਣ	-592
▁ਨਾਂ	-593
ਜ਼ੀ	-594
ਿੱਕ	-595
▁ਸੋ	-596
▁ਕਰਨਾ	-597
▁ਬੀ	-598
iv	-599
ind	-600
▁ਰਿਹਾ	-601
▁un	-602
▁ਚਿੱ	-603
▁ਅਨੁ	-604
▁ਸੰਪਰਕ	-605
ent	-606
▁ਬਦ	-607
▁ਟਰ	-608
▁ਦਿਨ	-609
▁ਲਾਗ	-610
▁ਬਣ	-611
▁ਪੋ	-612
▁ਲੋੜ	-613
.5	-614
▁ਵਾਰ	-615
ੱਡ	-616
▁ਸਿਸਟਮ	-617
▁ਮਿਲ	-618
ਿਡ	-619
▁ਸਵ	-620
if	-621
ਚਨਾ	-622
ong	-623
ੜ੍ਹ	-624
▁ਵਿਕ	-625
▁ਅਗ	-626
ੰਦਰ	-627
.1	-628
▁ਪੱ	-629
30	-630
ਸਾ	-631
▁ਐਕਸ	-632
ਸ਼ੀ	-633
▁ਕਾਪ	-634
▁ਘੱਟ	-635
ਜਨ	-636
▁ਦੋ	-637
ack	-638
ਾਡੀ	-639
▁ਸੇਵਾ	-640
▁2019	-641
▁ਜਨ	-642
▁Name	-643
▁ਫੋਨ	-644
ਟੇ	-645
▁2017	-646
▁ਖੇਡ	-647
▁ਕਿਸਮ	-648
ast	-649
▁for	-650
ਾਰਮ	-651
ਾਲੀ	-652
th	-653
▁ਦਰ	-654
ਐਸ	-655
▁ਟੀ	-656
▁ਦਿ	-657
▁19	-658
▁ਮੌਜੂ	-659
ਿੰਟ	-660
▁ਆਰ	-661
▁ਠ	-662
▁US	-663
ਨਾਂ	-664
ce	-665
▁ਕੈ	-666
▁.	-667
ob	-668
▁ਭਾਰ	-669
ttp	-670
▁ਤਕ	-671
▁ਕਮ	-672
▁ਹਰ	-673
ਥੇ	-674
ount	-675
▁ਵਾ	-676
▁ਅਧ	-677
.2	-678
ਖਿਆ	-679
▁ਰੀ	-680
▁©	-681
▁ਅਸੀਂ	-682
ap	-683
▁ਸੰਭ	-684
▁ਸੁਰ	-685
ਾਅਦ	-686
ੋਕ	-687
ਸਾਈਟ	-688
▁ਝ	-689
▁ਵਧੀਆ	-690
▁ਹੋਣ	-691
▁ਬਾਅਦ	-692
▁ਐਪ	-693
▁ਤਰ	-694
ੀਰ	-695
ੱਤ	-696
im	-697
ਅਮ	-698
ine	-699
▁200	-700
▁ਕਰਕੇ	-701
oc	-702
punjab	-703
80	-704
ਕਟ	-705
-2	-706
60	-707
ੇਂ	-708
ts	-709
▁ਜਿਸ	-710
▁ਐਲ	-711
ਕਿ	-712
▁ਚਾਹੁੰ	-713
ੈਂਟ	-714
▁ਅਪ	-715
▁ਹਟਾ	-716
ub	-717
▁ਔ	-718
ਨਲਾਈਨ	-719
▁v	-720
ਨ੍ਹਾਂ	-721
▁:	-722
▁ਪਿ	-723
▁ਐਸ	-724
od	-725
▁ਲੋਕ	-726
ਵਰੀ	-727
ਾਰਕ	-728
qu	-729
ੋਤ	-730
age	-731
option	-732
▁ਵੇਖੋ	-733
ੁੱਲ	-734
ew	-735
ਿਹਤ	-736
▁ਜਾਵੇਗਾ	-737
▁ਗਰ	-738
ਫਟ	-739
▁ਪਲ	-740
▁24	-741
12	-742
▁ਲੰ	-743
ell	-744
▁ਮਾਡ	-745
▁ਵਿਚਾਰ	-746
▁ਨਕਸ਼	-747
▁ਯੋਗ	-748
ੈਕਸ	-749
ov	-750
▁ਚਿੱਤਰ	-751
▁ਬਦਲ	-752
▁ਉੱਚ	-753
▁ਭੇਜ	-754
▁ਲਾ	-755
▁and	-756
art	-757
▁unit	-758
▁15	-759
▁ਹਾਲ	-760
ੱਥੇ	-761
ੰਨ	-762
:/	-763
):	-764
ਖਾ	-765
▁ਮੀ	-766
ਡਾ	-767
▁ਅਮ	-768
://	-769
▁ਵੀਡੀਓ	-770
▁ਸਹਾਇ	-771
ੱਗੇ	-772
▁ਪਹਿਲਾਂ	-773
▁Y	-774
lt	-775
▁ਕੰਪਨੀ	-776
▁100	-777
hat	-778
▁r	-779
▁ਫੋਲ	-780
▁ਬਣਾਉਣ	-781
▁ਸਿਹਤ	-782
▁ਮਨ	-783
▁ਮਾਡਲ	-784
▁ਬੰਦ	-785
eg	-786
▁re	-787
▁ਬਾਹ	-788
ort	-789
ak	-790
▁ਆਮ	-791
ਭਾਵ	-792
ਗੇ	-793
▁ਸਟੀ	-794
▁ਆਕਾਰ	-795
▁ਦੀਆਂ	-796
▁2016	-797
▁ਪੋਸਟ	-798
ep	-799
ਿਤੀ	-800
86	-801
▁ਗਈ	-802
▁ਕਾ	-803
▁ਚਾਹੀ	-804
▁ਬਾ	-805
▁ਕਲਾ	-806
▁ਫੋਲਡਰ	-807
40	-808
ਜ਼ਾ	-809
▁ਸੁਰੱਖ	-810
ੰਡੋ	-811
ਗਤ	-812
ਮਰ	-813
ਵਾਦ	-814
▁ਭਾ	-815
ਚਰ	-816
▁(1	-817
ੀਨੀ	-818
ਵੇਅਰ	-819
▁ਬੇ	-820
▁ਹੇ	-821
ਖਣ	-822
ਫਿਕ	-823
ਦਦ	-824
▁am	-825
ik	-826
▁ਵੈੱਬ	-827
ਟਰੀ	-828
▁y	-829
ਰਤ	-830
ਿਣ	-831
▁ਖੇਤਰ	-832
▁ਪਤਾ	-833
ਗਰ	-834
▁ਦਿੱਤਾ	-835
ian	-836
▁18	-837
▁http	-838
uc	-839
▁ਬਲ	-840
ੂਨ	-841
ain	-842
▁Con	-843
▁ਵਿਆ	-844
▁ਢ	-845
est	-846
▁ਸਿੱ	-847
ਅਨ	-848
▁ਫਰ	-849
ਸਾਰ	-850
▁11	-851
ਇਨ	-852
▁Z	-853
▁ਤਿਆਰ	-854
▁ਸਰਵਰ	-855
▁ਚਾਹੁੰਦੇ	-856
▁ਗ੍ਰ	-857
▁ਵਿੰਡੋ	-858
ਿੱਪ	-859
ly	-860
▁Sh	-861
▁ਨੰਬਰ	-862
▁ਖੋਲ	-863
▁ਗਲਤੀ	-864
▁ਕੋਡ	-865
▁ਚੁਣੋ	-866
▁ਡਾਟਾ	-867
▁ਉਦ	-868
▁ਜਦੋਂ	-869
▁ਸੁਨੇ	-870
up	-871
▁ਇੱਥੇ	-872
▁ਵਾਲੇ	-873
ਰਾਮ	-874
▁it	-875
ਕਤੀ	-876
ond	-877
▁[	-878
▁In	-879
▁ਹੁਣ	-880
rans	-881
ਕੋ	-882
▁ਮਾ	-883
▁ਮੋਬ	-884
▁ਉਨ੍ਹਾਂ	-885
ਵਾਨ	-886
▁e	-887
ਿਮ	-888
▁ਹਿੱ	-889
▁ਕ੍ਰ	-890
(_	-891
▁ਪਾਸ	-892
▁ਤਾ	-893
▁ਦਸ	-894
▁ਅੰਦਰ	-895
▁ਸਿਰਫ	-896
ਾਡਾ	-897
-0	-898
▁30	-899
▁ਪੈਕ	-900
▁ਜੁ	-901
▁ਹੇਠ	-902
og	-903
▁Q	-904
ਤਮ	-905
:%	-906
▁ਕੋਲ	-907
▁ਇੰਟਰ	-908
▁ਗਏ	-909
ਵਲ	-910
ਂਡ	-911
ਦੇਸ਼	-912
ਬੇ	-913
▁ਡਰ	-914
▁Comment	-915
AN	-916
ਮੇ	-917
ox	-918
ric	-919
▁ਪਲੇ	-920
ੀਕ	-921
ਸ਼ਾ	-922
ਬੁੱਕ	-923
av	-924
▁ਪੁ	-925
▁ਫੀ	-926
optional	-927
15	-928
ਿਆਨ	-929
▁ਜਾਂਦਾ	-930
eat	-931
▁ਕੀਤੇ	-932
▁ਮੌਜੂਦਾ	-933
one	-934
ile	-935
▁ਛੱਡ	-936
▁ਡਿਜ਼	-937
▁ਪੜ੍ਹ	-938
▁ਸਰੋਤ	-939
ੱਗਰੀ	-940
▁ਉਪਲ	-941
▁St	-942
ੀਰਾਈਟ	-943
▁ਮੁੜ	-944
ਡੇ	-945
▁ਕਾਪੀਰਾਈਟ	-946
ੈਕਟਰੀ	-947
▁ਸਮਰ	-948
▁ਸੰਰ	-949
ਾਰਡ	-950
ਸੇ	-951
ੋਜੀ	-952
▁ਆਟ	-953
ੁੱਟ	-954
ਇਆ	-955
▁£	-956
▁ਸਨ	-957
ਕਤ	-958
yp	-959
▁ਆਨਲਾਈਨ	-960
ਾਈਡ	-961
▁ਪਿਛ	-962
▁ਡਿਸ	-963
ਅਲ	-964
▁ਅਲ	-965
ਟਲ	-966
.3	-967
▁ਅੱਗੇ	-968
▁Ch	-969
sh	-970
▁ਹੁੰਦਾ	-971
ਾਈਪ	-972
ੋਸ	-973
▁ਮੁੱਲ	-974
ਐੱ	-975
ard	-976
▁ਲੱ	-977
▁ਸਤ	-978
▁ਸਹਿ	-979
▁ਸੰਭਾਲ	-980
ਅਤ	-981
ੁਨ	-982
ਾਲਰ	-983
ਵੱ	-984
ਚਾਰ	-985
▁2015	-986
ਰਨ	-987
▁ਅਣ	-988
ਰੀਕਾ	-989
▁ਫਿਲ	-990
▁ਉਦਯੋਗ	-991
▁ਤਬ	-992
▁ਪੁੱ	-993
▁ਰੂਪ	-994
▁ਆਪਣੀ	-995
our	-996
.9	-997
eb	-998
▁ਸਮੱਗਰੀ	-999
ail	-1000
11	-1001
▁ਵੈਬ	-1002
XL	-1003
▁ਫਾਇਲਾਂ	-1004
▁ਕੀਮਤ	-1005
▁50	-1006
▁ਸਫ਼	-1007
ਰੀਨ	-1008
▁ਕਿਰ	-1009
▁ਸੰਰਚਨਾ	-1010
▁ਇਲਾ	-1011
▁ਚੰਗ	-1012
▁ਮਦਦ	-1013
▁ਟਰੈਕ	-1014
▁ਆਸ	-1015
▁ਖੁ	-1016
▁16	-1017
able	-1018
▁ਖ਼	-1019
▁ਗੁਣ	-1020
▁ਪੇ	-1021
▁ਮੇਲ	-1022
are	-1023
▁ਸਾਈਟ	-1024
▁ਚਾਹੀਦਾ	-1025
ਟੀਫਿਕ	-1026
ਪੂਰ	-1027
▁ਨਿਰਮਾ	-1028
▁ਕਈ	-1029
▁ਅੱਪ	-1030
ੈਮ	-1031
ਬਾਰ	-1032
▁ਫਾਰਮ	-1033
ਦਾਨ	-1034
▁ਫੇਸ	-1035
ht	-1036
ਮੈਂਟ	-1037
▁ਡਾਲਰ	-1038
ਾਹਕ	-1039
▁ਸੈਟ	-1040
▁ਪੋਰਟ	-1041
▁ਨੀ	-1042
▁ਅਜ	-1043
▁ਪੂਰੀ	-1044
▁ਸਮੇਂ	-1045
ਵਿ	-1046
▁ਰੋ	-1047
ill	-1048
▁ਸਲਾ	-1049
▁ਸਟੀਲ	-1050
▁ac	-1051
▁ਨਿਯ	-1052
▁13	-1053
▁ਇਨ	-1054
▁ਘਰ	-1055
▁ਵਿਸ਼ੇਸ਼	-1056
ਵਰਕ	-1057
ener	-1058
ਾਰਟ	-1059
▁ਚਲਾ	-1060
ਿੰਨ	-1061
▁ਸਾਫਟ	-1062
ਟਿੰਗ	-1063
int	-1064
▁ਮੇਰੇ	-1065
ਚੀ	-1066
▁ਤਬਦੀ	-1067
▁ਪਸ	-1068
▁ਦੌਰ	-1069
200	-1070
▁ਖੋਲ੍ਹ	-1071
ੈਰ	-1072
ld	-1073
▁ਫੇਸਬੁੱਕ	-1074
▁ਨਾਮ	-1075
ਡੇਟ	-1076
▁ਜੇਕਰ	-1077
▁USA	-1078
▁ਬਾਲ	-1079
indow	-1080
PS	-1081
▁ਮੋਬਾਈਲ	-1082
ੱਪ	-1083
itle	-1084
▁14	-1085
his	-1086
▁ਦਿੰ	-1087
▁ਵਪ	-1088
▁ਜ਼ਰ	-1089
▁ਟੈਗ	-1090
▁ਤੁਹਾਡੀ	-1091
▁ਮਹੀਨ	-1092
▁ਗੱਲ	-1093
▁ਦੂ	-1094
ect	-1095
▁ਖਾ	-1096
ear	-1097
ਿਟੀ	-1098
▁ਦੇਖ	-1099
▁ਪ੍ਰਬੰਧ	-1100
ਸਥ	-1101
iz	-1102
ੀਮ	-1103
▁ਗਾਹਕ	-1104
▁ਸਥਾਨ	-1105
▁ਲਾਈਨ	-1106
rip	-1107
▁ਜਿ	-1108
ੈੱਸ	-1109
ਪ੍ਰ	-1110
ib	-1111
▁ਜਿੱ	-1112
eather	-1113
ੈਸ਼ਨ	-1114
▁ਫੋਟ	-1115
ੈਕਸ਼ਨ	-1116
▁is	-1117
16	-1118
▁ਲੇਖ	-1119
▁ਲੱਭ	-1120
▁ਸਾਫਟਵੇਅਰ	-1121
ਵਾਰ	-1122
ੜਾ	-1123
▁ਟਿੱਪ	-1124
25	-1125
IF	-1126
▁trans	-1127
▁ਖਾਸ	-1128
ਵਨ	-1129
ੰਕ	-1130
35	-1131
▁ਦਿਓ	-1132
="	-1133
▁ਪ੍ਰਤੀ	-1134
oft	-1135
▁ਬਿ	-1136
▁ਦੌਰਾਨ	-1137
▁ਕਾਰਜ	-1138
▁units	-1139
.00	-1140
ant	-1141
▁ਵੇਰ	-1142
nd	-1143
ਟਰੋਲ	-1144
▁ਬ੍ਰ	-1145
ਹਿ	-1146
▁ਹੈਕ	-1147
ਲੀਕੇ	-1148
▁ਘੰ	-1149
▁ਬੱਚ	-1150
▁ਸਰਟੀਫਿਕ	-1151
ਧਾਰਨ	-1152
ਾਤਰਾ	-1153
▁ਬਾਹਰ	-1154
all	-1155
ਹਿਰ	-1156
ੱਧ	-1157
ies	-1158
ਚਾ	-1159
▁ਨਵਾਂ	-1160
-8	-1161
45	-1162
ੁਲ	-1163
▁ਵਰਤਿਆ	-1164
-201	-1165
SL	-1166
▁ਚਾਰ	-1167
▁amount	-1168
▁ਕਾਰਵਾਈ	-1169
▁ਈਮੇਲ	-1170
75	-1171
ਆਰ	-1172
▁ਆਦ	-1173
ud	-1174
ਮੇਸ਼	-1175
ish	-1176
ਿੱਕਰ	-1177
▁ਠੀਕ	-1178
ਥੀ	-1179
▁25	-1180
▁ਬੈ	-1181
▁ਜੰਤਰ	-1182
AT	-1183
19	-1184
▁ਪੁੱਛ	-1185
▁ਵਾਲੀ	-1186
▁pro	-1187
__	-1188
ਾਇਨ	-1189
੍ਹਾ	-1190
▁ਕੰਟਰੋਲ	-1191
▁ਫ਼	-1192
wor	-1193
▁ਪਲੱਗ	-1194
ਛਾ	-1195
ji	-1196
▁ਨੈੱਟ	-1197
▁ਕੋਰ	-1198
▁ਵਿਕਰੀ	-1199
▁ਇੰਸਟ	-1200
ial	-1201
ਨਾਲ	-1202
ਕੂ	-1203
▁us	-1204
70	-1205
▁ਫਲ	-1206
esc	-1207
ੋਰਡ	-1208
out	-1209
▁ਕੂ	-1210
▁ਸਾਰ	-1211
▁ਸੋਧ	-1212
ਵੱਤਾ	-1213
ont	-1214
),	-1215
ੁੱਧ	-1216
ry	-1217
▁ਕਿਰਪਾ	-1218
ey	-1219
▁ਕੁਨ	-1220
▁ਰੇ	-1221
▁ਸਹਿਯੋਗ	-1222
ev	-1223
ਸਪ	-1224
▁ਪਾਲ	-1225
▁ਪਰਿਵ	-1226
▁ਸਟਿੱਕਰ	-1227
▁ਤਰ੍ਹਾਂ	-1228
ੈਡ	-1229
OR	-1230
per	-1231
▁€	-1232
ੋਰਨ	-1233
▁ਹਾਈ	-1234
▁ਸਮੀ	-1235
stell	-1236
▁ਵਿਕਾਸ	-1237
▁ਪਾਣੀ	-1238
ੁੱਖ	-1239
▁2014	-1240
stellation	-1241
▁ਚੌ	-1242
ਦੀਆਂ	-1243
ਮੀਟਰ	-1244
co	-1245
▁ਭਾਗ	-1246
▁weather	-1247
▁ਵੈੱਬਸਾਈਟ	-1248
▁ਅਰ	-1249
▁ਖਰੀ	-1250
▁ਲੰਬ	-1251
▁ਪਹੁੰ	-1252
▁Constellation	-1253
ਸਰ	-1254
▁2013	-1255
nl	-1256
ੇਅਰ	-1257
▁ਪੂਰਾ	-1258
▁ਸਿਖ	-1259
ਪਨ	-1260
ੰਟ	-1261
▁ਸ਼ਾਨ	-1262
▁ਸੁਰੱਖਿਆ	-1263
▁ਸਵਾਲ	-1264
.6	-1265
▁ਵੱਡੇ	-1266
olor	-1267
28	-1268
▁ਮਿਆ	-1269
▁ਐਪਲੀਕੇ	-1270
asin	-1271
▁ਫਿਰ	-1272
ass	-1273
▁ਨੌ	-1274
▁ਟ੍ਰ	-1275
ੋਗਰਾਮ	-1276
▁ਸ਼ਾਮਿਲ	-1277
▁ਨਕਸ਼ਾ	-1278
▁ਪਰਿਵਾਰ	-1279
ug	-1280
▁ਗੁਣਵੱਤਾ	-1281
eng	-1282
-5	-1283
ੱਦ	-1284
▁ਸੈੱਟ	-1285
ਸ਼ਟਰੀ	-1286
▁title	-1287
ME	-1288
▁“	-1289
ੁੱਪ	-1290
DE	-1291
▁ਗੁ	-1292
pl	-1293
▁by	-1294
ਿਲਾ	-1295
org	-1296
ੈਂਡ	-1297
▁ਲੱਗ	-1298
▁ਸਹਾਇਕ	-1299
▁ਲਿਮ	-1300
▁ਫੋਟੋ	-1301
.4	-1302
▁ਲੋਡ	-1303
▁ਵਿਅ	-1304
orn	-1305
ਿੰਦ	-1306
▁ਯੂਰ	-1307
ਵਾਬ	-1308
ਫਲ	-1309
▁2020	-1310
▁ਸ਼ਾਨਦਾਰ	-1311
▁ਸੰਦ	-1312
ੂਰੀ	-1313
ਐਨ	-1314
ਾਨਾ	-1315
erv	-1316
▁GIF	-1317
ਟਨ	-1318
▁ਤਾਪ	-1319
▁ਸੈਟਿੰਗ	-1320
▁ਭੁ	-1321
ੈਟਿਕ	-1322
▁pl	-1323
cm	-1324
ition	-1325
▁ਰਹੀ	-1326
▁ਵੈਬਸਾਈਟ	-1327
▁ਲਿਖ	-1328
▁ਹੱਕ	-1329
ext	-1330
▁action	-1331
ਿਕਾਰ	-1332
▁x	-1333
▁ਪਾਰ	-1334
▁ਵੇਖਾ	-1335
ide	-1336
▁ਵਰਤਣ	-1337
▁ਤਾਪਮਾਨ	-1338
.8	-1339
▁17	-1340
24	-1341
ਉਟ	-1342
ੋਰੇ	-1343
ੋਨਸ	-1344
,000	-1345
▁ਆਟੋਮ	-1346
▁ਜਵਾਬ	-1347
▁ਭਾਰਤ	-1348
▁ਸਥਿਤੀ	-1349
unjabi	-1350
▁ਕਲਿੱਕ	-1351
▁=	-1352
▁ਬੈਕ	-1353
ct	-1354
ਜਰ	-1355
▁ਇਮ	-1356
▁ਕਾਰਨ	-1357
pr	-1358
ਉਣਾ	-1359
▁ਬਣਾਇਆ	-1360
NA	-1361
ਪਕ	-1362
end	-1363
ਧਰ	-1364
▁•	-1365
-3	-1366
ost	-1367
▁ਪ੍ਰਭਾਵ	-1368
▁City	-1369
ਿੱਛ	-1370
▁ਭਾਸ਼ਾ	-1371
▁ਤਕਨੀ	-1372
▁ਪਹੁੰਚ	-1373
▁ਨੈੱਟਵਰਕ	-1374
ਵਰਡ	-1375
▁ਕੋਸ਼	-1376
▁ਹਟਾਓ	-1377
ai	-1378
▁60	-1379
ਹੇ	-1380
▁ਵਾਪ	-1381
▁ਉਤਪਾਦਨ	-1382
▁ਵਰਜਨ	-1383
▁ਹੋਵੇ	-1384
att	-1385
▁ਜਾਰੀ	-1386
▁ਪਲੱਗਇਨ	-1387
indows	-1388
▁ਐਪਲੀਕੇਸ਼ਨ	-1389
▁ਲਾਗੂ	-1390
▁ਪੌ	-1391
▁ਵਿਅਕਤੀ	-1392
ਿਅਤ	-1393
ੁਕੂਲ	-1394
ਿਪਟ	-1395
▁ਪਲਾ	-1396
▁ਮਾਲ	-1397
▁transl	-1398
▁ਖਰੀਦ	-1399
ਲੋ	-1400
▁ਢੰਗ	-1401
ਡੀਆ	-1402
ਿਕਾ	-1403
▁ਬੋਨਸ	-1404
▁ਬਿੱ	-1405
▁ਨਹੀ	-1406
SS	-1407
▁item	-1408
ਸ਼ਣ	-1409
ਤਾਰ	-1410
).	-1411
ਿਸੂ	-1412
▁ਤਬਦੀਲ	-1413
▁00	-1414
▁ਨਿਊ	-1415
ੰਮ	-1416
ription	-1417
13	-1418
▁ਹੋਏ	-1419
ator	-1420
▁ਸਾਡੀ	-1421
▁ਕਰੇ	-1422
▁ਘੰਟੇ	-1423
ੜਾਈ	-1424
▁ਬਰ	-1425
land	-1426
▁ਜੂਨ	-1427
ੋਜਨ	-1428
▁ਪੋਰਨ	-1429
▁ਵਿੱਚੋਂ	-1430
ਧੀ	-1431
ree	-1432
ਾਈਵ	-1433
▁ਪ੍ਰਦਾਨ	-1434
ਪਤ	-1435
▁ਆਦਿ	-1436
▁ਦੇਸ਼	-1437
ive	-1438
ਐਕਸ	-1439
▁ਜਿਵੇਂ	-1440
▁ਫੈਕਟਰੀ	-1441
escription	-1442
▁ਆਖ	-1443
▁ਸਮਾਂ	-1444
ਾਈਮ	-1445
▁ਰਾਖ	-1446
ੈਨਲ	-1447
ਿਣਤੀ	-1448
▁ਮੁਹ	-1449
ਐਲ	-1450
ww	-1451
ਸ਼ਕ	-1452
ਗਤਾਨ	-1453
▁ਅੰਗ	-1454
▁ਹੱਲ	-1455
▁Windows	-1456
ED	-1457
▁OF	-1458
▁ਦੁ	-1459
▁ਪੇਸ਼ਕਸ਼	-1460
▁ਅਨੁਕੂਲ	-1461
▁ਭੁਗਤਾਨ	-1462
ੂਤ	-1463
ਗਲ	-1464
18	-1465
▁°	-1466
punjabi	-1467
▁com	-1468
99	-1469
ls	-1470
ome	-1471
ਵਿੱ	-1472
▁ਇੰਸਟਾਲ	-1473
▁ਸੂਚੀ	-1474
▁ਬਿਲ	-1475
▁ਦਬ	-1476
▁~	-1477
menu	-1478
▁ਡਿਸਕ	-1479
www	-1480
▁ਅੰਤਰ	-1481
▁ਹੋਇਆ	-1482
▁ਵਿਦ	-1483
ਟਿਡ	-1484
▁ਅਜਿਹ	-1485
▁ਕਿਉਂ	-1486
de	-1487
ਿਕਸ	-1488
)...	-1489
ਿੰਕ	-1490
AR	-1491
io	-1492
▁ਅੱਪਡੇਟ	-1493
ੁਣੇ	-1494
▁ਤਸ	-1495
ber	-1496
oin	-1497
▁TR	-1498
▁ਅਨੁਵਾਦ	-1499
ust	-1500
▁ਐਮ	-1501
▁ਸੱ	-1502
੍ਰੇ	-1503
▁22	-1504
▁ਦੇਣ	-1505
ੋਪ	-1506
▁ਗਿਣਤੀ	-1507
▁ਸੁਨੇਹਾ	-1508
▁on	-1509
▁Can	-1510
▁ਟਿੱਪਣੀ	-1511
2)	-1512
▁me	-1513
▁ਚੱਲ	-1514
▁ਟੈਸਟ	-1515
ਪੋਰਟ	-1516
▁ਰਾਜ	-1517
▁i	-1518
box	-1519
▁ਵਪਾਰ	-1520
▁ਕਿਹਾ	-1521
ਖੇ	-1522
੍ਯੂ	-1523
ਲਕ	-1524
▁ਹੁੰਦੇ	-1525
▁{	-1526
▁ਸਰਟੀਫਿਕੇਟ	-1527
▁ਲਿਆ	-1528
▁ਪਾਵਰ	-1529
▁ਸਮਰੱਥ	-1530
▁ਰਾਹ	-1531
ੈਪ	-1532
▁ਸਕਦੀ	-1533
ਾਈਜ਼	-1534
▁ਮੋਟਰ	-1535
▁ਨਕਸ਼ੇ	-1536
▁ਸ਼ਹਿਰ	-1537
ੱਸਿਆ	-1538
▁ਗਰੁੱਪ	-1539
se	-1540
▁ਫਾਈ	-1541
▁ਅਮਰੀਕਾ	-1542
ਕੀਜ਼	-1543
asino	-1544
ੋਫ	-1545
ash	-1546
ਕਤੂ	-1547
▁Punjabi	-1548
23	-1549
ੇਰੇ	-1550
▁ਐਕ	-1551
▁ਚੀ	-1552
▁ਜਨਵਰੀ	-1553
▁ਨਿਰਮਾਤਾ	-1554
▁ਲੀ	-1555
▁ਜਿਹ	-1556
▁ਸਮਝ	-1557
ice	-1558
ਸਥਾ	-1559
ਿਆਦਾ	-1560
▁ਕੁੰ	-1561
▁ਫਰਵਰੀ	-1562
ਕਤੂਬਰ	-1563
▁ਤੁਹਾਡਾ	-1564
90	-1565
ਤਕ	-1566
▁ਲਾਭ	-1567
▁ਜੁਲਾਈ	-1568
ith	-1569
▁ਜੀਵਨ	-1570
▁ਨਵੇਂ	-1571
ੁੰਦਰ	-1572
▁ਲੜੀ	-1573
▁ਲਿਮਟਿਡ	-1574
▁40	-1575
▁ਯੂਜ਼ਰ	-1576
ਬਨ	-1577
pp	-1578
ਕ੍ਰ	-1579
▁Ph	-1580
▁ਰਸ	-1581
▁KDE	-1582
▁ਯੂਨੀ	-1583
▁ਨਤੀ	-1584
▁ਡੈਸ	-1585
▁ਕਾਰਡ	-1586
ATOR	-1587
.7	-1588
ੱਬਧ	-1589
▁ਦਿੱਤੀ	-1590
▁Sl	-1591
ie	-1592
ਰੀਆ	-1593
▁ਤਾਜ਼ਾ	-1594
▁wor	-1595
▁ਲਾਲ	-1596
▁TRAN	-1597
▁ਐਡਰ	-1598
▁ਲਿਸਟ	-1599
▁ਦਿਲ	-1600
▁ਪੈਕੇਜ	-1601
-6	-1602
ਾਜ	-1603
▁ਉਪਲੱਬਧ	-1604
ite	-1605
▁ਲਗ	-1606
▁ਰਿਪ	-1607
ATORS	-1608
▁ਸਤੰਬਰ	-1609
SLATORS	-1610
▁TRANSLATORS	-1611
▁ਐਂ	-1612
ada	-1613
ਐੱਮ	-1614
▁ਅੰਤ	-1615
▁ਉਹਨਾਂ	-1616
ue	-1617
▁ਸੌ	-1618
▁ਸਹਾਇਤਾ	-1619
▁ਕੇਵਲ	-1620
▁ਆਟੋਮੈਟਿਕ	-1621
▁ਅਗਸਤ	-1622
IN	-1623
ਾਲੇ	-1624
▁ਮਈ	-1625
▁ਇੰਜ	-1626
▁ਕੈਲ	-1627
▁ਮਹੀਨੇ	-1628
ase	-1629
ਵੇਟ	-1630
ure	-1631
ੈਸ਼	-1632
▁ਅਕਤੂਬਰ	-1633
HF	-1634
▁ਕੇਂ	-1635
ton	-1636
▁123	-1637
▁ਹੁੰਦੀ	-1638
ਵੋ	-1639
ਣੀਆਂ	-1640
ore	-1641
ਕਟਾਪ	-1642
eneric	-1643
ਜਵਾਨ	-1644
▁ਟੈਕ	-1645
▁ਨਿੱ	-1646
14	-1647
sp	-1648
▁ਨੁ	-1649
▁ਕਿਵੇਂ	-1650
ock	-1651
▁ਫਿਲਟਰ	-1652
ੀਆਈ	-1653
▁ਵਰਗ	-1654
▁ਵੇਰਵਾ	-1655
ਧਾਨ	-1656
▁ਬਰਾ	-1657
ਵੱਖ	-1658
▁ਰੇਲ	-1659
▁ਜਾਂਚ	-1660
▁ਪਸੰਦ	-1661
▁ਬਣਾਓ	-1662
▁ਭੇਜੋ	-1663
▁ਜੋੜ	-1664
▁ਖਾਲੀ	-1665
▁ਸਕਰੀਨ	-1666
26	-1667
▁ਨ੍ਯੂ	-1668
ਬਦ	-1669
▁le	-1670
▁ਸਹੀ	-1671
▁ਪਾਈਪ	-1672
▁LED	-1673
▁ਸ਼ੀ	-1674
▁ਮਿਲੀ	-1675
▁ਟੈਲੀ	-1676
▁ਯਾਤਰਾ	-1677
▁ਤਕਨੀਕੀ	-1678
▁ਕੋਸ਼ਿਸ਼	-1679
▁ਦਿੰਦਾ	-1680
▁ਭਰ	-1681
▁ਸਿੰ	-1682
ਾਊ	-1683
▁ਡੈਸਕਟਾਪ	-1684
enericName	-1685
▁ਮੰ	-1686
▁ਸਾਹ	-1687
▁ਡਿਜ਼ਾਈਨ	-1688
.,	-1689
▁ਮੰਨ	-1690
▁ਇਲਾਜ	-1691
ੋਜੈਕਟ	-1692
▁86	-1693
abel	-1694
▁ਛੋਟ	-1695
▁ਆਖਰੀ	-1696
▁ਸਮੀਖਿਆ	-1697
▁ਜਿੱਥੇ	-1698
ym	-1699
▁ਯਕ	-1700
▁ਅਸਲ	-1701
▁ਤੁਰ	-1702
ph	-1703
▁ਕਾਰੋ	-1704
▁(3	-1705
▁ਮਾਰਚ	-1706
▁ਸਮਰੱਥਾ	-1707
ff	-1708
▁ਦਬਾਅ	-1709
▁No	-1710
▁ਲਗਾ	-1711
▁ਸਬ	-1712
▁ਸੰਚਾਰ	-1713
29	-1714
17	-1715
ਦਾਹ	-1716
▁ਜਾਓ	-1717
TM	-1718
ੰਡਰ	-1719
▁ਰੱਖੋ	-1720
ਮਾਂ	-1721
▁ਮੌਜੂਦ	-1722
▁Al	-1723
▁j	-1724
▁»	-1725
▁ਮਿੰਟ	-1726
ark	-1727
▁ਯਾ	-1728
▁what	-1729
▁ਅਪ੍ਰ	-1730
▁ਰੁ	-1731
ੇਲ੍ਹ	-1732
▁ਨਵੀਂ	-1733
ss	-1734
ਤਾਂ	-1735
▁The	-1736
▁Sp	-1737
▁ਅੱਜ	-1738
ise	-1739
▁ਸਪਲ	-1740
▁ਪਾਠ	-1741
▁ਪ੍ਰਸ	-1742
ਿਸਟ	-1743
▁ਕਨ	-1744
▁Vess	-1745
▁Vessoft	-1746
ings	-1747
ng	-1748
▁ch	-1749
▁ਚਮ	-1750
▁ਮਹੱਤ	-1751
▁al	-1752
▁ਧਿਆਨ	-1753
we	-1754
ਧਾ	-1755
ਾਂਡ	-1756
▁ਬੱਚੇ	-1757
▁ਤਕਨਾਲ	-1758
▁ਨੌਜਵਾਨ	-1759
▁ਐਨ	-1760
gle	-1761
ੈਕਟ੍ਰ	-1762
▁ਨਵੰਬਰ	-1763
▁ਕਰੇਗਾ	-1764
ina	-1765
ਾਇਡ	-1766
ਸ਼ਨੀ	-1767
▁cond	-1768
65	-1769
ਮੂ	-1770
▁ਮਿਨ	-1771
▁ਲੈਣ	-1772
ਈਆ	-1773
any	-1774
ook	-1775
▁21	-1776
▁ਰਿ	-1777
act	-1778
ਵਾਸ	-1779
▁ਝਲਕ	-1780
▁sh	-1781
ਪੂਰਨ	-1782
▁ਪੱਧਰ	-1783
ਤਲ	-1784
atch	-1785
ਪੁੱਟ	-1786
▁ਪਿਛਲੇ	-1787
ਵਰਸ	-1788
▁ਗੂ	-1789
ਸਟਿਕ	-1790
ਚੇ	-1791
ਬੋ	-1792
▁ਅਪ੍ਰੈਲ	-1793
▁ਚੌੜਾਈ	-1794
▁ਭੋਜਨ	-1795
▁ਸਥਾਪ	-1796
▁23	-1797
ਡਿੰਗ	-1798
oll	-1799
▁ਲਾਇ	-1800
"&	-1801
ਐਮ	-1802
ਵੀਰ	-1803
▁Ar	-1804
▁ਸਕਿਆ	-1805
ult	-1806
▁ਹਵਾਈ	-1807
der	-1808
ick	-1809
▁'%	-1810
▁ਪਰਬੰਧ	-1811
▁ਸੁਰੱਖਿਅਤ	-1812
▁ਬੁ	-1813
ੀਨੋ	-1814
▁ਸਪਲਾਇਰ	-1815
▁ਪ੍ਰੋਗਰਾਮ	-1816
ਕਰਣ	-1817
ੈਕਟਰ	-1818
ਤਰੀ	-1819
ੈੱਕ	-1820
▁28	-1821
▁label	-1822
uk	-1823
▁ਛੁ	-1824
▁ਅੱਖ	-1825
ਲੇਟ	-1826
▁ਕੱਟ	-1827
▁ਸਰਕਾਰ	-1828
▁ਪਾਸਵਰਡ	-1829
ਹਾਜ਼	-1830
ਜਲੀ	-1831
▁ਟਾਈਮ	-1832
▁ਕੁੰਜੀ	-1833
:00	-1834
▁ਗਤੀ	-1835
▁ਸੈਂ	-1836
ver	-1837
▁ਸਪਲਾਈ	-1838
▁ਕੁਨੈਕਸ਼ਨ	-1839
▁ਮਿਤੀ	-1840
▁ਮਿੱ	-1841
ਜ਼ੇ	-1842
▁ਰੋਕ	-1843
74	-1844
ਫੋਨ	-1845
ਾਇਟ	-1846
੍ਰੀ	-1847
atus	-1848
▁ਤਰੀ	-1849
▁ਡਾਇਰ	-1850
▁ਸਲਾਟ	-1851
ੂਮ	-1852
hen	-1853
ੱਡੀ	-1854
ਕਾਸ਼	-1855
▁ਬਦਲੋ	-1856
▁ਅਜਿਹੇ	-1857
▁ਦਸੰਬਰ	-1858
▁×	-1859
▁ਗੋਲ	-1860
ype	-1861
ਾਂਸ	-1862
▁ਵਿਗ	-1863
SO	-1864
ef	-1865
▁GPS	-1866
ਹਿੰ	-1867
ਫੀ	-1868
ਲਾਸ	-1869
▁ਸਰਵ	-1870
ਾਲਾ	-1871
▁ਹਿੱਸੇ	-1872
▁ਓਪ	-1873
▁ਮੂਲ	-1874
▁ਰੋਡ	-1875
▁ਮਹੱਤਵ	-1876
ਖ਼	-1877
▁ਤੋ	-1878
76	-1879
ੈਗ	-1880
▁z	-1881
rig	-1882
ਤਾਬ	-1883
▁ਪੂਰ	-1884
▁ਲੰਬਾਈ	-1885
▁ਕਿਉਂਕਿ	-1886
▁ਸਮੱਸਿਆ	-1887
ੇਰ	-1888
▁ਨਿੱਜੀ	-1889
▁ਅਨੁਸਾਰ	-1890
irls	-1891
▁ਟੂਲ	-1892
▁ਗੁਰੂ	-1893
▁ਮੱ	-1894
▁ਲਾਈਟ	-1895
▁ਹਮੇਸ਼	-1896
▁ਯੂਨੀਵਰਸ	-1897
ਹੀ	-1898
ਤਾਵੇ	-1899
sthis	-1900
▁ਕੁੱਲ	-1901
▁ਪੁਰਾ	-1902
▁whatsthis	-1903
▁ਟੇ	-1904
▁ਰਾਖਵੇਂ	-1905
ets	-1906
▁ਇਲ	-1907
ੋਜਨਾ	-1908
▁ਜਹਾਜ਼	-1909
ah	-1910
ਬਧ	-1911
▁ਚਾਲ	-1912
▁ਲਿੰਕ	-1913
ਰੀਜ਼	-1914
ੇਟਿੰਗ	-1915
ru	-1916
ੋਰੀ	-1917
▁ਸੁਨੇਹੇ	-1918
▁ਤਕਨਾਲੋਜੀ	-1919
▁ਵਿਸ਼ੇਸ਼ਤਾ	-1920
▁ਵਧਾ	-1921
▁ਪਹਿਲੀ	-1922
▁ਮੈਨੇਜ	-1923
▁ਜ਼ਰੂਰੀ	-1924
▁condition	-1925
▁ਮਾਪ	-1926
▁ਸਫ਼ਾ	-1927
▁ਹੋਈ	-1928
▁ਗਲਤ	-1929
▁ਭਰੋ	-1930
▁ਇਕੱ	-1931
▁ਕਾਲੇ	-1932
▁ਵਾਪਸ	-1933
▁ਸਧਾਰਨ	-1934
▁ਬਾਲਗ	-1935
▁ਪਲਾਸਟਿਕ	-1936
ram	-1937
rance	-1938
▁ਕਰਦੀ	-1939
▁ਸ਼ਬਦ	-1940
▁ਡਿਜ਼ਾਇਨ	-1941
▁ਥੀਮ	-1942
▁ਸਿਲ	-1943
▁ਕਾਰੋਬਾਰ	-1944
ok	-1945
ਨੂੰ	-1946
▁you	-1947
ech	-1948
ress	-1949
▁ਸਬੰਧ	-1950
▁ਸੰਭਾਲੋ	-1951
▁ਤਸਵੀਰ	-1952
▁ਬਿਜਲੀ	-1953
98	-1954
ਿੱਚ	-1955
▁ww	-1956
▁www	-1957
▁ਸੰਬੰਧ	-1958
-4	-1959
eger	-1960
▁ਲੋਕਾਂ	-1961
ਅੱਪ	-1962
ਰੀਰ	-1963
▁ਉਮਰ	-1964
▁ਉਪਲਬਧ	-1965
▁ਵਧੇਰੇ	-1966
▁Casino	-1967
▁ਟੀਮ	-1968
▁CD	-1969
▁500	-1970
▁ਕਾਨੂੰ	-1971
▁ਦਿੱਤੇ	-1972
▁ਯਕੀਨੀ	-1973
▁ਦਸਤਾਵੇ	-1974
21	-1975
ੰਸ	-1976
▁ਡੇ	-1977
oogle	-1978
▁ਨੁਕਸ	-1979
ight	-1980
▁ਪੈਦਾ	-1981
▁ਪ੍ਰਬੰਧਨ	-1982
HFW	-1983
ire	-1984
▁ਕੇਂਦਰ	-1985
ਲਟੀ	-1986
▁ਸਰਕਾਰੀ	-1987
ਿਸਟਰ	-1988
TS	-1989
ref	-1990
▁ਵਜ	-1991
integer	-1992
▁ਟਿਊ	-1993
ਕਾਨ	-1994
ਬੱਧ	-1995
▁1.	-1996
ime	-1997
ੈਂਕ	-1998
▁ਯੂਨ	-1999
▁ਫੇਲ੍ਹ	-2000
ach	-2001
▁Canada	-2002
uss	-2003
▁ਸੁੰਦਰ	-2004
iew	-2005
▁ਆਵਾ	-2006
▁ਕਵਰ	-2007
▁Pl	-2008
▁ਬਟਨ	-2009
▁ਵੱਡਾ	-2010
▁ਤਰੀਕੇ	-2011
▁ਛੋ	-2012
▁ਲੜ	-2013
▁ਧੰਨ	-2014
▁ਮਾਸ	-2015
ਪਾਓ	-2016
▁ਛੋਟੇ	-2017
▁ਵਿਆਪਕ	-2018
ਂਟ	-2019
▁ਲਿਖਣ	-2020
ਸ਼ਲ	-2021
▁ਤਜਰ	-2022
▁ਇੰਟਰਨ	-2023
▁ਨਿਗਰ	-2024
▁ਯੋਜਨਾ	-2025
▁ਰਾਸ਼ਟਰੀ	-2026
yn	-2027
ਲੋਂ	-2028
▁ph	-2029
ੈਸੀਨੋ	-2030
▁ਵੱਡੀ	-2031
▁ਮਿਆਰੀ	-2032
▁ਚੇ	-2033
▁ਆਈਟ	-2034
▁ਮੰਗ	-2035
▁ਇਮੋਜੀ	-2036
▁ਕੂਕੀਜ਼	-2037
▁ਪੈਸ	-2038
27	-2039
▁ਕੋਰਸ	-2040
▁ਸਰਵਿਸ	-2041
▁ਯੂਨੀਵਰਸਿਟੀ	-2042
33	-2043
55	-2044
▁ਬੁੱਕ	-2045
emo	-2046
▁ਰਜ	-2047
▁ਵੇਖਣ	-2048
▁ਜਾਂਦੀ	-2049
oad	-2050
▁Com	-2051
▁ਜ਼ਿਆਦਾ	-2052
▁ਉਦਯੋਗਿਕ	-2053
▁ਕਦੇ	-2054
▁ਮਾਈ	-2055
LO	-2056
▁ਜ਼ਿਲ	-2057
▁ਤਿੰਨ	-2058
▁ਪਿਆਰ	-2059
ood	-2060
ਾਂਗ	-2061
▁ਫੀਚਰ	-2062
▁ਹਾਲਤ	-2063
▁ਸੁਧਾਰ	-2064
▁ਐਡਰੈੱਸ	-2065
ਰਾਕ	-2066
▁sp	-2067
▁ਦਸਤਾਵੇਜ਼	-2068
yl	-2069
▁ਔਰਤ	-2070
▁ਟੈਟੂਕ	-2071
--	-2072
ਾਈਵੇਟ	-2073
▁ਮਾਰਕੀ	-2074
▁ਮੈਨੇਜਰ	-2075
ਮਾਣ	-2076
▁ਵਜੋਂ	-2077
ਭੋਗ	-2078
▁ਨਿਸ਼	-2079
opy	-2080
▁ਚੀਜ਼	-2081
ਿੱਧ	-2082
▁ਪ੍ਰੀ	-2083
▁ਸੰਭਵ	-2084
:0	-2085
ux	-2086
▁ਅੰਕ	-2087
ੋਲਟ	-2088
▁ਤੁਰੰਤ	-2089
▁ਅਧਿਕਾਰ	-2090
▁ਸਿਖਲਾਈ	-2091
▁26	-2092
▁ਬਲਾ	-2093
▁ਟਿਕਾ	-2094
▁ਟੈਕਸਟ	-2095
ੌਲ	-2096
ਾਰਾ	-2097
▁Hol	-2098
▁ਸਾਂ	-2099
obile	-2100
▁ਦਵਾਈ	-2101
▁ਵਿਕਸ	-2102
▁ਹਾ	-2103
▁ਬਾਰ	-2104
▁ਪਲੇਟ	-2105
emoji	-2106
▁ਸ਼ੇਅਰ	-2107
▁ਹੋਸਟ	-2108
▁ਜ਼ਰੂਰ	-2109
▁ਓਪਰੇ	-2110
ਛਾਣ	-2111
▁Pro	-2112
erm	-2113
ool	-2114
▁ਛੁਪਾਓ	-2115
▁ਸ਼੍ਰੇ	-2116
▁ਸੰਸਾਰ	-2117
ੋਂਟ	-2118
ਉਂਦਾ	-2119
▁ਵਜੇ	-2120
▁ਪੇਸ਼ੇ	-2121
ਜ਼ਨ	-2122
▁ਕਾਪੀ	-2123
▁ਵੇਖਾਓ	-2124
▁ਹਿੱਸਾ	-2125
▁ਸੰਗੀ	-2126
orm	-2127
ਕਰਨ	-2128
▁ਮੀਟਰ	-2129
ਪੇ	-2130
ਰਚ	-2131
.201	-2132
▁ਕੈਮ	-2133
▁ਥਾਂ	-2134
▁ਮੁਹੱ	-2135
▁ਸਲਾਹ	-2136
▁ਹੇਠਾਂ	-2137
59	-2138
▁ਤੇਲ	-2139
▁ਆਡੀਓ	-2140
▁ਭਲਾਈ	-2141
▁ਰੱਖਣ	-2142
▁https	-2143
▁ਚੈੱਕ	-2144
▁ਹਾਰਡ	-2145
▁ਉਪਭੋਗ	-2146
ਫਰ	-2147
▁world	-2148
RL	-2149
▁do	-2150
▁ਸਾਡਾ	-2151
▁ਸੀਮਾ	-2152
GenericName	-2153
ix	-2154
real	-2155
▁ਬਿਨ	-2156
▁ਇਲੈਕਟ੍ਰ	-2157
▁XX	-2158
▁ਜਾਵੇ	-2159
38	-2160
▁be	-2161
▁ਸਿਟੀ	-2162
▁ਹੋਣਾ	-2163
▁ਪੋਰਟਲ	-2164
▁ਸੰਗੀਤ	-2165
▁ਨਿਗਰਾਨੀ	-2166
ਫਤ	-2167
ines	-2168
▁ਸਰੀਰ	-2169
ace	-2170
▁ਜਰ	-2171
▁ਉਦਾਹ	-2172
▁ਮੁਹੱਈਆ	-2173
ਗਰੀ	-2174
▁ਰਾਹੀਂ	-2175
▁ਰਿਕ	-2176
ਫ਼ੀ	-2177
▁ਆਉਟ	-2178
ania	-2179
▁ਜਾਂਦੇ	-2180
▁ਪ੍ਰੋਜੈਕਟ	-2181
▁ਸੁਝ	-2182
az	-2183
ਲੂ	-2184
▁(%	-2185
▁ਮਾਹ	-2186
▁ਫਾਈਬਰ	-2187
▁ਖੋਲ੍ਹੋ	-2188
▁ਰਿਪੋਰਟ	-2189
ਜ਼ਬ	-2190
▁Ad	-2191
▁ਕੌ	-2192
▁ਮੁਕ	-2193
ablet	-2194
ਠੇ	-2195
▁ਫੋਂਟ	-2196
▁ਸ਼ੈ	-2197
▁ਇਤ	-2198
▁ਵਾਸ	-2199
▁ਕਲਾਸ	-2200
▁ਇਹਨਾਂ	-2201
▁//	-2202
▁ਮੇਨ	-2203
ਐੱਨ	-2204
▁ਮਰ	-2205
▁New	-2206
▁ਦਿਵ	-2207
▁ਦੱਸ	-2208
ml	-2209
ord	-2210
rom	-2211
▁ਨਮੂ	-2212
▁ਅਗਵਾਈ	-2213
▁ਸ਼ੁਰੂਆ	-2214
▁ਅਸਲੀ	-2215
ecast	-2216
▁27	-2217
/201	-2218
36	-2219
▁forecast	-2220
▁ਸੂਚਨਾ	-2221
▁ਪੇਸ਼ੇਵਰ	-2222
▁ਬੋਰਡ	-2223
▁ਮਨੁੱਖ	-2224
▁ਪੜ	-2225
▁ਬਚ	-2226
▁ਸਲ	-2227
▁ਤੇਜ਼	-2228
▁ਸ਼ਕਤੀ	-2229
▁ਹੋਵੇਗਾ	-2230
▁ਮਿ	-2231
▁ਨੀਤੀ	-2232
▁--	-2233
▁ਸੋਚ	-2234
ipp	-2235
▁ਰੌ	-2236
ject	-2237
-15	-2238
▁ਫੈ	-2239
▁ਖਿਡ	-2240
4)	-2241
rit	-2242
ਕਲਪ	-2243
▁ਡਾਈ	-2244
▁ਸਾਮ	-2245
▁ਕੁਦਰ	-2246
▁ਸਮਾਜ	-2247
▁ਸ਼ੁੱਧ	-2248
▁ਹਮੇਸ਼ਾ	-2249
8)	-2250
ਕਟਰ	-2251
▁not	-2252
22	-2253
▁ਇਕਾਈ	-2254
▁ਸਿੰਘ	-2255
39	-2256
te	-2257
ari	-2258
▁ਹੱਥ	-2259
▁ਵਿਚਕਾਰ	-2260
ੰਭ	-2261
▁ਪੰਨਾ	-2262
▁ਮੈਟ	-2263
color	-2264
▁Cl	-2265
▁ਸਫ	-2266
",	-2267
ee	-2268
ਮੁ	-2269
ots	-2270
ੰਦੀ	-2271
ited	-2272
▁ਵਾਇਰ	-2273
▁ਸ਼੍ਰੇਣੀ	-2274
ys	-2275
old	-2276
ਕਿਰ	-2277
▁ISO	-2278
▁ਟਰੈਕਰ	-2279
CH	-2280
100	-2281
ਰੇਟਰ	-2282
▁ਪਹਿਲੇ	-2283
ens	-2284
ਊਂਡ	-2285
▁ਕਮਾਂਡ	-2286
▁start	-2287
VD	-2288
ਾਲਟ	-2289
▁ਕਾਰਪ	-2290
▁ਦੋਸਤ	-2291
▁ਕੈਸੀਨੋ	-2292
▁ਪ੍ਰਦਰ	-2293
▁ਡਾਇਰੈਕਟਰੀ	-2294
ces	-2295
ਕਸੀ	-2296
▁ਦਿਵਸ	-2297
CO	-2298
ਸਲ	-2299
▁ਸਕੂਲ	-2300
▁ag	-2301
▁ਰੋਲ	-2302
▁ਰਜਿਸਟਰ	-2303
ary	-2304
▁ਅਧੀਨ	-2305
ੌਗ	-2306
▁ਸਵੀ	-2307
▁ਜਿਨ	-2308
▁ਸੰਗ	-2309
▁ਵਿਆਹ	-2310
▁ਸੁਝਾਅ	-2311
ਤੂ	-2312
ਨਾਮ	-2313
▁ਮੇਰੀ	-2314
ਾਰਤ	-2315
▁ਚੰਗੀ	-2316
iff	-2317
▁ਪਤ	-2318
▁ਨੋਟ	-2319
aw	-2320
eed	-2321
ਜਾਣ	-2322
▁ਅਫ	-2323
▁ਮੋਡ	-2324
▁ਪਛਾਣ	-2325
▁inmenu	-2326
\\	-2327
▁29	-2328
▁Bl	-2329
ਯੂਆਰ	-2330
▁ਡਿਫ	-2331
vin	-2332
▁ਸਟੋਰ	-2333
▁ਸ਼ੀਟ	-2334
▁ਪੜ੍ਹੋ	-2335
LE	-2336
ਚਕ	-2337
▁he	-2338
▁ਵਾਲਾ	-2339
ੂਹ	-2340
ਟਰਨ	-2341
ਡਿਆ	-2342
▁ਜਰਮ	-2343
▁ਡਬਲ	-2344
▁ਨਿਰਮਾਣ	-2345
ks	-2346
▁ਸੰਸਥਾ	-2347
ਉਂਦੇ	-2348
▁list	-2349
▁ਚੰਗਾ	-2350
▁ਈਯੂਆਰ	-2351
▁ਪ੍ਰਸਿੱਧ	-2352
CE	-2353
ਦਮ	-2354
ich	-2355
▁An	-2356
▁ਟੈਬ	-2357
▁ਮੈਡੀ	-2358
▁ਉਪਕਰਣ	-2359
▁ਐਚ	-2360
▁ਫਾਰਮੈਟ	-2361
ਸ਼ੀਆ	-2362
▁ਨਤੀਜੇ	-2363
▁80	-2364
▁th	-2365
ਦਾਰਥ	-2366
▁ਪਦਾਰਥ	-2367
▁ਖਤਮ	-2368
▁ਪਾਊ	-2369
▁user	-2370
▁ਧੋ	-2371
ਜ਼ਿਟ	-2372
ੂਨੀ	-2373
▁ਡਾਉ	-2374
ake	-2375
ੱਖਣ	-2376
▁ਪੱਤਰ	-2377
▁ਅਕ	-2378
▁ਉਲ	-2379
▁ਗੋ	-2380
ਵਾਈਸ	-2381
ਪਰੈਸ	-2382
▁ਹਵਾ	-2383
▁ਮਹੱਤਵਪੂਰਨ	-2384
ne	-2385
▁ਹਵ	-2386
____	-2387
▁ਜੇਨ	-2388
▁ਕਹਿੰ	-2389
77	-2390
put	-2391
▁ਖ਼ੁ	-2392
▁ਸਾਫ਼	-2393
▁ਮਾਮ	-2394
ਧਾਰਿਤ	-2395
▁ਪਾਊਡਰ	-2396
ਛੀ	-2397
▁1,	-2398
ੁਕਤ	-2399
▁300	-2400
▁ਕਾਫ਼ੀ	-2401
▁ਇੰਪੋਰਟ	-2402
500	-2403
ਸ਼ਟ	-2404
▁ਸੱਚ	-2405
▁ਕਸਟਮ	-2406
MA	-2407
▁1'	-2408
▁ਕੰਪਿਊ	-2409
▁ਮੰਨਿਆ	-2410
▁ਡਾਉਨਲੋਡ	-2411
88	-2412
▁‘	-2413
▁ਡੌ	-2414
▁ਟੈਗਸ	-2415
▁ਊ	-2416
▁ad	-2417
ਸ਼ੀਲ	-2418
▁ਯਾਦ	-2419
▁ਪਰਿੰਟ	-2420
ਗੁ	-2421
▁ਨਿਵੇ	-2422
▁ਵਰਗੇ	-2423
5)	-2424
▁ਚੁ	-2425
▁ਵੋਲਟ	-2426
▁ਆਸਾਨ	-2427
▁ਵਿਰੋ	-2428
ert	-2429
ਿਲੀ	-2430
▁ਕੱ	-2431
ਿੰਦੂ	-2432
▁are	-2433
ਲੇਸ਼ਨ	-2434
▁ਘੱਟੋ	-2435
▁ਡਿਵਾਈਸ	-2436
ੰਟੀ	-2437
▁or	-2438
ਜ਼ਾਰ	-2439
ਥਨ	-2440
ery	-2441
ਗਿੱਛ	-2442
▁ਹਰੇ	-2443
▁ਫਾਈਲ	-2444
▁ਯੂਨਿਟ	-2445
▁ਧੰਨਵਾਦ	-2446
▁IP	-2447
▁Copy	-2448
▁ਨੁਕਸਾਨ	-2449
ੇਮ	-2450
▁ਭੂ	-2451
▁ਕੇਸ	-2452
ਕਿਰਿਆ	-2453
▁ਮੁਫਤ	-2454
▁ਮੇਨੂ	-2455
ਐਚ	-2456
ਤਾਲ	-2457
▁an	-2458
▁ਅੱਖਰ	-2459
▁ਬਾਕਸ	-2460
ਦਾਇ	-2461
▁ਪਾਰਟੀ	-2462
▁ਲੱਗਦਾ	-2463
own	-2464
▁ਮਾਊ	-2465
▁ਸਰਵੇ	-2466
ਿਜ਼	-2467
▁ਐਫ	-2468
hats	-2469
▁ਸਪੀ	-2470
▁ਬਿਨਾਂ	-2471
▁ਸਕ੍ਰ	-2472
▁ਪ੍ਰਾਈਵੇਟ	-2473
ated	-2474
▁ਪਾਰਕ	-2475
▁ਸਾਂਝ	-2476
ਊਲ	-2477
ਬ੍ਰ	-2478
▁ਚਲਾਓ	-2479
OS	-2480
▁ਕੈਨ	-2481
.)	-2482
▁dur	-2483
▁ਰੱਦ	-2484
▁ਪਸੰਦੀ	-2485
46	-2486
ਸਟੀ	-2487
▁ਛੇ	-2488
▁ਡਿਫਾਲਟ	-2489
▁ਗੈਰ	-2490
▁status	-2491
tte	-2492
▁ਕੱਪ	-2493
▁ਸਵੈ	-2494
ੈਟਰੀ	-2495
▁ਔਸਤ	-2496
▁ਰੋਜ਼	-2497
▁ਕਾਰਬਨ	-2498
▁ਅੰਦਰੂਨੀ	-2499
ਕਰੇ	-2500
ਚਿਤ	-2501
▁ਰੈ	-2502
NASS	-2503
▁ਬੈਗ	-2504
port	-2505
▁Mar	-2506
▁ਕੁਆ	-2507
▁cont	-2508
▁ਨਿਯਮ	-2509
ਕੂਮੈਂਟ	-2510
ਪਾਜ਼ਿਟ	-2511
▁Mobile	-2512
▁ਕੈਲੰਡਰ	-2513
▁ਵਿਦਿਆਰ	-2514
,.	-2515
ale	-2516
ute	-2517
ਬੋਰਡ	-2518
▁Phone	-2519
▁ਪਰਮੇਸ਼	-2520
ਲੇਅ	-2521
ੰਮਲ	-2522
▁ਪਿੱਛ	-2523
▁ਯਿਸੂ	-2524
ਲਾਗ	-2525
▁ex	-2526
▁ਡਿਪਾਜ਼ਿਟ	-2527
pa	-2528
ions	-2529
uang	-2530
▁ਪੱਟੀ	-2531
▁ਡਾਕਟਰ	-2532
ਤਨ	-2533
ਿਯ	-2534
ਿਸਤ	-2535
▁ago	-2536
▁tool	-2537
LONASS	-2538
▁ਆਈਕਾਨ	-2539
▁ਜ਼ਿਲ੍ਹਾ	-2540
1,	-2541
ory	-2542
uit	-2543
▁ਚਾਲੂ	-2544
ਕੁ	-2545
net	-2546
onth	-2547
▁ਪੈਕਿੰਗ	-2548
▁ਜੇਨਰੇਟਰ	-2549
ਕੋਡ	-2550
▁but	-2551
▁ਬਾਹਰੀ	-2552
▁ਕਲਾਕਾਰ	-2553
ownl	-2554
▁kde	-2555
▁1000	-2556
▁ਨੇੜੇ	-2557
ਮੀਨ	-2558
▁90	-2559
▁ਬਸ	-2560
▁ਚਾਨ	-2561
▁ਪ੍ਰਕਾਸ਼	-2562
ਯਾਤ	-2563
▁ਮੈਕ	-2564
▁ਵਰਡ	-2565
-2018	-2566
▁ਆਪਣਾ	-2567
▁ਇਲਾਵਾ	-2568
▁ਟੈਟੂਸ	-2569
Ind	-2570
ਕਾਂ	-2571
ਰਜਾ	-2572
▁ਉੱਪਰ	-2573
imited	-2574
▁ਪਿਛਲਾ	-2575
▁ਵਿਕਲਪ	-2576
▁ਪ੍ਰਕਿਰਿਆ	-2577
▁Fl	-2578
▁sub	-2579
3)	-2580
tr	-2581
ਪਲ	-2582
ਅੰਦਰ	-2583
▁Free	-2584
4,	-2585
be	-2586
ਧੂ	-2587
▁ਪੌਦਾ	-2588
▁ਕਾਰਪੋਰੇ	-2589
▁ਵਾਤਾ	-2590
▁ਪਿੱਛੇ	-2591
ਦਨ	-2592
ਪਟ	-2593
ਭਰ	-2594
ਿਸੂਸ	-2595
▁with	-2596
6)	-2597
▁ਆਇ	-2598
rain	-2599
▁ਲੜੋ	-2600
▁ਸਕੀ	-2601
▁ਚੈਨਲ	-2602
▁ਸਿਰਫ਼	-2603
,,	-2604
ਏਥੇ	-2605
ਾਵਰ	-2606
http	-2607
urop	-2608
▁ਨਿੰਗ	-2609
▁ਵਿੰਡੋਜ਼	-2610
ੀਨੀਅਮ	-2611
▁ਮਹਿਸੂਸ	-2612
▁ਕੰਪਿਊਟਰ	-2613
▁Un	-2614
▁ਧਾਤ	-2615
▁Whats	-2616
▁ਘਟਾ	-2617
▁ਮੱਧ	-2618
▁ਫਿਲਮ	-2619
▁ਮੁਕੰਮਲ	-2620
78	-2621
ਿਓ	-2622
ater	-2623
ਿਹਾਸ	-2624
▁ਬਿਹ	-2625
ਭਵ	-2626
ਫੇਸ	-2627
ਮਾਲ	-2628
▁"%	-2629
onus	-2630
▁ਮਤਲ	-2631
▁ਯੂਰਪ	-2632
੍ਟ	-2633
eal	-2634
▁ਅਵ	-2635
▁ਐੱ	-2636
▁ਦੂਰ	-2637
▁ਪੈਨਲ	-2638
▁ਵਲੋਂ	-2639
▁ਸਿੱਖਿਆ	-2640
ube	-2641
ੂਰਜ	-2642
▁ਵੰਡ	-2643
han	-2644
▁pric	-2645
▁ਸਿੰਗ	-2646
48	-2647
kg	-2648
ਆਈ	-2649
▁And	-2650
▁ਸੁਆ	-2651
▁ਮਤਲਬ	-2652
▁ਸਾਈਨ	-2653
1)	-2654
tip	-2655
ਗਰਮ	-2656
▁NA	-2657
ਟੀਕਲ	-2658
▁ਪ੍ਰੋ	-2659
▁ਬਿੱਲ	-2660
▁option	-2661
af	-2662
▁ਨਿੰਗਬੋ	-2663
NI	-2664
ਅੰਤ	-2665
ਰਾਬ	-2666
▁You	-2667
ਕੁਲ	-2668
ਚਾਈ	-2669
▁ਸਾਈਜ਼	-2670
▁ਵਾਤਾਵਰ	-2671
ਭਗ	-2672
ਸੂ	-2673
▁as	-2674
▁ਹਲ	-2675
ਰੇਜ਼ੀ	-2676
49	-2677
DF	-2678
ero	-2679
ੱਕਰ	-2680
▁45	-2681
▁ਗਠ	-2682
▁ਬੀਟਾ	-2683
▁ਸਹੂਲ	-2684
▁DVD	-2685
ownload	-2686
▁ਇਤਿਹਾਸ	-2687
ਠਾ	-2688
ੇਡ	-2689
▁URL	-2690
▁gre	-2691
▁ਬਾਈ	-2692
row	-2693
▁ਤੀ	-2694
ੈਡਿਟ	-2695
▁col	-2696
elist	-2697
▁ਗਾਈਡ	-2698
ਸਮ	-2699
▁ਓਹ	-2700
▁ਸੈ	-2701
▁ਆਟੋ	-2702
▁100%	-2703
▁ਗਲਾਸ	-2704
uct	-2705
▁ਏਜ	-2706
▁	-2707
ਾ	-2708
ਰ	-2709
ਸ	-2710
ਕ	-2711
ੀ	-2712
ੇ	-2713
ਨ	-2714
ਲ	-2715
ਿ	-2716
ਤ	-2717
ਹ	-2718
ਦ	-2719
e	-2720
ਵ	-2721
ੋ	-2722
ਪ	-2723
ਮ	-2724
ਟ	-2725
ੰ	-2726
a	-2727
ੱ	-2728
ਜ	-2729
i	-2730
ੈ	-2731
o	-2732
t	-2733
n	-2734
.	-2735
ਂ	-2736
,	-2737
ਬ	-2738
਼	-2739
ੂ	-2740
ੁ	-2741
r	-2742
ਗ	-2743
0	-2744
s	-2745
ਅ	-2746
ਡ	-2747
ਆ	-2748
ਈ	-2749
ਇ	-2750
ਚ	-2751
m	-2752
1	-2753
l	-2754
ਣ	-2755
2	-2756
c	-2757
-	-2758
u	-2759
ਫ	-2760
ਖ	-2761
g	-2762
:	-2763
d	-2764
p	-2765
h	-2766
੍	-2767
ਉ	-2768
5	-2769
C	-2770
3	-2771
)	-2772
(	-2773
S	-2774
ਧ	-2775
y	-2776
k	-2777
ਭ	-2778
4	-2779
b	-2780
8	-2781
/	-2782
6	-2783
f	-2784
ਐ	-2785
9	-2786
w	-2787
A	-2788
P	-2789
N	-2790
7	-2791
ਯ	-2792
T	-2793
ੜ	-2794
D	-2795
ਥ	-2796
M	-2797
ੌ	-2798
।	-2799
'	-2800
L	-2801
_	-2802
E	-2803
v	-2804
R	-2805
ਓ	-2806
I	-2807
G	-2808
"	-2809
H	-2810
F	-2811
B	-2812
O	-2813
%	-2814
ਊ	-2815
ਛ	-2816
ਏ	-2817
;	-2818
x	-2819
W	-2820
ਘ	-2821
@	-2822
U	-2823
X	-2824
#	-2825
j	-2826
K	-2827
ਝ	-2828
V	-2829
&	-2830
ਠ	-2831
z	-2832
!	-2833
?	-2834
J	-2835
+	-2836
$	-2837
Y	-2838
–	-2839
*	-2840
Q	-2841
=	-2842
ਢ	-2843
q	-2844
Z	-2845
ਔ	-2846
©	-2847
[	-2848
]	-2849
£	-2850
\	-2851
°	-2852
€	-2853
}	-2854
{	-2855
”	-2856
“	-2857
•	-2858
~	-2859
а	-2860
—	-2861
»	-2862
×	-2863
р	-2864
’	-2865
е	-2866
о	-2867
੦	-2868
и	-2869
н	-2870
‘	-2871
с	-2872
➖	-2873
т	-2874
к	-2875
੨	-2876
੧	-2877
±	-2878
®	-2879
≤	-2880
🙏	-2881
·	-2882
л	-2883
`	-2884
️	-2885
é	-2886
ç	-2887
в	-2888
м	-2889
😂	-2890
ñ	-2891
→	-2892
ö	-2893
★	-2894
д	-2895
≥	-2896
п	-2897
੩	-2898
ੳ	-2899
ä	-2900
′	-2901
੯	-2902
฿	-2903
у	-2904
	-2905
Φ	-2906
ь	-2907
å	-2908
з	-2909
♪	-2910
👉	-2911
❤	-2912
👇	-2913
ā	-2914
­	-2915
॥	-2916
б	-2917
🚩	-2918
੮	-2919
💓	-2920
я	-2921
੫	-2922
ੲ	-2923
й	-2924
ü	-2925
μ	-2926
◆	-2927
г	-2928
●	-2929
✔	-2930
🔰	-2931
ч	-2932
	-2933
੪	-2934
🇴	-2935
🇱	-2936
📱	-2937
🔥	-2938
੬	-2939
ї	-2940
←	-2941
😍	-2942
¥	-2943
↑	-2944
🌟	-2945
	-2946
੭	-2947
â	-2948
í	-2949
У	-2950
á	-2951
à	-2952
ы	-2953
❖	-2954
^	-2955
ã	-2956
č	-2957
š	-2958
💥	-2959
«	-2960
α	-2961
🏻	-2962
【	-2963
】	-2964
Ω	-2965
ी	-2966
😘	-2967
ѕ	-2968
ī	-2969
	-2970
ж	-2971
द	-2972
中	-2973
👌	-2974
§	-2975
ि	-2976
💖	-2977
😊	-2978
ó	-2979
✅	-2980
文	-2981
🤣	-2982
ह	-2983
ê	-2984
ъ	-2985
、	-2986
🇫	-2987
🍁	-2988
̈	-2989
🇼	-2990
х	-2991
і	-2992
្	-2993
ų	-2994
φ	-2995
ц	-2996
