<unk>	0
<s>	0
</s>	0
<0x00>	0
<0x01>	0
<0x02>	0
<0x03>	0
<0x04>	0
<0x05>	0
<0x06>	0
<0x07>	0
<0x08>	0
<0x09>	0
<0x0A>	0
<0x0B>	0
<0x0C>	0
<0x0D>	0
<0x0E>	0
<0x0F>	0
<0x10>	0
<0x11>	0
<0x12>	0
<0x13>	0
<0x14>	0
<0x15>	0
<0x16>	0
<0x17>	0
<0x18>	0
<0x19>	0
<0x1A>	0
<0x1B>	0
<0x1C>	0
<0x1D>	0
<0x1E>	0
<0x1F>	0
<0x20>	0
<0x21>	0
<0x22>	0
<0x23>	0
<0x24>	0
<0x25>	0
<0x26>	0
<0x27>	0
<0x28>	0
<0x29>	0
<0x2A>	0
<0x2B>	0
<0x2C>	0
<0x2D>	0
<0x2E>	0
<0x2F>	0
<0x30>	0
<0x31>	0
<0x32>	0
<0x33>	0
<0x34>	0
<0x35>	0
<0x36>	0
<0x37>	0
<0x38>	0
<0x39>	0
<0x3A>	0
<0x3B>	0
<0x3C>	0
<0x3D>	0
<0x3E>	0
<0x3F>	0
<0x40>	0
<0x41>	0
<0x42>	0
<0x43>	0
<0x44>	0
<0x45>	0
<0x46>	0
<0x47>	0
<0x48>	0
<0x49>	0
<0x4A>	0
<0x4B>	0
<0x4C>	0
<0x4D>	0
<0x4E>	0
<0x4F>	0
<0x50>	0
<0x51>	0
<0x52>	0
<0x53>	0
<0x54>	0
<0x55>	0
<0x56>	0
<0x57>	0
<0x58>	0
<0x59>	0
<0x5A>	0
<0x5B>	0
<0x5C>	0
<0x5D>	0
<0x5E>	0
<0x5F>	0
<0x60>	0
<0x61>	0
<0x62>	0
<0x63>	0
<0x64>	0
<0x65>	0
<0x66>	0
<0x67>	0
<0x68>	0
<0x69>	0
<0x6A>	0
<0x6B>	0
<0x6C>	0
<0x6D>	0
<0x6E>	0
<0x6F>	0
<0x70>	0
<0x71>	0
<0x72>	0
<0x73>	0
<0x74>	0
<0x75>	0
<0x76>	0
<0x77>	0
<0x78>	0
<0x79>	0
<0x7A>	0
<0x7B>	0
<0x7C>	0
<0x7D>	0
<0x7E>	0
<0x7F>	0
<0x80>	0
<0x81>	0
<0x82>	0
<0x83>	0
<0x84>	0
<0x85>	0
<0x86>	0
<0x87>	0
<0x88>	0
<0x89>	0
<0x8A>	0
<0x8B>	0
<0x8C>	0
<0x8D>	0
<0x8E>	0
<0x8F>	0
<0x90>	0
<0x91>	0
<0x92>	0
<0x93>	0
<0x94>	0
<0x95>	0
<0x96>	0
<0x97>	0
<0x98>	0
<0x99>	0
<0x9A>	0
<0x9B>	0
<0x9C>	0
<0x9D>	0
<0x9E>	0
<0x9F>	0
<0xA0>	0
<0xA1>	0
<0xA2>	0
<0xA3>	0
<0xA4>	0
<0xA5>	0
<0xA6>	0
<0xA7>	0
<0xA8>	0
<0xA9>	0
<0xAA>	0
<0xAB>	0
<0xAC>	0
<0xAD>	0
<0xAE>	0
<0xAF>	0
<0xB0>	0
<0xB1>	0
<0xB2>	0
<0xB3>	0
<0xB4>	0
<0xB5>	0
<0xB6>	0
<0xB7>	0
<0xB8>	0
<0xB9>	0
<0xBA>	0
<0xBB>	0
<0xBC>	0
<0xBD>	0
<0xBE>	0
<0xBF>	0
<0xC0>	0
<0xC1>	0
<0xC2>	0
<0xC3>	0
<0xC4>	0
<0xC5>	0
<0xC6>	0
<0xC7>	0
<0xC8>	0
<0xC9>	0
<0xCA>	0
<0xCB>	0
<0xCC>	0
<0xCD>	0
<0xCE>	0
<0xCF>	0
<0xD0>	0
<0xD1>	0
<0xD2>	0
<0xD3>	0
<0xD4>	0
<0xD5>	0
<0xD6>	0
<0xD7>	0
<0xD8>	0
<0xD9>	0
<0xDA>	0
<0xDB>	0
<0xDC>	0
<0xDD>	0
<0xDE>	0
<0xDF>	0
<0xE0>	0
<0xE1>	0
<0xE2>	0
<0xE3>	0
<0xE4>	0
<0xE5>	0
<0xE6>	0
<0xE7>	0
<0xE8>	0
<0xE9>	0
<0xEA>	0
<0xEB>	0
<0xEC>	0
<0xED>	0
<0xEE>	0
<0xEF>	0
<0xF0>	0
<0xF1>	0
<0xF2>	0
<0xF3>	0
<0xF4>	0
<0xF5>	0
<0xF6>	0
<0xF7>	0
<0xF8>	0
<0xF9>	0
<0xFA>	0
<0xFB>	0
<0xFC>	0
<0xFD>	0
<0xFE>	0
<0xFF>	0
าร	-0
อง	-1
▁เ	-2
ี่	-3
ํา	-4
การ	-5
้า	-6
่า	-7
ที่	-8
ับ	-9
ระ	-10
ัน	-11
าย	-12
▁แ	-13
าม	-14
▁1	-15
ื่	-16
▁ส	-17
ละ	-18
ีย	-19
คร	-20
▁2	-21
อน	-22
้น	-23
ของ	-24
าน	-25
▁(	-26
ร์	-27
▁ค	-28
่ง	-29
ือ	-30
ิน	-31
▁ห	-32
าก	-33
ใน	-34
ลิ	-35
in	-36
รับ	-37
00	-38
ประ	-39
▁อ	-40
▁-	-41
่น	-42
ด้	-43
ัก	-44
▁ก	-45
▁ม	-46
ริ	-47
er	-48
ัง	-49
วาม	-50
้อ	-51
▁โ	-52
เล	-53
็น	-54
อร์	-55
▁ผ	-56
▁C	-57
▁ร	-58
่ว	-59
ู้	-60
▁S	-61
หล	-62
ติ	-63
ําห	-64
้ง	-65
ไม	-66
ัด	-67
เป	-68
อก	-69
าง	-70
▁บ	-71
ื่อง	-72
▁น	-73
กร	-74
ุณ	-75
่อ	-76
▁P	-77
an	-78
ให	-79
และ	-80
เท	-81
ได้	-82
▁3	-83
เร	-84
▁ต	-85
on	-86
▁,	-87
▁M	-88
▁จ	-89
▁&	-90
บบ	-91
ลิต	-92
ครื่อง	-93
้อง	-94
▁ว	-95
▁และ	-96
ความ	-97
ภา	-98
▁พ	-99
▁/	-100
gt	-101
▁การ	-102
▁ท	-103
▁ข	-104
▁ช	-105
ตร	-106
▁T	-107
▁A	-108
ี้	-109
หน	-110
มี	-111
ําหรับ	-112
ื่อ	-113
อบ	-114
ัว	-115
ใช	-116
งาน	-117
ิด	-118
or	-119
ไม่	-120
เก	-121
ั้ง	-122
ar	-123
าว	-124
่าง	-125
▁B	-126
▁L	-127
อย	-128
ุด	-129
าด	-130
้าน	-131
เป็น	-132
01	-133
รง	-134
หม	-135
ภาพ	-136
en	-137
ไป	-138
▁H	-139
es	-140
ภั	-141
เด	-142
at	-143
้ว	-144
็ก	-145
..	-146
▁ป	-147
กล	-148
าค	-149
▁R	-150
รม	-151
▁4	-152
▁D	-153
▁5	-154
ไฟ	-155
คุณ	-156
ผลิต	-157
al	-158
เช	-159
เม	-160
เพ	-161
▁ที่	-162
om	-163
▁ล	-164
วย	-165
่ม	-166
เน	-167
กับ	-168
ี่ย	-169
้ํา	-170
แบบ	-171
เข	-172
ดี	-173
มา	-174
เส	-175
▁ผู้	-176
ให้	-177
▁เครื่อง	-178
ั้น	-179
จาก	-180
เต	-181
สู	-182
ณฑ	-183
▁F	-184
▁G	-185
สําหรับ	-186
ing	-187
am	-188
วน	-189
ณฑ์	-190
ภัณฑ์	-191
ทํา	-192
ต์	-193
่าย	-194
่วน	-195
▁ประ	-196
ic	-197
▁ด	-198
่าน	-199
้อม	-200
ู่	-201
ูก	-202
ีน	-203
st	-204
▁I	-205
ต่อ	-206
▁E	-207
ค้า	-208
เอ	-209
เบ	-210
เว	-211
ใช้	-212
สิ	-213
ลา	-214
กัน	-215
...	-216
ัส	-217
▁ย	-218
จะ	-219
ุ่น	-220
▁ซ	-221
it	-222
รา	-223
▁6	-224
▁เป	-225
ทาง	-226
▁ความ	-227
ดย	-228
ol	-229
าร์	-230
ผู้	-231
▁0	-232
▁_	-233
าห	-234
ว่า	-235
ย์	-236
▁หม	-237
ึง	-238
เซ	-239
ทร	-240
รือ	-241
เทศ	-242
นี้	-243
อด	-244
ด้วย	-245
et	-246
วิ	-247
เครื่อง	-248
▁ของ	-249
▁201	-250
สูง	-251
el	-252
สม	-253
แล	-254
▁W	-255
บริ	-256
ส่วน	-257
ac	-258
้าง	-259
ออก	-260
▁ถ	-261
▁ใน	-262
าท	-263
ro	-264
il	-265
พิ	-266
เค	-267
ณ์	-268
โล	-269
วัน	-270
ําหน	-271
ุม	-272
ฉัน	-273
▁:	-274
ed	-275
ียน	-276
ส่ง	-277
น้ํา	-278
ตัว	-279
ล์	-280
ุก	-281
สุด	-282
นาด	-283
ทย	-284
เจ	-285
ทธ	-286
ติด	-287
▁มี	-288
ูล	-289
▁N	-290
▁8	-291
ชิ	-292
ารถ	-293
ต่	-294
น์	-295
ม่	-296
จัด	-297
ด์	-298
ปร	-299
เลข	-300
ักษ	-301
ื้อ	-302
▁คุณ	-303
สี	-304
ามารถ	-305
ัต	-306
▁ผลิต	-307
รี	-308
▁10	-309
าะ	-310
ึ่ง	-311
ัญ	-312
็บ	-313
วด	-314
รร	-315
▁หมาย	-316
▁7	-317
่อง	-318
▁O	-319
▁ไม่	-320
▁เป็น	-321
มิ	-322
20	-323
▁หน	-324
ลัง	-325
ปล	-326
000	-327
ไร	-328
อล	-329
▁ๆ	-330
▁เพ	-331
กระ	-332
ื่น	-333
le	-334
▁ผลิตภัณฑ์	-335
ียง	-336
ิจ	-337
▁25	-338
re	-339
ั่น	-340
ad	-341
้อน	-342
สน	-343
ินค้า	-344
รก	-345
▁หมายเลข	-346
เหล	-347
▁สําหรับ	-348
ึ้น	-349
ุน	-350
ou	-351
ต้อง	-352
ี่ยว	-353
เตอร์	-354
ยน	-355
ิต	-356
▁ไ	-357
โร	-358
ัพ	-359
คน	-360
ส์	-361
10	-362
ูป	-363
ิง	-364
าล	-365
▁U	-366
กรรม	-367
▁เก	-368
▁เม	-369
▁9	-370
▁บริ	-371
ทธิ	-372
ot	-373
อย่าง	-374
ion	-375
ัย	-376
is	-377
ณะ	-378
id	-379
as	-380
ั่ว	-381
คล	-382
ch	-383
▁V	-384
วก	-385
ือน	-386
50	-387
ึก	-388
ุง	-389
ัท	-390
เรา	-391
ัติ	-392
โดย	-393
มพ	-394
ิล	-395
ประเทศ	-396
แส	-397
แล้ว	-398
ดง	-399
สินค้า	-400
▁เอ	-401
าคา	-402
ขึ้น	-403
มือ	-404
โน	-405
▁เข	-406
แต	-407
จีน	-408
สามารถ	-409
เง	-410
อะ	-411
ตั้ง	-412
หน้า	-413
อยู่	-414
ใจ	-415
ษัท	-416
เห	-417
ชา	-418
ใหญ	-419
▁K	-420
ียม	-421
สอบ	-422
รถ	-423
▁โรง	-424
ุป	-425
่อน	-426
้อมูล	-427
ใหญ่	-428
วม	-429
▁"	-430
ระบบ	-431
▁วัน	-432
ําน	-433
▁ได้	-434
ถึง	-435
กา	-436
นะ	-437
com	-438
▁หรือ	-439
โม	-440
ัล	-441
amp	-442
▁ฟ	-443
ri	-444
มัน	-445
เธ	-446
้นส่วน	-447
▁t	-448
อม	-449
ฟ้า	-450
หา	-451
เข้า	-452
▁เด	-453
ื้น	-454
▁12	-455
เภ	-456
ค์	-457
▁เล	-458
▁กล	-459
and	-460
ag	-461
▁(1	-462
โอ	-463
30	-464
▁s	-465
ไม้	-466
มาก	-467
ท์	-468
เงิน	-469
สิทธิ	-470
แก	-471
▁20	-472
▁ผู้ผลิต	-473
รุ่น	-474
▁ฉัน	-475
-1	-476
▁J	-477
กรณ์	-478
าหาร	-479
▁คร	-480
ดู	-481
นิ	-482
ent	-483
ในการ	-484
จุ	-485
ไซ	-486
บริการ	-487
ขาย	-488
ุปกรณ์	-489
ัม	-490
่วย	-491
▁p	-492
ผล	-493
ใหม่	-494
ดับ	-495
▁เว	-496
ที่มี	-497
▁*	-498
ชิ้นส่วน	-499
oo	-500
▁เรา	-501
ูมิ	-502
เย	-503
ั่ง	-504
▁ปี	-505
นํา	-506
ือง	-507
ow	-508
อื่น	-509
▁m	-510
าศ	-511
ur	-512
ือก	-513
▁c	-514
▁กระ	-515
าบ	-516
าคม	-517
พล	-518
ียว	-519
ไฟฟ้า	-520
ไทย	-521
60	-522
ชี	-523
ฐาน	-524
ใบ	-525
เร็	-526
ขนาด	-527
▁เส	-528
ทั้ง	-529
ig	-530
กัด	-531
▁สี	-532
สาร	-533
พร	-534
▁1.	-535
▁กร	-536
ED	-537
หมด	-538
ลง	-539
บน	-540
ษา	-541
▁มม	-542
▁b	-543
ุโร	-544
ap	-545
ไล	-546
ay	-547
▁เร	-548
ลูก	-549
▁Co	-550
ร้าง	-551
▁คน	-552
าส	-553
ําร	-554
ec	-555
ติก	-556
▁ราย	-557
ติดต่อ	-558
ุโรป	-559
ต่าง	-560
รอง	-561
25	-562
รูป	-563
▁โดย	-564
un	-565
▁บริษัท	-566
ut	-567
um	-568
ตาม	-569
หว	-570
หรือ	-571
ุ่ม	-572
▁ขนาด	-573
เล่น	-574
้าย	-575
ักษณะ	-576
ยัง	-577
แข	-578
ถาน	-579
จํา	-580
ิก	-581
คว	-582
▁ตัว	-583
he	-584
กลาง	-585
▁จาก	-586
▁d	-587
▁อย	-588
ang	-589
ิบ	-590
ิว	-591
▁เท	-592
หร	-593
ผลิตภัณฑ์	-594
แน	-595
เชีย	-596
▁หมายเลขชิ้นส่วน	-597
ตอน	-598
ียด	-599
▁ห้อง	-600
▁100	-601
ืน	-602
ab	-603
กํา	-604
โรง	-605
สาย	-606
▁หน้า	-607
ุต	-608
▁ประเภ	-609
กว่า	-610
ter	-611
ื่อน	-612
ชน	-613
▁บ้าน	-614
ปี	-615
us	-616
ome	-617
▁ไป	-618
ี่ยวกับ	-619
▁เช	-620
40	-621
▁15	-622
เวลา	-623
ูน	-624
▁LED	-625
ัตร	-626
▁แผ	-627
เพื่อ	-628
ผ่าน	-629
ัสด	-630
เอง	-631
▁จะ	-632
▁–	-633
ine	-634
-2	-635
มพ์	-636
อาหาร	-637
วจ	-638
ul	-639
▁ยุโรป	-640
80	-641
้ม	-642
12	-643
้งาน	-644
่ะ	-645
ข้อมูล	-646
ุรก	-647
เพิ	-648
ตะ	-649
.5	-650
▁ทํา	-651
ใช้งาน	-652
แผ	-653
▁เซ	-654
▁In	-655
ลาส	-656
▁พระ	-657
ชั่น	-658
▁มา	-659
เศ	-660
ir	-661
▁Re	-662
▁ลักษณะ	-663
os	-664
▁St	-665
ําหน่าย	-666
บร	-667
ha	-668
mm	-669
ิส	-670
▁30	-671
ญา	-672
▁ผม	-673
สร้าง	-674
▁โอ	-675
ายน	-676
แท	-677
หลด	-678
็ด	-679
วง	-680
ริง	-681
ค่า	-682
สุ	-683
ore	-684
ที	-685
นด์	-686
ภัย	-687
ีก	-688
16	-689
ของคุณ	-690
▁+	-691
สะ	-692
บรร	-693
ที่สุด	-694
หมาย	-695
.0	-696
ด้าน	-697
เหล็ก	-698
ใช่	-699
▁มัน	-700
เพิ่ม	-701
ทุก	-702
▁ราคา	-703
่วม	-704
เชื่อ	-705
้อย	-706
▁$	-707
ากาศ	-708
,000	-709
หลัก	-710
เปล	-711
หลัง	-712
ุรกิจ	-713
ร้อน	-714
ซี	-715
ht	-716
ัสดุ	-717
บุ	-718
นา	-719
ผ้า	-720
คุณภาพ	-721
.,	-722
op	-723
▁ประเทศ	-724
จําหน่าย	-725
ดา	-726
่วง	-727
รู้	-728
ยนต์	-729
เรียน	-730
โหลด	-731
ละเอ	-732
ละเอียด	-733
ดํา	-734
ซ์	-735
▁วิ	-736
แห	-737
ไลน์	-738
็ม	-739
รี่	-740
อฟ	-741
ริกา	-742
▁เจ	-743
ต้น	-744
แรง	-745
จัก	-746
คือ	-747
คม	-748
ําหนด	-749
ูด	-750
เร็ว	-751
เขา	-752
▁แล	-753
▁...	-754
▁จํา	-755
▁[	-756
ญิง	-757
ก็	-758
อะไร	-759
เล็ก	-760
บค	-761
▁Home	-762
ทํางาน	-763
พิมพ์	-764
ลาด	-765
15	-766
ถูก	-767
เนียม	-768
▁แต่	-769
▁Y	-770
ประเทศจีน	-771
▁f	-772
โลก	-773
นั้น	-774
ub	-775
พื้น	-776
ธี	-777
ia	-778
▁ให้	-779
่าว	-780
▁สาย	-781
▁หล	-782
one	-783
ไซต์	-784
▁X	-785
าที	-786
▁แบบ	-787
อา	-788
วี	-789
ต้องการ	-790
▁โรงงาน	-791
อนไลน์	-792
รรม	-793
.00	-794
เลือก	-795
ี่ยน	-796
หย	-797
▁18	-798
แสดง	-799
em	-800
ยะ	-801
ัคร	-802
ess	-803
▁11	-804
th	-805
▁19	-806
▁ด้วย	-807
แต่ง	-808
▁2019	-809
โต	-810
รับรอง	-811
ังก	-812
่อย	-813
SO	-814
สิทธิ์	-815
▁รถ	-816
▁ระ	-817
▁ภาพ	-818
iv	-819
▁ชุด	-820
ครง	-821
ที่ย	-822
หัส	-823
▁เขา	-824
▁จํากัด	-825
โก	-826
oc	-827
องค์	-828
▁เพื่อ	-829
ันธ	-830
▁16	-831
รอ	-832
ได้รับ	-833
▁x	-834
็บไซต์	-835
โปร	-836
▁(2	-837
▁แล้ว	-838
เคร	-839
กําหนด	-840
ราย	-841
แม	-842
▁50	-843
ภาย	-844
หลาย	-845
ลาสติก	-846
แสง	-847
ธรรม	-848
14	-849
ห้อง	-850
แรม	-851
▁ฮ	-852
เซอร์	-853
35	-854
hin	-855
บคุม	-856
▁w	-857
เฟ	-858
im	-859
ตรฐาน	-860
หนึ่ง	-861
เฉ	-862
เจ้า	-863
▁เธ	-864
td	-865
▁ซึ่ง	-866
โด	-867
ain	-868
ong	-869
ation	-870
.2	-871
ผม	-872
▁An	-873
เติ	-874
ตก	-875
ตัด	-876
▁24	-877
พัก	-878
ภูมิ	-879
ข้อ	-880
อิน	-881
็ต	-882
โย	-883
▁#	-884
อส	-885
ดอก	-886
ชาติ	-887
ิม	-888
ว์	-889
ct	-890
▁หมายเลขรุ่น	-891
เดิน	-892
แพ	-893
เศษ	-894
ํานวน	-895
ตุ	-896
ip	-897
▁ระบบ	-898
คํา	-899
สาห	-900
▁ประเภท	-901
ตา	-902
็อ	-903
▁ใบ	-904
of	-905
ภาษา	-906
รวม	-907
ริ่ม	-908
11	-909
▁กับ	-910
ชั้น	-911
▁2.	-912
ั๊	-913
ถือ	-914
▁บาท	-915
คิด	-916
ate	-917
ตร์	-918
IN	-919
ียบ	-920
สํา	-921
od	-922
ุตสาห	-923
ิ่ง	-924
หญิง	-925
ak	-926
อากาศ	-927
32	-928
▁200	-929
▁ทั้ง	-930
มาณ	-931
ราคา	-932
นน	-933
ard	-934
ุตสาหกรรม	-935
แรก	-936
เชื่อม	-937
็ง	-938
จักร	-939
เคล	-940
ลิก	-941
้องกัน	-942
ี่ป	-943
ีโอ	-944
เลย	-945
สวน	-946
นัก	-947
▁ดู	-948
ญี่ป	-949
กอบ	-950
ทั้งหมด	-951
ry	-952
บ้าน	-953
อุปกรณ์	-954
▁อุปกรณ์	-955
ี่ยม	-956
ชาย	-957
:00	-958
ญี่ปุ่น	-959
45	-960
▁ครั้ง	-961
▁ศ	-962
และการ	-963
ัฒ	-964
าวน์	-965
ต่ํา	-966
ers	-967
ตอนนี้	-968
18	-969
▁โทร	-970
ซื้อ	-971
เห็น	-972
จริง	-973
ไว	-974
แจ	-975
est	-976
▁ติดต่อ	-977
▁13	-978
75	-979
สิ่ง	-980
62	-981
▁ชิ	-982
โทร	-983
ควบคุม	-984
ูนย์	-985
ที่น	-986
ใส	-987
แต่	-988
og	-989
โนม	-990
ริม	-991
วันออก	-992
วิต	-993
▁น้ํา	-994
พร้อม	-995
19	-996
▁โปร	-997
▁ธ	-998
ัตโนม	-999
▁14	-1000
สมบ	-1001
แปล	-1002
ิดีโอ	-1003
ัตโนมัติ	-1004
หะ	-1005
ark	-1006
ปรับ	-1007
70	-1008
าคาร	-1009
ook	-1010
001	-1011
หาร	-1012
▁Ch	-1013
ack	-1014
บาย	-1015
ลิข	-1016
แกร	-1017
▁Sh	-1018
ผู้ผลิต	-1019
ฟรี	-1020
ตรวจ	-1021
เติม	-1022
ัพท์	-1023
เหม	-1024
▁แก	-1025
ลิขสิทธิ์	-1026
จากประเทศจีน	-1027
เด็ก	-1028
▁สม	-1029
ัฐ	-1030
▁คํา	-1031
เวอร์	-1032
ทด	-1033
▁ชื่อ	-1034
ขน	-1035
ศัพท์	-1036
▁ใช้	-1037
▁พร	-1038
▁l	-1039
13	-1040
ทะ	-1041
สถาน	-1042
▁ถึง	-1043
ล่า	-1044
eb	-1045
ซิ	-1046
ไข	-1047
ex	-1048
if	-1049
▁ส่วน	-1050
up	-1051
เปิด	-1052
ov	-1053
art	-1054
โมง	-1055
ําหนัก	-1056
บล	-1057
แข็ง	-1058
▁ข้อมูล	-1059
็อก	-1060
▁ขาย	-1061
ลังงาน	-1062
▁ข้อ	-1063
เบอร์	-1064
ra	-1065
ist	-1066
▁เย	-1067
▁ร้าน	-1068
▁ไฟ	-1069
▁g	-1070
พลาสติก	-1071
ie	-1072
ทาน	-1073
ลด	-1074
อดภัย	-1075
ภายใน	-1076
ช่วย	-1077
ทั่ว	-1078
้ําหนัก	-1079
ดัน	-1080
เปลี่ยน	-1081
สอง	-1082
ที่ดี	-1083
pc	-1084
▁สง	-1085
▁©	-1086
▁US	-1087
สาว	-1088
ชื่อ	-1089
65	-1090
-0	-1091
แฟ	-1092
90	-1093
โซ	-1094
ออกแบบ	-1095
ชม	-1096
ายุ	-1097
พิเศษ	-1098
ยก	-1099
▁ISO	-1100
ort	-1101
▁Z	-1102
เดียว	-1103
▁วัสดุ	-1104
ิค	-1105
แดง	-1106
ast	-1107
▁ลูก	-1108
▁บริการ	-1109
▁นาที	-1110
ลาย	-1111
พวก	-1112
ขาว	-1113
▁เวลา	-1114
▁h	-1115
ของเรา	-1116
จัดจําหน่าย	-1117
ความร้อน	-1118
เกี่ยวกับ	-1119
ind	-1120
ระดับ	-1121
ัป	-1122
▁17	-1123
ลูกค้า	-1124
รักษ	-1125
ูมิเนียม	-1126
▁เธอ	-1127
เลส	-1128
าวน์โหลด	-1129
ประกอบ	-1130
แค	-1131
ดาษ	-1132
เมริกา	-1133
ั่วโมง	-1134
ุล	-1135
ต้	-1136
▁Pro	-1137
▁นิ	-1138
▁3.	-1139
▁พร้อม	-1140
อัตโนมัติ	-1141
การผลิต	-1142
▁ผ้า	-1143
เก็บ	-1144
▁Read	-1145
าห์	-1146
บัน	-1147
ผิว	-1148
▁เอเชีย	-1149
▁“	-1150
ติดตั้ง	-1151
▁สามารถ	-1152
▁มีสินค้า	-1153
▁จัด	-1154
็ค	-1155
▁รี	-1156
ob	-1157
ปลอดภัย	-1158
ยาว	-1159
▁Ltd	-1160
ครั้ง	-1161
all	-1162
▁แผ่น	-1163
▁n	-1164
▁0.	-1165
3)	-1166
▁ท่าน	-1167
▁เหล	-1168
▁More	-1169
▁เกม	-1170
▁แท	-1171
ทุน	-1172
เป๋	-1173
คุณภาพสูง	-1174
เรื่อง	-1175
▁เมื่อ	-1176
เสียง	-1177
pcs	-1178
▁ก็	-1179
บริษัท	-1180
17	-1181
พา	-1182
ร่วม	-1183
อนด์	-1184
▁รูป	-1185
มาตรฐาน	-1186
▁สงวน	-1187
ัญญา	-1188
ที่ยว	-1189
▁60	-1190
ยา	-1191
หัว	-1192
AN	-1193
▁ใช่	-1194
บรรจุ	-1195
ป้องกัน	-1196
อรี่	-1197
42	-1198
เหน	-1199
▁รับ	-1200
▁Sp	-1201
พลาย	-1202
ัพพลาย	-1203
▁รุ่น	-1204
ือบ	-1205
อุตสาหกรรม	-1206
ตู	-1207
▁รายละเอียด	-1208
▁เดือน	-1209
ับสน	-1210
การณ์	-1211
▁พวก	-1212
ห์	-1213
จัดการ	-1214
4)	-1215
▁แม่	-1216
▁คือ	-1217
ฤษ	-1218
99	-1219
เรีย	-1220
▁ต่อ	-1221
▁40	-1222
เมือง	-1223
▁สงวนลิขสิทธิ์	-1224
▁สถาน	-1225
กําลัง	-1226
ไม่มี	-1227
ite	-1228
ประส	-1229
สิทธิภาพ	-1230
ง่าย	-1231
าล์	-1232
ามี	-1233
ับสนุน	-1234
▁ฝ	-1235
▁22	-1236
▁Q	-1237
▁อะ	-1238
6)	-1239
เสริม	-1240
เออร์	-1241
38	-1242
ที่จะ	-1243
ได	-1244
▁2018	-1245
โลหะ	-1246
qu	-1247
ัตว์	-1248
ีด	-1249
▁อิน	-1250
ER	-1251
ิร์	-1252
บรนด์	-1253
จ่าย	-1254
พระ	-1255
▁กล่อง	-1256
ทดสอบ	-1257
▁กํา	-1258
▁เกี่ยวกับ	-1259
ไฮ	-1260
โรงงาน	-1261
61	-1262
บิน	-1263
สมัคร	-1264
ide	-1265
แผ่น	-1266
เย็น	-1267
▁นี่	-1268
ส่งออก	-1269
ั๊ม	-1270
มอง	-1271
ทางการ	-1272
นะนํา	-1273
ุงเท	-1274
▁ชั่วโมง	-1275
กว	-1276
ครัว	-1277
ce	-1278
iz	-1279
▁โรงแรม	-1280
ปฏ	-1281
เกิด	-1282
ant	-1283
▁สู	-1284
เส้น	-1285
ill	-1286
ันธ์	-1287
เริ่ม	-1288
สําหรับการ	-1289
▁ออก	-1290
ุณห	-1291
ตรง	-1292
แปลง	-1293
39	-1294
เว็บไซต์	-1295
เดินทาง	-1296
▁ดี	-1297
แม่	-1298
ัพพลายเออร์	-1299
เบียน	-1300
รักษา	-1301
▁ยุโรปตะ	-1302
สอบสวน	-1303
ธุรกิจ	-1304
▁รวม	-1305
ชัน	-1306
เซล	-1307
ุณหภูมิ	-1308
7)	-1309
ึกษา	-1310
ลับ	-1311
พาะ	-1312
แว	-1313
ปก	-1314
48	-1315
เสีย	-1316
ข่าย	-1317
▁วิธี	-1318
ไหม	-1319
ell	-1320
คคล	-1321
วัด	-1322
กิจ	-1323
ีย์	-1324
orn	-1325
▁ชั้น	-1326
ี้ย	-1327
ใด	-1328
รัก	-1329
ใต้	-1330
้าร	-1331
หว่าง	-1332
เที่ยว	-1333
ัฒนา	-1334
▁•	-1335
lt	-1336
ไม่ได้	-1337
-3	-1338
▁ชาว	-1339
อีก	-1340
▁ไม่มี	-1341
เนิน	-1342
▁ผู้จัดจําหน่าย	-1343
▁in	-1344
▁บน	-1345
▁Mac	-1346
ust	-1347
เพิ่มเติม	-1348
ผสม	-1349
ไว้	-1350
▁มิ	-1351
สูงสุด	-1352
ok	-1353
พลังงาน	-1354
ji	-1355
ตลาด	-1356
▁ข้า	-1357
าล์ว	-1358
▁ทาง	-1359
▁i	-1360
▁k	-1361
AS	-1362
▁อี	-1363
ุงเทพ	-1364
ight	-1365
จอ	-1366
▁255	-1367
22	-1368
▁°	-1369
คืน	-1370
hina	-1371
แห่ง	-1372
แกรม	-1373
นเลส	-1374
▁บรร	-1375
เสน	-1376
ครับ	-1377
▁Mark	-1378
▁ใบรับรอง	-1379
โครง	-1380
เธอ	-1381
ยาย	-1382
อิ	-1383
▁a	-1384
ถ่าย	-1385
ทอง	-1386
สุข	-1387
เดือน	-1388
การสอบสวน	-1389
▁Tr	-1390
ยาน	-1391
ไหล	-1392
▁~	-1393
กาย	-1394
ดิน	-1395
ect	-1396
-5	-1397
เมื่อ	-1398
▁พิ	-1399
▁อยู่	-1400
▁ตะ	-1401
▁แส	-1402
โท	-1403
คโน	-1404
กรด	-1405
47	-1406
▁Bl	-1407
ชุด	-1408
▁ผล	-1409
้วน	-1410
▁ว่า	-1411
ออนไลน์	-1412
คอน	-1413
▁4.	-1414
EM	-1415
ความสะ	-1416
▁คุณภาพ	-1417
ัยรุ่น	-1418
ข้าง	-1419
ON	-1420
68	-1421
▁งาน	-1422
▁เจ้า	-1423
อี	-1424
โลย	-1425
เฉพาะ	-1426
บอก	-1427
เกม	-1428
yl	-1429
ศูนย์	-1430
คโนโลย	-1431
▁ตั้ง	-1432
pl	-1433
โป	-1434
ียร์	-1435
ิตย์	-1436
หนัง	-1437
พี	-1438
▁Al	-1439
49	-1440
จับ	-1441
บต	-1442
ประกัน	-1443
ัจ	-1444
▁รหัส	-1445
▁พื้น	-1446
เมล	-1447
เหนือ	-1448
▁สน	-1449
แจ้ง	-1450
av	-1451
ัตรา	-1452
▁Ex	-1453
ืด	-1454
▁Con	-1455
ก่อน	-1456
ดอกไม้	-1457
เป๋า	-1458
▁จํานวน	-1459
เช่น	-1460
ท่าน	-1461
ถาม	-1462
▁แม	-1463
คโนโลยี	-1464
ฟอร์	-1465
ขอ	-1466
ูร	-1467
ําระ	-1468
▁นัก	-1469
AC	-1470
▁v	-1471
อัน	-1472
ไฟล์	-1473
วาง	-1474
▁วันที่	-1475
ณา	-1476
▁ที่มี	-1477
▁En	-1478
▁อา	-1479
▁ทุก	-1480
▁เน	-1481
▁ไม	-1482
แทน	-1483
ใคร	-1484
▁ฟรี	-1485
ST	-1486
คู่	-1487
▁st	-1488
1)	-1489
ประสิทธิภาพ	-1490
▁นิ้ว	-1491
เมตร	-1492
คา	-1493
▁มือ	-1494
▁เข้า	-1495
เกี่ยว	-1496
▁เง	-1497
เท้า	-1498
เซีย	-1499
เมน	-1500
▁1,	-1501
▁CE	-1502
▁21	-1503
▁ซัพพลายเออร์	-1504
แนะนํา	-1505
▁2017	-1506
ber	-1507
สนับสนุน	-1508
บาง	-1509
ock	-1510
ies	-1511
▁ดอก	-1512
สัตว์	-1513
▁อย่าง	-1514
▁ชิ้น	-1515
▁เช่น	-1516
ยม	-1517
ชนิด	-1518
▁กัน	-1519
▁บุ	-1520
▁เฮ	-1521
เอส	-1522
ซี่	-1523
▁สิ่ง	-1524
▁Pl	-1525
อนุ	-1526
พัฒนา	-1527
การขาย	-1528
▁เปิด	-1529
ิบัติ	-1530
▁»	-1531
ท่อ	-1532
บอล	-1533
โพ	-1534
เดีย	-1535
กําหนดเอง	-1536
▁ฯ	-1537
วล	-1538
66	-1539
▁ขอ	-1540
ราะ	-1541
ear	-1542
37	-1543
95	-1544
าทิตย์	-1545
▁100%	-1546
ดําเนิน	-1547
▁ดาวน์โหลด	-1548
อป	-1549
ลฯ	-1550
เหรอ	-1551
สา	-1552
▁ซี	-1553
ปิด	-1554
เสนอ	-1555
โฮ	-1556
บตเต	-1557
คนิค	-1558
88	-1559
ลอง	-1560
▁หัว	-1561
ver	-1562
รู	-1563
▁เบ	-1564
ัญชี	-1565
▁โล	-1566
▁ถุง	-1567
ทั่วไป	-1568
▁r	-1569
แตนเลส	-1570
ity	-1571
เนีย	-1572
act	-1573
▁Main	-1574
คะ	-1575
ข้า	-1576
ทย์	-1577
คาร์	-1578
าสตร์	-1579
▁Cl	-1580
หนา	-1581
ั้ว	-1582
▁สาว	-1583
ชีพ	-1584
▁.	-1585
สมบัติ	-1586
ยาง	-1587
ศึกษา	-1588
:2	-1589
▁23	-1590
นอน	-1591
สาม	-1592
จิ	-1593
บตเตอรี่	-1594
▁ผู้ส่งออก	-1595
สัญญา	-1596
ass	-1597
แวร์	-1598
เต็ม	-1599
ีม	-1600
▁เต	-1601
▁ฯลฯ	-1602
▁เด็ก	-1603
ผิด	-1604
๊ก	-1605
สั่ง	-1606
▁นาย	-1607
ทน	-1608
ใส่	-1609
▁รายการ	-1610
ช์	-1611
โค	-1612
▁เซ็ก	-1613
ตอบ	-1614
▁น้ําหนัก	-1615
คอม	-1616
ชีวิต	-1617
....	-1618
ox	-1619
พูด	-1620
กระดาษ	-1621
ทธุรกิจ	-1622
ข้อง	-1623
ment	-1624
รอย	-1625
China	-1626
หรัฐ	-1627
น้ํามัน	-1628
าลัย	-1629
ี้ยน	-1630
▁ประเภทธุรกิจ	-1631
อเตอร์	-1632
ows	-1633
9001	-1634
ตรวจสอบ	-1635
ชุม	-1636
ล่าสุด	-1637
ให้บริการ	-1638
ํานัก	-1639
▁Book	-1640
ไง	-1641
สด	-1642
ทําให้	-1643
dro	-1644
ผ่านมา	-1645
▁ตร	-1646
▁ทั่ว	-1647
ิ้ง	-1648
ทรัพ	-1649
กล่อง	-1650
uc	-1651
ความปลอดภัย	-1652
ไอ	-1653
AT	-1654
▁80	-1655
่าร	-1656
ET	-1657
เกอร์	-1658
▁เพิ	-1659
ต่างๆ	-1660
ไร้	-1661
ep	-1662
้นหา	-1663
คง	-1664
▁28	-1665
co	-1666
AR	-1667
อายุ	-1668
/2	-1669
สู่	-1670
▁จีน	-1671
▁y	-1672
PS	-1673
ิโล	-1674
age	-1675
▁Tha	-1676
▁ฉ	-1677
กลับ	-1678
ณี	-1679
แก่	-1680
เกี่ยวข้อง	-1681
▁(5	-1682
คัญ	-1683
จร	-1684
34	-1685
ial	-1686
าราง	-1687
▁นี้	-1688
▁นั้น	-1689
9)	-1690
▁ติดต่อตอนนี้	-1691
้ย	-1692
▁วัต	-1693
ech	-1694
ube	-1695
ท่อง	-1696
36	-1697
ไต	-1698
2)	-1699
เคลือบ	-1700
๋ย	-1701
ปฏิบัติ	-1702
▁วัยรุ่น	-1703
▁แฟ	-1704
▁CO	-1705
รูปแบบ	-1706
ทยาลัย	-1707
1%	-1708
อาทิตย์	-1709
ik	-1710
▁500	-1711
:5	-1712
ail	-1713
ive	-1714
ยาบ	-1715
▁กําลัง	-1716
▁HD	-1717
▁ตาม	-1718
oun	-1719
▁Com	-1720
oy	-1721
โทรศัพท์	-1722
ขั้น	-1723
บัตร	-1724
EN	-1725
▁Wind	-1726
เก็ต	-1727
หมู่	-1728
▁ถูก	-1729
▁แห	-1730
สวย	-1731
วันที่	-1732
▁Hot	-1733
อาด	-1734
▁โม	-1735
▁Booking	-1736
▁มุม	-1737
▁ถ้า	-1738
เทคนิค	-1739
▁อาหาร	-1740
เพียง	-1741
▁เส้น	-1742
ice	-1743
▁of	-1744
เบี้ยน	-1745
▁วิดีโอ	-1746
หล่ง	-1747
อลูมิเนียม	-1748
▁Fl	-1749
▁ได้รับ	-1750
oll	-1751
▁เหล็ก	-1752
ชําระ	-1753
85	-1754
เรือ	-1755
อฟริกา	-1756
▁นั่น	-1757
แข่ง	-1758
คุ	-1759
ังกฤษ	-1760
เชื่อมต่อ	-1761
▁อเมริกา	-1762
หุ	-1763
▁เพิ่ม	-1764
ขา	-1765
67	-1766
ูรณ์	-1767
▁เพศ	-1768
ธรรมชาติ	-1769
วัล	-1770
อยู่ใน	-1771
ภาค	-1772
),	-1773
ลม	-1774
เบิล	-1775
▁เมตร	-1776
ัญหา	-1777
ีฬ	-1778
ai	-1779
ยอด	-1780
ดวก	-1781
▁รอง	-1782
สําคัญ	-1783
100	-1784
แผน	-1785
จํานวน	-1786
are	-1787
▁'	-1788
▁สูง	-1789
ress	-1790
นี่	-1791
ตรี	-1792
สว	-1793
ระหว่าง	-1794
ได้รับการ	-1795
▁หลอด	-1796
ish	-1797
▁ภาษา	-1798
se	-1799
ิตอล	-1800
ยนตร์	-1801
8)	-1802
ian	-1803
าร์ท	-1804
▁สาร	-1805
เหลือง	-1806
▁สมัคร	-1807
24	-1808
▁ชน	-1809
สัน	-1810
ุบ	-1811
▁เว็บไซต์	-1812
:0	-1813
ถนน	-1814
ครอบ	-1815
▁เค	-1816
วิดีโอ	-1817
ตรา	-1818
ขว	-1819
ิจิตอล	-1820
▁เพราะ	-1821
▁สา	-1822
▁PC	-1823
อร์ท	-1824
๊ะ	-1825
▁โครง	-1826
▁?	-1827
DF	-1828
ff	-1829
การใช้งาน	-1830
เหตุ	-1831
▁90	-1832
▁เหม	-1833
กรอง	-1834
ํานักงาน	-1835
กว้าง	-1836
ure	-1837
.)	-1838
ชอบ	-1839
▁ประเทศจีน	-1840
-4	-1841
33	-1842
EC	-1843
ทรัพย์	-1844
แตก	-1845
ร้าน	-1846
ปรุง	-1847
็อค	-1848
เสื้อ	-1849
der	-1850
น่า	-1851
ew	-1852
▁5.	-1853
ระยะ	-1854
ไหน	-1855
▁ตะวันออก	-1856
สุทธิ	-1857
▁)	-1858
ราช	-1859
รถยนต์	-1860
ท่องเที่ยว	-1861
รส	-1862
▁ขอบ	-1863
ตาล	-1864
ประตู	-1865
เพศ	-1866
วันตก	-1867
วัสดุ	-1868
ไม้อ	-1869
oji	-1870
ื่ม	-1871
ที่นี่	-1872
แค่	-1873
▁IP	-1874
แด	-1875
▁ต้อง	-1876
▁300	-1877
แลนด์	-1878
▁ค่า	-1879
เยี่ยม	-1880
สต์	-1881
▁กิโล	-1882
แหน	-1883
▁จัดส่ง	-1884
▁โซ	-1885
▁ท่อ	-1886
ประมาณ	-1887
สัง	-1888
ชิก	-1889
iland	-1890
ประเทศไทย	-1891
่านั้น	-1892
แพทย์	-1893
ran	-1894
สต	-1895
บการณ์	-1896
▁SM	-1897
จัดส่ง	-1898
งาม	-1899
เนื้อ	-1900
▁ปล	-1901
ชาญ	-1902
▁แค	-1903
▁Windows	-1904
▁27	-1905
ทะเบียน	-1906
▁เสื้อ	-1907
▁the	-1908
างวัล	-1909
ขึ้นรูป	-1910
มือถือ	-1911
▁พระองค์	-1912
TD	-1913
ey	-1914
อร์ต	-1915
ผน	-1916
ug	-1917
ช่วง	-1918
▁เลส	-1919
าะห์	-1920
▁แรง	-1921
▁35	-1922
▁วี	-1923
พื้นที่	-1924
▁ตะวันออกกลาง	-1925
="	-1926
▁แผน	-1927
เคราะห์	-1928
ต้าน	-1929
ัศ	-1930
▁ไปยัง	-1931
ันท	-1932
แหน่ง	-1933
ost	-1934
AL	-1935
วิว	-1936
ําแหน่ง	-1937
▁ตอน	-1938
ที่ดีที่สุด	-1939
ยาบาล	-1940
สก	-1941
▁ตลาด	-1942
▁ขึ้น	-1943
็กซ์	-1944
▁กรุงเทพ	-1945
ame	-1946
โฟ	-1947
ี้ยง	-1948
▁สินค้า	-1949
ib	-1950
ัมพ	-1951
เคลื่อน	-1952
▁ทั่วโลก	-1953
กรรมการ	-1954
ID	-1955
▁ยัง	-1956
▁หน้าหลัก	-1957
ประเภ	-1958
64	-1959
ล้อม	-1960
เกล	-1961
วัต	-1962
-8	-1963
▁ผู้หญิง	-1964
ลิง	-1965
ังหว	-1966
EL	-1967
ไฟเบอร์	-1968
ลํา	-1969
าร์ด	-1970
ภู	-1971
▁02	-1972
แนน	-1973
ค่ะ	-1974
มาชิก	-1975
อุณหภูมิ	-1976
ที่คุณ	-1977
▁แอฟริกา	-1978
▁วิธีการ	-1979
▁The	-1980
อัล	-1981
▁เมือง	-1982
ธาร	-1983
โรงแรม	-1984
IC	-1985
เตร	-1986
สัญญาณ	-1987
นี	-1988
▁--	-1989
ี่ยวชาญ	-1990
กุ	-1991
เจาะ	-1992
ที่ผ่านมา	-1993
OS	-1994
per	-1995
กระจ	-1996
พลี	-1997
นิยม	-1998
ทยา	-1999
▁ขายส่ง	-2000
อาชีพ	-2001
our	-2002
เริ่มต้น	-2003
ีฬา	-2004
เอก	-2005
บัญชี	-2006
US	-2007
ของการ	-2008
สมบูรณ์	-2009
หาย	-2010
ประเภท	-2011
ขนาดเล็ก	-2012
ใกล	-2013
ทรง	-2014
บุคคล	-2015
เจน	-2016
ศา	-2017
▁ชาย	-2018
▁โทรศัพท์	-2019
ord	-2020
63	-2021
able	-2022
▁ข่าว	-2023
อร	-2024
VC	-2025
▁แสดง	-2026
OR	-2027
▁แพ	-2028
500	-2029
ลวด	-2030
็จ	-2031
▁เลสเบี้ยน	-2032
เครื่องมือ	-2033
ick	-2034
ทรอน	-2035
แกน	-2036
กลุ่ม	-2037
▁บล	-2038
ิลป	-2039
ก่อ	-2040
sh	-2041
เนิด	-2042
จุด	-2043
ev	-2044
▁ซม	-2045
▁นอก	-2046
ud	-2047
ใกล้	-2048
กี้	-2049
การทํางาน	-2050
▁Ser	-2051
▁หลัง	-2052
บี	-2053
hone	-2054
ทําการ	-2055
▁ระยะ	-2056
ฟิ	-2057
▁ลง	-2058
▁and	-2059
▁บรรจุ	-2060
ประจํา	-2061
แสดงผล	-2062
แวด	-2063
▁หาก	-2064
ปัญหา	-2065
ปกติ	-2066
ix	-2067
uct	-2068
บท	-2069
นม	-2070
โคร	-2071
28	-2072
ขัน	-2073
ดรอ	-2074
▁ปั๊ม	-2075
สอร์ท	-2076
droid	-2077
โครงการ	-2078
พบ	-2079
ล์ม	-2080
tp	-2081
ire	-2082
ash	-2083
▁หนัง	-2084
eng	-2085
เชี่ยวชาญ	-2086
น้อย	-2087
ัจจุ	-2088
เอเชีย	-2089
ุ่ง	-2090
▁เราเป็น	-2091
▁คู	-2092
ที่ใช้	-2093
เจอร์	-2094
บอน	-2095
ล่ะ	-2096
▁ไทย	-2097
ัจจุบัน	-2098
แวดล้อม	-2099
เร็จ	-2100
ไหล่	-2101
▁ชนิด	-2102
สิน	-2103
▁OEM	-2104
ที่เกี่ยวข้อง	-2105
ขับ	-2106
▁2016	-2107
ดีโอ	-2108
ั้ย	-2109
▁70	-2110
69	-2111
สัม	-2112
เลี้ยง	-2113
▁ดัง	-2114
บริหาร	-2115
▁บท	-2116
▁เครื่องมือ	-2117
pt	-2118
ดิจิตอล	-2119
เทอร์	-2120
ator	-2121
แห้ง	-2122
ความสะอาด	-2123
เหมือน	-2124
▁฿	-2125
▁2020	-2126
ที่เป็น	-2127
old	-2128
สื่อ	-2129
ส่วนตัว	-2130
▁เห	-2131
▁ประเทศไทย	-2132
▁Ap	-2133
▁ถนน	-2134
ood	-2135
ets	-2136
ี่ยง	-2137
อ่าน	-2138
ประชุม	-2139
▁แบรนด์	-2140
ริมาณ	-2141
ปาก	-2142
27	-2143
ชน์	-2144
ee	-2145
/0	-2146
ินดี	-2147
▁นํา	-2148
เถ	-2149
▁อีก	-2150
ดื่ม	-2151
ium	-2152
ei	-2153
IS	-2154
▁Android	-2155
▁45	-2156
สีขาว	-2157
▁Un	-2158
ิกส์	-2159
▁AC	-2160
▁เปล	-2161
▁ก่อน	-2162
▁Ro	-2163
ศาสตร์	-2164
200	-2165
ช่อง	-2166
ater	-2167
เหมาะ	-2168
ทัน	-2169
ขัด	-2170
▁ขั้น	-2171
▁สุ	-2172
▁ทั้งหมด	-2173
ังก์	-2174
ลอด	-2175
▁ส่ง	-2176
▁มุมมอง	-2177
จน	-2178
▁วัตต์	-2179
ไตล์	-2180
ดาห์	-2181
ยืด	-2182
เผ	-2183
ข่าว	-2184
เทคโนโลยี	-2185
คิดเห็น	-2186
▁TH	-2187
โยชน์	-2188
▁โอ้	-2189
เล็กทรอน	-2190
▁ช่อง	-2191
▁Goji	-2192
▁26	-2193
tr	-2194
ens	-2195
ฉีด	-2196
อาจ	-2197
her	-2198
เปอร์	-2199
uk	-2200
end	-2201
แม่น	-2202
ลิน	-2203
สหรัฐ	-2204
ภาษ	-2205
▁ไอ	-2206
44	-2207
กําเนิด	-2208
orm	-2209
เหลือ	-2210
สเต	-2211
มากกว่า	-2212
ัปดาห์	-2213
98	-2214
ากร	-2215
.8	-2216
▁หน้าแรก	-2217
▁08	-2218
ric	-2219
เชื้อ	-2220
ซึ่ง	-2221
เชิง	-2222
▁ยุโรปตะวันออก	-2223
▁ด้าน	-2224
อเมริกา	-2225
โปรแกรม	-2226
เกิน	-2227
อัด	-2228
หน่วย	-2229
อังกฤษ	-2230
ความเร็ว	-2231
ขนาดใหญ่	-2232
▁ผง	-2233
▁เริ่ม	-2234
รหัส	-2235
NC	-2236
ลูมิเนียม	-2237
พิว	-2238
วดเร็ว	-2239
โทษ	-2240
▁ล้าน	-2241
AM	-2242
oly	-2243
▁Ad	-2244
▁ศูนย์	-2245
แบรนด์	-2246
รษ	-2247
▁องค์	-2248
▁ณ	-2249
ไท	-2250
▁เรื่อง	-2251
แก้ว	-2252
ดอกไม้อ	-2253
-7	-2254
ื้อง	-2255
▁Ar	-2256
▁แท็ก	-2257
ตาย	-2258
เล็กทรอนิกส์	-2259
มห	-2260
ile	-2261
http	-2262
ax	-2263
ดอกไม้ออนไลน์	-2264
กล้า	-2265
พิวเตอร์	-2266
มะ	-2267
▁จัดส่งดอกไม้	-2268
ros	-2269
ังหวัด	-2270
ชําระเงิน	-2271
▁มาก	-2272
▁USB	-2273
ower	-2274
อร์ด	-2275
▁ง	-2276
97	-2277
ink	-2278
สูตร	-2279
ดัง	-2280
วดหมู่	-2281
IT	-2282
31	-2283
▁ภาพใหญ่	-2284
แป	-2285
แข่งขัน	-2286
▁ครั้งที่	-2287
วิธี	-2288
เท่า	-2289
แก้	-2290
▁ทรง	-2291
สถานี	-2292
อ่อน	-2293
▁ร้อน	-2294
▁ช่วย	-2295
ดูแล	-2296
ที่มีคุณภาพสูง	-2297
ลิป	-2298
▁ใหม่	-2299
สแตนเลส	-2300
สัมพ	-2301
▁ตาราง	-2302
▁เงิน	-2303
ุษ	-2304
▁โอเค	-2305
บาท	-2306
pe	-2307
เขียน	-2308
พยาบาล	-2309
▁อย่า	-2310
หิน	-2311
ผัส	-2312
รอบ	-2313
ชั้นนํา	-2314
▁150	-2315
▁32	-2316
เคมี	-2317
พันธ	-2318
ฟอร์ม	-2319
ตกแต่ง	-2320
อนุญา	-2321
aw	-2322
▁คอน	-2323
▁ดํา	-2324
ังค	-2325
▁เลือก	-2326
สําร	-2327
▁แน	-2328
▁2,	-2329
ันว	-2330
▁Thailand	-2331
บาร์	-2332
แนว	-2333
ศูนย์กลาง	-2334
ธิบ	-2335
หล่อ	-2336
กลิ	-2337
▁อง	-2338
▁29	-2339
ฆษ	-2340
▁จอ	-2341
▁กระเป๋า	-2342
▁ยุโรปตะวันตก	-2343
โบ	-2344
▁คุณสมบัติ	-2345
ลงทุน	-2346
▁หลัก	-2347
ผง	-2348
▁ยุโรปเหนือ	-2349
สือ	-2350
เคเบิล	-2351
สําเร็จ	-2352
หยุด	-2353
จิก	-2354
PN	-2355
▁จุด	-2356
▁Inter	-2357
ักษร	-2358
สนาม	-2359
หนึ่งใน	-2360
ฤดู	-2361
ron	-2362
port	-2363
อัตรา	-2364
9001,	-2365
กรัม	-2366
.1	-2367
าร์จ	-2368
▁กรัม	-2369
่ารัก	-2370
//	-2371
สึก	-2372
ีน้ํา	-2373
HS	-2374
ตี้	-2375
ผ่า	-2376
▁31	-2377
ถุง	-2378
▁	-2379
คมไฟ	-2380
ต่อไป	-2381
▁j	-2382
พวกเขา	-2383
จด	-2384
ไบ	-2385
อฟต์	-2386
นาน	-2387
ลู	-2388
ฆ่า	-2389
▁โร	-2390
Hz	-2391
ธาน	-2392
ารา	-2393
▁!	-2394
ปั๊ม	-2395
สิ้น	-2396
▁Gr	-2397
สถ	-2398
▁ภาพยนตร์	-2399
-10	-2400
://	-2401
PC	-2402
ดูล	-2403
▁มาตรฐาน	-2404
ไน	-2405
กิจกรรม	-2406
เนอร์	-2407
ทะเล	-2408
ันวาคม	-2409
มีความ	-2410
เกจ	-2411
ไฮดรอ	-2412
▁ปรับ	-2413
ละลาย	-2414
az	-2415
▁2562	-2416
หยัด	-2417
การ์	-2418
uang	-2419
ิช	-2420
▁💐	-2421
นาคาร	-2422
ach	-2423
ียญ	-2424
▁(10	-2425
ยํา	-2426
▁เคล	-2427
int	-2428
สุทธิ์	-2429
ดูด	-2430
รวดเร็ว	-2431
mer	-2432
▁iP	-2433
▁PP	-2434
้อนรับ	-2435
เช่า	-2436
▁หนึ่ง	-2437
.7	-2438
สง	-2439
หาด	-2440
▁บาง	-2441
ประสบการณ์	-2442
สนใจ	-2443
หลอด	-2444
วาล์ว	-2445
ัวร์	-2446
ly	-2447
สัมพันธ์	-2448
ated	-2449
โยบาย	-2450
rig	-2451
อื่นๆ	-2452
▁ญี่ปุ่น	-2453
หนัก	-2454
▁ครอบ	-2455
ือข่าย	-2456
ังกะ	-2457
นาย	-2458
แอ	-2459
▁1000	-2460
ue	-2461
่มือ	-2462
แตกต่าง	-2463
▁คว	-2464
่ํา	-2465
▁Ac	-2466
มีการ	-2467
โคน	-2468
ตั้งแต่	-2469
▁สถานที่	-2470
เซ็น	-2471
ขวัญ	-2472
อล์	-2473
สมัครเล่น	-2474
▁วีดีโอ	-2475
▁×	-2476
เพาะ	-2477
▁แผง	-2478
ร้อย	-2479
าซ	-2480
lect	-2481
▁to	-2482
▁สิง	-2483
เข้าร	-2484
มาย	-2485
ติดตาม	-2486
-6	-2487
ของฉัน	-2488
▁Ph	-2489
▁เล่น	-2490
▁อะไร	-2491
เรามี	-2492
ที่ไม่	-2493
▁USD	-2494
eg	-2495
รายการ	-2496
เคย	-2497
แน่น	-2498
สป	-2499
▁Wh	-2500
สุขภาพ	-2501
เพื่อน	-2502
OT	-2503
ปฏิบัติการ	-2504
):	-2505
ทางเทคนิค	-2506
net	-2507
sp	-2508
ตี	-2509
ื่อนไข	-2510
duct	-2511
▁แต	-2512
▁พฤ	-2513
▁ทําไม	-2514
▁ความยาว	-2515
อักษร	-2516
CD	-2517
าวิ	-2518
เลเซอร์	-2519
▁สร้าง	-2520
กาศ	-2521
ผนัง	-2522
ืม	-2523
สรร	-2524
กด	-2525
รด	-2526
ขายส่ง	-2527
แสงอาทิตย์	-2528
เทียม	-2529
อลล	-2530
อัป	-2531
▁วิน	-2532
▁05	-2533
ามิ	-2534
ne	-2535
▁=	-2536
ธิบาย	-2537
บวน	-2538
บ่ง	-2539
าระ	-2540
▁(3	-2541
PE	-2542
oft	-2543
โมชั่น	-2544
▁PVC	-2545
จิกายน	-2546
เน็ต	-2547
▁สําหรับการ	-2548
--	-2549
สมาชิก	-2550
ต้อนรับ	-2551
92	-2552
พลิ	-2553
รถไฟ	-2554
รัด	-2555
▁เซ็กส์	-2556
อิเล็กทรอนิกส์	-2557
ที่กําหนดเอง	-2558
าบน้ํา	-2559
▁2015	-2560
:30	-2561
▁ไว	-2562
▁Tag	-2563
เกรด	-2564
ace	-2565
▁ความหนา	-2566
olog	-2567
▁กลุ่ม	-2568
คอ	-2569
▁แหล่ง	-2570
AD	-2571
▁เอา	-2572
▁โฮ	-2573
▁คู่	-2574
หุ้น	-2575
▁พ่อ	-2576
▁PDF	-2577
ล้อ	-2578
86	-2579
ซู	-2580
คุก	-2581
มน	-2582
▁กก	-2583
ศจิกายน	-2584
▁วาล์ว	-2585
โจ	-2586
ังกะสี	-2587
▁สมัครเล่น	-2588
▁http	-2589
▁Sc	-2590
ING	-2591
ทําความสะอาด	-2592
แช	-2593
เบื้อง	-2594
▁อายุ	-2595
ได้อย่าง	-2596
▁120	-2597
▁บี	-2598
ิ้	-2599
ึด	-2600
ลิโคน	-2601
รายละเอียด	-2602
ไปยัง	-2603
ดําเนินการ	-2604
แยก	-2605
ากล	-2606
ือด	-2607
▁มิล	-2608
;&	-2609
▁ระดับ	-2610
▁อลูมิเนียม	-2611
▁ลด	-2612
ขอบ	-2613
น้ําหนัก	-2614
▁Ber	-2615
ดิ	-2616
คอร์	-2617
77	-2618
วัติ	-2619
▁กล้อง	-2620
บรรทุก	-2621
▁6.	-2622
รัส	-2623
พก	-2624
ติน	-2625
43	-2626
เชียเนีย	-2627
ม้วน	-2628
ES	-2629
เครื่องจักร	-2630
แผง	-2631
▁ธันวาคม	-2632
ลึก	-2633
▁ช่วง	-2634
▁ตลาดอื่น	-2635
▁2561	-2636
ความต้องการ	-2637
อฟต์แวร์	-2638
zh	-2639
▁มีน	-2640
ผู้หญิง	-2641
ฝาก	-2642
ชนะ	-2643
กฎ	-2644
▁โอเชียเนีย	-2645
▁ขอบคุณ	-2646
▁โปรด	-2647
มืออาชีพ	-2648
uite	-2649
ืช	-2650
▁Tech	-2651
▁รีสอร์ท	-2652
รั่ง	-2653
ยายน	-2654
▁Car	-2655
ical	-2656
บับ	-2657
ยู	-2658
เขียว	-2659
▁ซื้อ	-2660
▁DC	-2661
เดอร์	-2662
ภาพันธ์	-2663
▁Res	-2664
ุมภาพันธ์	-2665
ult	-2666
แบตเตอรี่	-2667
ge	-2668
แม่นยํา	-2669
ียร	-2670
ขนส่ง	-2671
▁Mic	-2672
ษายน	-2673
็อป	-2674
▁นอกจาก	-2675
่อม	-2676
ํานวย	-2677
out	-2678
มหา	-2679
▁อื่น	-2680
กราคม	-2681
ควร	-2682
จะเป็น	-2683
พลิเค	-2684
ในจีน	-2685
TC	-2686
ราม	-2687
ตัน	-2688
▁re	-2689
รางวัล	-2690
ิท	-2691
บนัส	-2692
▁Pr	-2693
เหลว	-2694
▁สอง	-2695
▁Br	-2696
คอมพิวเตอร์	-2697
af	-2698
้าว	-2699
เขต	-2700
▁Comp	-2701
อธิบาย	-2702
46	-2703
ork	-2704
ond	-2705
ลัก	-2706
สูบ	-2707
ชาร์จ	-2708
วะ	-2709
▁ความเร็ว	-2710
อรม	-2711
งค์	-2712
▁ได	-2713
atch	-2714
ah	-2715
55	-2716
เฮ	-2717
จําเป็น	-2718
ว่าย	-2719
โอน	-2720
ประโยชน์	-2721
ดาวน์โหลด	-2722
▁ตุล	-2723
ดันไฟฟ้า	-2724
เดี่ยว	-2725
ขณะ	-2726
ตัวเอง	-2727
ความเป็น	-2728
ett	-2729
ery	-2730
BS	-2731
▁ตุลาคม	-2732
ans	-2733
สิโน	-2734
▁ค้นหา	-2735
เอสเตอร์	-2736
▁และการ	-2737
ฟ์	-2738
โพลี	-2739
รัฐ	-2740
ตน	-2741
▁ยู	-2742
▁บุคคล	-2743
ิ้ล	-2744
▁หมวดหมู่	-2745
▁Mach	-2746
โก้	-2747
ทอ	-2748
มิตร	-2749
นั่ง	-2750
▁00	-2751
▁กระดาษ	-2752
NT	-2753
ยุ	-2754
เลีย	-2755
วิน	-2756
ster	-2757
ริก	-2758
▁ดอกไม้	-2759
ธิ	-2760
ท้าย	-2761
▁หน่วย	-2762
วิจ	-2763
พอ	-2764
อยู	-2765
ฆษณา	-2766
ณะกรรมการ	-2767
UR	-2768
เนื่อง	-2769
ขยาย	-2770
คาร์บอน	-2771
ถุน	-2772
▁ชิ้นส่วน	-2773
เปล่า	-2774
สว่าง	-2775
อนุญาต	-2776
TS	-2777
ริญ	-2778
▁เฮ้	-2779
คลุม	-2780
▁ลิ	-2781
▁ww	-2782
fl	-2783
ัช	-2784
▁ประตู	-2785
gle	-2786
TM	-2787
▁อาคาร	-2788
▁อุณหภูมิ	-2789
ร่วมมือ	-2790
▁www	-2791
▁e	-2792
▁อ่าน	-2793
▁ของคุณ	-2794
▁องศา	-2795
ปัจจุบัน	-2796
▁รา	-2797
อาคาร	-2798
▁ขั้นตอน	-2799
▁ตู้	-2800
และความ	-2801
ธารณะ	-2802
▁พื้นที่	-2803
▁ผู้ผลิตในจีน	-2804
ตู้	-2805
eth	-2806
ศิลป	-2807
บลอนด์	-2808
ph	-2809
เวล	-2810
ร็จ	-2811
ทีวี	-2812
▁มาแล้ว	-2813
▁คลิก	-2814
▁250	-2815
กล้อง	-2816
กีฬา	-2817
สีดํา	-2818
กลง	-2819
OM	-2820
igh	-2821
เปร	-2822
▁อัตรา	-2823
▁อัน	-2824
▁Sup	-2825
ถุนายน	-2826
▁เกมส์	-2827
ool	-2828
นวน	-2829
เพลง	-2830
▁มีนาคม	-2831
▁หย	-2832
อินเดีย	-2833
▁เดิน	-2834
หมุน	-2835
จักรยาน	-2836
และผู้	-2837
▁กิจ	-2838
uck	-2839
▁600	-2840
▁He	-2841
▁Machine	-2842
ade	-2843
▁th	-2844
ยืน	-2845
▁Be	-2846
เดิม	-2847
gm	-2848
▁ทําให้	-2849
cl	-2850
แลก	-2851
▁พฤศจิกายน	-2852
สมบูรณ์แบบ	-2853
▁ปิด	-2854
▁พระเจ้า	-2855
▁ดังนั้น	-2856
LC	-2857
จอด	-2858
พาน	-2859
บริ่ง	-2860
▁แห่ง	-2861
หาคม	-2862
▁โต	-2863
เอา	-2864
ps	-2865
ld	-2866
21	-2867
ห้องพัก	-2868
าวิทยาลัย	-2869
ตําแหน่ง	-2870
io	-2871
โรค	-2872
ทัศ	-2873
▁2560	-2874
เทียบ	-2875
▁CNC	-2876
.3	-2877
▁เครื่องตัด	-2878
▁Man	-2879
▁Sl	-2880
ครอง	-2881
มิน	-2882
▁แข	-2883
▁ch	-2884
ถี่	-2885
ีบ	-2886
เครื่องยนต์	-2887
▁จริง	-2888
ve	-2889
นักงาน	-2890
▁หญิง	-2891
โปรด	-2892
ตัวอย่าง	-2893
ราบ	-2894
ัฒน	-2895
DM	-2896
▁แคร	-2897
▁บรรจุภัณฑ์	-2898
เข้าชม	-2899
▁(4	-2900
าศัย	-2901
▁รูปภาพ	-2902
▁สว	-2903
ติดต่อตอนนี้	-2904
29	-2905
มวล	-2906
▁บาร์	-2907
▁ลวด	-2908
GB	-2909
สังกะสี	-2910
▁เว็บ	-2911
23	-2912
โช	-2913
แคม	-2914
▁แบตเตอรี่	-2915
ณิช	-2916
ซ่า	-2917
▁Hotel	-2918
▁มิลลิ	-2919
Ltd	-2920
▁·	-2921
สบาย	-2922
▁ห้องนอน	-2923
ฝึก	-2924
▁รายงาน	-2925
▁กุมภาพันธ์	-2926
▁แก่	-2927
ยอม	-2928
▁โปรแกรม	-2929
▁ผ่าน	-2930
เฟอร์	-2931
นอก	-2932
ัทยา	-2933
▁400	-2934
MP	-2935
▁As	-2936
▁โครงการ	-2937
สกัด	-2938
att	-2939
ตาข่าย	-2940
พกพา	-2941
▁รอบ	-2942
ร่ม	-2943
ลิตร	-2944
ดาน	-2945
สิ่งแวดล้อม	-2946
▁น้ํามัน	-2947
ชาว	-2948
จากการ	-2949
ขวด	-2950
.201	-2951
▁ได้รับการ	-2952
78	-2953
▁Se	-2954
เทียน	-2955
▁เชื่อ	-2956
มุม	-2957
อิส	-2958
▁Th	-2959
.4	-2960
วิท	-2961
▁กันยายน	-2962
ram	-2963
ยาม	-2964
เข้าดู	-2965
เถอะ	-2966
ชุบ	-2967
กลม	-2968
มั่น	-2969
นาม	-2970
▁ตัน	-2971
ank	-2972
▁สีดํา	-2973
วงจร	-2974
Suite	-2975
แถ	-2976
bo	-2977
▁ออกแบบ	-2978
▁มอง	-2979
เช้า	-2980
▁ของเรา	-2981
▁ครั้งที่เข้าดู	-2982
หลาก	-2983
กาล	-2984
▁ออนไลน์	-2985
ตั้งค่า	-2986
▁@	-2987
py	-2988
▁เมษายน	-2989
ณิชย์	-2990
ไก	-2991
็อต	-2992
▁BookingSuite	-2993
โอก	-2994
แมน	-2995
▁คุณสามารถ	-2996
▁สนาม	-2997
▁RF	-2998
หลาบ	-2999
▁แจ	-3000
ics	-3001
พุ	-3002
ก์	-3003
พืช	-3004
เซียม	-3005
ล่าง	-3006
สามารถในการ	-3007
กระเป๋า	-3008
▁วาง	-3009
SM	-3010
เตียง	-3011
บุรี	-3012
ฝุ่น	-3013
รีด	-3014
right	-3015
แน่	-3016
ข้าว	-3017
กะ	-3018
สั่งซื้อ	-3019
ผู้เชี่ยวชาญ	-3020
▁Gl	-3021
uan	-3022
▁เยโฮ	-3023
▁เฟ	-3024
สถานที่	-3025
▁ครอบครัว	-3026
แพร	-3027
▁โพ	-3028
erm	-3029
▁เหมาะ	-3030
▁รู	-3031
เลอร์	-3032
ท้อง	-3033
โดยสาร	-3034
▁ฟิ	-3035
บริสุทธิ์	-3036
▁มกราคม	-3037
อัพ	-3038
วาน	-3039
▁แถ	-3040
ทิ	-3041
DA	-3042
▁ทอง	-3043
▁ซึ่งเป็น	-3044
▁เพียง	-3045
▁นา	-3046
หรือไม่	-3047
▁อุตสาหกรรม	-3048
nolog	-3049
▁เรามี	-3050
หน่อย	-3051
▁เพื่อน	-3052
▁จึง	-3053
สไตล์	-3054
เม็ด	-3055
▁ตอบ	-3056
ase	-3057
▁Light	-3058
▁Air	-3059
เคิล	-3060
-9	-3061
คุกกี้	-3062
▁Elect	-3063
เอ็ม	-3064
oogle	-3065
▁การออกแบบ	-3066
่างกาย	-3067
ข้อความ	-3068
ทีม	-3069
ตลอด	-3070
เท่านั้น	-3071
▁ยินดี	-3072
หยุ่น	-3073
สมัย	-3074
มั้ย	-3075
ุย	-3076
ซา	-3077
หน้าจอ	-3078
▁ชี	-3079
▁36	-3080
กันน้ํา	-3081
▁เตียง	-3082
▁ยก	-3083
ุนั	-3084
ความสะดวก	-3085
▁ภายใน	-3086
ฝ้าย	-3087
▁สวน	-3088
มพู	-3089
ายนอก	-3090
กรู	-3091
▁ยา	-3092
▁สป	-3093
ผู้ใช้	-3094
OL	-3095
▁สถานี	-3096
วิเคราะห์	-3097
▁อัล	-3098
ให้คุณ	-3099
▁01	-3100
วา	-3101
ว่ายน้ํา	-3102
บู	-3103
▁การ์	-3104
▁กรุณ	-3105
ลิค	-3106
กลางแจ้ง	-3107
ังคับ	-3108
▁55	-3109
สํานักงาน	-3110
▁มิถุนายน	-3111
▁มอเตอร์	-3112
.9	-3113
▁Mar	-3114
การใช้	-3115
แซ	-3116
▁SC	-3117
เข้ม	-3118
▁เยน	-3119
26	-3120
SD	-3121
เมล์	-3122
▁พี่	-3123
าหล	-3124
ุนัข	-3125
มหาชน	-3126
วาร	-3127
หรอ	-3128
▁48	-3129
อยู่ที่	-3130
-20	-3131
เทน	-3132
ั๊ก	-3133
ภายนอก	-3134
จอง	-3135
ระเบ	-3136
ข้อม	-3137
ซัก	-3138
▁Eng	-3139
มอเตอร์	-3140
เบร	-3141
ก่อสร้าง	-3142
สูญ	-3143
▁คา	-3144
ann	-3145
เครือข่าย	-3146
41	-3147
▁นโยบาย	-3148
มาส	-3149
▁ร่วม	-3150
▁iPhone	-3151
▁หนุ่ม	-3152
หน้าที่	-3153
ฟัง	-3154
ํารุง	-3155
แต่ละ	-3156
กรุงเทพ	-3157
ใย	-3158
▁All	-3159
▁เขต	-3160
ทัศน์	-3161
พันธุ	-3162
ต้านทาน	-3163
▁เลข	-3164
ค้นหา	-3165
ิ้น	-3166
▁กิจกรรม	-3167
ควย	-3168
▁ทั้งหลาย	-3169
▁ขวด	-3170
ภูเก็ต	-3171
ประสงค์	-3172
▁คะ	-3173
▁รู้	-3174
ศว	-3175
ผู้ชาย	-3176
▁มือสมัครเล่น	-3177
ป์	-3178
▁3,	-3179
ene	-3180
▁99	-3181
ไร้สาย	-3182
▁ฮาร์ด	-3183
▁พลังงาน	-3184
▁Bar	-3185
แร	-3186
OP	-3187
▁เทคโนโลยี	-3188
IP	-3189
บรรจุภัณฑ์	-3190
จ่ายไฟ	-3191
▁(7	-3192
▁กรก	-3193
แพร่	-3194
หลังการขาย	-3195
ความร่วมมือ	-3196
▁สิงหาคม	-3197
วีซี	-3198
▁อิ	-3199
ใช้จ่าย	-3200
ดีที่สุด	-3201
ปรับปรุง	-3202
อยาก	-3203
วิทย	-3204
สัก	-3205
300	-3206
▁เครื่องทํา	-3207
▁PE	-3208
รั่งเศ	-3209
▁เท่า	-3210
ลักษณะ	-3211
สติ	-3212
เลิก	-3213
▁รีวิว	-3214
ภาคม	-3215
ree	-3216
IL	-3217
"&	-3218
ระบาย	-3219
ลบ	-3220
▁ตั้งแต่	-3221
จอดรถ	-3222
▁เปลี่ยน	-3223
มอบ	-3224
rom	-3225
▁ยาง	-3226
คู	-3227
▁Sol	-3228
เลือด	-3229
ันทร์	-3230
oh	-3231
▁กิโลกรัม	-3232
อาบน้ํา	-3233
พาณิชย์	-3234
ไฮดรอลิก	-3235
5)	-3236
ฤษภาคม	-3237
่านี้	-3238
▁ติดต่อเรา	-3239
▁09	-3240
▁แอ	-3241
ิ่น	-3242
บันท	-3243
▁ตรวจ	-3244
วาด	-3245
ิร์ฟ	-3246
▁สุข	-3247
own	-3248
ที่สมบูรณ์แบบ	-3249
▁การค้า	-3250
ข้อมือ	-3251
เรียก	-3252
▁Product	-3253
าอากาศ	-3254
รั่งเศส	-3255
87	-3256
กระท	-3257
กรี	-3258
ที่น่า	-3259
▁โคมไฟ	-3260
าหลี	-3261
201	-3262
จําเพาะ	-3263
▁รองเท้า	-3264
ux	-3265
หลากหลาย	-3266
วัง	-3267
ยึด	-3268
สภาพ	-3269
กลิ้ง	-3270
ิบเบียน	-3271
.6	-3272
▁Met	-3273
อเร	-3274
▁พิมพ์	-3275
ังก์ชั่น	-3276
▁LTD	-3277
แก้ไข	-3278
▁สํานักงาน	-3279
สอน	-3280
▁Ind	-3281
▁GB	-3282
เปลี่ยนแปลง	-3283
ไหว	-3284
าจ	-3285
lex	-3286
iss	-3287
บวนการ	-3288
ary	-3289
ual	-3290
ไกล	-3291
▁รูปแบบ	-3292
1,	-3293
▁Min	-3294
ภายใต้	-3295
▁เครื่องจักร	-3296
วิตช์	-3297
นิเจอร์	-3298
▁นม	-3299
▁1.5	-3300
▁อาจ	-3301
เอกสาร	-3302
▁07	-3303
กู้	-3304
คอล	-3305
นิก	-3306
▁UL	-3307
▁Technolog	-3308
▁Am	-3309
▁หมู่	-3310
ชร	-3311
ผลไม้	-3312
89	-3313
บันทึก	-3314
หรอก	-3315
▁ประมาณ	-3316
▁Tw	-3317
กับการ	-3318
▁ที	-3319
▁2014	-3320
องค์กร	-3321
▁นอกจากนี้	-3322
อันดับ	-3323
แฟน	-3324
▁ตอนนี้	-3325
ในปี	-3326
หลังจาก	-3327
เสม	-3328
ign	-3329
▁ที่อยู่	-3330
ไซด์	-3331
ung	-3332
▁แคริบเบียน	-3333
▁06	-3334
ิกา	-3335
เกาะ	-3336
สี่	-3337
้วย	-3338
Sh	-3339
สนุก	-3340
ลอย	-3341
ats	-3342
▁กรกฎ	-3343
ต่อก	-3344
▁กม	-3345
▁แปล	-3346
▁for	-3347
▁ในการ	-3348
▁Cent	-3349
ซิลิโคน	-3350
▁an	-3351
่ว่า	-3352
ครบ	-3353
▁กรกฎาคม	-3354
▁Google	-3355
เข้าถึง	-3356
▁น่ารัก	-3357
พันธุ์	-3358
3,	-3359
2,	-3360
▁คุณจะ	-3361
เหลี่ยม	-3362
อล์ฟ	-3363
▁เนื้อ	-3364
คริส	-3365
ด่วน	-3366
ลื่น	-3367
▁AP	-3368
างเก	-3369
รู้สึก	-3370
▁คะแนน	-3371
จัดหา	-3372
น่ะ	-3373
▁พลาสติก	-3374
▁75	-3375
MA	-3376
ยุโรป	-3377
ชื้น	-3378
ียก	-3379
▁De	-3380
▁สวย	-3381
▁หลังจาก	-3382
างเกง	-3383
ina	-3384
▁พี	-3385
4,	-3386
ที่มีความ	-3387
/201	-3388
ush	-3389
▁\	-3390
ซื้อขาย	-3391
▁Sm	-3392
กฎหมาย	-3393
ต่างประเทศ	-3394
ดน	-3395
มาจาก	-3396
▁Or	-3397
แท้	-3398
มากมาย	-3399
SC	-3400
๊าซ	-3401
บด	-3402
▁Gu	-3403
แลกเปลี่ยน	-3404
▁สาม	-3405
▁กุ	-3406
-12	-3407
........	-3408
▁บัตร	-3409
▁kgm	-3410
▁จังหวัด	-3411
TH	-3412
▁สะ	-3413
เกิดขึ้น	-3414
▁มันเป็น	-3415
▁ไว้	-3416
ชิ้น	-3417
ไม่ใช่	-3418
ทั่วโลก	-3419
▁38	-3420
ไปข้าง	-3421
▁ป้องกัน	-3422
▁โค	-3423
วิจัย	-3424
ปืน	-3425
▁แป	-3426
▁Berry	-3427
▁ล้อ	-3428
▁เกาะ	-3429
▁CAS	-3430
ดาว	-3431
ักษณ์	-3432
บัด	-3433
rip	-3434
ชมพู	-3435
St	-3436
▁ใคร	-3437
ารี	-3438
าลี	-3439
▁เซ็น	-3440
▁65	-3441
ital	-3442
อํานวย	-3443
▁ฟุต	-3444
ริกัน	-3445
ถัง	-3446
ุษย์	-3447
สีแดง	-3448
คเกจ	-3449
▁(0	-3450
บ้าง	-3451
ีน้ําตาล	-3452
▁AST	-3453
400	-3454
▁จง	-3455
บก	-3456
▁ตัวอย่าง	-3457
▁เดี	-3458
▁คู่มือ	-3459
RO	-3460
เว็บ	-3461
sm	-3462
pro	-3463
หาก	-3464
▁การใช้	-3465
บัส	-3466
เกลียว	-3467
▁เทียน	-3468
▁บุคคลทั่วไป	-3469
▁โลหะ	-3470
▁ฟัง	-3471
ert	-3472
▁กลับ	-3473
อสเตร	-3474
▁เดี๋ย	-3475
ica	-3476
ระบุ	-3477
กล่าว	-3478
พลิเคชัน	-3479
๋ว	-3480
รับประกัน	-3481
ull	-3482
ลี่	-3483
▁เกี่ยวกับการขาย	-3484
angk	-3485
โภ	-3486
เตือน	-3487
ich	-3488
▁start	-3489
AP	-3490
ชัด	-3491
yst	-3492
ode	-3493
▁กรุงเทพฯ	-3494
โฆษณา	-3495
าวเวอร์	-3496
บํารุง	-3497
ล้าง	-3498
ประหยัด	-3499
ลอน	-3500
แข็งแรง	-3501
ญแจ	-3502
▁สูงสุด	-3503
IF	-3504
ลอก	-3505
hai	-3506
▁Pre	-3507
VA	-3508
อรมัน	-3509
เสร็จ	-3510
▁ระยะเวลา	-3511
▁220	-3512
▁2013	-3513
คุ้ม	-3514
ถูกต้อง	-3515
ครอบครัว	-3516
erv	-3517
เลน	-3518
ประชา	-3519
DC	-3520
ไวน	-3521
▁ไม่ใช่	-3522
▁แสง	-3523
ational	-3524
ฟิล์ม	-3525
อัปโหลด	-3526
การค้า	-3527
กระจาย	-3528
oor	-3529
▁ชม	-3530
▁เห็น	-3531
ory	-3532
ของลูกค้า	-3533
▁ลบ	-3534
กรณี	-3535
▁ปริมาณ	-3536
▁วง	-3537
ทรก	-3538
arm	-3539
นักเรียน	-3540
ยิ่ง	-3541
▁สแตนเลส	-3542
▁ag	-3543
จริงๆ	-3544
แตกต่างกัน	-3545
เกียร์	-3546
▁dur	-3547
und	-3548
▁(1)	-3549
ิป	-3550
จํากัด	-3551
▁เคร	-3552
▁คอม	-3553
ต่อการ	-3554
พื้นฐาน	-3555
▁จน	-3556
พลาด	-3557
▁Des	-3558
▁ไม้	-3559
▁LCD	-3560
▁800	-3561
▁ต้น	-3562
▁ไฮ	-3563
อต	-3564
kg	-3565
fo	-3566
ัค	-3567
ith	-3568
▁เซ็กซี่	-3569
าท์	-3570
พับ	-3571
ถ้า	-3572
ของขวัญ	-3573
เกียว	-3574
จี	-3575
้าม	-3576
ภาษี	-3577
▁ฉันจะ	-3578
แต่งงาน	-3579
าร์ค	-3580
▁VPN	-3581
เหมาะสม	-3582
ทางการของ	-3583
ขี่	-3584
▁ประเภทผลิตภัณฑ์	-3585
ประดับ	-3586
สั้น	-3587
▁ความจุ	-3588
▁Aut	-3589
▁on	-3590
เซน	-3591
การศึกษา	-3592
▁ที่มีคุณภาพสูง	-3593
▁ภ	-3594
ดึง	-3595
เลื่อน	-3596
▁ASTM	-3597
โต๊ะ	-3598
eel	-3599
ฟัน	-3600
หนังสือ	-3601
▁มีความ	-3602
▁อีเมล	-3603
ype	-3604
▁Dr	-3605
▁ลิตร	-3606
▁กลาง	-3607
แม่เหล็ก	-3608
ผู	-3609
เบอร์รี่	-3610
▁พฤษภาคม	-3611
เข็น	-3612
พเจ้า	-3613
angkok	-3614
▁You	-3615
▁มห	-3616
▁110	-3617
ฟท์	-3618
อบรม	-3619
▁37	-3620
ธนาคาร	-3621
ต่อเนื่อง	-3622
รองรับ	-3623
มูล	-3624
aster	-3625
▁น่า	-3626
กําจัด	-3627
ft	-3628
ตัวเลือก	-3629
▁Technology	-3630
▁อิส	-3631
▁ตัวเลือก	-3632
▁ห้องพัก	-3633
▁ขน	-3634
line	-3635
อํานวยความสะดวก	-3636
เก่า	-3637
ลี่ย	-3638
▁High	-3639
อยู่กับ	-3640
เข้าใจ	-3641
ata	-3642
▁Mon	-3643
าหรับ	-3644
ียงใหม่	-3645
ฬิกา	-3646
▁ผู้ใหญ่	-3647
ader	-3648
▁0.5	-3649
าป	-3650
▁Power	-3651
เพลิง	-3652
▁ของเล่น	-3653
-201	-3654
ร้อง	-3655
วันนี้	-3656
600	-3657
พื้นผิว	-3658
▁เหร	-3659
ให้กับ	-3660
its	-3661
▁สัปดาห์	-3662
ebook	-3663
ดีเซล	-3664
ในราคา	-3665
เซลล์	-3666
▁งั้น	-3667
ผ่าศูนย์กลาง	-3668
ating	-3669
▁ST	-3670
▁Line	-3671
หรี่	-3672
ฉนวน	-3673
สินค้าของ	-3674
มวลผล	-3675
▁Roll	-3676
การ์ด	-3677
▁(8	-3678
อิง	-3679
เกษ	-3680
พ่อ	-3681
▁by	-3682
▁ปก	-3683
▁Hy	-3684
าร์ตี้	-3685
▁เหมือน	-3686
▁เหรียญ	-3687
ale	-3688
ild	-3689
ไปที่	-3690
mp	-3691
▁เดอะ	-3692
อีเมล	-3693
ลาก	-3694
900	-3695
สัมผัส	-3696
▁เราเป็นผู้ผลิต	-3697
▁Dis	-3698
▁ตา	-3699
-25	-3700
▁โมดูล	-3701
▁เครื่องวัด	-3702
ปลา	-3703
ml	-3704
ซะ	-3705
พลต	-3706
โดยตรง	-3707
enc	-3708
dong	-3709
มากขึ้น	-3710
▁ทน	-3711
บรวม	-3712
▁สุด	-3713
▁คริส	-3714
ISO	-3715
คิดว่า	-3716
อย่างไร	-3717
▁Sw	-3718
ins	-3719
▁คาร์	-3720
72	-3721
ารก	-3722
ผู้ใหญ่	-3723
คะแนน	-3724
เบา	-3725
iew	-3726
ไปข้างหน้า	-3727
แหล่ง	-3728
▁กรุณา	-3729
▁เริ่มต้น	-3730
▁ข้อมูลจําเพาะ	-3731
▁ผลิตภัณฑ์ของ	-3732
▁Le	-3733
โพลีเอสเตอร์	-3734
มม	-3735
้ก	-3736
สกุล	-3737
ฉบับ	-3738
แบน	-3739
▁แรงดันไฟฟ้า	-3740
ครั้งแรก	-3741
ปริมาณ	-3742
ระว่ายน้ํา	-3743
oot	-3744
▁นาง	-3745
Tube	-3746
าบัน	-3747
ดูก	-3748
ตนเอง	-3749
อัปโหลดโดย	-3750
อลลาร์	-3751
เทล	-3752
▁PCB	-3753
ino	-3754
ส่วนบุคคล	-3755
▁(6	-3756
ัดไป	-3757
ํารวจ	-3758
ต้า	-3759
ยืดหยุ่น	-3760
ทรีย์	-3761
-01	-3762
บอร์ด	-3763
▁Gro	-3764
▁GPS	-3765
ปลาย	-3766
▁7.	-3767
▁Led	-3768
RE	-3769
Porn	-3770
▁โรงเรียน	-3771
▁เราจะ	-3772
▁เครื่องพิมพ์	-3773
96	-3774
เปน	-3775
ท่า	-3776
เข้าร่วม	-3777
▁ad	-3778
ฝ่าย	-3779
▁ตัด	-3780
▁New	-3781
uangdong	-3782
▁Black	-3783
ระดับโลก	-3784
▁ใหญ่	-3785
สํารอง	-3786
ous	-3787
▁Sil	-3788
▁พูด	-3789
พัน	-3790
ลาสสิ	-3791
เสื้อผ้า	-3792
ake	-3793
▁ท่า	-3794
รู้จัก	-3795
สะดวก	-3796
สังคม	-3797
▁No	-3798
▁Dec	-3799
ตรวจจับ	-3800
และการสนับสนุน	-3801
▁เป็นต้น	-3802
ทองแดง	-3803
สื่อสาร	-3804
บริการลูกค้า	-3805
▁SH	-3806
ดิต	-3807
orex	-3808
บํา	-3809
สัปดาห์	-3810
โรงเรียน	-3811
พลตฟอร์ม	-3812
จึง	-3813
วบรวม	-3814
acebook	-3815
บโต	-3816
ช่วยเหลือ	-3817
▁คืน	-3818
ปล่อย	-3819
ทู	-3820
โครงสร้าง	-3821
เวณ	-3822
กอง	-3823
ebei	-3824
ความดัน	-3825
▁ความคิดเห็น	-3826
▁เกรด	-3827
▁อะไหล่	-3828
เทา	-3829
iam	-3830
ประมวลผล	-3831
▁ความสามารถในการ	-3832
ิร์ฟเวอร์	-3833
รศ	-3834
▁Med	-3835
ซิล	-3836
rib	-3837
▁ห้องน้ํา	-3838
ั๋ว	-3839
ound	-3840
ไซเคิล	-3841
▁รองรับ	-3842
▁แผนที่	-3843
การออกแบบ	-3844
แบ่ง	-3845
-15	-3846
สิ่งที่	-3847
▁วินาที	-3848
ว่าง	-3849
ance	-3850
ext	-3851
▁โรงงานขายส่ง	-3852
.30	-3853
▁Sk	-3854
หมายเลข	-3855
ั้ม	-3856
ole	-3857
IA	-3858
▁วิทยาลัย	-3859
lish	-3860
ความคิดเห็น	-3861
ส่วนลด	-3862
▁ปฏ	-3863
ตกลง	-3864
▁เอ่อ	-3865
ทนทาน	-3866
▁ข้าพเจ้า	-3867
over	-3868
CH	-3869
ปุ่ม	-3870
▁2012	-3871
▁โปรโมชั่น	-3872
เดียวกัน	-3873
▁บู	-3874
ดําเนินงาน	-3875
พฤ	-3876
any	-3877
org	-3878
ลักษณ์	-3879
กระจก	-3880
ทรรศ	-3881
ount	-3882
▁Tags	-3883
กําเนิดไฟฟ้า	-3884
อิสระ	-3885
อี้	-3886
บังคับ	-3887
ล็อค	-3888
▁เกิด	-3889
▁พวกเขา	-3890
เดต	-3891
▁..	-3892
พลัง	-3893
▁กรณี	-3894
CC	-3895
พนักงาน	-3896
กุล	-3897
▁Ning	-3898
าชาติ	-3899
▁สนับสนุน	-3900
ท็อป	-3901
ุนแรง	-3902
ขุด	-3903
▁สีขาว	-3904
▁ลํา	-3905
กิน	-3906
▁และการผลิต	-3907
สายเคเบิล	-3908
ถุ	-3909
ทวาร	-3910
หลาด	-3911
MS	-3912
เพล	-3913
▁เสียง	-3914
air	-3915
▁SS	-3916
76	-3917
็ป	-3918
เทเนียม	-3919
▁0.0	-3920
▁ความกว้าง	-3921
รรยา	-3922
▁แก้	-3923
ปู	-3924
วิส	-3925
เชื่อถือ	-3926
▁1)	-3927
olf	-3928
ise	-3929
rap	-3930
ญากาศ	-3931
▁Copy	-3932
สห	-3933
▁พัทยา	-3934
ซ้ํา	-3935
▁เคลือบ	-3936
▁หยุด	-3937
▁ฮาร์ดคอร์	-3938
ูปอง	-3939
คุณสมบัติ	-3940
ble	-3941
ence	-3942
ons	-3943
▁แฟน	-3944
▁2000	-3945
▁ตรง	-3946
▁ประสิทธิภาพ	-3947
่วงหน้า	-3948
LE	-3949
เรามีบริการ	-3950
▁ประกอบ	-3951
เด่น	-3952
▁รวมถึง	-3953
yn	-3954
▁คอนโด	-3955
▁ยินดีต้อนรับ	-3956
▁Poly	-3957
ยัน	-3958
74	-3959
▁ถัง	-3960
▁ABS	-3961
▁2.5	-3962
มีด	-3963
▁DV	-3964
ไปข้างหน้าเพื่อ	-3965
สวยงาม	-3966
▁การตลาด	-3967
▁ได้แก่	-3968
ตัวแทน	-3969
ont	-3970
▁33	-3971
ได้ที่	-3972
cm	-3973
TF	-3974
▁ภาษาไทย	-3975
กอล์ฟ	-3976
เทรด	-3977
รอยด์	-3978
ถิ่น	-3979
โปร์	-3980
de	-3981
ouse	-3982
▁ฟิล์ม	-3983
สุนัข	-3984
▁ประเภทสินค้าของ	-3985
MM	-3986
▁On	-3987
าศาสตร์	-3988
▁สถ	-3989
เวน	-3990
เดน	-3991
▁ตก	-3992
▁pro	-3993
▁สัญญา	-3994
▁เงื่อนไข	-3995
▁การใช้งาน	-3996
อาง	-3997
▁วาห์	-3998
▁Tube	-3999
ึ้ง	-4000
ใช้ใน	-4001
▁IC	-4002
▁Qu	-4003
สนอง	-4004
:1	-4005
▁เชื่อม	-4006
▁2)	-4007
โดร	-4008
สําอาง	-4009
ดีต	-4010
ภาษาอังกฤษ	-4011
ัสดี	-4012
▁ago	-4013
▁4,	-4014
ath	-4015
▁Exp	-4016
ยิน	-4017
▁2010	-4018
▁Ant	-4019
▁ยอด	-4020
▁180	-4021
ott	-4022
คโปร์	-4023
-00	-4024
▁Col	-4025
ทับ	-4026
อุ	-4027
แรงดัน	-4028
้าหมาย	-4029
ื่อย	-4030
สิง	-4031
ประทาน	-4032
เต้น	-4033
รักษาความปลอดภัย	-4034
คาสิโน	-4035
หู	-4036
▁เบอร์	-4037
▁ประส	-4038
ศิลปะ	-4039
▁al	-4040
ays	-4041
พุต	-4042
▁ทีม	-4043
rid	-4044
จันทร์	-4045
โตร	-4046
amster	-4047
กาแฟ	-4048
ลี	-4049
ple	-4050
ญ้า	-4051
▁ขาว	-4052
79	-4053
เบิ้ล	-4054
▁แบรนด์ชั้นนํา	-4055
ํานาจ	-4056
ไปด้วย	-4057
lin	-4058
▁●	-4059
เนส	-4060
▁ธุรกิจ	-4061
▁สหรัฐ	-4062
▁ดูด	-4063
▁UV	-4064
แทรก	-4065
อะไหล่	-4066
รษฐ	-4067
รัง	-4068
58	-4069
OD	-4070
▁86	-4071
ww	-4072
เอ็น	-4073
SP	-4074
เครื่องดื่ม	-4075
▁ก่อ	-4076
▁รหัสสินค้า	-4077
▁Products	-4078
ซอฟต์แวร์	-4079
▁Cap	-4080
▁ควบคุม	-4081
การจัดการ	-4082
▁เลขที่	-4083
▁บทความ	-4084
อสเตรเลีย	-4085
▁เมล	-4086
▁บลอนด์	-4087
ams	-4088
หาริม	-4089
▁จอแสดงผล	-4090
▁จอง	-4091
▁CC	-4092
กรีต	-4093
▁10%	-4094
▁นี่คือ	-4095
▁ตําแหน่ง	-4096
เผย	-4097
▁โรงพยาบาล	-4098
▁30%	-4099
ไบด์	-4100
▁sh	-4101
▁โครงสร้าง	-4102
หาริมทรัพย์	-4103
น้	-4104
▁Out	-4105
▁com	-4106
สหรัฐอเมริกา	-4107
ัมผัส	-4108
อยู่อ	-4109
ustom	-4110
▁ทํางาน	-4111
▁สัตว์	-4112
เทอร์เน็ต	-4113
หลังคา	-4114
▁พอร์ต	-4115
▁เว็บแคม	-4116
TR	-4117
เมริกัน	-4118
▁(18	-4119
▁แกน	-4120
▁04	-4121
Guangdong	-4122
▁วิล	-4123
rav	-4124
วัย	-4125
▁Ge	-4126
ุมวิท	-4127
▁Web	-4128
ester	-4129
▁PU	-4130
▁โพสต์	-4131
ings	-4132
ตะวันออก	-4133
น้อง	-4134
eed	-4135
เตรียม	-4136
เข็ม	-4137
สาธารณะ	-4138
จิต	-4139
ป่า	-4140
้าอี้	-4141
ขั้นต่ํา	-4142
▁Bangkok	-4143
เพรส	-4144
สามารถใช้	-4145
▁03	-4146
▁Red	-4147
▁THB	-4148
apan	-4149
▁CH	-4150
▁การควบคุม	-4151
xia	-4152
riv	-4153
เมอร์	-4154
สุดท้าย	-4155
▁มิลลิเมตร	-4156
รูปภาพ	-4157
ier	-4158
แกะ	-4159
ตาราง	-4160
้นํา	-4161
บําบัด	-4162
ร่างกาย	-4163
ไปแล้ว	-4164
itch	-4165
▁ซิ	-4166
ents	-4167
▁เสีย	-4168
ition	-4169
porn	-4170
itt	-4171
ากฏ	-4172
▁แบริ่ง	-4173
▁สั่ง	-4174
ประกาศ	-4175
แขน	-4176
▁ติด	-4177
เฉิน	-4178
ฟา	-4179
แฟชั่น	-4180
ุกร์	-4181
▁กอง	-4182
สนามบิน	-4183
eld	-4184
ห่าง	-4185
ลล์	-4186
รองเท้า	-4187
/4	-4188
▁เอก	-4189
เมล็ด	-4190
ปิ้ง	-4191
ปเตอร์	-4192
▁de	-4193
ร้าย	-4194
▁ระหว่าง	-4195
www	-4196
โอกาส	-4197
▁Test	-4198
ปรับแต่ง	-4199
▁นักเรียน	-4200
▁มากกว่า	-4201
755	-4202
ชิง	-4203
▁กระจ	-4204
เกษตร	-4205
▁SP	-4206
ทราย	-4207
▁ก้น	-4208
เติบโต	-4209
านคร	-4210
▁ชื่อสินค้า	-4211
นั่น	-4212
national	-4213
94	-4214
อยล์	-4215
้านี้	-4216
IG	-4217
จะมี	-4218
หลวง	-4219
▁Off	-4220
MC	-4221
ฟุต	-4222
TV	-4223
แดปเตอร์	-4224
FF	-4225
แอล	-4226
ําเภ	-4227
▁85	-4228
▁ตรวจสอบ	-4229
▁คุณภาพสูง	-4230
ความเย็น	-4231
▁ติดตั้ง	-4232
ุกเฉิน	-4233
▁เกย์	-4234
▁ประกาศ	-4235
▁ข้อความ	-4236
82	-4237
ีนี้	-4238
เมนู	-4239
เรือน	-4240
รฟ์	-4241
▁Thai	-4242
-30	-4243
▁Super	-4244
▁2011	-4245
▁เทป	-4246
▁เครื่องยนต์	-4247
▁เรียน	-4248
ความถี่	-4249
▁ข้อกําหนด	-4250
สเตอร์	-4251
สําหรับเด็ก	-4252
ออป	-4253
รั้ว	-4254
เหร	-4255
ยาก	-4256
reen	-4257
Fi	-4258
▁±	-4259
เมนต์	-4260
กง	-4261
▁กําหนด	-4262
▁มล	-4263
ฝน	-4264
▁โบนัส	-4265
เพชร	-4266
800	-4267
▁แหล่งจ่ายไฟ	-4268
iang	-4269
ไม่ต้อง	-4270
▁Copyright	-4271
▁โช	-4272
▁Val	-4273
ทิ้ง	-4274
ซับ	-4275
รัสเซีย	-4276
เป็นทางการ	-4277
วิธีการ	-4278
AB	-4279
ซ่อม	-4280
▁Sun	-4281
▁ปาก	-4282
esh	-4283
▁PET	-4284
▁แนะนํา	-4285
oles	-4286
เนต	-4287
▁โรค	-4288
In	-4289
▁ลูกค้า	-4290
▁ปีที่ผ่านมา	-4291
iec	-4292
ุ๋ย	-4293
พอร์ต	-4294
กําลังกาย	-4295
โภค	-4296
▁คําอธิบาย	-4297
ณาจักร	-4298
เสาร์	-4299
ma	-4300
▁Cr	-4301
ซิน	-4302
▁ไน	-4303
▁ซา	-4304
▁2559	-4305
ายัง	-4306
ose	-4307
▁เฉ	-4308
▁สายเคเบิล	-4309
▁ประวัติ	-4310
ape	-4311
เฉลี่ย	-4312
▁บอก	-4313
EX	-4314
▁Serv	-4315
ทา	-4316
สํารวจ	-4317
คลิก	-4318
๊ส	-4319
หรู	-4320
เสียหาย	-4321
แพง	-4322
ข้าม	-4323
▁ความสูง	-4324
ANG	-4325
▁เซน	-4326
▁แอนด์	-4327
โซ่	-4328
พีวีซี	-4329
เรียบ	-4330
ัฒนธรรม	-4331
และอื่น	-4332
▁บุตร	-4333
ของผู้	-4334
อาร์	-4335
หนู	-4336
สิต	-4337
els	-4338
เป่า	-4339
คัด	-4340
▁ไฟล์	-4341
▁อินเตอร์	-4342
ara	-4343
▁สาขา	-4344
และโรงงาน	-4345
ษัต	-4346
▁เรือ	-4347
ขั้นตอน	-4348
ษัตริ	-4349
ราว	-4350
ทิศ	-4351
กู้คืน	-4352
▁รายละเอียดอัตรา	-4353
▁สต	-4354
พิษ	-4355
เป็นไร	-4356
เงื่อนไข	-4357
▁RoHS	-4358
ฟู	-4359
ิโอ	-4360
ยายาม	-4361
เดท	-4362
ในร่ม	-4363
เครดิต	-4364
จนถึง	-4365
▁ตารางเมตร	-4366
▁มิติ	-4367
อร์โม	-4368
▁สวัสดี	-4369
ี่ห	-4370
▁ปร	-4371
ตูน	-4372
▁สิ	-4373
▁Inst	-4374
อนุม	-4375
▁หลาย	-4376
AW	-4377
ย้าย	-4378
▁Dong	-4379
▁ชา	-4380
เข้าพัก	-4381
▁จับ	-4382
จัดเก็บ	-4383
utor	-4384
▁กางเกง	-4385
▁Facebook	-4386
▁มาร	-4387
▁Machin	-4388
้นท์	-4389
หอม	-4390
▁พิเศษ	-4391
▁ริ	-4392
รวมถึง	-4393
ther	-4394
ideos	-4395
ีล	-4396
▁Mot	-4397
row	-4398
เซ็ก	-4399
001,	-4400
เคลื่อนไหว	-4401
/25	-4402
orld	-4403
ทุกคน	-4404
▁For	-4405
ามา	-4406
เฟต	-4407
ประวัติ	-4408
ime	-4409
▁บวก	-4410
วิทยา	-4411
เย็บ	-4412
▁1,000	-4413
พระเจ้า	-4414
มหานคร	-4415
▁ทด	-4416
▁หน้าจอ	-4417
จดหมาย	-4418
ษัตริย์	-4419
▁เอส	-4420
▁นวด	-4421
ค่าใช้จ่าย	-4422
▁TR	-4423
▁สูตร	-4424
คดี	-4425
▁EN	-4426
ในราคาต่ํา	-4427
ไพร	-4428
▁Bit	-4429
ําลัง	-4430
ริยะ	-4431
สกัดจาก	-4432
▁Cor	-4433
ไพ	-4434
บัว	-4435
UN	-4436
▁หลักสูตร	-4437
73	-4438
เหล่านี้	-4439
▁คําถาม	-4440
เกร	-4441
เล็ต	-4442
SS	-4443
anc	-4444
lo	-4445
ผ่อน	-4446
▁64	-4447
สู้	-4448
berry	-4449
▁โย	-4450
▁สิ่งที่	-4451
▁ถูกหนึ่งใน	-4452
▁เครื่องขึ้นรูป	-4453
สีเหลือง	-4454
ออน	-4455
me	-4456
▁ไท	-4457
ียรอยด์	-4458
ชื่น	-4459
▁คืออะไร	-4460
กระบอก	-4461
▁ดาว	-4462
▁XX	-4463
ของบริษัท	-4464
oint	-4465
ตอบสนอง	-4466
คําถาม	-4467
▁ส่วนลด	-4468
ป้องกันการ	-4469
เครน	-4470
▁มหาวิทยาลัย	-4471
ited	-4472
ี่ห้อ	-4473
ดี้	-4474
71	-4475
▁ซู	-4476
พาร์ท	-4477
ผึ้ง	-4478
▁101	-4479
▁กล่าว	-4480
▁ลอง	-4481
rop	-4482
93	-4483
▁TNT	-4484
นวด	-4485
ไมโคร	-4486
izer	-4487
▁ชาวอินเดีย	-4488
USD	-4489
▁หา	-4490
▁เหมาะสําหรับ	-4491
▁เสาอากาศ	-4492
โคล	-4493
ในการทํางาน	-4494
สลัก	-4495
เสี่ยง	-4496
▁หนังสือ	-4497
ิตาลี	-4498
LTD	-4499
ถัก	-4500
▁คูณ	-4501
ทันที	-4502
บล็อก	-4503
▁ป้าย	-4504
หัวใจ	-4505
ัชน	-4506
▁5,	-4507
▁เยี่ยม	-4508
ก๊าซ	-4509
▁มูล	-4510
▁วันนี้	-4511
แปร	-4512
ชื่อเสียง	-4513
๊กเกอร์	-4514
ผิดพลาด	-4515
▁(20	-4516
▁(2)	-4517
สายไฟ	-4518
▁International	-4519
ปลอม	-4520
เมี่ยม	-4521
เหรียญ	-4522
ส่งเสริม	-4523
เทจ	-4524
ัลติ	-4525
ฉุกเฉิน	-4526
▁ต่าง	-4527
กระแส	-4528
▁บล็อก	-4529
สาน	-4530
▁ชีวิต	-4531
ป่วย	-4532
▁ฉันไม่	-4533
ที่ต้องการ	-4534
urn	-4535
แบบพกพา	-4536
ไปได้	-4537
กลาส	-4538
หมึก	-4539
ใช่ม	-4540
ทัด	-4541
ตัล	-4542
IR	-4543
ในประเทศ	-4544
ธรรมดา	-4545
บาล	-4546
เครื่องหมาย	-4547
▁Inc	-4548
ฝา	-4549
โมดูล	-4550
อุ่น	-4551
▁นอน	-4552
min	-4553
▁42	-4554
▁เม็ด	-4555
วิชา	-4556
ซาก	-4557
▁20%	-4558
แย	-4559
หมายถึง	-4560
โทรศัพท์มือถือ	-4561
นู	-4562
ทัวร์	-4563
กรอบ	-4564
ความเป็นส่วนตัว	-4565
▁น้อย	-4566
คุย	-4567
ยุก	-4568
itter	-4569
และผู้จําหน่าย	-4570
▁8.	-4571
คณะกรรมการ	-4572
ศวกรรม	-4573
▁สํา	-4574
ears	-4575
้างอิง	-4576
▁โบ	-4577
คาร์ไบด์	-4578
ys	-4579
พิธ	-4580
ต่อไปนี้	-4581
แอป	-4582
เพิ่มขึ้น	-4583
▁พบ	-4584
ทรรศการ	-4585
form	-4586
▁90%	-4587
166	-4588
เอล	-4589
ชุบสังกะสี	-4590
ยุกต์	-4591
▁อืม	-4592
▁ธนาคาร	-4593
▁กา	-4594
")	-4595
จาร	-4596
fe	-4597
ัจฉ	-4598
มาน	-4599
หนาว	-4600
▁ปรับปรุง	-4601
อริ	-4602
▁sp	-4603
▁รั้ว	-4604
เสมอ	-4605
โดด	-4606
ซึ	-4607
ener	-4608
ด้าย	-4609
▁แน่น	-4610
aler	-4611
วิล	-4612
▁ใด	-4613
▁English	-4614
▁คิด	-4615
ึกษ	-4616
ใบไม้	-4617
โต้	-4618
▁ที่จะ	-4619
รีไซเคิล	-4620
ที่มีประสิทธิภาพ	-4621
ทราบ	-4622
▁TP	-4623
rist	-4624
จังหวัด	-4625
▁เท่ากับ	-4626
▁คัด	-4627
▁รับประกัน	-4628
▁ร้านอาหาร	-4629
แหวน	-4630
▁bl	-4631
ออกกําลังกาย	-4632
ุ่นยนต์	-4633
ห่อ	-4634
สตรี	-4635
ทําอะไร	-4636
ystem	-4637
ication	-4638
จดทะเบียน	-4639
▁การทดสอบ	-4640
ฮา	-4641
ัชนี	-4642
ัญญ	-4643
ใจในการ	-4644
TP	-4645
▁Pack	-4646
สกรู	-4647
สนิม	-4648
็ท	-4649
ละคร	-4650
91	-4651
▁แซ	-4652
าล่ะ	-4653
▁Wi	-4654
วย์	-4655
และมี	-4656
แผนที่	-4657
ping	-4658
ล็อต	-4659
▁RFID	-4660
สีเขียว	-4661
▁Rel	-4662
▁Bo	-4663
err	-4664
โบนัส	-4665
▁34	-4666
ขึ้นไป	-4667
▁โก	-4668
การเงิน	-4669
แหละ	-4670
▁2.0	-4671
ที่อยู่	-4672
▁ดอลลาร์	-4673
2.	-4674
ยกรรม	-4675
SA	-4676
IM	-4677
▁Dist	-4678
เดียม	-4679
xx	-4680
เป็นคน	-4681
หน้าต่าง	-4682
คอนกรีต	-4683
ana	-4684
▁คณะกรรมการ	-4685
ยิง	-4686
▁การประ	-4687
TA	-4688
ดัด	-4689
▁เร็	-4690
ional	-4691
ลงทะเบียน	-4692
ถุด	-4693
ปร่าง	-4694
ี้ยว	-4695
▁Series	-4696
bc	-4697
oz	-4698
▁ภรรยา	-4699
▁ซอฟต์แวร์	-4700
▁รอย	-4701
จู	-4702
รับผิด	-4703
กันได้	-4704
ัจฉริยะ	-4705
▁SD	-4706
▁MB	-4707
อย่างรวดเร็ว	-4708
▁เหตุ	-4709
โป๊	-4710
▁Mod	-4711
โฟน	-4712
bl	-4713
หนะ	-4714
▁แหวน	-4715
▁รางวัล	-4716
ออฟ	-4717
รวบรวม	-4718
อร์โมน	-4719
าร์ม	-4720
โค้	-4721
▁Trans	-4722
▁อีเมล์	-4723
พิธภัณฑ์	-4724
hy	-4725
ม์	-4726
▁ล้านบาท	-4727
เรียนรู้	-4728
ภ์	-4729
oss	-4730
ออกไป	-4731
▁รัส	-4732
ารามิ	-4733
รษฐกิจ	-4734
ันทึก	-4735
▁เฟอร์	-4736
▁สไตล์	-4737
iy	-4738
UV	-4739
ุ้น	-4740
รถบรรทุก	-4741
โปรโมชั่น	-4742
▁ID	-4743
เมิน	-4744
ารามิเตอร์	-4745
ถุดิบ	-4746
ปัก	-4747
▁ฝา	-4748
▁แอน	-4749
▁Pan	-4750
▁ไม่ได้	-4751
▁ใกล้	-4752
สแกน	-4753
ราคาถูก	-4754
52	-4755
▁ทะ	-4756
▁สีน้ําตาล	-4757
อยู่อาศัย	-4758
GS	-4759
เท่ากับ	-4760
ปรา	-4761
กุญแจ	-4762
▁สวิตช์	-4763
na	-4764
▁ประจํา	-4765
▁การผลิต	-4766
▁กระเป๋	-4767
▁ข้าพระ	-4768
ั้วต่อ	-4769
มนุษย์	-4770
▁โท	-4771
▁กีฬา	-4772
ยังไง	-4773
1.	-4774
วัตกรรม	-4775
ธรรมเนียม	-4776
▁แต่ง	-4777
แร่	-4778
ized	-4779
ที่สําคัญ	-4780
▁ที่ดีที่สุด	-4781
olic	-4782
▁Fr	-4783
ป้อง	-4784
ป้าย	-4785
ธารณ	-4786
ซัพพลายเออร์	-4787
▁Ab	-4788
▁ฝ่าย	-4789
บิด	-4790
▁MP	-4791
เกต	-4792
ates	-4793
แท็ก	-4794
▁ปุ่ม	-4795
▁pl	-4796
▁เมล็ด	-4797
ภาพยนตร์	-4798
▁คล	-4799
กุหลาบ	-4800
▁กด	-4801
กร่อน	-4802
su	-4803
สาขา	-4804
อาณาจักร	-4805
▁inter	-4806
▁Water	-4807
สะสม	-4808
ทันสมัย	-4809
โฟม	-4810
ump	-4811
▁พา	-4812
รึ	-4813
โพง	-4814
เลียง	-4815
คืออะไร	-4816
ล่วงหน้า	-4817
จําลอง	-4818
การทํา	-4819
ออกไซด์	-4820
▁ใจ	-4821
หุ้ม	-4822
▁ในปี	-4823
การชําระเงิน	-4824
▁1.0	-4825
นานาชาติ	-4826
▁ที่นั่ง	-4827
6,	-4828
ฟิก	-4829
กํากับ	-4830
▁Top	-4831
▁50%	-4832
▁กรด	-4833
้อป	-4834
▁แนว	-4835
▁เจาะ	-4836
ที่แตกต่างกัน	-4837
ยากร	-4838
าก็	-4839
สึ	-4840
ภาวะ	-4841
อัลตรา	-4842
แดด	-4843
จะไม่	-4844
▁เกี่ยวกับเรา	-4845
หด	-4846
-11	-4847
หลักทรัพย์	-4848
และอุปกรณ์	-4849
ปลีก	-4850
▁ศิลป	-4851
▁แขวง	-4852
▁360	-4853
เซิร์ฟเวอร์	-4854
แม่พิมพ์	-4855
ที่ได้รับ	-4856
ors	-4857
/10	-4858
▁cl	-4859
way	-4860
ราง	-4861
▁โพลี	-4862
81	-4863
▁ถุงมือ	-4864
ณฑล	-4865
นิ้ว	-4866
ให้อ	-4867
▁Micros	-4868
หก	-4869
ภูมิภาค	-4870
ปรึกษา	-4871
อลล์	-4872
ama	-4873
อินทรีย์	-4874
ักษ์	-4875
gan	-4876
ก็ได้	-4877
ินเจ	-4878
กซ์	-4879
3.	-4880
มากที่สุด	-4881
กรม	-4882
สรรค์	-4883
▁ลา	-4884
▁XXX	-4885
▁Part	-4886
ฟังก์ชั่น	-4887
เส้นทาง	-4888
▁หากคุณ	-4889
▁ลิขสิทธิ์	-4890
▁70%	-4891
:10	-4892
pr	-4893
,,	-4894
▁ประหยัด	-4895
ระเบิด	-4896
ที่คุณต้องการ	-4897
▁304	-4898
▁โหมด	-4899
▁ภูเก็ต	-4900
กาว	-4901
▁โป	-4902
หวาน	-4903
ักษา	-4904
5,	-4905
สเตน	-4906
less	-4907
สติ้ง	-4908
สมาร์ท	-4909
/1	-4910
๊อก	-4911
ักร	-4912
ที่พัก	-4913
▁สอบ	-4914
▁กลางแจ้ง	-4915
ject	-4916
oid	-4917
▁ที่รัก	-4918
▁39	-4919
▁การเดินทาง	-4920
▁เร็ว	-4921
ION	-4922
พัด	-4923
▁สีแดง	-4924
▁เอาล่ะ	-4925
ผ่านศูนย์กลาง	-4926
▁RE	-4927
▁เท่านั้น	-4928
ป๋	-4929
▁Wholes	-4930
ฤดูใบไม้	-4931
▁เพื่อให้	-4932
▁List	-4933
andong	-4934
สู่ระบบ	-4935
ยอมรับ	-4936
CP	-4937
รรณ	-4938
จาน	-4939
▁มก	-4940
▁มิน	-4941
▁เต็ม	-4942
▁Vis	-4943
▁Group	-4944
Com	-4945
ด้วยการ	-4946
กระเบื้อง	-4947
OK	-4948
จําเป็นต้อง	-4949
จบ	-4950
▁%	-4951
▁แพคเกจ	-4952
▁อัพ	-4953
sc	-4954
แบรนด์ของ	-4955
atic	-4956
▁สหรัฐอเมริกา	-4957
ดก	-4958
▁เสื้อผ้า	-4959
ผ่าตัด	-4960
▁ชายหาด	-4961
ทธ์	-4962
KW	-4963
▁160	-4964
ราซิล	-4965
เดียน	-4966
ปัน	-4967
ท้อน	-4968
ใช้กับ	-4969
ิติ	-4970
ions	-4971
▁2009	-4972
ส้	-4973
สากล	-4974
เครื่องทํา	-4975
▁—	-4976
▁95	-4977
▁Up	-4978
วัตต์	-4979
ถียร	-4980
yc	-4981
RP	-4982
ุรกี	-4983
Hebei	-4984
ฟเฟ	-4985
les	-4986
▁3000	-4987
▁บันทึก	-4988
ขาด	-4989
NS	-4990
▁China	-4991
แฮ	-4992
▁1:	-4993
แช่	-4994
โนะ	-4995
หวัง	-4996
ACH	-4997
▁Cas	-4998
▁ใส่	-4999
▁จด	-5000
ําเภอ	-5001
เปรียบ	-5002
ลก	-5003
ิญ	-5004
ชั่วโมง	-5005
บ้า	-5006
คลื่น	-5007
ตื่น	-5008
010	-5009
ในประเทศจีน	-5010
429	-5011
รี่ส์	-5012
เว้น	-5013
▁ร้านค้า	-5014
▁(9	-5015
อินเตอร์	-5016
ิทิน	-5017
สอบถาม	-5018
วนอน	-5019
ังสเตน	-5020
▁การจัด	-5021
▁#1	-5022
▁≤	-5023
แดน	-5024
▁ออฟ	-5025
ทางการแพทย์	-5026
เพดาน	-5027
▁+66	-5028
นี้มี	-5029
ปรากฏ	-5030
▁โฟ	-5031
uri	-5032
ของเขา	-5033
โยง	-5034
▁2558	-5035
oto	-5036
UP	-5037
▁ขา	-5038
84	-5039
หน้านี้	-5040
▁Em	-5041
วิ่ง	-5042
ได้ดี	-5043
▁โรงแรมใน	-5044
ware	-5045
จัง	-5046
ips	-5047
ane	-5048
ือย	-5049
▁กันน้ํา	-5050
เพรสเซอร์	-5051
ฝรั่งเศส	-5052
ุธ	-5053
▁€	-5054
นิว	-5055
เฟซ	-5056
เวย์	-5057
iqu	-5058
ินเจิ้น	-5059
▁และอื่น	-5060
ุ๊	-5061
▁ap	-5062
ivers	-5063
▁ทัวร์	-5064
▁Zh	-5065
มาตรฐานระดับโลก	-5066
ese	-5067
กลิ่น	-5068
อาการ	-5069
▁อินเดีย	-5070
83	-5071
▁ปัจจุบัน	-5072
บดี	-5073
็ดลับ	-5074
แอน	-5075
onth	-5076
ributor	-5077
▁Ed	-5078
cess	-5079
การทดสอบ	-5080
▁ไม่ว่า	-5081
ภูเขา	-5082
รถเข็น	-5083
ข้อมูลเพิ่มเติม	-5084
กลัว	-5085
▁จู	-5086
ย่อ	-5087
▁แฮ	-5088
▁การตลาดดิจิตอล	-5089
59	-5090
มาร์	-5091
รู้ว่า	-5092
เต็มรูปแบบ	-5093
ความสําเร็จ	-5094
▁350	-5095
เคียง	-5096
▁เพลง	-5097
▁เหล่า	-5098
irl	-5099
ตั้งขึ้น	-5100
▁เดือนที่ผ่านมา	-5101
คิว	-5102
cf	-5103
▁Fil	-5104
หลักสูตร	-5105
ลูกกลิ้ง	-5106
Ch	-5107
ซูล	-5108
ฟุตบอล	-5109
ครอบคลุม	-5110
สั่น	-5111
owder	-5112
OW	-5113
▁ต้องการ	-5114
HP	-5115
คําน	-5116
▁ครับ	-5117
ชีว	-5118
ดิส	-5119
▁Indust	-5120
▁สนุก	-5121
▁ข้าว	-5122
ยกเลิก	-5123
▁จักร	-5124
▁และมี	-5125
ถือหุ้น	-5126
▁ความรัก	-5127
▁Act	-5128
เพื่อให้	-5129
ธานี	-5130
▁ประสบการณ์	-5131
การพิมพ์	-5132
▁รัก	-5133
ไฮโดร	-5134
▁สห	-5135
▁Custom	-5136
▁เป็นแบรนด์ของ	-5137
▁โต๊ะ	-5138
ตราย	-5139
ล้าน	-5140
การเดินทาง	-5141
▁ตลับ	-5142
ฝึกอบรม	-5143
▁CR	-5144
กระบวนการ	-5145
บาน	-5146
▁le	-5147
▁-&	-5148
▁Report	-5149
กร้า	-5150
kw	-5151
ังก์ชัน	-5152
เป็นที่	-5153
เลท	-5154
▁แว	-5155
▁โลก	-5156
▁อังกฤษ	-5157
ทดลอง	-5158
ชี้	-5159
▁Che	-5160
▁วางใจในการ	-5161
ts	-5162
▁you	-5163
เรียกว่า	-5164
8,	-5165
จะต้อง	-5166
ค้น	-5167
▁คัดลอก	-5168
OB	-5169
▁ผู้เข้าชม	-5170
▁ไม่ต้อง	-5171
pen	-5172
ยอดนิยม	-5173
▁Mult	-5174
อยู่ที่นี่	-5175
▁Word	-5176
ธ์	-5177
▁Int	-5178
▁ตัวแทน	-5179
เพื่อการ	-5180
▁กระทํา	-5181
อนุมัติ	-5182
▁Ne	-5183
บริเวณ	-5184
53	-5185
▁ที่นี่	-5186
land	-5187
คล้อง	-5188
ท้องถิ่น	-5189
▁กฎ	-5190
เล็บ	-5191
ลิด	-5192
▁โด	-5193
ศรี	-5194
nc	-5195
แพ็ค	-5196
ประจําปี	-5197
ที่สามารถ	-5198
lor	-5199
คําสั่ง	-5200
▁ข้อเสนอ	-5201
54	-5202
▁ราค	-5203
กัดกร่อน	-5204
▁เครื่องทดสอบ	-5205
▁ขอโทษ	-5206
เฟอร์นิเจอร์	-5207
มาร	-5208
เผา	-5209
▁อัตโนมัติ	-5210
เข้ามา	-5211
ทุกวัน	-5212
▁รถบรรทุก	-5213
▁แค่	-5214
ู้ด	-5215
iber	-5216
ริญญา	-5217
รายงาน	-5218
ouble	-5219
เครื่องพิมพ์	-5220
ราชอาณาจักร	-5221
ิร์ต	-5222
▁สิทธิ	-5223
เทป	-5224
ด้านล่าง	-5225
14001,	-5226
กระทํา	-5227
▁บัญชี	-5228
ยังสามารถ	-5229
ประกอบด้วย	-5230
ของผลิตภัณฑ์	-5231
ethyl	-5232
evel	-5233
เป้าหมาย	-5234
มัด	-5235
เจอ	-5236
อุด	-5237
▁AS	-5238
อสัง	-5239
พาหนะ	-5240
▁ติดตาม	-5241
▁Te	-5242
เครื่องสําอาง	-5243
แนวตั้ง	-5244
โกแล	-5245
ตีน	-5246
▁ไฟเบอร์	-5247
ไลท์	-5248
ด้านการ	-5249
กรา	-5250
่องกง	-5251
▁กรรม	-5252
▁ราคาถูก	-5253
ย่อย	-5254
▁ทีวี	-5255
▁แน่นอน	-5256
▁ข่าวสาร	-5257
▁รถยนต์	-5258
ก็ตาม	-5259
เจ็บ	-5260
ศุกร์	-5261
▁ไฟฟ้า	-5262
▁รายงานปัญหา	-5263
▁สัญญาณ	-5264
ซาน	-5265
เพลิน	-5266
▁Wholesaler	-5267
▁นั่ง	-5268
▁Steel	-5269
▁Master	-5270
▁ตุ	-5271
▁Microsoft	-5272
วาย	-5273
แถบ	-5274
▁การจัดการ	-5275
▁(25	-5276
▁3)	-5277
ห้องน้ํา	-5278
▁ไล	-5279
▁98	-5280
ในช่วง	-5281
ความเร็วสูง	-5282
เบรค	-5283
โรงพยาบาล	-5284
โว	-5285
▁อุปกรณ์เสริม	-5286
ิวด	-5287
แห่งชาติ	-5288
▁Porn	-5289
▁3.0	-5290
▁เหล็กกล้า	-5291
โคมไฟ	-5292
ฉาย	-5293
รภ์	-5294
▁("	-5295
เชื้อเพลิง	-5296
▁it	-5297
▁6,	-5298
เหย	-5299
▁Bus	-5300
รับผิดชอบ	-5301
▁กุหลาบ	-5302
แอร์	-5303
ross	-5304
150	-5305
๊ค	-5306
▁EC	-5307
▁MT	-5308
▁ถ้าคุณ	-5309
ไว้ใน	-5310
หลับ	-5311
▁ที่แล้ว	-5312
uff	-5313
เบน	-5314
แกร่ง	-5315
aya	-5316
าว่า	-5317
▁44	-5318
ซ้อน	-5319
กลับมา	-5320
ley	-5321
▁ฐาน	-5322
ไม่เกิน	-5323
ที่เหมาะสม	-5324
▁Sch	-5325
oud	-5326
▁1500	-5327
หาค	-5328
รภัย	-5329
▁สายการผลิต	-5330
ส้ม	-5331
▁คอล	-5332
▁สมาชิก	-5333
โลโก้	-5334
▁ปาร์ตี้	-5335
▁เขียน	-5336
เซราม	-5337
▁CP	-5338
uty	-5339
star	-5340
▁เดี๋ยว	-5341
การควบคุม	-5342
AG	-5343
▁เก็บ	-5344
ที่แล้ว	-5345
วันหยุด	-5346
▁El	-5347
▁คําแนะนํา	-5348
ืบ	-5349
onic	-5350
รษณ	-5351
▁GS	-5352
Hamster	-5353
▁ของฉัน	-5354
แทก	-5355
ที่นั่ง	-5356
ายเป็น	-5357
เยอรมัน	-5358
pa	-5359
จะได้	-5360
ที่ได้	-5361
โดยใช้	-5362
อัจฉริยะ	-5363
การติดตั้ง	-5364
56	-5365
กระทบ	-5366
uro	-5367
▁กระจก	-5368
▁สาธารณะ	-5369
ript	-5370
ออ	-5371
ม้า	-5372
▁ส่วนประกอบ	-5373
▁กิโลเมตร	-5374
ทหาร	-5375
▁ลูกสาว	-5376
แพลตฟอร์ม	-5377
inn	-5378
▁→	-5379
51	-5380
เงา	-5381
เลิ	-5382
.2017	-5383
ผลิตภัณฑ์สําหรับ	-5384
-200	-5385
▁การทํา	-5386
olfberry	-5387
ขณะที่	-5388
MI	-5389
ifi	-5390
บอกว่า	-5391
ift	-5392
ตุ้น	-5393
▁Mag	-5394
▁การรักษา	-5395
ร่วมกับ	-5396
ลําเลียง	-5397
เศรษฐกิจ	-5398
หวัน	-5399
▁วัด	-5400
▁Center	-5401
สตีล	-5402
หญ้า	-5403
▁ม้วน	-5404
HZ	-5405
▁7,	-5406
FC	-5407
▁ตาย	-5408
จํานวนมาก	-5409
ในประเทศไทย	-5410
▁ความต้านทาน	-5411
▁สนามบิน	-5412
วิทยาศาสตร์	-5413
แคว	-5414
▁Str	-5415
ประหลาด	-5416
ไม่สามารถ	-5417
▁Dig	-5418
ards	-5419
เปรย์	-5420
▁years	-5421
วณ	-5422
▁เทศ	-5423
เนื้อหา	-5424
▁Net	-5425
▁ยาก	-5426
อฮ	-5427
ชั่ว	-5428
▁::	-5429
วัฒนธรรม	-5430
คาด	-5431
พรี	-5432
อน้ํา	-5433
ONG	-5434
ราค	-5435
สําหรับผู้	-5436
▁ODM	-5437
ที่น่าสนใจ	-5438
ิตี้	-5439
นําเสนอ	-5440
-100	-5441
แน่นอน	-5442
มหาวิทยาลัย	-5443
mA	-5444
▁พอ	-5445
▁คาสิโน	-5446
เกิล	-5447
ฤดูร้อน	-5448
ขนม	-5449
รษณีย์	-5450
อย่างเป็นทางการ	-5451
MW	-5452
ใต้ดิน	-5453
-50	-5454
▁ขณะ	-5455
ไทเทเนียม	-5456
eter	-5457
man	-5458
ต้หวัน	-5459
วิช	-5460
▁TV	-5461
แก๊ส	-5462
▁Forex	-5463
▁ตกแต่ง	-5464
▁Lim	-5465
olone	-5466
▁ใบสมัคร	-5467
▁ac	-5468
zhou	-5469
57	-5470
ement	-5471
▁ทร	-5472
▁Mus	-5473
▁Road	-5474
สกุลเงิน	-5475
).	-5476
กัง	-5477
พาย	-5478
▁เผ	-5479
ไซน์	-5480
อาร	-5481
ป้อน	-5482
ouch	-5483
ผ้าฝ้าย	-5484
ขวา	-5485
าคือ	-5486
ใช้งานได้	-5487
FT	-5488
ครู	-5489
▁ต่ํา	-5490
120	-5491
กาก	-5492
▁(0)	-5493
▁เกาหลี	-5494
ด้านบน	-5495
▁3.5	-5496
▁เที่ยว	-5497
INE	-5498
ปั้น	-5499
ความจํา	-5500
เธฒ	-5501
▁SMD	-5502
▁คอร์	-5503
พี่	-5504
AND	-5505
ความหนา	-5506
▁สายรัด	-5507
-18	-5508
ยังมี	-5509
ใช่มั้ย	-5510
คราว	-5511
▁We	-5512
ทําได้	-5513
▁is	-5514
▁แช	-5515
nect	-5516
▁IN	-5517
alk	-5518
ี๋ย	-5519
ature	-5520
▁Ass	-5521
▁หิน	-5522
ความยาว	-5523
ครรภ์	-5524
EP	-5525
700	-5526
ช้า	-5527
▁FDA	-5528
การแข่งขัน	-5529
VPN	-5530
▁1200	-5531
▁316	-5532
วัยรุ่น	-5533
หิต	-5534
▁125	-5535
ไก่	-5536
▁นาฬิกา	-5537
▁Organ	-5538
ผัก	-5539
▁สร้อย	-5540
▁Ningxia	-5541
ใช้เวลา	-5542
พยายาม	-5543
▁ความปลอดภัย	-5544
บา	-5545
UT	-5546
ไดรฟ์	-5547
▁Del	-5548
โตเกียว	-5549
แบริ่ง	-5550
▁ท่อเหล็ก	-5551
ส่วนใหญ่	-5552
:3	-5553
แปลก	-5554
coin	-5555
ek	-5556
▁สี่	-5557
uf	-5558
นิค	-5559
▁ex	-5560
▁นิว	-5561
จอแสดงผล	-5562
่วัน	-5563
▁ตลอด	-5564
▁ง่าย	-5565
▁Electron	-5566
▁จําหน่าย	-5567
เสา	-5568
เทือน	-5569
▁NP	-5570
ออกจาก	-5571
▁แบบอักษร	-5572
▁Par	-5573
สร	-5574
6047	-5575
ดนตรี	-5576
.99	-5577
osh	-5578
ยากาศ	-5579
por	-5580
แอพ	-5581
▁ข้าง	-5582
อาหรับ	-5583
ขนสัตว์	-5584
▁ro	-5585
ui	-5586
สีสัน	-5587
ส่อง	-5588
พ่น	-5589
CB	-5590
เจริญ	-5591
MB	-5592
▁ผมบลอนด์	-5593
▁การ์ด	-5594
็ปท็อป	-5595
▁Lock	-5596
▁52	-5597
:15	-5598
เสถียร	-5599
▁พื้นผิว	-5600
▁Cont	-5601
▁mm	-5602
ของเธอ	-5603
ปฏิ	-5604
ซ้าย	-5605
มุ่ง	-5606
▁SA	-5607
▁กระเบื้อง	-5608
เจ้าของ	-5609
▁เซอร์	-5610
การท่องเที่ยว	-5611
ette	-5612
cfbc	-5613
755429	-5614
yr	-5615
IV	-5616
▁https	-5617
▁CF	-5618
กล้าม	-5619
▁กษัตริย์	-5620
▁ชาวเอเชีย	-5621
▁0.2	-5622
ข้อกําหนด	-5623
:8	-5624
▁EVA	-5625
ประกันภัย	-5626
ากําลัง	-5627
▁At	-5628
fer	-5629
ษฐ	-5630
ประกอบการ	-5631
ชัก	-5632
ุนไพร	-5633
(2	-5634
โหมด	-5635
▁แก้ว	-5636
แบบกําหนดเอง	-5637
ออปติก	-5638
บางอย่าง	-5639
▁ละ	-5640
ข้น	-5641
▁Micro	-5642
ยินดี	-5643
กันอย่าง	-5644
▁รุนแรง	-5645
ทําจาก	-5646
ลูชั่น	-5647
▁240	-5648
▁สปา	-5649
▁ลู	-5650
acy	-5651
เหมือง	-5652
ญาณ	-5653
๊กตา	-5654
▁สเต	-5655
:9	-5656
▁CB	-5657
▁โฮม	-5658
▁Powder	-5659
ty	-5660
สําเร็จรูป	-5661
จอส	-5662
ที่แนะนํา	-5663
สะท้อน	-5664
▁ฝรั่งเศส	-5665
สติก	-5666
obile	-5667
ขั้นสูง	-5668
ral	-5669
▁Equ	-5670
▁ซีรี่ส์	-5671
▁พิก	-5672
▁Park	-5673
ony	-5674
็บเล็ต	-5675
ระยะเวลา	-5676
astic	-5677
▁แกล	-5678
เครื่องตัด	-5679
ปะ	-5680
ล่อน	-5681
CE	-5682
ฮาร์ด	-5683
ove	-5684
ปรับอากาศ	-5685
ตั๋ว	-5686
เลกุล	-5687
อัลลอย	-5688
บทความ	-5689
สอด	-5690
▁Type	-5691
▁กว่า	-5692
จะถูก	-5693
แม่นยําสูง	-5694
▁แฟชั่น	-5695
ries	-5696
▁System	-5697
บกวน	-5698
▁am	-5699
▁49	-5700
▁iOS	-5701
สูญญากาศ	-5702
▁ของขวัญ	-5703
▁Stand	-5704
ซีล	-5705
ปรก	-5706
เชียงใหม่	-5707
▁Me	-5708
▁II	-5709
▁140	-5710
▁Express	-5711
▁เฟอร์นิเจอร์	-5712
▁Cha	-5713
ภาษาไทย	-5714
▁Per	-5715
▁ได้โปรด	-5716
▁ทารก	-5717
เงินฝาก	-5718
ฟอก	-5719
ช่าง	-5720
▁Host	-5721
▁un	-5722
▁ไข	-5723
ครีม	-5724
▁ขับ	-5725
สีชมพู	-5726
▁ทดสอบ	-5727
ผ่านการ	-5728
-16	-5729
▁Hu	-5730
ขอโทษ	-5731
ขวาง	-5732
7,	-5733
านํา	-5734
▁Play	-5735
การบิน	-5736
อัพโหลด	-5737
ทุกอย่าง	-5738
ผนึก	-5739
ความชื้น	-5740
เกย์	-5741
แฟนสาว	-5742
▁Ev	-5743
▁เรียก	-5744
▁API	-5745
▁z	-5746
คงที่	-5747
▁Key	-5748
▁58	-5749
▁โดยมี	-5750
estone	-5751
หัวข้อ	-5752
คัน	-5753
าว์	-5754
สะเทือน	-5755
การส่ง	-5756
▁ตาข่าย	-5757
ยนะ	-5758
คอย	-5759
herm	-5760
▁ความดัน	-5761
ระบายความร้อน	-5762
ทอด	-5763
▁ราคาต่อ	-5764
ด้วยตนเอง	-5765
นาดา	-5766
พูดว่า	-5767
เย็ด	-5768
แป้ง	-5769
101	-5770
เสียบ	-5771
กระแทก	-5772
พร้อมกับ	-5773
คุณสามารถ	-5774
อท	-5775
▁ผิว	-5776
เที่ย	-5777
▁กรรมการ	-5778
elect	-5779
ุร	-5780
inal	-5781
สถาบัน	-5782
เวียน	-5783
สิงคโปร์	-5784
เราจะ	-5785
▁เนื่อง	-5786
▁80%	-5787
ให้ความ	-5788
▁Ag	-5789
▁เอกสาร	-5790
▁กรอบ	-5791
▁Ba	-5792
ฟิศ	-5793
กิจการ	-5794
อินเทอร์เน็ต	-5795
คุ้มครอง	-5796
▁Mini	-5797
ger	-5798
ภาระ	-5799
▁บรรดา	-5800
ปัด	-5801
▁ไวน	-5802
▁with	-5803
ว้าง	-5804
ครึ่ง	-5805
ได้ถึง	-5806
▁มีการ	-5807
▁การตรวจสอบ	-5808
▁Mer	-5809
▁พิกเซล	-5810
▁40%	-5811
ights	-5812
ไวนิล	-5813
▁เข็ม	-5814
▁ชื่อผลิตภัณฑ์	-5815
▁ดร	-5816
จากโรงงาน	-5817
▁ทางทวาร	-5818
▁เล็ก	-5819
เน้น	-5820
mg	-5821
ยืนยัน	-5822
ษฐ์	-5823
อ้างอิง	-5824
ของเร	-5825
ife	-5826
ของเหลว	-5827
ots	-5828
เนี่ย	-5829
▁เครื่องเจาะ	-5830
เบีย	-5831
▁450	-5832
สังเคราะห์	-5833
ที่ยอด	-5834
รอยต่อ	-5835
otel	-5836
▁บิต	-5837
▁ไอ้	-5838
คราม	-5839
ขับเคลื่อน	-5840
▁ผสม	-5841
enz	-5842
ีน้ําเงิน	-5843
▁เกล	-5844
▁ภาพถ่าย	-5845
ิปต์	-5846
▁ยืน	-5847
จ้าง	-5848
▁info	-5849
Cl	-5850
▁การพิมพ์	-5851
การดําเนินงาน	-5852
โกจิ	-5853
โซนิก	-5854
ทําละลาย	-5855
ิร์น	-5856
▁เท้า	-5857
ชัย	-5858
▁ไซ	-5859
/8	-5860
เกมส์	-5861
▁แผ่นดิน	-5862
ิจฉ	-5863
▁เพียงแค่	-5864
ไฟเบอร์กลาส	-5865
ไร้สนิม	-5866
▁รวมทั้ง	-5867
gy	-5868
ราณ	-5869
▁Sing	-5870
ซัล	-5871
ื่อก	-5872
พอง	-5873
::	-5874
uit	-5875
▁อินเดียน	-5876
เป็นผู้	-5877
▁เวอร์	-5878
UL	-5879
▁SMT	-5880
▁‘	-5881
▁LC	-5882
▁ความถี่	-5883
▁ผลผลิต	-5884
ิมะ	-5885
irect	-5886
เดียวกับ	-5887
▁จากประเทศจีน	-5888
สถานะ	-5889
เคเบิ้ล	-5890
▁0.00	-5891
▁HP	-5892
ความเสียหาย	-5893
▁Bag	-5894
ental	-5895
ถอน	-5896
▁Gold	-5897
▁380	-5898
▁ปกติ	-5899
เปิดใช้งาน	-5900
ลิดเพลิน	-5901
▁แก้ไข	-5902
ถั่ว	-5903
ปซูล	-5904
ช่วยให้	-5905
ลาสสิก	-5906
ั้งเดิม	-5907
▁«	-5908
เร็ง	-5909
▁ล็อค	-5910
ular	-5911
▁Bu	-5912
▁Exc	-5913
เลย์	-5914
คู่มือ	-5915
ต่อกับ	-5916
ดีตแฟนสาว	-5917
ames	-5918
▁ซอย	-5919
▁คัน	-5920
ไตร	-5921
ม่วง	-5922
▁8,	-5923
hailand	-5924
▁]	-5925
▁หอ	-5926
▁AM	-5927
▁พล	-5928
▁แถบ	-5929
▁56	-5930
ไวน์	-5931
▁โน	-5932
▁PS	-5933
ออกมา	-5934
ประธาน	-5935
โพสต์	-5936
เปิดตัว	-5937
ูทู	-5938
ลช	-5939
ซึม	-5940
ไขมัน	-5941
▁กรุงเทพมหานคร	-5942
▁แอป	-5943
▁from	-5944
ร้านค้า	-5945
จิน	-5946
▁ไร	-5947
▁เมา	-5948
▁Port	-5949
บริโภค	-5950
ข้อเสนอ	-5951
าคต	-5952
Name	-5953
เลิศ	-5954
▁อย่างไร	-5955
▁เลย	-5956
▁Smart	-5957
▁ฉบับ	-5958
มิตรกับ	-5959
aterial	-5960
อุณหภูมิสูง	-5961
ทุ	-5962
▁PLC	-5963
▁**	-5964
bar	-5965
งก	-5966
250	-5967
โค้ด	-5968
▁เทศกาล	-5969
แนวนอน	-5970
▁EX	-5971
▁Sec	-5972
▁เก่า	-5973
รุษ	-5974
หล่อลื่น	-5975
นาที	-5976
คลัง	-5977
ียรติ	-5978
เข้าไป	-5979
าน่า	-5980
▁Die	-5981
แขวน	-5982
▁Pay	-5983
ideo	-5984
▁700	-5985
แข็งแกร่ง	-5986
nm	-5987
ียดนาม	-5988
▁43	-5989
▁เครื่องอัด	-5990
เจ้าหน้าที่	-5991
ห์น	-5992
▁Cy	-5993
ange	-5994
▁900	-5995
เธอร์	-5996
▁โหลด	-5997
▁ยี่ห้อ	-5998
▁ภายใต้	-5999
▁ปลั๊ก	-6000
กประสงค์	-6001
UB	-6002
▁สภาพ	-6003
▁แว่น	-6004
ฟอส	-6005
▁ฟังก์ชั่น	-6006
เกาหลี	-6007
มณ์	-6008
จ์	-6009
ชั้นใน	-6010
ave	-6011
้นะ	-6012
บิ	-6013
แรงดันไฟฟ้า	-6014
ระหว่างประเทศ	-6015
▁Ult	-6016
9,	-6017
โกแลต	-6018
▁รถไฟ	-6019
ซักผ้า	-6020
HL	-6021
▁ศิลปะ	-6022
▁ความเป็น	-6023
▁JR	-6024
▁ไมโคร	-6025
มตี	-6026
▁57	-6027
▁Hand	-6028
ตัดสิน	-6029
hinestone	-6030
บี้	-6031
กลางวัน	-6032
▁สอบถาม	-6033
ทรัล	-6034
ฝี	-6035
ปลูก	-6036
แคล	-6037
กลึง	-6038
▁(3)	-6039
▁สระว่ายน้ํา	-6040
▁เครื่องบรรจุ	-6041
atur	-6042
อสังหาริมทรัพย์	-6043
▁เก้าอี้	-6044
นุ่ม	-6045
บั้ม	-6046
▁ผู	-6047
โปรไฟล์	-6048
▁โจ	-6049
แควร์	-6050
โมเลกุล	-6051
นับ	-6052
▁ธรรมชาติ	-6053
▁{	-6054
ให้เลือก	-6055
HOT	-6056
โจว	-6057
▁9.	-6058
ดอน	-6059
มูลค่า	-6060
CO	-6061
ขณะนี้	-6062
จน์	-6063
จอสัมผัส	-6064
เทศกาล	-6065
▁Double	-6066
เมด	-6067
เวช	-6068
▁SE	-6069
▁PL	-6070
br	-6071
▁130	-6072
-40	-6073
เทิง	-6074
▁ยาว	-6075
UM	-6076
▁per	-6077
ร้านอาหาร	-6078
ream	-6079
อมรับ	-6080
แต่วัน	-6081
เพราะ	-6082
บํารุงรักษา	-6083
โชว์	-6084
วัตถุ	-6085
▁แปลง	-6086
ไปรษณีย์	-6087
▁รอก	-6088
วนี้	-6089
เหมือนกัน	-6090
▁Soft	-6091
ฟื้น	-6092
ใบหน้า	-6093
▁46	-6094
อันตราย	-6095
ทรี	-6096
มิล	-6097
▁62	-6098
esc	-6099
▁Cal	-6100
);	-6101
สูญเสีย	-6102
▁อะแดปเตอร์	-6103
▁EUR	-6104
อีกครั้ง	-6105
▁ผู้ชาย	-6106
มั่นใจ	-6107
ิวดํา	-6108
ต่อวัน	-6109
................	-6110
ike	-6111
▁City	-6112
bon	-6113
▁ไม่เป็นไร	-6114
▁สด	-6115
▁47	-6116
นาคม	-6117
▁คลิป	-6118
AH	-6119
play	-6120
▁us	-6121
vc	-6122
▁หมวก	-6123
▁ประกอบด้วย	-6124
ดุล	-6125
ผัง	-6126
▁กระบวนการ	-6127
หม้อ	-6128
▁วิทย	-6129
ari	-6130
amsung	-6131
ถอด	-6132
▁ขนม	-6133
BR	-6134
อะไรขึ้น	-6135
304	-6136
ทองเหลือง	-6137
▁Is	-6138
ัญชา	-6139
ดิษฐ์	-6140
เค้ก	-6141
ของเล่น	-6142
▁หลอดไฟ	-6143
ใหญ่ที่สุด	-6144
:11	-6145
เธญ	-6146
สิ้นสุด	-6147
โค้ง	-6148
▁Nov	-6149
▁2563	-6150
box	-6151
อนาคต	-6152
▁Extr	-6153
แพร่หลาย	-6154
▁ควย	-6155
▁xHamster	-6156
▁ภาค	-6157
ัญลักษณ์	-6158
▁ประโยชน์	-6159
นิธิ	-6160
▁สารสกัดจาก	-6161
โพด	-6162
ที่ได้รับการ	-6163
ษ์	-6164
พลา	-6165
▁Sn	-6166
ถ่ายภาพ	-6167
สัตว์เลี้ยง	-6168
ตามความต้องการ	-6169
▁จากนั้น	-6170
▁สื่อ	-6171
คําแนะนํา	-6172
ิริ	-6173
▁TUV	-6174
▁เมนู	-6175
▁มือถือ	-6176
▁Card	-6177
ําบล	-6178
▁Cle	-6179
eck	-6180
▁Priv	-6181
ามิเนต	-6182
▁เบล	-6183
▁Univers	-6184
ิมพ	-6185
TFE	-6186
รีสอร์ท	-6187
▁be	-6188
▁พารามิเตอร์	-6189
▁Shen	-6190
ยานยนต์	-6191
ประสิทธิภาพสูง	-6192
ras	-6193
▁1.2	-6194
น้ําตาล	-6195
เนท	-6196
MT	-6197
เยี่ยมชม	-6198
ต่ํากว่า	-6199
สารเคมี	-6200
-22	-6201
ปวด	-6202
ออสเตรเลีย	-6203
ella	-6204
ซิง	-6205
ดลวด	-6206
▁ปล่อย	-6207
gsm	-6208
▁World	-6209
ลิ่ง	-6210
ที่ถูก	-6211
นัน	-6212
▁Wire	-6213
ความงาม	-6214
▁ลงทะเบียน	-6215
ิตเนส	-6216
ด้า	-6217
เรน	-6218
▁88	-6219
▁PM	-6220
เครื่องบิน	-6221
หนุ่ม	-6222
▁Free	-6223
▁ปุ๋ย	-6224
ไอน้ํา	-6225
เหล็กกล้า	-6226
ทําไม	-6227
โปร่ง	-6228
น่อง	-6229
ลัด	-6230
▁ฟังนะ	-6231
ขยะ	-6232
ต้องไป	-6233
▁สุขุมวิท	-6234
▁อุ	-6235
ดิสก์	-6236
ชายหาด	-6237
ส่งสัญญาณ	-6238
ฐานะ	-6239
ติค	-6240
▁One	-6241
▁มะ	-6242
-17	-6243
ravel	-6244
ที่เรา	-6245
ถัดไป	-6246
ipment	-6247
นก	-6248
ที่ยอดเยี่ยม	-6249
▁ค้น	-6250
yle	-6251
▁อาร์	-6252
▁ถาม	-6253
▁โพลีเอสเตอร์	-6254
▁tr	-6255
สต็อก	-6256
สี่เหลี่ยม	-6257
ที่สอง	-6258
การแพทย์	-6259
▁ผู้พัฒนา	-6260
▁อ่านเพิ่มเติม	-6261
เครื่องประดับ	-6262
ไหร	-6263
▁โวล	-6264
reat	-6265
▁อเมริกัน	-6266
FP	-6267
▁App	-6268
แตะ	-6269
ยุทธ์	-6270
เฟส	-6271
การจัดส่ง	-6272
lic	-6273
▁DIN	-6274
▁Ether	-6275
เบล	-6276
ูดิโอ	-6277
▁ประชา	-6278
ย่า	-6279
▁Lin	-6280
รบกวน	-6281
4.	-6282
ขอบคุณ	-6283
ody	-6284
DS	-6285
▁เอล	-6286
▁Related	-6287
ปกป้อง	-6288
แน่ใจ	-6289
▁Tel	-6290
จัดงาน	-6291
AI	-6292
ปิ	-6293
apore	-6294
รรค์	-6295
▁เซ็นเซอร์	-6296
▁(12	-6297
▁My	-6298
videos	-6299
หนึ่งของ	-6300
ด้านหน้า	-6301
▁พัน	-6302
zhen	-6303
▁Wolfberry	-6304
HD	-6305
ทัพ	-6306
้อย่าง	-6307
▁NO	-6308
▁63	-6309
นิส	-6310
▁Star	-6311
นิรภัย	-6312
คํานวณ	-6313
การอ	-6314
ซ่อน	-6315
ความสูง	-6316
▁2008	-6317
ุ๊ป	-6318
ภาชนะ	-6319
อาจจะ	-6320
▁›	-6321
ที่ตั้ง	-6322
▁ความละเอียด	-6323
็กซิ	-6324
▁10,	-6325
▁เหน	-6326
pp	-6327
สวิ	-6328
เมนท์	-6329
▁ถัดไป	-6330
▁เพิ่มเติม	-6331
วบ	-6332
าวร	-6333
ักบัว	-6334
▁เยอรมัน	-6335
พรม	-6336
▁อํานาจ	-6337
▁หมายเหตุ	-6338
AY	-6339
แซม	-6340
▁เช่า	-6341
ชะ	-6342
ของพวกเขา	-6343
▁สามารถใช้	-6344
▁แต่ละ	-6345
▁Hard	-6346
▁Win	-6347
▁ประกัน	-6348
▁OS	-6349
ทรวง	-6350
หลอดไฟ	-6351
▁Samsung	-6352
ห่วง	-6353
erved	-6354
reet	-6355
/3	-6356
ชู	-6357
สวิตช์	-6358
านา	-6359
ียู	-6360
ิจฉัย	-6361
▁เราสามารถ	-6362
เลค	-6363
▁Media	-6364
จรร	-6365
▁แม็กซ์	-6366
ั่งยืน	-6367
▁คลัง	-6368
str	-6369
▁And	-6370
และบริการ	-6371
เช็ค	-6372
ym	-6373
ซิเจน	-6374
ผลงาน	-6375
▁RO	-6376
ลลี่	-6377
แมลง	-6378
แกะสลัก	-6379
อาย	-6380
-60	-6381
work	-6382
▁เคล็ดลับ	-6383
▁แพ็ค	-6384
เข้ารหัส	-6385
ize	-6386
ไปตาม	-6387
คําขอ	-6388
้าส์	-6389
▁สัม	-6390
เชิงพาณิชย์	-6391
▁Contr	-6392
▁แขน	-6393
▁Form	-6394
▁ต่อไป	-6395
▁เครือข่าย	-6396
▁เครื่องเชื่อม	-6397
▁CS	-6398
มัลติ	-6399
▁เดินทาง	-6400
▁ระเบ	-6401
▁รักษา	-6402
ร่วมกัน	-6403
▁โทรศัพท์มือถือ	-6404
▁ทุกคน	-6405
▁ที่จอดรถ	-6406
ศาล	-6407
▁พันธ	-6408
ชัดเจน	-6409
▁PTFE	-6410
ร์เวอร์	-6411
icon	-6412
mail	-6413
ลิคอน	-6414
กระตุ้น	-6415
yt	-6416
ading	-6417
▁ดัชนี	-6418
▁Organic	-6419
▁72	-6420
ดาวเทียม	-6421
มุ	-6422
ของท่าน	-6423
ปลั๊ก	-6424
สระว่ายน้ํา	-6425
▁แคล	-6426
ลุ	-6427
ุทร	-6428
LS	-6429
ives	-6430
▁Gal	-6431
▁ครู	-6432
▁Bitcoin	-6433
คุณจะ	-6434
พวกเข	-6435
▁เครื่องดื่ม	-6436
ลําดับ	-6437
▁as	-6438
บุรุษ	-6439
▁คูปอง	-6440
เนชั่น	-6441
ที่จอดรถ	-6442
uss	-6443
:01	-6444
▁Dri	-6445
ระยะไกล	-6446
▁She	-6447
:20	-6448
awa	-6449
▁Di	-6450
amb	-6451
เดล	-6452
▁ผ้าฝ้าย	-6453
▁Open	-6454
ผู้นํา	-6455
ซิส	-6456
▁แทน	-6457
เถิด	-6458
ao	-6459
รมา	-6460
วิด	-6461
▁Valve	-6462
จรา	-6463
ธา	-6464
110	-6465
▁อําเภอ	-6466
son	-6467
ลูกปืน	-6468
ดวง	-6469
▁con	-6470
dom	-6471
เราะ	-6472
era	-6473
tect	-6474
ไข่	-6475
คริ	-6476
+)	-6477
▁Cable	-6478
▁TO	-6479
ประทับ	-6480
สร้างสรรค์	-6481
คณะ	-6482
ฆ่าเชื้อ	-6483
▁พัก	-6484
รหัสผ่าน	-6485
ij	-6486
โลหะผสม	-6487
ก็คือ	-6488
การเชื่อมต่อ	-6489
▁เซินเจิ้น	-6490
con	-6491
เปญ	-6492
ไส้	-6493
งั้น	-6494
ภาพถ่าย	-6495
ศ์	-6496
▁ดิ	-6497
ตะวันตก	-6498
▁br	-6499
▁he	-6500
▁พวกเข	-6501
▁อัตราการ	-6502
ไหร่	-6503
ลิม	-6504
กรุงเทพฯ	-6505
สําหรับเครื่อง	-6506
ทช์	-6507
▁เชียงใหม่	-6508
โตะ	-6509
ศึกษ	-6510
▁ท้อง	-6511
rome	-6512
arn	-6513
ชิน	-6514
▁fl	-6515
ักษะ	-6516
▁เตา	-6517
▁Sha	-6518
▁ดําเนิน	-6519
เชิญ	-6520
▁Rec	-6521
▁อ่าง	-6522
่นะ	-6523
▁Opt	-6524
▁ครีม	-6525
รษะ	-6526
สีฟ้า	-6527
้อปปิ้ง	-6528
olt	-6529
▁2557	-6530
ammer	-6531
รกเกอร์	-6532
านุ	-6533
ีรษะ	-6534
ชิป	-6535
เชื่อมโยง	-6536
.25	-6537
ไฮ้	-6538
▁เข้าร	-6539
▁สเป	-6540
ลัพ	-6541
าคาถูก	-6542
▁ประธาน	-6543
▁Plus	-6544
การตลาด	-6545
▁ดอกกุหลาบ	-6546
!!	-6547
โกะ	-6548
▁Cat	-6549
ตรงนี้	-6550
ภาษณ์	-6551
ผี	-6552
▁Work	-6553
▁โทรสาร	-6554
▁คง	-6555
▁Box	-6556
ลัพธ์	-6557
▁ซิลิโคน	-6558
Press	-6559
▁พนักงาน	-6560
▁กระบอก	-6561
เครือ	-6562
ศัก	-6563
▁เรีย	-6564
▁สายไฟ	-6565
ส่วนประกอบ	-6566
อัปเดต	-6567
▁นั่นคือ	-6568
-24	-6569
▁เกร	-6570
เลนส์	-6571
▁Machinery	-6572
กันความร้อน	-6573
▁Log	-6574
▁Prof	-6575
by	-6576
าส์	-6577
▁ช่าง	-6578
ทางเลือก	-6579
พัฒน	-6580
▁1/2	-6581
▁Limited	-6582
ยุค	-6583
▁อันดับ	-6584
▁Distributor	-6585
:14	-6586
บันเทิง	-6587
▁Digital	-6588
ขึ้นอยู่กับ	-6589
โดน	-6590
▁anal	-6591
บวก	-6592
ในตัว	-6593
▁คลับ	-6594
be	-6595
▁เดียว	-6596
▁Office	-6597
▁แรงดัน	-6598
นิทรรศการ	-6599
▁วิลล่า	-6600
▁การติดตั้ง	-6601
OG	-6602
▁ผน	-6603
ถ่าน	-6604
ต่อต้าน	-6605
าน์	-6606
▁Lo	-6607
-02	-6608
ไปกับ	-6609
guan	-6610
เลียน	-6611
▁คณะ	-6612
รับประทาน	-6613
▁นับ	-6614
▁54	-6615
▁ที่เกี่ยวข้อง	-6616
▁หมอ	-6617
เวิร์	-6618
aint	-6619
HOTEL	-6620
เงินสด	-6621
▁กว้าง	-6622
▁ใช้เวลา	-6623
ของเครื่อง	-6624
เซ็กส์	-6625
กรุง	-6626
▁วินเทจ	-6627
คล้าย	-6628
ุ้ม	-6629
▁ตัวอักษร	-6630
zz	-6631
▁สกรู	-6632
เร่ง	-6633
▁Auto	-6634
ปริ	-6635
แบ	-6636
▁สก	-6637
ข้อมูลส่วนบุคคล	-6638
โดนี	-6639
▁องค์ประกอบ	-6640
▁การป้องกัน	-6641
ลเลอร์	-6642
▁AL	-6643
สปริง	-6644
▁Av	-6645
▁เป็	-6646
ใช่ไหม	-6647
ton	-6648
ของผม	-6649
รถบัส	-6650
▁เพราะว่า	-6651
แกรง	-6652
ได้แล้ว	-6653
onents	-6654
Pl	-6655
ปั่น	-6656
ต์มาส	-6657
ังคาร	-6658
สุดยอด	-6659
ประเมิน	-6660
พัทยา	-6661
▁รัสเซีย	-6662
๊ย	-6663
:59	-6664
▁มันมี	-6665
ี่ยงไฮ้	-6666
▁ดา	-6667
----	-6668
ฟูก	-6669
ด้วยกัน	-6670
▁วันทําการ	-6671
รอก	-6672
▁Mill	-6673
ประชาชน	-6674
ความเสี่ยง	-6675
TE	-6676
▁o	-6677
ales	-6678
jiang	-6679
▁ทัน	-6680
ield	-6681
:12	-6682
แสน	-6683
ชุมชน	-6684
▁ดารา	-6685
จักรยานยนต์	-6686
▁วิด	-6687
ฟต์	-6688
▁เทร	-6689
▁10.	-6690
▁เลเซอร์	-6691
ใบรับรอง	-6692
▁การ์ตูน	-6693
อย่างยิ่ง	-6694
ng	-6695
เอน	-6696
้ํามัน	-6697
ตามที่	-6698
▁ราคาที่	-6699
ต่อสู้	-6700
ศร	-6701
rier	-6702
ุปเปอร์	-6703
ano	-6704
▁---	-6705
GA	-6706
▁ได้รับการรับรอง	-6707
ทารก	-6708
▁สเปน	-6709
▁เถ	-6710
▁หม้อ	-6711
วิศวกรรม	-6712
ote	-6713
ากลาง	-6714
จราจร	-6715
▁ab	-6716
สัย	-6717
▁กิน	-6718
ใหม	-6719
▁กระแส	-6720
นส์	-6721
ดั้งเดิม	-6722
ลีน	-6723
อร่อย	-6724
als	-6725
เด้น	-6726
ขีด	-6727
ตาร	-6728
สิบ	-6729
▁at	-6730
ที่มา	-6731
ใช้งานง่าย	-6732
ลาม	-6733
เค้า	-6734
▁Art	-6735
ช้าง	-6736
สเปน	-6737
▁MS	-6738
▁(32	-6739
กันอย่างแพร่หลาย	-6740
verter	-6741
▁โวลต์	-6742
เข้มข้น	-6743
ได้ใน	-6744
▁หุ้น	-6745
▁CM	-6746
อ่าง	-6747
ประดิษฐ์	-6748
ชิญ	-6749
พวกเรา	-6750
30)	-6751
ถ่ายโอน	-6752
▁อาหรับ	-6753
▁พิพิธภัณฑ์	-6754
▁ph	-6755
▁La	-6756
AK	-6757
ได้ยิน	-6758
ื้อน	-6759
▁ราคาต่อหน่วย	-6760
▁£	-6761
▁EP	-6762
เสาอากาศ	-6763
ตกรรม	-6764
irt	-6765
▁Manag	-6766
▁ตําบล	-6767
▁ดูดควย	-6768
,000,000	-6769
▁คุก	-6770
วิทยุ	-6771
▁41	-6772
เธฒเธ	-6773
▁Cast	-6774
รน	-6775
▁wh	-6776
▁4)	-6777
อาศัย	-6778
ด้านหลัง	-6779
▁สถาบัน	-6780
▁Connect	-6781
ทรา	-6782
าวด์	-6783
รีส์	-6784
▁แท่น	-6785
▁การแข่งขัน	-6786
มิติ	-6787
▁เสน	-6788
สวี	-6789
▁Lab	-6790
▁bab	-6791
▁การจัดส่ง	-6792
ั่ม	-6793
เตา	-6794
▁ha	-6795
คีย์	-6796
นี้เป็น	-6797
เกี่ยวกับการ	-6798
▁หาด	-6799
▁Wall	-6800
เลขที่	-6801
RL	-6802
▁ที่ตั้ง	-6803
เมะ	-6804
▁เปล่า	-6805
▁Online	-6806
ฝั่ง	-6807
ในการผลิต	-6808
urr	-6809
▁Bay	-6810
ซีน	-6811
กรีน	-6812
ผลิ	-6813
ka	-6814
ฮี	-6815
ทาย	-6816
ใครง	-6817
▁แด	-6818
▁จนถึง	-6819
/12	-6820
มาแล้ว	-6821
TL	-6822
▁ชอบ	-6823
อย่างต่อเนื่อง	-6824
▁up	-6825
▁Blue	-6826
วิทช์	-6827
แพคเกจ	-6828
เร็วที่สุด	-6829
▁59	-6830
▁ป่า	-6831
เทนเนอร์	-6832
▁เข้าสู่ระบบ	-6833
-19	-6834
ความรู้	-6835
ผู้จัดจําหน่าย	-6836
▁เอ็ม	-6837
▁เชื้อ	-6838
▁Bi	-6839
62)	-6840
วินิจฉัย	-6841
นําไป	-6842
ัตรู	-6843
▁(15	-6844
▁แดง	-6845
ัฟ	-6846
ทั้งสอง	-6847
UK	-6848
จญ	-6849
หรา	-6850
iness	-6851
▁Japan	-6852
▁สีเขียว	-6853
▁PH	-6854
board	-6855
ข่าวสาร	-6856
▁ผมจะ	-6857
ก้า	-6858
oth	-6859
ไฟเบอร์ออปติก	-6860
▁ตัวเชื่อมต่อ	-6861
มินิ	-6862
▁ผู้หญิงสวย	-6863
กล้ามเนื้อ	-6864
ดิบ	-6865
่าสุด	-6866
ใครง่าย	-6867
กลั่น	-6868
ชิด	-6869
▁66	-6870
ที่สาม	-6871
▁สีบลอนด์	-6872
oney	-6873
▁แจ็ค	-6874
▁Dongguan	-6875
เรียง	-6876
กวด	-6877
▁ขั้วต่อ	-6878
บะ	-6879
▁Design	-6880
▁ขนดก	-6881
ยุกต์ใช้	-6882
▁Aw	-6883
น่ารัก	-6884
ยอมใครง่าย	-6885
เกินไป	-6886
▁รัฐ	-6887
ais	-6888
เคลื่อนที่	-6889
▁เสา	-6890
▁หน้าต่าง	-6891
02	-6892
The	-6893
▁ลี	-6894
OC	-6895
▁Sur	-6896
▁Equipment	-6897
นํามา	-6898
แล็ปท็อป	-6899
▁are	-6900
ชับ	-6901
ให้น	-6902
▁กรุง	-6903
▁บริสุทธิ์	-6904
แฟ้ม	-6905
▁Material	-6906
illa	-6907
▁สุขภาพ	-6908
Tr	-6909
ค่อย	-6910
▁วันที่อัพโหลด	-6911
▁des	-6912
เมติก	-6913
เพิ่ง	-6914
▁Food	-6915
▁แล้วก็	-6916
read	-6917
▁ถือ	-6918
▁Resort	-6919
▁โกล	-6920
โบราณ	-6921
▁5000	-6922
▁แตก	-6923
อรมนี	-6924
เชือก	-6925
▁รุ่นใหญ่	-6926
ดาย	-6927
▁ตรม	-6928
:7	-6929
DR	-6930
ตัก	-6931
พันธ์	-6932
ผู้อ	-6933
ลงการณ์	-6934
อุปกรณ์เสริม	-6935
คาย	-6936
ตระ	-6937
▁House	-6938
เปิ้ล	-6939
กระดูก	-6940
ปรับได้	-6941
▁code	-6942
สดใส	-6943
▁ข้อดี	-6944
นาง	-6945
ักเส	-6946
ตัวอักษร	-6947
ปัง	-6948
▁บีช	-6949
กึ่ง	-6950
▁ฉันต้องการ	-6951
ประชาสัมพันธ์	-6952
▁Rhinestone	-6953
อรีน	-6954
%)	-6955
ลักซ์	-6956
▁month	-6957
อบแห้ง	-6958
▁Long	-6959
▁สีเหลือง	-6960
นําเข้า	-6961
▁ทําความสะอาด	-6962
ลิงค์	-6963
คริสตัล	-6964
▁Can	-6965
กองทุน	-6966
ฝัน	-6967
คลับ	-6968
raw	-6969
aper	-6970
▁กิโลวัตต์	-6971
ลิฟท์	-6972
เรด	-6973
▁TC	-6974
ลดลง	-6975
กิ	-6976
▁GR	-6977
เลต	-6978
▁ก็ได้	-6979
▁ถุงน่อง	-6980
let	-6981
▁RS	-6982
▁(18+)	-6983
▁ร้อนแรง	-6984
BD	-6985
▁Class	-6986
▁จริงๆ	-6987
สลับ	-6988
เดี๋ย	-6989
▁Block	-6990
DU	-6991
▁การบรรจุ	-6992
ฉลาก	-6993
▁ปฏิทิน	-6994
โมท	-6995
▁96	-6996
บรรยากาศ	-6997
ในรูปแบบ	-6998
เยน	-6999
▁FS	-7000
ชั่วคราว	-7001
หมวดหมู่	-7002
▁ลึก	-7003
▁ขนาดเล็ก	-7004
PP	-7005
การลงทุน	-7006
3/	-7007
▁อีกทั้ง	-7008
▁แจ้ง	-7009
ขับขี่	-7010
ไม่น	-7011
ฟอยล์	-7012
ยังคง	-7013
▁ซ่อน	-7014
การซื้อขาย	-7015
เทค	-7016
▁SK	-7017
ฮอร์โมน	-7018
เกลือ	-7019
ยอง	-7020
▁FM	-7021
กลายเป็น	-7022
ita	-7023
opr	-7024
▁แฟกซ์	-7025
การประชุม	-7026
ฤดูใบไม้ผลิ	-7027
จา	-7028
eta	-7029
▁มน	-7030
หัสบดี	-7031
เกียรติ	-7032
สั่นสะเทือน	-7033
een	-7034
▁BMW	-7035
▁ประจําปี	-7036
▁Down	-7037
▁2:	-7038
▁ที่ผ่านมา	-7039
▁CCC	-7040
▁แกร	-7041
▁qu	-7042
▁กะ	-7043
▁สําหรับขาย	-7044
▁นะ	-7045
มันเป็น	-7046
▁อยู่ใน	-7047
▁MO	-7048
1-	-7049
สอ	-7050
สีเทา	-7051
CR	-7052
▁รับรอง	-7053
220	-7054
▁ความหนาแน่น	-7055
▁Anti	-7056
ทําความเย็น	-7057
▁โอน	-7058
hz	-7059
กับเรา	-7060
หัน	-7061
มอน	-7062
ถาวร	-7063
ป๋อง	-7064
ments	-7065
แทรกเตอร์	-7066
▁Cool	-7067
▁ทิ	-7068
ย้อน	-7069
ufact	-7070
▁ปอนด์	-7071
▁4.0	-7072
สเซียม	-7073
yo	-7074
▁Back	-7075
Ex	-7076
สนา	-7077
มั่นคง	-7078
ห่างจาก	-7079
▁ร่างกาย	-7080
▁min	-7081
▁สัง	-7082
แช่แข็ง	-7083
ขี้	-7084
สมุด	-7085
▁ยินดีต้อนรับสู่	-7086
▁co	-7087
ชื่นชอบ	-7088
กําไร	-7089
▁ปัญหา	-7090
▁ที่พัก	-7091
elt	-7092
้ว่า	-7093
ooth	-7094
หมู	-7095
▁AN	-7096
อฟท์	-7097
ประสบ	-7098
▁กลิ	-7099
▁ผู้ใช้	-7100
gram	-7101
▁53	-7102
เบี้ย	-7103
พิจาร	-7104
ตํารวจ	-7105
▁เนื่องจาก	-7106
ency	-7107
ในเมือง	-7108
ได้ง่าย	-7109
▁ไปจนถึง	-7110
บิต	-7111
คูปอง	-7112
▁Pump	-7113
▁ด้วยการ	-7114
▁ล้าง	-7115
enn	-7116
ope	-7117
▁Blu	-7118
ใบอนุญาต	-7119
มนา	-7120
ุบัติ	-7121
แผ่นดิน	-7122
▁Pin	-7123
ที่มีการ	-7124
▁โอก	-7125
ทางการเงิน	-7126
แบบนี้	-7127
▁มีอะไร	-7128
อัลตราโซนิก	-7129
▁แยก	-7130
ZH	-7131
▁IR	-7132
▁การประชุม	-7133
▁อาบน้ํา	-7134
แพ้	-7135
แม้	-7136
▁ถ่าย	-7137
ความว่า	-7138
BC	-7139
โดดเด่น	-7140
ices	-7141
▁ยาย	-7142
ae	-7143
▁อากาศ	-7144
km	-7145
ตัวทําละลาย	-7146
▁น้อง	-7147
▁Service	-7148
▁เกียร์	-7149
แทสเซียม	-7150
sk	-7151
ler	-7152
นิ่ง	-7153
▁ก่อตั้งขึ้น	-7154
กระทั่ง	-7155
โคลน	-7156
นโยบาย	-7157
วาห์	-7158
ตูด	-7159
▁ยิ่ง	-7160
ที่บ้าน	-7161
าน์เตอร์	-7162
bsp	-7163
▁รถบัส	-7164
ura	-7165
▁Mobile	-7166
▁Server	-7167
45)	-7168
obal	-7169
ids	-7170
inder	-7171
นวัตกรรม	-7172
umm	-7173
▁ความเร็วในการ	-7174
▁แผนผัง	-7175
ไดออกไซด์	-7176
าทิ	-7177
obt	-7178
▁เฉพาะ	-7179
ลาสสิค	-7180
พักผ่อน	-7181
แผล	-7182
▁แม้	-7183
▁ฉนวน	-7184
ญญาณ	-7185
ง่	-7186
สมุนไพร	-7187
▁Ins	-7188
▁อัป	-7189
umin	-7190
ของระบบ	-7191
ธารณรัฐ	-7192
หลอม	-7193
ฤดูหนาว	-7194
▁ไม่สามารถ	-7195
40)	-7196
▁Cry	-7197
▁อิตาลี	-7198
▁เข้าใจ	-7199
PR	-7200
▁Ang	-7201
:4	-7202
ต่อน	-7203
oon	-7204
พีซี	-7205
ักเสบ	-7206
เชื่อถือได้	-7207
▁Rights	-7208
รรถ	-7209
และเครื่อง	-7210
alth	-7211
-14	-7212
ฟอง	-7213
▁ตั๋ว	-7214
งับ	-7215
▁สายพาน	-7216
▁เฮน	-7217
เม้นท์	-7218
ดีกว่า	-7219
▁King	-7220
ผู้จัดการ	-7221
▁CL	-7222
erry	-7223
",	-7224
35)	-7225
▁ให้บริการ	-7226
คลอ	-7227
ที่อยู่อาศัย	-7228
ray	-7229
กี่	-7230
▁อม	-7231
▁กาว	-7232
ขับรถ	-7233
Me	-7234
▁ฮิต	-7235
la	-7236
บุตร	-7237
▁【	-7238
มีประสิทธิภาพ	-7239
▁Hol	-7240
▁อพาร์ท	-7241
▁ราคาปกติ	-7242
▁ออฟฟิศ	-7243
รํา	-7244
▁อน	-7245
▁60%	-7246
มิเนียม	-7247
ones	-7248
▁	-7249
▁การแสดง	-7250
▁ร้อง	-7251
▁000	-7252
▁0.1	-7253
ตะก	-7254
▁pre	-7255
▁Shenzhen	-7256
▁Cross	-7257
0.	-7258
60)	-7259
หนี	-7260
▁Inn	-7261
▁สมาร์ท	-7262
2-	-7263
▁Char	-7264
MHz	-7265
▁ตุ๊กตา	-7266
แปรรูป	-7267
▁หนู	-7268
8.	-7269
▁ข้อตกลง	-7270
-05	-7271
จญภัย	-7272
ไวรัส	-7273
▁51	-7274
▁เช็ค	-7275
▁แบ่ง	-7276
ที่กําหนด	-7277
สําหรับงาน	-7278
▁มาร์	-7279
itor	-7280
ร่อง	-7281
โดยอัตโนมัติ	-7282
สปา	-7283
▁โฆษณา	-7284
uy	-7285
iece	-7286
หมวก	-7287
proof	-7288
load	-7289
view	-7290
เกี่ยวกับคุกกี้	-7291
▁Gran	-7292
▁230	-7293
▁ผนัง	-7294
โน้ม	-7295
อาหารเช้า	-7296
:45	-7297
ทร์	-7298
บรู	-7299
▁เชื่อมต่อ	-7300
▁เติ	-7301
โจมตี	-7302
▁เทอร์	-7303
rial	-7304
ได้ว่า	-7305
ิมพัน	-7306
▁AR	-7307
▁PO	-7308
▁บา	-7309
▁Motor	-7310
เกีย	-7311
AV	-7312
38)	-7313
▁เบน	-7314
การจัด	-7315
สตร	-7316
▁ตรัส	-7317
ีนส์	-7318
▁ฮา	-7319
Shandong	-7320
▁1080	-7321
ute	-7322
▁ตุรกี	-7323
ฟิล	-7324
ม่า	-7325
การไหล	-7326
rim	-7327
▁ตัวกรอง	-7328
▁เปิดตัว	-7329
ศีรษะ	-7330
ผูก	-7331
oprene	-7332
▁Engine	-7333
ที่พ	-7334
ความจุ	-7335
เผยแพร่	-7336
สามัญ	-7337
เนกประสงค์	-7338
▁การทํางาน	-7339
ลืม	-7340
ผลกระทบ	-7341
ขึ้นมา	-7342
▁กล่องกระดาษ	-7343
df	-7344
คุณภาพดี	-7345
ม่าน	-7346
▁ชั่ว	-7347
▁ผมไม่	-7348
เซียน	-7349
เลสเบี้ยน	-7350
SL	-7351
สาวะ	-7352
▁Cam	-7353
ยานพาหนะ	-7354
บร้อย	-7355
▁จัดการ	-7356
▁(4)	-7357
ัสสาวะ	-7358
▁rec	-7359
▁ยาน	-7360
▁ผู้จัดการ	-7361
:16	-7362
▁Market	-7363
สีน้ําตาล	-7364
ออกแบบมา	-7365
▁ท่าเรือ	-7366
▁res	-7367
หายใจ	-7368
▁เศ	-7369
ขอบเขต	-7370
▁ลาย	-7371
-03	-7372
ตอบแทน	-7373
การตรวจสอบ	-7374
▁ค่ะ	-7375
▁Set	-7376
▁porn	-7377
▁ขัด	-7378
ําหน้า	-7379
ห้า	-7380
▁ควร	-7381
ูฟ	-7382
ยาวนาน	-7383
ทังสเตน	-7384
▁Comm	-7385
ยั่งยืน	-7386
พริ	-7387
เซ็นเซอร์	-7388
▁Electric	-7389
▁คําตอบ	-7390
▁≥	-7391
มาล	-7392
▁sup	-7393
เอาท์	-7394
สเตนเลส	-7395
ราก	-7396
าการ	-7397
โปรง	-7398
▁RGB	-7399
คนอื่น	-7400
ผสาน	-7401
ena	-7402
เลียม	-7403
▁Yobt	-7404
อาว	-7405
เล่	-7406
▁Link	-7407
Pro	-7408
▁BL	-7409
▁ผลไม้	-7410
▁แม่พิมพ์	-7411
โพร	-7412
ัธ	-7413
ะนั้น	-7414
▁5%	-7415
ieces	-7416
ety	-7417
เธียม	-7418
นคร	-7419
สวม	-7420
▁Bul	-7421
4/	-7422
จง	-7423
▁จักรยาน	-7424
ผู้ผลิตชั้นนํา	-7425
▁ภาพรวม	-7426
▁การชําระเงิน	-7427
▁ปลอก	-7428
ทางทะเล	-7429
unn	-7430
▁มารดา	-7431
เวที	-7432
อฟแวร์	-7433
เพศชาย	-7434
▁นี่มัน	-7435
ปิดผนึก	-7436
าปัต	-7437
▁หรือไม่	-7438
บบี้	-7439
▁Fin	-7440
สงสัย	-7441
ฝ้า	-7442
▁ในขณะที่	-7443
▁บ้า	-7444
แท้จริง	-7445
ง่ายดาย	-7446
▁Reserved	-7447
▁พยาบาล	-7448
สหภาพ	-7449
▁ทองแดง	-7450
evelop	-7451
ดังกล่าว	-7452
็กร	-7453
ใช้อ	-7454
20)	-7455
บัง	-7456
▁PR	-7457
คลาย	-7458
ความคิด	-7459
สมอง	-7460
▁พัด	-7461
▁ตกลง	-7462
วางแผน	-7463
ก่อตั้ง	-7464
▁เตร	-7465
ารณ์	-7466
▁10:00	-7467
การรักษา	-7468
▁โปรดติดต่อ	-7469
เหมาะสําหรับ	-7470
รับส่ง	-7471
▁เฟส	-7472
บาด	-7473
▁การสนับสนุน	-7474
ต้องการให้	-7475
พุท	-7476
ที่ฉัน	-7477
เว็บไซต์ของเรา	-7478
ply	-7479
นาการ	-7480
บรอบ	-7481
▁บัน	-7482
โดนีเซีย	-7483
านี่	-7484
เพศสัมพันธ์	-7485
แถว	-7486
สะอาด	-7487
:17	-7488
ินส์	-7489
อํานาจ	-7490
▁or	-7491
ิร์ม	-7492
เอฟ	-7493
▁ที่กําหนดเอง	-7494
ani	-7495
สรรพ	-7496
▁แห้ง	-7497
ไม้อัด	-7498
ุบัติเหตุ	-7499
▁รส	-7500
เธฑ	-7501
▁DI	-7502
▁รอ	-7503
ทําร	-7504
▁ปลา	-7505
▁อดีตแฟนสาว	-7506
ทิศทาง	-7507
▁แม่บ้าน	-7508
▁DVB	-7509
cript	-7510
มง	-7511
ติ้ง	-7512
▁เสร็จ	-7513
ออกซิเจน	-7514
▁เป็นหนึ่งใน	-7515
ํานวยการ	-7516
พลิเคชั่น	-7517
หาง	-7518
▁Game	-7519
▁กองทุน	-7520
▁รายชื่อ	-7521
ความละเอียด	-7522
▁Pvc	-7523
▁มอบ	-7524
▁Fiber	-7525
จาค	-7526
▁จิต	-7527
▁ดิน	-7528
สําหรับขาย	-7529
▁ตํารวจ	-7530
เป็นเวลา	-7531
FL	-7532
นัด	-7533
สมุทร	-7534
▁WordPress	-7535
▁การรับรอง	-7536
เปลือก	-7537
▁ภาษาอังกฤษ	-7538
▁จาน	-7539
ผู้ป่วย	-7540
เป็นการ	-7541
II	-7542
ยับ	-7543
ฟอสเฟต	-7544
ฝัง	-7545
าร์ต	-7546
มนตรี	-7547
เลเซีย	-7548
▁ฟุตบอล	-7549
▁หมายถึง	-7550
▁Li	-7551
▁320	-7552
พร้าว	-7553
กรอก	-7554
ําหอม	-7555
UD	-7556
ister	-7557
▁ด้านบน	-7558
▁Converter	-7559
▁พัฒนา	-7560
▁12,	-7561
เรียล	-7562
ชีวภาพ	-7563
ในวัน	-7564
▁ไวน์	-7565
ที่นิยม	-7566
▁Om	-7567
▁ถ้วย	-7568
160	-7569
▁750	-7570
ผู้ถือหุ้น	-7571
▁2556	-7572
▁Ah	-7573
unch	-7574
▁Bre	-7575
earch	-7576
▁เอ็น	-7577
อายุการใช้งาน	-7578
นิต	-7579
ution	-7580
ism	-7581
แว่น	-7582
▁Max	-7583
316	-7584
ปาร์ตี้	-7585
อยู่บน	-7586
▁Fu	-7587
▁ปลอดภัย	-7588
กําหนดค่า	-7589
▁ขั้นตอนที่	-7590
6.	-7591
ชั่ง	-7592
บลูทู	-7593
าวา	-7594
ินี	-7595
015	-7596
อย่างนั้น	-7597
ใดๆ	-7598
ทีมงาน	-7599
-04	-7600
▁ดวง	-7601
ไปถึง	-7602
▁ออสเตรเลีย	-7603
▁Direct	-7604
▁เบร	-7605
▁Anal	-7606
▁โซเดียม	-7607
ศจาก	-7608
-13	-7609
rate	-7610
▁ปืน	-7611
เธญเธ	-7612
▁พวกเรา	-7613
กังวล	-7614
เรื่องนี้	-7615
▁Ethernet	-7616
าเวอร์	-7617
▁แพลตฟอร์ม	-7618
มูก	-7619
ember	-7620
ผ่านทาง	-7621
riend	-7622
ุระ	-7623
มีเดีย	-7624
ยังไม่	-7625
สับ	-7626
แปรง	-7627
▁Tool	-7628
uts	-7629
▁Non	-7630
▁สมบ	-7631
ท่วม	-7632
▁อสัง	-7633
▁สามี	-7634
ฟาร์ม	-7635
สายรัด	-7636
fid	-7637
▁69	-7638
แรงดึง	-7639
50)	-7640
▁เลีย	-7641
ญญากาศ	-7642
▁!!	-7643
เบรก	-7644
แอค	-7645
▁สิบ	-7646
เครื่องขึ้นรูป	-7647
PL	-7648
▁0.3	-7649
▁Stud	-7650
gen	-7651
▁มูลค่า	-7652
หุ่นยนต์	-7653
▁ก่อนหน้านี้	-7654
aka	-7655
:13	-7656
จรรย์	-7657
บัตรเครดิต	-7658
▁แปรง	-7659
▁เสริม	-7660
คุณยังสามารถ	-7661
▁นาม	-7662
▁แกะ	-7663
▁Sport	-7664
ดาล	-7665
โปร่งใส	-7666
▁พีวีซี	-7667
พอใจ	-7668
ยอมใครง่ายๆ	-7669
ัมน์	-7670
▁รูปร่าง	-7671
7.	-7672
▁Ret	-7673
ที่ทันสมัย	-7674
โกล	-7675
เทียบกับ	-7676
-08	-7677
ฉลอง	-7678
ารย์	-7679
;#	-7680
โร่	-7681
▁FCC	-7682
▁อ่า	-7683
อเมริกัน	-7684
▁สยาม	-7685
▁เธอก	-7686
▁ราช	-7687
:91%	-7688
▁Day	-7689
ระวัง	-7690
-80	-7691
บันได	-7692
ลวง	-7693
ธีม	-7694
▁Therm	-7695
▁อาการ	-7696
aki	-7697
▁เวล	-7698
▁และความ	-7699
CL	-7700
แท่ง	-7701
ENT	-7702
ดูดฝุ่น	-7703
▁คาร์บอน	-7704
แต่วันที่	-7705
▁YouTube	-7706
าทั้ง	-7707
ufactur	-7708
▁เครื่องประดับ	-7709
ในโลก	-7710
▁แปลก	-7711
rane	-7712
กอก	-7713
▁เด็กชาย	-7714
▁เรียนรู้	-7715
ทริ	-7716
ชล	-7717
ากา	-7718
ผิดปกติ	-7719
ามิน	-7720
รีวิว	-7721
แม่น้ํา	-7722
▁เราได้	-7723
BO	-7724
ไหม้	-7725
▁จี	-7726
คลอง	-7727
▁โคร	-7728
▁Board	-7729
▁Fire	-7730
▁poly	-7731
ไฮดรอลิค	-7732
ถู	-7733
ให้เป็น	-7734
te	-7735
ัจจ	-7736
42)	-7737
rail	-7738
reamp	-7739
ทําลาย	-7740
ต่อเดือน	-7741
เหว	-7742
ohn	-7743
▁Saf	-7744
พาเลท	-7745
ทัดรัด	-7746
▁เปอร์	-7747
▁เจ้าหน้าที่	-7748
70)	-7749
AWG	-7750
ค้าร	-7751
ตะกร้า	-7752
คลาสสิก	-7753
รีย์	-7754
▁ชิป	-7755
▁Strip	-7756
ที่สวยงาม	-7757
ฟิน	-7758
▁Post	-7759
red	-7760
▁คอมพิวเตอร์	-7761
▁สร้อยข้อมือ	-7762
สุขุมวิท	-7763
▁ตัวควบคุม	-7764
▁XL	-7765
ยอดเยี่ยม	-7766
▁แถลงการณ์	-7767
▁105	-7768
▁Im	-7769
แนล	-7770
An	-7771
▁รายการผลิตภัณฑ์	-7772
sis	-7773
▁`	-7774
▁โดน	-7775
▁Reg	-7776
aser	-7777
▁ชําระ	-7778
▁เยโฮวาห์	-7779
unk	-7780
หวต	-7781
ค่ํา	-7782
▁115	-7783
เที่ยวบิน	-7784
site	-7785
ังหวะ	-7786
ส่วนผสม	-7787
▁ลําโพง	-7788
▁ا	-7789
หรือเปล่า	-7790
▁จิ	-7791
ประจุ	-7792
AF	-7793
ms	-7794
345	-7795
ced	-7796
▁อาทิ	-7797
ตัดสินใจ	-7798
▁White	-7799
ปีก	-7800
lock	-7801
job	-7802
ิ้ว	-7803
โซล	-7804
amm	-7805
▁SGS	-7806
▁MDF	-7807
แมนติก	-7808
▁Color	-7809
บําบัดน้ํา	-7810
▁มณฑล	-7811
▁ตัวแปลง	-7812
uv	-7813
อิตาลี	-7814
หัวเราะ	-7815
เส้นผ่าศูนย์กลาง	-7816
ก้าว	-7817
อารมณ์	-7818
กระเป๋	-7819
ัดส่วน	-7820
▁องค์กร	-7821
▁nbsp	-7822
ครบวงจร	-7823
25)	-7824
▁มีด	-7825
▁คุณลักษณะ	-7826
▁เหรียญสหรัฐ	-7827
▁68	-7828
แมว	-7829
▁การศึกษา	-7830
ค้าง	-7831
เพลา	-7832
iver	-7833
▁อัพเดท	-7834
▁เส้นทาง	-7835
agram	-7836
error	-7837
รุนแรง	-7838
และเงื่อนไข	-7839
▁(30	-7840
▁Ox	-7841
เปียก	-7842
ทางธุรกิจ	-7843
add	-7844
uch	-7845
มี่	-7846
เล่นเกม	-7847
เกือบ	-7848
▁สิ้น	-7849
bit	-7850
▁ความหนาของ	-7851
▁นก	-7852
▁เปร	-7853
avy	-7854
พระองค์	-7855
วิทยาลัย	-7856
EA	-7857
กอฮ	-7858
▁sc	-7859
ชนาการ	-7860
คอมเพรสเซอร์	-7861
▁9,	-7862
12)	-7863
▁Name	-7864
ima	-7865
ัจจัย	-7866
▁(201	-7867
ใยแก้ว	-7868
:18	-7869
โซน	-7870
PG	-7871
▁Pe	-7872
จะได้รับ	-7873
olor	-7874
แรงงาน	-7875
CM	-7876
พุธ	-7877
ร่วง	-7878
รุ	-7879
ures	-7880
▁สอด	-7881
▁10,000	-7882
▁เมื่อวันที่	-7883
เครื่องจักรกล	-7884
▁2.4	-7885
ัลยกรรม	-7886
▁Street	-7887
▁ปรา	-7888
▁Shop	-7889
3-	-7890
eries	-7891
▁Pass	-7892
โดยรวม	-7893
▁10000	-7894
เฮ้าส์	-7895
หลุม	-7896
คุณใน	-7897
าปัตยกรรม	-7898
▁ทางทวารหนัก	-7899
ได้จาก	-7900
32)	-7901
1000	-7902
็อกเก็ต	-7903
ที่นั่น	-7904
▁อัลบั้ม	-7905
สแควร์	-7906
ling	-7907
วิจารณ์	-7908
หัก	-7909
▁ASM	-7910
ตลก	-7911
เครียด	-7912
▁โลหะผสม	-7913
▁วิต	-7914
การป้องกัน	-7915
BL	-7916
▁บอล	-7917
ML	-7918
▁Rock	-7919
เข้าสู่	-7920
▁วันจันทร์	-7921
▁op	-7922
ไลด์	-7923
คนที่	-7924
essional	-7925
ible	-7926
เจริญเติบโต	-7927
FX	-7928
PT	-7929
▁em	-7930
▁ไปที่	-7931
ขั้ว	-7932
เอ็นซี	-7933
▁คุณมี	-7934
▁77	-7935
ตลับ	-7936
หนี้	-7937
urry	-7938
▁PRO	-7939
▁Multi	-7940
บริหารจัดการ	-7941
อังคาร	-7942
แอฟริกา	-7943
ไต้หวัน	-7944
▁หุ่นยนต์	-7945
คลอด	-7946
▁อยาก	-7947
▁วันหยุด	-7948
▁Add	-7949
▁Cloud	-7950
PA	-7951
▁อัตร	-7952
▁สิงคโปร์	-7953
▁170	-7954
▁สุดยอด	-7955
▁เนื้อหา	-7956
นีเซียม	-7957
▁สติ	-7958
▁ผู้จําหน่าย	-7959
▁Jun	-7960
jp	-7961
▁ดอกไม้สําหรับ	-7962
▁ด้วยความ	-7963
ประวัติศาสตร์	-7964
จิส	-7965
สายพาน	-7966
▁นมโต	-7967
เฉียง	-7968
สืบ	-7969
▁data	-7970
▁Standard	-7971
ulf	-7972
▁CD	-7973
.10	-7974
Sing	-7975
rees	-7976
▁ระบบควบคุม	-7977
ปลอด	-7978
เหล็กเส้น	-7979
เนียน	-7980
่อยาก	-7981
▁กลิ่น	-7982
โทรทัศน์	-7983
ปา	-7984
ฆษณ	-7985
▁AD	-7986
สแต	-7987
▁สวี	-7988
▁Chrome	-7989
▁ความชื้น	-7990
ในอุตสาหกรรม	-7991
▁ทุกวัน	-7992
ค่าธรรมเนียม	-7993
สก์	-7994
สมุย	-7995
▁บราซิล	-7996
:19	-7997
ada	-7998
dB	-7999
ะต	-8000
ere	-8001
ไซส์	-8002
่อสร้าง	-8003
HF	-8004
ลิเธียม	-8005
อุป	-8006
เก้าอี้	-8007
oe	-8008
ปกครอง	-8009
ness	-8010
▁Room	-8011
▁ความงาม	-8012
แก้ปัญหา	-8013
VAC	-8014
เหตุผล	-8015
ัธยม	-8016
▁ทาส	-8017
ที่มีชื่อเสียง	-8018
▁xx	-8019
ฤดูก	-8020
▁ชุบ	-8021
▁หมอน	-8022
ในห้อง	-8023
ภาษาญี่ปุ่น	-8024
RT	-8025
▁อื่นๆ	-8026
PY	-8027
เหวี่ยง	-8028
ฤดูกาล	-8029
ปัญ	-8030
มาถึง	-8031
▁เชิง	-8032
เนียร์	-8033
เป็นพิเศษ	-8034
▁Apple	-8035
ACK	-8036
▁Jin	-8037
EV	-8038
ird	-8039
ยสาร	-8040
คเตอร์	-8041
▁ลูกกลิ้ง	-8042
่อนข้าง	-8043
▁;	-8044
link	-8045
อาหารและ	-8046
การเข้าถึง	-8047
▁Video	-8048
▁บางที	-8049
▁ในช่วง	-8050
ใช้บริการ	-8051
เวฟ	-8052
พนัน	-8053
▁''	-8054
▁76	-8055
flix	-8056
ring	-8057
▁Plastic	-8058
▁GL	-8059
▁ทะเล	-8060
การค้นหา	-8061
วัตถุดิบ	-8062
▁ห้องครัว	-8063
ธุร	-8064
▁แบบพกพา	-8065
่ห์	-8066
▁การเชื่อมต่อ	-8067
ารีส	-8068
ke	-8069
สูบน้ํา	-8070
ลาการ	-8071
รวมภาษี	-8072
ัศจรรย์	-8073
ทรัพย์สิน	-8074
05	-8075
กอฮอล์	-8076
สท์	-8077
▁Tok	-8078
▁Metal	-8079
61)	-8080
▁พัดลม	-8081
ิตา	-8082
ไรด์	-8083
▁ซึ่งมี	-8084
▁ไทเทเนียม	-8085
▁hy	-8086
▁Fast	-8087
▁Green	-8088
แท็บเล็ต	-8089
บีบ	-8090
ทธิ์	-8091
▁Go	-8092
inc	-8093
39)	-8094
ว่าน	-8095
โดเมน	-8096
ปริญญา	-8097
แห่งประเทศไทย	-8098
▁Union	-8099
อนซ์	-8100
เลยนะ	-8101
▁อสังหาริมทรัพย์	-8102
eek	-8103
โพสิต	-8104
169	-8105
เด็น	-8106
▁Spl	-8107
โอเค	-8108
iff	-8109
สเป	-8110
▁ไก	-8111
าร์ก	-8112
อย่างน้อย	-8113
บบุ	-8114
▁iPad	-8115
▁HDMI	-8116
ในตลาด	-8117
/11	-8118
▁แอล	-8119
48)	-8120
▁เข้าร่วม	-8121
ทิน	-8122
▁สมาคม	-8123
ผู้โดยสาร	-8124
ที่นอน	-8125
aker	-8126
ผิวหนัง	-8127
อยู่น	-8128
▁Enter	-8129
▁ปู	-8130
enter	-8131
คอนโด	-8132
บบ่อย	-8133
▁ดังนี้	-8134
เธก	-8135
▁Sand	-8136
▁Corpor	-8137
ลิปป	-8138
้นชัก	-8139
▁Christ	-8140
▁เลนส์	-8141
go	-8142
▁GSM	-8143
เสธ	-8144
▁อ่อน	-8145
สภาพแวดล้อม	-8146
CA	-8147
ลูชัน	-8148
▁จอห์น	-8149
ua	-8150
▁ar	-8151
ียิปต์	-8152
▁Electronics	-8153
rew	-8154
สมดุล	-8155
เงียบ	-8156
▁เชือก	-8157
75)	-8158
hejiang	-8159
ครั้งที่	-8160
ประสาท	-8161
กะทัดรัด	-8162
ทาวเวอร์	-8163
▁ขนาดใหญ่	-8164
80)	-8165
ตัวของ	-8166
▁กุญแจ	-8167
ประสาน	-8168
ศวกร	-8169
ทางเพศ	-8170
ที่ชื่อ	-8171
จากสถานี	-8172
EE	-8173
เซส	-8174
top	-8175
▁เด็กนักเรียน	-8176
15)	-8177
ซัพพลาย	-8178
usty	-8179
▁error	-8180
▁Company	-8181
รรษ	-8182
ตุลาการ	-8183
ที่ไม่มี	-8184
▁แท็กที่แนะนํา	-8185
ECH	-8186
ห้าม	-8187
▁ฆ่า	-8188
▁คีย์	-8189
แบบนั้น	-8190
ประหยัดพลังงาน	-8191
▁บิ	-8192
นาฬิกา	-8193
และเป็น	-8194
▁กรา	-8195
▁แข็ง	-8196
แฝ	-8197
ริ้ว	-8198
เซนต์	-8199
การตั้งค่า	-8200
พันธมิตร	-8201
คี	-8202
▁ออ	-8203
ific	-8204
▁4.5	-8205
abric	-8206
▁Beach	-8207
▁me	-8208
▁จดหมาย	-8209
▁Bra	-8210
bs	-8211
(5	-8212
หลักของ	-8213
▁Jan	-8214
กนีเซียม	-8215
ota	-8216
▁cm	-8217
ique	-8218
การแสดง	-8219
▁Privacy	-8220
พีเค	-8221
ข้าวโพด	-8222
CT	-8223
49)	-8224
▁Roller	-8225
ิทัล	-8226
▁กรอง	-8227
▁Components	-8228
บุก	-8229
ั๊ย	-8230
ulator	-8231
สเปรย์	-8232
แรกของ	-8233
▁ระบบการ	-8234
elf	-8235
ลิปปินส์	-8236
▁อาทิตย์	-8237
ants	-8238
▁สิน	-8239
▁ที่คุณ	-8240
▁car	-8241
65)	-8242
▁มันคือ	-8243
▁โลโก้	-8244
ogrid	-8245
▁บีดี	-8246
านกลาง	-8247
oph	-8248
▁Acc	-8249
to	-8250
▁(13	-8251
ใช้อย่าง	-8252
▁การตั้งค่า	-8253
โอด	-8254
▁เอง	-8255
ต่ําสุด	-8256
โตตุลาการ	-8257
▁ถั่ว	-8258
▁DN	-8259
▁โดยเฉพาะ	-8260
ระเบียบ	-8261
▁จันทร์	-8262
เสถียรภาพ	-8263
▁โฟม	-8264
▁แม่น	-8265
ลามิเนต	-8266
angu	-8267
▁Cou	-8268
▁Asia	-8269
▁Guide	-8270
▁ผัก	-8271
โกน	-8272
▁Rub	-8273
▁หาย	-8274
หรูหรา	-8275
▁sl	-8276
เซียส	-8277
เมต	-8278
▁REACH	-8279
ll	-8280
อยด์	-8281
▁การกระทํา	-8282
มาตร	-8283
การพัฒนา	-8284
▁(19	-8285
ใคร่	-8286
ร้อยละ	-8287
เป็นศูนย์	-8288
▁อบ	-8289
เช็ด	-8290
ที่ไหน	-8291
▁DM	-8292
น้ําร	-8293
▁ASME	-8294
▁กรุ๊ป	-8295
เมียม	-8296
▁เกิดอะไรขึ้น	-8297
▁3.2	-8298
โส	-8299
ฝีมือ	-8300
พารา	-8301
▁อ้วน	-8302
▁ชุดชั้นใน	-8303
ามะ	-8304
▁ทุกอย่าง	-8305
▁Sub	-8306
-07	-8307
▁Pol	-8308
ด้านข้าง	-8309
มัก	-8310
ิจิทัล	-8311
แรงดันสูง	-8312
▁Jul	-8313
เป้	-8314
่อก	-8315
ัยทัศน์	-8316
มองหา	-8317
▁เปรียบ	-8318
▁มืออาชีพ	-8319
แฟลช	-8320
▁ดูแล	-8321
▁บอร์ด	-8322
ru	-8323
ask	-8324
บี่	-8325
▁PA	-8326
▁ฝาครอบ	-8327
อนุญาโตตุลาการ	-8328
ขดลวด	-8329
▁เย็น	-8330
โดยการ	-8331
▁เทคนิค	-8332
cc	-8333
light	-8334
▁WiFi	-8335
ไฟฟ้าสถ	-8336
▁สีฟ้า	-8337
▁มนุษย์	-8338
ฝรั่ง	-8339
ern	-8340
ล่อง	-8341
▁หล่อ	-8342
▁แป้ง	-8343
กรรมสิทธิ์	-8344
ฉีดพลาสติก	-8345
▁Ball	-8346
▁พรม	-8347
▁ทรัพ	-8348
ations	-8349
▁Control	-8350
พิก	-8351
ปีที่	-8352
▁Xvideos	-8353
10)	-8354
▁ชั้นวาง	-8355
▁ทําไมต้อง	-8356
▁Squ	-8357
ทางเดิน	-8358
▁โดยใช้	-8359
ินทร์	-8360
เสพ	-8361
โกร	-8362
▁หัวหน้า	-8363
▁ปั๊มน้ํา	-8364
▁โซฟา	-8365
:25	-8366
vent	-8367
เวลาน	-8368
อย่า	-8369
ัศมี	-8370
▁IEC	-8371
▁แลก	-8372
ให้เช่า	-8373
▁ยกเลิก	-8374
ola	-8375
unt	-8376
▁210	-8377
arden	-8378
urity	-8379
ห้องนอน	-8380
เธฃ	-8381
▁รู้สึก	-8382
▁กําลังสอง	-8383
▁Piece	-8384
าร่า	-8385
ต่างชาติ	-8386
คอนโทร	-8387
ซ้ํากัน	-8388
รังสี	-8389
▁Business	-8390
ผลบังคับ	-8391
ero	-8392
ume	-8393
▁Mr	-8394
▁ผมสี	-8395
น้ําแข็ง	-8396
▁►	-8397
ict	-8398
▁End	-8399
▁ยูโร	-8400
กัส	-8401
ในงาน	-8402
▁วัตถุ	-8403
▁ค่าใช้จ่าย	-8404
▁Rain	-8405
เสมือน	-8406
izz	-8407
วนะ	-8408
หมอน	-8409
ฟังก์ชัน	-8410
โดยเฉพาะ	-8411
.-	-8412
้อยู่	-8413
▁2555	-8414
▁Develop	-8415
ersion	-8416
เบียร์	-8417
อเนกประสงค์	-8418
▁5)	-8419
▁Club	-8420
▁เครื่องบด	-8421
▁ใช้สําหรับ	-8422
▁เปลือย	-8423
การสนับสนุน	-8424
เทร	-8425
ล็อก	-8426
ทองคํา	-8427
▁คอนโดมิเนียม	-8428
ทดแทน	-8429
เกี่ยวกับสิ่ง	-8430
▁■	-8431
บอ	-8432
ย่าง	-8433
▁เพชร	-8434
ค่าบริการ	-8435
กางเกง	-8436
(3	-8437
อ้วน	-8438
▁Ben	-8439
ระลึก	-8440
▁วันหลังจาก	-8441
กี	-8442
▁เมีย	-8443
attaya	-8444
▁ฟิตเนส	-8445
สะท้อนแสง	-8446
จะไป	-8447
ผู้บริหาร	-8448
▁ทาวเวอร์	-8449
๋ง	-8450
-06	-8451
ดยา	-8452
▁PT	-8453
▁สัก	-8454
▁โคล	-8455
▁	-8456
า	-8457
ร	-8458
น	-8459
อ	-8460
เ	-8461
ก	-8462
่	-8463
ง	-8464
ม	-8465
ั	-8466
้	-8467
ล	-8468
ี	-8469
ย	-8470
ว	-8471
ด	-8472
ส	-8473
ิ	-8474
บ	-8475
ต	-8476
ท	-8477
ค	-8478
ห	-8479
ะ	-8480
แ	-8481
e	-8482
0	-8483
ป	-8484
a	-8485
์	-8486
ข	-8487
o	-8488
i	-8489
ุ	-8490
1	-8491
จ	-8492
t	-8493
พ	-8494
ไ	-8495
n	-8496
ื	-8497
r	-8498
.	-8499
ู	-8500
ช	-8501
2	-8502
โ	-8503
,	-8504
ํ	-8505
ใ	-8506
s	-8507
ผ	-8508
l	-8509
็	-8510
:	-8511
5	-8512
-	-8513
3	-8514
g	-8515
c	-8516
m	-8517
ณ	-8518
S	-8519
d	-8520
4	-8521
ซ	-8522
u	-8523
C	-8524
6	-8525
ถ	-8526
ภ	-8527
ฟ	-8528
h	-8529
)	-8530
8	-8531
(	-8532
p	-8533
P	-8534
9	-8535
A	-8536
T	-8537
7	-8538
M	-8539
ศ	-8540
D	-8541
/	-8542
E	-8543
ธ	-8544
ึ	-8545
L	-8546
y	-8547
ษ	-8548
B	-8549
;	-8550
R	-8551
ญ	-8552
H	-8553
I	-8554
b	-8555
&	-8556
k	-8557
O	-8558
N	-8559
F	-8560
G	-8561
f	-8562
w	-8563
ฉ	-8564
v	-8565
V	-8566
x	-8567
W	-8568
U	-8569
ๆ	-8570
ฑ	-8571
"	-8572
ฮ	-8573
K	-8574
_	-8575
%	-8576
๊	-8577
X	-8578
?	-8579
ฐ	-8580
z	-8581
!	-8582
ฝ	-8583
J	-8584
Y	-8585
*	-8586
j	-8587
+	-8588
Z	-8589
๋	-8590
ฯ	-8591
ฤ	-8592
–	-8593
$	-8594
Q	-8595
[	-8596
]	-8597
#	-8598
'	-8599
ฏ	-8600
ฒ	-8601
q	-8602
”	-8603
=	-8604
©	-8605
“	-8606
ฆ	-8607
ฎ	-8608
°	-8609
@	-8610
ฬ	-8611
~	-8612
•	-8613
»	-8614
฿	-8615
\	-8616
×	-8617
	-8618
💐	-8619
·	-8620
ا	-8621
’	-8622
®	-8623
±	-8624
・	-8625
●	-8626
—	-8627
}	-8628
€	-8629
≤	-8630
{	-8631
→	-8632
ی	-8633
	-8634
£	-8635
	-8636
и	-8637
م	-8638
с	-8639
★	-8640
	-8641
‘	-8642
«	-8643
а	-8644
ر	-8645
`	-8646
	-8647
	-8648
ن	-8649
›	-8650
≥	-8651
ل	-8652
■	-8653
】	-8654
о	-8655
【	-8656
é	-8657
	-8658
ฃ	-8659
๒	-8660
	-8661
е	-8662
ب	-8663
к	-8664
	-8665
н	-8666
و	-8667
๐	-8668
ฺ	-8669
ه	-8670
ع	-8671
	-8672
๑	-8673
～	-8674
๕	-8675
►	-8676
р	-8677
т	-8678
Φ	-8679
	-8680
у	-8681
′	-8682
á	-8683
ฅ	-8684
ç	-8685
ン	-8686
л	-8687
ف	-8688
※	-8689
、	-8690
中	-8691
ñ	-8692
й	-8693
ق	-8694
ê	-8695
	-8696
μ	-8697
文	-8698
¥	-8699
ت	-8700
د	-8701
♪	-8702
ي	-8703
Ω	-8704
ـ	-8705
日	-8706
ü	-8707
ラ	-8708
ー	-8709
ฌ	-8710
本	-8711
	-8712
	-8713
в	-8714
س	-8715
語	-8716
プ	-8717
ة	-8718
|	-8719
â	-8720
ش	-8721
	-8722
Ø	-8723
φ	-8724
←	-8725
♦	-8726
๓	-8727
д	-8728
^	-8729
๖	-8730
à	-8731
√	-8732
	-8733
í	-8734
	-8735
๔	-8736
한	-8737
м	-8738
어	-8739
◆	-8740
