<unk>	0
<s>	0
</s>	0
▁	-3.28709
.	-3.99852
▁‹	-4.00812
,	-4.08659
ର	-4.41558
▁।	-4.46249
ରେ	-4.52705
▁!	-4.75639
।	-4.79206
କୁ	-4.88541
?	-4.91693
▁1	-4.91734
▁ସେ	-4.92803
-	-5.02125
st	-5.1052
)	-5.20559
s	-5.3743
▁?	-5.40883
:	-5.41239
▁କହିଲେ	-5.47642
’	-5.48197
▁କ	-5.48552
▁କିନ୍ତୁ	-5.50895
▁(	-5.52419
▁କି	-5.544
▁ନାହିଁ	-5.56942
▁ପାଇଁ	-5.59809
▁ଏହି	-5.61558
ଣ	-5.62
▁“	-5.69601
▁ହେଲା	-5.71971
ଙ୍କ	-5.73032
▁ଓ	-5.74368
ରୁ	-5.74606
ନ	-5.81105
▁IS	-5.8456
କ	-5.8796
ye	-5.8863
▁ବି	-5.89529
▁hu	-5.89731
emiti	-5.89813
▁y	-5.90002
CG	-5.96947
1	-6.01867
▁ମୁଁ	-6.01943
!	-6.0217
ଲ	-6.0569
ା	-6.08929
୍	-6.09133
▁mi	-6.09772
▁ସେଦିନ	-6.10352
▁ଏହା	-6.10711
▁But	-6.11585
racle	-6.11639
▁-	-6.125
...	-6.13099
▁ମଧ୍ୟ	-6.15925
▁କରନ୍ତୁ	-6.16134
ମ	-6.16897
▁ଅ	-6.16967
▁ଏବଂ	-6.17039
▁ଏ	-6.19674
ଟି	-6.21954
ସ	-6.23104
▁ଆଉ	-6.26722
▁"	-6.2675
ୀ	-6.26885
ବ	-6.30134
େ	-6.30545
ି	-6.3106
▁କରୁଛି	-6.31129
▁ତ	-6.33657
▁ମୋ	-6.34291
ତା	-6.34447
▁କରି	-6.35532
▁ପଇସା	-6.35682
▁ଏକ	-6.36525
▁mẹ	-6.38466
▁ଆପଣ	-6.39559
▁କଣ	-6.4112
'	-6.41596
Name	-6.42092
e	-6.42336
▁କିଛି	-6.42545
▁ହାତୀ	-6.43304
ନି	-6.43352
▁କଥା	-6.43543
▁Smoking	-6.44732
▁ଅଛି	-6.45771
▁କେବେ	-6.46532
ବା	-6.46731
ପ	-6.47725
▁କରିବା	-6.49405
▁ଆମ	-6.49918
▁ଯେ	-6.50287
▁କହିଲା	-6.50969
▁ବର୍ଷ	-6.52265
▁ଏବେ	-6.54351
/	-6.55886
ନା	-6.56819
▁କାହିଁକି	-6.56927
▁ବେଳେ	-6.58663
▁ନୁହେଁ	-6.58975
▁ନ	-6.59455
▁ଆଃ	-6.61131
▁ବା	-6.61555
ଲା	-6.62015
▁ଯଦି	-6.63223
▁ହେବ	-6.63582
▁ବ	-6.6373
ଙ୍କୁ	-6.64468
u	-6.66841
▁ଥିବା	-6.67685
▁ତା	-6.69282
ତ	-6.69745
I	-6.70262
▁କେତେ	-6.71026
▁ପୂର୍ବରୁ	-6.71172
▁ତେବେ	-6.72252
▁ଆ	-6.7247
▁ସ	-6.72831
▁ପିଛା	-6.76621
▁ହେଲେ	-6.76622
▁କିଲୋମିଟର	-6.77631
▁is	-6.77678
▁ଟ	-6.78582
▁ନା	-6.79613
l	-6.79837
▁ବ୍ୟବହାର	-6.8027
▁ହଁ	-6.8028
ଲି	-6.80485
▁ମା	-6.81544
▁‘	-6.82217
▁ସବୁ	-6.82224
;	-6.83161
ଳ	-6.84113
ରା	-6.85261
ଟ	-6.85345
▁ପରେ	-6.85483
ବି	-6.8556
g	-6.85736
▁(_	-6.86598
ଲେ	-6.88218
ୁ	-6.88957
▁ତାଙ୍କ	-6.9116
]	-6.92613
▁ହୋଇ	-6.93079
▁:	-6.93584
o	-6.9371
a	-6.93736
ରି	-6.93783
▁ମ	-6.9403
▁ବୃଦ୍ଧି	-6.94285
▁ତାଙ୍କୁ	-6.95073
▁କହନ୍ତି	-6.9543
ଏହା	-6.95495
▁ଏହାର	-6.96216
ମା	-6.97997
▁%	-6.99794
▁ବିଷୟ	-7.00987
▁ଏହାପରେ	-7.01272
"	-7.0158
▁no	-7.03095
▁ଏଥିରେ	-7.03387
t	-7.03938
▁ବସ୍	-7.04272
▁0	-7.04443
▁କିଏ	-7.04682
ଦ	-7.04961
କ୍ସ	-7.05413
▁ପ	-7.06369
▁ଚ	-7.0669
▁ପହଞ୍ଚିଛି	-7.06793
ର୍	-7.07135
ଏ	-7.07477
▁ପାଇଛି	-7.0768
ଇ	-7.0783
ୋଡ଼ା	-7.09122
▁ଆସେ	-7.092
▁ଦରରେ	-7.09396
▁ଦୁଇ	-7.09815
ନ୍	-7.09868
ିତ	-7.10206
▁ପଇସାରେ	-7.10574
▁ତାହା	-7.10823
▁if	-7.1094
d	-7.10976
▁ଅଧିକ	-7.12054
▁ଗୋଟିଏ	-7.1242
କି	-7.12637
▁ସହିତ	-7.12884
▁ମହିଳାମାନଙ୍କ	-7.13236
▁–	-7.13635
▁Action	-7.14188
▁match	-7.14415
ଜ	-7.14467
▁found	-7.14728
▁ଚିନ୍ତାର	-7.14849
4:16	-7.15995
ସ୍	-7.16036
D	-7.16233
f	-7.16545
▁A	-7.16855
▁ଭାଷା	-7.17243
କା	-7.17363
S	-7.17678
ଶ	-7.19953
ବେ	-7.20186
ଂ	-7.20261
ଟା	-7.20268
▁ହ	-7.20949
ତି	-7.21422
ଡି	-7.21697
▁ସହ	-7.22916
n	-7.2462
m	-7.24988
▁ପାଖରେ	-7.2534
▁କେମିତି	-7.27432
ୟ	-7.27474
▁the	-7.27822
▁ଏତେ	-7.27891
▁you	-7.28448
▁_	-7.28665
▁of	-7.28693
▁କାମ	-7.29127
▁ଛାଡିବ	-7.30695
er	-7.30702
▁@	-7.30765
ଛି	-7.31148
▁ମି	-7.31935
▁ଯାହା	-7.32615
i	-7.32616
▁ଦିନ	-7.32676
▁ସମସ୍ତ	-7.3299
▁S	-7.33209
▁ଆଈ	-7.34028
ୋ	-7.34088
୧୮	-7.35087
▁ଯାଅ	-7.35401
ପି	-7.35711
ସି	-7.35907
▁ଗ୍ରହଣ	-7.36314
C	-7.36542
ମି	-7.36796
ମ୍	-7.37364
କ୍	-7.37657
▁ଉପରେ	-7.38156
ହ	-7.38185
▁ଆଜି	-7.39425
▁”	-7.39899
û	-7.40059
ଅ	-7.40328
▁କଲେ	-7.40846
%	-7.41147
W	-7.4191
ଗ	-7.42157
A	-7.42345
3	-7.42531
ò	-7.42602
▁।”	-7.42615
▁ପା	-7.43026
▁I	-7.4308
▁କର	-7.44556
▁ଟଙ୍କା	-7.44757
▁ଆରମ୍ଭ	-7.45402
?”	-7.45737
ାଇ	-7.45858
▁ଡ	-7.4636
▁love	-7.46491
▁ତୁମେ	-7.46495
▁ପ୍ର	-7.46866
▁ଥିଲା	-7.46914
▁ହୋଇନାହିଁ	-7.47092
▁ଦ	-7.47128
c	-7.48444
▁ଏଲିନା	-7.48875
▁ଡିଲ	-7.48887
▁କାର୍ଯ୍ୟ	-7.50173
▁ରହିଛି	-7.50671
ଉ	-7.51326
▁ମୋତେ	-7.51399
▁ବୋଲି	-7.51681
ଚ	-7.51817
ଡ	-7.51955
▁କୌଣସି	-7.52512
P	-7.52781
▁ବାଟ	-7.53098
▁ପି	-7.53346
▁ନାମ	-7.53483
▁ପରି	-7.53574
॰	-7.53707
ଲ୍	-7.53736
ତତ୍ତ୍ୱ	-7.5395
▁ଉତ୍ତର	-7.54033
ପା	-7.54151
▁ଇ	-7.54243
p	-7.54319
▁smruti	-7.544
▁କିପରି	-7.54864
r	-7.55362
▁ଭାବରେ	-7.5566
▁ଲୋକ	-7.55886
▁୨	-7.55979
▁ତାଙ୍କର	-7.56377
ଗୁଡ଼ିକ	-7.56406
▁ମହିଳାଙ୍କ	-7.56844
▁କରିବାକୁ	-7.56918
▁କେବଳ	-7.56989
O	-7.57391
T	-7.57628
▁ସ୍ୱାମୀ	-7.57928
▁ଗ	-7.57929
y	-7.58611
▁[	-7.58704
ମାନେ	-7.59587
E	-7.59803
▁ହେଉଛି	-7.59911
▁ନେଇ	-7.59945
ିକ	-7.60552
ing	-7.60814
▁ଆପଣଙ୍କ	-7.61264
▁୧	-7.6182
▁4.4	-7.6186
k	-7.62191
R	-7.62265
ଖ	-7.62332
▁ଅଟେ	-7.62456
▁ପୁଣି	-7.63001
▁କରୁଛନ୍ତି	-7.63282
▁ଏହାକୁ	-7.63481
▁2	-7.63538
▁ମିଶାଇ	-7.63624
▁କ୍ଷୀର	-7.63755
▁ଶେଷ	-7.63863
L	-7.64302
ଙ୍ଗ	-7.64388
ଭ	-7.64451
▁ଭଲ	-7.64548
J	-7.64773
in	-7.65461
B	-7.65715
▁'	-7.65845
ଥିବା	-7.65937
▁ନି	-7.65958
▁ଆମେ	-7.66382
Z	-7.66461
▁ଚାଲି	-7.66688
▁T	-7.66995
▁a	-7.67162
।"	-7.6749
▁ସୂଚନା	-7.67778
▁ହୋଇଥାଏ	-7.68248
▁to	-7.68729
▁ମହେଶ	-7.68734
ଆ	-7.68812
Comment	-7.68882
▁କରିବେ	-7.69808
▁ସମୟ	-7.7015
▁P	-7.70355
▁ସମ୍	-7.70608
▁ପୁଅ	-7.70707
÷	-7.70873
M	-7.70964
CGX	-7.71096
▁ସୁ	-7.71595
▁ସମୟରେ	-7.71696
▁କରିଛନ୍ତି	-7.71985
▁ପ୍ରତି	-7.7217
2	-7.72336
।”	-7.72914
▁କାରଣ	-7.7311
(	-7.73147
କ୍ଷ	-7.7316
▁ହେ	-7.73409
▁ଏମିତି	-7.73524
▁ନିଜ	-7.73741
▁ମୋର	-7.74311
ar	-7.74704
▁ଆସିଲା	-7.74908
▁ଶ	-7.75101
ଷ୍ଟ	-7.75501
ଛ	-7.75855
ଡ଼	-7.75863
ଲୁ	-7.76421
▁C	-7.76662
al	-7.77131
▁ନୂତନ	-7.77368
▁କହି	-7.77884
▁କେଉଁ	-7.78118
▁ଥିଲେ	-7.783
ଗୁଡିକ	-7.7844
ଟ୍	-7.78588
ରୀ	-7.79017
୩	-7.79089
ନ୍ତ	-7.79286
▁ଜାଣନ୍ତୁ	-7.79586
▁କା	-7.79939
▁ଘେରରେ	-7.80029
▁ପକାନ୍ତୁ	-7.80329
▁ବିଶୋଧନ	-7.80329
▁୩	-7.80644
▁ତଳି	-7.80967
▁ସରକାର	-7.81213
ed	-7.81214
ହା	-7.81295
▁ମଞ୍ଜିରେ	-7.8194
ଥିଲା	-7.82206
୤	-7.82609
▁୧୦	-7.82971
▁ହେବା	-7.82982
▁ଲୋକେ	-7.83123
ଣି	-7.83243
▁ଭ	-7.83672
ଣ୍ଡ	-7.83773
N	-7.84117
▁ଘର	-7.84531
୍ୟ	-7.84613
ଯ	-7.85078
▁ହୁଏ	-7.85132
▁ବହୁତ	-7.85432
ଆର	-7.85747
▁ତାକୁ	-7.86079
▁ଭିତରେ	-7.8621
▁ଜଣେ	-7.8631
ନାହିଁ	-7.8675
ଗୁଡ଼ିକୁ	-7.86978
ହି	-7.87184
@	-7.8747
ଜି	-7.87479
▁ମଧ୍ୟରେ	-7.87863
▁ନୂଆ	-7.88128
▁ଜାଣି	-7.88261
▁i	-7.88359
▁ସି	-7.88454
ମୁଁ	-7.88695
▁3	-7.88835
େଇ	-7.89361
▁ସେମାନେ	-7.89931
_	-7.90683
▁ସେହି	-7.90934
ଛନ୍ତି	-7.90957
ପ୍	-7.91199
ଙ୍କର	-7.91567
▁ବନ୍ଦ	-7.92239
▁ପ୍ରଶ୍ନ	-7.92528
U	-7.92544
▁ଆଲୋଚନା	-7.9272
▁କରିଥିଲେ	-7.92796
▁ଶପଥ	-7.92966
▁ଯେଉଁ	-7.92984
▁ଥାଏ	-7.93055
ନ୍ତି	-7.93058
ଡା	-7.9309
ଜା	-7.93369
▁ଜୀବନ	-7.93548
▁ଜ	-7.93591
▁5	-7.93969
H	-7.94073
▁କିମ୍ବା	-7.94341
▁Name	-7.94342
ସେ	-7.94404
▁ଦେଇ	-7.94732
▁ଖାଦ୍ୟ	-7.9556
v	-7.96011
▁ଆବଶ୍ୟକ	-7.96082
▁ତୁ	-7.9616
ଥିଲେ	-7.96468
re	-7.96506
▁ପାଇ	-7.9655
▁ଦେଖି	-7.96612
▁ହୋଇଛି	-7.96621
▁ହଉ	-7.9664
କେ	-7.97029
▁and	-7.97043
୪	-7.97284
▁ଦେଇଛନ୍ତି	-7.9736
ଳି	-7.97435
▁News	-7.97504
b	-7.98238
▁ତମେ	-7.983
ଥାଏ	-7.98498
▁ଫାଇଲ	-7.98509
▁ମୁ	-7.98602
▁ତେଣୁ	-7.9876
▁ଓଡ଼ିଆ	-7.98782
”	-7.99576
ଦା	-8.00027
୧	-8.00074
ିଆ	-8.00144
ପରେ	-8.00472
କର	-8.00534
ମାନଙ୍କ	-8.00724
ନ୍ତୁ	-8.00942
ଧ	-8.01053
ସ୍ତ	-8.01127
=	-8.01134
ୀୟ	-8.01287
▁କହିଛନ୍ତି	-8.01551
ଷ	-8.01999
▁ଭାଙ୍ଗି	-8.02063
▁ତୁମ୍ଭେ	-8.02223
▁ବିଜେପି	-8.02613
ାର	-8.02621
`	-8.02813
▁ସା	-8.02911
▁ଚିଠି	-8.03007
▁ଜଣକ	-8.03023
▁ଫୋଲଡର	-8.03569
h	-8.04042
▁୫	-8.04056
କିଙ୍ଗ	-8.04237
▁ପଢନ୍ତୁ	-8.04329
F	-8.04558
▁in	-8.04576
ସା	-8.0473
▁M	-8.04862
▁name	-8.049
ତ୍	-8.05067
▁ଅନ୍ୟ	-8.05135
▁ଆସି	-8.05235
▁4	-8.0524
▁wwwwwwwwwwwwwww	-8.05289
▁ସତରେ	-8.05816
▁କେହି	-8.05967
or	-8.06054
▁ଧ	-8.06138
ହେ	-8.06368
୍ୟା	-8.06598
▁ଉ	-8.06655
ଁ	-8.06751
▁ତୁମ	-8.07267
▁ଘରେ	-8.07509
କାର	-8.07566
▁ମନ	-8.07871
▁କେ	-8.083
ମୋ	-8.08465
en	-8.08812
ଃ	-8.0947
▁ତାଲିକା	-8.09529
▁ହା	-8.09674
▁ଏସି	-8.09824
▁B	-8.10258
▁୧୯	-8.10919
þ	-8.11249
á	-8.1166
ହାମ୍	-8.11951
▁ପ୍ୟାଲେସ	-8.12071
ù	-8.12278
ú	-8.12278
▁ଆପଣଙ୍କୁ	-8.12566
ly	-8.13605
ଠ	-8.14441
▁ଚା	-8.14518
ଫ	-8.14593
ୈ	-8.14648
ri	-8.14666
ାଲୋଚନା	-8.14995
▁କରିଛି	-8.15035
▁R	-8.15639
ଓ	-8.15991
▁ନେତା	-8.15992
ଳା	-8.16079
ଥ	-8.16256
ଣା	-8.16393
▁99	-8.16402
▁ମେ	-8.16439
୮	-8.16619
▁ସମ୍ପର୍କ	-8.16619
▁ରାତିରେ	-8.16873
▁ଯୁବକ	-8.17
▁71	-8.17005
▁ମାତ୍ର	-8.17092
ମୁ	-8.17252
▁କୋ	-8.17704
▁97	-8.17725
▁ପର୍ଯ୍ୟନ୍ତ	-8.17806
▁ପ୍ରଥମ	-8.17813
▁ସେହିଭଳି	-8.1803
▁72	-8.18045
&	-8.18064
▁↑	-8.18244
▁ସନ୍ଦେଶ	-8.18443
▁ଅନ୍ୟପଟେ	-8.18463
▁ଭାଇ	-8.18504
ଭିଧାନ	-8.18538
ଡ଼ି	-8.18724
G	-8.18816
▁ମାନେ	-8.18929
▁ଏକ୍ସପ୍ରେସ୍	-8.19348
▁ଯାଇ	-8.19592
▁Kanak	-8.19792
▁1.21	-8.19792
▁ହିଁ	-8.20017
▁୬	-8.20181
.19	-8.20197
▁ଡକ୍ଟର	-8.20244
▁କରିବ	-8.2051
▁କରିଥିଲା	-8.20718
▁ଘଟଣା	-8.20851
▁6	-8.21028
▁ଭାରତ	-8.21146
ାବକ	-8.2136
w	-8.21434
5	-8.21985
▁ଏପରି	-8.22166
\\	-8.22281
▁ଚାହୁଁଛନ୍ତି	-8.22286
ହଁ	-8.22816
ୟା	-8.22822
▁ଦ୍ୱାରା	-8.22923
▁କରିପାରିବେ	-8.22946
▁ପ୍ରତିମୂର୍ତ୍ତି	-8.22966
▁ଗରମ	-8.22994
▁ଉପ	-8.23235
▁c	-8.23388
▁ହାତ	-8.2339
ରୀମାନେ	-8.23408
ନ୍ଦ	-8.23662
▁ଉପଦ୍ର	-8.23672
4	-8.23772
▁ଆମ୍ବେଦକର	-8.23888
▁ଉତ୍ତରପ୍ରଦେଶର	-8.24354
▁ପରିବର୍ତ୍ତନ	-8.24588
▁ମଞ୍ଜି	-8.24606
▁ଅଳ୍ପ	-8.24868
▁ପାଣି	-8.24916
▁info	-8.25057
▁ପ୍ରଣେ	-8.25058
ରିଟରେ	-8.25061
▁ପିଇବା	-8.25528
▁ବୟସ	-8.25762
▁ଶରୀର	-8.25999
▁୨୦	-8.26192
▁ଶୁଣି	-8.26216
ପ୍ର	-8.26484
▁ମନେ	-8.26589
▁ପୋଷାକ	-8.26715
▁ଗୀତ	-8.2674
se	-8.26781
▁p	-8.27057
ଜ୍	-8.27163
▁ନାହାନ୍ତି	-8.27503
▁ବିଷୟରେ	-8.27664
on	-8.27748
▁୪	-8.27791
▁ଯୋଜନା	-8.27917
୨	-8.28043
▁ଦେବ	-8.28076
".	-8.28614
▁ଲକ୍ଷ	-8.28762
▁ସ୍ତ୍ରୀ	-8.29633
an	-8.29704
▁—	-8.30041
ତେ	-8.30667
at	-8.30811
▁ଦାରୁ	-8.30882
le	-8.30926
ଗ୍	-8.30962
▁action	-8.31122
▁ଧରି	-8.31422
▁ମହା	-8.31471
▁ତ୍ରୁଟି	-8.31612
▁ତୁମ୍ଭ	-8.31837
ବୁ	-8.32136
▁ମହିଳାଙ୍କୁ	-8.32149
▁ସାହିତ୍ୟ	-8.32369
▁?”	-8.32502
ଏସ୍	-8.32664
V	-8.32926
▁17	-8.33027
ଠାରୁ	-8.3307
▁ମୂଳ	-8.33084
ୂ	-8.33161
ଦୂରରେ	-8.33262
▁Comment	-8.33311
14	-8.3337
▁ଭାବେ	-8.33426
▁ଅଛନ୍ତି	-8.33471
▁କୋଟି	-8.33547
ra	-8.33717
▁ରଙ୍ଗ	-8.33729
▁ପର୍	-8.33786
▁ସ୍ଥାନ	-8.33991
ବାକୁ	-8.34021
ତ୍ଵ	-8.34325
▁ସଂ	-8.34366
▁ବିଭାଗ	-8.34781
ଦ୍ଧ	-8.34799
▁ବଡ	-8.34834
7	-8.34953
▁ଯୋଗ	-8.35079
ଵ	-8.35408
▁।[	-8.35627
▁କହିଲି	-8.35695
ଗ୍ରା	-8.35756
ୃ	-8.36001
▁ମାସ	-8.36114
▁ହଜାର	-8.36251
it	-8.36343
▁9	-8.36685
▁ଆପଣଙ୍କର	-8.36973
ତ୍ର	-8.37037
ପାରେ	-8.37287
▁କାର୍ଯ୍ୟକ୍ରମ	-8.37311
ତୁ	-8.37467
ଶା	-8.37753
▁ଯୁଦ୍ଧ	-8.37824
▁ଶ୍ରୀ	-8.37997
ନେ	-8.38029
ମାନ	-8.38081
▁ବ୍ୟକ୍ତି	-8.38229
▁ଅନେକ	-8.3863
▁ଯାଇଥିବା	-8.38655
▁ଉଚିତ	-8.38776
▁ଛି	-8.38843
ଛୁ	-8.3896
▁ଭାରତୀୟ	-8.39209
▁l	-8.39349
TS	-8.39374
▁ଦେଖା	-8.39526
୯	-8.39576
▁ନାଁ	-8.39602
ୌ	-8.39642
▁8	-8.39693
▁ଦୌଡ଼ି	-8.39711
▁ଆସିଥିଲେ	-8.39761
▁ଲୋକମାନେ	-8.39828
▁ପ୍ରେମ	-8.39918
ଶ୍	-8.40207
▁The	-8.40277
▁କରୁ	-8.40291
ବାର	-8.40419
▁ମୃତ୍ୟୁ	-8.40536
▁ନିୟମ	-8.40789
▁7	-8.40847
▁ଘେରି	-8.41081
▁4.5	-8.41082
ଚି	-8.41097
▁ଏଇ	-8.41331
▁ହେବେ	-8.41915
▁କରାଯାଇଛି	-8.41943
6	-8.42108
▁ଶା	-8.42157
ପୁର	-8.42199
ଭା	-8.42377
▁କମ	-8.42448
୍ଯ	-8.42673
Q	-8.42751
ଭି	-8.42785
ଟେ	-8.42886
16	-8.4289
ରୋ	-8.4289
▁ଯୀଶୁ	-8.43348
▁ପ୍ରଦାନ	-8.43626
▁19	-8.43963
‹	-8.44147
▁ଅସଦାଚରଣ	-8.44162
ଦ୍	-8.44667
▁ଋଣ	-8.44739
▁ଚିହ୍ନି	-8.4505
9	-8.45116
▁୩୦	-8.45222
▁୯	-8.45293
▁ଝିଅ	-8.45307
ଫ୍ୟୁମ	-8.45884
▁♪♪♪♪♪♪♪♪♪♪	-8.45912
▁ଫ	-8.4613
ିଙ୍ଗୁଡ଼ି	-8.46175
▁ଘରଠାରୁ	-8.46219
▁ନେ	-8.46285
▁ପାଟିଶୁଣି	-8.46464
▁ସୁଯୋଗରେ	-8.4672
▁ଓଡ଼ିଶା	-8.47007
▁ସମସ୍ୟା	-8.47048
ଏମ୍	-8.4709
K	-8.47136
th	-8.47153
▁ରାଜ୍ୟ	-8.47191
▁କରିଥାଏ	-8.47332
ମାନଙ୍କୁ	-8.47604
▁ଠାରୁ	-8.47823
▁କଲ	-8.47904
▁ଦେଖନ୍ତୁ	-8.4795
▁ରହି	-8.4808
୍‍	-8.48192
▁ତଥ୍ୟ	-8.48227
ପାରିବେ	-8.48532
ry	-8.48562
ଗଲା	-8.48705
x	-8.48813
▁କାହା	-8.48935
▁ଖବର	-8.49136
▁କରନ୍ତି	-8.49235
ିକା	-8.49495
କୋ	-8.50066
ଦି	-8.50066
୫	-8.50379
Y	-8.50548
œ	-8.50626
ଘ	-8.50757
ଦିନ	-8.5076
▁ତାର	-8.50885
▁ଭିଡିଓ	-8.51236
▁10	-8.51241
ଚା	-8.51488
▁କରାଯାଇପାରିବ	-8.5156
amp	-8.51574
▁ତୁମକୁ	-8.51809
▁କଂଗ୍ରେସ	-8.51847
▁ଭିଟାମିନ	-8.52155
▁ଡା	-8.5225
RIZ	-8.52463
9-	-8.52611
▁ପିଲା	-8.52629
▁K	-8.52678
▁&	-8.53381
▁ସଂରକ୍ଷଣ	-8.53395
▁ମୋଦି	-8.53406
▁ରାଜ	-8.53561
▁ବେ	-8.53925
11	-8.53985
▁ହେଉ	-8.53996
▁ଜନ୍ମ	-8.54005
ur	-8.54099
▁G	-8.54402
▁ମୋଦିଙ୍କ	-8.54415
▁ରାଜା	-8.54562
ଡ଼ା	-8.54667
▁ସତ	-8.54939
▁ନିର୍ମାଣ	-8.54967
ro	-8.55115
▁ଏମାନଙ୍କୁ	-8.55227
▁କଲା	-8.55253
▁ପରିମାଣରେ	-8.5566
▁'%	-8.55771
▁for	-8.55952
gt	-8.55961
▁ଆଶ୍ଚର୍ଯ୍ୟ	-8.56046
ଲେଖ	-8.56452
ନୀ	-8.56453
▁ପୂର୍ବ	-8.56695
ବ୍	-8.56771
ଣ୍ଟ	-8.57043
▁ହୋଇଥିଲା	-8.57092
▁ପାଖକୁ	-8.57145
▁ଗୁ	-8.57316
ch	-8.57353
▁ଦେଲେ	-8.57439
▁ହେଇ	-8.57482
▁କୁମାର	-8.57548
▁ଖାଲି	-8.57623
▁ଜୀବ	-8.57648
▁F	-8.57888
▁__	-8.57907
ଠା	-8.58061
▁ଘରୋଇ	-8.58188
▁ବାପା	-8.58261
▁କରିଥିବା	-8.583
▁୧୫	-8.5883
▁ଯାଏ	-8.5887
▁ଯ	-8.59036
▁କାଲି	-8.59108
▁ଚିତ୍ର	-8.59123
ଣୀ	-8.59136
▁ଯାଇଥାଏ	-8.59216
te	-8.59284
8	-8.59644
▁ଦୂର	-8.5985
▁L	-8.59892
ତ୍ତ	-8.60094
▁ସମସ୍ତେ	-8.60152
ଯାଏ	-8.60161
▁ଜିଲ୍ଲା	-8.60169
▁ମାମଲା	-8.60173
▁ମିଳିବ	-8.60175
▁ଥର	-8.60588
▁ହୁଅ	-8.60785
▁ନୁହଁ	-8.60806
▁କାହାକୁ	-8.61028
▁ଆପ	-8.61094
ଥିଲି	-8.61125
▁ପର	-8.6113
▁ଭାତ	-8.6113
▁କରାଯାଏ	-8.6119
▁ଦଳ	-8.61279
ଗଲେ	-8.61592
▁ତୋ	-8.61677
▁ଫିଙ୍ଗି	-8.61856
▁ଚି	-8.62407
▁ଫଳପ୍ରଦ	-8.62537
▁car	-8.62538
▁Long	-8.62541
▁ଦୁଃଖ	-8.62665
ଥି	-8.62719
ମେ	-8.62721
?"	-8.62819
ad	-8.62824
▁ବୀମା	-8.62882
▁ହୋଇଥିବା	-8.63137
▁ଦରକାର	-8.63447
▁ପ୍ରକାର	-8.63587
▁୪୦	-8.63619
▁ବାସ	-8.63623
▁ପୃଷ୍ଠା	-8.63667
▁ବିବାହ	-8.63714
▁ସ୍	-8.63773
▁କେନ୍ଦ୍ର	-8.64022
▁ଘ	-8.64075
▁ନିଜର	-8.64109
▁ମୂଲ୍ୟ	-8.64609
▁ଅନୁସାରେ	-8.6461
▁ଠିକଣା	-8.6462
ନୁ	-8.64789
ପୁ	-8.64809
▁ନିର୍ବାଚନ	-8.6492
ୁଛି	-8.65296
es	-8.65383
କାରୀ	-8.65519
▁ପ୍ରସଙ୍ଗ	-8.65662
ଦେଇଥାନ୍ତି	-8.65682
▁ମୁହଁ	-8.65684
▁ପୋଲିସ	-8.65783
▁ହୋ	-8.66017
▁WEB	-8.66039
▁ଛ	-8.66076
ହାର	-8.66263
▁ଯିବା	-8.66368
▁ଖେଳ	-8.66566
କୃତ	-8.66692
▁ଠିକ୍	-8.66815
▁ବଡ଼	-8.66833
▁ଏଠାରେ	-8.66855
ଡ୍	-8.66892
▁b	-8.66958
▁ରୋଗ	-8.67011
▁କରୁଅଛି	-8.67193
▁Next	-8.67299
!”	-8.67358
▁ବର୍ତ୍ତମାନ	-8.67442
ାୟ	-8.676
▁ଲାଗି	-8.67747
▁Why	-8.67801
▁ଭରପୁର	-8.67802
▁କଥାରେ	-8.67929
▁ଏକା	-8.68398
ୱା	-8.68418
ାଉ	-8.68518
▁ପାଠ	-8.68592
▁ମାନ	-8.68778
▁ସହେି	-8.6889
▁ଆମେରିକା	-8.68911
▁ପତ୍ର	-8.68933
ିଲା	-8.69177
ଷ୍	-8.69387
▁ଯା	-8.69504
▁ବଞ୍ଚି	-8.69523
ଯିବ	-8.69614
▁ଫଟୋ	-8.69636
୍ୱ	-8.70053
0	-8.70082
▁ଦେଶ	-8.70199
ଗା	-8.70275
ପଥର	-8.70369
ଫ୍	-8.70474
ଧା	-8.70501
▁ବୁ	-8.70504
ସୁ	-8.70627
▁ଖ	-8.70766
▁D	-8.71279
▁ଖୋଲି	-8.7138
▁ତିଆରି	-8.71472
▁ଲାଭ	-8.71507
▁ଆଇ	-8.71541
▁ହସ	-8.71665
▁ଉଠ	-8.71731
୭	-8.71805
▁ଶବ୍ଦ	-8.71846
▁minutes	-8.71868
▁ଜାଣିବା	-8.71907
ଦେ	-8.72035
▁ବିକାଶ	-8.72156
▁H	-8.72224
▁ଆଧୁନିକ	-8.72599
lt	-8.72608
▁ନବ	-8.72771
ଲୋ	-8.72863
▁public	-8.73161
ଛା	-8.7325
▁ସମ	-8.73282
▁ଧାରଣ	-8.73355
▁label	-8.73358
▁ଦେବା	-8.73421
▁ବିଶେଷ	-8.73685
▁private	-8.7374
ଭୋଁ	-8.73751
▁ୟ	-8.73949
▁ପ୍ରୟୋଗ	-8.74145
▁କରିବାର	-8.74228
▁ପରିବାର	-8.74413
▁ଚାଲୁଥିବା	-8.74522
▁ଶକ୍ତି	-8.74609
୍ୟୁ	-8.7461
▁ବରିଷ୍ଠ	-8.74894
▁ଶିଶୁ	-8.74914
▁ଚିନ୍ତା	-8.75067
ଦ୍ର	-8.75152
ାଇବା	-8.75229
▁ଜ୍ଞାନ	-8.75315
▁item	-8.75674
▁ଭାଷାରେ	-8.75888
▁ସୃଷ୍ଟି	-8.76087
▁କରିବୁ	-8.76121
▁ଦେଖିଛନ୍ତି	-8.76143
କରି	-8.76148
unit	-8.76193
▁ବର୍ଣ୍ଣନା	-8.76431
▁ଘୋଷଣା	-8.76453
▁ଅଧିକାର	-8.7646
▁ବର୍ଷରେ	-8.76462
▁2015	-8.76463
▁ଉପକରଣ	-8.76466
ሳ	-8.76469
ଠୁ	-8.7647
▁ଡି	-8.76774
ଦେଶ	-8.76801
▁ଲୋ	-8.77092
KChar	-8.77242
00	-8.77275
▁ତମ	-8.77358
ଦୀ	-8.77378
▁ଗଛ	-8.77393
▁re	-8.774
▁ପଡ଼ି	-8.77515
ଯା	-8.77629
▁EE	-8.77695
is	-8.77699
୦	-8.77894
▁ବାହାରି	-8.77913
▁ବସି	-8.77942
j	-8.78029
▁ପ୍ରବେଶ	-8.78038
▁ଜଣା	-8.78057
▁w	-8.7807
▁ରାତି	-8.78172
୨୦	-8.7829
▁କରିବି	-8.78357
ଏନ୍	-8.78375
▁ମିଛ	-8.78429
▁Previous	-8.78437
ହ୍	-8.78503
ଆଇ	-8.78608
ବର	-8.78638
▁ଏମାନେ	-8.78714
▁read	-8.78763
ାନ	-8.7892
▁E	-8.78932
▁12	-8.79174
▁କୁହ	-8.7923
▁lives	-8.79242
▁ବିନା	-8.79323
ଟର	-8.79346
.....	-8.79367
▁behind	-8.79647
ପରି	-8.79669
▁ବିନ୍ୟାସ	-8.79693
▁ଜଳ	-8.79718
li	-8.79742
▁ବିଫଳ	-8.79751
▁ବିଜୟ	-8.79831
ha	-8.79848
▁run	-8.79902
ଫା	-8.79977
▁dog	-8.80097
▁ଲେଖା	-8.80114
X	-8.80155
ter	-8.80243
▁କହିବି	-8.80423
▁ଦି	-8.80584
3:30	-8.80876
▁ଜଣ	-8.80891
▁ସହର	-8.81009
▁ସଦସ୍ୟ	-8.81155
▁KDE	-8.81284
▁କହୁଥାନ୍ତି	-8.81289
ଞ୍ଜ	-8.81322
▁ରାମ	-8.81407
▁N	-8.81473
ଶି	-8.81503
▁title	-8.81696
select	-8.81697
▁ପକ୍ଷରୁ	-8.81864
mp	-8.81966
▁month	-8.82111
▁୮	-8.82248
▁ବାହାଘର	-8.82531
▁ଏସ	-8.8276
▁ଗିରଫ	-8.8288
▁ସାଧାରଣ	-8.82943
▁ପଚାରିଲେ	-8.8302
▁#	-8.83125
ଗୁ	-8.83142
▁ଜି	-8.83195
ସନ	-8.83312
▁ଅପସାରଣ	-8.83366
▁ବିଧାୟକ	-8.83366
େଲ	-8.83589
20	-8.83702
ିଲେଇ	-8.83793
▁.......	-8.83897
ଜେ	-8.8411
ce	-8.84249
et	-8.84285
▁f	-8.84311
▁କଲି	-8.84313
▁କବିତା	-8.84332
ation	-8.8458
▁ପଲିସି	-8.84638
▁ସବୁବେଳେ	-8.84708
ଗଣ	-8.84772
▁ରହିବ	-8.84846
▁ପ୍ରସ୍ତୁତ	-8.84884
▁ମିଶ୍ର	-8.85142
▁ଖା	-8.85146
▁15	-8.8519
ଅଗ୍ର	-8.85208
▁କାହାର	-8.85228
▁ପାଳନ	-8.85614
▁ଅନୁ	-8.85719
id	-8.8586
▁ଗୋ	-8.85947
▁ଏଭଳି	-8.8599
ic	-8.86045
▁ଫେରି	-8.86111
▁ବାହାର	-8.86222
▁ଆସ	-8.86269
▁ଅନୁଯାୟୀ	-8.86358
ଗତ	-8.86517
'!	-8.86565
▁block	-8.86793
▁ଦାବି	-8.87026
ପତି	-8.87108
▁ସରକାରଙ୍କ	-8.87198
▁In	-8.87578
ଞ୍ଚ	-8.87614
▁ଯତ୍ନ	-8.87668
▁ନେବେ	-8.87785
10	-8.87924
▁m	-8.87935
nicode	-8.88109
▁ନମ୍ବର	-8.8811
[	-8.88306
.”	-8.88315
୬	-8.88394
▁ହତ୍ୟା	-8.88572
ate	-8.88681
▁ଅର୍ଥ	-8.88698
▁?"	-8.8883
▁ମୁଖ୍ୟ	-8.89004
▁India	-8.89027
▁ପଛରେ	-8.894
▁ଦର୍ଶାନ୍ତୁ	-8.89455
▁ଛୋଟ	-8.89471
▁ଥ	-8.89518
▁ପଛେ	-8.8962
▁ଦେ	-8.89723
▁ଧନ	-8.8994
hi	-8.90049
▁ବସ୍ତୁ	-8.90083
▁ଆଠ	-8.90147
▁ପରୀକ୍ଷା	-8.90195
▁ଜା	-8.90254
▁ଆଣ	-8.90258
▁ଗଠନ	-8.90341
ିଂ	-8.90422
ଏହି	-8.90469
18	-8.90548
▁Im	-8.90635
▁ଭଳି	-8.90769
▁ସର୍ଭର	-8.90793
▁୫୦	-8.90947
▁ବଢିବ	-8.90951
▁ଯାଞ୍ଚ	-8.91266
▁ଅବ	-8.9128
▁ଭି	-8.91639
▁ଯେତେବେଳେ	-8.91709
▁ବୁଢା	-8.91714
ସବୁ	-8.92001
▁ବିଜେଡି	-8.92163
▁ସମ୍ଭବ	-8.92164
ma	-8.9219
▁ପେ	-8.92416
▁ଡାକ	-8.92473
▁ଘରକୁ	-8.92574
ଅଛି	-8.92913
ୁଆ	-8.92963
▁ସଦାପ୍ରଭୁ	-8.93034
GenericName	-8.93087
▁ଟୁକୁଡେ	-8.93087
ିଥିବୁ	-8.93094
▁ନାୟକ	-8.93142
ହିଁ	-8.93361
ଜୁ	-8.93469
ିନ	-8.93489
▁ଆମ୍ଭେ	-8.93567
▁ଆପଣାନ୍ତୁ	-8.93676
▁ପାରିବେ	-8.93711
▁ଆଣି	-8.93733
ଖା	-8.9385
▁ଗୃହ	-8.93995
▁ଲଗ	-8.93999
▁here	-8.94046
▁ଫା	-8.9426
▁on	-8.94363
▁ସ୍ୱ	-8.94499
▁ସୀମାନ୍ତ	-8.94519
▁ରହିବା	-8.94629
ଢ	-8.94853
la	-8.94863
▁ଦୟାକରି	-8.94964
▁ଘଟିଯାଏ	-8.94974
▁be	-8.95323
ାନ୍ତ	-8.95344
ିଲେ	-8.95372
▁କାହିଁ	-8.95399
▁ରାଜନୈତିକ	-8.95436
▁ତିନି	-8.95473
ol	-8.95523
▁ବିଶ୍ୱ	-8.95605
▁ସ୍କୁଲ	-8.95682
ଥା	-8.95728
▁ଡେ	-8.95818
▁ସଂଯୋଗ	-8.95923
▁ବାଲା	-8.95938
▁ହଠାତ୍	-8.96179
▁ବର୍ଷା	-8.96204
ଧି	-8.96431
▁ହେଲାଣି	-8.96487
ରାଜ	-8.96528
▁ଯାଇଛି	-8.9654
କରନ୍ତୁ	-8.96609
▁ନକଲ	-8.96727
13	-8.96843
ତମ	-8.96884
▁ଦିନର	-8.96979
▁ସଂଖ୍ୟା	-8.96979
▁କରିଥାନ୍ତି	-8.97009
▁ଅପ	-8.97148
▁ଅଧିକାରୀ	-8.97279
▁କାହାଣୀ	-8.97385
age	-8.97668
▁http	-8.97857
▁ରଖି	-8.97906
op	-8.9798
▁ବ୍ୟା	-8.98061
ଡେ	-8.98193
19	-8.98278
▁redirect	-8.98328
ତ୍ୱ	-8.98711
▁ପ୍ରକାଶ	-8.98752
▁ଦୃଶ୍ୟସଂଖ୍ୟା	-8.98816
▁ଦିଅଁ	-8.98841
▁ପୁ	-8.98927
▁ହୋଇପାରେ	-8.99004
▁Duration	-8.99309
ୱାଘା	-8.99309
▁ଏଠାକୁ	-8.99312
▁ମହିଳା	-8.99319
ନୀୟ	-8.99367
▁!”	-8.99385
▁ମେଲ	-8.99403
▁ଦିଅନ୍ତୁ	-8.99518
▁ଏସବୁ	-8.99563
▁ପଡି	-9.00022
▁ଖାଇବା	-9.00202
▁de	-9.00216
▁୭	-9.0023
▁ଆସନ୍ତା	-9.0031
▁କହିଥିଲେ	-9.00419
▁ଚୟନ	-9.0055
▁ସେମାନଙ୍କୁ	-9.00629
▁ପୋ	-9.00705
▁ତାରିଖ	-9.00716
ir	-9.00743
▁ରୋ	-9.00832
ହେଲେ	-9.00835
ବୋ	-9.01013
ଦେବ	-9.01015
▁ସକାଳ	-9.01172
▁କ୍ୟା	-9.01233
▁ଶ୍ରେଣୀ	-9.01239
▁ସୁରକ୍ଷା	-9.01304
▁OF	-9.01336
▁ବୋ	-9.01537
ଚ୍ଛ	-9.01612
▁ଅସ	-9.01613
ର୍କ	-9.01744
▁ଦେବେ	-9.01746
12	-9.01803
▁ଅଭିନେତ୍ରୀ	-9.01809
▁ପୁତ୍ର	-9.01835
▁ଗା	-9.01866
▁ହସି	-9.01887
▁ମିନିଟ୍	-9.01892
▁ସମାନ	-9.01985
15	-9.02254
▁ଅସ୍ଥାୟୀ	-9.02317
▁ୱିଣ୍ଡୋ	-9.02317
First	-9.02317
▁ଭା	-9.02347
▁ଥରେ	-9.02384
17	-9.02587
ଙ୍ଗା	-9.02662
▁ବ୍ୟାଙ୍କ	-9.02689
ଟୋ	-9.02848
▁//	-9.0289
▁୧୦୦	-9.03038
ବନ	-9.0328
଼	-9.03289
▁ଛାଡି	-9.0351
▁ପାରିବ	-9.03555
▁୩୧	-9.03614
▁ମେଣ୍ଟ	-9.03804
▁from	-9.03855
▁ମହାପାତ୍ର	-9.03855
▁ଡିସ୍କ	-9.0387
▁ଲକ୍ଷ୍ୟ	-9.0394
▁ଆଦି	-9.04026
ୟୁ	-9.04126
▁ଉପାୟ	-9.0436
▁ପୁରୁଣା	-9.04374
▁Last	-9.04374
▁କେଉଁଠି	-9.04407
▁20	-9.04562
of	-9.04633
ion	-9.04729
▁ସାବଧାନ	-9.04894
▁ଚାକିରି	-9.04896
ଇଁ	-9.05175
▁h	-9.05191
ମୀ	-9.05341
ମାନଙ୍କର	-9.05367
▁Post	-9.0542
▁ସାଧାରଣତଃ	-9.05432
▁ଦିନରେ	-9.05492
:%	-9.05622
▁ଦିନେ	-9.0569
▁ଆଧାର	-9.05816
ଯାଇଛି	-9.05821
▁ପୁରୁଷ	-9.05945
▁ସମାନେେ	-9.05945
ଯୋଗ୍ୟ	-9.0601
ac	-9.06136
▁ଡାକ୍ତର	-9.06251
▁ଶୁଣ	-9.06294
▁ପଥ	-9.06353
▁with	-9.0647
▁ନିର୍ଦ୍ଦେଶ	-9.06473
▁8.6	-9.06474
▁୫ଟି	-9.06509
▁କାଳ	-9.06592
▁ଦାସ	-9.06696
ବର୍ଷ	-9.06903
ଦାନ	-9.07063
▁ବଢିଲେ	-9.07069
▁ଘଣ୍ଟା	-9.07226
▁ଦେଖ	-9.07327
▁ମତେ	-9.07377
▁ତାପରେ	-9.07411
▁ବାବୁ	-9.07495
▁ତାହେଲେ	-9.07681
▁ନବୀନ	-9.07783
▁ଝ	-9.0782
▁ଦିଲ୍ଲୀ	-9.08078
am	-9.08081
▁୨୦୧୯	-9.08099
▁ମାନଙ୍କୁ	-9.08137
ଟିଏ	-9.08165
ଦ୍ୱାରା	-9.08207
▁ଗାଁ	-9.08317
▁ପ୍ରତିଛବି	-9.084
▁or	-9.08404
▁ଓଡିଶା	-9.08444
▁ବିରୋଧରେ	-9.08449
pression	-9.08618
▁ସମାଧାନ	-9.08618
wwww	-9.08631
ww	-9.08638
୦୦	-9.087
▁କହୁଛି	-9.08785
ଲୀ	-9.09348
▁Re	-9.09442
▁ସେମାନଙ୍କର	-9.0949
▁ପିଲାଙ୍କ	-9.09585
▁Odisha	-9.09708
ବୀ	-9.09737
▁X	-9.09776
▁ମହ	-9.09868
▁ଜମି	-9.09933
▁ଫି	-9.0995
▁ଯାତ୍ରା	-9.09979
▁ସେମାନଙ୍କ	-9.09991
ଗୁଡିକୁ	-9.10098
କ୍ତ	-9.10129
ସ୍ୟ	-9.10134
▁ଦିବସ	-9.10258
ତଃ	-9.10333
▁୧୪	-9.10452
▁କହିବା	-9.10481
ପାଇଁ	-9.10555
▁ବିଶ୍ୱାସ	-9.10941
ଟୁ	-9.11025
▁ଜୟ	-9.11057
▁ମଧ୍ଯ	-9.11063
▁ଲୋକଟି	-9.1131
▁TRANSLATORS	-9.11366
▁ସାହାଯ୍ୟ	-9.11366
▁ଆସନ୍ତୁ	-9.11409
▁ହେବାକୁ	-9.11441
ଥିବ	-9.11547
▁ବାବା	-9.11637
▁ଆକାର	-9.11719
ଲମ୍ବ	-9.11755
ାଡି	-9.11756
▁ସ୍ୱର	-9.11819
▁21	-9.11859
▁"%	-9.1187
▁ଆହୁରି	-9.11924
▁ଉପସ୍ଥିତ	-9.11932
▁ଗଲା	-9.12261
me	-9.1234
▁ଦୃଶ୍ୟ	-9.12463
ବାଦ	-9.12464
▁ସନ୍ଧାନ	-9.12486
▁ମଣିଷ	-9.12487
▁ଖାଇବେ	-9.12548
▁ବିଭିନ୍ନ	-9.1258
ଲାଇ	-9.12692
▁ପଢି	-9.12824
▁ସୋ	-9.12846
nd	-9.12876
▁ସ୍ୱାସ୍ଥ୍ୟ	-9.1305
▁{@}	-9.13051
▁କ୍ଷତି	-9.13061
ଏସ	-9.13086
▁ଏଲ୍	-9.13237
ଗୋ	-9.13337
▁କମ୍	-9.13342
▁ଭୟ	-9.13419
ୁଛନ୍ତି	-9.13447
▁କର୍ମ	-9.13498
▁ଉତ୍ସ	-9.13545
▁ଗୁରୁ	-9.13573
▁ପୁରସ୍କାର	-9.13619
▁ସଂକେତ	-9.13619
▁ୟୁ	-9.13639
▁ଗୋଟେ	-9.1365
▁କହୁଛନ୍ତି	-9.13678
▁କରା	-9.13721
ମ୍ବ	-9.13797
▁ପରା	-9.13811
▁ମସିହାରେ	-9.13828
▁ନିଜେ	-9.13856
ମୟ	-9.14102
▁ଭାବି	-9.14164
▁ପୁସ୍ତକ	-9.14191
▁ସହାୟତା	-9.14191
ay	-9.14294
ଠାରେ	-9.14543
ର୍ତ୍ତ	-9.14676
+	-9.14765
▁♪♪♪♪♪♪♪♪♪♪♪♪♪♪	-9.14766
▁ବିକଳ୍ପ	-9.14766
▁ସମ୍ମାନ	-9.1492
▁ଲୋକଙ୍କ	-9.15065
▁ଟଙ୍କାରେ	-9.15103
▁ଜେ	-9.1516
▁ଚାହିଁ	-9.15276
▁♪♪♪♪♪♪♪♪♪♪♪♪♪	-9.15343
▁♪♪♪♪♪	-9.15343
▁♪♪♪♪♪♪...	-9.15343
▁♪♪♪♪♪♪♪	-9.15343
ଷ୍ଠ	-9.15378
▁ମାଧ୍ୟମ	-9.15414
▁ଜାଣିଛନ୍ତି	-9.15475
um	-9.1554
ପ୍ତ	-9.15703
▁ଫଳ	-9.15804
▁ଚେ	-9.15867
▁ଅଭ୍ୟାସ	-9.15925
▁ନିଶ୍ଚିତ	-9.15925
▁କୋହଳ	-9.15925
▁8.8	-9.15926
▁ଜାଣନ୍ତି	-9.15942
▁ଠିଆ	-9.15951
up	-9.16065
▁ଆଦେଶ	-9.16103
▁ଲାଗିଲା	-9.16252
ନାହାନ୍ତି	-9.16342
un	-9.16431
▁You	-9.16502
▁ସୁନ୍ଦର	-9.16516
▁ମଞ୍ଚ	-9.16528
ଦାର	-9.16531
ୱେ	-9.16535
▁ବସ	-9.16605
ap	-9.16717
▁ସ୍ବ	-9.16729
ତୀ	-9.16815
▁ଭୁଲି	-9.16833
▁କେଜାଣି	-9.17098
▁ନକହି	-9.17099
▁ସାହୁ	-9.17128
▁ପାଠ୍ୟ	-9.17162
▁ବୋଉ	-9.17164
▁com	-9.17219
▁ଖରାପ	-9.17282
ent	-9.17475
▁ସ୍ଵ	-9.17483
▁ସ୍ଥିତି	-9.17692
▁ଲାଗେ	-9.17693
▁ଭାଗ	-9.17801
▁ସକାଳୁ	-9.17967
▁ବଳ	-9.18011
▁ଭାବ	-9.18229
▁Evolution	-9.18285
▁ଦେବାକୁ	-9.18329
ୱ	-9.18387
ଜନ	-9.18392
ଣ୍ଡି	-9.18634
▁ଅଛ	-9.18704
▁ସମ୍ପୂର୍ଣ୍ଣ	-9.18732
▁O	-9.18858
ଦମ୍ପତିଙ୍କ	-9.18884
▁button	-9.18884
▁ରହସ୍ୟ	-9.1889
▁18	-9.19081
ର୍ଥ	-9.19407
ଲଗା	-9.19426
ସୀ	-9.1947
▁ଢେଙ୍କାନାଳ	-9.19486
▁ନୂଆଦିଲ୍ଲୀ	-9.19486
▁ମହାଦେବ	-9.19517
▁ମିଳି	-9.1952
to	-9.19522
▁14	-9.19618
▁ପ୍ରଭୁ	-9.19638
▁ଫିଲ୍ମ	-9.19695
▁ଲେଖି	-9.19716
▁କହିବେ	-9.19928
ମହାରାଜ	-9.20002
▁Ca	-9.20058
▁ଦ୍ବାରା	-9.20092
▁ନିର୍ବାଚିତ	-9.20092
▁କହିଦେଲି	-9.20092
ଫି	-9.20218
ଥାନ୍ତି	-9.20439
▁ବହୁ	-9.20567
▁ପାକିସ୍ତାନ	-9.20702
▁ଜାତୀୟ	-9.20703
▁by	-9.20794
▁କରୁଥିବା	-9.20843
▁ସେଇ	-9.20946
▁ପଚାରି	-9.21062
ପାରିବ	-9.21105
▁ଚାଳକ	-9.21167
▁45	-9.21264
▁କମ୍ପାନୀ	-9.21315
▁NAME	-9.21315
▁ଚାଲିଗଲେ	-9.21401
▁ଲିଙ୍କ	-9.21458
ମନ	-9.21517
▁ଟିକେ	-9.21553
▁କହିଲୁ	-9.21558
▁he	-9.21887
all	-9.21909
▁ଦେଖିବା	-9.21912
▁ପ୍ରକଳ୍ପ	-9.21933
▁କାଟିଲେ	-9.21979
ାଇବ	-9.22098
ରୂପ	-9.22149
ଗୁଡ଼ିକର	-9.22169
▁post	-9.22192
ut	-9.22311
▁ଦେଲା	-9.2242
▁ବ୍ୟବସ୍ଥା	-9.22557
▁ଅଂଶ	-9.22592
▁ସୂର୍ଯ୍ୟ	-9.22624
ର୍ଡ	-9.22765
▁ନବୀନଙ୍କ	-9.22898
▁ପାର	-9.22987
▁ପହଞ୍ଚି	-9.22997
ସ୍ଥ	-9.23031
▁ଦୁ	-9.23142
▁ପ୍ରଥମେ	-9.23158
▁ଚେଷ୍ଟା	-9.2319
▁ଶୈଳୀ	-9.23362
ୟନ	-9.23377
oo	-9.23671
▁ପାଇବା	-9.23686
▁ଦାୟିତ୍ବ	-9.23808
▁ଅଜବ	-9.23811
▁ଖୁସି	-9.23845
▁ବଲିଉଡ୍	-9.23849
▁ରାସ୍ତା	-9.23984
▁ତଳେ	-9.24103
ସଂ	-9.24127
▁ଘଟି	-9.24128
ଷ୍ଟା	-9.24156
▁not	-9.24333
▁ଉପଲବ୍ଧ	-9.2444
▁ଦୁର୍ଘଟଣା	-9.2444
▁ଅଞ୍ଚଳ	-9.24441
ଏମ	-9.24566
▁ଏଥର	-9.24603
▁ସଂପର୍କ	-9.2462
▁ଡାକି	-9.24733
ଶୁ	-9.24781
ନ୍ଧ	-9.24829
▁inmenu	-9.25077
▁more	-9.25094
▁ରକ୍ଷା	-9.2511
ଦୁ	-9.25168
କାଳ	-9.25261
▁ନିଜକୁ	-9.25329
ୟମ	-9.25408
35	-9.25415
▁୧୧	-9.25518
ta	-9.25621
▁କରିପାରିବ	-9.25637
▁short	-9.25718
▁ଶ୍ରଦ୍ଧା	-9.25718
▁ମୋବାଇଲ	-9.25723
▁ଏହାସହ	-9.25821
ଝ	-9.25878
▁ତଥା	-9.25901
▁ପୃଥିବୀ	-9.25927
ଠି	-9.25937
▁ଦିଅ	-9.26075
▁କପୁର	-9.26083
ଭାଗ	-9.2613
ct	-9.26133
▁ଶୀର୍ଷକ	-9.26155
\	-9.26295
▁ସୀମା	-9.26328
▁ଏଥିପାଇଁ	-9.26364
▁ସକ୍ରିୟ	-9.26364
▁ପଦ	-9.26366
▁ପରବର୍ତ୍ତୀ	-9.2637
▁ଅନ୍ୟତମ	-9.26408
▁di	-9.26444
▁ଆମ୍ଭ	-9.26449
ଜୟ	-9.26493
ଣ୍ଡା	-9.26669
▁ଲାଗୁ	-9.26917
▁ଶିକ୍ଷା	-9.26942
Query	-9.27013
▁ସୌମ୍ୟ	-9.27013
sh	-9.27054
ex	-9.27091
▁ଆତ୍ମା	-9.27214
▁ମାଆ	-9.27348
▁କରିପାରେ	-9.27457
▁ରହିବେ	-9.27462
▁କଦଳୀ	-9.27667
▁କରୁଥିଲେ	-9.27773
ho	-9.27861
▁31	-9.27919
▁ଖାତା	-9.27946
▁ପ୍ରାୟ	-9.27978
▁ଗୁଣ	-9.28062
ମୂ	-9.28077
▁ପାଇବେ	-9.28097
ପ୍ରତି	-9.28115
ଆରେ	-9.28251
▁ପାରି	-9.28252
▁ନିର୍	-9.28305
▁ଇଂରାଜୀ	-9.28325
▁ସାମାଜିକ	-9.28325
▁ଚୋପା	-9.28325
▁କବି	-9.28337
ବେଳେ	-9.28394
com	-9.28427
▁ଦେଇଥିଲେ	-9.28455
▁ଵ	-9.28592
▁Go	-9.28629
ଢ଼	-9.28799
ର୍ସ	-9.28918
ନାହଁ	-9.28954
▁ମହାରାଷ୍ଟ୍ରର	-9.28987
▁ଦେବି	-9.28992
ଲୋକ	-9.29051
▁ମିଳିଲା	-9.29134
▁ଗଣ	-9.29298
▁ଦର	-9.29418
▁ସେକଥା	-9.29455
େଶ	-9.29595
▁before	-9.29653
▁ନୀତି	-9.29662
▁Odia	-9.29663
୍ରା	-9.29712
▁ମୁକ୍ତି	-9.29726
୩୦	-9.29758
000	-9.29954
ିଛି	-9.30264
▁କହୁ	-9.30313
▁ବଚ୍ଛିତ	-9.30325
▁ପାସ	-9.30408
▁ମୁକ୍ତ	-9.30441
▁କ୍ଷେତ୍ରରେ	-9.30699
୦୦୦	-9.30747
ର୍ଯ୍ୟ	-9.30921
▁ମାେ	-9.30967
▁ଉଦ୍ଧବ	-9.31
▁ବାଲେଶ୍ୱର	-9.31
▁ଲଗାଇ	-9.31015
▁ଓକିଲ	-9.31071
୧୯	-9.31177
▁ଆଶା	-9.31314
ର୍ଣ୍ଣ	-9.31341
▁ଖାଇ	-9.3135
▁ଚାଲିଛି	-9.31351
▁ପାଦ	-9.31402
▁ପ୍ରା	-9.31437
▁ପିତା	-9.31484
▁ପ୍ରଭାବ	-9.31657
▁ଖୋଲନ୍ତୁ	-9.31681
▁ଜିନିଷ	-9.31681
▁ମାେତେ	-9.31707
▁ଆସିବ	-9.31729
▁କାର୍ଡ	-9.31844
▁ସଦସ୍ୟଙ୍କୁ	-9.31898
▁ମତ	-9.32015
ଣୁ	-9.32044
୧୦	-9.32137
ଆଉ	-9.32188
ିବ	-9.32194
ମ୍ପ	-9.32254
ହୁ	-9.32275
▁ପୁରା	-9.32306
▁ଅପେକ୍ଷା	-9.32365
▁ବାଚସ୍ପତି	-9.32365
▁ବ୍ୟବସାୟ	-9.32365
▁ରାଜନୀତି	-9.32365
▁ଅବସାନ	-9.32366
▁ସ୍ମାରକପତ୍ର	-9.32367
▁ପାଦଦେଲେ	-9.32373
ନିଆ	-9.32472
▁ପାତ୍ର	-9.32525
▁ଗ୍ରାମ	-9.32576
▁ତାହାଙ୍କ	-9.3263
ସ୍କ	-9.32687
▁ଯିଏ	-9.32819
ଣ୍ଟି	-9.32905
ଋ	-9.33036
▁ବ୍ୟାୟାମ	-9.3306
▁ପ୍ରଦର୍ଶନ	-9.33104
▁ତୋତେ	-9.33107
▁୧୨	-9.33123
di	-9.33187
ଠାକ୍	-9.33192
ଇଲେ	-9.33229
▁ଶାନ୍ତି	-9.3323
▁ଆୟ	-9.33271
▁ପାପ	-9.33295
ଖି	-9.33328
▁ସିପି	-9.33349
ver	-9.33349
ଷି	-9.33382
▁ପ୍ରକୃତ	-9.33465
▁ମୁଣ୍ଡ	-9.33664
ଶୀ	-9.33679
▁ଜଣଙ୍କ	-9.33704
▁Microsoft	-9.33749
▁second	-9.33749
▁କୁଆଡେ	-9.33758
ରିଆ	-9.33789
▁ଟଙ୍କାର	-9.33832
୍ଯା	-9.33936
ଏଲ	-9.34048
▁ଇଂ	-9.34333
▁status	-9.34449
▁ପୁନଃ	-9.34449
▁କରାଇଛନ୍ତି	-9.34449
▁ସେଥିପାଇଁ	-9.34449
▁ରଖନ୍ତୁ	-9.34462
ଚୁ	-9.34485
▁ସାର	-9.34543
▁ଯାଇଛନ୍ତି	-9.34567
▁ଚାଷୀ	-9.34646
▁ସିଏ	-9.34653
and	-9.34665
▁କ୍ଷେତ୍ର	-9.3478
▁ବେଳ	-9.34859
▁ତୋର	-9.34881
ନ୍ସ	-9.3496
▁ଖୋ	-9.34994
▁ତନ୍ତ୍ର	-9.35012
ଶିବସେନାର	-9.35153
▁ଚିନାବାଦାମ	-9.35153
▁ଡ୍ରାମାର	-9.35153
▁୭୫	-9.35222
▁ଦେହ	-9.35275
▁22	-9.3532
▁ଭୁଲ	-9.35415
▁ଜୋ	-9.35442
▁ପ୍ଲ	-9.35586
ର୍ଜ	-9.35636
▁ପରମେଶ୍ବର	-9.35642
ଥିବେ	-9.35658
il	-9.35699
▁ଉଚ୍ଚ	-9.35702
pa	-9.35732
▁କରାଯାଇ	-9.3574
co	-9.3582
▁କାଳିଦାସ	-9.35862
▁କୋଲାମ୍ବକ	-9.35862
▁ଅନୁମତି	-9.35863
▁ବିବରଣୀ	-9.35863
▁ମୁଖ୍ୟମନ୍ତ୍ରୀ	-9.35868
▁ବେପାର	-9.35876
▁ଆଇନ	-9.35975
▁ଲୋକଙ୍କୁ	-9.36077
▁କଳା	-9.36148
▁ଆଗ	-9.36149
▁Mo	-9.36321
▁ଅଘ	-9.36357
▁କରୁଛ	-9.36414
▁ପର୍ବ	-9.36538
▁ବିଜ୍ଞପ୍ତି	-9.36577
▁ମୁତାବକ	-9.36577
ନ୍ନ	-9.36775
ure	-9.36806
▁ବ୍ୟାଙ୍କ୍	-9.36902
ଯାଇ	-9.37068
ment	-9.37274
▁ପରିଚୟ	-9.37296
▁ତଦନ୍ତ	-9.37297
▁ରାଶି	-9.37303
▁Home	-9.37311
▁ମନ୍ତ୍ରୀ	-9.37328
▁ବ୍ୟକ୍ତିଗତ	-9.37334
.18	-9.37357
▁ଫେର	-9.37453
▁ବିଚାର	-9.37522
▁13	-9.37557
ଷ୍ଟ୍ର	-9.37663
▁ଟ୍ର	-9.37677
▁୩୪	-9.37835
ମନା	-9.37852
▁ସିଂହ	-9.37884
z	-9.37914
▁ବହି	-9.37922
▁କରାଯିବ	-9.38007
▁ଖାଦ୍ୟପେୟ	-9.38021
▁ପ୍ରତିଶତ	-9.38021
▁ବ୍ୟ	-9.38021
▁ଆଘାତ	-9.38068
▁ୱେବ	-9.38081
▁ତେ	-9.38115
ପଟ	-9.38226
୫୦	-9.38281
▁ନିକଟକୁ	-9.38316
ତନ	-9.38365
▁ବହୁତ୍	-9.38395
ଧାନ	-9.38412
ହିତ	-9.38585
▁your	-9.38587
▁ଆସିବେ	-9.38591
▁ମାରି	-9.38627
▁ଭଉଣୀମାନେ	-9.38768
▁ଭଦ୍ର	-9.38831
▁ଜାତି	-9.38898
କ୍ରମ	-9.38994
▁୨୦୦	-9.39054
▁ଏକଥା	-9.39164
ାର୍	-9.393
ଯୁକ୍ତ	-9.3941
▁ମୃତ	-9.39417
▁ମ୍ୟାନେଜର	-9.39486
କ୍ସ୍ଟ	-9.39489
▁ଖର୍ଚ୍ଚ	-9.39496
▁ଆଖି	-9.39617
ିୟ	-9.3964
ବାହ	-9.39644
▁ପଚାରିଲା	-9.39654
▁କିଭଳି	-9.39699
େଟ	-9.39736
▁ଦିଗ	-9.39958
ବଳ	-9.40219
▁କଙ୍କାଳ	-9.40227
▁ହାଇକୋର୍ଟ	-9.40227
▁ସମ୍ଭାବନା	-9.40227
▁ସଚିବ	-9.40227
▁ରିପୋର୍ଟ	-9.40229
▁ଭୁବନେଶ୍ୱର	-9.4023
▁200	-9.40236
▁ରକ୍ତ	-9.40288
▁ପ୍ରାପ୍ତ	-9.40298
▁ଜଗତ	-9.40299
▁ଆଜ୍ଞା	-9.40341
ଭୂତ	-9.40345
▁ଶୁ	-9.404
ru	-9.40442
▁):	-9.40589
one	-9.40699
ମ୍ଭ	-9.4072
▁ଗ୍ରାହକ	-9.40973
▁ଦ୍ୱିତୀୟ	-9.40973
▁ନିଷ୍କର୍ଷ	-9.40973
▁ସାମଗ୍ରୀ	-9.40973
▁ପ୍ରଧାନମନ୍ତ୍ରୀ	-9.40975
▁Me	-9.40999
▁ଚୀନ୍	-9.41017
▁ଇଚ୍ଛା	-9.41121
▁ସମସ୍ତଙ୍କ	-9.41125
▁ପୋଷ୍ଟ	-9.41128
ନଈ	-9.41269
▁ସନ୍ଦେଶକୁ	-9.4131
ଭାବ	-9.41311
▁ତୁଳ	-9.41419
▁ସାମିଲ	-9.41424
▁ବୈ	-9.41668
format	-9.41725
▁ଦଲିଲ	-9.41727
▁will	-9.4173
–	-9.41786
ଲିଖିତ	-9.41797
▁ମୃତକ	-9.4193
▁ସ୍ଥାନରେ	-9.41942
▁ଜୀବନରେ	-9.41959
ity	-9.42042
▁ପୁଅକୁ	-9.42163
▁ନିକଟରେ	-9.42164
de	-9.42298
▁କଷ୍ଟ	-9.4244
▁ଉଇଣ୍ଡୋ	-9.42482
▁option	-9.42482
▁ପ୍ରମାଣପତ୍ର	-9.42488
ଜିତ	-9.4249
▁ଅନୁବାଦ	-9.42502
ଚୀନ୍	-9.42564
▁ଓଡିଆ	-9.42701
▁ଚାଲିବା	-9.42752
▁ଟିକେଟ	-9.42989
NamePossessive	-9.43246
▁ବେଜିଂ	-9.43246
▁ago	-9.43246
▁ଏତିକି	-9.43247
ିବା	-9.43422
ାଏ	-9.43531
ଜୀ	-9.43574
ଜଣ	-9.4358
ପାରି	-9.43616
▁ଆଗରେ	-9.4366
▁ଫୋନ	-9.43714
ଗ୍ରହ	-9.43947
ଦେଇ	-9.43948
▁ସଂସ୍କରଣ	-9.44015
ସ୍ୱ	-9.44029
▁ଯୁକ୍ତ	-9.44156
▁ସନ୍ଦେଶଗୁଡ଼ିକୁ	-9.44185
▁ଏୟାର	-9.4425
▁Article	-9.44257
▁ଅଭି	-9.44296
ୟର	-9.44296
ଶେ	-9.44337
ଂଚ	-9.44356
▁ଛାଡ଼ି	-9.44398
▁ପ୍ରଶ୍ନର	-9.44459
▁ପାଉ	-9.44465
▁ରଖିବା	-9.44564
ିନୀ	-9.44638
▁ଚାଲିଲେ	-9.44641
ମିଟର	-9.44666
▁ତୁମର	-9.44668
dies	-9.4468
▁ଯାହାର	-9.44725
▁ଭୂ	-9.44759
▁ଆପଣା	-9.44787
▁ବିଦ୍ୱାନ	-9.4479
▁ବୁଦ୍ଧଙ୍କ	-9.4479
▁ନଜର	-9.44829
ଯାଉଛି	-9.45091
ସାରି	-9.45198
▁ଜମା	-9.45259
ନ୍ୟ	-9.45338
▁ହାତରେ	-9.45343
ସନ୍	-9.45408
ାନ୍ତୁ	-9.45417
▁ଯାଉଛି	-9.45437
▁ବୁଝି	-9.45469
New	-9.45555
▁ନିମନ୍ତେ	-9.45571
▁ସନ୍ତାନ	-9.45572
▁ସମାପ୍ତ	-9.45572
▁ସାକ୍ଷାତକାର	-9.45585
▁କରାଯାଇଥିଲା	-9.45619
ଶ୍ୱ	-9.45703
▁ମାନସିକତା	-9.45716
▁ଚାଲ	-9.45759
▁ନହେଲେ	-9.45806
▁କରିପାରିଲା	-9.45813
▁ନଦୀ	-9.45869
୧୭୫	-9.45871
▁ଆଗରୁ	-9.4593
ଫୁ	-9.46052
ଭେ	-9.46124
ପେ	-9.46327
▁ଚର୍ଚ୍ଚା	-9.46332
▁ଆଦିବାସୀମାନଙ୍କ	-9.46359
▁ଶର୍ମା	-9.46359
▁ବ୍ର	-9.46371
▁ଛୁଟି	-9.46381
em	-9.46405
▁ସ୍ଥାନୀୟ	-9.46464
ବ୍ୟ	-9.46541
ଜ୍ଞା	-9.46594
କର୍ତ୍ତା	-9.46648
▁ଉଚିତ୍	-9.46735
▁ପାଇବ	-9.46762
▁ମସିହା	-9.46865
ାଳୟ	-9.46893
▁ପରମେଶ୍ବରଙ୍କ	-9.46895
ଳନ	-9.46924
▁V	-9.46975
▁ତାହାଙ୍କୁ	-9.47073
▁24	-9.47077
▁ନୃତ୍ୟ	-9.47153
▁Mart	-9.47232
▁ଜିଲାରେ	-9.47236
▁ପକ୍ଷ	-9.47275
▁25	-9.47323
▁ଯିବ	-9.47401
ome	-9.47401
ବାସୀ	-9.47503
ସ୍ଥା	-9.4754
▁ବଢ଼ି	-9.4756
▁ପଡିବ	-9.47581
ଭାଇ	-9.47675
▁କ୍ର	-9.47771
▁କାର୍	-9.47889
▁Georg	-9.47952
▁thousand	-9.47952
▁ରବିବାର	-9.47952
▁ମହାପ୍ରଭୁଙ୍କ	-9.47953
▁ଟିପ୍ସ	-9.47954
▁ଦିଆ	-9.47989
na	-9.47992
▁ଧର୍ମ	-9.48161
▁ତୁମ୍ଭର	-9.48244
ସ୍ଥାନ	-9.48247
▁search	-9.4853
▁ଶରୀରରେ	-9.48541
▁ଯିବେ	-9.48558
ଯିବା	-9.4867
▁ରଞ୍ଜନ	-9.48759
▁ଲଢୁଥି	-9.48759
▁ବାଇକ୍	-9.48762
▁ସମାଜ	-9.48763
ଗି	-9.48897
ia	-9.48933
▁ମାନଙ୍କ	-9.4894
▁ସଫା	-9.49019
ହୋଇ	-9.49233
▁ମୋଦିଙ୍କୁ	-9.49369
▁If	-9.49416
ଦର୍ଶନ	-9.49514
▁ସାରା	-9.49534
▁ମଙ୍ଗଳ	-9.49555
▁କାର୍ଯ୍ଯ	-9.49569
▁ନେଟୱର୍କ	-9.49572
▁ବଦମାସ୍	-9.49572
▁ଚାକିରୀ	-9.49572
▁ହସ୍ତାକ୍ଷର	-9.49573
ୟାନ	-9.49576
ard	-9.4959
▁ଜାଗା	-9.49707
କରଣ	-9.4999
ଵା	-9.50045
▁ଘରୁ	-9.50079
▁ମାଲିକ	-9.50082
ର୍ଟ	-9.50329
▁ଔଷଧ	-9.50391
▁ଇମେଲ	-9.504
▁ଭେଟି	-9.50404
▁ସତ୍ୟ	-9.50478
dbu	-9.50495
▁କଟକ	-9.50496
▁ପରଦା	-9.50497
▁କୃଷ୍ଣ	-9.50642
▁ଦଣ୍ଡ	-9.50727
▁Use	-9.50774
ରାମ	-9.50941
▁To	-9.51039
▁ସହଜ	-9.51051
▁ଅକ୍ଟୋବର	-9.51218
▁ପ୍ଲଗଇନ	-9.51218
▁ତୃତୀୟ	-9.51218
▁ପସନ୍ଦ	-9.51219
▁ଅଜଣା	-9.51219
▁ହସିଦେଲା	-9.51227
▁ନେବା	-9.51228
▁ଉତ୍ତମ	-9.5123
port	-9.51236
▁କାଗଜ	-9.51336
▁ସାଙ୍ଗେ	-9.51374
ୃତ	-9.51383
▁ସର୍ବାଧିକ	-9.51497
▁ସଂସ୍ଥା	-9.515
▁ପଠା	-9.51562
ଦେଲେ	-9.51707
ାଗ	-9.51827
▁ବିଜେପିର	-9.51995
୍ଵ	-9.52026
▁ଗ୍ୟାଙ୍ଗ	-9.52051
▁ହୋଇଯିବ	-9.52059
▁ସ୍ପଷ୍ଟ	-9.52077
▁ବାହା	-9.52114
▁କୁହନ୍ତି	-9.52127
▁ଭୋଟ	-9.52251
#	-9.52472
▁ଦେଖିଲି	-9.52579
▁ବନ୍ଧ	-9.52589
▁ବନ୍ଧୁ	-9.52818
▁ମନ୍ଦିର	-9.52892
▁this	-9.52893
▁ତୁମ୍ଭମାନଙ୍କୁ	-9.52961
ପାରନ୍ତି	-9.53131
▁ଲୋକଟିକୁ	-9.53211
▁ସମସ୍ତଙ୍କୁ	-9.53351
▁ପାଞ୍ଚ	-9.53386
ଆପଣ	-9.53412
▁ଚଳ	-9.53462
▁୮୦	-9.53496
▁ଯାଉ	-9.53549
▁Co	-9.53644
▁ପରାମର୍ଶ	-9.53739
▁ଚାହେଁ	-9.53739
▁୨୦୧୪	-9.53739
▁ଆକାଶ	-9.53741
▁କିଣନ୍ତୁ	-9.53746
ନଥିବା	-9.53862
▁ସରଳ	-9.53872
ଷା	-9.53898
ଡୁ	-9.53944
ନ୍ଦା	-9.53979
▁ତେଲ	-9.54107
▁ହଠାତ	-9.54114
con	-9.54172
ବାବୁ	-9.54254
ିସ୍	-9.54258
▁୨୧	-9.54259
▁୧୭	-9.54349
ୟୋ	-9.54525
▁ତ୍ୱଂ	-9.54599
▁ଅକ୍ଷରରୂପ	-9.54603
▁National	-9.5461
ଥର	-9.54612
▁ଏକାଠି	-9.54617
▁ଲୋକମାନଙ୍କୁ	-9.54805
▁28	-9.54825
ାମୃତ	-9.54845
ର୍ମ	-9.55101
▁ଫେ	-9.55305
▁ପାଟି	-9.55433
▁ଭର୍ତ୍ତି	-9.55456
▁ସତ୍ଯ	-9.55518
ପାରିଲା	-9.55724
ତ୍ୟ	-9.55845
ତକ	-9.55864
CGN	-9.5588
ଢା	-9.5605
▁ଛାଡ	-9.56083
▁ଏସିଆ	-9.56264
▁ନିଯୁକ୍ତି	-9.56326
▁ଉପରକୁ	-9.5636
▁ବଢିଆ	-9.56391
▁ଯାହାକୁ	-9.56441
▁ପୂରା	-9.56461
▁ଥାନା	-9.56523
▁ସରକାରୀ	-9.56549
ହୋ	-9.56622
dia	-9.56698
▁ସୂ	-9.5673
େତ	-9.56861
75	-9.5699
▁ଯାହାକି	-9.57092
ଗର	-9.57165
ହୀନ	-9.57182
▁ତୁମ୍ଭକୁ	-9.57196
symbols	-9.57203
▁ପଟ୍ଟନାୟକ	-9.57203
▁ମଝି	-9.57207
▁ବାତିଲ	-9.57215
▁ୱ	-9.5723
ଂଗ	-9.5737
▁ସୋନା	-9.57426
▁ଦେଖିବାକୁ	-9.57538
ଗେ	-9.57707
mi	-9.58051
▁ଶାରୀରିକ	-9.58088
▁ଶ୍ରେଷ୍ଠ	-9.58088
▁ଆହତ	-9.58089
▁ପରିଚାଳକ	-9.58097
▁୨୦୧୨	-9.58106
▁ଟିଭି	-9.58112
▁ଭାଇରାଲ	-9.58118
▁ଅଦା	-9.58427
▁୫୦୦	-9.58813
ସ୍ଥଳ	-9.58866
ଦ୍ୟ	-9.58868
▁as	-9.58916
▁ଲେଖିବା	-9.58974
▁ସୁସମାଚାର	-9.5898
▁ଅନୁରୋଧ	-9.5898
▁ସର୍ବ	-9.58987
▁ଅଭିଯୋଗ	-9.58988
▁ପତ୍ନୀ	-9.58989
କ୍ଷା	-9.59019
▁ହେଇଚି	-9.59043
ଓଃ	-9.59066
▁ଚିହ୍ନଟ	-9.59079
▁ଏମାନଙ୍କ	-9.59166
ପତ୍ର	-9.59409
▁ୟା	-9.59492
▁।’’	-9.59659
▁ଉଦ୍ଦେଶ୍ୟ	-9.59881
▁ଗଣମାଧ୍ୟମ	-9.59881
▁ଦ୍ଵାରା	-9.59881
▁ନିୟନ୍ତ୍ରଣ	-9.59881
▁ଆଦୌ	-9.59882
▁ପଞ୍ଚମ	-9.59906
▁ପଠାନ୍ତୁ	-9.59917
▁ଅକ୍ଷର	-9.59953
▁ସଫଳତା	-9.60008
▁ଯେପରି	-9.60117
ନ୍ତା	-9.60225
▁ନାମରେ	-9.60319
▁କହିବାକୁ	-9.60385
▁ଈ	-9.60391
▁ପଥର	-9.60427
▁ଅବସ୍ଥିତ	-9.60614
▁ଈଶ୍ବର	-9.60659
▁ସ୍ମୃତି	-9.6079
▁ପ୍ରମୁଖ	-9.60791
▁ଯୋଗୁଁ	-9.60791
▁ବାଛନ୍ତୁ	-9.60791
▁ରଖିବାକୁ	-9.60822
▁ଯେମିତି	-9.6088
▁*	-9.60963
▁TV	-9.60965
▁୧୩	-9.61004
ଯାଇଥିବା	-9.61008
ଉଛନ୍ତି	-9.61028
▁ହୋଇଗଲା	-9.61107
ଲିଙ୍ଗ	-9.61245
ମାସ	-9.61331
▁ମନରେ	-9.61346
50	-9.61376
କଲେ	-9.61497
▁ପରିମାଣ	-9.61546
▁ଇତ୍ୟାଦି	-9.61708
▁କାର୍ଯ୍ୟାନୁଷ୍ଠାନ	-9.61708
▁ଅନୁଭବ	-9.61709
▁ରଥଯାତ୍ରା	-9.61711
▁Have	-9.61715
▁ପୂଜା	-9.61735
▁ଆଗକୁ	-9.61778
ତୁମେ	-9.61836
▁ପଶୁ	-9.61844
ଧ୍ୟ	-9.61899
ଜ୍ଞ	-9.62085
▁ଉତ୍	-9.62107
ନେଇ	-9.62126
ଶ୍ଚ	-9.62356
▁କହୁଛ	-9.62376
▁ଯୁବ	-9.62446
ାୟା	-9.62523
▁ଅବୈଧ	-9.62634
▁ନିଷ୍କ୍ରିୟ	-9.62634
▁MZH	-9.62634
▁ମାଂସ	-9.62639
▁ଛାଡିଦେଲେ	-9.62685
▁ଜଗା	-9.62734
▁ବଟନ	-9.62749
▁କଃ	-9.62756
▁ତାରିଖରେ	-9.62794
ବର୍ତ୍ତ	-9.62946
key	-9.63001
▁ପ୍ରତ୍ୟେକ	-9.6305
,“	-9.6306
ପୋ	-9.63127
▁ଅଫ୍	-9.63252
▁ଚିହ୍ନ	-9.6326
ଗଳ୍ପ	-9.63299
▁ରାସ୍ତାରେ	-9.63307
▁ପରମେଶ୍ୱର	-9.63346
▁ଠିକ	-9.6338
▁ବିରୁଦ୍ଧରେ	-9.63568
▁ସୁବିଧା	-9.63568
▁ସ୍ଥାପନ	-9.63569
▁ଏଥିରୁ	-9.6357
▁ପୃଷ୍ଠଭୂମି	-9.63571
▁ଆସୁଥିଲେ	-9.63596
▁ରୂପରେ	-9.6376
ଥିଲୁ	-9.63794
▁ଠ	-9.63942
▁ସବୁଠାରୁ	-9.63976
▁ବଢି	-9.64049
▁ବୋଧ	-9.64077
ଢି	-9.64137
▁ପୃଷ୍ଠ	-9.64235
ିତା	-9.6428
▁ଶୁଣିବା	-9.64302
▁ଭାରତର	-9.64311
ଆର୍	-9.6432
ଇଲା	-9.64372
ଆଁ	-9.64438
ight	-9.64512
▁ଡିସେମ୍ବର	-9.64512
▁ଯାଆନ୍ତୁ	-9.64512
▁ସପ୍ତାହ	-9.64512
▁ଦେଉ	-9.64512
▁ଢିଲା	-9.64518
▁was	-9.64526
▁ଉପଚାର	-9.6454
▁ନୂଆବର୍ଷ	-9.64579
ଚାର	-9.64639
ଯୋଗ	-9.64657
▁ହେଉଛନ୍ତି	-9.6467
▁ମହାନ୍ତି	-9.64687
ନାଥ	-9.64764
▁ଏଠି	-9.6485
ଯଦି	-9.64892
ish	-9.65041
୧୫	-9.65131
▁ମାନସିକ	-9.65288
ian	-9.65358
▁ପାଖ	-9.65364
▁Windows	-9.65464
▁ଭିଡ଼ିଓ	-9.65464
▁ପଖାଳ	-9.65464
▁ଆକ୍ରମଣ	-9.65465
▁ଯାକୁବ	-9.65473
▁ଵି	-9.65489
▁ଗାଇବା	-9.65601
▁ଭରଣ	-9.65603
▁ମ୍ୟା	-9.65836
▁En	-9.65867
ବେଦ	-9.65956
▁ଓଜନ	-9.66017
ନୋ	-9.66035
▁ଜନ	-9.66154
ଗତି	-9.66217
ଯାଉ	-9.66278
ep	-9.66321
▁ସିବିଆଇ	-9.66426
▁ଭିତରୁ	-9.66428
▁ହୃଦୟ	-9.66501
▁ଫୋନ୍	-9.66531
ତିଜନକ	-9.66534
▁ଦୋଷ	-9.66546
▁ହେଉଥିବା	-9.66571
▁ସାଙ୍ଗ	-9.66582
▁res	-9.66703
▁27	-9.66882
▁ଯେତେ	-9.66892
ସମା	-9.66928
ାର୍ଥ	-9.67201
▁ଦକ୍ଷିଣ	-9.67241
▁ପ୍ରସାଦ	-9.67241
▁କହିବ	-9.67367
▁article	-9.67397
▁ଆତ୍ମହତ୍ୟା	-9.67397
▁ଉଦ୍ଭିଦ	-9.67397
▁about	-9.67397
06	-9.67529
▁ଖାଇଲେ	-9.67566
▁କଭର	-9.67566
▁ଫୁଲ	-9.67599
ଶ୍ଵ	-9.6762
▁ଯମ	-9.6768
ପାଳ	-9.67796
▁ରୂପ	-9.67797
▁ହେବାର	-9.67842
ିବାକୁ	-9.67853
▁De	-9.67864
ନଗର	-9.67872
ହର	-9.67915
va	-9.68199
▁ସାମ୍	-9.68247
▁କହିଲ	-9.68272
▁ଏହିପରି	-9.68297
ଟିଂ	-9.68332
▁ଖୋଜନ୍ତୁ	-9.68377
▁ଗର୍ଲଫ୍ରେଣ୍ଡ	-9.68377
▁ନିଷ୍ପତ୍ତି	-9.68377
▁ଋତୁ	-9.68378
▁ପୁଲିସ	-9.68399
▁ଭାରତରେ	-9.68414
25	-9.68439
▁ପକାଇ	-9.68454
▁ଆସୁଛି	-9.68462
ick	-9.68577
ର୍ବ	-9.68612
▁ଜାରି	-9.68617
▁ଯିବି	-9.6862
▁ବିପଦ	-9.68657
▁ଜିଲା	-9.6873
ya	-9.6876
ty	-9.68909
‍	-9.68917
▁ଚାପି	-9.68947
ance	-9.69294
▁ପ୍ରମାଣ	-9.69363
▁ଅଧ୍ୟାୟ	-9.69367
▁କ୍ୟାଲେଣ୍ଡର	-9.69367
▁ଧନ୍ୟବାଦ	-9.69367
▁ଛାତି	-9.69375
What	-9.69392
▁ହୁଅନ୍ତୁ	-9.69465
ତୃ	-9.6947
▁me	-9.69551
▁କୋଉ	-9.69612
▁ରହିଲେ	-9.69729
ଫୋ	-9.69775
▁ଜଣାଇ	-9.69917
ୟୋଗ	-9.69991
▁ନଥାଏ	-9.70191
▁ରାଜ୍ୟରେ	-9.7024
▁କ୍ଯାଲେଣ୍ଡର	-9.70367
▁ସିନେମା	-9.70367
▁ସୁଦ୍ଧା	-9.70367
▁ଇଣ୍ଟରନେଟ	-9.7037
▁ବନାମ	-9.70374
▁ବରଫ	-9.70378
▁ପଏଣ୍ଟ	-9.70434
▁One	-9.70453
▁Don	-9.70486
TR	-9.70501
▁ହାଃ	-9.70528
▁do	-9.70641
▁!!!	-9.7068
—	-9.70682
▁ସାଥିରେ	-9.70739
At	-9.70746
▁ବଞ୍ଚିତ	-9.7078
▁ଦେଖିଲେ	-9.70984
▁ଦୁଇଟି	-9.71072
ଜାଜ	-9.71072
▁it	-9.71204
୬୫	-9.71258
କାରୀଙ୍କ	-9.71271
▁ଛୁଇଁ	-9.71355
▁ଡାଉନଲୋଡ	-9.71377
▁that	-9.71382
▁ଚକିତ	-9.71382
ଆଚ୍ଛା	-9.71385
▁ଦାଶ	-9.71395
▁ଚାଲିଗଲା	-9.71536
ମୃତ	-9.71706
ଳୀ	-9.71822
▁ଗତ	-9.71861
କଣ୍ଠ	-9.7188
▁ମେଳ	-9.71911
ଡ଼େ	-9.71944
▁ଗାଁରୁ	-9.71985
▁ଘା	-9.7203
▁ନଥିଲା	-9.7208
AR	-9.72159
ିତି	-9.72386
ପୂର୍ବନିର୍ଦ୍ଧାରିତ	-9.72398
▁World	-9.72398
▁ଅସମର୍ଥ	-9.72398
▁ଶଙ୍ଖ	-9.72398
▁ଅତ୍ୟନ୍ତ	-9.72398
▁୭୦ବର୍ଷ	-9.72407
▁www	-9.72431
▁୨୬	-9.72517
▁ରହିଥିଲେ	-9.72519
▁ବିଶ୍ବାସ	-9.7263
▁ସ୍ୱାଧୀନତାର	-9.72643
ବ୍ୟବହାରକାରୀ	-9.72776
କଥା	-9.72813
▁କରିଛ	-9.72814
▁ମହାନ	-9.72832
▁ସଭା	-9.72854
▁ହୋଇଛନ୍ତି	-9.73006
▁କ୍ଷମତାକୁ	-9.73008
ୟେ	-9.73082
▁ଘୁ	-9.73124
ଉଛି	-9.73175
▁ଫୋ	-9.73372
▁ଫୋଲଡରକୁ	-9.73426
▁How	-9.73429
▁ଦାଦାଗିରି	-9.7343
▁ପୂରଣ	-9.73432
▁ଆବଶ୍ୟକତା	-9.73434
▁ଶାସନ	-9.73435
▁ଶଗଡ଼	-9.73464
▁Any	-9.73475
▁ଶାସନରେ	-9.73481
▁କରାଯାଇଥିବା	-9.7351
ହେଲା	-9.73523
▁କେଇ	-9.73545
▁ପଡିଲା	-9.73629
୍ୟାରା	-9.73672
im	-9.73734
▁କାରଣରୁ	-9.73748
ine	-9.73847
▁କୋଉଠିକୁ	-9.73878
▁ଚନ୍ଦ୍ର	-9.74019
▁ବ୍ଲକ	-9.7402
▁ଆସିବାକୁ	-9.74151
▁33	-9.74306
ଈ	-9.74381
▁Conditions	-9.7447
▁ଇତିହାସ	-9.7447
▁Ginger	-9.7447
▁ବିଜ୍ଞାନ	-9.74477
▁ବାନ୍ଧି	-9.745
▁ନଷ୍ଟ	-9.74503
▁ସେତେବେଳେ	-9.74517
▁ସମ୍ପାଦନା	-9.74519
ଭୋ	-9.7455
▁ଚାରି	-9.74563
▁ସାର୍	-9.74587
ଦିଅ	-9.7459
ୟକ	-9.74611
କ୍ତି	-9.74626
▁ଇନ୍	-9.74671
ଧର	-9.74716
email	-9.74809
ki	-9.74893
▁ଘଟିଲା	-9.74901
୍ରୀ	-9.7491
▁ବିଧାନସଭା	-9.7502
▁ଗ୍ରାମରେ	-9.75081
ଭ୍	-9.75127
▁ଚୁ	-9.75237
ଲାଣି	-9.75362
▁ସୁରକ୍ଷିତ	-9.75523
▁ଗୌରବ	-9.75523
▁ରାଣୀ	-9.75536
ଜୁଲାଇ	-9.75549
▁ରହୁଛନ୍ତି	-9.75568
ପଦ	-9.75625
▁ଘୁଞ୍ଚ	-9.75739
▁କେଶ	-9.75796
▁ଅଭାବ	-9.75842
▁ଆଣ୍ଡ	-9.76128
▁କୁହେ	-9.76156
▁ଥିବ	-9.76206
▁ପୃଥିବୀରେ	-9.7624
▁ମହତ୍	-9.76241
▁ଉତ୍ପାଦ	-9.76288
ive	-9.76293
▁ସମ୍ପାଦନ	-9.76333
▁ସତେ	-9.76363
ଶୁଣ	-9.76417
▁ଷ	-9.7657
▁ଫ୍ର	-9.76577
▁କୃଷି	-9.76587
▁ଦୋକାନ	-9.76589
▁ରଖାଯାଇଥାଏ	-9.76598
▁ଯଥା	-9.76648
ବଂଶ	-9.76714
,”	-9.76899
▁ଫେରିବା	-9.76954
▁ରହୁ	-9.76988
ve	-9.77038
▁ପଛକୁ	-9.7719
▁ମୋଟ	-9.77203
ମେଣ୍ଟ	-9.7732
▁ମନ୍ତ୍ର	-9.77473
@@@@@@@@@@@	-9.77586
▁ପ୍ରକ୍ରିୟା	-9.77662
-----?	-9.77662
▁check	-9.77662
▁group	-9.77662
▁ଗୋଟାଏ	-9.77662
▁ପରିସ୍ଥିତି	-9.77662
▁ସଂଗ୍ରହ	-9.77696
▁at	-9.77722
#3	-9.77738
୧୧	-9.77777
99	-9.77923
ଳ୍ପ	-9.78107
ଞ୍ଚା	-9.78225
▁ହୋଇଥିଲେ	-9.7825
▁ବିଜୁ	-9.78266
▁ଉଠି	-9.78268
▁ଘଣ୍ଟାରୁ	-9.78316
▁ଦାୟିତ୍ୱ	-9.78356
ଲ୍ଲ	-9.78431
ଞ୍ଜି	-9.78509
▁ଲୋଭ	-9.78537
।’’	-9.7854
▁ଅଫିସ	-9.78586
▁ଅବସ୍ଥା	-9.78615
▁ନିରାଶ	-9.78626
ଧର୍ମ	-9.78696
୨୯	-9.78728
▁ତବେେ	-9.78753
ଦାୟ	-9.78843
▁ଥାଉ	-9.78848
▁ବିରୋଧୀ	-9.7888
▁ରହ	-9.7897
▁are	-9.79112
▁ଦଶ	-9.79126
▁ଅଲଗା	-9.79138
ଗିରି	-9.7915
▁ଦିଆଯିବ	-9.79161
▁IN	-9.79198
▁୨୫	-9.7922
ହେବ	-9.79253
▁40	-9.79277
ଭାରତ	-9.79416
▁can	-9.79459
▁ରାଜ୍ୟର	-9.79696
ୀତ	-9.7974
ā	-9.79847
▁why	-9.79848
▁ସର୍ଭିସ	-9.79848
quot	-9.79848
▁କୁହାଯାଏ	-9.79848
▁ପଠାଇ	-9.79873
▁ଆନନ୍ଦ	-9.79937
▁ସମର୍ଥନ	-9.79941
▁ଯାଇପାରେ	-9.79968
▁ଶୋ	-9.80049
ST	-9.80226
ାହ	-9.80236
ni	-9.8028
▁34	-9.80408
ଫଳ	-9.80445
ରାଜନ	-9.80529
▁ରେଳ	-9.80626
ସିଂହ	-9.80673
man	-9.80783
▁ପ୍ରଚଳିତ	-9.80817
▁ଲିଖିତ	-9.80845
▁ଦେଶର	-9.80851
▁(%	-9.80906
unday	-9.80959
▁ଯେହେତୁ	-9.80959
▁Time	-9.80959
▁ସଙ୍ଗେ	-9.80961
▁ପଣ୍ଡିତ	-9.80962
▁ବିଦ୍ୟା	-9.81
qu	-9.81084
▁ଅଧ	-9.81095
▁ଦେଇପାରେ	-9.81114
ନଂ	-9.81273
▁An	-9.81507
େଟ୍	-9.81569
▁ଚିକିତ୍ସା	-9.81634
22	-9.81725
ଦ୍ୱ	-9.81996
ଦେଲା	-9.8203
▁ଭୁବନ	-9.82077
▁ଖାଆନ୍ତୁ	-9.82082
▁ଇଣ୍ଡିଆ	-9.82083
▁ଉଭୟ	-9.82083
▁ଫସଲ	-9.82084
▁ଟିକିଏ	-9.82087
▁ଜୁନ	-9.82102
▁ପଢ଼ନ୍ତୁ	-9.8211
▁ବାଜିଲା	-9.82163
▁ବାମ	-9.82184
ଡିଆ	-9.82236
▁Y	-9.82265
ଣ୍ଟା	-9.82537
▁ପ୍ରସ୍ତୁତି	-9.82562
▁Ch	-9.82573
ଘର	-9.82597
▁ସାମ	-9.82636
▁ବଜାରକୁ	-9.82712
▁CD	-9.82726
▁ଆତ୍ମ	-9.82871
be	-9.82909
▁ରଖେ	-9.82996
▁Ma	-9.83016
ସାର	-9.83067
q	-9.83091
ହୁଁ	-9.83181
କରିବା	-9.83216
▁General	-9.83219
Coptic	-9.83219
▁ଆବେଦନ	-9.83219
▁ସୁନା	-9.83231
▁ଖୁବ୍	-9.83238
ଏନ	-9.83258
ମାଲ	-9.83275
▁ମିଳିଛି	-9.83343
▁ବାସ୍ତବତା	-9.83366
▁ଯୋ	-9.83461
▁ଗାଡି	-9.83499
▁ସେଠାରେ	-9.83523
ଆଲୋ	-9.83567
▁ଅନ୍ଧ	-9.83609
ଜାତ	-9.83617
▁ଚାଲିଲା	-9.83639
▁ନିଶ୍ଚୟ	-9.83739
▁ନିଅ	-9.83797
▁ପ୍ୟା	-9.83908
ଚଳ	-9.84289
▁ଦର୍ଶା	-9.84335
▁ମୂଲ୍ଯ	-9.84368
▁ଅଧୀନରେ	-9.8437
▁ମୁଦ୍ରଣ	-9.8437
▁ପ୍ରସ୍ତାବ	-9.84371
▁ବେରଙ୍ଗ	-9.84377
▁ସମାନଙ୍କେୁ	-9.84467
▁ଯାଏଁ	-9.84484
▁ତଥାପି	-9.84485
▁ପ୍ରିୟ	-9.84503
“	-9.84596
▁ୟି	-9.84698
ାଚି	-9.84729
▁ଆସିଛି	-9.84792
▁ସୁଖ	-9.84807
▁ଶିଖ	-9.84846
▁ଅକ୍ଷ	-9.84865
▁32	-9.8489
▁ପଢ଼ି	-9.85065
▁ଖୁ	-9.85067
ତେବେ	-9.85153
ant	-9.85237
େଶ୍ୱର	-9.8533
gi	-9.85428
ଦୂତ	-9.85456
▁ଆଲ	-9.8548
▁ହୋଇପାରିବ	-9.85499
ପାତ	-9.8551
oliday	-9.85531
▁Oriya	-9.85531
▁ଦମ୍ପତ୍ତି	-9.85531
▁ଉଲ୍ଲେଖ	-9.85531
▁କସରତ୍	-9.85531
▁ନିମ୍ନ	-9.85532
▁ଭଗବାନ	-9.85533
▁ସ୍ଥିର	-9.85533
▁ବିମାନ	-9.85578
▁list	-9.85597
ub	-9.85624
▁ମାର୍ଚ୍ଚ	-9.85629
ତୋ	-9.85723
▁ଶିବ	-9.85755
ୋଲ	-9.85763
][	-9.85793
▁ମାପ	-9.858
▁ଫାଇଲଗୁଡ଼ିକୁ	-9.85833
▁ଅବସ୍ଥାନ	-9.85855
▁କହ	-9.85888
▁ନାଇଁ	-9.85897
୪୬	-9.85934
▁111	-9.86083
▁ପଦରୁ	-9.86138
ମାତ୍	-9.86209
use	-9.8621
ହ୍ୟ	-9.86214
ଚେ	-9.86404
▁ଶି	-9.86411
ଫେ	-9.86432
▁ଯାଇଥିଲା	-9.86462
▁କ୍ଲିକ	-9.86476
ଯାନ	-9.8669
tic	-9.86705
▁IFFCO	-9.86707
▁ଫେବୃୟାରୀ	-9.86707
▁ବ୍ୟବହୃତ	-9.86707
▁ଧ୍ୱନି	-9.86708
▁ପ୍ରତିନିଧି	-9.86708
▁ସଂରଚନା	-9.86708
▁ସହାୟକ	-9.86709
▁ମଡେଲ	-9.8671
▁ସଠିକ	-9.86727
▁ସେଥିରେ	-9.86735
▁ଅଭିଲେଖ	-9.86737
▁ଗୋପନୀୟତା	-9.8674
▁ଅବଧି	-9.86742
▁ଲେଖକ	-9.86746
!"	-9.86747
▁ଫର୍ମ	-9.8678
▁ସୁସ୍ଥ	-9.86801
ାତ୍ମକ	-9.86885
▁ପରିବା	-9.8691
▁ଶରୀରର	-9.87042
▁41	-9.87117
ସିଆ	-9.87152
ଂକ	-9.87342
▁cur	-9.87352
ଶ୍ୱାସ	-9.87624
▁29	-9.87647
ass	-9.87714
ଯୋ	-9.87766
tr	-9.87775
ବରଣ	-9.87895
▁Edge	-9.87898
▁think	-9.87898
▁ଅଧିବେଶନ	-9.87898
▁ଗୀତସଂହିତା	-9.87898
▁ପ୍ରଦର୍ଶିତ	-9.87898
▁ଅନଲାଇନ	-9.87898
▁ସମତଳ	-9.87898
▁ଅଗଷ୍ଟ	-9.87899
net	-9.8798
▁ନଂ	-9.88051
▁ଖୋଲା	-9.88128
▁ଧାରା	-9.88189
୍ୱା	-9.88194
▁କାର	-9.88221
ଗଡ	-9.88251
▁ଲକ୍ଷରୁ	-9.88296
▁ଦେଇଛି	-9.8836
line	-9.88368
ଏଫ୍	-9.88388
▁ଶୁଭ	-9.88413
▁ନୁଆ	-9.88452
▁ବଢାଇ	-9.88574
ୁଛ	-9.88733
▁an	-9.88753
ାୟିକ	-9.888
ଏଚ୍	-9.88827
no	-9.88829
ga	-9.88833
ଵେ	-9.88862
▁ସମାନଙ୍କେ	-9.89002
ପ୍ରାପ୍ତ	-9.8901
The	-9.89021
Ethiopian	-9.89103
ୋଷ୍ଟେସଙ୍କ	-9.89103
ନାହାଁନ୍ତି	-9.89103
▁ବରଂ	-9.89136
▁ଦୃଷ୍ଟି	-9.89143
▁ପ୍ରଚାର	-9.89186
ବ୍ଯ	-9.89226
ction	-9.89325
▁ଲଢିବା	-9.8939
▁ପେଟ	-9.8957
େଡ	-9.89622
▁ରଖିବ	-9.89657
▁ପାଇବାରୁ	-9.89735
▁ଥା	-9.89911
▁{	-9.90034
▁ଆମେରିକାର	-9.90073
▁ଦେବୀ	-9.90107
▁ଛାତ୍ର	-9.90135
▁2014.	-9.90262
▁No	-9.90305
▁Apache	-9.90322
▁ODIA	-9.90322
▁ବହିଷ୍କୃତ	-9.90322
▁ସମ୍ପାଦକ	-9.90322
▁ଚିନ୍ତିତ	-9.90324
▁ଧ୍ୟାନ	-9.90325
ଭାଷ	-9.90351
▁ଉପଯୋଗ	-9.90357
time	-9.9039
ନ୍ଦ୍ର	-9.90432
han	-9.90492
▁ପଚାରିଲି	-9.90544
▁କେତେବେଳେ	-9.90548
▁ଜନତା	-9.90567
ଟାଇ	-9.9058
▁ସବୁଠୁ	-9.90667
ଡାକ	-9.90709
ଯୁ	-9.90753
▁ଦେଖାଇ	-9.90916
CGH	-9.90935
▁ବିବାଦ	-9.90937
CC	-9.91
▁ଯାଇଥିଲେ	-9.91089
▁ସାଂସଦ	-9.91159
▁ମାଧ୍ୟମରେ	-9.91405
▁ସୁଯୋଗ	-9.91431
▁ପଠାଇବା	-9.91476
▁ଏକ୍ସ	-9.91539
▁ରକ୍ତଚାପ	-9.91557
▁ଉଇଣ୍ଡୋକୁ	-9.91558
▁ଟଙ୍କିଆ	-9.91559
▁ଯୋଗାଣ	-9.91561
▁ଲେଖନ୍ତୁ	-9.91562
▁ଗ୍ରହରେ	-9.91622
▁ମାତୃ	-9.917
▁କାର୍ଯ୍ୟକାରୀ	-9.91754
38	-9.91814
କାତ୍ମକ	-9.91846
▁ବେଡି	-9.91895
▁ନିୟମିତ	-9.91933
▁ଚାହୁଁ	-9.92038
▁26	-9.92118
ଚିକ	-9.92123
▁ପୂ	-9.92191
▁ଖୋଲିଦେ	-9.92307
ଏଫ	-9.92339
▁ଉଦାହରଣ	-9.92407
▁କ୍ରମ	-9.92462
ଲ୍ୟ	-9.92533
ound	-9.92805
▁ଆବର୍ଜନା	-9.92807
▁ଫୋଲଡ଼ର	-9.92807
▁ଗୁପ୍ତାଙ୍ଗ	-9.92807
▁ତୁମ୍ଭମାନେେ	-9.92807
▁180	-9.92816
▁କଅଣ	-9.92826
▁ମିଳୁ	-9.9284
▁କାଳିଆ	-9.92889
@@@@@@@@@@@@	-9.92894
able	-9.92987
ମଣି	-9.92991
କଂ	-9.93365
ଞ୍ଚି	-9.93881
▁ବଢ	-9.93917
▁ଜାଣ	-9.9393
▁ଉଦ୍	-9.9398
▁ମଧ୍ଯରେ	-9.94024
▁ସଫଳ	-9.94044
OdiaPost	-9.94072
▁ଆଶଙ୍କା	-9.94073
▁ଡାକ୍ତରଖାନା	-9.94073
▁ବାଇଗଣ	-9.94074
▁have	-9.94081
▁ଥଣ୍ଡା	-9.94102
▁ପିନ୍ଧି	-9.94111
ହନ	-9.94117
tra	-9.94126
ବ୍ରହ୍ମ	-9.94142
▁ଲାଗୁନାହିଁ	-9.94148
ମଣିମା	-9.94178
▁କରିପାରି	-9.94326
▁କରୁଛୁ	-9.94371
ab	-9.94372
wa	-9.9446
ଷେ	-9.94527
▁ନେଲେ	-9.94545
ME	-9.94591
▁କ୍ଷମତା	-9.94592
ord	-9.94728
ଇନ	-9.94803
▁ପୂର୍ଣ୍ଣ	-9.94952
୧୨	-9.95063
ଦେଖ	-9.95307
@1	-9.95308
ଞାନ	-9.95338
▁ଶସ୍ତା	-9.95357
▁ହାଇେ	-9.95357
▁ଯୋହନ	-9.95361
▁କନ୍ୟା	-9.95367
▁2018	-9.9539
▁ସାଧନ	-9.95413
▁ବଦଳ	-9.95447
←	-9.95495
▁ନିର୍ବାଚନରେ	-9.95498
▁ବିଷ	-9.95534
▁୭୦	-9.95773
ବନ୍ଧ	-9.9583
▁ଘଟଣାକୁ	-9.95843
ice	-9.95917
ଯେ	-9.95948
No	-9.96043
ଶୀଳ	-9.9607
09	-9.96122
ୟାର	-9.96146
har	-9.96245
▁ସଦାପ୍ରଭୁଙ୍କ	-9.96278
pp	-9.96281
ତ୍ବ	-9.96291
ie	-9.96342
~	-9.96509
ହରି	-9.96582
ୀକରଣ	-9.96616
▁ରାଉତ	-9.96654
▁ଶୀଘ୍ର	-9.96654
▁କର୍ମଚାରୀ	-9.96655
▁(1),	-9.96655
▁how	-9.96656
▁ସାଆନ୍ତ	-9.96656
▁ବନ୍ୟା	-9.96662
▁We	-9.96777
▁ହୁଅନ୍ତି	-9.96795
▁ଚୋରି	-9.96824
tal	-9.96844
▁ପବନ	-9.9691
▁ଭାବିଲି	-9.9691
▁36	-9.96912
▁କନକ	-9.96944
▁ଖଣ୍ଡ	-9.96969
▁୨୩	-9.97016
▁ଯେଉଁମାନେ	-9.97042
ପର୍ଯ୍ୟ	-9.97058
ud	-9.97145
▁ଫେରାଇ	-9.97185
▁ନିୟ	-9.97255
▁ମାଛ	-9.97297
48	-9.97329
ଏତ	-9.97339
ell	-9.97533
▁ଘରର	-9.97646
▁50	-9.97653
▁ଆତଙ୍କ	-9.97794
▁ଫଳରେ	-9.97855
▁ବଦଳି	-9.97869
ାବଳୀ	-9.97897
▁ଭିତରକୁ	-9.97969
▁ଅବଶ୍ୟ	-9.97969
EDIE	-9.9797
▁ଯୌନ	-9.9797
▁ଶତ୍ରୁ	-9.9797
▁ସ୍ତମ୍ଭ	-9.97971
▁ସ୍ଥାନକୁ	-9.97973
୍ଠ	-9.97975
▁ଯେକୌଣସି	-9.97999
▁ସଂସାର	-9.98001
▁ନିଅନ୍ତୁ	-9.98008
▁ଯୁଗ	-9.98014
▁ସବ	-9.98042
ang	-9.98045
▁ପଡୁ	-9.98078
▁Pro	-9.98126
▁ପୁରୀ	-9.98129
-“	-9.98153
ସମ୍ପାଦନା	-9.98222
Indian	-9.98245
ଆରମ୍ଭ	-9.98309
ମୂଳ	-9.98485
ଳୁ	-9.98512
▁ରୋଗୀ	-9.98681
ଥିଲ	-9.98824
▁ଗୋଡ	-9.98838
▁ଅଧା	-9.99002
▁ବେଗ	-9.99019
▁ବଦଳରେ	-9.991
ଙ୍ଗୁ	-9.99235
}	-9.99294
▁chicken	-9.99303
▁ଆତଙ୍କବାଦୀ	-9.99303
▁ବାରମ୍ବାର	-9.99303
▁ବିଳମ୍ବ	-9.99303
୧୩	-9.99305
▁rich	-9.99307
▁ଦେଉଛୁ	-9.99335
▁ବର୍ଷୀୟ	-9.9934
ଵି	-9.99369
▁ଭୟଙ୍କର	-9.994
▁ଚଳିତ	-9.99441
▁କିଲୋ	-9.99452
▁କହୁଥିଲେ	-9.99456
ଚିତ୍ର	-9.99483
▁•	-9.99486
▁ଆତଙ୍କୀ	-9.99496
▁ପଣ୍ଡା	-9.99496
▁ଯିବାକୁ	-9.99575
ପୋର୍ଟ	-9.9958
▁ଭିନ୍ନ	-9.99645
▁ରାଜୁ	-9.99767
▁ସଦ	-9.99776
EN	-9.99879
ଦିଏ	-9.99881
▁ପଢ଼	-10.0006
▁ଯୀଶୁଙ୍କ	-10.001
▁ଜାଣିଲେ	-10.0018
▁କଲେଜ	-10.0042
GR	-10.0046
୬୦	-10.006
▁ଅତିରିକ୍ତ	-10.0065
▁ଡିରେକ୍ଟୋରୀ	-10.0065
▁ପଦକ୍ଷେପ	-10.0065
▁ଈଶ୍ୱର	-10.0065
▁ଫାଇଦା	-10.0065
▁3.9	-10.0066
▁ଗୋପାଳ	-10.0067
ଥାନ୍ତା	-10.0069
▁ଶୁଣୁ	-10.008
ଜୀବ	-10.0081
ର୍ଚ୍ଚ	-10.0085
▁Di	-10.0087
ପ୍ରଭା	-10.0091
▁କ୍ଲିକ୍	-10.0092
ଗଡ଼	-10.0092
▁ହିସାବ	-10.0093
▁ତ୍ରି	-10.0095
▁ଚାଷ	-10.0101
▁ଭାରତକୁ	-10.0119
60	-10.0122
▁us	-10.0127
▁ବଜାର	-10.0127
ନଥିଲା	-10.0128
▁ପଛ	-10.0132
__	-10.0134
▁ଚାବି	-10.0135
▁ପାରିବି	-10.0138
କ୍ଷୀ	-10.0141
▁ମାଡ଼	-10.0166
▁ବାସ୍ତବ	-10.0186
ୁଷ	-10.0186
▁←	-10.0187
▁ଇନ	-10.0194
▁Download	-10.0202
▁ପୁସ୍ତିକା	-10.0202
▁ସମ୍ପତ୍ତି	-10.0202
▁ୱେବସାଇଟ	-10.0202
▁ଅଭିନେତା	-10.0202
▁ଅଧ୍ୟକ୍ଷ	-10.0203
▁ସଂଳାପ	-10.0203
▁JH	-10.0204
▁ସମ୍ପର୍କରେ	-10.0205
▁2016	-10.0209
▁user	-10.0209
▁ଲାଗୁଛି	-10.0216
ଭଳି	-10.0218
▁ସୁଧ	-10.0221
80	-10.0222
NTS	-10.0225
ଏଣ୍ଟ	-10.0235
▁୨୪	-10.025
୍ଗ	-10.025
ୟତ	-10.025
ସମସ୍ତ	-10.0255
▁mo	-10.0262
our	-10.0269
▁ଆସିବା	-10.028
▁ତଳକୁ	-10.0281
▁ଆସିଲେ	-10.0281
ob	-10.0302
▁ଲକ୍ଷ୍ମୀ	-10.0335
Brinjal	-10.0341
▁View	-10.0341
▁ମନୋନୀତ	-10.0341
▁ୟୁରୋପ	-10.0341
▁କ୍ରିକେଟ	-10.0342
▁ବାକ୍ୟ	-10.0342
▁ପଣ୍ୟ	-10.0342
://	-10.0343
▁ପଦବୀ	-10.0344
▁ଦଳର	-10.0344
ଜନିତ	-10.0344
ାଡ଼ୋ	-10.0347
▁ପରିଚିତ	-10.0348
▁ଦିଦି	-10.0349
▁ମିଳୁଛି	-10.0349
▁ଠକ	-10.0358
▁ନୀଳ	-10.0365
▁ପ୍ରକାଶିତ	-10.0365
▁ସ୍ପ	-10.0366
▁ଦେଶରେ	-10.0375
ପୂର୍ଣ୍ଣ	-10.038
ବାଇ	-10.0382
▁ସ୍ତର	-10.0383
Let	-10.0391
▁ଶଶୁର	-10.0393
▁ଘଟିବ	-10.0396
▁କାଟି	-10.04
▁42	-10.0401
ition	-10.0407
▁କରିଦେବ	-10.0419
ba	-10.0448
low	-10.0451
▁ମିନିଟ	-10.046
ies	-10.0463
▁ଚୀନ	-10.0464
ଲଭ	-10.0466
37	-10.0467
ପୂ	-10.0468
▁[2	-10.0469
47	-10.0472
େନ୍ଦ୍ର	-10.0474
▁ତଳ	-10.0477
dictionary	-10.0482
▁କୁହାଯାଇଥାଏ	-10.0482
▁ଜବରଦଖଲ	-10.0482
▁ନୁହନ୍ତି	-10.0482
▁ବୁଝାଇ	-10.0482
▁ପବିତ୍ର	-10.0482
▁ବିଶିଷ୍ଟ	-10.0482
▁ଧୀରେ	-10.0484
ଚ୍ଚ	-10.0484
▁ଦୁନିଆ	-10.0485
ଶୋଧ	-10.0485
▁ମାରିବା	-10.0489
▁ପ୍ରଶଂସା	-10.0491
▁ହରାଇ	-10.0492
▁କୋଲୋ	-10.0493
▁ରେଖା	-10.0494
▁ନିରବ	-10.0496
▁ଦାମ୍	-10.0496
ଯେପରିକି	-10.0499
ରିବା	-10.0501
ୁଥିବା	-10.0503
▁କିଣିବା	-10.0505
▁ହୋଇଯାଇଛି	-10.0509
▁ଫାଇଲକୁ	-10.0514
▁ମାଗି	-10.0516
▁ଡାଟା	-10.0519
▁ସବଳ	-10.0519
ka	-10.0539
ତ୍ରୀ	-10.0554
▁ଅନ୍ତର	-10.0571
ଶ୍ରୀ	-10.0572
ଡୋ	-10.0574
ଆମେ	-10.0577
▁ହିସାବରେ	-10.0596
▁ଓଂ	-10.0607
ିମିତ	-10.0611
▁ନମଃ	-10.0625
▁ଜଙ୍ଗଲ	-10.0625
▁ସ୍ୱପ୍ନ	-10.0626
▁କ୍ଷମା	-10.0629
ଥୁ	-10.0632
▁ମଧୁ	-10.0632
୦୬	-10.0635
▁ମୁହଁରେ	-10.0638
ଏକ	-10.0639
▁ଟିମ୍	-10.064
▁ସାଇଟ	-10.0641
▁ଜାଣେ	-10.0646
old	-10.0648
▁30	-10.0649
do	-10.0652
▁ଭୁଲ୍	-10.0653
▁ମହାରାଜ	-10.0656
▁ହଳ	-10.0671
▁ସବୁଦିନ	-10.0678
▁ନ୍ୟୁ	-10.0681
tion	-10.0682
▁୩୫	-10.0689
▁ପୋଛ	-10.0703
▁ମୂର୍ତ୍ତି	-10.0729
▁ମୁଖ	-10.0742
▁This	-10.0746
▁ବୃଦ୍ଧ	-10.0754
ଚିତ	-10.0759
▁ଚୋର	-10.0763
DA	-10.0765
▁ଅନୁଚିତ୍	-10.077
▁ସଂକ୍ଷିପ୍ତ	-10.077
▁ଉପାଦାନ	-10.077
▁ଚାହାନ୍ତି	-10.077
▁ଆକୃତି	-10.077
▁ଫେସବୁକ	-10.077
▁Bible	-10.077
▁ଗଣତନ୍ତ୍ର	-10.0771
▁ever	-10.0771
▁କୁରୁମ	-10.0773
▁ରଙ୍ଗର	-10.0774
▁ତୁରନ୍ତ	-10.0775
▁ବଢ଼ିବାକୁ	-10.0775
▁ଯାଉଛନ୍ତି	-10.0781
▁ପ୍ରଧାନ	-10.0781
ସ୍ତୁ	-10.08
▁po	-10.082
▁ଆପେ	-10.0821
▁ଅଟୋ	-10.0831
▁ଅଟକ	-10.0836
▁ଅବସରରେ	-10.0855
49	-10.0876
▁ଦେବତା	-10.0879
▁23	-10.0881
let	-10.0887
▁ସ୍ୱାମୀଙ୍କ	-10.0889
ଏଲ୍	-10.0894
ame	-10.09
▁ଯନ୍ତ୍ର	-10.0914
language	-10.0917
ପ୍ରାଚୀନ	-10.0917
▁program	-10.0917
▁ଟୋକିଓ	-10.0917
▁ପଗ୍ଭରି	-10.0917
▁ପରିଚାଳନା	-10.0917
▁ପ୍ରେରିତ	-10.0917
▁ରାଷ୍ଟ୍ରପତି	-10.0917
▁ଅନ୍ୟାନ୍ୟ	-10.0917
▁ଆର୍ଥିକ	-10.0917
▁ସୂଚକ	-10.0917
▁ମାଗଣା	-10.0917
▁ଅଥବା	-10.0917
▁ବୁଦ୍ଧି	-10.0917
▁ଉଦ୍ୟମ	-10.0918
▁size	-10.0918
▁ଯୁବତୀ	-10.0919
▁ଠାକୁର	-10.092
▁ଦିଆଯାଇଛି	-10.0924
ୋଷ	-10.0924
▁ସଜ	-10.0935
▁ରଖିଛି	-10.0938
▁ଈଶ୍ବରଙ୍କୁ	-10.0938
▁ଆର୍କ	-10.0959
▁କାଇଁ	-10.0967
44	-10.0968
▁ପଚାରୁ	-10.0973
▁ଲାଗିବ	-10.0978
▁ତାଲିକାରେ	-10.098
ଲକ୍ଷ	-10.0982
▁ରଥ	-10.0982
end	-10.0986
ଯାତ୍ରା	-10.0992
କ୍ଟ	-10.1007
90	-10.101
▁ଆସୁ	-10.1019
▁କିଂ	-10.1023
▁ସେପ୍ଟେମ୍ବର	-10.1036
ଜନକ	-10.1048
▁Short	-10.105
▁ବଦଳାଇ	-10.1057
ବନ୍ଧନ	-10.1058
▁Indian	-10.1063
▁ସଂସ୍କୃତି	-10.1066
▁ସ୍କ୍ରିପ୍ଟ	-10.1066
▁ସନ୍ଧ୍ୟା	-10.1066
▁ଡ୍ୟାମ୍	-10.1066
▁ନିମ୍ନଲିଖିତ	-10.1067
▁ଅପରାଧ	-10.1068
▁ସ୍ୱର୍ଗ	-10.1068
▁ଯନ୍ତ୍ରଣା	-10.1069
▁କେରଳ	-10.1072
▁ଶୀତ	-10.1074
▁‘‘	-10.1077
▁ମଣ୍ଡଳୀ	-10.1078
▁ମେଘ	-10.1081
▁ବଢିଲା	-10.109
▁ଧାନ	-10.1092
୍ଵା	-10.1093
▁କଲେଜ୍	-10.1098
▁ମୋହିତ	-10.1103
)[	-10.1104
▁ସାମ୍ବାଦିକ	-10.1105
▁ଏଇଟା	-10.1108
ଲିଆ	-10.1109
▁ରହିବୁ	-10.1115
▁ସହଜରେ	-10.1116
ମୋଦିଙ୍କ	-10.1149
▁ଚାଲୁ	-10.115
▁ପ୍ରକୃତରେ	-10.1153
30	-10.1159
▁ବର୍	-10.1179
OR	-10.1194
ଆସ	-10.1207
ନିଷ୍ଠ	-10.1216
▁July	-10.1218
▁ଅସୁବିଧା	-10.1218
▁ଚାହାଁନ୍ତି	-10.1218
▁ବିଷୟବସ୍ତୁ	-10.1218
୧୯୮୧	-10.1218
▁ଅବସ୍ଥାରେ	-10.1218
▁ମିଳେ	-10.1218
▁ଟ୍ୟାବ	-10.1218
▁କୋଚେ	-10.1222
▁କରାଗଲା	-10.1224
▁ସର୍ବଦା	-10.1224
▁ଭୂମିକା	-10.1226
IAL	-10.123
େୟାର	-10.1237
▁ସାଙ୍ଗରେ	-10.1238
▁ଦେଇଥାଏ	-10.1248
▁ବ୍ୟୟ	-10.1249
▁ଶିକାର	-10.1251
▁ବ୍ୟବହାରକାରୀ	-10.1252
AL	-10.1262
ୁତୀର	-10.1273
▁ହସ୍ତ	-10.1281
୪୭	-10.1294
▁ଲକ୍ଷଣ	-10.1296
▁ପାଳ	-10.1297
ତୁମ୍ଭେ	-10.1308
୨୦୦୯	-10.1309
name	-10.1316
▁ଜିତି	-10.1318
ିଷ୍ଟ	-10.1331
୍ୟୋ	-10.1347
the	-10.1359
▁ଦୀର୍ଘ	-10.1371
aunchpad	-10.1372
▁Control	-10.1372
▁window	-10.1372
▁ପ୍ରତିକ୍ରିୟା	-10.1372
▁ଡ୍ରାଇଭ	-10.1372
▁ସ୍ୱାଗତ	-10.1372
▁ପାଣିପାଗ	-10.1372
ସଞ୍ଜୁ	-10.1372
▁ଗୁଣଧର୍ମ	-10.1373
▁ବୟସ୍କ	-10.1374
▁ଯୋଡି	-10.1382
▁ଟ୍ରାକ	-10.1382
▁କାର୍ଯ୍ୟାଳୟ	-10.1382
▁ସହଯୋଗୀ	-10.1387
▁days	-10.1389
▁Act	-10.139
▁ହରିଆ	-10.139
▁ଲୋକମାନଙ୍କ	-10.1391
▁ପ୍ରତିଦିନ	-10.1395
ଂଜ	-10.1414
▁ଛବି	-10.1422
▁ଅଣ୍ଡା	-10.1423
ୋଜ	-10.1426
ନ୍ଥ	-10.1442
▁ରାଜାଙ୍କୁ	-10.1444
ong	-10.1457
‘	-10.1458
ଟଙ୍କା	-10.1473
▁ଓଡ଼ିଶାର	-10.1474
▁ବାହାରେ	-10.1486
▁man	-10.1487
ପ୍ରେମ	-10.1487
▁ବାହାରକୁ	-10.1493
ଚ୍	-10.1493
ଯାଅ	-10.1493
▁ID	-10.1498
ati	-10.1499
24	-10.15
▁ପ୍ରତ୍ୟ	-10.1504
▁ବନାନ	-10.151
ନନ୍ଦ	-10.151
ମିତି	-10.151
▁ନୋ	-10.1513
▁ସିନା	-10.1517
laze	-10.1528
▁SONG	-10.1528
▁School	-10.1528
▁ଘୁରାଅ	-10.1528
▁ପ୍ରଶାସନ	-10.1528
▁ବୁଢୀ	-10.1528
▁ଉତ୍କଳ	-10.1528
▁ଆମଦାନୀ	-10.1528
▁ରେକର୍ଡ	-10.1528
▁ବଢୁଥିଲା	-10.1528
▁ଫ୍ଲୁ	-10.1529
▁୨୦୧୬	-10.1529
▁ପରିସର	-10.1531
▁ଅବଦାନ	-10.1532
▁୯୦	-10.1536
କାନ	-10.1541
▁ଦରମା	-10.1552
▁ଦେୟ	-10.1554
▁St	-10.1554
▁ବିରୋଧ	-10.1559
▁ଉନ୍ନତ	-10.1559
୭୦	-10.1566
ଦେବା	-10.1577
▁ନାରାୟଣ	-10.1582
▁.....	-10.1585
୦୨	-10.1599
▁ରହିଲା	-10.1603
ବ୍ୟା	-10.1608
55	-10.161
64	-10.1614
▁ବୁଲି	-10.1629
▁ବଢ଼	-10.1646
▁ଲଢି	-10.165
▁ନଥିଲେ	-10.1658
୦୫	-10.1661
▁ଭୂମି	-10.1663
▁ଚାଲିବ	-10.1665
▁»	-10.1679
▁inlistbox	-10.1687
▁ପଦ୍ଧତି	-10.1687
▁ସଞ୍ଜୟ	-10.1687
▁SOC	-10.1687
▁ଚୟିତ	-10.1687
ପହ	-10.1687
text	-10.1687
▁Google	-10.1688
▁ଯବାନ	-10.1689
ବଦ୍ଧ	-10.169
ଏମଆଇ	-10.1691
▁ଏକାଧିକ	-10.1694
▁ମୋଟେ	-10.1699
▁ସେହିପରି	-10.1702
▁©	-10.1702
▁ଘନ	-10.1707
▁ବହୁଳ	-10.1715
▁ଚାଲନ୍ତୁ	-10.1717
▁ରୂପେ	-10.1719
▁ଡେରି	-10.1721
▁ସର୍ତ୍ତ	-10.1722
▁ରାଓ	-10.1731
ର୍ଦ୍ଦ	-10.1752
ଧୂ	-10.1757
ରାବ	-10.1759
US	-10.176
ଲୋପ	-10.176
int	-10.177
କୃଷ୍ଣ	-10.1799
▁ପ୍ରତିମା	-10.18
ଷତ	-10.1811
▁ରାଗ	-10.1813
86	-10.1815
ସ୍‍	-10.1832
▁ଉଦ	-10.1835
▁୧୬	-10.1845
ompany	-10.1848
▁tomorrow	-10.1848
▁ଡ଼େସ୍କଟପ	-10.1848
▁ନଭେମ୍ବର	-10.1848
▁ନିର୍ଦ୍ଧାରିତ	-10.1848
▁ସଂଗୁପ୍ତ	-10.1848
▁DVD	-10.1848
᭫	-10.1848
▁ଛାଞ୍ଚ	-10.1848
▁ଏକମତ	-10.1849
▁who	-10.1849
▁For	-10.185
▁ସମର୍ଥିତ	-10.1852
▁ସଂଲଗ୍ନକ	-10.1852
▁type	-10.1853
▁ଘଟ	-10.1854
▁ଛଡା	-10.1871
ଏବେ	-10.1877
▁ଖସି	-10.1883
ିଙ୍ଗ୍	-10.1883
ଦ୍ଵ	-10.1885
▁ଟାଇପ	-10.1887
▁ଧର୍ମା	-10.1887
98	-10.1899
▁ଭକ୍ତ	-10.1905
▁ଦୀପ	-10.1918
▁ଲୁହ	-10.1927
new	-10.1938
▁ଖାଇବାକୁ	-10.1941
▁ଖୋଲିବା	-10.1945
ନେଟ	-10.1953
▁ଯୋଗୀ	-10.197
ଶାସ୍ତ୍ର	-10.1972
ସୋ	-10.1997
▁ଶିଶୁକୁ	-10.2005
ଯିବୁ	-10.2005
▁ଅଦ୍ୟତନ	-10.2012
▁ଅନୁସରଣ	-10.2012
▁କୌଶଳ	-10.2012
▁ନିର୍ଦ୍ଦିଷ୍ଟ	-10.2012
▁ଯୋଗାଯୋଗ	-10.2012
▁ବ୍ୟୁରୋ	-10.2012
▁ସମୁଦ୍ର	-10.2012
▁ଏକକାଂଶ	-10.2012
▁ହ୍ରାସ	-10.2012
▁ଏକୁଟିଆ	-10.2014
▁କ୍ରିୟା	-10.2017
▁ସଂଯୁକ୍ତ	-10.2017
▁them	-10.2018
▁ଉପଯୁକ୍ତ	-10.2018
▁ଯୋଗାଡ	-10.202
▁ସ୍କ୍ର	-10.2021
out	-10.2022
▁ଗଢି	-10.2022
▁ସେବକ	-10.2023
େଶ୍ଵର	-10.2031
ରାଓ	-10.205
୬୪	-10.2055
▁ପ୍ରକାରର	-10.2072
▁ବୃ	-10.2075
ତ୍ୟା	-10.2086
▁ବୁଲିବା	-10.2086
▁ସେମିତି	-10.2091
ପୁଅ	-10.2092
▁ଭାବୁଛ	-10.2093
ଖୁସ	-10.2096
▁କରିଥିଲି	-10.2098
▁ପୂର୍ବେ	-10.2106
▁କାଠ	-10.2109
▁ଅଧି	-10.2111
▁ବିଧି	-10.2111
▁ପ୍ରାର୍ଥୀଙ୍କ	-10.2127
mail	-10.2128
▁୮୫	-10.2128
ଭିନ୍ନ	-10.213
ower	-10.2135
ଆମ	-10.2137
ଶକ୍ତି	-10.2153
▁ଓଡ଼ିଶାରେ	-10.2154
▁ଚାଷୀଙ୍କ	-10.2155
▁ପିଲାର	-10.2156
▁go	-10.2156
ାନୁ	-10.2159
ଖଣ୍ଡ	-10.2162
▁ବିକିବ	-10.2165
▁ନିଦ	-10.2167
▁Argus	-10.2178
▁Insurance	-10.2178
▁YouTube	-10.2178
▁error	-10.2178
▁prote	-10.2178
▁ଦାଖଲ	-10.2178
▁ପଶ୍ଚିମ	-10.2178
▁Text	-10.2178
▁ପ୍ରଯୁକ୍ତି	-10.2178
▁ଗୋଲାପି	-10.2178
▁ପିଲାପିଲି	-10.2178
▁ମିଲିୟନ	-10.2179
▁bug	-10.2179
▁ପଚରା	-10.2179
▁ଗର୍ଭବତୀ	-10.2179
▁listbox	-10.2179
▁ଦାୟୀ	-10.218
▁ଭୋଗ	-10.2181
▁ନ୍ୟାୟ	-10.2183
▁ପଡୁଛି	-10.2187
▁ମିଡିଆ	-10.219
▁ରହିଥାଏ	-10.2198
▁ପ୍ରାଣ	-10.2202
▁କରିହେବ	-10.2206
▁ପଦ୍ମ	-10.2208
▁ଅଫିସର	-10.2209
▁ଛୁଆ	-10.2218
ିଙ୍ଗ	-10.2227
▁ତାହାଙ୍କର	-10.223
▁ରାଗି	-10.2245
▁ଡାକ୍ତରଙ୍କ	-10.225
▁ୟହ	-10.225
▁ଫୋର	-10.2256
▁ସେୟାର	-10.2301
*	-10.2316
▁Read	-10.2322
▁କୋଡ	-10.2334
▁ଗଣେଶ	-10.2342
ଲ୍ୟାଣ୍ଡ	-10.2346
▁Tokio	-10.2348
▁ବୈଜ୍ଞାନିକ	-10.2348
▁ସମ୍ମୁଖୀନ	-10.2348
▁ବାବଦରେ	-10.2348
▁ମଲ୍ଲିକ	-10.2348
▁ଫଳାଫଳ	-10.2348
▁ଶିକ୍ଷକ	-10.2348
▁୧୯୮୨	-10.2348
▁ଧକ୍କା	-10.2348
▁ସଙ୍କେତ	-10.2348
▁କଲ୍ୟାଣ	-10.2348
▁ଭଣ୍ଡାର	-10.2348
▁କାନ୍ଦି	-10.235
▁ଅର୍ଥାତ	-10.2352
▁ପଢିଥିଲି	-10.2353
...........	-10.2353
▁2009	-10.2354
▁org	-10.2355
▁call	-10.2356
▁କରାଯାଉଛି	-10.2356
▁କରାଯାଇଥାଏ	-10.2357
ମୁକ୍ତ	-10.2363
▁ଉଠିଲା	-10.2377
ଥ୍	-10.2378
▁କରୁଥିଲା	-10.2381
▁Rs	-10.2403
ph	-10.2421
▁ପରମ	-10.2426
ଖେଳିବା	-10.2428
▁ସ୍କୁଲ୍	-10.2432
▁ଚିହ୍ନିତ	-10.2437
▁ରଚନ	-10.244
ଲ୍ଲା	-10.246
ରିବ	-10.2469
ସହ	-10.2478
▁ନାହି	-10.2482
ୁଲା	-10.2489
▁04:	-10.2492
▁URL	-10.252
▁tooltip	-10.252
▁ଅପରିବର୍ତ୍ତିତ	-10.252
▁ରତ୍ନଭଣ୍ଡାର	-10.252
▁ଧୂସର	-10.252
▁today	-10.252
▁ଚେହେରା	-10.252
▁ଦୁର୍ବଳ	-10.252
▁ସ୍ମରଣ	-10.252
▁୧୯୫୨	-10.252
view	-10.252
▁କୃମି	-10.2521
▁ଦଇେ	-10.2521
emains	-10.2521
ୁଳିଆ	-10.2521
କୋହଲି	-10.2522
▁ପାଉଲଙ୍କ	-10.2522
▁ପଚାରନ୍ତୁ	-10.2524
▁ମହାଭାରତ	-10.2524
▁ରୁଜୁ	-10.2525
cted	-10.2532
▁been	-10.2532
▁ଉପାୟରେ	-10.2538
▁ଘଟିଛି	-10.2539
▁ଆମେରିକାରେ	-10.2545
▁ପ୍ରାଣୀ	-10.2545
ତ୍ତ୍ୱ	-10.2545
▁ନାମକ	-10.2549
▁ଦତ୍ତ	-10.2552
ୱାର୍ଡ	-10.2553
ାଧିକାର	-10.256
▁ମନ୍ତ୍ରୀଙ୍କ	-10.2562
45	-10.2572
୍ୟାପ	-10.2579
6]	-10.2581
▁ପ୍ରତିଛବିକୁ	-10.2591
୮୬	-10.2595
▁ହଉଛି	-10.2599
▁ଫାଟି	-10.2599
▁ଦାବିଦ	-10.2606
Fi	-10.2609
▁ହୁ	-10.2612
▁କୋଉଠି	-10.2623
▁କାଢ଼ି	-10.2626
ୁଥିଲା	-10.2631
▁ମିଶି	-10.2638
▁11,	-10.2643
▁ପଛର	-10.2659
ଦାୟକ	-10.2664
▁ନାରୀ	-10.2669
▁ଯୁକ୍ତି	-10.2671
NS	-10.2671
ମନ୍ତ୍ରୀ	-10.2675
rious	-10.2683
32	-10.2683
ିକରଣ	-10.2685
କିଏ	-10.2687
aunched	-10.2696
▁Reporter	-10.2696
▁ଅନ୍ତର୍ଭୁକ୍ତ	-10.2696
▁ବ୍ଯବହାର	-10.2696
▁ସ୍ତନ୍ୟପାନ	-10.2696
▁ପ୍ରାର୍ଥନା	-10.2696
▁ବୈଠକ	-10.2696
Meeting	-10.2696
▁ଏଯାଏଁ	-10.2696
▁ଛଅଟି	-10.2696
▁ଅଗ୍ନି	-10.2696
▁ବୈଧିକରଣ	-10.2696
▁ୟେବେ	-10.2696
▁With	-10.2698
▁UA	-10.2698
ାଇଁ	-10.2699
▁କୋର୍ଟ	-10.2702
▁ବ୍ୟସ୍ତ	-10.2704
ସାରିଛନ୍ତି	-10.2705
▁ଅପରାଜିତା	-10.2706
▁ସିଂ	-10.2707
▁ଦେଉଛି	-10.2711
▁ଫେରିଲୁ	-10.2713
▁ବାଧ୍ୟ	-10.2723
▁ରାୟ	-10.2728
▁ମାର୍କ	-10.2731
▁ଆଲୋକ	-10.2731
▁ହେଇଯିବ	-10.2732
▁None	-10.2738
ବସ୍ଥା	-10.2739
ଗଢ଼	-10.2742
▁ଜେନା	-10.2742
▁ତମର	-10.2763
▁ଗୋଟି	-10.2773
କାନ୍ତ	-10.278
ତୁମ	-10.2782
▁ଗାଲ	-10.2804
▁ପ୍ରକାଶନ	-10.2804
▁ଉଠାଇ	-10.2806
ED	-10.2812
▁ପୋଛି	-10.2813
▁ଦେଖୁ	-10.2817
▁ରଖ	-10.2819
▁ଏହ	-10.2833
▁ଶୋଇ	-10.2833
▁ପଚାର	-10.2833
▁ହୃଦ	-10.2862
WEB	-10.2862
▁ସମୂହ	-10.2873
ତବେେଳେ	-10.2874
▁Remote	-10.2874
▁ଉଇକିପିଡ଼ିଆ	-10.2874
▁ଟିପ୍ପଣୀ	-10.2874
▁ପ୍ରାରମ୍ଭିକ	-10.2874
▁ଭୂବନେଶ୍ୱର	-10.2874
▁ସଂରକ୍ଷିତ	-10.2874
▁ଆଗେଇଲା	-10.2874
ଆଚାର୍ଯ୍ୟ	-10.2874
▁ଡାହାଣ	-10.2874
ଘଂଟା	-10.2875
▁ଗାଁରେ	-10.2878
▁୨୦୧୫	-10.2879
▁ଦାଣ୍ଡ	-10.2881
▁ଛିନ୍ନ	-10.2881
▁ସତର୍କ	-10.2882
▁Be	-10.2883
▁ଅନୁମାନ	-10.2884
▁ନାମକରଣ	-10.2887
ଦଳ	-10.289
ର୍ପଣ	-10.289
▁ଅଚଳ	-10.2912
▁ପରମେଶ୍ୱରଙ୍କ	-10.2918
▁ଉଚ୍ଚତା	-10.2919
▁କ୍ରି	-10.292
▁ବୁଝିବ	-10.2925
ଧାରଣ	-10.2951
▁ଖୋଜି	-10.2978
ଭେଦ	-10.2988
07	-10.2993
▁ସଂପର୍କରେ	-10.3004
▁ଦେଖୁଛ	-10.3018
▁ସାହସ	-10.3038
ପୂର୍ବ	-10.3052
▁ମିଶନ	-10.3053
▁ଈର୍ଷା	-10.3056
▁ପାଖାପାଖି	-10.3056
▁ପୂର୍ବାନୁମାନ	-10.3056
▁ଲାଇବ୍ରେରୀ	-10.3056
▁୧୯୬୨	-10.3056
▁ଅଟନ୍ତି	-10.3056
▁ପ୍ରସନ୍ନ	-10.3057
▁ବିକ୍ରି	-10.3057
▁୧୯୫୭	-10.3058
▁date	-10.3058
▁ଧାର	-10.3058
▁ଲିଟର	-10.3058
▁ଡାକଘର	-10.3059
▁ଫାର୍ମ	-10.306
▁2019	-10.3061
▁ଅଧିକାଂଶ	-10.3063
Not	-10.3067
▁ମେନୁ	-10.3072
ଏଠି	-10.3074
▁ମହିଳାମାନେ	-10.3075
96	-10.3078
▁ମନୋ	-10.308
ାହିଦା	-10.3091
▁ପଡିଲେ	-10.3095
▁ଖୋଲିକି	-10.3096
▁୫୩	-10.3097
▁ବର୍ଗ	-10.31
▁Tra	-10.3102
▁ଥାନାରେ	-10.3102
▁ଡଃ	-10.3111
ସ୍ତ୍ରୀ	-10.3112
▁ଓସାର	-10.3115
ଘାତ	-10.3131
ari	-10.3139
▁କଳାରେ	-10.3159
▁Mar	-10.3162
ock	-10.318
▁ବୈଧ	-10.3188
▁ପେରୁ	-10.319
▁ବ୍ରାଉଜର	-10.3194
▁ମାନବ	-10.3199
କାହା	-10.3202
▁ଧାରାରେ	-10.3225
·	-10.3241
ପ୍ରାଥମିକ	-10.3241
▁HTML	-10.3241
▁ଏକାଡେମୀ	-10.3241
▁ବ୍ୟତୀତ	-10.3241
▁ମେଡିକାଲ	-10.3241
▁ଚିତ୍କାର	-10.3241
▁menu	-10.3241
▁ପରିବେଶ	-10.3241
▁ସଂସଦ	-10.3241
▁ଆଟାକ୍	-10.3242
▁କଦାପି	-10.3242
▁ପୁଣିଥରେ	-10.3242
ful	-10.3242
▁ସେତିକି	-10.3243
▁ତ୍ୱଚା	-10.3245
▁ଢେ	-10.3246
▁ନିକଟ	-10.3246
ୃଷ୍ଟି	-10.325
ଶୁଙ୍ଘ	-10.3251
▁ବଞ୍ଚିବାକୁ	-10.3254
▁videos	-10.3284
▁ଡ୍ର	-10.3294
▁ଅରୁଣ	-10.33
▁ଗଜା	-10.3301
ଯାଇଥାଏ	-10.3302
▁ବସ୍ତ୍ର	-10.3304
ଫ୍ରୀ	-10.332
ach	-10.3321
▁ଅବସର	-10.3321
ଶିଷ	-10.334
▁ଦୁଃଖି	-10.3359
ଦୂର	-10.3365
ରୋଗ	-10.3367
୨୪	-10.3367
own	-10.3374
ସଂଖ୍ୟ	-10.3388
▁ସ୍ଥାନଗୁଡ଼ିକ	-10.3407
ିଥିଲେ	-10.3412
▁https	-10.3423
▁ଗ୍ରନ୍ଥ	-10.343
▁Office	-10.343
▁କ୍ଷୟକ୍ଷତି	-10.343
▁ଚେତାବନୀ	-10.343
▁ଛାତ୍ରଛାତ୍ରୀ	-10.343
▁ପ୍ରଣାଳୀ	-10.343
▁ପ୍ରଦର୍ଶକ	-10.343
▁ପ୍ରାକୃତିକ	-10.343
▁ଫେବ୍ରୁଆରି	-10.343
▁ଫ୍ୟୁଜ୍	-10.343
▁ବୋହୂ	-10.343
▁ରୋଜଗାର	-10.343
▁ଶକୁନ୍ତଳା	-10.343
▁୧୯୯୧	-10.343
▁ଡିଗ୍ରୀ	-10.343
Start	-10.343
▁ଏଣିକି	-10.343
▁ସାରଣୀ	-10.3437
▁ଭବିଷ୍ୟତ	-10.3437
▁Bo	-10.3438
▁any	-10.344
▁ଗାଡ଼ି	-10.3441
▁On	-10.3442
▁କୁହନ୍ତୁ	-10.3446
▁କରାଯାଉ	-10.3449
▁ରହିଥିବା	-10.3461
▁ତାହାହେଲେ	-10.3462
▁ପାଉଛି	-10.3465
▁ଅବସ୍ଥିତି	-10.3468
▁କରିପାରନ୍ତି	-10.347
▁ବେଶ୍	-10.3483
01	-10.3499
ଗୁଣ	-10.3505
▁ଫୁଟ	-10.3513
ୀଯ	-10.3515
67	-10.3515
୮୮	-10.3515
ଗଁ	-10.3526
▁ମହାନ୍	-10.3527
▁୫୫	-10.3528
▁ପଶି	-10.3543
▁Wi	-10.3545
▁ଚମକି	-10.3572
▁ଫିଲ୍	-10.3575
▁ସ୍ତରରେ	-10.358
.......	-10.3583
▁ବାଜି	-10.3587
▁ଭଗ	-10.359
▁sp	-10.3593
ଶୂ	-10.3605
▁ସାମି	-10.3609
▁ସଂଲଗ୍ନ	-10.3617
▁ସହଯୋଗ	-10.3618
▁ପୁନଃସ୍ଥାପନ	-10.3622
▁ମୌଳିକ	-10.3622
▁ସଂଯୋଜକ	-10.3622
▁କମିଶନ	-10.3622
▁କ୍ୟାମେରା	-10.3622
▁ନାଗରିକ	-10.3622
▁ଗତକାଲି	-10.3622
▁ଅନ୍ତିମ	-10.3623
▁ଲୁଗା	-10.3623
▁ବଦଳାନ୍ତୁ	-10.3624
▁କଭରେଜ	-10.3624
▁Sambad	-10.3625
▁ସମେତ	-10.3626
▁ଛୁଇଁପାରେ	-10.3627
▁ଯୋଡ଼ି	-10.3628
▁କରାଯାଇପାରେ	-10.3629
▁ଗୁପ୍ତ	-10.3631
▁ଯେଉଁଠି	-10.3633
▁ଲେଖିଛନ୍ତି	-10.3634
▁ସର୍ବୋ	-10.3636
ଆଧାର	-10.3639
▁ଦୁଆର	-10.364
ଥାଇ	-10.364
▁2014	-10.3641
▁ନୋଟ୍	-10.3643
▁ଉଠିଲେ	-10.3648
▁ଶାହା	-10.3653
▁ଲାଗିଛି	-10.3658
ବର୍ତ୍ତୀ	-10.3658
▁ନିଶା	-10.3663
ove	-10.3664
00,000	-10.3672
(?)	-10.3675
▁କ୍ଲା	-10.3686
ଢ଼ି	-10.3691
34	-10.3707
54	-10.3721
ଦ୍ଦ	-10.3722
▁ପ୍ରେମିକ	-10.3745
▁୫୧	-10.3759
ପଡା	-10.3774
ଗଲି	-10.3789
▁ହଜ	-10.3795
ē	-10.3818
ଦାମୋଦର	-10.3818
▁Watch	-10.3818
▁woman	-10.3818
▁ଅତ୍ୟଧିକ	-10.3818
▁କୃଷକ	-10.3818
▁ଡାଇନୋସର	-10.3818
▁ଯଥେଷ୍ଟ	-10.3818
▁ସଂଖ୍ଯା	-10.3818
▁ସର୍ବନିମ୍ନ	-10.3818
▁ହିନ୍ଦୁ	-10.3818
▁ହେଲିକାପ୍ଟର	-10.3818
▁୧୯୬୯	-10.3818
▁hours	-10.3818
▁ପରମ୍ପରା	-10.3818
▁ପ୍ରାକଦର୍ଶନ	-10.3818
▁ଗୋଷ୍ଠୀ	-10.3818
▁ଅଗ୍ରସର	-10.3818
▁ଡଲାରରେ	-10.3818
▁ପ୍ରଗ୍ରାମ	-10.3819
▁ସଙ୍କଳନ	-10.3819
▁ଆହରଣ	-10.3819
ମରିୟମ	-10.3819
▁ଏକାକୀ	-10.3819
▁ହାସଲ	-10.3819
0,000	-10.3819
▁ଶିଳ୍ପ	-10.382
▁କାର୍ୟ୍ଯ	-10.3821
▁free	-10.3821
▁Do	-10.3823
▁ମଙ୍ଗଳବାର	-10.3824
▁ବେଶୀ	-10.3825
▁Day	-10.3825
▁ଚୁପ୍	-10.3828
▁ନିଆଁ	-10.383
ବିଶେଷ	-10.3843
ize	-10.3846
▁କରିଦେଇ	-10.3864
▁ଭାବିଲା	-10.3871
▁ହୋଇଯାଏ	-10.3877
▁ମଞ୍ଜିରୁ	-10.3895
▁ବେବି	-10.3896
ରିୟା	-10.3898
ହଉ	-10.3903
▁ବ୍ୟକ୍ତିଙ୍କ	-10.3906
▁ଶବ	-10.3927
▁ଯୀଶୁଙ୍କୁ	-10.3927
cal	-10.3929
9]	-10.3936
▁ଲାଜ	-10.3945
୫୦୦	-10.3945
ଚନା	-10.3948
PL	-10.3967
▁ଆମ୍ଭମାନଙ୍କ	-10.3969
▁ବିଦାୟ	-10.3977
bit	-10.3993
ୱାଇ	-10.3996
▁ଚାପ	-10.3996
▁ପଞ୍ଚ	-10.4013
▁Nepomuk	-10.4018
▁ପରିବହନ	-10.4018
▁ଆକଳନ	-10.4019
▁ପର୍ଯ୍ୟାୟ	-10.4019
▁କଳ୍ପନା	-10.4019
▁ନିର୍ଭର	-10.4019
▁ତ୍ୟାଗ	-10.4019
▁ପୂର୍ବତନ	-10.4024
▁Reading	-10.4025
▁ଗରିବ	-10.4027
ିକ୍ଷଣ	-10.403
▁ହେଇଗଲା	-10.4032
କେଶ	-10.4039
▁ହେବେନାହିଁ	-10.4047
Read	-10.4049
ଦକ୍ଷିଣ	-10.4051
ପ୍ରସାଦ	-10.4051
▁ବନ୍ଧୁତା	-10.4061
▁ଦୌଡ	-10.407
▁ପ୍ରାର୍ଥୀ	-10.4081
ଯାହା	-10.4087
ସ୍ଥିତ	-10.4104
▁named	-10.4106
▁ମଧ୍ଯରୁ	-10.4137
୪୦	-10.4157
▁Vi	-10.4159
େସନ	-10.4164
ଭୂମି	-10.4166
ile	-10.4172
▁video	-10.4176
▁ଚଳାଇବ	-10.4203
org	-10.421
py	-10.4216
♡	-10.4222
$	-10.4222
▁Facebook	-10.4223
▁କର୍ଫ୍ୟୁ	-10.4223
▁ଏପର୍ଯ୍ୟନ୍ତ	-10.4223
▁କୁଆଡ଼େ	-10.4223
▁ରାହୁଲ	-10.4223
▁ୟାହାକି	-10.4223
▁POP	-10.4223
▁ଚାଉଳ	-10.4223
▁ସ୍ୱୟଂଚାଳିତ	-10.4223
▁2256	-10.4223
▁ମମତା	-10.4224
▁କେହିନୁହେଁ	-10.4224
▁like	-10.4224
▁ବୋହୁ	-10.4227
▁ପଢୁ	-10.4229
▁ଦୃଶ୍ୟମାନ	-10.4231
େକ୍ଟର	-10.4233
▁ଧାଡି	-10.4236
▁ଉପହାର	-10.4239
▁we	-10.425
▁ରହିଥିଲା	-10.425
▁Of	-10.4254
▁ପଢିବା	-10.4255
▁ତହୁଁ	-10.4256
▁ମୋହନ	-10.4257
▁ଚାହିଁଲେ	-10.426
ତନ୍ତ୍ର	-10.4262
▁ବିନାଶ	-10.4262
▁ଆସିଛନ୍ତି	-10.4262
70	-10.4269
ଦୁଆ	-10.427
▁ତୁମ୍ଭେମାନେ	-10.4279
28	-10.4283
RO	-10.4286
▁କେବେହେଲେ	-10.4288
ree	-10.4292
▁Best	-10.4294
▁ବାହାରିଲା	-10.4301
▁କରିଅଛି	-10.4302
▁ନକଲି	-10.4302
▁ସୂଚୀ	-10.4312
AS	-10.4341
IST	-10.4344
ାଞ୍ଚଳ	-10.436
▁ଅଫର	-10.4366
ୟାମ	-10.4373
ୟିବ	-10.4384
ଟ୍‍	-10.4389
▁ପତ୍	-10.4395
କ୍ରାନ୍ତ	-10.4402
ବତୀ	-10.4405
▁ସାତ	-10.4413
▁Australia	-10.4431
▁Konqueror	-10.4431
▁Music	-10.4431
▁child	-10.4431
▁subha	-10.4431
▁ଅତିକମରେ	-10.4431
▁ଗଭୀର	-10.4431
▁ବାୟୋପିକ୍	-10.4431
▁ବିଶ୍ୱବିଦ୍ୟାଳୟ	-10.4431
▁ଇଚ୍ଛାରୂପଣ	-10.4431
▁ବେହେରା	-10.4431
▁ଦବାନ୍ତୁ	-10.4431
▁ସାମ୍ନାକୁ	-10.4431
▁base	-10.4431
▁କହେି	-10.4432
▁ସ୍ୱତନ୍ତ୍ର	-10.4432
▁ପଦାର୍ଥ	-10.4433
▁ଉଦ୍ଧାର	-10.4434
▁ଜେଜେ	-10.4437
▁ଦେଖାଯାଇଛି	-10.444
▁କଳାକାର	-10.4441
▁ଗୁରୁବାର	-10.4443
▁page	-10.4443
▁ଟ୍ରେନ	-10.4443
▁କରାଯିବା	-10.4444
▁ସହିଦ	-10.4444
▁ଭାଗ୍ୟ	-10.4446
▁ଚାର୍ଟ	-10.4448
▁ନୁହଁନ୍ତି	-10.4454
▁ପାଳି	-10.4455
୧୯୯୯	-10.4459
▁ପ୍ରଦେଶ	-10.4462
▁ଛାତ୍ରୀ	-10.4464
▁ସଲମାନ	-10.447
୩୭	-10.448
{	-10.448
▁ବର୍ଣ୍ଣ	-10.4486
ପାରୁଛି	-10.4491
▁ଏଣୁ	-10.4498
▁ଚୂ	-10.4504
ood	-10.4507
▁ଭିତ୍ତି	-10.4522
40	-10.4522
ଦିଆ	-10.4523
vt	-10.4571
▁ମାତ୍ରା	-10.4576
▁ରାଜାଙ୍କ	-10.4577
▁ଉକ୍ତ	-10.4583
▁App	-10.4611
ଧୁ	-10.4616
OO	-10.4627
▁ଭଉଣୀ	-10.4639
▁ଇଶ୍ରାୟେଲ	-10.4642
ଐ	-10.4644
GNOME	-10.4644
▁Number	-10.4644
▁ଅଫଲାଇନ	-10.4644
▁କଥାବାର୍ତ୍ତା	-10.4644
▁ଜାଗ୍ରତ	-10.4644
▁ପଞ୍ଚାୟତ	-10.4644
▁ପରସ୍ପର	-10.4644
▁ଅସମ୍ଭବ	-10.4644
▁ନିର୍ଦେଶକ	-10.4644
▁ପରିବର୍ତ୍ତିତ	-10.4644
▁କୁହାଯାଇଛି	-10.4644
▁ଭିନ୍ନକ୍ଷମ	-10.4644
୧୯୭୭	-10.4644
▁Temp	-10.4644
ସ୍ପର୍ଶ	-10.4644
▁ଅଘଟଣ	-10.4644
▁ଅସ୍ତ୍ର	-10.4644
▁ଯେଉଁଥିରେ	-10.4644
▁ନରେନ୍ଦ୍ର	-10.4644
▁ଯୁକ୍ତିଯୁକ୍ତ	-10.4645
▁ଅନୁପାତ	-10.4646
▁ବଢୁଛି	-10.4647
▁ମେସିନ	-10.4652
▁ମାଉସ	-10.4652
▁Ex	-10.4656
▁ରଖିଛନ୍ତି	-10.466
ill	-10.4661
▁ସେଣ୍ଟର	-10.4665
▁ଉପଭୋକ୍ତାମାନଙ୍କ	-10.467
▁କରିନଥିଲ	-10.4671
tica	-10.468
▁ପହଞ୍ଚ	-10.4683
▁ଧାରଣା	-10.469
62	-10.4692
▁ପକ୍ଷୀ	-10.471
▁ଷ୍ଟେସନରେ	-10.4716
▁ଦୟା	-10.4716
nic	-10.4716
▁ରୁହ	-10.4734
ଡିଓ	-10.4734
▁ଅଟକି	-10.4735
▁କାଢ଼ିବା	-10.4735
▁ଚାହୁଁଛ	-10.4736
ୂର୍ତ୍ତ	-10.4742
ନ୍‍	-10.4771
▁ଗଣନା	-10.4791
ble	-10.4796
ଭାବେ	-10.4816
▁ଉନ୍ନତି	-10.4818
ାଧୀନ	-10.4821
▁vi	-10.4855
▁ସ୍ୱୟଂ	-10.4861
Description	-10.4861
▁ଅଷ୍ଟ୍ରେଲୀୟ	-10.4861
▁ଆଶ୍ଚର୍ୟ୍ଯ	-10.4861
▁ଦୁଷ୍କର୍ମ	-10.4861
▁ପ୍ରିମିୟମ	-10.4861
▁ଭୀଷ୍ମ	-10.4861
▁ସନ୍ଦେହ	-10.4861
ਾ	-10.4861
ହାଁ	-10.4861
▁ନାୟିକା	-10.4861
▁ଚଲାନ୍ତୁ	-10.4861
▁ବିଭୁ	-10.4863
ପୂର୍ଣ	-10.4863
▁ଗ୍ରେନ	-10.4863
ଣ୍ଟ୍ରାକ	-10.4864
▁ସ୍ୱଚ୍ଛ	-10.4867
▁ବିଜୁଳି	-10.4868
▁ଗର୍ବ	-10.4874
▁କୁଞ୍ଜ	-10.4876
▁Mid	-10.4878
▁[17	-10.4883
2000	-10.4884
▁ବୀର	-10.489
▁ଅନନ୍ତ	-10.4899
▁ଦାଉଦଙ୍କ	-10.4907
▁ସତ୍ୟତା	-10.4909
▁ହେଃ	-10.4911
▁Gi	-10.4929
▁ପାଳିବ	-10.4951
▁ଦୋ	-10.4984
▁ଦିଆଯାଇ	-10.5008
▁କାଣ୍ଡ	-10.5018
▁ଜଳି	-10.5035
୪୮	-10.5066
▁Bengal	-10.5083
▁process	-10.5083
▁ବିଶ୍ଳେଷଣ	-10.5083
graph	-10.5083
▁କେତୋଟି	-10.5083
▁ହତ୍ୟାକାଣ୍ଡ	-10.5083
▁ପ୍ରସିଦ୍ଧ	-10.5083
▁ବିସ୍ତୃତ	-10.5083
▁ଶନିବାର	-10.5083
ଵୁ	-10.5083
▁ନିର୍ମିତ	-10.5083
▁ମୁଦ୍ରା	-10.5083
▁ସୋସିଆଲ	-10.5083
▁ନିବେଶ	-10.5083
ຨ	-10.5084
▁ପ୍ରତୀକ	-10.5084
▁ବ୍ଯକ୍ତିଗତ	-10.5084
ବିହାରୀ	-10.5085
▁ଟୋକା	-10.5085
▁କବେେ	-10.5085
▁Free	-10.5086
▁ସାଧୁ	-10.5087
▁Nation	-10.5088
▁ଖରା	-10.5088
▁ମହଙ୍ଗା	-10.5088
▁ବୋର୍ଡ	-10.5094
▁ଯୋଗକରନ୍ତୁ	-10.5095
▁ବେଶି	-10.5096
cover	-10.5097
urious	-10.51
▁ଘଡ଼ି	-10.5102
▁ଶିଖି	-10.5103
▁କହିଥିଲି	-10.5111
▁ଶାନ୍ତ	-10.5114
▁ଖଣି	-10.5115
▁ପିଲାଟି	-10.5117
ଦେବରାଜ	-10.5132
▁ହେଁ	-10.5136
▁ଉତ୍ପାଦନ	-10.5146
▁ସନ୍ଦେଶଗୁଡ଼ିକ	-10.5178
୮୦	-10.5195
▁ପ୍ରକାଶକ	-10.5213
▁ପୋଲିସ୍	-10.5232
୦୩	-10.5239
▁୨୦୦୦	-10.5241
▁glo	-10.5256
▁ବାଘ	-10.5274
mgiri	-10.531
ଧୂମପାନ	-10.531
▁ଅନୁଷ୍ଠାନ	-10.531
▁ଆୟୋଜିତ	-10.531
▁ବୀଥିକା	-10.531
▁ଭ୍ରମଣ	-10.531
▁ଯିଶାଇୟ	-10.531
▁ଶ୍ରୀନିବାସ	-10.531
▁From	-10.531
▁ଲଜ୍ଜା	-10.531
▁ଗୁହାରି	-10.5311
box	-10.5311
▁ବୁଣିବା	-10.5311
▁ସମଗ୍ର	-10.5311
tarc	-10.5311
▁ମନୋହର	-10.5311
▁ହିରୋ	-10.5312
▁ମାଣିକ	-10.5312
▁ଦେବାଶିଷ	-10.5312
▁whose	-10.5314
▁2017	-10.5316
▁ଇଣ୍ଟର	-10.5317
▁ଭୁଲିପାରେ	-10.532
▁ଉଠୁଛି	-10.5322
▁ଦିଅନ୍ତି	-10.5324
ାଟିକାର	-10.5326
ave	-10.5327
ଫୁଟା	-10.5327
▁ଜିଓ	-10.5328
▁ଗୋଡ଼	-10.5333
ାଂଶ	-10.5342
58	-10.5347
▁ପିଲାମାନେ	-10.5348
▁ଆରାମ	-10.5355
ଯାଇଥିଲା	-10.5382
Next	-10.5402
ର୍ଷ	-10.5487
nosaur	-10.5491
▁ଫାଇଲଗୁଡ଼ିକ	-10.5519
ଊ	-10.5543
▁ଖ୍ରୀଷ୍ଟ	-10.5543
▁ଗ୍ଲେଜ୍	-10.5543
▁ସଚେତନ	-10.5543
▁ଆଚରଣ	-10.5543
▁ଢଙ୍ଗରେ	-10.5543
▁ଆଗାମୀ	-10.5543
▁ଉର୍ଦ୍ଧ	-10.5543
▁ଲୂକ	-10.5543
▁link	-10.5543
▁ପ୍ରେରକ	-10.5543
▁ଜର୍ମାନ	-10.5543
▁ଶ୍ରମିକ	-10.5543
୧୯୯୪	-10.5543
▁ବ୍ୟାପକ	-10.5543
▁[...]	-10.5543
▁ସକ୍ଷମ	-10.5543
▁ଗର୍ଭ	-10.5544
▁08:	-10.5545
▁ପୂର୍ବବର୍ତ୍ତୀ	-10.5545
ଥାଇପାରେ	-10.5546
▁ଖାଉଛନ୍ତି	-10.5547
ପୀଠ	-10.5547
-1/	-10.5552
other	-10.5553
▁app	-10.5553
ବୃତ୍ତି	-10.5554
▁କହିଥାନ୍ତି	-10.5559
୍ୱାଇନ୍	-10.5562
▁ଲକ୍ଷ୍ଯ	-10.5565
▁ମ୍ୟାଚ୍	-10.5565
▁ହେଲ୍	-10.5565
▁ଧିରେ	-10.5566
▁ସାହସୀ	-10.5568
▁May	-10.5568
▁Bi	-10.5568
▁ହଜମ	-10.5569
▁ଲମ୍ବା	-10.557
▁?’’	-10.5575
ସ୍ମିତ	-10.5581
▁ବଂଚି	-10.5586
cation	-10.5599
▁ସାଜି	-10.5602
▁୯ଟା	-10.5607
800	-10.5619
▁ପାରିବେନି	-10.5633
ୁଥିଲେ	-10.5635
▁ଯୋଗାଇ	-10.5642
▁ଖୋଜିବା	-10.5658
▁ଦେବୁ	-10.566
▁ଛେ	-10.5674
▁ଟେକ	-10.5697
୨୮	-10.5712
ary	-10.5717
ବାସୀମାନେ	-10.5742
▁tab	-10.5745
36	-10.5753
▁ମଣ୍ଡଳ	-10.5763
site	-10.5765
ଙ୍ଘ	-10.5768
▁ସାକ୍ଷାତ	-10.5777
▁ଜରୁରୀ	-10.5777
ଜନକପୁରୀ	-10.5781
▁34-28-32	-10.5781
▁Economic	-10.5781
▁Science	-10.5781
▁September	-10.5781
▁number	-10.5781
▁ଅଣାଯାଇଅଛି	-10.5781
▁ଅନୁପୂରକ	-10.5781
▁ଗମ୍ଭୀର	-10.5781
▁ଦୁହେଁ	-10.5781
▁ପ୍ରୋତ୍ସାହ	-10.5781
▁ବିଜ୍ଞାପନ	-10.5781
▁ମନୁଷ୍ୟ	-10.5781
▁ସକ୍ରିଯ	-10.5781
▁କାର୍ତ୍ତିକ	-10.5781
▁ସିଂହାସନ	-10.5781
▁ବିଦ୍ୟୁତ	-10.5781
▁ସାମାନ୍ୟ	-10.5781
▁ଅଭିନୟ	-10.5781
▁ପାଣ୍ଡୁ	-10.5781
ହିନ୍ଦୀ	-10.5781
▁ଡିଜିଟାଲ	-10.5782
▁କାରବାର	-10.5788
ମ୍ପା	-10.5803
ୁଝିଲେ	-10.5805
▁ଡିଜି	-10.5808
▁ଇଛା	-10.5816
▁କହୁଛୁ	-10.5816
ଆର୍‍	-10.5819
▁ବିଚିତ୍ର	-10.5832
▁ପ୍ରାୟେ	-10.5851
59	-10.5857
▁TN	-10.5857
▁ଆଣିବା	-10.5858
▁ଜାଣିବେ	-10.5893
ଯେଉଁ	-10.5896
ଆଲୋଚନା	-10.5897
▁Man	-10.5913
ଉଠି	-10.5915
hat	-10.6011
▁ଗ୍ଭ	-10.6016
▁୧୦୦୦	-10.6016
ଚ୍ଛେଦ	-10.6024
▁ଲୀନ	-10.6025
▁ସ୍ମାର୍ଟ	-10.6025
board	-10.6025
ī	-10.6025
▁"{0}"	-10.6025
▁ଆନ୍ଦୋଳନ	-10.6025
▁ଦୃଶ୍ଯ	-10.6025
▁ପେଟ୍ରୋଲ	-10.6025
▁ବାଣିଜ୍ୟ	-10.6025
▁ରିହାତି	-10.6025
▁Center	-10.6025
Select	-10.6025
source	-10.6025
▁ସୁଦାମା	-10.6025
▁ଲୋକସଭା	-10.6025
▁ଭଲପାଏ	-10.6025
▁code	-10.6025
▁ଭରସା	-10.6026
▁ଅସହାୟ	-10.6026
ାମସଙ୍ଗ	-10.6026
▁ଦାମଙ୍କ	-10.6027
▁ଅସ୍ଥି	-10.6028
▁ଯାତ୍ରୀ	-10.6029
▁called	-10.6031
▁ଟାଣି	-10.6031
▁ସଂଗେ	-10.6032
ସେକେଣ୍ଡ	-10.6034
▁ରୋଡ୍	-10.6034
▁ଅନ୍ତର୍ଗତ	-10.6035
▁ଗ୍ୟାସ	-10.6038
▁ପ୍ରଭୁଙ୍କର	-10.6042
▁ଛାଡ଼ିବା	-10.6047
ଦୂତଙ୍କୁ	-10.6053
ଆଡେ	-10.6056
▁୩୦୦	-10.6057
▁ପଡ଼	-10.6057
▁ହବୋ	-10.6062
▁ଉଠିବା	-10.6067
୩୨	-10.6067
ନ୍ୟାସ	-10.6069
କୀଟ	-10.6089
ଦିଆଯାଇଥିଲା	-10.6094
▁କେଉଁମାନେ	-10.6111
ଚନ୍ଦ୍ର	-10.6163
▁53	-10.6184
ash	-10.621
56	-10.6218
▁୨୨	-10.6238
ସାବାସ	-10.6243
▁ମୋହର	-10.6261
ିବେନି	-10.6269
oogle	-10.6273
▁Lifestyle	-10.6275
▁problem	-10.6275
▁variant	-10.6275
▁weekday	-10.6275
▁ଅନୁଲଗ୍ନ	-10.6275
▁ଚ୍ୟାନେଲ	-10.6275
▁ପର୍ୟ୍ଯନ୍ତ	-10.6275
▁ପୃଥକ	-10.6275
▁ବିନ୍ଯାସ	-10.6275
▁ବିସ୍ଫୋରଣ	-10.6275
▁ସଶକ୍ତିକରଣ	-10.6275
▁କାରଖାନା	-10.6275
▁ବାର୍ଷିକ	-10.6275
▁ଇନ୍ଦ୍ରଙ୍କୁ	-10.6275
▁words	-10.6275
▁ବିରବଲ	-10.6275
Phone	-10.6275
▁ପ୍ରତିଷ୍ଠା	-10.6275
▁ସୁରଭି	-10.6276
▁ସଂସ୍କାର	-10.6276
▁ଧାଡ଼ି	-10.6276
ମହାଶୟ	-10.6276
▁ଗର୍ଭସ୍ଥ	-10.6276
▁ସେପଟେ	-10.6277
▁ବଞ୍ଚାଇ	-10.6277
▁State	-10.6277
▁ଏତଲା	-10.6277
▁plain	-10.6279
▁ଜିଲ୍ଲାପାଳ	-10.628
▁ଟେଷ୍ଟ	-10.6282
▁ବୃକ୍ଷ	-10.6282
▁ଦାତା	-10.6285
▁କୁକୁର	-10.6286
▁More	-10.6288
▁ଯାଉଥିବା	-10.629
ଲଙ୍କା	-10.6291
74	-10.6292
ଭୁତ	-10.6293
▁ପ୍ରସ୍ଥାନ	-10.6293
▁ବାତ୍ୟା	-10.6298
▁ବିରାଟ	-10.6298
▁ଏନ୍‍	-10.63
▁ShortName	-10.6303
/~	-10.6303
▁ମୁଦି	-10.6305
▁କହୁଥିଲା	-10.631
87	-10.6312
ପୁର୍ଣ୍ଣ	-10.6313
ାଢୀ	-10.6327
▁ସାହି	-10.6336
ଯାଇଥିଲେ	-10.634
ତମେ	-10.6341
▁ମନୋଜ	-10.636
08	-10.637
୧୬	-10.6378
ନିଶ୍ଚୟ	-10.6414
ଯାଇପାରିବ	-10.6422
▁ବିରକ୍ତ	-10.6435
ବୋଧ	-10.6444
▁ଛାଡିଦେ	-10.6457
26	-10.6465
ଦୁର୍	-10.6466
05	-10.6485
▁ପଢା	-10.6501
୯୫	-10.6515
▁ମ୍ୟାଚ	-10.6523
▁୩୯	-10.6523
▁03:	-10.6531
▁ଅଂଶଗ୍ରହଣ	-10.6531
ସଲାକମାଲନ	-10.6531
▁credit	-10.6531
▁ଗ୍ୟାଲକ୍ସୀ	-10.6531
▁ଦିଗବାରେଣି	-10.6531
▁ପରୀକ୍ଷଣ	-10.6531
▁ମୂଖ୍ୟ	-10.6531
▁ରାଷ୍ଟ୍ରୀୟ	-10.6531
▁ଲକ୍ଷ୍ମଣ	-10.6531
▁ଶୁକ୍ରବାର	-10.6531
▁ହସ୍ପିଟାଲ	-10.6531
example	-10.6531
▁font	-10.6531
▁ଖାଦ୍ଯ	-10.6531
▁ସୋମବାର	-10.6531
▁ସଂକ୍ରମଣ	-10.6531
▁ଅତିକ୍ରମ	-10.6532
▁ଦର୍ଶାଇବା	-10.6532
ବର୍ତୀ	-10.6532
▁ନୀରବ	-10.6532
▁ବୁଝୁ	-10.6532
▁3.30	-10.6532
▁୬ଟାରୁ	-10.6532
▁କଟାକ୍ଷ	-10.6532
▁ସଭ୍ୟ	-10.6533
▁ଜବତ	-10.6533
▁without	-10.6533
▁ଆଇଲ୍ୟାଣ୍ଡ	-10.6534
▁୨୦୧୭	-10.6534
▁ଅଭିଯୁକ୍ତ	-10.6534
▁କଠିନ	-10.6535
▁ସଭାପତି	-10.6535
▁09:	-10.6535
▁)1.	-10.6535
▁ଜବାବ	-10.6536
▁ଗୁରୁତ୍ୱ	-10.6537
▁ଦିଆଯାଏ	-10.6537
▁lab	-10.6538
▁1950	-10.6538
▁ଉପୟୋଗ	-10.6538
▁set	-10.6546
▁ଲେଖିଥିଲେ	-10.6546
▁ପତ୍ରିକା	-10.6547
▁ଛାଡିଦେଲା	-10.6548
▁ଜିତୁ	-10.6549
▁ବୁଣା	-10.6554
▁ହୋଃ	-10.6555
▁Your	-10.6556
27	-10.6563
▁ଲୁଟ	-10.6563
▁ସତେଜ	-10.6565
▁ଆଧାରିତ	-10.6573
▁ପରିଣତ	-10.6576
▁୨୮	-10.6618
୧୭	-10.6629
nti	-10.6649
▁ମାଗୁ	-10.6665
▁ଷ୍ଟେ	-10.6668
▁ମାରିଲା	-10.6671
▁ବିଶ୍ୱକପ୍	-10.6677
▁ପଠନ	-10.6687
୯ଟି	-10.6709
ାଉଛି	-10.6713
▁୪୫	-10.6733
▁ଧନୁ	-10.679
▁ସମର୍ପ	-10.6791
ଭୁକ୍ତ	-10.6793
ଔ	-10.6795
▁ଉପକୂଳ	-10.6795
▁ଚଳଚ୍ଚିତ୍ର	-10.6795
▁ମାଲକାନଗିରି	-10.6795
▁ମୁମ୍ବାଇ	-10.6795
▁ଯିହୋଶୂୟ	-10.6795
▁under	-10.6795
▁ଅଭିଶାପ	-10.6795
▁ରୋଷେଇ	-10.6795
▁Ltd	-10.6795
▁ସିଞ୍ଚନ	-10.6795
▁ସମାଚାର	-10.6795
▁ବାର୍ତ୍ତା	-10.6795
▁ବିଶାଳ	-10.6795
▁କିମ୍ୱା	-10.6795
▁ପ୍ରକ୍ସି	-10.6795
▁ଗୁରୁତର	-10.6795
▁ସାରାଂଶ	-10.6796
▁ସଞ୍ଚୟ	-10.6796
▁ହୋଟେଲ	-10.6796
▁ଦୁହିଁଙ୍କ	-10.6796
▁ବୀମାଭୁକ୍ତ	-10.6796
▁ସମ୍ଭାଳ	-10.6797
▁get	-10.6797
▁ପାଗଳ	-10.6798
▁ରୁହନ୍ତୁ	-10.6799
▁ଯୋଗଦେବା	-10.6799
▁ଲଗାନ୍ତୁ	-10.68
▁ଆକାଉଣ୍ଟ	-10.68
ସମାଶା	-10.6801
ପରିସ୍ଥ	-10.6802
▁ତାଲିମ	-10.6805
▁ହଜିଯାଇ	-10.6812
▁ପ୍ଲାନ	-10.6814
▁୧୯୦	-10.6816
▁ରାଜପଥ	-10.6823
VO	-10.6827
ସୀଫ	-10.6833
▁ଅମିତ	-10.6834
▁Ep	-10.6835
▁କାଟୁ	-10.6837
▁ପାରିଲେ	-10.6845
▁ରଖିଲେ	-10.6854
▁ଗସ୍ତ	-10.6872
େଇବାକୁ	-10.6876
▁ଲାଇନ	-10.6914
ଆଶ୍ଚର୍ଯ୍ୟ	-10.6961
ଓଡ଼ିଶା	-10.6963
ବହୁତ	-10.6964
ଦିଅନ୍ତୁ	-10.6972
cent	-10.6996
85	-10.6998
▁ଡକାୟ	-10.7016
"&	-10.7027
ବ୍ରତ	-10.7028
▁ଚଢ	-10.703
ଞ	-10.7039
▁ମଞ୍ଜୁ	-10.7061
ଶ୍ରମ	-10.7063
ould	-10.7065
dress	-10.7065
Search	-10.7065
uicide	-10.7065
▁Empathy	-10.7065
▁ଉଦୟଗିରି	-10.7065
▁କ୍ଲିପବୋର୍ଡ	-10.7065
▁କ୍ଷୁଦ୍ର	-10.7065
▁ଟର୍ମିନାଲ	-10.7065
▁ତିନୋଟି	-10.7065
▁ଧାର୍ମିକ	-10.7065
▁ପାର୍ଶ୍ୱପଟି	-10.7065
▁ସମ୍ବଲପୁର	-10.7065
▁ସାଇକେଲ	-10.7065
▁ସ୍ଥାୟୀ	-10.7065
▁ହାଲରାଣଙ୍କ	-10.7065
▁ଅନୁଷ୍ଠିତ	-10.7065
▁ବାର୍ତ୍ତାଳାପ	-10.7065
▁ମୃତ୍ଯୁ	-10.7065
▁ଶିକ୍ଷାର୍ଥୀ	-10.7065
▁ଛାଣକ	-10.7065
ଥାଆନ୍ତି	-10.7065
▁ଅଯଥା	-10.7065
▁ଶୂନ୍ୟ	-10.7065
▁ବିଦ୍ୟାଳୟ	-10.7065
▁ତାମୁଜ	-10.7065
▁ପ୍ରିୟଙ୍କା	-10.7065
▁ନାଲକୋ	-10.7065
▁ଧୋଇ	-10.7065
▁ଢାଳି	-10.7065
▁କୂଳ	-10.7065
▁ବିବିସି	-10.7066
▁very	-10.7066
▁ଉଦ୍ୟୋଗ	-10.7066
▁କାନ୍ଦୁଛ	-10.7068
▁file	-10.7068
▁ପକେଇ	-10.7068
▁ସୂତ୍ର	-10.7072
▁ମୁଭ୍	-10.7074
▁ରଚିତ	-10.7075
▁ସେଟିଙ୍ଗ	-10.7079
▁ସମ୍ବାଦ	-10.7082
▁ରହିଛନ୍ତି	-10.71
▁ପଢିବେ	-10.7102
▁ଅଧୀ	-10.7112
▁ବୋଧେ	-10.7119
▁ଝୁ	-10.712
▁ବାହୁ	-10.7124
29	-10.7198
ଲ୍ଲୋ	-10.7221
ନାରାୟଣ	-10.7247
ତଳେ	-10.725
କାହିଁକି	-10.725
nci	-10.7279
▁ଅନନ୍ତକାଳ	-10.7296
Wikipedia	-10.7343
▁110058	-10.7343
▁license	-10.7343
▁ଅନ୍ତରାପୃଷ୍ଠ	-10.7343
▁ପର୍ଯ୍ୟଟନ	-10.7343
▁ବୋଧହୁଏ	-10.7343
▁ଭୟଭୀତ	-10.7343
▁ସାହାୟ୍ଯ	-10.7343
▁ସ୍ରୁଷ୍ଟି	-10.7343
▁ୱିଜେଟ	-10.7343
▁Bank	-10.7343
▁ନିର୍ଣ୍ଣୟ	-10.7343
▁ପରମପିତା	-10.7343
▁ଏକପ୍ରକାର	-10.7343
RIL	-10.7343
▁ପିଆଜ	-10.7343
▁Jan	-10.7345
▁କ୍ରୋଧ	-10.7345
▁news	-10.7346
▁ସଂପୂର୍ଣ୍ଣ	-10.7348
▁ପରିଶ୍ରମ	-10.7348
▁01:	-10.735
୦୮	-10.735
▁ଏଇଠି	-10.7353
▁ଯ଼	-10.7354
▁ଶିମାନେ	-10.7356
୍ୱାମି	-10.736
▁ସେଇଆ	-10.7365
ବିଧ	-10.7367
▁ଭୋକ	-10.737
▁କେଉଁଠୁ	-10.7373
ାକ୍ଷର	-10.7375
▁ପ୍ରଭାବିତ	-10.7377
▁ଦେଖାନ୍ତୁ	-10.7382
▁ଆରବ	-10.7382
▁ଭାବୁଛି	-10.7383
▁ଧଳା	-10.7387
330	-10.7396
ଦିଗର	-10.7454
ହାୟ	-10.7459
▁ବିଶ୍ୱକପ	-10.7471
▁ଛାଡ଼	-10.7472
ମୁଣ୍ଡ	-10.7475
ଯାଉଥିଲା	-10.7484
▁୮୦୦	-10.7531
88	-10.7548
▁ବ୍ଲ	-10.7584
▁ଆକର୍ଷ	-10.7628
html	-10.7628
▁Hindi	-10.7628
▁column	-10.7628
▁ଆଫ୍ରିକା	-10.7628
▁ଇସ୍ରାଏଲ	-10.7628
▁କର୍ତ୍ତୃପକ୍ଷ	-10.7628
▁ଚ୍ୟାଲେଞ୍ଜ	-10.7628
▁ସ୍ଟୁଡେଣ୍ଟ	-10.7628
▁ହିତାଧିକାରୀ	-10.7628
▁Reply	-10.7628
▁Video	-10.7628
▁ଛତିଶଗଡ	-10.7628
▁ଦୁଃସାହସ	-10.7628
▁ନିଷ୍ପତି	-10.7628
▁ମୁହୂର୍ତ୍ତ	-10.7628
▁ଯନ୍ତ୍ରପାତି	-10.7628
▁ବିଶ୍ରାମ	-10.7628
▁ବିଷ୍ଣୁ	-10.7628
▁should	-10.7628
;{0}	-10.7628
▁ମାନ୍ୟତା	-10.7629
▁ପୋଷଣ	-10.7629
Other	-10.7629
କରିନ୍ଥୀୟ	-10.7629
▁ତେଣେ	-10.7629
help	-10.7629
▁ରଘୁନାଥ	-10.7629
▁Word	-10.7629
▁02:	-10.7629
▁ମେସେଜ	-10.763
▁ଚୁକ୍ତି	-10.763
▁ତୀବ୍ର	-10.763
ocket	-10.7631
▁File	-10.7633
▁Note	-10.7634
▁ରାଜ୍ୟପାଳ	-10.7635
▁ସିରିଜ	-10.7635
▁ଟେଲି	-10.7639
▁[23	-10.7643
▁ରିଲିଜ୍	-10.7644
▁ପୁରଣ	-10.7646
▁କହିସାରି	-10.7646
▁ସଙ୍କଟ	-10.7648
▁କମଳା	-10.766
▁୩୦୦୦	-10.766
▁ଫିଟ	-10.7668
କାଳୀନ	-10.7674
▁ବିକାଶକାରୀ	-10.768
▁ne	-10.7684
▁And	-10.7691
▁ଉଡ	-10.7714
▁ଚଳିବ	-10.7777
▁୩୫୦	-10.7804
▁ଢଳ	-10.7813
▁ଶୈଳ	-10.7836
▁ସାଥି	-10.7842
ଯୀଶୁଙ୍କ	-10.7844
କରୁଅଛି	-10.7847
ସତରେ	-10.7859
୯୯	-10.7903
alway	-10.7921
ଅପ୍ରତ୍ୟାଶିତ	-10.7922
▁two	-10.7922
▁ଅନୁକ୍ରମଣିକା	-10.7922
▁କମ୍ପ୍ୟୁଟର	-10.7922
▁କ୍ଷତିପୂରଣ	-10.7922
▁ପଞ୍ଜିକରଣ	-10.7922
▁ମାଧ୍ଯମ	-10.7922
▁ଲଢେଇ	-10.7922
▁ସଂଘର୍ଷ	-10.7922
▁ଘୃଣା	-10.7923
▁ଯାଜପୁର	-10.7923
▁ରୂପାନ୍ତର	-10.7923
▁ଘାରିଛି	-10.7923
▁ପାହାଡ଼	-10.7923
▁ପୀଡିତ	-10.7923
▁ଦ୍ରବ୍ୟ	-10.7923
▁ବାକ୍ଯ	-10.7923
▁ଦାଦା	-10.7924
▁କମିଟି	-10.7926
List	-10.7927
▁ବିସ୍ତାରିତ	-10.7927
▁2012	-10.793
▁ପ୍ରତ୍ୟକ୍ଷ	-10.7931
▁ଚାହୁଁଥିଲେ	-10.7931
▁ଯାଦୁ	-10.7931
▁ହେକ୍ଟର	-10.7934
▁ଉଷା	-10.7934
mō	-10.7937
lus	-10.7937
\@	-10.794
ଣ୍ଠି	-10.7957
▁ନୋଟ	-10.7962
▁ଡକାୟତ	-10.7978
▁ତହିଁର	-10.7992
37]	-10.7997
▁ଦେଵ	-10.8002
▁ଶୋଇବା	-10.8036
▁ଯିହୂଦୀ	-10.8041
▁କହୁଥିଲ	-10.8148
India	-10.8152
ପ୍ରଭୁ	-10.8158
ପ୍ରକାଶ	-10.8159
▁ଫେସ୍	-10.8159
୯୬	-10.8164
ଷ୍ଟ୍ରି	-10.8171
▁exp	-10.8189
▁ସ୍ମାରକ	-10.8225
▁LDAP	-10.8226
International	-10.8226
youtube	-10.8226
▁Brasero	-10.8226
▁February	-10.8226
▁Manthan	-10.8226
▁ଅତ୍ଯନ୍ତ	-10.8226
▁ଟ୍ରାନସ	-10.8226
▁ଡେସ୍କଟପ	-10.8226
▁ରାୟଗଡା	-10.8226
▁ସ୍ବାସ୍ଥ୍ୟ	-10.8226
▁୧୯୬୭	-10.8226
▁ପରିତ୍ୟାଗ	-10.8226
▁ବର୍ତମାନ	-10.8226
▁ରାଜଧାନୀ	-10.8226
▁ପ୍ରଦତ୍ତ	-10.8226
▁ଭୟାନକ	-10.8226
▁ରୋମୀୟ	-10.8226
▁ବଙ୍ଗଳା	-10.8226
▁ସ୍ୱତନ୍ତ୍ରଚର	-10.8226
▁ଅଜ୍ଞତା	-10.8226
work	-10.8226
▁କମ୍ପାନି	-10.8226
▁ଭତ୍ତା	-10.8226
▁ମାର୍ଗ	-10.8226
▁etc	-10.8227
▁ଲିଖନ	-10.8227
▁ଜାପାନ	-10.8229
▁ଲଞ୍ଚ	-10.8232
▁ବିରତି	-10.8238
▁ଦୁର୍ଗ	-10.824
▁ଗ୍ଭଲି	-10.824
▁ସୁଟିଂ	-10.824
▁ମିଳିଥାଏ	-10.8243
▁ପ୍ରତିଜ୍ଞା	-10.8243
▁ଜନ୍ମଦିନ	-10.8246
▁ନିବାସୀ	-10.8246
ଆଉଥରେ	-10.8248
▁ସମାଲୋଚନା	-10.8249
▁ଓଲଟା	-10.825
▁Or	-10.8262
ପ୍ରେସ୍	-10.829
None	-10.8293
▁ଜାଗ	-10.8311
▁ଭାବୁଥି	-10.8333
ପେଜ	-10.8355
▁ଯାଉଛ	-10.8373
User	-10.8394
ୟୁକ୍ତ	-10.8449
▁ସ୍ନେହ	-10.8516
Calendar	-10.8538
ମାବାସ୍ୟା	-10.8538
ସ୍ତୋତ୍ରମ	-10.8538
▁provide	-10.8538
▁yellow	-10.8538
▁ଅନୁସନ୍ଧାନ	-10.8538
▁ଅନ୍ଯାନ୍ଯ	-10.8538
▁ଅଭିଗମ୍ୟ	-10.8538
▁ଆଶୀର୍ବାଦ	-10.8538
▁ଡିଫଲ୍ଟ	-10.8538
▁ପୁନର୍ଧାରଣ	-10.8538
▁ପ୍ରୋଗ୍ରାମ	-10.8538
▁ଶକ୍ତିଶାଳୀ	-10.8538
▁ସିଲିଣ୍ଡର	-10.8538
▁ଚତୁର୍ଥ	-10.8538
▁ସୁସ୍ମିତା	-10.8538
▁ଦିଶିଲେ	-10.8538
▁ସଙ୍ଗୀତ	-10.8538
UTF	-10.8538
▁ବିଭାଜନ	-10.8538
୧୯୭୩	-10.8538
▁ଘୋଡା	-10.8538
▁ଲାଟିନ	-10.8538
▁ଏକତ୍ରିତ	-10.8538
▁ଧୋନି	-10.8538
▁କୂଅ	-10.8538
Data	-10.8538
▁ଜଟିଳ	-10.8538
▁ବିଦେଶୀ	-10.8538
▁ବିନ୍ଦୁ	-10.8539
▁ସଂଗ୍ରାମ	-10.8539
▁ଗୁଗୁଲ	-10.8539
▁Who	-10.8539
▁done	-10.8539
▁କିଣିଲେ	-10.854
▁ବାଇବଲ	-10.854
▁ସେଥିରୁ	-10.854
▁ତୃଟି	-10.8541
▁ଗାଈ	-10.8542
▁ସୀତା	-10.8544
▁ରଖାଯାଇ	-10.8545
ative	-10.8549
▁ଆସୁଥିବା	-10.8552
▁୫ଜଣ	-10.8552
▁ଯୋଗଦାନ	-10.8553
▁ଆସୁଛନ୍ତି	-10.8554
▁ଯେଉଁଠାରେ	-10.8558
▁ଜଗି	-10.8559
:39	-10.8561
▁ପ୍ରବଳ	-10.8564
▁ହେଇଥିଲେ	-10.8572
evel	-10.8574
୬୬	-10.8578
ସ୍ତରୀୟ	-10.859
ାମ୍ନୀ	-10.8664
ଚିକିତ୍ସ	-10.8665
▁has	-10.8692
Articles	-10.8759
ips	-10.8766
▁pla	-10.8786
▁ଡ଼ାକ	-10.8808
ାଧାର	-10.8811
ଘ୍ର	-10.8812
ଚାଲନ୍ତୁ	-10.8813
ଓଡ଼ିଆ	-10.8815
▁ଭବିଷ୍ୟ	-10.8841
▁ଷ୍ଟେସନ	-10.8849
ୋଲିଟିକ	-10.8861
August	-10.8861
▁License	-10.8861
▁Version	-10.8861
▁Women	-10.8861
▁data	-10.8861
▁information	-10.8861
▁ଗବେଷଣା	-10.8861
▁ଚମତ୍କାର	-10.8861
▁ଚିତ୍ରସଂକେତ	-10.8861
▁ଟାର୍ଗେଟ	-10.8861
▁ନିଷ୍ପାଦନ	-10.8861
▁ମାଓବାଦୀ	-10.8861
▁ସମ୍ପୃକ୍ତ	-10.8861
▁ହିତୋପଦେଶ	-10.8861
▁Trading	-10.8861
▁ସନ୍ତୋଷ	-10.8861
ଶିତିକଣ୍ଠ	-10.8861
▁Price	-10.8861
▁ଚାରିପଟେ	-10.8861
▁ପାକିସ୍ଥାନ	-10.8861
▁ସମୀକ୍ଷା	-10.8861
▁ନିଉରୋ	-10.8861
▁ଜାଗତିକ	-10.8861
▁ରମେଶ	-10.8861
▁ଯମୁନା	-10.8861
ଥାନ୍ତେ	-10.8861
▁kind	-10.8861
▁୦୬୭	-10.8861
sfx	-10.8861
▁ଗୁରୁତ୍ୱପୂର୍ଣ୍ଣ	-10.8861
▁ଗ୍ଲୁକ	-10.8861
▁ମରିବାକୁ	-10.8861
▁ଟିକସ	-10.8861
▁what	-10.8863
▁ଅମଳ	-10.8863
▁ଘୁଞ୍ଚାନ୍ତୁ	-10.8863
▁ଆଡକୁ	-10.8863
▁online	-10.8865
▁ବୈଦ୍ୟ	-10.8865
▁ସେଠାକୁ	-10.8866
▁ତୈଳ	-10.8867
▁ଆଲବମ	-10.8867
▁କଭର୍‍	-10.8868
ବଣ୍ଟନ	-10.8869
▁2010	-10.887
▁ଦେଖାଯାଉଛି	-10.887
▁ଯୋଡା	-10.8871
less	-10.8876
elet	-10.8902
▁ଚାହୁଁଛି	-10.8906
▁ଅଟକାଇ	-10.8927
ବାବାଙ୍କ	-10.8938
ike	-10.8944
▁ରଖୁ	-10.9033
▁ଶିଖିଛ	-10.9066
▁ପ୍ରେସ	-10.9141
▁ଉପଭୋକ୍ତା	-10.9152
ସୂର୍ଯ୍ୟ	-10.9159
▁ବ୍ଯକ୍ତି	-10.9193
▁method	-10.9194
oftware	-10.9194
ଅପରାହ୍ନ	-10.9194
ସୌନ୍ଦର୍ଯ୍ୟ	-10.9194
▁Dharitri	-10.9194
▁Laksh	-10.9194
▁Political	-10.9194
▁Public	-10.9194
▁character	-10.9194
▁distribut	-10.9194
▁heaven	-10.9194
▁joystick	-10.9194
▁ଐତିହାସିକ	-10.9194
▁କୃତଜ୍ଞତା	-10.9194
▁ଗୁଜରାଟ	-10.9194
▁ଜଗନ୍ନାଥ	-10.9194
▁ନମସ୍କାର	-10.9194
▁ନିରଞ୍ଜନ	-10.9194
▁ଶୁଳ୍କ	-10.9194
▁ସଂପତ୍ତି	-10.9194
🙏🙏🙏🙏🙏🙏🙏🙏🙏🙏🙏🙏🙏🙏	-10.9194
tudents	-10.9194
▁Spell	-10.9194
▁କୁମ୍ଭୀର	-10.9194
▁ଜାନୁଆରୀ	-10.9194
▁ପ୍ରଫେସର	-10.9194
▁ବୁଧବାର	-10.9194
▁ମେଣ୍ଢା	-10.9194
▁ରାଉରକେଲା	-10.9194
▁୧୯୭୪	-10.9194
▁GNU	-10.9194
▁textbox	-10.9194
▁ଦଶହରା	-10.9194
▁ସିନ୍ଧୁ	-10.9194
ERV	-10.9194
▁ସ୍ୱୀକାର	-10.9194
▁ହିଂସା	-10.9194
▁ମାଥିଉ	-10.9194
▁Tech	-10.9194
▁[22:	-10.9194
▁SSL	-10.9194
▁ବେତାଳ	-10.9194
▁section	-10.9194
▁ସ୍ୱାସ୍ଥ୍ୟସେବା	-10.9194
▁ଦ୍ୱନ୍ଦ	-10.9194
▁ପ୍ରତାପ	-10.9195
▁ବକ୍ତା	-10.9195
▁ଲୁଚି	-10.9196
▁ସ୍ନାନ	-10.9198
▁comment	-10.9199
▁long	-10.92
▁ପିତର	-10.9204
▁ନାଟକ	-10.9204
▁ଶିବିର	-10.9212
▁ଅପରେସନ	-10.9212
ମାଧବ	-10.9224
▁ବ୍ଲଗ	-10.9251
▁ବିକଳ	-10.9308
ାଚର	-10.9313
▁ଗେହ	-10.9384
ଯିହୂଦୀମାନଙ୍କ	-10.9401
▁ସମର୍ଥ	-10.951
▁ବଲିଉଡ	-10.9516
▁ଦ୍ୱାର	-10.9517
ଆଛା	-10.9524
▁Jobs	-10.9539
▁System	-10.9539
▁ଅଭିବୃଦ୍ଧି	-10.9539
▁ପ୍ରୋଟୋକଲ	-10.9539
▁ମତାମତ	-10.9539
▁ମନେରଖନ୍ତୁ	-10.9539
▁ରଣବୀର	-10.9539
▁ସୁସମାଗ୍ଭର	-10.9539
▁ସ୍ଥାନାନ୍ତରିତ	-10.9539
▁ସ୍ୱାଭିମାନ	-10.9539
▁୧୯୮୭	-10.9539
▁Blue	-10.9539
▁ଇଫକୋ	-10.9539
▁ଦେବାଦେବୀ	-10.9539
query	-10.9539
▁ଏଜେଣ୍ଟ	-10.9539
▁ପରାମର୍ଶଦାତା	-10.9539
▁ମରାମତି	-10.9539
▁ରଶ୍ମି	-10.9539
▁ଅଶୁଭ	-10.9539
୧୯୯୦	-10.9539
▁ତଥ୍ଯ	-10.9539
▁ସାଥୀ	-10.9539
▁ଅଜ୍ଞାତ	-10.9539
▁ଉଇକି	-10.9539
▁ପ୍ରଦର୍ଶିକା	-10.9539
▁ଧରଣର	-10.9539
▁ସ୍ମାର୍ଟଫୋନ	-10.9539
▁ସାଲିସ୍	-10.9539
ଧୈର୍ଯ୍ୟ	-10.9539
▁ସାର୍ଥକ	-10.9539
▁ତଳେଣତ	-10.9539
▁ଗେହିଁ	-10.9539
▁ଏତେବଡ	-10.9539
Share	-10.9539
▁kde	-10.954
▁ଶିଆଳ	-10.954
▁ଅନୁଚ୍ଛେଦ	-10.9541
▁ଅଭିଯାନ	-10.9541
▁ନିଆରା	-10.9542
▁ଉପନ୍ୟାସ	-10.9543
▁ମଞ୍ଜୁରୀ	-10.9544
▁ବିଶେଷଜ୍ଞ	-10.9545
▁ଲଗଇନ	-10.9545
▁ସାଇନ	-10.9546
▁ଛାୟା	-10.9548
ଏଟିଏମ୍	-10.9548
ଶାସକ	-10.955
????	-10.9551
▁ଘୂର	-10.9571
୧୯୯୬	-10.9576
୫୭	-10.9654
▁ଚମକ	-10.9659
▁see	-10.9751
▁07:	-10.9874
type	-10.9885
ଏବେକାର	-10.9887
କ୍ଷେତ୍ର	-10.9887
▁House	-10.9896
;#39;	-10.9896
ontributions	-10.9896
▁Copyright	-10.9896
▁JavaScript	-10.9896
▁Weekly	-10.9896
▁ଅଧ୍ୟାପକ	-10.9896
▁ଇନସ୍ୟୁରାନ୍ସ	-10.9896
▁କଂପାନୀ	-10.9896
▁କାଲେଣ୍ଡର	-10.9896
▁ପଞ୍ଜୀକରଣ	-10.9896
▁ସଂଗଠନ	-10.9896
▁ହୋଇଯାଆନ୍ତୁ	-10.9896
▁Kumar	-10.9896
▁ଟାଇଫୁନ୍	-10.9896
▁ଶୀତଦିନେ	-10.9896
▁ସର୍ଦ୍ଦାର	-10.9896
▁ଅର୍ଥନୀତି	-10.9896
▁ଜିଏସଟି	-10.9896
▁ଦେଇପାରିବି	-10.9896
▁ବିଜେପୁର	-10.9896
▁first	-10.9896
▁ସାଧନପଟି	-10.9896
▁Latest	-10.9896
Show	-10.9896
▁Sort	-10.9896
▁ଚରିତ୍ର	-10.9896
back	-10.9896
▁7:11	-10.9896
▁ପୋର୍ଟାଲ	-10.9896
▁ପ୍ରୟାସ	-10.9896
୧୯୮୪	-10.9896
▁କୁକୁଡ଼ା	-10.9896
▁ଭୋଜନ	-10.9896
▁ଓଲିଉଡ	-10.9896
ପ୍ରମିଳା	-10.9896
▁ପ୍ୟାକେଜ	-10.9896
▁ସେବେଠୁ	-10.9896
ଚାଳିତ	-10.9897
▁ହଳଦିଆ	-10.9897
▁କ୍ଷତିଗ୍ରସ୍ତ	-10.9897
▁କୁସୁମ	-10.9897
▁always	-10.9898
▁than	-10.9898
ଡକ୍ଟର	-10.9899
▁ସ୍କୋର	-10.99
▁ସ୍ୱଭାବ	-10.9903
▁Live	-10.9903
▁ବିଚାରପତି	-10.9903
anoj	-10.9904
▁୨୦୦୭	-10.9904
▁ଖାଉଛି	-10.9904
▁ଶାସ୍ତ୍ରରେ	-10.9905
▁ଦେଖାଉଛି	-10.9906
▁ବଜେଟ	-10.9908
side	-10.9989
▁ନୋଟିସ	-11.0014
unner	-11.0034
ାଣନ୍ତୁ	-11.0056
▁ଟାଇମ	-11.0141
ାଧିକ	-11.0186
erform	-11.0266
▁whatsthis	-11.0266
▁କଣ୍ଢେଇ	-11.0266
▁ଜରିମାନା	-11.0266
▁ଦ୍ରୁଶ୍ଯ	-11.0266
▁ପୁନର୍ବାର	-11.0266
▁ପ୍ରାଇଭେଟ୍	-11.0266
▁ବିଦ୍ରୋହ	-11.0266
▁ଲାଇସେନ୍ସ	-11.0266
▁ଲିମିଟେଡ	-11.0266
▁ହାନିକାରକ	-11.0266
ଆଦର୍ଶ	-11.0266
▁'{0}'	-11.0266
▁Open	-11.0266
▁ଉପସ୍ଥାପନ	-11.0266
▁ଋଷିଆ	-11.0266
▁ତରଫରୁ	-11.0266
▁ପ୍ରୁଷ୍ଠା	-11.0266
▁କର୍ତ୍ତବ୍ୟ	-11.0266
▁ଧର୍ମଘଟ	-11.0266
▁Never	-11.0266
▁Make	-11.0266
▁above	-11.0266
▁ସାଢେ	-11.0266
▁ସ୍ବାମୀ	-11.0266
ubhransu	-11.0266
ସଂକ୍ଷେପ	-11.0266
▁ପିଅନ୍ତୁ	-11.0266
▁ଯଶୋ	-11.0266
▁ଆସନ୍ତାକାଲି	-11.0266
▁ଅଧୁନା	-11.0266
▁ଅଥଚ	-11.0266
Ctrl	-11.0267
▁ସାଙ୍କେତିକରଣ	-11.0267
▁ୱାର୍ଣ୍ଣ	-11.0267
▁ମକଚି	-11.0267
,500	-11.0267
Play	-11.0267
▁ପଞ୍ଚଭୂତ	-11.0268
୬୭୭	-11.0268
ସମୂହ	-11.0269
▁05:	-11.0269
▁FOR	-11.0271
ଏବଂ	-11.0273
▁ଭେଙ୍କ	-11.0274
▁ସରୋଜ	-11.0274
▁ସମ୍ରାଟ	-11.0277
▁show	-11.0292
ଦଶାହ	-11.0302
ାତ୍ମ	-11.0385
ରତ୍ନ	-11.0477
971	-11.0482
ଅଧିକ	-11.0561
▁ଅପରାଜିତ	-11.0628
ification	-11.0641
ରଦର୍ଶିକା	-11.0651
pecial	-11.0651
Vikaspediaodisha	-11.0651
llywood	-11.0651
▁(₹):	-11.0651
▁Easy	-11.0651
▁IMAP	-11.0651
▁Person	-11.0651
▁keyword	-11.0651
▁version	-11.0651
▁ଅନାହାରରେ	-11.0651
▁ଉଜବେକିସ୍ଥାନ	-11.0651
▁ଦାୟିତ୍ଵ	-11.0651
▁ପ୍ରତିଶ୍ରୁତି	-11.0651
▁ବଢିଚାଲିଛି	-11.0651
▁ମହମ୍ମଦ	-11.0651
▁ଲେଖୁଅଛି	-11.0651
▁ସମ୍ମିଳନୀ	-11.0651
▁ହଇରାଣ	-11.0651
▁୯୮୫୩୨୧୩୬୦୧	-11.0651
Category	-11.0651
▁Story	-11.0651
▁make	-11.0651
▁ଅଦ୍ଭୁତ	-11.0651
▁ଠିକାଦାର	-11.0651
▁ଇସ୍ତଫା	-11.0651
▁ଦ୍ରୁତ	-11.0651
▁ସ୍ଵାମୀ	-11.0651
▁ପ୍ରତ୍ୟେକ୍ଷ	-11.0651
▁ସୂର୍ଯ୍ୟାସ୍ତ	-11.0651
▁କିସ୍ତାୟା	-11.0651
▁ଉଚ୍ଚାରଣ	-11.0651
▁କିଶୋର	-11.0651
▁ଜବ୍ସ	-11.0651
▁ସୁଶିଲ	-11.0651
▁ଅଶାନ୍ତି	-11.0651
▁ମରିଗଲେ	-11.0651
▁ସ୍ପିନ୍	-11.0651
▁ସ୍ପୁଲ	-11.0651
edding	-11.0651
ମାନବିକତା	-11.0651
▁କରିନଥାନ୍ତି	-11.0651
▁100%	-11.0651
▁php	-11.0651
▁ଆମଦାନି	-11.0652
▁ଦୃଢ଼	-11.0652
}}	-11.0652
▁ପ୍ରଣାମ	-11.0653
ମେଂଟ	-11.0656
▁ହନୁମାନ	-11.0657
ର୍ୟ୍ଯ	-11.0659
ବୃତ୍ତ	-11.0665
»	-11.067
ଲକ୍ଷ୍ମୀ	-11.067
ତାଲିକା	-11.0675
ଗୃହ	-11.0677
▁ତାମିଲ	-11.0681
Apply	-11.0736
▁ହୋ‍ଇ	-11.0828
plan	-11.0895
▁day	-11.1006
ō	-11.1031
▁ସେତେବେଳ	-11.1035
custom	-11.1051
▁Translation	-11.1051
▁application	-11.1051
▁daily	-11.1051
▁କର୍ଣ୍ଣାଟକ	-11.1051
▁କାର୍ଯ୍ୟକଳାପ	-11.1051
▁ଜବରଦସ୍ତ	-11.1051
▁ଦୁର୍ନୀତି	-11.1051
▁ନିମନ୍ତ୍ରଣ	-11.1051
▁ପୁଲୱାମା	-11.1051
▁ଫେବୃଆରୀ	-11.1051
▁ବିମୁଦ୍ରାକରଣ	-11.1051
▁ସଂପୃକ୍ତ	-11.1051
▁ସଜ୍ଜିକରଣ	-11.1051
▁ସ୍ମିତହାସ୍ୟ	-11.1051
spect	-11.1051
▁URI	-11.1051
▁ଅପସାରିତ	-11.1051
▁ଉତ୍ପନ୍ନ	-11.1051
▁କଳାହାଣ୍ଡି	-11.1051
▁ଜମାରାଶି	-11.1051
▁ଧ୍ୱନୀ	-11.1051
▁ମାଇକ୍ରୋ	-11.1051
▁VLC	-11.1051
▁know	-11.1051
▁watch	-11.1051
▁ଅଭିଜ୍ଞତା	-11.1051
▁ଉନ୍ନୟନ	-11.1051
ocus	-11.1051
▁ଲଳିତା	-11.1051
▁ପାଆନ୍ତୁ	-11.1051
▁ଘୁଞ୍ଚାଅ	-11.1051
▁ମଧ୍ୟପ୍ରଦେଶ	-11.1051
▁ଗାଳ୍ପିକ	-11.1051
▁ପାଣ୍ଡବମାନ	-11.1051
▁ଚଳାଅ	-11.1051
▁ପ୍ରତିରୋଧ	-11.1051
ସ୍ବଚ୍ଛତା	-11.1051
▁face	-11.1051
▁ସାମରିକ	-11.1051
▁ଧାର୍ଯ୍ୟ	-11.1051
▁ଫିଟନେସ	-11.1051
▁ବ୍ୟାପାର	-11.1052
▁ପୂର୍ବଦିଗ	-11.106
ନ୍ତରାଳ	-11.1065
▁ପ୍ରୋଟ	-11.1081
ଭିତ୍ତିକ	-11.1097
▁ରିଲିଜ	-11.1444
Institute	-11.1468
ultitran	-11.1468
▁2530008	-11.1468
▁91-674-	-11.1468
▁Continue	-11.1468
▁Downlode	-11.1468
▁Global	-11.1468
▁ODISHA	-11.1468
▁sentence	-11.1468
▁shutdown	-11.1468
▁ଅଧିନିୟମ	-11.1468
▁ତାପମାତ୍ରା	-11.1468
▁ଦର୍ଶକ	-11.1468
▁ଫେରିପାଇଲେ	-11.1468
▁ବିଶ୍ଵାସ	-11.1468
▁ରଜାପୁଅ	-11.1468
plasma	-11.1468
▁heading	-11.1468
▁ଅଭିନନ୍ଦନ	-11.1468
▁ମାତୃବାଣୀ	-11.1468
▁ସମ୍ବନ୍ଧିତ	-11.1468
▁ସାମ୍ପ୍ରତିକ	-11.1468
▁ମନ୍ତବ୍ୟ	-11.1468
▁ସଂକଳ୍ପ	-11.1468
{1}	-11.1468
▁after	-11.1468
▁points	-11.1468
▁ପ୍ରତିଯୋଗୀ	-11.1468
▁ପହଁଚି	-11.1468
▁ସଂକ୍ରାନ୍ତରେ	-11.1468
▁କ୍ଷତିକାରକ	-11.1468
▁ପରିବର୍ତ୍ତକ	-11.1468
ffect	-11.1468
▁ସ୍ବର୍ଗ	-11.1468
▁CMS	-11.1468
▁ଖେଳାଳି	-11.1468
▁ଲଢ଼ିବା	-11.1468
ସିଗାରେଟ	-11.1468
▁ବିତରଣ	-11.1468
▁ରାଜକୁମାର	-11.1468
▁ଆଜିକାଲି	-11.1468
▁ମାର୍ଚ	-11.1468
▁identi	-11.1468
000/-	-11.1468
▁ପାୱାର	-11.1468
▁para	-11.1469
▁ଜେଲରେ	-11.147
▁rum	-11.1471
▁କିସ୍ତି	-11.1471
ଅତିଥି	-11.1472
▁ବୃହତ	-11.1473
fast	-11.1475
▁ଧମକ	-11.1476
▁ଚାଲାଣ	-11.1477
▁ହାଉସ	-11.149
ସ୍ନେହା	-11.15
ପ୍ରଚଳିତ	-11.1522
ଶ୍ରେଣୀ	-11.1523
ବିଜେପି	-11.1523
ଶ୍ରୟ	-11.1527
ୋଜିନି	-11.1531
▁All	-11.1643
▁ବୁଝିପାର	-11.1773
▁clo	-11.1879
Disc	-11.1881
ambad	-11.1895
ଗ୍ରସ୍ତ	-11.1902
header	-11.1902
▁ପଙ୍ଖା	-11.1902
nvironment	-11.1902
▁Union	-11.1902
▁fluently	-11.1902
▁school	-11.1902
▁ଅଦରକାରୀ	-11.1902
▁ଅର୍ଜୁନ	-11.1902
▁ଅଷ୍ଟ୍ରେଲିଆ	-11.1902
▁ଅସନ୍ତୋଷ	-11.1902
▁ଅସ୍ପଷ୍ଟ	-11.1902
▁ଇଫଫଂକ	-11.1902
▁ଗଞ୍ଜାମ	-11.1902
▁ଘୂର୍ଣ୍ଣନ	-11.1902
▁ଘୂର୍ଣ୍ଣିବଳୟ	-11.1902
▁ତ୍ରିପାଠୀ	-11.1902
▁ନାଲିପାନର	-11.1902
▁ନେତୃତ୍ୱ	-11.1902
▁ପୂର୍ବାହ୍ନ	-11.1902
▁ପ୍ରେତ୍ୟକକ	-11.1902
▁ମହୁମାଛି	-11.1902
▁ଶୁଭେଚ୍ଛା	-11.1902
▁ସର୍ବସାଧାରଣ	-11.1902
▁ସିଧାସଳଖ	-11.1902
▁ସୁପ୍ରିମକୋର୍ଟ	-11.1902
NEWS	-11.1902
▁Know	-11.1902
▁life	-11.1902
▁ଅନୁପସ୍ଥିତ	-11.1902
▁ପଞ୍ଜିକୃତ	-11.1902
▁ବ୍ରିଟିଶ	-11.1902
▁ମହାବାତ୍ୟା	-11.1902
▁ଶିବାଜୀ	-11.1902
▁ସମ୍ବନ୍ଧୀୟ	-11.1902
sambalpuri	-11.1902
କମଳେଶ	-11.1902
▁ଅଗ୍ନିକାଣ୍ଡ	-11.1902
▁ପଞ୍ଜାବ	-11.1902
▁୧୯୯୩	-11.1902
▁22:35	-11.1902
▁ନଚେତ୍	-11.1902
▁ଢାଙ୍କି	-11.1902
added	-11.1902
▁ଜଣାପଡ଼ି	-11.1902
▁ଚଞ୍ଚଳ	-11.1902
▁ନାଇଡୁ	-11.1902
▁ନିହାତି	-11.1902
▁ଘାଟନ	-11.1902
ether	-11.1903
▁ପାଇଥନ	-11.1903
▁ଜରିଆରେ	-11.1903
▁ଦବେେ	-11.1903
▁ଅପ୍ରେଲ	-11.1903
▁ପ୍ରୀତି	-11.1903
▁ସିଝା	-11.1904
▁ସ୍ମିତା	-11.1906
▁ହଲେଇ	-11.1907
▁ଷ୍ଟୋର	-11.1913
▁ସ୍ପେସ	-11.1917
ନୁହେଁ	-11.1975
This	-11.1976
ମହିଳା	-11.1978
ଉତ୍ତର	-11.1979
▁କଏଦ	-11.2045
ିଯିବେ	-11.2145
▁ରଘୁ	-11.2356
▁ଟ୍ୟୁଟୋରିଆଲ	-11.2357
Screen	-11.2357
Sidharth	-11.2357
WhatsApp	-11.2357
script	-11.2357
ମର୍ଯ୍ୟାଦା	-11.2357
▁Orissa	-11.2357
▁Quality	-11.2357
▁Xiaomi	-11.2357
▁girl	-11.2357
▁literature	-11.2357
▁room	-11.2357
▁ଅତିବାହିତ	-11.2357
▁ଅଭିବ୍ୟକ୍ତି	-11.2357
▁କଂଟକେଟ	-11.2357
▁କରାଯ଼	-11.2357
▁ଚିଦାମ୍ବରମ	-11.2357
▁ଠିକିରିର	-11.2357
▁ନିରିକ୍ଷକ	-11.2357
▁ପର୍ଯ୍ୟଟକ	-11.2357
▁ପୁନଃନାମକରଣ	-11.2357
▁ବଲାଙ୍ଗିର	-11.2357
▁ବୈଷୟିକ	-11.2357
▁ମନପସନ୍ଦ	-11.2357
▁ମୂର୍ଖ	-11.2357
▁ଯୌତୁକ	-11.2357
▁ରାସାୟନିକ	-11.2357
▁ରେସନତଲାୱ	-11.2357
▁ସଙ୍ଗଠକ	-11.2357
▁{0}	-11.2357
▁କୁହାଯାଇଥିଲା	-11.2357
standard	-11.2357
▁ଏସବିଆଇ	-11.2357
▁Bharat	-11.2357
▁ନିରାପଦ	-11.2357
▁ସ୍ରୋତ	-11.2357
▁ଫ୍ୟାକ୍ସ	-11.2357
▁ପଠେଇ	-11.2357
▁Feb	-11.2357
▁ମେଲବାକ୍ସ	-11.2357
Salary	-11.2357
ଘୋଷିତ	-11.2357
▁ଅତୀତ	-11.2357
load	-11.2357
▁କବଳେ	-11.2357
ସମ୍ପନ୍ନ	-11.2358
▁ସେଲଫି	-11.2358
alking	-11.2358
▁ପରିଣାମ	-11.2359
ular	-11.2364
afe	-11.2368
▁modifi	-11.2369
▁ପକେଟ	-11.2395
ସେପ୍ଟେମ୍ବର	-11.2452
▁ଦାଉଦ	-11.2731
ଦୃଷ୍ଟ	-11.2778
ools	-11.2814
direct	-11.2831
▁ସାଙ୍କେତିକ	-11.2833
▁ଫାରୂଶୀ	-11.2833
Prevention	-11.2833
ology	-11.2833
riority	-11.2833
ପାରଳାଖେମୁଣ୍ଡି	-11.2833
▁Account	-11.2833
▁Junk	-11.2833
▁LongDayName	-11.2833
▁border	-11.2833
▁containing	-11.2833
▁enjoy	-11.2833
▁session	-11.2833
▁ଆନ୍ଧ୍ର	-11.2833
▁ଆମନ୍ତ୍ରଣ	-11.2833
▁କମ୍ପୁଟର	-11.2833
▁କାଳିପାନର	-11.2833
▁ଜେନେରାଲ	-11.2833
▁ନିର୍ଦ୍ଧାରଣ	-11.2833
▁ପୀଲାତ	-11.2833
▁ପୁନରାବୃତ୍ତି	-11.2833
▁ପ୍ରତିଯୋଗିତା	-11.2833
▁ପ୍ଲାଜମା	-11.2833
▁ବିଚ୍ଛିନ୍ନ	-11.2833
▁ରଣନୀତି	-11.2833
▁ସମାଲୋଚକ	-11.2833
▁ସରପଞ୍ଚ	-11.2833
▁North	-11.2833
▁ଏଯାବତ	-11.2833
▁ଡିଜାଇନ	-11.2833
▁ଡ୍ୟାନ୍ସ	-11.2833
▁ନାବାଳିକା	-11.2833
▁ଅସ୍ୱୀକାର	-11.2833
▁କ୍ୟାନସର	-11.2833
▁ଗାନ୍ଧୀ	-11.2833
▁ପାଣ୍ଡିଆନ	-11.2833
▁index	-11.2833
▁week	-11.2833
▁ଗୁଜୁରା	-11.2833
ience	-11.2833
Khord	-11.2833
▁ବଳିଷ୍ଠ	-11.2833
▁କ୍ରୀଡ଼ା	-11.2833
▁ସାଉଦି	-11.2833
▁ଭାଉଜ	-11.2833
▁ସ୍ବପ୍ନ	-11.2833
▁ମରିଯାଇଛି	-11.2833
▁ସଂପାଦ	-11.2833
୧୯୧୪	-11.2833
▁ମନିଷା	-11.2833
▁ବିଭକ୍ତ	-11.2833
▁shell	-11.2833
▁ହରିହର	-11.2833
▁ଟୁଇଟ	-11.2833
▁ପଳେଇ	-11.2833
▁କର୍କଟ	-11.2834
▁ଫେରିଆସି	-11.2834
▁ବିଜେତା	-11.2834
▁ଆସ୍ତେ	-11.2834
▁ଫ୍ୟାନ୍	-11.2834
▁ଜଷ୍ଟିସ	-11.2835
ପାରୁନାହାନ୍ତି	-11.2835
▁ମସ୍ତକ	-11.2835
▁ଖୋଜୁଛ	-11.2843
▁ସିଷ୍ଟମ	-11.2855
ତିତଲି	-11.2857
▁ବୋନସ୍	-11.2868
▁ଆଲୋଚ	-11.2905
iff	-11.2915
ଚାଳକ	-11.293
12-20	-11.2946
ଆମ୍ଭେ	-11.2954
▁ଚଢ଼ା	-11.307
▁giv	-11.32
▁ସ୍ୱାଧୀନତା	-11.3211
▁ବିସ୍ତାର	-11.3325
▁birth	-11.3333
reference	-11.3333
▁Health	-11.3333
▁ଦୁର୍ଭାଗ୍ୟ	-11.3333
107621	-11.3333
hrough	-11.3333
toolbar	-11.3333
ସମାବେଶରେ	-11.3333
ୟାରବିଯାମ	-11.3333
▁Android	-11.3333
▁Excel	-11.3333
▁category	-11.3333
▁mobile	-11.3333
▁translation	-11.3333
▁ଅଦୃଶ୍ୟ	-11.3333
▁ଆନ୍ତର୍ଜାତିକ	-11.3333
▁କାଶ୍ମୀର	-11.3333
▁ଚେନ୍ନାଇ	-11.3333
▁ଜାନୁଆରି	-11.3333
▁ଡଲଫିନ	-11.3333
▁ତୃଣମୂଳ	-11.3333
▁ନବଲିଖନ	-11.3333
▁ନିରୀକ୍ଷଣ	-11.3333
▁ପ୍ରତାରଣା	-11.3333
▁ଫ୍ୟାମିଲି	-11.3333
▁ସଂଖ୍ଯାତ୍ମକ	-11.3333
▁ସୈନିକ	-11.3333
▁children	-11.3333
▁ଅରବିନ୍ଦ	-11.3333
▁ଡିଭାଇସ୍	-11.3333
▁ତକ୍ସ୍ଟମ୍ଭ	-11.3333
▁Font	-11.3333
▁ଅଶୁଦ୍ଧ	-11.3333
▁ବଞ୍ଚେଇବା	-11.3333
▁hope	-11.3333
▁ପରିବର୍ତ୍ତେ	-11.3333
▁ସ୍ବୀକାର	-11.3333
▁ନିଶ୍ଚେ	-11.3333
▁ସମୁଦି	-11.3333
Count	-11.3333
▁ଈଶ୍ଵର	-11.3333
▁ଗଠିତ	-11.3333
▁ଡାଉନ୍	-11.3333
▁ଅକ୍ଷମତା	-11.3333
▁ଅଦାଲତ	-11.3333
anAm	-11.3333
▁ଢୋଲ	-11.3333
ଲାବଣ୍ୟ	-11.3333
▁shall	-11.3333
ହ୍ୟାଲୋ	-11.3333
▁ଆୱାଲ	-11.3333
▁kill	-11.3334
▁ସେବାୟତ	-11.3334
▁ଆକବର	-11.3334
▁ତନଖି	-11.3334
▁ଦବେି	-11.3334
▁କୃପା	-11.3334
ଶେଖର	-11.3334
ସ୍ୱାର୍ଥରେ	-11.3335
onnect	-11.3335
▁ପେନସନ	-11.3339
ଭୁଜ	-11.3342
ଗନ୍ଧା	-11.3346
ବୁଝିଲ	-11.3367
▁visit	-11.337
▁ବ୍ରେକ	-11.3372
▁ମାଙ୍କଡ	-11.3396
ମୂର୍ତ୍ତି	-11.3474
search	-11.348
ସମ୍ପୂର୍ଣ୍ଣ	-11.3481
ସ୍ୱାମୀ	-11.3481
ସଙ୍ଗତ	-11.3537
ନ୍ତର୍ଗତ	-11.3838
display	-11.3859
astotra	-11.3859
body	-11.3859
ଖବରକାଗଜ	-11.3859
ଥେରାପି	-11.3859
ଦ୍ରଷ୍ଟବ୍ୟ	-11.3859
ସହସ୍ରନାମ	-11.3859
▁+91-11-41582228	-11.3859
▁Artist	-11.3859
▁Emoticons	-11.3859
▁Management	-11.3859
▁ShortDayName	-11.3859
▁behavior	-11.3859
▁bride	-11.3859
▁piece	-11.3859
▁resolution	-11.3859
▁thought	-11.3859
▁ଅଶୋକ	-11.3859
▁ଆନ୍ତର୍ଜାତୀୟ	-11.3859
▁ଆହ୍ୱାନ	-11.3859
▁ଗ୍ରୀଷ୍ମ	-11.3859
▁ଜଳସେଚନ	-11.3859
▁ଦୁଃଶାସନ	-11.3859
▁ପାରମ୍ପରିକ	-11.3859
▁ପୁନରୁଦ୍ଧାର	-11.3859
▁ରସଗୋଲା	-11.3859
▁ରିଚାର୍ଜ	-11.3859
▁ଲୋକପ୍ରିୟତା	-11.3859
slot	-11.3859
▁ଅବହେଳା	-11.3859
▁NKC	-11.3859
▁ଜନସଂଖ୍ୟା	-11.3859
▁ନିଶ୍ଚିତରୂପେ	-11.3859
▁ଚର୍ଚ୍ଚିତ	-11.3859
▁ଯେପର୍ଯ୍ୟନ୍ତ	-11.3859
▁ରାତ୍ରି	-11.3859
▁ସମୁଦାୟ	-11.3859
▁account	-11.3859
▁ଟ୍ରାନ୍ସ	-11.3859
ଥାଆନ୍ତୁ	-11.3859
▁ଶିଷ୍ଯମାନ	-11.3859
▁phone	-11.386
▁ଟେବୁଲ	-11.386
▁ଶୋଷଣ	-11.386
▁ସମଷ୍ଟି	-11.386
burn	-11.386
▁ମଉସା	-11.386
▁ପିଟାଲ୍	-11.386
▁ସମବାୟ	-11.386
▁ଚିଲିକା	-11.386
▁ଜଡ଼ିତ	-11.386
TER	-11.386
▁ମେକାପ	-11.386
▁ବୋତଲ	-11.386
ଶିକ୍ଷିତ	-11.386
ଯାଆନ୍ତି	-11.386
arameter	-11.386
▁କୋମଳ	-11.386
▁ଡିଜେଲ	-11.386
▁ଖର୍ଚ	-11.386
Year	-11.386
ପର୍ଣ୍ଣା	-11.386
▁ମାଷ୍ଟର୍	-11.3863
ଚାଇନା	-11.3884
କର୍ଣ୍ଣି	-11.3928
March	-11.3972
୍ରାଫିକ	-11.4021
ଉଦାହରଣ	-11.4033
ସାଂସଦ	-11.4034
ଶୀର୍ଷକ	-11.4035
ଓଡିଶା	-11.4036
ପରୀକ୍ଷା	-11.4036
ାନ୍ଧି	-11.4045
▁DIS	-11.4148
▁ବ୍ରାଉଜ	-11.4268
▁ପ୍ରଶଂସ	-11.4378
axi	-11.439
▁sign	-11.4414
▁ମନୁଷ୍ଯ	-11.4415
ATION	-11.4415
config	-11.4415
redhat	-11.4415
xternal	-11.4415
ଲାଞ୍ଜିଗଡ଼	-11.4415
▁1996).	-11.4415
▁January	-11.4415
▁Linux	-11.4415
▁October	-11.4415
▁[21:2	-11.4415
▁education	-11.4415
▁progress	-11.4415
▁translate	-11.4415
▁ଅପରିବର୍ତ୍ତନୀୟ	-11.4415
▁ଅହଙ୍କାର	-11.4415
▁ଆଧ୍ୟାତ୍ମିକ	-11.4415
▁ଆପ୍ଲିକେସନ	-11.4415
▁ଆବିଷ୍କାର	-11.4415
▁ଉପାସନା	-11.4415
▁ଗଣଦୁଷ୍କର୍ମ	-11.4415
▁ପୋଟାଇଁଟାଲ	-11.4415
▁ପ୍ରୋଫାଇଲ	-11.4415
▁ବେସରକାରୀ	-11.4415
▁ବୟଫ୍ରେଣ୍ଡ	-11.4415
▁ଶୂନ୍ଯ	-11.4415
▁ଅତ୍ୟାଚାର	-11.4415
▁ଡାଇରେକ୍ଟ	-11.4415
▁ନିଖୋଜ	-11.4415
▁ବିକଶିତ	-11.4415
▁ଭୂଗୋଳ	-11.4415
▁ସୀମିତ	-11.4415
Chinese	-11.4415
▁Point	-11.4415
▁banda	-11.4415
▁ଅସମ୍ମାନ	-11.4415
▁ଫ୍ରେଞ୍ଚ	-11.4415
▁୧୯୯୮	-11.4415
omputer	-11.4415
🙏	-11.4415
ାଶିଂଟନ	-11.4415
▁7:30	-11.4415
▁CJK	-11.4415
▁Koha	-11.4415
▁Server	-11.4415
▁ଶ୍ରୀଦେବୀ	-11.4415
ଅଧିନାୟକ	-11.4415
▁ଜମ୍ମୁ	-11.4415
▁କରିଥୁଲେ	-11.4415
folder	-11.4415
କଶ୍ମୀର	-11.4415
▁ଦମଦାର	-11.4415
▁ନିରୂପଣ	-11.4415
▁ଘିଅ	-11.4415
Book	-11.4415
▁ଚୌକା	-11.4415
▁ସୋପାନ	-11.4415
▁share	-11.4416
▁ଟିକଟ	-11.4416
ଆଇସିସି	-11.4416
▁ପଚିଶ	-11.4416
▁even	-11.4417
ପଚାଶ	-11.4417
କାଉଣ୍ଟ	-11.4417
ଚ୍ୟୁତ	-11.4447
ବ୍ରିଜ	-11.4537
ଦାୟିତ୍ୱ	-11.4623
କେଉଁ	-11.4624
ମାଲିକମାନେ	-11.4722
▁ହୋ‍ଇଥି	-11.4736
ନୈତିକ	-11.5001
▁ଦୃଢ	-11.5002
ified	-11.5003
facebook	-11.5003
MAIL	-11.5003
Script	-11.5003
esktop	-11.5003
ompletion	-11.5003
ଥାଆନ୍ତେ	-11.5003
ସୌଜନ୍ୟ	-11.5003
▁December	-11.5003
▁Float	-11.5003
▁Foundation	-11.5003
▁HTTP	-11.5003
▁Happy	-11.5003
▁OdishaReporter	-11.5003
▁Settings	-11.5003
▁Voices	-11.5003
▁WordPress	-11.5003
▁[102]	-11.5003
▁content	-11.5003
▁details	-11.5003
▁package	-11.5003
▁technology	-11.5003
▁which	-11.5003
▁ଅତଏବ	-11.5003
▁ଅନୁସୂଚିତ	-11.5003
▁ଆଂଶିକ	-11.5003
▁ଆପେଆପେ	-11.5003
▁ଟ୍ରେଡିଙ୍ଗ୍	-11.5003
▁ତାମିଲନାଡୁ	-11.5003
▁ତୁର୍କମେନିସ୍ଥାନ	-11.5003
▁ନନ୍ଦନକାନନ	-11.5003
▁ନିର୍ଯାତନା	-11.5003
▁ନୌସେନା	-11.5003
▁ପପଅପ	-11.5003
▁ପୀଡ଼ିତା	-11.5003
▁ପୃଷ୍ଠଭୂମୀ	-11.5003
▁ପ୍ରତିଶୃତି	-11.5003
▁ବ୍ଯାଖ୍ଯା	-11.5003
▁ଭୁବନେଶ୍ବର	-11.5003
▁ମୟୂରଭଞ୍ଜ	-11.5003
▁ଯିରିମିୟ	-11.5003
▁ଯୋଷଫେ	-11.5003
▁ଲଘୁଚାପ	-11.5003
▁ସର୍ବପ୍ରଥମେ	-11.5003
▁ସାଂସ୍କୃତିକ	-11.5003
▁ହସ୍ତକ୍ଷେପ	-11.5003
amaja	-11.5003
▁Film	-11.5003
▁Jio	-11.5003
▁SOCKS	-11.5003
▁current	-11.5003
▁look	-11.5003
▁ଋଷିରୁଵାଚ	-11.5003
▁କରିଦିଆଯିବ	-11.5003
▁ନିୟୋଜିତ	-11.5003
▁ପୁନଃଆକାର	-11.5003
▁ମୃତଦେହ	-11.5003
▁ଉଜ୍ଜୟ	-11.5003
▁କାଢନ୍ତୁ	-11.5003
▁ପାର୍ଟିରେ	-11.5003
▁ଫ୍ରାନ୍ସ	-11.5003
▁ONA	-11.5003
▁ଖୁଲାସା	-11.5003
▁ଫାଇନାଲ	-11.5003
♪	-12.4309
•	-13.0097
©	-13.3431
₹	-13.3805
║	-13.3806
┈	-13.3807
↑	-13.3808
ẹ	-13.3809
ଙ	-13.381
