<unk>	0
<s>	0
</s>	0
▁	-2.75867
ର	-3.78841
.	-4.34872
ରେ	-4.40371
▁‹	-4.40403
ନ	-4.45396
,	-4.46251
େ	-4.59495
କ	-4.85067
▁।	-4.85201
ା	-4.87905
ବ	-4.90174
କୁ	-4.94261
ସ	-4.97465
▁କ	-5.02656
ି	-5.05653
ମ	-5.07543
ୁ	-5.11325
▁ସେ	-5.13281
▁!	-5.152
।	-5.15408
▁1	-5.16799
ତ	-5.17732
s	-5.23496
ୋ	-5.23513
?	-5.24064
ଣ	-5.24429
▁ଅ	-5.26479
ୀ	-5.27375
ଲ	-5.28196
-	-5.28845
e	-5.34716
st	-5.34901
ୟ	-5.37014
ଳ	-5.37716
▁ପ	-5.40231
ପ	-5.44752
ର୍	-5.463
ରା	-5.47271
ଙ୍କ	-5.51773
:	-5.51804
▁ଆ	-5.53374
ରୁ	-5.55399
)	-5.55602
▁ବି	-5.57676
o	-5.5825
ବା	-5.61019
a	-5.61262
ରି	-5.67683
▁ବ	-5.68139
t	-5.70257
▁ଏ	-5.70683
ଗ	-5.71907
1	-5.72027
ଟ	-5.73375
ଲା	-5.77983
▁ସ	-5.78337
ଟି	-5.79993
ତା	-5.80402
’	-5.80742
▁?	-5.81199
ଦ	-5.82839
▁କରି	-5.83291
ତି	-5.8407
ଲି	-5.84536
ହ	-5.85162
▁କହିଲେ	-5.8728
▁କି	-5.88348
i	-5.88413
▁(	-5.89358
▁କିନ୍ତୁ	-5.90593
u	-5.94505
▁ନାହିଁ	-5.96939
m	-5.97551
▁ପାଇଁ	-5.99296
▁ଏହି	-5.99375
▁ଓ	-6.01019
▁ପ୍ର	-6.01408
ଶ	-6.04001
୍	-6.05396
ତ୍	-6.06065
ଲେ	-6.06277
ନ୍	-6.06679
ଜ	-6.07594
▁ହେଲା	-6.07675
d	-6.0881
▁“	-6.09428
p	-6.10306
l	-6.11963
ନା	-6.12054
ଆ	-6.12582
▁ଦ	-6.14704
ମା	-6.17023
ାଇ	-6.17636
0	-6.18689
ଭ	-6.20473
ଏ	-6.20918
▁ମା	-6.21107
▁ତ	-6.22271
▁IS	-6.24145
କ୍ଷ	-6.25089
୍ୟ	-6.25151
କ୍	-6.25195
!	-6.266
୍ୟା	-6.2711
ଂ	-6.27113
ପା	-6.27164
ଦା	-6.27315
ବି	-6.27715
ye	-6.27909
▁ବା	-6.28854
▁hu	-6.29294
emiti	-6.29371
ସ୍	-6.29897
ନି	-6.30091
ଡ	-6.31723
CG	-6.31892
କା	-6.31948
▁ମୋ	-6.31971
ଇ	-6.32809
▁y	-6.33736
ଖ	-6.34299
ହା	-6.3437
g	-6.3446
▁ଭ	-6.3616
ଛି	-6.36548
ଥ	-6.37009
▁ମଧ୍ୟ	-6.38373
ିତ	-6.39288
▁ପା	-6.39421
b	-6.4015
ବେ	-6.41962
▁ମୁଁ	-6.4198
▁ହ	-6.4349
...	-6.44131
ନ୍ତୁ	-6.44239
n	-6.45346
▁ମ	-6.45563
▁ଏହା	-6.46434
ମ୍	-6.46537
▁ଚ	-6.4694
ଡି	-6.47235
ମାନେ	-6.47982
▁mi	-6.48557
ଛ	-6.48811
ଦେ	-6.4922
▁ସେଦିନ	-6.49849
▁ଜ	-6.50385
▁ସା	-6.50426
▁But	-6.51142
ଷ	-6.51158
racle	-6.51198
ତ୍ର	-6.52539
ଚ	-6.52821
▁ଫ	-6.53518
▁ଏକ	-6.55181
ପ୍	-6.55206
▁କରନ୍ତୁ	-6.55477
କି	-6.5585
y	-6.56533
▁ଏବଂ	-6.56571
ୂ	-6.57404
ନ୍ତି	-6.57707
f	-6.58005
er	-6.58366
ଉ	-6.5844
ଙ୍ଗ	-6.59084
Name	-6.59456
▁ନି	-6.59647
▁"	-6.61559
▁ନା	-6.6171
▁ଆପଣ	-6.6192
▁-	-6.62219
ଅ	-6.62711
ଙ୍କୁ	-6.642
▁ଗ	-6.64342
ଥିଲା	-6.64494
▁ତା	-6.64711
2	-6.65362
୦	-6.65791
▁ଆଉ	-6.65836
▁ହୋଇ	-6.66943
ଣ୍ଡ	-6.6768
h	-6.68368
5	-6.68623
'	-6.68919
/	-6.69823
ୃ	-6.69852
▁ଯେ	-6.70491
▁କରୁଛି	-6.70672
▁କଥା	-6.71738
▁ବର୍ଷ	-6.71782
ଛନ୍ତି	-6.72336
ଥିଲେ	-6.72678
ସି	-6.72914
ଧ	-6.73157
▁ଉ	-6.7396
ଥିବା	-6.74962
▁ପଇସା	-6.75068
▁କା	-6.76281
9	-6.76519
ଥି	-6.77723
▁mẹ	-6.78024
I	-6.78467
ଣି	-6.78513
ଁ	-6.78532
ଷ୍ଟ	-6.78779
▁ଲୋକ	-6.78858
▁କରିବା	-6.79481
ମି	-6.79578
▁କଣ	-6.80137
ରୀ	-6.81535
ଠ	-6.81542
▁କିଛି	-6.82379
ଶ୍	-6.8247
ଧା	-6.82516
▁କହି	-6.82543
or	-6.82585
ଫ	-6.8281
▁ହାତୀ	-6.8294
▁ସଂ	-6.83028
"	-6.83196
k	-6.83327
▁କେବେ	-6.84185
▁Smoking	-6.8429
୧	-6.85306
ନ୍ତ	-6.85677
▁ଅଛି	-6.85767
ar	-6.86087
▁ହେବ	-6.86142
▁ଆମ	-6.86642
▁ଚା	-6.8677
ଭା	-6.87716
3	-6.88233
in	-6.88357
ଦ୍	-6.88817
N	-6.89374
▁ଶ	-6.89431
r	-6.89591
S	-6.90809
▁କହିଲା	-6.90821
କାର	-6.9208
an	-6.92111
ଦି	-6.92307
▁ଏବେ	-6.93837
ଜି	-6.93966
ଥାଏ	-6.94482
▁ଯ	-6.94814
ିଆ	-6.94894
ଡ଼	-6.9503
6	-6.9529
ହୁ	-6.95292
୪	-6.96027
▁କାହିଁକି	-6.9642
▁ଖ	-6.96467
ିକ	-6.96475
re	-6.97098
▁ସବୁ	-6.97214
c	-6.97296
▁ନୁହେଁ	-6.98496
7	-6.98505
8	-6.98825
ଵ	-6.99168
▁ବେଳେ	-6.9964
▁ଟ	-7.00329
▁ଉପ	-7.00493
▁ଆଃ	-7.00983
ଲ୍	-7.01407
▁ମି	-7.01707
L	-7.02225
▁ସୁ	-7.02234
▁ଯଦି	-7.02706
▁ପରି	-7.02979
ହି	-7.03909
▁ଘ	-7.04664
ୟା	-7.04981
▁ସ୍	-7.05293
ସ୍ତ	-7.05496
▁ସହ	-7.06011
୫	-7.06395
ଳି	-7.06412
▁କେତେ	-7.06537
▁ଇ	-7.06817
w	-7.07111
▁ମୁ	-7.07147
T	-7.07675
ଜା	-7.07885
R	-7.08748
ଥା	-7.0883
ଚି	-7.09046
▁S	-7.09527
ଚା	-7.09621
ସା	-7.09656
ଞ୍ଚ	-7.09797
D	-7.10094
ଟା	-7.10744
▁ପୂର୍ବରୁ	-7.10798
ୀୟ	-7.10973
▁ଡ	-7.11346
al	-7.11485
ଠା	-7.11515
ଢ	-7.11649
▁ତେବେ	-7.11655
▁ବିଷୟ	-7.12258
ପି	-7.13026
୍ଯ	-7.13853
▁A	-7.14027
▁ଥିବା	-7.14747
A	-7.15625
]	-7.15641
▁ସମ୍	-7.1579
▁is	-7.1611
▁ପିଛା	-7.16203
ବୁ	-7.16469
%	-7.16884
▁I	-7.17126
▁କିଲୋମିଟର	-7.17189
;	-7.17675
▁ହେଲେ	-7.18058
▁୧	-7.18329
▁‘	-7.18413
▁ଧ	-7.19182
▁ବ୍ୟବହାର	-7.19901
on	-7.2001
E	-7.21457
୬	-7.21983
ଘ	-7.22163
F	-7.22436
▁ହଁ	-7.226
ଶି	-7.23208
▁2	-7.23349
H	-7.23519
ମାନଙ୍କ	-7.24048
W	-7.24267
ବାକୁ	-7.24336
▁ପୁ	-7.2471
ଃ	-7.25193
▁ତାହା	-7.25219
୭	-7.26133
▁(_	-7.26194
ଟ୍	-7.26275
ଠି	-7.26387
ଗ୍	-7.26647
ୱା	-7.27013
O	-7.27085
▁କୋ	-7.27133
ଡା	-7.27366
▁ବସ୍	-7.27688
ଣା	-7.28623
▁ଦିନ	-7.28762
C	-7.29463
▁ତାଙ୍କ	-7.29621
▁ସମସ୍ତ	-7.30769
▁ପରେ	-7.31361
G	-7.31875
▁no	-7.32277
କ୍ସ	-7.32554
ଏହା	-7.32836
ଖା	-7.32874
ନୀ	-7.32978
▁ଚାଲି	-7.33384
ଯିବ	-7.33591
୨	-7.33595
▁ବୃଦ୍ଧି	-7.33836
୯	-7.34739
▁M	-7.34911
▁କହନ୍ତି	-7.34991
it	-7.35097
▁ତାଙ୍କୁ	-7.35277
▁ଆସି	-7.35838
▁0	-7.35844
ଦ୍ଧ	-7.36005
▁୩	-7.36576
v	-7.37007
▁ଭାଷା	-7.37394
୮	-7.37952
ଯ	-7.37963
▁ଆପଣଙ୍କ	-7.38327
▁ଏହାର	-7.38501
▁ଯାଇ	-7.38735
▁C	-7.39535
4	-7.39593
▁T	-7.39892
ନ୍ଦ	-7.39965
▁କାର୍ଯ୍ୟ	-7.40212
▁ରହି	-7.40647
▁ଏହାପରେ	-7.40756
ଦ୍ର	-7.40992
▁ଘର	-7.41541
ମାନ	-7.41878
ic	-7.42196
▁ଦୁଇ	-7.42255
▁ଏଥିରେ	-7.42953
▁ମନ	-7.43293
▁ଯାହା	-7.4338
ଯାଏ	-7.4377
▁ତୁମ୍ଭ	-7.44022
ri	-7.44049
▁୨	-7.44416
୩	-7.44663
ଭି	-7.44704
▁କିଏ	-7.44728
ଣ୍ଟ	-7.44776
▁%	-7.4489
କ୍ତ	-7.45055
▁ପହଞ୍ଚିଛି	-7.46344
▁3	-7.46571
ହେ	-7.46823
▁_	-7.47058
▁ଅଧିକ	-7.47262
▁ପାଇଛି	-7.47339
ତେ	-7.47424
ଲୁ	-7.47512
ୋଡ଼ା	-7.47834
ଗା	-7.47865
ଣୀ	-7.48204
en	-7.48538
▁ଦି	-7.48666
▁ଆସେ	-7.48725
▁ଦରରେ	-7.48937
ଶା	-7.49353
ch	-7.49698
ୈ	-7.49936
ଲୋ	-7.49998
ଡ଼ି	-7.50236
▁ପଇସାରେ	-7.50499
▁if	-7.50504
?”	-7.51177
▁ଦେଖି	-7.51441
▁ଗୋଟିଏ	-7.51973
▁ପ୍ରତି	-7.51999
▁ଅନୁ	-7.5219
at	-7.52284
▁ନେ	-7.52382
▁ନିଜ	-7.5243
ମାନଙ୍କୁ	-7.52433
▁ସହିତ	-7.52637
▁ମହିଳାମାନଙ୍କ	-7.52786
▁ମହା	-7.52818
୍ୱ	-7.53026
▁–	-7.53473
▁ଦେବ	-7.53564
▁ଚିନ୍ତାର	-7.53623
▁ସି	-7.53714
▁Action	-7.53741
le	-7.53913
▁match	-7.53973
▁w	-7.5407
4:16	-7.54207
▁found	-7.54285
େଇ	-7.54599
P	-7.55302
▁ଟଙ୍କା	-7.5531
ର୍ତ୍ତ	-7.55483
▁P	-7.55542
▁ମେ	-7.55611
di	-7.55836
▁you	-7.56001
ାଉ	-7.56839
ୌ	-7.56892
un	-7.56971
ହିଁ	-7.56987
ଳା	-7.57218
ମ୍ବ	-7.58011
ing	-7.58245
▁ବୁ	-7.5902
▁ସତ	-7.59194
▁ମହିଳାଙ୍କ	-7.59391
ପରି	-7.59946
th	-7.60791
se	-7.61038
▁c	-7.61072
▁୨୦	-7.6163
▁the	-7.61939
ad	-7.62709
ଠାରୁ	-7.62919
x	-7.63167
ସ୍ଥା	-7.6319
▁ଜାଣି	-7.63468
▁ଯା	-7.64568
ଦେଶ	-7.64697
▁ଜା	-7.64789
▁ପାଖରେ	-7.64808
▁୧୯	-7.64977
ଗୁଡ଼ିକ	-7.64993
▁ଏତେ	-7.65267
ନ୍ଧ	-7.65517
ଓ	-7.65588
ଷ୍	-7.66166
ଧି	-7.66186
Comment	-7.66195
▁୫	-7.66445
ଳ୍ପ	-7.66562
ଛା	-7.66909
▁କେମିତି	-7.66989
▁ଗୁ	-7.67043
ପାରିବ	-7.67302
ତୁ	-7.6744
ro	-7.67529
▁of	-7.67682
ଯା	-7.67711
ମ୍ଭ	-7.67977
U	-7.68505
▁କରାଯାଇ	-7.69148
J	-7.69227
▁କଲେ	-7.69653
_	-7.69778
▁ଭାରତ	-7.69865
▁O	-7.70034
▁ଛାଡିବ	-7.70529
▁ବେ	-7.71327
M	-7.71347
▁ନାମ	-7.71408
▁କାମ	-7.71409
▁ଖୋ	-7.71749
▁କାହା	-7.72331
V	-7.7254
▁@	-7.7298
ପାରେ	-7.73319
ଭାବ	-7.73378
▁ଆଈ	-7.73779
ଜ୍	-7.73875
▁ସମ	-7.74065
ଶୁ	-7.74233
୧୮	-7.74386
▁[	-7.7485
▁ଯାଅ	-7.74876
▁ଗ୍ରହଣ	-7.75882
ପୁର	-7.76019
▁କରା	-7.76254
ପାରିବେ	-7.76674
▁B	-7.76695
▁p	-7.76982
▁'	-7.77145
▁ଆଜି	-7.77413
▁ପି	-7.78537
ହଁ	-7.78656
▁ସରକାର	-7.78956
କରଣ	-7.79034
ଢ଼	-7.79131
ସ୍ଥ	-7.79291
▁ଦେଇ	-7.79342
û	-7.79617
▁ଉପରେ	-7.79929
ur	-7.80161
ion	-7.80235
ଯୋଗ	-7.81088
▁ପାଇ	-7.81304
ò	-7.8216
ଞ୍ଜ	-7.82267
▁ତୁମ	-7.82423
ed	-7.82809
▁ସ୍ୱ	-7.82995
▁ଗୋ	-7.83265
ାଇବା	-7.83439
▁”	-7.83533
”	-7.83783
▁ଯୋଗ	-7.84003
▁କେଉଁ	-7.84243
ଛୁ	-7.84298
▁।”	-7.84345
▁ଆରମ୍ଭ	-7.84676
ଜନ	-7.848
ce	-7.84897
ମୁ	-7.85078
ଝ	-7.853
▁to	-7.85307
▁4	-7.8531
ଜେ	-7.85766
me	-7.85925
▁love	-7.86047
▁D	-7.86118
୦୦	-7.86182
▁ଶା	-7.8626
▁ତୁମେ	-7.86541
▁ହୋଇନାହିଁ	-7.86691
ଟେ	-7.87619
B	-7.87831
ha	-7.87923
ଷ୍ଠ	-7.88054
ra	-7.88066
K	-7.88104
ଗ୍ରା	-7.88415
▁ଏଲିନା	-7.88438
▁ଡିଲ	-7.88526
ଫ୍	-7.88614
▁ଲକ୍ଷ	-7.88711
▁ହେ	-7.89494
▁ସ୍ୱାମୀ	-7.89536
▁ହେବା	-7.90128
ବ୍	-7.90205
▁ରହିଛି	-7.90486
▁E	-7.90577
ର୍ଯ୍ୟ	-7.91028
▁ପ୍ରା	-7.91127
▁ମୋତେ	-7.91197
▁ବୋଲି	-7.91466
▁କୌଣସି	-7.92006
li	-7.92066
Z	-7.92805
ho	-7.92998
▁20	-7.93027
॰	-7.93265
▁ଉତ୍ତର	-7.93495
ତତ୍ତ୍ୱ	-7.93496
▁ପୁଅ	-7.93652
ଇଁ	-7.9368
▁smruti	-7.93958
▁ବାଟ	-7.94302
ଗୁଡିକ	-7.94364
▁କିପରି	-7.9472
▁ଭାବରେ	-7.95107
କ୍ରମ	-7.95145
ୱ	-7.95464
କୃତ	-7.95478
ay	-7.95944
▁ପୁଣି	-7.96193
▁କେବଳ	-7.96543
@	-7.96579
ଚ୍ଛ	-7.96713
▁କରିବାକୁ	-7.97116
ଗୁଡ଼ିକୁ	-7.97351
▁ତାଙ୍କର	-7.97939
ଯାଇ	-7.97959
et	-7.99251
▁ନେଇ	-7.9931
ଲେଖ	-7.99446
ଗଲା	-7.99465
▁ହେଉଛି	-7.9955
&	-7.99684
▁କାରଣ	-8.00084
ଆଇ	-8.00278
▁ସ୍ଥାନ	-8.00415
[	-8.00994
▁୧୦	-8.011
il	-8.01331
▁4.4	-8.01419
ଗତ	-8.01422
▁ଯେଉଁ	-8.02045
ve	-8.02408
▁ଭଲ	-8.02443
▁ଅଟେ	-8.0259
▁କରୁଛନ୍ତି	-8.02812
(	-8.02992
▁ଏହାକୁ	-8.03059
▁ମିଶାଇ	-8.03184
▁କ୍ଷୀର	-8.03314
ଜ୍ଞା	-8.03948
ct	-8.04344
ନାହିଁ	-8.04456
ଚ୍ଚ	-8.04502
ୁଛି	-8.05197
।"	-8.05304
▁ବହୁତ	-8.05323
co	-8.05445
▁ଜୀବନ	-8.05802
▁ସନ୍ଦେଶ	-8.06283
▁ସୂଚନା	-8.07336
▁ଶେଷ	-8.07341
▁ଫାଇଲ	-8.07364
▁ମହେଶ	-8.07471
ଯୁକ୍ତ	-8.07612
▁ହୋଇଥାଏ	-8.08131
▁ଆମେ	-8.08331
ent	-8.09004
ବାଦ	-8.09031
ol	-8.09239
▁ଅନ୍ୟ	-8.0956
।”	-8.09896
▁ମିଳି	-8.099
▁ସମୟ	-8.10238
÷	-8.10432
▁କରିବେ	-8.10595
CGX	-8.1068
▁ପ୍ରଶ୍ନ	-8.10716
▁ବଢି	-8.11204
ଯାଇଛି	-8.11357
▁ସମୟରେ	-8.1143
▁ନୂଆ	-8.11809
▁କରିଛନ୍ତି	-8.12588
ଜୁ	-8.12983
୍ୟୁ	-8.12993
▁ପିଲା	-8.13038
▁ଏମିତି	-8.13068
ation	-8.13148
▁ଖାଦ୍ୟ	-8.13486
ly	-8.13664
▁ତୁ	-8.13717
▁ବୋ	-8.1426
14	-8.14598
▁ଆସିଲା	-8.1503
▁ନୂତନ	-8.16927
ରୂପ	-8.17156
▁ରଖି	-8.17664
▁ଅଭି	-8.18798
▁ବାହାର	-8.18955
▁ଜାଣନ୍ତୁ	-8.19141
▁ଘେରରେ	-8.19589
▁ଆବଶ୍ୟକ	-8.19888
▁ବିଶୋଧନ	-8.19888
▁ପକାନ୍ତୁ	-8.19893
▁କୁହ	-8.20342
ମୃତ	-8.20655
▁ତଳି	-8.21086
▁ବିଜେପି	-8.21708
▁ମଞ୍ଜିରେ	-8.2171
▁ସେହି	-8.21718
୤	-8.22167
ww	-8.22231
ହେଲେ	-8.229
18	-8.23039
▁ଚିହ୍ନ	-8.24658
▁ହୁଏ	-8.24713
୍‍	-8.25113
▁ଶରୀର	-8.25303
▁ଜଣେ	-8.25508
ମୁଁ	-8.2572
▁ଭିତରେ	-8.25784
▁ଫୋଲଡର	-8.26246
▁ପଚାରି	-8.26252
▁ହଉ	-8.27041
କାରୀ	-8.27395
▁ପ୍ରଥମ	-8.27401
ଫା	-8.30025
▁ଦେଖା	-8.30449
▁ଏସି	-8.30494
ବେଳେ	-8.30963
ାବକ	-8.31793
▁ଆଲୋଚନା	-8.32014
=	-8.32184
▁ଶପଥ	-8.32528
▁ବନ୍ଦ	-8.32679
▁କରିଥିଲେ	-8.33652
▁ପୂର୍ବ	-8.33843
▁କିମ୍ବା	-8.33909
ତ୍ୱ	-8.34243
▁name	-8.3494
▁ଲାଗି	-8.35643
▁and	-8.35701
▁ରାଜ୍ୟ	-8.35819
▁ତାଲିକା	-8.36176
▁କେହି	-8.36396
▁ହାତ	-8.36563
▁ବ୍ୟକ୍ତି	-8.36702
▁ହୋଇଛି	-8.3693
▁News	-8.37059
▁ଦେଇଛନ୍ତି	-8.37096
▁ତମେ	-8.37478
▁ହେଇ	-8.37992
▁ଓଡ଼ିଆ	-8.38137
▁ତେଣୁ	-8.38316
▁Re	-8.38441
▁ଜଣକ	-8.41348
▁ସମ୍ପର୍କ	-8.41435
▁ଭାଙ୍ଗି	-8.41622
▁କହିଛନ୍ତି	-8.41657
Y	-8.42182
`	-8.42371
▁ଶୁଣି	-8.42389
▁ଚିଠି	-8.4258
ate	-8.42975
▁ହେଉ	-8.43039
ପୂ	-8.43094
କିଙ୍ଗ	-8.43193
▁ପଢନ୍ତୁ	-8.43891
ଈ	-8.44051
୧୯	-8.44233
▁ଘଟଣା	-8.44272
▁ପୃଷ୍ଠ	-8.44656
▁wwwwwwwwwwwwwww	-8.44847
▁ବିଶ୍ୱ	-8.45893
ଷ୍ଟ୍ର	-8.46275
▁ଉଠ	-8.47069
—	-8.47585
ାଲୋଚନା	-8.47783
▁ଗୀତ	-8.48056
▁ଉଚିତ	-8.49117
j	-8.49587
þ	-8.50808
á	-8.51218
▁ପ୍ୟାଲେସ	-8.5163
ù	-8.51836
ú	-8.51836
▁ବୟସ	-8.51958
▁ଯୀଶୁ	-8.5246
▁ମଞ୍ଜି	-8.52666
#	-8.52876
▁ହୁଅ	-8.53552
▁ଓଡ଼ିଶା	-8.55202
▁99	-8.55245
▁71	-8.5573
▁ଯୁବକ	-8.56493
▁ଅଧିକାର	-8.56573
▁97	-8.57181
.....	-8.57311
▁ପର୍ଯ୍ୟନ୍ତ	-8.57365
▁72	-8.57404
▁ସେହିଭଳି	-8.57583
▁ଅନ୍ୟପଟେ	-8.58022
ଭିଧାନ	-8.58048
!”	-8.58813
▁ଏକ୍ସପ୍ରେସ୍	-8.58906
.19	-8.58932
X	-8.58947
▁Kanak	-8.59351
▁1.21	-8.59351
▁ଡକ୍ଟର	-8.59574
▁ଶ୍ରୀ	-8.60069
▁ଲଗ	-8.60075
▁ମୋଦିଙ୍କ	-8.60311
▁ନିୟମ	-8.60396
▁ଚାହୁଁଛନ୍ତି	-8.61834
\\	-8.61839
▁ସର୍ବ	-8.62454
▁ପ୍ରତିମୂର୍ତ୍ତି	-8.62522
▁ଗରମ	-8.62922
▁ଆମ୍ବେଦକର	-8.63447
▁ସାଧାରଣ	-8.63679
▁ଉତ୍ତରପ୍ରଦେଶର	-8.63912
▁ପରିବର୍ତ୍ତନ	-8.64146
▁info	-8.64148
▁ବଞ୍ଚି	-8.64522
▁ପ୍ରଣେ	-8.64688
ରିଟରେ	-8.64697
▁ପିଇବା	-8.6509
ର୍ଣ୍ଣ	-8.66249
▁ପୋଷାକ	-8.66274
ପୂର୍ଣ୍ଣ	-8.663
▁ପ୍ରେମ	-8.6638
▁ଭୁଲ	-8.66532
▁ଆମେରିକା	-8.67241
▁ଯୋଜନା	-8.67476
ବର୍ଷ	-8.68028
▁ସ୍ତ୍ରୀ	-8.68699
ଦୂରରେ	-8.69926
▁action	-8.7067
age	-8.71
▁ତ୍ରୁଟି	-8.71173
▁ସାହିତ୍ୟ	-8.71926
▁ମୂଳ	-8.71935
ପଥର	-8.72272
▁ଭାବେ	-8.72685
▁ସଦସ୍ୟ	-8.73455
▁ଛାଡି	-8.73666
♪	-8.75007
▁ହଜାର	-8.75829
Q	-8.76321
▁ପ୍ରକାଶ	-8.76594
▁ଯୁଦ୍ଧ	-8.77385
ଧର୍ମ	-8.78058
▁ଅନେକ	-8.78192
▁The	-8.79007
▁ଲେଖି	-8.79088
▁ବ୍ର	-8.79259
z	-8.79269
▁ଦୌଡ଼ି	-8.7927
▁ମୃତ୍ୟୁ	-8.79545
▁ନିର୍ବାଚନ	-8.80364
▁ବଦଳ	-8.8047
▁4.5	-8.80644
▁ଘେରି	-8.80661
‹	-8.81
q	-8.81192
ଗ୍ରହ	-8.81863
▁ରୋଗ	-8.82047
▁ଅସଦାଚରଣ	-8.8372
▁ଜନ୍ମ	-8.83739
▁ଋଣ	-8.84331
▁ଚିତ୍ର	-8.84646
▁ଝିଅ	-8.84865
▁♪♪♪♪♪♪♪♪♪♪♪♪♪	-8.85153
▁ନବୀନ	-8.85153
ଯାଉଛି	-8.85163
ଞ	-8.85422
▁ଦୁଃଖ	-8.85442
▁♪♪♪♪♪	-8.85442
▁♪♪♪♪♪♪♪♪♪♪	-8.85442
▁ନୁହଁ	-8.85443
ଫ୍ୟୁମ	-8.85444
ିଙ୍ଗୁଡ଼ି	-8.85732
▁ପାଟିଶୁଣି	-8.86023
▁ସୁଯୋଗରେ	-8.86026
▁ସମସ୍ୟା	-8.86611
▁ବିରୋଧ	-8.86901
ତନ୍ତ୍ର	-8.8695
▁ଜିଲ୍ଲା	-8.87194
▁ଗାଁ	-8.87232
▁ପଢି	-8.87807
▁ତଥ୍ୟ	-8.8783
▁ବ୍ୟାଙ୍କ	-8.88103
ଦର୍ଶନ	-8.89882
œ	-8.90184
▁ବୀମା	-8.90217
▁ଭିଡିଓ	-8.90793
▁ଡାକ୍ତର	-8.90794
▁ପୋଲିସ	-8.90799
▁ଖେଳ	-8.90871
▁କଂଗ୍ରେସ	-8.91405
▁ଭିଟାମିନ	-8.91713
RIZ	-8.92022
▁ପ୍ରସ୍ତୁତ	-8.92333
▁ସଂରକ୍ଷଣ	-8.92953
▁ଶିଶୁ	-8.93284
ଋ	-8.9385
▁ନିର୍ମାଣ	-8.94526
▁ପରିମାଣରେ	-8.94843
▁ଆଶ୍ଚର୍ଯ୍ୟ	-8.95162
▁Long	-8.95162
▁ପାଖକୁ	-8.96464
▁ମଧ୍ଯ	-8.96771
▁ତାରିଖ	-8.97101
▁କୁମାର	-8.97309
▁ଘରୋଇ	-8.97751
▁ଲାଗୁ	-8.97772
▁କେନ୍ଦ୍ର	-8.98074
▁ମସିହା	-8.99068
▁ମନ୍ତ୍ର	-8.99075
▁ବିକାଶ	-8.99411
▁India	-9.01075
▁ଫିଙ୍ଗି	-9.01414
▁ସଦାପ୍ରଭୁ	-9.01754
▁ଠିକଣା	-9.01754
ଭୂମି	-9.01773
▁ଫଳପ୍ରଦ	-9.02095
▁ବିଶେଷ	-9.02095
▁କ୍ଷେତ୍ର	-9.02439
ଲିଖିତ	-9.03133
▁ମୂଲ୍ୟ	-9.04168
▁ଅନୁସାରେ	-9.04173
▁WEB	-9.04868
“	-9.04915
ଦେଇଥାନ୍ତି	-9.0522
▁Next	-9.06284
▁କରୁଅଛି	-9.06284
▁ଘଣ୍ଟା	-9.06645
{	-9.07
▁ବର୍ତ୍ତମାନ	-9.07001
▁ମହିଳା	-9.07188
▁Why	-9.0736
}	-9.08083
▁You	-9.10288
ସିଂହ	-9.10601
▁ପରମେଶ୍ବର	-9.1103
▁minutes	-9.11404
▁ଶବ୍ଦ	-9.1141
▁ରାସ୍ତା	-9.11783
▁ଆଧୁନିକ	-9.12157
▁public	-9.12536
▁label	-9.12916
▁private	-9.13298
▁ପ୍ରୟୋଗ	-9.13681
▁ଚାଲୁଥିବା	-9.14067
▁http	-9.14452
▁item	-9.15229
▁ବର୍ଣ୍ଣନା	-9.1523
ሳ	-9.1601
▁ଘୋଷଣା	-9.16011
▁2015	-9.16013
▁ମାଧ୍ୟମ	-9.16405
KChar	-9.168
▁Previous	-9.17996
▁ପୃଥିବୀ	-9.17996
▁ଗିରଫ	-9.17996
▁ଚିନ୍ତା	-9.18608
▁lives	-9.188
+	-9.25483
\	-9.46007
଼	-9.48874
*	-9.57248
ଔ	-9.62737
←	-9.68545
‘	-9.77859
–	-9.7864
‍	-9.91708
ā	-9.9245
~	-9.94151
»	-10.2164
•	-10.3363
ଐ	-10.3621
©	-10.5174
🙏	-10.5174
᭫	-10.5804
ō	-10.6304
·	-10.7197
ē	-10.7774
$	-10.8178
♡	-10.8178
ਾ	-10.8817
ຨ	-10.9039
ଊ	-10.9499
ī	-10.9981
₹	-11.3145
║	-11.3146
┈	-11.3147
↑	-11.3148
ẹ	-11.3149
ଙ	-11.315
