<unk>	0
<s>	0
</s>	0
▁	-3.46696
▁‹	-3.92147
.	-3.92732
,	-4.00443
▁।	-4.37181
▁!	-4.66779
।	-4.71326
▁1	-4.83149
?	-4.83969
▁ସେ	-4.87322
ରେ	-4.87704
ର	-4.89563
-	-4.95393
କୁ	-4.98871
st	-5.06631
)	-5.13576
▁?	-5.31335
:	-5.34903
▁କହିଲେ	-5.3898
’	-5.39919
▁କ	-5.4176
▁କିନ୍ତୁ	-5.42239
▁(	-5.4527
▁କି	-5.47074
▁ନାହିଁ	-5.48135
▁ପାଇଁ	-5.51108
▁ଏହି	-5.53887
s	-5.55241
▁“	-5.60911
▁ହେଲା	-5.63308
▁ଓ	-5.68498
ଣ	-5.69802
▁IS	-5.75913
ye	-5.80509
▁y	-5.8091
▁hu	-5.81091
emiti	-5.81156
CG	-5.88718
ଙ୍କ	-5.89705
▁ବି	-5.93085
▁ମୁଁ	-5.93179
!	-5.94382
1	-5.99274
ରୁ	-6.00146
▁ସେଦିନ	-6.01673
▁-	-6.01722
▁mi	-6.02
▁But	-6.02927
racle	-6.02982
▁ଏହା	-6.03979
...	-6.05551
▁କରନ୍ତୁ	-6.07327
▁ମଧ୍ୟ	-6.07945
▁ଏବଂ	-6.08377
▁ଅ	-6.17919
▁"	-6.18004
▁ଆଉ	-6.18289
▁ତ	-6.2207
▁କରୁଛି	-6.22461
▁ଏ	-6.22525
୍	-6.25188
▁ପଇସା	-6.2735
▁mẹ	-6.29808
▁ମୋ	-6.29883
▁ଏକ	-6.31119
▁ଆପଣ	-6.32303
▁କଣ	-6.33471
▁କିଛି	-6.33867
▁କରି	-6.33935
▁ହାତୀ	-6.34631
'	-6.34931
▁କଥା	-6.3551
▁Smoking	-6.36075
▁ଅଛି	-6.3692
▁କେବେ	-6.37888
Name	-6.38936
▁କରିବା	-6.41173
▁ଆମ	-6.42014
▁କହିଲା	-6.42292
▁ଯେ	-6.42961
▁ନ	-6.43263
▁ବର୍ଷ	-6.43963
▁ର	-6.45441
▁ଏବେ	-6.45669
▁କାହିଁକି	-6.48258
▁ନୁହେଁ	-6.50311
▁ବେଳେ	-6.50736
/	-6.5138
▁ଆଃ	-6.52463
▁ହେବ	-6.551
▁ଯଦି	-6.55349
ଟି	-6.55468
▁ରେ	-6.5594
▁ଥିବା	-6.58234
ନ	-6.5831
କ	-6.60212
ତା	-6.60762
▁ପୂର୍ବରୁ	-6.625
▁ତେବେ	-6.63562
େ	-6.64105
▁ତା	-6.64353
▁ସ	-6.65927
ା	-6.66294
▁ମ	-6.66396
▁ହେଲେ	-6.67884
▁ପିଛା	-6.67958
▁is	-6.68723
▁କେତେ	-6.68785
▁କିଲୋମିଟର	-6.68974
▁ହଁ	-6.71354
▁ବ୍ୟବହାର	-6.71601
▁‘	-6.73535
ବା	-6.73779
▁ବ	-6.74572
▁ପରେ	-6.76281
▁ସବୁ	-6.76389
;	-6.76427
ଙ୍କୁ	-6.76607
▁(_	-6.7795
▁ବା	-6.78497
▁ଟ	-6.78614
e	-6.79858
▁ଆ	-6.8088
ଲା	-6.81027
▁ନା	-6.81321
▁:	-6.81622
▁ତାଙ୍କ	-6.82977
ନି	-6.83446
]	-6.85028
▁ବୃଦ୍ଧି	-6.85642
▁ତାଙ୍କୁ	-6.8633
▁ଏହାର	-6.86415
I	-6.86444
▁କହନ୍ତି	-6.86777
ଏହା	-6.88775
▁ପ	-6.88823
ନା	-6.88857
▁ମା	-6.89289
▁%	-6.90854
ୀ	-6.91683
▁ଏହାପରେ	-6.92612
▁ବିଷୟ	-6.92653
ି	-6.92654
▁ଏଥିରେ	-6.94754
▁ବସ୍	-6.9557
▁କିଏ	-6.95845
▁no	-6.9613
▁ହୋଇ	-6.97829
▁ପହଞ୍ଚିଛି	-6.98133
"	-6.98636
▁ପାଇଛି	-6.9901
▁ଆସେ	-7.00517
▁ଦରରେ	-7.00696
▁ପଇସାରେ	-7.01232
▁if	-7.02323
ୋଡ଼ା	-7.02703
▁ଦୁଇ	-7.02773
▁ଅଧିକ	-7.0362
▁ଗୋଟିଏ	-7.03795
▁ସହିତ	-7.04199
▁–	-7.04793
▁Action	-7.05528
▁match	-7.05758
▁ଚିନ୍ତାର	-7.06053
▁found	-7.0607
▁ମହିଳାମାନଙ୍କ	-7.06179
▁ଚ	-7.06665
▁ଭାଷା	-7.0899
କ୍ସ	-7.10892
▁ତାହା	-7.11021
u	-7.12936
▁ହ	-7.14907
g	-7.1503
ମ	-7.15333
ଲି	-7.15352
ସ	-7.15392
l	-7.16497
▁ପାଖରେ	-7.16623
▁କେମିତି	-7.18774
▁ଏତେ	-7.19358
▁_	-7.19646
▁you	-7.19819
▁of	-7.19876
▁କାମ	-7.2013
ବି	-7.20683
▁the	-7.20718
▁@	-7.21717
▁ଛାଡିବ	-7.22078
▁0	-7.22634
▁ସହ	-7.22799
▁A	-7.2318
▁ସମସ୍ତ	-7.24826
ଲେ	-7.25351
▁ଆଈ	-7.25405
▁ଦିନ	-7.26233
▁ଯାଅ	-7.26694
▁ଯାହା	-7.27562
▁କର	-7.287
ନ୍	-7.29157
▁ଉପରେ	-7.29213
▁”	-7.30698
▁ଗ୍ରହଣ	-7.30715
û	-7.31401
ଲ	-7.32654
▁।”	-7.33443
୧୮	-7.33863
ò	-7.33945
▁କଲେ	-7.3427
▁ଆଜି	-7.34791
ମା	-7.36261
▁ଥିଲା	-7.36575
▁ଆରମ୍ଭ	-7.36692
▁ଟଙ୍କା	-7.36817
କି	-7.37055
▁ତୁମେ	-7.37725
▁love	-7.37834
ବ	-7.38085
▁ହୋଇନାହିଁ	-7.38457
▁I	-7.3884
?”	-7.39065
4:16	-7.39596
▁ଡିଲ	-7.40088
▁ଏଲିନା	-7.40217
W	-7.4085
D	-7.41348
▁ରହିଛି	-7.42033
▁ମି	-7.42181
▁ମୋତେ	-7.42809
▁ବୋଲି	-7.43013
▁ଡ	-7.43423
▁ଦ	-7.43768
▁କୌଣସି	-7.43843
ତି	-7.44616
▁ବାଟ	-7.44788
॰	-7.45049
ତତ୍ତ୍ୱ	-7.45283
▁କାର୍ଯ୍ୟ	-7.45633
▁smruti	-7.45742
▁କିପରି	-7.4619
▁ତାଙ୍କର	-7.4686
▁ଭାବରେ	-7.46969
▁୨	-7.47137
▁ଉତ୍ତର	-7.47224
▁କରିବାକୁ	-7.47975
▁ନାମ	-7.48189
▁ମହିଳାଙ୍କ	-7.4823
▁କେବଳ	-7.48389
ରି	-7.48453
▁ସ୍ୱାମୀ	-7.49239
▁ହେଉଛି	-7.5124
S	-7.51526
▁୧	-7.51648
▁a	-7.51935
ିତ	-7.52234
▁ଲୋକ	-7.52405
▁[	-7.52791
f	-7.53015
▁ଆପଣଙ୍କ	-7.53016
▁4.4	-7.53203
ତ	-7.53748
▁ଅଟେ	-7.53761
ପ	-7.5406
%	-7.54223
▁2	-7.54338
▁ଏହାକୁ	-7.54378
▁ପୁଣି	-7.54387
▁କରୁଛନ୍ତି	-7.54625
▁'	-7.54755
a	-7.54962
▁ମିଶାଇ	-7.54974
▁କ୍ଷୀର	-7.55095
ୁ	-7.55743
ମି	-7.56994
ଡି	-7.57094
▁ଶେଷ	-7.57185
ସ୍	-7.57484
ଏ	-7.57713
▁ଆମେ	-7.58249
▁ନେଇ	-7.58473
▁ହୋଇଥାଏ	-7.59596
▁ମହେଶ	-7.59876
।"	-7.59884
କା	-7.60089
▁S	-7.60511
▁କରିବେ	-7.61071
o	-7.61109
t	-7.61114
▁ଭଲ	-7.6118
▁ସମୟ	-7.61917
▁ପୁଅ	-7.62071
ରା	-7.62187
÷	-7.62216
CGX	-7.62441
▁ସୂଚନା	-7.62529
▁ସମୟରେ	-7.62709
▁କରିଛନ୍ତି	-7.63254
▁ମୋର	-7.63283
▁to	-7.63325
Z	-7.63429
Comment	-7.64284
▁କାରଣ	-7.64516
C	-7.64623
।”	-7.6491
▁ଏମିତି	-7.64935
ବେ	-7.65701
J	-7.66174
▁ଆସିଲା	-7.66213
ଂ	-7.66589
▁ଶ	-7.66641
ପି	-7.67244
▁ପା	-7.67824
▁ଥିଲେ	-7.68029
▁ନିଜ	-7.68082
▁ପି	-7.68119
ମ୍	-7.68451
▁ନୂତନ	-7.68736
▁ଗ	-7.68955
▁T	-7.69033
A	-7.69077
16	-7.69122
d	-7.70022
3	-7.70245
(	-7.70681
▁ପରି	-7.70948
▁ଜାଣନ୍ତୁ	-7.70985
ସି	-7.71099
▁ଘେରରେ	-7.71382
▁ବିଶୋଧନ	-7.71672
▁ପକାନ୍ତୁ	-7.71672
▁ତଳି	-7.72259
er	-7.73045
▁ମଞ୍ଜିରେ	-7.73054
▁ହେ	-7.73601
ଗୁଡ଼ିକ	-7.73882
▁ଲୋକେ	-7.7447
ଟା	-7.74911
▁ଘର	-7.7522
n	-7.75237
▁ରୁ	-7.7553
▁ଚାଲି	-7.75579
▁୧୦	-7.76461
m	-7.76693
▁ବହୁତ	-7.76751
▁ସରକାର	-7.76765
▁ତାକୁ	-7.77011
ଇ	-7.77184
▁ମଧ୍ୟରେ	-7.7739
▁ଭିତରେ	-7.77577
▁ଜଣେ	-7.77589
୤	-7.78963
@	-7.79479
▁i	-7.79541
▁ନୂଆ	-7.80014
R	-7.80065
ମୁଁ	-7.80694
▁C	-7.81024
▁ସେମାନେ	-7.81092
▁ସେହି	-7.82006
▁ହେବା	-7.82086
▁ଥାଏ	-7.82158
▁କେଉଁ	-7.82391
_	-7.82654
▁ପ୍ର	-7.83045
▁ଆଲୋଚନା	-7.84014
▁କରିଥିଲେ	-7.84065
▁ଯେଉଁ	-7.84249
▁ଶପଥ	-7.84311
▁ପ୍ରଶ୍ନ	-7.84345
ଛି	-7.84451
ଟ	-7.84666
▁କିମ୍ବା	-7.85735
▁Name	-7.85764
ଆର	-7.8608
▁ହୁଏ	-7.86193
L	-7.8667
▁ସମ୍	-7.86738
▁ଖାଦ୍ୟ	-7.86992
▁ପ୍ରତି	-7.87471
▁and	-7.87796
T	-7.87821
▁ହୋଇଛି	-7.87968
▁ଜ	-7.87987
▁ଇ	-7.88193
▁ହଉ	-7.88245
କର	-7.88454
▁ଦେଇଛନ୍ତି	-7.88681
▁୩	-7.88782
ିକ	-7.88944
▁3	-7.89071
ର୍	-7.89482
▁ତମେ	-7.89529
ାଇ	-7.8981
▁News	-7.89947
▁ଓଡ଼ିଆ	-7.90105
▁ତେଣୁ	-7.90161
ମାନେ	-7.90937
M	-7.91355
ing	-7.91557
▁ଆବଶ୍ୟକ	-7.91957
E	-7.9272
▁କହିଛନ୍ତି	-7.92866
▁ତୁମ୍ଭେ	-7.9344
▁ଭାଙ୍ଗି	-7.93486
O	-7.94215
▁ଚିଠି	-7.94345
▁ବିଜେପି	-7.94399
▁ଜଣକ	-7.94421
`	-7.94533
▁କହି	-7.95437
▁ବନ୍ଦ	-7.95664
▁ପଢନ୍ତୁ	-7.95672
in	-7.9591
ଳ	-7.96039
▁name	-7.96129
▁ସତରେ	-7.96884
▁wwwwwwwwwwwwwww	-7.97054
▁କେହି	-7.97313
i	-7.97322
ପରେ	-7.9797
▁ଫାଇଲ	-7.98111
କିଙ୍ଗ	-7.98226
▁ଘରେ	-7.98514
▁ତୁ	-7.98517
ଙ୍କର	-7.99266
▁ତୁମ	-7.99291
B	-7.9934
▁in	-7.99734
▁ଏସି	-8.00945
ଜ	-8.01503
P	-8.01514
କ୍	-8.01959
▁ଦେଇ	-8.02251
=	-8.02484
þ	-8.02592
2	-8.0267
á	-8.03002
”	-8.03003
ହାମ୍	-8.03234
▁ପ୍ୟାଲେସ	-8.03414
▁ଉ	-8.03596
ù	-8.03621
ú	-8.03621
▁ଆପଣଙ୍କୁ	-8.03726
▁ଫୋଲଡର	-8.05229
▁ଭ	-8.05755
▁କରିଛି	-8.06183
ାଲୋଚନା	-8.06339
▁ମାନେ	-8.07281
▁99	-8.07474
▁ଜୀବନ	-8.07492
▁ରାତିରେ	-8.08039
▁ଯୁବକ	-8.08307
ପା	-8.08451
▁ମାତ୍ର	-8.08452
▁71	-8.08456
▁97	-8.09049
▁ପର୍ଯ୍ୟନ୍ତ	-8.09242
▁ପ୍ରଥମ	-8.09295
▁72	-8.09322
▁ସେହିଭଳି	-8.0937
▁↑	-8.09586
▁ଅନ୍ୟ	-8.09656
▁ଅନ୍ୟପଟେ	-8.09807
ନାହିଁ	-8.09935
▁ସି	-8.10032
ସେ	-8.10398
▁ଏକ୍ସପ୍ରେସ୍	-8.10695
ନ୍ତି	-8.10834
▁ହିଁ	-8.10929
▁Kanak	-8.11135
▁1.21	-8.11136
ଜି	-8.11136
▁କରିବ	-8.11545
▁ଡକ୍ଟର	-8.11547
.19	-8.11567
ଅ	-8.11814
▁କରିଥିଲା	-8.11915
ଦ	-8.11935
ଗୁଡ଼ିକୁ	-8.12089
ଣି	-8.12253
▁4	-8.12821
▁ଭାରତ	-8.13154
U	-8.13359
▁ଦ୍ୱାରା	-8.13391
F	-8.13568
\\	-8.13621
▁ଚାହୁଁଛନ୍ତି	-8.13624
ାବକ	-8.1368
▁କରିପାରିବେ	-8.14256
▁ସନ୍ଦେଶ	-8.14281
▁ପ୍ରତିମୂର୍ତ୍ତି	-8.14308
▁ଗରମ	-8.14326
▁୫	-8.14461
&	-8.14622
▁ଉପଦ୍ର	-8.15003
ed	-8.15058
▁ହାତ	-8.15094
▁ଆମ୍ବେଦକର	-8.15231
ରୀମାନେ	-8.1547
▁ଉତ୍ତରପ୍ରଦେଶର	-8.15737
▁ପରିବର୍ତ୍ତନ	-8.15934
ଭିଧାନ	-8.15952
୩	-8.15957
▁ଅଳ୍ପ	-8.16178
ହେ	-8.16197
▁ପ୍ରଣେ	-8.164
ରିଟରେ	-8.16441
▁info	-8.16462
▁6	-8.16739
▁P	-8.16829
▁ପିଇବା	-8.16887
▁5	-8.16961
▁ବୟସ	-8.17113
ଶ	-8.17763
▁ମନେ	-8.17844
▁ବିଷୟରେ	-8.17858
ୟ	-8.18013
▁ପୋଷାକ	-8.18058
▁ନାହାନ୍ତି	-8.18065
▁ଶରୀର	-8.18092
▁ଭାଇ	-8.18132
ଉ	-8.182
▁ମନ	-8.18764
ଙ୍ଗ	-8.19006
ରୀ	-8.19295
N	-8.19407
▁କେ	-8.19558
▁ମଞ୍ଜି	-8.197
▁ଦେଖି	-8.20264
ାର	-8.20367
▁ପାଇ	-8.20544
▁ତାଲିକା	-8.20681
▁୧୯	-8.20845
▁04:	-8.20936
▁—	-8.21075
▁ନି	-8.21345
▁ଏପରି	-8.21744
▁ଲକ୍ଷ	-8.21758
▁ଟି	-8.219
▁ଗୀତ	-8.22021
ly	-8.22023
".	-8.22115
▁?”	-8.22142
▁ଦାରୁ	-8.22241
▁action	-8.22591
▁ଦେବ	-8.22895
ଥିବା	-8.23001
▁Comment	-8.23186
▁ନେତା	-8.23209
େଇ	-8.23293
▁ମହିଳାଙ୍କୁ	-8.2337
ଦୂରରେ	-8.23498
p	-8.23544
ହ	-8.23777
▁ଘଟଣା	-8.23795
ଗୁଡିକ	-8.24126
▁ଭାବେ	-8.24617
▁ଯାଇ	-8.24689
▁ଅଛନ୍ତି	-8.24854
▁B	-8.25135
▁ରଙ୍ଗ	-8.25748
▁ସମ୍ପର୍କ	-8.25782
▁ମୁ	-8.2607
14	-8.26236
▁ବଡ	-8.26568
▁।[	-8.26774
▁କହିଲି	-8.26913
▁ପାଣି	-8.27043
▁R	-8.27179
▁ଆପଣଙ୍କର	-8.27283
ଏସ୍	-8.27975
ଚ	-8.28214
ଲ୍	-8.2824
▁ଧ	-8.2829
ହଁ	-8.28354
୪	-8.28983
▁ଯୋଜନା	-8.29104
ତ୍ଵ	-8.29106
▁ପର୍	-8.29119
▁ଯାଇଥିବା	-8.29292
▁ଲ	-8.29467
▁ତ୍ରୁଟି	-8.29965
▁ଅନେକ	-8.29972
▁ଯୁଦ୍ଧ	-8.30103
▁ଉଚିତ	-8.30238
▁17	-8.30376
▁l	-8.30469
▁ଶୁଣି	-8.30617
▁ଭାରତୀୟ	-8.30621
TS	-8.30622
H	-8.30793
▁ଦୌଡ଼ି	-8.31053
▁ଆସିଥିଲେ	-8.31072
▁ଲୋକମାନେ	-8.31135
▁The	-8.315
▁9	-8.32001
▁ଘେରି	-8.32441
▁4.5	-8.3245
ମାନଙ୍କ	-8.32773
▁ହେବେ	-8.32901
ହି	-8.33157
▁କରାଯାଇଛି	-8.3327
▁ଛି	-8.34247
▁ନିୟମ	-8.34363
୧	-8.34608
କେ	-8.34791
▁8	-8.34955
▁ଯୋଗ	-8.35347
▁ଯୀଶୁ	-8.35498
▁ଅସଦାଚରଣ	-8.35505
▁ଜାଣି	-8.359
▁ହଜାର	-8.36013
ମୋ	-8.36057
‹	-8.36162
୍ୟ	-8.36509
ଫ୍ୟୁମ	-8.37231
▁♪♪♪♪♪♪♪♪♪♪	-8.3725
ିଙ୍ଗୁଡ଼ି	-8.37517
▁ଘରଠାରୁ	-8.37558
ଜା	-8.37642
▁ପାଟିଶୁଣି	-8.37807
▁ଠାରୁ	-8.37866
ଃ	-8.3797
▁ସୁଯୋଗରେ	-8.37986
G	-8.3813
▁ଧରି	-8.38202
ଗ	-8.3826
▁ଋଣ	-8.38322
r	-8.384
▁କରିଥାଏ	-8.38629
▁ସ୍ଥାନ	-8.38695
▁ପ୍ରଦାନ	-8.38856
c	-8.38856
ଡା	-8.38944
▁ସୁ	-8.38956
ପ୍	-8.39068
▁ସ୍ତ୍ରୀ	-8.39241
▁ଦେଖନ୍ତୁ	-8.39282
▁ତାର	-8.39586
▁କୋଟି	-8.40053
ପାରେ	-8.40291
ଡ	-8.40427
▁କରନ୍ତି	-8.40562
▁ଖବର	-8.40611
ଓ	-8.40652
ାନ	-8.40754
▁ସାହିତ୍ୟ	-8.40793
▁ମୂଳ	-8.41252
ଠାରୁ	-8.41636
œ	-8.41968
▁ବିଭାଗ	-8.42012
▁ମହା	-8.42263
▁ଭିଡିଓ	-8.42578
▁କାର୍ଯ୍ୟକ୍ରମ	-8.42739
▁ଏଇ	-8.42765
▁କରାଯାଇପାରିବ	-8.42895
y	-8.42997
▁ତୁମକୁ	-8.43016
amp	-8.43046
▁7	-8.43085
ଆ	-8.43301
▁ତୁମ୍ଭ	-8.43578
▁&	-8.43582
9-	-8.43699
RIZ	-8.43806
▁ନାଁ	-8.44186
▁ଚିହ୍ନି	-8.44687
▁ମୋଦି	-8.4472
▁ସଂରକ୍ଷଣ	-8.44738
▁ମୃତ୍ୟୁ	-8.4474
ିଆ	-8.44957
କାର	-8.45213
▁ଜନ୍ମ	-8.45446
▁ମୋଦିଙ୍କ	-8.45635
▁କା	-8.45951
▁ନିର୍ମାଣ	-8.46322
▁ରାଜ୍ୟ	-8.46349
▁କମ	-8.46387
▁ଏମାନଙ୍କୁ	-8.46493
▁ପରିମାଣରେ	-8.4685
▁'%	-8.47093
▁ଯ	-8.47148
V	-8.47245
▁ପ୍ରେମ	-8.47464
▁ଝିଅ	-8.47615
gt	-8.47701
▁ଯାଏ	-8.47797
▁ଦେଲେ	-8.47916
▁ହୋଇଥିଲା	-8.4831
▁ପାଖକୁ	-8.4836
▁୯	-8.48969
5	-8.49044
▁__	-8.49085
▁ସମସ୍ୟା	-8.49281
▁କରିଥିବା	-8.49438
ନ୍ତ	-8.4944
▁ଘରୋଇ	-8.49536
Q	-8.49856
▁ଯାଇଥାଏ	-8.50136
▁ଶ୍ରୀ	-8.50361
ଥିଲେ	-8.50396
▁ରାଜା	-8.50782
▁ଥର	-8.50842
▁୩୦	-8.5107
▁ଚିତ୍ର	-8.51177
▁ସମସ୍ତେ	-8.51302
▁ମାମଲା	-8.51515
▁ସତ	-8.51647
ମୁ	-8.5183
▁ଆସି	-8.51862
▁ନୁହଁ	-8.52155
▁ହୁଅ	-8.52155
▁କାହାକୁ	-8.52195
4	-8.52281
▁କାହା	-8.52334
▁ଭାତ	-8.52368
al	-8.52427
K	-8.52444
▁କରାଯାଏ	-8.52529
▁ଭିଟାମିନ	-8.52659
▁ଫ	-8.52734
ଭ	-8.53185
▁ଫିଙ୍ଗି	-8.53198
▁୧୫	-8.53353
▁for	-8.53511
▁ଓଡ଼ିଶା	-8.53873
▁ଫଳପ୍ରଦ	-8.53879
ସ୍ତ	-8.53917
▁ବୀମା	-8.54224
▁ନିଜର	-8.54251
ୟା	-8.54459
▁ହୋଇଥିବା	-8.54618
▁ହା	-8.54705
▁ଦରକାର	-8.54896
ଲୁ	-8.54929
▁୨୦	-8.55011
▁କଲା	-8.55042
ଣ୍ଡ	-8.55137
on	-8.55244
▁ପ୍ରକାର	-8.55473
▁ଠିକଣା	-8.55956
▁ଅନୁସାରେ	-8.55964
ଦା	-8.56151
▁ପୂର୍ବ	-8.5619
▁କଥାରେ	-8.56215
▁ଖ	-8.56245
ଛନ୍ତି	-8.563
11	-8.56594
▁ନିର୍ବାଚନ	-8.56629
ୋ	-8.56889
▁ମାସ	-8.57003
ନ୍ତୁ	-8.57006
ଦେଇଥାନ୍ତି	-8.57021
7	-8.57093
▁ତଥ୍ୟ	-8.57111
Y	-8.57157
▁ପୋଲିସ	-8.57174
▁WEB	-8.5725
▁୪	-8.57271
▁କାଲି	-8.57387
ହା	-8.5746
▁କଂଗ୍ରେସ	-8.57464
ତେ	-8.57634
▁ବାସ	-8.5767
ଏମ୍	-8.57797
ଟ୍	-8.57826
▁19	-8.58004
▁ମେ	-8.58101
▁ଏଠାରେ	-8.58121
▁ଠିକ୍	-8.58135
▁c	-8.58165
▁ଯିବା	-8.58268
▁କରୁଅଛି	-8.58341
▁ଦଳ	-8.58469
▁Next	-8.58538
▁ଖାଲି	-8.58814
▁ବର୍ତ୍ତମାନ	-8.58915
ତୁ	-8.59092
▁Why	-8.59144
▁ଭରପୁର	-8.59144
▁M	-8.59222
▁ତୋ	-8.59312
!”	-8.59351
▁ପତ୍ର	-8.59464
▁10	-8.59643
?"	-8.59663
ଵ	-8.59922
▁ରହି	-8.59989
▁ସହେି	-8.60307
▁ଆମେରିକା	-8.61015
ନେ	-8.61183
▁କରିବାର	-8.61207
▁ଆପ	-8.61407
ar	-8.61611
ବୁ	-8.61674
▁କରୁ	-8.61811
▁ବ୍ୟକ୍ତି	-8.61943
ry	-8.6208
▁୬	-8.62432
▁ବଡ଼	-8.62592
ପଥର	-8.62676
▁୪୦	-8.62702
▁ତିଆରି	-8.62814
▁ବିବାହ	-8.62941
▁ଏକା	-8.62999
▁minutes	-8.63207
ଥିଲା	-8.63213
▁ଶବ୍ଦ	-8.63351
ଯ	-8.6337
▁ଫଟୋ	-8.63375
▁ବିକାଶ	-8.63512
▁ଦେଖା	-8.63545
6	-8.63907
▁ଆଧୁନିକ	-8.63942
▁ଆଶ୍ଚର୍ଯ୍ୟ	-8.64005
ମାନଙ୍କୁ	-8.64038
▁ଧାରଣ	-8.64317
ଳି	-8.64413
▁public	-8.64471
ପ୍ର	-8.64547
ଲେଖ	-8.64582
▁label	-8.64755
▁ବର୍ଷରେ	-8.64769
ିଲା	-8.64803
▁private	-8.65082
ଭୋଁ	-8.65084
ଷ୍ଟ	-8.65106
କ୍ଷ	-8.65141
▁car	-8.65167
k	-8.65302
▁ଶକ୍ତି	-8.65423
▁ଭାଷାରେ	-8.65652
▁ଚାଲୁଥିବା	-8.65858
▁ମିଳିବ	-8.65879
୮	-8.65981
▁ବରିଷ୍ଠ	-8.66236
▁କଲ	-8.66604
▁ହସ	-8.66939
▁item	-8.67014
▁ବର୍ଣ୍ଣନା	-8.67032
ସା	-8.672
▁କରିବୁ	-8.67346
▁ସୃଷ୍ଟି	-8.67416
▁ଦେଖିଛନ୍ତି	-8.67437
▁ବିଶେଷ	-8.67558
ୈ	-8.67632
▁ଘୋଷଣା	-8.67796
▁2015	-8.67801
ሳ	-8.67811
▁ଅଧିକାର	-8.68239
▁କେନ୍ଦ୍ର	-8.68245
▁ଚା	-8.68414
▁Long	-8.68416
▁ଲାଭ	-8.68475
ତ୍	-8.6848
KChar	-8.68585
▁ଗଛ	-8.68784
.....	-8.68921
▁EE	-8.69005
▁କରିବି	-8.69139
ଡ଼	-8.69404
ହାର	-8.69632
▁ମିଛ	-8.69646
▁Previous	-8.6978
▁ବିନା	-8.698
▁କୁମାର	-8.69814
▁ଏମାନେ	-8.69819
▁ରାତି	-8.69859
▁lives	-8.70615
▁read	-8.70656
▁ସା	-8.70694
▁run	-8.70834
▁behind	-8.7099
▁ପ୍ରବେଶ	-8.70994
▁ବିଫଳ	-8.71027
ଖ	-8.71096
▁dog	-8.71412
▁କହିବି	-8.71596
▁ଜୀବ	-8.71966
3:30	-8.72219
▁ହେଇ	-8.72344
ପୁର	-8.72435
▁ହୋ	-8.72624
▁କହୁଥାନ୍ତି	-8.72629
▁ମୂଲ୍ୟ	-8.72949
select	-8.73039
▁ବିଜୟ	-8.73082
▁ପକ୍ଷରୁ	-8.73133
▁ଚିନ୍ତା	-8.73136
▁title	-8.7319
▁month	-8.73454
▁କୁହ	-8.73492
▁ବାପା	-8.73507
▁ପୃଷ୍ଠା	-8.73649
▁ବାହାଘର	-8.7388
▁ଜିଲ୍ଲା	-8.7405
▁#	-8.74092
ଗ୍ରା	-8.74135
▁ଜ୍ଞାନ	-8.74186
▁ପଚାରିଲେ	-8.74317
▁ଗିରଫ	-8.74342
▁କଲି	-8.74493
▁ସାଧାରଣ	-8.7458
▁ବିଧାୟକ	-8.74713
▁ମୁହଁ	-8.74732
▁.......	-8.74773
▁ଅପସାରଣ	-8.74809
unit	-8.74867
or	-8.75082
ଭି	-8.75138
ଥାଏ	-8.75172
ଛ	-8.75263
lt	-8.75442
▁ଜଳ	-8.75443
▁କବିତା	-8.7577
ବାର	-8.75843
▁ସବୁବେଳେ	-8.76015
▁ପ୍ରସ୍ତୁତ	-8.76276
▁ରହିବ	-8.76578
▁ପାଳନ	-8.76888
▁ଜାଣିବା	-8.77372
X	-8.77394
▁ଏଭଳି	-8.77429
▁ଅନୁଯାୟୀ	-8.77701
'!	-8.78073
▁block	-8.78135
▁ଉଠ	-8.78224
▁ଉପ	-8.78265
▁ଜଣ	-8.78864
▁ପିଲା	-8.78877
▁ଦାବି	-8.79009
▁ଯତ୍ନ	-8.79011
▁ନେବେ	-8.79082
▁?"	-8.792
▁ସଂ	-8.79424
nicode	-8.79452
ଁ	-8.79667
▁ହେଉ	-8.79916
▁India	-8.80296
▁ନବ	-8.80356
▁12	-8.80466
▁ପଛରେ	-8.80586
▁m	-8.80764
▁ଦର୍ଶାନ୍ତୁ	-8.80787
▁ପଛେ	-8.8097
କାରୀ	-8.81043
ଏନ୍	-8.81145
▁ପାରିବେ	-8.8127
▁ଛୋଟ	-8.81392
8	-8.81476
▁୫୦	-8.81799
▁u	-8.81828
ଗଲେ	-8.8184
▁ଦେବା	-8.81887
▁ଭଳି	-8.81937
▁ବିନ୍ୟାସ	-8.81945
▁ମୁଖ୍ୟ	-8.82013
▁ସର୍ଭର	-8.82188
ଏହି	-8.82331
▁ସଦସ୍ୟ	-8.82337
ଜ୍	-8.82367
▁ଅର୍ଥ	-8.82496
▁ପ୍ରସଙ୍ଗ	-8.82506
▁ମାନ	-8.8263
▁୮	-8.82831
▁ଗଠନ	-8.83015
▁ବୁଢା	-8.83048
▁ଯେତେବେଳେ	-8.83049
▁କାହାର	-8.83161
ିଲେଇ	-8.83325
▁ଖେଳ	-8.83567
▁ଆଣ	-8.83593
▁ଘରକୁ	-8.83679
ଟେ	-8.83732
▁ଯା	-8.84019
▁ଡା	-8.84025
▁ପର	-8.84058
ଦ୍	-8.8437
▁ଆଠ	-8.84376
▁ଟୁକୁଡେ	-8.8443
▁ନାୟକ	-8.8445
an	-8.84475
▁ଉପକରଣ	-8.84742
ଚି	-8.84877
▁ଆପଣାନ୍ତୁ	-8.85001
▁ଡି	-8.85231
GenericName	-8.85362
ଦିନ	-8.85391
▁here	-8.85617
ିକା	-8.85693
▁ସୀମାନ୍ତ	-8.85843
▁ଦିନର	-8.8587
▁ଯାଇଛି	-8.86097
୨	-8.86127
▁ତମ	-8.86165
▁ଘଟିଯାଏ	-8.86307
▁p	-8.86308
▁ଦେଶ	-8.86336
▁ଦୟାକରି	-8.86523
▁ବର୍ଷା	-8.86724
▁ଦୂର	-8.86754
▁ରାଜନୈତିକ	-8.86778
▁ବାଲା	-8.86783
▁କାହିଁ	-8.86983
▁D	-8.86992
▁ବାହାର	-8.87087
▁ବଢିବ	-8.8715
ra	-8.87178
re	-8.87267
ଅଗ୍ର	-8.87272
▁ହଠାତ୍	-8.8734
ନୁ	-8.87346
▁G	-8.87417
b	-8.87422
▁ସଂଖ୍ୟା	-8.87458
▁ହେଲାଣି	-8.87561
▁KDE	-8.87671
▁K	-8.87891
▁ପଲିସି	-8.88154
▁ପ୍ରୟୋଗ	-8.88185
10	-8.88201
▁କରିଥାନ୍ତି	-8.88329
▁ସମ୍ଭବ	-8.88689
▁କାହାଣୀ	-8.88708
▁ନକଲ	-8.88807
▁ନେ	-8.88964
▁http	-8.89408
▁ବାହାରି	-8.89463
ଡ଼ି	-8.89567
▁redirect	-8.8967
▁!”	-8.89733
se	-8.89826
▁ଆସ	-8.8999
ଛୁ	-8.89992
▁ଦୃଶ୍ୟସଂଖ୍ୟା	-8.9016
▁ଦିଅଁ	-8.90171
▁ହତ୍ୟା	-8.903
▁ହୋଇପାରେ	-8.90314
▁ପ୍ରକାଶ	-8.90331
▁ଦିଅନ୍ତୁ	-8.90556
▁ବସି	-8.9062
ୱାଘା	-8.90652
▁ଏଠାକୁ	-8.90653
▁Duration	-8.90654
▁ସଦାପ୍ରଭୁ	-8.90675
▁ମହିଳା	-8.90983
▁ଏସବୁ	-8.91029
▁ରୋଗ	-8.91145
▁f	-8.91156
ପରି	-8.91193
▁ଲୋ	-8.91237
▁ମେଲ	-8.91326
▁ନମ୍ବର	-8.91368
▁ଲାଗି	-8.91393
ାୟ	-8.91547
▁ଖାଇବା	-8.91563
ିଥିବୁ	-8.91638
▁ଆସନ୍ତା	-8.91651
ୀୟ	-8.9166
▁ଚୟନ	-8.91665
▁କହିଥିଲେ	-8.91701
▁ସେମାନଙ୍କୁ	-8.91735
▁ଆମ୍ଭେ	-8.91782
▁ବେ	-8.92141
▁ଦୁଃଖ	-8.92155
▁OF	-8.92669
▁ତାରିଖ	-8.92675
ହେଲେ	-8.92717
▁ସରକାରଙ୍କ	-8.92721
▁ସୁରକ୍ଷା	-8.92751
▁ରାମ	-8.9287
▁ଥରେ	-8.92999
▁ଯାଞ୍ଚ	-8.93154
▁ସମାନ	-8.93183
▁ମିନିଟ୍	-8.93199
ହିଁ	-8.93246
▁ସ୍	-8.93417
▁ପୁତ୍ର	-8.93584
First	-8.9366
▁ଅସ୍ଥାୟୀ	-8.93668
▁ବ୍ୟାଙ୍କ	-8.93746
▁15	-8.93773
▁ମେଣ୍ଟ	-8.94027
▁ତିନି	-8.94039
▁ଦେବେ	-8.94143
▁//	-8.94221
19	-8.94625
▁ୟ	-8.94722
▁ଦି	-8.94749
▁F	-8.94825
▁ଦିନରେ	-8.94842
▁୧୦୦	-8.94883
▁ଆଇ	-8.94924
▁ପରୀକ୍ଷା	-8.95111
▁from	-8.95198
ିଂ	-8.95452
▁on	-8.95527
▁ପୁରୁଣା	-8.95716
▁Last	-8.95716
▁କେଉଁଠି	-8.9573
▁ଉପାୟ	-8.96007
▁୩୧	-8.96018
ଠ	-8.96076
▁ପାଠ	-8.96085
th	-8.96428
▁ସାବଧାନ	-8.96461
▁h	-8.96656
ୁଛି	-8.96657
▁ସାଧାରଣତଃ	-8.96769
▁ମିଶ୍ର	-8.96844
▁ମାନଙ୍କୁ	-8.96987
▁ସମାନେେ	-8.97287
ବାକୁ	-8.97512
18	-8.97523
▁or	-8.9755
h	-8.97594
▁ଏସ	-8.97615
▁୫ଟି	-8.97615
▁with	-8.97814
▁8.6	-8.97817
ତ୍ତ	-8.97838
▁ଗୃହ	-8.97894
▁ଦିନେ	-8.97987
x	-8.98196
ଣା	-8.98238
▁ଚାକିରି	-8.98289
ଫା	-8.98307
▁ବଢିଲେ	-8.98377
ri	-8.98411
▁ଶା	-8.98493
9	-8.98524
୍‍	-8.98615
▁Post	-8.98627
▁ତାପରେ	-8.98727
:%	-8.98757
▁ମତେ	-8.98845
▁ଘଣ୍ଟା	-8.98881
▁ସ୍ୱର	-8.99012
▁ତାହେଲେ	-8.99026
▁In	-8.99169
ବର	-8.99419
▁ପୁରୁଷ	-8.99635
▁ବିରୋଧରେ	-8.99681
pression	-8.99961
▁ସମାଧାନ	-8.99962
▁ସେମାନଙ୍କର	-9.00022
▁କହୁଛି	-9.00043
▁ବିଜେଡି	-9.00097
▁କୋ	-9.00115
▁ଯାତ୍ରା	-9.00436
ଶା	-9.00536
▁ଲକ୍ଷ୍ୟ	-9.00556
es	-9.00681
▁Im	-9.00714
0	-9.00768
▁ଡାକ	-9.00859
ନୀ	-9.01023
ାଡି	-9.01145
▁Odisha	-9.01181
୯	-9.01454
▁କହିବା	-9.01458
▁ବାବା	-9.01682
▁ଦିବସ	-9.01888
▁ହେବାକୁ	-9.02253
ଆଇ	-9.02282
▁ଲେଖା	-9.02293
ସର	-9.02462
▁ଲୋକଟି	-9.02521
▁ସେମାନଙ୍କ	-9.02592
▁TRANSLATORS	-9.02708
▁ଆସନ୍ତୁ	-9.0273
▁"%	-9.03081
▁ଏଲ୍	-9.0325
▁ଆହୁରି	-9.03351
▁ସଂଯୋଗ	-9.03398
କରି	-9.03815
▁ସନ୍ଧାନ	-9.03829
▁ମଣିଷ	-9.03829
▁ଖାଇବେ	-9.03865
▁ବିଭିନ୍ନ	-9.03919
▁ଭୟ	-9.03947
▁ଦୃଶ୍ୟ	-9.04026
▁୧୪	-9.04169
▁{@}	-9.04394
ଫ	-9.04445
▁ଗଲା	-9.04526
▁ଟଙ୍କାରେ	-9.04611
▁ବଞ୍ଚି	-9.04636
▁ବିଶ୍ୱାସ	-9.0465
ଡ୍	-9.04678
▁ମସିହାରେ	-9.04795
▁ନିଜେ	-9.04917
ମାନ	-9.04928
▁ପରିବାର	-9.04956
▁ପୁରସ୍କାର	-9.04962
▁ସଂକେତ	-9.04962
▁ଚି	-9.04962
▁ଗୋଟେ	-9.04977
▁କହୁଛନ୍ତି	-9.04993
of	-9.0521
▁ପିଲାଙ୍କ	-9.05302
▁ପୁସ୍ତକ	-9.05533
▁ସହାୟତା	-9.05533
▁ନବୀନ	-9.05691
▁ଅଭିନେତ୍ରୀ	-9.0599
▁♪♪♪♪♪♪♪♪♪♪♪♪♪♪	-9.06108
ସନ	-9.06115
▁ସମ୍ମାନ	-9.06188
ଦି	-9.06213
ାଉ	-9.06299
▁ଲୋକଙ୍କ	-9.06327
▁ପଥ	-9.06342
▁ମହାପାତ୍ର	-9.06435
▁♪♪♪♪♪♪♪♪♪♪♪♪♪	-9.06686
▁♪♪♪♪♪	-9.06686
▁♪♪♪♪♪♪...	-9.06686
▁♪♪♪♪♪♪♪	-9.06686
▁କ୍ଷତି	-9.06702
ବର୍ଷ	-9.06706
▁ଜାଣିଛନ୍ତି	-9.06732
ମେ	-9.07055
▁ରହିବା	-9.07185
▁ପାରିବ	-9.07186
wwww	-9.07233
▁ଅଭ୍ୟାସ	-9.07267
▁8.8	-9.07268
▁କୋହଳ	-9.07269
▁ଠିଆ	-9.07278
▁ଜାଣନ୍ତି	-9.0728
ww	-9.07377
▁ନିଶ୍ଚିତ	-9.07445
▁ଲାଗିଲା	-9.07458
▁ଆଦେଶ	-9.07613
▁ଗୋ	-9.07724
▁You	-9.07864
▁ଛାଡି	-9.08439
▁ନକହି	-9.08441
▁କେଜାଣି	-9.08444
▁ସାହୁ	-9.08446
୍ଯ	-9.08487
▁ବସ୍ତୁ	-9.08496
▁21	-9.08915
▁ଶିଶୁ	-9.08952
▁ବୋଉ	-9.08956
▁ଖରାପ	-9.08982
▁ଲାଗେ	-9.09033
▁ସକାଳୁ	-9.09248
▁ଦେବାକୁ	-9.09352
▁ଜୟ	-9.09421
ଣ୍ଟ	-9.09447
▁ରାଜ	-9.09546
▁Evolution	-9.09627
ଯିବ	-9.09737
ସବୁ	-9.09761
▁ଭାଗ	-9.0977
େଲ	-9.09926
▁ସ୍କୁଲ	-9.10205
ଦମ୍ପତିଙ୍କ	-9.10287
▁button	-9.10369
▁ଲଗ	-9.10375
▁ପ୍ରଭୁ	-9.10583
ରୋ	-9.10738
▁ମହାଦେବ	-9.10846
ତ୍ର	-9.10851
▁ଢେଙ୍କାନାଳ	-9.10915
▁ଅଛ	-9.11023
▁ଫିଲ୍ମ	-9.11079
୫	-9.1109
▁କହିବେ	-9.11093
▁14	-9.11107
15	-9.1117
.”	-9.11279
▁କହିଦେଲି	-9.11435
▁ନିର୍ବାଚିତ	-9.11435
▁ପାଠ୍ୟ	-9.11463
▁ଦ୍ବାରା	-9.11663
▁ସ୍ୱାସ୍ଥ୍ୟ	-9.1169
ଲୋ	-9.11744
v	-9.11791
ମହାରାଜ	-9.12015
▁କରୁଥିବା	-9.12121
▁ନୂଆଦିଲ୍ଲୀ	-9.12293
▁ଚାଳକ	-9.12441
▁ଜାତୀୟ	-9.12444
▁by	-9.1246
▁ସ୍ଥିତି	-9.12659
▁ଚାଲିଗଲେ	-9.12718
▁କହିଲୁ	-9.12756
▁ଦେଲା	-9.12836
▁NAME	-9.12902
▁ଦେଖିବା	-9.13118
▁କାଟିଲେ	-9.13291
ଗଣ	-9.13454
▁post	-9.13469
▁ଡାକ୍ତର	-9.1355
▁ସକାଳ	-9.13611
▁ଜଣା	-9.13753
▁କମ୍	-9.13793
ଥ	-9.13883
▁ବ୍ୟବସ୍ଥା	-9.13898
le	-9.14091
▁ଭା	-9.14242
▁ଦେ	-9.14314
▁ମାଧ୍ୟମ	-9.14342
▁ପ୍ରଥମେ	-9.14349
12	-9.14399
▁45	-9.14458
▁ଶୈଳୀ	-9.14691
ିଲେ	-9.14764
ଷ	-9.15067
▁ଭୁଲି	-9.15088
▁ବହୁ	-9.15094
▁ଦାୟିତ୍ବ	-9.1515
▁ଅଜବ	-9.15151
▁ବଲିଉଡ୍	-9.15179
▁not	-9.15251
▁ଥ	-9.15272
▁ପହଞ୍ଚି	-9.15292
▁ତଳେ	-9.15311
▁ଉପଲବ୍ଧ	-9.15783
▁ଏଥର	-9.16182
▁ନିଜକୁ	-9.1621
ତମ	-9.16266
ବ୍	-9.16278
▁inmenu	-9.1642
▁more	-9.16427
▁ସଂପର୍କ	-9.16443
▁ରକ୍ଷା	-9.16467
▁ପାସ	-9.1654
▁he	-9.16736
ଳା	-9.16948
▁ବସ	-9.16952
▁ଟିକେ	-9.16953
13	-9.16988
▁ଦିଅ	-9.17012
▁କପୁର	-9.17122
▁ଏହାସହ	-9.17162
ନ୍ଦ	-9.1718
▁ଵ	-9.17241
▁ଆଧାର	-9.17259
▁short	-9.17276
ଦେ	-9.17473
▁ଉପସ୍ଥିତ	-9.17569
▁ରାସ୍ତା	-9.1759
▁୭	-9.17652
▁ପରବର୍ତ୍ତୀ	-9.17709
▁ଅନ୍ୟତମ	-9.17738
▁ଏଥିପାଇଁ	-9.17741
▁Ca	-9.17754
ିବା	-9.17802
▁ଛ	-9.17804
▁ସକ୍ରିୟ	-9.1782
▁କାଳ	-9.17844
▁ଦୁର୍ଘଟଣା	-9.17922
▁ଦେଖ	-9.18001
▁ଶୀର୍ଷକ	-9.18167
▁ଖୋଲି	-9.1833
Query	-9.18356
▁ଆତ୍ମା	-9.1853
▁ରହିବେ	-9.18643
▁୨୦୧୯	-9.1867
▁re	-9.1876
ଲଗା	-9.18984
▁କଦଳୀ	-9.19009
▁ପାଦ	-9.19037
▁କରୁଥିଲେ	-9.19069
▁N	-9.19241
▁ପାଇବେ	-9.19255
w	-9.19299
▁ନବୀନଙ୍କ	-9.19306
▁18	-9.19438
▁be	-9.19456
▁ଶ୍ରଦ୍ଧା	-9.19665
▁ସାମାଜିକ	-9.19667
▁ଚୋପା	-9.19667
▁ଦେଇଥିଲେ	-9.19733
▁ମହ	-9.19834
▁ଶିକ୍ଷା	-9.19868
▁ଧନ	-9.20124
▁କରା	-9.20158
▁31	-9.20248
▁ଆର	-9.20352
▁ମହାରାଷ୍ଟ୍ରର	-9.20411
▁ମୁକ୍ତି	-9.20525
▁ଦେବି	-9.20538
▁ଦର	-9.20581
▁ଜି	-9.20615
▁ସେକଥା	-9.20655
୩୦	-9.20827
▁X	-9.20848
▁before	-9.20996
17	-9.2112
▁ମାେ	-9.21155
[	-9.21249
ୌ	-9.21301
▁Odia	-9.21464
▁କ୍ଷେତ୍ରରେ	-9.21544
▁ପାପ	-9.21665
▁ବଚ୍ଛିତ	-9.21667
▁com	-9.21859
▁ରହସ୍ୟ	-9.21933
▁ମୁକ୍ତ	-9.22013
▁ଆସିବ	-9.22083
▁ଉଦ୍ଧବ	-9.22343
▁ବାଲେଶ୍ୱର	-9.22344
▁ଅଂଶ	-9.22344
▁E	-9.22372
▁ଟଙ୍କାର	-9.22395
▁ଓକିଲ	-9.22414
ଗଲା	-9.2248
▁ଚାଲିଛି	-9.22524
▁ସମ୍ପୂର୍ଣ୍ଣ	-9.22617
▁ପାକିସ୍ତାନ	-9.22922
ଗତ	-9.2295
▁ଖୋଲନ୍ତୁ	-9.23026
▁ମାେତେ	-9.23043
▁ସଦସ୍ୟଙ୍କୁ	-9.23198
▁L	-9.23474
▁କବି	-9.23562
▁ଅବସାନ	-9.23708
▁ବାଚସ୍ପତି	-9.23708
▁ନୀତି	-9.23711
▁ପାଦଦେଲେ	-9.23712
▁ନିର୍ଦ୍ଦେଶ	-9.23893
▁ପ୍ରାୟ	-9.24057
▁ପାତ୍ର	-9.24063
te	-9.24107
▁ଯିଏ	-9.24224
▁ପ୍ରତିଛବି	-9.24268
▁ରଖି	-9.24363
▁ବ୍ୟାୟାମ	-9.24399
▁ପ୍ରଦର୍ଶନ	-9.24405
▁ତୋତେ	-9.24435
▁ଶାନ୍ତି	-9.24477
▁ସିପି	-9.24551
ଠାକ୍	-9.24602
▁ଦାସ	-9.24658
ଗା	-9.24719
▁ତାହାଙ୍କ	-9.2483
୍ୟା	-9.24916
▁Microsoft	-9.25092
▁କୁଆଡେ	-9.25098
▁ତୋର	-9.25123
▁ଚାଷୀ	-9.25167
▁ସ୍ୱ	-9.25175
ଯା	-9.25215
ଠୁ	-9.25327
▁ଓଡିଶା	-9.25412
▁ତନ୍ତ୍ର	-9.25463
▁status	-9.25791
▁କରାଇଛନ୍ତି	-9.25802
କୋ	-9.25824
▁ସେଥିପାଇଁ	-9.25925
ିନ	-9.25927
▁ରା	-9.26006
▁ରଖନ୍ତୁ	-9.26009
▁ସିଏ	-9.26013
▁ଯାଇଛନ୍ତି	-9.26171
▁b	-9.26261
▁ଚେଷ୍ଟା	-9.26492
ଶିବସେନାର	-9.26496
▁ଡ୍ରାମାର	-9.26496
▁ଚିନାବାଦାମ	-9.26496
▁ହସି	-9.26863
▁କାର୍ଡ	-9.2692
▁ପ୍ରଭାବ	-9.27057
ାଏ	-9.27086
▁୭୫	-9.27187
▁ଅନୁମତି	-9.27205
▁କାଳିଦାସ	-9.27205
▁କୋଲାମ୍ବକ	-9.27205
▁ବେପାର	-9.27211
▁ଲୋକଙ୍କୁ	-9.27224
▁ବିବରଣୀ	-9.27228
ାଇବ	-9.27245
ଶି	-9.2745
▁ଅଘ	-9.27451
▁ମନ୍ତ୍ରୀ	-9.27454
▁ଲେଖି	-9.2767
▁ମୁତାବକ	-9.27919
▁କରୁଛ	-9.27982
▁ଆଶା	-9.28065
▁ଗୁରୁ	-9.28126
me	-9.28152
▁ବ୍ୟାଙ୍କ୍	-9.28197
ଠା	-9.28256
ୁଆ	-9.28298
▁ଶ୍ରେଣୀ	-9.28395
▁ଭାବି	-9.28454
▁ଜିନିଷ	-9.28487
mp	-9.28562
▁ପରା	-9.28607
▁ପରିଚୟ	-9.28639
▁ତଦନ୍ତ	-9.28639
▁ବ୍ୟକ୍ତିଗତ	-9.28658
▁ବିଚାର	-9.28783
ଅଛି	-9.28902
▁ବହି	-9.28956
▁ଅଧିକାରୀ	-9.29093
.18	-9.29116
▁ଚାହିଁ	-9.29153
ଆରେ	-9.29187
ଜେ	-9.292
▁ଉଚ୍ଚ	-9.29236
▁Home	-9.29268
▁କରାଯିବ	-9.29269
ପାଇଁ	-9.29281
▁ଖାଦ୍ୟପେୟ	-9.29363
▁ପ୍ରତିଶତ	-9.29368
▁ଆଘାତ	-9.29389
ପୁ	-9.29425
▁ନିକଟକୁ	-9.29547
▁ବହୁତ୍	-9.29564
଼	-9.29601
▁your	-9.29634
▁ଆସିବେ	-9.29712
▁ସହର	-9.29906
▁ପଡି	-9.29923
▁ଭଉଣୀମାନେ	-9.30106
▁ଜାତି	-9.30264
▁କମ୍ପାନୀ	-9.30292
▁ଏକଥା	-9.30332
▁ଖା	-9.30396
▁H	-9.3056
▁ସୂର୍ଯ୍ୟ	-9.30562
କୃତ	-9.30607
▁ଲିଙ୍କ	-9.3071
ad	-9.30741
▁ଖୁସି	-9.30802
▁ମ୍ୟାନେଜର	-9.30828
▁ଖର୍ଚ୍ଚ	-9.30832
ic	-9.30839
▁ପଚାରିଲା	-9.30907
▁କିଭଳି	-9.30941
▁13	-9.30978
▁୩୪	-9.30984
ଥାନ୍ତି	-9.31144
▁ଜୀବନରେ	-9.3128
▁ମଧ୍ଯ	-9.31352
com	-9.31399
▁ଆଦି	-9.31412
୦୦୦	-9.31427
▁ସମ୍ଭାବନା	-9.31569
▁ହାଇକୋର୍ଟ	-9.31569
▁ରିପୋର୍ଟ	-9.3157
▁କଙ୍କାଳ	-9.3157
▁ଚୀନ୍	-9.31651
▁ରକ୍ତ	-9.31668
▁):	-9.31781
▁ଆକାର	-9.31818
▁ଜା	-9.31923
▁ଫେରି	-9.31934
▁ପାର	-9.31963
▁ସ୍ଥାନରେ	-9.32023
▁ଯାହାର	-9.32032
▁ଆଜ୍ଞା	-9.32147
▁ସନ୍ଦେଶକୁ	-9.32277
▁ନିଷ୍କର୍ଷ	-9.32315
▁ସାମଗ୍ରୀ	-9.32375
▁ୱିଣ୍ଡୋ	-9.32376
▁ପ୍ରଧାନମନ୍ତ୍ରୀ	-9.32424
▁ଦ୍ୱିତୀୟ	-9.32446
▁କଷ୍ଟ	-9.32499
▁ଚାଲ	-9.32604
▁ଭୁଲ	-9.32687
▁ବାବୁ	-9.32725
ତ୍ୱ	-9.329
ାର୍	-9.32969
ଗୁଡିକୁ	-9.33028
▁ସାହାଯ୍ୟ	-9.33036
▁ପୁଅକୁ	-9.33048
▁ପୁନଃ	-9.33069
▁will	-9.3307
▁ମୃତକ	-9.33147
ପାରିବେ	-9.3324
▁ନିକଟରେ	-9.33281
20	-9.33422
▁କରିପାରେ	-9.33461
ଭା	-9.33462
ଥିଲି	-9.33638
▁ପ୍ରଶ୍ନର	-9.33662
▁option	-9.33825
▁ପ୍ରମାଣପତ୍ର	-9.33828
▁ଉଇଣ୍ଡୋ	-9.33904
▁ଗାଁ	-9.3391
୧୭୫	-9.33916
▁ଓଡିଆ	-9.3395
ିଛି	-9.34004
▁କଳା	-9.34021
▁ଖାତା	-9.34037
▁ଗୁଣ	-9.34133
ାଇବା	-9.34152
▁୧୨	-9.34274
▁ଆଗରେ	-9.3429
▁O	-9.3432
ion	-9.34361
ଟିଏ	-9.34462
ୱା	-9.34477
▁ମୃତ	-9.34508
ଚୀନ୍	-9.34581
NamePossessive	-9.34588
▁ବେଜିଂ	-9.34588
▁ago	-9.34602
▁ସୁନ୍ଦର	-9.34727
▁ଯାଉଛି	-9.34731
en	-9.34751
▁ତୁମର	-9.34765
▁ଭି	-9.34887
▁ଆପଣା	-9.35101
ଧ	-9.35148
▁ସିଂହ	-9.35282
▁ମିଳିଲା	-9.35331
▁ଘ	-9.35333
▁ସଂସ୍କରଣ	-9.35357
▁ସନ୍ଦେଶଗୁଡ଼ିକୁ	-9.35475
▁ହାତରେ	-9.35585
▁Article	-9.35595
dies	-9.3569
▁ଚାଲିଲେ	-9.35721
୨୦	-9.35746
▁ରଖିବା	-9.3579
▁ଯିବ	-9.35808
▁ଛାଡ଼ି	-9.36016
la	-9.36047
▁ବିଦ୍ୱାନ	-9.36133
▁ବୁଦ୍ଧଙ୍କ	-9.36191
▁ନଜର	-9.36212
▁ଜମା	-9.36441
▁ନିମନ୍ତେ	-9.36914
▁କରାଯାଇଥିଲା	-9.36934
▁ତଥା	-9.36982
format	-9.37013
▁ମାନସିକତା	-9.37025
▁ସାକ୍ଷାତକାର	-9.37061
▁ଆଗରୁ	-9.3707
▁କରିପାରିଲା	-9.37142
▁ନହେଲେ	-9.37177
ିବ	-9.37275
▁ଫଳ	-9.37374
ଗୋ	-9.37414
▁ନଦୀ	-9.37457
▁w	-9.37536
▁ପାଇବ	-9.37624
▁ଶର୍ମା	-9.37701
▁ଆଦିବାସୀମାନଙ୍କ	-9.37709
▁ଉଚିତ୍	-9.37727
▁ସ୍ଥାନୀୟ	-9.37738
▁Go	-9.37741
▁ତୁମ୍ଭର	-9.37824
▁ପେ	-9.37843
ରାଜ	-9.37845
▁ଡିସ୍କ	-9.3785
▁20	-9.37941
▁ପଡିବ	-9.37992
▁ତାହାଙ୍କୁ	-9.38089
▁ଜିଲାରେ	-9.38315
▁ନୃତ୍ୟ	-9.38495
▁Mart	-9.38567
▁୧୧	-9.38575
▁ପରମେଶ୍ବର	-9.38653
▁ଶରୀରରେ	-9.38734
▁ସଚିବ	-9.38805
ଣୀ	-9.38812
ର୍କ	-9.38918
ଡେ	-9.39047
ଇଁ	-9.39054
▁ଗୁ	-9.39163
▁Georg	-9.39295
▁thousand	-9.39295
▁ରବିବାର	-9.39295
▁ଟିପ୍ସ	-9.39304
▁search	-9.39531
ଆଉ	-9.396
▁ବିଜ୍ଞପ୍ତି	-9.3965
▁ପାଇବା	-9.39933
▁ଯିବେ	-9.39952
▁ଆଇନ	-9.39987
▁ବାଇକ୍	-9.40102
▁ମହାପ୍ରଭୁଙ୍କ	-9.40304
ାଲ	-9.40319
▁ରଞ୍ଜନ	-9.40445
ଦାନ	-9.40459
ଦେବ	-9.40503
▁If	-9.40527
▁ମୋଦିଙ୍କୁ	-9.40533
ଶ୍	-9.40573
▁ମାନଙ୍କ	-9.40599
▁ଘରୁ	-9.40633
▁ସାରା	-9.40874
▁ଚାକିରୀ	-9.40914
▁ନେଟୱର୍କ	-9.40914
▁ବଦମାସ୍	-9.40914
▁ହସ୍ତାକ୍ଷର	-9.40915
ମ୍ବ	-9.4097
▁ବିଜେପିର	-9.41249
▁ଜେ	-9.41298
▁ମତ	-9.41628
▁ମାଲିକ	-9.41694
▁ଔଷଧ	-9.41734
▁ଇଚ୍ଛା	-9.41742
▁ପରଦା	-9.41778
it	-9.41945
ପ୍ରତି	-9.42081
▁ପଡ଼ି	-9.42227
▁Use	-9.4226
▁ଦଣ୍ଡ	-9.42339
ଗ୍	-9.42375
▁ସହଜ	-9.42382
▁ଅକ୍ଟୋବର	-9.42561
▁ପସନ୍ଦ	-9.42561
▁ଅଜଣା	-9.42561
▁ହସିଦେଲା	-9.42566
▁ସାଙ୍ଗେ	-9.42658
▁ତୃତୀୟ	-9.4268
▁ସର୍ବାଧିକ	-9.42819
ଭାଇ	-9.42852
▁ସୀମା	-9.42946
▁ଉତ୍ତମ	-9.42951
▁ବ୍ୟବସାୟ	-9.42976
▁ୱେବ	-9.42979
▁ଜଣଙ୍କ	-9.43124
▁ମଙ୍ଗଳ	-9.43124
▁22	-9.43194
▁କରିପାରିବ	-9.43238
▁ଟା	-9.43241
▁ଅନୁ	-9.4328
୧୦	-9.43369
▁ଗ୍ୟାଙ୍ଗ	-9.43394
▁କୁହନ୍ତି	-9.43458
▁ଏୟାର	-9.43476
▁ଲଢୁଥି	-9.43628
▁ଦେଖିଲି	-9.43662
▁ଇଂରାଜୀ	-9.43712
dbu	-9.43955
▁ପାରି	-9.44058
▁ବିଶ୍ୱ	-9.44095
ma	-9.44151
▁this	-9.44235
▁କୃଷ୍ଣ	-9.44243
▁ତୁମ୍ଭମାନଙ୍କୁ	-9.44296
li	-9.44375
▁de	-9.44415
▁ଲୋକଟିକୁ	-9.4443
ଷ୍ଠ	-9.4445
▁ସମସ୍ତଙ୍କୁ	-9.44483
ଲିଖିତ	-9.4454
▁second	-9.44687
▁୮୦	-9.4493
at	-9.45009
▁ପରାମର୍ଶ	-9.45082
▁ଚାହେଁ	-9.45084
▁କିଣନ୍ତୁ	-9.45085
▁ପାଞ୍ଚ	-9.45103
▁ସରଳ	-9.45132
▁ସ୍ମାରକପତ୍ର	-9.45248
ଘ	-9.4535
▁ଜମି	-9.45767
▁ହଠାତ	-9.45782
▁28	-9.45921
▁ଛୁଟି	-9.45929
▁ତ୍ୱଂ	-9.45938
▁ଅକ୍ଷରରୂପ	-9.45941
▁National	-9.45944
▁ଏକାଠି	-9.45977
▁ସ୍ପଷ୍ଟ	-9.4598
ନୀୟ	-9.46013
▁କରାଯାଇ	-9.46021
▁ଶୁଣ	-9.46028
ଟର	-9.46054
▁ଲୋକମାନଙ୍କୁ	-9.46081
▁ସେଇ	-9.46362
ୟୁ	-9.46366
j	-9.46388
ଚୁ	-9.46402
ପତି	-9.46482
ଯାଏ	-9.46533
ୱ	-9.46624
▁ଉତ୍ସ	-9.46625
▁ସାମିଲ	-9.46638
▁ପର୍ବ	-9.46683
▁ଅନ	-9.46773
▁ଯାହାକୁ	-9.46789
▁ସତ୍ଯ	-9.46863
▁ଭୁବନେଶ୍ୱର	-9.46889
▁ମାରି	-9.4691
▁ଏମ	-9.46949
CGN	-9.47022
▁ତେଲ	-9.4706
#	-9.47162
▁ବୋ	-9.47202
▁ପ୍ରାପ୍ତ	-9.47204
▁25	-9.47206
▁ସରକାରୀ	-9.47343
▁ମୁଣ୍ଡ	-9.47395
▁ଡେ	-9.47586
▁ସଂସ୍ଥା	-9.476
▁ସୌମ୍ୟ	-9.4765
▁ସମସ୍ତଙ୍କ	-9.47657
▁ପ୍ରକଳ୍ପ	-9.47665
▁ବଢିଆ	-9.47692
▁ନିଯୁକ୍ତି	-9.47695
▁ତାହାର	-9.47776
▁ଏସିଆ	-9.47815
▁ତୁମ୍ଭକୁ	-9.47843
ବନ	-9.47918
ାମୃତ	-9.47929
▁ଉପରକୁ	-9.47966
▁ଆଣି	-9.48032
▁ପଢି	-9.48052
00	-9.4812
▁ପ୍ରକୃତ	-9.48289
symbols	-9.48545
▁ପଟ୍ଟନାୟକ	-9.48545
▁ବାତିଲ	-9.48549
▁ପୂରା	-9.48567
▁ଥାନା	-9.48648
▁ସୋନା	-9.4865
▁ଦେଖିବାକୁ	-9.48693
ସୁ	-9.48705
ଏସ	-9.48746
▁ପଥର	-9.48883
▁ଯାହାକି	-9.48928
▁ନାମରେ	-9.48936
ଣ୍ଡା	-9.49045
ାନ୍ତୁ	-9.49052
ଲୀ	-9.49225
▁ସାର	-9.49233
ଯାଇଛି	-9.49279
ସ୍ଥ	-9.49326
▁ଅକ୍ଷର	-9.49393
▁ଆହତ	-9.4943
▁ପରିଚାଳକ	-9.49438
▁ଟିଭି	-9.49498
▁ଶ୍ରେଷ୍ଠ	-9.49561
▁ଶାରୀରିକ	-9.49586
▁ଚାଲିବା	-9.49733
▁୨୧	-9.49763
▁ଈ	-9.49964
▁ଲେଖିବା	-9.49969
ାନ୍ତ	-9.50086
ation	-9.5009
▁ଏତିକି	-9.50319
ଞ୍ଚ	-9.50321
▁ସୁସମାଚାର	-9.50323
▁ଅଭିଯୋଗ	-9.50325
▁ହେଇଚି	-9.50354
▁।’’	-9.50499
▁ସୋ	-9.5051
▁୫୦୦	-9.5053
▁ଚିହ୍ନଟ	-9.50778
▁ପୁରା	-9.50835
▁24	-9.50845
ବାଦ	-9.50891
▁ପଞ୍ଚମ	-9.50909
▁ଆଦୌ	-9.51224
▁ପଠାନ୍ତୁ	-9.51232
▁ଦ୍ଵାରା	-9.51497
▁କହିବାକୁ	-9.51511
▁ମୁଖ୍ୟମନ୍ତ୍ରୀ	-9.51517
▁ଈଶ୍ବର	-9.52016
▁ଅବସ୍ଥିତ	-9.52018
▁ରଖିବାକୁ	-9.52043
ମିଟର	-9.52093
▁ଯୋଗୁଁ	-9.52136
▁ପ୍ରମୁଖ	-9.52142
▁ବାଛନ୍ତୁ	-9.52142
▁ଯେମିତି	-9.52177
▁ପୃଥିବୀ	-9.52249
ଷ୍	-9.52339
▁ଯେପରି	-9.52367
▁ଯୁକ୍ତ	-9.5245
▁ଆଗକୁ	-9.52632
▁TV	-9.52796
▁ଆଖି	-9.52843
▁ଇତ୍ୟାଦି	-9.53051
▁କାର୍ଯ୍ୟାନୁଷ୍ଠାନ	-9.53051
▁ରଥଯାତ୍ରା	-9.53051
▁Have	-9.53053
▁ଅନୁଭବ	-9.53124
▁ଅପେକ୍ଷା	-9.53203
ଚା	-9.53309
▁it	-9.53426
▁ତାରିଖରେ	-9.53533
▁କଃ	-9.53547
▁କର୍ମ	-9.53574
▁ଟିକେଟ	-9.53709
ତୁମେ	-9.53763
,“	-9.53831
▁କହୁଛ	-9.53846
▁ଭାରତର	-9.53881
▁ମାଂସ	-9.53977
▁MZH	-9.53983
▁ଅବୈଧ	-9.53986
▁ଛାଡିଦେଲେ	-9.54008
▁ନିଷ୍କ୍ରିୟ	-9.54051
ଆର୍	-9.54101
▁ରାସ୍ତାରେ	-9.54144
▁ଜଗା	-9.54228
▁ପରମେଶ୍ୱର	-9.54296
▁ପ୍ରତ୍ୟେକ	-9.54317
ପର	-9.54474
ାଙ୍କ	-9.54514
ିର	-9.54521
▁*	-9.54628
▁ଅଦା	-9.5463
ସ୍ୟ	-9.54635
▁ଚିହ୍ନ	-9.54649
▁ଲାଗୁ	-9.54687
\	-9.54767
▁ପୁ	-9.54772
▁କ୍ଷେତ୍ର	-9.5488
am	-9.54886
▁କାର୍ଯ୍ଯ	-9.54909
▁ସୁବିଧା	-9.54911
▁ପୃଷ୍ଠଭୂମି	-9.54913
▁ଆସୁଥିଲେ	-9.54927
କଲେ	-9.54928
▁ବୋଧ	-9.54948
▁ଏଥିରୁ	-9.55004
▁ବିରୁଦ୍ଧରେ	-9.55059
▁ଇଂ	-9.55061
▁ସମାପ୍ତ	-9.55126
▁ବାହା	-9.55153
ଥା	-9.55154
▁ଫୋନ	-9.55157
▁ସ୍ଥାପନ	-9.55232
▁ସବୁଠାରୁ	-9.55273
▁ଅଫ୍	-9.5528
▁ପୋଷ୍ଟ	-9.5532
▁ନିୟନ୍ତ୍ରଣ	-9.55361
ac	-9.55389
▁ଅନୁବାଦ	-9.5539
‍	-9.55445
▁t	-9.55467
▁ବଳ	-9.55498
ଦ୍ର	-9.55654
▁ଏଠି	-9.55666
▁ସମ	-9.55768
▁ସେଟ	-9.55814
▁ଡିସେମ୍ବର	-9.55854
▁ଯାଆନ୍ତୁ	-9.55854
▁କାଗଜ	-9.55855
▁ସପ୍ତାହ	-9.55855
▁ଢିଲା	-9.55857
▁was	-9.55861
▁ଉପଚାର	-9.55865
ମନା	-9.55875
ଫ୍	-9.55913
▁ହେଉଛନ୍ତି	-9.55921
▁ନୂଆବର୍ଷ	-9.55921
▁ପ୍ଲଗଇନ	-9.5596
▁ମହାନ୍ତି	-9.55979
▁୧୩	-9.56063
ଥି	-9.56089
▁ହେବାର	-9.56096
▁ମୋବାଇଲ	-9.56123
▁ସତ୍ୟ	-9.56172
ରାମ	-9.56353
▁ସମାଜ	-9.56411
▁Re	-9.56427
▁ଫୋନ୍	-9.56484
▁ମାନସିକ	-9.56676
▁ପଖାଳ	-9.56807
▁ଭିଡ଼ିଓ	-9.56807
▁ଆକ୍ରମଣ	-9.56807
▁ଭରଣ	-9.5686
▁ଗାଇବା	-9.56953
▁Windows	-9.56964
▁ଯେତେ	-9.5702
▁ଓଜନ	-9.57113
ିତି	-9.57211
▁ପିତା	-9.57304
et	-9.57375
ାୟା	-9.57524
ଯଦି	-9.57568
▁କହିବ	-9.57739
▁ସିବିଆଇ	-9.57788
▁ଭିତରୁ	-9.5782
▁ହେଉଥିବା	-9.57826
▁ପ୍ରସାଦ	-9.57861
▁ସ୍ଵ	-9.58023
▁କହ	-9.58235
▁ଭାରତରେ	-9.58257
▁ଦକ୍ଷିଣ	-9.58262
ୃ	-9.58312
ଡ଼ା	-9.58585
▁ଯୁବ	-9.58674
▁article	-9.58739
▁ଉଦ୍ଭିଦ	-9.58739
▁ଆତ୍ମହତ୍ୟା	-9.5874
▁about	-9.58745
▁ଲଗାଇ	-9.58761
▁ଯମ	-9.58793
▁ଖାଇଲେ	-9.58814
▁ବୁଝି	-9.5893
▁୧୭	-9.58946
ଥିବେ	-9.59078
ବୀ	-9.59107
୍ରା	-9.59111
ହିତ	-9.59513
▁ଏହିପରି	-9.59519
▁at	-9.59665
ୟନ	-9.59675
▁ନିଷ୍ପତ୍ତି	-9.5972
▁ଖୋଜନ୍ତୁ	-9.5972
▁ଆସୁଛି	-9.59766
000	-9.59796
▁ଜାରି	-9.59799
▁ଯିବି	-9.59871
▁ବିପଦ	-9.59873
▁ମନରେ	-9.59969
+	-9.59979
▁ଚାପି	-9.60136
ତଃ	-9.60203
ଖା	-9.60225
▁ଜିଲା	-9.60228
▁ରାଜ୍ୟରେ	-9.60244
ଲିଙ୍ଗ	-9.60265
is	-9.60434
▁ଗଣ	-9.60584
▁ଅଧ୍ୟାୟ	-9.6071
▁କ୍ୟାଲେଣ୍ଡର	-9.6071
ତିଜନକ	-9.60738
▁ପୂଜା	-9.60759
▁ହୁଅନ୍ତୁ	-9.60766
ିସ୍	-9.60768
▁ରୂପ	-9.60878
▁ରହିଲେ	-9.60956
ଆପଣ	-9.61037
ଚ୍ଛ	-9.61239
▁ଅପ	-9.61368
▁ଜଣାଇ	-9.61548
▁ବେଳ	-9.6157
▁ଦଲିଲ	-9.61572
▁ଦୁଇଟି	-9.61581
ro	-9.61641
▁ନଥିଲା	-9.61664
▁27	-9.61677
▁କ୍ଯାଲେଣ୍ଡର	-9.6171
▁ସୁଦ୍ଧା	-9.6171
▁ସିନେମା	-9.6171
▁ବରଫ	-9.61713
▁Don	-9.61774
▁ବନାମ	-9.61792
▁ବଞ୍ଚିତ	-9.61885
▁ଦିଲ୍ଲୀ	-9.61896
▁ଗତ	-9.61936
▁ସାଥିରେ	-9.61974
▁ଅନୁରୋଧ	-9.61995
▁ନଥାଏ	-9.62062
▁!!!	-9.62072
▁କାର	-9.62116
▁ହାଃ	-9.6227
ଜାଜ	-9.62489
▁ଦେଖିଲେ	-9.62647
▁ଚକିତ	-9.62721
▁that	-9.62723
▁ଦାଶ	-9.62735
ଧି	-9.62778
ନାହାନ୍ତି	-9.62785
▁ଚାଲିଗଲା	-9.62789
▁ବିକଳ୍ପ	-9.62825
▁r	-9.63013
▁ଗାଁରୁ	-9.63064
▁d	-9.63111
▁ମୋଟ	-9.63151
▁www	-9.63192
▁ବୁ	-9.63492
▁ଧନ୍ୟବାଦ	-9.63515
▁ମଞ୍ଚ	-9.63548
▁କଭର	-9.63636
ପୂର୍ବନିର୍ଦ୍ଧାରିତ	-9.6374
▁World	-9.6374
▁ଅତ୍ୟନ୍ତ	-9.6374
▁ଭର୍ତ୍ତି	-9.63742
▁କେଇ	-9.63742
▁ଶଙ୍ଖ	-9.63745
▁୭୦ବର୍ଷ	-9.63749
▁To	-9.63775
▁ରହିଥିଲେ	-9.63799
▁ସ୍ୱାଧୀନତାର	-9.63889
▁ଫୋଲଡରକୁ	-9.63977
▁ହୋଇଛନ୍ତି	-9.64014
▁ଲୋଭ	-9.64034
ମାନଙ୍କର	-9.64061
▁ରାଜନୀତି	-9.64082
▁ଏମାନଙ୍କ	-9.64283
▁କ୍ଷମତାକୁ	-9.64287
୬	-9.64288
ଦ୍ୱାରା	-9.64386
▁ପଡିଲା	-9.644
▁ଶାସନରେ	-9.64498
▁ଆବଶ୍ୟକତା	-9.64499
୦	-9.6451
▁କାରଣରୁ	-9.64548
ର୍ଣ୍ଣ	-9.64555
▁One	-9.64769
▁ଦାଦାଗିରି	-9.64772
ବ୍ୟବହାରକାରୀ	-9.64782
▁Any	-9.64788
▁ଶଗଡ଼	-9.64788
▁କରାଯାଇଥିବା	-9.64827
ଓଃ	-9.64879
▁ପୂରଣ	-9.64987
▁ଶାସନ	-9.65069
▁କୋଉଠିକୁ	-9.65174
▁ନଷ୍ଟ	-9.65236
▁ସମ୍ପାଦନା	-9.65239
▁How	-9.65253
ହୀନ	-9.65254
▁ଫୁଲ	-9.65318
ହେଲା	-9.6533
▁ଆସିବାକୁ	-9.65343
ର୍ଡ	-9.65457
▁ଗ୍ରାମରେ	-9.65469
ାଚି	-9.65687
ଦିଅ	-9.65693
▁ଘଟି	-9.65725
▁Conditions	-9.65813
▁Ginger	-9.65813
▁ବାନ୍ଧି	-9.65838
▁ସେତେବେଳେ	-9.65843
▁ଖାଇ	-9.65925
ମୀ	-9.65951
▁ଘଟିଲା	-9.66031
▁ଇତିହାସ	-9.66063
ent	-9.6621
▁ସଫା	-9.66278
▁ପଦ	-9.66417
ାସ	-9.6649
▁ପୃଷ୍ଠ	-9.66536
ସ୍କ	-9.66555
▁ବିଶ୍ବାସ	-9.66603
ିଲ	-9.66726
▁ପୃଥିବୀରେ	-9.66749
▁ଋତୁ	-9.66846
▁ହୋଇଯିବ	-9.66857
▁ସୁରକ୍ଷିତ	-9.66865
▁ଗୌରବ	-9.66871
▁ରହୁଛନ୍ତି	-9.66876
▁ଆଣ୍ଡ	-9.66909
େଡ	-9.66909
▁ହୋଇଗଲା	-9.66981
ନଈ	-9.66999
▁ବିଜ୍ଞାନ	-9.67035
ଲମ୍ବ	-9.67153
▁33	-9.67184
୍ୟାରା	-9.67222
▁କୁହେ	-9.67289
ବ୍ୟ	-9.67441
▁ମିଳି	-9.67522
▁ଧର୍ମ	-9.67677
ଦ୍ଧ	-9.67755
▁ରାଣୀ	-9.67762
▁ସମ୍ପାଦନ	-9.6777
▁ଉତ୍ପାଦ	-9.67798
▁କୃଷି	-9.67929
▁ରଖାଯାଇଥାଏ	-9.67931
▁ଦେହ	-9.67996
,”	-9.68027
କାରୀଙ୍କ	-9.68351
▁ପଛକୁ	-9.68392
୭	-9.68535
ଢ	-9.68558
ହେବ	-9.68629
େନ	-9.6874
▁an	-9.68817
@@@@@@@@@@@	-9.68922
ଟୁ	-9.68973
-----?	-9.69005
▁check	-9.69005
▁group	-9.69005
▁ଗୋଟାଏ	-9.69007
#3	-9.6906
ଲୋକ	-9.69111
ଛା	-9.69133
▁ରାଜ୍ୟର	-9.69169
▁ହୋଇଥିଲେ	-9.69312
▁ଦାୟିତ୍ୱ	-9.69361
ir	-9.69396
ସନ୍	-9.69505
▁ଘଣ୍ଟାରୁ	-9.6951
▁ଗୁଡିକ	-9.69655
▁ୟୁ	-9.69666
▁Y	-9.69716
▁କରିଛ	-9.69719
ଜନ	-9.69751
▁ଠିକ	-9.69832
▁ଡାକି	-9.69898
▁ନିରାଶ	-9.70007
▁ତବେେ	-9.70093
▁ଚାରି	-9.7017
▁are	-9.70232
୧୫	-9.70255
ଇଲେ	-9.70316
▁ବିରୋଧୀ	-9.70341
ମର	-9.7035
▁ପକ୍ଷ	-9.70393
ଧର୍ମ	-9.7041
▁ଅଲଗା	-9.70442
ଭାବ	-9.70444
▁ଅବସ୍ଥା	-9.70549
।’’	-9.70605
ନ୍ତା	-9.7066
▁ଲିଖିତ	-9.70788
ଥିବ	-9.70813
▁ମଝି	-9.71044
ମନ	-9.71082
ଦେଶ	-9.71094
▁34	-9.71112
quot	-9.7119
▁why	-9.7119
▁କୁହାଯାଏ	-9.71193
▁ସମର୍ଥନ	-9.71231
▁ଆନନ୍ଦ	-9.71245
▁ଥାଉ	-9.7126
▁ସର୍ଭିସ	-9.71264
୧୯	-9.71295
▁res	-9.71323
▁ଛାଡ	-9.71585
▁(%	-9.71656
ିନୀ	-9.71726
▁ଯାଉ	-9.71746
▁ଯାଇପାରେ	-9.71836
▁ପଚାରି	-9.71965
▁ପ୍ରଚଳିତ	-9.71988
▁ଜାଗା	-9.7203
▁ଥିବ	-9.72288
unday	-9.72301
▁ଯେହେତୁ	-9.72302
▁ପଣ୍ଡିତ	-9.72303
▁ସଙ୍ଗେ	-9.72333
▁ଦେଇପାରେ	-9.72426
▁ଦେଶର	-9.72485
▁ଇମେଲ	-9.7252
▁ଗ୍ରାହକ	-9.72544
New	-9.72563
▁ସାଙ୍ଗ	-9.72776
▁ମାଆ	-9.72779
▁ପରିମାଣ	-9.7304
ୁଛନ୍ତି	-9.73325
nd	-9.73413
▁ଖାଆନ୍ତୁ	-9.73428
▁ଉଭୟ	-9.73431
▁ପଢ଼ନ୍ତୁ	-9.73433
▁ଟିକିଏ	-9.73446
ରାଜନ	-9.73491
▁ବାଜିଲା	-9.73491
▁ମାପ	-9.736
▁ସାର୍	-9.73616
▁ଚାଲିଲା	-9.73658
କ୍ସ୍ଟ	-9.73699
▁ବଜାରକୁ	-9.73734
▁ପ୍ରସ୍ତୁତି	-9.73774
▁କହୁ	-9.73776
▁ନେବା	-9.73802
ଆଲୋ	-9.73845
▁CD	-9.7386
ଗୁ	-9.73944
▁ସେଠାରେ	-9.74075
▁ତେ	-9.74127
At	-9.74234
▁ସୁନା	-9.74297
▁ରଖେ	-9.74321
z	-9.74322
Coptic	-9.74561
▁General	-9.74561
▁ଆବେଦନ	-9.74562
▁ମିଳିଛି	-9.74607
▁ବାସ୍ତବତା	-9.74615
▁ପଶୁ	-9.74622
▁ଖୁବ୍	-9.7463
ପାରିବ	-9.74705
▁ଗାଡି	-9.74711
▁ନିଶ୍ଚୟ	-9.74781
▁ଚଳ	-9.74805
ଶୀ	-9.74812
▁ଗ୍ରାମ	-9.75203
ଗୁଡ଼ିକର	-9.75209
କରନ୍ତୁ	-9.75447
▁32	-9.75466
▁ଚିକିତ୍ସା	-9.7557
▁ବେରଙ୍ଗ	-9.75713
▁ପ୍ରସ୍ତାବ	-9.75718
▁ପ୍ରା	-9.75734
▁ସମାନଙ୍କେୁ	-9.75738
▁ତଥାପି	-9.7578
ଯୁକ୍ତ	-9.75838
▁ଅଧୀନରେ	-9.75851
▁ଆସିଛି	-9.75889
▁ପଠାଇ	-9.75889
▁ମସିହା	-9.76036
▁ଆକାଶ	-9.76126
▁ଜନ	-9.76127
୪୬	-9.76156
▁ଅବ	-9.76218
ତୀ	-9.76238
▁କାର୍	-9.76242
▁ବିମାନ	-9.76259
▁ଯାଏଁ	-9.76281
▁ଶରୀରର	-9.7636
ୂ	-9.76555
▁ସୁଖ	-9.76557
▁ବ୍ୟା	-9.76678
▁ଫି	-9.76688
ର୍ଥ	-9.76728
sh	-9.76753
▁ଅସମର୍ଥ	-9.76816
▁ସ୍ମୃତି	-9.76866
oliday	-9.76874
▁ଉଲ୍ଲେଖ	-9.76874
▁ଦମ୍ପତ୍ତି	-9.76874
▁ଭଗବାନ	-9.76877
▁କସରତ୍	-9.76896
▁list	-9.76899
▁ମାର୍ଚ୍ଚ	-9.76901
▁ପକାଇ	-9.76943
▁ଅବସ୍ଥାନ	-9.77006
ଞ୍ଜ	-9.7701
▁ନଂ	-9.77052
][	-9.7706
▁ଫାଇଲଗୁଡ଼ିକୁ	-9.77078
ଜୀ	-9.77109
ତର	-9.77144
▁ପଦରୁ	-9.77156
▁ନାଇଁ	-9.77162
▁ପରିବା	-9.77191
ଂଗ	-9.77221
▁ଚର୍ଚ୍ଚା	-9.77306
▁111	-9.77307
▁41	-9.77332
▁Oriya	-9.7734
▁ଯାଇଥିଲା	-9.77383
▁ହୃଦୟ	-9.77458
TR	-9.77544
ତେବେ	-9.77577
୍ଠ	-9.77755
▁ଗର୍ଲଫ୍ରେଣ୍ଡ	-9.77848
▁କ୍ଲିକ	-9.77878
▁ଫେବୃୟାରୀ	-9.7805
▁ବ୍ୟବହୃତ	-9.7805
▁ମୂଲ୍ଯ	-9.7805
▁ଧ୍ୱନି	-9.7805
▁ମଡେଲ	-9.78051
▁ଅବଧି	-9.78057
▁ପ୍ରତିନିଧି	-9.78057
▁ଲେଖକ	-9.78063
▁ସୁସ୍ଥ	-9.78081
▁ଉତ୍	-9.78091
▁ଉଠି	-9.78108
କାଳ	-9.78141
▁as	-9.78189
▁ଗୋପନୀୟତା	-9.78283
▁ସେଥିରେ	-9.78292
▁IFFCO	-9.78295
▁ସହାୟକ	-9.78318
େଶ୍ୱର	-9.78351
▁ପରମେଶ୍ବରଙ୍କ	-9.78425
ସମ	-9.78456
୫୦	-9.78666
▁ରାଶି	-9.78704
▁ଡ଼	-9.78784
▁ପାଉ	-9.7899
▁୨୫	-9.79118
▁Edge	-9.79241
▁ସମତଳ	-9.79241
▁ପ୍ରଦର୍ଶିତ	-9.79241
▁ଗୀତସଂହିତା	-9.79245
▁ଲକ୍ଷରୁ	-9.79254
ରିଆ	-9.79365
▁think	-9.79451
▁ଦେଇଛି	-9.79478
▁ନୁଆ	-9.79596
▁ଗା	-9.79693
▁IN	-9.7973
▁କୋଉ	-9.7978
ଣ୍ଡି	-9.79803
–	-9.79813
ିବାକୁ	-9.79883
op	-9.80015
▁ଆମେରିକାର	-9.80041
େଟ	-9.80061
▁can	-9.8018
ତୋ	-9.80197
▁ଧାରା	-9.80271
Ethiopian	-9.80445
ୋଷ୍ଟେସଙ୍କ	-9.80446
▁ବରଂ	-9.80456
!"	-9.80532
▁ଲଢିବା	-9.80568
ଏଚ୍	-9.80618
▁ଖୋଲା	-9.80748
▁ପାଇବାରୁ	-9.80822
▁ଡର	-9.81172
େଶ	-9.81304
▁ରୂପରେ	-9.81478
ଙ୍ଗା	-9.81529
▁ପ୍ରମାଣ	-9.81605
▁ସ୍ଥିର	-9.81658
▁Apache	-9.81665
▁ବହିଷ୍କୃତ	-9.81665
▁ସମ୍ପାଦକ	-9.81665
▁ଧ୍ୟାନ	-9.81666
▁ଚିନ୍ତିତ	-9.81667
▁2014.	-9.81691
▁ପଚାରିଲି	-9.81752
▁କେତେବେଳେ	-9.81773
▁ଜନତା	-9.81836
na	-9.81839
▁ପେଟ	-9.81855
▁200	-9.81902
▁ମାଧ୍ୟମରେ	-9.81938
▁ODIA	-9.81997
▁ଯାଇଥିଲେ	-9.82022
▁ବିବାଦ	-9.82057
ୟୋ	-9.82132
▁୨୦୧୨	-9.82139
▁ଚନ୍ଦ୍ର	-9.82243
ର୍ତ୍ତ	-9.82305
▁ଆଗ	-9.82342
▁ସାଂସଦ	-9.82355
▁ନିୟ	-9.82396
▁ବନ୍ଧ	-9.82595
▁ସବୁଠୁ	-9.82668
▁ସୁଯୋଗ	-9.82676
▁Mo	-9.82691
▁ପୁଲିସ	-9.827
▁ସଂଗ୍ରହ	-9.82726
▁ଉଇଣ୍ଡୋକୁ	-9.8277
▁26	-9.82786
▁ବନ୍ଧୁ	-9.82864
to	-9.82865
▁ଚେ	-9.82874
▁ରକ୍ତଚାପ	-9.82899
▁ଟଙ୍କିଆ	-9.82901
▁ଯୋଗାଣ	-9.82901
▁ଲେଖନ୍ତୁ	-9.82901
କାତ୍ମକ	-9.82938
▁ବେଡି	-9.83039
▁କାର୍ଯ୍ୟକାରୀ	-9.83062
ଏମ	-9.83066
ver	-9.83115
▁V	-9.83116
▁ନିୟମିତ	-9.83144
ଡାକ	-9.83212
CGH	-9.83227
ce	-9.83327
▁ଖୋଲିଦେ	-9.83329
▁ଗ୍ରହରେ	-9.83422
▁ପ୍ରିୟ	-9.8344
▁କେଶ	-9.83505
ଭାରତ	-9.83617
ct	-9.83743
ଫି	-9.83787
▁ଶିବ	-9.83838
▁ଭାଇରାଲ	-9.83951
▁ଛାତ୍ର	-9.84149
▁ଫୋଲଡ଼ର	-9.84149
▁ଗୁପ୍ତାଙ୍ଗ	-9.84151
▁କଅଣ	-9.84158
▁ମଧ୍ଯରେ	-9.84188
▁ମାତୃ	-9.84223
@@@@@@@@@@@@	-9.84245
—	-9.84255
▁ତୁମ୍ଭମାନେେ	-9.84491
▁180	-9.8459
▁ପ୍ଲ	-9.84656
ଚିକ	-9.84661
▁ବଦଳ	-9.84699
▁କାଳିଆ	-9.84702
▁ହୋଇପାରିବ	-9.84811
hi	-9.84827
▁କଟକ	-9.84869
୍ଯା	-9.85009
▁୨୬	-9.85032
▁ଘରର	-9.85056
ରମ	-9.85315
OdiaPost	-9.85415
▁ଆଶଙ୍କା	-9.85415
▁ବାଇଗଣ	-9.85416
▁ଥଣ୍ଡା	-9.85432
▁have	-9.85442
▁ଲାଗୁନାହିଁ	-9.85457
▁କରୁଛୁ	-9.8558
▁ନିର୍ବାଚନରେ	-9.85641
▁ନେଲେ	-9.85704
▁ସଫଳ	-9.85745
▁୨୦୧୪	-9.85931
▁ଜଗତ	-9.8601
▁କ୍ଷମତା	-9.86015
▁ଘଟଣାକୁ	-9.86288
୬୫	-9.86475
▁ବ୍ୟ	-9.86537
ହୋ	-9.86582
▁ହାଇେ	-9.86706
▁2018	-9.86719
ୋଲ	-9.86737
@1	-9.8686
୧୧	-9.86916
ହର	-9.8693
▁କନ୍ୟା	-9.8709
▁ପତ୍ନୀ	-9.87098
▁ମହତ୍	-9.87129
▁ଟ୍ର	-9.87161
ାୟିକ	-9.87169
▁ମାଡ଼	-9.87421
99	-9.87478
ସିଂହ	-9.87512
←	-9.87515
▁ଦଶ	-9.87584
de	-9.87669
▁ଖଣ୍ଡ	-9.87731
▁ଘୁଞ୍ଚ	-9.87744
~	-9.87846
▁ମାଛ	-9.87877
▁ଫଳରେ	-9.87971
ଞାନ	-9.87988
▁ଶୀଘ୍ର	-9.87996
▁(1),	-9.88015
▁କନକ	-9.88065
▁ଚୋରି	-9.88099
▁ହୁଅନ୍ତି	-9.88114
▁ଭାବିଲି	-9.88138
ut	-9.88175
▁ଉଦ୍ଦେଶ୍ୟ	-9.88274
▁ସ୍ଥାନକୁ	-9.88423
▁ସବ	-9.88429
▁how	-9.88439
▁ସନ୍ତାନ	-9.88613
▁ଯେଉଁମାନେ	-9.88678
▁ବନ୍ୟା	-9.88736
ନ୍ଦା	-9.8877
ha	-9.88844
-“	-9.88969
▁ଆୟ	-9.89029
ଚାର	-9.89059
▁ଘା	-9.89193
▁ଆତଙ୍କ	-9.89195
co	-9.89217
▁ସ୍ପ	-9.89223
▁ଅବଶ୍ୟ	-9.89312
▁ଯୌନ	-9.89318
▁ୟା	-9.89342
▁ଯେକୌଣସି	-9.89344
▁ଭିତରକୁ	-9.89499
ଇଲା	-9.89502
▁୭୦	-9.89585
ବୋ	-9.89605
▁ରୋଗୀ	-9.89814
▁ନିଅନ୍ତୁ	-9.89902
▁ଶୁଭ	-9.89934
▁An	-9.90013
▁ବଦଳରେ	-9.90126
ସୀ	-9.90209
▁ବିଜୁ	-9.90224
ସମ୍ପାଦନା	-9.90242
Indian	-9.90254
ଆରମ୍ଭ	-9.90273
▁ପୁରୀ	-9.90402
▁ଭିନ୍ନ	-9.90427
▁ଡାଉନଲୋଡ	-9.90444
୍ସ	-9.90556
▁ସମ୍ପର୍କରେ	-9.90593
▁chicken	-9.90645
▁ବାରମ୍ବାର	-9.90645
▁rich	-9.90646
▁ଗୋଡ	-9.90649
▁ଦେଉଛୁ	-9.90661
▁ଇଣ୍ଟରନେଟ	-9.90672
▁କହୁଥିଲେ	-9.9071
▁ଭୟଙ୍କର	-9.90733
▁•	-9.90795
▁ଫେର	-9.90817
▁ଅଧା	-9.90835
ନୋ	-9.90856
▁ସେଲ	-9.90869
▁ଆତଙ୍କୀ	-9.90886
▁ଜାଣିଲେ	-9.90991
▁cur	-9.91052
ଳନ	-9.91094
▁ଚଳିତ	-9.91119
ay	-9.91161
▁ଖୋ	-9.91209
▁ଯିବାକୁ	-9.91271
▁ଉଦାହରଣ	-9.91395
ମାସ	-9.91426
ପତ୍ର	-9.91481
▁ଆତ୍ମ	-9.91632
▁ଯୀଶୁଙ୍କ	-9.91873
▁ଭାରତକୁ	-9.91991
▁ଅତିରିକ୍ତ	-9.91997
▁ପଦକ୍ଷେପ	-9.91997
▁ଫାଇଦା	-9.92001
▁3.9	-9.92014
▁ଆଲ	-9.92214
▁କ୍ଲିକ୍	-9.92232
▁ଚାବି	-9.92257
di	-9.9232
▁ଡିରେକ୍ଟୋରୀ	-9.92402
ଠାରେ	-9.92475
▁←	-9.925
▁ହିସାବ	-9.92597
ତ୍ୟ	-9.92767
▁ଦଳର	-9.92829
▁ଚୁ	-9.92905
net	-9.92933
▁ରଖିବ	-9.92987
▁ଦେଶରେ	-9.93031
▁ବିଧାନସଭା	-9.93177
▁ଚାଷ	-9.93207
▁ଦୋଷ	-9.93221
▁ଆସିବା	-9.93232
▁ମୁଦ୍ରଣ	-9.93265
▁ପାରିବି	-9.93275
▁ଯାକୁବ	-9.93312
▁ଅଭିନେତା	-9.93366
▁ପୁସ୍ତିକା	-9.93366
▁ସମ୍ପତ୍ତି	-9.93371
ନାଥ	-9.93382
▁Time	-9.93383
ଂଚ	-9.93388
▁ଅଧ୍ୟକ୍ଷ	-9.93391
▁JH	-9.93399
▁ସ୍ତମ୍ଭ	-9.93406
▁ଲାଗୁଛି	-9.93425
__	-9.93452
ବାବୁ	-9.9349
କ୍ତ	-9.93491
NTS	-9.93532
▁Download	-9.93608
▁ଆସିଲେ	-9.93719
▁ବଟନ	-9.93857
▁ତଳକୁ	-9.93887
ଞ୍ଚି	-9.93907
▁ଏନ	-9.93907
ପଟ	-9.93962
▁k	-9.93994
▁user	-9.9404
▁ଶୁଣିବା	-9.94108
▁ଲକ୍ଷ୍ମୀ	-9.94141
No	-9.94266
▁ଘଟିବ	-9.94289
▁କେତେକ	-9.94419
ure	-9.9448
ସମସ୍ତ	-9.94518
ିକ୍	-9.94551
▁ପଏଣ୍ଟ	-9.9459
ପାରନ୍ତି	-9.94641
ହୁଁ	-9.94657
EDIE	-9.94755
Brinjal	-9.94755
▁View	-9.94755
▁ମନୋନୀତ	-9.94755
▁ପଣ୍ୟ	-9.94757
ାଡ଼ୋ	-9.9476
▁ପଦବୀ	-9.94764
▁ମିଳୁଛି	-9.94774
://	-9.94777
▁ଦିଦି	-9.94788
▁ପରିଚିତ	-9.94791
Let	-9.94902
େଟ୍	-9.94907
▁ପ୍ରକାଶିତ	-9.94913
▁ଶଶୁର	-9.94979
ର୍ଟ	-9.95005
▁୨୪	-9.95055
ପେ	-9.95078
▁ଓଂ	-9.95257
ଯାଉଛି	-9.95342
▁ସ୍ତର	-9.95366
ବେଳେ	-9.95386
▁ଫାଇଲକୁ	-9.95409
୍ୱ	-9.95422
▁ସଭା	-9.95536
▁ମାରିବା	-9.95603
25	-9.95689
▁42	-9.95759
୍ୟୁ	-9.95844
▁ମୁହଁରେ	-9.95902
ୀଙ୍କ	-9.95909
ଥିଲ	-9.95921
▁ଠ	-9.95956
▁ଧାନ	-9.96061
▁ଦେଉ	-9.96072
▁ଗଣମାଧ୍ୟମ	-9.96118
▁ଅଭାବ	-9.96131
▁ଭୁବନ	-9.96157
▁ଜବରଦଖଲ	-9.96164
▁କୁହାଯାଇଥାଏ	-9.96164
▁ନୁହନ୍ତି	-9.96164
▁କୋଲୋ	-9.96195
▁ଧୀରେ	-9.96206
▁ବିଶିଷ୍ଟ	-9.96254
▁ପ୍ରଶଂସା	-9.96258
▁ସବଳ	-9.96269
▁ଡାଟା	-9.96302
▁ହୋଇଯାଇଛି	-9.96312
▁ରେଖା	-9.964
▁ବୁଝାଇ	-9.96421
▁ରଙ୍ଗର	-9.96488
▁di	-9.96646
କଂ	-9.96846
▁ହିସାବରେ	-9.96961
▁ଦାମ୍	-9.97153
▁ଫା	-9.97248
▁ଗୋପାଳ	-9.97309
ଣୁ	-9.97419
▁ନମଃ	-9.97593
▁ଜଙ୍ଗଲ	-9.97598
▁ସ୍ୱପ୍ନ	-9.97598
▁ଭୁଲ୍	-9.9763
ିମିତ	-9.97705
▁29	-9.97718
ଶେ	-9.9772
▁ଜାଣେ	-9.97722
▁ତାଲିକାରେ	-9.97768
ବାନ	-9.97848
email	-9.98026
▁ଅସ	-9.9803
▁ଟିମ୍	-9.98098
▁ଭୋଟ	-9.98137
▁ବନ	-9.98221
▁ଜାଣ	-9.9825
▁ମୂର୍ତ୍ତି	-9.98307
▁ମନ୍ତ୍ର	-9.98403
▁ଅଟକ	-9.98418
▁ବିଦ୍ୟା	-9.98463
▁This	-9.98582
▁ମୁଖ	-9.98616
୦୦	-9.98657
▁କିଂ	-9.98719
▁ବଢି	-9.9881
▁ରାଉତ	-9.98977
ିଙ୍ଗ	-9.99023
▁ଅନୁଚିତ୍	-9.99042
▁ଚାହାନ୍ତି	-9.99042
▁ଆକୃତି	-9.99042
▁Bible	-9.99042
▁ଗଣତନ୍ତ୍ର	-9.99043
▁ସଂକ୍ଷିପ୍ତ	-9.99045
ଆମେ	-9.99059
▁ତୁରନ୍ତ	-9.99073
▁ଯାଉଛନ୍ତି	-9.99098
▁ଅଟୋ	-9.99172
▁ବଢ଼ିବାକୁ	-9.99191
▁କୁରୁମ	-9.99284
▁ମନ୍ଦିର	-9.99378
75	-9.99386
ନିଆ	-9.99397
▁ଷ	-9.99437
▁୩୫	-9.99446
▁ଅବସରରେ	-9.99589
▁ସବୁଦିନ	-9.99663
ance	-9.99685
▁ଇନ୍	-9.99694
il	-9.99755
କରିବା	-9.99769
▁ଛାତି	-9.99807
▁ମ୍ୟା	-9.99878
ଦୁ	-10.0004
ଘର	-10.0009
ଯାଇ	-10.0011
▁ଘଟ	-10.0014
କ୍ରମ	-10.0034
ଜଣ	-10.004
▁ସ୍ୱାମୀଙ୍କ	-10.0043
ଠି	-10.0051
▁program	-10.0051
▁ଅନ୍ୟାନ୍ୟ	-10.0051
▁ଆର୍ଥିକ	-10.0051
▁ପଗ୍ଭରି	-10.0052
▁size	-10.0052
▁କ୍ଷମା	-10.0052
▁ଦିଆଯାଇଛି	-10.0053
▁ଉଦ୍ୟମ	-10.0053
▁ଅଥବା	-10.0055
▁ରଖିଛି	-10.0063
ଢି	-10.0069
▁ଈଶ୍ବରଙ୍କୁ	-10.007
▁ପରିଚାଳନା	-10.007
▁ଇଣ୍ଡିଆ	-10.0071
▁ଲାଗିବ	-10.0072
▁ଆର୍କ	-10.0077
ଥର	-10.0083
▁23	-10.0085
▁ଟୋକିଓ	-10.0087
▁ରାଷ୍ଟ୍ରପତି	-10.0087
▁ଆବର୍ଜନା	-10.0093
22	-10.0099
▁Indian	-10.0111
ତନ	-10.0126
▁ଫେରିବା	-10.0139
and	-10.0141
▁ସେପ୍ଟେମ୍ବର	-10.0148
ପୋ	-10.0153
▁ଘୁ	-10.0163
▁ପାଳ	-10.0165
▁କଲେଜ୍	-10.0169
GR	-10.0171
▁ପ୍ରକୃତରେ	-10.0181
)[	-10.0183
▁Short	-10.0183
▁ସତେ	-10.0187
▁ସହଜରେ	-10.019
▁ପ୍ରଚାର	-10.0197
▁ସନ୍ଧ୍ୟା	-10.02
▁ଡ୍ୟାମ୍	-10.02
ମାଲ	-10.0201
▁ନିମ୍ନଲିଖିତ	-10.0201
▁ସ୍ୱର୍ଗ	-10.0201
▁ଯନ୍ତ୍ରଣା	-10.0202
▁କେରଳ	-10.0202
▁ମଣ୍ଡଳୀ	-10.0207
▁ଦିଗ	-10.021
▁‘‘	-10.0212
୪୭	-10.0212
▁ବଢିଲା	-10.0213
▁ସଂସ୍କୃତି	-10.0219
▁ରହିବୁ	-10.0226
ରୂପ	-10.0228
▁ପାଟି	-10.0229
▁ମୋହିତ	-10.0231
ୁଥିବା	-10.0233
▁ସ୍ବ	-10.0233
ଲରେ	-10.0234
▁ସାମ୍ବାଦିକ	-10.0235
▁man	-10.025
▁ଥା	-10.0263
ସାରି	-10.0272
▁ରଥ	-10.0274
▁ଏଇଟା	-10.0282
ta	-10.0284
▁ଶିକାର	-10.0289
ୟର	-10.0301
▁ସାଙ୍ଗରେ	-10.0304
▁ଅବସ୍ଥାରେ	-10.0306
କରଣ	-10.0307
▁ସଫଳତା	-10.0309
▁30	-10.0315
▁ଓଡ଼ିଶାର	-10.0324
ନ୍ନ	-10.0324
▁ବାମ	-10.0327
▁ରେଳ	-10.0328
ଜ୍ଞ	-10.0338
ମୋଦିଙ୍କ	-10.0351
▁ଅସୁବିଧା	-10.0352
▁ଚାହାଁନ୍ତି	-10.0353
▁July	-10.0353
▁କୋଚେ	-10.0353
▁ସର୍ବଦା	-10.0354
▁କରାଗଲା	-10.0354
▁ଫେ	-10.0357
IAL	-10.0362
▁ମିଳେ	-10.0365
▁ଧର	-10.0366
ter	-10.0372
▁ବ୍ୟବହାରକାରୀ	-10.038
▁.....	-10.0394
ଗତି	-10.0398
▁ଲକ୍ଷଣ	-10.0409
▁ୱ	-10.0418
ଏକ	-10.0423
▁ଦେଇଥାଏ	-10.0423
▁ଅଧିବେଶନ	-10.0428
▁ସଂରଚନା	-10.0436
▁ହରାଇ	-10.0458
ଯାନ	-10.0462
ମଣି	-10.0473
▁ଭଦ୍ର	-10.0484
▁ଆମ୍ଭ	-10.0486
ଭାଗ	-10.0499
▁ଦୀର୍ଘ	-10.0506
aunchpad	-10.0506
▁ପାଣିପାଗ	-10.0506
▁ପ୍ରତିକ୍ରିୟା	-10.0506
▁Control	-10.0506
▁ସ୍ୱାଗତ	-10.0506
▁ଗୁଣଧର୍ମ	-10.0507
▁ପ୍ରଧାନ	-10.0507
▁କାର୍ଯ୍ୟାଳୟ	-10.0508
ତୁମ୍ଭେ	-10.0511
mi	-10.0514
▁ପ୍	-10.0516
▁ହରିଆ	-10.0516
ସଞ୍ଜୁ	-10.052
▁days	-10.0521
▁ଛବି	-10.0525
ଦେଲା	-10.0526
ଗେ	-10.0526
▁ସହଯୋଗୀ	-10.0529
▁ବୟସ୍କ	-10.0535
ଡୁ	-10.0541
ଗି	-10.0552
▁ରାଜାଙ୍କୁ	-10.0564
▁40	-10.0575
The	-10.0576
▁ବାହାରକୁ	-10.0579
▁ସିନା	-10.0582
୍ବ	-10.0586
▁ଯୋହନ	-10.0588
ନଂ	-10.0591
50	-10.0593
▁ID	-10.06
▁ନାରାୟଣ	-10.0602
▁ବାହାରେ	-10.0607
▁ପ୍ରତିଦିନ	-10.0621
ମୟ	-10.0625
▁ଭେଟି	-10.0639
▁ପଛ	-10.0649
‘	-10.0658
▁ଉନ୍ନତ	-10.066
କଥା	-10.0661
laze	-10.0662
▁SONG	-10.0662
▁School	-10.0662
▁ଫ୍ଲୁ	-10.0662
▁ଉତ୍କଳ	-10.0662
▁ବଢୁଥିଲା	-10.0662
▁ଘୁରାଅ	-10.0663
▁ଅବଦାନ	-10.0663
କାନ	-10.0665
▁ଶୋ	-10.0667
▁ଦେୟ	-10.0672
ଟଙ୍କା	-10.0675
ିତା	-10.0678
▁ଦରମା	-10.0678
ଯାଅ	-10.0679
▁ପବିତ୍ର	-10.07
▁ଘନ	-10.0704
▁କ୍ୟା	-10.0709
▁କ୍ର	-10.0711
▁ରହିଲା	-10.0712
▁ବିରୋଧ	-10.0715
▁୨୦୧୬	-10.0716
▁ରାଓ	-10.0718
ନାମ	-10.0721
▁ଦୃଷ୍ଟି	-10.0722
ame	-10.0727
AL	-10.0727
ur	-10.0746
id	-10.0754
▁ଅନ୍ଧ	-10.0766
ଷତ	-10.0769
ମୃତ	-10.0783
▁»	-10.0786
ru	-10.0789
ice	-10.0793
▁ଅଭି	-10.0794
▁ଆପେ	-10.08
ଦେଇ	-10.08
▁ନାହଁ	-10.0805
▁ଚାଲନ୍ତୁ	-10.0815
▁inlistbox	-10.0821
▁SOC	-10.0821
▁ପଦ୍ଧତି	-10.0821
▁ଚୟିତ	-10.0821
▁ସଞ୍ଜୟ	-10.0822
ch	-10.0826
ୋଷ	-10.0826
▁ଏକାଧିକ	-10.0827
ଏମଆଇ	-10.0827
▁ବହୁଳ	-10.0829
▁ଡେରି	-10.0832
▁©	-10.0834
▁ସେହିପରି	-10.0834
▁ପୋ	-10.0844
▁ଜୁନ	-10.0857
▁ଵି	-10.0882
▁ଚାଲିବ	-10.0885
▁Google	-10.0885
ାକ	-10.0901
▁୧୬	-10.0916
ଏବେ	-10.0921
▁ପିଲାର	-10.0923
ାମ	-10.0925
▁ରୂପେ	-10.0926
▁ନଥିଲେ	-10.0929
▁ବାକ୍ୟ	-10.0937
▁ଭାବ	-10.0942
୦୬	-10.0949
▁type	-10.0955
▁ପ୍ରକାରର	-10.098
▁tomorrow	-10.0982
▁ଡ଼େସ୍କଟପ	-10.0982
▁ନଭେମ୍ବର	-10.0982
▁ନିର୍ଦ୍ଧାରିତ	-10.0982
ompany	-10.0982
᭫	-10.0982
▁ଛାଞ୍ଚ	-10.0983
▁ବ୍ର	-10.0984
୧୨	-10.0984
▁ସମର୍ଥିତ	-10.0985
▁ଧର୍ମା	-10.0992
ଜୁ	-10.0993
▁ଏକମତ	-10.0995
କର୍ତ୍ତା	-10.0997
ନ୍ସ	-10.1002
▁କହିଲ	-10.1004
▁ଶିଶୁକୁ	-10.1006
ୁନି	-10.1017
ଷ୍ଟା	-10.1019
▁who	-10.102
ଶୁଣ	-10.1029
ଶୁ	-10.1032
▁ଓଡ଼ିଶାରେ	-10.1036
▁ଯୋଗ୍ୟ	-10.1045
ଖି	-10.1045
▁ଖାଇବାକୁ	-10.1045
▁ଫୋର	-10.1054
▁DVD	-10.1068
▁ପ୍ରକ୍ରିୟା	-10.1068
▁ତୁଳ	-10.108
ୋନ	-10.1091
▁ମେଳ	-10.1101
କାନ୍ତ	-10.1111
▁them	-10.1124
ଇନ	-10.1126
▁ଯୋଡି	-10.1131
ାଇଁ	-10.1133
▁ଟ୍ରାକ	-10.1138
▁ବିଳମ୍ବ	-10.114
ପାଳ	-10.114
▁ଅଦ୍ୟତନ	-10.1146
▁କୌଶଳ	-10.1146
▁ନିର୍ଦ୍ଦିଷ୍ଟ	-10.1146
▁ବ୍ୟୁରୋ	-10.1146
▁ଯୋଗାଯୋଗ	-10.1146
▁ସମୁଦ୍ର	-10.1146
▁ଅନୁସରଣ	-10.1146
▁ହ୍ରାସ	-10.1146
▁ଏକକାଂଶ	-10.1146
▁ଗୁଡ଼ିକର	-10.1147
▁ଉପଯୁକ୍ତ	-10.1148
▁ସଂଯୁକ୍ତ	-10.1148
▁ସେବକ	-10.1148
▁ଏକୁଟିଆ	-10.1149
▁ଯୋଗାଡ	-10.1149
ହରି	-10.1151
ment	-10.1153
▁Act	-10.1154
ର୍ମ	-10.1157
ୱେ	-10.1173
ଆମ	-10.1176
▁ନିଅ	-10.1181
▁ସେମିତି	-10.1184
▁କରିଥିଲି	-10.1185
▁ବିଧି	-10.1192
ବାସ	-10.1193
▁ଭୂ	-10.1194
▁ପ୍ରାଣ	-10.1196
▁ବୁଲିବା	-10.1197
▁ପୂର୍ବେ	-10.1207
▁ବିକିବ	-10.121
ଥିଲୁ	-10.1226
▁ତାହାଙ୍କର	-10.1231
ଦେଲେ	-10.1234
▁ପରିସ୍ଥିତି	-10.1235
ଭେ	-10.1236
ଧା	-10.1245
ine	-10.1251
▁ପଣ୍ଡା	-10.127
▁ପରମ	-10.128
▁ଦିଆଯିବ	-10.129
୍ଵ	-10.1293
▁ଅଫିସର	-10.1298
▁ଆତଙ୍କବାଦୀ	-10.1301
ଯେ	-10.1303
▁ଫର୍ମ	-10.1303
ପ୍ତ	-10.1304
▁Argus	-10.1313
▁Insurance	-10.1313
▁Text	-10.1313
▁ପିଲାପିଲି	-10.1313
▁ପ୍ରଯୁକ୍ତି	-10.1313
▁ଗୋଲାପି	-10.1313
▁ଦାଖଲ	-10.1313
▁ଗର୍ଭବତୀ	-10.1313
▁listbox	-10.1313
▁prote	-10.1313
▁ମିଲିୟନ	-10.1313
▁ପଡୁଛି	-10.1316
▁କୋଡ	-10.1318
▁ଠାକୁର	-10.1319
ଭିନ୍ନ	-10.1319
▁ମୋଟେ	-10.132
▁ରହିଥାଏ	-10.132
ty	-10.1322
▁en	-10.1323
▁ପ୍ରାର୍ଥୀଙ୍କ	-10.1333
▁ରେକର୍ଡ	-10.1334
▁କିଲୋ	-10.1335
▁error	-10.1337
▁YouTube	-10.1337
▁କରିହେବ	-10.134
▁ଚୋର	-10.1345
୧୩	-10.1345
ସହ	-10.1346
▁୯୦	-10.1351
ପୁଅ	-10.1352
▁ଅନ୍ତର	-10.1358
ଣ୍ଟି	-10.137
▁ଯଥା	-10.1384
▁ନିର୍	-10.1385
um	-10.1392
▁ଅଣ୍ଡା	-10.1395
▁Read	-10.1397
▁ଦାୟୀ	-10.1402
▁ସଂସାର	-10.1405
▁Rs	-10.1409
▁୨୩	-10.1414
▁ସେୟାର	-10.1418
ଯୋଗ୍ୟ	-10.1419
▁ଡାକ୍ତରଙ୍କ	-10.1419
▁ଭୋଗ	-10.1422
▁ନାମକ	-10.1434
ଷି	-10.1435
ଦ୍ୟ	-10.1436
▁ବଢ଼ି	-10.1442
ପନ	-10.1447
▁ସର୍ବ	-10.1458
ଦେଶର	-10.1467
▁ଶତ୍ରୁ	-10.1469
▁ଚାଷୀଙ୍କ	-10.1477
▁ଉପାଦାନ	-10.1479
ight	-10.1481
▁ଧକ୍କା	-10.1482
▁ଫଳାଫଳ	-10.1482
▁ମଲ୍ଲିକ	-10.1482
▁ସଙ୍କେତ	-10.1482
▁କଲ୍ୟାଣ	-10.1482
▁ସମ୍ମୁଖୀନ	-10.1482
▁୧୯୮୨	-10.1483
▁ପଢିଥିଲି	-10.1484
▁ଭଣ୍ଡାର	-10.1485
▁2009	-10.1485
▁କରାଯାଉଛି	-10.1486
wa	-10.149
▁ଦାବିଦ	-10.1495
▁ବୈଜ୍ଞାନିକ	-10.1496
▁କରୁଥିଲା	-10.1496
▁ଏକ୍ସ	-10.1498
ର୍ଯ୍ୟ	-10.1499
▁ବଢ	-10.1502
▁ଉଠିଲା	-10.1505
▁ପାଖ	-10.1509
▁ବାବଦରେ	-10.1512
▁Tokio	-10.1512
▁ଆମେରିକାରେ	-10.1515
▁ଚିହ୍ନିତ	-10.152
ଦନ	-10.1523
▁କରାଯାଇଥାଏ	-10.1527
ଯିବା	-10.1531
▁ୟହ	-10.1537
▁ସ୍କୁଲ୍	-10.1539
ମୁକ୍ତ	-10.1543
ve	-10.1545
▁No	-10.1546
OR	-10.1552
▁For	-10.1556
▁ନାହି	-10.1556
▁ଅଫିସ	-10.1557
▁ଉପାୟରେ	-10.1563
▁ଛଡା	-10.1565
ନବ	-10.1576
▁ତମର	-10.1588
ନ୍ଧ	-10.1592
ସଂ	-10.1595
▁ପୂର୍ଣ୍ଣ	-10.1619
▁ହଜ	-10.1639
▁ସିଂ	-10.1642
ୀନ	-10.1645
ପୂର୍ଣ୍ଣ	-10.1647
▁ଆମଦାନୀ	-10.165
▁ପ୍ରତିଛବିକୁ	-10.1652
▁ସାଆନ୍ତ	-10.1654
▁URL	-10.1655
▁tooltip	-10.1655
▁ଅପରିବର୍ତ୍ତିତ	-10.1655
▁ଦୁର୍ବଳ	-10.1655
▁ରତ୍ନଭଣ୍ଡାର	-10.1655
▁ଚେହେରା	-10.1655
▁ଧୂସର	-10.1655
▁କୃମି	-10.1655
▁today	-10.1655
▁ପାଉଲଙ୍କ	-10.1655
▁ପଚାରନ୍ତୁ	-10.1656
▁been	-10.1657
▁ମହାଭାରତ	-10.1658
▁ଦଇେ	-10.1658
cted	-10.1659
▁ରୁଜୁ	-10.166
▁ଘଟିଛି	-10.1662
emains	-10.1665
▁{	-10.1669
▁ବ୍ୟୟ	-10.167
ୁଳିଆ	-10.167
ପ୍ରାପ୍ତ	-10.167
▁ବେଗ	-10.1671
ଉଛି	-10.1673
▁ଦତ୍ତ	-10.1675
▁ପ୍ରାଣୀ	-10.1678
▁ଭୂମି	-10.1696
ଏତ	-10.1701
▁ହଉଛି	-10.1702
▁ବ୍ଲକ	-10.1706
30	-10.1733
▁ଫେରାଇ	-10.1737
ାଂ	-10.1743
▁ନାରୀ	-10.1748
୬୪	-10.175
▁ପୂ	-10.176
▁କୋଉଠି	-10.1763
▁ପଛର	-10.1765
▁ମନ୍ତ୍ରୀଙ୍କ	-10.1769
କିଏ	-10.1778
▁11,	-10.1779
▁ଜୁ	-10.1779
▁ଈଶ୍ୱର	-10.1788
▁ଅନଲାଇନ	-10.179
▁go	-10.1804
ୁତୀର	-10.1805
ହ୍	-10.1805
ate	-10.1807
06	-10.1809
▁ଦୁ	-10.1811
ଂଜ	-10.1821
▁Co	-10.1825
▁ୟୁରୋପ	-10.1829
▁call	-10.1829
aunched	-10.183
▁ଅନ୍ତର୍ଭୁକ୍ତ	-10.183
▁ପ୍ରାର୍ଥନା	-10.183
▁ବ୍ଯବହାର	-10.183
▁ସ୍ତନ୍ୟପାନ	-10.183
▁ଛଅଟି	-10.183
▁Reporter	-10.183
▁ବୈଧିକରଣ	-10.183
▁With	-10.1831
▁UA	-10.1831
▁କୋର୍ଟ	-10.1832
▁ବ୍ୟସ୍ତ	-10.1833
▁ୟେବେ	-10.1834
▁ବନାନ	-10.1834
▁ଫେରିଲୁ	-10.1835
▁ଦେଉଛି	-10.1836
▁ଏଯାଏଁ	-10.1836
▁ଗାଁରେ	-10.1836
▁ରୋ	-10.185
▁ଜେନା	-10.1853
▁ହେଇଯିବ	-10.1856
▁ଅପରାଜିତା	-10.1857
24	-10.1866
▁ବଢାଇ	-10.1866
ସାର	-10.1868
▁ଗୋଟି	-10.1869
▁ପ୍ରକାଶନ	-10.1877
ସାରିଛନ୍ତି	-10.1882
▁org	-10.1908
▁ନିଦ	-10.1911
▁୍‍	-10.1918
ଫୋ	-10.1918
▁ଚାହୁଁ	-10.1928
▁ମେଘ	-10.1929
▁ବଦଳି	-10.1929
ତୃ	-10.1931
▁ପୋଛି	-10.1936
▁ସମୂହ	-10.1954
ଲ୍ୟ	-10.1956
ଜିତ	-10.1965
▁କର୍ମଚାରୀ	-10.197
ିୟ	-10.1972
▁None	-10.1978
ଲଭ	-10.1979
▁ଛୁଆ	-10.1989
45	-10.2003
▁ବୁଲି	-10.2008
▁Remote	-10.2009
▁ଉଇକିପିଡ଼ିଆ	-10.2009
▁ଟିପ୍ପଣୀ	-10.2009
▁ଭୂବନେଶ୍ୱର	-10.2009
ଘଂଟା	-10.2009
▁ଆଗେଇଲା	-10.2011
▁ଅନୁମାନ	-10.2011
▁ସତର୍କ	-10.2013
▁ନାମକରଣ	-10.2016
▁ସଂରକ୍ଷିତ	-10.2029
ni	-10.2031
▁ଶୋଇ	-10.2033
▁ଶିକ୍ଷକ	-10.2036
▁ଉଚ୍ଚତା	-10.2042
▁ସଂପର୍କରେ	-10.2045
▁ଉଠାଇ	-10.2049
▁ତ୍ରି	-10.205
▁ରହ	-10.2055
▁ବୈଧ	-10.206
ଜୁଲାଇ	-10.2061
*	-10.2063
WEB	-10.2064
▁Me	-10.2068
▁୨୦୧୫	-10.2084
▁ଡ୍ର	-10.2096
ର୍ବ	-10.2096
ାଳ	-10.21
ଦଳ	-10.211
ଏଲ	-10.2116
ପୂ	-10.2126
▁ପରମେଶ୍ୱରଙ୍କ	-10.2128
▁ଖୋଜି	-10.2133
ଢ଼	-10.2137
▁ପଡୁ	-10.2137
ଧ୍ୟ	-10.214
▁ଛିନ୍ନ	-10.2142
▁ହବ	-10.2154
▁ଥାନାରେ	-10.2167
▁ଦାଣ୍ଡ	-10.2167
▁ସଠିକ	-10.2168
▁ଏହ	-10.2175
ମ୍ପ	-10.2178
ap	-10.218
▁ସାହସ	-10.2181
▁ଈର୍ଷା	-10.219
▁ପାଖାପାଖି	-10.219
▁ପୂର୍ବାନୁମାନ	-10.219
▁ଲାଇବ୍ରେରୀ	-10.219
▁୧୯୬୨	-10.219
▁ଅଟନ୍ତି	-10.219
▁ବିକ୍ରି	-10.2191
▁ପ୍ରସନ୍ନ	-10.2191
ie	-10.2192
▁୧୯୫୭	-10.2192
▁ଫାର୍ମ	-10.2192
▁2019	-10.2194
▁କଳାରେ	-10.2194
▁ଅଧିକାଂଶ	-10.2197
▁ମେନୁ	-10.2198
▁ଡାକଘର	-10.2201
▁ମହିଳାମାନେ	-10.2204
▁ଖୋଲିକି	-10.2208
▁ପଡିଲେ	-10.2209
ଦ୍ୱ	-10.2211
ଚେ	-10.2215
ba	-10.2223
tic	-10.2224
▁ଓସାର	-10.2228
▁ଡଃ	-10.2229
ାହ	-10.2238
ତକ	-10.2239
▁ତଳ	-10.224
ଜର	-10.2246
▁ଯୁକ୍ତି	-10.2247
▁ପେରୁ	-10.225
ରିବା	-10.2251
ଏଠି	-10.2258
▁ପ୍ରେରିତ	-10.2261
▁ବ୍ରାଉଜର	-10.2265
▁ଲିଟର	-10.2273
▁ଖସି	-10.2275
▁ଦେବତା	-10.2288
ପଦ	-10.2294
▁୫୩	-10.2306
▁ଧାରାରେ	-10.2308
ଲକ୍ଷ	-10.2311
ରତ	-10.232
ଦେଖ	-10.2321
ଦେବା	-10.2331
▁ଝ	-10.2334
▁ଆସୁ	-10.2346
▁ବର୍ଗ	-10.2346
▁ଦେବୀ	-10.2351
▁କାନ୍ଦି	-10.2351
the	-10.2353
ନଥିବା	-10.2359
▁ଉଦ୍	-10.2364
▁ଅଗଷ୍ଟ	-10.2372
କାହା	-10.2374
▁HTML	-10.2376
▁ଚିତ୍କାର	-10.2376
▁menu	-10.2376
▁ସଂସଦ	-10.2376
▁ଆଟାକ୍	-10.2376
▁ବ୍ୟତୀତ	-10.2376
▁କଦାପି	-10.2376
▁ପୁଣିଥରେ	-10.2376
▁ଏକାଡେମୀ	-10.2377
NS	-10.2379
un	-10.2383
ud	-10.2383
▁ଅରୁଣ	-10.2387
▁ହଳ	-10.2392
ଫ୍ରୀ	-10.2396
▁ଅଚଳ	-10.2396
▁ହୁ	-10.2401
ଗଁ	-10.2401
▁ପ୍ରାରମ୍ଭିକ	-10.2401
▁ସଂଗୁପ୍ତ	-10.2402
ସ୍‍	-10.2403
6]	-10.2405
▁ବସ୍ତ୍ର	-10.2405
▁videos	-10.2411
▁ବଞ୍ଚିବାକୁ	-10.2415
▁ନିରବ	-10.2416
tal	-10.2423
name	-10.2425
ୟାର	-10.2436
ିଗଲା	-10.2438
▁ବାଦ	-10.2441
ଵି	-10.2445
▁୨୦୦	-10.2448
▁ଗଳ୍ପ	-10.2451
▁ପୋଛ	-10.2456
▁ସ୍ତ୍ରୀର	-10.2471
▁ଗ୍ରହ	-10.2475
▁ଅକ୍ଷ	-10.2476
▁ଫସଲ	-10.2479
▁ଧାର	-10.2481
ga	-10.2503
୨୪	-10.2509
ପାତ	-10.251
▁ବୁଦ୍ଧି	-10.2513
ଶ୍ଚ	-10.2516
ିଜ	-10.2522
▁https	-10.2527
୫୦୦	-10.2528
୦୨	-10.2532
▁ଗଜା	-10.2535
ଏନ	-10.2552
▁ମିଶି	-10.256
▁ସେମାନ	-10.2563
▁Office	-10.2564
▁କ୍ଷୟକ୍ଷତି	-10.2564
▁ଚେତାବନୀ	-10.2564
▁ଫେବ୍ରୁଆରି	-10.2564
▁ଶକୁନ୍ତଳା	-10.2564
▁୧୯୯୧	-10.2564
▁ପ୍ରଣାଳୀ	-10.2564
▁ପ୍ରଦର୍ଶକ	-10.2564
▁ଏଣିକି	-10.2564
▁ବୋହୂ	-10.2565
▁ସାରଣୀ	-10.2567
▁any	-10.2568
୨୯	-10.2572
▁ଚାଲୁ	-10.2572
▁କୁହନ୍ତୁ	-10.2573
ED	-10.2577
▁ରହିଥିବା	-10.2578
▁ପାଉଛି	-10.2583
▁ପ୍ରାକୃତିକ	-10.2586
▁କରିପାରନ୍ତି	-10.2589
▁ଅବସ୍ଥିତି	-10.2589
▁ସ୍ଥାନଗୁଡ଼ିକ	-10.2591
ଥାଇ	-10.2594
▁ଜୀବନକୁ	-10.2595
▁ତାହାହେଲେ	-10.2596
all	-10.2601
▁ଡିଗ୍ରୀ	-10.2604
▁ରୋଜଗାର	-10.2604
▁କାଇଁ	-10.2617
ଂକ	-10.2619
▁ମହାନ୍	-10.2619
▁ଫ୍ୟୁଜ୍	-10.262
ୟମ	-10.2628
ବିତ	-10.2629
ର୍ସ	-10.2642
▁ପଶି	-10.2646
ନ୍ୟ	-10.2647
▁ବାଜି	-10.2658
ପକ	-10.2659
▁ସ୍ତରରେ	-10.2669
09	-10.2676
ଗର	-10.2677
▁ଗାଡ଼ି	-10.2679
ep	-10.2681
ଈ	-10.2694
▁ବାଛ	-10.27
▁ମିଶନ	-10.2732
▁ନାହାଁନ୍ତି	-10.2736
▁ଥି	-10.2737
▁ସଂଲଗ୍ନ	-10.2742
▁ସହଯୋଗ	-10.275
▁ମୌଳିକ	-10.2757
▁କ୍ୟାମେରା	-10.2757
▁ଗତକାଲି	-10.2757
▁bug	-10.2757
▁ନାଗରିକ	-10.2757
▁ଅନ୍ତିମ	-10.2757
▁ପୁନଃସ୍ଥାପନ	-10.2757
▁ସମେତ	-10.2757
▁ବଦଳାନ୍ତୁ	-10.2758
▁ଛୁଇଁପାରେ	-10.2758
▁ଗୁପ୍ତ	-10.2758
▁ସଂଯୋଜକ	-10.2758
▁Sambad	-10.2759
▁2014	-10.2759
▁ଯେଉଁଠି	-10.2762
▁ଲେଖିଛନ୍ତି	-10.2762
▁କରାଯାଇପାରେ	-10.2762
▁ଦୁଆର	-10.2763
▁ନିଶା	-10.2768
▁ନୋଟ୍	-10.2769
▁ଲାଗିଛି	-10.2772
ST	-10.2773
▁ଉଠିଲେ	-10.2773
୪୦	-10.2776
▁କାଠ	-10.2795
▁English	-10.2797
(?)	-10.2825
▁ଚମକି	-10.2829
ଦୀ	-10.2834
▁ୟମ	-10.2838
ଆଧାର	-10.2841
▁ଠାରେ	-10.2851
▁ତମକୁ	-10.2855
tra	-10.2873
▁ପୁର	-10.2889
▁ଅପରାଧ	-10.289
▁ବର୍	-10.2891
▁୫୧	-10.2904
▁ଯନ୍ତ୍ର	-10.2906
ବ୍ଯ	-10.2908
▁ପଠା	-10.2911
▁ସାମି	-10.2921
▁ଦା	-10.2928
do	-10.293
▁ଶୀତ	-10.2939
ୁଅ	-10.2943
▁ଶବ	-10.2943
▁ଚୀନ	-10.2947
ମେଣ୍ଟ	-10.2947
ound	-10.295
▁ସଂଖ୍ଯା	-10.2953
ē	-10.2953
▁woman	-10.2953
▁ଅତ୍ୟଧିକ	-10.2953
▁ଡାଇନୋସର	-10.2953
▁ପରମ୍ପରା	-10.2953
▁ପ୍ରାକଦର୍ଶନ	-10.2953
▁ଯଥେଷ୍ଟ	-10.2953
▁ହେଲିକାପ୍ଟର	-10.2953
▁ଗୋଷ୍ଠୀ	-10.2953
ଦାମୋଦର	-10.2953
▁ସଙ୍କଳନ	-10.2953
▁ଆହରଣ	-10.2953
ମରିୟମ	-10.2953
▁Watch	-10.2953
▁ଅଗ୍ରସର	-10.2953
▁୧୯୬୯	-10.2953
▁କାର୍ୟ୍ଯ	-10.2954
▁ହିନ୍ଦୁ	-10.2954
▁ଏକାକୀ	-10.2954
▁ହାସଲ	-10.2955
▁free	-10.2955
▁ନିଆଁ	-10.2955
▁ପ୍ରଗ୍ରାମ	-10.2955
▁Day	-10.2956
▁ମଙ୍ଗଳବାର	-10.2957
▁ମଞ୍ଜିରୁ	-10.2959
ାନି	-10.2961
▁hours	-10.2964
▁ବେଶୀ	-10.2965
▁2016	-10.2965
▁[2	-10.2973
▁ହୋଇଯାଏ	-10.2974
▁ସର୍ବନିମ୍ନ	-10.2975
▁po	-10.2978
▁ଅଞ୍ଚଳ	-10.2978
▁ଡଲାରରେ	-10.2984
▁ବେବି	-10.2985
▁ଭାବିଲା	-10.2986
▁ମାସରେ	-10.299
ହୁ	-10.3007
pa	-10.3009
▁+	-10.301
▁ଫୁଟ	-10.3012
▁ଲାଜ	-10.3016
▁ପ୍ରତିମା	-10.3018
ପ୍ରେମ	-10.3029
ୃତ	-10.3031
67	-10.3033
ଦୂତ	-10.3033
▁Ma	-10.3041
▁ରାୟ	-10.3041
▁ଯୀଶୁଙ୍କୁ	-10.3042
key	-10.3043
ଆଚ୍ଛା	-10.3044
ହ୍ୟ	-10.3046
▁ଚୁପ୍	-10.3051
▁ମାଗି	-10.3052
ନଥିଲା	-10.3061
ହଉ	-10.3065
ka	-10.307
▁ଚାପ	-10.3072
▁ଶସ୍ତା	-10.3075
ରିବ	-10.3075
▁କଲେଜ	-10.3076
▁ସୂଚକ	-10.309
ଚ୍	-10.3091
9]	-10.31
▁ବାପ	-10.3105
କମ	-10.3107
▁ନୀଳ	-10.3116
▁ପ୍ରାର୍ଥୀ	-10.3128
ନେଇ	-10.313
କଲ	-10.3143
▁ଅଭିଲେଖ	-10.3144
ନାହଁ	-10.3148
▁Nepomuk	-10.3153
▁ପରିବହନ	-10.3153
▁ଆକଳନ	-10.3153
▁ପୂର୍ବତନ	-10.3156
▁କଳ୍ପନା	-10.3156
▁Reading	-10.3157
ସ୍ୱ	-10.3157
▁ହେଇଗଲା	-10.3158
▁ଗରିବ	-10.3159
▁ପରିବେଶ	-10.316
▁ବନ୍ଧୁତା	-10.3175
▁ହେବେନାହିଁ	-10.3175
ଷ୍ଟ୍ର	-10.3179
▁ଅଗ୍ନି	-10.3189
▁named	-10.3201
▁ମହାନ	-10.3215
▁ମଧ୍ଯରୁ	-10.3221
▁ନିମ୍ନ	-10.3223
▁ଇନ	-10.3224
ାଗ	-10.3231
▁ଅଞ୍ଚଳରେ	-10.3237
▁What	-10.3244
▁ବିଷ	-10.3244
ଇଟ	-10.3245
Read	-10.3252
▁ଶିଖ	-10.3252
ଦକ୍ଷିଣ	-10.3252
▁୧୯୮୧	-10.3253
▁କାର୍ଯ୍ୟକ୍ରମରେ	-10.3256
▁35	-10.326
ଯାହା	-10.3274
ସିଆ	-10.3283
▁ଅବସର	-10.3284
▁ସ୍କ୍ରିପ୍ଟ	-10.3285
ଶ୍ୱ	-10.3292
ction	-10.3299
▁ପିନ୍ଧି	-10.3303
▁ମଞ୍ଚରେ	-10.3306
ଷା	-10.3315
▁video	-10.3318
▁ବୃଦ୍ଧ	-10.3322
▁ଦେଖାଇ	-10.3336
ā	-10.3338
▁St	-10.3352
$	-10.3357
♡	-10.3357
▁Facebook	-10.3357
▁କର୍ଫ୍ୟୁ	-10.3357
▁ଚାଉଳ	-10.3357
▁ସ୍ୱୟଂଚାଳିତ	-10.3357
▁ମମତା	-10.3357
▁2256	-10.3357
▁POP	-10.3358
▁like	-10.3358
▁ବୋହୁ	-10.3358
▁କୁଆଡ଼େ	-10.3358
▁ୟାହାକି	-10.3358
▁କେହିନୁହେଁ	-10.3358
▁ଦୃଶ୍ୟମାନ	-10.3361
▁ଏପର୍ଯ୍ୟନ୍ତ	-10.3363
▁ଉପହାର	-10.3365
▁ରହିଥିଲା	-10.3367
▁ଧାଡି	-10.3369
▁ବାଧ୍ୟ	-10.337
▁ଆସିଛନ୍ତି	-10.3371
ାଞ୍ଚଳ	-10.3374
ab	-10.3375
▁ଚାହିଁଲେ	-10.3377
▁ଲୋକମାନଙ୍କ	-10.3383
▁ବିନାଶ	-10.3384
▁·	-10.3387
▁ତହୁଁ	-10.3387
▁50	-10.3391
ୀତ	-10.3394
▁Best	-10.3394
▁କୋଟିର	-10.3394
ଡିଆ	-10.3395
▁ତୁମ୍ଭେମାନେ	-10.3398
▁ନକଲି	-10.3399
ୱାଇ	-10.3404
▁କରିଅଛି	-10.3408
▁ଗିରି	-10.3408
▁ବାହାରିଲା	-10.3411
▁ଜୀବନର	-10.3418
ell	-10.3423
▁କେବେହେଲେ	-10.3427
▁କ୍ରମ	-10.3436
▁ମୋହନ	-10.3439
IST	-10.3441
ୁଲ	-10.3445
▁all	-10.3446
▁ପତ୍	-10.3455
▁ଉପର	-10.3459
ବଂଶ	-10.346
ଗଲି	-10.3466
ହୋଇ	-10.3469
ଶ୍ରୀ	-10.347
▁36	-10.3471
ସମା	-10.3471
▁ଆଚ୍ଛା	-10.3476
ଲ୍ଲା	-10.3477
▁language	-10.3479
▁ଦୁଃଖି	-10.3487
AR	-10.3492
ତ୍ବ	-10.3498
▁ଦେହରେ	-10.3506
▁We	-10.3508
▁କଲୁ	-10.3508
▁ବୁଝିବ	-10.3512
▁ଟ୍ୟାବ	-10.3512
▁do	-10.3519
▁ମନର	-10.3528
▁ଲୁଗା	-10.3537
47	-10.3543
▁ଆଶ୍ଚର୍ଯ୍ୟର	-10.3557
▁Australia	-10.3565
▁child	-10.3565
▁ଅତିକମରେ	-10.3565
▁ଇଚ୍ଛାରୂପଣ	-10.3565
▁ବାୟୋପିକ୍	-10.3565
▁ବିଶ୍ୱବିଦ୍ୟାଳୟ	-10.3565
▁ବେହେରା	-10.3565
▁ସ୍ୱତନ୍ତ୍ର	-10.3565
▁Konqueror	-10.3565
▁base	-10.3565
▁Music	-10.3565
▁subha	-10.3565
▁କହେି	-10.3566
▁ଦବାନ୍ତୁ	-10.3566
▁ଉଦ୍ଧାର	-10.3567
▁ଦେଖାଯାଇଛି	-10.3569
▁ଟ୍ରେନ	-10.357
▁କଳାକାର	-10.3571
▁ଗୁରୁବାର	-10.3572
▁ଚାର୍ଟ	-10.3573
▁ଉକ୍ତ	-10.3573
▁ଭାଗ୍ୟ	-10.3574
▁ପହଞ୍ଚ	-10.3575
\.	-10.3583
▁ନୁହଁନ୍ତି	-10.3584
▁ସାମ୍ନାକୁ	-10.3592
▁ଏଣୁ	-10.3596
ିଲ୍	-10.3599
▁କରାଯିବା	-10.3604
“	-10.3605
▁ପଢ଼ି	-10.3606
▁୮୫	-10.3615
▁ସାତ	-10.3616
▁ପଦାର୍ଥ	-10.3617
▁ତ୍ୟାଗ	-10.3617
32	-10.3618
ୁଷ	-10.3625
▁page	-10.3631
ୟାନ	-10.3645
▁ପଦ୍ମ	-10.3655
▁ଶିଳ୍ପ	-10.3655
ବଦ୍ଧ	-10.3658
▁ବ୍ୟକ୍ତିଙ୍କ	-10.3661
▁ଠକ	-10.3661
ଦାର	-10.3668
▁ନୋ	-10.3674
ଗ୍ରହ	-10.3679
What	-10.3685
▁୨୦୦୯	-10.3685
ଗଢ଼	-10.369
▁ପ୍ରଦେଶ	-10.3697
▁ସମାନଙ୍କେ	-10.3698
ଥାନ୍ତା	-10.3699
▁Pro	-10.37
େଜ	-10.3705
▁ସହିଦ	-10.3712
ାମା	-10.3714
oo	-10.3715
ol	-10.3716
▁ସଲମାନ	-10.3717
▁ବେଶ୍	-10.3719
▁ସଦାପ୍ରଭୁଙ୍କ	-10.3725
▁୩୦ରୁ	-10.3728
▁କମିଶନ	-10.3729
▁ମିନିଟ	-10.3731
ree	-10.3734
▁କ୍ୟୁ	-10.3756
ଦୁଆ	-10.3761
▁କରିପାରି	-10.3761
man	-10.3762
▁ରାଗ	-10.3766
ya	-10.3767
▁କଳ	-10.3769
44	-10.3771
▁ସାଧନ	-10.3773
▁Number	-10.3778
▁ଅଫଲାଇନ	-10.3778
▁ଅସମ୍ଭବ	-10.3778
▁କଥାବାର୍ତ୍ତା	-10.3778
▁ନିର୍ଦେଶକ	-10.3778
▁ପରିବର୍ତ୍ତିତ	-10.3778
▁କୁହାଯାଇଛି	-10.3778
▁ପରସ୍ପର	-10.3778
▁ନରେନ୍ଦ୍ର	-10.3778
▁ଭିନ୍ନକ୍ଷମ	-10.3778
▁ଯୁକ୍ତିଯୁକ୍ତ	-10.3779
▁ଅନୁପାତ	-10.3779
ସ୍ବ	-10.3779
▁ବଢୁଛି	-10.378
▁ଯେଉଁଥିରେ	-10.378
ର୍ପଣ	-10.3783
▁ଅଘଟଣ	-10.3784
▁ରଖିଛନ୍ତି	-10.3785
▁ସେଣ୍ଟର	-10.3787
▁ଧାରଣା	-10.3794
ିବେ	-10.3795
cover	-10.3796
୧୯୭୭	-10.3801
▁ପଞ୍ଚାୟତ	-10.3802
▁ଉପଭୋକ୍ତାମାନଙ୍କ	-10.3803
▁ଭଉଣୀ	-10.3805
▁ପକ୍ଷୀ	-10.3806
▁ରାଜାଙ୍କ	-10.3814
▁ପଶ୍ଚିମ	-10.3816
tica	-10.3817
▁ବେଶ	-10.3823
ିମା	-10.3824
▁ଅଫର	-10.3828
▁ଷ୍ଟେସନରେ	-10.3829
▁ଶିଶୁର	-10.3831
▁ଦୟା	-10.3836
▁ଭଗ	-10.3837
ive	-10.3849
▁ଜାଗ୍ରତ	-10.385
ୁଛ	-10.385
▁ଚାହୁଁଛ	-10.3852
▁Ba	-10.3861
ex	-10.3872
ପାରୁଛି	-10.3872
▁ଆମ୍ଭକୁ	-10.3873
ବଲ	-10.3887
▁କାଢ଼ି	-10.3888
ସ୍ତ୍ରୀ	-10.3892
ବିଶେଷ	-10.3905
▁ଡାକ୍ତରଖାନା	-10.3918
▁ପ୍ରଶାସନ	-10.3919
0,000	-10.392
one	-10.392
▁ଗଣନା	-10.3924
▁ବିଷୟବସ୍ତୁ	-10.3926
ସ୍ଥାନ	-10.3928
ଭାବେ	-10.3945
ସସ	-10.3959
no	-10.3965
▁ଶୁଣୁ	-10.3966
va	-10.3979
▁ଗ୍ରା	-10.3979
2000	-10.398
ସୋ	-10.399
▁ବୀର	-10.3995
▁ଅଷ୍ଟ୍ରେଲୀୟ	-10.3995
▁ଆଶ୍ଚର୍ୟ୍ଯ	-10.3995
▁ଦୁଷ୍କର୍ମ	-10.3995
▁ପ୍ରିମିୟମ	-10.3995
▁ଭୀଷ୍ମ	-10.3995
▁ସନ୍ଦେହ	-10.3995
ਾ	-10.3995
▁ଚଲାନ୍ତୁ	-10.3995
▁ନାୟିକା	-10.3995
▁ଉନ୍ନତି	-10.3998
▁ବିଜୁଳି	-10.3998
ୁଥିଲେ	-10.3998
▁ଗଢି	-10.3999
▁କୁଞ୍ଜ	-10.3999
ଭ୍	-10.3999
▁ଗର୍ବ	-10.4002
▁ବିଭୁ	-10.4005
▁ପାଳି	-10.4008
28	-10.401
ity	-10.4011
▁ଗପ	-10.4014
▁ଗ୍ରେନ	-10.4017
▁ସତ୍ୟତା	-10.4027
ିଥିଲେ	-10.4027
▁ହେଃ	-10.4029
▁De	-10.4032
▁ବଙ୍ଗ	-10.4045
ଙ୍ଗ୍	-10.405
▁ସହି	-10.4053
▁ବର୍ଷୀୟ	-10.4055
ଲାଣି	-10.4056
୭୦	-10.4065
ାଦ	-10.4066
▁ପବନ	-10.4077
▁ରାଶିର	-10.4077
▁ହୃଦ	-10.4083
▁ବଦଳାଇ	-10.4086
▁ଭାବୁଛ	-10.4097
▁ନାଁରେ	-10.4101
▁ନେବ	-10.4105
ଥ୍	-10.4111
▁text	-10.4112
ଚିତ	-10.4114
▁key	-10.4116
▁ବର୍ଣ୍ଣ	-10.4117
▁ପାଳିବ	-10.4125
ଗଳ୍ପ	-10.4127
▁ରୋଗରେ	-10.4127
▁ଫର	-10.4133
ମଣିମା	-10.4138
▁ଅନନ୍ତ	-10.4145
▁ଷ୍ଟ	-10.4145
▁ବୁଢୀ	-10.4148
▁ଦାଉଦଙ୍କ	-10.4152
▁ସେତିକି	-10.4154
▁ୱେବସାଇଟ	-10.4157
▁ପିଲାଟି	-10.4171
▁window	-10.4178
ତୀର	-10.4181
ଜନକ	-10.4182
▁ଅଟକି	-10.4188
ଶୀଳ	-10.421
▁ପୃଥିବୀର	-10.4214
.[	-10.4214
▁Bengal	-10.4217
▁ପ୍ରସିଦ୍ଧ	-10.4217
▁ବିଶ୍ଳେଷଣ	-10.4217
▁ହତ୍ୟାକାଣ୍ଡ	-10.4217
Mẹ	-10.4217
▁କେତୋଟି	-10.4217
▁ନିର୍ମିତ	-10.4217
▁ବିସ୍ତୃତ	-10.4217
▁ସୋସିଆଲ	-10.4218
▁ଶନିବାର	-10.4218
▁process	-10.4218
ବିହାରୀ	-10.4218
▁ବ୍ଯକ୍ତିଗତ	-10.4218
▁ପ୍ରତୀକ	-10.4218
▁Nation	-10.4218
▁କବେେ	-10.4218
ຨ	-10.4219
▁ମହଙ୍ଗା	-10.4219
▁ନିବେଶ	-10.4219
▁ଟୋକା	-10.422
▁ଘଡ଼ି	-10.4222
▁ନ୍ୟାୟ	-10.4222
▁ଯୋଗକରନ୍ତୁ	-10.4222
ଵା	-10.4224
urious	-10.4225
▁ଆକାରରେ	-10.4225
▁ଶାନ୍ତ	-10.4226
▁କହିଥିଲି	-10.4228
▁ବେଶି	-10.4232
ାଅ	-10.4236
▁Of	-10.4236
ଯାଇଥିଲା	-10.4237
▁ଦିଏ	-10.4238
ଟୋ	-10.4243
▁ଉତ୍ପାଦନ	-10.4245
▁ଖଣି	-10.4249
ଦେବରାଜ	-10.4251
ଏଫ	-10.4254
▁ଗଣେଶ	-10.4257
▁ମୁଦ୍ରା	-10.4257
/%	-10.4259
ଯୁ	-10.4268
▁ପ୍ରକାଶକ	-10.4278
୍ରୀ	-10.4279
▁କଲ୍	-10.4282
▁ଦେବାର	-10.4287
▁କାଣ୍ଡ	-10.4287
▁ସାଧୁ	-10.4299
up	-10.43
▁ସନ୍ଦେଶଗୁଡ଼ିକ	-10.4304
▁ସଫଳତାର	-10.4305
▁ମଦ	-10.4315
▁ସାଇଟ	-10.4327
ଣ୍ଟ୍ରାକ	-10.4332
80	-10.4336
ମାତ୍	-10.4344
▁ପୋଲିସ୍	-10.4346
▁ୱି	-10.4351
କୀ	-10.4353
ୋପ	-10.4358
q	-10.4359
▁୬୦	-10.4361
58	-10.4362
େତ	-10.4364
tr	-10.4364
▁[17	-10.4365
ପ୍ରଭା	-10.4366
ବନ୍ଧନ	-10.4368
▁ବଢ଼	-10.4369
▁ହେଁ	-10.4378
▁୨୦୦୦	-10.4384
ଗଲ	-10.4385
ହନ	-10.439
▁ଚଳାଇବ	-10.4405
ମସ୍	-10.4411
କ୍ସି	-10.4414
▁ଖରା	-10.442
ନନ୍ଦ	-10.4443
▁ସ୍ମରଣ	-10.4443
▁ଶ୍ରୀନିବାସ	-10.4445
▁From	-10.4445
ଧୂମପାନ	-10.4445
▁ଗୁହାରି	-10.4445
▁ବୀଥିକା	-10.4445
mgiri	-10.4445
tarc	-10.4445
▁ଯିଶାଇୟ	-10.4445
▁ସମଗ୍ର	-10.4445
▁ମାଣିକ	-10.4446
▁ମନୋହର	-10.4446
▁ଆୟୋଜିତ	-10.4446
▁ଦେବାଶିଷ	-10.4446
▁whose	-10.4447
▁ଉଠୁଛି	-10.4452
ାଟିକାର	-10.4452
▁ଭ୍ରମଣ	-10.4453
▁ଭୁଲିପାରେ	-10.4453
ଫୁଟା	-10.4455
▁ଦିଅନ୍ତି	-10.4456
ଆସ	-10.4458
▁ବୁଣିବା	-10.4458
▁ପଚରା	-10.4461
▁ପିଲାମାନେ	-10.4464
▁q	-10.4466
ସ୍ଥା	-10.4467
▁App	-10.4469
qu	-10.4469
▁ସର୍ତ୍ତ	-10.447
▁ଆରାମ	-10.4478
ମତ	-10.4479
38	-10.4479
ଟିକେ	-10.4481
os	-10.4482
୩୭	-10.4498
▁ମୃତ୍ୟୁର	-10.4506
▁ଦୋକାନରେ	-10.451
▁Temp	-10.4514
nosaur	-10.4534
୍ୱା	-10.4535
ish	-10.4542
ଝ	-10.4555
▁ରାଗି	-10.4559
ach	-10.4566
ସଲ	-10.4567
ବାସୀ	-10.457
▁ଗୋଡ଼	-10.4577
ିଷ୍ଟ	-10.4579
ଯାଇଥିବା	-10.4593
ପାରିଲା	-10.4594
ଳେ	-10.4597
dictionary	-10.4599
Next	-10.4604
▁ଭୂମିକା	-10.4606
be	-10.4617
▁ପ୍ରାଚୀନ	-10.462
▁ତାଲିକାକୁ	-10.4625
▁ରାଜୁ	-10.463
▁ଫାଇଲଗୁଡ଼ିକ	-10.4631
ଏଫ୍	-10.4633
PL	-10.4636
ଳୁ	-10.4637
ର୍ଜ	-10.4642
ାର୍ଥ	-10.465
▁କଂଗ୍ରେସର	-10.4655
ock	-10.4662
▁ପାଣିରେ	-10.4664
▁ମେସିନ	-10.4672
▁ଗର୍ଭ	-10.4677
▁ଗ୍ଲେଜ୍	-10.4677
▁ଢଙ୍ଗରେ	-10.4677
▁ଲୂକ	-10.4677
▁ପ୍ରେରକ	-10.4677
▁ଶ୍ରମିକ	-10.4677
▁[...]	-10.4678
▁ପୂର୍ବବର୍ତ୍ତୀ	-10.4678
ବେଦ	-10.468
▁ଆଗାମୀ	-10.468
▁35.	-10.468
▁ଖାଉଛନ୍ତି	-10.4681
▁ସାହାଯ୍ୟରେ	-10.4682
▁ବ୍ୟାପକ	-10.4683
▁ଧିରେ	-10.4683
▁ଆଚରଣ	-10.4683
▁app	-10.4684
▁May	-10.4685
୍ୱାଇନ୍	-10.4685
▁ସକ୍ଷମ	-10.4685
▁କହିଥାନ୍ତି	-10.4689
▁ସାହସୀ	-10.469
▁ଯବାନ	-10.469
▁ହଜମ	-10.4691
▁ମ୍ୟାଚ୍	-10.4696
▁ସାଜି	-10.4699
▁ଥିଲି	-10.4699
▁Do	-10.4701
ଗୁଡିକର	-10.4703
▁୯ଟା	-10.4709
▁?’’	-10.4715
▁ସୂ	-10.4718
ଗୁଣ	-10.4719
▁08:	-10.4725
ରାଓ	-10.4727
▁ରହିବାକୁ	-10.4728
-1/	-10.4734
୮୦	-10.4734
▁ଯୁଗ	-10.4735
▁ପାରିବେନି	-10.4736
▁ବଞ୍ଚ	-10.4741
▁ever	-10.4743
▁ସ୍ଥାପିତ	-10.4756
▁ଖୋଜିବା	-10.4757
▁ଲୁହ	-10.4762
AS	-10.4765
ଉଛନ୍ତି	-10.4767
▁ପାଏ	-10.4769
ବନି	-10.4769
ଯାକ	-10.4772
ପଲ	-10.478
▁ଲମ୍ବା	-10.4782
gi	-10.4786
▁ପରିବାରର	-10.4791
▁ଇଛା	-10.4793
▁୨୯	-10.4799
▁glo	-10.4815
େଷ	-10.4816
ies	-10.4818
▁କ୍ରି	-10.4826
ଗିରି	-10.4828
ଜୟ	-10.4837
▁ଦେବୁ	-10.4841
▁ସଂଲଗ୍ନକ	-10.4864
▁me	-10.4864
▁time	-10.4866
ୁଝିଲେ	-10.4866
େଲେ	-10.487
ହୀ	-10.4871
ଆଡେ	-10.4878
୍ଵା	-10.4885
▁ପଢୁ	-10.4889
old	-10.489
▁ଢା	-10.4894
▁ଟାଇପ	-10.4898
▁ଯୋ	-10.4902
▁ମଣ୍ଡଳ	-10.4907
▁ଜରୁରୀ	-10.4911
▁ସାକ୍ଷାତ	-10.4913
▁34-28-32	-10.4915
▁Economic	-10.4915
▁Science	-10.4915
▁number	-10.4915
▁ଅଣାଯାଇଅଛି	-10.4915
▁ଗମ୍ଭୀର	-10.4915
▁ମନୁଷ୍ୟ	-10.4915
▁ସକ୍ରିଯ	-10.4915
▁ସାମାନ୍ୟ	-10.4915
▁ଅନୁପୂରକ	-10.4915
▁ଅଭିନୟ	-10.4915
▁ସିଂହାସନ	-10.4915
▁ପାଣ୍ଡୁ	-10.4915
ଜନକପୁରୀ	-10.4916
▁ଦୁହେଁ	-10.4916
ଵୁ	-10.4917
▁ବିଜ୍ଞାପନ	-10.4918
▁କାରବାର	-10.492
୪୮	-10.4925
▁କାର୍ତ୍ତିକ	-10.4926
org	-10.4926
▁September	-10.4927
▁କହୁଛୁ	-10.4932
ାଯ	-10.4933
▁ବିଚିତ୍ର	-10.4936
ୁଥିଲା	-10.4937
▁ଓଡିଶାରେ	-10.4939
ଆର୍‍	-10.4953
▁ଘଟଣାର	-10.4953
▁ପ୍ରାୟେ	-10.4961
▁କରାଯାଉ	-10.4963
▁TN	-10.4963
▁ଜାଣିବେ	-10.4964
କ୍ଷା	-10.4968
ଡ଼େ	-10.4979
▁କଲଲ	-10.498
▁ରଖ	-10.4982
▁ସର୍ବୋ	-10.4992
▁ଅଧ	-10.4993
ୟେ	-10.5001
▁ହେଲ୍	-10.5002
ୟିବ	-10.5004
ୀଯ	-10.501
▁ଯୋଗୀ	-10.5013
େସନ	-10.5014
▁କୋଳ	-10.5019
କିଛି	-10.5023
DA	-10.5027
ଭୂମି	-10.5028
pp	-10.5035
▁ଦେଖିବ	-10.5052
▁ୟେ	-10.5053
ash	-10.5066
ୋର	-10.5068
other	-10.5074
▁ଚର୍ଚ୍ଚାରେ	-10.5075
ME	-10.5077
ଯାଉ	-10.5078
OO	-10.5086
ଗ୍ରେ	-10.5087
▁ଯୋଗାଇ	-10.509
ାହା	-10.509
ଆଲୋଚନା	-10.5098
▁ଦେଖୁ	-10.5098
▁ପରିସର	-10.5103
କ୍ଷୀ	-10.5113
96	-10.5122
▁ବିଶ୍ୱକପ୍	-10.5132
▁ଆସନ	-10.5138
rious	-10.5145
ଵେ	-10.5148
ଳୀ	-10.5155
▁୪୦୦	-10.5155
▁ସହରକୁ	-10.5158
▁୧୦୦୦	-10.5159
board	-10.5159
▁"{0}"	-10.5159
▁Center	-10.5159
▁ଆନ୍ଦୋଳନ	-10.5159
▁ରିହାତି	-10.5159
▁ଅସ୍ତ୍ର	-10.5159
▁ଭଲପାଏ	-10.5159
▁ସୁଦାମା	-10.5159
▁ଭରସା	-10.5159
Select	-10.516
▁code	-10.516
▁ଅସ୍ଥି	-10.5161
ାମସଙ୍ଗ	-10.5161
▁ସଂଗେ	-10.5162
▁called	-10.5163
▁ସାହି	-10.5165
▁ରୋଡ୍	-10.5168
▁ଅନ୍ତର୍ଗତ	-10.5169
▁୩୦୦	-10.5169
▁ଋଷି	-10.5171
▁ପ୍ରଭୁଙ୍କର	-10.5174
▁ଟାଣି	-10.5175
▁ଶାହା	-10.5175
ଦିଆଯାଇଥିଲା	-10.5177
▁mo	-10.5177
35	-10.5179
▁ମୂଳକ	-10.5183
▁ଛାଡ଼ିବା	-10.5185
▁ହବୋ	-10.5187
▁ଉଠିବା	-10.519
em	-10.5193
▁ଭକ୍ତ	-10.5194
▁Man	-10.5196
ରିଫ	-10.5196
▁ସାପ	-10.5199
▁ଏଲ	-10.5203
▁କେଉଁମାନେ	-10.5214
▁ଏଯାଏ	-10.5216
▁ଶୁ	-10.5221
ଦୂତଙ୍କୁ	-10.5221
tion	-10.5225
▁Se	-10.5235
ରୋଗ	-10.5241
▁ଦୃଶ୍ଯ	-10.5244
ang	-10.5246
ିଙ୍ଗ୍	-10.5252
୍ତି	-10.5258
▁ପ୍ରାଥମିକ	-10.5259
▁ପ୍ରେମରେ	-10.526
▁୪ଟି	-10.5264
ସାବାସ	-10.5266
▁ବଜାର	-10.5267
▁ଅସହାୟ	-10.5272
ବନ୍ତ	-10.5275
▁କରିଦେବ	-10.5277
▁ହୁଏତ	-10.5292
our	-10.5296
େନ୍ଦ୍ର	-10.5318
nt	-10.5325
▁୬ରୁ	-10.5329
ହିଲଲ	-10.5346
ମୋର	-10.5349
▁ମାର୍କ	-10.5358
▁ଵା	-10.5365
▁ସ୍ଥଳ	-10.537
▁53	-10.537
▁୨୨	-10.5372
▁ଅଧି	-10.5395
▁ପାଠକ	-10.5398
▁problem	-10.5409
▁variant	-10.5409
▁weekday	-10.5409
▁ପର୍ୟ୍ଯନ୍ତ	-10.5409
▁ବାର୍ଷିକ	-10.5409
▁ବିନ୍ଯାସ	-10.5409
▁Lifestyle	-10.5409
▁ସଶକ୍ତିକରଣ	-10.5409
▁ସଂସ୍କାର	-10.541
▁କାରଖାନା	-10.541
▁ପ୍ରତିଷ୍ଠା	-10.541
▁ପୃଥକ	-10.541
▁ଧାଡ଼ି	-10.541
▁ଗର୍ଭସ୍ଥ	-10.541
▁ଏତଲା	-10.541
▁plain	-10.5411
▁ସୁରଭି	-10.5411
▁Free	-10.5411
▁ଚ୍ୟାନେଲ	-10.5412
▁ଜିଲ୍ଲାପାଳ	-10.5412
▁ପ୍ରସ୍ଥାନ	-10.5414
▁ବିରାଟ	-10.5414
▁ଇନ୍ଦ୍ରଙ୍କୁ	-10.5415
▁More	-10.5417
▁ବାତ୍ୟା	-10.5419
▁କହୁଥିଲା	-10.5421
▁ମୁଦି	-10.5421
▁ଟେଷ୍ଟ	-10.5423
ତମେ	-10.5425
ବାସୀମାନେ	-10.5426
▁ଏନ୍‍	-10.5426
▁ଦାତା	-10.5429
▁words	-10.543
▁ବୈଜୟନ୍ତ	-10.5431
▁ସେପଟେ	-10.5434
▁ନେତାଙ୍କ	-10.5436
▁ଏଥି	-10.5437
▁ShortName	-10.5438
/~	-10.5438
▁ମନୋଜ	-10.5447
▁ମହାରାଜ	-10.5457
ବାଇ	-10.5457
26	-10.5458
▁ସୂଚୀ	-10.546
64	-10.5464
▁ଜର୍ମାନ	-10.5465
▁ଛା	-10.5466
ଧର	-10.5475
▁ଲଢି	-10.5475
୩୨	-10.5475
ରାବ	-10.5477
ଣ୍ଟା	-10.5478
▁ବିରବଲ	-10.5487
ବାହ	-10.5501
▁ଲଜ୍ଜା	-10.5508
ଯାଇଥିଲେ	-10.551
▁ସଂଳାପ	-10.5518
▁LongName	-10.5519
▁ସେଠି	-10.5542
କେଶ	-10.5547
▁ନାଗ	-10.5553
ୟକ	-10.556
▁୨୦୧୪ରେ	-10.5563
▁ବ୍ଲକର	-10.5567
ାଂଶ	-10.5568
▁ଯାଉଥିବା	-10.5569
cl	-10.5584
ile	-10.5588
▁ଜୁଲାଇ	-10.5591
▁ଟୁ	-10.5594
▁ଛାଡିଦେ	-10.5603
bit	-10.5609
ଚିନ	-10.5611
ର୍ଦ୍ଦ	-10.5612
ଯେପରିକି	-10.5613
ନିଶ୍ଚୟ	-10.5616
▁୩ଟି	-10.5619
ପୂର୍ବ	-10.562
ଯୋ	-10.5641
ନଗର	-10.5641
▁କରିନଥିଲ	-10.5645
▁ଅର୍ଥାତ	-10.5646
ଲିଆ	-10.5647
▁ତଥ୍ୟକୁ	-10.5648
▁ପାଇବାକୁ	-10.565
▁ବିଭାଗର	-10.5652
▁tab	-10.5662
ଦର୍	-10.5664
ସଲାକମାଲନ	-10.5666
▁credit	-10.5666
▁ଖାଦ୍ଯ	-10.5666
▁ଗ୍ୟାଲକ୍ସୀ	-10.5666
▁ଦିଗବାରେଣି	-10.5666
▁ପରୀକ୍ଷଣ	-10.5666
▁ମୂଖ୍ୟ	-10.5666
▁ହସ୍ପିଟାଲ	-10.5666
▁font	-10.5666
▁ଓଡ଼ିଶାକୁ	-10.5666
▁ନୀରବ	-10.5666
▁ଅତିକ୍ରମ	-10.5666
▁3.30	-10.5666
▁କଟାକ୍ଷ	-10.5666
▁କଠିନ	-10.5666
ବର୍ତୀ	-10.5666
▁ରାଷ୍ଟ୍ରୀୟ	-10.5666
▁without	-10.5667
▁ଅଭିଯୁକ୍ତ	-10.5667
▁ଉପୟୋଗ	-10.5667
▁ଆଇଲ୍ୟାଣ୍ଡ	-10.5667
▁ସୋମବାର	-10.5667
▁ଜବାବ	-10.5668
▁ଗୁରୁତ୍ୱ	-10.5669
▁1950	-10.5669
▁ମସିହାର	-10.5669
▁)1.	-10.5669
▁lab	-10.5669
▁ବୁଣା	-10.5669
▁ମ୍ୟାଚ	-10.5671
▁ଲେଖିଥିଲେ	-10.5673
▁ଜିତୁ	-10.5674
▁ଦର୍ଶାଇବା	-10.5674
▁Your	-10.5676
▁ପତ୍ରିକା	-10.5677
ୋଦ	-10.5677
▁୬ଟାରୁ	-10.5679
▁ଛାଡିଦେଲା	-10.5679
▁୩୯	-10.5679
▁ହୋଃ	-10.568
▁ଜିତି	-10.5681
▁ଜବତ	-10.5684
▁ଆଧାରିତ	-10.5688
dia	-10.5694
▁ଶୁକ୍ରବାର	-10.5696
▁ଲକ୍ଷ୍ମଣ	-10.5703
▁ସଂକ୍ରମଣ	-10.5703
▁ସହରରେ	-10.5707
▁ପରିଣତ	-10.5711
▁ସଜ	-10.5713
ନ୍ତର	-10.5717
▁ଚିନି	-10.5717
ନଥିଲେ	-10.572
▁କିଣିବାକୁ	-10.5723
ିଆନ	-10.5726
▁GNOME	-10.5728
▁ଥିବେ	-10.5729
ୁଲା	-10.5729
▁ବଦ	-10.5729
▁ଭଦ୍ରକରେ	-10.5731
▁vi	-10.5734
▁ଲାଇନ	-10.5734
▁new	-10.5738
▁.”	-10.5741
IN	-10.5744
▁ପଢ଼	-10.5746
▁୨୦୧୭	-10.5748
▁ବାପାଙ୍କ	-10.5751
ସମୟ	-10.5753
ଧନ	-10.5754
▁ମାରିଲା	-10.5759
▁୬ଟି	-10.5767
▁ସଭ୍ୟ	-10.5768
ood	-10.5769
▁ଧନୀ	-10.577
▁ଦିଆଯାଏ	-10.5771
ଡୋ	-10.5785
▁ଫୁ	-10.5793
ୋକ	-10.5794
▁କ୍ରିୟା	-10.5798
ମ୍ଭ	-10.5804
ଂଦ	-10.5805
▁ଦବ	-10.581
▁ଯୋଜନାକୁ	-10.581
▁ଶୁଣିବାକୁ	-10.581
im	-10.5817
▁ପଠନ	-10.5819
େଶ୍ଵର	-10.5827
▁ଜାଣିବାକୁ	-10.5831
ki	-10.5841
om	-10.5841
▁ବୁଝୁ	-10.5841
▁ବେଳକୁ	-10.5847
▁ମେଡିକାଲ	-10.585
▁ମାଗଣା	-10.5855
ଯୋଗ	-10.5856
▁ଶି	-10.5858
▁ଡାହାଣ	-10.5859
▁100	-10.5861
▁ମାନଙ୍କର	-10.588
▁ଡକାୟ	-10.5882
▁LS	-10.5884
▁ଦିଗରେ	-10.5896
ାଇଟ	-10.5896
60	-10.5896
▁ପଚାର	-10.5904
ଏଲ୍	-10.5905
▁ମଧ୍ଯକୁ	-10.5908
▁ସୋମ	-10.5925
▁ବାର୍ତ୍ତା	-10.5929
graph	-10.5929
▁ଅଭିଶାପ	-10.5929
▁ଚଳଚ୍ଚିତ୍ର	-10.5929
▁ମୁମ୍ବାଇ	-10.5929
▁ଯିହୋଶୂୟ	-10.5929
▁Ltd	-10.5929
▁ରୋଷେଇ	-10.5929
▁ସିଞ୍ଚନ	-10.5929
▁ସମାଚାର	-10.5929
▁କିମ୍ୱା	-10.5929
▁ସାରାଂଶ	-10.593
▁ବୀମାଭୁକ୍ତ	-10.593
ପରିସ୍ଥ	-10.593
▁ସଞ୍ଚୟ	-10.593
▁ଦୁହିଁଙ୍କ	-10.593
ସମାଶା	-10.593
▁ରୁହନ୍ତୁ	-10.5931
▁ଗୁରୁତର	-10.5931
▁ଖୋଲିବା	-10.5932
ଦଶ	-10.5932
ବ୍ରତ	-10.5932
▁ଯୋଗଦେବା	-10.5932
▁ଲଗାନ୍ତୁ	-10.5933
▁ପ୍ରକ୍ସି	-10.5934
▁କୃଷକ	-10.5934
▁ଆକାଉଣ୍ଟ	-10.5934
▁ତାଲିମ	-10.5934
ସୀଫ	-10.5935
▁ବିଶାଳ	-10.5937
▁୧୯୦	-10.5939
▁ହଜିଯାଇ	-10.5941
▁ଉଦ	-10.5942
▁ଉଡ	-10.5944
ସ୍ଥିତ	-10.5947
▁ଅମିତ	-10.5953
ାହିଦା	-10.5955
▁ଶ୍ରେଣୀରେ	-10.5956
▁ମାନକ	-10.5957
▁ରାଜପଥ	-10.5957
▁ରଖିଲେ	-10.5958
ଂଡ	-10.5958
ିଟ୍	-10.596
▁ଗସ୍ତ	-10.5966
ଟେଲ	-10.5971
▁Ep	-10.5976
▁ନିର	-10.598
▁ସକାଳେ	-10.5985
▁ପାଗଳ	-10.5985
ଆଁ	-10.5997
▁ତୁମ୍ଭମାନଙ୍କର	-10.5998
▁ପୋକ	-10.5998
▁ବାସ୍ତବରେ	-10.6001
▁ବଞ୍ଚାଇ	-10.6001
▁ଶୁଣିଲେ	-10.6003
ପୋର୍ଟ	-10.6006
ia	-10.6018
36	-10.602
▁ପ୍ଲାନ	-10.6025
▁ଦାମଙ୍କ	-10.6043
.......	-10.6052
▁ନିକଟ	-10.6053
▁ଭୂତ	-10.6067
ଷେ	-10.6068
ାଉଛି	-10.6069
▁ସନ୍ତାନକୁ	-10.6069
ho	-10.6072
ଲବ	-10.6075
ାନ୍	-10.6081
ବରଣ	-10.6084
ହାଁ	-10.6085
ଏକା	-10.609
▁ମିଶ	-10.609
କିଆ	-10.6092
୦୮	-10.6093
▁New	-10.6093
▁ଫେରିବ	-10.6095
ବସ୍ଥା	-10.6105
▁ଏହିସବୁ	-10.6108
▁ଦୋକାନ	-10.6112
29	-10.6114
▁51	-10.6114
▁ମନୋ	-10.6116
vt	-10.6121
ଟରେ	-10.6133
▁ଭବିଷ୍ୟତ	-10.6133
▁୪୫	-10.6137
ara	-10.6137
▁ପାରିଲେ	-10.6142
▁ଅଫ	-10.6146
▁ଅପେକ୍ଷାରେ	-10.6154
"&	-10.6155
▁ପଞ୍ଚ	-10.6162
ଓଡ଼ିଶା	-10.6165
ଆଶ୍ଚର୍ଯ୍ୟ	-10.6165
ବହୁତ	-10.6166
▁ଉପଯୋଗ	-10.6186
ati	-10.6188
ିକରଣ	-10.6195
▁set	-10.6196
▁ଶିଖି	-10.6197
ould	-10.6199
▁ମୃତ୍ଯୁ	-10.6199
▁Empathy	-10.6199
▁ଅନୁଷ୍ଠିତ	-10.6199
▁ତିନୋଟି	-10.6199
▁ଧାର୍ମିକ	-10.6199
▁ପାର୍ଶ୍ୱପଟି	-10.6199
▁ସ୍ମାର୍ଟ	-10.6199
▁ହାଲରାଣଙ୍କ	-10.6199
ଥାଆନ୍ତି	-10.6199
▁ସମ୍ବଲପୁର	-10.6199
▁ତାମୁଜ	-10.6199
▁ଛାଣକ	-10.6199
▁ଉଦୟଗିରି	-10.6199
▁ନାଲକୋ	-10.6199
▁ବାର୍ତ୍ତାଳାପ	-10.6199
▁very	-10.6199
▁ଟର୍ମିନାଲ	-10.6199
▁ଉଦ୍ୟୋଗ	-10.6199
▁ବିବିସି	-10.62
▁ପ୍ରିୟଙ୍କା	-10.62
ING	-10.62
▁09:	-10.62
▁file	-10.6201
▁ଧୋଇ	-10.6202
▁ମୁଭ୍	-10.6203
▁ପକେଇ	-10.6203
▁ଅଯଥା	-10.6207
ଲକ	-10.6209
▁ଧନୁ	-10.6214
▁ଢାଳି	-10.6214
▁ପଢିବେ	-10.6214
▁ରହିଛନ୍ତି	-10.6216
▁୨୮	-10.6218
୨୮	-10.6219
ଗୁରୁ	-10.6219
▁କୂଳ	-10.6222
ୁହ	-10.6229
▁ଦୁଃଖର	-10.6232
▁ରଚିତ	-10.6235
▁ସମୀ	-10.6236
▁ବୋଧେ	-10.6238
▁ହୋଇଗଲେ	-10.6257
▁କାଳେ	-10.6258
▁ଉତ୍ସବ	-10.6261
▁ସମ୍ବାଦ	-10.6265
▁ସ୍ଥାୟୀ	-10.6265
▁ଢେ	-10.6267
୬୩	-10.6269
▁ଦର୍ଶନରେ	-10.6271
ାକ୍ଷର	-10.6274
▁ସୂତ୍ର	-10.6275
EN	-10.628
ଏଣ୍ଟ	-10.6282
▁ଶୂନ୍ୟ	-10.6283
▁ଅନନ୍ତକାଳ	-10.63
▁ଗ୍ର	-10.6311
▁one	-10.6315
98	-10.6322
▁ମାନବ	-10.6335
▁ବୃକ୍ଷ	-10.6336
▁ବନ୍ଦୀ	-10.6343
ଜଫ	-10.6345
ମ୍ପା	-10.635
ତାପ	-10.6352
▁ଦୀପ	-10.6358
ବ୍ୟା	-10.6366
ob	-10.6377
▁Gi	-10.6385
▁ଡ଼ାକ	-10.6386
ଭୋ	-10.6398
▁ହେଲ	-10.6407
ଡର	-10.6415
▁line	-10.6425
ମଣ୍ଡ	-10.6427
able	-10.6439
ଖେଳିବା	-10.6444
ass	-10.6448
ପ୍ରସାଦ	-10.645
କାହିଁକି	-10.6454
ତଳେ	-10.6457
ଲାଇ	-10.6466
}	-10.6467
▁ମନ୍ଦ	-10.6469
ଭଳି	-10.647
▁ଉପକୂଳ	-10.6472
▁କୁକୁର	-10.6474
40	-10.6475
କାମ	-10.6475
▁ନିର୍ଭର	-10.6477
▁110058	-10.6477
▁license	-10.6477
▁ଅନ୍ତରାପୃଷ୍ଠ	-10.6477
▁ନିର୍ଣ୍ଣୟ	-10.6477
▁ପର୍ଯ୍ୟଟନ	-10.6477
▁ଭୟଭୀତ	-10.6477
▁ସାହାୟ୍ଯ	-10.6477
▁ସ୍ରୁଷ୍ଟି	-10.6477
▁ପରମପିତା	-10.6477
▁ୱିଜେଟ	-10.6477
▁ପିଆଜ	-10.6477
▁ଆପଣମାନେ	-10.6477
▁ବୋଧହୁଏ	-10.6477
RIL	-10.6478
▁Bank	-10.6478
▁ସଂପୂର୍ଣ୍ଣ	-10.6479
ବତୀ	-10.648
▁ଶିମାନେ	-10.6481
▁ଏକପ୍ରକାର	-10.6484
▁ସେଇଆ	-10.6484
▁ଏଇଠି	-10.6488
▁ପରିଶ୍ରମ	-10.6489
ଥୁ	-10.6489
ରିୟା	-10.6493
ୋଇ	-10.6493
▁କେଉଁଠୁ	-10.6493
▁ଭାବୁଛି	-10.6494
▁ଦେଖାନ୍ତୁ	-10.6495
▁ଧଳା	-10.6497
୍ୱାମି	-10.6499
▁ପ୍ରଭାବିତ	-10.6499
▁Jan	-10.6501
▁ବିଶ୍ଵ	-10.6501
▁ସଂଘ	-10.6501
▁ଖ୍ରୀଷ୍ଟ	-10.6507
▁ବନ୍ଧା	-10.651
▁Tra	-10.6511
▁ଝିଅକୁ	-10.6512
▁ଛାଡ଼	-10.6519
ୟତ	-10.652
▁news	-10.652
end	-10.6522
ଲୋପ	-10.6524
330	-10.6527
▁କରିନାହାନ୍ତି	-10.6527
ନ୍ୟାସ	-10.6527
ପୁର୍ଣ୍ଣ	-10.6529
▁କ୍ରୋଧ	-10.6531
VO	-10.6534
▁ଫାଟି	-10.654
ଶିଷ	-10.6544
RO	-10.6546
▁ସ୍କ୍ରିନ	-10.6562
ନିଷ୍ଠ	-10.6569
▁ଅଞ୍ଚଳକୁ	-10.6575
▁ଦୂତ	-10.6575
▁ଶହ	-10.6576
▁ସମାନଙ୍କେର	-10.6576
ସ୍ତୁ	-10.6591
CC	-10.6603
▁Wi	-10.6603
ାଇବାକୁ	-10.6604
କ୍ଟ	-10.6604
▁ଫିଲ୍	-10.6605
ୁଡି	-10.6609
▁ଚୂ	-10.661
ଲ୍ୟାଣ୍ଡ	-10.6612
27	-10.6613
own	-10.6616
▁ଇଏ	-10.6616
▁ଫସଲର	-10.6617
ୁକ	-10.6629
▁ଏଫ୍	-10.6635
▁ମଧୁ	-10.6645
▁ବାଘ	-10.6646
ଜଳ	-10.6649
56	-10.665
କ୍ତି	-10.6651
▁ଭୋକ	-10.6655
▁ଟପ	-10.6657
▁ନେବାକୁ	-10.6658
ill	-10.6661
ଖଣ୍ଡ	-10.6661
▁AD	-10.6669
▁କ୍ଷେତ୍ରକୁ	-10.6686
ଲ୍ଲୋ	-10.6689
ତାହା	-10.6694
▁ମିଡିଆ	-10.6694
▁ସମସ୍ୟାରୁ	-10.6696
ore	-10.6697
▁ପାରିଲା	-10.67
ଜନିତ	-10.6702
▁ସାଇକେଲ	-10.6708
▁ଏହାଦ୍ୱାରା	-10.6713
▁ଡିସ୍କକୁ	-10.6722
୦୩	-10.6725
▁ପ୍ରେମିକ	-10.6733
▁ବାସ୍ତବ	-10.6751
▁[23	-10.6757
▁best	-10.6758
;{0}	-10.6763
ī	-10.6763
▁Hindi	-10.6763
▁କର୍ତ୍ତୃପକ୍ଷ	-10.6763
▁ଚ୍ୟାଲେଞ୍ଜ	-10.6763
▁ଛତିଶଗଡ	-10.6763
▁ନିଷ୍ପତି	-10.6763
▁ଯନ୍ତ୍ରପାତି	-10.6763
▁ସ୍ଟୁଡେଣ୍ଟ	-10.6763
▁ଆଫ୍ରିକା	-10.6763
▁ବିଷ୍ଣୁ	-10.6763
▁ମୁହୂର୍ତ୍ତ	-10.6763
▁ହିତାଧିକାରୀ	-10.6763
▁ତେଣେ	-10.6763
▁Word	-10.6763
▁should	-10.6763
▁ତୀବ୍ର	-10.6763
▁ରଘୁନାଥ	-10.6763
▁column	-10.6763
▁ମେସେଜ	-10.6763
▁ଚୁକ୍ତି	-10.6763
ocket	-10.6763
▁ରାଜ୍ୟପାଳ	-10.6766
▁କହିସାରି	-10.6771
ଗ୍ର	-10.6776
▁କମଳା	-10.6776
▁ରାଜି	-10.6776
▁ଲକ୍ଷ୍ଯ	-10.6776
▁ରିଲିଜ୍	-10.6776
ମେଲ	-10.6777
େଷ୍ଟ	-10.6779
▁ସଙ୍କଟ	-10.6779
▁ଛୁଇଁ	-10.678
▁୩୦୦୦	-10.6783
▁ଭାବନା	-10.6783
▁ପୋଷଣ	-10.6787
▁MB	-10.6792
▁ବେଦ	-10.6793
▁ଏଚ	-10.6794
ର୍ତ୍ତକ	-10.6797
▁ଜନିତ	-10.6798
▁୮୦୦	-10.6798
ଚର	-10.6801
▁ସୌମ୍ୟା	-10.6804
▁ପଢିବା	-10.6807
ZH	-10.6813
▁Reply	-10.6814
▁ବିକାଶକାରୀ	-10.6819
▁ବିଦେଶ	-10.682
▁ପୁରଣ	-10.6823
▁ଆଧାରରେ	-10.6823
▁ମଇ	-10.6824
▁ସଦ	-10.6832
▁ଜାଣିଛ	-10.6836
▁39	-10.6836
ଟାଇ	-10.6838
▁ଏପରିକି	-10.6838
▁କହିଥ	-10.6857
▁Note	-10.6863
ak	-10.6863
Not	-10.6868
ଦିଆ	-10.6871
୯୫	-10.6872
ଚାଲି	-10.6875
ng	-10.6882
ିଷ	-10.6882
ପାରି	-10.689
▁ଆମ୍ଭର	-10.6903
▁get	-10.6903
ଫଳ	-10.6906
ହାୟ	-10.6912
ଭେଦ	-10.6915
ିନ୍	-10.6916
▁ଅନୁଲଗ୍ନ	-10.6921
▁ସେଗୁଡିକ	-10.6923
ଗ୍ରାମ	-10.6931
▁IP	-10.6941
▁ପଠାଇବା	-10.6954
▁ଆଚାର୍ଯ୍ୟ	-10.6955
▁ଫେସବୁକ	-10.6958
▁ବିଦାୟ	-10.6959
▁କରିଦେଇ	-10.6972
▁ସାଥି	-10.6985
▁ରାହୁଲ	-10.6989
▁୩୫୦	-10.699
▁Di	-10.6992
ବୋଧ	-10.6995
ତୁମ	-10.6998
▁38	-10.7008
▁କୃତ	-10.701
▁ରୁହ	-10.7022
▁43	-10.7023
କଳା	-10.7023
62	-10.7027
▁ଚଳିବ	-10.7029
▁Ho	-10.7043
py	-10.7045
▁ସାମ	-10.7045
01	-10.7049
▁we	-10.705
ଯୀଶୁଙ୍କ	-10.7055
alway	-10.7056
▁two	-10.7057
▁ଘୃଣା	-10.7057
▁ପଞ୍ଜିକରଣ	-10.7057
▁ଯାଜପୁର	-10.7057
▁ଘାରିଛି	-10.7057
▁ପୀଡିତ	-10.7057
▁ଦ୍ରବ୍ୟ	-10.7057
▁ପାହାଡ଼	-10.7057
▁ସଂଘର୍ଷ	-10.7057
▁କ୍ଷତିପୂରଣ	-10.7057
▁ରୂପାନ୍ତର	-10.7057
▁ଅନୁକ୍ରମଣିକା	-10.7058
▁ଲଢେଇ	-10.7058
▁କମିଟି	-10.7058
▁ପ୍ରତ୍ୟକ୍ଷ	-10.7058
▁ପଡ଼ିବ	-10.7059
▁ଯାଦୁ	-10.706
▁ବିସ୍ତାରିତ	-10.706
▁ଦାଦା	-10.706
▁ଚାହୁଁଥିଲେ	-10.706
List	-10.7061
▁2012	-10.7061
▁ଉଷା	-10.7062
▁ହେକ୍ଟର	-10.7064
ୱାର୍ଡ	-10.7065
ଷ୍ଟର	-10.7067
▁କାଶ	-10.7069
▁ଭୋ	-10.7069
\@	-10.707
mō	-10.7072
ong	-10.7075
▁ବିବରଣ	-10.7078
▁HD	-10.7083
▁ଦେଖିଥିଲେ	-10.7083
▁ବିଦ୍ୟାଳୟ	-10.7085
tmp	-10.7087
▁ପାଇଛନ୍ତି	-10.7087
▁ଛୁଇଁବା	-10.7089
ଭୂତ	-10.7092
▁ସମ୍ପର୍କଗୁଡ଼ିକୁ	-10.7092
▁KDED	-10.7095
▁ପାଇଲ	-10.7098
ave	-10.7103
ସତରେ	-10.711
ଏତେ	-10.7114
ଚ୍ଚ	-10.7119
37]	-10.7126
▁37	-10.7133
▁ମୋହର	-10.7137
ଅନ	-10.7139
ଥାଉ	-10.7139
▁ଶୋଇବା	-10.7144
▁ତହିଁର	-10.7151
▁ଜୋ	-10.7152
ଅପ	-10.7156
ବାଦୀ	-10.7161
ଦାୟ	-10.7162
▁ଲୋକଟା	-10.7164
ଟିଆ	-10.7166
▁ଜାଣିନି	-10.7171
▁ମଣିମା	-10.7175
▁କରିଛୁ	-10.7182
▁୫୫	-10.7184
▁କୋଣ	-10.7185
▁ପଚାରୁ	-10.7189
ଗଡ଼	-10.719
▁ଦର୍ଶନ	-10.7202
▁ସୁର	-10.7203
▁କାଟି	-10.7206
ଟିଂ	-10.7211
▁ପାଟିରେ	-10.7213
▁ଫେସ୍	-10.7214
▁ରସ	-10.7219
▁ହେଇଛି	-10.7219
▁ୱା	-10.7231
▁ଉଦ୍ଦେଶ୍ୟରେ	-10.7234
ଭାବରେ	-10.7246
ition	-10.7259
ୀକରଣ	-10.726
ଗ୍ନ	-10.727
▁ରହୁ	-10.7271
▁ସଭାପତି	-10.7278
▁ବିଜେଡିର	-10.7283
କୃଷ୍ଣ	-10.7291
କକ୍ସ୍ଟ	-10.7295
ଆଛା	-10.7303
elet	-10.7303
ୋଡ଼	-10.7305
କଟ	-10.7314
▁ବୁଲ	-10.732
▁ଜିଲ୍ଲାରେ	-10.7321
▁ଫୋ	-10.7323
ଡିଏ	-10.7328
ଶ୍ଵ	-10.7336
▁ଭଦ୍ରକ	-10.7338
▁ସାମ୍	-10.7346
ଞ୍ଚା	-10.7348
▁ଉର୍ଦ୍ଧ	-10.7349
India	-10.7356
▁ପଢା	-10.736
▁ଟ୍ରାନସ	-10.736
Search	-10.736
youtube	-10.736
▁Brasero	-10.736
▁LDAP	-10.736
▁ଅତ୍ଯନ୍ତ	-10.736
▁ଡେସ୍କଟପ	-10.736
▁ବର୍ତମାନ	-10.736
▁ରୋମୀୟ	-10.736
▁Manthan	-10.736
▁ପ୍ରଦତ୍ତ	-10.736
▁ଭୟାନକ	-10.736
▁ଅଜ୍ଞତା	-10.736
▁ଭତ୍ତା	-10.736
▁ମାର୍ଗ	-10.736
▁etc	-10.736
▁ଲିଖନ	-10.736
▁କମ୍ପାନି	-10.736
▁ସ୍ୱତନ୍ତ୍ରଚର	-10.736
ix	-10.736
▁୧୯୬୭	-10.7361
▁ପରିତ୍ୟାଗ	-10.7361
▁ବଙ୍ଗଳା	-10.7361
▁Mid	-10.7362
▁ସୁଟିଂ	-10.7362
▁ପ୍ରତିଜ୍ଞା	-10.7363
None	-10.7364
▁ନିବାସୀ	-10.7364
ପ୍ରକାଶ	-10.7364
▁ମିଳିଥାଏ	-10.7364
▁ବିରତି	-10.7365
ଆଉଥରେ	-10.7368
▁ଗ୍ଭଲି	-10.7368
▁ନିର୍ଦ୍ଦେଶକ	-10.737
▁ଲଞ୍ଚ	-10.737
▁ସମାଲୋଚନା	-10.7371
ଖୁସା	-10.7371
▁ପ୍ରତ୍ୟ	-10.7374
▁ଜନ୍ମଦିନ	-10.7374
▁my	-10.7376
▁ବଳକା	-10.7377
ଫୁ	-10.7377
▁ଗୁଡିକୁ	-10.7382
▁February	-10.7385
▁ଯୋଗ୍ୟତା	-10.7387
ଦିଏ	-10.739
▁ରାୟଗଡା	-10.7395
▁ବିଶ୍ୱକପ	-10.7395
▁ସ୍ମାରକ	-10.7404
ବଲ୍	-10.7404
▁ଦିଆଯିବା	-10.7405
▁ତ୍ୱଚା	-10.7405
୯୬	-10.7406
▁ଫୋଲଡରଗୁଡ଼ିକୁ	-10.7407
▁କେଁ	-10.7408
▁ଭାଇରାଲ୍	-10.7409
▁ଚଢ	-10.7409
▁ଡକାୟତ	-10.741
ଅଛ	-10.7415
ord	-10.7415
ମୂ	-10.7415
କିନ୍ତୁ	-10.7418
୦୫	-10.742
▁ବ୍ରଣ	-10.7422
▁ପରିବାରକୁ	-10.7424
ମୂଳ	-10.7431
▁କୁମାରୀ	-10.7437
ପ୍ରେସ୍	-10.7439
▁ଯେପରିକି	-10.7444
low	-10.7451
▁ବଜାରରେ	-10.7455
୨୧	-10.746
▁ବ୍ରହ୍ମ	-10.7465
▁ଡାକ୍ତରଖାନାରେ	-10.7469
▁ଫାର	-10.7482
▁ବିଶ୍ୱର	-10.7491
Na	-10.7495
େଇବାକୁ	-10.75
▁ପରିସ୍ଥିତିରେ	-10.7503
▁ଏବ	-10.7504
ଗଡ	-10.7509
hu	-10.7511
ବଳ	-10.7513
▁ପ୍ରସଙ୍ଗକୁ	-10.7514
▁ଛାତିରେ	-10.7523
ବଦ	-10.7523
ନ୍ଥ	-10.7534
▁ଫ୍ର	-10.7539
▁ବୃ	-10.7545
▁ki	-10.7546
▁ଓଲଟା	-10.7553
har	-10.7555
▁us	-10.7563
କୋଣ	-10.7563
ଲଟ	-10.7568
▁ନଥିଲି	-10.7578
ଘାତ	-10.7578
ତ୍ସ	-10.7584
▁ଦେଲ	-10.7585
▁ଇମେଲ୍	-10.7615
▁ତୁମ୍ଭମାନଙ୍କ	-10.7617
ଚିତ୍ର	-10.7623
▁କିଣିବା	-10.7624
▁ଦେଖୁଛ	-10.7628
ରୁଛନ୍ତି	-10.7631
▁ମୋବାଇଲ୍	-10.7639
▁ଡ୍ରାଇଭର	-10.7639
ଉଛ	-10.7645
▁ଇଂରାଜୀରେ	-10.7647
▁ଲୋଡ	-10.7653
▁ସ୍ନେହ	-10.7658
▁ଖୋଲିବ	-10.7659
▁ଡିସ୍କରେ	-10.7662
ଦର	-10.7664
ାଙ୍ଗ	-10.7668
ାନୁ	-10.767
▁ସ୍ୱୟଂ	-10.7672
▁under	-10.7672
UTF	-10.7672
ମାବାସ୍ୟା	-10.7672
▁provide	-10.7672
▁yellow	-10.7672
▁ଅନ୍ଯାନ୍ଯ	-10.7672
▁ଆଶୀର୍ବାଦ	-10.7672
▁ଡିଫଲ୍ଟ	-10.7672
▁ସିଲିଣ୍ଡର	-10.7672
▁ସୁସ୍ମିତା	-10.7672
▁ବିଭାଜନ	-10.7672
▁ସଙ୍ଗୀତ	-10.7672
▁ଚତୁର୍ଥ	-10.7672
▁ଦିଶିଲେ	-10.7672
▁ଲାଟିନ	-10.7672
୧୯୭୩	-10.7672
▁କୂଅ	-10.7672
▁ପୁନର୍ଧାରଣ	-10.7672
▁ଜଟିଳ	-10.7672
▁Who	-10.7673
▁ଗୁଗୁଲ	-10.7673
▁ସେଥିରୁ	-10.7673
▁ଶକ୍ତିଶାଳୀ	-10.7673
▁ତୃଟି	-10.7673
▁କିଣିଲେ	-10.7673
▁ସଂଗ୍ରାମ	-10.7674
▁ବାଇବଲ	-10.7674
55	-10.7675
▁ସୀତା	-10.7675
▁ଏକତ୍ରିତ	-10.7676
▁done	-10.7677
▁ପ୍ରବଳ	-10.7677
▁ଲଗାଇବା	-10.7677
▁ଗାଈ	-10.7677
▁ଦର୍ଶା	-10.7677
▁ଆସୁଛନ୍ତି	-10.768
▁ଆସୁଥିବା	-10.768
▁ଯୋଗଦାନ	-10.7682
▁ଯେଉଁଠାରେ	-10.7682
▁ଯାକୁବଙ୍କ	-10.7686
▁ହେଇଥିଲେ	-10.7688
▁ଭେଟିଲି	-10.7688
▁ବିଦେଶୀ	-10.7689
▁Or	-10.7691
▁My	-10.7693
ଳୟ	-10.7693
▁ବିନ୍ଦୁ	-10.7695
ବିଭାଗ	-10.7698
▁ଅନୁସନ୍ଧାନ	-10.7698
▁ହସ୍ତ	-10.7701
▁ସାହିତ୍ୟର	-10.7703
▁ମୋଦୀ	-10.7704
ାଉଛନ୍ତି	-10.7712
▁ବଛା	-10.7712
int	-10.7717
:39	-10.7717
▁୩୮	-10.7719
54	-10.7721
▁ନେଇଥିଲେ	-10.7722
▁ବସ୍ତୁକୁ	-10.7724
▁ଆଲୋକ	-10.7726
ାମ୍ନୀ	-10.7726
▁ପ୍ରାରମ୍ଭ	-10.7727
ଏଗୁଡ଼ିକୁ	-10.773
▁୨୦୧୯ରେ	-10.7732
▁ତାଠୁ	-10.7734
୤”	-10.7738
cal	-10.7738
cent	-10.7741
ୁପ	-10.7745
▁When	-10.7749
▁ଡବ୍ଲୁ	-10.7749
ନଥାଏ	-10.7751
▁ପାରନ୍ତି	-10.7755
ଲାଲ	-10.7762
▁On	-10.7766
▁ରାଜୁକୁ	-10.7766
▁ଯେତବେେଳେ	-10.7767
▁୫ଜଣ	-10.7769
▁ନଗର	-10.777
▁ବ୍ୟକ୍ତିଙ୍କୁ	-10.7781
▁ଛାର	-10.7784
▁ବିଲ	-10.7785
ଡାଇ	-10.7795
▁ନାହା	-10.7796
ca	-10.78
▁ଖିର	-10.7801
▁ଉପକାର	-10.7804
▁Description	-10.7811
uch	-10.7816
▁କାନ୍ଦୁଛ	-10.782
▁ଦେଶକୁ	-10.7821
▁ପ୍ରକ୍ରିୟାରେ	-10.7823
ାଦି	-10.7831
▁ଗ୍ରାମ୍	-10.785
▁ଖୁ	-10.7857
▁has	-10.7868
ାଇଜ	-10.7872
▁୨୦୧୨ରେ	-10.7873
▁ଇସ୍	-10.7877
▁ଦୁନିଆ	-10.7883
▁ଆକାଶରେ	-10.7886
▁ସହରର	-10.7886
▁ପ୍ରସଙ୍ଗରେ	-10.7894
Articles	-10.7895
▁ବାବୁଙ୍କ	-10.7897
▁ତତ	-10.7899
୩୪	-10.79
▁ଦିଲ୍ଲୀପଙ୍କ	-10.7902
▁ଯି	-10.7911
୬୬	-10.7912
▁ପାଟ	-10.7912
▁ରଚନ	-10.7914
▁ପବନର	-10.7915
▁ବୈଠକ	-10.7917
▁ପୃଷ୍ଠାଗୁଡ଼ିକ	-10.7921
୮୬	-10.7935
▁v	-10.7949
▁ପିତାଙ୍କ	-10.7952
ତ୍ୟା	-10.7955
କୁଳ	-10.7971
▁Bo	-10.7972
▁ଗାଲ	-10.7973
▁ଷ୍ଟେସନ	-10.7975
▁ଭବିଷ୍ୟ	-10.7976
▁ଛଟ	-10.7978
CE	-10.7981
nic	-10.7985
▁ମାନ୍ୟତା	-10.7987
05	-10.7988
go	-10.7988
▁ବାଣିଜ୍ୟ	-10.7991
▁ସ୍ବାସ୍ଥ୍ୟ	-10.7995
▁Women	-10.7995
▁ଚିତ୍ରସଂକେତ	-10.7995
ଶିତିକଣ୍ଠ	-10.7995
▁License	-10.7995
▁Trading	-10.7995
▁Version	-10.7995
▁ଚମତ୍କାର	-10.7995
▁ନିଷ୍ପାଦନ	-10.7995
▁ପାକିସ୍ଥାନ	-10.7995
▁ମାଓବାଦୀ	-10.7995
▁ହିତୋପଦେଶ	-10.7995
▁ଜାଗତିକ	-10.7995
▁ସନ୍ତୋଷ	-10.7995
ୋଲିଟିକ	-10.7995
▁ରମେଶ	-10.7995
sfx	-10.7995
▁ଅମଳ	-10.7995
▁ସମୀକ୍ଷା	-10.7995
▁Price	-10.7995
▁ଗୁରୁତ୍ୱପୂର୍ଣ୍ଣ	-10.7995
▁ଟିକସ	-10.7995
▁ମରିବାକୁ	-10.7995
▁ସମ୍ପୃକ୍ତ	-10.7995
▁ନିଉରୋ	-10.7996
▁kind	-10.7996
▁ଗ୍ଲୁକ	-10.7996
▁ଆଡକୁ	-10.7996
▁information	-10.7996
▁online	-10.7996
ମନ୍ତ୍ରୀ	-10.7997
▁ଗବେଷଣା	-10.7997
▁ଘୁଞ୍ଚାନ୍ତୁ	-10.7997
▁ସେଠାକୁ	-10.7997
▁ତୈଳ	-10.7997
▁ଆଲବମ	-10.7998
▁ଯୋଡା	-10.7998
▁data	-10.7998
▁03:	-10.7999
▁କଭର୍‍	-10.7999
▁୦୬୭	-10.8
▁ଦେଖାଯାଉଛି	-10.8001
▁2010	-10.8001
▁ବାରଣ	-10.8001
ଥାନ୍ତେ	-10.8002
▁ଆଣିଲୁ	-10.8002
▁ଯମୁନା	-10.8003
less	-10.8004
▁ଲାଗିଥାଏ	-10.8005
▁Ch	-10.8006
▁ଗଙ୍ଗା	-10.8007
▁ଗ୍ରହଣକର୍ତ୍ତା	-10.8009
▁ଦାମ	-10.801
▁ଅଧିକାରୀମାନେ	-10.8012
▁ଛାତ୍ରୀ	-10.8012
ଯେଉଁ	-10.8013
▁ଆସିଥିଲା	-10.8014
▁Mar	-10.8015
ଚାଲନ୍ତୁ	-10.8016
▁ଫିସ୍	-10.8017
▁ଚାହୁଁଛି	-10.8017
▁କଣ୍ଠ	-10.8019
ଓଡ଼ିଆ	-10.8019
▁ସାଧନା	-10.8021
▁ପଡ଼ିଲେ	-10.8024
ଦୁଇ	-10.8026
ଇେ	-10.8026
▁ଏନେଇ	-10.8035
▁ଫିଟ	-10.8036
▁ଇଶ୍ରାୟେଲ	-10.8037
▁ପିଇ	-10.8043
▁ଘୋଡ଼ା	-10.8044
ଖରା	-10.8047
▁ଖୋଲିଲା	-10.8052
▁କଣ୍ଟା	-10.8055
▁ଦୋଷୀ	-10.8058
▁କରିପାରିବି	-10.8058
▁୫୬	-10.8063
ଟର୍	-10.8063
▁ଊ	-10.8064
▁ହେବାପରେ	-10.8065
▁ତତଃ	-10.8066
▁ରୋଗର	-10.8069
ଟ୍‍	-10.8078
▁ne	-10.8079
▁ପାହ୍ୟା	-10.8085
ବର୍ତ୍ତନ	-10.8086
▁46	-10.8087
hat	-10.8093
▁ହୋଇଥିବ	-10.8095
▁ସତ୍	-10.8098
49	-10.8104
▁କାଟୁ	-10.8107
▁ସୁଧ	-10.8117
▁ବାଳ	-10.8121
ଇବେ	-10.813
▁ମାତ୍ରା	-10.8134
ard	-10.8144
▁୨୫୦	-10.8149
▁ମନ୍ଦିରର	-10.8151
▁ଶିଖିଛ	-10.8152
▁ବଉ	-10.8162
ଢ଼ି	-10.8163
▁ଅନ୍ୟମାନଙ୍କ	-10.8173
▁ଡାଲି	-10.8181
▁୨୦୦୫	-10.8185
ଯାତ୍ରା	-10.8187
▁ୱେ	-10.8196
▁ଭାବୁଥି	-10.8213
▁ମୁଖ୍ୟମନ୍ତ୍ରୀଙ୍କ	-10.8221
▁ଘୋଡା	-10.8226
ମିତି	-10.8236
ଧାରଣ	-10.8249
▁ଦିଲ୍ଲୀରେ	-10.825
▁ପ୍ରେସ	-10.8256
ti	-10.8256
37	-10.8258
▁ଦେଖାଇବ	-10.8262
▁86	-10.8271
ମାଳ	-10.8271
▁ହଜାରରୁ	-10.8289
▁ଜଗି	-10.8292
▁2017	-10.8293
▁ହିରୋ	-10.8294
▁ଗାଁକୁ	-10.8295
▁ପଦା	-10.8296
୍ଟ	-10.8298
han	-10.8299
ଟ୍ଟା	-10.83
sk	-10.8305
▁ଦୋ	-10.8306
▁୨୦୧୮	-10.8316
ଶୋଧ	-10.8316
୍ୱେ	-10.832
▁ବାକ୍ଯ	-10.8324
ant	-10.8325
DL	-10.8326
▁ବ୍ଯକ୍ତି	-10.8327
ful	-10.8328
ଅପରାହ୍ନ	-10.8328
▁Dharitri	-10.8328
▁Political	-10.8328
▁Public	-10.8328
▁Spell	-10.8328
▁character	-10.8328
▁heaven	-10.8328
▁joystick	-10.8328
▁ଐତିହାସିକ	-10.8328
▁କୃତଜ୍ଞତା	-10.8328
▁ଗୁଜରାଟ	-10.8328
▁ଜଗନ୍ନାଥ	-10.8328
🙏🙏🙏🙏🙏🙏🙏🙏🙏🙏🙏🙏🙏🙏	-10.8328
▁GNU	-10.8328
▁ଜାନୁଆରୀ	-10.8328
▁ନମସ୍କାର	-10.8328
▁ମାଥିଉ	-10.8328
▁ମେଣ୍ଢା	-10.8328
▁ରାଉରକେଲା	-10.8328
▁ସିନ୍ଧୁ	-10.8328
▁ଦଶହରା	-10.8328
▁Laksh	-10.8328
▁କୁମ୍ଭୀର	-10.8328
▁method	-10.8328
▁section	-10.8328
▁[22:	-10.8328
▁textbox	-10.8328
▁ବୁଧବାର	-10.8329
▁ସଂପତ୍ତି	-10.8329
▁ବକ୍ତା	-10.8329
▁ବେତାଳ	-10.8329
▁ସ୍ନାନ	-10.833
▁ନିରଞ୍ଜନ	-10.833
▁୧୯୭୪	-10.833
ERV	-10.833
ଟୀ	-10.833
▁comment	-10.833
▁long	-10.8332
▁ପ୍ରୋତ୍ସାହନ	-10.8333
▁ପ୍ରତାପ	-10.8334
▁ସିଧା	-10.8335
▁ପେଜ୍	-10.8335
▁ଶୁଣନ୍ତୁ	-10.8336
▁ଶିବିର	-10.8338
▁ଲିଲି	-10.8338
▁distribut	-10.8338
"}	-10.834
▁ନାଟକ	-10.834
▁ପିତର	-10.8345
▁so	-10.8346
▁Mea	-10.8347
mm	-10.8347
▁ବର୍ଷୀୟା	-10.8347
▁ଦବୋ	-10.8348
▁ବ୍ଲଗ	-10.8351
▁ପିଇଲେ	-10.8351
▁ଯାହାଦ୍ୱାରା	-10.8351
ିଛନ୍ତି	-10.8356
▁କାଢ଼ିବା	-10.8357
▁ହୋଷ୍ଟ	-10.836
▁କରିଦେଲେ	-10.8365
▁ଅଟକାଇ	-10.8366
▁ଶୁଳ୍କ	-10.8367
▁ପ୍ରଫେସର	-10.8367
ବାବାଙ୍କ	-10.8367
▁ନ୍ୟୁ	-10.8369
▁ଭଡା	-10.8369
▁କ୍ଷୁଦ୍ର	-10.837
ିବେନି	-10.8371
▁ପ୍ରତିକାର	-10.8372
▁ପଡେ	-10.8373
▁କମ୍ପ୍ୟୁଟର	-10.8374
ାପ	-10.8378
▁ବୈଜୟନ୍ତଙ୍କ	-10.838
▁Lo	-10.8381
▁ଜୋର	-10.8385
ତ୍ରୀ	-10.8387
ସନ୍ତ	-10.8388
▁ଅସଲ	-10.8391
▁ସୁମ	-10.8398
ଙ୍ଗୁ	-10.8403
ମୁଣ୍ଡ	-10.8404
ub	-10.8407
▁ଦେଶୀ	-10.8407
ଶନ	-10.8408
ari	-10.8408
▁SSL	-10.8421
▁ମାଗଣାରେ	-10.8428
▁Vi	-10.8432
▁CC	-10.8444
▁And	-10.8452
▁କାହାରି	-10.846
▁ଆରବ	-10.8464
ଳିଆ	-10.8464
▁card	-10.8467
▁date	-10.8467
▁ଅଗଷ୍ଟରେ	-10.8471
▁01:	-10.8472
▁ଯିବୁ	-10.8475
▁ପ୍ରକୃତି	-10.849
▁ଗ୍ଭ	-10.8492
▁ପାରିବୁ	-10.8495
▁ମୂ	-10.8505
lo	-10.8509
▁ଋ	-10.8537
▁ଲମ୍ବ	-10.8538
ଶମ	-10.8539
▁ଚମକ	-10.8549
ବିଧ	-10.8552
ଦ୍ଵ	-10.8553
▁ବାଲ	-10.8557
33	-10.8568
ian	-10.858
▁ରଖୁ	-10.8585
21	-10.8585
▁ତୁଳନା	-10.8588
▁୧୯୫୨	-10.8596
ୁମ	-10.86
▁୧୨୦	-10.8607
EC	-10.8609
ଦାମ	-10.8609
▁ଜିଓ	-10.861
▁ସରକାରଙ୍କୁ	-10.8618
ଧୁ	-10.8619
nci	-10.8621
ବାସୀଙ୍କ	-10.8621
▁ବାହ୍	-10.8624
ମାତ୍ର	-10.8628
ରୁଦ୍ର	-10.8629
74	-10.8632
▁ପ୍ରୟୋଗଗୁଡ଼ିକ	-10.8641
ନାହାଁନ୍ତି	-10.8643
▁ପ୍ରୋଗ୍ରାମ	-10.8645
bi	-10.8646
▁ଆଣିବ	-10.8647
୧୪	-10.8648
▁୫୮	-10.8651
▁ପେଟ୍ରୋଲ	-10.8653
▁ସମର୍ଥ	-10.8657
▁ଉତ	-10.8657
▁ଖୁବ	-10.8661
▁ଦ୍ୱାର	-10.8661
୬୦	-10.8663
▁ସାଇନ	-10.8668
▁ଫାଇଲ୍	-10.8668
ତ୍ଯ	-10.8669
ଶକ୍ତି	-10.8673
ble	-10.8673
▁ଇଫକୋ	-10.8673
▁Jobs	-10.8673
▁System	-10.8673
▁ପ୍ରୋଟୋକଲ	-10.8673
▁ରଣବୀର	-10.8673
▁ସୁସମାଗ୍ଭର	-10.8673
▁ସ୍ୱାଭିମାନ	-10.8673
▁ଅଜ୍ଞାତ	-10.8673
▁ଅଶୁଭ	-10.8673
▁ପରାମର୍ଶଦାତା	-10.8673
▁ଏଜେଣ୍ଟ	-10.8673
▁ମତାମତ	-10.8673
▁ମରାମତି	-10.8673
▁ସାଥୀ	-10.8673
▁ରଶ୍ମି	-10.8673
▁ସାର୍ଥକ	-10.8673
▁ଏତେବଡ	-10.8673
▁ସାଲିସ୍	-10.8673
Share	-10.8673
▁ଅଭିବୃଦ୍ଧି	-10.8673
▁ଚାରିପଟେ	-10.8673
▁ପ୍ରଦର୍ଶିକା	-10.8674
▁ନିଆରା	-10.8674
▁ଧରଣର	-10.8674
▁ଅନୁଚ୍ଛେଦ	-10.8674
▁ଶିଆଳ	-10.8674
▁ଗେହିଁ	-10.8674
▁ଦେବାଦେବୀ	-10.8674
▁ଅଭିଯାନ	-10.8674
▁ମନେରଖନ୍ତୁ	-10.8674
▁kde	-10.8674
▁୧୯୮୭	-10.8675
▁ଉପନ୍ୟାସ	-10.8675
▁ସ୍ଥାନାନ୍ତରିତ	-10.8676
▁ବିଶେଷଜ୍ଞ	-10.8677
▁ପ୍ରଯୋଗ	-10.8678
▁ଘଟିଥାଏ	-10.8678
▁ମିଳିଥିଲା	-10.8679
▁ଦୁଷ୍ଟ	-10.8679
▁ମଞ୍ଜୁରୀ	-10.868
▁ଛାୟା	-10.8683
Meeting	-10.8685
▁ଯାଇଥିଲି	-10.8685
Starts	-10.8686
▁ସବୁକିଛି	-10.869
▁ଚର୍ମ	-10.8691
self	-10.8693
୧୯୯୦	-10.8696
▁ଛଡ଼ା	-10.8697
▁କହିପାରିବେ	-10.8701
▁ପ୍ରେରଣା	-10.8704
-17	-10.8706
▁କହିଥିଲା	-10.8709
୧୯୯୬	-10.871
▁ଭୂଲ	-10.8711
ୋଲ୍	-10.8712
ଏବେକାର	-10.8713
ଯିହୂଦୀମାନଙ୍କ	-10.8713
▁ହୋଇଥାନ୍ତି	-10.8718
ୂର୍ତ୍ତ	-10.872
▁କିଆଁ	-10.8728
▁ଲଗଇନ	-10.8731
▁ସୁଅ	-10.8734
▁ଚାଲିଥିବା	-10.8734
▁ପଚାରିବା	-10.875
▁୧୯୫୨ରେ	-10.8751
▁ତୁଳନାରେ	-10.8752
90	-10.8753
ଆଜି	-10.8754
mo	-10.8757
▁କଣ୍ଠରେ	-10.8758
ଲମ	-10.8759
ନ୍‍	-10.8764
▁ଦୂରତା	-10.8775
ଭ୍ୟ	-10.8777
▁ଆଣିବା	-10.8788
▁୩୬	-10.8795
▁ହାନି	-10.8799
▁52	-10.8811
ଲାମ	-10.8812
▁ଖାଉ	-10.8813
▁see	-10.8817
lick	-10.8823
▁ସଦାପ୍ରଭୁଙ୍କର	-10.8823
ାଣୀ	-10.8839
▁ଫେରିବାକୁ	-10.8843
ସ୍ପର୍ଶ	-10.8844
Fi	-10.885
▁ଜଗତକୁ	-10.8862
ାଲ୍	-10.8862
ାମି	-10.8875
▁ଭିଟାମିନ୍	-10.8883
▁Be	-10.8884
ୟୋଗ	-10.8895
କାଳୀନ	-10.8897
▁ସର୍ବା	-10.8905
▁ଲୀନ	-10.8907
ଏଟିଏମ୍	-10.8908
୧୭	-10.891
ଥାନ	-10.8912
ୂଲ	-10.8917
ାଇଲ	-10.8922
ଅଛନ୍ତି	-10.8931
ନ୍ଦର	-10.8946
▁55	-10.8947
ବେଶ	-10.8951
▁ସ୍ୱାର୍ଥ	-10.8953
▁ସ୍ମାରକପତ୍ରକୁ	-10.896
▁କାନ୍ଦ	-10.896
ିବୁ	-10.8965
▁(9	-10.8965
ପଦୀ	-10.897
▁ବ୍ୟକ୍ତିକୁ	-10.8976
▁ୟୋଗ	-10.8981
ବେଳ	-10.8989
▁ଯୁବତୀ	-10.8992
▁ଟିକେଟ୍	-10.8998
▁ବାଣ୍ଟ	-10.9001
▁90	-10.9001
ପୁତ୍ର	-10.9003
▁07:	-10.9005
▁ସୀମାରେ	-10.9005
▁48	-10.9008
▁ଗଭୀର	-10.9016
ଲ୍ଲ	-10.9017
ାଧ	-10.9019
ଳ୍ପ	-10.9019
▁ସ୍ୱଚ୍ଛ	-10.902
ଔ	-10.903
ontributions	-10.903
▁Kumar	-10.903
▁Video	-10.903
▁Weekly	-10.903
▁ଇନସ୍ୟୁରାନ୍ସ	-10.903
▁କାଲେଣ୍ଡର	-10.903
▁ଟାଇଫୁନ୍	-10.903
▁ପଞ୍ଜୀକରଣ	-10.903
▁ସଂଗଠନ	-10.903
▁ହୋଇଯାଆନ୍ତୁ	-10.903
▁ଜିଏସଟି	-10.903
▁ସର୍ଦ୍ଦାର	-10.903
▁ସାଧନପଟି	-10.903
▁ସ୍ୱୀକାର	-10.903
;#39;	-10.903
▁Latest	-10.903
▁Sort	-10.903
▁ବିଜେପୁର	-10.903
▁ଚରିତ୍ର	-10.903
▁ପ୍ରୟାସ	-10.903
▁କୁକୁଡ଼ା	-10.903
▁JavaScript	-10.903
ପ୍ରମିଳା	-10.903
୧୯୮୪	-10.903
▁7:11	-10.903
help	-10.903
▁ଶୀତଦିନେ	-10.903
▁ପ୍ୟାକେଜ	-10.903
▁କୁସୁମ	-10.9031
▁House	-10.9031
▁ହଳଦିଆ	-10.9031
▁Copyright	-10.9031
▁କ୍ଷତିଗ୍ରସ୍ତ	-10.9031
▁ଭୋଜନ	-10.9031
▁ବଜ	-10.9031
▁୨୦୦୭	-10.9031
▁always	-10.9032
▁ଥେ	-10.9032
▁Live	-10.9032
▁Bi	-10.9033
ଂକର	-10.9033
ିଳ	-10.9034
▁ବିଚାରପତି	-10.9034
▁ଅଧ୍ୟାପକ	-10.9035
▁ଗାଳି	-10.9035
▁କଲାବେଳେ	-10.9035
▁ଦେଖାଉଛି	-10.9035
▁ଘଟିଥିଲା	-10.9037
▁ପଚାରିଥିଲେ	-10.9037
▁ସ୍ୱଭାବ	-10.9039
▁ଦେଖାଯାଏ	-10.9039
▁ଖାଉଛି	-10.9039
▁ଦେଇପାରିବି	-10.904
▁than	-10.9041
▁ସ୍କୋର	-10.9042
ଚାଳିତ	-10.9043
▁ସେବେଠୁ	-10.9043
▁ଛେ	-10.9043
▁ପାଇପାରିବେ	-10.9043
▁un	-10.9046
ୟସ	-10.9046
▁ଦଙ୍ଗା	-10.9048
▁ପ୍ରତିଛବିଗୁଡ଼ିକୁ	-10.9048
▁ବୟାନ	-10.905
▁କରିନଥାଏ	-10.9051
▁ପାନୀୟ	-10.9051
▁ପୋର୍ଟାଲ	-10.9053
▁ଶଙ୍କର	-10.9054
▁cc	-10.9054
▁ଦେଇପାରିବେ	-10.9055
▁ଦେବୀଙ୍କ	-10.9056
▁୦	-10.9056
▁ଜୋର୍	-10.9056
ୀକ୍ଷ	-10.9057
▁first	-10.9057
Show	-10.9061
▁ମିଠା	-10.9062
▁ମିଳିବା	-10.9066
▁ଫେରିଲେ	-10.9068
ଡ଼ିଆ	-10.907
▁ପାଇଥିବା	-10.907
▁ଚାଲିଥିଲା	-10.9073
ସୁର	-10.9075
▁ଦୁଧ	-10.9077
ଫର	-10.9081
▁ପଡ଼ିଲା	-10.9081
କେଦାର	-10.9082
▁International	-10.9083
▁message	-10.9083
ୋଜ	-10.9083
▁MS	-10.9087
▁ପଏଣ୍ଟର	-10.9087
▁ଡାକ୍ତରୀ	-10.9089
▁କଭରେଜ	-10.9091
type	-10.9091
▁ଵେ	-10.9095
▁ପରବର୍ତ୍ତି	-10.9095
ବୋଉ	-10.9096
▁ଦାୟକ	-10.9096
▁ଶାସ୍ତ୍ରରେ	-10.9101
▁କରିନ୍ଥୀୟ	-10.9107
▁ପିଠା	-10.9107
ରତ୍ନ	-10.9107
ପଡୁ	-10.9108
▁ଲେଖାକୁ	-10.9116
▁ବଜେଟ	-10.9118
ଯାଉଥିଲା	-10.9123
85	-10.9123
▁ୱେବସାଇଟ୍	-10.9128
▁ନୋଟିସ	-10.9132
ହିନ	-10.9136
ner	-10.9136
▁କୋହଲି	-10.9137
▁ବିଆ	-10.915
▁dictionary	-10.9152
ଡିଓ	-10.9158
▁ସଦା	-10.916
▁SC	-10.9164
▁Phone	-10.9166
▁ମହାଶୟ	-10.9167
▁ମୋଡ଼ି	-10.9168
▁ଶସ୍ତାରେ	-10.9172
ର୍ତ	-10.9173
▁source	-10.9178
ବସ	-10.9179
▁ବ୍ଲ	-10.9179
▁ବଳି	-10.9181
▁ପୀଠ	-10.9199
ଶ୍ରମ	-10.9199
ଦାୟକ	-10.92
che	-10.9207
▁ରହିଛ	-10.921
▁ନୋଟ	-10.9216
▁ହେଉଛ	-10.922
େଣ୍ଟ	-10.9234
ୋମ	-10.9234
▁ନାଚ	-10.9235
ଡକ୍ଟର	-10.9237
pur	-10.9238
▁ଯାଉଛ	-10.9245
▁ଜଗତରେ	-10.925
▁ମାଆକୁ	-10.9256
▁ପୋଷ୍ଟର	-10.9257
▁ଓଠ	-10.9261
▁ପରମେଶ୍ବରଙ୍କର	-10.9279
ସ୍ଥଳ	-10.9283
▁ଜିଲ୍ଲାର	-10.9285
ଲଡ	-10.9291
ନେଟ	-10.9291
▁ସାହିତ୍ୟିକ	-10.9297
ନ୍ଦୁ	-10.93
ଶୂ	-10.9304
▁ଲୁଚି	-10.9318
▁ପ୍ରକଳ୍ପକୁ	-10.9319
▁ପର୍ଯ୍ୟାୟ	-10.9323
▁ଗ୍ରନ୍ଥ	-10.9323
▁କର୍ମୀ	-10.9327
▁ଶୁଙ୍ଘ	-10.9333
୮୮	-10.9339
ox	-10.935
▁use	-10.9351
▁ମୁଣ୍ଡରେ	-10.9358
ଯାଇପାରିବ	-10.9359
▁କ୍ରିକେଟ	-10.9367
▁ଅଭିଧାନ	-10.9367
▁ଅଂଶଗ୍ରହଣ	-10.9368
▁କୋର	-10.9372
ଘରେ	-10.9375
ଇନ୍	-10.9378
08	-10.9378
▁ସୁପର	-10.9385
▁state	-10.9394
oogle	-10.9397
▁sk	-10.9397
ଜ୍ଞା	-10.9399
▁ସତେଜ	-10.9399
▁ହିଂସା	-10.9399
▁'{0}'	-10.9401
▁whatsthis	-10.9401
▁ଜରିମାନା	-10.9401
▁ତରଫରୁ	-10.9401
▁ଦ୍ରୁଶ୍ଯ	-10.9401
▁ପ୍ରାଇଭେଟ୍	-10.9401
▁ପ୍ରୁଷ୍ଠା	-10.9401
▁ହାନିକାରକ	-10.9401
▁above	-10.9401
▁କର୍ତ୍ତବ୍ୟ	-10.9401
▁ଧର୍ମଘଟ	-10.9401
▁ଲିମିଟେଡ	-10.9401
▁ସାଢେ	-10.9401
erform	-10.9401
▁କଣ୍ଢେଇ	-10.9401
▁ପିଅନ୍ତୁ	-10.9401
▁ଆସନ୍ତାକାଲି	-10.9401
▁ଲାଇସେନ୍ସ	-10.9401
Ctrl	-10.9401
▁ମକଚି	-10.9401
▁ସାଙ୍କେତିକରଣ	-10.9401
,500	-10.9401
Play	-10.9401
▁ପଞ୍ଚଭୂତ	-10.9401
▁Never	-10.9401
▁ପୁନର୍ବାର	-10.9401
▁ଉପସ୍ଥାପନ	-10.9401
▁ୱାର୍ଣ୍ଣ	-10.9401
▁Make	-10.9402
ଧେ	-10.9402
▁ଯଶୋ	-10.9402
▁ସମ୍ରାଟ	-10.9403
▁ରାଜସ୍ଥାନ	-10.9403
▁05:	-10.9403
▁ଅଥଚ	-10.9403
▁ଭେଙ୍କ	-10.9403
▁FOR	-10.9404
▁ସ୍ବାମୀ	-10.9404
▁ସରୋଜ	-10.9405
▁ଅଧୁନା	-10.9405
▁ପରଲୋକ	-10.9406
▁ଫେରସ୍ତ	-10.9406
▁ନିଅନ୍ତି	-10.9408
▁war	-10.941
▁ବ୍ୟକ୍ତିତ୍ୱ	-10.941
▁ଟେକ	-10.9411
▁ପରାସ୍ତ	-10.9413
ଖିଆ	-10.9417
▁ରହୁଥିବା	-10.9417
▁ଉଠେଇ	-10.9419
▁ଆସିଛୁ	-10.942
▁ପ୍ରତିଭା	-10.9421
ରାଜା	-10.9421
▁ପଢ଼ିବା	-10.9424
▁ଫାକ୍ସ	-10.9424
Data	-10.9424
▁ଚିହ୍ନିଛନ୍ତି	-10.9425
▁ଡିଜି	-10.9426
▁[[	-10.9432
AP	-10.9437
ଗଣପତି	-10.9438
ୁଛୁ	-10.9441
▁ଖୋଲିଲେ	-10.9443
▁ବଞ୍ଚିବା	-10.9446
ଭରା	-10.9449
୧୬	-10.945
▁ଅମୃତ	-10.9451
▁ପଲିସିର	-10.9454
▁ସାମ୍ନାରେ	-10.9456
▁ନେଇଛନ୍ତି	-10.9456
ଣ୍ଡର	-10.9458
▁email	-10.9465
▁ଧରିବେ	-10.9465
ଶୁଙ୍ଘ	-10.9469
▁ଭକ୍ତି	-10.9474
ଜାତ	-10.9474
ଏବଂ	-10.9474
▁pro	-10.9474
time	-10.9475
ାଯାଇଥିବା	-10.9477
ସାଗର	-10.9477
ଚାଷ	-10.9478
▁ଅପ୍ରତ୍ୟାଶିତ	-10.948
ଅଧିକ	-10.9484
ise	-10.9487
▁Da	-10.949
▁show	-10.9492
▁ମିଶ୍ରେ	-10.9495
ୋଳ	-10.9497
ମୋତେ	-10.9499
ଦେବେ	-10.95
▁ଲିଙ୍କ୍	-10.9504
ବନ୍ଧ	-10.9506
line	-10.951
▁ବାପାଙ୍କୁ	-10.9516
ଧାର	-10.952
▁ଇତି	-10.9531
ଶଙ୍କର	-10.9533
ଥିରେ	-10.9533
▁ପିଲାଙ୍କୁ	-10.9536
▁ବାହୁ	-10.9538
ଗମ	-10.9539
▁ବିଶ୍ରାମ	-10.9551
ାଳୟ	-10.9552
unner	-10.9553
▁ପଡ଼	-10.9553
▁ପଚାରୁଛ	-10.9558
▁ଡାଏଲ	-10.9559
କୋଟି	-10.9559
ଭାର	-10.9562
▁70	-10.958
▁ଟେଲି	-10.9583
ାଈ	-10.9586
କ୍ରାନ୍ତ	-10.9588
▁ଚାଟ	-10.9588
▁ଯାତ୍ରୀ	-10.959
▁୧୯୯୪	-10.9591
ିଯିବ	-10.9594
୯ଟି	-10.9602
ନ୍ଦ୍ର	-10.9602
ଦେବି	-10.9603
88	-10.9605
ାଇଛି	-10.9612
ସଭା	-10.9623
971	-10.9633
ାଗତ	-10.9634
let	-10.9641
ଖୀ	-10.9646
ଚନା	-10.965
pan	-10.9652
nti	-10.9658
48	-10.9671
▁ସରକାରଙ୍କର	-10.9672
▁କମ୍ପାନୀର	-10.9679
ବହ	-10.968
▁ରାଜନୀତିରେ	-10.9696
mb	-10.9699
ଧାରୀ	-10.9706
▁ଲୋକସଭା	-10.9712
con	-10.9713
▁ଲୁଚାଇ	-10.9716
ଛେ	-10.9717
ପ୍ସ	-10.9717
▁ଆଖିରେ	-10.9724
ନେଲ	-10.9725
▁ଅପରାଜିତ	-10.9727
ୂର	-10.9729
▁ଷ୍ଟେ	-10.9733
ାଯିବ	-10.9737
▁con	-10.9739
????	-10.9748
▁ୟି	-10.9749
▁ଜମିରେ	-10.9761
▁ଋଷିଆ	-10.9761
ita	-10.9769
▁ସଚେତନ	-10.9771
ବର୍ତ୍ତୀ	-10.9771
ାଡ	-10.9775
ଂଟ	-10.9778
ରଦର୍ଶିକା	-10.9785
▁Easy	-10.9785
Vikaspediaodisha	-10.9785
▁(₹):	-10.9785
▁IMAP	-10.9785
▁version	-10.9785
▁ଅଦ୍ଭୁତ	-10.9785
▁ଅନାହାରରେ	-10.9785
▁ପ୍ରତିଶ୍ରୁତି	-10.9785
▁ବଢିଚାଲିଛି	-10.9785
▁ମହମ୍ମଦ	-10.9785
▁ହଇରାଣ	-10.9785
▁୯୮୫୩୨୧୩୬୦୧	-10.9785
pecial	-10.9785
▁keyword	-10.9785
▁ଇସ୍ତଫା	-10.9785
▁ଉଜବେକିସ୍ଥାନ	-10.9785
▁ପ୍ରତ୍ୟେକ୍ଷ	-10.9785
▁ସୁଶିଲ	-10.9785
▁ସୂର୍ଯ୍ୟାସ୍ତ	-10.9785
▁ସ୍ଵାମୀ	-10.9785
▁କିସ୍ତାୟା	-10.9785
edding	-10.9785
▁ଅଶାନ୍ତି	-10.9785
▁ଉଚ୍ଚାରଣ	-10.9785
▁php	-10.9785
▁କରିନଥାନ୍ତି	-10.9785
ମାନବିକତା	-10.9785
▁ମରିଗଲେ	-10.9785
▁ଠିକାଦାର	-10.9785
}}	-10.9785
▁Story	-10.9785
▁ସମ୍ମିଳନୀ	-10.9786
▁ଜବ୍ସ	-10.9786
▁ପ୍ରଣାମ	-10.9786
▁ଲେଖୁଅଛି	-10.9786
▁ସ୍ପିନ୍	-10.9786
▁ଦାୟିତ୍ଵ	-10.9786
▁make	-10.9786
▁report	-10.9786
▁ସ୍ପୁଲ	-10.9786
ଦୁର୍	-10.9787
▁କିଶୋର	-10.9787
▁Suicide	-10.9787
▁ଦିଆଯାଇଥିବା	-10.9788
▁ଘଣ୍ଟି	-10.9788
▁ପ୍ୟା	-10.9788
▁ସମ୍ମୁଖ	-10.9788
▁ବଢାଇବାକୁ	-10.9789
▁ଦିଆଯାଉଛି	-10.9789
▁ହନୁମାନ	-10.9789
▁ଦ୍ରୁତ	-10.9789
▁ଶାଖା	-10.979
ବୃତ୍ତ	-10.9791
▁2007	-10.9792
▁୨୦୦୨	-10.9792
▁ଯାଉଥିଲେ	-10.9793
▁100%	-10.9793
▁used	-10.9794
▁କହୁନାହିଁ	-10.9796
▁ଉଦାର	-10.9796
ବର୍	-10.9797
▁ମାଗ	-10.9799
pre	-10.9799
▁ଦାମୀ	-10.9799
▁ପୋଛୁ	-10.9799
▁ସତେକି	-10.9802
rial	-10.9804
▁ଶସ୍ୟ	-10.9806
▁ସେଇଟା	-10.9807
ଦିଅନ୍ତୁ	-10.9809
▁ଦୂରେଇ	-10.981
▁ଚାହଁ	-10.9811
ପଥ	-10.9812
▁ଖେଳିବା	-10.9814
ରାଗ	-10.9814
▁କୁଲ୍	-10.9817
ଦଶାହ	-10.9822
▁ଝୁ	-10.9828
ଭର୍	-10.9828
ଏଚ	-10.9829
▁ଭେଟିବା	-10.9829
ପଡ଼ା	-10.9832
▁କେଉଁଠାରେ	-10.9832
▁ପଢିନି	-10.9833
ory	-10.9837
ianName	-10.9841
▁ଭୋଟ୍	-10.9842
ଯାଇଥାଏ	-10.9842
▁ଲାଗିଲେ	-10.9842
box	-10.9844
▁ପରମେଶ୍ବରଙ୍କୁ	-10.986
▁ବେକାର	-10.9868
୧୯୯୯	-10.9868
ୁଳ	-10.9871
▁ସମ୍ପର୍କିତ	-10.9871
»	-10.9872
Apply	-10.9876
ଭିତ୍ତିକ	-10.9877
ତାଲିକା	-10.9877
▁ବୈଠକରେ	-10.9879
▁ପହ	-10.9893
▁ପ୍ରେମିକା	-10.9893
▁02:	-10.9894
HS	-10.9897
ସ୍ତରୀୟ	-10.9899
▁Wikipedia	-10.9906
ର୍ଷ	-10.9912
▁ମିଳ	-10.9921
rg	-10.9923
ବୁଲ	-10.9923
▁ଇଟା	-10.9924
୪୯	-10.9933
▁ପୁରାଣ	-10.9935
େୟ	-10.9937
▁ex	-10.9938
use	-10.9943
▁up	-10.9952
କଟା	-10.9954
ph	-10.9959
▁ଟିମ	-10.9966
ପପୁ	-10.9968
▁seconds	-10.997
▁ଜଳି	-10.9972
▁ଜବ	-10.9982
▁ସିରିଜ	-10.9982
▁ଅନୁବାଦକ	-10.9983
▁ବ୍ୟବସାୟୀ	-10.9983
▁ବିନ୍ୟାସକୁ	-10.9989
▁ଖେଳି	-10.9996
▁ନମ୍ବରରେ	-11.0006
▁ସଭାରେ	-11.0006
ୁଡ଼ି	-11.0013
53	-11.0014
▁ଜମିର	-11.0019
▁non	-11.0033
ଣ୍ଡେ	-11.0033
▁ମୁହଁକୁ	-11.0034
▁ଦୁର୍ଗ	-11.0035
ai	-11.0039
age	-11.0042
ପହ	-11.0042
ଜୀବ	-11.0045
▁ଗ୍ରାହକଙ୍କ	-11.0049
▁କୁମାରଙ୍କ	-11.0054
ର୍ଧ	-11.0058
▁କାଢି	-11.0061
ହିଲେ	-11.0062
ଫେ	-11.0065
୬୭୭	-11.0066
ଆଡ଼େ	-11.0071
LO	-11.0071
ଢା	-11.0072
2%	-11.0077
▁କେତ	-11.008
ଥିପାଇଁ	-11.0092
▁Ku	-11.0101
▁ପୋଷ	-11.0105
▁ru	-11.0105
▁ପିନ୍ଧ	-11.011
▁ତଥ୍ଯ	-11.0113
▁ମାନୁ	-11.0113
▁ଜଗ	-11.0131
ଇସ	-11.014
ove	-11.0142
▁ଶାସ୍ତ୍ର	-11.0146
▁ଛାତ	-11.0146
▁day	-11.0149
ଚ୍ଛେଦ	-11.0157
ଖୁସ	-11.0158
ୁନାହଁ	-11.0158
▁ରୂପରେଖ	-11.0159
ଧାନ	-11.0161
▁ସବୁଜ	-11.0161
ୟାମ	-11.0162
ō	-11.0164
▁ବିରକ୍ତ	-11.0171
୮୯	-11.0177
▁ଇଣ୍ଟରନେଟ୍	-11.0177
▁ଦ୍ୱନ୍ଦ	-11.0178
▁କହିପାରିବ	-11.0181
▁face	-11.0184
ଙ୍ଘ	-11.0184
▁every	-11.0185
custom	-11.0185
▁Translation	-11.0185
▁URI	-11.0185
▁application	-11.0185
▁daily	-11.0185
▁ଅପସାରିତ	-11.0185
▁ଅଭିଜ୍ଞତା	-11.0185
▁କର୍ଣ୍ଣାଟକ	-11.0185
▁ଜମାରାଶି	-11.0185
▁ପୁଲୱାମା	-11.0185
▁ଫେବୃଆରୀ	-11.0185
▁ବିମୁଦ୍ରାକରଣ	-11.0185
▁ସଜ୍ଜିକରଣ	-11.0185
▁ସ୍ମିତହାସ୍ୟ	-11.0185
▁VLC	-11.0185
▁ଉନ୍ନୟନ	-11.0185
▁କାର୍ଯ୍ୟକଳାପ	-11.0185
▁ନିମନ୍ତ୍ରଣ	-11.0185
▁ପାଆନ୍ତୁ	-11.0185
▁ଗାଳ୍ପିକ	-11.0185
▁ଲଳିତା	-11.0185
▁ସାମରିକ	-11.0185
▁ଧ୍ୱନୀ	-11.0185
▁ମଧ୍ୟପ୍ରଦେଶ	-11.0185
▁ଉତ୍ପନ୍ନ	-11.0185
▁ସଂପୃକ୍ତ	-11.0185
▁ଫିଟନେସ	-11.0185
▁ଧାର୍ଯ୍ୟ	-11.0186
▁କଳାହାଣ୍ଡି	-11.0186
▁watch	-11.0186
▁ପାଣ୍ଡବମାନ	-11.0186
spect	-11.0186
▁ଘୁଞ୍ଚାଅ	-11.0186
▁ସ୍ବରୂପ	-11.0186
▁ବୋଝ	-11.0187
▁ଚଳାଅ	-11.0187
▁ବ୍ୟାପାର	-11.0187
▁ପ୍ରତିରୋଧ	-11.0187
▁ସଫାକରନ୍ତୁ	-11.0187
▁sound	-11.0188
କ୍ଷେତ	-11.0188
▁ସ୍ୱରୂପ	-11.0188
anoj	-11.0189
ହାସ	-11.0189
▁ଅପମାନ	-11.019
ଠଠ	-11.0192
▁ଆଲୋକିତ	-11.0192
▁ଲିପି	-11.0193
▁dated	-11.0193
ରାଣୀ	-11.0194
▁ପୂର୍ବଦିଗ	-11.0196
▁ଦେଖୁଛନ୍ତି	-11.0196
▁ସୂଚନାଯୋଗ୍ୟ	-11.0197
▁ପିଲାଦିନ	-11.0199
▁ଆସିଗଲା	-11.0201
▁ସ୍ତନରୁ	-11.0202
▁ୟଦି	-11.0205
▁ହୋଇନଥିବା	-11.0209
▁ଗଣିତ	-11.021
▁ଦିଶୁ	-11.0212
▁Top	-11.0212
▁ବାଧା	-11.0215
▁ଜାଣିଥିଲେ	-11.0216
▁ଆବଶ୍ୟକୀୟ	-11.0216
ଲଗ୍	-11.0216
▁ଡ୍ରାଇଭ	-11.0218
▁ବ୍ରାହ୍ମଣ	-11.0218
▁KR	-11.0222
▁ବିଲୋପ	-11.0226
▁ଲେଖିଲେ	-11.0227
▁ମିଳୁ	-11.0227
ଥେ	-11.0229
▁ସଠିକ୍	-11.023
▁80	-11.023
▁ମାସିକ	-11.0233
ାରୀ	-11.0235
▁ହୋଇଯିବେ	-11.0235
▁44	-11.0236
▁ଛାଡିଲେ	-11.024
▁ମାଡ	-11.0241
▁ଦୁଃଖିତ	-11.0241
▁ଜୀବିତ	-11.0241
▁ସିଟ୍	-11.0244
cle	-11.0248
ଦର୍ଶନ	-11.0249
▁ବଂଚି	-11.025
ସତ	-11.0251
ରୂ	-11.0254
ଋ	-11.026
▁ସେକଣ୍ଡ	-11.026
ପର୍ଯ୍ୟ	-11.0264
ୟୁକ୍ତ	-11.0272
▁୭ଟି	-11.0278
▁୨୦୧୮ରେ	-11.028
▁ବଂଶ	-11.028
▁part	-11.0286
ପ୍ରାଚୀନ	-11.0287
sr	-11.0291
ଆଜ୍ଞା	-11.0292
▁ପଠାଇବାରେ	-11.0293
▁ଫ୍ରି	-11.0295
ହୋଇଥିବା	-11.0295
▁ମିଡିଆରେ	-11.0296
ali	-11.0297
▁ଅନଲାଇନ୍	-11.0299
▁ବାହ	-11.0299
ଦିଗର	-11.03
ିଗଲେ	-11.03
BC	-11.03
ସ୍ଵ	-11.0301
ୁଠ	-11.0304
LS	-11.0309
ବୃତ୍ତି	-11.0309
▁ସୁନ୍ଦରୀ	-11.0309
ମୁଖ୍ୟ	-11.0315
ରାଜ୍ୟ	-11.0317
ring	-11.0318
▁ଦିଲ୍ଲୀପ	-11.0323
▁ଚକ୍ର	-11.0327
ଯିବୁ	-11.0328
ବଜା	-11.033
▁ଆଦିବାସୀ	-11.033
▁ବିକଳ୍ପଗୁଡିକ	-11.0339
▁ବନ୍ଧନ	-11.0339
▁ନିମ୍ନରେ	-11.0342
୍ୟାପ	-11.0351
▁ବାଃ	-11.0351
ାଉଣ୍ଡ	-11.0353
ସ୍ବଚ୍ଛତା	-11.0354
mail	-11.0365
▁ବିଲରେ	-11.0369
▁ଦେଖେ	-11.037
59	-11.0376
▁ବାଣ୍ଡ	-11.0376
="	-11.0377
ଭୂ	-11.0381
▁ପରୀକ୍ଷାରେ	-11.0392
▁ଓ୍ଵ	-11.0396
▁ପ୍ରୋଟ	-11.0397
ନ୍ତରାଳ	-11.0402
IS	-11.0403
▁କରଜ	-11.0404
▁US	-11.0407
▁ଗଣମାଧ୍ୟମରେ	-11.0409
଼ା	-11.0414
ଡରେ	-11.0419
ସାଂ	-11.0426
▁sp	-11.0428
▁ଛାଡୁଛ	-11.0434
ାଧାର	-11.0435
▁ବୈ	-11.0437
ସିପ	-11.0446
▁ଠା	-11.0448
▁ଦିଆ	-11.0453
▁ଚେକ୍	-11.046
ିସ	-11.0467
▁ଗୁଡ଼	-11.0471
▁ଲୁଟ	-11.0479
▁Pri	-11.0506
ଶିଷ୍ଟ	-11.0519
ୱି	-11.0521
▁ଷୟ	-11.0533
ଖୁ	-11.0534
ିଁ	-11.0537
ଦୂର	-11.0538
ାଧିକାର	-11.0546
ary	-11.0551
ran	-11.0553
ଡ଼ୁ	-11.0555
▁ବଂଚ	-11.057
ହାତ	-11.057
▁ଡିଜିଟାଲ	-11.0582
▁ରିଲିଜ	-11.0582
▁ଟୋ	-11.0583
▁କ୍ୟାପ	-11.0583
ସୁଲ	-11.0586
▁2013	-11.0589
▁ବଲିଉଡ	-11.059
port	-11.0592
▁ଷ୍ଟାର	-11.0598
plasma	-11.0602
ultitran	-11.0602
▁2530008	-11.0602
▁91-674-	-11.0602
▁Downlode	-11.0602
▁Global	-11.0602
▁ODISHA	-11.0602
▁heading	-11.0602
▁points	-11.0602
▁sentence	-11.0602
▁shutdown	-11.0602
▁ଅଭିନନ୍ଦନ	-11.0602
▁ତାପମାତ୍ରା	-11.0602
▁ଦର୍ଶକ	-11.0602
▁ପରିବର୍ତ୍ତକ	-11.0602
▁ଫେରିପାଇଲେ	-11.0602
▁ମାତୃବାଣୀ	-11.0602
▁ସଂକଳ୍ପ	-11.0602
▁ସାମ୍ପ୍ରତିକ	-11.0602
▁after	-11.0602
▁ରଜାପୁଅ	-11.0602
▁ସଂକ୍ରାନ୍ତରେ	-11.0602
▁କ୍ଷତିକାରକ	-11.0602
▁ଖେଳାଳି	-11.0602
▁ପ୍ରତିଯୋଗୀ	-11.0602
ସିଗାରେଟ	-11.0602
▁ମନ୍ତବ୍ୟ	-11.0602
▁ପହଁଚି	-11.0602
▁CMS	-11.0602
▁ରାଜକୁମାର	-11.0602
▁ମାର୍ଚ	-11.0602
▁ଆଜିକାଲି	-11.0602
▁ଅଧିନିୟମ	-11.0602
▁ପାୱାର	-11.0602
▁ବିତରଣ	-11.0602
▁Continue	-11.0602
▁ବିଶ୍ଵାସ	-11.0603
▁ଧମକ	-11.0603
▁ଯଥାର୍ଥ	-11.0603
▁କିସ୍ତି	-11.0603
ଅତିଥି	-11.0603
▁ସ୍ବର୍ଗ	-11.0603
▁para	-11.0605
▁ଜେଲରେ	-11.0605
ସେକେଣ୍ଡ	-11.0605
▁ସମ୍ବନ୍ଧିତ	-11.0605
▁ସମ୍ପୂର୍ଣ	-11.0605
fast	-11.0606
ୋଜିନି	-11.0606
▁ଚାଲାଣ	-11.0606
out	-11.0607
▁ଚାହୁଁଥିବା	-11.0608
▁rum	-11.0609
▁କ୍ରୟ	-11.0609
▁ରାଜ୍ଯ	-11.061
▁2005	-11.061
▁ଭାବୁଛନ୍ତି	-11.0611
▁ସସ୍ମିତ	-11.0612
▁ମାଉସୀ	-11.0612
ower	-11.0613
▁ଡାଡ଼ି	-11.0615
▁୯୦୦୦	-11.0615
▁କରାଯାଇନାହିଁ	-11.0617
ନଟନ	-11.0617
▁ଉପଯୋଗୀ	-11.0618
▁ଯୁବତୀଙ୍କୁ	-11.0619
ପେଜ	-11.062
▁ଥୟ	-11.0622
▁ଆସିଥାଏ	-11.0622
▁NF	-11.0623
▁ଦେଲୁ	-11.0623
ସ୍ନେହା	-11.0623
▁ଆଳୁ	-11.0624
▁only	-11.0626
▁ଦେଖୁଛି	-11.0631
▁ମହାନତା	-11.0631
▁ଥୁ	-11.0634
▁ବଞ୍ଚିଛି	-11.0634
ଶ୍ରୟ	-11.0638
07	-11.064
▁ସେଟିଙ୍ଗ	-11.064
▁ଏସପି	-11.0641
▁ନଥିଲୁ	-11.0646
▁ଜ୍ୟୋତି	-11.0648
▁ଜିମ୍	-11.0651
▁Edit	-11.0652
▁ପକ୍ଷେ	-11.0652
▁Cha	-11.0656
ଚରଣ	-11.0664
▁system	-11.0664
▁ଡାଉନଲୋଡ୍	-11.0666
▁ପାଖରୁ	-11.0666
ick	-11.0669
▁ଗୁଗଲ	-11.067
ଶହ	-11.0683
▁ଅଭିନେତ୍ରୀଙ୍କୁ	-11.069
▁ପର୍ବତ	-11.0692
if	-11.0693
▁ଉପସ୍ଥିତି	-11.0695
ଲଲ	-11.07
▁ଲୁଣ	-11.0703
▁ସମସ୍ତଙ୍କର	-11.0709
ଉଷ	-11.0714
ାତ୍	-11.0723
▁ଲଢ଼ିବା	-11.0723
ଶ୍ରେଣୀ	-11.0724
ପ୍ରଚଳିତ	-11.0725
▁କୃତି	-11.0726
▁ଖୋଲିବାରେ	-11.0727
ବିଜେପି	-11.073
ସାଧାରଣ	-11.073
ଖରାପ	-11.0731
▁ୟଦ	-11.0732
ools	-11.0736
କରୁଅଛି	-11.0743
000/-	-11.0746
▁Other	-11.0747
ଛିନ୍ନ	-11.0752
riv	-11.0754
▁ବଧ	-11.0756
da	-11.0756
▁ମିନିଟରେ	-11.0758
▁୦୯	-11.0769
▁କଲେଜରେ	-11.077
କାଂ	-11.077
▁IR	-11.0772
ଞ୍ଜିତ	-11.0775
▁ବେକ	-11.078
▁ପ୍ରୟୋଗକୁ	-11.0786
▁am	-11.0787
ିମ	-11.0791
ରିୟ	-11.0796
▁ଗୃହରେ	-11.0802
ଦିନେ	-11.0802
▁ଅଥ	-11.0809
▁ଜବରଦସ୍ତ	-11.0811
ପ୍ପ	-11.0813
ଚ୍ଛା	-11.0828
side	-11.0837
ୀଭୂତ	-11.0846
▁All	-11.0849
ଦଂ	-11.0853
ାଉଛ	-11.0855
ହଂ	-11.086
▁ଚୁପ	-11.0863
ଙ୍କଠାରେ	-11.0864
ାତ୍ମକ	-11.087
▁୪୧	-11.0873
▁ଶିଶୁଙ୍କ	-11.0879
କ୍ଷମ	-11.0892
▁ଦଲିଲକୁ	-11.0896
ଭାଷ	-11.0914
▁ମାସରୁ	-11.0915
▁64	-11.0918
କିମ	-11.0931
▁୩୩	-11.0932
▁107	-11.0934
ome	-11.094
▁60	-11.094
ସମୂହ	-11.0945
▁ଫୋନରେ	-11.0958
▁ୟତ	-11.096
ମୁଖ	-11.0961
ପଡା	-11.0961
ସଂଗ	-11.0965
ମ୍ୟାନ	-11.0971
oot	-11.0974
▁ବାବଦ	-11.0979
▁ଚାଲିବାକୁ	-11.098
US	-11.0984
34	-11.0986
କୃ	-11.0987
▁ଥିଲୁ	-11.0988
ବୃ	-11.0989
▁ମୁଗ	-11.0997
ବ୍ର	-11.1003
▁ସେତେବେଳ	-11.1004
▁ନେଟ	-11.1004
▁ଆଜ	-11.1006
୍ୟୋ	-11.1007
▁06:	-11.1012
ଞ	-11.1014
(1)	-11.1017
▁ହୋଟେଲ	-11.1019
▁ଝି	-11.1019
▁ସାଧ	-11.1022
▁ମାଉସ	-11.1027
ambad	-11.1031
▁File	-11.1034
ଷ୍ଟି	-11.1035
▁ଚାନ୍ଦ	-11.1036
▁ଶୁଭେଚ୍ଛା	-11.1037
header	-11.1037
nvironment	-11.1037
sambalpuri	-11.1037
▁Blue	-11.1037
▁fluently	-11.1037
▁school	-11.1037
▁ଅଗ୍ନିକାଣ୍ଡ	-11.1037
▁ଅର୍ଜୁନ	-11.1037
▁ଅସନ୍ତୋଷ	-11.1037
▁ଅସ୍ପଷ୍ଟ	-11.1037
▁ଇଫଫଂକ	-11.1037
▁ଗଞ୍ଜାମ	-11.1037
▁ଘୂର୍ଣ୍ଣନ	-11.1037
▁ଘୂର୍ଣ୍ଣିବଳୟ	-11.1037
▁ତ୍ରିପାଠୀ	-11.1037
▁ନେତୃତ୍ୱ	-11.1037
▁ପଞ୍ଜିକୃତ	-11.1037
▁ପୂର୍ବାହ୍ନ	-11.1037
▁ପ୍ରେତ୍ୟକକ	-11.1037
▁ବ୍ରିଟିଶ	-11.1037
▁ମହାବାତ୍ୟା	-11.1037
▁ମହୁମାଛି	-11.1037
▁ସିଧାସଳଖ	-11.1037
▁ସୁପ୍ରିମକୋର୍ଟ	-11.1037
NEWS	-11.1037
▁22:35	-11.1037
▁ଅଦରକାରୀ	-11.1037
▁ଅଷ୍ଟ୍ରେଲିଆ	-11.1037
▁ନଚେତ୍	-11.1037
▁ପଙ୍ଖା	-11.1037
▁ପଞ୍ଜାବ	-11.1037
▁ଶିବାଜୀ	-11.1037
▁୧୯୯୩	-11.1037
▁ଚଞ୍ଚଳ	-11.1037
▁ନିହାତି	-11.1037
▁ନାଇଡୁ	-11.1037
▁ପାଇଥନ	-11.1037
କମଳେଶ	-11.1037
▁ଜରିଆରେ	-11.1037
▁ଅପ୍ରେଲ	-11.1037
▁ପ୍ରୀତି	-11.1037
▁ଦବେେ	-11.1037
▁ସର୍ବସାଧାରଣ	-11.1037
▁ଢାଙ୍କି	-11.1037
▁Union	-11.1037
ether	-11.1037
▁ସମ୍ବନ୍ଧୀୟ	-11.1037
▁sub	-11.1038
▁ଦିଆଗଲା	-11.1038
▁ଯିହୂଦୀମାନେ	-11.1038
▁life	-11.1038
▁ବୈଦ୍ୟ	-11.1039
▁ଅଭାବନୀୟ	-11.1039
▁ସୁଗମ	-11.1039
▁କାନ୍ଥ	-11.104
▁ହଲେଇ	-11.104
▁ନେଉଛି	-11.104
▁ଚାର୍ଜ	-11.1041
▁ସିଝା	-11.1041
▁ଘୂର	-11.1041
▁ଗୁଣ୍ଡା	-11.1041
▁ଘାଟନ	-11.1042
▁dead	-11.1042
▁ରାଧା	-11.1042
▁ୟିଏ	-11.1042
▁କ୍ରେଡିଟ୍	-11.1042
row	-11.1043
▁ମେୟର	-11.1043
ନାଶ	-11.1043
▁କରେନାହିଁ	-11.1044
▁ପୋର୍ଟ	-11.1045
▁ଖୋଲିପାରି	-11.1046
▁ରହୁଛି	-11.1046
▁ଫେରାର	-11.1047
▁ନାଲିପାନର	-11.1048
ସେକ୍ସ	-11.105
▁ଭଡ଼ା	-11.1052
▁ତାଲିକାରୁ	-11.1052
▁ବିଦ୍ୟୁତ୍	-11.1053
▁ଜଣାପଡ଼ି	-11.1054
ାଚର	-11.1056
▁ଜୋତା	-11.1057
ଦ୍ଦ	-11.1058
ଭଜା	-11.1058
▁ଜଣାନ୍ତୁ	-11.1059
▁ରଚନା	-11.106
▁ଖୁସିରେ	-11.106
▁କ୍ରିକେଟ୍	-11.1061
▁ୱିଣ୍ଡୋରେ	-11.1063
▁ଜାଣିଥିଲା	-11.1065
▁କରିପାରିଲେ	-11.1069
▁ପାଇଥିଲା	-11.107
▁links	-11.1071
ଏଇ	-11.1073
/2	-11.1074
ଲାଭ	-11.1077
ଶାହ	-11.1077
................	-11.1079
▁ସମୃଦ୍ଧ	-11.1087
ଶ୍ୟାମ	-11.1088
▁ୱାର୍ଡ	-11.1089
▁250	-11.109
▁ଆମଦାନି	-11.1092
ମୂଳକ	-11.1094
େୟାର	-11.1099
▁ଏହିଭଳି	-11.1101
ପାଖ	-11.1103
ୁଅଛି	-11.1107
▁Ex	-11.1107
▁ବଢିବା	-11.1107
▁ଦୈ	-11.1108
▁ଇଉ	-11.111
ର୍ଚ୍ଚ	-11.1111
eo	-11.1115
ଗୁଡ	-11.1124
▁ମାଙ୍କଡ	-11.1127
ଲିୟ	-11.1129
▁ପର୍ଯ୍ୟାୟରେ	-11.1129
▁ସୌନ୍ଦର୍ଯ୍ୟ	-11.1131
▁ନାନୀ	-11.1133
▁ଓଲିଉଡ	-11.1134
▁ବେଙ୍ଗ	-11.1135
▁August	-11.1145
▁start	-11.1145
▁ପଠାଇବାକୁ	-11.1147
ର୍ତ୍ତି	-11.1161
▁ସ୍କୁଲରେ	-11.1164
ସିଲାଣି	-11.1164
▁ଜାଣିବି	-11.1164
ତାଳ	-11.1168
▁ସଦସ୍ୟତା	-11.1172
ପାରୁନି	-11.1174
ନୁହେଁ	-11.1178
This	-11.1178
▁ପରିସରରେ	-11.1178
ମହିଳା	-11.1179
ଉତ୍ତର	-11.118
Odia	-11.1185
▁ଭୂମିକାରେ	-11.1186
ୁଚି	-11.1188
ମାୟା	-11.1191
▁ଫସ	-11.1192
ଆଠ	-11.1197
ାଜ	-11.12
▁view	-11.1201
▁ଲୁଚ	-11.1211
କେତେ	-11.1211
▁କଣିକା	-11.1213
ally	-11.1214
▁ବଦଳାଇବା	-11.1217
MA	-11.1225
ପାରିଲେ	-11.1229
▁ସଞ୍ଜ	-11.1235
ER	-11.1242
ଳାପ	-11.1243
ପାଣି	-11.1245
ating	-11.1255
ater	-11.1256
94	-11.126
▁du	-11.1267
▁49	-11.127
▁ଶୁଣା	-11.127
▁ଦୁର୍ନୀତି	-11.1281
ଲ୍ଡ	-11.1285
ୌନ	-11.1286
▁ବିଧାନସଭାରେ	-11.1292
ସେଇ	-11.1298
ୁତ	-11.13
ans	-11.132
▁କମ୍ପ	-11.1331
୦୧	-11.1358
ବର୍ଗ	-11.1361
୮୩	-11.1361
ଲେଟ	-11.1365
PR	-11.1371
ତୁମର	-11.138
PI	-11.1382
ium	-11.1382
ଖାନା	-11.1384
▁୧୯୯୯	-11.14
▁ear	-11.1407
▁ରଚ	-11.1412
▁ମାଲକାନଗିରି	-11.1412
▁ଅନୁଷ୍ଠାନ	-11.1413
ଞ୍ଚାରେ	-11.1417
ିହ	-11.1419
▁ଦେଵ	-11.1426
▁ଜାଣିପାରି	-11.1432
▁ଖାସ	-11.1433
▁କର୍ତ୍ତା	-11.1436
ୃତି	-11.1445
ପାରିବି	-11.1447
ାଳୀ	-11.1449
ଚଳା	-11.1452
▁ଦିଆଯାଇ	-11.1456
▁ଅଧିକାରୀଙ୍କ	-11.1462
▁ଗାଁର	-11.1465
▁asp	-11.1466
▁ଶ୍ରେଣୀର	-11.1469
▁ଧା	-11.1481
ପୂର୍ଣ	-11.1487
▁exp	-11.149
▁ରଘୁ	-11.1491
Screen	-11.1491
ମର୍ଯ୍ୟାଦା	-11.1491
Sidharth	-11.1491
▁Orissa	-11.1491
▁Quality	-11.1491
▁literature	-11.1491
▁ଅତିବାହିତ	-11.1491
▁ଏସବିଆଇ	-11.1491
▁କଂଟକେଟ	-11.1491
▁ଠିକିରିର	-11.1491
▁ନିରାପଦ	-11.1491
▁ପୁନଃନାମକରଣ	-11.1491
▁ବଲାଙ୍ଗିର	-11.1491
▁ବୈଷୟିକ	-11.1491
▁ମନପସନ୍ଦ	-11.1491
▁ଯୌତୁକ	-11.1491
▁ରାସାୟନିକ	-11.1491
▁ରେସନତଲାୱ	-11.1491
▁ସଙ୍ଗଠକ	-11.1491
WhatsApp	-11.1491
script	-11.1491
▁କୁହାଯାଇଥିଲା	-11.1491
▁ନିରିକ୍ଷକ	-11.1491
▁ପର୍ଯ୍ୟଟକ	-11.1491
▁Feb	-11.1491
▁{0}	-11.1491
▁ପଠେଇ	-11.1491
▁ଫ୍ୟାକ୍ସ	-11.1491
▁ସ୍ରୋତ	-11.1491
▁Bharat	-11.1491
Salary	-11.1491
▁ମୂର୍ଖ	-11.1491
▁ମେଲବାକ୍ସ	-11.1491
ଘୋଷିତ	-11.1491
▁ସଂଖ୍ୟକ	-11.1491
▁କରାଯ଼	-11.1491
▁ଅତୀତ	-11.1491
▁Xiaomi	-11.1491
▁ଅଭିବ୍ୟକ୍ତି	-11.1491
▁ଦୃଢ଼	-11.1492
▁room	-11.1492
▁ଲୁଚାନ୍ତୁ	-11.1492
▁ସୁନିଶ୍ଚିତ	-11.1492
▁ଧର୍ମେନ୍ଦ୍ର	-11.1492
▁ଟ୍ୟାଗ	-11.1493
▁Match	-11.1493
▁ଟ୍ରମ୍ପ	-11.1493
▁ସମୀକରଣ	-11.1493
▁ସେଲଫି	-11.1493
▁ରାଜ୍ୟସଭା	-11.1494
▁ନିଶ୍ୱାସ	-11.1494
▁2016).	-11.1494
▁ମିଳୁନାହିଁ	-11.1495
▁cgi	-11.1495
▁ଗୁମର	-11.1495
▁1947	-11.1496
▁କୋଇଲା	-11.1496
▁ଡେଇଁ	-11.1496
▁କଟକଣା	-11.1496
▁365	-11.1496
୨୫	-11.1496
▁ଯାଞ୍ଚକରନ୍ତୁ	-11.1497
afe	-11.1497
▁NameMeeting	-11.1497
▁ମାଗୁ	-11.1497
▁ଭାବନ୍ତୁ	-11.1497
▁modifi	-11.1497
▁ସମ୍ବଳ	-11.1498
▁ଆମ୍ଭମାନଙ୍କୁ	-11.1501
▁କବଳେ	-11.1501
▁ପାଠ୍ଯ	-11.1502
BAR	-11.1503
▁ଚକ୍ରାନ୍ତ	-11.1503
standard	-11.1503
▁ହୋଇନଥାଏ	-11.1505
▁ବନ୍ଦକରନ୍ତୁ	-11.1506
▁ହତ୍ୟାକାରୀ	-11.1506
▁ଦ୍ବା	-11.1506
▁କ୍ରିକେଟର	-11.1508
▁ଗ୍ୟାସ୍	-11.1509
▁ବତ୍ସ	-11.151
▁ଲଗେଇ	-11.1514
ାଉଥିବା	-11.1515
▁ହଟାଇ	-11.1516
▁223	-11.1517
ଶାଳା	-11.1519
▁ଦାବ	-11.1521
▁ଚଲାଇବା	-11.1523
▁ଦୁନିଆର	-11.1528
▁ଅସଲି	-11.153
▁ଖାଇବି	-11.1531
▁ପଦକ	-11.1533
▁ହୋ‍ଇଥି	-11.1533
06,	-11.1534
ସମ୍ପନ୍ନ	-11.1539
▁ଅଶ୍ୱ	-11.1539
▁(2.	-11.1542
▁ଅଞ୍ଚଳର	-11.1544
▁ଭିତ୍ତିରେ	-11.1548
87	-11.1552
▁ବିସ୍ଫୋରଣରେ	-11.1555
ଖ୍ୟା	-11.1557
▁ପୃ	-11.1558
iff	-11.1558
▁ସାରିଲେଣି	-11.1559
▁ନାଗପୁର	-11.1564
▁ପରିଡା	-11.1565
▁କରିସାରି	-11.1566
▁ବୋର୍ଡରେ	-11.1568
▁କେଉଁଠାରୁ	-11.1568
▁ଅନୁଷ୍ଠାନରେ	-11.157
▁401	-11.1574
alking	-11.158
▁ରୋକି	-11.1589
▁କହୁଥିଲ	-11.1591
▁En	-11.1594
ନ୍ତ୍ର	-11.1595
▁ଚେକ	-11.1597
▁ଭାଙ୍ଗ	-11.1604
୫୭	-11.1613
▁ଯୋଡ଼ି	-11.1614
400	-11.1617
748	-11.1618
▁book	-11.1621
▁ବୋର୍ଡ	-11.1622
get	-11.1622
▁ଫ୍ଲାଟ	-11.1627
▁ଦାଉଦ	-11.1628
କଥାଟିଏ	-11.1637
ିଫ୍	-11.1637
ଲୟ	-11.1643
▁ମୋହ	-11.1647
ହିନ୍ଦୀ	-11.1649
tag	-11.1651
ଆଚାର୍ଯ୍ୟ	-11.1652
ସେପ୍ଟେମ୍ବର	-11.1654
ଥାଇପାରେ	-11.1655
ଜାତୀୟ	-11.1657
ସୂର୍ଯ୍ୟ	-11.1659
୨୦୧୯	-11.1659
ଥିତ	-11.1661
ଞ୍ଜି	-11.1661
ପ୍ରତିଦିନ	-11.1662
ପାଠ	-11.1663
▁କୀଟ	-11.1667
▁ସମ୍ବିଧାନର	-11.1668
▁ପଢ଼ା	-11.1672
▁html	-11.1677
▁ବିଦ୍ରୋହ	-11.1678
▁ନଈ	-11.1679
ଭରି	-11.1686
ଲ୍ଲୀ	-11.1692
ଋଣ	-11.1695
▁ମଧୁର	-11.1698
by	-11.1701
▁ବନେଇ	-11.1701
▁sh	-11.1702
ଜ୍ଞାନ	-11.1706
▁ବାମକୁ	-11.171
▁ଘୋର	-11.1717
କାର୍ଯ୍ୟ	-11.172
୯୯	-11.1721
ଓହୋ	-11.1728
hara	-11.1736
▁ଅର୍ଥନୀତି	-11.1748
ଭାଷା	-11.1749
▁ଉପକରଣଗୁଡ଼ିକ	-11.1751
ଜାଣି	-11.1752
ଭୁତ	-11.1763
▁Bha	-11.1786
▁ଶୁଖ	-11.1796
▁ରଖିଛ	-11.1801
୍ଗ	-11.1802
▁ଥାଇପାରେ	-11.1804
▁ଦିଆଯାଉ	-11.1805
ଡାମ	-11.1805
▁ଫୋଟୋ	-11.1806
▁ସାଇଟ୍	-11.1812
▁ମହିଳାମାନଙ୍କୁ	-11.1813
▁Vo	-11.1815
▁ଜାଣିବ	-11.1816
ref	-11.1816
ଟିବ	-11.1818
▁ଭୀ	-11.1819
ହୁଏ	-11.1838
▁କ୍ରୋ	-11.1838
▁ସ୍ବର	-11.1841
aver	-11.1845
az	-11.1854
▁ସମ୍ଭାଳ	-11.1861
▁କେଉଁମାନଙ୍କ	-11.1862
୨୩	-11.1864
LE	-11.1865
▁କ୍ୟାମ୍ପସ	-11.1876
ୋରି	-11.1883
ିଯ	-11.1889
▁ବିରୁଦ୍ଧ	-11.1891
ାଧିକ	-11.1892
▁ଡଲାର	-11.1894
▁ବୁଲୁ	-11.1894
▁ତ୍ୱଚାର	-11.1896
▁ଇଣ୍ଡିଆନ	-11.1904
ନସ	-11.191
ିଆଲ	-11.1911
▁ଭାବୁ	-11.1912
76	-11.1913
▁ଖାତାକୁ	-11.192
ଉଠି	-11.192
▁ଛାତ୍ରଛାତ୍ରୀ	-11.1927
▁ସଲ	-11.1928
▁word	-11.1929
▁ବୁଝିପାର	-11.1931
▁ସାବ	-11.1936
ଯୋଗକୁ	-11.1937
▁ୱିଣ୍ଡୋର	-11.1937
ଭାଲ	-11.1937
ୋଟ	-11.1938
ାଇଥାଏ	-11.194
ାଇଛନ୍ତି	-11.1941
▁ଏକତ୍ର	-11.1945
00,	-11.1947
▁ଭିତର	-11.1948
▁ପାଖେ	-11.1949
୧୦୦	-11.1953
▁ସ୍କ୍ର	-11.1955
▁ଜାପାନ	-11.1957
ିଥିଲା	-11.1964
▁ନିଯୁକ୍ତ	-11.1965
direct	-11.1966
▁ସାଙ୍କେତିକ	-11.1967
▁Account	-11.1967
Prevention	-11.1967
ପାରଳାଖେମୁଣ୍ଡି	-11.1967
▁Junk	-11.1967
▁LongDayName	-11.1967
▁Open	-11.1967
▁border	-11.1967
▁containing	-11.1967
▁index	-11.1967
▁session	-11.1967
▁ଏଯାବତ	-11.1967
▁କାଳିପାନର	-11.1967
▁ଗାନ୍ଧୀ	-11.1967
▁ନାବାଳିକା	-11.1967
▁ନିର୍ଦ୍ଧାରଣ	-11.1967
▁ପାଣ୍ଡିଆନ	-11.1967
▁ପୀଲାତ	-11.1967
▁ପୁନରାବୃତ୍ତି	-11.1967
▁ପ୍ରତିଯୋଗିତା	-11.1967
▁ଫାରୂଶୀ	-11.1967
▁ବିଚ୍ଛିନ୍ନ	-11.1967
▁ରଣନୀତି	-11.1967
▁ସମାଲୋଚକ	-11.1967
▁ସରପଞ୍ଚ	-11.1967
▁ଗୁଜୁରା	-11.1967
▁ସ୍ବପ୍ନ	-11.1967
Khord	-11.1967
▁କ୍ୟାନସର	-11.1967
▁ସାଉଦି	-11.1967
▁ମରିଯାଇଛି	-11.1967
▁ଭାଉଜ	-11.1967
▁ମନିଷା	-11.1967
▁ଡିଜାଇନ	-11.1967
▁ହରିହର	-11.1967
▁enjoy	-11.1967
▁ଆମନ୍ତ୍ରଣ	-11.1967
▁ବିଜେତା	-11.1968
▁odia	-11.1968
ience	-11.1968
▁ଆସ୍ତେ	-11.1968
▁ଫ୍ୟାନ୍	-11.1968
▁shell	-11.1968
▁identi	-11.1968
▁ସଂପାଦ	-11.1968
▁week	-11.1968
▁ଟୀକା	-11.1968
▁ପଳେଇ	-11.1968
▁ଜେନେରାଲ	-11.1968
▁ଫେରିଆସି	-11.1968
▁ବଳିଷ୍ଠ	-11.1968
▁ଜଷ୍ଟିସ	-11.1969
▁ଅସ୍ୱୀକାର	-11.1969
▁କ୍ୟାଶେ	-11.1969
▁ଫାଟିଗଲା	-11.1969
▁ମସ୍ତକ	-11.197
▁ଗୁଞ୍ଜି	-11.197
▁ତାଲିକାଭୁକ୍ତ	-11.197
▁some	-11.197
▁ଜୈବିକ	-11.197
▁ସୁଦୂର	-11.197
▁ନେଉଛନ୍ତି	-11.197
▁ପ୍ଲାଜମା	-11.1971
▁କର୍କଟ	-11.1971
▁Power	-11.1971
▁ନିଗମ	-11.1971
▁ଶିଖନ୍ତୁ	-11.1972
Security	-11.1972
▁ମୂଳସ୍ଥାନ	-11.1972
ୋଳି	-11.1973
▁ଗଡ	-11.1973
▁Date	-11.1973
▁ପ୍ରଭେଦ	-11.1974
▁ସିଷ୍ଟମ	-11.1974
▁ରଖା	-11.1974
▁ପଶୁମାନଙ୍କୁ	-11.1975
▁ଦେଉଛନ୍ତି	-11.1976
▁ବୋନସ୍	-11.1978
▁୨୦୦୩	-11.1978
pati	-11.198
▁ବିପତ୍ତି	-11.198
▁ବିଭକ୍ତ	-11.198
ତିତଲି	-11.1981
▁50%	-11.1981
▁ଆଗୁଆ	-11.1982
▁କଏନ୍	-11.1984
ଲଙ୍କା	-11.1984
▁ଡ୍ୟାନ୍ସ	-11.1985
▁Far	-11.1986
୧୯୧୪	-11.1986
▁ପୋଡି	-11.1987
12-20	-11.1987
ଟକ	-11.1991
▁Experiments	-11.1991
▁ଜାଗ	-11.1992
▁ବସ୍ତୁଗୁଡ଼ିକୁ	-11.1993
▁ଏକମାତ୍ର	-11.1994
▁[2]	-11.1994
▁ପର୍ଯ	-11.1995
▁ହେଉନାହିଁ	-11.2002
▁States	-11.2003
▁କରିପାରେନା	-11.2005
▁ମେଳକ	-11.2007
hā	-11.2008
Pr	-11.201
▁ଡାକିଲେ	-11.201
▁ବିନୟ	-11.2012
70	-11.2013
୧୯୬୫	-11.2018
je	-11.2018
▁ସମାପ୍ତି	-11.2019
▁..”	-11.202
▁ବଚନ	-11.202
▁550	-11.2023
site	-11.2028
▁ଆଲୋଚ	-11.2029
▁ହସିଲେ	-11.2031
▁ତାମିଲ	-11.2032
▁ଦେଇଥିବା	-11.2033
ik	-11.2034
▁ଓଃ	-11.2035
▁dis	-11.2035
▁ମିଳିଲାନି	-11.2037
▁ପୁଲିସ୍	-11.2047
▁ପ୍ଲଗ	-11.2052
▁କାଲିକି	-11.2057
ଉଛୁ	-11.2063
▁ଚିଦାମ୍ବରମ	-11.2066
▁ହଇରେ	-11.2073
▁କର୍ମଚାରୀଙ୍କ	-11.2073
ର୍ଜନ	-11.2082
ିଲସ	-11.2083
ିପାରିବେ	-11.2085
▁ଧୈର୍ଯ୍ୟ	-11.2087
▁ଛକ	-11.2087
ବୁଝିଲ	-11.2096
▁ସମଯ	-11.2098
▁ଧନ୍ଯ	-11.21
table	-11.2107
▁ମିଳିବନି	-11.2109
▁କଲେଣି	-11.2116
ଚଳ	-11.2119
▁ବଣ୍ଟନ	-11.2119
ଜାନ	-11.2124
▁ଜାତ	-11.2126
ଦୋ	-11.2127
BA	-11.2128
ତ୍ତ୍ୱ	-11.2132
ଚାଳକ	-11.2136
▁TO	-11.2136
▁giv	-11.2137
▁ଭିଜି	-11.2138
ନାରାୟଣ	-11.2154
ହଜାର	-11.2156
ଦେଖିଲେ	-11.2158
ଗୃହ	-11.216
ଐ	-11.2162
ନଥାନ୍ତା	-11.2167
ଭଲ	-11.2169
ବିବାହ	-11.217
ୋଡ	-11.2171
▁ସ୍କୁଲରୁ	-11.2175
ଗୁଆ	-11.2176
▁ଧନ୍ୟ	-11.2177
▁ମହାପାତ୍ରଙ୍କ	-11.2182
iti	-11.2183
▁76	-11.2187
ଙ୍ଗେ	-11.2198
ଆଦାର	-11.22
▁ଭାଇରସ	-11.2204
୍ୟଂ	-11.2208
bar	-11.2213
▁ବଟନକୁ	-11.2214
AM	-11.2231
▁ବାଳକ	-11.2235
ଶୋ	-11.2248
▁ଲୁଟି	-11.2255
▁।“	-11.2267
▁ST	-11.2269
▁କଟକରେ	-11.2271
କ୍ଷି	-11.2272
▁ବୋର୍	-11.2274
▁ଢଳ	-11.2275
େକ୍ଟର	-11.2277
ିଥିବା	-11.2282
▁ଫଳକ	-11.2284
▁ଖୋଜୁ	-11.2287
▁ଦୌଡ	-11.2291
▁ଯ଼	-11.2294
atter	-11.2294
ାବଳୀ	-11.2294
▁ଲୁହା	-11.2297
▁ଫ୍ରିଜ	-11.2298
▁ହିନ୍ଦୀ	-11.2303
ପୁରୀ	-11.2306
ପାରୁନାହାନ୍ତି	-11.2313
Aga	-11.2314
ଲୋମ	-11.2321
▁ବୋଲ	-11.2327
▁Ju	-11.2327
ନଦୀ	-11.2334
ପାଲ	-11.2336
ଲଜ୍	-11.2339
▁ପ୍ରାପ୍ତି	-11.2343
େଁ	-11.2354
ସେଣ୍ଟ	-11.2364
▁୪୨	-11.2365
04	-11.2376
୭୯	-11.238
ରୁଛ	-11.2387
▁କାଟ	-11.2395
ମନ୍ତ	-11.2398
▁ସ୍ୱାଧୀନତା	-11.24
▁କରିପାରୁ	-11.2403
ସ୍ପ	-11.2403
ଡକ	-11.2406
▁୬ଟା	-11.2424
▁link	-11.2428
▁୧୫୦	-11.2428
ରିଟ	-11.2438
ସାରା	-11.2439
ହଳ	-11.2445
▁ଯୋଗୀଙ୍କ	-11.245
କଳକ	-11.2452
▁ଯବାନଙ୍କ	-11.2456
ଶ୍ୱାସ	-11.2459
▁ଦେଇପାରିବ	-11.246
▁ବିସ୍ତାର	-11.2462
▁ଦୁଃସାହସ	-11.2463
▁ଆମ୍ଭମାନଙ୍କ	-11.2464
▁fr	-11.2465
example	-11.2466
▁ଉଇକି	-11.2467
reference	-11.2467
▁birth	-11.2467
107621	-11.2467
hrough	-11.2467
toolbar	-11.2467
ୟାରବିଯାମ	-11.2467
▁Android	-11.2467
▁Excel	-11.2467
▁Health	-11.2467
▁category	-11.2467
▁mobile	-11.2467
▁translation	-11.2467
▁ଅରବିନ୍ଦ	-11.2467
▁ଅଶୁଦ୍ଧ	-11.2467
▁ଆନ୍ତର୍ଜାତିକ	-11.2467
▁କାଶ୍ମୀର	-11.2467
▁ଚେନ୍ନାଇ	-11.2467
▁ଜାନୁଆରି	-11.2467
▁ଡଲଫିନ	-11.2467
▁ତକ୍ସ୍ଟମ୍ଭ	-11.2467
▁ନବଲିଖନ	-11.2467
▁ନିରୀକ୍ଷଣ	-11.2467
▁ପରିବର୍ତ୍ତେ	-11.2467
▁ପ୍ରତାରଣା	-11.2467
▁ଫ୍ୟାମିଲି	-11.2467
▁ସୈନିକ	-11.2467
▁Font	-11.2467
▁ଡିଭାଇସ୍	-11.2467
▁ସ୍ବୀକାର	-11.2467
▁hope	-11.2467
▁ଈଶ୍ଵର	-11.2467
▁ସମୁଦି	-11.2467
▁ଗଠିତ	-11.2467
ଲାବଣ୍ୟ	-11.2467
▁ଅଦାଲତ	-11.2467
▁ଆୱାଲ	-11.2467
ହ୍ୟାଲୋ	-11.2467
▁ଢୋଲ	-11.2467
ଶେଖର	-11.2467
▁ତୃଣମୂଳ	-11.2467
▁ତନଖି	-11.2467
▁ସଂଖ୍ଯାତ୍ମକ	-11.2467
▁ଆକବର	-11.2467
▁ସେବାୟତ	-11.2468
▁ଦବେି	-11.2468
▁children	-11.2468
▁shall	-11.2468
▁ଡାଉନ୍	-11.2468
▁କୃପା	-11.2468
▁ନିଶ୍ଚେ	-11.2468
▁kill	-11.2468
▁ଭାଷଣ	-11.2469
▁what	-11.2469
▁ଘନିଷ୍ଠ	-11.2469
▁ଛାଯା	-11.2469
▁ପେନସନ	-11.247
ମାଳିକା	-11.247
▁ଜଣାପଡିଛି	-11.247
▁ରାଜସ୍ୱ	-11.247
▁ହସିଦେଇ	-11.247
▁ମହାନଦୀ	-11.2471
▁ଘାତକ	-11.2471
▁ଲେଖୁଛି	-11.2471
▁ଶାଶୁ	-11.2471
▁ବିଷଯ	-11.2472
▁ମେହ୍	-11.2473
▁ଚୀନର	-11.2473
▁ଅସୁସ୍ଥତା	-11.2473
olor	-11.2473
▁କାନ୍ଧ	-11.2474
▁ବଞ୍ଚେଇବା	-11.2474
▁ପାଢୀ	-11.2475
▁ଠୋ	-11.2475
▁ପ୍ରବଣ	-11.2475
▁ଅଭିଗମ୍ୟତା	-11.2476
▁ଗୁଳି	-11.2476
▁କରୁନାହାନ୍ତି	-11.2477
▁ଅକ୍ଷମତା	-11.2478
▁ମିଶା	-11.2479
ସ୍ତୋତ୍ରମ୍	-11.2479
▁୨୦୧୦	-11.248
▁ଡାକୁଛି	-11.248
▁ସାକ୍ଷୀ	-11.248
▁ଅଦୃଶ୍ୟ	-11.2481
କ୍ରମେ	-11.2481
▁year	-11.2481
▁ଚିଡିପାନର	-11.2481
▁କର୍ମୀଙ୍କୁ	-11.2484
▁ଆୟୋଗ	-11.2484
▁ବଢିଛି	-11.2484
▁mah	-11.2486
▁ଯାଇଅଛି	-11.2486
▁ବାସ୍ତୁ	-11.2487
▁ଗଭୀରତା	-11.2487
▁Sep	-11.2487
ଥୋ	-11.2487
▁ଆୟତ	-11.2488
▁ପ୍ୟାକ୍	-11.2488
▁ଜାଣିପାରିବେ	-11.2489
ଭୂତି	-11.2491
ିଯିବେ	-11.2491
▁See	-11.2492
▁visit	-11.2492
▁1.5	-11.2493
▁ନଇେ	-11.2495
▁live	-11.2496
▁ବହନ	-11.2498
▁ଦୁଇଜଣ	-11.2499
▁ବ୍ୟବଧାନରେ	-11.2502
▁ଚାହିଁବେ	-11.2502
▁ଅର୍ଥାତ୍	-11.2509
▁OS	-11.251
▁ଟାଇପ୍	-11.2511
▁ବଞ୍ଚିବେ	-11.2513
▁ସଂସ୍କୃତ	-11.2514
▁କାହାନ୍ତି	-11.2515
▁ଆଜିଠୁ	-11.2516
୩୧	-11.2516
▁ଦେଖିବୁ	-11.2519
▁ଫେରାଇବ	-11.252
▁ବେଳେବେଳେ	-11.2523
▁ମାଆଙ୍କୁ	-11.2526
▁world	-11.2526
▁ବୃଦ୍ଧା	-11.253
Students	-11.2532
▁ବାୟୁ	-11.2537
▁ନିଷେଧ	-11.2543
▁True	-11.2543
▁କାର୍ଯ୍ଯସ୍ଥଳ	-11.2543
ଫେୟାର	-11.2547
ମଦର	-11.2548
▁କପିଲ	-11.2551
ଇଛି	-11.2551
apu	-11.2555
▁କରୁନ	-11.2558
ାଣ୍ଡି	-11.2559
▁ଯୋଗୁ	-11.2559
ଲ୍‍	-11.2565
▁କ୍ୟାମ୍ପ	-11.2565
▁ବୁଦ୍ଧ	-11.2566
▁ଦୁଃଖୀ	-11.2571
▁୨୬ରୁ	-11.2572
▁ସମ୍ପୂର୍ଣ୍ଣତା	-11.2573
▁ସାହା	-11.2573
▁ଗ୍ରନ୍ଥରେ	-11.2575
ଯାଉଥିବା	-11.2578
▁ଖୋଲ	-11.258
ax	-11.258
▁ପ୍ରକଳ୍ପର	-11.2581
ym	-11.2585
▁ଅଧୀ	-11.2585
▁5%	-11.2588
▁ସଂଯୋଗକୁ	-11.2589
▁୧୯୫	-11.2599
▁windows	-11.2601
ଗନ୍ଧା	-11.2608
▁query	-11.261
▁ନବୀନଙ୍କୁ	-11.2614
▁ସଂଲଗ୍ନକକୁ	-11.2617
▁ଭୋଟର	-11.262
▁କପାଳ	-11.2623
▁କାର୍ଡ଼	-11.2625
▁ବିଷୟବସ୍ତୁକୁ	-11.2632
did	-11.2634
ଛାଇ	-11.2639
ଠୁଁ	-11.2643
▁ଅଭିଲେଖକୁ	-11.2646
ଷ୍ଟ୍ରି	-11.2646
▁କଫି	-11.2654
▁ଫେରିଲା	-11.266
ଗଲୁ	-11.2675
▁ବାହିନୀ	-11.2678
▁Con	-11.2679
ize	-11.2679
language	-11.2679
ସମ୍ପୂର୍ଣ୍ଣ	-11.2682
ସ୍ୱାମୀ	-11.2683
େନ୍ସ	-11.2686
ତାରିଖ	-11.2686
▁ପୂର୍ତ୍ତ	-11.2692
▁ଗେଟ	-11.2692
▁(+	-11.2699
▁si	-11.27
▁ସଂରଚନାକୁ	-11.2701
ନିୟମ	-11.2706
ଛଡା	-11.2711
ପର୍ବ	-11.2713
ଙ୍ଗି	-11.2715
ହେଁ	-11.2722
ଏହାଦ୍ୱାରା	-11.2731
▁ଓରଫ	-11.2734
;&	-11.2734
ାଧିକାରୀ	-11.2741
▁ଅଧମ	-11.2761
୫୯	-11.2761
ାର୍ଟ	-11.2762
▁ଶୁଣାଇ	-11.2762
ସୂ	-11.2762
ବାଟ	-11.2765
▁ମନ୍ଦିରରେ	-11.2766
▁ଷ୍ଟୋର	-11.2766
▁ଛିଡା	-11.2772
▁ମୁହଁରୁ	-11.2782
ୟବ	-11.2786
▁ସନ୍ଦେଶଟି	-11.2793
ଏଡ଼	-11.2793
▁ପରିମାଣର	-11.2802
ସାତ	-11.2806
Disc	-11.2812
ବିଲେଇ	-11.2822
ode	-11.2824
▁ମଝିରେ	-11.2836
ଗୀତ	-11.2848
କେଟ୍	-11.2856
ଶୁଣି	-11.2863
▁ସାମ୍ନା	-11.2865
ଉଠ	-11.2867
▁ସଲାମ	-11.2871
ଧରା	-11.2879
ମ୍ବୋ	-11.2881
▁ବଢ଼ିବ	-11.2881
ସମାବେଶରେ	-11.2882
▁ବାହାରୁ	-11.2882
▁ଫ୍ଲା	-11.2885
▁age	-11.2896
▁ମହାରାଜଙ୍କ	-11.2897
ଗାଡ଼ି	-11.2897
▁Pe	-11.291
ଫଳା	-11.2914
TV	-11.2916
▁ଶୈଳ	-11.2925
▁କାଚ	-11.2933
ଭୁଜ	-11.2936
▁ଭୁବନେଶ୍ୱରରେ	-11.294
▁ନ୍ୟୁଜ୍	-11.2944
▁ୱିଣ୍ଡୋକୁ	-11.2951
▁State	-11.2955
▁ଆକର୍ଷ	-11.2958
▁lo	-11.296
ଜ୍ୟ	-11.2965
TO	-11.2968
ନ୍ତର୍ଗତ	-11.2973
▁ବିଦ୍ୟୁତ	-11.2974
୭୭	-11.2975
▁ଗ୍ୟାସ	-11.2977
▁କ୍ଲା	-11.2978
▁ଭାବିବ	-11.2983
▁ବିଶ୍ବ	-11.2983
▁ଜଣଙ୍କର	-11.2986
▁କମ୍ପୁଟର	-11.2988
Calendar	-11.2989
ଭେନ	-11.2989
ten	-11.299
▁ସ୍ମିତା	-11.299
▁ଝା	-11.2991
▁ସୁନ	-11.2992
▁ଗ୍ରୀଷ୍ମ	-11.2994
astotra	-11.2994
body	-11.2994
ଖବରକାଗଜ	-11.2994
ଦ୍ରଷ୍ଟବ୍ୟ	-11.2994
▁+91-11-41582228	-11.2994
▁Artist	-11.2994
▁Emoticons	-11.2994
▁Management	-11.2994
▁ShortDayName	-11.2994
▁behavior	-11.2994
▁bride	-11.2994
▁piece	-11.2994
▁thought	-11.2994
▁ଅବହେଳା	-11.2994
▁ଆନ୍ତର୍ଜାତୀୟ	-11.2994
▁ଆହ୍ୱାନ	-11.2994
▁ଜଳସେଚନ	-11.2994
▁ଦୁଃଶାସନ	-11.2994
▁ପାରମ୍ପରିକ	-11.2994
▁ପୁନରୁଦ୍ଧାର	-11.2994
▁ରସଗୋଲା	-11.2994
▁ରିଚାର୍ଜ	-11.2994
added	-11.2994
ଥାଆନ୍ତୁ	-11.2994
▁NKC	-11.2994
▁account	-11.2994
▁phone	-11.2994
▁ସମୁଦାୟ	-11.2994
▁ବୋତଲ	-11.2994
▁ଶିଷ୍ଯମାନ	-11.2994
▁ସମବାୟ	-11.2994
▁ରାତ୍ରି	-11.2994
▁ଅଶୋକ	-11.2994
▁ମେକାପ	-11.2994
▁କୋମଳ	-11.2994
▁ଜଡ଼ିତ	-11.2994
▁ଚିଲିକା	-11.2994
ଥେରାପି	-11.2994
▁ଶୋଷଣ	-11.2994
▁ମଉସା	-11.2994
▁ଶାରଳା	-11.2994
▁ଧୂଳି	-11.2994
▁ଟେବୁଲ	-11.2994
ଶିକ୍ଷିତ	-11.2994
ପର୍ଣ୍ଣା	-11.2994
burn	-11.2994
saha	-11.2994
▁ଶିଷ୍ୟ	-11.2994
▁ଡିଜେଲ	-11.2994
▁ଖର୍ଚ	-11.2994
▁ପିଟାଲ୍	-11.2994
▁ସୂତାର	-11.2994
▁କ୍ଲାଏଣ୍ଟ	-11.2994
Year	-11.2994
▁ସର୍ତ୍ତାବଳୀ	-11.2994
▁ଜନସଂଖ୍ୟା	-11.2994
▁resolution	-11.2994
▁term	-11.2994
▁ସାଆନ୍ତାଣୀ	-11.2994
ସହସ୍ରନାମ	-11.2994
▁ଦୃଷ୍ଟିଶକ୍ତି	-11.2994
▁ନକ୍ସଲ	-11.2994
୭୮	-11.2994
▁Must	-11.2994
▁ଅନୁଭୂତି	-11.2995
ଙ୍କଳକ	-11.2995
▁ସମଷ୍ଟି	-11.2995
3,8	-11.2995
▁ନିଶ୍ଚିତରୂପେ	-11.2995
ଘ୍ନ	-11.2995
▁examples	-11.2995
▁ଟ୍ୱିଟ୍	-11.2995
ward	-11.2995
▁ପାରୁନଥିବା	-11.2996
▁Love	-11.2996
ଯାଆନ୍ତି	-11.2996
▁ବଜାୟ	-11.2996
display	-11.2996
▁ନବଜାତ	-11.2996
▁ରଖାଯାଇଛି	-11.2997
▁ଦୀପିକା	-11.2997
▁ଚର୍ଚ୍ଚିତ	-11.2997
▁୧୯୮୩	-11.2997
▁ଅବଗତ	-11.2999
▁ଇଂଟର	-11.2999
▁ବ୍ୟକ୍ତିତ୍ବ	-11.2999
▁ସମକାଳିତ	-11.2999
▁ପ୍ରତିଶୋଧ	-11.3
▁ପରିଦର୍ଶନ	-11.3
▁ପରିବର୍ତନ	-11.3001
▁ପରିଶୋଧ	-11.3001
▁Card	-11.3001
▁ଖାଲିକରିବା	-11.3001
▁ଉପଦେଶ	-11.3001
▁ଛୁଇଁଛି	-11.3001
▁ଲୋକପ୍ରିୟତା	-11.3002
▁ପଟିକୁ	-11.3002
▁ଠାବ	-11.3003
▁ଲଭ୍	-11.3003
ଚାଇନା	-11.3004
▁ଏତିକିବେଳେ	-11.3006
▁ଯେପର୍ଯ୍ୟନ୍ତ	-11.3006
subhransu	-11.301
ଲାଗି	-11.301
▁ରଖିଥିଲେ	-11.3011
▁ରଦ୍ଦ	-11.3017
lk	-11.3018
▁ପ୍ରମାଣିତ	-11.3019
ଧୀ	-11.302
▁ବୁକ୍	-11.3022
କ୍ଟର	-11.3023
କର୍ଣ୍ଣି	-11.3024
▁ଅଡିଓ	-11.3025
ୂଳ	-11.3025
ଆଡ଼କୁ	-11.3026
▁ଡେରା	-11.3027
ଫେର	-11.3027
=0	-11.3027
work	-11.3028
March	-11.3028
▁ପାଉଛନ୍ତି	-11.3032
▁ଏଇଆ	-11.3033
▁ବିକଳ୍ପଗୁଡ଼ିକ	-11.3034
ଚଣା	-11.3037
ାଇଥିଲେ	-11.3037
▁ବ୍ରହ୍ମା	-11.3041
▁ଦେଇଥିଲା	-11.3042
▁ପତ୍ନୀଙ୍କୁ	-11.3047
▁ବୁଡି	-11.3048
ଟଣା	-11.3048
▁କପଡା	-11.3051
ାନ୍ଧି	-11.3056
▁କରିଦେଲା	-11.3057
▁ଗ୍ରାହକଙ୍କୁ	-11.3058
▁ଅଜିତ	-11.3062
▁ପକେଟ	-11.3066
GB	-11.3068
▁Institute	-11.3073
▁ଦାସୀ	-11.3078
▁ବାବୁଙ୍କୁ	-11.309
▁ଦେଖାଯିବ	-11.3098
van	-11.31
▁ପ୍ରବନ୍ଧ	-11.3105
ହସନ	-11.311
▁ଆଜିଠାରୁ	-11.3113
▁ସଜାଇ	-11.3116
ଷ୍ଟାର	-11.3117
▁ଘୁରି	-11.3125
▁ଶିଶୁଟି	-11.3126
▁ସ୍ଥାନଟି	-11.3131
ଲକ୍ଷ୍ମୀ	-11.3133
▁ମାଷ୍ଟର୍	-11.3134
▁୯ଟି	-11.3137
▁ଓଭର	-11.3139
lus	-11.3142
SA	-11.3143
cation	-11.3145
User	-11.3153
▁ନିଉ	-11.3154
▁ବୁଢୀକୁ	-11.3163
▁tom	-11.3167
ଣ୍ତ	-11.317
MC	-11.3174
▁କଲମ	-11.3176
▁ଜଣଙ୍କୁ	-11.3178
▁ମାଧବ	-11.3181
▁135	-11.3192
▁ପୂର୍ବକ	-11.3195
▁ଚଳାଇ	-11.32
▁ଫରେି	-11.3202
▁ଇନ୍ଦ୍ର	-11.321
hot	-11.3212
ପ୍ରେମୀ	-11.3231
କାଶ	-11.3233
ଭ୍ୟା	-11.3234
ସାଂସଦ	-11.3234
୨୦୦୫	-11.3235
ଓଡିଶା	-11.3235
ପ୍ରଭୁ	-11.3235
୨୦୦୯	-11.3235
ଉଦାହରଣ	-11.3236
card	-11.3239
ଭୋଗ	-11.324
ବନ୍ୟା	-11.3242
ସୁନ୍ଦର	-11.3243
ark	-11.3247
ଏମିତି	-11.325
▁ଅନ୍ଧାର	-11.3253
)—	-11.3257
▁କେୟାର	-11.3259
▁କଳଙ୍କ	-11.3259
▁59	-11.326
ହେଉ	-11.3262
▁ଅଧିବେଶନରେ	-11.3269
:31	-11.3269
ବ୍ଦ	-11.3275
ାଇଟ୍	-11.3283
ୟୀ	-11.3289
ସଂଘ	-11.3291
▁ସପ୍ତ	-11.3292
ଡିଏମ୍	-11.3293
▁ଜାଗାରେ	-11.3298
▁ସାମିଲ୍	-11.3306
ିଯାଏ	-11.3321
put	-11.3322
cm	-11.3326
▁ରହସ୍ୟମୟ	-11.3328
ସେମାନେ	-11.3333
▁ନଈର	-11.334
▁ଗୁଣା	-11.334
ଜୀବନ	-11.3344
▁କ୍ଷତ	-11.335
▁ଦୁର	-11.335
କେନ	-11.335
ାତ୍ମ	-11.3356
▁DIS	-11.3357
▁ହୃଦୟରେ	-11.3359
ୀୟମାନଙ୍କ	-11.3361
▁ବାହାରିବା	-11.3365
ବଙ୍ଗ	-11.3369
ତଳା	-11.3378
▁ଆମ୍ବ	-11.3385
▁clo	-11.3391
▁ବତ	-11.3397
▁800	-11.3399
ike	-11.3401
▁ଲାଗିଥିବ	-11.3402
▁କଭରେଜ୍	-11.3403
▁ମନୁଷ୍ଯ	-11.3406
▁ବୃତ୍ତି	-11.3407
କ୍ୟୁ	-11.3407
ମ୍ୱର	-11.3413
ଶତ	-11.3413
iv	-11.3416
▁ମାଷ୍ଟର	-11.3425
▁ଉପକରଣଗୁଡିକ	-11.3428
.............	-11.3435
୮୭	-11.3439
▁ସମାଜରେ	-11.3446
▁ଗଧ	-11.3447
▁ମୋବାଇଲରେ	-11.3447
େଇବ	-11.3449
▁ବଳରେ	-11.3456
▁ଅବତାର	-11.3459
ିଅର	-11.3468
▁string	-11.3471
▁ବିସ୍ଫୋରଣ	-11.3471
▁ବ୍ରାଉଜ	-11.348
୍ୱର	-11.3484
ଜମ	-11.3494
୨୬	-11.3497
ହୂ	-11.3503
▁କାଟିବା	-11.3503
▁ଅନୁପସ୍ଥିତ	-11.351
▁ଏମାନଙ୍କର	-11.3511
▁ପ୍ରଶଂସ	-11.3511
▁ସମକାଳ	-11.3523
822	-11.3524
▁ଶିଖା	-11.3528
▁North	-11.353
axi	-11.3533
▁ଟୁଇଟ	-11.3535
ative	-11.3541
▁ଧୀର	-11.3542
କାଉଣ୍ଟ	-11.3543
▁reg	-11.3547
▁ପାଲଟି	-11.3547
back	-11.3549
▁ଆନ୍ଧ୍ର	-11.3549
🙏	-11.3549
xternal	-11.3549
ଲାଞ୍ଜିଗଡ଼	-11.3549
ାଶିଂଟନ	-11.3549
▁1996).	-11.3549
▁January	-11.3549
▁Koha	-11.3549
▁Linux	-11.3549
▁October	-11.3549
▁Point	-11.3549
▁[21:2	-11.3549
▁progress	-11.3549
▁ଅତ୍ୟାଚାର	-11.3549
▁ଅପରିବର୍ତ୍ତନୀୟ	-11.3549
▁ଅସମ୍ମାନ	-11.3549
▁ଅହଙ୍କାର	-11.3549
▁ଆଧ୍ୟାତ୍ମିକ	-11.3549
▁ଆପ୍ଲିକେସନ	-11.3549
▁ଆବିଷ୍କାର	-11.3549
▁ଗଣଦୁଷ୍କର୍ମ	-11.3549
▁ନିଖୋଜ	-11.3549
▁ପୋଟାଇଁଟାଲ	-11.3549
▁ଫ୍ରେଞ୍ଚ	-11.3549
▁ବିକଶିତ	-11.3549
▁ବେସରକାରୀ	-11.3549
▁ବୟଫ୍ରେଣ୍ଡ	-11.3549
▁ଭୂଗୋଳ	-11.3549
▁ସୀମିତ	-11.3549
ATION	-11.3549
ffect	-11.3549
କଶ୍ମୀର	-11.3549
▁Server	-11.3549
▁ଉପାସନା	-11.3549
▁ଚଲାଇ	-11.3549
▁ଡାଇରେକ୍ଟ	-11.3549
▁ଦମଦାର	-11.3549
▁banda	-11.3549
Chinese	-11.3549
▁translate	-11.3549
▁କରିଥୁଲେ	-11.3549
folder	-11.3549
▁7:30	-11.3549
▁CJK	-11.3549
▁ଜମ୍ମୁ	-11.3549
▁ନିରୂପଣ	-11.3549
redhat	-11.3549
ଅଧିନାୟକ	-11.3549
▁ପ୍ରୋଫାଇଲ	-11.3549
▁ମାରାତ୍ମକ	-11.3549
▁open	-11.3549
▁ଘେନି	-11.3549
▁ସୋପାନ	-11.3549
▁education	-11.3549
▁କୁକୁଡା	-11.3549
▁ପହଁରା	-11.355
▁even	-11.355
ପଚାଶ	-11.355
▁ନାମପଟି	-11.355
▁ପଚିଶ	-11.355
▁full	-11.355
▁share	-11.355
ଆଇସିସି	-11.355
▁ସାହାର୍ଯ୍ୟ	-11.355
anAm	-11.355
▁ନିର୍ଗମ	-11.355
▁ପ୍ରାଚଳ	-11.355
▁ବ୍ୟାଖ୍ୟା	-11.355
▁ଭୁବନେଶ୍ଵର	-11.355
▁ଶ୍ରୀମନ୍ଦିର	-11.355
▁change	-11.3551
ବିଂଶ	-11.3551
▁want	-11.3551
▁୧୯୯୮	-11.3551
uration	-11.3551
▁ଶ୍ରୀଦେବୀ	-11.3551
▁ଲାଞ୍ଚ	-11.3551
▁ରୋହିତ	-11.3552
▁ମାନବୀୟ	-11.3552
▁ନବୀକରଣ	-11.3552
▁ଆଗମନ	-11.3552
▁ଭର୍ତ୍ତିକରନ୍ତୁ	-11.3553
▁ପିନ୍ଧିବାକୁ	-11.3554
▁ଚେଷ୍ଟାକରନ୍ତୁ	-11.3554
ips	-11.3554
▁ପ୍ରୋ	-11.3555
ାଉଥିଲା	-11.3555
▁ସୂଚିତ	-11.3555
▁ଚୌକା	-11.3555
ଚ୍ୟୁତ	-11.3556
▁ଅପସନ	-11.3556
▁ଘିଅ	-11.3556
▁କହୁଥାଏ	-11.3557
▁ଟିକଟ	-11.3558
▁ଏମ୍ସ	-11.3558
▁ବିଶ୍ୱସ୍ତ	-11.3558
▁ମେଜର	-11.3559
▁ପାଉଥିଲେ	-11.3559
▁କହିନାହଁ	-11.3559
▁Song	-11.3559
▁ଖୋଜା	-11.3559
▁ଆସିଛ	-11.3559
▁ଫେଲ୍	-11.3559
▁ଲଢିବେ	-11.356
▁ୟର	-11.356
▁ମହତ୍ୱ	-11.356
TER	-11.3561
▁ଭାବନ୍ତି	-11.3561
Learn	-11.3561
▁ହେଉଅଛି	-11.3561
▁ମିଡ଼ିଆ	-11.3562
▁Java	-11.3562
ଶମିତ	-11.3564
▁ଅନୁକ୍ରମଣ	-11.3565
▁sign	-11.3565
▁ଚାଲିଆସ	-11.3565
▁ମିଳୁନି	-11.3565
▁units	-11.3566
▁ଆପତ୍ତି	-11.3566
▁ଛାତ୍ରଛାତ୍ରୀଙ୍କୁ	-11.3567
▁ଜୀବିକା	-11.357
▁ସ୍ୱଚ୍ଛତା	-11.3571
Book	-11.3572
▁ପିଲାମାନଙ୍କୁ	-11.3573
▁ଜେଜେ	-11.3576
▁ଡିଜିଟାଲ୍	-11.3576
▁ଆନିମ	-11.3578
▁ଅନ୍ୟତ୍ର	-11.3579
▁ସାମନା	-11.3579
▁ଗ୍ଲ	-11.358
ସ୍ମିତ	-11.3583
▁Sam	-11.3584
▁ଉଠେ	-11.3585
▁ହାଉସ	-11.3585
▁ବୁଝିବା	-11.3585
▁ପୃଷ୍ଠାଗୁଡିକ	-11.3586
ଲଂ	-11.3588
▁ଫେସବୁକ୍	-11.3588
▁ଡାକିବା	-11.3592
▁କୋହଲିଙ୍କ	-11.3594
▁ଦେଖାଅ	-11.3597
▁ମୁକୁଳା	-11.3598
▁pm	-11.3605
▁କ୍ଲିପବୋର୍ଡରେ	-11.3607
ଗୁଲ	-11.3611
▁ମଣ୍ଡି	-11.3616
▁ମାଧ୍ଯମରେ	-11.3619
▁ସିଡି	-11.3627
▁ବିରଳ	-11.3628
୪୦୦	-11.3631
▁Enter	-11.3634
▁ଡାକିବ	-11.3634
▁ଇରାନ	-11.3639
▁ଗେହ	-11.3639
▁ଗୋଲ	-11.364
▁Are	-11.364
▁ବାଛିବା	-11.364
▁120	-11.3642
▁ରଖିବେ	-11.3646
▁ହୁଏନାହିଁ	-11.3652
▁ବିକ୍ରମ	-11.3655
▁ବାଣୀ	-11.3657
ଭବନ	-11.3663
▁ଫୋଲଡରଗୁଡ଼ିକ	-11.3667
କୋପ	-11.3669
▁ଦ୍ଵିତୀୟ	-11.3671
୭୦୦	-11.3676
▁୮୮	-11.3677
▁mind	-11.3679
ina	-11.3686
▁ଦିନିଆ	-11.369
▁ଟ୍ୟୁଟୋରିଆଲ	-11.369
▁ଡାହାଣକୁ	-11.3701
▁ଦୁନିଆରେ	-11.3704
ୃଷ୍ଟି	-11.3706
ଦିତ	-11.371
ଶ୍ବ	-11.3714
here	-11.3714
plan	-11.3718
▁ସଂଳାପରେ	-11.3725
ୂଷ	-11.3736
▁ଯୁଗରେ	-11.3738
▁ଲିଭ	-11.3739
▁ଟ୍ରାଇ	-11.374
▁ଟ୍ୟାବକୁ	-11.3741
▁ଶାସକ	-11.3747
▁ରୁଚି	-11.3747
▁ସୁଧା	-11.3748
▁ପ୍ରଶାସନର	-11.3749
▁ସୂଚକକୁ	-11.3749
▁ସ୍କ୍ରିପ୍ଟଗୁଡିକ	-11.3751
▁ଦାସଙ୍କ	-11.3755
କାର୍ଡ	-11.3771
▁ଷ୍ଟ୍ର	-11.3776
ଧୂ	-11.3779
ମନ୍ତ୍ର	-11.3782
ଦେବଙ୍କୁ	-11.3784
ୁଙ୍ଗି	-11.3792
pi	-11.3808
▁ମାଗିବା	-11.3809
▁ବେଗରେ	-11.381
ଦାୟୀ	-11.3816
ଏଁ	-11.3818
କ୍ଷେତ୍ର	-11.382
DVD	-11.3824
ମାଲିକମାନେ	-11.3825
କାଠି	-11.3825
text	-11.3826
୭୫	-11.3826
କେଉଁ	-11.3826
▁By	-11.3827
ଖାଦ୍ୟ	-11.3828
▁ଯଦିଓ	-11.3829
ଦିବସ	-11.3831
କେବଳ	-11.3831
▁ରାଜନୀତିର	-11.3836
ହୋଇଛି	-11.3838
▁ଫେରିବେ	-11.3843
▁କରୁଅଛ	-11.3845
▁ବଲ	-11.3847
ite	-11.3847
ବିଜୁ	-11.3852
▁ସେନାର	-11.3857
▁ୱେବ୍	-11.3862
ରୂପେ	-11.3874
▁ଭିତ	-11.3878
କାହିଁ	-11.3878
▁କ୍ଲି	-11.3888
୍ରୁତ	-11.3889
୍ରେସ	-11.3903
▁ଯୋଉ	-11.3907
ଢୁଥିବା	-11.3908
ଯିବାକୁ	-11.3921
କେବେ	-11.3931
▁54	-11.3944
nce	-11.3945
▁ପଚାରିବ	-11.3947
ିମ୍	-11.3951
▁girl	-11.3955
▁ସୁରେଶ	-11.3959
▁କ୍ରୀଡ଼ା	-11.3974
123	-11.3978
BY	-11.3979
ିଯିବା	-11.3983
ଲ୍ୟୁ	-11.3985
av	-11.3987
▁ଜିଭ	-11.399
▁୪୪	-11.3992
ନ୍ଯ	-11.3993
ଟାଏ	-11.4001
କୋଟ	-11.4003
୩୫	-11.401
▁ଝଡ	-11.4012
▁pri	-11.402
▁ଚାଲିଯିବ	-11.402
▁ଠେ	-11.4023
▁Pen	-11.4023
ଦେବୀ	-11.4041
▁ଚିନ୍	-11.4063
rate	-11.4073
ୁବ	-11.4074
▁ଆତ	-11.4088
▁ଜୟନ୍ତ	-11.4106
ଗ୍ରସ୍ତ	-11.4107
▁ଚଢ଼ା	-11.4111
vid	-11.4111
▁ବଗ	-11.4117
କଳ	-11.412
▁ସ୍ତନ	-11.4126
ନୁସାରେ	-11.4129
ଭୁକ୍ତ	-11.4134
friend	-11.4134
▁ରାଷ୍ଟ୍ର	-11.4136
ନୈତିକ	-11.4136
▁ଦୃଢ	-11.4137
Script	-11.4137
MAIL	-11.4137
ompletion	-11.4137
ଥାଆନ୍ତେ	-11.4137
ସୌଜନ୍ୟ	-11.4137
▁December	-11.4137
▁Film	-11.4137
▁Foundation	-11.4137
▁Happy	-11.4137
▁Jio	-11.4137
▁OdishaReporter	-11.4137
▁SOCKS	-11.4137
▁Voices	-11.4137
▁WordPress	-11.4137
▁[102]	-11.4137
▁command	-11.4137
▁content	-11.4137
▁details	-11.4137
▁package	-11.4137
▁which	-11.4137
▁ଅତଏବ	-11.4137
▁ଅନୁସୂଚିତ	-11.4137
▁ଆଂଶିକ	-11.4137
▁ଆପେଆପେ	-11.4137
▁ଉଜ୍ଜୟ	-11.4137
▁ଋଷିରୁଵାଚ	-11.4137
▁କରିଦିଆଯିବ	-11.4137
▁କାଢନ୍ତୁ	-11.4137
▁ଖୁଲାସା	-11.4137
▁ଟ୍ରେଡିଙ୍ଗ୍	-11.4137
▁ତାମିଲନାଡୁ	-11.4137
▁ନନ୍ଦନକାନନ	-11.4137
▁ନିର୍ଯାତନା	-11.4137
▁ନିୟୋଜିତ	-11.4137
▁ନୌସେନା	-11.4137
▁ପାର୍ଟିରେ	-11.4137
▁ପୁନଃଆକାର	-11.4137
▁ପୃଷ୍ଠଭୂମୀ	-11.4137
▁ପ୍ରତିଶୃତି	-11.4137
▁ବୁଢ଼ୀ	-11.4137
▁ବୌଦ୍ଧ	-11.4137
▁ବ୍ଯାଖ୍ଯା	-11.4137
▁ମୃତଦେହ	-11.4137
▁ମୟୂରଭଞ୍ଜ	-11.4137
▁ଯୋଷଫେ	-11.4137
▁ସର୍ବପ୍ରଥମେ	-11.4137
▁ସାଂସ୍କୃତିକ	-11.4137
amaja	-11.4137
ମୃତ୍ୟୁଞ୍ଜୟ	-11.4137
▁Settings	-11.4137
▁ତୁର୍କମେନିସ୍ଥାନ	-11.4137
▁ପପଅପ	-11.4137
▁ଭୁବନେଶ୍ବର	-11.4137
▁ଲଘୁଚାପ	-11.4137
▁ONA	-11.4137
▁ପାରିବାରିକ	-11.4137
▁ପ୍ରାପ୍ୟ	-11.4137
▁ରୂପାୟନ	-11.4137
▁ଫ୍ରାନ୍ସ	-11.4137
▁ମାଝି	-11.4137
▁ରାଜନେତା	-11.4137
▁ସନ୍ତୁଷ୍ଟ	-11.4137
▁ଅବିନାଶ	-11.4137
▁ଛଳନା	-11.4138
▁ବିଛଣା	-11.4138
▁ଦ୍ରବ୍ଯ	-11.4138
Shah	-11.4138
▁ହସ୍ତକ୍ଷେପ	-11.4138
▁Bollywood	-11.4138
▁ବିନୋଦ	-11.4138
ଧ୍ଯକ୍ଷ	-11.4138
▁ବାଇବେଲ	-11.4138
▁ଅଟଳ	-11.4138
▁Katha	-11.4138
▁law	-11.4138
▁ସଡ଼କ	-11.4138
▁ନମୁନା	-11.4138
▁Online	-11.4138
▁ବ୍ରାଣ୍ଡ	-11.4138
▁technology	-11.4138
▁ହବେି	-11.4138
▁ଅବରୋଧ	-11.4138
▁ପ୍ରଭାତ	-11.4138
▁ଯିରିମିୟ	-11.4138
▁ତୋଫାନ	-11.4138
▁ସେନାପତି	-11.4138
▁ଫାଇନାଲ	-11.4138
▁ପ୍ରଶାନ୍ତ	-11.4138
▁ଅଶ୍ୱିନୀ	-11.4138
▁ପ୍ରପୋଜ	-11.4138
▁marriage	-11.4138
▁memo	-11.4138
▁କର୍ମଶାଳା	-11.4138
▁ବେଆଇନ	-11.4139
▁ରେଳବାଇ	-11.4139
▁editor	-11.4139
▁ଶୁଣାଗଲା	-11.4139
▁really	-11.4139
▁look	-11.4139
▁Image	-11.4139
facebook	-11.4139
▁lead	-11.414
▁ବିଜୁବାବୁ	-11.414
atch	-11.414
▁ସହସ୍ର	-11.414
▁ସୂର୍ଯ୍ୟରାଓ	-11.414
▁କାଟନ୍ତୁ	-11.414
▁Yau	-11.414
▁ପଳାଇ	-11.4141
▁ଦର୍ଶାଯାଇଥିବା	-11.4141
▁ଅନୁକରଣ	-11.4141
▁ସେକେଣ୍ଡରେ	-11.4141
▁ଅନନ୍ୟ	-11.4141
▁does	-11.4141
▁1998	-11.4141
▁Software	-11.4141
▁ଆଦିତ୍ୟ	-11.4142
▁ଶ୍ରୀକୃଷ୍ଣ	-11.4142
▁ଜ୍ୟାକ	-11.4142
▁କୋଉଠୁ	-11.4142
▁ସଂକଟ	-11.4143
▁୧୯୮୬	-11.4143
▁ବାରିକ	-11.4143
▁କଢ଼ା	-11.4143
▁ବଢ଼ିଥାଏ	-11.4143
▁ଶୁକ୍ର	-11.4144
ରୋପଣ	-11.4144
▁ଆୟୋଜନ	-11.4144
▁ଖେଳିଥିଲେ	-11.4145
▁ପୌର	-11.4145
▁ଠକେଇ	-11.4145
▁ଆଇନଗତ	-11.4145
ଏଜ୍	-11.4147
▁ମୂଲ୍ୟହୀନ	-11.4147
▁ବିକଳନ	-11.4148
etro	-11.4148
▁ବ୍ରେକ	-11.4148
▁ସୁଷମ	-11.4149
▁ହାଜର	-11.415
ourt	-11.415
▁ସଜାଡ଼	-11.4151
▁ତ୍ରୁଟିଯୁକ୍ତ	-11.4151
▁ରାଗଂ	-11.4151
▁ନିଜସ୍ୱ	-11.4151
ମିଶ୍ର	-11.4152
୧୯୭୦	-11.4154
▁ଆସିଥିଲି	-11.4154
▁ମଞ୍ଜୁ	-11.4155
▁ଲାଗୁଥିବା	-11.4155
▁ସର୍ଵ	-11.4156
ପଦ୍ମଶ୍ରୀ	-11.4156
▁ଚାହିଦା	-11.4158
▁Persons	-11.4158
▁ସଚେତନତା	-11.4159
▁ଚାହୁ	-11.4162
▁id	-11.4162
▁ବିପକ୍ଷରେ	-11.4163
▁ବସିଛନ୍ତି	-11.4164
▁ଦେଖିପାରିବେ	-11.4165
▁ପୀଡ଼ିତା	-11.4165
num	-11.4165
▁ବିଭାଗୀୟ	-11.4165
▁ସ୍ଥାନାନ୍ତରଣ	-11.4166
ବ୍ୟାକ୍	-11.4168
url	-11.4168
▁ପଡ଼ିଛି	-11.4169
▁Ver	-11.4169
ଇଟିକ	-11.4175
▁କିଷାନ	-11.4175
▁Gra	-11.4176
▁ଶିଵ	-11.4177
▁ଗୌ	-11.4177
▁ପ୍ରତିମାସ	-11.4178
▁ଜାଣିଛୁ	-11.4178
▁ସାହାସ	-11.4183
ଆପଣଙ୍କ	-11.4185
ଯ୍ୟ	-11.4185
▁ଶତ୍ରୁତା	-11.4187
▁ଚଢ଼	-11.4187
▁ପଢିଲେ	-11.4188
▁ଆସିଥିବା	-11.4189
stick	-11.4189
ପ୍ରଜ୍ଞା	-11.4191
▁ଛିଃ	-11.4191
ାରିଲେ	-11.4195
ହଜୁର	-11.4197
▁କବଳ	-11.4198
ଚିକିତ୍ସ	-11.42
▁right	-11.42
▁ପଡ଼ିବେ	-11.4201
▁ତୋଳି	-11.4202
ନିୟ	-11.4204
▁ବୃହତ	-11.4204
▁ଇସ୍ରାଏଲର	-11.4205
▁ଛାତ୍ରୀଙ୍କ	-11.4206
୯୦	-11.4209
▁ବ୍ୟାଗ	-11.421
ଶୟ	-11.421
▁ଅଫିସ୍	-11.4211
▁ରାଜଧାନୀରେ	-11.4212
▁କାଟିବାକୁ	-11.4216
▁ଠିକା	-11.4218
▁ୟାଙ୍କ	-11.4221
▁ପାକିସ୍ତାନୀ	-11.4228
▁କରିଦେବା	-11.4228
▁ଦ୍ୱି	-11.423
▁ଆମ୍ଭମାନଙ୍କର	-11.423
▁ବଦଳିଯାଇଥି	-11.4233
ାଖ	-11.4234
▁ଭାଇମାନେ	-11.4235
▁ଜୁନ୍	-11.4239
ାନ୍ତର	-11.4239
▁ଗର୍ଲଫ୍ରେଣ୍ଡ୍	-11.4242
ୁନ	-11.4244
ରିସ	-11.4244
qui	-11.4245
ମୟୀ	-11.4257
86	-11.4263
ban	-11.4264
▁ପୂଜ	-11.4265
▁134	-11.4269
▁ସମ୍ଭାଳି	-11.4272
tha	-11.4276
▁ଏକଟରର	-11.4277
▁କାଢ଼ିବାରେ	-11.4278
▁ଈଶ୍ୱରଙ୍କ	-11.4283
▁ମାତ୍ରାରେ	-11.4284
▁ଫେସବୁକରେ	-11.4299
▁Und	-11.4302
▁ବ୍ୟାପ	-11.4307
▁ଖସ	-11.4313
ଥାନ୍ତ	-11.4313
▁Times	-11.4315
▁ଅପରେସନ	-11.4318
▁ମଁ	-11.4328
00,000	-11.4331
ପଲର	-11.4336
▁ଭିତ୍ତି	-11.435
▁ଏଟିଏମ	-11.4356
erve	-11.4358
▁IE	-11.4359
▁ଦୌଡି	-11.436
▁ଲୁକ	-11.436
▁କ୍ଷଣ	-11.4362
▁bro	-11.4365
▁ଫିଲ୍ଡ	-11.4369
▁ଉପୁଜି	-11.4372
▁ଶିକ୍ଷାର୍ଥୀ	-11.4375
ଅଁଳ	-11.4383
ଗିଡି	-11.4386
IP	-11.4389
▁ତଳର	-11.4393
kar	-11.4395
▁ଆଇଡି	-11.4395
▁ଲୋକମାନଙ୍କର	-11.4396
▁ଚାଳନ	-11.4403
▁ଜାଣିପାରୁ	-11.4408
GST	-11.4415
ୱାରା	-11.442
▁ସଂସାରରେ	-11.4421
▁Float	-11.4422
୍ଷଣ	-11.4424
ated	-11.4429
▁ଚତୁର	-11.443
▁ଉପଭୋକ୍ତା	-11.4433
iB	-11.4433
▁ପଢିଛ	-11.4438
ାଞ୍ଜ	-11.444
୧୯୯୪	-11.4445
ମୂର୍ତ୍ତି	-11.4445
୧୯୮୧	-11.4448
ସଦାପ୍ରଭୁ	-11.445
ଚନ୍ଦ୍ର	-11.4452
ଯୁଦ୍ଧ	-11.4453
ଫଟୋ	-11.4454
ଏଡସ	-11.4454
▁EA	-11.4457
ାଗାର	-11.4458
▁ଘୋ	-11.4462
▁ଅଫିସରେ	-11.4466
▁ଧୋନି	-11.4468
ନର୍	-11.4469
ଏଥର	-11.4472
େୟାର୍	-11.4473
ଯାଇପାରେ	-11.448
ଏଟ୍	-11.45
▁ସ୍ବଚ୍ଛ	-11.4503
ାଯାଏ	-11.4509
ହାଃ	-11.4512
▁ଗ୍ରାମବାସୀ	-11.4534
action	-11.4537
େଇଛ	-11.4543
▁ସେପଟ	-11.4549
ପିଏଲ୍	-11.455
▁ଅଧିକାରୀମାନଙ୍କ	-11.4555
ସୟ	-11.4558
ତନ୍ତ୍ର	-11.4558
▁ଖତ	-11.4573
▁ଛଡ	-11.4579
▁ଅଧୀନ	-11.4587
େଙ୍ଗା	-11.4602
▁ପରିଣାମ	-11.4605
▁ବଦଳିବ	-11.4605
▁ଢେର	-11.4608
ବୀମ	-11.4614
▁ବିବାହିତ	-11.4626
ାଯାଇ	-11.4635
ଓ୍ବା	-11.4642
▁ସର୍ଭ	-11.4657
ଚିହ୍ନା	-11.4657
LD	-11.466
▁ନର୍ସ	-11.4665
ପତ	-11.4674
▁ରାଜଧାନୀ	-11.4684
▁ମାଧ୍ଯମ	-11.4684
ମାନଙ୍କଠାରୁ	-11.4688
▁ଇଣ୍ଟର	-11.4691
ଖାଉଥିବା	-11.4693
▁ସିଫ	-11.4697
▁ଭୁଲିବେ	-11.4697
.5%	-11.4703
ମୂର୍	-11.4721
▁ଦର୍ଶାଯାଇ	-11.4738
ank	-11.4739
▁ସ୍ମାର୍ଟଫୋନ	-11.4742
clos	-11.4746
▁ଗୋପନୀୟ	-11.4749
ଘା	-11.4752
▁ହେଇଥିବ	-11.4757
ବୁଢ଼ା	-11.4758
ୁଠାକ	-11.476
ିବିଆଇ	-11.476
shop	-11.476
▁form	-11.4761
▁ଦୁଃ	-11.4761
Punjab	-11.4762
default	-11.4762
follow	-11.4762
iCalImp	-11.4762
ojana	-11.4762
▁Internet	-11.4762
▁Know	-11.4762
▁Retrieved	-11.4762
▁Strigi	-11.4762
▁description	-11.4762
▁money	-11.4762
▁primary	-11.4762
▁ଆକସ୍ମିକ	-11.4762
▁ଆଗପଛ	-11.4762
▁ଇଚ୍ଛାମୁତାବକ	-11.4762
▁ଉଇକିମିଡ଼ିଆ	-11.4762
▁କାର୍ଯ୍ୟସୂଚୀ	-11.4762
▁କେନ୍ଦ୍ରାପଡ଼ା	-11.4762
▁ଟୋଗଲକର	-11.4762
▁ଦରଖାସ୍ତ	-11.4762
▁ଧ୍ବଂସ	-11.4762
▁ନିଷିଦ୍ଧ	-11.4762
▁ପାଣିଗ୍ରାହୀ	-11.4762
▁ପୋଖରୀ	-11.4762
▁ପ୍ରାଧିକରଣ	-11.4762
▁ଫ୍ଲୋରାଇଡ୍	-11.4762
▁ବୈଷ୍ଣବ	-11.4762
▁ବ୍ୟତିକ୍ରମ	-11.4762
▁ଭବିଷ୍ଯତ	-11.4762
▁ମାରିୟାମ୍ମା	-11.4762
▁ମୁହାଁମୁହିଁ	-11.4762
▁ଯୁଷ୍ମାକଂ	-11.4762
▁ରେଡ୍ଡୀ	-11.4762
▁ଶୁଷ୍କ	-11.4762
▁ଷ୍ଟୁଆର୍ଟ	-11.4762
▁ସାଂଘାତିକ	-11.4762
▁ସାର୍ବଜନୀନ	-11.4762
▁ହ୍ରିତିକ	-11.4762
▁ୟଥେଷ୍ଟ	-11.4762
🙏🙏🙏	-11.4762
▁Social	-11.4762
▁health	-11.4762
▁ଡାଟାବେସ୍	-11.4762
▁ବିଦ୍ୟମାନ	-11.4762
▁ଭବିଷ୍ଯଦ୍ବକ୍ତା	-11.4762
▁ସାମୟିକ	-11.4762
▁ମାନଦଣ୍ଡ	-11.4762
ାର୍ଜୁନ	-11.4762
▁କାଜାଖସ୍	-11.4762
▁ଜଲଦି	-11.4762
▁ଧୋକା	-11.4762
▁ବିପର୍ଯ୍ୟୟ	-11.4762
┈┈┈┈┈┈┈	-11.4762
▁THE	-11.4762
▁ଏସସିବି	-11.4762
▁job	-11.4763
▁ଚଷମା	-11.4763
▁ଶସ୍ଯ	-11.4763
ଶୟତାନ	-11.4763
▁ନଗଦ	-11.4763
▁ଦିତୀୟ	-11.4763
▁ପ୍ରଦାତା	-11.4763
▁ବଗିଚା	-11.4763
▁ଦୁର୍ଭାଗ୍ୟ	-11.4763
▁AND	-11.4763
▁ନିଆଯାଇଛି	-11.4763
slot	-11.4763
▁ଜଡିତ	-11.4763
Gadu	-11.4763
▁ଜୀଇଁ	-11.4763
▁ସ୍ଵର୍ଗ	-11.4763
▁ଖୋଲୁଅଛି	-11.4763
ପ୍ରସାରିତ	-11.4763
/02/2019	-11.4763
▁ସଂଚୟ	-11.4763
▁ହୁସିଆର	-11.4763
▁ଦକ୍ଷତା	-11.4763
▁ଆକର୍ଷଣ	-11.4763
ହାଇପର	-11.4763
▁ଋକ୍ତର	-11.4763
▁ରୋଟୀ	-11.4763
▁take	-11.4763
▁1751	-11.4763
▁ଉପଯୋଗିତା	-11.4764
▁ବ୍ୟାଟିଂ	-11.4764
▁ଯୋଡ଼ିପାରିବେ	-11.4764
▁People	-11.4764
▁ଗାୟକ	-11.4764
▁ଶତକଡା	-11.4764
ାଵଲେ	-11.4764
▁ଡେଟିଂ	-11.4764
▁Import	-11.4764
▁ସଂଗୀତ	-11.4764
install	-11.4764
▁below	-11.4765
▁ବୁଝେଇ	-11.4765
▁ବୁଝନ୍ତି	-11.4765
▁ଶୁଖିଲା	-11.4765
ସ୍ମୋକି	-11.4765
▁ପେମେଣ୍ଟ	-11.4765
vard	-11.4765
▁Qt	-11.4765
୍ରଯାନ	-11.4766
▁Vaca	-11.4766
▁nan	-11.4766
▁ଉତ୍ସାହିତ	-11.4767
▁ପାଲଟିଛି	-11.4767
▁but	-11.4767
▁ପଠାଯାଇଛି	-11.4767
▁କମାଲ୍	-11.4768
ness	-11.4768
Auto	-11.4768
ଟବର୍ତ୍ତୀ	-11.4768
▁Ro	-11.4768
ମ୍ୱ	-11.4769
▁ଉପନାମ	-11.4769
▁ତରଳ	-11.4769
▁ମତଦାନ	-11.4769
▁ସହଭାଗୀ	-11.4769
▁ପତାକା	-11.4771
▁ଲାଇଫ୍	-11.4771
▁ପ୍ରତିଫଳ	-11.4771
▁ଟିଟୋ	-11.4772
▁ଅକ୍ଷୟ	-11.4772
▁ୟିବାକୁ	-11.4773
load	-11.4773
▁ପ୍ରେତ	-11.4774
ମିହିର	-11.4775
pain	-11.4775
▁ଲାଗୁଥିଲା	-11.4775
ଡାଉନ	-11.4776
▁Ray	-11.4776
▁କହିଦେଲେ	-11.4777
▁ରାବଣ	-11.4777
▁ପଡିଥାଏ	-11.4777
▁ଖାଇଛନ୍ତି	-11.4777
▁ଗଜ	-11.4778
orious	-11.4778
▁ଚିତ୍ତ	-11.4778
▁?''	-11.4778
▁ମିଳିଥିବା	-11.4779
▁୨୦୨୦	-11.4779
▁କରୁଥିଲି	-11.4779
093	-11.478
▁ଭିଡ	-11.4781
▁ଟ୍ୱିଟର	-11.4781
▁କହୁଥିଲି	-11.4781
ାୟେଲ	-11.4782
▁ରହିଗଲା	-11.4782
▁exe	-11.4783
▁ସମର୍ପଣ	-11.4784
▁ନଗରୀ	-11.4784
ରାଜ୍	-11.4785
▁କଏଦ	-11.4785
▁କେନ୍ଦ୍ରୀୟ	-11.4785
▁ଶେଷଥର	-11.4786
▁ଦଳୀୟ	-11.4788
▁ସଂହାର	-11.4789
▁ବଢ଼ାଇବା	-11.4789
▁ଇଞ୍ଚ	-11.4791
PP	-11.4794
▁କେଶବ	-11.4794
▁ଦୁଃଖଦ	-11.4796
▁ହେବାପାଇଁ	-11.4799
▁ପଡୁନି	-11.4802
▁ପକାଇଲେ	-11.4803
▁୫୨	-11.4804
▁ବିଚ୍ଛେଦ	-11.4806
▁ଅକ୍ଷମ	-11.4807
5,000	-11.4807
▁ଯୁବତୀଙ୍କ	-11.4808
ିଗଲାଣି	-11.4809
.0.	-11.481
▁ଗଲାଣି	-11.4813
▁ବିଦାୟୀ	-11.4815
▁କେତେଜଣ	-11.4819
89	-11.4821
▁ଭଲକରି	-11.4822
ସ୍ପତି	-11.4828
▁ପିଲାଟା	-11.4828
phan	-11.4831
▁adv	-11.4832
▁ମିଶ୍ରିତ	-11.4832
TY	-11.4834
ଦବ	-11.4834
had	-11.4835
▁ଟାର୍ଗେଟରେ	-11.4837
pot	-11.4838
.4.	-11.4839
▁ଡାକିଲା	-11.4852
ପଠନୀୟ	-11.4853
▁ହରେଇ	-11.4854
▁ମେଳା	-11.4855
ନିଧି	-11.4856
UB	-11.486
▁gre	-11.4861
▁10%	-11.4863
ଜନୀ	-11.4869
▁ଦିଗରୁ	-11.4872
▁ମାଲକାନଗିରିରେ	-11.4873
▁ଆଣିଲା	-11.4873
▁ଦେଖିଛ	-11.4873
▁ବାଣ୍ଡକୁ	-11.4874
▁ପାଟିରୁ	-11.4874
▁ଅନ୍ୟମାନେ	-11.4875
▁ଫଳନ	-11.4883
▁ଇପ	-11.4888
ସରକାର	-11.4889
▁(“	-11.4895
ready	-11.4895
▁୧୦୩	-11.4897
Create	-11.4899
To	-11.49
▁ସୌର	-11.4903
▁ଆଣିବାକୁ	-11.491
▁ଇଶ୍ରାୟେଲର	-11.4912
ସିତ	-11.4915
▁ଫିଟ୍	-11.4915
▁ହୋଇପାରିବେ	-11.4915
ବଡ଼	-11.4918
▁ମାଆଙ୍କ	-11.4921
▁ପଢିଥାନ୍ତ	-11.4922
ଣ୍ଟୁ	-11.4927
▁ପଢିବାକୁ	-11.4929
▁ଧରିଲେ	-11.493
ଉଥ	-11.4931
▁ଲେଖାଟି	-11.4932
ହନ୍ତି	-11.4933
▁ଟାଇମ୍	-11.4934
▁ଦୂରେ	-11.4939
▁ଲେଖୁ	-11.4939
▁ସଂଳାପକୁ	-11.494
ିଗର	-11.4941
୭୪	-11.4943
▁ଟୋପ	-11.4946
▁କ୍ରମବ	-11.4949
▁ଭବିଷ୍ୟତରେ	-11.495
ନଥିଲି	-11.495
▁ମେଡିକାଲରେ	-11.4956
▁ଡାକେ	-11.4958
ଭୁ	-11.4959
▁ଜୋରେ	-11.4959
ଗୁଁ	-11.4969
▁ଅପରାଧୀ	-11.4973
▁ଗୀତା	-11.4977
▁ଦର୍ଶାଇ	-11.4978
▁ୱାର୍	-11.4981
▁ଫିଟି	-11.4981
▁କାଢିଥି	-11.4983
ବର୍ଣ୍ଣ	-11.4984
ାଧି	-11.4986
Local	-11.4993
▁ପିଟ	-11.4995
ଗ୍ଭର	-11.5008
▁କାହ	-11.5014
ssue	-11.5024
▁ଭୁ	-11.5026
▁ମହଲ	-11.5027
eath	-11.5029
ଢେଇ	-11.5033
▁ପୁନ	-11.5036
ଦକ୍ଷ	-11.5036
ଜୀବୀ	-11.5043
▁ୟୁନି	-11.5048
▁ଋଷ	-11.5054
▁ବ୍ୟବ	-11.5062
▁ଧୋନିଙ୍କ	-11.5073
▁ଗଣମାଧ୍ୟମକୁ	-11.5083
କୌଣସି	-11.5101
▁ସ୍ପର୍ଶର	-11.5102
▁ଭଵ	-11.5103
ପକ୍ଷରେ	-11.5105
reat	-11.5106
ିଶ	-11.5115
How	-11.5116
ଉତ୍ତମ	-11.5117
ପୀଠ	-11.5117
ସମ୍ପର୍କ	-11.5117
ଦୟାକରି	-11.5117
ସଂଯୋଗ	-11.5118
କଣ୍ଠ	-11.5118
ଘଣ୍ଟା	-11.5119
Home	-11.5121
ଗୋଟିଏ	-11.5126
ଯାଇଛନ୍ତି	-11.5129
▁ବିଜ୍ଞପ୍ତିଗୁଡ଼ିକ	-11.5129
▁କୋଠା	-11.5132
ପାରିଲାନି	-11.5134
...........	-11.5135
ଖବର	-11.514
ଜଙ୍ଗ	-11.5142
ଭୟ	-11.5143
ଵିଲ	-11.5147
ଭଙ୍ଗା	-11.5152
haw	-11.5153
▁ପତ୍ନୀଙ୍କ	-11.5155
OP	-11.5156
▁Hi	-11.518
▁157	-11.5201
ପ୍ରାପ୍ତି	-11.5203
▁dat	-11.5203
ବର୍ତ୍ତ	-11.5211
▁ମାରିଦେ	-11.5228
▁ଅଭିଲେଖନ	-11.523
▁ପିଲାଏ	-11.5243
cat	-11.5243
ଶଳା	-11.5248
▁Ja	-11.5259
▁ମହାପ୍ରଭୁ	-11.5261
▁ବଣର	-11.5263
ନାଁ	-11.5276
▁pla	-11.5278
୪୪	-11.5281
Tir	-11.5305
ମେଂଟ	-11.5308
▁Mis	-11.5309
▁ଆସିଲ	-11.5314
▁ରୋଡ	-11.534
▁ଟାର୍ଗେଟ	-11.535
ବିଶ	-11.5351
▁ଇସ୍ରାଏଲ	-11.5352
▁ପ୍ଲଗଇନଗୁଡ଼ିକ	-11.5353
▁ରାହୁ	-11.5357
ଭିନ	-11.5357
▁ସ୍ୱାସ୍ଥ୍ୟସେବା	-11.5359
ଇଯ	-11.5373
▁ପୁଷ୍ପ	-11.5385
▁ସୂଚ	-11.5386
▁ମଞ୍ଜୁର	-11.5389
▁୧୧ଟା	-11.5389
▁୮୫୦	-11.5391
▁hour	-11.5394
ଛାତ୍ରଙ୍କ	-11.5402
ତବେେଳେ	-11.5412
▁his	-11.5414
▁୬୦୦	-11.5415
▁hav	-11.542
▁ରାଜାମାନଙ୍କ	-11.542
୭୬	-11.5422
moking	-11.5424
new	-11.5425
ocus	-11.5428
▁{{	-11.5429
▁ଅର୍ଦ୍ଧ	-11.5429
0212908	-11.5429
Full	-11.5429
Reference	-11.5429
Yahoo	-11.5429
କଷାକଷି	-11.5429
▁Champions	-11.5429
▁Channel	-11.5429
▁Gateway	-11.5429
▁Title	-11.5429
▁Ubuntu	-11.5429
▁Virtual	-11.5429
▁Website	-11.5429
▁cease	-11.5429
▁crash	-11.5429
▁current	-11.5429
▁darakāra	-11.5429
▁hanging	-11.5429
▁hotels	-11.5429
▁million	-11.5429
▁radio	-11.5429
▁reminder	-11.5429
▁symbol	-11.5429
▁ଅଣଦେଖା	-11.5429
▁ଅନିବାର୍ଯ୍ୟ	-11.5429
▁ଅନୁମୋଦନ	-11.5429
▁ଅନୁଷ୍କା	-11.5429
▁ଆଫଗାନିସ୍ତାନ	-11.5429
▁କଶ୍ୟପ	-11.5429
▁ଗିଫ୍ଟ	-11.5429
▁ଗୁରୁତ୍ବପୂର୍ଣ୍ଣ	-11.5429
▁ଟଙ୍କିକିଆ	-11.5429
▁ଡ୍ରାଫ୍ଟ	-11.5429
▁ତନାଘନା	-11.5429
▁ଦାଯିତ୍ବ	-11.5429
▁ପୁରସ୍କୃତ	-11.5429
▁ପ୍ରଚାଳନ	-11.5429
▁ପ୍ରତୀକ୍ଷା	-11.5429
▁ପ୍ରିଫର୍ରେଡ଼	-11.5429
▁ବହିଷ୍କରଣ	-11.5429
▁ବହିଷ୍କାର	-11.5429
▁ମୌସୁମୀ	-11.5429
▁ଶତାବ୍ଦୀ	-11.5429
▁ଷଡଯନ୍ତ୍ର	-11.5429
▁ସନ୍ନିହିତ	-11.5429
▁ସମ୍ପାଦିତ	-11.5429
▁ହାରାହାରି	-11.5429
▁ହୋହାଲ୍ଲା	-11.5429
▁₹100...	-11.5429
Hindu	-11.5429
request	-11.5429
▁Rape	-11.5429
▁ନିଲମ୍ବିତ	-11.5429
▁ପରମାଣୁ	-11.5429
▁ବୃକକ୍	-11.5429
▁ରିମାଣ୍ଡ	-11.5429
▁ଲିଫ୍ଟ	-11.5429
▁ସମ୍ଭାବ୍ୟ	-11.5429
▁ସୈନ୍ୟ	-11.5429
▁ସ୍ବୟଂ	-11.5429
Information	-11.5429
ଅଳଙ୍କାର	-11.5429
ନିୟନ୍ତ୍ରିତ	-11.5429
▁ଏଇଥିରୁ	-11.5429
▁ମିଥ୍ୟା	-11.5429
▁ସାରଥୀ	-11.5429
▁ସିଲେକ୍ଟ	-11.5429
▁completed	-11.5429
▁କ୍ୟାରିୟର	-11.5429
▁ଦୈନିକ	-11.5429
▁ବିତିଗଲାଣି	-11.5429
▁ହଷ୍ଟେଲ	-11.5429
ତାନ୍ତ୍ରିକ	-11.5429
▁shape	-11.5429
▁ମତ୍ସ୍ୟ	-11.5429
▁କାଇସରଙ୍କ	-11.5429
▁ଡ଼େମନ	-11.5429
▁ICQ	-11.5429
MIME	-11.5429
▁case	-11.5429
▁ହଟାଅ	-11.5429
▁gest	-11.5429
▁ଏହାପୂର୍ବରୁ	-11.5429
▁ନିବାରଣ	-11.5429
▁ସଞ୍ଚାର	-11.5429
▁harm	-11.5429
▁ସାମ୍ରାଜ୍ୟ	-11.5429
▁someone	-11.543
▁ଉତ୍କୃଷ୍ଟ	-11.543
▁କ୍ଲବ	-11.543
▁ନ୍ୟାୟାଳୟ	-11.543
▁ହବେେ	-11.543
▁କିବୋର୍ଡ଼	-11.543
▁ସିଦ୍ଧାନ୍ତ	-11.543
▁ଶୈଳେଶ	-11.543
▁ଗଜପତି	-11.543
▁ପ୍ରତ୍ୟାଖ	-11.543
▁Memo	-11.543
▁ସଂରକ୍ଷକ	-11.543
Nua	-11.543
ଷ୍ଟୋ	-11.543
▁କିଲୋଗ୍ରାମ	-11.543
▁ଚଳଚିତ୍ର	-11.543
▁ସାମର୍ଥ	-11.5431
▁ଚିନ୍ତାଧାରା	-11.5431
ficial	-11.5431
▁କ୍ଲେମ	-11.5431
▁ଗୁରୁକୁଳ	-11.5431
▁ତଥ୍ୟାବଳୀ	-11.5432
▁ସ୍ମୃତିମୟ	-11.5432
evel	-11.5432
ତପଥୀ	-11.5433
▁କାଗଜପତ୍ର	-11.5433
▁ବିଶ୍ୱାଳ	-11.5433
odern	-11.5433
▁sā	-11.5433
maay	-11.5433
▁ଲଢ଼େଇ	-11.5433
▁ପଡିପାରନ୍ତି	-11.5434
ଣ୍ଟ୍ରି	-11.5434
▁ଦୁଃସାହସିକ	-11.5434
▁ଡେମନ	-11.5434
▁ଆମାଜନ	-11.5435
▁ଶାହ୍	-11.5435
▁ୟୁରୋପୀୟ	-11.5435
▁ଭର୍ସନ	-11.5436
▁ଓହ୍ଲ	-11.5436
Direct	-11.5436
▁ଶତ	-11.5436
▁Size	-11.5436
▁ତଳେଣତସ	-11.5436
▁ଖାଦାନ	-11.5437
▁ପଚାରନ୍ତି	-11.5437
▁ୟୁଜର	-11.5438
▁ଡିଜିପି	-11.5438
▁ତଥାଗତ	-11.5438
▁କମନ୍ସ	-11.5439
▁ଲେଖାଯାଇଛି	-11.5439
▁କରିଦେଇଛି	-11.5439
ake	-11.5439
▁ପୋଡ଼ି	-11.5439
▁ସ୍ୱାଦ	-11.5439
ଷ୍ଟ୍ରାଇକ	-11.5439
▁ଯଜ୍ଞ	-11.5439
ମମ୍ମି	-11.5439
Bus	-11.544
▁ଶୁଣୁଛନ୍ତି	-11.544
▁ସ୍ୟୁର	-11.544
▁ଗୁଡ୍	-11.5441
▁ମାଟିରେ	-11.5441
▁ଶୀତଳ	-11.5441
CategoryName	-11.5442
▁ଲିସା	-11.5442
▁ଉପକୃତ	-11.5444
▁ସ୍ତ୍ରୀଲୋକ	-11.5444
▁ଫେକ୍	-11.5444
▁ଦବଙ୍ଗ	-11.5445
▁ଗଢିବେ	-11.5445
▁ନେତାଜୀ	-11.5446
ଆୟୁବ	-11.5447
▁ପଡିଥିଲା	-11.5447
▁କୋଚ୍	-11.5447
ଇଞ୍ଜିନିୟରିଂ	-11.5447
▁ଖାଆ	-11.5448
ସୁଗାର	-11.5448
▁ହୋଇଗଲାଣି	-11.545
▁ଇଣ୍ଟର୍	-11.5451
▁ବାହାରିଥାଏ	-11.5452
▁Mac	-11.5452
▁କାଇଁକି	-11.5453
▁ବାହାରୁଛି	-11.5454
▁କାଏଁ	-11.5456
ୟୁପିଏ	-11.5456
▁ବିକଳ୍ପଗୁଡ଼ିକୁ	-11.5457
▁Kalia	-11.5459
space	-11.5459
ପୁଷ୍ଟି	-11.5459
▁ହୋଟେଲ୍	-11.5461
▁ପାରୁନ	-11.5461
▁ଫାଇ	-11.5462
▁ହେଉଥିଲା	-11.5464
▁bin	-11.5467
▁ପଡିଛି	-11.5468
▁ରେଟିଂ	-11.547
ENT	-11.547
▁୬୨	-11.5478
▁ଆତଙ୍କବାଦୀଙ୍କୁ	-11.5478
▁ବିଧାନ	-11.5479
▁ସୁନ୍ଦରଗଡ	-11.548
▁rep	-11.5487
▁ଭଣ୍ଡ	-11.5489
▁କରିଦେବି	-11.5489
ନିଦ୍ରା	-11.5497
▁ଆଦିମ	-11.5499
▁1800	-11.55
▁ସ୍ୱାସ୍ଥ୍ୟସେବାକୁ	-11.55
▁ପର୍ଣ୍ଣ	-11.5501
ider	-11.5504
▁MO	-11.5504
ଲିଟର	-11.5504
▁ଆଣିଲେ	-11.5505
▁ଘୁଞ୍ଚାଇବା	-11.5508
▁୧୧ଟାରେ	-11.5509
ehr	-11.5511
ମାନଚିତ୍ର	-11.552
ିକ୍ତ	-11.5522
▁ବଞ୍ଚିବି	-11.5522
▁CGI	-11.5524
ନ୍ଧା	-11.5527
ାଣନ୍ତୁ	-11.5528
ସ୍ୱାର୍ଥରେ	-11.5529
▁ବଟନ୍	-11.5531
▁୬ଟାରେ	-11.5537
▁ଚାହିଁଲା	-11.5537
▁these	-11.5541
▁ପଟାସ	-11.5542
ଣ୍ଠି	-11.5543
▁ମଠ	-11.5543
▁ସଫ	-11.5546
ଦେବୁ	-11.5552
ଖାଇ	-11.5566
▁ଲୋକସଭାରେ	-11.557
କାଳୀ	-11.5572
▁ଜାଗି	-11.5575
Add	-11.5575
ଏସଆଇ	-11.5577
▁ସିସି	-11.5577
▁gr	-11.5578
▁ଜିଓର	-11.5581
▁ଅଂଶଗ୍ରହଣକାରୀ	-11.5583
▁ଆସିଲୁ	-11.5583
oom	-11.5584
ାମିନ	-11.5587
▁ଗାଲରେ	-11.5602
ଯାଏଁ	-11.5604
▁କ୍ରିୟାକୁ	-11.5613
▁ସଦାପ୍ରଭୁଙ୍କୁ	-11.5615
▁ଜିତିବା	-11.5619
▁କେତେଦିନ	-11.562
▁ତିନିଜଣ	-11.5629
2008	-11.5637
ଦାଦ	-11.5646
▁ସୁଧାର	-11.5647
tional	-11.565
ସଙ୍ଗତ	-11.565
▁ରାହୁଲଙ୍କ	-11.5666
▁ପଣ୍ଡାଙ୍କ	-11.5691
▁ଢଳି	-11.5694
ପାତ୍ର	-11.5697
ଗ୍ରହୀ	-11.5697
ୁଡ଼ା	-11.5701
▁ପ୍ୟାନ	-11.5708
▁ଇଂଜ	-11.5715
▁କାର୍ୟ	-11.5719
eek	-11.5719
▁ଆମ୍ଭେମାନେ	-11.5723
▁ୟକ	-11.5725
▁ଡଟ	-11.5749
ନିଅନ୍ତୁ	-11.5756
▁ନିର୍ବା	-11.5764
▁ଗବ	-11.5766
୨୦୦୧	-11.5771
ସବ	-11.578
▁ଲିପ୍	-11.5785
ତୁଟ	-11.5786
▁ଗଣେଶଙ୍କ	-11.5789
▁ଯାତ୍ରୀଙ୍କ	-11.5789
ପର୍ଯ୍ୟନ୍ତ	-11.5798
ଦେଉଥିବା	-11.5806
▁ପଥଗୁଡ଼ିକ	-11.5822
ଧାମ	-11.5822
▁ଭିଡ଼	-11.5826
Description	-11.5827
ବିଧାନସଭା	-11.583
ସାବଧାନ	-11.5831
ହେଇଛି	-11.5832
ଋଷି	-11.5833
▁ସପ୍ତମ	-11.5834
ଶିଳ୍ପ	-11.5836
ଜୋ	-11.5837
ଶବ୍ଦ	-11.5837
▁ରହୁଥି	-11.584
ଆଈ	-11.584
ପଦ୍ମ	-11.5854
ପ୍ରକାର	-11.5855
ପାଞ୍ଚ	-11.5855
ୂଦ୍ରଣ	-11.5856
୮୮୮	-11.5862
▁ଭୂଷଣ	-11.5877
178	-11.589
ହ୍ନା	-11.5903
ଚିନ୍ତ	-11.5913
ରଞ୍ଜନ	-11.5924
▁ପାରିଲି	-11.5926
▁କିଣୁଛ	-11.593
ପରିବାର	-11.5935
▁ଅବିଶ୍ୱାସ	-11.5945
▁ସିଦ୍ଧ	-11.5947
▁ବିରକ୍ତି	-11.5955
▁ଟ୍ରାନ୍ସ	-11.596
ୟାଅ	-11.5982
▁Du	-11.5993
sel	-11.6012
ଚାଲ	-11.6016
▁cha	-11.6017
▁500	-11.6028
ିଚ	-11.604
▁ଖୋଜୁଛ	-11.6049
ସୀମା	-11.6053
▁ରାଜେଶ	-11.6058
ଵାଚ	-11.6058
ିଡ଼	-11.6066
▁ଜାଗାଟ	-11.6067
▁କଂପାନୀ	-11.6067
▁Dis	-11.6067
▁ପ୍ରେରଣ	-11.6078
ଶାଳୀ	-11.608
etwork	-11.6097
▁ସ୍ଥାନାନ୍ତର	-11.6106
▁ଦେଖାଯାଉ	-11.6118
▁ଟ୍ୱି	-11.6125
▁Minist	-11.6125
ିକ୍ଷଣ	-11.6132
ଲ୍ପ	-11.6134
ification	-11.6136
▁ତଳେଣତ	-11.6136
▁ଜୈବ	-11.614
▁Girl	-11.614
କ୍ଷିପ୍ତ	-11.6142
▁ସାମନ୍ତ	-11.6143
STYLE	-11.6143
LIFE	-11.6143
Subject	-11.6143
ociety	-11.6143
▁Subscribe	-11.6143
▁Twitter	-11.6143
▁consol	-11.6143
▁contrib	-11.6143
▁women	-11.6143
▁ଅଭୟାରଣ୍ୟ	-11.6143
▁ପଂଚାୟତ	-11.6143
Kerala	-11.6143
egistration	-11.6143
ନବକଳେବର	-11.6143
▁Access	-11.6143
▁Actress	-11.6143
▁Application	-11.6143
▁Credit	-11.6143
▁Entertainment	-11.6143
▁IFFCOYuva	-11.6143
▁Join	-11.6143
▁Label	-11.6143
▁SMTP	-11.6143
▁Service	-11.6143
▁Startup	-11.6143
▁Unknown	-11.6143
▁appointment	-11.6143
▁cream	-11.6143
▁said	-11.6143
▁shortcut	-11.6143
▁submit	-11.6143
▁ଅଜାଣତରେ	-11.6143
▁ଅଦଳବଦଳ	-11.6143
▁ଅଶ୍ଳୀଳ	-11.6143
▁ଆଂଚଳିକ	-11.6143
▁ଆବଶ୍ଯକ	-11.6143
▁ଆମ୍ବୁଲାନ୍ସ	-11.6143
▁ଆଲଗୋରିଦମ	-11.6143
▁ଉଦ୍ଦିଷ୍ଟ	-11.6143
▁କନ୍ଧମାଳ	-11.6143
▁କାଢ଼ନ୍ତୁ	-11.6143
▁କୁହାଯାଉଛି	-11.6143
▁କୋଠରୀ	-11.6143
▁ଖୁବଶୀଘ୍ର	-11.6143
▁ଗର୍ଭାବସ୍ଥା	-11.6143
▁ଗାଣିତିକ	-11.6143
▁ଘୂର୍ଣ୍ଣିଝଡ	-11.6143
▁ଚାଁହୁଛ	-11.6143
▁ଦ୍ୱାଦଶ	-11.6143
▁ନବରଙ୍ଗପୁର	-11.6143
▁ପଚ଼ାର	-11.6143
▁ପର୍ଯ୍ୟାପ୍ତ	-11.6143
▁ପ୍ଲାଷ୍ଟିକ	-11.6143
▁ବିଦୂଷକ	-11.6143
▁ବ୍ଲାଷ୍ଟର	-11.6143
▁ମୁଲତବୀ	-11.6143
▁ମୂଖ୍ଯ	-11.6143
▁ଯୂଯ	-11.6143
▁ଶ୍ରୋତା	-11.6143
▁ଷଡଙ୍ଗୀ	-11.6143
▁ଷ୍ଟାଇପେଣ୍ଡ	-11.6143
▁ସଜାଡନ୍ତୁ	-11.6143
▁ସନ୍ନିବେଶଯୋଗ୍ୟ	-11.6143
▁ହିନ୍ଦୁସ୍ତାନ	-11.6143
▁ହେଲିକପ୍ଟର	-11.6143
▁Class	-11.6143
▁things	-11.6143
▁ଅମିତାଭ	-11.6143
▁ଝଟକା	-11.6143
▁ପରିଷ୍କାର	-11.6143
▁ବିଭାଜିତ	-11.6143
▁ମେସର୍ସ	-11.6143
▁ଶମ୍ଭୁ	-11.6143
▁ହତବାକ	-11.6143
▁ଅନାମିକା	-11.6143
▁ଅପହରଣ	-11.6143
▁ଅଭଦ୍ର	-11.6143
▁କୋଣାର୍କ	-11.6143
▁ହାଲୁକା	-11.6143
▁class	-11.6143
▁ନିରୀହ	-11.6143
▁ନିସ୍ତାର	-11.6143
▁ବ୍ଯବସ୍ଥା	-11.6143
▁ପାଆନ୍ତି	-11.6143
▁ମୁନାଫା	-11.6143
▁Rights	-11.6143
Blog	-11.6143
▁ଅଂଚଳ	-11.6143
▁ପ୍ରସାରଣ	-11.6143
▁୨୦୧୩ରେ	-11.6143
▁ବିସ୍ମୟ	-11.6143
▁sens	-11.6143
▁ପ୍ରତିରକ୍ଷା	-11.6143
▁ପ୍ରଶିକ୍ଷଣ	-11.6143
▁ଯାଜକ	-11.6143
appear	-11.6144
ାଢୀ	-11.6144
▁ଭଲପାଇବା	-11.6144
▁ପିଠିରେ	-11.6144
▁ଢୋକ	-11.6144
▁ସୁପ୍ରିମ	-11.6144
▁ନିଆଯିବ	-11.6144
▁ବିଲିୟନ	-11.6144
ମିଲିଲିଟର	-11.6144
▁ଉତ୍ତେଜନା	-11.6144
▁ପ୍ରଚୁର	-11.6144
▁ବିତରକ	-11.6144
▁କପଟୀ	-11.6144
ousehold	-11.6144
▁ହସ୍ତାନ୍ତର	-11.6144
▁କେନାଲ	-11.6144
▁ନିକିତା	-11.6144
▁ନୟାଗଡ଼	-11.6144
▁usage	-11.6144
▁କାର୍ଯ୍ୟକାରିଣୀ	-11.6144
▁ଆଟଲା	-11.6144
▁ଚିକିତ୍ସକ	-11.6144
ଏଷୌ	-11.6144
ଆମ୍ଭମାନେେ	-11.6144
▁ମରୁଡ଼ି	-11.6144
▁ପ୍ରଭାସ	-11.6144
▁ମୂଷା	-11.6144
▁ନିର୍ଭରଶୀଳ	-11.6144
▁ସମ୍ବନ୍ଧ	-11.6144
▁ଅବାନ୍ତର	-11.6144
▁ସମ୍ବର୍ଦ୍ଧ	-11.6144
▁୫୫ନଂ	-11.6145
▁ନିର୍ଭୟ	-11.6145
▁Whi	-11.6145
▁ନିରୁପ	-11.6145
ଚାମଚ	-11.6145
ପବ୍ଲିକ	-11.6145
▁ଫ୍ରେମ	-11.6145
▁ଶୁଦ୍ଧ	-11.6145
▁sexy	-11.6145
▁୫ଫୁଟ	-11.6145
▁କଳିଙ୍ଗ	-11.6145
▁୧୯୮୫	-11.6146
▁ଗିନି	-11.6146
▁୧୯୭୧	-11.6146
▁MiB	-11.6146
▁ଫର୍ମାଟ	-11.6146
▁ମହାକାଶ	-11.6146
▁ଅନୁଗ୍ରହ	-11.6146
▁ଟ୍ରାଭେଲ୍	-11.6146
download	-11.6146
▁ପଠାଯାଇଥିବା	-11.6146
▁ଗୋବିନ୍ଦ	-11.6147
▁୯୩୧	-11.6147
▁ଜମିଦାର	-11.6147
▁ବଂଚିବାକୁ	-11.6147
▁ସମର୍ପିତ	-11.6147
▁ପୋଲି	-11.6147
▁address	-11.6147
▁ମାଗୁଛନ୍ତି	-11.6148
▁ସ୍ମରଣୀୟ	-11.6148
▁ସଂଜୟ	-11.6148
ସଂକ୍ଷେପ	-11.6148
ଦୃଶ	-11.6148
▁ଏଫ	-11.6149
▁SCH	-11.6149
path	-11.6149
▁ବନ୍ଧୁତ୍ୱ	-11.6149
ାର୍ଡେନ	-11.6149
▁ଲାଭଜନକ	-11.6149
▁Anne	-11.6149
▁କମାଇବାକୁ	-11.6149
▁ମିଳୁଥିବା	-11.6149
▁ଅଭିମାନ	-11.6149
▁ଅଷ୍ଟମ	-11.6149
▁ଆଇଏଏସ	-11.615
▁ସନ୍ତାନଗଣ	-11.615
▁ସୁପାରି	-11.615
୍ପିସ	-11.615
▁ବୁଦ୍ଧିମାନ	-11.615
▁ପେଚା	-11.615
▁ସୁମନ୍ତ	-11.6152
▁IRC	-11.6152
ଗରୀବ	-11.6152
▁ଫାରୋ	-11.6154
▁ଫ୍ରେସ	-11.6154
▁ଯୋଗଦେଇ	-11.6155
ାଢ଼ୀ	-11.6155
▁ବାବିଲ	-11.6155
▁ମେହର	-11.6155
▁ଆସୁଥିଲା	-11.6155
▁Bell	-11.6155
ଭିୟୁ	-11.6157
▁ଜିରୋ	-11.6157
▁ମନକଥା	-11.6157
▁Oh	-11.6157
▁ଲିଷ୍ଟ	-11.6158
unch	-11.6158
ବରଗଡ଼	-11.6158
।’”	-11.6159
▁ଢାପି	-11.6159
▁ଦେବତାମାନେ	-11.6159
▁ମିଳିପାରେ	-11.6159
▁ଜାଣିନାହାନ୍ତି	-11.6161
▁ସକଳ	-11.6162
▁Bia	-11.6162
▁Mate	-11.6163
present	-11.6164
▁ଭାବିଛନ୍ତି	-11.6165
▁ଝଡ଼	-11.6166
5-10	-11.6166
▁ସାଙ୍ଗମାନେ	-11.6169
▁ବିଳମ୍ବିତ	-11.6169
▁ଜର୍ଜ	-11.6171
▁କାର୍ଯ୍ୟରତ	-11.6171
75%	-11.6171
ଫୁଲା	-11.6172
▁ଚାଲୁଛି	-11.6173
▁କବଳରୁ	-11.6175
▁ହେଇଥିଲା	-11.6177
▁mean	-11.6178
▁ପରିଡ଼ା	-11.6178
▁ହୋଇନଥିଲା	-11.6179
▁ଚାଲିଯାଇଛି	-11.618
▁ମଞ୍ଜିମାନ	-11.618
▁ଜଣାନାହିଁ	-11.6181
▁ଛାତ୍ରଛାତ୍ରୀଙ୍କ	-11.6182
୧୨୨	-11.6182
▁ଚାଲିଯାଏ	-11.6183
orry	-11.6183
▁ସମ୍ପର୍କୀୟ	-11.6184
▁into	-11.6185
ପିଣ୍ଟୁ	-11.6187
▁ଆହୁ	-11.6188
▁ୟଶ	-11.6188
ଢ଼ାଯାଏ	-11.6188
▁ଜେରା	-11.619
Format	-11.6191
ଆକର୍ଷଣୀୟ	-11.6192
▁ବରଷ	-11.6192
▁ପଞ୍ଚୁ	-11.6192
▁ପ୍ରତିବର୍ଷ	-11.6194
▁ଆସିପାରେ	-11.6195
▁କରିପାରିବୁ	-11.6196
ବ୍ରିଜ	-11.6196
▁ମୁଦ୍ରଣୀ	-11.6198
Users	-11.6199
▁ନିରବତା	-11.6199
▁ବଢ଼ିଲା	-11.6199
▁ଲଗାଇଲେ	-11.6199
(2)	-11.6209
▁କେତେଥର	-11.6209
ଆଦର୍ଶକୁ	-11.6209
▁ହିରୋଇନ	-11.622
▁ଧଳ	-11.622
▁କଂପାନୀର	-11.622
▁ଶୂନ୍ଯ	-11.6222
ଶାରଦ	-11.6228
▁କଳ୍ପ	-11.6228
▁Pra	-11.623
▁ଆଗେଇ	-11.6232
▁ଚେତା	-11.6233
▁ଅଯୋଗ୍ୟ	-11.6238
୍ରବଣ	-11.6239
▁ବିବେକ	-11.6241
▁ହୋଇଅଛି	-11.6243
▁ବଢ଼ିବା	-11.6245
ର୍ଚ୍ଚା	-11.6245
▁ବୁଝିବାକୁ	-11.6246
▁ବିକଳ୍ପଟି	-11.625
strings	-11.625
▁ଅଧିକତମ	-11.6251
ଗଣ୍ଠି	-11.6255
▁ନେତାମାନେ	-11.6256
▁ଫାଶ	-11.6263
୮୨	-11.6268
▁ଯୋଡ଼ିବା	-11.627
ନଥିବାରୁ	-11.6272
ଳଖ	-11.6273
▁ହସିବାର	-11.628
city	-11.6286
God	-11.6297
Dei	-11.6302
arge	-11.6304
ata	-11.6305
▁ଫିଲିପ	-11.6316
▁ଯନ୍ତ୍ରୀ	-11.632
Part	-11.632
▁vo	-11.6324
▁ପ୍ରଶ	-11.6324
▁ଠକାମ	-11.6332
ାଲିଆ	-11.6338
▁ପାଅ	-11.6345
ଟାଟୁ	-11.6349
ିଛ	-11.6358
ବଶେଷ	-11.6361
▁69	-11.6364
way	-11.6365
ିଚା	-11.6365
▁ଲାଗୁନି	-11.6367
ପାହାଡ	-11.6374
▁୪୩	-11.6384
ଭୂଷ	-11.6391
▁ବିତାଇ	-11.6392
▁କ୍ଲାସ	-11.6397
bh	-11.6399
▁ଖେଳିବ	-11.6403
ୋକ୍ତ	-11.6427
▁ଫାଇଲଗୁଡିକ	-11.6431
୬୯	-11.6434
▁ବୈଦ	-11.6437
ପୋଷି	-11.6439
▁ଉପଭୋକ୍ତାଙ୍କ	-11.6447
କୋଉ	-11.6447
ଜନ୍ତୁ	-11.6447
ହାଣ୍ଡି	-11.6452
▁ଲୀନା	-11.6456
▁ଜିମ	-11.6463
୍ରାଫିକ	-11.6468
tte	-11.6474
▁ଟ୍ୟା	-11.6486
▁ପ୍ରଦାନକାରୀ	-11.6495
ସ୍କୋ	-11.6497
▁ଯୋହନଙ୍କ	-11.6499
ସମ୍ପଦ	-11.6501
୨୦୦୪	-11.6511
ଫେଲ	-11.6518
ଘନ	-11.652
ୃଶ	-11.6532
▁ମାନସ	-11.6537
ମୂଲ୍ୟ	-11.6543
main	-11.6553
▁ଟେକ୍	-11.6554
▁ବ୍ରହ୍ମଚର	-11.6556
୯୭	-11.6566
▁ରୋମାନ	-11.6566
ରାଇବାକୁ	-11.6569
▁ଦିଆଯ	-11.6586
ଯଥା	-11.6591
ବାହିନୀ	-11.6595
source	-11.6596
ଦିଶ	-11.6597
ପ୍ରାଥମିକ	-11.6598
ଡୁଆ	-11.6598
ଅଗଷ୍ଟ	-11.6599
ଷ୍ଟାଣ୍ଡ	-11.6599
ଦିଆଯାଏ	-11.66
html	-11.66
NAME	-11.6601
public	-11.6601
Oriya	-11.6602
ଫାଇଲ	-11.6603
Google	-11.6604
ଇନ୍ଦ୍ର	-11.6604
ଜାଣନ୍ତୁ	-11.6605
ବ୍ୟବହାର	-11.6605
୨୦୧୫	-11.6605
ପ୍ରଥମ	-11.6605
user	-11.6606
▁cit	-11.6606
ଏଇଟା	-11.6607
ପୁରୁଷ	-11.6608
ବନ୍ଧୁ	-11.661
▁ପ୍ରେରିତମାନଙ୍କ	-11.6611
ହୋଇନାହିଁ	-11.6613
▁କ୍ଲିପବୋର୍ଡ	-11.6613
ଆଦେଶ	-11.6616
ବିଦ୍ୟା	-11.6621
କରିଥାଏ	-11.6624
ସମାଜ	-11.6625
କାଳିଆ	-11.6626
ପୁଣି	-11.6634
ଗଛ	-11.664
ଘ୍ର	-11.6653
ାକ୍ଷୀ	-11.6664
ଦୀପ	-11.6664
ୁରୀ	-11.6666
ତସ୍ୟ	-11.6672
▁ଖାଇବ	-11.6679
▁ଇଭି	-11.6679
▁ଅପରେସନ୍	-11.668
କିଲୋ	-11.6683
ଏସବୁ	-11.6685
କରିବେ	-11.6687
362	-11.6688
▁ତୁଚ୍ଛ	-11.6689
▁ବଢେଇ	-11.6695
଼ାଇ	-11.6715
ର୍ୟ୍ଯ	-11.6716
200	-11.6717
▁Page	-11.6733
▁dr	-11.6735
▁Un	-11.6738
ିଳେ	-11.6745
▁HTTP	-11.6756
▁ମେଗା	-11.676
ମ୍ବିଆ	-11.6769
▁Creat	-11.6777
ବେଙ୍ଗଲ	-11.6778
▁ଉଚ	-11.678
ଧାରା	-11.6781
▁ଯୋଡ଼	-11.6781
ଇଠି	-11.6782
ାଗ୍	-11.6786
nb	-11.6795
ର୍ଫ	-11.6798
▁ରିପ	-11.6804
▁ଅଂଶଗ୍ରହଣକାରୀମାନ	-11.6804
ଦେଇଥାଏ	-11.681
ମତେ	-11.6811
ଲୱାର	-11.6812
375	-11.6813
ମହାରାଷ୍ଟ୍ର	-11.6815
ୟାଲ	-11.6821
▁5:1	-11.6833
ଆଦର୍ଶ	-11.6842
୍ରୀମାନଙ୍କ	-11.6857
▁୫୫୦	-11.6861
▁କମାଣ୍ଡ	-11.6863
▁minute	-11.6874
▁ହୋଇପାରି	-11.688
hips	-11.6882
ୁଣ୍ଡି	-11.6894
ଧରି	-11.6897
▁କୃଷକଙ୍କ	-11.6897
▁ହିନ୍ଦ	-11.69
ଉଟ	-11.69
elf	-11.6901
PM	-11.6901
tered	-11.6903
▁ସଦୃଶ	-11.6906
oftware	-11.6907
▁ଜଣାପଡି	-11.6909
୦୯	-11.691
ସଂହିତା	-11.691
▁ଉତ୍ସାହ	-11.6911
▁down	-11.6912
▁edit	-11.6912
econd	-11.6912
bbreviat	-11.6913
karipār	-11.6913
Beautiful	-11.6913
Chemical	-11.6913
College	-11.6913
Details	-11.6913
Disabilities	-11.6913
Mountain	-11.6913
ReplyForward	-11.6913
Tagged	-11.6913
VirtualBox	-11.6913
WITH	-11.6913
ehili	-11.6913
martphone	-11.6913
person	-11.6913
rgument	-11.6913
ssistance	-11.6913
witch	-11.6913
ଅଧରପଣା	-11.6913
କିଲଲସ	-11.6913
ଙ୍କରାଚାର୍ଯ୍ୟ	-11.6913
ଚୌଧୁରୀ	-11.6913
ନଖୋଲା	-11.6913
ାର୍ଲଫ୍ରେଣ୍ଡ	-11.6913
୍ରଦୂଷଣ	-11.6913
▁brasero	-11.6913
▁ଇନ୍ଦିରା	-11.6913
▁କ୍ୟାସଲେସ୍	-11.6913
▁ଗଂଜାମ	-11.6913
▁ବର୍ଦ୍ଧିତ	-11.6913
▁ବାରିପଦା	-11.6913
▁ବିଭାଜକ	-11.6913
▁ମନମୋହନ	-11.6913
▁ମହାରଥୀ	-11.6913
▁ଯାନ୍ତ୍ରିକ	-11.6913
▁ରାଜରାସ୍ତା	-11.6913
▁ଲଗଆଉଟ	-11.6913
▁ଶାମୁୟେଲ	-11.6913
▁ଶେଷାଦ୍ରି	-11.6913
▁ସଫ୍ଟୱେର	-11.6913
କ୍ଷୋଭ	-11.6913
▁ଉଲ୍ଲିଖିତ	-11.6913
▁ଦୌଡ଼ରେ	-11.6913
▁ଭୀଷଣ	-11.6913
ଷ୍ଟାଡିୟମ	-11.6913
ୈକୁଣ୍ଠ	-11.6913
▁"{1}"	-11.6913
MacOS	-11.6913
ଞ୍ଚଳିକ	-11.6913
ାଢ଼ୁଅଛି	-11.6913
୍ୟାରେଣ୍ଟି	-11.6913
▁ଅର୍ଚ୍ଚନା	-11.6913
Delhi	-11.6913
Thank	-11.6913
ଯିହୁଦା	-11.6913
▁ହରିପ୍ରସାଦ	-11.6913
▁ଦମନକ	-11.6913
website	-11.6913
▁ମୂଲ୍ୟାୟନ	-11.6913
▁ଶିକ୍ଷଣକାର୍ଯ୍ୟ	-11.6913
୍ୟାବିନେଟ	-11.6913
ାଣକ୍ୟ	-11.6913
▁acc	-11.6913
▁ଉପରୋକ୍ତ	-11.6913
ଜଳବାୟୁ	-11.6913
▁ପଶ୍ଚିମବଙ୍ଗ	-11.6913
ପ୍ଲାଣ୍ଟ	-11.6913
KHA	-11.6913
ନୁକୂଳ	-11.6913
ୃତ୍ତିକା	-11.6913
▁ହୀରା	-11.6914
ସାନବାବୁ	-11.6914
ସତ୍ତ୍ୱେ	-11.6914
lette	-11.6914
%02	-11.6914
ଂଶୀଦାର	-11.6915
peech	-11.6915
zone	-11.6915
▁ସଂକ୍ଷେପରେ	-11.6915
▁ମୂତ୍ର	-11.6915
▁sex	-11.6916
hange	-11.6916
ଭିଭାବକ	-11.6916
▁ଆପଲେଟ	-11.6916
▁ଶ୍ରୀଲଙ୍କା	-11.6916
oday	-11.6916
knowledge	-11.6916
24,000	-11.6916
▁coun	-11.6917
▁ବ୍ୟାଟେରୀ	-11.6917
▁ୟୁଦ୍ଧ	-11.6918
▁ଭୂଲମ୍ବ	-11.6918
▁Fun	-11.6918
ସଫ୍ଟ	-11.6919
ୁଢ଼ାସୁର	-11.6919
▁iCalendar	-11.6919
ଲିଙ୍ଗ୍	-11.692
▁କରୁଣା	-11.6921
ତୃପ୍ତି	-11.6922
▁ନେପାଳ	-11.6922
▁ଗ୍ରୀନ	-11.6923
ଲୀଳା	-11.6924
ION	-11.6925
▁୨୦୧୧	-11.6925
ଚେରୀ	-11.6926
ବାବୁଶାନ	-11.6926
ୁଣ୍ଢ	-11.6926
alance	-11.6926
▁API	-11.6927
LAR	-11.6928
ଶୋଥ	-11.6928
gmail	-11.6928
poem	-11.6933
ହେୂ	-11.6933
not	-11.6933
▁2011	-11.6934
▁spe	-11.6934
▁ହାସ୍ୟ	-11.6936
▁ସ୍ମାର୍ଟଫୋନ୍	-11.6938
ଶତଃ	-11.6938
▁ଅଭୟ	-11.6939
▁kari	-11.6942
୭୨	-11.6942
▁ଦୋକାନୀ	-11.6943
▁ବୁନ୍ଦ	-11.6944
▁ସତେଜନ	-11.6945
▁କମୁଛି	-11.6947
flow	-11.6949
mum	-11.6954
ତାବରଣ	-11.6955
▁ପ୍ରଚାରକ	-11.6958
Priority	-11.6959
▁ତତ୍କାଳ	-11.6964
ership	-11.6965
sticks	-11.6966
ସ୍ୱାର୍ଥପର	-11.697
▁ବନ୍ଧୁକ	-11.6976
▁ହାର୍ଡ	-11.6978
▁ବ୍ୟତ	-11.6985
ବସିଥିଲା	-11.6987
rid	-11.6988
▁ଗଣନ	-11.699
ଷ୍ଟୋରରେ	-11.6996
..?"	-11.7006
ସାରିଲାଣି	-11.7026
ଜିଯିବା	-11.7031
▁ଦେଖାଦେଇ	-11.7031
ହସ୍ତୀ	-11.7034
ବ୍ୟାପୀ	-11.7043
earn	-11.7048
ୁଝି	-11.7057
ଗନ୍ଧ	-11.7067
▁ବିକଳ	-11.7075
୍ରେୟ	-11.7082
ଆସି	-11.709
ମଲ୍ଲ	-11.7099
ଓ୍ଵାଇ	-11.7104
▁Non	-11.7109
▁ପ୍ରଦୀପ	-11.7118
▁ସେଟିଙ୍ଗଗୁଡିକ	-11.7128
▁XP	-11.7146
୩୬	-11.7151
▁Flo	-11.7157
ଟିଏଫ୍	-11.7167
bus	-11.7191
ାଧୀନ	-11.7199
ଇନ୍‍	-11.7201
୦୪	-11.7208
oss	-11.7223
ାଉଲ	-11.724
9.2	-11.7259
pid	-11.7263
ଝଗଡା	-11.7272
ife	-11.7284
ର୍ଦ	-11.7286
▁ଗାଢ	-11.7286
ମଯ	-11.729
୍ରେଡ଼	-11.7309
୍ଲୋବାଲ	-11.7314
ଏସ୍‍	-11.7315
▁ଜାଣୁ	-11.7321
ୁଖପାତ୍ର	-11.7333
▁ବାହାରିବ	-11.7337
ଦୃଶ୍ୟ	-11.7356
୫୫	-11.7359
▁179	-11.7371
▁ଦେଖିପାରି	-11.7381
view	-11.7409
▁el	-11.741
କୋହଲି	-11.7429
Phone	-11.7429
ମହାଶୟ	-11.7429
ଚେତନା	-11.7432
ଅଗ୍ନି	-11.7432
▁Dr	-11.7433
ପ୍ରତ୍ୟେକ	-11.7433
ଦ୍ବାରା	-11.7434
title	-11.7434
ବର୍ତ୍ତମାନ	-11.7436
ବ୍ୟକ୍ତି	-11.7438
ଖଲ	-11.744
ହୋଇଥାଏ	-11.7441
▁ପିତାମା	-11.7447
ଛୋଟ	-11.745
read	-11.7452
ମାଲିକ	-11.7453
ଦୃଷ୍ଟି	-11.7453
କରିପାରିବେ	-11.7455
ଦିଗରେ	-11.7459
www	-11.746
press	-11.7462
Ban	-11.7462
୍ରଦ	-11.7467
କୀଟ	-11.7477
▁ଚାଳ	-11.7482
▁ହୋ‍ଇ	-11.7491
ିଶ୍	-11.7492
ରଖିଥାଏ	-11.7494
interest	-11.7499
ଆଡୁ	-11.75
୍ରାଉଜିଙ୍ଗ	-11.7501
▁ଅନୁରୋଧଗୁଡ଼ିକ	-11.7503
ରାଜିତ	-11.752
▁ଟାଇମ	-11.7521
କହୁ	-11.7522
▁ସ୍ବତନ୍ତ୍ର	-11.7543
169	-11.7548
ଜ୍ଞାନୀ	-11.7549
▁ଜ୍ୟୋତିଷ	-11.7559
ଚୋରା	-11.7568
ଧବା	-11.7586
ଳତୀ	-11.7589
ରୋଧ	-11.759
talk	-11.7591
ray	-11.7602
▁ପଲେଷ୍ଟୀୟମାନ	-11.7619
ମ୍ବାଦିକଙ୍କୁ	-11.7629
▁doc	-11.7635
▁ପ୍ରଗତି	-11.7641
ଙ୍ଗଳ	-11.7648
▁ଶିଳ	-11.7662
▁ପଠାଉ	-11.7681
ute	-11.7686
▁ସମସ୍	-11.7694
▁କେଉଁଠା	-11.7694
▁ଗେହି	-11.7696
▁fir	-11.7698
▁କିଣିବ	-11.7701
▁ବୁଣି	-11.7725
ସ୍ତୋତ୍ରମ	-11.7726
▁ଅଭିଗମ୍ୟ	-11.7732
▁ପ୍ରୋତ୍ସାହ	-11.7733
▁ଆବୃତ	-11.7733
▁ଚୌକି	-11.7735
ତୃପ୍ତ	-11.7738
ular	-11.7739
ସ୍ନାତ	-11.774
GUI	-11.7745
▁Opera	-11.7746
Type	-11.7746
period	-11.7746
ଷ୍ଟ୍ରେଲିୟା	-11.7746
▁ଆଉଟପୁଟ	-11.7746
▁ଗବେଷକ	-11.7746
Commons	-11.7746
Luck	-11.7746
Message	-11.7746
November	-11.7746
ORIYA	-11.7746
Policy	-11.7746
Status	-11.7746
Uncategorized	-11.7746
college	-11.7746
recaution	-11.7746
ssenger	-11.7746
support	-11.7746
unknown	-11.7746
usiness	-11.7746
ଆନୁଷ୍ଠାନିକ	-11.7746
ଗିଜସ୍ତାନ	-11.7746
ତାଜିକିସ୍ତାନ	-11.7746
ମ୍ପ୍ଲୟର୍ସ	-11.7746
ଲୁକ୍କାୟିତ	-11.7746
ଶ୍ଲେଷଣ	-11.7746
ସ୍ତିଷ୍କ	-11.7746
ସ୍ପେଶାଲ	-11.7746
ୋମାଇସିନ	-11.7746
୍ଷତିଭରଣା	-11.7746
ୟିରୂଶାଲମ	-11.7746
ୟିହୂଦା	-11.7746
▁Hatat	-11.7746
▁Please	-11.7746
▁ଆଭ୍ୟନ୍ତରୀଣ	-11.7746
▁ଗୋଵିଂଦ	-11.7746
▁ଚିତ୍ରସଙ୍କେତ	-11.7746
▁ଜାହାଜ	-11.7746
▁ଜୀବନସାଥୀ	-11.7746
▁ପରିଦର୍ଶିତ	-11.7746
▁ବଲାଙ୍ଗୀର	-11.7746
▁ବିମାନବନ୍ଦର	-11.7746
▁ବୃଷ୍ଟିପାତ	-11.7746
▁ଭିଜିଲାନ୍ସ	-11.7746
▁ମଧ୍ୟାହ୍ନ	-11.7746
▁ଯବକ୍ଷାରଜାନ	-11.7746
▁ଶୁଭ୍ରାଂଶୁ	-11.7746
Machine	-11.7746
Preview	-11.7746
Record	-11.7746
ପଥପ୍ରଦର୍ଶନ	-11.7746
ାଧିନତା	-11.7746
▁just	-11.7746
▁ଛାଣିବା	-11.7746
Body	-11.7746
ଅନ୍ତର୍ଜାତୀୟ	-11.7746
▁ଅନ୍ତତଃ	-11.7746
while	-11.7746
▁ଲଘୁ	-11.7746
UTC	-11.7746
▁କଇଁଛ	-11.7746
ccept	-11.7746
▁Here	-11.7746
▁ଡିରେକ୍ଟ	-11.7746
style	-11.7746
ନୁମୋଦିତ	-11.7746
ncouragement	-11.7746
yahoo	-11.7746
▁know	-11.7746
ର୍ଜିକାଲ	-11.7746
▁ନିସାନ	-11.7746
VPN	-11.7746
▁ସକେଟ	-11.7746
ସାପେକ୍ଷ	-11.7746
ଅଗ୍ରାହ୍ୟ	-11.7746
ନୁଧ୍ୟାନ	-11.7746
ୟିଷ୍ର	-11.7746
▁ପୂର୍ଣ୍ଣଚନ୍ଦ୍ର	-11.7747
image	-11.7747
▁ନିର୍ମା	-11.7747
▁ଗହମ	-11.7747
▁house	-11.7747
ିୟନ୍ତ୍ରକ	-11.7747
recognize	-11.7747
▁ଅବଦୁଲ	-11.7747
୍ୱିବେଦୀ	-11.7747
ondition	-11.7747
PHP	-11.7747
▁ଗାଲୱେ	-11.7747
ପହୃତ	-11.7747
କୀର୍ତ୍ତନ	-11.7747
defined	-11.7747
exist	-11.7747
ମ୍ପ୍ରଦାୟ	-11.7748
copy	-11.7748
▁ପରିକ୍ଷଣ	-11.7748
ହ୍ୟାଣ୍ଡ	-11.7748
କୃଷ୍ଟ	-11.7749
▁dict	-11.775
letter	-11.775
▁Kal	-11.775
▁mbox	-11.775
▁ଫିଚର	-11.775
Development	-11.7751
ଶିଘ୍ର	-11.7751
ିଥ୍ଯା	-11.7751
ଡକଟର	-11.7751
ather	-11.7751
▁ଧରିତ୍ରୀ	-11.7752
ଜଭୁତ	-11.7752
▁ଶିକ୍ଷଣ	-11.7752
DENT	-11.7754
▁ଯାଇଥିବ	-11.7754
ରେଡିଆନ	-11.7754
whatsapp	-11.7754
▁କୁମ୍ଭ	-11.7755
▁Filed	-11.7755
▁ଯାଂଚ	-11.7756
▁ଧୋନ	-11.7756
ାମନ୍ତରାୟ	-11.7756
ଚୌକିଦାର	-11.7757
୍ୟୈ	-11.7758
▁୬ମାସ	-11.7758
ର୍ଜରୀ	-11.7758
▁ଟ୍ରକ	-11.7759
ାପୁଡା	-11.7759
ଡକାୟାଇଥାଏ	-11.776
▁ଶିକ୍ଷାର୍ଥୀମାନେ	-11.776
?’”	-11.7762
University	-11.7762
▁ଜାପାନୀ	-11.7764
ଦୀପ୍ତି	-11.7765
arya	-11.7765
ଣାଶୁଣା	-11.7766
ଜୁରୀ	-11.7766
▁ଜେଲ୍	-11.7774
parameter	-11.7775
ୋତ୍ତର	-11.7781
Media	-11.7784
▁ଚୟନକର୍ତ୍ତ	-11.7788
▁ଅସମର୍ଥିତ	-11.7789
Like	-11.7791
▁ଅଧିନ	-11.7796
▁ପେଟ୍ରୋଲ୍	-11.7797
▁ଅନ୍ଯ	-11.7799
▁ମାଧ୍ୟମିକ	-11.7801
▁ଛୋ	-11.7805
ାତୁଣୀ	-11.7808
ିଭିଜନ	-11.7808
▁ମହାରାଜା	-11.781
ୌକା	-11.7812
ଶୀତଲ	-11.7814
▁ଜିତିବ	-11.7814
ଚେଞ୍ଜ	-11.7817
tv	-11.7819
....?”	-11.7824
xComment	-11.7839
▁ଫାଟ	-11.7844
2017).	-11.7848
▁ଜନମ	-11.7859
ୁପଚାପ	-11.7864
ୋନିଆ	-11.7865
ଂଗ୍ରହାଳୟ	-11.7874
ଏମ୍‍	-11.7877
▁ପ୍ରତିଛବିଗୁଡ଼ିକ	-11.7878
organiz	-11.7882
davi	-11.789
ରକ୍ଷଣ	-11.7892
▁ଶତକ	-11.7893
ଘୁଞ୍ଚା	-11.7903
ାଶାେ	-11.791
ଦାରଖ	-11.791
▁ପଢ଼ିପାରି	-11.7912
ଶାସ୍ତ୍ରୀୟ	-11.7913
825	-11.7914
ପନ୍ନ	-11.7922
ୈଠ	-11.7925
ୁଧୁରି	-11.7936
▁ଖୋଳ	-11.7942
ାଷାକୋଷ	-11.7955
tma	-11.796
୍ରମାଗତ	-11.7962
ଵେଦ	-11.7964
୍ୟାସ	-11.7969
▁ଅଧୁ	-11.7975
ବନ୍ଧୁଗଣ	-11.7986
▁ବୁଝ	-11.8008
▁ସଂଜ୍ଞ	-11.8029
ଆଇଏମ୍	-11.8033
ୁପରଷ୍ଟାର	-11.8052
ୀୟମାନଙ୍କୁ	-11.8061
ଦଫା	-11.8069
ଦାହ	-11.8072
387	-11.8084
▁Prot	-11.8089
peak	-11.811
ଥମ	-11.8114
ମୂଦ୍ର	-11.8125
▁ଆଶ୍ଚର୍ଯ	-11.8141
ଶାସ୍ତ୍ର	-11.8145
▁High	-11.8148
ପରୀକ୍ଷା	-11.8164
ପ୍ରାସଙ୍ଗିକ	-11.8169
bout	-11.8176
ଝାଳ	-11.8179
ibe	-11.818
ଦାୟିତ୍ୱ	-11.82
ssociates	-11.8203
ଦ୍ୟଂ	-11.8208
ଚକ୍ର	-11.8216
999	-11.8235
େଉଥିଲା	-11.8244
▁ଅପଡେଟ	-11.8247
▁ବସିଥା	-11.826
how	-11.8264
ୋର୍ସ	-11.827
515	-11.8276
୍ଷକ	-11.8278
ଟକରନ୍ତୁ	-11.8283
▁ଐଶ	-11.8285
saurus	-11.8294
ସ୍ଥାପନ	-11.8316
ହେଲ	-11.8321
ପଦଂ	-11.8329
▁MP	-11.8331
ମାଧବ	-11.8336
ଆମ୍ଭେମାନେ	-11.8336
ଶାସକ	-11.8336
Other	-11.8337
ଜାଗ୍ରତ	-11.8341
short	-11.8343
୨୦୧୬	-11.8344
ସମାପ୍ତ	-11.8346
ନୂଆ	-11.8347
ବାଳକ	-11.8347
ପହଞ୍ଚ	-11.8347
ଶାଳ	-11.8352
ତେଣୁ	-11.8357
date	-11.8359
Note	-11.836
ଉଠିଛି	-11.8363
ାୟୈ	-11.8364
▁ଝଗଡ	-11.8373
▁15000	-11.8379
▁204	-11.8391
୍ଲିପ	-11.8399
ଆୟତକ	-11.8406
cy	-11.841
▁ବୁଝା	-11.8413
ଦୃଶ୍ଯ	-11.8418
୯୮	-11.8421
▁ଘୁରା	-11.8438
1:15	-11.8451
୍ୟାକ୍	-11.8467
ସ୍ଥାପିତ	-11.8472
୮୦୦	-11.8472
▁ଛୁଇଁବ	-11.8478
ପ୍ରିୟ	-11.8505
rch	-11.8543
▁ଦସ୍ତଖ	-11.8552
nia	-11.8562
ୁଦ୍ରକ	-11.8571
▁ବଂଶଧର	-11.8584
MarcEdit	-11.859
ାଇଟ୍‍	-11.8606
pace	-11.8616
ରହିବ	-11.8617
ାସୀ	-11.862
▁ଭ୍ରମ	-11.8621
KB	-11.8622
ସୁପର୍	-11.8627
▁ମାଇକ୍ରୋ	-11.8637
ଶ୍ବାସ	-11.8637
Category	-11.8638
▁ଲୋକପ୍ରିୟ	-11.8647
uicide	-11.865
▁South	-11.8651
ିଶାଇୟ	-11.8653
▁ପରିଶ୍ର	-11.8653
ବର୍ଦ୍ଧନ	-11.8654
olution	-11.8655
ified	-11.8655
ology	-11.8655
gadgets	-11.8655
▁evolution	-11.8655
▁ଜୀବନଚର୍ଯ୍ୟା	-11.8655
HEALTH	-11.8655
Insert	-11.8655
SUBH	-11.8655
YOUR	-11.8655
arketing	-11.8655
beautiful	-11.8655
channel	-11.8655
ecret	-11.8655
estival	-11.8655
generic	-11.8655
lanking	-11.8655
ommunication	-11.8655
ultiple	-11.8655
value	-11.8655
କ୍ୟୁମୁଲେଟିଭ୍	-11.8655
ପରିକଳ୍ପନା	-11.8655
ପ୍ଲିକେଶନ	-11.8655
ବୈକଳ୍ପିକ	-11.8655
ରିପ୍ରେକ୍ଷୀରେ	-11.8655
ଶ୍ଳେଷକ	-11.8655
ଷଡ଼ଯନ୍ତ୍ର	-11.8655
ିତ୍ୟେତତ୍	-11.8655
ୂସ୍ଖଳନ	-11.8655
େମସ୍ପେସ	-11.8655
ୈାଣସି	-11.8655
ୌତୁହଳ	-11.8655
▁British	-11.8655
▁Help	-11.8655
▁Netscape	-11.8655
▁ଅଦ୍ୟତିତ	-11.8655
▁ଆଖପାଖ	-11.8655
▁ଇଚ୍ଛାଧୀନ	-11.8655
▁ଉଦ୍ଧୃତ	-11.8655
▁କୋରାପୁଟ	-11.8655
▁କୋଲକାତା	-11.8655
▁ଜ୍ୟେଷ୍ଠ	-11.8655
▁ଥଇଥାନ	-11.8655
▁ଦୀପାବଳି	-11.8655
▁ଦ୍ରାଘିମା	-11.8655
▁ନିଷ୍ଠୁର	-11.8655
▁ପାରାଦୀପ	-11.8655
▁ଫସିରହିଛନ୍ତି	-11.8655
▁ମନୋନୟନ	-11.8655
▁ମୁଥୁରାଜା	-11.8655
▁ସୌଭାଗ୍ୟ	-11.8655
▁ସ୍ବଯଂଚାଳିତ	-11.8655
୍ୱଂସ	-11.8655
▁ଇଚ୍ଛାରୂପୀ	-11.8655
▁ନିୟୁକ୍ତି	-11.8655
▁ମ୍ୟାଡାମ୍	-11.8655
OfThe	-11.8655
ଜଯ	-11.8655
ଡବ୍ଲ୍ୟୁ	-11.8655
ର୍ଗକିଲୋମିଟର	-11.8655
▁ଡିଗ୍ରି	-11.8655
▁ନିର୍ମଳ	-11.8655
▁ପାର୍ବତୀ	-11.8655
▁ଶାନୱେ	-11.8655
▁ଶାହାରୁଖ	-11.8655
Related	-11.8655
ଧାରାବାହିକ	-11.8655
▁ରାଜକୀୟ	-11.8655
udio	-11.8655
templates	-11.8655
{1}	-11.8655
ଯୁକ୍ତରାଷ୍ଟ୍ର	-11.8655
▁ମୁସଲିମ	-11.8655
େଟାସିଟି	-11.8655
▁ସେଣ୍ଟିମିଟର	-11.8655
wiki	-11.8655
▁ଦଶମିକ	-11.8655
▁ସଂଯୋଗିକୀ	-11.8655
▁ଜୀବନାୟନ	-11.8655
Frame	-11.8655
ୁକାବିଲା	-11.8655
▁ପିସିସି	-11.8655
▁ରେଡ୍ଡି	-11.8655
୍ରଶ୍ନବାଚୀ	-11.8655
ଭାବିଚିନ୍ତି	-11.8655
▁ସୁଧୀର	-11.8655
VID	-11.8655
▁ଡ଼ିସ୍କ	-11.8655
ଧୂଆଁ	-11.8656
ପାଦେୟ	-11.8656
ର୍ଷାଋତୁ	-11.8656
ଫୁଲ୍ଲ	-11.8656
▁ପୁନଶ୍ଚ	-11.8656
ଗହଣା	-11.8656
ରବାଟୀ	-11.8656
▁ରସୁଣ	-11.8656
ଜହ୍ନ	-11.8656
▁ପର୍ତ୍ତୁଗ	-11.8656
▁ନରସିଂହ	-11.8656
ravel	-11.8656
feed	-11.8656
ency	-11.8656
କୀରଣ	-11.8656
,2016	-11.8656
icons	-11.8656
▁Life	-11.8656
umak	-11.8656
▁ଵିଶ୍ଵ	-11.8656
▁ହଳଦୀ	-11.8656
ଏଠାକାର	-11.8656
gradua	-11.8657
ଝରଣା	-11.8657
ମହାତ୍ମା	-11.8657
ିକସେଲ	-11.8657
▁ସଚ୍ଚି	-11.8657
▁ଚର୍ଚ୍ଚ	-11.8657
ଗାମୀ	-11.8657
▁ରାମଚନ୍ଦ୍ର	-11.8657
▁ପେଟିଏମ	-11.8658
Find	-11.8658
▁ହସ୍ତକୃତ	-11.8658
lert	-11.8658
ତସ୍ତେ	-11.8658
▁ଗ୍ରୀକ	-11.8659
▁ସ୍ଵପ୍ନ	-11.8659
ସଲାକ	-11.8659
▁ନିକଟତମ	-11.8659
▁ପୃଷ୍ଠଭାଗ	-11.8659
ଇନ୍ଦ୍ରିୟ	-11.866
କାରାତ୍ମକ	-11.866
ାୟୁସେନା	-11.866
▁କେନ୍ଦ୍ରମନ୍ତ୍ରୀ	-11.866
update	-11.8661
▁ବିଶ୍ୱନାଥ	-11.8661
▁ତୃଣ	-11.8661
ରିସଂଖ୍ୟାନ	-11.8661
▁ଆଭାସୀ	-11.8661
iber	-11.8662
▁Chil	-11.8662
ବିଷ୍ୟବାଣୀ	-11.8665
ଜେଲରୁ	-11.8666
ଶ୍ଵରା	-11.8666
desktop	-11.8667
ension	-11.8667
୍ରୀଡା	-11.8669
▁conf	-11.8669
▁ସମ୍ଭବତଃ	-11.8669
୍ପିଡ୍	-11.867
▁ସୁବାସ	-11.8671
emand	-11.8671
ଦର୍ଯ୍ୟ	-11.8671
▁ଫାଟକ	-11.8671
ିବେଦନ	-11.8671
ର୍କିଂ	-11.8672
entry	-11.8672
ଅମୁକ	-11.8673
rize	-11.8674
voter	-11.8674
ଜରୁରୀକାଳୀନ	-11.8674
Report	-11.8674
Country	-11.8674
ଏଲ୍‍	-11.8674
ଲ୍ଫି	-11.8676
▁Sol	-11.8677
OneNote	-11.8678
ୁସିଆନ	-11.8679
୍ଫୁର	-11.868
Review	-11.8681
ସ୍ଵତନ୍ତ୍ର	-11.8684
ିଇଓ	-11.8687
▁ପରିତ୍ୟ	-11.8688
ିକ୍ଷୁ	-11.869
ୀବାଣୁ	-11.8691
▁ସହଭାଗ	-11.8691
0:18	-11.8693
web	-11.8697
ିରଫଦାରୀ	-11.87
park	-11.8709
ବାହୁଡ଼ା	-11.8714
ଯୋଜନା	-11.8715
ସଙ୍ଗରେ	-11.8715
▁NO	-11.8716
▁ଶାସ୍ତ୍ରୀ	-11.8716
୭୧	-11.8719
ାରିଣୀ	-11.8721
▁ଫର୍ମଗୁଡ଼ିକ	-11.8722
ବଳିଦାନ	-11.8722
400,000	-11.8723
ୂର୍ଗା	-11.8725
▁ପ୍ୟାକ	-11.8737
ook	-11.8739
ସ୍ତାବ	-11.8742
ବଣିଆ	-11.8745
Computer	-11.8746
▁ଲଢ଼ି	-11.8752
ଜାଣିନିଅନ୍ତୁ	-11.8753
▁ja	-11.8756
Did	-11.8758
ଦରାଜ	-11.8759
୮୫	-11.8762
ଗଢା	-11.8769
500,000	-11.8776
Oct	-11.8788
ଗ୍ରଗତି	-11.8791
Web	-11.8792
▁host	-11.8797
ଗତିଶୀଳ	-11.88
ଫୋର୍ସ	-11.8801
ଢୁ	-11.8803
ଗାଁ	-11.8814
ଫ୍ୟୁ	-11.8817
ୁଣ୍ଡିଆ	-11.8817
ାଢ଼ିଦିଅନ୍ତୁ	-11.8829
ୀଳମଣି	-11.8829
ୈତାନ	-11.884
▁log	-11.8853
େମେଂଟ	-11.8856
ବକ୍ସରେ	-11.8857
ରାମକୃଷ୍ଣ	-11.8871
ଲବଲ	-11.8873
ଅଜୟ	-11.8885
▁UN	-11.8886
▁Tech	-11.8899
ଯିଏକି	-11.8913
lose	-11.8928
ମେଳ	-11.893
ିତ୍ତିଭୂମି	-11.8942
PCC	-11.8953
600	-11.8959
େକସନ୍	-11.8974
ଉଡ଼	-11.8976
ଗଣା	-11.8992
▁ଦେଖିପାର	-11.8993
ୋଭାଯାତ୍ରା	-11.8994
▁Dur	-11.9015
ାଯାଇପାରିବ	-11.9016
▁ସ୍ପେସ	-11.9021
ଯାଗ	-11.9022
hil	-11.9048
ଯୁଗଳ	-11.9072
ool	-11.9074
ସଫଳ	-11.9079
ଦେଵୀ	-11.9088
ୋଚନା	-11.9104
▁impr	-11.9105
▁ପଟ୍ଟ	-11.9109
295	-11.9112
େବଲ	-11.9132
▁ଖୋଜୁଥି	-11.9132
ିନ୍ଧୁଛନ୍ତି	-11.9147
ସିରିଜ୍	-11.9148
dress	-11.9151
ଢ଼େଇ	-11.9154
▁କରାଯାଉଥି	-11.9156
ତ୍ସର୍ଗ	-11.9171
▁Mod	-11.9172
ସର୍ଗ	-11.9182
ଇଠୁ	-11.9208
search	-11.924
▁ଲଢ଼	-11.928
page	-11.9294
Inde	-11.9311
ଯୀଶୁ	-11.9316
ବଣ୍ଟନ	-11.9337
ପ୍ରାରମ୍ଭ	-11.9338
Wikipedia	-11.9338
୨୦୧୭	-11.9339
ବ୍ରହ୍ମ	-11.9339
ନିଶ୍ଚିତ	-11.934
ରଖନ୍ତୁ	-11.934
ବିରବଲ	-11.934
Temp	-11.934
ଶୂନ୍ୟ	-11.9341
Time	-11.9342
ଇଂରାଜୀ	-11.9343
ନିର୍ଦ୍ଦେଶ	-11.9343
ଦ୍ଵାରା	-11.9343
ଫୋଲଡର	-11.9343
ସୂଚନା	-11.9344
କିମ୍ବା	-11.9344
ବୃଦ୍ଧି	-11.9345
କବିତା	-11.9346
ଚଳିତ	-11.9347
ସଂଖ୍ୟା	-11.9348
ଶିକ୍ଷା	-11.9349
ଯେଉଁମାନେ	-11.9354
ଭାରତୀୟ	-11.9355
App	-11.9361
ଏଭଳି	-11.9363
୍ୟାନେଲ	-11.9366
onnect	-11.9366
▁ଟ୍ୟାକ୍ସ	-11.9371
ଭସ୍ମ	-11.9373
୧୨୫	-11.9374
କନ୍ୟା	-11.9382
େଘାଳୟ	-11.9385
ଜନ୍ମ	-11.9385
ାର୍କେଟିଂ	-11.9395
yco	-11.9413
▁ଶୃଙ୍ଖଳ	-11.9417
▁ଅବିବାହିତ	-11.9441
▁Confi	-11.9445
େହେର	-11.9448
▁ରହିପାରି	-11.9451
ଉଡ଼ା	-11.9477
▁ନିର୍ଦ୍ଧ	-11.9478
▁ମନ୍ତ୍ରଣା	-11.9487
tudents	-11.9524
ଯାଉଛୁ	-11.9531
ପାତାଳକୁ	-11.9536
nda	-11.9547
▁ଦମ୍ପତି	-11.955
ିଆଯାଇଥାଏ	-11.9551
ହତ୍ୟା	-11.9592
▁ଶ୍ରୀରାମ	-11.9601
▁ଅଧ୍ୟାପ	-11.9602
▁କ୍ରିଷ୍ଣ	-11.9605
▁ପରିବର୍ତ	-11.9605
ଜେଜେଙ୍କ	-11.9606
Start	-11.9616
▁ଜେଜେମା	-11.9616
ପତ୍ତି	-11.9618
ମରିଯା	-11.9618
ୂଚୀବଦ୍ଧ	-11.9622
୍ୟାନ୍ସର	-11.9622
▁ଏକ୍ସପ୍ରେସ	-11.9635
▁କସରତ	-11.9636
▁ପରିଚାଳନ	-11.9637
▁Apr	-11.9641
▁ସ୍ୱାଧୀନ	-11.9642
▁ତହସିଲ	-11.9645
୍ଵାର୍ଥ	-11.9649
ଙ୍ଖ	-11.965
eplace	-11.9651
ିସର୍ଚ	-11.9652
▁ଦାୟି	-11.9653
rocess	-11.9654
▁କିବୋର୍ଡ	-11.9654
▁trans	-11.9655
hrombo	-11.9655
Admin	-11.9655
Arjuna	-11.9655
Education	-11.9655
Examination	-11.9655
Quote	-11.9655
Register	-11.9655
Terbaru	-11.9655
ambalpur	-11.9655
arthak	-11.9655
because	-11.9655
caregiver	-11.9655
choose	-11.9655
difference	-11.9655
ehera	-11.9655
mperial	-11.9655
nterface	-11.9655
otanix	-11.9655
picture	-11.9655
published	-11.9655
service	-11.9655
urants	-11.9655
ଆଇଏଫଏଫ	-11.9655
ଗ୍ରାଜୁଏଟ୍	-11.9655
ନ୍ତ୍ରିମଣ୍ଡଳ	-11.9655
ନ୍ୱେଷଣ	-11.9655
ବଙ୍ଗୋପସାଗରରେ	-11.9655
ବର୍ଦ୍ଧକ	-11.9655
ଯିରୁଶାଲମ	-11.9655
ରଶ୍ରୀକାତରତା	-11.9655
ର୍ମାହତ	-11.9655
ର୍ଯ୍ୟବେସିତ	-11.9655
ସରସ୍ୱତୀ	-11.9655
ସ୍ତବ୍ଧ	-11.9655
ାଙ୍ଘାତିକ	-11.9655
ିତ୍ତରଂଜନ	-11.9655
ିରାପତ୍ତା	-11.9655
୍ରସ୍ୱସ୍ୱର	-11.9655
୍ରାକ୍ଷାରସ	-11.9655
୍ଲୋରାଣ୍ଟ୍ରାନୀଲ	-11.9655
▁Group	-11.9655
▁NNTP	-11.9655
▁Paytm	-11.9655
▁Shift	-11.9655
▁ଅକ୍ସିଜେନ	-11.9655
▁ଅସନ୍ତୁଷ୍ଟ	-11.9655
▁ଇଣ୍ଡିଭିଜୁଆଲ୍	-11.9655
▁ତାଳଚେର	-11.9655
▁ତୀମଥିଙ୍କ	-11.9655
▁ତେଭେତ	-11.9655
▁ଦିଗବଳୀଯ	-11.9655
▁ନିରପେକ୍ଷ	-11.9655
▁ନ୍ଯୁନତମ	-11.9655
▁ପରିଚାୟକ	-11.9655
▁ପାରସ୍ପରିକ	-11.9655
▁ବହୁମାଧ୍ଯମ	-11.9655
▁ଯୋଡନ୍ତୁ	-11.9655
▁ସଙ୍ଗଠନ	-11.9655
▁ସରଗରମ	-11.9655
▁ସହକର୍ମୀ	-11.9655
▁ହେଲମେଟ୍	-11.9655
▁ହୋମିଓପାଥି	-11.9655
uttack	-11.9655
vCard	-11.9655
▁ଇଞ୍ଜିନ	-11.9655
▁ଇଥିଓପି	-11.9655
▁କାହ୍ନୁ	-11.9655
▁ଖୁଡୀ	-11.9655
▁ଦେଵ୍ୟୁଵାଚ	-11.9655
▁ଶ୍ୱାତ	-11.9655
▁ସ୍ପେନିସ	-11.9655
Cricket	-11.9655
Equation	-11.9655
Golden	-11.9655
Married	-11.9655
join	-11.9655
ukh	-11.9655
ଥାଆନ୍ତା	-11.9655
ଶ୍ୱସ୍ତି	-11.9655
▁Plasm	-11.9655
▁ଆବର୍ଜନାପାତ୍ରକୁ	-11.9655
▁ଏନଟିଏମ୍	-11.9655
▁ଜେଜେବାପା	-11.9655
▁ଡ଼ାହାଣ	-11.9655
▁ପ୍ରତିକୂଳ	-11.9655
▁ଶ୍ରୀମତୀ	-11.9655
▁ପ୍ରମେୟ	-11.9655
Language	-11.9655
cope	-11.9655
ଫିସୀୟ	-11.9655
ଳନାୟକ	-11.9655
▁ଗୋଳାଇ	-11.9655
▁ତମାଖୁ	-11.9655
ANDA	-11.9655
ପରିହାର୍ଯ୍ୟ	-11.9655
Folder	-11.9655
ocol	-11.9655
ଭିଗମ୍ଯ	-11.9655
ାୟବଦ୍ଧତା	-11.9655
draw	-11.9655
େଦରଲ୍ୟାଣ୍ଡ	-11.9655
Nothing	-11.9655
configuration	-11.9655
ସୁରାନ୍ସ	-11.9655
ାବୃଷ୍ଟି	-11.9655
▁ଅଗ୍ରାଧିକାର	-11.9655
-2018	-11.9655
OUT	-11.9655
▁ନିର୍ଦ୍ଦେଶନାମା	-11.9655
ସମାରୋହ	-11.9655
MARC	-11.9655
ଯନ୍ତେ	-11.9655
୍ଷତ୍ରିୟ	-11.9655
▁SMS	-11.9655
ାଟାର୍ଜୀ	-11.9655
ollect	-11.9655
ଦ୍ଯରୁ	-11.9655
true	-11.9655
ସୁନ୍ନତ	-11.9655
୍ରମବୀକ୍ଷଣ	-11.9655
ପସ୍ୟା	-11.9655
ignature	-11.9655
Super	-11.9655
ଦୀର୍ଘସ୍ୱର	-11.9655
SDS	-11.9655
ବିଷାକ୍ତ	-11.9655
CRI	-11.9655
ଳାତ୍କାର	-11.9655
ଭିଶପ୍ତ	-11.9655
VCD	-11.9655
▁AIM	-11.9656
▁Test	-11.9656
ାଇଲଖୁ	-11.9656
awk	-11.9656
▁ଫ୍ଲୋ	-11.9656
ଉଷ୍ମ	-11.9656
▁Hyper	-11.9656
ପ୍ରତିଷ୍ଠିତ	-11.9656
ଟ୍ରେଡ୍	-11.9656
ବିଜ୍ଞତା	-11.9656
▁ଅନୁସ୍ଥାପନ	-11.9656
vous	-11.9656
ସତଣୁ	-11.9656
ସ୍ମାଇଲ	-11.9656
୍ୟାପଟେନ	-11.9656
ଙ୍ଗୁଠି	-11.9657
▁ପୁଞ୍ଜି	-11.9657
nfocus	-11.9657
୍ରଭୃତି	-11.9657
ପାର୍ସଲ	-11.9657
▁ସୁନୀଲ	-11.9657
PDF	-11.9657
େଲିଭରି	-11.9657
ଲ୍ଲଙ୍ଘନ	-11.9658
▁ଆୟୁଷ	-11.9658
ର୍ୱ୍ୱ	-11.9658
ଭିଏଁ	-11.9658
ୈନ୍ଯ	-11.9658
▁ତୁଳସୀ	-11.9659
▁ଲକ୍ଷ୍ୟସ୍ଥଳ	-11.9659
location	-11.9659
ବଲମ୍ବନ	-11.9659
ଳପ୍ରପାତ	-11.9659
ଂଜୀବକ	-11.9659
▁ଛେଳି	-11.966
Girlfriend	-11.966
ଙ୍ଗୁଳି	-11.9661
iddle	-11.9662
LIP	-11.9662
▁ଗୋଏଲ	-11.9662
▁ସଙ୍କୋଚନ	-11.9663
▁କଠୋରି	-11.9663
tech	-11.9664
ଞ୍ଜୀବ	-11.9664
ଶଯ୍ୟା	-11.9664
▁ଖାଲିସ୍ଥାନ	-11.9664
ଗ୍ରାମୀଣ	-11.9665
fers	-11.9665
anya	-11.9666
Normal	-11.9666
▁ଲାଲୁ	-11.9667
ବମ୍ବେ	-11.9668
▁ବାଣିଜ୍ୟିକ	-11.9668
OTE	-11.9668
▁କ୍ଷୟ	-11.9669
April	-11.967
aul	-11.967
ROM	-11.9671
timeout	-11.9671
ରକ୍ଷକ	-11.9671
▁ଅମୀର	-11.9672
ଇନଷ୍ଟଲ	-11.9673
▁ଛୁଟିଦିନ	-11.9673
▁ମନରେଖ	-11.9674
Fast	-11.9674
▁ଉପାଦାନଗୁଡ଼ିକୁ	-11.9674
▁ୱାସି	-11.9677
cular	-11.9679
delete	-11.9684
ଳାଚଳ	-11.9686
tatements	-11.9686
Mohanty	-11.9688
▁ହାରିଯିବ	-11.9692
ଟେନସନ	-11.9696
▁ଜିଜ୍ଞାସା	-11.9701
ସତ୍ୟପାଠ	-11.9704
ାଣ୍ଡବ	-11.9704
▁Mor	-11.9704
ନ୍ଦ୍ରେୟା	-11.9707
▁ୟାହା	-11.971
EVE	-11.9712
▁ପୁନର୍	-11.9716
Email	-11.9741
▁Result	-11.975
Govt	-11.9757
ଚାରିଜଣ	-11.9762
▁Real	-11.9765
ପଟେ	-11.9766
login	-11.9772
ାସପାତାଳ	-11.9776
ଖାଯାଏ	-11.9789
Lock	-11.9794
ଅସୀମିତ	-11.9796
....???	-11.9816
ୋଲ୍ଡର	-11.9822
ଭକ୍ତ	-11.9824
ପୁରାତନ	-11.9831
ାନ୍ଦୁଥିଲା	-11.9852
▁ଘୋଡ	-11.9868
▁ପଠାଯାଇ	-11.9873
ନୁଷ୍ଯପୁତ୍ର	-11.9923
700	-11.9932
ନେତ୍ର	-11.9932
କ୍ୟଖଣ୍ଡ	-11.9952
▁ଘେର	-11.9956
nteresting	-11.9963
▁ସୁସଂଗତ	-11.9967
▁ଉଲ୍ଲ	-11.9988
ଫେରି	-11.9989
୬୭	-12
Sports	-12.0013
ୌହ	-12.0022
୬୮	-12.0023
▁ରଖାଯାଇ	-12.0036
▁ବୃଷ	-12.0041
ିଦେଲ	-12.0072
ଛପଟେ	-12.0106
ନୁଯାତ୍ରା	-12.0115
▁ହେଉନଥି	-12.0139
ଲିଲିକରଣ	-12.0148
ପଡ଼େ	-12.0148
ଫଣ୍ଡ	-12.017
ମୋହରେ	-12.0179
ddress	-12.018
inter	-12.0197
ଜଣିଆ	-12.0218
2:21	-12.023
013	-12.024
▁home	-12.0251
▁ପଚାରୁଥି	-12.0279
ଫଟା	-12.0286
ଇଳା	-12.0289
ୁକୁଟ	-12.0294
ମଣ୍ଡପ	-12.0301
ଚିବାଳୟ	-12.032
▁ପଚରାଯାଇ	-12.0324
▁ଶୋଭା	-12.037
ିଜି	-12.0375
800	-12.0388
ଶୁଣିଛନ୍ତି	-12.0415
count	-12.0439
book	-12.0446
query	-12.0447
ଶୀର୍ଷକ	-12.045
SSL	-12.045
ପାହ୍ୟା	-12.045
ମନ୍ଦିର	-12.045
ଆମ୍ଭେ	-12.0451
ବାସ୍ତବ	-12.0451
ଯେତବେେଳେ	-12.0451
ତୁମ୍ଭମାନେେ	-12.0453
ODIA	-12.0453
ସୂତ୍ର	-12.0453
ପରମେଶ୍ବର	-12.0454
http	-12.0454
ରହିଛି	-12.0457
ପ୍ରୟୋଗ	-12.046
ମୃତ୍ୟୁ	-12.0464
▁ମହତ୍ତ୍ୱ	-12.0474
ତକ୍ଷଣାତ	-12.0487
info	-12.0508
▁ଯିହୂଦୀ	-12.0518
ବିବାହିତା	-12.0535
roject	-12.0551
▁Movie	-12.0561
▁ଦେଢ	-12.0563
▁ଉତ୍ତରପ୍ରଦେଶ	-12.0566
ଇମିତି	-12.0584
ଶିକ୍ଷକଙ୍କ	-12.059
▁ବଞ୍	-12.0591
ାର୍ଯ୍ଯସ୍ଥଳୀ	-12.0598
▁Wat	-12.0652
bia	-12.0666
▁place	-12.0671
ମିସନର	-12.0672
ୱାଜ	-12.0675
୍ରିପୁର	-12.0676
ଵିଦ	-12.068
▁ବ୍ୟବଧାନ	-12.0688
vance	-12.0689
▁ଲଜ୍ଜ	-12.069
▁ମଧିଅ	-12.0691
ivision	-12.0691
▁ଫ୍ୟାକ୍ଟ	-12.0706
ାମଲେଖା	-12.0718
eeting	-12.0719
▁କାର୍ତ୍ତି	-12.0722
▁ମାର୍କେଟ	-12.0722
ୂର୍ଣ୍ଣିମା	-12.0723
ନିତିଦିନ	-12.0725
ଦୃଷ୍ଟ	-12.0725
▁Person	-12.0726
ଲିଉଡ	-12.073
▁ସମର୍ପ	-12.0734
▁ଅନୁକ୍ରମ	-12.0738
rmation	-12.0746
▁ଆୟୋଜ	-12.0749
ଧିଆ	-12.0751
▁ଅସୁସ୍ଥ	-12.0752
▁ବରଗଡ	-12.0754
ଧ୍ୟକ୍ଷ	-12.0757
ଡକ୍ଟ	-12.076
Count	-12.0764
arriage	-12.0765
ଯୋଜକ	-12.0765
▁ଟର୍ମିନ	-12.0765
llywood	-12.0766
poke	-12.0766
Hydro	-12.0766
ଭୱିଷ୍ୟ	-12.0766
privacy	-12.0766
nvalid	-12.0766
▁ହିଞ୍ଜିଳି	-12.0766
Domestic	-12.0766
Duplicate	-12.0766
ESendOptions	-12.0766
Follow	-12.0766
Location	-12.0766
Mohapatra	-12.0766
Natural	-12.0766
Phateidele	-12.0766
Regulat	-12.0766
bureau	-12.0766
disease	-12.0766
eeling	-12.0766
elebration	-12.0766
enefits	-12.0766
including	-12.0766
mportant	-12.0766
nfluen	-12.0766
smiling	-12.0766
university	-12.0766
ଇତସ୍ତତଃ	-12.0766
ଇଲୀଶାୟ	-12.0766
କ୍ଷଣାବେକ୍ଷଣ	-12.0766
ଜପେୟୀ	-12.0766
ଟେକ୍ନୋଲୋଜି	-12.0766
ନେଷ୍ଟବଳ	-12.0766
ନ୍ନମାଚାର୍ୟ	-12.0766
ଯୋଧ୍ୟା	-12.0766
ର୍ଯ୍ୟବେକ୍ଷଣ	-12.0766
ଵିଷ୍ଣୋ	-12.0766
ହାତ୍ମାଗାନ୍ଧୀଙ୍କ	-12.0766
ାଲେଣ୍ଟାଇନ୍	-12.0766
ାଳ୍ପନିକ	-12.0766
ିନ୍ଧିଚୋରି	-12.0766
୍ୟାଲସିୟମ	-12.0766
ୟିରୁଶାଲମ	-12.0766
▁Central	-12.0766
▁maildir	-12.0766
▁ଆଇଜଲେରିଓଟ	-12.0766
▁ଇନଲାଇନ	-12.0766
▁ଉଜ୍ଜ୍ୱଳ	-12.0766
▁କାଲକୁଲେଟର	-12.0766
▁କୁମ୍ଭମେଳା	-12.0766
▁ଦର୍ଶିକା	-12.0766
▁ଧ୍ବନୀ	-12.0766
▁ପୁନଃପୌନିକ	-12.0766
▁ପ୍ରତ୍ୟାବୃତ	-12.0766
▁ବିକ୍ରମାଦିତ୍ୟ	-12.0766
▁ରେଜଲ୍ଟ	-12.0766
▁ଷୋହଳମିକ	-12.0766
▁ସଦସ୍ଯ	-12.0766
▁ହନିପ୍ରୀତ	-12.0766
▁ହାଇଦ୍ରାବାଦ	-12.0766
Monday	-12.0766
birthday	-12.0766
easure	-12.0766
onscious	-12.0766
ତୁଳନୀୟ	-12.0766
ଦାନ୍ତୁରମ୍	-12.0766
ମୋନାଲିସା	-12.0766
ଷ୍ଟେଟାମେଣ୍ଟ	-12.0766
▁କ୍ଲୋନ	-12.0766
Friend	-12.0766
ummer	-12.0766
wikipedia	-12.0766
ଠପଢ଼ା	-12.0766
ୃଣାଳ	-12.0766
▁ତେଲୁଗୁ	-12.0766
▁ମାଟ୍ରିକ	-12.0766
ାଲାତୀୟ	-12.0766
ୌଲବୀ	-12.0766
▁ଜାନକୀ	-12.0766
▁ମୂଲ୍ୟାଙ୍କନ	-12.0766
ରମ୍ପାରିକ	-12.0766
▁ଅଞ୍ଜଳି	-12.0766
▁ଟମାଟୋ	-12.0766
left	-12.0766
ଅର୍ଚ୍ଚିତା	-12.0766
▁Petrol	-12.0766
▁1968	-12.0766
▁ସ୍ଥିତବାନ	-12.0766
cene	-12.0766
ଜେନ୍ସି	-12.0766
transfer	-12.0766
igger	-12.0766
ଦଗ୍ଧ	-12.0766
Photo	-12.0766
▁ସଂଧ୍ୟା	-12.0766
▁ଲଣ୍ଡନ	-12.0766
warning	-12.0766
ପିରିୟଡ	-12.0766
ଝୁଲୁଛି	-12.0766
ୌଷଧ	-12.0766
▁ବଡ଼ମ୍ବା	-12.0766
▁ଆୟୁଷ୍ମାନ	-12.0766
ଯୁକ୍ତିତର୍କ	-12.0766
▁PCI	-12.0766
ୂର୍ବପୁରୁଷଗଣ	-12.0766
2.35.	-12.0767
xpand	-12.0767
ଜନଗଣନା	-12.0767
Protection	-12.0767
cancer	-12.0767
ଂପାନି	-12.0767
▁ରାକ୍ଷସ	-12.0767
ଚ୍ଚୋଟ	-12.0767
katha	-12.0767
▁ବିଚରା	-12.0767
ଜୁଏଲା	-12.0767
ତକ୍ଷେପଣ	-12.0767
କୀୟଙ୍କ	-12.0767
agno	-12.0767
ୋହଲୀ	-12.0767
▁Positi	-12.0767
▁ବୁଲିଆନ	-12.0767
େତାତ୍ମା	-12.0767
▁ଓୟାନାଡ	-12.0767
ଥାକଥିତ	-12.0768
ntaur	-12.0768
▁mode	-12.0768
▁ଉପଶୀର୍ଷକ	-12.0768
ଆଣ୍ଠୁ	-12.0768
ନ୍ଦୋବସ୍ତ	-12.0768
ପରବାଲାର	-12.0768
କାଥରକେ	-12.0768
ରିଶ୍ରମିକ	-12.0768
▁ଗୌତମ	-12.0768
ଞ୍ଚୁରିଆ	-12.0769
ିମାଳୟ	-12.0769
ିଂହଦେଓ	-12.0769
▁ବାଘୁଣୀ	-12.0769
tuation	-12.0769
ୋରିମାନା	-12.0769
▁ସ୍ମୃତିସ୍ଥାନ	-12.0769
ହ୍ବାନ	-12.0769
ତ୍କଣ୍ଠା	-12.077
ଞ୍ଜାଳ	-12.0771
idhi	-12.0771
▁ସତ୍ୟଜିତ	-12.0771
ୁଳିକାଣ୍ଡ	-12.0771
ଲମ୍ବିଆରେ	-12.0771
ରିଭାଷିତ	-12.0771
ାୟତ୍ରୀ	-12.0772
▁ପଠାଗଲା	-12.0772
ାଳମେଳ	-12.0773
଼ୁବ	-12.0774
ମନୋରଞ୍ଜନ	-12.0774
ମ୍ୟୁନି	-12.0774
rink	-12.0775
ିରାକରଣ	-12.0775
ସୀଘ	-12.0775
▁ଅନୀଲ	-12.0775
▁ଜଳିଗଲେ	-12.0776
▁MSN	-12.0776
୍ରସୀଦ	-12.0776
▁ମିସେସ	-12.0777
ନିଆଗଲା	-12.0777
HEN	-12.0777
ISH	-12.0778
▁ନାକଚ	-12.0778
▁ଉଦୟ	-12.0778
କୋଲେଟ	-12.0779
ୁକ୍ଳ	-12.0779
ିସାଇଲ	-12.0779
aire	-12.0779
verb	-12.0779
Restart	-12.0781
ୁତୟନ	-12.0781
େଡିସିନ	-12.0781
ାରାଦଣ୍ଡ	-12.0782
ଭିଷେକ	-12.0784
େମ୍ବୁ	-12.0784
osis	-12.0784
ବଣୁଆ	-12.0784
ସପିଂ	-12.0787
ସାନରୁ	-12.0787
2/3	-12.0788
ୁଂଜି	-12.0789
ାର୍ଲିଂ	-12.079
ଦିଆୟିବ	-12.0791
କ୍ଷୁଦ୍ରଗଳ୍ପ	-12.0794
password	-12.08
ୁନାହୁଁ	-12.0802
୯୯୯	-12.0804
ପଲକ୍ଷେ	-12.0805
ଦୀଯ	-12.0806
ାୟଭାର	-12.0809
ିତ୍ରଂ	-12.0809
ତାମିଲନାଡ଼ୁ	-12.0811
▁ଶୁଆ	-12.0816
▁ସମାଧ	-12.0826
enable	-12.0829
ଇନ୍ଧନ	-12.0831
987	-12.084
water	-12.0841
ପୁଷ୍ପା	-12.0841
ାଗିଯାଇ	-12.0847
୍ୟାସବ୍ୟାକ	-12.0857
ଦୂରଦର୍ଶନ	-12.0858
▁sent	-12.086
ବିଶ୍ବସ୍ତ	-12.0862
ାଶିଫଳ	-12.0876
esearch	-12.0896
(4)	-12.0901
ମୁହାଁ	-12.0902
ଉପହାସ	-12.0903
ହଜୁଦ	-12.0904
ଛୁଆଁ	-12.0922
▁ପଲେଷ୍ଟୀୟ	-12.0941
ର୍ଟନର	-12.0956
Editor	-12.0966
ଲ୍ୟାଙ୍କ	-12.0986
Config	-12.1007
▁ସମାବେଶ	-12.1014
ଜିନିଷପତ୍ର	-12.1016
886	-12.1047
USB	-12.1067
(3)	-12.1067
ତିକିବେଳେ	-12.1092
▁ଘାଟ	-12.1106
ିମ୍ନୋକ୍ତ	-12.1108
▁don	-12.1117
ବିରକ୍ତିରେ	-12.1118
ଟ୍ୟାକ୍ସି	-12.1121
ଚନାତ୍ମକ	-12.1125
▁ପିନ୍ଧିଥି	-12.1133
ଗଡ୍	-12.1165
ିହ୍ନା	-12.1173
▁ଆଇପିଏଲ	-12.1187
ମୁନାର	-12.1196
▁ଚେତନ	-12.1215
୍ୟୁସନ	-12.1225
ପାରିଲିନି	-12.1241
ଦେଉଳ	-12.1281
ାପଟପ	-12.1293
ାଆଁଳ	-12.147
▁ଶିକ୍ଷାର୍ଥୀମାନ	-12.1491
ଶ୍ରାମବାର	-12.1503
▁ଅସୀମ	-12.1521
ରିବାରବର୍ଗ	-12.1521
▁ଉପୁଜ	-12.1522
988	-12.1548
ଲଢିବି	-12.1551
୍ୟାକୁଳ	-12.157
▁ଗେମ୍	-12.1591
୍ଭହୁଁଛ	-12.1594
▁ଖୁଆ	-12.1631
ିରୋଧ	-12.1677
ସ୍ଥାୟୀ	-12.168
start	-12.1683
ଫୁଟ	-12.1692
ତ୍ମକ	-12.1693
ଧୈର୍ଯ୍ୟ	-12.1698
August	-12.1698
ଡବ୍ଲୁ	-12.17
When	-12.17
ସ୍କ୍ରିନ	-12.1701
part	-12.1701
GNOME	-12.1701
ବୈଜୟନ୍ତ	-12.1702
କରାଯାଇଥାଏ	-12.1703
ଟୋକିଓ	-12.1703
ଇତିହାସ	-12.1704
ସଂପର୍କ	-12.1704
ରାଷ୍ଟ୍ରପତି	-12.1704
Odisha	-12.1704
button	-12.1704
ତଥ୍ୟ	-12.1704
ପଦାର୍ଥ	-12.1705
ଅପସାରଣ	-12.1705
ଡାକ୍ତର	-12.1706
ତ୍ୟାଗ	-12.1706
who	-12.1708
ପବିତ୍ର	-12.1708
ୁରେନ୍ଦ୍ର	-12.1712
ଆଣ୍ଟି	-12.1727
ମିନିଟ	-12.1735
▁ପେଜର	-12.174
୍ୟୁଜ୍‍	-12.176
ୁଣ୍ଡେଇ	-12.1771
ସଂଖ୍ୟ	-12.1837
ତାମିଲ୍	-12.1853
ନ୍ତ୍ରାଳୟ	-12.1904
riority	-12.1939
933	-12.1958
ubhransu	-12.1976
resent	-12.1979
▁ଇଞ୍ଜିନିୟର	-12.1981
rmal	-12.2003
▁ବିଜ୍ଞାପ	-12.2004
SHI	-12.2005
▁କଠୋର	-12.2006
teria	-12.2006
turn	-12.2007
▁displ	-12.201
▁ଏକାଡେମ	-12.2013
eople	-12.2013
ନ୍ଦୋବ	-12.2014
▁ନିଶ୍ଚି	-12.2015
yper	-12.2015
uthor	-12.2016
recurr	-12.2016
ଲଚଲ	-12.2016
config	-12.2016
)="1.	-12.2016
ଧର୍ମନିରପେକ୍ଷ	-12.2016
ସୂକ୍ଷ୍ମ	-12.2016
ଉଇକିପାଠାଗାର	-12.2016
କାମାକ୍ଷାନଗର	-12.2016
୍ରିୟଦର୍ଶିନୀ	-12.2016
Ajira	-12.2016
Complete	-12.2016
Default	-12.2016
Digital	-12.2016
Escape	-12.2016
Esfand	-12.2016
Firefox	-12.2016
Kannada	-12.2016
Khabar	-12.2016
Niceness	-12.2016
PowerPoint	-12.2016
Puruna	-12.2016
Saturday	-12.2016
Temperature	-12.2016
Tricks	-12.2016
Tuesday	-12.2016
Update	-12.2016
anniversary	-12.2016
biopic	-12.2016
cacia	-12.2016
definition	-12.2016
divorce	-12.2016
imited	-12.2016
isability	-12.2016
isoned	-12.2016
justify	-12.2016
kioslave	-12.2016
laureates	-12.2016
observe	-12.2016
oxide	-12.2016
pposite	-12.2016
purchase	-12.2016
ringtone	-12.2016
steroid	-12.2016
titude	-12.2016
uidelines	-12.2016
ଐଶ୍ୱର୍ଯ୍ୟା	-12.2016
କଟୁଆଳ	-12.2016
ଜନସ୍ବାସ୍ଥ୍ୟ	-12.2016
ଧ୍ୟାୟଃ	-12.2016
ନିର୍ଭୀକ	-12.2016
ନ୍ମୋଚନ	-12.2016
ବଲମ୍ୱନ	-12.2016
ମ୍ଳଜାନ	-12.2016
ର୍ଶ୍ୱସଜ୍ଜା	-12.2016
ଵିଷ୍ଣୁ	-12.2016
ଶ୍ଚାତାପ	-12.2016
ସସମାଲନ	-12.2016
ସ୍ତ୍ରଶସ୍ତ୍ର	-12.2016
ୁଧିଷ୍ଠିର	-12.2016
େପାଟାଟିସ	-12.2016
୍ଥରବତ୍ତଜ୍ଞ	-12.2016
୍ମଶାନ	-12.2016
୍ୟାଟ୍ସମ୍ୟାନ	-12.2016
୍ୟାସବୋର୍ଡ	-12.2016
୍ୟୱହନ୍	-12.2016
▁Keep	-12.2016
▁LatinName	-12.2016
▁Optimus	-12.2016
▁Skype	-12.2016
▁କପିରାଇଟ୍‍	-12.2016
▁କବିସୂର୍ଯ୍ୟନଗର	-12.2016
▁କେନ୍ଦୁଝର	-12.2016
▁ପିଡିଡାଇମିସ	-12.2016
▁ପ୍ରତ୍ୟୁତ୍ତରରେ	-12.2016
▁ଲୁକ୍କାଇତ	-12.2016
▁ସଞ୍ଚାଳକ	-12.2016
▁ସବ୍ୟସାଚୀ	-12.2016
▁ସାର୍ବଜନିକ	-12.2016
▁ୟୁଟ୍ୟୁବରେ	-12.2016
devotion	-12.2016
hesh	-12.2016
ticket	-12.2016
ଣ୍ଟ୍ରୋଲ	-12.2016
ଦ୍ଯତିତ	-12.2016
▁ଇଣ୍ଡୋନେସିଆ	-12.2016
▁ଇମ୍ରାନ	-12.2016
▁କେନ୍ଦ୍ରାପଡା	-12.2016
▁ଫାଇର୍ଟର	-12.2016
▁ବିପରୀତ	-12.2016
▁ବୈଦ୍ୟୁତିକ	-12.2016
▁ଭିଏତନାମ	-12.2016
▁ସ୍ଵାସ୍ଥ୍ୟ	-12.2016
Birth	-12.2016
ENTERTAINMENT	-12.2016
Gadget	-12.2016
battery	-12.2016
umbai	-12.2016
ଂଗଳମ	-12.2016
ଦଘାଟନ	-12.2016
୍ଷଚ୍ଛଚ୍ଚ	-12.2016
▁ଗ୍ରାଡିଆନ	-12.2016
▁ଦେବଦତ୍ତ	-12.2016
▁ବ୍ରାଜିଲ	-12.2016
▁ଭୁଟାନ	-12.2016
▁ସୁଶାନ୍ତ	-12.2016
Mobile	-12.2016
permission	-12.2016
taking	-12.2016
ଏସଏନଏଲ	-12.2016
ବାହରଲାଲ	-12.2016
ୟକ୍ସ୍ଟଦ୍ଧ	-12.2016
▁FTP	-12.2016
▁XML	-12.2016
▁ତେଣିକି	-12.2016
▁ପ୍ରଚଳନ	-12.2016
Nobel	-12.2016
କ୍ତବ୍ୟରେ	-12.2016
କ୍ଯାପିଟାଲ	-12.2016
ଦ୍ଘାଟନ	-12.2016
▁ଏହାଛଡ଼ା	-12.2016
mission	-12.2016
ସଜ୍ଜା	-12.2016
ୀବାଶ୍ମ	-12.2016
େଛାଟ	-12.2016
▁ଧର୍ମବୀର	-12.2016
alism	-12.2016
blood	-12.2016
ଟହଟା	-12.2016
ରାୟଗଡ଼ା	-12.2016
ୋଇପଡ଼ିଛି	-12.2016
▁ବିକଲ୍ପ	-12.2016
Operating	-12.2016
tealing	-12.2016
▁300,000-	-12.2016
nergy	-12.2016
sturb	-12.2016
ଜ୍ରପାତ	-12.2016
ର୍ଥକ୍ୟ	-12.2016
ୈଶିଷ୍ଟ୍ୟ	-12.2016
▁ରେଲୱେ	-12.2016
ୋରଖପୁର	-12.2016
AKH	-12.2016
▁200,000-	-12.2016
▁Trans	-12.2016
▁ବେଲାରୁସ	-12.2016
ୈନନ୍ଦିନ	-12.2016
Offen	-12.2016
divisions	-12.2016
ତ୍ମସମର୍ପଣ	-12.2016
ପ୍ରୋଜେକ୍ଟ	-12.2016
1–2.	-12.2016
IKA	-12.2016
immed	-12.2016
ଜେଡିଏସ	-12.2016
eposit	-12.2016
ୁଞ୍ଜିନିବେଶ	-12.2016
▁ପରିମଳ	-12.2016
ଟନାୟକ	-12.2016
ର୍ଦ୍ଧଶତକ	-12.2016
▁ସୁଜାତା	-12.2016
lexa	-12.2016
▁ଏସ୍ଟୋନି	-12.2016
uthority	-12.2016
ଡ଼ପଟର	-12.2016
both	-12.2017
;!--	-12.2017
▁କୁଶଳ	-12.2017
ଦୋସ୍ତି	-12.2017
5,8%	-12.2017
ustro	-12.2017
GTK	-12.2017
▁ନୀଳକଣ୍ଠ	-12.2017
ାନସମ୍ମାନ	-12.2017
▁ଲକ୍ଷ୍ଯସ୍ଥଳ	-12.2017
btn	-12.2017
ହାକାଶଚାରୀ	-12.2017
ଧ୍ୟତାମୂଳକ	-12.2017
▁ଫ୍ୟାସନ	-12.2018
▁ସୁନନ୍ଦା	-12.2018
find	-12.2018
▁ଠାକୁରାଣୀ	-12.2018
Syl	-12.2018
େଟୱାର୍କ	-12.2018
ସିଷ୍ଟାଣ୍ଟ	-12.2018
ଲାଇଭ୍	-12.2018
▁ନୁହେ	-12.2018
urname	-12.2018
▁ଉଦ୍ଦେଶ	-12.2018
She	-12.2018
ତୁଲ୍ଯ	-12.2018
ିସେମ୍ୱର	-12.2018
▁ଉଇକିପିଡ	-12.2018
ଅଦାସିଟି	-12.2019
ପୀଡ଼ା	-12.2019
▁ଯୁକ୍ତାତ୍ମକ	-12.2019
▁ସୂର୍ଯ୍ୟନାରାୟଣ	-12.2019
ଦଙ୍ଗଲ	-12.2019
୍ଲାଟୁନ	-12.2019
▁ସୂଚୀପତ୍ର	-12.2019
▁ସଂଗୁପ୍ତକରଣ	-12.202
ମାଉଣ୍ଟ	-12.202
ତୀର୍ଥଯାତ୍ରା	-12.202
ଭଙ୍ଗୀ	-12.202
apil	-12.202
ପନ୍ଥା	-12.202
ୁତାଣୁ	-12.2021
କ୍ଷାଘାତ	-12.2021
ଧ୍ୱନ	-12.2021
▁ସମ୍ମିଳ	-12.2021
ବିଦାରକ	-12.2022
ଞ୍ଚିପାରିବୁ	-12.2023
ଶାକରୁଅଛି	-12.2023
ର୍ବିୟନ	-12.2023
▁ବଏଲର	-12.2023
▁ଫୋକସ	-12.2024
ଟାଫଟ	-12.2024
ାମରହିମ	-12.2024
ଧୁମେହ	-12.2025
ରିଉଠିଲା	-12.2025
ଲସୀୟ	-12.2025
IIT	-12.2025
ଜାହିର	-12.2026
ୋଟାପଣ	-12.2027
▁ନିଃସ	-12.2027
େଲେରିୟା	-12.2029
ୋମିଓ	-12.2032
ୋନାଥନ	-12.2034
arism	-12.2034
documentation	-12.2035
ଢେ଼	-12.204
ସହମତି	-12.204
ଶ୍ଵର୍ଯ୍ୟ	-12.2041
୍ରୋସେସ	-12.2044
ିଟର୍ଣ୍ଣ	-12.2048
singh	-12.2052
conflict	-12.2053
ଳରାଶି	-12.2055
ଏସେସ	-12.2055
ରୁଣାନିଧି	-12.2057
rthern	-12.206
0:7	-12.2061
ିତିଦିନିଆ	-12.2064
ମ୍ମେଳନ	-12.2075
ାଉତରାୟ	-12.2076
ାରଦୀୟ	-12.2076
କ୍ରିଷ୍ଣା	-12.2081
ଖୁଆନ୍ତୁ	-12.2081
▁Marc	-12.2086
▁ଧୂମ	-12.2089
ଲକୁଲ	-12.2092
େତେବେଳୁ	-12.2093
▁ଭରପ	-12.2095
asty	-12.2105
ୁନିୟର	-12.2117
PRES	-12.2118
issing	-12.214
Disk	-12.2155
ସେଲ୍ସ	-12.2178
ପଠାନ୍ତି	-12.2181
Dec	-12.2182
ିନିୟର	-12.2184
ଓ୍ବେ	-12.2195
ଇକନ	-12.2199
ପଡୁଚି	-12.22
ଯୋଡିବାକୁ	-12.2208
ୋଗ୍ୟ	-12.2262
trate	-12.2297
୍ବତନ୍ତ୍ରଚର	-12.2336
aji	-12.2364
୍ରିୟାଶୀଳ	-12.237
ହତ୍ତ୍ୱପୂର୍ଣ୍ଣ	-12.237
ୂର୍ୟ୍ଯ	-12.2387
୍ରିସିୟା	-12.2389
୍କଟ	-12.2394
▁ମୁରଲୀ	-12.2447
ସହାୟକ	-12.2454
ouse	-12.2457
ୋଟୋଗ୍ରାଫ	-12.2472
ର୍ସିଙ୍ଗ	-12.2493
riya	-12.2582
ୁର୍ଗନ୍ଧ	-12.2587
ଖତର	-12.2587
ରମୋନ	-12.259
ଲିଉଡ଼୍	-12.2594
909	-12.2618
ଯକ୍ଷ୍ମାର	-12.2662
ever	-12.2681
ହାଫଳରେ	-12.2687
ସ୍ପେସ୍	-12.2712
ଲୋଚନ	-12.2718
ଅଟକା	-12.2728
ାଏଁ	-12.2736
ଧୀନତା	-12.275
ahm	-12.2755
ଘଟେ	-12.2782
ଭାବିବୁ	-12.2806
େକନିକ	-12.2807
ୋସିସ	-12.281
ଦେଖିଲୁ	-12.2879
▁ସମ୍ବିଧାନ	-12.2883
ସପୋର୍ଟ	-12.2898
ୃଷଭ	-12.2906
505	-12.2978
ର୍ବୋଚ୍ଚ	-12.298
▁ବୁଧ	-12.3013
ିୟମାବଳୀ	-12.3022
0.0	-12.3033
ଦଯାତ୍ରା	-12.3087
ighway	-12.3095
ଦ୍ଵିତୀୟ	-12.3125
Edit	-12.3125
ଊ	-12.3126
ସଂସ୍କୃତ	-12.3126
ସୌନ୍ଦର୍ଯ୍ୟ	-12.3127
ଅପ୍ରତ୍ୟାଶିତ	-12.3128
ହଇରେ	-12.3128
କରିନ୍ଥୀୟ	-12.3128
ସମ୍ବାଦ	-12.313
ପାଗଳ	-12.313
ଫିଲ୍ମ	-12.3131
English	-12.3131
ରୋଜଗାର	-12.3131
ଡିଗ୍ରୀ	-12.3131
IFFCO	-12.3132
ସର୍ବାଧିକ	-12.3133
କଂଗ୍ରେସ	-12.3133
ଝିଅ	-12.3133
ପୂରଣ	-12.3133
▁କୀର୍ତ	-12.3134
ସହେି	-12.3134
ସୁରକ୍ଷା	-12.3134
▁lea	-12.3189
ବିଶ୍ୱାସୀ	-12.3203
ଇଁଷ	-12.3204
ସ୍ବୀକୃତ	-12.3209
▁ଉଦ୍ୟ	-12.3237
ଷମତା	-12.3274
rights	-12.3295
4:4	-12.3305
omputer	-12.3306
Results	-12.3311
ରାଫ୍‍	-12.3324
ହାଉସ୍	-12.336
ାଳିଦେଲେ	-12.3377
ଓ୍ଵାର	-12.3379
arameter	-12.3393
enera	-12.3394
ୋହର	-12.3402
tandard	-12.3405
▁ସମ୍ପୁର୍ଣ	-12.3406
ship	-12.3408
3:24	-12.3414
▁କ୍ରେଡିଟ	-12.3425
▁ଲାଇଫ	-12.3425
▁ହୋଇନଥିବ	-12.3433
▁ବିଧାୟ	-12.3433
▁ଆଭାସ	-12.3435
ବେଷଣ	-12.3437
କ୍ଷେପ	-12.3439
▁ତୀର୍ଥ	-12.3441
ଲଙ୍ଘନ	-12.3442
♪	-12.3444
echnology	-12.3444
plicit	-12.3444
▁aff	-12.3445
ABILIT	-12.3445
Encyclop	-12.3445
▁Face	-12.3445
virtual	-12.3445
ଶରଣ୍ୟେ	-12.3445
▁ଇଲେକ୍ଟ୍ରୋନିକ	-12.3445
000049	-12.3445
2012).	-12.3445
Anuchinta	-12.3445
BERT	-12.3445
Bhubaneswar	-12.3445
Corporate	-12.3445
Current	-12.3445
Everyone	-12.3445
Genhili	-12.3445
Karnal	-12.3445
Kidney	-12.3445
Original	-12.3445
Places	-12.3445
Recruitment	-12.3445
Richest	-12.3445
THOREAU	-12.3445
Weapons	-12.3445
Zamana	-12.3445
aliasing	-12.3445
avigation	-12.3445
capital	-12.3445
development	-12.3445
either	-12.3445
facility	-12.3445
griculture	-12.3445
hotography	-12.3445
hristian	-12.3445
kabita	-12.3445
member	-12.3445
president	-12.3445
received	-12.3445
screen	-12.3445
stopping	-12.3445
syndrome	-12.3445
wareness	-12.3445
xlsx	-12.3445
ଂଖ୍ୟାଲଘୁ	-12.3445
ଆୟୁର୍ବେଦର	-12.3445
ଇଉନିକୋଡ଼	-12.3445
କର୍ପୋରେଟ	-12.3445
ଡାଜାହାଜ	-12.3445
ଣନିଶ୍ୱାସୀ	-12.3445
ଣାପଡ଼ୁଛି	-12.3445
ଥିମଧ୍ୟରୁ	-12.3445
ନୁସୂଚୀ	-12.3445
ନ୍ତର୍ଭୂକ୍ତ	-12.3445
ପରିକଳ୍ପିତ	-12.3445
ପ୍ରତ୍ଯାଶିତ	-12.3445
ବିତ୍ରଆତ୍ମା	-12.3445
ବିଶ୍ୱସନୀୟ	-12.3445
ବ୍ରହାମ	-12.3445
ମଜବୁତ	-12.3445
ମନ୍ୱୟ	-12.3445
ମହାବିଦ୍ୟାଳୟ	-12.3445
ମହୋତ୍ସବ	-12.3445
ର୍ଦ୍ଧକ୍ୟ	-12.3445
ଲିବ୍ରିଟି	-12.3445
ଲେଉଟାଣି	-12.3445
ଶ୍ୱାରୋହୀଗଣ	-12.3445
ସହିଷ୍ଣୁତା	-12.3445
ସାମ୍ବିଧାନିକ	-12.3445
ସାର୍ଟିଫିକେଟ	-12.3445
ାନୁନଗୋ	-12.3445
ାମୁଦ୍ରିକ	-12.3445
ାସ୍ୟାସ୍ପଦ	-12.3445
ିହାଶୂେୟ	-12.3445
ୀର୍ଥଯାତ୍ରୀ	-12.3445
ୁନଃଲିଖନୀୟ	-12.3445
ୁନରାବ୍ରୁତ୍ତି	-12.3445
ୃଶଂସ	-12.3445
୍ରୀଜଗନ୍ନାଥ	-12.3445
୍ୱେଚ୍ଛାସେବୀ	-12.3445
ୟମୁଖୀ	-12.3445
▁Beaut	-12.3445
▁Devhelp	-12.3445
▁Motif	-12.3445
▁Phonon	-12.3445
▁Shell	-12.3445
▁UNIX	-12.3445
▁VideoLAN	-12.3445
▁XChat	-12.3445
▁ଅସ୍ତରଙ୍ଗ	-12.3445
▁ଅସ୍ବୀକାରକ୍ତି	-12.3445
▁ନୋଟବନ୍ଦୀ	-12.3445
▁ବନାନଯାଞ୍ଚ	-12.3445
▁ବାଉଁଶ	-12.3445
▁ବାରାଣାସୀ	-12.3445
▁ବେଣୁଗୋପାଳ	-12.3445
▁ବ୍ରୁତ୍ତି	-12.3445
▁ଭବାନୀପାଟଣା	-12.3445
▁ମୁଥୁକୁମାର	-12.3445
▁ସନ୍ନିବେଶିତ	-12.3445
▁ସ୍କାଇଡୋମ	-12.3445
▁ସ୍ୱୟଂଚାଳନ	-12.3445
▁ହିମାଚଳ	-12.3445
Mozilla	-12.3445
Plugin	-12.3445
Rules	-12.3445
feature	-12.3445
otivation	-12.3445
ଦୁଗ୍ଧ	-12.3445
ନିଃଶୁଳ୍କ	-12.3445
େଜ୍ରିୱାଲ	-12.3445
▁Joystick	-12.3445
▁Telugu	-12.3445
▁ପତଞ୍ଜଳ	-12.3445
▁ମାଇକ୍ରୋମାକ୍ସ	-12.3445
▁ଲକ୍ଷ୍ନୌ	-12.3445
▁ସ୍ଲୋଭେନି	-12.3445
Holi	-12.3445
Violet	-12.3445
popup	-12.3445
weet	-12.3445
{2}	-12.3445
ଆମେରିକୀୟ	-12.3445
କୀଟନାଶକ	-12.3445
ଠିକଣାବହିକୁ	-12.3445
ଧରାପଡ଼ିଲା	-12.3445
ପଦ୍ମଭୂଷଣ	-12.3445
ସାମଗ୍ରିକ	-12.3445
ାଇଫେନ୍	-12.3445
ାଧୋଇବା	-12.3445
ିରିଅଡ୍	-12.3445
ୈଳାଶ	-12.3445
▁ପାର୍ଶ୍ବ	-12.3445
▁ମସଜିଦ	-12.3445
▁ହସ୍ତତନ୍ତ	-12.3445
correct	-12.3445
୍ରାଜେଡି	-12.3445
▁ଖାରବେଳ	-12.3445
Visual	-12.3445
ଋଣବୋଝ	-12.3445
▁ଟୁକୁଡ଼ା	-12.3445
amily	-12.3445
କଦ୍ଦମା	-12.3445
ିଲାଏନ୍ସ	-12.3445
▁ତୁନିସିଆ	-12.3445
▁ମିଥୁନ	-12.3445
▁ରବିନାରାୟଣ	-12.3445
▁ଉତ୍ତରାଖଣ୍ଡ	-12.3445
▁ଐତିହ	-12.3445
▁ଯୁଷ୍ମ	-12.3445
ବିଶ୍ୱବିଜୟ	-12.3445
ର୍ବେକ୍ଷଣ	-12.3445
ୁର୍ଭିକ୍ଷ	-12.3445
ୈଳାସ	-12.3445
୍ରୁଟିନିବାରକ	-12.3445
▁ଧ୍ବନି	-12.3445
recurrpage	-12.3445
ସିସିଆଇ	-12.3445
becomes	-12.3445
ତିକରାଉଛି	-12.3445
ପଡୋଶୀ	-12.3445
▁ସମ୍ପ୍ରତିକ	-12.3445
▁ଅଖିଳ	-12.3445
ୋଲଡ଼ୋ	-12.3445
Human	-12.3445
ନ୍‍ଲାଇନ	-12.3445
▁ବିଶେଷତାଗୁଡିକ	-12.3445
ଇମ୍ପୋର୍ଟ	-12.3445
▁ଆଉଟବକ୍ସ	-12.3445
carbon	-12.3445
rkers	-12.3445
txt	-12.3445
ମେନ୍ଟ	-12.3445
▁ବିଭିଦ	-12.3445
▁ଚାଳିଶ	-12.3445
finite	-12.3445
ICU	-12.3445
Link	-12.3445
ଫୁଲବାଣୀ	-12.3445
▁ବଣାଇଁ	-12.3445
CORP	-12.3445
IES	-12.3445
Notification	-12.3445
▁ଆଲେଖୀ	-12.3445
CAI	-12.3445
ତ୍ତ୍ୱାଧିକାର	-12.3445
ୋନମଙ୍କ	-12.3445
ରାଜନିତୀ	-12.3445
Raj	-12.3445
ସାମୋଆ	-12.3445
ଙ୍ଗଲାଦେଶ	-12.3445
backup	-12.3446
▁ଟେକ୍ସଟ	-12.3446
ଯଣୟ	-12.3446
ପାଠପଢାରେ	-12.3446
▁ୱାଲେଟ	-12.3446
ଚଂଚଳ	-12.3446
ୃଷ୍ଟିସାର	-12.3446
impli	-12.3446
ଇନ୍ଦ୍ରଧନୁ	-12.3446
ାସଗୁପ୍ତ	-12.3446
ANI	-12.3446
ockey	-12.3447
pacity	-12.3447
ିଏଫଓ	-12.3447
BJP	-12.3447
rigin	-12.3447
ରେନ୍ଦ୍ରନାଥ	-12.3447
cursor	-12.3447
ହାଲଢେଇ	-12.3447
ଯୁଗ୍ମ	-12.3448
ବଲୋକନ	-12.3448
େନ୍ନଇ	-12.3448
kins	-12.3448
ନଇଚ୍ଛା	-12.3448
Asian	-12.3449
ଦୀକ୍ଷା	-12.3449
ାଙ୍ଗୁଲି	-12.3449
ାର୍ଯ୍ୟଦକ୍ଷତା	-12.3449
ିଲିଫ୍	-12.3449
RAN	-12.3449
CSS	-12.3449
ସିଅଲ୍	-12.3449
ଠପଢା	-12.345
ାର୍ଦ୍ଦିକ	-12.345
ଟୋଗ୍ରାଫର	-12.345
ଡ଼ିଶାବାସୀଙ୍କୁ	-12.3451
ଏଦୀଙ୍କୁ	-12.3451
ଵକ୍ତ୍ର	-12.3452
eseName	-12.3452
▁ଡେବିଟ	-12.3454
▁କାର୍ଯ୍ୟକାରି	-12.3455
୍ରୀଷ୍ଟିୟାନ	-12.3455
ctual	-12.3457
Return	-12.3457
ଲର୍ଜି	-12.3459
ିଅନ୍	-12.3459
ିୟାମକ	-12.3459
୍ଵୟଂ	-12.346
ବିଳାସ	-12.3461
ଜବାଜ	-12.3463
କନ୍ଦଳ	-12.3463
91%	-12.3464
6.04	-12.3465
4834	-12.3466
ନସିପି	-12.3466
ବାକ୍ଯଖଣ୍ଡ	-12.3466
ାନ୍ୟତା	-12.3466
731	-12.3466
▁ଇଲେକ୍	-12.3468
ରଘରୀ	-12.3469
ନିକଟବର୍ତ୍ତୀ	-12.347
ାଇଗେଲ	-12.347
ମାଇକ୍ରୋମିଟର	-12.3475
ଜ୍ୟାଜନକ	-12.348
ଋତୁଚକ୍ର	-12.3482
3-4	-12.3483
inister	-12.3485
ମନଦୁଃଖ	-12.3496
ୃଷ୍ଟାନ୍ତ	-12.3498
ବିରଞ୍ଚି	-12.3512
େନିୟମ୍	-12.3516
omepage	-12.3521
0:12	-12.3524
ବିଶ୍ୱାସର	-12.3527
ତଥାସ୍ତୁ	-12.3536
ଧିଅେର	-12.3544
ୋରିଆ	-12.3554
ନୋବେଲ	-12.356
ଢିଯାଉଛି	-12.3561
ାମାୟଣ	-12.3565
Boy	-12.3591
ରସ୍ବତ	-12.3611
clusive	-12.3656
ର୍ବଶ୍ରେଷ୍ଠ	-12.3677
୍ବୀକୃତି	-12.3686
▁ଧରାପଡ	-12.3703
Only	-12.3704
esult	-12.3708
usical	-12.3714
ାଡାମ୍	-12.3715
ିର୍ଦ୍ଧିଷ୍ଟ	-12.3715
Movies	-12.3719
ାଜଲକ୍ଷ୍ମୀ	-12.3733
ଗ୍ନିପରୀକ୍ଷା	-12.374
▁Meta	-12.374
ଶୃଙ୍ଖଳା	-12.3802
ଢୁଆ	-12.3816
ଭୋଟିଂ	-12.382
▁କନ୍ନଡ	-12.3821
▁ପଲିସ	-12.3827
ିଦ୍ଧାର୍ଥ	-12.3846
ମହାଭାଗ	-12.3868
ଂଶାବଳୀ	-12.3899
ିଖିଯିବୁ	-12.3924
ଚରାଯାଏ	-12.3941
ପଠାଇଛନ୍ତି	-12.3945
▁ବିଦ୍ୟାର୍ଥୀ	-12.3975
ସଙ୍କୁଳ	-12.4063
2:32	-12.4161
ର୍ଥନୀତିଜ୍ଞ	-12.4169
oph	-12.4223
କଜୁଟ	-12.4226
▁ଗ୍ଲୋ	-12.4263
roper	-12.4296
▁ସ୍ବାମ	-12.432
େଉଁଥିରେ	-12.4341
▁ଶୀର୍ଷ	-12.4346
ଟ୍ରାକ୍ଟ	-12.4348
ନପୁଟ	-12.4357
ୁଣୀକୁ	-12.4369
ihar	-12.4385
ବିଦ୍ରୋହୀ	-12.4414
ଓଲିଉଡ଼	-12.4416
▁ସଂଯୋଜ	-12.443
ଶ୍ରାୟେଲୀୟମାନଙ୍କୁ	-12.4481
▁ପଠାଯାଉ	-12.4483
ର୍ଶାଇଥାଏ	-12.4498
ocale	-12.45
ରଲୀଧର	-12.4553
ୁସଂଗତି	-12.4599
ortun	-12.4608
ିରେକ୍ଟୋରୀଗୁଡ଼ିକ	-12.4628
ୋଟିପତି	-12.4635
▁high	-12.4719
ସକ୍ରିୟ	-12.4729
ଓଲିଉଡ୍	-12.4737
ଶ୍ୱସ୍ତରୀୟ	-12.4787
ଲାଗୁନି	-12.4789
ଜ୍ୟୋତି	-12.4793
ସେକଣ୍ଡ	-12.4795
ପରବର୍ତ୍ତି	-12.4795
Reply	-12.4796
ପଶ୍ଚିମ	-12.4797
ମୁଦ୍ରା	-12.4797
Tokio	-12.4798
ବୟସ୍କ	-12.4798
ସାକ୍ଷାତକାର	-12.4798
Download	-12.4798
ଗୋପନୀୟତା	-12.4799
think	-12.4799
ଶାରୀରିକ	-12.4799
ସ୍ୱାସ୍ଥ୍ୟ	-12.4799
ଦ୍ୱିତୀୟ	-12.4799
ଗିରଫ	-12.48
ତୁମ୍ଭର	-12.48
ନୂତନ	-12.48
ୋଧନ	-12.4908
ESS	-12.4974
ଅଭିଜ	-12.5033
assword	-12.5059
଼ିରେକ୍ଟୋରୀ	-12.5068
▁Window	-12.5072
▁document	-12.5085
esktop	-12.509
roduct	-12.5095
▁ସଙ୍କୋଚ	-12.5098
▁ପ୍ଲାଜମ	-12.5099
Drive	-12.5106
olumn	-12.5109
▁ନୟାଗଡ	-12.511
ରଦର୍ଶିତ	-12.5111
required	-12.5111
plugin	-12.5111
ଟ୍ରେଡମାର୍କ	-12.5111
▁ହିଜ୍ଜାର	-12.5111
"{{	-12.5111
39.50	-12.5111
Black	-12.5111
CLASS	-12.5111
CalItem	-12.5111
Clinical	-12.5111
Congress	-12.5111
Display	-12.5111
Financial	-12.5111
French	-12.5111
Infobox	-12.5111
Jesus	-12.5111
LIMITED	-12.5111
MERCHANTABILITY	-12.5111
Newspaper	-12.5111
Nursing	-12.5111
POSE	-12.5111
PURPOSE	-12.5111
PowerShell	-12.5111
RIOUS	-12.5111
Rehabilitation	-12.5111
Sexual	-12.5111
Split	-12.5111
Technical	-12.5111
Traditional	-12.5111
UIDAI	-12.5111
Villagepump	-12.5111
Wildlife	-12.5111
Within	-12.5111
allpaper	-12.5111
alphabet	-12.5111
appened	-12.5111
biodiversity	-12.5111
cdrdao	-12.5111
celebrate	-12.5111
cytop	-12.5111
density	-12.5111
edicine	-12.5111
elebrit	-12.5111
erfect	-12.5111
etween	-12.5111
hidden	-12.5111
implified	-12.5111
inguistic	-12.5111
inrājī	-12.5111
iolence	-12.5111
laceOfTheMeeting	-12.5111
ligence	-12.5111
luetooth	-12.5111
ndividual	-12.5111
oldoc	-12.5111
oviet	-12.5111
physical	-12.5111
procedure	-12.5111
reasonable	-12.5111
rishna	-12.5111
roperties	-12.5111
successful	-12.5111
symptoms	-12.5111
ttached	-12.5111
ttribution	-12.5111
vised	-12.5111
xygen	-12.5111
ଅପରିଷ୍କାର	-12.5111
ଏନକୋଡିଂ	-12.5111
କଦିବାସୀୟ	-12.5111
କୃତ୍ରିମ	-12.5111
ଗ୍ୟାଜେଟ	-12.5111
ଚ୍ଛୁରଣ	-12.5111
ଜୁକେସନ	-12.5111
ଝାରସୁଗୁଡ଼ା	-12.5111
ଡ଼ଘଡ଼ି	-12.5111
ଦ୍ଧେଶ୍ୟ	-12.5111
ଦ୍ଭୁଦ	-12.5111
ଧୂମ୍ରପାନ	-12.5111
ଧ୍ଯତାମୂଳକ	-12.5111
ନ୍ୟପ୍ରାଣୀ	-12.5111
ପାରଗତା	-12.5111
ଫର୍ନାହୂମ	-12.5111
ବାସିନ୍ଦାଙ୍କୁ	-12.5111
ବୈେଦ୍ଯ	-12.5111
ଯଥାଶୀଘ୍ର	-12.5111
ରଲମଶ୍ବର	-12.5111
ଲଗୋରିଦିମ୍	-12.5111
ଲିଟିକାଲ	-12.5111
ଷଡ଼ଙ୍ଗୀ	-12.5111
ଷ୍ଫୋରଣ	-12.5111
ସରସ୍ଵତୀ	-12.5111
ସାପ୍ତାହିକ	-12.5111
ାଉନସିଲ	-12.5111
ାଜ୍ଞବଳ୍କ୍ୟ	-12.5111
ାବବିହ୍ୱଳ	-12.5111
ାରସାମ୍ୟ	-12.5111
ାର୍ଡ଼ୱେର	-12.5111
ିଫିକେସନ୍	-12.5111
ିବ୍ରୋଣଙ୍କ	-12.5111
ୁନଃଲିଖନିୟ	-12.5111
ୃତପିଣ୍ଡ	-12.5111
ୃଷ୍ଟୱାନ୍	-12.5111
ୋମ୍ପୁଟର	-12.5111
୍ତନ୍ୟପାୟୀ	-12.5111
୍ରଗାଢତା	-12.5111
୍ରାକ୍ଷାକ୍ଷେତ୍ର	-12.5111
୍ରୁଷ୍ଟାନ୍ତ	-12.5111
୍ଲୋରୋସିସ୍	-12.5111
୍ଷେପଣାସ୍ତ୍ର	-12.5111
୍ୱାଟସଆପର	-12.5111
୍ୱାଟ୍ସଆପ	-12.5111
୍ୱୀପପୁଞ୍ଜ	-12.5111
▁Debian	-12.5111
▁Dolphin	-12.5111
▁OpenGL	-12.5111
▁Scheduler	-12.5111
▁Serbian	-12.5111
▁ଅନୁଗୁଳ	-12.5111
▁ଆଯତାକାର	-12.5111
▁କମ୍ପିଜକନଫିଗ	-12.5111
▁କୋନସୋଲ	-12.5111
▁ଗ୍ରନ୍ଥସୂଚୀ	-12.5111
▁ଚନ୍ଦ୍ରଚୂଡ଼	-12.5111
▁ଡ଼ମିନିକା	-12.5111
▁ତ୍ରିକୋଣମିତିକ	-12.5111
▁ଦ୍ରୌପଦୀ	-12.5111
▁ନିକ୍ୱଣ	-12.5111
▁ନ୍ୟୁଟ୍ରିଚାର୍ଜ	-12.5111
▁ପଂକ୍ତିକରଣ	-12.5111
▁ପଢ଼ାହୋଇନଥିବା	-12.5111
▁ପ୍ରତ୍ଯେକ	-12.5111
▁ଫିଚର୍‍ଡ	-12.5111
▁ଫୋଲଲବ	-12.5111
▁ବ୍ଯବସାୟ	-12.5111
▁ମେକାନିକ	-12.5111
▁ମୈଦାନରେ	-12.5111
▁ଶ୍ରାବଣ	-12.5111
▁ସଲିଟୈର	-12.5111
▁ସୋଭେନିଅର	-12.5111
▁ହେଶୱାନ	-12.5111
Department	-12.5111
Deputy	-12.5111
Feature	-12.5111
Gandhi	-12.5111
Odiya	-12.5111
Quick	-12.5111
Synth	-12.5111
xpensive	-12.5111
ଖୋର୍ଦ୍ଧା	-12.5111
ଥୋପକଥନ	-12.5111
ଭିକଳ୍ପକ	-12.5111
ଯିଷ୍ୟ	-12.5111
ାର୍ଡ଼ଡ଼ିସ୍କ	-12.5111
▁ଏସଫାଣ୍ଡ	-12.5111
▁ଲଗଜେମବର	-12.5111
▁ସ୍ଲୋଭାକ	-12.5111
▁ୟୁକ୍ରେନିୟ	-12.5111
afari	-12.5111
espond	-12.5111
ffairs	-12.5111
lbum	-12.5111
onfidence	-12.5111
ଇଣ୍ଟର୍ଭ୍ୟୁ	-12.5111
ାଇଜେରିଆ	-12.5111
ିତ୍ତିପ୍ରସ୍ତର	-12.5111
୍ୱାସ୍ଥ୍ୟପକ୍ଷେ	-12.5111
▁ହାଙ୍ଗୁଲ	-12.5111
BOLLYWOOD	-12.5111
Document	-12.5111
defecati	-12.5111
paytm	-12.5111
plural	-12.5111
Cancel	-12.5111
double	-12.5111
olling	-12.5111
ଉତ୍ତିଷ୍ଠ	-12.5111
▁ଚାନ୍ଦବାଲି	-12.5111
▁ପ୍ରିୟଜନଙ୍କ	-12.5111
MPEG	-12.5111
wallet	-12.5111
କଞ୍ଚାଲଙ୍କା	-12.5111
ଟ୍ରିକାଲ	-12.5111
▁କାନାଡ଼ା	-12.5111
affection	-12.5111
exact	-12.5111
gnore	-12.5111
related	-12.5111
ାଂତିଃ	-12.5111
ାମାଵଳି	-12.5111
▁ଟ୍ରାଫିକ୍	-12.5111
Welcom	-12.5111
ମ୍ୱୁଲାନ୍	-12.5111
ସ୍ତ୍ରୋପଚାର	-12.5111
HOME	-12.5111
Spoken	-12.5111
eels	-12.5111
▁ଟୟୋଟା	-12.5111
2.6%	-12.5112
କ୍ସପାର୍ଟନର	-12.5112
▁Elm	-12.5112
▁ତୁର୍କୀ	-12.5112
▁ଘଟଣାସ୍ଥଳରେ	-12.5112
ଳଭଣ୍ଡାର	-12.5112
asia	-12.5112
ଏଥିସହିତ	-12.5112
କାଚକ୍	-12.5112
Small	-12.5112
▁ଟାଇଗର	-12.5112
ିଆଁମାର	-12.5112
Bytes	-12.5112
ଔଦ୍ୟୋଗିକ	-12.5112
କ୍ରମଶଃ	-12.5112
Patra	-12.5112
small	-12.5112
ୋମାଣ୍ଟିକ	-12.5112
Earth	-12.5112
ୈତରଣୀ	-12.5112
ndonesia	-12.5112
▁ଗେଲନ	-12.5112
ଥାଚିତ୍ରଟିର	-12.5112
▁ସ୍ଥିତିପଟି	-12.5112
janu	-12.5112
Donkey	-12.5112
atalog	-12.5112
ନାଚୁଣୀ	-12.5112
ଆମ୍ମାଙ୍କ	-12.5112
ରୋହଣ	-12.5112
ତାତ୍ତ୍ୱିକ	-12.5112
▁ଦିଵ୍ୟ	-12.5112
ଙ୍କକଷା	-12.5112
CAD	-12.5112
▁ବିନିମୟ	-12.5112
ଘୋଟାଲା	-12.5112
ଲରସସହି	-12.5112
୍ଵିକେଟ୍	-12.5112
▁ଟେଣ୍ଡର	-12.5112
▁LEO	-12.5112
understand	-12.5112
ନ୍ଧବିଶ୍ୱାସ	-12.5112
rfc	-12.5112
ତ୍କୃଷ୍ଠ	-12.5112
ଠଗୁଣ୍ଠ	-12.5112
ଦାହରଣସ୍ୱରୂପ	-12.5112
Cloud	-12.5112
ffiliat	-12.5112
ହାଇଥାନ୍ତା	-12.5112
ୈଣସି	-12.5112
ରୂପଭମ	-12.5112
ମର୍ଣ୍ଣିଂ	-12.5112
ୋଢିଆ	-12.5112
ecure	-12.5112
TROL	-12.5112
ଗଦୀଶ	-12.5112
ଫିଲଟର	-12.5113
ପ୍ଲିଜ୍	-12.5113
Russia	-12.5113
ବିଭୂଷଣ	-12.5113
ନିମ୍ନମାନର	-12.5113
ଢାପଢି	-12.5113
ିଗମାନନ୍ଦ	-12.5113
ଦଉଚି	-12.5113
{{{	-12.5113
ଳସ୍ୱରୂପ	-12.5113
ତ୍ମଜୀବନୀ	-12.5113
ରୋଜେନ	-12.5113
ୁଭାରମ୍ଭ	-12.5114
▁ମିନଟ	-12.5114
ଡ୍ୟୁଲ	-12.5114
ୁସଲମାନ	-12.5114
roll	-12.5114
geni	-12.5114
ଳାଦାଗ	-12.5114
ଭିଭାଷଣ	-12.5114
▁ଭଲ୍ୟୁମ	-12.5114
ସତୁରି	-12.5115
େଖାଦେଉଛି	-12.5115
଼ୋଜନା	-12.5115
୍ବାଧୀନତା	-12.5115
ତତ୍ତ୍ଵ	-12.5115
ଧ୍ଯବର୍ତ୍ତି	-12.5115
ହାଇଡ୍	-12.5115
ଣିଦେଇଛି	-12.5115
ିରଂଜନ	-12.5115
ାୟାରିଂ	-12.5115
▁ବ୍ୟାଟେର	-12.5116
ୂକ୍ତମ	-12.5116
ାଇବେଟିସ	-12.5116
ଗେୁଡ଼ିକ	-12.5116
୍ରାୟୋଜିତ	-12.5116
ATA	-12.5117
୍ଵଚାକୁ	-12.5117
ପଦେଷ୍ଟା	-12.5117
ତେଜନା	-12.5117
·	-12.6798
•	-12.9299
{	-13.2629
©	-13.2633
₹	-13.794
║	-13.7941
┈	-13.7942
↑	-13.7943
ẹ	-13.7944
ଙ	-13.7945
