<unk>	0
<s>	0
</s>	0
▁	-3.42993
▁‹	-3.95166
.	-3.95276
,	-4.03264
▁।	-4.40195
▁!	-4.69837
।	-4.74112
ର	-4.74596
ରେ	-4.76503
▁1	-4.8658
?	-4.86757
▁ସେ	-4.8913
କୁ	-4.94111
-	-4.9771
st	-5.07543
)	-5.15879
▁?	-5.34566
:	-5.37116
▁କହିଲେ	-5.41999
’	-5.42554
▁କ	-5.44606
▁କିନ୍ତୁ	-5.45257
s	-5.45417
▁(	-5.47632
▁କି	-5.50043
▁ନାହିଁ	-5.51185
▁ପାଇଁ	-5.54138
▁ଏହି	-5.5691
▁“	-5.63952
▁ହେଲା	-5.66324
ଣ	-5.67597
▁ଓ	-5.70823
ଙ୍କ	-5.78466
▁IS	-5.78917
ରୁ	-5.82197
ye	-5.83354
▁y	-5.84068
▁hu	-5.84111
emiti	-5.84173
CG	-5.91364
▁ବି	-5.92408
▁ମୁଁ	-5.96218
!	-5.97069
1	-5.99812
▁mi	-6.04271
▁ସେଦିନ	-6.04702
▁-	-6.05162
▁But	-6.05945
racle	-6.06
▁ଏହା	-6.06649
...	-6.08221
▁କରନ୍ତୁ	-6.10358
▁ମଧ୍ୟ	-6.10878
▁ଏବଂ	-6.11395
୍	-6.18172
▁ଅ	-6.19315
▁"	-6.21133
▁ଆଉ	-6.21253
▁ଏ	-6.22729
▁କରୁଛି	-6.25482
ନ	-6.25648
▁ତ	-6.27598
କ	-6.29764
▁ପଇସା	-6.30282
▁ମୋ	-6.31636
▁ଏକ	-6.32497
▁mẹ	-6.32826
▁କରି	-6.34656
▁ଆପଣ	-6.3528
▁କଣ	-6.35733
▁କିଛି	-6.36901
▁ହାତୀ	-6.37655
'	-6.37746
▁କଥା	-6.3847
▁Smoking	-6.39092
▁ଅଛି	-6.39968
Name	-6.402
▁କେବେ	-6.40886
▁କରିବା	-6.44065
ା	-6.44178
▁ଆମ	-6.44272
▁କହିଲା	-6.45314
▁ଯେ	-6.45987
▁ବର୍ଷ	-6.4686
ଟି	-6.4756
▁ଏବେ	-6.48687
▁କାହିଁକି	-6.51278
ତା	-6.51544
/	-6.52202
▁ର	-6.52227
▁ବେଳେ	-6.529
▁ନ	-6.53048
▁ନୁହେଁ	-6.5333
େ	-6.54066
▁ଆଃ	-6.55486
▁ଯଦି	-6.57555
▁ହେବ	-6.58043
ୀ	-6.59018
▁ରେ	-6.60547
▁ଥିବା	-6.61478
ବା	-6.63474
e	-6.63502
▁ପୂର୍ବରୁ	-6.65528
▁ତା	-6.65951
▁ତେବେ	-6.66585
ଲ	-6.67276
ମ	-6.67496
ନି	-6.67851
ଲା	-6.67906
▁କେତେ	-6.69067
ଙ୍କୁ	-6.69502
ି	-6.69799
▁ହେଲେ	-6.70919
▁ପିଛା	-6.70976
▁is	-6.71879
▁କିଲୋମିଟର	-6.71991
▁ହଁ	-6.74412
▁ସ	-6.74589
▁ବ୍ୟବହାର	-6.74636
▁‘	-6.76557
▁ବା	-6.77326
I	-6.77554
;	-6.77864
▁ବ	-6.79029
▁ପରେ	-6.79364
▁ସବୁ	-6.79477
▁(_	-6.80964
▁ନା	-6.82036
▁ଆ	-6.82365
▁ମ	-6.82697
▁ଟ	-6.82974
ନା	-6.83022
ସ	-6.83461
▁ମା	-6.83816
▁:	-6.85343
▁ତାଙ୍କ	-6.859
ବ	-6.86138
]	-6.88116
▁ବୃଦ୍ଧି	-6.88661
▁ତାଙ୍କୁ	-6.89387
▁ଏହାର	-6.89727
▁କହନ୍ତି	-6.8979
ଏହା	-6.90403
▁%	-6.94072
▁ବିଷୟ	-6.95586
▁ଏହାପରେ	-6.95628
▁ହୋଇ	-6.96927
▁no	-6.97392
l	-6.9765
▁ଏଥିରେ	-6.97767
▁ବସ୍	-6.98588
▁କିଏ	-6.98923
u	-7.00025
g	-7.00081
▁ପହଞ୍ଚିଛି	-7.01151
"	-7.01858
▁ପାଇଛି	-7.02029
▁ପ	-7.02571
ଲି	-7.02584
▁ଆସେ	-7.03544
▁ଦରରେ	-7.03724
▁ପଇସାରେ	-7.04429
▁if	-7.05294
ୋଡ଼ା	-7.0535
▁ଅଧିକ	-7.05631
▁ଦୁଇ	-7.0578
▁ଗୋଟିଏ	-7.06779
▁ସହିତ	-7.07225
ବି	-7.07544
▁ମହିଳାମାନଙ୍କ	-7.07607
▁–	-7.07903
▁ଚ	-7.08134
▁Action	-7.08547
▁match	-7.08775
▁ଚିନ୍ତାର	-7.09073
▁found	-7.09087
କ୍ସ	-7.09176
ଲେ	-7.1057
▁0	-7.10983
▁ଭାଷା	-7.11917
▁ତାହା	-7.13878
ୁ	-7.15888
ତ	-7.16277
ନ୍	-7.17184
ପ	-7.18371
▁ପାଖରେ	-7.1966
ମା	-7.20749
▁କେମିତି	-7.21791
▁A	-7.22058
▁the	-7.22124
▁ଏତେ	-7.22296
▁_	-7.22731
▁you	-7.22829
▁of	-7.22921
▁କାମ	-7.2324
o	-7.24133
▁ସହ	-7.24207
4:16	-7.24369
a	-7.24451
ରି	-7.24695
▁@	-7.24808
▁ଛାଡିବ	-7.25048
▁ହ	-7.2768
▁ଦିନ	-7.27755
▁ସମସ୍ତ	-7.27792
▁ଆଈ	-7.28384
କି	-7.28637
t	-7.29404
▁ଯାଅ	-7.29721
▁ଯାହା	-7.3017
ତି	-7.30971
ଳ	-7.31336
d	-7.31968
▁ଉପରେ	-7.32281
ଟ	-7.32666
f	-7.33344
D	-7.33456
▁ଗ୍ରହଣ	-7.33732
▁”	-7.3385
û	-7.34419
ରା	-7.34783
▁କଲେ	-7.35258
S	-7.35338
ଏ	-7.35561
▁ଆଜି	-7.35891
▁କର	-7.35901
୧୮	-7.36468
▁।”	-7.36565
ò	-7.36962
ିତ	-7.37756
▁I	-7.38259
▁ମି	-7.38576
▁ଟଙ୍କା	-7.39653
▁ଆରମ୍ଭ	-7.3972
▁ଥିଲା	-7.3998
?”	-7.40642
▁ତୁମେ	-7.40769
▁love	-7.4085
▁ହୋଇନାହିଁ	-7.41437
▁ଡିଲ	-7.43135
▁ଏଲିନା	-7.43235
ସ୍	-7.43527
ଡି	-7.43835
W	-7.43874
କା	-7.44768
▁ରହିଛି	-7.45025
▁ମୋତେ	-7.45835
▁ବୋଲି	-7.46029
▁କୌଣସି	-7.46862
ମି	-7.46987
▁ବାଟ	-7.47217
▁କାର୍ଯ୍ୟ	-7.4731
॰	-7.48067
ତତ୍ତ୍ୱ	-7.48304
▁ଡ	-7.48514
▁smruti	-7.4876
ଇ	-7.49138
ଟା	-7.49162
▁କିପରି	-7.49215
%	-7.49221
▁ଉତ୍ତର	-7.49425
n	-7.4943
ଂ	-7.49507
▁ଭାବରେ	-7.50006
▁ତାଙ୍କର	-7.50111
▁କରିବାକୁ	-7.51119
▁ନାମ	-7.51119
ସି	-7.51188
C	-7.51198
▁ମହିଳାଙ୍କ	-7.51231
▁୨	-7.51283
▁ଦ	-7.51372
▁କେବଳ	-7.51411
m	-7.51521
er	-7.51668
A	-7.52026
▁ସ୍ୱାମୀ	-7.52252
ବେ	-7.52364
ମ୍	-7.52932
ପି	-7.53209
▁ଲୋକ	-7.54113
▁ହେଉଛି	-7.54261
▁S	-7.5469
▁[	-7.55888
▁ଆପଣଙ୍କ	-7.5593
▁4.4	-7.5622
▁୧	-7.5661
▁ଅଟେ	-7.56792
▁a	-7.56907
▁ପୁଣି	-7.57358
▁ଏହାକୁ	-7.57585
▁କରୁଛନ୍ତି	-7.57646
▁2	-7.57775
▁ମିଶାଇ	-7.5799
▁କ୍ଷୀର	-7.58113
▁ଶେଷ	-7.58159
▁'	-7.58211
3	-7.60302
i	-7.60412
▁ଭଲ	-7.60625
ଶ	-7.61145
▁ଆମେ	-7.61342
▁ନେଇ	-7.61392
ର୍	-7.62362
।"	-7.62539
▁ହୋଇଥାଏ	-7.62577
ଦ	-7.62675
▁to	-7.62839
▁ମହେଶ	-7.63144
T	-7.63433
ଜ	-7.6358
▁କରିବେ	-7.64078
▁T	-7.64379
ଗୁଡ଼ିକ	-7.64454
Comment	-7.64774
ୟ	-7.6486
▁ସମୟ	-7.6487
▁ପୁଅ	-7.65062
÷	-7.65234
CGX	-7.65461
▁ସୂଚନା	-7.65503
▁ସମୟରେ	-7.65813
▁କରିଛନ୍ତି	-7.663
▁ଗ	-7.66318
Z	-7.66443
R	-7.66767
ାଇ	-7.66836
▁ମୋର	-7.6701
J	-7.67118
▁କାରଣ	-7.67491
।”	-7.67812
▁ଏମିତି	-7.6796
▁ପରି	-7.68025
▁ପି	-7.68386
ଛି	-7.6894
▁ଆସିଲା	-7.69246
ମାନେ	-7.69382
▁ନିଜ	-7.70948
▁ପା	-7.71081
▁ଥିଲେ	-7.71212
▁ନୂତନ	-7.71729
▁ଚାଲି	-7.71789
P	-7.7204
(	-7.7205
କ୍	-7.73153
in	-7.734
O	-7.73694
▁ଜାଣନ୍ତୁ	-7.73945
▁ଘେରରେ	-7.74389
▁ବିଶୋଧନ	-7.74689
▁ପକାନ୍ତୁ	-7.7469
B	-7.74809
L	-7.75171
▁ତଳି	-7.75307
M	-7.75368
ିକ	-7.75743
▁ଶ	-7.76131
▁ମଞ୍ଜିରେ	-7.76144
E	-7.76218
▁ହେ	-7.76331
▁ପ୍ର	-7.7638
▁୧୦	-7.77145
▁C	-7.77431
▁ଲୋକେ	-7.77463
▁ଘର	-7.78203
▁ସରକାର	-7.79206
▁ବହୁତ	-7.79768
▁ଇ	-7.79838
▁ତାକୁ	-7.80199
▁ଭିତରେ	-7.8057
▁ଜଣେ	-7.80673
▁ମଧ୍ୟରେ	-7.80872
୤	-7.8198
@	-7.82371
▁ହେବା	-7.82399
▁ନୂଆ	-7.82544
▁i	-7.82681
ing	-7.83339
▁କେଉଁ	-7.83513
ମୁଁ	-7.83591
▁ସେମାନେ	-7.84188
▁୩	-7.84246
▁ସମ୍	-7.84302
▁ସେହି	-7.85097
_	-7.85563
ଉ	-7.85696
▁ଥାଏ	-7.85708
▁ହୁଏ	-7.86145
ପା	-7.86736
ଚ	-7.86901
▁ଆଲୋଚନା	-7.87041
▁କରିଥିଲେ	-7.87089
▁ପ୍ରଶ୍ନ	-7.8724
▁ଯେଉଁ	-7.87319
▁ଶପଥ	-7.87328
k	-7.87447
▁ପ୍ରତି	-7.87603
▁3	-7.87629
ଙ୍ଗ	-7.87812
ଆର	-7.8822
ଡ	-7.88298
▁କିମ୍ବା	-7.887
କର	-7.89145
ଅ	-7.89534
▁Name	-7.89569
▁ନି	-7.89748
▁ଖାଦ୍ୟ	-7.90014
p	-7.9012
▁ହୋଇଛି	-7.91007
▁and	-7.91047
▁ହଉ	-7.91058
୩	-7.91082
▁ତୁ	-7.91166
2	-7.91175
ଣି	-7.91469
▁ଦେଇଛନ୍ତି	-7.91706
ରୀ	-7.92223
ୋ	-7.92509
c	-7.92525
▁ସି	-7.92537
▁ତମେ	-7.92575
▁News	-7.92967
▁ତେଣୁ	-7.93119
▁ଓଡ଼ିଆ	-7.9313
▁P	-7.94365
ସେ	-7.94706
ହ	-7.94754
▁ଆବଶ୍ୟକ	-7.94951
▁ଭ	-7.95307
ଲ୍	-7.95456
▁କହିଛନ୍ତି	-7.95891
▁କହି	-7.9594
▁ଜ	-7.96009
ed	-7.96092
ଥିବା	-7.96438
▁ତୁମ୍ଭେ	-7.96476
▁ଭାଙ୍ଗି	-7.9649
▁ବନ୍ଦ	-7.96912
`	-7.97173
▁ବିଜେପି	-7.97302
▁ଚିଠି	-7.97364
▁ଜଣକ	-7.97407
ଜି	-7.97599
ଙ୍କର	-7.97784
▁ଫାଇଲ	-7.98332
▁ପଢନ୍ତୁ	-7.9869
16	-7.99045
▁in	-7.99063
▁name	-7.99218
▁wwwwwwwwwwwwwww	-7.99649
y	-7.99723
▁ସତରେ	-7.99964
▁କେହି	-8.00315
”	-8.00426
ପରେ	-8.00724
କିଙ୍ଗ	-8.01384
▁ଘରେ	-8.01498
U	-8.01502
▁ଦେଇ	-8.01555
▁ତୁମ	-8.02431
ଗୁଡିକ	-8.0282
ନାହିଁ	-8.03127
ନ୍ତି	-8.0325
େଇ	-8.03583
▁ଏସି	-8.04037
ହେ	-8.04218
▁ଫୋଲଡର	-8.04514
▁ଉ	-8.04813
=	-8.05503
▁ଅନ୍ୟ	-8.05572
þ	-8.05609
á	-8.0602
ହାମ୍	-8.06267
▁ପ୍ୟାଲେସ	-8.06432
ù	-8.06638
ú	-8.06638
▁ଆପଣଙ୍କୁ	-8.06833
ପ୍	-8.07422
୍ୟ	-8.08565
N	-8.09013
▁କରିଛି	-8.09244
▁5	-8.09294
ାଲୋଚନା	-8.0936
ଗ	-8.09904
▁ସୁ	-8.10074
ଗୁଡ଼ିକୁ	-8.10161
▁ଦେଖି	-8.10255
r	-8.1043
▁ଜୀବନ	-8.10497
▁99	-8.10621
▁ରାତିରେ	-8.11104
▁ଯୁବକ	-8.11335
▁ମାନେ	-8.11429
▁71	-8.11461
▁ମାତ୍ର	-8.1155
ଭ	-8.11587
▁97	-8.12072
୪	-8.12136
▁ପର୍ଯ୍ୟନ୍ତ	-8.12166
▁4	-8.12211
▁ପ୍ରଥମ	-8.12215
▁72	-8.12372
▁ସେହିଭଳି	-8.12389
▁↑	-8.12604
F	-8.12673
▁୫	-8.12722
▁ଅନ୍ୟପଟେ	-8.12824
ଭିଧାନ	-8.12856
▁ସନ୍ଦେଶ	-8.12862
&	-8.12967
▁6	-8.13604
▁ଏକ୍ସପ୍ରେସ୍	-8.13712
▁ହିଁ	-8.14116
▁Kanak	-8.14152
▁1.21	-8.14153
▁ଡକ୍ଟର	-8.14571
.19	-8.14594
▁କରିବ	-8.14701
▁କରିଥିଲା	-8.1497
▁ମନ	-8.14978
▁ମୁ	-8.1522
ଃ	-8.15626
▁ଭାରତ	-8.16022
ାର	-8.16182
ଆ	-8.16534
▁ଦ୍ୱାରା	-8.16575
\\	-8.16638
▁ଚାହୁଁଛନ୍ତି	-8.16642
ାବକ	-8.1671
ଯ	-8.17178
▁କରିପାରିବେ	-8.17216
▁ଭାଇ	-8.17241
ମାନଙ୍କ	-8.17248
▁୧୯	-8.17264
▁ପ୍ରତିମୂର୍ତ୍ତି	-8.17325
ହି	-8.17336
▁ଗରମ	-8.1734
ରୀମାନେ	-8.17922
▁ଉପଦ୍ର	-8.18023
▁ତାଲିକା	-8.18029
▁B	-8.18074
▁ହାତ	-8.18076
▁ଆମ୍ବେଦକର	-8.18249
H	-8.18378
▁R	-8.18666
▁ଉତ୍ତରପ୍ରଦେଶର	-8.18756
al	-8.18838
▁ପରିବର୍ତ୍ତନ	-8.18951
▁ଅଳ୍ପ	-8.19205
▁ମଞ୍ଜି	-8.1922
▁ନେତା	-8.1924
▁info	-8.19416
▁ପ୍ରଣେ	-8.19418
ରିଟରେ	-8.19418
ly	-8.19428
କ୍ଷ	-8.19677
▁ପିଇବା	-8.19907
▁ବୟସ	-8.20131
ଣ୍ଡ	-8.20643
▁ମନେ	-8.20886
▁ଶରୀର	-8.20922
▁ପୋଷାକ	-8.21076
▁ବିଷୟରେ	-8.21174
▁ନାହାନ୍ତି	-8.21218
ିଆ	-8.21226
▁ଗୀତ	-8.21234
▁କେ	-8.21307
▁ପାଇ	-8.2197
କେ	-8.22122
୧	-8.22225
ଖ	-8.22548
▁ଦେବ	-8.22697
ar	-8.23507
ଛନ୍ତି	-8.23969
▁ଧ	-8.24077
▁ଟି	-8.24099
▁—	-8.24262
".	-8.24501
▁ଏପରି	-8.24766
▁ଲକ୍ଷ	-8.24773
▁ଘଟଣା	-8.25116
ଛ	-8.25125
▁ସମ୍ପର୍କ	-8.25145
▁ଯାଇ	-8.2516
▁ଦାରୁ	-8.25232
▁action	-8.25482
▁?”	-8.25553
ଓ	-8.25585
▁ଜାଣି	-8.26438
▁ମହିଳାଙ୍କୁ	-8.26445
▁Comment	-8.26569
ଦୂରରେ	-8.26812
ଟ୍	-8.2718
▁ଭାବେ	-8.27659
ଁ	-8.27837
▁ଅଛନ୍ତି	-8.2794
▁କା	-8.28452
ତ୍ଵ	-8.28501
▁ବଡ	-8.28646
▁ରଙ୍ଗ	-8.28713
14	-8.28721
ଏସ୍	-8.29187
ଜା	-8.29283
▁ଯୋଗ	-8.29666
▁।[	-8.29777
▁ଆସି	-8.2986
▁କହିଲି	-8.29955
▁ପାଣି	-8.29993
▁17	-8.30037
ନ୍ତ	-8.30042
▁M	-8.30092
▁l	-8.30193
ହଁ	-8.30209
G	-8.30433
▁ଆପଣଙ୍କର	-8.3057
ୀୟ	-8.30818
ଡ଼	-8.31111
ହା	-8.31133
ମୋ	-8.3116
ଥିଲା	-8.31261
▁ପର୍	-8.31764
▁ଶୁଣି	-8.318
▁ଯୋଜନା	-8.32104
ଡା	-8.3222
▁ମହା	-8.32238
▁ଯାଇଥିବା	-8.32253
▁ଯୁଦ୍ଧ	-8.32321
▁ତ୍ରୁଟି	-8.32982
▁ଅନେକ	-8.3299
▁ଧରି	-8.33213
▁ଉଚିତ	-8.33215
▁9	-8.33433
▁8	-8.33448
▁ଭାରତୀୟ	-8.33558
TS	-8.33694
▁ଛି	-8.33715
କାର	-8.33824
ଠାରୁ	-8.33843
▁ସାହିତ୍ୟ	-8.33872
▁ଦୌଡ଼ି	-8.34071
▁ଆସିଥିଲେ	-8.34095
▁ଲୋକମାନେ	-8.34172
ଷ୍ଟ	-8.34222
▁ହା	-8.34382
▁The	-8.34489
ପାରେ	-8.35343
▁ଘେରି	-8.35441
▁4.5	-8.35467
▁କମ	-8.35499
▁ହେବେ	-8.36025
▁କରାଯାଇଛି	-8.36291
▁ସ୍ଥାନ	-8.36472
▁ନିୟମ	-8.3701
▁୬	-8.37707
▁ସ୍ତ୍ରୀ	-8.37889
▁ମେ	-8.37946
▁ପ୍ରଦାନ	-8.37975
ଦା	-8.37977
4	-8.38091
▁ଲ	-8.38297
▁ଯୀଶୁ	-8.38487
▁ଅସଦାଚରଣ	-8.38522
ସା	-8.38573
▁ହଜାର	-8.3899
‹	-8.39053
▁ବିଭାଗ	-8.3989
ଳି	-8.4005
ଫ୍ୟୁମ	-8.40244
on	-8.40246
▁♪♪♪♪♪♪♪♪♪♪	-8.40268
re	-8.4045
ିଙ୍ଗୁଡ଼ି	-8.40536
▁ଘରଠାରୁ	-8.40579
▁ପାଟିଶୁଣି	-8.40825
▁7	-8.40944
V	-8.4097
▁ସୁଯୋଗରେ	-8.41024
ୈ	-8.41149
▁କୋଟି	-8.41181
▁ଋଣ	-8.41315
▁ଠାରୁ	-8.41319
ପ୍ର	-8.41355
▁କରିଥାଏ	-8.41577
▁ତାର	-8.41717
or	-8.42294
▁ଦେଖନ୍ତୁ	-8.423
ୟା	-8.42771
ଲୁ	-8.42892
▁ଖବର	-8.43494
K	-8.43583
▁କରନ୍ତି	-8.43585
▁୯	-8.43747
5	-8.44072
▁ମୂଳ	-8.44227
7	-8.44478
b	-8.446
ଥିଲେ	-8.4484
▁ଶ୍ରୀ	-8.4489
œ	-8.44986
▁ଏଇ	-8.45237
ଭି	-8.45443
ଥାଏ	-8.45526
▁ଭିଡିଓ	-8.45596
▁କାର୍ଯ୍ୟକ୍ରମ	-8.45681
▁କରାଯାଇପାରିବ	-8.45912
amp	-8.46082
▁ତୁମକୁ	-8.46094
▁ତୁମ୍ଭ	-8.46411
ଜ୍	-8.46594
9-	-8.46599
v	-8.46804
RIZ	-8.46824
▁&	-8.46954
▁ନାଁ	-8.47034
Y	-8.47083
ମୁ	-8.47141
ଵ	-8.47239
▁ମୃତ୍ୟୁ	-8.47555
▁ଚିହ୍ନି	-8.47606
▁ମୋଦି	-8.47709
▁ସଂରକ୍ଷଣ	-8.47755
ତ୍	-8.48082
▁19	-8.48332
▁ଜନ୍ମ	-8.48367
ry	-8.48518
▁ମୋଦିଙ୍କ	-8.48682
ନେ	-8.48765
▁ରାଜା	-8.49017
▁କରୁ	-8.49068
▁ରାଜ୍ୟ	-8.49179
an	-8.4918
▁ନିର୍ମାଣ	-8.49328
▁୨୦	-8.49405
ଏମ୍	-8.49531
▁ଏମାନଙ୍କୁ	-8.49533
▁10	-8.49673
୮	-8.49818
▁ପରିମାଣରେ	-8.49937
▁ସା	-8.49995
ଫ	-8.50008
▁'%	-8.50118
▁for	-8.50311
▁ଝିଅ	-8.50525
gt	-8.5082
ସ୍ତ	-8.50853
▁ପୂର୍ବ	-8.50863
Q	-8.50922
ତେ	-8.51049
▁ପ୍ରେମ	-8.51151
▁ଦେଲେ	-8.5121
▁ହୋଇଥିଲା	-8.5136
▁ପାଖକୁ	-8.51433
▁ଯାଏ	-8.51778
▁୪	-8.51779
▁__	-8.52145
▁ସମସ୍ୟା	-8.52248
▁କରିଥିବା	-8.52525
▁ଘରୋଇ	-8.52554
ତୁ	-8.52777
11	-8.52795
▁ଚିତ୍ର	-8.52948
▁ମାସ	-8.53018
▁ଫ	-8.53156
▁କାଲି	-8.53329
▁ଯାଇଥାଏ	-8.53343
▁ସଂ	-8.53484
୨	-8.53587
▁ଥର	-8.53612
▁ରହି	-8.53734
▁୩୦	-8.53846
▁କାହା	-8.53981
ନ୍ତୁ	-8.54018
▁ସମସ୍ତେ	-8.54379
▁c	-8.54391
▁ସତ	-8.54402
▁ମାମଲା	-8.54533
▁ଯ	-8.54839
▁ବ୍ୟକ୍ତି	-8.54872
▁ହୁଅ	-8.55169
▁ନୁହଁ	-8.5517
▁କାହାକୁ	-8.55258
▁ଭାତ	-8.55383
▁କରାଯାଏ	-8.55546
▁ଭିଟାମିନ	-8.55662
▁ଦଳ	-8.56081
▁ଫିଙ୍ଗି	-8.56215
▁୧୫	-8.56407
ବୁ	-8.56511
se	-8.56612
▁ଓଡ଼ିଶା	-8.56672
ପୁର	-8.5687
▁ଫଳପ୍ରଦ	-8.56897
▁ବୀମା	-8.57241
ଠ	-8.57364
▁ନିଜର	-8.57569
ାନ	-8.57655
▁ହୋଇଥିବା	-8.57694
?"	-8.57755
▁ଖ	-8.57831
▁ଦରକାର	-8.57851
▁ଦେଖା	-8.57871
▁ପ୍ରକାର	-8.58233
▁କଲା	-8.58297
▁ଖାଲି	-8.58332
▁ବିବାହ	-8.5837
▁ତୋ	-8.58417
h	-8.58819
▁ଠିକଣା	-8.58975
▁ଅନୁସାରେ	-8.58982
▁ଆପ	-8.59019
▁p	-8.59202
▁କଲ	-8.59246
▁ନିର୍ବାଚନ	-8.59522
▁ଚା	-8.59954
▁କଥାରେ	-8.59994
▁ତଥ୍ୟ	-8.60003
ଦେଇଥାନ୍ତି	-8.60039
▁ପୋଲିସ	-8.60162
▁ମୁହଁ	-8.60277
▁କଂଗ୍ରେସ	-8.60285
▁ବାସ	-8.60291
▁WEB	-8.60292
▁ଯିବା	-8.60317
ତ୍ର	-8.60335
ମାନଙ୍କୁ	-8.60345
▁ବଡ଼	-8.60851
▁ଏଠାରେ	-8.61139
▁ଠିକ୍	-8.61169
▁କେନ୍ଦ୍ର	-8.61169
▁ମିଳିବ	-8.61295
▁କରୁଅଛି	-8.6149
▁Next	-8.61575
▁ବର୍ତ୍ତମାନ	-8.61802
ହାର	-8.61813
ବାର	-8.6188
▁Why	-8.62161
▁ଭରପୁର	-8.62162
!”	-8.62255
ଟେ	-8.62316
▁ପତ୍ର	-8.62716
▁କୁମାର	-8.63115
ଚି	-8.63205
▁ସହେି	-8.63249
▁ହେଇ	-8.63344
6	-8.63531
ଦିନ	-8.63538
▁ଆମେରିକା	-8.63842
▁ଏକା	-8.64458
ri	-8.64679
ଳା	-8.65192
▁କରିବାର	-8.65296
▁୪୦	-8.65446
ିଲା	-8.65528
ଲେଖ	-8.65531
ପଥର	-8.65598
▁ତିଆରି	-8.65832
▁ଲାଭ	-8.65852
▁ଜିଲ୍ଲା	-8.66104
▁ଉପ	-8.66165
▁ଶବ୍ଦ	-8.66211
▁minutes	-8.66226
▁ଫଟୋ	-8.66403
▁ବିକାଶ	-8.66513
ମାନ	-8.6659
▁କୋ	-8.6673
ୌ	-8.66863
▁ଆଶ୍ଚର୍ଯ୍ୟ	-8.66914
▁ଆଧୁନିକ	-8.66959
▁ଧାରଣ	-8.67393
▁public	-8.67494
▁label	-8.67718
ଶ୍	-8.67769
▁ବିଶେଷ	-8.6794
▁private	-8.681
ଭୋଁ	-8.68104
▁car	-8.68185
ବାକୁ	-8.68451
▁ବର୍ଷରେ	-8.68552
▁ଶକ୍ତି	-8.68591
▁ପିଲା	-8.68773
▁ଚାଲୁଥିବା	-8.68878
ଦ୍	-8.69004
te	-8.6907
▁ଭାଷାରେ	-8.69077
th	-8.6911
▁ବରିଷ୍ଠ	-8.69254
▁ହସ	-8.69438
ଧ	-8.69501
▁ପୃଷ୍ଠା	-8.69612
ରୋ	-8.69825
▁ଜ୍ଞାନ	-8.69987
9	-8.69992
▁item	-8.70033
▁କରିବୁ	-8.7043
▁ସୃଷ୍ଟି	-8.70436
▁ଦେଖିଛନ୍ତି	-8.70469
ra	-8.70557
▁ବର୍ଣ୍ଣନା	-8.70807
▁ଘୋଷଣା	-8.70813
▁2015	-8.70821
ሳ	-8.7083
▁ହୋ	-8.70911
▁ଅଧିକାର	-8.71235
▁Long	-8.71436
KChar	-8.71602
▁ଗଛ	-8.71678
.....	-8.7176
▁EE	-8.72039
▁କରିବି	-8.7233
ନୁ	-8.725
▁ପର	-8.72525
▁ମିଛ	-8.72683
ୃ	-8.72701
▁Previous	-8.72797
▁ରାତି	-8.72805
କାରୀ	-8.7281
▁12	-8.72855
ଏନ୍	-8.72882
▁ଏମାନେ	-8.72953
▁ବିନା	-8.7296
▁ବାହାରି	-8.73186
▁read	-8.7332
ଛୁ	-8.73432
▁ଚି	-8.73574
▁lives	-8.73636
▁ମୂଲ୍ୟ	-8.73788
▁run	-8.73797
▁behind	-8.74007
▁ପ୍ରବେଶ	-8.74014
▁ବିନ୍ୟାସ	-8.74052
▁ବିଫଳ	-8.74065
▁ବିଜୟ	-8.74084
▁ଜଳ	-8.74392
▁ଜୀବ	-8.74434
▁dog	-8.74445
▁ଉଠ	-8.74647
▁କହିବି	-8.7465
▁ଶା	-8.74657
ଡ଼ି	-8.74982
X	-8.75012
▁ଜଣ	-8.75067
3:30	-8.75236
▁ଆଇ	-8.75265
▁କୁହ	-8.75277
w	-8.75408
▁ସଦସ୍ୟ	-8.7552
▁F	-8.75582
▁କହୁଥାନ୍ତି	-8.75647
select	-8.76057
ଗ୍ରା	-8.76124
▁ଚିନ୍ତା	-8.76134
▁ପକ୍ଷରୁ	-8.76182
lt	-8.76191
▁title	-8.76214
▁G	-8.76433
▁month	-8.76471
▁ବାପା	-8.76556
▁ହେଉ	-8.76582
ାୟ	-8.76612
▁ବାହାଘର	-8.76891
8	-8.77033
▁ଲେଖା	-8.77057
▁#	-8.77171
ିକା	-8.77231
▁ଗିରଫ	-8.77275
▁ପଚାରିଲେ	-8.77346
▁ସାଧାରଣ	-8.77613
▁ବିଧାୟକ	-8.77727
୫	-8.77805
unit	-8.77814
୯	-8.77822
▁ଅପସାରଣ	-8.77831
▁.......	-8.77835
▁କଲି	-8.77835
କୃତ	-8.77844
▁D	-8.78076
x	-8.783
▁ଦୁଃଖ	-8.784
▁କବିତା	-8.78668
▁ପଲିସି	-8.78998
▁ବାହାର	-8.79023
▁ସବୁବେଳେ	-8.79041
▁ପ୍ରସ୍ତୁତ	-8.79304
▁ରହିବ	-8.79417
▁ଦୂର	-8.79576
▁ଉପକରଣ	-8.79702
▁ବସି	-8.79748
ଣ୍ଟ	-8.79794
▁ପାଳନ	-8.79924
ଗଲେ	-8.79952
ିଂ	-8.80038
▁ରାମ	-8.80127
ନ୍ଦ	-8.80241
▁ଏଭଳି	-8.80327
▁ଜାଣିବା	-8.80388
▁ଯା	-8.80423
▁ପ୍ରୟୋଗ	-8.80471
▁ଅନୁଯାୟୀ	-8.80718
ଣା	-8.80734
▁15	-8.80999
'!	-8.81021
▁block	-8.81153
କରି	-8.81315
▁K	-8.81405
୍‍	-8.81546
▁ନେ	-8.81745
▁ଡା	-8.81813
▁ଦାବି	-8.81878
▁ଯତ୍ନ	-8.82028
▁ନେବେ	-8.82115
ସର	-8.82163
ଥ	-8.82406
▁?"	-8.82454
nicode	-8.82469
▁ନମ୍ବର	-8.8247
୍ଯ	-8.82523
ଆଇ	-8.82749
ଡ୍	-8.82872
▁ମାନ	-8.83008
▁ଅର୍ଥ	-8.83016
▁୮	-8.83019
▁India	-8.8332
ଶା	-8.83361
▁ସ୍	-8.83456
▁ନବ	-8.83673
▁ପଛରେ	-8.83675
▁ମୁଖ୍ୟ	-8.83708
ଫା	-8.83765
▁ଦର୍ଶାନ୍ତୁ	-8.83806
▁ଛୋଟ	-8.83819
▁ଖେଳ	-8.83867
ଅଗ୍ର	-8.83875
ୱା	-8.83947
▁04:	-8.83963
▁ପଛେ	-8.83998
▁ଡି	-8.84127
es	-8.84266
▁ପରୀକ୍ଷା	-8.84508
▁ସରକାରଙ୍କ	-8.84564
▁ଆଠ	-8.84712
ପରି	-8.84763
▁୫୦	-8.84769
▁ଦେବା	-8.84847
▁ପାରିବେ	-8.84892
ୁଛି	-8.84965
▁ଆଣ	-8.85037
ତ୍ତ	-8.85065
▁ସର୍ଭର	-8.85215
▁ଭଳି	-8.85238
ଏହି	-8.85264
▁ପ୍ରସଙ୍ଗ	-8.85392
▁ୟ	-8.85436
▁m	-8.85585
▁u	-8.85655
କୋ	-8.8566
▁E	-8.85956
▁ଗଠନ	-8.86035
▁ବୁଢା	-8.86067
▁ଯେତେବେଳେ	-8.86068
le	-8.86129
▁f	-8.86225
▁କାହାର	-8.8636
ିଲେଇ	-8.86446
▁ସମ୍ଭବ	-8.86523
▁ଘରକୁ	-8.86813
▁ସଦାପ୍ରଭୁ	-8.87427
GenericName	-8.87447
▁ଟୁକୁଡେ	-8.87447
▁ନାୟକ	-8.87482
ଯିବ	-8.87528
▁ଆମ୍ଭେ	-8.87785
ନୀ	-8.87828
ହିଁ	-8.87909
0	-8.87919
▁ଆସ	-8.88025
▁ଆପଣାନ୍ତୁ	-8.88026
ମେ	-8.88037
▁ଗୃହ	-8.88288
▁ଦେଶ	-8.88312
▁ଗୋ	-8.88648
▁here	-8.88653
୍ୟା	-8.88717
▁ସୀମାନ୍ତ	-8.88866
ବର	-8.89159
▁ଶିଶୁ	-8.89169
▁ଘଟିଯାଏ	-8.89327
▁ଦିନର	-8.89504
▁ଦୟାକରି	-8.8955
▁ଦି	-8.89619
▁ଯାଇଛି	-8.89657
▁କାହିଁ	-8.89754
▁ରାଜନୈତିକ	-8.89796
ଯାଏ	-8.89915
▁ବାଲା	-8.89938
▁ସ୍କୁଲ	-8.9006
▁ବଢିବ	-8.9015
▁ବର୍ଷା	-8.90377
ତମ	-8.90391
▁ହଠାତ୍	-8.90403
▁KDE	-8.90683
▁ହେଲାଣି	-8.9074
▁ତମ	-8.9085
▁ବେ	-8.91062
10	-8.91274
▁ସଂଖ୍ୟା	-8.91299
▁କରିଥାନ୍ତି	-8.91345
▁ନକଲ	-8.91533
▁କାହାଣୀ	-8.9173
ଲୋ	-8.91811
▁ମିଶ୍ର	-8.91824
ଘ	-8.92002
▁ପାଠ	-8.92118
ବ୍	-8.92159
▁http	-8.92391
ାଉ	-8.92455
▁redirect	-8.92688
▁ରୋଗ	-8.92765
▁!”	-8.92962
▁ମେଲ	-8.92991
▁ଲୋ	-8.93141
▁ଦୃଶ୍ୟସଂଖ୍ୟା	-8.93177
▁ହତ୍ୟା	-8.93179
▁ଦିଅଁ	-8.93196
▁b	-8.93206
19	-8.9325
▁ପ୍ରକାଶ	-8.93257
ଡ଼ା	-8.9331
ଗଣ	-8.9332
▁ହୋଇପାରେ	-8.93348
▁ରାଜ	-8.93447
ଭା	-8.93502
▁ଖା	-8.93534
▁ମହିଳା	-8.93573
▁ଦିଅନ୍ତୁ	-8.93593
ୱାଘା	-8.93669
▁ଏଠାକୁ	-8.93671
▁Duration	-8.93672
▁ଡାକ	-8.9378
▁ଏସବୁ	-8.93866
▁ଲାଗି	-8.9408
ଗା	-8.9426
▁ଜି	-8.94313
▁ଏସ	-8.94408
▁ଖାଇବା	-8.94563
ିଥିବୁ	-8.94649
▁ଆସନ୍ତା	-8.94669
▁In	-8.9468
▁ଚୟନ	-8.94684
▁କହିଥିଲେ	-8.94722
▁ସେମାନଙ୍କୁ	-8.94828
it	-8.95392
▁ତାରିଖ	-8.95624
▁ସୁରକ୍ଷା	-8.95664
ହେଲେ	-8.95674
▁OF	-8.95691
▁ସଂଯୋଗ	-8.95912
▁ଥରେ	-8.96105
▁ଯାଞ୍ଚ	-8.96175
▁ମିନିଟ୍	-8.96245
▁ସମାନ	-8.96252
▁ଦେବେ	-8.96557
▁ପୁତ୍ର	-8.96634
▁ଅସ୍ଥାୟୀ	-8.96677
▁ୱିଣ୍ଡୋ	-8.96677
First	-8.96677
20	-8.96686
▁ବ୍ୟାଙ୍କ	-8.96901
12	-8.97063
▁h	-8.97096
▁ତିନି	-8.97205
▁//	-8.97242
▁ମେଣ୍ଟ	-8.97376
ସନ	-8.97451
▁୧୦୦	-8.9783
▁or	-8.97935
ଠା	-8.98007
▁ମହାପାତ୍ର	-8.98215
▁from	-8.98216
▁ଲକ୍ଷ୍ୟ	-8.98281
▁ଦିନରେ	-8.98413
18	-8.98488
▁୩୧	-8.98606
▁ଛ	-8.98715
▁ପୁରୁଣା	-8.98734
▁Last	-8.98734
▁କେଉଁଠି	-8.98753
ଦ୍ଧ	-8.98897
▁ଉପାୟ	-8.98945
▁ବଞ୍ଚି	-8.99173
▁ଚାକିରି	-8.99256
▁ସାବଧାନ	-8.99487
▁Post	-8.99779
▁ସାଧାରଣତଃ	-8.99788
▁on	-8.99812
15	-8.99839
ଦି	-8.99908
▁ଦିନେ	-8.99957
▁ସମାନେେ	-9.00305
▁ମାନଙ୍କୁ	-9.00507
▁୫ଟି	-9.00685
▁with	-9.0083
▁8.6	-9.00834
▁ନବୀନ	-9.01392
▁ବଢିଲେ	-9.01403
ବର୍ଷ	-9.01604
▁ମତେ	-9.01655
▁ପଥ	-9.0171
▁ତାପରେ	-9.01747
at	-9.01842
▁ଘଣ୍ଟା	-9.01861
▁ଗଲା	-9.01869
:%	-9.0189
ଷ	-9.01955
▁ତାହେଲେ	-9.02043
▁L	-9.02166
ଗଲା	-9.02214
▁ପଡି	-9.02247
▁ପୁରୁଷ	-9.02439
▁ବିରୋଧରେ	-9.02727
ww	-9.0296
▁ସମାଧାନ	-9.02978
pression	-9.02979
wwww	-9.02991
▁ବିଜେଡି	-9.03036
▁କହୁଛି	-9.0308
▁ସ୍ୱର	-9.0311
ଦେ	-9.03223
▁ଜୟ	-9.03241
▁ସେମାନଙ୍କର	-9.03246
ad	-9.03445
▁X	-9.03452
▁Im	-9.03521
ଚା	-9.03528
▁ଭି	-9.03659
▁re	-9.03754
▁ଯାତ୍ରା	-9.03784
ସୁ	-9.04126
▁Odisha	-9.04204
୦	-9.04378
୨୦	-9.04442
▁ସେମାନଙ୍କ	-9.04493
▁କହିବା	-9.04506
▁ଦାସ	-9.04783
▁ଦିବସ	-9.04918
▁ବାବା	-9.04927
00	-9.05027
ଶି	-9.05048
▁ଘ	-9.05108
▁ବିଶ୍ୱାସ	-9.05232
ାଡି	-9.05246
is	-9.05285
▁ଜା	-9.05299
ିଲେ	-9.05311
▁ହେବାକୁ	-9.05476
▁ଲୋକଟି	-9.055
▁TRANSLATORS	-9.05726
▁ଆସନ୍ତୁ	-9.0575
▁"%	-9.06143
en	-9.06171
▁ଆହୁରି	-9.06284
▁୧୪	-9.06491
ସବୁ	-9.06548
▁21	-9.06764
▁ଏଲ୍	-9.0678
▁ଦୃଶ୍ୟ	-9.06829
▁ସନ୍ଧାନ	-9.06846
▁ମଣିଷ	-9.06846
▁N	-9.06857
▁ଖାଇବେ	-9.06886
▁ବିଭିନ୍ନ	-9.06937
▁ଭୟ	-9.06998
ୁଆ	-9.07086
▁ପୁ	-9.07101
▁ଜଣା	-9.07279
of	-9.07288
▁{@}	-9.07411
▁ପରିବାର	-9.07467
▁ଅଧିକାରୀ	-9.07638
ଗୁଡିକୁ	-9.07783
▁ମସିହାରେ	-9.07859
▁ଭାବି	-9.07866
▁ପୁରସ୍କାର	-9.07979
▁ସଂକେତ	-9.07979
▁ଗୋଟେ	-9.08002
▁କହୁଛନ୍ତି	-9.08017
▁ନିଜେ	-9.08018
▁ଟଙ୍କାରେ	-9.08099
ାଇବା	-9.08212
ପୁ	-9.0831
▁ପିଲାଙ୍କ	-9.08393
13	-9.08401
▁ପୁସ୍ତକ	-9.08551
▁ସହାୟତା	-9.08551
▁ଅଭିନେତ୍ରୀ	-9.08998
▁♪♪♪♪♪♪♪♪♪♪♪♪♪♪	-9.09126
▁ସମ୍ମାନ	-9.09231
▁ଫଳ	-9.09411
▁ଲୋକଙ୍କ	-9.09422
▁♪♪♪♪♪♪♪♪♪♪♪♪♪	-9.09703
▁♪♪♪♪♪	-9.09704
▁♪♪♪♪♪♪...	-9.09704
▁♪♪♪♪♪♪♪	-9.09704
▁କ୍ଷତି	-9.09721
▁ଜାଣିଛନ୍ତି	-9.09772
▁ମାଧ୍ୟମ	-9.10017
▁ରହିବା	-9.1023
▁ଅଭ୍ୟାସ	-9.10285
▁କୋହଳ	-9.10285
▁8.8	-9.10286
▁ଠିଆ	-9.10298
▁ଜାଣନ୍ତି	-9.103
▁ମହ	-9.10306
▁ଆଦେଶ	-9.10413
▁ନିଶ୍ଚିତ	-9.10471
▁ଲାଗିଲା	-9.1049
ୟୁ	-9.10492
▁ପାରିବ	-9.10555
▁ଦେ	-9.10583
▁ଭାଗ	-9.10586
ion	-9.10634
ଜେ	-9.10857
▁You	-9.10884
ପାରିବେ	-9.10952
▁ଛାଡି	-9.11163
▁ଭା	-9.11392
▁ନକହି	-9.11459
▁କେଜାଣି	-9.11461
▁ସାହୁ	-9.11469
▁ବସ୍ତୁ	-9.1149
ଥିଲି	-9.11787
ic	-9.11828
▁ବୋଉ	-9.12006
▁ଖରାପ	-9.12048
▁ସ୍ଥିତି	-9.12051
▁ଲାଗେ	-9.12052
▁ଜମି	-9.12248
▁ସକାଳୁ	-9.12288
▁com	-9.12393
ma	-9.12425
▁ଦେବାକୁ	-9.12429
▁ଭୁଲି	-9.12498
▁Evolution	-9.12645
▁14	-9.12714
▁ସମ୍ପୂର୍ଣ୍ଣ	-9.13025
▁ଅଛ	-9.13182
ଦେବ	-9.13204
ଦମ୍ପତିଙ୍କ	-9.13298
▁button	-9.13393
▁ନୂଆଦିଲ୍ଲୀ	-9.13846
▁ମହାଦେବ	-9.13871
▁ପ୍ରଭୁ	-9.13894
▁ଢେଙ୍କାନାଳ	-9.13936
▁କରା	-9.13961
▁ଫିଲ୍ମ	-9.13972
ଢ	-9.14023
▁ସ୍ୱାସ୍ଥ୍ୟ	-9.14096
ଣୀ	-9.14145
▁କହିବେ	-9.14147
.”	-9.14221
▁କହିଦେଲି	-9.14452
▁ନିର୍ବାଚିତ	-9.14452
▁ପାଠ୍ୟ	-9.14491
▁H	-9.14532
ମହାରାଜ	-9.14671
▁ଦ୍ବାରା	-9.14692
▁ବସ	-9.14939
▁ବହୁ	-9.1497
▁ପାକିସ୍ତାନ	-9.15062
▁କରୁଥିବା	-9.1516
▁ଚାଳକ	-9.15458
▁ଜାତୀୟ	-9.15477
▁ଅନୁ	-9.15527
ଟର	-9.15569
▁by	-9.15588
▁w	-9.15641
▁କମ୍ପାନୀ	-9.15675
ଣ୍ଡି	-9.15677
▁ଚାଲିଗଲେ	-9.15741
▁କହିଲୁ	-9.15796
▁ରା	-9.15863
mp	-9.15868
▁କମ୍	-9.15925
▁NAME	-9.1593
am	-9.1609
▁ଦେଖିବା	-9.16197
▁he	-9.16256
▁ପ୍ରକଳ୍ପ	-9.16293
▁ଦେଲା	-9.16305
▁କାଟିଲେ	-9.16329
▁18	-9.16366
ଗତ	-9.16412
▁ଫେରି	-9.16453
▁post	-9.16491
▁ଡାକ୍ତର	-9.16512
▁ଶ୍ରେଣୀ	-9.16523
ମ୍ବ	-9.16545
▁ସକାଳ	-9.16598
▁ଲଗ	-9.167
଼	-9.16782
▁ପେ	-9.16804
ତ୍ୱ	-9.16814
▁ବ୍ୟବସ୍ଥା	-9.16916
ଦାନ	-9.17043
ଲଗା	-9.17257
me	-9.17395
▁ପ୍ରଥମେ	-9.17398
▁ଶୈଳୀ	-9.17618
et	-9.17782
▁45	-9.17827
▁ପହଞ୍ଚି	-9.17865
▁ଵ	-9.18081
େଲ	-9.18101
ାଏ	-9.18135
▁ନବୀନଙ୍କ	-9.18143
▁ଦାୟିତ୍ବ	-9.18168
▁ଅଜବ	-9.18169
▁Ca	-9.18173
▁ଖୁସି	-9.18182
▁ବଲିଉଡ୍	-9.18206
ଯା	-9.18262
▁ଥ	-9.18273
▁ପାସ	-9.18286
▁ତଳେ	-9.1839
▁ପାଦ	-9.18399
୍ୟୁ	-9.18455
▁not	-9.18557
▁ରାସ୍ତା	-9.18585
▁ହସି	-9.18689
▁୭	-9.1874
▁ଉପଲବ୍ଧ	-9.18801
▁ଦୁର୍ଘଟଣା	-9.18801
▁ଏଥର	-9.18943
hi	-9.19004
▁୧୧	-9.19077
▁ପ୍ରତିଛବି	-9.19326
▁ସଂପର୍କ	-9.19381
▁ନିଜକୁ	-9.19404
▁inmenu	-9.19438
▁more	-9.1945
▁ରକ୍ଷା	-9.19516
li	-9.19811
17	-9.19891
ଠୁ	-9.19961
▁ଟିକେ	-9.19986
▁ଗୁଣ	-9.20088
▁ଦିଅ	-9.20097
▁କାଳ	-9.20128
▁ଏହାସହ	-9.20181
▁ଆଧାର	-9.20203
▁ଖୋଲି	-9.2022
ପତି	-9.20261
▁କପୁର	-9.20264
▁short	-9.20302
j	-9.20375
▁ଶୀର୍ଷକ	-9.20444
▁ଗୁରୁ	-9.20527
▁ଉପସ୍ଥିତ	-9.20605
▁ସକ୍ରିୟ	-9.20724
▁ପରବର୍ତ୍ତୀ	-9.20728
▁20	-9.2075
▁ଏଥିପାଇଁ	-9.20758
▁ଅନ୍ୟତମ	-9.20767
୭	-9.2081
▁ଗାଁ	-9.20823
ce	-9.20833
ପାଇଁ	-9.20902
▁ସ୍ୱ	-9.21085
▁O	-9.21093
▁ଜେ	-9.21101
ୂ	-9.21168
▁ଶିକ୍ଷା	-9.21319
Query	-9.21373
▁ବାବୁ	-9.21413
ଥା	-9.21537
▁ଆତ୍ମା	-9.21556
ଗୋ	-9.21618
▁୨୦୧୯	-9.2162
ro	-9.21699
▁ରହିବେ	-9.21708
▁ଆର	-9.21819
▁ଚାହିଁ	-9.21916
▁31	-9.21995
▁କଦଳୀ	-9.22027
ର୍କ	-9.22091
▁କରୁଥିଲେ	-9.22095
▁ଖାତା	-9.22222
▁ପ୍ରାୟ	-9.2225
▁ପାଇବେ	-9.22306
▁ଶ୍ରଦ୍ଧା	-9.2268
▁ଚୋପା	-9.22685
▁ସାମାଜିକ	-9.22685
ଞ୍ଚ	-9.22743
▁ରଖି	-9.22744
▁ଦେଇଥିଲେ	-9.22757
ଅଛି	-9.22883
▁ଦେଖ	-9.22946
▁ଆଦି	-9.22957
▁ପଡ଼ି	-9.23044
▁be	-9.23066
▁ବୁ	-9.2332
▁ମହାରାଷ୍ଟ୍ରର	-9.23347
▁ପଢି	-9.23382
▁ଦର	-9.23389
▁ମିଳିଲା	-9.23454
ାଇବ	-9.23516
▁ସେକଥା	-9.23738
▁ଦେବି	-9.23841
▁before	-9.24014
▁ନୀତି	-9.24019
▁ମୁକ୍ତି	-9.24109
▁ଆଣି	-9.24126
[	-9.24258
▁ମାେ	-9.24262
୩୦	-9.2445
▁Odia	-9.24503
▁ମୁକ୍ତ	-9.24534
ଡେ	-9.24604
▁ପାର	-9.24616
▁କ୍ଷେତ୍ରରେ	-9.24625
▁ସୀମା	-9.24659
▁ବଚ୍ଛିତ	-9.24685
▁ପରା	-9.24732
ଲୀ	-9.25124
ac	-9.25175
ରାଜ	-9.25348
▁ରହସ୍ୟ	-9.25359
▁ଉଦ୍ଧବ	-9.2536
▁ବାଲେଶ୍ୱର	-9.2536
▁ଅଂଶ	-9.25361
▁ଆସିବ	-9.25411
▁ଓକିଲ	-9.25433
▁ଆଶା	-9.25532
▁ଚାଲିଛି	-9.2558
ir	-9.25612
▁ପାପ	-9.25684
ର୍ଣ୍ଣ	-9.25752
ଷ୍	-9.25796
▁ଖୋଲନ୍ତୁ	-9.26041
▁ମାେତେ	-9.26062
▁ଟଙ୍କାର	-9.26083
▁ତଥା	-9.26189
୬	-9.26209
▁ସଦସ୍ୟଙ୍କୁ	-9.26248
ଟିଏ	-9.26307
ଧି	-9.26426
▁ଗୁ	-9.266
ାର୍	-9.26676
la	-9.267
▁ଅବସାନ	-9.26726
▁ବାଚସ୍ପତି	-9.26726
▁ପାଦଦେଲେ	-9.26731
▁ପାତ୍ର	-9.26815
ିନ	-9.26882
▁ନିର୍ଦ୍ଦେଶ	-9.26981
▁କବି	-9.27052
▁ଯିଏ	-9.27207
ଯାଇଛି	-9.27347
▁ବ୍ୟାୟାମ	-9.27418
▁ପ୍ରଦର୍ଶନ	-9.27425
▁ତୋତେ	-9.27456
ଠାକ୍	-9.27474
▁ଶାନ୍ତି	-9.27538
ଫ୍	-9.27543
▁ସିପି	-9.27631
ଗ୍	-9.27661
▁ସୂର୍ଯ୍ୟ	-9.27886
▁ତାହାଙ୍କ	-9.27982
▁Microsoft	-9.2811
▁କୁଆଡେ	-9.28116
▁ଭୁଲ	-9.28335
▁ଓଡିଶା	-9.28354
ଦ୍ର	-9.28399
ାନ୍ତ	-9.28459
ଲମ୍ବ	-9.28463
▁ତୋର	-9.28478
ଏସ	-9.28557
▁ଚାଷୀ	-9.28557
▁ମୁଣ୍ଡ	-9.28661
▁ତନ୍ତ୍ର	-9.2874
▁status	-9.28809
▁କରାଇଛନ୍ତି	-9.28809
▁ରଖନ୍ତୁ	-9.28816
ur	-9.28855
▁ଯାଇଛନ୍ତି	-9.28883
▁ସେଥିପାଇଁ	-9.2894
▁ଜଣଙ୍କ	-9.29039
▁ରାଜନୀତି	-9.29112
ter	-9.29121
▁ସିଏ	-9.29177
▁ସମ	-9.2922
ଆରେ	-9.29442
▁ଚେଷ୍ଟା	-9.29513
ଶିବସେନାର	-9.29513
▁ଚିନାବାଦାମ	-9.29513
▁ଡ୍ରାମାର	-9.29513
▁କାର୍ଡ	-9.29554
▁୭୫	-9.29836
▁ଉଚ୍ଚ	-9.30084
▁ସେଇ	-9.30094
▁ଧନ	-9.30168
▁କୋଲାମ୍ବକ	-9.30222
▁କାଳିଦାସ	-9.30222
▁ଅନୁମତି	-9.30223
▁ବେପାର	-9.3023
▁ବିବରଣୀ	-9.30255
▁13	-9.3026
▁ଲୋକଙ୍କୁ	-9.30333
ସୀ	-9.30461
▁ଅଘ	-9.30502
▁ଲେଖି	-9.30541
ଧା	-9.30652
▁ବୋ	-9.30776
▁କରୁଛ	-9.30799
▁ବ୍ୟ	-9.30849
▁ଉତ୍ସ	-9.30912
▁ବିଜ୍ଞପ୍ତି	-9.30937
▁ମୁତାବକ	-9.30937
▁ପ୍ରଭାବ	-9.31032
ତର	-9.31061
▁ମନ୍ତ୍ରୀ	-9.31165
▁ବ୍ୟାଙ୍କ୍	-9.31236
▁ଜିନିଷ	-9.31492
▁ପୁନଃ	-9.31656
▁ପରିଚୟ	-9.31656
▁ତଦନ୍ତ	-9.31656
▁ବ୍ୟକ୍ତିଗତ	-9.31679
▁ବିଚାର	-9.31844
ିଛି	-9.31944
▁Home	-9.32008
▁ବହି	-9.32027
▁ସାର	-9.32123
.18	-9.32138
▁କରାଯିବ	-9.32324
▁ଚାଲ	-9.32327
▁ଖାଦ୍ୟପେୟ	-9.32381
▁ପ୍ରତିଶତ	-9.32381
▁ଆଘାତ	-9.32413
ent	-9.32443
ସ୍ୟ	-9.32457
▁କଳା	-9.32546
▁ୱେବ	-9.32609
ଖା	-9.32626
▁୧୨	-9.32626
▁ବହୁତ୍	-9.32655
▁ନିକଟକୁ	-9.32657
▁ବିଶ୍ୱ	-9.32709
▁your	-9.32726
▁ଆସିବେ	-9.32821
▁ସାହାଯ୍ୟ	-9.32989
▁ଡାକି	-9.33023
ବୀ	-9.33038
▁ଭଉଣୀମାନେ	-9.33126
ଷ୍ଠ	-9.33157
▁ଜାତି	-9.33209
com	-9.33361
▁ଏକଥା	-9.33424
▁୩୪	-9.33588
ation	-9.33634
▁ସହର	-9.33734
▁ଲିଙ୍କ	-9.33741
▁ମ୍ୟାନେଜର	-9.33846
▁ଖର୍ଚ୍ଚ	-9.33854
▁ପଚାରିଲା	-9.33952
▁ବ୍ୟା	-9.33964
▁କିଭଳି	-9.33994
ଥାନ୍ତି	-9.34171
▁ମଧ୍ଯ	-9.3419
▁ଆଖି	-9.34261
▁କଙ୍କାଳ	-9.34587
▁ସମ୍ଭାବନା	-9.34587
▁ହାଇକୋର୍ଟ	-9.34587
▁ରିପୋର୍ଟ	-9.34588
▁ଭୁବନେଶ୍ୱର	-9.3459
▁ଜୀବନରେ	-9.34595
▁Re	-9.34711
▁ରକ୍ତ	-9.34759
age	-9.34779
▁ଆକାର	-9.34783
▁):	-9.34823
▁ଚୀନ୍	-9.34829
▁ଆଜ୍ଞା	-9.35214
▁ଫି	-9.35333
▁ଦ୍ୱିତୀୟ	-9.35333
▁ନିଷ୍କର୍ଷ	-9.35333
▁ସାମଗ୍ରୀ	-9.35333
▁ପ୍ରଧାନମନ୍ତ୍ରୀ	-9.35335
▁ସ୍ଥାନରେ	-9.35381
ନଈ	-9.35415
▁ପୋଷ୍ଟ	-9.35445
▁ସନ୍ଦେଶକୁ	-9.35522
▁ସାମିଲ	-9.35757
▁କଷ୍ଟ	-9.35786
ିବା	-9.35996
▁ସ୍ଵ	-9.36004
▁ଯାହାର	-9.3604
▁ଚାଲିବା	-9.36043
▁will	-9.36088
▁କରିପାରିବ	-9.36112
▁ମୃତକ	-9.36195
▁ପୁଅକୁ	-9.36285
▁ନିକଟରେ	-9.36425
▁କରିପାରେ	-9.36514
▁ପାରି	-9.36682
ଥି	-9.36755
▁option	-9.36843
▁ପ୍ରମାଣପତ୍ର	-9.36846
▁ଉଇଣ୍ଡୋ	-9.36884
▁di	-9.36906
▁ଯିବ	-9.36975
▁ଓଡିଆ	-9.36986
nd	-9.37035
▁ବୁଝି	-9.37065
▁ପ୍ରଶ୍ନର	-9.37227
▁ଟା	-9.37397
▁ଆଗରେ	-9.37459
ଚୀନ୍	-9.37473
୍ରା	-9.37486
୦୦୦	-9.37493
▁ୟୁ	-9.37547
ଞ୍ଜ	-9.37599
NamePossessive	-9.37606
▁ବେଜିଂ	-9.37606
▁ago	-9.37619
ଫି	-9.37713
▁ତୁମର	-9.37728
▁ମୃତ	-9.37733
▁ସୁନ୍ଦର	-9.37808
କ୍ତ	-9.37843
ଇଁ	-9.3785
ru	-9.38027
ଚ୍ଛ	-9.38139
▁ଫୋନ	-9.38227
▁ଯାଉଛି	-9.38245
▁ସଂସ୍କରଣ	-9.38375
▁ଡେ	-9.38456
▁ଆପଣା	-9.38466
▁ଏୟାର	-9.38495
▁ସନ୍ଦେଶଗୁଡ଼ିକୁ	-9.38508
୍ୱ	-9.38543
▁Article	-9.38591
▁ସିଂହ	-9.3861
▁ଚାଲିଲେ	-9.38822
▁ରଖିବା	-9.3883
▁ଛାଡ଼ି	-9.38872
▁ହାତରେ	-9.38891
dies	-9.3891
▁ବିଦ୍ୱାନ	-9.3915
▁ଅନ	-9.39193
▁ବୁଦ୍ଧଙ୍କ	-9.39211
▁ମିଳି	-9.39231
▁ନଜର	-9.39241
ପ୍ରତି	-9.39241
ର୍ଡ	-9.39323
▁ଜମା	-9.39495
id	-9.39517
ଆଉ	-9.39764
format	-9.39924
▁ନିମନ୍ତେ	-9.39931
▁କରାଯାଇଥିଲା	-9.39957
▁କରିପାରିଲା	-9.40053
▁ମାନସିକତା	-9.40053
▁ସାକ୍ଷାତକାର	-9.40085
▁ଆଗରୁ	-9.40154
▁ନହେଲେ	-9.40174
ମନା	-9.40204
▁ପାଇବ	-9.40303
ୱ	-9.40383
▁Go	-9.40495
▁ନଦୀ	-9.40561
୧୭୫	-9.40718
▁ଶର୍ମା	-9.40719
▁ଆଦିବାସୀମାନଙ୍କ	-9.40727
▁ଛୁଟି	-9.40729
▁ଡିସ୍କ	-9.40735
▁ସଚିବ	-9.40773
▁ସ୍ଥାନୀୟ	-9.40789
▁ଉଚିତ୍	-9.40856
ଥିବ	-9.40881
▁de	-9.40986
▁ତୁମ୍ଭର	-9.41025
ୟନ	-9.41035
ପର	-9.41183
▁ତାହାଙ୍କୁ	-9.4122
ଦେଶ	-9.41396
▁ଜିଲାରେ	-9.41403
▁ମାଆ	-9.41411
▁ନୃତ୍ୟ	-9.41512
▁ପରମେଶ୍ବର	-9.41595
▁Mart	-9.41604
▁ଦଲିଲ	-9.41801
▁ପଡିବ	-9.41818
ପ୍ତ	-9.41845
ct	-9.42008
▁ଶରୀରରେ	-9.42051
▁Georg	-9.42313
▁thousand	-9.42313
▁ରବିବାର	-9.42313
▁ମହାପ୍ରଭୁଙ୍କ	-9.42313
▁ଟିପ୍ସ	-9.42316
ha	-9.42406
ତଃ	-9.42445
ଚୁ	-9.42495
ହ୍	-9.42627
ାନ୍ତୁ	-9.42672
▁ବିକଳ୍ପ	-9.42717
▁search	-9.42796
▁ସୋ	-9.4288
▁ପାଇବା	-9.42941
▁ଖାଇ	-9.42955
▁ଅପ	-9.42956
ate	-9.43034
▁ଇଂ	-9.43047
▁ଯିବେ	-9.43083
▁ମୋବାଇଲ	-9.43099
▁ବାଇକ୍	-9.4312
▁ସମାଜ	-9.43122
▁ରଞ୍ଜନ	-9.43478
ବନ	-9.43481
▁ସାରା	-9.43549
▁ଆଇନ	-9.43611
▁ମୋଦିଙ୍କୁ	-9.43637
▁If	-9.43658
ାଲ	-9.43716
▁ବଳ	-9.43762
ଟୁ	-9.43848
ବାଦ	-9.43886
▁ମଙ୍ଗଳ	-9.43917
▁ନେଟୱର୍କ	-9.43932
▁ବଦମାସ୍	-9.43932
▁ଚାକିରୀ	-9.43932
▁ହସ୍ତାକ୍ଷର	-9.43933
▁ଘରୁ	-9.43955
ନୀୟ	-9.4405
▁ଜାଗା	-9.44076
▁ମାନଙ୍କ	-9.44176
▁ମାଲିକ	-9.44358
ମୀ	-9.44424
pa	-9.44466
+	-9.4472
▁ଔଷଧ	-9.44752
ଲୋକ	-9.44761
▁ଇଚ୍ଛା	-9.44762
▁ବିଜେପିର	-9.44799
un	-9.44799
▁ପରଦା	-9.44811
କ୍ରମ	-9.44814
dbu	-9.44929
▁ମତ	-9.45074
▁ଦଣ୍ଡ	-9.45213
▁Use	-9.45266
▁ସହଜ	-9.454
▁ଲାଗୁ	-9.45445
ରାମ	-9.45522
▁ମାରି	-9.45533
▁ଅକ୍ଟୋବର	-9.45578
▁ତୃତୀୟ	-9.45578
▁ପସନ୍ଦ	-9.45578
▁ଅଜଣା	-9.45579
▁ପ୍ଲଗଇନ	-9.45579
▁ହସିଦେଲା	-9.45585
▁ସାଙ୍ଗେ	-9.45702
ଭାଇ	-9.45718
୧୦	-9.45863
▁ସର୍ବାଧିକ	-9.45872
▁ଉତ୍ତମ	-9.45987
▁ଲଢୁଥି	-9.45991
sh	-9.46004
▁ଏମ	-9.46042
ାଙ୍କ	-9.46102
▁ବ୍ୟବସାୟ	-9.46273
▁22	-9.46335
▁ଗ୍ୟାଙ୍ଗ	-9.46411
▁ସ୍ପଷ୍ଟ	-9.46425
▁କୁହନ୍ତି	-9.46478
▁ଇଂରାଜୀ	-9.46654
ଜିତ	-9.4673
▁ଦେଖିଲି	-9.46759
▁ବାହା	-9.4716
▁this	-9.47253
▁ବନ୍ଧୁ	-9.47298
▁ତୁମ୍ଭମାନଙ୍କୁ	-9.47322
ଷ୍ଟା	-9.47331
ଲିଖିତ	-9.47428
–	-9.47479
▁ଲୋକଟିକୁ	-9.47506
▁ଲଗାଇ	-9.47548
▁କୃଷ୍ଣ	-9.47581
▁ସମସ୍ତଙ୍କୁ	-9.47603
▁second	-9.47664
▁ପାଞ୍ଚ	-9.47773
▁୮୦	-9.47872
di	-9.48054
▁ପରାମର୍ଶ	-9.48099
▁ଚାହେଁ	-9.48102
▁କିଣନ୍ତୁ	-9.48103
▁ସରଳ	-9.4817
il	-9.4818
ଙ୍ଗା	-9.48203
▁ସ୍ମାରକପତ୍ର	-9.48226
ଆପଣ	-9.48323
▁ଯୁକ୍ତ	-9.48529
▁ହଠାତ	-9.48717
▁ଗା	-9.48859
ଦ୍ୱାରା	-9.48913
ସ୍କ	-9.4893
▁ତ୍ୱଂ	-9.48956
▁ଅକ୍ଷରରୂପ	-9.4896
▁National	-9.48964
▁ଏକାଠି	-9.48997
▁ଗଣ	-9.49002
▁କରାଯାଇ	-9.49005
▁ସଂସ୍ଥା	-9.49027
▁28	-9.49064
▁ଚେ	-9.491
▁ଲୋକମାନଙ୍କୁ	-9.49125
ମାନଙ୍କର	-9.49207
▁ପିତା	-9.49267
ଜନ	-9.49364
ାମୃତ	-9.49396
ଶୀ	-9.4944
ଜୁ	-9.49657
ବ୍ୟ	-9.49668
▁ପର୍ବ	-9.49794
▁ସତ୍ଯ	-9.49863
000	-9.50015
▁ଖୋ	-9.50017
ରିଆ	-9.50044
#	-9.50045
CGN	-9.50084
▁ଫା	-9.50098
▁ଯାହାକୁ	-9.50198
▁ସରକାରୀ	-9.50575
▁ସୌମ୍ୟ	-9.50588
ଣ୍ଡା	-9.5064
▁ନିଯୁକ୍ତି	-9.50707
▁ବଢିଆ	-9.50721
▁ପୂରା	-9.50764
▁ଏସିଆ	-9.50813
▁ସମସ୍ତଙ୍କ	-9.50826
ିବ	-9.50887
ଗି	-9.50895
▁25	-9.50895
▁ତୁମ୍ଭକୁ	-9.50972
▁ଉପରକୁ	-9.51002
▁ପ୍ରାପ୍ତ	-9.51078
ଥର	-9.51157
ଦୀ	-9.51432
▁ଥାନା	-9.515
▁ସେଟ	-9.51546
▁ପ୍ରକୃତ	-9.51559
symbols	-9.51563
▁ପଟ୍ଟନାୟକ	-9.51563
▁ମଝି	-9.51566
▁ବାତିଲ	-9.51569
▁ସୋନା	-9.51684
▁ସତ୍ୟ	-9.51712
▁ଦେଖିବାକୁ	-9.51785
ଜୀ	-9.5182
ର୍ତ୍ତ	-9.51832
▁ଯାହାକି	-9.51933
ନାହାନ୍ତି	-9.51974
▁ତାହାର	-9.52155
▁୨୧	-9.52223
▁ଶାରୀରିକ	-9.52448
▁ଶ୍ରେଷ୍ଠ	-9.52448
▁ଆହତ	-9.52448
▁ପରିଚାଳକ	-9.52456
ଗୁ	-9.52464
▁ଟିଭି	-9.5254
▁ନାମରେ	-9.52595
▁ପଥର	-9.52638
oo	-9.52775
‍	-9.52808
▁ଅକ୍ଷର	-9.5284
▁ଏମାନଙ୍କ	-9.52863
ସ୍ଥ	-9.52999
ପଟ	-9.53024
▁୫୦୦	-9.53043
▁ଲେଖିବା	-9.5306
▁ପଦ	-9.53155
▁ମଞ୍ଚ	-9.53284
▁ଏତିକି	-9.53336
▁ଅନୁରୋଧ	-9.53341
▁ସୁସମାଚାର	-9.53341
▁ଅଭିଯୋଗ	-9.53343
▁ପତ୍ନୀ	-9.53347
▁ହେଇଚି	-9.53385
▁ଈ	-9.53463
▁ଚିହ୍ନଟ	-9.53468
▁।’’	-9.53603
▁କର୍ମ	-9.53618
ଓଃ	-9.53704
ତୀ	-9.53705
▁ପୁରା	-9.53896
▁ୟା	-9.53971
ର୍ଥ	-9.53988
▁ତେଲ	-9.54036
▁24	-9.54065
▁ମନରେ	-9.54115
▁ଗଣମାଧ୍ୟମ	-9.54241
▁ଆଦୌ	-9.54242
▁ପଠାନ୍ତୁ	-9.54257
ex	-9.54261
▁ପଞ୍ଚମ	-9.54268
▁ଦ୍ଵାରା	-9.54526
ol	-9.54609
▁କହିବାକୁ	-9.5461
▁ମୁଖ୍ୟମନ୍ତ୍ରୀ	-9.54699
ହର	-9.54987
▁୧୭	-9.55013
▁ଈଶ୍ବର	-9.55025
▁*	-9.55027
▁ଅବସ୍ଥିତ	-9.55031
ମିଟର	-9.55083
▁ରଖିବାକୁ	-9.55111
▁ଯୋଗୁଁ	-9.55151
▁ବାଛନ୍ତୁ	-9.55159
▁ପ୍ରମୁଖ	-9.55162
ସାରି	-9.55182
▁ପୃଥିବୀ	-9.55205
▁ଯେମିତି	-9.55213
ଆର୍	-9.55226
▁TV	-9.55307
▁ହୋଇଗଲା	-9.55314
▁ଯେପରି	-9.55401
z	-9.55515
▁ଅବ	-9.55604
କଲେ	-9.55655
▁୧୩	-9.55662
ଲିଙ୍ଗ	-9.55665
୍ଯା	-9.55683
ch	-9.55732
▁ଆଗକୁ	-9.55776
▁ଶୁଣ	-9.55905
ଦେଇ	-9.55924
co	-9.55943
ଏଲ	-9.56029
ଯାଇ	-9.56056
▁ଇତ୍ୟାଦି	-9.56068
▁କାର୍ଯ୍ୟାନୁଷ୍ଠାନ	-9.56068
▁ଅନୁଭବ	-9.56068
▁ରଥଯାତ୍ରା	-9.5607
▁Have	-9.56072
▁ପୂଜା	-9.56119
▁ଅପେକ୍ଷା	-9.56134
▁ପରିମାଣ	-9.56146
to	-9.56298
▁ରୋ	-9.56643
ତୁମେ	-9.56699
▁ଟିକେଟ	-9.56705
▁ତାରିଖରେ	-9.56708
▁କହୁଛ	-9.56791
op	-9.56837
▁କଃ	-9.56934
ନାଥ	-9.56987
▁ଅବୈଧ	-9.56994
▁ନିଷ୍କ୍ରିୟ	-9.56994
▁ମାଂସ	-9.56997
▁MZH	-9.57002
▁ଛାଡିଦେଲେ	-9.57032
▁ବଟନ	-9.5705
ହିତ	-9.57123
▁ଠିକ	-9.57178
▁ଜଗା	-9.57242
▁ରାସ୍ତାରେ	-9.57311
▁ଭାରତର	-9.57347
▁ପ୍ରତ୍ୟେକ	-9.57348
,“	-9.57443
up	-9.57457
▁ପରମେଶ୍ୱର	-9.57495
▁ନିୟନ୍ତ୍ରଣ	-9.57655
\	-9.57796
▁ଅଦା	-9.57799
▁ସମାପ୍ତ	-9.57804
▁ଚିହ୍ନ	-9.57891
▁କ୍ଷେତ୍ର	-9.57915
▁କାର୍ଯ୍ଯ	-9.57925
▁ସୁବିଧା	-9.57929
▁ସ୍ଥାପନ	-9.57929
▁ପୃଷ୍ଠଭୂମି	-9.57931
▁ଆସୁଥିଲେ	-9.57947
▁ପଚାରି	-9.57981
▁ଏଥିରୁ	-9.58022
▁ବିରୁଦ୍ଧରେ	-9.58094
▁ବୋଧ	-9.58161
ଣୁ	-9.58313
▁ସବୁଠାରୁ	-9.58319
ପାରିବ	-9.58359
▁ଅନୁବାଦ	-9.58405
▁ଅଫ୍	-9.58484
▁ପୃଷ୍ଠ	-9.58581
▁it	-9.5861
▁ଗ୍ରାହକ	-9.58662
ଯିବା	-9.58695
▁ଏଠି	-9.58794
▁ଡିସେମ୍ବର	-9.58872
▁ଯାଆନ୍ତୁ	-9.58872
▁ସପ୍ତାହ	-9.58872
▁ଢିଲା	-9.58876
▁କାଗଜ	-9.58877
▁was	-9.58881
▁ଉପଚାର	-9.58888
ଗତି	-9.58891
▁ନୂଆବର୍ଷ	-9.58943
▁ହେଉଛନ୍ତି	-9.58958
▁ମହାନ୍ତି	-9.59023
▁କାର୍	-9.59396
▁ରୂପ	-9.59653
▁ମାନସିକ	-9.59685
ଯଦି	-9.59701
୧୫	-9.59756
▁ହେବାର	-9.59794
ta	-9.59795
▁ଭିଡ଼ିଓ	-9.59824
▁ପଖାଳ	-9.59824
▁ଆକ୍ରମଣ	-9.59825
▁ତେ	-9.59871
▁ଭରଣ	-9.5989
▁କହିବ	-9.59906
▁ଗାଇବା	-9.59907
▁Windows	-9.5999
▁ଯେତେ	-9.60054
ସନ୍	-9.60094
▁ଫୋନ୍	-9.60155
▁ଓଜନ	-9.60209
ment	-9.60509
and	-9.6061
ଛା	-9.60672
▁ଭିତରୁ	-9.60787
▁ସିବିଆଇ	-9.60805
▁ହୃଦୟ	-9.60841
▁ହେଉଥିବା	-9.60865
▁ପ୍ରସାଦ	-9.60922
ାୟା	-9.61031
▁ସାଙ୍ଗ	-9.61038
ପାରନ୍ତି	-9.61091
▁ବେଳ	-9.61143
▁ଦକ୍ଷିଣ	-9.61339
ନ୍ସ	-9.61562
▁ଧର୍ମ	-9.6164
▁ଯୁବ	-9.61641
▁ପ୍ରା	-9.61656
▁ଭାରତରେ	-9.61669
▁Mo	-9.61718
ver	-9.61752
▁article	-9.61757
▁ଆତ୍ମହତ୍ୟା	-9.61757
▁ଉଦ୍ଭିଦ	-9.61757
▁about	-9.61757
▁ଯମ	-9.61804
▁କଭର	-9.61849
▁ଖାଇଲେ	-9.61867
▁ଜଣାଇ	-9.61904
▁27	-9.61939
େଟ	-9.61953
ତୃ	-9.62252
▁ଏହିପରି	-9.62592
▁ନିର୍	-9.6266
▁ଖୋଜନ୍ତୁ	-9.62737
▁ଗର୍ଲଫ୍ରେଣ୍ଡ	-9.62737
▁ନିଷ୍ପତ୍ତି	-9.62737
▁ପୁଲିସ	-9.62749
କାଳ	-9.62782
▁ଆସୁଛି	-9.62796
▁ପକ୍ଷ	-9.62803
▁ପକାଇ	-9.6282
▁ଜାରି	-9.62869
▁ବିପଦ	-9.62917
▁ଯିବି	-9.62934
୫୦	-9.63118
▁ଚାପି	-9.63155
▁ଜିଲା	-9.63247
ଥିବେ	-9.6332
ିସ୍	-9.63439
ୟର	-9.6347
▁ରାଜ୍ୟରେ	-9.63548
ay	-9.63717
▁ଅଧ୍ୟାୟ	-9.63727
▁କ୍ୟାଲେଣ୍ଡର	-9.63727
▁ଧନ୍ୟବାଦ	-9.63729
▁ହୁଅନ୍ତୁ	-9.63786
ତିଜନକ	-9.638
ଗୁଡ଼ିକର	-9.64017
▁ରହିଲେ	-9.64027
ମାସ	-9.6411
75	-9.64134
▁ଗତ	-9.64245
୦୦	-9.64296
ଗେ	-9.64593
ଭାଗ	-9.64705
▁କ୍ଯାଲେଣ୍ଡର	-9.64727
▁ସିନେମା	-9.64727
▁ସୁଦ୍ଧା	-9.64727
▁ବରଫ	-9.64732
▁One	-9.64774
▁ଦୁଇଟି	-9.64778
▁ଦିଲ୍ଲୀ	-9.64803
▁କଟକ	-9.64804
▁ବନାମ	-9.64811
▁Don	-9.64813
▁ହାଃ	-9.64832
ିତି	-9.64838
TR	-9.64881
▁res	-9.64936
▁ବଞ୍ଚିତ	-9.64949
▁at	-9.64965
▁ସାଥିରେ	-9.65017
▁!!!	-9.65072
▁ନଥାଏ	-9.65242
▁୨୬	-9.65322
▁ନଥିଲା	-9.65353
ଜାଜ	-9.65364
▁ପ୍ଲ	-9.65371
▁V	-9.6559
—	-9.65613
କରନ୍ତୁ	-9.65632
▁that	-9.65739
▁ଚକିତ	-9.6574
▁ଦାଶ	-9.65744
▁ଦେଖିଲେ	-9.65781
▁ଚାଲିଗଲା	-9.65825
▁ସଫା	-9.66024
▁କାର	-9.66066
ନ୍ତା	-9.66078
କାରୀଙ୍କ	-9.66173
▁ଗାଁରୁ	-9.66204
na	-9.66255
ନିଆ	-9.6626
ut	-9.6645
▁To	-9.66637
▁ଭର୍ତ୍ତି	-9.66751
ୟୋ	-9.66755
ପୂର୍ବନିର୍ଦ୍ଧାରିତ	-9.66758
▁World	-9.66758
▁ଅସମର୍ଥ	-9.66758
▁ଶଙ୍ଖ	-9.66758
▁ଅତ୍ୟନ୍ତ	-9.66758
▁୭୦ବର୍ଷ	-9.66767
▁www	-9.6678
▁ଜନ	-9.66824
▁ରହିଥିଲେ	-9.66826
▁ସ୍ୱାଧୀନତାର	-9.66932
▁ମୋଟ	-9.66933
▁ଲୋଭ	-9.66975
▁ବିଶ୍ବାସ	-9.66993
ଇଲେ	-9.67067
▁ହୋଇଛନ୍ତି	-9.67146
ୁଛନ୍ତି	-9.672
▁କେଇ	-9.67233
▁ଫୋଲଡରକୁ	-9.67314
▁କ୍ଷମତାକୁ	-9.67335
ance	-9.67372
▁ଆବଶ୍ୟକତା	-9.67591
▁ଶାସନରେ	-9.67601
▁ପଡିଲା	-9.67611
ବ୍ୟବହାରକାରୀ	-9.67679
▁ଦାଦାଗିରି	-9.6779
▁ପୂରଣ	-9.67791
▁ଶଗଡ଼	-9.67809
▁Any	-9.67815
▁କରାଯାଇଥିବା	-9.67859
▁ସଭା	-9.67875
▁କାରଣରୁ	-9.67921
ରାଜନ	-9.67983
▁ଶାସନ	-9.68011
▁କୋଉଠିକୁ	-9.68213
▁How	-9.68293
ହୀନ	-9.68324
▁ଫୁଲ	-9.6833
ହେଲା	-9.68353
▁ନଷ୍ଟ	-9.68378
▁ସମ୍ପାଦନା	-9.68388
▁r	-9.68412
▁ଆସିବାକୁ	-9.68416
▁ଘଟି	-9.68445
▁ଆଗ	-9.68454
At	-9.68484
▁ଗ୍ରାମରେ	-9.68569
େନ	-9.68657
▁Conditions	-9.6883
▁Ginger	-9.6883
▁ବାନ୍ଧି	-9.68855
ଦିଅ	-9.68862
▁ସେତେବେଳେ	-9.68868
▁କହୁ	-9.689
▁ବିଜ୍ଞାନ	-9.68909
▁କେଶ	-9.6901
ୋଲ	-9.6904
▁ଘଟିଲା	-9.6906
ପାଳ	-9.69075
▁ଇତିହାସ	-9.69091
▁ସ୍ବ	-9.69164
email	-9.69165
▁ଆୟ	-9.69237
▁ବିଧାନସଭା	-9.69304
ଭାବ	-9.69328
ଂଗ	-9.69372
ତ୍ୟ	-9.69692
ୱେ	-9.69724
▁ସ୍ମୃତି	-9.69877
▁ପୃଥିବୀରେ	-9.69878
▁ସୁରକ୍ଷିତ	-9.69883
▁ଗୌରବ	-9.69883
▁ଋତୁ	-9.69883
▁ରହୁଛନ୍ତି	-9.69897
▁ଆଣ୍ଡ	-9.70064
▁କୁହେ	-9.70381
ଚାର	-9.70468
୍ୟାରା	-9.70501
ନ୍ନ	-9.70694
▁ହୋଇଯିବ	-9.70696
୍ଵ	-9.70716
▁ସମ୍ପାଦନ	-9.70755
▁ଉତ୍ପାଦ	-9.70761
ାହ	-9.7083
େଶ	-9.70885
▁33	-9.70922
▁କୃଷି	-9.70947
▁ରଖାଯାଇଥାଏ	-9.7095
ହୁ	-9.7104
ବଂଶ	-9.71041
,”	-9.71074
▁ରାଣୀ	-9.71081
ho	-9.71126
▁ଭୋଟ	-9.71312
▁କରିଛ	-9.71457
▁ପଛକୁ	-9.71521
▁ଯାଉ	-9.71553
▁ଦେହ	-9.71558
ହେବ	-9.71705
@@@@@@@@@@@	-9.71942
କର୍ତ୍ତା	-9.71968
ଯୁକ୍ତ	-9.71975
-----?	-9.72022
▁check	-9.72022
▁group	-9.72022
▁ଗୋଟାଏ	-9.72022
▁କହ	-9.72075
#3	-9.72085
ya	-9.72181
▁ପାଉ	-9.72232
ିୟ	-9.72241
um	-9.72249
▁ହୋଇଥିଲେ	-9.72356
▁ଟ୍ର	-9.72443
▁ମନ୍ତ୍ର	-9.72518
de	-9.72521
▁ରାଜ୍ୟର	-9.72585
▁ଦାୟିତ୍ୱ	-9.72606
▁ଘଣ୍ଟାରୁ	-9.72627
ବେଳେ	-9.72677
୍ଠ	-9.72734
ର୍ଟ	-9.72777
▁ନିରାଶ	-9.72989
▁ତବେେ	-9.73111
▁ବିରୋଧୀ	-9.73203
ରୂପ	-9.73252
ସଂ	-9.73267
▁ଅବସ୍ଥା	-9.73267
ଠି	-9.733
କ୍ସ୍ଟ	-9.7332
▁are	-9.73327
୧୧	-9.73329
ଧର୍ମ	-9.73384
▁ଅଲଗା	-9.73473
।’’	-9.73479
▁ବାମ	-9.73635
େଡ	-9.73721
ଗର	-9.7374
▁ଲିଖିତ	-9.73972
ାଚି	-9.73976
▁ପଠାଇ	-9.74054
▁why	-9.74208
quot	-9.74208
▁କୁହାଯାଏ	-9.74208
▁ସମର୍ଥନ	-9.74266
▁ଆନନ୍ଦ	-9.74277
▁ସର୍ଭିସ	-9.74277
▁Y	-9.74288
ଭାରତ	-9.74324
▁ଥାଉ	-9.74338
▁ଅଫିସ	-9.7442
ଳୀ	-9.74564
▁34	-9.74568
▁ସନ୍ତାନ	-9.74596
▁ଉଠି	-9.74622
▁ପଠା	-9.7467
▁ଚାରି	-9.74815
▁ଉତ୍	-9.74855
▁(%	-9.74882
▁ଯାଇପାରେ	-9.74888
▁ପ୍ରଚଳିତ	-9.75034
ure	-9.7508
unday	-9.75319
▁ଯେହେତୁ	-9.75319
▁ସଙ୍ଗେ	-9.7532
▁ପଣ୍ଡିତ	-9.75321
ଂଚ	-9.75363
▁ଛାଡ	-9.75417
New	-9.7545
▁ଦେଇପାରେ	-9.75457
▁ଇମେଲ	-9.75478
▁ଚିକିତ୍ସା	-9.7559
ମୟ	-9.75593
▁ଦେଶର	-9.75637
▁Time	-9.75746
▁ବିଦ୍ୟା	-9.7581
୧୯	-9.75815
▁ଗୁଡିକ	-9.75867
ସମା	-9.75965
ବାନ	-9.76014
ଲାଇ	-9.76167
▁an	-9.76265
ମନ	-9.76279
ନ୍ଦା	-9.7638
ିତା	-9.76389
▁ଥିବ	-9.76399
▁ଖାଆନ୍ତୁ	-9.76443
▁ଉଭୟ	-9.76443
▁ଇଣ୍ଡିଆ	-9.76444
▁ପଢ଼ନ୍ତୁ	-9.76457
▁ଟିକିଏ	-9.76463
▁ବାଜିଲା	-9.76518
▁ପରମେଶ୍ବରଙ୍କ	-9.76631
▁ସାର୍	-9.76639
ଏମ	-9.76737
▁ପ୍ରସ୍ତୁତି	-9.76764
ia	-9.76767
▁ବଜାରକୁ	-9.76769
▁ଚାଲିଲା	-9.76863
▁ନେବା	-9.76868
ty	-9.76901
▁CD	-9.76947
▁ଅସ	-9.77073
▁ସେଠାରେ	-9.77082
ିବାକୁ	-9.77104
99	-9.77129
େଟ୍	-9.77158
▁ସୁନା	-9.77302
ଆଲୋ	-9.77345
▁ରଖେ	-9.77393
▁ହୋଇପାରିବ	-9.77552
Coptic	-9.77579
▁General	-9.77579
▁ଆବେଦନ	-9.77579
▁ବାସ୍ତବତା	-9.77638
▁ମିଳିଛି	-9.77645
▁ଖୁବ୍	-9.77654
▁ପଶୁ	-9.77661
ର୍ଯ୍ୟ	-9.77669
▁ଗାଡି	-9.77763
ପୋ	-9.77817
▁ନିଶ୍ଚୟ	-9.77855
25	-9.78142
em	-9.78187
▁ମାପ	-9.78373
▁ମନ୍ଦିର	-9.78418
▁ଗ୍ରାମ	-9.78666
▁ଦିଗ	-9.78698
ସିଂହ	-9.78716
▁ମୂଲ୍ଯ	-9.78728
▁ଅଧୀନରେ	-9.78729
▁ମୁଦ୍ରଣ	-9.78729
▁ବେରଙ୍ଗ	-9.78732
▁ପ୍ରସ୍ତାବ	-9.78735
▁ସମାନଙ୍କେୁ	-9.78769
▁32	-9.7879
▁ପ୍ରିୟ	-9.788
▁ତଥାପି	-9.78819
▁ଯାଏଁ	-9.78821
େଶ୍ୱର	-9.78839
▁ଆସିଛି	-9.78952
▁ମସିହା	-9.78997
ପତ୍ର	-9.79007
▁ଆକାଶ	-9.7903
ଯାଉଛି	-9.79114
ଜଣ	-9.79171
ଶୁ	-9.79252
▁as	-9.79338
“	-9.79427
ଧାନ	-9.7943
▁ବିମାନ	-9.79554
୪୬	-9.7959
▁ସୁଖ	-9.79789
▁ଶରୀରର	-9.79855
▁ଉଲ୍ଲେଖ	-9.79891
oliday	-9.79891
▁Oriya	-9.79891
▁ଦମ୍ପତ୍ତି	-9.79891
▁କସରତ୍	-9.79891
▁ସ୍ଥିର	-9.79892
▁ଭଗବାନ	-9.79896
▁list	-9.79927
▁ମାର୍ଚ୍ଚ	-9.79955
][	-9.80072
▁ଅବସ୍ଥାନ	-9.80082
▁ଫାଇଲଗୁଡ଼ିକୁ	-9.80117
▁ଚର୍ଚ୍ଚା	-9.80177
▁ନାଇଁ	-9.80189
▁40	-9.80241
▁ପଦରୁ	-9.80284
ity	-9.80332
▁ନଂ	-9.80355
▁41	-9.80381
▁ଘା	-9.80415
▁111	-9.80433
▁ଯାଇଥିଲା	-9.80451
▁ପରିବା	-9.80455
ଶେ	-9.8054
ତେବେ	-9.80561
ଳନ	-9.80573
▁ଚଳ	-9.80595
▁କ୍ଲିକ	-9.80891
ବାସ	-9.80953
▁ଶିବ	-9.80967
▁ରାଶି	-9.81015
▁ପ୍ରତିନିଧି	-9.81068
▁ଫେବୃୟାରୀ	-9.81068
▁ବ୍ୟବହୃତ	-9.81068
▁ସଂରଚନା	-9.81068
▁ଧ୍ୱନି	-9.81068
▁ସହାୟକ	-9.81068
▁ମଡେଲ	-9.81069
▁ସେଥିରେ	-9.81078
▁ଅବଧି	-9.8108
▁ଅଭିଲେଖ	-9.81085
▁ଲେଖକ	-9.81086
▁ସୁସ୍ଥ	-9.81112
ନ୍ଧ	-9.81147
ଦେଲେ	-9.81167
▁can	-9.81209
▁ରଖିବ	-9.81273
▁ଗୋପନୀୟତା	-9.81311
▁IFFCO	-9.81323
ଦେଲା	-9.81336
▁ଡର	-9.8136
ଫୋ	-9.81366
ୋର	-9.81491
▁ଆଲ	-9.8168
ତୋ	-9.81755
▁ଶୁଭ	-9.81789
▁do	-9.81893
▁ବଢ଼ି	-9.81899
▁ମହତ୍	-9.82006
▁ଫେର	-9.82024
▁୨୫	-9.82051
ବଲ	-9.82175
▁Edge	-9.82258
▁think	-9.82258
▁ଅଧିବେଶନ	-9.82258
▁ପ୍ରଦର୍ଶିତ	-9.82258
▁ସମତଳ	-9.82258
▁ଗୀତସଂହିତା	-9.82262
ିନୀ	-9.82289
▁କୋଉ	-9.82364
▁ଖୋଲା	-9.82436
▁ଲକ୍ଷରୁ	-9.82507
▁ଦେଇଛି	-9.82538
▁ବନ୍ଧ	-9.82554
▁ଫେ	-9.82569
▁ପୋ	-9.82589
▁ନୁଆ	-9.82696
▁ଧାରା	-9.82744
!"	-9.82783
▁ଅଭି	-9.82829
ାସ	-9.82963
ଡୁ	-9.8307
▁ପାଟି	-9.8328
ଥିଲୁ	-9.83327
ଭେ	-9.83361
▁ଆମେରିକାର	-9.83388
Ethiopian	-9.83463
ୋଷ୍ଟେସଙ୍କ	-9.83463
▁ବରଂ	-9.83478
▁ଲଢିବା	-9.83605
▁ଇନ୍	-9.83684
ଏଚ୍	-9.83744
ଜ୍ଞ	-9.83794
06	-9.83833
▁ପାଇବାରୁ	-9.83915
ପ୍ରାପ୍ତ	-9.83966
▁me	-9.84023
ାୟିକ	-9.84263
ାର୍ଥ	-9.84293
ହୋ	-9.84373
ଦୁ	-9.84448
ଡାକ	-9.84482
▁ରୂପରେ	-9.84611
▁ପ୍ରମାଣ	-9.84614
▁2014.	-9.84678
▁Apache	-9.84682
▁ବହିଷ୍କୃତ	-9.84682
▁ସମ୍ପାଦକ	-9.84682
▁ଧ୍ୟାନ	-9.84684
▁ଚିନ୍ତିତ	-9.84684
▁ସଂଗ୍ରହ	-9.84713
ସମ	-9.84735
୍ସ	-9.8478
▁ଜୁନ	-9.84787
▁ପଚାରିଲି	-9.84799
▁କେତେବେଳେ	-9.84823
ପେ	-9.84831
▁ଜନତା	-9.84884
▁IN	-9.84969
▁ODIA	-9.85029
▁ପେଟ	-9.85048
▁୨୦୧୨	-9.85075
▁ଯାଇଥିଲେ	-9.85102
▁ବିବାଦ	-9.85116
ଷ୍ଟ୍ର	-9.85167
▁ମାଧ୍ୟମରେ	-9.85249
ାଗ	-9.85317
▁ସାଂସଦ	-9.85396
▁ସବୁଠୁ	-9.85536
ୋନ	-9.85564
ନ୍ୟ	-9.85649
▁ସୁଯୋଗ	-9.85669
▁29	-9.85677
▁ଚନ୍ଦ୍ର	-9.85775
▁ଉଇଣ୍ଡୋକୁ	-9.85849
▁ରକ୍ତଚାପ	-9.85917
▁ଟଙ୍କିଆ	-9.85919
▁ଲେଖନ୍ତୁ	-9.85919
▁ଯୋଗାଣ	-9.8592
କାତ୍ମକ	-9.8605
▁ମାତୃ	-9.86057
▁ବେଡି	-9.86089
▁କାର୍ଯ୍ୟକାରୀ	-9.86096
▁ନିୟମିତ	-9.86198
▁ବ୍ର	-9.86289
CGH	-9.86297
ମୂ	-9.86387
▁26	-9.86388
ବୋ	-9.86401
▁ଖୋଲିଦେ	-9.86425
▁200	-9.86491
▁ଗ୍ରହରେ	-9.86526
▁ଵି	-9.86587
▁ପାଖ	-9.86873
କରଣ	-9.86894
▁ଭାଇରାଲ	-9.86953
▁ଜାଣ	-9.86964
▁ଛାତ୍ର	-9.87076
ଝ	-9.87087
ଚିକ	-9.87144
ପନ	-9.87162
▁ଗୁପ୍ତାଙ୍ଗ	-9.87167
▁ଫୋଲଡ଼ର	-9.87167
▁କଅଣ	-9.87178
ପାରି	-9.87198
▁ପ୍ରଚାର	-9.8722
▁କାଳିଆ	-9.87235
ni	-9.87248
ଞ୍ଚି	-9.87259
@@@@@@@@@@@@	-9.8726
▁180	-9.87308
▁ମଧ୍ଯରେ	-9.87353
ve	-9.87353
▁ତୁମ୍ଭମାନେେ	-9.87522
ନୋ	-9.8782
▁Co	-9.87829
ମାଲ	-9.879
▁ମ୍ୟା	-9.8794
ଧର	-9.87958
ଏନ	-9.88147
09	-9.88213
▁ସଫଳ	-9.88367
ine	-9.88379
OdiaPost	-9.88433
▁ଆଶଙ୍କା	-9.88433
▁ବାଇଗଣ	-9.88433
▁ଥଣ୍ଡା	-9.88449
▁have	-9.88464
▁ଲାଗୁନାହିଁ	-9.88483
ଖି	-9.88557
▁କରୁଛୁ	-9.88661
ଲ୍ଲ	-9.88671
ର୍ସ	-9.8876
▁ନେଲେ	-9.88778
▁୨୦୧୪	-9.88863
con	-9.88886
୍ବ	-9.88915
▁ମେଳ	-9.88923
କଥା	-9.88952
▁ନିର୍ବାଚନରେ	-9.8897
▁କ୍ଷମତା	-9.88996
▁ଡ଼	-9.89056
▁ଘରର	-9.89106
▁ଜଗତ	-9.89134
▁ଘୁ	-9.89271
ଚେ	-9.89324
▁ବଦଳ	-9.89375
ction	-9.89436
▁ଘଟଣାକୁ	-9.89563
▁ଯୋହନ	-9.89717
▁କନ୍ୟା	-9.89719
▁ହାଇେ	-9.89726
▁ଦଶ	-9.89734
▁2018	-9.89741
୬୫	-9.89753
ଢ଼	-9.89811
▁ଝ	-9.89827
@1	-9.89844
▁ଦୁ	-9.90063
ର୍ଜ	-9.90094
▁cur	-9.90157
▁ସବ	-9.90244
୧୨	-9.90339
man	-9.9039
←	-9.90405
▁ଖଣ୍ଡ	-9.90741
▁ନିୟ	-9.9081
~	-9.90864
ଞାନ	-9.91001
▁ଶୀଘ୍ର	-9.91014
▁how	-9.91014
▁କର୍ମଚାରୀ	-9.91014
କଂ	-9.91017
▁(1),	-9.91033
▁ଚୋରି	-9.91113
ୟୋଗ	-9.91135
▁ହୁଅନ୍ତି	-9.91141
▁ମାଛ	-9.91142
ଲ୍ୟ	-9.91171
▁କନକ	-9.91178
▁ଉଦ୍ଦେଶ୍ୟ	-9.9119
▁ଭାବିଲି	-9.91218
ଵେ	-9.91284
▁ଯେଉଁମାନେ	-9.91363
▁୭୦	-9.91621
▁ଫଳରେ	-9.91639
▁ବନ୍ୟା	-9.91789
▁ସ୍ଥାନକୁ	-9.91792
▁ମାଡ଼	-9.91815
38	-9.91862
▁ଷ	-9.91867
ିଲ	-9.91916
▁An	-9.92128
▁ଆତଙ୍କ	-9.92199
▁ଅବଶ୍ୟ	-9.92329
▁ଭିତରକୁ	-9.9233
▁ସ୍ତମ୍ଭ	-9.9233
▁ଶତ୍ରୁ	-9.9233
▁ଯୌନ	-9.92336
▁ସଂସାର	-9.92349
▁ଯେକୌଣସି	-9.92361
▁ଶୋ	-9.92443
ଵି	-9.925
▁ପୁରୀ	-9.92523
-“	-9.92663
ତନ	-9.92678
▁ରୋଗୀ	-9.92704
▁ବିଜୁ	-9.92725
▁ଅଧା	-9.92834
▁ନିଅନ୍ତୁ	-9.92944
▁ବଢି	-9.92953
▁ବେଗ	-9.92967
ap	-9.93036
▁ପଛ	-9.93104
ସମ୍ପାଦନା	-9.93131
Indian	-9.93149
ଆରମ୍ଭ	-9.93177
▁ବଦଳରେ	-9.93235
▁ଡାଉନଲୋଡ	-9.93447
▁ଭିନ୍ନ	-9.93554
▁ଇଣ୍ଟରନେଟ	-9.93648
ବାବୁ	-9.93659
▁chicken	-9.93663
▁ବାରମ୍ବାର	-9.93663
▁ବିଳମ୍ବ	-9.93663
▁rich	-9.93664
▁ଆତଙ୍କବାଦୀ	-9.93665
▁ଦେଉଛୁ	-9.93678
▁ଗୋଡ	-9.93683
ଫେ	-9.93724
▁କହୁଥିଲେ	-9.93736
▁ଚଳିତ	-9.93738
▁ଭୟଙ୍କର	-9.93753
ପୋର୍ଟ	-9.93757
▁ଯିବାକୁ	-9.93786
▁ପଡୁ	-9.93788
▁ଆତଙ୍କୀ	-9.93802
▁ପଣ୍ଡା	-9.93813
▁•	-9.93819
ଣ୍ଟି	-9.93925
net	-9.93965
▁ଜାଣିଲେ	-9.94114
ୁଷ	-9.94186
▁ସମ୍ପର୍କରେ	-9.94213
▁ନିମ୍ନ	-9.94237
ାମ	-9.9427
ST	-9.94317
ିଙ୍ଗ	-9.94387
▁ଉଦାହରଣ	-9.94443
▁ଘୁଞ୍ଚ	-9.94453
କାନ	-9.94471
ସ୍ଥାନ	-9.94508
ହୋଇ	-9.94585
▁ତୁଳ	-9.94603
▁ଆତ୍ମ	-9.94634
ଥିଲ	-9.9468
▁ୱ	-9.94686
ସ୍ୱ	-9.94716
▁କଲେଜ	-9.94866
ସ୍ଥା	-9.94937
▁ଅତିରିକ୍ତ	-9.95014
▁ପଦକ୍ଷେପ	-9.95014
▁ଈଶ୍ୱର	-9.95014
▁ଫାଇଦା	-9.95014
▁3.9	-9.95031
▁ଗୋପାଳ	-9.95032
▁ଯୀଶୁଙ୍କ	-9.95034
No	-9.95098
ତକ	-9.9512
ଢି	-9.95222
▁ଭୂ	-9.95245
▁ଭାରତକୁ	-9.95259
▁କ୍ଲିକ୍	-9.95269
ଯୋଗ୍ୟ	-9.95282
▁ଚାବି	-9.9535
▁ଡିରେକ୍ଟୋରୀ	-9.95368
▁ପାରିବି	-9.95465
▁ହିସାବ	-9.95528
ନ୍ଦ୍ର	-9.95541
▁ବଦଳି	-9.95643
▁←	-9.95652
80	-9.95782
▁ଚୁ	-9.95827
▁ଅଞ୍ଚଳ	-9.96195
▁ଚାଷ	-9.96255
__	-9.96259
▁ଯାକୁବ	-9.96366
▁ଦେଶରେ	-9.9637
▁ଦୋଷ	-9.96378
▁Download	-9.96384
▁ଅଭିନେତା	-9.96384
▁ପୁସ୍ତିକା	-9.96384
▁ଅଧ୍ୟକ୍ଷ	-9.96385
▁ସମ୍ପତ୍ତି	-9.96389
▁ସଂଳାପ	-9.96391
▁JH	-9.96415
▁ଦଳର	-9.96446
▁ଲାଗୁଛି	-9.9646
ଇଲା	-9.96486
NTS	-9.96567
▁ଆସିବା	-9.96578
ଘର	-9.96637
ଦାୟ	-9.96647
ଠାରେ	-9.967
▁ଭାବ	-9.96736
▁ଘଟିବ	-9.9679
▁ଆସିଲେ	-9.96854
▁user	-9.96985
▁ତଳକୁ	-9.97106
▁ରହ	-9.97154
use	-9.97162
▁ଶୁଣିବା	-9.97178
▁କାଟି	-9.9725
▁ରେଳ	-9.97291
ସମସ୍ତ	-9.97423
▁ତଳ	-9.97493
▁ଲକ୍ଷ୍ମୀ	-9.97497
▁ପଏଣ୍ଟ	-9.97627
▁୨୪	-9.97688
▁ବଢ	-9.9777
Brinjal	-9.97773
EDIE	-9.97773
▁View	-9.97773
▁ମନୋନୀତ	-9.97773
▁ପଣ୍ୟ	-9.97775
ାଡ଼ୋ	-9.97786
▁ପଦବୀ	-9.97787
://	-9.97795
▁ମିଳୁଛି	-9.97798
▁ଦିଦି	-9.97811
▁ପରିଚିତ	-9.97812
22	-9.97829
▁ଦେଉ	-9.97906
▁ପ୍ରକାଶିତ	-9.97954
Let	-9.98046
▁ଶଶୁର	-9.98059
ଈ	-9.98236
▁ସ୍ତର	-9.98285
ହୁଁ	-9.98512
▁ସୂ	-9.98551
EN	-9.987
▁ମାରିବା	-9.98808
▁ଫାଇଲକୁ	-9.9886
▁42	-9.989
▁ଏକ୍ସ	-9.9892
▁ଓଂ	-9.9894
ପୂ	-9.98971
▁ମିନିଟ	-9.98972
ବର୍ତ୍ତ	-9.99
▁ଅଭାବ	-9.99062
▁ଚୀନ	-9.99077
▁କେତେକ	-9.99083
▁ଥା	-9.99085
▁ଭୁବନ	-9.99173
dictionary	-9.99181
▁କୁହାଯାଇଥାଏ	-9.99181
▁ଜବରଦଖଲ	-9.99181
▁ନୁହନ୍ତି	-9.99181
▁ବୁଝାଇ	-9.99181
▁ଦୁନିଆ	-9.99193
▁ଫର୍ମ	-9.99201
▁ଧୀରେ	-9.99224
▁ହରାଇ	-9.99237
▁କୋଲୋ	-9.99239
▁ନିରବ	-9.9926
▁ପ୍ରଶଂସା	-9.9927
▁ବିଶିଷ୍ଟ	-9.99273
▁ସବଳ	-9.99367
▁ଡାଟା	-9.99372
▁ହୋଇଯାଇଛି	-9.99373
▁ମାଗି	-9.99447
▁ରେଖା	-9.9951
▁କ୍ୟା	-9.99599
ମୃତ	-9.99629
▁ମୁହଁରେ	-9.99737
ଜନକ	-9.99784
▁କ୍ରମ	-9.99926
▁No	-9.99938
▁ଘଟ	-9.99986
▁ଦାମ୍	-9.99996
▁ହିସାବରେ	-10.0007
ୟାର	-10.0014
▁ରଙ୍ଗର	-10.0015
ଦ୍ୱ	-10.0016
▁ଠ	-10.0038
▁ଆବର୍ଜନା	-10.0061
▁ନମଃ	-10.0061
▁ଜଙ୍ଗଲ	-10.0061
▁ଉଦ୍	-10.0062
▁ସ୍ୱପ୍ନ	-10.0062
▁କ୍ଷମା	-10.0063
ଯେ	-10.0066
▁ଭୁଲ୍	-10.0075
▁ଜାଣେ	-10.0078
ିମିତ	-10.0084
▁ସବୁଦିନ	-10.0106
ଦାର	-10.0111
▁ମହାରାଜ	-10.0111
ell	-10.0117
▁ଟିମ୍	-10.0119
▁ଅଟକ	-10.0125
no	-10.0126
ୁନି	-10.0128
▁ମୂର୍ତ୍ତି	-10.0135
▁30	-10.0136
all	-10.0142
▁ହଳ	-10.0147
▁୩୫	-10.0155
▁ଅନ୍ଧ	-10.0155
▁ତାଲିକାରେ	-10.0156
▁ଧାନ	-10.0156
▁This	-10.0164
ୋଷ	-10.0174
▁କହିଲ	-10.0179
mi	-10.0193
▁ରାଉତ	-10.0196
ଆମେ	-10.02
▁k	-10.0203
▁ଅନୁଚିତ୍	-10.0206
▁ଚାହାନ୍ତି	-10.0206
▁ଉପାଦାନ	-10.0206
▁ଆକୃତି	-10.0206
▁ଫେସବୁକ	-10.0206
▁Bible	-10.0206
▁ଗଣତନ୍ତ୍ର	-10.0206
▁ସଂକ୍ଷିପ୍ତ	-10.0206
କ୍ଷା	-10.0208
▁ବଢ଼ିବାକୁ	-10.0208
▁ତୁରନ୍ତ	-10.0209
▁ଯାଉଛନ୍ତି	-10.0213
▁ଅଟୋ	-10.0225
ଯାନ	-10.0228
ସାର	-10.0231
▁କୁରୁମ	-10.0238
ଶ୍ଚ	-10.0254
୦୬	-10.0261
▁ଆପେ	-10.0266
▁ଅବସରରେ	-10.0272
▁ଛାତି	-10.0276
▁କିଂ	-10.0279
▁ବନ	-10.0281
44	-10.0282
▁ଜୁ	-10.0288
▁ଦେବତା	-10.0298
▁ଶି	-10.0302
tal	-10.0303
ଂଜ	-10.0304
ଷି	-10.0308
ଧ୍ୟ	-10.0315
କରିବା	-10.032
▁ଲାଗିବ	-10.0327
▁ଯନ୍ତ୍ର	-10.0352
▁program	-10.0353
▁ଆର୍ଥିକ	-10.0353
▁ପ୍ରେରିତ	-10.0353
▁ସୂଚକ	-10.0353
▁ଅନ୍ୟାନ୍ୟ	-10.0353
▁ପଗ୍ଭରି	-10.0353
▁ଉଦ୍ୟମ	-10.0353
▁size	-10.0354
▁ସ୍ୱାମୀଙ୍କ	-10.0354
▁23	-10.0354
▁en	-10.0354
▁ସତେ	-10.0355
▁ଠାକୁର	-10.0355
▁ଦିଆଯାଇଛି	-10.0355
▁ପରିଚାଳନା	-10.0356
▁ଅଥବା	-10.0357
▁ରଖିଛି	-10.0368
ଙ୍ଗୁ	-10.037
ଜୟ	-10.0373
▁ଈଶ୍ବରଙ୍କୁ	-10.0373
▁ଆର୍କ	-10.0383
▁ପ୍ୟା	-10.0389
▁ଟୋକିଓ	-10.039
▁ରାଷ୍ଟ୍ରପତି	-10.039
▁କାଇଁ	-10.0403
▁ଅଧ	-10.0404
ଇନ	-10.0426
ାଂ	-10.0431
▁Indian	-10.0431
ଦ୍ୟ	-10.0438
▁ବୁଦ୍ଧି	-10.0439
ଏକ	-10.0452
tic	-10.0453
▁ସେପ୍ଟେମ୍ବର	-10.0454
ମଣି	-10.0462
▁ଫେରିବା	-10.0463
ାଇଁ	-10.0463
▁ଯୁଗ	-10.0476
▁ମୁଖ	-10.0477
୍ରୀ	-10.0479
▁De	-10.0481
)[	-10.0482
▁Short	-10.0485
▁ପଢ଼	-10.0488
▁ସର୍ବ	-10.0493
▁ପ୍ରକୃତରେ	-10.0497
▁ସଂସ୍କୃତି	-10.0502
▁ସନ୍ଧ୍ୟା	-10.0502
▁ଡ୍ୟାମ୍	-10.0502
▁ଅପରାଧ	-10.0503
▁ନିମ୍ନଲିଖିତ	-10.0503
▁ସ୍ୱର୍ଗ	-10.0503
▁ଯନ୍ତ୍ରଣା	-10.0504
ud	-10.0505
▁କେରଳ	-10.0506
▁ସହଜରେ	-10.0507
▁କଲେଜ୍	-10.0509
▁ମଣ୍ଡଳୀ	-10.0511
▁‘‘	-10.0513
▁ବଢିଲା	-10.0518
▁ସାମ୍ବାଦିକ	-10.0528
▁ଏଇଟା	-10.053
▁ମୋହିତ	-10.0533
▁ରହିବୁ	-10.0538
60	-10.0542
wa	-10.0544
▁ରଥ	-10.0545
ମେଣ୍ଟ	-10.0547
▁ଶିଖ	-10.0553
▁ସ୍ପ	-10.0558
name	-10.0563
ହରି	-10.0578
ଫୁ	-10.0584
▁ସଫଳତା	-10.06
ଂକ	-10.0609
▁ଅବସ୍ଥାରେ	-10.062
▁ଶୀତ	-10.0631
▁ସାଙ୍ଗରେ	-10.0635
ଭ୍	-10.0636
ସିଆ	-10.0639
ମୋଦିଙ୍କ	-10.064
▁ଅସୁବିଧା	-10.0654
▁ଚାହାଁନ୍ତି	-10.0654
▁ବିଷୟବସ୍ତୁ	-10.0654
▁July	-10.0655
▁ବ୍ୟବହାରକାରୀ	-10.0655
▁କୋଚେ	-10.0656
▁ସର୍ବଦା	-10.0656
▁କରାଗଲା	-10.0657
୪୭	-10.0658
▁ଭୂମିକା	-10.0659
▁ମିଳେ	-10.066
OR	-10.066
ie	-10.066
IAL	-10.0665
▁ଓଡ଼ିଶାର	-10.067
▁ଦେଇଥାଏ	-10.067
▁ଟ୍ୟାବ	-10.0679
ନଥିବା	-10.068
▁ବ୍ୟୟ	-10.0681
▁Di	-10.0682
▁ଶିକାର	-10.0683
ମ୍ଭ	-10.0688
ବନ୍ଧନ	-10.0689
50	-10.0704
ନଥିଲା	-10.071
▁ଲକ୍ଷଣ	-10.0715
GR	-10.0719
▁man	-10.0731
▁ଜିତି	-10.0746
▁ଆମ୍ଭ	-10.0752
ରିବା	-10.0757
ଷା	-10.077
▁.....	-10.0771
pp	-10.0771
ଆଁ	-10.0782
AR	-10.0783
ଦେବା	-10.0784
▁ଭଦ୍ର	-10.0785
▁ଲୋକମାନଙ୍କ	-10.0794
ame	-10.0798
ତୁମ୍ଭେ	-10.0799
ba	-10.08
▁ଦୀର୍ଘ	-10.0808
▁Control	-10.0808
▁window	-10.0808
▁ପ୍ରତିକ୍ରିୟା	-10.0808
aunchpad	-10.0808
▁ପାଣିପାଗ	-10.0808
▁ସ୍ୱାଗତ	-10.0808
▁ଗୁଣଧର୍ମ	-10.0809
▁ବୟସ୍କ	-10.081
▁ଯଥା	-10.0812
▁କାର୍ଯ୍ୟାଳୟ	-10.0812
▁ପ୍ରଧାନ	-10.0813
▁ଟ୍ରାକ	-10.0813
ପଦ	-10.0814
▁ସହଯୋଗୀ	-10.0819
▁Act	-10.0821
▁ହରିଆ	-10.0821
▁days	-10.0824
ସଞ୍ଜୁ	-10.0829
tra	-10.083
▁ଛବି	-10.0835
▁ପାଳ	-10.0843
▁ଅଣ୍ଡା	-10.0845
The	-10.0859
▁ଫୋର	-10.0861
▁ରାଜାଙ୍କୁ	-10.0875
ନଂ	-10.0888
ର୍ମ	-10.0902
ବଳ	-10.0903
▁ସିନା	-10.0907
AL	-10.0908
ଷେ	-10.0908
▁ବାହାରକୁ	-10.0916
▁ଭେଟି	-10.0919
ନାମ	-10.0927
▁କ୍ର	-10.0928
▁ଉନ୍ନତ	-10.0929
▁ପ୍ରତିଦିନ	-10.093
▁ବାହାରେ	-10.0935
‘	-10.0948
▁ଆସୁ	-10.0948
ତ୍ରୀ	-10.0958
ଟଙ୍କା	-10.0962
laze	-10.0964
▁SONG	-10.0964
▁School	-10.0964
▁ଘୁରାଅ	-10.0964
▁ପ୍ରଶାସନ	-10.0964
▁ବୁଢୀ	-10.0964
▁ଉତ୍କଳ	-10.0964
▁ପବିତ୍ର	-10.0964
▁ଫ୍ଲୁ	-10.0964
▁ବଢୁଥିଲା	-10.0964
▁୨୦୧୬	-10.0965
▁ଅବଦାନ	-10.0966
▁ଦୃଷ୍ଟି	-10.0966
ଯାଅ	-10.0971
▁ଦେୟ	-10.0977
▁ID	-10.0978
▁ଘନ	-10.098
▁ପରିସର	-10.0982
▁ଦରମା	-10.0983
▁ନାରାୟଣ	-10.0983
24	-10.0984
ଯାଉ	-10.0989
ଵା	-10.1
key	-10.1011
▁Me	-10.1014
ୟକ	-10.1022
▁ବିରୋଧ	-10.1024
▁ରହିଲା	-10.1026
be	-10.1028
▁ରାଓ	-10.103
▁»	-10.1093
▁୨୩	-10.1101
ବାହ	-10.1118
ight	-10.1122
▁inlistbox	-10.1123
▁SOC	-10.1123
▁ପଦ୍ଧତି	-10.1123
▁ଚୟିତ	-10.1123
▁ଚାଲନ୍ତୁ	-10.1124
▁Google	-10.1124
▁ସଞ୍ଜୟ	-10.1124
▁ଯବାନ	-10.1128
ସ୍‍	-10.1128
▁Pro	-10.1128
▁ଏକାଧିକ	-10.1129
ଏମଆଇ	-10.1131
▁ନାହଁ	-10.1134
▁©	-10.1136
▁ସେହିପରି	-10.1137
▁ଡେରି	-10.1138
▁ବହୁଳ	-10.114
▁ରୂପେ	-10.1148
ଷତ	-10.1162
ପାତ	-10.1173
one	-10.1184
▁ବାକ୍ୟ	-10.1207
▁୧୬	-10.1209
ଉଛି	-10.1216
ୁଥିବା	-10.1218
ଏବେ	-10.1228
▁କଳ	-10.1231
▁ଚାଲିବ	-10.1233
▁ନଥିଲେ	-10.1245
va	-10.1249
ୃତ	-10.125
ep	-10.1251
ଶୁଣ	-10.1258
▁type	-10.1264
ୁଲା	-10.1265
▁ଅକ୍ଷ	-10.1266
▁ଖୋଲିବା	-10.1281
▁who	-10.1283
᭫	-10.1284
▁tomorrow	-10.1284
▁ଡ଼େସ୍କଟପ	-10.1284
▁ନଭେମ୍ବର	-10.1284
▁ନିର୍ଦ୍ଧାରିତ	-10.1284
▁ସଂଗୁପ୍ତ	-10.1284
ompany	-10.1284
▁ଛାଞ୍ଚ	-10.1285
30	-10.1286
▁ସମର୍ଥିତ	-10.1287
▁ସଂଲଗ୍ନକ	-10.1287
▁ଚାଲୁ	-10.1287
▁ମଧୁ	-10.1289
▁ଧର୍ମା	-10.1296
▁ଏକମତ	-10.1299
▁ପିଲାର	-10.1313
64	-10.1316
▁ଖସି	-10.1316
ଟୋ	-10.1332
▁ନୀଳ	-10.1333
▁ପ୍ରକାରର	-10.134
ଆମ	-10.1352
▁ଖାଇବାକୁ	-10.136
▁ପ୍ରକ୍ରିୟା	-10.1362
ice	-10.1365
▁ଶିଶୁକୁ	-10.1368
▁ଯୋଗୀ	-10.1371
ଥୁ	-10.1371
▁DVD	-10.1373
▁For	-10.1374
ଏଫ	-10.1375
ାତ୍ମକ	-10.138
▁ଓଡ଼ିଶାରେ	-10.1381
ସହ	-10.1404
ଜର	-10.1425
ଦନ	-10.1425
ିକ୍	-10.1429
▁ଯୋଡି	-10.1431
ଜ୍ଞା	-10.1436
▁ଆମଦାନୀ	-10.1447
▁them	-10.1447
▁ନିର୍ଦ୍ଦିଷ୍ଟ	-10.1448
▁ଅଦ୍ୟତନ	-10.1448
▁କୌଶଳ	-10.1448
▁ଯୋଗାଯୋଗ	-10.1448
▁ବ୍ୟୁରୋ	-10.1448
▁ସମୁଦ୍ର	-10.1448
▁ଅନୁସରଣ	-10.1448
▁ଏକକାଂଶ	-10.1448
▁ହ୍ରାସ	-10.1448
▁ଉପଯୁକ୍ତ	-10.145
▁ସଂଯୁକ୍ତ	-10.1451
▁ଏକୁଟିଆ	-10.1451
▁ଯୋଗାଡ	-10.1452
▁ସେବକ	-10.1453
▁ଯୋଗ୍ୟ	-10.1453
କମ	-10.1454
▁ଗଢି	-10.1455
▁ଅଫିସର	-10.1458
▁ତ୍ରି	-10.1458
ଶ୍ଵ	-10.1478
କାନ୍ତ	-10.149
▁କରିଥିଲି	-10.1497
▁ନିଅ	-10.1499
▁ବୁଲିବା	-10.1502
▁ସେମିତି	-10.1502
▁ମୋଟେ	-10.1503
▁St	-10.151
▁ଫୋ	-10.1511
▁ବିଧି	-10.1515
ଗ୍ରହ	-10.1516
let	-10.1518
ୟତ	-10.1519
▁ରେକର୍ଡ	-10.152
▁ପ୍ରାଣ	-10.1521
▁ପୂର୍ବେ	-10.1523
▁ପରିସ୍ଥିତି	-10.1528
▁ବିକିବ	-10.1532
▁ଛଡା	-10.1543
▁ତାହାଙ୍କର	-10.1565
ର୍ବ	-10.1567
▁ଗୁଡ଼ିକର	-10.1568
୧୩	-10.1569
୍ୟୋ	-10.1579
▁ଚୋର	-10.1579
▁ଧର	-10.1587
▁ଦିଆଯିବ	-10.159
▁କିଲୋ	-10.1595
▁ପ୍ରାର୍ଥୀଙ୍କ	-10.1598
ick	-10.1609
ଭିନ୍ନ	-10.1613
▁Argus	-10.1614
▁Insurance	-10.1614
▁error	-10.1614
▁ଦାଖଲ	-10.1614
▁Text	-10.1614
▁ପ୍ରଯୁକ୍ତି	-10.1614
▁ପିଲାପିଲି	-10.1614
▁ଗୋଲାପି	-10.1614
▁ମିଲିୟନ	-10.1614
▁ଗର୍ଭବତୀ	-10.1615
▁listbox	-10.1615
▁ଦାୟୀ	-10.1615
▁prote	-10.1615
▁ପଡୁଛି	-10.162
▁ବୁଲି	-10.1623
▁ରହିଥାଏ	-10.1625
▁ଛୁଆ	-10.1634
48	-10.1638
▁YouTube	-10.164
ଯୋଗ	-10.1641
▁କରିହେବ	-10.1643
ପୁଅ	-10.1647
▁ପରମ	-10.1648
▁କରିଦେବ	-10.1648
▁ନୋ	-10.1661
49	-10.1681
▁ଡାକ୍ତରଙ୍କ	-10.1685
▁୯୦	-10.1687
▁ଚାଷୀଙ୍କ	-10.1692
▁ପୂ	-10.1693
▁Read	-10.171
▁ସେୟାର	-10.1722
▁ଭୋଗ	-10.1734
35	-10.1736
ସୋ	-10.1738
ୀନ	-10.1739
▁ଅନ୍ତର	-10.1766
▁Rs	-10.1774
▁ଅନଲାଇନ	-10.1778
େସନ	-10.1778
▁ଗଣେଶ	-10.1781
▁Tokio	-10.1784
▁ବୈଜ୍ଞାନିକ	-10.1784
▁୧୯୮୨	-10.1784
▁ଧକ୍କା	-10.1784
▁ଫଳାଫଳ	-10.1784
▁ମଲ୍ଲିକ	-10.1784
▁ସଙ୍କେତ	-10.1784
▁କଲ୍ୟାଣ	-10.1784
▁ସମ୍ମୁଖୀନ	-10.1784
▁ଭଣ୍ଡାର	-10.1784
▁ହୁ	-10.1785
▁call	-10.1786
▁ପଢିଥିଲି	-10.1787
▁2009	-10.1788
▁କରାଯାଉଛି	-10.1789
▁କରାଯାଇଥାଏ	-10.1789
▁ପିନ୍ଧି	-10.1801
ପଲ	-10.1802
▁କୋଡ	-10.1803
▁କରୁଥିଲା	-10.1804
*	-10.1807
▁ଉଠିଲା	-10.1811
ଲକ୍ଷ	-10.1816
▁ବାବଦରେ	-10.1817
▁mo	-10.182
▁ୟହ	-10.1832
▁ଚିହ୍ନିତ	-10.1837
ମୁକ୍ତ	-10.1838
▁ନାମକ	-10.1839
▁ଦାବିଦ	-10.185
▁ଆମେରିକାରେ	-10.1859
▁ସ୍କୁଲ୍	-10.1861
▁ଫେରାଇ	-10.1862
ୟମ	-10.1866
ଲ୍ଲା	-10.1871
▁ନାହି	-10.1875
55	-10.1879
୬୪	-10.1881
▁ପୂର୍ଣ୍ଣ	-10.1885
▁ଉପାୟରେ	-10.1893
▁ସଦ	-10.1899
ଦେଶର	-10.1901
କ୍ତି	-10.1909
tr	-10.1911
▁ତମର	-10.1922
ଏଲ୍	-10.1939
▁ସାଆନ୍ତ	-10.1956
▁URL	-10.1956
▁tooltip	-10.1956
▁ଅପରିବର୍ତ୍ତିତ	-10.1956
▁ରତ୍ନଭଣ୍ଡାର	-10.1956
▁ସ୍ମରଣ	-10.1956
▁ଚେହେରା	-10.1956
▁ଦୁର୍ବଳ	-10.1956
▁ଧୂସର	-10.1956
▁today	-10.1956
emains	-10.1956
▁କୃମି	-10.1957
କୋହଲି	-10.1957
▁ପାଉଲଙ୍କ	-10.1957
▁ପଚାରନ୍ତୁ	-10.1958
▁ରୁଜୁ	-10.1958
▁been	-10.1959
▁ଦଇେ	-10.196
▁ମହାଭାରତ	-10.196
ଲଭ	-10.1963
cted	-10.1964
▁ଘଟିଛି	-10.1965
▁ପ୍ରାଣୀ	-10.1976
ପୂର୍ଣ୍ଣ	-10.1977
▁ପ୍ରତିଛବିକୁ	-10.1978
▁ଦତ୍ତ	-10.1979
▁{	-10.1982
ଳେ	-10.1983
ୁଳିଆ	-10.1986
ତ୍ୟା	-10.1993
▁ହଉଛି	-10.2009
▁ଗାଲ	-10.2019
▁Ma	-10.2019
▁ବିଷ	-10.203
NS	-10.2033
ass	-10.2033
▁ମନ୍ତ୍ରୀଙ୍କ	-10.2038
▁ଭୂମି	-10.204
▁୮୫	-10.2044
▁ହବ	-10.2046
▁ମେଘ	-10.205
ନବ	-10.206
ଦାୟକ	-10.2061
▁କୋଉଠି	-10.2062
▁କାନ୍ଦି	-10.2063
ଏତ	-10.2065
▁ନାରୀ	-10.2071
▁ବ୍ଲକ	-10.2077
▁11,	-10.208
qu	-10.2083
▁ପଛର	-10.2089
▁go	-10.2097
କିଏ	-10.21
ନନ୍ଦ	-10.2109
▁ବଢାଇ	-10.2121
rious	-10.2123
▁ୟୁରୋପ	-10.2129
▁ଯୋ	-10.2129
▁50	-10.2131
▁ଅନ୍ତର୍ଭୁକ୍ତ	-10.2132
▁ବ୍ଯବହାର	-10.2132
▁ସ୍ତନ୍ୟପାନ	-10.2132
▁ପ୍ରାର୍ଥନା	-10.2132
aunched	-10.2132
▁ଛଅଟି	-10.2132
▁Reporter	-10.2132
▁ବୈଧିକରଣ	-10.2132
▁With	-10.2133
▁UA	-10.2133
▁ଏଯାଏଁ	-10.2134
▁ବନାନ	-10.2134
▁କୋର୍ଟ	-10.2135
▁ୟେବେ	-10.2136
▁ବ୍ୟସ୍ତ	-10.2137
▁ଫେରିଲୁ	-10.2138
▁ସିଂ	-10.2138
ତୁମ	-10.2138
▁ଦେଉଛି	-10.2139
ଜୀବ	-10.2139
ସାରିଛନ୍ତି	-10.214
ୱାର୍ଡ	-10.2142
▁None	-10.2142
▁ଅପରାଜିତା	-10.216
▁ଜେନା	-10.2162
▁ହେଇଯିବ	-10.2168
ab	-10.2173
ସଲ	-10.2173
ଟିଂ	-10.2184
▁ଗୋଟି	-10.2185
▁ଗାଁରେ	-10.2186
US	-10.2191
ୁଛ	-10.2198
▁ପ୍ରକାଶନ	-10.2199
▁ଅଗ୍ନି	-10.22
▁ଉଠାଇ	-10.2203
ies	-10.2205
ଚ୍	-10.2207
▁ପଠାଇବା	-10.2223
ଡିଆ	-10.2226
▁org	-10.2232
▁ପୋଛି	-10.2233
90	-10.2261
han	-10.2261
ଥ୍	-10.2262
▁ଚାହୁଁ	-10.2281
▁ସମୂହ	-10.2282
▁ଶୋଇ	-10.2282
ଡୋ	-10.2289
▁ସୁଧ	-10.2298
ଶୀଳ	-10.231
▁Remote	-10.231
▁ଉଇକିପିଡ଼ିଆ	-10.231
▁ଟିପ୍ପଣୀ	-10.231
▁ଭୂବନେଶ୍ୱର	-10.231
▁ସଂରକ୍ଷିତ	-10.231
▁ଆଗେଇଲା	-10.231
▁ଡାହାଣ	-10.231
ଘଂଟା	-10.2311
▁୨୦୧୫	-10.2314
▁ଅନୁମାନ	-10.2316
▁ସତର୍କ	-10.2316
▁ନାମକରଣ	-10.2319
▁ଧାର	-10.2319
ଦଳ	-10.2326
do	-10.2327
▁ଶିକ୍ଷକ	-10.2332
▁ଦାଣ୍ଡ	-10.2339
▁ଥି	-10.2343
▁ଉଚ୍ଚତା	-10.2348
ଜୁଲାଇ	-10.2351
WEB	-10.2353
▁ଇନ	-10.2353
ଶାସ୍ତ୍ର	-10.2354
ବନ୍ଧ	-10.2356
▁ଗ୍ରହ	-10.2367
▁ସଂପର୍କରେ	-10.2371
▁ପଚାର	-10.2377
ୟାନ	-10.2378
ଶ୍ୱ	-10.2383
ିଜ	-10.2392
▁ପରମେଶ୍ୱରଙ୍କ	-10.2395
45	-10.2416
▁ବୈଧ	-10.2426
▁ଖୋଜି	-10.2429
▁ଦବ	-10.2431
ତ୍ବ	-10.2434
▁ଢା	-10.2437
ଏଫ୍	-10.2454
▁ଛିନ୍ନ	-10.2467
▁ସଠିକ	-10.2468
▁ସାହସ	-10.2479
▁ଥାନାରେ	-10.2486
ସ୍ତ୍ରୀ	-10.249
96	-10.2491
▁ଈର୍ଷା	-10.2492
▁ପାଖାପାଖି	-10.2492
▁ପୂର୍ବାନୁମାନ	-10.2492
▁ଲାଇବ୍ରେରୀ	-10.2492
▁୧୯୬୨	-10.2492
▁ଅଟନ୍ତି	-10.2492
▁ବିକ୍ରି	-10.2492
▁ପ୍ରସନ୍ନ	-10.2492
▁ଲିଟର	-10.2493
▁୧୯୫୭	-10.2494
▁ଫାର୍ମ	-10.2494
▁ଡାକଘର	-10.2495
▁2019	-10.2496
▁୍‍	-10.2497
▁ଅଧିକାଂଶ	-10.2499
▁ମେନୁ	-10.2503
କ୍ସି	-10.2507
▁ମହିଳାମାନେ	-10.2509
▁ଖୋଲିକି	-10.2512
ାହିଦା	-10.2515
▁ଏହ	-10.2517
▁ପଡିଲେ	-10.252
▁୫୩	-10.2524
▁କଳାରେ	-10.2527
Not	-10.2532
ଦେଖ	-10.2535
▁ଓସାର	-10.2538
▁ଡଃ	-10.254
ପକ	-10.2541
6]	-10.2542
ାଦ	-10.2542
ଗଳ୍ପ	-10.2545
ଏଠି	-10.2552
ଦ୍ଵ	-10.2556
ଖେଳିବା	-10.2562
32	-10.2564
▁ଯୁକ୍ତି	-10.2576
▁ପେରୁ	-10.2582
▁ବୁଝିବ	-10.2584
▁ବ୍ରାଉଜର	-10.2584
▁ନିଦ	-10.2589
ରିବ	-10.2591
ମନ୍ତ୍ରୀ	-10.2601
କ୍ଟ	-10.2618
▁ଧାରାରେ	-10.2623
▁ଦେବୀ	-10.2629
କ୍ଷୀ	-10.2631
▁ବୈ	-10.2635
ଋ	-10.2641
▁୨୦୦	-10.2648
ାଳୟ	-10.2654
▁ବର୍ଗ	-10.2656
ଷ୍ଟର	-10.2661
ମ୍ପ	-10.2661
ଗୁଣ	-10.2662
କାହା	-10.2663
▁ଅଗଷ୍ଟ	-10.2668
ଟାଇ	-10.2673
ବିତ	-10.2676
▁HTML	-10.2677
▁ଏକାଡେମୀ	-10.2677
▁ଚିତ୍କାର	-10.2677
▁ବ୍ୟତୀତ	-10.2677
▁ମେଡିକାଲ	-10.2677
▁menu	-10.2677
▁ସଂସଦ	-10.2677
▁ଆଟାକ୍	-10.2677
▁କଦାପି	-10.2678
▁ପୁଣିଥରେ	-10.2678
▁ତ୍ୱଚା	-10.268
ଶୁଙ୍ଘ	-10.2682
▁ଶୁ	-10.2686
ସ୍ଥଳ	-10.2688
▁ଅରୁଣ	-10.2691
the	-10.2691
▁36	-10.2696
ga	-10.27
▁ଅଚଳ	-10.2701
ଫ୍ରୀ	-10.2708
▁ଗଜା	-10.2714
▁videos	-10.2717
▁ବଞ୍ଚିବାକୁ	-10.272
▁ବସ୍ତ୍ର	-10.2726
▁ନିକଟ	-10.273
▁ପ୍ରାରମ୍ଭିକ	-10.2731
ଆସ	-10.2732
▁ଡ୍ର	-10.2755
▁ପୋଛ	-10.2762
▁ଫସଲ	-10.2767
ନାହଁ	-10.2771
▁What	-10.2775
▁ହଜ	-10.2777
ପାରିଲା	-10.2782
▁ଅବସର	-10.2784
▁କ୍ରିୟା	-10.2785
ଫଳ	-10.2793
ଥାନ୍ତା	-10.2794
ବୁଲ	-10.2796
▁ମିଶି	-10.2796
ବେଦ	-10.2816
ତୀର	-10.2817
▁ଗଳ୍ପ	-10.2818
୨୪	-10.2829
0,000	-10.2832
୨୯	-10.284
▁ସ୍ଥାନଗୁଡ଼ିକ	-10.2841
ock	-10.2843
▁https	-10.2844
ଗଁ	-10.2852
ୋଜ	-10.2854
▁ଦେଖାଇ	-10.2854
▁ଢେ	-10.2865
▁Office	-10.2866
▁କ୍ଷୟକ୍ଷତି	-10.2866
▁ଚେତାବନୀ	-10.2866
▁ଡିଗ୍ରୀ	-10.2866
▁ପ୍ରଣାଳୀ	-10.2866
▁ପ୍ରଦର୍ଶକ	-10.2866
▁ପ୍ରାକୃତିକ	-10.2866
▁ଫେବ୍ରୁଆରି	-10.2866
▁ଶକୁନ୍ତଳା	-10.2866
▁୧୯୯୧	-10.2866
▁ଏଣିକି	-10.2866
▁ବୋହୂ	-10.2866
ଢା	-10.2867
▁ସାରଣୀ	-10.287
▁any	-10.2873
able	-10.2874
▁କୁହନ୍ତୁ	-10.2875
▁ଭବିଷ୍ୟତ	-10.2876
▁ସ୍ତ୍ରୀର	-10.2877
▁ରହିଥିବା	-10.2886
▁ପାଉଛି	-10.2887
▁ଅବସ୍ଥିତି	-10.2892
▁ତାହାହେଲେ	-10.2896
▁କରିପାରନ୍ତି	-10.2901
▁ରୋଜଗାର	-10.2907
କୃ	-10.2915
▁ଫ୍ୟୁଜ୍	-10.2922
▁ମହାନ୍	-10.2922
ED	-10.2925
▁ଧନୁ	-10.2929
ୁଥିଲା	-10.293
▁ଜୀବନକୁ	-10.2932
େୟାର	-10.2937
ଶ୍ରୀ	-10.2948
ଯୋ	-10.2956
ian	-10.2957
ସ୍ବ	-10.2957
ଞ୍ଚା	-10.2959
ଥାଇ	-10.2966
▁ସେମାନ	-10.2977
▁ପଶି	-10.2978
▁ବାଜି	-10.2981
▁ସ୍ତରରେ	-10.2983
▁ଗାଡ଼ି	-10.2985
ଯିବୁ	-10.2992
▁କାଠ	-10.2998
ଡ଼େ	-10.2999
ଗଡ	-10.3002
end	-10.3009
▁ସାମି	-10.3019
▁ସହଯୋଗ	-10.3053
ଲାଣି	-10.3053
▁ମାର୍କ	-10.3054
▁ନାହାଁନ୍ତି	-10.3054
▁ମିଶନ	-10.3054
▁ସଂଲଗ୍ନ	-10.3054
୦୨	-10.3058
▁କ୍ୟାମେରା	-10.3058
▁ପୁନଃସ୍ଥାପନ	-10.3058
▁ମୌଳିକ	-10.3058
▁କମିଶନ	-10.3058
▁ଗତକାଲି	-10.3058
▁bug	-10.3058
▁ନାଗରିକ	-10.3058
▁ଅନ୍ତିମ	-10.3059
▁ଲୁଗା	-10.3059
▁ସଂଯୋଜକ	-10.3059
▁ସମେତ	-10.3059
▁ବଦଳାନ୍ତୁ	-10.306
py	-10.306
▁ଛୁଇଁପାରେ	-10.3061
▁Sambad	-10.3061
▁ଗୁପ୍ତ	-10.3062
▁ଚମକି	-10.3063
▁କରାଯାଇପାରେ	-10.3064
▁ଯେଉଁଠି	-10.3065
▁ଲେଖିଛନ୍ତି	-10.3066
▁2014	-10.3067
▁ଦୁଆର	-10.3067
▁ନୋଟ୍	-10.3073
▁ଲାଗିଛି	-10.3076
▁ନିଶା	-10.3077
▁ଉଠିଲେ	-10.3079
▁ପଚରା	-10.3089
୍ଵା	-10.3091
nt	-10.3095
▁English	-10.31
୫୦୦	-10.3104
▁ବାଦ	-10.3108
(?)	-10.3122
ଆଧାର	-10.3129
▁ଠାରେ	-10.3136
ିମା	-10.3147
ବ୍ଯ	-10.3153
▁ପଞ୍ଚ	-10.3162
▁ତମକୁ	-10.3175
ଇଟ	-10.3186
▁[2	-10.3192
mail	-10.3194
ର୍ଚ୍ଚ	-10.32
▁୫୧	-10.3204
CC	-10.3211
ନ୍ତର	-10.3215
▁ୟମ	-10.3223
▁ମହାନ	-10.3226
54	-10.3231
ଗଲି	-10.3241
▁ବାଳ	-10.3248
ound	-10.3252
ē	-10.3254
▁ସଂଖ୍ଯା	-10.3254
▁woman	-10.3254
▁ଅତ୍ୟଧିକ	-10.3254
▁କୃଷକ	-10.3254
▁ଡାଇନୋସର	-10.3254
▁ପରମ୍ପରା	-10.3254
▁ପ୍ରାକଦର୍ଶନ	-10.3254
▁ଯଥେଷ୍ଟ	-10.3254
▁ସର୍ବନିମ୍ନ	-10.3254
▁ହେଲିକାପ୍ଟର	-10.3254
▁ଗୋଷ୍ଠୀ	-10.3254
ଦାମୋଦର	-10.3254
▁Watch	-10.3254
▁ସଙ୍କଳନ	-10.3255
▁ଆହରଣ	-10.3255
▁ଏକାକୀ	-10.3255
▁ଅଗ୍ରସର	-10.3255
ମରିୟମ	-10.3255
▁୧୯୬୯	-10.3255
▁କାର୍ୟ୍ଯ	-10.3256
▁ହିନ୍ଦୁ	-10.3256
▁free	-10.3257
▁ପ୍ରଗ୍ରାମ	-10.3257
▁ହାସଲ	-10.3257
▁ମଙ୍ଗଳବାର	-10.3259
▁ରଖ	-10.326
▁ନିଆଁ	-10.326
▁Day	-10.326
ଧନ	-10.3264
ନେଇ	-10.3266
▁2016	-10.3266
▁hours	-10.3267
ୁତୀର	-10.3268
▁ଅଧି	-10.3268
▁ବେଶୀ	-10.3271
▁ଫୁଟ	-10.3272
▁ଶବ	-10.3273
▁ହୃଦ	-10.3282
ୟିବ	-10.3285
▁ପରିବେଶ	-10.3287
▁ଡଲାରରେ	-10.329
▁କରିଦେଇ	-10.3292
▁ହୋଇଯାଏ	-10.3293
▁ବେବି	-10.3294
▁ଭାବିଲା	-10.3301
im	-10.3301
▁ମଞ୍ଜିରୁ	-10.3308
େତ	-10.3311
ଦୂତ	-10.3319
▁We	-10.3321
ପ୍ରେମ	-10.3326
▁ପ୍ରତିମା	-10.3332
ଆଚ୍ଛା	-10.3333
ବିଶେଷ	-10.3335
▁ଲାଜ	-10.3338
ord	-10.3339
▁En	-10.3345
9]	-10.3353
▁ଯୀଶୁଙ୍କୁ	-10.3353
▁ଶୁଣୁ	-10.3359
▁ଚୁପ୍	-10.3362
▁po	-10.3368
▁ଶସ୍ତା	-10.3368
▁ରାୟ	-10.3369
▁ଦୋକାନ	-10.3369
ଯୁ	-10.3371
ହଉ	-10.3375
ବରଣ	-10.3375
ରିୟା	-10.3376
▁ମାସରେ	-10.338
om	-10.3415
▁ବିଦାୟ	-10.3419
▁ସାମ	-10.3423
▁ଜୋ	-10.3427
ିଗଲା	-10.3436
▁ବର୍	-10.3438
▁ହସ୍ତ	-10.3442
ୱାଇ	-10.3453
▁Nepomuk	-10.3454
▁ପରିବହନ	-10.3454
▁ଆକଳନ	-10.3454
▁କଳ୍ପନା	-10.3454
▁ପର୍ଯ୍ୟାୟ	-10.3454
▁ତ୍ୟାଗ	-10.3455
▁ପୂର୍ବତନ	-10.3458
▁Reading	-10.3459
▁ଗରିବ	-10.3461
▁ହେଇଗଲା	-10.3461
▁+	-10.3462
▁ପ୍ରାର୍ଥୀ	-10.3474
▁ହେବେନାହିଁ	-10.3479
▁ବନ୍ଧୁତା	-10.349
ka	-10.3506
ME	-10.351
▁named	-10.3524
00,000	-10.3533
▁ମଧ୍ଯରୁ	-10.3536
ରୋଗ	-10.3538
Read	-10.3541
ଦକ୍ଷିଣ	-10.3542
ସ୍ଥିତ	-10.3543
▁ପଢିବା	-10.3553
▁୧୯୮୧	-10.3559
tion	-10.3562
▁ରାଗି	-10.3563
ଯାହା	-10.3565
ିଆନ	-10.357
▁ଅଞ୍ଚଳରେ	-10.358
▁ସହି	-10.3588
▁ସ୍କ୍ରିପ୍ଟ	-10.3592
ୁକ	-10.3598
▁କାର୍ଯ୍ୟକ୍ରମରେ	-10.3614
▁video	-10.3615
67	-10.3617
ର୍ଦ୍ଦ	-10.3618
▁ବୃଦ୍ଧ	-10.3619
କଲ	-10.3624
70	-10.3628
34	-10.3628
▁କ୍ରିକେଟ	-10.3637
ିକରଣ	-10.364
ā	-10.3644
▁ମଞ୍ଚରେ	-10.3649
ଲ୍ୟାଣ୍ଡ	-10.3657
$	-10.3659
▁Facebook	-10.3659
▁ଏପର୍ଯ୍ୟନ୍ତ	-10.3659
▁କର୍ଫ୍ୟୁ	-10.3659
▁ୟାହାକି	-10.3659
♡	-10.3659
▁POP	-10.3659
▁ଚାଉଳ	-10.3659
▁ସ୍ୱୟଂଚାଳିତ	-10.3659
▁2256	-10.3659
▁ମମତା	-10.3659
▁କୁଆଡ଼େ	-10.366
▁କେହିନୁହେଁ	-10.366
▁like	-10.366
▁ବୋହୁ	-10.3661
▁ଦୃଶ୍ୟମାନ	-10.3665
▁ଉପହାର	-10.3669
▁ଧାଡି	-10.367
▁ସଦାପ୍ରଭୁଙ୍କ	-10.367
ଭଳି	-10.3671
▁ରହିଥିଲା	-10.3674
gi	-10.3674
▁ବାଧ୍ୟ	-10.3675
▁ଭଗ	-10.3679
▁ମୋହନ	-10.368
▁ଆସିଛନ୍ତି	-10.368
▁ରାହୁଲ	-10.3682
▁ଚାହିଁଲେ	-10.3684
▁ତହୁଁ	-10.3687
▁·	-10.3689
ଦିଆ	-10.3693
▁ବିନାଶ	-10.3696
ାଞ୍ଚଳ	-10.3698
▁ତୁମ୍ଭେମାନେ	-10.3709
▁Best	-10.371
ୟାମ	-10.371
▁ନକଲି	-10.3711
▁ମଦ	-10.3712
▁କରିଅଛି	-10.3714
ାନୁ	-10.3717
▁କେବେହେଲେ	-10.3727
▁ବାହାରିଲା	-10.3732
▁ଗିରି	-10.3735
ୟେ	-10.374
01	-10.3748
ish	-10.3756
ାଯ	-10.3765
▁ଦୁଃଖି	-10.3774
▁ସାତ	-10.3776
ଢ଼ି	-10.3778
IST	-10.3783
▁କୋଟିର	-10.3785
▁language	-10.3786
▁ଚାପ	-10.3788
▁ଆଚ୍ଛା	-10.3792
▁ପତ୍	-10.3796
47	-10.3797
ଭୂମି	-10.3798
ki	-10.3803
▁ବାପ	-10.3814
▁କରିପାରି	-10.3818
▁Ch	-10.3818
▁ଦେହରେ	-10.3824
▁ସୂଚୀ	-10.3825
୪୦	-10.3825
▁35	-10.3831
▁ଜୀବନର	-10.3834
ମସ୍	-10.3849
ୁଅ	-10.3853
▁Australia	-10.3867
▁Konqueror	-10.3867
▁child	-10.3867
▁ଅତିକମରେ	-10.3867
▁ବାୟୋପିକ୍	-10.3867
▁ବିଶ୍ୱବିଦ୍ୟାଳୟ	-10.3867
▁ବେହେରା	-10.3867
▁ଇଚ୍ଛାରୂପଣ	-10.3867
▁Music	-10.3867
▁base	-10.3867
▁subha	-10.3867
▁ସ୍ୱତନ୍ତ୍ର	-10.3867
▁କହେି	-10.3867
▁ଦବାନ୍ତୁ	-10.3868
▁ପଦାର୍ଥ	-10.3869
▁ଉଦ୍ଧାର	-10.3869
▁page	-10.3872
▁ଦେଖାଯାଇଛି	-10.3873
ିଷ୍ଟ	-10.3873
▁ଟ୍ରେନ	-10.3874
▁କଳାକାର	-10.3874
▁ଗୁରୁବାର	-10.3876
▁ଉପର	-10.3876
▁ଚାର୍ଟ	-10.3878
▁ଭାଗ୍ୟ	-10.3879
▁all	-10.388
▁time	-10.3882
\.	-10.3883
▁ନୁହଁନ୍ତି	-10.3888
▁କଲୁ	-10.389
▁ଛାତ୍ରୀ	-10.3891
ରାବ	-10.3894
▁କରାଯିବା	-10.3894
୧୯୯୯	-10.3895
▁ସଲମାନ	-10.3895
▁ସାମ୍ନାକୁ	-10.3895
▁ସାଇଟ	-10.3898
▁ବର୍ଣ୍ଣ	-10.3907
▁ଏଣୁ	-10.3913
28	-10.3915
▁ଆଶ୍ଚର୍ଯ୍ୟର	-10.3929
ହୀ	-10.3943
▁ପହଞ୍ଚ	-10.3954
▁ପଢ଼ି	-10.396
▁ପଦ୍ମ	-10.3963
▁Ba	-10.3963
େଜ	-10.3964
▁ଉଦ	-10.3969
ୀତ	-10.397
ର୍ପଣ	-10.397
▁ବ୍ୟକ୍ତିଙ୍କ	-10.3973
▁ମାତ୍ରା	-10.3973
▁ମନର	-10.3974
What	-10.3974
ଯାତ୍ରା	-10.3976
ଚନା	-10.3977
▁ଉକ୍ତ	-10.3978
▁ସମାନଙ୍କେ	-10.3985
▁ପ୍ରଦେଶ	-10.3991
▁୨୦୦୯	-10.3992
▁ଶିଳ୍ପ	-10.3996
ବଦ୍ଧ	-10.3998
▁ଠକ	-10.4014
▁କ୍ୟୁ	-10.4015
▁ନଗର	-10.4022
ବନି	-10.4032
▁୬୦	-10.4035
OO	-10.4035
▁App	-10.4039
▁ଵା	-10.4043
▁ସହିଦ	-10.4048
▁୩୦ରୁ	-10.4062
▁ଭଉଣୀ	-10.4075
▁ସାଧନ	-10.4076
▁Number	-10.408
▁ଅଫଲାଇନ	-10.408
▁ଅସମ୍ଭବ	-10.408
▁କଥାବାର୍ତ୍ତା	-10.408
▁ନିର୍ଦେଶକ	-10.408
▁ପଞ୍ଚାୟତ	-10.408
▁ପରିବର୍ତ୍ତିତ	-10.408
▁କୁହାଯାଇଛି	-10.408
▁ପରସ୍ପର	-10.408
▁ପଶ୍ଚିମ	-10.408
▁ଗ୍ରନ୍ଥ	-10.408
▁ନରେନ୍ଦ୍ର	-10.408
▁ଭିନ୍ନକ୍ଷମ	-10.408
▁ଯେଉଁଥିରେ	-10.408
▁ଯୁକ୍ତିଯୁକ୍ତ	-10.408
▁ଅନୁପାତ	-10.4081
▁ବଢୁଛି	-10.4082
▁ଅଘଟଣ	-10.4085
▁ମେସିନ	-10.4085
▁ବେଶ	-10.4086
ଜାତ	-10.4086
▁ପାଳି	-10.4087
▁ଚାହୁଁଛ	-10.4088
▁ରଖିଛନ୍ତି	-10.409
▁ସେଣ୍ଟର	-10.409
ଳ୍ପ	-10.4091
ଗଢ଼	-10.4093
ିଙ୍ଗ୍	-10.4099
RO	-10.4101
▁ଧାରଣା	-10.4101
▁ରାଜାଙ୍କ	-10.4102
୧୯୭୭	-10.4103
out	-10.4108
▁ଉପଭୋକ୍ତାମାନଙ୍କ	-10.4111
▁ରୁହ	-10.4111
▁ରାଗ	-10.4112
tica	-10.4118
▁ପକ୍ଷୀ	-10.4121
ପାରୁଛି	-10.4122
ହନ	-10.4124
▁ଟୁ	-10.4125
ଚିତ	-10.4128
▁ଷ୍ଟେସନରେ	-10.4136
▁କାଢ଼ିବା	-10.4136
old	-10.414
▁ଦୟା	-10.4142
ଡିଓ	-10.4146
▁ଭାବୁଛ	-10.4147
▁Temp	-10.4148
▁ଦିଆ	-10.4151
▁ବେଶ୍	-10.4152
▁ଜାଗ୍ରତ	-10.4155
▁ଆମ୍ଭକୁ	-10.4181
▁କଭରେଜ	-10.4197
▁କାଢ଼ି	-10.4203
▁ଡାକ୍ତରଖାନା	-10.4211
▁ଅଫର	-10.4228
▁ଗଣନା	-10.4232
2000	-10.4243
୍ୱା	-10.4248
ଭାବେ	-10.4249
▁ଶିଶୁର	-10.4256
ହାଁ	-10.4257
▁ଛୁଇଁ	-10.4264
▁ନେବ	-10.4265
40	-10.4265
cal	-10.4273
ize	-10.4283
▁ବଦଳାଇ	-10.429
▁ଇଶ୍ରାୟେଲ	-10.4296
ਾ	-10.4297
▁ଅଷ୍ଟ୍ରେଲୀୟ	-10.4297
▁ଆଶ୍ଚର୍ୟ୍ଯ	-10.4297
▁ଦୁଷ୍କର୍ମ	-10.4297
▁ପ୍ରିମିୟମ	-10.4297
▁ଭୀଷ୍ମ	-10.4297
▁ସନ୍ଦେହ	-10.4297
▁ଚଲାନ୍ତୁ	-10.4297
▁ନାୟିକା	-10.4297
▁ବିଭୁ	-10.4298
ଣ୍ଟ୍ରାକ	-10.43
▁ସ୍ୱଚ୍ଛ	-10.43
▁ବିଜୁଳି	-10.4301
ମତ	-10.4302
▁କୁଞ୍ଜ	-10.4304
▁ଗର୍ବ	-10.4305
▁ବୀର	-10.4307
ାଣୀ	-10.4308
▁ଗ୍ରେନ	-10.4319
low	-10.4328
▁ସତ୍ୟତା	-10.4335
▁ହେଃ	-10.434
▁ଉନ୍ନତି	-10.4346
େଷ	-10.435
our	-10.4357
▁ଗ୍ରା	-10.4358
▁ବଙ୍ଗ	-10.436
ree	-10.4361
▁ଗପ	-10.4363
ାଅ	-10.4364
▁ଚୂ	-10.4373
dia	-10.4374
୩୭	-10.4382
▁ଦର୍ଶା	-10.4386
▁ପବନ	-10.4389
ିବେ	-10.4389
▁କାଣ୍ଡ	-10.4394
▁ଦାଉଦଙ୍କ	-10.4396
▁ରାଶିର	-10.4402
▁ପାଳିବ	-10.4403
ିବେନି	-10.441
▁ବର୍ଷୀୟ	-10.4411
ୀଯ	-10.4415
ଦୁଆ	-10.4415
▁text	-10.4418
▁ଅଟକି	-10.4421
▁ସଜ	-10.4428
ମଣିମା	-10.4429
ୁଥିଲେ	-10.4432
▁ୱେବସାଇଟ	-10.4437
▁ସେତିକି	-10.4438
▁ଅନନ୍ତ	-10.4456
୮୮	-10.4458
ary	-10.4461
ଗ୍ରେ	-10.4462
▁ନାଁରେ	-10.4464
ିଲ୍	-10.447
୭୦	-10.447
▁ରୋଗରେ	-10.4474
▁ପିଲାଟି	-10.449
.[	-10.4498
▁ପୃଥିବୀର	-10.4507
▁ସର୍ବୋ	-10.4517
▁key	-10.4519
▁Bengal	-10.4519
▁ବିଶ୍ଳେଷଣ	-10.4519
▁କେତୋଟି	-10.4519
▁ପ୍ରସିଦ୍ଧ	-10.4519
▁ବିସ୍ତୃତ	-10.4519
▁ହତ୍ୟାକାଣ୍ଡ	-10.4519
▁ନିର୍ମିତ	-10.4519
▁ଶନିବାର	-10.4519
▁ମୁଦ୍ରା	-10.4519
▁ସୋସିଆଲ	-10.4519
▁ଟୋକା	-10.452
▁process	-10.452
▁ପ୍ରତୀକ	-10.452
▁ବ୍ଯକ୍ତିଗତ	-10.452
ଳୁ	-10.452
ବିହାରୀ	-10.452
ຨ	-10.452
▁Nation	-10.452
▁କବେେ	-10.452
▁Free	-10.4521
▁ମହଙ୍ଗା	-10.4522
▁ନିବେଶ	-10.4523
କେଶ	-10.4523
▁ଯୋଗକରନ୍ତୁ	-10.4525
▁ନ୍ୟାୟ	-10.4525
▁ଘଡ଼ି	-10.4526
▁କଲ୍	-10.4526
▁ଶାନ୍ତ	-10.4527
urious	-10.4531
▁କହିଥିଲି	-10.4533
▁ପଢୁ	-10.4534
ଯାଇଥାଏ	-10.4535
▁ବେଶି	-10.4539
▁Of	-10.4545
▁Ex	-10.455
ଧୁ	-10.455
▁ଆକାରରେ	-10.4553
ub	-10.4554
▁ଖଣି	-10.4555
ସ୍ତୁ	-10.4557
▁ଉତ୍ପାଦନ	-10.4558
cover	-10.456
▁ଦିଏ	-10.456
ଦେବରାଜ	-10.456
mb	-10.4577
▁ଛା	-10.4578
/%	-10.458
ମଣ୍ଡ	-10.4582
DA	-10.4587
▁କ୍ରି	-10.4597
▁ପ୍ରକାଶକ	-10.4603
ହ୍ୟ	-10.4608
▁ସାଧୁ	-10.461
▁ସନ୍ଦେଶଗୁଡ଼ିକ	-10.461
▁ବଢ଼	-10.4612
▁ଚଳାଇବ	-10.4615
େଲେ	-10.4618
▁ସଫଳତାର	-10.4625
ପ୍ରଭା	-10.4627
q	-10.4644
▁୨୦୦୦	-10.4646
୮୦	-10.4648
ାଉଛି	-10.465
▁ଦେବାର	-10.4653
କୃଷ୍ଣ	-10.4655
▁ପୋଲିସ୍	-10.4656
ମାତ୍	-10.4656
58	-10.4657
▁[17	-10.4663
ଲିଆ	-10.4663
▁glo	-10.4665
ଳୟ	-10.4665
▁ମଇ	-10.4666
ive	-10.468
ସୂ	-10.4694
▁ହେଁ	-10.4697
ଙ୍ଗ୍	-10.471
ari	-10.4717
▁ଖରା	-10.4733
98	-10.4733
▁ଯୁବତୀ	-10.4736
▁ପୁର	-10.4737
ଧୂମପାନ	-10.4747
▁From	-10.4747
▁ଅନୁଷ୍ଠାନ	-10.4747
▁ଆୟୋଜିତ	-10.4747
▁ବୀଥିକା	-10.4747
▁ଶ୍ରୀନିବାସ	-10.4747
▁ଲଜ୍ଜା	-10.4747
▁ଗୁହାରି	-10.4747
mgiri	-10.4747
▁ବୁଣିବା	-10.4747
tarc	-10.4747
▁ଯିଶାଇୟ	-10.4747
▁ମନୋହର	-10.4747
▁ସମଗ୍ର	-10.4747
▁ମାଣିକ	-10.4748
▁ଦେବାଶିଷ	-10.4748
▁whose	-10.4749
େନ୍ଦ୍ର	-10.4753
▁ଉଠୁଛି	-10.4755
▁ଭ୍ରମଣ	-10.4755
▁ଭୁଲିପାରେ	-10.4756
ାଟିକାର	-10.4756
▁ଦିଅନ୍ତି	-10.4759
▁ଜିଓ	-10.4759
ଫୁଟା	-10.4764
▁ଫର	-10.4771
ନଗର	-10.4772
▁ବୋର୍ଡ	-10.4773
▁ପିଲାମାନେ	-10.4774
▁ସର୍ତ୍ତ	-10.4779
ଉଛନ୍ତି	-10.4779
ାଂଶ	-10.478
ଗୁଡିକର	-10.4783
▁ଆରାମ	-10.4786
▁q	-10.4793
▁ନ୍ୟୁ	-10.4798
ଏଣ୍ଟ	-10.48
ଵୁ	-10.48
ଟିକେ	-10.4802
ବାସୀ	-10.4805
IN	-10.4817
ୋକ	-10.4831
ଚ୍ଚ	-10.4835
▁Tra	-10.4842
▁ଦୋକାନରେ	-10.4845
800	-10.4849
ନ୍‍	-10.4856
nosaur	-10.486
▁ଟେକ	-10.4865
ଯାଇଥିଲା	-10.4865
▁Bi	-10.4875
59	-10.4881
▁Wi	-10.4886
Next	-10.4893
▁ୱି	-10.4894
ମିତି	-10.4897
▁ମୃତ୍ୟୁର	-10.4898
ନେଟ	-10.4908
▁ପାଏ	-10.4911
PL	-10.4919
org	-10.492
▁ଗୋଡ଼	-10.4926
▁ପ୍ରାଚୀନ	-10.4928
▁ଫାଇଲଗୁଡ଼ିକ	-10.4936
▁ରାଜୁ	-10.4946
ରାଓ	-10.4951
▁ପାରିଲା	-10.4955
ଲବ	-10.4969
ଦଶ	-10.497
▁35.	-10.4975
▁ever	-10.4977
▁ଗର୍ଭ	-10.4979
▁ଆଗାମୀ	-10.4979
▁ଗ୍ଲେଜ୍	-10.4979
▁ଢଙ୍ଗରେ	-10.4979
▁ସଚେତନ	-10.4979
▁ଉର୍ଦ୍ଧ	-10.4979
▁ପ୍ରେରକ	-10.4979
▁ଜର୍ମାନ	-10.4979
▁ଲୂକ	-10.4979
▁ଶ୍ରମିକ	-10.4979
୧୯୯୪	-10.4979
▁[...]	-10.498
▁ବ୍ୟାପକ	-10.498
▁ପୂର୍ବବର୍ତ୍ତୀ	-10.4981
ପୀଠ	-10.4981
ଥାଇପାରେ	-10.4982
▁ଖାଉଛନ୍ତି	-10.4984
▁ଆଚରଣ	-10.4985
-1/	-10.4988
▁ସକ୍ଷମ	-10.4989
▁app	-10.4989
▁ଧିରେ	-10.4989
▁ହେଲ୍	-10.499
ବୃତ୍ତି	-10.499
▁କହିଥାନ୍ତି	-10.499
୍ୱାଇନ୍	-10.4991
▁May	-10.4992
▁ଲକ୍ଷ୍ଯ	-10.4994
▁ହଜମ	-10.4995
▁ସାହସୀ	-10.4997
▁ମ୍ୟାଚ୍	-10.4999
ଖଣ୍ଡ	-10.5
▁ଲମ୍ବା	-10.5001
▁ଫେରିବ	-10.5001
ଗଲ	-10.5001
▁କରାଯାଉ	-10.5002
▁ତାଲିକାକୁ	-10.5003
cl	-10.5008
ଗିରି	-10.5008
▁ସାଜି	-10.501
▁?’’	-10.5015
▁Se	-10.5016
▁ସାହାଯ୍ୟରେ	-10.5018
▁Do	-10.5019
ପଡା	-10.502
▁୯ଟା	-10.5025
▁08:	-10.5032
ାଇଟ	-10.5038
▁କଂଗ୍ରେସର	-10.504
AS	-10.504
▁ପାଣିରେ	-10.5042
▁୨୯	-10.5047
▁ପାରିବେନି	-10.5049
▁ରହିବାକୁ	-10.505
▁ଆଣିବା	-10.5051
▁ଛେ	-10.5052
ଚଳ	-10.5057
▁ସ୍ଥାପିତ	-10.5061
ପର୍ଯ୍ୟ	-10.5061
▁ଦେବୁ	-10.5062
▁ଯୋଗାଇ	-10.507
▁ଖୋଜିବା	-10.5071
▁ବାଛ	-10.5094
୪୮	-10.5096
▁Man	-10.51
େଶ୍ଵର	-10.5111
ଗଡ଼	-10.5112
କିଆ	-10.5127
▁ପରିବାରର	-10.5142
ସସ	-10.5151
ach	-10.5153
62	-10.5159
▁ପଚାରୁ	-10.5176
ang	-10.5178
▁ଟାଇପ	-10.52
ିଥିଲେ	-10.5203
▁ଉପଯୋଗ	-10.5205
▁ମଣ୍ଡଳ	-10.5206
▁ଲୁହ	-10.5207
▁ଇଛା	-10.5208
ଙ୍ଘ	-10.5211
▁ଜରୁରୀ	-10.5213
▁ସାକ୍ଷାତ	-10.5214
ଜନକପୁରୀ	-10.5217
▁34-28-32	-10.5217
▁Economic	-10.5217
▁Science	-10.5217
▁September	-10.5217
▁number	-10.5217
▁ଅଣାଯାଇଅଛି	-10.5217
▁ଅନୁପୂରକ	-10.5217
▁କାର୍ତ୍ତିକ	-10.5217
▁ଗମ୍ଭୀର	-10.5217
▁ବିଜ୍ଞାପନ	-10.5217
▁ମନୁଷ୍ୟ	-10.5217
▁ସକ୍ରିଯ	-10.5217
▁ସାମାନ୍ୟ	-10.5217
▁ସିଂହାସନ	-10.5217
▁ଅଭିନୟ	-10.5217
▁ପାଣ୍ଡୁ	-10.5217
ଗୁରୁ	-10.5217
▁ଦୁହେଁ	-10.5217
▁ଡିଜିଟାଲ	-10.5218
▁କାରବାର	-10.5223
ୁଝିଲେ	-10.5233
▁ଡିଜି	-10.5239
▁କହୁଛୁ	-10.5241
▁ବିଚିତ୍ର	-10.5241
ମେଲ	-10.5246
ଆର୍‍	-10.5262
େକ୍ଟର	-10.5263
▁ବୃ	-10.527
▁ଜାଣିବେ	-10.527
▁ପ୍ରାୟେ	-10.5272
▁ଓଡିଶାରେ	-10.5272
▁TN	-10.5275
ୋପ	-10.5284
ହିନ୍ଦୀ	-10.5284
ca	-10.5287
ଣ୍ଟା	-10.5295
▁ଥିଲି	-10.5295
ଆଡେ	-10.5301
▁କଲଲ	-10.5301
ିଷ	-10.5304
▁ଭକ୍ତ	-10.5324
▁SC	-10.5331
▁ଦେଖୁ	-10.5333
ବ୍ୟା	-10.5339
ଘାତ	-10.534
har	-10.5352
ୁଲ	-10.5356
▁ପଡ଼ିବ	-10.5362
other	-10.5368
କିଛି	-10.5374
ition	-10.5375
▁ଘଟଣାର	-10.5379
▁ଫାର	-10.5382
ଆଲୋଚନା	-10.5388
ଯେଉଁ	-10.539
▁ଚର୍ଚ୍ଚାରେ	-10.5394
▁୪୦୦	-10.5404
ଯାକ	-10.5413
▁ଲୀନ	-10.5424
▁ୟେ	-10.5435
▁୧୦୦୦	-10.5449
▁ବଞ୍ଚ	-10.5449
ଚ୍ଛେଦ	-10.546
ନ୍ୟାସ	-10.5461
▁ସ୍ମାର୍ଟ	-10.5461
board	-10.5461
▁"{0}"	-10.5461
▁ଆନ୍ଦୋଳନ	-10.5461
▁ଦୃଶ୍ଯ	-10.5461
▁ପେଟ୍ରୋଲ	-10.5461
▁ବାଣିଜ୍ୟ	-10.5461
▁ରିହାତି	-10.5461
▁Center	-10.5461
source	-10.5461
▁ଭଲପାଏ	-10.5461
▁ସୁଦାମା	-10.5461
▁ଅସ୍ତ୍ର	-10.5461
▁ଭରସା	-10.5461
▁ଅସହାୟ	-10.5462
Select	-10.5462
▁code	-10.5462
▁ଅସ୍ଥି	-10.5463
▁ଯାତ୍ରୀ	-10.5464
▁ଲୋକସଭା	-10.5465
ାମସଙ୍ଗ	-10.5465
▁ରୋଡ୍	-10.5465
▁ସଂଗେ	-10.5466
▁called	-10.5466
▁ଅନ୍ତର୍ଗତ	-10.5471
▁ଦେଖିବ	-10.5474
▁ସହରକୁ	-10.5475
▁ପ୍ରଭୁଙ୍କର	-10.5477
୍ୟାପ	-10.5477
▁ଶାହା	-10.5478
▁୩୦୦	-10.5478
▁ଟାଣି	-10.5481
ଦିଆଯାଇଥିଲା	-10.5489
▁ଛାଡ଼ିବା	-10.5492
▁ଉଠିବା	-10.5497
56	-10.5497
▁ହବୋ	-10.5498
▁ଋଷି	-10.5499
▁ଆସନ	-10.55
୦୩	-10.55
ରିଫ	-10.551
▁ପଡ଼	-10.5517
ଦୂତଙ୍କୁ	-10.5526
ରିୟ	-10.5526
▁ମୂଳକ	-10.5529
▁ସାପ	-10.5529
▁କେଉଁମାନେ	-10.553
▁କୋଳ	-10.5541
▁ଖୁ	-10.5552
▁ବଜାର	-10.5557
bit	-10.5558
▁ଏଯାଏ	-10.5562
▁ପ୍ରାଥମିକ	-10.5564
▁ଭିତ୍ତି	-10.5569
ore	-10.5581
▁Mar	-10.5585
▁୪ଟି	-10.5587
▁ବାଣ୍ଡ	-10.5587
ସାବାସ	-10.5602
▁ବିଶ୍ୱକପ୍	-10.5603
ଳିଆ	-10.562
▁ପ୍ରେମରେ	-10.5623
▁ହୁଏତ	-10.5629
36	-10.5635
୨୮	-10.5635
own	-10.5637
ଶକ୍ତି	-10.5653
ଭୁତ	-10.5657
▁ଜାଣିଛ	-10.5665
▁ଶହ	-10.5666
▁୨୨	-10.5673
୩୨	-10.5694
oogle	-10.5709
ବନ୍ତ	-10.5709
▁ମିଳୁ	-10.571
▁Lifestyle	-10.5711
▁problem	-10.5711
▁variant	-10.5711
▁weekday	-10.5711
▁ଚ୍ୟାନେଲ	-10.5711
▁ପର୍ୟ୍ଯନ୍ତ	-10.5711
▁ବାର୍ଷିକ	-10.5711
▁ବିନ୍ଯାସ	-10.5711
▁ବିସ୍ଫୋରଣ	-10.5711
▁ସଶକ୍ତିକରଣ	-10.5711
▁ଇନ୍ଦ୍ରଙ୍କୁ	-10.5711
▁ପୃଥକ	-10.5711
Phone	-10.5711
▁ଧାଡ଼ି	-10.5711
▁ସୁରଭି	-10.5711
▁ପ୍ରତିଷ୍ଠା	-10.5711
▁ସଂସ୍କାର	-10.5711
▁କାରଖାନା	-10.5711
ମହାଶୟ	-10.5712
▁ବିରବଲ	-10.5712
▁ସେପଟେ	-10.5712
▁ଗର୍ଭସ୍ଥ	-10.5712
▁ଏତଲା	-10.5712
▁ବୃକ୍ଷ	-10.5714
▁plain	-10.5714
▁ଜିଲ୍ଲାପାଳ	-10.5715
▁ଦାତା	-10.5716
▁କୁକୁର	-10.5717
▁ପ୍ରସ୍ଥାନ	-10.5719
▁ଯାଉଥିବା	-10.5719
▁More	-10.572
▁ବିରାଟ	-10.572
ବାସୀମାନେ	-10.5723
ଲଙ୍କା	-10.5724
▁ସାହି	-10.5725
▁ମୁଦି	-10.5726
ob	-10.5726
▁ଟେଷ୍ଟ	-10.5726
▁କହୁଥିଲା	-10.5726
▁୬ରୁ	-10.5728
▁ବାତ୍ୟା	-10.5728
▁ଏନ୍‍	-10.5733
▁words	-10.5734
▁ShortName	-10.5739
▁ନେତାଙ୍କ	-10.574
/~	-10.574
▁କରିନଥିଲ	-10.5751
ପୁର୍ଣ୍ଣ	-10.5754
▁ଲଢି	-10.5758
▁କଣ୍ଠ	-10.576
ତମେ	-10.576
▁ମନୋଜ	-10.5763
▁53	-10.5773
ood	-10.5781
ong	-10.5785
ଯାଇଥିଲେ	-10.5788
▁ବୈଜୟନ୍ତ	-10.5801
ଦର୍	-10.5801
ିବୁ	-10.5804
ଯାଇପାରିବ	-10.5804
ଭୋ	-10.5812
ସତ	-10.5817
▁LongName	-10.5819
୯ଟି	-10.5822
nic	-10.5855
ବାଇ	-10.5857
▁ବେଦ	-10.5858
▁vi	-10.5858
ble	-10.5859
26	-10.5877
▁ସ୍ଥଳ	-10.5879
▁୨୦୧୪ରେ	-10.5882
▁ବ୍ଲକର	-10.5883
▁ଭୂତ	-10.5888
▁ସେଠି	-10.5888
ଯେପରିକି	-10.5902
ନିଶ୍ଚୟ	-10.5905
ପୂର୍ବ	-10.5906
▁ଜୁଲାଇ	-10.5912
ill	-10.5915
▁Be	-10.5917
ash	-10.5917
▁ପଢା	-10.592
ile	-10.5925
ଗ୍ର	-10.5932
ବେଶ	-10.5932
hat	-10.5933
▁ଅର୍ଥାତ	-10.5946
ନଥିଲେ	-10.5946
ନ୍ଥ	-10.5948
▁ରଚନ	-10.5952
▁ସତେଜ	-10.5953
▁ମ୍ୟାଚ	-10.5954
▁ପାଇବାକୁ	-10.596
▁tab	-10.5961
▁୩ଟି	-10.5961
▁ମସିହାର	-10.5962
Fi	-10.5964
▁03:	-10.5966
▁ଅଂଶଗ୍ରହଣ	-10.5967
ସଲାକମାଲନ	-10.5967
▁credit	-10.5967
▁ଖାଦ୍ଯ	-10.5967
▁ଗ୍ୟାଲକ୍ସୀ	-10.5967
▁ଦିଗବାରେଣି	-10.5967
▁ପରୀକ୍ଷଣ	-10.5967
▁ମୂଖ୍ୟ	-10.5967
▁ଲକ୍ଷ୍ମଣ	-10.5967
▁ହସ୍ପିଟାଲ	-10.5967
▁font	-10.5967
▁ଦର୍ଶାଇବା	-10.5967
▁ନୀରବ	-10.5967
▁ସଂକ୍ରମଣ	-10.5967
ବର୍ତୀ	-10.5968
▁ଅତିକ୍ରମ	-10.5968
▁ବୁଝୁ	-10.5968
▁3.30	-10.5968
▁୬ଟାରୁ	-10.5968
▁କଟାକ୍ଷ	-10.5968
▁ଶୁକ୍ରବାର	-10.5968
▁ରାଷ୍ଟ୍ରୀୟ	-10.5969
▁ଅଭିଯୁକ୍ତ	-10.5969
▁without	-10.5969
▁ଦିଆଯାଏ	-10.5969
▁କଠିନ	-10.5969
▁ସୋମବାର	-10.5969
▁ଆଇଲ୍ୟାଣ୍ଡ	-10.597
▁୨୦୧୭	-10.597
▁ଜବାବ	-10.597
▁09:	-10.5971
▁ଉପୟୋଗ	-10.5971
▁)1.	-10.5971
▁1950	-10.5971
▁ଗୁରୁତ୍ୱ	-10.5971
▁lab	-10.5972
▁ବୁଣା	-10.5974
▁set	-10.5975
▁ଲେଖିଥିଲେ	-10.5975
▁ପତ୍ରିକା	-10.5979
▁ଜିତୁ	-10.598
▁ତଥ୍ୟକୁ	-10.598
▁Your	-10.5982
▁ଛାଡିଦେଲା	-10.5983
▁ହୋଃ	-10.5987
▁ଜବତ	-10.5989
ପହ	-10.5991
▁ଆଧାରିତ	-10.5993
▁ଓଡ଼ିଶାକୁ	-10.5999
▁ନାଗ	-10.6003
ner	-10.6006
▁ବଞ୍ଚାଇ	-10.6009
ମୋର	-10.601
▁ପରିଣତ	-10.6013
▁ଛାଡିଦେ	-10.602
▁କିଣିବାକୁ	-10.6028
▁GNOME	-10.6033
▁ମାଗୁ	-10.6033
ଚିନ	-10.6034
▁ଧନୀ	-10.6036
ବୋଧ	-10.6039
▁ଭଦ୍ରକରେ	-10.6041
▁sp	-10.6042
▁୩୯	-10.6044
▁ସହରରେ	-10.6045
▁ବାପାଙ୍କ	-10.6053
ara	-10.6053
୍ଗ	-10.6055
୧୬	-10.6056
▁ଚିନି	-10.6057
▁ସଭ୍ୟ	-10.606
କାମ	-10.6061
▁ବିରକ୍ତ	-10.6062
ଲଟ	-10.6064
ବେଳ	-10.6067
ବିଧ	-10.6067
▁ମାରିଲା	-10.6067
▁new	-10.6072
ବତୀ	-10.6075
ଉଠି	-10.6076
୧୭	-10.6076
ଂଦ	-10.608
▁ଥିବେ	-10.6081
▁ବିଭାଗର	-10.6099
▁ଲାଇନ	-10.6101
▁ପଠନ	-10.6105
▁୨୮	-10.611
▁ସମର୍ପ	-10.6111
▁୬ଟି	-10.6113
ସମୟ	-10.6118
▁ଶୁଣିବାକୁ	-10.6123
ater	-10.6126
▁.”	-10.6133
▁ଶିଖି	-10.6137
▁ମାଗଣା	-10.6144
▁ଯୋଜନାକୁ	-10.6154
▁ଦିଗରେ	-10.6161
▁ଜାଣିବାକୁ	-10.6163
▁ବେଳକୁ	-10.6167
▁Gi	-10.617
87	-10.6176
ଇବେ	-10.6179
ଶ୍ୱାସ	-10.6201
ati	-10.6206
27	-10.6214
୍ତି	-10.6216
}	-10.6221
▁ମାନକ	-10.6224
▁ମଧ୍ଯକୁ	-10.6224
ଶୂ	-10.6231
▁ବାର୍ତ୍ତା	-10.6231
graph	-10.6231
▁ଅଭିଶାପ	-10.6231
▁ଉପକୂଳ	-10.6231
▁ଚଳଚ୍ଚିତ୍ର	-10.6231
▁ମାଲକାନଗିରି	-10.6231
▁ଯିହୋଶୂୟ	-10.6231
▁ମୁମ୍ବାଇ	-10.6231
▁ରୋଷେଇ	-10.6231
▁Ltd	-10.6231
▁ସିଞ୍ଚନ	-10.6231
▁ସମାଚାର	-10.6231
▁ବିଶାଳ	-10.6231
▁କିମ୍ୱା	-10.6231
▁ବୀମାଭୁକ୍ତ	-10.6231
▁ପାଗଳ	-10.6231
▁ସାରାଂଶ	-10.6232
▁ସଞ୍ଚୟ	-10.6232
▁ଦୁହିଁଙ୍କ	-10.6232
▁get	-10.6232
▁ଇଣ୍ଟର	-10.6233
▁ରୁହନ୍ତୁ	-10.6233
▁ହୋଟେଲ	-10.6233
ପରିସ୍ଥ	-10.6234
ସମାଶା	-10.6234
▁ଲଗାନ୍ତୁ	-10.6234
▁ଗୁରୁତର	-10.6235
▁ଯୋଗଦେବା	-10.6235
▁ଆକାଉଣ୍ଟ	-10.6236
▁ପ୍ରକ୍ସି	-10.6237
▁ତାଲିମ	-10.6238
▁LS	-10.6239
▁ଦାମଙ୍କ	-10.624
▁ହଜିଯାଇ	-10.624
▁ପ୍ଲାନ	-10.6243
▁୧୯୦	-10.6246
▁ଡକାୟ	-10.6246
▁Ho	-10.6248
▁କାଟୁ	-10.6249
ସୀଫ	-10.6251
▁Ep	-10.6254
ହାୟ	-10.6256
▁ଅମିତ	-10.6258
▁ରାଜପଥ	-10.6259
ome	-10.6259
▁ପାଠକ	-10.6262
vt	-10.6266
▁୪୫	-10.6266
▁ରଖିଲେ	-10.6266
▁100	-10.6268
▁ଗସ୍ତ	-10.6272
.......	-10.6276
box	-10.6279
ନେଲ	-10.6283
▁ସକାଳେ	-10.6294
▁ସୋମ	-10.6309
int	-10.631
▁ବାସ୍ତବରେ	-10.6311
▁ତୁମ୍ଭମାନଙ୍କର	-10.6311
▁ଶୁଣିଲେ	-10.6318
ବ୍ରତ	-10.6318
୦୮	-10.6323
▁ଶ୍ରେଣୀରେ	-10.6331
▁ବ୍ରହ୍ମ	-10.6338
▁51	-10.6342
▁ପୋକ	-10.6347
ଟେଲ	-10.6349
ଟ୍‍	-10.6365
▁ମନୋ	-10.6374
ଲ୍ଡ	-10.6389
port	-10.6397
▁ଫୁ	-10.6399
ଚିତ୍ର	-10.6405
▁ସନ୍ତାନକୁ	-10.6406
29	-10.6413
▁ମାନଙ୍କର	-10.6416
▁ଏହିସବୁ	-10.6416
▁New	-10.6423
ଲୋପ	-10.6432
▁ହେଲ	-10.6434
ଏକା	-10.6446
ଓଡ଼ିଶା	-10.6454
ଆଶ୍ଚର୍ଯ୍ୟ	-10.6454
ବହୁତ	-10.6455
▁ପାରିଲେ	-10.6464
33	-10.6471
PI	-10.6475
▁ଅପେକ୍ଷାରେ	-10.6481
"&	-10.6481
ଦିଗର	-10.6482
▁ଅଫ	-10.6493
▁ମଞ୍ଜୁ	-10.6497
ଜନିତ	-10.6499
ould	-10.6501
▁Empathy	-10.6501
▁ଅନୁଷ୍ଠିତ	-10.6501
▁ଉଦୟଗିରି	-10.6501
▁କ୍ଷୁଦ୍ର	-10.6501
▁ତିନୋଟି	-10.6501
▁ଧାର୍ମିକ	-10.6501
▁ପାର୍ଶ୍ୱପଟି	-10.6501
▁ମୃତ୍ଯୁ	-10.6501
▁ଶିକ୍ଷାର୍ଥୀ	-10.6501
▁ସମ୍ବଲପୁର	-10.6501
▁ସାଇକେଲ	-10.6501
▁ସ୍ଥାୟୀ	-10.6501
▁ହାଲରାଣଙ୍କ	-10.6501
▁ଶୂନ୍ୟ	-10.6501
ଥାଆନ୍ତି	-10.6501
▁ଅଯଥା	-10.6501
▁ତାମୁଜ	-10.6501
▁ଛାଣକ	-10.6501
▁ନାଲକୋ	-10.6501
▁ବାର୍ତ୍ତାଳାପ	-10.6501
▁ଟର୍ମିନାଲ	-10.6501
dress	-10.6501
▁very	-10.6501
▁ବିବିସି	-10.6501
▁ପ୍ରିୟଙ୍କା	-10.6502
ant	-10.6502
▁ବିଦ୍ୟାଳୟ	-10.6502
▁ଉଦ୍ୟୋଗ	-10.6502
▁ପକେଇ	-10.6503
▁file	-10.6503
▁ଧୋଇ	-10.6504
▁ସୂତ୍ର	-10.6505
▁ଢାଳି	-10.6505
ବସ୍ଥା	-10.6506
▁ମୁଭ୍	-10.6506
▁ସମ୍ବାଦ	-10.651
ିଟ୍	-10.6521
▁ପଢିବେ	-10.6523
ଗ୍ନ	-10.6524
▁କୂଳ	-10.6524
▁ରହିଛନ୍ତି	-10.6525
▁ରଚିତ	-10.6528
▁ବାହୁ	-10.6536
▁ସୁମ	-10.6536
ୋଇ	-10.6542
▁ବୋଧେ	-10.6545
▁ସମୀ	-10.6548
▁ଫାଟି	-10.655
▁ମିଶ	-10.6552
▁ହୋଇଗଲେ	-10.6562
ଧୂ	-10.6563
ାଯାଇଥିବା	-10.6567
▁କାଳେ	-10.657
ୀକରଣ	-10.6571
▁MS	-10.6572
▁ଆମ୍ଭମାନଙ୍କ	-10.6572
▁ସେଟିଙ୍ଗ	-10.6576
▁ଦର୍ଶନରେ	-10.6581
▁ଉତ୍ସବ	-10.6589
▁ଅନନ୍ତକାଳ	-10.6595
▁ଦୀପ	-10.6606
ଡିଏ	-10.6613
cent	-10.6619
ାବଳୀ	-10.6632
▁ମାନବ	-10.6642
ାକ୍ଷର	-10.6645
▁ଫିଟ	-10.6651
ଜଫ	-10.667
▁ଇଏ	-10.6673
▁ପ୍ରତ୍ୟ	-10.6688
ମ୍ପା	-10.6689
▁ଦୁଃଖର	-10.6694
େଷ୍ଟ	-10.6697
▁ବନ୍ଦୀ	-10.6704
ପ୍ରସାଦ	-10.6739
କାହିଁକି	-10.6741
ସନ୍ତ	-10.6744
▁ଅଧୀ	-10.6745
ନାରାୟଣ	-10.6745
ତଳେ	-10.6752
ତ୍ତ୍ୱ	-10.6755
▁line	-10.6756
ୋଦ	-10.6757
ave	-10.6758
ଟ୍ଟା	-10.6767
▁one	-10.6772
▁ଖ୍ରୀଷ୍ଟ	-10.6776
▁ନିର୍ଭର	-10.6778
▁ସ୍ୱୟଂ	-10.6779
ful	-10.6779
Wikipedia	-10.6779
▁110058	-10.6779
▁license	-10.6779
▁ଅନ୍ତରାପୃଷ୍ଠ	-10.6779
▁ପର୍ଯ୍ୟଟନ	-10.6779
▁ଭୟଭୀତ	-10.6779
▁ସାହାୟ୍ଯ	-10.6779
▁ସ୍ରୁଷ୍ଟି	-10.6779
▁ୱିଜେଟ	-10.6779
▁Bank	-10.6779
▁ନିର୍ଣ୍ଣୟ	-10.6779
▁ପରମପିତା	-10.6779
▁ଏକପ୍ରକାର	-10.6779
▁ପିଆଜ	-10.6779
▁ବୋଧହୁଏ	-10.6779
RIL	-10.6779
▁ଯୋଡ଼ି	-10.6781
▁ସଂପୂର୍ଣ୍ଣ	-10.6782
▁ଏଇଠି	-10.6784
▁01:	-10.6785
▁Jan	-10.6787
▁ଶିମାନେ	-10.6788
୍ୱାମି	-10.6788
ଚାଲି	-10.679
▁ସେଇଆ	-10.6791
▁ପରିଶ୍ରମ	-10.6791
VO	-10.6794
▁କେଉଁଠୁ	-10.6796
▁ଭାବୁଛି	-10.6798
05	-10.6798
▁ଦେଖାନ୍ତୁ	-10.6798
▁ଧଳା	-10.6799
▁Bo	-10.6802
▁ପ୍ରଭାବିତ	-10.6804
େଇବାକୁ	-10.6808
▁ବନ୍ଧା	-10.6818
ix	-10.682
nti	-10.6824
▁news	-10.6826
▁ବିଶ୍ଵ	-10.6827
▁ବାହ୍	-10.6831
330	-10.6834
▁କରିନାହାନ୍ତି	-10.6835
▁ସଂଘ	-10.6838
mm	-10.6841
▁ଆପଣମାନେ	-10.6842
▁ସ୍କ୍ରିନ	-10.6845
▁ଝିଅକୁ	-10.6851
▁ଏହାଦ୍ୱାରା	-10.6857
▁ଯ଼	-10.6861
▁ଛାଡ଼	-10.6879
ତ୍ସ	-10.6894
▁ସମାନଙ୍କେର	-10.6894
▁ଦୂତ	-10.6896
▁ଫିଲ୍	-10.6905
ଂଡ	-10.6906
▁କାନ୍ଦୁଛ	-10.6908
▁On	-10.6913
ନିଷ୍ଠ	-10.6914
▁ପାଇଲ	-10.692
88	-10.6926
ଲ୍ଲୋ	-10.6927
▁ଅଞ୍ଚଳକୁ	-10.6927
▁ଫସଲର	-10.6931
ଞ୍ଜି	-10.6937
▁୫୫	-10.6947
▁ବାସ୍ତବ	-10.6964
▁୮୦୦	-10.6967
▁ନେବାକୁ	-10.6973
▁ବାଘ	-10.6977
▁ଚଢ	-10.6978
▁ଅନୁଲଗ୍ନ	-10.6981
ଶିଷ	-10.6986
କଳା	-10.6989
▁ମିଡିଆ	-10.6989
▁AD	-10.6996
▁ଭୋକ	-10.6996
▁କ୍ଷେତ୍ରକୁ	-10.7
▁ବ୍ଲ	-10.7
ତାପ	-10.7019
bi	-10.702
view	-10.7036
ତାହା	-10.7038
▁ପ୍ରେମିକ	-10.704
▁ଡିସ୍କକୁ	-10.704
▁ସମସ୍ୟାରୁ	-10.7041
ବଲ୍	-10.7048
▁ଛାତ୍ରଛାତ୍ରୀ	-10.7052
▁[23	-10.7053
▁best	-10.7058
;{0}	-10.7064
html	-10.7064
ī	-10.7064
▁Hindi	-10.7064
▁column	-10.7064
▁ଆଫ୍ରିକା	-10.7064
▁ଚ୍ୟାଲେଞ୍ଜ	-10.7064
▁ଛତିଶଗଡ	-10.7064
▁ନିଷ୍ପତି	-10.7064
▁ସ୍ଟୁଡେଣ୍ଟ	-10.7064
▁Reply	-10.7064
▁ଇସ୍ରାଏଲ	-10.7064
▁କର୍ତ୍ତୃପକ୍ଷ	-10.7064
▁ଦୁଃସାହସ	-10.7064
▁ବିଷ୍ଣୁ	-10.7064
▁ମୁହୂର୍ତ୍ତ	-10.7064
▁ଯନ୍ତ୍ରପାତି	-10.7064
▁ହିତାଧିକାରୀ	-10.7064
▁should	-10.7064
▁ମାନ୍ୟତା	-10.7064
Other	-10.7065
କରିନ୍ଥୀୟ	-10.7065
▁ତୀବ୍ର	-10.7065
▁ଆକର୍ଷ	-10.7065
▁ତେଣେ	-10.7065
▁Word	-10.7065
▁ରଘୁନାଥ	-10.7065
▁ମେସେଜ	-10.7065
▁ଚୁକ୍ତି	-10.7065
ocket	-10.7066
▁File	-10.7068
▁Note	-10.7069
▁ରାଜ୍ୟପାଳ	-10.707
▁ଏଫ୍	-10.7072
▁କ୍ରୋଧ	-10.7073
▁ରାଜି	-10.7074
▁କହିସାରି	-10.7077
▁IP	-10.7077
▁ରିଲିଜ୍	-10.7079
▁ସଙ୍କଟ	-10.7082
▁କମଳା	-10.7084
▁୩୦୦୦	-10.7087
▁ଭାବନା	-10.7089
▁ପୋଷଣ	-10.709
85	-10.7094
▁ଡ଼ାକ	-10.71
ବିବାହ	-10.7111
▁MB	-10.7115
▁ସୌମ୍ୟା	-10.7117
▁ବିକାଶକାରୀ	-10.7118
▁37	-10.7119
ZH	-10.7121
ର୍ତ୍ତକ	-10.7125
▁ପୁରଣ	-10.7125
▁ଜନିତ	-10.7134
▁ଏପରିକି	-10.7146
▁ଗ୍ର	-10.7146
▁ମୋହର	-10.7148
ଟିଆ	-10.715
▁ମନ୍ଦ	-10.7151
▁ବିଦେଶ	-10.7152
▁ଢଳ	-10.7155
▁ଦୋ	-10.7157
▁Lo	-10.7158
▁ଆଧାରରେ	-10.7164
▁ଉତ	-10.7172
ୁଡି	-10.7196
ଭାଷ	-10.7204
▁we	-10.7206
▁କହିଥ	-10.7211
▁ଏଚ	-10.7213
ହିଲଲ	-10.722
▁ଆମ୍ଭର	-10.723
▁ଟପ	-10.7244
▁ଭୋ	-10.7256
▁୩୫୦	-10.7259
ଭେଦ	-10.7259
ran	-10.7259
ମାଳ	-10.7263
▁ଆଚାର୍ଯ୍ୟ	-10.7265
▁ଚଳିବ	-10.7275
▁ସାଥି	-10.7281
ଗ୍ରାମ	-10.7293
ove	-10.7296
86	-10.7321
ଦର୍ଶନ	-10.7329
37	-10.7334
ାଦି	-10.7338
କରୁଅଛି	-10.7344
ଯୀଶୁଙ୍କ	-10.7345
୯୫	-10.7347
alway	-10.7357
ଅପ	-10.7358
୯୬	-10.7358
ଅପ୍ରତ୍ୟାଶିତ	-10.7359
▁two	-10.7359
▁ଅନୁକ୍ରମଣିକା	-10.7359
▁କ୍ଷତିପୂରଣ	-10.7359
▁ଘୃଣା	-10.7359
▁ପଞ୍ଜିକରଣ	-10.7359
▁ମାଧ୍ଯମ	-10.7359
▁ଲଢେଇ	-10.7359
ଔ	-10.7359
▁ଯାଜପୁର	-10.7359
▁ଘାରିଛି	-10.7359
▁ରୂପାନ୍ତର	-10.7359
▁ପୀଡିତ	-10.7359
▁ଦ୍ରବ୍ୟ	-10.7359
▁ପାହାଡ଼	-10.7359
▁ସଂଘର୍ଷ	-10.7359
▁ଦାଦା	-10.7359
▁କମିଟି	-10.7361
▁ପ୍ରତ୍ୟକ୍ଷ	-10.7362
▁ଚାହୁଁଥିଲେ	-10.7362
▁ବିସ୍ତାରିତ	-10.7362
▁ଯାଦୁ	-10.7362
time	-10.7363
▁2012	-10.7365
List	-10.7365
▁ଉଷା	-10.7365
▁ହେକ୍ଟର	-10.7368
\@	-10.7372
mō	-10.7374
ଭୂତ	-10.7374
▁ଯି	-10.7378
▁ବିବରଣ	-10.7386
04	-10.7389
▁ଦେଖିଥିଲେ	-10.739
▁ପାଇଛନ୍ତି	-10.7391
tmp	-10.7392
▁HD	-10.7394
▁ଛୁଇଁବା	-10.7394
କୀଟ	-10.7395
▁ସମ୍ପର୍କଗୁଡ଼ିକୁ	-10.7396
▁ହେଇଛି	-10.7396
▁KDED	-10.74
ବର୍ତ୍ତୀ	-10.7407
▁ki	-10.741
▁ଛଟ	-10.7412
ଏତେ	-10.7422
▁ସଭାପତି	-10.7423
ଅନ	-10.7428
ଦେବି	-10.7428
▁ଭାବୁଥି	-10.7434
37]	-10.7437
ସତରେ	-10.7439
▁us	-10.7444
▁ତହିଁର	-10.7447
ଥାଉ	-10.7451
ING	-10.7455
▁ଶୋଇବା	-10.7456
▁39	-10.746
▁ବିଶ୍ୱକପ	-10.7489
▁ମଣିମା	-10.7495
▁ଲୋକଟା	-10.7498
▁କାଶ	-10.7499
ଜଳ	-10.7501
▁ଏଥି	-10.7509
▁ଜାଣିନି	-10.7511
▁କରିଛୁ	-10.7514
ବାଦୀ	-10.7541
▁ଫେସ୍	-10.7548
▁ଉଦ୍ଦେଶ୍ୟରେ	-10.7556
▁ବାବୁଙ୍କ	-10.7566
▁ପାଟିରେ	-10.7573
▁43	-10.7576
ଧାରଣ	-10.7586
▁ଦର୍ଶନ	-10.7593
▁ଉଡ	-10.7602
କକ୍ସ୍ଟ	-10.7603
ସ୍ଵ	-10.7607
ଭାବରେ	-10.7608
08	-10.7616
▁କୋଣ	-10.762
▁ବିଜେଡିର	-10.7629
▁ଭଦ୍ରକ	-10.7637
▁ଡକାୟତ	-10.7644
India	-10.7644
ପ୍ରକାଶ	-10.7649
ପ୍ରଭୁ	-10.7654
▁ଯାଉଛ	-10.7656
None	-10.7658
▁ସ୍ମାରକ	-10.7661
Search	-10.7662
International	-10.7662
youtube	-10.7662
▁Brasero	-10.7662
▁February	-10.7662
▁LDAP	-10.7662
▁Manthan	-10.7662
▁ଅତ୍ଯନ୍ତ	-10.7662
▁ଡେସ୍କଟପ	-10.7662
▁ପରିତ୍ୟାଗ	-10.7662
▁ବର୍ତମାନ	-10.7662
▁ରାଜଧାନୀ	-10.7662
▁ରାୟଗଡା	-10.7662
▁ରୋମୀୟ	-10.7662
▁୧୯୬୭	-10.7662
▁ପ୍ରଦତ୍ତ	-10.7662
▁ଟ୍ରାନସ	-10.7662
▁ଭୟାନକ	-10.7662
▁ସ୍ୱତନ୍ତ୍ରଚର	-10.7662
▁ଅଜ୍ଞତା	-10.7662
▁ଭତ୍ତା	-10.7662
▁କମ୍ପାନି	-10.7662
▁ମାର୍ଗ	-10.7662
▁etc	-10.7662
▁ଲିଖନ	-10.7662
▁ଜାପାନ	-10.7662
ବାହିନୀ	-10.7664
▁ବଙ୍ଗଳା	-10.7664
▁ସୁଟିଂ	-10.7667
▁ନିବାସୀ	-10.7667
▁ସାମ୍	-10.7667
▁ପ୍ରତିଜ୍ଞା	-10.7669
▁Mid	-10.7669
▁ବିରତି	-10.7669
▁ଗ୍ଭଲି	-10.767
▁ମିଳିଥାଏ	-10.767
ଆଉଥରେ	-10.7673
▁ନିର୍ଦ୍ଦେଶକ	-10.7673
ଖୁସା	-10.7675
▁ଲଞ୍ଚ	-10.7675
▁ସମାଲୋଚନା	-10.7675
▁ଜନ୍ମଦିନ	-10.7679
▁ଥେ	-10.7681
▁ବଳକା	-10.7685
ଯାଉଥିଲା	-10.7685
ଦିଏ	-10.7685
▁my	-10.7688
ଆଛା	-10.7689
▁ଯୋଗ୍ୟତା	-10.7691
▁କେଁ	-10.7696
ଯାଇଥିବା	-10.7698
▁ଫୋଲଡରଗୁଡ଼ିକୁ	-10.7709
▁ଦିଆଯିବା	-10.771
▁ଭାଇରାଲ୍	-10.7714
କିନ୍ତୁ	-10.7715
ଅଛ	-10.7729
ଖୀ	-10.7732
▁କ୍ଲା	-10.7735
ଇେ	-10.774
▁ନଥିଲି	-10.7743
▁ଜିଲ୍ଲାରେ	-10.7743
ପ୍ରେସ୍	-10.7746
▁ବ୍ରଣ	-10.7746
ମୁଣ୍ଡ	-10.7748
▁ପରିବାରକୁ	-10.7749
ଦାମ	-10.7756
▁୩୮	-10.7762
▁ଯେପରିକି	-10.7763
▁ବଜାରରେ	-10.7768
ali	-10.7768
▁କୁମାରୀ	-10.7779
User	-10.778
▁ଦେଖୁଛ	-10.7782
▁ଡାକ୍ତରଖାନାରେ	-10.7784
ଇନ୍	-10.7786
୦୫	-10.7803
▁ଓଲଟା	-10.7809
ରାଣୀ	-10.781
▁ଜଳି	-10.7814
▁ପରିସ୍ଥିତିରେ	-10.7821
ise	-10.7822
୨୧	-10.7834
ଟୀ	-10.7835
▁ଛାତିରେ	-10.7843
▁ପ୍ରସଙ୍ଗକୁ	-10.7846
ବ୍ଦ	-10.7848
▁ଜାଗ	-10.7871
ଡାଇ	-10.7872
ଦୁର୍	-10.7875
▁ଲୋଡ	-10.7878
▁ବଦ	-10.7879
74	-10.7882
▁ବିଶ୍ୱର	-10.7897
ୃତି	-10.7903
▁ତୁମ୍ଭମାନଙ୍କ	-10.7908
ମନ୍ତ	-10.7918
hu	-10.792
▁କିଣିବା	-10.7922
ମୂଳ	-10.7931
ୁହ	-10.7933
▁ଇମେଲ୍	-10.7935
▁2017	-10.7943
ାଇଜ	-10.7947
▁ରହୁ	-10.7949
▁ଟେଲି	-10.795
ାଧୀନ	-10.7952
pur	-10.7955
▁ସ୍ନେହ	-10.7956
୯୯	-10.7957
ଞ	-10.7964
▁ଖୋଲିବ	-10.7972
▁under	-10.7974
Calendar	-10.7974
▁provide	-10.7974
▁yellow	-10.7974
▁ଅନୁସନ୍ଧାନ	-10.7974
▁ଅନ୍ଯାନ୍ଯ	-10.7974
▁ଆଶୀର୍ବାଦ	-10.7974
▁ଡିଫଲ୍ଟ	-10.7974
▁ପୁନର୍ଧାରଣ	-10.7974
▁ଶକ୍ତିଶାଳୀ	-10.7974
▁ସିଲିଣ୍ଡର	-10.7974
▁ସୁସ୍ମିତା	-10.7974
▁ଦିଶିଲେ	-10.7974
▁ବିଭାଜନ	-10.7974
▁ସଙ୍ଗୀତ	-10.7974
ମାବାସ୍ୟା	-10.7974
▁ଚତୁର୍ଥ	-10.7974
UTF	-10.7974
▁ଧୋନି	-10.7974
▁ଲାଟିନ	-10.7974
୧୯୭୩	-10.7974
▁କୂଅ	-10.7974
▁ଏକତ୍ରିତ	-10.7974
▁ଘୋଡା	-10.7974
▁ଜଟିଳ	-10.7974
▁done	-10.7974
▁Who	-10.7975
▁ଗୁଗୁଲ	-10.7975
ଉଛ	-10.7975
▁ସେଥିରୁ	-10.7975
▁କିଣିଲେ	-10.7975
▁ତୃଟି	-10.7976
▁ବାଇବଲ	-10.7976
▁ସଂଗ୍ରାମ	-10.7976
ative	-10.7977
▁ସୀତା	-10.7978
▁ଗାଈ	-10.798
▁ଯାକୁବଙ୍କ	-10.798
▁ଇଂରାଜୀରେ	-10.7982
▁ମୋବାଇଲ୍	-10.7982
▁୫ଜଣ	-10.7983
Data	-10.7983
▁ପ୍ରବଳ	-10.7983
▁ଯେଉଁଠାରେ	-10.7983
▁ଆସୁଛନ୍ତି	-10.7984
▁ଆସୁଥିବା	-10.7984
▁ପ୍ରାରମ୍ଭ	-10.7985
▁ଯେତବେେଳେ	-10.7986
▁ଯୋଗଦାନ	-10.7987
▁ବିଦେଶୀ	-10.7989
▁ଭେଟିଲି	-10.7992
▁ହେଇଥିଲେ	-10.7993
ୁପ	-10.7994
ବିଭାଗ	-10.7998
ପଡୁ	-10.7999
▁ଉପକାର	-10.8
▁ବିନ୍ଦୁ	-10.8
▁ଡିସ୍କରେ	-10.8001
ୋଡ଼	-10.8006
▁Vi	-10.8014
ଶୋଧ	-10.8016
▁ଆଲୋକ	-10.8016
▁My	-10.8016
▁ଗ୍ରାମ୍	-10.8019
▁ଲଗାଇବା	-10.8021
ନିୟମ	-10.8022
:39	-10.8022
▁ବଛା	-10.8023
▁ନେଇଥିଲେ	-10.8026
ଣ୍ଡେ	-10.8034
▁ମୋଦୀ	-10.8037
େଣ୍ଟ	-10.8038
୤”	-10.8041
▁ତାଠୁ	-10.8042
ଟର୍	-10.8047
▁ବସ୍ତୁକୁ	-10.8048
ାମ୍ନୀ	-10.8049
ସ୍ତରୀୟ	-10.8049
▁When	-10.8054
▁ଡବ୍ଲୁ	-10.8054
ଏଗୁଡ଼ିକୁ	-10.8056
▁କ୍ଲିପବୋର୍ଡ	-10.8057
ଲଡ	-10.806
▁ଡ୍ରାଇଭର	-10.8062
ନଥାଏ	-10.8069
▁ୱେ	-10.8073
▁ରାଜୁକୁ	-10.8073
▁୨୦୧୯ରେ	-10.8076
▁Or	-10.8076
ଘ୍ର	-10.8081
▁ପୃଷ୍ଠାଗୁଡ଼ିକ	-10.8096
ାଧ	-10.8105
▁ବ୍ୟକ୍ତିଙ୍କୁ	-10.8106
▁ନାହା	-10.8107
ସ୍ପର୍ଶ	-10.8113
rg	-10.8115
ବଦ	-10.8116
▁Description	-10.8118
▁ଭୂଲ	-10.812
▁ଛାର	-10.8127
ାଉଛନ୍ତି	-10.8129
କୋଣ	-10.8132
▁ଖିର	-10.8132
▁has	-10.8141
▁ପ୍ରକ୍ରିୟାରେ	-10.8142
ips	-10.8145
▁ମନ୍ଦିରର	-10.8152
▁ne	-10.8152
ଖିଆ	-10.8153
uch	-10.8155
▁ଦେଶକୁ	-10.8161
▁ଜଗ	-10.8168
CE	-10.8175
▁ଦିଲ୍ଲୀପଙ୍କ	-10.8181
▁୨୦୧୨ରେ	-10.8198
▁ପବନର	-10.82
▁ଫ୍ର	-10.8203
Articles	-10.8205
▁ବୈଠକ	-10.821
▁ଆକାଶରେ	-10.8212
▁ସହରର	-10.8218
▁ସତ୍	-10.8222
▁ଜୋର	-10.8225
▁ଇସ୍	-10.8231
ାଧିକାର	-10.8231
▁ପିତାଙ୍କ	-10.8238
ଦୂର	-10.8239
riv	-10.8245
▁ପ୍ରସଙ୍ଗରେ	-10.8258
ଦ୍ଦ	-10.8261
ରୁଛନ୍ତି	-10.8263
୬୬	-10.8266
▁ଆରବ	-10.8268
▁ଭବିଷ୍ୟ	-10.8274
▁୫୬	-10.8276
▁ଷ୍ଟେସନ	-10.8281
▁ସ୍ଥାନାନ୍ତର	-10.829
▁ସ୍ବାସ୍ଥ୍ୟ	-10.8297
August	-10.8297
ୋଲିଟିକ	-10.8297
▁License	-10.8297
▁Trading	-10.8297
▁Version	-10.8297
▁Women	-10.8297
▁ଗବେଷଣା	-10.8297
▁ଚମତ୍କାର	-10.8297
▁ଚାରିପଟେ	-10.8297
▁ଚିତ୍ରସଂକେତ	-10.8297
▁ଟାର୍ଗେଟ	-10.8297
▁ନିଷ୍ପାଦନ	-10.8297
▁ମାଓବାଦୀ	-10.8297
▁ସମ୍ପୃକ୍ତ	-10.8297
▁ହିତୋପଦେଶ	-10.8297
ଶିତିକଣ୍ଠ	-10.8297
▁ନିଉରୋ	-10.8297
▁ପାକିସ୍ଥାନ	-10.8297
▁ଜାଗତିକ	-10.8297
▁ସନ୍ତୋଷ	-10.8297
▁ଯମୁନା	-10.8297
▁ରମେଶ	-10.8297
sfx	-10.8297
ଥାନ୍ତେ	-10.8297
▁ଗୁରୁତ୍ୱପୂର୍ଣ୍ଣ	-10.8297
▁ସମୀକ୍ଷା	-10.8297
▁ମରିବାକୁ	-10.8297
▁information	-10.8297
▁ଅମଳ	-10.8297
▁ଟିକସ	-10.8297
▁Price	-10.8298
▁kind	-10.8298
▁online	-10.8298
▁what	-10.8298
▁ଆଡକୁ	-10.8298
▁ଗ୍ଲୁକ	-10.8298
▁୦୬୭	-10.8298
▁ଘୁଞ୍ଚାନ୍ତୁ	-10.8299
▁ସେଠାକୁ	-10.83
ବଣ୍ଟନ	-10.83
▁ତୈଳ	-10.8301
▁data	-10.8301
▁ଯୋଡା	-10.8301
▁ଆଲବମ	-10.8302
▁କଭର୍‍	-10.8302
▁ପାଟ	-10.8303
ଚାଲନ୍ତୁ	-10.8304
▁2010	-10.8304
ନାହାଁନ୍ତି	-10.8304
▁ଦେଖାଯାଉଛି	-10.8304
▁ଆଣିଲୁ	-10.8307
less	-10.8308
ଓଡ଼ିଆ	-10.8308
▁ଅଟକାଇ	-10.8309
▁ଲାଗିଥାଏ	-10.8311
Na	-10.8311
▁ଗଙ୍ଗା	-10.8316
▁ଗ୍ରହଣକର୍ତ୍ତା	-10.8316
ଦୁଇ	-10.8321
▁ଅଧିକାରୀମାନେ	-10.8323
▁ଚାହୁଁଛି	-10.8324
୮୬	-10.8325
▁ଆସିଥିଲା	-10.8327
▁ଦୋଷୀ	-10.833
▁ସାଧନା	-10.833
▁ଫିସ୍	-10.8331
▁ଏନେଇ	-10.8331
▁୨୫୦	-10.8338
▁ପଡ଼ିଲେ	-10.8339
ike	-10.8349
▁ଘୋଡ଼ା	-10.835
▁ବାରଣ	-10.8355
▁ହୋଇଥିବ	-10.8355
▁ୟି	-10.8358
▁କଣ୍ଟା	-10.8359
▁ଖୋଲିଲା	-10.8362
ୁଡ଼ି	-10.8363
▁କରିପାରିବି	-10.8364
▁ହେବାପରେ	-10.8368
▁ଊ	-10.8368
▁ତତଃ	-10.8377
ଖରା	-10.8381
▁ପାହ୍ୟା	-10.8391
▁so	-10.8391
କ୍ଷମ	-10.8397
▁ଅନ୍ୟମାନଙ୍କ	-10.8403
▁ପିଇ	-10.8412
▁ରୋଗର	-10.8445
▁ଇଟା	-10.8447
▁ଦେଲ	-10.8448
▁ଡାଲି	-10.8449
▁46	-10.8456
▁ଦାମ	-10.846
▁ମୁଖ୍ୟମନ୍ତ୍ରୀଙ୍କ	-10.8463
▁ଶିଖିଛ	-10.8474
ବର୍ତ୍ତନ	-10.8481
▁୨୦୦୫	-10.8495
DL	-10.8512
▁ଡ୍ରାଇଭ	-10.8521
୩୪	-10.8524
ଶମ	-10.8527
▁ବଉ	-10.8527
ଭ୍ୟ	-10.8529
▁ଦେଖାଇବ	-10.8539
ard	-10.8543
▁ଜଗି	-10.8552
▁ପ୍ରେସ	-10.8557
ର୍ଷ	-10.8573
▁ଦିଲ୍ଲୀରେ	-10.858
▁ଉପଭୋକ୍ତା	-10.8581
▁ହିରୋ	-10.8591
▁ବୈଜୟନ୍ତଙ୍କ	-10.8594
▁୫୮	-10.8597
▁କମ୍ପ୍ୟୁଟର	-10.8608
▁୨୦୧୮	-10.8613
▁ରଖୁ	-10.8621
▁ବାକ୍ଯ	-10.8625
▁ବ୍ଯକ୍ତି	-10.8629
▁method	-10.863
ଅପରାହ୍ନ	-10.863
▁Dharitri	-10.863
▁Laksh	-10.863
▁Political	-10.863
▁Public	-10.863
▁Spell	-10.863
▁character	-10.863
▁heaven	-10.863
▁joystick	-10.863
▁ଐତିହାସିକ	-10.863
▁କୁମ୍ଭୀର	-10.863
▁କୃତଜ୍ଞତା	-10.863
▁ଗୁଜରାଟ	-10.863
▁ଜଗନ୍ନାଥ	-10.863
▁ଜାନୁଆରୀ	-10.863
▁ପ୍ରଫେସର	-10.863
▁ବୁଧବାର	-10.863
▁ମେଣ୍ଢା	-10.863
▁ରାଉରକେଲା	-10.863
▁ଶୁଳ୍କ	-10.863
▁୧୯୭୪	-10.863
🙏🙏🙏🙏🙏🙏🙏🙏🙏🙏🙏🙏🙏🙏	-10.863
ERV	-10.863
ସୌନ୍ଦର୍ଯ୍ୟ	-10.863
▁GNU	-10.863
▁ନମସ୍କାର	-10.863
▁ଦଶହରା	-10.863
▁ମାଥିଉ	-10.863
▁ସିନ୍ଧୁ	-10.863
▁ସ୍ୱୀକାର	-10.863
▁ହିଂସା	-10.863
▁[22:	-10.863
▁ବେତାଳ	-10.863
▁SSL	-10.863
▁section	-10.863
▁ଦ୍ୱନ୍ଦ	-10.863
▁ସ୍ୱାସ୍ଥ୍ୟସେବା	-10.863
▁textbox	-10.863
che	-10.8631
▁ସଂପତ୍ତି	-10.8631
▁ବକ୍ତା	-10.8631
▁ନିରଞ୍ଜନ	-10.8632
▁ସ୍ନାନ	-10.8632
▁long	-10.8634
▁comment	-10.8634
▁ପ୍ରତାପ	-10.8636
▁ନାଟକ	-10.8636
▁ପ୍ରୋତ୍ସାହନ	-10.8637
▁ଶୁଣନ୍ତୁ	-10.8638
ବାବାଙ୍କ	-10.8638
▁ଅପରେସନ	-10.864
▁ଶିବିର	-10.8641
▁ପଦା	-10.8641
"}	-10.8642
▁distribut	-10.8642
▁ପେଜ୍	-10.8642
▁ଲିଲି	-10.8644
ଡ଼ିଆ	-10.8644
▁ହଜାରରୁ	-10.8648
▁ସିଧା	-10.8648
ମାଧବ	-10.8648
ହିନ	-10.8651
▁ପିଇଲେ	-10.8655
▁ବର୍ଷୀୟା	-10.8655
▁date	-10.8655
▁ଦବୋ	-10.8656
▁ପିତର	-10.8657
▁ଯାହାଦ୍ୱାରା	-10.8657
୍ୱେ	-10.8658
ୂଲ	-10.8663
▁ବ୍ଲଗ	-10.8664
▁ଗାଁକୁ	-10.8668
▁Mea	-10.8672
▁ହୋଷ୍ଟ	-10.8674
▁ପ୍ରକୃତି	-10.8677
▁ପଡେ	-10.8679
▁ଭଡା	-10.8679
▁ପ୍ରତିକାର	-10.868
▁କରିଦେଲେ	-10.8681
▁And	-10.8682
▁ଅସଲ	-10.8695
ଯିହୂଦୀମାନଙ୍କ	-10.8704
ୃଷ୍ଟି	-10.8728
▁ମାଗଣାରେ	-10.8741
ଚ୍ଛା	-10.8742
▁ଦେଶୀ	-10.8743
▁ଗେହ	-10.8753
ରାଜା	-10.8775
▁ଗ୍ଭ	-10.8777
ରୁଦ୍ର	-10.8786
▁ଅଗଷ୍ଟରେ	-10.8789
▁card	-10.879
▁କାହାରି	-10.8797
▁86	-10.88
୬୦	-10.8808
▁ପାରିବୁ	-10.881
ଭର୍	-10.8813
ମାତ୍ର	-10.8817
▁ଷ୍ଟେ	-10.8817
▁ଲୁଚି	-10.8822
ବାସୀଙ୍କ	-10.8823
▁ଖାଉ	-10.8831
elet	-10.8836
▁ପ୍ରୟୋଗଗୁଡ଼ିକ	-10.8837
go	-10.8859
ନ୍ଦୁ	-10.8873
▁ସାଇନ	-10.8884
ଗମ	-10.8888
▁୧୯୫୨	-10.889
ୟସ	-10.8895
ph	-10.89
▁ଖେଳି	-10.8905
▁ତୁଳନା	-10.8914
▁୧୨୦	-10.892
ମୁଖ	-10.8925
▁ପ୍ରୋଗ୍ରାମ	-10.8944
▁ଚାନ୍ଦ	-10.8946
▁ବଲିଉଡ	-10.8954
▁ସମର୍ଥ	-10.8954
ପ୍ପ	-10.8958
▁ଦ୍ୱାର	-10.8959
▁CC	-10.8963
▁ସରକାରଙ୍କୁ	-10.8964
▁ଖୁବ	-10.8968
query	-10.8975
▁ଇଫକୋ	-10.8975
▁Jobs	-10.8975
▁System	-10.8975
▁ପ୍ରୋଟୋକଲ	-10.8975
▁ମନେରଖନ୍ତୁ	-10.8975
▁ରଣବୀର	-10.8975
▁ସୁସମାଗ୍ଭର	-10.8975
▁ସ୍ୱାଭିମାନ	-10.8975
▁ଦେବାଦେବୀ	-10.8975
▁ପରାମର୍ଶଦାତା	-10.8975
▁ସମ୍ବିଧାନ	-10.8975
▁ଅଶୁଭ	-10.8975
▁ସାଥୀ	-10.8975
▁ଅଜ୍ଞାତ	-10.8975
▁ଏଜେଣ୍ଟ	-10.8975
▁ତଥ୍ଯ	-10.8975
▁ମତାମତ	-10.8975
▁ମରାମତି	-10.8975
▁ସାଲିସ୍	-10.8975
ଧୈର୍ଯ୍ୟ	-10.8975
▁ସାର୍ଥକ	-10.8975
▁ରଶ୍ମି	-10.8975
▁ପ୍ରଦର୍ଶିକା	-10.8975
▁ସ୍ମାର୍ଟଫୋନ	-10.8975
▁ଏତେବଡ	-10.8975
▁ତଳେଣତ	-10.8975
▁ଅଭିବୃଦ୍ଧି	-10.8975
▁ଗେହିଁ	-10.8975
Share	-10.8975
▁ଧରଣର	-10.8975
ାଉଣ୍ଡ	-10.8976
▁ଶିଆଳ	-10.8976
▁ନିଆରା	-10.8976
▁ଅଭିଯାନ	-10.8976
▁ଅନୁଚ୍ଛେଦ	-10.8976
▁kde	-10.8977
▁୧୯୮୭	-10.8977
ଶାସକ	-10.8977
▁ଉପନ୍ୟାସ	-10.8977
▁ଚମକ	-10.8978
▁ମଞ୍ଜୁରୀ	-10.898
▁ବିଶେଷଜ୍ଞ	-10.898
▁ସ୍ଥାନାନ୍ତରିତ	-10.8982
▁ଘୂର	-10.8982
▁ଘଟିଥାଏ	-10.8982
▁ପ୍ରଯୋଗ	-10.8984
▁ମିଳିଥିଲା	-10.8986
▁ଦୁଷ୍ଟ	-10.8986
▁ଛାୟା	-10.8987
▁ଛଡ଼ା	-10.8987
Starts	-10.8989
▁ଯାଇଥିଲି	-10.8991
Meeting	-10.8991
▁ସବୁକିଛି	-10.8992
self	-10.8994
▁ଚର୍ମ	-10.8995
୧୯୯୦	-10.8997
▁Pri	-10.9
▁ପ୍ରେରଣା	-10.9005
▁ଫାଇଲ୍	-10.9008
▁କହିପାରିବେ	-10.901
-17	-10.9012
୧୯୯୬	-10.9016
ୂର୍ତ୍ତ	-10.9016
cation	-10.902
▁ହୋଇଥାନ୍ତି	-10.902
▁ସୁପର	-10.9021
▁କହିଥିଲା	-10.9023
▁ଲଗଇନ	-10.9039
୧୪	-10.9041
EC	-10.9053
▁ସୁଅ	-10.9058
▁ଚାଲିଥିବା	-10.9059
▁୧୯୫୨ରେ	-10.9062
▁ତୁଳନାରେ	-10.9062
ଆଜି	-10.9062
▁ପଚାରିବା	-10.9065
▁କିଆଁ	-10.9069
▁ଟ୍ୟା	-10.908
▁କଣ୍ଠରେ	-10.9097
▁ଦୂରତା	-10.9098
ref	-10.9101
▁see	-10.9102
ଏବେକାର	-10.9104
କାଳୀନ	-10.9105
MA	-10.9106
ox	-10.9108
▁ଆଣିବ	-10.9121
line	-10.9121
LS	-10.9131
ଷ୍ଟ୍ରି	-10.9131
▁ହାନି	-10.9139
▁52	-10.9141
nci	-10.9146
▁ସଦାପ୍ରଭୁଙ୍କର	-10.9153
▁ଫେରିବାକୁ	-10.9159
▁ଜେଜେ	-10.9159
ପେଜ	-10.9165
▁ବିକଳ	-10.9168
▁ଜଗତକୁ	-10.9176
▁ସର୍ବା	-10.9179
▁ହେଉଛ	-10.9184
ଚଳା	-10.9187
▁ଭିଟାମିନ୍	-10.92
ଏଟିଏମ୍	-10.9204
07	-10.9227
ଅଛନ୍ତି	-10.9239
lick	-10.924
ଦଂ	-10.9255
▁Da	-10.9257
▁ଦେବୀଙ୍କ	-10.9277
▁ସ୍ମାରକପତ୍ରକୁ	-10.9279
ପୁତ୍ର	-10.9282
ower	-10.9294
▁07:	-10.9302
▁ଗଭୀର	-10.9317
▁ଟିକେଟ୍	-10.9323
ontributions	-10.9332
▁Copyright	-10.9332
▁Kumar	-10.9332
▁Video	-10.9332
▁Weekly	-10.9332
▁ଅଧ୍ୟାପକ	-10.9332
▁ଇନସ୍ୟୁରାନ୍ସ	-10.9332
▁କଂପାନୀ	-10.9332
▁କାଲେଣ୍ଡର	-10.9332
▁ପଞ୍ଜୀକରଣ	-10.9332
▁ସଂଗଠନ	-10.9332
▁ହୋଇଯାଆନ୍ତୁ	-10.9332
▁ଜିଏସଟି	-10.9332
▁ଟାଇଫୁନ୍	-10.9332
▁ଶୀତଦିନେ	-10.9332
▁ସର୍ଦ୍ଦାର	-10.9332
▁ସାଧନପଟି	-10.9332
;#39;	-10.9332
▁ବିଜେପୁର	-10.9332
Show	-10.9332
▁Latest	-10.9332
▁Sort	-10.9332
▁first	-10.9332
▁JavaScript	-10.9332
▁ଚରିତ୍ର	-10.9332
ଚାଳିତ	-10.9332
▁ପ୍ରୟାସ	-10.9332
▁ଓଲିଉଡ	-10.9332
▁କୁକୁଡ଼ା	-10.9332
▁7:11	-10.9332
୧୯୮୪	-10.9332
▁ପୋର୍ଟାଲ	-10.9332
ପ୍ରମିଳା	-10.9332
▁ପ୍ୟାକେଜ	-10.9332
help	-10.9332
▁House	-10.9332
▁କୁସୁମ	-10.9333
▁ହଳଦିଆ	-10.9333
▁କ୍ଷତିଗ୍ରସ୍ତ	-10.9333
▁ଭୋଜନ	-10.9333
▁than	-10.9333
▁ସ୍କୋର	-10.9333
▁always	-10.9334
▁୨୦୦୭	-10.9334
▁Live	-10.9334
anoj	-10.9337
▁ବିଚାରପତି	-10.9337
▁ଶାସ୍ତ୍ରରେ	-10.9337
uration	-10.9337
ianName	-10.9338
▁ଦେଖାଉଛି	-10.9338
▁କଲାବେଳେ	-10.9338
▁ସେବେଠୁ	-10.934
▁ଘଟିଥିଲା	-10.934
▁ଦେଇପାରିବି	-10.9341
▁ସ୍ୱଭାବ	-10.9341
▁ପଚାରିଥିଲେ	-10.9341
▁ଗାଳି	-10.9342
▁ଦୁଧ	-10.9343
▁ଖାଉଛି	-10.9343
▁ଦେଖାଯାଏ	-10.9346
▁ପାଇପାରିବେ	-10.9349
▁ପ୍ରତିଛବିଗୁଡ଼ିକୁ	-10.935
▁କରିନଥାଏ	-10.9353
▁ପାନୀୟ	-10.9353
▁ବାଣ୍ଟ	-10.9356
▁(9	-10.9356
▁ବୟାନ	-10.9356
▁ଦଙ୍ଗା	-10.9357
▁ଭିଜି	-10.9358
▁ଦେଇପାରିବେ	-10.9363
▁ଜୋର୍	-10.9365
▁cc	-10.9375
▁ଶଙ୍କର	-10.9375
▁କର୍ମୀ	-10.9376
type	-10.9376
▁ମିଠା	-10.9378
ଡକ୍ଟର	-10.9383
▁ଫେରିଲେ	-10.9384
▁ପାଇଥିବା	-10.9385
▁ପଏଣ୍ଟର	-10.9385
ବୋଉ	-10.9389
ଚନ୍ଦ୍ର	-10.9391
▁ଚାଲିଥିଲା	-10.9393
▁କାନ୍ଦ	-10.9394
ପାଠ	-10.9398
କେଦାର	-10.9403
▁ପଡ଼ିଲା	-10.9405
▁ଗ୍ରାହକଙ୍କ	-10.9413
▁ଡାକ୍ତରୀ	-10.9413
▁ପିଠା	-10.9414
▁02:	-10.9418
▁ବଜେଟ	-10.9425
▁ନୋଟିସ	-10.9429
▁ଟାଇମ	-10.9437
▁ମିଳିବା	-10.9449
ତନ୍ତ୍ର	-10.9458
ାଣନ୍ତୁ	-10.946
▁ୱେବସାଇଟ୍	-10.9467
▁ସ୍ୱାର୍ଥ	-10.9478
▁ଶସ୍ତାରେ	-10.9489
ାର୍ଟ	-10.9491
▁ବଳି	-10.9494
▁ମୋଡ଼ି	-10.9498
ଖୁସ	-10.9498
▁ରହିଛ	-10.9499
ର୍ତ	-10.9518
▁କୃତି	-10.9518
▁ନୋଟ	-10.9524
▁ଦେଵ	-10.9528
▁pla	-10.9534
ଶ୍ରମ	-10.9534
▁ସଦା	-10.9545
▁ଜଗତରେ	-10.9579
ାଇଛି	-10.9591
ପଦୀ	-10.9593
ିଛନ୍ତି	-10.9598
▁ଉଠେଇ	-10.9603
▁ସାହିତ୍ୟିକ	-10.9603
୬୩	-10.962
ଂକର	-10.9627
▁କ୍ୟାପ	-10.9629
▁ପରମେଶ୍ବରଙ୍କର	-10.9634
▁ମାଆକୁ	-10.9665
ାଧାର	-10.9684
ଜ୍ଞାନ	-10.9685
▁ଓଠ	-10.9689
▁state	-10.9694
ାଉଛ	-10.9695
ରତ୍ନ	-10.97
erform	-10.9702
ubhransu	-10.9702
▁'{0}'	-10.9702
▁Open	-10.9702
▁whatsthis	-10.9702
▁କଣ୍ଢେଇ	-10.9702
▁ଜରିମାନା	-10.9702
▁ଦ୍ରୁଶ୍ଯ	-10.9702
▁ପୁନର୍ବାର	-10.9702
▁ପ୍ରାଇଭେଟ୍	-10.9702
▁ପ୍ରୁଷ୍ଠା	-10.9702
▁ଲାଇସେନ୍ସ	-10.9702
▁ହାନିକାରକ	-10.9702
▁Make	-10.9702
▁Never	-10.9702
▁ଉପସ୍ଥାପନ	-10.9702
▁ତରଫରୁ	-10.9702
▁ଧର୍ମଘଟ	-10.9702
▁ଲିମିଟେଡ	-10.9702
▁ସ୍ବାମୀ	-10.9702
ସଂକ୍ଷେପ	-10.9702
▁above	-10.9702
▁କର୍ତ୍ତବ୍ୟ	-10.9702
▁ପିଅନ୍ତୁ	-10.9702
▁ଯଶୋ	-10.9702
▁ସାଢେ	-10.9702
▁ଆସନ୍ତାକାଲି	-10.9702
▁ଅଧୁନା	-10.9702
back	-10.9702
ଆଦର୍ଶ	-10.9702
Ctrl	-10.9702
▁ମକଚି	-10.9703
▁ସାଙ୍କେତିକରଣ	-10.9703
▁ୱାର୍ଣ୍ଣ	-10.9703
Play	-10.9703
,500	-10.9703
▁ପଞ୍ଚଭୂତ	-10.9703
▁05:	-10.9705
▁ଅଥଚ	-10.9706
▁ସମ୍ରାଟ	-10.9706
▁ରାଜସ୍ଥାନ	-10.9706
▁ଭେଙ୍କ	-10.9706
▁FOR	-10.9707
▁ସରୋଜ	-10.9708
▁ଫେରସ୍ତ	-10.9709
▁2013	-10.9709
▁ନିଅନ୍ତି	-10.971
▁ପରଲୋକ	-10.971
ୁଛୁ	-10.9711
▁ବ୍ୟକ୍ତିତ୍ୱ	-10.9714
▁show	-10.9715
▁ପରାସ୍ତ	-10.9716
▁war	-10.972
▁ରହୁଥିବା	-10.9724
▁ଆସିଛୁ	-10.9726
ଧାରୀ	-10.9727
୫୭	-10.9728
▁ପଢ଼ିବା	-10.9729
▁Cha	-10.9729
▁ବିଶ୍ରାମ	-10.973
▁ପ୍ରତିଭା	-10.9731
▁[[	-10.9732
▁ଚିହ୍ନିଛନ୍ତି	-10.9735
▁ଫାକ୍ସ	-10.974
side	-10.9741
pan	-10.9746
▁ଖୋଲିଲେ	-10.9751
ଗଣପତି	-10.9758
▁ଅମୃତ	-10.9758
ସମୂହ	-10.9762
ଏବଂ	-10.9763
▁ସାମ୍ନାରେ	-10.9764
ଚାଷ	-10.9769
ବଜା	-10.9777
▁ନେଇଛନ୍ତି	-10.9779
▁ଧରିବେ	-10.978
▁ବଜ	-10.9791
ମୋତେ	-10.9793
▁ବଞ୍ଚିବା	-10.9796
ଛିନ୍ନ	-10.9801
▁ଲୁଚାଇ	-10.9808
▁ଲିଙ୍କ୍	-10.9813
ory	-10.9817
▁ମିଶ୍ରେ	-10.9818
▁ବାପାଙ୍କୁ	-10.9829
cle	-10.9843
ସାଗର	-10.9847
AP	-10.9855
▁ନାଚ	-10.9855
ୀଭୂତ	-10.9856
ita	-10.9862
ଶଙ୍କର	-10.9863
ିଗଲେ	-10.9868
▁ଇତି	-10.9873
୨୫	-10.9877
▁ପିଲାଙ୍କୁ	-10.9877
କୋଟି	-10.9891
unner	-10.9906
▁ଡାଏଲ	-10.9928
୪୯	-10.993
971	-10.9933
▁ଭକ୍ତି	-10.9943
ସଭା	-10.9946
▁ଦୁର୍ଗ	-10.9959
ଅଧିକ	-10.9968
ୀକ୍ଷ	-10.998
ଦଶାହ	-10.9991
▁ଋଷିଆ	-11
▁ବେକାର	-11.001
ଡ଼ୁ	-11.0016
▁ଅପରାଜିତ	-11.0026
ାଗତ	-11.0028
ର୍ଧ	-11.0044
????	-11.0049
▁ବିକଳ୍ପଗୁଡିକ	-11.0056
ସଂଗ	-11.0061
▁ଝୁ	-11.0085
ରଦର୍ଶିକା	-11.0087
Category	-11.0087
Vikaspediaodisha	-11.0087
▁(₹):	-11.0087
▁IMAP	-11.0087
▁keyword	-11.0087
▁version	-11.0087
▁ଅନାହାରରେ	-11.0087
▁ଠିକାଦାର	-11.0087
▁ଦାୟିତ୍ଵ	-11.0087
▁ପ୍ରତିଶ୍ରୁତି	-11.0087
▁ବଢିଚାଲିଛି	-11.0087
▁ମହମ୍ମଦ	-11.0087
▁ସମ୍ମିଳନୀ	-11.0087
▁ହଇରାଣ	-11.0087
▁୯୮୫୩୨୧୩୬୦୧	-11.0087
pecial	-11.0087
▁Person	-11.0087
▁make	-11.0087
▁ଅଦ୍ଭୁତ	-11.0087
▁ଇସ୍ତଫା	-11.0087
▁ଉଜବେକିସ୍ଥାନ	-11.0087
▁ପ୍ରତ୍ୟେକ୍ଷ	-11.0087
▁ସୂର୍ଯ୍ୟାସ୍ତ	-11.0087
▁ସ୍ଵାମୀ	-11.0087
▁Easy	-11.0087
▁କିସ୍ତାୟା	-11.0087
▁ସୁଶିଲ	-11.0087
▁ଅଶାନ୍ତି	-11.0087
▁ଉଚ୍ଚାରଣ	-11.0087
▁ସ୍ପିନ୍	-11.0087
edding	-11.0087
▁କିଶୋର	-11.0087
▁php	-11.0087
▁କରିନଥାନ୍ତି	-11.0087
ମାନବିକତା	-11.0087
▁ମରିଗଲେ	-11.0087
}}	-11.0087
▁ଆମଦାନି	-11.0087
▁Story	-11.0087
▁ଜବ୍ସ	-11.0088
▁ଲେଖୁଅଛି	-11.0088
▁ଦୃଢ଼	-11.0088
▁ପ୍ରଣାମ	-11.0088
▁ସ୍ପୁଲ	-11.0088
▁report	-11.0089
▁Suicide	-11.0089
▁ବଢାଇବାକୁ	-11.0091
▁ସମ୍ମୁଖ	-11.0091
▁ଦିଆଯାଇଥିବା	-11.0091
▁କହିପାରିବ	-11.0091
▁ଘଣ୍ଟି	-11.0091
▁ହନୁମାନ	-11.0092
▁ଦିଆଯାଉଛି	-11.0092
▁ଦ୍ରୁତ	-11.0092
▁every	-11.0093
▁used	-11.0093
ବୃତ୍ତ	-11.0095
▁2007	-11.0095
▁ଯାଉଥିଲେ	-11.0095
▁୨୦୦୨	-11.0095
▁100%	-11.0096
ଦିଅନ୍ତୁ	-11.0096
▁ଶାଖା	-11.0096
ମେଂଟ	-11.0097
▁କେଉଁଠାରେ	-11.0099
▁କହୁନାହିଁ	-11.0099
▁asp	-11.01
▁ଉଦାର	-11.0102
▁ଦାମୀ	-11.0105
▁ସତେକି	-11.0106
▁ପୋଛୁ	-11.0108
▁ତାମିଲ	-11.0109
▁ଶସ୍ୟ	-11.0112
▁ଚାହଁ	-11.0116
▁ଦୂରେଇ	-11.0117
ଦେବେ	-11.0119
ୋଲ୍	-11.012
▁ସେଇଟା	-11.012
ଭରା	-11.0122
▁କୁଲ୍	-11.0137
rial	-11.0137
LO	-11.0138
ପଡ଼ା	-11.0145
▁ବ୍ୟବସାୟୀ	-11.0152
▁ଲାଗିଲେ	-11.0153
ପଥ	-11.016
»	-11.0161
▁ପଢିନି	-11.0162
ତାଲିକା	-11.0163
ଲକ୍ଷ୍ମୀ	-11.0165
▁ଦୈ	-11.0166
▁ଭୋଟ୍	-11.0169
ଗୃହ	-11.0174
▁ପରମେଶ୍ବରଙ୍କୁ	-11.0176
▁ଟିମ	-11.0176
▁ଭେଟିବା	-11.018
Apply	-11.0181
▁ଦିଆଯାଇ	-11.0183
▁ସମ୍ପର୍କିତ	-11.0188
ଂଟ	-11.0191
▁ବୈଠକରେ	-11.0192
ଧେ	-11.0194
▁ପ୍ରେମିକା	-11.0195
ring	-11.0221
▁ପଚାରୁଛ	-11.023
▁ପୁରାଣ	-11.0241
▁କେତ	-11.0243
▁ଲୁଣ	-11.0244
hara	-11.0257
ଥାନ	-11.0258
▁ନର୍ସ	-11.0261
▁ସିରିଜ	-11.0263
▁ଚାଟ	-11.0264
▁କମ୍ପ	-11.0264
ଏଚ	-11.0287
▁ଅନୁବାଦକ	-11.0287
▁seconds	-11.0291
▁ବଂଚି	-11.0292
▁ପହ	-11.0298
ିକ୍ଷଣ	-11.0305
କ୍ରାନ୍ତ	-11.0306
HS	-11.0312
ode	-11.0313
୮୯	-11.0328
▁ଜବ	-11.0338
ଥେ	-11.0361
ଭିତ୍ତିକ	-11.0368
▁କାଢି	-11.0373
2%	-11.0379
ଥିପାଇଁ	-11.0396
ହିଲେ	-11.0404
53	-11.0408
▁ପୋଷ	-11.0408
ପପୁ	-11.041
ାଯିବ	-11.0415
ଆଡ଼େ	-11.0441
▁day	-11.0445
ଗୁଡ	-11.0459
ō	-11.0466
▁Ku	-11.0471
▁ସେତେବେଳ	-11.0474
▁ରୂପରେଖ	-11.0479
ally	-11.0479
ଲଗ୍	-11.0479
▁ମାଡ	-11.0484
custom	-11.0487
▁Translation	-11.0487
▁URI	-11.0487
▁application	-11.0487
▁daily	-11.0487
▁ଅପସାରିତ	-11.0487
▁ଅଭିଜ୍ଞତା	-11.0487
▁ଉତ୍ପନ୍ନ	-11.0487
▁କର୍ଣ୍ଣାଟକ	-11.0487
▁କଳାହାଣ୍ଡି	-11.0487
▁ଜବରଦସ୍ତ	-11.0487
▁ଜମାରାଶି	-11.0487
▁ଦୁର୍ନୀତି	-11.0487
▁ପୁଲୱାମା	-11.0487
▁ଫେବୃଆରୀ	-11.0487
▁ବିମୁଦ୍ରାକରଣ	-11.0487
▁ସଂପୃକ୍ତ	-11.0487
▁ସଜ୍ଜିକରଣ	-11.0487
▁ସ୍ମିତହାସ୍ୟ	-11.0487
spect	-11.0487
▁VLC	-11.0487
▁ଉନ୍ନୟନ	-11.0487
▁ନିମନ୍ତ୍ରଣ	-11.0487
▁କାର୍ଯ୍ୟକଳାପ	-11.0487
▁ପାଆନ୍ତୁ	-11.0487
▁ଗାଳ୍ପିକ	-11.0487
▁know	-11.0487
▁ଲଳିତା	-11.0487
▁ସାମରିକ	-11.0487
▁ଧାର୍ଯ୍ୟ	-11.0487
▁ଧ୍ୱନୀ	-11.0487
▁ପ୍ରତିରୋଧ	-11.0487
▁ମଧ୍ୟପ୍ରଦେଶ	-11.0487
▁ବ୍ୟାପାର	-11.0487
▁face	-11.0487
▁ଫିଟନେସ	-11.0487
▁ପାଣ୍ଡବମାନ	-11.0488
▁watch	-11.0488
▁ଘୁଞ୍ଚାଅ	-11.0488
▁ଚଳାଅ	-11.0488
▁ସ୍ବରୂପ	-11.0489
▁ସଫାକରନ୍ତୁ	-11.049
▁sound	-11.049
▁ବୋଝ	-11.049
▁ସ୍ୱରୂପ	-11.0491
▁ଛାତ	-11.0491
▁ଇଣ୍ଟରନେଟ୍	-11.0492
କ୍ଷେତ	-11.0493
▁ଆଲୋକିତ	-11.0495
▁ଅପମାନ	-11.0496
evel	-11.0496
▁ସସ୍ମିତ	-11.0496
▁ଦିଶୁ	-11.0496
▁dated	-11.0497
▁ଲିପି	-11.0497
▁ଫ୍ରି	-11.0498
▁ପ୍ରୋଟ	-11.0498
▁ଦେଖୁଛନ୍ତି	-11.05
▁ପୂର୍ବଦିଗ	-11.0501
▁ସୂଚନାଯୋଗ୍ୟ	-11.0501
▁ଅନଲାଇନ୍	-11.0502
ଠଠ	-11.0504
▁ବିଲରେ	-11.0504
▁ପିଲାଦିନ	-11.0506
▁ସ୍ତନରୁ	-11.0507
▁ଆସିଗଲା	-11.0509
ନ୍ତରାଳ	-11.051
▁ୟଦି	-11.0512
▁ହୋଇନଥିବା	-11.0513
ିପାରିବେ	-11.0515
୬୭୭	-11.0515
▁ଗଣିତ	-11.052
▁ଜାଣିଥିଲେ	-11.0523
▁Top	-11.0525
▁ବିଲୋପ	-11.0529
▁ଦେଖେ	-11.0532
▁KR	-11.0534
▁ଲେଖିଲେ	-11.0535
▁ସଠିକ୍	-11.0535
▁ଆବଶ୍ୟକୀୟ	-11.0542
▁ହୋଇଯିବେ	-11.0544
▁ମାସିକ	-11.0546
▁ଛାଡିଲେ	-11.0549
▁ଜୀବିତ	-11.0552
▁ବାଧା	-11.0553
▁ସୁନ୍ଦରୀ	-11.0561
400	-11.0563
▁ଦୁଃଖିତ	-11.0564
▁ସାଧ	-11.0565
▁ସିଟ୍	-11.0569
pati	-11.0572
ଭାଲ	-11.0572
ପ୍ରାଚୀନ	-11.0576
ଲ୍‍	-11.0579
▁ପିନ୍ଧ	-11.0582
ମୁଖ୍ୟ	-11.0583
ଆଜ୍ଞା	-11.0586
ହୋଇଥିବା	-11.059
▁୨୦୧୮ରେ	-11.0592
▁୭ଟି	-11.0593
pre	-11.0597
ରାଜ୍ୟ	-11.0598
▁ବୁଲୁ	-11.0599
▁ସମଯ	-11.0602
▁ମିଡିଆରେ	-11.061
▁ଆଦିବାସୀ	-11.0623
by	-11.0628
▁ସଞ୍ଜ	-11.0642
ଇସ	-11.0647
ସ୍ବଚ୍ଛତା	-11.0658
▁ଦିଲ୍ଲୀପ	-11.0664
ାଚର	-11.0671
="	-11.0672
ବହ	-11.0674
▁ପଠାଇବାରେ	-11.0684
▁ସବୁଜ	-11.0689
▁ଛାଡୁଛ	-11.0706
▁ବାଃ	-11.0706
table	-11.0709
ym	-11.072
ୱି	-11.0721
ହାସ	-11.0734
ଭୂ	-11.0739
ମ୍ୟାନ	-11.0757
▁କରଜ	-11.0771
ନ୍ତ୍ର	-11.0778
▁ଚେକ୍	-11.0789
▁ଷୟ	-11.0801
ୁଅଛି	-11.0839
ୟୁକ୍ତ	-11.0846
ହୂ	-11.0849
▁ଗୁଡ଼	-11.0849
ଚରଣ	-11.0866
▁ଦାବ	-11.087
▁ରିଲିଜ	-11.0882
ତବେେଳେ	-11.0888
Institute	-11.0904
ultitran	-11.0904
▁2530008	-11.0904
▁91-674-	-11.0904
▁Continue	-11.0904
▁Downlode	-11.0904
▁Global	-11.0904
▁ODISHA	-11.0904
▁heading	-11.0904
▁points	-11.0904
▁sentence	-11.0904
▁shutdown	-11.0904
▁ଅଭିନନ୍ଦନ	-11.0904
▁ତାପମାତ୍ରା	-11.0904
▁ଦର୍ଶକ	-11.0904
▁ଫେରିପାଇଲେ	-11.0904
▁ସାମ୍ପ୍ରତିକ	-11.0904
plasma	-11.0904
▁ପ୍ରତିଯୋଗୀ	-11.0904
▁ମାତୃବାଣୀ	-11.0904
▁ରଜାପୁଅ	-11.0904
▁ସଂକଳ୍ପ	-11.0904
▁ସମ୍ବନ୍ଧିତ	-11.0904
▁after	-11.0904
▁ସଂକ୍ରାନ୍ତରେ	-11.0904
▁କ୍ଷତିକାରକ	-11.0904
▁ପହଁଚି	-11.0904
▁ଖେଳାଳି	-11.0904
▁ପରିବର୍ତ୍ତକ	-11.0904
ffect	-11.0904
▁ମନ୍ତବ୍ୟ	-11.0904
ସିଗାରେଟ	-11.0904
▁CMS	-11.0904
▁ରାଜକୁମାର	-11.0904
▁identi	-11.0904
▁ମାର୍ଚ	-11.0904
▁ଲଢ଼ିବା	-11.0904
▁ଆଜିକାଲି	-11.0904
▁ପାୱାର	-11.0904
▁ଅଧିନିୟମ	-11.0904
▁ବିତରଣ	-11.0904
▁ଜେଲରେ	-11.0904
▁ବିଶ୍ଵାସ	-11.0905
▁ବୃହତ	-11.0905
▁ସ୍ବର୍ଗ	-11.0905
▁କିସ୍ତି	-11.0906
ଅତିଥି	-11.0906
▁ଯଥାର୍ଥ	-11.0906
▁ଧମକ	-11.0907
▁ସମ୍ପୂର୍ଣ	-11.0907
▁rum	-11.0907
▁para	-11.0907
▁ଚାଲାଣ	-11.0908
ସେକେଣ୍ଡ	-11.0909
ଙ୍କଠାରେ	-11.0909
▁pro	-11.0909
fast	-11.0909
▁ଶାଶୁ	-11.091
▁ଚାହୁଁଥିବା	-11.0912
▁ଭାବୁଛନ୍ତି	-11.0912
ୋଜିନି	-11.0912
▁2005	-11.0913
vid	-11.0915
000/-	-11.0915
▁ହାଉସ	-11.0915
▁କ୍ରୟ	-11.0917
▁ମାଉସୀ	-11.0917
▁ରାଜ୍ଯ	-11.0917
▁୯୦୦୦	-11.0918
▁କରାଯାଇନାହିଁ	-11.092
▁ଡାଡ଼ି	-11.092
▁ଚାଳନ	-11.0925
▁ବାସ୍ତୁ	-11.0927
▁ଆଳୁ	-11.0927
▁ଯୁବତୀଙ୍କୁ	-11.0927
▁only	-11.0928
▁ଉପଯୋଗୀ	-11.0928
▁NF	-11.0928
ସ୍ନେହା	-11.093
▁ଦେଲୁ	-11.093
▁ଲୁଟ	-11.0935
▁ମହାନତା	-11.0936
▁ଥୟ	-11.0937
ନଟନ	-11.0938
▁ଦେଖୁଛି	-11.0938
▁ଆସିଥାଏ	-11.0939
ହାତ	-11.0941
▁ବଞ୍ଚିଛି	-11.0943
▁ଏସପି	-11.0952
ଶ୍ରୟ	-11.0957
▁ଜିମ୍	-11.0957
▁ନଥିଲୁ	-11.0959
ୋଳ	-11.0959
▁ପକ୍ଷେ	-11.0968
▁ଗୁଗଲ	-11.0971
▁ଡାଉନଲୋଡ୍	-11.0972
▁ଉପସ୍ଥିତି	-11.0985
▁ଅଭିନେତ୍ରୀଙ୍କୁ	-11.0998
▁ପୃ	-11.1002
▁ପାଖରୁ	-11.1007
ଶ୍ରେଣୀ	-11.1011
କଣ୍ଠ	-11.1012
ପ୍ରଚଳିତ	-11.1013
ବିଜେପି	-11.1014
ସାଧାରଣ	-11.1017
ଖରାପ	-11.1024
▁ପର୍ବତ	-11.1026
ଖ୍ୟା	-11.1035
▁ଚୁପ	-11.1039
ଶହ	-11.1049
▁ସମସ୍ତଙ୍କର	-11.1078
ୋଳି	-11.1086
ଶିଷ୍ଟ	-11.1087
▁All	-11.1117
ଉଷ	-11.1132
row	-11.1132
▁ଗ୍ଲ	-11.1136
▁୪୧	-11.114
94	-11.1145
▁ବିକଳ୍ପଗୁଡ଼ିକ	-11.1152
▁ବଂଚ	-11.1156
ପାରିଲେ	-11.1173
ଶାହ	-11.1183
ଦୃଷ୍ଟ	-11.1193
▁ୟଦ	-11.1194
ଞ୍ଜିତ	-11.1249
Disc	-11.1262
▁107	-11.1272
▁ବାବଦ	-11.1274
▁ବେଙ୍ଗ	-11.1284
(1)	-11.1296
▁ବେକ	-11.1296
କାଂ	-11.1306
▁06:	-11.1316
▁250	-11.1322
▁ମାଉସ	-11.1325
ୁଚି	-11.1328
ambad	-11.1333
header	-11.1338
NEWS	-11.1338
nvironment	-11.1338
sambalpuri	-11.1338
▁Blue	-11.1338
▁Know	-11.1338
▁Union	-11.1338
▁fluently	-11.1338
▁life	-11.1338
▁school	-11.1338
▁ଅଦରକାରୀ	-11.1338
▁ଅର୍ଜୁନ	-11.1338
▁ଅସନ୍ତୋଷ	-11.1338
▁ଅସ୍ପଷ୍ଟ	-11.1338
▁ଇଫଫଂକ	-11.1338
▁ଗଞ୍ଜାମ	-11.1338
▁ଘୂର୍ଣ୍ଣନ	-11.1338
▁ଘୂର୍ଣ୍ଣିବଳୟ	-11.1338
▁ଜଣାପଡ଼ି	-11.1338
▁ତ୍ରିପାଠୀ	-11.1338
▁ନାଲିପାନର	-11.1338
▁ନେତୃତ୍ୱ	-11.1338
▁ପଙ୍ଖା	-11.1338
▁ପଞ୍ଜିକୃତ	-11.1338
▁ପୂର୍ବାହ୍ନ	-11.1338
▁ପ୍ରେତ୍ୟକକ	-11.1338
▁ବ୍ରିଟିଶ	-11.1338
▁ମହୁମାଛି	-11.1338
▁ଶୁଭେଚ୍ଛା	-11.1338
▁ସମ୍ବନ୍ଧୀୟ	-11.1338
▁ସିଧାସଳଖ	-11.1338
▁ସୁପ୍ରିମକୋର୍ଟ	-11.1338
▁22:35	-11.1338
▁ଅଗ୍ନିକାଣ୍ଡ	-11.1338
▁ଅଷ୍ଟ୍ରେଲିଆ	-11.1338
▁ନଚେତ୍	-11.1338
▁ପଞ୍ଜାବ	-11.1338
▁ମହାବାତ୍ୟା	-11.1338
▁ଶିବାଜୀ	-11.1338
▁୧୯୯୩	-11.1338
added	-11.1338
▁ଚଞ୍ଚଳ	-11.1338
▁ନାଇଡୁ	-11.1338
▁ପାଇଥନ	-11.1338
କମଳେଶ	-11.1338
▁ଘାଟନ	-11.1338
▁ନିହାତି	-11.1338
ether	-11.1338
▁ଜରିଆରେ	-11.1339
▁ଅପ୍ରେଲ	-11.1339
▁ପ୍ରୀତି	-11.1339
▁ଦବେେ	-11.1339
▁ସର୍ବସାଧାରଣ	-11.1339
▁ଢାଙ୍କି	-11.1339
▁ବୈଦ୍ୟ	-11.1339
▁ସ୍ମିତା	-11.134
▁sub	-11.134
▁ଯିହୂଦୀମାନେ	-11.134
▁ଦିଆଗଲା	-11.1341
▁ଅଭାବନୀୟ	-11.1341
▁ହଲେଇ	-11.1342
▁ସୁଗମ	-11.1342
▁ନେଉଛି	-11.1343
▁କାନ୍ଥ	-11.1343
▁ଗୁଣ୍ଡା	-11.1344
▁କ୍ରେଡିଟ୍	-11.1345
▁ଚାର୍ଜ	-11.1345
▁dead	-11.1345
▁କରେନାହିଁ	-11.1347
▁ସ୍ପେସ	-11.1347
▁ୟିଏ	-11.1347
▁ସିଝା	-11.1347
▁ରାଧା	-11.1349
▁ମେୟର	-11.135
▁ରହୁଛି	-11.135
▁ଫେରାର	-11.135
▁ବିଦ୍ୟୁତ୍	-11.1356
ଗ୍ରସ୍ତ	-11.1363
▁ଜଣାନ୍ତୁ	-11.1363
ମୂଳକ	-11.1369
▁ଭଡ଼ା	-11.1371
▁ଜୋତା	-11.1371
▁କରିପାରିଲେ	-11.1375
▁ମୁଗ	-11.1376
▁links	-11.1376
▁ଜାଣିଥିଲା	-11.1382
▁ବଧ	-11.1382
▁ପାଇଥିଲା	-11.1384
▁କ୍ରିକେଟ୍	-11.1385
................	-11.139
lus	-11.1402
▁କଏଦ	-11.1403
▁ରଚନା	-11.1405
▁ଝି	-11.1413
▁ଏହିଭଳି	-11.1423
ହଂ	-11.1432
ଲ୍ଲୀ	-11.1441
▁du	-11.1448
▁କ୍ରୋ	-11.1449
ଭଜା	-11.1449
▁ନାନୀ	-11.1452
▁ଇଉ	-11.1452
This	-11.1467
ନୁହେଁ	-11.1467
ମହିଳା	-11.1469
ଉତ୍ତର	-11.1469
▁ଅଥ	-11.1474
Odia	-11.1477
je	-11.1482
ାଈ	-11.1487
୮୭	-11.1489
▁ଜାଣିବି	-11.1491
▁ଜାଣିପାରି	-11.1504
ଆଠ	-11.1505
କେତେ	-11.1508
▁ବଦଳାଇବା	-11.151
ଭ୍ୟା	-11.1523
▁ବଢିବା	-11.1543
୮୩	-11.1548
ପାଖ	-11.1549
ଥିତ	-11.1565
ପାଣି	-11.1566
ବର୍ଗ	-11.1566
▁ବଢ଼ିବ	-11.1593
iti	-11.1611
plan	-11.1616
▁ଶୁଣା	-11.162
oot	-11.1623
ସିଲାଣି	-11.1678
▁ଶୁଣାଇ	-11.1681
ପାରୁନି	-11.1689
▁ear	-11.1691
୭୯	-11.1702
ଏଡ଼	-11.1725
ating	-11.1746
▁exp	-11.1748
ଡାମ	-11.1761
▁ସାଇଟ୍	-11.1764
ପୂର୍ଣ	-11.1789
load	-11.1791
▁ରଘୁ	-11.1792
ମର୍ଯ୍ୟାଦା	-11.1793
Screen	-11.1793
Sidharth	-11.1793
script	-11.1793
▁Orissa	-11.1793
▁Quality	-11.1793
▁Xiaomi	-11.1793
▁literature	-11.1793
▁ଅତିବାହିତ	-11.1793
▁ଅଭିବ୍ୟକ୍ତି	-11.1793
▁କଂଟକେଟ	-11.1793
▁କରାଯ଼	-11.1793
▁ଚିଦାମ୍ବରମ	-11.1793
▁ଠିକିରିର	-11.1793
▁ନିରିକ୍ଷକ	-11.1793
▁ପର୍ଯ୍ୟଟକ	-11.1793
▁ପୁନଃନାମକରଣ	-11.1793
▁ବଲାଙ୍ଗିର	-11.1793
▁ବୈଷୟିକ	-11.1793
▁ମନପସନ୍ଦ	-11.1793
▁ଯୌତୁକ	-11.1793
▁ରାସାୟନିକ	-11.1793
▁ରେସନତଲାୱ	-11.1793
▁ସଙ୍ଗଠକ	-11.1793
WhatsApp	-11.1793
▁{0}	-11.1793
▁ଏସବିଆଇ	-11.1793
▁କୁହାଯାଇଥିଲା	-11.1793
▁ନିରାପଦ	-11.1793
▁Bharat	-11.1793
▁ଫ୍ୟାକ୍ସ	-11.1793
▁Feb	-11.1793
▁ପଠେଇ	-11.1793
▁ସ୍ରୋତ	-11.1793
▁ମୂର୍ଖ	-11.1793
▁room	-11.1793
Salary	-11.1793
▁ମେଲବାକ୍ସ	-11.1793
ଘୋଷିତ	-11.1793
ସମ୍ପନ୍ନ	-11.1793
▁କବଳେ	-11.1793
▁ଅତୀତ	-11.1793
▁ସଂଖ୍ୟକ	-11.1793
▁ସେଲଫି	-11.1793
▁ଗୁମର	-11.1794
▁ଲୁଚାନ୍ତୁ	-11.1794
alking	-11.1794
▁ସୁନିଶ୍ଚିତ	-11.1794
▁ଧର୍ମେନ୍ଦ୍ର	-11.1794
▁Match	-11.1795
▁ସମୀକରଣ	-11.1795
▁ରାଜ୍ୟସଭା	-11.1795
▁2016).	-11.1796
▁ଟ୍ରମ୍ପ	-11.1796
▁ନାଗପୁର	-11.1797
▁ଟ୍ୟାଗ	-11.1797
▁1947	-11.1798
ular	-11.1798
▁cgi	-11.1798
▁ଡେଇଁ	-11.1798
▁365	-11.1799
▁NameMeeting	-11.1799
▁ଯାଞ୍ଚକରନ୍ତୁ	-11.1799
▁ମିଳୁନାହିଁ	-11.1799
▁କୋଇଲା	-11.1799
▁ଭାବନ୍ତୁ	-11.18
▁ନିଶ୍ୱାସ	-11.18
▁କଟକଣା	-11.18
afe	-11.1801
▁modifi	-11.1802
▁ଚକ୍ରାନ୍ତ	-11.1803
▁ସମ୍ବଳ	-11.1805
BAR	-11.1806
standard	-11.1806
▁ହୋଇନଥାଏ	-11.1807
▁ପାଠ୍ଯ	-11.1807
▁ହତ୍ୟାକାରୀ	-11.1809
▁ବନ୍ଦକରନ୍ତୁ	-11.1809
▁ଆମ୍ଭମାନଙ୍କୁ	-11.1811
▁ଗ୍ୟାସ୍	-11.1812
▁ଦ୍ବା	-11.1812
▁fr	-11.1812
▁ବତ୍ସ	-11.1814
▁ଲଗେଇ	-11.1819
▁223	-11.1822
▁ଖୋଲିପାରି	-11.1824
▁ପକେଟ	-11.1826
▁ହଟାଇ	-11.1827
▁ଚଲାଇବା	-11.183
▁ମାନସ	-11.1831
ଖାନା	-11.1833
PR	-11.1838
ଶାଳା	-11.1838
▁କହୁଥିଲ	-11.1838
▁ଖାଇବି	-11.1842
ଳାପ	-11.1846
▁ଅଶ୍ୱ	-11.1847
▁ଅସଲି	-11.1848
▁(2.	-11.1848
ମାୟା	-11.185
▁କେଉଁଠାରୁ	-11.1862
ଶୁଣି	-11.1864
▁ପଦକ	-11.1867
▁ପରିଡା	-11.1878
ୌନ	-11.1878
▁ଗଡ	-11.1887
▁ବିଦ୍ରୋହ	-11.1887
ools	-11.1892
▁ମାଙ୍କଡ	-11.1897
୦୧	-11.1897
apu	-11.1898
▁ଲୁଚ	-11.1917
ୁନାହଁ	-11.192
ଦୋ	-11.1925
ିଫ୍	-11.1929
ାଧିକ	-11.1932
ଆଚାର୍ଯ୍ୟ	-11.1941
ସେପ୍ଟେମ୍ବର	-11.1943
ସୂର୍ଯ୍ୟ	-11.1945
କ୍ଷେତ୍ର	-11.1946
▁ଫ୍ଲାଟ	-11.1947
▁ରୋକି	-11.1948
୨୦୧୯	-11.1949
ଜାତୀୟ	-11.195
ପ୍ରତିଦିନ	-11.1954
କଥାଟିଏ	-11.1957
▁ଉପକରଣଗୁଡ଼ିକ	-11.1965
▁ଭାଙ୍ଗ	-11.197
▁ଚେକ	-11.1971
▁କାର୍ଯ୍ଯସ୍ଥଳ	-11.1981
▁ବନେଇ	-11.1988
▁ଅର୍ଥନୀତି	-11.1989
▁pri	-11.2003
କାର୍ଯ୍ୟ	-11.2009
▁ଦିଆଯାଉ	-11.2014
ଓହୋ	-11.2022
ିଯିବେ	-11.2026
atter	-11.2029
ଋଣ	-11.2034
748	-11.2041
▁ଦାଉଦ	-11.2053
▁Bha	-11.2056
ଜାଣି	-11.2057
ଭାଷା	-11.2075
▁ରଖିଛ	-11.2087
az	-11.2103
୍ରୁତ	-11.2118
▁ଫୋଟୋ	-11.2124
▁ହୋ‍ଇଥି	-11.2125
ର୍ଜନ	-11.2129
ହୁଏ	-11.2146
▁କେଉଁମାନଙ୍କ	-11.2148
▁୧୯୫	-11.2167
aver	-11.217
▁ବିରୁଦ୍ଧ	-11.2184
▁ଡଲାର	-11.2188
▁କ୍ୟାମ୍ପସ	-11.2192
ium	-11.2206
cat	-11.221
ାତ୍ମ	-11.2216
▁word	-11.2228
site	-11.225
ification	-11.2259
ଭରି	-11.2259
iff	-11.2265
direct	-11.2268
▁ସାଙ୍କେତିକ	-11.2269
▁Tech	-11.2269
▁ଫାରୂଶୀ	-11.2269
Prevention	-11.2269
ience	-11.2269
ପାରଳାଖେମୁଣ୍ଡି	-11.2269
▁Account	-11.2269
▁Junk	-11.2269
▁LongDayName	-11.2269
▁border	-11.2269
▁containing	-11.2269
▁enjoy	-11.2269
▁session	-11.2269
▁ଆନ୍ଧ୍ର	-11.2269
▁ଏଯାବତ	-11.2269
▁କମ୍ପୁଟର	-11.2269
▁କାଳିପାନର	-11.2269
▁ଗାନ୍ଧୀ	-11.2269
▁ଗୁଜୁରା	-11.2269
▁ଜେନେରାଲ	-11.2269
▁ନାବାଳିକା	-11.2269
▁ନିର୍ଦ୍ଧାରଣ	-11.2269
▁ପୀଲାତ	-11.2269
▁ପୁନରାବୃତ୍ତି	-11.2269
▁ପ୍ରତିଯୋଗିତା	-11.2269
▁ପ୍ଲାଜମା	-11.2269
▁ବିଚ୍ଛିନ୍ନ	-11.2269
▁ରଣନୀତି	-11.2269
▁ସମାଲୋଚକ	-11.2269
▁ସରପଞ୍ଚ	-11.2269
▁index	-11.2269
▁କ୍ୟାନସର	-11.2269
▁ପାଣ୍ଡିଆନ	-11.2269
Khord	-11.2269
▁ସାଉଦି	-11.2269
▁କ୍ରୀଡ଼ା	-11.2269
▁ସ୍ବପ୍ନ	-11.2269
▁ବିଭକ୍ତ	-11.2269
▁ଭାଉଜ	-11.2269
▁ମରିଯାଇଛି	-11.2269
▁ଡିଜାଇନ	-11.2269
▁ମନିଷା	-11.2269
▁shell	-11.2269
▁ଆମନ୍ତ୍ରଣ	-11.2269
▁ହରିହର	-11.2269
▁କର୍କଟ	-11.2269
▁ଫେରିଆସି	-11.2269
▁ବିଜେତା	-11.2269
▁ଆସ୍ତେ	-11.2269
▁ପଳେଇ	-11.227
riority	-11.227
▁odia	-11.227
▁ସଂପାଦ	-11.227
▁ଫ୍ୟାନ୍	-11.227
▁week	-11.227
▁ଜଷ୍ଟିସ	-11.227
▁ଟୀକା	-11.227
▁ବଳିଷ୍ଠ	-11.227
▁ଟୁଇଟ	-11.2271
▁ମସ୍ତକ	-11.2271
▁କ୍ୟାଶେ	-11.2271
▁ଫାଟିଗଲା	-11.2271
▁ତାଲିକାଭୁକ୍ତ	-11.2271
▁ହଇରେ	-11.2272
▁ଜୈବିକ	-11.2272
▁ଅସ୍ୱୀକାର	-11.2272
▁ନେଉଛନ୍ତି	-11.2273
▁ଗୁଞ୍ଜି	-11.2273
▁some	-11.2273
▁ସୁଦୂର	-11.2274
▁ଖୋଜୁଛ	-11.2274
Security	-11.2274
▁Power	-11.2274
▁ନିଗମ	-11.2274
▁ନିଯୁକ୍ତ	-11.2275
▁ଶିଖନ୍ତୁ	-11.2276
▁ପ୍ରଭେଦ	-11.2276
▁ମୂଳସ୍ଥାନ	-11.2277
ର୍ୟ୍ଯ	-11.2277
▁ପଶୁମାନଙ୍କୁ	-11.2277
▁ସିଷ୍ଟମ	-11.228
▁ଦେଉଛନ୍ତି	-11.2281
▁Date	-11.2282
▁ବିପତ୍ତି	-11.2282
▁୨୦୦୩	-11.2283
▁550	-11.2284
▁ଡ୍ୟାନ୍ସ	-11.2284
୫୯	-11.2285
ତିତଲି	-11.2286
▁50%	-11.2286
▁ଆଗୁଆ	-11.2286
▁ବୋନସ୍	-11.2287
୧୯୧୪	-11.2288
76	-11.2293
▁ପୋଡି	-11.2295
▁ବସ୍ତୁଗୁଡ଼ିକୁ	-11.2295
▁[2]	-11.2295
▁ଏକମାତ୍ର	-11.2296
▁ସ୍କ୍ର	-11.2297
hā	-11.2301
▁ଲୁହା	-11.2303
▁Far	-11.2303
▁ହେଉନାହିଁ	-11.2308
▁States	-11.2309
▁କରିପାରେନା	-11.2311
▁ପର୍ଯ	-11.2318
୧୯୬୫	-11.2319
▁ବିନୟ	-11.2323
▁..”	-11.2323
ପ୍ରେମୀ	-11.2323
▁ଆଲୋଚ	-11.2326
▁ଦେଖାଯିବ	-11.2328
▁ଶୁଖ	-11.2329
▁ସମାପ୍ତି	-11.2334
▁ଡାକିଲେ	-11.2336
▁ମେଳକ	-11.234
▁ପ୍ରାପ୍ତି	-11.234
୍ରେସ	-11.2344
▁ହସିଲେ	-11.2349
▁ବଚନ	-11.2353
▁ଦେଇଥିବା	-11.2357
▁ପ୍ଲଗ	-11.2373
▁ଧନ୍ଯ	-11.2398
▁ଝା	-11.2401
▁ସମ୍ଭାଳ	-11.2401
ଗୁଆ	-11.2431
ଚାଳକ	-11.2432
12-20	-11.2438
▁giv	-11.2439
ହଜାର	-11.2445
ଦେଖିଲେ	-11.2447
ଆମ୍ଭେ	-11.245
▁ଚଢ଼ା	-11.2451
▁ଲୁଟି	-11.2454
ନଥାନ୍ତା	-11.2467
କଳକ	-11.2502
▁ବୁଝିପାର	-11.2522
▁କରିପାରୁ	-11.2544
▁ଆୟତ	-11.255
▁ଦୌଡ	-11.255
▁76	-11.2557
▁ଭାଇରସ	-11.2565
ବୁଝିଲ	-11.2601
▁କ୍ଷଣ	-11.2612
ପାରୁନାହାନ୍ତି	-11.2628
tag	-11.2636
▁ଠେ	-11.2645
Aga	-11.2646
ଭୂଷ	-11.2652
▁୪୨	-11.2661
hot	-11.2672
▁ଧନ୍ୟ	-11.268
▁ଷ୍ଟୋର	-11.268
▁ସ୍ୱାଧୀନତା	-11.2682
୧୦୦	-11.2683
▁ଚଳାଇ	-11.2693
▁୧୫୦	-11.27
▁ଫ୍ରିଜ	-11.2708
ନଦୀ	-11.2713
▁link	-11.2725
ଆଦାର	-11.274
▁ମିଶା	-11.2748
▁ମାଇକ୍ରୋ	-11.2752
▁ବୋର୍	-11.2759
▁ଦେଇପାରିବ	-11.2763
▁ବିସ୍ତାର	-11.2763
example	-11.2768
reference	-11.2769
▁Health	-11.2769
▁birth	-11.2769
107621	-11.2769
hrough	-11.2769
toolbar	-11.2769
ୟାରବିଯାମ	-11.2769
▁Android	-11.2769
▁Excel	-11.2769
▁category	-11.2769
▁children	-11.2769
▁mobile	-11.2769
▁translation	-11.2769
▁ଅଦୃଶ୍ୟ	-11.2769
▁ଅରବିନ୍ଦ	-11.2769
▁ଆନ୍ତର୍ଜାତିକ	-11.2769
▁ଉଇକି	-11.2769
▁କାଶ୍ମୀର	-11.2769
▁ଚେନ୍ନାଇ	-11.2769
▁ଜାନୁଆରି	-11.2769
▁ଡଲଫିନ	-11.2769
▁ତକ୍ସ୍ଟମ୍ଭ	-11.2769
▁ତୃଣମୂଳ	-11.2769
▁ନବଲିଖନ	-11.2769
▁ନିରୀକ୍ଷଣ	-11.2769
▁ପ୍ରତାରଣା	-11.2769
▁ଫ୍ୟାମିଲି	-11.2769
▁ସଂଖ୍ଯାତ୍ମକ	-11.2769
▁ସୈନିକ	-11.2769
ସମାବେଶରେ	-11.2769
▁ଅଶୁଦ୍ଧ	-11.2769
▁ଡିଭାଇସ୍	-11.2769
▁Font	-11.2769
▁hope	-11.2769
▁ପରିବର୍ତ୍ତେ	-11.2769
▁ସ୍ବୀକାର	-11.2769
▁ସମୁଦି	-11.2769
▁ଈଶ୍ଵର	-11.2769
Count	-11.2769
▁ଗଠିତ	-11.2769
▁shall	-11.2769
▁ଅକ୍ଷମତା	-11.2769
ଲାବଣ୍ୟ	-11.2769
ହ୍ୟାଲୋ	-11.2769
▁ଅଦାଲତ	-11.2769
▁ଆୱାଲ	-11.2769
▁ଢୋଲ	-11.2769
▁ତନଖି	-11.2769
▁ଆକବର	-11.2769
ଶେଖର	-11.2769
▁ସେବାୟତ	-11.2769
▁ଦବେି	-11.2769
▁ଡାଉନ୍	-11.277
▁ଫେରାଇବ	-11.277
▁kill	-11.277
▁ନିଶ୍ଚେ	-11.2771
▁କୃପା	-11.2771
▁ଭାଷଣ	-11.2771
▁ଘନିଷ୍ଠ	-11.2771
▁ଛାଯା	-11.2772
▁ଜଣାପଡିଛି	-11.2772
▁ପେନସନ	-11.2773
ଭୁଜ	-11.2773
ମାଳିକା	-11.2773
▁ଲେଖୁଛି	-11.2773
▁ମହାନଦୀ	-11.2774
▁ଘାତକ	-11.2774
▁ରାଜସ୍ୱ	-11.2774
▁ହସିଦେଇ	-11.2775
▁ସାକ୍ଷୀ	-11.2775
▁ଅସୁସ୍ଥତା	-11.2776
▁ବଞ୍ଚେଇବା	-11.2776
▁ପ୍ରବଣ	-11.2777
ିଲସ	-11.2777
▁ବିଷଯ	-11.2777
▁ଅଭିଗମ୍ୟତା	-11.2778
▁ପାଢୀ	-11.2779
ଗନ୍ଧା	-11.2781
▁କାନ୍ଧ	-11.2781
ସ୍ତୋତ୍ରମ୍	-11.2782
▁କରୁନାହାନ୍ତି	-11.2782
▁୨୦୧୦	-11.2782
▁ବ୍ରେକ	-11.2783
▁ମେହ୍	-11.2783
▁ଗୁଳି	-11.2783
▁ଠୋ	-11.2784
▁ପ୍ୟାକ୍	-11.2784
▁ଡାକୁଛି	-11.2785
▁ପୂର୍ତ୍ତ	-11.2786
olor	-11.2787
▁କର୍ମୀଙ୍କୁ	-11.2787
ାଢୀ	-11.2788
▁year	-11.279
▁ଯାଇଅଛି	-11.279
▁visit	-11.279
▁ବଢିଛି	-11.279
▁ଗଭୀରତା	-11.2791
▁1.5	-11.2796
▁Sep	-11.2796
▁ନଇେ	-11.2797
ଭୂତି	-11.2798
▁ଜାଣିପାରିବେ	-11.2799
▁mah	-11.2799
▁ବହନ	-11.28
▁See	-11.28
ସୁଲ	-11.2809
▁ଦୁଇଜଣ	-11.2809
▁ଅର୍ଥାତ୍	-11.2812
▁ଚାହିଁବେ	-11.2812
▁ଆୟୋଗ	-11.2813
▁ଟାଇପ୍	-11.2816
▁live	-11.2819
▁Ju	-11.2821
▁କାହାନ୍ତି	-11.2821
▁ଆଜିଠୁ	-11.2822
▁ବଞ୍ଚିବେ	-11.2824
▁OS	-11.2828
Students	-11.2836
▁ଦେଖିବୁ	-11.2836
▁ବୃଦ୍ଧା	-11.2841
van	-11.2845
▁Vo	-11.285
▁କ୍ୟାମ୍ପ	-11.2853
▁clo	-11.2865
▁ସାହା	-11.2874
▁ଫିଟି	-11.2879
ୀୟମାନଙ୍କ	-11.2888
▁କପିଲ	-11.2891
ମଦର	-11.2913
ଫେୟାର	-11.2926
ସଂଖ୍ୟ	-11.2929
▁କାର୍ଡ଼	-11.2934
ସଙ୍ଗତ	-11.2946
▁ବୁଦ୍ଧ	-11.2958
କ୍ରମେ	-11.2958
language	-11.2968
ସମ୍ପୂର୍ଣ୍ଣ	-11.2969
ତାରିଖ	-11.2971
ସ୍ୱାମୀ	-11.2971
ଶିଳ୍ପ	-11.2975
search	-11.2976
▁bro	-11.2985
୍ରାଫିକ	-11.2999
ପର୍ବ	-11.3017
ଛଡା	-11.3019
ଧରା	-11.3023
ଠୁଁ	-11.3029
ହେଁ	-11.303
ten	-11.3049
▁ଛିଡା	-11.3053
ବିଲେଇ	-11.3064
▁ସଜାଇ	-11.307
ଗଲୁ	-11.3084
▁ସଲାମ	-11.3098
ଲୋମ	-11.3098
▁କାଚ	-11.3116
▁ଅଧମ	-11.3126
▁ଗେଟ	-11.3148
ାଧିକାରୀ	-11.3152
▁ସାମ୍ନା	-11.3156
▁ଓରଫ	-11.3158
ଗୀତ	-11.319
ନାଶ	-11.3192
୭୭	-11.3211
ଗାଡ଼ି	-11.3217
▁ଫ୍ଲା	-11.3219
▁ଶୈଳ	-11.3227
▁ନ୍ୟୁଜ୍	-11.3243
▁State	-11.3254
▁ବିଦ୍ୟୁତ	-11.3274
▁ଗ୍ୟାସ	-11.3274
ନ୍ତର୍ଗତ	-11.3275
ନିଦ୍ରା	-11.3275
ଫଳା	-11.3277
bar	-11.3289
astotra	-11.3295
body	-11.3295
slot	-11.3295
ଖବରକାଗଜ	-11.3295
ଦ୍ରଷ୍ଟବ୍ୟ	-11.3295
▁+91-11-41582228	-11.3295
▁Artist	-11.3295
▁Emoticons	-11.3295
▁Management	-11.3295
▁ShortDayName	-11.3295
▁behavior	-11.3295
▁bride	-11.3295
▁piece	-11.3295
▁thought	-11.3295
▁ଅବହେଳା	-11.3295
▁ଆନ୍ତର୍ଜାତୀୟ	-11.3295
▁ଆହ୍ୱାନ	-11.3295
▁ଗ୍ରୀଷ୍ମ	-11.3295
▁ଜଳସେଚନ	-11.3295
▁ଦୁଃଶାସନ	-11.3295
▁ପାରମ୍ପରିକ	-11.3295
▁ପୁନରୁଦ୍ଧାର	-11.3295
▁ରସଗୋଲା	-11.3295
▁ରିଚାର୍ଜ	-11.3295
ଥାଆନ୍ତୁ	-11.3295
▁NKC	-11.3295
▁phone	-11.3295
▁ଜନସଂଖ୍ୟା	-11.3295
▁ଟ୍ରାନ୍ସ	-11.3295
▁ନିଶ୍ଚିତରୂପେ	-11.3295
▁ଯେପର୍ଯ୍ୟନ୍ତ	-11.3295
▁ଲୋକପ୍ରିୟତା	-11.3295
▁ସମୁଦାୟ	-11.3295
▁ଚର୍ଚ୍ଚିତ	-11.3295
▁account	-11.3295
▁ଅଶୋକ	-11.3295
▁ଶିଷ୍ଯମାନ	-11.3295
▁ରାତ୍ରି	-11.3295
▁ସମଷ୍ଟି	-11.3295
▁ସମବାୟ	-11.3295
▁ବୋତଲ	-11.3295
▁ପିଟାଲ୍	-11.3295
▁ଶୋଷଣ	-11.3295
▁ଜଡ଼ିତ	-11.3295
▁ମେକାପ	-11.3295
▁ମଉସା	-11.3296
ଥେରାପି	-11.3296
▁ଚିଲିକା	-11.3296
▁କୋମଳ	-11.3296
saha	-11.3296
burn	-11.3296
ଶିକ୍ଷିତ	-11.3296
▁ଧୂଳି	-11.3296
▁ଶିଷ୍ୟ	-11.3296
TER	-11.3296
▁ଟେବୁଲ	-11.3296
▁ଶାରଳା	-11.3296
▁ଡିଜେଲ	-11.3296
▁ଖର୍ଚ	-11.3296
ପର୍ଣ୍ଣା	-11.3296
▁resolution	-11.3296
arameter	-11.3296
Year	-11.3296
▁କ୍ଲାଏଣ୍ଟ	-11.3296
▁ସୂତାର	-11.3296
▁ସର୍ତ୍ତାବଳୀ	-11.3296
ସହସ୍ରନାମ	-11.3296
▁ଦୃଷ୍ଟିଶକ୍ତି	-11.3296
▁ସାଆନ୍ତାଣୀ	-11.3296
▁ଅନୁଭୂତି	-11.3297
3,8	-11.3297
▁Must	-11.3297
▁ନକ୍ସଲ	-11.3297
▁term	-11.3297
▁examples	-11.3297
▁ଟ୍ୱିଟ୍	-11.3297
▁ମାଷ୍ଟର୍	-11.3298
ଘ୍ନ	-11.3298
ward	-11.3298
▁ବଜାୟ	-11.3298
▁ରଖାଯାଇଛି	-11.3298
ଙ୍କଳକ	-11.3298
display	-11.3299
▁ପାରୁନଥିବା	-11.3299
▁ଦୀପିକା	-11.3299
▁ଠାବ	-11.3299
▁୧୯୮୩	-11.3299
▁Love	-11.3299
ଯାଆନ୍ତି	-11.3299
▁ନବଜାତ	-11.33
▁ରହସ୍ୟମୟ	-11.33
▁ବ୍ୟକ୍ତିତ୍ବ	-11.3301
▁ସମକାଳିତ	-11.3302
▁ଅବଗତ	-11.3302
▁ପ୍ରତିଶୋଧ	-11.3302
▁ଖାଲିକରିବା	-11.3303
▁Card	-11.3303
▁ଇଂଟର	-11.3303
▁ପରିଶୋଧ	-11.3304
▁ପରିଦର୍ଶନ	-11.3304
▁ପଟିକୁ	-11.3304
▁ପରିବର୍ତନ	-11.3305
▁ଛୁଇଁଛି	-11.3307
▁ଉପଦେଶ	-11.3307
▁ଲଭ୍	-11.3308
▁ଏତିକିବେଳେ	-11.3308
ଚାଇନା	-11.331
▁ପୌର	-11.3312
▁ରଖିଥିଲେ	-11.3314
▁ପ୍ରମାଣିତ	-11.3324
▁ରଦ୍ଦ	-11.3325
▁ବ୍ରହ୍ମା	-11.3329
March	-11.3331
=0	-11.3334
▁ପାଉଛନ୍ତି	-11.3336
ଆଡ଼କୁ	-11.3343
▁ଡେରା	-11.3344
କର୍ଣ୍ଣି	-11.3346
▁ଏଇଆ	-11.3347
▁ବୁକ୍	-11.3351
▁ବୁଡି	-11.337
ାନ୍ଧି	-11.34
୭୮	-11.341
work	-11.343
▁ପ୍ରବନ୍ଧ	-11.3453
▁ଘୁରି	-11.3461
ଚଣା	-11.3499
୨୦୦୯	-11.3524
୨୦୦୫	-11.3524
:31	-11.3525
ଉଦାହରଣ	-11.3525
ସାଂସଦ	-11.3525
ଓଡିଶା	-11.3526
card	-11.3529
ସୁନ୍ଦର	-11.3529
ପରୀକ୍ଷା	-11.353
▁ଫରେି	-11.353
ଭୋଗ	-11.3532
ଶୀର୍ଷକ	-11.3532
ବନ୍ୟା	-11.3535
▁ଟୋପ	-11.3538
ଟଣା	-11.3541
ଏମିତି	-11.3546
▁DIS	-11.3561
ମ୍ବୋ	-11.3563
▁ଅନ୍ଧାର	-11.3582
put	-11.3602
ସଂଘ	-11.361
ଗୁଲ	-11.3628
▁ଅବତାର	-11.3629
ଷ୍ଟାଣ୍ଡ	-11.3638
▁ବ୍ରାଉଜ	-11.3679
▁ଲାଗିଥିବ	-11.368
ୂଳ	-11.3683
ୂଷ	-11.3684
▁ମନୁଷ୍ଯ	-11.3687
▁gr	-11.3714
.............	-11.3719
▁କ୍ଷତ	-11.3745
▁string	-11.3768
822	-11.3774
ଥୋ	-11.3777
▁ଅନୁପସ୍ଥିତ	-11.3796
ଟବର୍ତ୍ତୀ	-11.3804
▁ଓଭର	-11.3807
▁ବିଶ୍ୱସ୍ତ	-11.3811
▁ପ୍ରଶଂସ	-11.3815
new	-11.3821
▁North	-11.3825
axi	-11.3827
▁ଧୀର	-11.3841
▁ପାଲଟି	-11.3848
କାଉଣ୍ଟ	-11.3849
▁sign	-11.3851
config	-11.3851
xternal	-11.3851
ଲାଞ୍ଜିଗଡ଼	-11.3851
▁1996).	-11.3851
▁January	-11.3851
▁Linux	-11.3851
▁October	-11.3851
▁[21:2	-11.3851
▁education	-11.3851
▁progress	-11.3851
▁ଅତ୍ୟାଚାର	-11.3851
▁ଅପରିବର୍ତ୍ତନୀୟ	-11.3851
▁ଅସମ୍ମାନ	-11.3851
▁ଅହଙ୍କାର	-11.3851
▁ଆଧ୍ୟାତ୍ମିକ	-11.3851
▁ଆପ୍ଲିକେସନ	-11.3851
▁ଆବିଷ୍କାର	-11.3851
▁ଗଣଦୁଷ୍କର୍ମ	-11.3851
▁ନିଖୋଜ	-11.3851
▁ପୋଟାଇଁଟାଲ	-11.3851
▁ବିକଶିତ	-11.3851
▁ବେସରକାରୀ	-11.3851
▁ବୟଫ୍ରେଣ୍ଡ	-11.3851
▁ଭୂଗୋଳ	-11.3851
▁ଶୂନ୍ଯ	-11.3851
▁ସୀମିତ	-11.3851
ATION	-11.3851
Chinese	-11.3851
▁banda	-11.3851
▁translate	-11.3851
▁ଉପାସନା	-11.3851
▁ଡାଇରେକ୍ଟ	-11.3851
▁ପ୍ରୋଫାଇଲ	-11.3851
▁୧୯୯୮	-11.3851
▁Koha	-11.3851
▁Point	-11.3851
▁Server	-11.3851
▁ଫ୍ରେଞ୍ଚ	-11.3851
▁ଶ୍ରୀଦେବୀ	-11.3851
ଅଧିନାୟକ	-11.3851
କଶ୍ମୀର	-11.3851
▁ଦମଦାର	-11.3851
🙏	-11.3851
▁7:30	-11.3851
▁CJK	-11.3851
▁ଜମ୍ମୁ	-11.3851
folder	-11.3851
▁କରିଥୁଲେ	-11.3851
▁ଘିଅ	-11.3851
▁ନିରୂପଣ	-11.3851
redhat	-11.3851
Book	-11.3851
▁ସୋପାନ	-11.3851
▁open	-11.3851
▁ଚୌକା	-11.3851
▁share	-11.3851
▁ଘେନି	-11.3851
▁ପହଁରା	-11.3851
ାଶିଂଟନ	-11.3851
▁ମାରାତ୍ମକ	-11.3851
▁କୁକୁଡା	-11.3851
▁ଟିକଟ	-11.3852
▁ନାମପଟି	-11.3852
▁full	-11.3852
▁ସାହାର୍ଯ୍ୟ	-11.3852
▁ପଚିଶ	-11.3852
ଆଇସିସି	-11.3852
▁even	-11.3852
ପଚାଶ	-11.3852
▁ଶ୍ରୀମନ୍ଦିର	-11.3852
onnect	-11.3852
▁ଭୁବନେଶ୍ଵର	-11.3852
▁ହୀରା	-11.3852
omputer	-11.3852
▁ବ୍ୟାଖ୍ୟା	-11.3852
▁ନିର୍ଗମ	-11.3852
▁ସୂଚିତ	-11.3852
▁change	-11.3853
▁ପ୍ରାଚଳ	-11.3853
▁want	-11.3853
ବିଂଶ	-11.3854
▁ନବୀକରଣ	-11.3854
▁ଆଗମନ	-11.3855
▁ଲାଞ୍ଚ	-11.3855
▁ଭର୍ତ୍ତିକରନ୍ତୁ	-11.3855
▁ରାଷ୍ଟ୍ର	-11.3855
▁ରୋହିତ	-11.3856
▁ମାନବୀୟ	-11.3856
▁ଚେଷ୍ଟାକରନ୍ତୁ	-11.3856
▁ପିନ୍ଧିବାକୁ	-11.3858
▁ଅପସନ	-11.3861
▁କହିନାହଁ	-11.3862
ୁଙ୍ଗି	-11.3862
▁ମୁକୁଳା	-11.3862
▁ପାଉଥିଲେ	-11.3862
▁ଏମ୍ସ	-11.3863
▁କହୁଥାଏ	-11.3863
ଶମିତ	-11.3863
▁ଲଢିବେ	-11.3863
▁Song	-11.3864
▁Java	-11.3864
Learn	-11.3865
▁ହେଉଅଛି	-11.3865
▁ମିଡ଼ିଆ	-11.3865
▁ଭାବନ୍ତି	-11.3865
▁ମେଜର	-11.3866
▁ଆପତ୍ତି	-11.3866
▁ମହତ୍ୱ	-11.3866
▁ଚଲାଇ	-11.3866
ଚ୍ୟୁତ	-11.3867
▁ଚାଲିଆସ	-11.3867
▁ଖୋଜା	-11.3868
▁ଫେଲ୍	-11.3869
anAm	-11.387
▁units	-11.387
▁ଜୀବିକା	-11.3874
▁ଛାତ୍ରଛାତ୍ରୀଙ୍କୁ	-11.3876
▁ପିଲାମାନଙ୍କୁ	-11.3879
▁ଆନିମ	-11.388
▁ମିଳୁନି	-11.388
ସ୍ମିତ	-11.3892
ଣ୍ଠି	-11.3894
▁ସାମନା	-11.3897
▁Gra	-11.3903
▁ରୁଚି	-11.3916
କୋପ	-11.3929
▁ବାଛିବା	-11.393
ବ୍ରିଜ	-11.3939
▁ଇରାନ	-11.3941
▁Ja	-11.3944
▁Pen	-11.395
▁ସୁରେଶ	-11.3951
▁ଟ୍ୟୁଟୋରିଆଲ	-11.3966
୨୬	-11.3968
▁ବିରଳ	-11.397
ୁଠାକ	-11.3982
▁ସମକାଳ	-11.3985
ଭବନ	-11.4035
▁ସ୍କ୍ରିପ୍ଟଗୁଡିକ	-11.4036
ଣ୍ତ	-11.4043
▁ପୂଜ	-11.4059
▁କ୍ଲି	-11.406
▁ଲିଭ	-11.4063
ୋକ୍ତ	-11.4072
୪୦୦	-11.4079
▁ଟ୍ରାଇ	-11.4097
ମନ୍ତ୍ର	-11.4113
DVD	-11.4113
କେଉଁ	-11.4115
ଦିବସ	-11.4115
ଦାୟିତ୍ୱ	-11.4118
ଖାଦ୍ୟ	-11.4119
text	-11.4119
କେବଳ	-11.4126
୭୫	-11.4132
ହୋଇଛି	-11.4135
ଐ	-11.4149
▁କରୁଅଛ	-11.4152
▁girl	-11.4169
ମାଲିକମାନେ	-11.4172
here	-11.4199
▁ଝଡ	-11.4217
▁ସମ୍ଭାଳି	-11.4278
▁ପାରୁନ	-11.429
ଚିକିତ୍ସ	-11.4293
▁gre	-11.4373
ମିଶ୍ର	-11.4385
▁ସ୍ତନ	-11.4428
ଭୁକ୍ତ	-11.4434
friend	-11.4436
ନୈତିକ	-11.4438
▁ଦୃଢ	-11.4438
ନୁସାରେ	-11.4439
Script	-11.4439
▁ଉଜ୍ଜୟ	-11.4439
facebook	-11.4439
MAIL	-11.4439
esktop	-11.4439
ompletion	-11.4439
ଥାଆନ୍ତେ	-11.4439
ସୌଜନ୍ୟ	-11.4439
▁December	-11.4439
▁Float	-11.4439
▁Foundation	-11.4439
▁Happy	-11.4439
▁OdishaReporter	-11.4439
▁Settings	-11.4439
▁Voices	-11.4439
▁WordPress	-11.4439
▁[102]	-11.4439
▁content	-11.4439
▁details	-11.4439
▁package	-11.4439
▁which	-11.4439
▁ଅତଏବ	-11.4439
▁ଅନୁସୂଚିତ	-11.4439
▁ଆଂଶିକ	-11.4439
▁ଆପେଆପେ	-11.4439
▁ଋଷିରୁଵାଚ	-11.4439
▁ଟ୍ରେଡିଙ୍ଗ୍	-11.4439
▁ତାମିଲନାଡୁ	-11.4439
▁ତୁର୍କମେନିସ୍ଥାନ	-11.4439
▁ନନ୍ଦନକାନନ	-11.4439
▁ନିର୍ଯାତନା	-11.4439
▁ନିୟୋଜିତ	-11.4439
▁ନୌସେନା	-11.4439
▁ପୀଡ଼ିତା	-11.4439
▁ପୃଷ୍ଠଭୂମୀ	-11.4439
▁ପ୍ରତିଶୃତି	-11.4439
▁ବ୍ଯାଖ୍ଯା	-11.4439
▁ଭୁବନେଶ୍ବର	-11.4439
▁ମୃତଦେହ	-11.4439
▁ମୟୂରଭଞ୍ଜ	-11.4439
▁ଯିରିମିୟ	-11.4439
▁ଯୋଷଫେ	-11.4439
▁ସର୍ବପ୍ରଥମେ	-11.4439
▁ସାଂସ୍କୃତିକ	-11.4439
▁ହସ୍ତକ୍ଷେପ	-11.4439
amaja	-11.4439
▁Film	-11.4439
▁Jio	-11.4439
▁SOCKS	-11.4439
▁current	-11.4439
▁look	-11.4439
▁ଆୟୋଜନ	-11.4439
▁କରିଦିଆଯିବ	-11.4439
▁କାଢନ୍ତୁ	-11.4439
▁ଖୁଲାସା	-11.4439
▁ପାର୍ଟିରେ	-11.4439
▁ପୁନଃଆକାର	-11.4439
▁ଫାଇନାଲ	-11.4439
▁ଫ୍ରାନ୍ସ	-11.4439
▁ବୁଢ଼ୀ	-11.4439
▁ONA	-11.4439
▁ପପଅପ	-11.4439
▁ପାରିବାରିକ	-11.4439
▁ଲଘୁଚାପ	-11.4439
ମୃତ୍ୟୁଞ୍ଜୟ	-11.4439
▁ବୌଦ୍ଧ	-11.4439
▁ରୂପାୟନ	-11.4439
▁କାଟନ୍ତୁ	-11.4439
▁ପ୍ରଶାନ୍ତ	-11.4439
▁ପ୍ରାପ୍ୟ	-11.4439
▁ରାଜନେତା	-11.4439
▁ଅବିଶ୍ୱାସ	-11.4439
▁ସନ୍ତୁଷ୍ଟ	-11.4439
▁ଅବରୋଧ	-11.4439
▁ଉପୁଜି	-11.4439
▁ମାଝି	-11.4439
▁ଅବିନାଶ	-11.4439
▁technology	-11.4439
▁ବିଛଣା	-11.4439
▁ଛଳନା	-11.4439
▁ଦ୍ରବ୍ଯ	-11.4439
▁Bollywood	-11.4439
Shah	-11.4439
▁ବିନୋଦ	-11.4439
▁ବ୍ରାଣ୍ଡ	-11.4439
▁ବାଇବେଲ	-11.444
▁କଢ଼ା	-11.444
▁ନମୁନା	-11.444
▁Online	-11.444
▁law	-11.444
▁ସଡ଼କ	-11.444
▁ହବେି	-11.444
ଧ୍ଯକ୍ଷ	-11.444
▁lead	-11.444
▁Katha	-11.444
▁ତୋଫାନ	-11.444
▁ପ୍ରଭାତ	-11.444
▁ଅଶ୍ୱିନୀ	-11.444
▁memo	-11.444
▁ସେନାପତି	-11.444
▁ଅଟଳ	-11.444
▁marriage	-11.444
▁Und	-11.444
▁କର୍ମଶାଳା	-11.444
▁ରେଳବାଇ	-11.444
▁ବେଆଇନ	-11.4441
ସଫ୍ଟ	-11.4441
▁ଶୁଣାଗଲା	-11.4441
▁editor	-11.4441
▁really	-11.4441
▁ବିଜୁବାବୁ	-11.4442
▁ପ୍ରପୋଜ	-11.4442
▁ସୂର୍ଯ୍ୟରାଓ	-11.4442
▁acc	-11.4442
▁ସଂକଟ	-11.4442
▁ସହସ୍ର	-11.4443
▁ଦର୍ଶାଯାଇଥିବା	-11.4443
▁ସେକେଣ୍ଡରେ	-11.4443
▁Software	-11.4444
▁Yau	-11.4444
▁ଅନୁକରଣ	-11.4444
▁କୋଉଠୁ	-11.4445
▁୧୯୮୬	-11.4445
▁ଜ୍ୟାକ	-11.4445
▁right	-11.4445
▁ପଳାଇ	-11.4445
▁ଅନନ୍ୟ	-11.4445
▁ଶ୍ରୀକୃଷ୍ଣ	-11.4445
▁ଆଦିତ୍ୟ	-11.4445
▁1998	-11.4445
ରୋପଣ	-11.4447
▁ଖେଳିଥିଲେ	-11.4447
▁does	-11.4447
▁ବାରିକ	-11.4447
▁ଆଇନଗତ	-11.4447
▁ଶୁକ୍ର	-11.4449
▁ଠକେଇ	-11.4449
▁ଚତୁର	-11.4449
▁ମୂଲ୍ୟହୀନ	-11.4449
▁Image	-11.4449
▁ବଢ଼ିଥାଏ	-11.445
atch	-11.445
▁ସଜାଡ଼	-11.4453
▁ତ୍ରୁଟିଯୁକ୍ତ	-11.4453
▁ସୁଷମ	-11.4455
୧୯୭୦	-11.4455
▁ରାଗଂ	-11.4455
▁ହାଜର	-11.4457
ପଦ୍ମଶ୍ରୀ	-11.4458
▁ନିଜସ୍ୱ	-11.446
▁ସର୍ଵ	-11.446
ourt	-11.4461
▁ଲାଗୁଥିବା	-11.4465
▁ଆସିଥିଲି	-11.4465
etro	-11.4471
▁ଚାହୁ	-11.4473
▁କିଷାନ	-11.4482
▁ପ୍ରତିମାସ	-11.4496
▁ସାହାସ	-11.4498
▁ଜିଭ	-11.4499
num	-11.4499
କାଠି	-11.4505
▁ଶିଵ	-11.4509
GUI	-11.4519
▁ବଦଳିଯାଇଥି	-11.4536
▁ଦ୍ୱି	-11.4538
ହଜୁର	-11.4544
ପ୍ରଜ୍ଞା	-11.456
ଇଟିକ	-11.4565
ଶାରଦ	-11.459
▁ଜାଣିପାରୁ	-11.4593
ଖାଉଥିବା	-11.4601
ହସନ	-11.4621
▁ଏକଟରର	-11.4624
▁ପରିଣାମ	-11.4646
ଯାଇପାରେ	-11.4666
▁ଏଟିଏମ	-11.467
▁ଫିଲ୍ଡ	-11.4689
ମୂର୍	-11.4714
roper	-11.4714
▁ଯୋଉ	-11.4719
▁ଦୌଡି	-11.4726
ମୂର୍ତ୍ତି	-11.4734
୧୯୮୧	-11.4737
ସଦାପ୍ରଭୁ	-11.4739
ଯୁଦ୍ଧ	-11.4744
ଫଟୋ	-11.4748
qui	-11.476
୍ଷଣ	-11.4761
▁ଲୁକ	-11.4763
▁ଗ୍ରାମବାସୀ	-11.4777
ବ୍ୟାକ୍	-11.4781
▁ସ୍ବଚ୍ଛ	-11.4805
ାଗାର	-11.4846
ଓ୍ବା	-11.4856
clos	-11.486
ଅଁଳ	-11.4903
ଏଡସ	-11.4921
▁ବ୍ୟାଗ	-11.4923
▁ସର୍ଭ	-11.4953
ାଉଥିଲା	-11.4964
.5%	-11.5007
GST	-11.5013
kar	-11.503
arge	-11.5046
▁ଗୋପନୀୟ	-11.5049
ଚିହ୍ନା	-11.5051
shop	-11.5054
▁ଦୁଃ	-11.5056
ବୁଢ଼ା	-11.5064
/02/2019	-11.5064
default	-11.5064
iCalImp	-11.5064
ojana	-11.5064
▁Internet	-11.5064
▁People	-11.5064
▁Retrieved	-11.5064
▁Social	-11.5064
▁Strigi	-11.5064
▁description	-11.5064
▁money	-11.5064
▁primary	-11.5064
▁ଇଚ୍ଛାମୁତାବକ	-11.5064
▁ଉଇକିମିଡ଼ିଆ	-11.5064
▁କାର୍ଯ୍ୟସୂଚୀ	-11.5064
▁କେନ୍ଦ୍ରାପଡ଼ା	-11.5064
▁ଖୋଲୁଅଛି	-11.5064
▁ଟୋଗଲକର	-11.5064
▁ଦରଖାସ୍ତ	-11.5064
▁ଦୁର୍ଭାଗ୍ୟ	-11.5064
▁ଧ୍ବଂସ	-11.5064
▁ନିଷିଦ୍ଧ	-11.5064
▁ପାଣିଗ୍ରାହୀ	-11.5064
▁ପ୍ରାଧିକରଣ	-11.5064
▁ଫ୍ଲୋରାଇଡ୍	-11.5064
▁ବୁଝନ୍ତି	-11.5064
▁ବୁଝେଇ	-11.5064
▁ବୈଷ୍ଣବ	-11.5064
▁ଭବିଷ୍ଯତ	-11.5064
▁ଭବିଷ୍ଯଦ୍ବକ୍ତା	-11.5064
▁ମାରିୟାମ୍ମା	-11.5064
▁ମୁହାଁମୁହିଁ	-11.5064
▁ଯୁଷ୍ମାକଂ	-11.5064
▁ରେଡ୍ଡୀ	-11.5064
▁ଷ୍ଟୁଆର୍ଟ	-11.5064
▁ସାଂଘାତିକ	-11.5064
▁ସାର୍ବଜନୀନ	-11.5064
▁ହ୍ରିତିକ	-11.5064
▁ୟଥେଷ୍ଟ	-11.5064
🙏🙏🙏	-11.5064
follow	-11.5064
┈┈┈┈┈┈┈	-11.5064
▁Minist	-11.5064
▁ଆକସ୍ମିକ	-11.5064
▁ଆଗପଛ	-11.5064
▁ଉତ୍ସାହିତ	-11.5064
▁ଡାଟାବେସ୍	-11.5064
▁ପୋଖରୀ	-11.5064
▁ବଗିଚା	-11.5064
▁ବ୍ୟତିକ୍ରମ	-11.5064
▁ଶତକଡା	-11.5064
▁ଶୁଷ୍କ	-11.5064
▁ସାମୟିକ	-11.5064
▁health	-11.5064
▁take	-11.5064
▁ବିଦ୍ୟମାନ	-11.5064
Punjab	-11.5064
ାର୍ଜୁନ	-11.5064
▁ମାନଦଣ୍ଡ	-11.5064
▁କାଜାଖସ୍	-11.5064
▁THE	-11.5064
▁ଜଲଦି	-11.5064
▁ଋକ୍ତର	-11.5064
▁ଏସସିବି	-11.5064
▁ଧୋକା	-11.5064
▁ବିପର୍ଯ୍ୟୟ	-11.5064
▁ଚଷମା	-11.5064
▁ସହଭାଗୀ	-11.5064
ଶୟତାନ	-11.5064
▁job	-11.5064
Create	-11.5064
▁ଦିତୀୟ	-11.5064
▁ପ୍ରଦାତା	-11.5064
▁ଶସ୍ଯ	-11.5064
▁AND	-11.5064
▁ନଗଦ	-11.5064
▁ଦକ୍ଷତା	-11.5064
▁ନିଆଯାଇଛି	-11.5064
▁ସ୍ଵର୍ଗ	-11.5064
▁ଜଡିତ	-11.5064
▁ଜୀଇଁ	-11.5064
Gadu	-11.5064
▁ସଂଚୟ	-11.5065
ପ୍ରସାରିତ	-11.5065
ିବିଆଇ	-11.5065
▁ହୁସିଆର	-11.5065
ହାଇପର	-11.5065
ୂଦ୍ରଣ	-11.5066
▁1751	-11.5066
▁ଉପଯୋଗିତା	-11.5066
▁ରୋଟୀ	-11.5066
▁କମାଲ୍	-11.5066
▁ଅଂଶଗ୍ରହଣକାରୀମାନ	-11.5066
▁ଶୁଖିଲା	-11.5067
▁ଯୋଡ଼ିପାରିବେ	-11.5067
▁ସଂଗୀତ	-11.5067
install	-11.5067
▁Import	-11.5067
▁ସୁସଂଗତ	-11.5067
▁below	-11.5067
▁ଦେଖାଯାଉ	-11.5067
▁ବ୍ୟାଟିଂ	-11.5067
▁ଡେଟିଂ	-11.5068
▁ଗାୟକ	-11.5068
▁ବଢ଼ାଇବା	-11.5068
ସ୍ମୋକି	-11.5068
Local	-11.5068
vard	-11.5068
▁Qt	-11.5069
▁ପେମେଣ୍ଟ	-11.5069
▁ପାଲଟିଛି	-11.5069
Auto	-11.507
▁ପଠାଯାଇଛି	-11.507
୍ରଯାନ	-11.507
▁Vaca	-11.507
▁nan	-11.5071
▁ଉପନାମ	-11.5072
▁ପତାକା	-11.5072
▁ମତଦାନ	-11.5073
▁ଟ୍ୱିଟର	-11.5073
▁but	-11.5073
▁ୟିବାକୁ	-11.5078
▁ପ୍ରତିଫଳ	-11.5078
▁ଟିଟୋ	-11.5078
▁ତରଳ	-11.5079
▁?''	-11.5079
▁ପ୍ରେତ	-11.5079
phan	-11.5082
▁ରାବଣ	-11.5082
▁ଅକ୍ଷୟ	-11.5083
ମିହିର	-11.5083
▁ଲାଗୁଥିଲା	-11.5084
▁କହୁଥିଲି	-11.5088
ଡାଉନ	-11.5088
ାୟେଲ	-11.509
▁adv	-11.5096
▁ଲେଖୁ	-11.5117
5,000	-11.5119
▁dat	-11.5129
ିଗଲାଣି	-11.513
▁ହରେଇ	-11.5149
eath	-11.5157
ness	-11.5196
ପଠନୀୟ	-11.5221
▁ପଢିଥାନ୍ତ	-11.5227
୯୦	-11.5242
pot	-11.527
▁କାଢିଥି	-11.5284
ାଵଲେ	-11.5291
ଗ୍ଭର	-11.5321
ssue	-11.5349
କୌଣସି	-11.5391
▁ଋଷ	-11.5405
How	-11.5406
ଉତ୍ତମ	-11.5406
ସମ୍ପର୍କ	-11.5406
ଦୟାକରି	-11.5406
ସଂଯୋଗ	-11.5407
ଘଣ୍ଟା	-11.541
ମୂଲ୍ୟ	-11.5411
Home	-11.5413
ସ୍ୱାର୍ଥରେ	-11.5417
...........	-11.5428
▁ସ୍ପର୍ଶର	-11.5436
ଗୁଁ	-11.5449
▁ରହୁଥି	-11.5495
▁ଖେଳିବ	-11.5503
ଢୁଥିବା	-11.5526
ready	-11.5542
haw	-11.5571
▁ରାହୁ	-11.5663
ଭଙ୍ଗା	-11.5671
▁ପୁଷ୍ପ	-11.5677
▁hour	-11.5692
୭୦୦	-11.5703
▁hav	-11.5718
moking	-11.5725
ocus	-11.573
▁{{	-11.573
▁Champions	-11.5731
▁million	-11.5731
0212908	-11.5731
Full	-11.5731
Hindu	-11.5731
Reference	-11.5731
Yahoo	-11.5731
ficial	-11.5731
request	-11.5731
କଷାକଷି	-11.5731
▁Channel	-11.5731
▁Gateway	-11.5731
▁Ubuntu	-11.5731
▁Virtual	-11.5731
▁Website	-11.5731
▁cease	-11.5731
▁completed	-11.5731
▁crash	-11.5731
▁darakāra	-11.5731
▁hanging	-11.5731
▁hotels	-11.5731
▁radio	-11.5731
▁reminder	-11.5731
▁symbol	-11.5731
▁ଅଣଦେଖା	-11.5731
▁ଅନୁମୋଦନ	-11.5731
▁ଆଫଗାନିସ୍ତାନ	-11.5731
▁ଉତ୍କୃଷ୍ଟ	-11.5731
▁କଶ୍ୟପ	-11.5731
▁ଗୁରୁତ୍ବପୂର୍ଣ୍ଣ	-11.5731
▁ଟଙ୍କିକିଆ	-11.5731
▁ଡ୍ରାଫ୍ଟ	-11.5731
▁ତନାଘନା	-11.5731
▁ଦାଯିତ୍ବ	-11.5731
▁ପୁରସ୍କୃତ	-11.5731
▁ପ୍ରଚାଳନ	-11.5731
▁ପ୍ରତୀକ୍ଷା	-11.5731
▁ପ୍ରିଫର୍ରେଡ଼	-11.5731
▁ବହିଷ୍କରଣ	-11.5731
▁ବହିଷ୍କାର	-11.5731
▁ମୌସୁମୀ	-11.5731
▁ଲିଫ୍ଟ	-11.5731
▁ଶତାବ୍ଦୀ	-11.5731
▁ଷଡଯନ୍ତ୍ର	-11.5731
▁ସଂରକ୍ଷକ	-11.5731
▁ସନ୍ନିହିତ	-11.5731
▁ସମ୍ପାଦିତ	-11.5731
▁ସିଦ୍ଧାନ୍ତ	-11.5731
▁ହାରାହାରି	-11.5731
▁ହୋହାଲ୍ଲା	-11.5731
▁₹100...	-11.5731
recurr	-11.5731
▁Title	-11.5731
▁contrib	-11.5731
▁shape	-11.5731
▁ଅନିବାର୍ଯ୍ୟ	-11.5731
▁ଅନୁଷ୍କା	-11.5731
▁ଗିଫ୍ଟ	-11.5731
▁ଚିନ୍ତାଧାରା	-11.5731
▁ପରମାଣୁ	-11.5731
▁ସମ୍ଭାବ୍ୟ	-11.5731
ନିୟନ୍ତ୍ରିତ	-11.5731
▁Rape	-11.5731
▁ଅର୍ଦ୍ଧ	-11.5731
▁ବୃକକ୍	-11.5731
▁ରିମାଣ୍ଡ	-11.5731
▁ସାରଥୀ	-11.5731
▁ସିଲେକ୍ଟ	-11.5731
▁ସୈନ୍ୟ	-11.5731
▁ସ୍ବୟଂ	-11.5731
Information	-11.5731
▁ନିଲମ୍ବିତ	-11.5731
▁ମିଥ୍ୟା	-11.5731
▁ହଷ୍ଟେଲ	-11.5731
ଅଳଙ୍କାର	-11.5731
▁କ୍ୟାରିୟର	-11.5731
▁ଗଜପତି	-11.5731
▁ବିତିଗଲାଣି	-11.5731
▁କାଇସରଙ୍କ	-11.5731
▁ଦୈନିକ	-11.5731
▁ମତ୍ସ୍ୟ	-11.5731
ତାନ୍ତ୍ରିକ	-11.5731
▁ଏଇଥିରୁ	-11.5731
odern	-11.5731
poke	-11.5731
▁ICQ	-11.5731
▁ଡ଼େମନ	-11.5731
▁ବିଶ୍ୱାଳ	-11.5731
MIME	-11.5731
▁ହଟାଅ	-11.5731
▁ଏହାପୂର୍ବରୁ	-11.5731
▁case	-11.5731
▁gest	-11.5731
▁ନିବାରଣ	-11.5731
▁ସାମ୍ରାଜ୍ୟ	-11.5731
▁ସଞ୍ଚାର	-11.5731
▁Memo	-11.5731
▁ଗୁରୁକୁଳ	-11.5731
▁harm	-11.5731
▁ଆମାଜନ	-11.5731
▁someone	-11.5731
▁ହବେେ	-11.5732
▁କିବୋର୍ଡ଼	-11.5732
▁କ୍ଲବ	-11.5732
▁ଶୈଳେଶ	-11.5732
▁ପ୍ରତ୍ୟାଖ	-11.5732
ଣ୍ଟ୍ରି	-11.5732
▁Kalia	-11.5732
▁ନ୍ୟାୟାଳୟ	-11.5732
▁କିଲୋଗ୍ରାମ	-11.5732
▁ଚଳଚିତ୍ର	-11.5732
ତପଥୀ	-11.5732
Nua	-11.5733
ଷ୍ଟ୍ରାଇକ	-11.5733
▁ଲଢ଼େଇ	-11.5733
▁ଖୋଜୁଥି	-11.5733
▁ସାମର୍ଥ	-11.5733
ପୁଷ୍ଟି	-11.5734
▁କ୍ଲେମ	-11.5734
▁ସ୍ମୃତିମୟ	-11.5735
▁କାଗଜପତ୍ର	-11.5735
ଆୟୁବ	-11.5735
▁ତଥ୍ୟାବଳୀ	-11.5735
▁sā	-11.5736
ଛାତ୍ରଙ୍କ	-11.5737
▁ଡେମନ	-11.5737
▁ଘୁଞ୍ଚାଇବା	-11.5737
Add	-11.5739
▁ତିନିଜଣ	-11.5739
maay	-11.5739
▁ପଡିପାରନ୍ତି	-11.574
▁ଭର୍ସନ	-11.5741
pid	-11.5741
▁ୟୁରୋପୀୟ	-11.5742
ମମ୍ମି	-11.5743
▁ସ୍ୱାଦ	-11.5744
▁ପୋଡ଼ି	-11.5744
▁ଶୁଣୁଛନ୍ତି	-11.5745
Bus	-11.5745
▁ଶାହ୍	-11.5746
୬୯	-11.5748
▁ଲିସା	-11.5749
Direct	-11.5749
ଇଞ୍ଜିନିୟରିଂ	-11.5751
▁ୟୁଜର	-11.5754
▁ଓହ୍ଲ	-11.5755
▁କୋଚ୍	-11.5758
▁ସ୍ୟୁର	-11.576
ୟୁପିଏ	-11.5767
ସୁଗାର	-11.5769
ାମିନ	-11.5793
▁ସୁନ୍ଦରଗଡ	-11.5824
ମାନଚିତ୍ର	-11.5834
▁ମାରିଦେ	-11.5837
ehr	-11.586
▁ପଟାସ	-11.587
2008	-11.595
୭୬	-11.5977
ନିଅନ୍ତୁ	-11.6041
▁ଐଶ	-11.6072
Part	-11.6087
୨୦୦୧	-11.6099
ଘୁଞ୍ଚା	-11.6107
ବିଧାନସଭା	-11.6116
Description	-11.6116
ଋଷି	-11.612
ସାବଧାନ	-11.6121
▁ଦର୍ଶାଯାଇ	-11.6135
ପଦ୍ମ	-11.6157
ରଞ୍ଜନ	-11.6177
178	-11.62
ଦେଉଥିବା	-11.6202
▁cha	-11.6219
count	-11.6223
▁କିଣୁଛ	-11.6253
▁ଲିପ୍	-11.6263
etwork	-11.6264
▁impr	-11.6275
▁ହୋ‍ଇ	-11.6319
▁ଭୂଷଣ	-11.6363
▁ପ୍ରେରଣ	-11.6381
▁ଟ୍ୱି	-11.6438
▁ଜୈବ	-11.6441
▁Girl	-11.6442
କ୍ଷିପ୍ତ	-11.6443
▁ମହାକାଶ	-11.6444
ology	-11.6445
LIFE	-11.6445
▁submit	-11.6445
Blog	-11.6445
ociety	-11.6445
▁ଦ୍ୱାଦଶ	-11.6445
▁ପଂଚାୟତ	-11.6445
▁ପ୍ରଶିକ୍ଷଣ	-11.6445
▁ପ୍ଲାଷ୍ଟିକ	-11.6445
Kerala	-11.6445
Subject	-11.6445
egistration	-11.6445
ନବକଳେବର	-11.6445
ପ୍ରାସଙ୍ଗିକ	-11.6445
▁Access	-11.6445
▁Actress	-11.6445
▁Application	-11.6445
▁Credit	-11.6445
▁Entertainment	-11.6445
▁IFFCOYuva	-11.6445
▁Join	-11.6445
▁Label	-11.6445
▁SMTP	-11.6445
▁Service	-11.6445
▁Subscribe	-11.6445
▁Twitter	-11.6445
▁Unknown	-11.6445
▁appointment	-11.6445
▁consol	-11.6445
▁sexy	-11.6445
▁shortcut	-11.6445
▁women	-11.6445
▁ଅଜାଣତରେ	-11.6445
▁ଅଦଳବଦଳ	-11.6445
▁ଅଭୟାରଣ୍ୟ	-11.6445
▁ଆଂଚଳିକ	-11.6445
▁ଆବଶ୍ଯକ	-11.6445
▁ଆମ୍ବୁଲାନ୍ସ	-11.6445
▁ଆଲଗୋରିଦମ	-11.6445
▁ଉତ୍ତେଜନା	-11.6445
▁ଉଦ୍ଦିଷ୍ଟ	-11.6445
▁କାଢ଼ନ୍ତୁ	-11.6445
▁କାର୍ଯ୍ୟକାରିଣୀ	-11.6445
▁କୋଠରୀ	-11.6445
▁ଖୁବଶୀଘ୍ର	-11.6445
▁ଗର୍ଭାବସ୍ଥା	-11.6445
▁ଗାଣିତିକ	-11.6445
▁ଘୂର୍ଣ୍ଣିଝଡ	-11.6445
▁ଚାଁହୁଛ	-11.6445
▁ଟ୍ରାଭେଲ୍	-11.6445
▁ନବରଙ୍ଗପୁର	-11.6445
▁ପଚ଼ାର	-11.6445
▁ପର୍ଯ୍ୟାପ୍ତ	-11.6445
▁ଫ୍ୟାକ୍ଟ	-11.6445
▁ବିଦୂଷକ	-11.6445
▁ବ୍ଲାଷ୍ଟର	-11.6445
▁ମୁଲତବୀ	-11.6445
▁ମୂଖ୍ଯ	-11.6445
▁ଯୂଯ	-11.6445
▁ଶ୍ରୋତା	-11.6445
▁ଷଡଙ୍ଗୀ	-11.6445
▁ଷ୍ଟାଇପେଣ୍ଡ	-11.6445
▁ସଜାଡନ୍ତୁ	-11.6445
▁ସନ୍ନିବେଶଯୋଗ୍ୟ	-11.6445
▁ହିନ୍ଦୁସ୍ତାନ	-11.6445
▁ହେଲିକପ୍ଟର	-11.6445
STYLE	-11.6445
eplace	-11.6445
present	-11.6445
▁cream	-11.6445
▁said	-11.6445
▁things	-11.6445
▁ଅମିତାଭ	-11.6445
▁ଅଶ୍ଳୀଳ	-11.6445
▁କନ୍ଧମାଳ	-11.6445
▁ଝଟକା	-11.6445
▁ନୟାଗଡ଼	-11.6445
▁ପରିଷ୍କାର	-11.6445
▁ମେସର୍ସ	-11.6445
▁Class	-11.6445
▁Startup	-11.6445
▁ଅନାମିକା	-11.6445
▁ଅପହରଣ	-11.6445
▁କୁହାଯାଉଛି	-11.6445
▁କୋଣାର୍କ	-11.6445
▁ନିସ୍ତାର	-11.6445
▁ଶମ୍ଭୁ	-11.6445
▁ହତବାକ	-11.6445
▁ବିଭାଜିତ	-11.6445
▁ହସ୍ତାନ୍ତର	-11.6445
▁ଦସ୍ତଖ	-11.6445
▁ପାଆନ୍ତି	-11.6445
▁ବ୍ଯବସ୍ଥା	-11.6445
▁ହାଲୁକା	-11.6445
ମିଲିଲିଟର	-11.6445
▁class	-11.6445
▁ଭଲପାଇବା	-11.6445
▁MiB	-11.6445
▁Rights	-11.6445
▁ନିରୀହ	-11.6445
▁ମୁନାଫା	-11.6445
▁ସୁପ୍ରିମ	-11.6445
▁ଅଭଦ୍ର	-11.6445
▁୨୦୧୩ରେ	-11.6445
▁ପ୍ରସାରଣ	-11.6445
▁ମୂଷା	-11.6445
▁ବିସ୍ମୟ	-11.6445
▁ଅଂଚଳ	-11.6445
ousehold	-11.6445
▁ଯାଜକ	-11.6445
▁୫ଫୁଟ	-11.6445
▁ପ୍ରତିରକ୍ଷା	-11.6445
▁sens	-11.6445
appear	-11.6445
▁ଅବାନ୍ତର	-11.6445
▁ବିଲିୟନ	-11.6445
▁ପିଠିରେ	-11.6445
▁ପ୍ରଚୁର	-11.6446
▁ନିଆଯିବ	-11.6446
▁ଅପଡେଟ	-11.6446
▁କେନାଲ	-11.6446
▁କପଟୀ	-11.6446
▁ବିତରକ	-11.6446
▁ଢୋକ	-11.6446
▁ନିକିତା	-11.6446
ଆକର୍ଷଣୀୟ	-11.6446
▁ଚିକିତ୍ସକ	-11.6446
ଆମ୍ଭମାନେେ	-11.6446
▁ମରୁଡ଼ି	-11.6446
ଢ଼ାଯାଏ	-11.6446
▁ନିର୍ଭରଶୀଳ	-11.6446
▁ଆଟଲା	-11.6446
▁୫୫ନଂ	-11.6446
ଏଷୌ	-11.6446
▁ପ୍ରଭାସ	-11.6446
▁ସମ୍ବର୍ଦ୍ଧ	-11.6446
▁ନିରୁପ	-11.6447
▁ପଠାଯାଇଥିବା	-11.6447
▁ନିର୍ଭୟ	-11.6447
▁ସକଳ	-11.6447
ପବ୍ଲିକ	-11.6447
▁usage	-11.6447
▁Whi	-11.6448
▁ଫ୍ରେମ	-11.6448
▁କଳିଙ୍ଗ	-11.6448
ଚାମଚ	-11.6448
download	-11.6449
ଚେତନା	-11.6449
▁କାର୍ଯ୍ୟରତ	-11.6449
▁ଗିନି	-11.6449
▁ବଂଚିବାକୁ	-11.645
▁ଅନୁଗ୍ରହ	-11.645
▁ଫର୍ମାଟ	-11.645
▁ଶୁଦ୍ଧ	-11.645
unch	-11.6451
▁ଜମିଦାର	-11.6452
▁ଅଷ୍ଟମ	-11.6453
ାର୍ଡେନ	-11.6453
▁ଆଇଏଏସ	-11.6453
ବରଗଡ଼	-11.6455
▁Anne	-11.6459
▁ଫ୍ରେସ	-11.6459
ଗରୀବ	-11.646
୍ପିସ	-11.6461
▁ବାବିଲ	-11.6464
▁ଲିଷ୍ଟ	-11.6464
5-10	-11.6468
ାଢ଼ୀ	-11.6476
▁ଠକାମ	-11.6482
Format	-11.6505
▁ବରଷ	-11.6511
(2)	-11.6514
▁ହିରୋଇନ	-11.6533
▁ବିତାଇ	-11.6536
strings	-11.6558
eek	-11.6563
▁ବିବେକ	-11.6564
ଗଣ୍ଠି	-11.6578
୍ରବଣ	-11.66
ପାହାଡ	-11.6647
ବଶେଷ	-11.6774
ପୋଷି	-11.6787
Dei	-11.6798
୨୦୦୪	-11.68
େନ୍ସ	-11.6856
ସମ୍ପଦ	-11.6862
େଉଥିଲା	-11.6881
ପ୍ରାଥମିକ	-11.6887
ଅଗଷ୍ଟ	-11.6887
NAME	-11.689
public	-11.689
ବ୍ୟବହାର	-11.6891
ଯୋଜନା	-11.6892
ନିର୍ଦ୍ଦେଶ	-11.6892
user	-11.6908
ବିଦ୍ୟା	-11.6912
God	-11.6928
▁ହିନ୍ଦ	-11.6989
▁HTTP	-11.7038
ବେଙ୍ଗଲ	-11.7051
▁5:1	-11.7064
▁କମାଣ୍ଡ	-11.712
▁minute	-11.7171
୮୮୮	-11.7175
oftware	-11.7209
▁ଜଣାପଡି	-11.721
▁down	-11.7211
elf	-11.7211
ସଂହିତା	-11.7213
▁edit	-11.7214
▁ବାରିପଦା	-11.7214
Beautiful	-11.7214
Chemical	-11.7214
College	-11.7214
Details	-11.7214
Disabilities	-11.7214
MacOS	-11.7214
Mountain	-11.7214
ReplyForward	-11.7214
Tagged	-11.7214
WITH	-11.7214
bbreviat	-11.7214
martphone	-11.7214
onflict	-11.7214
person	-11.7214
rgument	-11.7214
ssistance	-11.7214
witch	-11.7214
ଅଧରପଣା	-11.7214
କିଲଲସ	-11.7214
ଙ୍କରାଚାର୍ଯ୍ୟ	-11.7214
ଚୌଧୁରୀ	-11.7214
ାର୍ଲଫ୍ରେଣ୍ଡ	-11.7214
▁Group	-11.7214
▁brasero	-11.7214
▁କ୍ୟାସଲେସ୍	-11.7214
▁ଗଂଜାମ	-11.7214
▁ବର୍ଦ୍ଧିତ	-11.7214
▁ବିଭାଜକ	-11.7214
▁ଭୀଷଣ	-11.7214
▁ମନମୋହନ	-11.7214
▁ଯାନ୍ତ୍ରିକ	-11.7214
▁ରାଜରାସ୍ତା	-11.7214
▁ଶାମୁୟେଲ	-11.7214
▁ଶିକ୍ଷଣକାର୍ଯ୍ୟ	-11.7214
▁ଶେଷାଦ୍ରି	-11.7214
▁ସଫ୍ଟୱେର	-11.7214
VirtualBox	-11.7214
karipār	-11.7214
peech	-11.7214
ଷ୍ଟାଡିୟମ	-11.7214
▁ଇନ୍ଦିରା	-11.7214
▁ଉଲ୍ଲିଖିତ	-11.7214
▁ପଶ୍ଚିମବଙ୍ଗ	-11.7214
▁ମହାରଥୀ	-11.7214
▁ଲଗଆଉଟ	-11.7214
ehili	-11.7214
୍ରଦୂଷଣ	-11.7214
▁ଦୌଡ଼ରେ	-11.7214
▁"{1}"	-11.7214
କ୍ଷୋଭ	-11.7214
ନଖୋଲା	-11.7214
peak	-11.7214
ାଢ଼ୁଅଛି	-11.7214
ୈକୁଣ୍ଠ	-11.7214
▁ହରିପ୍ରସାଦ	-11.7214
ଯିହୁଦା	-11.7214
website	-11.7214
୍ୟାରେଣ୍ଟି	-11.7214
▁ଦମନକ	-11.7214
▁ଅର୍ଚ୍ଚନା	-11.7214
▁ମୂଲ୍ୟାୟନ	-11.7214
ଞ୍ଚଳିକ	-11.7214
Thank	-11.7215
Delhi	-11.7215
ION	-11.7215
ଝଗଡା	-11.7215
ୁଢ଼ାସୁର	-11.7215
୍ୟାବିନେଟ	-11.7215
▁ଉପରୋକ୍ତ	-11.7215
ପ୍ଲାଣ୍ଟ	-11.7215
ାଣକ୍ୟ	-11.7215
୍ଲୋବାଲ	-11.7215
ଜଳବାୟୁ	-11.7215
ୃତ୍ତିକା	-11.7215
KHA	-11.7215
econd	-11.7215
ସାନବାବୁ	-11.7216
ନୁକୂଳ	-11.7216
ବ୍ୟାପୀ	-11.7216
ସତ୍ତ୍ୱେ	-11.7216
%02	-11.7216
▁kari	-11.7217
ସାରିଲାଣି	-11.7218
hange	-11.7218
ୁଖପାତ୍ର	-11.7218
ଂଶୀଦାର	-11.7218
24,000	-11.7218
ଓ୍ଵାଇ	-11.7219
ଭିଭାବକ	-11.7221
image	-11.7221
oday	-11.7221
▁ଗ୍ରୀନ	-11.723
ବାବୁଶାନ	-11.7231
ଶୋଥ	-11.7236
poem	-11.7253
▁ତତ୍କାଳ	-11.7263
ସ୍ୱାର୍ଥପର	-11.7273
davi	-11.7288
▁ପଲେଷ୍ଟୀୟମାନ	-11.7298
଼ା	-11.7299
ୁଣ୍ଢ	-11.7322
ତୁଟ	-11.7328
ଷ୍ଟୋରରେ	-11.7362
▁ରିପ	-11.7381
earn	-11.7388
ହସ୍ତୀ	-11.7452
▁coun	-11.746
▁ଫାଶ	-11.7482
Inde	-11.7505
ଲୱାର	-11.7511
ୁଝି	-11.7575
▁ରଖାଯାଇ	-11.759
ବସିଥିଲା	-11.7599
ଅଗ୍ନି	-11.772
Time	-11.7722
ପ୍ରତ୍ୟେକ	-11.7723
ଦ୍ବାରା	-11.7723
title	-11.7724
interest	-11.7761
▁ବୁନ୍ଦ	-11.7783
୍ରାଉଜିଙ୍ଗ	-11.7882
press	-11.7889
ମ୍ବାଦିକଙ୍କୁ	-11.7916
▁ବ୍ରହ୍ମଚର	-11.7929
bus	-11.7942
▁କିଣିବ	-11.8003
ରଖିଥାଏ	-11.8008
▁ସ୍ବତନ୍ତ୍ର	-11.8022
ସ୍ତୋତ୍ରମ	-11.8026
▁ପ୍ରୋତ୍ସାହ	-11.8029
▁ଅଭିଗମ୍ୟ	-11.8033
▁ଚୌକି	-11.8033
ଫେଲ	-11.8039
▁ଆବୃତ	-11.8044
▁ଆଶ୍ଚର୍ଯ	-11.8045
▁Opera	-11.8048
Luck	-11.8048
ଷ୍ଟ୍ରେଲିୟା	-11.8048
Commons	-11.8048
Message	-11.8048
Status	-11.8048
ଶ୍ଲେଷଣ	-11.8048
▁ଗୋଵିଂଦ	-11.8048
▁ବୃଷ୍ଟିପାତ	-11.8048
Development	-11.8048
MarcEdit	-11.8048
November	-11.8048
ORIYA	-11.8048
Policy	-11.8048
Type	-11.8048
Uncategorized	-11.8048
University	-11.8048
college	-11.8048
defined	-11.8048
ncouragement	-11.8048
organiz	-11.8048
period	-11.8048
recaution	-11.8048
ssenger	-11.8048
unknown	-11.8048
usiness	-11.8048
ଆନୁଷ୍ଠାନିକ	-11.8048
ଗିଜସ୍ତାନ	-11.8048
ତାଜିକିସ୍ତାନ	-11.8048
ନୁମୋଦିତ	-11.8048
ମ୍ପ୍ଲୟର୍ସ	-11.8048
ଲୁକ୍କାୟିତ	-11.8048
ସ୍ତିଷ୍କ	-11.8048
ସ୍ପେଶାଲ	-11.8048
ାଧିନତା	-11.8048
ୋମାଇସିନ	-11.8048
ୟିରୂଶାଲମ	-11.8048
ୟିହୂଦା	-11.8048
▁Hatat	-11.8048
▁Please	-11.8048
▁ଆଉଟପୁଟ	-11.8048
▁ଆଭ୍ୟନ୍ତରୀଣ	-11.8048
▁ଗବେଷକ	-11.8048
▁ଚିତ୍ରସଙ୍କେତ	-11.8048
▁ଜୀବନସାଥୀ	-11.8048
▁ପରିଦର୍ଶିତ	-11.8048
▁ବଲାଙ୍ଗୀର	-11.8048
▁ବିମାନବନ୍ଦର	-11.8048
▁ଭିଜିଲାନ୍ସ	-11.8048
▁ମଧ୍ୟାହ୍ନ	-11.8048
▁ଯବକ୍ଷାରଜାନ	-11.8048
▁ଶୁଭ୍ରାଂଶୁ	-11.8048
Machine	-11.8048
yahoo	-11.8048
▁ଜାହାଜ	-11.8048
support	-11.8048
ପଥପ୍ରଦର୍ଶନ	-11.8048
Record	-11.8048
୍ଷତିଭରଣା	-11.8048
▁just	-11.8048
▁ଛାଣିବା	-11.8048
ଅନ୍ତର୍ଜାତୀୟ	-11.8048
▁ଅନ୍ତତଃ	-11.8048
Preview	-11.8048
while	-11.8048
ଡକାୟାଇଥାଏ	-11.8048
Body	-11.8048
UTC	-11.8048
roject	-11.8048
▁କଇଁଛ	-11.8048
▁ଲଘୁ	-11.8048
▁ଡିରେକ୍ଟ	-11.8048
▁Here	-11.8048
ାମନ୍ତରାୟ	-11.8048
ccept	-11.8048
ondition	-11.8048
▁ଗହମ	-11.8048
exist	-11.8048
ର୍ଜିକାଲ	-11.8048
▁ନିସାନ	-11.8048
VPN	-11.8048
ଅଗ୍ରାହ୍ୟ	-11.8048
style	-11.8048
▁ସକେଟ	-11.8048
ସାପେକ୍ଷ	-11.8048
ୋତ୍ତର	-11.8048
ନୁଧ୍ୟାନ	-11.8048
recognize	-11.8049
▁ପୂର୍ଣ୍ଣଚନ୍ଦ୍ର	-11.8049
କୀର୍ତ୍ତନ	-11.8049
▁ଅବଦୁଲ	-11.8049
ିୟନ୍ତ୍ରକ	-11.8049
PHP	-11.805
୍ୱିବେଦୀ	-11.805
ପହୃତ	-11.805
ହ୍ୟାଣ୍ଡ	-11.8052
ମ୍ପ୍ରଦାୟ	-11.8052
▁ପରିକ୍ଷଣ	-11.8052
ିଥ୍ଯା	-11.8058
ରେଡିଆନ	-11.806
ଚୌକିଦାର	-11.8063
ଦୀପ୍ତି	-11.8065
ାପୁଡା	-11.8069
ାତୁଣୀ	-11.8071
ଣାଶୁଣା	-11.8078
ather	-11.8083
ୟିଷ୍ର	-11.8084
login	-11.8091
Media	-11.8103
▁ଚୟନକର୍ତ୍ତ	-11.8107
ମୋହରେ	-11.8146
2017).	-11.8148
ିଭିଜନ	-11.8172
ଶୀତଲ	-11.82
ୁପରଷ୍ଟାର	-11.82
ଚୋରା	-11.8238
ୁପଚାପ	-11.8283
ାଶାେ	-11.8329
୍ଷକ	-11.8344
▁ପଟ୍ଟ	-11.835
ାଷାକୋଷ	-11.8358
୍ରମାଗତ	-11.8374
ଝାଳ	-11.8397
ୁଧୁରି	-11.8427
saurus	-11.85
ସ୍ନାତ	-11.8569
▁ପଢ଼ିପାରି	-11.8615
ssociates	-11.8624
ଜାଗ୍ରତ	-11.863
short	-11.8632
ନୂଆ	-11.8638
ମରିଯା	-11.8699
ସ୍ଥାପିତ	-11.8802
▁ଭ୍ରମ	-11.8922
ୁଦ୍ରକ	-11.894
ଂଗ୍ରହାଳୟ	-11.8945
▁South	-11.8951
uicide	-11.8951
ିଶାଇୟ	-11.8955
ବର୍ଦ୍ଧନ	-11.8955
▁High	-11.8956
olution	-11.8956
SUBH	-11.8956
wiki	-11.8957
ified	-11.8957
gadgets	-11.8957
▁ଜ୍ୟେଷ୍ଠ	-11.8957
▁ଦ୍ରାଘିମା	-11.8957
▁ସୌଭାଗ୍ୟ	-11.8957
HEALTH	-11.8957
Insert	-11.8957
OfThe	-11.8957
Related	-11.8957
YOUR	-11.8957
arketing	-11.8957
beautiful	-11.8957
ecret	-11.8957
estival	-11.8957
lanking	-11.8957
ommunication	-11.8957
templates	-11.8957
ultiple	-11.8957
value	-11.8957
କ୍ୟୁମୁଲେଟିଭ୍	-11.8957
ଡବ୍ଲ୍ୟୁ	-11.8957
ପରିକଳ୍ପନା	-11.8957
ପ୍ଲିକେଶନ	-11.8957
ବୈକଳ୍ପିକ	-11.8957
ରିପ୍ରେକ୍ଷୀରେ	-11.8957
ର୍ଗକିଲୋମିଟର	-11.8957
ଶ୍ଳେଷକ	-11.8957
ଷଡ଼ଯନ୍ତ୍ର	-11.8957
ିତ୍ୟେତତ୍	-11.8957
ୂସ୍ଖଳନ	-11.8957
େମସ୍ପେସ	-11.8957
ୈାଣସି	-11.8957
ୌତୁହଳ	-11.8957
▁British	-11.8957
▁Help	-11.8957
▁Netscape	-11.8957
▁evolution	-11.8957
▁ଅଦ୍ୟତିତ	-11.8957
▁ଇଚ୍ଛାଧୀନ	-11.8957
▁ଉଦ୍ଧୃତ	-11.8957
▁କୋରାପୁଟ	-11.8957
▁କୋଲକାତା	-11.8957
▁ଜୀବନଚର୍ଯ୍ୟା	-11.8957
▁ଥଇଥାନ	-11.8957
▁ଦୀପାବଳି	-11.8957
▁ପର୍ତ୍ତୁଗ	-11.8957
▁ପାରାଦୀପ	-11.8957
▁ଫସିରହିଛନ୍ତି	-11.8957
▁ମୁଥୁରାଜା	-11.8957
▁ସ୍ବଯଂଚାଳିତ	-11.8957
channel	-11.8957
▁ଆଖପାଖ	-11.8957
▁ଇଚ୍ଛାରୂପୀ	-11.8957
▁ନିଷ୍ଠୁର	-11.8957
▁ନିୟୁକ୍ତି	-11.8957
▁ମନୋନୟନ	-11.8957
▁ମ୍ୟାଡାମ୍	-11.8957
generic	-11.8957
▁ପାର୍ବତୀ	-11.8957
voter	-11.8957
▁ଡିଗ୍ରି	-11.8957
▁ଶାହାରୁଖ	-11.8957
ଧାରାବାହିକ	-11.8957
▁ମୁସଲିମ	-11.8957
▁ଶାନୱେ	-11.8957
ାୟୁସେନା	-11.8957
୍ୱଂସ	-11.8957
▁ସେଣ୍ଟିମିଟର	-11.8957
{1}	-11.8957
▁ରାଜକୀୟ	-11.8957
udio	-11.8957
▁ନିର୍ମଳ	-11.8957
umak	-11.8957
କୀରଣ	-11.8957
ପାଦେୟ	-11.8957
ଯୁକ୍ତରାଷ୍ଟ୍ର	-11.8957
▁ସଂଯୋଗିକୀ	-11.8957
▁ଦଶମିକ	-11.8957
େଟାସିଟି	-11.8957
OneNote	-11.8957
▁ଜୀବନାୟନ	-11.8957
▁ପିସିସି	-11.8957
▁ରେଡ୍ଡି	-11.8957
Frame	-11.8957
ଭାବିଚିନ୍ତି	-11.8957
ୁକାବିଲା	-11.8957
୍ରଶ୍ନବାଚୀ	-11.8957
VID	-11.8957
ତସ୍ତେ	-11.8957
ରବାଟୀ	-11.8957
ୋଭାଯାତ୍ରା	-11.8957
▁ଡ଼ିସ୍କ	-11.8957
▁ସୁଧୀର	-11.8957
ଗହଣା	-11.8958
ିକସେଲ	-11.8958
ର୍ଷାଋତୁ	-11.8958
,2016	-11.8958
▁ସଚ୍ଚି	-11.8958
feed	-11.8959
ରିସଂଖ୍ୟାନ	-11.8959
ଏଠାକାର	-11.8959
ମହାତ୍ମା	-11.8959
ଜହ୍ନ	-11.8959
gradua	-11.8959
ାର୍କେଟିଂ	-11.8959
ଝରଣା	-11.896
▁ପେଟିଏମ	-11.896
icons	-11.896
▁ସ୍ଵପ୍ନ	-11.8961
ravel	-11.8962
▁ଗ୍ରୀକ	-11.8963
lert	-11.8966
roduct	-11.8966
ୁସିଆନ	-11.8966
ension	-11.897
ବିଷ୍ୟବାଣୀ	-11.8972
ଜରୁରୀକାଳୀନ	-11.8974
ଜେଲରୁ	-11.8978
୍ପିଡ୍	-11.8982
▁ପରିଶ୍ର	-11.8983
ଅମୁକ	-11.8984
Report	-11.8993
0:18	-11.9003
ସୁପର୍	-11.9012
web	-11.9018
ଆୟତକ	-11.9019
ିଇଓ	-11.9022
ିରଫଦାରୀ	-11.9028
୍ଫୁର	-11.9028
ୀବାଣୁ	-11.9031
ବଳିଦାନ	-11.9038
Review	-11.9051
ାରିଣୀ	-11.9054
ଜାଣିନିଅନ୍ତୁ	-11.906
ବଣିଆ	-11.9061
ିକ୍ଷୁ	-11.9062
ସ୍ତାବ	-11.9072
ୂର୍ଗା	-11.9082
ାଢ଼ିଦିଅନ୍ତୁ	-11.9132
ାଲିଆ	-11.9138
Web	-11.9163
୍ଲିପ	-11.9175
ୈତାନ	-11.9209
ଯିଏକି	-11.9269
େକସନ୍	-11.9474
ସିରିଜ୍	-11.9501
ଯୀଶୁ	-11.9602
ବ୍ରହ୍ମ	-11.9622
ପ୍ରାରମ୍ଭ	-11.9627
Temp	-11.9629
ନିଶ୍ଚିତ	-11.9629
ଇଂରାଜୀ	-11.9632
ଦ୍ଵାରା	-11.9632
ଫୋଲଡର	-11.9632
ବୃଦ୍ଧି	-11.9633
ପରମେଶ୍ବର	-11.9633
ିନ୍ଧୁଛନ୍ତି	-11.9651
▁ଶୃଙ୍ଖଳ	-11.9662
ଦେଵୀ	-11.9662
ୀଳମଣି	-11.9692
▁Confi	-11.9722
▁ଯିହୂଦୀ	-11.9727
▁କରାଯାଉଥି	-11.9772
ୁଣ୍ଡିଆ	-11.9782
ପାତାଳକୁ	-11.9812
tudents	-11.9822
▁ଦମ୍ପତି	-11.9863
▁କ୍ରିଷ୍ଣ	-11.9894
Start	-11.9913
ପତ୍ତି	-11.9921
ିସର୍ଚ	-11.9924
▁Apr	-11.9935
▁ଏକ୍ସପ୍ରେସ	-11.9936
▁ପରିଚାଳନ	-11.9936
୍ୟାନ୍ସର	-11.9937
▁ତହସିଲ	-11.9944
rocess	-11.9955
▁କିବୋର୍ଡ	-11.9956
▁trans	-11.9957
ଆଇଏଫଏଫ	-11.9957
ambalpur	-11.9957
uttack	-11.9957
Cricket	-11.9957
Arjuna	-11.9957
Education	-11.9957
Examination	-11.9957
Register	-11.9957
Terbaru	-11.9957
arthak	-11.9957
caregiver	-11.9957
choose	-11.9957
difference	-11.9957
hrombo	-11.9957
mperial	-11.9957
nterface	-11.9957
otanix	-11.9957
picture	-11.9957
published	-11.9957
service	-11.9957
vCard	-11.9957
vous	-11.9957
ଗ୍ରାଜୁଏଟ୍	-11.9957
ତକ୍ଷଣାତ	-11.9957
ନ୍ତ୍ରିମଣ୍ଡଳ	-11.9957
ନ୍ୱେଷଣ	-11.9957
ବଙ୍ଗୋପସାଗରରେ	-11.9957
ଯିରୁଶାଲମ	-11.9957
ରଶ୍ରୀକାତରତା	-11.9957
ର୍ମାହତ	-11.9957
ର୍ଯ୍ୟବେସିତ	-11.9957
ସରସ୍ୱତୀ	-11.9957
ାଙ୍ଘାତିକ	-11.9957
ିତ୍ତରଂଜନ	-11.9957
ିରାପତ୍ତା	-11.9957
୍ରମବୀକ୍ଷଣ	-11.9957
୍ରସ୍ୱସ୍ୱର	-11.9957
୍ରାକ୍ଷାରସ	-11.9957
୍ଲୋରାଣ୍ଟ୍ରାନୀଲ	-11.9957
▁NNTP	-11.9957
▁Paytm	-11.9957
▁Shift	-11.9957
▁ଅକ୍ସିଜେନ	-11.9957
▁ଅସନ୍ତୁଷ୍ଟ	-11.9957
▁ଆବର୍ଜନାପାତ୍ରକୁ	-11.9957
▁ଇଣ୍ଡିଭିଜୁଆଲ୍	-11.9957
▁ଏନଟିଏମ୍	-11.9957
▁ତମାଖୁ	-11.9957
▁ତାଳଚେର	-11.9957
▁ତୀମଥିଙ୍କ	-11.9957
▁ଦିଗବଳୀଯ	-11.9957
▁ଦେଵ୍ୟୁଵାଚ	-11.9957
▁ନିରପେକ୍ଷ	-11.9957
▁ନ୍ଯୁନତମ	-11.9957
▁ପରିଚାୟକ	-11.9957
▁ପାରସ୍ପରିକ	-11.9957
▁ବହୁମାଧ୍ଯମ	-11.9957
▁ଯୋଡନ୍ତୁ	-11.9957
▁ସଙ୍ଗଠନ	-11.9957
▁ସରଗରମ	-11.9957
▁ସହକର୍ମୀ	-11.9957
▁ସ୍ପେନିସ	-11.9957
▁ହେଲମେଟ୍	-11.9957
▁ହୋମିଓପାଥି	-11.9957
Quote	-11.9957
because	-11.9957
ବର୍ଦ୍ଧକ	-11.9957
ସ୍ତବ୍ଧ	-11.9957
▁ଇଥିଓପି	-11.9957
▁କାହ୍ନୁ	-11.9957
▁ଡ଼ାହାଣ	-11.9957
▁ତେଭେତ	-11.9957
▁ପ୍ରତିକୂଳ	-11.9957
ehera	-11.9957
urants	-11.9957
ଅସୀମିତ	-11.9957
ଳାତ୍କାର	-11.9957
▁Plasm	-11.9957
▁ଖୁଡୀ	-11.9957
▁ଜେଜେବାପା	-11.9957
▁ଶ୍ୱାତ	-11.9957
Golden	-11.9957
ସମାରୋହ	-11.9957
େଦରଲ୍ୟାଣ୍ଡ	-11.9957
Admin	-11.9957
Equation	-11.9957
Language	-11.9957
ଥାଆନ୍ତା	-11.9957
ଫିସୀୟ	-11.9957
ଶ୍ୱସ୍ତି	-11.9957
Married	-11.9957
draw	-11.9957
ANDA	-11.9957
▁ପ୍ରମେୟ	-11.9957
▁ଶ୍ରୀମତୀ	-11.9957
join	-11.9957
ukh	-11.9957
ପରିହାର୍ଯ୍ୟ	-11.9957
ଳନାୟକ	-11.9957
▁ଗୋଳାଇ	-11.9957
Folder	-11.9957
cope	-11.9957
ଭିଗମ୍ଯ	-11.9957
▁ନିର୍ଦ୍ଦେଶନାମା	-11.9957
▁ଅଗ୍ରାଧିକାର	-11.9957
-2018	-11.9957
Nothing	-11.9957
ାୟବଦ୍ଧତା	-11.9957
OUT	-11.9957
true	-11.9957
ସୁରାନ୍ସ	-11.9957
▁SMS	-11.9957
ାଟାର୍ଜୀ	-11.9957
MARC	-11.9957
୍ଷତ୍ରିୟ	-11.9957
ଯନ୍ତେ	-11.9957
LIP	-11.9957
ignature	-11.9957
ଦୀର୍ଘସ୍ୱର	-11.9957
VCD	-11.9957
ପସ୍ୟା	-11.9957
ଦ୍ଯରୁ	-11.9957
ଶଯ୍ୟା	-11.9957
ସୁନ୍ନତ	-11.9957
ବିଷାକ୍ତ	-11.9957
Super	-11.9958
ollect	-11.9958
ପ୍ରତିଷ୍ଠିତ	-11.9958
ବିଜ୍ଞତା	-11.9958
ଉଷ୍ମ	-11.9958
awk	-11.9958
ଭିଶପ୍ତ	-11.9958
▁ଇଞ୍ଜିନ	-11.9959
ପାର୍ସଲ	-11.9959
nfocus	-11.9959
▁ସୁନୀଲ	-11.9959
ସ୍ମାଇଲ	-11.9959
୍ୟାପଟେନ	-11.9959
PDF	-11.996
େଲିଭରି	-11.996
OTE	-11.9961
୍ରଭୃତି	-11.9962
ର୍ୱ୍ୱ	-11.9962
Girlfriend	-11.9962
ାବୃଷ୍ଟି	-11.9963
roll	-11.9964
ଳପ୍ରପାତ	-11.9964
ର୍ଶାଇଥାଏ	-11.9966
ବଲମ୍ବନ	-11.9967
iddle	-11.9967
ocol	-11.9968
ଗ୍ରାମୀଣ	-11.997
ବମ୍ବେ	-11.9974
ଂଜୀବକ	-11.9974
April	-11.9979
ଞ୍ଜୀବ	-11.9981
2:21	-11.9982
delete	-11.9983
▁କୀର୍ତ	-11.9986
ଇନଷ୍ଟଲ	-11.999
ନ୍ଦ୍ରେୟା	-11.9992
▁Result	-11.9995
▁ହାରିଯିବ	-11.9996
ଟେନସନ	-12.0005
tatements	-12.0006
ସତ୍ୟପାଠ	-12.002
Govt	-12.0055
ଚାରିଜଣ	-12.0083
EVE	-12.0092
ାସପାତାଳ	-12.0104
....???	-12.0114
ପୁରାତନ	-12.0136
ଯୁଗଳ	-12.0153
ୂଚୀବଦ୍ଧ	-12.0171
ାଣ୍ଡବ	-12.0202
ାନ୍ଦୁଥିଲା	-12.0202
ନୁଷ୍ଯପୁତ୍ର	-12.0266
nteresting	-12.0315
Sports	-12.0352
ଭସ୍ମ	-12.0356
9.2	-12.0379
କ୍ୟଖଣ୍ଡ	-12.0468
ଜେଜେଙ୍କ	-12.0493
ଢ଼େଇ	-12.0501
େଘାଳୟ	-12.0508
▁ପରିବର୍ତ	-12.0589
ମନ୍ଦିର	-12.0736
ପାହ୍ୟା	-12.0739
ତୁମ୍ଭମାନେେ	-12.0742
ODIA	-12.0742
http	-12.0743
ତାମିଲନାଡ଼ୁ	-12.0748
▁Movie	-12.0789
▁ଉତ୍ତରପ୍ରଦେଶ	-12.0858
ିତ୍ତିଭୂମି	-12.0903
ଶିକ୍ଷକଙ୍କ	-12.0925
▁ମଧିଅ	-12.0953
eeting	-12.1024
rmation	-12.1042
▁ଅସୁସ୍ଥ	-12.1053
ଯୋଜକ	-12.1067
▁ଟର୍ମିନ	-12.1067
llywood	-12.1068
wikipedia	-12.1068
eeling	-12.1068
privacy	-12.1068
Duplicate	-12.1068
▁ହିଞ୍ଜିଳି	-12.1068
Domestic	-12.1068
ESendOptions	-12.1068
Hydro	-12.1068
Mohapatra	-12.1068
Natural	-12.1068
Phateidele	-12.1068
Regulat	-12.1068
Restart	-12.1068
bureau	-12.1068
disease	-12.1068
elebration	-12.1068
enefits	-12.1068
gnancy	-12.1068
including	-12.1068
mportant	-12.1068
nvalid	-12.1068
onscious	-12.1068
smiling	-12.1068
university	-12.1068
ଇତସ୍ତତଃ	-12.1068
ଇଲୀଶାୟ	-12.1068
କ୍ଷଣାବେକ୍ଷଣ	-12.1068
ଜପେୟୀ	-12.1068
ଟେକ୍ନୋଲୋଜି	-12.1068
ତକ୍ଷେପଣ	-12.1068
ନେଷ୍ଟବଳ	-12.1068
ନ୍ନମାଚାର୍ୟ	-12.1068
ଭୱିଷ୍ୟ	-12.1068
ଊ	-12.3418
♪	-12.3745
·	-12.7087
{	-12.7088
•	-12.9588
©	-13.2922
₹	-13.8241
║	-13.8242
┈	-13.8243
↑	-13.8244
ẹ	-13.8245
ଙ	-13.8246
