<unk>	0
<s>	0
</s>	0
ನ್	-0
ನು	-1
▁ಮ	-2
▁ನ	-3
ಲ್	-4
▁ಕ	-5
ತ್	-6
▁ಸ	-7
▁ಅ	-8
ಗಳ	-9
ರ್	-10
ಂದ	-11
▁ಹ	-12
ಲ್ಲ	-13
ರಿ	-14
ನ್ನು	-15
ಾಗ	-16
ತ್ತ	-17
▁ಪ	-18
ರು	-19
▁ಬ	-20
ಕ್	-21
▁ವ	-22
ಗೆ	-23
ಿದ	-24
▁ಆ	-25
್ರ	-26
ಿಸ	-27
ಟ್	-28
ನ್ನ	-29
▁ತ	-30
ಸ್	-31
▁ಇ	-32
ಲ್ಲಿ	-33
ುವ	-34
ೆಯ	-35
್ಯ	-36
▁ದ	-37
ಿಯ	-38
▁ನಿ	-39
ವು	-40
ಗಳು	-41
ರೆ	-42
▁ಎ	-43
▁ಮಾ	-44
▁ಅವ	-45
ದು	-46
ಾದ	-47
▁ಯ	-48
ಾಗಿ	-49
▁ಪ್ರ	-50
▁2	-51
್ದ	-52
ಾರ	-53
ತ್ತು	-54
ಿಕ	-55
ಮ್	-56
ಟ್ಟ	-57
ಿನ	-58
ಕ್ಕ	-59
ುತ್ತ	-60
▁ಗ	-61
ಂದು	-62
▁ಜ	-63
▁1	-64
▁ಮತ್ತು	-65
ಂಡ	-66
ಾಯ	-67
ಿಗೆ	-68
▁ಒ	-69
▁ರ	-70
ಾನ	-71
▁ವಿ	-72
ಂತ	-73
ಮ್ಮ	-74
▁ನೀ	-75
▁ಉ	-76
ಲು	-77
01	-78
▁ಸ್	-79
ಗಳನ್ನು	-80
▁ಮಾಡ	-81
▁(	-82
ಿಂದ	-83
▁ನಾ	-84
ದೆ	-85
ಿದ್ದ	-86
▁ಸಂ	-87
ಪ್	-88
ರುವ	-89
ಿತ	-90
ವನ್ನು	-91
▁ಚ	-92
ಲೆ	-93
ೇವ	-94
ತನ	-95
ಮಾ	-96
ಲಿ	-97
ತ್ರ	-98
▁ಶ	-99
ೊಳ	-100
ಿದೆ	-101
in	-102
ಡ್	-103
ನೆ	-104
ದಲ್ಲಿ	-105
▁ಮು	-106
ಡಿ	-107
ಕ್ಷ	-108
್ಳ	-109
▁ಹೊ	-110
▁ಮೇ	-111
▁201	-112
ವಾ	-113
ವಾಗಿ	-114
್ಯಾ	-115
ಂಗ	-116
ರಿಸ	-117
ಚ್	-118
ಂಬ	-119
ಷ್	-120
ತಿ	-121
▁ಈ	-122
er	-123
ೇಳ	-124
ಾರ್	-125
00	-126
▁ಭ	-127
▁-	-128
ಾವ	-129
an	-130
ೊಂಡ	-131
▁ಹೆ	-132
ಕ್ಕೆ	-133
ಬ್	-134
▁ಕರ್	-135
▁ನನ್ನ	-136
ನ್ನೂ	-137
▁ಆದ	-138
▁ಫ	-139
ೇಕ	-140
▁ಲ	-141
ಿಸಿ	-142
ವಿ	-143
▁ನೀವು	-144
▁/	-145
am	-146
ರಿಯ	-147
▁ನಿಮ್ಮ	-148
▁ನಿನ್ನ	-149
ುದ	-150
▁ಅದ	-151
▁ತಿ	-152
on	-153
ನ್ಯ	-154
▁ಆಗ	-155
▁ನಾನು	-156
▁ಡ	-157
ಚ್ಚ	-158
▁ಸಾ	-159
ಡು	-160
ೇಶ	-161
▁ಕೆ	-162
ರೂ	-163
ಟಿ	-164
ೋಗ	-165
ಿಸುವ	-166
▁ಅವನ	-167
▁ಬೆ	-168
ೊಳ್ಳ	-169
--	-170
ವೆ	-171
ಷ್ಟ	-172
om	-173
ವಾದ	-174
ಾಕ	-175
at	-176
▁3	-177
ುತ್ತದೆ	-178
ತನು	-179
▁ಕೊ	-180
ತ್ಯ	-181
▁S	-182
▁ಒಂದು	-183
ಾಲ	-184
ಂಗ್	-185
▁ಹೇಳ	-186
▁_	-187
es	-188
ಡುವ	-189
ಳು	-190
ಲ್ಲಾ	-191
▁C	-192
▁ಮೇಲೆ	-193
en	-194
ಾಸ	-195
▁ಜನ	-196
ar	-197
ರಿಗೆ	-198
▁ದೇವ	-199
▁ಬಳ	-200
ಣೆ	-201
▁ಇದ	-202
▁ಏ	-203
್ಧ	-204
ಾಗಿದೆ	-205
ಕರ	-206
▁ಕು	-207
ಕೆ	-208
or	-209
▁ಎಂದು	-210
▁P	-211
▁5	-212
▁ಹಾಗ	-213
▁ಸಮ	-214
ಬ್ಬ	-215
ರಿಂದ	-216
▁ತನ್ನ	-217
ಲ್ಪ	-218
▁ಅವರು	-219
ಿಸಿದ	-220
▁ಮೂ	-221
ಬೇಕ	-222
ಗಳಲ್ಲಿ	-223
ಾಪ	-224
ನಿ	-225
ುದು	-226
▁ಅವರ	-227
ನೆಯ	-228
ತಿಯ	-229
▁A	-230
ತೆ	-231
al	-232
▁ಟ	-233
▁,	-234
ಜ್	-235
ರಾ	-236
▁ಪರಿ	-237
▁ಕರ್ತನ	-238
▁ನಮ್ಮ	-239
ತು	-240
ದಿ	-241
it	-242
▁ಆದರೆ	-243
ವರ	-244
ಪ್ಪ	-245
▁T	-246
ನಾ	-247
▁ಬಿ	-248
▁4	-249
ಡೆ	-250
▁ಸಹ	-251
▁ವರ್	-252
▁ಗು	-253
▁B	-254
ಂದರೆ	-255
ಗೂ	-256
▁t	-257
ೀಯ	-258
ಂಟ	-259
▁M	-260
▁ಅವನು	-261
ಾಮ	-262
ವನ	-263
ಾನೆ	-264
com	-265
ಗ್	-266
▁ಕ್	-267
ಶ್	-268
ೆಯನ್ನು	-269
▁ಸು	-270
ಾಂ	-271
▁ಸ್ಥ	-272
ಬಹ	-273
ಿಕೆ	-274
ಾಣ	-275
ಸಿ	-276
▁ನಾವು	-277
ಾರೆ	-278
ಟ್ಟು	-279
▁ಹೆಚ್ಚ	-280
ಳ್ಳ	-281
ಲೋ	-282
ರೋ	-283
▁ನೋ	-284
ೊಂಡು	-285
st	-286
ಕಾ	-287
ಗಿ	-288
▁ಯಾ	-289
ನಾದ	-290
▁0	-291
▁ಅರ	-292
ನಗೆ	-293
▁ದಿನ	-294
ದಿಂದ	-295
▁ತೆ	-296
le	-297
ವಾಗ	-298
▁ಅಂದ	-299
ದ್ದ	-300
ಪು	-301
▁ಅಥ	-302
ಿಸಲು	-303
▁ಹೋಗ	-304
▁ಎಲ್ಲಾ	-305
▁ಮೊ	-306
ಣ್	-307
ೂರ್	-308
ic	-309
ಂತೆ	-310
ಸ್ಥ	-311
▁ಹಿ	-312
▁ಚಿ	-313
ಧ್ಯ	-314
▁ನೀನು	-315
▁ಸಿ	-316
▁&	-317
ಕಾರ	-318
▁ಹೊಂದ	-319
ಡಿಯ	-320
▁ಕೈ	-321
▁F	-322
▁H	-323
▁ಅಥವಾ	-324
ೋದ	-325
್ರಾಯ	-326
ಬಹುದು	-327
ಲೂ	-328
▁ಮುಖ	-329
▁ಕರ್ತನು	-330
..	-331
ಮಗೆ	-332
▁ಐ	-333
▁ದೇವರ	-334
▁ಮೂಲ	-335
್ರಾ	-336
▁ಯೆ	-337
ಬೇಕು	-338
ದಲ	-339
್ದು	-340
▁ಕೆಲ	-341
▁ಪು	-342
ೊಂದ	-343
▁ಕಾರ್	-344
ಷ್ಯ	-345
ರೆಯ	-346
▁ಇದು	-347
ಡೆಯ	-348
ಣ್ಣ	-349
ಿಕೊಳ್ಳ	-350
ಿತು	-351
ವೇ	-352
▁ಸಂಪ	-353
ಣಿ	-354
▁ತಿಳ	-355
ೇನೆ	-356
▁ನಿರ್	-357
▁ಸೇವ	-358
ಲೇ	-359
ಲ್ಯ	-360
▁ಇಸ	-361
-2	-362
▁ಸಂಗ	-363
▁6	-364
ing	-365
▁ಆತನ	-366
▁ಹು	-367
▁D	-368
ಂದೆ	-369
he	-370
re	-371
ುದ್ಧ	-372
ನೇ	-373
ವರ್	-374
ೂರ	-375
ೋಸ್	-376
▁W	-377
▁ಅರಸ	-378
▁ಮಕ್ಕ	-379
ಿಸಲ	-380
ಫ್	-381
ಮಿ	-382
▁R	-383
ame	-384
is	-385
ಗಳಿಗೆ	-386
▁ಇಲ್ಲ	-387
▁ವ್ಯ	-388
▁ಹೊರ	-389
▁ಕೂ	-390
▁ಸೆ	-391
ಟರ್	-392
ಿಸ್	-393
ಕ್ಸ್	-394
▁ಪಟ್ಟ	-395
ou	-396
ಮೆ	-397
▁ಅದರ	-398
ಜ್ಞ	-399
ಟ್ಯ	-400
ಪಡ	-401
▁ಓ	-402
▁8	-403
ಲಾ	-404
ೆನು	-405
ಿರ	-406
▁N	-407
▁s	-408
ad	-409
▁K	-410
ಿರುವ	-411
ೈಟ್	-412
ಸ್ತ	-413
▁ರಾ	-414
▁ಕೋ	-415
▁G	-416
▁2018	-417
▁ನೆ	-418
ion	-419
▁ಬೇ	-420
et	-421
▁ಬಾ	-422
▁ಮಗ	-423
ch	-424
...	-425
ವರು	-426
as	-427
▁ಸ್ವ	-428
ರುತ್ತ	-429
▁–	-430
-1	-431
್ರಾಯೇ	-432
▁ಖ	-433
ಲಿನ	-434
ಂತರ	-435
▁ಮಾಡುವ	-436
ಕ್ತ	-437
▁ಕೇಳ	-438
ದೇ	-439
▁ತಮ್ಮ	-440
ಿವ	-441
▁ಇಸ್ರಾಯೇ	-442
▁"	-443
amp	-444
▁L	-445
ಡಿದ	-446
ಂತ್ರ	-447
▁$	-448
ಿಲ್ಲ	-449
▁ಅನು	-450
▁ಅಂದನು	-451
▁ಉತ್ತ	-452
ಿಸುತ್ತ	-453
ಬಿ	-454
ಿಸು	-455
ೆಯು	-456
▁ಉತ್	-457
▁I	-458
▁ಮಾರ್	-459
ಾಗ್	-460
ಿಯನ್ನು	-461
ಿರಿ	-462
▁ಹಾಗೆ	-463
ed	-464
20	-465
▁ಮನು	-466
ನೂ	-467
ದುಕ	-468
ೊಂದಿಗೆ	-469
ot	-470
ಗು	-471
ಾರಿ	-472
ಂಪ	-473
▁7	-474
ol	-475
ಟೆ	-476
ಂಚ	-477
▁ಆಯ	-478
ರ್ಥ	-479
▁ವರ್ಷ	-480
ೀಕ್ಷ	-481
▁ಮನುಷ್ಯ	-482
▁ಧ	-483
▁ಯೋ	-484
ac	-485
▁ಯಾವ	-486
▁ಹೆಸ	-487
ೌನ್	-488
▁ಮೂಲಕ	-489
▁ದೇಶ	-490
▁ಆತನು	-491
▁ಯಾಕ	-492
▁m	-493
ಸು	-494
▁ಉತ್ಪ	-495
▁ಮಾಡಿದ	-496
▁ಅದನ್ನು	-497
ಗಳನ್ನೂ	-498
ಾಗಿದ್ದ	-499
▁ಸ್ಥಳ	-500
ಲ್ಪಟ್ಟ	-501
▁ಅವು	-502
ೃದ	-503
▁ವಾ	-504
ರ್ಕ	-505
ವೂ	-506
ೆಗಳು	-507
ಬೇ	-508
▁ಮೋ	-509
ಮಾನ	-510
ಂಭ	-511
▁ಬಹ	-512
▁E	-513
ಕು	-514
ನಿಗೆ	-515
▁ಟ್ಯ	-516
ರನ್ನು	-517
ರ್ಶ	-518
▁ನ್ಯ	-519
▁ಅದು	-520
▁9	-521
ಡ್ಡ	-522
ಗೊಳ	-523
▁p	-524
▁ಉಪ	-525
▁ಶಿ	-526
ಮಾಣ	-527
ಲೈ	-528
il	-529
▁ಕಾರ್ಯ	-530
▁b	-531
ಮೇ	-532
▁ತೆಗೆ	-533
ೂರ್ಣ	-534
ಾಳ	-535
▁ವಿಷ	-536
ಲೋಡ್	-537
▁2017	-538
▁10	-539
el	-540
Name	-541
▁ತು	-542
▁ಹೀ	-543
▁in	-544
ೆಯೂ	-545
▁ವೆ	-546
▁c	-547
ಲ್ಲದೆ	-548
▁ಡೌನ್	-549
▁ಮಹ	-550
▁O	-551
▁ಸಂಗಡ	-552
▁ನನಗೆ	-553
▁ಮಕ್ಕಳ	-554
ಎಸ್	-555
ro	-556
ಹಿತ	-557
ಿಯೂ	-558
▁ಬಂದ	-559
ಲಿಲ್ಲ	-560
▁ಸೇ	-561
ಂಧ	-562
ಪುಟ	-563
▁ವಿಷಯ	-564
ಂಕ	-565
ಗೋ	-566
▁ಅನ್ನು	-567
-0	-568
▁ಪ್ರತಿ	-569
ವನು	-570
▁ಇದ್ದ	-571
ent	-572
▁V	-573
ರ್ಯ	-574
▁ಮಾಡಿ	-575
▁w	-576
ೋಷ	-577
▁ನಿಮಗೆ	-578
ಗಾಗಿ	-579
▁ಡೌನ್ಲೋಡ್	-580
ಿಯಲ್ಲಿ	-581
ಚಿ	-582
ರಿಕ	-583
▁ಚಿತ್ರ	-584
▁ಒಬ್ಬ	-585
ಜಿ	-586
▁h	-587
ಕ್ರ	-588
ೋನ	-589
ಡುತ್ತ	-590
▁ಬದಲ	-591
ಯೂ	-592
▁ಹಿಂದ	-593
ಗ್ಗೆ	-594
▁ಕಿ	-595
ಚಿತ	-596
▁ಕಾ	-597
ದಿಲ್ಲ	-598
▁ಮುಂದೆ	-599
id	-600
್ರೀ	-601
▁ನಲ್ಲಿ	-602
▁ಬಳಸ	-603
ಧಾನ	-604
▁+	-605
▁ಯಾವು	-606
▁ವೈ	-607
ದರಿಂದ	-608
▁ಎರ	-609
of	-610
ಂಬರ್	-611
ವರಿ	-612
ಪಿ	-613
ಷ್ಟು	-614
▁ಅವರಿಗೆ	-615
▁ಹೇ	-616
▁20	-617
▁ಕೆಲಸ	-618
▁2019	-619
▁ಸೂ	-620
▁ಮೆ	-621
▁ಪ್ರಕಾರ	-622
50	-623
.0	-624
▁ಯೆಹ	-625
▁ಜೀ	-626
ದಕ್ಕೆ	-627
ೆಯಲ್ಲಿ	-628
ಟು	-629
ur	-630
▁f	-631
▁ಸರ	-632
▁ತೋ	-633
ಂಟ್	-634
oo	-635
▁12	-636
▁ಅಧ	-637
▁ದೊ	-638
ವಹ	-639
▁U	-640
ಗಳೂ	-641
ಗಳಿಂದ	-642
ೀರ್	-643
▁ಯು	-644
▁ಈಗ	-645
▁ಗೆ	-646
ಸೆ	-647
▁:	-648
gt	-649
▁ಎಂಬ	-650
▁19	-651
▁ಸಂಪರ್ಕ	-652
000	-653
▁ಪರ	-654
ತರ	-655
ದ್ಯ	-656
▁ಕ್ಯಾ	-657
ಳಿ	-658
▁ಹೇಳಿದ	-659
ರಿನ	-660
ಿಸುತ್ತದೆ	-661
▁(1	-662
.2	-663
▁ಹೊಸ	-664
▁ಒಳ	-665
▁ಹುಡು	-666
ೀದ	-667
▁ಮುಖಪುಟ	-668
ನ್ನಡ	-669
▁ಹೆಚ್ಚು	-670
▁ಬಲ	-671
▁ಪ್ರಯ	-672
▁ಇರುವ	-673
▁ಅವನಿಗೆ	-674
ಿನಲ್ಲಿ	-675
ವಾಗಿದೆ	-676
▁ಭೂ	-677
and	-678
ತ್ತಿ	-679
ಿಕೊಂಡ	-680
▁ಬಗ್ಗೆ	-681
ೆಯೇ	-682
ತ್ಮ	-683
▁ದು	-684
್ರಹ	-685
▁ಹಾಕ	-686
ನನ್ನು	-687
▁ಅಗ	-688
▁ಯೇ	-689
ಿಯು	-690
▁ಕನ್ನಡ	-691
us	-692
ರುತ್ತದೆ	-693
mm	-694
ೇವೆ	-695
▁ಉತ್ಪನ್ನ	-696
▁ಪ್	-697
ರಿಸುವ	-698
▁ಅನ	-699
▁ನೇ	-700
▁ಅಪ	-701
▁ನಿಯ	-702
▁ವ್ಯಾ	-703
ರಿಸಿ	-704
ೀಕ	-705
ಟಕ	-706
ಖ್ಯ	-707
▁ಯಾವುದೇ	-708
iv	-709
▁X	-710
ೇಟಿ	-711
ಾಗುವ	-712
▁ಮನೆಯ	-713
▁ಪಟ್ಟಣ	-714
ಂಡ್	-715
▁ಸ್ಟ	-716
▁ನನ್ನನ್ನು	-717
ay	-718
ಸ್ಯ	-719
ಕರಣ	-720
▁...	-721
ಮಾಡ	-722
್ಯೂ	-723
▁ಟ್ಯಾಗ್	-724
▁ಹಾ	-725
▁d	-726
▁ಅವರನ್ನು	-727
▁ಗೋ	-728
ವನ್ನೂ	-729
ನ್ನೆ	-730
.1	-731
▁ದೂರ	-732
ದ್ದು	-733
▁ಸಮಯ	-734
ow	-735
ಗಳಿ	-736
ಾತ್ರ	-737
▁ಅಭ	-738
un	-739
▁ನಿನಗೆ	-740
ಾಗುತ್ತದೆ	-741
ag	-742
ಪ್ರ	-743
▁ವಿದ	-744
▁ಚೀ	-745
▁ಅಲ್ಲಿ	-746
ಳೆ	-747
ಜೆ	-748
ಕ್ಕೂ	-749
▁ನ್ಯಾಯ	-750
ಮು	-751
ಹಾರ	-752
ಟ್ಟಿ	-753
ರೋಧ	-754
ೈಲ್	-755
▁J	-756
▁ಬಳಿಗೆ	-757
▁ಮಿ	-758
ೊಳ್ಳುವ	-759
▁ಮೇಲ್	-760
▁ಕೇ	-761
ess	-762
ಟೋ	-763
ೋಸ್ಕರ	-764
ೃತ	-765
ಲಾಗಿದೆ	-766
▁ಮಾರ್ಗ	-767
ವ್	-768
▁ಮರ	-769
▁ಎಲ್ಲ	-770
▁ದೊಡ್ಡ	-771
▁ಕಾಲ	-772
್ರೇ	-773
ಕ್ಷಣ	-774
ಾಗಿರುವ	-775
▁11	-776
▁ಪರಿಶ	-777
▁ಆಯ್	-778
▁ಹೀಗೆ	-779
ಳುಹ	-780
ig	-781
▁ಮಾಹಿತ	-782
▁ಲೇ	-783
ಕಾಶ	-784
▁ಅತ್ಯ	-785
ರ್ಪ	-786
▁ಬೀ	-787
▁ಆರ	-788
▁ಸಂತ	-789
▁ರಚ	-790
▁ಗುಣ	-791
ಲನ	-792
▁ಹೋ	-793
ಂಡು	-794
ರೇ	-795
▁ವೆಬ್	-796
os	-797
▁[	-798
▁#	-799
▁ರೂ	-800
30	-801
op	-802
ಪ್ತ	-803
▁ಬ್	-804
▁ಗಳು	-805
ಸ್ಟ್	-806
▁ವರೆ	-807
▁ಇದಲ್ಲದೆ	-808
▁ಪ್ರಮಾಣ	-809
ಜ್ಯ	-810
▁ಅವನನ್ನು	-811
▁2016	-812
▁ಘ	-813
ಿದ್ದು	-814
ನೀ	-815
▁ಕಡ	-816
-201	-817
▁ಕಂಪ	-818
▁ಉಳ	-819
ಿಸಲಾಗಿದೆ	-820
ಾಹ	-821
▁ದೇವರು	-822
▁ಕಳುಹ	-823
ab	-824
▁ಭಾಗ	-825
▁ತಂದ	-826
ೋನ್	-827
ಾನ್	-828
ಿಕೆಯ	-829
ಚಾರ	-830
▁ಉಚಿತ	-831
▁ಉತ್ತಮ	-832
▁ಯಾಕಂದರೆ	-833
▁*	-834
▁ವಿಶ್	-835
.5	-836
tt	-837
ರುಷ	-838
▁ನಂತರ	-839
ದೇಶ	-840
ಸ್ತು	-841
ation	-842
ಂಜ	-843
ಾಯಿ	-844
ಲಯ	-845
ೋಧ	-846
▁ಮಗನಾದ	-847
▁15	-848
▁the	-849
ec	-850
▁ಕಾಣ	-851
▁ಕಟ್ಟ	-852
▁ಜಿ	-853
▁ವಿಶ	-854
ಳೆಯ	-855
ಂದಿ	-856
ಕರು	-857
▁ಹೇಗೆ	-858
ದಲು	-859
▁ಸೈ	-860
▁ಹೆಸರು	-861
ಿದ್ದಾರೆ	-862
em	-863
▁18	-864
▁ಬಂದು	-865
ುತ್ತಾನೆ	-866
ಕ್ಯ	-867
ರಲ್ಲಿ	-868
▁ಸಹಾಯ	-869
ಾರಣ	-870
▁ಸಂಖ್ಯ	-871
▁ದಾವ	-872
ಗೊಂಡ	-873
ann	-874
ತ್ವ	-875
▁ರೀ	-876
ಲೀ	-877
ೊಬ್ಬ	-878
▁ಆನ್	-879
ಿಕೊಂಡು	-880
▁ನಮಗೆ	-881
ಕ್ಕಾಗಿ	-882
ಮ್ಯ	-883
ೋಜ	-884
ra	-885
ೂದ	-886
▁ನಿನ್ನನ್ನು	-887
▁ಕ್ರ	-888
▁ತಿಂ	-889
▁ಡಿ	-890
ಾಷ	-891
ಾಯಿತು	-892
ೊಂದು	-893
▁ಮನೆ	-894
ಾಂಕ	-895
th	-896
ಾದರೂ	-897
ಕ್ತಿ	-898
▁ಪಿ	-899
▁ಹೋಗಿ	-900
▁ಭೇಟಿ	-901
ಕ್ರಿಯ	-902
▁ಬಹಳ	-903
ip	-904
ೆಂದು	-905
ಂಥ	-906
ಧಿ	-907
▁ಸಾಮಾ	-908
▁ಸಹೋದ	-909
▁ಪಡೆಯ	-910
▁24	-911
ನ್ಸ್	-912
ir	-913
▁ಸೌ	-914
▁ಹೋದ	-915
▁ನಂಬ	-916
▁ಪಾ	-917
10	-918
▁ತಿರು	-919
▁ಮತ್ತ	-920
ೃದಯ	-921
▁ಲಿ	-922
ಾರದ	-923
▁ಇಗೋ	-924
▁ಭೂಮ	-925
ವಸ್ಥ	-926
ಿದ್ದಾನೆ	-927
ಷ್ಠ	-928
▁ರೆ	-929
▁ಮುಂದ	-930
im	-931
▁ಸ್ಪ	-932
▁ಗಾತ್ರ	-933
▁l	-934
ನೋ	-935
▁ಜ್	-936
▁ಟೈ	-937
ದಾರ	-938
ೇಷ	-939
▁ಮೊದಲ	-940
ಿಸಿದನು	-941
▁ವರ್ಷದ	-942
ತನಾ	-943
▁ದಾವೀದ	-944
▁ದೇವರಾದ	-945
▁ವಿರೋಧ	-946
ಿಸಿಕೊಳ್ಳ	-947
ವರೆ	-948
ತೆಯ	-949
▁ರಿ	-950
▁ಇಲ್ಲಿ	-951
▁ಕೂಡ	-952
ment	-953
▁ದಿವ	-954
▁ತೆಗೆದುಕ	-955
▁ಜೊ	-956
▁(2	-957
▁ಮಾಡಲು	-958
▁ಬರ	-959
▁ವರ್ಗ	-960
▁ಮಾತನಾ	-961
▁ಒಂದ	-962
ಬಂಧ	-963
▁200	-964
oc	-965
▁ತರ	-966
ಿಂಗ್	-967
▁ಹೃದಯ	-968
▁ವೇ	-969
80	-970
▁ಮಧ್ಯ	-971
ಕ್ರಮ	-972
ಿದ್ದೇನೆ	-973
▁ಪುಟ	-974
▁ಸಂದ	-975
▁ಲಾ	-976
▁g	-977
▁ಬೆಲೆ	-978
ಮೇಲ್	-979
▁ಸಮಾ	-980
್ಯಾಕ್	-981
ೀರಿ	-982
▁ಅಪ್	-983
ರ್ಮ	-984
▁ಮಾದ	-985
ುತ್ತಾರೆ	-986
ೋರ್	-987
▁ಆಟ	-988
▁ದಿವಸ	-989
.9	-990
▁ವಾಸ	-991
if	-992
ದನ್ನು	-993
ದರ್ಶ	-994
▁ಪೂರ್ಣ	-995
ಮಾರ	-996
▁ಅಧಿಕ	-997
ಟಾ	-998
▁ಆಜ್ಞ	-999
▁ಆಯ್ಕೆ	-1000
ang	-1001
12	-1002
▁ಜನರು	-1003
ಲೈನ್	-1004
▁ದಿನಾಂಕ	-1005
▁ಎರಡು	-1006
▁ಕತ್ತ	-1007
▁ಲೋ	-1008
▁ಜ್ಞ	-1009
ut	-1010
86	-1011
ವಾಸ	-1012
ಬೆ	-1013
ಿಗಳು	-1014
▁ವೀಕ್ಷ	-1015
▁ಕಡತ	-1016
▁ಕ್ರಿ	-1017
▁ಪ್ರವ	-1018
▁ನಕ್ಷ	-1019
ಮಾಡುವ	-1020
▁ಕೈಯ	-1021
▁ತಕ್ಕ	-1022
ಿಯಾ	-1023
▁ಕರೆ	-1024
ರಿಸಲು	-1025
lt	-1026
ೃದ್ಧ	-1027
▁ಬರುವ	-1028
▁ಸೇವೆ	-1029
ers	-1030
▁ಕೆಳ	-1031
ನಂದರೆ	-1032
▁ಇತರ	-1033
▁ಹಾಗೂ	-1034
ap	-1035
▁ಶಾ	-1036
▁ಇಸ್ರಾಯೇಲಿನ	-1037
▁ಮುನ್ನ	-1038
▁ವ್ಯವಸ್ಥ	-1039
ದ್ರ	-1040
▁ಅಗತ್ಯ	-1041
▁ತಿಳಿದ	-1042
▁ತಪ್ಪ	-1043
▁ಮನ	-1044
▁ಹುಡುಕ	-1045
▁ಪ್ರತ್ಯ	-1046
▁ಸಾಧ್ಯ	-1047
ate	-1048
ಚಿತ್ರ	-1049
▁ಸಹೋದರ	-1050
nd	-1051
od	-1052
▁ಪಾಪ	-1053
ಿದ್ದರೆ	-1054
annad	-1055
ಗಾರ	-1056
▁ಸಂಖ್ಯೆ	-1057
ಕೋ	-1058
▁=	-1059
ಬರ್	-1060
▁ತರುವ	-1061
ia	-1062
ಕ್ಷಿ	-1063
ಹಾಕ	-1064
▁16	-1065
▁ಮಾತ್ರ	-1066
▁ಯಂತ್ರ	-1067
▁ಪರಿಶುದ್ಧ	-1068
▁ಬಯ	-1069
▁ಕುರಿ	-1070
ೀಡಿಯ	-1071
ನ್ಯಾಸ	-1072
▁ಆದದರಿಂದ	-1073
▁30	-1074
40	-1075
ಾಂಶ	-1076
ವಾಣಿ	-1077
▁ಯಾಜ	-1078
▁ಒಳ್ಳ	-1079
ಿದನು	-1080
▁ಆನ್ಲೈನ್	-1081
▁ವರುಷ	-1082
ರಣೆ	-1083
ttp	-1084
▁ನಿರ್ವಹ	-1085
▁ಜೊತೆ	-1086
ಮನ	-1087
:/	-1088
ಿಯಿಂದ	-1089
▁ಲೆ	-1090
ಮಾಡಿ	-1091
▁ಯಾರ	-1092
ಜ್ಞಾನ	-1093
://	-1094
ack	-1095
▁ದೃ	-1096
▁ಕಡಿ	-1097
ಯು	-1098
ಕೊಂಡ	-1099
ಕೊ	-1100
▁ಭಾಷ	-1101
ಸುವ	-1102
▁ಅನೇಕ	-1103
▁ಸರ್	-1104
▁ಕಾರಣ	-1105
ವದ	-1106
ಸ್ಟ	-1107
▁and	-1108
▁ಟಿ	-1109
▁ಪ್ರವೇಶ	-1110
▁ಕೆಲವು	-1111
▁ಇಮೇಲ್	-1112
ಗೋಸ್ಕರ	-1113
▁ಸಾಧ	-1114
ಸಾ	-1115
ಕರ್	-1116
ಜು	-1117
▁ಪ್ರೀ	-1118
▁ಮಾಹಿತಿ	-1119
▁ಉದ್ದ	-1120
ಣ್ಣು	-1121
ವಿಲ್ಲ	-1122
▁ಮಕ್ಕಳು	-1123
▁ದಾ	-1124
ಂತಿ	-1125
▁ಗ್ರಾ	-1126
▁ಸೈಟ್	-1127
ೀನ	-1128
▁ಮೋಶ	-1129
▁ತುಂಬ	-1130
▁ಉಂಟ	-1131
▁ಪರಿಣ	-1132
11	-1133
▁.	-1134
▁ಪಟ್ಟಿ	-1135
್ವ	-1136
▁©	-1137
▁ರಲ್ಲಿ	-1138
▁ಜನರ	-1139
▁ಸಭ	-1140
▁ಕೊಟ್ಟ	-1141
ex	-1142
▁ಅಂ	-1143
ನಲ್ಲಿ	-1144
annada	-1145
▁ರೀತಿಯ	-1146
60	-1147
▁17	-1148
▁ನೀಡ	-1149
▁ಕಂಡು	-1150
▁Y	-1151
▁ಔ	-1152
▁ಹೆಚ್ಚಿನ	-1153
ೃತ್ತಿ	-1154
ಹನ	-1155
▁ಟೈಮ್	-1156
▁of	-1157
▁ಬೆಳ	-1158
▁v	-1159
▁ಸುತ್ತ	-1160
ub	-1161
▁ಇರ	-1162
▁ಉತ್ತರ	-1163
▁ಮೇಲ	-1164
ಕ್ಕು	-1165
▁ಒಪ್ಪ	-1166
ಾಂಗ	-1167
ಸರ್	-1168
▁ಉದ	-1169
ಸ್ತ್ರ	-1170
▁http	-1171
▁ಭಯ	-1172
▁ಉತ್ಪನ್ನಗಳು	-1173
▁ಯೆರೂ	-1174
um	-1175
▁ಜೆ	-1176
ಹೋಗ	-1177
▁ಫಿ	-1178
▁ಭಾರ	-1179
ಗರ	-1180
ಭವ	-1181
▁to	-1182
▁ಮುಖ್ಯ	-1183
▁ನಿಮಿ	-1184
ಿದ್ಧ	-1185
ak	-1186
▁ಕ್ಷ	-1187
▁ಮಾದರಿ	-1188
▁13	-1189
▁ಯೇಸು	-1190
ಕೆದಾರ	-1191
ೊಳಗ	-1192
▁ಸಲ	-1193
ೆಗಳ	-1194
ter	-1195
ತ್ರಿ	-1196
ಸೈಟ್	-1197
ಸಿನ	-1198
▁ನಡೆ	-1199
▁ಊ	-1200
ಹಿ	-1201
▁ಸಾಮಾನ್ಯ	-1202
ಮೂ	-1203
▁ನೋಡ	-1204
▁n	-1205
್ಯು	-1206
▁ರಾಜ್ಯ	-1207
▁ಆಹಾರ	-1208
▁ಹೋಗುವ	-1209
▁ಆಶ	-1210
all	-1211
▁ಆಫ್	-1212
▁'	-1213
▁25	-1214
▁ಬಹು	-1215
▁ಸಂತೋಷ	-1216
ob	-1217
ov	-1218
ಲಿಯ	-1219
ಬಾರ	-1220
▁ಫಲ	-1221
▁ರಿಂದ	-1222
▁a	-1223
▁ಸೂಚ	-1224
▁ಎಸ್	-1225
▁£	-1226
▁ತೊ	-1227
▁ಕುಮಾರ	-1228
ಗ್ಗ	-1229
ಜನ	-1230
▁ಚೀನಾ	-1231
▁ಗಿ	-1232
ew	-1233
▁ಹೇಳುವ	-1234
.00	-1235
ಟೆಡ್	-1236
▁ಪದ	-1237
▁ಯೆರೂಸ	-1238
ಣೆಯ	-1239
▁ಯೋಜ	-1240
ಿಸಿದರು	-1241
▁ಕಡಿಮೆ	-1242
▁ತಂತ್ರ	-1243
▁ನಮ್ಮನ್ನು	-1244
ಕದ	-1245
▁ಸೀ	-1246
▁ಬಣ್ಣ	-1247
ep	-1248
▁ಲೇಖ	-1249
▁ದೂರವಾಣಿ	-1250
ಲಾಗುತ್ತದೆ	-1251
▁ಬೇಕ	-1252
ಬ್ರ	-1253
▁ಗಣ	-1254
ಲ್ಪಡುವ	-1255
▁ಪರಿಣಾಮ	-1256
▁ಗ್ರಾಹ	-1257
ಾನೇ	-1258
omment	-1259
▁ಸಂಬಂಧ	-1260
ಿಸಬಹುದು	-1261
▁ವೆಬ್ಸೈಟ್	-1262
ಬಲ್	-1263
▁ತಯ	-1264
ುತ್ತೇನೆ	-1265
▁ತಿಳಿಯ	-1266
▁ನಿಮ್ಮನ್ನು	-1267
▁Ch	-1268
▁ಅದಕ್ಕೆ	-1269
▁14	-1270
▁ಸೋ	-1271
ಿನಿಂದ	-1272
ೊಳಗೆ	-1273
▁ಅರಸನ	-1274
▁ಹಾಗೆಯೇ	-1275
ಪದ	-1276
ಮಟ್ಟ	-1277
▁ಗಳ	-1278
▁ಏನು	-1279
ಾಗಿಯೂ	-1280
▁ನೋಡಿ	-1281
▁ಸೊ	-1282
ಿಕಿ	-1283
▁ಅವಳ	-1284
▁ನೀತಿ	-1285
▁ನಿಜ	-1286
▁ವಿವರ	-1287
▁ಕೊಂಡ	-1288
▁ಮಾತು	-1289
.3	-1290
ಾರ್ಥ	-1291
▁ನಿರ	-1292
▁ಐಗು	-1293
ಂತು	-1294
▁ಬದಲಾಯ	-1295
ct	-1296
ಭಾಗ	-1297
ine	-1298
▁ಮೊದಲು	-1299
ul	-1300
ದಗ	-1301
▁ಹಣ	-1302
▁ಹೂ	-1303
▁2015	-1304
▁100	-1305
ೆಗೆ	-1306
▁ನಾಶ	-1307
▁ಆತ್ಮ	-1308
▁ವ್ಯಾಪ	-1309
▁ವಿನ್ಯಾಸ	-1310
▁ಬ್ಯಾ	-1311
▁ವಿಶೇಷ	-1312
ೀಕರಿಸ	-1313
ಕೊಂಡು	-1314
ವಾಗಿಯೂ	-1315
▁ಪೂರ	-1316
▁@	-1317
▁ಆರ್	-1318
▁ಸಂಪೂರ್ಣ	-1319
▁ಲೈ	-1320
▁ನಿಂದ	-1321
▁ರಕ್ಷ	-1322
ಶ್ಚ	-1323
▁ಆರಂಭ	-1324
▁ಯೆರೂಸಲೇ	-1325
ಿದರು	-1326
▁ಪ್ರಾಣ	-1327
15	-1328
ೀರ	-1329
▁ಪ್ರವಾದ	-1330
ಿನಿ	-1331
ಕೊಳ್ಳ	-1332
▁ಟೆ	-1333
ಂದ್ರ	-1334
▁ಸಾಮ	-1335
▁ಅಳ	-1336
▁ಫೆ	-1337
ುದನ್ನು	-1338
▁ತಾ	-1339
▁ಜೂ	-1340
▁ಪ್ಯಾ	-1341
▁ವೀಡಿಯ	-1342
▁ವಿರೋಧವಾಗಿ	-1343
ಬ್ದ	-1344
▁ಯೆಹೂದ	-1345
▁ಚಿತ್ರಗಳು	-1346
ೊಳಗಿಂದ	-1347
▁ಒದಗ	-1348
▁ಅರಸನಾದ	-1349
▁ಅನ್	-1350
▁ಯುದ್ಧ	-1351
av	-1352
ong	-1353
▁ಹಿಂದೆ	-1354
ಟ್ರಿ	-1355
▁ಸಾವ	-1356
▁ಕಡೆ	-1357
▁ತರುವಾಯ	-1358
▁ಎದು	-1359
ಮುಖ	-1360
್ದಿ	-1361
▁ಅಭಿವ	-1362
▁%	-1363
ಕ್ಕಿ	-1364
ಮಾರ್	-1365
▁22	-1366
▁ಕ್ರಿಸ್	-1367
ಭ್ಯ	-1368
▁»	-1369
▁ಕರ್ತನಿಗೆ	-1370
ತಾ	-1371
▁ಜನವರಿ	-1372
▁“	-1373
▁ಇನ್ನೂ	-1374
ಿದ್ದರು	-1375
▁ಇಸ್ರಾಯೇಲ್	-1376
▁y	-1377
ರಿಗಿ	-1378
▁ಬಿಟ್ಟು	-1379
▁St	-1380
ವಿದೆ	-1381
▁ಉದ್ಯ	-1382
▁ಮಹಿ	-1383
ವೋ	-1384
ರಿದ	-1385
▁ಗಳನ್ನು	-1386
▁ಎತ್ತ	-1387
▁ಫಾರ್	-1388
ರುವು	-1389
ಟಿಂಗ್	-1390
▁ಸಮಸ್ತ	-1391
▁ತೂ	-1392
ಪ್ರಿ	-1393
),	-1394
ಕಟ	-1395
▁ಖಾ	-1396
ಾರಂಭ	-1397
▁ಹೊರಗೆ	-1398
▁ಆಳ	-1399
▁ಅಂಗ	-1400
▁ನಾಲ್	-1401
▁ತೆಗೆದು	-1402
▁ಕಾಯ	-1403
ಎಂ	-1404
▁ಇಲ್ಲವೆ	-1405
▁ಹೇಳಿದನು	-1406
ಡಿರಿ	-1407
ೀಕರಣ	-1408
ನೆಗಳು	-1409
▁ಅರ್ಪ	-1410
▁ನವ	-1411
▁ಜೀವ	-1412
eb	-1413
▁ಅಲ್ಲ	-1414
▁ಅವುಗಳನ್ನು	-1415
75	-1416
ವಿಧ	-1417
▁ಮಾಡಬಹುದು	-1418
▁ಗುಣಮಟ್ಟ	-1419
ಂಟರ್	-1420
ನ್ನೆಲ್ಲಾ	-1421
ಮೋ	-1422
▁ನಿಯಮ	-1423
ಲೆಯ	-1424
ಾಗಲಿ	-1425
ಕ್ತಿಯ	-1426
▁ಜ್ಞಾನ	-1427
ೋಲ್	-1428
25	-1429
▁ಆವ	-1430
▁ಹೊಂದಿದೆ	-1431
ri	-1432
ೀಲ	-1433
▁ಆಗಿದೆ	-1434
▁ವೀಡಿಯೊ	-1435
▁ಕೃ	-1436
▁ಚಲನ	-1437
ಂತಹ	-1438
ಿಗೆಯ	-1439
▁ಪ್ರತಿಯ	-1440
▁ಅಭಿವೃದ್ಧ	-1441
▁ಭಾರತ	-1442
ೋಸ್ಟ್	-1443
fo	-1444
est	-1445
▁ಪೆ	-1446
ುದಿಲ್ಲ	-1447
▁ತೋರಿಸ	-1448
ವಾರ	-1449
▁ಡಿಸ	-1450
▁ಅಕ್	-1451
16	-1452
▁ಕೊಡ	-1453
35	-1454
ಸ್ಕ	-1455
▁ಪೂರ್	-1456
▁ರಕ್ತ	-1457
ಿಕೊಳ್ಳುವ	-1458
▁k	-1459
ರವಾಗಿ	-1460
▁ಕೆಟ್ಟ	-1461
್ರೆ	-1462
▁ತಂದೆಯ	-1463
▁ಪೂರೈ	-1464
▁ಚಲನಚಿತ್ರ	-1465
ತ್ನ	-1466
▁ಸಮುದ	-1467
▁ವರೆಗೆ	-1468
ುತ್ತಮ	-1469
ವಯ	-1470
▁ಇದೆ	-1471
ಲನು	-1472
ೆಗಳನ್ನು	-1473
▁ಮೂರು	-1474
hat	-1475
▁ಜನಾಂಗ	-1476
ಯ್ಯ	-1477
▁ಮೌ	-1478
45	-1479
ಬಾರದು	-1480
▁Sh	-1481
▁ಭೂಮಿಯ	-1482
-5	-1483
▁ವಸ್ತು	-1484
▁ಭೇಟಿಗಳು	-1485
▁ಕಂಪನಿ	-1486
).	-1487
ort	-1488
▁ಯಾಜಕ	-1489
▁ಜು	-1490
▁ಆಗಿ	-1491
▁ಮನಸ್	-1492
▁ಅತ್ಯುತ್ತಮ	-1493
ಗಿನ	-1494
ಾಕ್	-1495
19	-1496
ಿಸಲ್ಪಟ್ಟ	-1497
ಬು	-1498
ವಾಗುವ	-1499
▁ಸ್ವಾ	-1500
ರಾಟ	-1501
ರ್ಭ	-1502
▁ಸೈನ್ಯ	-1503
▁ಐಗುಪ್ತ	-1504
ರಾಧ	-1505
▁ಇದನ್ನು	-1506
▁ರೇ	-1507
▁ಗುರು	-1508
▁ವಾಕ್ಯ	-1509
▁ದಯ	-1510
ಮಾಡಿದ	-1511
ರ್ಜ	-1512
▁ನವೆ	-1513
ಳಾಸ	-1514
ೇವಲ	-1515
▁ಸ್ಥಾಪ	-1516
ಪರ	-1517
ht	-1518
ಮಿನ	-1519
▁ಕಣ್ಣು	-1520
▁ಸಾಯ	-1521
ವರಿಗೆ	-1522
▁ಸಿದ್ಧ	-1523
ನ್ನತ	-1524
ಕೀಯ	-1525
ಡರ್	-1526
ದಲ್ಲ	-1527
ೋಗ್ಯ	-1528
ಟ್ಸ್	-1529
▁ಹೊರಟು	-1530
▁ವಿದ್ಯು	-1531
ರಿಗೂ	-1532
▁ಕೇವಲ	-1533
▁ವಿವಿಧ	-1534
ಶಾ	-1535
ೇಶನ್	-1536
▁ಕೊಡುವ	-1537
ದ್ಧ	-1538
ಲ್ಲರೂ	-1539
▁ಅತಿ	-1540
▁ಆಧ	-1541
▁ಚೆ	-1542
್ದರಿಂದ	-1543
▁ದೂ	-1544
▁ಹೇಳುತ್ತಾನೆ	-1545
▁ಜೀವನ	-1546
ish	-1547
ಂಬಲ	-1548
▁ಕೃತ	-1549
▁ಎಂ	-1550
ಬೈಲ್	-1551
ವಾಸಿ	-1552
▁ಉತ್ಪಾದ	-1553
co	-1554
▁ಮಾನ	-1555
▁ಕಲ	-1556
ಣ್ಯ	-1557
▁50	-1558
▁ಸೇವಕ	-1559
▁ವಿಶ್ವ	-1560
▁ತಿಂಗಳ	-1561
▁ತಿರುಗ	-1562
ಸ್ತಿ	-1563
▁ಕರೆಯ	-1564
ಲ್ಲು	-1565
▁ಗ್ರ	-1566
▁ಎರಡ	-1567
▁2014	-1568
▁ಇನ್ನ	-1569
ರಣ	-1570
▁21	-1571
▁ಥ	-1572
ೇನಂದರೆ	-1573
201	-1574
▁ನವೆಂಬರ್	-1575
▁ಚಾ	-1576
▁ಇವು	-1577
▁Kannada	-1578
ಕತೆ	-1579
▁ಅಸ	-1580
▁2013	-1581
ಹೆ	-1582
ind	-1583
ಟೋಬರ್	-1584
sh	-1585
▁ವಿಮಾನ	-1586
▁ಬಲಿ	-1587
ೆಯಿಂದ	-1588
▁ಮುಚ್ಚ	-1589
▁ವರೆಗೂ	-1590
nl	-1591
▁ದಿ	-1592
▁ಹೌ	-1593
▁ಪೇ	-1594
.201	-1595
▁ಪರೀಕ್ಷ	-1596
▁ಡಿಸೆ	-1597
▁ಕರ	-1598
ಾಟ	-1599
▁ಡೇ	-1600
▁ಬೆಂಬಲ	-1601
ನಾನು	-1602
▁ಆತನನ್ನು	-1603
pp	-1604
▁ಹತ್ತ	-1605
ಷ್ಟ್ರ	-1606
ರವ	-1607
ಡಿದು	-1608
ಿಸಬೇಕು	-1609
ೋಬ	-1610
▁ಪ್ರಮುಖ	-1611
ಿಕಿತ್	-1612
ವಾಮ್ಯ	-1613
ನೀನು	-1614
▁ಸುಲ	-1615
▁ಪ್ರಯಾಣ	-1616
ಯೇ	-1617
▁ಪ್ರದೇಶ	-1618
ww	-1619
our	-1620
200	-1621
▁ಪಡೆ	-1622
▁ಅರ್ಥ	-1623
▁ಬೆಂಕ	-1624
ik	-1625
▁Z	-1626
ಾಗುತ್ತ	-1627
▁ಹಕ್ಕು	-1628
▁ಆಗಸ್ಟ್	-1629
ಾಹರಣೆ	-1630
ಿಸಿದ್ದ	-1631
24	-1632
▁re	-1633
▁ಪ್ರಸ	-1634
ಿಯಾದ	-1635
▁ಮೊಬೈಲ್	-1636
▁ಗ್ಯಾ	-1637
▁ವಿಳಾಸ	-1638
▁ಪೋಸ್ಟ್	-1639
ಚಿಕೆ	-1640
ರ್ಥ್ಯ	-1641
▁ಪ್ರಾರಂಭ	-1642
▁23	-1643
▁ತ್ತ	-1644
▁ಮಂದ	-1645
▁ತಂದೆ	-1646
▁ಕೊನೆಯ	-1647
▁ಗಮನ	-1648
▁ತಿರಿಗಿ	-1649
ain	-1650
ಕೊಳ್ಳುವ	-1651
▁ಡಿಸೆಂಬರ್	-1652
ಫ್ಟ್	-1653
ಾವಣೆ	-1654
▁for	-1655
.4	-1656
13	-1657
ಟರಿ	-1658
▁ಉನ್ನತ	-1659
ಬೇಕೆಂದು	-1660
www	-1661
▁ದ್ದ	-1662
▁ಸಾಮರ್ಥ್ಯ	-1663
▁ಅಭಿವೃದ್ಧಿ	-1664
▁ಅಕ್ಟೋಬರ್	-1665
ರಾಗಿ	-1666
▁ಗಂಟ	-1667
▁ಯಾರು	-1668
ಟುಂಬ	-1669
ಕೇ	-1670
ಂಕ್	-1671
ವುಳ್ಳ	-1672
▁ಪ್ರಾ	-1673
ಡುಗ	-1674
▁ಮೈ	-1675
ಬಹುದ	-1676
▁ಆಕಾಶ	-1677
ವಾಗಿರುವ	-1678
▁ಅನ್ಯ	-1679
▁ಸಾವಿರ	-1680
ಂದೂ	-1681
▁ಏಪ್ರಿ	-1682
▁ಬಳಕೆದಾರ	-1683
▁ಅಬ	-1684
▁ಮಾಡುತ್ತ	-1685
▁ನಿಮಿತ್ತ	-1686
▁ಹಲ	-1687
▁ಶ್ರೀ	-1688
▁ದುಷ್ಟ	-1689
art	-1690
▁ರೈ	-1691
▁ಜೂನ್	-1692
ರಾದ	-1693
▁ತೆರೆ	-1694
▁ಹೈ	-1695
ಂಪು	-1696
▁--	-1697
ಪಡಿಸುವ	-1698
ೀತ	-1699
▁ಅರ್	-1700
▁ಹೆಂಡ	-1701
▁ಮಾರಾಟ	-1702
▁ಯಾವಾಗ	-1703
▁ಗೊ	-1704
▁ನ್ಯೂ	-1705
▁ಸಾಧನ	-1706
▁ಸಂಪರ್ಕಿಸಿ	-1707
▁ಚಿಕಿತ್	-1708
ದರ್ಶನ	-1709
▁ಶುದ್ಧ	-1710
ive	-1711
▁ಭಾವ	-1712
▁ವಿಧ	-1713
▁ಆದ್ದರಿಂದ	-1714
18	-1715
▁ಆಜ್ಞಾಪ	-1716
▁ಹೇಳಿದ್ದ	-1717
▁Q	-1718
ನೆಯನ್ನು	-1719
▁info	-1720
ev	-1721
ಪಾ	-1722
ತೆಯನ್ನು	-1723
▁ಮೀ	-1724
ಗಿಂತ	-1725
▁ಎಲ್	-1726
▁ದಿನದಲ್ಲಿ	-1727
ಲಿಕ	-1728
ಲಿಕ್	-1729
ರಳ	-1730
ಿಗಳ	-1731
ರನ್ನೂ	-1732
▁ಅರಸನು	-1733
ಕೂ	-1734
ನೆಂದು	-1735
▁ಕರ್ತನೇ	-1736
▁ವಿಂಡ	-1737
90	-1738
cm	-1739
▁ಕೋಡ್	-1740
▁ಬರೆಯ	-1741
.8	-1742
▁ಫ್ಯಾ	-1743
▁ಜುಲೈ	-1744
ಮೈ	-1745
ಹಾ	-1746
▁ನಿಲ್ಲ	-1747
▁ಕ್ಯಾಸಿನ	-1748
oft	-1749
ಲೊ	-1750
▁In	-1751
▁ಸಮುದ್ರ	-1752
ಬೇಡ	-1753
▁ಏಳು	-1754
▁ಬ್ಲ	-1755
▁ಸಂಸ್ಥ	-1756
▁28	-1757
28	-1758
ಕಿ	-1759
▁ಬಯಸ	-1760
▁st	-1761
▁ಅಂಕ	-1762
್ರಾಕ್ಷ	-1763
ಲ್ಪಡ	-1764
70	-1765
▁ಸಮಸ್ಯ	-1766
ಪರ್	-1767
ದಕ್ಕೂ	-1768
▁ಫೋನ್	-1769
▁ಅನ್ವಯ	-1770
-3	-1771
▁ತರಬೇ	-1772
▁ಸ್ವಯ	-1773
▁ಬಾಗ	-1774
Comment	-1775
▁ಕೀ	-1776
▁ಶು	-1777
ಗಾರಿ	-1778
▁ಮಾತ	-1779
ಯೋಜ	-1780
ಹಾಸ	-1781
,000	-1782
▁r	-1783
▁ಲಭ್ಯ	-1784
▁ಷ	-1785
▁ವರ	-1786
▁ಎಕ್ಸ್	-1787
ನನ್ನ	-1788
▁ಒಳ್ಳೇ	-1789
ುವಳ	-1790
▁ಸತ್ತ	-1791
ಟ್ಟನು	-1792
ಕಾಲ	-1793
ಕೆಯ	-1794
▁ಸುಲಭ	-1795
▁ಪುಸ್ತ	-1796
▁ಪ್ರಕಟ	-1797
ಸಂ	-1798
ian	-1799
.6	-1800
74	-1801
▁ರೊ	-1802
▁ಬಳಿಯಲ್ಲಿ	-1803
ಣದ	-1804
ಾನಿ	-1805
ಾದರೆ	-1806
ವರನ್ನು	-1807
ವಿದ	-1808
▁ಒಳಗೆ	-1809
▁ಅನುಭವ	-1810
▁ಅವುಗಳ	-1811
▁ದ್ರಾಕ್ಷ	-1812
ಪ್ಟೆ	-1813
▁ಕುಟುಂಬ	-1814
ಿಸ್ವಾಮ್ಯ	-1815
▁ಕೃತಿಸ್ವಾಮ್ಯ	-1816
ma	-1817
▁ನಡೆಯ	-1818
▁ಪ್ರಧಾನ	-1819
ದಲ್ಲಿರುವ	-1820
ಎಲ್	-1821
▁ದೇಶದ	-1822
▁ಕ್ಯಾಸಿನೊ	-1823
ಹ್	-1824
▁ಅಡ	-1825
ಾದಿ	-1826
▁ವೇಳ	-1827
▁ಹುಟ್ಟ	-1828
▁ಡೆ	-1829
▁2020	-1830
▁ಮಾರ್ಚ್	-1831
ಕಟ್ಟ	-1832
▁€	-1833
▁ಕಾನ	-1834
▁ಸ್ತ್ರ	-1835
ಿಕೆಯನ್ನು	-1836
ವಂತ	-1837
▁ಗುಡ	-1838
▁ಅತ್ಯಂತ	-1839
ly	-1840
▁ಹೊಂದಿ	-1841
▁ಟ್	-1842
▁ಜೊತೆಗೆ	-1843
ity	-1844
ತ್ಮಕ	-1845
▁ಇಳ	-1846
▁ವಿದ್ಯುತ್	-1847
▁ಕಡೆಗೆ	-1848
▁ಚಿಕ್ಕ	-1849
▁ಕ್ರಿಸ್ತನ	-1850
▁ಸರಿಯ	-1851
ight	-1852
ಹದ	-1853
ಕಾರಿ	-1854
se	-1855
▁ಇಂದ	-1856
▁ಉದಾಹರಣೆ	-1857
ಂಸ	-1858
ೆಲ್ಲಾ	-1859
ಿತವಾಗಿ	-1860
ಡುಗೆ	-1861
ಬ್ರವರಿ	-1862
29	-1863
▁•	-1864
one	-1865
▁ಘಟಕ	-1866
▁ತಿಳುವಳ	-1867
gle	-1868
▁ಅಲ	-1869
▁ನಡುವ	-1870
▁ಹೌದು	-1871
▁ನೀರಿನ	-1872
▁ಫ್	-1873
ies	-1874
ಂಟು	-1875
▁ಕೋಪ	-1876
▁by	-1877
▁FS	-1878
ಿದರೆ	-1879
▁ಅಧ್ಯ	-1880
ಾಯ್	-1881
ತಿಯನ್ನು	-1882
▁ಒಳಗೊಂಡ	-1883
ber	-1884
ಿದು	-1885
ಾಗ್ಯೂ	-1886
▁ದಲ್ಲಿ	-1887
▁ಸುವ	-1888
▁ಅಂದರು	-1889
▁ವಿಧಾನ	-1890
▁ಪ್ರಯತ್ನ	-1891
ಲ್ಯಾ	-1892
og	-1893
ಯನ	-1894
▁ಭಾಷೆ	-1895
▁ಯೆಹೋ	-1896
▁ವಿಸ್	-1897
ೈಲ	-1898
▁ವಿಮ	-1899
▁ಸರಣಿ	-1900
▁ದೇ	-1901
▁ಕೇಂದ್ರ	-1902
ದ್	-1903
ಆರ್	-1904
▁ಇವೆ	-1905
▁ನೇಮ	-1906
▁ಮೇಲೆಯೂ	-1907
▁ಮರು	-1908
26	-1909
▁ಕರು	-1910
ಿಯಾಗಿ	-1911
ಎನ್	-1912
▁ನಡ	-1913
▁ಇನ್ನು	-1914
▁00	-1915
▁ಅದೇ	-1916
▁ಬೆಟ್ಟ	-1917
▁ಮನುಷ್ಯನು	-1918
23	-1919
ಟಲ್	-1920
ರ್ಸ್	-1921
▁ಪ್ರೊ	-1922
▁ಒಟ್ಟು	-1923
ುತ್ತಿರುವ	-1924
▁ಎನ್	-1925
ರಿಸಲಾಗಿದೆ	-1926
ock	-1927
ಮಿಟೆಡ್	-1928
▁ಏಪ್ರಿಲ್	-1929
ನಿಕ	-1930
ರಕ್ಷ	-1931
▁ವೇಗ	-1932
▁ಅಂತ	-1933
▁ನಕ್ಷೆ	-1934
▁ಸೆಪ್ಟೆ	-1935
▁ಕೆಳಗೆ	-1936
ce	-1937
qu	-1938
ಭು	-1939
▁ಸಂಯೋಜ	-1940
▁ತೂಕ	-1941
▁ವಿಭಾಗ	-1942
▁ತಕ್ಕೊಂಡು	-1943
▁ಫೆಬ್ರವರಿ	-1944
▁ಬು	-1945
▁ನಿಯಂತ್ರ	-1946
▁ಜಾ	-1947
▁ಖರ	-1948
ಿಸಿದೆ	-1949
▁ರೂಪ	-1950
▁ಸ್ನೇ	-1951
ಚ್ಛ	-1952
ುವದು	-1953
▁ಏಕೆ	-1954
are	-1955
ಿತಿ	-1956
▁ಎಚ್ಚ	-1957
ದ್ದನ್ನು	-1958
14	-1959
ard	-1960
ಶೋಧ	-1961
ಲಾಸ್	-1962
ear	-1963
ಾಪಕ	-1964
▁ದೋಷ	-1965
▁ಅಂದರೆ	-1966
AN	-1967
ಶಿ	-1968
▁ಪುಸ್ತಕ	-1969
▁ಮಧ್ಯದಲ್ಲಿ	-1970
▁ಕಿಟಕ	-1971
ith	-1972
▁ಪಾಲ	-1973
▁ಬೇರೆ	-1974
ill	-1975
▁ಹೇಳಿ	-1976
7)	-1977
-8	-1978
ವಳ	-1979
ist	-1980
▁(3	-1981
▁ವನ್ನು	-1982
▁ಆರೋ	-1983
▁ನೈ	-1984
▁ಇನ್	-1985
▁ಅವಳು	-1986
▁ಲೈಟ್	-1987
ವತ	-1988
▁~	-1989
▁ಪ್ರಶ್	-1990
99	-1991
▁27	-1992
ide	-1993
▁ಕ್ರಿಯ	-1994
ಿಸಿಕೊಂಡ	-1995
▁ಅದರಲ್ಲಿ	-1996
ಲಾದ	-1997
▁ನಾನೇ	-1998
▁ವಿಮರ್ಶ	-1999
ಡಾ	-2000
tion	-2001
▁ಕೊಳ್ಳ	-2002
▁ತೀ	-2003
▁ವಿದ್ಯಾ	-2004
ವತ್ತು	-2005
▁ನಿವಾಸಿ	-2006
ng	-2007
ru	-2008
ಭಾವ	-2009
▁ಬಿಡ	-2010
ಹೋದ	-2011
ವರೂ	-2012
ಿಕೊ	-2013
▁ತೆರೆಯ	-2014
▁°	-2015
▁ಲಿಮಿಟೆಡ್	-2016
▁ಕಾಮ	-2017
▁ನಗರ	-2018
▁ಆತನಿಗೆ	-2019
ತ್ರಿಕ	-2020
ಿದ್ದನು	-2021
zh	-2022
ಷನ್	-2023
▁86	-2024
▁ಹಿಂದಿನ	-2025
▁ದಾವೀದನು	-2026
ಾಲಯ	-2027
ುವನು	-2028
ಕ್ಕಿಂತ	-2029
ೀಪ	-2030
▁ಗ್ರಾಹಕ	-2031
▁ಸ್ವಲ್ಪ	-2032
ಪಟ್ಟ	-2033
▁ಬೇಡ	-2034
▁ತಿಂಗಳು	-2035
▁ಇಸ್ರಾಯೇಲ್ಯ	-2036
▁ನಮ	-2037
▁ಬೆಳ್ಳ	-2038
ast	-2039
ಶ್ಯ	-2040
ಸ್ತೆ	-2041
▁ಎದ್ದು	-2042
ಿಪ	-2043
▁ಜಲ	-2044
▁ಸಣ್ಣ	-2045
ನ್ನಾಗಿ	-2046
▁ಅವಕಾಶ	-2047
▁ಒತ್ತ	-2048
▁ಕೊಂಡು	-2049
▁26	-2050
ದಂತೆ	-2051
ನಿಂದ	-2052
▁ದೃಷ್ಟ	-2053
▁ಗೌ	-2054
▁ರೋ	-2055
▁ಯನ್ನು	-2056
▁HD	-2057
▁ಸಿಂ	-2058
▁ಒಡ	-2059
▁ವಾದ	-2060
2)	-2061
CO	-2062
ಸೇ	-2063
▁ದಾಸ	-2064
▁ವಾಗಿ	-2065
▁ಆಲಯ	-2066
ವೆಂದು	-2067
ವಿಕ	-2068
ಿಯನ್	-2069
▁ಸುದ	-2070
▁ತಿಳಿದು	-2071
ರಿಸು	-2072
▁ಸತ್ಯ	-2073
▁ಉಪಕರಣ	-2074
▁ಪ್ಲ	-2075
ಲಿಗೆ	-2076
▁ಯಾಕೋಬ	-2077
▁ಸೆಪ್ಟೆಂಬರ್	-2078
ost	-2079
ದೋ	-2080
ಂದಿಗೂ	-2081
▁ಸಂಶೋಧ	-2082
ree	-2083
▁29	-2084
▁ಸಂದೇಶ	-2085
ದಲ್ಲಿಯೂ	-2086
.7	-2087
ite	-2088
ದಿಯ	-2089
ನಂದ	-2090
ಲಾಗಿ	-2091
ಲೆಟ್	-2092
▁ಸ್ವಂತ	-2093
▁ರಸ್ತೆ	-2094
ನೆಗಳನ್ನು	-2095
▁ನೋಡುವ	-2096
ಿದಾಗ	-2097
▁ಬಾಯ	-2098
▁ಶೆ	-2099
▁40	-2100
▁ಪ್ರಾರ್ಥ	-2101
ಕೀ	-2102
ಗ್ರಹ	-2103
ವಿರುವ	-2104
▁ಶಿಕ್ಷಣ	-2105
ತೋ	-2106
▁ಮಾಡುತ್ತದೆ	-2107
▁is	-2108
ಂಡರ್	-2109
▁ಬರೆ	-2110
▁ಮಾಡು	-2111
▁ಒಂದೇ	-2112
▁ತರಬೇತಿ	-2113
able	-2114
ನಾದರೂ	-2115
▁ಬ್ಲಾಗ್	-2116
▁ನೀರು	-2117
▁ಆಡ	-2118
ಮಾರು	-2119
▁ಕುರಿತು	-2120
▁ಅಶ	-2121
▁ಲೆಕ್ಕ	-2122
▁ಮ್ಯಾ	-2123
▁ಮಾಡಿದನು	-2124
▁on	-2125
▁ನು	-2126
▁ಪಾರ್	-2127
):	-2128
▁ಆಶೀರ್	-2129
ication	-2130
▁ಉದ್ದೇಶ	-2131
▁ಸದ	-2132
ಟಿಕ್	-2133
▁The	-2134
▁ಬದಲಾವಣೆ	-2135
▁ತಂತ್ರಜ್ಞಾನ	-2136
org	-2137
▁ಸಂಗ್ರಹ	-2138
ನೀವು	-2139
▁ನಿರ್ವಹಣೆ	-2140
ah	-2141
▁ಪರ್	-2142
▁ಯಾವಾಗಲೂ	-2143
4)	-2144
ವಾಗುತ್ತದೆ	-2145
ib	-2146
▁ಲೇಖನ	-2147
ಗಳಿಗಾಗಿ	-2148
ಾಗಿದ್ದು	-2149
ಸೂ	-2150
ಿಸಿರಿ	-2151
▁ಮಂದಿ	-2152
ಯೋಗ	-2153
▁ಸರಿ	-2154
▁ಶಬ್ದ	-2155
ದನು	-2156
▁ನೂ	-2157
▁ನೀಡಿ	-2158
ಿಯೇ	-2159
▁ಕ್ರಮ	-2160
ಮೋನ	-2161
ಾಲ್	-2162
▁ಪಾವ	-2163
▁ವೃತ್ತಿ	-2164
▁ಕಂಡ	-2165
ಬೇಕಾದ	-2166
ಲಿಕ್ಸ್	-2167
▁ಆಟಗಳು	-2168
▁ಕೇಳಿ	-2169
▁ರಚಿಸಲಾಗಿದೆ	-2170
UR	-2171
▁ಪಿತ	-2172
▁ಹಂಚ	-2173
▁ಜಿಲ್ಲ	-2174
ಡಿಯಲ್ಲಿ	-2175
ಮೀ	-2176
▁ಆಸ	-2177
ಪ್ಪು	-2178
▁ವ್ಯಾಪಾರ	-2179
▁ಬ್ರ	-2180
▁ಯೆಹೂ	-2181
ash	-2182
▁ಇಷ್ಟ	-2183
-10	-2184
▁ಗೇ	-2185
ಂಗಳೂ	-2186
▁ಮೌಲ್ಯ	-2187
▁ಗುಣಮಟ್ಟದ	-2188
▁ಗಾಗಿ	-2189
▁ಹಾಗೆಯೂ	-2190
eng	-2191
ಿಂದಲೂ	-2192
ುತ್ತವೆ	-2193
▁ವಿಶ್ವವಿದ	-2194
ೇಸ್	-2195
▁ಲೇವ	-2196
▁ಮಗನು	-2197
▁ಯೆಹೂದದ	-2198
▁ತೆಗೆದುಕೊಂಡು	-2199
65	-2200
ass	-2201
▁ಪಡೆಯಲು	-2202
▁US	-2203
▁ಗೋತ್ರ	-2204
ಿಸಲಾದ	-2205
▁ನಾಲ್ಕು	-2206
ಗುವ	-2207
▁ಬೋಧ	-2208
▁ಸಮಯದಲ್ಲಿ	-2209
ದಿಂದಲೂ	-2210
▁ಯೆರೂಸಲೇಮ	-2211
IN	-2212
ೋಣ	-2213
▁ಮೊಳ	-2214
▁ಇಪ್ಪ	-2215
▁ಪಿತೃ	-2216
▁ಆವೃತ್ತಿ	-2217
▁ಪ್ರತ್ಯೇಕ	-2218
ress	-2219
ನಿಗೂ	-2220
▁ಬೀಳ	-2221
▁ಸಮಾಧಾನ	-2222
3)	-2223
▁ಕರ್ತನನ್ನು	-2224
ಿಸುತ್ತೇನೆ	-2225
▁ಮನೆಯಲ್ಲಿ	-2226
17	-2227
ಾಯಕ	-2228
ರಿಕೆ	-2229
▁ಹೊಡೆ	-2230
ಶು	-2231
ಬೇಕೆ	-2232
▁ದೇಶದಲ್ಲಿ	-2233
ant	-2234
▁ವಿರು	-2235
▁ಸ್ತ್ರೀಯ	-2236
ಲೋಚ	-2237
ವಿಟ್ಟು	-2238
▁ನಕ್ಷೆಗಳು	-2239
1)	-2240
▁ಜಾಲ	-2241
ಷ್ಟ್ರೀಯ	-2242
ES	-2243
▁Pl	-2244
▁ಮಾಡಲಾಗಿದೆ	-2245
ೇರಿ	-2246
▁ಹಂತ	-2247
22	-2248
▁ವಿದ್ಯಾರ್ಥ	-2249
ತ್ತೆ	-2250
▁And	-2251
▁ಅಪ್ಲಿಕ	-2252
ಾವಿ	-2253
▁ಪೈ	-2254
▁ಬೈ	-2255
▁ದಾಖ	-2256
▁ಯಾಕೆ	-2257
oogle	-2258
▁ವಿಚಾರ	-2259
▁ಗ್	-2260
▁ಇತ್ಯ	-2261
▁ಫಿಲಿ	-2262
ಂಶ	-2263
▁ಜಾಗ	-2264
▁ಬದುಕ	-2265
▁ಪರಿಹಾರ	-2266
XL	-2267
iz	-2268
▁Name	-2269
▁ಆರೋಗ್ಯ	-2270
▁ಆದಾಗ್ಯೂ	-2271
▁ವಿರುದ್ಧ	-2272
▁(5	-2273
ಲ್ಡ್	-2274
ಾನನು	-2275
ಿದ್ದೇವೆ	-2276
ie	-2277
▁60	-2278
ದಾಗಿ	-2279
▁ಉಳಿದ	-2280
▁ಸಂಚಿಕೆ	-2281
ಲದ	-2282
▁ಔಟ್	-2283
▁ವ್ಯಕ್ತಿ	-2284
48	-2285
ನನ್ನೂ	-2286
ವರೆಗೆ	-2287
ೀಟ್	-2288
▁ಪುನ	-2289
▁ಇತ್ತ	-2290
▁ಮುಂದಿನ	-2291
▁ಹೊಂದಿರುವ	-2292
ಣಾ	-2293
ಂಪ್	-2294
▁ಬಂಗ	-2295
ುವುದು	-2296
▁ವೇಳೆ	-2297
▁ನೋಡಿದ	-2298
ಿಸುವುದು	-2299
="	-2300
95	-2301
ug	-2302
ಬೋ	-2303
ೂಷ	-2304
ಗ್ರ	-2305
ಮಯ	-2306
▁Bl	-2307
▁https	-2308
▁ಒಳ್ಳೆಯ	-2309
▁ಪೌ	-2310
ಫಲ	-2311
▁ಚರ್ಮ	-2312
▁ಅಪರಾಧ	-2313
98	-2314
36	-2315
ರಡು	-2316
ೀಚ	-2317
▁ಒಡಂಬ	-2318
▁An	-2319
ಲಾಟ್	-2320
▁ಹೆಲಿಕ್ಸ್	-2321
▁ಪೀ	-2322
▁ಹಾಳ	-2323
▁ಅರಣ್ಯ	-2324
▁ಕೈಯಲ್ಲಿ	-2325
ಸಿಕ	-2326
▁ಆರೋನ	-2327
▁ಪ್ರೇ	-2328
▁ಜನರಿಗೆ	-2329
ೃಷ್ಟ	-2330
▁ರಾಜ	-2331
▁ನವೀಕರಿಸ	-2332
▁ವೀಕ್ಷಣೆ	-2333
▁j	-2334
▁ಗೂ	-2335
ರಿಸರ	-2336
ವಿತ್ರ	-2337
▁ಶಕ್ತಿ	-2338
:5	-2339
ಿಣ	-2340
▁ಜೋ	-2341
▁ಪೂರ್ವ	-2342
▁ಹೆಂಡತಿಯ	-2343
▁ಪ್ರತ್ಯುತ್ತ	-2344
ಾಪ್	-2345
▁ಸ್ಟ್ರಿ	-2346
▁ಶತ್	-2347
▁ನೋಂದ	-2348
▁ಸ್ಥಿರ	-2349
ಕಾರ್	-2350
▁ಅಂಶ	-2351
ದುವ	-2352
▁ಜೈ	-2353
ಟಾರ್	-2354
ener	-2355
▁ಬಿಡುಗ	-2356
▁x	-2357
rom	-2358
▁ದಕ್ಷಿ	-2359
ಗಳಲ್ಲಿಯೂ	-2360
▁ಅಪ್ಲಿಕೇಶನ್	-2361
ube	-2362
▁ಏರ್	-2363
▁ರೋಗ	-2364
▁ತೆಗೆದುಕೊಳ್ಳ	-2365
▁Vess	-2366
ification	-2367
ry	-2368
ಾಗಿರ	-2369
ಸ್ತುತ	-2370
▁ತಯಾರ	-2371
▁Vessoft	-2372
ಮೊ	-2373
▁ಪರಿಸರ	-2374
▁ಶಿಕ್ಷ	-2375
▁ಹ್ಯಾ	-2376
ಿಸುವೆನು	-2377
ಫಿ	-2378
ಹೊ	-2379
▁ಮೆಚ್ಚ	-2380
▁ಸ್ಥಾನ	-2381
▁ಆಕ	-2382
▁ಘನ	-2383
▁ಬಂದಾಗ	-2384
▁ಇತ್ಯಾದಿ	-2385
▁ವೃತ್ತಿಪರ	-2386
▁ತಿಳುವಳಿಕೆ	-2387
▁ಎಲೆ	-2388
▁ಎತ್ತರ	-2389
▁ಸಂದರ್ಭ	-2390
ಮೂಲ	-2391
▁ಸರಳ	-2392
▁ವಾಸ್ತ	-2393
ks	-2394
ೀರಾ	-2395
ುತ್ತಾ	-2396
▁ಯಜ್ಞ	-2397
ಲ್ಲೇ	-2398
▁ಪ್ರೀತಿ	-2399
▁ದಯವಿಟ್ಟು	-2400
ಶ್ಚಯ	-2401
▁ಎಲ್ಲಿ	-2402
▁ಹೆಸರಿನ	-2403
▁ಸುರಕ್ಷ	-2404
▁com	-2405
▁ಕರ್ತನಾದ	-2406
:0	-2407
uc	-2408
▁ಯೂ	-2409
ನಾಟಕ	-2410
▁ಮಾರು	-2411
▁ಉದ್ಯಮ	-2412
38	-2413
▁ಸಭೆಯ	-2414
▁ಇವನು	-2415
▁ಶ್ರೇ	-2416
ಂಗಳೂರು	-2417
sp	-2418
net	-2419
ುವರು	-2420
▁ವಿವ	-2421
▁ವರ್ಷಗಳ	-2422
ee	-2423
ಹ್ಯ	-2424
▁ನಿರ್ಮ	-2425
ಗಳಾದ	-2426
▁ಮಹಾ	-2427
▁ಪೋರ್	-2428
▁ಪ್ರತ	-2429
▁ಲಾಕ್	-2430
▁ಸಾಮಾನ್ಯವಾಗಿ	-2431
1,	-2432
ಪಡುವ	-2433
▁ಲೇವಿಯ	-2434
▁ನಿರೀಕ್ಷ	-2435
▁ಕಳೆ	-2436
▁ಗಣಕತೆ	-2437
ord	-2438
ಇಗೋ	-2439
▁ತಾಪ	-2440
▁ಒಡಂಬಡ	-2441
age	-2442
▁ಹಾಗು	-2443
▁ಹತ್ತಿರ	-2444
ತ್ರೆ	-2445
್ಯಾಲಯ	-2446
ಕೋಶ	-2447
ದಿನ	-2448
ಾನನ	-2449
▁ಓಡಿ	-2450
▁ಅಡ್ಡ	-2451
▁ಮುಂದುವ	-2452
ೇಟ್	-2453
▁ಔಷ	-2454
▁ಸಾರ್	-2455
ಗಳೊಂದಿಗೆ	-2456
ll	-2457
▁ಅಗಲ	-2458
27	-2459
ಗಾ	-2460
ೆವು	-2461
ಮ್ಮೆ	-2462
ಿಸಿದಾಗ	-2463
▁ದಿನಗಳು	-2464
▁ಸಂಪೂರ್ಣವಾಗಿ	-2465
-6	-2466
arn	-2467
▁ಸುಧ	-2468
▁ಇತ್ತೀಚ	-2469
▁ಊಟ	-2470
ುವಂತೆ	-2471
▁ಆಲೋಚ	-2472
ales	-2473
ಗಿರುವ	-2474
▁ತಿನ್ನು	-2475
▁ಮಾಡಿದ್ದ	-2476
ಿನ್ನ	-2477
ೆಲ್ಲ	-2478
▁ಭದ್ರ	-2479
▁ಮಟ್ಟ	-2480
▁ಸೊಲೊ	-2481
ಲ್ಲಿದ್ದ	-2482
▁ಪ್ರವಾಸ	-2483
ವಿನ	-2484
ವಾಯಿತು	-2485
otification	-2486
AT	-2487
▁ಇವರು	-2488
ವಾಹ	-2489
▁ದಹನ	-2490
ಗಳಿಗೂ	-2491
ಬೇಡಿರಿ	-2492
asin	-2493
▁ಮಾಡಬೇಕು	-2494
ನದ	-2495
hats	-2496
ುವದಿಲ್ಲ	-2497
▁ಸುಮಾರು	-2498
ಲರ್	-2499
ೀನ್	-2500
▁ಸ್ಟ್ರಿಂಗ್	-2501
▁ಮಲ	-2502
ೆಂಟ್	-2503
▁ಕೊಠ	-2504
ಿಸಿಬಿ	-2505
▁ಅನುಸ	-2506
ಲ್ಲಿಯೂ	-2507
▁ದಾವೀದನ	-2508
▁ಚಾಟ್	-2509
▁ಬಳಸಿ	-2510
▁ಗಂಟೆಗಳ	-2511
▁ಧನ್ಯ	-2512
▁ಸಲ್ಲ	-2513
▁ಮಾರುಕಟ್ಟ	-2514
34	-2515
▁ಲಾಭ	-2516
▁ನಿಂತ	-2517
▁ಕಾಯ್ದಿ	-2518
ರಚ	-2519
▁—	-2520
ನಿಯ	-2521
▁ಐದು	-2522
▁ಮೋಶೆಯು	-2523
up	-2524
ಗಣ	-2525
ore	-2526
▁ಕಂ	-2527
▁ಅಕ್ಷ	-2528
ರಿಸುತ್ತದೆ	-2529
ER	-2530
ಚಾ	-2531
ವುಗಳ	-2532
ಿಲ್ಲದ	-2533
▁ಇಂಟರ್	-2534
▁ಅದ್	-2535
▁ಯುರೋ	-2536
ನ್ನಿ	-2537
ಿದೆನು	-2538
▁ಕಾರ್ಯಕ್ರಮ	-2539
▁ಸ್ಥಳದಲ್ಲಿ	-2540
ಟ್ರ	-2541
ವೇರ್	-2542
▁ಜನರನ್ನು	-2543
▁Ph	-2544
roid	-2545
▁ಬೋನ	-2546
▁ಅಪ್ಪ	-2547
▁ಸಾರ್ವ	-2548
▁ಹೋದನು	-2549
.99	-2550
▁th	-2551
▁ಆಚ	-2552
ನಿರ್	-2553
ಪ್ರಮಾಣ	-2554
▁ಎಫ	-2555
▁ಒಟ್ಟ	-2556
ರಿಯಲ್ಲಿ	-2557
▁ಮನುಷ್ಯನ	-2558
▁ಧ್ವ	-2559
ಕ್ತಿಕ	-2560
▁2011	-2561
▁ನಿಂತು	-2562
▁ಹಕ್ಕುಗಳನ್ನು	-2563
ೆಸ್	-2564
▁(_	-2565
▁ವರದಿ	-2566
76	-2567
ery	-2568
▁ಮತ	-2569
▁ಲೈಟ್ಸ್	-2570
▁ಸುದ್ದಿ	-2571
ರುಗ	-2572
indow	-2573
ಪಟ್ಟಿ	-2574
▁ಹಿರಿಯ	-2575
▁ಕೌ	-2576
▁ನಾದ	-2577
ಲೋಕ	-2578
▁ಒಬ್ಬನು	-2579
32	-2580
ile	-2581
▁ಧೂ	-2582
ತಿಯು	-2583
▁ಹಳೆಯ	-2584
▁ನಡುವೆ	-2585
▁ಪ್ರಾಯ	-2586
ಲ್ಸ್	-2587
ದ್ದರಿಂದ	-2588
▁ಯೆಹೂದ್ಯ	-2589
▁ಪ್ರಸ್ತುತ	-2590
ಭುತ	-2591
▁ನನ	-2592
ಗುರು	-2593
▁ಅನುಮ	-2594
▁ಪ್ರತಿಕ್ರಿಯ	-2595
▁ವಯ	-2596
ಿತ್ತು	-2597
OR	-2598
▁ನೇರ	-2599
▁ಲೇಖಕ	-2600
ದಕ್ಕಾಗಿ	-2601
9)	-2602
ವಲ್ಲ	-2603
ಾಳೆ	-2604
AR	-2605
lot	-2606
ಎಫ್	-2607
▁ಡಾ	-2608
▁ಹೊರತು	-2609
▁ಹೇಳಿದ್ದೇನಂದರೆ	-2610
ಜಾ	-2611
out	-2612
ಳಿತ	-2613
ಕ್ಷನ್	-2614
▁ಯೋಜನೆ	-2615
ರಿಯನ್ನು	-2616
▁ಪ್ರಕ್ರಿಯ	-2617
78	-2618
ey	-2619
ೀಮ್	-2620
▁ತಾನು	-2621
▁ಲಕ್ಷ	-2622
ಧ್ಯಮ	-2623
▁ದ್ವ	-2624
ರುತ್ತವೆ	-2625
ಿಗೂ	-2626
▁08	-2627
ox	-2628
ಗೊ	-2629
▁ಬಡ	-2630
▁1,	-2631
ುವದಕ್ಕೆ	-2632
▁ವಿಶ್ವವಿದ್ಯಾಲಯ	-2633
:4	-2634
ೀರ್ಷ	-2635
▁ಇದರ	-2636
▁ಸೆರೆ	-2637
▁ದಕ್ಷಿಣ	-2638
▁ಕರ್ನಾಟಕ	-2639
▁ವಿಷಯದಲ್ಲಿ	-2640
IS	-2641
▁ರು	-2642
▁ಮುಂಚ	-2643
▁ವಾರ್	-2644
ಯಾ	-2645
▁ಅಹ	-2646
▁ಆನಂದ	-2647
Notification	-2648
ran	-2649
▁ಹಚ್ಚ	-2650
erv	-2651
▁ವಾರ	-2652
▁ಗುರುತ	-2653
ದರ	-2654
▁ಸಾಕ	-2655
▁ಕಲ್ಪ	-2656
ice	-2657
ವನೂ	-2658
▁ಫೈಲ್	-2659
▁ತುಂಬಾ	-2660
ುತ್ತೇವೆ	-2661
▁ಅದ್ಭುತ	-2662
▁ಕುಮಾರ್	-2663
ಪ್ರಿಯ	-2664
ಯುಕ್ತ	-2665
▁ನಿಶ್ಚಯ	-2666
ud	-2667
▁ಕ್ಷೇ	-2668
▁ಬೋನಸ್	-2669
▁ಸ್ಟ್ರೀ	-2670
ೇಯ	-2671
▁ww	-2672
▁www	-2673
▁ಮೋಸ	-2674
6)	-2675
▁ತಿರುಗಿ	-2676
▁ಗ್ಯಾಂಗ್	-2677
ಜೀ	-2678
ಿಸುತ್ತಾರೆ	-2679
▁ಕಾಯ್ದಿರಿಸಲಾಗಿದೆ	-2680
ರೂಪ	-2681
▁ತನ	-2682
▁ಎಚ್	-2683
ಲುಗಳು	-2684
▁ರಂದು	-2685
▁ಮಕ್ಕಳಿಗೆ	-2686
ಭೂ	-2687
ಠ್ಯ	-2688
ಶ್ಚಿ	-2689
ಂತೆಯೂ	-2690
▁×	-2691
ವರ್ಣ	-2692
▁ಸಾರ	-2693
▁ಕಾನೂ	-2694
▁ಡೇಟಾ	-2695
▁ವಸ್ತ್ರ	-2696
▁ಚಿಕಿತ್ಸೆ	-2697
▁ಳ	-2698
ಮೆಯ	-2699
ವ್ಯ	-2700
▁ಸ್ನೇಹಿತ	-2701
az	-2702
ಗೆಯ	-2703
ಮಿಕ	-2704
ೇಜ್	-2705
▁35	-2706
ಡಿಯೋ	-2707
▁ಆದೇಶ	-2708
▁ಇಂದು	-2709
▁ಕೈಗಾರಿ	-2710
▁ಪ್ರತಿಯೊಬ್ಬ	-2711
ಸೆಯ	-2712
ಪತ್ರ	-2713
▁(201	-2714
ಲ್ಲಿರುವ	-2715
▁Android	-2716
ಕಲ	-2717
ಟನ್	-2718
▁ಏಳ	-2719
ಾಮನು	-2720
▁ಭರವ	-2721
▁ತೆಗೆದುಹಾಕ	-2722
▁ರೀತಿಯಲ್ಲಿ	-2723
▁ಮಾಹಿತಿಯನ್ನು	-2724
ont	-2725
▁ಕಾಪ	-2726
ವುಗಳನ್ನು	-2727
-4	-2728
ಪೆ	-2729
▁ಶರ	-2730
▁ವೈಯ	-2731
▁ಉಂಟು	-2732
▁ಶಿಷ್ಯ	-2733
▁ವಿವರಣೆ	-2734
▁ಸಕ್ರಿಯ	-2735
▁ಸೈನ್ಯಗಳ	-2736
▁ಕ್ಲಿಕ್	-2737
▁ಮಂಜ	-2738
▁ಬೆಂಗಳೂರು	-2739
▁ದರ	-2740
▁ಮನೆಗೆ	-2741
ಿವೆ	-2742
▁ಕಡೆಯ	-2743
▁ಹಿಡಿದು	-2744
▁ನಿಖ	-2745
ಮೆಂಟ್	-2746
▁ಚಾರ್	-2747
ಿದ್ದವು	-2748
▁ಅಶುದ್ಧ	-2749
▁ನ್ಯಾಯಪ್ರಮಾಣ	-2750
▁ಇತ್ತು	-2751
▁ಕೊಂದು	-2752
▁ಯೇಸುವ	-2753
▁ಪರಿಶೀಲ	-2754
ell	-2755
▁ಫೋ	-2756
▁ಪಾದ	-2757
▁ಖರೀದ	-2758
ಿಕೊಳ್ಳಲು	-2759
ಾಗುತ್ತಿದೆ	-2760
ನ್ನೇ	-2761
ಾಸಗಿ	-2762
▁ಯೋಚ	-2763
▁ಹೋದರು	-2764
▁ವೀಕ್ಷಿಸಲು	-2765
▁2012	-2766
▁ಕುಡಿಯ	-2767
▁ನೀಡುವ	-2768
▁ವೈಯಕ್ತಿಕ	-2769
▁ಹೆಸರನ್ನು	-2770
eg	-2771
ತಿಕ	-2772
▁ಚಾಲ	-2773
▁ಕಪ್ಪು	-2774
ಾಂತ್ರಿಕ	-2775
ha	-2776
▁ಶೈ	-2777
▁FSX	-2778
▁ಎಫ್	-2779
▁ಪ್ರದರ್ಶನ	-2780
ೇಟಿಂಗ್	-2781
der	-2782
▁ಫೈ	-2783
ಮಾಡು	-2784
▁ನಿಮ	-2785
ವನಿಗೆ	-2786
▁ಮತ್ತೆ	-2787
▁ಮುದ್ರ	-2788
ಾಮನ	-2789
▁ತಲೆ	-2790
▁ಸಸ್ಯ	-2791
ಬಹುದಾದ	-2792
▁Whats	-2793
▁ಕಾವ	-2794
▁ನಿಯಂತ್ರಣ	-2795
ದಾ	-2796
▁ಚಲ	-2797
▁ಫರೋ	-2798
▁ವೈದ್ಯ	-2799
▁ರಾತ್ರಿ	-2800
ಫೋನ್	-2801
ತಿಹಾಸ	-2802
▁ಹಾರ್	-2803
▁ಒತ್ತಡ	-2804
▁ಪರ್ವತ	-2805
▁ಸಿಕ್ಕ	-2806
ys	-2807
▁__	-2808
▁ಯಜ	-2809
▁ಪಠ್ಯ	-2810
▁ಪತ್ರ	-2811
▁ಏಕೆಂದರೆ	-2812
ED	-2813
-12	-2814
ಾರಾ	-2815
▁ಗರಿ	-2816
▁ಇಟ್ಟ	-2817
▁ಸಮರ್ಪ	-2818
39	-2819
ಂತ್	-2820
▁ದ್ರ	-2821
▁ಮರೆ	-2822
ಿಸಿದರೆ	-2823
▁ತಿನ್ನ	-2824
ದಿದ್ದರೆ	-2825
▁Google	-2826
▁Ar	-2827
4,	-2828
88	-2829
▁ಎಣ	-2830
▁ಗಾಳ	-2831
ರ್ಜೆಯ	-2832
▁ವಾಸ್ತವ	-2833
▁ದೇವರಿಗೆ	-2834
pd	-2835
pl	-2836
ಃಖ	-2837
▁ಕೊಲ್ಲ	-2838
▁ಸುಳ್ಳ	-2839
-2018	-2840
▁ಟ್ವಿ	-2841
▁ಯೊ	-2842
▁ಬಂಡ	-2843
▁ಕಾಮೆಂಟ್	-2844
21	-2845
▁ಅಭಿ	-2846
ಿಸುತ್ತೇವೆ	-2847
ಳ್ಳಿ	-2848
▁ಯುವ	-2849
▁ಪಟ್ಟಣದ	-2850
ome	-2851
ಗೊಂಡು	-2852
ಿಸಿತು	-2853
▁ಬೆಳಕ	-2854
▁ಅಧಿಕೃತ	-2855
▁ಜನಪ್ರಿಯ	-2856
▁ಪಾಲು	-2857
▁ಸಾರಿ	-2858
▁ಬಯಸುವ	-2859
ಪೀ	-2860
ಟುವ	-2861
ಸಾರ	-2862
▁sh	-2863
▁ದುಃಖ	-2864
▁ಬಟ್ಟ	-2865
▁ಜ್ಞಾಪಕ	-2866
▁you	-2867
ಷ್ಟಿಯ	-2868
▁→	-2869
▁ಕಿವಿ	-2870
▁ಖಾಸಗಿ	-2871
▁ಇಡ	-2872
▁ಇದೇ	-2873
▁ಮಾಧ್ಯಮ	-2874
ರಿಯಾ	-2875
ವಾರು	-2876
ದಿಷ್ಟ	-2877
▁ಪುಡಿ	-2878
▁ನಿಮಿಷ	-2879
▁ಪರಿವರ್	-2880
ial	-2881
▁ಇಂಡ	-2882
▁ಉಪಯೋಗ	-2883
(_	-2884
ೃತಿ	-2885
▁ಮೂರ	-2886
asino	-2887
ದೊಂದಿಗೆ	-2888
▁ಡೌನ್ಲೋಡ್ಗಳು	-2889
-11	-2890
ಎಕ್ಸ್	-2891
ಗೊಳ್ಳ	-2892
▁ಬುದ್ಧ	-2893
ನಾಗಿದ್ದ	-2894
▁ಆಗಿರುತ್ತದೆ	-2895
▁ಸಮ್ಮ	-2896
▁ವ್ಯವಹ	-2897
ಗೊಳಿಸುವ	-2898
▁ವಿಮರ್ಶೆಗಳು	-2899
ಕಗಳು	-2900
ತಕ್ಕ	-2901
▁ಅಧಿಪ	-2902
▁ಕಷ್ಟ	-2903
ೀರ್ಷಿಕೆ	-2904
▁ಸ್ಲಾಟ್	-2905
▁ಟ್ರ	-2906
ತೆಗಳು	-2907
▁ಕೊಠಡಿ	-2908
▁ಮೇಲಿನ	-2909
▁ದೆ	-2910
▁ಸಾಗ	-2911
ನಿನ್ನ	-2912
▁ಪುರುಷ	-2913
ಿಸಲಾಗುತ್ತದೆ	-2914
ST	-2915
ಳಿಯ	-2916
▁ಅಮೇ	-2917
▁ತಾಯ	-2918
▁ನಾನ	-2919
▁ರುವ	-2920
37	-2921
▁ನೆನ	-2922
ದಿರುವ	-2923
▁ಸಂರಚ	-2924
ಣೆಯನ್ನು	-2925
ಪ್ಯ	-2926
▁ಬೊ	-2927
▁ಮೃ	-2928
▁ಶಕ್ತಿಯ	-2929
ರೆಲ್ಲ	-2930
▁ಬಾಬೆ	-2931
▁ಮುದ್	-2932
ಿಸುವನು	-2933
cs	-2934
ಜನಿಕ	-2935
▁ತಂಡ	-2936
▁ಪಾತ್ರ	-2937
EE	-2938
ಬಲ	-2939
ಾತನ	-2940
▁ಶತ್ರು	-2941
▁ಕೈಯಿಂದ	-2942
▁ವಿಗ್ರಹ	-2943
AM	-2944
▁ತೈಲ	-2945
ust	-2946
ೈವ್	-2947
▁ಲೋಕ	-2948
▁ಬಂದರು	-2949
▁ಹತ್ತು	-2950
▁ಇಲ್ಲದೆ	-2951
▁ಕಾರ್ಡ್	-2952
ಡುತ್ತೇನೆ	-2953
▁ಕಳ	-2954
ರಿಸಿದ	-2955
▁ಗ್ರಹ	-2956
▁ಡಿಸ್	-2957
▁ಯೋಸೇ	-2958
ುತ್ತೀರಿ	-2959
▁ತಾಪಮಾನ	-2960
▁ಹೇಳಿದರು	-2961
▁ಬೋ	-2962
ಲ್ಯೂ	-2963
▁ಆದರೂ	-2964
▁ವೆಚ್ಚ	-2965
▁ಕಸ್ಟ	-2966
▁ಸೂರ್	-2967
▁ಸೇರಿ	-2968
ರಾಮ	-2969
App	-2970
▁01	-2971
▁500	-2972
▁ಕನಿ	-2973
ಡಿಂಗ್	-2974
▁ಕ್ರೀ	-2975
▁ಸೇರಿದ	-2976
▁ವ್ಯವಸ್ಥೆ	-2977
ಪಡಿಸಿಕೊಳ್ಳ	-2978
io	-2979
ವಾಬ	-2980
▁ನೆರ	-2981
ರಿಯಲ್	-2982
▁ಕಾನೂನು	-2983
▁ನೀತಿವಂತ	-2984
ya	-2985
ಜಿನ	-2986
/201	-2987
ಿಸದೆ	-2988
▁ವೇದ	-2989
▁ತನ್ನನ್ನು	-2990
▁ನೆಟ್	-2991
ದುಕೊಳ್ಳ	-2992
ಾಚ	-2993
▁ಏಕ	-2994
▁ಸವಿ	-2995
▁ಫಿಲಿಷ್ಟಿಯ	-2996
▁ಕುಕೀ	-2997
▁ಯುಎಸ್	-2998
▁ಸಂಪಾದ	-2999
EM	-3000
end	-3001
ಾರಸ	-3002
▁ಇವರ	-3003
ಸ್ಥಾಪ	-3004
▁ಪ್ರೀತ	-3005
▁ವಿಷಯವಾಗಿ	-3006
▁ದೈ	-3007
▁ಅಬ್ರಹ	-3008
▁ನೀಡುತ್ತದೆ	-3009
ook	-3010
▁ಬೇಕು	-3011
▁ಇತ್ತೀಚಿನ	-3012
▁ಸಂಬಂಧಿಸಿದ	-3013
▁ಸೌಲ	-3014
ಲನ್ನು	-3015
▁ನಿತ್ಯ	-3016
▁ವಿಜ್ಞಾನ	-3017
▁e	-3018
▁ಝ	-3019
ೀಸ್	-3020
▁ಪೊ	-3021
▁ವು	-3022
▁ದೇಹ	-3023
▁ಯಜಮಾನ	-3024
▁ಟ್ವಿಟರ್	-3025
▁ಸಾರ್ವಜನಿಕ	-3026
5)	-3027
ins	-3028
▁ಯಾರೂ	-3029
ದವರ	-3030
ಧಿಕ	-3031
▁2,	-3032
▁with	-3033
▁ಲೋಡ್	-3034
indows	-3035
▁ಸೂಕ್ತ	-3036
▁ಪ್ಲಾಸ್	-3037
3,	-3038
ಂಗಿ	-3039
ಲಿರುವ	-3040
▁ಕೊಡುಗೆ	-3041
▁ಕ್ಷೇತ್ರ	-3042
▁ನಿರ್ಮಾಣ	-3043
uk	-3044
ದೂ	-3045
▁ಪಡ	-3046
ೀರ್ಘ	-3047
▁ಹೊಲ	-3048
▁ಸೊಲೊಮೋನ	-3049
▁ಠ	-3050
orn	-3051
▁ಡೈ	-3052
▁ನಿಗೆ	-3053
per	-3054
▁ಸಲಹೆ	-3055
▁ಗುಡಾರ	-3056
▁ಬಳಸುವ	-3057
▁ಪ್ರತಿಯೊಂದು	-3058
ಾನ್ಯ	-3059
▁ದಂಡ	-3060
ಲ್ಲಿನ	-3061
▁ಖಚಿತ	-3062
▁ಯಿಂದ	-3063
▁ಸ್ತು	-3064
▁ಅಡಿಯಲ್ಲಿ	-3065
▁ನಿರ್ದಿಷ್ಟ	-3066
ರ್ಚ	-3067
▁ಟಾಪ್	-3068
ವರೆಲ್ಲ	-3069
▁ಸಾಕ್ಷ	-3070
▁05	-3071
▁Pro	-3072
▁ಸೆಟ್	-3073
▁ಅಲಂ	-3074
▁ಕೆಡ	-3075
-01	-3076
ಗಲ್	-3077
▁ಗುಪ್ತ	-3078
ೋಸ್ಟಿಂಗ್	-3079
-08	-3080
▁No	-3081
▁ಟೇ	-3082
▁ಯೋಸೇಫ	-3083
▁ಜಿಲ್ಲೆ	-3084
ick	-3085
ಹೊಂದ	-3086
▁ಬೆಳೆ	-3087
▁Comment	-3088
8)	-3089
▁ಖಂಡ	-3090
▁ಗಂಡ	-3091
▁ತಯಾ	-3092
ಲಿಂಗ್	-3093
▁ಸುಂದ	-3094
▁ಸದಸ್ಯ	-3095
▁ಸವಿಾಪ	-3096
▁ಹ್ಯಾಕ್	-3097
▁ಬಿಡುಗಡೆ	-3098
▁ಇಬ್ಬ	-3099
▁sales	-3100
ಿಸುತ್ತಾನೆ	-3101
ಂಚು	-3102
ಿಯೋ	-3103
▁ತಗ್ಗ	-3104
▁ಜಲವರ್ಣ	-3105
▁Windows	-3106
▁ಹೆಚ್ಚಾಗಿ	-3107
ದಿಗಳ	-3108
ೃತ್ತ	-3109
ವಾಗಿರ	-3110
▁ಬಳಸಲಾಗುತ್ತದೆ	-3111
ix	-3112
ph	-3113
▁ಡೀ	-3114
▁ಅಸಹ್ಯ	-3115
▁ಕಲ್ಲು	-3116
▁ಮಾತನಾಡ	-3117
▁ಮಾತನಾಡಿ	-3118
▁ದಿವಸದಲ್ಲಿ	-3119
31	-3120
ಂಟಿ	-3121
ನಾಗಿ	-3122
▁ಮರದ	-3123
ದೆಂದು	-3124
ಪಡಿಸಿ	-3125
ಿದ್ದೀ	-3126
:00	-3127
ಮಿತ	-3128
ರಿದು	-3129
▁ನಿನ	-3130
▁ಬಾಧ್ಯ	-3131
▁ಹುಡುಗ	-3132
▁ಹೋಸ್ಟಿಂಗ್	-3133
2,	-3134
ಫೆ	-3135
ರ್ರಿ	-3136
ತಿಗಳು	-3137
▁ಅಂತ್ಯ	-3138
▁ರಕ್ಷಣೆ	-3139
▁ಗಣಕತೆರೆ	-3140
▁80	-3141
▁Sp	-3142
ನೆಗೆ	-3143
ಾಗಲೇ	-3144
▁ಆಸ್	-3145
▁ಮುಗ	-3146
▁ಹಾಕಿ	-3147
ಕ್ಕೋಸ್ಕರ	-3148
▁ಉತ್ತರಕೊ	-3149
ಎಚ್	-3150
ಜಿಕ	-3151
ಾಂತ್ಯ	-3152
▁ಗುಣದ	-3153
▁ನಡೆಸ	-3154
▁ಪೂರೈಕೆದಾರ	-3155
▁ಪ್ರತ್ಯುತ್ತರವಾಗಿ	-3156
ಂಚಾಲ	-3157
▁ನನ್ನು	-3158
▁ವಿಶ್ವದ	-3159
▁ಮಂಡ	-3160
▁WhatsApp	-3161
▁31	-3162
ನೆಟ್	-3163
▁ಬದಲಾಗಿ	-3164
▁ಸಾಕಷ್ಟು	-3165
▁ಸ್ವಯಂಚಾಲ	-3166
▁ಗುಣದರ್ಜೆಯ	-3167
PS	-3168
ಬಾ	-3169
ರತೆ	-3170
ವಾನ	-3171
▁ಎಡ	-3172
▁ಶೇ	-3173
▁ದನು	-3174
▁ಇಟ್ಟು	-3175
▁ದೇವರೇ	-3176
▁ಪ್ಯಾಕೇ	-3177
▁ಭಾಗಗಳು	-3178
▁ಪರಾ	-3179
ಣಿಗಳು	-3180
ON	-3181
▁೧	-3182
COM	-3183
ಜರ್	-3184
ಪೂರ್ಣ	-3185
▁ಕಾರು	-3186
▁ಕೊಂಬ	-3187
▁ಟಿಪ್ಪ	-3188
▁ರೊಟ್ಟ	-3189
ಿಸಿಕೊಂಡು	-3190
▁ನಿಜವಾಗಿಯೂ	-3191
lect	-3192
mail	-3193
ಮಿಂಗ್	-3194
▁ದಿಂದ	-3195
▁ಪಕ್ಷ	-3196
▁ರಾತ್	-3197
▁ಸುತ್ತಲೂ	-3198
ೂಹ	-3199
ಾಯು	-3200
▁45	-3201
ಟುವಟ	-3202
ಪಟ್ಟು	-3203
▁ಶರೀರ	-3204
▁ಹೇಳು	-3205
ಶಾಸ್ತ್ರ	-3206
▁ಅವರಲ್ಲಿ	-3207
▁ಅಗತ್ಯವಿದೆ	-3208
▁Karn	-3209
ತೀ	-3210
▁ಅಸ್ತಿ	-3211
▁ನ್ಯೂಸ್	-3212
▁ac	-3213
▁ಓದು	-3214
▁ಪ್ಲೇ	-3215
▁ಕವರ್	-3216
▁ಸೇವಕರ	-3217
▁ಕಂಪ್ಯೂ	-3218
▁ಹೊತ್ತು	-3219
್ಮ	-3220
ire	-3221
▁3,	-3222
▁ಟಿವಿ	-3223
SL	-3224
ಸರ	-3225
ಾಗದ	-3226
ಂತೆಯೇ	-3227
ೋಜನ	-3228
▁ಕಠ	-3229
▁ಬಳಕೆ	-3230
ಿಯನ್ನೂ	-3231
▁ಗೊತ್ತ	-3232
ಷಿ	-3233
ಾಡುವ	-3234
ಾತ್ಮಕ	-3235
ಗೊಳಿಸಲು	-3236
▁ವ್ಯರ್ಥ	-3237
DE	-3238
್ರದ	-3239
ಎಸ್ಟಿ	-3240
▁ಇಳಿದು	-3241
▁ಬಂದನು	-3242
▁ಸೇರಿಸ	-3243
ರೆಲ್ಲರೂ	-3244
▁ಅಧಿಕಾರ	-3245
ವನಾಗಿದ್ದ	-3246
▁ಮಾಡಿದರು	-3247
\\	-3248
▁೨	-3249
▁ಮಾಂಸ	-3250
▁ಹನ್ನೆ	-3251
▁ಹೆಚ್ಚುವ	-3252
-05	-3253
ಹೋಗಿ	-3254
▁ಚಟುವಟ	-3255
▁ಗಳನ್ನೂ	-3256
▁PM	-3257
▁al	-3258
ater	-3259
ಬುಕ್	-3260
▁ಕೃಪ	-3261
▁ಶೋಧ	-3262
▁ಪವರ್	-3263
▁ಅಧ್ಯಯನ	-3264
▁ಆಶೀರ್ವದ	-3265
▁ಕೊಳ್ಳುವ	-3266
ram	-3267
▁ಹಲವಾರು	-3268
ary	-3269
▁ವಸ	-3270
ಾರ್ಹ	-3271
▁ಹಾದು	-3272
▁ಪರಿಗಣ	-3273
▁ಯಲ್ಲಿ	-3274
▁ರಕ್ಷಣ	-3275
▁ಸಂಪರ್ಕದಲ್ಲಿ	-3276
ವ್ಯಾ	-3277
ಾಂತರ	-3278
ಾಯಿತ	-3279
▁ಕೊಳ	-3280
▁ಕಿಟಕಿ	-3281
▁ಗುಂಪು	-3282
77	-3283
han	-3284
ನ್ಸ	-3285
ಬಲ್ಲ	-3286
ಗಾರರು	-3287
ರಿಂಗ್	-3288
▁ದಿನಗಳ	-3289
▁ಇತಿಹಾಸ	-3290
ಿಸುವದಕ್ಕೆ	-3291
▁ತಂತ್ರಾಂಶ	-3292
▁ಎಂಬುದನ್ನು	-3293
91	-3294
96	-3295
▁i	-3296
ics	-3297
ಕೂಲ	-3298
ಪೀಠ	-3299
▁Un	-3300
▁ಜೇ	-3301
ವನನ್ನು	-3302
▁ಸೆರೆಯ	-3303
33	-3304
ಜ್ಜ	-3305
ಶಸ್	-3306
ಾಣಿ	-3307
▁ಬಾಗಿ	-3308
▁ಒಣ	-3309
ವಾಗತ	-3310
▁ವಿನ	-3311
▁ತನಗೆ	-3312
▁ವಿದೇಶ	-3313
ಗಳಿಂದಲೂ	-3314
▁ಮತ್ತೊಂದು	-3315
ಕಿಂಗ್	-3316
▁ವರುಷದ	-3317
▁ಗಳಲ್ಲಿ	-3318
▁ಗುರುತು	-3319
▁ಕೊಟ್ಟನು	-3320
▁PC	-3321
ಬಿಟ್ಟ	-3322
▁ಖಾತೆ	-3323
ಗಳೇ	-3324
▁ಅವಶ್ಯ	-3325
▁ಎಷ್ಟು	-3326
▁ನೋಂದಣಿ	-3327
▁ತಂದೆಯಾದ	-3328
▁±	-3329
ach	-3330
ುವು	-3331
ವನಾದ	-3332
▁ಫಲಿತ	-3333
▁ಅಕ್ಷರ	-3334
ail	-3335
ತರೆ	-3336
ಿಯಂ	-3337
ಿಕೆಯು	-3338
▁ಲೈನ್	-3339
▁ದೀರ್ಘ	-3340
▁ಹಿನ್ನೆ	-3341
ಿಸಲ್ಪಡುವ	-3342
▁ವಿಚಾರಣೆ	-3343
ೈಯ	-3344
ರ್ದ	-3345
ಕಾರಣ	-3346
ಾಸರಿ	-3347
▁EUR	-3348
▁ಬಾರ್	-3349
ಿಸಲಾಯಿತು	-3350
▁06	-3351
▁ಬಿಲ್	-3352
ವಿಲ್ಲದ	-3353
▁ಪವಿತ್ರ	-3354
▁ಮಹಿಳೆಯ	-3355
.,	-3356
▁ವಿಸ್ತ	-3357
▁ಮೋಟಾರ್	-3358
▁ವಿಂಡೋಸ್	-3359
▁ನಿಮ್ಮಲ್ಲಿ	-3360
ani	-3361
for	-3362
▁HT	-3363
▁ಹರ	-3364
ಡಿಗೆ	-3365
ೋಪ	-3366
ise	-3367
ಬಿಡುವ	-3368
▁ಹಿಡಿಯ	-3369
▁1.	-3370
▁Fl	-3371
▁ಹಸಿ	-3372
▁ತಲೆಯ	-3373
▁ಸ್ಥಳೀಯ	-3374
ೇನ್	-3375
atch	-3376
▁ಅಮೆ	-3377
▁ಅರಿ	-3378
▁ಆರು	-3379
▁ಕಠಿಣ	-3380
▁ವಿಂಡೋ	-3381
ರಾಗಿದ್ದ	-3382
▁ಫಲಿತಾಂಶ	-3383
▁ದೇಶವನ್ನು	-3384
▁ನವೀಕರಿಸಲಾಗಿದೆ	-3385
IA	-3386
ಂಟೆ	-3387
ರಿಗ	-3388
ಸನ್	-3389
ೀಲ್	-3390
▁ಠೇವ	-3391
▁ದೀಪ	-3392
▁ಹೋಲ	-3393
▁from	-3394
ಚಯ	-3395
-06	-3396
ದೇವ	-3397
ಕೆಯನ್ನು	-3398
▁90	-3399
▁it	-3400
nline	-3401
ಸ್ಟರ್	-3402
ಷ್ಣ	-3403
ೋತ್	-3404
▁ಇರಲಿ	-3405
▁ಕುದು	-3406
ಕವನ್ನು	-3407
▁ಧ್ವನಿ	-3408
▁{	-3409
ವುಗಳು	-3410
▁ಸಾಫ್ಟ್	-3411
▁ಮಾಡುವೆನು	-3412
PC	-3413
ಡುತ್ತಾನೆ	-3414
▁ಕಳುಹಿಸಿ	-3415
ಾನು	-3416
▁ದೃಢ	-3417
▁ಸಿಟಿ	-3418
▁ಉಗುರು	-3419
▁ಉದಾಹರಣೆಗೆ	-3420
AC	-3421
-20	-3422
▁ಔಷಧ	-3423
▁ವಯಸ್	-3424
▁ಇದ್ದರು	-3425
te	-3426
ember	-3427
▁ಕಾಲೇ	-3428
▁ತೀರ್	-3429
▁ಸ್ವತ	-3430
▁ಹೋಗು	-3431
▁ಬರುತ್ತ	-3432
▁ಸರಾಸರಿ	-3433
▁ಗ್ರಾಹಕರ	-3434
ok	-3435
earch	-3436
▁ಕಾಲ್	-3437
▁ಜನರೇ	-3438
ಗೊಳಿಸು	-3439
▁ನಿರ್ಧ	-3440
▁ಸೃಷ್ಟ	-3441
ಾಗಿತ್ತು	-3442
"&	-3443
ನಿನ	-3444
ಲಾರ	-3445
ಾರಿತ	-3446
▁ಆರ್ಕ	-3447
ದುಕೊಂಡ	-3448
85	-3449
ಬೂ	-3450
▁ಅನಿ	-3451
▁ಸಾಮಾಜಿಕ	-3452
94	-3453
her	-3454
▁be	-3455
▁ಆಂಡ	-3456
▁ಇತರೆ	-3457
▁ಆಕೆಯು	-3458
▁ತ್	-3459
ನ್ಸಿ	-3460
▁ಕ್ರೆ	-3461
▁ಅಕ್ರಮ	-3462
▁ಠೇವಣಿ	-3463
▁ಮುಕ್ತ	-3464
▁ಪ್ರಯೋಗ	-3465
▁ಸರಿಯಾದ	-3466
▁ನೀಡುತ್ತ	-3467
▁ಬ್ಯಾಟರಿ	-3468
▁ಮಾತುಗಳನ್ನು	-3469
▁✔	-3470
▁ಚೌ	-3471
lish	-3472
ಶಿಷ್	-3473
▁ನಿದ	-3474
ನ್ಮೂಲ	-3475
ಶಿಷ್ಟ್ಯ	-3476
▁ಅನುಕೂಲ	-3477
▁ಕೆಳಗಿನ	-3478
▁ತೆರಿಗೆ	-3479
▁ಕಥ	-3480
▁ಉಡು	-3481
▁ಎಂಬಿ	-3482
▁ಕ್ಕೆ	-3483
▁ಬಳಸಲು	-3484
ಎಮ್	-3485
ಾಬ್	-3486
ಾಳೆಯ	-3487
ುವಿನ	-3488
▁ಜಾಹ	-3489
▁ಹೇಳುತ್ತಾರೆ	-3490
ರ್ಷ	-3491
ಮೇಲೆ	-3492
ರೆಂದು	-3493
▁ದ್ರಾಕ್ಷೇ	-3494
▁ಸ್ಥಳಕ್ಕೆ	-3495
ನಲ್	-3496
ಾನದ	-3497
ಿನಿಯ	-3498
▁ಅಂತರ	-3499
▁ಕೆಂಪು	-3500
▁ಕೊಬ್ಬ	-3501
ss	-3502
ರಿಕಾ	-3503
ಗಳಿವೆ	-3504
▁ಹಿಂಬ	-3505
ಧಿಪ	-3506
▁04	-3507
▁Cl	-3508
ಜಿನ್	-3509
▁ಏನೂ	-3510
▁ಡ್ರ	-3511
.2018	-3512
ಹಿಡಿಯ	-3513
▁ಇರುವದು	-3514
▁ದೇವರನ್ನು	-3515
▁ಒಳಗೊಂಡಿದೆ	-3516
▁ಕಂಪ್ಯೂಟರ್	-3517
ನೈ	-3518
ಮ್ಯಾ	-3519
ಿದ್ದೀರಿ	-3520
ich	-3521
ವಿಯ	-3522
ಹೀನ	-3523
▁ವಿಭ	-3524
▁ಒಡೆಯ	-3525
ರದ	-3526
▁ಶಾಪ	-3527
ablet	-3528
▁ಕನಿಷ್ಠ	-3529
▁ಗಾ	-3530
ited	-3531
▁(1)	-3532
▁ಕಾಲು	-3533
▁ನಷ್ಟ	-3534
▁ಫೇಸ್	-3535
▁ಧನ್ಯವಾದ	-3536
▁ನಂಬಿಕೆಯ	-3537
▁ಪ್ರವೇಶಪದ	-3538
▁Online	-3539
▁ಸ್ಪಷ್ಟ	-3540
oad	-3541
ೈಡ್	-3542
▁ಹಾಸ	-3543
▁ಕ್ರಾ	-3544
▁ಲೈವ್	-3545
▁ಸಂಭವ	-3546
▁ಕೇಳುವ	-3547
▁ಸ್ವಾಗತ	-3548
▁ಅನ್ನುತ್ತ	-3549
ಮನು	-3550
▁09	-3551
▁BES	-3552
▁ದಹನಬ	-3553
▁ಅಧಿಕಾರಿ	-3554
▁ಪ್ರಶ್ನೆ	-3555
▁ಸಂದರ್ಭದಲ್ಲಿ	-3556
ಂಧ್ರ	-3557
ಲ್ಯು	-3558
▁ದ್ರಾಕ್ಷಾರಸ	-3559
▁ನಿಶ್ಚಯವಾಗಿ	-3560
pe	-3561
ಬನ	-3562
▁ಜೈಲು	-3563
▁ಹಿಂತಿ	-3564
▁ಕಾಲದಲ್ಲಿ	-3565
ode	-3566
pdf	-3567
▁Hack	-3568
▁ಪ್ರಿಯ	-3569
▁ನಿಯಮಗಳು	-3570
▁ಕೈಗಾರಿಕಾ	-3571
ುಖ	-3572
▁ಛ	-3573
ಂಡಿ	-3574
ಬೇಡಿ	-3575
▁ವಿನಿ	-3576
▁ಮನುಷ್ಯರ	-3577
▁ಹೊದ	-3578
▁2010	-3579
▁ಯಶಸ್	-3580
▁ಕಟ್ಟಡ	-3581
▁ಗ್ರಾಮ	-3582
▁ಸ್ವಯಂ	-3583
▁BESCOM	-3584
▁ನಿರ್ದೇಶ	-3585
▁ವ್ಯವಹಾರ	-3586
▁ಕಾರ್ಯನಿರ್	-3587
100	-3588
ews	-3589
riv	-3590
▁ಕಚ	-3591
▁ಪಾಕ	-3592
▁ಇಸ್ರಾ	-3593
▁ಬಂಗಾರ	-3594
ಲ್ಯಾಂಡ್	-3595
▁ಪ್ರಾಂತ್ಯ	-3596
68	-3597
AS	-3598
▁32	-3599
ಲಾಕ್	-3600
ಕ್ಕಿನ	-3601
▁ಬಿಡುವ	-3602
▁ಎಷ್ಟ	-3603
▁ಗರ್ಭ	-3604
▁ಗ್ರೇ	-3605
▁ಯೆಹೋಶ	-3606
▁ಸಂಗೀತ	-3607
▁ಕ್ರೆಡಿ	-3608
▁ಗರಿಷ್ಠ	-3609
▁ಹೃದಯವು	-3610
▁ಕುಮಾರ್ತೆಯ	-3611
▁ಆಜ್ಞಾಪಿಸಿದ	-3612
▁Re	-3613
atak	-3614
▁ಕೂತು	-3615
▁ನೀತಿಯ	-3616
▁ಪ್ರಕಾಶ	-3617
ಡಿಸಿ	-3618
ಿದ್ದಾಗ	-3619
▁ಬೆಳೆಯ	-3620
▁ಸರ್ಕಾರ	-3621
ಪೊ	-3622
act	-3623
▁ದಶ	-3624
▁ಆಲ್	-3625
▁ತಲು	-3626
▁ಮತ್ತಷ್ಟು	-3627
ff	-3628
ಕವಾಗಿ	-3629
▁ಅರಸು	-3630
▁ವಿಚಾ	-3631
ಿಸುತ್ತವೆ	-3632
▁ಕುಮಾರರು	-3633
▁ತಯಾರಕರು	-3634
▁ಪ್ರಮಾಣಪತ್ರ	-3635
ನರ್	-3636
ಸಾಹ	-3637
ರವಾದ	-3638
▁ಅಬ್	-3639
▁ರೈಸ್	-3640
▁ವಿನಿಮಯ	-3641
▁ಮನುಷ್ಯರು	-3642
▁ಒದಗಿಸುತ್ತದೆ	-3643
್ಡ್	-3644
ಸ್ತ್ಯ	-3645
▁ಗೌಪ್ಯ	-3646
▁ಯೆರೂಸಲೇಮಿನ	-3647
ue	-3648
ux	-3649
▁ಶೇಕ	-3650
▁ಪರಿಚಯ	-3651
▁ಸಂದರ್ಶ	-3652
▁ಅನುಸ್ಥಾಪ	-3653
-07	-3654
any	-3655
onth	-3656
ಚ್ಚು	-3657
nglish	-3658
ಿಕೆಗಳು	-3659
ದೇನಂದರೆ	-3660
▁ಕೈದಿಗಳ	-3661
▁ಪಿತೃಗಳ	-3662
ದರೆ	-3663
▁ನೋಟ	-3664
▁ಬಾರ	-3665
▁ಮುಟ್ಟ	-3666
ನ್ನಾದರೂ	-3667
▁ಉದ್ಯೋಗ	-3668
▁ಸಾಕ್ಷಿ	-3669
▁ಬಹಳವಾಗಿ	-3670
ಟಂ	-3671
-02	-3672
ood	-3673
▁ವನು	-3674
▁ತಂದು	-3675
▁ಪತ್ತೆ	-3676
▁ಫ್ಯಾಕ್	-3677
▁ಇನ್ನಷ್ಟು	-3678
ವ್ಯೂ	-3679
▁ಬಂಧ	-3680
▁ಮೃಗ	-3681
ರಿಕಾದ	-3682
▁Casino	-3683
▁ಜಾಹೀರಾ	-3684
▁ಪ್ರಭಾವ	-3685
ml	-3686
ನಾವು	-3687
ಕರ್ತನ	-3688
▁ಎಂದೆ	-3689
▁ತಲುಪ	-3690
▁ಪೈಪ್	-3691
▁ಸಮುದ್ರದ	-3692
ಕನು	-3693
ಪ್ಟ್	-3694
ವಿಧಾನ	-3695
▁ದತ್ತ	-3696
▁ಮದುವ	-3697
▁ಹಬ್ಬ	-3698
▁ಕೆಲವರು	-3699
▁ಗುಡಾರದ	-3700
▁ಮಾತನ್ನು	-3701
ಣು	-3702
ool	-3703
ರನು	-3704
ಲೈಟ್	-3705
▁ಮರಣ	-3706
▁ಕಣ್ಣ	-3707
▁ಸ್ವಾಸ್ತ್ಯ	-3708
▁Ac	-3709
▁ವಾಗ	-3710
▁ಕುರು	-3711
▁ತಿಳು	-3712
ವೊ	-3713
▁ch	-3714
▁ರಥ	-3715
ಕ್ರಿ	-3716
ಗಳಾಗಿ	-3717
ಶ್ಚಿಮ	-3718
▁ಅಂದಳು	-3719
▁ಬಿಟ್ಟ	-3720
▁ಪ್ಲಾಸ್ಟಿಕ್	-3721
ನೆಂಬ	-3722
▁ಸಕಲ	-3723
▁ಆಕಾಶದ	-3724
▁ಹನ್ನೆರಡು	-3725
-09	-3726
ೋರ್ಡ್	-3727
▁Tube	-3728
▁ಎಣ್ಣ	-3729
▁ವ್ಯಕ್ತಿಯ	-3730
ky	-3731
ಹು	-3732
ull	-3733
ಗಿಕ	-3734
▁ಬೆಲೆಪಟ್ಟಿ	-3735
ark	-3736
ಶ್ರ	-3737
▁ವಾಹನ	-3738
▁ಯೊರ್ದ	-3739
▁ಆದಕಾರಣ	-3740
▁ಟಿಪ್ಪಣಿಗಳು	-3741
46	-3742
55	-3743
▁ಶೂ	-3744
ಲ್ಲೂ	-3745
▁+86	-3746
▁ಸಲಹ	-3747
▁ಬಲಿಪೀಠ	-3748
▁ಅಲ್ಲಿಂದ	-3749
▁07	-3750
▁ತೋಟ	-3751
▁ಬಾರಿ	-3752
▁ಚಿನ್ನ	-3753
ಕೈ	-3754
rip	-3755
ಲೇಷ	-3756
▁ಯೌ	-3757
▁Com	-3758
▁ದಾನ	-3759
▁ಮರೆಯ	-3760
▁ಮಾಡಲ	-3761
▁ಪರಲೋಕ	-3762
▁ಉತ್ತರಿಸಿ	-3763
▁ಬರುತ್ತದೆ	-3764
ext	-3765
ಪಾಲ	-3766
ೋನನ	-3767
▁03	-3768
▁ಚು	-3769
itle	-3770
▁ಬರೆದ	-3771
ಿದ್ದರೂ	-3772
▁ತೋರಿಸು	-3773
ect	-3774
▁ಕನ	-3775
ರ್ಯಾ	-3776
▁ಯುಗ	-3777
▁Free	-3778
▁Slot	-3779
▁ಸೌಲನು	-3780
್ರಾಯ್ಡ್	-3781
▁ಭಾರತೀಯ	-3782
▁ನೋಡುತ್ತ	-3783
RL	-3784
ಯೆ	-3785
-03	-3786
ಬಂದ	-3787
▁un	-3788
▁ಚೇ	-3789
▁ಶ್ರ	-3790
▁ಸಾಲ	-3791
ataka	-3792
ಜಿಟಲ್	-3793
ಟ್ಟಿಂಗ್	-3794
▁ಪರಾಕ್ರಮ	-3795
IC	-3796
ಶಃ	-3797
ideo	-3798
ಣ್ಣೆ	-3799
▁ನಿಗ	-3800
▁ಪಶು	-3801
▁ವಲಯ	-3802
▁ಅರ್ಧ	-3803
▁ಸ್ಯಾ	-3804
▁ಮಂಜೂಷ	-3805
▁ಪ್ರಯೋಜನ	-3806
▁ವೈಶಿಷ್ಟ್ಯ	-3807
ಡನ್ನು	-3808
ನಾಗಿರುವ	-3809
▁ದೇಶಕ್ಕೆ	-3810
▁ಪರಿಪೂರ್ಣ	-3811
▁ಸಂಪರ್ಕದಲ್ಲಿರಿ	-3812
OS	-3813
▁57	-3814
ಂದರ್ಯ	-3815
ಲ್ಲೇಖ	-3816
▁Play	-3817
▁ಅಂತಿ	-3818
▁ಎಬ್ಬ	-3819
▁ವಿತರ	-3820
▁ಮೋಶೆಗೆ	-3821
▁ವ್ಯವಸ್ಥೆಯ	-3822
ರನ	-3823
▁ಯಜ್ಞವೇ	-3824
ದಾದ	-3825
ಾಂತ	-3826
-200	-3827
ರಾಜು	-3828
▁pro	-3829
▁ಬಾಳ	-3830
ಿಸಿಕೊಳ್ಳುವ	-3831
ms	-3832
ಮ್ಸ್	-3833
ಷ್ಟಿ	-3834
ಸರ್ಗಿಕ	-3835
▁ಗೂಗಲ್	-3836
▁ತೆಗೆಯ	-3837
▁ತಾಂತ್ರಿಕ	-3838
ಗೊಳಿಸಲಾಗಿದೆ	-3839
kg	-3840
app	-3841
ೈನ್	-3842
▁ag	-3843
▁at	-3844
ಕರಣೆ	-3845
▁ಯಾದ	-3846
ಲಿಯನ್	-3847
▁ಎಂದಿಗೂ	-3848
▁ವಿಶೇಷವಾಗಿ	-3849
ಹೇ	-3850
inst	-3851
ಕ್ಸಿ	-3852
ೇಕ್ಷ	-3853
ೆಯಾಗಿ	-3854
▁ಹದಿನ	-3855
▁ಗಳಿಗೆ	-3856
▁ತಿಂದು	-3857
ಲ್ಪಟ್ಟು	-3858
▁ಮಕ್ಕಳೂ	-3859
▁ಯಾಜಕನು	-3860
▁ರೊಟ್ಟಿ	-3861
▁ಪ್ರವಾದಿ	-3862
▁ವಿಶ್ವಾಸ	-3863
ಗಳನ್ನೆಲ್ಲಾ	-3864
ಿರು	-3865
olor	-3866
▁ಸ್ತ	-3867
▁ಆಡಳಿತ	-3868
▁ಉಲ್ಲೇಖ	-3869
▁ಪರಿವರ್ತ	-3870
▁ಮೊದಲನೆಯ	-3871
ace	-3872
▁2.	-3873
zhou	-3874
▁ಇವನ	-3875
▁ನಿಷ್	-3876
▁ಫೋಟೋ	-3877
▁ಸ್ತುತ	-3878
▁ಇದರಿಂದ	-3879
▁ನಂಬಿಕೆ	-3880
▁ನೈಸರ್ಗಿಕ	-3881
97	-3882
ುವೇ	-3883
▁36	-3884
▁ಕೂಗ	-3885
▁ಕೆಡಿ	-3886
▁ಸ್ವರ	-3887
ರುವುದು	-3888
ತೆಯಲ್ಲಿ	-3889
▁ಸೌಂದರ್ಯ	-3890
▁ಉದಾಹರಣೆಗಳು	-3891
ase	-3892
oss	-3893
-2019	-3894
ಶ್ಚರ್ಯ	-3895
▁ಐಫೋನ್	-3896
▁ಹಿಂಬಾಲ	-3897
▁ಜಾಹೀರಾತು	-3898
ಪಡಿಸುವುದನ್ನು	-3899
SD	-3900
ure	-3901
ಣಿಯ	-3902
▁300	-3903
imited	-3904
▁ಅಂತಿಮ	-3905
▁ದಾಖಲೆ	-3906
ರೊಂದಿಗೆ	-3907
ಯಿ	-3908
onus	-3909
ಿಸಲಿ	-3910
ೋನಿನ	-3911
▁ಕರುಣ	-3912
▁ದಪ್ಪ	-3913
▁ನೋಡಲು	-3914
▁ಪ್ಲಸ್	-3915
▁ಅಪ್ಪಣೆ	-3916
.)	-3917
ರಿತ	-3918
▁**	-3919
ಕ್ಟ್	-3920
▁ಐಟಂ	-3921
▁ಪಡೆದ	-3922
ಧಿಯಲ್ಲಿ	-3923
▁ಸೆಂಟರ್	-3924
▁ಬಾಬೆಲಿನ	-3925
ld	-3926
ೃಹ	-3927
▁Su	-3928
▁ಶೀ	-3929
▁ಬಲ್ಲ	-3930
▁ನಿವಾಸ	-3931
▁ವಿಚಾರಣೆಗೊಳ	-3932
44	-3933
ೃಪ್	-3934
ownl	-3935
ರಿಯು	-3936
▁ಕಾಂ	-3937
▁ಹಿತ್ತ	-3938
ರುವುದಿಲ್ಲ	-3939
▁ಸ್ಲಾಟ್ಗಳು	-3940
ಾಡ	-3941
ೋಟ	-3942
ವಿಚಾರ	-3943
▁ಇರಿಸ	-3944
▁ದಿನದ	-3945
▁ಕೆಲಸದ	-3946
▁ತಪ್ಪು	-3947
▁ಕೊಟ್ಟು	-3948
▁ವಾಕ್ಯವು	-3949
▁ಯಾವನಾದರೂ	-3950
ನನ	-3951
ult	-3952
ಷಿಕ	-3953
▁TR	-3954
▁ತಾನೇ	-3955
▁ನಮೂದ	-3956
▁ಪಾವತಿ	-3957
▁ಬಲವಾದ	-3958
▁ಮನೆತನ	-3959
▁ಸರ್ವರ್	-3960
ವಾಗಿತ್ತು	-3961
▁ಪ್ರದರ್ಶ	-3962
IL	-3963
ರ್ಗ	-3964
ಕ್ಟರ್	-3965
ಗಳಿಗಿಂತ	-3966
▁ಆಂಡ್ರಾಯ್ಡ್	-3967
pt	-3968
ute	-3969
ವನಾಗಿ	-3970
▁ಅಪಾಯ	-3971
▁ನಿಜವಾದ	-3972
▁ಹೊಂದಿವೆ	-3973
▁ಸುಲಭವಾಗಿ	-3974
▁ಸಾಫ್ಟ್ವೇರ್	-3975
▁‘	-3976
▁ಯೌವನ	-3977
▁ಸಮೀಕ್ಷ	-3978
▁ಫ್ಯಾಕ್ಟರಿ	-3979
ina	-3980
▁IP	-3981
▁ಅಶ್	-3982
ಾಗುವದು	-3983
▁ಸೆರೆಮ	-3984
ವಾಗಿಲ್ಲ	-3985
▁ಐಗುಪ್ತದೇಶ	-3986
▁ಮಾರುಕಟ್ಟೆ	-3987
ವೈ	-3988
ಹೋ	-3989
ಪಂಚ	-3990
ಾಮಿ	-3991
▁ಘಟ	-3992
ಿಸ್ಟ	-3993
▁ಆರಾಧ	-3994
▁ಕೊಡು	-3995
ಿಕೊಂಡರು	-3996
▁ಹಿನ್ನೆಲೆ	-3997
▁pl	-3998
▁ದರ್ಶ	-3999
▁ಸಂಸ್ಕ	-4000
▁ಟ್ಯಾಬ್	-4001
▁ಇಪ್ಪತ್ತು	-4002
Hz	-4003
ft	-4004
nt	-4005
▁Ind	-4006
▁ಸರಬ	-4007
ಿಸಿಕೊ	-4008
▁ಮಾನವ	-4009
▁ಮನಸ್ಸ	-4010
▁ಸೂಪರ್	-4011
▁ಸ್ಥಿತ	-4012
ಯರ್	-4013
ಶನ್	-4014
▁ಅಮ	-4015
▁ಶಾಲ	-4016
▁ಬಿದ್ದ	-4017
▁ನಿರಂತರ	-4018
▁ಮುಖ್ಯಸ್ಥ	-4019
▁ಸಂಪನ್ಮೂಲ	-4020
58	-4021
ಲಂಬ	-4022
▁ನಕ	-4023
▁19,	-4024
▁ತೊಳ	-4025
▁ಅಂದು	-4026
▁ಪೇತ್ರ	-4027
ಗೊಳ್ಳುವ	-4028
ಲಿನಲ್ಲಿ	-4029
▁ಅನುವಾದ	-4030
▁ಆಗಿರುವ	-4031
▁ಆಶ್ಚರ್ಯ	-4032
▁ಕಾರ್ಯಾಚ	-4033
aw	-4034
oy	-4035
▁02	-4036
್ಯಂತ	-4037
▁ಸವಾ	-4038
▁ನಿರ್ಣ	-4039
▁ಬಿದ್ದು	-4040
ಿನಲ್ಲಿರುವ	-4041
▁ವಿಷಯಗಳನ್ನು	-4042
ಲೀಯ	-4043
ನೆಯು	-4044
ಜಿಂಗ್	-4045
▁ಬೆನ್ಯ	-4046
▁ಸ್ಟೀಲ್	-4047
▁ಡಿಜಿಟಲ್	-4048
▁ಯಾರಾದರೂ	-4049
▁ಫ್ಯಾಕ್ಸ್	-4050
▁ಎಂದೆಂದಿಗೂ	-4051
▁ಲಭ್ಯವಿರುವ	-4052
ನಾತ	-4053
▁as	-4054
▁ಫೀ	-4055
▁(1,	-4056
▁ಉಳಿಯ	-4057
▁ಮೇರೆ	-4058
▁ಮೋಶೆಯ	-4059
▁ಪಶ್ಚಿಮ	-4060
ೇದ	-4061
▁ಚೊ	-4062
ator	-4063
ಡ್ಸ್	-4064
▁ಹೇಗ	-4065
ವರಾಗಿ	-4066
▁ಎರಡೂ	-4067
▁ಜೆಟ್	-4068
▁ನಾಚಿಕೆ	-4069
▁ಹುಟ್ಟಿದ	-4070
ಿಸಿದ್ದಾನೆ	-4071
▁ಹೆಚ್ಚುವರಿ	-4072
▁XX	-4073
▁am	-4074
▁ಚೀಯ	-4075
▁ತಾಣ	-4076
▁ಸಂಭ	-4077
▁ಕುದುರೆ	-4078
▁ಸ್ವಸ್ಥ	-4079
ಟೂ	-4080
ೀದಿ	-4081
▁ಮ್ಯ	-4082
▁ಪರವಾನ	-4083
▁ಹೆಸರಿ	-4084
ವರೆಲ್ಲರೂ	-4085
▁ಅರಸನಿಗೆ	-4086
▁ಕೊಂದುಹಾಕ	-4087
56	-4088
SO	-4089
ower	-4090
ಾಯನು	-4091
ೇಷನ್	-4092
▁Home	-4093
▁ಭರವಸ	-4094
▁ಇದ್ದನು	-4095
ax	-4096
min	-4097
▁Ap	-4098
▁ಡೊ	-4099
▁ದೋ	-4100
▁ಲು	-4101
ster	-4102
▁ಪ್ರಪಂಚ	-4103
▁ಮ್ಯಾಕ್	-4104
ಿದ್ದರಿಂದ	-4105
▁ಪಡೆಯಿರಿ	-4106
▁ಶೀರ್ಷಿಕೆ	-4107
▁ಮಕ್ಕಳನ್ನು	-4108
ಧಿಯ	-4109
ಣಿಗೆ	-4110
▁ಜೀವನದ	-4111
▁ಇಬ್ಬರು	-4112
▁ಇರಬೇಕು	-4113
▁ರಿವ್ಯೂ	-4114
▁ಸಾರಿಗೆ	-4115
▁ವಾರ್ಷಿಕ	-4116
▁ಮಾತನಾಡುವ	-4117
▁ಉತ್ತರಕೊಡು	-4118
▁ಟ್ಯಾಗ್ಗಳು	-4119
ತೂ	-4120
ಾತ	-4121
ren	-4122
ರಲಿ	-4123
▁3.	-4124
▁Ad	-4125
▁ಹಗೆ	-4126
ರಿಯುವ	-4127
▁1000	-4128
ಿಸುವಾಗ	-4129
/0	-4130
ge	-4131
▁ಬೂ	-4132
▁ಬಾಧ	-4133
obile	-4134
▁ಎಲೆಕ್	-4135
▁ಲಕ್ಷಣ	-4136
▁ಸೇರಿಸಿ	-4137
ಬನು	-4138
ವಾಳ	-4139
▁ಪ್ರಶ	-4140
Kannada	-4141
▁ವಿದ್ಯಾರ್ಥಿಗಳು	-4142
ಭಿ	-4143
ಾಶ	-4144
ಭೂತ	-4145
ಟೆಲ್	-4146
▁ಅಳವ	-4147
▁ಎಂದ	-4148
▁ಲಿಂಕ್	-4149
▁ನೇರವಾಗಿ	-4150
ಖೆ	-4151
ric	-4152
ಿಕೋ	-4153
▁0086	-4154
▁ಬಿಳಿ	-4155
▁ಸೂರ್ಯ	-4156
▁ಆರ್ಕೈವ್	-4157
▁ಧನ್ಯವಾದಗಳು	-4158
cl	-4159
ಸದ	-4160
▁inm	-4161
▁ತೃಪ್	-4162
ಾಗಿಲ್ಲ	-4163
▁ಗೋಡೆಯ	-4164
▁ಎಫ್ರಾಯ	-4165
▁ಬಾಕ್ಸ್	-4166
▁ಮೆಚ್ಚಿನ	-4167
▁ಸೇವೆಗಳು	-4168
▁ಪ್ರಾರ್ಥನೆ	-4169
▁ಪ್ರಾಣವನ್ನು	-4170
▁ಕಾರ್ಯನಿರ್ವಹ	-4171
▁ಏನ	-4172
ತ್ವದ	-4173
ರಿಕ್	-4174
▁ಆಮ್	-4175
▁ಸಂಘ	-4176
ಕಾರಿಯ	-4177
▁ಸಬ್ಬ	-4178
▁ಗ್ರಾಹಕರಿಗೆ	-4179
.10	-4180
ಧೀನ	-4181
▁ಮೇಘ	-4182
▁ವದು	-4183
▁ಕಡತದ	-4184
▁ಕುರಿಮ	-4185
▁ಸಿಂಹಾಸ	-4186
▁ಚೆನ್ನಾಗಿ	-4187
▁ಹೇಳುತ್ತೇನೆ	-4188
್ರಾಂ	-4189
▁ಅಬೀ	-4190
▁ಅಲ್	-4191
▁ವರು	-4192
▁ಗುಂಡ	-4193
▁ಪಾಸ್	-4194
▁ಸಮೂಹ	-4195
ಿಸುವದು	-4196
▁ಅವಳನ್ನು	-4197
ual	-4198
ಂಕು	-4199
ವೀಟ್	-4200
▁ಸಮ್ಮುಖ	-4201
▁ಬದಲಾಯಿಸಲು	-4202
▁***	-4203
▁ಅಂಚ	-4204
▁ಕಬ್ಬ	-4205
▁ಫೇಸ್ಬುಕ್	-4206
ವಾಗಿರುತ್ತದೆ	-4207
MS	-4208
ari	-4209
oin	-4210
oll	-4211
ೂಬ್	-4212
-2012	-4213
ಕಾರ್ಯ	-4214
▁ಗ್ರೀ	-4215
ಿಸುವರು	-4216
▁ಹೂವಿನ	-4217
▁ಇದ್ದವು	-4218
▁ಹುಡುಕು	-4219
▁ಗುಪ್ತಪದ	-4220
ಿಸಿದ್ದಾರೆ	-4221
▁ವಾಕ್ಯವನ್ನು	-4222
IT	-4223
ಿಗ	-4224
ank	-4225
rav	-4226
ಸಿಯ	-4227
▁(4	-4228
▁(6	-4229
▁ತೆರ	-4230
▁ಅಮ್ಮ	-4231
▁ಗುಂಪ	-4232
▁ಚಕ್ರ	-4233
▁ಶಿಲೀ	-4234
▁title	-4235
ಿಸುವಂತೆ	-4236
▁ಈಗಾಗಲೇ	-4237
▁120	-4238
▁ಬಲಗ	-4239
ಟ್ಟರು	-4240
ಮಾನ್ಯ	-4241
▁ಶಕ್ತ	-4242
▁ಸರ್ವ	-4243
▁ಪಾರ್ಕ್	-4244
▁ಹೊಂದಿದ	-4245
▁ಜಿಎಸ್ಟಿ	-4246
▁ಸೇರಿದಂತೆ	-4247
▁ಸ್ಥಳಗಳಲ್ಲಿ	-4248
AL	-4249
old	-4250
2004	-4251
▁ಕ್ಲ	-4252
▁ಯೋಹ	-4253
▁ತಾವು	-4254
▁ಪಂಪ್	-4255
▁ನೀಡಲು	-4256
▁ಸ್ಟಾರ್	-4257
7,	-4258
▁Th	-4259
ುವೆನು	-4260
▁ಎರಡನೇ	-4261
▁ವಿಶ್ರಾ	-4262
ಲುಗಳನ್ನು	-4263
▁ಬಹಳಷ್ಟು	-4264
ML	-4265
bl	-4266
ens	-4267
iec	-4268
ದೆಯ	-4269
▁SK	-4270
ಂತಲೂ	-4271
ಲೆಸ್	-4272
▁ತಡೆ	-4273
▁ಪೋಷ	-4274
▁month	-4275
▁ಇನ್ನೊಂದು	-4276
▁ಸುರಕ್ಷಿತ	-4277
▁us	-4278
▁Arch	-4279
▁ಗೌರವ	-4280
▁ಶುಲ್	-4281
▁ಅದಕ್ಕ	-4282
▁ಕತ್ತಿಯಿಂದ	-4283
;&	-4284
gor	-4285
ond	-4286
ಲ್ದ	-4287
abel	-4288
ಂಜಿನಿಯ	-4289
▁ನೆರೆಯ	-4290
ದುಕೊಂಡು	-4291
▁ವ್ಯಾಪ್	-4292
▁ಹೊಡೆದು	-4293
ವಾಗಿದ್ದು	-4294
ಿರಾ	-4295
ುದರ	-4296
▁ಹಳ	-4297
heat	-4298
▁150	-4299
▁ಸಾಂ	-4300
ುವಾಗಿ	-4301
▁ಹುಡುಕಿ	-4302
▁ಜನರೇಟರ್	-4303
▁ಹೃದಯದಲ್ಲಿ	-4304
▁ತಲ	-4305
▁ಇಂಗ್	-4306
ಾಗುವುದು	-4307
▁ಪೂರೈಕೆದಾರರು	-4308
ET	-4309
ಯ್	-4310
ink	-4311
osit	-4312
ಕ್ರೋ	-4313
ಗತ್ತ	-4314
ಿಷ್ಟ	-4315
▁search	-4316
LY	-4317
▁z	-4318
man	-4319
ಹನು	-4320
ಾದ್	-4321
ound	-4322
▁ಆರಿಸ	-4323
▁ನೀಲಿ	-4324
▁ಸ್ತೋ	-4325
ೆಯನ್ನೂ	-4326
ಾಗಲಿಲ್ಲ	-4327
ಾಗಿದ್ದರೆ	-4328
▁ತಿನ್ನುವ	-4329
▁ಪರವಾನಗಿ	-4330
▁ಬೆನ್ಯಾವಿ	-4331
▁ರಾಷ್ಟ್ರೀಯ	-4332
▁ಹೆಸರಿನಲ್ಲಿ	-4333
3.	-4334
8,	-4335
ೊಡ	-4336
ime	-4337
ಕಾಸ	-4338
rist	-4339
ಾವಧಿ	-4340
▁ಇಸ್	-4341
ದನ್ನೂ	-4342
▁ಬೀಟಾ	-4343
▁ಬೀದಿ	-4344
▁ಭಯಪಡ	-4345
ಿಕವಾಗಿ	-4346
ೆಯುಳ್ಳ	-4347
▁ಸುಳ್ಳು	-4348
▁ಹಿಂದೆಯೇ	-4349
ಿಸುವದಿಲ್ಲ	-4350
▁ಬಳಸಿಕೊಂಡು	-4351
▁ಸಾಧ್ಯವಿಲ್ಲ	-4352
ಾವೇ	-4353
▁70	-4354
▁or	-4355
ಡಿಕೆ	-4356
▁Hol	-4357
▁ಮುಂಚೆ	-4358
▁ಸ್ತೋತ್ರ	-4359
▁ಉತ್ಪಾದನೆ	-4360
▁ಕಂಡುಹಿಡಿಯ	-4361
▁ಸ್ವಯಂಚಾಲಿತ	-4362
▁ಹುಡುಕುತ್ತಿರುವ	-4363
ಮೋಚ	-4364
ಯಿತು	-4365
▁ನೆಲ	-4366
-2017	-4367
▁100%	-4368
▁ರೈಲು	-4369
▁ಕಡಿದು	-4370
▁ಕೂದಲು	-4371
▁ಪತ್ರಿ	-4372
▁ಪ್ರಸಾರ	-4373
▁ವರ್ಗಗಳು	-4374
▁ಮಾರ್ಗದರ್ಶನ	-4375
af	-4376
▁10,	-4377
▁ಗುರಿ	-4378
▁ಮಿಶ್ರ	-4379
▁ತಂದೆಯು	-4380
▁ಪಾತ್ರೆ	-4381
▁ರಚಿಸಲಾದ	-4382
▁ಸರಿಯಾಗಿ	-4383
▁Karnataka	-4384
▁ಮುದ್ರಿಸಲು	-4385
mb	-4386
me	-4387
ork	-4388
▁ago	-4389
▁ತನಕ	-4390
ುತ್ತೀ	-4391
್ರದಾಯ	-4392
▁ಫೋಲ್	-4393
▁ವಿಫಲ	-4394
ೊಬ್ಬರು	-4395
▁ಭಾರತದ	-4396
ಗೊಂಡಿದೆ	-4397
▁ಶಿಲೀಂಧ್ರ	-4398
ron	-4399
ಟಿಕ	-4400
▁'%	-4401
▁ಹಡ	-4402
oooo	-4403
▁Bit	-4404
▁ಅರಾ	-4405
▁ಓದಿ	-4406
▁Bonus	-4407
▁ಹಸಿರು	-4408
ಡುತ್ತಾರೆ	-4409
▁ಬಯಸಿದರೆ	-4410
▁ಇರುತ್ತದೆ	-4411
▁ಇಂಟರ್ನೆಟ್	-4412
500	-4413
ವಳಿ	-4414
▁4,	-4415
▁that	-4416
▁ನೆಲೆ	-4417
▁ಕಣ್ಣುಗಳು	-4418
CH	-4419
ಡಲು	-4420
ಪರಿ	-4421
▁ನಂ	-4422
ಕರ್ಷ	-4423
▁ಇಲಾ	-4424
▁ಕೈಗೆ	-4425
▁ಟೆಕ್	-4426
▁ಪರ್ಯ	-4427
▁ಹೊರಟ	-4428
eneric	-4429
ಿಸಲಿಲ್ಲ	-4430
▁ಸಮಸ್ಯೆ	-4431
ಾಗಿದ್ದರು	-4432
▁ಕರಕೊಂಡು	-4433
▁ವಿವರಗಳು	-4434
▁ಬದಲಾಯಿಸು	-4435
ಕನ	-4436
▁1:	-4437
ಿವೇಶ	-4438
▁ಆಯು	-4439
ಪ್ರೆಸ್	-4440
▁ಕೇಳಿದ	-4441
▁ಸಾಯುವ	-4442
▁ರಾಜ್ಯದ	-4443
▁mod	-4444
▁ಸಮಾಜ	-4445
▁ಅನುಮತ	-4446
▁ಖರೀದಿ	-4447
ದಕ್ಕಿಂತ	-4448
ುತ್ತಿದ್ದ	-4449
▁ನೀರನ್ನು	-4450
▁ಬಳಸಬಹುದು	-4451
utt	-4452
ಗರು	-4453
ವ್ರ	-4454
▁OF	-4455
▁ಹಗ	-4456
ವರಿತ	-4457
▁ಗಾಯ	-4458
ುದರಿಂದ	-4459
▁ರಾಷ್ಟ್ರ	-4460
ath	-4461
▁ex	-4462
▁ಗಿಡ	-4463
▁ಬಾಲ	-4464
▁your	-4465
▁ಆಕಾರ	-4466
▁ಕ್ಲಿ	-4467
▁ತಾಯಿ	-4468
ಗೊಳಿಸಿ	-4469
▁ಎಸ್ಎಂ	-4470
▁ರನ್ನು	-4471
▁ಕೇಳಿದಾಗ	-4472
▁ಜನಾಂಗಗಳ	-4473
▁ಪರೀಕ್ಷೆ	-4474
AD	-4475
cn	-4476
ಪೋ	-4477
ಇಡಿ	-4478
▁ಜಪ	-4479
▁ಸ್ನ	-4480
ವರ್ಕ್	-4481
ಿರುವಾಗ	-4482
ನ್ನಾಗಲಿ	-4483
▁ಅಪೇಕ್ಷ	-4484
▁ಮಾಡುವುದು	-4485
ne	-4486
▁ರಾಮ	-4487
▁ಚಿಹ್	-4488
▁ಟೇಬಲ್	-4489
▁ಉಕ್ಕಿನ	-4490
▁ವೇದಿಕೆ	-4491
ಗುಣ	-4492
ವತ್ತ	-4493
▁ಆಗುವ	-4494
▁ಚರ್ಚ	-4495
▁ಯೋಗ್ಯ	-4496
▁ಪುಟಗಳು	-4497
ದ್ದೇನಂದರೆ	-4498
ಲ್ಪಡುತ್ತದೆ	-4499
▁ಆರ್ಕೈವ್ಸ್	-4500
9,	-4501
ave	-4502
ದಾನ	-4503
ಸಸ್	-4504
ನಿವರ್	-4505
ಲ್ದಾಣ	-4506
ಾಸಿಸ್	-4507
▁ಕೀರ್	-4508
▁ಕೂಡಿ	-4509
▁ಲ್ಯಾ	-4510
ನಾತ್ಮಕ	-4511
▁ಅವಳಿಗೆ	-4512
▁ದಿನಗಳಲ್ಲಿ	-4513
OD	-4514
▁are	-4515
▁ಅಂಗಳ	-4516
▁ಆರ್ಥ	-4517
▁ಧರ್ಮ	-4518
▁ಸರಕು	-4519
▁ಸ್ತಂಭ	-4520
▁ತ್ವರಿತ	-4521
ಿಕೆಯಲ್ಲಿ	-4522
▁ಇವುಗಳನ್ನು	-4523
▁ಮಾರ್ಗವನ್ನು	-4524
-7	-4525
ರಸ	-4526
▁ತ್ರ	-4527
▁ಬಗೆ	-4528
chain	-4529
ವಿಷ್ಯ	-4530
ategor	-4531
ಟ್ವೀಟ್	-4532
ಾಯಿಂಟ್	-4533
ai	-4534
ುದ್ದ	-4535
▁ಚೀಲ	-4536
▁ಫಿಲ್	-4537
ವಾಗಿವೆ	-4538
▁ಕ್ರೆಡಿಟ್	-4539
▁ಸ್ಟ್ರೀಮಿಂಗ್	-4540
de	-4541
ille	-4542
▁Oct	-4543
▁ನೋಡು	-4544
▁ಸುನ್ನ	-4545
ownload	-4546
▁ತೊಂದರೆ	-4547
▁ಪ್ಯಾಕ್	-4548
ರುತ್ತಾರೆ	-4549
▁ಸಂಯುಕ್ತ	-4550
enericName	-4551
47	-4552
ಿಯೆ	-4553
ಾತ್ಮ	-4554
▁ತಿರ	-4555
ಸ್ಥಾನ	-4556
▁ತಯಾರಿ	-4557
▁ಮೇಲಕ್ಕೆ	-4558
▁ಉಚಿತವಾಗಿ	-4559
▁ಮೇಲ್ವಿಚಾರ	-4560
▁ಗೋಳ	-4561
▁ವೈರ್	-4562
ಮಾರ್ಟ್	-4563
▁ಯಾಜಕರ	-4564
▁ಎಚ್ಚರಿಕೆ	-4565
ಾಧ	-4566
ಂಚ್	-4567
▁37	-4568
▁48	-4569
▁CS	-4570
▁ಬದ	-4571
▁ಮಲಗ	-4572
▁ಟ್ರೇ	-4573
▁ಕಚೇರಿ	-4574
▁ಸೋರಿಯ	-4575
▁ಹೊಂದಾಣ	-4576
▁ಮಾಡಿದರೆ	-4577
▁ಸ್ವಾಧೀನ	-4578
▁ರಿಟ್ವೀಟ್	-4579
▁ಲಭ್ಯವಿದೆ	-4580
▁ಅನ್ನುತ್ತಾನೆ	-4581
▁ಚಿತ್ರಗಳನ್ನು	-4582
ರಕ	-4583
opy	-4584
▁XS	-4585
ibia	-4586
▁SKU	-4587
▁ಆಟೋ	-4588
ಕಾರಿಕ	-4589
▁ಡ್ರಾ	-4590
▁ವಿಕಿ	-4591
▁ಹಿಡಿದ	-4592
▁ಕೋರ್ಸ್	-4593
▁ಐಗುಪ್ತದ	-4594
▁ಸರಬರಾಜು	-4595
▁ತಮ್ಮನ್ನು	-4596
▁ಬೆಂಕಿಯಿಂದ	-4597
▁ಮಾಡಿಕೊಳ್ಳ	-4598
▁ಸೋರಿಯಾಸಿಸ್	-4599
ಪನ	-4600
air	-4601
ಫರ್	-4602
ಾಸ್	-4603
ated	-4604
ವರ್ಯ	-4605
▁Dec	-4606
▁ಸಭೆ	-4607
itute	-4608
ತಿಯಾದ	-4609
▁ಪ್ರಿ	-4610
ೊಬ್ಬನು	-4611
ಿಸುತ್ತಾ	-4612
▁ಎಂಬುದು	-4613
▁ಭವಿಷ್ಯ	-4614
▁ಸಂಸ್ಥೆ	-4615
▁ಅಲಂಕಾರಿಕ	-4616
▁ಸ್ಥಳವನ್ನು	-4617
▁ಚಲನಚಿತ್ರಗಳು	-4618
ale	-4619
iew	-4620
ner	-4621
ple	-4622
ಪನ್	-4623
ಮನ್	-4624
ತಿಗೆ	-4625
ಷ್ಯಾ	-4626
ನಿಮ್ಮ	-4627
▁ನದಿಯ	-4628
▁ವರ್ತ	-4629
▁ಕಡತಕೋಶ	-4630
▁ಪ್ರಸಿದ್ಧ	-4631
▁ಮನೆಯನ್ನು	-4632
ts	-4633
ans	-4634
ಾಗು	-4635
▁ಜಯ	-4636
ನೆಗಳ	-4637
▁Pol	-4638
▁ಅಥವ	-4639
▁ಐಶ್	-4640
▁ರೇಖ	-4641
▁ವಿಕ	-4642
▁ದಾಟಿ	-4643
▁ಬೇತ್	-4644
ನೆಯಲ್ಲಿ	-4645
-15	-4646
ಾಧಿಪ	-4647
▁ಎಲೀ	-4648
▁ಏರಿ	-4649
▁ಕೆನ	-4650
ಾಯ್ಸ್	-4651
▁ಕ್ಷಮ	-4652
ಗಾರಿಕೆ	-4653
▁ವಿಮೋಚ	-4654
▁ಮೇಲಿರುವ	-4655
▁ಶ್ರೇಷ್ಠ	-4656
TP	-4657
-04	-4658
ury	-4659
ರಾವ	-4660
▁ಪೂ	-4661
ಾಗಲೀ	-4662
▁ಸಿಎ	-4663
▁ವೋಲ್	-4664
▁ಹೂಣಿ	-4665
amibia	-4666
▁ಸ್ಪರ್	-4667
▁ಹೊಡೆಯ	-4668
▁ದೇವಾಲಯ	-4669
▁ಸೌಲಭ್ಯ	-4670
ಸಾವ	-4671
ಡಾಂಗ್	-4672
ಸಂಪುಟ	-4673
▁ಇಂತಹ	-4674
▁ಜರ್ಮ	-4675
▁ಸಂವಾದ	-4676
▁ಎರಡನೆಯ	-4677
▁ಕಿವಿಗೊ	-4678
ವೇಷ	-4679
▁ನಯ	-4680
▁ನಾಗ	-4681
▁ನೂರು	-4682
ಕೊಂಡರು	-4683
▁ಯುರೋಪ್	-4684
ೇನು	-4685
ೇಶ್	-4686
▁ಲೂ	-4687
rain	-4688
ಡ್ಡಿ	-4689
▁17,	-4690
▁ಬೆಲ್	-4691
▁ಹೊಟ್ಟ	-4692
▁ಹೀಗೆಯೇ	-4693
ck	-4694
ams	-4695
ಕ್ಸ	-4696
ATOR	-4697
▁ಗರ್	-4698
ವಾದರೆ	-4699
▁ಪ್ರೋಗ	-4700
ವಿನ್ಯಾಸ	-4701
▁ಮನಸ್ಸು	-4702
▁ಸುವಾರ್	-4703
▁ಚಿಕಿತ್ಸ	-4704
▁ವೈದ್ಯಕೀಯ	-4705
▁ಇಸ್ರಾಯೇಲ್ಯರ	-4706
▁ಯೆರೂಸಲೇಮಿನಲ್ಲಿ	-4707
89	-4708
HS	-4709
ಾಮ್	-4710
ೂರು	-4711
▁ದ್	-4712
▁ರಫ್	-4713
▁ಆಲಯದ	-4714
▁ಸಂವಹ	-4715
▁ಸನ್ನಿ	-4716
▁ಗೋಸ್ಕರ	-4717
▁ಬಣ್ಣಗಳು	-4718
▁ಕಳುಹಿಸಿದನು	-4719
▁ಟ್ಯಾಬ್ಲೆಟ್	-4720
ಫಾ	-4721
ಪೂರ್	-4722
▁Ant	-4723
▁ಕಲೆ	-4724
▁start	-4725
▁ಕರೆದು	-4726
▁ಕೆಡಿಇ	-4727
▁ಕೇಳಲು	-4728
▁ಜಾಗತಿಕ	-4729
▁ಪಾಕವಿಧಾನ	-4730
▁ಮಾತನಾಡಿದ	-4731
66	-4732
▁)	-4733
ಚರ್	-4734
್ವನ	-4735
▁Pr	-4736
▁ಉದಯ	-4737
▁ಬೀಜ	-4738
anium	-4739
ುವಿಕೆ	-4740
▁ದಾಖಲ	-4741
▁ನಡೆದ	-4742
▁ಉಡುಪು	-4743
▁ಬೇಕಾದ	-4744
ರಿನಲ್ಲಿ	-4745
▁ಕಾಲೇಜು	-4746
▁ಐಶ್ವರ್ಯ	-4747
GenericName	-4748
ಟೊ	-4749
cer	-4750
esc	-4751
▁4.	-4752
▁Ev	-4753
▁ನೊ	-4754
ಜೆಟ್	-4755
▁ಸಂಚ	-4756
ಾರ್ಕ್	-4757
ಪಡಿಸಲು	-4758
▁ಎದುರು	-4759
▁ಬಾಗಲು	-4760
▁ಸಮುವೇ	-4761
▁ಹಣಕಾಸ	-4762
▁action	-4763
▁ನಿರ್ಣಯ	-4764
▁ಬ್ಲಾಕ್	-4765
▁ಪ್ರಮಾಣದ	-4766
▁ಸೇವಕನಾದ	-4767
▁ಆಶೀರ್ವಾದ	-4768
ಕರ್ಯ	-4769
ೈರ್ಯ	-4770
▁2000	-4771
▁ಜಾನ್	-4772
▁ಸುಧಾ	-4773
▁ಭಿನ್ನ	-4774
▁ತ್ತಾನೆ	-4775
DC	-4776
EN	-4777
LO	-4778
ove	-4779
ಗಾಲ	-4780
ಡಿನ	-4781
ಾಯೇ	-4782
▁55	-4783
ಕ್ತನ	-4784
ಟೇಜ್	-4785
▁All	-4786
▁ಚಿಕ	-4787
▁ಯೂದ	-4788
▁ಸ್ಕ್ರ	-4789
▁ಹೆತ್ತ	-4790
್ರಾನ್ಸ್	-4791
▁ಆರ್ಥಿಕ	-4792
▁ಬೆಳ್ಳಿ	-4793
▁ಕಾಲಾವಧಿ	-4794
▁ಮಗನನ್ನು	-4795
▁ವಿಶ್ಲೇಷ	-4796
▁ಮೊದಲುಗೊಂಡು	-4797
ುರ	-4798
ಂಕರ	-4799
ಡೆದು	-4800
ಣ್ಣಿನ	-4801
ಹೋಗುವ	-4802
್ಯಾನಿ	-4803
▁ಆದಾಯ	-4804
▁ಧರಿಸ	-4805
▁ವಾಣಿ	-4806
▁ನವೀಕರಣ	-4807
▁ಆಗಿತ್ತು	-4808
▁ಹಣವನ್ನು	-4809
ಾಗಿದ್ದಾನೆ	-4810
▁ಪ್ರಮಾಣೀಕರಣ	-4811
sg	-4812
xx	-4813
ಷನು	-4814
▁..	-4815
▁ಯಥ	-4816
▁ಶೋ	-4817
ional	-4818
▁TRAN	-4819
▁ಪಾವತ	-4820
▁ಸ್ಮಾರ್ಟ್	-4821
▁ತೆಗೆದುಕೊಂಡ	-4822
▁ಯೆರೂಸಲೇಮಿಗೆ	-4823
__	-4824
▁?	-4825
ಟಿನ್	-4826
▁ಅಂಟ	-4827
▁ಹಾಡು	-4828
▁ಎತ್ತು	-4829
uranium	-4830
ಮಾಡಿದನು	-4831
▁Tablet	-4832
▁ಪಡೆಯುವ	-4833
ಲ್ಪಡುವದು	-4834
▁ವಿಶಿಷ್ಟ	-4835
▁ಸಮೀಕ್ಷೆ	-4836
institute	-4837
▁ಮಾರ್ಗದರ್ಶ	-4838
amibiauranium	-4839
box	-4840
ೆನ್	-4841
▁(10	-4842
▁Win	-4843
▁ಅಡಿ	-4844
▁ಊಟದ	-4845
▁ಬೇಗ	-4846
▁ವಂಚ	-4847
▁ಸನ್	-4848
ರಿಯಾದ	-4849
▁ಹಾಳು	-4850
▁ಇಂದಿನ	-4851
▁ಬಾಡಿಗೆ	-4852
▁ಬುದ್ಧಿ	-4853
ockchain	-4854
ಲ್ಪಟ್ಟಿತು	-4855
▁ಅವುಗಳಲ್ಲಿ	-4856
▁ಕಡತಗಳನ್ನು	-4857
▁ವಾಸ್ತವವಾಗಿ	-4858
AP	-4859
ನೊ	-4860
rad	-4861
ಾರು	-4862
▁33	-4863
▁Sw	-4864
iang	-4865
ಯ್ಯೋ	-4866
▁ಅನಾ	-4867
▁ಇಂಥ	-4868
ಣೆಗಳು	-4869
▁ಗ್ರಂಥ	-4870
ುತ್ತಿದೆ	-4871
▁ಅಮೇರಿಕಾದ	-4872
▁ಹಿಂದಕ್ಕೆ	-4873
▁ಸಾಧ್ಯವಾಗಿಲ್ಲ	-4874
▁Namibiauranium	-4875
▁ವೀ	-4876
ಲ್ಲದ	-4877
ಲಕ್ಷಣ	-4878
ವರೆಗೂ	-4879
▁ಚರ್ಮದ	-4880
▁ಎಲ್ಲರೂ	-4881
▁ಪ್ರೇಮಿ	-4882
▁ವದಕ್ಕೆ	-4883
▁ಕೆಟ್ಟತನ	-4884
▁ಸಂದೇಶವನ್ನು	-4885
ಕಪ್	-4886
ಬಿಡ	-4887
▁Te	-4888
▁Rik	-4889
▁ಕೌಶ	-4890
ATORS	-4891
▁ಸೂಚಕ	-4892
SLATORS	-4893
▁ಹೊಂದುವ	-4894
▁ಚಟುವಟಿಕೆ	-4895
▁ರಕ್ತವನ್ನು	-4896
▁ಹೃದಯವನ್ನು	-4897
▁TRANSLATORS	-4898
▁ಖಚಿತಪಡಿಸಿಕೊಳ್ಳ	-4899
bo	-4900
ერ	-4901
ಹಾಗ	-4902
form	-4903
ರ್ಸಿ	-4904
▁ಕಳೆದ	-4905
▁ಮಹಿಮ	-4906
▁ಹಾಕು	-4907
▁ಅಂಗಡಿ	-4908
▁ಸಲಕರಣೆ	-4909
▁ಅಪ್ಲೋಡ್	-4910
▁ಸಲಹೆಗಳು	-4911
▁ಸೇವೆಯನ್ನು	-4912
▁wh	-4913
▁ಆಯಾಮ	-4914
▁ಹಿಜ್	-4915
▁ಇಲ್ಲದ	-4916
▁ಚೊಚ್ಚ	-4917
▁ಪರಿಕರ	-4918
▁ವಾಸವಾಗ	-4919
▁English	-4920
▁ನ್ಯಾಯತೀ	-4921
▁ವಿದ್ಯಾರ್ಥಿ	-4922
ars	-4923
ನರಿ	-4924
ರಳು	-4925
▁ಗದ	-4926
▁ವಂಶ	-4927
▁ಶಾಖ	-4928
ಿತವಾದ	-4929
▁ದೇಹದ	-4930
▁ಬೆಳವ	-4931
▁ಉಡುಗೆ	-4932
▁ದ್ವಾರ	-4933
▁ಫೈಬರ್	-4934
ತಿಯಲ್ಲಿ	-4935
▁ಬೆಳಕಿನ	-4936
▁ಕಾರ್ಯವನ್ನು	-4937
▁ಪಟ್ಟಣದಲ್ಲಿ	-4938
▁ಸಾಧ್ಯವಾಗುತ್ತದೆ	-4939
ಂಧನ	-4940
▁ಮಧ	-4941
ober	-4942
▁12,	-4943
▁dur	-4944
▁ಬೇಸ	-4945
▁ಎಲೀಯ	-4946
▁ಕೊನೆ	-4947
▁ಪಿಸಿ	-4948
▁ಸಮಾನ	-4949
▁ತಿಂಗಳಿನ	-4950
ಬಹುದಾಗಿದೆ	-4951
ಡೊ	-4952
ubl	-4953
ಯ್ದ	-4954
ವೇದ	-4955
▁ರಸ	-4956
▁ಅಶ್ಶ	-4957
▁ತಡೆಯ	-4958
▁ಮರಳಿ	-4959
ಕರ್ತನು	-4960
ವರಲ್ಲಿ	-4961
▁ಗಿಲ್ಯ	-4962
▁ಫರೋಹನ	-4963
▁ವಿಡಿಯೋ	-4964
▁ಕೇಳಿದನು	-4965
di	-4966
▁//	-4967
▁ಮೂಡ	-4968
▁ಓದಲು	-4969
▁ಕರ್ತ	-4970
▁ಬೆಳಗ	-4971
▁ರಚನೆ	-4972
▁ವರ್ಣ	-4973
ಿರಬೇಕು	-4974
▁ಸತ್ತು	-4975
▁ಕಂಪನಿಯ	-4976
▁ಕ್ಯಾಮೆ	-4977
▁ನಿಲ್ದಾಣ	-4978
▁ದೃಷ್ಟಿಯಲ್ಲಿ	-4979
▁ಹೇಳುವದೇನಂದರೆ	-4980
▁·	-4981
ಫಾರ	-4982
ಶ್ವ	-4983
▁te	-4984
ದಕ್ಕ	-4985
▁App	-4986
▁ISO	-4987
▁Nov	-4988
▁ತಾಳ	-4989
▁ದೂತನು	-4990
▁ಪ್ಲಗ್	-4991
▁ಎಂಜಿನ್	-4992
ಿಗೆಯನ್ನು	-4993
▁ಮುಂದೆಯೂ	-4994
▁ದಿವಸಗಳಲ್ಲಿ	-4995
,,	-4996
64	-4997
cy	-4998
ಾಯನ	-4999
ಾತನು	-5000
▁ಅಳವಡ	-5001
▁ಬ್ರಾ	-5002
ಟ್ಟಿಗೆ	-5003
▁ಎನ್ನು	-5004
▁ಅಧ್ಯಾಯ	-5005
▁ಹಾರ್ಡ್	-5006
ಲ್ಪಡುತ್ತ	-5007
▁Rikoooo	-5008
▁ಬ್ಯಾಂಕ್	-5009
GB	-5010
ps	-5011
ೋಹ	-5012
rou	-5013
ತನೆ	-5014
▁42	-5015
▁75	-5016
▁op	-5017
ings	-5018
ತೆಗೆ	-5019
▁ಗಲಿ	-5020
▁Black	-5021
▁ಆಕರ್ಷ	-5022
▁ತಕ್ಷಣ	-5023
▁ನೆರವೇ	-5024
▁ಮಂಡಳಿ	-5025
▁ಲೇಸರ್	-5026
ನೊಂದಿಗೆ	-5027
▁ನಿಯಂತ್	-5028
▁ನಿಯಮಿತ	-5029
▁ಅಸ್ತಿತ್ವ	-5030
▁ಮಾಡಿಕೊಂಡ	-5031
."	-5032
ರೊ	-5033
▁Al	-5034
▁CH	-5035
ives	-5036
▁ಅದೆ	-5037
▁ಬರ್	-5038
gmail	-5039
▁ಭೂಮಿ	-5040
▁ವಿವೇಕ	-5041
▁ಪೂರೈಕೆ	-5042
▁ಪ್ರಸ್ತ	-5043
▁ನೊಂದಿಗೆ	-5044
ದುಕೊಳ್ಳುವ	-5045
▁ವೀಕ್ಷಣೆಗಳು	-5046
.95	-5047
▁By	-5048
ೋಪಕರಣ	-5049
▁ಗೋಡೆ	-5050
▁ಐವತ್ತು	-5051
▁ಹೋಟೆಲ್	-5052
▁ಮುಖವನ್ನು	-5053
▁ಸ್ವೀಕರಿಸ	-5054
ಲೀಕ	-5055
ಪ್ಸ್	-5056
▁ಆಮ್ಲ	-5057
ನವನ್ನು	-5058
▁ತುಂಡು	-5059
▁ಬೆಂಕಿಯ	-5060
▁ಮೇಲ್ಮೈ	-5061
▁ಸಾವಿರದ	-5062
EW	-5063
yl	-5064
ಬಳ	-5065
ake	-5066
ಂಬ್	-5067
წერ	-5068
▁::	-5069
▁20,	-5070
▁ಅರಮ	-5071
▁ಅಸಾ	-5072
▁ನಮೂ	-5073
▁Long	-5074
▁ಕಲಿಯ	-5075
▁ನೆಲದ	-5076
▁ದಿಕ್ಕ	-5077
▁ಆರಂಭಿಕ	-5078
▁ಇದ್ದರೆ	-5079
▁ರೂಲೆಟ್	-5080
▁ಹಿಂತಿರು	-5081
ಸಂಪುಟಗಳಲ್ಲಿ	-5082
kn	-5083
als	-5084
ರಲು	-5085
ಮೈಸ್	-5086
ುನಿಕ	-5087
▁ಎಲು	-5088
▁ಕುಳ	-5089
▁ಗಣಕ	-5090
▁ಜೋಡ	-5091
▁ತೀವ್ರ	-5092
▁ಮಾನ್ಯ	-5093
▁ಯೋವಾಬ	-5094
▁ಅಮೆರಿಕ	-5095
▁ಆಳಿದನು	-5096
▁ವ್ಯತ್ಯ	-5097
▁ಸಮಾರ್ಯ	-5098
ಾಗಿರುವದು	-5099
▁ನೋಡಿದಾಗ	-5100
6,	-5101
ಷನ	-5102
ად	-5103
EEK	-5104
ವೆಯ	-5105
ಂತಾದ	-5106
ರೋಧಕ	-5107
ರ್ಚ್	-5108
▁ಆಧಾರ	-5109
▁ತುಟಿ	-5110
ನೈಟೆಡ್	-5111
ವೆಲ್ಲಾ	-5112
▁ಮಹಿಮೆ	-5113
▁ವರ್ಡ್	-5114
▁ಒಪ್ಪಂದ	-5115
▁ಇಪ್ಪತ್ತ	-5116
▁ಯಜ್ಞವೇದಿಯ	-5117
▁ಮಾಡಲಾಗುತ್ತದೆ	-5118
:%	-5119
▁ಪೋ	-5120
▁You	-5121
ivers	-5122
ವರಿಗೂ	-5123
▁ಖಾಲಿ	-5124
▁ವಾಲ್	-5125
▁ಹೊರಡ	-5126
▁ಆಜ್ಞೆ	-5127
▁ಪರಿಚಾರ	-5128
▁ಪ್ರಚಾರ	-5129
▁ಬಂಗಾರದ	-5130
▁ಮಾನಸಿಕ	-5131
▁ಚಿಕ್ಕದು	-5132
▁ಯೂನಿವರ್	-5133
ಾಗಿದ್ದಾರೆ	-5134
▁ಪ್ರಶಸ್ತಿ	-5135
▁გ	-5136
LYP	-5137
ign	-5138
ips	-5139
ಂಡಾ	-5140
ಾಲೋ	-5141
ಿಸದ	-5142
▁ಆಪ	-5143
ನಮ್ಮ	-5144
▁Min	-5145
▁ಧೂಪ	-5146
uxury	-5147
▁live	-5148
▁ಇಂಧನ	-5149
▁ಸ್ಕೂ	-5150
▁ಆಮೇಲೆ	-5151
▁ಆರಿಸಿ	-5152
▁ಆರೋನನ	-5153
▁ಬಳಕೆಯ	-5154
▁ಶಿಫಾರ	-5155
▁ಮುದ್ರಣ	-5156
▁ಯುಎಸ್ಡಿ	-5157
▁ಉತ್ಪನ್ನಗಳ	-5158
92	-5159
ಚನ	-5160
uct	-5161
▁34	-5162
ಮೆನ್	-5163
ಳಿಗೆ	-5164
ಿದೆಯ	-5165
▁Mar	-5166
▁ಏಕಾ	-5167
▁ಐಟಿ	-5168
▁ಕೆತ್ತ	-5169
▁ಬೀಳುವ	-5170
▁ಸಲುವಾಗಿ	-5171
ರಾಷ್ಟ್ರೀಯ	-5172
ಲ್ಪಟ್ಟಿದೆ	-5173
▁ವೀಕ್ಷಿಸಿ	-5174
▁ತೆಗೆದುಕೊಳ್ಳುವ	-5175
RO	-5176
ki	-5177
ಸೈ	-5178
▁64	-5179
ವಂತರ	-5180
▁ರಾದ	-5181
▁ಸುಗ	-5182
▁WEEK	-5183
▁ದುರ್	-5184
▁ಪದ್ಧ	-5185
▁ಯೆರೆ	-5186
▁ಸೌಲನ	-5187
▁ವ್ಯಭಿ	-5188
ಕ್ಷಿಪ್ತ	-5189
ುತ್ತಿಗೆ	-5190
▁ಎಲ್ಇಡಿ	-5191
▁ಪ್ರಾಣವು	-5192
▁ಪ್ರದೇಶದಲ್ಲಿ	-5193
!!	-5194
car	-5195
▁sp	-5196
▁ಲೀ	-5197
ರೇಟ್	-5198
ಾದಿನ	-5199
▁Copy	-5200
▁ಇಸಾಕ	-5201
▁ಜನರೂ	-5202
▁ಬ್ರಿ	-5203
▁ಮೆನು	-5204
▁ಶಾಲೆ	-5205
ಿಯಾಂಗ್	-5206
▁ಧೈರ್ಯ	-5207
▁ಮೀಟರ್	-5208
ರೆಯನ್ನು	-5209
▁ಸಮೃದ್ಧ	-5210
▁ಇದ್ದಾನೆ	-5211
Ch	-5212
ifi	-5213
ಗತಿ	-5214
ಸಿದ	-5215
ಂಕಾಲ	-5216
ನೋಡಿ	-5217
ಲಿನ್	-5218
წერა	-5219
▁28,	-5220
ights	-5221
ಕುಮಾರ	-5222
ಳನ್ನು	-5223
▁ಟ್ರಿ	-5224
▁ಕಾಲ್ಬೆ	-5225
▁ಕ್ರಿಯೆ	-5226
▁ರೇಟಿಂಗ್	-5227
84	-5228
ವರೇ	-5229
ೀಯೋ	-5230
ೈದು	-5231
▁AC	-5232
EDIA	-5233
▁ಆಟದ	-5234
▁ರಿಯ	-5235
▁ಸಂಹ	-5236
▁ಸಿಬ್ಬ	-5237
▁ಹೃದಯದ	-5238
▁ಮಾಡಿದಾಗ	-5239
▁ಕಳುಹಿಸಿದ	-5240
▁ವಿಶ್ವಾಸಾರ್ಹ	-5241
▁ಕೆಟ್ಟದ್ದನ್ನು	-5242
1]	-5243
67	-5244
87	-5245
ವೀ	-5246
მო	-5247
ons	-5248
ಾನೋ	-5249
ಿರದ	-5250
▁an	-5251
ಗಟ್ಟ	-5252
ಲೀಸ್	-5253
ადმო	-5254
▁ಚೌಕ	-5255
▁ಬಾಯಿ	-5256
▁ಬ್ರೌ	-5257
▁ಸಂಕಟ	-5258
ಲಾಯಿತು	-5259
▁ಆಸ್ತಿ	-5260
▁ಬೆತ್ತ	-5261
▁ಮಾಲೀಕ	-5262
▁ವನ್ನೂ	-5263
▁ಸುಂದರ	-5264
▁გადმო	-5265
LYPEDIA	-5266
▁ಕಸ್ಟಮ್	-5267
▁ದಹನಬಲಿ	-5268
▁ವಸ್ತುಗಳ	-5269
▁ವಿಭಿನ್ನ	-5270
ಿಸಿದ್ದೇನೆ	-5271
▁ಕಂಡುಕೊಂಡ	-5272
▁ವ್ಯತ್ಯಾಸ	-5273
▁ತಿಂಗಳುಗಳು	-5274
▁ದಾವೀದನಿಗೆ	-5275
▁ಸಂಕ್ಷಿಪ್ತ	-5276
▁გადმოწერა	-5277
▁ಮಾರ್ಗದಲ್ಲಿ	-5278
▁WEEKLYPEDIA	-5279
▁ರಾತ್ರಿಯಲ್ಲಿ	-5280
UD	-5281
ಸವ	-5282
▁ಅವೆ	-5283
▁ವಂದ	-5284
▁ಬಿಸಿ	-5285
▁label	-5286
▁ಮೂರನೇ	-5287
▁ಮೇರೆಯ	-5288
ಲೆಯಲ್ಲಿ	-5289
▁ವಾಣಿಜ್ಯ	-5290
▁ಯುನೈಟೆಡ್	-5291
▁ವರುಷದಲ್ಲಿ	-5292
we	-5293
ಶೈ	-5294
ver	-5295
ಳಿನ	-5296
▁CO	-5297
▁ad	-5298
uang	-5299
ಿಯೋಜ	-5300
▁ಶಾಂ	-5301
ಟರ್ಸ್	-5302
ಿಸಬೇಕ	-5303
ಗಳೆಲ್ಲಾ	-5304
ರಿಸಿದನು	-5305
▁ಅದರಿಂದ	-5306
▁ಫ್ಯಾಬ್	-5307
▁ವದಿಲ್ಲ	-5308
▁October	-5309
▁ಮೂವತ್ತು	-5310
▁ತಿಳಿದುಕೊಳ್ಳ	-5311
MP	-5312
್ರಮ	-5313
▁1/	-5314
▁5,	-5315
▁Gr	-5316
raft	-5317
ಗ್ರಿ	-5318
▁3.0	-5319
▁ಎಮ್	-5320
▁ಕೇಳು	-5321
▁ಕಾವ್ಯ	-5322
▁ಮುಯ್ಯ	-5323
▁ಸ್ವೀಕ	-5324
▁ಸ್ಪರ್ಧ	-5325
▁ಕಣ್ಣುಗಳ	-5326
▁ತೋರಿಸುವ	-5327
▁ಹುಡುಕುವ	-5328
▁ವೋಲ್ಟೇಜ್	-5329
▁ಕೆಲಸವನ್ನು	-5330
82	-5331
ef	-5332
ಾಗೊ	-5333
ುವಾ	-5334
▁1.0	-5335
▁11,	-5336
▁OEM	-5337
▁ತ್ಯ	-5338
▁ಶೇಖ	-5339
▁ಹೈಡ	-5340
ಎಚ್ಪಿ	-5341
ಕ್ಷ್ಮ	-5342
ಹೋದರು	-5343
▁2009	-5344
▁ಇಕ್ಕ	-5345
▁ಎದ್ದ	-5346
▁ಕಾರ್ಖ	-5347
▁ಮೋವಾಬ	-5348
▁ಸಂವಹನ	-5349
ರ್ಯಾಂಡ್	-5350
▁ಉತ್ಸಾಹ	-5351
▁ತಿರಸ್ಕ	-5352
▁ವಾಸಿಸುವ	-5353
▁ಒಡಂಬಡಿಕೆಯ	-5354
▁]	-5355
-22	-5356
ays	-5357
ham	-5358
fish	-5359
▁ಬ್ಯ	-5360
ಾರ್ಟ್	-5361
eposit	-5362
ದರಲ್ಲಿ	-5363
▁ಬಹುಶಃ	-5364
▁ಕ್ಯಾಲೆ	-5365
▁ನಡೆಯುವ	-5366
▁ರಚಿಸಲು	-5367
▁ಯಾಜಕನಾದ	-5368
▁ಶಿಫಾರಸು	-5369
▁ಸಾಯಂಕಾಲ	-5370
ಾಗುವುದಿಲ್ಲ	-5371
ಯಲ್	-5372
ರಂಜ	-5373
್ರೋ	-5374
▁Ag	-5375
ಲಿಯಾ	-5376
ೋನನು	-5377
▁ಪೀಠ	-5378
▁ಬರಹ	-5379
▁ಲ್ಯ	-5380
▁ಅಭಿಷ	-5381
▁ಸ್ಕ್	-5382
▁ನಾಣ್ಯ	-5383
▁ನಿಂಗ್	-5384
ತ್ವವನ್ನು	-5385
▁ಯೌವನಸ್ಥ	-5386
▁ಪರಿಣಾಮಗಳು	-5387
MC	-5388
▁ಕಛ	-5389
▁110	-5390
▁ಆಣ್	-5391
▁ನೂರ	-5392
▁ಸೋಮ	-5393
ಲೆಂಡ್	-5394
▁ರಿಗೆ	-5395
ನ್ನಿರಿ	-5396
ುದಕ್ಕೆ	-5397
▁Phone	-5398
▁ಅವಲಂಬ	-5399
ವಿಲ್ಲದೆ	-5400
▁ಇದಕ್ಕೆ	-5401
▁ರೆಕ್ಕೆ	-5402
▁ಸಮುದಾಯ	-5403
▁ಸೆಲ್ಯು	-5404
▁ಪ್ರಕಾರವೇ	-5405
▁ಪ್ರತ್ಯಕ್ಷ	-5406
▁ಮಾಡುತ್ತೇನೆ	-5407
▁«	-5408
ಡೇಟ್	-5409
ತ್ತರ	-5410
ಶ್ವತ	-5411
▁0.5	-5412
▁ಚಿಂತ	-5413
▁ತಮಗೆ	-5414
▁ಫ್ರೀ	-5415
ಳಿಗ್ಗೆ	-5416
ವೆಂದರೆ	-5417
▁ಪಾಳೆಯ	-5418
▁ಬೆಳಕು	-5419
▁ಸಿಸ್ಟ	-5420
▁ಆಣ್ವಿಕ	-5421
▁ಕುಳಿತು	-5422
ಗೋಸ್ಕರವೂ	-5423
▁ಒಟ್ಟಾಗಿ	-5424
▁ಯಾಕೋಬನು	-5425
▁ಪ್ಯಾಕೇಜ್	-5426
oto	-5427
ನಗರ	-5428
▁ನಗ	-5429
ಕ್ಷೇ	-5430
▁csg	-5431
▁ಛಾಯ	-5432
ution	-5433
▁Comp	-5434
▁ಅಬ್ಷ	-5435
▁ಜಿಬಿ	-5436
▁ಬಂತು	-5437
ದಲ್ಲಿನ	-5438
▁ಸಂತಾನ	-5439
▁ಶಾಶ್ವತ	-5440
▁ಅಪವಿತ್ರ	-5441
▁ಸಂಶೋಧನೆ	-5442
▁ಕಸ್ಟಮೈಸ್	-5443
▁ಕ್ಯಾಮೆರಾ	-5444
▁ಒಪ್ಪಿಸಿಕೊ	-5445
▁ಫ್ಯಾಬ್ರಿಕ್	-5446
EL	-5447
sc	-5448
.12	-5449
ೀಯೇ	-5450
atus	-5451
▁ಸ್ಮ	-5452
ಪಿಎಸ್	-5453
▁ಆಡಲು	-5454
ವನಿಯೋಜ	-5455
▁ಕೇಬಲ್	-5456
▁ಪೂರೈಸ	-5457
▁ಇರಲಿಲ್ಲ	-5458
▁ಕೈಯನ್ನು	-5459
▁ಪತ್ರಿಕೆ	-5460
▁ಅವುಗಳಿಗೆ	-5461
▁ಕುಕೀಗಳನ್ನು	-5462
▁ಪ್ರಯತ್ನಿಸಿ	-5463
▁ವ್ಯವಸ್ಥಾಪಕ	-5464
▁Ex	-5465
▁ಆತ	-5466
▁250	-5467
▁USD	-5468
▁Web	-5469
▁ಅಡಗ	-5470
ರುಗಳು	-5471
▁ಕಾಡು	-5472
▁ತಜ್ಞ	-5473
▁ಮೂರ್	-5474
▁ನಂದರೆ	-5475
▁ಹಚ್ಚೆ	-5476
▁ಹಣ್ಣು	-5477
▁ಪ್ರತಿದ	-5478
▁ಬೆಳ್ಳಿಯ	-5479
▁ಸಂಸ್ಥೆಯ	-5480
▁ಹಿಜ್ಕೀಯ	-5481
▁ನಿರ್ವಹಿಸಲು	-5482
▁ಪರಿಣಾಮಕಾರಿ	-5483
▁ಫಿಲಿಷ್ಟಿಯರ	-5484
▁ಕಾರ್ಯಗಳನ್ನು	-5485
▁ವೆಬ್ಸೈಟ್ನಲ್ಲಿ	-5486
5,	-5487
ಜಕ	-5488
uit	-5489
ಕಲ್	-5490
ಕಾಟ	-5491
್ರೊ	-5492
▁ನೌ	-5493
ಅವರು	-5494
ಾಲರ್	-5495
▁ನಿವ	-5496
▁this	-5497
▁ನಿಜವಾಗಿ	-5498
▁ಬೆಳಿಗ್ಗೆ	-5499
ಗೊಳಿಸುತ್ತದೆ	-5500
▁ಚದ	-5501
▁16,	-5502
▁400	-5503
▁ಅಲೆ	-5504
▁ಆಪ್	-5505
▁ಚಂದ	-5506
▁ಮಳೆ	-5507
▁ಸಿಗ	-5508
▁ಮಾಸ್	-5509
▁ಏನಂದರೆ	-5510
▁ವರ್ಷಗಳು	-5511
▁ಕಾಲ್ಬೆರಳ	-5512
▁ಆಯ್ಕೆಯನ್ನು	-5513
TS	-5514
ds	-5515
enu	-5516
ಪಾತ	-5517
ರಣಾ	-5518
▁MY	-5519
▁he	-5520
ಪುಟ್	-5521
ಶಾಲಿ	-5522
▁24,	-5523
ville	-5524
ಪೀಡಿಯ	-5525
▁ಆಕೆಯ	-5526
▁ಸ್ವಿ	-5527
ಾಚಿತ್ರ	-5528
▁ಅಯ್ಯೋ	-5529
▁ಉಳಿಸಿ	-5530
▁ಕಟ್ಟಿ	-5531
▁ಪ್ರಬಲ	-5532
▁ಮರೆತು	-5533
▁ವೃದ್ಧ	-5534
▁ಹೋದರೆ	-5535
▁ಮಾಡಿರಿ	-5536
▁ಮುಂತಾದ	-5537
▁ಸ್ಥಿತಿ	-5538
▁ತಕ್ಕೊಂಡ	-5539
own	-5540
ಂಗಡ	-5541
ಕಾರಕ	-5542
ಥಮಿಕ	-5543
ಾರಣೆ	-5544
ಿಯರ್	-5545
▁(2)	-5546
▁22,	-5547
▁ಹೊಳ	-5548
ರಿಕೆಯ	-5549
ುತ್ತಿ	-5550
▁2008	-5551
▁ಧ್ವನ	-5552
▁ವಸತಿ	-5553
▁ಟ್ರ್ಯ	-5554
▁ಅಲ್ಲದೆ	-5555
▁ಮುಚ್ಚಿ	-5556
▁ಮುರಿದು	-5557
ಿಗೆಯಲ್ಲಿ	-5558
▁ಉಪಯುಕ್ತ	-5559
▁ಹಾಗಾದರೆ	-5560
▁ನಿನ್ನಲ್ಲಿ	-5561
▁ಸೊಲೊಮೋನನು	-5562
▁ಕಾಮೆಂಟ್ಗಳನ್ನು	-5563
da	-5564
ಬೀ	-5565
ಘ್ರ	-5566
▁ಇಡೀ	-5567
▁ಪಾನ	-5568
▁ಬಳಿ	-5569
▁ರೆಸ	-5570
▁ಅರಿಯ	-5571
▁ಶಾಂತ	-5572
▁ಸಂಗತಿ	-5573
▁ವಿಸ್ತರ	-5574
▁ಉತ್ಪಾದನಾ	-5575
▁ಪರಿಕರಗಳು	-5576
▁ಪ್ರಸ್ತಾಪ	-5577
▁ಕೊನೆಯಲ್ಲಿ	-5578
▁ಬಳಕೆದಾರರು	-5579
.05	-5580
ಡನ್	-5581
ಭರಣ	-5582
ಾಳಿ	-5583
▁ಗಂ	-5584
ಗಾರರ	-5585
ಿಸ್ಮ	-5586
▁ತೊಡ	-5587
▁ಅನ್ನ	-5588
▁ಎಂದೂ	-5589
▁ಹಲವು	-5590
ೆನೆಂದು	-5591
▁ತಾಯಿಯ	-5592
▁ಬೆಂಕಿ	-5593
▁ಸೇವೆಯ	-5594
▁ಅಪ್ಡೇಟ್	-5595
▁ಜನರಲ್ಲಿ	-5596
▁ಸ್ಟ್ರೀಟ್	-5597
ಿಸುವುದಿಲ್ಲ	-5598
▁ಪ್ರಕ್ರಿಯೆ	-5599
▁ಯುದ್ಧಕ್ಕೆ	-5600
Qu	-5601
-18	-5602
-19	-5603
eed	-5604
ಪುರ	-5605
▁6,	-5606
▁ಆಮ	-5607
\\\\	-5608
ಜೆನ್	-5609
ನಾಂಗ	-5610
▁ಗಾದ	-5611
▁ನಾಟಕ	-5612
▁ಕಿಂಗ್	-5613
▁ಮಟ್ಟದ	-5614
▁ಶೀಘ್ರ	-5615
▁ಶುಕ್ರ	-5616
ಮಾಡುತ್ತ	-5617
▁ಯಥಾರ್ಥ	-5618
▁ನಿಂಗ್ಬೋ	-5619
▁ಸೂಕ್ಷ್ಮ	-5620
ರೀ	-5621
AME	-5622
arg	-5623
ote	-5624
ತಾನ	-5625
ಾರನ	-5626
ವೆಂಬ	-5627
▁Sex	-5628
▁ಬಟ್	-5629
ವಾಬ್ದ	-5630
▁ಕಾಯಿ	-5631
▁ಕೇಡು	-5632
▁ತುತೂ	-5633
▁ನೀನೇ	-5634
▁ನೀವೇ	-5635
ಿಪ್ರಾಯ	-5636
▁ಮಾಡಿದೆ	-5637
▁ಗೌಪ್ಯತೆ	-5638
▁ಮಿಲಿಯನ್	-5639
▁ಪ್ರಾಥಮಿಕ	-5640
▁ಟೀ	-5641
...]	-5642
ಣಗಳು	-5643
ಫಾಲ್	-5644
▁1.5	-5645
▁ಅವರಿ	-5646
▁ಕಂತು	-5647
ವರನ್ನೂ	-5648
ರಿಸುವುದು	-5649
▁ಅವಶ್ಯಕತೆ	-5650
▁ಎಲ್ಲವನ್ನೂ	-5651
54	-5652
GO	-5653
hi	-5654
ತಿನ	-5655
ುವಿ	-5656
▁38	-5657
▁ಫಲಕ	-5658
.2019	-5659
ವಾದವು	-5660
್ರೇಮ್	-5661
▁ಕೋರ್	-5662
▁ಮರಣದ	-5663
▁ಆಯ್ಕೆಯ	-5664
▁ಕೂಡಿಸಿ	-5665
▁ಮಾರ್ಕೆ	-5666
▁ಮೂರನೆಯ	-5667
▁ಶೈಕ್ಷಣ	-5668
▁ಅಲ್ಲಿಗೆ	-5669
▁ಸ್ಕ್ರೀನ್	-5670
ಶೀಲ	-5671
▁ರೌ	-5672
▁ತೊಲ	-5673
▁ಮೀಸ	-5674
▁ಲಾಗಿ	-5675
▁ಹೊಣೆ	-5676
▁ಸ್ಟ್ಯ	-5677
▁ಸುಟ್ಟು	-5678
▁ಸ್ನೇಹಿ	-5679
ಮಾಡುವೆನು	-5680
ಿಕೊಳ್ಳಿರಿ	-5681
▁ಸ್ತ್ರೀಯು	-5682
▁ಮಾಡುವದಕ್ಕೆ	-5683
▁ಸಾಮರ್ಥ್ಯವನ್ನು	-5684
EC	-5685
TC	-5686
mer	-5687
ಒಎಸ್	-5688
ವಾಹಕ	-5689
▁600	-5690
▁ದೂತ	-5691
▁ಅಂದಾ	-5692
▁ಕೂದಲ	-5693
▁ಸಾಕು	-5694
▁ಸಿಂಹ	-5695
▁ಹಳ್ಳ	-5696
▁ಗುಡ್ಡ	-5697
▁ಇದನ್ನೂ	-5698
▁ಮಂದಿಯು	-5699
nlimited	-5700
▁ಆಯ್ಕೆಗಳನ್ನು	-5701
▁ಪ್ರತಿಕ್ರಿಯೆ	-5702
IP	-5703
ಚು	-5704
ara	-5705
ಟಿವ್	-5706
ತೆಯು	-5707
ವರಾದ	-5708
▁18,	-5709
▁ತಾಮ	-5710
▁ವಿಜ	-5711
▁ಸಂಕ	-5712
▁ಹೆದ	-5713
▁ಕೃಷಿ	-5714
▁ಜೀವದ	-5715
▁ಹೊರತ	-5716
ತೆಯಿಂದ	-5717
▁Video	-5718
▁ದೇಶವು	-5719
▁ದ್ವೀಪ	-5720
▁ಬಿತ್ತ	-5721
▁ವೃತ್ತ	-5722
▁ಕಾರ್ಪೊ	-5723
▁ಚಿಕಾಗೊ	-5724
▁ಜವಾಬ್ದ	-5725
▁ಪ್ರತಿಷ್ಠ	-5726
▁ಭೂಮಿಯಲ್ಲಿ	-5727
ೀಣ	-5728
▁44	-5729
▁le	-5730
ount	-5731
▁ಉಪಲ	-5732
▁ಒಳಗ	-5733
▁ಮಲ್	-5734
ಿಟ್ಟು	-5735
▁ಆಭರಣ	-5736
▁ಉಗ್ರ	-5737
▁ಬಿಗ್	-5738
▁ಮೋಶೆ	-5739
▁ಸಾಂಪ	-5740
▁ಹೋಮ್	-5741
ಿಸಿರುವ	-5742
▁ಸಂಚಾರ	-5743
ಪ್ತಿಸ್ಮ	-5744
▁ಮೈಕ್ರೋ	-5745
▁ಎದುರಾಗಿ	-5746
▁ಯೇಸುವಿನ	-5747
▁ವಿಷಯವನ್ನು	-5748
alk	-5749
uan	-5750
▁52	-5751
▁59	-5752
▁ಟೊ	-5753
▁ಅಪೊ	-5754
▁ಉಪಶ	-5755
▁ದಾರಿ	-5756
▁ನೆಬೂ	-5757
ಪ್ರಸಾರ	-5758
▁[...]	-5759
ವಾದದ್ದು	-5760
▁ಯೋಜನೆಯ	-5761
▁ಇಲ್ಲಿದೆ	-5762
▁ಇದನ್ನೂನೋಡಿ	-5763
93	-5764
ಗೇ	-5765
les	-5766
▁9,	-5767
▁et	-5768
ಸಂಖ್ಯ	-5769
▁ನಾಯಕ	-5770
▁ಎಷ್ಟೋ	-5771
▁ಮಧ್ಯಮ	-5772
▁ಯನ್ನೂ	-5773
ಬ್ದವಿದೆ	-5774
ಿಸುವಿಕೆ	-5775
▁ಕೇಳಿರಿ	-5776
▁Archives	-5777
▁ಸಹೋದರನಾದ	-5778
▁ಉಪಲಬ್ದವಿದೆ	-5779
▁ಕಂಡುಹಿಡಿಯಲು	-5780
ೀಟ	-5781
▁≤	-5782
ಮಸ್	-5783
ದಾಯಕ	-5784
▁2.0	-5785
ಪ್ತ್ಯ	-5786
▁ಕಲ್ಲ	-5787
▁ಪದವಿ	-5788
▁ಪ್ರೋ	-5789
▁ಉಂಟಾದ	-5790
▁ಪರಿಸ್ಥ	-5791
▁ಪೋರ್ಟ್	-5792
▁ಬಟ್ಲರ್	-5793
▁ಸಂದರ್ಶಕ	-5794
▁ಹುಡುಕಾಟ	-5795
▁ಕಂಪನಿಗಳು	-5796
▁ಶೈಕ್ಷಣಿಕ	-5797
▁ಸಿಬ್ಬಂದಿ	-5798
▁ಅರಣ್ಯದಲ್ಲಿ	-5799
▁ಪೂರ್ವನಿಯೋಜ	-5800
▁ಪುಸ್ತಕದಲ್ಲಿ	-5801
ID	-5802
ಆಗ	-5803
dit	-5804
ಲಾಮ	-5805
▁ರಹ	-5806
ping	-5807
▁ಬಸ್	-5808
ಕಾಲಿಕ	-5809
ಲ್ಲವೇ	-5810
ಾಗಿಯೇ	-5811
▁ಕೀಲಿ	-5812
▁ಸ್ಪೈ	-5813
▁Chang	-5814
▁ಒಮ್ಮೆ	-5815
ಿರಲಿಲ್ಲ	-5816
▁ಹಣಕಾಸು	-5817
▁ಸಹೋದರರೇ	-5818
▁ಸಾಂಪ್ರದಾಯ	-5819
PL	-5820
uss	-5821
ಷ್ಕ	-5822
ಾಡಿ	-5823
▁(0	-5824
▁ದನ	-5825
port	-5826
▁Air	-5827
ವರ್ಡ್	-5828
▁ನೋವು	-5829
▁ಯಾಗಿ	-5830
▁ಶೈಲಿ	-5831
▁ಡಾಲರ್	-5832
▁ಹೊತ್ತ	-5833
ದಲ್ಲಿದೆ	-5834
▁ಏನಾದರೂ	-5835
▁ಕೌಶಲ್ಯ	-5836
▁ಟ್ಯೂಬ್	-5837
ಕ್ರಿಪ್ಟ್	-5838
▁ಚಾರ್ಟರ್	-5839
▁ಪ್ರತಿನಿ	-5840
▁ಪ್ರತಿಫಲ	-5841
▁ನೇರಪ್ರಸಾರ	-5842
.01	-5843
▁ಸುಡ	-5844
▁ಸ್ಪಿ	-5845
▁ಹಿಂಸ	-5846
ಪಡಿಸಿದ	-5847
▁ಕೂಡಲೆ	-5848
▁ಧಾನ್ಯ	-5849
▁ಹಲ್ಲು	-5850
▁ಕ್ರೀಡೆ	-5851
▁ಮೂಲಭೂತ	-5852
▁ಎಂಜಿನಿಯ	-5853
▁ಪಾಯಿಂಟ್	-5854
▁ನನ್ನಲ್ಲಿ	-5855
ಿಸಿದ್ದರಿಂದ	-5856
▁ಅನುಭವವನ್ನು	-5857
cc	-5858
-16	-5859
345	-5860
ವಳು	-5861
▁GB	-5862
▁ವಶ	-5863
ದವರು	-5864
▁pcs	-5865
▁ಅಸ್	-5866
▁ಚಾವ	-5867
▁ನಡು	-5868
ಾರ್ಡ್	-5869
▁ತಂತಿ	-5870
▁ಮುಖದ	-5871
▁ಸ್ವೀ	-5872
▁ಹಡಗು	-5873
ಟ್ರಾನಿ	-5874
ಬೇಕೆಂದ	-5875
▁ನಾಲ್ಕ	-5876
▁ನೀಡಿದ	-5877
▁ಪೇಪರ್	-5878
▁ಮಾಡದೆ	-5879
▁ರಫ್ತು	-5880
▁ಸ್ಥಳದ	-5881
▁ಪೇತ್ರನು	-5882
ಲಾಗುತ್ತಿದೆ	-5883
ಚೆ	-5884
ಬೊ	-5885
ಿತರ	-5886
ೆಂಬ	-5887
▁47	-5888
▁ಶಪ	-5889
shop	-5890
ಆದರೆ	-5891
ಲಕ್ಷ	-5892
▁15,	-5893
ಲ್ಲವೋ	-5894
▁News	-5895
▁ಅತಿಥ	-5896
▁ನೆರಳ	-5897
▁ಸ್ಟೇ	-5898
ಫಾಲ್ಟ್	-5899
ಿಲ್ಲದೆ	-5900
▁ಯಾಕೋಬನ	-5901
▁ಮಾಡುವಾಗ	-5902
▁ಮುಖ್ಯವಾಗಿ	-5903
▁ಪರಿಸರವಿನ್ಯಾಸ	-5904
ಪೂ	-5905
300	-5906
den	-5907
▁8,	-5908
▁ಶ್	-5909
▁can	-5910
▁ಎದೋ	-5911
▁ಕಿರ	-5912
▁ಡೇವ	-5913
ರಿದ್ದ	-5914
▁ಹಳದಿ	-5915
▁State	-5916
▁ಕಟ್ಟು	-5917
▁ನಡೆದು	-5918
▁ಭಾಗವಹ	-5919
▁ಮಿಕ್ಕ	-5920
▁ಪರ್ಯಾಯ	-5921
ರಿಗಳನ್ನು	-5922
▁ಸ್ವತಂತ್ರ	-5923
▁ನಿಷ್ಕ್ರಿಯ	-5924
▁ಪಟ್ಟಣಕ್ಕೆ	-5925
▁ಪ್ರೋಗ್ರಾಂ	-5926
▁ಪ್ರತ್ಯುತ್ತರ	-5927
▁ವಸ್ತ್ರಗಳನ್ನು	-5928
ಬೈ	-5929
eal	-5930
ike	-5931
orld	-5932
▁080	-5933
▁ಪಿಇ	-5934
ravel	-5935
▁ಕಳ್ಳ	-5936
▁ಮಗುವ	-5937
▁ಹಾಟ್	-5938
ಕ್ಷನರಿ	-5939
▁ಯೋನಾತ	-5940
▁ಸೂಚನೆ	-5941
▁Mobile	-5942
▁ಅರಾಮ್ಯ	-5943
▁ಗಮನಿಸಿ	-5944
▁ಒದಗಿಸುವ	-5945
ರುವುದನ್ನು	-5946
-%	-5947
ೀಯನ	-5948
▁ನರ	-5949
cess	-5950
ರಣೆಯ	-5951
▁KDE	-5952
▁ನಾಮ	-5953
ಜನಾಂಗ	-5954
▁ಅಭ್ಯ	-5955
▁ಅಷ್ಟ	-5956
▁ಹೀಗಿ	-5957
▁Power	-5958
▁ಯೆರೆವಿ	-5959
▁ಇದರಲ್ಲಿ	-5960
▁ಒದಗಿಸಲು	-5961
▁ಕಡೆಯಿಂದ	-5962
▁ಐಗುಪ್ತ್ಯ	-5963
▁ತಕ್ಕೊಳ್ಳ	-5964
na	-5965
pcs	-5966
ಯಾವ	-5967
▁66	-5968
▁7,	-5969
▁ಫು	-5970
▁೨೦	-5971
)...	-5972
ಡ್ಜ್	-5973
▁ಪಿವ	-5974
ವಾಗಲಿ	-5975
▁ಬಾಗಲ	-5976
▁ಉಪನಗರ	-5977
▁ಹಾಕುವ	-5978
▁ಅಭಿಷೇಕ	-5979
▁ಫ್ರೇಮ್	-5980
▁ಬೆಟ್ಟದ	-5981
▁ಅಬ್ಷಾಲೋ	-5982
▁ಬನ್ನಿರಿ	-5983
▁ಯೋಜನೆಗಳು	-5984
▁ಬಾಪ್ತಿಸ್ಮ	-5985
▁ವಿಕಿಪೀಡಿಯ	-5986
▁ಹೋಗುತ್ತದೆ	-5987
ತೇ	-5988
ೋ	-5989
▁cl	-5990
ಲೋಕದ	-5991
▁125	-5992
▁12:	-5993
▁ಆಂತ	-5994
▁ಕಾಳ	-5995
▁ಕೀಲ	-5996
▁ಬಿಸ	-5997
▁ಮನೋ	-5998
ಮಾರ್ಗ	-5999
▁ಇಡುವ	-6000
▁ಏಸಾವ	-6001
▁ಕಚ್ಚ	-6002
▁ಥೀಮ್	-6003
▁ಶೀಟ್	-6004
▁ಸಂಕೇ	-6005
▁ಸುಗಂಧ	-6006
ಗೊಳಿಸಿದ	-6007
▁ಆಧಾರಿತ	-6008
ಿದ್ದಲ್ಲಿ	-6009
▁ಮುಖಾಂತರ	-6010
▁ವಿಮರ್ಶೆ	-6011
▁ಮಾಡುತ್ತಾರೆ	-6012
ಟೇ	-6013
ಥೆ	-6014
ಸನ	-6015
▁5.	-6016
▁ab	-6017
▁ಶತ	-6018
ence	-6019
ಕ್ಯು	-6020
ರಾನ್	-6021
ೃತ್ಯ	-6022
▁ಕ್ಕ	-6023
▁ಮಾತಾ	-6024
▁ವೆನು	-6025
▁Polit	-6026
▁ಬಂದಿದೆ	-6027
▁ಯೆಹೋಶುವನು	-6028
▁ಪ್ರತಿಯೊಬ್ಬನು	-6029
▁ಪ್ರತಿಕ್ರಿಯೆಗಳು	-6030
pm	-6031
ಜೀವ	-6032
ಲುಗಳ	-6033
ುದಾರ	-6034
▁21,	-6035
▁25,	-6036
▁720	-6037
▁For	-6038
▁ಪ್ಯ	-6039
▁ಫ್ಲ	-6040
-2015	-6041
ಪೂರ್ವ	-6042
▁ಆಶ್ರ	-6043
▁ಮದುವೆ	-6044
▁ಯುಗಯು	-6045
▁ಹವ್ಯಾ	-6046
ವಾಗುವದು	-6047
▁ಡಿಸ್ಕ್	-6048
ಾಗಿರಬೇಕು	-6049
▁ದತ್ತಾಂಶ	-6050
▁ಯಾರೊಬ್ಬ	-6051
▁ಸೆರೆಮನೆ	-6052
▁ಮಾಡುತ್ತಾನೆ	-6053
-17	-6054
ere	-6055
hed	-6056
ous	-6057
ೂಲ್	-6058
▁10:	-6059
▁all	-6060
ನಂದಿನ	-6061
▁ಸೇವಾ	-6062
ಾಯಿಗಳು	-6063
▁ಕೊಂಬು	-6064
▁ರಹಸ್ಯ	-6065
▁ಸಂಕೇತ	-6066
▁ಸಹಕಾರ	-6067
▁ಯಾವುದೆ	-6068
▁ಸೋಮವಾರ	-6069
▁ಪ್ರೀತಿಯ	-6070
▁ಕೊಡುವೆನು	-6071
▁ಬಳಕೆದಾರರ	-6072
▁ವೀಡಿಯೊಗಳು	-6073
px	-6074
ಘೈ	-6075
ಶೆ	-6076
ಸೊ	-6077
▁ತೇ	-6078
rypt	-6079
ತಿಗಳ	-6080
ಹಬ್ಬ	-6081
ಾರಣಾ	-6082
▁ಕಂಟ	-6083
ತ್ಕಾರ	-6084
▁ಆದ್ಯ	-6085
ಿಸಲ್ಪಡ	-6086
▁ಒಬ್ಬರ	-6087
▁ವಾದ್ಯ	-6088
▁ಸಮಗ್ರ	-6089
▁ಹೂಡಿಕೆ	-6090
ದಲ್ಲಿದ್ದ	-6091
▁ದೈನಂದಿನ	-6092
▁ಮಾಸ್ಟರ್	-6093
▁ಶಿಷ್ಯರು	-6094
▁ಸಂಬಂಧಿತ	-6095
▁ಕ್ರಿಸ್ತನು	-6096
▁ಸಾಂಪ್ರದಾಯಿಕ	-6097
▁ಬದಲಾಯಿಸಲಾಗಿದೆ	-6098
PM	-6099
ba	-6100
ಬ್ಯ	-6101
ames	-6102
ಲೇಟ್	-6103
▁Pre	-6104
▁ತಂಪ	-6105
Query	-6106
▁ಅನನ್ಯ	-6107
▁ಕಂಡುಬ	-6108
▁ಕತ್ತಿ	-6109
▁ಸಹಾಯಕ	-6110
ರೆಲ್ಲರು	-6111
▁ಭದ್ರತಾ	-6112
▁ಮಾಡಲಾದ	-6113
iversity	-6114
▁ನಕ್ಷತ್ರ	-6115
▁ಸದಸ್ಯರು	-6116
▁ಮಾರ್ಕೆಟಿಂಗ್	-6117
ಥಮ	-6118
▁99	-6119
▁res	-6120
▁ಅಮಾ	-6121
isode	-6122
್ರೆಡ್	-6123
▁86-5	-6124
▁name	-6125
▁ಕ್ಷಣ	-6126
▁ಶುಲ್ಕ	-6127
▁ಸುಮ್ಮ	-6128
ಡಿಯನ್ನು	-6129
ಿಸಿದೆನು	-6130
▁ತಯಾರಿಸ	-6131
▁ಪಡೆದನು	-6132
▁ಅಭಿಪ್ರಾಯ	-6133
▁ನಾಲ್ವತ್ತು	-6134
▁ನೆಟ್ವರ್ಕ್	-6135
▁ಮನುಷ್ಯನಿಗೆ	-6136
yg	-6137
ING	-6138
rop	-6139
ರಾಜ	-6140
▁Be	-6141
▁ಸೃ	-6142
ages	-6143
ಪಿಡಿ	-6144
▁14,	-6145
▁800	-6146
▁ಇರು	-6147
▁ಖಾತ	-6148
▁ತಲಾ	-6149
▁ಬಲಾ	-6150
▁ಹವಾ	-6151
=\\\\	-6152
▁ಅನಿಯ	-6153
▁ಪಾಪದ	-6154
▁ಆಶ್ರಯ	-6155
ational	-6156
▁ಆಂತರಿಕ	-6157
▁ತೀರ್ಪು	-6158
▁ತೃಪ್ತಿ	-6159
▁ಫಾರ್ಮ್	-6160
▁ಬ್ಯಾಕ್	-6161
▁ಸೇವಕನು	-6162
ರಿಸುವೆನು	-6163
▁ಕುಮಾರರೂ	-6164
▁ಯೋಸೇಫನು	-6165
▁ಇರುವದಿಲ್ಲ	-6166
▁ಮಕ್ಕಳಲ್ಲಿ	-6167
▁ಯೂನಿವರ್ಸ್	-6168
▁ಒಡಂಬಡಿಕೆಯನ್ನು	-6169
53	-6170
ರಸ್	-6171
▁Ca	-6172
ಫೈಲ್	-6173
ೀಯನು	-6174
▁URL	-6175
▁per	-6176
▁ಕೋಶ	-6177
▁ಆಸ್ಟ	-6178
▁ಉಷ್ಣ	-6179
▁ಬ್ಲೂ	-6180
▁ಎಚ್ಡಿ	-6181
▁ಐಒಎಸ್	-6182
▁ಗ್ಯಾಲ	-6183
▁ಬಣ್ಣದ	-6184
▁ವಾಗ್ದ	-6185
ನ್ನಲ್ಲಿ	-6186
▁ದಿವಸಗಳ	-6187
▁ಸ್ತ್ರೀ	-6188
▁ಒಟ್ಟಿಗೆ	-6189
▁ತಿಳಿಯಲು	-6190
▁ಮತ್ತೊಬ್ಬ	-6191
▁ಖಂಡಿತವಾಗಿ	-6192
▁ಪ್ರಾಂತ್ಯದ	-6193
▁ಪ್ರಮಾಣವನ್ನು	-6194
▁ಹಂಚಿಕೊಳ್ಳಲು	-6195
PY	-6196
ij	-6197
ಾಫ	-6198
-25	-6199
ರಲ್	-6200
ವ್ವ	-6201
ಸರು	-6202
ೆಟ್	-6203
ware	-6204
ewhan	-6205
ಪಡಿಸು	-6206
ಪುತ್ರ	-6207
ಮತ್ತು	-6208
▁ಅಂತಹ	-6209
▁ಚೆಕ್	-6210
▁ಪರಸ್	-6211
▁ಮಹಡಿ	-6212
▁ಆಮೆನ್	-6213
▁ಕೆಡವಿ	-6214
▁ಹೊಡೆದ	-6215
▁ಉದ್ಯಾನ	-6216
▁Deposit	-6217
▁ಯೆಹೋಶುವ	-6218
▁ಕರ್ತನಲ್ಲಿ	-6219
▁ಹಿಂತಿರುಗಿ	-6220
▁ಸೆಲ್ಯುಲೈಟ್	-6221
▁ತಿರುಗಿಕೊಂಡು	-6222
.02	-6223
ung	-6224
ಟಿಯ	-6225
▁ap	-6226
ಲೋನ್	-6227
▁rec	-6228
▁ಕೊರ	-6229
ಮೂಲ್ಯ	-6230
▁ಅಗ್ಗ	-6231
▁ಆಯುಧ	-6232
▁ಸೈನ್	-6233
ವಾದದ್ದ	-6234
▁Short	-6235
▁ಚಿತ್ತ	-6236
▁ಭರವಸೆ	-6237
▁ಅರಸುಗಳ	-6238
▁ಚಿನ್ನದ	-6239
▁ಬದಲಿಗೆ	-6240
▁ಅನಿಯಮಿತ	-6241
▁ಇದ್ದಾರೆ	-6242
▁ಇರಬಹುದು	-6243
▁ಮಾಡುವನು	-6244
▁ಯಂತ್ರಗಳು	-6245
▁ಪ್ಯಾಕಿಂಗ್	-6246
▁ವರ್ಡ್ಪ್ರೆಸ್	-6247
NG	-6248
to	-6249
tr	-6250
ಡೇ	-6251
▁ಋ	-6252
ಂಜೆ	-6253
▁ಒಣಗ	-6254
ಸ್ಥಿಕ	-6255
▁ಪುನಃ	-6256
▁ಯುಪಿ	-6257
▁ಹಲಗೆ	-6258
▁ಎಣ್ಣೆ	-6259
▁ಕಛೇರಿ	-6260
▁ಜಗತ್ತ	-6261
▁ಕಲ್ಲಿನ	-6262
▁ಬಾಗಲಿನ	-6263
▁ಭೂಮಿಯು	-6264
▁ಸುಧಾರಣೆ	-6265
ಗಳಲ್ಲಿರುವ	-6266
▁ಕೈಗಳನ್ನು	-6267
▁ವಸ್ತುಗಳನ್ನು	-6268
▁ಕಾರ್ಯಕ್ರಮಗಳು	-6269
UM	-6270
ui	-6271
ಟೀ	-6272
yst	-6273
ಂಜ್	-6274
ಪಾದ	-6275
ೂಟ್	-6276
▁We	-6277
▁pr	-6278
line	-6279
over	-6280
ರಿಸ್	-6281
ಸೆಲ್	-6282
ಿಯರು	-6283
▁ಕೂಗಿ	-6284
ರಿನಿಂದ	-6285
▁ಪ್ರಭು	-6286
▁ಮೊತ್ತ	-6287
hamster	-6288
▁ಅನ್ಯಜನ	-6289
▁ಆಧುನಿಕ	-6290
▁ಕಡಿಮೆಯ	-6291
▁ಒಂದಾಗಿದೆ	-6292
▁ಪರಿಶೀಲಿಸಿ	-6293
▁ನಮ್ಮೊಂದಿಗೆ	-6294
ಿಸಲಾಗುತ್ತಿದೆ	-6295
ಹಕ	-6296
ets	-6297
▁65	-6298
▁Op	-6299
ance	-6300
ions	-6301
ಂಡಲ್	-6302
ತೀರ್	-6303
ವನ್ನ	-6304
ಾನಿನ	-6305
▁AUD	-6306
▁ಚಾಚ	-6307
inter	-6308
ಯಿಂಗ್	-6309
▁ರೀತಿ	-6310
▁ವಿಾಕ	-6311
ervice	-6312
ಕರ್ತನೇ	-6313
ಟ್ರಿಕ್	-6314
▁ಉಳಿಸು	-6315
▁ಕಾಣುವ	-6316
ಾಗಬಹುದು	-6317
ಿಗಳನ್ನು	-6318
▁ಅಧಿವೇಶ	-6319
▁ಅಮೂಲ್ಯ	-6320
▁ಪಿವಿಸಿ	-6321
▁ಬೋರ್ಡ್	-6322
▁ಲ್ಪಟ್ಟ	-6323
ಲಿನಾಯ್ಸ್	-6324
▁ಒಂದೊಂದು	-6325
▁ಮನಸ್ಸೆಯ	-6326
▁ಹೀಗಿರುವ	-6327
▁ಸಾಂಸ್ಥಿಕ	-6328
▁ಎಲೆಕ್ಟ್ರಾನಿ	-6329
ಲಸ	-6330
1.0	-6331
eek	-6332
top	-6333
ಡಾದ	-6334
ತಾವ	-6335
▁27,	-6336
▁ಆಕೆ	-6337
▁ಹಾರ	-6338
ified	-6339
▁Suen	-6340
▁ಫ್ರೆ	-6341
▁ವಾಚ್	-6342
▁ಉಲ್ಲಾ	-6343
▁ವ್ಯಾಸ	-6344
▁ಅರ್ಪಣೆ	-6345
▁ಆಲೋಚನೆ	-6346
▁ಪರಸ್ಪರ	-6347
▁ಅಧ್ಯಕ್ಷ	-6348
▁ಪ್ರತಿದಿನ	-6349
▁ವಿಕ್ಷನರಿ	-6350
▁ಸಹಾಯವಾಣಿ	-6351
▁ಮಾಡಿದ್ದಾನೆ	-6352
▁ಮಾಡುತ್ತೇವೆ	-6353
▁ಸೇವೆಗಳನ್ನು	-6354
yn	-6355
ipe	-6356
oot	-6357
▁ro	-6358
▁[1]	-6359
ದಾದರೆ	-6360
ಳಿಗೆಯ	-6361
▁ಕಪ್ಪ	-6362
▁ಕೊಲೆ	-6363
▁ಬಿಡಿ	-6364
▁ಶಿಲು	-6365
▁ಕೋಪವು	-6366
▁ಟೆಂಪ್	-6367
▁ಸಮರ್ಥ	-6368
ಿಸಬಾರದು	-6369
▁Tewhan	-6370
▁ನಡುವಿನ	-6371
▁ಹೆಚ್ಚಳ	-6372
▁ಕೇಳಿದರು	-6373
▁ಜಿಲ್ಲೆಯ	-6374
▁ಹೆಸರುಗಳು	-6375
▁ಭೂಮಿಯನ್ನು	-6376
▁ಉಪಶೀರ್ಷಿಕೆ	-6377
▁ಹೊರತುಪಡಿಸಿ	-6378
43	-6379
ane	-6380
ಇದು	-6381
▁2:	-6382
▁CN	-6383
▁ಝೆ	-6384
▁ಮಂ	-6385
▁30,	-6386
▁USP	-6387
▁web	-6388
▁ಅಂಥ	-6389
▁ಕುಸ	-6390
ುವವನು	-6391
▁ಇದಾದ	-6392
▁ಎಪ್ಪ	-6393
▁ಔಷಧಿ	-6394
▁ಎಲುಬು	-6395
▁ಸೋಂಕು	-6396
ರಿಸಿದರು	-6397
ಲಿಲ್ಲವೋ	-6398
▁ಅನೇಕರು	-6399
▁ದ್ದಾನೆ	-6400
▁ಲ್ಲಿಯೂ	-6401
▁ವಿಷಯಗಳು	-6402
▁ಸಿಸ್ಟಮ್	-6403
▁ಇಲಿನಾಯ್ಸ್	-6404
▁ಪಟ್ಟಣವನ್ನು	-6405
GH	-6406
be	-6407
ಹೀ	-6408
day	-6409
fin	-6410
ೂರದ	-6411
ಶೈಲಿ	-6412
ಾಯಾಮ	-6413
▁ಅಗ್	-6414
▁ಮೇಯ	-6415
▁csgo	-6416
▁item	-6417
▁ಅಂಕಿ	-6418
▁ಅರ್ಹ	-6419
▁ಉರಿಯ	-6420
▁ಟೌನ್	-6421
▁ಫರಿಸ	-6422
▁ಭಾಷಾ	-6423
▁ಮಿಲ್	-6424
▁ಹಿಡು	-6425
▁ಹೊಗಳ	-6426
ರಿಯಾಗಿ	-6427
▁ಇದ್ದು	-6428
▁ದೃಶ್ಯ	-6429
▁ಹೋಯಿತು	-6430
▁ಕೇಡನ್ನು	-6431
▁ಕೊಡಬೇಕು	-6432
▁ಡೇಟಿಂಗ್	-6433
▁ದಿನಕ್ಕೆ	-6434
ವಾಗಿರುವದು	-6435
▁ಮುಂದುವರೆ	-6436
▁ಮನುಷ್ಯನನ್ನು	-6437
BUR	-6438
osh	-6439
▁II	-6440
duct	-6441
▁ಆಣೆ	-6442
▁ಶಿವ	-6443
▁ಹರಿ	-6444
▁Cong	-6445
▁ಅಳತೆ	-6446
▁ಕಾನ್	-6447
▁ಬೇಬಿ	-6448
▁ಮೈಸೂ	-6449
▁ಶಿಶು	-6450
ಸಾಫ್ಟ್	-6451
▁ನಿರಾಕ	-6452
▁ಶಾಂಘೈ	-6453
▁ತುಂಬಿದ	-6454
▁ದೇವರಿಂದ	-6455
▁ನಮೂದಿಸಿ	-6456
▁ನಿವಾರಣಾ	-6457
▁ಸಂಯೋಜನೆ	-6458
▁ಎಕ್ಸ್ಎಲ್	-6459
▁ಸಂಸ್ಕೃತಿ	-6460
▁Blockchain	-6461
83	-6462
▁bl	-6463
▁ಅಜ	-6464
izer	-6465
ಡ್ಡೆ	-6466
ೀರ್ಣ	-6467
▁Red	-6468
▁ಬಿಳ	-6469
▁ರೋಷ	-6470
ಾಕ್ಸಿ	-6471
▁Full	-6472
▁ಎಂಟು	-6473
▁ಓದುವ	-6474
ಕೊಂಡನು	-6475
ರಿಗಿಂತ	-6476
▁ಡಿಸ್ಕ	-6477
▁ಬಳಿಗೂ	-6478
▁ವಿಧೇಯ	-6479
▁ಶ್ರೀಮ	-6480
▁ಪೋರ್ನ್	-6481
▁Xhamster	-6482
▁ಕಾರಣದಿಂದ	-6483
▁ಸಂಶೋಧಕರು	-6484
▁ಕಾರ್ಯಾಚರಣೆ	-6485
▁ಮಾಧ್ಯಮವನ್ನು	-6486
ಗೂಡ	-6487
ಲಾಯ	-6488
ಿಯರ	-6489
ವೇನು	-6490
ೆಯುವ	-6491
▁Inst	-6492
▁ಅತ್ತ	-6493
▁ಒಯ್ಯ	-6494
▁ನೆನಪ	-6495
▁ಹೆಂಗ	-6496
ನದಲ್ಲಿ	-6497
ಮ್ಯಾಪ್	-6498
▁ಪಕ್ಷಿ	-6499
▁ಮೆಟಲ್	-6500
▁ಅಲಂಕಾರ	-6501
▁ಏಕಾಂಗಿ	-6502
▁ಸ್ಟ್ಯಾ	-6503
▁ವೇಗವಾಗಿ	-6504
▁ಕರೆಕ್ಷನ್	-6505
▁ವರ್ಗದಲ್ಲಿ	-6506
▁ಪ್ರತ್ಯೇಕವಾಗಿ	-6507
57	-6508
CC	-6509
ಸಾದ	-6510
ಸೂಚ	-6511
▁39	-6512
▁ph	-6513
aros	-6514
ಖ್ಯಾ	-6515
ಳ್ಳು	-6516
ಾನಲ್	-6517
▁23,	-6518
ನುಸಾರ	-6519
▁mass	-6520
▁ಇಚ್ಛ	-6521
▁ಎಂಎಂ	-6522
▁ವಿರೋಧಿ	-6523
▁ಸೇವಕರು	-6524
▁ಕೊಟ್ಟರು	-6525
▁ವ್ಯಭಿಚಾರ	-6526
▁ಸಮಸ್ಯೆಯನ್ನು	-6527
600	-6528
The	-6529
ಿಡ್	-6530
9.00	-6531
ಕೆಟ್	-6532
ಟೆಕ್	-6533
▁ದರು	-6534
▁ರಾಯ	-6535
▁ಸೆಂ	-6536
▁ಪಾಲ್	-6537
ಬಿಟ್ಟು	-6538
▁India	-6539
▁ಆಯಿತು	-6540
▁ತೆರೆದ	-6541
ಿರಬಹುದು	-6542
▁ಆಸಕ್ತಿ	-6543
▁ಪ್ರಯಾಸ	-6544
▁ರೆಕಾರ್	-6545
▁ಕೈಕೊಳ್ಳ	-6546
▁ನ್ಯಾಯತೀರ್	-6547
▁ಪ್ರವಾದಿಯಾದ	-6548
▁ಸಮ್ಮುಖದಲ್ಲಿ	-6549
.20	-6550
ava	-6551
emy	-6552
pro	-6553
ಚುವ	-6554
▁{@	-6555
ಂಭೀರ	-6556
ನೂರು	-6557
ಾಜ್ಯ	-6558
ಾಸಾಯ	-6559
ೊಡನೆ	-6560
▁+91	-6561
▁ಅಮೋ	-6562
▁ಅಲ್ಪ	-6563
▁ಪಡುವ	-6564
▁ಬಗೆಯ	-6565
▁ಸ್ಕೈ	-6566
ಲ್ಲಿದೆ	-6567
▁ಟ್ಯಾಟ	-6568
▁ರದ್ದು	-6569
ಜಿಯಾಂಗ್	-6570
ಾಸಾಯನಿಕ	-6571
▁ಅಪೊಸ್ತ	-6572
▁ದುಷ್ಟರ	-6573
▁ವ್ಯಕ್ತ	-6574
▁ಪರಿಚಾರಕ	-6575
▁ರಾತ್ರಿಯ	-6576
▁ಶಾಸ್ತ್ರ	-6577
ಮಾಡಿಕೊಳ್ಳ	-6578
ಮಾಡುವದಕ್ಕೆ	-6579
42	-6580
QL	-6581
TJ	-6582
fl	-6583
sl	-6584
ಮದ	-6585
-30	-6586
ಯಾಕ	-6587
ಾಲಾ	-6588
▁49	-6589
▁ಟು	-6590
come	-6591
ಅವನು	-6592
್ಯಾಸ	-6593
▁{@}	-6594
▁ಇಳು	-6595
▁ನದಿ	-6596
ransp	-6597
ವರಿಂದ	-6598
ಹೋದನು	-6599
▁ಕೆರೂ	-6600
▁ಕೈದು	-6601
▁ನಗದು	-6602
▁ಪಕ್ಕ	-6603
carcer	-6604
▁ಗಂಭೀರ	-6605
▁ತಯಾರಕ	-6606
▁ಪ್ರಥಮ	-6607
ಲಾಗಿಲ್ಲ	-6608
▁ತಂದೆಗಳ	-6609
▁ಯಾಜಕರು	-6610
▁ಫ್ಯಾಷನ್	-6611
▁ನಿಯಂತ್ರಕ	-6612
▁ಬ್ರ್ಯಾಂಡ್	-6613
▁Stateville	-6614
▁ಕಾರ್ಪೊರೇಟ್	-6615
▁ರೊಟ್ಟಿಯನ್ನು	-6616
▁94	-6617
▁AP	-6618
wise	-6619
ಹಾಕಿ	-6620
ೋನ್ಯ	-6621
color	-6622
ದಿರಲಿ	-6623
▁ಮುಂಜ	-6624
▁ಶೆಕೆ	-6625
▁ಶೇಕೆ	-6626
▁ಯೇಲಿನ	-6627
▁ಹಾಕಿದ	-6628
▁ಅಂತರ್ಜ	-6629
▁ಮೊದಲನೇ	-6630
▁ವ್ಯಾಪಕ	-6631
▁ಫಿಲ್ಟರ್	-6632
ಿಸುವದಕ್ಕೂ	-6633
▁ಕಾಣಬಹುದು	-6634
▁ಜ್ಞಾನವನ್ನು	-6635
▁46	-6636
EWIS	-6637
▁(2,	-6638
▁Fly	-6639
▁ಅಹಾ	-6640
▁ಬಾಣ	-6641
ಕೊರತೆ	-6642
ಮಾಡಲು	-6643
▁2005	-6644
▁ವೈಟ್	-6645
ಧಿಕಾರಿ	-6646
ವೊಮ್ಮೆ	-6647
▁ರೀಡರ್	-6648
ಿಕೊಂಡನು	-6649
▁ಅಂದಾಜು	-6650
▁ಅನ್ಯಾಯ	-6651
▁ಜೆರ್ಸಿ	-6652
▁ಹುಟ್ಟು	-6653
▁Congress	-6654
▁ಪ್ರತಿರೋಧ	-6655
carceration	-6656
▁ಸಂದರ್ಭಗಳಲ್ಲಿ	-6657
ಇಸ	-6658
ಟದ	-6659
ODS	-6660
ble	-6661
ify	-6662
med	-6663
ory	-6664
ಮರ್	-6665
▁ಓದ	-6666
▁ಕಪ	-6667
BURG	-6668
▁BLO	-6669
▁ಮರಿಯ	-6670
▁ಸಂಸ್	-6671
▁ಅಕ್ಕಿ	-6672
▁ಇಲಾಖೆ	-6673
▁ಕುಂದು	-6674
▁ಖಾತರಿ	-6675
▁ವಾರಗಳ	-6676
▁ವಿಶಾಲ	-6677
ಮಾಡಬೇಕು	-6678
▁status	-6679
▁ಗಿಟಾರ್	-6680
▁ಚಿತ್ರದ	-6681
▁ಪಿಎಚ್ಪಿ	-6682
▁ಶತ್ರುಗಳ	-6683
▁ರಾಸಾಯನಿಕ	-6684
▁Unlimited	-6685
▁ಪರಿಣಾಮಕಾರಿಯ	-6686
▁ಮೇಲ್ವಿಚಾರಣೆ	-6687
cM	-6688
ept	-6689
ಇನ್	-6690
ಪತಿ	-6691
▁(7	-6692
ಟ್ಟೆ	-6693
ನಿಯಾ	-6694
ಾಚಾರ	-6695
ೀಕೃತ	-6696
ರಬೇಕು	-6697
▁Word	-6698
▁ಕಂಪನ	-6699
▁ರೂಬೇ	-6700
▁ವಾಯು	-6701
▁LEWIS	-6702
▁ಕುಸಿತ	-6703
▁ಅವರಿಂದ	-6704
▁ವೈಲ್ಡ್	-6705
▁ಹವಾಮಾನ	-6706
▁ಹಾಗಾಗಿ	-6707
▁Download	-6708
▁ಅನುಕೂಲಕರ	-6709
▁ಗ್ರಂಥಾಲಯ	-6710
▁ಮಹಿಳೆಯರು	-6711
▁LEWISBURG	-6712
▁ತಿಳಿದುಕೊಳ್ಳುವ	-6713
",	-6714
69	-6715
TR	-6716
ಡವೆ	-6717
ಾಸಿ	-6718
▁54	-6719
ucus	-6720
ಗ್ಗು	-6721
▁Res	-6722
▁ಘೋಷ	-6723
▁ಶುಭ	-6724
ನಿಂಗ್	-6725
▁ಡಬಲ್	-6726
▁ಬಾಸ್	-6727
▁ವಿಮೆ	-6728
▁ಉಪವಾಸ	-6729
▁ಎತ್ತಿ	-6730
▁ಎಸ್ಎಂಯು	-6731
▁ಕಡತವನ್ನು	-6732
▁ಮಾಡಬಾರದು	-6733
▁ಯಾಂತ್ರಿಕ	-6734
ುತ್ತಿದ್ದರು	-6735
▁ಪತ್ತೆಕಾರಕ	-6736
incarceration	-6737
▁Congressional	-6738
-13	-6739
ype	-6740
ical	-6741
ಚ್ಚಿ	-6742
ನಿಕ್	-6743
ವರ್ಗ	-6744
ವಿಡಿ	-6745
▁ಚದರ	-6746
▁ಧ್ಯ	-6747
▁ಸ್ಫ	-6748
▁ಚಾಲಕ	-6749
▁ನಿಖರ	-6750
ternet	-6751
ುವಾಂಗ್	-6752
▁ಲುಕಪ್	-6753
ಣೆಯಲ್ಲಿ	-6754
▁BLOODS	-6755
▁inmate	-6756
▁ಇಂಗ್ಲೀ	-6757
▁ಗಾತ್ರದ	-6758
▁ತ್ತೇನೆ	-6759
▁ವರ್ಗಾಯ	-6760
▁ಹೈಡ್ರಾ	-6761
ಲ್ಲೆಲ್ಲಾ	-6762
▁Playing	-6763
▁ಇಕ್ಕಟ್ಟ	-6764
▁ಎಚ್ಚರಿಕ	-6765
▁ನನ್ನಿಂದ	-6766
▁ವ್ಯಾಜ್ಯ	-6767
▁ವ್ಯಾಯಾಮ	-6768
ವನ್ನೆಲ್ಲಾ	-6769
ಿಸುತ್ತಿದೆ	-6770
▁Politics	-6771
▁ಅನುಸರಿಸಿ	-6772
▁ಕುಂದುಕೊರತೆ	-6773
▁ಗ್ಯಾಂಗ್ಸ್ಟ	-6774
anu	-6775
con	-6776
ಾಮು	-6777
▁ರಜ	-6778
▁Get	-6779
▁ಕಂಬ	-6780
▁ಲಂಬ	-6781
▁ಕಳವಳ	-6782
▁ಸೆಕೆ	-6783
▁Again	-6784
▁ದೆವ್ವ	-6785
ಮಾಡಿದರು	-6786
ರಾಗಿರುವ	-6787
▁ವಿದೇಶೀ	-6788
ಿರುತ್ತದೆ	-6789
ಿಸಲಾಗಿಲ್ಲ	-6790
▁ದೇಶಗಳಲ್ಲಿ	-6791
▁ಆಜ್ಞೆಗಳನ್ನು	-6792
▁ವಿರುದ್ಧವಾಗಿ	-6793
▁ಹೊಂದಿರುತ್ತದೆ	-6794
lU	-6795
ಗಟು	-6796
ವಾಡ	-6797
ಸಂಗ	-6798
TJcM	-6799
ream	-6800
ವಿಕಂ	-6801
▁220	-6802
▁Met	-6803
▁ಅಂಜ	-6804
▁ಮಗನ	-6805
▁ಮೌನ	-6806
ದಲ್ಲೇ	-6807
ರೆಂಟ್	-6808
ಲೇಟರ್	-6809
▁Last	-6810
▁Porn	-6811
▁ಕನಿಕ	-6812
▁ಶಾಸ್	-6813
TJcMlU	-6814
ಡುತ್ತಾ	-6815
ಬೇಕೆಂಬ	-6816
▁Watch	-6817
▁ಏಷ್ಯಾ	-6818
▁ಸಂಪುಟ	-6819
ಿಸಿದ್ದೀ	-6820
▁Caucus	-6821
diTJcMlU	-6822
ವರಾಗಿದ್ದ	-6823
▁ಅಮೇರಿಕಾ	-6824
▁ಆಸ್ಟ್ರೇ	-6825
▁ಕರೆನ್ಸಿ	-6826
▁ಬ್ರೌಸರ್	-6827
▁ಸಮಾಧಾನದ	-6828
▁ಸಮುವೇಲನು	-6829
ಿಸಿಕೊಳ್ಳಲು	-6830
▁ಅನ್ಯಜನಾಂಗ	-6831
▁ಬುದ್ಧಿಹೀನ	-6832
ಫೀ	-6833
ata	-6834
ulu	-6835
ಂಪಿ	-6836
ನಾಲ	-6837
ಲನೂ	-6838
▁(8	-6839
▁CD	-6840
▁de	-6841
ಕ್ಯೂ	-6842
ಮೈನ್	-6843
▁2.5	-6844
▁ಇವೇ	-6845
right	-6846
ಗಳಂತೆ	-6847
ಿಗಾಗಿ	-6848
▁ಕ್ರಯ	-6849
▁ಜಾಕ್	-6850
▁ದೊರಕ	-6851
▁ನಕಲು	-6852
▁ಮೆಮೊ	-6853
▁Cheat	-6854
▁ಅಲ್ಯೂ	-6855
▁ದ್ರೋಹ	-6856
▁ಟ್ಯಾಟೂ	-6857
▁ಲಾಗಿನ್	-6858
▁ಫಲವನ್ನು	-6859
▁ಬೇಕೆಂದು	-6860
▁ಕರ್ತನಿಂದ	-6861
▁ಪೆಟ್ಟಿಗೆ	-6862
▁ನವೀಕರಿಸಿದ	-6863
▁ಪ್ರವಾದಿಗಳ	-6864
▁University	-6865
▁ಪಟ್ಟಿಯನ್ನು	-6866
▁ಸ್ಥಾಪಿತವಾದ	-6867
▁ಕಣ್ಣುಗಳನ್ನು	-6868
▁ತೋರಿಸುತ್ತದೆ	-6869
▁ಸಮಸ್ಯೆಗಳನ್ನು	-6870
OC	-6871
Sh	-6872
ali	-6873
era	-6874
▁HP	-6875
▁Ro	-6876
▁Sc	-6877
ಕಲ್ಪ	-6878
ಮೆಲೆ	-6879
ೋದ್ಯ	-6880
▁29,	-6881
▁ಹಾನ	-6882
agram	-6883
▁ಮಿತಿ	-6884
▁Gener	-6885
▁ಆಧಾರದ	-6886
▁ಜೈವಿಕ	-6887
▁ಯಾವನು	-6888
▁ಸಿಎನ್	-6889
▁ಡ್ರೈವ್	-6890
▁ಸತ್ತನು	-6891
▁ಹರಿಯುವ	-6892
▁ಪೂರೈಸುವ	-6893
▁ಉತ್ಪನ್ನದ	-6894
▁ನಮ್ಮಲ್ಲಿ	-6895
▁ನಿನ್ನಿಂದ	-6896
▁ವಿಶ್ರಾಂತಿ	-6897
▁ದೇವರಾಗಿರುವ	-6898
▁ಉತ್ಪನ್ನಗಳನ್ನು	-6899
▁ಕರೆಯಲಾಗುತ್ತದೆ	-6900
....	-6901
ಮುಲಾ	-6902
ವಿನ್	-6903
ಮಾಸಿಕ	-6904
▁ಇವರೇ	-6905
▁ಮೀನು	-6906
▁ಕುಕೀಸ್	-6907
▁ಅಬ್ರಹಾಮ	-6908
▁ಆಫ್ರಿಕಾ	-6909
▁ಕ್ರಿಸ್ತ	-6910
▁ಅಂತರ್ಜಾಲ	-6911
▁ಸಾಧ್ಯವಾಗ	-6912
▁ಅಂಶಗಳನ್ನು	-6913
▁ಕ್ಯಾಲೆಂಡರ್	-6914
▁ಪೂರ್ವನಿಯೋಜಿತ	-6915
61	-6916
]:	-6917
▁`	-6918
oop	-6919
ಲಿದೆ	-6920
▁(20	-6921
ademy	-6922
ದಾರರು	-6923
ಸನ್ನು	-6924
▁ಆಂಟೆ	-6925
▁ಆತನೇ	-6926
▁ತಿಂದ	-6927
▁ಕಚ್ಚಾ	-6928
▁ದಿನವು	-6929
▁ನಯವಾದ	-6930
▁ಬೇರೆಯ	-6931
▁ಹೋಗಲು	-6932
ರಿಸಬಹುದು	-6933
ೋಪಕರಣಗಳು	-6934
▁ಪ್ರವಾಸಿ	-6935
▁ಬಳಿಯಿಂದ	-6936
▁ಕೆಟ್ಟದ್ದ	-6937
ಾರಾಷ್ಟ್ರೀಯ	-6938
▁ಅಂತಿಮವಾಗಿ	-6939
▁ಜಿಎಸ್ಟಿಆರ್	-6940
ern	-6941
▁MP	-6942
ಕಾಲದ	-6943
-2016	-6944
▁ತಾತ್	-6945
▁ಪ್ರಭ	-6946
▁ಅವಮಾನ	-6947
▁ಪಿಇಟಿ	-6948
▁ಸಂವೇದ	-6949
▁ಹೇಳಲು	-6950
olution	-6951
ಿಸುವವನು	-6952
▁ಆಂಟೆನಾ	-6953
▁ಎಲ್ಲವೂ	-6954
▁ಕೊಂಡರು	-6955
▁ನಿದ್ರೆ	-6956
ಾಗಿದ್ದವು	-6957
▁ಖರೀದಿಸಿ	-6958
▁ಜಿಪಿಎಸ್	-6959
ರುವುದರಿಂದ	-6960
▁November	-6961
▁ಅಲ್ಯೂಮಿನ	-6962
▁ಝೆಜಿಯಾಂಗ್	-6963
▁ಆವರಿಸುತ್ತದೆ	-6964
GS	-6965
Sp	-6966
iw	-6967
ಸಮ	-6968
ಾಫಾಟ	-6969
▁Col	-6970
▁ದರೆ	-6971
▁ರಿಸ	-6972
ebook	-6973
ದೇವರು	-6974
▁ಗಂಟೆ	-6975
▁ಲೋಕದ	-6976
ಪಟ್ಟರು	-6977
▁ಅಲ್ಲಾ	-6978
▁ಕಿರೀಟ	-6979
▁ಚಾವಣಿ	-6980
▁ಜಪಾನ್	-6981
▁ಮೂರ್ಖ	-6982
ಿಸಬೇಕಾದ	-6983
▁ಅವನಿಂದ	-6984
▁ರಾಜಕೀಯ	-6985
ವರೆಲ್ಲರು	-6986
▁ದಿವಸಗಳು	-6987
▁ಲಕ್ಷಣಗಳು	-6988
▁ಸ್ಟೇಟ್ಸ್	-6989
▁ಕೆಲವೊಮ್ಮೆ	-6990
▁ಗುಂಡಿಯನ್ನು	-6991
▁ವ್ಯವಸ್ಥೆಯನ್ನು	-6992
71	-6993
OL	-6994
une	-6995
▁qu	-6996
▁ಭೌ	-6997
ರೇನು	-6998
ಸ್ತನ	-6999
್ರೀಕ	-7000
▁1.2	-7001
▁13,	-7002
▁Flv	-7003
urren	-7004
ಾನೆಲ್	-7005
▁1800	-7006
▁game	-7007
▁ಅಧೀನ	-7008
▁ಬಟನ್	-7009
▁ಬೇಸ್	-7010
▁ಯಾವದ	-7011
▁ಅರ್ಜಿ	-7012
▁ಇವುಗಳ	-7013
▁ಚಂದ್ರ	-7014
▁ತಂದರು	-7015
▁ಭಯಂಕರ	-7016
▁ಅನ್ವೇಷ	-7017
▁ಸ್ಟಾಕ್	-7018
▁ಹೆಂಡತಿ	-7019
▁ಗುವಾಂಗ್	-7020
▁ಅಂಗೀಕರಿಸ	-7021
▁ಆರೋಗ್ಯಕರ	-7022
▁ಡೀಫಾಲ್ಟ್	-7023
ಮಾಡಿಕೊಳ್ಳುವ	-7024
▁ಕರೆಯಲ್ಪಟ್ಟ	-7025
▁ಕುಮಾರರಲ್ಲಿ	-7026
▁ನಿರಂತರವಾಗಿ	-7027
▁ಮಾಡಿದ್ದಾರೆ	-7028
Pl	-7029
St	-7030
gl	-7031
ಉದ	-7032
ಹೂ	-7033
ole	-7034
ally	-7035
ಕ್ಷಮ	-7036
ನ್ನಾ	-7037
ಮಿನ್	-7038
▁not	-7039
▁ತನಿ	-7040
▁ದುರ	-7041
▁Open	-7042
▁ಅವಧಿ	-7043
▁ವಸಂತ	-7044
▁ಮಧ್ಯಾ	-7045
▁ಹತ್ತಿ	-7046
ಶ್ಚಿತ್ತ	-7047
▁ಅಂಶಗಳು	-7048
▁ಬಲಿಷ್ಠ	-7049
▁ಬೆವಿಕಂ	-7050
▁ದಹನಬಲಿಯ	-7051
▁ರಾಜ್ಯವು	-7052
▁ಒಡಂಬಡಿಕೆ	-7053
▁ಪ್ರಮಾಣಿತ	-7054
▁ಜೀವನದಲ್ಲಿ	-7055
▁ಮಾರ್ಗವಾಗಿ	-7056
▁ವಾಸವಾಗಿರುವ	-7057
-9	-7058
ದನ	-7059
ose	-7060
ವನೇ	-7061
ಾದರ	-7062
▁72	-7063
2005	-7064
ರ್ಟ್	-7065
ವರ್ಧ	-7066
ಾಗ್ರ	-7067
ಿಯಮ್	-7068
▁Top	-7069
▁ಲಿನ	-7070
ಷ್ಯನ್	-7071
▁ಪರಿಹ	-7072
▁ಸುರು	-7073
▁ಹಕ್ಕ	-7074
▁ಇನ್ಸ್	-7075
▁ಚಂದಾದ	-7076
▁ನಿರ್ಗ	-7077
ಮಿನಲ್ಲಿ	-7078
▁ಆವೃತ್ತ	-7079
▁ಜಿಲ್ಲಾ	-7080
▁ಪದಾರ್ಥ	-7081
▁ಪೊಲೀಸ್	-7082
▁ಸ್ವರೂಪ	-7083
▁ಆತನಲ್ಲಿ	-7084
▁ಕುಡಿಯುವ	-7085
ಿಸುತ್ತಿರುವ	-7086
▁ನ್ಯಾಯಾಧಿಪ	-7087
▁ಪ್ರೇಮಿಗಳು	-7088
▁ನಿಮಿತ್ತವಾಗಿ	-7089
▁ಅಂತರರಾಷ್ಟ್ರೀಯ	-7090
▁ಅಂತಾರಾಷ್ಟ್ರೀಯ	-7091
62	-7092
US	-7093
hy	-7094
ಸಭ	-7095
ನಿಟ	-7096
ನೀಯ	-7097
host	-7098
ಮಿಗೆ	-7099
▁(12	-7100
▁11:	-7101
▁dis	-7102
▁ಇಷ್	-7103
▁ಯೋಗ	-7104
ಪ್ಪರ್	-7105
▁ದೂತನ	-7106
▁ಧ್ವಜ	-7107
▁ಮುಂಬ	-7108
▁ಸಾಲು	-7109
▁ಸೆಲ್	-7110
ಹೊತ್ತು	-7111
▁ವಾತಾವ	-7112
ription	-7113
ಿಸುವವರು	-7114
▁Christ	-7115
▁ಹೊರಡುವ	-7116
▁ಹುಡುಕಲು	-7117
▁ಹೊಂದಿಕೆ	-7118
ಿಸಬೇಕೆಂದು	-7119
▁ಆಹಾರವನ್ನು	-7120
ಬೇಕಾಗುತ್ತದೆ	-7121
▁ಬೆನ್ಯಾವಿಾನನ	-7122
▁ಮನುಷ್ಯರನ್ನು	-7123
▁ಇಸ್ರಾಯೇಲ್ಯರು	-7124
ces	-7125
ರಾಗ	-7126
ಲುವ	-7127
ಸ್ಪ	-7128
▁ಕಸ	-7129
▁ವಧ	-7130
ness	-7131
ಬೇಸ್	-7132
ಿರಲಿ	-7133
▁min	-7134
▁ಎಳೆ	-7135
▁ಕುಣ	-7136
▁ದರೂ	-7137
▁ದಾಟ	-7138
ನಿಟಟೂ	-7139
▁ಆಮದು	-7140
▁ಗೇಮ್	-7141
▁ದಸ್ತ	-7142
▁ವಾರದ	-7143
▁ವೇಗದ	-7144
▁ಖಂಡಿತ	-7145
▁ನಂಬುವ	-7146
▁ನುಂಗಿ	-7147
▁ಚೊಚ್ಚಲ	-7148
▁ಮಾಡಿಕೊ	-7149
ಿಸಬಹುದಾದ	-7150
▁Academy	-7151
▁ಅಪೊಸ್ತಲ	-7152
▁ನಿರ್ಬಂಧ	-7153
▁ಪತ್ರಕೋಶ	-7154
▁ಬ್ರಾಂಡ್	-7155
▁ವಾಗ್ದಾನ	-7156
▁ಸೊನಿಟಟೂ	-7157
▁modified	-7158
▁ನಿಖರವಾಗಿ	-7159
▁ಯೆಹೂದ್ಯರು	-7160
ಿಸಲ್ಪಟ್ಟಿದೆ	-7161
▁ವ್ಯಾಪಕವಾಗಿ	-7162
▁ಕ್ಷೇತ್ರದಲ್ಲಿ	-7163
FF	-7164
ಗತ	-7165
ದೊ	-7166
▁в	-7167
400	-7168
TPS	-7169
aut	-7170
its	-7171
ನ್ಮ	-7172
▁AM	-7173
ರಿಗಳ	-7174
ೀಕರ್	-7175
▁ಕಥೆ	-7176
▁ಹಾಲ	-7177
▁ಅಗಾಧ	-7178
▁ಕ್ಲಾ	-7179
▁ಗಣಿತ	-7180
▁ತೊಳೆ	-7181
▁ಬದಲಿ	-7182
▁Slots	-7183
▁ತೀರಿಸ	-7184
▁ಫೋಲ್ಡ	-7185
▁ಹೆಬ್ರ	-7186
▁ನೀತಿಯು	-7187
▁ಪ್ಯಾಚ್	-7188
▁ಬಂಡವಾಳ	-7189
▁ಟೆಕ್ನಾಲ	-7190
▁ತಿಳಿಯುವ	-7191
▁ಮಧ್ಯಾಹ್	-7192
▁ಯಾರಂದರೆ	-7193
▁ವಾತಾವರಣ	-7194
▁ಸಂಖ್ಯೆಯ	-7195
▁ಹವ್ಯಾಸಿ	-7196
▁ಜೊತೆಯಲ್ಲಿ	-7197
▁ಪ್ರಾಯಶ್ಚಿತ್ತ	-7198
ZD	-7199
irt	-7200
rid	-7201
uro	-7202
ಂಬರ	-7203
ಿಣದ	-7204
ಂದ್ಯ	-7205
ಕೆಯು	-7206
▁ಆವರ	-7207
▁ಏಜೆ	-7208
▁ಕಾದ	-7209
ೆಂದರೆ	-7210
▁ತ್ರೈ	-7211
▁ಬ್ರೇ	-7212
▁ಹಸ್ತ	-7213
iparos	-7214
▁ಉತ್ತೇ	-7215
▁ದರ್ಶನ	-7216
▁ನಂಬಿಗ	-7217
▁ಸೀಮಿತ	-7218
▁ಹಿಟ್ಟ	-7219
ತಕ್ಕದ್ದು	-7220
ಾನ್ಡಾಂಗ್	-7221
▁ಕಂಡುಬಂದ	-7222
▁ಪಾಲನ್ನು	-7223
▁ಬುದ್ಧಿವ	-7224
ಗೊಳ್ಳುತ್ತದೆ	-7225
mg	-7226
ರೈ	-7227
▁ಇಟ	-7228
ಜ್ಜೆ	-7229
ನೆಸ್	-7230
▁Cre	-7231
▁ಉಸಿ	-7232
▁ದೀನ	-7233
▁ರುಚ	-7234
ೋರ್ಟ್	-7235
▁Post	-7236
▁Publ	-7237
▁will	-7238
▁ಟಗರು	-7239
▁ಹಾನಿ	-7240
ಣವನ್ನು	-7241
▁ಮಾಡಲಿ	-7242
▁ಯಾವನೂ	-7243
▁ಸ್ವತಃ	-7244
▁ಉಲ್ಲಾಸ	-7245
▁ತಿಳಿಸಿ	-7246
▁ವಿದೇಶಿ	-7247
▁ಸೂರ್ಯನ	-7248
▁ಇಲ್ಲಿಗೆ	-7249
▁ಪಟ್ಟಣವು	-7250
▁ಹೋಗುವದು	-7251
▁ಭಾಗವನ್ನು	-7252
▁ಮಾದರಿಗಳು	-7253
▁ರೂಪದಲ್ಲಿ	-7254
▁ಷಾನ್ಡಾಂಗ್	-7255
▁ಪರಾಕ್ರಮಶಾಲಿ	-7256
SS	-7257
ೇತ	-7258
.11	-7259
att	-7260
itt	-7261
▁TV	-7262
ider	-7263
mbyg	-7264
▁out	-7265
▁ತುದ	-7266
▁ಶನಿ	-7267
ieces	-7268
▁ತುಣು	-7269
▁ಬಂದೆ	-7270
▁ಸನ್ನ	-7271
▁ಜನರಲ್	-7272
▁ಪೌಲನು	-7273
▁ಬೈಬಲ್	-7274
▁ವಿಜ್ಞ	-7275
lectron	-7276
mbygden	-7277
▁option	-7278
▁ಬರೆಯುವ	-7279
▁ಬಾಯಿಂದ	-7280
▁ಪರಿಕಲ್ಪ	-7281
▁ಸಂಶೋಧನಾ	-7282
ವಿರುತ್ತದೆ	-7283
▁ಗುಣಲಕ್ಷಣ	-7284
▁ಫ್ರಾನ್ಸ್	-7285
▁ಸಿಂಹಾಸನದ	-7286
▁ಪಡೆದುಕೊಳ್ಳ	-7287
ಚರ	-7288
ಬರ	-7289
ಮಳ	-7290
-14	-7291
-24	-7292
ಗಾದ	-7293
ದೀಯ	-7294
ಂಗಿಕ	-7295
ಿಸ್ತ	-7296
▁26,	-7297
▁XXL	-7298
▁ಗಳೂ	-7299
▁ತೀರ	-7300
▁ದೂಷ	-7301
-2013	-7302
ಕನ್ನಡ	-7303
ಿಸಬೇಡ	-7304
▁ಬಳಿಯ	-7305
ನೆಯಿಂದ	-7306
ೊಳಕ್ಕೆ	-7307
▁©2005	-7308
ತ್ತೆರಡು	-7309
ದಿಯನ್ನು	-7310
▁Karnar	-7311
▁ಅನುಗುಣ	-7312
▁ಗಲಿಲಾಯ	-7313
▁ದಾನಿಯೇ	-7314
▁ಫರಿಸಾಯ	-7315
▁ವಾಗಿಯೂ	-7316
▁ಹುಲ್ಲು	-7317
▁ಕೈಕೊಂಡು	-7318
▁ಬಿಡುಗಡೆಯ	-7319
▁ಯೆಹೂದ್ಯರ	-7320
▁ವಸ್ತುಗಳು	-7321
▁ಮಾಂಸವನ್ನು	-7322
▁©2005-2018	-7323
▁ಸ್ತುತಿಸಿರಿ	-7324
▁ಸ್ವಯಂಚಾಲಿತವಾಗಿ	-7325
/-	-7326
ವಲ	-7327
ಷೆ	-7328
ots	-7329
ಿದ್	-7330
ೇಳು	-7331
▁SD	-7332
▁fl	-7333
work	-7334
ಹೋಗು	-7335
▁ಕಪ್	-7336
ರಷ್ಟು	-7337
▁CSGO	-7338
▁ಚೀನೀ	-7339
▁ಜೀವಿ	-7340
▁ಮದ್ಯ	-7341
ryptoc	-7342
ಾಗುವರು	-7343
▁ಇಟ್ಟನು	-7344
▁ಕಬ್ಬಿಣ	-7345
▁ಕಾಣಿಕೆ	-7346
▁ಹೇಳಬೇಕಾದ	-7347
▁ಪಡೆಯಬಹುದು	-7348
▁ಹಂಚಿಕೊಳ್ಳ	-7349
▁ಎಣಿಸಲ್ಪಟ್ಟ	-7350
▁ಬರೆಯಲ್ಪಟ್ಟ	-7351
▁ಪ್ಯಾಕೇಜಿಂಗ್	-7352
.”	-7353
2.	-7354
pr	-7355
ಯೋ	-7356
row	-7357
ಕದ್	-7358
ನನು	-7359
▁sc	-7360
eset	-7361
ಂದಿರ	-7362
ನಾಲ್	-7363
▁0.9	-7364
▁ಎದೆ	-7365
▁ಕಾರ	-7366
▁ಕೋಟ	-7367
ಕ್ಷೇಪ	-7368
ಚ್ಛಿಕ	-7369
ಪ್ರಾಯ	-7370
ಾಯಿತಿ	-7371
▁ಗಾಳಿ	-7372
▁ದೊರೆ	-7373
▁ಬದಲು	-7374
▁ಎಂದರೆ	-7375
▁ಪಿಎನ್	-7376
▁ಮುದ್ದ	-7377
▁ಯೆಹೋಷ	-7378
ಉದಾಹರಣೆ	-7379
▁ಕಟ್ಟಳೆ	-7380
▁ಮೊದಲಿನ	-7381
▁ವರುಷಗಳ	-7382
▁ಸಂಗಡಲೂ	-7383
▁ತಪ್ಪಿಸಿ	-7384
▁ನೆಬೂಕದ್	-7385
▁ಬಲ್ಲೆನು	-7386
▁ವ್ಯಾಪಾರಿ	-7387
▁ಮಾಡಿಕೊಂಡು	-7388
.08	-7389
ett	-7390
▁Ab	-7391
▁kr	-7392
▁ವಹ	-7393
▁ಹದ	-7394
3456	-7395
olog	-7396
tern	-7397
ಗ್ಗಿ	-7398
ಪ್ಯಾ	-7399
ರೆದು	-7400
ುವವು	-7401
▁(4,	-7402
▁XXX	-7403
▁pre	-7404
▁ಕಸ್	-7405
▁ಬೃಹ	-7406
ಟೆಂಟ್	-7407
ತುದಾರ	-7408
▁1500	-7409
▁ಅಬ್ರ	-7410
▁ಯುಕೆ	-7411
▁ಅವುಗಳು	-7412
▁ನಾಗರಿಕ	-7413
▁ಯೋಸೇಫನ	-7414
▁ದಸ್ತಾವೇ	-7415
▁ನಿಮಿಷಗಳ	-7416
ಗಳಿಗೋಸ್ಕರ	-7417
▁ಉಪಕರಣಗಳು	-7418
▁ಪ್ರೊಫೈಲ್	-7419
▁ಅಬ್ರಹಾಮನು	-7420
▁ಕರ್ತನೆಂದು	-7421
▁ತ್ರೈಮಾಸಿಕ	-7422
▁ಮಾಹಿತಿಗಾಗಿ	-7423
RP	-7424
nc	-7425
ಟೈ	-7426
.07	-7427
ier	-7428
ಂಡೆ	-7429
▁58	-7430
▁MO	-7431
ಲಿಟಿ	-7432
▁04:	-7433
▁ಬುಧ	-7434
▁ಷ್ಯ	-7435
▁ಹದಿ	-7436
▁ಹೀಗ	-7437
ನೆಚ್ಚ	-7438
ಸಿಂಗ್	-7439
▁year	-7440
▁ಇಂಜೆ	-7441
▁ಕಾಗದ	-7442
▁ಕೇಂದ	-7443
▁ಜೋಡಿ	-7444
▁ವಸ್ತ	-7445
▁ಷೆನ್	-7446
▁ಸಂಕು	-7447
▁ವಿಂಗಡ	-7448
ತನವನ್ನು	-7449
ದೊಳಗಿಂದ	-7450
ಿಗೋಸ್ಕರ	-7451
ಿಯಾಗಿದೆ	-7452
▁inmenu	-7453
▁ಅಭ್ಯಾಸ	-7454
▁ಚೀಟ್ಸ್	-7455
▁ಸಬ್ಬತ್	-7456
▁ನಾಶವಾಗುವ	-7457
▁ಹೊಂದಿಲ್ಲ	-7458
▁ಡೇಟಾವನ್ನು	-7459
▁ಪ್ರಾರಂಭಿಸಿ	-7460
▁ಸಂದೇಶಗಳನ್ನು	-7461
DF	-7462
ME	-7463
gy	-7464
ಳೇ	-7465
.15	-7466
fer	-7467
iss	-7468
ಅರಸ	-7469
▁up	-7470
▁ಎಪ	-7471
ents	-7472
ರಹಿತ	-7473
▁New	-7474
▁Xxx	-7475
▁che	-7476
▁ಚುನ	-7477
▁ಧಾರ	-7478
ystem	-7479
ಕರಿಗೆ	-7480
▁ಕಾಕ್	-7481
▁ಫಿಟ್	-7482
▁ಒಡೆದು	-7483
▁ಕುರುಡ	-7484
▁ತೆರವು	-7485
▁ವಾಟರ್	-7486
acebook	-7487
▁ಯಂತ್ರದ	-7488
▁ರೇಟೆಡ್	-7489
▁ಜನಸಂಖ್ಯ	-7490
▁ಬೆಳಗಾವಿ	-7491
▁ಸಹೋದರರು	-7492
ಉದಾಹರಣೆಗೆ	-7493
▁ಅಸ್ತಿವಾರ	-7494
▁ಇಂಗ್ಲೀಷ್	-7495
▁ಶಬ್ದವನ್ನು	-7496
▁ಒಳ್ಳೇದನ್ನು	-7497
▁ಪವಿತ್ರಾತ್ಮ	-7498
▁ಹೊಣೆಗಾರಿಕೆ	-7499
72	-7500
ಭಟ	-7501
EMA	-7502
ಬಹು	-7503
ಳಿದ	-7504
▁ಒರ	-7505
ಮ್ಯು	-7506
ಲೇಜ್	-7507
▁Mov	-7508
▁VPS	-7509
▁ಆಸನ	-7510
▁ದಯೆ	-7511
ವಾದರೂ	-7512
▁ಗಂಡು	-7513
▁ಗುಲಾ	-7514
▁ಚೀಟು	-7515
▁ಜವಳಿ	-7516
▁ರಬ್ಬ	-7517
▁ಲೋಹದ	-7518
ಕರನ್ನು	-7519
ಾರದರ್ಶ	-7520
▁ಆಕ್ರಮ	-7521
▁ಮೊಡವೆ	-7522
▁ಸೇರುವ	-7523
▁ಹೋಂಡಾ	-7524
ಪುತ್ರನೇ	-7525
ೊಂದನ್ನು	-7526
▁recipe	-7527
interest	-7528
▁ಕಾನಾನ್ಯ	-7529
▁ಸ್ಪೀಕರ್	-7530
▁ಅರಸನನ್ನು	-7531
▁ಪ್ರಕಟಣೆಯ	-7532
▁ಪ್ರಯಾಣಿಕ	-7533
▁ವಿಭಾಗಗಳು	-7534
escription	-7535
▁ಹಿತ್ತಾಳೆಯ	-7536
▁Holmbygden	-7537
TF	-7538
ಥ್	-7539
ಡಿತ	-7540
▁3:	-7541
▁43	-7542
▁ಅತ	-7543
▁ಕಣ	-7544
ates	-7545
ship	-7546
unit	-7547
ಮಿಕ್	-7548
▁0.2	-7549
▁130	-7550
▁Mic	-7551
▁ಜಾರ	-7552
▁ತರಗ	-7553
▁ಬೇರ	-7554
▁butt	-7555
▁ನೌಕರ	-7556
▁ನ್ನು	-7557
▁ಹಗ್ಗ	-7558
ರಲಿಲ್ಲ	-7559
▁Photo	-7560
▁ಆಡಿಯೋ	-7561
▁ಒಬ್ಬನ	-7562
▁ಕೂಪನ್	-7563
▁ಕೃತ್ಯ	-7564
▁ಕೊಂಡಾ	-7565
▁ಬಾರದು	-7566
ಚ್ಛಕ್ತಿ	-7567
▁ಚಾನೆಲ್	-7568
ransposh	-7569
▁ಪಾರ್ಶ್ವ	-7570
▁ಬಲಿಪೀಠದ	-7571
▁ಸಮರ್ಪಣೆ	-7572
▁ನೀತಿವಂತರ	-7573
▁ವಿಶ್ರಾಂತ	-7574
▁ಷೆನ್ಜೆನ್	-7575
▁ನಿಮಗೋಸ್ಕರ	-7576
▁ನೀತಿಯನ್ನು	-7577
▁ಹೈಡ್ರಾಲಿಕ್	-7578
▁ಸ್ಥಾಪಿಸಲಾಯಿತು	-7579
fs	-7580
-27	-7581
wit	-7582
ಇಸಿ	-7583
▁Co	-7584
▁De	-7585
▁FA	-7586
▁ಓಡ	-7587
Tube	-7588
word	-7589
ಂಜರ್	-7590
ಹೆಚ್	-7591
ಾಂಕ್	-7592
▁ಅಹೀ	-7593
ಂಶಗಳು	-7594
ಚ್ಚಿನ	-7595
▁have	-7596
▁ಕನಸು	-7597
▁ಕ್ಲೈ	-7598
▁ದ್ರವ	-7599
▁ನೇಮಕ	-7600
▁ಆಕೆಗೆ	-7601
▁ಗಳಿಂದ	-7602
▁ಬೊಕ್ಕ	-7603
▁ಅಮೋರಿಯ	-7604
▁ದೃಷ್ಟಿ	-7605
▁ಬ್ಯಾಗ್	-7606
▁ಭಯಪಡುವ	-7607
▁ಶೇಖರಣಾ	-7608
ಾಗಿದ್ದನು	-7609
▁ಈಹೊತ್ತು	-7610
▁ಕಬ್ಬಿಣದ	-7611
▁ವಿಜ್ಞಾಪ	-7612
▁ನಾಶಮಾಡುವ	-7613
ryptocurren	-7614
▁ಗುಪ್ತಪದವನ್ನು	-7615
BC	-7616
PG	-7617
▁฿	-7618
ild	-7619
ush	-7620
ಪ್ಟ	-7621
ರ್ತ	-7622
ಾಣೆ	-7623
▁88	-7624
▁Me	-7625
▁ev	-7626
▁ಊಹ	-7627
-500	-7628
ಪಾಟ್	-7629
▁PNG	-7630
▁ಆರೈ	-7631
▁ಒಂಟ	-7632
▁ಭ್ರ	-7633
ಲನಿಗೆ	-7634
▁2006	-7635
▁ತುಳು	-7636
▁ದ್ವಿ	-7637
▁ಬದ್ಧ	-7638
▁ಸಂಜೆ	-7639
elcome	-7640
ಂಡರ್ಡ್	-7641
▁ಅಲ್ಲದ	-7642
▁ತಳ್ಳಿ	-7643
್ಯಾನಿಲಯ	-7644
▁ಅನುಮೋದ	-7645
▁ಸಹೋದರರ	-7646
ವಾಗಬಹುದು	-7647
ಿದ್ದನ್ನು	-7648
▁ರಕ್ಷಣೆಯ	-7649
▁ಸೇರಿಸಲು	-7650
lectronic	-7651
▁ಕುಟುಂಬಗಳ	-7652
▁ಬಲಾತ್ಕಾರ	-7653
▁ಸವಿಾಪಕ್ಕೆ	-7654
▁ವ್ಯಕ್ತಿಗಳು	-7655
▁ಮಾರುಕಟ್ಟೆಯಲ್ಲಿ	-7656
59	-7657
OP	-7658
iB	-7659
ೀಗ	-7660
-21	-7661
.40	-7662
Ind	-7663
ತಾಣ	-7664
ುವೆ	-7665
▁Ep	-7666
▁SM	-7667
▁ಕವ	-7668
ಣೆಯು	-7669
ವಾರ್	-7670
ಾವಿದ	-7671
▁Pan	-7672
▁cre	-7673
▁ರನ್	-7674
Press	-7675
ಲ್ಪಡು	-7676
▁2007	-7677
▁ಆರಾಮ	-7678
▁ಕಂಪೆ	-7679
▁ನಕಲಿ	-7680
▁ಬ್ರೆ	-7681
▁ಮಂದೆ	-7682
ಾಕಿಂಗ್	-7683
▁ಮಲ್ಟಿ	-7684
▁ವ್ಯಾಧ	-7685
ಇಸ್ರಾಯೇ	-7686
▁ಮನಸ್ಸಿ	-7687
ೋನಿನಲ್ಲಿ	-7688
▁ಎನ್ನುವು	-7689
▁ಮಾಡುವದು	-7690
▁ಲೇಖನಗಳು	-7691
▁ಶಾಪಿಂಗ್	-7692
▁ಅಪ್ಪಣೆಕೊ	-7693
▁ವರ್ಗಾವಣೆ	-7694
▁ಕಾರ್ಯದರ್ಶ	-7695
▁ಅನುಮತಿಸುತ್ತದೆ	-7696
▁ವಿದ್ಯುಚ್ಛಕ್ತಿ	-7697
63	-7698
79	-7699
CE	-7700
PE	-7701
no	-7702
ಡದ	-7703
mes	-7704
▁53	-7705
ಿರಂಗ	-7706
▁Con	-7707
▁ಬಾವ	-7708
other	-7709
▁Tulu	-7710
▁ನಾರು	-7711
ಾದ್ಯಂತ	-7712
▁HTTPS	-7713
▁ಆಚರಿಸ	-7714
▁ಕೊಯ್ಯ	-7715
▁ನೆಂದು	-7716
▁ಸುವಾಸ	-7717
ಜ್ಞಾನಿಕ	-7718
ವಿಜ್ಞಾನ	-7719
▁ಆತ್ಮನು	-7720
▁ಏನಾಯಿತ	-7721
▁ಪ್ರಗತಿ	-7722
▁ಪ್ರೇರೇ	-7723
▁ಲೈಂಗಿಕ	-7724
▁ಸ್ಕೈಪ್	-7725
ಬಾರದೆಂದು	-7726
▁ರೆಸಲ್ಯೂ	-7727
▁Comments	-7728
▁ಕ್ರಾಫ್ಟ್	-7729
▁ಟ್ರ್ಯಾಕ್	-7730
▁ಯೊರ್ದನಿನ	-7731
▁ಅಗತ್ಯವಿರುವ	-7732
▁ಅರ್ಪಿಸಬೇಕು	-7733
',	-7734
ಳ್	-7735
ಸೋ	-7736
ady	-7737
ಗಿತ	-7738
ೂಪ್	-7739
▁"%	-7740
▁9:	-7741
▁en	-7742
▁ತಡ	-7743
▁ತಪ	-7744
iece	-7745
ನ್ಯೂ	-7746
ಮಾಪನ	-7747
ರ್ತು	-7748
ುವಾದ	-7749
▁Sah	-7750
▁ಅವಿ	-7751
▁ಕನ್	-7752
▁ಡಿಸಿ	-7753
▁ರಮ್ಯ	-7754
▁ಹೆಚ್	-7755
ossess	-7756
▁ತಂಪಾದ	-7757
▁ಹಳ್ಳಿ	-7758
▁ಹಿಂದಿ	-7759
▁ಹಿನ್ನ	-7760
ವಾಗಿದ್ದ	-7761
▁ತುಣುಕು	-7762
▁ಒಟ್ಟಾರೆ	-7763
▁ಗಮನಾರ್ಹ	-7764
▁ಫೋಲ್ಡರ್	-7765
▁ಹೆತ್ತಳು	-7766
▁ವಿಧಾನಗಳು	-7767
▁Antiparos	-7768
▁ಕರೆದುಕೊಂಡು	-7769
▁ಸೈಟ್ಮ್ಯಾಪ್	-7770
▁ತೆಗೆದುಕೊಳ್ಳಲು	-7771
▁ವಿಶ್ವವಿದ್ಯಾನಿಲಯ	-7772
49	-7773
▁≥	-7774
▁DR	-7775
▁31,	-7776
▁ಸೌರ	-7777
▁Qual	-7778
▁Sexu	-7779
▁ಗಿಯೂ	-7780
▁ಜಾವಾ	-7781
▁ಸಂಗಾ	-7782
ಬೋರ್ಡ್	-7783
ಾಪಟ್ಟಿ	-7784
▁ಅರಸನೂ	-7785
▁ಹಾಸ್ಯ	-7786
ಗಳಾಗಿವೆ	-7787
ವೆಲ್ಲರೂ	-7788
▁ಕಸ್ದೀಯ	-7789
▁ಕ್ಯಾನ್	-7790
▁ವಿತರಣೆ	-7791
▁ವಿಷಯಗಳ	-7792
▁ಸಂತತಿಯ	-7793
▁ಹುಡುಗಿ	-7794
▁ಹೋಗಿರಿ	-7795
▁ಆನಂದಿಸಿ	-7796
▁ಘಟನೆಗಳು	-7797
▁ಮ್ಯಾಕ್ಸ್	-7798
▁ಹೆಚ್ಚಿಸಲು	-7799
▁ಇಲ್ಲದಿದ್ದರೆ	-7800
▁ಪ್ರಮಾಣದಲ್ಲಿ	-7801
II	-7802
olt	-7803
ದರ್	-7804
ನಿಜ	-7805
▁Qu	-7806
▁Wh	-7807
ager	-7808
ಸ್ತೇ	-7809
▁ತಾನ	-7810
▁ಲವ್	-7811
▁ಹುಳ	-7812
ನೆಂದೂ	-7813
ರಲಾಗಿ	-7814
▁ಗಾರ್	-7815
▁ನಿಯತ	-7816
▁ಮನ್ನ	-7817
▁ಸೆಲಾ	-7818
ತನೆಗಳು	-7819
▁ಗೆಲ್ಲ	-7820
▁ಬಟ್ಟೆ	-7821
▁ಸಂಭಾವ	-7822
▁ಸಾಮ್ಯ	-7823
▁ಹೊರುವ	-7824
ಾಗುವಂತೆ	-7825
▁ಬೇರಿಂಗ್	-7826
▁ವಿಚಾರಿಸ	-7827
▁ಸ್ಥಳಗಳು	-7828
▁ಎಪ್ಪತ್ತು	-7829
▁ಹಿಂತಿರುಗ	-7830
▁ಬುದ್ಧಿವಂತ	-7831
▁ಸೂಚಿಸುತ್ತದೆ	-7832
Bl	-7833
SP	-7834
ತನದ	-7835
ಹಿಕ	-7836
▁98	-7837
▁TH	-7838
ಬಾಲ್	-7839
ೂರಿನ	-7840
▁10%	-7841
▁con	-7842
▁ಇಬ್	-7843
▁ಬೀದ	-7844
▁ಮಾರ	-7845
ಪಿಯನ್	-7846
ವೆಂದೂ	-7847
ಾಗಿವೆ	-7848
▁ಉಡುಗ	-7849
▁ನಂತಹ	-7850
▁ಬೇತೇ	-7851
▁ಮೂಲೆ	-7852
▁ವೈನ್	-7853
▁ಸಂಘಟ	-7854
ಜೆಕ್ಟ್	-7855
ಡುವೆನು	-7856
ದಾಗಿದೆ	-7857
ಿಗಳಿಗೆ	-7858
▁ಜನರಾದ	-7859
▁ದೊರೆಯ	-7860
▁ಬೃಹತ್	-7861
▁ಸ್ನಾನ	-7862
Possess	-7863
ಡುತ್ತದೆ	-7864
▁ಖಾತ್ರಿ	-7865
▁ಗುಲಾಬಿ	-7866
▁ದಿಂದಲೂ	-7867
▁ಮುಳ್ಳು	-7868
▁ಹೊಲಿಗೆ	-7869
▁ಪ್ರೇಕ್ಷ	-7870
▁ಉಂಟಾಯಿತು	-7871
▁ಕೈಗಾರಿಕೆ	-7872
▁ದಾಖಲಿಸಿದ	-7873
▁ಮತಗಳನ್ನು	-7874
▁ಅವರೊಂದಿಗೆ	-7875
▁ಅಗತ್ಯವಿಲ್ಲ	-7876
▁ಮಾರ್ಗದರ್ಶಿ	-7877
▁ಹೊಂದಾಣಿಕೆಯ	-7878
▁ಪ್ರಶ್ನೆಗಳನ್ನು	-7879
▁ಸಂಪರ್ಕಿಸಬಹುದು	-7880
1-	-7881
ero	-7882
ife	-7883
ಘಾತ	-7884
ಜನು	-7885
ತೇಕ	-7886
ಪಿನ	-7887
▁$1	-7888
▁8:	-7889
▁380	-7890
▁Feb	-7891
▁ಸುಖ	-7892
press	-7893
ಡಿದರು	-7894
▁ಮಿನಿ	-7895
▁ಮೌಸ್	-7896
▁ಹೂವು	-7897
ಂಡಿಂಗ್	-7898
▁ಕುಷ್ಠ	-7899
▁ಪುನರು	-7900
▁ಪ್ರಾತ	-7901
▁ಪ್ರೀಮ	-7902
▁ಮಹಾನ್	-7903
▁ಸವಾರಿ	-7904
▁ಸಿಎಸ್	-7905
▁ಕಾನಾನ್	-7906
▁ಜಾಲತಾಣ	-7907
▁ಪ್ರವಾಹ	-7908
Possessive	-7909
▁ಗೊತ್ತಿಲ್ಲ	-7910
▁ಮಂಜೂಷವನ್ನು	-7911
NamePossessive	-7912
MA	-7913
ೋಕ	-7914
12)	-7915
eel	-7916
igh	-7917
int	-7918
▁Le	-7919
▁Yu	-7920
9001	-7921
Porn	-7922
roup	-7923
ಫೇಸ್	-7924
▁Bab	-7925
▁ಕರಾ	-7926
▁ಮಹೋ	-7927
arter	-7928
irect	-7929
ಷ್ಯಾದ	-7930
▁inst	-7931
▁ಆಯ್ದ	-7932
▁ಆವರಣ	-7933
▁ಜೇನು	-7934
▁ತತ್ವ	-7935
▁ತೊಡಗ	-7936
▁ಮಗನೇ	-7937
▁ರೋಲ್	-7938
▁ಹನ್ನ	-7939
▁ಉಡುಗೊ	-7940
▁ಚರ್ಚ್	-7941
▁ಮಗಳಾದ	-7942
▁ಲಿಲ್ಲ	-7943
▁ಳನ್ನು	-7944
▁ಸೈಕಲ್	-7945
▁ಸ್ವಾತ	-7946
ಿಕೆಯಿಂದ	-7947
▁ಕುಮಾರರ	-7948
▁ಪುನರಾವ	-7949
▁ಬರೆಯಲು	-7950
▁ರಜಾದಿನ	-7951
▁ಸಾಮಾನು	-7952
▁ಸ್ಕೂಲ್	-7953
▁ಒಳ್ಳೆಯದು	-7954
▁ಸೆರೆಯಾಗಿ	-7955
▁ಅವರೆಲ್ಲರೂ	-7956
▁ಪಟ್ಟಣಗಳಲ್ಲಿ	-7957
hu	-7958
▁!	-7959
.50	-7960
zip	-7961
▁41	-7962
▁ಮಡ	-7963
urch	-7964
ಿಕೋನ	-7965
▁101	-7966
▁Man	-7967
▁ಮಿತ	-7968
ithya	-7969
ಗಳನ್ನ	-7970
▁XXXL	-7971
▁ಉಜ್ಜ	-7972
▁ಕನ್ನ	-7973
▁ಪಾಲಿ	-7974
▁ಮಂಗಳ	-7975
▁ವರ್ಧ	-7976
ರಿಗಾಗಿ	-7977
▁Bitco	-7978
▁ಅಡವಿಯ	-7979
▁ಕೇಳದೆ	-7980
▁ಮಂದಿರ	-7981
▁ಆತ್ಮವು	-7982
▁ಇವೆಲ್ಲ	-7983
▁ಬಹುತೇಕ	-7984
▁ಬಾಗಿಲು	-7985
▁ಭರವಸವಿ	-7986
▁ಸೈನ್ಯದ	-7987
▁ನಿಮಗಾಗಿ	-7988
▁ಪುರುಷರು	-7989
▁Sahithya	-7990
▁ಕಾರ್ಖಾನೆ	-7991
▁ಆಗಿದ್ದಾನೆ	-7992
▁ಕಾರ್ಯಕ್ಷಮ	-7993
▁ಟೆಕ್ನಾಲಜಿ	-7994
▁ಮಾಡಿಕೊಳ್ಳುವ	-7995
▁ಇಸ್ರಾಯೇಲಿನಲ್ಲಿ	-7996
TH	-7997
la	-7998
.30	-7999
ala	-8000
chn	-8001
ಮ್ರ	-8002
ಹೊಸ	-8003
ಾಕಿ	-8004
್ಮೆ	-8005
▁MH	-8006
▁My	-8007
▁ದಹ	-8008
rack	-8009
reen	-8010
ೊಂದಿ	-8011
▁ಐಸ್	-8012
▁ಕಿಟ್	-8013
▁ಡ್ಯೂ	-8014
▁ನಾಶನ	-8015
▁ಮಾಲ್	-8016
▁ಮೊರ್	-8017
▁ರಾಗಿ	-8018
▁ಸಾಗರ	-8019
ಂತ್ರ್ಯ	-8020
ಮನುಷ್ಯ	-8021
▁ನಿಧಾನ	-8022
▁ಭಕ್ತಿ	-8023
▁ರೌದ್ರ	-8024
▁ಸಮಾಧಿ	-8025
▁ಕೊಂಡನು	-8026
▁ಕ್ಯಾಂಪ	-8027
▁ಶತ್ರುವ	-8028
▁ಇದ್ದೇನೆ	-8029
▁ನಿರ್ಧಾರ	-8030
▁ಮೋವಾಬಿನ	-8031
▁ಸುನ್ನತಿ	-8032
▁ಆಲಯದಲ್ಲಿ	-8033
▁ತಿಳಿದಿರುವ	-8034
▁ದೃಷ್ಟಿಕೋನ	-8035
▁ಪ್ರವೇಶಿಸಿ	-8036
▁ಕಾಣಿಸುತ್ತದೆ	-8037
▁ನೆಬೂಕದ್ನೆಚ್ಚ	-8038
▁ನ್ಯಾಯಪ್ರಮಾಣದ	-8039
SI	-8040
td	-8041
-86	-8042
▁AL	-8043
▁MT	-8044
▁QR	-8045
▁do	-8046
▁mo	-8047
▁we	-8048
▁ಭು	-8049
ಟ್ರಾ	-8050
ಸ್ಟೋ	-8051
▁Cat	-8052
▁ಅಧಿ	-8053
▁ಎಂಥ	-8054
▁ಬಿದ	-8055
▁ಯೆಶ	-8056
atuit	-8057
▁ಎಳೆಯ	-8058
▁ಪ್ರಚ	-8059
▁ಎದುರಿಸ	-8060
▁ಕಾರ್ಟ್	-8061
▁ತುರ್ತು	-8062
▁ಬಹಿರಂಗ	-8063
▁ಬ್ರೇಕ್	-8064
▁ಸಂರಕ್ಷ	-8065
▁ಸ್ಪ್ರಿ	-8066
▁ಅನುಗ್ರಹ	-8067
▁ಡೀಲುಗಳು	-8068
▁ತಿಳಿಸುವ	-8069
▁ಯೋಹಾನನು	-8070
▁ಹಾಕಿದರು	-8071
▁ಪಟ್ಟಣಗಳು	-8072
▁ಪ್ರತಿನಿಧ	-8073
▁ಇಂಜೆಕ್ಷನ್	-8074
▁ನೀಡುತ್ತವೆ	-8075
▁ಬಳಸುತ್ತದೆ	-8076
▁ಯೆಹೋಷಾಫಾಟ	-8077
▁ಫಲಿತಾಂಶಗಳು	-8078
▁ವರ್ಷಗಳಲ್ಲಿ	-8079
oh	-8080
err	-8081
iva	-8082
ನೂರ	-8083
ಸ್ರ	-8084
▁Gu	-8085
▁su	-8086
▁ಔತ	-8087
Wise	-8088
ಜೀವನ	-8089
ಟಾಪ್	-8090
ಬ್ಯಾ	-8091
ಮಾನದ	-8092
ಾಂಗಣ	-8093
▁ಕಿವ	-8094
▁ಐಡಿಯ	-8095
▁ಕನ್ಯ	-8096
▁ಕರಗಿ	-8097
▁ಗಟ್ಟ	-8098
▁ಚೇರ್	-8099
▁ನಾರ್	-8100
Luxury	-8101
kannad	-8102
ಂಭತ್ತು	-8103
▁ಅಧಿಕಾ	-8104
▁ಮಲಗುವ	-8105
▁ಸೀಮೋನ	-8106
▁ಬೆಲ್ಟ್	-8107
▁ಮೈಸೂರು	-8108
▁ವರ್ಚುವ	-8109
▁ಸ್ಟೇನ್	-8110
▁ಗಿಲ್ಯಾದ	-8111
▁ಪ್ರಕಟಣೆ	-8112
▁ಪ್ರೇರೇಪ	-8113
▁ಭಯಪಟ್ಟು	-8114
▁ರೊಟ್ಟಿಯ	-8115
ವಿಲ್ಲದ್ದು	-8116
▁ಸಭೆಯಲ್ಲಿ	-8117
▁ಸಮಯವನ್ನು	-8118
▁ನಿರ್ದೇಶಕರ	-8119
▁ಮಾಡಲ್ಪಟ್ಟ	-8120
▁ಪರಿಣಾಮಗಳನ್ನು	-8121
▁ಭಾವಿಸುತ್ತೇವೆ	-8122
DM	-8123
-28	-8124
755	-8125
ele	-8126
obt	-8127
ಗರ್	-8128
ಜ್ರ	-8129
ತಿಥ	-8130
ಸಿಟ	-8131
▁DC	-8132
▁Dr	-8133
▁ಬೌ	-8134
ಡಿಯೊ	-8135
ಿದ್ಯ	-8136
▁ಮೊಣ	-8137
▁ಸಿಇ	-8138
ಡಿಯಾರ	-8139
ಲಾರದೆ	-8140
▁ಅನುಭ	-8141
▁ಇಳಿಯ	-8142
▁ಕೊಂದ	-8143
▁ಗಂಡಸ	-8144
▁ಚೀಟ್	-8145
▁ಟೈಪ್	-8146
▁ಹಾಲು	-8147
allery	-8148
▁ಎಂಬದು	-8149
▁ಎಂಬದೇ	-8150
▁ಕಾಪಾಡ	-8151
▁ಪಂದ್ಯ	-8152
▁ಮೊರೆಯ	-8153
▁123456	-8154
▁button	-8155
▁ಬರುವದು	-8156
▁ಮುದ್ರೆ	-8157
▁ಮುಯ್ಯಿ	-8158
▁ಸೌಕರ್ಯ	-8159
▁ಸ್ವಚ್ಛ	-8160
▁ಹೆಣ್ಣು	-8161
ysLuxury	-8162
▁ಸೆಕೆಂಡು	-8163
▁ಹೆಚ್ಚಾದ	-8164
▁ಹೇಗಾದರೂ	-8165
ನಾಗಿದ್ದನು	-8166
▁ಗ್ರಾಹಕರು	-8167
▁ಮೇಲಿನಿಂದ	-8168
▁ಪರಿಹಾರಗಳು	-8169
▁ಸಂಬಂಧಪಟ್ಟ	-8170
▁ಏನಾಯಿತಂದರೆ	-8171
▁ಕಾಣಿಸಿಕೊಂಡ	-8172
▁ಮೌಲ್ಯವನ್ನು	-8173
▁ಪಟ್ಟಣಗಳನ್ನು	-8174
▁ಸನ್ನಿಧಿಯಲ್ಲಿ	-8175
CM	-8176
LE	-8177
ii	-8178
ಆದ	-8179
ಫೈ	-8180
ಳಾ	-8181
▁;	-8182
ಲುಕ	-8183
▁85	-8184
▁ಐದ	-8185
▁ವಲ	-8186
=""&	-8187
ಂಡನ್	-8188
ೆಯಾದ	-8189
▁(15	-8190
▁Kon	-8191
▁ಚಳಿ	-8192
ished	-8193
ಗಿದ್ದ	-8194
ಜನ್ನು	-8195
▁ಓವರ್	-8196
▁ಚಲಾಯ	-8197
▁ದೂರದ	-8198
▁ಪಿಡಿ	-8199
▁ವಂತೆ	-8200
▁ಹೆಡ್	-8201
ಗ್ಲಾಸ್	-8202
ವಿತ್ತು	-8203
ೋತ್ಸಾಹ	-8204
▁ಎಸ್ತೇ	-8205
▁ನಿರೂಪ	-8206
▁ಪಾನೀಯ	-8207
▁ಯೋಹಾನ	-8208
▁ಲ್ಲದೆ	-8209
▁ಶಾಲೆಯ	-8210
ಸ್ವಾಮ್ಯ	-8211
ಿನಿಂದಲೂ	-8212
▁ಅಂದೆನು	-8213
▁ಅಧಿಪತಿ	-8214
▁ಕೆನಡಾದ	-8215
▁ಕ್ಯಾಪ್	-8216
▁ಗ್ಲಾಸ್	-8217
▁ಗೌಪ್ಯತಾ	-8218
▁ಹೇಗಂದರೆ	-8219
▁ಜಾಕ್ಪಾಟ್	-8220
▁ಬೆಳವಣಿಗೆ	-8221
▁ಮಾತನಾಡಲು	-8222
▁ವಾಸಮಾಡುವ	-8223
▁ಶಾಸ್ತ್ರಿ	-8224
▁ಹೊಲದಲ್ಲಿ	-8225
▁ರೇಖಾಚಿತ್ರ	-8226
▁ಸ್ಪ್ರಿಂಗ್	-8227
▁ಸ್ವಾತಂತ್ರ್ಯ	-8228
▁ಸ್ಟ್ಯಾಂಡರ್ಡ್	-8229
▁ಬದಲಾವಣೆಗಳನ್ನು	-8230
Cl	-8231
png	-8232
raw	-8233
tic	-8234
▁ಫೌ	-8235
▁ಷೇ	-8236
edia	-8237
ಗಿನ್	-8238
ವಾನ್	-8239
▁ಕದಲ	-8240
▁ಕ್ಯ	-8241
▁ತ್ವ	-8242
▁ಲೋಹ	-8243
ಮುಂದೆ	-8244
ಾಯ್ಡ್	-8245
▁hack	-8246
▁ಗುರಾ	-8247
▁ದಾಳಿ	-8248
▁ದೋಸೆ	-8249
▁ಬಿಟ್	-8250
▁ಹೊಲದ	-8251
ecraft	-8252
ಟ್ಯಾಗ್	-8253
ತ್ತನೆಯ	-8254
▁ಕಾವಲು	-8255
▁ಕಿರಿಯ	-8256
▁ಬಾಯಿಯ	-8257
▁ಸಿಂಹದ	-8258
▁ಸುದ್ದ	-8259
▁ಮೊರ್ದೆ	-8260
▁ಮ್ಯಾನೇ	-8261
▁ಶಿಲುಬೆ	-8262
ವಾಗುವಂತೆ	-8263
▁Quality	-8264
▁ಅಸ್ವಸ್ಥ	-8265
▁ಒಬ್ಬರಿಗ	-8266
▁ನಿಖರವಾದ	-8267
▁ಪಟ್ಟಣಗಳ	-8268
▁ಪೇಟೆಂಟ್	-8269
▁ಮಾತುಗಳು	-8270
▁ಮಾಡಿದವರು	-8271
ಮಾಡುತ್ತಾನೆ	-8272
▁ಭಾರತದಲ್ಲಿ	-8273
▁ಪ್ರದೇಶಗಳಲ್ಲಿ	-8274
▁ಒಬ್ಬರಿಗೊಬ್ಬರು	-8275
VD	-8276
ve	-8277
rit	-8278
ಯಾನ	-8279
▁56	-8280
▁77	-8281
▁ನದ	-8282
ದ್ದೇ	-8283
ರಿಡ್	-8284
ಾಗಾರ	-8285
ುವಾಗ	-8286
ಟಿಕಲ್	-8287
ಟಿಟ್ಯ	-8288
ದೊಳಗೆ	-8289
▁free	-8290
▁ಕನ್ಸ	-8291
▁ಜಾರ್	-8292
▁ಫರೋಹ	-8293
irater	-8294
ವಲ್ಲದೆ	-8295
▁ನನ್ನೂ	-8296
▁ಮಾತಿನ	-8297
▁ಸೇಂಟ್	-8298
▁ಒಬ್ಬನೇ	-8299
▁ಕಿತ್ತು	-8300
▁ಡೊಮೈನ್	-8301
▁ಫರೋಹನು	-8302
ರಿಗೋಸ್ಕರ	-8303
▁Gratuit	-8304
▁ಅನುಸರಿಸ	-8305
▁ಇಂಡಸ್ಟ್	-8306
▁ಕುರಿಮರಿ	-8307
▁ಸಾಧನಗಳು	-8308
ಾಗಿದ್ದೇನೆ	-8309
▁ಆಕೆಯನ್ನು	-8310
▁ಉಪಯೋಗಗಳು	-8311
▁ಪರಿಸ್ಥಿತ	-8312
▁ಮಾಡಲಿಲ್ಲ	-8313
▁ನೀಡುತ್ತೇವೆ	-8314
▁ಶಕ್ತಿಯನ್ನು	-8315
HH	-8316
ಶಯ	-8317
ೀಬ	-8318
011	-8319
ೀನಾ	-8320
▁Se	-8321
▁ಆಲ	-8322
ಂಚಿನ	-8323
ಒಂದು	-8324
ಟ್ರೋ	-8325
ಲಾಗ್	-8326
▁unl	-8327
▁ಕವಾ	-8328
▁ಬೆರ	-8329
ಬುದ್ಧ	-8330
ೇಶ್ವರ	-8331
▁ಅನುಯ	-8332
▁ಅವನೂ	-8333
▁ನಗರದ	-8334
▁ನಿಗೂ	-8335
▁ಫ್ಲೋ	-8336
▁ಬಳ್ಳ	-8337
▁ವಿಧಿ	-8338
▁ಸರ್ಪ	-8339
▁ಹಿಂಜ	-8340
rivate	-8341
▁ಇತರರು	-8342
▁ಒತ್ತಿ	-8343
▁ಬೆಳೆದ	-8344
▁ವಿದ್ಯ	-8345
▁ವಿಷಯದ	-8346
▁ಸಂಪತ್ತ	-8347
▁ಸೆಕ್ಸ್	-8348
▁Episode	-8349
▁ಒಂದನ್ನು	-8350
▁ಸಹೋದರರೂ	-8351
▁ಸಿಎನ್ಸಿ	-8352
▁ಕಡೆಯಲ್ಲಿ	-8353
▁ಸೂಕ್ತವಾದ	-8354
ವನಾಗಿದ್ದನು	-8355
▁ಸಂಸ್ಥೆಗಳು	-8356
▁ಸುಧಾರಿಸಲು	-8357
ುತ್ತಿದ್ದಾರೆ	-8358
▁ಕರೆಯಲ್ಪಡುವ	-8359
▁ಹೆಂಡತಿಯನ್ನು	-8360
);	-8361
AY	-8362
GD	-8363
▁\	-8364
esk	-8365
hel	-8366
ium	-8367
lin	-8368
ಚೀನ	-8369
anna	-8370
ucks	-8371
ಚಾರಿ	-8372
ಶ್ಚಾ	-8373
▁CHF	-8374
▁ಗಡಿ	-8375
▁ಹಿಮ	-8376
ಕೊಡುವ	-8377
▁ಆಯೋಗ	-8378
▁ದುರಾ	-8379
ಮಾಡಿರಿ	-8380
▁Piece	-8381
▁ಗಳಿಸಿ	-8382
▁ನಮೂನೆ	-8383
▁ನೆಟ್ಟ	-8384
▁ಬಲಹೀನ	-8385
▁ಮುಗಿದ	-8386
ಡೆಯನ್ನು	-8387
ರಿಸುವನು	-8388
▁ಡೇವಿಡ್	-8389
▁ಫೈಲ್ಗೆ	-8390
▁ಬದುಕುವ	-8391
▁ಬಿದಿರು	-8392
▁ಮಗುವಿನ	-8393
▁ಮೇರೆಗೆ	-8394
▁ಹೇಳಿದರೆ	-8395
▁ಡೇಟಾಬೇಸ್	-8396
▁ಮಕ್ಕಳಿಗೂ	-8397
ಾಗಿರುತ್ತದೆ	-8398
▁ಯೇಸುವನ್ನು	-8399
▁ವೈಜ್ಞಾನಿಕ	-8400
▁ಹೆಂಡತಿಯಾದ	-8401
▁TabletWise	-8402
▁ಮಾಡಿದ್ದರಿಂದ	-8403
▁ಹೀಗಿರುವದರಿಂದ	-8404
KW	-8405
▁೩	-8406
Com	-8407
ert	-8408
ಕಿನ	-8409
ಬೆಯ	-8410
▁51	-8411
▁ಮಳ	-8412
http	-8413
ಜಾನ್	-8414
ಮಂಡ್	-8415
ರಿಕೋ	-8416
▁ನೈಜ	-8417
ಹಿತ್ಯ	-8418
ಿಸ್ಟ್	-8419
▁team	-8420
▁ಕೋಟೆ	-8421
▁ಖರ್ಚ	-8422
▁ಮಗಳು	-8423
▁ಮಹಾನ	-8424
▁ಅಡ್ಡಬ	-8425
▁ಆಳವಾದ	-8426
▁ಕರುಣೆ	-8427
ಡೆಯಲ್ಲಿ	-8428
ಬಿಟ್ಟನು	-8429
▁ತಂದೆಗೆ	-8430
▁ತರಬೇಕು	-8431
▁ಯಾರಿಗೆ	-8432
▁ವಿಸ್ಮಯ	-8433
▁ತಲೆಯನ್ನು	-8434
ರಾಗಿದ್ದಾರೆ	-8435
▁ಜನರೆಲ್ಲರೂ	-8436
▁ಪ್ರೋತ್ಸಾಹ	-8437
▁ವಿಶ್ಲೇಷಣೆ	-8438
▁ಹೊಂದಾಣಿಕೆ	-8439
▁ಮಾತನಾಡುತ್ತ	-8440
▁ರಾಜ್ಯವನ್ನು	-8441
▁ಸುತ್ತಲಿರುವ	-8442
41	-8443
73	-8444
hk	-8445
ಸೌ	-8446
eth	-8447
ಕಾಯ	-8448
ಚ್ಯ	-8449
ಪಾವ	-8450
▁SP	-8451
ಂಭಾಗ	-8452
ದ್ದೂ	-8453
▁0.3	-8454
▁Kaz	-8455
▁our	-8456
▁ಹರಡ	-8457
angal	-8458
ಕರ್ಸ್	-8459
ಯಲ್ಲಿ	-8460
ಾಕಾರದ	-8461
▁ಏಳನೇ	-8462
▁ಕೋಟಿ	-8463
▁ಟ್ಯು	-8464
▁ಪ್ರೈ	-8465
▁ಲಾಗ್	-8466
▁ವುಡ್	-8467
▁ಸಿಹಿ	-8468
▁ಹೋರಾ	-8469
ations	-8470
ಲ್ಯಾಕ್	-8471
English	-8472
ಿಸಿಬಿಡು	-8473
▁ಮಾದರಿಯ	-8474
▁ಮುಖ್ಯಾ	-8475
ತೆಗಳನ್ನು	-8476
▁2018-10	-8477
▁ಆಸಕ್ತಿಯ	-8478
▁ಉಂಟಾಗುವ	-8479
▁ಒಳ್ಳೇದು	-8480
▁ಕೊಡುವನು	-8481
▁ಗೋತ್ರಗಳ	-8482
▁ಪ್ರಪಂಚದ	-8483
▁ಮುನ್ನೋಟ	-8484
▁ಸೇವಿಸುವ	-8485
▁ಹೊರತಾಗಿ	-8486
▁ಅದಕ್ಕವನು	-8487
▁ಕೇಂದ್ರೀಕ	-8488
▁ಸಹಿತವಾಗಿ	-8489
▁ಸೊಲೊಮೋನನ	-8490
▁WordPress	-8491
▁unlimited	-8492
▁ಕಂಡುಕೊಳ್ಳ	-8493
▁ಕತ್ತಿಯನ್ನು	-8494
▁ಭಿನ್ನತೆಗಳು	-8495
▁ರಾಜ್ಯದಲ್ಲಿ	-8496
▁ಸ್ಟೇನ್ಲೆಸ್	-8497
▁ಮನುಷ್ಯಕುಮಾರ	-8498
▁ಸಂಖ್ಯೆಯನ್ನು	-8499
▁ಮೈಕ್ರೋಸಾಫ್ಟ್	-8500
▁ವರ್ಗವಿಲ್ಲದ್ದು	-8501
UN	-8502
iy	-8503
800	-8504
eld	-8505
elo	-8506
▁(%	-8507
▁Gl	-8508
eter	-8509
ouse	-8510
shan	-8511
ತೆಗಳ	-8512
ವಾರದ	-8513
ಸುಗೆ	-8514
▁240	-8515
▁HGH	-8516
▁sex	-8517
▁ಕೋನ	-8518
ವನ್ನೆ	-8519
ೊಮ್ಮೆ	-8520
▁1200	-8521
▁ಕ್ಲೀ	-8522
▁ನಡುಗ	-8523
▁ಬುಕ್	-8524
▁ಮರಗಳ	-8525
▁ಸಂಕೋ	-8526
▁ಸಮತೋ	-8527
▁ಸ್ಕೇ	-8528
▁ಸ್ಟೆ	-8529
▁ಪರಿಮಳ	-8530
▁ಮಂತ್ರ	-8531
▁ಯಶಸ್ವ	-8532
lection	-8533
▁ಇಷ್ಟಪಡ	-8534
▁ಪೂರ್ವದ	-8535
▁ಬೆಸುಗೆ	-8536
▁ಸರ್ಕಾರದ	-8537
▁ಸಾಹಿತ್ಯ	-8538
▁ಹೇಳಬೇಕು	-8539
▁ಆರಂಭಿಸಲು	-8540
▁ನಿರ್ವಹಣಾ	-8541
▁ವರ್ಚುವಲ್	-8542
▁ಸುರಕ್ಷತೆ	-8543
▁ದಾರಿಯಲ್ಲಿ	-8544
▁ಕಿಟಕಿಯನ್ನು	-8545
▁ಭಾವಿಸುತ್ತೇನೆ	-8546
81	-8547
MM	-8548
aj	-8549
uj	-8550
-23	-8551
ಕಗಳ	-8552
ನಗು	-8553
ರ್ಣ	-8554
▁76	-8555
reat	-8556
ukhi	-8557
ಬಿಡು	-8558
ಸಿಟಿ	-8559
ಾರನು	-8560
▁19:	-8561
▁Jin	-8562
▁ಮಗಳ	-8563
iness	-8564
ಳಿಗಳು	-8565
▁ಕೈಕೆ	-8566
▁ಟರ್ಮ	-8567
▁ಟ್ರೆ	-8568
▁ನಾನೂ	-8569
▁ಮಗನೂ	-8570
▁ಮೂಡಣ	-8571
▁ಆದರ್ಶ	-8572
▁ಕಾಯುವ	-8573
▁ಕೊರತೆ	-8574
▁ಗ್ರಾಂ	-8575
▁ಜಿಎಸ್	-8576
▁ಸಹಯೋಗ	-8577
▁ಸೇರಿಕ	-8578
Pirater	-8579
ಾಧಿಕಾರಿ	-8580
▁ಕಡತಗಳು	-8581
▁ಕರುಣೆಯ	-8582
▁ಘಟಕಗಳು	-8583
▁ಪಾಪಮಾಡ	-8584
▁ಸಿಎಎಸ್	-8585
▁ಹೇಳಿರಿ	-8586
▁ಆದುಕೊಂಡ	-8587
▁ತೀರ್ಮಾನ	-8588
▁ಪ್ರಸಕ್ತ	-8589
▁ಎಫ್ರಾಯಾಮ	-8590
ಸ್ಕ್ರಿಪ್ಟ್	-8591
▁ಕೊನೆಯದಾಗಿ	-8592
▁ಖಾತೆಯನ್ನು	-8593
▁ಹಿಜ್ಕೀಯನು	-8594
▁ಕೊಡುತ್ತೇನೆ	-8595
▁ನಿಯಮಗಳನ್ನು	-8596
▁ಮಾಡಿದ್ದೇನೆ	-8597
▁ಸಂಯೋಜನೆಗಳು	-8598
52	-8599
sk	-8600
ಡೀ	-8601
122	-8602
put	-8603
urr	-8604
▁0,	-8605
oday	-8606
ಾಕರ್	-8607
▁180	-8608
▁ಜನಸ	-8609
▁ನಿಷ	-8610
▁ವಾಯ	-8611
▁ಸಂಧ	-8612
▁ಸಹಜ	-8613
/2019	-8614
board	-8615
ವನ್ನೇ	-8616
ಾಣಿಕೆ	-8617
▁HTTP	-8618
▁ಅನಿಲ	-8619
▁ಆಪಲ್	-8620
▁ಕರೆದ	-8621
▁ನೀನೂ	-8622
ರಬಹುದು	-8623
▁ಉಪದೇಶ	-8624
▁ನಿನಗೂ	-8625
ತ್ತುಗಳು	-8626
▁ಟರ್ಮಿನ	-8627
▁ಬುಗ್ಗೆ	-8628
▁ಯಾರಿಗೂ	-8629
▁ಯುಗಯುಗ	-8630
▁ಯೆರಿಕೋ	-8631
▁ಸತ್ತವರ	-8632
angalore	-8633
▁ಅರ್ಪಣೆಯ	-8634
▁ಕಳುಹಿಸು	-8635
▁ಕಾರ್ಮಿಕ	-8636
▁ಜೀವದಾಣೆ	-8637
▁ಬರಮಾಡಿದ	-8638
▁ಭಾಗವಾಗಿ	-8639
▁ವಿಷಯವಾದ	-8640
▁ಸೀರಿಯಲ್	-8641
▁December	-8642
▁ಆಯ್ಕೆಗಳು	-8643
▁ಆಲಯವನ್ನು	-8644
▁ನಿತ್ಯವಾದ	-8645
▁ಪ್ರೀಮಿಯಂ	-8646
▁ಫಾರ್ಮುಲಾ	-8647
▁ಭಾಗದಲ್ಲಿ	-8648
▁ವೈರ್ಲೆಸ್	-8649
▁ಪರಿಣಾಮವಾಗಿ	-8650
▁ಫಿಲಿಷ್ಟಿಯರು	-8651
▁ಪರಿಹಾರಗಳನ್ನು	-8652
▁ಉದ್ದೇಶಗಳಿಗಾಗಿ	-8653
203	-8654
ಷ್ಪ	-8655
ಿಕಾ	-8656
▁Rs	-8657
ಟಿಎಂ	-8658
▁Car	-8659
▁ನಕಲ	-8660
▁ನಾಚ	-8661
▁ಬಾಷ	-8662
▁ಹಾಮ	-8663
ಿದೆವು	-8664
▁Best	-8665
▁Oper	-8666
▁ಇಲಾಖ	-8667
▁ಓಪನ್	-8668
▁ಕಡಿಯ	-8669
▁ಕೇಸ್	-8670
▁ಚಿದ್	-8671
▁ಪಿನ್	-8672
▁ಫೆಬ್	-8673
▁ಸಭಾಮ	-8674
▁ಜೀವಿತ	-8675
▁ಹೊಯ್ಯ	-8676
ಟೋರಿಯಲ್	-8677
ಾರದರ್ಶಕ	-8678
ೀಕರಿಸುವ	-8679
▁ತಲಾಂತು	-8680
▁ನಾಶವಾಗ	-8681
▁ನಿರೋಧಕ	-8682
ಿಯಾಗಿರುವ	-8683
▁Company	-8684
▁YouTube	-8685
▁ಅಬೀಮೆಲೆ	-8686
▁ಅಮ್ಮೋನನ	-8687
▁ಫ್ರೆಂಚ್	-8688
▁ಉತ್ತಮವಾದ	-8689
▁ಹುಟ್ಟಿದನು	-8690
▁ವಿವರಗಳನ್ನು	-8691
▁ಮಾರ್ಗಗಳನ್ನು	-8692
/1	-8693
IF	-8694
WD	-8695
ao	-8696
ke	-8697
-00	-8698
ಔಟ್	-8699
ಪಡಿ	-8700
ಸಂಪ	-8701
ಾಯಾ	-8702
ಿಸೂ	-8703
▁se	-8704
ಸ್ಥಳ	-8705
▁ನನು	-8706
▁ಬೆಲ	-8707
▁ಮಿರ	-8708
▁ಸೀಮ	-8709
water	-8710
ನಿಯನ್	-8711
ವರ್ತನ	-8712
ವೆಲ್ಲ	-8713
ಿಕೆಟ್	-8714
▁ಉಣ್ಣ	-8715
▁ಕಾಲದ	-8716
▁ಗೈಡ್	-8717
▁ಪ್ರಕ	-8718
▁ಹಂತದ	-8719
▁ದರಿಂದ	-8720
▁ಪುಟ್ಟ	-8721
▁ರೋಲರ್	-8722
▁Suenee	-8723
▁ಆತ್ಮೀಯ	-8724
▁ಉಳಿಸಲು	-8725
▁ನೋಡಿರಿ	-8726
▁ಪ್ಲೇಟ್	-8727
▁ಯಾಜಕರೂ	-8728
▁ವಯಸ್ಸು	-8729
▁ಹೊಂದಲು	-8730
▁ಟ್ಯಾಂಕ್	-8731
▁ಪೂರೈಸಲು	-8732
ರಿಸಲ್ಪಟ್ಟ	-8733
▁ಎಲ್ಲರಿಗೂ	-8734
▁ನಿರ್ವಾಹಕ	-8735
▁ಶಿಲುಬೆಗೆ	-8736
▁ತಿನ್ನಬೇಕು	-8737
▁ಫಿಟ್ಟಿಂಗ್	-8738
▁ಬೆಟ್ಟಿಂಗ್	-8739
▁ಸಂತೋಷದಿಂದ	-8740
▁ಕೊಡುಗೆಗಳನ್ನು	-8741
▁ಪ್ರಸ್ತಾಪವನ್ನು	-8742
ರಡ	-8743
ಹೌ	-8744
24.	-8745
ಬಿನ	-8746
▁ಡ್	-8747
view	-8748
ದೆನು	-8749
ಬರುವ	-8750
ಲಿಂಗ	-8751
ಳಿದು	-8752
ವಿಡ್	-8753
ಹಾಗೆ	-8754
▁ಉರು	-8755
▁ಏನೋ	-8756
▁ಕಣಿ	-8757
▁ತಾಲ	-8758
▁೨೦೧	-8759
erson	-8760
erver	-8761
ocket	-8762
ಲಲ್ಲಿ	-8763
ಲೆಗಳು	-8764
ವಿಳಾಸ	-8765
▁ಆತಿಥ	-8766
▁ಕಳೆಯ	-8767
▁ಡೆಲ್	-8768
▁ದಕ್ಷ	-8769
▁ವಲಸೆ	-8770
▁ಹರಿಯ	-8771
tablet	-8772
▁	-8773
್	-8774
ಿ	-8775
ನ	-8776
ು	-8777
ರ	-8778
ದ	-8779
ಾ	-8780
ೆ	-8781
ವ	-8782
ತ	-8783
ಗ	-8784
ಲ	-8785
ಕ	-8786
ಸ	-8787
ಯ	-8788
ಮ	-8789
ಂ	-8790
ಳ	-8791
ಪ	-8792
ಡ	-8793
ಟ	-8794
ೇ	-8795
ಬ	-8796
ಹ	-8797
.	-8798
ಅ	-8799
ೂ	-8800
,	-8801
e	-8802
ೋ	-8803
0	-8804
ೊ	-8805
a	-8806
ೀ	-8807
1	-8808
o	-8809
ಆ	-8810
i	-8811
2	-8812
ಚ	-8813
t	-8814
n	-8815
ಣ	-8816
ಜ	-8817
-	-8818
ಶ	-8819
ಷ	-8820
ಇ	-8821
r	-8822
s	-8823
ಎ	-8824
m	-8825
l	-8826
ಧ	-8827
:	-8828
ೈ	-8829
c	-8830
5	-8831
3	-8832
;	-8833
ಭ	-8834
h	-8835
8	-8836
d	-8837
u	-8838
4	-8839
p	-8840
ಥ	-8841
ಒ	-8842
6	-8843
9	-8844
)	-8845
(	-8846
ಉ	-8847
g	-8848
7	-8849
ಫ	-8850
/	-8851
S	-8852
C	-8853
ಖ	-8854
y	-8855
A	-8856
P	-8857
ಈ	-8858
b	-8859
w	-8860
k	-8861
T	-8862
f	-8863
ೃ	-8864
M	-8865
_	-8866
N	-8867
D	-8868
ೌ	-8869
v	-8870
E	-8871
R	-8872
B	-8873
L	-8874
I	-8875
O	-8876
H	-8877
ಏ	-8878
F	-8879
"	-8880
G	-8881
W	-8882
?	-8883
K	-8884
&	-8885
x	-8886
U	-8887
ಐ	-8888
ಞ	-8889
V	-8890
X	-8891
%	-8892
@	-8893
ಓ	-8894
$	-8895
ಠ	-8896
!	-8897
–	-8898
z	-8899
ಘ	-8900
+	-8901
J	-8902
*	-8903
Y	-8904
'	-8905
=	-8906
j	-8907
[	-8908
]	-8909
#	-8910
Q	-8911
Z	-8912
ಃ	-8913
ಔ	-8914
q	-8915
©	-8916
ಛ	-8917
£	-8918
ಊ	-8919
”	-8920
»	-8921
“	-8922
\	-8923
೦	-8924
’	-8925
€	-8926
°	-8927
ಝ	-8928
ಢ	-8929
•	-8930
~	-8931
‍	-8932
೧	-8933
о	-8934
೨	-8935
—	-8936
е	-8937
}	-8938
{	-8939
ა	-8940
а	-8941
×	-8942
и	-8943
→	-8944
ೕ	-8945
н	-8946
	-8947
с	-8948
±	-8949
т	-8950
ე	-8951
✔	-8952
р	-8953
`	-8954
‘	-8955
೯	-8956
რ	-8957
к	-8958
ಱ	-8959
®	-8960
დ	-8961
೩	-8962
მ	-8963
ო	-8964
в	-8965
·	-8966
л	-8967
೫	-8968
«	-8969
é	-8970
წ	-8971
გ	-8972
೮	-8973
≤	-8974
à	-8975
у	-8976
ಋ	-8977
≥	-8978
೪	-8979
м	-8980
д	-8981
೬	-8982
ь	-8983
೭	-8984
★	-8985
ы	-8986
п	-8987
฿	-8988
з	-8989
ი	-8990
č	-8991
ö	-8992
б	-8993
г	-8994
➖	-8995
ч	-8996
