<unk>	0
<s>	0
</s>	0
▁ক	-0
াৰ	-1
▁ব	-2
▁স	-3
▁প	-4
▁কৰ	-5
্ৰ	-6
্য	-7
য়	-8
▁ন	-9
ৰ্	-10
▁আ	-11
▁অ	-12
ান	-13
্ত	-14
▁হ	-15
▁(	-16
▁এ	-17
▁প্ৰ	-18
িক	-19
িত	-20
▁ম	-21
িব	-22
্ট	-23
াই	-24
াম	-25
▁ত	-26
▁দ	-27
▁কৰা	-28
▁চ	-29
লে	-30
▁কৰক	-31
▁ব্য	-32
স্	-33
াব	-34
ক্	-35
▁উ	-36
▁পৰ	-37
▁ফ	-38
▁সম	-39
্ব	-40
▁%	-41
▁সং	-42
▁ৰ	-43
সম	-44
্ড	-45
▁বি	-46
ছে	-47
▁ল	-48
িয়	-49
াল	-50
ূহ	-51
ক্ষ	-52
▁(_	-53
▁নি	-54
▁য	-55
সমূহ	-56
▁অন	-57
▁কৰিব	-58
▁ই	-59
ুন	-60
▁ড	-61
স্থ	-62
তি	-63
me	-64
▁আৰ	-65
টা	-66
াবে	-67
্প	-68
াপ	-69
তে	-70
ন্	-71
ৱা	-72
▁'	-73
▁গ	-74
on	-75
োগ	-76
োন	-77
▁ব্যৱ	-78
েৰ	-79
ায়	-80
বা	-81
ৰ্থ	-82
াক	-83
▁অনু	-84
▁আপ	-85
er	-86
▁এই	-87
▁শ	-88
টি	-89
▁এটা	-90
▁ভ	-91
েই	-92
াত	-93
▁বাবে	-94
িন	-95
▁আৰু	-96
োল	-97
্যা	-98
▁নিৰ্	-99
▁বা	-100
▁হৈ	-101
ৰ্ত	-102
্ভ	-103
ame	-104
▁ব্যৱহ	-105
ৰণ	-106
মা	-107
ti	-108
েল	-109
না	-110
▁স্	-111
▁।	-112
ত্ৰ	-113
ষ্ট	-114
ৱাৰ	-115
শন	-116
লি	-117
্ডাৰ	-118
▁হৈছে	-119
ক্ৰ	-120
▁বাৰ	-121
লৈ	-122
ক্ত	-123
▁ব্যৱহাৰ	-124
in	-125
▁জ	-126
কা	-127
▁ট	-128
ীয়	-129
োৱা	-130
ar	-131
Name	-132
িচ	-133
▁উপ	-134
েন	-135
▁নে	-136
▁'%	-137
্ন	-138
▁পৰা	-139
▁"	-140
িৰ	-141
িপ	-142
or	-143
▁খ	-144
▁ছ	-145
াইল	-146
▁ব্যৰ্থ	-147
কাৰ	-148
▁ধ	-149
▁কাম	-150
াৰা	-151
▁নহ	-152
্তা	-153
▁প্ৰদ	-154
▁দ্ব	-155
▁ফোল	-156
▁তথ	-157
স্ত	-158
ন্ধ	-159
an	-160
মান	-161
▁ফোল্ডাৰ	-162
▁-	-163
▁ডি	-164
টো	-165
যোগ	-166
িয়া	-167
▁স্থ	-168
▁কৰি	-169
দ্	-170
▁1	-171
িল	-172
▁নাম	-173
▁তথ্য	-174
নি	-175
tion	-176
ৃত	-177
িকা	-178
▁C	-179
▁নহয়	-180
▁কাৰ	-181
ৰ্শন	-182
▁দ্বাৰা	-183
েক	-184
কল	-185
▁অব	-186
্ল	-187
্চ	-188
ষ্	-189
en	-190
ওক	-191
ol	-192
▁থ	-193
োনো	-194
জন	-195
..	-196
▁সম্প	-197
ূৰ্	-198
▁S	-199
▁ফাইল	-200
ন্ট	-201
গ্ৰ	-202
▁না	-203
▁বাৰ্তা	-204
...	-205
▁নাই	-206
ধাৰ	-207
ঠিক	-208
ান্ত	-209
িহ	-210
োৱাৰ	-211
স্ক	-212
ৰক্ষ	-213
te	-214
াগ	-215
ুনি	-216
বাচ	-217
▁কি	-218
▁স্ব	-219
ুল	-220
▁কোনো	-221
re	-222
▁E	-223
্ষ	-224
al	-225
om	-226
▁সময়	-227
াদ	-228
কে	-229
▁হয়	-230
▁লি	-231
কৰ	-232
▁নথ	-233
▁মান	-234
ুক্ত	-235
▁s	-236
▁আপুনি	-237
▁তাল	-238
বি	-239
▁P	-240
▁প্ৰদৰ্শন	-241
েশ	-242
▁অৱ	-243
▁আপোন	-244
নৰ	-245
ুৱা	-246
ন্ত	-247
ূপ	-248
স্ট	-249
▁স্থান	-250
▁নিৰ্বাচ	-251
ীৰ	-252
▁কৰো	-253
th	-254
্লে	-255
তুন	-256
ৰি	-257
▁কৰিবলৈ	-258
▁G	-259
ম্ভ	-260
ষ্ঠ	-261
ic	-262
িপত্ৰ	-263
▁নতুন	-264
মি	-265
েম	-266
োৰ	-267
▁নথিপত্ৰ	-268
▁কৰিবলে	-269
েট	-270
তা	-271
মাণ	-272
ক্স	-273
ব্	-274
ডি	-275
un	-276
্জ	-277
▁2	-278
▁পৰিচ	-279
▁সৈ	-280
▁ঠিক	-281
▁I	-282
েইল	-283
▁সৈতে	-284
্ম	-285
স্থিত	-286
▁পৰিব	-287
▁আপোনাৰ	-288
্য্য	-289
▁নোৱাৰ	-290
্ৰু	-291
কান	-292
le	-293
াৰে	-294
is	-295
ৱে	-296
▁কৰাৰ	-297
ল্প	-298
তৰ	-299
েখ	-300
▁চম	-301
ইন	-302
ন্ধান	-303
▁বৈ	-304
িহ্ন	-305
▁কে	-306
▁সংযোগ	-307
▁সংৰক্ষ	-308
gt	-309
ch	-310
▁কৰে	-311
িকল্প	-312
চ্	-313
িষ্ট	-314
াপ্ত	-315
se	-316
▁পা	-317
▁পুন	-318
▁মা	-319
▁(1	-320
▁ক্ষ	-321
la	-322
▁যোগ	-323
▁T	-324
ভা	-325
▁নোৱাৰি	-326
্ঞ	-327
▁হব	-328
ুৰ	-329
▁A	-330
▁লিখ	-331
▁আছে	-332
▁চমকান	-333
▁অৱস্থ	-334
প্ৰ	-335
▁আব	-336
▁তালিকা	-337
▁এক	-338
থবা	-339
▁ত্ৰু	-340
▁পৰিবৰ্ত	-341
▁সংৰক্ষণ	-342
▁ত্ৰুটি	-343
pa	-344
▁অথবা	-345
ঞ্জ	-346
▁সা	-347
ড়	-348
গত	-349
জ্ঞ	-350
দ্ধ	-351
▁ঠিকনা	-352
ক্ৰিয়	-353
▁M	-354
ক্ষা	-355
ধ্য	-356
ধিক	-357
ংশ	-358
▁দেখ	-359
▁সম্ভ	-360
it	-361
ৃষ্ঠ	-362
গ্ৰহ	-363
▁বিন	-364
de	-365
▁প্ৰতি	-366
্র	-367
▁আৰম্ভ	-368
▁ঘ	-369
▁লে	-370
▁চিহ্ন	-371
▁ও	-372
ution	-373
▁সু	-374
েত্ৰ	-375
▁ইয়	-376
nt	-377
পৰ	-378
াওক	-379
▁পুনৰ	-380
▁উল	-381
ৰ্ক	-382
ষ্টি	-383
):	-384
যায়	-385
▁উপস্থিত	-386
▁পৰিচয়	-387
পি	-388
দি	-389
শিষ্ট	-390
vol	-391
ামত	-392
ন্দ	-393
▁বৰ্ত	-394
▁কাৰ্য্য	-395
▁পৰিবৰ্তন	-396
্ক	-397
ূৰ্ণ	-398
▁সহ	-399
ss	-400
ন্ন	-401
▁মত	-402
of	-403
el	-404
াইচ	-405
সমূহৰ	-406
ment	-407
ইন্ড	-408
00	-409
volution	-410
ma	-411
লো	-412
ঁতে	-413
্যাস	-414
▁উইন্ড	-415
▁বৰ্তমান	-416
▁(2	-417
▁মতামত	-418
▁D	-419
▁সে	-420
▁ডিভ	-421
▁সৃ	-422
ুক	-423
▁পৰি	-424
▁Evolution	-425
▁বিশ	-426
▁ডিভাইচ	-427
ধাৰণ	-428
▁সকল	-429
am	-430
▁আম	-431
▁অনুস	-432
ৰ্ট	-433
▁নিৰ্বাচিত	-434
ফল	-435
ব্দ	-436
্ৰা	-437
▁F	-438
ঢ়	-439
▁প্ৰয়	-440
েড	-441
▁প্ৰাপ্ত	-442
েষ	-443
হা	-444
▁চিহ্নিত	-445
ণ্ড	-446
▁B	-447
চ্ছ	-448
▁ডিস্ক	-449
ালী	-450
স্তু	-451
ৰূপ	-452
কাৰী	-453
ro	-454
চি	-455
খ্যা	-456
▁চু	-457
▁L	-458
ূৰ্ব	-459
▁সমৰ্থ	-460
▁h	-461
ck	-462
াইন	-463
▁b	-464
▁ছবি	-465
ভি	-466
▁U	-467
▁N	-468
▁বহ	-469
দেশ	-470
▁c	-471
▁সৃষ্টি	-472
▁বিন্যাস	-473
▁a	-474
▁ভি	-475
ত্ত	-476
▁অসম	-477
to	-478
ীয়া	-479
▁খোল	-480
িম	-481
▁ধৰণ	-482
omment	-483
শিত	-484
ুট	-485
▁=	-486
ক্তি	-487
বাৰ	-488
▁বৈশিষ্ট	-489
ge	-490
াৰি	-491
▁p	-492
▁পৃষ্ঠ	-493
▁বিষ	-494
ৰ্তী	-495
াচ	-496
▁n	-497
▁হোৱা	-498
▁নাযায়	-499
▁3	-500
▁অংশ	-501
▁আঁ	-502
▁বিষয়	-503
ra	-504
ান্তৰ	-505
চু	-506
st	-507
▁কৰ্ম	-508
lo	-509
▁টে	-510
▁কৰোঁতে	-511
ূচ	-512
ri	-513
▁=&	-514
▁মু	-515
▁অন্ত	-516
ডিঅ	-517
▁সৰ্	-518
▁বন্ধ	-519
▁সকলো	-520
▁অক্ষ	-521
▁পূৰ্ব	-522
কৰণ	-523
',	-524
স্থাপ	-525
▁বিকল্প	-526
▁১	-527
▁ইন	-528
et	-529
▁প্ৰমাণ	-530
tt	-531
pe	-532
▁ডা	-533
খিত	-534
▁প্ৰত	-535
▁অনুম	-536
যুক্ত	-537
▁লগ	-538
▁সন্ধান	-539
োজন	-540
▁যে	-541
াৰ্ভ	-542
োধ	-543
েইন	-544
ঞ্চ	-545
▁ক্ষেত্ৰ	-546
▁ৰা	-547
ct	-548
োম	-549
িয়ে	-550
il	-551
চুমি	-552
▁চুমা	-553
▁চুমাচুমি	-554
▁Name	-555
গল	-556
▁/	-557
▁উদ্	-558
▁সংহ	-559
▁মেইল	-560
1)	-561
▁যদি	-562
▁অনুগ্ৰহ	-563
ছিল	-564
▁সংখ্যা	-565
di	-566
▁পোৱা	-567
খ্য	-568
কি	-569
▁:	-570
▁এন	-571
at	-572
▁উইন্ডো	-573
0)	-574
াহ	-575
▁স্বা	-576
োড	-577
▁একা	-578
▁m	-579
ৰ্ষ	-580
▁অন্য	-581
▁নেট	-582
সং	-583
টভ	-584
বান	-585
▁চমকানি	-586
▁f	-587
▁সত	-588
▁থাক	-589
োৰ্ট	-590
▁হিচ	-591
্লিক	-592
▁আই	-593
মেইল	-594
ৎস	-595
▁বী	-596
▁সম্পাদ	-597
▁প্ৰেৰ	-598
াৰ্ভাৰ	-599
▁হিচাপ	-600
ক্ৰান্ত	-601
▁সংহতি	-602
8)	-603
▁_	-604
ন্ত্ৰ	-605
রী	-606
▁সাম	-607
িয়ান	-608
▁দেখুৱা	-609
▁মি	-610
3)	-611
▁ব্যৱহৃত	-612
▁পৰী	-613
▁নিৰ্ধাৰণ	-614
▁বৈশিষ্ট্য	-615
▁সম্ভৱ	-616
▁X	-617
▁সক্ৰিয়	-618
▁সংক্ৰান্ত	-619
5)	-620
▁(4	-621
▁২	-622
▁"%	-623
▁কাৰণ	-624
2)	-625
0}	-626
ce	-627
{0}	-628
▁পাৰে	-629
7)	-630
▁(5	-631
▁লা	-632
01	-633
▁বস্তু	-634
ৈধ	-635
লচ	-636
▁লাগ	-637
▁স্থানান্তৰ	-638
▁&	-639
শ্চ	-640
▁আঁতৰ	-641
ীন	-642
▁অনুসন্ধান	-643
ing	-644
▁নিৰ্মাণ	-645
▁H	-646
শ্য	-647
ভাৱে	-648
6)	-649
ৰা	-650
ূল	-651
▁পাৰ	-652
▁জন	-653
▁R	-654
▁যি	-655
ot	-656
▁ধাৰ	-657
▁K	-658
▁পৃষ্ঠা	-659
▁উল্লে	-660
ষণ	-661
▁দু	-662
▁অবৈধ	-663
(_	-664
▁গু	-665
স্থা	-666
খন	-667
(2	-668
▁নকৰ	-669
েন্ট	-670
▁আন	-671
▁কম	-672
▁পাছ	-673
▁চমকানো	-674
াইভ	-675
▁ব্যব	-676
▁Comment	-677
da	-678
lt	-679
▁গ্ৰ	-680
9)	-681
ওঁ	-682
ৰৰ	-683
▁of	-684
▁পি	-685
4)	-686
াতু	-687
▁শৃ	-688
▁চাৰ্ভাৰ	-689
েচ	-690
▁কল	-691
ed	-692
িং	-693
▁ভা	-694
▁উপল	-695
▁থকা	-696
▁নিৰ্বাচন	-697
▁ছলচ	-698
▁সহায়	-699
▁নগল	-700
▁ৰূপ	-701
es	-702
নিম	-703
▁হিচাপে	-704
ভুক্ত	-705
গালী	-706
াতুরী	-707
▁শৃগালী	-708
▁ছলচাতুরী	-709
▁প্ৰয়োজন	-710
▁হল	-711
▁4	-712
ৱাৰ্ড	-713
▁অক্ষম	-714
তিয়া	-715
os	-716
স্থান	-717
ব্ধ	-718
▁সম্পূৰ্ণ	-719
ty	-720
▁সমৰ্থিত	-721
▁কর	-722
▁কপি	-723
)...	-724
▁বিচ	-725
▁উপলব্ধ	-726
াৰী	-727
িক্ত	-728
ুম	-729
ur	-730
নাৰ	-731
▁কিন	-732
us	-733
ব্য	-734
লিখিত	-735
▁সৰ্ব	-736
▁নেটৱাৰ	-737
per	-738
▁দি	-739
ঙ্	-740
▁আলো	-741
তিৰ	-742
▁চল	-743
▁ৰঙ	-744
▁মেম	-745
▁গো	-746
▁ব্যক্তি	-747
▁0	-748
বোৰ	-749
▁th	-750
উন্ট	-751
ৰত	-752
নী	-753
বৰ্তী	-754
ুলি	-755
▁w	-756
▁কৰোতে	-757
▁সংস্ক	-758
id	-759
জ্ঞাত	-760
ৱল	-761
▁তে	-762
ক্ষৰ	-763
ছু	-764
▁বাৰ্ত	-765
▁স্ট	-766
ত্যা	-767
ম্ব	-768
▁অন্তৰ্	-769
▁দেখুৱাওক	-770
▁কা	-771
িকল্পিত	-772
▁v	-773
▁সমস	-774
শ্চিত	-775
ৰ্থবান	-776
▁ৱে	-777
▁পঢ়	-778
াস	-779
▁ভাৰ	-780
▁নিম	-781
▁পৰীক্ষা	-782
তিল	-783
ীত	-784
▁5	-785
▁অধিক	-786
▁মচি	-787
▁নিয়	-788
▁উত্ত	-789
ানৰ	-790
ধ্যে	-791
▁শব্দ	-792
ab	-793
ttp	-794
ng	-795
▁ফল	-796
▁প্র	-797
▁স্ত	-798
▁বাতিল	-799
স্ব	-800
োঁ	-801
▁আবৃত	-802
▁পেল	-803
ow	-804
য়া	-805
▁(3	-806
▁সেই	-807
▁একটি	-808
▁অৱস্থা	-809
▁আগ	-810
যোগ্য	-811
▁এপ	-812
qu	-813
েছে	-814
▁সৰ	-815
ate	-816
▁name	-817
▁বাছ	-818
াইট	-819
▁সংস্কৰণ	-820
type	-821
▁J	-822
▁ৰং	-823
▁অজ্ঞাত	-824
▁নেটৱাৰ্ক	-825
iz	-826
▁[	-827
্স	-828
ew	-829
পত্ৰ	-830
▁নিম্ন	-831
লেন	-832
ৰ্ড	-833
▁পাছৱাৰ্ড	-834
▁পঠ	-835
পঞ্জ	-836
▁উৎস	-837
▁ৱেব	-838
▁অবিকল্পিত	-839
oo	-840
▁আবৰ্	-841
▁লৈ	-842
শ্ব	-843
▁চি	-844
উট	-845
ig	-846
প্ত	-847
ৰোধ	-848
▁প্ৰদান	-849
▁প্ৰেৰণ	-850
ad	-851
▁অপ	-852
ধি	-853
য়াৰ	-854
েষ্ট	-855
আপ	-856
▁ওপৰ	-857
ap	-858
েক্ট	-859
▁ভিডিঅ	-860
▁ইতি	-861
্ৰে	-862
নে	-863
ard	-864
তাৰ	-865
▁(%	-866
▁তালিক	-867
▁আকাৰ	-868
হণ	-869
ার	-870
▁অনুমতি	-871
",	-872
▁দিন	-873
▁W	-874
দেশ্য	-875
▁সমস্যা	-876
▁বিৱ	-877
িন্ট	-878
▁http	-879
▁বিনিম	-880
▁বিনিময়	-881
▁সুৰক্ষ	-882
বে	-883
ক্সট	-884
▁উদ্দেশ্য	-885
ub	-886
▁ইম	-887
▁দিয়া	-888
▁O	-889
▁কেৱল	-890
র্	-891
▁লাগিব	-892
▁গণ	-893
উন	-894
ort	-895
▁বৈধ	-896
▁নিশ্চিত	-897
হাৰ	-898
▁ইয়াৰ	-899
▁পথ	-900
▁আতৰ	-901
▁বে	-902
▁বৰ্তমানে	-903
▁কিছু	-904
ৰে	-905
▁V	-906
ায়ী	-907
ৰূপে	-908
ূম	-909
▁“	-910
op	-911
▁সেৱ	-912
ংগ	-913
ey	-914
চ্চ	-915
াৰ্	-916
▁ইয়াক	-917
▁ডম	-918
ক্ৰিপ	-919
দ্য	-920
▁টি	-921
▁পিছ	-922
tr	-923
ize	-924
▁ভাষ	-925
লেন্ডাৰ	-926
্তু	-927
▁l	-928
lab	-929
ধান	-930
ভাবে	-931
▁খেল	-932
▁বাৰ্তাৰ	-933
▁বৰ্ষ	-934
▁অন্তৰ্ভুক্ত	-935
জি	-936
▁অৱস্থান	-937
▁কেলেন্ডাৰ	-938
▁অভি	-939
▁জন্য	-940
ve	-941
▁সংযুক্ত	-942
\\	-943
ৰ্দ	-944
▁কিন্তু	-945
(4	-946
াইৰ	-947
▁বাছক	-948
ex	-949
▁UR	-950
▁মে	-951
িনি	-952
▁লাটভ	-953
থম	-954
AP	-955
▁তাৰ	-956
▁বৰ্ষপঞ্জ	-957
সূচ	-958
label	-959
▁বিশ্লে	-960
▁লাটভিয়ান	-961
ener	-962
শ্যক	-963
▁ব্যৱহাৰকাৰী	-964
▁প্ল	-965
মান্ড	-966
▁আল	-967
▁সমূহ	-968
দন	-969
াৰৰ	-970
▁সূচ	-971
▁হেড	-972
▁সঠিক	-973
▁কাৰণে	-974
▁ব্যক্তিগত	-975
ent	-976
েষ্টা	-977
▁প্ৰশ	-978
ক্ষণ	-979
▁ফন্ট	-980
▁কমান্ড	-981
▁বিৱৰণ	-982
(1	-983
▁i	-984
▁প্ৰমাণপত্ৰ	-985
গম	-986
কৰ্ত	-987
েনে	-988
▁in	-989
▁প্ৰিন্ট	-990
▁ডে	-991
টৰ	-992
সাৰ	-993
িবলৈ	-994
▁গ্ৰহণ	-995
▁স্বাক্ষৰ	-996
োক	-997
▁the	-998
▁কৰিছে	-999
▁d	-1000
লৰ	-1001
▁In	-1002
ধ্যম	-1003
জত	-1004
ৃদ্ধ	-1005
ক্ষেত্ৰ	-1006
ামৰ	-1007
▁বিশ্লেষণ	-1008
ওন্ট	-1009
িক্ষ	-1010
ামী	-1011
▁GN	-1012
নিৰ্	-1013
ME	-1014
ছল	-1015
▁ক্ৰ	-1016
▁একাওন্ট	-1017
▁re	-1018
▁উত্তৰ	-1019
▁স্থানীয়	-1020
bo	-1021
ir	-1022
াও	-1023
শব্দ	-1024
স্থাপন	-1025
as	-1026
▁বাহ	-1027
▁ভিত	-1028
▁label	-1029
up	-1030
▁অভ	-1031
▁ক্ষেত্ৰত	-1032
▁?	-1033
িকি	-1034
▁বুট	-1035
▁ছে	-1036
▁চাব	-1037
▁ইচ্ছ	-1038
ব্ৰ	-1039
কৈ	-1040
েকে	-1041
ধাৰিত	-1042
▁ৰিক্ত	-1043
▁নী	-1044
চ্ছে	-1045
▁অনুৰোধ	-1046
ode	-1047
oun	-1048
লাইন	-1049
▁অপ্ৰ	-1050
▁ধাৰ্য্য	-1051
▁ফোল্ডাৰৰ	-1052
▁উদ্দেশ্যে	-1053
▁»	-1054
বাদ	-1055
ML	-1056
িত্ব	-1057
▁প্ৰদৰ্	-1058
▁মূল	-1059
কো	-1060
ঙ্গ	-1061
▁টেব	-1062
▁size	-1063
▁প্ৰকা	-1064
▁প্ৰয়োগ	-1065
▁প্লাগ	-1066
▁ৰাখ	-1067
স্টেম	-1068
▁উপাদ	-1069
ীম	-1070
//	-1071
▁অস	-1072
▁6	-1073
েশন	-1074
পোৰ্ট	-1075
াৰিখ	-1076
ীকৰণ	-1077
ction	-1078
://	-1079
াপন	-1080
paper	-1081
▁ব্যৱস্থাপ	-1082
ফিক	-1083
য়োগ	-1084
প্তশব্দ	-1085
▁তাৰিখ	-1086
um	-1087
ঔৣ	-1088
ser	-1089
▁বহি	-1090
▁নিম্নলিখিত	-1091
ছৰ	-1092
com	-1093
দ্ৰ	-1094
▁আপড	-1095
▁মাপ	-1096
▁ডমেইন	-1097
▁ইচ্ছুক	-1098
ূৰ	-1099
িক্ৰ	-1100
▁ফিল	-1101
ation	-1102
amp	-1103
ীমা	-1104
ুত	-1105
োজ	-1106
ৱৰ্তী	-1107
চিত	-1108
▁অতি	-1109
:%	-1110
▁বীমা	-1111
▁নয়	-1112
াঁ	-1113
),	-1114
ক্ষাৎ	-1115
▁উল্লেখ	-1116
▁ছব	-1117
▁ক্লিক	-1118
▁অসমীয়া	-1119
▁গুপ্তশব্দ	-1120
con	-1121
সকল	-1122
▁আমি	-1123
har	-1124
▁ডাইৰ	-1125
ের	-1126
▁আখ	-1127
▁ড্ৰ	-1128
▁আমাৰ	-1129
▁ঘট	-1130
unch	-1131
▁মাই	-1132
▁লেখ	-1133
▁হবে	-1134
12	-1135
হি	-1136
▁যৌ	-1137
▁পিছত	-1138
▁দৰ্শন	-1139
ted	-1140
▁বু	-1141
▁অধ	-1142
ালিত	-1143
▁সমৰ্থন	-1144
▁ফেল	-1145
▁হলে	-1146
▁পঞ্জ	-1147
art	-1148
ঙৰ	-1149
▁g	-1150
▁ৰে	-1151
▁সম্ভব	-1152
uk	-1153
lock	-1154
▁থেকে	-1155
▁দিয়	-1156
▁হি	-1157
▁স্ক	-1158
চম	-1159
পৃষ্ঠ	-1160
▁হেডাৰ	-1161
▁এপ্লিক	-1162
▁হয়েছে	-1163
pad	-1164
▁কন	-1165
▁খোলা	-1166
য়ে	-1167
▁বাক	-1168
ut	-1169
▁ক্ষতি	-1170
▁সময়ত	-1171
▁আঁতৰুৱা	-1172
and	-1173
ind	-1174
▁ব্যৱস্থা	-1175
ড়া	-1176
▁লোড	-1177
▁তেওঁ	-1178
▁অনুমো	-1179
▁ডাইৰেক	-1180
▁সাক্ষাৎ	-1181
▁8	-1182
unchpad	-1183
▁প্ৰদৰ্শিত	-1184
ুৱ	-1185
si	-1186
▁উচ্চ	-1187
কন	-1188
গৰ	-1189
োট	-1190
lic	-1191
▁এক্স	-1192
▁সামৰ্থবান	-1193
65	-1194
▁ইতিম	-1195
key	-1196
▁দস্ত	-1197
▁মেমো	-1198
জৰ	-1199
ver	-1200
কল্প	-1201
ৰ্কাইভ	-1202
▁অনুপ	-1203
▁দস্তাবে	-1204
▁{	-1205
net	-1206
▁বিষয়ে	-1207
▁ধৰ	-1208
mail	-1209
চিহ্ন	-1210
▁সেৱা	-1211
▁আৰ্কাইভ	-1212
ঙ্ক	-1213
ভাৰ	-1214
ানা	-1215
▁বিজ্ঞ	-1216
42	-1217
ee	-1218
▁ইছল	-1219
কাৰীৰ	-1220
▁ওপৰত	-1221
▁উইন্ডোৰ	-1222
62	-1223
▁সদ	-1224
▁বিশেষ	-1225
▁পটভ	-1226
▁সম্পাদন	-1227
▁বাৰ্তাসমূহ	-1228
▁আৱ	-1229
▁স্ট্ৰ	-1230
ul	-1231
ter	-1232
▁অকল	-1233
ect	-1234
িলে	-1235
ৰ্ম	-1236
▁--	-1237
▁“%	-1238
▁স্বনিৰ্	-1239
quot	-1240
▁ডাঙৰ	-1241
প্ৰয়োগ	-1242
▁ভুল	-1243
লনি	-1244
▁অফ	-1245
▁যাব	-1246
▁`	-1247
্যান	-1248
▁আন্ত	-1249
TP	-1250
ক্ষ্য	-1251
▁এইটো	-1252
ুহ	-1253
end	-1254
দান	-1255
্টাৰ	-1256
▁প্ৰমাণীকৰণ	-1257
▁লিখনী	-1258
▁উদ্ধাৰ	-1259
▁অপ্ৰত্যা	-1260
্লি	-1261
▁হৈছিল	-1262
for	-1263
tem	-1264
▁প্ৰস্থ	-1265
▁অনুপ্ৰয়োগ	-1266
▁HT	-1267
ছন্দ	-1268
▁শাৰী	-1269
▁কো	-1270
▁ড্ৰাইভ	-1271
▁e	-1272
▁to	-1273
▁মূ	-1274
▁ক্ল	-1275
দৰ্শন	-1276
▁চেষ্টা	-1277
লগ	-1278
নাম	-1279
ting	-1280
ভিন্ন	-1281
▁প্লে	-1282
▁নিয়ন্ত্ৰ	-1283
▁স্প	-1284
▁আবৰ্জন	-1285
▁এপ্লিকেচ	-1286
▁বেক	-1287
▁নিষ্	-1288
dia	-1289
্বাচ	-1290
▁বিভিন্ন	-1291
▁ব্যবহাৰ	-1292
▁অপ্ৰত্যাশিত	-1293
ালয়	-1294
▁সাক্ষাৎকাৰ	-1295
পন	-1296
▁CD	-1297
▁`%	-1298
▁নেকি	-1299
▁পছন্দ	-1300
লত	-1301
▁উদ	-1302
ue	-1303
শেষ	-1304
ৰ্ঘ	-1305
▁ক্যা	-1306
▁নথিপত্ৰৰ	-1307
ile	-1308
▁জী	-1309
▁স্তম্ভ	-1310
▁ইতিমধ্যে	-1311
াকা	-1312
Comment	-1313
পুট	-1314
্তি	-1315
▁পৰ্দ	-1316
ক্ৰিয়া	-1317
ণী	-1318
াপক	-1319
ন্তব্য	-1320
▁হচ্ছে	-1321
he	-1322
▁কী	-1323
াক্ত	-1324
▁ব্ৰা	-1325
▁বিশ্ব	-1326
VD	-1327
সে	-1328
ভাগ	-1329
মিত	-1330
▁চিন	-1331
▁ভাৰত	-1332
▁লক্ষ্য	-1333
কৃত	-1334
লিউ	-1335
িবলে	-1336
▁করা	-1337
▁মিল	-1338
▁মাজত	-1339
▁সতৰ্ক	-1340
ক্ৰিপ্ট	-1341
KC	-1342
▁পু	-1343
▁জান	-1344
▁বীম	-1345
▁পদ্ধ	-1346
▁সলনি	-1347
▁সাধাৰণ	-1348
লী	-1349
huk	-1350
hukan	-1351
▁ফাইলৰ	-1352
10	-1353
োপ	-1354
▁x	-1355
েইট	-1356
▁"{0}	-1357
▁সম্ব	-1358
▁ইনস্ট	-1359
▁প্ৰস্থান	-1360
হত	-1361
▁7	-1362
েনেল	-1363
▁ৰূপে	-1364
▁প্ৰক্ৰিয়া	-1365
ist	-1366
▁কৰতে	-1367
▁কৰিলে	-1368
▁অৱস্থাত	-1369
ডিও	-1370
▁উই	-1371
▁ট্ৰ	-1372
▁খোলক	-1373
▁আন্তঃ	-1374
ID	-1375
ফা	-1376
▁un	-1377
াত্ৰ	-1378
▁201	-1379
▁টুল	-1380
বাধিক	-1381
▁পাৰিব	-1382
ami	-1383
▁ইউ	-1384
▁তৈ	-1385
যায়ী	-1386
▁স্ক্ৰ	-1387
▁ইমপোৰ্ট	-1388
▁আবৰ্জনাৰ	-1389
াবলৈ	-1390
▁সংৰূপ	-1391
▁me	-1392
ject	-1393
▁বিব	-1394
▁ID	-1395
60	-1396
arch	-1397
▁নিৰ	-1398
▁দিয়ক	-1399
▁সমস্ত	-1400
▁আৱশ্যক	-1401
ib	-1402
লা	-1403
স্য	-1404
▁চাল	-1405
ন্দ্ৰ	-1406
▁হস্ট	-1407
▁মাধ্যম	-1408
▁নিৰ্ধাৰিত	-1409
টৰি	-1410
▁mon	-1411
েক্ষা	-1412
ন্টাৰ	-1413
▁"{0}"	-1414
hort	-1415
ষ্ঠান	-1416
▁মুছে	-1417
▁পৰিচিত	-1418
▁প্ৰকল্প	-1419
▁সুৰক্ষা	-1420
ag	-1421
▁৩	-1422
ৃতি	-1423
▁বিল	-1424
▁অডিঅ	-1425
ong	-1426
ুদ্	-1427
চ্ছদ	-1428
▁ডাইৰেকটৰি	-1429
লেৰ	-1430
▁দৃ	-1431
▁দে	-1432
lect	-1433
ফল্ট	-1434
▁প্ৰশ্ন	-1435
ভাৱ	-1436
▁আখৰ	-1437
শক	-1438
osw	-1439
▁দূৰ	-1440
oswami	-1441
▁সৰ্বাধিক	-1442
েত	-1443
▁10	-1444
▁মধ্যে	-1445
িগ	-1446
▁ভাষা	-1447
▁সেৱক	-1448
▁প্ৰত্যা	-1449
্তাহ	-1450
সমূহক	-1451
▁https	-1452
▁বৰ্ষপঞ্জি	-1453
টোৰ	-1454
▁বৰ	-1455
▁পাঠ	-1456
▁পত্ৰ	-1457
▁তালিকাৰ	-1458
▁অনুযায়ী	-1459
▁অনুপস্থিত	-1460
AR	-1461
ly	-1462
▁মন	-1463
▁স্থাপন	-1464
চালিত	-1465
াকৃত	-1466
▁সতী	-1467
▁ডাউন	-1468
$1	-1469
য়ং	-1470
হাস	-1471
▁শেষ	-1472
▁ব্ৰাউ	-1473
age	-1474
▁মেন	-1475
▁উন্ন	-1476
▁বাহিৰ	-1477
▁সতীচ্ছদ	-1478
31	-1479
▁12	-1480
ক্সি	-1481
িক্স	-1482
▁অ্য	-1483
▁গণিত	-1484
▁চিস্টেম	-1485
জাৰ	-1486
▁নকৰে	-1487
lin	-1488
িকোনো	-1489
▁month	-1490
▁ডিফল্ট	-1491
্ণ	-1492
্টি	-1493
▁বৃদ্ধ	-1494
▁টেক্সট	-1495
ালি	-1496
▁ডোম	-1497
▁বুটাম	-1498
▁সমাপ্ত	-1499
/~	-1500
launchpad	-1501
50	-1502
ak	-1503
ীৰ্ষ	-1504
▁সাৰ	-1505
গ্ৰহণ	-1506
▁দিয়ে	-1507
▁যিকোনো	-1508
▁বৰ্	-1509
▁গোপন	-1510
▁ছবিৰ	-1511
ুদ্ধাৰ	-1512
▁ফিল্টাৰ	-1513
ালৰ	-1514
▁ঈ	-1515
lay	-1516
▁উল্	-1517
▁কোন	-1518
...(_	-1519
▁আইকন	-1520
OME	-1521
টাৰ	-1522
▁সঞ্চ	-1523
▁কম্প	-1524
▁স্বয়ং	-1525
ৃহ	-1526
লিচ	-1527
স্কট	-1528
▁উপাদান	-1529
থা	-1530
জনা	-1531
tock	-1532
▁বিজ্ঞান	-1533
ac	-1534
ুখ	-1535
০০	-1536
ery	-1537
াকৈ	-1538
unit	-1539
সূচী	-1540
▁প্ৰত্য	-1541
▁উল্লিখিত	-1542
▁চাৰ্ভাৰৰ	-1543
▁পুনৰুদ্ধাৰ	-1544
▁আয়	-1545
▁পৰ্য	-1546
ধা	-1547
▁9	-1548
▁পৰিচাল	-1549
▁বিচাৰে	-1550
ামৰ্থবান	-1551
▁আন্তঃপৃষ্ঠ	-1552
হাট	-1553
▁মহ	-1554
▁সি	-1555
▁বাকচ	-1556
▁অভিগম	-1557
▁প্ৰথম	-1558
▁ফাইলসমূহ	-1559
000	-1560
rip	-1561
াইড	-1562
▁দেখা	-1563
▁মিলি	-1564
PU	-1565
ীদ	-1566
ূমিৰ	-1567
▁প্ৰৱ	-1568
▁ব্যক্ত	-1569
▁উল্লেখিত	-1570
▁নিষ্ক্ৰিয়	-1571
▁স্বনিৰ্বাচ	-1572
▁বড়	-1573
▁লিখক	-1574
▁ইয়াত	-1575
▁ডেস্কট	-1576
▁অবস্থান	-1577
ীক	-1578
one	-1579
org	-1580
▁জীৱ	-1581
▁অনুবাদ	-1582
79	-1583
সা	-1584
▁‘	-1585
▁DVD	-1586
▁নিব	-1587
icode	-1588
day	-1589
▁হাৰ	-1590
▁সম্পাদনা	-1591
তম	-1592
্ছ	-1593
িকে	-1594
▁দল	-1595
▁লাই	-1596
▁হাত	-1597
▁বিফল	-1598
▁GNOME	-1599
▁Gener	-1600
▁block	-1601
ন্ম	-1602
▁আমেৰ	-1603
▁URL	-1604
KChar	-1605
্বাচন	-1606
▁গুৱা	-1607
old	-1608
sion	-1609
▁যায়	-1610
eb	-1611
োহ	-1612
নাংগ	-1613
ঁচ	-1614
জে	-1615
দ্দ	-1616
বেল	-1617
তিৰিক্ত	-1618
ডিং	-1619
ense	-1620
Stock	-1621
▁থাকিব	-1622
▁যন্ত্ৰ	-1623
ug	-1624
tic	-1625
▁দৈ	-1626
▁যৌনাংগ	-1627
▁স্বচালিত	-1628
.0	-1629
SO	-1630
টন	-1631
জ্জ	-1632
▁যেতিয়া	-1633
ber	-1634
▁খাম	-1635
▁হিস	-1636
সমূহত	-1637
▁নামৰ	-1638
▁গুৱাহাট	-1639
84	-1640
▁শিক্ষ	-1641
▁এইচ	-1642
িকিৎস	-1643
▁এপ্লিকেচন	-1644
OP	-1645
ht	-1646
li	-1647
ালৈ	-1648
ৱৰ্ক	-1649
▁তলত	-1650
▁বান	-1651
select	-1652
▁প্ৰকাশ	-1653
▁অতিৰিক্ত	-1654
▁অসামৰ্থবান	-1655
জু	-1656
হে	-1657
লিউম	-1658
▁আচম	-1659
প্তাহ	-1660
▁ডাইল	-1661
▁ইনস্টল	-1662
32	-1663
80	-1664
indow	-1665
▁আচমন	-1666
▁ঘটনা	-1667
▁সহযোগ	-1668
এই	-1669
▁se	-1670
▁আলে	-1671
▁এটি	-1672
▁সুম	-1673
▁সত্য	-1674
▁ভিডিও	-1675
▁হিসাবে	-1676
▁unicode	-1677
▁সংস্থাপন	-1678
▁বিকল্পসমূহ	-1679
▁স্বনিৰ্বাচিত	-1680
ory	-1681
crip	-1682
▁লগত	-1683
raser	-1684
▁অস্থ	-1685
▁ভলিউম	-1686
mp	-1687
ংক	-1688
টে	-1689
▁k	-1690
▁y	-1691
▁উৎ	-1692
icense	-1693
rasero	-1694
▁ব্যৱহাৰকৰ্ত	-1695
▁অস্ত	-1696
▁গ্ৰা	-1697
▁পুনঃ	-1698
▁সেইটো	-1699
▁General	-1700
▁অংশগ্ৰহণ	-1701
▁পত্ৰচিহ্ন	-1702
57	-1703
63	-1704
ীল	-1705
▁st	-1706
্যাগ	-1707
▁(59	-1708
▁লোক	-1709
▁নম্ব	-1710
▁নিৰ্ব	-1711
▁পূৰ্ণ	-1712
▁চিকিৎস	-1713
au	-1714
▁শীৰ্ষ	-1715
▁কিছুমান	-1716
no	-1717
▁de	-1718
▁পুনৰায়	-1719
▁চৰ	-1720
▁এখন	-1721
াৰম্ভ	-1722
▁কাৰ্য	-1723
▁বিভাগ	-1724
▁এতিয়া	-1725
▁আবৰ্জনা	-1726
চন	-1727
পা	-1728
িও	-1729
▁পেনেল	-1730
▁অসমৰ্থ	-1731
og	-1732
mat	-1733
ost	-1734
লিক	-1735
▁XML	-1736
▁দাব	-1737
▁মোড	-1738
▁বাৰ্ন	-1739
▁অনুমোদন	-1740
▁নিৰ্দেশ	-1741
▁দস্তাবেজ	-1742
জেট	-1743
েইনৰ	-1744
▁সাব	-1745
▁মূদ্ৰ	-1746
▁Y	-1747
▁কিব	-1748
▁আমেৰিকা	-1749
▁বীমাকৃত	-1750
জা	-1751
▁Q	-1752
ন্স	-1753
▁পে	-1754
\\\\	-1755
▁মাৰ	-1756
▁শক্তি	-1757
.2	-1758
হিন	-1759
▁পৃ	-1760
▁প্ৰৰণ	-1761
▁অসমৰ্থিত	-1762
KCharselect	-1763
থক	-1764
্ৰি	-1765
▁শু	-1766
ান্য	-1767
▁গুৰ	-1768
▁ধৰণৰ	-1769
▁পদ্ধতি	-1770
▁কেন্দ্ৰ	-1771
▁পঞ্জিকা	-1772
ানো	-1773
শ্বট	-1774
▁চাওক	-1775
▁পোৰ্ট	-1776
▁সম্পদ	-1777
ha	-1778
ree	-1779
িতে	-1780
▁তেন	-1781
▁ৰাজ	-1782
▁ক্লি	-1783
▁তৈৰি	-1784
▁লাগে	-1785
▁মেমৰি	-1786
▁সংযোগক্ষেত্ৰ	-1787
are	-1788
ary	-1789
্তে	-1790
▁on	-1791
▁খুল	-1792
জেক্ট	-1793
▁পলিচ	-1794
▁হোৱাৰ	-1795
▁অস্থায়ী	-1796
)।	-1797
ta	-1798
ণি	-1799
▁(9	-1800
▁is	-1801
▁টা	-1802
াৰ্ম	-1803
▁CPU	-1804
▁{0}	-1805
▁ধৰন	-1806
▁আপনাৰ	-1807
▁আলেখ্য	-1808
59	-1809
▁মই	-1810
ৰ্কে	-1811
▁কোম	-1812
▁লিখা	-1813
▁সামগ্ৰ	-1814
▁ডিভাইচৰ	-1815
▁স্বয়ংক্ৰিয়	-1816
ভাব	-1817
াযোগ	-1818
▁দিশ	-1819
▁মাহ	-1820
▁part	-1821
▁শ্ৰে	-1822
▁নিয়ন্ত্ৰণ	-1823
▁t	-1824
য়ন	-1825
▁এল	-1826
▁(12	-1827
▁পুৰ	-1828
board	-1829
াইল্ড	-1830
▁প্ৰা	-1831
▁ইছলাম	-1832
▁উইজেট	-1833
vi	-1834
ya	-1835
▁ঢ	-1836
▁পদ	-1837
▁বজ	-1838
▁প্ৰচ	-1839
▁ক্লিপ	-1840
▁তথ্যৰ	-1841
▁স্থায়ী	-1842
িদ	-1843
▁ফৰ	-1844
▁(10	-1845
▁দিব	-1846
▁পেলাওক	-1847
▁চিনাক্ত	-1848
▁প্ৰক্সি	-1849
▁যোগাযোগ	-1850
▁গুণ	-1851
▁সমল	-1852
▁যাওক	-1853
▁একাউন্ট	-1854
81	-1855
ৰ্তে	-1856
▁অবধি	-1857
▁পঢ়া	-1858
▁ৱ	-1859
ive	-1860
oft	-1861
▁Con	-1862
▁চলি	-1863
ফলাইন	-1864
▁সংখ্য	-1865
▁এৰ	-1866
▁লক	-1867
▁অস্তিত্ব	-1868
▁সম্পৰ্কে	-1869
ews	-1870
▁অফলাইন	-1871
▁সন্ধানহিন	-1872
▁প্ৰয়োজনীয়	-1873
তো	-1874
ice	-1875
ত্য	-1876
াইপ	-1877
ৱেৰ	-1878
▁IM	-1879
▁দায়	-1880
▁বড়ো	-1881
▁আপডেইট	-1882
▁সৰ্বশেষ	-1883
▁অন্যান্য	-1884
▁ব্যৱহাৰৰ	-1885
▁গা	-1886
ublic	-1887
▁তেন্তে	-1888
মে	-1889
▁হা	-1890
ণালী	-1891
ুৱাওক	-1892
▁পৰিৱ	-1893
▁সীমা	-1894
82	-1895
ডা	-1896
থি	-1897
ord	-1898
ীয়ে	-1899
▁আউট	-1900
▁একে	-1901
▁কনফ	-1902
▁পুল	-1903
▁সৰু	-1904
roject	-1905
ন্য	-1906
▁GNU	-1907
▁প্ৰাচ	-1908
▁License	-1909
mb	-1910
▁তাক	-1911
ngoswami	-1912
▁সম্পৰ্ক	-1913
▁নিৰ্ব্বাচন	-1914
md	-1915
pp	-1916
নেপ	-1917
োতে	-1918
ড়িত	-1919
্পান	-1920
▁ব্ল	-1921
পূৰ্ণ	-1922
ফিকেট	-1923
▁আপোনাক	-1924
▁সপ্তাহ	-1925
▁অবজেক্ট	-1926
▁সংৰক্ষিত	-1927
67	-1928
ian	-1929
▁ৰঙৰ	-1930
▁ৰূপত	-1931
▁সংগ্ৰহ	-1932
্টিফিকেট	-1933
sy	-1934
dis	-1935
gle	-1936
ণ্ট	-1937
তাল	-1938
page	-1939
▁ভাল	-1940
▁ফেলুন	-1941
▁ডোমেইন	-1942
▁প্ৰব্ৰ	-1943
keyboard	-1944
▁কোম্পান	-1945
ia	-1946
▁~	-1947
▁বিত	-1948
▁বিভা	-1949
eneric	-1950
▁স্নেপ	-1951
▁স্ট্ৰিং	-1952
ূলক	-1953
▁//	-1954
▁LD	-1955
▁টুলবাৰ	-1956
88	-1957
SL	-1958
হৃত	-1959
▁Ex	-1960
াহৰণ	-1961
▁Ass	-1962
স্ক্ৰ	-1963
▁থাকে	-1964
▁লোৱা	-1965
▁প্ৰগ্ৰ	-1966
কাট	-1967
▁হে	-1968
ক্ষম	-1969
▁বিৰ	-1970
▁আপডেট	-1971
▁কনফিগ	-1972
aphukan	-1973
▁Public	-1974
▁মাউন্ট	-1975
▁সাৰ্টিফিকেট	-1976
35	-1977
বৰ	-1978
int	-1979
time	-1980
াৰ্থ	-1981
=\\\\	-1982
ওয়াৰ	-1983
▁LDAP	-1984
▁ব্যৱহাৰযোগ্য	-1985
1}	-1986
ou	-1987
ুপ	-1988
ange	-1989
ওয়া	-1990
িন্ন	-1991
▁সোঁ	-1992
▁প্ৰাপক	-1993
if	-1994
tex	-1995
াইব	-1996
▁TV	-1997
▁আশ	-1998
▁তা	-1999
ঞ্চল	-2000
▁URI	-2001
▁ফলত	-2002
▁লাভ	-2003
▁লগতে	-2004
indows	-2005
▁action	-2006
▁প্ৰসাৰ	-2007
▁সহায়ত	-2008
▁পটভূমিৰ	-2009
02	-2010
erm	-2011
▁পো	-2012
াবলে	-2013
িকাৰ	-2014
▁সুসং	-2015
▁সম্পাদক	-2016
ec	-2017
ik	-2018
ফালে	-2019
▁POP	-2020
▁বিচ্ছ	-2021
▁মূল্য	-2022
▁লেবেল	-2023
▁উচ্চতা	-2024
বঢ়	-2025
▁এনে	-2026
▁সফল	-2027
দিষ্ট	-2028
▁লিখন	-2029
▁হয়নি	-2030
83	-2031
যোজ	-2032
ানি	-2033
edor	-2034
▁অংশীদ	-2035
▁ক্যাশ	-2036
▁প্ৰব্ৰজন	-2037
▁ফোল্ডাৰে	-2038
কট	-2039
টিং	-2040
olor	-2041
edorap	-2042
▁আগবঢ়	-2043
▁পিক্স	-2044
▁অপেক্ষা	-2045
edoraproject	-2046
▁$	-2047
▁র	-2048
New	-2049
ime	-2050
লিং	-2051
▁দৰ	-2052
▁২০	-2053
roup	-2054
amese	-2055
াৰ্মিন	-2056
▁ইনপুট	-2057
▁আতৰাওক	-2058
▁শীৰ্ষক	-2059
▁টাৰ্মিন	-2060
@}	-2061
od	-2062
সৰ	-2063
▁for	-2064
িবেশন	-2065
▁অবস্থা	-2066
▁পূৰ্বে	-2067
▁গন্তব্য	-2068
▁বিচ্ছিন্ন	-2069
▁ব্যৱহাৰকাৰীৰ	-2070
-1	-2071
তন	-2072
াশ	-2073
ure	-2074
লোড	-2075
বক্স	-2076
▁লুক	-2077
email	-2078
▁অবস্থ	-2079
▁সদস্য	-2080
ay	-2081
▁৫	-2082
inu	-2083
ফ্ৰ	-2084
▁{@}	-2085
▁মাত	-2086
▁ইতিহাস	-2087
▁সহায়ক	-2088
▁গোপনীয়	-2089
sh	-2090
দিন	-2091
▁pro	-2092
▁সমা	-2093
▁HTML	-2094
▁বাৰ্ণ	-2095
▁ব্যবহৃত	-2096
▁গুৱাহাটী	-2097
fedoraproject	-2098
61	-2099
▁আহ	-2100
▁সভা	-2101
▁News	-2102
▁গণনা	-2103
▁সম্বাদ	-2104
নক	-2105
চনা	-2106
ূপে	-2107
▁ch	-2108
▁সো	-2109
য়াল	-2110
িত্ৰ	-2111
▁উৎপ	-2112
▁মাল	-2113
▁ক্ৰম	-2114
▁নম্বৰ	-2115
▁মুক্ত	-2116
.1	-2117
থে	-2118
ext	-2119
ামা	-2120
▁আক	-2121
path	-2122
ুদ্ধ	-2123
▁কিবৰ্ড	-2124
▁বৃদ্ধি	-2125
▁ডেস্কটপ	-2126
▁পৰিবৰ্তে	-2127
mit	-2128
our	-2129
াকী	-2130
▁গোল	-2131
▁টিপ	-2132
াকাউন্ট	-2133
▁সহযোগে	-2134
▁মাধ্যমে	-2135
তিক	-2136
পৰা	-2137
ৰিত	-2138
▁11	-2139
Generic	-2140
▁পৰিচয়সমূহ	-2141
40	-2142
েপ	-2143
াকে	-2144
সকলৰ	-2145
▁নেই	-2146
▁বহী	-2147
▁তৰ্ক	-2148
▁বিস্ত	-2149
▁চাইল্ড	-2150
▁পৰবৰ্তী	-2151
▁প্ৰদৰ্শনৰ	-2152
▁অ্যাকাউন্ট	-2153
EM	-2154
বং	-2155
নাত	-2156
▁পূ	-2157
▁সংগ	-2158
কেণ্ড	-2159
▁সৰঞ্জ	-2160
▁প্ৰস্তু	-2161
▁সুৰক্ষিত	-2162
GenericName	-2163
ell	-2164
ষ্প	-2165
▁যা	-2166
স্বামী	-2167
▁প্ৰাচল	-2168
স্ক্ৰাইব	-2169
▁প্লাগিন	-2170
▁পৰিচয়ৰ	-2171
াছ	-2172
ণিত	-2173
স্প	-2174
াৰীৰ	-2175
▁ফলা	-2176
িয়াৰ	-2177
▁item	-2178
▁যেনে	-2179
ৰ্টকাট	-2180
▁উলম্ব	-2181
▁আবশ্যক	-2182
▁অধিবেশন	-2183
▁দূৰবৰ্তী	-2184
▁*	-2185
▁+	-2186
Cal	-2187
ত্ব	-2188
ালন	-2189
▁IP	-2190
▁US	-2191
▁কু	-2192
▁দৃশ্য	-2193
▁নাছিল	-2194
▁সম্ভাব	-2195
▁সুমুৱাওক	-2196
▁পূৰ্ববৰ্তী	-2197
45	-2198
▁আৰ্	-2199
▁মাউ	-2200
▁মৃত	-2201
▁অৰ্থ	-2202
▁পেইন	-2203
▁বিচাৰি	-2204
▁Brasero	-2205
ev	-2206
ity	-2207
কেৰ	-2208
বিন	-2209
শীল	-2210
র্শন	-2211
▁(27	-2212
যোজ্য	-2213
▁সাৰা	-2214
▁অস্তিত্ববান	-2215
UR	-2216
▁u	-2217
▁ঠ	-2218
▁আদ	-2219
▁com	-2220
▁নহব	-2221
oogle	-2222
স্টাৰ	-2223
▁আছিল	-2224
▁সুবি	-2225
▁অনুষ্ঠান	-2226
rib	-2227
্বল	-2228
ুত্ব	-2229
ৰ্তন	-2230
▁IMAP	-2231
▁ডাইলগ	-2232
▁ভিতৰত	-2233
▁উদাহৰণ	-2234
▁প্ৰৱেশ	-2235
▁সামগ্ৰী	-2236
▁টাৰ্মিনেল	-2237
▁পূৰ্বদৰ্শন	-2238
ah	-2239
খল	-2240
ছি	-2241
িলা	-2242
াবলী	-2243
▁আনু	-2244
▁টেগ	-2245
▁দক্ষ	-2246
ci	-2247
▁শে	-2248
▁নিজ	-2249
▁বস্ত	-2250
▁মিনি	-2251
format	-2252
▁ব্যৱস	-2253
▁অনলাইন	-2254
জী	-2255
ুণ	-2256
▁and	-2257
▁নিউ	-2258
▁ফ্ল	-2259
▁শ্ব	-2260
যুক্তি	-2261
▁পৰৱৰ্তী	-2262
▁উপস্থিতি	-2263
▁নথিপত্ৰসমূহ	-2264
'-	-2265
েক্ষ	-2266
▁কথা	-2267
▁বুজ	-2268
▁মেই	-2269
▁আদেশ	-2270
▁নিৰ্দিষ্ট	-2271
▁#	-2272
able	-2273
▁এবং	-2274
▁টকা	-2275
▁বিপৰ	-2276
▁লগিয়া	-2277
▁চৰ্টকাট	-2278
▁প্ৰযোজ্য	-2279
▁ৰখ	-2280
ateg	-2281
mbol	-2282
ুৱাৰ	-2283
্ৰেড	-2284
▁(49	-2285
▁শিৰ	-2286
ষ্কাৰ	-2287
ষ্ট্ৰ	-2288
▁করুন	-2289
ission	-2290
বাৰ্তা	-2291
▁উপাদানৰ	-2292
▁স্নেপশ্বট	-2293
▁অনুসন্ধানৰ	-2294
52	-2295
CI	-2296
hat	-2297
▁বিপ	-2298
▁মোৰ	-2299
▁লওক	-2300
িতীয়	-2301
▁কিনা	-2302
eeting	-2303
সংখ্যা	-2304
▁সংহতিসমূহ	-2305
In	-2306
ook	-2307
টেম	-2308
েদন	-2309
ৈছে	-2310
▁ঘৰ	-2311
cted	-2312
▁গৃহ	-2313
▁জ্ঞ	-2314
▁নকল	-2315
▁অগ্ৰ	-2316
▁ইম্প	-2317
▁ডায়	-2318
▁সেৱকৰ	-2319
▁পৃষ্ঠাৰ	-2320
▁প্ৰতিক্ৰ	-2321
▁প্ৰতিস্থাপন	-2322
mo	-2323
খে	-2324
ith	-2325
গ্ন	-2326
▁আগত	-2327
▁বার	-2328
older	-2329
▁মেনু	-2330
▁লেখা	-2331
change	-2332
▁এক্সট	-2333
▁দৃদ্ধ	-2334
▁ডিস্কৰ	-2335
▁বিভাজন	-2336
33	-2337
dev	-2338
দিত	-2339
লেট	-2340
▁(17	-2341
▁ইউৰ	-2342
▁অভিন	-2343
▁বুলি	-2344
▁সাথে	-2345
▁আইটেম	-2346
▁সূচনা	-2347
▁ইন্টাৰ	-2348
▁স্ক্ৰিন	-2349
all	-2350
ফাৰ	-2351
ুকন	-2352
ূমি	-2353
text	-2354
▁(11	-2355
▁ধাৰণ	-2356
▁India	-2357
দল	-2358
্যৰ	-2359
্লাহ	-2360
▁বাওঁ	-2361
▁আমদান	-2362
▁লাইব্ৰ	-2363
▁গুৰুত্ব	-2364
▁Assamese	-2365
▁বৰ্ষপঞ্জিৰ	-2366
.5	-2367
AL	-2368
elp	-2369
শোধ	-2370
হীন	-2371
▁lib	-2372
▁মুখ	-2373
▁যাৰ	-2374
▁HTTP	-2375
▁কামৰ	-2376
▁চাবি	-2377
▁নীতি	-2378
▁স্তৰ	-2379
▁নকৰিব	-2380
▁একাধিক	-2381
▁পেলোৱা	-2382
▁শ্ৰেণী	-2383
▁পিক্সেল	-2384
39	-2385
ok	-2386
hya	-2387
কিঅ	-2388
মাৰ	-2389
▁মৌ	-2390
উটাৰ	-2391
বো	-2392
সু	-2393
ang	-2394
ust	-2395
name	-2396
{0}'	-2397
▁দেশ	-2398
akhya	-2399
ধিকাৰ	-2400
য়েছে	-2401
▁নিৰাপ	-2402
▁অনুসৰি	-2403
▁ডিস্কত	-2404
▁সতৰ্কবাৰ্তা	-2405
সন	-2406
ুতি	-2407
ware	-2408
▁কেম	-2409
▁অত্যা	-2410
▁প্ৰতিনি	-2411
▁কাৰ্য্যৰ	-2412
▁দ্বিতীয়	-2413
89	-2414
▁be	-2415
▁১০	-2416
▁অধি	-2417
▁অপৰ	-2418
▁কাল	-2419
▁Free	-2420
▁ফ্লে	-2421
▁কৰাটো	-2422
▁প্ৰেৰিত	-2423
▁প্ৰাৰম্ভ	-2424
▁ব্যৱস্থাপনা	-2425
ঁৰ	-2426
এৰ	-2427
সহ	-2428
ack	-2429
ম্প	-2430
াইছে	-2431
োগ্ৰ	-2432
▁এজন	-2433
ীক্ষণ	-2434
খেয়াল	-2435
▁অক্ষৰ	-2436
▁লিঙ্ক	-2437
▁সময়ৰ	-2438
ategory	-2439
▁ক্ষতিগ্ৰ	-2440
▁খামখেয়াল	-2441
hi	-2442
মৰ	-2443
সি	-2444
81)	-2445
েৰে	-2446
▁সম্প্ৰ	-2447
BAR	-2448
▁ৰি	-2449
িহলি	-2450
▁তলৰ	-2451
▁থিম	-2452
▁সীম	-2453
▁খণ্ড	-2454
▁পৃথক	-2455
▁short	-2456
▁সম্পন্ন	-2457
▁অত্যাধিক	-2458
ob	-2459
বী	-2460
ach	-2461
▁an	-2462
▁মড	-2463
sess	-2464
ছাইট	-2465
যোজন	-2466
▁উপৰ	-2467
▁নোহ	-2468
জ্জ্বল	-2469
▁ব্যাক	-2470
▁সাৰাংশ	-2471
30	-2472
nc	-2473
ina	-2474
pro	-2475
ref	-2476
ক্র	-2477
▁কিত	-2478
স্থাৰ	-2479
▁ঢকান	-2480
▁তালিকাভুক্ত	-2481
AN	-2482
▁০	-2483
iga	-2484
ora	-2485
টিৰ	-2486
▁as	-2487
▁জি	-2488
থমিক	-2489
টৱৰ্ক	-2490
▁সুসংগত	-2491
▁অবস্থায়	-2492
66	-2493
ুই	-2494
:(_	-2495
▁গে	-2496
▁চাৰ	-2497
pathy	-2498
কৰ্তা	-2499
▁থ্ৰেড	-2500
▁দুৰ্ঘ	-2501
▁প্ৰতিব	-2502
▁ভাৰতীয়	-2503
আৰ	-2504
হন	-2505
▁@	-2506
red	-2507
ভূম	-2508
▁শি	-2509
▁মুহ	-2510
▁সংম	-2511
▁গ্ৰাহ	-2512
▁বানান	-2513
▁উইন্ডোত	-2514
▁প্ৰত্যাশিত	-2515
▁বৈশিষ্ট্যাবলী	-2516
49	-2517
IN	-2518
ন্ড	-2519
য্য	-2520
্মক	-2521
user	-2522
▁ফ্ৰ	-2523
▁বছৰ	-2524
▁Long	-2525
▁খেলা	-2526
▁নকৰা	-2527
▁ঠিকনাৰ	-2528
▁অনুসাৰে	-2529
▁নিশ্চিতৰূপে	-2530
51	-2531
নেট	-2532
ালা	-2533
েষণ	-2534
ress	-2535
জ্ঞা	-2536
ন্টন	-2537
▁বাগ	-2538
▁type	-2539
▁দাবী	-2540
▁ফুকন	-2541
▁শেহত	-2542
▁উন্নত	-2543
▁যুক্ত	-2544
▁প্ৰতিম	-2545
▁পৰিমাণ	-2546
ৰ্শ	-2547
▁ফে	-2548
▁কোৰ	-2549
▁চেট	-2550
▁তৃত	-2551
▁নাথ	-2552
িয়াম	-2553
▁তেনে	-2554
▁ৰাখক	-2555
▁'{0}'	-2556
▁ফলাফল	-2557
▁মৃত্য	-2558
cription	-2559
▁অংশীদাৰী	-2560
▁এনক্ৰিপ্ট	-2561
ne	-2562
াৱ	-2563
421	-2564
ran	-2565
ফ্ট	-2566
▁Em	-2567
▁ww	-2568
onit	-2569
্ডার	-2570
্যাব	-2571
▁এনক	-2572
▁বৰা	-2573
▁অধীন	-2574
▁কিতাপ	-2575
▁ট্ৰেক	-2576
▁উজ্জ্বল	-2577
▁ফোল্ডাৰত	-2578
▁অত	-2579
াক্ষ	-2580
বস্তু	-2581
▁মধ্য	-2582
▁লগিন	-2583
▁ব্যয়	-2584
oftware	-2585
▁প্ৰকৃত	-2586
▁ত্ৰুটিৰ	-2587
▁প্ৰান্ত	-2588
▁সংমিহলি	-2589
▁পৰিষ্কাৰ	-2590
▁পূৰ্বৱৰ্তী	-2591
▁স্বচালিতভাৱে	-2592
DE	-2593
ho	-2594
lu	-2595
▁r	-2596
▁৪	-2597
{1}	-2598
গাল	-2599
;{0}	-2600
ায়ক	-2601
▁অহা	-2602
▁ডিব	-2603
াৰেশন	-2604
▁পৰিপ	-2605
▁ডাউনলোড	-2606
▁তালিকাত	-2607
▁মন্তব্য	-2608
▁সৰঞ্জাম	-2609
▁প্ৰস্তুত	-2610
09	-2611
দৰ	-2612
লম	-2613
box	-2614
াতা	-2615
▁আট	-2616
▁পং	-2617
kiga	-2618
play	-2619
সাৰণ	-2620
াবৃত	-2621
▁অমিত	-2622
▁সদায়	-2623
▁তৃতীয়	-2624
▁থাকিলে	-2625
▁সংযোজন	-2626
▁লাইব্ৰেৰ	-2627
21	-2628
Pos	-2629
ুখী	-2630
▁হো	-2631
trib	-2632
চিত্ৰ	-2633
▁ক্ষম	-2634
স্বৰূপ	-2635
▁ফন্টৰ	-2636
▁মৌলিক	-2637
দ্যালয়	-2638
▁অধিকাৰ	-2639
▁মাত্ৰা	-2640
▁সুবিধা	-2641
▁ৱেবছাইট	-2642
ermission	-2643
▁সম্ভাব্য	-2644
▁ব্যৱহাৰকৰ্তাৰ	-2645
34	-2646
ml	-2647
pr	-2648
80)	-2649
ock	-2650
র্ত	-2651
ound	-2652
খায়	-2653
লিপি	-2654
সম্প	-2655
▁শ্ৰ	-2656
endar	-2657
পূৰ্ব	-2658
▁বাইন	-2659
▁সক্ষম	-2660
NamePos	-2661
sessive	-2662
▁দুৰ্ঘট	-2663
▁প্ৰোগ্ৰ	-2664
NamePossessive	-2665
ror	-2666
োঁতে	-2667
▁কাষ	-2668
▁ধ্ব	-2669
▁ফোন	-2670
▁সাহা	-2671
▁বিচাৰ	-2672
▁বস্তুৰ	-2673
▁Empathy	-2674
▁দৃশ্যমান	-2675
দে	-2676
বল	-2677
▁,	-2678
গৰি	-2679
ণ্য	-2680
ানু	-2681
▁(7	-2682
▁sy	-2683
▁ইফ	-2684
াওতে	-2685
ালীৰ	-2686
েটাৰ	-2687
▁(47	-2688
▁ৰিম	-2689
▁ইউৰোপ	-2690
▁অধিসূচ	-2691
▁নাখায়	-2692
▁বার্তা	-2693
▁প্ৰণালী	-2694
▁অমিতাক্ষ	-2695
▁প্ৰকাশিত	-2696
--	-2697
ীপ	-2698
ine	-2699
কেট	-2700
োঁচ	-2701
▁St	-2702
ত্তৰ	-2703
▁কাজ	-2704
▁ধনৰ	-2705
ounda	-2706
▁দুটা	-2707
▁অঞ্চল	-2708
▁ব্ৰাউছ	-2709
oundation	-2710
ermissions	-2711
CO	-2712
im	-2713
্ফ	-2714
▁–	-2715
▁al	-2716
িক্ষণ	-2717
▁অধ্য	-2718
▁Short	-2719
▁সৰ্বো	-2720
▁আউটপুট	-2721
▁আমদানি	-2722
▁Exchange	-2723
▁ইম্পোৰ্ট	-2724
ঁজ	-2725
অন	-2726
own	-2727
set	-2728
ানে	-2729
েৰা	-2730
dian	-2731
uery	-2732
▁সংঘ	-2733
ভূমিক	-2734
▁যাবে	-2735
মাধ্যম	-2736
▁পঠাওক	-2737
▁গোস্বামী	-2738
▁প্ৰচেষ্টা	-2739
%%	-2740
sc	-2741
লক	-2742
ide	-2743
িতা	-2744
ৰণৰ	-2745
▁পর	-2746
▁ভৰ	-2747
ন্টা	-2748
ৰিকা	-2749
▁২০১	-2750
▁মিনিট	-2751
▁প্ৰধান	-2752
▁বিস্তাৰ	-2753
▁সাহায্য	-2754
▁প্ৰগ্ৰাম	-2755
▁প্ৰাথমিক	-2756
OR	-2757
ish	-2758
েখা	-2759
বদ্ধ	-2760
্যাড	-2761
▁www	-2762
▁বিক	-2763
োঁচকা	-2764
▁পাৰি	-2765
tected	-2766
▁ট্যাব	-2767
▁বোঁচকা	-2768
▁তেতিয়া	-2769
▁ক্ষেত্ৰে	-2770
▁কৰ্মক্ষেত্ৰ	-2771
ark	-2772
▁উত	-2773
tter	-2774
▁পৰ্	-2775
ণালীৰ	-2776
▁Sora	-2777
▁যোৱা	-2778
▁Gonit	-2779
▁পৰ্দা	-2780
ক্ৰিপশন	-2781
▁আমৰিকা	-2782
▁Foundation	-2783
pu	-2784
োব	-2785
গিত	-2786
াতৰ	-2787
▁অক	-2788
▁কুক	-2789
▁জ্য	-2790
▁বক্স	-2791
▁সুনি	-2792
▁অন্তত	-2793
▁চুক্ত	-2794
▁ভাৰ্চ	-2795
▁পৰ্যাপ্ত	-2796
▁প্ৰক্ৰিয়	-2797
ategoryName	-2798
ip	-2799
ছন	-2800
irt	-2801
ধ্ব	-2802
▁বছ	-2803
raid	-2804
ব্যৱ	-2805
▁একক	-2806
▁বাচ	-2807
ভাবিক	-2808
▁পড়া	-2809
▁নিবেশ	-2810
▁প্ৰতিক্ৰিয়া	-2811
▁La	-2812
▁এছ	-2813
ক্ৰম	-2814
▁আহি	-2815
▁জিপ	-2816
▁তুল	-2817
▁ব্ৰ	-2818
▁ৰুম	-2819
utions	-2820
▁ডাউনল	-2821
▁Software	-2822
▁ড্ৰাইভাৰ	-2823
▁শেহতীয়া	-2824
tributions	-2825
em	-2826
বন	-2827
▁৬	-2828
82)	-2829
ass	-2830
ers	-2831
rig	-2832
ual	-2833
▁আচ	-2834
ুৱেল	-2835
টাগৰি	-2836
ডিয়া	-2837
▁2019	-2838
▁এপসন	-2839
দ্যুতি	-2840
▁দৈৰ্ঘ	-2841
▁নিয়ম	-2842
▁বিবৰণ	-2843
▁শিৰোন	-2844
▁প্ৰভাৱ	-2845
▁পৰ্দ্দ	-2846
▁ভিত্তি	-2847
▁ক্যাটাগৰি	-2848
EMU	-2849
urr	-2850
জনক	-2851
তিত	-2852
োকা	-2853
ৰ্ণ	-2854
▁দী	-2855
স্থ্য	-2856
েন্টি	-2857
▁জন্ম	-2858
▁সূচন	-2859
▁মানুহ	-2860
াইন্ডাৰ	-2861
▁তেওঁলো	-2862
▁স্ট্ৰিম	-2863
▁দায়িত্ব	-2864
FF	-2865
▁.	-2866
ধুম	-2867
্বৰ	-2868
▁ma	-2869
▁এশ	-2870
▁ফাঁ	-2871
নিম্ন	-2872
▁QEMU	-2873
▁নীলম	-2874
▁প্ৰো	-2875
▁পৰাম	-2876
▁লেখক	-2877
▁আঁতৰাবলৈ	-2878
▁ৰিমাইন্ডাৰ	-2879
LS	-2880
ix	-2881
▁j	-2882
নিক	-2883
▁14	-2884
▁19	-2885
▁MA	-2886
▁ইং	-2887
কামী	-2888
্যাৰ	-2889
▁ডিৰ	-2890
Query	-2891
▁উচিত	-2892
▁টকিঅ	-2893
▁মেইলিং	-2894
▁ব্যক্তিৰ	-2895
▁পৰিবৰ্তনৰ	-2896
▁কনফিগাৰেশন	-2897
CategoryName	-2898
▁সংযোগমাধ্যম	-2899
20	-2900
87	-2901
av	-2902
কু	-2903
াৎ	-2904
▁©	-2905
▁__	-2906
▁শূ	-2907
ount	-2908
গুলি	-2909
▁ধৰি	-2910
▁Amit	-2911
▁অভিব	-2912
▁ক্লা	-2913
redhat	-2914
▁চৰকাৰ	-2915
▁ফাইলত	-2916
▁বিতৰণ	-2917
▁স্থাপ	-2918
▁পটভূমি	-2919
▁সংখ্যক	-2920
▁স্থগিত	-2921
▁অনুমোদিত	-2922
▁নীলমদ্যুতি	-2923
ংস	-2924
কলে	-2925
ানী	-2926
▁tr	-2927
▁দা	-2928
তিয়	-2929
িপ্ত	-2930
েন্ড	-2931
▁KDE	-2932
▁PCI	-2933
▁str	-2934
▁ৰিচ	-2935
▁ৰেক	-2936
Color	-2937
▁আয়তন	-2938
▁সৰ্বম	-2939
▁নোহোৱা	-2940
▁পৰ্দাৰ	-2941
▁Windows	-2942
▁স্বাভাবিক	-2943
চা	-2944
ণৰ	-2945
নত	-2946
▁Z	-2947
ign	-2948
ork	-2949
ঞ্ছ	-2950
সংগ	-2951
▁বল	-2952
ফালৰ	-2953
▁key	-2954
▁আশা	-2955
▁কয়	-2956
▁ফলে	-2957
▁সতে	-2958
agina	-2959
mbols	-2960
▁টিপক	-2961
▁প্রদ	-2962
▁ফেলা	-2963
তালিকা	-2964
▁ডিবাগ	-2965
▁মুখগত	-2966
ational	-2967
▁পৰীক্ষ	-2968
▁সম্বন্ধ	-2969
oc	-2970
পূ	-2971
মন	-2972
▁Se	-2973
▁ev	-2974
▁আজ	-2975
▁কোড	-2976
▁স্ল	-2977
▁কৰবে	-2978
symbols	-2979
প্ৰদৰ্শন	-2980
▁উল্লেখ্য	-2981
▁ক্ষতিগ্ৰস্থ	-2982
gin	-2983
িতি	-2984
োটা	-2985
▁চে	-2986
▁ঘৰৰ	-2987
▁নায	-2988
▁বিকা	-2989
▁মডেল	-2990
▁ইত্যা	-2991
▁Phukan	-2992
▁search	-2993
▁সমাধান	-2994
▁ছেকেণ্ড	-2995
▁Amitakhya	-2996
dd	-2997
fo	-2998
}}	-2999
▁q	-3000
▁৮	-3001
ari	-3002
তকৈ	-3003
▁Ch	-3004
▁GT	-3005
▁চান	-3006
▁লিপ	-3007
▁ৰখা	-3008
ssage	-3009
▁Ekiga	-3010
▁কম্পি	-3011
▁ফাঁকা	-3012
▁লিখুন	-3013
▁অধিসূচনা	-3014
▁এনক্ৰিপশন	-3015
▁ব্যৱস্থাপ্ৰ	-3016
ww	-3017
ইচ	-3018
301	-3019
tes	-3020
টোক	-3021
নেৰ	-3022
ফোল	-3023
▁Re	-3024
conf	-3025
কাকৈ	-3026
▁Jan	-3027
▁The	-3028
▁কেন	-3029
▁শেল	-3030
▁হেৰ	-3031
▁পাৰ্	-3032
▁প্ৰস	-3033
▁সভাৰ	-3034
▁অধীনত	-3035
▁ঘন্টা	-3036
▁ফ্লেগ	-3037
▁গোলগাল	-3038
▁সম্ভৱত	-3039
▁উপেক্ষা	-3040
▁ফোল্ডার	-3041
▁প্ৰতিমূৰ্	-3042
▁পৰিবৰ্তনসমূহ	-3043
85	-3044
IP	-3045
Re	-3046
TF	-3047
কত	-3048
খোম	-3049
জাত	-3050
ভিল	-3051
▁(.	-3052
▁0.	-3053
▁গৰ	-3054
▁ৰহ	-3055
ance	-3056
atch	-3057
cess	-3058
ন্দু	-3059
াপকৰ	-3060
▁তথা	-3061
▁ফটো	-3062
▁ৰাম	-3063
▁দিলে	-3064
▁লোকচ	-3065
খোমুখী	-3066
্যান্ড	-3067
▁প্ৰবি	-3068
▁লিখিব	-3069
▁গ্ৰাহক	-3070
▁বিশিষ্ট	-3071
▁কৰ্মসূচী	-3072
▁স্বাস্থ্য	-3073
▁বিষয়বস্তু	-3074
rs	-3075
দা	-3076
rec	-3077
ype	-3078
ৱেল	-3079
▁13	-3080
▁গছ	-3081
াক্ট	-3082
▁আইন	-3083
▁টাই	-3084
▁নীৰ	-3085
▁সাপ	-3086
▁সিহ	-3087
▁ভাবে	-3088
▁ধনৰাশ	-3089
▁পলিচী	-3090
▁ডিৰেক্ট	-3091
▁সাৰ্ভাৰ	-3092
▁পুনৰাবৃত	-3093
▁সংৰক্ষণৰ	-3094
▁ৰূপান্তৰ	-3095
escription	-3096
64	-3097
PN	-3098
উল	-3099
চে	-3100
how	-3101
ood	-3102
thi	-3103
▁..	-3104
▁or	-3105
help	-3106
এন্ট	-3107
িবোৰ	-3108
্লাছ	-3109
▁ঘুৰ	-3110
▁টিউ	-3111
লেণ্ড	-3112
ায়ীৰ	-3113
▁ইমেইল	-3114
▁খোলিব	-3115
▁নাযাব	-3116
▁ব্যুৰ	-3117
▁শাৰীৰ	-3118
▁ক্ষমতা	-3119
▁সময়েৰ	-3120
▁প্রদর্শন	-3121
▁প্ৰতিষ্ঠ	-3122
cal	-3123
ila	-3124
▁20	-3125
▁Me	-3126
▁qu	-3127
▁কৃ	-3128
▁ডক	-3129
্ৰুত	-3130
▁পাব	-3131
ণ্ডাৰ	-3132
▁খালি	-3133
▁সন্ত	-3134
▁পেলাব	-3135
▁আতৰোৱা	-3136
▁ফোল্ডাৰসমূহ	-3137
PL	-3138
eek	-3139
out	-3140
mage	-3141
▁নির	-3142
▁বহু	-3143
▁মেৰ	-3144
▁বহিৰ	-3145
▁তেওঁৰ	-3146
▁পৰিচিতি	-3147
▁মানসমূহ	-3148
▁বাৰ্তাটি	-3149
11	-3150
="	-3151
AT	-3152
iB	-3153
হৰ	-3154
ain	-3155
rom	-3156
াম্ব	-3157
িহীন	-3158
▁GTK	-3159
▁দৰে	-3160
▁মনি	-3161
▁ডাটা	-3162
▁বজোৱা	-3163
▁মুহাম	-3164
▁লিখাৰ	-3165
▁মখোমুখী	-3166
▁ক্লাএন্ট	-3167
্ৰম	-3168
▁SM	-3169
▁vC	-3170
▁তৰ	-3171
্ৰাস	-3172
▁200	-3173
▁খনক	-3174
▁চমু	-3175
error	-3176
optic	-3177
িয়াল	-3178
▁চফ্ট	-3179
▁দিছে	-3180
▁নিষ্প	-3181
▁ভাষাৰ	-3182
▁মুদ্ৰ	-3183
▁পছন্দৰ	-3184
▁ব্যস্ত	-3185
ায়ীৰূপে	-3186
▁দৈৰ্ঘ্য	-3187
▁নোৱাৰিব	-3188
▁ব্যৱসায়	-3189
▁Launchpad	-3190
▁Contributions	-3191
25	-3192
পু	-3193
▁)	-3194
ise	-3195
কার	-3196
কিউ	-3197
▁by	-3198
tool	-3199
{1}"	-3200
টোকল	-3201
বৰ্ড	-3202
স্ৰা	-3203
্তিক	-3204
▁বাদ	-3205
▁সহজ	-3206
িক্ৰম	-3207
▁আব্দ	-3208
▁বেকএ	-3209
▁মানৰ	-3210
▁সংকো	-3211
চমেন্ট	-3212
▁"{1}"	-3213
▁সৰ্বোচ্চ	-3214
▁প্ৰিন্টাৰ	-3215
83)	-3216
ion	-3217
ছেন	-3218
ালগ	-3219
▁চাপ	-3220
reate	-3221
▁rese	-3222
▁বেছি	-3223
▁Group	-3224
▁কাৰ্ড	-3225
▁পঢ়িব	-3226
▁যোগ্য	-3227
▁স্থানত	-3228
▁সৰিয়ে	-3229
▁আৰম্ভণি	-3230
▁জিপ্লাছ	-3231
▁প্ৰত্যু	-3232
▁resetter	-3233
▁এটাচমেন্ট	-3234
▁গুৰুত্বপূৰ্ণ	-3235
ীড	-3236
66)	-3237
lyw	-3238
জ্য	-3239
াইজ	-3240
,000	-3241
line	-3242
ollyw	-3243
স্ৰাৱ	-3244
▁সময়অ	-3245
▁হাৰ্ড	-3246
▁মৃত্যু	-3247
ollywood	-3248
▁পৰীক্ষণ	-3249
▁National	-3250
▁প্ৰসাৰিত	-3251
▁অনুপ্ৰয়োগৰ	-3252
SS	-3253
nu	-3254
উপ	-3255
ৰী	-3256
Imp	-3257
▁24	-3258
▁ac	-3259
▁চা	-3260
None	-3261
▁Com	-3262
▁con	-3263
right	-3264
▁আগতে	-3265
▁কমপি	-3266
▁নিজৰ	-3267
▁সতেজ	-3268
▁চাবিৰ	-3269
▁নিৰ্ভ	-3270
▁লিস্ট	-3271
▁স্কেন	-3272
tionary	-3273
ক্ষিপ্ত	-3274
▁অনুকৰণ	-3275
▁ডমেইনৰ	-3276
▁বিষয়ক	-3277
▁খোলিবলে	-3278
▁ধাৰ্য্যত	-3279
▁পৰিৱৰ্তন	-3280
▁protected	-3281
▁ভাৰ্চুৱেল	-3282
ছো	-3283
ঠন	-3284
SON	-3285
ann	-3286
ill	-3287
tif	-3288
uti	-3289
গুল	-3290
জনৰ	-3291
বেক	-3292
াকচ	-3293
▁17	-3294
▁শৈ	-3295
▁সজ	-3296
▁dis	-3297
▁দুই	-3298
▁সঁজ	-3299
▁ৰোগ	-3300
cript	-3301
tions	-3302
ক্ষিত	-3303
▁আফ্ৰ	-3304
▁ব্যা	-3305
▁যোগান	-3306
▁অভিব্য	-3307
▁নিৰীক্ষণ	-3308
▁Bollywood	-3309
29	-3310
55	-3311
অসম	-3312
গ্র	-3313
▁16	-3314
▁নৱ	-3315
file	-3316
list	-3317
work	-3318
লিচি	-3319
▁100	-3320
▁USB	-3321
▁জুম	-3322
বোৰ্ড	-3323
▁JSON	-3324
▁সংকল	-3325
▁নিৰাপদ	-3326
▁নোৱাৰে	-3327
▁সংযোগৰ	-3328
▁চিকিৎসা	-3329
▁ফোল্ডাৰেৰ	-3330
▁ব্যৱস্থাৰ	-3331
▁স্থায়ীৰূপে	-3332
''	-3333
AD	-3334
ll	-3335
গা	-3336
▁꧁	-3337
ace	-3338
tit	-3339
কেত	-3340
▁fs	-3341
নীয়	-3342
লগ্ন	-3343
▁VPN	-3344
▁খবৰ	-3345
▁গোট	-3346
▁টান	-3347
▁থীম	-3348
▁পাচ	-3349
▁event	-3350
▁বিশ্বাস	-3351
▁দস্তাবেজত	-3352
▁স্ক্ৰিপ্ট	-3353
LL	-3354
UE	-3355
ঘাত	-3356
টেল	-3357
তিব	-3358
ন্থ	-3359
হার	-3360
▁18	-3361
book	-3362
port	-3363
টাবে	-3364
মানৰ	-3365
হুৱা	-3366
্ৰিক	-3367
▁SSL	-3368
▁ৰুহ	-3369
Vagina	-3370
াধিকাৰ	-3371
▁জড়িত	-3372
▁বিকাশ	-3373
▁স্পুল	-3374
▁নথকাকৈ	-3375
▁বাহিৰে	-3376
▁কেতিয়া	-3377
▁পৰিকল্প	-3378
▁ফ্ল্যাগ	-3379
▁শিৰোনাম	-3380
▁স্বাক্ষ	-3381
▁প্ৰোগ্ৰাম	-3382
54	-3383
ft	-3384
iv	-3385
িণ	-3386
any	-3387
top	-3388
uid	-3389
▁30	-3390
কৰোঁ	-3391
বোৰৰ	-3392
াম্প	-3393
িলাক	-3394
▁ইশক	-3395
▁গতি	-3396
▁মনত	-3397
▁দিনৰ	-3398
▁প্ৰব	-3399
▁ব্ৰি	-3400
▁অতিথি	-3401
▁টেবুল	-3402
▁শেল্ফ	-3403
▁ৰুহিত	-3404
▁এশিয়া	-3405
▁অৱশিষ্ট	-3406
▁প্ৰাপকৰ	-3407
ictionary	-3408
▁নিৰ্বাচনৰ	-3409
▁লিখনযোগ্য	-3410
▁প্ৰতিমূৰ্তি	-3411
▁প্ৰমাণীকৰণৰ	-3412
▁অংশগ্ৰহণকাৰী	-3413
Ass	-3414
utt	-3415
www	-3416
কাল	-3417
▁50	-3418
্লেট	-3419
▁hrs	-3420
▁অসং	-3421
▁বতৰ	-3422
লিস্ট	-3423
াত্মক	-3424
▁Time	-3425
▁আপনি	-3426
পৃষ্ঠা	-3427
▁আৰ্হি	-3428
▁কাৰ্ছ	-3429
▁জ্ঞান	-3430
▁তেনেহ	-3431
▁পঠোৱা	-3432
▁ডাটাবে	-3433
▁বিকল্পৰ	-3434
▁প্ৰতিৰোধ	-3435
▁সৰ্বনিম্ন	-3436
GP	-3437
আই	-3438
IME	-3439
get	-3440
াগৰ	-3441
▁অজ	-3442
▁খৰ	-3443
▁১৯	-3444
mark	-3445
কালে	-3446
▁অবা	-3447
▁তাচ	-3448
▁অসমৰ	-3449
▁সূচী	-3450
search	-3451
ন্ত্ৰী	-3452
ুমেন্ট	-3453
▁ভাষাত	-3454
▁মূখ্য	-3455
বিন্যাস	-3456
▁ৰাজহুৱা	-3457
▁তালিকায়	-3458
▁পৰিবৰ্তিত	-3459
53	-3460
Se	-3461
ুগ	-3462
্ধ	-3463
▁৭	-3464
ore	-3465
pen	-3466
ালো	-3467
েকৈ	-3468
্মদ	-3469
▁Sp	-3470
▁অম	-3471
atus	-3472
ight	-3473
▁তাস	-3474
▁বীজ	-3475
▁হৰত	-3476
্যন্ত	-3477
▁তিনি	-3478
▁বাটন	-3479
▁পুৰনি	-3480
▁শুধুম	-3481
▁সময়স	-3482
▁ৰহমান	-3483
▁চিড়িত	-3484
▁পদাৰ্থ	-3485
▁ৰয়েছে	-3486
ৱাৰেন্টি	-3487
▁নেটৱাৰ্	-3488
▁নীৰিক্ষণ	-3489
▁পৰিসংখ্যা	-3490
86	-3491
ps	-3492
ডে	-3493
শু	-3494
'''	-3495
হিত	-3496
িহে	-3497
▁খু	-3498
▁লো	-3499
ence	-3500
look	-3501
বাঢ়	-3502
▁...	-3503
▁not	-3504
▁set	-3505
▁পাত	-3506
▁Nila	-3507
▁ইংৰা	-3508
▁গৈছে	-3509
▁ধৰণে	-3510
▁সেৱাৰ	-3511
▁হোস্ট	-3512
▁ৰাখিব	-3513
ফোল্ডাৰ	-3514
▁পৰিশোধ	-3515
▁শিক্ষা	-3516
▁ৰেকৰ্ড	-3517
▁এতিয়াও	-3518
▁পঢ়িবলৈ	-3519
▁সঞ্চালন	-3520
▁নেটৱাৰ্কৰ	-3521
15	-3522
IM	-3523
OS	-3524
rg	-3525
্গ	-3526
mdy	-3527
মেন	-3528
লিপ	-3529
▁এম	-3530
▁সভ	-3531
revi	-3532
▁App	-3533
স্থলৰ	-3534
mdyuti	-3535
▁চলাওক	-3536
▁বৰ্জন	-3537
▁প্ৰস্ত	-3538
▁লিখনীৰ	-3539
▁সঁজুলি	-3540
▁Goswami	-3541
▁সৰ্বমোট	-3542
▁Nilamdyuti	-3543
▁প্ৰতিষ্ঠান	-3544
▁স্বনিৰ্ধাৰিত	-3545
▁পূৰ্বপ্ৰদৰ্শন	-3546
ON	-3547
TE	-3548
ks	-3549
ati	-3550
riv	-3551
খনৰ	-3552
ভিত	-3553
োতি	-3554
ৰ্ভ	-3555
▁ধন	-3556
ader	-3557
ring	-3558
ward	-3559
াৰ্ছ	-3560
▁(23	-3561
▁IFF	-3562
▁অসু	-3563
▁ভঁৰ	-3564
▁আমাক	-3565
▁উদ্ধ	-3566
▁কৰুন	-3567
▁তথাপ	-3568
▁পূৰণ	-3569
▁media	-3570
▁দ্বীপ	-3571
▁পেনেলৰ	-3572
▁লোকচান	-3573
▁আঁতৰাওক	-3574
▁কামসূচী	-3575
▁ব্যবহার	-3576
▁ডিৰেক্টৰি	-3577
▁চিকিৎসালয়	-3578
;/	-3579
mm	-3580
▁✞	-3581
াদন	-3582
▁TR	-3583
▁শা	-3584
ড়াল	-3585
দিহে	-3586
সকলে	-3587
▁তাগ	-3588
▁ফৰম	-3589
▁সাং	-3590
opian	-3591
মাত্ৰ	-3592
▁minu	-3593
▁চাৰি	-3594
টেক্সট	-3595
▁বাকচত	-3596
▁আগবাঢ়	-3597
▁কৰিছিল	-3598
▁ৰামানু	-3599
thiopian	-3600
▁আফ্ৰিকা	-3601
▁দূৰৱৰ্তী	-3602
▁ইন্টাৰনেট	-3603
/%	-3604
ph	-3605
ওঁক	-3606
▁Ar	-3607
▁Wi	-3608
▁en	-3609
▁ওচ	-3610
ষ্কট	-3611
▁বয়	-3612
▁বাং	-3613
গৰাকী	-3614
ডাক্ট	-3615
মিটাৰ	-3616
ামূলক	-3617
▁আখৰৰ	-3618
▁নামক	-3619
▁বৰ্ণ	-3620
▁যাতে	-3621
▁IFFCO	-3622
▁বিদ্য	-3623
▁বিনাম	-3624
▁ভিন্ন	-3625
▁এছিয়া	-3626
▁পৰিপ্ৰে	-3627
▁সম্পত্ত	-3628
▁প্ৰডাক্ট	-3629
▁মুহাম্মদ	-3630
▁ক্লিপবৰ্ড	-3631
▁সম্পৰ্কিত	-3632
=%	-3633
CD	-3634
SI	-3635
▁\	-3636
une	-3637
টোত	-3638
ৰ্গ	-3639
▁40	-3640
▁NU	-3641
Next	-3642
inux	-3643
ৰ্তম	-3644
▁Inc	-3645
▁আইক	-3646
▁ইসু	-3647
▁চেল	-3648
▁টগল	-3649
▁ডাঠ	-3650
▁বুল	-3651
জ্ঞান	-3652
বিহীন	-3653
▁মাউছ	-3654
▁সৃজন	-3655
▁ৰেজি	-3656
▁প্ৰিম	-3657
▁বুটামৰ	-3658
▁স্বচ্ছ	-3659
ষ্ট্ৰীয়	-3660
▁ইত্যাদি	-3661
▁উন্নয়ন	-3662
▁পৰিচালন	-3663
▁বিশ্ববি	-3664
▁বিন্যাসৰ	-3665
/2	-3666
47	-3667
CK	-3668
Fi	-3669
ঘল	-3670
▁15	-3671
▁RA	-3672
▁op	-3673
ৃত্ত	-3674
▁Net	-3675
▁Spa	-3676
▁গৱে	-3677
▁বাজ	-3678
count	-3679
কীয়া	-3680
▁টিউব	-3681
▁ধাৰা	-3682
Coptic	-3683
▁দেখুৱ	-3684
▁বাকচৰ	-3685
▁মহিলা	-3686
Meeting	-3687
▁Google	-3688
▁ডেষ্কট	-3689
▁নকৰিলে	-3690
▁প্ৰকাৰ	-3691
▁বৰাদ্দ	-3692
▁মূদ্ৰণ	-3693
▁চফ্টৱেৰ	-3694
▁পৰামৰ্শ	-3695
▁দুৰ্ঘটনা	-3696
▁নিয়ন্ত্ৰক	-3697
36	-3698
io	-3699
এল	-3700
রি	-3701
ans	-3702
tip	-3703
বেন	-3704
▁1.	-3705
▁SO	-3706
▁VM	-3707
File	-3708
ther	-3709
টোৱে	-3710
োনাৰ	-3711
▁(50	-3712
▁che	-3713
▁সোধ	-3714
▁স্ম	-3715
খ্যান	-3716
ভাবিত	-3717
স্ট্ৰ	-3718
▁ইঞ্জ	-3719
mdraid	-3720
▁চলোৱা	-3721
▁উৎপন্ন	-3722
▁প্লেইন	-3723
▁সতৰ্কবা	-3724
▁প্ৰভাবিত	-3725
▁কম্পিউটাৰ	-3726
19	-3727
OM	-3728
xx	-3729
র্চ	-3730
ুনা	-3731
▁Sh	-3732
▁দশ	-3733
▁সব	-3734
ault	-3735
খলিত	-3736
টিকে	-3737
ান্ড	-3738
াপ্ৰ	-3739
▁(36	-3740
▁শতা	-3741
▁ষ্ট	-3742
ilter	-3743
ঞ্ছিত	-3744
▁week	-3745
▁চকেট	-3746
▁ছবিক	-3747
▁ধৰনৰ	-3748
▁অজানা	-3749
▁আতৰাব	-3750
▁দ্ৰুত	-3751
▁প্লেট	-3752
▁বিচৰা	-3753
▁মুখ্য	-3754
▁ৰাজ্য	-3755
▁প্ৰশাস	-3756
▁স্ক্ৰল	-3757
▁স্থানৰ	-3758
▁প্ৰতিটো	-3759
▁ডাইৰেকটৰ	-3760
অব	-3761
েজ	-3762
েস	-3763
োচ	-3764
োভ	-3765
85)	-3766
র্ম	-3767
ুন্	-3768
▁$1	-3769
▁CA	-3770
▁অল	-3771
▁লু	-3772
ench	-3773
বাইল	-3774
ুনাৰ	-3775
▁Web	-3776
▁কাট	-3777
▁শিল	-3778
▁হাব	-3779
fault	-3780
title	-3781
ফ্ৰেই	-3782
▁উদ্ভ	-3783
▁তুলি	-3784
▁দীঘল	-3785
▁নামে	-3786
▁ইসুজু	-3787
▁শূণ্য	-3788
চিস্টেম	-3789
▁চুক্তি	-3790
▁পংক্তি	-3791
▁সন্ধানৰ	-3792
▁অবাঞ্ছিত	-3793
▁দায়বদ্ধ	-3794
▁ব্যবস্থা	-3795
▁সঠিকভাবে	-3796
▁প্ৰতিলিপি	-3797
▁প্ৰবিষ্টি	-3798
PR	-3799
উদ	-3800
চৌ	-3801
Con	-3802
ISO	-3803
ase	-3804
ull	-3805
লাৰ	-3806
াবি	-3807
ৰেখ	-3808
▁("	-3809
nome	-3810
word	-3811
তাৰে	-3812
স্বা	-3813
▁Out	-3814
▁vir	-3815
▁you	-3816
▁আঁচ	-3817
▁আজি	-3818
▁বৃহ	-3819
▁uuid	-3820
▁প্ৰক	-3821
▁শতাংশ	-3822
▁string	-3823
▁অৰ্থাৎ	-3824
▁ইংৰাজী	-3825
▁নিৰ্ভৰ	-3826
▁পলিচীৰ	-3827
▁মাইগ্ৰ	-3828
▁Meeting	-3829
Ethiopian	-3830
▁ডকুমেন্ট	-3831
▁সংক্ষিপ্ত	-3832
▁প্ৰাৰম্ভিক	-3833
▁পৰিপ্ৰেক্ষ	-3834
▁প্ৰমাণপত্ৰৰ	-3835
▁ব্যৱহাৰকৰ্তা	-3836
▁বিশ্ববিদ্যালয়	-3837
24	-3838
দী	-3839
োৱ	-3840
ome	-3841
নাক	-3842
▁2.	-3843
▁তু	-3844
stem	-3845
াপনৰ	-3846
ৃতিৰ	-3847
▁(29	-3848
▁গেল	-3849
▁পড়	-3850
▁ফীড	-3851
▁সেট	-3852
▁উৎসৰ	-3853
▁কুকি	-3854
▁ছায়	-3855
▁আড়াল	-3856
▁ৰক্ষা	-3857
▁নিৰ্গম	-3858
▁সমাপ্তি	-3859
▁অন্তৰ্গত	-3860
▁আঁতৰুৱাৰ	-3861
▁নিষ্পেষণ	-3862
▁ব্ৰাউছাৰ	-3863
sp	-3864
00)	-3865
add	-3866
ura	-3867
urn	-3868
দ্ব	-3869
লিম	-3870
date	-3871
nter	-3872
▁ইউন	-3873
▁মুঠ	-3874
▁যাও	-3875
▁সোম	-3876
▁লাইন	-3877
▁নাথাক	-3878
▁যদিহে	-3879
▁দক্ষিণ	-3880
▁নামকৰণ	-3881
ক্ষণকামী	-3882
▁গ্ৰাফিক	-3883
▁সঠিকৰূপে	-3884
▁প্ৰাচলসমূহ	-3885
▁বৈশিষ্ট্যৰ	-3886
75	-3887
sk	-3888
zu	-3889
ত্	-3890
২০	-3891
API	-3892
ink	-3893
low	-3894
গতি	-3895
মিক	-3896
িমা	-3897
েমন	-3898
▁এড	-3899
▁য়	-3900
link	-3901
সময়	-3902
ource	-3903
▁this	-3904
▁আনলক	-3905
▁কোৰআ	-3906
▁ধৰ্ম	-3907
▁মাৰ্	-3908
ঙ্গুলি	-3909
টোসমূহ	-3910
▁আঁচনি	-3911
▁থাকলে	-3912
ওয়াৰ্ড	-3913
▁সেৱকেৰ	-3914
Calendar	-3915
▁পৰিয়াল	-3916
▁সমলসমূহ	-3917
▁ব্ৰাউজাৰ	-3918
▁সাহায্যে	-3919
▁কাৰ্য্যসমূহ	-3920
()	-3921
ff	-3922
ঙা	-3923
শা	-3924
▁o	-3925
▁ঊ	-3926
▁৯	-3927
ast	-3928
bar	-3929
oll	-3930
omi	-3931
zil	-3932
ভংগ	-3933
ষণা	-3934
▁pr	-3935
▁জৰ	-3936
▁পপ	-3937
angu	-3938
cond	-3939
াবাৰ	-3940
িওৱা	-3941
িচিত	-3942
▁টেম	-3943
▁বাল	-3944
▁নাকচ	-3945
▁বাচি	-3946
▁সংগঠ	-3947
্ৰেক্ট	-3948
▁একত্ৰ	-3949
▁চেনেল	-3950
▁ছেন্ট	-3951
▁পক্ষৰ	-3952
▁মেনুৰ	-3953
▁শব্দৰ	-3954
anguage	-3955
াৰ্ভাৰে	-3956
▁আবন্টন	-3957
▁পৰ্দাত	-3958
▁বিলম্ব	-3959
▁ব্ৰাউজ	-3960
▁অভ্যন্ত	-3961
▁ৰিচাৰ্ছ	-3962
▁পুনৰাবৃত্তি	-3963
▁পৰিপ্ৰেক্ষতিত	-3964
SP	-3965
ST	-3966
tk	-3967
ave	-3968
bus	-3969
ict	-3970
চাৰ	-3971
ণিক	-3972
পাত	-3973
▁XX	-3974
▁ভগ	-3975
▁পেক	-3976
▁মেপ	-3977
ature	-3978
umber	-3979
utton	-3980
ভাৱিক	-3981
▁উপৰত	-3982
▁হৈতো	-3983
▁query	-3984
▁কিমান	-3985
▁বাফাৰ	-3986
display	-3987
▁আব্দুল	-3988
▁ইছলামৰ	-3989
▁weekday	-3990
▁উইন্ডোক	-3991
▁বহিৰ্তম	-3992
▁পৰিচালনা	-3993
▁পৰিস্ৰাৱ	-3994
▁শুধুমাত্ৰ	-3995
▁ফাইলচিস্টেম	-3996
▁সাবস্ক্ৰাইব	-3997
St	-3998
79)	-3999
dio	-4000
েটৰ	-4001
▁ST	-4002
▁ex	-4003
▁lo	-4004
▁ঘো	-4005
▁জা	-4006
▁যত	-4007
iCal	-4008
olic	-4009
ৃন্দ	-4010
▁org	-4011
▁বেল	-4012
ছুৱেল	-4013
▁with	-4014
▁হস্ত	-4015
লগীয়া	-4016
▁খোলাৰ	-4017
▁চাৰ্জ	-4018
▁ব্ৰিজ	-4019
iCalImp	-4020
▁ইঞ্জিন	-4021
▁স্বত্ব	-4022
▁মিডিয়া	-4023
▁স্তম্ভৰ	-4024
▁পঞ্জিকাৰ	-4025
▁পাচফ্ৰেই	-4026
6,	-4027
তু	-4028
দু	-4029
্থ	-4030
▁—	-4031
(23	-4032
cel	-4033
raw	-4034
িনা	-4035
ীনা	-4036
োনা	-4037
ৱলী	-4038
▁Te	-4039
▁কথ	-4040
▁ফা	-4041
▁ৰো	-4042
icro	-4043
vice	-4044
কৰণৰ	-4045
খিনি	-4046
স্থল	-4047
্লেই	-4048
▁PGP	-4049
▁app	-4050
▁ইনফ	-4051
▁জাপ	-4052
ফিকুল	-4053
▁MAPI	-4054
▁file	-4055
▁কনচৌ	-4056
▁দেশৰ	-4057
▁শৈলী	-4058
▁সন্দ	-4059
▁চলমান	-4060
▁থাম্ব	-4061
▁মনিটৰ	-4062
ৰ্দিষ্ট	-4063
▁ঠিকানা	-4064
▁প্ৰিয়	-4065
▁বহিয়ে	-4066
▁লুকুৱা	-4067
▁ৰফিকুল	-4068
▁আৰম্ভণিত	-4069
▁মাইগ্ৰেট	-4070
▁পছন্দসমূহ	-4071
Sp	-4072
sv	-4073
☬✞	-4074
act	-4075
dir	-4076
dit	-4077
eng	-4078
ume	-4079
ডাৰ	-4080
াপী	-4081
ৰিৰ	-4082
িবুৰ	-4083
ৱেশন	-4084
▁Dis	-4085
▁Ser	-4086
▁XXX	-4087
েম্বৰ	-4088
ৰ্ত্ত	-4089
▁(100	-4090
▁ছাইট	-4091
▁ব্লক	-4092
প্ৰিয়	-4093
▁error	-4094
▁খুলুন	-4095
▁ধাৰ্য	-4096
▁Folder	-4097
▁আলোচনা	-4098
▁অৱস্থাৰ	-4099
▁নিযুক্ত	-4100
▁হাবিবুৰ	-4101
▁আনুভূমিক	-4102
▁কমপিউটাৰ	-4103
▁তেওঁলোকৰ	-4104
▁নিৰ্দেশক	-4105
▁প্ৰতিনিধ	-4106
▁বিন্যাসত	-4107
▁মানচিত্ৰ	-4108
▁সময়সীমা	-4109
▁প্ৰত্যক্ষ	-4110
-2	-4111
:1	-4112
ai	-4113
এচ	-4114
ুস	-4115
▁×	-4116
87)	-4117
CKS	-4118
জিল	-4119
দৰে	-4120
পৰি	-4121
ীখন	-4122
্রে	-4123
ৰ্ধ	-4124
8859	-4125
http	-4126
কারী	-4127
ফাইল	-4128
্ৰমণ	-4129
▁IPv	-4130
▁কেৰ	-4131
▁দিক	-4132
assin	-4133
iaomi	-4134
ঙ্গিত	-4135
ালৈকে	-4136
▁time	-4137
▁কলাম	-4138
▁হবলে	-4139
Script	-4140
▁SOCKS	-4141
▁বিৰতি	-4142
▁মেটাৰ	-4143
▁যিবোৰ	-4144
▁হ্ৰাস	-4145
ব্যৱহাৰ	-4146
▁অন্তিম	-4147
▁নিজস্ব	-4148
▁বিন্দু	-4149
▁অভিগম্য	-4150
▁হ্যান্ড	-4151
প্ৰযুক্তি	-4152
▁একাওন্টৰ	-4153
▁সূচনাপ্ৰ	-4154
▁সাৰ্ভাৰেৰ	-4155
")	-4156
-8	-4157
73	-4158
nd	-4159
গে	-4160
ঙী	-4161
িফ	-4162
✞☬	-4163
AME	-4164
UTF	-4165
jab	-4166
par	-4167
ক্ল	-4168
র্ভ	-4169
েখে	-4170
▁3.	-4171
▁(20	-4172
▁(32	-4173
▁TLS	-4174
▁আদি	-4175
▁খৰচ	-4176
▁চিৰ	-4177
-8859	-4178
▁অস্ব	-4179
▁ইঞ্চ	-4180
▁দৰঙী	-4181
আপোনাৰ	-4182
▁vCard	-4183
▁ভাৰতত	-4184
▁ভিত্ত	-4185
▁অপসাৰণ	-4186
▁কেনেকৈ	-4187
▁সংৰূপণ	-4188
▁সঞ্চাল	-4189
▁ডোমেইনৰ	-4190
▁মেটাৰ্চ	-4191
▁সফলতাৰে	-4192
▁কোম্পানী	-4193
▁কোম্পানীৰ	-4194
Permissions	-4195
▁এপ্লিকেচনৰ	-4196
▁এক্সট্ৰেক্ট	-4197
ৱৰ	-4198
ata	-4199
the	-4200
র্থ	-4201
িলো	-4202
▁IN	-4203
▁Tr	-4204
▁cd	-4205
▁sp	-4206
▁ফি	-4207
▁বৃ	-4208
Show	-4209
lish	-4210
মাওক	-4211
াহ্য	-4212
োক্ত	-4213
▁(14	-4214
▁ঠাই	-4215
▁বাই	-4216
▁বেট	-4217
▁মতে	-4218
▁১০০	-4219
ক্তিৰ	-4220
মেন্ট	-4221
▁true	-4222
▁ইফকো	-4223
▁কৰাত	-4224
▁টাইপ	-4225
▁বাহন	-4226
▁বিপদ	-4227
▁বিবি	-4228
▁লিপি	-4229
▁ঘুৰাই	-4230
▁পঢ়াৰ	-4231
▁গ্ৰন্থ	-4232
▁জ্যোতি	-4233
▁নিবন্ধ	-4234
▁ফাইলটি	-4235
▁ছবিসমূহ	-4236
▁ব্যাখ্যা	-4237
▁পাচফ্ৰেইছ	-4238
▁সতৰ্কবাণী	-4239
▁সুনিশ্চিত	-4240
▁একাওন্টসমূহ	-4241
▁প্ৰত্যুত্তৰ	-4242
.,	-4243
CP	-4244
কক	-4245
64)	-4246
Bus	-4247
adu	-4248
ies	-4249
ভেল	-4250
মাত	-4251
ষ্য	-4252
েচন	-4253
▁22	-4254
▁Au	-4255
▁তল	-4256
▁পই	-4257
/201	-4258
cial	-4259
virt	-4260
ন্দৰ	-4261
সমুহ	-4262
▁কেই	-4263
▁গ্র	-4264
▁নাল	-4265
▁পাথ	-4266
▁বাঁ	-4267
▁যান	-4268
▁যৌথ	-4269
▁সঁচ	-4270
▁অপশন	-4271
▁উদ্য	-4272
▁গ্লে	-4273
▁দুৰ্	-4274
▁পাছত	-4275
▁বাইট	-4276
▁মীমা	-4277
▁আবেদন	-4278
▁মালিক	-4279
▁সংকেত	-4280
ভিত্তিক	-4281
▁গৃহস্থ	-4282
▁তথাপিও	-4283
▁সংজ্ঞা	-4284
▁সংলগ্ন	-4285
▁চিড়িতনৰ	-4286
▁জনপ্ৰিয়	-4287
▁নিৰ্বাচক	-4288
▁বৈশিষ্ট্যসমূহ	-4289
"&	-4290
84)	-4291
acy	-4292
ask	-4293
lan	-4294
াকত	-4295
্বো	-4296
▁51	-4297
▁তৎ	-4298
▁ভৌ	-4299
▁১২	-4300
▁ৱা	-4301
▁‘%	-4302
(242	-4303
843)	-4304
ated	-4305
lick	-4306
িকেল	-4307
▁কোষ	-4308
▁ডিচ	-4309
▁পৰে	-4310
▁২০০	-4311
▁SMTP	-4312
▁কিয়	-4313
▁লিংক	-4314
▁সন্ম	-4315
▁ৰপ্ত	-4316
▁শিল্প	-4317
▁Outlook	-4318
▁অতিক্ৰম	-4319
▁ইশকাপনৰ	-4320
▁পাৰ্শ্ব	-4321
▁পৰিৱেশন	-4322
▁ৰুহিতনৰ	-4323
▁ঈক্ষণকামী	-4324
▁কৰ্মস্থলৰ	-4325
▁ক্লিপবোৰ্ড	-4326
▁ডিভাইচসমূহ	-4327
ER	-4328
TM	-4329
cp	-4330
{{	-4331
ফে	-4332
়্	-4333
জনে	-4334
নিৰ	-4335
পেড	-4336
শান	-4337
▁আত	-4338
fore	-4339
host	-4340
গুলো	-4341
ৰ্কৰ	-4342
▁job	-4343
▁উপধ	-4344
▁কলৰ	-4345
▁কাগ	-4346
▁ছাল	-4347
▁বাত	-4348
▁ভূম	-4349
ustom	-4350
শ্চিম	-4351
্যাহত	-4352
▁কৰ্ত	-4353
▁চিটি	-4354
▁বাধা	-4355
▁শ্ৰী	-4356
Indian	-4357
▁অভিনে	-4358
▁সামৰি	-4359
ছেকেণ্ড	-4360
▁ইঙ্গিত	-4361
▁কেমেৰা	-4362
▁ডায়লগ	-4363
▁সম্ভবত	-4364
▁brasero	-4365
▁অৱস্থানত	-4366
▁সঞ্চালিত	-4367
▁এক্সপোৰ্ট	-4368
▁ৰাষ্ট্ৰীয়	-4369
$$	-4370
:2	-4371
MA	-4372
TI	-4373
েও	-4374
োত	-4375
▁ঔ	-4376
▁•	-4377
46)	-4378
:$1	-4379
ail	-4380
eri	-4381
tar	-4382
ধীন	-4383
নাব	-4384
াকি	-4385
▁1'	-4386
▁দূ	-4387
▁ধজ	-4388
User	-4389
anag	-4390
pace	-4391
pass	-4392
soft	-4393
চাইট	-4394
টাডা	-4395
পক্ষ	-4396
ফৰ্ম	-4397
াকৰণ	-4398
োয়া	-4399
▁(15	-4400
▁চেক	-4401
▁জয়	-4402
olicy	-4403
▁Comp	-4404
▁list	-4405
▁ইণ্ড	-4406
▁করতে	-4407
▁কর্ম	-4408
▁পাঁচ	-4409
▁ম্যা	-4410
▁ৰেখা	-4411
urrent	-4412
▁অসম্প	-4413
▁টানেল	-4414
▁ধজভংগ	-4415
▁সংশোধ	-4416
▁হৰতনৰ	-4417
▁ইছলামী	-4418
▁এইচকিউ	-4419
▁দক্ষতা	-4420
▁সিস্টেম	-4421
▁সোঁফালে	-4422
▁অগ্ৰাহ্য	-4423
▁প্ৰস্তাব	-4424
▁বিজ্ঞানী	-4425
▁প্ৰযুক্তি	-4426
▁ব্যবহাৰকাৰীৰ	-4427
ox	-4428
âř	-4429
গু	-4430
ধন	-4431
াজ	-4432
োণ	-4433
-12	-4434
88)	-4435
iki	-4436
lar	-4437
yth	-4438
জান	-4439
সাব	-4440
▁Th	-4441
▁xx	-4442
▁সূ	-4443
Play	-4444
rank	-4445
মানে	-4446
িল্ল	-4447
▁cpu	-4448
▁xxx	-4449
▁কিচ	-4450
▁লগা	-4451
▁টোকা	-4452
▁দৰুন	-4453
▁নামত	-4454
▁নির্	-4455
▁প্ৰৰ	-4456
▁বছৰৰ	-4457
▁বহীৰ	-4458
▁বহুত	-4459
▁যিটো	-4460
▁কাৰ্চ	-4461
▁গৰাকী	-4462
▁নালাগ	-4463
▁বাৰ্ষ	-4464
▁before	-4465
▁নিষ্কা	-4466
▁আমন্ত্ৰ	-4467
▁একত্ৰিত	-4468
▁প্ৰটোকল	-4469
▁আগবঢ়োৱা	-4470
▁তথ্যসমূহ	-4471
▁iCalendar	-4472
▁প্ৰতিবেদন	-4473
▁কেলেন্ডাৰৰ	-4474
▁সম্প্ৰসাৰণ	-4475
NS	-4476
OD	-4477
ফো	-4478
60)	-4479
67)	-4480
alk	-4481
row	-4482
ৰণি	-4483
▁25	-4484
▁সন	-4485
(465	-4486
ahoo	-4487
iver	-4488
lace	-4489
উপাদ	-4490
খানা	-4491
হৈছে	-4492
ীৰ্ণ	-4493
▁Gtk	-4494
▁ISO	-4495
▁One	-4496
▁cli	-4497
▁।',	-4498
▁আগৰ	-4499
▁খোজ	-4500
▁টেল	-4501
▁ন্য	-4502
▁মাস	-4503
▁মেচ	-4504
arian	-4505
inter	-4506
চ্ছেদ	-4507
ব্লিউ	-4508
▁from	-4509
▁অংশৰ	-4510
▁অক্ট	-4511
▁এইখন	-4512
▁টেমপ	-4513
▁বর্ত	-4514
▁বেলে	-4515
rivacy	-4516
িপোৰ্ট	-4517
▁আইকনৰ	-4518
▁ধ্বনি	-4519
▁পেইনৰ	-4520
▁সমগ্ৰ	-4521
▁ক্ষতিৰ	-4522
▁সম্ভাৱ	-4523
▁সোমাওক	-4524
▁স্লাইড	-4525
▁message	-4526
▁অব্যাহত	-4527
Ex	-4528
IL	-4529
PS	-4530
Rê	-4531
SH	-4532
]]	-4533
দৃ	-4534
ভে	-4535
ষা	-4536
ষি	-4537
হী	-4538
ুথ	-4539
200	-4540
68)	-4541
:00	-4542
Ðâř	-4543
দাচ	-4544
ফাল	-4545
মাজ	-4546
িচ্	-4547
িছে	-4548
িবি	-4549
ৰিক	-4550
▁$$	-4551
▁+'	-4552
▁IC	-4553
▁এজ	-4554
▁খস	-4555
alog	-4556
lete	-4557
oint	-4558
▁KPR	-4559
▁UAD	-4560
▁has	-4561
▁par	-4562
▁অদল	-4563
▁কীচ	-4564
▁চাক	-4565
▁জমা	-4566
▁তাত	-4567
▁দশক	-4568
বাৰ্গ	-4569
স্কাৰ	-4570
▁0.00	-4571
▁TRUE	-4572
▁আধাৰ	-4573
▁পক্ষ	-4574
▁ফৰ্ম	-4575
▁লঞ্চ	-4576
ব্যাপী	-4577
▁কনচৌল	-4578
▁দাবীৰ	-4579
▁বেকআপ	-4580
▁ভ্ৰমণ	-4581
▁যুদ্ধ	-4582
অসমীয়া	-4583
▁অনুপাত	-4584
▁বৰ্ত্ত	-4585
▁স্থানে	-4586
icrosoft	-4587
▁অবস্থিত	-4588
▁জন্মদিন	-4589
▁অৱস্থানৰ	-4590
▁প্ৰদর্শন	-4591
▁বস্তুবোৰ	-4592
▁নথিপত্ৰটি	-4593
▁ফোল্ডাৰটি	-4594
▁স্বাভাৱিক	-4595
▁UADescription	-4596
UN	-4597
ba	-4598
gu	-4599
ূত	-4600
ৱি	-4601
63)	-4602
র্ষ	-4603
ষ্ণ	-4604
েইচ	-4605
্য়	-4606
▁27	-4607
▁এখ	-4608
▁গল	-4609
▁জল	-4610
Date	-4611
edit	-4612
loor	-4613
read	-4614
rect	-4615
ster	-4616
কাওক	-4617
পৰ্দ	-4618
ালীন	-4619
িকাত	-4620
েঞ্চ	-4621
্যাপ	-4622
▁একো	-4623
▁পাস	-4624
▁বোধ	-4625
(2421	-4626
কসমূহ	-4627
▁(101	-4628
▁আটাই	-4629
▁ওপৰৰ	-4630
▁গাড়	-4631
▁জীৱন	-4632
header	-4633
ব্যস্ত	-4634
▁(2421	-4635
▁মাৰ্ক	-4636
▁সংগঠক	-4637
▁স্বাগ	-4638
▁অনুসৰণ	-4639
▁আৰম্ভৰ	-4640
▁উপধায়ক	-4641
▁কেতিয়াও	-4642
▁প্ৰমাণীত	-4643
▁বিন্যাসে	-4644
▁ৰেজিস্টাৰ	-4645
▁সম্পৰ্কীয়	-4646
▁প্ৰত্যাখ্যান	-4647
38	-4648
AV	-4649
MS	-4650
SE	-4651
ms	-4652
ঘৰ	-4653
ধৰ	-4654
শে	-4655
:',	-4656
The	-4657
val	-4658
ছাল	-4659
তেই	-4660
ুটি	-4661
▁উঠ	-4662
▁নম	-4663
▁মো	-4664
evel	-4665
খণ্ড	-4666
দানৰ	-4667
িপ্ৰ	-4668
ূন্য	-4669
▁Key	-4670
▁UID	-4671
▁এৰে	-4672
▁ডান	-4673
▁ফুট	-4674
▁ভাগ	-4675
▁সোণ	-4676
▁ৰুট	-4677
tings	-4678
ক্ষেপ	-4679
স্তান	-4680
▁(465	-4681
▁mail	-4682
▁এন্ট	-4683
▁চীনা	-4684
▁সমান	-4685
▁ফ্ৰেম	-4686
▁সময়ে	-4687
উপাদানৰ	-4688
ক্ৰিপষণ	-4689
ঙ্ক্ষিত	-4690
▁Xiaomi	-4691
▁status	-4692
▁পাওয়া	-4693
▁ভূমিকা	-4694
▁minutes	-4695
▁উপযুক্ত	-4696
▁কনফিগাৰ	-4697
▁ধনৰাশিৰ	-4698
▁বেকএণ্ড	-4699
▁ঘটনাসমূহ	-4700
▁প্ৰকল্পৰ	-4701
▁বিৱৰণসমূহ	-4702
▁মধ্যবৰ্তী	-4703
▁NameMeeting	-4704
▁স্ক্ৰিনশ্বট	-4705
77	-4706
go	-4707
পট	-4708
58)	-4709
DVD	-4710
lot	-4711
put	-4712
vel	-4713
ব্ল	-4714
েৰি	-4715
▁ছা	-4716
Wise	-4717
tyle	-4718
গম্য	-4719
ছলিম	-4720
নেইল	-4721
্লাল	-4722
▁(54	-4723
▁(62	-4724
▁Cal	-4725
▁Pun	-4726
▁{1}	-4727
▁গান	-4728
▁তোল	-4729
▁নিদ	-4730
▁নোড	-4731
▁পান	-4732
group	-4733
কোডিং	-4734
্কিচ্	-4735
▁আঘাত	-4736
▁আহৰণ	-4737
▁কোটি	-4738
▁টাইম	-4739
▁ডিজি	-4740
▁মানে	-4741
▁মেয়	-4742
ariant	-4743
▁উপায়	-4744
▁তাগিদ	-4745
▁দুবাৰ	-4746
▁পোস্ট	-4747
▁বাতৰি	-4748
▁বিক্ৰ	-4749
▁সংৰেখ	-4750
▁দিয়াৰ	-4751
▁প্ৰচাৰ	-4752
▁বাইন্ড	-4753
▁মূদ্ৰক	-4754
▁সংকোচন	-4755
্লাল্লাহ	-4756
▁এক্সটেন	-4757
▁এনকোডিং	-4758
▁কাৰ্ছাৰ	-4759
▁খোলোঁতে	-4760
▁চাইল্ডৰ	-4761
▁ৱেবচাইট	-4762
▁কিচ্কিচ্	-4763
▁বাওঁফালে	-4764
▁GroupWise	-4765
▁ব্যৱসায়ী	-4766
সাবস্ক্ৰাইব	-4767
▁প্ৰক্ৰিয়াৰ	-4768
▁সুনিৰ্দিষ্ট	-4769
▁বাৰ্তাসমূহকে	-4770
08	-4771
74	-4772
ls	-4773
ск	-4774
গো	-4775
65)	-4776
Kes	-4777
mac	-4778
বাক	-4779
মিট	-4780
য়ৰ	-4781
▁No	-4782
▁To	-4783
▁টক	-4784
▁নগ	-4785
▁মচ	-4786
(131	-4787
PLUR	-4788
mind	-4789
বাৰৰ	-4790
িলিক	-4791
▁021	-4792
▁Ins	-4793
▁USA	-4794
▁ঘূৰ	-4795
▁দলৰ	-4796
▁ভিউ	-4797
▁ৰেড	-4798
Sound	-4799
ample	-4800
oston	-4801
ণিজ্য	-4802
প্যাড	-4803
বিলাক	-4804
▁(131	-4805
▁(362	-4806
▁এনিম	-4807
▁থকাৰ	-4808
▁দুয়	-4809
▁পাতল	-4810
▁যদিও	-4811
Kesari	-4812
PLURAL	-4813
টাডাটা	-4814
পূৰ্বক	-4815
▁খসড়া	-4816
▁ঘটনাৰ	-4817
▁ছাত্ৰ	-4818
▁প্রের	-4819
▁ফিল্ড	-4820
▁বাছাই	-4821
▁বান্ধ	-4822
▁বুড়া	-4823
মন্ত্ৰী	-4824
▁Boston	-4825
▁Punjab	-4826
▁জীৱন্ত	-4827
▁নিৰ্মিত	-4828
▁প্ৰবন্ধ	-4829
▁প্লেটফৰ্ম	-4830
▁অনুমতিসমূহ	-4831
▁পৃষ্ঠাসমূহ	-4832
▁Permissions	-4833
▁বাৰ্তাসমূহৰ	-4834
▁PunjabKesari	-4835
▁উদাহৰণস্বৰূপ	-4836
69	-4837
গছ	-4838
62)	-4839
cpu	-4840
emu	-4841
lus	-4842
ofs	-4843
ram	-4844
ট্ট	-4845
থিত	-4846
শ্ৰ	-4847
াদী	-4848
ুৰা	-4849
েতু	-4850
▁টো	-4851
▁হট	-4852
amil	-4853
mAss	-4854
সত্য	-4855
▁--%	-4856
▁Feb	-4857
▁চলচ	-4858
▁চীন	-4859
▁নিন	-4860
▁মডি	-4861
▁যাক	-4862
▁যেন	-4863
▁যৌন	-4864
ideos	-4865
ivers	-4866
light	-4867
print	-4868
িয়তে	-4869
▁(479	-4870
▁Open	-4871
▁অমিল	-4872
▁ট্ৰে	-4873
▁দিশত	-4874
▁পৰিণ	-4875
▁ব্যত	-4876
▁মহাস	-4877
▁হাইপ	-4878
volume	-4879
অজ্ঞাত	-4880
▁check	-4881
▁অস্বা	-4882
▁ঘূৰ্ণ	-4883
▁জীৱনী	-4884
▁বাধ্য	-4885
▁বেয়া	-4886
▁Indian	-4887
▁অভিজ্ঞ	-4888
▁প্ৰায়	-4889
▁প্ৰেৰক	-4890
▁প্ৰৰিত	-4891
▁ফাইলটো	-4892
▁বুজুৱা	-4893
▁সনাক্ত	-4894
ান্ত্ৰিক	-4895
▁SpamAss	-4896
▁অপৰিচিত	-4897
▁বাণিজ্য	-4898
▁মহাসাগৰ	-4899
▁Comments	-4900
▁আৰ্কাইভত	-4901
▁ডাটাবেইচ	-4902
▁পাঠযোগ্য	-4903
▁প্লেয়াৰ	-4904
▁ৱাৰেন্টি	-4905
▁Microsoft	-4906
▁লাইব্ৰেৰী	-4907
▁সংৰক্ষণেৰ	-4908
▁ব্যৱসায়ীক	-4909
▁ব্যৱস্থাপক	-4910
"।	-4911
.%	-4912
\.	-4913
dk	-4914
my	-4915
oe	-4916
tu	-4917
চৰ	-4918
ুচ	-4919
▁ঋ	-4920
52)	-4921
KCS	-4922
uld	-4923
ংকন	-4924
্রী	-4925
▁Sy	-4926
▁di	-4927
▁অর	-4928
▁ইথ	-4929
▁গত	-4930
Spot	-4931
card	-4932
গছনি	-4933
স্পি	-4934
িয়ত	-4935
▁12:	-4936
▁Mar	-4937
▁day	-4938
▁কুম	-4939
▁নিক	-4940
▁সাত	-4941
▁হতে	-4942
abber	-4943
abled	-4944
isofs	-4945
কাশিত	-4946
ধ্বনি	-4947
পুঞ্জ	-4948
বেণ্ড	-4949
সমূহে	-4950
াবদ্ধ	-4951
▁PKCS	-4952
▁RAID	-4953
▁page	-4954
▁আত্ম	-4955
▁প্ৰণ	-4956
▁মাপৰ	-4957
▁হয়ে	-4958
anager	-4959
google	-4960
ক্রিয়	-4961
▁আকৃতি	-4962
▁আহিছে	-4963
▁ক্ষেত	-4964
▁খেলাৰ	-4965
▁নিৰ্ম	-4966
▁পাইছে	-4967
▁পুষ্প	-4968
▁মাউছৰ	-4969
▁হস্পি	-4970
▁উদ্যোগ	-4971
▁বিপৰীত	-4972
▁বিপৰ্য	-4973
▁অৱস্থিত	-4974
▁জানিবলৈ	-4975
▁সমস্যাৰ	-4976
▁সম্ভৱতঃ	-4977
▁স্বাগতম	-4978
▁ৰপ্তানি	-4979
▁প্ৰশান্ত	-4980
▁প্ৰৱিষ্ট	-4981
▁পৰীক্ষাৰ	-4982
▁ফলস্বৰূপ	-4983
▁হস্পিটেল	-4984
▁অসম্পূৰ্ণ	-4985
▁ইনক্ৰিপষণ	-4986
▁প্ৰগ্ৰামৰ	-4987
▁SpamAssassin	-4988
72	-4989
fs	-4990
পৃ	-4991
(12	-4992
bal	-4993
।',	-4994
কৰী	-4995
াদা	-4996
▁%(	-4997
▁01	-4998
▁চৌ	-4999
10-1	-5000
Conf	-5001
reet	-5002
েইনে	-5003
▁(24	-5004
▁MAC	-5005
▁খাদ	-5006
▁চনৰ	-5007
▁ফাই	-5008
▁বেন	-5009
▁ভাই	-5010
মাজীন	-5011
সেন্স	-5012
িয়েল	-5013
▁অগ্ন	-5014
▁অত্য	-5015
▁আইডি	-5016
▁ওচৰত	-5017
▁খেলৰ	-5018
▁চালক	-5019
▁পায়	-5020
▁ৰচনা	-5021
action	-5022
custom	-5023
ubject	-5024
ামাণিক	-5025
▁clips	-5026
▁আকাৰৰ	-5027
▁ক্লেই	-5028
▁ট্যাগ	-5029
▁দিল্ল	-5030
▁বাংলা	-5031
▁বাক্স	-5032
10-1301	-5033
▁অপেক্ষ	-5034
▁পৰিবহন	-5035
▁সন্তান	-5036
▁Network	-5037
▁কীপ্যাড	-5038
▁পৰিস্থিত	-5039
▁ভাৰছুৱেল	-5040
▁সময়অন্ত	-5041
▁সুৰক্ষাৰ	-5042
▁প্ৰতিনিধি	-5043
▁পৰিকল্পনা	-5044
▁ফোল্ডাৰলে	-5045
▁বস্তুসমূহ	-5046
▁ৱেবপৃষ্ঠা	-5047
▁02110-1301	-5048
▁দ্বীপপুঞ্জ	-5049
▁প্ৰদানকাৰী	-5050
▁পৰিবৰ্তনশীল	-5051
LA	-5052
ছা	-5053
তক	-5054
শি	-5055
ৱৎ	-5056
78)	-5057
For	-5058
UID	-5059
ble	-5060
che	-5061
lld	-5062
tog	-5063
try	-5064
use	-5065
ওতে	-5066
কাচ	-5067
ণীৰ	-5068
পাৰ	-5069
▁Ab	-5070
▁SA	-5071
▁ge	-5072
▁জো	-5073
▁যথ	-5074
:$1_	-5075
MIME	-5076
olab	-5077
sync	-5078
tent	-5079
well	-5080
সকলক	-5081
ীকাৰ	-5082
ুটুথ	-5083
েক্স	-5084
▁Fif	-5085
▁আকৌ	-5086
▁চলন	-5087
▁ধৰা	-5088
▁বেশ	-5089
▁মেট	-5090
▁সংশ	-5091
block	-5092
brevi	-5093
zilla	-5094
বৃন্দ	-5095
▁(242	-5096
▁কৰলে	-5097
▁কৰিম	-5098
▁চৰ্ত	-5099
▁বলৱৎ	-5100
▁ৰাখা	-5101
ডবেণ্ড	-5102
ৰ্ত্তি	-5103
▁Kolab	-5104
▁অৱশ্য	-5105
▁কাৰণৰ	-5106
▁ফৰমেট	-5107
▁বিমান	-5108
▁সংকলন	-5109
▁সেয়ে	-5110
▁সেৱকে	-5111
▁পঠাওতে	-5112
▁বৰ্ণনা	-5113
▁মেয়াদ	-5114
▁সংৰেখন	-5115
▁সময়তে	-5116
▁এক্সিকি	-5117
▁কীচেইনে	-5118
▁বোধগম্য	-5119
▁নিষ্কাষণ	-5120
▁সহায়িকা	-5121
▁হস্পিটেলত	-5122
▁দায়বদ্ধতা	-5123
▁প্ৰিমিয়াম	-5124
▁মহাসাগৰীয়	-5125
▁ব্যৱহাৰকাৰীনাম	-5126
.4	-5127
96	-5128
EN	-5129
IT	-5130
ca	-5131
কী	-5132
শল	-5133
িঅ	-5134
59)	-5135
Day	-5136
Dis	-5137
Don	-5138
igh	-5139
ugu	-5140
এইচ	-5141
বলৈ	-5142
ব্ব	-5143
াবা	-5144
▁De	-5145
▁Mo	-5146
▁PN	-5147
▁ro	-5148
info	-5149
কীয়	-5150
ধৰণৰ	-5151
াইহি	-5152
েকটি	-5153
েলগে	-5154
▁%.1	-5155
▁জুল	-5156
▁তেল	-5157
▁সাল	-5158
ocket	-5159
পৰ্দা	-5160
ভূমিৰ	-5161
▁qemu	-5162
▁বিধি	-5163
▁বিলো	-5164
▁মাজৰ	-5165
create	-5166
minder	-5167
কৰ্তাৰ	-5168
িকভাৱে	-5169
ূন্যতম	-5170
▁Fifth	-5171
▁Floor	-5172
▁Frank	-5173
▁অ্যাপ	-5174
▁কৰ্মচ	-5175
▁ডিগ্ৰ	-5176
ক্রান্ত	-5177
▁অনুজ্ঞ	-5178
▁পাৰবেন	-5179
▁বেটাৰি	-5180
▁হাইপাৰ	-5181
▁নাথাকিব	-5182
▁নূন্যতম	-5183
▁লিমাজীন	-5184
▁Franklin	-5185
▁শ্ৰেণীবি	-5186
▁গ্ৰাফিক্স	-5187
▁গোপনীয়তাৰ	-5188
▁অ্যাকাউন্টেৰ	-5189
▁সূচনাপ্ৰদানৰ	-5190
ie	-5191
pf	-5192
uz	-5193
েছ	-5194
90)	-5195
ART	-5196
ich	-5197
খলন	-5198
টাল	-5199
টিন	-5200
পিৰ	-5201
প্র	-5202
য়ী	-5203
ামে	-5204
▁উভ	-5205
▁সৌ	-5206
pref	-5207
উণ্ট	-5208
কিমা	-5209
সূচক	-5210
্প্ৰ	-5211
্যাক	-5212
▁(30	-5213
▁Lib	-5214
▁old	-5215
▁চলা	-5216
▁চাই	-5217
▁তাই	-5218
▁নথি	-5219
ython	-5220
ছাল্ল	-5221
বিশেষ	-5222
ষ্টিৰ	-5223
ৰ্ধ্ব	-5224
▁Arch	-5225
▁June	-5226
▁libx	-5227
▁mbox	-5228
▁গুৰু	-5229
▁চোৱা	-5230
▁মোডত	-5231
▁সোধা	-5232
pecial	-5233
্বাচিত	-5234
▁Yahoo	-5235
▁অনাকা	-5236
▁ইউনিক	-5237
▁উপদেশ	-5238
▁খুলতে	-5239
▁তৎক্ষ	-5240
▁দিবলে	-5241
▁Street	-5242
▁অছাল্ল	-5243
▁আল্লাহ	-5244
▁উৎপাদন	-5245
▁দ্বন্দ	-5246
▁স্কেইল	-5247
▁অনুক্ৰম	-5248
▁খুলিবলৈ	-5249
▁গণিতজ্ঞ	-5250
▁জৰিয়তে	-5251
▁নেটৱৰ্ক	-5252
▁সন্দৰ্ভ	-5253
্লাল্লাহু	-5254
▁অনুভূমিক	-5255
▁বিকল্পেৰ	-5256
▁লাইসেন্স	-5257
▁থাম্বনেইল	-5258
▁প্ৰৱিষ্টি	-5259
▁সম্বন্ধীয়	-5260
▁ব্যৱহাৰকৰোঁ	-5261
▁চাল্লাল্লাহু	-5262
"-	-5263
".	-5264
BA	-5265
EC	-5266
ry	-5267
ye	-5268
পো	-5269
মু	-5270
িজ	-5271
Key	-5272
ere	-5273
ont	-5274
ংসা	-5275
কিং	-5276
গৰী	-5277
ট্ৰ	-5278
পুৰ	-5279
র্ট	-5280
র্ব	-5281
হতি	-5282
▁SC	-5283
▁au	-5284
▁up	-5285
▁অৰ	-5286
▁ইভ	-5287
▁এচ	-5288
▁কৈ	-5289
▁বো	-5290
▁হৰ	-5291
▁১৮	-5292
ভাৰত	-5293
য়েৰ	-5294
লেটৰ	-5295
্যাট	-5296
▁(1)	-5297
▁(13	-5298
▁Tel	-5299
▁খাপ	-5300
▁চনত	-5301
▁মিন	-5302
▁মেড	-5303
▁লয়	-5304
▁সংর	-5305
▁হলো	-5306
▁হাঁ	-5307
িয়েন	-5308
▁Shot	-5309
▁user	-5310
▁কাগজ	-5311
▁কিবা	-5312
▁পঠাব	-5313
▁যোগে	-5314
erence	-5315
ersion	-5316
কল্পিক	-5317
▁Times	-5318
▁অভাৰৰ	-5319
▁জ্যাম	-5320
▁বহুতো	-5321
▁ভাৰতৰ	-5322
▁লেখাৰ	-5323
▁হেৰাই	-5324
▁অৱশ্যে	-5325
▁একেলগে	-5326
▁তৈয়াৰ	-5327
▁ন্যায়	-5328
▁পঠিওৱা	-5329
▁ব্যর্থ	-5330
▁লেবেলৰ	-5331
▁হওয়াৰ	-5332
▁তেনেহলে	-5333
▁পদ্ধতিৰ	-5334
▁প্ৰস্তা	-5335
▁ফৰৱাৰ্ড	-5336
▁ব্লুটুথ	-5337
▁সংরক্ষণ	-5338
▁Shotwell	-5339
▁আৰ্কাইভৰ	-5340
▁মেটাডাটা	-5341
▁হাৰ্ডৱেৰ	-5342
▁অভিব্যক্ত	-5343
▁বিস্তাৰিত	-5344
▁বৈশিষ্টসমূহ	-5345
▁অনাকাঙ্ক্ষিত	-5346
':	-5347
SA	-5348
SV	-5349
টল	-5350
57)	-5351
জিত	-5352
তাক	-5353
হেম	-5354
▁AT	-5355
▁Id	-5356
▁pa	-5357
▁ভে	-5358
.245	-5359
load	-5360
reen	-5361
rive	-5362
tive	-5363
very	-5364
ায়ে	-5365
িহনে	-5366
▁(51	-5367
▁PIN	-5368
▁অলি	-5369
▁অৰ্	-5370
▁আৰব	-5371
▁এলগ	-5372
▁গাঁ	-5373
▁নাপ	-5374
▁পেই	-5375
▁মোক	-5376
▁লগে	-5377
amily	-5378
idgin	-5379
state	-5380
urity	-5381
আপুনি	-5382
উটাৰৰ	-5383
বৃত্ত	-5384
▁(367	-5385
▁2017	-5386
▁Text	-5387
▁অভিয	-5388
▁আৰবী	-5389
▁ক্ৰী	-5390
▁খোৱা	-5391
▁তেখে	-5392
▁নকৰি	-5393
▁নথকা	-5394
▁ফজিল	-5395
▁বৰকট	-5396
Action	-5397
আপুনাৰ	-5398
োয়াড়	-5399
▁অন্তৰ	-5400
▁উলোটা	-5401
▁কেমেৰ	-5402
▁চিত্ৰ	-5403
▁নিশ্চ	-5404
▁বেলেগ	-5405
▁শাস্ত	-5406
▁সীমাৰ	-5407
▁Jabber	-5408
▁দৰ্শনত	-5409
▁বিভাগৰ	-5410
▁বিলোৱা	-5411
▁স্কিমা	-5412
ointment	-5413
▁আৰম্ভেৰ	-5414
▁প্ৰণয়ন	-5415
▁প্ৰসাৰণ	-5416
▁বিকল্পত	-5417
অবিকল্পিত	-5418
▁reminder	-5419
▁চিস্টেমৰ	-5420
▁প্ৰস্তাৱ	-5421
▁যোগ্যতাৰ	-5422
dictionary	-5423
▁খেলোয়াড়	-5424
▁প্লেটফৰ্মত	-5425
▁অনুসন্ধানেৰ	-5426
▁অংশগ্ৰহণকাৰীৰ	-5427
▁সংযোগক্ষেত্ৰৰ	-5428
IG	-5429
PM	-5430
hn	-5431
োস	-5432
ৰন	-5433
▁‍	-5434
21)	-5435
48)	-5436
89)	-5437
lug	-5438
off	-5439
rev	-5440
trl	-5441
কাম	-5442
পঢ়	-5443
বাহ	-5444
াৰত	-5445
িংৰ	-5446
িনী	-5447
ুয়	-5448
োৰা	-5449
▁AS	-5450
▁Ac	-5451
▁Ad	-5452
▁Sc	-5453
▁Un	-5454
▁am	-5455
▁{{	-5456
▁কত	-5457
▁১৪	-5458
auti	-5459
full	-5460
peri	-5461
view	-5462
ানোৰ	-5463
িবেশ	-5464
▁Tok	-5465
▁Xxx	-5466
▁আপন	-5467
▁কোণ	-5468
▁ছয়	-5469
▁তেজ	-5470
▁পরী	-5471
▁বিজ	-5472
disks	-5473
ttach	-5474
কেতিক	-5475
▁NULL	-5476
▁code	-5477
▁host	-5478
▁অঙ্ক	-5479
▁অঞ্চ	-5480
▁আশাত	-5481
▁টিপি	-5482
▁পুলৰ	-5483
▁পৰাই	-5484
▁মহিল	-5485
▁মোডে	-5486
▁শিশু	-5487
▁সংঘট	-5488
▁সকলৰ	-5489
▁সম্ম	-5490
▁হেঁচ	-5491
জাতীয়	-5492
▁every	-5493
▁আতৰাই	-5494
▁কোৰআন	-5495
▁নামেৰ	-5496
▁ফজিলত	-5497
▁বন্ধু	-5498
▁বিত্ত	-5499
▁বীমাৰ	-5500
▁মেগ্ন	-5501
▁Pidgin	-5502
▁Telugu	-5503
▁access	-5504
▁symbol	-5505
▁আলাইহি	-5506
▁এগৰাকী	-5507
▁কৰেছেন	-5508
▁প্ৰতীক	-5509
▁বিচাৰক	-5510
▁সমষ্টি	-5511
▁একাউণ্ট	-5512
▁চলচিত্ৰ	-5513
▁বাৰ্তাক	-5514
▁সাপ্তাহ	-5515
▁ক্ষেত্ৰৰ	-5516
▁চাৰ্ভাৰত	-5517
▁নিৰ্মাতা	-5518
▁পৰ্দ্দাৰ	-5519
▁সমাপ্তিৰ	-5520
▁সম্বন্ধে	-5521
▁প্ৰতিষ্ঠা	-5522
▁ক্ষেত্ৰসমূহ	-5523
পথ	-5524
িৱ	-5525
(14	-5526
53)	-5527
ant	-5528
ava	-5529
dao	-5530
fin	-5531
log	-5532
ono	-5533
পিং	-5534
লেও	-5535
াইখ	-5536
েচম	-5537
▁গভ	-5538
815)	-5539
back	-5540
ives	-5541
omic	-5542
ould	-5543
uary	-5544
গণিত	-5545
মালা	-5546
শালী	-5547
▁Gdk	-5548
▁URl	-5549
▁net	-5550
▁xml	-5551
▁অংক	-5552
▁উপশ	-5553
▁টিক	-5554
▁তাহ	-5555
▁দাস	-5556
▁পিক	-5557
▁বিভ	-5558
▁লেক	-5559
▁সন্	-5560
▁হেল	-5561
omain	-5562
riend	-5563
ান্তি	-5564
ৃপক্ষ	-5565
্ৰেতা	-5566
▁SASL	-5567
▁আপুন	-5568
▁আলোক	-5569
▁উত্প	-5570
▁পাছও	-5571
urance	-5572
ডব্লিউ	-5573
স্পেইচ	-5574
ালোচনা	-5575
ুলিয়া	-5576
▁অ্যান	-5577
▁কম্বো	-5578
▁নিৰূপ	-5579
▁হয়তো	-5580
autilus	-5581
নিৰ্দেশ	-5582
▁অনুষ্ঠ	-5583
▁অভিধান	-5584
▁ধনৰাশি	-5585
▁প্ৰমিত	-5586
ignature	-5587
▁variant	-5588
▁অনুলিপি	-5589
▁দেখুৱাব	-5590
▁স্থাপিত	-5591
▁উইন্ডোটি	-5592
▁উইন্ডোতে	-5593
▁টেমপ্লেট	-5594
▁দ্বন্দ্ব	-5595
▁প্ৰদৰ্শক	-5596
▁বিদ্যমান	-5597
▁বিৱৰণীখন	-5598
▁সংস্কৃতি	-5599
▁Insurance	-5600
▁পাছওৱাৰ্ড	-5601
▁প্ৰামাণিক	-5602
▁ব্যবস্থাপ	-5603
▁স্বাক্ষৰৰ	-5604
▁কেন্দ্ৰীয়	-5605
▁প্ৰদৰ্শনেৰ	-5606
▁পূৰ্ণসংখ্যা	-5607
▁বাৰ্তাসমূহক	-5608
BC	-5609
PE	-5610
TR	-5611
ns	-5612
ছত	-5613
86)	-5614
URL	-5615
াসা	-5616
্টা	-5617
ৰীণ	-5618
▁4.	-5619
▁id	-5620
▁it	-5621
▁১১	-5622
alle	-5623
amit	-5624
untu	-5625
uper	-5626
কাকত	-5627
কেটে	-5628
াবাহ	-5629
▁Cat	-5630
▁ছোট	-5631
▁পথৰ	-5632
▁ফলন	-5633
▁ভাব	-5634
▁লোম	-5635
▁সতা	-5636
lugin	-5637
pages	-5638
ায়াৰ	-5639
িয়াই	-5640
ুদ্ধে	-5641
ৰ্তিত	-5642
▁UUID	-5643
▁been	-5644
▁উত্স	-5645
▁কল্প	-5646
▁জীবন	-5647
▁পুথি	-5648
▁বৰ্গ	-5649
▁সন্ন	-5650
ptions	-5651
তামূলক	-5652
▁Janta	-5653
▁start	-5654
▁আৰক্ষ	-5655
▁এখানে	-5656
▁নিয়ক	-5657
▁পাবলৈ	-5658
▁ভঁৰাল	-5659
▁মেইলৰ	-5660
▁সংবাদ	-5661
uration	-5662
▁অলিম্প	-5663
▁ঊৰ্ধ্ব	-5664
▁ট্যাবল	-5665
▁পেইস্ট	-5666
▁প্ৰসংগ	-5667
▁বিপদাশ	-5668
▁যোগেদি	-5669
▁শ্বাইখ	-5670
▁সদায়ে	-5671
disabled	-5672
enchmark	-5673
▁অনুজ্ঞা	-5674
▁অস্বচ্ছ	-5675
▁ইতিমধ্য	-5676
▁ক্ৰীড়া	-5677
▁প্ৰতিটি	-5678
▁বিকল্পক	-5679
▁বেকএন্ড	-5680
▁LongName	-5681
▁অভিনেতাৰ	-5682
▁নির্বাচন	-5683
▁সাৰ্ভাৰে	-5684
▁স্বচ্ছতা	-5685
▁আবৰ্জনালে	-5686
▁চুক্তিসমূহৰ	-5687
▁পৰিৱৰ্তনসমূহ	-5688
▁সম্পূৰ্ণৰূপে	-5689
▁স্বত্বাধিকাৰ	-5690
▁স্বাক্ষৰকাৰী	-5691
07	-5692
Ac	-5693
BM	-5694
IS	-5695
by	-5696
এক	-5697
এম	-5698
কথ	-5699
ডৰ	-5700
বহ	-5701
ুষ	-5702
ada	-5703
guy	-5704
man	-5705
mon	-5706
ply	-5707
sum	-5708
url	-5709
আউট	-5710
কৰা	-5711
চেট	-5712
ফেন	-5713
ান্	-5714
োৰি	-5715
▁21	-5716
▁AP	-5717
▁PC	-5718
▁at	-5719
▁mo	-5720
▁জু	-5721
▁মং	-5722
651)	-5723
desk	-5724
tact	-5725
yper	-5726
বৰ্ষ	-5727
িবাৰ	-5728
েশ্ব	-5729
▁(61	-5730
▁Bah	-5731
▁CMS	-5732
▁Meh	-5733
▁করে	-5734
▁কিট	-5735
▁ঘড়	-5736
▁ছেট	-5737
▁জনা	-5738
▁জেন	-5739
▁যিহ	-5740
▁হাই	-5741
তিহাস	-5742
সংগিক	-5743
ৱিষ্য	-5744
▁Econ	-5745
▁True	-5746
▁dbus	-5747
▁mime	-5748
▁your	-5749
▁অংশত	-5750
▁অডিও	-5751
▁আচৰণ	-5752
▁গল্প	-5753
▁ডেমন	-5754
▁দিকে	-5755
▁পাইপ	-5756
▁ফোকা	-5757
▁মনোন	-5758
irtual	-5759
াৰ্থীৰ	-5760
▁Image	-5761
▁Tokio	-5762
▁ক্লাব	-5763
▁গাণিত	-5764
▁গ্রহণ	-5765
▁জনোৱা	-5766
▁ডাম্প	-5767
▁তথ্যত	-5768
▁দেখুন	-5769
▁নহোৱা	-5770
▁পৰিসে	-5771
▁মেচিন	-5772
▁সাৰ্ব	-5773
▁সিদ্ধ	-5774
▁হেণ্ড	-5775
DayName	-5776
কেটেগৰী	-5777
র্ষপঞ্জ	-5778
▁oldguy	-5779
▁ইনলাইন	-5780
▁এপ্লেট	-5781
▁নৱীকৰণ	-5782
▁পঢ়োতে	-5783
▁ভঁৰালৰ	-5784
▁মুছলিম	-5785
▁যোগদান	-5786
▁Company	-5787
▁আল্লাহৰ	-5788
▁ক্ষতিপূ	-5789
▁ট্যাবলৌ	-5790
▁পইন্টাৰ	-5791
▁প্রক্সি	-5792
▁প্ৰকৃতি	-5793
▁প্ৰেৰকৰ	-5794
▁পৰিচালক	-5795
▁বস্তুটি	-5796
▁Economic	-5797
▁ছেকেণ্ডত	-5798
▁নিযুক্তক	-5799
▁প্ৰত্যেক	-5800
▁প্ৰান্তৰ	-5801
▁বিৰুদ্ধে	-5802
▁পৰিচালনাৰ	-5803
▁পৰিস্ৰাৱন	-5804
▁ফ্লেগসমূহ	-5805
▁সম্প্ৰসাৰ	-5806
▁প্ৰাথমিকতা	-5807
▁বিনামুলিয়া	-5808
be	-5809
চল	-5810
১৯	-5811
▁ঐ	-5812
45)	-5813
55)	-5814
61)	-5815
76)	-5816
Bra	-5817
গুণ	-5818
ঘ্ন	-5819
ড়প	-5820
সিক	-5821
সৰ্	-5822
ৰিং	-5823
▁"-	-5824
▁1"	-5825
▁Sk	-5826
▁TX	-5827
▁sc	-5828
▁১৫	-5829
ower	-5830
tify	-5831
উণ্ড	-5832
কানো	-5833
গৰাক	-5834
মূলক	-5835
র্তন	-5836
িপ্ট	-5837
ুতিক	-5838
েণ্ট	-5839
্ডেন	-5840
▁use	-5841
▁চিক	-5842
▁নেদ	-5843
▁মুক	-5844
▁মেথ	-5845
ব্যাগ	-5846
মিটিং	-5847
য়োজন	-5848
ীক্ষা	-5849
েক্ষে	-5850
▁অনুব	-5851
▁ঈমান	-5852
▁ঈশান	-5853
▁পালন	-5854
▁পাৰো	-5855
▁পৰ্ট	-5856
▁বাঁও	-5857
ক্ষমতা	-5858
মাউন্ট	-5859
▁gedit	-5860
▁অখণ্ড	-5861
▁অপাৰে	-5862
▁একেটা	-5863
▁খাদ্য	-5864
▁দৃষ্ট	-5865
▁দৈনিক	-5866
▁মডিউল	-5867
▁লিখতে	-5868
▁স্কোৰ	-5869
▁স্বনি	-5870
দ্যুতিক	-5871
▁অগ্ৰসৰ	-5872
▁আপনাকে	-5873
▁ক্ৰমিক	-5874
▁পৰ্যবে	-5875
▁মাইক্ৰ	-5876
▁স্পষ্ট	-5877
▁হেঁচকা	-5878
▁current	-5879
▁ফাইলনাম	-5880
▁যানিবলৈ	-5881
▁Archives	-5882
▁অনুচ্ছেদ	-5883
▁আমন্ত্ৰণ	-5884
▁প্ৰযুক্ত	-5885
▁বিজ্ঞাপন	-5886
▁ভাষাসমূহ	-5887
▁ইনক্ৰিপ্ট	-5888
▁গোপনীয়তা	-5889
▁সংক্রান্ত	-5890
▁সম্পত্তিৰ	-5891
▁সাপ্তাহিক	-5892
▁কোম্পানীয়ে	-5893
'%	-5894
2}	-5895
;&	-5896
II	-5897
TC	-5898
To	-5899
Un	-5900
bu	-5901
co	-5902
yn	-5903
খা	-5904
দৈ	-5905
ম্	-5906
(45	-5907
Sec	-5908
res	-5909
svn	-5910
ংকৰ	-5911
ঠিত	-5912
ধৰণ	-5913
বাম	-5914
মাপ	-5915
সান	-5916
েমা	-5917
্যৱ	-5918
▁80	-5919
▁OS	-5920
▁PP	-5921
▁fd	-5922
▁sh	-5923
▁কঠ	-5924
▁কৌ	-5925
▁দো	-5926
▁বঁ	-5927
▁সচ	-5928
▁২৪	-5929
(457	-5930
ator	-5931
অথবা	-5932
ক্কা	-5933
ঘন্ট	-5934
জনিত	-5935
জনীন	-5936
ব্ৰু	-5937
যেনে	-5938
লিখন	-5939
ৈতিক	-5940
ৰ্শক	-5941
▁(60	-5942
▁DNS	-5943
▁MiB	-5944
▁SIP	-5945
▁আঁক	-5946
▁কিৰ	-5947
▁গঠন	-5948
▁গড়	-5949
▁তিন	-5950
▁পাই	-5951
▁ভাৱ	-5952
▁শিক	-5953
▁শুন	-5954
▁সোন	-5955
▁স্ন	-5956
সংহতি	-5957
▁char	-5958
▁info	-5959
▁text	-5960
▁অংশে	-5961
▁কাষত	-5962
▁কেনে	-5963
▁ধন্য	-5964
▁নাগৰ	-5965
▁মানি	-5966
erName	-5967
period	-5968
স্খলিত	-5969
িকাণ্ড	-5970
িয়াওক	-5971
িয়ামৰ	-5972
ীয়াকৈ	-5973
ৰক্ষিত	-5974
▁Spell	-5975
▁গোটেই	-5976
▁ঘোষণা	-5977
▁তুলিব	-5978
▁বন্টন	-5979
▁বিলাব	-5980
▁লিখিত	-5981
▁সেয়া	-5982
▁স্তৰৰ	-5983
▁স্থিত	-5984
tooltip	-5985
▁অনুৰূপ	-5986
▁অবিহনে	-5987
▁অসুস্থ	-5988
▁উইজেটৰ	-5989
▁কৰ্মেৰ	-5990
▁নিয়োগ	-5991
▁প্ৰক্স	-5992
▁ভৱিষ্য	-5993
▁যাচ্ছে	-5994
▁যায়নি	-5995
▁ডায়ালগ	-5996
▁পৰিচয়ত	-5997
▁বিনামূল	-5998
amitakhya	-5999
▁আগবঢ়াওক	-6000
▁প্ৰেৰকেৰ	-6001
▁বর্ষপঞ্জ	-6002
▁বাৰ্তাটো	-6003
▁মেইলবক্স	-6004
▁সেৱাসমূহ	-6005
▁ৰামানুজন	-6006
▁উজ্জ্বলতা	-6007
▁দস্তাবেজৰ	-6008
▁বৈদ্যুতিক	-6009
▁সময়অঞ্চল	-6010
▁অভিব্যক্তি	-6011
▁অলিম্পিয়া	-6012
▁ডাইৰেকটৰিৰ	-6013
▁প্ৰতিনিধিৰ	-6014
▁স্থানান্তৰৰ	-6015
▁দস্তাবেজসমূহ	-6016
▁প্ৰদৰ্শনক্ষেত্ৰ	-6017
(3	-6018
)-	-6019
Pa	-6020
উজ	-6021
▁ষ	-6022
(11	-6023
aur	-6024
bit	-6025
dex	-6026
ite	-6027
min	-6028
opy	-6029
sub	-6030
ube	-6031
ংকা	-6032
ক্ক	-6033
থিৱ	-6034
র্ক	-6035
সেস	-6036
হাই	-6037
াগত	-6038
াতে	-6039
ামি	-6040
▁Di	-6041
▁MS	-6042
▁Ra	-6043
▁te	-6044
▁কব	-6045
▁খন	-6046
▁গন	-6047
▁জে	-6048
▁ভূ	-6049
rgan	-6050
উন্ড	-6051
থক্য	-6052
দায়	-6053
বস্ত	-6054
সকলো	-6055
োৱাত	-6056
▁500	-6057
▁Far	-6058
▁NTM	-6059
▁কিল	-6060
▁ছলে	-6061
▁ডাক	-6062
▁বদল	-6063
▁বিধ	-6064
▁মনে	-6065
Linux	-6066
annel	-6067
watch	-6068
ান্ডা	-6069
িয়াব	-6070
▁(262	-6071
▁lock	-6072
▁এবাৰ	-6073
▁গোছল	-6074
▁নিউজ	-6075
▁নীচে	-6076
▁পরিচ	-6077
হয়েছে	-6078
▁style	-6079
▁অসম্ভ	-6080
▁এনালগ	-6081
▁কৰ্মৰ	-6082
▁গেলেৰ	-6083
▁ডিক্ৰ	-6084
▁দিবলৈ	-6085
▁পিছলৈ	-6086
▁পেস্ট	-6087
▁প্রতি	-6088
▁ফিল্ট	-6089
abbrevi	-6090
acebook	-6091
সম্পন্ন	-6092
▁Policy	-6093
▁উত্তৰত	-6094
▁এজেন্ট	-6095
▁চিনেমা	-6096
▁নাগৰিক	-6097
▁নিৰূপণ	-6098
▁প্ৰমান	-6099
▁সংশোধন	-6100
▁স্খলিত	-6101
▁উদ্ধৃতি	-6102
▁ধন্যবাদ	-6103
▁পৃষ্ঠাত	-6104
▁পৰ্দ্দা	-6105
▁ভিত্তিত	-6106
▁‍অজ্ঞাত	-6107
তিয়ালৈকে	-6108
▁গোছলখানা	-6109
▁পুনাৰম্ভ	-6110
▁প্ৰোটোকল	-6111
▁বাওঁফালৰ	-6112
▁সামগ্ৰীৰ	-6113
▁ShortName	-6114
▁অপ্ৰকাশিত	-6115
▁এক্সিকিউট	-6116
▁ফৰওয়াৰ্ড	-6117
▁ব্যৱহাৰেৰ	-6118
abbreviated	-6119
ব্যৱহাৰকাৰী	-6120
▁স্বাক্ষৰিত	-6121
▁স্থায়ীভাৱে	-6122
▁হ্যান্ডব্যাগ	-6123
70	-6124
DI	-6125
ES	-6126
HA	-6127
IC	-6128
IF	-6129
[[	-6130
fi	-6131
mg	-6132
pt	-6133
ঘট	-6134
বু	-6135
র়	-6136
ষক	-6137
সল	-6138
ীশ	-6139
ৌৰ	-6140
323	-6141
40)	-6142
gtk	-6143
ils	-6144
map	-6145
ohn	-6146
str	-6147
unc	-6148
ute	-6149
vin	-6150
এটা	-6151
টিল	-6152
নেল	-6153
প্ট	-6154
েইপ	-6155
▁23	-6156
▁29	-6157
▁MB	-6158
▁অঁ	-6159
▁৩০	-6160
alse	-6161
lain	-6162
এন্ড	-6163
কোনো	-6164
গলিক	-6165
ডাউন	-6166
ত্তা	-6167
নতুন	-6168
বাৰে	-6169
য়িক	-6170
শাৰী	-6171
ান্ট	-6172
ামান	-6173
্যাল	-6174
▁(55	-6175
▁ICQ	-6176
▁ছাৰ	-6177
▁নীত	-6178
▁মেশ	-6179
▁হিম	-6180
dated	-6181
enter	-6182
eting	-6183
ister	-6184
mport	-6185
space	-6186
কাৰ্ড	-6187
বিধান	-6188
শ্বটৰ	-6189
স্বনক	-6190
▁Live	-6191
▁days	-6192
▁long	-6193
▁আজিৰ	-6194
▁করার	-6195
▁গতিব	-6196
▁থোৱা	-6197
▁বাকি	-6198
▁বায়	-6199
▁মাহৰ	-6200
▁লৈকে	-6201
▁লোমষ	-6202
Search	-6203
ddress	-6204
number	-6205
নামূলক	-6206
সপ্তাহ	-6207
েলিয়া	-6208
▁আদায়	-6209
▁গণিতৰ	-6210
▁থাকবে	-6211
▁পটভূম	-6212
▁পৃথিৱ	-6213
▁বজাওক	-6214
▁শুদ্ধ	-6215
▁স্কুল	-6216
▁স্থিৰ	-6217
default	-6218
▁অভিযোগ	-6219
▁চলোৱাৰ	-6220
▁ঠিকনাত	-6221
▁ডাইলগত	-6222
▁নালাগে	-6223
▁প্ৰগতি	-6224
▁ভৌগলিক	-6225
▁যিহেতু	-6226
▁অত্যন্ত	-6227
▁আঙ্গুলি	-6228
▁জানুৱাৰ	-6229
▁পদক্ষেপ	-6230
▁পৰ্যন্ত	-6231
▁বাৰ্ষিক	-6232
▁বুজাবলৈ	-6233
▁অতিস্বনক	-6234
▁অভ্যন্তৰ	-6235
▁তৎক্ষনাত	-6236
▁নিৰ্মাণৰ	-6237
▁সম্ভাবনা	-6238
▁সাৰ্বজনীন	-6239
▁ৰামানুজনৰ	-6240
▁প্ৰোগ্ৰামৰ	-6241
▁appointment	-6242
▁কেলেন্ডাৰসমূহ	-6243
(9	-6244
-3	-6245
1,	-6246
76	-6247
OL	-6248
ga	-6249
mt	-6250
ইউ	-6251
ঙি	-6252
জক	-6253
ৰক	-6254
OLL	-6255
ats	-6256
med	-6257
ula	-6258
গাৰ	-6259
দেৰ	-6260
বেশ	-6261
সবা	-6262
ালে	-6263
িসে	-6264
ৰ্জ	-6265
▁'"	-6266
▁08	-6267
▁1,	-6268
▁31	-6269
▁45	-6270
▁Kh	-6271
▁le	-6272
▁গৈ	-6273
Type	-6274
amuz	-6275
ited	-6276
orda	-6277
ংগিত	-6278
িকান	-6279
ীমাৰ	-6280
ৰিথম	-6281
ৰেখা	-6282
▁অকচ	-6283
▁এডি	-6284
▁এলে	-6285
▁কলে	-6286
▁কাঁ	-6287
▁ধাপ	-6288
▁নিচ	-6289
▁পাল	-6290
▁মটৰ	-6291
▁মিড	-6292
▁মুন	-6293
▁যথা	-6294
▁সমন	-6295
▁স্য	-6296
color	-6297
lobal	-6298
সংখ্য	-6299
▁Java	-6300
▁STUN	-6301
▁Term	-6302
▁disk	-6303
▁prog	-6304
▁আয়ত	-6305
▁ইন্ড	-6306
▁এয়া	-6307
▁কেলে	-6308
▁চুইচ	-6309
▁ছলেহ	-6310
▁ট্ৰি	-6311
▁বঁটা	-6312
▁১০খন	-6313
Socket	-6314
ড়পাতা	-6315
োনেন্ট	-6316
▁GConf	-6317
▁Skype	-6318
▁Tamuz	-6319
▁state	-6320
▁গোলাম	-6321
▁যিয়ে	-6322
▁শ্বেল	-6323
▁সীমিত	-6324
enlight	-6325
example	-6326
▁button	-6327
▁option	-6328
▁videos	-6329
▁অর্ডাৰ	-6330
▁আপগুলি	-6331
▁ইভেন্ট	-6332
▁ক্যাশে	-6333
▁তাৰিখৰ	-6334
▁দৃষ্টি	-6335
▁সৌন্দৰ	-6336
▁সৰ্বদা	-6337
▁default	-6338
▁keyring	-6339
▁অংশীদাৰ	-6340
▁অ্যানিম	-6341
▁এলগৰিথম	-6342
▁পৰিসেবা	-6343
▁মেগ্নিফ	-6344
▁সংস্থাপ	-6345
▁সোনকালে	-6346
▁Nautilus	-6347
▁নিৰ্ঘন্ট	-6348
▁বিস্তাৰৰ	-6349
▁বৈকল্পিক	-6350
▁সম্পত্তি	-6351
▁অস্বাক্ষৰ	-6352
▁পুনৰাৰম্ভ	-6353
▁ফোল্ডাৰটো	-6354
▁কম্পোনেন্ট	-6355
▁libxenlight	-6356
▁অলিম্পিয়াড	-6357
▁বিশ্ববিদ্যালয়ৰ	-6358
":	-6359
43	-6360
SD	-6361
cm	-6362
ld	-6363
ঠি	-6364
দম	-6365
▁z	-6366
(62	-6367
07)	-6368
23)	-6369
69)	-6370
73)	-6371
Mac	-6372
ONE	-6373
ape	-6374
ger	-6375
ছবি	-6376
ূসৰ	-6377
েলা	-6378
োৰ্	-6379
▁04	-6380
▁32	-6381
NAME	-6382
lass	-6383
menu	-6384
গামী	-6385
ত্তি	-6386
দণ্ড	-6387
ধাৰী	-6388
েশান	-6389
▁0.0	-6390
▁CSV	-6391
▁Kho	-6392
▁cdr	-6393
▁ref	-6394
▁অলপ	-6395
▁জাল	-6396
▁জিল	-6397
▁দ্র	-6398
▁বাম	-6399
▁বিট	-6400
▁মেক	-6401
▁সৰল	-6402
onobo	-6403
tails	-6404
চ্ছিক	-6405
ত্ত্ব	-6406
দৃশ্য	-6407
▁SCSI	-6408
▁menu	-6409
▁open	-6410
▁অপাৰ	-6411
▁ইটাল	-6412
▁উপৰি	-6413
▁চালু	-6414
▁চুৰি	-6415
▁ডিষ্	-6416
▁দেয়	-6417
▁পূৰ্	-6418
▁স্লট	-6419
▁হজ্জ	-6420
recurr	-6421
িৰিলিক	-6422
▁gconf	-6423
▁spice	-6424
▁আপলোড	-6425
▁কেইবা	-6426
▁চ্যান	-6427
▁পাৰ্স	-6428
▁মেশিন	-6429
▁শাৰীত	-6430
▁সিহতক	-6431
Manager	-6432
প্ৰাপ্ত	-6433
▁system	-6434
▁ক্লেইম	-6435
▁গুৰুতৰ	-6436
▁দেওয়া	-6437
▁নম্বৰৰ	-6438
▁বাইনাৰ	-6439
▁বিষয়ৰ	-6440
language	-6441
password	-6442
▁libvirt	-6443
▁অখণ্ডতা	-6444
▁আতৰাবলে	-6445
▁আলেখ্যন	-6446
▁কেমেৰাৰ	-6447
▁টেক্সটৰ	-6448
▁বাইনাৰি	-6449
▁ভৰ্ত্তি	-6450
▁সম্বাদৰ	-6451
▁নথিপত্ৰত	-6452
▁পাৰ্থক্য	-6453
▁প্ৰক্সিৰ	-6454
▁বর্তমানে	-6455
▁মাৰাত্মক	-6456
▁সন্নিবেশ	-6457
▁সাপেক্ষে	-6458
▁এপ্লিকেশন	-6459
▁নিৰাপত্তা	-6460
▁ব্যতিক্ৰম	-6461
▁লাইব্ৰেৰি	-6462
▁সিদ্ধান্ত	-6463
▁ব্যক্তিয়ে	-6464
▁Description	-6465
▁ক্ষতিগ্ৰস্ত	-6466
▁পাৰ্শ্ববৰ্তী	-6467
▁স্থানীয়ৰূপে	-6468
▁সাৰ্টিফিকেটেৰ	-6469
-9	-6470
71	-6471
:0	-6472
Of	-6473
UI	-6474
WO	-6475
\@	-6476
bb	-6477
xy	-6478
অফ	-6479
পণ	-6480
ভূ	-6481
লু	-6482
িউ	-6483
িছ	-6484
২৪	-6485
%%)	-6486
ipe	-6487
und	-6488
ওয়	-6489
খান	-6490
চৰা	-6491
ছেট	-6492
তেৰ	-6493
প্ল	-6494
ভ্য	-6495
মাহ	-6496
▁ৰু	-6497
Disc	-6498
Time	-6499
WOOD	-6500
acom	-6501
alla	-6502
emon	-6503
html	-6504
rate	-6505
ulti	-6506
কৰ্ম	-6507
াম্ভ	-6508
ুৱাব	-6509
ৃত্ব	-6510
▁Dev	-6511
▁Pro	-6512
▁RSS	-6513
▁tar	-6514
▁গুট	-6515
▁জুন	-6516
▁ডিজ	-6517
▁তাপ	-6518
▁তোম	-6519
▁নোট	-6520
▁ফলক	-6521
▁লেন	-6522
Level	-6523
start	-6524
লেন্ড	-6525
ৱৰ্কৰ	-6526
▁(280	-6527
▁(557	-6528
▁back	-6529
▁hour	-6530
▁read	-6531
▁ইন্স	-6532
▁উন্ম	-6533
▁জানক	-6534
▁দুটি	-6535
▁নীলা	-6536
▁পাওঁ	-6537
▁বৃহৎ	-6538
▁ভিতৰ	-6539
▁মহান	-6540
▁লিখি	-6541
folder	-6542
ইতিহাস	-6543
সমূহকে	-6544
সম্পাদ	-6545
▁Terms	-6546
▁ইংগিত	-6547
▁উপযোগ	-6548
▁এইচবি	-6549
▁এইবোৰ	-6550
▁খুলিব	-6551
▁জাননী	-6552
▁জীৱনৰ	-6553
▁জুলাই	-6554
▁টেবিল	-6555
▁ফিল্ম	-6556
▁ফ্ৰেই	-6557
▁বাক্য	-6558
▁বুদ্ধ	-6559
▁শিৰোণ	-6560
▁সভায়	-6561
▁সার্চ	-6562
▁সাহিত	-6563
▁স্খলন	-6564
▁Python	-6565
▁অস্ট্ৰ	-6566
▁দুৰ্বল	-6567
▁মুদ্ৰণ	-6568
▁স্ট্যা	-6569
Security	-6570
সম্পূৰ্ণ	-6571
▁Catalog	-6572
▁Privacy	-6573
▁Service	-6574
▁meeting	-6575
▁section	-6576
▁উপবৃত্ত	-6577
▁উপশীৰ্ষ	-6578
▁গাণিতিক	-6579
▁ডিভাইচক	-6580
▁দেওয়াৰ	-6581
▁প্ৰৰকেৰ	-6582
▁পৰিচয়ক	-6583
▁মৃত্যুৰ	-6584
▁লিখিবলে	-6585
▁সংখ্যাৰ	-6586
▁সঞ্চালক	-6587
▁সাধাৰণত	-6588
▁সূকীয়া	-6589
▁সোঁফালৰ	-6590
▁Spelling	-6591
▁অভিজ্ঞতা	-6592
▁গন্তব্যৰ	-6593
▁নীড়পাতা	-6594
▁নোৱাৰিলে	-6595
▁পিক্সেলৰ	-6596
▁প্ৰকৃতিৰ	-6597
▁সংস্কৰণৰ	-6598
▁স্থাপত্য	-6599
▁সৰঞ্জামৰ	-6600
▁এক্সটেনশন	-6601
▁ঠিকনাসমূহ	-6602
▁প্লেলিস্ট	-6603
▁হস্তচালিত	-6604
▁অ্যানিমেশন	-6605
▁টাৰ্মিনেলৰ	-6606
▁বৰ্ত্তমানৰ	-6607
▁ক্লিপবৰ্ডলৈ	-6608
▁ত্ৰুটিপূৰ্ণ	-6609
▁মিলিছেকেণ্ড	-6610
▁শ্ৰেণীবিভাগ	-6611
▁স্ট্ৰিংৰূপে	-6612
▁অধিসূচনাসমূহ	-6613
▁এপ্লিকেচনসমূহ	-6614
▁কাৰ্য্যক্ষেত্ৰ	-6615
Pr	-6616
RW	-6617
nl	-6618
ud	-6619
ın	-6620
উথ	-6621
নো	-6622
ভগ	-6623
িশ	-6624
েগ	-6625
DAV	-6626
new	-6627
not	-6628
ool	-6629
ওৱা	-6630
টাস	-6631
বিধ	-6632
বুক	-6633
মাদ	-6634
র্ড	-6635
াবৰ	-6636
াহৰ	-6637
েবল	-6638
▁0,	-6639
▁28	-6640
▁60	-6641
▁El	-6642
▁ph	-6643
▁নং	-6644
▁শত	-6645
▁২৫	-6646
(262	-6647
(479	-6648
OLLY	-6649
with	-6650
উদ্ভ	-6651
গ্রহ	-6652
ন্দন	-6653
লৈকে	-6654
াতকৈ	-6655
ায়ন	-6656
িমাপ	-6657
▁("%	-6658
▁Bug	-6659
▁UTF	-6660
▁bug	-6661
▁can	-6662
▁দাও	-6663
▁নবী	-6664
▁পেৰ	-6665
▁পোন	-6666
▁বাট	-6667
▁সীল	-6668
▁স্ৰ	-6669
▁হোম	-6670
OfThe	-6671
buntu	-6672
ender	-6673
ordad	-6674
ডিস্ক	-6675
সংযোগ	-6676
াইটেড	-6677
ায়কৰ	-6678
িয়াচ	-6679
ীয়াৰ	-6680
েকুৱা	-6681
▁(129	-6682
▁(281	-6683
▁will	-6684
▁আলফা	-6685
▁খচৰা	-6686
▁খোজে	-6687
▁গাঁথ	-6688
▁গাইড	-6689
▁চলাই	-6690
▁টকাৰ	-6691
▁দৃঢ়	-6692
▁বজাৰ	-6693
▁বেইন	-6694
▁মানা	-6695
▁মানৱ	-6696
▁যথায	-6697
▁সাফল	-6698
▁সুন্	-6699
gister	-6700
ঞ্জস্য	-6701
▁BOLLY	-6702
▁অফিসে	-6703
▁চাবলে	-6704
▁ধৰনেৰ	-6705
▁নিজেই	-6706
▁পাঠ্য	-6707
▁পেকেট	-6708
▁যাত্ৰ	-6709
▁সুযোগ	-6710
▁স্কিম	-6711
▁স্মাৰ	-6712
riendly	-6713
toolbar	-6714
ায়েন্ট	-6715
ীয়ার্চ	-6716
▁Bonobo	-6717
▁চালানো	-6718
▁চাৰিটা	-6719
▁ডাইলগৰ	-6720
▁ডিগ্ৰি	-6721
▁প্ৰতিক	-6722
▁পৰিৱেশ	-6723
▁ফেব্ৰু	-6724
▁বিক্ৰী	-6725
▁লিখোতে	-6726
▁হেডাৰৰ	-6727
peration	-6728
▁উপাদানত	-6729
▁টানেলিং	-6730
▁টুলবাৰৰ	-6731
▁ধাৰাবাহ	-6732
▁পরিচিতি	-6733
▁পেলাওতে	-6734
▁স্বনির্	-6735
▁অভাৰৰাইড	-6736
▁আনমাউন্ট	-6737
▁বাৰ্তায়	-6738
▁বিক্ৰেতা	-6739
▁বিত্তীয়	-6740
▁সূচনাবাৰ	-6741
▁BOLLYWOOD	-6742
▁ওৱাৰেন্টি	-6743
▁গুৱাহাটীৰ	-6744
▁পাছৱাৰ্ডৰ	-6745
▁স্থিতিমাপ	-6746
্ডেনীয়ার্চ	-6747
▁অভ্যন্তৰীণ	-6748
▁টাৰ্মিনেলত	-6749
▁ডাইৰেকটৰিত	-6750
▁প্ৰগ্ৰামটো	-6751
▁ব্যক্তিত্ব	-6752
▁পৰিচয়সমূহৰ	-6753
▁ফোল্ডাৰসমূহৰ	-6754
▁সংযোগমাধ্যমৰ	-6755
▁প্ৰদৰ্শনযোগ্য	-6756
▁অপ্ৰত্যাশিতভাবে	-6757
-#	-6758
1"	-6759
Au	-6760
WS	-6761
fe	-6762
ki	-6763
pg	-6764
ঁত	-6765
কম	-6766
পে	-6767
িড	-6768
ৱন	-6769
(1)	-6770
(84	-6771
)',	-6772
72)	-6773
98)	-6774
Fmt	-6775
HCP	-6776
NTP	-6777
ani	-6778
emp	-6779
mer	-6780
umb	-6781
vis	-6782
কাশ	-6783
খনত	-6784
ধার	-6785
বাত	-6786
সঁচ	-6787
িকহ	-6788
েইজ	-6789
০০০	-6790
▁'/	-6791
▁02	-6792
▁2,	-6793
▁CJ	-6794
▁Ma	-6795
▁rc	-6796
▁কং	-6797
▁১৬	-6798
(235	-6799
Ctrl	-6800
irst	-6801
mand	-6802
ouse	-6803
pand	-6804
turn	-6805
বোৰক	-6806
ান্স	-6807
েপাৰ	-6808
েশ্য	-6809
্বাৰ	-6810
▁'$1	-6811
▁(16	-6812
▁(18	-6813
▁AIM	-6814
▁Kon	-6815
▁pid	-6816
▁আংশ	-6817
▁মাছ	-6818
▁মেল	-6819
▁হিল	-6820
▁ৰাছ	-6821
aDate	-6822
scape	-6823
ঢ়িমা	-6824
ণ্ড্র	-6825
মানিক	-6826
িয়াত	-6827
িলেৰি	-6828
▁(%.0	-6829
▁(566	-6830
▁NNTP	-6831
▁None	-6832
▁mode	-6833
▁অনুভ	-6834
▁অনেক	-6835
▁আদিৰ	-6836
▁এডাপ	-6837
▁কথোপ	-6838
▁কেইট	-6839
▁জাৰ্	-6840
▁টানি	-6841
▁ড্ৰপ	-6842
▁ধূসৰ	-6843
▁প্ৰি	-6844
▁ফিকহ	-6845
▁বিজে	-6846
▁সঙ্গ	-6847
Select	-6848
record	-6849
নাত্মক	-6850
স্কেইপ	-6851
্লিষ্ট	-6852
▁আঁতৰা	-6853
▁আয়োগ	-6854
▁চালনা	-6855
▁বিদেশ	-6856
▁মধ্যম	-6857
▁লোৱাৰ	-6858
▁শূন্য	-6859
▁স্তূপ	-6860
▁ৰেডিঅ	-6861
address	-6862
content	-6863
desktop	-6864
প্ৰিন্ট	-6865
▁কল্পনা	-6866
▁গৱেষণা	-6867
▁ঘন্টাৰ	-6868
▁ঠিকনাব	-6869
▁দৰ্শনৰ	-6870
▁পশ্চিম	-6871
▁প্ৰথমে	-6872
▁মাল্টি	-6873
▁মেমোটো	-6874
aDateFmt	-6875
ক্সিলেৰি	-6876
▁hostdev	-6877
▁অবশিষ্ট	-6878
▁কাৰ্চাৰ	-6879
▁নিশ্চয়	-6880
▁বিচাৰিব	-6881
▁মন্ত্ৰী	-6882
▁সেয়েহে	-6883
▁সোণকালে	-6884
▁অনুষ্ঠিত	-6885
▁তেওঁলোকে	-6886
▁দ্রঢ়িমা	-6887
▁পুষ্পহীন	-6888
▁বিশেষজ্ঞ	-6889
▁সম্ভাৱনা	-6890
▁ইতিমধ্যেই	-6891
▁নির্বাচিত	-6892
▁প্ৰাসংগিক	-6893
▁ব্ৰডবেণ্ড	-6894
▁হেডাৰসমূহ	-6895
▁dictionary	-6896
▁অগ্নিকাণ্ড	-6897
▁ক্লায়েন্ট	-6898
▁পূৰ্ণপৰ্দা	-6899
▁প্ৰত্যুত্ত	-6900
▁কাৰ্য্যালয়	-6901
▁ব্যৱস্থাপকৰ	-6902
▁সাক্ষাৎকাৰৰ	-6903
▁NetworkManager	-6904
-0	-6905
23	-6906
68	-6907
AM	-6908
FC	-6909
HT	-6910
RC	-6911
।)	-6912
ঁই	-6913
উচ	-6914
টী	-6915
রণ	-6916
75)	-6917
ded	-6918
iew	-6919
ike	-6920
ond	-6921
ray	-6922
{2}	-6923
ইউন	-6924
কোষ	-6925
কৰন	-6926
গড়	-6927
পাল	-6928
পুন	-6929
ফোন	-6930
বদল	-6931
মিং	-6932
মেই	-6933
মোৰ	-6934
েতন	-6935
▁05	-6936
▁35	-6937
▁[%	-6938
▁he	-6939
▁এফ	-6940
▁নো	-6941
▁শই	-6942
▁১৩	-6943
leri	-6944
show	-6945
sort	-6946
tain	-6947
true	-6948
ওঁতে	-6949
ক্সা	-6950
বাকচ	-6951
বাৰত	-6952
য়নৰ	-6953
য়েব	-6954
সলনি	-6955
সীয়	-6956
ীক্ষ	-6957
্ৰুপ	-6958
▁11,	-6959
▁Ais	-6960
▁CJK	-6961
▁Res	-6962
▁SSH	-6963
▁Sha	-6964
▁উপভ	-6965
▁ঘটি	-6966
▁বিদ	-6967
▁মুল	-6968
▁হিউ	-6969
ename	-6970
image	-6971
ollow	-6972
উদ্ভট	-6973
ণ্টাৰ	-6974
দৈৰ্ঘ	-6975
ভিডিঅ	-6976
িক্ষা	-6977
▁(457	-6978
▁অবিৱ	-6979
▁আশ্ব	-6980
▁কাষৰ	-6981
▁কোৱা	-6982
▁ঘণ্ট	-6983
▁নহলে	-6984
▁পর্য	-6985
▁পিছৰ	-6986
▁সংবে	-6987
button	-6988
mation	-6989
সন্ধান	-6990
েকেন্ড	-6991
▁অৱতাৰ	-6992
▁কম্পো	-6993
▁কামটো	-6994
▁ক্লাচ	-6995
▁নিবিচ	-6996
▁বাঞ্ছ	-6997
▁বিলাক	-6998
▁বিৰাম	-6999
▁ভিতৰৰ	-7000
▁যোৱাৰ	-7001
▁লিমিট	-7002
▁সমন্ব	-7003
olution	-7004
কাৰ্য্য	-7005
জ্ঞানিক	-7006
পৰীক্ষণ	-7007
▁অনুমোদ	-7008
▁আপেক্ষ	-7009
▁ইনবক্স	-7010
▁উদ্ধৃত	-7011
▁কথোপকথ	-7012
▁জ্ঞানৰ	-7013
▁বিক্রী	-7014
▁বৰকটকী	-7015
▁লুকাওক	-7016
▁সংকলনৰ	-7017
▁সহায়ৰ	-7018
▁অনুগ্রহ	-7019
▁উইজেটেৰ	-7020
▁পেলাবলে	-7021
▁প্ৰকাশন	-7022
▁মাৰ্কিন	-7023
▁মীমাংসা	-7024
▁সফলভাৱে	-7025
▁সমৰ্থনৰ	-7026
▁সাময়িক	-7027
▁অধিবেশনৰ	-7028
▁অপাৰেটিং	-7029
▁ধাৰণকাৰী	-7030
▁পঠিয়াওক	-7031
▁প্ৰতিলিপ	-7032
▁সঠিকভাৱে	-7033
▁সন্দৰ্ভত	-7034
▁একাউন্টেৰ	-7035
▁ক্ষেত্ৰটি	-7036
▁ধাৰাবাহিক	-7037
▁নিম্নোক্ত	-7038
▁বর্ষপঞ্জি	-7039
▁বাঞ্ছনীয়	-7040
▁ব্যৱসায়িক	-7041
▁সক্ৰিয়কৰণ	-7042
▁সূচনাবাৰ্তা	-7043
▁ব্যৱহাৰকৰোঁতাৰ	-7044
'।	-7045
14	-7046
:-	-7047
AB	-7048
Ch	-7049
উছ	-7050
জো	-7051
ল্	-7052
সদ	-7053
াড	-7054
▁੔	-7055
$1"	-7056
00,	-7057
16)	-7058
71)	-7059
74)	-7060
95)	-7061
VCD	-7062
ale	-7063
iph	-7064
lit	-7065
rid	-7066
uts	-7067
yar	-7068
অনু	-7069
কেই	-7070
খনো	-7071
ফিল	-7072
বাই	-7073
বুল	-7074
লেই	-7075
হিক	-7076
ারা	-7077
ুম্	-7078
েছন	-7079
োগো	-7080
ৌদি	-7081
্জন	-7082
্ৰী	-7083
▁03	-7084
▁90	-7085
▁Al	-7086
▁My	-7087
▁\\	-7088
▁us	-7089
▁ওল	-7090
▁ঔষ	-7091
▁গৌ	-7092
▁ফু	-7093
▁সর	-7094
Card	-7095
Gadu	-7096
List	-7097
cpus	-7098
idhi	-7099
lict	-7100
mber	-7101
olog	-7102
over	-7103
slot	-7104
ংকাৰ	-7105
ংসিত	-7106
ঙ্কৰ	-7107
ত্তম	-7108
ধৰণে	-7109
নামৰ	-7110
হাতৰ	-7111
োজিত	-7112
্জিন	-7113
্বান	-7114
▁'{{	-7115
▁Jul	-7116
▁Mon	-7117
▁TSP	-7118
▁des	-7119
▁আদব	-7120
▁কনট	-7121
▁ছাপ	-7122
▁জাম	-7123
▁ডাউ	-7124
▁ধীৰ	-7125
▁নেম	-7126
▁পিচ	-7127
▁মাজ	-7128
▁মেঘ	-7129
▁যোন	-7130
▁লাখ	-7131
▁হওক	-7132
tific	-7133
আৰম্ভ	-7134
ঙ্গিক	-7135
ডসমূহ	-7136
বিনিম	-7137
ষ্টিক	-7138
াওঁতে	-7139
▁Gadu	-7140
▁Game	-7141
▁MIME	-7142
▁Play	-7143
▁Tech	-7144
▁like	-7145
▁that	-7146
▁আঁকা	-7147
▁একেই	-7148
▁কন্ট	-7149
▁কলঘৰ	-7150
▁গভীৰ	-7151
▁গ্ৰে	-7152
▁প্ৰম	-7153
▁ফলকৰ	-7154
▁ফালৰ	-7155
▁বয়স	-7156
▁হাদী	-7157
leriot	-7158
nglish	-7159
সংৰক্ষ	-7160
েৰিয়া	-7161
▁Enter	-7162
▁এলবাম	-7163
▁কলবেক	-7164
▁ডিষ্ক	-7165
▁নামটি	-7166
▁বিধান	-7167
▁সংহিত	-7168
▁স্পিন	-7169
▁সৰানো	-7170
assword	-7171
version	-7172
টোসমূহক	-7173
▁refers	-7174
▁আঁতৰাই	-7175
▁ইন্সটল	-7176
▁ঘূৰ্ণন	-7177
▁ডিজাইন	-7178
▁থাকোতে	-7179
▁নিউক্ল	-7180
▁প্ৰবেশ	-7181
▁বস্তুক	-7182
▁license	-7183
▁অনুমতিৰ	-7184
▁এনিমেশন	-7185
▁কয়েকটি	-7186
▁নামসমূহ	-7187
▁পঢ়োঁতে	-7188
▁লিমিটেড	-7189
▁সাহিত্য	-7190
▁হস্টনাম	-7191
benchmark	-7192
ঙ্গুলিসঁচ	-7193
স্ক্ৰিপ্ট	-7194
▁জানুৱাৰী	-7195
▁পূৰ্বৰূপ	-7196
▁বহিস্থিত	-7197
▁সম্প্ৰতি	-7198
▁সাংকেতিক	-7199
▁Aisleriot	-7200
▁অস্বচ্ছতা	-7201
▁দায়িত্বৰ	-7202
▁নেটৱাৰ্কত	-7203
▁প্ৰদৰ্শনত	-7204
▁প্ৰব্ৰজনৰ	-7205
▁ফাইলসমূহৰ	-7206
▁সংগ্ৰহস্থ	-7207
▁সংশ্লিষ্ট	-7208
▁সম্পদসমূহ	-7209
▁পাসওয়াৰ্ড	-7210
▁পুষ্পহীনতা	-7211
▁প্ৰতিধ্বনি	-7212
▁প্ৰতিলিপিত	-7213
▁ক্লিপবোৰ্ডে	-7214
▁ক্লিপবৰ্ডলে	-7215
▁ডিভাইচসমূহৰ	-7216
▁বাধ্যতামূলক	-7217
▁অংশগ্ৰহণকৰ্ত	-7218
▁কৰ্মক্ষেত্ৰৰ	-7219
▁পাছৱাৰ্ডসমূহ	-7220
▁র্ডেনীয়ার্চ	-7221
▁অবিকল্পিতভাৱে	-7222
▁পত্ৰচিহ্নসমূহ	-7223
"}	-7224
-&	-7225
5,	-7226
ET	-7227
US	-7228
__	-7229
চো	-7230
হু	-7231
128	-7232
19)	-7233
50)	-7234
IBM	-7235
arn	-7236
sla	-7237
ved	-7238
কের	-7239
টৰৰ	-7240
ভঁৰ	-7241
ময়	-7242
মেল	-7243
লিত	-7244
াঁচ	-7245
ীতে	-7246
ৱাহ	-7247
▁06	-7248
▁48	-7249
▁MD	-7250
▁bu	-7251
▁mu	-7252
▁নু	-7253
▁বঙ	-7254
▁ভট	-7255
▁লব	-7256
▁হু	-7257
▁৯০	-7258
(240	-7259
9660	-7260
=%08	-7261
burn	-7262
eror	-7263
mbox	-7264
piph	-7265
ভিজা	-7266
হাতে	-7267
াইলি	-7268
াজিক	-7269
াদেশ	-7270
ুদ্ৰ	-7271
েম্ব	-7272
েৰেল	-7273
ৰ্তি	-7274
▁'/'	-7275
▁(83	-7276
▁Del	-7277
▁GiB	-7278
▁INR	-7279
▁SHA	-7280
▁Sep	-7281
▁You	-7282
▁bus	-7283
▁std	-7284
▁tra	-7285
▁কেপ	-7286
▁চলক	-7287
▁ছিম	-7288
▁দান	-7289
▁দুৰ	-7290
▁নহল	-7291
▁যুৱ	-7292
acter	-7293
ength	-7294
rench	-7295
trict	-7296
ন্ত্র	-7297
ালয়ে	-7298
ৰ্দ্ধ	-7299
▁Conf	-7300
▁Kati	-7301
▁Post	-7302
▁have	-7303
▁vcpu	-7304
▁অভাৱ	-7305
▁অৱধি	-7306
▁আঁচন	-7307
▁এণ্ড	-7308
▁গনোম	-7309
▁ছাৰা	-7310
▁ডিলি	-7311
▁২০১৪	-7312
delete	-7313
queror	-7314
server	-7315
কৰোঁতা	-7316
নামকৰণ	-7317
পশ্চিম	-7318
াচিত্ৰ	-7319
ুৰেঞ্চ	-7320
েকীয়া	-7321
▁অক্ষত	-7322
▁গতিকে	-7323
▁টৱৰ্ক	-7324
▁ডাউন্	-7325
▁পথালি	-7326
▁পাৰেন	-7327
▁পেডিং	-7328
▁ফেলতে	-7329
▁বিবিধ	-7330
▁বিবেচ	-7331
▁মুকলি	-7332
▁সজাওক	-7333
Windows	-7334
iversal	-7335
piphany	-7336
প্ৰণালী	-7337
সংৰক্ষণ	-7338
▁আৰম্ভণ	-7339
▁উদ্ভিদ	-7340
▁জানানো	-7341
▁তথ্যেৰ	-7342
▁ব্যাপক	-7343
▁যথেষ্ট	-7344
▁সহযোগী	-7345
▁maildir	-7346
▁version	-7347
▁অধ্যায়	-7348
▁আউটবক্স	-7349
▁কমান্ডৰ	-7350
▁পংক্তিৰ	-7351
▁প্ৰোথিত	-7352
▁বাৰ্তাত	-7353
▁বৃদ্ধিত	-7354
▁মূদ্ৰণৰ	-7355
▁সামাজিক	-7356
universal	-7357
▁Facebook	-7358
▁ইন্ডেক্স	-7359
▁উত্তীৰ্ণ	-7360
▁কালদৈৰ্ঘ	-7361
▁কাৰ্ছাৰৰ	-7362
▁কেইটামান	-7363
▁কৰ্মচাৰী	-7364
▁পৰিদৰ্শন	-7365
▁বলপূৰ্বক	-7366
▁বুলিয়ান	-7367
▁সীমাবদ্ধ	-7368
▁operation	-7369
▁দুৰ্ঘটনাৰ	-7370
▁নিৰ্ধাৰণৰ	-7371
displayName	-7372
▁প্ৰত্যাহাৰ	-7373
▁প্ৰয়োজনীয়তা	-7374
-5	-7375
.9	-7376
13	-7377
PG	-7378
RE	-7379
SC	-7380
mi	-7381
অৱ	-7382
তী	-7383
শৰ	-7384
িট	-7385
(13	-7386
42)	-7387
ROM	-7388
als	-7389
ana	-7390
jan	-7391
mal	-7392
pos	-7393
tty	-7394
খিল	-7395
ছোঁ	-7396
ড্ৰ	-7397
ত্র	-7398
ধিব	-7399
ফ্ল	-7400
ভার	-7401
সেৰ	-7402
হেব	-7403
াংশ	-7404
াচল	-7405
াবল	-7406
২০১	-7407
▁#%	-7408
▁CR	-7409
▁JS	-7410
▁ar	-7411
▁if	-7412
▁la	-7413
▁ইব	-7414
▁মৰ	-7415
(231	-7416
(233	-7417
:%02	-7418
hoto	-7419
lude	-7420
olum	-7421
rame	-7422
rite	-7423
sing	-7424
tern	-7425
tick	-7426
trol	-7427
ঙ্কন	-7428
ণীয়	-7429
তীয়	-7430
ধাৰন	-7431
নীতি	-7432
সম্ভ	-7433
স্পৰ	-7434
িয়ন	-7435
েলেৰ	-7436
োটেল	-7437
োত্ত	-7438
্ভটি	-7439
ৱধান	-7440
▁Bub	-7441
▁Elm	-7442
▁Eye	-7443
▁May	-7444
▁VMX	-7445
▁asp	-7446
▁non	-7447
▁prc	-7448
▁rec	-7449
▁sec	-7450
▁spe	-7451
▁খাঁ	-7452
▁খুব	-7453
▁গ্ল	-7454
▁নগদ	-7455
▁মাদ	-7456
▁যাদ	-7457
▁ৰিক	-7458
▁ৰোব	-7459
gnome	-7460
query	-7461
river	-7462
vince	-7463
পাঞ্জ	-7464
াপনেৰ	-7465
েন্টৰ	-7466
▁Page	-7467
▁word	-7468
▁অধিন	-7469
▁আলোচ	-7470
▁টিপা	-7471
▁ট্ৰা	-7472
▁তাচৰ	-7473
▁তুমি	-7474
▁পঢ়ক	-7475
▁পশ্চ	-7476
▁বিস্	-7477
▁বেংক	-7478
▁মচিব	-7479
▁লৈছে	-7480
▁শস্য	-7481
▁সংকু	-7482
▁সমাজ	-7483
▁সমুহ	-7484
▁সাৰি	-7485
▁স্টে	-7486
▁হলেও	-7487
▁ৰেচম	-7488
ublish	-7489
▁12:34	-7490
▁Assam	-7491
▁Could	-7492
▁Linux	-7493
▁Nidhi	-7494
▁gnome	-7495
▁plain	-7496
▁trans	-7497
▁অনুভৱ	-7498
▁চাবলৈ	-7499
▁জানিব	-7500
▁তুলনা	-7501
▁দিছিল	-7502
▁নিয়া	-7503
▁পুৰণি	-7504
▁প্যাড	-7505
▁ভাইৰা	-7506
▁মিশ্ৰ	-7507
▁মেৰাম	-7508
▁সাহেব	-7509
▁হওয়া	-7510
Options	-7511
forward	-7512
options	-7513
িপ্ৰাপক	-7514
▁Bubble	-7515
▁Evince	-7516
▁Search	-7517
▁Ubuntu	-7518
▁return	-7519
▁অভিযান	-7520
▁আয়োজন	-7521
▁কলসীয়	-7522
▁ছাইল্ড	-7523
▁ঠান্ডা	-7524
▁দেখাওক	-7525
▁দ্বারা	-7526
▁নাথাকে	-7527
▁পুৰোনো	-7528
▁পেইনেৰ	-7529
▁প্ৰসেস	-7530
▁বিৱৰিত	-7531
▁বুটামত	-7532
▁ভট্ভটি	-7533
▁মেইলেৰ	-7534
▁সুন্দৰ	-7535
lication	-7536
▁Katiyar	-7537
▁অন্তৰাল	-7538
▁আখৰসমূহ	-7539
▁ডিভাইচত	-7540
▁ধনাত্মক	-7541
▁পঞ্জীয়	-7542
▁বহিয়ের	-7543
▁লিখিবলৈ	-7544
▁সক্রিয়	-7545
▁District	-7546
▁আনুমানিক	-7547
▁কম্পোসাৰ	-7548
▁চাৰ্ভাৰে	-7549
▁নেটমিটিং	-7550
▁পঞ্জিকাত	-7551
▁পুনৰাম্ভ	-7552
▁ভাৱবিনিম	-7553
াবিদ্যালয়	-7554
▁ইনস্ট্যান	-7555
▁এক্সপাঞ্জ	-7556
▁স্বাক্ষৰণ	-7557
▁ইঞ্চুৰেঞ্চ	-7558
▁পুনৰাবৃত্ত	-7559
▁পৰ্যবেক্ষণ	-7560
▁ব্যবহারকারী	-7561
▁ব্যৱস্থাপিত	-7562
▁অস্ট্ৰেলিয়া	-7563
▁ব্যৱহাৰকাৰীক	-7564
▁এটাচমেন্টসমূহ	-7565
▁ৰিমাইন্ডাৰসমূহ	-7566
▁অপ্ৰত্যাশিতভাৱে	-7567
▁ব্যৱস্থাপ্ৰণালী	-7568
$2	-7569
TY	-7570
az	-7571
cd	-7572
sm	-7573
ইড	-7574
উড	-7575
িভ	-7576
ৱস	-7577
(15	-7578
44)	-7579
AND	-7580
Can	-7581
Res	-7582
ddy	-7583
ear	-7584
ert	-7585
uke	-7586
চনৰ	-7587
টাই	-7588
টাও	-7589
টিপ	-7590
ড়ে	-7591
তিন	-7592
বিষ	-7593
সাম	-7594
হীদ	-7595
িৰা	-7596
ুহা	-7597
ুৰী	-7598
ূচক	-7599
ূৰক	-7600
্না	-7601
▁"0	-7602
▁''	-7603
▁26	-7604
▁AN	-7605
▁DB	-7606
▁GB	-7607
▁HD	-7608
▁ne	-7609
▁no	-7610
▁ঋণ	-7611
▁চো	-7612
▁নন	-7613
▁২৭	-7614
633)	-7615
TION	-7616
alia	-7617
ango	-7618
mode	-7619
mote	-7620
move	-7621
ogof	-7622
wiki	-7623
এক্স	-7624
ঞ্জন	-7625
ঞ্জী	-7626
ব্লু	-7627
রূপে	-7628
াবোৰ	-7629
ারের	-7630
▁12,	-7631
▁Spy	-7632
▁অটো	-7633
▁আনক	-7634
▁ইফক	-7635
▁ইলে	-7636
▁কেল	-7637
▁কোঁ	-7638
▁গঢ়	-7639
▁চাম	-7640
▁চেহ	-7641
▁চৰক	-7642
▁টোক	-7643
▁তবে	-7644
▁দেও	-7645
▁পেট	-7646
▁মনো	-7647
▁সিং	-7648
ading	-7649
erver	-7650
oding	-7651
pfunc	-7652
prefs	-7653
খ্যাত	-7654
চুৱেল	-7655
তীয়া	-7656
লিখনী	-7657
ালয়ৰ	-7658
▁(159	-7659
▁(235	-7660
▁(72)	-7661
▁kill	-7662
▁rich	-7663
▁root	-7664
▁অৱৈধ	-7665
▁ইমেজ	-7666
▁উক্ত	-7667
▁গঠিত	-7668
▁টকেন	-7669
▁তললৈ	-7670
▁দণ্ড	-7671
▁দূৰৰ	-7672
▁নিজে	-7673
▁বেতা	-7674
▁মানক	-7675
▁শেষত	-7676
▁সেউজ	-7677
▁ৰুমৰ	-7678
second	-7679
গুলোকে	-7680
▁Bogof	-7681
▁Catch	-7682
▁অফচেট	-7683
▁অ্যাক	-7684
▁অৱদান	-7685
▁উত্তম	-7686
▁এইচসি	-7687
▁ওপৰলৈ	-7688
▁ক্লোন	-7689
▁কৰোৱা	-7690
▁ঘূৰাই	-7691
▁চাকৰি	-7692
▁ঠিকান	-7693
▁দশমিক	-7694
▁নীতিৰ	-7695
▁নেদেখ	-7696
▁পেলেট	-7697
▁প্ৰফে	-7698
▁মাৰ্চ	-7699
▁স্ৰোত	-7700
Forward	-7701
message	-7702
nection	-7703
ষ্ঠানিক	-7704
▁minute	-7705
▁অসম্ভব	-7706
▁কোৰআনৰ	-7707
▁কৰিছেন	-7708
▁গাঁথনি	-7709
▁চিন্তা	-7710
▁নকৰাকৈ	-7711
▁পঠাবলে	-7712
▁প্রেরণ	-7713
▁পৰ্য্য	-7714
▁ফাইলেৰ	-7715
▁বাকচলৈ	-7716
▁বিৱৰণৰ	-7717
▁মূল্যৰ	-7718
▁সংস্থা	-7719
▁সঞ্চয়	-7720
▁স্মৃতি	-7721
প্ৰণালীৰ	-7722
▁অসমাপ্ত	-7723
▁আয়োজিত	-7724
▁এককসমূহ	-7725
▁ক্ষেত্র	-7726
▁জাৰ্মান	-7727
▁পঢ়িবলে	-7728
▁প্ৰৱন্ধ	-7729
▁পৰ্যায়	-7730
▁যাওয়াৰ	-7731
▁সম্বাদত	-7732
▁সুসংগতি	-7733
▁হেণ্ডেল	-7734
▁পৰ্দ্দাত	-7735
▁বিপৰ্য্য	-7736
▁ভাৰচুৱেল	-7737
▁ভাৰতবৰ্ষ	-7738
▁Konqueror	-7739
▁অভিনায়কৰ	-7740
▁কেলেণ্ডাৰ	-7741
▁ক্ষতিপূৰণ	-7742
▁বাণিজ্যিক	-7743
▁বৈজ্ঞানিক	-7744
▁স্ট্যাটাস	-7745
▁Bogofilter	-7746
▁অভ্যন্তৰীক	-7747
▁স্নেপশ্বটৰ	-7748
▁ক্ৰমবিন্যাস	-7749
▁প্ৰতীকচিহ্ন	-7750
▁প্ৰিমিয়ামৰ	-7751
▁মহাবিদ্যালয়	-7752
▁স্বচালিতভাবে	-7753
▁দ্বন্দ্বযুক্ত	-7754
)%	-7755
:\	-7756
De	-7757
FS	-7758
No	-7759
mc	-7760
থো	-7761
মত	-7762
াধ	-7763
ীব	-7764
ৌন	-7765
”-	-7766
08)	-7767
20)	-7768
54)	-7769
den	-7770
eep	-7771
ids	-7772
lib	-7773
ogl	-7774
orn	-7775
ril	-7776
rit	-7777
tin	-7778
tra	-7779
uss	-7780
ইয়	-7781
কলন	-7782
কাস	-7783
কেম	-7784
তৰা	-7785
ফছৰ	-7786
ষিত	-7787
ুইট	-7788
ুদি	-7789
▁00	-7790
▁34	-7791
▁47	-7792
▁Ro	-7793
▁md	-7794
▁নব	-7795
▁বই	-7796
▁শী	-7797
▁সঘ	-7798
▁সল	-7799
▁২৩	-7800
▁৫০	-7801
asti	-7802
ents	-7803
nect	-7804
tect	-7805
tics	-7806
অনুক	-7807
গতিৰ	-7808
ধাৰা	-7809
লেশন	-7810
াপুৰ	-7811
▁'''	-7812
▁1.0	-7813
▁11:	-7814
▁250	-7815
▁Mor	-7816
▁PNG	-7817
▁RSA	-7818
▁Seb	-7819
▁dev	-7820
▁php	-7821
▁অনি	-7822
▁আলী	-7823
▁কমপ	-7824
▁কেড	-7825
▁তৰব	-7826
▁পিত	-7827
▁পেন	-7828
▁বৰঙ	-7829
▁মাঝ	-7830
immed	-7831
ition	-7832
ridge	-7833
গ্ৰেড	-7834
ধারিত	-7835
নৈতিক	-7836
িমূলক	-7837
িয়েই	-7838
োবাইল	-7839
্রেণী	-7840
▁"'''	-7841
▁Cogl	-7842
▁Talk	-7843
▁kaur	-7844
▁link	-7845
▁আইনী	-7846
▁ইউনি	-7847
▁উত্থ	-7848
▁এটাৰ	-7849
▁কামত	-7850
▁খেলক	-7851
▁চময়	-7852
▁জিলা	-7853
▁জৰিত	-7854
▁নফছৰ	-7855
▁পিক্	-7856
▁ফেলে	-7857
▁শেষে	-7858
▁সংসা	-7859
▁ৰাখি	-7860
▁ৰাজন	-7861
বস্তুৰ	-7862
য়েন্ট	-7863
াবস্থা	-7864
োনিয়া	-7865
▁'"$1"	-7866
▁Audio	-7867
▁Delhi	-7868
▁Sound	-7869
▁chess	-7870
▁sound	-7871
▁অন্যৰ	-7872
▁অৱসান	-7873
▁আংশিক	-7874
▁আগষ্ট	-7875
▁ক্ৰয়	-7876
▁ঘটনাক	-7877
▁ছালাত	-7878
▁তুৰ্ক	-7879
▁দেখাব	-7880
▁দৈহিক	-7881
▁ধ্বংস	-7882
▁ফাইলক	-7883
▁ফোকাস	-7884
▁বক্সৰ	-7885
▁বেণ্ড	-7886
▁বৈধতা	-7887
▁ম্যাদ	-7888
▁হোটেল	-7889
▁ৰাছুল	-7890
-8859-1	-7891
windows	-7892
তালিকাৰ	-7893
র্ভুক্ত	-7894
র্মেশান	-7895
্লিকেশন	-7896
▁JSuper	-7897
▁অতিক্ৰ	-7898
▁উপযোগী	-7899
▁চলাবলে	-7900
▁টেক্কা	-7901
▁তিনিটা	-7902
▁বাটনটি	-7903
▁সংঘৰ্ষ	-7904
▁সমকামী	-7905
▁সময়ের	-7906
▁সৰ্বধৰ	-7907
▁হৰতনেৰ	-7908
ব্যৱস্থা	-7909
▁English	-7910
▁Sebasti	-7911
▁অধ্যয়ন	-7912
▁অধ্যাপক	-7913
▁অপাৰেটৰ	-7914
▁অবিৱৰিত	-7915
▁এইমাত্ৰ	-7916
▁তৰবিয়ত	-7917
▁প্ৰকাশক	-7918
▁প্ৰশ্নৰ	-7919
▁পৰিক্ষা	-7920
▁পৰিণতিত	-7921
▁ব্যৱধান	-7922
▁ভাণ্ডাৰ	-7923
▁লিখোঁতে	-7924
▁সাম্প্ৰ	-7925
▁Calendar	-7926
▁Epiphany	-7927
▁checksum	-7928
▁ইশকাপনেৰ	-7929
▁উইন্ডোকে	-7930
▁ঊৰ্ধ্বতন	-7931
▁জ্যামিতি	-7932
▁পঞ্জীয়ন	-7933
▁পৰিচিতিৰ	-7934
▁বিজ্ঞানৰ	-7935
▁বুলিয়েন	-7936
▁মেইলবাকচ	-7937
▁ৰুহিতনেৰ	-7938
endOptions	-7939
▁character	-7940
▁গুৱাহাটীত	-7941
▁ফেব্ৰুৱাৰ	-7942
▁বিষয়সমূহ	-7943
▁ব্যৱসায়ৰ	-7944
▁সৰ্বোত্তম	-7945
KCharSelect	-7946
▁ইনফর্মেশান	-7947
▁কাৰ্য্যকৰী	-7948
▁ধাৰ্য্যকৰণ	-7949
▁মেগ্নিফাইড	-7950
ঙ্গুলিসঁচালন	-7951
▁অন্তর্ভুক্ত	-7952
▁কাৰ্য্যসূচী	-7953
▁পৰিচয়সমূহক	-7954
▁বিচ্ছিন্নিত	-7955
▁অ্যাপ্লিকেশন	-7956
▁প্ৰক্ৰিয়াকৰণ	-7957
PermissionsLevel	-7958
')	-7959
CC	-7960
IV	-7961
IX	-7962
Me	-7963
Th	-7964
dv	-7965
gi	-7966
ov	-7967
আন	-7968
এপ	-7969
কৃ	-7970
ণা	-7971
্‍	-7972
ৱী	-7973
10)	-7974
51)	-7975
Mon	-7976
Xxx	-7977
att	-7978
png	-7979
way	-7980
আৰু	-7981
ঠনৰ	-7982
দিক	-7983
পাঠ	-7984
ভাই	-7985
ভাষ	-7986
মেৰ	-7987
যদি	-7988
াগো	-7989
াপদ	-7990
াৰো	-7991
িপে	-7992
ুকৈ	-7993
েলে	-7994
োজা	-7995
ৱাই	-7996
ৱেশ	-7997
▁"#	-7998
▁$2	-7999
▁(*	-8000
▁(0	-8001
▁-'	-8002
▁-1	-8003
▁2)	-8004
▁Be	-8005
▁Es	-8006
▁On	-8007
▁wh	-8008
▁উজ	-8009
▁ফত	-8010
▁২১	-8011
.323	-8012
Char	-8013
Stre	-8014
bert	-8015
fter	-8016
none	-8017
nown	-8018
wise	-8019
কলাপ	-8020
ক্ষে	-8021
জ্জা	-8022
ট্ৰি	-8023
প্লে	-8024
মিনি	-8025
সৰ্গ	-8026
াছবি	-8027
িকিউ	-8028
িপেট	-8029
ুৱাই	-8030
োর্ট	-8031
▁"1"	-8032
▁400	-8033
▁Tab	-8034
▁আছু	-8035
▁কার	-8036
▁চিম	-8037
▁ডিক	-8038
▁নেত	-8039
▁সংল	-8040
▁সুৰ	-8041
▁ৰঙা	-8042
▁ৱিক	-8043
(2312	-8044
lease	-8045
level	-8046
login	-8047
খ্যিক	-8048
পঢ়িব	-8049
ভঁৰাল	-8050
সদস্য	-8051
সাৰিত	-8052
ৃত্তি	-8053
ৰ্ণয়	-8054
▁(233	-8055
▁1000	-8056
▁CURL	-8057
▁Rach	-8058
▁Word	-8059
▁help	-8060
▁tool	-8061
▁vlan	-8062
▁আকার	-8063
▁আগলৈ	-8064
▁এখনো	-8065
▁কঠিন	-8066
▁কাৰক	-8067
▁ছবিত	-8068
▁জাৰি	-8069
▁ডিমন	-8070
▁থাকা	-8071
▁থিয়	-8072
▁দিশৰ	-8073
▁পাইল	-8074
▁বাংল	-8075
▁ভগ্ন	-8076
▁মাতৃ	-8077
▁ষ্টে	-8078
▁সভাপ	-8079
▁সহজে	-8080
▁স্কো	-8081
▁ৰখাৰ	-8082
-8859-	-8083
Expand	-8084
config	-8085
direct	-8086
vision	-8087
উদাহৰণ	-8088
চমকানো	-8089
টেয়াৰ	-8090
টৱৰ্কৰ	-8091
লুকাওক	-8092
সাধাৰণ	-8093
াকৃতিক	-8094
্ৰুগড়	-8095
ৰ্দ্ধক	-8096
▁email	-8097
▁false	-8098
▁mutex	-8099
▁আধাৰত	-8100
▁উপৰিও	-8101
▁উৎপাদ	-8102
▁গ্ৰুপ	-8103
▁ঘটিছে	-8104
▁ছেটিং	-8105
▁বিহীন	-8106
▁মাত্ৰ	-8107
▁মুনীন	-8108
▁মেটাল	-8109
▁লেটিন	-8110
▁সজোৱা	-8111
▁সার্ভ	-8112
▁সেটআপ	-8113
ownload	-8114
▁"{1}"-	-8115
▁Global	-8116
▁device	-8117
▁follow	-8118
▁আব্দুৰ	-8119
▁টেবলেট	-8120
▁নেওয়া	-8121
▁বুজায়	-8122
▁বুদ্ধি	-8123
▁মানসিক	-8124
▁যাওয়া	-8125
▁সংঘটিত	-8126
▁সন্মান	-8127
▁সাধাৰন	-8128
▁display	-8129
▁অসংলগ্ন	-8130
▁আটাইতকৈ	-8131
▁কতৃপক্ষ	-8132
▁ডিজিটেল	-8133
▁প্ৰফেছৰ	-8134
▁প্ৰসাৰন	-8135
▁মূদ্ৰকত	-8136
▁মেডিকেল	-8137
▁শিক্ষাৰ	-8138
▁শ্ৰেণীৰ	-8139
▁সংকুচিত	-8140
▁সমন্বয়	-8141
▁সহায়তা	-8142
▁স্নিপেট	-8143
▁আছুতীয়া	-8144
▁ছায়াছবি	-8145
▁প্লাগিনৰ	-8146
▁প্ৰেৰণেৰ	-8147
▁পৰিৱৰ্তে	-8148
▁ফিল্টাৰৰ	-8149
▁বিচাৰিছে	-8150
▁বৈশিষ্টৰ	-8151
plyForward	-8152
▁অছাল্লামৰ	-8153
▁প্ৰত্যাশা	-8154
সবাস্ক্ৰাইব	-8155
▁অতিক্ৰান্ত	-8156
▁আব্দুল্লাহ	-8157
▁বিশ্বব্যাপী	-8158
▁ব্যবস্থাপনা	-8159
▁বৰ্ষপঞ্জিটি	-8160
▁প্ৰত্যুত্তৰৰ	-8161
▁সম্পূৰ্ণভাৱে	-8162
▁প্ৰধানমন্ত্ৰী	-8163
(%	-8164
56	-8165
=0	-8166
BD	-8167
DG	-8168
GB	-8169
Id	-8170
OU	-8171
TS	-8172
aj	-8173
ke	-8174
lr	-8175
we	-8176
вр	-8177
ем	-8178
এন	-8179
ডো	-8180
সৈ	-8181
িস	-8182
ীজ	-8183
ুদ	-8184
(83	-8185
)",	-8186
77)	-8187
CII	-8188
ECT	-8189
PEG	-8190
TLS	-8191
ash	-8192
bir	-8193
ets	-8194
gra	-8195
ick	-8196
ken	-8197
mas	-8198
max	-8199
pre	-8200
ubs	-8201
ско	-8202
এচএ	-8203
চিন	-8204
জেন	-8205
টেৰ	-8206
ডিৰ	-8207
ডেক	-8208
নিং	-8209
পান	-8210
পেন	-8211
বার	-8212
ভিন	-8213
মাল	-8214
শনি	-8215
হয়	-8216
াবী	-8217
াৱন	-8218
ৱান	-8219
ৱাল	-8220
▁07	-8221
▁36	-8222
▁56	-8223
▁An	-8224
▁Le	-8225
▁অথ	-8226
▁সঁ	-8227
SITE	-8228
Size	-8229
amer	-8230
hist	-8231
ikas	-8232
land	-8233
ness	-8234
open	-8235
part	-8236
size	-8237
task	-8238
then	-8239
thod	-8240
tran	-8241
টাউন	-8242
প্তি	-8243
বেলে	-8244
ম্বন	-8245
য়াই	-8246
স্টা	-8247
িচ্ছ	-8248
ীমিত	-8249
ূল্য	-8250
্ৰেছ	-8251
▁1.5	-8252
▁300	-8253
▁Des	-8254
▁FTP	-8255
▁PID	-8256
▁Par	-8257
▁Top	-8258
▁car	-8259
▁mac	-8260
▁আগে	-8261
▁আৱি	-8262
▁এতে	-8263
▁এপি	-8264
▁কমা	-8265
▁খুঁ	-8266
▁টেপ	-8267
▁ডাই	-8268
▁থাই	-8269
▁বহল	-8270
▁বুধ	-8271
▁বৰফ	-8272
▁শ্ল	-8273
▁সঙ্	-8274
▁ৱাৰ	-8275
/2015	-8276
acher	-8277
celer	-8278
lickr	-8279
press	-8280
উত্তৰ	-8281
দাচদি	-8282
বন্টন	-8283
ব্বিশ	-8284
লিচিৰ	-8285
সময়ত	-8286
ৰ্ডিং	-8287
▁(279	-8288
▁2018	-8289
▁Roll	-8290
▁date	-8291
▁কিলো	-8292
▁কৃষি	-8293
▁চাইট	-8294
▁দিনত	-8295
▁পাকি	-8296
▁পিতৃ	-8297
▁পৰিস	-8298
▁বাৰ্	-8299
▁বিগত	-8300
▁মাপে	-8301
▁লভ্য	-8302
▁শৰ্ম	-8303
▁সংকট	-8304
▁সমলৰ	-8305
▁সাংস	-8306
▁সূচক	-8307
▁হাতত	-8308
(4843)	-8309
amalla	-8310
string	-8311
অনুকৰণ	-8312
লিকেশন	-8313
াকালীন	-8314
ান্তৰণ	-8315
▁Inter	-8316
▁VCard	-8317
▁Vikas	-8318
▁hours	-8319
▁অক্টো	-8320
▁অপৰিব	-8321
▁আঁকতে	-8322
▁ইউএচএ	-8323
▁ওয়েব	-8324
▁কাৰ্ট	-8325
▁কৰিবৰ	-8326
▁গাড়ী	-8327
▁দাখিল	-8328
▁নমুনা	-8329
▁পদ্ধত	-8330
▁বঙালী	-8331
▁বাহনৰ	-8332
▁লাতিন	-8333
▁সংগীত	-8334
▁সংগ্র	-8335
▁সাবস্	-8336
▁সিহতৰ	-8337
▁ৰিডাৰ	-8338
command	-8339
বিজ্ঞান	-8340
স্টাৰ্ন	-8341
ীৰচিহ্ন	-8342
েনিয়ান	-8343
▁filter	-8344
▁format	-8345
▁gconfd	-8346
▁অক্টোব	-8347
▁আনহাতে	-8348
▁কলসমূহ	-8349
▁চাকৰিৰ	-8350
▁পৰিমাপ	-8351
▁বিশ্বৰ	-8352
▁বৃহস্প	-8353
▁ব্যুৰো	-8354
▁শাস্তি	-8355
▁শিল্পী	-8356
▁ষ্টেচ্	-8357
▁সুমুৱা	-8358
▁স্বভাৱ	-8359
▁হিচাপৰ	-8360
Assamese	-8361
SITENAME	-8362
ইউনাইটেড	-8363
োত্তীৰ্ণ	-8364
▁অনলাইনত	-8365
▁আটাইবোৰ	-8366
▁উইজেটটি	-8367
▁কিবৰ্ডৰ	-8368
▁জেনেৰেল	-8369
▁নোহোৱাৰ	-8370
▁বার্তার	-8371
▁ভিত্তিক	-8372
▁যুক্তৰা	-8373
▁শ্ৰেষ্ঠ	-8374
▁স্কিমাৰ	-8375
▁স্বাধীন	-8376
▁স্মাইলি	-8377
celerator	-8378
evolution	-8379
▁অনুজ্ঞাৰ	-8380
▁অসুস্থতা	-8381
▁আলেখ্যনৰ	-8382
▁ইম্পোর্ট	-8383
▁কেইবাটাও	-8384
▁ছাৰাউন্ড	-8385
▁ডেস্কটপত	-8386
▁পৃষ্ঠায়	-8387
▁প্ৰোফাইল	-8388
▁বাৰ্তালে	-8389
▁ব্যক্তিক	-8390
▁ব্যবহাৰৰ	-8391
▁ব্যৰ্থতা	-8392
▁শিৰোণামা	-8393
▁সাংখ্যিক	-8394
▁সৌন্দৰ্য	-8395
▁অভিগম্যতা	-8396
▁নিউক্লীয়	-8397
▁প্ৰস্তুতি	-8398
▁সংযোগসমূহ	-8399
▁Rachamalla	-8400
▁গ্ৰহণযোগ্য	-8401
▁লাইব্ৰেৰীৰ	-8402
▁সঁজুলিসমূহ	-8403
▁নিশ্চিতকৰণৰ	-8404
▁স্থায়ীভাবে	-8405
DL	-8406
PA	-8407
dj	-8408
uc	-8409
ان	-8410
এছ	-8411
গৈ	-8412
টক	-8413
ঠা	-8414
তথ	-8415
বৈ	-8416
ুঠ	-8417
৫০	-8418
▁!	-8419
▁ি	-8420
(24	-8421
18)	-8422
22)	-8423
32)	-8424
35)	-8425
43)	-8426
49)	-8427
ARG	-8428
Kit	-8429
buf	-8430
ift	-8431
lag	-8432
llu	-8433
run	-8434
seb	-8435
tag	-8436
tio	-8437
tor	-8438
uma	-8439
yor	-8440
আতৰ	-8441
আমি	-8442
ছলা	-8443
ছেই	-8444
নার	-8445
নাহ	-8446
বিদ	-8447
ভিউ	-8448
ভেদ	-8449
সেট	-8450
িকৰ	-8451
ীতি	-8452
ুলে	-8453
ুৰি	-8454
োচন	-8455
ৰ্ন	-8456
▁*.	-8457
▁70	-8458
▁II	-8459
▁PD	-8460
▁Sa	-8461
▁da	-8462
▁ht	-8463
▁ms	-8464
▁আঘ	-8465
▁পল	-8466
630)	-8467
Tuts	-8468
auto	-8469
char	-8470
dium	-8471
lack	-8472
lose	-8473
main	-8474
mary	-8475
site	-8476
thor	-8477
ষণাৰ	-8478
স্টন	-8479
াহিত	-8480
াৰিং	-8481
্ৰাল	-8482
ৱাইড	-8483
▁(3)	-8484
▁(82	-8485
▁API	-8486
▁COM	-8487
▁EWS	-8488
▁PEM	-8489
▁PPD	-8490
▁Rec	-8491
▁Tra	-8492
▁sys	-8493
▁এৰি	-8494
▁কলা	-8495
▁কোল	-8496
▁ঘৰে	-8497
▁টাচ	-8498
▁ডেল	-8499
▁পাম	-8500
▁বৰষ	-8501
▁মোট	-8502
▁য়ে	-8503
▁যোৰ	-8504
▁ৱাল	-8505
Inser	-8506
clude	-8507
olumn	-8508
ption	-8509
ument	-8510
ফিক্স	-8511
ফোৰ্ড	-8512
লিঙ্ক	-8513
শাৰীৰ	-8514
স্থাত	-8515
াকৰ্ত	-8516
াপত্ৰ	-8517
িয়েৰ	-8518
▁CPUs	-8519
▁DHCP	-8520
▁Mehr	-8521
▁hint	-8522
▁some	-8523
▁task	-8524
▁tubs	-8525
▁অংশক	-8526
▁উদ্ব	-8527
▁কখনো	-8528
▁কালো	-8529
▁কুটা	-8530
▁কেছে	-8531
▁চিঠি	-8532
▁ছকেৰ	-8533
▁জৰ্জ	-8534
▁ঠাইৰ	-8535
▁দেবে	-8536
▁নহবও	-8537
▁নিকট	-8538
▁পঞ্চ	-8539
▁পৰিত	-8540
▁ফ্ৰী	-8541
▁ফ্ৰে	-8542
▁বিয়	-8543
▁বেশি	-8544
▁ভাৱে	-8545
▁লাইচ	-8546
▁লোকৰ	-8547
▁সংহত	-8548
▁সবৰ্	-8549
▁স্টক	-8550
▁হওতে	-8551
▁হিতা	-8552
▁ৰাতি	-8553
Create	-8554
icture	-8555
lected	-8556
rganiz	-8557
ternal	-8558
সমূহলে	-8559
িয়ালৰ	-8560
ুল্লাহ	-8561
ৱাইড্ত	-8562
▁Totem	-8563
▁অনিয়	-8564
▁আজকেৰ	-8565
▁উপনাম	-8566
▁এনকিউ	-8567
▁কাৰণত	-8568
▁ক্যাৰ	-8569
▁খুঁজে	-8570
▁চোৱাৰ	-8571
▁জ্ঞাত	-8572
▁দিকেৰ	-8573
▁দেখতে	-8574
▁নিজকে	-8575
▁পূর্ব	-8576
▁পোৱাৰ	-8577
▁প্ৰদূ	-8578
▁বক্সত	-8579
▁বৰাবৰ	-8580
▁মাল্ট	-8581
▁মেমোৰ	-8582
▁লেহেম	-8583
▁হাঙ্গ	-8584
▁হৰুৱা	-8585
▁ৰোমান	-8586
(13181)	-8587
Printer	-8588
টোক্যাড	-8589
লেটিক্স	-8590
সাক্ষাৎ	-8591
▁"{0}"-	-8592
▁Bacher	-8593
▁Import	-8594
▁Inline	-8595
▁cgroup	-8596
▁অনুলিপ	-8597
▁আঁচনিৰ	-8598
▁আপুনাৰ	-8599
▁উপসৰ্গ	-8600
▁এন্টাৰ	-8601
▁ছালাতৰ	-8602
▁টাইমাৰ	-8603
▁টেবুলৰ	-8604
▁ডিস্কে	-8605
▁তেখেতৰ	-8606
▁নামেৰে	-8607
▁পেকেইজ	-8608
▁ফ্ৰেইম	-8609
▁বালিকা	-8610
▁বিনষ্ট	-8611
▁বেতাঁৰ	-8612
▁মিনিটৰ	-8613
▁মোবাইল	-8614
▁শান্তি	-8615
▁শিক্ষক	-8616
▁সন্মুখ	-8617
▁সম্পদৰ	-8618
▁সাফল্য	-8619
Password	-8620
createac	-8621
▁account	-8622
▁উইন্ডোর	-8623
▁একমাত্ৰ	-8624
▁গতিবৰ্ধ	-8625
▁গ্ৰাহকৰ	-8626
▁পঠিয়াব	-8627
▁পয়েন্ট	-8628
▁পাৰস্পৰ	-8629
▁প্ৰমপ্ট	-8630
▁বৃদ্ধিৰ	-8631
▁মানাংকন	-8632
▁মাৰ্কাস	-8633
▁সংকোচনৰ	-8634
▁সেকেন্ড	-8635
protected	-8636
▁TechTuts	-8637
▁cdrecord	-8638
▁আঙ্গুলিৰ	-8639
▁ক্ষেত্রে	-8640
▁ডিচেম্বৰ	-8641
▁ডেস্কটপৰ	-8642
▁নোহোৱাকৈ	-8643
▁প্ৰাপকৰা	-8644
▁বাইনাৰিৰ	-8645
▁মীমাংসিত	-8646
▁সংস্কৰণত	-8647
▁Sebastien	-8648
▁অৱস্থাবাৰ	-8649
▁ইমপোৰ্টাৰ	-8650
▁কমপিউটাৰৰ	-8651
▁গ্ৰহণকাৰী	-8652
▁প্ৰাকৃতিক	-8653
▁বিদ্যালয়	-8654
▁সামঞ্জস্য	-8655
▁স্লাইডশ্ব	-8656
▁হাইপাৰভাই	-8657
▁JavaScript	-8658
▁উইন্ডোসমূহ	-8659
▁সম্প্ৰসাৰন	-8660
▁02110-1301,	-8661
▁পুনৰনিৰ্দেশ	-8662
▁বেণ্ডৱাইড্ত	-8663
▁ব্যবহাৰকাৰী	-8664
▁যেতিয়ালৈকে	-8665
▁কৰ্মক্ষেত্ৰত	-8666
▁অনুগ্ৰহপূৰ্বক	-8667
▁আনসাবস্ক্ৰাইব	-8668
▁ব্যৱহাৰকাৰীজনে	-8669
.8	-8670
3,	-8671
58	-8672
;]	-8673
MP	-8674
SM	-8675
TH	-8676
TL	-8677
cy	-8678
rc	-8679
wo	-8680
তঃ	-8681
ফট	-8682
সব	-8683
হব	-8684
ুৎ	-8685
ূখ	-8686
ৈত	-8687
▁]	-8688
▁ঝ	-8689
")।	-8690
27)	-8691
Cho	-8692
Dev	-8693
ake	-8694
etc	-8695
gbb	-8696
ild	-8697
ops	-8698
que	-8699
rrg	-8700
ugh	-8701
urs	-8702
wit	-8703
емя	-8704
আপৰ	-8705
তাহ	-8706
ধনৰ	-8707
য়ো	-8708
শাস	-8709
ষাৰ	-8710
াটন	-8711
িকো	-8712
িটি	-8713
ীনৰ	-8714
োৰে	-8715
২৪৫	-8716
▁"2	-8717
▁1:	-8718
▁33	-8719
▁Bu	-8720
▁En	-8721
▁IO	-8722
▁JB	-8723
▁OF	-8724
▁do	-8725
▁вр	-8726
▁কপ	-8727
▁তৌ	-8728
▁নৰ	-8729
....	-8730
.201	-8731
000,	-8732
658)	-8733
Link	-8734
Russ	-8735
expr	-8736
face	-8737
ideo	-8738
iser	-8739
sche	-8740
uest	-8741
ustr	-8742
ское	-8743
ওৱেৰ	-8744
প্ৰা	-8745
বাবে	-8746
সংগত	-8747
াৰ্য	-8748
ুলাৰ	-8749
োগিক	-8750
্তাৰ	-8751
্যাম	-8752
▁"--	-8753
▁And	-8754
▁Che	-8755
▁For	-8756
▁Mac	-8757
▁PNM	-8758
▁are	-8759
▁কমি	-8760
▁চিল	-8761
▁	-8762
ৰ	-8763
া	-8764
্	-8765
ি	-8766
ক	-8767
ন	-8768
ব	-8769
ত	-8770
ে	-8771
প	-8772
স	-8773
য	-8774
ম	-8775
ল	-8776
হ	-8777
ো	-8778
ু	-8779
ট	-8780
e	-8781
়	-8782
চ	-8783
ই	-8784
দ	-8785
a	-8786
s	-8787
t	-8788
অ	-8789
আ	-8790
থ	-8791
o	-8792
গ	-8793
ৱ	-8794
ড	-8795
ী	-8796
i	-8797
'	-8798
n	-8799
)	-8800
(	-8801
শ	-8802
ষ	-8803
r	-8804
ছ	-8805
ণ	-8806
এ	-8807
ভ	-8808
ধ	-8809
জ	-8810
%	-8811
।	-8812
ূ	-8813
ং	-8814
l	-8815
m	-8816
ৈ	-8817
-	-8818
ফ	-8819
উ	-8820
খ	-8821
:	-8822
,	-8823
_	-8824
c	-8825
d	-8826
.	-8827
u	-8828
1	-8829
p	-8830
0	-8831
h	-8832
2	-8833
g	-8834
ৃ	-8835
ও	-8836
"	-8837
র	-8838
N	-8839
S	-8840
C	-8841
5	-8842
b	-8843
3	-8844
ঠ	-8845
y	-8846
4	-8847
P	-8848
/	-8849
6	-8850
A	-8851
f	-8852
ঁ	-8853
8	-8854
v	-8855
I	-8856
k	-8857
D	-8858
M	-8859
E	-8860
T	-8861
7	-8862
ঞ	-8863
9	-8864
w	-8865
;	-8866
L	-8867
R	-8868
x	-8869
G	-8870
U	-8871
O	-8872
F	-8873
B	-8874
&	-8875
ঙ	-8876
ঘ	-8877
?	-8878
=	-8879
ৎ	-8880
V	-8881
K	-8882
{	-8883
}	-8884
১	-8885
H	-8886
০	-8887
ঢ	-8888
X	-8889
’	-8890
\	-8891
২	-8892
ৌ	-8893
W	-8894
z	-8895
@	-8896
ঃ	-8897
q	-8898
j	-8899
J	-8900
]	-8901
[	-8902
$	-8903
Y	-8904
“	-8905
”	-8906
৩	-8907
৫	-8908
Q	-8909
ঔ	-8910
~	-8911
»	-8912
৪	-8913
ৣ	-8914
+	-8915
੔	-8916
!	-8917
`	-8918
৯	-8919
✞	-8920
৮	-8921
৬	-8922
‘	-8923
ঈ	-8924
#	-8925
*	-8926
৭	-8927
Z	-8928
۝	-8929
৷	-8930
ı	-8931
☬	-8932
–	-8933
©	-8934
—	-8935
а	-8936
‍	-8937
	-8938
ā	-8939
ا	-8940
р	-8941
ঝ	-8942
꧁	-8943
꧂	-8944
ر	-8945
â	-8946
ঊ	-8947
к	-8948
е	-8949
с	-8950
ü	-8951
Ð	-8952
о	-8953
آ	-8954
×	-8955
н	-8956
ř	-8957
ê	-8958
•	-8959
ҟ	-8960
°	-8961
Ŧ	-8962
ن	-8963
ş	-8964
ঋ	-8965
د	-8966
ঐ	-8967
в	-8968
м	-8969
ē	-8970
и	-8971
ب	-8972
ç	-8973
ه	-8974
ನ	-8975
ل	-8976
ō	-8977
я	-8978
ा	-8979
ī	-8980
г	-8981
ي	-8982
ी	-8983
ğ	-8984
т	-8985
س	-8986
م	-8987
द	-8988
ö	-8989
л	-8990
न	-8991
д	-8992
у	-8993
ی	-8994
्	-8995
॥	-8996
