<unk>	0
<s>	0
</s>	0
▁మ	-0
▁ప	-1
ర్	-2
ని	-3
▁క	-4
్ర	-5
▁స	-6
▁వ	-7
రి	-8
న్	-9
▁అ	-10
లు	-11
ను	-12
స్	-13
క్	-14
రు	-15
ది	-16
▁చ	-17
ిం	-18
ట్	-19
్య	-20
లో	-21
యు	-22
కు	-23
▁త	-24
▁ఉ	-25
ల్	-26
▁న	-27
గా	-28
డి	-29
▁ప్ర	-30
▁మరి	-31
▁మరియు	-32
ము	-33
▁ఆ	-34
డు	-35
ాల	-36
తు	-37
ార	-38
దు	-39
▁ర	-40
▁బ	-41
ంది	-42
▁ఇ	-43
ప్	-44
ించ	-45
త్	-46
టి	-47
▁ద	-48
ారు	-49
▁ల	-50
▁మీ	-51
కి	-52
తి	-53
న్న	-54
▁గ	-55
▁వి	-56
ంచ	-57
▁య	-58
ైన	-59
ార్	-60
▁చే	-61
పు	-62
ాని	-63
▁ఎ	-64
ాయ	-65
▁స్	-66
▁ఒ	-67
డ్	-68
లి	-69
ంట	-70
గ్	-71
ంత	-72
▁ని	-73
ండి	-74
▁ఒక	-75
ిన	-76
ాలు	-77
▁జ	-78
చ్	-79
వా	-80
▁1	-81
క్క	-82
ద్	-83
ంగా	-84
▁2	-85
▁సం	-86
చ్చ	-87
వు	-88
▁ఫ	-89
ానికి	-90
న్ని	-91
్యా	-92
▁కా	-93
ండ	-94
▁లే	-95
▁కో	-96
లా	-97
▁వా	-98
ిత	-99
స్తు	-100
▁మీరు	-101
మ్	-102
▁మా	-103
మా	-104
▁ఈ	-105
మైన	-106
గు	-107
▁హ	-108
ష్	-109
ిక	-110
ాయి	-111
టు	-112
క్ష	-113
▁భ	-114
ందు	-115
దా	-116
సం	-117
▁(	-118
▁ట	-119
యో	-120
స్త	-121
▁లో	-122
ొక్క	-123
▁డ	-124
సు	-125
వి	-126
▁శ	-127
▁కొ	-128
ింగ్	-129
▁ఏ	-130
▁నే	-131
ంద	-132
▁యొక్క	-133
లను	-134
ప్ప	-135
▁-	-136
ప్పు	-137
డానికి	-138
ంలో	-139
యా	-140
▁నా	-141
▁ను	-142
్వ	-143
▁అత	-144
మి	-145
▁చేయ	-146
▁చె	-147
గి	-148
ింది	-149
▁సా	-150
నే	-151
రించ	-152
▁కోసం	-153
తో	-154
సి	-155
త్త	-156
ెట్	-157
▁పరి	-158
్రా	-159
00	-160
▁ము	-161
▁వె	-162
వే	-163
ూడ	-164
▁&	-165
in	-166
▁ఉన్న	-167
ద్ద	-168
నీ	-169
చ్చు	-170
▁నేను	-171
ెం	-172
రీ	-173
చు	-174
▁సమ	-175
ారా	-176
కో	-177
▁మే	-178
్రి	-179
▁లేదా	-180
లే	-181
ాన	-182
యం	-183
▁ఇది	-184
డం	-185
స్తుంది	-186
ారం	-187
బ్	-188
రా	-189
▁గు	-190
▁ఉంట	-191
▁కు	-192
01	-193
▁ఉంది	-194
▁అను	-195
రణ	-196
ప్పుడు	-197
er	-198
▁నుండి	-199
▁ఉప	-200
ంప	-201
▁పా	-202
gt	-203
ల్ల	-204
▁తె	-205
ళ్	-206
▁3	-207
▁నీ	-208
▁మొ	-209
▁వ్య	-210
వచ్చు	-211
▁రా	-212
సర	-213
టర్	-214
కా	-215
▁వారి	-216
యోగ	-217
▁నిర్	-218
ar	-219
..	-220
మె	-221
▁దే	-222
నా	-223
▁వే	-224
పో	-225
త్ర	-226
ూర్	-227
ద్ధ	-228
వల	-229
▁పొ	-230
షన్	-231
▁/	-232
సిన	-233
స్థ	-234
టీ	-235
▁మార్	-236
దే	-237
ెక్	-238
ెను	-239
ంటి	-240
ష్ట	-241
an	-242
st	-243
am	-244
▁సి	-245
▁కలి	-246
ట్ట	-247
వర్	-248
▁చి	-249
▁S	-250
▁క్ర	-251
▁మె	-252
▁ద్వ	-253
▁మేము	-254
▁C	-255
చే	-256
▁అవ	-257
జు	-258
లకు	-259
ాలి	-260
స్ట	-261
▁పె	-262
▁"	-263
రో	-264
క్కు	-265
on	-266
జ్	-267
చి	-268
ాలను	-269
ాలా	-270
తుంది	-271
▁పో	-272
కొ	-273
="	-274
దారు	-275
▁బా	-276
▁రో	-277
బడ	-278
▁వారు	-279
▁201	-280
ైన్	-281
పా	-282
▁P	-283
▁భా	-284
ఫ్	-285
న్నా	-286
నం	-287
...	-288
▁తో	-289
▁ప్రా	-290
▁ద్వారా	-291
యి	-292
▁తీ	-293
మ్మ	-294
▁A	-295
▁డి	-296
▁చాలా	-297
ట్లు	-298
▁పు	-299
▁కూడ	-300
ించు	-301
▁T	-302
ంటే	-303
ur	-304
▁స్థ	-305
ారణ	-306
బు	-307
▁కార్	-308
▁యె	-309
▁పే	-310
ంధ	-311
▁అధ	-312
▁ప్రతి	-313
▁4	-314
▁ఉండ	-315
▁5	-316
మీ	-317
▁కూడా	-318
▁స్ట	-319
or	-320
en	-321
▁ధ	-322
తా	-323
▁అన్ని	-324
▁తన	-325
at	-326
క్తి	-327
▁ఉత్	-328
ద్య	-329
పి	-330
ీక	-331
ట్టి	-332
▁ష	-333
▁ఉపయోగ	-334
ట్టు	-335
పత్	-336
్యూ	-337
ైనా	-338
▁M	-339
కే	-340
ుంది	-341
మే	-342
▁సహ	-343
▁ఖ	-344
ెన్	-345
▁దాని	-346
▁సమా	-347
సా	-348
క్ర	-349
▁సు	-350
▁వీ	-351
▁వ్యా	-352
ఖ్య	-353
▁d	-354
▁మి	-355
▁సాధ	-356
ప్ర	-357
ైట్	-358
▁సే	-359
es	-360
రే	-361
▁కలిగి	-362
భా	-363
▁అది	-364
▁గా	-365
▁కే	-366
ించిన	-367
ంగ్	-368
బడి	-369
▁మో	-370
▁అతని	-371
▁ఉత్పత్	-372
లీ	-373
▁చూ	-374
్లా	-375
ండ్	-376
తులు	-377
రకు	-378
క్కువ	-379
ెస్	-380
వ్	-381
▁పి	-382
లలో	-383
▁రి	-384
వాత	-385
▁పని	-386
రం	-387
▁ఉంటుంది	-388
జి	-389
ధాన	-390
త్య	-391
▁చెప్ప	-392
రించి	-393
జీ	-394
ర్థ	-395
▁,	-396
▁కానీ	-397
ందుకు	-398
ంచి	-399
మును	-400
▁అయ	-401
om	-402
ించడానికి	-403
దర్	-404
▁యు	-405
కీ	-406
▁ఇత	-407
బంధ	-408
lt	-409
క్షణ	-410
గం	-411
ళ్ళ	-412
▁దా	-413
▁సర	-414
న్య	-415
హో	-416
వం	-417
శ్	-418
ారీ	-419
క్కడ	-420
వత్	-421
▁అవసర	-422
▁_	-423
ంచు	-424
▁L	-425
▁క్	-426
▁D	-427
▁అని	-428
▁అభ	-429
▁H	-430
మో	-431
al	-432
▁6	-433
▁...	-434
▁సె	-435
▁అనే	-436
▁మొద	-437
క్స్	-438
▁అతను	-439
్యం	-440
▁సంవత్	-441
రుగు	-442
▁G	-443
it	-444
▁t	-445
▁B	-446
ాడు	-447
ించి	-448
▁గురించి	-449
▁జా	-450
▁వై	-451
▁సంవత్సర	-452
▁వచ్చ	-453
ల్లో	-454
amp	-455
▁ఉన్నాయి	-456
కోవ	-457
▁అధిక	-458
యన	-459
art	-460
▁మూ	-461
▁యెహో	-462
▁లేదు	-463
▁స్వ	-464
దేశ	-465
▁st	-466
హి	-467
్రం	-468
et	-469
▁దేవు	-470
టో	-471
మాణ	-472
▁ప్రక	-473
బా	-474
▁తయ	-475
ులు	-476
▁ది	-477
కర్	-478
న్ను	-479
▁వాటి	-480
▁రూ	-481
▁తి	-482
స్తున్న	-483
▁దీ	-484
▁యూ	-485
జా	-486
▁రోజు	-487
ించే	-488
▁ఐ	-489
▁జీ	-490
▁R	-491
బడింది	-492
ెంట్	-493
▁ఆమె	-494
గ్ర	-495
▁తెలు	-496
ధ్య	-497
దారులు	-498
షి	-499
▁I	-500
▁స్ప	-501
ధి	-502
తీ	-503
ంతో	-504
▁అంది	-505
కర	-506
▁F	-507
▁మన	-508
ic	-509
▁లా	-510
ెడ్	-511
▁ఇతర	-512
తం	-513
▁పై	-514
▁8	-515
"&	-516
▁0	-517
▁సర్	-518
▁start	-519
▁dur	-520
▁యెహోవా	-521
బర్	-522
el	-523
▁పూర్	-524
▁సూ	-525
టింగ్	-526
కం	-527
▁అంత	-528
ed	-529
▁E	-530
స్తారు	-531
ితే	-532
యన్	-533
దర్శ	-534
▁కొన్ని	-535
టా	-536
ైల్	-537
మారు	-538
చిత	-539
స్ట్	-540
▁ఆయన	-541
▁బో	-542
▁ఫో	-543
నుగ	-544
విత	-545
ెండు	-546
▁హో	-547
▁దేశ	-548
ింపు	-549
గిన	-550
▁ప్రత్య	-551
▁చూడ	-552
▁యా	-553
ing	-554
భు	-555
్రే	-556
ండా	-557
▁19	-558
▁ఇం	-559
▁వర్	-560
సే	-561
▁వద్ద	-562
శ్ర	-563
ారంభ	-564
▁N	-565
▁అందు	-566
గల	-567
డుతుంది	-568
▁ఉత్త	-569
▁9	-570
▁వంటి	-571
▁7	-572
▁c	-573
▁ఓ	-574
▁ఎలా	-575
▁10	-576
▁వ్యవ	-577
ెల్	-578
▁అం	-579
కాల	-580
ద్ర	-581
▁ఎవ	-582
▁కాదు	-583
▁అభి	-584
▁చేసిన	-585
▁తరు	-586
▁రెండు	-587
ప్పటి	-588
బట్టి	-589
▁ప్రారంభ	-590
▁విష	-591
్రో	-592
్రీ	-593
▁తీసు	-594
▁చైనా	-595
▁గొ	-596
▁తెలి	-597
▁నె	-598
▁ఉత్పత్తి	-599
▁శా	-600
ములు	-601
▁W	-602
ౌన్	-603
▁విని	-604
:1	-605
య్య	-606
వీ	-607
పై	-608
లతో	-609
నలు	-610
▁ఏమి	-611
ac	-612
▁పొంద	-613
ro	-614
▁బ్యా	-615
క్ట	-616
కులు	-617
▁సాధారణ	-618
▁బి	-619
he	-620
▁రే	-621
▁ఉచిత	-622
▁U	-623
డా	-624
కుంట	-625
▁తరువాత	-626
▁మంచి	-627
le	-628
▁మరింత	-629
డియో	-630
▁m	-631
ార్థ	-632
▁కంప	-633
జర్	-634
▁సంబంధ	-635
▁మాత్ర	-636
000	-637
▁దు	-638
▁పూర్తి	-639
బడిన	-640
▁నిర్వ	-641
▁ఎక్కువ	-642
ర్య	-643
కుండా	-644
▁s	-645
మున	-646
▁కొత్త	-647
▁మీకు	-648
బి	-649
▁X	-650
▁సేవ	-651
▁నాకు	-652
పర	-653
ంత్ర	-654
న్స్	-655
20	-656
▁మొత్త	-657
టకు	-658
▁పద	-659
▁డే	-660
సీ	-661
▁O	-662
వంత	-663
▁ఆధ	-664
▁సహాయ	-665
▁నిజ	-666
▁రె	-667
▁p	-668
న్ల	-669
▁గో	-670
▁అయితే	-671
డ్డ	-672
▁తా	-673
as	-674
▁కుమారు	-675
టానికి	-676
▁సంస్థ	-677
is	-678
లం	-679
్యు	-680
▁ముందు	-681
స్య	-682
పంచ	-683
కూ	-684
▁చిన్న	-685
దించ	-686
▁సమాచ	-687
హా	-688
▁–	-689
టం	-690
▁వ్యక్తి	-691
▁అవసరం	-692
▁వాటిని	-693
ద్ధి	-694
హు	-695
▁ప్రజ	-696
▁కాబట్టి	-697
▁తయారీ	-698
▁ప్రపంచ	-699
▁అనేక	-700
ల్స్	-701
రిగి	-702
▁గుర్	-703
▁ఉత్తమ	-704
re	-705
▁హా	-706
▁ప్	-707
యంలో	-708
▁నియ	-709
▁మాత్రమే	-710
▁ప్రే	-711
▁శి	-712
పోయ	-713
ించడం	-714
శా	-715
▁మొదటి	-716
▁కాల	-717
▁టా	-718
త్మ	-719
ములో	-720
ణా	-721
▁సరఫ	-722
▁ఫ్యా	-723
▁ఉంటే	-724
▁మధ్య	-725
ంటర్	-726
▁న్య	-727
ేక	-728
గే	-729
▁b	-730
▁వ్యాప	-731
.1	-732
డర్	-733
▁V	-734
కొని	-735
▁ఫి	-736
▁పెద్ద	-737
▁వివ	-738
▁సరఫరా	-739
ించారు	-740
రూ	-741
న్నారు	-742
▁వినియోగ	-743
▁ఆర్	-744
▁h	-745
▁వరకు	-746
ాప	-747
▁డౌన్	-748
ol	-749
్యత	-750
ండు	-751
▁నిర్వహ	-752
▁పేరు	-753
మర్	-754
పీ	-755
▁'	-756
బుల్	-757
బో	-758
▁పరిశ	-759
id	-760
న్నాను	-761
ou	-762
దీ	-763
ించండి	-764
విధ	-765
▁:	-766
▁చిత	-767
ర్మ	-768
▁సైట్	-769
▁తే	-770
▁తక్కువ	-771
▁ఇప్పుడు	-772
▁సంఖ్య	-773
▁12	-774
▁వ్యవస్థ	-775
▁ఇక్కడ	-776
▁కి	-777
▁రూప	-778
వ్వ	-779
తలు	-780
▁తెలుసు	-781
నాలు	-782
గ్గ	-783
▁పంప	-784
ాలలో	-785
వరి	-786
il	-787
లేదు	-788
గాలు	-789
▁అప్	-790
▁అమ్మ	-791
ింద	-792
▁తిరిగి	-793
▁సమయం	-794
ీకరించ	-795
▁మొత్తం	-796
▁లై	-797
ch	-798
▁చెల్ల	-799
▁విధ	-800
▁200	-801
▁రం	-802
▁దేవుని	-803
50	-804
▁లి	-805
సిక	-806
వృ	-807
▁ప్రత్యేక	-808
▁వెబ్	-809
ముగా	-810
▁గే	-811
▁కార్య	-812
▁చేయడానికి	-813
oo	-814
▁దీని	-815
ర్చు	-816
▁ప్రో	-817
బాటు	-818
▁అంద	-819
▁ముఖ్య	-820
ion	-821
రిక	-822
▁జీవిత	-823
త్తి	-824
▁ఇన్	-825
కాలు	-826
మని	-827
▁కంటే	-828
▁అప్పుడు	-829
పడ	-830
▁ప్రధాన	-831
▁అత్య	-832
▁యే	-833
▁పెట్	-834
ోధ	-835
ఫ్ట్	-836
ింప	-837
ప్పుడ	-838
.2	-839
▁తర్	-840
▁20	-841
▁తర	-842
తన	-843
▁ప్రయా	-844
▁అతడు	-845
▁చేయవచ్చు	-846
లువ	-847
▁అందించ	-848
▁సో	-849
▁తొ	-850
తమైన	-851
com	-852
▁వీడియో	-853
కాశ	-854
ad	-855
▁విద్య	-856
పరి	-857
▁జరి	-858
▁భూ	-859
▁రై	-860
▁సీ	-861
ట్లా	-862
▁మీద	-863
ెన	-864
వారి	-865
▁విశ	-866
ాన్ని	-867
▁శక్తి	-868
ముల	-869
ేషన్	-870
కెట్	-871
▁సృ	-872
▁చు	-873
ార్డ్	-874
.0	-875
ాలని	-876
▁బహు	-877
వలం	-878
▁కారణ	-879
మూ	-880
▁ప్రయాణ	-881
వారు	-882
లభ	-883
నుక	-884
▁అవు	-885
▁మాకు	-886
▁నాణ	-887
్రియ	-888
▁తర్వాత	-889
-1	-890
▁K	-891
▁సౌ	-892
.5	-893
▁చేయండి	-894
కింగ్	-895
న్లైన్	-896
▁చేస్తుంది	-897
▁మంది	-898
▁ఒకటి	-899
▁ఉంటాయి	-900
▁w	-901
లర్	-902
:2	-903
తాయి	-904
▁నీవు	-905
▁ఆన్లైన్	-906
ాలకు	-907
కరణ	-908
తున్న	-909
▁ఖా	-910
ెర్	-911
▁కేవలం	-912
ంతి	-913
▁బ్ర	-914
టల్	-915
▁ట్రా	-916
లోడ్	-917
బడుతుంది	-918
కోండి	-919
▁హై	-920
▁జి	-921
▁ప్యా	-922
త్తు	-923
▁పిల్ల	-924
ట్స్	-925
▁సమయంలో	-926
యాలు	-927
గత	-928
మీద	-929
ప్పటికీ	-930
టిక్	-931
▁వివిధ	-932
తే	-933
▁ధర	-934
వులు	-935
lo	-936
▁గొప్ప	-937
త్స	-938
యూ	-939
▁వెళ్	-940
లై	-941
▁నగ	-942
▁ప్లా	-943
ించింది	-944
మతి	-945
క్టరీ	-946
▁ట్	-947
▁రాజ	-948
▁గ్రా	-949
డైన	-950
క్త	-951
▁బయ	-952
యర్	-953
▁ప్రాంత	-954
▁J	-955
▁11	-956
▁మహి	-957
మం	-958
కంటే	-959
ొక	-960
స్తా	-961
▁భాగ	-962
షణ	-963
వృద్ధి	-964
▁18	-965
▁తమ	-966
▁సరి	-967
▁దృ	-968
చన	-969
▁కీ	-970
దన	-971
▁f	-972
స్తాయి	-973
un	-974
▁పట్ట	-975
మై	-976
▁దూ	-977
ోలు	-978
▁ఫ్యాక్టరీ	-979
బ్బ	-980
▁$	-981
▁సై	-982
టెడ్	-983
▁సామ	-984
▁.	-985
రాలు	-986
="1	-987
ష్టి	-988
▁కని	-989
దల	-990
▁సులభ	-991
తుల	-992
▁ఆలో	-993
▁ప్రభా	-994
▁డౌన్లోడ్	-995
▁వార్	-996
వేర్	-997
ent	-998
mm	-999
▁పర్	-1000
్రై	-1001
▁ప్రయో	-1002
తారు	-1003
▁a	-1004
▁రంగు	-1005
ధా	-1006
▁అనుభ	-1007
▁విస్త	-1008
▁మర	-1009
బొ	-1010
▁అమె	-1011
మాణం	-1012
▁కె	-1013
▁అభివృద్ధి	-1014
ర్లు	-1015
▁నాణ్యత	-1016
▁పచ్చ	-1017
తిక	-1018
▁ఆఫ్	-1019
ల్లి	-1020
▁క్యా	-1021
▁చేసు	-1022
నుండి	-1023
ీకరణ	-1024
▁సమస్య	-1025
▁కన	-1026
▁15	-1027
ame	-1028
కల్	-1029
▁వెళ్ళ	-1030
▁అలా	-1031
ెక్స్	-1032
ధానం	-1033
▁కల	-1034
ుల	-1035
of	-1036
▁క్రీ	-1037
▁చేయు	-1038
▁లు	-1039
జ్ఞ	-1040
న్నాడు	-1041
▁బ్లా	-1042
కూల	-1043
ష్క	-1044
ాయే	-1045
▁అద్	-1046
డింగ్	-1047
▁జన	-1048
గో	-1049
▁ఎందు	-1050
చ్చిత	-1051
ందించ	-1052
హం	-1053
ంబ	-1054
▁ప్రభు	-1055
ట్ల	-1056
తంగా	-1057
and	-1058
నల్	-1059
వంతమైన	-1060
▁నెల	-1061
ర్చ	-1062
▁ఆహ	-1063
▁పార్	-1064
నుగొ	-1065
▁ఏర్	-1066
▁కనుగొ	-1067
▁రాజు	-1068
▁అస	-1069
మ్స్	-1070
us	-1071
ించవచ్చు	-1072
▁ఉత్పత్తులు	-1073
స్సు	-1074
▁ఇవ్వ	-1075
▁కొనుగ	-1076
▁సంప్ర	-1077
▁ప్రొ	-1078
వలన	-1079
ri	-1080
▁ఎంప	-1081
▁ఫై	-1082
మార్	-1083
▁తెలియ	-1084
▁అద్భు	-1085
ోన్	-1086
▁ఎంచు	-1087
▁ప్లే	-1088
▁ఫోన్	-1089
▁చూడండి	-1090
సింది	-1091
ద్దు	-1092
▁ఉపయో	-1093
▁ఎంపిక	-1094
▁గ్ర	-1095
ra	-1096
నో	-1097
▁సొ	-1098
▁ఎందుకంటే	-1099
బైల్	-1100
▁కొనుగోలు	-1101
మిక	-1102
యత్	-1103
).	-1104
యిల్	-1105
▁వ్యాపార	-1106
▁అన	-1107
▁న్యూ	-1108
కున్న	-1109
▁రు	-1110
రీక్ష	-1111
▁ఖచ్చిత	-1112
▁విజ	-1113
▁సమీ	-1114
▁గుర్త	-1115
▁ఏద	-1116
-2	-1117
30	-1118
ములను	-1119
తిని	-1120
▁స్థాన	-1121
▁మహిళ	-1122
ot	-1123
▁మాట	-1124
ణి	-1125
వేశ	-1126
ొద్ద	-1127
▁అత్యంత	-1128
ేస్	-1129
▁థ	-1130
ెనీ	-1131
▁అర్	-1132
▁పచ్చబొ	-1133
వాడు	-1134
▁డె	-1135
▁ఇంటర్	-1136
▁(1	-1137
▁వారికి	-1138
▁శరీ	-1139
శ్రాయే	-1140
యే	-1141
▁in	-1142
▁ప్రదర్శ	-1143
▁+	-1144
▁టెక్	-1145
కపో	-1146
▁క్లి	-1147
క్షన్	-1148
దురు	-1149
▁సమాచారం	-1150
వాద	-1151
కై	-1152
▁పరీక్ష	-1153
▁ఉంచ	-1154
పెట్	-1155
▁ప్రకట	-1156
▁వల	-1157
త్వం	-1158
▁వార	-1159
▁కంపెనీ	-1160
▁పేజీ	-1161
▁స్థి	-1162
నాల	-1163
▁తప్ప	-1164
▁మద్ద	-1165
▁ఫ్	-1166
శాల	-1167
కంగా	-1168
▁డా	-1169
▁నియంత్ర	-1170
▁డేటా	-1171
em	-1172
ay	-1173
os	-1174
▁రీ	-1175
త్వ	-1176
▁ప్రయత్	-1177
▁ఛ	-1178
సె	-1179
▁డిజ	-1180
="2	-1181
▁మూడు	-1182
▁ఇశ్రాయే	-1183
▁బల	-1184
▁ప్రయోజ	-1185
▁అమ	-1186
▁మాట్లా	-1187
▁ప్రజలు	-1188
యల్	-1189
▁మొబైల్	-1190
ప్పుడూ	-1191
▁అదే	-1192
మెంట్	-1193
నికి	-1194
▁కంట	-1195
▁ప్రేమ	-1196
▁మాన	-1197
▁ఉండాలి	-1198
ED	-1199
▁అందుబాటు	-1200
ితం	-1201
▁అర్థ	-1202
డియా	-1203
ow	-1204
ించబడింది	-1205
▁పనిచే	-1206
ag	-1207
▁సృష్ట	-1208
▁చా	-1209
▁పరికర	-1210
తీయ	-1211
▁సాఫ్ట్	-1212
డే	-1213
టార్	-1214
ంక్	-1215
డో	-1216
▁మద్దతు	-1217
▁అందుబాటులో	-1218
ec	-1219
కుంటు	-1220
ెక్ట్	-1221
ఫి	-1222
ంపు	-1223
వంటి	-1224
పర్	-1225
▁లేకుండా	-1226
.9	-1227
టే	-1228
▁2018	-1229
tt	-1230
▁కొన	-1231
▁ఆధార	-1232
స్వా	-1233
▁నో	-1234
బడు	-1235
ళ్ళు	-1236
పడి	-1237
కరమైన	-1238
సికొ	-1239
ిణ	-1240
మునకు	-1241
▁“	-1242
చేసి	-1243
▁[	-1244
ెయి	-1245
▁స్టీ	-1246
▁తయారు	-1247
▁పూ	-1248
▁100	-1249
పూర్	-1250
▁జో	-1251
▁లక్షణ	-1252
▁కోర్	-1253
▁రైలు	-1254
.3	-1255
op	-1256
▁ప్రస్తు	-1257
స్థి	-1258
డీ	-1259
▁అల	-1260
▁తయారీదారులు	-1261
▁అంతర్	-1262
జే	-1263
▁విశ్వ	-1264
▁మై	-1265
▁యేసు	-1266
▁చిత్ర	-1267
▁టె	-1268
ృత	-1269
వాస	-1270
శారు	-1271
▁లె	-1272
▁లోప	-1273
▁యంత	-1274
డుగు	-1275
▁అతనికి	-1276
▁భార	-1277
▁హోమ్	-1278
▁పున	-1279
నము	-1280
▁దయ	-1281
▁సరైన	-1282
▁తండ	-1283
▁•	-1284
సినో	-1285
స్క	-1286
▁పరిష్క	-1287
▁సాం	-1288
▁ఉపయోగి	-1289
ల్డ్	-1290
▁సంవత్సరాల	-1291
▁ఇంకా	-1292
▁జూ	-1293
డల	-1294
▁బు	-1295
.8	-1296
▁అక్కడ	-1297
ీయ	-1298
▁*	-1299
▁భూమి	-1300
▁యూని	-1301
▁అయిన	-1302
గొ	-1303
▁చేసే	-1304
▁n	-1305
ష్టం	-1306
ess	-1307
దాయ	-1308
▁పరిశోధ	-1309
కుడు	-1310
▁రెండ	-1311
ష్య	-1312
▁30	-1313
▁చట్ట	-1314
స్తున్నారు	-1315
▁ప్రశ్	-1316
▁13	-1317
ళ్లు	-1318
ంగ	-1319
ాను	-1320
▁నిర్ణ	-1321
ab	-1322
▁ఫీ	-1323
▁మరణ	-1324
రుష	-1325
▁16	-1326
▁ఊ	-1327
పుణ	-1328
▁ఇచ్చ	-1329
▁లైన్	-1330
.6	-1331
కె	-1332
ింట్	-1333
▁ఎవరు	-1334
▁నన్ను	-1335
టన్	-1336
▁సామర్థ	-1337
▁స్థాయి	-1338
.4	-1339
రోగ	-1340
▁వారిని	-1341
▁అద్భుతమైన	-1342
▁ఉద్య	-1343
▁కలు	-1344
▁గంట	-1345
▁డిజైన్	-1346
దులు	-1347
▁తొల	-1348
▁అవకాశ	-1349
స్తే	-1350
▁విశ్	-1351
రంగా	-1352
▁14	-1353
▁టై	-1354
నస్	-1355
▁వృ	-1356
▁భావ	-1357
రువు	-1358
మంది	-1359
క్స	-1360
.7	-1361
,000	-1362
▁24	-1363
▁సెట్	-1364
వలెను	-1365
స్త్ర	-1366
▁కూ	-1367
▁LED	-1368
వై	-1369
▁l	-1370
:3	-1371
చర్	-1372
▁స్వా	-1373
▁హె	-1374
▁సిద్ధ	-1375
▁శు	-1376
▁సరఫరాదారులు	-1377
▁ఫలి	-1378
▁గి	-1379
▁క్రి	-1380
▁పెరుగు	-1381
),	-1382
నకు	-1383
షిన్	-1384
▁సందర్శ	-1385
▁అనుకూల	-1386
ల్లు	-1387
▁g	-1388
ందం	-1389
లైన	-1390
▁సహాయం	-1391
కూడ	-1392
న్నాము	-1393
రింగ్	-1394
▁మెషిన్	-1395
▁(2	-1396
బ్బు	-1397
▁నీటి	-1398
▁అర్థం	-1399
యె	-1400
వరణ	-1401
▁ఆన	-1402
▁2019	-1403
రులు	-1404
▁పురుష	-1405
nd	-1406
కేషన్	-1407
▁చెప్పారు	-1408
▁సాధారణంగా	-1409
ps	-1410
ంద్ర	-1411
ష్ణ	-1412
▁the	-1413
టువంటి	-1414
దం	-1415
▁విలువ	-1416
కునే	-1417
▁బే	-1418
ారాన్ని	-1419
▁సూచ	-1420
చ్ఛ	-1421
రిత	-1422
▁25	-1423
▁ఆట	-1424
షే	-1425
గింది	-1426
కొను	-1427
యుల	-1428
▁యో	-1429
▁నమూ	-1430
▁సిం	-1431
▁ఎల	-1432
తను	-1433
▁అతి	-1434
▁ఖాతా	-1435
పాటు	-1436
నె	-1437
im	-1438
రోధ	-1439
కిత్స	-1440
▁బాగా	-1441
▁ఆప	-1442
▁వ్యక్తిగత	-1443
నులు	-1444
ువు	-1445
▁డై	-1446
ెన్స్	-1447
▁మార్కెట్	-1448
▁పదార్థ	-1449
దవ	-1450
▁ఆఫ	-1451
▁జ్	-1452
▁ఆక	-1453
▁ఉన్నప్పుడు	-1454
▁కట్ట	-1455
▁పద్ధ	-1456
రగా	-1457
ుడు	-1458
చిన	-1459
▁నై	-1460
▁బోనస్	-1461
ల్ని	-1462
ve	-1463
స్టర్	-1464
▁వచ్చి	-1465
▁పోస్ట్	-1466
బిత	-1467
నెట్	-1468
ir	-1469
▁సాఫ్ట్వేర్	-1470
▁భాష	-1471
ig	-1472
▁కాని	-1473
డల్	-1474
▁మును	-1475
▁ఇంటి	-1476
▁పౌ	-1477
▁విం	-1478
▁స్టా	-1479
▁బీ	-1480
▁సెల	-1481
="3	-1482
క్రమ	-1483
▁దృష్టి	-1484
▁సైన్	-1485
కలు	-1486
▁డ్రై	-1487
▁విమా	-1488
▁సంవత్సరం	-1489
▁సంప్రదించ	-1490
సర్	-1491
▁అదన	-1492
హరణ	-1493
బడ్డ	-1494
▁భద్ర	-1495
గ్రా	-1496
రించడానికి	-1497
▁Y	-1498
ut	-1499
రించు	-1500
▁పరిస్థి	-1501
ంట్	-1502
▁కుటు	-1503
▁వినియోగదారు	-1504
టరీ	-1505
▁చెయ్య	-1506
▁స్టీల్	-1507
▁ఎంత	-1508
కేతిక	-1509
వలసిన	-1510
నట్లు	-1511
▁విధంగా	-1512
▁17	-1513
▁జ్ఞ	-1514
▁పచ్చబొట్టు	-1515
ల్లా	-1516
నింగ్	-1517
▁అధ్య	-1518
▁పర	-1519
if	-1520
ఫోన్	-1521
ించాడు	-1522
▁జాబిత	-1523
▁విడు	-1524
ండ్ర	-1525
▁సాంకేతిక	-1526
ఎస్	-1527
▁నివ	-1528
▁కస్ట	-1529
స్తూ	-1530
▁నాలు	-1531
▁పొందు	-1532
ందిన	-1533
▁ఉద్యో	-1534
బీ	-1535
ారము	-1536
▁ప్రకారం	-1537
▁కొరకు	-1538
um	-1539
▁అంగ	-1540
చున్న	-1541
▁ఖర్చు	-1542
pp	-1543
ers	-1544
10	-1545
కోవడానికి	-1546
స్ప	-1547
లియన్	-1548
▁దానిని	-1549
తిరే	-1550
▁చేయడం	-1551
▁మార్గం	-1552
▁2017	-1553
లుపు	-1554
వరకు	-1555
▁£	-1556
▁చివరి	-1557
▁పెట్టు	-1558
ార్లు	-1559
దని	-1560
▁నిబంధ	-1561
▁కుటుంబ	-1562
▁అవి	-1563
▁సభ	-1564
▁పట్టణ	-1565
ార్య	-1566
▁లక్ష	-1567
Name	-1568
▁చేతి	-1569
పరచ	-1570
మ్ము	-1571
▁ప్రొఫ	-1572
▁ప్రయత్ని	-1573
లూ	-1574
▁పాఠ	-1575
▁లిమి	-1576
హ్	-1577
▁వ్యతిరే	-1578
▁దేవుడు	-1579
▁చికిత్స	-1580
తూ	-1581
కోవడం	-1582
▁షా	-1583
▁నుంచి	-1584
పొ	-1585
ోర్	-1586
రక్ష	-1587
▁ఆరోగ	-1588
▁ఎందుకు	-1589
కమైన	-1590
▁తొలగ	-1591
యులు	-1592
శ్రమ	-1593
▁ఉదా	-1594
▁ఆటో	-1595
▁నమ్మ	-1596
▁లిమిటెడ్	-1597
▁వచ్చిన	-1598
షనల్	-1599
oc	-1600
ాల్	-1601
pt	-1602
▁htt	-1603
రీస్	-1604
వైన	-1605
▁ట్ర	-1606
▁లిం	-1607
▁కంప్యూ	-1608
▁భాగస్వా	-1609
▁డబ్బు	-1610
▁ఫోటో	-1611
▁అందిస్తుంది	-1612
▁మార్చ	-1613
పే	-1614
ంతు	-1615
▁నిమి	-1616
దుపరి	-1617
▁చెల్లింపు	-1618
▁వెంట	-1619
▁అనుమతి	-1620
▁రక్షణ	-1621
ెర	-1622
▁ఎలక్ట	-1623
▁బ్రా	-1624
▁భాగాలు	-1625
▁పీ	-1626
▁కళ	-1627
▁కొనసా	-1628
లోని	-1629
▁మార్పు	-1630
సారి	-1631
తులను	-1632
లెట్	-1633
▁యంత్రం	-1634
▁స్నే	-1635
▁దో	-1636
▁ఉపయోగించి	-1637
80	-1638
▁తండ్రి	-1639
▁పారి	-1640
▁వు	-1641
▁నిజంగా	-1642
▁21	-1643
▁తదుపరి	-1644
▁ఉండవచ్చు	-1645
కుల	-1646
▁రక్ష	-1647
▁అలాగే	-1648
▁యుద్ధ	-1649
▁సెక్స్	-1650
▁ఏమిటి	-1651
▁చేసి	-1652
▁వైద్య	-1653
▁తగ్గ	-1654
▁సంగ	-1655
▁y	-1656
▁జీవ	-1657
▁సము	-1658
▁బ్	-1659
▁చేశారు	-1660
▁సంత	-1661
్యాప్	-1662
ీన్	-1663
ైడ్	-1664
ెంబర్	-1665
▁మార్గ	-1666
eb	-1667
▁ముఖ్యమైన	-1668
▁US	-1669
:4	-1670
▁బై	-1671
వత	-1672
▁50	-1673
▁దయచేసి	-1674
▁వేగ	-1675
▁నియంత్రణ	-1676
▁అందమైన	-1677
▁తల్లి	-1678
త్రి	-1679
మ్మల్ని	-1680
వ్ర	-1681
▁సమీక్ష	-1682
▁ఉండే	-1683
▁of	-1684
▁ఒక్క	-1685
▁ట్యా	-1686
త్మక	-1687
▁త్వ	-1688
▁ఉదాహరణ	-1689
సింగ్	-1690
▁క్ల	-1691
▁జీవితం	-1692
▁నిర్ధా	-1693
పటి	-1694
ాయం	-1695
▁ప్లాస్	-1696
▁అక్	-1697
దేశం	-1698
▁భారత	-1699
▁ప్రక్రియ	-1700
నిక	-1701
▁కోరు	-1702
శి	-1703
▁XX	-1704
జన్	-1705
▁విషయాలు	-1706
ర్ఘ	-1707
ందరు	-1708
▁లార్డ్	-1709
▁ఫా	-1710
▁అంశ	-1711
▁వస్తు	-1712
ీల	-1713
▁హి	-1714
యము	-1715
▁తీసుకు	-1716
▁అనేది	-1717
జింగ్	-1718
▁కోర్సు	-1719
▁యూరో	-1720
▁కంప్యూటర్	-1721
▁ఉన్నారు	-1722
కోవచ్చు	-1723
60	-1724
▁పట్టు	-1725
▁నూ	-1726
▁పూర్తిగా	-1727
▁నెట్	-1728
▁రూపొ	-1729
▁అప	-1730
▁అందువలన	-1731
్రాయ	-1732
▁క్రింద	-1733
▁Z	-1734
▁కాల్	-1735
▁ఆత్మ	-1736
▁నిర్వహణ	-1737
od	-1738
▁తీవ్ర	-1739
మెయిల్	-1740
▁విన	-1741
ఖీ	-1742
▁విభా	-1743
ex	-1744
భి	-1745
▁ఎల్ల	-1746
▁ప్రాజ	-1747
పాజి	-1748
▁వ్యక్	-1749
▁తేదీ	-1750
▁సంతో	-1751
్రిక్	-1752
▁ఏదైనా	-1753
▁సమాధానం	-1754
▁సంప్రదించండి	-1755
దిక	-1756
▁రిక	-1757
▁ఆస	-1758
▁బె	-1759
▁బరువు	-1760
లింగ్	-1761
▁కోడ్	-1762
▁గర్	-1763
▁అడుగు	-1764
ణం	-1765
▁బ్లాక్	-1766
▁మోటార్	-1767
▁విడుదల	-1768
గింపు	-1769
th	-1770
▁టి	-1771
ub	-1772
▁డిపాజి	-1773
పం	-1774
▁తని	-1775
పె	-1776
పోయిన	-1777
▁పాల	-1778
ang	-1779
:/	-1780
▁చెప్పు	-1781
▁పోర్	-1782
▁జాబితా	-1783
://	-1784
స్తో	-1785
▁to	-1786
▁తల	-1787
▁క్రింది	-1788
ముఖ	-1789
గులు	-1790
▁వార్తలు	-1791
దరు	-1792
▁and	-1793
▁తనిఖీ	-1794
లిన	-1795
▁#	-1796
హీ	-1797
▁గనుక	-1798
▁వైర్	-1799
▁మునుపటి	-1800
▁వాడు	-1801
ష్టమైన	-1802
దిగా	-1803
▁చదవ	-1804
డవు	-1805
మందు	-1806
▁స్క్ర	-1807
▁కథ	-1808
▁ఆపరే	-1809
▁పత్ర	-1810
▁దశ	-1811
▁మారి	-1812
ug	-1813
▁నమో	-1814
రము	-1815
ందని	-1816
టికి	-1817
ాయిడ్	-1818
▁ప్రవేశ	-1819
వాలు	-1820
▁మరొక	-1821
▁ఉపయోగించ	-1822
▁వచ్చింది	-1823
దో	-1824
వాహ	-1825
ంటారు	-1826
▁విషయ	-1827
ర్కొ	-1828
▁చూప	-1829
▁దిన	-1830
ia	-1831
▁రకం	-1832
12	-1833
▁జరుగు	-1834
▁నిర్మ	-1835
▁అమలు	-1836
▁ఖచ్చితంగా	-1837
▁సందర్	-1838
▁కలిసి	-1839
ఖా	-1840
▁టో	-1841
▁ఔ	-1842
▁పొడి	-1843
▁వాస్త	-1844
▁ఘ	-1845
ొద్దకు	-1846
▁నాలుగు	-1847
నాలజీ	-1848
రమైన	-1849
▁ఇంజ	-1850
ళిక	-1851
▁మెరుగు	-1852
▁1.	-1853
▁పాత	-1854
వేయ	-1855
▁పర్య	-1856
▁ఉష్ణ	-1857
▁ఏర్పాటు	-1858
▁నియమ	-1859
▁వైపు	-1860
ate	-1861
ండర్	-1862
▁న్యాయ	-1863
▁ఆరోగ్య	-1864
▁పరిమాణం	-1865
▁నీకు	-1866
ly	-1867
▁ప్రపంచంలో	-1868
▁పన్ను	-1869
▁అనువర్	-1870
▁చిత్రం	-1871
▁రూపొందించ	-1872
▁ఇశ్రాయేలీ	-1873
▁గాని	-1874
▁పుస్త	-1875
ర్చి	-1876
ెడి	-1877
రికా	-1878
నను	-1879
▁పాటు	-1880
▁సమూ	-1881
▁=	-1882
▁లోకి	-1883
▁రాష్ట	-1884
▁సిరీస్	-1885
లిక	-1886
రిత్ర	-1887
బడ్డాయి	-1888
రవ	-1889
▁కావ	-1890
▁టెక్నాలజీ	-1891
▁గత	-1892
▁ప్రవ	-1893
ారో	-1894
ెలు	-1895
▁పడ	-1896
▁టాప్	-1897
▁ఒప్ప	-1898
ఫిక	-1899
బ్ర	-1900
టిని	-1901
▁సంబంధించిన	-1902
▁పాల్	-1903
నై	-1904
ation	-1905
ak	-1906
శ్చ	-1907
▁చేయబడింది	-1908
40	-1909
▁కాంతి	-1910
ూర్చి	-1911
ిణీ	-1912
▁క్రమ	-1913
పిస్తుంది	-1914
▁బ్యాం	-1915
▁క్లిక్	-1916
▁Q	-1917
▁రకాల	-1918
ానం	-1919
▁సామర్థ్యం	-1920
▁విడి	-1921
వ్య	-1922
రియా	-1923
▁నిర్ణయ	-1924
▁భార్య	-1925
్రిప్	-1926
▁కారు	-1927
▁సిని	-1928
▁వ్యాఖ్య	-1929
విద్య	-1930
▁శరీర	-1931
▁ప్ల	-1932
బడతాయి	-1933
▁జె	-1934
▁స్టి	-1935
ov	-1936
▁తగిన	-1937
సికొని	-1938
వాదాలు	-1939
సెస్	-1940
▁క్లా	-1941
ారులు	-1942
▁కొంత	-1943
▁లక్షణాలు	-1944
▁రెండవ	-1945
▁కుడి	-1946
▁ఇప్పటి	-1947
▁సురక్ష	-1948
▁సిస్ట	-1949
లికేషన్	-1950
టర్లు	-1951
▁అంటే	-1952
▁చర్య	-1953
▁చుట్ట	-1954
▁ఆసక్తి	-1955
▁ఎల్లప్పుడూ	-1956
మరి	-1957
రికి	-1958
▁వెబ్స	-1959
ందా	-1960
▁శీ	-1961
లక	-1962
▁అవకాశం	-1963
▁డిపాజిట్	-1964
ఱ్	-1965
ind	-1966
▁నడు	-1967
ob	-1968
▁సంతోష	-1969
స్తాము	-1970
▁ఇంటర్నెట్	-1971
చేత	-1972
ధిక	-1973
▁గేమ్స్	-1974
▁లేజర్	-1975
ల్డింగ్	-1976
ేట్	-1977
గ్రత	-1978
▁కూర్	-1979
▁సౌకర్	-1980
▁వినియోగదారులు	-1981
▁అమ్మాయి	-1982
="4	-1983
ck	-1984
ఱ్ఱ	-1985
వ్వు	-1986
▁ప్రి	-1987
▁స్లా	-1988
ine	-1989
పన	-1990
ోల్	-1991
భవ	-1992
▁ఆలోచ	-1993
▁ప్రమా	-1994
▁మను	-1995
▁సంఘ	-1996
▁నాయ	-1997
▁22	-1998
▁ప్యాకే	-1999
▁ఆలోచన	-2000
▁శిక్షణ	-2001
▁వయ	-2002
ెన్సీ	-2003
ెస్ట్	-2004
▁ఆహార	-2005
పడుతుంది	-2006
▁టీ	-2007
▁స్నేహి	-2008
▁కింద	-2009
▁పరిచ	-2010
▁ప్లాస్టిక్	-2011
▁అప్లికేషన్	-2012
▁చిరు	-2013
మ్యూ	-2014
ంటు	-2015
▁ఎక్కడ	-2016
వంతంగా	-2017
న్లు	-2018
▁పిల్లలు	-2019
రిగా	-2020
▁అభ్య	-2021
▁పరిశ్రమ	-2022
▁విద్యార్థ	-2023
▁గమని	-2024
▁సమాచారాన్ని	-2025
ప్తి	-2026
▁రౌ	-2027
▁2016	-2028
▁కారణంగా	-2029
▁ఆర్థ	-2030
PS	-2031
▁విషయం	-2032
ంశ	-2033
▁కస్టమర్	-2034
▁ప్రయాణం	-2035
▁అవసరమైన	-2036
▁క్రెడి	-2037
ంత్రి	-2038
▁పంపిణీ	-2039
షా	-2040
కార	-2041
ృతి	-2042
ap	-2043
జాతీయ	-2044
లాగు	-2045
వాణా	-2046
▁మని	-2047
▁అడ్	-2048
▁అమెరికా	-2049
ప్ట	-2050
▁ధన్య	-2051
▁ఎవర	-2052
▁చేసింది	-2053
▁సులభంగా	-2054
ాలతో	-2055
▁నమోదు	-2056
▁దొ	-2057
▁కార్డు	-2058
▁పరికరాలు	-2059
స్తున్నాము	-2060
దృ	-2061
:5	-2062
▁నిన్ను	-2063
▁ఫలిత	-2064
కరించ	-2065
నీయ	-2066
▁క్యాసినో	-2067
▁జు	-2068
ైనను	-2069
▁అనుస	-2070
▁రవాణా	-2071
వల్	-2072
▁బొ	-2073
యెడల	-2074
te	-2075
▁టే	-2076
▁అందుకు	-2077
దువు	-2078
రుపు	-2079
మిని	-2080
▁చక్ర	-2081
▁విద్యు	-2082
▁ప్రస్తుత	-2083
ించెను	-2084
▁యంత్ర	-2085
▁ప్రదర్శన	-2086
▁ఎదు	-2087
▁లేని	-2088
▁బాధ్య	-2089
▁నిలి	-2090
ెనని	-2091
▁కుమారుడు	-2092
డని	-2093
▁స్త్ర	-2094
విద్యాల	-2095
ంటీ	-2096
ew	-2097
▁పెట్ట	-2098
▁బాక్స్	-2099
▁అడ	-2100
ik	-2101
▁ముఖ	-2102
▁కాపీ	-2103
▁వివరాలు	-2104
▁విశ్వవిద్యాల	-2105
ధు	-2106
▁v	-2107
▁నిర్మాణం	-2108
▁క్రీస్తు	-2109
▁ధన్యవాదాలు	-2110
▁మెటల్	-2111
▁HD	-2112
ద్వ	-2113
AS	-2114
పడు	-2115
▁ప్రొఫె	-2116
▁ఇమెయిల్	-2117
ౌస్	-2118
ment	-2119
▁Ch	-2120
▁ఆర్థిక	-2121
▁మనం	-2122
▁దగ్గ	-2123
ong	-2124
▁లైట్	-2125
▁నిపుణ	-2126
ack	-2127
నని	-2128
▁పొందండి	-2129
▁తు	-2130
▁వాని	-2131
▁పగ	-2132
▁ఉపయోగిస్తారు	-2133
▁హ్యా	-2134
చ్చి	-2135
▁సొంత	-2136
▁విధాన	-2137
టివ్	-2138
▁ఒకే	-2139
▁అంతర్జాతీయ	-2140
▁ప్రత్యక్ష	-2141
▁చేయాలి	-2142
లేని	-2143
AR	-2144
▁వెనుక	-2145
▁పాయ	-2146
15	-2147
▁అంచ	-2148
▁మోతా	-2149
ry	-2150
▁భాగం	-2151
▁హక్కు	-2152
▁యువ	-2153
▁చుట్టూ	-2154
డంలో	-2155
▁వెర్	-2156
స్తోంది	-2157
▁కలిగిన	-2158
▁బూ	-2159
▁ఉష్ణో	-2160
▁మూడ	-2161
▁దారి	-2162
."	-2163
శ్వ	-2164
▁క్రెడిట్	-2165
▁మందు	-2166
నగా	-2167
పరచు	-2168
▁అదనపు	-2169
▁అభిప్ర	-2170
▁సందర్భ	-2171
ul	-2172
▁ఎక్స్	-2173
ts	-2174
▁పొందడానికి	-2175
▁యి	-2176
▁పైన	-2177
IN	-2178
▁జోడ	-2179
▁అల్	-2180
▁చిరునా	-2181
వాడ	-2182
▁నమూనా	-2183
▁షి	-2184
▁లను	-2185
ండెను	-2186
▁మోతాదు	-2187
▁గల	-2188
▁లీ	-2189
త్యా	-2190
▁హార్	-2191
one	-2192
స్క్	-2193
▁199	-2194
ంచ్	-2195
వుల	-2196
▁విధానం	-2197
▁తెలుగు	-2198
oin	-2199
▁2.	-2200
▁40	-2201
▁శోధ	-2202
రుగ	-2203
▁విజయ	-2204
న్నీ	-2205
▁ఆకర్	-2206
▁23	-2207
▁సహా	-2208
▁ప్రై	-2209
▁సముద్ర	-2210
ON	-2211
▁మనిషి	-2212
లిక్	-2213
▁బోర్	-2214
నెను	-2215
గతం	-2216
ధారణ	-2217
చుగా	-2218
▁కాలే	-2219
▁వేడి	-2220
కూడదు	-2221
మైనది	-2222
▁దీర్ఘ	-2223
వారం	-2224
▁అధి	-2225
ాయా	-2226
లాండ్	-2227
విత్ర	-2228
ధం	-2229
యింట్	-2230
▁చేరు	-2231
AN	-2232
▁నొ	-2233
దాపు	-2234
▁ప్రముఖ	-2235
ంజ	-2236
▁నెట్వర్	-2237
▁రహ	-2238
▁2013	-2239
▁వ్యాసం	-2240
నుల	-2241
▁వర్త	-2242
▁పాప	-2243
▁బోధ	-2244
ణాళిక	-2245
ట్టిన	-2246
లోకి	-2247
▁ప్రయత్నించ	-2248
▁»	-2249
కపోతే	-2250
▁దిగు	-2251
▁నివా	-2252
▁మ్యా	-2253
▁ఎయి	-2254
▁ప్రోగ్రా	-2255
్రె	-2256
▁బంగా	-2257
ాయ్	-2258
నున్న	-2259
▁పైగా	-2260
▁ఫార్	-2261
మవు	-2262
▁k	-2263
▁మూల	-2264
▁కర్	-2265
▁వెబ్సైట్	-2266
లె	-2267
▁r	-2268
గర్	-2269
▁ఫైబర్	-2270
▁తరచుగా	-2271
▁సర్టి	-2272
▁పాత్ర	-2273
కోవాలి	-2274
▁తాజా	-2275
గ్ని	-2276
▁డాల	-2277
▁లోడ్	-2278
▁యాజ	-2279
▁గేమ్	-2280
పూర్ణ	-2281
ct	-2282
ేందుకు	-2283
ానిక	-2284
గలరు	-2285
▁రక్త	-2286
▁చరిత్ర	-2287
▁నిరోధ	-2288
▁ప్రణాళిక	-2289
▁సురక్షిత	-2290
▁ఆల్	-2291
ter	-2292
ంప్	-2293
▁And	-2294
▁ఇలా	-2295
11	-2296
రల్	-2297
▁లైటింగ్	-2298
్యాల	-2299
కుంటే	-2300
▁వివరణ	-2301
దను	-2302
▁దాదాపు	-2303
▁టూ	-2304
ందో	-2305
▁కనుగొన	-2306
ల్వ	-2307
▁గుర్తు	-2308
▁ఉష్ణోగ్రత	-2309
▁ఓర్	-2310
▁పార్టీ	-2311
86	-2312
▁వ్యతిరేకంగా	-2313
తల	-2314
టూ	-2315
జన	-2316
▁కృ	-2317
యాన్ని	-2318
సులు	-2319
▁మొదలైన	-2320
▁మాట్లాడ	-2321
▁శుభ	-2322
▁స్త్రీ	-2323
▁అనుభవం	-2324
ాము	-2325
▁స్థాప	-2326
▁నిర	-2327
▁జంతు	-2328
స్తాడు	-2329
ించబడుతుంది	-2330
వె	-2331
▁సహజ	-2332
▁మిగి	-2333
▁కుమారులు	-2334
▁సంపా	-2335
నూ	-2336
▁నేడు	-2337
ష్టంగా	-2338
▁విచ	-2339
▁th	-2340
▁బ్యాటరీ	-2341
▁మోడల్	-2342
▁ఆక్	-2343
టన	-2344
▁విద్యుత్	-2345
▁వాల్	-2346
స్తున్నాను	-2347
వార	-2348
▁రాత్రి	-2349
35	-2350
ృహ	-2351
▁జరిగిన	-2352
ST	-2353
▁మారు	-2354
గ్గు	-2355
▁క్ష	-2356
నేను	-2357
▁PC	-2358
▁బయటకు	-2359
▁ఇప్పటికీ	-2360
సాయ	-2361
▁వాస్తవ	-2362
▁బాధ	-2363
▁పెంచ	-2364
▁వెళ్లి	-2365
▁మరిన్ని	-2366
▁రచ	-2367
మొ	-2368
▁అన్	-2369
యిన	-2370
▁నవ	-2371
మ్యూని	-2372
వీదు	-2373
▁కనీ	-2374
▁60	-2375
▁భయ	-2376
▁https	-2377
▁కట్టింగ్	-2378
▁ట్రే	-2379
▁నిమిష	-2380
▁ఎంచుకోండి	-2381
▁ఇష్ట	-2382
▁పరిశోధన	-2383
▁సంవత్సరాలు	-2384
all	-2385
36	-2386
▁గణ	-2387
▁జరిగింది	-2388
ష్యు	-2389
▁నివే	-2390
చేయ	-2391
▁రాష్ట్ర	-2392
▁కనిప	-2393
ఫీ	-2394
▁నిర్మాణ	-2395
▁కన్	-2396
గణ	-2397
సియా	-2398
▁సల	-2399
ఆర్	-2400
▁శ్ర	-2401
▁క్రితం	-2402
▁మిలియన్	-2403
▁ప్రస్తుతం	-2404
99	-2405
25	-2406
ట్రో	-2407
సారు	-2408
▁In	-2409
▁ఆన్	-2410
▁పెట్టుబడి	-2411
యున్న	-2412
▁బార్	-2413
▁ఎక్కువగా	-2414
-0	-2415
ళ్ల	-2416
దయ	-2417
రె	-2418
▁వలన	-2419
▁సంబంధం	-2420
▁ఎప్పుడూ	-2421
ీట్	-2422
దాని	-2423
▁పాఠశాల	-2424
▁కోల్	-2425
▁దావీదు	-2426
ేష	-2427
▁ఎగు	-2428
▁వాడ	-2429
క్టర్	-2430
▁పోటీ	-2431
రుగా	-2432
▁ముఖ్యంగా	-2433
▁లాభ	-2434
▁అనుమతిస్తుంది	-2435
వేరి	-2436
ev	-2437
est	-2438
వరీ	-2439
▁ఇవి	-2440
▁సులభం	-2441
iv	-2442
మ్మును	-2443
▁ప్రకటన	-2444
రాల	-2445
ర్ప	-2446
జ్య	-2447
రుల	-2448
▁దూరంగా	-2449
▁సామా	-2450
ారని	-2451
ించబడిన	-2452
కుంటున్న	-2453
పిడి	-2454
16	-2455
▁ఎయిర్	-2456
▁ఔష	-2457
గ్రహ	-2458
▁కవర్	-2459
▁పవర్	-2460
▁ఆశ	-2461
enc	-2462
▁పర్యా	-2463
పోయింది	-2464
▁వెంటనే	-2465
ఫార్	-2466
▁26	-2467
▁ఆధు	-2468
▁కళా	-2469
▁ఐఫోన్	-2470
ist	-2471
ించాలి	-2472
ide	-2473
▁రోజుల	-2474
▁స్వయ	-2475
▁వది	-2476
తోంది	-2477
our	-2478
▁ఆల	-2479
హన	-2480
▁St	-2481
▁Sh	-2482
ెక్షన్	-2483
▁చిరునామా	-2484
ందరి	-2485
▁భర్	-2486
ాలిక్	-2487
▁క్రా	-2488
▁ప్రస	-2489
▁లెక్క	-2490
▁సెలవి	-2491
▁ప్రశ్న	-2492
▁కాలం	-2493
▁ప్రదేశ	-2494
▁తెలియజే	-2495
ెండ్	-2496
వాన్ని	-2497
▁3.	-2498
ంతర	-2499
ans	-2500
▁సమర్థ	-2501
్యాన్ని	-2502
▁గాలి	-2503
గ్రత్త	-2504
షు	-2505
టిలో	-2506
▁నిజమైన	-2507
ౌంట్	-2508
▁ఆధారంగా	-2509
▁సేవ్	-2510
సో	-2511
గంలో	-2512
క్కి	-2513
మత	-2514
▁2015	-2515
▁అద్ద	-2516
▁ఆగ	-2517
▁కారణం	-2518
▁©	-2519
▁పరిశు	-2520
▁భద్రత	-2521
▁ఆజ్ఞ	-2522
▁జిల్లా	-2523
▁లోపల	-2524
▁పునరు	-2525
▁ప్రజా	-2526
▁దీనిని	-2527
ort	-2528
వ్యాప్	-2529
ain	-2530
చేయు	-2531
▁ఆధునిక	-2532
ాల్లో	-2533
▁కమ్యూని	-2534
డిన	-2535
▁వెర్షన్	-2536
▁జాగ్రత్త	-2537
జం	-2538
డును	-2539
▁ఏదో	-2540
▁భావి	-2541
▁ప్రమాణ	-2542
▁స్వంత	-2543
కుంటారు	-2544
▁28	-2545
తిలో	-2546
తె	-2547
▁చర్చ	-2548
రక	-2549
▁కేంద్ర	-2550
▁మిన	-2551
▁అధికా	-2552
▁వేర్	-2553
▁సుమారు	-2554
roid	-2555
▁రికార్	-2556
▁కంట్రో	-2557
▁సంగీ	-2558
షిక	-2559
▁దక్ష	-2560
▁ప్రీ	-2561
▁సర్టిఫిక	-2562
రూష	-2563
▁తప్పు	-2564
▁ఇస్తుంది	-2565
▁విండో	-2566
34	-2567
వారీ	-2568
▁అభిప్రాయ	-2569
▁దేవ	-2570
▁అగ్ని	-2571
▁చదవండి	-2572
▁కర	-2573
్రు	-2574
▁అక్ష	-2575
▁మొదలు	-2576
▁దుస్తు	-2577
తావరణ	-2578
▁పురుషులు	-2579
▁లోన్	-2580
▁ఇప్పటికే	-2581
▁సిస్టమ్	-2582
▁కార్డ్	-2583
▁వస	-2584
పతి	-2585
పెట్ట	-2586
▁27	-2587
▁సూచి	-2588
రపు	-2589
శ్రా	-2590
▁మూడవ	-2591
▁పరిక	-2592
▁ప్రైవే	-2593
▁యెరూష	-2594
▁హృ	-2595
తనం	-2596
▁చూచి	-2597
▁నేర్చు	-2598
▁ఉపయోగించడానికి	-2599
డ్యూ	-2600
▁పొడవు	-2601
▁అవుట్	-2602
▁నిల్వ	-2603
▁మళ్ళ	-2604
▁వాతావరణ	-2605
▁చిట్	-2606
▁భారీ	-2607
▁సమీప	-2608
▁పాల్గొ	-2609
▁ఎవరైనా	-2610
="5	-2611
▁గ్	-2612
ంలోని	-2613
▁కాసినో	-2614
వడం	-2615
ల్ప	-2616
▁2014	-2617
ద్దే	-2618
ండె	-2619
▁ఇన్స్ట	-2620
ర్స్	-2621
▁చేయబడిన	-2622
▁కొద్	-2623
▁డ్రా	-2624
లము	-2625
▁సహో	-2626
▁పంపు	-2627
▁ప్రచు	-2628
22	-2629
▁చేస్తారు	-2630
▁ఇశ్రాయేలు	-2631
ep	-2632
▁బయలు	-2633
ద్యా	-2634
ష్ఠ	-2635
ైలి	-2636
ht	-2637
కల్పన	-2638
19	-2639
▁అవును	-2640
▁తిన	-2641
▁ద్ర	-2642
యితే	-2643
కల	-2644
▁గ్రామ	-2645
37	-2646
▁రోజులు	-2647
▁దేశం	-2648
▁అందించే	-2649
▁నగరం	-2650
ర్యా	-2651
▁పాట	-2652
▁బహుశా	-2653
▁బ్రాండ్	-2654
స్టు	-2655
▁వచ్చు	-2656
ండగా	-2657
▁వెలు	-2658
▁సెప్ట	-2659
▁విదేశ	-2660
▁విభ	-2661
▁ఉపకరణ	-2662
OS	-2663
రగ	-2664
▁మరో	-2665
▁చెప్పిన	-2666
▁చార్	-2667
▁తాను	-2668
ండింగ్	-2669
▁డిజి	-2670
ome	-2671
▁ప్రజల	-2672
ast	-2673
▁కుమార్	-2674
▁ఆమో	-2675
▁వేయ	-2676
▁డీ	-2677
▁నెట్వర్క్	-2678
▁వాయి	-2679
▁ఇండ	-2680
▁పరిగణ	-2681
హ్య	-2682
▁నివస	-2683
▁భాగస్వామ	-2684
న్యు	-2685
▁అవుతుంది	-2686
▁స్వి	-2687
▁మహిళలు	-2688
వ్యూ	-2689
▁పరిధి	-2690
▁వయస్సు	-2691
▁కార్యక్రమ	-2692
▁29	-2693
▁సేవలు	-2694
▁స్థానంలో	-2695
▁వ్యాఖ్యలు	-2696
▁పాస్	-2697
▁బలమైన	-2698
కుని	-2699
▁నెలల	-2700
▁Android	-2701
▁భవ	-2702
▁యూదా	-2703
▁నైపుణ	-2704
పోర్	-2705
వేరియం	-2706
స్టో	-2707
మార్ట్	-2708
▁లింక్	-2709
డికి	-2710
థమిక	-2711
▁గ్రే	-2712
▁కేబుల్	-2713
▁ట్యాంక్	-2714
ూరు	-2715
▁మానవ	-2716
▁ఆవి	-2717
24	-2718
జిక	-2719
్రిల్	-2720
▁యజ	-2721
▁క్రొ	-2722
ian	-2723
▁ఉపయోగం	-2724
▁హీ	-2725
▁గది	-2726
▁బాధ్యత	-2727
qu	-2728
▁ప్రామాణ	-2729
▁న్యూస్	-2730
▁ప్రార్థ	-2731
▁తయారీదారు	-2732
ER	-2733
నాలను	-2734
ించుచు	-2735
క్రో	-2736
▁స్కూ	-2737
▁రోడ్	-2738
67	-2739
ies	-2740
▁ఉదాహరణకు	-2741
▁అభ్యర్థ	-2742
▁సంబంధిత	-2743
38	-2744
▁సినిమా	-2745
▁ప్రాథమిక	-2746
▁కనెక్ట్	-2747
▁మారింది	-2748
▁చెప్పెను	-2749
▁అబ	-2750
▁ఫ్లో	-2751
▁శరీరం	-2752
▁మోషే	-2753
▁దక్షిణ	-2754
ఫా	-2755
▁దుష్	-2756
up	-2757
▁మంద	-2758
▁సర్వర్	-2759
▁సెక్	-2760
సార్లు	-2761
▁రేటు	-2762
▁అనుభవ	-2763
సన	-2764
ంపై	-2765
టేజ్	-2766
ail	-2767
జిక్	-2768
▁పక్ష	-2769
▁బహుళ	-2770
▁శ్రీ	-2771
విష్య	-2772
▁మళ్ళీ	-2773
▁సందేశ	-2774
▁సర్వీ	-2775
ద్వారా	-2776
▁అతనిని	-2777
▁యెరూషలే	-2778
.00	-2779
▁భాగా	-2780
▁పరిశుద్ధ	-2781
▁రూపకల్పన	-2782
▁€	-2783
▁పలు	-2784
▁కండ	-2785
్యూమిని	-2786
▁వారితో	-2787
సన్	-2788
▁సలహా	-2789
లును	-2790
▁ఎన్	-2791
ive	-2792
▁సంభా	-2793
▁తెలుపు	-2794
▁వ్యాపారం	-2795
uz	-2796
ణాలు	-2797
▁వేగం	-2798
▁స్థిర	-2799
▁గరి	-2800
కుంది	-2801
నప్పుడు	-2802
▁ఎస్	-2803
▁కెమె	-2804
స్మ	-2805
▁చేర	-2806
▁ప్రొఫెషనల్	-2807
▁హార్డ్	-2808
act	-2809
▁బహి	-2810
av	-2811
▁హే	-2812
ప్పి	-2813
యొక్క	-2814
▁జూన్	-2815
▁పేర్కొ	-2816
3)	-2817
▁భవిష్య	-2818
▁వెళ్ల	-2819
▁పిల్లల	-2820
ద్దేశ	-2821
▁చేసినప్పుడు	-2822
▁జర్మ	-2823
▁మార్పిడి	-2824
రియల్	-2825
▁వికీ	-2826
gle	-2827
▁ఆడ	-2828
▁ముగింపు	-2829
▁ఐదు	-2830
ట్లయితే	-2831
▁స్టార్	-2832
▁అంచనా	-2833
▁నిబంధన	-2834
▁స్క్రీన్	-2835
▁జనవరి	-2836
▁విశ్లే	-2837
▁పడుతుంది	-2838
are	-2839
ill	-2840
▁గౌ	-2841
డిగా	-2842
▁అనగా	-2843
డలు	-2844
మీరు	-2845
▁ఒత్తి	-2846
పుట్	-2847
చ్చిన	-2848
▁ట్యూ	-2849
▁అట్లా	-2850
▁స్మార్ట్	-2851
▁i	-2852
గును	-2853
▁అల్యూమిని	-2854
వలె	-2855
ంచాల	-2856
▁గోప	-2857
కానికి	-2858
యందు	-2859
▁డిజిటల్	-2860
▁ప్రామాణిక	-2861
▁కావలసిన	-2862
స్టె	-2863
og	-2864
▁చర్చి	-2865
▁కుమారుడైన	-2866
▁గ్రీ	-2867
▁ఆర్డర్	-2868
▁500	-2869
▁వెళ్ళి	-2870
▁మాట్లాడు	-2871
▁ఎత్తు	-2872
▁సమస్యలు	-2873
▁స్థానిక	-2874
ంటె	-2875
▁re	-2876
వ్యాప్తంగా	-2877
డిని	-2878
▁నడి	-2879
▁విక్ర	-2880
▁ఫ్లా	-2881
స్ట్రే	-2882
▁కట్టు	-2883
▁ప్రభావం	-2884
▁ఆస్	-2885
ండును	-2886
▁సభ్య	-2887
▁నిర్ది	-2888
దికి	-2889
▁వంట	-2890
201	-2891
ఫెక్	-2892
▁ఛార్	-2893
ీస్	-2894
▁వన	-2895
నంగా	-2896
▁నవం	-2897
స్టింగ్	-2898
▁మొదలైనవి	-2899
▁కంటెంట్	-2900
▁చల్ల	-2901
▁వాక్	-2902
బ్బంది	-2903
ళీ	-2904
▁ప్రాజెక్ట్	-2905
17	-2906
▁పోరా	-2907
-201	-2908
ell	-2909
ugu	-2910
▁పగడ	-2911
oogle	-2912
జె	-2913
▁పదార్థం	-2914
omment	-2915
బ్ద	-2916
▁స్పీక	-2917
కము	-2918
లిం	-2919
▁మొక్క	-2920
ధులు	-2921
▁పడి	-2922
▁శాఖ	-2923
సెను	-2924
▁గృహ	-2925
▁చదువు	-2926
▁అల్యూమినియం	-2927
▁ముద్ర	-2928
▁వేదిక	-2929
14	-2930
39	-2931
ard	-2932
▁చిత్రాలు	-2933
▁తీసికొని	-2934
▁ప్రశ్నలు	-2935
▁అండ్	-2936
▁మమ్మల్ని	-2937
నర్	-2938
▁పర్యవే	-2939
▁స్వయంచాల	-2940
▁వోల్	-2941
▁@	-2942
పాల	-2943
నాన్ని	-2944
▁స్వాగతం	-2945
చూ	-2946
క్వ	-2947
పీడియా	-2948
▁ప్రసి	-2949
VC	-2950
▁తీర్	-2951
se	-2952
▁భో	-2953
indow	-2954
▁బలి	-2955
▁వాల	-2956
▁కాకుండా	-2957
▁గుర్తింపు	-2958
▁సమావేశ	-2959
▁ముందుగా	-2960
▁చట్టం	-2961
▁x	-2962
▁క్వ	-2963
▁మేనే	-2964
65	-2965
ెక్టర్	-2966
▁°	-2967
▁డిస	-2968
▁వర	-2969
▁గ్రహ	-2970
రిస్తుంది	-2971
32	-2972
వలెనని	-2973
▁ప్రైవేట్	-2974
▁పెరి	-2975
తాడు	-2976
▁పరికరం	-2977
▁చంప	-2978
మైంది	-2979
ందున	-2980
▁ఎలక్ట్ర	-2981
డ్స్	-2982
పరు	-2983
ెరాయిడ్	-2984
▁ఉంచు	-2985
రించిన	-2986
▁మీడియా	-2987
ట్లో	-2988
ook	-2989
వాహం	-2990
▁టర్	-2991
▁హౌస్	-2992
▁మనస్సు	-2993
▁ఫ్రా	-2994
▁అక్టో	-2995
▁మార్చి	-2996
్రాన్ని	-2997
▁పొందిన	-2998
AT	-2999
▁హామీ	-3000
▁ఇక	-3001
▁చని	-3002
▁చీ	-3003
▁నేరుగా	-3004
▁నిర్దిష్ట	-3005
69	-3006
రిన	-3007
▁డాలర్	-3008
▁ఏప	-3009
▁నీరు	-3010
▁ఉద్దేశ	-3011
▁నిబంధనలు	-3012
ందల	-3013
ాలిటీ	-3014
▁స్పై	-3015
రించండి	-3016
మాని	-3017
▁ప్రవర్	-3018
▁గుండె	-3019
▁వేగంగా	-3020
డై	-3021
ెయిన్	-3022
▁వ్రా	-3023
▁ఆటోమే	-3024
కొన	-3025
వో	-3026
మన్	-3027
▁గంటల	-3028
▁—	-3029
net	-3030
▁కావచ్చు	-3031
▁స్టెరాయిడ్	-3032
▁సహాయపడుతుంది	-3033
మాలు	-3034
-5	-3035
ash	-3036
▁పరిచయం	-3037
▁చో	-3038
▁నాశ	-3039
▁మార	-3040
గలి	-3041
▁ఆధారపడి	-3042
ఫిక్	-3043
▁త్వరగా	-3044
▁you	-3045
18	-3046
వారికి	-3047
75	-3048
iz	-3049
▁సంస్థలు	-3050
▁ప్రయోజనాలు	-3051
▁వేల	-3052
▁ఉపయోగించవచ్చు	-3053
కలా	-3054
▁కొల	-3055
పుడు	-3056
ప్పింగ్	-3057
▁వస్తుంది	-3058
ంబర్	-3059
▁4.	-3060
ల్డర్	-3061
▁అట్లాంటి	-3062
▁35	-3063
▁మానసిక	-3064
▁సన్ని	-3065
▁మిగిలిన	-3066
నిమి	-3067
▁యిం	-3068
▁తరగ	-3069
▁for	-3070
రియ	-3071
▁on	-3072
▁హైడ	-3073
▁బాల	-3074
ర్శ	-3075
గ్రి	-3076
▁ఏడు	-3077
▁చెందిన	-3078
▁లోని	-3079
▁ఆచ	-3080
▁వ్యాధి	-3081
రాన్	-3082
indows	-3083
▁ప్రాసె	-3084
▁సెప్టెంబర్	-3085
▁స్క	-3086
▁పరిమ	-3087
▁ఉపరిత	-3088
▁ఉత్తర	-3089
▁స్టేషన్	-3090
▁జనా	-3091
▁బృ	-3092
▁కత్తి	-3093
▁యూనివర్	-3094
NC	-3095
....	-3096
▁ఇదే	-3097
▁ప్రభావ	-3098
పెద్ద	-3099
▁జాన్	-3100
▁ఉపయోగించే	-3101
OR	-3102
4)	-3103
▁ఫు	-3104
నియా	-3105
▁Tel	-3106
▁పౌడర్	-3107
▁ప్రత్యు	-3108
కెటింగ్	-3109
▁సూర్	-3110
▁అంగీకరించ	-3111
▁ధర్మ	-3112
▁మిమ్మల్ని	-3113
ud	-3114
▁UK	-3115
రుకు	-3116
ిన్న	-3117
▁షీట్	-3118
▁చేర్చ	-3119
▁ప్రమాద	-3120
▁వికీపీడియా	-3121
మాన	-3122
▁ఆదాయ	-3123
టకై	-3124
▁అలం	-3125
▁అందించడానికి	-3126
▁పది	-3127
విడ్	-3128
▁అసా	-3129
▁జట్టు	-3130
ికా	-3131
▁ఖచ్చితమైన	-3132
ect	-3133
రఖా	-3134
▁నామ	-3135
▁నష్టం	-3136
▁డ్రైవ్	-3137
▁వచ్చే	-3138
UR	-3139
మింగ్	-3140
▁గె	-3141
▁స్థల	-3142
▁పెంచు	-3143
తులకు	-3144
▁అమెరిక	-3145
జిన్	-3146
▁ప్రభుత్వ	-3147
▁Google	-3148
సిస్	-3149
్యాలు	-3150
▁టాగ్	-3151
▁అధికారిక	-3152
▁ఇంగ్	-3153
▁సభ్యు	-3154
రఖాస్తు	-3155
ఫల	-3156
▁స్థానం	-3157
తీరు	-3158
▁సబ్	-3159
▁శోధన	-3160
గుణ	-3161
lock	-3162
▁మనుష్యు	-3163
పరమైన	-3164
దులుగా	-3165
ET	-3166
1,	-3167
ear	-3168
▁అసలు	-3169
▁జే	-3170
▁మృ	-3171
▁పర్వత	-3172
▁జుట్టు	-3173
▁80	-3174
మరింత	-3175
▁అయ్య	-3176
▁ద్రా	-3177
▁ఒకసారి	-3178
▁యూరోప్	-3179
▁Windows	-3180
దగిన	-3181
మవుతుంది	-3182
▁బర్	-3183
▁తిరుగు	-3184
▁సమూహ	-3185
▁1,	-3186
▁is	-3187
▁శత్ర	-3188
▁ప్రత్యుత్త	-3189
ont	-3190
▁ఫ్ల	-3191
rypt	-3192
▁ఆప్	-3193
ip	-3194
▁సర్దు	-3195
▁నగర	-3196
▁డిస్	-3197
▁ఆనందించ	-3198
▁స్లాట్లు	-3199
రేషన్	-3200
ber	-3201
▁ప్రాంతంలో	-3202
▁అనుమత	-3203
ూప్	-3204
▁డెలి	-3205
',	-3206
▁ఫైల్	-3207
▁వదిలి	-3208
urr	-3209
ించబడ	-3210
▁వల్ల	-3211
బ్రవరి	-3212
ant	-3213
ఫర్	-3214
ord	-3215
సము	-3216
తాను	-3217
▁బోర్డు	-3218
▁ఎలక్ట్రిక్	-3219
▁రొ	-3220
▁షె	-3221
▁స్పీకర్	-3222
▁కమి	-3223
▁కీర్	-3224
uzz	-3225
కుండ	-3226
▁ఆసియా	-3227
లియా	-3228
70	-3229
ie	-3230
▁ఉద	-3231
దిలీ	-3232
ప్రభా	-3233
▁దరఖాస్తు	-3234
▁ప్రోగ్రామ్	-3235
రూప	-3236
▁మూసి	-3237
▁దేవుడైన	-3238
▁బ్రి	-3239
శ్రామిక	-3240
▁చిట్కాలు	-3241
మయ్య	-3242
▁సంచ	-3243
▁పదం	-3244
ధ్యం	-3245
▁నిజానికి	-3246
వర	-3247
▁సాధ్య	-3248
కర్లు	-3249
▁నవంబర్	-3250
▁చేప	-3251
▁చాట్	-3252
72	-3253
▁వ్రాయ	-3254
▁సూపర్	-3255
▁ఎన్ని	-3256
కున్నారు	-3257
▁ఏప్రిల్	-3258
యుక్త	-3259
▁అట్లాంటిక్	-3260
▁రాయ	-3261
▁~	-3262
న్లెస్	-3263
▁అప్ప	-3264
▁బదిలీ	-3265
▁కౌ	-3266
="0	-3267
వార్	-3268
▁సూచన	-3269
▁మార్కెటింగ్	-3270
▁చొ	-3271
టిల్	-3272
ey	-3273
eng	-3274
▁పారిశ్రామిక	-3275
45	-3276
సై	-3277
ంజ్	-3278
రైట్	-3279
రక్షణ	-3280
▁పెం	-3281
▁బ్యాంక్	-3282
ెయిన్లెస్	-3283
▁జల	-3284
శువు	-3285
▁పనితీరు	-3286
▁ఇన్స్టాల్	-3287
▁ముందుకు	-3288
దుట	-3289
▁యీ	-3290
ప్తు	-3291
▁యూనిట్	-3292
▁కట్	-3293
▁పద్ధతి	-3294
▁పవిత్ర	-3295
3"&	-3296
▁పిలు	-3297
▁సిఫార్	-3298
▁స్టెయిన్లెస్	-3299
▁గూ	-3300
▁సగ	-3301
దును	-3302
▁డెలివరీ	-3303
▁వాణి	-3304
▁సెంటర్	-3305
▁ఫిబ్రవరి	-3306
▁ప్యాకేజీ	-3307
గ్గా	-3308
▁క్రొత్త	-3309
▁వృత్తి	-3310
▁పచ్చబొట్లు	-3311
▁ఔషధ	-3312
ite	-3313
▁బైబి	-3314
▁బ్రే	-3315
▁వోల్టేజ్	-3316
EL	-3317
రంగ	-3318
కిల్	-3319
▁ఖాళీ	-3320
▁ప్రభువు	-3321
▁బ్రష్	-3322
▁కార్యాల	-3323
▁విశ్వస	-3324
డంతో	-3325
▁ఫ్రే	-3326
▁విద్యా	-3327
ah	-3328
▁కనీసం	-3329
▁కూర్చు	-3330
▁వాహ	-3331
▁ఒత్తిడి	-3332
▁చర్మ	-3333
▁పైప్	-3334
▁సృష్టి	-3335
▁ట్రాన్స్	-3336
▁PVC	-3337
▁=&	-3338
▁లేవు	-3339
ంక	-3340
ించును	-3341
▁సౌకర్య	-3342
ox	-3343
▁%	-3344
ించేందుకు	-3345
▁కార్యకలా	-3346
మాను	-3347
రుస	-3348
▁am	-3349
డ్యూల్	-3350
▁ఎల్	-3351
ఎస్టి	-3352
▁ఉండటం	-3353
▁కెమెరా	-3354
sh	-3355
▁పట్టి	-3356
▁అంతే	-3357
▁పరిమి	-3358
▁చెప్పి	-3359
▁ప్రయోజనం	-3360
్రాంతి	-3361
పాలు	-3362
▁అతనితో	-3363
▁దుష్ప్రభా	-3364
:0	-3365
ith	-3366
ైనర్	-3367
ress	-3368
లిన్	-3369
క్సెస్	-3370
▁కుటుంబం	-3371
▁ఎటువంటి	-3372
నేందుకు	-3373
▁మంత్రి	-3374
▁అక్టోబర్	-3375
▁అదనంగా	-3376
89	-3377
AC	-3378
▁సార్లు	-3379
▁సర్దుబాటు	-3380
కుంటున్నాను	-3381
గిల్	-3382
స్తున్నాయి	-3383
▁సరిపో	-3384
హిత	-3385
▁చెడు	-3386
▁అంగీక	-3387
▁చూడటానికి	-3388
▁కాన్	-3389
▁చెక్క	-3390
▁ఒప్పందం	-3391
▁శ్రే	-3392
ెక్టు	-3393
▁by	-3394
▁ఆపరేషన్	-3395
కత	-3396
▁ఐగు	-3397
▁32	-3398
MS	-3399
▁దర్శ	-3400
▁ఫ్రీ	-3401
▁పరిమాణ	-3402
▁పుట్టిన	-3403
-3	-3404
85	-3405
orn	-3406
▁ప్రభావిత	-3407
ish	-3408
▁షే	-3409
▁సమాధాన	-3410
▁తీవ్రమైన	-3411
".	-3412
cs	-3413
▁ఏది	-3414
▁100%	-3415
▁ఆకర్షణ	-3416
ార్క్	-3417
▁చూసిన	-3418
▁డిగ్ర	-3419
oft	-3420
పోయి	-3421
▁ఇంజనీ	-3422
▁రియల్	-3423
▁ఇట	-3424
▁అర్హ	-3425
▁సాక్ష	-3426
▁నిల	-3427
▁ఇండి	-3428
▁బెల్	-3429
▁శాస్త్ర	-3430
స్త్రం	-3431
▁బదులుగా	-3432
▁సేకరించ	-3433
3"	-3434
రిటీ	-3435
▁గార్	-3436
▁ఎడ	-3437
ల్లీ	-3438
▁విజయం	-3439
▁దీన్ని	-3440
▁డబుల్	-3441
▁అతిపెద్ద	-3442
▁వ్యక్తులు	-3443
▁తగినంత	-3444
▁సామాజిక	-3445
ity	-3446
▁దానికి	-3447
▁వెల్డింగ్	-3448
మ్న	-3449
మిన్	-3450
▁మైక్రో	-3451
▁పొందవచ్చు	-3452
▁చేయబడుతుంది	-3453
క్రమం	-3454
శాడు	-3455
▁వలె	-3456
▁విశ్వవిద్యాలయం	-3457
కుంటుంది	-3458
▁ఘన	-3459
▁పురా	-3460
▁అనుబంధ	-3461
▁తెలిసిన	-3462
▁అమ్మకానికి	-3463
8)	-3464
▁బుక్	-3465
▁స్ప్ర	-3466
▁ట్రాక్	-3467
▁Sp	-3468
▁దోష	-3469
▁అన్య	-3470
▁విదేశీ	-3471
ండ్లు	-3472
▁కుమార్తె	-3473
తున్నారు	-3474
▁ప్రోత్స	-3475
డియ	-3476
పడే	-3477
▁An	-3478
▁జనాభా	-3479
▁పోర్ట్	-3480
TS	-3481
▁వర్గం	-3482
▁విచారణ	-3483
యిత	-3484
▁http	-3485
▁హాక్	-3486
▁దారితీ	-3487
వాని	-3488
క్కలు	-3489
▁సమర్ప	-3490
వల్ల	-3491
▁అనా	-3492
▁వీలు	-3493
▁అమెరికన్	-3494
పణ	-3495
ీర్	-3496
▁పరిశీల	-3497
వది	-3498
▁ఓప	-3499
▁ఆరు	-3500
▁గ్లా	-3501
▁యంత్రాలు	-3502
▁మనకు	-3503
▁బయలుదే	-3504
తుడు	-3505
▁శైలి	-3506
6)	-3507
▁GPS	-3508
▁సిఫార్సు	-3509
▁AP	-3510
▁ఇటీ	-3511
నిక్	-3512
ెట్లు	-3513
▁సంఖ్యలు	-3514
్యతా	-3515
▁విశ్వా	-3516
▁ప్రాణ	-3517
▁కనిపిస్తుంది	-3518
డెన్	-3519
ులకు	-3520
ములలో	-3521
her	-3522
లేక	-3523
▁కొనసాగ	-3524
▁డిసెంబర్	-3525
▁కఠ	-3526
లోను	-3527
▁ఇచ్చిన	-3528
పోవు	-3529
▁పరిష్కార	-3530
▁పర్యావరణ	-3531
ru	-3532
రేట్	-3533
స్టోస్టె	-3534
▁కాపీరైట్	-3535
▁తీసి	-3536
▁సిద్ధంగా	-3537
వలసి	-3538
▁నగదు	-3539
▁ప్రార్థన	-3540
▁ప్రవక్త	-3541
urrenc	-3542
▁రకమైన	-3543
ంస	-3544
▁‘	-3545
▁ధృ	-3546
▁ఫార	-3547
;&	-3548
వసర	-3549
▁90	-3550
▁ఆడియో	-3551
గుణంగా	-3552
▁ప్రాంతం	-3553
▁సంయుక్త	-3554
1)	-3555
చె	-3556
-4	-3557
▁00	-3558
▁ఆకాశ	-3559
▁మనము	-3560
దైన	-3561
▁గమనించ	-3562
ెక్ట	-3563
▁పోయ	-3564
టర్ల	-3565
▁కృత	-3566
end	-3567
ముతో	-3568
స్కా	-3569
▁నిద్ర	-3570
▁అయినప్పటికీ	-3571
త్యామ్న	-3572
▁ఎలక్ట్రాని	-3573
▁ఆస్తి	-3574
▁యుద్ధం	-3575
ww	-3576
▁సరళ	-3577
▁మూలం	-3578
90	-3579
పెట్టు	-3580
▁ఇతరులు	-3581
▁ఫం	-3582
▁వంశ	-3583
ll	-3584
▁పండు	-3585
▁కార్పొ	-3586
▁ప్రకాశ	-3587
▁ఛాన	-3588
▁బాల్	-3589
▁కరెన్సీ	-3590
▁ఊహ	-3591
▁జాతీయ	-3592
▁Telugu	-3593
▁వీక్ష	-3594
▁డ్రైవర్	-3595
▁పోలి	-3596
▁తీర్పు	-3597
ryptoc	-3598
▁కాలేదు	-3599
IC	-3600
వచ్చ	-3601
▁అయి	-3602
▁అమర్	-3603
▁జెట్	-3604
▁ప్రయోగ	-3605
వారిని	-3606
▁తెల్ల	-3607
▁జరుగుతుంది	-3608
ryptocurrenc	-3609
▁మెటీ	-3610
▁సగటు	-3611
లపై	-3612
రోజు	-3613
న్నది	-3614
▁వేరు	-3615
ప్లే	-3616
▁రేట్	-3617
లెస్	-3618
▁నష్ట	-3619
LE	-3620
ప్స్	-3621
ూర్పు	-3622
▁ఆయనను	-3623
▁లక్ష్య	-3624
▁మిమ్మును	-3625
▁ప్రత్యామ్న	-3626
▁నడ	-3627
▁భాగస్వామ్యం	-3628
▁కఠిన	-3629
▁త్రా	-3630
3,	-3631
ల్టీ	-3632
▁వాటిలో	-3633
చున్నాను	-3634
్రంథ	-3635
స్తాను	-3636
▁ఉన్నత	-3637
▁గుడ్	-3638
▁దె	-3639
దాన్ని	-3640
▁శక్తివంతమైన	-3641
ంతరం	-3642
బెట్	-3643
▁పిత	-3644
▁స్టే	-3645
లొ	-3646
రస్	-3647
▁జ్ఞాన	-3648
▁సంస్థాప	-3649
EM	-3650
▁బ్రౌ	-3651
▁విస్తృ	-3652
▁నిర్వహించడానికి	-3653
▁చూపు	-3654
▁మీతో	-3655
www	-3656
▁స్వీయ	-3657
▁బేరింగ్	-3658
▁సహోదరు	-3659
▁ఏమీ	-3660
▁ప్రభుత్వం	-3661
▁డైర	-3662
▁తలుపు	-3663
▁ఫలితాలు	-3664
▁ఫిలి	-3665
▁మౌ	-3666
శ్చర్య	-3667
▁5.	-3668
▁కలిగ	-3669
▁ప్రయత్నించండి	-3670
▁సమయ	-3671
▁ప్రాజెక్టు	-3672
యులకు	-3673
▁రచయిత	-3674
▁వాణిజ్య	-3675
▁సృష్టించడానికి	-3676
▁వేచి	-3677
▁షూ	-3678
లోన్	-3679
కైక	-3680
▁కాయి	-3681
▁టెలి	-3682
▁పొంది	-3683
▁బంధ	-3684
ంగిక	-3685
టప్పుడు	-3686
బరు	-3687
నిర్	-3688
▁వ్యూ	-3689
▁అధ్యయ	-3690
▁హాట్	-3691
▁పరిష్కారం	-3692
▁భవిష్యత్తు	-3693
▁మహా	-3694
పూర్వ	-3695
ఎన్	-3696
▁ఏకైక	-3697
▁అటువంటి	-3698
▁తెలియదు	-3699
▁భు	-3700
▁అనువాద	-3701
▁హార్మో	-3702
ధీ	-3703
కులకు	-3704
డల్పు	-3705
ce	-3706
▁పార	-3707
బద్ధ	-3708
▁యాక్సెస్	-3709
▁స్పా	-3710
లికి	-3711
▁...]	-3712
▁అక్వేరియం	-3713
▁ఆదేశ	-3714
దరణ	-3715
▁ఎదురు	-3716
ించటానికి	-3717
▁హృదయ	-3718
▁అంతర్గత	-3719
▁సంపాదించ	-3720
.,	-3721
▁పెరుగుదల	-3722
▁ఆహారం	-3723
టక	-3724
ice	-3725
ార్ట్	-3726
▁తాము	-3727
▁ఉపయోగించడం	-3728
▁రైల్	-3729
▁టెస్టోస్టె	-3730
సిన్	-3731
▁బంగారు	-3732
▁భద్రతా	-3733
▁ఆధా	-3734
పూ	-3735
ost	-3736
▁అడి	-3737
పెట్టి	-3738
▁రీఫ్	-3739
యైన	-3740
గూర్చి	-3741
▁నివాస	-3742
యొద్దకు	-3743
కారం	-3744
ore	-3745
ందురు	-3746
వర్డ్	-3747
ళ్లను	-3748
▁స్టికర్లు	-3749
కుంటున్నారా	-3750
డె	-3751
పద	-3752
బడెను	-3753
▁రోజువారీ	-3754
▁కనుక	-3755
▁సందర్భంలో	-3756
క్ష్	-3757
సాలు	-3758
షింగ్	-3759
▁ఆలోచనలు	-3760
దారుల	-3761
వేత్త	-3762
▁మ్యూ	-3763
▁శుభ్ర	-3764
షర్	-3765
స్టా	-3766
▁CNC	-3767
▁కాం	-3768
కున్నాడు	-3769
▁సాధనం	-3770
▁సూచిక	-3771
▁పాయింట్	-3772
▁ఫె	-3773
ష్యన్	-3774
▁ఇశ్రాయేలీయుల	-3775
▁చూసారు	-3776
▁ఫ్రేమ్	-3777
ీకరించిన	-3778
▁పొందుటకు	-3779
ాంత	-3780
కులను	-3781
▁అచ్చు	-3782
▁పదార్థాలు	-3783
▁పనిచేస్తుంది	-3784
నైన	-3785
శ్య	-3786
▁ప్రత్యేకంగా	-3787
▁రాజ్య	-3788
ధాని	-3789
బ్లిక్	-3790
▁టాగ్లు	-3791
▁ఉపయోగించండి	-3792
▁విద్యార్థులు	-3793
రీలు	-3794
▁జ్ఞాప	-3795
▁అవసరాలు	-3796
▁ఉపరితల	-3797
▁మెడి	-3798
▁పరిస్థితి	-3799
వేరు	-3800
కాలిక	-3801
▁ప్రతిదీ	-3802
▁వస్తువు	-3803
▁కొద్దిగా	-3804
డ్డీ	-3805
▁ఉపకరణాలు	-3806
68	-3807
200	-3808
ree	-3809
కాలం	-3810
త్తము	-3811
▁2020	-3812
▁దీనికి	-3813
▁రుణ	-3814
రేటర్	-3815
▁ఫర్	-3816
▁ఆగస్టు	-3817
▁వెళ	-3818
▁జూలై	-3819
▁ప్రేమి	-3820
▁లభ	-3821
గ్గి	-3822
దండ్ర	-3823
▁అధ్యయనం	-3824
▁ఆశ్చర్య	-3825
▁కష్టం	-3826
▁మార్పులు	-3827
▁చేస్తున్న	-3828
▁జన్	-3829
▁వెడల్పు	-3830
▁అవగా	-3831
రాన్ని	-3832
▁తద్వారా	-3833
పోయే	-3834
కొరకు	-3835
▁లైంగిక	-3836
▁విశ్వాస	-3837
29	-3838
▁45	-3839
▁చేయగల	-3840
▁ప్రత్యుత్తరం	-3841
7)	-3842
బే	-3843
▁?	-3844
▁కార్యక్రమం	-3845
ఒక	-3846
మిక్	-3847
కరంగా	-3848
▁నింగ్	-3849
వని	-3850
▁పాలి	-3851
▁ఫోటోలు	-3852
▁కలుగ	-3853
▁చెబు	-3854
▁సర్వీస్	-3855
ph	-3856
▁un	-3857
▁గ్రంథ	-3858
▁భాగంగా	-3859
గాని	-3860
▁టాటూ	-3861
రించడం	-3862
2)	-3863
.201	-3864
▁నిలు	-3865
▁అనుగుణంగా	-3866
▁కొవ్వు	-3867
▁మ్యాచ్	-3868
▁నింగ్బో	-3869
్యూర్	-3870
▁ఏం	-3871
పత్తి	-3872
▁చెప్పాడు	-3873
▁వినియోగదారులకు	-3874
నెల్	-3875
▁దుస్తులు	-3876
▁ధృవ	-3877
▁ద్రాక్ష	-3878
▁CO	-3879
▁విభజ	-3880
pl	-3881
▁నల్ల	-3882
యుడు	-3883
▁సమ్మ	-3884
▁వస్త్ర	-3885
▁దిగువ	-3886
▁సామగ్రి	-3887
74	-3888
▁ఛా	-3889
▁ఓపెన్	-3890
▁పొర	-3891
▁సంభవ	-3892
▁!	-3893
▁సర్వ	-3894
▁ట్యూబ్	-3895
age	-3896
▁ఉచితంగా	-3897
ప్పున	-3898
▁కింది	-3899
▁పర్యవేక్షణ	-3900
▁అహ	-3901
బోర్	-3902
▁పునరుద్ధ	-3903
కైన	-3904
కాన్	-3905
▁దూర	-3906
యొద్ద	-3907
▁డేవిడ్	-3908
▁ప్రభావితం	-3909
ube	-3910
ంధ్ర	-3911
▁వీరి	-3912
▁చక్రం	-3913
▁విశ్రాంతి	-3914
టై	-3915
▁శాంతి	-3916
▁సామర్	-3917
లోనుండి	-3918
▁బ్యాంకు	-3919
▁రహస్య	-3920
▁చూడవచ్చు	-3921
ృప్తి	-3922
▁ఫేస్	-3923
చ్ఛిక	-3924
100	-3925
ఇది	-3926
ino	-3927
▁Ph	-3928
▁బటన్	-3929
▁రికార్డు	-3930
▁నీతి	-3931
▁సమాచార	-3932
▁వార్షిక	-3933
eg	-3934
వద్దు	-3935
▁పాయిం	-3936
▁జీవితంలో	-3937
CO	-3938
ంఘ	-3939
▁సిటీ	-3940
▁దాన్ని	-3941
▁అనువర్తనం	-3942
▁సరఫరాదారు	-3943
6,	-3944
శు	-3945
der	-3946
మంత	-3947
▁గైడ్	-3948
rans	-3949
▁కొండ	-3950
▁చక్క	-3951
▁వరుస	-3952
▁ఫీచర్	-3953
▁రివ్యూ	-3954
▁ప్రారంభం	-3955
▁మాట్లాడుతూ	-3956
రింప	-3957
▁గిటార్	-3958
▁షిప్పింగ్	-3959
వింగ్	-3960
▁తెరవ	-3961
▁అత్యధిక	-3962
కండి	-3963
▁వ్యతిరేక	-3964
6"	-3965
▁బ్లూ	-3966
▁స్టాక్	-3967
▁భోజ	-3968
▁ఎంపికలు	-3969
▁గోడ	-3970
▁వారం	-3971
గుల	-3972
ులను	-3973
▁బైబిల్	-3974
చున్నాడు	-3975
71	-3976
out	-3977
▁వివాహం	-3978
ందే	-3979
▁క్రమంలో	-3980
▁ధ్వ	-3981
▁నివసి	-3982
▁స్పష్టంగా	-3983
ందోళ	-3984
బుక్	-3985
▁చేత	-3986
చున్నది	-3987
ించినప్పుడు	-3988
మ్య	-3989
జెన్	-3990
▁రౌలెట్	-3991
▁CS	-3992
▁ఆపి	-3993
కాలంలో	-3994
▁రద్దు	-3995
▁తూర్పు	-3996
ib	-3997
▁పుస్తకం	-3998
▁ఇందు	-3999
▁ప్రచ	-4000
్యూషన్	-4001
▁సమీక్షలు	-4002
▁ప్యాకింగ్	-4003
hat	-4004
రించే	-4005
▁సంప్రదాయ	-4006
▁అదృ	-4007
▁2012	-4008
▁మాస్టర్	-4009
కీయ	-4010
పీఠ	-4011
యును	-4012
తులతో	-4013
▁సేవల	-4014
▁సంగీతం	-4015
బన్	-4016
▁ఎదుర్కొ	-4017
ff	-4018
పడ్డ	-4019
▁ఉండి	-4020
లేరు	-4021
▁ఇంట్లో	-4022
):	-4023
కారు	-4024
ించుటకు	-4025
▁లేక	-4026
▁గర్భ	-4027
▁విమానం	-4028
▁సంరక్షణ	-4029
▁వేస	-4030
కోవాలని	-4031
▁గ్యా	-4032
▁కోల్పో	-4033
▁జిఎస్టి	-4034
▁The	-4035
▁అసాధారణ	-4036
▁వ్యాయా	-4037
▁కొన్నిసార్లు	-4038
విని	-4039
-8	-4040
UM	-4041
ర్ర	-4042
▁గాక	-4043
▁ప్రీమి	-4044
▁అర	-4045
▁డాక్టర్	-4046
▁sh	-4047
టికల్	-4048
▁శాశ్వ	-4049
గుళ	-4050
తాలు	-4051
▁ఎరుపు	-4052
▁క్రీడా	-4053
▁కనుగొనేందుకు	-4054
ఫో	-4055
▁ఫల	-4056
▁భయం	-4057
▁పిలి	-4058
▁ముగి	-4059
▁ప్లస్	-4060
▁వ్యవహ	-4061
ile	-4062
డ్డి	-4063
బడును	-4064
స్ట్రీ	-4065
▁వీడియోలు	-4066
▁వెండి	-4067
▁రష్యన్	-4068
ai	-4069
▁(5	-4070
మాన్	-4071
▁క్రై	-4072
▁ఈలాగు	-4073
64	-4074
ధిని	-4075
▁మొదట	-4076
:00	-4077
▁ఇజ	-4078
ఖ్యా	-4079
▁క్రియ	-4080
లాగ్	-4081
▁భిన్న	-4082
▁విడిచి	-4083
▁j	-4084
ric	-4085
గము	-4086
▁బేస్	-4087
▁సెల్	-4088
▁ఆందోళ	-4089
▁ప్రసిద్ధ	-4090
8"	-4091
▁పోవు	-4092
యిం	-4093
▁కనిపి	-4094
▁సంపూర్ణ	-4095
▁PR	-4096
▁టాబ్	-4097
ంటుంది	-4098
పియన్	-4099
▁ప్లగ్	-4100
గాను	-4101
▁శిక్ష	-4102
యాన్	-4103
▁2011	-4104
కారులు	-4105
లన	-4106
▁షో	-4107
▁జనులు	-4108
▁తరల	-4109
▁పాలసీ	-4110
▁ప్రాసెసింగ్	-4111
▁ట్రై	-4112
▁కాలంలో	-4113
▁ఆనందించండి	-4114
▁వడ	-4115
▁పంచు	-4116
▁సంకే	-4117
ాయని	-4118
▁1000	-4119
▁డిగ్రీ	-4120
ించబడతాయి	-4121
కును	-4122
▁అబ్	-4123
▁హోటల్	-4124
▁వాల్వ్	-4125
▁సంబంధించి	-4126
సిటీ	-4127
వైపు	-4128
2"	-4129
▁ముఖ్యం	-4130
▁ప్యాకేజింగ్	-4131
▁మీరే	-4132
▁సంస్క	-4133
▁సేవలను	-4134
AM	-4135
లోక	-4136
▁ఎంతమంది	-4137
▁సందర్శించండి	-4138
▁నవీకరణ	-4139
▁పార్క్	-4140
▁ఫార్మా	-4141
ాయెను	-4142
▁పద్ధతులు	-4143
▁స్వీకరించ	-4144
▁హైడ్ర	-4145
ిస్తుంది	-4146
2,	-4147
▁సున్ని	-4148
▁IS	-4149
ెదను	-4150
▁శత్రువు	-4151
ళి	-4152
▁ఇంగ్లీ	-4153
▁et	-4154
క్సీ	-4155
ust	-4156
▁విమాన	-4157
▁ఉత్పత్తుల	-4158
▁తల్లిదండ్ర	-4159
▁ఓర్ఫెక్	-4160
▁మార్గాలు	-4161
▁జాగ్రత్తగా	-4162
org	-4163
ial	-4164
ఇన్	-4165
▁శాతం	-4166
▁ఇవ్వాలని	-4167
ach	-4168
▁అణ	-4169
▁బలం	-4170
▁లావా	-4171
▁ఎం	-4172
▁ఉక్కు	-4173
▁ఇటువంటి	-4174
▁జత	-4175
▁భీ	-4176
తివి	-4177
▁పదాలు	-4178
డ్జ	-4179
▁బ్లాగ్	-4180
▁ఉపయోగించు	-4181
▁బయట	-4182
▁నిష్	-4183
▁పోయి	-4184
▁పుట్ట	-4185
4,	-4186
▁అక	-4187
▁తీసుకో	-4188
▁ఇంధ	-4189
▁ఓవర్	-4190
79	-4191
▁నాట	-4192
▁ముఖం	-4193
▁సిరా	-4194
▁బాహ్య	-4195
▁సమస్త	-4196
▁కొనసాగు	-4197
▁ఫంక్షన్	-4198
▁ఒకడు	-4199
▁యూజర్	-4200
▁తెలియజేయ	-4201
టిన్	-4202
్రీయ	-4203
▁కిలో	-4204
▁బట్టి	-4205
▁భర్తీ	-4206
▁నిలిచి	-4207
▁అన్న	-4208
▁లైఫ్	-4209
▁టేబుల్	-4210
మాండ్	-4211
▁సీజన్	-4212
▁ఎడి	-4213
▁మందిర	-4214
▁×	-4215
ight	-4216
ారాలు	-4217
▁హీరో	-4218
▁గోప్యతా	-4219
లేదా	-4220
▁ప్యానెల్	-4221
▁పిలుస్తారు	-4222
▁అభిప్రాయాలు	-4223
గాన్ని	-4224
▁విశ్వసనీయ	-4225
▁హైడ్రాలిక్	-4226
AL	-4227
హే	-4228
▁విస్తృత	-4229
▁పైపు	-4230
హె	-4231
▁దినమున	-4232
▁ప్లేట్	-4233
▁వారిలో	-4234
▁వ్యవసాయ	-4235
▁ప్రధానంగా	-4236
ryptocurrency	-4237
ల్చ	-4238
▁ఐగుప్తు	-4239
▁భారతదేశ	-4240
క్యు	-4241
▁లైస	-4242
ాత్మక	-4243
▁మెట్రో	-4244
▁దేశములో	-4245
:6	-4246
జూ	-4247
దేవీ	-4248
రియన్	-4249
▁నూతన	-4250
Comment	-4251
▁ఉన్నాను	-4252
నీస్	-4253
▁ఎన్న	-4254
▁డెస్	-4255
▁వర్ణ	-4256
▁ఫ్యాషన్	-4257
▁అరు	-4258
▁పాద	-4259
కాని	-4260
▁అడగ	-4261
▁వడ్డీ	-4262
▁e	-4263
▁కణ	-4264
▁300	-4265
▁హెడ్	-4266
ించుము	-4267
▁ఉంటారు	-4268
▁గాయ	-4269
నైటెడ్	-4270
▁యెహోవాకు	-4271
▁విశ్లేషణ	-4272
▁మార్గదర్శ	-4273
▁Name	-4274
▁సత్య	-4275
ట్లుగా	-4276
▁వాటర్	-4277
▁ఎవరూ	-4278
తున్నాయి	-4279
రును	-4280
▁కార	-4281
:10	-4282
.)	-4283
EC	-4284
▁ప్రవర్తన	-4285
▁సిబ్బంది	-4286
▁నిరా	-4287
థి	-4288
▁Home	-4289
▁అద్దె	-4290
▁నిత్య	-4291
▁31	-4292
▁ప్రె	-4293
▁నిర్వాహ	-4294
▁ఫలితంగా	-4295
▁అనుకూలంగా	-4296
రలో	-4297
త్సా	-4298
▁బాగు	-4299
▁చేతులు	-4300
ok	-4301
▁Ar	-4302
వాల్	-4303
▁పారా	-4304
▁సిద్ధం	-4305
▁కష్ట	-4306
▁జర్మనీ	-4307
▁అధ్యక్ష	-4308
ట్రా	-4309
▁ఉండదు	-4310
త్తమ	-4311
▁లావాదేవీ	-4312
బేస్	-4313
TC	-4314
▁హోం	-4315
▁ఆకర్షణీయ	-4316
▁సగం	-4317
▁మోడ్	-4318
ించాయి	-4319
▁కోరిక	-4320
▁ప్రొఫైల్	-4321
▁భారతదేశం	-4322
▁కోప	-4323
▁చది	-4324
▁ఎంటర్	-4325
▁నిండి	-4326
▁గూర్చి	-4327
ram	-4328
తికి	-4329
▁అర్ప	-4330
▁ట్రేడింగ్	-4331
▁\	-4332
let	-4333
▁తెర	-4334
▁కేసు	-4335
▁కమిటీ	-4336
▁రోలర్	-4337
ధ్యా	-4338
పత్ర	-4339
▁తక్షణ	-4340
▁సభ్యులు	-4341
▁భౌ	-4342
▁మరణం	-4343
▁ఇదిగో	-4344
▁Te	-4345
వడానికి	-4346
▁మంచిది	-4347
ave	-4348
ార్ధ	-4349
హాయ	-4350
▁ఏజ	-4351
యూట్	-4352
విన్	-4353
▁2010	-4354
▁స్వచ్ఛ	-4355
▁ఇద్ద	-4356
▁నాతో	-4357
▁బట్ట	-4358
▁బృందం	-4359
49	-4360
సుపు	-4361
▁ఏక	-4362
▁యెడల	-4363
▁స్పి	-4364
▁అంటారు	-4365
ator	-4366
1"	-4367
ాన్	-4368
▁Or	-4369
▁చిహ్	-4370
న్నావు	-4371
▁అవగాహన	-4372
▁సరిగ్గా	-4373
▁జన్మ	-4374
kg	-4375
▁రసాయ	-4376
▁విభాగం	-4377
హద్దు	-4378
77	-4379
▁గుర్తుంచు	-4380
గలు	-4381
తైన	-4382
భిన్న	-4383
▁మెటీరియల్	-4384
US	-4385
▁ప్లేయర్	-4386
▁2,	-4387
లంగా	-4388
▁కెన	-4389
▁దిశ	-4390
▁కాపా	-4391
▁మాని	-4392
▁వీరు	-4393
▁అప్పగ	-4394
సూ	-4395
బ్దం	-4396
▁తేలిక	-4397
▁ఫిల్	-4398
▁కన్ను	-4399
▁మండ	-4400
▁పరిపూర్ణ	-4401
▁నిర్ధారించు	-4402
క్ట్	-4403
▁రూపా	-4404
▁విషయంలో	-4405
రస్క	-4406
▁(201	-4407
▁గొఱ్ఱ	-4408
▁సంస్థాపన	-4409
ID	-4410
▁36	-4411
▁గరిష్ట	-4412
▁వీక్షణ	-4413
చ్చెను	-4414
▁ఆనందం	-4415
▁గ్లాస్	-4416
నులను	-4417
్యూమ్	-4418
▁అత్యు	-4419
్రాయెల్	-4420
▁అమ్మకాలు	-4421
ందన	-4422
▁సెక	-4423
▁చెక్	-4424
▁విశ్వాసం	-4425
▁జప	-4426
▁చేస్తాము	-4427
డగు	-4428
వేసి	-4429
▁యొక	-4430
▁హిం	-4431
▁ప్రిం	-4432
▁టు	-4433
▁దుర్	-4434
▁సమాజ	-4435
▁యునైటెడ్	-4436
యేలు	-4437
▁మల్టీ	-4438
▁కంట్రోలర్	-4439
▁సూచిస్తుంది	-4440
▁ఆనంద	-4441
▁పసుపు	-4442
▁ప్రజలకు	-4443
yl	-4444
:15	-4445
ప్రా	-4446
చ్యూర్	-4447
▁సేకరణ	-4448
▁IP	-4449
▁సరిహద్దు	-4450
కప్	-4451
గ్యు	-4452
▁మాటలా	-4453
▁ఆటోమేటిక్	-4454
4"&	-4455
▁..	-4456
▁కంపెనీలు	-4457
▁కల్	-4458
▁లేచి	-4459
▁ప్రియ	-4460
▁స్పష్టమైన	-4461
గిన్	-4462
ర్యం	-4463
▁ఒంట	-4464
▁వైట్	-4465
▁రేటింగ్	-4466
▁గెలు	-4467
ూతి	-4468
▁ఓడ	-4469
▁ఆఫర్	-4470
▁తగ్గి	-4471
pe	-4472
పథ	-4473
పడిన	-4474
టెంట్	-4475
▁ఎగుమతి	-4476
▁సింగిల్	-4477
▁వస్తువులు	-4478
ంగి	-4479
▁పోలీ	-4480
▁మస్క్	-4481
వేళ	-4482
▁వాయు	-4483
▁సూత్ర	-4484
▁ఆధారిత	-4485
▁జ్ఞానం	-4486
AD	-4487
దూ	-4488
సిక్	-4489
▁సైన్స్	-4490
▁మైనింగ్	-4491
▁నట	-4492
తులలో	-4493
▁కావు	-4494
▁చూస్తున్న	-4495
గ్రే	-4496
▁గ్రూప్	-4497
గమ	-4498
▁)	-4499
▁150	-4500
▁శతా	-4501
▁వేసవి	-4502
▁వెలుప	-4503
▁దేశంలో	-4504
▁it	-4505
▁శ్	-4506
▁ఉక్ర	-4507
TM	-4508
▁ఆఫీ	-4509
▁దాసు	-4510
▁సాధ్యం	-4511
నిమిది	-4512
▁ఇజ్రాయెల్	-4513
▁AC	-4514
▁ఆయిల్	-4515
▁వాయిస్	-4516
13	-4517
co	-4518
ాలే	-4519
జాన్	-4520
మరియు	-4521
▁లూ	-4522
▁అర్హత	-4523
▁ట్రాకర్	-4524
▁అమెచ్యూర్	-4525
బడే	-4526
ానని	-4527
▁డ్ర	-4528
▁చర్యలు	-4529
ext	-4530
per	-4531
జాల	-4532
▁చౌ	-4533
▁మెష	-4534
▁డ్యూ	-4535
▁గట్టి	-4536
దారులకు	-4537
▁నమ్మకం	-4538
సియ	-4539
నేట్	-4540
▁అన్వే	-4541
ef	-4542
▁సంతోషంగా	-4543
ood	-4544
సుక	-4545
మనగా	-4546
▁టైప్	-4547
▁పర్స	-4548
:11	-4549
:13	-4550
▁నూనె	-4551
▁తరగతి	-4552
▁హెచ్చ	-4553
▁బ్యాగ్	-4554
▁హాని	-4555
▁అంగుళ	-4556
▁Ap	-4557
▁ఆటగా	-4558
▁పనిచేయ	-4559
8,	-4560
▁ఇంట	-4561
▁ఉపా	-4562
▁కాంప	-4563
▁సన్న	-4564
▁బొమ్మ	-4565
▁బలిపీఠ	-4566
క్రీ	-4567
ైనీస్	-4568
▁ఎంతో	-4569
జో	-4570
▁ధూ	-4571
▁వందల	-4572
▁ఒప్పంద	-4573
▁విభిన్న	-4574
▁టెక్స్ట్	-4575
▁అమ్మాయిలు	-4576
సల్	-4577
▁స్ట్ర	-4578
▁చూచు	-4579
▁వర్గ	-4580
▁బ్యాక్	-4581
▁రైల్వే	-4582
▁ఇంగ్లీష్	-4583
బె	-4584
డియం	-4585
డ్జ్	-4586
▁ల్యా	-4587
▁పట్టిక	-4588
కోవటానికి	-4589
▁cryptocurrency	-4590
▁జంట	-4591
▁2009	-4592
శాస్త్ర	-4593
▁చల్లని	-4594
▁మగ	-4595
రిక్	-4596
్రాయి	-4597
▁కనిపించే	-4598
ise	-4599
▁భవనం	-4600
▁రబ్బ	-4601
▁వర్క్	-4602
▁అంతేకా	-4603
▁ఆమోదించ	-4604
▁దగ్గరగా	-4605
▁ఆకృత	-4606
▁ఇటలీ	-4607
▁ఉన్నప్పటికీ	-4608
▁సురక్షితంగా	-4609
EN	-4610
రాజు	-4611
▁సస్ప	-4612
▁అనుకూలమైన	-4613
▁వచ్చినప్పుడు	-4614
▁సోద	-4615
▁నిర్వహి	-4616
తురు	-4617
▁వేడు	-4618
▁6.	-4619
పాన్	-4620
▁చుట్టు	-4621
ండ్రాయిడ్	-4622
uk	-4623
రని	-4624
నును	-4625
వెంట్	-4626
▁గ్లో	-4627
▁భావన	-4628
▁చేస్తాయి	-4629
▁నిమిషాల	-4630
▁చెల్లించ	-4631
IL	-4632
▁సార్	-4633
▁వాక్కు	-4634
▁పిం	-4635
ధాన్య	-4636
▁బహుమతి	-4637
:8	-4638
గాల	-4639
రిని	-4640
▁కొని	-4641
▁జారీ	-4642
▁తప్పించు	-4643
▁ఇరు	-4644
రాలను	-4645
▁బైక్	-4646
ములన్ని	-4647
▁ప్లాట్	-4648
▁ఆశి	-4649
▁అవకాశాలు	-4650
▁You	-4651
▁సర్వే	-4652
▁వేర్వేరు	-4653
▁ఎలక్ట్రానిక్	-4654
az	-4655
ros	-4656
మిత	-4657
▁ఉనికి	-4658
▁అందువల్ల	-4659
55	-4660
:12	-4661
:14	-4662
▁రిజి	-4663
మునుండి	-4664
▁దీనిలో	-4665
▁సువార్	-4666
▁కంట్రోల్	-4667
▁ప్రోత్సహ	-4668
డిద	-4669
▁డివి	-4670
▁ఉండండి	-4671
▁సహాయపడ	-4672
▁ఉన్నాము	-4673
▁లేకపోతే	-4674
▁నిర్ణయించు	-4675
ానా	-4676
కొనిన	-4677
▁శ్రమ	-4678
▁వినియోగదారుల	-4679
సిప	-4680
olor	-4681
▁ఆకు	-4682
▁నది	-4683
▁మిస్	-4684
▁చర్మం	-4685
▁నమూనాలు	-4686
నిస	-4687
▁TV	-4688
▁బలహీ	-4689
▁పర్సనల్	-4690
go	-4691
▁పొందుతారు	-4692
▁సందర్శించిన	-4693
io	-4694
ైతే	-4695
▁ఎగ్	-4696
▁దుకా	-4697
▁మధ్యలో	-4698
▁70	-4699
డ్యు	-4700
వేయు	-4701
▁2000	-4702
ందరును	-4703
-6	-4704
న్యా	-4705
లుగా	-4706
▁మంచు	-4707
మొద	-4708
▁EA	-4709
▁విరా	-4710
▁కటింగ్	-4711
ాలీ	-4712
▁DC	-4713
క్లి	-4714
▁సాయ	-4715
▁ఉంచండి	-4716
▁లక్ష్యం	-4717
పచ్చ	-4718
▁బిడ్డ	-4719
▁ఆందోళన	-4720
:7	-4721
▁విమానా	-4722
టారు	-4723
▁USD	-4724
▁గంటలు	-4725
▁చెట్టు	-4726
?"	-4727
వెన్	-4728
▁Web	-4729
▁షాప	-4730
▁లాక్	-4731
ెంట్లు	-4732
="6	-4733
rom	-4734
▁దై	-4735
▁టచ్	-4736
▁ఫ్రె	-4737
IS	-4738
ass	-4739
▁జనుల	-4740
▁నిశ్చ	-4741
▁క్లయింట్	-4742
▁సర్టిఫికేషన్	-4743
తంత్ర	-4744
▁యాకో	-4745
మీదికి	-4746
ించబడ్డాయి	-4747
▁నోటి	-4748
▁యూరోపియన్	-4749
షల్	-4750
▁ఉద్యోగం	-4751
▁స్టిక్క	-4752
▁మెద	-4753
తుల్లో	-4754
▁పురాతన	-4755
క్షి	-4756
▁సౌలు	-4757
▁ప్రజాదరణ	-4758
hek	-4759
▁No	-4760
▁థీ	-4761
స్యూ	-4762
లేటర్	-4763
▁వడపో	-4764
▁కన్నా	-4765
▁ఏల	-4766
▁లేదో	-4767
▁దెబ్బ	-4768
▁ప్రాసెస్	-4769
▁సెలవిచ్చు	-4770
▁జరిగ	-4771
▁రబ్బరు	-4772
▁పాయింట్లు	-4773
▁al	-4774
▁శో	-4775
▁తనకు	-4776
▁స్వే	-4777
▁హార్మోన్	-4778
బల్	-4779
ట్టే	-4780
▁నివేదిక	-4781
▁షాపింగ్	-4782
▁PAR	-4783
నిరోధ	-4784
▁పత్రిక	-4785
▁విస్తృతంగా	-4786
▁ఉంచడానికి	-4787
ఎం	-4788
ద్యం	-4789
▁మత	-4790
యాలో	-4791
▁మరల	-4792
▁మాటలు	-4793
ప్త	-4794
▁లెట్	-4795
▁నిలువ	-4796
▁మెయిల్	-4797
▁కట్టుబడి	-4798
▁ప్రత్యామ్నాయ	-4799
▁తెలుసుకోవడానికి	-4800
28	-4801
ES	-4802
కైవ్	-4803
▁ట్రిప్	-4804
ipp	-4805
own	-4806
▁లేఖ	-4807
ంభ	-4808
▁ఇసుక	-4809
▁బహిరంగ	-4810
▁అనువర్తన	-4811
చో	-4812
నొ	-4813
▁ప్రీమియం	-4814
ire	-4815
▁ఆపై	-4816
▁అంటు	-4817
▁చెవి	-4818
ASS	-4819
ary	-4820
సార్	-4821
▁అపరి	-4822
▁ముని	-4823
▁విమానాశ్ర	-4824
▁సృష్టించబడింది	-4825
ml	-4826
ics	-4827
తును	-4828
▁pro	-4829
▁నెర	-4830
asino	-4831
▁ఎస్ట	-4832
▁ఆమెను	-4833
:16	-4834
▁com	-4835
స్మస్	-4836
▁గొట్ట	-4837
మతులు	-4838
▁పైకి	-4839
▁సామర్థ్యాన్ని	-4840
4"	-4841
▁మైన	-4842
▁వహ	-4843
యిన్	-4844
▁అమరిక	-4845
రించారు	-4846
▁ఇంటికి	-4847
ink	-4848
▁మాన్యు	-4849
▁కార్బన్	-4850
ఫై	-4851
chain	-4852
▁అంశం	-4853
▁అంతటా	-4854
▁రింగ్	-4855
▁తక్కువగా	-4856
▁డో	-4857
కాలను	-4858
▁ఆవిష్	-4859
▁వినియోగం	-4860
7"&	-4861
▁నమ్ము	-4862
▁చైనీస్	-4863
▁స్థిరమైన	-4864
జిల్	-4865
▁ఎలి	-4866
ాలంటే	-4867
▁ఆర్కైవ్	-4868
▁అనుకుంటున్నారా	-4869
▁చద	-4870
ener	-4871
ల్లింగ్	-4872
▁పెరుగుతున్న	-4873
able	-4874
మిన	-4875
వంతం	-4876
పోర్ట్	-4877
▁మార్చు	-4878
▁బ్రౌజర్	-4879
▁బీమా	-4880
AP	-4881
▁ST	-4882
ద్దా	-4883
▁మహిమ	-4884
▁ఎప్పుడ	-4885
▁Un	-4886
▁డెవల	-4887
▁బిల్	-4888
▁రేడియో	-4889
95	-4890
▁సవ	-4891
▁ఇష్టం	-4892
▁యాకోబు	-4893
▁రంగంలో	-4894
▁రోజుల్లో	-4895
▁స్వయంచాలక	-4896
ేత	-4897
▁--	-4898
బియన్	-4899
▁సెన్	-4900
phek	-4901
రోన్	-4902
ాల్సిన	-4903
...]	-4904
▁ప్రెస్	-4905
7,	-4906
▁On	-4907
▁ఖరీ	-4908
▁పగడపు	-4909
▁ఈవెంట్	-4910
▁తెలుసుకోండి	-4911
-10	-4912
orm	-4913
పాద	-4914
▁గెలుచు	-4915
▁సైట్లు	-4916
▁క్రైస్త	-4917
▁కళ్ళు	-4918
▁పథ	-4919
▁కొంచ	-4920
▁నేనే	-4921
rain	-4922
▁ఇంత	-4923
▁యాక్	-4924
▁రెడ్	-4925
▁స్టోర్	-4926
7"	-4927
▁XXX	-4928
▁మెరుగుపరచ	-4929
▁ప్రారంభంలో	-4930
cm	-4931
మణ	-4932
▁{	-4933
▁be	-4934
బ్యా	-4935
▁మహ	-4936
▁టోకు	-4937
కాన్ని	-4938
టిక్స్	-4939
IT	-4940
500	-4941
▁గదా	-4942
చేసిన	-4943
యులను	-4944
▁ముడి	-4945
▁ఇందులో	-4946
▁సూక్ష్	-4947
▁స్వతంత్ర	-4948
▁అత్యుత్తమ	-4949
మన	-4950
/201	-4951
▁కలిపి	-4952
▁లక్షణాలను	-4953
▁పట్టుకొని	-4954
alk	-4955
▁గణనీయ	-4956
▁జపనీస్	-4957
గానే	-4958
▁పడు	-4959
ించుట	-4960
▁భర్త	-4961
▁ఇష్టపడ	-4962
▁నిపుణుల	-4963
సిల్	-4964
▁మహిళల	-4965
▁ఫాస్ట్	-4966
▁రెగ్యు	-4967
▁అవుట్పుట్	-4968
ఫు	-4969
▁నేల	-4970
మంత్రి	-4971
▁కస్టమ్	-4972
▁ఆస్ట్రే	-4973
▁తప్పనిస	-4974
▁హు	-4975
జేషన్	-4976
రుగైన	-4977
▁వెళు	-4978
▁తోట	-4979
▁అనుసం	-4980
▁పంపిన	-4981
రించింది	-4982
▁నిపుణులు	-4983
▁మొదల	-4984
▁క్రిస్మస్	-4985
▁ప్రపంచంలోని	-4986
నాతన	-4987
▁యెదుట	-4988
9)	-4989
బాల్	-4990
్యము	-4991
▁లోతైన	-4992
▁మినహాయ	-4993
▁స్వాధీ	-4994
▁కనెక్షన్	-4995
బ్లీ	-4996
▁చీక	-4997
▁పుష్	-4998
▁శాస్త	-4999
lockchain	-5000
▁కార్డులు	-5001
నది	-5002
▁ఫండ్	-5003
పోయెను	-5004
▁వాల్యూమ్	-5005
▁పునః	-5006
▁లెస్	-5007
▁దగ్గర	-5008
▁భాగస్వామి	-5009
కర్త	-5010
టాప్	-5011
▁కోట	-5012
▁స్పీ	-5013
▁చంద్ర	-5014
▁రాజైన	-5015
osh	-5016
▁ఇన్వ	-5017
▁చేయాలని	-5018
▁[...]	-5019
▁అప్పటి	-5020
▁దేశాలు	-5021
▁స్థితి	-5022
▁స్విచ్	-5023
▁హ్యాండ్	-5024
▁పొడిగింపు	-5025
▁with	-5026
▁స్లాట్	-5027
కుము	-5028
వదించ	-5029
▁దూరం	-5030
▁నేటి	-5031
డ్జెట్	-5032
▁విక్రయ	-5033
▁మాడ్యూల్	-5034
పాలి	-5035
మోను	-5036
రికీ	-5037
▁సౌర	-5038
▁2008	-5039
▁పక్క	-5040
▁ప్రత్యేకమైన	-5041
బిం	-5042
ప్ట్	-5043
ించటం	-5044
కాం	-5045
లాన్	-5046
ష్యులు	-5047
▁విన్న	-5048
▁మందులు	-5049
ld	-5050
▁·	-5051
ించాలని	-5052
▁కొందరు	-5053
▁నలుపు	-5054
▁మిశ్ర	-5055
▁అపవిత్ర	-5056
▁పెరిగింది	-5057
hd	-5058
బడలేదు	-5059
▁స్థలం	-5060
▁శ్రద్ధ	-5061
▁చేసుకోవచ్చు	-5062
చొ	-5063
.10	-5064
ure	-5065
ములకు	-5066
▁నాటికి	-5067
▁స్పేస్	-5068
DF	-5069
జరు	-5070
▁ప్రకృతి	-5071
▁కార్యక్రమాలు	-5072
:18	-5073
ధిప	-5074
▁కను	-5075
▁ఫోర్	-5076
▁పనులు	-5077
▁అన్నారు	-5078
▁పబ్లిక్	-5079
▁వస్తాయి	-5080
కుంటున్నారు	-5081
ప్ల	-5082
▁33	-5083
▁ఫౌ	-5084
క్రియ	-5085
▁అంశాలు	-5086
▁స్నేహితులు	-5087
▁కమ్యూనికేషన్	-5088
స్కాంత	-5089
ల్యూషన్	-5090
▁అడుగుల	-5091
▁ఇన్పుట్	-5092
▁జంతువులు	-5093
▁అప్ర	-5094
▁రప్ప	-5095
▁స్వర్	-5096
rad	-5097
ండీ	-5098
వాన్	-5099
▁ట్రి	-5100
▁అధికార	-5101
LC	-5102
▁పునర్	-5103
▁భౌతిక	-5104
▁ప్రకటనలు	-5105
▁ప్రాధాన్య	-5106
▁చేసా	-5107
▁జనరల్	-5108
▁సంవత్సరంలో	-5109
:9	-5110
▁క్రీడలు	-5111
▁ప్రమాదం	-5112
▁తీసుకున్న	-5113
శీ	-5114
:20	-5115
మ్మి	-5116
▁inf	-5117
▁నీలం	-5118
▁లోతు	-5119
డాన్ని	-5120
▁రకాలు	-5121
▁ఎప్పుడు	-5122
గలదు	-5123
▁కలుగు	-5124
▁మ్యాప్	-5125
▁ఉండటానికి	-5126
▁En	-5127
దుపు	-5128
▁కుకీ	-5129
▁ఆపిల్	-5130
▁దుష్ప్రభావాలు	-5131
▁మోసం	-5132
▁విలువైన	-5133
న్నె	-5134
▁కాగ	-5135
రాల్లో	-5136
▁వడపోత	-5137
▁చేస్తున్నారు	-5138
▁ఎక్	-5139
▁బెట్	-5140
▁నొప్పి	-5141
▁రూపొందించబడింది	-5142
88	-5143
ాలపై	-5144
▁కాలు	-5145
▁యూదు	-5146
▁బ్రేక్	-5147
▁వ్యవధి	-5148
any	-5149
▁సువార్త	-5150
▁విభాగాలు	-5151
ినీ	-5152
ప్టో	-5153
▁మంచ	-5154
▁ప్రతికూల	-5155
ark	-5156
రులను	-5157
▁మెదడు	-5158
▁లేకపో	-5159
▁స్ట్రీ	-5160
ens	-5161
ానో	-5162
▁కల్ప	-5163
▁వారాల	-5164
▁ఎఫ	-5165
తోను	-5166
శ్చి	-5167
▁Pro	-5168
▁క్లో	-5169
▁సెలవు	-5170
ింపవలెను	-5171
▁ఆసక్తికరమైన	-5172
ాలనుకుంటే	-5173
▁వాస్తవానికి	-5174
▁వసంత	-5175
▁శిబి	-5176
మానులు	-5177
తము	-5178
▁ఆయు	-5179
మొదటి	-5180
▁జపాన్	-5181
▁నాశనం	-5182
▁సంతృప్తి	-5183
▁లలో	-5184
ండిరి	-5185
చింది	-5186
▁రుచి	-5187
▁టాబ్లెట్	-5188
aw	-5189
▁గుడ	-5190
▁ఫుట్	-5191
ింగ్స్	-5192
▁స్పె	-5193
▁చేస్తే	-5194
▁టూల్స్	-5195
▁పేజీలు	-5196
▁అసెం	-5197
21	-5198
▁ధరలు	-5199
▁mm	-5200
▁ఫ్ర	-5201
▁ఆవిష్కరణ	-5202
ెనో	-5203
▁నిజం	-5204
రస	-5205
బలి	-5206
▁CE	-5207
నుము	-5208
పోయా	-5209
▁ఎడమ	-5210
▁గడు	-5211
▁జాక్	-5212
LON	-5213
ann	-5214
▁Bit	-5215
▁లేవీ	-5216
▁శక్తిని	-5217
▁ఇచ్చింది	-5218
▁అనుకుంటున్నాను	-5219
ళం	-5220
ver	-5221
ప్టర్	-5222
▁శీతల	-5223
తుందని	-5224
వన	-5225
▁ex	-5226
▁అధు	-5227
▁ఆఫ్ర	-5228
▁రాగి	-5229
▁రోబో	-5230
రించేందుకు	-5231
▁అయినా	-5232
▁అలంకరణ	-5233
▁కన్వర్	-5234
ందర	-5235
జీలు	-5236
టెక్	-5237
▁జరగ	-5238
▁మాం	-5239
2"&	-5240
iew	-5241
ితీ	-5242
ీకృత	-5243
▁కేంద	-5244
▁బ్రో	-5245
▁చదరపు	-5246
▁పూర్వ	-5247
▁ఫలితాలను	-5248
ank	-5249
▁Th	-5250
▁దినము	-5251
▁ధ్వని	-5252
▁అంగీకరి	-5253
▁మెరుగైన	-5254
▁ప్రతిబిం	-5255
▁విండోస్	-5256
▁OEM	-5257
▁అధునాతన	-5258
▁ఆచరణ	-5259
▁డిస్క	-5260
▁రంగులు	-5261
▁లాగిన్	-5262
▁డేటాబేస్	-5263
:17	-5264
కియా	-5265
ష్యా	-5266
color	-5267
ందరిని	-5268
▁తీసుకొని	-5269
▁ఆండ్రాయిడ్	-5270
Sh	-5271
lu	-5272
న్సర్	-5273
ated	-5274
▁వాడుక	-5275
▁రాజకీయ	-5276
▁శుభ్రం	-5277
▁అసెంబ్లీ	-5278
▁సిద్ధాంత	-5279
▁USB	-5280
▁టూల్	-5281
▁దృష్టికి	-5282
33	-5283
లాస్	-5284
▁ఆది	-5285
▁లేడీ	-5286
▁అనుభూతి	-5287
6"&	-5288
▁sp	-5289
లోనే	-5290
ష్టు	-5291
▁నిషే	-5292
▁ఫార్మాట్	-5293
కేట్	-5294
ౌండ్	-5295
కత్వం	-5296
▁సేవా	-5297
▁కళాశాల	-5298
రాధ	-5299
స్తాం	-5300
ించుడి	-5301
డవ	-5302
▁తెలివైన	-5303
లేషన్	-5304
▁గౌరవ	-5305
▁సమూహం	-5306
▁డిమాండ్	-5307
తిస్తుంది	-5308
▁డొ	-5309
▁Ind	-5310
▁గోల్	-5311
▁నింప	-5312
▁ఫ్లాట్	-5313
▁శాశ్వత	-5314
9,	-5315
ంగం	-5316
మరీ	-5317
▁ఉండు	-5318
▁బాడీ	-5319
చుండగా	-5320
శాన్ని	-5321
▁గ్యాస్	-5322
▁డేటింగ్	-5323
line	-5324
▁ISO	-5325
▁క్లీ	-5326
▁దొరక	-5327
▁ఫీజు	-5328
▁ద్రవ్య	-5329
▁వచ్చెను	-5330
oy	-5331
హార	-5332
▁పెంచడానికి	-5333
▁రూపొందించిన	-5334
PC	-5335
cri	-5336
ere	-5337
ంటిని	-5338
ాలుగా	-5339
▁ప్లాన్	-5340
▁అధికారం	-5341
▁ఖర్చులు	-5342
▁పరిస్థితులు	-5343
▁2007	-5344
▁భీమా	-5345
▁రేట్లు	-5346
▁మేకింగ్	-5347
▁తీసుకోవడం	-5348
▁స్వయంచాలకంగా	-5349
▁he	-5350
▁పూత	-5351
ండ్రో	-5352
▁గురు	-5353
▁ఉండేది	-5354
▁వెళ్ళండి	-5355
GH	-5356
▁34	-5357
ారోగ	-5358
▁120	-5359
ించుకోవ	-5360
ౌడ్	-5361
ండ్ల	-5362
▁ఆక్సి	-5363
▁ఇంజిన్	-5364
▁గ్రేడ్	-5365
▁నిలిపి	-5366
▁అంశాలను	-5367
▁దేవత	-5368
▁వినో	-5369
▁ఉందని	-5370
▁నేషనల్	-5371
▁తీసుకుని	-5372
▁లైసెన్స్	-5373
▁ఇస్	-5374
▁ప్రమో	-5375
యున్నది	-5376
▁అలాంటి	-5377
▁స్కూల్	-5378
▁మాన్యువల్	-5379
5,	-5380
ase	-5381
పోతుంది	-5382
▁కఠినమైన	-5383
▁బెడ్	-5384
buzz	-5385
▁New	-5386
▁పంట	-5387
▁అర్ధ	-5388
▁నంబర్	-5389
▁శ్రేణి	-5390
▁ఎనిమిది	-5391
హాలు	-5392
ముఖ్య	-5393
▁పారామి	-5394
రొ	-5395
ండే	-5396
▁నేపథ	-5397
▁బేబీ	-5398
▁నిరూప	-5399
▁ప్రేరే	-5400
▁పరిశోధనా	-5401
▁సమర్థవంతంగా	-5402
▁సందర్శించినవారి	-5403
MP	-5404
ode	-5405
మైన్	-5406
▁Fac	-5407
ండిల్	-5408
▁జరుపు	-5409
▁రూపంలో	-5410
▁Pl	-5411
టీన్	-5412
ebook	-5413
▁ఆంగ్	-5414
▁ఇంధన	-5415
▁పొందింది	-5416
▁ఉత్పత్తులను	-5417
ee	-5418
ablet	-5419
చింగ్	-5420
▁మాది	-5421
▁నెమ్మ	-5422
▁ప్రాంతాల్లో	-5423
టంటే	-5424
▁వీధి	-5425
▁సమగ్ర	-5426
▁క్రిప్టో	-5427
▁అబ్రా	-5428
▁రౌండ్	-5429
పిల్ల	-5430
▁క్షణ	-5431
▁చేశాడు	-5432
▁మేనేజర్	-5433
▁చేస్తున్నాను	-5434
ery	-5435
▁క్షమ	-5436
hdbuzz	-5437
ష్తీ	-5438
▁రష్యా	-5439
▁వృద్ధి	-5440
▁అందించడం	-5441
5)	-5442
కప్పు	-5443
▁మృదు	-5444
▁పూర్త	-5445
శీల	-5446
తలను	-5447
చున్నారు	-5448
▁వెంట్రు	-5449
▁ప్రతిస్ప	-5450
▁ఎప్పుడైనా	-5451
ick	-5452
▁టెస్ట్	-5453
rig	-5454
▁స్థాయిలో	-5455
▁ch	-5456
▁మళ్	-5457
▁అనువర్త	-5458
▁ప్రియమైన	-5459
▁పెంచుతుంది	-5460
జాజ్	-5461
▁పాలు	-5462
▁కేట	-5463
▁ఉదయం	-5464
▁మౌంట్	-5465
▁ఫీల్డ్	-5466
▁వాగ్	-5467
▁ఇటీవల	-5468
▁హైపర్	-5469
▁తిరస్క	-5470
▁ఇష్టమైన	-5471
▁ట్రాఫిక్	-5472
▁ఆపరేటింగ్	-5473
సేపు	-5474
▁గౌర	-5475
▁గాజు	-5476
▁సంభాషణ	-5477
▁నవీకరించ	-5478
కను	-5479
గన్	-5480
▁7.	-5481
ంప్ర	-5482
▁ఆదా	-5483
▁పూజ	-5484
▁అహరో	-5485
▁వీక్షించడానికి	-5486
▁అరణ	-5487
▁అవసరాలను	-5488
▁చెప్పండి	-5489
▁సంబంధాలు	-5490
▁Ex	-5491
వెల్	-5492
మయ్యే	-5493
విధంగా	-5494
▁అయస్కాంత	-5495
▁ఫారెక్స్	-5496
▁తెరి	-5497
రిన్	-5498
ందును	-5499
▁పేర్లు	-5500
▁ప్యాక్	-5501
sk	-5502
ాలో	-5503
▁ఫ్రాన్స్	-5504
నియర్	-5505
▁ఆదాయం	-5506
▁అనారోగ	-5507
▁వ్యర్థ	-5508
▁పేటెంట్	-5509
వాబు	-5510
▁0.0	-5511
▁జరిగినది	-5512
ఖలు	-5513
▁48	-5514
వ్యా	-5515
▁250	-5516
ఫేస్	-5517
▁గ్రీన్	-5518
▁ఉపయోగిస్తుంది	-5519
▁గీ	-5520
యింగ్	-5521
▁హెల్	-5522
▁వీటిలో	-5523
లేము	-5524
▁వివాహ	-5525
▁పొరుగు	-5526
▁ఈజి	-5527
▁హెచ్	-5528
LONASS	-5529
రెన్స్	-5530
Bet	-5531
▁సృజ	-5532
ట్లను	-5533
▁క్రియా	-5534
▁పురుషుల	-5535
▁యెహోవాను	-5536
▁86	-5537
▁wh	-5538
▁పారిస్	-5539
▁అత్యవసర	-5540
▁పైకప్పు	-5541
▁సూక్ష్మ	-5542
▁ప్రభువైన	-5543
నెస్	-5544
▁రూపం	-5545
▁ఛానల్	-5546
▁ఎప్పటికీ	-5547
▁కొంతమంది	-5548
▁Vide	-5549
▁అక్క	-5550
▁త్రో	-5551
▁నైట్	-5552
ంటింగ్	-5553
▁స్వభా	-5554
▁నిరంతరం	-5555
▁టెస్టోస్టెరాన్	-5556
▁01	-5557
య్యి	-5558
▁దాటి	-5559
▁నార్	-5560
▁బెల్ట్	-5561
▁ప్రదేశం	-5562
▁సమీపంలో	-5563
విక	-5564
దారి	-5565
▁మోస	-5566
▁స్పెక్ట	-5567
Ch	-5568
▁టెం	-5569
ించలేదు	-5570
▁అధ్యయన	-5571
▁మాక్స్	-5572
▁సంఖ్యలో	-5573
గీ	-5574
ట్ర	-5575
ర్ధ	-5576
సులో	-5577
XX	-5578
ji	-5579
పాటి	-5580
▁400	-5581
పోయారు	-5582
▁ఇల్లు	-5583
▁ఎస్టేట్	-5584
దె	-5585
▁టెస్	-5586
▁ఆకర్ష	-5587
▁అనువదించ	-5588
▁పెరుగుతుంది	-5589
▁→	-5590
eth	-5591
▁కది	-5592
▁మాస్	-5593
▁పాపము	-5594
▁వ్యవస్థలు	-5595
▁కద	-5596
▁ఉపసం	-5597
టిం	-5598
చారు	-5599
నంలో	-5600
▁అడవి	-5601
▁త్వరలో	-5602
▁మిశ్రమ	-5603
▁నశ	-5604
ట్టీ	-5605
▁వైన్	-5606
▁ఆయనకు	-5607
▁దిగుమతి	-5608
▁ప్రయాణి	-5609
▁నివేదించ	-5610
▁పాస్వర్డ్	-5611
ప్యా	-5612
▁Mac	-5613
▁స్కో	-5614
తున్నాను	-5615
PA	-5616
TD	-5617
▁సైజు	-5618
▁సంగతి	-5619
▁అంతట	-5620
▁తొలి	-5621
▁నిర్ణయం	-5622
గాక	-5623
▁లకు	-5624
▁బజాజ్	-5625
▁నిరంతర	-5626
సార	-5627
▁or	-5628
▁బిట్	-5629
▁మళ్లీ	-5630
▁మెమరీ	-5631
▁ఫిలిష్తీ	-5632
▁అనుసరించండి	-5633
▁Ad	-5634
▁సరే	-5635
▁ప్రశ	-5636
నాత్మక	-5637
▁వెళ్లు	-5638
▁భిన్నంగా	-5639
mg	-5640
ous	-5641
▁__	-5642
బియా	-5643
▁ఫైనా	-5644
▁కృతజ్ఞ	-5645
▁ఫ్రెంచ్	-5646
▁స్వాస్థ	-5647
▁బహుమతులు	-5648
▁IT	-5649
▁పరిపాల	-5650
▁స్పీడ్	-5651
▁కంటైనర్	-5652
▁ప్రతిని	-5653
▁ప్రతిష్ఠ	-5654
▁సమర్థవంతమైన	-5655
▁ఉన్నా	-5656
▁మెడికల్	-5657
ms	-5658
జరీ	-5659
▁జార్	-5660
▁దేని	-5661
▁పిలువ	-5662
▁కలుగజే	-5663
▁కీర్తి	-5664
▁సెక్యూ	-5665
▁సెయింట్	-5666
▁నిమిత్తము	-5667
యగు	-5668
ద్ది	-5669
రోపా	-5670
▁తీయ	-5671
▁మినీ	-5672
▁నున్న	-5673
▁ఖరీదైన	-5674
▁సులభమైన	-5675
మేము	-5676
▁చాలామంది	-5677
ork	-5678
▁తాత్	-5679
▁రోల్	-5680
▁చెప్పగా	-5681
▁సౌకర్యం	-5682
CD	-5683
▁పోష	-5684
▁min	-5685
ెంబరు	-5686
▁సాధన	-5687
▁చెందు	-5688
▁రసాయన	-5689
రై	-5690
▁రబ్	-5691
▁సౌంద	-5692
▁బలహీన	-5693
▁నిశ్చయ	-5694
▁నైపుణ్యం	-5695
▁పేర్కొన్న	-5696
GO	-5697
IP	-5698
▁సోదరు	-5699
▁కొద్ది	-5700
▁చేసెను	-5701
▁డెస్క్	-5702
▁శిశువు	-5703
▁తెలిసికొ	-5704
:19	-5705
:22	-5706
▁Re	-5707
▁మనో	-5708
▁గతంలో	-5709
▁విస్తార	-5710
26	-5711
MC	-5712
▁హౌ	-5713
త్మిక	-5714
▁గేర్	-5715
▁జీవన	-5716
▁బిలియన్	-5717
▁స్టేట్స్	-5718
▁సున్నితమైన	-5719
▁థి	-5720
▁స్వీ	-5721
▁ww	-5722
▁కవ	-5723
స్థులు	-5724
▁డిస్క్	-5725
▁ఇంజెక్షన్	-5726
చరణ	-5727
హారం	-5728
▁www	-5729
▁పరా	-5730
▁ర్యా	-5731
▁తప్పక	-5732
▁స్వేచ్ఛ	-5733
▁కాయిల్	-5734
23	-5735
-20	-5736
ult	-5737
▁దాడి	-5738
▁మిల్	-5739
ath	-5740
ina	-5741
▁బల్	-5742
▁మిమీ	-5743
▁ఇవ్వడం	-5744
!!	-5745
దము	-5746
క్రి	-5747
గాలను	-5748
▁2006	-5749
▁ఆశ్ర	-5750
▁కాలి	-5751
▁మర్చి	-5752
▁శీతలీకరణ	-5753
▁రెగ్యులర్	-5754
84	-5755
టె	-5756
స్టన్	-5757
ich	-5758
నైనను	-5759
▁కాఫీ	-5760
▁మేలు	-5761
▁టన్ను	-5762
▁ఆజ్ఞాప	-5763
▁అందించిన	-5764
▁రూపాన్ని	-5765
oz	-5766
ండో	-5767
గలను	-5768
▁గణా	-5769
ించిరి	-5770
ెన్షన్	-5771
మానా	-5772
▁త్ర	-5773
▁అబ్బ	-5774
పూర్వక	-5775
▁కుర్చ	-5776
▁సంఘటన	-5777
▁సమస్యలను	-5778
▁వేగవంతమైన	-5779
ంచే	-5780
తాము	-5781
cript	-5782
▁ఉపయోగాలు	-5783
▁సన్నిధిని	-5784
:21	-5785
▁వేసి	-5786
బ్రిక్	-5787
▁బహిర్	-5788
▁ట్యాగ్	-5789
▁ముక్కలు	-5790
▁శాస్త్రీయ	-5791
▁సౌకర్యవంతమైన	-5792
ెయిర్	-5793
▁వర్ష	-5794
దానిని	-5795
▁న్యాయవా	-5796
▁షర	-5797
▁పంద	-5798
నియన్	-5799
▁అవ్వ	-5800
▁ఆస్తు	-5801
▁నొక్క	-5802
▁మార్క్	-5803
▁ఒంటరిగా	-5804
▁సామర్ధ్యం	-5805
▁బ్యాంకింగ్	-5806
ంత్రం	-5807
▁గోధు	-5808
చీ	-5809
ణ్	-5810
▁ఆకుపచ్చ	-5811
▁స్థిరంగా	-5812
▁ఉక్రెయిన్	-5813
▁ఏవ	-5814
ముమీద	-5815
▁బిగ్	-5816
గురు	-5817
▁కలప	-5818
▁కృషి	-5819
▁సంగీత	-5820
▁ఉపయోగించిన	-5821
/0	-5822
▁3,	-5823
వంగా	-5824
▁ఆదర్శ	-5825
▁గోధుమ	-5826
▁వచ్చారు	-5827
▁కార్యకలాపాలు	-5828
బోయే	-5829
▁కౌన్	-5830
▁స్టె	-5831
▁ఐరోపా	-5832
▁సహకార	-5833
▁వరల్డ్	-5834
▁75	-5835
▁అసి	-5836
▁తొలగి	-5837
▁మొట్ట	-5838
పరుస్తుంది	-5839
▁కమ్యూనిటీ	-5840
తర	-5841
▁(4	-5842
▁జై	-5843
తుకు	-5844
▁ఉంటు	-5845
▁ఆధ్యా	-5846
▁±	-5847
▁FS	-5848
నీవు	-5849
▁Com	-5850
▁EUR	-5851
▁డైన	-5852
▁నిశ్	-5853
వినియోగ	-5854
▁ఆరో	-5855
▁రిఫ	-5856
▁ఆలోచి	-5857
▁వాగ్దా	-5858
▁అపరిమిత	-5859
▁విషయాలను	-5860
▁సెక్యూరిటీ	-5861
గ్న	-5862
▁MS	-5863
స్యం	-5864
▁బబు	-5865
▁డివిడి	-5866
▁ఏమిటంటే	-5867
▁చార్టర్	-5868
▁సాధించడానికి	-5869
ari	-5870
▁పొడ	-5871
▁కింగ్	-5872
▁కార్మి	-5873
▁డేటాను	-5874
▁పెట్టి	-5875
▁నాయకులు	-5876
లారా	-5877
▁మెష్	-5878
▁రూమ్	-5879
ఫికేషన్	-5880
▁డాక్యు	-5881
ఎఫ్	-5882
బెర్	-5883
▁పశువు	-5884
ంటా	-5885
ినల్	-5886
▁ఒకవేళ	-5887
▁అంతస్తు	-5888
27	-5889
▁II	-5890
▁హృద	-5891
కారము	-5892
పడింది	-5893
▁యున్న	-5894
▁కేంద్రం	-5895
▁నియమాలు	-5896
▁ఆధ్యాత్మిక	-5897
స్థల	-5898
జ్ఞాన	-5899
▁ఇలాంటి	-5900
మను	-5901
మాత్ర	-5902
▁థీమ్	-5903
▁శీర్	-5904
గిరీలు	-5905
▁ఒప్పు	-5906
▁లోపలి	-5907
▁మిశ్రమం	-5908
▁సంస్	-5909
▁అవసరాలకు	-5910
▁పట్టింది	-5911
▁తేడా	-5912
ట్లనెను	-5913
▁ఉద్యోగ	-5914
సిపాలిటీ	-5915
▁పరిమితం	-5916
▁గుర్తించ	-5917
old	-5918
పాల్	-5919
▁కనీస	-5920
▁గోత్ర	-5921
▁అందంగా	-5922
▁పరీక్షలు	-5923
ao	-5924
▁సెం	-5925
స్థాన	-5926
▁రాక్	-5927
వుతుంది	-5928
డుగ	-5929
ంటాయి	-5930
▁that	-5931
▁కంటి	-5932
▁పునా	-5933
▁జర్మన్	-5934
▁ప్రతిపా	-5935
▁ఖాతాదారులకు	-5936
డియన్	-5937
రుద్ధ	-5938
రులకు	-5939
▁పెర్	-5940
ధిపతి	-5941
▁ఎక్క	-5942
▁తాడు	-5943
▁విత్త	-5944
▁ఒకటిగా	-5945
▁అడ్మిన్	-5946
▁మృదువైన	-5947
▁అనుకూలీకరించిన	-5948
యేట్	-5949
▁ప్రాధ	-5950
▁సైకిల్	-5951
▁యొద్దకు	-5952
--	-5953
▁నం	-5954
▁App	-5955
▁చేయబడ	-5956
▁GTS	-5957
▁Red	-5958
య్	-5959
పని	-5960
ాయిస్	-5961
క్తులు	-5962
ater	-5963
▁లోక	-5964
▁పాపం	-5965
▁లైవ్	-5966
▁బిల్లు	-5967
▁బయలుదేరి	-5968
▁మార్చడానికి	-5969
కృ	-5970
చా	-5971
▁మూవీ	-5972
▁మెగా	-5973
▁యాంటీ	-5974
▁వ్యాసాలు	-5975
▁అధికారులు	-5976
▁చట్టపరమైన	-5977
▁భవిష్యత్తులో	-5978
▁ప్రారంభించారు	-5979
ys	-5980
Tube	-5981
▁SMS	-5982
▁Word	-5983
▁కార్యా	-5984
▁అబ్బాయి	-5985
▁చివరికి	-5986
▁విధానాలు	-5987
▁మార్కెట్లో	-5988
-9	-5989
▁pl	-5990
డులు	-5991
▁అంచు	-5992
న్నాయి	-5993
▁అమ్ము	-5994
ండునట్లు	-5995
▁క్లాసిక్	-5996
ING	-5997
మైతే	-5998
▁యోగ	-5999
▁పునరా	-6000
త్పత్తి	-6001
▁Orphek	-6002
▁పుస్తకాలు	-6003
తకు	-6004
▁సంస్కృతి	-6005
CS	-6006
కుడి	-6007
▁pcs	-6008
▁చౌక	-6009
▁ద్వీ	-6010
▁ప్రధానమంత్రి	-6011
VD	-6012
నుకూల	-6013
▁కారణాలు	-6014
▁వస్తువుల	-6015
▁ధై	-6016
డ్రో	-6017
▁ఆఫీసు	-6018
▁రోజుకు	-6019
▁దేశాలలో	-6020
▁ప్రారంభమైంది	-6021
జను	-6022
▁lo	-6023
యూమ్	-6024
▁చాలు	-6025
▁సొలొ	-6026
▁స్నేహితుడు	-6027
యిక	-6028
▁పఠ	-6029
ల్లె	-6030
ంప్రదాయ	-6031
▁పెంపుడు	-6032
ితో	-6033
▁Qu	-6034
▁బౌ	-6035
▁పేపర్	-6036
▁విధమైన	-6037
▁స్టేట్	-6038
▁హక్కులు	-6039
డమైనది	-6040
▁మాట్లాడే	-6041
▁సినిమాలు	-6042
",	-6043
ముక	-6044
▁సన్	-6045
Press	-6046
▁సైన్య	-6047
▁గోల్డ్	-6048
▁చేతిలో	-6049
▁వాతావరణం	-6050
▁ప్రభావాలు	-6051
పాయ	-6052
కార్	-6053
మైనా	-6054
▁చము	-6055
DM	-6056
▁ఋ	-6057
నాడు	-6058
▁టూర్	-6059
▁వేరే	-6060
▁సమాన	-6061
▁ఇండియా	-6062
▁పరిమితి	-6063
▁ఇంటర్ఫేస్	-6064
థ్	-6065
ఎల్	-6066
రన్	-6067
▁at	-6068
▁దేశాల	-6069
▁చెప్పే	-6070
▁శీర్షిక	-6071
cc	-6072
▁అరణ్య	-6073
▁కార్యాచరణ	-6074
▁తాత్కాలిక	-6075
▁కార్పొరేట్	-6076
వందల	-6077
రియర్	-6078
▁కామ్	-6079
▁లుక్	-6080
జ్మెంట్	-6081
మాగా	-6082
మెన్	-6083
▁Slo	-6084
▁మనీ	-6085
▁లభి	-6086
ానిష్	-6087
▁క్షే	-6088
▁ఫైలు	-6089
▁ఉన్నది	-6090
▁ప్రాధమిక	-6091
▁కాస్టింగ్	-6092
78	-6093
▁ఏకా	-6094
▁పాడు	-6095
▁మీలో	-6096
▁వాసన	-6097
▁స్లీ	-6098
▁భాషలు	-6099
▁యజమాని	-6100
▁దేవునికి	-6101
▁ఇయర్	-6102
▁హోల్	-6103
▁ఏవైనా	-6104
▁ఒక్కరూ	-6105
▁బట్టలు	-6106
▁ఫేస్బుక్	-6107
76	-6108
▁2005	-6109
▁ఐడియా	-6110
▁పర్యటన	-6111
స్తుందని	-6112
▁సౌందర్య	-6113
▁ఇంజనీరింగ్	-6114
py	-6115
గది	-6116
షియం	-6117
▁పదు	-6118
్యమైన	-6119
▁టవర్	-6120
▁పరుగు	-6121
▁క్రాస్	-6122
▁సేక	-6123
షియల్	-6124
▁అభిన	-6125
▁మీటర్ల	-6126
▁బబులోను	-6127
వేల	-6128
▁ఎడా	-6129
▁అధిపతి	-6130
▁పేరుతో	-6131
▁పత్రాలు	-6132
oun	-6133
▁as	-6134
▁అసో	-6135
▁గడి	-6136
▁కప్ప	-6137
▁కెరీ	-6138
▁దిగి	-6139
▁కూడిన	-6140
▁నిర్వహించ	-6141
▁z	-6142
ock	-6143
▁ఖాత	-6144
▁రచన	-6145
▁క్యూ	-6146
pro	-6147
పిన	-6148
▁నడుచు	-6149
▁నెలలు	-6150
▁పార్ట్	-6151
వాడా	-6152
▁కప్	-6153
▁జను	-6154
▁విఫల	-6155
ప్పుడే	-6156
బోర్డ్	-6157
▁కాగితం	-6158
▁ప్రమోషన్	-6159
▁వ్యాప్తి	-6160
31	-6161
గుల్	-6162
టకును	-6163
▁FX	-6164
▁కాపు	-6165
▁క్రూ	-6166
▁క్షీ	-6167
▁షెన్	-6168
▁ధర్మశాస్త్ర	-6169
ఘ్ర	-6170
▁ఐస్	-6171
చిత్ర	-6172
ిందని	-6173
▁your	-6174
▁లెన్స్	-6175
cl	-6176
భూ	-6177
చివే	-6178
స్టి	-6179
▁కర్మాగా	-6180
▁ఇండస్ట్రీ	-6181
▁పరిశోధకులు	-6182
Hz	-6183
అవు	-6184
ఫార	-6185
ెదరు	-6186
▁info	-6187
▁గడియ	-6188
▁స్కై	-6189
▁చమురు	-6190
▁పనిచేసే	-6191
▁సంస్కరణ	-6192
▁38	-6193
▁త్రి	-6194
పడ్డారు	-6195
▁తెచ్చు	-6196
▁మాట్లాడటం	-6197
▁పరిష్కారాలను	-6198
ory	-6199
uck	-6200
▁తేమ	-6201
▁బెన్	-6202
▁వెల్ల	-6203
▁ఎంపికను	-6204
▁ప్రాముఖ్య	-6205
▁మంత్రిత్వ	-6206
ణు	-6207
▁కాక	-6208
సంబంధ	-6209
▁లాభం	-6210
▁ఆర్ట్	-6211
▁ముప్ప	-6212
▁తెలుసా	-6213
▁లింకులు	-6214
▁కార్పొరేషన్	-6215
▁ఫీడ్	-6216
ింపబడిన	-6217
▁పరిమిత	-6218
▁వెలుగు	-6219
▁అధ్యక్షుడు	-6220
ెవ	-6221
:23	-6222
ృంగా	-6223
▁కృప	-6224
▁పేద	-6225
▁పెన్	-6226
▁కలుపు	-6227
▁విశ్లేష	-6228
▁ప్రయోజనాల	-6229
59	-6230
ానిస	-6231
▁వెద	-6232
obile	-6233
▁కావున	-6234
▁క్లౌడ్	-6235
▁మూసివే	-6236
▁సెక్సీ	-6237
మునుబట్టి	-6238
▁ప్రకారము	-6239
మ్మె	-6240
▁ప్రేక్ష	-6241
▁చనిపోయిన	-6242
▁సాంప్రదాయ	-6243
▁ఆస్ట్రేలియా	-6244
DE	-6245
:30	-6246
ical	-6247
ద్దీ	-6248
్రిడ్	-6249
▁ఇన్స్	-6250
▁ఇబ్బంది	-6251
▁మొదలుకొని	-6252
టను	-6253
▁39	-6254
▁ఉద్	-6255
అన్ని	-6256
▁బెర్	-6257
▁ఎలాంటి	-6258
▁Facebook	-6259
▁తల్లిదండ్రులు	-6260
▁చిం	-6261
▁What	-6262
గానికి	-6263
లిండర్	-6264
▁నిరోధక	-6265
▁యంత్రా	-6266
▁వీటిని	-6267
GB	-6268
▁TR	-6269
చెను	-6270
టిష్	-6271
▁సదు	-6272
▁అంకి	-6273
▁సోషల్	-6274
▁Tablet	-6275
విష	-6276
▁are	-6277
▁శీఘ్ర	-6278
▁కుర్చీ	-6279
▁సందేశం	-6280
▁4,	-6281
load	-6282
గాన్	-6283
▁దహన	-6284
▁అభ్యా	-6285
▁చూడటం	-6286
▁వాహనం	-6287
▁వెలుపల	-6288
న్నిటిని	-6289
▁గ్లోబల్	-6290
ల్ట్	-6291
▁800	-6292
▁ద్రవ	-6293
ఃఖ	-6294
యాల	-6295
▁నకి	-6296
చరులు	-6297
దేమనగా	-6298
లన్	-6299
్యాలను	-6300
▁పెయిం	-6301
▁శాస్త్రవేత్త	-6302
SS	-6303
▁EM	-6304
▁జరిగే	-6305
▁పళ్ళు	-6306
▁యుద్ధము	-6307
▁USA	-6308
▁కెనడా	-6309
▁నమ్మకమైన	-6310
▁కనుగొనండి	-6311
జియా	-6312
ళాలు	-6313
ాయితీ	-6314
▁మాతో	-6315
▁ఉండగా	-6316
▁చేయబడతాయి	-6317
▁క్రీడాకారులు	-6318
ool	-6319
▁21,	-6320
▁దంత	-6321
▁అవార్	-6322
▁అమెజాన్	-6323
.”	-6324
.99	-6325
:24	-6326
వచ్చి	-6327
▁అందులో	-6328
▁టికెట్	-6329
▁భారతీయ	-6330
▁వైద్యు	-6331
▁ఆఫ్రికా	-6332
48	-6333
మాల	-6334
స్టల్	-6335
▁కలయిక	-6336
▁యెరూషలేము	-6337
esh	-6338
కొక	-6339
సెర్	-6340
▁ఎమో	-6341
దింపు	-6342
▁సంపాది	-6343
▁అన్నాడు	-6344
స్ట్రేషన్	-6345
▁జీవితాన్ని	-6346
బ్స్	-6347
స్టార	-6348
▁పంపి	-6349
▁మందం	-6350
▁మాత్రం	-6351
మస్	-6352
atch	-6353
▁బీచ్	-6354
▁వాట్	-6355
▁స్కా	-6356
▁నివారణ	-6357
RE	-6358
▁విజయవంతమైన	-6359
OL	-6360
▁55	-6361
▁చాల	-6362
▁దృశ	-6363
▁లోయ	-6364
టేషన్	-6365
▁ఫ్లై	-6366
▁ఇద్దరు	-6367
ix	-6368
oh	-6369
ంతా	-6370
▁ర్	-6371
▁ఔషధం	-6372
▁కిట్	-6373
▁చోటు	-6374
▁నాటి	-6375
▁స్తం	-6376
గొట్టు	-6377
▁అధిగమ	-6378
▁1.5	-6379
▁దుర	-6380
▁ఫైర్	-6381
▁క్లాస్	-6382
001	-6383
▁చేయలేదు	-6384
▁తీవ్రంగా	-6385
▁కార్యాలయం	-6386
ాలనే	-6387
▁దైవ	-6388
▁దేవా	-6389
▁దాఖలు	-6390
▁సర్క్	-6391
చేందుకు	-6392
▁యూదులు	-6393
▁చేయబడ్డాయి	-6394
దై	-6395
.25	-6396
సుల	-6397
పక్వ	-6398
▁ఆరం	-6399
▁గ్యాల	-6400
▁చీకటి	-6401
ములోనుండి	-6402
▁WordPress	-6403
ేళ	-6404
ంఘై	-6405
▁05	-6406
▁కొను	-6407
▁ఆరోగ్యం	-6408
▁కనుగొంటారు	-6409
CC	-6410
xBet	-6411
రించబడింది	-6412
▁నెమ్మదిగా	-6413
anu	-6414
▁డిఫ	-6415
▁వయో	-6416
గొట్ట	-6417
▁స్క్	-6418
మాన్ని	-6419
▁కొట్ట	-6420
▁చెడ్డ	-6421
▁రిజర్	-6422
▁కొరియా	-6423
▁చేసికొ	-6424
▁స్ట్రా	-6425
▁HP	-6426
ings	-6427
▁0.1	-6428
లేకపో	-6429
▁క్యాల	-6430
▁మొత్తంలో	-6431
▁సిలిండర్	-6432
▁మొట్టమొదటి	-6433
దిన	-6434
వలి	-6435
ండిన	-6436
వుగా	-6437
▁ఆసు	-6438
▁శ్వాస	-6439
▁స్తంభ	-6440
రిస్తారు	-6441
▁డ్రైవింగ్	-6442
క్షే	-6443
▁600	-6444
▁బాస్	-6445
▁సారా	-6446
▁దానిలో	-6447
▁సహకారం	-6448
▁తప్పనిసరిగా	-6449
du	-6450
▁8.	-6451
మర్స్	-6452
▁మెకాని	-6453
▁పోలిస్తే	-6454
లాక్	-6455
ember	-6456
▁ఇంచ్	-6457
▁ఆంధ్ర	-6458
▁ఉత్సా	-6459
పాలిటన్	-6460
▁Casino	-6461
utt	-6462
ండన్	-6463
▁ఖండ	-6464
▁బాగ్	-6465
▁పొందడం	-6466
▁సమ్మేళ	-6467
▁నాయకుడు	-6468
▁ప్రసారం	-6469
▁యుండెను	-6470
▁ఇశ్రాయేలీయులు	-6471
▁విట	-6472
▁వాచ్	-6473
▁అర్ధం	-6474
▁రొట్ట	-6475
▁వెచ్చ	-6476
▁పగడాలు	-6477
▁ఆక్సిజన్	-6478
▁వ్యాయామం	-6479
సెల్	-6480
▁అందం	-6481
త్వాన్ని	-6482
▁చొప్పున	-6483
▁రాజధాని	-6484
▁ఉండకూడదు	-6485
లవ	-6486
▁ఖడ్	-6487
▁ప్రపంచం	-6488
▁వ్యక్తుల	-6489
BS	-6490
ue	-6491
ప్యాడ్	-6492
▁రచనలు	-6493
▁తీసుకోవాలని	-6494
PE	-6495
దేవు	-6496
ఫోర్	-6497
మర్శ	-6498
శాలలో	-6499
▁వాటా	-6500
▁ఆఫర్లు	-6501
▁బూట్లు	-6502
▁పాల్గొనే	-6503
▁అనువాదం	-6504
▁ప్రచురణ	-6505
05	-6506
:25	-6507
▁ధా	-6508
coin	-6509
▁లెస్బియన్	-6510
und	-6511
పట్ట	-6512
ూర్తి	-6513
▁చెంద	-6514
▁గడువు	-6515
▁భక్తి	-6516
▁ప్రెసి	-6517
▁మూసివేయ	-6518
af	-6519
▁ఇర	-6520
▁యొ	-6521
ears	-6522
టనలు	-6523
▁అశ్	-6524
కుడైన	-6525
ించదు	-6526
ెండర్	-6527
▁డ్రాయ	-6528
▁డ్రాప్	-6529
లని	-6530
పిక్	-6531
▁పొల	-6532
▁నకిలీ	-6533
▁విధులు	-6534
▁రెస్టార	-6535
▁సమావేశం	-6536
▁రక్షించడానికి	-6537
▁స్థాపించబడింది	-6538
ంలోకి	-6539
▁వివే	-6540
వచ్చును	-6541
▁నిర్వచ	-6542
▁సాయంత్రం	-6543
షీ	-6544
ons	-6545
దేశ్	-6546
యనగా	-6547
▁స్తు	-6548
▁ఆకృతీకరణ	-6549
▁బిల్డింగ్	-6550
్రెడ్	-6551
▁హింస	-6552
▁అయ్యే	-6553
▁విరోధ	-6554
▁జంతువు	-6555
▁ప్రసార	-6556
▁అంగుళాల	-6557
▁ఉన్నాడు	-6558
కునేందుకు	-6559
బూ	-6560
over	-6561
▁దోహ	-6562
▁తెరు	-6563
▁ఫౌండ	-6564
▁వాషింగ్	-6565
▁వాక్యూమ్	-6566
▁ఆక్వేరియం	-6567
ళా	-6568
ండుట	-6569
▁HDB	-6570
▁మేరీ	-6571
క్షత్ర	-6572
▁ఇవ్వండి	-6573
▁బహిర్గతం	-6574
▁సెన్సార్	-6575
▁చేయటానికి	-6576
ss	-6577
ions	-6578
క్లో	-6579
▁స్న	-6580
▁మెంట్	-6581
▁సస్పెండ్	-6582
కాయ	-6583
▁37	-6584
టబుల్	-6585
ానించ	-6586
▁టేప్	-6587
▁లెడ్	-6588
▁పోయిన	-6589
▁క్లిప్	-6590
▁వీరిలో	-6591
▁చూస్తారు	-6592
▁విద్యార్	-6593
▁స్ట్రింగ్	-6594
RP	-6595
ax	-6596
300	-6597
ush	-6598
▁ధ్రు	-6599
క్వెన్సీ	-6600
హిక	-6601
బిట్	-6602
క్షలు	-6603
▁పీటర్	-6604
▁రోజున	-6605
▁చేసుకో	-6606
▁క్లిష్టమైన	-6607
▁సంవత్సరాలలో	-6608
▁మెట్రోపాలిటన్	-6609
47	-6610
చిక	-6611
లకును	-6612
ించడంలో	-6613
▁సూచనలు	-6614
lim	-6615
osit	-6616
టాలు	-6617
ipper	-6618
షియన్	-6619
్యంతో	-6620
▁సిలి	-6621
▁అన్వేష	-6622
▁నివసిస్తున్నారు	-6623
టేట్	-6624
▁భుజ	-6625
▁స్మ	-6626
లేదని	-6627
▁ఫిట్	-6628
▁సెంట	-6629
సాఫ్ట్	-6630
▁అతన్ని	-6631
▁అయినను	-6632
▁కోర్సులు	-6633
▁వెంట్రుక	-6634
▁సమయాన్ని	-6635
▁సంవత్సరానికి	-6636
ya	-6637
ధుల	-6638
▁99	-6639
▁FM	-6640
▁సిల్	-6641
▁గమనిక	-6642
చొప్పున	-6643
▁ఆర్ధిక	-6644
QL	-6645
▁నౌ	-6646
▁సౌలభ	-6647
▁ఎదుర్	-6648
▁HDBuzz	-6649
▁కూర్పు	-6650
▁పేజీలో	-6651
▁షెడ్యూల్	-6652
66	-6653
క్య	-6654
▁తరచూ	-6655
▁షోర్	-6656
▁అప్డే	-6657
HE	-6658
.20	-6659
మితి	-6660
మోట్	-6661
▁(200	-6662
▁ఇకపై	-6663
▁తారా	-6664
▁దుఃఖ	-6665
▁వుడ్	-6666
▁గదిలో	-6667
▁డొమైన్	-6668
▁పిల్లలకు	-6669
erv	-6670
▁చై	-6671
▁అడగండి	-6672
▁వాటికి	-6673
▁Cl	-6674
చువల్	-6675
▁చూసే	-6676
▁షవర్	-6677
▁టర్కీ	-6678
▁ఏలయనగా	-6679
▁తీసుకోవాలి	-6680
▁ఆరోగ్యకరమైన	-6681
▁OS	-6682
▁భ్ర	-6683
ించని	-6684
▁అందరూ	-6685
▁క్లబ్	-6686
▁సాధ్యమైన	-6687
▁సొల్యూషన్	-6688
▁యూనివర్సిటీ	-6689
ేజ్	-6690
నందు	-6691
▁మెక్	-6692
పోయాడు	-6693
లాన్ని	-6694
▁ఫర్ని	-6695
▁షెన్జెన్	-6696
గల్	-6697
ముగల	-6698
▁ఉల్ల	-6699
▁ఉండెను	-6700
▁శిష్యు	-6701
pcs	-6702
త్తడి	-6703
▁చివరకు	-6704
లీల	-6705
త్యం	-6706
రాదు	-6707
వారై	-6708
్రిమ	-6709
▁ఒకరి	-6710
▁సర్వ్	-6711
▁కెరీర్	-6712
▁యజమాను	-6713
▁ఫౌండేషన్	-6714
▁ఆర్కైవ్స్	-6715
▁వినడానికి	-6716
▁దారితీసింది	-6717
▁ఆశిస్తున్నాము	-6718
ANS	-6719
లైన్	-6720
▁రెడీ	-6721
▁దేశీయ	-6722
▁చెయ్యి	-6723
▁ప్రచారం	-6724
హై	-6725
les	-6726
▁CD	-6727
రేజ్	-6728
లైట్	-6729
రిగిన	-6730
▁కాదని	-6731
▁మాంసం	-6732
▁తీర్చు	-6733
▁సొలొమోను	-6734
▁గెలుచుకున్న	-6735
ei	-6736
:26	-6737
డమే	-6738
▁65	-6739
▁iOS	-6740
ింపజే	-6741
▁టెర్మ	-6742
▁మార్గంలో	-6743
▁తొలగించడానికి	-6744
OT	-6745
భాగం	-6746
▁సంభ	-6747
కాలము	-6748
▁ఆరంభ	-6749
▁ట్యాం	-6750
▁ఫ్లాష్	-6751
▁సిగ్గు	-6752
▁యూనియన్	-6753
▁బెట్టింగ్	-6754
▁విమానాశ్రయం	-6755
eh	-6756
డను	-6757
ట్రి	-6758
▁ఎఫ్	-6759
▁నలు	-6760
ెట్స్	-6761
▁జాతి	-6762
▁రంగా	-6763
▁లోపం	-6764
▁విను	-6765
▁ప్రారంభించండి	-6766
="7	-6767
▁అంశాల	-6768
నిరోధిత	-6769
▁కొట్టి	-6770
▁విగ్రహ	-6771
▁తండ్రియ	-6772
▁హెచ్చరిక	-6773
▁పరిశ్రమలో	-6774
zh	-6775
వయ	-6776
▁రథ	-6777
▁లగ్	-6778
▁వన్	-6779
▁చందా	-6780
▁కేటాయ	-6781
▁రిమోట్	-6782
▁చేస్తున్నాము	-6783
▁ఫ్రీక్వెన్సీ	-6784
__	-6785
▁PDF	-6786
▁....	-6787
▁ట్వి	-6788
▁ఉప్పు	-6789
▁ముందుగానే	-6790
▁ప్రారంభించింది	-6791
▁గై	-6792
▁గుణ	-6793
మీదను	-6794
▁ఆటలు	-6795
▁రుసు	-6796
▁కప్పు	-6797
▁తట్టు	-6798
▁సంతకం	-6799
▁చేసారు	-6800
▁ట్రేడ్	-6801
▁దుష్ప్రభావ	-6802
▁నిర్మించడానికి	-6803
,"	-6804
ifi	-6805
▁షాంఘై	-6806
▁ప్రశంస	-6807
cription	-6808
శాస్త్రం	-6809
▁మారుతుంది	-6810
కోయి	-6811
విటీ	-6812
▁etc	-6813
▁అబీ	-6814
▁తిం	-6815
▁cont	-6816
▁ఎత్త	-6817
▁హత్య	-6818
ఇప్పుడు	-6819
▁చేయగలరు	-6820
▁జరిమానా	-6821
▁వీడియోలను	-6822
▁హార్డ్వేర్	-6823
▁దారితీస్తుంది	-6824
ంశం	-6825
▁షెల్	-6826
తాన్ని	-6827
▁ఆప్టి	-6828
▁భోజనం	-6829
మెంట్స్	-6830
41	-6831
డ్లు	-6832
బోవు	-6833
▁నియా	-6834
▁రాయి	-6835
▁ఇచ్చి	-6836
▁ఇచ్చే	-6837
▁మహిళా	-6838
▁మిలియన్ల	-6839
▁స్క్రిప్	-6840
నైనా	-6841
పన్న	-6842
▁చివర	-6843
▁డీలర్	-6844
-15	-6845
పము	-6846
▁కోర	-6847
▁మూర	-6848
▁కావాలి	-6849
▁పోర్న్	-6850
▁నిజాయితీ	-6851
▁ఫర్నిచర్	-6852
ign	-6853
man	-6854
▁బోధన	-6855
▁కృత్రిమ	-6856
▁తెలుసుకోవ	-6857
హాను	-6858
▁ఒకరు	-6859
న్నియు	-6860
▁స్క్రూ	-6861
▁చేయాలను	-6862
▁జలనిరోధిత	-6863
వాతి	-6864
▁చూపి	-6865
▁పఠనం	-6866
▁విధి	-6867
▁కండరాల	-6868
▁పితరుల	-6869
▁అధికంగా	-6870
▁మొత్తాన్ని	-6871
▁మేనేజ్మెంట్	-6872
▁స్మార్ట్ఫోన్	-6873
bo	-6874
్మ	-6875
eed	-6876
iff	-6877
▁Am	-6878
▁మెన్	-6879
▁ధ్రువ	-6880
▁గ్రాఫి	-6881
▁దినములు	-6882
▁చేసుకోండి	-6883
గవ	-6884
శయ	-6885
▁కెపా	-6886
▁తోడు	-6887
మ్ములు	-6888
▁నిషేధ	-6889
క్రవారం	-6890
▁ప్రక్క	-6891
▁మహిళలకు	-6892
▁ఇంటర్వ్యూ	-6893
▁వెళ్ళడానికి	-6894
SM	-6895
▁ఆమ్	-6896
ంటైన్	-6897
సమ	-6898
మాట	-6899
నిర్మ	-6900
▁తేనె	-6901
▁పానీ	-6902
వానికి	-6903
▁అబద్ధ	-6904
▁పరిణా	-6905
▁నక్షత్ర	-6906
▁స్కూటర్	-6907
▁ఇట్లనెను	-6908
▁చూపిస్తుంది	-6909
▁వర్తిస్తుంది	-6910
▁PCB	-6911
దీర్ఘ	-6912
▁ధ్యా	-6913
▁ఇన్సు	-6914
▁గదులు	-6915
▁క్రషర్	-6916
▁ఛార్జ్	-6917
▁YouTube	-6918
▁పరికరాల	-6919
▁నమూనాలను	-6920
▁నిర్ధారణ	-6921
▁విజయవంతంగా	-6922
విగా	-6923
▁లవ్	-6924
▁Inst	-6925
▁అంతా	-6926
▁జూదం	-6927
▁పరలోక	-6928
▁క్రియాశీల	-6929
▁కొనసాగుతుంది	-6930
మండ	-6931
▁వధ	-6932
య్యా	-6933
▁ముక్క	-6934
▁ఉత్పాద	-6935
▁చూసింది	-6936
▁చేయుటకు	-6937
▁ఎంచుకున్న	-6938
▁డిస్కౌంట్	-6939
▁తగ్గించడానికి	-6940
సుగు	-6941
▁123	-6942
▁Mic	-6943
▁Vess	-6944
▁పెరగ	-6945
▁సారి	-6946
▁గౌరవం	-6947
▁పోరాడ	-6948
▁బాలిక	-6949
▁నగరంలో	-6950
▁ఎంచుకోవడం	-6951
ux	-6952
ace	-6953
▁Live	-6954
▁వృద్ధ	-6955
▁సువాస	-6956
▁కంప్రె	-6957
▁ప్రేరణ	-6958
▁Vessoft	-6959
▁విన్	-6960
ీకరించు	-6961
▁అప్డేట్	-6962
▁ఉందా	-6963
▁కాగా	-6964
▁జేమ్స్	-6965
▁ఆకర్షణీయమైన	-6966
బై	-6967
ime	-6968
ited	-6969
▁ago	-6970
▁ఆశీర్	-6971
▁చేస్తు	-6972
▁వంటివి	-6973
▁తీసుకోండి	-6974
61	-6975
▁64	-6976
▁us	-6977
పులు	-6978
శాంత	-6979
▁పీడ	-6980
▁News	-6981
▁టైమ్	-6982
▁బూడిద	-6983
▁మీటర్	-6984
▁విశేష	-6985
▁సింహా	-6986
▁చిత్రాలను	-6987
కోసం	-6988
జాక్	-6989
ింక్	-6990
▁వసూ	-6991
▁మరమ్మ	-6992
కున్నాను	-6993
మగు	-6994
ransp	-6995
ువులు	-6996
▁సరదా	-6997
▁ఆమెకు	-6998
▁అహరోను	-6999
▁Comment	-7000
▁యూనిట్లు	-7001
▁చెల్లింపులు	-7002
▁తగ్గిస్తుంది	-7003
ాం	-7004
మూల	-7005
ణంలో	-7006
▁ఫరో	-7007
మానము	-7008
▁ఆయుధ	-7009
▁ఆహ్వ	-7010
▁చూచిన	-7011
▁ద్వార	-7012
▁అశ్లీల	-7013
▁అక్షరాలు	-7014
▁మొదటిసారి	-7015
డమ్	-7016
▁ఆలక	-7017
▁దశలో	-7018
▁కలుసు	-7019
▁క్రష్	-7020
కయు	-7021
▁AM	-7022
డుపు	-7023
▁మేఘ	-7024
పిటల్	-7025
▁లండన్	-7026
▁రహదారి	-7027
▁ఉత్తమమైన	-7028
▁గ్రామంలో	-7029
▁డిస్ప్లే	-7030
IF	-7031
▁వం	-7032
తెలు	-7033
▁తనఖా	-7034
▁నాన్	-7035
▁ఫారం	-7036
▁శీతా	-7037
వ్వులు	-7038
▁ఆవిరి	-7039
▁తొడుగు	-7040
సిం	-7041
▁(_	-7042
▁Des	-7043
▁చూసి	-7044
▁నోరు	-7045
జ్ఞానం	-7046
▁తగ్గు	-7047
▁ఉల్లంఘ	-7048
▁పంపండి	-7049
▁మాదిరిగా	-7050
▁రికార్డ్	-7051
ingd	-7052
ప్రే	-7053
▁act	-7054
agram	-7055
యాల్లో	-7056
▁తీర్చ	-7057
▁లాంటి	-7058
▁Videos	-7059
▁ట్రాకింగ్	-7060
▁గుర్తించడానికి	-7061
▁నీటిని	-7062
▁పదార్ధ	-7063
▁ప్రయోజన	-7064
టికీ	-7065
▁అగ్ర	-7066
▁నిమిషాలు	-7067
▁ఉద్యోగులు	-7068
▁పెయింటింగ్	-7069
▁నను	-7070
▁మంజ	-7071
▁చెప్పడం	-7072
▁పిల్లలను	-7073
ెంగ	-7074
▁9.	-7075
క్సి	-7076
▁gif	-7077
▁దూత	-7078
▁నేర	-7079
▁ఆకలి	-7080
▁తోలు	-7081
▁ముంద	-7082
▁స్టో	-7083
▁విడిప	-7084
చేస్తుంది	-7085
▁సృజనాత్మక	-7086
The	-7087
▁ధో	-7088
▁బయో	-7089
కొత్త	-7090
▁Porn	-7091
▁స్నేహ	-7092
▁రెండిం	-7093
▁కుమారుని	-7094
▁ప్రతిబింబ	-7095
▁సర్క్యూట్	-7096
ge	-7097
▁UV	-7098
టులు	-7099
▁నోటీ	-7100
▁పూల్	-7101
▁మించి	-7102
▁గూగుల్	-7103
▁ప్లగ్ఇన్	-7104
సరి	-7105
▁ID	-7106
▁SD	-7107
▁హాస్	-7108
▁పండ్లు	-7109
▁ఆదేశాలు	-7110
▁గ్రాడ్యు	-7111
▁దొరకలేదు	-7112
▁సురక్షితమైన	-7113
జిన	-7114
▁దేవాల	-7115
▁బుద్ధి	-7116
▁సోదరుడు	-7117
▁కూర్చుని	-7118
▁ప్రింటింగ్	-7119
OM	-7120
SP	-7121
ంపి	-7122
▁04	-7123
దుగా	-7124
▁0.5	-7125
▁ఆర్కి	-7126
▁పక్కన	-7127
▁లగ్జరీ	-7128
▁సమానంగా	-7129
దీశీ	-7130
▁Con	-7131
పేక్ష	-7132
్రియా	-7133
▁గేట్	-7134
▁సైనిక	-7135
▁వ్యవస్థను	-7136
OW	-7137
sp	-7138
టిట్	-7139
▁220	-7140
▁లతో	-7141
ట్టర్	-7142
పింగ్	-7143
▁చేరి	-7144
▁మోయా	-7145
▁లేదని	-7146
▁సానుకూల	-7147
▁జోడించండి	-7148
▁ఎంచుకోవచ్చు	-7149
▁నిర్వహించడం	-7150
▁ప్రకాశవంతమైన	-7151
యీ	-7152
▁గూఢ	-7153
ించగల	-7154
▁విందు	-7155
మునకును	-7156
▁దానితో	-7157
▁సంక్లి	-7158
▁సంభావ్య	-7159
▁స్థాయిలు	-7160
▁విశ్వవిద్యాలయ	-7161
rav	-7162
ron	-7163
▁ఎగువ	-7164
▁ఫ్యూ	-7165
▁బ్లే	-7166
▁యింటి	-7167
▁అంతేకాక	-7168
-12	-7169
బాద్	-7170
▁మతం	-7171
్రోను	-7172
▁అలవా	-7173
యోనేట్	-7174
▁ఆంగ్ల	-7175
▁ఆస్వా	-7176
న్నాడని	-7177
▁అప్పుడ	-7178
▁లైట్లు	-7179
▁ప్రయాణీ	-7180
▁మినహాయింపు	-7181
అప్	-7182
▁42	-7183
్యార	-7184
▁ఏడా	-7185
▁టైల్	-7186
▁ఉచితం	-7187
▁పనిని	-7188
▁సమాధి	-7189
▁నిలబడి	-7190
▁విదీశీ	-7191
▁స్క్రా	-7192
▁మొక్కలు	-7193
:27	-7194
iss	-7195
బాయ్	-7196
్రల్	-7197
▁ఎండ్	-7198
ములును	-7199
వాడును	-7200
▁ఉత్తే	-7201
▁నిశ్శ	-7202
▁మిషన్	-7203
▁వైరస్	-7204
▁వానిని	-7205
▁ప్రేరేప	-7206
▁చేస్తాను	-7207
▁పద్ధతిలో	-7208
డిల్	-7209
▁ముగ	-7210
▁సంచు	-7211
▁మన్ని	-7212
▁మేకప్	-7213
▁తరం	-7214
▁మాజీ	-7215
▁బానిస	-7216
▁సరిగా	-7217
▁వారంటీ	-7218
▁ప్రవర్త	-7219
▁వైర్లెస్	-7220
ఫె	-7221
నియ	-7222
లియ	-7223
▁08	-7224
▁ఉపయోగకరమైన	-7225
బది	-7226
కంటె	-7227
▁ఆడు	-7228
శక్తి	-7229
▁ఇంక్	-7230
▁కథలు	-7231
▁వయసు	-7232
▁శబ్ద	-7233
▁పట్టణం	-7234
▁ఆప్టిమై	-7235
▁ప్లాస్మా	-7236
యిడ్	-7237
లతోను	-7238
ళ్ళను	-7239
▁సంతాన	-7240
▁స్లీవ్	-7241
▁ఫోల్డర్	-7242
TF	-7243
37"&	-7244
▁సప్	-7245
వారును	-7246
▁గుమ్మ	-7247
▁పురోగ	-7248
▁సున్న	-7249
▁చెల్లు	-7250
▁ట్రైలర్	-7251
▁నిర్దేశ	-7252
▁మాటలాడు	-7253
▁హక్కులూ	-7254
హిస్తుంది	-7255
li	-7256
ake	-7257
▁AT	-7258
▁రక్	-7259
▁ఐరన్	-7260
▁కనెను	-7261
▁5,	-7262
▁నమ	-7263
పరచి	-7264
▁(2)	-7265
రింపు	-7266
్యంలో	-7267
▁name	-7268
ముగాను	-7269
యున్నాను	-7270
▁పురుషుడు	-7271
▁ప్రయత్నం	-7272
ins	-7273
▁PP	-7274
ణువు	-7275
ష్టవ	-7276
సంగ్	-7277
▁దృఢ	-7278
▁బ్రె	-7279
▁రోగి	-7280
▁లాంగ్	-7281
▁ఉపాధ్యా	-7282
▁సభ్యుడు	-7283
▁అభ్యర్థన	-7284
▁డైరెక్టర్	-7285
87	-7286
రుడు	-7287
▁డయా	-7288
▁సోమ	-7289
ల్లులు	-7290
హాన్ని	-7291
▁గుంపు	-7292
▁జస్ట్	-7293
▁మానిటర్	-7294
▁చిత్రాన్ని	-7295
IV	-7296
తక	-7297
emo	-7298
▁హోట	-7299
గులను	-7300
▁సాగు	-7301
▁క్షీణ	-7302
▁ఫ్లోర్	-7303
▁లాభదాయ	-7304
▁అబ్రాహా	-7305
▁ఈజిప్ట్	-7306
▁గట్టిగా	-7307
▁వచ్చిరి	-7308
▁కౌన్సిల్	-7309
▁వ్యవస్థకు	-7310
▁సర్టిఫికేట్	-7311
46	-7312
ty	-7313
క్ల	-7314
రకం	-7315
ష్ష	-7316
▁SE	-7317
ప్యత	-7318
స్కో	-7319
▁(1)	-7320
▁Mar	-7321
▁బిం	-7322
▁అసహ్య	-7323
▁ఉంచడం	-7324
▁లక్షల	-7325
▁సాహిత	-7326
▁మంజూరు	-7327
▁యోసేపు	-7328
▁జనరేటర్	-7329
రించవచ్చు	-7330
▁వ్యాఖ్యా	-7331
▁యంత్రాంగం	-7332
▁భావిస్తారు	-7333
OD	-7334
igh	-7335
▁(3	-7336
▁CR	-7337
▁నగరాలు	-7338
యున్నాడు	-7339
▁సుదీర్ఘ	-7340
తృ	-7341
పుల్	-7342
▁Hack	-7343
▁తిని	-7344
▁నియామ	-7345
▁ఇటీవలి	-7346
▁చట్టాలు	-7347
▁ట్రస్ట్	-7348
▁చేసేందుకు	-7349
▁మైక్రోసాఫ్ట్	-7350
NUM	-7351
▁ఎంట	-7352
కర్షణ	-7353
ాక్ట్	-7354
▁గణాం	-7355
▁గోప్యత	-7356
▁వాస్తవం	-7357
▁శరీరంలో	-7358
▁వివరాలను	-7359
St	-7360
హూ	-7361
ుని	-7362
యాల్	-7363
లిటీ	-7364
▁దీవ	-7365
▁సీటు	-7366
▁అట్టి	-7367
▁విద్యార్థి	-7368
:28	-7369
జ్డ్	-7370
టిస్	-7371
▁కొలత	-7372
▁గులా	-7373
▁టీన్	-7374
▁రిలే	-7375
▁ఆకారం	-7376
▁మట్టి	-7377
చ్చింది	-7378
▁కీర్తన	-7379
▁నీళ్లు	-7380
▁వానికి	-7381
▁పాల్గొన	-7382
▁స్పందించ	-7383
▁బ్యాంకులు	-7384
షియా	-7385
▁(19	-7386
▁నర్	-7387
మ్మని	-7388
▁పరస్	-7389
▁బాక్	-7390
▁ముస్	-7391
▁ద్వేష	-7392
▁క్లారి	-7393
▁పెరిగిన	-7394
▁సిలికాన్	-7395
▁బేరింగ్లు	-7396
▁స్ప్రింగ్	-7397
ధ్	-7398
ినా	-7399
talk	-7400
▁వంత	-7401
యెదుట	-7402
▁యాదృ	-7403
త్తులు	-7404
▁Whats	-7405
▁ఉండును	-7406
▁ముద్రణ	-7407
▁వంటగది	-7408
▁క్రమంగా	-7409
▁దేశమును	-7410
▁ధృవీకరణ	-7411
▁సార్కోయి	-7412
▁క్యాలెండర్	-7413
▁మునిసిపాలిటీ	-7414
థా	-7415
తువు	-7416
దాను	-7417
▁కృష్ణ	-7418
▁రికవరీ	-7419
▁మర్చిపో	-7420
ించినట్లు	-7421
▁తినడానికి	-7422
▁కనిపిస్తాయి	-7423
స్తున్నప్పుడు	-7424
గణం	-7425
రమి	-7426
▁2)	-7427
ర్మీ	-7428
▁చేయుచు	-7429
▁యెరూషలేములో	-7430
82	-7431
ోను	-7432
▁06	-7433
▁09	-7434
త్రూ	-7435
బారిక్	-7436
▁గ్రేట్	-7437
▁విస్తరణ	-7438
pr	-7439
ఉదా	-7440
▁నీతో	-7441
కారుడు	-7442
▁దేశము	-7443
▁భాగాల	-7444
▁కొంచెం	-7445
▁నీతిమం	-7446
▁వాయిద్య	-7447
▁అబ్బాయిలు	-7448
▁సందేశాలను	-7449
);	-7450
BC	-7451
యవ	-7452
bet	-7453
కాల్	-7454
గిరి	-7455
చ్చే	-7456
ప్రెస్	-7457
▁సూర్య	-7458
▁చాంబర్	-7459
▁రబ్బర్	-7460
▁సంరక్ష	-7461
▁వాస్తవిక	-7462
▁ప్రభావాన్ని	-7463
riv	-7464
▁SS	-7465
స్థాయి	-7466
▁మెషీన్	-7467
▁మ్యూజిక్	-7468
▁శారీ	-7469
▁కదలిక	-7470
▁ఇస్తాం	-7471
▁చెప్పింది	-7472
▁భారతదేశంలో	-7473
MM	-7474
RL	-7475
▁భుజం	-7476
▁మైదా	-7477
▁స్కి	-7478
▁ప్రాచు	-7479
▁ఉండాలని	-7480
by	-7481
app	-7482
మంద	-7483
వుడ్	-7484
▁మెడ	-7485
elect	-7486
▁కోణం	-7487
▁years	-7488
▁సంవత్స	-7489
▁వర్తించే	-7490
▁ప్రయోగాలు	-7491
యోను	-7492
ద్దాం	-7493
బెట్ట	-7494
▁ఇరవై	-7495
▁వాళ్ళ	-7496
▁హోండా	-7497
▁ప్రయోగం	-7498
▁స్టిక్కర్లు	-7499
▁FSX	-7500
▁వంద	-7501
▁స్ల	-7502
▁తారాగణం	-7503
▁నెలవారీ	-7504
▁క్లారినెట్	-7505
▁సరిపోతుంది	-7506
ft	-7507
లప	-7508
red	-7509
▁9,	-7510
▁IN	-7511
▁RF	-7512
▁రోగ	-7513
-2018	-7514
▁దావా	-7515
▁కుక్క	-7516
▁పశ్చి	-7517
▁ఇరువది	-7518
▁థ్రెడ్	-7519
▁భూమిని	-7520
▁హౌసింగ్	-7521
▁ప్రోటీన్	-7522
▁చేసుకున్న	-7523
▁నిర్మించారు	-7524
సమైన	-7525
ించాను	-7526
▁కాండీ	-7527
▁ఆగష్టు	-7528
▁విరుద్ధ	-7529
▁గ్రాఫిక్స్	-7530
▁టెస్టోస్టెరోన్	-7531
▁మెరుగుపరచడానికి	-7532
▁సార	-7533
రులతో	-7534
▁అనిప	-7535
▁ఒకని	-7536
▁కొలి	-7537
▁చూడు	-7538
▁షాప్	-7539
▁చెంది	-7540
▁పరంగా	-7541
▁కట్టర్	-7542
▁మోటారు	-7543
▁యిర్మీ	-7544
▁సూర్యుడు	-7545
▁యంత్రాన్ని	-7546
▁సంవత్సరాలుగా	-7547
(_	-7548
▁Free	-7549
గ్రేడ్	-7550
ాలియన్	-7551
▁మిక్స	-7552
▁హ్యాపీ	-7553
కలి	-7554
▁కం	-7555
▁ఆరాధ	-7556
▁ఎన్నో	-7557
▁తెలంగా	-7558
▁తీసుకురా	-7559
.01	-7560
▁6,	-7561
▁కై	-7562
▁19,	-7563
▁అల్ల	-7564
▁ఇతడు	-7565
▁జోన్	-7566
▁ఫ్లూ	-7567
▁భయపడ	-7568
▁నెలలో	-7569
▁విమర్శ	-7570
▁తెలుపుము	-7571
▁అందుకున్న	-7572
▁నిశ్చయముగా	-7573
▁సాధ్యమైనంత	-7574
we	-7575
▁DR	-7576
▁నివేది	-7577
▁స్ట్రి	-7578
▁ప్రాజెక్టులు	-7579
ఢి	-7580
▁1)	-7581
కుంటాడు	-7582
▁లక్షణం	-7583
▁వినండి	-7584
ransposh	-7585
▁పరిధిలో	-7586
▁వర్గీకరించ	-7587
ars	-7588
ole	-7589
ond	-7590
▁నాగ	-7591
సులను	-7592
▁స్కీ	-7593
▁గ్యాలరీ	-7594
▁ఫ్రెండ్	-7595
▁క్వాలిటీ	-7596
▁నడుస్తున్న	-7597
▁సార్కోయిడో	-7598
▁చేసుకోవడానికి	-7599
62	-7600
వంతు	-7601
సెదను	-7602
▁కేస్	-7603
▁మరియ	-7604
▁ఏర్పా	-7605
▁కలిసే	-7606
▁గుడార	-7607
▁రంగుల	-7608
▁ఫిల్టర్	-7609
▁అనుకుంటే	-7610
షన	-7611
ంకా	-7612
▁an	-7613
జియం	-7614
▁కూడి	-7615
▁తెలియని	-7616
▁కార్యకలాప	-7617
▁అందిస్తాయి	-7618
▁వ్యాపారాలు	-7619
తరం	-7620
71"&	-7621
▁(1,	-7622
త్వము	-7623
పత్రి	-7624
పరంగా	-7625
▁పట్ల	-7626
▁వేయు	-7627
నేషనల్	-7628
▁పునాది	-7629
▁బడ్జెట్	-7630
▁పొందటానికి	-7631
-01	-7632
▁7,	-7633
▁ఉపశ	-7634
▁ధోరణ	-7635
▁నాణే	-7636
▁పరిసర	-7637
▁కాల్స్	-7638
కపోవచ్చు	-7639
▁పెట్టుబడు	-7640
▁అనుభవాన్ని	-7641
▁సందేశాన్ని	-7642
షువ	-7643
ద్రం	-7644
▁2.5	-7645
జెక్ట్	-7646
▁అభిరు	-7647
▁శృంగా	-7648
▁ప్రశాంత	-7649
▁ఇస్తాంబుల్	-7650
44	-7651
ంతం	-7652
67"&	-7653
ాయలు	-7654
ering	-7655
▁కలలు	-7656
rosoft	-7657
▁ఉత్తేజ	-7658
▁హంటింగ్	-7659
.75	-7660
కంప	-7661
▁Fl	-7662
▁ad	-7663
▁le	-7664
▁కాట	-7665
▁పెద	-7666
▁నికర	-7667
▁సెర్	-7668
▁నొక్కి	-7669
▁వివరణాత్మక	-7670
ించుకోవడమైనది	-7671
Coin	-7672
జ్యం	-7673
చర్యం	-7674
▁నావి	-7675
▁అక్షర	-7676
▁రోబోట్	-7677
▁సందర్భా	-7678
▁సేకరించిన	-7679
▁ప్రకటించింది	-7680
chn	-7681
rol	-7682
▁యాం	-7683
▁తీపి	-7684
▁వసతి	-7685
▁సాయం	-7686
ష్టవశా	-7687
▁ఆలాగు	-7688
▁విచ్ఛ	-7689
▁కార్టూ	-7690
81	-7691
ION	-7692
▁07	-7693
▁వశ	-7694
టంలో	-7695
▁జీవి	-7696
▁బంతి	-7697
▁హతము	-7698
▁లోబడి	-7699
ాలిక్యు	-7700
▁ఖాతాను	-7701
▁మమ్మును	-7702
▁స్వాస్థ్య	-7703
NA	-7704
▁Hol	-7705
న్నాం	-7706
▁ఉపదేశ	-7707
▁Mobile	-7708
కాంక్షలు	-7709
▁ఎంచుకోవడానికి	-7710
CH	-7711
ays	-7712
▁వూ	-7713
onus	-7714
వాడై	-7715
ికల్	-7716
▁ఎర్ర	-7717
▁పండుగ	-7718
▁నిలుపు	-7719
▁వ్యత్యా	-7720
▁ఉపయోగకరంగా	-7721
▁పంపిణీదారుల	-7722
-7	-7723
OP	-7724
-19	-7725
▁ఎలీ	-7726
▁మాన్	-7727
▁వేలం	-7728
▁శామ్	-7729
▁శుభా	-7730
▁క్రీమ్	-7731
▁డైరెక్	-7732
▁రాబోయే	-7733
▁తెస్తుంది	-7734
me	-7735
▁ఆయ	-7736
▁హెబ	-7737
గ్రహం	-7738
స్ట్ర	-7739
▁గొలు	-7740
▁సిగ్	-7741
▁గడ్డి	-7742
▁పొదుపు	-7743
▁చట్టబద్ధ	-7744
▁యిర్మీయా	-7745
▁ఆస్వాదించ	-7746
▁ఇన్స్టిట్	-7747
▁ఉత్పత్తిని	-7748
▁హంటింగ్టన్	-7749
ran	-7750
యుని	-7751
irect	-7752
యులలో	-7753
▁ద్వం	-7754
▁సులు	-7755
క్లింగ్	-7756
▁చేతితో	-7757
▁చేర్చు	-7758
▁దానిపై	-7759
▁రుణాలు	-7760
▁ప్రవాహం	-7761
▁భాగాలను	-7762
▁చరిత్రలో	-7763
తని	-7764
▁OF	-7765
▁పంచ	-7766
▁సాహ	-7767
షన్స్	-7768
▁2004	-7769
▁కీడు	-7770
▁పిన్	-7771
▁బైట్	-7772
▁రైడ్	-7773
స్ట్రో	-7774
▁అలారం	-7775
▁యొద్ద	-7776
▁స్వీక	-7777
▁ఫిర్యా	-7778
▁బోర్డ్	-7779
▁అవార్డు	-7780
▁గార్డెన్	-7781
▁జాబితాలో	-7782
▁జ్ఞాపకము	-7783
▁ప్రసిద్ధి	-7784
▁పునరుద్ధరణ	-7785
▁కనుగొన్నారు	-7786
టైల్	-7787
ళ్ళి	-7788
ాత్మ	-7789
ధులను	-7790
▁నీవే	-7791
కొనెను	-7792
▁పట్టీ	-7793
▁తీసుకునే	-7794
▁నవీకరించబడింది	-7795
▁ప్రారంభమవుతుంది	-7796
:29	-7797
min	-7798
ోనీ	-7799
ELLE	-7800
అవుట్	-7801
జీలకు	-7802
ప్పర్	-7803
▁this	-7804
▁కీలక	-7805
▁క్రే	-7806
▁పంక్	-7807
▁పథకం	-7808
▁అయిదు	-7809
▁Webtalk	-7810
▁స్వభావం	-7811
▁MT	-7812
చేసే	-7813
▁APK	-7814
▁not	-7815
▁సాగ	-7816
▁బాధి	-7817
▁ఐప్యాడ్	-7818
▁బొమ్మలు	-7819
▁స్క్వేర్	-7820
▁సిస్టమ్స్	-7821
.50	-7822
log	-7823
▁స్టూ	-7824
▁వసూలు	-7825
▁పరస్పర	-7826
▁సన్నని	-7827
▁వంశస్థులు	-7828
▁చెప్పటానికి	-7829
షిప్	-7830
డెంట్	-7831
▁కారణాల	-7832
▁చేస్తూ	-7833
▁బాత్రూ	-7834
▁వెయ్యి	-7835
▁ఎఫ్రాయి	-7836
▁సలహాదారు	-7837
దర	-7838
హము	-7839
▁PM	-7840
మ్మీ	-7841
▁195	-7842
▁డోర్	-7843
▁సూచించిన	-7844
▁ప్రాచుర్యం	-7845
▁వాతావరణంలో	-7846
త్తా	-7847
రంలో	-7848
▁DVD	-7849
▁వనరుల	-7850
▁ఏజెంట్	-7851
▁నీటిలో	-7852
▁లేబుల్	-7853
▁చారిత్ర	-7854
▁సెట్టిం	-7855
▁బ్రిటిష్	-7856
▁ప్రయోగశాల	-7857
▁సందర్భాలలో	-7858
HS	-7859
సమా	-7860
▁me	-7861
▁దాట	-7862
టర్స్	-7863
వర్స్	-7864
వైడర్	-7865
▁టైర్	-7866
▁వ్యక్త	-7867
పియోనేట్	-7868
▁అనుగ్రహ	-7869
▁కలుగును	-7870
▁గ్రౌండ్	-7871
▁యున్నాడు	-7872
▁శాస్త్రం	-7873
▁న్యాయవాది	-7874
▁అనువర్తనాలు	-7875
▁సెలవిచ్చెను	-7876
చూడ	-7877
సనం	-7878
▁GB	-7879
పయోగ	-7880
▁HGH	-7881
▁జ్య	-7882
స్ట్లు	-7883
▁ఎత్తి	-7884
▁క్రమం	-7885
▁కోర్టు	-7886
▁తరువాతి	-7887
▁సోదరులు	-7888
▁శుక్రవారం	-7889
స్వ	-7890
▁sc	-7891
మ్మా	-7892
▁ROS	-7893
▁జ్వ	-7894
మీడియా	-7895
▁రెండో	-7896
▁సంచులు	-7897
▁హోస్ట్	-7898
▁ఆసుపత్రి	-7899
▁నొక్కండి	-7900
▁స్పిన్స్	-7901
▁Microsoft	-7902
IA	-7903
రొక	-7904
▁03	-7905
▁గడ	-7906
ఫైడ్	-7907
▁అంట	-7908
▁సమక	-7909
▁రాతి	-7910
▁సైని	-7911
ూర్చిన	-7912
▁బస్సు	-7913
▁బ్రౌన్	-7914
▁సైన్యం	-7915
▁ప్రాతిని	-7916
▁వ్యవస్థలో	-7917
మనం	-7918
డలను	-7919
▁(10	-7920
▁2.0	-7921
▁ఎలు	-7922
▁పంప్	-7923
▁మానవు	-7924
▁రాష్ట్రం	-7925
▁సుమారుగా	-7926
▁స్ట్రిప్	-7927
▁హైపర్బారిక్	-7928
.90	-7929
box	-7930
పేరు	-7931
▁గిం	-7932
▁బాలు	-7933
▁బీటా	-7934
▁ఎన్నిక	-7935
▁ఐచ్ఛిక	-7936
▁కొట్టు	-7937
▁స్పానిష్	-7938
▁చెయ్యవచ్చు	-7939
▁నైపుణ్యాలు	-7940
డూ	-7941
త్న	-7942
▁10.	-7943
▁సూది	-7944
ందరికి	-7945
▁ఎన్ను	-7946
▁కడుపు	-7947
▁పత్రం	-7948
▁సవాలు	-7949
▁అద్దెకు	-7950
▁ద్వంద్వ	-7951
▁ప్రజలను	-7952
▁స్వాధీనం	-7953
▁అనుసంధాని	-7954
▁ఖచ్చితత్వం	-7955
మి్మ	-7956
▁Met	-7957
ల్లర్	-7958
రితమైన	-7959
పెట్టిన	-7960
ించెదను	-7961
▁అందుకే	-7962
▁కొలతలు	-7963
▁పర్యవేక్ష	-7964
DA	-7965
App	-7966
ati	-7967
▁44	-7968
▁తై	-7969
తిగా	-7970
యంగా	-7971
▁బస్	-7972
emoji	-7973
డుగగా	-7974
▁వైఫల	-7975
బుట్టు	-7976
▁ఇనుము	-7977
▁వర్కింగ్	-7978
▁స్వచ్ఛమైన	-7979
▁ఇవ్వడానికి	-7980
▁ప్రక్రియలో	-7981
▁తెలియజేయండి	-7982
ung	-7983
లేం	-7984
▁ab	-7985
యింది	-7986
▁మనోహ	-7987
ప్తంగా	-7988
వచ్చని	-7989
▁అనెను	-7990
▁ఏడాది	-7991
▁సువాసన	-7992
▁స్టాండ్	-7993
▁తొలగింపు	-7994
▁ఫిట్నెస్	-7995
మౌ	-7996
mail	-7997
హెచ్	-7998
▁పలక	-7999
గలుగు	-8000
▁టెల్	-8001
▁టౌన్	-8002
▁బృంద	-8003
▁నాశనము	-8004
ోద్	-8005
▁!!	-8006
హౌస్	-8007
ళ్లతో	-8008
▁ఎవరి	-8009
▁షాట్	-8010
▁రిటర్	-8011
▁యజమానులు	-8012
▁క్యాన్సర్	-8013
▁మనుష్యులు	-8014
▁విచ్ఛిన్న	-8015
▁కడ	-8016
ాల్ట్	-8017
▁కోపం	-8018
▁మార్చండి	-8019
▁Instagram	-8020
▁విశ్వాసము	-8021
నిజ	-8022
ోత్స	-8023
▁ఈమె	-8024
క్షిక	-8025
▁విలీ	-8026
ించుకో	-8027
▁స్టడీ	-8028
▁సరిపోయే	-8029
▁స్వర్గం	-8030
▁ప్రమాణాలు	-8031
ert	-8032
ower	-8033
యుడైన	-8034
▁ఆల్బ	-8035
కుమారు	-8036
జినెస్	-8037
▁సంతతి	-8038
వాల్సిన	-8039
▁ఫైళ్లు	-8040
▁పెయింట్	-8041
▁ఎమోజీలకు	-8042
▁సంకేతాలు	-8043
▁అభిప్రాయం	-8044
▁వస్తువులను	-8045
▁ఆకర్షణీయంగా	-8046
olog	-8047
ష్టత	-8048
▁హలో	-8049
▁అచ్చ	-8050
▁ఎక్స	-8051
▁వీటి	-8052
▁కోపము	-8053
▁గ్రామీ	-8054
▁వెళ్ళే	-8055
▁షాఫ్ట్	-8056
యున్నారు	-8057
▁సందర్భాల్లో	-8058
ets	-8059
గిల	-8060
జైన	-8061
నగు	-8062
విన	-8063
▁8,	-8064
▁డు	-8065
విల్	-8066
▁జెన	-8067
▁పొగ	-8068
▁will	-8069
▁గమ్య	-8070
▁ముగు	-8071
▁అల్లి	-8072
▁ఎప్పటి	-8073
▁ప్రోటో	-8074
▁స్టాప్	-8075
▁స్పందన	-8076
▁టెర్మినల్	-8077
pd	-8078
▁LLC	-8079
▁Min	-8080
▁కనా	-8081
▁తనను	-8082
▁త్యా	-8083
ణాన్ని	-8084
▁ఓర్ఫ్	-8085
▁అద్భుతంగా	-8086
▁విధానాన్ని	-8087
▁ఉత్పత్తిదారులు	-8088
oss	-8089
బిన	-8090
ట్యూ	-8091
పార్	-8092
పోటు	-8093
▁10%	-8094
▁Che	-8095
▁mon	-8096
▁వున్న	-8097
▁బాడీబి	-8098
▁మిగిలి	-8099
▁సరదాగా	-8100
▁హోల్మ్	-8101
▁పారదర్శ	-8102
▁శామ్సంగ్	-8103
▁గరిష్టంగా	-8104
yn	-8105
ika	-8106
▁MB	-8107
wood	-8108
న్నో	-8109
సెట్	-8110
▁రిప	-8111
▁టార్	-8112
గ్లాస్	-8113
▁ఫలితం	-8114
నదేమనగా	-8115
ప్మెంట్	-8116
ములోనికి	-8117
▁ROSELLE	-8118
▁పరిపక్వ	-8119
42	-8120
▁CF	-8121
తట్టు	-8122
▁మెను	-8123
▁కలిగించే	-8124
▁ఉంచుతుంది	-8125
▁కన్వర్టర్	-8126
▁సాంకేతికత	-8127
▁హోస్టింగ్	-8128
▁ఎక్స్ప్రెస్	-8129
గె	-8130
బ్ల	-8131
▁IR	-8132
రియో	-8133
క్రమణ	-8134
ళ్లలో	-8135
▁నడిప	-8136
▁వారా	-8137
▁సందే	-8138
▁హస్త	-8139
▁శబ్దం	-8140
▁డాలర్లు	-8141
▁దృష్టిని	-8142
▁0,	-8143
▁జయ	-8144
మానం	-8145
సిడ్	-8146
▁దశా	-8147
▁ఇయ్య	-8148
▁మచ్చ	-8149
వాటిని	-8150
▁అస్థి	-8151
▁పరమాణ	-8152
▁ఆకట్టు	-8153
▁ఇత్తడి	-8154
▁వ్యూహం	-8155
▁చూపించు	-8156
▁ప్రాణము	-8157
▁ప్లాంట్	-8158
▁గణనీయమైన	-8159
▁టెలిఫోన్	-8160
form	-8161
సెర్చ్	-8162
▁వేడుక	-8163
▁పునరావృ	-8164
\\	-8165
▁”	-8166
▁Hu	-8167
▁125	-8168
▁ఎండ	-8169
▁సోల	-8170
▁గ్రో	-8171
▁అడిగే	-8172
▁దిశలో	-8173
▁పరిపాలన	-8174
▁తోబుట్టు	-8175
▁విషయములో	-8176
▁పోర్టబుల్	-8177
▁ప్రదర్శనలు	-8178
▁శుభాకాంక్షలు	-8179
aj	-8180
ike	-8181
▁1500	-8182
▁from	-8183
▁స్వర	-8184
ations	-8185
▁ఎడిషన్	-8186
▁చేయును	-8187
▁నిలువు	-8188
▁ప్రోమో	-8189
▁స్టూడియో	-8190
▁విశ్వసనీయత	-8191
▁సంవత్సరములు	-8192
బల	-8193
="9	-8194
lect	-8195
గాడు	-8196
▁కూప	-8197
స్థాప	-8198
▁సహోద	-8199
▁ప్రచార	-8200
▁మీడియం	-8201
▁స్పెయిన్	-8202
యై	-8203
:31	-8204
ాయో	-8205
▁Co	-8206
గాయి	-8207
▁can	-8208
▁రంగ	-8209
▁రావ	-8210
▁ఆఫీస్	-8211
▁ఇంటిలో	-8212
▁దూరంలో	-8213
▁బయటికి	-8214
▁భాగాన్ని	-8215
air	-8216
els	-8217
low	-8218
▁LTD	-8219
▁కాస్	-8220
▁రెసి	-8221
▁బెన్యా	-8222
▁భాగంలో	-8223
▁సహజంగా	-8224
క్రీస్తు	-8225
▁వైద్యుడు	-8226
▁యూనివర్సల్	-8227
టప్	-8228
దిత	-8229
ర్రె	-8230
బడినది	-8231
▁లేడీస్	-8232
▁స్వల్ప	-8233
▁నిరోధకత	-8234
▁వెళ్ళింది	-8235
ele	-8236
res	-8237
డౌన్	-8238
రాక్	-8239
మైనవి	-8240
▁నిరు	-8241
రువులు	-8242
▁వెతుకు	-8243
▁ఫుట్బాల్	-8244
▁గమనించండి	-8245
▁వ్యక్తిగతంగా	-8246
UN	-8247
టిక	-8248
▁51	-8249
▁CP	-8250
▁పడవ	-8251
▁లాగ	-8252
▁వెం	-8253
▁తిరు	-8254
▁Phone	-8255
▁ట్రక్	-8256
▁పందెం	-8257
▁సంకేత	-8258
▁ఆటగాడు	-8259
▁కిలోమీ	-8260
▁కొనండి	-8261
▁త్రాగు	-8262
▁కొత్తగా	-8263
▁అదేవిధంగా	-8264
▁సందర్భంగా	-8265
▁భాగస్వాములు	-8266
▁CB	-8267
▁ro	-8268
36"&	-8269
ster	-8270
దగ్గ	-8271
ల్యా	-8272
కార్య	-8273
▁తేది	-8274
▁వారస	-8275
▁రుసుము	-8276
▁చక్రాలు	-8277
▁వనరులను	-8278
▁క్రైస్తవ	-8279
▁బిజినెస్	-8280
▁సొల్యూషన్స్	-8281
2.1	-8282
ప్రో	-8283
▁వెన	-8284
స్థాన్	-8285
▁దురదృ	-8286
▁action	-8287
▁పోలీసు	-8288
▁బైట్సు	-8289
▁లాభాలు	-8290
▁యాదృచ్ఛిక	-8291
▁ప్రాధాన్యత	-8292
▁స్పెక్ట్రం	-8293
63	-8294
600	-8295
▁41	-8296
▁వో	-8297
లాడు	-8298
కుంటూ	-8299
తుందో	-8300
▁సైడ్	-8301
వార్డ్	-8302
▁సంతుల	-8303
▁మెక్సిక	-8304
▁ప్రొవైడర్	-8305
▁సురక్షితం	-8306
▁ఇష్టపడతారు	-8307
ంఛ	-8308
att	-8309
దరా	-8310
రూస	-8311
వన్	-8312
▁DJ	-8313
▁18,	-8314
▁ఎడ్	-8315
▁జాత	-8316
▁మంట	-8317
▁ఆకార	-8318
▁బ్లై	-8319
▁చేరండి	-8320
▁యెహోషువ	-8321
▁తొడుగులు	-8322
▁లేకపోవడం	-8323
▁మరణించాడు	-8324
▁ప్రయోజనాలను	-8325
▁మాట్లాడటానికి	-8326
VA	-8327
జర	-8328
▁BS	-8329
▁Zh	-8330
less	-8331
user	-8332
గలిగే	-8333
▁కూల్	-8334
▁కోట్	-8335
▁పోల్	-8336
స్ట్రా	-8337
▁కదిలే	-8338
▁గ్రామం	-8339
▁కాంపాక్ట్	-8340
▁స్టిక్కర్	-8341
▁చూపించడానికి	-8342
acc	-8343
▁-'	-8344
▁MH	-8345
క్కో	-8346
డుకు	-8347
స్సా	-8348
▁క్రో	-8349
▁సోలో	-8350
త్తుగా	-8351
మొబైల్	-8352
▁పోల్చ	-8353
▁నోటీసు	-8354
▁సంస్థల	-8355
▁ఇచ్చారు	-8356
▁పరిగణలోకి	-8357
▁43	-8358
▁49	-8359
▁షధ	-8360
▁అటు	-8361
▁కీల	-8362
▁విడ	-8363
▁Coin	-8364
▁అధిప	-8365
▁రెడ్డి	-8366
▁బ్యాండ్	-8367
షిస్తుంది	-8368
TR	-8369
ene	-8370
ett	-8371
వియ	-8372
▁మడ	-8373
దుకు	-8374
న్యం	-8375
స్పద	-8376
▁బ్లో	-8377
▁వరకూ	-8378
▁హిట్	-8379
▁నెలకు	-8380
▁యుఎస్	-8381
సియేషన్	-8382
▁వెబ్సై	-8383
▁సూత్రం	-8384
▁సేవకులు	-8385
▁పాఠశాలలు	-8386
▁సౌకర్యాలు	-8387
▁ఐటి	-8388
సెంట్	-8389
స్తాన్	-8390
▁అల్ట్రా	-8391
▁వచ్చును	-8392
▁హోల్డర్	-8393
గూ	-8394
8"&	-8395
▁XM	-8396
orld	-8397
పిరి	-8398
హోవా	-8399
▁మద్య	-8400
▁సంపద	-8401
▁అమర్చ	-8402
▁ప్రవచ	-8403
▁చురుకు	-8404
▁తెలిసి	-8405
▁కనెక్టర్	-8406
▁గణనీయంగా	-8407
▁డ్రాయింగ్	-8408
imes	-8409
కెన్	-8410
▁సమృ	-8411
మిషన్	-8412
▁కిరణ	-8413
▁యుండ	-8414
▁మంత్ర	-8415
▁అమ్మకం	-8416
▁ఆండ్రో	-8417
▁నిధులు	-8418
▁రీసెర్చ్	-8419
▁షీ	-8420
iang	-8421
త్సాహ	-8422
▁నియో	-8423
▁బాయ్	-8424
▁పెండ్	-8425
▁పుస్తక	-8426
▁ప్రమాణము	-8427
▁స్నేహితు	-8428
▁ప్రాముఖ్యత	-8429
▁బ్లాక్జాక్	-8430
-200	-8431
టెన్	-8432
డాన్	-8433
పర్చ	-8434
సైటీ	-8435
▁ఎర్	-8436
▁పాడ	-8437
గేషన్	-8438
లలోను	-8439
▁అంతి	-8440
▁జెరూస	-8441
▁ముందే	-8442
▁ఏజెన్సీ	-8443
▁ఇంటర్నేషనల్	-8444
▁ప్రోగ్రామింగ్	-8445
గెను	-8446
▁ఉదయ	-8447
▁విప	-8448
బుల్స్	-8449
▁ధైర్య	-8450
▁పిండి	-8451
కొనుటకు	-8452
▁చెల్లి	-8453
▁ఫాబ్రిక్	-8454
▁ప్రాంతాలలో	-8455
de	-8456
ణము	-8457
వము	-8458
38"&	-8459
ఫిల్	-8460
▁రాక	-8461
డైనను	-8462
▁గెలి	-8463
▁షాన్	-8464
▁సింగ	-8465
▁చేయుట	-8466
▁తప్పి	-8467
▁మేయర్	-8468
▁వ్యభి	-8469
▁సహాయక	-8470
ownload	-8471
▁ఫ్లైట్	-8472
▁ఒక్కొక్క	-8473
▁క్రిస్టల్	-8474
▁ట్రైనింగ్	-8475
▁చెల్లించిన	-8476
ఫ్ర	-8477
సైన	-8478
="10	-8479
తిరి	-8480
వ్వొ	-8481
▁10,	-8482
▁వలస	-8483
గులకు	-8484
వేషన్	-8485
▁ఛాతీ	-8486
బాలిక్	-8487
బడ్డారు	-8488
▁పశ్చిమ	-8489
▁భవనాలు	-8490
▁శారీరక	-8491
▁భూమిమీద	-8492
▁విభాగంలో	-8493
arn	-8494
▁రామ	-8495
▁దృశ్య	-8496
▁పండ్ర	-8497
▁చేసిరి	-8498
▁సంక్షి	-8499
▁శతాబ్దం	-8500
▁తగ్గింపు	-8501
▁స్త్రీలు	-8502
▁చేస్తోంది	-8503
▁రిజిస్టర్	-8504
▁తోబుట్టువుల	-8505
83	-8506
ంత్	-8507
ంచిన	-8508
▁సొగ	-8509
▁స్ఫ	-8510
▁ఇశ్రా	-8511
▁క్రీడ	-8512
న్నింగ్	-8513
▁దుబాయ్	-8514
▁సరసమైన	-8515
ాయిలాండ్	-8516
▁యాజకుడు	-8517
▁ఒప్పందాలు	-8518
.30	-8519
ale	-8520
▁నృ	-8521
చర్య	-8522
▁ఆబ్	-8523
▁పుర	-8524
జ్ఞాప	-8525
▁ఇతని	-8526
▁మండల	-8527
మిక్స్	-8528
▁ఇతరుల	-8529
▁స్తుత	-8530
▁అంకితం	-8531
▁కలిగివు	-8532
▁ప్రాప్యత	-8533
▁పరిష్కరించ	-8534
-30	-8535
గోళ	-8536
టంతో	-8537
డ్డు	-8538
▁చలన	-8539
మేషన్	-8540
▁CSGO	-8541
▁పాలన	-8542
▁విచా	-8543
సాన్ని	-8544
▁మలుపు	-8545
▁లైబ్ర	-8546
▁టన్నుల	-8547
▁త్వరిత	-8548
▁సంగ్రహ	-8549
ధిస్తుంది	-8550
▁లభిస్తుంది	-8551
▁ఆలయ	-8552
▁అడిగా	-8553
▁తన్ను	-8554
చున్నవి	-8555
▁సొసైటీ	-8556
ana	-8557
▁cs	-8558
రిలో	-8559
▁నార	-8560
▁శేష	-8561
▁చైన్	-8562
▁బెది	-8563
▁అడ్డు	-8564
▁సర్వో	-8565
▁సమస్యను	-8566
▁చేయవలసిన	-8567
▁మార్గనిర్	-8568
▁చెల్లించండి	-8569
url	-8570
దనం	-8571
▁//	-8572
ence	-8573
oint	-8574
▁LCD	-8575
▁అథ్	-8576
▁డెమో	-8577
▁వరుసగా	-8578
▁తలుపులు	-8579
▁ఫైనాన్స్	-8580
▁శుభ్రంగా	-8581
▁రాష్ట్రాలు	-8582
AY	-8583
సభ	-8584
▁1:	-8585
క్యా	-8586
ళ్లి	-8587
వాస్	-8588
▁కరి	-8589
▁పియా	-8590
ంత్రిక	-8591
▁ఆకృతి	-8592
▁నిరాశ	-8593
▁సమర్ధ	-8594
▁సరుకు	-8595
▁కొవ్వొ	-8596
▁చేపట్ట	-8597
▁చేయాలో	-8598
▁నిలుచు	-8599
▁బంగారం	-8600
▁పోయింది	-8601
▁సౌలభ్యం	-8602
▁బెండింగ్	-8603
▁పడిపోయింది	-8604
ma	-8605
rat	-8606
లాం	-8607
▁ధన	-8608
33"&	-8609
టోన్	-8610
▁Oct	-8611
▁తుల	-8612
▁లోహ	-8613
▁మేల్	-8614
▁వెలి	-8615
విన్స్	-8616
▁ఆమోదం	-8617
▁ధోరణి	-8618
▁యెహోవ	-8619
▁మీదికి	-8620
▁శతాబ్ద	-8621
▁షరతులు	-8622
▁ఇన్స్టిట్యూట్	-8623
కోచ	-8624
జాలం	-8625
ట్జర్	-8626
▁ఆలయం	-8627
▁వక్ర	-8628
▁విసి	-8629
lywood	-8630
▁వేరొక	-8631
▁స్నాన	-8632
▁అద్దము	-8633
▁డిజైనర్	-8634
▁ట్రాకర్ను	-8635
▁సౌకర్యవంతంగా	-8636
▁11,	-8637
▁కరు	-8638
▁చేయి	-8639
▁రేపు	-8640
▁ఆకులు	-8641
▁ఆహ్లా	-8642
▁గుఱ్ఱ	-8643
▁చేస్త	-8644
▁లైట్స్	-8645
▁వాయువు	-8646
▁స్కైప్	-8647
▁జాగ్రత్తలు	-8648
▁తిరుగుబాటు	-8649
▁దీర్ఘకాలిక	-8650
▁చేరుకోవడానికి	-8651
lic	-8652
ance	-8653
▁20,	-8654
▁Dec	-8655
▁బెం	-8656
విధ్య	-8657
ర్మార్	-8658
▁ప్రసం	-8659
▁మొఱ్ఱ	-8660
▁చేయుము	-8661
▁సహాయపడే	-8662
▁సెట్టింగ్	-8663
▁పెరుగుతాయి	-8664
▁అందుకుంటారు	-8665
ild	-8666
గంధ	-8667
డన్	-8668
▁తూ	-8669
లులు	-8670
▁కాంట	-8671
▁త్రాగ	-8672
▁విప్ల	-8673
▁పొడవైన	-8674
▁తప్పుడు	-8675
▁బెన్యామీ	-8676
▁పరిస్థితుల్లో	-8677
▁CC	-8678
▁ఆర	-8679
డోర్	-8680
▁మనవి	-8681
ఢిల్లీ	-8682
▁రక్తం	-8683
▁బాధపడు	-8684
▁ముగ్గు	-8685
▁Al	-8686
మెంట	-8687
రగాయ	-8688
▁all	-8689
▁ఓహ్	-8690
▁భాషా	-8691
▁లోగో	-8692
నిర్మిత	-8693
ార్ట్మెంట్	-8694
▁ప్రశ్నలకు	-8695
▁అసోసియేషన్	-8696
uan	-8697
uss	-8698
▁3)	-8699
లియో	-8700
సాజ్	-8701
చేతను	-8702
▁భోజన	-8703
కొనిరి	-8704
మోటివ్	-8705
సినోలు	-8706
▁తండ్ర	-8707
▁కాటలాగ్	-8708
▁తెలంగాణ	-8709
▁నివసించు	-8710
▁నిశ్శబ్ద	-8711
▁స్ట్రీట్	-8712
▁పుట్టినరోజు	-8713
▁విద్యార్థులకు	-8714
ేయ	-8715
.60	-8716
itt	-8717
▁(0	-8718
▁SM	-8719
▁కేత	-8720
యేటర్	-8721
▁nice	-8722
▁క్షణం	-8723
▁శాఖలు	-8724
▁కాలేజ్	-8725
▁కౌంటర్	-8726
▁తీవ్రత	-8727
▁వార్తా	-8728
▁శిబిరం	-8729
▁అమరికలు	-8730
▁సెకన్లు	-8731
▁అనుసరించి	-8732
▁అప్గ్రేడ్	-8733
▁చదవడానికి	-8734
▁మార్చవచ్చు	-8735
గ్స్	-8736
బ్రే	-8737
▁ఉత్స	-8738
▁చిత్త	-8739
ించకండి	-8740
▁ఒకదాని	-8741
▁చిక్కు	-8742
▁కుకీలను	-8743
తున్నప్పుడు	-8744
ాలనుకుంటున్నాను	-8745
KW	-8746
ek	-8747
-11	-8748
బస్	-8749
▁యథ	-8750
itle	-8751
ంతయు	-8752
▁సజీ	-8753
పరచడం	-8754
ోద్వే	-8755
▁ఏళ్ల	-8756
▁చంపు	-8757
▁చింత	-8758
గలిగిన	-8759
▁ఎంట్రీ	-8760
▁క్యాష్	-8761
▁చేయాల్	-8762
▁బ్రెడ్	-8763
▁స్పోర్	-8764
▁గేమింగ్	-8765
▁ఫిషింగ్	-8766
▁బ్యాకప్	-8767
▁పర్వతాలు	-8768
▁బాత్రూమ్	-8769
▁సెంట్రల్	-8770
ట్జర్లాండ్	-8771
▁ఉద్యోగాలు	-8772
▁కొనసాగింది	-8773
▁నివసిస్తున్న	-8774
▁ప్రత్యామ్నాయం	-8775
▁Sm	-8776
ages	-8777
▁నటి	-8778
పరిచే	-8779
మాయెను	-8780
మార్క్	-8781
ింపుము	-8782
▁టిక్క	-8783
▁ఆలస్యం	-8784
▁మందిరము	-8785
▁భావోద్వే	-8786
▁సందేశాలు	-8787
▁విరుద్ధంగా	-8788
▁నిర్వహించారు	-8789
▁మార్గనిర్దేశం	-8790
పున	-8791
69"&	-8792
▁dis	-8793
▁ఏడవ	-8794
.2018	-8795
ండ్రు	-8796
ెక్కి	-8797
▁2001	-8798
▁రూట్	-8799
▁లెగ్	-8800
▁విమో	-8801
▁పాటలు	-8802
▁వృక్ష	-8803
▁ఫండ్స్	-8804
▁ఇంజక్షన్	-8805
▁మెరుగుదల	-8806
OB	-8807
ఎమ్	-8808
▁**	-8809
▁1/	-8810
▁ph	-8811
▁ఆధిప	-8812
▁వీసా	-8813
వారిలో	-8814
▁రెండూ	-8815
▁చక్కెర	-8816
▁జాతులు	-8817
▁తండ్రియైన	-8818
▁ద్రాక్షార	-8819
▁చెయ్యబడింది	-8820
TML	-8821
పైన	-8822
స్కృ	-8823
▁Hat	-8824
▁అణి	-8825
▁అడ్డ	-8826
▁గింజ	-8827
▁తమకు	-8828
▁తమను	-8829
▁లాగా	-8830
▁స్థూ	-8831
▁India	-8832
▁వాక్య	-8833
▁విస్మ	-8834
యుండెను	-8835
▁అధ్యాయ	-8836
▁ఉపసంహరణ	-8837
▁పర్యాటక	-8838
▁సంతులనం	-8839
▁మరణించారు	-8840
▁స్థానాన్ని	-8841
ఖరి	-8842
ధ్వ	-8843
▁85	-8844
▁SP	-8845
సైడ్	-8846
▁ఎపి	-8847
▁రుజు	-8848
▁రాసిన	-8849
▁ముద్దు	-8850
▁సదుపాయ	-8851
స్క్రిప్	-8852
▁శిష్యులు	-8853
▁ప్రాంతాలు	-8854
▁ఇప్పటివరకు	-8855
▁రికార్డింగ్	-8856
▁47	-8857
మధ్య	-8858
మయిన	-8859
▁cre	-8860
▁మోడ	-8861
aveat	-8862
▁యోనా	-8863
▁రాడ్	-8864
బినెట్	-8865
▁అన్నీ	-8866
▁సిఎన్	-8867
▁సాంద్ర	-8868
▁Bitcoin	-8869
▁ఇటాలియన్	-8870
▁My	-8871
లేట్	-8872
▁50%	-8873
▁వేట	-8874
▁చిప్	-8875
▁స్కే	-8876
▁అల్లా	-8877
▁ఆశ్రయ	-8878
చికిత్స	-8879
▁మందిరపు	-8880
శాఖ	-8881
▁MP	-8882
▁నడప	-8883
▁చూసు	-8884
▁చేయని	-8885
▁కాపాడు	-8886
▁కార్ట్	-8887
▁సహాయము	-8888
▁సేల్స్	-8889
▁హృదయము	-8890
▁ఎక్స్చే	-8891
aveatrain	-8892
▁డిఫాల్ట్	-8893
▁ఫైబర్గ్లాస్	-8894
▁నిర్వహిస్తుంది	-8895
▁స్విట్జర్లాండ్	-8896
IM	-8897
ual	-8898
రోహ	-8899
▁NY	-8900
త్రు	-8901
నికల్	-8902
ఫింగ్	-8903
▁గందర	-8904
▁రాలే	-8905
▁కౌంట్	-8906
▁పొందా	-8907
▁నివాసి	-8908
▁వినియో	-8909
▁తక్షణమే	-8910
▁వెచ్చని	-8911
▁నిలిపివేయ	-8912
రితం	-8913
▁ఆడి	-8914
▁చెర	-8915
right	-8916
వేసిన	-8917
స్టరీ	-8918
▁సెషన్	-8919
▁సూచనలను	-8920
▁గూర్చియు	-8921
▁పోస్ట్లు	-8922
▁ముఖ్యమైనది	-8923
పాత	-8924
rack	-8925
▁గాయం	-8926
▁క్రిక	-8927
▁సెటప్	-8928
▁లోపాలు	-8929
ollywood	-8930
▁చివరిలో	-8931
▁సంఖ్యను	-8932
▁ప్రయత్నాలు	-8933
▁సృష్టించడం	-8934
ern	-8935
link	-8936
▁180	-8937
▁23,	-8938
▁అవా	-8939
▁ఏలీ	-8940
▁చోట	-8941
▁మిత	-8942
▁1990	-8943
ట్టుగా	-8944
దుస్తు	-8945
limited	-8946
▁మధ్యను	-8947
▁యథార్థ	-8948
▁వేణువు	-8949
▁ఇంజనీర్	-8950
▁తగ్గించడం	-8951
▁మ్యాచింగ్	-8952
▁ఎలక్ట్రానిక్స్	-8953
▁OR	-8954
ware	-8955
వాదం	-8956
▁గలి	-8957
▁ఫెడ	-8958
▁శిఖ	-8959
▁లాగ్	-8960
కొనుచు	-8961
ించబడు	-8962
▁వలెను	-8963
▁డైలాగ్	-8964
▁పరమాణు	-8965
▁జ్ఞానము	-8966
▁వైవిధ్య	-8967
▁తప్పకుండా	-8968
▁థాయిలాండ్	-8969
▁blockchain	-8970
="8	-8971
ెరపీ	-8972
▁17,	-8973
▁Off	-8974
్రియల్	-8975
▁గొన్న	-8976
▁ప్రదా	-8977
▁యెహోయా	-8978
▁విషయమై	-8979
▁మార్చడం	-8980
▁ముందస్తు	-8981
▁46	-8982
▁డిట	-8983
▁తెగ	-8984
▁అష్ష	-8985
▁ఫిన్	-8986
యార్క్	-8987
▁వార్త	-8988
▁అద్భుత	-8989
▁గంటలకు	-8990
▁పురుగు	-8991
▁సొగసైన	-8992
▁హైడ్రో	-8993
▁అడ్మిని	-8994
▁ఎక్కడైనా	-8995
▁వుంటుంది	-8996
▁అబ్రాహాము	-8997
▁మెకానికల్	-8998
ఫే	-8999
▁Sk	-9000
▁pm	-9001
వాటి	-9002
▁పిలవ	-9003
▁మాల్	-9004
ైనర్లు	-9005
▁అప్పు	-9006
▁వూఫర్	-9007
▁హైదరా	-9008
▁జాకెట్	-9009
▁బ్లాగు	-9010
▁కార్టన్	-9011
▁గ్రాండ్	-9012
▁చారిత్రక	-9013
▁చురుకుగా	-9014
▁నిపుణుడు	-9015
UD	-9016
ife	-9017
▁థా	-9018
▁ద్	-9019
ates	-9020
వాడెవ	-9021
▁గెలా	-9022
▁మాట్	-9023
▁సంఘం	-9024
కొనుము	-9025
స్వామ్య	-9026
▁సహాయంతో	-9027
▁ఈవెంట్స్	-9028
▁కమ్యూనికేట్	-9029
▁శాస్త్రవేత్తలు	-9030
▁సార్కోయిడోసిస్	-9031
II	-9032
emb	-9033
ంచె	-9034
▁SQL	-9035
పోవడం	-9036
మునందు	-9037
▁జవాబు	-9038
▁దేవదూ	-9039
▁బ్రహ్	-9040
▁తొమ్మి	-9041
▁సంఘటనలు	-9042
▁వారానికి	-9043
▁కేతగిరీలు	-9044
▁పాలిస్టర్	-9045
ict	-9046
ెట్ట	-9047
▁రోజ	-9048
జికల్	-9049
▁ముగా	-9050
▁సెమీ	-9051
పోవును	-9052
▁పలుకు	-9053
▁కాయిన్	-9054
▁కుమారుల	-9055
▁నెరవేర్	-9056
▁సింగపూర్	-9057
saveatrain	-9058
▁జీవితాలను	-9059
▁పారామితులు	-9060
▁ప్రభావవంతమైన	-9061
ors	-9062
తరు	-9063
▁02	-9064
▁PE	-9065
here	-9066
▁28,	-9067
▁EMI	-9068
▁గుర	-9069
▁2003	-9070
▁మనష్	-9071
▁స్నా	-9072
ించాము	-9073
▁వంతెన	-9074
GLONASS	-9075
ంగ్స్యూ	-9076
స్కృతిక	-9077
▁యోహాను	-9078
▁వెస్ట్	-9079
▁పెండ్లి	-9080
▁ఆప్టికల్	-9081
▁ధృవీకరించ	-9082
▁హ్యాండిల్	-9083
▁సంప్రదింపు	-9084
▁TS	-9085
చాడు	-9086
▁విభజన	-9087
ిస్తారు	-9088
▁ఉత్సాహ	-9089
▁ప్రవాహ	-9090
▁వనరులు	-9091
▁గ్రామీణ	-9092
▁జాన్సన్	-9093
▁లైబ్రరీ	-9094
▁చెందింది	-9095
▁సన్నిహిత	-9096
800	-9097
పుర	-9098
యస్	-9099
▁Sn	-9100
మియు	-9101
మ్మే	-9102
▁పశు	-9103
వర్తన	-9104
▁ట్రె	-9105
కర్తలు	-9106
యెహోవా	-9107
హరించు	-9108
ింపబడు	-9109
▁ఫ్లెక్	-9110
▁మేజిక్	-9111
▁రోగులు	-9112
▁ఆటోమేషన్	-9113
▁ఆపడానికి	-9114
▁ముగుస్తుంది	-9115
LP	-9116
:32	-9117
విం	-9118
క్యం	-9119
జిబి	-9120
డ్డం	-9121
▁నిమ	-9122
విజన్	-9123
▁డ్రీ	-9124
▁షాక్	-9125
▁వేసిన	-9126
▁సమాంతర	-9127
▁అధికారు	-9128
▁స్థాయికి	-9129
▁ఆహ్వానించ	-9130
▁వ్యవస్థాప	-9131
la	-9132
నుడు	-9133
డాంగ్	-9134
▁కోన్	-9135
▁మోనో	-9136
కుంటాయి	-9137
▁ఆహ్లాద	-9138
▁కమిషన్	-9139
▁కుట్టు	-9140
▁పియానో	-9141
▁చేయవలెను	-9142
▁జెరూసలేం	-9143
▁పరిమితులు	-9144
▁రెస్టారెంట్	-9145
▁2:	-9146
▁16,	-9147
ింపగా	-9148
▁ఇబ్బ	-9149
▁కిరీ	-9150
▁గర్భం	-9151
▁సమయము	-9152
▁ఎవరైతే	-9153
▁గురువు	-9154
▁బాటిల్	-9155
▁GLONASS	-9156
▁అదృష్టం	-9157
▁వాక్యము	-9158
▁క్రిస్టి	-9159
NS	-9160
లమీద	-9161
లోపే	-9162
శ్చా	-9163
▁12,	-9164
▁ఇటు	-9165
▁తడి	-9166
▁మంగ	-9167
▁శని	-9168
▁కోరి	-9169
▁యొర్	-9170
▁వాడే	-9171
▁ఇళ్ళు	-9172
రియల్స్	-9173
▁పోయెను	-9174
▁స్ప్రే	-9175
▁నిత్యము	-9176
▁ఉన్నట్లు	-9177
▁గెలాక్సీ	-9178
▁చూడడానికి	-9179
3-	-9180
మము	-9181
▁op	-9182
కోర్	-9183
ద్యో	-9184
▁ఎంబ	-9185
▁కవా	-9186
rader	-9187
ంతులు	-9188
▁వుండ	-9189
▁హెర్	-9190
ించబడి	-9191
ింపబడి	-9192
▁కన్నీ	-9193
▁సంకోచ	-9194
▁గుర్రం	-9195
▁నాణేలు	-9196
▁నువ్వు	-9197
▁ముస్లిం	-9198
▁వెళ్లిన	-9199
▁స్వయంగా	-9200
▁డెస్క్టాప్	-9201
▁ఉపయోగించారు	-9202
hra	-9203
గర్భ	-9204
గారు	-9205
పాట్	-9206
▁29,	-9207
▁యూద	-9208
▁నేర్ప	-9209
▁భయపడి	-9210
▁సేవను	-9211
▁ఫెయిర్	-9212
▁అంచనాలు	-9213
▁బాగుంది	-9214
▁WhatsApp	-9215
▁అంటుకునే	-9216
▁అన్నింటి	-9217
▁ప్రాంతీయ	-9218
▁వ్యాధులు	-9219
▁అనాబాలిక్	-9220
In	-9221
.80	-9222
ేతు	-9223
▁IC	-9224
▁PH	-9225
▁PS	-9226
▁గృ	-9227
ఎక్స్	-9228
▁3000	-9229
య్యారు	-9230
సాధారణ	-9231
కుండునట్లు	-9232
▁చెప్పవచ్చు	-9233
▁న్యూయార్క్	-9234
TP	-9235
డిక	-9236
తడు	-9237
యాం	-9238
ేతలు	-9239
క్చర్	-9240
▁దోహద	-9241
క్కిలి	-9242
▁మాధ్య	-9243
నొద్దకు	-9244
▁రొట్టె	-9245
▁స్థలము	-9246
▁ఐడియాస్	-9247
▁జాబితాను	-9248
▁వాగ్దానం	-9249
▁ట్విట్టర్	-9250
▁రిపబ్లిక్	-9251
▁సాధించింది	-9252
▁సర్టిఫికెట్	-9253
ng	-9254
une	-9255
యిస్	-9256
లుడు	-9257
▁mod	-9258
మయ్యాయి	-9259
▁స్వాధీన	-9260
▁ఎక్స్చేంజ్	-9261
▁నిర్మించిన	-9262
”.	-9263
ane	-9264
గని	-9265
▁per	-9266
▁అడ్ర	-9267
▁చాక్	-9268
▁వంతు	-9269
▁వీల్	-9270
▁స్లై	-9271
గ్రెస్	-9272
▁బ్యాల	-9273
▁భరించ	-9274
▁వేరియ	-9275
▁కన్సల్	-9276
▁రెట్లు	-9277
కాశాన్ని	-9278
తున్నాము	-9279
▁ఇప్పుడే	-9280
▁ముప్పది	-9281
▁క్రిందికి	-9282
▁నివేదికలు	-9283
▁అప్లికేషన్లు	-9284
▁ట్రాన్స్ఫార్	-9285
FL	-9286
fact	-9287
▁అరే	-9288
ating	-9289
ార్ధం	-9290
▁పిసి	-9291
▁రాయల్	-9292
▁శుద్ధి	-9293
▁స్ట్రో	-9294
▁కాండిల్	-9295
▁గొప్పగా	-9296
▁అనుమతించే	-9297
▁ఇన్వాయిస్	-9298
▁ప్రాసెసర్	-9299
▁విస్తృతమైన	-9300
▁చెయ్యడానికి	-9301
▁వార్షికోత్స	-9302
kw	-9303
రప్	-9304
▁Hy	-9305
▁బలా	-9306
▁గ్లూ	-9307
▁చెప్	-9308
▁తయార	-9309
▁దాగి	-9310
▁రోమ్	-9311
▁అండర్	-9312
ational	-9313
▁Online	-9314
▁చిహ్నం	-9315
▁పట్టణము	-9316
▁పెద్దలు	-9317
▁తెలుసుకో	-9318
▁స్థాపించబడిన	-9319
enu	-9320
▁AD	-9321
▁ఫొ	-9322
ount	-9323
▁130	-9324
▁All	-9325
▁దీప	-9326
▁గురి	-9327
▁నేనె	-9328
▁రంధ్ర	-9329
▁విలీనం	-9330
▁ఇబ్బందు	-9331
▁తీసివేయ	-9332
▁వెనుకకు	-9333
▁సున్నతి	-9334
▁లక్ష్యంగా	-9335
▁అభిప్రాయము	-9336
▁సందర్శకులు	-9337
గర	-9338
సొ	-9339
▁షేర్	-9340
ంపియన్	-9341
▁గ్రహం	-9342
▁యాత్ర	-9343
▁సమాజం	-9344
▁కెపాసి	-9345
▁తెరిచి	-9346
▁దృశ్యం	-9347
▁సోమవారం	-9348
ote	-9349
ype	-9350
▁700	-9351
▁కాథ	-9352
▁విర	-9353
వర్గం	-9354
▁మాక్	-9355
▁అధ్యా	-9356
▁తినడం	-9357
▁బలోపే	-9358
కొందురు	-9359
▁కూరగాయ	-9360
▁ఛానెల్	-9361
▁సరస్సు	-9362
▁సంకర్షణ	-9363
▁సమృద్ధి	-9364
▁వైద్యులు	-9365
▁కుమారుడగు	-9366
▁పనితీరును	-9367
▁ప్రభావాలను	-9368
▁నివారించడానికి	-9369
▁భావిస్తున్నాను	-9370
ధన	-9371
▁de	-9372
బడని	-9373
▁అకౌ	-9374
్యంగా	-9375
▁అభిరుచి	-9376
▁యాంత్రిక	-9377
▁యున్నారు	-9378
▁సంవత్సరము	-9379
▁అంతర్నిర్మిత	-9380
▁యేసుక్రీస్తు	-9381
43	-9382
ఘా	-9383
INE	-9384
▁CH	-9385
ateg	-9386
లక్ష	-9387
జర్స్	-9388
▁ముట్ట	-9389
▁పొట్టే	-9390
▁రైళ్లు	-9391
▁గంటల్లో	-9392
▁సందర్శన	-9393
▁పదార్థాల	-9394
▁మెడిసిన్	-9395
▁సైన్యముల	-9396
▁స్థానాలు	-9397
షె	-9398
▁52	-9399
▁::	-9400
▁my	-9401
ound	-9402
డుచు	-9403
సివ్	-9404
▁అవత	-9405
▁విశాల	-9406
▁సమతుల	-9407
▁చేసాడు	-9408
▁అరుదుగా	-9409
సిఫికేషన్	-9410
▁సాంస్కృతిక	-9411
▁ప్రాతినిధ్యం	-9412
LA	-9413
upp	-9414
భ్ర	-9415
ప్తీ	-9416
లికా	-9417
▁(2,	-9418
▁110	-9419
▁Nov	-9420
సర్లు	-9421
▁ఉంచి	-9422
▁తుది	-9423
పడతాయి	-9424
▁ఆమెతో	-9425
▁కౌంటీ	-9426
▁పేరును	-9427
▁యూదారా	-9428
▁టెంప్లే	-9429
▁ఫిర్యాదు	-9430
▁చేరుకుంది	-9431
▁తెలుసుకోవడం	-9432
▁తెలుసుకోవాలి	-9433
▁Be	-9434
▁Pre	-9435
▁మాగ్	-9436
▁స్థా	-9437
ంటున్న	-9438
▁రీడర్	-9439
▁అభిమాని	-9440
▁భయంకరమైన	-9441
▁విచ్ఛిన్నం	-9442
ha	-9443
మల	-9444
ర్షణ	-9445
దర్శి	-9446
మంతయు	-9447
▁పూజా	-9448
▁సవరణ	-9449
▁సీసా	-9450
ాయింట్	-9451
▁దేవుడ	-9452
▁నవ్వు	-9453
▁ఎడిటర్	-9454
▁నిర్మూ	-9455
▁నైలాన్	-9456
▁రాజును	-9457
▁సాధ్యమే	-9458
▁అనారోగ్యం	-9459
▁జోడించడానికి	-9460
9"	-9461
ym	-9462
▁SK	-9463
క్రా	-9464
త్తం	-9465
▁బట్	-9466
="0.1	-9467
బర్గ్	-9468
▁రాశి	-9469
▁రిలీ	-9470
▁శాసన	-9471
▁అంతిమ	-9472
▁అందరి	-9473
▁సహేతు	-9474
▁ల్యాప్	-9475
▁విలువలను	-9476
▁సాక్ష్యం	-9477
▁కోరుకుంటారు	-9478
ium	-9479
oth	-9480
▁AS	-9481
▁en	-9482
కిని	-9483
రింజ	-9484
▁జైలు	-9485
eposit	-9486
చేసెను	-9487
▁ప్రధా	-9488
▁చక్కగా	-9489
▁వ్రాసిన	-9490
▁ఇవ్వగలరు	-9491
▁గుర్తించడం	-9492
▁మాట్లాడారు	-9493
▁మల్టీమీడియా	-9494
▁వివరిస్తుంది	-9495
MA	-9496
den	-9497
పక్ష	-9498
▁22,	-9499
▁రియ	-9500
ందనలు	-9501
eneric	-9502
▁చౌకగా	-9503
మేజింగ్	-9504
▁జ్ఞాపక	-9505
▁ఏర్పాట్లు	-9506
▁స్నేహపూర్వక	-9507
its	-9508
▁$1	-9509
న్నే	-9510
▁Slot	-9511
▁టెర్	-9512
▁చదివి	-9513
▁ఫార్మ	-9514
▁గులాబీ	-9515
▁చర్చలు	-9516
▁ధరించు	-9517
▁మందికి	-9518
▁యాసిడ్	-9519
▁నివసించే	-9520
▁అధ్యయనాలు	-9521
▁డైరెక్టరీ	-9522
▁కనిపించింది	-9523
ూఫ్	-9524
▁mg	-9525
కాదు	-9526
యాను	-9527
వర్ణ	-9528
▁మ్ర	-9529
▁లేన	-9530
▁జావా	-9531
ందించు	-9532
▁మసాజ్	-9533
▁రుచిక	-9534
▁భోజనము	-9535
▁ముక్కు	-9536
▁జంతువుల	-9537
▁పక్షులు	-9538
▁పరీక్షా	-9539
▁బలోపేతం	-9540
▁ముగిసిన	-9541
▁దుకాణాలు	-9542
▁ప్రణాళికలు	-9543
▁విస్తారమైన	-9544
దొ	-9545
కాడ	-9546
▁Ab	-9547
▁NO	-9548
▁మల	-9549
కల్ప	-9550
▁Ant	-9551
▁టేక్	-9552
▁తొక్క	-9553
▁ఖడ్గము	-9554
▁ముగిసింది	-9555
▁నిర్ధారిస్తుంది	-9556
yt	-9557
్వా	-9558
▁Sc	-9559
శైలి	-9560
▁11.	-9561
▁Win	-9562
కృష్ణ	-9563
▁ఉమ్మ	-9564
▁బాహు	-9565
▁పెన్నీ	-9566
▁పెరుగుద	-9567
▁దినములలో	-9568
▁చెయ్యగలరు	-9569
▁స్థిరత్వం	-9570
▁వృత్తిపరమైన	-9571
▁అనుకూలీకరించ	-9572
PR	-9573
దశ	-9574
.70	-9575
ose	-9576
ents	-9577
ంచర్	-9578
పోయాయి	-9579
▁సమకాల	-9580
చుండెను	-9581
▁అధ్యాయం	-9582
▁విషయాన్ని	-9583
HA	-9584
ెము	-9585
ప్టి	-9586
లాగే	-9587
లాదు	-9588
▁కుండ	-9589
▁సోయా	-9590
ఫీల్డ్	-9591
నట్లుగా	-9592
▁అధ్యాప	-9593
▁మోయాబు	-9594
▁శస్త్ర	-9595
▁సమస్యల	-9596
▁ఆదివారం	-9597
▁అనుచరులు	-9598
▁ఉదాహరణలు	-9599
▁చాక్లెట్	-9600
▁దుర్మార్	-9601
▁సిద్ధాంతం	-9602
▁చెల్లుబాటు	-9603
▁ప్రక్రియను	-9604
.06	-9605
opy	-9606
యని	-9607
▁బడ	-9608
బిన్	-9609
▁380	-9610
▁మృతి	-9611
కొనును	-9612
▁ప్రతీ	-9613
▁హాజరు	-9614
▁క్రాక్	-9615
▁అందరికీ	-9616
▁సీనియర్	-9617
▁ఉంచుతారు	-9618
▁మనోహరమైన	-9619
▁మిక్కిలి	-9620
▁విమానాలు	-9621
▁షాన్డాంగ్	-9622
▁నిర్వహించండి	-9623
▁sub	-9624
▁అమో	-9625
చివేత	-9626
ధీరిన	-9627
యైనను	-9628
ాల్సి	-9629
▁Phot	-9630
▁టోఫు	-9631
▁గోడలు	-9632
▁చెట్లు	-9633
నుగూర్చి	-9634
▁అసిటేట్	-9635
▁సామర్ధ్య	-9636
▁సమావేశంలో	-9637
▁ప్రావిన్స్	-9638
▁నిర్వహించిన	-9639
▁నేర్చుకోవడం	-9640
;/	-9641
▁ఈత	-9642
34"&	-9643
ives	-9644
కొనే	-9645
▁బ్రూ	-9646
పత్రిక	-9647
యులును	-9648
▁ఫారమ్	-9649
▁మద్యం	-9650
▁మధ్యా	-9651
మెంట్లు	-9652
▁అన్యాయ	-9653
▁పోరాటం	-9654
▁వేగంతో	-9655
▁స్వస్థ	-9656
▁అంతకంటే	-9657
▁గోల్డెన్	-9658
▁స్క్రోల్	-9659
▁సృష్టిస్తుంది	-9660
TA	-9661
ne	-9662
:34	-9663
ren	-9664
భాగ	-9665
ించె	-9666
▁ITIL	-9667
▁రీసై	-9668
కెట్టు	-9669
▁పక్షి	-9670
▁సేవకు	-9671
▁వినోదం	-9672
▁ఉనికిని	-9673
▁డైనింగ్	-9674
▁కెనడియన్	-9675
▁ప్రయత్నిస్తున్న	-9676
nm	-9677
.15	-9678
:33	-9679
టలు	-9680
▁నర	-9681
72"&	-9682
తురస	-9683
పాడు	-9684
▁Post	-9685
▁మూర్	-9686
ములోని	-9687
▁Bonus	-9688
▁ఆరోపణ	-9689
▁శిల్ప	-9690
▁ఖాళీగా	-9691
▁దుమ్ము	-9692
▁నారింజ	-9693
▁అష్షూరు	-9694
▁ఐగుప్తీ	-9695
▁యున్నది	-9696
▁అభిమానులు	-9697
నరీ	-9698
ఫాం	-9699
దనని	-9700
ెంట్స్	-9701
▁కేకలు	-9702
▁చేరిన	-9703
▁పొందే	-9704
▁మనలను	-9705
▁విసర్	-9706
▁ఉత్తమం	-9707
▁స్విస్	-9708
▁లోపలికి	-9709
▁సరికొత్త	-9710
enericName	-9711
▁శీతాకాలంలో	-9712
▁స్టెరాయిడ్స్	-9713
▁భావిస్తున్నారు	-9714
▁Blu	-9715
▁కొర	-9716
▁ఫోర	-9717
▁మౌస్	-9718
▁సైకి	-9719
▁ప్రకటనల	-9720
▁స్థితిలో	-9721
▁రిజిస్ట్రేషన్	-9722
.40	-9723
వ్యవ	-9724
▁190	-9725
▁24,	-9726
▁ఆశ్	-9727
▁చేస	-9728
▁మరు	-9729
ములైన	-9730
వాడను	-9731
ితమైన	-9732
▁ఆవరణ	-9733
▁హిల్	-9734
▁సమ్మతి	-9735
▁కంప్రెషర్	-9736
▁పండ్రెండు	-9737
▁అంతేకాకుండా	-9738
73	-9739
LS	-9740
▁దహ	-9741
▁ఫే	-9742
port	-9743
▁con	-9744
▁ఈయన	-9745
press	-9746
ప్రతి	-9747
▁ట్రం	-9748
▁హాల్	-9749
▁హిజ్	-9750
గాల్లో	-9751
▁రాజ్యం	-9752
▁సీయోను	-9753
▁స్టోన్	-9754
▁భక్తిహీ	-9755
▁భవిష్యత్	-9756
▁శత్రువులను	-9757
▁సెలవిచ్చిన	-9758
na	-9759
▁ఘో	-9760
inch	-9761
ొకడు	-9762
గించి	-9763
▁have	-9764
▁గడ్డ	-9765
▁దీపం	-9766
దానికి	-9767
▁చున్న	-9768
▁సుగంధ	-9769
▁రుజువు	-9770
▁మిస్టర్	-9771
▁సముద్రం	-9772
▁వెళుతున్న	-9773
FC	-9774
ier	-9775
raw	-9776
గాస్	-9777
చెట్	-9778
య్యే	-9779
లాది	-9780
▁వరద	-9781
▁తుపా	-9782
కూడదని	-9783
▁గర్ల్స్	-9784
▁ఛార్జీలు	-9785
▁కోరుకుంటున్నారు	-9786
ళు	-9787
▁అగ	-9788
▁ఎక	-9789
ouse	-9790
జెస్	-9791
రాశి	-9792
లిప్	-9793
ులైన	-9794
▁ఏదే	-9795
▁Arch	-9796
▁నైవే	-9797
▁బాబు	-9798
▁ఊపిరి	-9799
▁అభ్యాస	-9800
▁చీట్స్	-9801
▁యోవాబు	-9802
▁సామ్రా	-9803
▁నమ్మదగిన	-9804
▁ఆటోమొబైల్	-9805
▁స్పోర్ట్స్	-9806
▁ఉన్నట్లయితే	-9807
▁ఎలక్ట్రికల్	-9808
ats	-9809
ept	-9810
▁vs	-9811
ఫాను	-9812
బడటం	-9813
▁మీర	-9814
▁నిస్	-9815
▁రామ్	-9816
▁ఏరియా	-9817
▁ఓవెన్	-9818
▁పుష్క	-9819
▁భాషలో	-9820
▁స్వయం	-9821
anufact	-9822
▁నిర్మా	-9823
▁చూడగలరు	-9824
▁యాజకులు	-9825
▁కర్మాగారం	-9826
▁ప్రవేశపెట్ట	-9827
ih	-9828
rin	-9829
▁(9	-9830
వర్తి	-9831
▁దోచు	-9832
▁మెర్	-9833
▁అభిలా	-9834
▁ఆయనతో	-9835
▁ఏమైనా	-9836
▁పరిశీ	-9837
▁కాన్ఫి	-9838
▁వాస్తు	-9839
▁ఇతరులకు	-9840
▁ఉపరితలం	-9841
▁విటమిన్	-9842
ించాల్సిన	-9843
▁అవసరమైతే	-9844
▁క్రికెట్	-9845
▁సిరామిక్	-9846
▁తిరుగుతోంది	-9847
▁పరిస్థితులలో	-9848
జని	-9849
వగు	-9850
01"&	-9851
ినరీ	-9852
కొనుట	-9853
▁నేర్	-9854
▁పాతి	-9855
▁మెత్త	-9856
▁డెబిట్	-9857
▁పరిగణన	-9858
▁రిటైల్	-9859
▁స్వాగత	-9860
▁మధ్యాహ్	-9861
▁జెనరేటర్	-9862
▁నిర్ణయాలు	-9863
.:	-9864
56	-9865
▁నయం	-9866
▁సేంద	-9867
▁ఉద్యమం	-9868
▁వేగవంతం	-9869
▁చెయ్యండి	-9870
▁స్పెసిఫికేషన్	-9871
డము	-9872
తగా	-9873
భరణ	-9874
హన్	-9875
ould	-9876
మ్యు	-9877
యర్స్	-9878
సమును	-9879
▁ఆస్ట	-9880
▁దొంగ	-9881
▁మంచం	-9882
▁దశలను	-9883
▁కేసులు	-9884
▁క్లెయి	-9885
▁త్యాగం	-9886
▁స్పాట్	-9887
▁ఉనికిలో	-9888
▁పరుగులు	-9889
▁పాక్షిక	-9890
▁యొర్దాను	-9891
▁సభ్యత్వం	-9892
▁ఇంగ్లాండ్	-9893
▁చేరడానికి	-9894
▁ప్రదేశంలో	-9895
TFE	-9896
▁లొ	-9897
rist	-9898
▁గణన	-9899
ction	-9900
తివిు	-9901
వేయర్	-9902
▁చేపలు	-9903
▁Zipper	-9904
▁తెచ్చి	-9905
▁న్యాయం	-9906
▁ఆర్ఫెక్	-9907
▁ఇండియన్	-9908
▁నైపుణ్యాలను	-9909
WS	-9910
▁25,	-9911
▁మాయ	-9912
-2019	-9913
న్నర్	-9914
▁ఫెర్	-9915
▁సమన్	-9916
ంటేషన్	-9917
▁ద్రావ	-9918
నందరిని	-9919
▁ఆనందంగా	-9920
▁కాపురము	-9921
▁క్లియర్	-9922
▁జరిగాయి	-9923
▁దగ్గరకు	-9924
▁సాక్ష్య	-9925
▁చేసికొని	-9926
▁దీర్ఘకాల	-9927
▁సమాధానాలు	-9928
91	-9929
USD	-9930
ప్రొ	-9931
▁ఎవరో	-9932
▁రాజా	-9933
▁గాడిద	-9934
▁త్రోవ	-9935
▁యూదుల	-9936
▁పనులను	-9937
▁పుట్టు	-9938
▁పేజీకి	-9939
▁వంటిది	-9940
▁ఉత్తమంగా	-9941
▁పంక్తులు	-9942
▁ఆబ్జెక్ట్	-9943
▁కార్యక్రమంలో	-9944
row	-9945
xbet	-9946
రిస్	-9947
▁డిప	-9948
▁మూస	-9949
▁డ్రి	-9950
▁బ్యూ	-9951
▁సింథ	-9952
కొనుడి	-9953
▁కాలము	-9954
▁నమస్క	-9955
▁పోలిక	-9956
కోవడంలో	-9957
▁గొట్టం	-9958
▁వ్యభిచ	-9959
▁గుడారము	-9960
▁నైవేద్య	-9961
▁ఉంటుందని	-9962
▁దృష్టిలో	-9963
స్తున్నట్లు	-9964
▁EC	-9965
కారా	-9966
పారు	-9967
బడదు	-9968
విషయ	-9969
▁3.0	-9970
▁Top	-9971
▁పాన	-9972
▁2002	-9973
▁పరిస	-9974
▁అచ్చట	-9975
▁ఫిక్స	-9976
▁రాజుల	-9977
▁ఈస్టర్	-9978
▁సభ్యుల	-9979
▁ఎదురుచూ	-9980
▁మెషినరీ	-9981
▁సమూయేలు	-9982
▁సంక్షిప్త	-9983
GS	-9984
TH	-9985
lton	-9986
మండ్	-9987
లేజ్	-9988
▁res	-9989
▁నేన	-9990
▁యెష	-9991
యులతో	-9992
▁ఫిష్	-9993
▁యేలీ	-9994
▁ఎడ్జ్	-9995
▁కార్లు	-9996
▁పానీయం	-9997
▁ఫోన్లు	-9998
▁వివరించ	-9999
▁వ్యక్తం	-10000
▁గణాంకాలు	-10001
▁స్క్రాప్	-10002
▁స్వచ్ఛంద	-10003
▁కోల్పోయిన	-10004
▁పరిజ్ఞానం	-10005
▁ప్రతినిధి	-10006
▁ఉపయోగించాలి	-10007
▁తరలించడానికి	-10008
,,	-10009
ull	-10010
ింగ	-10011
▁ev	-10012
▁qu	-10013
abel	-10014
iber	-10015
మెయి	-10016
▁ఎదుట	-10017
▁చెర్	-10018
▁పన్న	-10019
దేవుడు	-10020
జియాంగ్	-10021
▁అడుగులు	-10022
▁కన్వేయర్	-10023
▁కాంగ్రెస్	-10024
▁ప్రత్యేకత	-10025
▁Blockchain	-10026
▁అవకాశాన్ని	-10027
▁లక్ష్యాలను	-10028
98	-10029
కిన	-10030
ఫ్ల	-10031
ైజ్	-10032
39"&	-10033
జ్ఞా	-10034
దార్	-10035
▁Jan	-10036
▁రన్	-10037
మగును	-10038
▁గణిత	-10039
▁ట్రీ	-10040
▁రాగా	-10041
▁అన్యజ	-10042
▁సమితి	-10043
త్మకంగా	-10044
ించకుండా	-10045
▁రోజులలో	-10046
▁విజయాలు	-10047
▁మరణించిన	-10048
▁ముగ్గురు	-10049
▁స్థాయిని	-10050
▁రాష్ట్రంలో	-10051
▁వెబ్సైట్లు	-10052
%)	-10053
DS	-10054
.35	-10055
anc	-10056
ంటో	-10057
గతా	-10058
▁54	-10059
కొండ	-10060
నాకు	-10061
లియం	-10062
స్రా	-10063
▁Mon	-10064
▁జర్	-10065
▁మిళ	-10066
ఫారమ్	-10067
ొచ్చు	-10068
▁నిరో	-10069
▁ఇచ్చు	-10070
చడానికి	-10071
▁అనువైన	-10072
▁పశువుల	-10073
▁పుచ్చు	-10074
▁ప్రాక్	-10075
▁బ్లేడ్	-10076
▁హెల్త్	-10077
▁పరిశీలన	-10078
▁చిహ్నాలు	-10079
▁ఆటోమోటివ్	-10080
▁చెల్లించే	-10081
▁అధికారికంగా	-10082
arm	-10083
ora	-10084
▁URL	-10085
▁లేత	-10086
aster	-10087
దినము	-10088
వడంతో	-10089
▁PTFE	-10090
▁ట్యు	-10091
▁మెరు	-10092
▁వివర	-10093
▁కావలి	-10094
▁నిరంత	-10095
▁ప్రాయ	-10096
▁ఇండస్ట	-10097
▁కావాలా	-10098
▁భూమిపై	-10099
▁మనష్షే	-10100
▁ఉద్యోగి	-10101
▁గర్వంగా	-10102
▁సీలింగ్	-10103
▁నాణ్యతను	-10104
▁రొమ్ములు	-10105
ret	-10106
▁Me	-10107
▁శై	-10108
గార్	-10109
సెన్	-10110
▁ఆగి	-10111
యుండి	-10112
▁కొలు	-10113
▁తిరగ	-10114
▁వాహన	-10115
కుడిగా	-10116
మోన్స్	-10117
▁ఎగురు	-10118
▁థెరపీ	-10119
▁ఢిల్లీ	-10120
▁ఫైనాన్	-10121
▁ఏర్పరచు	-10122
▁లాకెట్టు	-10123
▁ఫ్లోరింగ్	-10124
▁లెక్కింపు	-10125
▁వ్యాపారాన్ని	-10126
▁విభజించబడింది	-10127
దాలు	-10128
బాము	-10129
రాయి	-10130
వ్యత	-10131
శిటీ	-10132
▁15,	-10133
▁Map	-10134
▁అసం	-10135
ద్దరు	-10136
వైరస్	-10137
▁Comp	-10138
▁మంగళ	-10139
▁ఎడ్యు	-10140
▁ఆల్బమ్	-10141
▁మాస్టర్స్	-10142
▁స్టేషన్లు	-10143
.',	-10144
STR	-10145
చెన్	-10146
డాలు	-10147
రైడ్	-10148
▁దండ	-10149
▁విల	-10150
▁సల్	-10151
board	-10152
▁వాలె	-10153
తరువాత	-10154
▁నామము	-10155
్రాల్లో	-10156
▁తెల్లని	-10157
▁సహకరించ	-10158
anufactur	-10159
▁నిష్పత్తి	-10160
IR	-10161
vi	-10162
ope	-10163
మలు	-10164
టాని	-10165
▁Air	-10166
▁మేధ	-10167
ళ్లకు	-10168
ెల్స్	-10169
▁భయము	-10170
స్థానం	-10171
▁కాపాడ	-10172
▁మారిన	-10173
▁అడుగగా	-10174
▁అయింది	-10175
▁అలవాటు	-10176
▁ఉమ్మడి	-10177
▁ప్రాంగ	-10178
▁బ్రోకర్	-10179
▁ఫ్యాక్స్	-10180
▁బ్రెజిల్	-10181
▁కుమారులను	-10182
▁పార్కింగ్	-10183
▁సస్పెన్షన్	-10184
:35	-10185
ople	-10186
▁పీస్	-10187
▁రండి	-10188
▁నైతిక	-10189
లాండ్స్	-10190
▁ఎవడును	-10191
▁కవరేజ్	-10192
▁చిట్కా	-10193
▁టెస్టర్	-10194
▁పత్రికా	-10195
▁సిగ్నల్	-10196
▁రిపోర్ట్	-10197
▁లోదుస్తు	-10198
▁మనుష్యుడు	-10199
▁ఇన్సులేషన్	-10200
▁మొదలవుతుంది	-10201
▁యెరూషలేమునకు	-10202
▁రూపొందించినవారు	-10203
క్కల	-10204
మేట్	-10205
రావు	-10206
▁Pol	-10207
▁che	-10208
▁సుఖ	-10209
▁చంపి	-10210
▁ఉపాధి	-10211
▁వస్తే	-10212
▁గృహాలు	-10213
▁దానిమీద	-10214
▁ప్రస్తా	-10215
▁బ్రిటన్	-10216
▁జాక్పాట్	-10217
▁జిల్లాలో	-10218
▁చేసుకోవడం	-10219
▁మందిరమును	-10220
▁రికార్డర్	-10221
ada	-10222
▁జం	-10223
▁ఉజ్	-10224
▁ఎసి	-10225
▁Apps	-10226
▁పాప్	-10227
క్రీటు	-10228
పోతాయి	-10229
లోనికి	-10230
సెక్స్	-10231
▁మరుగు	-10232
▁మోక్ష	-10233
▁క్వార్	-10234
▁జనులను	-10235
▁వచ్చాయి	-10236
▁హిజ్కియా	-10237
▁నిరోధించడానికి	-10238
స్థు	-10239
▁సుంద	-10240
▁విషయాల	-10241
▁సంతోషి	-10242
▁క్షేత్ర	-10243
▁వారిమీద	-10244
▁చున్నాను	-10245
▁దర్శకత్వం	-10246
▁లావాదేవీలు	-10247
uy	-10248
షూ	-10249
ify	-10250
ips	-10251
దుల	-10252
▁do	-10253
టీస్	-10254
పిన్	-10255
వద్ద	-10256
శాయి	-10257
▁12.	-10258
▁తమి	-10259
ొక్కు	-10260
▁గాడి	-10261
పోయిరి	-10262
స్థుడు	-10263
ించబడే	-10264
▁ఆలస్య	-10265
▁గ్రహీ	-10266
ప్రారంభ	-10267
▁బాప్టి	-10268
▁రోడ్డు	-10269
▁పేర్కొన	-10270
▁మాత్రలు	-10271
▁కార్యాలయ	-10272
▁పన్నెండు	-10273
▁మనుష్యుల	-10274
▁మన్నికైన	-10275
▁నిబంధనలను	-10276
▁ప్రొఫెసర్	-10277
▁రుచికరమైన	-10278
ాలిక్యులేటర్	-10279
ించుచున్నాను	-10280
▁యూనివర్శిటీ	-10281
IK	-10282
AME	-10283
yst	-10284
సమూ	-10285
▁NE	-10286
▁up	-10287
ific	-10288
నిగా	-10289
▁1.0	-10290
▁కిం	-10291
earch	-10292
▁చీఫ్	-10293
▁డెల్	-10294
▁తినే	-10295
▁యువత	-10296
క్రింద	-10297
జెనిక్	-10298
ములమీద	-10299
▁గుండా	-10300
▁పూర్ణ	-10301
▁వర్షం	-10302
▁పెంచడం	-10303
▁రాజులు	-10304
▁రిపోర్	-10305
▁వ్యాయామ	-10306
▁టెలివిజన్	-10307
CE	-10308
▁పం	-10309
చారి	-10310
▁లేవ	-10311
▁Long	-10312
▁porn	-10313
▁నోట్	-10314
▁పతనం	-10315
▁లారా	-10316
ందరికీ	-10317
బెట్టు	-10318
▁క్యాంప	-10319
▁దీనితో	-10320
▁షూటింగ్	-10321
▁అవుట్డోర్	-10322
▁కాంక్రీటు	-10323
▁చేతిలోనుండి	-10324
▁ఇండస్ట్రియల్	-10325
▁దుష్ప్రభావాలను	-10326
BA	-10327
మయ	-10328
alt	-10329
oot	-10330
ేల్	-10331
రోజూ	-10332
▁30,	-10333
▁శివ	-10334
▁ద్వి	-10335
▁నుండ	-10336
▁హాజర	-10337
▁యేలిన	-10338
▁రోటరీ	-10339
▁ఫ్లూట్	-10340
▁అన్వేషణ	-10341
▁కొనసాగి	-10342
▁సారాంశం	-10343
▁గుర్తుంచుకోండి	-10344
నక	-10345
umb	-10346
alls	-10347
క్తలు	-10348
ధ్వని	-10349
్రంట్	-10350
▁కూపన్	-10351
▁వాడకం	-10352
▁విడుద	-10353
▁చేతికి	-10354
ినప్పుడు	-10355
▁కాంట్రా	-10356
▁ఛార్జర్	-10357
▁డబ్బును	-10358
▁తేలికగా	-10359
▁వాహనాలు	-10360
▁విక్రేత	-10361
pm	-10362
.95	-10363
ంబు	-10364
మార	-10365
సలు	-10366
▁95	-10367
ites	-10368
నాన్	-10369
▁ఓటు	-10370
▁నికో	-10371
▁హ్యూ	-10372
▁జాతుల	-10373
▁ప్యాల	-10374
▁మందుల	-10375
▁రాక్ష	-10376
▁వీలైన	-10377
▁అరుదైన	-10378
▁భూగర్భ	-10379
▁యెహోవాయ	-10380
▁సులభతరం	-10381
▁సేంద్రీయ	-10382
▁తేలికపాటి	-10383
▁సెప్టెంబరు	-10384
▁ఫిలిష్తీయుల	-10385
▁ప్రదర్శిస్తుంది	-10386
OC	-10387
Pro	-10388
షేక	-10389
ooth	-10390
న్యూ	-10391
వును	-10392
▁26,	-10393
▁360	-10394
▁ఉరి	-10395
ంటాడు	-10396
చూడండి	-10397
టీరియా	-10398
డ్రోమ్	-10399
▁month	-10400
▁అసలైన	-10401
▁వెల్లడ	-10402
▁పొందారు	-10403
▁ఫైళ్లను	-10404
▁అలంకరించ	-10405
▁చేయకుండా	-10406
▁ఇన్వెస్ట్	-10407
▁కనిపెట్టు	-10408
▁ప్లాట్ఫారమ్	-10409
▁మార్చబడింది	-10410
pdf	-10411
ling	-10412
▁మనసు	-10413
గ్రామ్	-10414
▁ఆక్రమ	-10415
▁కణాలు	-10416
▁సమర్పణ	-10417
▁సైట్లో	-10418
▁నిర్ణయి	-10419
▁సూచించే	-10420
▁దురదృష్టవశా	-10421
▁అనిపిస్తుంది	-10422
▁పునరుత్పత్తి	-10423
ాయన	-10424
▁EU	-10425
▁ఇంప	-10426
▁గుహ	-10427
▁item	-10428
▁లాస్	-10429
చేయుము	-10430
▁కనబడు	-10431
▁కలిగే	-10432
▁మరికొ	-10433
▁వ్యయం	-10434
▁గ్రిడ్	-10435
▁బెస్ట్	-10436
▁సమకూర్	-10437
▁కావాలని	-10438
▁శత్రువుల	-10439
▁మనుష్యుని	-10440
కస్	-10441
ober	-10442
చేసు	-10443
▁API	-10444
▁కోణ	-10445
▁రతి	-10446
చర్లు	-10447
పర్లు	-10448
▁డాల్	-10449
▁సాదా	-10450
రాకిల్	-10451
స్టిక్	-10452
▁అట్లు	-10453
▁నిలబడ	-10454
▁పేజీల	-10455
▁బలంగా	-10456
▁డ్యూటీ	-10457
▁నిర్దో	-10458
▁లోతుగా	-10459
▁ప్రశంసలు	-10460
▁సమావేశాలు	-10461
▁ప్రదేశాలలో	-10462
▁అనుసంధానించ	-10463
▁డెవలప్మెంట్	-10464
▁నివారించేందుకు	-10465
mA	-10466
als	-10467
oph	-10468
శేష	-10469
▁Wi	-10470
ized	-10471
ness	-10472
బిక్	-10473
ANSCO	-10474
పొందు	-10475
రెంట్	-10476
▁పరచు	-10477
▁మేరకు	-10478
▁గొలుసు	-10479
▁విసర్జ	-10480
▁ఉత్పన్న	-10481
▁చేయడంలో	-10482
▁సాంద్రత	-10483
▁చెయ్యాలి	-10484
▁అమెరికాలో	-10485
▁వేరియబుల్	-10486
▁మార్గదర్శకాలు	-10487
క్షా	-10488
పడటం	-10489
▁అహీ	-10490
ార్థం	-10491
▁0086	-10492
▁ఆభరణ	-10493
▁వినూ	-10494
▁అనుకో	-10495
▁ఆల్ఫా	-10496
▁పరిచయ	-10497
▁చేయబడి	-10498
▁పేతురు	-10499
▁ప్రభువా	-10500
▁ఉన్నతమైన	-10501
▁ఉండడానికి	-10502
▁ప్రతిరోజూ	-10503
▁ఆహ్లాదకరమైన	-10504
▁శస్త్రచికిత్స	-10505
▁అందిస్తున్నాయి	-10506
DC	-10507
ఆన్	-10508
▁RT	-10509
▁ఖై	-10510
థ్యూ	-10511
యంగ్	-10512
▁350	-10513
▁అణు	-10514
▁ఫన్	-10515
▁హేయ	-10516
జెంట్	-10517
▁పద్ద	-10518
▁వెల్	-10519
▁హెక్	-10520
▁బొగ్గు	-10521
▁అవ్వండి	-10522
▁ఛాంపియన్	-10523
▁పుష్కలంగా	-10524
▁సమస్తమును	-10525
శం	-10526
:40	-10527
ely	-10528
రణం	-10529
▁ఆవ	-10530
▁+86	-10531
▁చివ	-10532
ర్రర్	-10533
▁1999	-10534
▁అతడి	-10535
▁డాష్	-10536
పోగులు	-10537
▁బిగ్గ	-10538
▁సప్లి	-10539
▁సాంగ్	-10540
▁కొడుకు	-10541
▁గొర్రె	-10542
▁వైపులా	-10543
▁యువకులు	-10544
▁అంగుళాలు	-10545
▁చెబుతారు	-10546
▁కోల్పోతారు	-10547
!"	-10548
IG	-10549
UT	-10550
LAN	-10551
కని	-10552
▁By	-10553
ఫిన్	-10554
హత్య	-10555
ిందో	-10556
▁గ్రౌ	-10557
▁జోర్	-10558
ించేది	-10559
▁ప్రొడ	-10560
▁లెదర్	-10561
▁వ్యాస	-10562
▁రాశారు	-10563
▁సాపేక్ష	-10564
▁మనస్సులో	-10565
▁SA	-10566
▁te	-10567
విస్	-10568
▁డెన్	-10569
▁యేలు	-10570
▁అందజే	-10571
▁అడిగిన	-10572
▁టెండర్	-10573
▁పిల్లి	-10574
▁దుస్తుల	-10575
▁పెద్దది	-10576
▁పోర్టల్	-10577
▁దాదాపుగా	-10578
▁సిండ్రోమ్	-10579
▁స్టార్టర్	-10580
ka	-10581
టస్	-10582
గితే	-10583
ట్రే	-10584
▁అవస	-10585
▁ఏలా	-10586
▁చావ	-10587
▁అంతర	-10588
▁గుళిక	-10589
▁ద్వీప	-10590
▁మూత్ర	-10591
▁యెషయా	-10592
▁సోదరి	-10593
▁వర్తకం	-10594
▁ఎగ్జిబి	-10595
▁రేసింగ్	-10596
▁సృష్టించండి	-10597
tr	-10598
క్కీ	-10599
దర్స్	-10600
రుకైన	-10601
స్తంభ	-10602
▁యింట	-10603
నాల్లో	-10604
య్యాడు	-10605
▁ఎడారి	-10606
▁పంపడం	-10607
▁యూరప్	-10608
▁అధిరోహ	-10609
▁కచ్చిత	-10610
▁కిడ్స్	-10611
▁వద్దకు	-10612
▁నప్పుడు	-10613
▁సమూహాలు	-10614
▁హైదరాబాద్	-10615
▁ప్రమాదకరమైన	-10616
▁సంపాదించడానికి	-10617
.05	-10618
ams	-10619
ోతి	-10620
▁LT	-10621
▁im	-10622
▁అలస	-10623
బర్ట్	-10624
▁PARK	-10625
▁ఇక్క	-10626
▁రాజీ	-10627
గొట్టి	-10628
▁నాలుక	-10629
▁సంసార	-10630
▁అభిలాషి	-10631
▁వైఫల్యం	-10632
▁క్రమబద్ధ	-10633
▁పారదర్శక	-10634
▁జెజియాంగ్	-10635
▁డ్రైవర్లు	-10636
▁పరికరములు	-10637
ములన్నిటిని	-10638
▁చెవిపోగులు	-10639
▁తెలుస్తుంది	-10640
▁ఇవ్వబడుతుంది	-10641
▁(6	-10642
▁అజ	-10643
read	-10644
▁ధూమ	-10645
▁పడే	-10646
▁ఫైన	-10647
▁కండర	-10648
▁క్వా	-10649
▁నాడు	-10650
▁ఫుడ్	-10651
▁ఇంకొక	-10652
▁ఉంచాలి	-10653
▁పెళ్ళి	-10654
▁వారాంత	-10655
▁వర్చువల్	-10656
▁సమయానికి	-10657
▁పాల్గొన్న	-10658
▁భావించారు	-10659
▁ఎగ్జిబిషన్	-10660
▁రెండుసార్లు	-10661
96	-10662
hu	-10663
opp	-10664
▁pre	-10665
▁పాకి	-10666
▁బలము	-10667
▁మున్	-10668
▁స్తో	-10669
▁అడ్డం	-10670
▁ఉండవు	-10671
▁విజేత	-10672
నుబట్టి	-10673
▁మెరుపు	-10674
▁వుపయోగ	-10675
▁బ్లాండ్	-10676
▁మరోవైపు	-10677
▁స్వీడన్	-10678
▁ఆర్టికల్	-10679
▁క్రాఫ్ట్	-10680
▁తోడుకొని	-10681
▁వర్గీకరణ	-10682
▁సమ్మేళనం	-10683
▁చేసినట్లు	-10684
▁భావించాడు	-10685
▁దుర్వినియోగ	-10686
▁కలిగిస్తుంది	-10687
js	-10688
xx	-10689
థం	-10690
భం	-10691
cut	-10692
htt	-10693
▁We	-10694
▁తృ	-10695
ucks	-10696
▁మధు	-10697
మాన్య	-10698
▁1980	-10699
నిరోధక	-10700
▁నెదర్	-10701
▁తీసుకె	-10702
▁పౌరులు	-10703
▁మురికి	-10704
▁స్కేట్	-10705
▁కుటుంబాలు	-10706
ంథ	-10707
భై	-10708
key	-10709
క్సో	-10710
బార్	-10711
▁1.2	-10712
▁వహి	-10713
▁Copy	-10714
▁RFID	-10715
▁కురి	-10716
▁టీవీ	-10717
క్రిప్	-10718
బడ్డాడు	-10719
మవుతాయి	-10720
▁స్థలాలు	-10721
▁సముద్రపు	-10722
▁అవకాశాలను	-10723
▁డిటెక్టర్	-10724
GenericName	-10725
▁కార్మికులు	-10726
టరు	-10727
▁Pe	-10728
ider	-10729
▁Lit	-10730
▁అహం	-10731
▁రంధ	-10732
ెస్టి	-10733
▁diff	-10734
▁కోసే	-10735
▁మాటల	-10736
▁సేఫ్	-10737
▁Enter	-10738
▁కిలోల	-10739
▁వినోద	-10740
ltonika	-10741
▁ఉండేవి	-10742
▁దిగువన	-10743
▁రక్తము	-10744
▁యాక్షన్	-10745
▁సిల్వర్	-10746
▁Teltonika	-10747
▁ప్రదేశాలు	-10748
▁ఉపసంహరించు	-10749
ష్యూ	-10750
▁13,	-10751
▁Feb	-10752
మీటర్	-10753
ారంగా	-10754
▁చెదర	-10755
▁థామస్	-10756
ించదగిన	-10757
▁ఆహారము	-10758
▁ప్రతిఘ	-10759
▁బ్రాడ్	-10760
▁వివరాల	-10761
▁సరళమైన	-10762
▁అప్లోడ్	-10763
▁ఎప్పటిక	-10764
▁ఐరోపాలో	-10765
▁డైనమిక్	-10766
▁వినూత్న	-10767
▁హోటల్స్	-10768
▁కార్టూన్	-10769
▁నిర్లక్ష	-10770
▁వ్రాయండి	-10771
▁సంభావ్యత	-10772
▁సింథటిక్	-10773
▁ఆన్లైన్లో	-10774
▁ప్రెసిషన్	-10775
కన్	-10776
▁(8	-10777
ello	-10778
ందరూ	-10779
ధికా	-10780
నైట్	-10781
పానం	-10782
▁రోమ	-10783
పూరిత	-10784
ీన్స్	-10785
▁క్వి	-10786
▁గవర్	-10787
▁పండి	-10788
▁యందు	-10789
క్షనల్	-10790
పోయినా	-10791
▁దాచిన	-10792
▁బహుగా	-10793
▁తెగులు	-10794
▁ప్రయోగా	-10795
ండ్రోలోన్	-10796
ించునట్లు	-10797
▁చేతుల్లో	-10798
▁రివార్డ్	-10799
▁వెళుతుంది	-10800
కుంటున్నారో	-10801
▁సంవత్సరాల్లో	-10802
▁ఉపయోగపడుతుంది	-10803
gl	-10804
▁(7	-10805
▁CN	-10806
▁EN	-10807
▁ms	-10808
35"&	-10809
="15	-10810
emap	-10811
కూడా	-10812
చనము	-10813
మ్మట	-10814
▁3.5	-10815
▁5.5	-10816
▁కన్న	-10817
▁హాలి	-10818
క్యామ్	-10819
▁Power	-10820
▁తరపున	-10821
▁లభ్యత	-10822
▁వెదకు	-10823
▁గిడ్డం	-10824
▁చివరగా	-10825
▁దహనబలి	-10826
▁అమ్ముడు	-10827
▁ప్రఖ్యా	-10828
▁ఫ్రాంక్	-10829
▁వంటకాలు	-10830
▁ట్రాక్టర్	-10831
▁పరిమాణంలో	-10832
▁మర్చిపోతే	-10833
▁వాలెంటైన్	-10834
duc	-10835
▁66	-10836
యాస్	-10837
యుము	-10838
స్మా	-10839
▁30%	-10840
▁సహచ	-10841
య్యాయి	-10842
▁అవమాన	-10843
▁ఇండోర్	-10844
▁మిల్లు	-10845
▁ముసుగు	-10846
▁న్యాయము	-10847
▁పరిశీలి	-10848
▁పురోగతి	-10849
▁ప్రశ్ని	-10850
▁చంద్రుడు	-10851
▁కేంద్రాలు	-10852
▁పద్ధతులను	-10853
▁పరిస్థితులకు	-10854
▁చెల్లించడానికి	-10855
fin	-10856
▁63	-10857
edia	-10858
▁జేబు	-10859
▁మనలో	-10860
▁విల్	-10861
ingdao	-10862
లిక్స్	-10863
శిక్షణ	-10864
▁అమ్మక	-10865
▁ఔత్సా	-10866
▁దొంగి	-10867
▁వ్యవస	-10868
▁చార్ట్	-10869
ించుకొని	-10870
▁శిక్షణా	-10871
▁పనిచేశారు	-10872
▁సమర్పించిన	-10873
▁చేసేటప్పుడు	-10874
▁ప్రదేశాల్లో	-10875
td	-10876
:36	-10877
atic	-10878
నాటి	-10879
వ్యం	-10880
ింపక	-10881
▁CPA	-10882
▁app	-10883
elash	-10884
టీఆర్	-10885
మికల్	-10886
▁Play	-10887
▁జిమ్	-10888
▁నందు	-10889
జిక్యూ	-10890
▁China	-10891
▁అలెర్	-10892
▁యుండు	-10893
▁ధరించి	-10894
▁పాకెట్	-10895
▁పేలుడు	-10896
▁ప్రతిభ	-10897
భివృద్ధి	-10898
▁నష్టాలు	-10899
▁నవీకరణలు	-10900
▁చెబుతుంది	-10901
▁చర్చించడానికి	-10902
xml	-10903
కువ	-10904
లాస	-10905
▁He	-10906
▁కాన	-10907
▁కెట	-10908
పరచిన	-10909
లలోని	-10910
▁కలర్	-10911
▁గిరి	-10912
▁గుంట	-10913
▁సూట్	-10914
ింతును	-10915
▁ప్రవహ	-10916
▁భ్రమణ	-10917
▁గిలాదు	-10918
▁ప్రూఫ్	-10919
▁మిళితం	-10920
▁డెవలపర్	-10921
▁థియేటర్	-10922
▁ఫీచర్స్	-10923
▁రోలింగ్	-10924
▁హిస్టరీ	-10925
▁పూర్తయిన	-10926
▁స్త్రీని	-10927
▁మారుతున్న	-10928
▁పాస్వర్డ్ను	-10929
▁సర్వస్వామ్య	-10930
NO	-10931
ks	-10932
lin	-10933
▁ఎన	-10934
▁101	-10935
▁14,	-10936
▁Pay	-10937
ఇదిగో	-10938
▁ట్వీ	-10939
▁రియా	-10940
క్కులు	-10941
మూర్తి	-10942
స్టార్	-10943
▁కాలువ	-10944
▁టైటిల్	-10945
▁టైల్స్	-10946
ించువాడు	-10947
▁అమ్మకాల	-10948
▁బలిపీఠము	-10949
▁వ్యవధిలో	-10950
▁ప్రవక్తలు	-10951
▁సర్టిఫైడ్	-10952
▁కుమార్తెలు	-10953
ఠా	-10954
▁టొ	-10955
.000	-10956
view	-10957
▁Ste	-10958
▁ఎదో	-10959
▁చాన	-10960
▁1200	-10961
▁వేవ్	-10962
▁అసమాన	-10963
▁కనెక్	-10964
▁బల్బ్	-10965
▁ఖాతాకు	-10966
▁దేవాలయ	-10967
▁ల్యాబ్	-10968
▁ప్రోటోకాల్	-10969
▁వెబ్క్యామ్	-10970
▁Im	-10971
▁pp	-10972
1000	-10973
▁వెను	-10974
దిక్కు	-10975
ములోను	-10976
▁కాటన్	-10977
▁నడుపు	-10978
హారార్థ	-10979
▁డిసెంబరు	-10980
▁దేశమునకు	-10981
▁పరిజ్ఞాన	-10982
▁హాస్పిటల్	-10983
▁ఉపాధ్యాయులు	-10984
UC	-10985
▁ER	-10986
మ్యం	-10987
మ్యా	-10988
శాను	-10989
▁అరి	-10990
▁మత్	-10991
▁(199	-10992
▁తెలప	-10993
▁రేంజ్	-10994
▁వేయడం	-10995
▁ట్యుటో	-10996
▁మునిగి	-10997
▁లైసెన్	-10998
▁Qingdao	-10999
▁తేలికైన	-11000
పరచడానికి	-11001
▁ఫ్లెక్సి	-11002
▁నమ్ముతారు	-11003
▁పంపడానికి	-11004
▁నిర్వాహకులు	-11005
▁నిర్ణయించుకుంది	-11006
to	-11007
uit	-11008
uth	-11009
▁3-	-11010
▁88	-11011
land	-11012
డతలు	-11013
ఫ్రా	-11014
▁రత్	-11015
▁గేజ్	-11016
▁పౌలు	-11017
▁ములు	-11018
▁లేరు	-11019
▁అక్రమ	-11020
▁ఈస్ట్	-11021
▁గిఫ్ట్	-11022
▁గోల్ఫ్	-11023
▁డిస్నీ	-11024
▁సమూహము	-11025
▁contact	-11026
▁కలరింగ్	-11027
▁గమనికలు	-11028
▁అనుసరించ	-11029
▁ఆశ్చర్యం	-11030
▁తొమ్మిది	-11031
▁బ్రాకెట్	-11032
▁యున్నాను	-11033
▁శత్రువులు	-11034
▁తెరవడానికి	-11035
▁విస్తరించి	-11036
ano	-11037
▁Mr	-11038
:00,	-11039
ెంజ్	-11040
▁దేహ	-11041
▁లెబ	-11042
ార్జ్	-11043
▁ద్రో	-11044
▁రంగం	-11045
▁రోజ్	-11046
ంద్రియ	-11047
▁పౌండ్	-11048
▁పూజారి	-11049
▁రాలేదు	-11050
▁అధికారి	-11051
▁సాధారణం	-11052
▁స్లయిడ్	-11053
▁అవసరాన్ని	-11054
▁పరిమాణాలు	-11055
▁ప్రతిపాదన	-11056
anufacturer	-11057
▁సంబంధాన్ని	-11058
..!	-11059
▁UN	-11060
uper	-11061
్రమ్	-11062
▁For	-11063
▁తీగ	-11064
▁కర్మ	-11065
▁వైఫై	-11066
▁ఇస్సా	-11067
▁సంచిక	-11068
▁ఉంటాడు	-11069
▁కాస్ట్	-11070
▁క్యాప్	-11071
▁మోల్డ్	-11072
▁జనాభాలో	-11073
▁మీటర్లు	-11074
▁క్లెయిమ్	-11075
▁దేశానికి	-11076
▁బర్నింగ్	-11077
▁విజయవంతం	-11078
▁అభివృద్ధికి	-11079
▁మెటీరియల్స్	-11080
▁దురదృష్టవశాత్తు	-11081
ధృ	-11082
now	-11083
rug	-11084
పస్	-11085
భాష	-11086
▁4)	-11087
▁9:	-11088
బాబు	-11089
ులతో	-11090
▁27,	-11091
▁Apr	-11092
▁ఇను	-11093
▁ఏలు	-11094
▁సకల	-11095
▁more	-11096
▁రాణి	-11097
▁ల్యూ	-11098
▁విము	-11099
▁షిప్	-11100
కాస్ట్	-11101
వానిని	-11102
▁అయ్యా	-11103
▁జన్యు	-11104
▁ప్రొట	-11105
▁వాడటం	-11106
లోనున్న	-11107
▁సహేతుకమైన	-11108
▁అసాధారణమైన	-11109
▁తెలిసికొను	-11110
▁వైద్యుడిని	-11111
▁వ్యాపారులు	-11112
▁క్రిస్టియన్	-11113
రళ	-11114
-14	-11115
amb	-11116
ండం	-11117
▁'%	-11118
▁జమ	-11119
▁భే	-11120
ales	-11121
utes	-11122
ద్రా	-11123
పాతం	-11124
బెల్	-11125
వాసం	-11126
▁0.2	-11127
▁ODM	-11128
▁కచే	-11129
నకును	-11130
వేటర్	-11131
▁కేర్	-11132
▁గాను	-11133
▁రేడి	-11134
▁వ్యయ	-11135
న్నిస్	-11136
▁అతిశయ	-11137
పడ్డాడు	-11138
▁రంధ్రం	-11139
▁పరిసయ్య	-11140
▁వాకింగ్	-11141
▁పరిశోధనలు	-11142
▁విరోధముగా	-11143
▁రికార్డులు	-11144
yd	-11145
జక	-11146
జై	-11147
▁72	-11148
ఉచిత	-11149
▁నవల	-11150
▁నీడ	-11151
="0.2	-11152
నీయుల	-11153
▁క్షి	-11154
▁మెటా	-11155
▁యంగ్	-11156
▁వైడ్	-11157
బోర్డు	-11158
▁భూకంప	-11159
▁దశాబ్ద	-11160
▁నేపథ్య	-11161
▁ఫెమ్మే	-11162
▁ఫ్రంట్	-11163
▁సాధించ	-11164
▁అన్యజను	-11165
▁నగరాల్లో	-11166
▁పాఠశాలలో	-11167
▁కృతజ్ఞతలు	-11168
▁చంపడానికి	-11169
▁నిర్మూలము	-11170
▁ఎప్పటికప్పుడు	-11171
HD	-11172
.08	-11173
▁Wh	-11174
ames	-11175
oooo	-11176
▁Out	-11177
▁ఐసో	-11178
▁బేక	-11179
కులతో	-11180
శిక్ష	-11181
ష్ట్ర	-11182
▁దయ్య	-11183
▁పరుగ	-11184
▁మెయి	-11185
▁వేదా	-11186
itemap	-11187
కధిపతి	-11188
▁ఎక్కి	-11189
▁కోరల్	-11190
▁ధ్యానం	-11191
▁పెరగడం	-11192
ించితిని	-11193
▁Deposit	-11194
▁Tollywood	-11195
▁మార్గాలను	-11196
▁పరిస్థితిని	-11197
PP	-11198
ke	-11199
ూయ	-11200
arg	-11201
తర్	-11202
ర్ణ	-11203
గ్నీ	-11204
నేమి	-11205
సాస్	-11206
▁160	-11207
ology	-11208
ప్రభు	-11209
▁టాయ్	-11210
▁తానే	-11211
▁సాహస	-11212
▁ఏమిటో	-11213
▁కాల్చి	-11214
▁దెబ్బతి	-11215
▁మిర్రర్	-11216
▁కొంతకాలం	-11217
▁యోనాతాను	-11218
▁ఉద్దేశించిన	-11219
▁జరుపుకుంటారు	-11220
భార	-11221
యడం	-11222
▁అట	-11223
కేమి	-11224
టినీ	-11225
▁900	-11226
▁ముంబ	-11227
చ్చారు	-11228
దారుడు	-11229
▁స్వాత	-11230
▁రక్షిత	-11231
▁కనబడెను	-11232
▁చిన్నది	-11233
▁స్పాంజ్	-11234
▁Comments	-11235
▁చూస్తున్నారు	-11236
3.	-11237
నంత	-11238
లేవు	-11239
▁Eth	-11240
▁ఏదీ	-11241
▁దాన	-11242
▁కలుష	-11243
▁నామీద	-11244
▁పరుగె	-11245
▁చక్రాల	-11246
▁ఫ్లవర్	-11247
▁విరామం	-11248
▁ఆహారాలు	-11249
▁ఖర్చుతో	-11250
▁డిగ్రీల	-11251
▁పన్నులు	-11252
▁పాత్రలు	-11253
▁యుండును	-11254
▁ప్రైవేటు	-11255
▁రియాలిటీ	-11256
▁ఇవ్వబడింది	-11257
▁ఫ్యాబ్రిక్	-11258
▁ఆకృతీకరించు	-11259
▁ప్రతిస్పందన	-11260
▁విద్యార్థుల	-11261
▁విస్తరించింది	-11262
lex	-11263
ండని	-11264
అతను	-11265
గోరి	-11266
▁was	-11267
▁ఓడి	-11268
▁థర్	-11269
▁భరో	-11270
కర్స్	-11271
మార్గ	-11272
ులును	-11273
▁పాన్	-11274
▁సాంఘ	-11275
మాక్స్	-11276
▁ఆల్టో	-11277
▁సంభవి	-11278
▁అంకారా	-11279
▁చేయగలి	-11280
▁మరియొక	-11281
▁మేల్కొ	-11282
▁సోడియం	-11283
ంటీరియర్	-11284
▁చేయలేరు	-11285
▁సేవకుడు	-11286
▁కోరుకునే	-11287
▁ప్రింటర్	-11288
▁విస్తీర్	-11289
▁ఆలోచించడం	-11290
▁ఛార్జింగ్	-11291
▁ప్రమాదంలో	-11292
▁ప్రయాణంలో	-11293
▁చెప్పడానికి	-11294
UL	-11295
.45	-11296
ero	-11297
irt	-11298
▁5%	-11299
▁59	-11300
▁Br	-11301
▁we	-11302
text	-11303
▁నడక	-11304
▁షోమ	-11305
మూహిక	-11306
వత్సర	-11307
స్థుల	-11308
▁జియో	-11309
▁label	-11310
▁ఇంజన్	-11311
▁చేయగా	-11312
▁పనికి	-11313
▁బర్న్	-11314
▁సార్వ	-11315
▁పిలిచి	-11316
▁పిలుపు	-11317
▁పోలీస్	-11318
▁ప్లేస్	-11319
▁వైద్యం	-11320
▁October	-11321
▁బిల్డర్	-11322
▁రాజ్యము	-11323
ములన్నియు	-11324
▁కాల్షియం	-11325
▁సూర్యుని	-11326
▁ఎగ్జిక్యూ	-11327
▁ఎఫ్రాయిము	-11328
▁గుర్తించి	-11329
▁చూపుతుంది	-11330
▁స్ట్రిప్పింగ్	-11331
Fi	-11332
ఛే	-11333
▁o	-11334
ism	-11335
mer	-11336
ంతట	-11337
▁HB	-11338
ల్చు	-11339
హాబు	-11340
▁31,	-11341
▁కవచ	-11342
▁నగల	-11343
▁పీఠ	-11344
▁హర్	-11345
స్క్ర	-11346
▁డాన్	-11347
▁ఉండడం	-11348
▁పత్తి	-11349
▁మూరలు	-11350
▁వాడిన	-11351
▁చదివిన	-11352
▁ఫ్యాన్	-11353
▁ఇష్టపడే	-11354
▁ఎన్నికల	-11355
▁ఒరాకిల్	-11356
▁అభ్యర్థి	-11357
▁ఉన్నాయని	-11358
▁చిత్రంలో	-11359
▁బిగ్గరగా	-11360
▁కంటెంట్ను	-11361
▁ఎడ్యుకేషన్	-11362
▁ప్రయాణించే	-11363
/-	-11364
PL	-11365
ade	-11366
ani	-11367
ner	-11368
టము	-11369
▁4-	-11370
▁Le	-11371
సోల్	-11372
▁CAS	-11373
▁ఇంక	-11374
పరుచు	-11375
ట్రిక్	-11376
▁చేయటం	-11377
▁క్రాష్	-11378
▁అసాధ్యం	-11379
▁తప్పుగా	-11380
▁ప్రోత్సాహ	-11381
▁విత్తనాలు	-11382
▁స్క్రిప్ట్	-11383
▁Description	-11384
▁గుర్తించారు	-11385
▁నిర్ణయించబడతాయి	-11386
$1	-11387
oon	-11388
కనీ	-11389
గడం	-11390
ెగ్	-11391
గ్నే	-11392
రియం	-11393
షాలో	-11394
▁Get	-11395
▁Job	-11396
ంశాలు	-11397
▁కూడు	-11398
▁లాట్	-11399
▁చొప్ప	-11400
స్టెంట్	-11401
▁దృఢమైన	-11402
▁బోల్ట్	-11403
▁ప్రాకార	-11404
▁నాణ్యమైన	-11405
▁మెక్సికో	-11406
▁రక్షించు	-11407
▁కెటగిరీలు	-11408
▁తొలగించడం	-11409
▁రాజస్థాన్	-11410
▁కనుగొనడానికి	-11411
CR	-11412
-18	-11413
900	-11414
uff	-11415
పాన	-11416
లుక	-11417
▁JS	-11418
▁br	-11419
▁పత	-11420
ital	-11421
దియు	-11422
▁అయో	-11423
▁పసి	-11424
▁అవయవ	-11425
▁డీప్	-11426
▁నాశన	-11427
▁ఫొటో	-11428
▁ఇష్యూ	-11429
▁గ్యార	-11430
▁భయపడు	-11431
▁భాగము	-11432
▁ర్యాం	-11433
▁సక్రి	-11434
▁ఆఫీసర్	-11435
▁యీలాగు	-11436
▁సిరియా	-11437
ఫోర్నియా	-11438
▁ప్రమాణం	-11439
▁సామూహిక	-11440
▁జోడించడం	-11441
▁యాజమాన్య	-11442
▁క్లీనింగ్	-11443
▁గ్రౌండింగ్	-11444
▁పరిగణనలోకి	-11445
▁చూపిస్తున్న	-11446
▁పొడిగింపులు	-11447
▁నిర్మించబడింది	-11448
ుడ	-11449
byg	-11450
తతో	-11451
▁Ac	-11452
సాడు	-11453
ivers	-11454
ములతో	-11455
▁ఫ్రై	-11456
▁మెట్	-11457
▁లేడు	-11458
▁హాయి	-11459
బ్యాక్	-11460
ర్రేట్	-11461
▁ఎద్దు	-11462
▁నడిచి	-11463
▁శుద్ధ	-11464
▁స్టేష	-11465
వేసింది	-11466
▁ట్రెన్	-11467
▁దిక్కు	-11468
▁మోషేకు	-11469
▁సాంఘిక	-11470
▁బట్వాడా	-11471
▁వర్క్స్	-11472
▁ప్రాంతాల	-11473
▁అబ్ర్రేట్	-11474
▁ప్రతిబింబి	-11475
▁గ్రాడ్యుయేట్	-11476
▁శూ	-11477
క్షో	-11478
తనము	-11479
ఫ్యా	-11480
రాము	-11481
▁ఆటం	-11482
▁ఎనే	-11483
▁బుధ	-11484
▁ఏబది	-11485
▁కన్య	-11486
▁తిను	-11487
▁ములో	-11488
▁వృధా	-11489
▁Rated	-11490
▁తెప్ప	-11491
▁నట్లు	-11492
▁పద్యం	-11493
▁భరోసా	-11494
▁తుప్పు	-11495
▁ఇస్తారు	-11496
▁వారందరు	-11497
పూర్వకంగా	-11498
▁ఉత్పాదకత	-11499
▁జోర్డాన్	-11500
▁తెల్లబడటం	-11501
▁ల్యాప్టాప్	-11502
▁ప్రతివాడును	-11503
▁సేకరించడానికి	-11504
Pl	-11505
▁;	-11506
24.	-11507
ara	-11508
యాజ	-11509
▁58	-11510
▁RE	-11511
▁బస	-11512
acts	-11513
ards	-11514
గాలి	-11515
బ్రా	-11516
రాడు	-11517
నియ్య	-11518
▁csgo	-11519
▁కేక్	-11520
▁పగటి	-11521
▁బేత్	-11522
▁రేఖా	-11523
▁సాగే	-11524
బెట్టి	-11525
▁విపరీ	-11526
▁సిఫార	-11527
▁సౌండ్	-11528
ట్టింగ్	-11529
▁సింహాస	-11530
▁ఏర్పడిన	-11531
▁నామమును	-11532
▁ప్రేమలో	-11533
▁సహచరులు	-11534
▁ఎంబ్రాయి	-11535
▁ఉద్దేశ్యం	-11536
▁కిలోమీటర్ల	-11537
▁తెలిసికొని	-11538
▁కార్యకలాపాలను	-11539
▁సైన్యములకధిపతి	-11540
day	-11541
ౌట్	-11542
▁DI	-11543
▁Ru	-11544
ants	-11545
కానీ	-11546
చ్యు	-11547
ద్రో	-11548
▁అభయ	-11549
▁ఎము	-11550
▁సామె	-11551
గుళ్లు	-11552
▁చేతుల	-11553
▁వద్దు	-11554
తున్నది	-11555
బెట్టడం	-11556
▁మాథ్యూ	-11557
▁వారాలు	-11558
▁సెట్లు	-11559
▁అథ్లెట్	-11560
▁పునరుత్	-11561
▁Archives	-11562
▁పత్రాలను	-11563
▁రక్తపోటు	-11564
escription	-11565
yc	-11566
లేఖ	-11567
వళి	-11568
roll	-11569
సుకు	-11570
▁20%	-11571
▁మేక	-11572
▁సవా	-11573
▁కనబడ	-11574
▁టాయి	-11575
▁మూడో	-11576
▁వీక్	-11577
▁అయ్యో	-11578
▁ఫస్ట్	-11579
▁రాత్ర	-11580
▁విడువ	-11581
▁అదృశ్య	-11582
▁పువ్వు	-11583
▁హెయిర్	-11584
▁కన్నులు	-11585
▁పరిధిని	-11586
▁రిటర్న్	-11587
▁జీవనశైలి	-11588
▁స్ట్రోక్	-11589
స్తున్నారా	-11590
▁ఆలోచిస్తూ	-11591
▁ఇంటీరియర్	-11592
కుంటున్నాము	-11593
▁వ్యక్తులకు	-11594
▁ప్రెసిడెంట్	-11595
ott	-11596
లుల	-11597
Wise	-11598
పిల్	-11599
▁***	-11600
▁6.5	-11601
ocket	-11602
▁దాచి	-11603
క్సైడ్	-11604
▁పరదేశ	-11605
▁పిరమి	-11606
▁మర్యా	-11607
▁అలంకార	-11608
▁అవసరాల	-11609
▁ఎవరికీ	-11610
▁ఆకారంలో	-11611
▁వృద్ధాప	-11612
▁సన్నిధి	-11613
▁బాధ్యతలు	-11614
▁మూసివేసే	-11615
▁ఇంజనీర్లు	-11616
▁తప్పనిసరి	-11617
▁మార్పులను	-11618
▁టిక్కెట్లు	-11619
▁తొలగించండి	-11620
▁చేస్తున్నప్పుడు	-11621
▁షు	-11622
లేను	-11623
▁Res	-11624
▁out	-11625
▁ఐదవ	-11626
ystem	-11627
▁తరహా	-11628
▁రోజూ	-11629
ేనియన్	-11630
▁ఖాతాల	-11631
▁వదిలే	-11632
▁ఉపన్యా	-11633
▁కోరుతూ	-11634
▁భాషలలో	-11635
▁విలక్షణ	-11636
▁విలువను	-11637
▁విలువలు	-11638
ించుచున్న	-11639
▁సాధించిన	-11640
▁సంపాదించు	-11641
▁ప్రక్రియలు	-11642
▁చెల్లించాలి	-11643
1-	-11644
VAC	-11645
ech	-11646
గతి	-11647
సస్	-11648
వసరం	-11649
ిందూ	-11650
▁PET	-11651
▁అపొ	-11652
▁ఘనత	-11653
▁రిజ	-11654
▁free	-11655
▁ఎముక	-11656
▁ననుస	-11657
▁నెబు	-11658
▁బల్ల	-11659
00,000	-11660
భాగంలో	-11661
▁దుకాణ	-11662
▁దుష్ట	-11663
▁మౌంటు	-11664
▁లాంప్	-11665
▁పెట్టె	-11666
▁ఎక్స్ఛే	-11667
▁శనివారం	-11668
▁సెలవులు	-11669
▁విముక్తి	-11670
▁సంస్థలకు	-11671
▁స్టాటిక్	-11672
▁ప్లాట్ఫాం	-11673
▁తల్లిదండ్రుల	-11674
:38	-11675
ORE	-11676
ుడి	-11677
▁Gu	-11678
hone	-11679
శ్లే	-11680
▁MUM	-11681
Times	-11682
మైనను	-11683
▁1800	-11684
▁ఆటలో	-11685
▁కాలా	-11686
ంపింగ్	-11687
▁Slots	-11688
▁అత్యా	-11689
▁కళ్యా	-11690
▁అనుకరణ	-11691
▁ఉపశమనం	-11692
▁తృప్తి	-11693
▁మొక్కల	-11694
▁ఎనేబుల్	-11695
▁కార్మిక	-11696
▁వ్యవసాయం	-11697
▁TabletWise	-11698
▁చేసుకోవాలి	-11699
▁ప్రాంతానికి	-11700
▁రీసైక్లింగ్	-11701
MT	-11702
iah	-11703
▁DH	-11704
aker	-11705
డిష్	-11706
పురం	-11707
షనర్	-11708
▁ఏశా	-11709
▁చర్	-11710
వులను	-11711
▁Read	-11712
▁తమిళ	-11713
▁పెంప	-11714
▁మెనూ	-11715
మిచ్చు	-11716
▁నెరవే	-11717
ందాన్ని	-11718
▁ఇస్లాం	-11719
▁గరిష్ఠ	-11720
▁న్యూరో	-11721
▁సులువు	-11722
▁స్టిక్	-11723
▁యింటికి	-11724
▁వస్త్రం	-11725
▁గ్రాఫిక్	-11726
▁విడ్జెట్	-11727
▁విధాలుగా	-11728
▁కౌంట్డౌన్	-11729
▁భాగస్వామ్య	-11730
▁పారామితులను	-11731
▁ఆప్టిమైజేషన్	-11732
con	-11733
అది	-11734
▁Is	-11735
▁ap	-11736
▁న్	-11737
కాండ	-11738
ములా	-11739
▁one	-11740
▁బోన	-11741
prise	-11742
▁టూత్	-11743
▁యాని	-11744
▁హాలో	-11745
రిస్తూ	-11746
▁అక్షం	-11747
▁పుష్ప	-11748
▁వయోజన	-11749
▁వాళ్ళు	-11750
▁ఎదురుగా	-11751
▁కండరాలు	-11752
▁విజ్ఞాన	-11753
▁స్తోత్ర	-11754
▁చున్నాడు	-11755
▁టాయిలెట్	-11756
▁తీస్తుంది	-11757
▁విస్తరించ	-11758
▁క్రైస్తవులు	-11759
▁డాక్యుమెంట్	-11760
▁కాలిఫోర్నియా	-11761
▁నెదర్లాండ్స్	-11762
▁ప్రారంభించిన	-11763
.09	-11764
డరీ	-11765
▁FA	-11766
థైల్	-11767
స్సీ	-11768
▁Lin	-11769
▁కమ్	-11770
▁నూట	-11771
చిన్న	-11772
త్రుడా	-11773
▁రుణదా	-11774
▁వర్డ్	-11775
▁వెంబడ	-11776
▁కాపీని	-11777
▁భూభాగం	-11778
▁కారకాలు	-11779
▁చేతులతో	-11780
▁ఫైళ్ళను	-11781
▁కృతజ్ఞతా	-11782
▁దేశాల్లో	-11783
▁ప్రపంచానికి	-11784
ందీ	-11785
ీకృ	-11786
▁MO	-11787
పును	-11788
ition	-11789
urope	-11790
వన్నీ	-11791
వేయడం	-11792
▁ఖనిజ	-11793
▁జీతం	-11794
▁దండు	-11795
▁లోను	-11796
▁హెవీ	-11797
పెట్టే	-11798
▁నియమం	-11799
▁రెట్ట	-11800
లైజేషన్	-11801
సంవత్సర	-11802
▁ఉండేలా	-11803
▁ఎత్తైన	-11804
▁చురుకైన	-11805
▁నిర్బంధ	-11806
▁అనుభవజ్ఞ	-11807
▁కనుగొన్న	-11808
▁పెట్టెను	-11809
▁ప్రతిచర్య	-11810
▁నడుస్తుంది	-11811
▁సూచిస్తారు	-11812
▁కోల్పోయింది	-11813
▁పునర్వినియోగ	-11814
▁TollywoodTimes	-11815
▁ఇశ్రాయేలీయులకు	-11816
▁ట్రాన్స్ఫార్మర్	-11817
2.	-11818
GA	-11819
fl	-11820
-00	-11821
డుల	-11822
దవు	-11823
యాన	-11824
▁	-11825
్	-11826
ి	-11827
ు	-11828
ా	-11829
ర	-11830
న	-11831
ం	-11832
క	-11833
ల	-11834
మ	-11835
త	-11836
ప	-11837
స	-11838
వ	-11839
య	-11840
ద	-11841
ట	-11842
చ	-11843
డ	-11844
ే	-11845
ో	-11846
గ	-11847
ీ	-11848
.	-11849
ె	-11850
,	-11851
అ	-11852
బ	-11853
ై	-11854
జ	-11855
ొ	-11856
ూ	-11857
ష	-11858
ఉ	-11859
0	-11860
e	-11861
ధ	-11862
t	-11863
1	-11864
a	-11865
హ	-11866
శ	-11867
ఆ	-11868
o	-11869
ణ	-11870
2	-11871
ఇ	-11872
r	-11873
i	-11874
భ	-11875
ఫ	-11876
n	-11877
s	-11878
ఎ	-11879
:	-11880
-	-11881
ఒ	-11882
l	-11883
3	-11884
m	-11885
థ	-11886
5	-11887
"	-11888
g	-11889
u	-11890
c	-11891
;	-11892
d	-11893
4	-11894
ళ	-11895
p	-11896
h	-11897
9	-11898
)	-11899
6	-11900
ఈ	-11901
8	-11902
S	-11903
(	-11904
7	-11905
C	-11906
&	-11907
ఖ	-11908
ఏ	-11909
A	-11910
ృ	-11911
/	-11912
T	-11913
P	-11914
D	-11915
ౌ	-11916
M	-11917
y	-11918
E	-11919
b	-11920
R	-11921
L	-11922
?	-11923
I	-11924
N	-11925
k	-11926
B	-11927
O	-11928
f	-11929
=	-11930
w	-11931
H	-11932
G	-11933
F	-11934
!	-11935
v	-11936
_	-11937
X	-11938
U	-11939
V	-11940
W	-11941
'	-11942
K	-11943
x	-11944
ఐ	-11945
%	-11946
ఘ	-11947
ఓ	-11948
z	-11949
ఠ	-11950
ఛ	-11951
–	-11952
ఞ	-11953
J	-11954
Y	-11955
$	-11956
+	-11957
*	-11958
ఱ	-11959
Q	-11960
j	-11961
Z	-11962
”	-11963
]	-11964
[	-11965
“	-11966
•	-11967
ఊ	-11968
£	-11969
@	-11970
#	-11971
ఔ	-11972
q	-11973
ఢ	-11974
’	-11975
»	-11976
ః	-11977
\	-11978
°	-11979
©	-11980
€	-11981
—	-11982
~	-11983
‘	-11984
}	-11985
{	-11986
்	-11987
౦	-11988
‍	-11989
×	-11990
·	-11991
→	-11992
±	-11993
ఋ	-11994
е	-11995
а	-11996
