<unk>	0
<s>	0
</s>	0
្រ	-0
ារ	-1
ាន	-2
▁ប	-3
▁ក	-4
្ន	-5
▁ស	-6
▁ន	-7
ម្	-8
▁1	-9
▁អ	-10
ជា	-11
▁ដ	-12
ប់	-13
្ត	-14
▁ម	-15
▁ទ	-16
▁រ	-17
ាស	-18
ការ	-19
ាក	-20
្ល	-21
▁2	-22
ុង	-23
ាំ	-24
am	-25
in	-26
ប្រ	-27
▁&	-28
er	-29
ាប់	-30
ែល	-31
on	-32
ស់	-33
ិង	-34
▁ព	-35
្ស	-36
ិត	-37
ត្រ	-38
្ទ	-39
្វ	-40
ម្រ	-41
្នក	-42
្យ	-43
▁ប្រ	-44
ិន	-45
▁ច	-46
▁ការ	-47
▁។	-48
▁ល	-49
an	-50
ំណ	-51
▁C	-52
ូវ	-53
វិ	-54
00	-55
▁(	-56
ាត	-57
ក្រ	-58
ញ្	-59
▁គ	-60
ួយ	-61
ាក់	-62
ar	-63
ាយ	-64
បស់	-65
ាល	-66
en	-67
amp	-68
or	-69
▁ផ	-70
▁ខ	-71
្នុង	-72
ំព	-73
្ម	-74
▁S	-75
ភា	-76
េះ	-77
បាន	-78
ម្ម	-79
st	-80
01	-81
៊ី	-82
60	-83
ង់	-84
ំន	-85
▁#	-86
▁ត	-87
ោយ	-88
ោះ	-89
at	-90
ើង	-91
▁-	-92
មាន	-93
ឹង	-94
▁និង	-95
▁160	-96
ាម	-97
▁160;	-98
▁បាន	-99
ភាព	-100
ុន	-101
▁P	-102
ង្	-103
▁/	-104
ាង	-105
▁A	-106
ាច	-107
▁ថ	-108
ាំង	-109
ូល	-110
្ធ	-111
▁ជ	-112
▁នៅ	-113
ត្រូវ	-114
េស	-115
▁M	-116
នៅ	-117
it	-118
om	-119
gt	-120
ម្រាប់	-121
្ថ	-122
មួយ	-123
▁201	-124
▁អ្នក	-125
▁ដែល	-126
al	-127
es	-128
ែក	-129
ូរ	-130
▁ជា	-131
▁3	-132
▁T	-133
ដែល	-134
បន	-135
ាញ	-136
ur	-137
ic	-138
ក្នុង	-139
ាត់	-140
អ្នក	-141
ទី	-142
ុម	-143
▁ក្រ	-144
ធី	-145
របស់	-146
▁B	-147
តិ	-148
្គ	-149
▁វ	-150
និង	-151
្ប	-152
ផល	-153
េល	-154
le	-155
ពី	-156
ល់	-157
ុំ	-158
ត់	-159
▁H	-160
័យ	-161
ណ៍	-162
ូប	-163
ត្ត	-164
▁ម៉	-165
ករ	-166
ac	-167
្ង	-168
▁t	-169
ol	-170
្ដ	-171
នេះ	-172
▁d	-173
័រ	-174
ិក	-175
វិធី	-176
ម៉	-177
្ឋ	-178
ម្ប	-179
▁ធ	-180
="	-181
▁ហ	-182
្វើ	-183
▁D	-184
▁L	-185
▁របស់	-186
ែង	-187
▁F	-188
ាស់	-189
កម្ម	-190
ាន់	-191
ឹក	-192
ion	-193
▁K	-194
▁5	-195
ាស៊ី	-196
គ្រ	-197
េញ	-198
ោង	-199
▁G	-200
ដ្ឋ	-201
ន្ធ	-202
្ញ	-203
▁R	-204
..	-205
▁យ	-206
lt	-207
ើយ	-208
េរ	-209
ិច	-210
▁ក្នុង	-211
ម្បី	-212
et	-213
ro	-214
ើម	-215
៊ុន	-216
ោក	-217
្នាំ	-218
▁c	-219
នៃ	-220
ូច	-221
ួន	-222
ing	-223
▁4	-224
េង	-225
ើម្បី	-226
ួល	-227
ុក	-228
្ងៃ	-229
ព័	-230
្ច	-231
el	-232
លើ	-233
as	-234
▁N	-235
សារ	-236
ed	-237
▁បន	-238
ហ៊ុន	-239
...	-240
▁មាន	-241
ent	-242
▁h	-243
ូន	-244
art	-245
នា	-246
is	-247
▁នេះ	-248
ាល់	-249
ក់	-250
្រើ	-251
il	-252
▁ដោយ	-253
ុមហ៊ុន	-254
ឯក	-255
▁ត្រូវ	-256
ម្ល	-257
▁I	-258
ស្រ	-259
សម្រាប់	-260
ញ្ញ	-261
ញ្ច	-262
▁ខែ	-263
▁in	-264
▁សម្រាប់	-265
ស្ស	-266
ទៅ	-267
▁E	-268
▁s	-269
▁W	-270
ឆ្នាំ	-271
▁p	-272
ាស៊ីន	-273
ន្ត	-274
ទេស	-275
ាប	-276
▁k	-277
ូម	-278
ឡើង	-279
ដោយ	-280
នុ	-281
ព័ន្ធ	-282
▁0	-283
▁st	-284
▁មិន	-285
▁កម្ម	-286
ត្តិ	-287
re	-288
ណ្	-289
ch	-290
▁ភ	-291
un	-292
▁_	-293
com	-294
▁កម្មវិធី	-295
ទ្ធ	-296
ង្ក	-297
▁រូប	-298
ia	-299
ាហ	-300
នឹង	-301
េទ	-302
ត្ថ	-303
ផ្ស	-304
ម្ព	-305
ំហ	-306
ំព័រ	-307
ធ្វើ	-308
ើរ	-309
្អ	-310
ad	-311
ពេល	-312
ិស	-313
he	-314
bo	-315
ំណត់	-316
អាច	-317
េខ	-318
្ញុំ	-319
▁U	-320
ក្ស	-321
us	-322
id	-323
ame	-324
▁6	-325
tt	-326
ុល	-327
▁ឧ	-328
▁៖	-329
ែន	-330
័ព	-331
ូរស	-332
▁O	-333
▁ទៅ	-334
▁m	-335
ូត	-336
op	-337
ង្ហ	-338
▁8	-339
័ព្ទ	-340
▁ឬ	-341
ឯកសារ	-342
ot	-343
▁V	-344
ូរស័ព្ទ	-345
ផ្ទ	-346
ណ្ត	-347
ិយ	-348
▁ទី	-349
ំប	-350
ជី	-351
បករ	-352
ន្ល	-353
េច	-354
ែម	-355
ទ្យ	-356
ផលិត	-357
ុប	-358
▁7	-359
▁start	-360
▁អាច	-361
▁J	-362
"&	-363
បករណ៍	-364
ព្រ	-365
ៀត	-366
▁គ្រ	-367
ន៍	-368
▁dur	-369
ជាមួយ	-370
▁ពី	-371
▁b	-372
ag	-373
ើត	-374
▁ផ្ទ	-375
ុត	-376
វិទ្យ	-377
ត្រូវបាន	-378
▁ប្រើ	-379
▁f	-380
gm	-381
ែរ	-382
▁បន្ទ	-383
ment	-384
្មី	-385
000	-386
ប្រើ	-387
▁នឹង	-388
ួរ	-389
ផ្គ	-390
▁ដើម្បី	-391
and	-392
20	-393
ap	-394
នៅក្នុង	-395
ឈ្ម	-396
ទួល	-397
▁,	-398
▁+	-399
▁ថ្ងៃ	-400
▁នៃ	-401
▁គឺ	-402
▁ព្រ	-403
ri	-404
ttp	-405
ុះ	-406
ow	-407
▁kgm	-408
▁w	-409
▁២	-410
ទ្រ	-411
ើល	-412
ay	-413
ឱ្យ	-414
▁10	-415
▁វា	-416
▁...	-417
ត៌	-418
▁បញ្	-419
▁http	-420
ត៌មាន	-421
//	-422
://	-423
ាណ	-424
ខ្ល	-425
▁ម៉ាស៊ីន	-426
្ព	-427
យើង	-428
▁ឯកសារ	-429
ុច	-430
▁មួយ	-431
▁"	-432
ំនួន	-433
ក្រុង	-434
យក	-435
បរ	-436
one	-437
▁$	-438
យ៉	-439
▁ទំព័រ	-440
of	-441
▁កំណត់	-442
ឈ្មោះ	-443
▁លើ	-444
▁លោក	-445
▁ឆ្នាំ	-446
ut	-447
ទាំង	-448
្រើន	-449
គឺ	-450
▁ហើយ	-451
ង្ហាញ	-452
ជន	-453
ដ្ឋាន	-454
ផ្ត	-455
▁9	-456
ថ្ងៃ	-457
្ថែម	-458
▁–	-459
50	-460
ម្លៃ	-461
ាវ	-462
▁ក្រុមហ៊ុន	-463
▁n	-464
ភេទ	-465
▁i	-466
ប៉	-467
្នែក	-468
ៀប	-469
▁ធ្វើ	-470
ដើម្បី	-471
តាម	-472
្វី	-473
ោម	-474
ួម	-475
ួក	-476
ុខ	-477
េក	-478
តែ	-479
ុស	-480
ជ្	-481
ំរ	-482
10	-483
្ពស់	-484
្ខ	-485
លោក	-486
lo	-487
em	-488
ក្រុមហ៊ុន	-489
ំផ	-490
រស	-491
▁ផល	-492
បទ	-493
យន្ត	-494
វា	-495
គេ	-496
ិត្យ	-497
ិទ្ធ	-498
ec	-499
ំណើរ	-500
.0	-501
ation	-502
្លូវ	-503
្រើស	-504
ang	-505
ig	-506
ទឹក	-507
រក	-508
▁បើ	-509
ex	-510
បន្ទ	-511
ង្កើត	-512
▁សូម	-513
េត	-514
um	-515
ess	-516
ab	-517
▁វិ	-518
ទំន	-519
ច្ច	-520
ទៀត	-521
ំផុត	-522
មក	-523
មិន	-524
ថា	-525
▁ផលិត	-526
▁ឧបករណ៍	-527
▁លេខ	-528
ត្តិការ	-529
▁១	-530
អស់	-531
ំពី	-532
▁ពេល	-533
ណ្ឌ	-534
យៈ	-535
ើស	-536
ធាន	-537
្ក	-538
ណៈ	-539
▁2018	-540
▁20	-541
201	-542
គ្ន	-543
ឿង	-544
.1	-545
ៀង	-546
ir	-547
តិប	-548
ាជ	-549
ខ្ញុំ	-550
ង្គ	-551
os	-552
ជូន	-553
▁12	-554
ity	-555
ack	-556
ប្រាក់	-557
▁19	-558
▁ឆ	-559
▁យើង	-560
្នាក់	-561
▁:	-562
▁ជាមួយ	-563
▁ស្រ	-564
ភាគ	-565
ងារ	-566
ិនិត្យ	-567
បញ្ច	-568
▁Ch	-569
ញ្ញា	-570
ុយ	-571
ំហំ	-572
ដូច	-573
ខ្ពស់	-574
សម	-575
ល្អ	-576
ៀវ	-577
est	-578
.5	-579
បញ្	-580
ជាតិ	-581
ជំន	-582
▁ប៉	-583
tion	-584
▁ដូច	-585
គ្គ	-586
ុណ	-587
ិត្ត	-588
ឌី	-589
▁ទាំង	-590
្មាន	-591
Name	-592
ou	-593
ឹម	-594
ិល	-595
ចក្រ	-596
ម្ភ	-597
្តី	-598
▁ព័	-599
ង្វ	-600
▁ផលិតផល	-601
-1	-602
គារ	-603
ob	-604
ឥត	-605
ដើម	-606
ឲ្យ	-607
្លាក	-608
្លាស់	-609
នី	-610
ណ៌	-611
ាល័យ	-612
▁សម	-613
▁the	-614
ទទួល	-615
្រី	-616
▁ឈ្មោះ	-617
ate	-618
ខាង	-619
ទូរស័ព្ទ	-620
ច្រើន	-621
30	-622
hone	-623
ុម្ព	-624
យ៉ាង	-625
បំផុត	-626
od	-627
▁[	-628
▁ព័ត៌មាន	-629
ប្រទេស	-630
ម៉ាស៊ីន	-631
ថ្ល	-632
ោងចក្រ	-633
ដែលមាន	-634
▁បង្ហាញ	-635
▁ចំណ	-636
ers	-637
ិច្ច	-638
▁ជ្រើស	-639
▁អ៊ី	-640
▁ប្រព័ន្ធ	-641
▁ខ្ញុំ	-642
▁*	-643
ចូល	-644
▁តើ	-645
ាតុ	-646
ew	-647
ហា	-648
▁រក្ស	-649
▁ត្រ	-650
្សែ	-651
▁X	-652
▁g	-653
▁2019	-654
វិញ	-655
im	-656
ជាប់	-657
▁រប	-658
▁ផ្ស	-659
bod	-660
.2	-661
iv	-662
បើ	-663
ណ្ណ	-664
ភិ	-665
ខ្លួន	-666
ោល	-667
ាទ	-668
ដល់	-669
ភ្ល	-670
របស់អ្នក	-671
០១	-672
.9	-673
ជាក់	-674
ើញ	-675
ambod	-676
mm	-677
▁l	-678
ូង	-679
ក្ខ	-680
ូដ	-681
▁បន្ទាប់	-682
ាមេរ	-683
ចិន	-684
▁ដើម	-685
▁ទូរស័ព្ទ	-686
អប់	-687
▁100	-688
▁15	-689
▁ប្រភេទ	-690
ួត	-691
ថ្មី	-692
og	-693
12	-694
ំល	-695
av	-696
នៅលើ	-697
▁ខាង	-698
កម្មវិធី	-699
ស៊ី	-700
ter	-701
▁iP	-702
▁In	-703
អ៊ី	-704
ប់គ្រ	-705
ran	-706
ំពុង	-707
ាញយក	-708
ul	-709
▁ប្រទេស	-710
▁តាម	-711
▁ប្រស	-712
▁ចាប់	-713
ន់	-714
គិត	-715
▁ចំនួន	-716
ម្ពុ	-717
ist	-718
រយៈ	-719
ស្វ	-720
ួស	-721
្ជាប់	-722
ំបន	-723
omment	-724
ណ្ដ	-725
▁ដង	-726
រួម	-727
រដ្ឋ	-728
ាកល	-729
ំបន់	-730
ip	-731
▁បញ្ច	-732
▁ឲ្យ	-733
▁ជំន	-734
ិទ	-735
តិបត្តិការ	-736
ind	-737
ិយាយ	-738
ិទ្ធិ	-739
ine	-740
ម្ពុជា	-741
ពិ	-742
ភព	-743
ថ្លៃ	-744
ដៃ	-745
▁Co	-746
▁ស្លាក	-747
ok	-748
ួច	-749
ក្រោយ	-750
▁200	-751
co	-752
ាសា	-753
ជ្ជ	-754
▁នៅក្នុង	-755
▁of	-756
សេ	-757
សាស	-758
ន័យ	-759
ទេ	-760
▁មើល	-761
្ថាន	-762
th	-763
គ្នា	-764
▁ថត	-765
រ៉	-766
ambodia	-767
ាក្យ	-768
ពិស	-769
ចំណ	-770
ឃើញ	-771
ត់ផ្គ	-772
ប់គ្រង	-773
ស្ត	-774
ត់ផ្គង់	-775
org	-776
▁ទំហំ	-777
▁An	-778
fo	-779
បំព	-780
ជាង	-781
▁ថា	-782
ពល	-783
បណ្ត	-784
ប្ត	-785
="1	-786
ចេញ	-787
▁បន្ថែម	-788
▁11	-789
80	-790
▁ស្វ	-791
ិកា	-792
ោះព	-793
▁a	-794
ាំទ្រ	-795
up	-796
oc	-797
if	-798
▁តម្លៃ	-799
អូ	-800
▁St	-801
▁iPhone	-802
តា	-803
មុន	-804
▁@	-805
ូក	-806
ព្រះ	-807
ថត	-808
ep	-809
ជីវ	-810
ចាប់	-811
▁ចូល	-812
ិញ	-813
40	-814
ផ្គត់ផ្គង់	-815
▁តែ	-816
លេខ	-817
.3	-818
▁អនុ	-819
qu	-820
▁ថ្មី	-821
-2	-822
ub	-823
ិន្ន	-824
នៃការ	-825
វិទ្យាល័យ	-826
ូទ	-827
▁ត្រូវបាន	-828
ផ្សាយ	-829
ំណើរការ	-830
▁2017	-831
ov	-832
ំណឹង	-833
%9	-834
ra	-835
រូប	-836
្សា	-837
ry	-838
▁Y	-839
▁'	-840
.7	-841
ម្ព័ន្ធ	-842
ឿន	-843
គម	-844
ly	-845
ផ្តល់	-846
ចាំ	-847
មើល	-848
ោគ	-849
▁រច	-850
▁មុន	-851
អ្វី	-852
▁to	-853
="2	-854
កាន់	-855
ោះពុម្ព	-856
ord	-857
ទំព័រ	-858
ម្រើស	-859
▁30	-860
ការព	-861
ាច់	-862
▁ក្រុម	-863
តាំង	-864
ហោះ	-865
ំង	-866
េចក	-867
្ឆ	-868
ទីក្រុង	-869
ទស្ស	-870
▁រូបភាព	-871
our	-872
▁ភាព	-873
មី	-874
ong	-875
▁ប្រសិន	-876
ីឡ	-877
ប្រព័ន្ធ	-878
ែត្រ	-879
ត្ថបទ	-880
ម្ង	-881
ាមេរិក	-882
▁ពណ៌	-883
▁18	-884
ell	-885
នុស្ស	-886
ីស	-887
ថ្ម	-888
ប្រាស់	-889
កិច្ច	-890
▁ផ្នែក	-891
ប្ប	-892
ច្ចេក	-893
▁ឡ	-894
ak	-895
her	-896
បន្ថែម	-897
វត្តិ	-898
▁and	-899
▁សារ	-900
ាទី	-901
ទំនង	-902
▁សេ	-903
▁•	-904
ៀន	-905
ដា	-906
មូល	-907
ការណ៍	-908
ពួក	-909
ចំនួន	-910
▁ចុច	-911
បង្កើត	-912
ោប	-913
▁ទាញយក	-914
ចិត្ត	-915
ast	-916
ce	-917
កាស	-918
16	-919
ee	-920
គិតថ្លៃ	-921
លក់	-922
កំណត់	-923
ht	-924
ផលិតផល	-925
▁16	-926
km	-927
ផ្លូវ	-928
▁Sh	-929
ាធ	-930
ពីរ	-931
សំ	-932
វត្ត	-933
គុណ	-934
ort	-935
អនុ	-936
0000	-937
▁info	-938
ard	-939
ណាត់	-940
/?	-941
តម្លៃ	-942
we	-943
ile	-944
ភ្ជាប់	-945
ាក់ទំនង	-946
ដាក់	-947
.8	-948
នាំ	-949
.4	-950
ev	-951
ail	-952
ោត	-953
▁ផ្លូវ	-954
▁ទទួល	-955
ain	-956
▁ប្រអប់	-957
▁Z	-958
វត្ថ	-959
▁Q	-960
អំពី	-961
.6	-962
▁US	-963
ភ្លើង	-964
all	-965
ឡូវ	-966
ill	-967
ឧបករណ៍	-968
ដែក	-969
ព្វ	-970
ម្ត	-971
11	-972
ក្ខណៈ	-973
ស៊	-974
ន្ទ	-975
ឥឡូវ	-976
០០	-977
ហើយ	-978
▁ពួក	-979
ើន	-980
▁ទេ	-981
▁ទំន	-982
ឥតគិតថ្លៃ	-983
ាញ់	-984
ផ្សេង	-985
្ដូរ	-986
ំពេញ	-987
ំដ	-988
▁14	-989
កាត់	-990
▁https	-991
បន្ទាប់	-992
▁r	-993
ន្លែង	-994
-0	-995
ក្សរ	-996
▁បើក	-997
▁for	-998
ិន្នន័យ	-999
ទាំងអស់	-1000
ូស	-1001
ខ្ម	-1002
▁ស៊ី	-1003
▁ទីក្រុង	-1004
្បន	-1005
▁ឡើង	-1006
DE	-1007
ប្រតិបត្តិការ	-1008
ct	-1009
មុខ	-1010
ឌ្	-1011
▁24	-1012
ដឹក	-1013
▁ណ	-1014
▁បង្កើត	-1015
ីត	-1016
▁v	-1017
មា	-1018
ud	-1019
ឌ្ឍ	-1020
▁25	-1021
▁គេ	-1022
▁13	-1023
▁“	-1024
ផ្នែក	-1025
ហ្វ	-1026
▁ម៉ោង	-1027
ប័	-1028
ព្យ	-1029
ីក	-1030
សិក	-1031
វេល	-1032
mer	-1033
អា	-1034
▁សំណ	-1035
ថយន្ត	-1036
▁ព្រះ	-1037
▁អំពី	-1038
ber	-1039
ច្ចុប	-1040
td	-1041
ច្ចុប្បន	-1042
15	-1043
ាកលវិទ្យាល័យ	-1044
onic	-1045
▁រក	-1046
▁17	-1047
ង្វាន់	-1048
ប៊	-1049
ប្រើប្រាស់	-1050
kh	-1051
ពិនិត្យ	-1052
▁គ្មាន	-1053
ាណិ	-1054
▁ពាក្យ	-1055
ច្ចុប្បន្ន	-1056
ំបូង	-1057
ម្រិត	-1058
ីដ	-1059
កម្ពុជា	-1060
ាណិជ្ជ	-1061
="3	-1062
ក្រោម	-1063
▁អត្ថបទ	-1064
ey	-1065
ហ្គ	-1066
ុន្ត	-1067
ont	-1068
សហ	-1069
សម្រ	-1070
របស់យើង	-1071
17	-1072
រណ៍	-1073
ផ្ដ	-1074
iz	-1075
ញ្ញាត	-1076
▁យក	-1077
▁50	-1078
៉ា	-1079
oly	-1080
បញ្ចូល	-1081
Comment	-1082
ចាស់	-1083
▁2016	-1084
វឌ្ឍ	-1085
គឺជា	-1086
នូវ	-1087
ប្រស	-1088
្ត្រ	-1089
ខ្សែ	-1090
pt	-1091
ck	-1092
▁បរ	-1093
▁»	-1094
ាក់ទ	-1095
▁ភាសា	-1096
pr	-1097
:2	-1098
អាមេរិក	-1099
សំណ	-1100
ost	-1101
age	-1102
ជ្រ	-1103
ភ្ន	-1104
▁ទាំងអស់	-1105
ភិវឌ្ឍ	-1106
▁អាស	-1107
អេ	-1108
ult	-1109
ផ្ទាល់	-1110
ដែលបាន	-1111
▁ពិនិត្យ	-1112
▁មក	-1113
េតុ	-1114
ុល្ល	-1115
▁ម្	-1116
▁ជម្រើស	-1117
▁ផ្លាស់	-1118
ែប	-1119
▁ដាក់	-1120
▁ប៊	-1121
គមន៍	-1122
▁name	-1123
ជាមួយនឹង	-1124
ផ្តើម	-1125
per	-1126
ារៈ	-1127
▁2013	-1128
▁ខែម	-1129
▁ល្ប	-1130
▁+0000	-1131
▁Ltd	-1132
លើក	-1133
▁ផ្សេង	-1134
ric	-1135
ក្រុម	-1136
▁For	-1137
ian	-1138
ung	-1139
ពិសេស	-1140
ំនាំ	-1141
រង្វាន់	-1142
វាក	-1143
▁ថ្ម	-1144
1%9	-1145
▁បញ្ជី	-1146
យដ្ឋាន	-1147
ាណិជ្ជកម្ម	-1148
▁ចិន	-1149
▁បញ្ចូល	-1150
នាគារ	-1151
are	-1152
និងការ	-1153
ុន្តែ	-1154
ks	-1155
▁ប្រាក់	-1156
យោង	-1157
ុំព	-1158
េរី	-1159
្នេះ	-1160
ូទ័រ	-1161
▁ចេញ	-1162
ំពូល	-1163
▁ផ្ត	-1164
្រ្ត	-1165
សុ	-1166
គាំទ្រ	-1167
្លើយ	-1168
▁រោងចក្រ	-1169
itor	-1170
▁សៀវ	-1171
ុងក្រោយ	-1172
▁ជំនួយ	-1173
ុលា	-1174
▁on	-1175
ហទំព័រ	-1176
បង្ហាញ	-1177
វិទ្យា	-1178
13	-1179
ទទួលបាន	-1180
ុល្លារ	-1181
ភៅ	-1182
▁សេចក	-1183
ធាតុ	-1184
City	-1185
ណូ	-1186
ាមពល	-1187
ras	-1188
indow	-1189
ួញ	-1190
eb	-1191
dro	-1192
ីដេ	-1193
▁ធាតុ	-1194
ព័ត៌មាន	-1195
▁ពិ	-1196
បុ	-1197
វាកម្ម	-1198
ish	-1199
រណ	-1200
.00	-1201
19	-1202
ន្លឺ	-1203
ៃត	-1204
enc	-1205
ug	-1206
▁ច្រើន	-1207
រច	-1208
hat	-1209
:3	-1210
ាហ៍	-1211
▁ឈ	-1212
▁ស៊	-1213
ង្អ	-1214
ចុះ	-1215
រោងចក្រ	-1216
ome	-1217
18	-1218
▁ទឹក	-1219
▁KDE	-1220
▁2014	-1221
55	-1222
ថិ	-1223
បាល	-1224
រសេរ	-1225
ប្តូរ	-1226
▁យ៉	-1227
ពួកគេ	-1228
▁២០១	-1229
ៀបច	-1230
លី	-1231
ក្នុងការ	-1232
ធំ	-1233
ស្ម	-1234
តិថិ	-1235
ិភាព	-1236
តិថិជន	-1237
នាស	-1238
ែងរក	-1239
ជើង	-1240
▁កំពុង	-1241
▁22	-1242
បើក	-1243
ម្រោង	-1244
▁សំ	-1245
ដែរ	-1246
ight	-1247
ករា	-1248
rans	-1249
ប្រភេទ	-1250
▁ac	-1251
ម្រើ	-1252
នោះ	-1253
▁រចនា	-1254
ហូត	-1255
▁មូល	-1256
▁y	-1257
▁.	-1258
▁2015	-1259
▁កាល	-1260
ពេញ	-1261
▁តំបន់	-1262
ខែ	-1263
ោធ	-1264
ំហុស	-1265
ណ្តាល	-1266
▁ខ្ល	-1267
ester	-1268
▁Ph	-1269
▁Cambodia	-1270
បច្ចេក	-1271
ីដេអូ	-1272
និយាយ	-1273
,000	-1274
86	-1275
ide	-1276
14	-1277
ម្រូវ	-1278
▁Pl	-1279
សម្រាប់ការ	-1280
pe	-1281
អ៊	-1282
ធម្ម	-1283
▁ខ្សែ	-1284
▁ដំណឹង	-1285
ផ្សារ	-1286
្លាស	-1287
▁បញ្ជា	-1288
▁£	-1289
▁re	-1290
ាក់ទង	-1291
ោន	-1292
កូដ	-1293
▁ទៀត	-1294
តប	-1295
▁Cap	-1296
▁ខែក	-1297
ោបល់	-1298
24	-1299
ant	-1300
▁%	-1301
គ្រប់	-1302
ល្ប	-1303
▁ទំព័រដើម	-1304
ំពង់	-1305
-3	-1306
▁កែ	-1307
▁23	-1308
ំឡើង	-1309
រី	-1310
ម្ភារៈ	-1311
▁e	-1312
ណ្ដាញ	-1313
sh	-1314
ធ្វើការ	-1315
▁ដល់	-1316
ឥឡូវនេះ	-1317
ដំណើរការ	-1318
▁៣	-1319
ុំព្យ	-1320
olor	-1321
អក្សរ	-1322
acitor	-1323
ie	-1324
័ត	-1325
ីហា	-1326
ខ្ច	-1327
▁បិទ	-1328
ជញ្	-1329
ុទ្ធ	-1330
▁រក្សាស	-1331
ាហារ	-1332
ត្ថភាព	-1333
▁គឺជា	-1334
▁អា	-1335
ជុំ	-1336
ue	-1337
ភពលោក	-1338
St	-1339
គ្រប់គ្រង	-1340
គាត់	-1341
្បែក	-1342
▁ប៉ុន្តែ	-1343
ុំព្យូទ័រ	-1344
▁នៅលើ	-1345
ងាយ	-1346
ore	-1347
ដូចជា	-1348
ប្រវត្តិ	-1349
ដ៏	-1350
ial	-1351
AN	-1352
្នូ	-1353
25	-1354
សភា	-1355
ond	-1356
្លើយតប	-1357
end	-1358
វេលា	-1359
ផ្លាស់	-1360
ld	-1361
rag	-1362
ីន	-1363
▁រួម	-1364
ណនី	-1365
ែត	-1366
ការងារ	-1367
ff	-1368
ខាន់	-1369
ឹមត្រូវ	-1370
្ញើ	-1371
act	-1372
eng	-1373
មនុស្ស	-1374
ph	-1375
ite	-1376
PS	-1377
▁គ្រប់គ្រង	-1378
▁Re	-1379
តំបន់	-1380
ថ្ងៃទី	-1381
▁ផ្ទះ	-1382
▁របៀប	-1383
និ	-1384
▁ចង់	-1385
rasonic	-1386
កំពុង	-1387
▁នោះ	-1388
អង្គ	-1389
23	-1390
▁អេ	-1391
45	-1392
ំពោះ	-1393
ប្ដូរ	-1394
ឡេង	-1395
ik	-1396
indows	-1397
pp	-1398
droid	-1399
ect	-1400
▁អ្វី	-1401
ផ្ទៃ	-1402
VC	-1403
▁នៅពេល	-1404
ដី	-1405
ង្អួច	-1406
ម្អ	-1407
ព្វផ្សាយ	-1408
២០១	-1409
រយៈពេល	-1410
option	-1411
ម៉ែត្រ	-1412
ុម្ភ	-1413
▁លក់	-1414
កាល	-1415
េត្ត	-1416
យន្តហោះ	-1417
ការពារ	-1418
▁«	-1419
▁មតិ	-1420
ាស៊ីណូ	-1421
oft	-1422
បរមា	-1423
▁ដែលមាន	-1424
▁Android	-1425
/0	-1426
គ្មាន	-1427
▁បោះពុម្ព	-1428
ាសាស	-1429
នាសម្ព័ន្ធ	-1430
ថុន	-1431
▁ចុះ	-1432
▁លំនាំ	-1433
▁បច្ចុប្បន្ន	-1434
ឺរ៉	-1435
ឡើងវិញ	-1436
្លាស្ទ	-1437
ណ្ឌល	-1438
ace	-1439
ូតូ	-1440
▁អាន	-1441
▁Ar	-1442
ល្អបំផុត	-1443
▁អនុញ្ញាត	-1444
▁00	-1445
ិថុន	-1446
200	-1447
ឹត្តិការ	-1448
▁poly	-1449
រុប	-1450
und	-1451
ស្រាយ	-1452
yl	-1453
ies	-1454
បង់	-1455
coin	-1456
ib	-1457
ឈម	-1458
▁កំហុស	-1459
ខ្មែរ	-1460
ស្សាហ	-1461
៉េ	-1462
ទូ	-1463
="4	-1464
de	-1465
បណ្តាញ	-1466
ax	-1467
ឹត្តិការណ៍	-1468
▁Tr	-1469
ិថុនា	-1470
ស្សាហកម្ម	-1471
AT	-1472
អភិវឌ្ឍ	-1473
ភិបាល	-1474
▁Bit	-1475
▁ផ្ដ	-1476
ាមួយ	-1477
han	-1478
▁x	-1479
▁©	-1480
▁Windows	-1481
▁it	-1482
▁=	-1483
▁ម៉ូ	-1484
ក្ល	-1485
▁Forex	-1486
▁Capacitor	-1487
▁ទំនាក់ទំនង	-1488
រកបាន	-1489
▁26	-1490
ទស្សនា	-1491
ver	-1492
ៀបចំ	-1493
្ងាច	-1494
កន្លែង	-1495
ិច្ឆ	-1496
ក្ត	-1497
បំពង់	-1498
ui	-1499
ផ្ទះ	-1500
se	-1501
▁ទិន្នន័យ	-1502
ww	-1503
ai	-1504
▁ដូច្នេះ	-1505
ams	-1506
ត្វ	-1507
ិដ្ឋ	-1508
ផ្ដើម	-1509
ជាច្រើន	-1510
▁Name	-1511
ធ្វើឱ្យ	-1512
www	-1513
oog	-1514
ណា	-1515
ូតុង	-1516
▁ទុក	-1517
ង្រ	-1518
ust	-1519
▁សហ	-1520
ំណែ	-1521
▁Al	-1522
ពីការ	-1523
កួត	-1524
ងដែរ	-1525
ស្ន	-1526
▁The	-1527
▁គោល	-1528
▁ក្រណាត់	-1529
,0	-1530
រប	-1531
▁ធម្ម	-1532
គ្ល	-1533
បន្ត	-1534
▁ប្រសិនបើ	-1535
ន្តរ	-1536
ផ្សេងទៀត	-1537
:4	-1538
▁ស្ត	-1539
ាកាស	-1540
mart	-1541
ម្ចាស់	-1542
ass	-1543
កាត	-1544
▁និយាយ	-1545
ោះស្រាយ	-1546
គុណភាព	-1547
▁អាសយដ្ឋាន	-1548
វ៉	-1549
▁]	-1550
ive	-1551
វត្ថិភាព	-1552
IN	-1553
ាយក	-1554
comment	-1555
▁ខ្ម	-1556
ើប	-1557
ary	-1558
ច្ឆ	-1559
his	-1560
ស្ថ	-1561
▁ល្អ	-1562
:5	-1563
សៅ	-1564
▁ផ្តល់	-1565
ប្រែ	-1566
67	-1567
ពណ៌	-1568
ស្រួល	-1569
oogle	-1570
ច្ប	-1571
90	-1572
ពន្ធ	-1573
ម្រង	-1574
ពាណិជ្ជកម្ម	-1575
ាឡ	-1576
ំណង	-1577
▁លក្ខណៈ	-1578
▁)	-1579
▁Un	-1580
▁is	-1581
▁Pro	-1582
▁រូបថត	-1583
io	-1584
▁500	-1585
▁សាកលវិទ្យាល័យ	-1586
pl	-1587
ចល	-1588
35	-1589
កណ្តាល	-1590
▁by	-1591
own	-1592
hmer	-1593
▁21	-1594
icro	-1595
ក្រង់	-1596
▁ឯក	-1597
ៀក	-1598
ទុក	-1599
ដឹង	-1600
▁New	-1601
ច្ឆិកា	-1602
ំរាប់	-1603
ដំបូង	-1604
គាល់	-1605
▁ដំណើរការ	-1606
▁ភ្ន	-1607
inc	-1608
ង់គ្ល	-1609
គី	-1610
ពិភពលោក	-1611
ង់គ្លេស	-1612
▁បង្អួច	-1613
េសា	-1614
បោះពុម្ព	-1615
ith	-1616
▁វ៉	-1617
▁រដ្ឋ	-1618
▁Sp	-1619
ឈមណ្ឌល	-1620
▁Hack	-1621
ន្ត្រី	-1622
▁ឆ្លើយតប	-1623
▁60	-1624
▁Mar	-1625
ជ្ឈមណ្ឌល	-1626
ារ៉	-1627
▁បទ	-1628
េម	-1629
▁ទ្រ	-1630
ូឡ	-1631
ផ្លាស់ប្តូរ	-1632
able	-1633
ំណាង	-1634
ិប	-1635
អគ្គ	-1636
▁បន្ទាត់	-1637
ួង	-1638
99	-1639
្លាស្ទិច	-1640
ទ្ធផល	-1641
▁អ៊	-1642
▁ជួល	-1643
ហ្ស	-1644
/201	-1645
ាយការណ៍	-1646
eeks	-1647
▁27	-1648
ino	-1649
ញ្ញាបន	-1650
ួប	-1651
ជ្រើស	-1652
ជីវកម្ម	-1653
▁កម្រិត	-1654
ach	-1655
lang	-1656
ah	-1657
▁រយៈ	-1658
មែន	-1659
ាទុក	-1660
▁នាទី	-1661
ទិញ	-1662
កម្មភាព	-1663
ំរូ	-1664
្ដី	-1665
ហូតដល់	-1666
▁ក្រុង	-1667
ice	-1668
ថ្នាំ	-1669
ជញ្ជូន	-1670
▁យ៉ាង	-1671
▁ការងារ	-1672
▁40	-1673
ំដៅ	-1674
ទំហំ	-1675
▁ប្រទេសចិន	-1676
ាហ្វ	-1677
out	-1678
36	-1679
ងាយស្រួល	-1680
ចាប់ផ្តើម	-1681
ធឺ	-1682
ដំណឹង	-1683
ម្ងាត់	-1684
▁ល្ងាច	-1685
▁ក្រោយ	-1686
▁គ្រាប់	-1687
ារម្ម	-1688
▁លេខយោង	-1689
ដោយឥតគិតថ្លៃ	-1690
ear	-1691
▁28	-1692
បញ្ជា	-1693
ដំណើរ	-1694
▁ដុល្លារ	-1695
▁ចាក់	-1696
▁សៀវភៅ	-1697
អាចរកបាន	-1698
ួតពិនិត្យ	-1699
▁រក្សាសិទ្ធិ	-1700
សាស្រ្ត	-1701
ារម្មណ៍	-1702
▁បណ្ដាញ	-1703
តូច	-1704
ក្ក	-1705
▁នាំ	-1706
អាហារ	-1707
ណាស់	-1708
▁ដែក	-1709
▁៤	-1710
▁និងការ	-1711
▁Te	-1712
ទាន	-1713
▁Bitcoin	-1714
អាន	-1715
ថ្នាក់	-1716
បិទ	-1717
:0	-1718
▁Con	-1719
▁ផ្ទុក	-1720
ុំន	-1721
▁ទស្ស	-1722
▁សេចក្តី	-1723
គួរ	-1724
ិច្ឆេទ	-1725
▁ភាគ	-1726
ថភ្លើង	-1727
ម្គាល់	-1728
រូបភាព	-1729
ផ្សព្វផ្សាយ	-1730
box	-1731
▁2020	-1732
ME	-1733
សាន	-1734
ចុងក្រោយ	-1735
int	-1736
▁ហ្វ	-1737
ator	-1738
ដែលអ្នក	-1739
រំល	-1740
ីយ	-1741
▁~	-1742
unt	-1743
វែង	-1744
▁Comment	-1745
ញ្ចប់	-1746
ហែល	-1747
ាករ	-1748
▁ចាប់ផ្ដើម	-1749
ំងឺ	-1750
បញ្ចប់	-1751
▁Smart	-1752
េប	-1753
្ថយ	-1754
ខ្លាំង	-1755
press	-1756
▁គ្រឿង	-1757
ង់ស	-1758
តាមរយៈ	-1759
▁សេវា	-1760
ុម្ភៈ	-1761
),	-1762
ុករ	-1763
▁pro	-1764
OR	-1765
▁ពិស	-1766
សេវាកម្ម	-1767
ash	-1768
្គាល់	-1769
ចុច	-1770
▁រ៉	-1771
▁បំពង់	-1772
-5	-1773
្នះ	-1774
▁ប៊ូតុង	-1775
AR	-1776
ីរ	-1777
▁En	-1778
eg	-1779
▁៥	-1780
▁រក្សា	-1781
▁អ្នកផ្គត់ផ្គង់	-1782
ED	-1783
រំ	-1784
ដង	-1785
▁al	-1786
▁ហ្គ	-1787
▁ធនាគារ	-1788
uilt	-1789
ការស	-1790
lock	-1791
ថាមពល	-1792
័យប្រវត្តិ	-1793
ារ្យ	-1794
ចែក	-1795
លេង	-1796
ម្លង	-1797
▁សរសេរ	-1798
មែល	-1799
អនុវត្ត	-1800
▁គាំទ្រ	-1801
ប្រទេសចិន	-1802
ិរ	-1803
▁1.	-1804
ពន្លឺ	-1805
ork	-1806
ប្រកួត	-1807
tob	-1808
▁ដែលបាន	-1809
▁ជាង	-1810
▁សុ	-1811
▁អង្គ	-1812
ុត្រ	-1813
ិ៍	-1814
az	-1815
ាលី	-1816
built	-1817
ានៅ	-1818
▁វាយ	-1819
ពិសោធ	-1820
34	-1821
OS	-1822
37	-1823
ទីនេះ	-1824
▁មេ	-1825
▁ជូន	-1826
ប្តាហ៍	-1827
អតិថិជន	-1828
▁ទីតាំង	-1829
▁City	-1830
▁USA	-1831
hen	-1832
▁ចំណុច	-1833
▁មូលដ្ឋាន	-1834
ina	-1835
ឆ្ល	-1836
ated	-1837
▁ឱ្យ	-1838
▁ក៏	-1839
tobrag	-1840
builttobrag	-1841
26	-1842
pc	-1843
orld	-1844
cm	-1845
ase	-1846
▁Ad	-1847
▁ពិត	-1848
តិបរមា	-1849
ញ៉	-1850
▁AP	-1851
▁ភ្ល	-1852
amsung	-1853
word	-1854
ាម៉	-1855
-201	-1856
្នា	-1857
វាង	-1858
▁ស្វែងរក	-1859
ែនាំ	-1860
▁ult	-1861
▁j	-1862
ជំនាញ	-1863
ថ្ងៃនេះ	-1864
បរិច្ឆេទ	-1865
ich	-1866
ភ្នំពេញ	-1867
ម៉ែល	-1868
គ្រឿង	-1869
▁បម្រើ	-1870
line	-1871
▁On	-1872
ម្តេច	-1873
uc	-1874
លក្ខណៈ	-1875
ចាក់	-1876
▁សម្ព័ន្ធ	-1877
បី	-1878
ធ្ល	-1879
▁មី	-1880
ជំនួស	-1881
▁វិធី	-1882
▁គាត់	-1883
រថយន្ត	-1884
ដឹកជញ្ជូន	-1885
▁បញ្ជាក់	-1886
DF	-1887
ឆាំង	-1888
ធ្យ	-1889
ហម	-1890
▁ចំនួនអ្នក	-1891
ោជ	-1892
▁Samsung	-1893
ិសនី	-1894
▁បន្ទប់	-1895
ទំនាក់ទំនង	-1896
att	-1897
ុមារ	-1898
▁Google	-1899
▁Th	-1900
ាកដ	-1901
បំណង	-1902
▁°	-1903
ាកល្ប	-1904
សិក្សា	-1905
▁polyester	-1906
▁ផ្ញើ	-1907
▁បុ	-1908
▁ប្រតិបត្តិការ	-1909
cri	-1910
▁ultrasonic	-1911
▁ឃើញ	-1912
IS	-1913
ត្រា	-1914
ង្កើន	-1915
ំបុត្រ	-1916
អេស	-1917
ក្កដា	-1918
22	-1919
▁sh	-1920
▁និ	-1921
ប្រឹក	-1922
▁រង	-1923
មានការ	-1924
ោស	-1925
ពិត	-1926
▁សម្រ	-1927
rypt	-1928
លាន	-1929
AP	-1930
ន្ន	-1931
▁កម្ពុជា	-1932
ាបាល	-1933
ស្ល	-1934
▁ទូរ	-1935
ាកល្បង	-1936
oll	-1937
បត្រ	-1938
▁កាត	-1939
▁ក្រោម	-1940
70	-1941
="5	-1942
▁ពុម្ព	-1943
េន	-1944
oo	-1945
▁ព្រឹត្តិការណ៍	-1946
rad	-1947
▁01	-1948
សម្រួល	-1949
ក្រៅ	-1950
សំខាន់	-1951
75	-1952
▁100%	-1953
▁29	-1954
ជំនួយ	-1955
▁គេហទំព័រ	-1956
ង់ទី	-1957
្យុង	-1958
ure	-1959
▁វិន	-1960
69	-1961
ធិ	-1962
▁Ex	-1963
▁Hu	-1964
ាស៊	-1965
uk	-1966
ទាហ	-1967
33	-1968
សាល	-1969
▁របស់អ្នក	-1970
ទូល	-1971
▁pl	-1972
លាក់	-1973
▁2.	-1974
▁កាន់	-1975
▁ទិដ្ឋ	-1976
ីប	-1977
័ន	-1978
iew	-1979
ប្រយ	-1980
ប្រចាំ	-1981
ទាប់	-1982
ហេតុ	-1983
្យល់	-1984
itle	-1985
▁ផ្ទៃ	-1986
ចង់	-1987
65	-1988
▁ch	-1989
▁ជាមួយនឹង	-1990
ext	-1991
▁ដ៏	-1992
▁វីដេអូ	-1993
▁ស្ថ	-1994
▁HT	-1995
រើស	-1996
▁ស្ថាន	-1997
▁ប្រធាន	-1998
▁ផ្ទាល់	-1999
វិន	-2000
book	-2001
▁ហេតុ	-2002
85	-2003
ំនិត	-2004
ather	-2005
តុលា	-2006
▁Home	-2007
▁រថយន្ត	-2008
អង់គ្លេស	-2009
▁កំណែ	-2010
29	-2011
ss	-2012
▁ស្បែក	-2013
▁1,	-2014
NC	-2015
▁សម្ភារៈ	-2016
បំពាក់	-2017
▁CO	-2018
▁គ្រប់	-2019
គោល	-2020
ាជ្ញ	-2021
▁មម	-2022
ស្រី	-2023
ុខភាព	-2024
▁គុណ	-2025
ង់ដ	-2026
ធឺណ	-2027
ដឹកនាំ	-2028
man	-2029
ណ្ឋ	-2030
សម័យ	-2031
ប្បាយ	-2032
ផងដែរ	-2033
89	-2034
.99	-2035
ens	-2036
▁ឃ	-2037
▁(1	-2038
▁គួរ	-2039
▁មនុស្ស	-2040
រាល់	-2041
ក្រណាត់	-2042
ារាង	-2043
▁€	-2044
old	-2045
សួង	-2046
ង់ស្យុង	-2047
្នោត	-2048
▁Am	-2049
ាបូប	-2050
▁ផ្ដល់	-2051
ពាក់	-2052
▁សំឡេង	-2053
▁គ្នា	-2054
ចូលរួម	-2055
អាយ	-2056
សញ្ញ	-2057
▁ពិសេស	-2058
▁ជំនួស	-2059
អារម្មណ៍	-2060
សរស	-2061
▁35	-2062
ick	-2063
បន្ថយ	-2064
▁កាស៊ីណូ	-2065
▁ផែន	-2066
▁លេខកូដ	-2067
ជ័យ	-2068
ឡិច	-2069
▁បណ្ត	-2070
▁ល្បឿន	-2071
្កា	-2072
▁យោបល់	-2073
ឧស្សាហកម្ម	-2074
ER	-2075
ភាសា	-2076
ម៉ោង	-2077
▁គម្រោង	-2078
▁//	-2079
ឯកជន	-2080
▁ស្ន	-2081
ium	-2082
ៀម	-2083
ក្ប	-2084
AS	-2085
sp	-2086
ុណ្ណ	-2087
▁របារ	-2088
ree	-2089
ឡប់	-2090
:00	-2091
▁ជួរ	-2092
▁ឆ្នាំ២០១	-2093
ដំណ	-2094
ទាហរណ៍	-2095
▁ដំណើរ	-2096
▁រក្សាទុក	-2097
39	-2098
74	-2099
▁ខេត្ត	-2100
ជាការ	-2101
ខិត	-2102
▁រចនាសម្ព័ន្ធ	-2103
38	-2104
▁hour	-2105
aw	-2106
ជុល	-2107
▁ធម្មតា	-2108
▁ជើង	-2109
▁Pen	-2110
28	-2111
នុយ	-2112
ផ្តល់ជូន	-2113
utt	-2114
▁ជាតិ	-2115
▁បន្ត	-2116
▁កុំព្យូទ័រ	-2117
ire	-2118
load	-2119
AC	-2120
័ណ្ណ	-2121
ុណ្ណោះ	-2122
▁title	-2123
▁Cl	-2124
▁ប្ល	-2125
▁trans	-2126
optional	-2127
▁Ro	-2128
▁ពេលវេលា	-2129
ីតុ	-2130
រក្ស	-2131
▁com	-2132
obile	-2133
ition	-2134
ីតុណ្	-2135
erv	-2136
ំហាន	-2137
្មេង	-2138
ម្រង់	-2139
មាណ	-2140
ិះ	-2141
▁ចំណាំ	-2142
គ្រប់យ៉ាង	-2143
វី	-2144
▁ធី	-2145
▁៨	-2146
▁ខ្ពស់	-2147
▁item	-2148
▁តុលា	-2149
ន្តរជាតិ	-2150
ទិន្នន័យ	-2151
▁ត្រឹមត្រូវ	-2152
▁ផ្លាស់ប្ដូរ	-2153
68	-2154
▁3.	-2155
សាស្ត្រ	-2156
-4	-2157
2)	-2158
ការប	-2159
នាក់	-2160
▁ទិញ	-2161
ាសាស្ត្រ	-2162
asino	-2163
▁ចំពោះ	-2164
arm	-2165
▁កញ្ញា	-2166
រង	-2167
▁សមត្ថភាព	-2168
▁1000	-2169
ឡិចត្រ	-2170
100	-2171
▁ទាក់ទង	-2172
▁មុខ	-2173
▁កន្លែង	-2174
េស៊ី	-2175
រថភ្លើង	-2176
▁ឥ	-2177
មេ	-2178
▁ឌី	-2179
ឺនុយ	-2180
ូទាត់	-2181
ាលុយ	-2182
ញ្ចក់	-2183
ets	-2184
▁នាក់	-2185
▁ឧសភា	-2186
ge	-2187
សីហា	-2188
ery	-2189
▁អ្នកអាច	-2190
▁០	-2191
ils	-2192
កង់	-2193
វាយ	-2194
អាស	-2195
▁ដៃ	-2196
▁ក្ល	-2197
ix	-2198
ប័ណ្ណ	-2199
ិយោគ	-2200
ង់ទីម៉ែត្រ	-2201
ោជន៍	-2202
សិល	-2203
គេហទំព័រ	-2204
ឈើ	-2205
ជិត	-2206
វត្ថុ	-2207
▁ម៉ែត្រ	-2208
អ៊ីន	-2209
ទាញយក	-2210
▁Micro	-2211
រចនា	-2212
រឹង	-2213
ប៉ុន	-2214
▁វិញ	-2215
ាក្រ	-2216
ារបស់	-2217
▁ទីនេះ	-2218
រាង	-2219
មីញ៉	-2220
ាគមន៍	-2221
▁អ៊ីមែល	-2222
▁កាលបរិច្ឆេទ	-2223
▁PVC	-2224
port	-2225
▁App	-2226
ន្លឹក	-2227
▁ញ	-2228
កំដៅ	-2229
ប្រកាស	-2230
អន	-2231
ិយម	-2232
▁Min	-2233
▁វិញ្ញាបន	-2234
េតុង	-2235
▁សំណួរ	-2236
▁លី	-2237
ater	-2238
▁ធ្នូ	-2239
ហើរ	-2240
សត្វ	-2241
ៀល	-2242
▁ចែក	-2243
▁តម្រង	-2244
ចរណ៍	-2245
ណែនាំ	-2246
▁hourly	-2247
ធានី	-2248
ាជិក	-2249
geeks	-2250
rom	-2251
សាកលវិទ្យាល័យ	-2252
ុករក	-2253
▁ទិដ្ឋភាព	-2254
ype	-2255
▁ស៊េរី	-2256
ាលុយមីញ៉	-2257
ert	-2258
្អាត	-2259
▁លុប	-2260
="0	-2261
បូម	-2262
ត្រួតពិនិត្យ	-2263
▁ភ្ជាប់	-2264
27	-2265
]&	-2266
▁ដំណ	-2267
▁ដំបូង	-2268
ដៅ	-2269
ាធារ	-2270
▁ភ្នំពេញ	-2271
▁ប្រវត្តិ	-2272
incambodia	-2273
ស្ច	-2274
▁2012	-2275
geeksincambodia	-2276
ម្អិត	-2277
ne	-2278
▁អស់	-2279
ពាក្យ	-2280
លេញ	-2281
▁ខែមករា	-2282
TC	-2283
ណី	-2284
▁អូ	-2285
ម្លាំង	-2286
ode	-2287
▁នូវ	-2288
RL	-2289
សូម	-2290
ស្ថាន	-2291
ឹះ	-2292
▁Bl	-2293
ស្ចារ្យ	-2294
▁មជ្ឈមណ្ឌល	-2295
របស់ខ្ញុំ	-2296
នធាន	-2297
▁កណ្ដ	-2298
ank	-2299
ាគារ	-2300
▁PC	-2301
▁ឡើយ	-2302
សរសៃ	-2303
▁action	-2304
គណនី	-2305
95	-2306
;&	-2307
ខណ្ឌ	-2308
▁បច្ចេក	-2309
ML	-2310
ram	-2311
គ្គល	-2312
ុរ	-2313
ានិង	-2314
▁ដំឡើង	-2315
ener	-2316
ករាយ	-2317
88	-2318
ផ្ទុក	-2319
ៃតង	-2320
ស្វ័យប្រវត្តិ	-2321
កម្រិត	-2322
▁បញ្ចប់	-2323
▁ទទួលបាន	-2324
ជួយ	-2325
▁ច្រ	-2326
តិបត្តិ	-2327
ម្រូវការ	-2328
ទ្ប	-2329
▁be	-2330
សេវា	-2331
របស់ខ្លួន	-2332
▁តង់ស្យុង	-2333
សុវត្ថិភាព	-2334
▁៩	-2335
កល	-2336
ark	-2337
for	-2338
▁ផ្ទាំង	-2339
ាចក្រ	-2340
ប្រឹក្សា	-2341
osh	-2342
ហភាព	-2343
▁PDF	-2344
ង់ដារ	-2345
គម្រោង	-2346
តែង	-2347
ទ្រាយ	-2348
▁យើងមាន	-2349
មូលដ្ឋាន	-2350
យល់	-2351
ower	-2352
ៀកបំពាក់	-2353
រណី	-2354
សាន្ត	-2355
ង់ទ្រាយ	-2356
BA	-2357
▁09	-2358
ស្ទ	-2359
olog	-2360
ាត្រ	-2361
័ស	-2362
▁ព្យ	-2363
▁ល្បែង	-2364
▁de	-2365
▁វិទ្យ	-2366
▁ការប	-2367
▁ប្ដូរ	-2368
ំបែក	-2369
ux	-2370
ទូទៅ	-2371
▁ក្ប	-2372
ណ្ឋាគារ	-2373
ីតុណ្ហភាព	-2374
▁150	-2375
ប្រជា	-2376
encils	-2377
▁កាត់	-2378
ជំងឺ	-2379
▁កូន	-2380
ណ្ឌិត	-2381
ទីផ្សារ	-2382
ផ្លូវការ	-2383
▁ស្ដ	-2384
មន	-2385
សេចក	-2386
អាកាស	-2387
រគុណ	-2388
បញ្ជាក់	-2389
af	-2390
uss	-2391
▁ថ្ល	-2392
ml	-2393
▁អគារ	-2394
21	-2395
▁មិថុនា	-2396
▁ទូ	-2397
▁ពេញ	-2398
urr	-2399
ផ្អ	-2400
ធ្យម	-2401
កើត	-2402
77	-2403
gl	-2404
lect	-2405
ys	-2406
pcs	-2407
ត្រជាក់	-2408
▁LED	-2409
lot	-2410
ous	-2411
ath	-2412
ិខិត	-2413
ខ្ចប់	-2414
▁]]&	-2415
▁លាន	-2416
ិន្ទ	-2417
▁ជី	-2418
▁ម៉ឺនុយ	-2419
ទាក់ទង	-2420
▁សិទ្ធិ	-2421
▁300	-2422
ោបាយ	-2423
ជីវិត	-2424
▁Khmer	-2425
▁លទ្ធផល	-2426
រំលែក	-2427
ិយាល័យ	-2428
សម្ប	-2429
weather	-2430
▁៦	-2431
ហ័ស	-2432
ផ្ទាល់ខ្លួន	-2433
ឈ្នះ	-2434
▁ខែសីហា	-2435
ហុ	-2436
MP	-2437
បេតុង	-2438
▁អេក្រង់	-2439
▁IP	-2440
▁ច្ប	-2441
kv	-2442
▁បោះ	-2443
ប្រេង	-2444
ឯង	-2445
្តិ៍	-2446
▁sp	-2447
▁វិនាទី	-2448
ឺរ៉ុប	-2449
ខុស	-2450
AD	-2451
SL	-2452
្លែ	-2453
.201	-2454
ខ្មៅ	-2455
បុរស	-2456
ភាពយន្ត	-2457
ទឹង	-2458
ស្រុក	-2459
64	-2460
ins	-2461
ប័ត្រ	-2462
ូចន	-2463
ារាំង	-2464
me	-2465
▁us	-2466
ល្បឿន	-2467
▁co	-2468
រដ្ឋអាមេរិក	-2469
្រីក	-2470
▁ថ្នាំ	-2471
▁80	-2472
ឡិចត្រូន	-2473
ប៉ះ	-2474
▁រយៈពេល	-2475
▁សង់ទីម៉ែត្រ	-2476
ដូវ	-2477
ម៉ង់	-2478
រល	-2479
ឈប់	-2480
ឡុង	-2481
ំលៃ	-2482
ីឡា	-2483
▁២០០	-2484
គុយ	-2485
ទីតាំង	-2486
ាន់សម័យ	-2487
ិក្ខ	-2488
ង្វិល	-2489
▁មករា	-2490
អគ្គិសនី	-2491
▁Met	-2492
ស្ក	-2493
▁លេង	-2494
wordpress	-2495
ET	-2496
ថល	-2497
្ញៀវ	-2498
▁Si	-2499
ពិសោធន៍	-2500
ដាប់	-2501
ន្យ	-2502
ំដាប់	-2503
▁ធ្វើការ	-2504
ាជធានី	-2505
▁Com	-2506
▁មិនអាច	-2507
រៀបចំ	-2508
ិរញ្ញ	-2509
ាណា	-2510
pro	-2511
ទៅកាន់	-2512
▁ផ្សាយ	-2513
ដូចម្តេច	-2514
ដាស	-2515
▁ភាសាខ្មែរ	-2516
▁ខ្លួន	-2517
ង្ខ	-2518
ំងន់	-2519
▁Man	-2520
ត្រូវបានគេ	-2521
):	-2522
កែ	-2523
វេ	-2524
េចខ្ចប់	-2525
ave	-2526
របស់ក្រុមហ៊ុន	-2527
lex	-2528
ីឡូ	-2529
ប្រសើរ	-2530
អំណ	-2531
ចម្រ	-2532
្នាត	-2533
▁Can	-2534
ជ្រាវ	-2535
wei	-2536
▁សា	-2537
ង្គម	-2538
▁you	-2539
ាវជ្រាវ	-2540
ao	-2541
កូន	-2542
ons	-2543
ក្នុងមួយ	-2544
▁Penh	-2545
និយាយថា	-2546
ង្កត់	-2547
▁Const	-2548
71	-2549
ោរ	-2550
ឡាន	-2551
▁សីហា	-2552
ាន់តែ	-2553
▁ថាមពល	-2554
បង្កើតឡើង	-2555
ប្រឆាំង	-2556
បច្ចេកទេស	-2557
ownload	-2558
្នាក់នៅ	-2559
ានៃ	-2560
land	-2561
▁ប្រតិ	-2562
▁ww	-2563
▁ដែរ	-2564
▁គណនី	-2565
SD	-2566
▁www	-2567
ាស៊ែរ	-2568
ជាអ្នក	-2569
ts	-2570
ហៅ	-2571
បរិ	-2572
2"	-2573
ផែន	-2574
▁000	-2575
ុញ	-2576
្រ្តី	-2577
pen	-2578
រហូតដល់	-2579
អាជីវកម្ម	-2580
ម៉ូ	-2581
▁Hua	-2582
ជម្រើស	-2583
វិច្ឆិកា	-2584
▁ធីក	-2585
ប្រាកដ	-2586
ធនាគារ	-2587
យ៉ូ	-2588
▁ខែតុលា	-2589
រឿង	-2590
▁90	-2591
ធ្នូ	-2592
▁បូក	-2593
ម្ពាធ	-2594
▁កញ្ចប់	-2595
▁et	-2596
ទស្សន៍	-2597
ឆ្លង	-2598
ស្រឡ	-2599
▁សាល	-2600
▁បំផុត	-2601
▁CNC	-2602
ក្រាម	-2603
▁ករណី	-2604
សំរាប់	-2605
▁សកម្មភាព	-2606
នៅពេល	-2607
ក្ខខណ្ឌ	-2608
▁លំនាំដើម	-2609
les	-2610
ime	-2611
ង្រីក	-2612
enu	-2613
ត្តម	-2614
ូចនាករ	-2615
សរុប	-2616
▁2010	-2617
ru	-2618
ុស្តិ៍	-2619
របស់លោក	-2620
អភិវឌ្ឍន៍	-2621
▁កិច្ច	-2622
សមត្ថភាព	-2623
84	-2624
ណុក	-2625
▁សម័យ	-2626
ច្បាប់	-2627
ាទិត្យ	-2628
ទូរស័ព្ទដៃ	-2629
ON	-2630
eed	-2631
isa	-2632
ក្លាយ	-2633
lic	-2634
ក្រម	-2635
ម្លែង	-2636
▁ម៉ូតូ	-2637
ស្លាក	-2638
ិន្ទុ	-2639
ជារ	-2640
វីដេអូ	-2641
ន្ស	-2642
ឈ្មួញ	-2643
េរ៉	-2644
េស្ត	-2645
បច្ចេកវិទ្យា	-2646
▁ពីរ	-2647
ption	-2648
ទូទាត់	-2649
1,	-2650
បដ	-2651
66	-2652
TF	-2653
olt	-2654
▁TR	-2655
▁ពន្លឺ	-2656
chain	-2657
▁ដូចជា	-2658
aly	-2659
ត្ប	-2660
សញ្ញា	-2661
59	-2662
គូ	-2663
ធម្មតា	-2664
roup	-2665
ាជ័យ	-2666
▁ភៅ	-2667
▁អ៊ីម៉ែល	-2668
ធ្វើដំណើរ	-2669
សាក	-2670
ជ្ជា	-2671
IC	-2672
ក្តៅ	-2673
ឈរ	-2674
ប្រធាន	-2675
▁សញ្ញា	-2676
▁កែសម្រួល	-2677
▁ក្រុមហ៊ុនផលិត	-2678
ាភិបាល	-2679
▁អក្សរ	-2680
យោបល់	-2681
សម្គាល់	-2682
▁Huawei	-2683
▁អនុវត្ត	-2684
).	-2685
ដូរ	-2686
កំពូល	-2687
សាង	-2688
▁Casino	-2689
▁Ning	-2690
ទាប	-2691
▁No	-2692
ុទ្រ	-2693
ខាងក្រោម	-2694
▁an	-2695
ារី	-2696
ellation	-2697
ម៉ូតូ	-2698
▁ប្រភព	-2699
ិការ	-2700
គ្រោះ	-2701
▁(3	-2702
ពាល់	-2703
nom	-2704
អោយ	-2705
▁IS	-2706
រា	-2707
▁Mac	-2708
ស្ថិត	-2709
▁សរុប	-2710
▁ro	-2711
aj	-2712
▁4.	-2713
ើនឡើង	-2714
ប្រជុំ	-2715
▁160;?	-2716
ារាសាស្ត្រ	-2717
olm	-2718
បាច់	-2719
អាស៊ី	-2720
▁រន្ធ	-2721
ress	-2722
ដុល្លារ	-2723
▁ចុងក្រោយ	-2724
▁ខ្មៅ	-2725
▁ថ្នាក់	-2726
ធឺណិត	-2727
អន្តរជាតិ	-2728
▁រួច	-2729
▁សេចក្ដី	-2730
ពុំ	-2731
លឿន	-2732
វិនិយោគ	-2733
អិល	-2734
▁កំពូល	-2735
ហារ	-2736
▁Bo	-2737
ty	-2738
79	-2739
ស្វែងរក	-2740
ព្រម	-2741
ន្លោះ	-2742
49	-2743
▁ម៉ូដែល	-2744
បច្ចុប្បន្ន	-2745
▁បន្ទះ	-2746
▁ថ្ងៃទី	-2747
Stencils	-2748
▁អតិថិជន	-2749
▁សម្ងាត់	-2750
ជីថល	-2751
បង្ហ	-2752
▁Constellation	-2753
▁ap	-2754
វិភាគ	-2755
ួសារ	-2756
▁what	-2757
ហោះហើរ	-2758
▁Mobile	-2759
soft	-2760
▁ចុង	-2761
សិ	-2762
evel	-2763
▁ចូលរួម	-2764
តិច	-2765
▁សេវាកម្ម	-2766
ស៊ូ	-2767
▁ស្ម	-2768
▁ដែលជា	-2769
ជាំង	-2770
▁តូច	-2771
▁transl	-2772
ប្រយោជន៍	-2773
▁ឧទាហរណ៍	-2774
net	-2775
▁ធំ	-2776
▁រត់	-2777
ណាមួយ	-2778
▁តង់ស្យុងខ្ពស់	-2779
iel	-2780
ដែលអាច	-2781
▁រឿង	-2782
▁ម្សៅ	-2783
វេចខ្ចប់	-2784
ទិន	-2785
ទ្បា	-2786
ស្អាត	-2787
tr	-2788
lockchain	-2789
ឌុល	-2790
មីនា	-2791
▁×	-2792
IP	-2793
enz	-2794
▁He	-2795
ទ្បាផ្ទៃ	-2796
ត្រឹមត្រូវ	-2797
ID	-2798
គុណភាពខ្ពស់	-2799
▁ក្រទ្បាផ្ទៃ	-2800
កូត	-2801
▁APK	-2802
ស្ស៊ី	-2803
▁ad	-2804
▁បរិ	-2805
▁ជំហាន	-2806
ទៅក្នុង	-2807
ាលុយមីញ៉ូម	-2808
▁អគ្គ	-2809
min	-2810
ock	-2811
សា	-2812
ាយាម	-2813
ក្មេង	-2814
▁News	-2815
opy	-2816
ាស្ថាន	-2817
ជ្រើសរើស	-2818
riv	-2819
ស្នាក់នៅ	-2820
-8	-2821
▁Ind	-2822
▁Ningbo	-2823
73	-2824
ត្រូវការ	-2825
▁តភ្ជាប់	-2826
ube	-2827
ជួល	-2828
▁របាយការណ៍	-2829
ៀវភៅ	-2830
មិត្ត	-2831
▁HD	-2832
ឈ្មួញកណ្តាល	-2833
▁2,	-2834
េទ្យ	-2835
Sh	-2836
▁តួ	-2837
▁Kon	-2838
chn	-2839
▁កូដ	-2840
ាហ្វិក	-2841
មាស	-2842
ព្យាបាល	-2843
ស្រាវជ្រាវ	-2844
wit	-2845
ស័យ	-2846
▁ពួកគេ	-2847
Co	-2848
ខ្ស	-2849
color	-2850
អេឡិចត្រូន	-2851
CD	-2852
ផលិតកម្ម	-2853
ទារ	-2854
ព័រ	-2855
▁ណា	-2856
▁គំរូ	-2857
ដាន	-2858
▁Fl	-2859
▁គិត	-2860
ology	-2861
បន្ទាត់	-2862
iang	-2863
▁ប្លាស្ទិច	-2864
2"&	-2865
ទូរ	-2866
▁un	-2867
ធ្វើដូចម្តេច	-2868
ខ្ញ	-2869
▁ពិនិត្យឡើងវិញ	-2870
ថែប	-2871
abel	-2872
▁2011	-2873
ទូលាយ	-2874
▁Br	-2875
quer	-2876
អនុញ្ញាត	-2877
▁កា	-2878
▁សម្រាប់ការ	-2879
▁ផែនទី	-2880
តេ	-2881
សម្ល	-2882
ោគជ័យ	-2883
▁រៀបចំ	-2884
▁ដី	-2885
ម្តង	-2886
ម្ពស់	-2887
▁អាមេរិក	-2888
ada	-2889
ier	-2890
▁ទ្រង់ទ្រាយ	-2891
▁ជ្រ	-2892
ួញដូរ	-2893
កុំព្យូទ័រ	-2894
▁--	-2895
▁By	-2896
បណ្ឌិត	-2897
▁ស្រុក	-2898
▁32	-2899
តេស្ត	-2900
-6	-2901
្នៃ	-2902
iber	-2903
ical	-2904
ានេះ	-2905
តំណាង	-2906
ទៅនឹង	-2907
▁ខ្មែរ	-2908
▁ប្រកាស	-2909
ពុំអាចរកបាន	-2910
te	-2911
ទាត់	-2912
ក៏	-2913
សម្ភារៈ	-2914
ប្ល	-2915
សៀវភៅ	-2916
▁ចំនួនអ្នកទស្សនា	-2917
▁Gal	-2918
កុមារ	-2919
ុណ្យ	-2920
ស្តី	-2921
▁Air	-2922
▁ផ្គ	-2923
▁Microsoft	-2924
▁ខែវិច្ឆិកា	-2925
hou	-2926
▁Ult	-2927
ង្រៀន	-2928
ន្ទីរ	-2929
▁នី	-2930
ណទាន	-2931
ម៉ាក	-2932
500	-2933
ចាយ	-2934
ject	-2935
ិញ្ច	-2936
▁Pre	-2937
រកឃើញ	-2938
ំអ	-2939
▁ព្រឹក	-2940
ស្ដ	-2941
ឺរ៉ូ	-2942
ម្ងាយ	-2943
▁៧	-2944
បម្រើ	-2945
▁បង្ហ	-2946
ប៉ុស្តិ៍	-2947
ions	-2948
ពណ៌នា	-2949
ចំណាយ	-2950
ចំពោះ	-2951
អស្ចារ្យ	-2952
ុះបណ្ត	-2953
31	-2954
នៅទីនេះ	-2955
ចល័ត	-2956
▁ប្ត	-2957
▁រុករក	-2958
▁ផ្សេងៗ	-2959
▁អភិវឌ្ឍ	-2960
អ៊ីណុក	-2961
▁crypt	-2962
ច្រ	-2963
ទ័រ	-2964
ទ្ម	-2965
បែប	-2966
▁URL	-2967
ាតិកា	-2968
▁OF	-2969
▁តាមរយៈ	-2970
▁ផ្លាស់ទី	-2971
76	-2972
▁ខណៈ	-2973
ដំឡើង	-2974
urrenc	-2975
ជូនដំណឹង	-2976
ស្វាគមន៍	-2977
ood	-2978
▁អតិបរមា	-2979
rig	-2980
▁ទទឹង	-2981
គំរូ	-2982
▁កើត	-2983
▁(201	-2984
▁ខែមីនា	-2985
រួមបញ្ចូល	-2986
2%	-2987
ទ្រព្យ	-2988
to	-2989
យោបាយ	-2990
▁ធនធាន	-2991
Pl	-2992
▁dist	-2993
បញ្ជី	-2994
▁ទំងន់	-2995
ink	-2996
▁អាវ	-2997
ពេលវេលា	-2998
វិជ្ជា	-2999
▁ដោយឥតគិតថ្លៃ	-3000
▁34	-3001
▁១០	-3002
របស់គាត់	-3003
▁Comments	-3004
32	-3005
the	-3006
uan	-3007
ាការ	-3008
queror	-3009
ម្នាក់	-3010
ធម	-3011
ហោ	-3012
iss	-3013
ប៊ី	-3014
្វេង	-3015
▁លើក	-3016
▁ចាប់ផ្តើម	-3017
បំពេញ	-3018
▁បណ្តាញ	-3019
sthis	-3020
▁whatsthis	-3021
ps	-3022
▁You	-3023
ផ្ដល់	-3024
េទិកា	-3025
ស្រទាប់	-3026
▁សំបុត្រ	-3027
ory	-3028
ជិះ	-3029
▁គីឡូ	-3030
rap	-3031
សរសេរ	-3032
acebook	-3033
▁តើធ្វើដូចម្តេច	-3034
គ្គលិក	-3035
▁លិខិត	-3036
▁កាបូប	-3037
▁Mon	-3038
▁យន្ត	-3039
▁ប្រតិទិន	-3040
ជីវៈ	-3041
▁ហ៊ុន	-3042
▁រាល់	-3043
▁with	-3044
▁ទៅកាន់	-3045
តម្រូវការ	-3046
▁ខែកុម្ភៈ	-3047
EL	-3048
▁ពិន្ទុ	-3049
▁ប្រសិនបើអ្នក	-3050
ំសាន្ត	-3051
ES	-3052
▁Sk	-3053
▁ទោះ	-3054
ទស្សន	-3055
▁Arch	-3056
▁Visa	-3057
▁ខែមេសា	-3058
្បៈ	-3059
▁Pay	-3060
កើនឡើង	-3061
មួយចំនួន	-3062
ទាំងនេះ	-3063
▁ទូរសារ	-3064
ដ្ឋកិច្ច	-3065
សាយ	-3066
▁70	-3067
ប្រាំ	-3068
▁ខៀវ	-3069
អាទិត្យ	-3070
ស្បែក	-3071
orr	-3072
ទ្វ	-3073
ការ៉េ	-3074
▁Holm	-3075
▁Play	-3076
ប្រហែល	-3077
ានា	-3078
▁04	-3079
ឧត្តម	-3080
▁ចំណង	-3081
ឺត	-3082
atch	-3083
ឥតខ្ច	-3084
▁ក្រហម	-3085
នាង	-3086
ន្លឹះ	-3087
ាក់កាល	-3088
4)	-3089
▁45	-3090
▁USD	-3091
ational	-3092
អ្វីដែល	-3093
4"&	-3094
ាបៃ	-3095
ៃតុ	-3096
CH	-3097
ឥតខ្ចោះ	-3098
ប្រាក់រង្វាន់	-3099
អាវ	-3100
▁រំល	-3101
ox	-3102
▁វត្ថ	-3103
▁ពាណិជ្ជកម្ម	-3104
MS	-3105
ជួប	-3106
▁con	-3107
ocurrenc	-3108
hy	-3109
▁អំណ	-3110
ប័ទ្ម	-3111
សាសន៍	-3112
▁ចម្លង	-3113
បន្ទះ	-3114
ពេញលេញ	-3115
▁គុណភាព	-3116
ale	-3117
ស្ម័ន	-3118
ៀងរាល់	-3119
ាជធានីភ្នំពេញ	-3120
TM	-3121
ាធារណៈ	-3122
▁ច្បាប់	-3123
សិទ្ធិ	-3124
ិស្ថាន	-3125
▁វិច្ឆិកា	-3126
ិរញ្ញវត្ថុ	-3127
fl	-3128
any	-3129
រដូវ	-3130
▁ទស្សនា	-3131
អាចត្រូវបាន	-3132
ann	-3133
អែល	-3134
ចម្លង	-3135
ឺម៉ង់	-3136
▁ក្នុងការ	-3137
amb	-3138
sch	-3139
▁De	-3140
▁ទាញ	-3141
ខ្យល់	-3142
▁are	-3143
▁ជីវ	-3144
▁Phnom	-3145
បូ	-3146
ives	-3147
ពេទ្យ	-3148
▁ABA	-3149
▁cond	-3150
▁អ៊ិន	-3151
98	-3152
Hz	-3153
ata	-3154
▁ម៉ូឌុល	-3155
3"	-3156
evelop	-3157
▁បញ្ហា	-3158
ern	-3159
កាយ	-3160
នុញ្ញ	-3161
▁Wed	-3162
តែមួយ	-3163
ម្ងន់	-3164
ុស្ស៊ី	-3165
ans	-3166
ាគម	-3167
▁08	-3168
ានឹង	-3169
▁ថាស	-3170
សំឡេង	-3171
▁សប្តាហ៍	-3172
▁Konqueror	-3173
IF	-3174
="6	-3175
▁ក្រសួង	-3176
▁Sc	-3177
▁តារាង	-3178
▁AC	-3179
សាច់	-3180
ផ្ទេរ	-3181
▁ថ្លៃ	-3182
▁បណ្ណ	-3183
អត្ថបទ	-3184
top	-3185
posh	-3186
ទៅជា	-3187
សេចក្តី	-3188
CO	-3189
ille	-3190
▁ខែកញ្ញា	-3191
រីករាយ	-3192
ួសជុល	-3193
▁មេសា	-3194
▁វិញ្ញាបនបត្រ	-3195
res	-3196
្នេរ	-3197
ព័រណ៍	-3198
ក្រុមហ៊ុនផលិត	-3199
▁បច្ចេកវិទ្យា	-3200
▁86	-3201
▁ឥឡូវ	-3202
ឹប	-3203
▁06	-3204
view	-3205
▁បូម	-3206
▁ស្ទ	-3207
▁ឥឡូវនេះ	-3208
ជួញដូរ	-3209
▁1:	-3210
list	-3211
▁សន្លឹក	-3212
▁36	-3213
▁99	-3214
▁as	-3215
▁not	-3216
របស់ពួកគេ	-3217
▁ផ្ទេរ	-3218
EN	-3219
gov	-3220
▁07	-3221
▁ទូទៅ	-3222
48	-3223
oh	-3224
ដក	-3225
សិក្ស	-3226
▁ប្រាក់រង្វាន់	-3227
ចរ	-3228
▁Do	-3229
ទំនិញ	-3230
ភាក	-3231
រហ័ស	-3232
▁អាល់	-3233
ប្លាស្ទិច	-3234
ដែន	-3235
▁'%	-3236
រន្ធ	-3237
▁ស្ល	-3238
▁ពិធី	-3239
▁ប្រចាំ	-3240
ual	-3241
mail	-3242
▁Car	-3243
▁ខែធ្នូ	-3244
▁distric	-3245
ger	-3246
▁33	-3247
▁ex	-3248
លើកទី	-3249
GB	-3250
ផ្សេងៗ	-3251
78	-3252
▁Open	-3253
ដូច្នេះ	-3254
▁បរាជ័យ	-3255
ធ្វើតេស្ត	-3256
ប៉ះពាល់	-3257
អម្ចាស់	-3258
In	-3259
សែល	-3260
បន្ទប់	-3261
រស់	-3262
ង្កាត់	-3263
%8	-3264
▁វគ្គ	-3265
7"&	-3266
ហាវិទ្យាល័យ	-3267
▁ខែមិថុនា	-3268
▁250	-3269
ង្ខេប	-3270
▁Download	-3271
្ដារ	-3272
▁ប្រវែង	-3273
AL	-3274
ចុង	-3275
▁២០	-3276
▁kde	-3277
នេះត្រូវបាន	-3278
▁	-3279
ដំប	-3280
ពហុ	-3281
▁or	-3282
Ch	-3283
ដែលជា	-3284
ំឡុង	-3285
▁តំណាង	-3286
cription	-3287
ដែលត្រូវបាន	-3288
▁ISO	-3289
▁Post	-3290
ារ៉ាប់	-3291
ទ្ទ	-3292
▁Slot	-3293
▁វត្ថុ	-3294
ត៍	-3295
▁ចល	-3296
▁គំនិត	-3297
មន្រ្តី	-3298
▁តើអ្នក	-3299
uf	-3300
▁02	-3301
សប្តាហ៍	-3302
ខែម	-3303
តំណ	-3304
ឌីយ៉ូ	-3305
គ្រួសារ	-3306
▁ឱ	-3307
ត្ថលេខ	-3308
▁Inter	-3309
ិទ្ធិភាព	-3310
ene	-3311
ំនៅ	-3312
▁Fran	-3313
igh	-3314
កម្	-3315
▁CS	-3316
ence	-3317
▁Online	-3318
ORS	-3319
▁Ser	-3320
បណ្តុះបណ្ត	-3321
kg	-3322
ign	-3323
▁"%	-3324
ទាក់	-3325
ខ្នាត	-3326
សុខភាព	-3327
បន្ទាប់ពី	-3328
ោទ	-3329
ប្រអប់	-3330
ផ្ញើ	-3331
▁ខ្ញុំជា	-3332
▁pre	-3333
▁ជាន់	-3334
▁នាយក	-3335
▁ជួលឡាន	-3336
▁31	-3337
▁នាង	-3338
ូរ៉	-3339
ទឹកក	-3340
មាត្រ	-3341
▁Free	-3342
▁ស្វែង	-3343
ាសាស្រ្ត	-3344
EM	-3345
AME	-3346
ings	-3347
▁អាយ	-3348
អេក្រង់	-3349
▁ការប្រើប្រាស់	-3350
new	-3351
ករណី	-3352
▁label	-3353
ង្ស	-3354
izer	-3355
ication	-3356
3"&	-3357
ខេត្ត	-3358
ានរង្វាន់	-3359
សោ	-3360
855	-3361
▁5.	-3362
▁HVC	-3363
▁សម្ល	-3364
.,	-3365
ឹត	-3366
បញ្ជូន	-3367
លម្អិត	-3368
▁សកម្ម	-3369
rol	-3370
ដុំ	-3371
វ័យ	-3372
អាង	-3373
ឥតខ្សែ	-3374
ភី	-3375
▁75	-3376
▁តំណ	-3377
ភ្នែក	-3378
▁ផ្ទៃតុ	-3379
UR	-3380
គ្គុ	-3381
▁TRAN	-3382
▁your	-3383
នៅក្នុងការ	-3384
-10	-3385
.10	-3386
ose	-3387
glish	-3388
យុ	-3389
eth	-3390
▁បៃតង	-3391
សថ	-3392
ន្ដ	-3393
នេះ។	-3394
▁ឃ្ល	-3395
ild	-3396
ត្បូង	-3397
row	-3398
▁120	-3399
ATORS	-3400
អឺរ៉ុប	-3401
▁កណ្ដុរ	-3402
▁·	-3403
▁le	-3404
េរ៉ាម	-3405
▁ឧស្សាហកម្ម	-3406
ច្នៃ	-3407
▁ជួយ	-3408
ប្រុស	-3409
ធ្លាក់	-3410
ចុះឈ្មោះ	-3411
កប្រែ	-3412
▁Techn	-3413
ake	-3414
▁ដឹក	-3415
▁Vess	-3416
ច្បាស់	-3417
▁អឺរ៉ូ	-3418
SLATORS	-3419
▁ទម្រង់	-3420
ជាក់លាក់	-3421
្នាក់ងារ	-3422
▁TRANSLATORS	-3423
▁ង	-3424
ware	-3425
សមាជិក	-3426
▁lo	-3427
ធានា	-3428
នៈ	-3429
២០	-3430
▁z	-3431
▁Vessoft	-3432
escription	-3433
96	-3434
រ៍	-3435
ោហ	-3436
សាកល្បង	-3437
អតិបរមា	-3438
▁អង្គការ	-3439
SM	-3440
២៣	-3441
▁Che	-3442
នេះគឺ	-3443
សង្គម	-3444
▁[...	-3445
▁បង្កើន	-3446
▁សំរាប់	-3447
វិជ្ជាជីវៈ	-3448
ម្រាស់	-3449
rus	-3450
នាម	-3451
០០០	-3452
េសប៊	-3453
មន្ត្រី	-3454
▁កក្កដា	-3455
▁ការកំណត់	-3456
▁condition	-3457
▁—	-3458
▁Le	-3459
▁ប៊ី	-3460
េរ៉ាមិច	-3461
▁ប័ណ្ណ	-3462
);	-3463
rist	-3464
▁Vol	-3465
▁ក្រៅ	-3466
cl	-3467
ដូ	-3468
ផ្ច	-3469
នយោបាយ	-3470
IT	-3471
▁សត្វ	-3472
▁ការការពារ	-3473
▁Apple	-3474
3)	-3475
▁ៗ	-3476
▁ហៅ	-3477
កាត់បន្ថយ	-3478
ធ្ង	-3479
មកពី	-3480
▁Inst	-3481
▁ស្វ័យ	-3482
លាស់	-3483
axy	-3484
ជុំវិញ	-3485
ប្រឹក្សាភិបាល	-3486
ស្គាល់	-3487
rader	-3488
ទេសចរណ៍	-3489
អ្នកអាច	-3490
7"	-3491
TP	-3492
បរទេស	-3493
វេជ្ជ	-3494
ីស្ទ	-3495
ផ្ចិត	-3496
ាជ្ញាប	-3497
កាស៊ីណូ	-3498
ខ្ញុំបាន	-3499
បាល់	-3500
ណ្តប់	-3501
▁qu	-3502
▁រី	-3503
▁សាស	-3504
fer	-3505
ool	-3506
▁(5	-3507
▁ត្រឡប់	-3508
▁ស្ថានភាព	-3509
ល្អឥតខ្ចោះ	-3510
be	-3511
េសប៊ុក	-3512
▁មតិយោបល់	-3513
▁លក្ខខណ្ឌ	-3514
▁As	-3515
▁ជម្រ	-3516
▁កុម្ភៈ	-3517
▁Aut	-3518
▁អេស	-3519
ក្បាល	-3520
ិទ្ធភាព	-3521
▁Facebook	-3522
▁{	-3523
ays	-3524
ស្សិត	-3525
▁Copy	-3526
▁ក្នុងរយៈពេល	-3527
edia	-3528
▁Tue	-3529
▁ប្រហែល	-3530
បន្ថែមទៀត	-3531
ាត់ថ្នាក់	-3532
▁ការព	-3533
បដណ្តប់	-3534
លាយ	-3535
▁បែ	-3536
enter	-3537
!!	-3538
រៀន	-3539
▁color	-3540
ម្យ	-3541
ាបន	-3542
ម្បង	-3543
ផ្នែកមួយ	-3544
▁Ultrasonic	-3545
ipp	-3546
ាសាល	-3547
ction	-3548
គំនិត	-3549
ប្រសិន	-3550
▁ស៊ីឌី	-3551
arn	-3552
44	-3553
ance	-3554
ingd	-3555
ង្កត់ផ្ចិត	-3556
TD	-3557
ឆ្នោត	-3558
មិនមែន	-3559
▁Ap	-3560
▁ហាង	-3561
urg	-3562
ផ្គង	-3563
ដោយស្វ័យប្រវត្តិ	-3564
cam	-3565
ទេ។	-3566
▁DN	-3567
▁Qu	-3568
របៀប	-3569
ឡាំង	-3570
តាំងពី	-3571
▁បន្ទាប់ពី	-3572
by	-3573
ise	-3574
ញ្ជ	-3575
▁Be	-3576
▁ដេរ	-3577
▁3,	-3578
នាយក	-3579
▁19,	-3580
ស្រង់	-3581
ស្រស់	-3582
▁សំណុំ	-3583
▁Ed	-3584
▁Canada	-3585
ឡើយ	-3586
មួយៗ	-3587
សកម្ម	-3588
កញ្ចក់	-3589
នាចក្រ	-3590
▁សាកល្បង	-3591
1"	-3592
និពន្ធ	-3593
ett	-3594
ocurrency	-3595
▁4,	-3596
▁org	-3597
▁ដែន	-3598
▁Galaxy	-3599
ខាងក្នុង	-3600
សី	-3601
ade	-3602
ury	-3603
សង់	-3604
និធិ	-3605
អង្គការ	-3606
សកម្មភាព	-3607
ចលន	-3608
អរគុណ	-3609
▁ច្រក	-3610
ខ្លួនឯង	-3611
▁Plus	-3612
witter	-3613
PC	-3614
មធ្យម	-3615
ភ្នាល់	-3616
▁ធ្វើឱ្យ	-3617
▁dis	-3618
2,	-3619
TS	-3620
▁Mc	-3621
▁កាស	-3622
រយ	-3623
ឡា	-3624
▁កុំ	-3625
សញ្ញាណ	-3626
បន្លាស់	-3627
▁បន្ទាប់មក	-3628
ធារាសាស្ត្រ	-3629
ft	-3630
ៀស	-3631
▁05	-3632
▁សម្គាល់	-3633
ចោល	-3634
បញ្ហា	-3635
ប៉ុណ្ណោះ	-3636
ផ្កា	-3637
▁ធ្ល	-3638
លំនាំ	-3639
ឌីជីថល	-3640
ទទួលយក	-3641
▁មិនមែន	-3642
\\	-3643
▁→	-3644
▁Me	-3645
▁English	-3646
▁blockchain	-3647
គណ	-3648
សម្ងាត់	-3649
▁សុវត្ថិភាព	-3650
=5	-3651
ាល្ល	-3652
សម្បត្តិ	-3653
▁លក្ខណៈពិសេស	-3654
▁Jun	-3655
▁iOS	-3656
ឡាស៊ែរ	-3657
ជឿ	-3658
វិស័យ	-3659
គ្រាប់	-3660
ជំរ	-3661
▁ប៉ុណ្ណោះ	-3662
XL	-3663
▁?	-3664
▁Se	-3665
ames	-3666
ាត់បង់	-3667
គឺជាការ	-3668
▁ផ្សេងទៀត	-3669
rd	-3670
េគ	-3671
▁Oct	-3672
ontent	-3673
ចែករំលែក	-3674
ics	-3675
មន្ត	-3676
ត្រឡប់	-3677
ទូទាំង	-3678
orn	-3679
▁សូចនាករ	-3680
▁លេខកូដយោង	-3681
▁ប្រើប្រាស់	-3682
oney	-3683
ឥណ្ឌ	-3684
▁ផ្អ	-3685
ញ្ជើញ	-3686
ាល្លឺម៉ង់	-3687
evelopment	-3688
៥៥	-3689
▁03	-3690
យ៉ាងវិញ	-3691
RO	-3692
TFE	-3693
ដែលយើង	-3694
oto	-3695
ford	-3696
perty	-3697
▁丨	-3698
ero	-3699
▁Archives	-3700
▁0,	-3701
▁ដឹង	-3702
អប់រំ	-3703
គួរឱ្យ	-3704
ម្រប	-3705
▁400	-3706
បង្កើន	-3707
ុះតម្លៃ	-3708
▁មិនមាន	-3709
បណ្តុះបណ្តាល	-3710
/#	-3711
ហាស	-3712
▁Sch	-3713
▁Power	-3714
ហាន	-3715
ចិញ្ច	-3716
ាមញ្ញ	-3717
▁ខែកក្កដា	-3718
SP	-3719
001	-3720
▁EA	-3721
▁do	-3722
▁tr	-3723
▁220	-3724
ង់ចាំ	-3725
ុបតែង	-3726
onus	-3727
▁ជាក់	-3728
លទ្ធផល	-3729
យ៉ាងវិញទៀត	-3730
EE	-3731
តំលៃ	-3732
ទឹកកក	-3733
គ្រាន់តែ	-3734
▁ភ្ញៀវ	-3735
▁អាកាស	-3736
កា	-3737
លានយន្តហោះ	-3738
-20	-3739
▁this	-3740
រម្យ	-3741
ចំណុច	-3742
▁បាននិយាយថា	-3743
៊ូ	-3744
▁that	-3745
ប្រមូល	-3746
ransposh	-3747
▁សង្កាត់	-3748
▁ការគាំទ្រ	-3749
ma	-3750
អ៊ិន	-3751
ទំនើប	-3752
ិន្នផល	-3753
▁ក្រាហ្វិក	-3754
Ah	-3755
ូម៉	-3756
▁PTFE	-3757
ខ្ញុំន	-3758
សមុទ្រ	-3759
ប្រើបាន	-3760
▁ពុម្ពអក្សរ	-3761
ៀរ	-3762
▁ហេតុអ្វី	-3763
94	-3764
ana	-3765
▁ស្គ	-3766
ng	-3767
កៅ	-3768
▁យន្តហោះ	-3769
ីយ៍	-3770
▁MO	-3771
fish	-3772
▁ការរ	-3773
▁សិ	-3774
ិយប័ណ្ណ	-3775
▁ស្គាល់	-3776
▁Technology	-3777
គ្រីប	-3778
▁2009	-3779
▁ប្រេង	-3780
comments	-3781
ខា	-3782
ike	-3783
▁មេក	-3784
ូផ្គង	-3785
តន្ត្រី	-3786
▁គោលការណ៍	-3787
▁រចនាប័ទ្ម	-3788
ais	-3789
rip	-3790
កំណ	-3791
សួរ	-3792
បុណ្យ	-3793
▁[...]	-3794
▁ណ្ត	-3795
បគ្នា	-3796
▁th	-3797
ប្រឆាំងនឹង	-3798
យូរ	-3799
▁កុង	-3800
ឯកទេស	-3801
▁2000	-3802
▁IC	-3803
▁SP	-3804
mp	-3805
អំប	-3806
▁2:	-3807
▁cl	-3808
form	-3809
ពាហ៍	-3810
ere	-3811
ូលិក	-3812
ជួរ	-3813
រាជ	-3814
អាយុ	-3815
សំណួរ	-3816
▁រហូតដល់	-3817
-7	-3818
ធម៌	-3819
ines	-3820
▁វាល	-3821
ហ្គេម	-3822
សំបុត្រ	-3823
8)	-3824
red	-3825
▁ជន	-3826
ត្ថម្ភ	-3827
គ្រីស្ទ	-3828
ប្រជាជន	-3829
▁ឡើងវិញ	-3830
▁ថ្ងៃនេះ	-3831
▁ខាងក្រោម	-3832
រចនាសម្ព័ន្ធ	-3833
ទាំ	-3834
▁ph	-3835
▁ប្រតិបត្តិ	-3836
បន្ទាប់ពីការ	-3837
ហៃ	-3838
▁1'	-3839
▁Ag	-3840
▁Ox	-3841
.000	-3842
▁option	-3843
ធុង	-3844
ូមិ	-3845
▁1"	-3846
▁Li	-3847
ជំនឿ	-3848
▁មីនា	-3849
ត្តសញ្ញាណ	-3850
មជ្ឈមណ្ឌល	-3851
▁ម។	-3852
ន្ទះ	-3853
ម្លាក់	-3854
ថេរ	-3855
ធិប្បាយ	-3856
atic	-3857
ម៉ូដែល	-3858
▁ក្រាម	-3859
▁ជីវិត	-3860
▁ក្នុងមួយ	-3861
▁អ៊ីន	-3862
enzhen	-3863
លក្ខណៈពិសេស	-3864
▁We	-3865
ជោគជ័យ	-3866
វាយតម្លៃ	-3867
▁48	-3868
ស៊េរី	-3869
▁និពន្ធ	-3870
▁កម្លាំង	-3871
▁ជាតិសរសៃ	-3872
អាលុយមីញ៉ូម	-3873
-01	-3874
▁Pi	-3875
▁គណ	-3876
▁មាតិកា	-3877
សេរ៉ាមិច	-3878
▁;	-3879
កុង	-3880
▁(0	-3881
oint	-3882
ត្រី	-3883
▁ហ្ស	-3884
▁និយម	-3885
ត្ថលេខា	-3886
▁ក្ដារ	-3887
ច្រើនជាង	-3888
▁សីតុណ្ហភាព	-3889
▁$1	-3890
▁Shenzhen	-3891
វិល	-3892
olum	-3893
ិសុខ	-3894
world	-3895
នេះបាន	-3896
ស្ត្រី	-3897
▁ស្ថិត	-3898
▁ស្រទាប់	-3899
សហប្រតិបត្តិការ	-3900
ម៉ូន	-3901
▁Poly	-3902
លើកដំបូង	-3903
ava	-3904
កាប	-3905
6)	-3906
ុក្ខ	-3907
យុទ្ធ	-3908
បញ្ចេញ	-3909
▁អាហារ	-3910
7)	-3911
ភ័យ	-3912
▁Ac	-3913
▁លើស	-3914
ដាក់ប្រាក់	-3915
▁ការផ្លាស់ប្តូរ	-3916
▁ឌ	-3917
▁បែប	-3918
កញ្ចប់	-3919
sk	-3920
បញ្ញ	-3921
ំនូរ	-3922
▁55	-3923
▁fl	-3924
រូបថត	-3925
▁Cham	-3926
▁Property	-3927
ដំណោះស្រាយ	-3928
AM	-3929
IL	-3930
den	-3931
ក្រហម	-3932
ូលី	-3933
សារធាតុ	-3934
ស្រឡាញ់	-3935
ប្រតិបត្តិ	-3936
▁ការិយាល័យ	-3937
/16	-3938
air	-3939
▁ប្រជា	-3940
▁ព្រិល	-3941
អំពីការ	-3942
ព្រឹត្តិការណ៍	-3943
តាលី	-3944
ែទាំ	-3945
▁Bill	-3946
កម្លាំង	-3947
ត្ដ	-3948
▁Sup	-3949
ecast	-3950
មន្ទីរ	-3951
▁នាំចូល	-3952
▁អភិវឌ្ឍន៍	-3953
ជាន់	-3954
aster	-3955
ភាក្សា	-3956
▁ឆ្វេង	-3957
ull	-3958
ជែក	-3959
ស្ប	-3960
▁វី	-3961
ound	-3962
▁ក្ត	-3963
▁បែតា	-3964
▁Chang	-3965
សេដ្ឋកិច្ច	-3966
ាជ្ញាប័ណ្ណ	-3967
តី	-3968
ណាម	-3969
▁5,	-3970
ម្សៅ	-3971
6"	-3972
ភ្លឺ	-3973
▁stat	-3974
▁វិភាគ	-3975
▁សំខាន់	-3976
▁អូឌីយ៉ូ	-3977
ប្រទេសកម្ពុជា	-3978
កាំ	-3979
here	-3980
ងចាំ	-3981
ក្រសួង	-3982
ាឃ	-3983
▁Zh	-3984
▁បី	-3985
▁0.0	-3986
ោងតាម	-3987
▁ហ្គេម	-3988
aterial	-3989
ខាងក្រៅ	-3990
DM	-3991
បោះ	-3992
▁ដឺ	-3993
cript	-3994
eneric	-3995
ាមេរ៉ា	-3996
▁ផងដែរ	-3997
▁សិទ្ធ	-3998
ុធ	-3999
កីឡ	-4000
ឈូក	-4001
រត់	-4002
▁ខណ្ឌ	-4003
▁សម្ប	-4004
ជាមួយនឹងការ	-4005
::	-4006
....	-4007
▁Cal	-4008
▁Mark	-4009
▁តួអក្សរ	-4010
មតិ	-4011
▁Off	-4012
ចេញពី	-4013
▁HTML	-4014
ំអិត	-4015
សណ្ឋាគារ	-4016
▁(%	-4017
▁សិល	-4018
ការព្យ	-4019
▁ណាមួយ	-4020
ម្ដ	-4021
អាត	-4022
▁សូ	-4023
menu	-4024
utton	-4025
ជប៉ុន	-4026
រូម	-4027
ជាផ្លូវការ	-4028
.20	-4029
ember	-4030
ថ្លែង	-4031
ley	-4032
ជ័រ	-4033
▁ដក	-4034
-2018	-4035
ប្បបរមា	-4036
▁សហរដ្ឋអាមេរិក	-4037
▁មែន	-4038
យ៉ាងខ្លាំង	-4039
ote	-4040
zhou	-4041
ាមទារ	-4042
▁ភ្លៀង	-4043
ឌិត	-4044
▁ភី	-4045
ideo	-4046
ប្រជ	-4047
សហគមន៍	-4048
▁ចិត្ត	-4049
rop	-4050
វជន	-4051
▁File	-4052
ដែកថែប	-4053
ានុ	-4054
▁តិច	-4055
OB	-4056
ift	-4057
គណៈ	-4058
ង់ស៊ី	-4059
ហេតុផល	-4060
គ្គុទ្ទ	-4061
▁ដែលអាច	-4062
rain	-4063
ុំនៃ	-4064
▁Inc	-4065
▁PCB	-4066
▁FS	-4067
▁រល	-4068
onth	-4069
▁បម្លែង	-4070
irst	-4071
▁ចាប់ពី	-4072
ទុយ	-4073
▁កុមារ	-4074
តាមបំណង	-4075
▁ចន្លោះ	-4076
61	-4077
▁Bu	-4078
▁ខ្ស	-4079
atter	-4080
និងអ្នក	-4081
ប្រសិនបើ	-4082
▁ត្រូវការ	-4083
enericName	-4084
ចិត	-4085
មើលឃើញ	-4086
សាធារណៈ	-4087
វិញ្ញាបន	-4088
▁ខ្ញុំបាន	-4089
▁65	-4090
្រីប	-4091
្វែង	-4092
ចំណោម	-4093
▁ទាន់	-4094
ោណ	-4095
ំទ	-4096
ភាស	-4097
▁Gu	-4098
ប្រសិទ្ធិភាព	-4099
សង្	-4100
ស្ង	-4101
ivers	-4102
ផ្ទាត់	-4103
yn	-4104
ទៃ	-4105
ូជ	-4106
▁at	-4107
ុយក្រ	-4108
▁ផ្ទាល់ខ្លួន	-4109
រវាង	-4110
▁ទ្វ	-4111
▁micro	-4112
រដ្ឋាភិបាល	-4113
▁វិទ្យាស្ថាន	-4114
ៃតម្រូវ	-4115
▁ពង្រីក	-4116
ស្នាក់នៅរូម	-4117
័ណ្ឌ	-4118
ាស៊ីណ	-4119
ស្លាប់	-4120
▁inlist	-4121
▁រូបតំណាង	-4122
72	-4123
្រ័យ	-4124
▁ឆ្ល	-4125
ំទូលាយ	-4126
▁ប្តូរ	-4127
ុយក្រែន	-4128
▁សណ្ឋាគារ	-4129
ំលៀកបំពាក់	-4130
erb	-4131
urop	-4132
▁កាលពី	-4133
ជាម្ចាស់	-4134
គេស	-4135
មកវិញ	-4136
ហ្វូន	-4137
▁Development	-4138
▁អគារស្នាក់នៅរូម	-4139
កិន	-4140
▁11:	-4141
បង្វិល	-4142
ិក្ខារ	-4143
បត្ថម្ភ	-4144
▁inlistbox	-4145
ម្តែង	-4146
ការពិត	-4147
ជញ្ជាំង	-4148
▁អ៊ីញ	-4149
▁World	-4150
▁មតិយោបល់លើ	-4151
TA	-4152
ha	-4153
fran	-4154
armon	-4155
វគ្គ	-4156
▁Dav	-4157
▁អំព	-4158
▁ចម្រ	-4159
trl	-4160
▁1)	-4161
ខ្លះ	-4162
▁ណ្តា	-4163
ចែកចាយ	-4164
ធម្មជាតិ	-4165
ានីត	-4166
▁កែប្រែ	-4167
▁គន្លឹះ	-4168
ece	-4169
យ៉ា	-4170
ជម្រ	-4171
▁មាស	-4172
ត្រង់	-4173
41	-4174
aff	-4175
▁38	-4176
/2019	-4177
ontact	-4178
ចម្រៀង	-4179
លំដាប់	-4180
ប៊ុម	-4181
ភ្នំ	-4182
▁ធុង	-4183
▁១២	-4184
▁600	-4185
▁per	-4186
ាបទឹក	-4187
CC	-4188
▁AS	-4189
បក្ស	-4190
▁(1)	-4191
▁អាគុយ	-4192
ane	-4193
urn	-4194
តារាង	-4195
មិនមាន	-4196
▁លំដាប់	-4197
ចេញផ្សាយ	-4198
▁Ge	-4199
និយម	-4200
▁កញ្ចក់	-4201
▁Twitter	-4202
សីតុណ្ហភាព	-4203
ve	-4204
▁ed	-4205
▁Comp	-4206
▁ខ្លាំង	-4207
បាយ	-4208
▁What	-4209
បង្ហូរ	-4210
ពេលដែល	-4211
ept	-4212
បួន	-4213
៨៥៥	-4214
កំណែ	-4215
បំបែក	-4216
េចចិត្ត	-4217
ៀងផ្ទាត់	-4218
ទឹកប្រាក់	-4219
▁គីឡូក្រាម	-4220
▁រោងចក្រផលិត	-4221
MT	-4222
ages	-4223
អាគុយ	-4224
▁បុរស	-4225
▁លាក់	-4226
▁Chamk	-4227
▁inmenu	-4228
▁និយមន័យ	-4229
ចលនទ្រព្យ	-4230
ពីប្រទេសចិន	-4231
4,	-4232
enn	-4233
គេង	-4234
ចំហ	-4235
▁ឥត	-4236
▁USB	-4237
ទូរទស្សន៍	-4238
នឹងត្រូវបាន	-4239
EC	-4240
/17	-4241
ទន់	-4242
▁រម	-4243
board	-4244
▁បណ្ដ	-4245
▁សមាស	-4246
នូវការ	-4247
▁Geeks	-4248
ានី	-4249
្កាយ	-4250
▁រាប់	-4251
កាតូលិក	-4252
▁El	-4253
ufact	-4254
មកកាន់	-4255
▁ការពារ	-4256
▁បោះបង់	-4257
ាប័ន	-4258
្ឋាន	-4259
ពិពណ៌នា	-4260
▁em	-4261
▁រាង	-4262
▁forecast	-4263
▁ដែកអ៊ីណុក	-4264
8"	-4265
ជាត	-4266
តីត	-4267
ប្រណ	-4268
▁ចាស់	-4269
▁ម៉ាក	-4270
ING	-4271
ស្ព	-4272
▁Gr	-4273
▁ខុស	-4274
inter	-4275
log	-4276
យេស	-4277
▁37	-4278
▁0.1	-4279
▁can	-4280
uxury	-4281
▁បំពេញ	-4282
national	-4283
អី	-4284
bol	-4285
ពិធី	-4286
▁Fri	-4287
ភាគហ៊ុន	-4288
▁ឈ្មោះអ្នក	-4289
ត្ថប្រយោជន៍	-4290
▁ដំណោះស្រាយ	-4291
3,	-4292
▁Sol	-4293
▁សុខ	-4294
ុកស៊ី	-4295
▁ជំងឺ	-4296
▁រវាង	-4297
កំសាន្ត	-4298
4"	-4299
ife	-4300
ron	-4301
សកល	-4302
្រាយ	-4303
▁Top	-4304
ពលភាព	-4305
ersion	-4306
let	-4307
▁Vir	-4308
▁មេកាបៃ	-4309
គ្របដណ្តប់	-4310
ove	-4311
▁MP	-4312
shop	-4313
គីមី	-4314
ារ៉ាប់រង	-4315
ទស្សនកិច្ច	-4316
81	-4317
អាល់	-4318
ឧសភា	-4319
កាន់តែ	-4320
▁Bonus	-4321
▁សមាជិក	-4322
▁Chamkarmon	-4323
its	-4324
ize	-4325
yst	-4326
ឃ្ល	-4327
▁Web	-4328
ទម្រង់	-4329
នាំចេញ	-4330
▁រក្សាសិទ្ធ	-4331
សហរដ្ឋអាមេរិក	-4332
េធ	-4333
ខាន	-4334
ធាត	-4335
បាញ់	-4336
night	-4337
oller	-4338
ចាំបាច់	-4339
ari	-4340
▁EN	-4341
artic	-4342
ធ្វើឡើង	-4343
មម	-4344
សូ	-4345
:30	-4346
ធន់	-4347
ផេះ	-4348
▁១៥	-4349
▁មុខងារ	-4350
▁2008	-4351
▁ត្រួតពិនិត្យ	-4352
SS	-4353
con	-4354
ាយករ	-4355
ាហ្គ	-4356
▁800	-4357
ទ្វារ	-4358
មកដល់	-4359
▁ពាក់	-4360
ឧស្ម័ន	-4361
▁ល្អបំផុត	-4362
mAh	-4363
លុយ	-4364
ited	-4365
▁ថ្នាំកូត	-4366
វដ	-4367
uct	-4368
▁សោ	-4369
ayer	-4370
េគុល	-4371
▁នា	-4372
ufactur	-4373
លើបណ្តាញ	-4374
▁ឯកឧត្តម	-4375
ការប្រកួត	-4376
▁39	-4377
▁ឈុត	-4378
▁វេល	-4379
ations	-4380
មានភាព	-4381
ូលេគុល	-4382
▁Phone	-4383
eld	-4384
loy	-4385
nob	-4386
▁sub	-4387
▁យល់	-4388
ឥណទាន	-4389
4:	-4390
រាវ	-4391
ំបក	-4392
▁SK	-4393
ិសេធ	-4394
▁1.5	-4395
▁CAP	-4396
▁កោះ	-4397
▁សិក	-4398
ារកិច្ច	-4399
▁អ្នកប្រើ	-4400
ឈាន	-4401
ring	-4402
ទ្ធិ	-4403
▁ជាក់លាក់	-4404
ស្កូ	-4405
ល្បែង	-4406
▁ទាំងនេះ	-4407
▁ជូនដំណឹង	-4408
47	-4409
reen	-4410
▁បានទេ	-4411
រោងចក្រផលិត	-4412
5"&	-4413
="7	-4414
aun	-4415
ម្សិល	-4416
រុស្ស៊ី	-4417
លោកអ្នក	-4418
យើងខ្ញុំ	-4419
-12	-4420
app	-4421
តភ្ជាប់	-4422
▁ព្យាយាម	-4423
រិយ	-4424
▁wh	-4425
្ងាយ	-4426
▁Ger	-4427
▁ប្រាស់	-4428
',	-4429
▁Or	-4430
ន្លង	-4431
▁Res	-4432
5)	-4433
កាបូប	-4434
រស្មី	-4435
▁ស៊ុម	-4436
orrent	-4437
ដោយប្រើ	-4438
▁ជាច្រើន	-4439
▁ស្គ្រីប	-4440
សម្រាប់អ្នក	-4441
រួច	-4442
ោហៈ	-4443
កសាង	-4444
▁Key	-4445
ទុកចិត្ត	-4446
ាសម្រាប់	-4447
▁ផង	-4448
▁១៩	-4449
▁new	-4450
ាធិការ	-4451
ហិរញ្ញវត្ថុ	-4452
▁រាជធានីភ្នំពេញ	-4453
EA	-4454
uck	-4455
ម៉ា	-4456
osit	-4457
កីឡា	-4458
▁GPS	-4459
▁សូមស្វាគមន៍	-4460
▁ដុល្លារអាមេរិក	-4461
ៀបធ	-4462
ង្វាក់	-4463
ប្រឌិត	-4464
▁ទីផ្សារ	-4465
cat	-4466
▁And	-4467
លើការ	-4468
មិនអាច	-4469
▁Holmes	-4470
oul	-4471
urs	-4472
សេវ	-4473
ហាង	-4474
ំពឹង	-4475
ading	-4476
ល្វែង	-4477
▁hack	-4478
សិកម្ម	-4479
▁(2	-4480
▁Im	-4481
eter	-4482
▁David	-4483
▁ងាយស្រួល	-4484
ដៀង	-4485
លីដា	-4486
▁កំណ	-4487
▁ម៉ា	-4488
ម្អាត	-4489
▁ស្ដាំ	-4490
▁អេស៊ី	-4491
អ៊ីម៉ែល	-4492
ied	-4493
▁រឹង	-4494
▁Real	-4495
ំឡុងពេល	-4496
▁សូមអរគុណ	-4497
EX	-4498
▁Mag	-4499
▁សួរ	-4500
.2018	-4501
▁លេច	-4502
/18	-4503
▁KM	-4504
ស្រស់ស្អាត	-4505
នៅជិត	-4506
▁ព្រម	-4507
▁ធ្លាក់	-4508
ដាក់ស្លាក	-4509
oy	-4510
eta	-4511
បើយ	-4512
▁លម្អិត	-4513
-9	-4514
63	-4515
fa	-4516
េយ	-4517
bal	-4518
orm	-4519
▁២៣	-4520
បានជា	-4521
ក្លាយជា	-4522
▁សម្ពាធ	-4523
oz	-4524
ធាង	-4525
លិច	-4526
less	-4527
ដៃគូ	-4528
ុម័ត	-4529
▁បង់	-4530
BC	-4531
pd	-4532
ret	-4533
▁5000	-4534
▁post	-4535
▁បញ្ជូន	-4536
App	-4537
TPS	-4538
ara	-4539
្ប៉	-4540
▁im	-4541
▁ទន់	-4542
ធ្ម	-4543
ានែល	-4544
▁LTD	-4545
▁ឯកជន	-4546
▁បំបែក	-4547
ស្តង់ដារ	-4548
▁ភាពយន្ត	-4549
6"&	-4550
ើសុំ	-4551
័ន្ទ	-4552
▁ប្រយ	-4553
▁នៅទីនេះ	-4554
▁ប្រឆាំង	-4555
MA	-4556
▁បំណ	-4557
▁Group	-4558
▁Server	-4559
ook	-4560
://2	-4561
ព្រៀង	-4562
បារាំង	-4563
សម្ពាធ	-4564
▁button	-4565
▁ចម្ងាយ	-4566
ym	-4567
▁កង់	-4568
USD	-4569
នាគ	-4570
ates	-4571
វីឌី	-4572
ublic	-4573
ស្តង់	-4574
ៀងទាត់	-4575
▁ដោយសារ	-4576
បុគ្គលិក	-4577
របស់ព្រះ	-4578
.01	-4579
ico	-4580
េរោគ	-4581
▁key	-4582
ង្កេត	-4583
ជាងមុន	-4584
▁ពិភពលោក	-4585
ធម្មនុញ្ញ	-4586
▁អេស៊ីលីដា	-4587
way	-4588
▁en	-4589
ments	-4590
right	-4591
▁អាស៊ី	-4592
ន្តិសុខ	-4593
▁របស់យើង	-4594
PG	-4595
.50	-4596
វិប	-4597
ផ្លែ	-4598
ូរ៉េ	-4599
▁199	-4600
▁Jul	-4601
content	-4602
Tube	-4603
▁Ton	-4604
▁ដុំ	-4605
ម្រុង	-4606
ប្រជែង	-4607
▁កម្ពស់	-4608
▁ប្រាកដ	-4609
ដោះស្រាយ	-4610
ធ័រ	-4611
outh	-4612
▁ចល័ត	-4613
▁HTTPS	-4614
ប៉ុន្តែ	-4615
▁ទម្ងន់	-4616
▁យើងបាន	-4617
ចូលទៅក្នុង	-4618
▁រូបថតសម្រាប់	-4619
យាន	-4620
រាណ	-4621
រាប	-4622
agram	-4623
ពក	-4624
orknob	-4625
ចាប់ពី	-4626
▁Union	-4627
ពិតប្រាកដ	-4628
43	-4629
5%	-4630
DC	-4631
ារក	-4632
ania	-4633
ថាជា	-4634
▁Nov	-4635
▁iPad	-4636
▁ការស	-4637
▁ណាស់	-4638
ពានរង្វាន់	-4639
LC	-4640
ould	-4641
ុល្យ	-4642
▁សាក	-4643
ប្រភព	-4644
សុក្រ	-4645
▁ថ្មីៗ	-4646
▁មធ្យម	-4647
▁Doorknob	-4648
▁ផ្សព្វផ្សាយ	-4649
ask	-4650
▁ទេស	-4651
បញ្ញើ	-4652
បន្ទូល	-4653
ប្រមាណ	-4654
▁ចែករំលែក	-4655
US	-4656
លុប	-4657
▁Av	-4658
▁Dec	-4659
ន្និប	-4660
ព្រឹក	-4661
ភ្ញៀវ	-4662
ីកសែល	-4663
▁Siem	-4664
▁អំណាច	-4665
្ហ	-4666
ica	-4667
▁6,	-4668
▁125	-4669
ating	-4670
▁តំលៃ	-4671
ន្និបាត	-4672
នៅកម្ពុជា	-4673
Description	-4674
go	-4675
ាវា	-4676
▁Dep	-4677
ធ្ងន់	-4678
▁Table	-4679
▁Oxford	-4680
ប្រចាំឆ្នាំ	-4681
oss	-4682
rid	-4683
ដើរ	-4684
▁8,	-4685
▁ម្ដង	-4686
▁២០១៩	-4687
មុខងារ	-4688
ទាន់សម័យ	-4689
-11	-4690
/12	-4691
anc	-4692
និច	-4693
▁Pe	-4694
otor	-4695
្អូន	-4696
ឡង	-4697
-19	-4698
.30	-4699
▁he	-4700
over	-4701
ម្លើយ	-4702
អំណាច	-4703
ufacturer	-4704
oe	-4705
មិនបាន	-4706
▁Whats	-4707
▁status	-4708
▁គ្រប់យ៉ាង	-4709
▁ឈ្មួញកណ្តាល	-4710
្មា	-4711
▁CC	-4712
post	-4713
ញ្ញាប	-4714
▁Ctrl	-4715
▁ក្រដាស	-4716
▁ពេលវេល	-4717
ការិយាល័យ	-4718
ផែ	-4719
្ករ	-4720
▁64	-4721
▁Chr	-4722
▁អត្រា	-4723
ពិព័រណ៍	-4724
ឱ្យអ្នក	-4725
▁វិញ្ញាបនប័ត្រ	-4726
▁10:	-4727
▁Thu	-4728
▁ស្ត្រី	-4729
▁McK	-4730
្ប៉ាញ	-4731
▁Char	-4732
កើតឡើង	-4733
▁Black	-4734
ព្រមព្រៀង	-4735
▁នៅថ្ងៃទី	-4736
ចំណាត់ថ្នាក់	-4737
itt	-4738
bout	-4739
ទៅមុខ	-4740
▁district	-4741
ateg	-4742
▁Cam	-4743
ៀតណាម	-4744
អេឡិចត្រូនិច	-4745
▁ស្វ័យប្រវត្តិ	-4746
-30	-4747
▁HP	-4748
▁Jet	-4749
▁ការជំនួស	-4750
▁ការពិពណ៌នា	-4751
អំព	-4752
=5.0	-4753
azon	-4754
▁from	-4755
ute	-4756
ទាន់	-4757
▁0.5	-4758
▁កីឡ	-4759
ផ្ទាំង	-4760
ឆ្លើយតប	-4761
▁cryptocurrency	-4762
▁3:	-4763
wing	-4764
រាប់	-4765
▁Ang	-4766
សិល្បៈ	-4767
▁ហ្វេសប៊ុក	-4768
ចាប់អារម្មណ៍	-4769
IA	-4770
ape	-4771
រាជា	-4772
ដោយមាន	-4773
ទ្ធិពល	-4774
▁ផ្សារ	-4775
arb	-4776
oid	-4777
ាតើ	-4778
acks	-4779
្យូម	-4780
ម្មិត	-4781
kw	-4782
pm	-4783
.90	-4784
ខែក	-4785
ព្ទ	-4786
▁am	-4787
ouse	-4788
▁10%	-4789
▁កាំ	-4790
អ្នកនឹង	-4791
▁ឃ្លាំង	-4792
▁ប្រធានបទ	-4793
ប្រសិទ្ធភាព	-4794
GH	-4795
ជំនឿកាតូលិក	-4796
ខ្លី	-4797
ាហ្ស	-4798
▁ជិត	-4799
អាស៊ីត	-4800
▁ក្បាល	-4801
ចិញ្ចឹម	-4802
▁សង្ខេប	-4803
▁ទូរស័ព្ទដៃ	-4804
តាមរយៈហេតុផល	-4805
▁±	-4806
ati	-4807
ឥណ្ឌា	-4808
▁ជាមុន	-4809
▁ម្នាក់	-4810
▁នៅពេលដែល	-4811
▁អគ្គិសនី	-4812
ជីព	-4813
សុខ	-4814
▁សមាគម	-4815
ដោយផ្ទាល់	-4816
▁7,	-4817
itch	-4818
▁Win	-4819
ង្កៀង	-4820
▁Matt	-4821
▁Port	-4822
▁បន្ល	-4823
▁Crypt	-4824
▁Copyshop	-4825
ការព្យាបាល	-4826
-04	-4827
lor	-4828
ិនៃ	-4829
ប៊ិច	-4830
ព្រឹ	-4831
▁des	-4832
▁int	-4833
▁ជុំ	-4834
▁ម៉ែ	-4835
ត្រឹម	-4836
តុបតែង	-4837
▁បង្ហោះ	-4838
▁we	-4839
news	-4840
ណាចក្រ	-4841
▁សិក្ខ	-4842
ាយករដ្ឋ	-4843
▁កម្រាស់	-4844
▁McKnight	-4845
▁CU	-4846
▁DJ	-4847
ំហូរ	-4848
▁MOQ	-4849
irect	-4850
ាមាត្រ	-4851
ពីម្សិល	-4852
ភាគច្រើន	-4853
សម្ព័ន្ធ	-4854
cess	-4855
ទ្រាំ	-4856
តាមដាន	-4857
ខ្នាតតូច	-4858
ធ្លាក់ចុះ	-4859
uls	-4860
ៀបរ	-4861
▁TC	-4862
Plus	-4863
▁cap	-4864
▁che	-4865
ថ្មីៗ	-4866
ប្រតិ	-4867
▁ការប្រកួត	-4868
der	-4869
oth	-4870
សូល	-4871
ures	-4872
ត្នោត	-4873
ំបាត់	-4874
ច្រើនទៀត	-4875
អ៊ីនធឺណិត	-4876
400	-4877
ole	-4878
▁១៦	-4879
សមាស	-4880
alyst	-4881
oltip	-4882
សិស្ស	-4883
▁ឆបគ្នា	-4884
▁សហគមន៍	-4885
▁ផ្គូផ្គង	-4886
GenericName	-4887
-08	-4888
rib	-4889
យប់	-4890
បណ្ដាញ	-4891
▁នីមួយៗ	-4892
ភពអង់គ្លេស	-4893
យូ	-4894
Cat	-4895
och	-4896
37"&	-4897
ន្យា	-4898
ន្សំ	-4899
▁ស៊ីស្កូ	-4900
ណេ	-4901
េទិក	-4902
▁Mini	-4903
▁prov	-4904
ingdao	-4905
បញ្ជាទិញ	-4906
SI	-4907
ទិក	-4908
▁sl	-4909
ream	-4910
reat	-4911
នាទី	-4912
▁មកពី	-4913
▁ប្រទាក់	-4914
រាជាណាចក្រ	-4915
42	-4916
ថៃ	-4917
ren	-4918
▁MT	-4919
▁កៅ	-4920
ាមិន	-4921
ពិតជា	-4922
▁will	-4923
សន្លឹក	-4924
▁អង់គ្លេស	-4925
អាល្លឺម៉ង់	-4926
បញ្ចុះតម្លៃ	-4927
ភោគ	-4928
▁Hy	-4929
untry	-4930
ប្បាស	-4931
ផ្អែក	-4932
ស្ត្រ	-4933
ស្រឡាយ	-4934
▁វេទិកា	-4935
▁Qingdao	-4936
mg	-4937
que	-4938
ឆ្ក	-4939
ឈាម	-4940
ញាប់	-4941
▁ទាប	-4942
ទ្យាន	-4943
▁ផ្កា	-4944
▁ស្រី	-4945
ភាគខាង	-4946
--	-4947
តើ	-4948
វាល	-4949
▁១១	-4950
ones	-4951
▁EUR	-4952
▁គ្រោង	-4953
▁ម្ចាស់	-4954
▁សុខភាព	-4955
▁sc	-4956
▁up	-4957
ange	-4958
rint	-4959
ៀបធៀប	-4960
ាមេរិច	-4961
▁បកប្រែ	-4962
ms	-4963
ដោះ	-4964
▁រំ	-4965
fiber	-4966
▁ស្នើ	-4967
▁កណ្ដាល	-4968
▁ចុះឈ្មោះ	-4969
បំ	-4970
.80	-4971
get	-4972
uri	-4973
▁5:	-4974
▁op	-4975
▁បដ	-4976
▁ប៉ះ	-4977
ប្រាណ	-4978
ចូលចិត្ត	-4979
បៃតង	-4980
▁Java	-4981
46	-4982
HS	-4983
ាវ៉	-4984
ឆាប់	-4985
▁reg	-4986
គ្រាស	-4987
សម្រាក	-4988
▁តើអ្វី	-4989
និងការគាំទ្រ	-4990
/11	-4991
ត្ស	-4992
អ៊ែរ	-4993
▁type	-4994
កម្ពស់	-4995
▁ជួសជុល	-4996
▁ជ្រើសរើស	-4997
▁ភ្នំពេញប៉ុស្តិ៍	-4998
feed	-4999
ំរាម	-5000
ដឹងថា	-5001
ម្ដែង	-5002
មួយដែល	-5003
▁Posted	-5004
cambodia	-5005
▁Instagram	-5006
ler	-5007
▁6.	-5008
▁លាយ	-5009
uction	-5010
ធានារ៉ាប់រង	-5011
lin	-5012
▁DC	-5013
▁It	-5014
ស្មើ	-5015
ំបាក	-5016
▁(2)	-5017
▁All	-5018
កាសែត	-5019
ក្រូច	-5020
ផ្អាក	-5021
▁China	-5022
▁first	-5023
ម្តងទៀត	-5024
▁អង្កត់ផ្ចិត	-5025
និងផ្គត់ផ្គង់	-5026
OL	-5027
ster	-5028
▁ចាំ	-5029
▁វេលា	-5030
វេទិកា	-5031
▁Color	-5032
ទូលំទូលាយ	-5033
កំពុងទស្សនា	-5034
TV	-5035
▁UP	-5036
arok	-5037
នភាព	-5038
ព្រៃ	-5039
▁គណៈ	-5040
▁Amazon	-5041
រក្សាទុក	-5042
▁ការវេចខ្ចប់	-5043
ano	-5044
iet	-5045
▁FX	-5046
NAME	-5047
រក្សាស	-5048
▁ភ្លើង	-5049
ភ្នាក់ងារ	-5050
វិទ្យាសាស្រ្ត	-5051
uy	-5052
គត់	-5053
▁3.0	-5054
▁cont	-5055
ំពង់ផែ	-5056
▁sonic	-5057
▁ដេ	-5058
work	-5059
earch	-5060
ាណាដា	-5061
ification	-5062
ips	-5063
ប្ដ	-5064
▁km	-5065
ូឡង់	-5066
▁180	-5067
▁son	-5068
▁ពាន់	-5069
▁ស្មើ	-5070
▁នេះជា	-5071
▁ម៉ាស៊ីនថត	-5072
ជំនាញវិជ្ជាជីវៈ	-5073
ឌុច	-5074
ោជន	-5075
ោរព	-5076
ុនេះ	-5077
▁ខ្ទ	-5078
▁គូរ	-5079
▁10000	-5080
▁ប្រសើរ	-5081
OP	-5082
ខៀវ	-5083
ារព	-5084
▁Des	-5085
ចម្បង	-5086
▁ទារក	-5087
▁window	-5088
aud	-5089
▁Sn	-5090
acking	-5091
▁ឡាស៊ែរ	-5092
▁YouTube	-5093
▁ទាន់សម័យ	-5094
▁អាជីវកម្ម	-5095
លើស	-5096
▁រហូត	-5097
▁២០១៥	-5098
▁ស្រស់	-5099
▁អំពីយើង	-5100
▁ផលិតផលដែលមាន	-5101
gen	-5102
ush	-5103
▁2)	-5104
គ្វី	-5105
ពេលវេល	-5106
▁group	-5107
ថ្នាំកូត	-5108
បើយោងតាម	-5109
▁ម៉ូដែល។	-5110
ថ្មទូរស័ព្ទ	-5111
▁ព្រលានយន្តហោះ	-5112
▁10,	-5113
▁ទិស	-5114
ន្និស	-5115
ាធារណ	-5116
ចម្ងាយ	-5117
ដោយសារ	-5118
ិសុទ្ធ	-5119
ដូចខាងក្រោម	-5120
ឌៀ	-5121
elp	-5122
ំពូក	-5123
▁1.0	-5124
តម្រង	-5125
▁3000	-5126
Catalyst	-5127
▁ជំហានទី	-5128
▁សិក្ខាសាល	-5129
▁អត្តសញ្ញាណ	-5130
▁ជាមួយនឹងការ	-5131
BS	-5132
ថយ	-5133
▁BS	-5134
នាគត	-5135
▁ផ្លែ	-5136
នេះមាន	-5137
▁ស្រោម	-5138
▁នាំចេញ	-5139
▁tooltip	-5140
▁ការធ្វើ	-5141
▁ផ្តល់ជូន	-5142
ថាយ	-5143
▁85	-5144
▁110	-5145
▁Red	-5146
▁all	-5147
▁ដំណាក់កាល	-5148
3.5	-5149
ឱកាស	-5150
lobal	-5151
យុវជន	-5152
estern	-5153
ពង្រីក	-5154
អនុម័ត	-5155
ព្យាយាម	-5156
▁ដែលត្រូវបាន	-5157
▁FileCatalyst	-5158
QL	-5159
igo	-5160
▁II	-5161
="10	-5162
ស្រប	-5163
ខាងលើ	-5164
▁តម្រ	-5165
បន្ទាន់	-5166
អ៊ុយក្រែន	-5167
▁រួមបញ្ចូល	-5168
▁េ	-5169
.40	-5170
អគារ	-5171
គឺមាន	-5172
ប្លុក	-5173
ាំងឌុច	-5174
័រម៉ូន	-5175
ខាងក្រោយ	-5176
OT	-5177
▁IM	-5178
ents	-5179
ំនួរ	-5180
▁Spy	-5181
▁ស្តី	-5182
ស្តីពី	-5183
▁ពួកវា	-5184
គោលបំណង	-5185
ដ៏ល្អឥតខ្ចោះ	-5186
កប	-5187
ស៍	-5188
▁ទិ	-5189
ales	-5190
ារៀន	-5191
▁Max	-5192
ចងចាំ	-5193
▁Bank	-5194
▁រកឃើញ	-5195
▁បរិស្ថាន	-5196
▁ទូរទស្សន៍	-5197
ព្រះគ្រីស្ទ	-5198
▁2.5	-5199
ragon	-5200
▁menu	-5201
france	-5202
▁ប្រភេទផលិតផល	-5203
87	-5204
-15	-5205
▁RF	-5206
▁br	-5207
▁ev	-5208
▁២១	-5209
ylon	-5210
▁more	-5211
ចន្លោះ	-5212
▁ស្វាយ	-5213
▁ដោយប្រើ	-5214
▁អ្នកនឹង	-5215
▁មហាវិទ្យាល័យ	-5216
5"	-5217
▁!	-5218
ាវី	-5219
▁SD	-5220
ហ្ស៊ី	-5221
▁ក្បឿង	-5222
▁ដែលអ្នក	-5223
▁ផ្លូវកាត់	-5224
.60	-5225
800	-5226
Pay	-5227
ទេះ	-5228
ារព្ធ	-5229
ៀគ្វី	-5230
ular	-5231
ដាច់	-5232
HA	-5233
:23	-5234
ats	-5235
ini	-5236
ឈីប	-5237
▁ខ្ញ	-5238
Script	-5239
▁សិស្ស	-5240
នៅក្នុងប្រទេស	-5241
ស៊ាង	-5242
▁CUPS	-5243
និងមាន	-5244
បរិស្ថាន	-5245
បង្ហូរទឹក	-5246
សាសនាចក្រ	-5247
កក់	-5248
▁me	-5249
▁គី	-5250
ចាត់	-5251
▁Sun	-5252
▁ទ្រី	-5253
▁គ្រាន់	-5254
▁ថ្មទូរស័ព្ទ	-5255
82	-5256
វ៉ា	-5257
angu	-5258
▁'',	-5259
▁Sil	-5260
▁ទទេ	-5261
bs	-5262
par	-5263
យឺត	-5264
▁ភាស	-5265
▁សួន	-5266
អញ្ជើញ	-5267
%3	-5268
mun	-5269
នរណ	-5270
Khmer	-5271
ចំណូល	-5272
ាតហ្វូន	-5273
▁វិមាត្រ	-5274
-07	-5275
bar	-5276
▁ar	-5277
ក្រូ	-5278
▁Reg	-5279
▁Tablet	-5280
WS	-5281
យោគ	-5282
▁CP	-5283
▁bo	-5284
olic	-5285
ចំណេញ	-5286
ល្អិត	-5287
ក្រដាស	-5288
GO	-5289
ott	-5290
avel	-5291
▁ជួប	-5292
▁ឈ្នះ	-5293
▁translate	-5294
Fi	-5295
/10	-5296
alt	-5297
គូរ	-5298
ជាន	-5299
▁CF	-5300
ំលេង	-5301
jiang	-5302
វ៉ាន់	-5303
ស៊ាងហៃ	-5304
▁អរគុណ	-5305
ានៅក្នុង	-5306
KH	-5307
ka	-5308
na	-5309
ola	-5310
▁Wi	-5311
alth	-5312
▁Best	-5313
▁មីលី	-5314
transposh	-5315
▁Manufacturer	-5316
ke	-5317
The	-5318
mar	-5319
▁hy	-5320
▁Int	-5321
អាសន្ន	-5322
▁យុទ្ធ	-5323
▁ឥណទាន	-5324
គាត់បាន	-5325
គ្គុទ្ទេស	-5326
ភ្នំពេញប៉ុស្តិ៍	-5327
9)	-5328
េជ	-5329
hite	-5330
ំនិង	-5331
គួរតែ	-5332
iversity	-5333
▁ការផ្តល់	-5334
▁ការដឹកជញ្ជូន	-5335
▁190	-5336
▁Ant	-5337
▁Reap	-5338
ក្រានីត	-5339
▁កើតឡើង	-5340
1)	-5341
cel	-5342
ករ៉	-5343
▁11,	-5344
scher	-5345
គោលដៅ	-5346
ជំរុញ	-5347
▁1500	-5348
▁Skype	-5349
▁ម្ជុល	-5350
ភាសាខ្មែរ	-5351
គ្រប់យ៉ាង។	-5352
▁សកល	-5353
ទិដ្ឋ	-5354
ស្តាប់	-5355
អ៊ីតាលី	-5356
ីយដ្ឋាន	-5357
ល្បឿនលឿន	-5358
ុក្ខជាតិ	-5359
▁Western	-5360
ការផ្លាស់ប្តូរ	-5361
.70	-5362
err	-5363
iff	-5364
raw	-5365
ពុក	-5366
្សំ	-5367
/06	-5368
▁១៨	-5369
36"&	-5370
▁2.0	-5371
ង្ហារ	-5372
▁វិទ្យា	-5373
▁គ្រាន់តែ	-5374
ទទួលបានការ	-5375
au	-5376
ble	-5377
▁Su	-5378
▁se	-5379
aint	-5380
បាន។	-5381
gmail	-5382
េញថ្លៃ	-5383
▁ម៉ាស៊ីនភ្លើង	-5384
ិម	-5385
ech	-5386
មួយ។	-5387
សាក់	-5388
ហស្ប	-5389
▁20,	-5390
▁FSX	-5391
ystem	-5392
ឆ្លាត	-5393
ដុំនៃ	-5394
ឧទាហរណ៍	-5395
ពាក់កណ្តាល	-5396
alk	-5397
កោះ	-5398
▁[1	-5399
▁sq	-5400
71"&	-5401
ូឡែត	-5402
▁Roy	-5403
ប្អូន	-5404
ាក្រក់	-5405
▁មាត្រ	-5406
ផ្កាឈូក	-5407
▁សម្រួល	-5408
ហត្ថលេខា	-5409
▁ដោះស្រាយ	-5410
ច្នៃប្រឌិត	-5411
ពើ	-5412
កំប	-5413
▁pe	-5414
ោសិកា	-5415
attery	-5416
▁ភាគហ៊ុន	-5417
ោជនីយដ្ឋាន	-5418
67"&	-5419
▁18,	-5420
▁res	-5421
▁month	-5422
▁អំពូល	-5423
បន្ទាប់ពីការលក់	-5424
KV	-5425
ចី	-5426
key	-5427
េកង់	-5428
▁ថ្ងៃមុន	-5429
▁អ្វីដែល	-5430
ោច	-5431
ំនៃ	-5432
▁គូ	-5433
▁២៥	-5434
▁Tren	-5435
▁star	-5436
រាងកាយ	-5437
▁តម្រូវ	-5438
▁បញ្ឈប់	-5439
It	-5440
▁≤	-5441
ros	-5442
▁ដឹកនាំ	-5443
ផ្តល់នូវ	-5444
▁បណ្ណាល័យ	-5445
▁ភារកិច្ច	-5446
ថ្លែងការណ៍	-5447
HC	-5448
ner	-5449
▁1/	-5450
▁KH	-5451
orth	-5452
▁12,	-5453
▁Aug	-5454
▁off	-5455
▁មានការ	-5456
▁លិខិតអាមេរិក	-5457
Sp	-5458
pf	-5459
-05	-5460
ohn	-5461
ដូង	-5462
▁PH	-5463
atin	-5464
ជួសជុល	-5465
និស្សិត	-5466
ជ្រាបទឹក	-5467
របស់អ្នក។	-5468
▁ខាងក្រោយ	-5469
ye	-5470
រីក	-5471
ម្ពីរ	-5472
icator	-5473
▁world	-5474
ផ្សេងគ្នា	-5475
ខ្លាំងណាស់	-5476
mq	-5477
ដទៃ	-5478
សុំ	-5479
ឱសថ	-5480
័ក្ស	-5481
្មុំ	-5482
▁ជញ្	-5483
▁ជំរ	-5484
▁សង្	-5485
▁តន្ត្រី	-5486
TE	-5487
តោន	-5488
ហូប	-5489
ឯករ	-5490
▁(4	-5491
▁9,	-5492
="12	-5493
▁Rev	-5494
lease	-5495
▁Light	-5496
▁state	-5497
ielscher	-5498
MC	-5499
yc	-5500
cut	-5501
ះអាង	-5502
▁Net	-5503
ជំហាន	-5504
▁Chrome	-5505
▁បរិមាណ	-5506
អធិប្បាយ	-5507
បន្ទាប់មក	-5508
▁អារម្មណ៍	-5509
led	-5510
ors	-5511
តួច	-5512
ប្ដាហ៍	-5513
ប្រតិប	-5514
សូចនាករ	-5515
PN	-5516
Pal	-5517
▁SH	-5518
▁បាទ	-5519
▁រាយ	-5520
កៅស៊ូ	-5521
▁សាច់	-5522
▁មិនបាន	-5523
ំនៅដ្ឋាន	-5524
▁បុគ្គលិក	-5525
វិទ្យាស្ថាន	-5526
▁Sl	-5527
ield	-5528
កាប់	-5529
▁17,	-5530
សុទ្ធ	-5531
ស្រាល	-5532
▁ដឺក្រ	-5533
▁មូលនិធិ	-5534
IM	-5535
/02	-5536
ថាស	-5537
ូហ្គ	-5538
olumn	-5539
ហ្វ្រ	-5540
▁comp	-5541
▁100,0	-5542
▁ឆានែល	-5543
រហូតដល់ទៅ	-5544
▁អាល់ប៊ុម	-5545
អត់	-5546
▁49	-5547
▁28,	-5548
ស្រុង	-5549
រួមមាន	-5550
ង់ស៊ីតេ	-5551
សង្វាក់	-5552
▁ប្រកួត	-5553
នៅថ្ងៃទី	-5554
ervice	-5555
ពលរដ្ឋ	-5556
ឱ្យមាន	-5557
បទពិសោធ	-5558
ឆ្លងកាត់	-5559
▁Deposit	-5560
▁ពិធីការ	-5561
300	-5562
▁SA	-5563
▁ដប	-5564
ភារៈ	-5565
ស្រា	-5566
▁Cup	-5567
ផ្សិត	-5568
សំណុំ	-5569
អំណោយ	-5570
▁Mich	-5571
ប្រាប់	-5572
▁ជម្រះ	-5573
ប់គ្រាន់	-5574
54	-5575
បារ	-5576
▁Az	-5577
រៀបច	-5578
▁ខែមុន	-5579
នៅទីក្រុង	-5580
▁ក្នុងនាម	-5581
បន្តផ្ទាល់	-5582
ព្រះអាទិត្យ	-5583
CL	-5584
ក៍	-5585
▁”	-5586
-18	-5587
បាទ	-5588
icon	-5589
many	-5590
▁ទឹកក	-5591
ជនជាតិ	-5592
េតុនេះ	-5593
▁ប្រមូល	-5594
ll	-5595
គង	-5596
ដោត	-5597
មាំ	-5598
▁8:	-5599
▁៩៩	-5600
សៅរ៍	-5601
▁Mod	-5602
▁ឯកតា	-5603
essage	-5604
▁ផ្សិត	-5605
ស្នើសុំ	-5606
▁Center	-5607
▁Hielscher	-5608
ify	-5609
ities	-5610
កាបូន	-5611
កំហុស	-5612
▁Asia	-5613
▁inter	-5614
▁ខ្យល់	-5615
ាត់ប្រាណ	-5616
បច្ចេកវិទ្យ	-5617
▁←	-5618
▁បំណង	-5619
▁២០១៦	-5620
▁khmer	-5621
▁គោលដៅ	-5622
ទឹកចិត្ត	-5623
▁បានបង្កើត	-5624
ចំរ	-5625
អេក	-5626
▁ឈើ	-5627
សាងសង់	-5628
▁ស្រួល	-5629
▁Amarok	-5630
▁ស្ថាបន	-5631
ពិភាក្សា	-5632
iam	-5633
ital	-5634
▁Jan	-5635
ister	-5636
ត៍មាន	-5637
ត្រាស	-5638
បែបបទ	-5639
មុខគេ	-5640
anizer	-5641
▁នៃការ	-5642
▁ដែកថែប	-5643
▁ការផ្សព្វផ្សាយ	-5644
58	-5645
NT	-5646
aij	-5647
byg	-5648
▁GSM	-5649
សមរម្យ	-5650
▁សំនួរ	-5651
▁ទស្សនៈ	-5652
អនុសាសន៍	-5653
▁ការពិនិត្យ	-5654
añ	-5655
៉ាង	-5656
ដំបង	-5657
្រគង	-5658
▁ងាយ	-5659
ង្វង់	-5660
មេរោគ	-5661
▁Cast	-5662
▁ធានា	-5663
article	-5664
▁យើងមានឯកទេស	-5665
▁គ្រឿងបន្លាស់	-5666
បង	-5667
ផ្ល	-5668
ឆ្ងាយ	-5669
អំបោះ	-5670
▁Media	-5671
▁ប្រាំ	-5672
▁PayPal	-5673
▁ការត្រួតពិនិត្យ	-5674
52	-5675
62	-5676
បអ	-5677
/09	-5678
ars	-5679
ict	-5680
គេច	-5681
▁dep	-5682
ified	-5683
អិលស៊ី	-5684
ពួកគេបាន	-5685
ព្រះអម្ចាស់	-5686
,,	-5687
93	-5688
Com	-5689
បត់	-5690
▁-&	-5691
▁47	-5692
ីសនី	-5693
▁ពហុ	-5694
ចិត្រ	-5695
▁កន្ស	-5696
▁ភ្នំ	-5697
▁អំពើ	-5698
ប្រវែង	-5699
្រគងបន	-5700
▁រីករាយ	-5701
អ្នកប្រើ	-5702
91	-5703
ឺន	-5704
era	-5705
gin	-5706
ឃឹម	-5707
▁Gl	-5708
ទន្ល	-5709
បង្ក	-5710
សាលា	-5711
▁អោយ	-5712
បើកបរ	-5713
ប្រួល	-5714
▁វ៉ុល	-5715
▁ទ្រនិច	-5716
ដ៍	-5717
▁CH	-5718
▁PE	-5719
ards	-5720
វន្ត	-5721
▁15,	-5722
▁វ៉ាត់	-5723
ទាំងពីរ	-5724
នៅក្រោម	-5725
▁Office	-5726
▁និងការផលិត	-5727
▁អាលុយមីញ៉ូម	-5728
▁ម៉ាស៊ីនបម្រើ	-5729
KW	-5730
="8	-5731
ized	-5732
បញ្ហ	-5733
▁BTC	-5734
ធនធាន	-5735
ផ្តោត	-5736
▁មិត្ត	-5737
▁ពិពណ៌នា	-5738
DP	-5739
IR	-5740
su	-5741
use	-5742
ញឹក	-5743
▁My	-5744
▁Sw	-5745
ីរុស	-5746
▁16,	-5747
arter	-5748
គម្រប	-5749
▁តាំង	-5750
ដោយការ	-5751
បង្រៀន	-5752
បម្លែង	-5753
▁Cambod	-5754
▁ឌីវីឌី	-5755
Cambodia	-5756
▁ដូចគ្នា	-5757
▁គោលនយោបាយ	-5758
▁ob	-5759
38"&	-5760
ared	-5761
ella	-5762
ស្ដាំ	-5763
▁បាញ់	-5764
▁លើសពី	-5765
ស្ត្រាលី	-5766
▁វគ្គសិក្សា	-5767
មហាវិទ្យាល័យ	-5768
▁International	-5769
Ad	-5770
រចន	-5771
▁9:	-5772
ង្រឹង	-5773
ទីនោះ	-5774
▁ត្រឹម	-5775
ដំណាក់កាល	-5776
ប្រសើរឡើង	-5777
ត្រឡប់មកវិញ	-5778
ទៅមុខដើម្បី	-5779
ប្រវត្តិសាស្រ្ត	-5780
so	-5781
:28	-5782
ots	-5783
▁6:	-5784
onia	-5785
ឪពុក	-5786
▁0.2	-5787
នាការ	-5788
▁មហាស	-5789
សាមញ្ញ	-5790
▁Super	-5791
▁រង់ចាំ	-5792
▁គ្រាប់ចុច	-5793
NU	-5794
Qu	-5795
inn	-5796
ral	-5797
▁៣០	-5798
▁+86	-5799
▁Alt	-5800
▁Sec	-5801
ource	-5802
ដំបូល	-5803
សមាគម	-5804
ពាក់ព័ន្ធ	-5805
▁សម្បត្តិ	-5806
ពហុស្រទាប់	-5807
ដ៏ល្អឥតខ្ចោះ។	-5808
បែក	-5809
ពូជ	-5810
▁130	-5811
រស់នៅ	-5812
▁Miss	-5813
▁ប៊ីត	-5814
មុនពេល	-5815
ារ៉ាម៉	-5816
▁Metat	-5817
ឥទ្ធិពល	-5818
▁លោកស្រី	-5819
▁សមាសភាគ	-5820
▁ស្តង់ដារ	-5821
យន្តហោះឯកជន	-5822
វេជ្ជសាស្ត្រ	-5823
cc	-5824
hu	-5825
▁CB	-5826
▁GB	-5827
ក្តិ	-5828
បាត់	-5829
▁mod	-5830
ង្ក្រ	-5831
▁0086	-5832
▁ប្លុក	-5833
័យដ្ឋាន	-5834
▁រូបរាង	-5835
ដោយគ្មាន	-5836
បរិក្ខារ	-5837
▁រថភ្លើង	-5838
▁លេខសម្គាល់	-5839
កត់	-5840
▁PP	-5841
ថែទាំ	-5842
▁ភីកសែល	-5843
▁ត្រជាក់	-5844
▁ស្ថានីយ	-5845
អាជ្ញាប័ណ្ណ	-5846
▁សម្លៀកបំពាក់	-5847
▁មើលទៅមុខដើម្បី	-5848
/01	-5849
ces	-5850
ទោស	-5851
ហោច	-5852
ider	-5853
ាជ្យ	-5854
▁Har	-5855
▁Led	-5856
▁ដើរ	-5857
▁តារ	-5858
▁តែង	-5859
▁យោង	-5860
unter	-5861
ត្រៀម	-5862
▁ពេញលេញ	-5863
ការជាមួយ	-5864
ទីតាំងស្ថិត	-5865
ល្បី	-5866
▁រៀល	-5867
វិស្វ	-5868
សំអាត	-5869
ស្វ័យ	-5870
bolone	-5871
ដេរ	-5872
▁Son	-5873
ussia	-5874
លំបាក	-5875
ូតលាស់	-5876
▁Slots	-5877
▁សិល្បៈ	-5878
▁អស្ចារ្យ	-5879
gu	-5880
js	-5881
សែន	-5882
▁ទំហ	-5883
▁១០០	-5884
Trader	-5885
ដោយលោក	-5886
អុកស៊ី	-5887
ization	-5888
កសិកម្ម	-5889
ធន់ទ្រាំ	-5890
▁ពិព័រណ៍	-5891
▁សំលៀកបំពាក់	-5892
ផលិតពីប្រទេសចិន	-5893
▁ប្រភេទផលិតផលនៃ	-5894
51	-5895
គោ	-5896
day	-5897
ក្ដ	-5898
▁PS	-5899
ារីស	-5900
ិបតី	-5901
្បករ	-5902
▁គូស	-5903
▁សាខា	-5904
ំបំផុត	-5905
▁ខ្នាត	-5906
▁ឧបត្ថម្ភ	-5907
▁Metatrader	-5908
ត្រូវបានប្រើ	-5909
250	-5910
:22	-5911
ids	-5912
ិបិ	-5913
▁4:	-5914
▁7.	-5915
▁SM	-5916
▁SKU	-5917
count	-5918
▁សព្វ	-5919
▁ចំណាយ	-5920
ដាប់ធ័រ	-5921
របស់នាង	-5922
▁Christ	-5923
▁ផលិតកម្ម	-5924
▁ចាប់តាំងពី	-5925
គុណភាពខ្ពស់លក់	-5926
ចត	-5927
ីទ	-5928
中文	-5929
▁Ab	-5930
añol	-5931
illa	-5932
▁Lex	-5933
ilipp	-5934
តុល្យ	-5935
sm	-5936
CoV	-5937
ំដែន	-5938
▁យប់	-5939
ាហ្វេ	-5940
▁Toul	-5941
▁ជជែក	-5942
ប្រវត្ត	-5943
▁column	-5944
▁បារាំង	-5945
លក្ខខណ្ឌ	-5946
▁ទៀងទាត់	-5947
53	-5948
6%	-5949
ខាត	-5950
▁IT	-5951
ules	-5952
▁ext	-5953
▁លឿន	-5954
phone	-5955
ញ្ញាណ	-5956
ម្បីតែ	-5957
▁ក្លាយ	-5958
ប្រឹក្ស	-5959
▁មុនពេល	-5960
▁បណ្ណសារ	-5961
▁ប័ណ្ណសារ	-5962
▁ធម្មនុញ្ញ	-5963
▁អ្នកនិពន្ធ	-5964
utz	-5965
វេស	-5966
សួន	-5967
ឡង់	-5968
-200	-5969
69"&	-5970
▁Dis	-5971
កែប្រែ	-5972
ជិះកង់	-5973
សម្រេច	-5974
អ៊ីមែល	-5975
ូរសព្ទ	-5976
Country	-5977
anguage	-5978
ទាំងមូល	-5979
ម៉ាស៊ីនកិន	-5980
ារ៉ាម៉ែត្រ	-5981
▁យើងមានសេវាកម្ម	-5982
ដប	-5983
ហុង	-5984
ប៉ោម	-5985
▁ត្ប	-5986
rylic	-5987
ស្ងួត	-5988
▁២០១៨	-5989
▁លីត្រ	-5990
ដូចគ្នា	-5991
▁ខែឧសភា	-5992
ម្យ៉ាងវិញទៀត	-5993
ទាញ	-5994
▁1%	-5995
▁Is	-5996
▁PU	-5997
▁Pr	-5998
ហ្វី	-5999
▁សែន	-6000
ផ្ទុះ	-6001
វិហារ	-6002
▁អាយុ	-6003
bygden	-6004
▁បដិសេធ	-6005
ilippines	-6006
រដ្ឋមន្រ្តី	-6007
ae	-6008
ចាន	-6009
▁វេ	-6010
បង្គ	-6011
▁30%	-6012
▁Gen	-6013
▁LCD	-6014
▁ជិះ	-6015
កំណើត	-6016
allery	-6017
▁អឺរ៉ុប	-6018
ផ្លូវដែក	-6019
អំឡុងពេល	-6020
ល្អប្រសើរ	-6021
ទូទាំងពិភពលោក	-6022
no	-6023
រម	-6024
uch	-6025
ូតេ	-6026
▁Ke	-6027
▁ដដែល	-6028
=5.0.6	-6029
អាមេរិច	-6030
គេស្គាល់	-6031
▁សមាមាត្រ	-6032
ក្នុងចំណោម	-6033
▁ក្នុងតម្លៃ	-6034
ការប្រើប្រាស់	-6035
900	-6036
ael	-6037
ឡាញ	-6038
▁ag	-6039
34"&	-6040
ling	-6041
raft	-6042
ូនីក	-6043
័ត្រ	-6044
▁សង់	-6045
▁អូស	-6046
រជាតិ	-6047
▁មិនា	-6048
▁កាសែត	-6049
▁ដ្ឋាន	-6050
▁ប្លង់	-6051
▁នេះគឺជា	-6052
▁districts	-6053
▁ផ្ទៀងផ្ទាត់	-6054
▁ព្រះអម្ចាស់	-6055
RC	-6056
RP	-6057
Pro	-6058
គោក	-6059
លាង	-6060
▁66	-6061
855)	-6062
ince	-6063
▁Esp	-6064
▁Sim	-6065
other	-6066
ទម្ងន់	-6067
▁ជើងហោះហើរ	-6068
▁អន្តរជាតិ	-6069
▁ការជូនដំណឹង	-6070
▁ផ្លាស់ប្តូរ	-6071
9"	-6072
uth	-6073
burg	-6074
▁Piw	-6075
▁បាត	-6076
រំខាន	-6077
▁ខ្លី	-6078
ពត៌មាន	-6079
ត្រូវតែ	-6080
ឯករាជ្យ	-6081
▁Global	-6082
▁ភីអិលស៊ី	-6083
ផ្នែកមួយនៃ	-6084
8,	-6085
DA	-6086
php	-6087
ump	-6088
សីហ	-6089
មកាល	-6090
រលាយ	-6091
▁សេន	-6092
ៀមរាប	-6093
▁បាត់	-6094
ទាមទារ	-6095
▁check	-6096
▁Piwigo	-6097
ធាងត្នោត	-6098
លៃតម្រូវ	-6099
-00	-6100
Serv	-6101
មាត់	-6102
▁Apr	-6103
▁Jack	-6104
▁have	-6105
▁បន្ថយ	-6106
▁វាមាន	-6107
▁ខ្សែអក្សរ	-6108
▁ម៉ាស៊ីនបោះពុម្ព	-6109
យ៍	-6110
fin	-6111
ុយអ	-6112
ូឡូ	-6113
▁Hot	-6114
▁Lin	-6115
▁Coin	-6116
បរិភោគ	-6117
▁លេចឡើង	-6118
នាយកដ្ឋាន	-6119
អ្នកជំនាញ	-6120
សាច់ប្រាក់	-6121
▁លេខម៉ូដែល	-6122
nam	-6123
rif	-6124
តឹង	-6125
▁**	-6126
1000	-6127
oung	-6128
ករ៉ែ	-6129
ុប្ប	-6130
▁24,	-6131
▁Cor	-6132
ឆ្នេរ	-6133
សំណង់	-6134
ortcut	-6135
ខ្សាច់	-6136
▁ក្មេង	-6137
▁បំណែក	-6138
សេចក្ដី	-6139
▁ទិន្នផល	-6140
▁ប្រដាប់	-6141
cal	-6142
▁42	-6143
▁CA	-6144
▁ល។	-6145
យើងបាន	-6146
លេខកូដ	-6147
▁Trans	-6148
▁ដ្រាយ	-6149
▁ការប្រ	-6150
▁រួមទាំង	-6151
កន្លែងដែល	-6152
ចន	-6153
តិ៍	-6154
ថោក	-6155
ូនី	-6156
្លី	-6157
%92%	-6158
▁Mult	-6159
▁ទំនង	-6160
▁Toner	-6161
▁សូមមើល	-6162
ជារៀងរាល់	-6163
▁បង្ហោះនៅលើ	-6164
09	-6165
erc	-6166
▁(+	-6167
ំនូស	-6168
▁12:	-6169
▁Bar	-6170
▁Col	-6171
▁រស់	-6172
បង្អួច	-6173
ន្និសីទ	-6174
▁acrylic	-6175
▁ហេតុនេះ	-6176
▁WhatsApp	-6177
5,	-6178
▁7:	-6179
បុរី	-6180
▁root	-6181
imited	-6182
ោមភ្នែក	-6183
ញ្ញាបត្រ	-6184
បរិសុទ្ធ	-6185
▁សប្តាហ៍មុន	-6186
ភាសាអង់គ្លេស	-6187
FS	-6188
▁ចង	-6189
amic	-6190
ouch	-6191
គោរព	-6192
ិទាឃ	-6193
▁text	-6194
▁ជាប់	-6195
ដែលមិន	-6196
ាក្នុង	-6197
ប្រណាំង	-6198
អគ្គីសនី	-6199
ផលប៉ះពាល់	-6200
ក្នុងរយៈពេល	-6201
▁មិនអាចរកបាន	-6202
▁ការធ្វើតេស្ត	-6203
នៅតែ	-6204
្រីម	-6205
▁ស្ព	-6206
ល់នឹង	-6207
▁ជោគជ័យ	-6208
▁ឌីជីថល	-6209
▁បង្វិល	-6210
មិនមែនជា	-6211
ិទាឃរដូវ	-6212
អាកាសចរណ៍	-6213
ប្ដូរតាមបំណង	-6214
zz	-6215
វៃ	-6216
alls	-6217
arin	-6218
វត្ស	-6219
េជ្រ	-6220
▁(0)	-6221
▁Apk	-6222
▁Rent	-6223
សប្បាយ	-6224
▁ជញ្ជាំង	-6225
▁រូបមន្ត	-6226
▁ប្រយោជន៍	-6227
កម្មវិធីបញ្ជា	-6228
▁ម្យ៉ាងវិញទៀត	-6229
eve	-6230
irl	-6231
ser	-6232
▁kh	-6233
loud	-6234
ប៉ូល	-6235
▁John	-6236
▁ក្លែង	-6237
▁ណែនាំ	-6238
▁កាស៊ីណ	-6239
ជាតិសរសៃ	-6240
ម៉ូលេគុល	-6241
ទទួលស្គាល់	-6242
▁អត្ថប្រយោជន៍	-6243
600	-6244
eek	-6245
ខ្វ	-6246
▁88	-6247
▁CR	-6248
▁SR	-6249
2%80	-6250
ader	-6251
ភូមិ	-6252
ុតាង	-6253
▁29,	-6254
ocket	-6255
▁2007	-6256
▁Meta	-6257
▁សាលា	-6258
▁ស្រឡ	-6259
▁២០១៧	-6260
rivate	-6261
ធ្លាប់	-6262
▁ជំនាញ	-6263
▁ព្រោះ	-6264
រូបភាព។	-6265
▁ឧស្ម័ន	-6266
កាំរស្មី	-6267
▁កាមេរ៉ា	-6268
▁University	-6269
វិញ្ញាបនប័ត្រ	-6270
GE	-6271
ilt	-6272
លោហៈ	-6273
▁LEE	-6274
ច័ន្ទ	-6275
សិទ្ធ	-6276
▁Stud	-6277
បរិមាណ	-6278
ការធ្វើ	-6279
ទិន្នផល	-6280
រួមទាំង	-6281
ជើងហោះហើរ	-6282
▁ដែលត្រូវ	-6283
គ្រឿងបន្លាស់	-6284
ព័ត៌មានបន្ថែម	-6285
▁Ak	-6286
▁រស	-6287
oster	-6288
សូឡង់	-6289
អាជ្ញ	-6290
▁(200	-6291
ោះអាសន្ន	-6292
iu	-6293
-25	-6294
.06	-6295
:31	-6296
reg	-6297
▁SS	-6298
onda	-6299
tual	-6300
▁(10	-6301
▁(19	-6302
▁Feb	-6303
▁One	-6304
ville	-6305
សម្អាត	-6306
ហោចណាស់	-6307
son	-6308
uff	-6309
çais	-6310
ទារក	-6311
សម្ភ	-6312
សេរី	-6313
ស្នើ	-6314
▁26,	-6315
ាស៊ីនតោន	-6316
PE	-6317
▁BK	-6318
▁web	-6319
umber	-6320
គំនូរ	-6321
affeta	-6322
ពិពាហ៍	-6323
▁ព្រមាន	-6324
ស្ថានភាព	-6325
▁តម្រូវការ	-6326
▁ឥតគិតថ្លៃ	-6327
របស់អតិថិជន	-6328
:29	-6329
ពោះ	-6330
លែង	-6331
លោម	-6332
វីស	-6333
▁UV	-6334
▁២៤	-6335
reak	-6336
▁មហា	-6337
inces	-6338
ង្រួម	-6339
▁ភាគរយ	-6340
▁សិក្សា	-6341
▁ហេតុអ្វីបានជា	-6342
OC	-6343
:25	-6344
លប់	-6345
▁MS	-6346
▁ST	-6347
▁API	-6348
istry	-6349
េបសាយ	-6350
▁ប៉ុន	-6351
▁រហ័ស	-6352
▁សំបក	-6353
2%80%8	-6354
ការប្រ	-6355
គ្នានៃ	-6356
ជ្ជមាន	-6357
▁េ្រគងបន	-6358
ពាហ៍ពិពាហ៍	-6359
ags	-6360
តារ	-6361
ហេត	-6362
▁ដោះ	-6363
eless	-6364
អន្តរ	-6365
▁Elect	-6366
បញ្ចាំង	-6367
អប្បបរមា	-6368
▁ភ្នាក់ងារ	-6369
▁Holmbygden	-6370
ya	-6371
ឌា	-6372
១១	-6373
បែន	-6374
ផុត	-6375
▁23,	-6376
▁etc	-6377
="0.1	-6378
ុបទិក	-6379
▁ផ្អែក	-6380
ដែនកំណត់	-6381
អាសយដ្ឋាន	-6382
▁provinces	-6383
▁ការព្យាបាល	-6384
-09	-6385
ាមៗ	-6386
្លូ	-6387
ិនិង	-6388
▁14:	-6389
▁380	-6390
▁Rob	-6391
athan	-6392
ution	-6393
អំពូល	-6394
ួនាទី	-6395
▁ដោយមាន	-6396
ក្នុងឆ្នាំ	-6397
LS	-6398
yr	-6399
-02	-6400
bet	-6401
apan	-6402
peed	-6403
▁22,	-6404
▁ប៊ិច	-6405
បូមទឹក	-6406
ពួកយើង	-6407
សម្លេង	-6408
សុពលភាព	-6409
▁បន្តិច	-6410
▁ប្រជាជន	-6411
▁រាយការណ៍	-6412
អធ	-6413
Uri	-6414
omb	-6415
ស្គ	-6416
▁Em	-6417
▁ខូ	-6418
▁១៤	-6419
mark	-6420
្វាង	-6421
▁14,	-6422
▁Out	-6423
▁Par	-6424
▁lex	-6425
24.99	-6426
Color	-6427
▁file	-6428
▁ភូមិ	-6429
▁ឥណ្ឌ	-6430
UriServ	-6431
▁capacitor	-6432
▁LexUriServ	-6433
AB	-6434
la	-6435
លា	-6436
ដប់	-6437
▁Kh	-6438
01"&	-6439
card	-6440
វាស់	-6441
▁1.2	-6442
▁2006	-6443
▁$1.99	-6444
អ័រម៉ូន	-6445
▁ដឺក្រេ	-6446
▁តម្រៀប	-6447
▁គោលបំណង	-6448
បទពិសោធន៍	-6449
▁អាស័យដ្ឋាន	-6450
Ex	-6451
បូក	-6452
ices	-6453
urch	-6454
វប្ប	-6455
ិង្ហ	-6456
▁សតិ	-6457
erson	-6458
▁Daun	-6459
▁រ៉ូប	-6460
ប្រហារ	-6461
▁ជាការ	-6462
▁ប្រាប់	-6463
ចុះបញ្ជី	-6464
▁taffeta	-6465
▁និស្សិត	-6466
▁ខ្ញុំមាន	-6467
▁ស្បែកជើង	-6468
▁គីឡូម៉ែត្រ	-6469
ei	-6470
BET	-6471
bab	-6472
neum	-6473
ongg	-6474
ross	-6475
ាសាទ	-6476
▁Equ	-6477
▁ចាន	-6478
▁ជារ	-6479
▁ឱសថ	-6480
សំណល់	-6481
េរភាព	-6482
▁អំណោយ	-6483
▁ចម្លើយ	-6484
នៅពេលដែល	-6485
▁ទិញរូបភាព។	-6486
កក	-6487
101	-6488
:21	-6489
បន្ល	-6490
ន័យថា	-6491
▁ចក្រ	-6492
▁KMail	-6493
▁ផ្កាយ	-6494
នៅឆ្នាំ	-6495
ឈប់សម្រាក	-6496
▁Français	-6497
ការពិនិត្យ	-6498
▁Trenbolone	-6499
ដើម្បីទទួលបាន	-6500
▁ដំណើរទស្សនកិច្ច	-6501
345	-6502
:59	-6503
vey	-6504
បំណ	-6505
ាសេ	-6506
▁CE	-6507
បនិង	-6508
▁Est	-6509
▁OEM	-6510
▁Rep	-6511
epper	-6512
icode	-6513
ស្សន៍	-6514
▁Motor	-6515
▁គម្រប	-6516
ប្រទាក់	-6517
ខ្ញុំនឹង	-6518
▁រង្វាន់	-6519
ច្បាស់លាស់	-6520
UL	-6521
ទ័	-6522
ama	-6523
ពុធ	-6524
▁៨៨	-6525
orks	-6526
side	-6527
ម៉ូត	-6528
ំរិត	-6529
▁101	-6530
iness	-6531
ង្ការ	-6532
រិយាប	-6533
វ៉ាត់	-6534
េអ៊ែរ	-6535
ប៊ូតុង	-6536
មូលនិធិ	-6537
លូតលាស់	-6538
▁កាត់បន្ថយ	-6539
97	-6540
ទិ	-6541
.35	-6542
.75	-6543
ald	-6544
ubs	-6545
ទូត	-6546
វិថ	-6547
Char	-6548
omper	-6549
▁Honda	-6550
ជាលើកដំបូង	-6551
▁អ្នកជំនាញ	-6552
កាលបរិច្ឆេទ	-6553
/03	-6554
bot	-6555
hon	-6556
▁360	-6557
▁ខួប	-6558
▁ឈប់	-6559
អនាគត	-6560
▁ថាតើ	-6561
achine	-6562
ាម្នាក់	-6563
als	-6564
ាណូ	-6565
▁SE	-6566
▁XL	-6567
▁២៧	-6568
លាញ់	-6569
វ៉ុល	-6570
▁3.5	-6571
▁ផុត	-6572
000,0	-6573
▁Tele	-6574
▁about	-6575
ស្ថាប័ន	-6576
▁Español	-6577
▁ការរចនា	-6578
▁សប្ដាហ៍	-6579
ោងម៉ាស៊ីនកិន	-6580
/5	-6581
120	-6582
▁Bh	-6583
anth	-6584
urope	-6585
គន្លឹះ	-6586
ផ្តាច់	-6587
▁ឆ្លើយ	-6588
គ្នានេះ	-6589
ក្រាហ្វិក	-6590
លីក	-6591
ោទិ៍	-6592
▁FOB	-6593
សីហនុ	-6594
▁disc	-6595
outube	-6596
▁លំអិត	-6597
▁មន្ទីរ	-6598
▁ព្រមទាំង	-6599
ដ៏អស្ចារ្យ	-6600
philippines	-6601
▁ការផ្តល់ជូន	-6602
ូណ	-6603
េហ	-6604
ៃដ	-6605
eck	-6606
ខ្ទ	-6607
ូរី	-6608
▁១៣	-6609
ផ្សំ	-6610
▁HGH	-6611
ylord	-6612
▁Well	-6613
▁list	-6614
▁Build	-6615
▁គំនូរ	-6616
▁ជំពូក	-6617
ខុសត្រូវ	-6618
ប្រាក់បញ្ញើ	-6619
FC	-6620
-16	-6621
39"&	-6622
▁21,	-6623
▁Art	-6624
ម្ហូប	-6625
អនឡាញ	-6626
▁ច្បាស់	-6627
neumatic	-6628
ដោយខ្លួនឯង	-6629
▁ឆ្នាំ២០១៧	-6630
▁ហិរញ្ញវត្ថុ	-6631
-22	-6632
ទំហ	-6633
រាយ	-6634
▁58	-6635
▁PL	-6636
chin	-6637
ពាន់	-6638
▁add	-6639
▁រៀន	-6640
▁សាន	-6641
ន្យល់	-6642
bragon	-6643
mylord	-6644
ធំបំផុត	-6645
ស្តុតាង	-6646
▁ទម្លាក់	-6647
▁ការបញ្ចេញ	-6648
វិធីសាស្រ្ត	-6649
អនុញ្ញាតឱ្យ	-6650
bragonmylord	-6651
ាដ	-6652
150	-6653
ឬទេ	-6654
▁TS	-6655
▁យុ	-6656
▁30,	-6657
ក្លឹប	-6658
ផែនទី	-6659
យេស៊ូ	-6660
ោតទ័រ	-6661
▁appe	-6662
ខ្លាញ់	-6663
ៀសខ្លួន	-6664
KG	-6665
MM	-6666
met	-6667
ឋាន	-6668
▁La	-6669
▁MH	-6670
▁ជឿ	-6671
duct	-6672
ness	-6673
មួយនៃ	-6674
▁កំដៅ	-6675
ត្ដិការ	-6676
▁ដំណឹងល្អ	-6677
ក្នុងស្រុក	-6678
▁មហាសន្និបាត	-6679
តន	-6680
៥០	-6681
▁‧	-6682
▁●	-6683
:32	-6684
room	-6685
អតីត	-6686
អន្ដ	-6687
េខាង	-6688
▁und	-6689
កាលពី	-6690
▁វាជា	-6691
ាចារ្យ	-6692
▁សង្គម	-6693
ហស្បតិ៍	-6694
អាក្រក់	-6695
▁ប្រផេះ	-6696
ប្រយុទ្ធ	-6697
▁Trading	-6698
ពិនិត្យមើល	-6699
▁អ៊ិនគ្រីប	-6700
ាគ	-6701
:34	-6702
:36	-6703
▁MI	-6704
.0.2	-6705
amin	-6706
index	-6707
ល្ងាច	-6708
ែរក្ស	-6709
▁1200	-6710
▁Fire	-6711
▁ក្តៅ	-6712
តម្រូវ	-6713
ុលត្រាស	-6714
:27	-6715
ឆ្ន	-6716
កូរ៉	-6717
ហ្គី	-6718
កបដោយ	-6719
ection	-6720
▁ពត៌មាន	-6721
▁អាស្រ័យ	-6722
▁pneumatic	-6723
8%	-6724
:35	-6725
:39	-6726
33"&	-6727
ំផ្ល	-6728
▁ចូរ	-6729
លំអិត	-6730
▁Cont	-6731
▁នេះ។	-6732
andong	-6733
អង្គារ	-6734
▁រំលែក	-6735
វ័យក្មេង	-6736
▁និមិត្ត	-6737
ចាប់ផ្ដើម	-6738
ពិនិត្យឡើងវិញ	-6739
▁AV	-6740
▁TV	-6741
ារ៉ា	-6742
▁វីស	-6743
វដ្តី	-6744
េះដូង	-6745
នាគមន៍	-6746
ផែនការ	-6747
ិច្ឆ័យ	-6748
▁ចេញពី	-6749
▁បញ្ឈរ	-6750
▁ផ្ដើម	-6751
ប្រដាប់	-6752
អ្នកមាន	-6753
Shortcut	-6754
▁ការប្រើ	-6755
▁ផ្លូវលេខ	-6756
ផ្ទេរប្រាក់	-6757
សម្លៀកបំពាក់	-6758
/4	-6759
នុច	-6760
▁OS	-6761
▁PM	-6762
▁ខោ	-6763
ម៉ាប	-6764
ខ័ណ្ឌ	-6765
ធ្មេញ	-6766
usiness	-6767
▁ទទួលយក	-6768
កម្សាន្ត	-6769
ាំងឌុចទ័	-6770
▁បង្ហាប់	-6771
▁បាត់បង់	-6772
▁សិក្ខាសាលា	-6773
ជំនួសសម្រាប់	-6774
9,	-6775
pg	-6776
ពរ	-6777
១០	-6778
▁PR	-6779
▁XX	-6780
ភក្តិ	-6781
េសជ្ជ	-6782
▁NAME	-6783
▁pref	-6784
អង្កេត	-6785
ានុប្ប	-6786
▁វិស័យ	-6787
ថតចម្លង	-6788
សហគ្រាស	-6789
ទីកន្លែង	-6790
8"&	-6791
:33	-6792
ious	-6793
▁240	-6794
▁Rot	-6795
.2019	-6796
ដោយដៃ	-6797
▁Tail	-6798
▁Photo	-6799
hejiang	-6800
ូតេអ៊ីន	-6801
▁roller	-6802
ភៀសខ្លួន	-6803
▁អេស្ប៉ាញ	-6804
ខ្សែភាពយន្ត	-6805
▁}	-6806
isc	-6807
្យូ	-6808
▁52	-6809
▁av	-6810
ក្រឡ	-6811
▁អត់	-6812
ធ្វើពី	-6813
▁ចំណងជើង	-6814
blockchain	-6815
▁MetaTrader	-6816
OW	-6817
TI	-6818
វាស	-6819
▁NC	-6820
Book	-6821
iles	-6822
ាម៉ា	-6823
េសាទ	-6824
▁រាជ	-6825
▁លឿង	-6826
ឆ្វេង	-6827
ៀបរាប់	-6828
▁ឆ្នេរ	-6829
▁ទឹកកក	-6830
▁នេះមាន	-6831
តែមួយគត់	-6832
▁លើបណ្តាញ	-6833
▁សាសនាចក្រ	-6834
▁អចលនទ្រព្យ	-6835
TT	-6836
UN	-6837
rc	-6838
iec	-6839
ខណៈ	-6840
ទទេ	-6841
▁ID	-6842
▁te	-6843
ក្តី	-6844
បណ្ដ	-6845
▁750	-6846
▁ចំហ	-6847
▁២០១៤	-6848
▁160;!	-6849
ធ្យោបាយ	-6850
▁crypto	-6851
▁Germany	-6852
ការគាំទ្រ	-6853
ទ្រង់ទ្រាយ	-6854
▁របស់ខ្ញុំ	-6855
mo	-6856
ney	-6857
ray	-6858
▁95	-6859
▁ចរ	-6860
oooo	-6861
▁Soft	-6862
▁ក្រឡ	-6863
▁បង្ក	-6864
មាតិកា	-6865
សង្ហារ	-6866
េសជ្ជៈ	-6867
▁count	-6868
ានុក្រម	-6869
▁Master	-6870
▁តាមដាន	-6871
▁Company	-6872
▁ចាំបាច់	-6873
▁អាចរកបាន	-6874
▁ថ្ងៃបន្ទាប់	-6875
!!!	-6876
ema	-6877
umb	-6878
ត្យ	-6879
រណា	-6880
▁AM	-6881
▁Ma	-6882
នីតិ	-6883
▁sup	-6884
▁Gold	-6885
▁អាប់	-6886
▁ខាងលើ	-6887
▁វិធាន	-6888
ខុសគ្នា	-6889
នេះគឺជា	-6890
▁រ៉ូឡែត	-6891
របស់លោកអ្នក	-6892
▁ព្រះរាជាណាចក្រ	-6893
92	-6894
An	-6895
FL	-6896
lam	-6897
ឈុត	-6898
▁CD	-6899
oice	-6900
▁Fin	-6901
/2018	-6902
ongee	-6903
រុករក	-6904
រចនាឡើង	-6905
▁សាមញ្ញ	-6906
Material	-6907
ប្រាំមួយ	-6908
សម្រាប់លក់	-6909
▁ការធ្វើដំណើរ	-6910
កង	-6911
ចំ	-6912
▁o	-6913
adi	-6914
urt	-6915
▁54	-6916
ជនបទ	-6917
▁13,	-6918
▁Sen	-6919
-2019	-6920
▁2004	-6921
▁សន្ទ	-6922
ពេញនិយម	-6923
▁romper	-6924
▁បន្លិច	-6925
▁Zhejiang	-6926
▁appeared	-6927
1-	-6928
▁Ne	-6929
72"&	-6930
info	-6931
បីជា	-6932
▁នាឡ	-6933
បុរាណ	-6934
▁ប្រែ	-6935
▁ឱកាស	-6936
▁យូនីក	-6937
▁គណៈកម្ម	-6938
ទាក់ទងនឹង	-6939
បង់ប្រាក់	-6940
▁អប្បបរមា	-6941
▁នាយកដ្ឋាន	-6942
▁ត្រូវបានគេ	-6943
បច្ចុប្បន្នភាព	-6944
LP	-6945
pa	-6946
ែវ	-6947
តែម	-6948
បាត	-6949
ប្រហ	-6950
អាប់	-6951
▁25,	-6952
▁Sam	-6953
▁យ៉ូ	-6954
▁gran	-6955
▁កីឡា	-6956
តិចជាង	-6957
ាក់ទាញ	-6958
▁ជប៉ុន	-6959
▁Health	-6960
▁ខ្ញុំន	-6961
ស្រង់ចេញ	-6962
▁discuss	-6963
▁វិនិយោគ	-6964
▁ស៊ីឡាំង	-6965
ជាច្រើនទៀត	-6966
▁អ៊ីនធឺណិត	-6967
▁ការវិនិយោគ	-6968
មហ	-6969
-03	-6970
ady	-6971
oin	-6972
▁‧;	-6973
orea	-6974
័ព្វ	-6975
▁May	-6976
▁PMP	-6977
▁តោន	-6978
▁មុំ	-6979
លិខិត	-6980
វេសន៍	-6981
▁time	-6982
យើងមាន	-6983
▁ផ្អាក	-6984
▁ស្វែងយល់	-6985
56	-6986
ala	-6987
web	-6988
យ៉ក	-6989
http	-6990
្លែង	-6991
▁50%	-6992
▁Ste	-6993
ូកស៊ី	-6994
▁Word	-6995
▁ឧទ្យាន	-6996
ប្រារព្ធ	-6997
របាយការណ៍	-6998
ារបស់អ្នក	-6999
▁Shandong	-7000
▁ពានរង្វាន់	-7001
ការដឹកជញ្ជូន	-7002
▁របស់ក្រុមហ៊ុន	-7003
Re	-7004
ចូវ	-7005
ិយស	-7006
▁០១	-7007
ួរដៃ	-7008
ង់មតិ	-7009
ៃដន្យ	-7010
▁Kate	-7011
▁ទំនេរ	-7012
▁រំពឹង	-7013
lection	-7014
ផ្អែកលើ	-7015
ុករករ៉ែ	-7016
▁ចែកចាយ	-7017
គមនាគមន៍	-7018
▁កំសាន្ត	-7019
▁សារធាតុ	-7020
▁អត្ថបទបន្ទាប់	-7021
សម្រាប់ទូរស័ព្ទ	-7022
បៀប	-7023
▁44	-7024
កម្រ	-7025
▁4.0	-7026
ជំនួញ	-7027
តំណែង	-7028
▁ត្រី	-7029
ញឹកញាប់	-7030
▁កប្បាស	-7031
ស្មាតហ្វូន	-7032
▁ផ្ទះល្វែង	-7033
នៅក្នុងទីក្រុង	-7034
ឿម	-7035
កណ្ដ	-7036
▁350	-7037
ieces	-7038
ព្រោះ	-7039
ម្តាយ	-7040
▁Last	-7041
ស៊ីឡាំង	-7042
ប៉ុន្មាន	-7043
▁និងអ្នក	-7044
▁ឆ្នាំ២០១៨	-7045
▁អាំងឌុចទ័	-7046
អង្កត់ផ្ចិត	-7047
OM	-7048
គរ	-7049
:24	-7050
bag	-7051
can	-7052
ីហោ	-7053
▁*.	-7054
▁DR	-7055
ible	-7056
័ត្ន	-7057
▁Baj	-7058
នាពេល	-7059
រោទិ៍	-7060
ខាងមុខ	-7061
ដទៃទៀត	-7062
▁សន្ទះ	-7063
ប្រកាន់	-7064
នៅជុំវិញ	-7065
ាធារណរដ្ឋ	-7066
▁ស្វាគមន៍	-7067
ផ្តល់ជូននូវ	-7068
▁microfiber	-7069
ky	-7070
emb	-7071
uel	-7072
ាចរ	-7073
▁តុ	-7074
cent	-7075
ិភ័យ	-7076
ីនដូ	-7077
▁att	-7078
▁Note	-7079
▁them	-7080
▁រំលង	-7081
▁ហ្វី	-7082
នឹងត្រូវ	-7083
សង្ហារឹម	-7084
សន្តិសុខ	-7085
ទាំងស្រុង	-7086
តែប៉ុណ្ណោះ	-7087
Un	-7088
:43	-7089
aki	-7090
▁..	-7091
▁Mo	-7092
35"&	-7093
▁(12	-7094
▁27,	-7095
▁Del	-7096
▁how	-7097
▁ន័យ	-7098
▁០២៣	-7099
ព្រិល	-7100
រង់ចាំ	-7101
សង្ខេប	-7102
ធ្វើបាន	-7103
ួរក្បាល	-7104
ប្រចាំខែ	-7105
▁ផលប៉ះពាល់	-7106
▁ពិតប្រាកដ	-7107
ម៉ាស៊ីនភ្លើង	-7108
IG	-7109
-60	-7110
rel	-7111
rem	-7112
uge	-7113
ធារ	-7114
ធូស	-7115
berg	-7116
▁700	-7117
▁net	-7118
Shell	-7119
ធម្មត	-7120
ុម្ភះ	-7121
▁Phot	-7122
▁បានប្រកាស	-7123
សម្រាប់ប្រព័ន្ធ	-7124
ពៃ	-7125
អឹម	-7126
ason	-7127
័ង្ក	-7128
▁023	-7129
▁230	-7130
▁Part	-7131
▁ព្រឹ	-7132
នៅថ្ងៃ	-7133
បត់បែន	-7134
សំណាញ់	-7135
▁ពិតជា	-7136
កម្រាស់	-7137
▁ជនជាតិ	-7138
▁បន្ទប់គេង	-7139
កម្រិតខ្ពស់	-7140
ាយករដ្ឋមន្ត្រី	-7141
ផត	-7142
-50	-7143
:26	-7144
erg	-7145
ូវ៉	-7146
▁Dr	-7147
ហៅថា	-7148
▁ind	-7149
ប្រិយ	-7150
▁រទេះ	-7151
របស់វា	-7152
បាត់បង់	-7153
ផ្ញើសារ	-7154
▁អញ្ជើញ	-7155
▁ស្ថានីយ៍	-7156
បឹង	-7157
រោគ	-7158
▁Go	-7159
▁ឈរ	-7160
▁មា	-7161
stan	-7162
ទៅលើ	-7163
▁Bro	-7164
▁SAR	-7165
jects	-7166
ក្លែង	-7167
អង្គុយ	-7168
ិត្តិយស	-7169
▁យើងនឹង	-7170
ស្វ័យប្រវត្ត	-7171
អរ	-7172
ias	-7173
▁At	-7174
▁1.1	-7175
▁use	-7176
istan	-7177
ណូអែល	-7178
▁here	-7179
▁ផ្តើម	-7180
▁ព្រួញ	-7181
ទុកដាក់	-7182
ាបង្កើត	-7183
ិង្ហបុរី	-7184
▁Battery	-7185
▁Virtual	-7186
7,	-7187
83	-7188
li	-7189
ភូ	-7190
គំរ	-7191
▁AD	-7192
ager	-7193
គ្រី	-7194
ម្ងឺ	-7195
▁Blu	-7196
▁ដំប	-7197
▁ទិន	-7198
▁សែល	-7199
ative	-7200
▁East	-7201
▁slab	-7202
verter	-7203
ស្រដៀង	-7204
▁អាជ្ញ	-7205
ategory	-7206
បសម្រួល	-7207
▁សម្រាក	-7208
▁regions	-7209
▁អនុគមន៍	-7210
ព្រះសីហនុ	-7211
▁ដោយសារតែ	-7212
▁ផ្ទេរឯកសារ	-7213
សង	-7214
-06	-7215
ota	-7216
េតា	-7217
▁Tw	-7218
▁២២	-7219
េយ្យ	-7220
▁UIP	-7221
▁[1]	-7222
▁man	-7223
otrop	-7224
ustom	-7225
▁crus	-7226
▁Enter	-7227
meister	-7228
ាកណ្តាល	-7229
▁$24.99	-7230
▁ការលក់	-7231
▁ទស្សន៍	-7232
▁វិទ្យុ	-7233
▁Contact	-7234
ដែកអ៊ីណុក	-7235
▁បទពិសោធន៍	-7236
▁បានបញ្ចប់	-7237
ការគ្រប់គ្រង	-7238
▁ម៉ែត្រការ៉េ	-7239
lu	-7240
esh	-7241
▁51	-7242
▁sch	-7243
▁ខុន	-7244
oress	-7245
▁+855	-7246
▁ទិវា	-7247
▁James	-7248
▁admin	-7249
▁coated	-7250
▁ផែនការ	-7251
▁សង្កត់	-7252
ឆាប់រហ័ស	-7253
▁Material	-7254
មិនត្រូវបាន	-7255
▁ក្នុងនាមជា	-7256
=4	-7257
ete	-7258
mir	-7259
rive	-7260
▁VPN	-7261
▁ដុត	-7262
ជាមុន	-7263
▁Volt	-7264
▁ស្រាល	-7265
▁សមរម្យ	-7266
ខ្ញុំអាច	-7267
▁ការវិភាគ	-7268
utzmeister	-7269
ប្រចាំថ្ងៃ	-7270
អចលនទ្រព្យ	-7271
▁សព្វថ្ងៃនេះ	-7272
ើក	-7273
▁72	-7274
▁NE	-7275
rime	-7276
uang	-7277
យន្ដ	-7278
▁15:	-7279
▁31,	-7280
utsch	-7281
ម្ពោធ	-7282
ប៉ារីស	-7283
វិបសាយ	-7284
▁ទស្សន	-7285
កាមេរ៉ា	-7286
▁object	-7287
▁Cambodian	-7288
▁Indicator	-7289
▁រដ្ឋាភិបាល	-7290
▁ប៉ារ៉ាម៉ែត្រ	-7291
ម៉ាស៊ីនបោះពុម្ព	-7292
ST	-7293
ci	-7294
ធើ	-7295
▁Cy	-7296
▁Je	-7297
High	-7298
ktop	-7299
ឆ្កែ	-7300
ជជែក	-7301
ទទឹង	-7302
វាត់	-7303
ights	-7304
▁play	-7305
▁កាក់	-7306
បំភ្លឺ	-7307
ផងដែរ។	-7308
រឹងមាំ	-7309
▁block	-7310
▁បុណ្យ	-7311
▁ស្ដេច	-7312
▁ច្រើនទៀត	-7313
▁Tailoress	-7314
BW	-7315
my	-7316
ជំទ	-7317
ចន្ទ	-7318
▁Sat	-7319
-2017	-7320
គម្ពីរ	-7321
ម៉ូទ័រ	-7322
▁របាំង	-7323
▁ទឹកក្រូច	-7324
▁វាត្រូវបាន	-7325
វិញ្ញាបនបត្រ	-7326
da	-7327
eu	-7328
១៦	-7329
ទិស	-7330
លាប	-7331
▁DV	-7332
▁To	-7333
▁no	-7334
▁កម្	-7335
▁ទូល	-7336
សិក្ខ	-7337
ែងចែក	-7338
▁ម្តង	-7339
ulator	-7340
ាហ្វ្រ	-7341
▁Alloy	-7342
▁ដេមិន	-7343
▁ស្រ្ត	-7344
▁Review	-7345
▁សប្បាយ	-7346
▁torrent	-7347
មានទីក្រុង	-7348
▁អាជ្ញាប័ណ្ណ	-7349
១៩	-7350
:44	-7351
="9	-7352
raz	-7353
une	-7354
ជក់	-7355
អតិ	-7356
aser	-7357
នានា	-7358
▁(3)	-7359
▁Boe	-7360
ក្បែរ	-7361
ប់ស្ក	-7362
ាបត្យ	-7363
▁ស្ករ	-7364
▁អង្ស	-7365
កោសិកា	-7366
▁ទ្វារ	-7367
▁សុទ្ធ	-7368
arychin	-7369
▁រួមមាន	-7370
▁ផ្ទះលេខ	-7371
អ្វីដែលអ្នក	-7372
▁ចិនទីក្រុង	-7373
oph	-7374
▁41	-7375
▁KO	-7376
គ្រូ	-7377
▁2005	-7378
▁ត្រួត	-7379
ខ្សែស្រឡាយ	-7380
▁Transposh	-7381
▁ទិនានុប្ប	-7382
:53	-7383
ris	-7384
yle	-7385
លំហ	-7386
adio	-7387
allp	-7388
ូស៊ី	-7389
▁ODM	-7390
▁Pan	-7391
▁Sok	-7392
ាម៉ាហ	-7393
▁Kork	-7394
▁Long	-7395
ិបិក្រម	-7396
ប្រែប្រួល	-7397
▁យោបល់បិទ	-7398
▁នៅក្នុងការ	-7399
ham	-7400
mon	-7401
ងឹត	-7402
លួស	-7403
វេទ	-7404
▁3)	-7405
▁ថយ	-7406
▁(20	-7407
▁បំព	-7408
▁ស្ក	-7409
ender	-7410
កន្លង	-7411
កម្ចី	-7412
លីត្រ	-7413
ស្នូល	-7414
េះដឹង	-7415
▁need	-7416
▁ខ្លះ	-7417
▁ព្យុះ	-7418
Packing	-7419
គណៈកម្ម	-7420
អ្នកដែល	-7421
▁ទូទាត់	-7422
បទចម្រៀង	-7423
លំនាំដើម	-7424
▁ការអភិវឌ្ឍ	-7425
▁ផ្គត់ផ្គង់	-7426
▁ភោជនីយដ្ឋាន	-7427
′′	-7428
nes	-7429
▁FR	-7430
▁IN	-7431
▁បឋ	-7432
ites	-7433
otro	-7434
ពៃណី	-7435
▁Med	-7436
▁លែង	-7437
▁Live	-7438
នាំមុខ	-7439
▁Bajaj	-7440
ប់ស្កាត់	-7441
▁Silicon	-7442
▁ឆ្នាំ២០១៦	-7443
ចក្រភពអង់គ្លេស	-7444
6,	-7445
▁\	-7446
gre	-7447
កែល	-7448
ដុត	-7449
▁kn	-7450
rick	-7451
ម៉ាស	-7452
▁Cas	-7453
▁Jin	-7454
▁has	-7455
elded	-7456
នោះទេ	-7457
ពីរដង	-7458
ស្រ្ត	-7459
▁បាល់	-7460
កាណាដា	-7461
ក្រវាត់	-7462
ឆ្លងដែន	-7463
ស្រាអែល	-7464
▁ទាមទារ	-7465
▁ទំហំដី	-7466
ឆ្នាំ២០១	-7467
ិន្នាការ	-7468
▁ការចាក់	-7469
ហ្វេសប៊ុក	-7470
▁ដង់ស៊ីតេ	-7471
▁កំណត់ហេតុ	-7472
▁ប្រសិទ្ធភាព	-7473
▁បន្ទាប់ពីការ	-7474
?"	-7475
sw	-7476
:38	-7477
:51	-7478
ស្អ	-7479
ូឌី	-7480
▁63	-7481
▁CT	-7482
Item	-7483
ally	-7484
▁Cer	-7485
▁Ray	-7486
▁Adob	-7487
▁This	-7488
បើកចំហ	-7489
▁ចំណូល	-7490
ក្រវ៉ាត់	-7491
អត្ថបទនេះ	-7492
លើកទឹកចិត្ត	-7493
ជាអ្នកដឹកនាំ	-7494
OA	-7495
.16	-7496
:37	-7497
zer	-7498
តាង	-7499
▁57	-7500
គិតថា	-7501
ចរន្ត	-7502
មកហើយ	-7503
▁កូនសោ	-7504
▁ស្អាត	-7505
ន្តិភាព	-7506
▁នៅថ្ងៃ	-7507
▁បែបផែន	-7508
▁សមុទ្រ	-7509
osterone	-7510
HO	-7511
ចក	-7512
:47	-7513
ដាល	-7514
ំប៉	-7515
៊ូវ	-7516
ានិច	-7517
▁Den	-7518
▁Nep	-7519
▁Pat	-7520
icial	-7521
សំយោគ	-7522
▁មេឌៀ	-7523
▁ក្រឡា	-7524
▁គឺមាន	-7525
▁ត្រង់	-7526
ត្រឹមតែ	-7527
▁បានបង្ហាញ	-7528
%)	-7529
4-	-7530
៣០	-7531
VID	-7532
ism	-7533
កិល	-7534
បរម	-7535
សំរ	-7536
ហ្ក	-7537
-100	-7538
prov	-7539
ច្រក	-7540
▁210	-7541
▁900	-7542
▁ផ្ល	-7543
សន្យា	-7544
▁ប្រណ	-7545
▁អត្រ	-7546
សាកថ្ម	-7547
ប្រកួតប្រជែង	-7548
!,	-7549
ដាំ	-7550
បិត	-7551
▁BR	-7552
▁Gh	-7553
▁KP	-7554
▁TP	-7555
etro	-7556
gton	-7557
ជាងគេ	-7558
ទៅតាម	-7559
ំផ្លាញ	-7560
▁Money	-7561
▁class	-7562
ដេញថ្លៃ	-7563
▁ចេញផ្សាយ	-7564
ជនភៀសខ្លួន	-7565
▁ការបញ្ចេញសំឡេង	-7566
.65	-7567
url	-7568
ឌ័រ	-7569
reet	-7570
▁Dev	-7571
▁dev	-7572
▁ច្ច	-7573
▁ផោន	-7574
ility	-7575
raine	-7576
ង្រ្គ	-7577
រំលាយ	-7578
▁corr	-7579
▁សំណើ	-7580
ietnam	-7581
បរាជ័យ	-7582
▁ថែទាំ	-7583
▁ភ្នែក	-7584
រដ្ឋបាល	-7585
▁Royale	-7586
▁និងលោក	-7587
ើបអង្កេត	-7588
នៅថ្ងៃនេះ	-7589
ប្រសិនបើអ្នក	-7590
▁ធារាសាស្ត្រ	-7591
hd	-7592
ចៅ	-7593
pdf	-7594
▁កង	-7595
ides	-7596
ាសន៍	-7597
▁Tim	-7598
3.5.1	-7599
iforn	-7600
មកយើង	-7601
វីរុស	-7602
យល់ដឹង	-7603
ស្ថេរភាព	-7604
ាហ្វ្រិក	-7605
ចាប់តាំងពី	-7606
កិច្ចប្រជុំ	-7607
▁PowerShell	-7608
ក្នុងមួយថ្ងៃ	-7609
ម៉ាស៊ីនបម្រើ	-7610
▁ទូរស័ព្ទចល័ត	-7611
Cl	-7612
MW	-7613
តួ	-7614
:14	-7615
pot	-7616
តុក	-7617
ពីន	-7618
▁QR	-7619
▁kd	-7620
auda	-7621
inst	-7622
▁Wys	-7623
▁one	-7624
▁});	-7625
ផ្តុំ	-7626
ស្វាយ	-7627
public	-7628
បន្តិច	-7629
▁ចម្បង	-7630
ifornia	-7631
▁និងមាន	-7632
▁បញ្ចេញ	-7633
▁ស្ថាបនា	-7634
វិនិច្ឆ័យ	-7635
អន្ដរជាតិ	-7636
▁Polyester	-7637
គ្រប់គ្រាន់	-7638
▁sonication	-7639
▁អាចត្រូវបាន	-7640
▁u	-7641
BAR	-7642
ese	-7643
hai	-7644
ាប៉	-7645
▁បង	-7646
gram	-7647
េដ្ឋ	-7648
ected	-7649
▁char	-7650
ugated	-7651
យ៉ាងណា	-7652
ាធិបតី	-7653
▁ឡើងទៅ	-7654
បានទទួល	-7655
នៅប្រទេស	-7656
ផ្តល់ឱ្យ	-7657
វិជ្ជមាន	-7658
ស្រ្តាលី	-7659
សិក្ខាសាល	-7660
រូបិយប័ណ្ណ	-7661
fig	-7662
ird	-7663
ដេក	-7664
inch	-7665
omuk	-7666
play	-7667
▁San	-7668
▁min	-7669
▁សាំ	-7670
នេសាទ	-7671
ូបភាព	-7672
▁រមូរ	-7673
ចម្រុះ	-7674
បង្ហាប់	-7675
▁Europe	-7676
ស្ថានីយ៍	-7677
▁បញ្ជីចាក់	-7678
▁កិច្ចប្រជុំ	-7679
នៃព្រះគ្រីស្ទ	-7680
AY	-7681
hr	-7682
-17	-7683
case	-7684
▁0.9	-7685
▁Bay	-7686
▁គីឡ	-7687
ាមេរ៉	-7688
▁ដៃគូ	-7689
ពេញវ័យ	-7690
ettings	-7691
▁ចង្កៀង	-7692
ប្រធានបទ	-7693
▁ប្រូកស៊ី	-7694
▁ឈ្មោះធាតុ	-7695
.”	-7696
:09	-7697
asy	-7698
▁sm	-7699
បណ្ណ	-7700
▁20%	-7701
▁Adv	-7702
iston	-7703
ង្គិច	-7704
អិលធី	-7705
▁ឆ្លង	-7706
Luxury	-7707
ាទិភាព	-7708
▁ទោះជា	-7709
▁រកមើល	-7710
អាស្រ័យ	-7711
▁កណ្តាល	-7712
▁Casting	-7713
▁លើសពីនេះ	-7714
ម៉ាស៊ីនកាត់	-7715
▁ការបញ្ជាក់	-7716
/8	-7717
:07	-7718
ធម៍	-7719
▁43	-7720
▁UN	-7721
ធ្ងរ	-7722
▁Tur	-7723
▁eng	-7724
KChar	-7725
យួរដៃ	-7726
=3.5.1	-7727
earing	-7728
select	-7729
ខ្ពស់។	-7730
▁Cauda	-7731
▁បណ្ឌិត	-7732
▁សម្លេង	-7733
▁Deutsch	-7734
▁Nepomuk	-7735
▁ព្រះបន្ទូល	-7736
▁ចុះហត្ថលេខា	-7737
sc	-7738
ែស	-7739
ocu	-7740
oom	-7741
ថង់	-7742
▁(6	-7743
▁Vi	-7744
▁១៧	-7745
page	-7746
read	-7747
បនេះ	-7748
ូឡូញ	-7749
▁DNS	-7750
▁Hose	-7751
▁Phil	-7752
▁when	-7753
luxury	-7754
គណបក្ស	-7755
តិចតួច	-7756
ាឃ្មុំ	-7757
DN	-7758
xi	-7759
:05	-7760
opp	-7761
ចំន	-7762
ញៀន	-7763
វីង	-7764
ិតិ	-7765
▁77	-7766
▁Sm	-7767
▁ពហ	-7768
char	-7769
ម៉ោន	-7770
ហ្គោ	-7771
្ពោះ	-7772
▁Mur	-7773
▁Sar	-7774
▁ធាត	-7775
italy	-7776
ង្អុល	-7777
ចូលទៅ	-7778
រក្សា	-7779
សំលេង	-7780
្លូធូស	-7781
▁លីនុច	-7782
▁បម្រុង	-7783
រាយការណ៍	-7784
្លាស្ទិក	-7785
▁WysLuxury	-7786
ាបង្កើតទំព័រ	-7787
ពហុស្រទាប់ឈីប	-7788
កិច្ចព្រមព្រៀង	-7789
▁មកពីក្រុមហ៊ុន	-7790
CI	-7791
ea	-7792
rg	-7793
4.5	-7794
off	-7795
លេច	-7796
ិចារ	-7797
▁bet	-7798
aving	-7799
ណ្តើរ	-7800
ស្កេន	-7801
ាចរណ៍	-7802
▁Cent	-7803
review	-7804
យេស៊ូវ	-7805
សញ្ញាប	-7806
ាឡេស៊ី	-7807
▁Email	-7808
▁nylon	-7809
version	-7810
▁បន្ទាន់	-7811
មួយដែលមាន	-7812
ាលុយមីញ៉ូ	-7813
▁corrugated	-7814
▁មាត្រដ្ឋាន	-7815
ចិត្តទុកដាក់	-7816
wp	-7817
:20	-7818
ខូច	-7819
ario	-7820
cast	-7821
បាក់	-7822
ស៊ុម	-7823
▁out	-7824
Query	-7825
សន្សំ	-7826
▁ប៉ូល	-7827
័ង្កសី	-7828
▁អះអាង	-7829
លេងល្បែង	-7830
ការសិក្សា	-7831
▁គ្រឿងម៉ាស៊ីន	-7832
▁ឈ្មោះសាសនាចក្រ	-7833
.)	-7834
ule	-7835
ចាក	-7836
សល់	-7837
ូឡា	-7838
face	-7839
ific	-7840
វកាស	-7841
▁(11	-7842
eting	-7843
រាង្គ	-7844
នឹងមាន	-7845
បុគ្គល	-7846
▁កន្សោម	-7847
▁ចម្រៀង	-7848
▁ឥរិយាប	-7849
▁ស្ថាប័ន	-7850
▁ស្រឡាញ់	-7851
▁ទីកន្លែង	-7852
▁ពួកគេបាន	-7853
▁ការជួញដូរ	-7854
▁សេដ្ឋកិច្ច	-7855
រួមបញ្ចូលទាំង	-7856
រាជធានីភ្នំពេញ	-7857
/08	-7858
:15	-7859
alv	-7860
ena	-7861
iro	-7862
ទៀន	-7863
ពពក	-7864
▁cs	-7865
▁cor	-7866
▁អាណ	-7867
ភ័ណ្ឌ	-7868
▁ASTM	-7869
▁អថេរ	-7870
ulture	-7871
▁google	-7872
▁សូមចុច	-7873
▁unicode	-7874
ព្រះបន្ទូល	-7875
ដែលល្អបំផុត	-7876
បើកដំណើរការ	-7877
▁ភាពជាក់លាក់	-7878
▁ម៉ាស៊ីនកាត់	-7879
ily	-7880
ona	-7881
str	-7882
▁()	-7883
▁FL	-7884
▁Od	-7885
▁តប	-7886
9001	-7887
ទ្វេ	-7888
▁RSS	-7889
/2017	-7890
eroon	-7891
កូរ៉េ	-7892
តាមីន	-7893
ាត្រី	-7894
▁High	-7895
ទ្ធភាព	-7896
នាំចូល	-7897
រូបរាង	-7898
▁ត្បូង	-7899
កំពង់ផែ	-7900
សំខាន់ៗ	-7901
ាកសំណល់	-7902
▁នាឡិកា	-7903
មកាលកម្ម	-7904
របស់យើង។	-7905
ផ្ទះល្វែង	-7906
estosterone	-7907
▁រូបិយប័ណ្ណ	-7908
ចុងក្រោយបំផុត	-7909
3-	-7910
7%	-7911
UD	-7912
UT	-7913
ណ៏	-7914
.25	-7915
ភូម	-7916
▁ថៃ	-7917
back	-7918
▁ហុង	-7919
catid	-7920
▁ចលនា	-7921
lamode	-7922
ត្រង្គ	-7923
សៀគ្វី	-7924
▁Start	-7925
▁ថ្លែង	-7926
▁ស្រង់	-7927
▁ខណៈពេល	-7928
▁ស្រដៀង	-7929
▁stepper	-7930
ព្រលានយន្តហោះ	-7931
",	-7932
:02	-7933
វេណ	-7934
ភាគី	-7935
ូរ៉ា	-7936
▁ជាន	-7937
▁ឈាន	-7938
▁បារ	-7939
indle	-7940
្ញាក់	-7941
▁ទ្វេ	-7942
▁ខ្សែក	-7943
▁អន្តរ	-7944
▁Rotary	-7945
untertop	-7946
ysluxury	-7947
ដែលត្រូវ	-7948
ប្រតិកម្ម	-7949
▁ហត្ថលេខា	-7950
AH	-7951
ុជ	-7952
ទោះ	-7953
លីវ	-7954
ហ៊ី	-7955
▁.;	-7956
▁MY	-7957
▁du	-7958
68"&	-7959
aper	-7960
ទ្បូ	-7961
វិថី	-7962
▁ន្ដ	-7963
ស្តែង	-7964
▁រដូវ	-7965
0000,0	-7966
eneral	-7967
▁emuls	-7968
▁ទូទាំង	-7969
សង្គ្រោះ	-7970
តាមរយៈការ	-7971
វិស្វកម្ម	-7972
▁Building	-7973
▁Misslamode	-7974
ពាក្យសម្ងាត់	-7975
▁ថ្ងៃបន្ទាប់ពី	-7976
nu	-7977
ibr	-7978
គ្ម	-7979
ជីប	-7980
ាលើ	-7981
▁CN	-7982
usic	-7983
▁was	-7984
▁Page	-7985
▁នាទី។	-7986
ខាងត្បូង	-7987
ខាងស្ដាំ	-7988
▁សម្រាំង	-7989
ផ្សេងទៀត។	-7990
▁ដឹកជញ្ជូន	-7991
ប្រាក់ចំណេញ	-7992
អេឡិចត្រូនិ	-7993
SA	-7994
UI	-7995
ពហ	-7996
.11	-7997
កំព	-7998
ថ្ន	-7999
វល់	-8000
▁(7	-8001
▁Er	-8002
▁my	-8003
▁បូ	-8004
udio	-8005
ខែមី	-8006
សាខា	-8007
ាប៊ី	-8008
ំទេច	-8009
▁140	-8010
គ្មិន	-8011
ព្រេង	-8012
russia	-8013
ខាងជើង	-8014
▁April	-8015
▁Store	-8016
▁បើអ្នក	-8017
▁វាគឺជា	-8018
wysluxury	-8019
▁ការបង្កើត	-8020
▁ទៅរថភ្លើង	-8021
ចូលដំណើរការ	-8022
មានអារម្មណ៍	-8023
▁តើអ្វីទៅជា	-8024
▁ការគ្រប់គ្រង	-8025
▁ផ្ទាំងរូបភាព	-8026
▁✔	-8027
CHO	-8028
េលី	-8029
▁Py	-8030
andy	-8031
▁ជីក	-8032
▁ធាន	-8033
▁អិល	-8034
▁ការត	-8035
បញ្ឈប់	-8036
▁ដីទ្បូ	-8037
varychin	-8038
ប្រៀបធៀប	-8039
▁Voltage	-8040
▁លាននាក់	-8041
បន្ទប់ទឹក	-8042
បានបញ្ចប់	-8043
▁លៃតម្រូវ	-8044
▁អាល្លឺម៉ង់	-8045
BO	-8046
១២	-8047
bul	-8048
ugh	-8049
គល់	-8050
ាទរ	-8051
▁EC	-8052
▁EX	-8053
▁Up	-8054
▁ne	-8055
ense	-8056
ស្រព	-8057
▁Per	-8058
Video	-8059
▁Pant	-8060
▁Russ	-8061
▁plus	-8062
▁take	-8063
Itemid	-8064
cambod	-8065
កែច្នៃ	-8066
វៀតណាម	-8067
▁Wells	-8068
▁ស្តាំ	-8069
ប្រវេសន៍	-8070
ឧបត្ថម្ភ	-8071
▁អ៊ិនកូដ	-8072
▁មួយចំនួន	-8073
រដ្ឋមន្ត្រី	-8074
▁ការវាយតម្លៃ	-8075
ម៉ាស៊ីនថតចម្លង	-8076
3%	-8077
.45	-8078
=12	-8079
usa	-8080
រៀល	-8081
▁NY	-8082
▁af	-8083
2016	-8084
\\\\	-8085
ther	-8086
ាភាព	-8087
▁Ass	-8088
▁Job	-8089
▁Mal	-8090
▁Not	-8091
កាតុង	-8092
ក្បឿង	-8093
ជំនុំ	-8094
ូវយ៉ក	-8095
▁Coun	-8096
▁Shar	-8097
▁acet	-8098
▁prot	-8099
▁នាវា	-8100
▁បង្គ	-8101
▁Georg	-8102
▁South	-8103
▁ជួរឈរ	-8104
ធំទូលាយ	-8105
▁ជាទូទៅ	-8106
ខ្ពស់ជាង	-8107
ដឹកនាំដោយ	-8108
បានបង្ហាញ	-8109
អ៊ុលត្រាស	-8110
▁counties	-8111
ដ៏ល្អបំផុត	-8112
▁California	-8113
▁មគ្គុទ្ទេស	-8114
PL	-8115
សឺ	-8116
:41	-8117
:48	-8118
:57	-8119
car	-8120
els	-8121
បនៃ	-8122
▁AT	-8123
▁ឡា	-8124
iant	-8125
itut	-8126
ប្លក	-8127
េត្រ	-8128
▁450	-8129
▁Mat	-8130
▁SQL	-8131
▁បឹង	-8132
▁សូដ	-8133
តែងតែ	-8134
លើសពី	-8135
▁Club	-8136
▁some	-8137
▁គណនា	-8138
▁គាំង	-8139
▁Clash	-8140
▁Stand	-8141
▁Video	-8142
▁អ័ក្ស	-8143
ង្ក្រាប	-8144
ដោយសារតែ	-8145
▁Ceramic	-8146
▁ឆបគ្នាជា	-8147
▁អធិប្បាយ	-8148
▁បច្ចេកទេស	-8149
អត្ថប្រយោជន៍	-8150
mpt	-8151
rey	-8152
ude	-8153
បាក	-8154
រុង	-8155
▁2.4	-8156
▁Cle	-8157
▁Rem	-8158
▁Sum	-8159
▁ភូម	-8160
ខ្សែក	-8161
ៀសវាង	-8162
▁Snap	-8163
▁អតីត	-8164
ailand	-8165
ខែមីនា	-8166
▁Intel	-8167
ធាតុដើម	-8168
▁polymer	-8169
▁បានទទួល	-8170
▁យល់ព្រម	-8171
▁ខណៈពេលដែល	-8172
កាន់តែច្រើន	-8173
▁អ្នកនៅទីនេះ	-8174
tte	-8175
ura	-8176
ារច	-8177
ិនៅ	-8178
▁62	-8179
thon	-8180
គ្រែ	-8181
វាជា	-8182
▁Ter	-8183
▁XML	-8184
▁យឺត	-8185
inder	-8186
យូអែល	-8187
លីពីន	-8188
ាករណ៍	-8189
▁find	-8190
▁គ្រូ	-8191
▁ម៉ូត	-8192
ទាក់ទាញ	-8193
វិញ្ញាណ	-8194
ំនូសតាង	-8195
▁Crypto	-8196
▁Pocket	-8197
▁កីឡាករ	-8198
លំនៅដ្ឋាន	-8199
▁ជំនួយការ	-8200
▁លិបិក្រម	-8201
▁នឹងត្រូវបាន	-8202
En	-8203
ko	-8204
លង	-8205
mrd	-8206
ple	-8207
ើពើ	-8208
▁lt	-8209
="20	-8210
▁***	-8211
▁dig	-8212
▁our	-8213
▁ទង់	-8214
▁បួន	-8215
អុបទិក	-8216
▁Image	-8217
▁peach	-8218
ucation	-8219
ព្រឹត្ត	-8220
▁ស្តីពី	-8221
▁Machine	-8222
▁វិចិត្រ	-8223
▁National	-8224
▁subjects	-8225
▁ពិភាក្សា	-8226
នរណាម្នាក់	-8227
57	-8228
ba	-8229
២៥	-8230
IFA	-8231
bsp	-8232
pan	-8233
▁Ha	-8234
jack	-8235
mptc	-8236
ores	-8237
▁CAS	-8238
▁Val	-8239
▁rec	-8240
ទំងន់	-8241
ភ្លៀង	-8242
ស្រោម	-8243
▁សេរី	-8244
mrdweb	-8245
online	-8246
វិទ្យុ	-8247
Payment	-8248
ការបរទេស	-8249
▁crusher	-8250
▁របស់ខ្លួន	-8251
▁អាកាសធាតុ	-8252
▁ឆបគ្នាជាខ្មៅ	-8253
ភាពជាអ្នកដឹកនាំ	-8254
ូខ	-8255
ថវិ	-8256
លឿង	-8257
្តិ	-8258
ីនធឺ	-8259
▁Bow	-8260
▁Rik	-8261
hPlus	-8262
inger	-8263
ចំណែក	-8264
មើលទៅ	-8265
ានុពល	-8266
▁3200	-8267
▁ឡាំង	-8268
ចង្កៀង	-8269
ថែរក្ស	-8270
ប្រផេះ	-8271
▁ចិញ្ច	-8272
▁សំណើម	-8273
▁ស្នាម	-8274
▁ជុំវិញ	-8275
▁ផ្ទៃដី	-8276
▁លោកបាន	-8277
រដូវក្តៅ	-8278
▁ច្រើនជាង	-8279
▁ទិដ្ឋាការ	-8280
▁ធ្លាក់ចុះ	-8281
ផ្ទៀងផ្ទាត់	-8282
មន្ទីរពេទ្យ	-8283
អេឡិចត្រូនិក	-8284
▁ឧបត្ថម្ភដោយ	-8285
▁ធ្វើឱ្យទាន់សម័យ	-8286
GS	-8287
:42	-8288
ញ័រ	-8289
▁89	-8290
▁Cr	-8291
▁KW	-8292
▁if	-8293
បអរស	-8294
▁លីន	-8295
ograp	-8296
គ្រោង	-8297
▁show	-8298
▁ហ្វ្រ	-8299
ៈសំខាន់	-8300
ទិដ្ឋភាព	-8301
ព្វកិច្ច	-8302
▁រុស្ស៊ី	-8303
▁បន្ទប់ទឹក	-8304
ម្ចាស់សៀវភៅ	-8305
សំលៀកបំពាក់	-8306
▁JavaScript	-8307
02	-8308
EY	-8309
IV	-8310
.15	-8311
:49	-8312
:54	-8313
bus	-8314
col	-8315
udd	-8316
ven	-8317
ធ្ន	-8318
ាមី	-8319
lode	-8320
ural	-8321
គីឡូ	-8322
សាំង	-8323
▁She	-8324
▁Sur	-8325
▁set	-8326
="0.2	-8327
គ្រាម	-8328
សន្ទះ	-8329
▁More	-8330
សៀមរាប	-8331
▁ត្រៀម	-8332
▁វិស្វ	-8333
▁បំបាត់	-8334
▁ទេសចរណ៍	-8335
ស៊ើបអង្កេត	-8336
ទទួលខុសត្រូវ	-8337
▁ទូរស័ព្ទលេខ	-8338
▁បញ្ចុះតម្លៃ	-8339
-40	-8340
:06	-8341
មហា	-8342
សក់	-8343
▁ទំ	-8344
▁បំ	-8345
ends	-8346
កាក់	-8347
ពួកគ	-8348
▁128	-8349
▁BKK	-8350
ើយ៉ាង	-8351
▁Main	-8352
▁Wing	-8353
បិទបើក	-8354
▁COVID	-8355
▁បរិបទ	-8356
សាលារៀន	-8357
▁យ៉ូហាន	-8358
▁នៅក្រោម	-8359
▁ថ្ងៃសៅរ៍	-8360
KCharselect	-8361
▁សេចក្តីជូនដំណឹង	-8362
,%	-8363
.95	-8364
ុរស	-8365
▁46	-8366
▁Ps	-8367
ican	-8368
ជ្រៅ	-8369
ាតង់	-8370
utter	-8371
ាងសង់	-8372
▁86-5	-8373
▁Auto	-8374
▁West	-8375
ទង្គិច	-8376
▁ជាដើម	-8377
ផ្ទះបាយ	-8378
ាប្រទេស	-8379
▁ទុកឱ្យ	-8380
cameroon	-8381
ឈានមុខគេ	-8382
▁Gallery	-8383
ោប្រវេសន៍	-8384
រក្សាសិទ្ធ	-8385
សម្របសម្រួល	-8386
យ៉ាងងាយស្រួល	-8387
▁ក្រុងស៊ាងហៃ	-8388
ដើម្បីធ្វើឱ្យ	-8389
As	-8390
ឹន	-8391
▁ឯ	-8392
/04	-8393
េសក	-8394
▁HS	-8395
▁bl	-8396
▁Ont	-8397
▁Ref	-8398
▁SMS	-8399
▁ខេម	-8400
opete	-8401
redit	-8402
គ្រឹះ	-8403
▁back	-8404
greece	-8405
▁Please	-8406
▁ឆ្នាំ។	-8407
▁យើងអាច	-8408
ខួរក្បាល	-8409
organizer	-8410
▁បំពង់ដែក	-8411
លានដុល្លារ	-8412
▁Changzhou	-8413
បានចាប់ផ្តើម	-8414
BR	-8415
យោ	-8416
Bet	-8417
hol	-8418
ភីយ	-8419
ាក៏	-8420
ាធរ	-8421
▁ចំ	-8422
▁Hat	-8423
ក្សរក	-8424
ession	-8425
កាស៊ីណ	-8426
ជាទូទៅ	-8427
▁បុរាណ	-8428
▁វេទិក	-8429
artment	-8430
ទាំងនោះ	-8431
អង្គភាព	-8432
▁ប៉ុន្ត	-8433
▁សំណាញ់	-8434
▁គ្រួសារ	-8435
▁សិល្បករ	-8436
▁សុពលភាព	-8437
▁ដូចម្តេច	-8438
រីករាយជាមួយ	-8439
មន្ទីរពិសោធន៍	-8440
HZ	-8441
kW	-8442
eat	-8443
elf	-8444
ខេម	-8445
គណន	-8446
ចៀម	-8447
នៅឯ	-8448
អាណ	-8449
▁76	-8450
▁92	-8451
▁GM	-8452
▁so	-8453
ning	-8454
ិស្ដ	-8455
▁សេវ	-8456
ចិត្ដ	-8457
ុយអែត	-8458
▁Kmail	-8459
▁North	-8460
ម្លាភាព	-8461
រីរាង្គ	-8462
ស្ថានីយ	-8463
▁ការជូន	-8464
▁ទំនាក់	-8465
▁បង្រៀន	-8466
▁ខាងក្រៅ	-8467
▁អង្គភាព	-8468
▁ថ្ងៃសុក្រ	-8469
▁ទិនានុប្បវត្តិ	-8470
:46	-8471
សាខ	-8472
▁អន	-8473
ពន្ល	-8474
ោនធី	-8475
▁នរណា	-8476
ស្តាល់	-8477
ិស្ឋាន	-8478
▁ទិសដៅ	-8479
,000,000	-8480
▁មិនទាន់	-8481
មិត្តភក្តិ	-8482
ស្រទាប់ពហុ	-8483
▁កម្លាំងបង្វិល	-8484
ផ្សាយបន្តផ្ទាល់	-8485
២២	-8486
▁≥	-8487
.08	-8488
:12	-8489
add	-8490
នាវ	-8491
ូកា	-8492
▁8.	-8493
▁RO	-8494
ប៊ុល	-8495
្ដ្រ	-8496
▁Get	-8497
email	-8498
ផ្កាយ	-8499
▁....	-8500
▁4000	-8501
▁word	-8502
▁work	-8503
▁រវល់	-8504
ជាដៃគូ	-8505
សង្ឃឹម	-8506
ការកំណត់	-8507
រុករករ៉ែ	-8508
▁Michael	-8509
▁អាប់ភ្ល	-8510
▁អ៊ីតាលី	-8511
▁បរិក្ខារ	-8512
▁អ្នកឈ្នះ	-8513
អត្តសញ្ញាណ	-8514
អូស្រ្តាលី	-8515
សត្វចិញ្ចឹម	-8516
▁ឈ្មោះផលិតផល	-8517
ដែលមានមូលដ្ឋាន	-8518
PY	-8519
VAC	-8520
cop	-8521
irc	-8522
ups	-8523
ខ្ន	-8524
ញ៉ា	-8525
មោល	-8526
▁SC	-8527
ersh	-8528
oday	-8529
asaki	-8530
hanou	-8531
ាបាល់	-8532
▁តារា	-8533
បេះដូង	-8534
▁ក្តារ	-8535
▁បន្សំ	-8536
▁សិក្ស	-8537
▁កម្មករ	-8538
▁ម៉ូទ័រ	-8539
បូមបេតុង	-8540
▁Stencils	-8541
▁ខាងក្នុង	-8542
ប្រូតេអ៊ីន	-8543
gy	-8544
vl	-8545
១៥	-8546
220	-8547
2020	-8548
umin	-8549
weet	-8550
ិយោជ	-8551
ីក្រ	-8552
្រាស	-8553
▁Day	-8554
▁Hel	-8555
▁nan	-8556
▁កាប	-8557
ាលដាល	-8558
▁SARS	-8559
▁user	-8560
▁ត្រូ	-8561
▁ផ្តើ	-8562
បានយូរ	-8563
បំបាត់	-8564
ៀកពាក់	-8565
▁depart	-8566
▁កុម្ភះ	-8567
▁បានធ្វើ	-8568
▁រៀងរាល់	-8569
ជាន់ខ្ពស់	-8570
▁ភាគច្រើន	-8571
▁អនុសាសន៍	-8572
▁អនុបណ្ឌិត	-8573
ន្តោប្រវេសន៍	-8574
LE	-8575
PF	-8576
★★	-8577
.04	-8578
ora	-8579
ton	-8580
កោត	-8581
ជ្ឈ	-8582
លើម	-8583
▁MC	-8584
▁dn	-8585
2015	-8586
heel	-8587
ient	-8588
rade	-8589
show	-8590
ួលេខ	-8591
េរៀន	-8592
័គ្រ	-8593
khmer	-8594
urity	-8595
ចំការ	-8596
▁ទៅជា	-8597
ស្រាប់	-8598
▁europ	-8599
▁តែមួយ	-8600
▁August	-8601
▁កាន់តែ	-8602
ណីយដ្ឋាន	-8603
យានដ្ឋាន	-8604
▁Sihanou	-8605
oundation	-8606
ជាមួយអ្នក	-8607
▁ការរៀបចំ	-8608
▁ដោយគ្មាន	-8609
do	-8610
ze	-8611
:16	-8612
owe	-8613
ឡែក	-8614
bert	-8615
ween	-8616
មកថា	-8617
▁1.8	-8618
▁Soc	-8619
▁ចោល	-8620
ស្តុក	-8621
▁Mate	-8622
▁form	-8623
▁វីឡា	-8624
ential	-8625
lodeal	-8626
ឈានដល់	-8627
▁Adobe	-8628
▁Saint	-8629
▁វេជ្ជ	-8630
ស្រលាញ់	-8631
▁search	-8632
▁ម៉ាថាយ	-8633
ប្រកបដោយ	-8634
▁អាទិត្យ	-8635
ថ្ងៃសុក្រ	-8636
សាជីវកម្ម	-8637
▁ខ្ញុំនឹង	-8638
▁countertop	-8639
▁ខ្សែសង្វាក់	-8640
▁វិធីសាស្រ្ត	-8641
▁វិទ្យាសាស្រ្ត	-8642
អាចត្រូវបានប្ដូរ	-8643
HD	-8644
rpm	-8645
៊ីស	-8646
▁($	-8647
▁.:	-8648
▁53	-8649
▁UK	-8650
▁Opp	-8651
▁ថង់	-8652
▁ស្ង	-8653
attoo	-8654
ports	-8655
ល្បាញ	-8656
▁Coil	-8657
នឹងការ	-8658
▁Brand	-8659
▁Press	-8660
េសកកម្ម	-8661
ោះឆ្នោត	-8662
▁Virgin	-8663
▁ខ្ទាស់	-8664
▁គួរឱ្យ	-8665
▁វៀតណាម	-8666
ការទូទាត់	-8667
គោលនយោបាយ	-8668
▁Internet	-8669
ផ្លាស់ប្ដូរ	-8670
JS	-8671
etr	-8672
fox	-8673
ចរច	-8674
ម្ក	-8675
▁Ok	-8676
2019	-8677
acth	-8678
ongt	-8679
ចំណង	-8680
្អឹង	-8681
▁Fre	-8682
▁Kal	-8683
▁Mil	-8684
▁get	-8685
athap	-8686
proof	-8687
ជំនន់	-8688
ន្ធនៈ	-8689
ឡើងទៅ	-8690
▁2003	-8691
▁ECHO	-8692
▁វប្ប	-8693
និងបាន	-8694
មីក្រូ	-8695
ហ្គាល់	-8696
▁Green	-8697
▁Jiang	-8698
▁តើមាន	-8699
ខ្ញុំនៅ	-8700
▁inside	-8701
province	-8702
▁ស្ទ្រីម	-8703
តំណភ្ជាប់	-8704
ក្នុងតំបន់	-8705
ស្រទាប់ពហុជីប	-8706
▁អ្នកគ្រប់គ្រង	-8707
03	-8708
@}	-8709
ny	-8710
ខំ	-8711
110	-8712
:03	-8713
bit	-8714
មិញ	-8715
▁Qt	-8716
Time	-8717
utes	-8718
ង្ខំ	-8719
សំបក	-8720
ាឡុក	-8721
▁5.5	-8722
▁{@}	-8723
▁បោក	-8724
/2016	-8725
ophan	-8726
▁forg	-8727
ទំហំធំ	-8728
សម្ដែង	-8729
▁Speed	-8730
▁ដដែលៗ	-8731
itation	-8732
▁សម្រង់	-8733
athapana	-8734
▁Ontario	-8735
▁និម្មិត	-8736
នៃទីក្រុង	-8737
▁ចំនួនមើល	-8738
ជឿទុកចិត្ត	-8739
▁បិទភ្ជាប់	-8740
▁ប្រសិទ្ធិភាព	-8741
ើយ៉ាងទូលំទូលាយ	-8742
.05	-8743
ilm	-8744
uit	-8745
ទ័ព	-8746
ធើណ	-8747
ូតា	-8748
▁ht	-8749
▁(16	-8750
▁Pal	-8751
ថ្នេរ	-8752
▁គួរតែ	-8753
▁ឆ្លាត	-8754
▁អាគារ	-8755
camnews	-8756
▁មាត្រា	-8757
មានតម្លៃ	-8758
▁ក្ដារចុច	-8759
▁ផ្នែករឹង	-8760
▁ផ្លែប៉ោម	-8761
អូស្ត្រាលី	-8762
▁គ្រោងការណ៍	-8763
▁វ៉ាស៊ីនតោន	-8764
▁ក្រាមប្រាក់	-8765
▁ត្រូវបានប្រើ	-8766
សេចក្តីអធិប្បាយ	-8767
▁កិច្ចព្រមព្រៀង	-8768
្ឈ	-8769
:08	-8770
tur	-8771
ចោទ	-8772
រ៉ែ	-8773
អភិ	-8774
▁56	-8775
▁68	-8776
▁Ev	-8777
Cont	-8778
ador	-8779
ភីយូ	-8780
រ៉ូប	-8781
▁ATM	-8782
▁សុំ	-8783
លំហូរ	-8784
▁Tian	-8785
▁Tour	-8786
ចូលរៀន	-8787
និយាយថ	-8788
ដល់អ្នក	-8789
▁ឬច្រើន	-8790
▁ប៉ះពាល់	-8791
ខ្សែអក្សរ	-8792
រុក្ខជាតិ	-8793
▁Φ	-8794
2.1	-8795
203	-8796
:52	-8797
bum	-8798
ios	-8799
ធីក	-8800
73"&	-8801
ahoo	-8802
▁(15	-8803
▁Kaw	-8804
▁tab	-8805
▁គែម	-8806
▁គំរ	-8807
▁រោគ	-8808
ample	-8809
ក្រិត	-8810
ខ្លាច	-8811
ង្ហើម	-8812
ហេតុប	-8813
ាយកូន	-8814
▁MIME	-8815
kville	-8816
កាហ្វេ	-8817
▁lamin	-8818
▁កម្រង	-8819
បអរសាទរ	-8820
ផ្ទៃពោះ	-8821
វត្តមាន	-8822
acthacks	-8823
រោមភ្នែក	-8824
▁គាត់បាន	-8825
▁យ៉ាម៉ាហ	-8826
▁បូមបេតុង	-8827
▁ព្រះអង្គ	-8828
▁ម៉ូលេគុល	-8829
▁ឆ្នាំ២០១៩	-8830
VA	-8831
ឡាយ	-8832
onom	-8833
ឋិតិ	-8834
ស្ករ	-8835
ួកគី	-8836
▁IMAP	-8837
▁ប្តូ	-8838
▁ម៉ូដ	-8839
យើងនឹង	-8840
▁និងជា	-8841
▁ប្រុស	-8842
▁number	-8843
▁អភិបាល	-8844
▁message	-8845
▁ប្រេកង់	-8846
ចនានុក្រម	-8847
▁សាំយូអែល	-8848
▁សំឡេងទីក្រុង	-8849
▁Sihanoukville	-8850
9%	-8851
GP	-8852
Box	-8853
▁LD	-8854
ថក្រ	-8855
▁Jum	-8856
usion	-8857
ណ្តុរ	-8858
ត្បាញ	-8859
▁ច្ចេ	-8860
▁ពិភព	-8861
ព្រំដែន	-8862
▁stitch	-8863
▁បំពាក់	-8864
ក្មេងលេង	-8865
▁Pantone	-8866
▁ការទូទាត់	-8867
▁Putzmeister	-8868
▁វិធីសាស្ត្រ	-8869
▁ពាក្យសម្ងាត់	-8870
២៤	-8871
-36	-8872
por	-8873
កុំ	-8874
▁MD	-8875
▁RC	-8876
▁៥០	-8877
aria	-8878
inal	-8879
ries	-8880
រ៉ុង	-8881
អេកូ	-8882
▁Dig	-8883
ទន្លេ	-8884
នៅតាម	-8885
▁Sund	-8886
ការលក់	-8887
ឃ្លាំង	-8888
ference	-8889
ក្រោមដី	-8890
តន្រ្តី	-8891
▁តុបតែង	-8892
ប្រហែលជា	-8893
ផ្គូផ្គង	-8894
▁Bearing	-8895
▁បានប្រើ	-8896
▁រាជធានី	-8897
▁អ្នកកាន់	-8898
សម្រេចចិត្ត	-8899
ផ្ដល់អនុសាសន៍	-8900
▁ផលិតផលដាក់ស្លាក	-8901
kn	-8902
ទា	-8903
-14	-8904
ANG	-8905
ban	-8906
bps	-8907
roy	-8908
ចៀក	-8909
តាន	-8910
មេក	-8911
ៃយ៍	-8912
▁TI	-8913
▁កំ	-8914
rush	-8915
ugin	-8916
uter	-8917
ក្រង	-8918
ទីបី	-8919
▁1.3	-8920
▁Xin	-8921
▁រៀប	-8922
white	-8923
ទីពីរ	-8924
ស្នាម	-8925
េស៊ីល	-8926
▁រំលឹក	-8927
ectures	-8928
ireless	-8929
បងប្អូន	-8930
ដាសកាតុង	-8931
ច្រើនបំផុត	-8932
▁QShortcut	-8933
បរិភោគអាហារ	-8934
▁Foundation	-8935
▁សំណួរណាមួយ	-8936
ព្រះជាម្ចាស់	-8937
▁prefectures	-8938
▁លេខទូរស័ព្ទ	-8939
▁ចិនមានទីក្រុង	-8940
តុ	-8941
្ផ	-8942
:58	-8943
ste	-8944
កសិ	-8945
ឆេះ	-8946
អូប	-8947
▁AN	-8948
▁Af	-8949
▁SY	-8950
="15	-8951
រលាក	-8952
▁but	-8953
aijan	-8954
ច្រៀង	-8955
ដ្រាយ	-8956
ន្យារ	-8957
ម្បៀត	-8958
ស្មាញ	-8959
▁Alex	-8960
▁mail	-8961
▁ចាត់	-8962
munity	-8963
ចង់បាន	-8964
ចម្រើន	-8965
▁share	-8966
្លាស្មា	-8967
▁រង្វង់	-8968
erbaijan	-8969
▁តុលាការ	-8970
លេខសម្គាល់	-8971
▁ការបង្ហាញ	-8972
ដូច្នេះនៅលើ	-8973
TH	-8974
TR	-8975
cs	-8976
.02	-8977
:10	-8978
hor	-8979
គូស	-8980
ងូត	-8981
វាច	-8982
២០០	-8983
▁tw	-8984
▁សៅ	-8985
ogen	-8986
ិសាស	-8987
ូបយក	-8988
▁0.3	-8989
older	-8990
ណ្ឋាន	-8991
ផែនដី	-8992
សហការ	-8993
▁ត្តិ	-8994
ឥន្ធនៈ	-8995
ូនេស៊ី	-8996
▁20000	-8997
▁សុក្រ	-8998
យល់ព្រម	-8999
▁ចូលអាន	-9000
ដែលខ្ញុំ	-9001
លេងហ្គេម	-9002
▁រ៉ោតទ័រ	-9003
▁អត្ថបទមុន	-9004
គ្មានដែនកំណត់	-9005
ប្រតិបត្ដិការ	-9006
▁កម្មវិធីបញ្ជា	-9007
▁លក្ខណៈសម្បត្តិ	-9008
iy	-9009
ន៏	-9010
dom	-9011
erm	-9012
ជីក	-9013
វិក	-9014
▁FC	-9015
▁MA	-9016
▁មន	-9017
-300	-9018
ធ្លី	-9019
▁280	-9020
▁8.1	-9021
▁999	-9022
▁PRO	-9023
ភ្លេច	-9024
▁Serv	-9025
▁គ្រង	-9026
នីមួយៗ	-9027
▁ផ្ទុយ	-9028
ថ្មីនិង	-9029
ទាំងអស់។	-9030
អ៊ីសូឡង់	-9031
▁Rikoooo	-9032
▁Ministry	-9033
បន្ថែមអំពី	-9034
ការធ្វើតេស្ត	-9035
គ្រឿងម៉ាស៊ីន	-9036
វេជ្ជសាស្រ្ត	-9037
MG	-9038
បា	-9039
COM	-9040
pvl	-9041
vel	-9042
ាធិ	-9043
▁59	-9044
▁RE	-9045
cais	-9046
ដឹងថ	-9047
▁រៀង	-9048
ឡុងដ៍	-9049
change	-9050
ជំនាន់	-9051
ថក្រោះ	-9052
ហិរញ្ញ	-9053
▁Bhpvl	-9054
បានធ្វើ	-9055
ពាណិជ្ជ	-9056
▁Direct	-9057
▁keyword	-9058
▁លោកអ្នក	-9059
formation	-9060
▁ធម្មជាតិ	-9061
ភាពងាយស្រួល	-9062
;/	-9063
SE	-9064
hi	-9065
បែ	-9066
▁q	-9067
410	-9068
:18	-9069
los	-9070
oot	-9071
rud	-9072
ដុង	-9073
▁Fr	-9074
▁ពល	-9075
aire	-9076
plor	-9077
▁Nok	-9078
Point	-9079
fault	-9080
គ្នារ	-9081
ប្រឈម	-9082
សំរាម	-9083
▁កម្រ	-9084
▁ដាច់	-9085
▁ពន្ធ	-9086
ជាថ្មី	-9087
▁2017,	-9088
eration	-9089
▁Kopete	-9090
▁កុងសូល	-9091
នៅអឺរ៉ុប	-9092
ភាគល្អិត	-9093
▁November	-9094
▁ការអនុវត្ត	-9095
▁សំឡេងរោទិ៍	-9096
Al	-9097
24.	-9098
▁Kr	-9099
▁mm	-9100
▁កូ	-9101
site	-9102
ម៉ាញ	-9103
ុភាព	-9104
▁Kak	-9105
▁Tri	-9106
▁ខូច	-9107
▁អប់	-9108
="1.9	-9109
aling	-9110
anner	-9111
រកមើល	-9112
អាគារ	-9113
ឥតគិត	-9114
▁Fres	-9115
▁អត្ថ	-9116
បារម្ភ	-9117
អេសអេស	-9118
▁ស៊ីធី	-9119
ប្រពៃណី	-9120
ថ្នាក់ទី	-9121
អេស្ប៉ាញ	-9122
▁កំពង់ផែ	-9123
▁ព័ត៍មាន	-9124
▁សាធារណៈ	-9125
លើកកម្ពស់	-9126
▁ផ្នែកទន់	-9127
នៅជិតខ្ញុំ	-9128
ហេតុបណ្ដាញ	-9129
▁អាប់ភ្លេត	-9130
រក្សាសិទ្ធិ	-9131
▁គ្រាប់បាល់	-9132
▁departments	-9133
pu	-9134
ទះ	-9135
ោភ	-9136
Man	-9137
▁TN	-9138
▁អុ	-9139
2000	-9140
file	-9141
ាឡូក	-9142
▁ងារ	-9143
="1.7	-9144
អត្រា	-9145
ឹងប្រ	-9146
▁Land	-9147
▁edfa	-9148
▁កុងត	-9149
▁គីមី	-9150
▁ព្រៃ	-9151
onesia	-9152
បកប្រែ	-9153
ពិន្ទុ	-9154
▁Fiber	-9155
▁Jizer	-9156
បាត់ដំបង	-9157
បោះឆ្នោត	-9158
▁Express	-9159
ម្ហូបអាហារ	-9160
បន្ទាន់សម័យ	-9161
MI	-9162
ка	-9163
:04	-9164
គេរ	-9165
▁ហ៊	-9166
arch	-9167
ugal	-9168
េទិច	-9169
▁(24	-9170
▁Cat	-9171
▁Gib	-9172
▁Kol	-9173
▁Rec	-9174
▁sec	-9175
="1.4	-9176
="2.8	-9177
ានៅលើ	-9178
▁Amer	-9179
itcoin	-9180
ភ្ញាក់	-9181
▁កូរ៉េ	-9182
▁កៅស៊ូ	-9183
▁គ្រោះ	-9184
vietnam	-9185
ស្តីការ	-9186
ស្និទ្ធ	-9187
ឹងប្រែង	-9188
▁រាងកាយ	-9189
សមាសធាតុ	-9190
▁ការផលិត	-9191
រចនាប័ទ្ម	-9192
▁ទឹកអាស៊ីត	-9193
▁ខ្សែស្រឡាយ	-9194
ផ្គត់ផ្គង់ថាមពល	-9195
MX	-9196
ខូ	-9197
ឈឺ	-9198
-13	-9199
-26	-9200
9"&	-9201
:17	-9202
cil	-9203
dam	-9204
hem	-9205
oil	-9206
▁Wh	-9207
shan	-9208
េក្ខ	-9209
▁CBD	-9210
▁TCN	-9211
itain	-9212
ខ្សែរ	-9213
ឆ្លើយ	-9214
បន្សំ	-9215
▁Uber	-9216
▁year	-9217
▁ហ្គី	-9218
▁យោបល់ឬ	-9219
ាបត្យកម្ម	-9220
▁Kawasaki	-9221
▁ចូលចិត្ត	-9222
កត់សម្គាល់	-9223
▁នៅទីក្រុង	-9224
▁បង្កើតឡើង	-9225
▁រាល់ការណ៍	-9226
ប្រមូលផ្តុំ	-9227
យ៉ាងហោចណាស់	-9228
▁អេឡិចត្រូន	-9229
ការត្រួតពិនិត្យ	-9230
ja	-9231
%80	-9232
aul	-9233
oug	-9234
កែង	-9235
ival	-9236
ករណ៍	-9237
ីកែវ	-9238
ឺន័រ	-9239
ូសិន	-9240
េជ្ញ	-9241
▁How	-9242
imate	-9243
ប្រឡង	-9244
ពីយើង	-9245
ស៊ីឌី	-9246
ស្តាំ	-9247
ាំមើល	-9248
▁ballp	-9249
័យប័ត្រ	-9250
▁គណបក្ស	-9251
▁បរិយាយ	-9252
▁sonotro	-9253
▁នៅឆ្នាំ	-9254
ហាត់ប្រាណ	-9255
▁Inverter	-9256
▁korganizer	-9257
យុទ្ធសាស្រ្ត	-9258
▁ក្រុមការងារ	-9259
ារចនាសម្ព័ន្ធ	-9260
.85	-9261
125	-9262
ACK	-9263
aut	-9264
eri	-9265
ទុន	-9266
នីង	-9267
html	-9268
oins	-9269
បូឌា	-9270
▁170	-9271
▁Kar	-9272
▁ឆ្ន	-9273
▁ថេរ	-9274
="2.1	-9275
▁2500	-9276
▁Will	-9277
សណ្ឋាន	-9278
ានៃការ	-9279
▁មកដល់	-9280
▁វានឹង	-9281
តុលាការ	-9282
ថ្មីមួយ	-9283
គោលការណ៍	-9284
▁ជានិច្ច	-9285
▁អង្សាសេ	-9286
ព្រហស្បតិ៍	-9287
ចូលរួមក្នុង	-9288
តាំងពិព័រណ៍	-9289
▁ផែនទីទំព័រ	-9290
អាពាហ៍ពិពាហ៍	-9291
▁ការបោះពុម្ព	-9292
វិទ្យាសាស្ត្រ	-9293
▁យោបល់ឬពិនិត្យ	-9294
HL	-9295
ធន	-9296
នំ	-9297
េឡ	-9298
-28	-9299
:56	-9300
New	-9301
ely	-9302
ាមក	-9303
ឹករ	-9304
▁ER	-9305
prop	-9306
សំណើ	-9307
អំពើ	-9308
▁2.2	-9309
▁die	-9310
▁ខោរ	-9311
▁រ៉ា	-9312
ក្តដា	-9313
គ្នា។	-9314
ស្ទើរ	-9315
▁FIFA	-9316
▁Fort	-9317
▁cutt	-9318
▁does	-9319
▁ខូគី	-9320
ឆបគ្នា	-9321
▁ទំនិញ	-9322
▁វាក្យ	-9323
នៅទីនោះ	-9324
▁ជាន់ទី	-9325
ដូចជាការ	-9326
▁ស្រោមដៃ	-9327
ឱ្យមានការ	-9328
▁សន្តិសុខ	-9329
▁ឬច្រើនណ៍	-9330
▁ballpoint	-9331
▁ប្រើថ្ងៃនេះ	-9332
▁យុទ្ធសាស្រ្ត	-9333
បស	-9334
អល	-9335
——	-9336
-86	-9337
:11	-9338
ida	-9339
តេជ	-9340
▁(9	-9341
▁FM	-9342
▁ឯង	-9343
ques	-9344
នាប់	-9345
ូខឹន	-9346
▁Act	-9347
▁Ben	-9348
▁កែង	-9349
▁៨៨១	-9350
ដំណាំ	-9351
▁data	-9352
▁ម៉ាស	-9353
String	-9354
ខែធ្នូ	-9355
បង្ហោះ	-9356
▁White	-9357
▁hydro	-9358
▁សមមូល	-9359
▁វេបសាយ	-9360
ដំណឹងល្អ	-9361
▁ផ្តល់នូវ	-9362
សំណុំបែបបទ	-9363
▁Blackjack	-9364
គ្រោះថ្នាក់	-9365
▁ក្នុងចំណោម	-9366
▁វចនានុក្រម	-9367
▁ខ្សែភាពយន្ត	-9368
ល្អប្រសើរជាងមុន	-9369
:1	-9370
Nm	-9371
For	-9372
Jar	-9373
▁AR	-9374
▁NO	-9375
▁SV	-9376
ធាវី	-9377
អប់រ	-9378
▁(50	-9379
▁dec	-9380
▁ជ័រ	-9381
▁លំហ	-9382
▁សួស	-9383
ambia	-9384
ចំណាំ	-9385
ជម្រះ	-9386
ិចទ័រ	-9387
▁Cash	-9388
ington	-9389
កម្មករ	-9390
ពីរបៀប	-9391
▁ចំណែក	-9392
▁ជ្រុង	-9393
▁ម៉ោង។	-9394
▁Iphone	-9395
▁ទ្រព្យ	-9396
▁បង្រួម	-9397
សន្និសីទ	-9398
▁ស៊ីភីយូ	-9399
▁official	-9400
បង្កើតឡើងដោយ	-9401
italyprovince	-9402
GA	-9403
PA	-9404
nd	-9405
CAD	-9406
ulf	-9407
uon	-9408
ឡាក់	-9409
▁(4)	-9410
="1.8	-9411
light	-9412
ទុក្ខ	-9413
ាបសួរ	-9414
▁Mail	-9415
▁Xbox	-9416
▁Crime	-9417
▁which	-9418
▁កំទេច	-9419
▁ខុនដូ	-9420
ថយក្រោយ	-9421
ថ្មម៉ាប	-9422
ស្តង់ដា	-9423
តង់ស្យុង	-9424
ស្ដង់ដារ	-9425
▁ត្រូវតែ	-9426
▁ផ្ទះបាយ	-9427
▁ប្រទេសចិន។	-9428
យ៉ាងឆាប់រហ័ស	-9429
▁ផលិតផលលម្អិត	-9430
▁ផែនទីគេហទំព័រ	-9431
▁សមាគមធាងត្នោត	-9432
/%	-9433
DB	-9434
hua	-9435
រ៉ា	-9436
▁WW	-9437
▁cm	-9438
▁70%	-9439
▁Bel	-9440
▁rem	-9441
▁ទេ។	-9442
ថតរូប	-9443
ផ្អើល	-9444
▁cent	-9445
▁ម៉ោន	-9446
ហុងកុង	-9447
▁ក្លឹប	-9448
▁សំណង់	-9449
▁កក្តដា	-9450
▁ស្លាប់	-9451
ក្តានុពល	-9452
គ្គុទ្ទេ	-9453
ឋិតិវន្ត	-9454
មួយឆ្នាំ	-9455
▁ជាពិសេស	-9456
▁អ្នកមាន	-9457
ូបិយប័ណ្ណ	-9458
▁modified	-9459
▁Contactor	-9460
▁សម្រាប់អ្នក	-9461
រោងម៉ាស៊ីនកិន	-9462
ра	-9463
.07	-9464
:13	-9465
pal	-9466
ជាវ	-9467
ដ្ត	-9468
▁sk	-9469
▁ដា	-9470
ands	-9471
qing	-9472
rite	-9473
ោសិក	-9474
▁105	-9475
▁212	-9476
▁est	-9477
▁ព័រ	-9478
▁សាយ	-9479
▁ហ្ក	-9480
▁១៩៩	-9481
great	-9482
គ្រិន	-9483
ចូលមក	-9484
▁២០២០	-9485
នេះនឹង	-9486
lectric	-9487
▁(+855)	-9488
▁Cheung	-9489
▁ស្រាប់	-9490
តាមខ្នាត	-9491
▁Kontact	-9492
▁Youtube	-9493
▁ដេរលំនាំ	-9494
ខ្ពស់បំផុត	-9495
ទូរស័ព្ទចល័ត	-9496
អន្តោប្រវេសន៍	-9497
DS	-9498
FX	-9499
NO	-9500
កូ	-9501
230	-9502
មុំ	-9503
▁២៩	-9504
ward	-9505
្រ្វ	-9506
▁(13	-9507
▁LLC	-9508
▁cre	-9509
works	-9510
ធឺណេត	-9511
រំពឹង	-9512
▁Game	-9513
▁help	-9514
ង្វាស់	-9515
▁Gibbs	-9516
▁Shift	-9517
▁there	-9518
▁ចុចលើ	-9519
▁ទីពីរ	-9520
▁ស្តង់	-9521
▁ឥណ្ឌា	-9522
▁System	-9523
ក្សរកាត់	-9524
ចំណាយពេល	-9525
័គ្រចិត្ត	-9526
▁ប្រអប់ខាង	-9527
ក្រុមហ៊ុនជួល	-9528
នៅក្នុងតំបន់	-9529
]:	-9530
za	-9531
繁體	-9532
.14	-9533
.24	-9534
gsm	-9535
កែវ	-9536
លីន	-9537
្នន	-9538
▁ភព	-9539
▁中文	-9540
aily	-9541
isco	-9542
rail	-9543
រ៉ូម	-9544
សព្វ	-9545
អនាម	-9546
▁(1,	-9547
▁102	-9548
▁2.7	-9549
▁AVX	-9550
▁HTC	-9551
▁eur	-9552
▁ចេះ	-9553
▁មែក	-9554
▁អង់	-9555
="1.3	-9556
="3.9	-9557
Store	-9558
ថានឹង	-9559
ទ្រីស	-9560
ូឌីយោ	-9561
▁0001	-9562
▁Brow	-9563
plorer	-9564
▁Azure	-9565
▁Cloud	-9566
▁Games	-9567
▁alloy	-9568
▁ច័ន្ទ	-9569
limited	-9570
ឆ្លាតវៃ	-9571
ម្មវិធី	-9572
▁សម្តេច	-9573
កិត្តិយស	-9574
▁Service	-9575
▁ទាំងមូល	-9576
▁ផ្កាឈូក	-9577
ថ្មីបំផុត	-9578
មគ្គុទ្ទេស	-9579
របស់មនុស្ស	-9580
ក្រុមគ្រួសារ	-9581
អ្នកផ្គត់ផ្គង់	-9582
▁ដែលអាចប្រើបាន	-9583
PM	-9584
CDD	-9585
ado	-9586
▁AL	-9587
▁Ta	-9588
pert	-9589
ង្ករ	-9590
តម្ក	-9591
អត្រ	-9592
ាក្ស	-9593
▁Ext	-9594
▁War	-9595
▁app	-9596
▁jum	-9597
="1.5	-9598
acter	-9599
cesst	-9600
▁Akon	-9601
▁Karn	-9602
▁Tech	-9603
▁អក្ខ	-9604
▁២០១៣	-9605
បខ័ណ្ឌ	-9606
▁ថតរូប	-9607
agement	-9608
▁Boeung	-9609
oinsight	-9610
តុល្យភាព	-9611
អាល់ប៊ុម	-9612
▁between	-9613
ដាក់ពាក្យ	-9614
ស្តង់ប៊ុល	-9615
▁នឹងត្រូវ	-9616
▁សូមទាក់ទង	-9617
▁ផ្នែកបន្ថែម	-9618
cesstoinsight	-9619
▁translations	-9620
▁ឧបករណ៍ភ្ជាប់	-9621
HH	-9622
NA	-9623
RI	-9624
-24	-9625
sar	-9626
េហ៍	-9627
ខ្វះ	-9628
បនឹង	-9629
▁Sal	-9630
▁ជាវ	-9631
យកចេញ	-9632
យៈពេល	-9633
ស្មោះ	-9634
▁Shop	-9635
edroom	-9636
▁Share	-9637
otropin	-9638
ោះពុម្ភ	-9639
▁ស្វាយ។	-9640
▁សាលារៀន	-9641
និងរោងចក្រ	-9642
ស្រេចចិត្ត	-9643
▁គ្របដណ្តប់	-9644
អាជ្ញាកណ្តាល	-9645
ក្រិតតាមខ្នាត	-9646
▁ម៉ាស៊ីនត្រជាក់	-9647
សម្រាប់ក្រុមហ៊ុន	-9648
/3	-9649
OK	-9650
xy	-9651
១៨	-9652
omi	-9653
កុល	-9654
ូបៃ	-9655
▁67	-9656
rice	-9657
ចង្ក	-9658
ូន្យ	-9659
ូអ៊ី	-9660
ៀរៀល	-9661
▁365	-9662
▁God	-9663
▁Lee	-9664
▁Str	-9665
▁កត់	-9666
▁ឃុំ	-9667
="2.9	-9668
iphon	-9669
ទៅដល់	-9670
▁Mont	-9671
▁TCDD	-9672
សាលភាព	-9673
សូមមើល	-9674
េត្រុស	-9675
▁នេះគឺ	-9676
▁បុព្វ	-9677
▁ផ្ដេក	-9678
▁ពេជ្រ	-9679
ជាពិសេស	-9680
អិលធីឌី	-9681
▁ចំណាត់	-9682
▁បឋមកថា	-9683
▁សម្រេច	-9684
Language	-9685
ពីចម្ងាយ	-9686
ព្រះអង្គ	-9687
អធិស្ឋាន	-9688
▁ទាំងពីរ	-9689
អាដាប់ធ័រ	-9690
▁គ្មានការ	-9691
បុរសម្នាក់	-9692
▁Materials	-9693
▁transposh	-9694
គ្រប់គ្រងលើ	-9695
ទូរគមនាគមន៍	-9696
▁ចំណាត់ថ្នាក់	-9697
▁Cryptocurrency	-9698
:,	-9699
ji	-9700
ហ៊	-9701
Ind	-9702
Kam	-9703
PGP	-9704
bia	-9705
tes	-9706
រុញ	-9707
ិនស	-9708
▁::	-9709
arth	-9710
rica	-9711
with	-9712
កលែង	-9713
តេជោ	-9714
ទុយោ	-9715
ាព្យ	-9716
ំពត់	-9717
▁650	-9718
▁Nan	-9719
▁col	-9720
▁ចំន	-9721
▁លោត	-9722
falls	-9723
▁Thom	-9724
▁page	-9725
ខាងលិច	-9726
សម្រង់	-9727
ឧទ្យាន	-9728
▁Cally	-9729
▁Sport	-9730
ocument	-9731
គ្គុទេស	-9732
ភេសជ្ជៈ	-9733
▁Design	-9734
▁កាណាដា	-9735
▁ឥតខ្សែ	-9736
ជំនួយការ	-9737
▁spindle	-9738
▁អាទិភាព	-9739
ប្លាស្ទិក	-9740
វាយប្រហារ	-9741
▁កាំរស្មី	-9742
▁ខួបលើកទី	-9743
កម្មសិទ្ធិ	-9744
វគ្គសិក្សា	-9745
ឧបករណ៍ចាប់	-9746
▁ទឹកប្រាក់	-9747
uz	-9748
.73	-9749
305	-9750
AND	-9751
BWC	-9752
▁NP	-9753
▁TG	-9754
type	-9755
▁Arm	-9756
▁VOA	-9757
▁val	-9758
▁នាម	-9759
endar	-9760
xiata	-9761
ង្កៀប	-9762
▁duct	-9763
▁used	-9764
alonia	-9765
ophana	-9766
វត្តន៍	-9767
អភិបាល	-9768
▁Angel	-9769
▁Piece	-9770
▁Trade	-9771
ប្រេកង់	-9772
សម្លាប់	-9773
សហព័ន្ធ	-9774
ហានិភ័យ	-9775
▁សៀគ្វី	-9776
▁Akonadi	-9777
▁Bophana	-9778
▁britain	-9779
ចុងក្រោយនៅលើ	-9780
▁ចំណុចប្រទាក់	-9781
បំពង់បង្ហូរទឹក	-9782
XX	-9783
bl	-9784
ASS	-9785
Spy	-9786
aid	-9787
eal	-9788
ឌីស	-9789
ូដា	-9790
ូប៉	-9791
▁4)	-9792
▁CM	-9793
▁DS	-9794
ងងឹត	-9795
តេរី	-9796
ាទីន	-9797
▁Wal	-9798
▁spr	-9799
▁ញែក	-9800
▁ទៀន	-9801
ជាដើម	-9802
ជារឿង	-9803
ស្វែង	-9804
អាជីព	-9805
អឺរ៉ូ	-9806
▁CSGO	-9807
▁Flex	-9808
▁gear	-9809
ចម្លើយ	-9810
ហោស្រព	-9811
▁Night	-9812
▁Nokia	-9813
▁កន្លង	-9814
ករាលដាល	-9815
សាក់រូប	-9816
អូឌីយ៉ូ	-9817
▁forging	-9818
▁ទូរសព្ទ	-9819
ក្មេងស្រី	-9820
ខ្លាឃ្មុំ	-9821
ទទួលយកបាន	-9822
▁ខ្នាតតូច	-9823
▁ជ្រាបទឹក	-9824
▁មធ្យោបាយ	-9825
▁ឧបករណ៍ចាប់	-9826
▁ឧបករណ៍ផ្ទុក	-9827
ចំនួនទឹកប្រាក់	-9828
▁គ្រឿងសង្ហារឹម	-9829
HT	-9830
ca	-9831
-21	-9832
ope	-9833
រៀប	-9834
▁Bi	-9835
2005	-9836
flon	-9837
ipal	-9838
look	-9839
ត្តា	-9840
▁Fer	-9841
▁equ	-9842
="1.6	-9843
Money	-9844
ialog	-9845
lands	-9846
ronic	-9847
veyor	-9848
រុទ្ធ	-9849
▁Aust	-9850
▁like	-9851
▁គ្រែ	-9852
▁ចាន់	-9853
ithuan	-9854
ព្រមាន	-9855
ៃវ៉ាន់	-9856
▁Colum	-9857
▁ថ្ងៃ។	-9858
▁ស្ថិតិ	-9859
នៃប្រទេស	-9860
ភស្តុតាង	-9861
▁SlotJar	-9862
▁ទៅក្នុង	-9863
▁ការសម្តែង	-9864
▁ការចាប់ផ្តើម	-9865
អ្នកប្រើប្រាស់	-9866
▁សូមស្វាគមន៍នៅ	-9867
▁accesstoinsight	-9868
/7	-9869
05	-9870
ns	-9871
តូ	-9872
acy	-9873
េយ៍	-9874
▁$2	-9875
▁=”	-9876
▁ab	-9877
2018	-9878
pers	-9879
rict	-9880
star	-9881
wear	-9882
▁225	-9883
▁320	-9884
▁4.5	-9885
▁Tan	-9886
▁ឆ្ក	-9887
="3.8	-9888
=\\\\	-9889
ories	-9890
ruary	-9891
ច្បារ	-9892
ឆ្ពោះ	-9893
វេទិក	-9894
សហភាព	-9895
ាស៊ូត	-9896
▁Card	-9897
▁នៅតែ	-9898
Pieces	-9899
នភ័ណ្ឌ	-9900
▁Nylon	-9901
▁ឆ្នោត	-9902
▁មណ្ឌល	-9903
▁Axiata	-9904
ប្រាកដថា	-9905
▁cutters	-9906
▁ductile	-9907
សិង្ហបុរី	-9908
▁ជំនួសថ្ម	-9909
▁សន្ទស្សន៍	-9910
ាប់អារម្មណ៍	-9911
▁លានដុល្លារ	-9912
ធ្វើការជាមួយ	-9913
យកចិត្តទុកដាក់	-9914
CE	-9915
០២	-9916
/05	-9917
CEL	-9918
EMA	-9919
iki	-9920
lan	-9921
var	-9922
កំហ	-9923
▁Tu	-9924
▁gt	-9925
▁sw	-9926
KING	-9927
ប្រា	-9928
មហាស	-9929
▁135	-9930
▁CFD	-9931
▁Die	-9932
▁Ham	-9933
▁ant	-9934
▁រុំ	-9935
Press	-9936
ស្រេច	-9937
▁2002	-9938
▁Tool	-9939
▁pack	-9940
ការស្ទ	-9941
▁Italy	-9942
▁March	-9943
▁Study	-9944
▁space	-9945
ទូរសព្ទ	-9946
រួមគ្នា	-9947
▁travel	-9948
▁អុកស៊ី	-9949
ស្បែកជើង	-9950
▁ក្នុងកា	-9951
▁បានដាក់	-9952
▁កាលវិភាគ	-9953
▁Copyright	-9954
▁ជារៀងរាល់	-9955
▁ប្រឆាំងនឹង	-9956
▁លើសពីនេះទៀត	-9957
ពន្លឺព្រះអាទិត្យ	-9958
ệt	-9959
134	-9960
nap	-9961
▁69	-9962
▁BL	-9963
ីហ្វ	-9964
▁0.6	-9965
▁KTM	-9966
▁alt	-9967
▁ឡាន	-9968
berry	-9969
exico	-9970
▁Blog	-9971
▁RFID	-9972
▁part	-9973
▁នានា	-9974
▁សម្ភ	-9975
សម្តែង	-9976
សម្លឹង	-9977
▁ចងចាំ	-9978
unction	-9979
នៅតំបន់	-9980
ប្បកម្ម	-9981
▁Karnar	-9982
ខ្ពស់និង	-9983
បាល់ទាត់	-9984
▁MacBook	-9985
▁ព្រីនធឺ	-9986
ចូលទៅកាន់	-9987
េខាងត្បូង	-9988
អាចប្រើបាន	-9989
▁Sathapana	-9990
មានប្រសិទ្ធិភាព	-9991
2-	-9992
4%	-9993
oxy	-9994
ខួប	-9995
ូប៊	-9996
▁PN	-9997
▁XM	-9998
▁២៨	-9999
ever	-10000
unes	-10001
េកផត	-10002
▁2.8	-10003
▁Rog	-10004
▁inc	-10005
▁ធ្ង	-10006
="1.2	-10007
ecial	-10008
ylene	-10009
គ្រូប	-10010
ជ្រុង	-10011
▁HTTP	-10012
▁Sany	-10013
▁វដ្ត	-10014
iction	-10015
ខាងកើត	-10016
▁ខោរឹប	-10017
ឯកឧត្តម	-10018
▁France	-10019
▁Pongee	-10020
▁Teflon	-10021
កូនប្រុស	-10022
▁Firefox	-10023
▁ឥរិយាបថ	-10024
▁ការណែនាំ	-10025
ប្រជាប្រិយ	-10026
សប្បាយរីករាយ	-10027
▁ជ្រើសជម្រើស	-10028
ខោ	-10029
gan	-10030
ita	-10031
តង់	-10032
ried	-10033
unch	-10034
បូជា	-10035
របួស	-10036
វដ្ត	-10037
សន្ធ	-10038
ស្សី	-10039
ហាត់	-10040
▁Leg	-10041
តវត្ស	-10042
ូម៉ាស	-10043
ូរបស់	-10044
▁Mart	-10045
▁Than	-10046
▁Việt	-10047
▁drip	-10048
▁hard	-10049
▁turn	-10050
Player	-10051
turkey	-10052
ទួលគោក	-10053
ិចារណា	-10054
▁Spain	-10055
▁©2005	-10056
ក្រីក្រ	-10057
▁online	-10058
▁ប្រមាណ	-10059
▁ភ្នាល់	-10060
▁មើលឃើញ	-10061
ពេញចិត្ត	-10062
▁OpenPGP	-10063
▁អារ៉ាប់	-10064
riculture	-10065
ស្លៀកពាក់	-10066
▁laminate	-10067
▁កិច្ចការ	-10068
▁ស្ដង់ដារ	-10069
របស់ប្រទេស	-10070
សារព័ត៌មាន	-10071
▁ក្នុងករណី	-10072
▁©2005-2018	-10073
▁translation	-10074
▁និងក្រុមហ៊ុន	-10075
ម៉ាស៊ីនត្រជាក់	-10076
GL	-10077
.12	-10078
ូលើ	-10079
្វា	-10080
▁សី	-10081
aker	-10082
▁1,0	-10083
▁3.2	-10084
▁ABS	-10085
▁GBP	-10086
▁Gar	-10087
▁JIS	-10088
▁Mid	-10089
▁sur	-10090
ethan	-10091
ision	-10092
ភាក្ស	-10093
▁Back	-10094
▁Link	-10095
▁True	-10096
▁ទន្ល	-10097
កែលម្អ	-10098
ជាតិនៃ	-10099
តាមការ	-10100
ស្ថាបន	-10101
ឡឺម៉ង់	-10102
▁Water	-10103
ទ្រនាប់	-10104
▁welded	-10105
▁ហេតុផល	-10106
បង្ហាញពី	-10107
សូម្បីតែ	-10108
▁ថ្ងៃពុធ	-10109
ជាក់ស្តែង	-10110
ដើម្បីជួយ	-10111
ប្រទេសចិន។	-10112
▁ដោយផ្ទាល់	-10113
▁ព្រះយេស៊ូ	-10114
▁បានបង្កើតឡើង	-10115
▁បំពង់បង្ហូរទឹក	-10116
lp	-10117
ា្	-10118
”,	-10119
▁У	-10120
/07	-10121
ATH	-10122
SQL	-10123
ili	-10124
rim	-10125
តែក	-10126
មីន	-10127
▁IB	-10128
angk	-10129
rill	-10130
vest	-10131
សន្ទ	-10132
ហ្វា	-10133
▁ser	-10134
▁កែវ	-10135
▁អាត	-10136
aijiu	-10137
aters	-10138
កំពង់	-10139
កំរិត	-10140
និងជា	-10141
ព្យួរ	-10142
ម្ងួត	-10143
ម្ជុល	-10144
▁game	-10145
raving	-10146
ត្តិនៃ	-10147
ពង្រឹង	-10148
សម្ពោធ	-10149
▁radio	-10150
▁ចំណោម	-10151
▁ទំនើប	-10152
▁ពិសោធ	-10153
អលង្ការ	-10154
▁លើកលែង	-10155
▁ផ្នែកទី	-10156
និទាឃរដូវ	-10157
នៃកម្មវិធី	-10158
▁Education	-10159
▁អាហ្វ្រិក	-10160
សង់ទីម៉ែត្រ	-10161
▁បច្ចេកវិទ្យ	-10162
▁កម្មវិធីជំនួយ	-10163
▁ដើម្បីទទួលបាន	-10164
IU	-10165
RS	-10166
▁‘	-10167
170	-10168
700	-10169
ols	-10170
តែល	-10171
វា។	-10172
▁Ky	-10173
▁Ur	-10174
▁ណ៍	-10175
▁ទង	-10176
%80%	-10177
iver	-10178
ober	-10179
កៅអី	-10180
ម្តៅ	-10181
▁Sep	-10182
▁Tex	-10183
▁enc	-10184
▁ខ្វ	-10185
▁រីក	-10186
▁អិម	-10187
enger	-10188
ខ្សោយ	-10189
ទៅហើយ	-10190
▁Hong	-10191
ដង្ហើម	-10192
លក់ដុំ	-10193
▁Metro	-10194
▁Multi	-10195
▁const	-10196
វេទមន្ត	-10197
▁corros	-10198
▁ទេសភាព	-10199
▁មិនឃើញ	-10200
ខ្ញុំមាន	-10201
ប្រជុំជន	-10202
ហេតុអ្វី	-10203
▁Council	-10204
▁Psiphon	-10205
▁khmeros	-10206
▁ការធានា	-10207
គ្គុទេសក៍	-10208
ល្បីល្បាញ	-10209
▁ទូរសារលេខ	-10210
▁ប្រចាំថ្ងៃ	-10211
▁ទស្សនាវដ្តី	-10212
180	-10213
oma	-10214
phy	-10215
ឌែល	-10216
ទំព	-10217
អិន	-10218
▁96	-10219
▁FA	-10220
anch	-10221
បញ្ជ	-10222
▁1.9	-10223
▁Bas	-10224
="0.8	-10225
Sales	-10226
aming	-10227
ience	-10228
ប៉ាន់	-10229
រចនាស	-10230
ាកបាទ	-10231
▁Hand	-10232
▁King	-10233
▁NEWS	-10234
▁mult	-10235
lement	-10236
ស្ពាន់	-10237
▁គ្រឹះ	-10238
▁ជម្ងឺ	-10239
▁ជម្រៅ	-10240
▁សំលេង	-10241
ការផលិត	-10242
ចំការមន	-10243
ភាពឯកជន	-10244
▁លក់ដុំ	-10245
ាចត្រង្គ	-10246
▁ទោះបីជា	-10247
▁វាជាការ	-10248
ទុយហ្គាល់	-10249
▁engraving	-10250
▁ព្រះវិហារ	-10251
▁ថ្ងៃអាទិត្យ	-10252
▁ធាតុក្រាហ្វិក	-10253
▁ដោយគ្រប់គ្រងលើ	-10254
ងាយស្រួលក្នុងការ	-10255
df	-10256
ីង	-10257
8.1	-10258
elo	-10259
rew	-10260
why	-10261
ប៉ៅ	-10262
ីកា	-10263
▁GT	-10264
▁UL	-10265
▁eu	-10266
ette	-10267
inue	-10268
▁4.7	-10269
▁Dan	-10270
▁GTA	-10271
▁Lou	-10272
▁Pip	-10273
▁Scr	-10274
▁Tom	-10275
▁uri	-10276
▁វែង	-10277
="3.1	-10278
តំឡើង	-10279
មាសទី	-10280
ិរភាព	-10281
▁មេតា	-10282
▁វត្ត	-10283
▁២០០៨	-10284
ភ្លាមៗ	-10285
▁វីនដូ	-10286
▁Crimea	-10287
▁extrud	-10288
នៅទូទាំង	-10289
សន្តិភាព	-10290
▁Control	-10291
ការភ្នាល់	-10292
▁February	-10293
▁ប្រតិកម្ម	-10294
▁អាគុយម៉ង់	-10295
▁រដ្ឋមន្រ្តី	-10296
ព្រះរាជាណាចក្រ	-10297
▁នាយករដ្ឋមន្ត្រី	-10298
osp	-10299
ពុះ	-10300
េនី	-10301
▁Of	-10302
▁li	-10303
▁៣១	-10304
ាចិន	-10305
▁Pet	-10306
▁ខ្ច	-10307
="3.0	-10308
pdate	-10309
spain	-10310
ក្វាង	-10311
វាបាន	-10312
ាសាក់	-10313
▁Sony	-10314
▁inst	-10315
▁serv	-10316
▁ត្រា	-10317
arques	-10318
zambia	-10319
កប្បាស	-10320
តួនាទី	-10321
ឱ្យបាន	-10322
▁Excel	-10323
ដកស្រង់	-10324
▁Region	-10325
លក់ទំនិញ	-10326
មគ្គុទ្ទេ	-10327
▁ការទាញយក	-10328
▁comarques	-10329
▁ដំណឹងល្អ៖	-10330
ocurrencies	-10331
▁Microfiber	-10332
▁ការតភ្ជាប់	-10333
▁សូមចែករំលែក	-10334
▁ចក្រភពអង់គ្លេស	-10335
▁›	-10336
Con	-10337
IFI	-10338
ems	-10339
uki	-10340
uro	-10341
ចេះ	-10342
ទីល	-10343
វឹង	-10344
ហាយ	-10345
ូបន	-10346
▁SL	-10347
ache	-10348
ople	-10349
ាមដៃ	-10350
ំលែង	-10351
▁(5)	-10352
▁0.8	-10353
▁មាត	-10354
▁សាខ	-10355
នេះជា	-10356
should	-10357
ងូតទឹក	-10358
ដូចគ្ន	-10359
អាចមាន	-10360
▁ធ្ងន់	-10361
▁សុខុន	-10362
កំពុងតែ	-10363
ង្រ្គោះ	-10364
តែងតាំង	-10365
យ៉ាងលឿន	-10366
▁ការអាន	-10367
សិក្សានៅ	-10368
▁Telecom	-10369
ធ្ងន់ធ្ងរ	-10370
ាណាព្យាបាល	-10371
▁លោកបណ្ឌិត	-10372
▁អូស្ត្រាលី	-10373
ប្រធានាធិបតី	-10374
▁គំនិតសាក់រូប	-10375
▁ប្រសិនបើឧបករណ៍	-10376
1%	-10377
FA	-10378
RE	-10379
UB	-10380
dr	-10381
sv	-10382
нс	-10383
័ក	-10384
.0%	-10385
Reg	-10386
aps	-10387
aya	-10388
med	-10389
nov	-10390
pad	-10391
put	-10392
▁Mi	-10393
▁០០	-10394
0059	-10395
ចលនា	-10396
អចិន	-10397
▁1.6	-10398
▁115	-10399
▁Ber	-10400
▁SSL	-10401
▁der	-10402
▁ចប់	-10403
▁ពពក	-10404
▁រើស	-10405
▁វិល	-10406
▁សិន	-10407
="0.0	-10408
babwe	-10409
ស្លឹក	-10410
▁6000	-10411
▁Cert	-10412
▁MYHH	-10413
▁over	-10414
Casino	-10415
គ្នេយ៍	-10416
ទល់នឹង	-10417
ិច្ចាគ	-10418
▁99.99	-10419
imbabwe	-10420
ជាមធ្យម	-10421
▁Baijiu	-10422
▁បូមទឹក	-10423
▁Schwing	-10424
▁ប្រាសាទ	-10425
▁សូម្បីតែ	-10426
▁ថ្ងៃអង្គារ	-10427
ដែលមានគុណភាព	-10428
▁និងប្រព័ន្ធ	-10429
▁ចុងក្រោយពីយើង	-10430
On	-10431
.19	-10432
/15	-10433
104	-10434
gma	-10435
win	-10436
ឆ្ម	-10437
នោម	-10438
ព័ន	-10439
ោសល	-10440
▁MB	-10441
▁gl	-10442
resp	-10443
ាបៀរ	-10444
▁see	-10445
▁យូរ	-10446
▁អូរ	-10447
0059:	-10448
="3.7	-10449
CELEX	-10450
abric	-10451
ducts	-10452
field	-10453
បញ្ឈរ	-10454
សាសនា	-10455
សូត្រ	-10456
អ័ព្វ	-10457
▁Gran	-10458
▁iPod	-10459
▁បញ្ញ	-10460
▁ពន្ល	-10461
hereum	-10462
▁32001	-10463
▁europa	-10464
ithuania	-10465
កាកសំណល់	-10466
ជាការពិត	-10467
▁Markets	-10468
▁Version	-10469
ចោទប្រកាន់	-10470
បុណ្យណូអែល	-10471
▁ថ្ងៃច័ន្ទ	-10472
គ្រប់ប្រភេទ	-10473
ភ្ញាក់ផ្អើល	-10474
▁ចូលទៅក្នុង	-10475
ធ្វើឱ្យទាន់សម័យ	-10476
AW	-10477
UP	-10478
fr	-10479
gg	-10480
iao	-10481
jin	-10482
តែរ	-10483
បោក	-10484
▁87	-10485
▁Di	-10486
▁Rou	-10487
▁នៅឯ	-10488
▁មួក	-10489
▁WiFi	-10490
▁also	-10491
ាមវន្ត	-10492
ា្ភារៈ	-10493
▁Phsar	-10494
▁Solom	-10495
▁other	-10496
▁short	-10497
តំលៃថោក	-10498
▁Oppbag	-10499
▁អាវយឺត	-10500
កិច្ចការ	-10501
ឆ្នាំមុន	-10502
ដកប្រាក់	-10503
▁កាតាឡុក	-10504
catalonia	-10505
ាក់ប្រហែល	-10506
▁protected	-10507
▁បានបរាជ័យ	-10508
▁អ៊ុយក្រែន	-10509
▁អ្នកទស្សនា	-10510
▁ការជំនួសថ្ម	-10511
មានព្រះបន្ទូល	-10512
ho	-10513
ុគ	-10514
cer	-10515
ទូច	-10516
▁5%	-10517
▁84	-10518
▁SW	-10519
Card	-10520
unic	-10521
ទៅរក	-10522
▁(%)	-10523
▁III	-10524
▁Pol	-10525
▁Saf	-10526
▁Sle	-10527
Rider	-10528
ertor	-10529
ង្ស័យ	-10530
ទ្រង់	-10531
វានឹង	-10532
▁free	-10533
▁html	-10534
▁រលឹម	-10535
ration	-10536
ដោយមិន	-10537
ត្រលប់	-10538
ហែលទឹក	-10539
▁កំណើត	-10540
▁ឆ្ងាយ	-10541
គ្រិស្ដ	-10542
ចំណងជើង	-10543
ម៉ាស៊ូត	-10544
▁Option	-10545
▁source	-10546
▁ធ្លាប់	-10547
▁ភ្លាមៗ	-10548
▁រួចហើយ	-10549
thailand	-10550
▁ក្រានីត	-10551
▁ethereum	-10552
azerbaijan	-10553
ការអភិវឌ្ឍ	-10554
ដែលទទួលបាន	-10555
▁អង្គចងចាំ	-10556
▁translated	-10557
សមាគមធាងត្នោត	-10558
ធ្វើឱ្យប្រសើរឡើង	-10559
nt	-10560
Cal	-10561
ដ្រ	-10562
ទូក	-10563
ន្ម	-10564
ភើប	-10565
រៀង	-10566
▁94	-10567
▁Jo	-10568
▁Ub	-10569
▁es	-10570
----	-10571
acle	-10572
engd	-10573
otal	-10574
ឃាត់	-10575
យីហោ	-10576
▁3.3	-10577
▁Don	-10578
▁Mor	-10579
▁NYE	-10580
▁Non	-10581
▁Sco	-10582
▁Set	-10583
▁លិច	-10584
="2.7	-10585
enoid	-10586
ridge	-10587
កាបោន	-10588
ក្រឹត	-10589
ដោះគោ	-10590
ស្រូវ	-10591
អ័ក្ស	-10592
ាតាំង	-10593
▁Hall	-10594
▁Rout	-10595
▁សាក់	-10596
ីស្ថាន	-10597
ជានិច្ច	-10598
យានយន្ត	-10599
អ្នកបាន	-10600
តាមផ្លូវ	-10601
▁យើងកំពុង	-10602
▁សិក្សានៅ	-10603
ប្រាក់ចំណូល	-10604
សំរាប់ភ្ញៀវ	-10605
▁នេះគឺជាការ	-10606
អ៊ីស្តង់ប៊ុល	-10607
.09	-10608
CDC	-10609
кра	-10610
ប៉ី	-10611
▁78	-10612
▁យូ	-10613
comm	-10614
ិតជា	-10615
▁BMW	-10616
សំអាង	-10617
▁(3.5	-10618
▁Conc	-10619
upload	-10620
កស្រាយ	-10621
ក្រមួន	-10622
េក្ខជន	-10623
▁ខ្សែរ	-10624
▁សាសនា	-10625
stanbul	-10626
ឈ្មោះថា	-10627
▁content	-10628
▁ផ្ញើសារ	-10629
អាកាសធាតុ	-10630
អាស្រ័យលើ	-10631
▁Business	-10632
▁December	-10633
▁ជាធម្មតា	-10634
▁មីលីលីត្រ	-10635
▁ក្លែងក្លាយ	-10636
ាយករដ្ឋមន្រ្តី	-10637
នៃសាកលវិទ្យាល័យ	-10638
")	-10639
TL	-10640
1"&	-10641
KDE	-10642
ads	-10643
agu	-10644
bed	-10645
lay	-10646
val	-10647
yan	-10648
តំរ	-10649
នាឡ	-10650
យ្យ	-10651
ហ្ម	-10652
▁CL	-10653
aber	-10654
come	-10655
rule	-10656
អត្ថ	-10657
ុកោណ	-10658
▁AAS	-10659
▁Pok	-10660
▁Ver	-10661
▁Vjs	-10662
▁ចាស	-10663
▁ភួយ	-10664
▁រាវ	-10665
Power	-10666
ilter	-10667
នាំយក	-10668
េកាំង	-10669
▁Sand	-10670
▁WIFI	-10671
▁requ	-10672
▁ឃ្លា	-10673
▁1,000	-10674
▁Zhong	-10675
▁ពីការ	-10676
▁លើកទី	-10677
▁វាមិន	-10678
▁ស្នូល	-10679
puertor	-10680
ទៀងទាត់	-10681
ប្រាសាទ	-10682
ព្រឹទ្ធ	-10683
▁តម្បៀត	-10684
▁ស្តាប់	-10685
▁Software	-10686
puertorico	-10687
ដើម្បីបង្កើត	-10688
▁ផ្សាយផ្ទាល់	-10689
▁សេចក្តីប្រកាស	-10690
ប៊ិចផ្សព្វផ្សាយ	-10691
CM	-10692
វន	-10693
៍ន	-10694
-80	-10695
112	-10696
iti	-10697
tic	-10698
ька	-10699
ទុង	-10700
ទើប	-10701
ធុន	-10702
ម្ផ	-10703
សុន	-10704
ូណា	-10705
▁Ko	-10706
▁bi	-10707
eden	-10708
eset	-10709
ណ្ណៈ	-10710
បារី	-10711
ារ៉េ	-10712
ាលោក	-10713
▁(6)	-10714
▁103	-10715
▁CAD	-10716
▁Fit	-10717
▁Lit	-10718
▁Mah	-10719
▁car	-10720
▁ចាក	-10721
▁អឿម	-10722
astic	-10723
ស្តារ	-10724
▁Укра	-10725
ardian	-10726
ត្រចៀក	-10727
▁ជ្រាប	-10728
showtop	-10729
រងគ្រោះ	-10730
▁ចង្អុល	-10731
▁ជីកាបៃ	-10732
rganizer	-10733
unicipal	-10734
ផ្សារដែក	-10735
▁Jackpot	-10736
▁រាប់អំបោះ	-10737
▁ទោះជាយ៉ាងណា	-10738
HI	-10739
ek	-10740
១៤	-10741
:19	-10742
:55	-10743
ងើប	-10744
សប់	-10745
ហាម	-10746
▁TO	-10747
camp	-10748
ឺប៉ី	-10749
▁15%	-10750
▁3/4	-10751
▁Lat	-10752
▁XXL	-10753
▁cav	-10754
▁par	-10755
="2.6	-10756
="3.2	-10757
istic	-10758
нська	-10759
ថាយើង	-10760
▁June	-10761
▁Park	-10762
▁appl	-10763
▁size	-10764
androl	-10765
arinet	-10766
ខែមករា	-10767
ប្បញ្ញ	-10768
ម្ផស្ស	-10769
រសជាតិ	-10770
ោទនភាព	-10771
▁ក្បួន	-10772
ailable	-10773
stRider	-10774
ខែកញ្ញា	-10775
enerator	-10776
▁centrif	-10777
▁ដេញថ្លៃ	-10778
▁សូដ្យូម	-10779
ធ្វើពីជ័រ	-10780
▁extruded	-10781
▁នៅប្រទេស	-10782
▁បានកំណត់	-10783
▁ផ្លូវការ	-10784
munication	-10785
ខ្សែសង្វាក់	-10786
វត្ថុធាតុដើម	-10787
ខួង	-10788
ណាន	-10789
តែន	-10790
▁Fu	-10791
idge	-10792
ផ្សា	-10793
រាវិ	-10794
▁Aud	-10795
▁ជក់	-10796
▁រ៉ូ	-10797
▁វិប	-10798
="2.2	-10799
azine	-10800
បុត្រ	-10801
អេហ្វ	-10802
អះអាង	-10803
▁1080	-10804
▁Blue	-10805
▁លោហៈ	-10806
▁ហាក់	-10807
មានជ័យ	-10808
▁plain	-10809
osition	-10810
ហត្ថលេខ	-10811
▁និងបាន	-10812
▁បូកថ្ម	-10813
▁សំបកកង់	-10814
ធ្លាប់មាន	-10815
ស្មោះត្រង់	-10816
កាត់ម៉ាស៊ីន	-10817
ការផ្តល់ជូន	-10818
ប្រឆាំងនឹងការ	-10819
ជម	-10820
202	-10821
you	-10822
មេឃ	-10823
ល្ម	-10824
▁79	-10825
▁RS	-10826
▁TM	-10827
ebei	-10828
uary	-10829
សភាគ	-10830
អង្វ	-10831
អាំង	-10832
្បិត	-10833
▁(25	-10834
▁Bin	-10835
▁Bos	-10836
▁SAE	-10837
▁VIS	-10838
▁បែក	-10839
▁អាង	-10840
="2.4	-10841
error	-10842
trans	-10843
វាមាន	-10844
ហារីក	-10845
▁Jess	-10846
▁Over	-10847
▁only	-10848
▁ឆាប់	-10849
▁ស៊ុន	-10850
ធ្វើទៅ	-10851
បដិសេធ	-10852
ស្ងាត់	-10853
ស្រវឹង	-10854
ិយាកាស	-10855
ពីក្រោយ	-10856
លោកស្រី	-10857
សរសៃឈាម	-10858
អ៊ិនធឺណ	-10859
▁Street	-10860
▁អ៊ីណុក	-10861
▁Limited	-10862
▁ការកសាង	-10863
រីករាលដាល	-10864
ាបាល់ទាត់	-10865
exacthacks	-10866
វាត្រូវបាន	-10867
សារៈសំខាន់	-10868
▁រមណីយដ្ឋាន	-10869
នៅក្នុងឆ្នាំ	-10870
▁Agriculture	-10871
▁នេះបើយោងតាម	-10872
▁ព្រះអាទិត្យ	-10873
TY	-10874
nm	-10875
ដុះ	-10876
សិប	-10877
សេះ	-10878
▁(8	-10879
View	-10880
amba	-10881
emie	-10882
flex	-10883
item	-10884
vent	-10885
សំណង	-10886
អណ្ត	-10887
▁1/2	-10888
▁430	-10889
▁DRK	-10890
▁Mir	-10891
▁ជ័យ	-10892
▁ពូជ	-10893
▁Rock	-10894
▁គ្រី	-10895
▁ស្រា	-10896
ប្រហោង	-10897
▁ក៏ដោយ	-10898
▁វាអាច	-10899
▁អប់រំ	-10900
uploads	-10901
ាបារាំង	-10902
ីតុណ្ហា	-10903
▁images	-10904
▁តិចជាង	-10905
ការផ្តល់	-10906
▁មហាវិថី	-10907
▁យូនីកូដ	-10908
បត់បែនបាន	-10909
ស្តីពីការ	-10910
អ្នកដំណើរ	-10911
▁បរិច្ឆេទ	-10912
▁ព្រឹត្តិ	-10913
▁សន្និសីទ	-10914
▁អ្នកត្រូវ	-10915
▁មតិព័ត៌មាន	-10916
▁រដ្ឋមន្ត្រី	-10917
ដែលអាចប្រើបាន	-10918
04	-10919
ចង	-10920
ឺរ	-10921
122	-10922
hes	-10923
ria	-10924
បំរ	-10925
ាប៊	-10926
▁82	-10927
▁DI	-10928
▁KB	-10929
▁go	-10930
kers	-10931
▁7.4	-10932
▁CPA	-10933
▁KHR	-10934
▁តង់	-10935
▁រោង	-10936
Admin	-10937
ឆ្អឹង	-10938
ន្ទុយ	-10939
ម្មើស	-10940
អេសអូ	-10941
ាយហ្វ	-10942
▁1800	-10943
▁Wave	-10944
▁cups	-10945
▁quot	-10946
▁ឪពុក	-10947
Nathan	-10948
កណ្ដាល	-10949
ការពេញ	-10950
បន្ទុក	-10951
ារកម្ម	-10952
▁Train	-10953
respond	-10954
sterdam	-10955
ស្រូបយក	-10956
អុកស៊ីត	-10957
▁AASraw	-10958
▁ចម្រុះ	-10959
▁ចាក់សោ	-10960
▁តួនាទី	-10961
▁ទល់នឹង	-10962
ការចំណាយ	-10963
សម្ភាសន៍	-10964
ូលើបណ្តាញ	-10965
▁Solomons	-10966
▁រោគសញ្ញា	-10967
▁ហើយខ្ញុំ	-10968
▁អតិបរមា។	-10969
ព្រះយេស៊ូវ	-10970
▁ការសិក្សា	-10971
▁និទាឃរដូវ	-10972
ក្រុមការងារ	-10973
ដែលបានកំណត់	-10974
▁KOrganizer	-10975
ស្ម័គ្រចិត្ត	-10976
ដេ	-10977
160	-10978
eto	-10979
exe	-10980
គៀប	-10981
ដូន	-10982
រលក	-10983
វ៉េ	-10984
▁!!	-10985
▁Ol	-10986
▁TD	-10987
▁XS	-10988
▁ep	-10989
-800	-10990
penh	-10991
tain	-10992
▁7.5	-10993
▁Rod	-10994
▁សំរ	-10995
▁អេក	-10996
ollow	-10997
ក្តារ	-10998
ព្រាង	-10999
▁Chen	-11000
▁Merc	-11001
▁Pass	-11002
▁ត្រង	-11003
▁ទាក់	-11004
ប្រទាន	-11005
លើកឡើង	-11006
អនុលោម	-11007
▁after	-11008
ាក្សត្រ	-11009
▁Zhongt	-11010
▁ជាអ្នក	-11011
▁វិជ្ជា	-11012
▁សម្អាត	-11013
កែសម្រួល	-11014
ខែកុម្ភៈ	-11015
ផ្លូវភេទ	-11016
ស្វែងយល់	-11017
▁ទាំងនោះ	-11018
ដើម្បីឱ្យ	-11019
អ៊ិនធឺណិត	-11020
▁ការដំឡើង	-11021
ដែលអ្នកបាន	-11022
ដែលអ្នកអាច	-11023
ត្រៀមខ្លួន	-11024
បន្តបន្ទាប់	-11025
▁PostScript	-11026
▁បានក្រណាត់	-11027
▁ចូលដំណើរការ	-11028
▁ឧបករណ៍បញ្ជា	-11029
▁ដ្ឋានស្នាក់នៅ	-11030
▁ភាពត្រឹមត្រូវ	-11031
Ar	-11032
cd	-11033
=17	-11034
▁HE	-11035
▁QC	-11036
▁cr	-11037
aver	-11038
days	-11039
អាម៉	-11040
▁(14	-11041
▁Bur	-11042
▁Ram	-11043
▁ZLP	-11044
▁ថេប	-11045
Inter	-11046
olone	-11047
ឹមសារ	-11048
▁Case	-11049
▁Oper	-11050
▁Step	-11051
▁View	-11052
▁Wood	-11053
▁news	-11054
▁ហ្វេ	-11055
castle	-11056
តានតឹង	-11057
បរិវេណ	-11058
ប្បទាន	-11059
ូវ៉ាត់	-11060
▁Equip	-11061
▁គ្រូប	-11062
វិចិត្រ	-11063
សមាសភាគ	-11064
▁Python	-11065
▁Rental	-11066
▁ចៃដន្យ	-11067
zimbabwe	-11068
ចំពោះការ	-11069
▁Patrick	-11070
▁Torrent	-11071
▁គឺជាការ	-11072
▁ដកស្រង់	-11073
▁ប្រាក់។	-11074
▁រដ្ឋបាល	-11075
▁អ្នកលេង	-11076
androlone	-11077
រាវិរុទ្ធ	-11078
លេខាធិការ	-11079
▁Explorer	-11080
▁ចុះថ្ងៃទី	-11081
ប្រជាពលរដ្ឋ	-11082
▁Genotropin	-11083
មនុស្សពេញវ័យ	-11084
▁ចូលរួមជាមួយ	-11085
▁អនុញ្ញាតឱ្យ	-11086
កែប្រែចុងក្រោយ	-11087
▁ទំព័រជាផ្លូវការ	-11088
1.	-11089
II	-11090
yp	-11091
INE	-11092
ឃុំ	-11093
មាត	-11094
មួក	-11095
TCHA	-11096
dele	-11097
ique	-11098
គណនា	-11099
ផ្សង	-11100
មាន់	-11101
ហ្គា	-11102
្វីប	-11103
▁(36	-11104
▁Aqu	-11105
▁Lad	-11106
▁Rub	-11107
▁ent	-11108
ished	-11109
japan	-11110
miral	-11111
ជាចុង	-11112
បន្លែ	-11113
រំអិល	-11114
ះកាត់	-11115
▁Brit	-11116
▁កៅអី	-11117
▁ស្រប	-11118
ញូវយ៉ក	-11119
រុងរឿង	-11120
ហ្ស៊ីប	-11121
▁12345	-11122
▁2018,	-11123
▁សហការ	-11124
ធ្វើអោយ	-11125
យ៉ាងល្អ	-11126
រន្ធដោត	-11127
▁Estate	-11128
▁CAPTCHA	-11129
▁ផលិតភាព	-11130
▁settings	-11131
▁ប៉ុន្មាន	-11132
▁ប្រៀបធៀប	-11133
▁លិខិតឆ្លងដែន	-11134
▁ការដាក់ប្រាក់	-11135
▁នៅក្នុងប្រទេស	-11136
ដំណើរទស្សនកិច្ច	-11137
LD	-11138
១៧	-11139
២៨	-11140
%84	-11141
-35	-11142
ESS	-11143
jet	-11144
umm	-11145
▁5)	-11146
▁9.	-11147
▁Ir	-11148
▁MM	-11149
▁[2	-11150
agen	-11151
atab	-11152
ishi	-11153
odes	-11154
ship	-11155
ចំណី	-11156
តស៊ូ	-11157
▁012	-11158
▁Meg	-11159
▁Seg	-11160
▁Sub	-11161
▁vis	-11162
▁ករណ	-11163
▁ប៉ា	-11164
▁លាង	-11165
ander	-11166
eller	-11167
rough	-11168
ស្ពាន	-11169
ែលហ្ស	-11170
▁2200	-11171
▁Mall	-11172
▁ម៉ុង	-11173
ethane	-11174
ប្រគល់	-11175
ហ្គីតា	-11176
▁Admin	-11177
▁Korea	-11178
▁ជំរុញ	-11179
▁មានតែ	-11180
មកជាមួយ	-11181
▁នយោបាយ	-11182
▁បង្កប់	-11183
▁អង្គារ	-11184
▁អសកម្ម	-11185
គ្នារវាង	-11186
បានកើនឡើង	-11187
▁ចុះអ័ព្វ	-11188
▁ប៉ុស្តិ៍	-11189
ជាតិខ្លាញ់	-11190
ភាពជាក់លាក់	-11191
▁ប្រទេសកម្ពុជា	-11192
OX	-11193
wn	-11194
អុ	-11195
១៣	-11196
oon	-11197
ឆ្ង	-11198
ាំព	-11199
▁BB	-11200
▁JS	-11201
▁PV	-11202
="25	-11203
rete	-11204
ធំនៃ	-11205
បន្ស	-11206
ិនសល	-11207
ីដេអ	-11208
▁(30	-11209
▁big	-11210
▁del	-11211
▁str	-11212
▁កក់	-11213
▁ឌិន	-11214
china	-11215
ugeot	-11216
ធ្មត់	-11217
បសគ្គ	-11218
បានទេ	-11219
មុទ្រ	-11220
▁Cond	-11221
▁ITIL	-11222
▁Sept	-11223
▁Tags	-11224
ជណ្តើរ	-11225
ផ្លែឈើ	-11226
ូន្មាន	-11227
ោហធាតុ	-11228
▁(855)	-11229
▁Warin	-11230
▁brack	-11231
▁ចំហៀង	-11232
▁ដ្បិត	-11233
▁រំកិល	-11234
ongguan	-11235
ចរាចរណ៍	-11236
និម្មិត	-11237
ួចផ្តើម	-11238
▁ស្រមោល	-11239
ដែលកំពុង	-11240
នៃផលិតផល	-11241
ផ្លែប៉ោម	-11242
ពេលព្រឹក	-11243
▁Admiral	-11244
▁Preemie	-11245
▁ពីព្រោះ	-11246
ការបង្រៀន	-11247
▁Columbia	-11248
▁ខ្ញុំមិន	-11249
▁លីនេអ៊ែរ	-11250
ប្រព្រឹត្ត	-11251
មួយសម្រាប់	-11252
▁WordPress	-11253
▁និន្នាការ	-11254
▁ពិនិត្យមើល	-11255
▁ផ្ទៃខាងក្រោយ	-11256
នៅទូទាំងពិភពលោក	-11257
MB	-11258
PP	-11259
រុ	-11260
010	-11261
GMT	-11262
edu	-11263
ជប់	-11264
▁71	-11265
▁74	-11266
▁បា	-11267
▁២៦	-11268
acer	-11269
ased	-11270
nect	-11271
ថាវា	-11272
រលោង	-11273
រហូត	-11274
ុកាល	-11275
▁1,5	-11276
▁630	-11277
▁Eth	-11278
▁ហ៊ី	-11279
olicy	-11280
ralia	-11281
start	-11282
ល្អក់	-11283
▁Cant	-11284
▁Data	-11285
▁mold	-11286
▁មួយ។	-11287
▁លូកា	-11288
▁២០០០	-11289
ខែមេសា	-11290
ថូម៉ាស	-11291
ូដិនសល	-11292
▁Texas	-11293
▁ជេកផត	-11294
▁ស្លាប	-11295
estival	-11296
ទំព័រដើម	-11297
▁Peugeot	-11298
▁comment	-11299
▁កសិកម្ម	-11300
▁ស្ដេចនៃ	-11301
រីកចម្រើន	-11302
▁Istanbul	-11303
▁ផលិតផលបាន	-11304
ភោជនីយដ្ឋាន	-11305
▁ដូចគ្នានេះ	-11306
ដោយក្រុមហ៊ុន	-11307
▁ព្រះជាម្ចាស់	-11308
▁ចុងក្រោយបំផុត	-11309
▁មិនត្រឹមត្រូវ	-11310
6.	-11311
Ph	-11312
ពង	-11313
ឡូ	-11314
ែដ	-11315
័ង	-11316
uid	-11317
ពាង	-11318
▁AF	-11319
▁Ba	-11320
▁Ja	-11321
▁id	-11322
▁៦០	-11323
egas	-11324
ency	-11325
oupl	-11326
rder	-11327
ពីរស	-11328
មជ្ឈ	-11329
រមៀល	-11330
▁ATV	-11331
▁day	-11332
.2015	-11333
ature	-11334
hydro	-11335
ombia	-11336
ចំរើន	-11337
ឆ្នើម	-11338
ឆ្លុះ	-11339
ជម្នះ	-11340
បន្លំ	-11341
បំណែក	-11342
ម្លាត	-11343
ុល្លា	-11344
ោសល្យ	-11345
▁2001	-11346
▁date	-11347
▁than	-11348
icense	-11349
ossess	-11350
កីឡាករ	-11351
ប្រសាទ	-11352
▁ផែនដី	-11353
▁(2015)	-11354
▁Murphy	-11355
▁សង្ឃឹម	-11356
ប្រយ័ត្ន	-11357
ពិភពលោក។	-11358
ម៉ាឡេស៊ី	-11359
▁January	-11360
▁October	-11361
▁ព្រំដែន	-11362
▁អ្នកស្រ	-11363
ងើបឡើងវិញ	-11364
ដែលទាក់ទង	-11365
មួយដើម្បី	-11366
▁ជំរាបសួរ	-11367
ស្ស៊ីជាចុង	-11368
ការបញ្ជាទិញ	-11369
▁អំពីវិបសាយ	-11370
ផ្ទៃខាងក្នុង	-11371
▁ខណ្ឌចំការមន	-11372
▁មន្ទីរពេទ្យ	-11373
▁មានអារម្មណ៍	-11374
▁វាត្រូវបានគេ	-11375
▁រួមបញ្ចូលទាំង	-11376
ញញ	-11377
ុដ	-11378
ISI	-11379
abi	-11380
kor	-11381
not	-11382
គែម	-11383
▁HF	-11384
▁HQ	-11385
miss	-11386
oven	-11387
rost	-11388
ធ្លា	-11389
ិន័យ	-11390
្ទរក	-11391
▁Bal	-11392
▁CSS	-11393
▁Eng	-11394
▁Squ	-11395
▁Xia	-11396
▁var	-11397
="2.0	-11398
="2.5	-11399
ansas	-11400
eware	-11401
iller	-11402
ដ៏ល្អ	-11403
ណ្តែក	-11404
តុក្ក	-11405
ពុម្ព	-11406
ភ្លោះ	-11407
ហ្វិក	-11408
▁BREA	-11409
▁Book	-11410
ership	-11411
ចាប់យក	-11412
ទេសភាព	-11413
ប្បុរស	-11414
ាប់តាម	-11415
▁India	-11416
▁ដំបូល	-11417
▁មេរៀន	-11418
▁សំរាម	-11419
ប្រពន្ធ	-11420
▁config	-11421
articles	-11422
ផ្លាស់ទី	-11423
មានចំនួន	-11424
អ្វីខ្លះ	-11425
▁Charger	-11426
▁Startup	-11427
▁សាស្រ្ត	-11428
របស់យើងគឺ	-11429
មានផ្ទៃពោះ	-11430
▁interface	-11431
តំបន់បណ្តាញ	-11432
▁ស្រស់ស្អាត	-11433
ក្នុងអំឡុងពេល	-11434
▁ប្រអប់សំបុត្រ	-11435
▁នៅក្នុងកម្មវិធី	-11436
EG	-11437
kt	-11438
dep	-11439
god	-11440
mal	-11441
pol	-11442
និធ	-11443
▁Ru	-11444
Site	-11445
iKam	-11446
lift	-11447
ថាតើ	-11448
ួរគី	-11449
្នោះ	-11450
▁(18	-11451
▁720	-11452
▁CIS	-11453
▁Han	-11454
▁UTC	-11455
▁ប៊ុ	-11456
aunch	-11457
ecoin	-11458
media	-11459
ិចសែល	-11460
▁Full	-11461
▁RoHS	-11462
▁make	-11463
▁ការេ	-11464
បំផុត។	-11465
ម៉ូឌុល	-11466
romania	-11467
ខេមបូឌា	-11468
ប្តេជ្ញ	-11469
មូលបត្រ	-11470
លទ្ធភាព	-11471
▁ពន្យល់	-11472
▁មានន័យ	-11473
ការប្រាក់	-11474
ចុងបញ្ចប់	-11475
ភាគខាងជើង	-11476
យុទ្ធនាការ	-11477
សាធារណរដ្ឋ	-11478
▁គុណលក្ខណៈ	-11479
▁ទូលំទូលាយ	-11480
▁សមកាលកម្ម	-11481
ចុងក្រោយនេះ	-11482
ដែលត្រូវការ	-11483
▁Mastercard	-11484
▁តើខ្ញុំអាច	-11485
▁ទីប្រឹក្សា	-11486
▁ពាក់កណ្តាល	-11487
▁វិចិត្រសាល	-11488
ការធ្វើដំណើរ	-11489
ផលិតផលធ្វើពីជ័រ	-11490
▁សម្រាប់ប្រព័ន្ធ	-11491
6-	-11492
Ti	-11493
ds	-11494
ផង	-11495
”.	-11496
eel	-11497
rix	-11498
ជីង	-11499
▁Lu	-11500
▁fr	-11501
▁ត៌	-11502
Slot	-11503
base	-11504
irls	-11505
ston	-11506
ឆ្មា	-11507
អាស៊	-11508
▁(7)	-11509
▁PHP	-11510
▁met	-11511
▁ពុធ	-11512
▁អតិ	-11513
="2.3	-11514
="4.8	-11515
ether	-11516
កំណើន	-11517
ឃ្មុំ	-11518
ណាស់។	-11519
▁0.01	-11520
▁Line	-11521
▁mark	-11522
utting	-11523
waters	-11524
ដោយឡែក	-11525
ាចិត្ត	-11526
ាលំហូរ	-11527
▁ក្វាង	-11528
▁យុវជន	-11529
▁Albert	-11530
▁Robert	-11531
▁មែកធាង	-11532
▁សួស្តី	-11533
francais	-11534
▁textbox	-11535
▁បទពិសោធ	-11536
▁ថ្នាក់ទី	-11537
អ៊ីស្រាអែល	-11538
ីតុណ្ហាភាព	-11539
▁មិនស្គាល់	-11540
▁ServerName	-11541
▁សាធារណរដ្ឋ	-11542
ផ្លូវរថភ្លើង	-11543
▁Ultrasonics	-11544
គណៈរដ្ឋមន្រ្តី	-11545
OG	-11546
RA	-11547
ki	-11548
320	-11549
:01	-11550
eli	-11551
ផ្ញ	-11552
មីត	-11553
▁/.	-11554
▁KG	-11555
▁ន់	-11556
▁អង	-11557
acqu	-11558
asia	-11559
នោះ។	-11560
ឹត្ដ	-11561
ើយើង	-11562
▁her	-11563
▁ឡូត	-11564
order	-11565
witch	-11566
ថូខឹន	-11567
វាមិន	-11568
ហេដ្ឋ	-11569
▁Call	-11570
▁Sant	-11571
▁long	-11572
▁ល្បី	-11573
ខែតុលា	-11574
ជើងទទេ	-11575
ភីកសែល	-11576
▁00100	-11577
▁Check	-11578
▁Chroy	-11579
▁Hebei	-11580
▁Sigma	-11581
▁email	-11582
▁ប្រឡង	-11583
ុល្យភាព	-11584
▁probab	-11585
▁រកំណត់	-11586
គឺជាអ្នក	-11587
ស្ទង់មតិ	-11588
ព្រះវិហារ	-11589
▁BREAKING	-11590
▁អាដាប់ធ័រ	-11591
សមត្ថភាពខ្ពស់	-11592
អភិវឌ្ឍន៍ជនបទ	-11593
មានភាពងាយស្រួល	-11594
ខេ	-11595
ចៃ	-11596
▁♪	-11597
▁【	-11598
999	-11599
ror	-11600
xin	-11601
លឹង	-11602
្ឈ៍	-11603
▁2%	-11604
▁EM	-11605
▁SN	-11606
▁ណេ	-11607
66"&	-11608
appy	-11609
body	-11610
ging	-11611
oder	-11612
uman	-11613
ីកោណ	-11614
្វីស	-11615
២០២០	-11616
▁175	-11617
▁4.3	-11618
▁Bat	-11619
▁Tro	-11620
▁end	-11621
▁zlp	-11622
▁ភេទ	-11623
▁ម្រ	-11624
▁រលក	-11625
▁សរស	-11626
/2015	-11627
NameP	-11628
asket	-11629
icker	-11630
izhou	-11631
ថវិកា	-11632
នៅសល់	-11633
ផ្អែម	-11634
ម្លោះ	-11635
▁CAPM	-11636
▁Sing	-11637
▁Text	-11638
លើកលែង	-11639
អាស៊ាន	-11640
▁Frank	-11641
▁under	-11642
▁ការ៉េ	-11643
▁ផ្តោត	-11644
▁រុក្ខ	-11645
▁ស្កេន	-11646
ក្រឹត្យ	-11647
ជាអក្សរ	-11648
ត្តិធម៌	-11649
បំផ្លាញ	-11650
មានទំហំ	-11651
វប្បធម៌	-11652
▁Flight	-11653
▁Kalarm	-11654
▁ពេលដែល	-11655
ថ្មីរបស់	-11656
▁digiKam	-11657
ossessive	-11658
ទប់ស្កាត់	-11659
សក្តានុពល	-11660
▁conveyor	-11661
▁download	-11662
▁ចុះក្រោម	-11663
ក្នុងមួយខែ	-11664
អ៊ុលត្រាសោ	-11665
▁Amsterdam	-11666
▁sonotrode	-11667
▁រុក្ខជាតិ	-11668
ថ្ងៃអាទិត្យ	-11669
▁អ្នកគាំទ្រ	-11670
ជារៀងរាល់ថ្ងៃ	-11671
▁បរិយាយផលិតផល	-11672
NamePossessive	-11673
ទ្រព្យសម្បត្តិ	-11674
KA	-11675
ür	-11676
ីវ	-11677
ើច	-11678
-23	-11679
=16	-11680
ERS	-11681
rik	-11682
ugu	-11683
▁BI	-11684
▁Ce	-11685
▁Ep	-11686
▁XP	-11687
%84%	-11688
="14	-11689
ways	-11690
និងអ	-11691
យ៉ុង	-11692
របារ	-11693
▁Bet	-11694
▁Spr	-11695
▁blo	-11696
▁កំព	-11697
▁ដប់	-11698
▁ឋាន	-11699
nguon	-11700
words	-11701
ង្វឹក	-11702
ជំទាវ	-11703
ជ្រាប	-11704
ឡីកែវ	-11705
▁Maxi	-11706
▁Show	-11707
▁Time	-11708
▁Type	-11709
▁ឆ្មា	-11710
▁នីតិ	-11711
▁អើពើ	-11712
ealand	-11713
urrent	-11714
ទ្វេដង	-11715
បញ្ចុះ	-11716
លុបចោល	-11717
ូបករណ៍	-11718
▁ម្សិល	-11719
នៃក្រុម	-11720
សិល្បករ	-11721
ុំពិតជា	-11722
▁ប៉ូឡូញ	-11723
▁មីក្រូ	-11724
institut	-11725
▁address	-11726
▁សហព័ន្ធ	-11727
▁អ្នកបាន	-11728
ផ្ទៃក្នុង	-11729
▁Whatsapp	-11730
▁brackets	-11731
▁category	-11732
▁ការចំណាយ	-11733
▁បានជ្រើស	-11734
▁យើងខ្ញុំ	-11735
ប្រឹងប្រែង	-11736
▁Newcastle	-11737
▁corrosion	-11738
ទាំងអស់គ្នា	-11739
▁ពិនិត្យនិង	-11740
យ៉ាងដូចម្តេច	-11741
▁មើលច្រើនទៀត	-11742
▁ក្រុមតន្ត្រី	-11743
▁បានចាប់ផ្តើម	-11744
▁ភាសាអង់គ្លេស	-11745
▁អាពាហ៍ពិពាហ៍	-11746
cb	-11747
▁ឮ	-11748
-29	-11749
360	-11750
des	-11751
ពុល	-11752
យ័ត	-11753
erry	-11754
name	-11755
ដ៏ធំ	-11756
▁	-11757
្	-11758
ា	-11759
រ	-11760
ន	-11761
ក	-11762
ប	-11763
ម	-11764
ស	-11765
ត	-11766
ង	-11767
ល	-11768
e	-11769
a	-11770
់	-11771
ិ	-11772
ទ	-11773
t	-11774
o	-11775
យ	-11776
ុ	-11777
i	-11778
ំ	-11779
ព	-11780
n	-11781
0	-11782
r	-11783
ី	-11784
ដ	-11785
ច	-11786
េ	-11787
អ	-11788
ូ	-11789
វ	-11790
1	-11791
ើ	-11792
s	-11793
ជ	-11794
m	-11795
ែ	-11796
.	-11797
l	-11798
គ	-11799
2	-11800
ណ	-11801
,	-11802
p	-11803
ោ	-11804
ញ	-11805
c	-11806
ផ	-11807
d	-11808
u	-11809
g	-11810
h	-11811
ួ	-11812
ធ	-11813
;	-11814
ខ	-11815
ហ	-11816
ថ	-11817
ះ	-11818
ៅ	-11819
:	-11820
ភ	-11821
6	-11822
-	-11823
3	-11824
។	-11825
5	-11826
៉	-11827
័	-11828
C	-11829
/	-11830
&	-11831
S	-11832
ៃ	-11833
៊	-11834
4	-11835
y	-11836
9	-11837
8	-11838
ឹ	-11839
P	-11840
k	-11841
b	-11842
A	-11843
7	-11844
"	-11845
)	-11846
T	-11847
M	-11848
(	-11849
f	-11850
w	-11851
D	-11852
ឡ	-11853
៍	-11854
ៀ	-11855
#	-11856
B	-11857
E	-11858
N	-11859
v	-11860
L	-11861
R	-11862
H	-11863
ឆ	-11864
I	-11865
ឺ	-11866
F	-11867
G	-11868
O	-11869
K	-11870
=	-11871
%	-11872
x	-11873
W	-11874
ៈ	-11875
V	-11876
ឈ	-11877
ឋ	-11878
_	-11879
U	-11880
ឌ	-11881
ឧ	-11882
០	-11883
ឯ	-11884
១	-11885
២	-11886
៖	-11887
៌	-11888
ឬ	-11889
z	-11890
?	-11891
J	-11892
ឿ	-11893
X	-11894
ឥ	-11895
!	-11896
+	-11897
@	-11898
ឱ	-11899
$	-11900
'	-11901
ឃ	-11902
Y	-11903
]	-11904
–	-11905
j	-11906
៏	-11907
*	-11908
៥	-11909
ៗ	-11910
៣	-11911
Q	-11912
q	-11913
[	-11914
ឲ	-11915
Z	-11916
៨	-11917
៩	-11918
៤	-11919
”	-11920
៦	-11921
»	-11922
“	-11923
•	-11924
៧	-11925
ឍ	-11926
£	-11927
©	-11928
«	-11929
€	-11930
~	-11931
\	-11932
°	-11933
×	-11934
’	-11935
—	-11936
}	-11937
{	-11938
丨	-11939
а	-11940
	-11941
·	-11942
→	-11943
é	-11944
±	-11945
★	-11946
к	-11947
р	-11948
′	-11949
®	-11950
ü	-11951
н	-11952
≤	-11953
ç	-11954
ö	-11955
ឪ	-11956
ä	-11957
ñ	-11958
с	-11959
и	-11960
中	-11961
о	-11962
←	-11963
е	-11964
文	-11965
ı	-11966
т	-11967
ឫ	-11968
`	-11969
ឮ	-11970
●	-11971
‧	-11972
≥	-11973
Φ	-11974
♪	-11975
å	-11976
✔	-11977
	-11978
á	-11979
៛	-11980
л	-11981
ь	-11982
ا	-11983
‘	-11984
›	-11985
繁	-11986
я	-11987
у	-11988
μ	-11989
體	-11990
в	-11991
ệ	-11992
í	-11993
У	-11994
【	-11995
】	-11996
