<unk>	0
<s>	0
</s>	0
<0x00>	0
<0x01>	0
<0x02>	0
<0x03>	0
<0x04>	0
<0x05>	0
<0x06>	0
<0x07>	0
<0x08>	0
<0x09>	0
<0x0A>	0
<0x0B>	0
<0x0C>	0
<0x0D>	0
<0x0E>	0
<0x0F>	0
<0x10>	0
<0x11>	0
<0x12>	0
<0x13>	0
<0x14>	0
<0x15>	0
<0x16>	0
<0x17>	0
<0x18>	0
<0x19>	0
<0x1A>	0
<0x1B>	0
<0x1C>	0
<0x1D>	0
<0x1E>	0
<0x1F>	0
<0x20>	0
<0x21>	0
<0x22>	0
<0x23>	0
<0x24>	0
<0x25>	0
<0x26>	0
<0x27>	0
<0x28>	0
<0x29>	0
<0x2A>	0
<0x2B>	0
<0x2C>	0
<0x2D>	0
<0x2E>	0
<0x2F>	0
<0x30>	0
<0x31>	0
<0x32>	0
<0x33>	0
<0x34>	0
<0x35>	0
<0x36>	0
<0x37>	0
<0x38>	0
<0x39>	0
<0x3A>	0
<0x3B>	0
<0x3C>	0
<0x3D>	0
<0x3E>	0
<0x3F>	0
<0x40>	0
<0x41>	0
<0x42>	0
<0x43>	0
<0x44>	0
<0x45>	0
<0x46>	0
<0x47>	0
<0x48>	0
<0x49>	0
<0x4A>	0
<0x4B>	0
<0x4C>	0
<0x4D>	0
<0x4E>	0
<0x4F>	0
<0x50>	0
<0x51>	0
<0x52>	0
<0x53>	0
<0x54>	0
<0x55>	0
<0x56>	0
<0x57>	0
<0x58>	0
<0x59>	0
<0x5A>	0
<0x5B>	0
<0x5C>	0
<0x5D>	0
<0x5E>	0
<0x5F>	0
<0x60>	0
<0x61>	0
<0x62>	0
<0x63>	0
<0x64>	0
<0x65>	0
<0x66>	0
<0x67>	0
<0x68>	0
<0x69>	0
<0x6A>	0
<0x6B>	0
<0x6C>	0
<0x6D>	0
<0x6E>	0
<0x6F>	0
<0x70>	0
<0x71>	0
<0x72>	0
<0x73>	0
<0x74>	0
<0x75>	0
<0x76>	0
<0x77>	0
<0x78>	0
<0x79>	0
<0x7A>	0
<0x7B>	0
<0x7C>	0
<0x7D>	0
<0x7E>	0
<0x7F>	0
<0x80>	0
<0x81>	0
<0x82>	0
<0x83>	0
<0x84>	0
<0x85>	0
<0x86>	0
<0x87>	0
<0x88>	0
<0x89>	0
<0x8A>	0
<0x8B>	0
<0x8C>	0
<0x8D>	0
<0x8E>	0
<0x8F>	0
<0x90>	0
<0x91>	0
<0x92>	0
<0x93>	0
<0x94>	0
<0x95>	0
<0x96>	0
<0x97>	0
<0x98>	0
<0x99>	0
<0x9A>	0
<0x9B>	0
<0x9C>	0
<0x9D>	0
<0x9E>	0
<0x9F>	0
<0xA0>	0
<0xA1>	0
<0xA2>	0
<0xA3>	0
<0xA4>	0
<0xA5>	0
<0xA6>	0
<0xA7>	0
<0xA8>	0
<0xA9>	0
<0xAA>	0
<0xAB>	0
<0xAC>	0
<0xAD>	0
<0xAE>	0
<0xAF>	0
<0xB0>	0
<0xB1>	0
<0xB2>	0
<0xB3>	0
<0xB4>	0
<0xB5>	0
<0xB6>	0
<0xB7>	0
<0xB8>	0
<0xB9>	0
<0xBA>	0
<0xBB>	0
<0xBC>	0
<0xBD>	0
<0xBE>	0
<0xBF>	0
<0xC0>	0
<0xC1>	0
<0xC2>	0
<0xC3>	0
<0xC4>	0
<0xC5>	0
<0xC6>	0
<0xC7>	0
<0xC8>	0
<0xC9>	0
<0xCA>	0
<0xCB>	0
<0xCC>	0
<0xCD>	0
<0xCE>	0
<0xCF>	0
<0xD0>	0
<0xD1>	0
<0xD2>	0
<0xD3>	0
<0xD4>	0
<0xD5>	0
<0xD6>	0
<0xD7>	0
<0xD8>	0
<0xD9>	0
<0xDA>	0
<0xDB>	0
<0xDC>	0
<0xDD>	0
<0xDE>	0
<0xDF>	0
<0xE0>	0
<0xE1>	0
<0xE2>	0
<0xE3>	0
<0xE4>	0
<0xE5>	0
<0xE6>	0
<0xE7>	0
<0xE8>	0
<0xE9>	0
<0xEA>	0
<0xEB>	0
<0xEC>	0
<0xED>	0
<0xEE>	0
<0xEF>	0
<0xF0>	0
<0xF1>	0
<0xF2>	0
<0xF3>	0
<0xF4>	0
<0xF5>	0
<0xF6>	0
<0xF7>	0
<0xF8>	0
<0xF9>	0
<0xFA>	0
<0xFB>	0
<0xFC>	0
<0xFD>	0
<0xFE>	0
<0xFF>	0
▁ਸ	-0
▁ਕ	-1
▁ਹ	-2
▁ਦ	-3
▁ਵ	-4
▁ਨ	-5
▁ਪ	-6
▁ਅ	-7
▁ਲ	-8
▁ਮ	-9
ਾਰ	-10
▁ਜ	-11
ਤੇ	-12
▁ਇ	-13
▁ਹੈ	-14
▁ਬ	-15
▁ਤ	-16
ੂੰ	-17
ਾਂ	-18
ਸ਼	-19
▁ਵਿ	-20
ਾਲ	-21
▁ਦੇ	-22
▁ਕਰ	-23
ਾਈ	-24
▁ਨੂੰ	-25
▁ਲਈ	-26
▁ਰ	-27
in	-28
▁ਅਤੇ	-29
ਾਨ	-30
▁ਆ	-31
੍ਰ	-32
▁ਗ	-33
▁1	-34
▁2	-35
▁ਦੀ	-36
ਿਆ	-37
▁ਫ	-38
▁ਚ	-39
▁ਉ	-40
ਰੀ	-41
ੱਕ	-42
ਜ਼	-43
er	-44
on	-45
▁ਟ	-46
▁ਡ	-47
ੱਚ	-48
an	-49
▁(	-50
ਦਾ	-51
ਤਾ	-52
ਿੰ	-53
▁ਹੋ	-54
me	-55
▁ਕਿ	-56
ਾਇ	-57
▁ਵਿੱਚ	-58
▁ਖ	-59
▁C	-60
ਤੀ	-61
00	-62
at	-63
ਰਾ	-64
▁ਪ੍ਰ	-65
ਿੱ	-66
01	-67
▁ਤੁ	-68
▁ਕਰਨ	-69
▁ਸ਼	-70
it	-71
ੀਂ	-72
▁ਕੀ	-73
or	-74
▁ਦਾ	-75
▁ਨਾਲ	-76
▁ਇੱਕ	-77
ਦੇ	-78
▁ਐ	-79
ਟਰ	-80
ੋਂ	-81
es	-82
▁S	-83
▁-	-84
▁ਜਾ	-85
▁ਹਨ	-86
ੈਕ	-87
ar	-88
om	-89
▁ਇਸ	-90
ਲਾ	-91
ਿਕ	-92
ੀਨ	-93
▁ਸਕ	-94
▁ਸੰ	-95
ਾਡ	-96
st	-97
ਵੇ	-98
▁/	-99
▁ਭ	-100
ੀਆ	-101
ਸਟ	-102
▁'	-103
al	-104
▁t	-105
ੁੱ	-106
ਿਲ	-107
▁201	-108
en	-109
ame	-110
▁ਤੁਹ	-111
ੈਟ	-112
▁ਤੇ	-113
ਿੰਗ	-114
▁ਇਹ	-115
ਸ਼ਨ	-116
▁in	-117
ਟੀ	-118
ਰੇ	-119
▁P	-120
ਾਨੂੰ	-121
ਾਹ	-122
▁k	-123
▁ਕੋ	-124
ਾਪ	-125
▁ਵਿਚ	-126
▁ਯ	-127
un	-128
ion	-129
le	-130
ਲੇ	-131
▁ਸਮ	-132
ਣਾ	-133
ic	-134
ਵਾ	-135
ਿਰ	-136
▁T	-137
ਕਾਰ	-138
▁ਵਰ	-139
▁3	-140
੍ਹ	-141
ਤਰ	-142
▁ਕਰੋ	-143
▁ਵੀ	-144
▁M	-145
▁A	-146
ਲੀ	-147
▁ਨਹ	-148
ੱਖ	-149
am	-150
ਨਾ	-151
▁ਆਪ	-152
ੁੰ	-153
ਵਰ	-154
ਦੀ	-155
gm	-156
▁ਪਰ	-157
▁D	-158
▁kgm	-159
▁,	-160
..	-161
re	-162
▁c	-163
▁G	-164
▁ਜੋ	-165
ਣੇ	-166
ਾਰੇ	-167
ੈਂ	-168
ੋਲ	-169
ਿਸ	-170
ੋਰ	-171
▁ਕੰ	-172
ਫ਼	-173
ੋਗ	-174
Name	-175
ਨੀ	-176
▁ਨਹੀਂ	-177
ੰਗ	-178
ਾਡੇ	-179
▁ਮੁ	-180
▁ਤੋਂ	-181
ਡੀ	-182
ਾਮ	-183
▁s	-184
▁ਸਰ	-185
he	-186
ੁਰ	-187
▁#	-188
...	-189
ਿਹ	-190
ਜਾ	-191
ਕਸ	-192
ਪਾ	-193
▁H	-194
▁ਜਾਂ	-195
ing	-196
▁p	-197
ac	-198
is	-199
ol	-200
▁5	-201
ਾਸ	-202
▁ਸੀ	-203
▁।	-204
ੇਲ	-205
ੋਨ	-206
▁ਕਾਰ	-207
ਬਰ	-208
el	-209
ੱਟ	-210
▁B	-211
ਿਨ	-212
▁ਕੀਤਾ	-213
▁4	-214
▁ਕੇ	-215
ੀਆਂ	-216
ਬੀ	-217
▁ਘ	-218
ੋਜ	-219
ੈਨ	-220
ਸੀਂ	-221
ab	-222
ur	-223
▁L	-224
ੋਡ	-225
ੈਟੂ	-226
▁ਤੁਹਾਨੂੰ	-227
▁E	-228
men	-229
▁ਵੇ	-230
ਾਇਲ	-231
▁ਟੈਟੂ	-232
as	-233
et	-234
ਟਾ	-235
ਕੇ	-236
com	-237
ਿਤ	-238
ੰਦ	-239
▁R	-240
ੱਗ	-241
▁F	-242
ਾਈਟ	-243
▁ਕੁ	-244
ਸੀ	-245
▁w	-246
▁ਪੰ	-247
ed	-248
▁I	-249
▁ਆਪਣੇ	-250
ro	-251
▁ਈ	-252
▁"	-253
▁d	-254
ਣੀ	-255
▁ਇੰ	-256
▁_	-257
ੂਰ	-258
ਪਰ	-259
ਡਰ	-260
il	-261
▁f	-262
ੁਣ	-263
us	-264
ਨਲ	-265
▁ਡਾ	-266
▁ਵਰਤ	-267
ਗਾ	-268
▁ਨੇ	-269
ੁਆ	-270
▁N	-271
▁W	-272
▁ਹੋਰ	-273
▁ਗਿਆ	-274
ਕੀ	-275
▁ਛ	-276
ment	-277
ਅਰ	-278
▁n	-279
ਕਾ	-280
ਮੀ	-281
ੈਸ	-282
▁ਰਹ	-283
▁ਵੱ	-284
ੌਰ	-285
ੇਸ਼	-286
▁b	-287
▁ਸਿ	-288
ਉਣ	-289
▁ਇਕ	-290
ਾਈਨ	-291
▁&	-292
▁ਜ਼	-293
▁ਕਿਸ	-294
ੋਟ	-295
ad	-296
▁ਫਾਇਲ	-297
op	-298
ag	-299
▁ਲੋ	-300
and	-301
▁0	-302
▁ਸਾਡੇ	-303
ੇਟ	-304
ot	-305
ਾਗ	-306
ਕਰ	-307
ec	-308
▁ਜਾਣ	-309
▁ਤੁਸੀਂ	-310
▁O	-311
▁ਜੇ	-312
▁ਪਹ	-313
▁U	-314
▁ਸੁ	-315
▁ਨਿ	-316
tion	-317
▁ਬਹ	-318
▁6	-319
ਆਂ	-320
▁h	-321
ਮਾ	-322
ia	-323
ity	-324
▁ਉਤ	-325
ਾਰੀ	-326
20	-327
▁ਪੰਜਾ	-328
▁8	-329
ut	-330
▁ਬਹੁ	-331
ਵਾਂ	-332
ਪਾਦ	-333
▁ਉਹ	-334
▁m	-335
▁ਸਟ	-336
▁K	-337
▁ਸਹ	-338
▁ਹੀ	-339
▁ਡਿ	-340
▁ਪੰਜਾਬੀ	-341
▁ਸਕਦਾ	-342
▁ਧ	-343
▁ਪਾ	-344
▁ਕੋਈ	-345
omment	-346
▁ਵਾਲ	-347
▁ਉੱ	-348
ri	-349
of	-350
▁ਉਤਪਾਦ	-351
ੇਜ	-352
▁ਮੁੱ	-353
ਕਾਰੀ	-354
ੈਕਟ	-355
▁ਸਾ	-356
▁ਵੇਖ	-357
▁ਲਿ	-358
ਯੋਗ	-359
▁ਨਾ	-360
ow	-361
ੂਲ	-362
▁ਬਹੁਤ	-363
▁ਖੇ	-364
ੱਥ	-365
ch	-366
ੱਸ	-367
▁ਸਾਰੇ	-368
▁ਦੁਆ	-369
ਾਅ	-370
▁ਬਾਰੇ	-371
ਵੀ	-372
▁ਸਥ	-373
ੰਡ	-374
▁V	-375
▁7	-376
▁ਸਭ	-377
▁ਸਪ	-378
▁ਸਾਨੂੰ	-379
ੱਲ	-380
▁ਬਣਾ	-381
▁ਚਾਹ	-382
▁ਡੀ	-383
ੰਬਰ	-384
amp	-385
▁ਯੂ	-386
▁ਵਧ	-387
▁ਦੁਆਰਾ	-388
▁ਸ਼ਾਮ	-389
▁ਮੋ	-390
▁ਅਸ	-391
ਜੀ	-392
▁...	-393
▁ਤੌਰ	-394
000	-395
ਕਲ	-396
▁ਉਸ	-397
ਵਾਈ	-398
ਵੇਂ	-399
mm	-400
▁–	-401
▁ਜੀ	-402
ਦਰ	-403
ay	-404
▁ਏ	-405
▁@	-406
▁ਵੈ	-407
▁ਅਨ	-408
▁ਟੈ	-409
▁ਮਹ	-410
em	-411
▁l	-412
ੱਬ	-413
▁ਤੁਹਾਡੇ	-414
▁g	-415
▁$	-416
ਬੰ	-417
ੁਕ	-418
▁ਮਸ਼	-419
ਾਤ	-420
▁%	-421
50	-422
ਿਟ	-423
▁ਮੈਨ	-424
▁the	-425
▁ਸਕਦੇ	-426
id	-427
▁ਕੀਤੀ	-428
▁ਦਿੱ	-429
▁9	-430
gt	-431
੍ਹਾਂ	-432
ੁਰੂ	-433
▁ਥ	-434
ation	-435
ਿਆਂ	-436
▁X	-437
▁12	-438
ੇਨ	-439
-1	-440
▁ਤੱਕ	-441
ਬਲ	-442
ਨਲੋਡ	-443
ਹਾ	-444
▁ਮੌ	-445
▁ਉਪ	-446
ang	-447
fo	-448
ir	-449
▁10	-450
▁	-451
ਾ	-452
ਰ	-453
ਸ	-454
ਕ	-455
ੀ	-456
ੇ	-457
ਨ	-458
ਲ	-459
ਿ	-460
ਤ	-461
ਹ	-462
ਦ	-463
e	-464
ਵ	-465
ੋ	-466
ਪ	-467
ਮ	-468
ਟ	-469
ੰ	-470
a	-471
ੱ	-472
ਜ	-473
i	-474
ੈ	-475
o	-476
t	-477
n	-478
.	-479
ਂ	-480
,	-481
ਬ	-482
਼	-483
ੂ	-484
ੁ	-485
r	-486
ਗ	-487
0	-488
s	-489
ਅ	-490
ਡ	-491
ਆ	-492
ਈ	-493
ਇ	-494
ਚ	-495
m	-496
1	-497
l	-498
ਣ	-499
2	-500
c	-501
-	-502
u	-503
ਫ	-504
ਖ	-505
g	-506
:	-507
d	-508
p	-509
h	-510
੍	-511
ਉ	-512
5	-513
C	-514
3	-515
)	-516
(	-517
S	-518
ਧ	-519
y	-520
k	-521
ਭ	-522
4	-523
b	-524
8	-525
/	-526
6	-527
f	-528
ਐ	-529
9	-530
w	-531
A	-532
P	-533
N	-534
7	-535
ਯ	-536
T	-537
ੜ	-538
D	-539
ਥ	-540
M	-541
ੌ	-542
।	-543
'	-544
L	-545
_	-546
E	-547
v	-548
R	-549
ਓ	-550
I	-551
G	-552
"	-553
H	-554
F	-555
B	-556
O	-557
%	-558
ਊ	-559
ਛ	-560
ਏ	-561
;	-562
x	-563
W	-564
ਘ	-565
@	-566
U	-567
X	-568
#	-569
j	-570
K	-571
ਝ	-572
V	-573
&	-574
ਠ	-575
z	-576
!	-577
?	-578
J	-579
+	-580
$	-581
Y	-582
–	-583
*	-584
Q	-585
=	-586
ਢ	-587
q	-588
Z	-589
ਔ	-590
©	-591
[	-592
]	-593
£	-594
\	-595
°	-596
€	-597
}	-598
{	-599
”	-600
“	-601
•	-602
~	-603
а	-604
—	-605
»	-606
×	-607
р	-608
’	-609
е	-610
о	-611
੦	-612
и	-613
н	-614
‘	-615
с	-616
➖	-617
т	-618
к	-619
੨	-620
੧	-621
±	-622
®	-623
≤	-624
🙏	-625
·	-626
л	-627
`	-628
️	-629
é	-630
ç	-631
в	-632
м	-633
😂	-634
ñ	-635
→	-636
ö	-637
★	-638
д	-639
≥	-640
п	-641
੩	-642
ੳ	-643
ä	-644
′	-645
੯	-646
฿	-647
у	-648
	-649
Φ	-650
ь	-651
å	-652
з	-653
♪	-654
👉	-655
❤	-656
👇	-657
ā	-658
­	-659
॥	-660
б	-661
🚩	-662
੮	-663
💓	-664
я	-665
੫	-666
ੲ	-667
й	-668
ü	-669
μ	-670
◆	-671
г	-672
●	-673
✔	-674
🔰	-675
ч	-676
	-677
੪	-678
🇴	-679
🇱	-680
📱	-681
🔥	-682
੬	-683
ї	-684
←	-685
😍	-686
¥	-687
↑	-688
🌟	-689
	-690
੭	-691
â	-692
í	-693
У	-694
á	-695
à	-696
ы	-697
❖	-698
^	-699
ã	-700
č	-701
š	-702
💥	-703
«	-704
α	-705
🏻	-706
【	-707
】	-708
Ω	-709
ी	-710
😘	-711
ѕ	-712
ī	-713
	-714
ж	-715
द	-716
中	-717
👌	-718
§	-719
ि	-720
💖	-721
😊	-722
ó	-723
✅	-724
文	-725
🤣	-726
ह	-727
ê	-728
ъ	-729
、	-730
🇫	-731
🍁	-732
̈	-733
🇼	-734
х	-735
і	-736
្	-737
ų	-738
φ	-739
ц	-740
