<unk>	0
<s>	0
</s>	0
▁	-3.25554
,	-3.68353
.	-3.85483
▁ਹੈ	-4.40367
:	-4.59376
▁ਦੇ	-4.69439
-	-4.71999
ਰ	-4.77075
▁ਨੂੰ	-4.82235
▁ਲਈ	-4.82992
s	-4.83744
ਨ	-4.84662
▁ਅਤੇ	-4.84778
)	-4.98287
ਸ	-5.0143
ਲ	-5.02094
ੀ	-5.04361
▁ਦੀ	-5.06884
ਕ	-5.11021
▁(	-5.36219
ਾਂ	-5.45187
ਮ	-5.48541
▁ਵਿੱਚ	-5.5188
ਤ	-5.52008
ਟ	-5.53147
ਾ	-5.54557
▁ਦਾ	-5.64074
ੇ	-5.64154
▁ਨਾਲ	-5.65515
▁ਇੱਕ	-5.66004
▁ਕਰਨ	-5.70837
▁ਹਨ	-5.77625
▁ਇਸ	-5.81853
▁-	-5.85947
▁ਕਿ	-5.86476
▁1	-5.86539
▁/	-5.8719
ਣ	-5.87517
ਜ਼	-5.90923
e	-5.92598
ਪ	-5.94664
▁'	-5.95204
a	-5.98769
ੋ	-5.99296
▁S	-6.00004
▁ਤੇ	-6.0208
y	-6.02324
▁ਇਹ	-6.04339
ਤੇ	-6.05078
d	-6.07178
;	-6.08918
/	-6.11187
▁ਹੋ	-6.12758
।	-6.13082
▁ਸ	-6.14083
ਰੀ	-6.14671
C	-6.14795
▁C	-6.16732
ਡ	-6.17528
▁ਕਰੋ	-6.18351
er	-6.18619
_	-6.21147
S	-6.22647
o	-6.23569
ੂ	-6.24069
ਸ਼	-6.24335
▁kgm	-6.27156
n	-6.27997
ਜ	-6.29012
t	-6.29065
r	-6.29498
▁ਵਿਚ	-6.30601
ਿਆ	-6.31365
P	-6.32461
m	-6.32494
▁ਨਹੀਂ	-6.33531
c	-6.33891
▁P	-6.34451
▁ਤੋਂ	-6.34869
▁ਅ	-6.35037
▁ਕਰ	-6.35155
i	-6.35859
in	-6.37185
ਗ	-6.3727
▁2	-6.37707
u	-6.38418
ਤਾ	-6.38477
▁ਜੋ	-6.39565
ਬ	-6.39894
ਚ	-6.40308
k	-6.40629
(	-6.40737
ਹ	-6.41273
▁ਵੀ	-6.41346
▁#	-6.4147
▁ਜਾ	-6.41914
ੁ	-6.45402
p	-6.46088
ਰਾ	-6.47152
T	-6.48935
D	-6.4961
M	-6.49898
A	-6.49934
ਵ	-6.50638
▁ਕੀਤਾ	-6.51533
▁in	-6.51642
com	-6.51983
▁।	-6.52764
▁ਜ	-6.5424
2	-6.55003
▁T	-6.5537
ਆਂ	-6.55546
al	-6.56292
ing	-6.57046
an	-6.57146
x	-6.57187
ਦ	-6.5784
▁ਤੁਹਾਨੂੰ	-6.58029
▁B	-6.58268
▁A	-6.58292
▁M	-6.59397
g	-6.59612
▁ਟੈਟੂ	-6.60682
ਲੀ	-6.61251
▁ਕ	-6.62348
ਾਈ	-6.62407
"	-6.63162
▁ਸੀ	-6.63651
ਿੰਗ	-6.64175
ਦਾ	-6.65496
▁D	-6.65755
ਲਾ	-6.66355
!	-6.66451
on	-6.66927
L	-6.66997
▁ਆਪਣੇ	-6.67228
l	-6.67849
ar	-6.68982
ਨਾ	-6.69336
Name	-6.69596
O	-6.69633
3	-6.70031
▁3	-6.71321
%	-6.72209
▁ਆ	-6.72457
▁H	-6.73241
ਅ	-6.74086
f	-6.7428
I	-6.74661
1	-6.75419
▁_	-6.77038
ਫ	-6.77134
▁ਗਿਆ	-6.7776
le	-6.7776
▁G	-6.78831
▁ਹੋਰ	-6.78875
20	-6.79719
▁"	-6.79737
@	-6.79799
▁ਪ	-6.80251
R	-6.81228
▁ਪਰ	-6.81239
▁E	-6.81241
▁ਬ	-6.81467
ਵਾ	-6.82222
ਟਰ	-6.83264
ੈ	-6.83611
b	-6.8411
E	-6.84558
▁ਕੇ	-6.851
4	-6.85163
▁&	-6.8536
h	-6.8603
▁ਨਾ	-6.87476
00	-6.87811
▁ਸਾਡੇ	-6.88253
ਿ	-6.88561
▁F	-6.8882
▁ਤੁਸੀਂ	-6.89137
▁L	-6.89358
▁ਨੇ	-6.89487
5	-6.90539
ਲੇ	-6.9147
▁ਮ	-6.91767
B	-6.91997
ਸੀ	-6.9203
ed	-6.92315
?	-6.93075
H	-6.93104
▁4	-6.94025
or	-6.95085
re	-6.95131
it	-6.97712
▁ਜਾਂ	-6.97922
▁ਪੰਜਾਬੀ	-6.98193
▁ਸਕਦਾ	-6.98296
▁ਇਕ	-6.98962
▁ਹੀ	-6.99105
w	-6.9929
▁ਕੋਈ	-6.99774
N	-6.99868
ਦੇ	-7.00169
ਈ	-7.02032
▁5	-7.02123
et	-7.02696
ਥ	-7.03079
▁ਬਹੁਤ	-7.03823
ਿਕ	-7.04204
ੌ	-7.04259
es	-7.04454
at	-7.04723
ਖ	-7.06422
▁ਕੀ	-7.06861
G	-7.07231
ur	-7.08218
mm	-7.08514
▁ਈ	-7.08754
F	-7.0895
▁ਸਾਰੇ	-7.09427
0	-7.09624
ਨੀ	-7.10537
ਓ	-7.11108
▁ਬਾਰੇ	-7.11195
▁ਸਾਨੂੰ	-7.13223
ਦੀ	-7.13896
▁ਸਭ	-7.13927
▁ਉਹ	-7.14128
ਟੀ	-7.14698
'	-7.14876
ਧ	-7.15298
en	-7.15359
▁R	-7.15431
amp	-7.15567
▁ਵਿ	-7.15646
▁ਦੁਆਰਾ	-7.15719
▁ਫਾਇਲ	-7.16344
ਬਾ	-7.16446
▁ਪ੍ਰ	-7.16625
▁ਚ	-7.17093
▁...	-7.17629
▁ਤੌਰ	-7.17754
ਵਰ	-7.178
▁ਗ	-7.17843
el	-7.18896
ਏ	-7.19449
ਕਾ	-7.19684
...	-7.19933
▁ਡੀ	-7.20152
▁the	-7.20165
ia	-7.20598
▁K	-7.21062
▁–	-7.21136
z	-7.21485
V	-7.22301
W	-7.2326
▁c	-7.23355
ਮੀ	-7.23861
ੜ	-7.23895
v	-7.24194
▁ਤੁਹਾਡੇ	-7.24259
un	-7.24303
ch	-7.24454
ic	-7.24712
▁ਉਤਪਾਦ	-7.24938
▁$	-7.25039
ਤੀ	-7.2561
ੰ	-7.26082
▁ਉਸ	-7.2619
▁ਸਕਦੇ	-7.26363
ੱਟ	-7.26389
▁ਕੀਤੀ	-7.26762
▁@	-7.27605
am	-7.27782
▁ਫ	-7.27787
K	-7.28329
▁N	-7.28573
ਰੇ	-7.2872
st	-7.29096
▁ਜੇ	-7.29482
ਸਾ	-7.29685
ਿਤ	-7.2997
ro	-7.30298
ਮਾ	-7.30835
ੀਆਂ	-7.30856
us	-7.30972
▁ਤੱਕ	-7.31378
ri	-7.31654
▁%	-7.32018
▁W	-7.32149
ਟਾ	-7.32447
gt	-7.32673
ੱਕ	-7.32699
▁ਕੰਮ	-7.33234
▁ਵ	-7.33953
50	-7.33959
10	-7.34095
ਇ	-7.34223
▁ਰਹੇ	-7.35368
੍	-7.3562
U	-7.35677
Comment	-7.36068
th	-7.36229
▁ਚੀਨ	-7.3632
▁ਮਸ਼ੀਨ	-7.37434
▁10	-7.37772
▁ਸ਼	-7.37793
ਵੇ	-7.38432
j	-7.39213
▁ਤਾਂ	-7.39441
▁6	-7.39538
▁ਖੋਜ	-7.40532
▁ਜਾਣਕਾਰੀ	-7.40915
▁ਕੁਝ	-7.41209
ਸਟ	-7.4239
▁J	-7.42752
ਸ਼ਨ	-7.43228
ad	-7.43328
▁info	-7.43735
6	-7.43835
me	-7.44503
ਲੋ	-7.46555
il	-7.46926
▁2018	-7.4706
▁ਜੀ	-7.4762
ਕਾਰ	-7.48189
▁ਕਰਦਾ	-7.48572
▁I	-7.48621
▁+	-7.48691
ਂ	-7.48702
ਣਾ	-7.48781
ra	-7.49131
▁m	-7.49358
▁ਡਾਊਨਲੋਡ	-7.49881
ਆ	-7.49959
ਡੀ	-7.50035
▁ਸਾ	-7.50136
▁8	-7.50225
ਵਾਂ	-7.51018
▁ਸ਼ਾਮਲ	-7.5113
ਰੋ	-7.51595
▁ਹਾਂ	-7.5192
City	-7.52596
▁7	-7.52637
as	-7.52925
ਉ	-7.53037
▁ਉ	-7.5305
▁O	-7.53413
▁name	-7.54192
ਾਇ	-7.54212
▁X	-7.546
ੰਗ	-7.54738
▁ਸਾਲ	-7.54888
ੰਡ	-7.55366
▁ਲੋੜ	-7.55534
ੱਤ	-7.55613
▁ਮੁਫ਼ਤ	-7.55907
▁ਉੱਤੇ	-7.5602
▁ਹ	-7.56116
ਗਾ	-7.56164
X	-7.56244
▁ਰੰਗ	-7.56468
7	-7.56906
▁ਵੱਧ	-7.57731
▁ਪ੍ਰਾਪਤ	-7.58732
▁ਮੁੱਖ	-7.58795
▁ਖ	-7.58849
▁ਕਿਸੇ	-7.59017
ੱਲ	-7.59339
ੰਦ	-7.59631
▁ਇੰ	-7.60259
ਫ਼	-7.60653
▁ਨਿ	-7.60957
▁ਸੰ	-7.60997
ਵਿ	-7.61306
▁ਚੋਣ	-7.61482
8	-7.61488
▁ਭ	-7.62102
▁ਵਰਤੋਂ	-7.62298
▁ਕਰਦੇ	-7.62327
▁ਦ	-7.62639
co	-7.6284
▁ਜਾਣ	-7.62987
▁ਮੈਨੂੰ	-7.63066
ਹਿ	-7.63317
▁ਮੈ	-7.63449
ਵੀ	-7.63479
▁ਵਾਰ	-7.63716
▁ਨਾਂ	-7.63965
▁to	-7.64322
ter	-7.64337
▁ਰਿਹਾ	-7.64377
ol	-7.65564
▁0	-7.65872
▁ਸੰਪਰਕ	-7.65874
▁of	-7.65934
▁a	-7.66296
▁ਪਾ	-7.66317
▁ਕਰਨਾ	-7.66419
ਿਆਂ	-7.66443
▁*	-7.66525
ਤਰ	-7.66547
▁ਦਿਨ	-7.66854
ਮਾਨ	-7.67318
▁ਸਿਸਟਮ	-7.67467
▁20	-7.67625
ਜੀ	-7.67697
te	-7.67839
▁ਹਰ	-7.67904
▁V	-7.68671
ਾਉਣ	-7.69514
▁ਇ	-7.69754
▁ਲੈ	-7.69944
000	-7.70682
▁ਕਿਸਮ	-7.71714
ir	-7.72066
lt	-7.72269
▁ਪੀ	-7.72378
la	-7.7268
▁p	-7.72822
ੇਸ਼ਨ	-7.72984
▁12	-7.73183
is	-7.73204
▁ਫੋਨ	-7.73256
▁ਖੇਡ	-7.73323
ੀਆ	-7.73382
9	-7.73493
▁2019	-7.73975
▁ਮੁ	-7.74103
▁2017	-7.74284
ot	-7.74605
ma	-7.74616
▁ਸੁ	-7.74765
▁ਸਿ	-7.74882
▁ਬੁ	-7.75254
▁9	-7.75841
▁ਮੈਂ	-7.7609
▁f	-7.76149
▁ਪੈ	-7.76167
▁ਏ	-7.7618
▁ਸ਼ੁਰੂ	-7.76247
▁ਹੋਣ	-7.76444
ਬੀ	-7.76479
▁ਵੱਖ	-7.76612
01	-7.76708
ਿਨ	-7.76795
▁ਦਰ	-7.7771
ਗੇ	-7.77801
ent	-7.77843
ਮੇਲ	-7.78164
se	-7.78179
ਕੇ	-7.78786
▁©	-7.79817
▁ਅਸੀਂ	-7.79916
▁ਵਧੀਆ	-7.80335
ਸ਼ਾ	-7.80734
80	-7.81044
▁ਬਾਅਦ	-7.81119
Y	-7.81275
▁w	-7.81408
ਗੀ	-7.81573
▁ਮਿ	-7.81836
ਐਸ	-7.82267
ਾਰ	-7.82459
lo	-7.82486
ਿੱ	-7.8261
▁ਕਰਕੇ	-7.82823
▁ਕੈ	-7.83031
ਹਾ	-7.83274
▁19	-7.83294
▁ਬਣਾਉਣ	-7.83368
▁t	-7.83581
▁ਮਿਲ	-7.8376
ate	-7.83902
15	-7.84026
▁ਕਾਲ	-7.84051
12	-7.84204
▁Name	-7.84261
▁ਜਿਸ	-7.85106
ਰੂ	-7.85511
ੈਸ	-7.85996
▁ਦੋ	-7.86132
ਪੀ	-7.86622
▁ਵੇਖੋ	-7.87173
▁h	-7.87374
▁ਬਣ	-7.87409
▁ਕੰਪਨੀ	-7.87469
punjabi	-7.87479
ang	-7.87564
▁ਐਸ	-7.87725
ow	-7.87929
▁ਮਾ	-7.87952
ਨੇ	-7.88167
sh	-7.88401
▁ਜਾਵੇਗਾ	-7.88715
▁ਦਿ	-7.88765
▁ਸਟ	-7.88828
▁ਕੋ	-7.89036
▁ਕੰ	-7.89147
11	-7.89202
▁ਵਿਚਾਰ	-7.89272
▁ਐ	-7.8932
ਕੋ	-7.89556
ne	-7.91138
▁ਚਿੱਤਰ	-7.91416
30	-7.91437
ੋਰ	-7.91565
ਪਾ	-7.91746
▁ਉੱਚ	-7.91887
ਠ	-7.91965
▁ਸੇਵਾ	-7.92105
▁ਕਾ	-7.92603
▁ਘ	-7.92844
▁ਵਰਤ	-7.93173
ੱਡ	-7.93429
▁ਪੋਸਟ	-7.9348
▁ਕੁ	-7.93492
ack	-7.93538
ers	-7.93588
▁ਐਕਸ	-7.93987
▁ਬੰਦ	-7.94195
age	-7.94338
▁Co	-7.94421
਼	-7.94453
ul	-7.94747
://	-7.9476
ਪਰ	-7.94868
ਿਸ	-7.94951
▁ਵੀਡੀਓ	-7.94969
16	-7.9507
▁ਘੱਟ	-7.95376
▁ਪਹਿਲਾਂ	-7.95497
▁ਅਸ	-7.95651
ਮੇ	-7.96254
di	-7.96331
60	-7.96471
▁ਆਰ	-7.96487
▁ਸਿਹਤ	-7.96652
▁and	-7.9667
▁ਮਾਡਲ	-7.9671
▁ਤਿਆਰ	-7.96881
▁ਮੋ	-7.97199
▁2016	-7.97899
▁ਖੇਤਰ	-7.97962
▁b	-7.98086
▁ਆਕਾਰ	-7.98164
ong	-7.98518
▁ਗਈ	-7.98528
ation	-7.98661
▁ਆਮ	-7.98728
▁ਕਲ	-7.98731
▁ਫੋਲਡਰ	-7.98767
id	-7.99461
ਯ	-7.99969
ver	-8.00039
de	-8.00241
▁ਦੀਆਂ	-8.00719
li	-8.00773
ਟੇ	-8.00912
na	-8.00992
▁ਲੋਕ	-8.01254
ex	-8.0134
▁ਰਿ	-8.01409
▁ਯੂ	-8.01575
&	-8.01732
ਯੋਗ	-8.0196
▁U	-8.02171
▁ਬੇ	-8.02247
▁ਦਿੱਤਾ	-8.02596
▁24	-8.02736
ਜ਼ੀ	-8.02998
▁ਪਤਾ	-8.03263
per	-8.03629
▁ਐਲ	-8.04125
ly	-8.04235
▁ਚਾਹੁੰਦੇ	-8.05211
▁ਸਰਵਰ	-8.05274
▁ਆਪਣੀ	-8.05416
▁ਕਾਰ	-8.05442
ti	-8.05581
▁ਚੁਣੋ	-8.05706
ਭ	-8.06111
▁ਨੰਬਰ	-8.06647
ਾਇਆ	-8.06686
ut	-8.06762
▁ਓ	-8.06999
and	-8.07004
▁ਜਦੋਂ	-8.07284
▁ਇੱਥੇ	-8.07329
ig	-8.07348
▁ਲਾ	-8.07391
▁ਵਾਲੇ	-8.07564
▁15	-8.07713
▁ਹੁਣ	-8.07739
▁ਗਲਤੀ	-8.07774
40	-8.07987
ਭਾ	-8.07988
]	-8.08024
ੱਗ	-8.08226
▁ਕੋਡ	-8.0836
ay	-8.085
▁ਯੋਗ	-8.08509
▁18	-8.08651
▁for	-8.09116
▁ਉਨ੍ਹਾਂ	-8.09557
ਗਰ	-8.09664
▁ਸੈ	-8.1049
ੜੀ	-8.10534
ਚਾ	-8.1056
(_	-8.10563
ਿਊ	-8.1082
▁ਸਿਰਫ	-8.10985
90	-8.10985
▁ਕੋਲ	-8.11633
▁ਸੋ	-8.11806
▁ਆਈ	-8.12129
ta	-8.12351
ਐ	-8.12499
ਖਾ	-8.12548
06	-8.12715
ho	-8.12824
ੇਅਰ	-8.12888
▁ਡਿ	-8.13221
▁ਬੀ	-8.13378
25	-8.1346
ਸ਼ੀ	-8.13651
▁ਜਿ	-8.13738
▁ਗਏ	-8.14045
um	-8.1408
▁ਪਿ	-8.14115
ਜਾ	-8.14343
▁ਪੁ	-8.14398
99	-8.14813
▁ਸਰੋਤ	-8.14925
੍ਹ	-8.15178
▁ਰੋ	-8.15211
▁ਛੱਡ	-8.15282
ਮਿ	-8.15482
op	-8.15636
optional	-8.15665
▁200	-8.15699
:%	-8.16085
ਬਰ	-8.16339
▁ਜਾਂਦਾ	-8.16708
08	-8.16856
▁ਮੌਜੂਦਾ	-8.16958
▁ਕੀਮਤ	-8.1726
▁ਕੀਤੇ	-8.1728
▁ਮੁੜ	-8.17449
▁ਪ੍ਰੋ	-8.17498
ੱਖ	-8.17527
26	-8.17771
▁ਕਾਪੀਰਾਈਟ	-8.17876
om	-8.18123
▁ਧ	-8.18172
▁30	-8.18194
▁ਖਾ	-8.18288
▁ਆਪ	-8.18337
▁ਪੇ	-8.18512
he	-8.1867
▁ਆਨਲਾਈਨ	-8.1886
▁£	-8.18974
ੋਨ	-8.19131
▁ਪਲ	-8.19239
ip	-8.19409
pa	-8.19446
▁ਅੱਗੇ	-8.19641
ਨੋ	-8.19778
ਦਾਰ	-8.19965
▁ਹੁੰਦਾ	-8.20068
ast	-8.20193
▁ਮੁੱਲ	-8.20364
▁g	-8.20482
ਲਿ	-8.20486
▁ਟੀ	-8.20561
ha	-8.211
▁2015	-8.21222
▁ਰੂਪ	-8.21454
J	-8.21835
ੜੇ	-8.22138
▁ਸਮੱਗਰੀ	-8.22164
im	-8.22355
02	-8.2288
▁ਸੰਰਚਨਾ	-8.22896
ac	-8.229
os	-8.23035
ਖ਼	-8.23047
▁Comment	-8.2326
29	-8.2329
▁ਤੁਹਾਡੀ	-8.23413
mo	-8.23448
ਮੋ	-8.23509
▁ਮਦਦ	-8.23561
ag	-8.23666
▁ਫਾਇਲਾਂ	-8.2378
qu	-8.23881
ੰਨ	-8.23926
▁11	-8.23936
ੱਚ	-8.24186
▁[	-8.2419
▁ਬਾ	-8.24284
tor	-8.24343
▁re	-8.2435
ill	-8.24354
19	-8.24628
▁ਸਨ	-8.24642
ਆਈ	-8.24906
ੇਟ	-8.2495
ub	-8.2526
▁ਸਾਈਟ	-8.25284
ੋਲ	-8.2536
▁ਚਾਹੀਦਾ	-8.2558
▁ਭਾਰਤ	-8.25788
18	-8.26126
ab	-8.26143
ੈਟ	-8.26352
ੋਂ	-8.26435
13	-8.26456
▁ਡਾਲਰ	-8.26647
▁ਕਈ	-8.26663
▁ਸਮ	-8.26674
▁ਬੈ	-8.26793
▁ਪੂਰੀ	-8.27242
▁ਸਮੇਂ	-8.27334
▁v	-8.27498
▁ਸਟੀਲ	-8.27653
hi	-8.2773
ਤਿ	-8.28354
▁ਥ	-8.28411
ਜ਼ਾ	-8.2859
▁ਘਰ	-8.28868
▁ਝ	-8.28935
▁ਮੇਲ	-8.29124
est	-8.29617
▁ਯ	-8.2962
05	-8.29707
▁ਮੇਰੇ	-8.29908
45	-8.29971
35	-8.30037
ਬਲ	-8.30062
ੈਕ	-8.30157
07	-8.30177
▁ਗਾਹਕ	-8.30616
up	-8.30806
all	-8.30827
▁ਮਾਰ	-8.31008
▁ਫੇਸਬੁੱਕ	-8.31174
▁ਬਿ	-8.3122
28	-8.3125
▁ਜੇਕਰ	-8.31669
▁USA	-8.31738
ca	-8.31748
ion	-8.31804
▁ਡਾਟਾ	-8.31948
▁ਮੋਬਾਈਲ	-8.32299
ਿਲ	-8.32316
27	-8.32398
▁ਇਨ	-8.32556
ine	-8.32696
▁(1	-8.3274
▁Q	-8.32823
▁ਵਪਾਰ	-8.33032
▁ਲੱਭ	-8.3311
ਟੋ	-8.33243
ve	-8.3353
land	-8.33624
14	-8.33887
em	-8.34041
ਯਾ	-8.34222
▁No	-8.34225
ਵਾਰ	-8.34355
▁ਨਾਮ	-8.34459
▁Ch	-8.34538
▁ਬਰ	-8.34744
ts	-8.34808
04	-8.34819
▁ਬਦਲ	-8.34975
ਦਰ	-8.35151
▁ਭਰ	-8.35219
▁16	-8.35291
▁Re	-8.35366
ec	-8.354
ry	-8.35433
▁ਸਰ	-8.36018
ਪੂਰ	-8.3608
▁ਛ	-8.36123
lu	-8.3619
03	-8.36282
ind	-8.36336
ਟਿੰਗ	-8.36423
▁In	-8.36461
▁ਲਾਈਨ	-8.36573
70	-8.36645
▁ਵਿੰਡੋ	-8.36658
▁ਸਾਫਟਵੇਅਰ	-8.36676
▁ਕਾਰਜ	-8.36961
▁50	-8.37037
ਿਕਸ	-8.37415
ੰਟ	-8.37637
sp	-8.37638
ਊ	-8.37761
ect	-8.37798
▁ਦਿਓ	-8.37827
ru	-8.37907
▁ਐਪ	-8.37986
="	-8.38015
▁ਖਾਸ	-8.3812
▁ਦੌਰਾਨ	-8.38123
▁ਵੇਖ	-8.38132
ph	-8.38191
▁Y	-8.38229
od	-8.38233
▁ਫੋਟੋ	-8.38723
09	-8.38752
▁units	-8.38836
24	-8.39008
-1	-8.39013
▁ਬਾਹਰ	-8.39127
wa	-8.3924
ਡਰ	-8.3928
▁Ma	-8.39655
▁Z	-8.39795
ਘ	-8.40016
ਯੂ	-8.40052
▁ਰਹੀ	-8.40247
▁ਸਪ	-8.40443
▁ਟਿੱਪਣੀ	-8.40461
▁ਨਵ	-8.40689
▁100	-8.4082
▁amount	-8.40901
▁ਵਰਤਿਆ	-8.40928
pe	-8.40946
▁ਰੇ	-8.40987
▁ਕਾਰਵਾਈ	-8.41009
▁ਨਵਾਂ	-8.41053
▁ਈਮੇਲ	-8.41242
▁ਠੀਕ	-8.41519
XL	-8.41862
▁ਜੰਤਰ	-8.41964
▁ਚਿ	-8.4203
▁ਲਾਗ	-8.42265
Z	-8.42286
▁ਪੁੱਛ	-8.4232
ai	-8.42384
+	-8.42433
21	-8.42895
tra	-8.42897
Q	-8.42995
ਿਟ	-8.43074
▁ਹਾਈ	-8.4309
▁ਕੰਟਰੋਲ	-8.43217
ਪੋ	-8.43234
ce	-8.43251
der	-8.43438
▁is	-8.44056
ਹੀ	-8.44338
ਨੂੰ	-8.44449
▁ਦੁ	-8.44546
ੈਕਟ	-8.44727
▁ਵਿਕਰੀ	-8.44767
ੂਲ	-8.44781
▁http	-8.44981
ap	-8.4534
▁ਕਿਰਪਾ	-8.45408
▁ਫਲ	-8.45487
55	-8.45649
ੱਦ	-8.45714
ਝ	-8.45715
ant	-8.45772
▁ਸੰਦ	-8.45798
▁ਵਰਤਣ	-8.45829
▁ਸੋਧ	-8.45919
”	-8.45958
ard	-8.45985
ਡਾ	-8.46081
▁de	-8.46105
▁l	-8.46532
ੈਨ	-8.46568
▁ਸਹਿਯੋਗ	-8.46796
▁ਡਰ	-8.4691
ok	-8.4706
▁ਸਟਿੱਕਰ	-8.4717
▁ਭਾਰ	-8.47243
▁ਪਰਿਵਾਰ	-8.47264
ie	-8.47351
▁ਅੰਦਰ	-8.47409
▁ਤਰ੍ਹਾਂ	-8.47452
▁ਗੁ	-8.47555
▁ਵਾਲੀ	-8.47589
we	-8.47617
ਛ	-8.47941
▁ਜਦ	-8.47977
▁ਵਿਕਾਸ	-8.48118
▁ਰਾਜ	-8.48176
▁ਪਾਣੀ	-8.48212
ੈਂ	-8.48261
▁€	-8.48477
ੜਾ	-8.48743
▁14	-8.48897
▁2014	-8.48933
200	-8.49204
▁ਵੈੱਬਸਾਈਟ	-8.49254
▁ਭਾਗ	-8.49296
▁ਪਹੁੰਚ	-8.49542
▁2013	-8.49705
▁weather	-8.49729
▁Constellation	-8.49734
▁ਖਰੀਦ	-8.4974
ity	-8.49914
▁ਪੂਰਾ	-8.50139
▁ਸੁਰੱਖਿਆ	-8.50507
▁ਸਵਾਲ	-8.50612
▁ਵੱਡੇ	-8.50701
▁St	-8.50712
vi	-8.5079
da	-8.50984
sta	-8.51019
▁ਪ੍ਰਤੀ	-8.51082
ਗ੍ਰ	-8.51179
▁ਸ਼ਾਮਿਲ	-8.51188
▁ਨਕਸ਼ਾ	-8.51188
ੀਅਨ	-8.51276
▁ਗੁਣਵੱਤਾ	-8.51481
art	-8.51507
▁ਪੇਸ਼	-8.5167
▁title	-8.51677
▁ਫਿਰ	-8.51678
▁ਸੈੱਟ	-8.51784
▁ਕਾਰਨ	-8.51826
▁ਹਾ	-8.51971
▁13	-8.51983
▁ਵਰਗ	-8.52268
▁“	-8.52296
▁ਅੰਤ	-8.5232
▁ਸਕਦੀ	-8.52357
cm	-8.52428
no	-8.52526
▁by	-8.52632
▁ਸਹਾਇਕ	-8.52663
▁ਲੋਡ	-8.5319
ite	-8.53211
ਆਰ	-8.53322
▁ਸ਼ਾਨਦਾਰ	-8.53558
ੀਅਮ	-8.53583
▁2020	-8.5369
▁ਹਵਾ	-8.53692
ਵੋ	-8.53723
▁ਟ੍ਰ	-8.53754
org	-8.54092
▁GIF	-8.5416
ਹਾਰ	-8.54378
▁ਸੈਟਿੰਗ	-8.54398
int	-8.54611
=	-8.5476
▁ਵੈਬਸਾਈਟ	-8.54967
ment	-8.55061
▁ਲਿ	-8.55295
ੀਅਰ	-8.55321
oc	-8.55336
▁ਹੱਕ	-8.55369
▁action	-8.55416
▁ਸੂ	-8.55452
▁ਜਵਾਬ	-8.55477
to	-8.5566
ਐੱਮ	-8.55679
▁ਤਾਪਮਾਨ	-8.55679
ਚੇ	-8.55875
75	-8.56076
▁25	-8.56181
one	-8.5635
▁ਕਲਿੱਕ	-8.565
ian	-8.56539
▁ਐਮ	-8.56642
ਿਸ਼	-8.56851
▁ਪ੍ਰਭਾਵ	-8.56869
man	-8.56973
va	-8.57031
▁ਸਥਿਤੀ	-8.57077
▁ਬਣਾਇਆ	-8.5708
▁ਭਾਸ਼ਾ	-8.57122
ਣੇ	-8.57786
ੱਠ	-8.57833
ਫਾ	-8.57987
▁•	-8.58069
36	-8.58132
▁ਸਾਡੀ	-8.5846
les	-8.58505
▁ਡੇ	-8.58535
22	-8.58574
▁ਪਲੱਗਇਨ	-8.5879
uc	-8.58805
17	-8.58812
▁ਹੇਠ	-8.58995
▁ਨੈੱਟਵਰਕ	-8.59001
32	-8.59005
ge	-8.59022
pl	-8.59134
▁ਹੁੰਦੀ	-8.59212
▁do	-8.59326
ਜਨ	-8.59496
ਕਿ	-8.59599
▁ਹਟਾਓ	-8.59684
ਾਇਟ	-8.59775
ਂਡ	-8.59935
▁ਜੋੜ	-8.6002
au	-8.60057
▁ਵਰਜਨ	-8.60066
ell	-8.60175
▁ਐਪਲੀਕੇਸ਼ਨ	-8.60275
▁=	-8.6052
ਪ੍ਰ	-8.60603
▁ਲਾਗੂ	-8.60745
▁ਹੋਵੇ	-8.60783
▁ਵਿਅਕਤੀ	-8.60919
▁ਸਕ	-8.60996
▁ਟੈਸਟ	-8.6111
▁ਉਪ	-8.61145
▁17	-8.6135
▁ਗੱਲ	-8.61688
▁ਢੰਗ	-8.61716
ort	-8.6199
ਧਾ	-8.61992
ਐਚ	-8.62134
▁ਜਾਰੀ	-8.62151
color	-8.62222
▁ਬੋਨਸ	-8.62224
▁ਜੂਨ	-8.62342
▁Sh	-8.6241
▁ਨਹੀ	-8.62638
▁ਇੰਸਟਾਲ	-8.62655
▁item	-8.62777
if	-8.62833
out	-8.62836
ਾਇਲ	-8.6287
wi	-8.62997
▁ਉਤਪਾਦਨ	-8.63018
ਸਿ	-8.63047
▁ਬਲ	-8.63257
▁ਐਨ	-8.63303
ੁਕ	-8.63323
ਢ	-8.63468
▁ਘੰਟੇ	-8.63535
ਲਡ	-8.63653
ੜ੍ਹ	-8.63968
▁ਪੋਰਨ	-8.64091
▁ਹੱਲ	-8.64255
▁ਹੋਏ	-8.64356
▁ਆਦਿ	-8.64424
www	-8.64507
gu	-8.64595
▁ਪ੍ਰਦਾਨ	-8.6465
ਹੇ	-8.64806
86	-8.64952
▁ਵਿੱਚੋਂ	-8.65016
▁ਬਣਾ	-8.65069
▁ਫੈਕਟਰੀ	-8.65093
▁ਜਿਵੇਂ	-8.65118
▁ਚੱਲ	-8.65326
IN	-8.65378
bo	-8.65399
▁ਪਾਰ	-8.65515
23	-8.65517
▁ਸੂਚੀ	-8.65657
▁ਸਮਾਂ	-8.65873
ੀਏ	-8.66035
end	-8.66268
▁Windows	-8.66335
▁be	-8.66554
▁ਪੇਸ਼ਕਸ਼	-8.66564
ਰਿ	-8.6658
▁ਅਨੁਕੂਲ	-8.66676
▁OF	-8.66732
ਾਊ	-8.66741
▁ਭੁਗਤਾਨ	-8.6679
▁ਹੋਇਆ	-8.66823
а	-8.66904
33	-8.67145
tion	-8.67199
▁60	-8.67304
▁ਰੁ	-8.67315
▁ਸ਼ਹਿਰ	-8.67425
▁ਵੈ	-8.67553
ਕੁ	-8.67554
ੁਆ	-8.67576
ran	-8.67595
▁ਡਿਸਕ	-8.67707
▁ਗੋਲ	-8.67978
ies	-8.6816
ਾਈਡ	-8.68406
▁ਡਾ	-8.68504
hen	-8.68586
▁ਅੱਪਡੇਟ	-8.68749
▁~	-8.68845
▁ਪਸੰਦ	-8.68868
ud	-8.68975
▁ਬਚ	-8.6924
ਸ਼ਕ	-8.69473
ist	-8.69521
▁ਟੋ	-8.6965
59	-8.69755
▁ਵਧ	-8.69789
▁ਅਨੁਵਾਦ	-8.69801
▁°	-8.70189
ੇਜ	-8.70297
ਫੇ	-8.70322
▁ਸੁਨੇਹਾ	-8.70391
▁ਗਿਣਤੀ	-8.70391
▁City	-8.70496
▁ਲਿਆ	-8.70676
▁ਹਿ	-8.70802
▁ਪਾਵਰ	-8.70855
▁ਰੈ	-8.70917
▁ਟਰੈਕ	-8.71011
▁ਡੈ	-8.71255
ug	-8.71309
)...	-8.71419
q	-8.71703
ੰਘ	-8.71723
▁ਚੁ	-8.71802
▁ਹੁੰਦੇ	-8.7182
▁ਟੈ	-8.72032
▁ਸਰਟੀਫਿਕੇਟ	-8.7206
▁ਕਿਹਾ	-8.72067
ੰਤ	-8.72136
ਲੇਟ	-8.72303
ੰਮ	-8.72332
▁ਸ਼ਾ	-8.72731
▁ਨਕਸ਼ੇ	-8.72785
fi	-8.72814
ba	-8.72886
ਿਡ	-8.72996
▁ਗਰੁੱਪ	-8.73027
▁ਜੀਵਨ	-8.73032
▁ਸਥਾਨ	-8.7304
▁ਅਪ	-8.73064
▁ਅਮਰੀਕਾ	-8.73149
▁ਤਬਦੀਲ	-8.73167
ber	-8.73269
ਪੇ	-8.73445
▁ਨਿਰਮਾਤਾ	-8.73636
▁ਜਨਵਰੀ	-8.73636
65	-8.7368
ue	-8.73718
▁ਸਮਝ	-8.73794
ock	-8.73946
▁ਫਰਵਰੀ	-8.74004
▁Punjabi	-8.7412
▁ਤੁਹਾਡਾ	-8.74126
▁ਲਿਖ	-8.74228
▁ਜੁਲਾਈ	-8.74249
ੈਕਸ	-8.74294
ff	-8.74443
▁ਕਾਰਡ	-8.74541
net	-8.74575
ਦੂ	-8.74576
▁ਨਵੇਂ	-8.74646
▁ਲਿਮਟਿਡ	-8.74866
▁ਫਿ	-8.74871
pr	-8.74949
▁ਲੇਖ	-8.74979
▁ਯੂਜ਼ਰ	-8.74994
▁ਲੜੀ	-8.75039
▁ਦੇਸ਼	-8.75298
▁ਲੈਣ	-8.75344
ੰਬ	-8.75385
▁KDE	-8.75487
▁ਬ੍ਰ	-8.75769
88	-8.75838
2018	-8.75965
▁ਪੈਕੇਜ	-8.75991
▁ਦਿੱਤੀ	-8.75995
56	-8.75999
ਥਾ	-8.76048
be	-8.76086
ੰਸ	-8.76155
ਅਲ	-8.76239
▁ਤਾਜ਼ਾ	-8.76246
48	-8.76326
▁ਫਰ	-8.76438
▁ਲਿਸਟ	-8.76461
ਉਂ	-8.76534
ਵੱਖ	-8.76568
ਟਾਈ	-8.76626
38	-8.76706
▁ਉਪਲੱਬਧ	-8.76738
ਬੂ	-8.76762
34	-8.76804
▁ਲਾਲ	-8.76825
▁TRANSLATORS	-8.76864
▁ਸਤੰਬਰ	-8.76864
31	-8.76913
▁ਫ਼	-8.77154
▁ਲੱਗ	-8.77164
58	-8.77239
▁ਨਿਯਮ	-8.77244
37	-8.77293
ਮੈਂਟ	-8.77605
▁ਉਹਨਾਂ	-8.77642
▁ਸਹੀ	-8.77835
▁ਸਹਾਇਤਾ	-8.77879
▁ਆਟੋਮੈਟਿਕ	-8.78007
▁ਅਗਸਤ	-8.78007
▁21	-8.78098
▁ਕੇਵਲ	-8.7811
min	-8.7817
▁ਸੌ	-8.78229
ob	-8.783
▁ਉਦਯੋਗ	-8.78302
▁22	-8.78309
hu	-8.78364
▁ਮਹੀਨੇ	-8.7839
▁ਵੇ	-8.7841
▁ਅਣ	-8.7847
▁ਅਕਤੂਬਰ	-8.78904
▁ਸਕਰੀਨ	-8.78906
▁ਲਿਖਣ	-8.78918
▁ਮਈ	-8.78937
▁An	-8.7903
2019	-8.79165
ore	-8.79243
ਿਪ	-8.79333
▁The	-8.7936
ost	-8.79608
ਜਿ	-8.79672
ਇਨ	-8.79703
▁se	-8.79857
▁ਇਲਾਜ	-8.80142
▁ਫਿਲਟਰ	-8.80201
▁ਕੁੰਜੀ	-8.80202
▁ਵੇਰਵਾ	-8.80332
▁ਕਿਵੇਂ	-8.80347
ਂਟ	-8.80539
▁Casino	-8.80592
▁ਬਣਾਓ	-8.8082
▁ਭੇਜੋ	-8.8092
pp	-8.80984
▁ਪਾਈਪ	-8.8099
▁ਨ੍ਯੂ	-8.81118
▁ਖਾਲੀ	-8.81129
▁ਰੇਲ	-8.81297
▁ਪੱਧਰ	-8.81381
▁LED	-8.81382
ਾਉ	-8.81486
▁ਯਾਤਰਾ	-8.81646
▁ਕੋਸ਼ਿਸ਼	-8.81646
▁ਜਾਂਚ	-8.81715
੍ਰਿ	-8.81768
▁ਦਿੰਦਾ	-8.81779
▁ਟੈਗ	-8.81858
ਕੂ	-8.81993
▁123	-8.82151
oo	-8.82175
GenericName	-8.82176
▁ਡੈਸਕਟਾਪ	-8.82176
▁ਤਕਨੀਕੀ	-8.823
▁ਡਿਜ਼ਾਈਨ	-8.8231
▁ਪੋਰਟ	-8.82311
▁ਕਰਦੀ	-8.82315
57	-8.82773
▁Al	-8.82914
NAME	-8.82978
▁ਝਲਕ	-8.83014
▁ਸਮੀਖਿਆ	-8.83112
▁ਆਖਰੀ	-8.83114
ਚਰ	-8.83239
▁ਜਿੱਥੇ	-8.83247
-8	-8.83264
ou	-8.83479
▁ਰੱਦ	-8.83563
ਵੇਂ	-8.83591
▁ਕਾਰੋਬਾਰ	-8.83786
▁ਲਗ	-8.83879
▁ਰੱਖ	-8.83942
mb	-8.84006
▁ਸਮਰੱਥਾ	-8.84057
ov	-8.84162
▁ਫਾਰਮ	-8.84174
39	-8.84187
▁ਦਬਾਅ	-8.84193
▁ਮਾਰਚ	-8.84222
▁ਅਸਲ	-8.84231
▁ਆਸਾਨ	-8.84361
▁ਨੈ	-8.84399
ਧੀ	-8.8447
▁ਸੰਚਾਰ	-8.84651
ਗੋ	-8.84714
ਜੇ	-8.84742
▁ਰੱਖੋ	-8.85004
br	-8.85025
▁ਮੌਜੂਦ	-8.85035
ਚਾਰ	-8.85219
▁ਟਾਈਮ	-8.85302
▁ਕੇਂਦਰ	-8.85427
TS	-8.85475
▁ਭੋਜਨ	-8.8556
▁ਮਿੰਟ	-8.85767
▁ਜਾਓ	-8.85811
▁»	-8.85964
▁ਵਾਪਸ	-8.85976
▁ਨਵੀਂ	-8.85986
▁ਦੱਸ	-8.86112
ord	-8.86119
*	-8.86167
po	-8.86241
▁ਅੱਜ	-8.8625
ak	-8.86541
tic	-8.86549
▁ਪਾਠ	-8.86653
▁Vessoft	-8.86667
▁ਸੁਧਾਰ	-8.86668
ਡੋ	-8.86783
ib	-8.86849
ੈਪ	-8.87066
▁ਧਿਆਨ	-8.87089
ty	-8.8715
66	-8.87269
▁ਅਨੁਸਾਰ	-8.87365
bi	-8.87394
ਐਕਸ	-8.87449
▁ਨੌਜਵਾਨ	-8.87506
▁ਬੱਚੇ	-8.87506
▁ਸਫ਼ਾ	-8.87587
77	-8.87617
ਹਿਰ	-8.87683
▁ਅਲ	-8.87765
▁ਨਵੰਬਰ	-8.87928
▁ਰੱਖਣ	-8.87985
▁ਕਰੇਗਾ	-8.88071
▁ਵਾਲ	-8.88072
500	-8.88409
ਖੇ	-8.88719
ction	-8.8876
▁ਵੇਖਣ	-8.88771
ੈਡ	-8.88953
ki	-8.89003
az	-8.8902
"&	-8.89039
▁ਪ੍ਰੋਗਰਾਮ	-8.89062
ਬੋ	-8.89114
▁ਮਿਨ	-8.89227
▁ਅਪ੍ਰੈਲ	-8.89347
▁ਕਵਰ	-8.89368
▁ਚੌੜਾਈ	-8.8949
ਰਾਮ	-8.89546
ਗਲ	-8.89559
▁ਬੋ	-8.89776
▁ਪਿਛਲੇ	-8.89861
▁con	-8.89865
ake	-8.89882
▁De	-8.8989
ive	-8.89931
▁ਜਾਂਦੀ	-8.89969
ass	-8.89991
▁ਕਲਾ	-8.90269
ਪੁਰ	-8.90309
▁ਸਕਿਆ	-8.90325
▁ਪਿਆਰ	-8.90328
46	-8.90376
bu	-8.9038
85	-8.90383
box	-8.90392
▁ਹਵਾਈ	-8.90397
ik	-8.90457
▁ਪਰਬੰਧ	-8.90497
▁ਸੁਰੱਖਿਅਤ	-8.90497
▁ਢ	-8.90531
che	-8.90637
▁ਸਪਲਾਇਰ	-8.90787
ਿਅ	-8.90798
ash	-8.90966
▁ਸਰਕਾਰ	-8.90986
ਾਈਨ	-8.91013
ਬੇ	-8.91074
iv	-8.9109
ick	-8.91144
▁ਸਕੀ	-8.91158
▁40	-8.91174
▁label	-8.91223
ਹੋ	-8.91388
▁ਪਾਸਵਰਡ	-8.91515
ੇਡ	-8.91669
ੂੰ	-8.91854
▁ਸ਼ਬਦ	-8.91972
ਵਲ	-8.92163
port	-8.9249
▁ਪਰਿੰਟ	-8.92543
98	-8.92624
▁ਸਪਲਾਈ	-8.92696
▁ਕੁਨੈਕਸ਼ਨ	-8.92838
▁pro	-8.92853
▁ਗਤੀ	-8.92862
▁'%	-8.92864
▁ਸੇ	-8.92895
95	-8.92964
▁ਅਧਿਕਾਰ	-8.92986
68	-8.93129
▁ਮਿਤੀ	-8.93238
▁ਸਲਾਟ	-8.93442
▁ਪਹਿਲੀ	-8.93579
▁ਅਜਿਹੇ	-8.93581
▁ਦਸੰਬਰ	-8.93581
▁ਵੱਡੀ	-8.93741
▁ਬਦਲੋ	-8.93773
▁unit	-8.93853
▁×	-8.94102
▁GPS	-8.94183
▁ਲਿੰਕ	-8.94331
▁ਹਾਲਤ	-8.9451
ਮੁ	-8.9457
▁ਹਿੱਸੇ	-8.94631
ka	-8.94684
▁ਤਕਨਾਲੋਜੀ	-8.94782
ree	-8.9479
р	-8.94933
▁ਗਲਤ	-8.95116
▁ਮੂਲ	-8.95134
▁ਲਾਭ	-8.95174
ਐੱਨ	-8.95235
▁ਤਸਵੀਰ	-8.95235
ਟਿਕ	-8.95335
ide	-8.95442
▁ਰੋਡ	-8.9545
▁ਸਬ	-8.95479
▁ਕਿਉਂਕਿ	-8.95539
▁ਸਮੱਸਿਆ	-8.95539
▁ਲੰਬਾਈ	-8.95539
▁ਟੂਲ	-8.95566
ਡ੍ਰ	-8.9565
▁ਨਿੱਜੀ	-8.95692
US	-8.9573
▁ਗੁਰੂ	-8.95911
▁whatsthis	-8.96149
100	-8.96255
▁ਕੁੱਲ	-8.96294
▁you	-8.96294
▁ਰਾਖਵੇਂ	-8.96303
▁ਹਮੇਸ਼ਾ	-8.96303
▁ਜਹਾਜ਼	-8.96304
47	-8.96342
▁ਲੰ	-8.96351
’	-8.96609
ਚੀ	-8.96691
▁ਸੁਨੇਹੇ	-8.96763
}	-8.96917
▁ਵਿਸ਼ੇਸ਼ਤਾ	-8.96936
▁ਟੀਮ	-8.97
▁condition	-8.97072
▁ਜ਼ਰੂਰੀ	-8.97072
▁ਮੋਟਰ	-8.97072
е	-8.97226
о	-8.97226
eng	-8.97378
▁ਲਾਈਟ	-8.97379
▁ਰੋਕ	-8.97411
ਵਾਈ	-8.97503
▁ਬਟਨ	-8.97565
ni	-8.97846
▁ਸਧਾਰਨ	-8.97847
ee	-8.97968
▁ਪਲਾਸਟਿਕ	-8.98003
44	-8.98047
▁ਡਿਜ਼ਾਇਨ	-8.98159
▁ਬਾਲਗ	-8.98188
{	-8.98471
▁ਥੀਮ	-8.98477
ish	-8.98599
io	-8.98656
▁ਵਿਸ਼ੇਸ਼	-8.98674
$	-8.98731
ear	-8.9874
▁ਹੋਈ	-8.98814
ਲੈਂਡ	-8.98822
°	-8.98896
▁ਸਬੰਧ	-8.98943
ੀਕਲ	-8.99033
▁ਕਾਲੇ	-8.99036
▁ਬਿਜਲੀ	-8.991
▁ਸੰਭਾਲੋ	-8.99133
res	-8.99198
▁ਵੈੱਬ	-8.99258
▁ਸੰਬੰਧ	-8.99258
▁ਉਪਲਬਧ	-8.99416
ਐਮ	-8.99455
89	-8.99595
str	-8.99661
SS	-8.99698
▁ਮਾਪ	-8.99708
▁ਵਧੇਰੇ	-8.99733
▁ਉਮਰ	-8.99748
AN	-8.99785
ਰੀਆ	-9.00017
53	-9.00118
▁ਆਟੋ	-9.00147
India	-9.00216
52	-9.00273
800	-9.0034
▁ਯਕੀਨੀ	-9.00369
▁ਦਿੱਤੇ	-9.0037
▁ਕਾਨੂੰਨ	-9.00374
76	-9.00384
mp	-9.00386
integer	-9.00529
har	-9.0057
▁ਲੋਕਾਂ	-9.0057
▁CD	-9.00662
ੈਂਸ	-9.00681
lan	-9.0087
ens	-9.00937
ਿੰਨ	-9.0104
▁ਪੈਦਾ	-9.01146
ਬੱਧ	-9.0117
▁ਪ੍ਰਬੰਧਨ	-9.01438
▁ਤੋ	-9.0153
▁ਬਾਰ	-9.01577
▁ਸੁੰਦਰ	-9.01818
ger	-9.01862
▁ਸਰਕਾਰੀ	-9.01904
▁ਫੇਲ੍ਹ	-9.01978
▁ਅੰਕ	-9.02008
ੰਜ	-9.0201
ਲਾਈਨ	-9.02028
ਫਟ	-9.02039
▁Canada	-9.0214
▁ਯੋਜਨਾ	-9.0214
▁ਬਾਲ	-9.02422
real	-9.02427
▁ਭੇਜ	-9.02462
▁ਦਸਤਾਵੇਜ਼	-9.02466
▁ਵੱਡਾ	-9.02469
ਾਇਰ	-9.02504
cr	-9.02565
▁ਤਰੀਕੇ	-9.02629
▁Vi	-9.02744
▁ਛੋਟੇ	-9.02792
ft	-9.02814
fe	-9.0286
▁ਵਿਆਪਕ	-9.02956
our	-9.0325
▁Mar	-9.03254
ਕਾਰੀ	-9.03286
▁ਰਾਸ਼ਟਰੀ	-9.03448
ਕ੍ਰ	-9.03595
▁ਯੂਨੀਵਰਸਿਟੀ	-9.03778
ight	-9.03951
han	-9.03955
of	-9.04052
▁ਤਿੰਨ	-9.04128
▁ਮਾਸ	-9.04222
▁23	-9.04255
▁Pro	-9.04257
▁ਮਿਆਰੀ	-9.04305
▁ਕੂਕੀਜ਼	-9.04607
▁ਇਮੋਜੀ	-9.04607
ਵਾਨ	-9.04658
ਬਿ	-9.04791
▁www	-9.04815
▁ਕੋਰਸ	-9.04883
▁ਮੰਗ	-9.04943
▁ਕੌ	-9.04958
old	-9.05027
ਫਰ	-9.05041
ize	-9.05071
▁ਦੂਰ	-9.05074
▁ਸਰਵਿਸ	-9.05113
▁ਸਟੋਰ	-9.05248
▁ਗਿ	-9.053
▁ਪ੍ਰਬੰਧ	-9.055
bl	-9.05544
ice	-9.05571
ਗੂ	-9.05586
▁ਜ਼ਿਆਦਾ	-9.05612
▁ਸਕੇ	-9.05623
▁ਉਦਯੋਗਿਕ	-9.05728
▁ਕਲਾਸ	-9.05729
▁28	-9.05833
▁ਔ	-9.06093
▁ਔਰਤ	-9.06123
▁ਮਨ	-9.06202
▁ਕੋਰ	-9.06278
▁ਫੀਚਰ	-9.06287
▁ਆਈਟਮ	-9.06291
41	-9.06353
▁ਐਡਰੈੱਸ	-9.06456
ਆਉਟ	-9.06821
ust	-9.06824
▁ਟੈਬ	-9.06902
▁ਮੈਨੇਜਰ	-9.06966
▁ਕਦੇ	-9.07008
ica	-9.07095
▁ਵਜੋਂ	-9.07137
▁ਮਾਰਕੀਟ	-9.07137
▁ਸੰਭਵ	-9.07137
▁ਸਿੱਖ	-9.07235
log	-9.07261
▁ਚੀਜ਼	-9.07333
▁ਕਾਪੀ	-9.07506
72	-9.07939
51	-9.08113
▁ਤੁਰੰਤ	-9.08167
▁ਸਿਖਲਾਈ	-9.08167
49	-9.08342
54	-9.08413
▁ਟੈਕਸਟ	-9.08479
Co	-9.08574
▁ਦਵਾਈ	-9.08575
ਹੁ	-9.08582
▁user	-9.08714
MA	-9.08722
emoji	-9.0886
▁ਸੰਸਾਰ	-9.08864
ਭਾਵ	-9.08954
▁500	-9.08986
ਅੱਪ	-9.09033
▁ਸ਼ੇਅਰ	-9.09215
▁ਸੰਸਥਾ	-9.09383
▁ਯੂਰਪ	-9.09423
day	-9.09438
eg	-9.09588
able	-9.09611
▁ਛੁਪਾਓ	-9.09732
67	-9.09758
ਕ੍ਰਿ	-9.0994
▁ਵਜੇ	-9.10001
੦	-9.10083
▁ਹਿੱਸਾ	-9.10084
▁ਵੇਖਾਓ	-9.10084
▁ਪਤ	-9.10128
own	-9.10406
▁ਰਿਪੋਰਟ	-9.10467
▁ਮੀਟਰ	-9.10471
▁ਸ਼੍ਰੇਣੀ	-9.10613
ਐੱਸ	-9.10613
▁ਸਲਾਹ	-9.1062
▁86-	-9.10633
▁ਆਡੀਓ	-9.1079
▁ਸੰਗੀਤ	-9.1079
▁ਭਲਾਈ	-9.10971
▁ਖੁਸ਼	-9.10982
▁ਚੈੱਕ	-9.11145
▁ਮਰ	-9.1117
▁ਵੱਲ	-9.11283
▁ਹੇਠਾਂ	-9.11336
▁ਪ੍ਰੋਜੈਕਟ	-9.11501
ng	-9.11538
ਇਸ	-9.11574
▁ਡਾਇ	-9.11579
▁ਥਾਂ	-9.11729
ਰੇਟ	-9.11733
▁ਸਾਡਾ	-9.11976
-6	-9.12019
ੈੱਸ	-9.12037
42	-9.12086
69	-9.12329
▁ਨਿਗਰਾਨੀ	-9.12397
ੈਂਟ	-9.1246
text	-9.12539
▁https	-9.12541
▁ਸਰੀਰ	-9.1263
▁ਸੀਮਾ	-9.12706
▁ਮੁਹੱਈਆ	-9.12757
▁ਤਾਰ	-9.12772
▁ਸਿਟੀ	-9.12852
▁ਚਾਰ	-9.12907
▁ਰਾਹੀਂ	-9.12938
AP	-9.13046
91	-9.13189
▁ਪੋਰਟਲ	-9.13437
▁ਖੋਲ੍ਹੋ	-9.13443
mail	-9.13605
ਫੋਰ	-9.13616
\	-9.13665
▁ਪਛਾਣ	-9.13665
▁ਰਜਿਸਟਰ	-9.13665
▁ਫਾਈਬਰ	-9.1403
ਂਗ	-9.14193
#	-9.14244
ial	-9.14269
▁ਜਾਂਦੇ	-9.14282
61	-9.14315
▁ਫੋਂਟ	-9.14398
64	-9.1442
▁world	-9.14447
▁ਹਾਲ	-9.14492
oll	-9.14521
96	-9.14657
ਕੋਡ	-9.14719
▁ਹਟਾਉਣ	-9.14768
ਲਿੰਗ	-9.14793
▁ਇਹਨਾਂ	-9.14841
▁You	-9.14863
▁ਪ੍ਰਸਿੱਧ	-9.14949
▁ਹੋਣਾ	-9.15083
▁ਹਟਾ	-9.15147
▁ਦੋਸਤ	-9.15315
▁New	-9.15321
▁ਅਗਵਾਈ	-9.15505
▁ਸ਼ੁਰੂਆਤ	-9.15518
ave	-9.15693
ਫੁੱਲ	-9.15701
go	-9.159
▁ਸੋਚ	-9.15937
▁ਸੂਚਨਾ	-9.16064
87	-9.16073
ਸੰ	-9.16148
▁forecast	-9.1625
74	-9.16292
▁ਐਡ	-9.16393
▁ਮਨੁੱਖ	-9.16438
▁ਪੇਸ਼ੇਵਰ	-9.16438
▁ਖੋ	-9.16525
▁ਹੋਵੇਗਾ	-9.16719
▁ਨਿਊ	-9.16737
400	-9.16808
и	-9.16813
н	-9.16813
▁ਸ਼ਕਤੀ	-9.16851
▁ਅਸਲੀ	-9.1686
ace	-9.16944
▁ਨੀਤੀ	-9.17031
▁ਸਵੈ	-9.17046
ਪੋਰਟ	-9.17262
act	-9.17331
▁ਕਮਾਂਡ	-9.1738
▁ਬੋਰਡ	-9.1754
iz	-9.17628
▁not	-9.18124
▁ਸਿੰਘ	-9.18209
▁ਸਕੂਲ	-9.1838
▁ਮੋਡ	-9.18497
ool	-9.18505
▁ਪੰਨਾ	-9.18523
▁ਚੰਗੀ	-9.1853
▁ਜੁੜ	-9.18564
▁ਗੋ	-9.18575
ਟ੍ਰ	-9.18594
▁ਨੋਟ	-9.18613
▁start	-9.18718
line	-9.18793
Description	-9.18905
▁ਵੰਡ	-9.19072
▁Slot	-9.19123
▁ਪਹਿਲੇ	-9.19139
▁ISO	-9.19295
▁ਇਕਾਈ	-9.19313
▁ਵਿਚਕਾਰ	-9.19351
▁ਡਾਕਟਰ	-9.19484
▁(%	-9.19533
ੌਕ	-9.19643
▁ਵਿਆਹ	-9.19683
▁ਕੈਸੀਨੋ	-9.1987
▁ਲੁ	-9.19887
ach	-9.1991
▁ਪ੍ਰਿੰਟ	-9.20064
ja	-9.20119
lin	-9.20222
▁ਹੱਥ	-9.20242
▁ਡਾਇਰੈਕਟਰੀ	-9.20259
▁ਐਫ	-9.20351
par	-9.20402
ਂਦ	-9.20423
▁ਦਿਵਸ	-9.20457
fl	-9.2054
ੈਕਸ਼ਨ	-9.2065
▁ਟਰੈਕਰ	-9.20662
▁ਅਧੀਨ	-9.21043
▁ਲੂ	-9.21258
▁ਸੁਝਾਅ	-9.21434
▁ਮੇਰੀ	-9.21482
gra	-9.21766
▁Wi	-9.21828
78	-9.21896
ਪੈ	-9.21903
yl	-9.21907
▁ਵਾਲਾ	-9.21965
▁ਸਰਗਰਮ	-9.22029
▁ਵਰਕ	-9.2204
▁inmenu	-9.22225
▁Te	-9.22399
▁state	-9.22439
▁ਗੈਰ	-9.22454
form	-9.22479
▁Free	-9.22586
▁ਬਿਹਤਰ	-9.22624
gen	-9.22667
▁ਸ਼ੀਟ	-9.2269
▁ਪੜ੍ਹੋ	-9.22866
▁ਨਿਰਮਾਣ	-9.23223
▁ਚਲਾਉਣ	-9.23226
list	-9.23241
▁ਫਾਰਮੈਟ	-9.2326
▁ਪੜ੍ਹ	-9.23318
▁ਪੱਤਰ	-9.23433
▁ਈਯੂਆਰ	-9.23625
▁ਚੰਗਾ	-9.23627
▁ਇੰਪੋਰਟ	-9.23678
▁ਉਪਕਰਣ	-9.23827
▁ਸੰਭਾਲ	-9.23909
-15	-9.23922
ture	-9.24049
ਡੂ	-9.24131
▁IP	-9.24137
▁ਜੈ	-9.24164
pt	-9.24218
▁ਨਤੀਜੇ	-9.24231
RA	-9.24298
ਤਮਕ	-9.24333
▁ਪਦਾਰਥ	-9.24434
ਡਿ	-9.2449
▁ਖਤਮ	-9.24647
ਮਾਈ	-9.24853
▁ਯਾਦ	-9.25149
▁ਪੌ	-9.25167
tri	-9.25435
▁ਰੋਲ	-9.25445
▁ਮਹੱਤਵਪੂਰਨ	-9.2566
63	-9.25683
▁1000	-9.25724
▁Ro	-9.2578
▁Ar	-9.25959
▁ਸਿਰ	-9.26179
ੰਪ	-9.26227
▁ਪਾਊਡਰ	-9.26279
▁ਸਾਫ਼	-9.26403
ਉਦਾਹਰਨ	-9.26486
—	-9.26693
▁ਧੰਨਵਾਦ	-9.26693
▁ਕਾਫ਼ੀ	-9.26694
ER	-9.26696
key	-9.26776
▁ਕਸਟਮ	-9.26919
43	-9.2702
▁ਡਾਉਨਲੋਡ	-9.27109
▁ਵਿਕਲਪ	-9.27109
▁ਮੰਨਿਆ	-9.2711
▁31	-9.2737
97	-9.27415
▁‘	-9.27422
▁translate	-9.27737
▁are	-9.27739
ਸਪੈਮ	-9.27767
▁ਵਿਰੋਧ	-9.28165
▁ਮੇਨੂ	-9.28227
▁ਵਰਗੇ	-9.28294
0,000	-9.28352
▁ਟੈਗਸ	-9.28366
▁ਡਿਵਾਈਸ	-9.28369
▁ਫਾਈਲ	-9.28379
ਗਿੱਛ	-9.2858
▁ਯੂਨਿਟ	-9.28581
▁ਭੇਜਣ	-9.28601
▁po	-9.28742
ਏਥੇ	-9.28798
▁ਪਾਰਕ	-9.28827
▁ਕੱਟਣ	-9.29031
use	-9.29114
ਾਉਂਦਾ	-9.29152
▁ਘੱਟੋ	-9.29216
▁ਉੱਪਰ	-9.29217
▁ਨੁਕਸਾਨ	-9.29218
▁ਮੁਫਤ	-9.29219
ੈਂਡ	-9.29229
uk	-9.29346
▁ਬਿੱਲ	-9.2935
ਿਸਟ	-9.29356
▁kde	-9.29454
▁ਕਲਾਕਾਰ	-9.29458
▁ਅੱਖਰ	-9.29459
▁1'	-9.29554
▁ਮਾਲਕ	-9.29615
▁ਬਾਕਸ	-9.29656
0.1	-9.30039
▁ਲੱਗਦਾ	-9.30078
▁ਫਿਲਮ	-9.30079
▁ਬਿਨਾਂ	-9.30299
▁ਉੱਤਰ	-9.30352
▁ਪ੍ਰਾਈਵੇਟ	-9.30503
▁ਏਸ਼ੀਆ	-9.30516
play	-9.30589
81	-9.30685
▁ਸਾਂਝ	-9.30721
▁ਚਲਾਓ	-9.30936
▁ਨਿਸ਼ਾਨ	-9.30953
▁ਅੰ	-9.31187
ਥਾਈ	-9.31298
▁ਅੰਗ	-9.31343
▁ਅਣਜਾਣ	-9.3137
79	-9.31397
▁ਡਿਫਾਲਟ	-9.31588
▁ਪੱਟੀ	-9.31603
▁dur	-9.31669
▁ਜ਼ਿ	-9.31696
▁Phone	-9.31807
RE	-9.31903
▁ਤਕ	-9.31919
▁ਜ਼ਰੂਰਤ	-9.32025
▁ਅੰਦਰੂਨੀ	-9.32244
ਅੰਦਰ	-9.32387
▁ਔਸਤ	-9.32467
▁ਕਾਰਬਨ	-9.32469
ven	-9.32469
lic	-9.32569
▁Mobile	-9.32684
ਿੱਪ	-9.3272
NI	-9.32801
▁ਕੈਲੰਡਰ	-9.32905
▁ਨਿਵੇਸ਼	-9.32908
▁ਬੈਗ	-9.32995
0.0	-9.33001
work	-9.33131
▁ਸੁਣ	-9.33287
▁ਡਿਪਾਜ਼ਿਟ	-9.33348
▁ਯਿਸੂ	-9.33348
ਗਰਾ	-9.33393
▁ago	-9.33454
ET	-9.33488
http	-9.33526
GLONASS	-9.34016
▁ਜ਼ਿਲ੍ਹਾ	-9.34016
▁ਆਈਕਾਨ	-9.34018
▁ਰੀਡ	-9.3404
ਸਟ੍ਰ	-9.3412
▁ਚਾਲੂ	-9.3424
▁Le	-9.34252
▁ਜੇਨਰੇਟਰ	-9.34464
▁ਵਿਦਿਆਰਥੀ	-9.34464
с	-9.34464
▁ਪੈਕਿੰਗ	-9.34468
82	-9.34551
▁ਕੰਪਿਊਟਰ	-9.34914
ਫ਼ਰ	-9.34993
▁ਤਬਦੀਲੀ	-9.35106
▁ਨੇੜੇ	-9.35237
▁ਪ੍ਰਦਰਸ਼ਨ	-9.35366
▁ਇਲਾਵਾ	-9.35593
▁ਪੜ੍ਹਨ	-9.35688
▁ਆਪਣਾ	-9.3578
▁ਪਿਛਲਾ	-9.3582
▁ਪ੍ਰਕਿਰਿਆ	-9.3582
IS	-9.35987
ਮਿਲੀਮੀਟਰ	-9.36276
GB	-9.36281
▁ਬਾਹਰੀ	-9.36357
▁ਰਹਿ	-9.36563
▁ਪੌਦਾ	-9.36652
▁ਮੈਕਸ	-9.36707
▁ਪਿੱਛੇ	-9.36734
▁300	-9.368
▁ਮਾਲ	-9.36881
ਵੈ	-9.36932
▁ਚੈਨਲ	-9.36965
▁with	-9.3697
▁ਆਧਾਰ	-9.37197
▁ਲੜੋ	-9.3736
▁ਸਿਰਫ਼	-9.3738
ਐਲ	-9.37407
т	-9.37425
▁ਮਹਿਸੂਸ	-9.37657
▁ਧਾਤ	-9.37698
ance	-9.37789
▁ਮੁਕੰਮਲ	-9.38121
▁ਮੱਧ	-9.38121
▁ਚਾਹ	-9.38132
▁ਵਿੰਡੋਜ਼	-9.38173
sha	-9.38229
ood	-9.38248
▁ਜਿੱਤ	-9.38567
▁ਪੈਨਲ	-9.38619
71	-9.38733
The	-9.38771
▁ਨੰ	-9.38791
▁ਵਲੋਂ	-9.38826
▁2011	-9.38835
kg	-9.38877
world	-9.38992
▁ਸਿੱਖਿਆ	-9.39071
ton	-9.39127
▁ਵਿਗਿਆਨ	-9.39528
▁ਮਤਲਬ	-9.39528
▁ਸਾਈਨ	-9.39728
▁option	-9.39755
ium	-9.39825
▁ਸਥਿਤ	-9.39864
300	-9.39869
▁ਯੂਰੋ	-9.39999
▁ਨਿੰਗਬੋ	-9.40002
▁ਬਹੁ	-9.40068
▁ਖੁੱਲ	-9.4024
▁ਰਿਕਾਰਡ	-9.4024
tter	-9.4025
▁"%	-9.40283
▁ਸਾਈਜ਼	-9.40489
att	-9.40623
▁ਆਇ	-9.40798
▁ਸਹੂਲਤ	-9.40955
▁ਬੀਟਾ	-9.40984
Hz	-9.41125
▁ਇਤਿਹਾਸ	-9.41195
▁ਬਲੌਗ	-9.41196
▁DVD	-9.41197
▁ਗੱਡੀ	-9.41203
▁ਦੇਖੋ	-9.41226
▁URL	-9.41436
▁ਏਅਰ	-9.41456
▁ਫੀਡ	-9.41471
62	-9.41579
ੀਕਰਨ	-9.41685
▁ਗਲਾਸ	-9.41686
▁ਗਾਈਡ	-9.41853
к	-9.41918
▁ਪਰਮੇਸ਼ੁਰ	-9.4216
▁100%	-9.42263
94	-9.42377
▁ਖਿਡਾਰੀ	-9.42403
▁ਲਗਾਤਾਰ	-9.42403
▁ਪਾਸੇ	-9.42417
▁ਬੋਲ	-9.42478
▁Un	-9.42488
atch	-9.4251
▁ਅਨੁਭਵ	-9.42646
▁ਨਕਲ	-9.42853
▁ਗ੍ਰੀਨ	-9.4289
▁ਕੈਮਰਾ	-9.42894
ਫ੍ਰ	-9.42943
▁Hack	-9.42952
▁ਡਾਈਲਾਗ	-9.43134
▁ਇੰਜਣ	-9.43138
▁ਕ੍ਰਮ	-9.43157
▁ਤਾਕਤ	-9.43382
▁ਰੱਖਿਆ	-9.43611
▁ਊਰਜਾ	-9.43625
AT	-9.43635
▁ਵਿਦੇਸ਼	-9.43654
ron	-9.43819
▁ਮਿਆਦ	-9.43882
▁ਹੁਣੇ	-9.44014
▁ਛੋਟਾ	-9.44119
▁ਲੇਖਕ	-9.44324
▁france	-9.44366
▁ਟਿਊਬ	-9.44366
▁ਵਿਕਸਿਤ	-9.44366
▁ਮਹਾਨ	-9.4437
▁ਰਹਿਣ	-9.4451
▁ਗੈਸ	-9.44539
▁ਸੇਵਾਵਾਂ	-9.44621
▁ਚਾਰਜ	-9.44636
ਮੰਦ	-9.44706
▁ਗਰਮੀ	-9.45044
▁ਪੋਲ	-9.45057
▁ਸਮਾਰਟ	-9.45113
▁ਲੇਜ਼ਰ	-9.45113
▁ਸਤਰ	-9.45169
table	-9.4526
▁ਆਉਟਪੁੱਟ	-9.45362
੨	-9.45362
▁porn	-9.45372
▁ਸਥਿਰ	-9.45613
▁type	-9.45615
▁ਗੇਮ	-9.45714
▁ਦੌਰ	-9.45775
▁ਮਨਜ਼ੂਰ	-9.45864
92	-9.45866
heng	-9.46012
▁ID	-9.46035
▁ਬੈਟਰੀ	-9.46129
84	-9.46364
▁ਡੌਕੂਮੈਂਟ	-9.46369
73	-9.46465
▁ਸਟੇਸ਼ਨ	-9.46593
▁ਚਾਨਣ	-9.46622
▁ਬਦਲਣ	-9.46855
▁ਸੁਪਰ	-9.46855
▁ਗੂਗਲ	-9.46877
▁ਸ਼ੈਸ਼ਨ	-9.4713
▁your	-9.47483
uck	-9.47521
▁ਸਥਾਨਕ	-9.47618
▁ਦਿਲਚਸਪ	-9.47641
▁ਸਰਵੇਖਣ	-9.47641
▁ਸਕਿੰਟ	-9.47641
▁ਅੰਗਰੇਜ਼ੀ	-9.47897
▁ਕੁਦਰਤੀ	-9.47897
▁ਕੈਪ	-9.48003
▁ਆਫ	-9.48086
▁ਵੇਲੇ	-9.48403
ਕੋਈ	-9.48407
੧	-9.48412
▁ਕੁਨੈਕਟ	-9.48671
▁ਫੈਕਸ	-9.48829
▁pricelist	-9.4893
▁ਰਚਨਾ	-9.4893
▁ਕਿਤਾਬ	-9.48952
▁Google	-9.49189
▁ਵਾਸਤੇ	-9.4919
▁ਉਮੀਦ	-9.4919
▁ਸਿਖਰ	-9.49193
▁ਬੱਗ	-9.4941
▁ਲਾਈਵ	-9.49451
▁ਐਲਬਮ	-9.49714
▁ਸੈਂਟਰ	-9.49716
▁ਖੋਲ੍ਹਣ	-9.49778
pro	-9.49867
▁ਇੰਟਰਫੇਸ	-9.49973
▁ਵਾਇਰ	-9.50354
ਟਵਿੱਟਰ	-9.50498
▁ਅੰਤਰਰਾਸ਼ਟਰੀ	-9.50498
CE	-9.50533
▁ਵਿਸ਼ਵ	-9.5071
▁ਵੈਬ	-9.50918
93	-9.50931
cess	-9.51087
ਫੈ	-9.51216
▁ਹਰੇਕ	-9.51308
▁ਟਰੇ	-9.51333
▁ਕੇਬਲ	-9.51406
ਹਰਾ	-9.51524
▁ਫੰਕਸ਼ਨ	-9.51558
ਸਤਾਨ	-9.51611
▁ਨਿਊਜ਼	-9.51677
ound	-9.51823
▁syn	-9.52094
▁ਸਫ਼ੇ	-9.52098
▁ਚੁਣੇ	-9.52137
0.5	-9.52152
▁ਪੈਸੇ	-9.52377
▁ਡਬਲ	-9.5258
▁ਮੈਡੀਕਲ	-9.52629
Country	-9.52898
±	-9.52898
▁HTML	-9.52898
▁ਲਗਭਗ	-9.52898
▁ਚੱਕਰ	-9.52921
▁ਸ਼ੁੱਧਤਾ	-9.5297
▁ਰੇਟਿੰਗ	-9.52985
▁ਸਮੂਹ	-9.5317
MoHFW	-9.5317
▁Bonus	-9.5317
▁ਬਿੰਦੂ	-9.5344
▁ਅਕਸਰ	-9.5344
▁ਲਵੋ	-9.53516
▁translation	-9.53711
▁ਵੱਖਰੇ	-9.53867
▁description	-9.53984
▁ਕ੍ਰੈਡਿਟ	-9.53984
▁ਪ੍ਰੈਸ	-9.54022
▁ਮੈਂਬਰ	-9.54219
▁button	-9.54257
▁ਡਾਟਾਬੇਸ	-9.54258
▁ਪਸੰਦੀਦਾ	-9.54259
▁ਸਾਰੀਆਂ	-9.54265
way	-9.54347
▁ਗੁਣ	-9.54471
▁ਗੁਪਤ	-9.54534
▁ਸਾਫ	-9.54572
▁ਵਧਾਉਣ	-9.54638
▁Copyright	-9.54806
ਾਉਂਦੇ	-9.54921
▁Roulette	-9.55081
▁ਦੂਜੇ	-9.55083
▁ਡਰਾਈਵ	-9.55101
app	-9.5518
▁ਅਜੇ	-9.55185
▁ਗ੍ਰੇ	-9.55277
▁ਲੰਬਕਾਰ	-9.5536
ਦੁਆਲੇ	-9.55362
▁ਛੱਤ	-9.55536
ence	-9.55568
▁ਵਾਧੂ	-9.55634
▁ਤਜਰਬੇ	-9.55912
▁ਇਲੈਕਟ੍ਰ	-9.55912
▁ਜ਼ੋਨ	-9.55956
▁ਸੱਚ	-9.55979
▁ਟੈਲੀਫ਼ੋਨ	-9.56191
▁ਚੁਣਿਆ	-9.56192
view	-9.56472
▁ਆਉਣ	-9.56485
▁ਦੁਨੀਆ	-9.56511
▁ਵੇਰਵੇ	-9.56752
0.00	-9.56756
▁ਓਪਨ	-9.5676
▁ਉਲਟ	-9.56879
▁ਮਹਿ	-9.57247
▁ਨਿਰਦੇਸ਼	-9.57313
jatt	-9.57413
hat	-9.57587
▁ਦੱਖਣੀ	-9.57595
▁ਅਪਡੇਟ	-9.57595
tran	-9.57668
▁ਮੋਡੀਊਲ	-9.57878
▁ਉਪਦੇਸ਼	-9.57879
▁ਟਰਾਂਸ	-9.5788
2017	-9.58039
ਇੰਟ	-9.5809
▁ਸਵਿੱਚ	-9.58163
▁ਟਾਈਪ	-9.58193
▁ਗਰਮ	-9.5838
▁pre	-9.58416
▁ਮਾਤਰਾ	-9.58452
▁ਅਧਿਐਨ	-9.58733
▁ਇਸਤੇਮਾਲ	-9.58733
▁ਜਿਨ੍ਹਾਂ	-9.58733
▁plain	-9.58734
▁Girls	-9.5902
▁ਉਚਾਈ	-9.59022
▁ਪ੍ਰਮਾਣ	-9.59022
▁ਸੰਭਾਲਣ	-9.59146
▁ਟਿਕਾਣਾ	-9.59307
▁ਫਰੇਮ	-9.59314
▁ਵਾਲਵ	-9.59583
▁ਗਨੋਮ	-9.59597
ull	-9.59791
▁tooltip	-9.59884
▁ਉੱਥੇ	-9.59884
▁ਦੇਖਣ	-9.60065
▁ਪਹਿਲ	-9.6013
▁2010	-9.60138
83	-9.60157
▁ਅਸਫਲ	-9.60178
▁ਚਰਚ	-9.60207
Fi	-9.60228
▁ਜਗ੍ਹਾ	-9.60465
▁ਜੈੱਟ	-9.6057
▁ਪੀਸੀ	-9.60605
▁USD	-9.60769
▁ਲੇਬਲ	-9.60772
▁ਨਜ਼ਰ	-9.60775
▁ਟਿ	-9.60931
▁ਪੰਜ	-9.61
▁ਨਿਰਭਰ	-9.61049
▁input	-9.6105
XXX	-9.61341
▁ਵਿਲੱਖਣ	-9.61636
▁ਡਿਗਰੀ	-9.61643
ਛਾਤੀ	-9.61652
▁ਐਕਸਐਲ	-9.61684
®	-9.61931
▁ਧੋਖਾ	-9.61932
▁ਬੀਮਾ	-9.61967
▁ਪੰਪ	-9.62113
press	-9.62147
▁ਮੀਡੀਆ	-9.62227
▁ਮਕਸਦ	-9.62227
▁ਖੁਦ	-9.62232
▁ਸਪੀਡ	-9.62235
▁ਕਦਮ	-9.62241
ness	-9.62399
▁ਮਹਿਲਾ	-9.62415
▁ਸੱਜੇ	-9.62524
▁ਉਡੀਕ	-9.62541
▁ਲਾਗਇਨ	-9.62578
onyms	-9.62821
▁ਬਿਲਕੁਲ	-9.62821
▁ਬੇਅੰਤ	-9.6312
▁ਸੀਰੀਜ਼	-9.63132
▁ਪਲੇਟ	-9.63249
▁ਸਥਾਪਿਤ	-9.63419
▁ਲੱਕੜ	-9.6342
▁ਸੂਬੇ	-9.63462
▁ਦਿੱਖ	-9.6358
0.3	-9.63687
▁ਚੇਤਾਵਨੀ	-9.6372
▁matching	-9.6372
▁menu	-9.63721
▁ਵਿਆਸ	-9.63737
▁ਵਾਂਗ	-9.6381
▁ਚਾਹੁੰਦਾ	-9.64021
▁ਚਮੜੀ	-9.64022
▁that	-9.64105
{0}	-9.64323
▁this	-9.64394
▁ਰਾਤ	-9.64475
▁ਫੈਲ	-9.64587
▁ਮੇਰਾ	-9.64667
▁ਮਲਟੀ	-9.64942
▁ਲੌ	-9.65183
▁ਕੱਢ	-9.65235
▁0086-	-9.65235
▁ਕਨੈਕਟ	-9.65239
▁ਆਇਆ	-9.65377
▁ਔਨਲਾਈਨ	-9.65541
▁Honda	-9.65541
▁ਇਨ੍ਹਾਂ	-9.65541
▁+86	-9.65699
▁ਚੌ	-9.6576
ਗੁਲਾਬ	-9.65907
ਕ੍ਰਿਪਟ	-9.65953
▁ਰੂਟ	-9.66114
▁ਕਮਰੇ	-9.66162
▁ਖਰਚ	-9.66333
▁ਡੋਮੇਨ	-9.66464
▁month	-9.66465
▁ਰੌਸ਼ਨੀ	-9.66773
▁ਅਗਲਾ	-9.66781
▁ਖੋਲ੍ਹ	-9.66936
▁ਲਿਖਿਆ	-9.67032
▁ਗੱਲਬਾਤ	-9.67085
top	-9.67135
▁ਹੋਟਲ	-9.67362
▁ਮਸ਼ਹੂਰ	-9.67395
▁ਵਿਕੀਪੀਡੀਆ	-9.67395
▁ਵਿਸ਼ਵਾਸ	-9.67774
ਜਰਮਨ	-9.68011
light	-9.68018
▁ਚੁੱਕ	-9.68196
▁ਚਾਰਟਰ	-9.68227
▁ਅਗਲੇ	-9.68342
▁ਟੈਕਸ	-9.68508
ਅੱਖ	-9.68519
▁ਸਕ੍ਰਿਪਟ	-9.68584
▁ਸੰਯੁਕਤ	-9.68651
▁ਹੁਕਮ	-9.68652
▁2012	-9.68677
▁ਬਲੈਕ	-9.6876
▁ਵਾਤਾਵਰਣ	-9.68968
▁ਸਰਟੀਫਿਕੇਸ਼ਨ	-9.68968
▁window	-9.68968
▁ਚੰਗੇ	-9.69288
▁XXXL	-9.69291
▁ਜਪਾਨ	-9.69354
▁ਮਹੀਨਾ	-9.69604
▁ਰਿਮੋਟ	-9.69604
▁ਚਾਹੀਦੀ	-9.69604
▁ਟੈਂਕ	-9.69605
▁ਸਾਥੀ	-9.6964
▁ਸਮਰਥਨ	-9.69923
▁ਸਮੁੰਦਰ	-9.69923
▁ਹਾਲਾਂਕਿ	-9.69923
▁ਜਨਤਕ	-9.69924
quot	-9.70135
tting	-9.7017
▁ਪੁਰਾਣੇ	-9.70244
▁ਜ਼ਿੰਮੇਵਾਰ	-9.70565
▁ਮੋਬਾਇਲ	-9.70565
▁ਓਹਲੇ	-9.70567
▁ਹੋਸਟਿੰਗ	-9.70574
▁ਇੰਟਰਨੈੱਟ	-9.70888
▁ਡਿਸਪਲੇਅ	-9.70888
ਬੋਰਡ	-9.70951
province	-9.71218
▁ਤੱਤ	-9.71343
▁ਮੰਤਰਾਲੇ	-9.71536
▁ਗਲੋਬਲ	-9.71536
▁ਬਲਾਕ	-9.71558
ਲਾਈਟ	-9.71578
▁ਮੈਟਲ	-9.71886
philippines	-9.72189
▁ਆਵਾਜਾਈ	-9.72189
▁ਮਜ਼ਬੂਤ	-9.72189
▁ਪਰੋਫਾਇਲ	-9.72516
2.5	-9.72574
▁ਤਾਰੀਖ	-9.7265
▁ਬਿੱਟ	-9.72807
▁ਸ਼ੈਲੀ	-9.72847
▁ਲੰਬੇ	-9.72877
▁ਛਾਪ	-9.72919
▁ਅਲਮੀਨੀਅਮ	-9.73175
▁ਮੌਕਾ	-9.73177
▁ਪਰੋਗਰਾਮ	-9.73507
▁ਸੰਖੇਪ	-9.73507
[	-9.74016
▁Online	-9.74172
▁from	-9.74173
▁ਪਾਲਣਾ	-9.74175
serv	-9.74479
▁ਸਮੇਤ	-9.74519
▁ਹਾਰਡ	-9.74542
▁English	-9.74842
ਵੀਂ	-9.75289
▁Zhejiang	-9.75517
▁ਬਰਾਊਜ਼ਰ	-9.75517
▁ਮਾਈਕਰੋ	-9.75517
▁ਭਵਿੱਖ	-9.75856
▁ਭੰਡਾਰ	-9.75856
▁ਸੰਕੇਤ	-9.75857
▁ਸਮਾਜਿਕ	-9.75927
▁lex	-9.76117
▁LexUriServ	-9.76196
▁ਅਫਰੀਕਾ	-9.76196
▁ਵਿਡੀਓ	-9.76196
▁ਮੰਤਰੀ	-9.76197
▁ਘਟਨਾ	-9.76199
▁ਆਵਾਜ਼	-9.76203
▁ਪ੍ਰਕਾਸ਼ਿਤ	-9.76254
▁ਲੜ	-9.76334
▁ਪੇਪਰ	-9.76374
▁ਸਥਾਪਨਾ	-9.76537
tive	-9.76596
▁ਟੇਪ	-9.76597
▁ਨੀਲਾ	-9.76613
▁ਟੂਰ	-9.77577
▁ਅਮਰੀਕੀ	-9.77914
▁ਮੈਮੋਰੀ	-9.77915
▁ਬੇਨਤੀ	-9.77918
▁ਪਹਾੜ	-9.77924
search	-9.77925
▁Deposit	-9.78261
▁ਜ਼ਿੰਦਗੀ	-9.78261
▁ਬੱਚਿਆਂ	-9.78262
▁ਕਿਉਕਿ	-9.78262
▁ਆਧੁਨਿਕ	-9.7861
▁ਵਾਹਨ	-9.78611
▁ਸਾਧਨ	-9.78631
▁ਗੀਤ	-9.78647
▁ਸਿੰਗਲ	-9.78649
▁ਘੁੰਮ	-9.7896
▁ਦ੍ਰਿਸ਼	-9.7896
▁ਧਰਤੀ	-9.78963
ਹੱਥ	-9.7899
▁ਕੱਪੜੇ	-9.7931
▁ਮੌਸਮ	-9.7931
▁ਹਫ਼ਤੇ	-9.79311
▁PDF	-9.79314
▁ਕਿਰਾਏ	-9.79316
2.1	-9.79562
▁district	-9.79662
▁ਉਪਭੋਗੀ	-9.80016
▁ਓਪਰੇਸ਼ਨ	-9.80016
▁ਸ਼ਰਤਾਂ	-9.80016
▁ਮੀਡਿਆ	-9.80016
▁ਮਾਮਲੇ	-9.80019
▁ਫੀਸ	-9.80072
▁ਸਪੇਸ	-9.80237
▁ਸਜਾਵਟ	-9.8037
▁ਤਹਿਤ	-9.80371
▁ਅਰਥ	-9.8048
▁Shandong	-9.80726
▁ਮੰਜ਼ਿਲ	-9.80726
▁girls	-9.81083
▁ਖ਼ੁਰਾਕ	-9.81083
▁ਦਿੰਦੇ	-9.81443
▁ਸਤਹ	-9.81537
▁Download	-9.81802
▁ਉਪਭੋਗਤਾ	-9.81802
▁ਵੋਲਟੇਜ	-9.81802
▁ਵ੍ਹਾਈਟ	-9.81802
▁OEM	-9.81803
official	-9.82162
▁ਨਿਰਯਾਤ	-9.82525
▁ਸਥਾਪਤ	-9.82525
▁ਸਿਰਲੇਖ	-9.82525
≤	-9.82888
▁ਸਾਵਧਾਨ	-9.82888
▁ਆਕਸੀਜਨ	-9.83253
▁ਮਜ਼ੇਦਾਰ	-9.83253
▁group	-9.83253
▁ਪੈਟਰਨ	-9.8326
▁ਐਂਡ	-9.83393
▁ਵਿਭਾਗ	-9.83622
▁ਰਾਹ	-9.83639
0.000	-9.8377
▁ਹਾਲਾਤ	-9.83992
▁ਕੈਨੇਡਾ	-9.84356
▁ਪੀਵੀਸੀ	-9.84357
▁game	-9.8436
▁ਮਸੀਹ	-9.84385
ਬਿੱਲੀ	-9.84387
▁ਸ਼ੇਨਜ਼ੇਨ	-9.84727
▁ਸੁਆਗਤ	-9.85099
▁ਅਜਿਹਾ	-9.85099
▁ਪ੍ਰਧਾਨ	-9.85101
▁ਰੋਸ਼ਨੀ	-9.85103
▁ਜਨਮ	-9.85273
▁Detacher	-9.85472
▁ਰੋਜ਼ਾਨਾ	-9.85472
▁ਬੈਂਕ	-9.85493
mark	-9.85502
▁1.5	-9.85697
ਿਟੀ	-9.85748
▁ਬੈਕਗਰਾਊਂਡ	-9.85846
▁ਜਿਹੜੇ	-9.85846
▁ਜਦਕਿ	-9.85926
▁ਦਾਖਲ	-9.85937
▁ਚੁਣੀ	-9.86005
▁regions	-9.86222
▁ਪਾਲਤੂ	-9.86222
▁ਇਮਾਰਤ	-9.86222
▁ਆਈਫੋਨ	-9.86222
▁ਯੂਕਰੇਨ	-9.86222
▁ਜ਼ਮੀਨ	-9.86225
ਪ੍ਰਭਾਵ	-9.86596
▁ਇੰਪੁੱਟ	-9.86599
▁ਦੇਖਭਾਲ	-9.86599
▁ਹਾਰਡਵੇਅਰ	-9.866
▁ਟਾਊਨ	-9.866
▁ਕਹਿੰਦੇ	-9.86978
▁ਖੱਬੇ	-9.86978
▁ਨਿਰਧਾਰਨ	-9.86978
▁USB	-9.86989
▁ਭਰੋਸੇਯੋਗ	-9.87358
▁ਮੱਛੀ	-9.87358
▁ਵਿਸ਼ਲੇਸ਼ਣ	-9.87358
▁ਸਵੀਕਾਰ	-9.8736
▁ਸ੍ਰੀ	-9.87365
▁ਅਰਬ	-9.87702
▁ਫੁੱਟ	-9.87742
▁ਟੇਬਲ	-9.87751
▁file	-9.88199
▁HTTP	-9.88508
▁ਸਹਿਮਤ	-9.88508
▁ਸਟੋਰੇਜ਼	-9.8851
▁ਸਾਹਿਬ	-9.88512
▁ਐਕਸ਼ਨ	-9.88513
▁lists	-9.88568
▁comp	-9.88602
ਸਟੀਚਿਊਟ	-9.88894
russia	-9.88894
▁Web	-9.88899
▁ਬੁੱਕਮਾਰਕ	-9.89282
▁ਸੰਭਾਵਨਾ	-9.89282
▁need	-9.89311
▁ਆਸਟਰੇਲੀਆ	-9.89671
▁ਗਠਿਤ	-9.89671
▁ਉਦੇਸ਼	-9.89674
▁ਗ੍ਰਹਿ	-9.89678
▁ਸਕੈਨ	-9.89753
▁ਅਮਨ	-9.89792
▁ਐਕਟ	-9.89942
▁ਮੁਕਾਬਲੇ	-9.90061
🙏	-9.90062
ਤ੍ਰ	-9.90102
HFW	-9.90452
▁ਚੁੰਬਕ	-9.90454
▁Image	-9.90455
·	-9.90847
▁ਦਸਤਖਤ	-9.90847
▁ਬਜਾਏ	-9.90848
▁ਡਰਾਇਵ	-9.90857
▁ਕਾਫੀ	-9.90869
Language	-9.91242
▁ਸੰਗਠਨ	-9.91242
▁ਟਾਪੂ	-9.91243
▁ਧਾਰਨਾ	-9.91243
▁ਖਿੱਚ	-9.91245
▁(2)	-9.91338
▁ਬਿਲਡਿੰਗ	-9.91639
▁ਲਾਇਬਰੇਰੀ	-9.92038
▁ਆਈਓਐਸ	-9.92038
▁ਕਹਾਣੀ	-9.92038
▁ਅਸਮਰੱਥ	-9.92438
▁ਪ੍ਰਣਾਲੀ	-9.92439
▁ਦੇਵੇਗਾ	-9.92444
▁ਵਾਲੀਅਮ	-9.92496
▁ਪ੍ਰਕਾਸ਼	-9.928
▁ਈਮੇਜ਼	-9.92841
▁ਉਸਾਰੀ	-9.9286
pcs	-9.92918
video	-9.93266
▁ਨਮੂਨੇ	-9.93647
▁ਸਾਰਣੀ	-9.93648
▁ਪੁਸ਼ਟੀ	-9.93679
▁ਜਰਮਨੀ	-9.93679
board	-9.93724
▁ਉਤਸ਼ਾਹ	-9.94054
▁ਛੋਟੀ	-9.94055
▁Eaton	-9.94057
▁href	-9.94461
▁ਟੈਲੀਫੋਨ	-9.94462
▁ਫਾਇਦੇ	-9.94463
▁ਬੋਤਲ	-9.9447
▁ਚਮਕ	-9.9454
▁3.0	-9.94796
like	-9.94847
▁column	-9.94872
▁ਘਰੇਲੂ	-9.94872
▁ਪਲੇਟਫਾਰਮ	-9.94872
▁italy	-9.94872
▁Center	-9.94878
▁ਮਿੱਤਰ	-9.94878
ameroon	-9.95283
▁ਓਪਰੇਟਿੰਗ	-9.95283
▁ਫੈਬਰਿਕ	-9.95283
▁ਸਿਫਾਰਸ਼	-9.95283
▁sales	-9.95285
▁ਹੌਲੀ	-9.95285
▁ਬਿਮਾਰੀ	-9.95285
▁ਅਸਫ਼ਲ	-9.95286
▁check	-9.95697
▁ਪ੍ਰਾਜੈਕਟ	-9.95697
л	-9.95697
▁ਅੰਤਰਾਲ	-9.95701
▁WhatsApp	-9.96112
▁ਤਜਰਬਾ	-9.96112
️	-9.96528
`	-9.96528
▁Fruity	-9.96528
▁ਪਾਰਟੀਸ਼ਨ	-9.96528
▁hPa	-9.96532
▁ਨੇਵੀਗੇਸ਼ਨ	-9.96947
▁ਸਫਲਤਾ	-9.96947
Please	-9.96947
oison	-9.96949
▁ਆਨੰਦ	-9.96957
▁ਕਤਾਰ	-9.97
ਾਉਂਦੀ	-9.97277
▁ਜਾਇਦਾਦ	-9.97367
▁ਸਵਾਗਤ	-9.97367
Region	-9.97369
\\\\	-9.98212
▁ਮਨੋਰੰਜਨ	-9.98212
▁ਸ਼ਿਪਿੰਗ	-9.98213
▁ਚੋਟੀ	-9.98216
▁ਅਧਾਰ	-9.9827
▁ਸਮਾਜ	-9.98565
▁ਸ਼ੰਘਾਈ	-9.98638
▁ਯੋਗਦਾਨ	-9.98654
é	-9.99065
Unlimited	-9.99065
▁ਖੁਰਾਕ	-9.99065
▁ਟਰਮੀਨਲ	-9.99065
▁ਅਖੀਰ	-9.99066
QShortcut	-9.99495
▁subjects	-9.99495
▁ਪੈਰਾਮੀਟਰ	-9.99495
▁ਹਲਕਾ	-9.99501
▁ਸੜਕ	-9.99517
▁ਨਮੂਨਾ	-9.99926
▁ਪੂਰੇ	-9.99999
▁ਨਕਦ	-10.0001
Guangdong	-10.0036
▁Archives	-10.0036
▁object	-10.0036
▁ਮੈਰਾਕੇਚ	-10.0036
▁ਰਬੜ	-10.0079
▁ਭਾਵਨਾ	-10.0081
Ltd	-10.009
▁ਇਕੱਠੇ	-10.0123
▁ਰਸਾਇਣ	-10.0167
▁ਸੀਐਨਸੀ	-10.0167
ਪੰਛੀ	-10.0167
▁ਕਰਮਚਾਰੀ	-10.0167
▁ਤਰੱਕੀ	-10.0211
▁TabletWise	-10.0255
▁ਕਾਰਪੋਰੇਸ਼ਨ	-10.0255
source	-10.0255
▁ਵਾਧਾ	-10.0257
count	-10.0261
▁ਸਿੱਧੇ	-10.03
▁years	-10.03
Porn	-10.0316
ਅਧਾਰਿਤ	-10.0339
▁[...]	-10.0344
▁ਦੁਕਾਨ	-10.0345
▁ਰਕਮ	-10.0346
▁ਚਿੰਨ੍ਹ	-10.0389
▁ਸਪੇਨ	-10.0406
▁ਤੁਲਨਾ	-10.0434
▁ਵਿਗਿਆਪਨ	-10.0434
▁ਦੁਬਾਰਾ	-10.0434
▁ਮੁਦਰਾ	-10.0434
zhou	-10.0436
▁ਅਕਾਊਂਟ	-10.0479
▁inlistbox	-10.0479
BAR	-10.048
▁ਉੱਲੀ	-10.048
▁ਮਿੰਨੀ	-10.048
▁ਬਸੰਤ	-10.048
▁ਪ੍ਰਗਟ	-10.0491
china	-10.0497
▁ਪੂਰਬ	-10.0515
ਸਟੀਵ	-10.0551
▁ਆਕਰਸ਼ਣ	-10.057
▁counties	-10.0571
cute	-10.0592
ਲ੍ਹੇ	-10.0593
▁ਪੰਜਾਬ	-10.0597
▁ਸਟੈਂਡਰਡ	-10.0616
▁Open	-10.0617
ਡਬਲਯੂ	-10.063
▁ਧੁਰ	-10.064
▁ਬੈਕਅੱਪ	-10.0662
▁ਠੋਸ	-10.0663
▁ਭੂਰੇ	-10.0663
▁ਗਰਭ	-10.0664
ਹਾਊਸ	-10.0667
ification	-10.0709
▁ਮੱਦਦ	-10.0709
▁Sexy	-10.0709
▁ਪੱਛਮੀ	-10.071
▁here	-10.0712
▁ਰੀਅਲ	-10.0712
▁ਅਮੀਰ	-10.0744
5.0	-10.0744
▁ਜਿਆਦਾ	-10.0756
▁ਮਾਹਰ	-10.0757
ਭੈਣ	-10.0763
▁ਕੰਟੇਨਰ	-10.0802
▁ਵਿਸ਼ੇ	-10.0831
▁ਇੰਜੀਨੀਅਰ	-10.0849
▁ਏਜੰਟ	-10.0849
▁ਬੈਕਐਂਡ	-10.0896
▁ਸਟੀਕਰ	-10.0896
▁ਤਰੀਕਾ	-10.0896
▁ਛੇਤੀ	-10.0896
▁ਵੇਚਣ	-10.0897
▁ਕਾਰਪੋਰੇਟ	-10.0943
▁ਕੁਕੀਜ਼	-10.0943
▁ਸ਼ਾਇਦ	-10.0944
▁Home	-10.0944
▁Diffuser	-10.0991
▁ਦਫਤਰ	-10.0991
▁ਘਟਾਉਣ	-10.0991
▁FSX	-10.0991
+00:00	-10.1039
▁ਗੰਭੀਰ	-10.1039
▁ਟੁਕੜੇ	-10.1039
▁ਅਲਾਰਮ	-10.1039
▁ਸੂਚਕ	-10.1039
▁ਸਾਜ਼ੋ	-10.104
▁ਸ਼ਰਾਬ	-10.1041
м	-10.1087
▁ਉਦਾਹਰਣ	-10.1087
▁ਦਫ਼ਤਰ	-10.1087
▁ਪਬਲਿਕ	-10.1087
▁ਹਫਤੇ	-10.1087
Query	-10.1135
▁ਮੌਕੇ	-10.1136
▁ਜਨਰਲ	-10.1136
▁ਪੁਆਇੰਟ	-10.1184
▁ਭਰੋਸਾ	-10.1184
€	-10.1191
▁ਸੁਜ਼ੂਕੀ	-10.1233
departments	-10.1282
▁ਡਿਜੀਟਲ	-10.1282
😂	-10.1282
▁Germany	-10.1331
▁October	-10.1331
▁ਨੌਕਰੀ	-10.1331
▁ਅਦਾਲਤ	-10.1331
▁ਬਰਾਬਰ	-10.1381
▁Android	-10.143
▁ਇੰਟਰਵਿਊ	-10.143
▁ਹਾਈਡ੍ਰੌਲਿਕ	-10.143
▁ਐਂਟਰੀ	-10.143
▁ਸਿੱਧਾ	-10.143
▁ਥੋਕ	-10.1431
View	-10.1432
ਮਰਦਾਂ	-10.1432
ਫੀਲਡ	-10.1433
▁ਦਬਾਉ	-10.1468
▁ਰਸੋਈ	-10.148
▁ਪ੍ਰਮੁੱਖ	-10.148
▁ਦੂਜਾ	-10.1481
▁ਖਪਤ	-10.1482
£	-10.15
▁ਅਕਾਇਵ	-10.153
▁ਐਕਟਿਵ	-10.153
ਸਕ੍ਰੀਨ	-10.1531
▁greece	-10.1581
▁ਮੁਤਾਬਕ	-10.1581
▁ਇਲੈਕਟ੍ਰਾਨਿਕ	-10.1581
▁ਕੂਪਨ	-10.1581
▁ਚਲਾਇਆ	-10.1581
▁ਸੰਪਾਦਕ	-10.1632
▁ਤਲਾਸ਼	-10.1632
google	-10.1683
ਬਟਰਫਲਾਈ	-10.1683
ਮੁਕਤ	-10.169
▁Microsoft	-10.1734
▁ਪਰੋਜੈਕਟ	-10.1734
▁ਵਿਧਾਨ	-10.1734
▁ਬਾਜ਼ਾਰ	-10.1734
▁ਛੁੱਟੀ	-10.1786
ਗਰਦਨ	-10.1787
▁ਜਰੂਰ	-10.1803
follow	-10.1837
▁ਦਿੰਦੀ	-10.1844
This	-10.1853
▁ਨੈਟਵਰਕ	-10.1889
▁ਕਹਿੰਦਾ	-10.1889
▁ਰਵਾਇਤੀ	-10.1889
▁Tablet	-10.189
▁ਕਰੈਸ਼	-10.1891
ietnam	-10.1942
▁ਮੈਨੂਫੈਕਚਰਜ਼	-10.1994
▁ਆਦਰਸ਼	-10.1995
→	-10.2047
▁{@}	-10.2047
▁ਸਲਾਇਡ	-10.2047
▁ਆਰਥਿਕ	-10.2047
▁ਮੁਸ਼ਕਲ	-10.2048
▁Europe	-10.2154
▁Lesbians	-10.2154
▁Photo	-10.2154
▁ਅਜਿਹੀ	-10.2154
▁ਗਾਰੰਟੀ	-10.2154
▁ਫੈਸਲਾ	-10.2154
ਅਨੰਤ	-10.216
ਟੈਟੂ	-10.2204
ੁਰਖਿਅਤ	-10.2208
▁ਵਿਸਥਾਰ	-10.2208
▁ਐਡੀਟਰ	-10.2208
▁ਸਫਾਈ	-10.2209
▁ਸਟਾਰਟ	-10.2211
▁ਕਾਪਿਅਰ	-10.2262
▁ਸਮੀਖਿਆਂਵਾਂ	-10.2262
▁ਸਮਾਪਤ	-10.2262
▁ਫੈਸ਼ਨ	-10.2263
▁Français	-10.2316
▁ਸਫੈਦ	-10.2316
▁great	-10.2316
▁ਚਿੰਤਾ	-10.2316
▁ਵਰਣਨ	-10.2316
▁ਟਿਕਾਣੇ	-10.2371
▁ਨਿਰਧਾਰਤ	-10.2371
ö	-10.2371
▁Holmbygden	-10.2371
▁ਏਪੀਕੇ	-10.2371
▁ਸ਼ੂਟਿੰਗ	-10.2371
content	-10.2371
▁ਪੰਨੇ	-10.2371
▁ਖ਼ਬਰ	-10.2372
▁prefectures	-10.2426
▁ਕਿੱਥੇ	-10.2426
▁ਹੁਨਰ	-10.2426
▁ਮਾਨੀਟਰ	-10.2426
▁probably	-10.2481
▁ਧੁਨੀ	-10.2481
▁ਰਾਖਵ	-10.2487
▁ਹੈਲਪਡੈਸਕ	-10.2537
▁ਸਿਗਨਲ	-10.2537
▁ਖ਼ੁਸ਼	-10.2537
▁ਆਦਮੀ	-10.2537
China	-10.2584
▁sonitattoo	-10.2592
▁ਸਪੱਸ਼ਟ	-10.2592
▁France	-10.2593
д	-10.2649
▁ਮਾਊਸ	-10.2649
▁ਸ਼ੁਕੀਨ	-10.2705
▁ਪੜਾਅ	-10.2705
▁ਗਰੇਡ	-10.2709
▁ਡਿਵੈਲਪਰ	-10.2762
▁ਮੋਟਰਸਾਈਕਲ	-10.2762
▁ਵਾਲਪੇਪਰ	-10.2762
▁ਪਾਬੰਦੀ	-10.2762
▁ਮੁਬਾਰਕ	-10.2762
▁ਅੰਦਾਜ਼	-10.2763
▁ਪ੍ਰਾਪਰਟੀ	-10.2819
▁ਪੜਤਾਲ	-10.2819
▁ਚਿਹਰੇ	-10.2819
▁ਪ੍ਰਭਾਵਸ਼ਾਲੀ	-10.2877
▁class	-10.2877
▁ਰਹਿੰਦੇ	-10.2877
▁ਹਜ਼ਾਰ	-10.2879
ollywood	-10.2934
▁ਪਰਿਵਰਤਨ	-10.2934
ਬ੍ਰਿਟਿਸ਼	-10.2934
▁ਇੰਡੈਕਸ	-10.2934
▁ਪੇਸ਼ਾਵਰ	-10.2935
Manufacturer	-10.2993
▁ਅਭਿਆਸ	-10.2993
▁ਨਤੀਜਾ	-10.2993
ਕੁੜੀਆਂ	-10.2993
▁Company	-10.3051
▁ਅਨੁਮਾਨ	-10.3051
▁ਕਿਲੋਮੀਟਰ	-10.3051
▁ਵੀਡਿਓ	-10.3051
▁ਪ੍ਰਭੂ	-10.3051
▁ਤਕਨੀਕ	-10.31
≥	-10.311
▁ਐਕਸਚੇਂਜ	-10.3169
▁ਵਿਦਜੈੱਟ	-10.3169
▁ਲੀਨਕਸ	-10.3169
▁Video	-10.3169
▁ਕਾਰਗੁਜ਼ਾਰੀ	-10.3229
▁ਬਾਵਜੂਦ	-10.3229
▁ਰਮਜ਼ਾਨ	-10.3229
ਐਂਕਰ	-10.3229
–	-10.3266
▁unlimited	-10.3288
▁ਜਰਨੇਟਰ	-10.3288
▁ਸਿਆਣੇ	-10.3289
п	-10.3349
britain	-10.3409
▁ਕੁਸ਼ਲਤਾ	-10.3409
ਕਬਾਇਲੀ	-10.3409
▁ਮਿਸ਼ਰਤ	-10.3409
▁ਸਾਊਂਡ	-10.3409
▁ਟਾਈਟਲ	-10.3409
aijan	-10.3409
▁provinc	-10.3469
▁ਠੰਢ	-10.347
▁ਯਾਕੂਬ	-10.347
▁ਫੋਕਸ	-10.347
▁ਰੀਲਿਜ਼	-10.347
▁ਤਣਾਅ	-10.347
੩	-10.3532
ੳ	-10.3532
ä	-10.3593
′	-10.3908
ਔ	-10.4042
੯	-10.4637
฿	-10.4915
	-10.4986
у	-10.4986
Φ	-10.5202
ь	-10.5202
å	-10.5423
з	-10.5802
♪	-10.5879
👉	-10.6036
~	-10.6049
❤	-10.6195
👇	-10.6276
ā	-10.6774
­	-10.6859
॥	-10.7033
б	-10.712
🚩	-10.7298
੮	-10.7571
💓	-10.7853
я	-10.8043
ੲ	-10.814
੫	-10.814
й	-10.8437
ü	-10.8538
μ	-10.864
🔰	-10.9059
✔	-10.9059
ч	-10.9275
	-10.9385
੪	-10.9496
🇴	-10.9608
🇱	-10.9953
📱	-10.9953
🔥	-11.0071
੬	-11.0432
←	-11.0681
😍	-11.0681
¥	-11.133
↑	-11.133
	-11.1465
੭	-11.1602
í	-11.1882
â	-11.1882
У	-11.217
á	-11.2317
à	-11.2466
×	-11.2697
ы	-11.2772
❖	-11.2772
^	-11.3087
ã	-11.3248
č	-11.3248
š	-11.3248
«	-11.3748
🏻	-11.392
α	-11.392
】	-11.4456
Ω	-11.5218
ी	-11.5219
»	-11.5233
😘	-11.5418
ѕ	-11.5623
ī	-11.5831
ж	-11.6044
	-11.6044
द	-11.6044
👌	-11.6044
ि	-11.6261
💖	-11.6483
😊	-11.6483
ó	-11.6711
✅	-11.6711
文	-11.6711
ह	-11.6943
ъ	-11.7181
、	-11.7181
🇫	-11.7181
ê	-11.7181
🍁	-11.7181
🇼	-11.7425
ç	-11.7675
្	-11.7675
х	-11.7675
і	-11.7675
ц	-11.7931
ų	-11.7931
φ	-11.7932
“	-11.9236
•	-12.0549
©	-12.2478
̈	-12.8773
🤣	-12.8774
§	-12.8775
中	-12.8776
【	-12.8777
💥	-12.8778
🌟	-12.8779
ї	-12.878
●	-12.8781
г	-12.8782
◆	-12.8783
★	-12.8784
ñ	-12.8785
в	-12.8786
➖	-12.8787
ੱ	-12.8788
‘	-12.8788
