<unk>	0
<s>	0
</s>	0
,	-3.44
.	-3.69343
▁	-3.79394
▁ਹੈ	-4.17573
:	-4.34794
▁ਦੇ	-4.46813
▁ਨੂੰ	-4.56319
▁ਲਈ	-4.57165
▁ਅਤੇ	-4.59128
-	-4.59795
)	-4.78076
▁ਦੀ	-4.80704
▁(	-5.14906
s	-5.21228
▁ਵਿੱਚ	-5.26086
▁ਦਾ	-5.39611
▁ਨਾਲ	-5.40497
▁ਇੱਕ	-5.41196
▁ਕਰਨ	-5.45568
▁ਹਨ	-5.52042
▁-	-5.54687
▁/	-5.5998
▁ਇਸ	-5.63025
▁'	-5.68865
ਾਂ	-5.70109
▁ਕਿ	-5.77548
▁ਇਹ	-5.7851
▁1	-5.78729
ੀ	-5.82385
▁ਤੇ	-5.86573
;	-5.87144
।	-5.88898
ਤੇ	-5.90277
ਨ	-5.91391
/	-5.93353
▁ਕਰੋ	-5.93406
▁ਹੋ	-5.93551
▁kgm	-6.01328
▁ਵਿਚ	-6.06491
▁ਨਹੀਂ	-6.07707
▁ਤੋਂ	-6.09055
ਸ	-6.11729
▁ਜੋ	-6.15319
▁#	-6.15505
▁ਵੀ	-6.16788
(	-6.21206
_	-6.22738
▁।	-6.2454
▁ਕੀਤਾ	-6.25645
▁ਕਰ	-6.27179
▁2	-6.2755
▁in	-6.28497
ਰ	-6.28737
com	-6.31101
▁ਤੁਹਾਨੂੰ	-6.32219
▁ਟੈਟੂ	-6.3481
ਲ	-6.3521
ਕ	-6.35235
▁S	-6.39691
▁ਆਪਣੇ	-6.4142
"	-6.41907
▁ਜਾ	-6.434
▁ਸੀ	-6.4821
▁_	-6.48422
Name	-6.4846
!	-6.49025
▁C	-6.5049
ਾ	-6.50634
▁ਹੋਰ	-6.51786
▁ਗਿਆ	-6.51791
▁"	-6.53054
@	-6.55615
▁&	-6.58901
ਜ਼	-6.61914
%	-6.62217
▁ਸਾਡੇ	-6.62449
▁ਤੁਸੀਂ	-6.63324
▁3	-6.63935
ੇ	-6.66649
▁ਨੇ	-6.68202
2	-6.70212
?	-6.70928
▁ਜ	-6.71509
▁ਜਾਂ	-6.71966
▁ਪੰਜਾਬੀ	-6.72386
▁ਸਕਦਾ	-6.72444
▁ਕੇ	-6.72448
3	-6.73737
▁ਕੋਈ	-6.73777
A	-6.74688
ਮ	-6.7559
▁ਹੀ	-6.76254
C	-6.79145
▁ਬਹੁਤ	-6.81308
▁ਨਾ	-6.81382
▁ਸਾਰੇ	-6.83622
4	-6.84486
▁ਬਾਰੇ	-6.85307
▁5	-6.85625
▁4	-6.87083
▁ਸਾਨੂੰ	-6.87427
a	-6.87936
▁ਕੀ	-6.88009
▁ਉਹ	-6.88207
▁ਦੁਆਰਾ	-6.89891
▁...	-6.90645
'	-6.9149
ਟ	-6.91729
▁ਤੌਰ	-6.91927
mm	-6.91997
er	-6.92848
ing	-6.93736
▁ਪਰ	-6.94212
amp	-6.94748
▁ਫਾਇਲ	-6.94972
▁ਸਭ	-6.95067
▁ਇਕ	-6.951
▁E	-6.95167
▁–	-6.95236
▁ਈ	-6.95575
▁ਤੁਹਾਡੇ	-6.98448
▁ਡੀ	-6.99112
▁@	-6.9918
...	-7.00055
▁A	-7.00227
▁ਸਕਦੇ	-7.00512
▁$	-7.00726
S	-7.0094
1	-7.01107
d	-7.01179
B	-7.01214
m	-7.01763
ਡ	-7.04288
▁ਤੱਕ	-7.05539
▁the	-7.05576
ਤ	-7.06251
D	-7.06457
gt	-7.07318
▁%	-7.08221
▁D	-7.0864
L	-7.08643
▁ਕੰਮ	-7.08899
▁ਉਤਪਾਦ	-7.1073
▁ਜੇ	-7.1093
▁ਰਹੇ	-7.11214
▁ਕੀਤੀ	-7.11879
Comment	-7.12025
y	-7.13512
▁ਤਾਂ	-7.13589
▁T	-7.1372
▁ਜਾਣਕਾਰੀ	-7.15091
▁ਕੁਝ	-7.15395
ਿੰਗ	-7.15555
ਚ	-7.15818
T	-7.17951
▁info	-7.17986
▁10	-7.19436
c	-7.19747
ਤਾ	-7.19757
▁2018	-7.20436
ਆਂ	-7.21736
▁ਮਸ਼ੀਨ	-7.22097
▁ਕਰਦਾ	-7.22523
ਦਾ	-7.22606
▁ਚੀਨ	-7.22785
▁P	-7.23406
▁ਡਾਊਨਲੋਡ	-7.24078
ਸੀ	-7.24977
▁ਸ਼ਾਮਲ	-7.25311
5	-7.26232
x	-7.26467
▁ਉਸ	-7.26884
▁+	-7.27044
g	-7.28322
City	-7.28338
▁name	-7.28549
in	-7.29108
▁ਹਾਂ	-7.29521
▁B	-7.30141
▁ਮੁਫ਼ਤ	-7.3015
▁ਉੱਤੇ	-7.30193
▁G	-7.30462
▁H	-7.30585
n	-7.32072
M	-7.32415
▁ਪ੍ਰਾਪਤ	-7.32932
▁ਮੁੱਖ	-7.32976
▁ਜੀ	-7.33163
▁ਕਿਸੇ	-7.33253
V	-7.33818
ed	-7.34079
ਬ	-7.34408
▁6	-7.34728
▁ਖੋਜ	-7.35158
ੋ	-7.354
▁ਸ	-7.3552
▁ਰੰਗ	-7.35744
ਜ	-7.35975
e	-7.36282
▁ਕਰਦੇ	-7.36286
▁ਵਰਤੋਂ	-7.36457
▁ਮੈਨੂੰ	-7.37324
▁ਨਾਂ	-7.37818
▁ਵੱਧ	-7.38518
▁ਰਿਹਾ	-7.38543
▁F	-7.38659
W	-7.38664
▁ਕਰਨਾ	-7.38677
▁a	-7.39516
▁*	-7.39891
▁ਸੰਪਰਕ	-7.40081
R	-7.41248
▁8	-7.417
▁ਸਿਸਟਮ	-7.41704
ਣ	-7.41721
an	-7.41857
▁of	-7.42446
ਰੀ	-7.42641
▁7	-7.4349
▁to	-7.43586
▁ਸਾਲ	-7.44137
ਲੀ	-7.44647
▁K	-7.45502
▁M	-7.4592
G	-7.46059
▁ਹਰ	-7.46192
ਪ	-7.46959
▁ਫੋਨ	-7.47512
▁2019	-7.47565
b	-7.47913
▁2017	-7.47995
▁ਦਿਨ	-7.48939
ਿਆ	-7.4936
▁ਵਾਰ	-7.49368
ਨਾ	-7.50064
▁ਮੈਂ	-7.50094
▁ਸ਼ੁਰੂ	-7.50471
p	-7.50561
▁ਚੋਣ	-7.52061
ਸ਼	-7.52541
▁Name	-7.53243
▁©	-7.53969
ਗ	-7.54048
▁ਲੋੜ	-7.541
▁ਅਸੀਂ	-7.54124
▁ਵਧੀਆ	-7.54579
▁ਕਿਸਮ	-7.55153
▁ਬਾਅਦ	-7.55291
P	-7.55528
▁L	-7.56079
E	-7.56869
▁ਕਰਕੇ	-7.56889
al	-7.57047
10	-7.57552
t	-7.57596
▁ਹੋਣ	-7.59007
K	-7.59018
lt	-7.59224
▁R	-7.60148
ਈ	-7.60245
▁ਅ	-7.60771
ਵ	-7.60882
▁ਵੇਖੋ	-7.61241
X	-7.61851
20	-7.62166
ਏ	-7.62828
i	-7.62831
▁ਜਾਵੇਗਾ	-7.62895
▁12	-7.63041
ਟੀ	-7.63162
▁ਵਿਚਾਰ	-7.63265
▁9	-7.64305
H	-7.6444
k	-7.64759
▁ਚਿੱਤਰ	-7.65647
▁ਸੇਵਾ	-7.66276
▁W	-7.66848
ਲੇ	-7.66944
F	-7.67482
▁c	-7.68129
▁ਵੱਖ	-7.68794
es	-7.68868
://	-7.68938
▁and	-7.68978
▁ਵੀਡੀਓ	-7.69191
▁ਪਹਿਲਾਂ	-7.69605
▁ਬਣਾਉਣ	-7.69639
▁ਘੱਟ	-7.69937
▁ਕੰਪਨੀ	-7.69963
▁ਬੰਦ	-7.70783
▁ਮਾਡਲ	-7.70886
▁20	-7.71199
▁ਜਿਸ	-7.71518
ਲਾ	-7.7181
▁ਪੋਸਟ	-7.71837
▁ਖੇਡ	-7.71924
▁ਆਕਾਰ	-7.72156
▁2016	-7.72298
en	-7.729
▁ਫੋਲਡਰ	-7.72939
▁19	-7.72989
▁V	-7.73014
▁ਦੀਆਂ	-7.73708
r	-7.75404
8	-7.75855
▁ਸਿਹਤ	-7.75865
6	-7.75951
▁ਉੱਚ	-7.76704
▁ਪਤਾ	-7.76713
▁ਦਿੱਤਾ	-7.76768
▁X	-7.76858
ਹ	-7.77531
ਦ	-7.77706
o	-7.78422
w	-7.78443
▁ਤਿਆਰ	-7.78528
le	-7.78542
co	-7.78767
ਮੇਲ	-7.79098
▁ਆਮ	-7.79151
▁ਏ	-7.79269
▁ਚਾਹੁੰਦੇ	-7.79383
▁ਸਰਵਰ	-7.79389
▁ਚੁਣੋ	-7.79883
h	-7.80317
▁ਨੰਬਰ	-7.80813
▁ਖੇਤਰ	-7.81001
00	-7.81094
▁ਕੋਡ	-7.81364
ਐਸ	-7.81379
▁ਜਦੋਂ	-7.81479
▁ਇੱਥੇ	-7.81532
O	-7.81554
▁ਵਾਲੇ	-7.81588
ਦੀ	-7.81676
7	-7.82046
l	-7.8214
▁ਹੁਣ	-7.82228
N	-7.82527
▁ਉਨ੍ਹਾਂ	-7.83729
▁for	-7.83982
▁24	-7.83991
ਪੀ	-7.84325
(_	-7.84822
▁ਐਸ	-7.85017
▁ਗਈ	-7.85253
▁ਸਿਰਫ	-7.85283
ਦੇ	-7.85452
▁ਆ	-7.8549
▁ਗਲਤੀ	-7.85536
ਓ	-7.86843
u	-7.86859
▁N	-7.86983
ਡੀ	-7.87129
▁I	-7.87476
▁ਗਏ	-7.88043
▁0	-7.88098
▁ਸਰੋਤ	-7.89152
v	-7.89452
optional	-7.89836
]	-7.90246
ਵਾ	-7.90282
:%	-7.90628
▁ਜਾਂਦਾ	-7.90691
ਅ	-7.90743
▁ਮੌਜੂਦਾ	-7.9107
▁ਮੁੜ	-7.91361
▁ਕੋਲ	-7.91944
▁ਕਾਪੀਰਾਈਟ	-7.92048
ar	-7.92536
▁ਕੀਤੇ	-7.92547
▁ਆਨਲਾਈਨ	-7.93123
▁ਅੱਗੇ	-7.94048
f	-7.94107
▁ਹੁੰਦਾ	-7.9424
▁15	-7.94331
11	-7.94471
▁ਮੁੱਲ	-7.94478
ੀਆਂ	-7.94481
▁2015	-7.95608
▁ਆਪਣੀ	-7.95904
re	-7.9603
▁ਸਮੱਗਰੀ	-7.96368
▁ਸੰਰਚਨਾ	-7.97091
ਟਰ	-7.972
▁ਰੂਪ	-7.97483
▁ਫਾਇਲਾਂ	-7.97627
9	-7.97953
▁ਲੋਕ	-7.98147
▁ਦੋ	-7.98775
th	-7.99096
&	-7.99253
▁ਯੋਗ	-7.99677
▁m	-7.99693
▁ਚਾਹੀਦਾ	-7.99752
▁ਪੀ	-7.99949
on	-8.00218
▁ਕਈ	-8.00331
▁ਲੈ	-8.00361
▁30	-8.00455
▁ਡਾਲਰ	-8.00818
▁ਮਦਦ	-8.00889
▁ਪੂਰੀ	-8.0136
▁ਸਮੇਂ	-8.01543
50	-8.01626
▁ਘਰ	-8.01812
▁ਸਟੀਲ	-8.01813
ਨੀ	-8.01933
▁[	-8.01962
or	-8.02129
▁O	-8.02277
ਆ	-8.03012
▁£	-8.03095
▁ਕੀਮਤ	-8.03621
ਰਾ	-8.03998
ਫ	-8.0406
▁ਮੇਰੇ	-8.04081
▁18	-8.04224
15	-8.04272
ੂ	-8.04929
▁ਫੇਸਬੁੱਕ	-8.05405
19	-8.05732
▁11	-8.05847
▁ਜੇਕਰ	-8.05868
▁USA	-8.05936
▁ਡਾਟਾ	-8.06073
U	-8.06523
▁ਮੋਬਾਈਲ	-8.06528
I	-8.06609
el	-8.06714
ਬੀ	-8.06725
▁ਤੁਹਾਡੀ	-8.0716
▁ਕਾਲ	-8.07313
16	-8.0772
▁ਮੇਲ	-8.07729
0	-8.07871
12	-8.09266
▁ਗ	-8.09291
▁ਸਨ	-8.09393
▁ਨਾਮ	-8.10314
▁ਸਾਫਟਵੇਅਰ	-8.10848
▁ਵਿੰਡੋ	-8.10973
▁ਸਾਈਟ	-8.11028
▁ਮ	-8.11295
▁ਖਾਸ	-8.11517
▁ਦਿਓ	-8.1188
▁ਦੌਰਾਨ	-8.12346
ਮਾ	-8.12832
▁units	-8.12864
▁50	-8.12918
▁is	-8.12941
punjabi	-8.13271
▁ਬਾਹਰ	-8.13727
▁ਵਰਤਿਆ	-8.14839
▁100	-8.14968
▁ਨਵਾਂ	-8.1498
30	-8.15022
▁amount	-8.15152
j	-8.15452
ly	-8.15676
▁ਠੀਕ	-8.15691
ਵਾਂ	-8.15794
▁ਈਮੇਲ	-8.15802
▁ਕ	-8.15917
▁ਜੰਤਰ	-8.16146
ਵੀ	-8.16719
18	-8.16758
ਜੀ	-8.16911
ਖ	-8.16936
▁ਬੀ	-8.1699
▁ਜਾਣ	-8.1715
▁ਕਾਰ	-8.1729
▁ਲਾਈਨ	-8.18092
▁http	-8.18445
▁ਵਿਕਰੀ	-8.19057
it	-8.1918
ਿਕ	-8.19252
▁16	-8.1955
▁ਕਿਰਪਾ	-8.19576
st	-8.19819
”	-8.2013
▁t	-8.20317
ਰੇ	-8.20543
▁g	-8.20687
▁ਅੰਦਰ	-8.20875
▁ਹੈਕ	-8.2099
▁ਯੂ	-8.21011
▁ਗਾਹਕ	-8.21195
▁ਸਟਿੱਕਰ	-8.21349
ਲੋ	-8.21464
▁ਪਰਿਵਾਰ	-8.21492
▁ਜਦ	-8.2156
▁ਤਰ੍ਹਾਂ	-8.21623
40	-8.21642
25	-8.22078
ਣਾ	-8.22091
▁€	-8.22125
▁ਵਿਕਾਸ	-8.22284
▁ਪਾਣੀ	-8.22497
▁Comment	-8.22998
▁ਆਈ	-8.23139
▁2014	-8.2323
▁14	-8.2341
▁ਵੈੱਬਸਾਈਟ	-8.23427
et	-8.23614
▁weather	-8.23698
▁Constellation	-8.23924
▁ਪੂਰਾ	-8.24294
z	-8.2449
▁ਸੁਰੱਖਿਆ	-8.24721
▁ਸਵਾਲ	-8.24785
▁ਕਾਰਨ	-8.24869
▁ਕਾਰਵਾਈ	-8.25002
▁ਵੱਡੇ	-8.25073
▁ਨਕਸ਼ਾ	-8.25359
▁ਸ਼ਾਮਿਲ	-8.25451
▁ਪ	-8.25529
▁ਗੁਣਵੱਤਾ	-8.25783
ਰੋ	-8.25917
▁title	-8.26082
ਤੀ	-8.26107
▁“	-8.26413
▁ਸਹਾਇਕ	-8.26834
▁ਸੰਦ	-8.27369
▁ਵਰਤਣ	-8.27537
▁p	-8.27544
▁ਲੋਡ	-8.27553
▁ਫਿਰ	-8.27631
▁ਸ਼ਾਨਦਾਰ	-8.2773
▁ਰਹੀ	-8.279
▁2020	-8.28111
▁GIF	-8.28341
▁ਐਲ	-8.28463
▁ਸੈਟਿੰਗ	-8.28547
▁ਵੈਬਸਾਈਟ	-8.29139
▁ਹੱਕ	-8.29353
ਕਾਰ	-8.29518
▁action	-8.29558
▁ਤਾਪਮਾਨ	-8.29851
▁ਭਾਰਤ	-8.29911
id	-8.29999
ਥ	-8.30344
14	-8.30382
▁by	-8.30392
=	-8.30554
▁ਕਲਿੱਕ	-8.30671
ic	-8.30674
▁ਸਥਿਤੀ	-8.31148
cm	-8.31155
▁ਬਣਾਇਆ	-8.31196
▁ਫੋਟੋ	-8.31534
▁v	-8.31596
▁2013	-8.31719
▁ਆਪ	-8.31995
60	-8.32091
ur	-8.32161
▁•	-8.32191
▁ਸਾਡੀ	-8.32459
ਵੇ	-8.32857
▁ਪਲੱਗਇਨ	-8.32963
se	-8.33157
ਸ਼ਨ	-8.33203
▁ਨੈੱਟਵਰਕ	-8.33226
ਵਰ	-8.33504
ਕਾ	-8.33711
▁ਹਟਾਓ	-8.33816
▁No	-8.33979
▁ਛੱਡ	-8.34217
▁13	-8.34235
▁ਵਰਜਨ	-8.34236
▁ਐਪਲੀਕੇਸ਼ਨ	-8.34473
J	-8.34561
▁ਲਾਗੂ	-8.34682
▁ਜਾਰੀ	-8.34746
▁ਉਤਪਾਦਨ	-8.35041
ੜ	-8.35117
Y	-8.35208
▁ਜਵਾਬ	-8.35414
▁ਢੰਗ	-8.35851
▁ਸਹਿਯੋਗ	-8.35917
▁ਬੋਨਸ	-8.36391
▁ਐਕਸ	-8.36512
▁ਜੂਨ	-8.36714
▁ਨਹੀ	-8.36841
▁ਕੰਟਰੋਲ	-8.36902
▁item	-8.3694
ਂ	-8.37028
▁J	-8.37624
ਕੇ	-8.37705
▁ਘੰਟੇ	-8.37758
▁ਸੈੱਟ	-8.37961
▁ਹੋਏ	-8.38158
▁ਪੋਰਨ	-8.38264
▁ਸੋਧ	-8.38564
▁ਵਿੱਚੋਂ	-8.38799
▁ਪ੍ਰਦਾਨ	-8.38817
at	-8.39023
ri	-8.3918
▁ਫੈਕਟਰੀ	-8.39265
▁City	-8.39311
▁ਸਮਾਂ	-8.39503
▁ਜਿਵੇਂ	-8.39556
▁ਭਾਗ	-8.39598
▁ਬ	-8.40051
am	-8.40153
www	-8.40324
▁25	-8.40399
▁Windows	-8.40507
▁h	-8.40621
▁ਪੇਸ਼ਕਸ਼	-8.40805
▁ਭੁਗਤਾਨ	-8.40962
▁ਹੋਇਆ	-8.41035
▁ਵਾਲੀ	-8.41273
▁ਆਦਿ	-8.41314
▁ਕਾਰਜ	-8.41443
13	-8.41471
▁ਸ਼ਹਿਰ	-8.41536
ਿਆਂ	-8.4171
80	-8.418
▁=	-8.42002
XL	-8.42177
ol	-8.42431
▁ਨਵ	-8.42471
▁°	-8.42485
▁ਡਿਸਕ	-8.42669
ਾਈ	-8.4267
▁~	-8.42775
▁60	-8.42955
▁ਕੰ	-8.4296
▁ਅੱਪਡੇਟ	-8.42977
▁ਟੀ	-8.43299
28	-8.43551
um	-8.43614
▁ਸੁਨੇਹਾ	-8.44563
▁ਗਿਣਤੀ	-8.44565
▁ਟਿੱਪਣੀ	-8.44727
▁ਪਾ	-8.448
▁ਵਪਾਰ	-8.44936
is	-8.44968
17	-8.45374
▁ਭਾਸ਼ਾ	-8.45662
▁ਕਿਹਾ	-8.45836
▁ਪ੍ਰ	-8.4597
▁ਹੁੰਦੇ	-8.45992
)...	-8.46092
▁ਸਰਟੀਫਿਕੇਟ	-8.46232
to	-8.46327
▁Z	-8.46453
▁ਸਕਦੀ	-8.46532
▁e	-8.46611
▁ਪਾਵਰ	-8.46628
▁ਨਕਸ਼ੇ	-8.46956
▁ਵ	-8.46957
▁b	-8.47002
▁ਗਰੁੱਪ	-8.4733
▁ਅਮਰੀਕਾ	-8.47399
▁ਜੀਵਨ	-8.47422
▁ਪਹੁੰਚ	-8.47589
▁ਜਨਵਰੀ	-8.47808
▁ਨਿਰਮਾਤਾ	-8.47851
▁Punjabi	-8.48036
▁ਫਰਵਰੀ	-8.48263
▁ਤੁਹਾਡਾ	-8.48333
21	-8.48333
▁ਜੁਲਾਈ	-8.48529
▁OF	-8.48562
▁ਗੱਲ	-8.48602
▁ਨਵੇਂ	-8.48792
▁ਲਾਲ	-8.49019
▁ਲਿਮਟਿਡ	-8.49038
▁ਯੂਜ਼ਰ	-8.49174
▁ਕਾਰਡ	-8.49305
ers	-8.4943
▁ਲੇਖ	-8.49483
ਐੱਮ	-8.49551
▁KDE	-8.49666
▁ਦੇਣ	-8.49795
▁ਐਮ	-8.49819
▁ਵਿ	-8.50001
▁U	-8.50019
▁ਪੇਸ਼	-8.50154
ro	-8.5017
ਿਤ	-8.50277
▁ਤਾਜ਼ਾ	-8.50408
▁ਹੱਲ	-8.50525
▁ਉਪਲੱਬਧ	-8.5091
▁ਲਿਸਟ	-8.50942
▁TRANSLATORS	-8.51036
▁ਸਤੰਬਰ	-8.51135
▁ਸੂਚੀ	-8.51162
▁ਵਰਗ	-8.51327
90	-8.51358
▁ਸਹੀ	-8.51571
ang	-8.51692
▁ਉਹਨਾਂ	-8.51801
▁ਬੇ	-8.51877
▁ਸਹਾਇਤਾ	-8.52051
ਵੱਖ	-8.52149
▁ਕੇਵਲ	-8.52223
▁ਆਟੋਮੈਟਿਕ	-8.52229
ਕੀ	-8.52249
▁ਅਗਸਤ	-8.52262
ਆਈ	-8.52427
▁ਓ	-8.52463
ia	-8.52517
▁ਭਾਰ	-8.52532
▁ਉਦਯੋਗ	-8.52534
▁ਮਹੀਨੇ	-8.52562
▁ਮਈ	-8.52811
▁ਅਕਤੂਬਰ	-8.53186
▁ਹਾਈ	-8.5319
▁ਹੁੰਦੀ	-8.5326
="	-8.53465
22	-8.53848
▁The	-8.53958
਼	-8.5399
ਸਾ	-8.53996
▁re	-8.54181
▁ਇਲਾਜ	-8.54248
▁ਕਿਵੇਂ	-8.54343
▁ਪਸੰਦ	-8.5445
sp	-8.54467
▁ਵੇਰਵਾ	-8.54502
▁ਦੇਸ਼	-8.54542
▁ਟਰੈਕ	-8.54898
▁ਭੇਜੋ	-8.54912
▁ਬਣਾਓ	-8.54926
▁x	-8.55046
▁ਖਾਲੀ	-8.55052
▁ਚ	-8.5519
▁ਨ੍ਯੂ	-8.55289
and	-8.55335
▁ਜਾਂਚ	-8.55377
▁LED	-8.55561
▁ਪੱਧਰ	-8.5563
▁ਹੇਠ	-8.55641
▁ਕੋਸ਼ਿਸ਼	-8.55822
▁17	-8.55856
▁ਯਾਤਰਾ	-8.55936
▁ਦਿੰਦਾ	-8.55951
▁ਨਿ	-8.56092
▁ਤਕਨੀਕੀ	-8.56124
sh	-8.56155
ad	-8.56221
▁ਟੈਗ	-8.56285
▁ਡੈਸਕਟਾਪ	-8.56386
▁ਡਿਜ਼ਾਈਨ	-8.56481
as	-8.56512
▁ਸਕਰੀਨ	-8.56749
▁ਅਸਲ	-8.56756
▁ਤ	-8.56896
pa	-8.56905
▁ਅਨੁਵਾਦ	-8.57021
08	-8.57138
ੁ	-8.57145
▁ਝਲਕ	-8.5715
▁ਇਨ	-8.57281
▁ਆਖਰੀ	-8.57292
▁ਲੈਣ	-8.57394
35	-8.57472
▁ਜਿੱਥੇ	-8.575
▁ਪੈਕੇਜ	-8.57614
un	-8.57972
il	-8.58208
▁ਸਮਰੱਥਾ	-8.58255
▁ਤਬਦੀਲ	-8.58257
▁ਸਥਾਨ	-8.5827
▁ਮਾਰਚ	-8.58301
ਮੀ	-8.58338
▁ਦਬਾਅ	-8.58368
ra	-8.58425
ਗਾ	-8.58446
▁Y	-8.58723
▁ਰੱਖੋ	-8.58943
33	-8.59011
29	-8.59111
ine	-8.59232
ਗੇ	-8.59266
▁ਜਾਓ	-8.59421
ਆਰ	-8.59494
▁k	-8.59695
▁ਭੋਜਨ	-8.59731
24	-8.59797
▁ਟਾਈਮ	-8.59806
▁ਲਿਆ	-8.59843
▁d	-8.59958
▁»	-8.60021
▁ਨਵੀਂ	-8.60151
▁ਮਿੰਟ	-8.60158
▁ਮਿਨ	-8.60348
▁ਅੱਜ	-8.60422
੍	-8.60474
▁ਕਾ	-8.60491
▁ਪ੍ਰਤੀ	-8.60543
+	-8.60703
▁Vessoft	-8.60839
▁r	-8.61121
▁ਫਿਲਟਰ	-8.61251
▁ਧਿਆਨ	-8.61257
▁ਪਾਈਪ	-8.6153
▁ਅਨੁਸਾਰ	-8.61538
▁ਬੱਚੇ	-8.61679
▁l	-8.61691
▁ਨੌਜਵਾਨ	-8.61855
26	-8.61866
▁ਆਰ	-8.62072
te	-8.62126
▁ਨਵੰਬਰ	-8.62204
▁ਕਰੇਗਾ	-8.62284
▁40	-8.62676
us	-8.63057
"&	-8.63271
45	-8.63376
ੱਕ	-8.63442
ent	-8.63512
▁ਅਪ੍ਰੈਲ	-8.63519
▁ਪਿਛਲੇ	-8.6369
▁ਚੌੜਾਈ	-8.63761
▁ਸਕਿਆ	-8.64255
▁ਸੁਰੱਖਿਅਤ	-8.64773
ਉ	-8.6489
▁ਇੰਸਟਾਲ	-8.64952
▁ਸਪਲਾਇਰ	-8.64959
ਸਟ	-8.64993
ਟਾ	-8.65083
01	-8.65374
▁ਅਨੁਕੂਲ	-8.65394
▁label	-8.65395
▁ਸਰਕਾਰ	-8.65408
▁ਐਨ	-8.65452
▁ਅੰਤ	-8.65537
▁ਪਾਸਵਰਡ	-8.65777
▁ਦਿੱਤੀ	-8.65906
▁ਕੁੰਜੀ	-8.66052
ਿ	-8.66058
▁ਟੈਸਟ	-8.66161
▁ਹੋਵੇ	-8.66211
Z	-8.66248
▁ਸਮੀਖਿਆ	-8.66685
▁ਲੜੀ	-8.66779
▁ਸਪਲਾਈ	-8.66866
▁ਕੁਨੈਕਸ਼ਨ	-8.6701
▁ਮਿਤੀ	-8.6718
▁'%	-8.67279
ion	-8.67356
▁ਬਦਲੋ	-8.67462
▁ਪਹਿਲੀ	-8.67521
▁ਸੁ	-8.67573
▁ਸਲਾਟ	-8.67605
▁ਅਜਿਹੇ	-8.67806
▁ਭਰ	-8.67838
▁ਦਸੰਬਰ	-8.67867
31	-8.67868
ਧ	-8.67898
27	-8.67999
ਫ਼	-8.68036
▁×	-8.68115
ex	-8.68139
la	-8.6821
▁GPS	-8.6839
▁ਸਫ਼ਾ	-8.68471
▁ਲਿੰਕ	-8.68656
▁unit	-8.688
▁ਹਿੱਸੇ	-8.68803
ੌ	-8.68855
▁ਪੋਰਟ	-8.68948
▁ਤਕਨਾਲੋਜੀ	-8.68953
09	-8.69057
▁ਰੋਡ	-8.69176
▁ਮੂਲ	-8.69367
ਕੋ	-8.69447
▁ਉ	-8.69659
▁ਕਿਉਂਕਿ	-8.69713
▁ਲੰਬਾਈ	-8.69853
▁ਨਿੱਜੀ	-8.69867
▁ਵਿਅਕਤੀ	-8.69897
23	-8.70011
▁ਗੁਰੂ	-8.70028
ter	-8.70067
▁whatsthis	-8.70321
▁ਕੁੱਲ	-8.70341
ਜਾ	-8.70341
-8	-8.70372
▁ਟੀਮ	-8.70428
me	-8.70449
▁f	-8.70455
▁ਜਹਾਜ਼	-8.70474
▁ਰਾਖਵੇਂ	-8.70477
▁Casino	-8.70693
’	-8.70781
▁you	-8.70823
▁ਸੁਨੇਹੇ	-8.70935
▁de	-8.7105
▁condition	-8.71243
ig	-8.71256
▁ਜ਼ਰੂਰੀ	-8.71296
▁ਗਲਤ	-8.71411
▁ਰੇਲ	-8.71493
▁ਬਟਨ	-8.71719
▁200	-8.71733
ਨੇ	-8.71736
02	-8.71803
ie	-8.71876
▁be	-8.71972
ਹਾ	-8.71978
▁ਸਧਾਰਨ	-8.72019
▁ਕਾਲੇ	-8.72053
▁ਮੈ	-8.72064
▁ਵਾਪਸ	-8.72226
▁ਬਾਲਗ	-8.72234
▁ਪਲਾਸਟਿਕ	-8.72237
▁on	-8.72318
▁ਡਿਜ਼ਾਇਨ	-8.7233
▁ਕਾਰੋਬਾਰ	-8.7235
▁123	-8.72417
▁ਵੇਖਣ	-8.72454
ut	-8.72632
▁ਥੀਮ	-8.72644
▁ਕਰਦੀ	-8.72729
▁ਵਿਸ਼ੇਸ਼	-8.72894
ul	-8.72956
▁ਲਾਭ	-8.72967
▁ਸੰਭਾਲੋ	-8.73138
▁ਬਿਜਲੀ	-8.73272
Q	-8.73636
ੱਲ	-8.73902
ਕਰ	-8.73935
▁ਵਧੇਰੇ	-8.74036
▁ਪਾਠ	-8.7406
▁ਉਮਰ	-8.74099
▁ਲੋਕਾਂ	-8.74299
▁ਦਿੱਤੇ	-8.74542
▁ਕੇਂਦਰ	-8.74588
▁ਯਕੀਨੀ	-8.74594
integer	-8.747
▁ਵਰਤ	-8.74884
▁ਪੈਦਾ	-8.74896
ਿਨ	-8.74944
ill	-8.75011
▁ਪ੍ਰਬੰਧਨ	-8.7504
▁ਰਾਜ	-8.75338
75	-8.75346
li	-8.75479
▁ਸਰਕਾਰੀ	-8.75669
▁ਪਿਆਰ	-8.76006
real	-8.76042
ation	-8.76108
▁ਫੇਲ੍ਹ	-8.7615
ma	-8.76153
ਬਾ	-8.76262
▁Canada	-8.76312
ry	-8.76356
▁Re	-8.76519
▁ਕਵਰ	-8.76523
▁www	-8.76573
▁ਸੁਧਾਰ	-8.76579
55	-8.76629
▁ਦਸਤਾਵੇਜ਼	-8.76638
▁ਵੱਡਾ	-8.76727
▁ਤਰੀਕੇ	-8.768
▁ਮੌਜੂਦ	-8.76901
▁ਛੋਟੇ	-8.7706
▁ਵਿਆਪਕ	-8.77226
▁ਰਾਸ਼ਟਰੀ	-8.77656
▁ਵੱਡੀ	-8.77813
▁ਯੂਨੀਵਰਸਿਟੀ	-8.7795
05	-8.77983
▁(1	-8.7832
▁ਫ	-8.78341
▁ਪ੍ਰਭਾਵ	-8.78424
▁ਕੋਰਸ	-8.7849
▁ਤਿੰਨ	-8.78493
▁ਮਿਆਰੀ	-8.78673
▁ਬਣ	-8.78696
70	-8.78712
▁ਇਮੋਜੀ	-8.78779
▁ਕੂਕੀਜ਼	-8.78789
▁CD	-8.79159
▁ਪੁੱਛ	-8.7928
▁ਰਿ	-8.79341
▁ਮੋਟਰ	-8.79671
▁ਜਾਂਦੀ	-8.7972
▁ਉਦਯੋਗਿਕ	-8.79894
▁ਕਦੇ	-8.80035
▁ਹਾਲਤ	-8.80177
▁ਕੁ	-8.80309
▁ਫੀਚਰ	-8.8046
lo	-8.80768
▁ਮੈਨੇਜਰ	-8.81138
▁500	-8.81172
na	-8.81249
32	-8.81263
▁ਸੰਭਵ	-8.81309
▁ਵਜੋਂ	-8.8131
▁ਕਾਪੀ	-8.8153
▁ਉਪਲਬਧ	-8.81576
ਯੂ	-8.81687
▁ਹੋਈ	-8.81786
▁ਹਵਾਈ	-8.8195
▁ਰੱਖਣ	-8.82097
ate	-8.8214
▁ਤੁਰੰਤ	-8.82339
▁ਸਿਖਲਾਈ	-8.8234
▁ਦਰ	-8.82343
ਜੇ	-8.82387
▁ਸੰਚਾਰ	-8.82713
emoji	-8.83032
▁ਸੰਸਾਰ	-8.83035
▁ਸਿ	-8.83198
▁ਸ਼ੇਅਰ	-8.83212
▁ਕਲਾ	-8.8344
▁ਸ਼ਬਦ	-8.83568
GenericName	-8.83781
ge	-8.84047
▁ਛੁਪਾਓ	-8.84054
▁ਵਜੇ	-8.84114
▁ਵੇਖਾਓ	-8.84261
▁ਹਿੱਸਾ	-8.84343
ha	-8.84424
▁ਰਿਪੋਰਟ	-8.84612
▁Co	-8.84725
▁ਆਡੀਓ	-8.84961
▁ਥਾਂ	-8.84964
▁ਮੀਟਰ	-8.85079
▁ਭਲਾਈ	-8.85142
▁ਸੰਗੀਤ	-8.8521
▁ਹੇਠਾਂ	-8.85232
color	-8.85233
▁ਵੈੱਬ	-8.85316
▁ਲਿਖਣ	-8.8537
ਐਕਸ	-8.85402
▁ਚੈੱਕ	-8.85452
-1	-8.85496
▁ਹ	-8.85589
▁ਪ੍ਰੋਜੈਕਟ	-8.85674
88	-8.85674
org	-8.85843
▁ਸਾਡਾ	-8.86042
da	-8.86055
68	-8.86082
▁ਸੀਮਾ	-8.86359
▁ਐਡਰੈੱਸ	-8.86386
85	-8.86538
▁ਨਿਗਰਾਨੀ	-8.86596
65	-8.866
▁ਸਿਟੀ	-8.86642
man	-8.86753
▁https	-8.86782
500	-8.86867
▁ਪੋਰਟਲ	-8.869
▁ਮੁਹੱਈਆ	-8.86929
▁ਰਾਹੀਂ	-8.87111
de	-8.87135
ਐੱਨ	-8.87243
ਗੀ	-8.87282
▁world	-8.87348
▁ਕੋ	-8.87384
▁ਖੋਲ੍ਹੋ	-8.87481
▁ਹੋਣਾ	-8.87617
▁ਜਾਂਦੇ	-8.88008
▁ਪਛਾਣ	-8.88155
▁ਫਾਈਬਰ	-8.8821
86	-8.88274
▁ਸਬ	-8.88287
▁ਤੇਲ	-8.88463
▁ਫੋਂਟ	-8.8857
▁ਮਾਰ	-8.88604
ਯ	-8.88764
▁ਇਹਨਾਂ	-8.88957
▁ਪ੍ਰਸਿੱਧ	-8.89121
ne	-8.89169
ਕਸ	-8.89344
▁ਲਾਗ	-8.89359
38	-8.89393
ੀਆ	-8.8951
▁ਅਗਵਾਈ	-8.89678
mo	-8.89702
▁ਮਿ	-8.89738
ti	-8.8983
▁ਬੋਰਡ	-8.89878
ho	-8.90075
▁ਬਾਲ	-8.90171
▁ਪ੍ਰੋਗਰਾਮ	-8.90197
▁ਸੂਚਨਾ	-8.90235
▁forecast	-8.90422
100	-8.90538
▁22	-8.90583
▁ਅਲ	-8.90606
▁ਪੇਸ਼ੇਵਰ	-8.90609
▁ਬਦਲ	-8.90628
39	-8.90658
04	-8.90701
200	-8.90778
▁ਹੋਵੇਗਾ	-8.9085
im	-8.91087
36	-8.91102
▁ਮੋਡ	-8.91112
▁ਕਮਾਂਡ	-8.91551
▁21	-8.91556
▁ਹਮੇਸ਼ਾ	-8.91906
ant	-8.91965
ce	-8.9201
▁ਟੈਕਸਟ	-8.92041
▁Q	-8.92196
ਵਿ	-8.92218
▁ਸਿੰਘ	-8.92315
ਬਲ	-8.92319
▁ਟੂਲ	-8.92427
▁ਫਾਰਮ	-8.92431
▁ਸਕੂਲ	-8.92504
▁n	-8.92574
ਬਰ	-8.92632
▁ਪੰਨਾ	-8.92693
▁ਚੰਗੀ	-8.92696
ਸ਼ਾ	-8.9275
▁ਵਿਚਕਾਰ	-8.92941
▁ਪਹਿਲੇ	-8.93098
52	-8.93209
ਦਾਰ	-8.93257
▁start	-8.93285
▁ਬਣਾ	-8.93339
▁ਹੱਥ	-8.93513
▁ਤੇਜ਼	-8.93578
ਪਰ	-8.93634
▁ਯੋਜਨਾ	-8.93714
▁ਗਤੀ	-8.93718
ਟੋ	-8.93722
▁ISO	-8.93756
▁ਟਰੈਕਰ	-8.93801
ਦਰ	-8.93823
▁ਵਿਆਹ	-8.93882
▁(%	-8.93959
▁ਸਟੋਰ	-8.93966
▁ਸਮੱਸਿਆ	-8.94013
69	-8.94023
▁ਕੈਸੀਨੋ	-8.94438
▁ਦਿਵਸ	-8.94628
ਮੇ	-8.94669
pe	-8.94775
ong	-8.94962
▁w	-8.9511
os	-8.95192
▁ਅਧੀਨ	-8.95212
ੜੀ	-8.95303
op	-8.95308
▁ਬਾਰ	-8.95557
▁ਮੇਰੀ	-8.95651
▁ਸੁਝਾਅ	-8.95678
▁ਰੀ	-8.95724
▁not	-8.95829
▁ਅਧਿਕਾਰ	-8.9587
▁ਲਾ	-8.96019
▁inmenu	-8.96397
▁ਅਸਲੀ	-8.96498
▁ਵਾਲਾ	-8.96664
▁ਸਾ	-8.96806
▁ਪੜ੍ਹੋ	-8.96818
▁ਸ਼ੀਟ	-8.96826
-6	-8.96875
54	-8.96911
▁ਵੇਖ	-8.96976
48	-8.96981
▁Free	-8.97038
95	-8.97096
▁am	-8.97257
53	-8.97275
66	-8.97317
▁ਨਿਰਮਾਣ	-8.97395
▁ਫਾਰਮੈਟ	-8.974
IN	-8.97486
▁ਵਧ	-8.97556
▁ਮੰਗ	-8.97558
▁ਈਯੂਆਰ	-8.97797
▁ਇੰਪੋਰਟ	-8.978
▁ਚੰਗਾ	-8.97802
▁ਇ	-8.97864
ਭ	-8.97993
▁ਉਪਕਰਣ	-8.98
▁ਨਤੀਜੇ	-8.98403
▁user	-8.98429
ਯੋਗ	-8.98478
▁ਗੈਰ	-8.98528
37	-8.98645
land	-8.98732
58	-8.9875
▁ਖਤਮ	-8.98809
▁ਤਸਵੀਰ	-8.99292
ਡਾ	-8.99511
ੱਡ	-8.99585
07	-8.99785
▁ਮਹੱਤਵਪੂਰਨ	-8.99832
ਤਰ	-9.00279
ir	-9.00364
▁ਖ	-9.00384
▁ਪਾਊਡਰ	-9.0045
▁ਸਾਫ਼	-9.00524
hi	-9.00664
▁ਮਾ	-9.00832
▁ਕਾਫ਼ੀ	-9.00868
▁ਧੰਨਵਾਦ	-9.00935
per	-9.01107
▁ਡਾਉਨਲੋਡ	-9.01281
▁ਵਿਕਲਪ	-9.01281
▁ਮੰਨਿਆ	-9.01302
ੱਸ	-9.01305
▁ਨੀਤੀ	-9.01432
▁ਪਰਿੰਟ	-9.01514
▁‘	-9.01549
ਐਚ	-9.01618
67	-9.01704
56	-9.01748
▁ਟੈਗਸ	-9.01833
▁ਸੋ	-9.0185
▁ਵਰਗੇ	-9.01918
▁ਆਸਾਨ	-9.02045
no	-9.02264
59	-9.02425
▁ਡਿਵਾਈਸ	-9.0254
▁ਕਿਸ	-9.02564
▁ਮੇਨੂ	-9.02668
▁ਘੱਟੋ	-9.02692
▁are	-9.02694
03	-9.02749
▁IP	-9.02753
▁ਯੂਨਿਟ	-9.02761
74	-9.02794
lu	-9.02861
46	-9.02911
▁ਚੱਲ	-9.02966
ਏਥੇ	-9.03027
ਇ	-9.03037
▁ਸਵੈ	-9.03217
▁i	-9.03233
▁ਮੁਫਤ	-9.03389
▁ਉੱਪਰ	-9.03389
▁ਕਲਾਕਾਰ	-9.03561
▁kde	-9.03628
61	-9.03647
▁ਅੱਖਰ	-9.03663
▁ਐਫ	-9.0367
▁1'	-9.03831
▁ਮੁ	-9.03874
▁do	-9.03985
ਮਾਨ	-9.04047
▁ਲੱਗਦਾ	-9.04058
▁ਮਾਲਕ	-9.04085
▁ਬਾਕਸ	-9.04231
76	-9.04245
▁ਫਿਲਮ	-9.04246
all	-9.04324
34	-9.04378
ta	-9.04394
▁ਬਿਨਾਂ	-9.04541
▁ਪ੍ਰਾਈਵੇਟ	-9.04795
*	-9.04816
▁ਚਲਾਓ	-9.05125
89	-9.05191
▁ਦ	-9.05268
▁ਰੱਦ	-9.05338
▁ਅਣਜਾਣ	-9.05653
▁ਸ਼੍ਰੇਣੀ	-9.05746
▁ਮਿਲ	-9.05746
▁dur	-9.05817
▁ਡਿਫਾਲਟ	-9.05846
▁ਪੱਟੀ	-9.06008
ੰਗ	-9.0607
▁ਸਲਾਹ	-9.061
▁ਅੰਗ	-9.06197
▁31	-9.06222
▁ਹਵਾ	-9.06322
▁ਅੰਦਰੂਨੀ	-9.06416
▁status	-9.06499
▁ਸ਼	-9.06517
▁ਔਸਤ	-9.0664
▁ਕਾਰਬਨ	-9.06643
ਿਸ	-9.06658
▁ਆਟੋ	-9.06687
▁ਬੈਗ	-9.06717
ੰਡ	-9.06906
78	-9.07006
▁ਸੰਸਥਾ	-9.07044
▁ਕੈਲੰਡਰ	-9.07077
ੰ	-9.07084
▁23	-9.07191
87	-9.07479
▁1000	-9.07486
▁Phone	-9.07508
ac	-9.07517
▁ਡਿਪਾਜ਼ਿਟ	-9.0752
▁ਯਿਸੂ	-9.0752
▁ਨੁਕਸਾਨ	-9.07522
▁ਪੜ੍ਹਨ	-9.07625
▁ਸੁੰਦਰ	-9.0767
▁ਡਾਕਟਰ	-9.07681
ot	-9.07795
ਸੇ	-9.07825
▁ago	-9.07882
ਰੂ	-9.07907
▁ਜ਼ਿਲ੍ਹਾ	-9.08188
▁ਆਈਕਾਨ	-9.08194
ਅੰਦਰ	-9.08205
▁ਫਲ	-9.08213
ਨੋ	-9.08327
▁ਜੇਨਰੇਟਰ	-9.08636
▁ਚਾਲੂ	-9.0864
▁ਯਾਦ	-9.0866
▁ਪੈਕਿੰਗ	-9.08679
tor	-9.08692
ਐਮ	-9.0885
▁ਯੂਰਪ	-9.08924
44	-9.08944
ch	-9.08954
▁ਕੰਪਿਊਟਰ	-9.0916
▁ਨੇੜੇ	-9.09195
▁ਚਾਰ	-9.09456
ru	-9.09571
▁ਬਾਹਰੀ	-9.09626
99	-9.09729
▁ਇਲਾਵਾ	-9.09764
▁ਆਪਣਾ	-9.09824
▁80	-9.09829
ak	-9.09835
▁ਇਕਾਈ	-9.09878
he	-9.0992
▁ਪਿਛਲਾ	-9.09992
▁ਸਿਰ	-9.10091
▁ਚਲਾਉਣ	-9.10121
able	-9.10295
ca	-9.10446
ਚਰ	-9.1062
ਅਰ	-9.10687
▁ਪੌਦਾ	-9.10691
▁ਦਵਾਈ	-9.10841
▁ਪਾਸ	-9.10846
▁ਪਿੱਛੇ	-9.10906
▁ਚੈਨਲ	-9.11136
81	-9.11283
▁ਲੜੋ	-9.11384
▁ਸਰੀਰ	-9.11427
mp	-9.11448
▁ਸਿਰਫ਼	-9.11453
ment	-9.11661
ਰਨ	-9.1167
ਰਸ	-9.11727
57	-9.11766
ਿਸ਼	-9.11776
▁ਮਹਿਸੂਸ	-9.11829
▁ਮਾਲ	-9.11868
▁ਵਿੰਡੋਜ਼	-9.11963
82	-9.1224
▁ਡਾਇਰੈਕਟਰੀ	-9.12278
kg	-9.12335
▁ਮੁਕੰਮਲ	-9.12402
и	-9.12434
▁ਪਾਰਕ	-9.12523
▁ਪੱਤਰ	-9.12567
end	-9.12675
▁ਸਕੀ	-9.12787
▁ਪੈਨਲ	-9.12868
ka	-9.12911
ਊ	-9.12994
▁ਵਲੋਂ	-9.12994
▁ਸਿੱਖਿਆ	-9.13025
▁ਵਿਸ਼ੇਸ਼ਤਾ	-9.13081
▁ਡ	-9.13164
ton	-9.13189
ay	-9.13197
one	-9.13321
51	-9.13327
▁2011	-9.13458
▁ਸਾਈਨ	-9.135
▁300	-9.13668
▁ਮਤਲਬ	-9.137
▁ਪ੍ਰੋ	-9.13723
-15	-9.1377
#	-9.1379
▁option	-9.13933
▁ਪ੍ਰਬੰਧ	-9.14028
47	-9.14148
ਜ਼ੀ	-9.14153
The	-9.14168
▁ਨਿੰਗਬੋ	-9.14173
▁ਸਥਿਤ	-9.14353
43	-9.14377
▁ਰਿਕਾਰਡ	-9.14414
49	-9.14589
▁"%	-9.14608
▁ਸਾਈਜ਼	-9.14651
va	-9.14765
▁ਪਦਾਰਥ	-9.14791
world	-9.14812
ਿਊ	-9.14875
▁ਬੀਟਾ	-9.14936
ਾਉਣ	-9.15238
ਡਰ	-9.15258
▁Mobile	-9.15367
▁ਦੇਖੋ	-9.15482
▁ਬਲੌਗ	-9.15485
▁ਗੱਡੀ	-9.15485
▁ਸਰਵਿਸ	-9.15511
om	-9.15572
▁DVD	-9.15598
▁ਮਨ	-9.15617
▁ਗਲਾਸ	-9.15849
▁90	-9.15851
▁ਗਾਈਡ	-9.15863
▁ਅੰਕ	-9.15906
ਬੇ	-9.16259
▁ਪਰਮੇਸ਼ੁਰ	-9.16332
79	-9.16363
▁100%	-9.16462
▁ਐਪ	-9.16474
ੱਟ	-9.16623
▁ਡਾ	-9.16631
▁Hack	-9.16635
ap	-9.16684
▁ਲਗਾਤਾਰ	-9.16711
▁ਪਾਸੇ	-9.16732
ੋਲ	-9.1681
▁ਬਿਹਤਰ	-9.16817
▁ਅਨੁਭਵ	-9.16818
▁ਕੈਮਰਾ	-9.17062
ਮੋ	-9.17089
▁In	-9.17101
▁ਇੰਜਣ	-9.17306
▁ਡਾਈਲਾਗ	-9.17306
▁ਰੱਖਿਆ	-9.17434
▁ਕਸਟਮ	-9.17437
ਗਿੱਛ	-9.17537
▁ਹੁਣੇ	-9.17543
▁ਤਾਕਤ	-9.17551
▁ਨਿਊ	-9.17556
▁ਟੈਬ	-9.17664
▁ਲੇਖਕ	-9.17677
▁ਕੱਟਣ	-9.17689
q	-9.17704
▁ਭੇਜਣ	-9.17774
▁ਊਰਜਾ	-9.17797
▁00	-9.1792
▁ਕਲ	-9.1794
▁ਮਿਆਦ	-9.18044
ੱਤ	-9.18511
▁ਵਿਕਸਿਤ	-9.18538
▁ਸ਼ਕਤੀ	-9.18538
▁france	-9.1854
▁ਮਹਾਨ	-9.18541
▁ਟਿਊਬ	-9.18557
▁state	-9.18607
▁ਸੇਵਾਵਾਂ	-9.1867
net	-9.18699
ਜ਼ਾ	-9.18813
▁ਗਰਮੀ	-9.18935
ਿੱ	-9.19063
▁ਮਾਪ	-9.191
▁ਦਿਲ	-9.19171
е	-9.19185
ist	-9.19206
▁with	-9.19277
▁ਲੇਜ਼ਰ	-9.19285
▁ਛੋਟਾ	-9.19402
▁ਆਉਟਪੁੱਟ	-9.19535
92	-9.19789
71	-9.19846
ਸਿ	-9.19883
▁ਪ੍ਰਕਿਰਿਆ	-9.20007
ag	-9.20021
72	-9.20129
▁ਆਈਟਮ	-9.20206
ph	-9.20209
▁ਬੈਟਰੀ	-9.20293
▁type	-9.20415
▁ਸਟੇਸ਼ਨ	-9.20558
▁ਗੁ	-9.20621
▁or	-9.20649
▁ਬਾ	-9.20756
▁Sh	-9.20774
▁ਚਾਨਣ	-9.20794
▁ਸਥਾਨਕ	-9.20862
▁26	-9.21016
▁ਵਰਡਪਰੈਸ	-9.21028
▁ਗੂਗਲ	-9.21047
ਪ੍ਰ	-9.21057
vi	-9.2116
▁ID	-9.21182
ell	-9.21282
▁ਸ਼ੈਸ਼ਨ	-9.2131
go	-9.21332
ft	-9.21355
▁—	-9.2141
▁your	-9.21512
▁ਭ	-9.21547
▁ਸਕਿੰਟ	-9.21813
▁ਗ੍ਰੀਨ	-9.21813
▁ਵੱਲ	-9.21821
▁ਐ	-9.21828
ty	-9.21829
▁ਸਰਵੇਖਣ	-9.21903
▁ਬੁ	-9.22077
06	-9.22149
▁ਜਾਣਾ	-9.2216
▁ਕੁਦਰਤੀ	-9.22172
▁ਅੰਗਰੇਜ਼ੀ	-9.22236
▁ਡਿ	-9.22254
▁28	-9.22325
ਾਇਆ	-9.22373
▁ਦੂਰ	-9.22408
▁ਵੇਲੇ	-9.22474
ੜੇ	-9.22576
▁ਅਪ	-9.22597
▁ਤਕ	-9.22637
97	-9.22772
▁ਫੈਕਸ	-9.2285
ਕਲ	-9.22979
▁ਤੋ	-9.23065
▁ਜ਼ਿਆਦਾ	-9.23089
▁pricelist	-9.23102
▁ਕੇਸ	-9.23116
▁ਖੋਲ੍ਹਣ	-9.23133
▁ਸੇ	-9.23167
▁ਸਰਗਰਮ	-9.23334
▁ਵਾਸਤੇ	-9.23363
°	-9.23388
ਗਰ	-9.23398
▁ਸਿਖਰ	-9.23419
▁ਨਿਯਮ	-9.23441
▁Google	-9.23625
▁ਲਾਈਵ	-9.23633
-5	-9.2377
ਜ਼ਰ	-9.23847
ਕੋਈ	-9.23869
▁ਸੈਂਟਰ	-9.23883
▁ਐਲਬਮ	-9.23883
▁ਪੇ	-9.2401
NAME	-9.24015
▁z	-9.24054
▁ਇੰਟਰਫੇਸ	-9.24144
▁ਮੋ	-9.24236
▁ਸਤਰ	-9.24276
▁ਜ਼ਰੂਰਤ	-9.2436
▁ਏਅਰ	-9.24456
▁ਲਿ	-9.24528
ਇਨ	-9.246
▁ਅੰਤਰਰਾਸ਼ਟਰੀ	-9.2467
96	-9.24676
91	-9.24722
▁ਵਿਸ਼ਵ	-9.24922
▁ਸੰ	-9.25127
▁ਕਲਾਸ	-9.25273
▁ਹਰੇਕ	-9.25466
▁ਫੁੱਲ	-9.25512
▁ਗੈਸ	-9.25629
▁De	-9.25684
41	-9.25756
di	-9.25816
▁ਰੈ	-9.25854
▁ਫੰਕਸ਼ਨ	-9.2589
▁27	-9.26051
▁ਇੰ	-9.26083
▁ਭਾਰਤੀ	-9.26097
▁ਸਫ਼ੇ	-9.26264
ab	-9.26289
▁ਚੁਣੇ	-9.26317
od	-9.26331
▁ਹਾਲ	-9.26342
ਗੋ	-9.26346
ਸਰ	-9.26381
▁ਚੀਨੀ	-9.26445
▁ਪੈਸੇ	-9.26541
ub	-9.26676
▁it	-9.26712
ੈ	-9.26805
▁ਬੈ	-9.26859
▁ਕੀਤੀਆਂ	-9.26889
▁ਡੇ	-9.26979
▁ਮੈਡੀਕਲ	-9.27
Country	-9.2707
▁ਚੱਕਰ	-9.27075
▁ਸ਼ੁੱਧਤਾ	-9.27101
▁ਰੇਟਿੰਗ	-9.27125
▁an	-9.27155
▁ਲਗਭਗ	-9.27172
▁ਤਾਰ	-9.27219
▁ਮਾਰਕੀਟ	-9.27266
▁HTML	-9.27307
▁Bonus	-9.2734
▁ਸਮੂਹ	-9.2734
MoHFW	-9.27396
▁ਕੇਬਲ	-9.27513
▁ਅਕਸਰ	-9.27614
▁as	-9.27735
▁ਵੱਖਰੇ	-9.27747
▁ਲਵੋ	-9.27751
▁ਬਿੰਦੂ	-9.27887
▁45	-9.27934
▁ਸਰ	-9.27946
AN	-9.28019
▁description	-9.28156
▁ਕ੍ਰੈਡਿਟ	-9.28156
ai	-9.28165
ਹਿ	-9.28188
ਬੋ	-9.28224
hu	-9.28261
▁ਡਾਟਾਬੇਸ	-9.28429
▁button	-9.28431
▁ਪਸੰਦੀਦਾ	-9.28447
▁ਵਿਦਿਆਰਥੀ	-9.28483
▁ਸਾਰੀਆਂ	-9.28515
ਾਇ	-9.28671
о	-9.28693
▁ਬੱਗ	-9.28734
42	-9.28838
▁ਗੁਪਤ	-9.28885
up	-9.28904
▁ਵਧਾਉਣ	-9.28974
▁ਅਜੇ	-9.29058
▁NAME	-9.29115
▁ਪਿ	-9.29115
ਸਕ	-9.29125
pi	-9.29229
▁Roulette	-9.29253
▁Comments	-9.29287
63	-9.29297
▁ਸੱਚ	-9.29299
ਐਲ	-9.29307
▁ਹਟਾਉਣ	-9.29422
▁ਦੂਜੇ	-9.29489
▁syn	-9.29533
▁ਬਿੱਲ	-9.29694
▁ਵਾਧੂ	-9.29806
▁Ch	-9.29818
▁ਐਪਸ	-9.3006
ian	-9.30087
▁ਜ਼ੋਨ	-9.30088
73	-9.30184
ਜਨ	-9.30234
98	-9.30244
NI	-9.30311
▁ਟੈਲੀਫ਼ੋਨ	-9.30362
▁ਚੁਣਿਆ	-9.30385
min	-9.30499
▁ਰਹਿਣ	-9.30528
▁ਸਾਰੀ	-9.30584
▁ਡੌਕੂਮੈਂਟ	-9.30635
▁ਆਉਣ	-9.30663
▁ਘ	-9.30669
ਣੀ	-9.3085
▁ਜਿੱਤ	-9.30907
▁ਵੇਰਵੇ	-9.30922
▁ਉਲਟ	-9.30945
▁ਓਪਨ	-9.3097
line	-9.31049
ਵਾਰ	-9.31172
▁ਦਿ	-9.31322
▁ਖਿਡਾਰੀ	-9.31411
▁ਫਾਈਲ	-9.31462
▁ਬਰ	-9.31559
bo	-9.31571
▁±	-9.31584
▁ਨਿਵੇਸ਼	-9.31593
▁color	-9.31631
▁ਨਿਰਦੇਸ਼	-9.3172
▁ਤਬਦੀਲੀ	-9.31738
ਇਸ	-9.31749
▁ਅਪਡੇਟ	-9.31767
64	-9.31855
000	-9.31926
▁ਮੋਡੀਊਲ	-9.3205
▁ਉਪਦੇਸ਼	-9.3205
▁ਦੱਖਣੀ	-9.32186
▁porn	-9.32296
,000	-9.32341
▁ਟਾਈਪ	-9.32407
▁sa	-9.32491
▁120	-9.32524
77	-9.32553
▁ਯੂਰੋ	-9.32574
▁ਦੋਸਤ	-9.32605
▁ਮਾਤਰਾ	-9.32619
▁ਛੱਤ	-9.32627
we	-9.32642
▁New	-9.32789
▁ਗਰਮ	-9.32842
▁ਅਧਿਐਨ	-9.32905
▁ਇਸਤੇਮਾਲ	-9.32905
▁ਜਿਨ੍ਹਾਂ	-9.32905
▁plain	-9.32906
ੋਂ	-9.32916
▁Girls	-9.33191
▁ਉਚਾਈ	-9.33192
0.00	-9.33232
▁ਔਰਤ	-9.33289
▁ਵਾਲਵ	-9.33349
▁ਟਿਕਾਣਾ	-9.33479
ਐੱਸ	-9.33566
▁ਗਨੋਮ	-9.33767
▁Me	-9.33814
▁ਉੱਥੇ	-9.34056
▁ਲੱਭ	-9.34081
▁URL	-9.34089
▁ਡਰ	-9.34179
▁tooltip	-9.34244
ke	-9.34333
▁ਜਗ੍ਹਾ	-9.34637
ਪਾ	-9.34643
▁ਜੈੱਟ	-9.34687
੍ਹ	-9.34717
400	-9.34756
▁ਲੇਬਲ	-9.3493
▁ਉਦਾਹਰਨ	-9.3496
▁ਪੰਜ	-9.35205
▁ਸਮਾਰਟ	-9.35219
▁ਨਿਰਭਰ	-9.35221
▁input	-9.35221
2019	-9.35228
ver	-9.35244
▁ਬਲ	-9.35297
▁Le	-9.35314
ਂਗ	-9.35407
▁ਪੇਜ਼	-9.35436
▁ਦੇਖਣ	-9.35747
▁ਵਿਲੱਖਣ	-9.35808
▁ਡਿਗਰੀ	-9.35811
▁USD	-9.35822
▁ਐਕਸਐਲ	-9.35833
ਟੇ	-9.35882
ਬੂ	-9.35959
ies	-9.36098
®	-9.36103
▁ਬਦਲਣ	-9.36203
age	-9.36217
ni	-9.36344
▁ਸਹੂਲਤ	-9.3636
▁ਮਕਸਦ	-9.36399
▁ਮੀਡੀਆ	-9.36399
▁ਸਪੀਡ	-9.364
▁St	-9.36446
▁ਲੋਕਲ	-9.36477
▁ਜਾਵੇ	-9.36519
▁ਮਹਿਲਾ	-9.36559
▁ਲਾਈਟ	-9.36578
ਫੇ	-9.36586
▁ਕਦਮ	-9.3663
▁You	-9.36634
▁ਸੱਜੇ	-9.36695
▁ਡਬਲ	-9.36703
▁ਲਾਗਇਨ	-9.36711
▁ਅਣ	-9.36718
ance	-9.36872
▁ਬੁੱਕ	-9.36903
▁ਬਿ	-9.36982
onyms	-9.36993
▁ਬਿਲਕੁਲ	-9.36993
ਐਨ	-9.3723
▁ਪਲੇਟ	-9.37275
▁ਸੀਰੀਜ਼	-9.37293
▁ਬੇਅੰਤ	-9.37297
▁ਪੰਪ	-9.37302
84	-9.37532
▁ਐਚ	-9.3754
▁ਉਮੀਦ	-9.37582
▁ਲੱਕੜ	-9.37591
▁ਸਥਾਪਿਤ	-9.37591
▁ਦਿੱਖ	-9.37596
▁ਸੂਬੇ	-9.37597
ਖਾ	-9.37725
▁ਲਾਗਤ	-9.37736
▁ਇੰਚ	-9.37888
▁ਚੇਤਾਵਨੀ	-9.37891
▁ਵਿਆਸ	-9.37892
▁menu	-9.37894
▁matching	-9.37903
▁ਵਾਂਗ	-9.37907
93	-9.3802
▁ਚਮੜੀ	-9.38193
▁ਚਾਹੁੰਦਾ	-9.38193
▁that	-9.38206
▁ਰਾਤ	-9.38313
▁ਪਰਬੰਧ	-9.38339
300	-9.38412
▁this	-9.38497
ip	-9.385
est	-9.38519
▁translate	-9.38707
2018	-9.38726
▁ਸਕੇ	-9.38772
▁ਮੇਰਾ	-9.38845
▁ਵਰਤੋ	-9.38894
▁ਏਸ਼ੀਆ	-9.39059
ਰਕ	-9.39269
ci	-9.39329
▁ਕਨੈਕਟ	-9.39408
ba	-9.39469
▁Honda	-9.39712
▁ਇਨ੍ਹਾਂ	-9.39712
▁ਔਨਲਾਈਨ	-9.39715
▁ਖਾ	-9.39958
▁Vi	-9.40136
▁ਰੂਟ	-9.40146
▁ਲਿਖਿਆ	-9.40158
▁ਪ੍ਰਦਰਸ਼ਨ	-9.40396
▁ਕਮਰੇ	-9.40398
au	-9.40497
ਕੁ	-9.40552
▁ਸਾਮਾਨ	-9.40583
▁ਕਿਤਾਬ	-9.40615
▁ਡੋਮੇਨ	-9.40635
▁month	-9.40636
ਲੈਂਡ	-9.40681
▁o	-9.40755
▁ਝ	-9.40883
ਹੀ	-9.40919
▁ਰੌਸ਼ਨੀ	-9.40945
▁ਚੀਜ਼	-9.40984
ਲਿ	-9.41135
▁ਅਗਲਾ	-9.41218
▁ਗੱਲਬਾਤ	-9.41258
▁150	-9.41289
ਛ	-9.41423
▁ਨਿਊਜ਼	-9.41441
ੀਅਨ	-9.41481
▁ਹੋਟਲ	-9.41495
▁ਮਸ਼ਹੂਰ	-9.41567
▁ਵਿਕੀਪੀਡੀਆ	-9.41567
▁+86	-9.41688
▁ਖਰੀਦਣ	-9.41771
ਿਲ	-9.41876
ਡੋ	-9.41903
ਮਰ	-9.42029
▁ਸੁਪਰ	-9.42069
ਕਿ	-9.42093
ਢ	-9.42121
▁HD	-9.42187
▁35	-9.4219
83	-9.42193
▁ਵਿਸ਼ਵਾਸ	-9.42254
▁ਕਾਨੂੰਨੀ	-9.4231
oo	-9.42396
▁ਚਾਰਟਰ	-9.42396
▁ਮਸ਼ੀਨਰੀ	-9.4242
io	-9.42485
▁ਅਗਲੇ	-9.42524
▁ਸਕ੍ਰਿਪਟ	-9.42534
▁Bo	-9.42535
▁2012	-9.42774
▁ਸੰਯੁਕਤ	-9.42823
▁ਹੁਕਮ	-9.42823
▁ਬਲੈਕ	-9.42841
▁ਨੋਟ	-9.42844
;&	-9.43062
▁window	-9.43139
▁ਵਾਤਾਵਰਣ	-9.43139
▁ਸਰਟੀਫਿਕੇਸ਼ਨ	-9.43139
▁ਧੋਖਾ	-9.43142
▁ਚੰਗੇ	-9.43457
▁XXXL	-9.43508
▁32	-9.43578
▁ਉਸੇ	-9.43626
ick	-9.43688
▁ਜਨ	-9.43701
▁ਰਿਮੋਟ	-9.43775
▁ਚਾਹੀਦੀ	-9.43776
▁ਟੈਂਕ	-9.43776
▁ਸਾਥੀ	-9.43783
▁ਸਮਰਥਨ	-9.44095
▁ਹਾਲਾਂਕਿ	-9.44095
▁ਜਨਤਕ	-9.44095
ਮੈਂਟ	-9.44141
ਪੋ	-9.44188
port	-9.44315
ੈਂਟ	-9.4435
▁ਔ	-9.44356
▁ਪੁਰਾਣੇ	-9.44558
▁AC	-9.44601
ard	-9.44709
▁ਮੋਬਾਇਲ	-9.44737
▁ਆਇਆ	-9.44753
▁ਓਹਲੇ	-9.44754
sk	-9.44793
▁ਹੋਸਟਿੰਗ	-9.44803
ob	-9.44828
tic	-9.44891
ਸ਼ੀ	-9.44896
▁ਵਿਰੋਧੀ	-9.449
▁Mar	-9.44956
▁ਇੰਟਰਨੈੱਟ	-9.45059
▁ਡਿਸਪਲੇਅ	-9.45059
ER	-9.45109
ow	-9.45153
▁29	-9.45218
▁ਦੇਖ	-9.45284
ਟਨ	-9.453
India	-9.45383
bu	-9.4539
▁al	-9.45408
ਸੋ	-9.45428
▁ਸੰਭਾਲਣ	-9.45476
▁Be	-9.455
▁ਕਾਲਾ	-9.45648
▁ਗਲੋਬਲ	-9.45708
▁ਮੰਤਰਾਲੇ	-9.45708
▁ਬਲਾਕ	-9.45708
▁ਵੈਬ	-9.45749
▁ਛੱਡੋ	-9.45901
Hz	-9.45934
▁ਕਾਨੂੰਨ	-9.45986
▁ਅਸ	-9.4608
▁ਮੈਟਲ	-9.46098
be	-9.46171
ਪੁਰ	-9.46248
▁ਸਥਿਰ	-9.46286
yl	-9.4634
▁ਗੁਣ	-9.46358
philippines	-9.4636
▁ਆਵਾਜਾਈ	-9.4636
▁ਮਜ਼ਬੂਤ	-9.4636
ੋਨ	-9.46381
▁ਚੋਣਾਂ	-9.46397
▁ਵਪਾਰਕ	-9.46509
▁ਰੋ	-9.46651
▁ਪਰੋਫਾਇਲ	-9.46688
$	-9.46844
▁ਲੰਬੇ	-9.4702
ਾਰ	-9.47023
▁ਪੈ	-9.47076
▁ਜੋੜ	-9.47262
▁can	-9.47264
▁ਅਲਮੀਨੀਅਮ	-9.47347
▁ਸ਼ੈਲੀ	-9.47348
▁ਬੋ	-9.47354
▁ਮੌਕਾ	-9.47359
▁ਐਡ	-9.47399
▁Pro	-9.47465
▁ਕ੍ਰਮ	-9.47465
▁ਪਰੋਗਰਾਮ	-9.47678
▁ਸੰਖੇਪ	-9.47678
ਲਰ	-9.4769
▁ਢ	-9.47738
ਾਨ	-9.47853
▁ਇਤਿਹਾਸ	-9.47999
ਵਾਈ	-9.48025
ੈਕਸ	-9.48184
▁con	-9.48185
http	-9.48252
▁ਅਸਫਲ	-9.48271
▁ਤੇਜ਼ੀ	-9.48275
ass	-9.48307
▁from	-9.48357
▁ਪਾਲਣਾ	-9.48423
▁ਬਿਨਾ	-9.48427
son	-9.48495
▁Online	-9.48526
ਕੂ	-9.48533
▁ਨੰ	-9.48602
▁ਸਮੇਤ	-9.48678
▁ਪ੍ਰੀ	-9.48691
▁ਦੰਦ	-9.48708
ਣੇ	-9.48806
▁ਇਸੇ	-9.48916
ੰਨ	-9.48944
ਧਾ	-9.4908
▁English	-9.4911
ear	-9.49135
▁ਰੋਲ	-9.49314
▁ਲਾਕ	-9.49335
▁ਅਕਾਰ	-9.49358
out	-9.49394
▁Slots	-9.49402
▁2010	-9.49406
▁2000	-9.49428
▁ਇਸਦੇ	-9.49507
ack	-9.49543
▁ਟਿੱਪਣੀਆਂ	-9.49559
▁Zhejiang	-9.49688
▁ਬਰਾਊਜ਼ਰ	-9.49688
ik	-9.4984
ਮਿ	-9.49927
▁ਭੰਡਾਰ	-9.50027
▁ਸੰਕੇਤ	-9.50027
▁ਸਮਾਜਿਕ	-9.50045
▁(1)	-9.5006
▁lex	-9.50082
▁ਖਾਤਾ	-9.50112
cc	-9.50307
▁ਖਾਤੇ	-9.50339
▁LexUriServ	-9.50368
▁ਅਫਰੀਕਾ	-9.50368
▁ਵਿਡੀਓ	-9.50368
▁ਮੰਤਰੀ	-9.50368
▁ਆਵਾਜ਼	-9.50368
▁ਪ੍ਰਕਾਸ਼ਿਤ	-9.50377
▁ਪੇਪਰ	-9.50385
▁ਪ੍ਰੈਸ	-9.50387
▁ਸਵਿੱਚ	-9.50422
do	-9.50588
▁ਸਾਫ	-9.50659
▁ਤਜਰਬੇ	-9.50684
pl	-9.50738
▁ਨੀਲਾ	-9.50753
▁ਸਥਾਪਨਾ	-9.50753
▁ਟੇਪ	-9.50763
ash	-9.5078
ਿਡ	-9.51048
em	-9.51126
▁ਟੋ	-9.5129
ps	-9.51296
ide	-9.5147
▁GTS	-9.51473
▁ਸੂਰਜ	-9.51486
▁ਸਪ	-9.51551
str	-9.51625
ast	-9.5179
CC	-9.51907
▁ਚਾਰਜ	-9.51917
▁ਅਮਰੀਕੀ	-9.52086
▁ਬੇਨਤੀ	-9.52086
▁ਮੈਮੋਰੀ	-9.52086
▁Description	-9.52108
▁ਟੂਰ	-9.5221
а	-9.52225
▁ਡੈ	-9.52229
▁Deposit	-9.52433
▁ਜ਼ਿੰਦਗੀ	-9.52433
▁ਬੱਚਿਆਂ	-9.52433
▁ਕਿਉਕਿ	-9.52433
▁ਗੀਤ	-9.52484
ity	-9.52529
ah	-9.52722
▁ਰਚਨਾ	-9.52779
▁ਵਾਹਨ	-9.52784
▁ਸਿੰਗਲ	-9.52785
▁ਅਣੂ	-9.52819
▁Li	-9.52832
▁ਸਮਝ	-9.52878
▁ਨਿਸ਼ਾਨ	-9.52896
ਲਡ	-9.52921
▁ਆਧੁਨਿਕ	-9.52969
▁ਹਾ	-9.53
GLONASS	-9.53003
▁ਮਨੁੱਖ	-9.53009
▁ਸਾਲਾਂ	-9.53026
220	-9.53088
▁ਧਰਤੀ	-9.53131
ਵਾਨ	-9.53224
▁ਟੈਕਸ	-9.53337
▁ਹਫ਼ਤੇ	-9.53482
▁ਮੌਸਮ	-9.53483
▁ਕਿਰਾਏ	-9.53483
▁ਨਜ਼ਰ	-9.53484
▁ਕੱਪੜੇ	-9.53487
▁ਲਿਖੋ	-9.53512
▁ਬੁਰੇ	-9.53519
ਠ	-9.53541
▁ਬੀਮਾ	-9.53592
▁ਸ਼ੁਰੂਆਤ	-9.5377
▁ਵਾਲ	-9.53772
▁ਯ	-9.53831
▁district	-9.53834
▁PDF	-9.53894
ਾਉ	-9.53905
62	-9.53929
ਿਟ	-9.5393
▁ਮਰ	-9.53945
ਪੇ	-9.54137
▁ਮੀਡਿਆ	-9.54187
▁ਮਾਮਲੇ	-9.54188
▁ਓਪਰੇਸ਼ਨ	-9.54188
▁ਸਪੇਸ	-9.54189
-0	-9.54201
▁ਸ਼ਰਤਾਂ	-9.54275
▁ਥ	-9.54502
ਟਸ	-9.54519
ੇਨ	-9.54539
▁Al	-9.5466
▁01	-9.54755
▁ਤਹਿਤ	-9.54783
ਹੱਥ	-9.54803
▁ਆਧਾਰ	-9.54878
▁ਰੱਦੀ	-9.54878
▁Shandong	-9.54898
▁ਮੰਜ਼ਿਲ	-9.54898
bi	-9.54931
▁1%	-9.54951
▁OS	-9.54955
▁ਮਨਜ਼ੂਰ	-9.54961
▁ਟੀਕਾ	-9.54977
▁Do	-9.5506
}	-9.55077
▁ਮਿਲੀਮੀਟਰ	-9.55077
res	-9.55123
▁ਖ਼ੁਰਾਕ	-9.55255
▁girls	-9.55258
▁ਉਤਪਾਦਾਂ	-9.55518
▁ਖੁਸ਼	-9.5558
▁ਦਿੰਦੇ	-9.55614
▁ਬਣਾਈ	-9.55659
ਲਾਈਨ	-9.55661
province	-9.55701
▁07	-9.55716
▁ਸਤਹ	-9.55753
0.000	-9.55791
-2018	-9.55799
▁To	-9.55818
▁org	-9.55884
▁ਸਮ	-9.55895
ੈਸ	-9.5594
ੀਏ	-9.55969
▁ਵ੍ਹਾਈਟ	-9.55973
▁OEM	-9.55973
▁ਸਬੰਧਤ	-9.56047
ਵਲ	-9.56052
94	-9.56184
ov	-9.56216
▁ਪੈਰ	-9.5625
▁ਵੋਲਟੇਜ	-9.56273
▁ਉਡੀਕ	-9.56633
▁ਨਿਰਯਾਤ	-9.56697
▁ਸਿਰਲੇਖ	-9.56697
▁ਸਥਾਪਤ	-9.56697
▁ਮੈਕਸ	-9.56758
ਖ਼	-9.57071
▁ਵਾਇਰ	-9.57087
▁EH	-9.57195
▁ਫ਼	-9.57222
▁ਲੱਭਣ	-9.57396
▁ਮਜ਼ੇਦਾਰ	-9.57425
▁ਆਕਸੀਜਨ	-9.57426
▁ਪੈਟਰਨ	-9.57428
ki	-9.57434
ਨੂੰ	-9.57576
les	-9.57651
▁group	-9.57771
▁ਵਿਭਾਗ	-9.57798
▁star	-9.57917
ori	-9.57951
SS	-9.57979
rb	-9.58031
art	-9.58047
CHI	-9.58061
ST	-9.58139
▁ਫਰੇਮ	-9.58159
▁ਹਾਲਾਤ	-9.58166
ੀਅਰ	-9.58177
▁game	-9.58198
▁ਟਰ	-9.58382
ਇਕ	-9.58442
▁ਕੈਨੇਡਾ	-9.58528
▁ਪੀਵੀਸੀ	-9.58528
ੀਅਮ	-9.58639
ਵੋ	-9.58653
ud	-9.58778
▁Ro	-9.58811
▁ਸ਼ੇਨਜ਼ੇਨ	-9.58898
▁ਸਕੀਮ	-9.5898
▁CO	-9.5917
▁ਸੁਆਗਤ	-9.5927
▁ਪ੍ਰਧਾਨ	-9.5927
▁ਰੋਸ਼ਨੀ	-9.5927
▁ਅਜਿਹਾ	-9.59275
▁ਖਰੀਦ	-9.59337
▁Long	-9.59375
ਪਲ	-9.59454
uk	-9.59458
▁ਜਨਮ	-9.59496
MA	-9.59536
▁Detacher	-9.59643
▁ਰੋਜ਼ਾਨਾ	-9.59645
ting	-9.59649
▁ਮੱਧ	-9.5971
du	-9.59777
▁ਰੱਖ	-9.59917
ve	-9.59962
▁ਫੀਡ	-9.59962
▁ਪੀਸੀ	-9.59982
▁An	-9.60003
▁ਜਿਹੜੇ	-9.60018
▁ਬੈਕਗਰਾਊਂਡ	-9.60018
▁ਜਦਕਿ	-9.6005
▁ਯੂਕੇ	-9.60112
▁ਪਲੇਅਰ	-9.6015
of	-9.60172
▁ਪਲ	-9.60256
ਫਾ	-9.60291
▁ਨੀ	-9.60299
▁ਰਜਿਸਟਰ	-9.60301
▁ਕੁਨੈਕਟ	-9.60359
▁ਤਾਰੀਖ	-9.60374
▁ਮਹੀਨਾ	-9.60384
▁regions	-9.60394
▁ਇਮਾਰਤ	-9.60394
▁ਪਾਲਤੂ	-9.60395
▁ਜ਼ਮੀਨ	-9.60396
▁ਆਈਫੋਨ	-9.60405
▁ਮਾਰਕ	-9.60587
▁ਗ੍ਰੇ	-9.60629
▁ਦੇਖਭਾਲ	-9.60771
▁ਟਾਊਨ	-9.60772
▁ਇੰਪੁੱਟ	-9.60773
▁ਹਾਰਡਵੇਅਰ	-9.60775
▁ਪਰਬੰਧਕ	-9.61048
▁ਕਹਿੰਦੇ	-9.6115
▁ਖੱਬੇ	-9.6115
ਜੋ	-9.6119
▁Wi	-9.61223
▁USB	-9.61243
▁US	-9.6132
▁ਨਿਰਧਾਰਨ	-9.61327
▁ਵਿਦੇਸ਼ੀ	-9.61389
▁ਵਿਸ਼ਲੇਸ਼ਣ	-9.6153
▁ਮੱਛੀ	-9.61562
ord	-9.61578
our	-9.61606
▁Page	-9.61642
▁1.5	-9.61739
ect	-9.61779
▁ਕੋਰ	-9.61784
▁ਚੀਜ਼ਾਂ	-9.61941
ਡੇ	-9.61963
▁ਅਰਥ	-9.61975
▁ਉੱਤਰੀ	-9.61995
▁ਸਵੀਕਾਰ	-9.621
ਕੋਡ	-9.62205
▁ਐਂਡ	-9.62246
▁ਸਾਰਾ	-9.62289
▁ਚਿ	-9.62333
ਪ੍ਰਭਾਵ	-9.62376
▁ਮੈਕ	-9.62393
▁ਹਾਰਡ	-9.62413
▁ਸਾਹਿਬ	-9.6268
▁ਹੋਸਟ	-9.62681
▁ਸਟੋਰੇਜ਼	-9.62686
▁WP	-9.62733
ੱਪ	-9.62799
ਐ	-9.62821
▁ਆਸਾਨੀ	-9.62831
▁ਐਕਸ਼ਨ	-9.62875
▁lists	-9.62992
russia	-9.63066
▁ਪਿੰਡ	-9.63087
▁400	-9.63106
log	-9.63154
▁ਬਹੁ	-9.63194
ja	-9.63249
2001	-9.63264
▁70	-9.6334
nd	-9.63342
▁file	-9.63379
▁ਬੁੱਕਮਾਰਕ	-9.63456
▁need	-9.63483
ee	-9.63506
ਕਾਰੀ	-9.63537
▁ਰਾ	-9.63581
▁ਸੰਭਾਵਨਾ	-9.63591
▁ਅਰ	-9.6371
▁Ra	-9.63756
ade	-9.63807
▁ਗਠਿਤ	-9.63842
▁ਉਦੇਸ਼	-9.63843
ue	-9.63843
▁ਅਮਨ	-9.63845
ਂਡ	-9.63873
▁ਆਸਟਰੇਲੀਆ	-9.63936
▁ਭਾਰੀ	-9.63974
ਚੇ	-9.64052
▁ਮੁਕਾਬਲੇ	-9.64233
ari	-9.64282
▁ਪਿਤਾ	-9.64339
▁ਪਰਤ	-9.64384
▁ਵਾਲੀਆਂ	-9.64524
HFW	-9.64545
ੋਰ	-9.6462
▁Image	-9.64625
▁Mac	-9.6466
▁ਸ਼ੁਰੂਆਤੀ	-9.64697
rm	-9.64777
▁For	-9.64999
▁ਦਸਤਖਤ	-9.65019
▁ਬਜਾਏ	-9.65019
▁р	-9.65019
▁ਕਾਫੀ	-9.65035
▁ਜਾਲ	-9.65049
▁ਹੋਵੇਗੀ	-9.65057
▁ਰੀਡ	-9.65087
gu	-9.65154
ld	-9.65191
-12	-9.65273
ens	-9.65303
can	-9.65352
ਵੀਂ	-9.65361
▁ਸੰਗਠਨ	-9.65414
▁ਟਾਪੂ	-9.65422
▁ਧਾਰਨਾ	-9.65438
\	-9.65497
ight	-9.65521
ore	-9.65693
▁ਟਵਿੱਟਰ	-9.65746
▁Red	-9.65764
▁ਅਸਰ	-9.65765
▁48	-9.65781
ੱਚ	-9.65814
▁ਦਰਸ਼ਕ	-9.65822
▁ਬਿਲਡਿੰਗ	-9.65827
▁(2)	-9.65856
lin	-9.65858
▁ਗੋ	-9.66007
▁ਲੋ	-9.66049
▁Copyright	-9.66061
ਲੀਨ	-9.66079
▁ਆਲੇ	-9.66105
▁se	-9.66206
▁ਲਾਇਬਰੇਰੀ	-9.66209
ind	-9.66215
▁ਮੇ	-9.66243
ਵੇਂ	-9.66356
▁ਆਈਓਐਸ	-9.66469
250	-9.66484
ner	-9.66536
▁We	-9.6659
▁ਅਸਮਰੱਥ	-9.66609
▁ਪ੍ਰਣਾਲੀ	-9.66609
▁ਵਾਲੀਅਮ	-9.66617
vo	-9.66634
▁ਛ	-9.66693
▁PC	-9.66716
ਰਿ	-9.66759
ੈਂ	-9.66855
ਸਤ	-9.66865
ort	-9.66866
▁ਦੇਵੇਗਾ	-9.66884
▁Ba	-9.66965
▁08	-9.66966
▁ਈਮੇਜ਼	-9.67011
▁ਉਸਾਰੀ	-9.67013
▁ਖੁਦ	-9.67146
▁ਫਿ	-9.67168
ਾਓ	-9.67202
ਸਪੈਮ	-9.67205
ੁਕ	-9.67292
▁800	-9.67317
su	-9.67325
che	-9.67327
▁ਆਰਡਰ	-9.67446
ns	-9.67469
▁ਟ੍ਰ	-9.67491
ੜਾ	-9.67507
▁ਲੰਬਕਾਰ	-9.67525
US	-9.6764
▁at	-9.6765
▁ਮਨੁੱਖੀ	-9.67716
pcs	-9.67749
▁ਨਮੂਨੇ	-9.67819
▁ਸਾਰਣੀ	-9.67825
▁ਪੁਸ਼ਟੀ	-9.67829
qu	-9.67872
oc	-9.68002
ਥਾ	-9.68012
ੇਜ	-9.68032
ਚੀ	-9.68084
▁ਜਰਮਨੀ	-9.68104
▁ਬਣਾਉ	-9.68141
▁Eaton	-9.68226
let	-9.68246
tan	-9.68262
▁ਮੌਤ	-9.68277
▁ਲੱਭਿਆ	-9.68304
▁3.0	-9.68318
ੇਸ਼ਨ	-9.68504
ਗਲ	-9.68524
▁ਇਕੋ	-9.68614
▁href	-9.68633
▁ਟੈਲੀਫੋਨ	-9.68635
wise	-9.68669
▁ਪੈਕ	-9.68683
▁ਬੋਤਲ	-9.68694
▁ਰੇਟ	-9.68759
▁ਨਕਲ	-9.6876
ਰਮ	-9.68776
▁un	-9.68896
▁250	-9.68942
▁column	-9.69044
▁ਘਰੇਲੂ	-9.69044
▁ਮਿੱਤਰ	-9.69044
▁italy	-9.69044
▁Center	-9.69044
▁ਆਪਣੀਆਂ	-9.69046
▁ਪਲੇਟਫਾਰਮ	-9.69046
IS	-9.69127
▁ਉਪ	-9.69142
▁ਬਦਲਿਆ	-9.69166
▁EN	-9.69226
▁ਦੁਨੀਆ	-9.69435
▁ਅਸਫ਼ਲ	-9.69455
▁ਫੈਬਰਿਕ	-9.69455
▁ਸਿਫਾਰਸ਼	-9.69455
ameroon	-9.69455
▁ਓਪਰੇਟਿੰਗ	-9.69458
mi	-9.69465
▁ਸੰਭਾਲ	-9.69608
ਅਤੇ	-9.69698
▁ਦੁ	-9.69729
▁ਹੌਲੀ	-9.69737
▁ਕੰਧ	-9.69841
▁ਅੰਤਰਾਲ	-9.69869
▁ਪ੍ਰਾਜੈਕਟ	-9.69869
▁sales	-9.69907
ice	-9.6991
▁ਰੇ	-9.69913
▁ਔਰਤਾਂ	-9.6994
ੈਂਸ	-9.69941
har	-9.6996
ger	-9.69979
▁ਤਰਲ	-9.69988
▁600	-9.70086
GB	-9.70109
ite	-9.70165
▁ਸਬੰਧ	-9.70213
▁ਮੈਂਬਰ	-9.70274
▁WhatsApp	-9.70283
▁ਤਜਰਬਾ	-9.70283
▁ਉਥੇ	-9.70293
▁ਪਲੱਸ	-9.70297
▁ਬਿੱਟ	-9.70306
box	-9.70424
ਨਾਲ	-9.70689
▁Fruity	-9.707
▁ਦ੍ਰਿਸ਼	-9.707
▁hPa	-9.707
▁ਪਾਰਟੀਸ਼ਨ	-9.70723
OS	-9.70857
ron	-9.70938
ਟਿਕ	-9.70972
▁≤	-9.71029
ਿਰ	-9.71039
ker	-9.71053
eng	-9.71071
ਲੈ	-9.71112
oison	-9.71118
▁ਨੇਵੀਗੇਸ਼ਨ	-9.71118
▁ਆਨੰਦ	-9.71121
ll	-9.71125
▁ਕਤਾਰ	-9.71134
▁ਸੰਬੰਧਿਤ	-9.71134
▁ਸਿੱਖ	-9.71145
▁ਕਾਲਮ	-9.71195
▁ਖਰੀਦੋ	-9.712
▁ਹਵਾਲਾ	-9.71202
1000	-9.71218
9001	-9.71224
▁Pa	-9.71264
ness	-9.71311
▁ਆਫ	-9.7141
▁ਜਾਇਦਾਦ	-9.71539
▁ਸਵਾਗਤ	-9.71539
▁ਬਾਕੀ	-9.71574
▁ਜਰਮਨ	-9.71582
the	-9.71655
▁ਨਿਯਮਤ	-9.71677
▁La	-9.71683
▁ਬੈਂਕ	-9.71703
ence	-9.7172
ts	-9.71739
pp	-9.71749
ler	-9.71826
ive	-9.72004
▁j	-9.72057
▁0.1	-9.72176
▁ਮਨੋਰੰਜਨ	-9.72384
\\\\	-9.72384
▁ਚਿੱਟੇ	-9.72386
▁ਸ਼ਿਪਿੰਗ	-9.72387
▁ਚੋਟੀ	-9.72397
▁ਮੈਬਾ	-9.72428
ਮੁ	-9.72504
ਲੂ	-9.72547
ng	-9.72717
▁ਉਪਭੋਗੀ	-9.72736
KW	-9.72767
tt	-9.72795
▁ਸ਼ੰਘਾਈ	-9.7281
▁ਯੋਗਦਾਨ	-9.72814
▁ਐਸਿਡ	-9.72859
▁ਵਿਗਿਆਨ	-9.72881
ਚਾ	-9.72888
▁ਦਰਜ	-9.72911
800	-9.72962
mon	-9.73111
▁2008	-9.73136
▁ਵੇਖਾਉਣ	-9.73195
Language	-9.73237
▁ਟਰਮੀਨਲ	-9.73237
▁ਖੁਰਾਕ	-9.73237
gen	-9.7343
▁check	-9.73525
▁ਅਧਾਰ	-9.73646
▁36	-9.73649
▁ਹਲਕਾ	-9.73666
▁ਸੜਕ	-9.73667
▁ਯੋਗਤਾ	-9.73667
▁ਪੈਰਾਮੀਟਰ	-9.73668
▁subjects	-9.73669
▁ਮਿਲਿਆ	-9.73775
▁ਸਮਾਨ	-9.73847
▁ਵਰ	-9.73994
▁ਨਮੂਨਾ	-9.74097
▁ਭਵਿੱਖ	-9.74097
▁ਨਕਦ	-9.74101
▁ਪੂਰੇ	-9.74109
-01	-9.74115
ਾਮ	-9.74123
▁ਹਿ	-9.74256
ea	-9.74257
ੇਲ	-9.743
▁object	-9.7453
▁ਮੈਰਾਕੇਚ	-9.7453
▁Archives	-9.74542
ੁਆ	-9.74575
▁ਭੇਜਿਆ	-9.74578
ਯਾ	-9.746
▁0.5	-9.74674
▁{0}	-9.74819
▁ਰਬੜ	-9.74965
▁ਸਕੇਲ	-9.75038
▁ਬ੍ਰ	-9.75056
ਸਾਈ	-9.75214
▁ਬਣਾਉਣਾ	-9.75306
▁Play	-9.75334
▁34	-9.75342
▁ਇਕੱਠੇ	-9.75402
ure	-9.75432
iv	-9.75448
▁ਰੋਕ	-9.75457
ੈਪ	-9.75461
▁ਦੌਰਾ	-9.75633
▁ਸਪੈਮ	-9.75636
▁{	-9.75674
-7	-9.75798
ish	-9.75804
ਹੋ	-9.75816
▁ਸੀਐਨਸੀ	-9.7584
▁we	-9.75969
▁ਬਸ	-9.76034
tro	-9.76048
▁ਤਰੱਕੀ	-9.76281
▁ਦਿਸ਼ਾ	-9.76316
gi	-9.76367
air	-9.76617
▁TabletWise	-9.76723
▁ਵਾਧਾ	-9.76724
▁ਡਰੱਗ	-9.76732
▁ਮਾਈਕਰੋ	-9.76732
ling	-9.76757
name	-9.77061
▁ਕਾਰਪੋਰੇਸ਼ਨ	-9.77127
▁ਸਿੱਧੇ	-9.77186
▁App	-9.77198
▁Download	-9.77235
▁ਪਾਰਟੀ	-9.77253
▁ਰਿੰਗ	-9.77255
▁ਮਾਰਗ	-9.77355
▁years	-9.77409
▁MS	-9.77428
▁ਕੋਣ	-9.77479
▁Mo	-9.77487
ga	-9.77563
▁[...]	-9.77614
▁ਦੁਕਾਨ	-9.77618
▁ਰਕਮ	-9.77619
▁ਇੰਸਟਾਲੇਸ਼ਨ	-9.77634
▁ਚੈਟ	-9.77637
▁ਹਵਾਲੇ	-9.77711
ਲਿੰਗ	-9.77793
▁ਪੁ	-9.77817
▁ਜੀਵ	-9.77869
▁ਟਰੇ	-9.77917
▁ਖੇਡਣ	-9.7795
ou	-9.77959
ug	-9.78016
▁ਚਿੰਨ੍ਹ	-9.78064
▁ਘਟਨਾ	-9.7807
az	-9.78088
ਚਾਰ	-9.78095
ਘੱਟ	-9.78095
tu	-9.78112
▁ਵਿਸ਼ੇਸ਼ਤਾਵਾਂ	-9.78118
▁ਪੀਣ	-9.78154
si	-9.78168
han	-9.78177
▁ਸਿੱਖਣ	-9.78221
ਲੇਟ	-9.78347
੍ਸ	-9.78421
ities	-9.78458
ace	-9.78503
▁ਦੁਬਾਰਾ	-9.78513
▁ਵਿਗਿਆਪਨ	-9.78513
▁ਤੁਲਨਾ	-9.78513
▁ਮੁਦਰਾ	-9.78513
▁ਅਸਮਾਨ	-9.7853
[	-9.78547
▁ਪਹਾੜ	-9.78706
▁ਉਪਰ	-9.78813
ium	-9.78822
▁translation	-9.78872
SA	-9.78896
▁ਧਾਤ	-9.7894
▁And	-9.78948
day	-9.7895
▁inlistbox	-9.78965
▁ਅਕਾਊਂਟ	-9.78965
▁ਮਿੰਨੀ	-9.78966
BAR	-9.78967
▁ਬਸੰਤ	-9.78969
top	-9.78992
▁ਫੀਸ	-9.79023
▁ਟੇਬਲ	-9.7904
bar	-9.79107
▁ਰਾਹ	-9.7919
▁ਅੰਤਰ	-9.79205
ੰਟ	-9.79239
fe	-9.79245
old	-9.79272
ock	-9.79306
▁ਡੇਟਿੰਗ	-9.79428
int	-9.79435
▁ਐਕਸਪੋਰਟ	-9.79441
▁pre	-9.79483
▁ਕਦਰ	-9.79499
▁ਸਾਧਨ	-9.79542
ial	-9.79543
▁ਸੁਣ	-9.7955
ਿਪ	-9.79566
▁XXL	-9.79592
▁ਜੈ	-9.79684
▁05	-9.79708
ene	-9.79754
light	-9.79808
▁ਆਕਰਸ਼ਣ	-9.79877
▁counties	-9.79877
▁ਲਾਈਟਿੰਗ	-9.8
▁ਤੱਤ	-9.80074
ml	-9.80116
▁Con	-9.80137
▁ਐੱਸ	-9.80232
▁Jet	-9.80248
▁ਸਟੈਂਡਰਡ	-9.80336
▁ਬੋਲ	-9.80338
ਗਦਾ	-9.80366
▁ਸਕ	-9.80413
ਡਿ	-9.80442
ok	-9.80499
▁ਹਾਰ	-9.8052
▁ਵਰਤੇ	-9.80748
▁ਪੰਜਾਬ	-9.80784
▁ਠੋਸ	-9.80799
▁ਬੈਕਅੱਪ	-9.808
ਝ	-9.80807
▁ਭੂਰੇ	-9.80807
▁ਜਾਵੇਗੀ	-9.80818
▁ਮੋਟਾਈ	-9.80819
▁ਕਲਾਸਿਕ	-9.80844
cute	-9.80871
▁ਜਾਣਿਆ	-9.80973
und	-9.80985
ੱਦ	-9.81057
ਬਾਰ	-9.8118
▁ਮੱਦਦ	-9.81259
▁Sexy	-9.81281
▁here	-9.81291
▁Game	-9.81364
▁ਪੱਛਮੀ	-9.81389
▁ਮਾਰਕੀਟਿੰਗ	-9.81393
▁ਗਲ	-9.81404
ust	-9.81407
ਇਆ	-9.81412
ral	-9.81581
▁ਹਟਾਉ	-9.81675
▁ਮਿਲੀ	-9.81717
▁ਮਾਹਰ	-9.81734
ਹਾਰ	-9.8174
ji	-9.81868
▁ਗੋਲੀ	-9.81994
▁2009	-9.82047
▁ਦਿਲਚਸਪ	-9.82126
▁ਰੀਅਲ	-9.82133
▁ਕੰਟੇਨਰ	-9.82192
▁ਬਣਤਰ	-9.82227
▁ਸਾਇਟ	-9.82232
kw	-9.82251
ਿਓ	-9.82369
india	-9.82524
cl	-9.82555
CH	-9.82574
▁ਭਰੋਸੇਯੋਗ	-9.82586
▁Win	-9.82594
att	-9.82608
▁ਏਜੰਟ	-9.82661
ੇਟ	-9.82664
ੱਗ	-9.82665
fish	-9.8274
ਕਟਰ	-9.82753
▁Last	-9.82767
▁0.0	-9.82839
lic	-9.8284
▁ਕ੍ਰ	-9.82868
ake	-9.8299
▁ਤਰੀਕਾ	-9.83133
▁ਬੈਕਐਂਡ	-9.83134
▁ਸਟੀਕਰ	-9.83155
▁ਛੇਤੀ	-9.83158
ਮਾਈ	-9.83175
▁ਸ੍ਰੀ	-9.83185
▁how	-9.83187
600	-9.83191
▁ਵੰਡ	-9.83203
▁ਵਰਤੀ	-9.83536
▁ਕਾਰਪੋਰੇਟ	-9.83607
▁ਕੁਕੀਜ਼	-9.83607
▁ਸ਼ਾਇਦ	-9.83607
▁ਧਾਤੂ	-9.8364
▁Home	-9.83662
ਈਮੇਲ	-9.83663
ਇੱਕ	-9.8381
▁ਵੇਚਣ	-9.83913
wa	-9.84002
▁ਗ੍ਰਹਿ	-9.84027
less	-9.84038
▁Diffuser	-9.84083
▁ਦਫਤਰ	-9.84083
▁FSX	-9.84106
ਜਰ	-9.84161
▁ਬਲੂ	-9.84164
▁ਘਟਾਉਣ	-9.84223
▁ਚੇਨ	-9.84238
▁ਮੈਚ	-9.84323
ਮਾਂ	-9.84513
▁ਚਾਲ	-9.8452
ali	-9.84538
▁ਟੁਕੜੇ	-9.84561
▁ਅਲਾਰਮ	-9.84561
▁ਸੂਚਕ	-9.84561
▁ਸ਼ਰਾਬ	-9.84563
▁have	-9.84578
▁ਜ਼ਿਆਦਾਤਰ	-9.84584
▁ਵਿਧੀ	-9.84601
▁ਸਾਜ਼ੋ	-9.84608
way	-9.84679
ੈਨ	-9.84705
▁ਚਰਚ	-9.84739
▁ਕੁੜੀ	-9.84765
ਆਨ	-9.84889
AC	-9.84958
zip	-9.84977
ੇਅਰ	-9.85026
▁ਦਫ਼ਤਰ	-9.85042
▁ਹਫਤੇ	-9.85042
▁ਲਾਗਿਨ	-9.85085
der	-9.85097
▁ਗਈਆਂ	-9.85099
set	-9.8511
▁ਆਯੋਗ	-9.85137
▁ਬਚਾਉਣ	-9.85141
▁ਉਪਭੋਗਤਾ	-9.85162
▁ਉਦਾਹਰਣ	-9.85202
ster	-9.85268
▁them	-9.85276
▁ਪਬਲਿਕ	-9.85279
▁SD	-9.8537
▁ਆਏ	-9.85412
▁ਫੁੱਟ	-9.85528
▁ਜਨਰਲ	-9.85528
▁ਲੀਡ	-9.85536
▁ਮੌਕੇ	-9.85542
▁no	-9.85591
▁ਭਾਈ	-9.85603
▁18+	-9.85641
▁ਵੇ	-9.85662
ਵਿੱਚ	-9.85674
ous	-9.85711
▁ਰੂਸੀ	-9.8575
ਟਿਨ	-9.85802
so	-9.8582
▁ਭਰੋਸਾ	-9.86023
pt	-9.86164
ko	-9.86188
▁ਪੁੱਛੋ	-9.86195
▁ਸਜਾਵਟ	-9.86204
▁ਜ਼ਿੰਮੇਵਾਰੀ	-9.86266
AT	-9.86287
ਐਫ	-9.86326
▁ਪੁਆਇੰਟ	-9.86383
▁ਰੇਖਾ	-9.86481
▁ਸੁਜ਼ੂਕੀ	-9.86498
ਪਰੀਤ	-9.865
▁ਇਲੈਕਟ੍ਰਿਕ	-9.86502
▁ਮਾਹਿਰ	-9.86508
▁pro	-9.86545
▁does	-9.86607
ical	-9.86713
▁ਫਰ	-9.86799
ਲਿਨ	-9.86863
▁ਪੋ	-9.86986
departments	-9.86989
▁ਡਿਜੀਟਲ	-9.86989
▁ਫੋ	-9.87024
▁Ma	-9.87227
▁All	-9.87243
▁ਪਾਰ	-9.87409
▁Germany	-9.87481
▁October	-9.87481
▁ਅਦਾਲਤ	-9.87482
▁ਬੈਕ	-9.87513
ਾਤ	-9.87567
▁ਪਤ	-9.87617
ya	-9.87631
▁ਛੇ	-9.87635
ose	-9.87682
▁ਉੱਤਰ	-9.87683
ਖੇ	-9.87691
eg	-9.87692
▁ਚੈਕ	-9.87697
cr	-9.87726
2000	-9.87742
ਕਰਤਾ	-9.87769
▁ਚੁ	-9.87887
ੜ੍ਹ	-9.87955
▁ਬਰਾਬਰ	-9.87977
▁37	-9.88002
▁take	-9.88007
▁75	-9.88026
▁ਬੇਸ	-9.88035
▁ਰੋਗ	-9.88075
▁ਜਾਣਦੇ	-9.88191
jatt	-9.88251
▁ਆਸ	-9.88267
▁ਹਟਾ	-9.8831
ੰਦ	-9.88398
▁ਕੋੜ	-9.88467
▁Android	-9.88474
▁new	-9.88474
▁ਹਾਈਡ੍ਰੌਲਿਕ	-9.88474
▁ਥੋਕ	-9.88476
▁ਪ੍ਰਗਟ	-9.88477
ੁਰ	-9.88577
ੇਡ	-9.88598
▁ਸਿੱਧਾ	-9.88847
ਘ	-9.88884
ੱਬ	-9.88905
▁search	-9.88962
ੰਬ	-9.8897
▁ਰਸੋਈ	-9.88974
▁ਦੂਜਾ	-9.88974
▁ਪ੍ਰਮੁੱਖ	-9.88978
▁ਸੌਖਾ	-9.88981
ਹਾਥੀ	-9.89064
▁ਬੁਨਿਆਦੀ	-9.89076
ਸ਼ੇਰ	-9.89166
▁ਕਿਉਂ	-9.89174
▁Di	-9.89193
▁Air	-9.89204
cu	-9.89286
IT	-9.89287
24.	-9.89291
▁ਮਸੀਹ	-9.89323
▁ਰਹਿ	-9.89349
shan	-9.8936
▁ਨੌਕਰੀ	-9.89397
▁ਪਰਿੰਟਰ	-9.89418
▁He	-9.89433
▁ਅਕਾਇਵ	-9.89476
▁ਆਲਮ	-9.89481
▁ਐਕਟਿਵ	-9.89483
Re	-9.89603
▁u	-9.89704
▁find	-9.89908
▁ਮੁਤਾਬਕ	-9.89981
▁ਕੂਪਨ	-9.89981
▁ਚਲਾਇਆ	-9.89996
▁ਸ਼ਾ	-9.90098
▁28,	-9.90164
▁ਮਿਲਾ	-9.90203
▁greece	-9.9023
ੈਕ	-9.90484
▁ਸੰਪਾਦਕ	-9.90489
▁ਤਲਾਸ਼	-9.90489
▁ਪਰਭਾਵ	-9.90522
ਲਾਈ	-9.90565
▁ਮਾਣ	-9.90579
▁all	-9.90598
р	-9.90646
star	-9.90672
ਹੇ	-9.90737
▁ਭੇਜ	-9.90782
▁ਕੰਟਰੋਲਰ	-9.90839
▁ਰੋਕਣ	-9.9094
▁ਟਿ	-9.90988
л	-9.90988
ਬਟਰਫਲਾਈ	-9.90999
google	-9.90999
▁ਕਲੱਬ	-9.9101
▁ਟਨ	-9.9107
po	-9.91077
ੰਮ	-9.91097
▁ਦੋਨੋ	-9.9111
▁ਪੂਲ	-9.91125
▁ਦਿਨਾਂ	-9.91175
▁ਦਸ	-9.91292
tra	-9.91328
nm	-9.91417
ਾਈਡ	-9.9147
ਫਰ	-9.91486
▁ਪਰੋਜੈਕਟ	-9.91512
▁ਬਾਜ਼ਾਰ	-9.91512
▁ਵਿਧਾਨ	-9.91512
▁Microsoft	-9.91513
ਸਦੀ	-9.91539
▁ਭਾਵਨਾ	-9.91551
ਇਹ	-9.9167
▁ਰੀਡਰ	-9.91784
-9	-9.91787
cha	-9.91885
▁provinc	-9.91902
️	-9.92025
ਗਰਦਨ	-9.92029
▁ਜਾਨਵਰ	-9.9203
ਸ਼ਿਪ	-9.92132
▁ਆਈਟਮਾਂ	-9.92196
▁Unlimited	-9.92494
▁ਸਮਝਣ	-9.92505
▁ਕਮਿਸ਼ਨ	-9.92563
TS	-9.92587
▁ਛਾਤੀ	-9.92695
▁So	-9.92724
▁·	-9.92731
ਕਟ	-9.92731
ਮੋਰ	-9.92831
ਾਈਨ	-9.92867
▁ਆਪੋ	-9.92929
sta	-9.93011
▁ਨੈਟਵਰਕ	-9.93067
▁ਰਵਾਇਤੀ	-9.93067
▁ਕਰੈਸ਼	-9.93067
▁Tablet	-9.93067
▁ਕਹਿੰਦਾ	-9.93068
ਮਤ	-9.93104
▁ਛੋਟੀ	-9.9311
▁ਗੋਲ	-9.93113
era	-9.9314
ਟੂ	-9.93208
love	-9.93261
SI	-9.93285
ੁਲ	-9.93292
▁ਡਿਸ	-9.93316
▁Te	-9.9339
▁Ac	-9.93526
▁ਡਰਾਈਵਰ	-9.93557
ਸਟੀਵ	-9.93605
ietnam	-9.93653
▁Mat	-9.93661
▁Gu	-9.93683
▁ਗਾਹਕਾਂ	-9.93886
▁64	-9.93982
ਾਹ	-9.93991
▁XXX	-9.93996
PS	-9.94009
▁me	-9.94028
▁ਸੋਚ	-9.94101
é	-9.94116
▁ਮੈਨੂਫੈਕਚਰਜ਼	-9.94116
▁02	-9.94125
▁Psa	-9.94125
act	-9.94131
2016	-9.94162
▁ਮਿੱਲ	-9.94163
▁ਆਦਰਸ਼	-9.94164
▁ਸਕੈਨ	-9.94242
ਸਾਰ	-9.94329
▁ਪ੍ਰਯੋਗ	-9.94365
ics	-9.94415
ੰਪ	-9.94457
ana	-9.9448
▁ਹੇ	-9.94505
ਪੈ	-9.94527
ੱਠ	-9.94617
MM	-9.94621
▁{@}	-9.94645
▁ਆਰਥਿਕ	-9.94645
Query	-9.94646
▁ਸਲਾਇਡ	-9.94648
CM	-9.94681
▁86-	-9.94704
cy	-9.94766
▁ਦਰਦ	-9.94776
▁ਸੰਬੰਧ	-9.94802
▁ਹੈਰਾਨ	-9.94915
▁ਕੈ	-9.94952
▁ਮੁਸ਼ਕਲ	-9.95027
ਅਲ	-9.95038
ਟਰੀ	-9.95076
▁ਸਮਾਜ	-9.95129
ਮੈਨ	-9.9516
+00:00	-9.95177
ਸਟਰ	-9.95229
▁000	-9.95327
ame	-9.95392
▁ਪੈਚ	-9.95478
ਤਿ	-9.95545
▁2005	-9.9557
▁ਦੇਖਿਆ	-9.95603
TH	-9.95651
▁ਚਲਾ	-9.95678
▁ਮੈਪ	-9.9571
▁Europe	-9.95712
▁ਗਾਰੰਟੀ	-9.95712
▁ਫੈਸਲਾ	-9.95712
▁ਮਲਟੀ	-9.95716
▁ਪੈਸਾ	-9.95744
ਅਨੰਤ	-9.95763
▁per	-9.95768
ਿਮ	-9.95809
150	-9.95882
▁ਨਾਚ	-9.95931
▁Lesbians	-9.96
▁di	-9.96041
▁ਪੈਨ	-9.96163
▁ਪੇਜ	-9.96165
for	-9.96167
▁ਖੋਜਕਾਰ	-9.96177
▁ਜੂ	-9.96178
▁55	-9.96188
▁ਚਲ	-9.9619
ੁਰਖਿਅਤ	-9.9625
▁ਵਿਸਥਾਰ	-9.9625
▁ਐਡੀਟਰ	-9.9625
▁ਇੱਟ	-9.96278
▁ਸਫਾਈ	-9.9632
▁ਨੀਲੇ	-9.96325
nt	-9.96406
▁ਫਾ	-9.96415
▁44	-9.96503
ੰਜ	-9.96513
▁ਮੰਨ	-9.96567
▁ਨੋ	-9.96712
▁ਜਿ	-9.96737
▁ਕਾਪਿਅਰ	-9.9679
▁ਸਮੀਖਿਆਂਵਾਂ	-9.9679
▁ਫੈਸ਼ਨ	-9.96798
urkey	-9.96802
▁when	-9.96803
▁ਤੁਸੀ	-9.96803
▁ਕੈਪ	-9.9681
ood	-9.96832
▁ਭਰਨ	-9.96856
IL	-9.96864
▁India	-9.96939
con	-9.96945
▁ਪ੍ਰਿੰਟ	-9.96953
ਫ਼ਾ	-9.96965
▁ਸਟ	-9.97108
▁ਸਕਦੀਆਂ	-9.97125
▁ਦਰਜਾ	-9.97129
0.0	-9.97245
▁ਆਉਟ	-9.97271
▁ਬੱਸ	-9.97283
▁ਟੈ	-9.97315
ਫੀ	-9.97328
▁Français	-9.97334
▁ਸਫੈਦ	-9.97334
▁ਚਿੰਤਾ	-9.97334
▁ਵਰਣਨ	-9.97334
▁great	-9.97334
▁ਟਰੱਕ	-9.97364
ੋਟ	-9.97383
▁ਕਲਰ	-9.97387
▁CNC	-9.97476
IP	-9.97487
ven	-9.97529
AP	-9.97591
▁po	-9.97736
her	-9.97742
ਟੈਟੂ	-9.97851
▁Holmbygden	-9.9788
▁ਟਿਕਾਣੇ	-9.9788
▁ਨਿਰਧਾਰਤ	-9.9788
▁ਸ਼ੂਟਿੰਗ	-9.9788
▁ਏਪੀਕੇ	-9.9788
▁ਪੰਨੇ	-9.9788
ਵਾਦ	-9.9789
▁ਸੂ	-9.97903
▁ਗੁਆ	-9.97936
ਸ਼ੁ	-9.97977
▁ਲੱਭੋ	-9.98
red	-9.98078
ste	-9.98113
br	-9.98269
▁ਖਰਚ	-9.98284
PC	-9.98297
▁ਸਭਾ	-9.98326
▁prefectures	-9.9843
▁ਕਿੱਥੇ	-9.9843
▁ਮਾਨੀਟਰ	-9.9843
▁ਸੋਸ਼ਲ	-9.9843
▁ਹੁਨਰ	-9.9843
▁ਵਿਖੇ	-9.98453
▁ਦਾਖਲ	-9.98474
▁ਸਕੋਰ	-9.98488
pro	-9.98665
ਟਲ	-9.98713
mat	-9.98726
▁ਪੜ੍ਹ	-9.98737
▁380	-9.98757
ਿਟੀ	-9.98768
ਵਿਨ	-9.98818
ated	-9.98881
2020	-9.9891
▁ਅਖੀਰ	-9.98939
▁probably	-9.98982
ਦੁਆਲੇ	-9.98983
▁ਦੁਆਲੇ	-9.98994
▁ਲੱਗ	-9.99067
▁ਧੁਨੀ	-9.99074
form	-9.99089
ਟ੍ਰ	-9.9909
ੰਕ	-9.99151
kh	-9.99218
ਕੈ	-9.99223
uck	-9.99234
ਉਣ	-9.99275
ਨਿ	-9.99332
▁GenericName	-9.99371
ਮੈ	-9.9939
▁ਨੈ	-9.99452
▁ਸਟੇਟ	-9.99482
▁ਹੈਲਪਡੈਸਕ	-9.99538
▁ਆਦਮੀ	-9.99538
▁ਸਿਗਨਲ	-9.99538
▁ਲੱਖ	-9.99548
ora	-9.99559
▁Lo	-9.99565
▁ਉਤ	-9.99569
▁ਡੇਟਾ	-9.99575
ਿਕਸ	-9.99584
▁API	-9.99588
▁ਚਿੜੀ	-9.99632
▁MP	-9.99646
▁1.0	-9.99696
▁ਟੂ	-9.99722
▁ਸਟਰ	-9.99982
ਰਜ	-9.99984
ware	-10
▁int	-10.0006
▁ਇਸਨੂੰ	-10.0009
▁ਚਮਕ	-10.0009
▁sonitattoo	-10.001
▁ਸਪੱਸ਼ਟ	-10.001
ਸਟ੍ਰ	-10.0012
ele	-10.0016
▁su	-10.0024
ber	-10.0025
▁\	-10.0027
ES	-10.0029
▁France	-10.0034
▁Web	-10.0042
▁22,	-10.0053
▁ਮਾਊਸ	-10.0066
▁ਸਟਰੀਟ	-10.0066
ਲੀਜ਼	-10.007
▁will	-10.0071
▁ਐਲਾਨ	-10.0071
▁ਗੇਮਸ	-10.0079
ਮੀਨ	-10.0088
▁ਵਿੱਤੀ	-10.0088
RA	-10.0099
▁ਬਾਈਕ	-10.01
ning	-10.01
den	-10.0111
ach	-10.0122
▁ਸ਼ੁਕੀਨ	-10.0122
▁ਰਹੋ	-10.0125
ਅੱਪ	-10.0134
▁ਪ੍ਰਿੰਟਰ	-10.0142
ਰਾਸ਼ੀ	-10.0142
▁Ne	-10.0144
▁ਫਾਈ	-10.0144
ina	-10.0149
▁ਕਰੀਏ	-10.0152
LE	-10.0152
▁ਪਹਿਲਾ	-10.0156
▁ਪੜਾਅ	-10.0157
▁ਪਲੇਅ	-10.0162
▁ਦਿਲਚਸਪੀ	-10.0165
▁ਸੈਟ	-10.0171
▁ਕਹਾਣੀ	-10.0172
▁ਡਿਵੈਲਪਰ	-10.0179
▁ਮੁਬਾਰਕ	-10.0179
▁ਮੋਟਰਸਾਈਕਲ	-10.0179
▁ਵਾਲਪੇਪਰ	-10.0179
▁ਟੋਨਰ	-10.018
▁ਪਾਬੰਦੀ	-10.0181
▁ਪਤਨੀ	-10.0183
203	-10.0197
▁ਪੇਚ	-10.0204
▁ਵਾਈਨ	-10.0205
▁MT	-10.0213
▁2.0	-10.0214
rc	-10.0215
ets	-10.0217
▁ਐੱਮ	-10.0228
▁ਲਿਖਣਾ	-10.023
▁ਪ੍ਰਾਪਰਟੀ	-10.0236
▁ਪੜਤਾਲ	-10.0236
▁ਚਿਹਰੇ	-10.0237
▁ਸਖ਼ਤ	-10.0238
ਟਿੰਗ	-10.024
▁ਸੈੱਲ	-10.0241
ਆਉਟ	-10.0241
▁ਸੋਨੇ	-10.0241
og	-10.0242
▁message	-10.0247
▁ਰੱਖਦਾ	-10.0247
RT	-10.025
CT	-10.0251
ਸ਼ਕ	-10.0252
▁ਯਾ	-10.0259
ਰਿਪ	-10.026
av	-10.0261
ਹਰਾ	-10.0264
▁Ar	-10.0264
ੀਓ	-10.0264
ਡ਼	-10.0266
ਵਾਟਰ	-10.0271
120	-10.0275
ign	-10.0282
▁ਲੁਟੇਰਾ	-10.0288
▁ਪ੍ਰਭਾਵਸ਼ਾਲੀ	-10.0294
▁class	-10.0294
▁ਹਜ਼ਾਰ	-10.0294
▁ਚੇਅਰ	-10.0297
▁ਰਹਿੰਦੇ	-10.0297
▁ਪ੍ਰਭਾਵਿਤ	-10.0301
rit	-10.0301
ਜਿ	-10.0307
back	-10.0318
.99	-10.0321
▁ਤਬਦੀਲੀਆਂ	-10.0324
▁XP	-10.0333
▁AM	-10.034
▁ਅਨ	-10.0341
head	-10.0347
ਗੂ	-10.035
ries	-10.0351
▁ਪਰਿਵਰਤਨ	-10.0352
▁ਇੰਡੈਕਸ	-10.0352
▁ਪੇਸ਼ਾਵਰ	-10.0352
▁about	-10.0352
ound	-10.0353
▁ਸਾਂਝਾ	-10.0353
ੈਂਡ	-10.0356
▁ca	-10.0358
PP	-10.0364
="1	-10.0366
▁ਨੇਵੀ	-10.0376
ert	-10.0377
ੈਟ	-10.0387
ao	-10.039
ction	-10.0404
ਗੁਲਾਬ	-10.0409
▁ਅਭਿਆਸ	-10.041
▁ਨਤੀਜਾ	-10.041
ary	-10.0412
▁ਵੱਲੋਂ	-10.0412
▁Su	-10.0414
▁ਸੌ	-10.0415
▁ਰੱਖਦੇ	-10.0416
▁ਕੱਟ	-10.0419
▁125	-10.0419
▁ਮੀ	-10.0426
▁Ad	-10.0431
▁06	-10.0437
ਪੋਰਟ	-10.0437
▁ਡਰਾਈਵ	-10.0441
long	-10.0441
▁Du	-10.0448
▁ਦੂਰੀ	-10.0452
ਰਿਆ	-10.0457
▁ਅਰਬ	-10.0459
▁ਅੱਗ	-10.0462
▁ਚੌਕ	-10.0466
▁42	-10.0467
▁ਅਮੀਰ	-10.0468
▁Company	-10.0468
▁ਵੀਡਿਓ	-10.0468
▁ਕਿਲੋਮੀਟਰ	-10.0468
▁ਪ੍ਰਭੂ	-10.0469
▁ਅਨੁਮਾਨ	-10.0469
if	-10.0475
▁ਪ੍ਰਸ਼ਨ	-10.048
ੋਸ	-10.0484
▁ਚੁਣੀ	-10.0493
ran	-10.0494
▁ਹੁੰਦੀਆਂ	-10.0501
▁et	-10.0502
▁ਤਸਵੀਰਾਂ	-10.0505
ਕੁੜੀਆਂ	-10.0515
▁ਫਲੈਟ	-10.0528
▁ਅੰਕੜੇ	-10.0529
▁ਬਾਗ	-10.0537
▁ਬਣਨ	-10.0545
ਸਾਮਾਨ	-10.0546
▁ਸਾਹ	-10.0547
▁Guangdong	-10.0548
▁ਤਕਨੀਕ	-10.0551
▁ਸਮੁੰਦਰੀ	-10.0552
ੱਖ	-10.0556
▁ਪ੍ਰਬੰਧਕ	-10.0557
ੌਰ	-10.0559
▁so	-10.0563
AS	-10.0567
▁ਲਿਖੀ	-10.057
ME	-10.0572
▁ਡੋ	-10.0575
ye	-10.0585
▁ਉੱਲੀ	-10.0586
▁ਵਿਦਜੈੱਟ	-10.0586
▁ਐਕਸਚੇਂਜ	-10.0586
▁ਆਗਿਆ	-10.0586
▁ਲੀਨਕਸ	-10.0586
▁ਸਹਿਮਤ	-10.0588
ਸੰ	-10.0591
▁ਡਾਇ	-10.0593
train	-10.0595
hy	-10.0603
ਹੈ	-10.0606
▁ਮਾਤਾ	-10.0609
▁Qu	-10.0613
read	-10.0617
▁ਸੀਟ	-10.0623
▁ਸਟਾਫ	-10.0628
ਰਤ	-10.0633
▁Th	-10.0638
ਰੀਆ	-10.0639
vel	-10.0643
▁2.5	-10.0645
▁ਫਾਇਦੇ	-10.0645
▁ਕਾਰਗੁਜ਼ਾਰੀ	-10.0646
▁ਬਾਵਜੂਦ	-10.0646
▁ਰਮਜ਼ਾਨ	-10.0646
▁ਐਂਟੀ	-10.065
ਚੈਰੀ	-10.0651
▁ਜੋੜੇ	-10.0652
ੱਛ	-10.0652
▁0.2	-10.0659
ਐਂਕਰ	-10.0661
site	-10.0661
▁QR	-10.0665
▁PR	-10.0672
▁→	-10.0674
▁ਨਾਲੋਂ	-10.0681
▁ਫਾਇਲ਼	-10.069
▁ਵਿਸ਼ਾ	-10.0695
ding	-10.0704
▁unlimited	-10.0706
▁ਜਰਨੇਟਰ	-10.0706
▁ਜਲਦੀ	-10.0706
▁ਹਟਾਇਆ	-10.0706
▁ਸੰਪਤੀ	-10.0707
▁ਗਰਭ	-10.0707
ੈਕਸ਼ਨ	-10.0708
▁ਨੋਟਿਸ	-10.0708
▁DN	-10.072
▁ਸੁੰਦਰਤਾ	-10.0721
EL	-10.0726
pm	-10.0727
▁ਪਾਓ	-10.0729
▁he	-10.0731
rs	-10.0731
▁ਸਿਆਣੇ	-10.0742
▁ਨਕਲੀ	-10.0749
ਲਟ	-10.0755
▁ਕਰਮਚਾਰੀ	-10.0758
ib	-10.0759
▁ਖੁਸ਼ੀ	-10.0762
▁ਵਿਸ਼ੇ	-10.0762
vis	-10.0762
▁ਜਿਹੇ	-10.0766
▁PHP	-10.0769
ਤਾਜ	-10.077
▁FM	-10.0776
▁ਐਕ	-10.0783
▁Pay	-10.0802
▁110	-10.0804
ky	-10.0808
▁ਕਾਲਜ	-10.0808
с	-10.0812
ਰੈ	-10.0814
ੌਨ	-10.0814
▁ਜਿਆਦਾ	-10.0825
▁ਮਿਸ਼ਰਤ	-10.0826
ਕਬਾਇਲੀ	-10.0826
▁ਬਦਲਾਅ	-10.0826
▁Photo	-10.0826
britain	-10.0827
▁ਟਾਈਟਲ	-10.0827
▁ਟਾਇਲ	-10.0827
uc	-10.0827
▁ਐਪਲਿਟ	-10.0827
▁ਸ਼ੈੱਲ	-10.0828
▁ਵਿਅਕਤੀਗਤ	-10.0828
▁Riad	-10.0828
▁ਸਾਊਂਡ	-10.0829
▁ਕੁਸ਼ਲਤਾ	-10.0831
tv	-10.0831
▁ਦੱਸਿਆ	-10.0832
ਲਿਕ	-10.0832
▁ਸਫਲਤਾ	-10.0832
▁page	-10.0834
▁99	-10.0839
▁Un	-10.0842
cess	-10.0842
▁ਬਚ	-10.0846
aijan	-10.0846
▁ਚੱਲਦਾ	-10.0847
hen	-10.0848
–	-10.0848
ux	-10.0852
▁ਵੱਧੋ	-10.086
▁Se	-10.0873
▁ਬਿੱਲੀ	-10.0887
▁ਯਾਕੂਬ	-10.0887
▁ਰੀਲਿਜ਼	-10.0887
▁ਤਣਾਅ	-10.0887
▁SKU	-10.0887
▁ਵੇਚ	-10.0889
▁ਫੋਕਸ	-10.0889
▁ਵਿਰੋਧ	-10.0889
▁ਸਾਵਧਾਨੀਆਂ	-10.089
▁ਸਾਲਾਨਾ	-10.0892
ਹੀਰਾ	-10.0892
▁ਸ਼ਰ	-10.0892
lock	-10.0897
▁ਮੋਹਰੀ	-10.0903
run	-10.0914
▁ਰੋਮ	-10.0921
▁ਪੂਰਨ	-10.0929
▁ਹੋਵੋ	-10.0933
ਰਟ	-10.0934
ep	-10.0937
ey	-10.0939
▁ਗੰਭੀਰ	-10.0941
dr	-10.0943
rt	-10.0944
ਟਾਈ	-10.0947
▁Rikoooo	-10.0949
▁ਹਾਈਬ੍ਰਾਇਡ	-10.0949
▁ਗੈਲਰੀ	-10.0949
ਬਰਾ	-10.0949
▁ਫਿੱਟ	-10.0952
atch	-10.0954
▁Lu	-10.0957
ਦੀਆਂ	-10.0967
rd	-10.0982
▁ਫੇਰ	-10.0982
ੌਕ	-10.0984
▁ਕੋਰਟ	-10.1001
▁ਮੱਧਮ	-10.1001
▁PS	-10.1005
▁Min	-10.1007
ਸਟੀਚਿਊਟ	-10.101
▁Español	-10.101
▁Whatsapp	-10.101
▁ਅਧਿਕਤਮ	-10.101
▁ਕੁੱਝ	-10.101
▁ਪਲਾਜ਼ਮਾ	-10.101
▁ਲੈਪਟਾਪ	-10.101
▁ਲੈਸਬੀਅਨ	-10.101
▁ਸਕਰਿਪਟ	-10.101
hailand	-10.1012
count	-10.1014
▁hack	-10.1015
▁ਦਾਗ	-10.1019
▁SMS	-10.1024
dy	-10.1025
wi	-10.1025
▁ਚੁੰਬਕੀ	-10.1027
▁GLONASS	-10.1033
qui	-10.1034
ਪੈਰ	-10.1039
▁ਰਾਜਾ	-10.1044
▁time	-10.105
EN	-10.1062
▁ਕੁਆਲਟੀ	-10.1073
▁ਰਾਊਟਰ	-10.1073
▁ਹਾਸਲ	-10.1073
▁ਮੁੱਦੇ	-10.1076
▁ਸ਼ਾਵਰ	-10.1076
RS	-10.1079
▁85	-10.1079
ink	-10.1079
▁usa	-10.1087
NO	-10.109
▁ਜਪਾਨੀ	-10.1094
▁ਗੋਲਡਨ	-10.1095
xml	-10.1101
1.5	-10.1113
ਈਗਲ	-10.113
In	-10.113
▁ਮਜਬੂਰ	-10.1135
▁ਦੂਜੀ	-10.1135
oll	-10.1147
unit	-10.1157
rea	-10.1159
▁ਕੈਲ	-10.116
▁21,	-10.1163
▁ਰੋਜ਼	-10.1165
▁ਵੱਖਰਾ	-10.1172
ੈਮ	-10.1173
ix	-10.1179
ਟਿਵ	-10.1188
low	-10.1195
▁MYHH	-10.1198
▁ਅਵਸਥਾ	-10.1198
▁ਇੱਛਾ	-10.1198
▁ਬਗੈਰ	-10.1198
▁ਡੀਬੱਗ	-10.1198
▁ਵਿਜ਼ਟਰ	-10.1198
▁ਅਪਰਾਧ	-10.1198
▁ਕਲਿੱਪਬੋਰਡ	-10.1198
▁dis	-10.1207
▁ਕੋਟ	-10.1209
▁ਸੈ	-10.1215
ਸਟਾ	-10.1217
▁ਐਕਟ	-10.1228
▁ਵੇਖਿਆ	-10.123
▁ਰੋਲਰ	-10.124
▁number	-10.1241
ize	-10.1248
ਖੀ	-10.1252
oot	-10.1259
ੇਗਾ	-10.1259
its	-10.1261
atalonia	-10.1261
▁Gratuit	-10.1261
▁ਸੱਦਾ	-10.1261
▁CPU	-10.1261
▁ਇੰਟਰਨੈਟ	-10.1261
▁ਖੋਲ੍ਹਿਆ	-10.1264
▁Ha	-10.1265
▁Cheat	-10.1266
ਸੁ	-10.1267
ਮੋਨ	-10.1271
▁ਬਣਾਏ	-10.1279
001	-10.1279
TE	-10.1281
press	-10.1283
Fi	-10.1286
tri	-10.1287
cn	-10.1289
ਮਿਲੀਮੀਟਰ	-10.1293
306	-10.1294
▁size	-10.1295
shi	-10.1304
DM	-10.1305
bin	-10.1306
▁Ni	-10.1306
▁ਵਿਚੋਂ	-10.1314
by	-10.1316
▁ਜੋੜਨ	-10.1324
▁ਪਲੱਗ	-10.1325
▁Ducati	-10.1325
▁Tianjin	-10.1325
▁ਉਦੋਂ	-10.1325
▁ਸਟਾਈਲ	-10.1325
▁Cisco	-10.1325
▁ਕਿਰਾਇਆ	-10.1325
▁ਰੇਡੀਓ	-10.1325
▁ਰਜਿਸਟਰੇਸ਼ਨ	-10.1326
ਨਿਊ	-10.1329
▁ਛੱਡਣ	-10.1329
▁ਕਲਿਕ	-10.1336
▁ਕਰਵਾ	-10.1337
▁ਜੋੜੋ	-10.1337
ost	-10.1337
▁ਬੂਟ	-10.1338
▁ਸੱਤ	-10.1341
fer	-10.1342
ਾਊ	-10.1345
▁ਫੈਲ	-10.1353
sha	-10.1356
ON	-10.1356
fa	-10.1356
▁ਮਾਸ	-10.1362
▁official	-10.1368
▁ਟਾ	-10.137
▁eur	-10.1378
▁Please	-10.1379
▁ਸੰਚਾਰਨ	-10.138
ਪਿ	-10.1381
▁ਸ਼ੁੱਧ	-10.1382
▁ਨੁਕਸ	-10.1388
▁puert	-10.1389
▁ਤੂੰ	-10.139
▁SSL	-10.1391
▁key	-10.1392
ਰੁ	-10.1392
▁ਅੱਪ	-10.1393
ਚੈ	-10.1394
▁ਬਹੁਤੇ	-10.1398
▁ਕੈਸ਼	-10.1401
▁ਟੀਵੀ	-10.1406
▁ਮਿਆਰ	-10.1419
ਹਰ	-10.1419
ਨਾਮ	-10.1441
▁Shi	-10.1442
ੌਲ	-10.1445
SM	-10.1448
ating	-10.145
▁ਯੂਕਰੇਨ	-10.1453
▁ਪਿਛੋਕੜ	-10.1454
▁ਪ੍ਰਸ਼ਾਸਨ	-10.1454
Pirater	-10.1454
▁ਵਿਕਸਤ	-10.1454
arques	-10.1454
▁ਗੁਲਾਬੀ	-10.1454
▁ਧਰਮ	-10.1456
▁ਗਰੇਡ	-10.1456
▁ਇਨਾਮ	-10.1458
▁uri	-10.1459
▁ਸਹਿ	-10.1459
▁ਵੋ	-10.1464
▁Go	-10.1473
▁ਕੰਪਨੀਆਂ	-10.1473
ਪਤੀ	-10.1475
▁ਮੂ	-10.1492
CD	-10.1492
▁ਅਧਾਰਿਤ	-10.1496
т	-10.15
320	-10.1504
▁ਸਪਾ	-10.1506
▁ਪ੍ਰੇਮੀ	-10.1508
▁has	-10.1515
▁ਕੋਨ	-10.1518
▁ਅੱਪਲੋਡ	-10.1519
▁ਵੂਵਾਨ	-10.1519
▁ਸਿਰਨਾਵਾਂ	-10.1519
▁ਸਲੋਟ	-10.1519
▁ਛਪਾਈ	-10.1519
▁ਵਾਲਿਟ	-10.152
▁use	-10.1522
▁ਕੌਣ	-10.1524
▁ਮਾਸਟਰ	-10.1526
▁ਗਾਰਡਨ	-10.1526
▁180	-10.1526
▁ਬੀਜ	-10.1528
▁Pre	-10.1529
▁Gr	-10.1534
ala	-10.1542
tive	-10.1544
ਕਰਨ	-10.1546
▁ਰੀਫ	-10.1548
RE	-10.1549
ਫੈ	-10.155
▁ਜਪਾਨ	-10.1555
ਵਧੀਆ	-10.1558
▁ਖੋਜੋ	-10.1558
ਰਾਮ	-10.1563
▁En	-10.1574
▁Video	-10.1582
ਕਮਲ	-10.1582
▁text	-10.1582
▁ਫਾਰੇਕਸ	-10.1584
▁ਮੋਮਬੱਤੀ	-10.1584
▁ਲਾਭਦਾਇਕ	-10.1584
▁ਵੋਲਟਜ	-10.1584
▁ਨੋਟੀਫਿਕੇਸ਼ਨ	-10.1584
▁ਮੱ	-10.1585
board	-10.1586
▁ਆਰਜ਼ੀ	-10.1589
ਕੰਪਾਸ	-10.1593
▁ਪ੍ਰਿੰਟਿੰਗ	-10.1593
▁Po	-10.1593
▁Pe	-10.1608
▁ਆਧਾਰਿਤ	-10.1608
▁੧	-10.161
▁ਪਾਕਿਸਤਾਨ	-10.161
ਿਕਾ	-10.1612
tain	-10.1612
▁ਮਿਲਣ	-10.1619
ros	-10.1619
ਵੈ	-10.162
▁ਤਰਾਂ	-10.1621
▁ਪੀਲਾ	-10.1623
ਦੂਤ	-10.163
੧	-10.1636
play	-10.1637
▁ਦੱਸ	-10.1639
aw	-10.1639
▁By	-10.164
ਸੂ	-10.1644
▁Si	-10.1646
▁ਅੱਪਗਰੇਡ	-10.165
▁ਜ਼ਿੱਪਰ	-10.165
▁ਸਟਾਕ	-10.165
ਗਨ	-10.1651
SD	-10.1653
▁ਘਟ	-10.1657
▁eu	-10.1662
own	-10.1664
ati	-10.1665
▁2006	-10.1673
uch	-10.1673
ਾਰਾ	-10.1674
▁ਤਰ	-10.1676
▁Get	-10.1676
▁ch	-10.168
▁3000	-10.1692
110	-10.1712
▁ਐਡਰੱਸ	-10.1716
▁ਸੀਮਿਤ	-10.1716
▁Holm	-10.1716
▁ਚਾਹ	-10.1721
▁ਆਤਮਾ	-10.1724
▁ਕਮ	-10.1724
2.1	-10.1726
px	-10.1727
ev	-10.173
ਰਥ	-10.1735
ਗਤ	-10.1738
ath	-10.1745
4000	-10.1748
▁ਲਗਾਉਣ	-10.1758
▁ਵਾਈ	-10.1765
pg	-10.1768
ਦਿਲ	-10.1769
▁ਖੇਡਾਂ	-10.1771
▁TS	-10.1774
nu	-10.1774
▁set	-10.1775
ਾਏ	-10.1775
ਫਰੀ	-10.1777
▁ਰੱਖਣਾ	-10.1779
▁ਆਰਕਾਈਵ	-10.1783
▁ਹਸਪਤਾਲ	-10.1783
europa	-10.1783
▁ਪੱਥਰ	-10.1783
▁ਪਲੇਅਲਿਸਟ	-10.1783
▁ਖੁੱਲ	-10.1784
▁ਬਣਾਉਂਦਾ	-10.1785
▁ਮੀਟਿੰਗ	-10.1787
ET	-10.179
▁ac	-10.179
▁ਚਾਪ	-10.1793
▁ਲੱਗੇ	-10.1796
▁ਵਰਗਾ	-10.1799
▁ਕਮਰਾ	-10.18
999	-10.1804
tion	-10.181
ਿਜ	-10.1813
0059	-10.1814
ama	-10.1815
▁GB	-10.1819
▁ਹੁ	-10.1824
▁ਡਰਾਇਵ	-10.1831
oh	-10.184
▁ਪਿੰਨ	-10.1843
hai	-10.1848
▁ਪੁੱਤਰ	-10.185
▁CZK	-10.185
ਹੇਨ	-10.185
▁ਹਿੰਸਾ	-10.185
should	-10.1851
ambia	-10.1851
▁Hotel	-10.1851
▁ਫ੍ਰੀ	-10.1852
▁ਰੂਮ	-10.1856
ave	-10.1862
▁Best	-10.1868
▁੨	-10.1868
▁ਕਿੱਟ	-10.1868
arrow	-10.1869
▁DC	-10.1869
lay	-10.187
▁ਸਹਿਯੋਗੀ	-10.1875
▁ਫਿਕਸ	-10.1877
lb	-10.1877
my	-10.1879
ox	-10.1883
are	-10.1885
2017	-10.1894
Ltd	-10.1897
rp	-10.1898
insta	-10.1899
ਹਾਂ	-10.1899
ਟੈਕ	-10.1904
-200	-10.1906
▁Ri	-10.1908
nc	-10.191
uff	-10.1913
▁Ontario	-10.1917
▁ਪਰੋਟੋਕਾਲ	-10.1917
▁ਭਾਈਚਾਰੇ	-10.1917
▁ਮੁਰੰਮਤ	-10.1917
ELEX	-10.1917
▁ਡਾਈ	-10.1918
▁ਪਿਆ	-10.1918
▁XML	-10.192
meter	-10.1922
ਿਸਟ	-10.1924
▁ਪਾਪ	-10.1928
▁ਸ਼ਾਮ	-10.1929
▁ਲੂ	-10.193
waters	-10.1933
ਟੈ	-10.1933
▁Car	-10.1934
ਨਿਵਾਸ	-10.1934
▁ਚੁਣ	-10.1936
ond	-10.1951
KG	-10.1951
▁Bu	-10.1955
ੀਕਰਨ	-10.1961
xi	-10.1964
fu	-10.1967
ਛਾਤੀ	-10.1967
ਕਾਲ	-10.1968
0.1	-10.1971
mer	-10.1974
▁ਪ੍ਰਾ	-10.1976
rom	-10.1979
▁ਉਪਯੋਗ	-10.198
mail	-10.198
ਪੂਰ	-10.198
ਵਰਡ	-10.1985
▁ਥਰਿੱਡ	-10.1985
▁ਪ੍ਰਸਾਰਣ	-10.1985
▁ਮੁਲਾਕਾਤ	-10.1985
▁ਨਿਯਤ	-10.1985
▁WordPress	-10.1985
▁republic	-10.1986
▁ਸੰਪੂਰਨ	-10.1986
▁ਫੰਡ	-10.199
▁ਰੁ	-10.199
video	-10.1998
▁translations	-10.1999
ons	-10.2
▁translated	-10.2006
lan	-10.2009
▁65	-10.2015
▁ਵਰਤਦਾ	-10.2016
ING	-10.2023
ਬੈ	-10.2034
ff	-10.2038
ੰਤ	-10.2046
▁ਵਧਾ	-10.2049
▁ਖਪਤ	-10.2052
▁ਤਰਜੀਹ	-10.2054
▁ਸੰਮੇਲਨ	-10.2054
▁Spain	-10.2054
▁ਬਕਸੇ	-10.2056
▁ਅਦਾਕਾਰ	-10.2059
▁ਦੱਸੋ	-10.206
▁ਕਨ	-10.2073
tru	-10.2073
▁up	-10.2079
pc	-10.208
ਯੋ	-10.2083
▁09	-10.2089
▁ਗਾ	-10.2089
▁ਟੈਸਟਿੰਗ	-10.209
ju	-10.2104
mb	-10.2106
ਵਾਪਸ	-10.2111
bit	-10.2112
cks	-10.2116
▁ਪ੍ਰਮਾਣ	-10.2121
м	-10.2122
▁ਤੁਹਾਨ	-10.2122
ਹਿਰ	-10.2123
▁Instagram	-10.2123
▁ਤੱਥ	-10.2123
ਗਿੱਟੇ	-10.2123
▁ਮਾਊਂਟ	-10.2123
▁Adder	-10.2123
▁ਕਲਾਇਟ	-10.2124
▁ਸ਼ਕਲ	-10.2128
▁ਮੌ	-10.2129
▁ਲੈਵਲ	-10.213
▁HTTPS	-10.213
▁ਗੋਰੀ	-10.2134
▁Top	-10.2136
▁ਸ਼ਿਕਾਰ	-10.2137
ten	-10.2139
▁ਖੇਤਰਾਂ	-10.2145
▁ਇੰਟਰ	-10.2154
▁list	-10.2157
▁ਸੰਤ	-10.2164
list	-10.2173
CO	-10.2173
▁ਰਹੀਆਂ	-10.2175
ਪਿਛਲੇ	-10.2178
ਆਰਾ	-10.2184
ਥੇ	-10.2185
▁ਇੱਕੋ	-10.2189
ö	-10.2192
▁ਨਵੀਨਤਮ	-10.2192
▁ਮਹੱਤਵਪੂਰਣ	-10.2192
▁ਆਯਾਤ	-10.2192
▁ਹਲਕੇ	-10.2192
▁interface	-10.2192
▁ਕਾਗਜ਼	-10.2192
▁ਬਾਈਬਲ	-10.2193
▁some	-10.2195
▁ਕਸਰਤ	-10.2196
▁ਸਫ਼ਰ	-10.2197
▁ਵੰਡਿਆ	-10.22
▁ਇੰਟਰਵਿਊ	-10.221
▁fl	-10.2215
▁ਵਿਦੇਸ਼	-10.2218
▁ਹੋਣਗੇ	-10.2218
▁etc	-10.2221
▁Shenzhen	-10.223
km	-10.223
ਲਿਸਟ	-10.223
▁ਸਮੁੰਦਰ	-10.2233
▁ਨਿਰ	-10.2233
hr	-10.2246
▁2007	-10.2247
▁si	-10.2249
ਬਿੱਲੀ	-10.225
▁ਧ	-10.225
RW	-10.2256
▁ਬਿਮਾਰੀ	-10.2261
▁ਡਿਜ਼ੀਟਲ	-10.2262
▁ਲਰਨਿੰਗ	-10.2262
▁ਲੱਛਣ	-10.2262
▁ਟਾਕਰੇ	-10.2262
▁ਆਦੇਸ਼	-10.2262
▁ਸਲੇਟੀ	-10.2262
▁ਸਾਰ	-10.2263
phone	-10.2264
▁ਲਗ	-10.2265
mu	-10.2266
JS	-10.2268
mar	-10.2269
▁ਜਾਣਗੇ	-10.2277
▁ਠ	-10.2278
▁ਵਿਸ਼ਾਲ	-10.2282
ਵਿੰਗ	-10.2288
cd	-10.2289
ica	-10.2289
0,000	-10.229
https	-10.2293
ਰੇਟ	-10.2299
gr	-10.231
py	-10.2315
▁38	-10.2318
ਚਿ	-10.2323
ID	-10.2324
ਫੁੱਲ	-10.2324
▁ਐਂਟਰੀ	-10.2326
ਰੇਸ਼ਨ	-10.2326
quot	-10.2331
ਾਇਡ	-10.2332
д	-10.2332
NamePossessive	-10.2333
▁ਇਜਾਜ਼ਤ	-10.2333
▁ਬੇਹਤਰੀਨ	-10.2333
▁ਵਾਇਰਲੈੱਸ	-10.2333
▁ਭਾਵੇਂ	-10.2333
ਪਨ	-10.234
▁ੂੰ	-10.2341
▁Mon	-10.2342
ੂਰ	-10.2343
▁ਸਮੱਸਿਆਵਾਂ	-10.2343
▁ਮਹ	-10.2352
▁ਦਵਾਈਆਂ	-10.2355
▁ਪੋਲ	-10.2358
▁66	-10.2364
▁aze	-10.2367
▁ਵੋਟ	-10.237
▁ਕਾਰਟੂਨ	-10.2372
2.5	-10.2373
ਡੂ	-10.2375
tech	-10.2383
▁46	-10.2393
link	-10.2396
▁ਅਜਿਹੀ	-10.2397
▁ਸ਼ੋ	-10.2398
ਅੱਖ	-10.2398
▁ਕਿਸਮਾਂ	-10.2398
MP	-10.2401
▁ਭਾਲ	-10.2402
	-10.2403
у	-10.2403
ਤਕਰੀਬਨ	-10.2403
▁device	-10.2405
▁ਸੰਤਰੀ	-10.241
ਫਿ	-10.2417
▁ਰੋਕੋ	-10.2418
ੈਕਟ	-10.242
▁1200	-10.2422
lf	-10.2425
ਸ਼ਰ	-10.2425
jo	-10.2425
ich	-10.2433
ਟੋਨ	-10.2443
▁ਖਿ	-10.2446
▁ਪਾਲ	-10.2446
nes	-10.2455
DN	-10.246
ਇਰ	-10.2461
ਉਦਾਹਰਨ	-10.2467
ਅੱਗੇ	-10.2467
▁ਪਾਉਣ	-10.2467
ਸੂਰਜ	-10.2468
ੁੱਕ	-10.2473
▁ਥੱਲੇ	-10.2475
▁ਸੰਤੁਲਨ	-10.2475
▁ਨੈਸ਼ਨਲ	-10.2475
▁ਮਦੀਨਾ	-10.2475
▁ਪਰਾਪਤ	-10.2475
html	-10.2475
▁ਪੁਲਿਸ	-10.2475
ਫਟ	-10.2476
IC	-10.2479
ਵਨ	-10.2485
▁ਈਸਟ	-10.2492
des	-10.2493
▁ਐਂ	-10.2496
ਨਿਕ	-10.2498
9.99	-10.2504
ਿੰ	-10.252
ome	-10.2523
▁ਚੱਲਣ	-10.2523
▁ਦਾਇਰ	-10.2524
aire	-10.2524
▁ਮਰਦ	-10.2527
ਵਾਲ	-10.2529
cal	-10.2533
als	-10.2536
▁ਦਿੰਦੀ	-10.2539
ਚੰਦਨ	-10.2543
▁ਲੋੜਾਂ	-10.2545
▁ਅਚਾਨਕ	-10.2547
▁ਪਵਿੱਤਰ	-10.2547
▁ਫਲੈਗ	-10.2547
▁ਸੰਚਾਲਿਤ	-10.2547
▁ਨੈੱਟ	-10.2549
cho	-10.2549
ted	-10.2552
▁1500	-10.2562
▁ਗਿ	-10.2563
UR	-10.2568
▁ਕਮਰ	-10.2572
fr	-10.2587
tran	-10.2589
▁ਕੇਅਰ	-10.2591
▁ਜਰੂਰ	-10.2593
▁ਚਰਚਾ	-10.2593
ਸਿਸ	-10.2595
▁ਕੰਨ	-10.2595
ੂਲ	-10.2596
ਇੰ	-10.2596
ਪਟ	-10.2598
▁ਆਰਟ	-10.2599
2015	-10.2601
ਵੇਅਰ	-10.2605
▁NO	-10.2608
▁ਫਾਰ	-10.2608
ized	-10.2611
700	-10.2614
Description	-10.2615
ੀਟ	-10.2616
▁ਪਿੱਤਲ	-10.2619
▁ਮੁਸਲਮਾਨ	-10.2619
▁ਕਪਾਹ	-10.262
▁ਪ੍ਰਕਾਸ਼	-10.262
▁ਬੀਚ	-10.2622
▁ST	-10.2628
▁ਅਗਲੀ	-10.2628
▁ਆਰਮੀ	-10.263
▁47	-10.2631
▁ਰੇਤ	-10.2631
▁GP	-10.2638
▁Mi	-10.2645
▁0.3	-10.2646
▁ਤਾਰਾ	-10.2652
▁03	-10.2654
ਸ਼ਟ	-10.2663
ania	-10.2667
mg	-10.267
▁ਕਮਿ	-10.268
ring	-10.2687
ਪੰਛੀ	-10.2689
▁ਅੰ	-10.2691
ਿਵ	-10.2692
▁ਇੰਦਰਾਜ਼	-10.2692
ਮਹਿੰਦੀ	-10.2692
▁YouTube	-10.2693
▁ਬਚਣ	-10.2693
▁ਲੰਮੇ	-10.2693
code	-10.2694
▁ਓਵਰ	-10.2696
ਉਂ	-10.2696
▁ਅਰਜ਼ੀ	-10.2697
▁ਅਸਾਨ	-10.2699
▁ਸੰਭਾਲਿਆ	-10.2702
▁ਦਿਖਾ	-10.2705
▁ਚਾ	-10.2705
▁ਕੁਦਰਤ	-10.2707
cent	-10.2709
gar	-10.2712
ਾਇਲ	-10.2712
▁free	-10.2713
ਫਾਈ	-10.2714
▁ਵੈ	-10.272
▁Open	-10.2732
▁ਹਟਾਉਣਾ	-10.2737
▁ਮਲ	-10.2738
hot	-10.274
king	-10.2742
▁ਰਹਿੰਦਾ	-10.2758
▁ਸੂਟ	-10.2759
▁1.2	-10.2765
▁mod	-10.2766
▁spain	-10.2766
▁ਕੁਆਲਿਟੀ	-10.2766
▁ਟਾਇਟਲ	-10.2766
▁ਪ੍ਰੀਖਿਆ	-10.2766
▁ਫਰਨੀਚਰ	-10.2766
▁ਮਕੈਨੀਕਲ	-10.2766
▁ਕ੍ਰਿਸਮਸ	-10.2766
▁ਗਣਨਾ	-10.2766
▁ਖਰਾਬ	-10.2766
▁ਜਨਮਦਿਨ	-10.2766
▁ਇੰਕ੍ਰਿਪਟ	-10.2767
▁ਆਇਰਨ	-10.2767
text	-10.2767
▁ਕਾਮ	-10.2767
hua	-10.2768
▁Pi	-10.277
▁ਭਰਾ	-10.277
▁ਉਸਦੇ	-10.2771
▁ਕਰਾਂਗੇ	-10.2774
▁฿	-10.2775
▁ਸਲ	-10.278
▁ਉਸਨੂੰ	-10.278
▁Yu	-10.2781
▁ਟੇ	-10.2785
ਨੀਆ	-10.2791
▁ਭਾਵ	-10.2792
▁17,	-10.2794
▁ਸੁਣਨ	-10.2796
▁ਚੁੱਕ	-10.2801
men	-10.2805
0.5	-10.2806
▁ਇਲੈਕਟ੍ਰਾਨਿਕ	-10.2818
▁casino	-10.2819
▁350	-10.2827
▁one	-10.2829
rist	-10.2836
Indian	-10.2837
▁News	-10.2839
ਭੈਣ	-10.2839
▁ਆਬਜੈਕਟ	-10.284
▁ਨਤੀਜਿਆਂ	-10.284
▁ਸੋਡੀਅਮ	-10.284
▁ਤਸਦੀਕ	-10.284
▁ਅਤੀਤ	-10.284
▁ਦਿਮਾਗ	-10.284
▁ਜਿਹਾ	-10.2842
ਹਾਈ	-10.2855
ਦੂ	-10.2861
▁MH	-10.2863
ef	-10.2865
ਥੀ	-10.2874
ੈਰ	-10.2877
LD	-10.288
ਰੀਨ	-10.2884
chi	-10.2886
406	-10.2886
tar	-10.2888
▁ਏਸ਼ੀਆਈ	-10.2889
▁ਗੋਲਡ	-10.2902
FA	-10.2902
▁ਪੇਟ	-10.2905
▁Ho	-10.2906
IF	-10.2909
work	-10.2914
▁MySQL	-10.2914
▁ukraine	-10.2914
▁ਐਟਲਾਂਟਿਕ	-10.2914
▁ਵਿਰੁੱਧ	-10.2914
▁ਸ਼ੋਸ਼ਣ	-10.2914
▁ਸੰਭਾਵੀ	-10.2914
▁ਆਕਾਸ਼	-10.2915
ਪਤ	-10.2915
▁ਘਾਟ	-10.2916
▁51	-10.2919
▁ਖਾਣ	-10.2922
ਰਡ	-10.2922
▁ਕਾਂਗ	-10.2928
▁86	-10.293
▁Hat	-10.2936
▁Jailbreak	-10.2938
▁58	-10.2941
▁ਆਫ਼	-10.2944
hat	-10.2947
▁0086-	-10.2951
▁ਸੋਲਰ	-10.2954
▁ਲਿਖ	-10.2962
▁04:	-10.2964
▁CE	-10.2966
▁ਰੁਕ	-10.2967
ਂਟ	-10.2971
ible	-10.2972
tal	-10.2974
▁ਦਬਾਉ	-10.2983
ithuania	-10.299
▁welded	-10.299
▁ਆਪਟੀਕਲ	-10.299
▁ਖਿੜੇਗਾ	-10.299
▁ਚੁਣੌਤੀ	-10.299
▁ਦਰਵਾਜ਼ੇ	-10.299
▁ਬਲਾਗ	-10.299
▁ਬਿਆਨ	-10.2991
▁ਡੂੰਘਾਈ	-10.2992
▁ਟੂਲਬਾਰ	-10.2992
▁ਸਿਲਾਈ	-10.2993
ਕਰਾਸ	-10.2993
▁ਜੁੜਿਆ	-10.2994
▁ਕੱਪ	-10.2995
▁ਚਾਰਟ	-10.2998
pur	-10.2998
ase	-10.3005
▁ਜੋੜਿਆ	-10.3009
CI	-10.3012
▁ਨਮੀ	-10.3017
ski	-10.303
▁ਤਲ	-10.3033
ਾਉਣਾ	-10.3035
▁ਵਿੱਤ	-10.3046
▁ਛੁੱਟੀ	-10.3058
▁ਗ਼ੈਰ	-10.3065
▁ਗੁੰਝਲਦਾਰ	-10.3065
▁ਸਾਇੰਸ	-10.3065
▁ਸਿਲੰਡਰ	-10.3065
▁ਪੋਸ਼ਣ	-10.3065
romania	-10.3066
▁ਧੰਨ	-10.3066
▁ਕੈਰੀਅਰ	-10.3066
▁ਉਤਸ਼ਾਹਿਤ	-10.3066
▁ਲੜੀਬੱਧ	-10.3066
▁ਟਾਸਕ	-10.3067
pla	-10.3067
lor	-10.3067
▁ਦਬਾਓ	-10.3067
▁ਸਥਾਈ	-10.307
▁ਲਓ	-10.307
ਮਰਦਾਂ	-10.307
view	-10.3071
▁ਲੁ	-10.3073
▁ਆਰਾਮ	-10.3074
val	-10.3076
▁Na	-10.3077
ਬੰਦੀ	-10.3081
ਪਸ	-10.3086
bl	-10.3086
▁play	-10.3086
ਵਸ	-10.309
ale	-10.3092
tablet	-10.3096
900	-10.3098
▁ਉਸਨੇ	-10.3101
rus	-10.3106
▁ਭਰੋ	-10.3108
ਫ੍ਰ	-10.3123
▁ਪਾਲਣ	-10.3133
▁our	-10.3135
iff	-10.3138
▁bearings	-10.3142
▁ਓਰਪੇਕ	-10.3142
▁ਟੋਟੂਜ਼	-10.3142
▁ਡਿਜਿਕੈਮ	-10.3142
▁Italy	-10.3142
▁ਸਦੱਸ	-10.3142
ਦਿਆਂ	-10.3144
▁ਹੋਵੋਗੇ	-10.3144
ਮਾਰ	-10.3146
ਜੋੜੇ	-10.3151
ease	-10.3158
▁ਨਿਕਲ	-10.3159
▁RE	-10.3161
▁ਕੁਲ	-10.3163
▁ਅਟੈਚਮੈਂਟ	-10.3165
ino	-10.3166
las	-10.3171
ont	-10.3171
ਬਿ	-10.3178
▁ਵੱਖਰੀ	-10.3179
▁ਸਬੂਤ	-10.3181
ਜਾਂ	-10.3184
▁3.5	-10.3194
mit	-10.3201
ਟੇਨ	-10.3203
ਸੀਡੀ	-10.3207
▁ਭੁੱਲ	-10.3214
▁ਸੰਬੰਧੀ	-10.3216
tter	-10.3216
▁ਉਡਾਣ	-10.3219
▁ਦੁੱਧ	-10.3219
▁ਸਾਹਮਣਾ	-10.3219
▁ਸੰਪੂਰਣ	-10.3219
▁ਨਾਗਰਿਕ	-10.3219
▁ਆਬਾਦੀ	-10.3219
▁ਕੰਪ੍ਰੈਸ਼ਰ	-10.3219
▁23,	-10.3219
▁ਗ੍ਰਾਮ	-10.3219
ਭਾ	-10.322
▁ਇਥੇ	-10.322
▁ਲੋੜੀਦੀ	-10.3221
ਿੱਟ	-10.3223
Region	-10.3227
▁Pu	-10.323
▁ਵਾਰੀ	-10.3234
▁ਯੂਹੰਨਾ	-10.3243
▁ਲੱਭੀ	-10.3244
▁86-5	-10.3256
▁ਸਪੇਨ	-10.3269
-18	-10.3269
ata	-10.3272
SP	-10.3273
ਾਈਟ	-10.3276
▁ਲੌ	-10.3279
email	-10.3287
▁39	-10.3291
▁Comp	-10.3294
▁ਅਨੁਪਾਤ	-10.3296
▁ਇੰਟਰਨੈਸ਼ਨਲ	-10.3296
▁ਮੋਲਡਿੰਗ	-10.3296
▁ਸਭਿਆਚਾਰ	-10.3296
▁ਪਸ਼ੂ	-10.3296
▁Short	-10.3298
▁ਪ੍ਰਚਾਰ	-10.33
▁ਸ਼ਿ	-10.3301
▁ਲਗਦਾ	-10.3305
▁ਵਿਖਾ	-10.3309
▁ਕੌ	-10.3316
▁ਨਰਸ	-10.332
rr	-10.3326
ੋਪ	-10.3333
410	-10.3339
▁li	-10.3339
De	-10.3341
▁ਸਾਜ਼	-10.3345
▁ਯੂਰਪੀ	-10.3352
▁ਜ਼ਿ	-10.336
▁ਪੈਂ	-10.3363
ਲਾਈਟ	-10.3372
к	-10.3373
੩	-10.3374
▁ਕਾਵਾਸਾਕੀ	-10.3374
▁ਡਰਾਇੰਗ	-10.3374
▁ਸ਼ਕਤੀਸ਼ਾਲੀ	-10.3374
▁Service	-10.3374
▁♪	-10.3375
▁ਲੋਗੋ	-10.3376
▁Posted	-10.3377
▁ਕਮੀ	-10.3381
▁ਹਿੱਟ	-10.3381
▁ਉਠ	-10.3384
ਟਵਿੱਟਰ	-10.3387
Punjabi	-10.3387
weather	-10.3388
੍ਹਾ	-10.3388
▁ਜੰਗ	-10.3389
▁ਭਾਸ਼ਾਵਾਂ	-10.3393
ਗ੍ਰ	-10.3395
MB	-10.3405
ੈਡ	-10.3405
▁ਡਿਪ	-10.341
▁ਮੋਰੀ	-10.3413
੦	-10.3419
NC	-10.3424
NA	-10.3434
▁ਪੁਰਾਣਾ	-10.3442
ਬੰਦ	-10.3444
ਸਲਾ	-10.3445
▁ਸਟਾਰ	-10.3445
▁ਕ਼ਿੰਗਦਾਓ	-10.3453
▁ਸਮਰਪਿਤ	-10.3453
▁ਸਾਹਮਣੇ	-10.3453
▁ਗੈਲਨ	-10.3453
▁short	-10.3453
▁ਚਿੱਟਾ	-10.3454
▁ਮਾਨਤਾ	-10.3454
▁ਲੱਤ	-10.3454
▁ਲੈਂਦੇ	-10.3455
ਫੋ	-10.3455
Title	-10.3456
▁ਜੁੜਨ	-10.3458
NE	-10.3467
ano	-10.3484
par	-10.349
▁sub	-10.3495
▁ਡਬਲਯੂ	-10.35
▁ਰਸਾਇਣ	-10.3503
▁ਸਮਾਪਤ	-10.3503
ਨਲਾਈਨ	-10.3504
ੰਗਾ	-10.3511
▁ਮਿਲਦੀ	-10.3514
▁ਪੱਖ	-10.3515
ual	-10.3516
▁ਰੌ	-10.3519
row	-10.352
porn	-10.3528
▁ਗਰ	-10.3528
ls	-10.3529
.0.2	-10.353
▁ਪਰਾਕਸੀ	-10.3532
▁ਪੁਰਾਣੀ	-10.3532
▁ਪੋਡਕਾਸਟ	-10.3532
▁ਪ੍ਰੋਸੈਸਿੰਗ	-10.3532
▁ਫੁਟਕਲ	-10.3532
▁ਬਰਾਸੀਰੋ	-10.3532
▁ਮਹੀਨਿਆਂ	-10.3532
▁ਇਕੱਠਾ	-10.3532
▁ਵਾਰੰਟੀ	-10.3533
▁Opera	-10.3534
▁ਪ੍ਰਭਾਵਾਂ	-10.3535
▁ਫੋਰਸ	-10.3536
ੰਧ	-10.3537
▁ਕੱਦ	-10.3538
ਅਨ	-10.3539
▁ਹਮੇਸ਼ਾਂ	-10.3543
▁ਐਚਡੀ	-10.3543
▁MB	-10.3544
▁War	-10.3546
▁ਰਜਿਸਟਰਡ	-10.3551
ੰਘ	-10.3551
▁ਤਿਆਰੀ	-10.3552
▁700	-10.3552
ਅਪ	-10.3556
PM	-10.3559
new	-10.356
eep	-10.3564
▁240	-10.3568
USD	-10.357
▁ਆਇ	-10.3574
▁ਲਾਈਫ	-10.358
▁124	-10.3583
rge	-10.3584
▁see	-10.3587
ਂਦ	-10.36
ung	-10.3603
ਕ੍ਰਿਪਟ	-10.3607
rate	-10.361
▁ਕੋਸ਼ਿਸ	-10.3611
▁modified	-10.3612
▁ਫਾਰਮੂਲਾ	-10.3612
▁ਲਾਇਸੰਸ	-10.3612
▁ਸੀਬੀਡੀ	-10.3613
exico	-10.3613
▁ਵਾਲਿਆਂ	-10.3618
▁TV	-10.3618
ping	-10.3623
▁ਵਾਚ	-10.3627
▁ਪ੍ਰੋਮੋ	-10.3629
QShortcut	-10.3631
~	-10.3633
ਾਪ	-10.3633
late	-10.3635
ਾਇਟ	-10.3637
ally	-10.364
ਸਾਰੇ	-10.3644
ਹਰੇ	-10.365
▁ਪਹੁੰਚਣ	-10.3663
1.0	-10.3666
ਾਇਰ	-10.3673
888	-10.3676
▁ਜੁ	-10.3678
ਗੁ	-10.3683
▁Ko	-10.3683
▁ਟਾਈ	-10.3687
bus	-10.3689
202	-10.3692
▁ਡਿਲਿਵਰੀ	-10.3693
▁ਡੱਬਾ	-10.3693
▁ਲੇਆਉਟ	-10.3693
▁ਬੁਰਸ਼	-10.3694
▁Viber	-10.3694
▁ਖੂਨ	-10.3694
▁Brand	-10.3695
serv	-10.3697
▁ਦਿਖਾਈ	-10.3699
▁ਬ੍ਰਿਟਿਸ਼	-10.37
▁ਪੜ੍ਹਿਆ	-10.3701
▁php	-10.3704
zhou	-10.3705
▁ਨਰਮ	-10.3706
▁May	-10.3708
RO	-10.3717
▁≥	-10.3727
ਥੋ	-10.3754
zz	-10.3755
ਵਿਕ	-10.3755
▁41	-10.3763
▁tab	-10.3765
▁ਤੁਹਾਡੀਆਂ	-10.3766
▁ਰਿਸ਼ਤੇ	-10.3773
▁ਰੁਝਾਨ	-10.3774
▁ਵਰਚੁਅਲ	-10.3774
▁ਸ਼ਾਰਟਕੱਟ	-10.3774
▁ਚੁਦਾਈ	-10.3774
▁ਮਿਰਰ	-10.3775
▁textbox	-10.3775
▁ਸੁਆਦ	-10.3775
▁ਪੂਰਬੀ	-10.3779
▁ਕਾਰਜਕਾਰੀ	-10.3779
▁ਸੂਈ	-10.3782
NG	-10.3783
▁ਕੱਚੇ	-10.3784
days	-10.3785
▁ਸਿੱਖੋ	-10.3787
ਤਕਨੀਕੀ	-10.3797
ਫੀਲਡ	-10.3797
TP	-10.3798
▁ਐਪਲ	-10.38
▁West	-10.3802
▁fin	-10.381
▁Dr	-10.3813
ਂਸ	-10.3816
ੈੱਟ	-10.3823
avi	-10.3829
▁ਰੂਸ	-10.3829
▁error	-10.3833
-2017	-10.3833
▁View	-10.3836
▁HP	-10.3839
ੀਕਲ	-10.3845
ark	-10.3848
ਮਿਕ	-10.3849
▁ਬਣੇ	-10.385
▁ਦੋਸਤਾਨਾ	-10.3853
▁ਚੁਣਨ	-10.3853
fghanistan	-10.3856
▁municipal	-10.3856
▁ਇਕਸਟੈਨਸ਼ਨ	-10.3856
▁ਮਲਕੀਅਤ	-10.3856
▁ਲਾਜ਼ਮੀ	-10.3856
style	-10.3857
▁ਜਾਣਗੀਆਂ	-10.3858
ceania	-10.3858
▁app	-10.3859
▁ਡ੍ਰ	-10.386
▁ਗੇਅਰ	-10.3862
▁ਫਿਟਿੰਗਸ	-10.3863
▁ਪੇਸ਼ਗੀ	-10.3866
edit	-10.3866
▁ਮਿਸ਼ਨ	-10.3867
▁II	-10.3875
▁0.7	-10.3881
▁ਬੱ	-10.3888
▁`	-10.3909
▁Jin	-10.3914
▁ਸਿਖ	-10.3917
FS	-10.3917
▁ਸਰੀਰਕ	-10.3918
▁ਚੰਦ	-10.3919
iran	-10.3926
ਿਯ	-10.3929
que	-10.3931
▁ਚੌ	-10.3931
▁kr	-10.3931
▁china	-10.3933
▁ਸ਼ੱਕ	-10.3935
▁Ju	-10.3938
▁California	-10.3939
▁ਭੂਮਿਕਾ	-10.3939
▁ਿਲਵਿੰਗ	-10.3939
▁ਇਟਲੀ	-10.3939
▁ਵਕੀਲ	-10.3939
ram	-10.3939
ੰਸ	-10.394
▁ਬਰਤਨ	-10.3941
▁ਲਿਆਉਣ	-10.3942
ੰਦਾ	-10.3945
▁ਚੂ	-10.3951
Co	-10.3951
▁Manufacturer	-10.3953
▁ਵਰਕ	-10.3956
▁ਵਰਤਦੇ	-10.3959
ੂਨ	-10.3962
▁East	-10.3963
official	-10.3966
ਿਅ	-10.3969
▁ਘੜੀ	-10.3971
▁ਗੈ	-10.3974
▁ਪਾਥ	-10.3978
ਫਲ	-10.3979
▁ਕੁਨੈਕਟਰ	-10.398
▁bo	-10.3982
▁130	-10.3986
▁ਮੁੱ	-10.3992
ifi	-10.3995
ara	-10.4009
▁ਗੁਰ	-10.4013
▁AS	-10.4016
VI	-10.4016
HZ	-10.4019
punjab	-10.4021
olombia	-10.4022
▁Follow	-10.4022
▁ਗਰਿੱਡ	-10.4022
▁ਜਿਹਨਾਂ	-10.4022
▁ਮੁਹਾਰਤ	-10.4022
▁ਅਵਾਰਡ	-10.4022
▁ਥਾਮਸ	-10.4022
▁ਲੰਡਨ	-10.4022
arnar	-10.4022
▁ਆਉਂਦੀ	-10.4022
ਖੋਪੜੀ	-10.4022
▁ਸਾਈਕਲ	-10.4022
2005-2018	-10.4023
▁ਪਵੇਗਾ	-10.4024
▁ਗੁੰਮ	-10.4024
▁tr	-10.4024
▁ਸਰਗਰਮੀ	-10.4031
▁ਲਟਕ	-10.4032
ਗੁਲਾਮ	-10.4035
▁ਰੇਲਵੇ	-10.4035
ments	-10.4039
url	-10.4046
▁ਵੈਲ	-10.4051
ero	-10.4055
▁ਅੱਖ	-10.4066
▁ਹਾਲੇ	-10.4074
▁4.0	-10.4077
ਸਭ	-10.4078
▁ਲੜ	-10.4082
▁Mag	-10.4097
ਕੇਟ	-10.4101
ਰੰਗ	-10.4102
file	-10.4105
▁ਐਕਸਐਕਸਐਲ	-10.4106
▁ਟੁਕੜਾ	-10.4106
▁ਰਿਕਵਰੀ	-10.4106
zi	-10.4107
▁ਸਿੰ	-10.4108
▁ਕੌਮੀ	-10.4108
▁ਦੁਨੀਆਂ	-10.4111
▁ਬਰਫ	-10.4114
▁ਸਪਿਨ	-10.4116
▁ਕਹਿਣਾ	-10.4116
ਪਾਈ	-10.412
▁Da	-10.4122
ern	-10.4126
app	-10.4129
`	-10.4137
{	-10.4137
▁ਰੇਸ	-10.4143
-2019	-10.4149
▁ਛਾਪੋ	-10.4151
▁AUD	-10.4154
ions	-10.4154
rid	-10.4164
ਾਵਾਂ	-10.4176
oz	-10.4181
▁ਕੈਡ	-10.4185
160	-10.4186
ā	-10.4191
indonesia	-10.4191
▁Squirting	-10.4191
▁ਡੇਬੀਅਨ	-10.4191
▁ਪ੍ਰੀਮੀਅਮ	-10.4191
▁ਵਰਟੀਕਲ	-10.4191
▁ਵਿਵਸਥਾ	-10.4191
▁ਵੁਰਚੁਅਲ	-10.4191
▁ਸੱਚਮੁੱਚ	-10.4191
▁ਸਰਵਿਸਿਜ਼	-10.4192
▁ਸਪੈਕਟ੍ਰਮ	-10.4193
▁ਆਮਦਨ	-10.4194
rec	-10.4194
pu	-10.4199
▁ਨਾਈਟ	-10.4199
▁ਏਸ	-10.42
pack	-10.4201
life	-10.4203
gmail	-10.4206
ਇੰਟ	-10.4207
pan	-10.4207
ਗਾਰ	-10.421
ਵਾਹ	-10.4212
ਅਤ	-10.4216
▁fr	-10.4219
▁ਸ਼ੁੱਕਰਵਾਰ	-10.4223
WS	-10.4224
ਮੈਨੂੰ	-10.4226
ਬੁੱਕ	-10.423
ੀਂ	-10.423
▁mol	-10.4233
▁ਅਨੁਕੂਲਤਾ	-10.4235
▁Nu	-10.4236
ank	-10.4236
▁ਜ਼ਰੂਰ	-10.4239
ਥਰ	-10.4239
▁ਸਖਤ	-10.4247
▁net	-10.4249
ਿੱਪ	-10.4253
▁Coin	-10.4255
▁ਕਰਦੀਆਂ	-10.4258
▁ਮਨਜ਼ੂਰੀ	-10.4261
ਰਾਜ	-10.4264
▁San	-10.4268
▁ਸੈਨ	-10.4268
SE	-10.4269
ਾਉਂਦਾ	-10.4274
▁ਸਫਲ	-10.4276
­	-10.4277
▁diffuser	-10.4277
▁ਇਸ਼ਨਾਨ	-10.4277
▁ਮਿਸਾਲ	-10.4277
▁North	-10.4277
▁South	-10.4277
▁Hebei	-10.4277
▁network	-10.4277
▁ਜਰਨਲ	-10.4277
▁ਘਣ	-10.4281
▁ਸਬੰਧਿਤ	-10.4281
ਧੀ	-10.4281
yo	-10.4283
▁с	-10.4289
time	-10.4292
▁there	-10.4294
180	-10.43
ਜਿਵੇਂ	-10.4313
lat	-10.4313
▁ਮੌਜੂਦਗੀ	-10.4316
▁ਦਿੱਤੀਆਂ	-10.432
▁ਕਿਲੋ	-10.4322
ze	-10.4326
ਾਤਮਕ	-10.4333
▁la	-10.4337
ਜ਼ੋ	-10.434
ਡਿੰਗ	-10.4351
ਸਟੋਰ	-10.4355
▁ਬਦਲੀ	-10.4361
▁ਅਲਕੋਹਲ	-10.4363
▁ਕਮਿਊਨਿਟੀ	-10.4363
▁ਠੰਡਾ	-10.4363
▁ਸੁਤੰਤਰ	-10.4363
▁Smart	-10.4363
▁ਐਂਡਰਾਇਡ	-10.4363
▁magnets	-10.4363
▁ਬ੍ਰਾਂਡ	-10.4363
▁ਪ੍ਰੋਟੀਨ	-10.4364
▁ਐੱਚ	-10.4365
▁ਇਤਿਹਾਸਕ	-10.4366
music	-10.4367
ਕੌ	-10.4371
▁Tank	-10.4372
▁ਕੱਚਾ	-10.4375
▁Mu	-10.4377
yang	-10.4377
▁post	-10.4382
ire	-10.4383
ਹੂ	-10.4385
▁UK	-10.4399
ਬਾਜ਼ੀ	-10.4401
▁ਮੂੰਹ	-10.4403
9.00	-10.4406
ੈਂਪ	-10.4411
bb	-10.4418
ei	-10.4423
▁ਪੱ	-10.4427
gl	-10.4434
▁ਫੜਨ	-10.4436
▁HTTP	-10.4441
▁ਖੇਤ	-10.4441
॥	-10.445
▁Deutsch	-10.445
▁ਏਜੰਸੀ	-10.445
▁ਕਸ਼ਮੀਰ	-10.445
▁ਟੁੱਟ	-10.445
▁ਥਰਮਲ	-10.445
▁ਸੋਮਵਾਰ	-10.445
▁ਰੀਲੇਅ	-10.445
▁ਸਾਬਤ	-10.445
▁ਸੈਲਾਨੀ	-10.445
▁ਸਮਗਰੀ	-10.445
▁ਹਾਰਮੋਨ	-10.4451
▁ਸੈਕਟਰ	-10.4451
▁ਲੇਅਰ	-10.4451
▁ਸਰਕਟ	-10.4452
▁ਆਉਂਦੇ	-10.4453
▁ਸੋਚਦੇ	-10.4456
▁ਵਰਤਮਾਨ	-10.4456
▁ਭੁੱਲੋ	-10.4457
▁Live	-10.4462
▁ਦਿਉ	-10.4462
▁IC	-10.4462
▁if	-10.4468
MS	-10.4468
▁(3)	-10.447
▁This	-10.447
ੈਸਟ	-10.4473
▁Hua	-10.4476
▁ਮਿਲਦਾ	-10.4479
je	-10.4486
▁Φ	-10.4495
power	-10.4495
6.5	-10.4501
▁ਯਕੀਨ	-10.4508
▁ਲਿਖੇ	-10.4509
▁ਲਗਾ	-10.4513
▁ਲੰਬਕਾਰੀ	-10.4513
▁ਫੜ	-10.4522
▁Fi	-10.4527
▁ਆਨ	-10.4529
п	-10.4537
▁ਖੇਤੀਬਾੜੀ	-10.4537
▁ਮਿਲੀਗ੍ਰਾਮ	-10.4537
▁ਮੰਜ਼ਲ	-10.4537
▁ਚਾਰਜਰ	-10.4538
▁National	-10.4538
▁ਵਾਟਰਪ੍ਰੂਫ਼	-10.4538
▁ਫਾਈਨਲ	-10.4538
DE	-10.4538
▁Auto	-10.4538
▁ਫਰੰਟ	-10.4539
▁ਆਰਪਿਕ	-10.4539
▁ਰੀਲੀਜ਼	-10.454
▁pu	-10.454
▁ਸੈੱਟਅੱਪ	-10.4541
▁ਸਰੂਪ	-10.4542
▁fa	-10.4542
▁ਖੰਡ	-10.4543
▁ਇੰਜੀਨੀਅਰਿੰਗ	-10.4544
▁Ka	-10.4545
▁part	-10.4547
ਕਣ	-10.4548
▁ਜੁੜੇ	-10.455
▁900	-10.4558
ਪਲੇ	-10.4574
▁Hong	-10.4574
▁ਆਈਸ	-10.4579
ਵੱਧ	-10.458
▁Jo	-10.4584
▁ਬੋਲੀ	-10.4591
▁q	-10.4592
type	-10.4597
▁ਅਧਿਆਪਕ	-10.4603
▁SH	-10.4608
vent	-10.4608
▁04	-10.4611
orphek	-10.4626
▁CIBC	-10.4626
▁Teltonika	-10.4626
▁between	-10.4626
▁keyword	-10.4626
▁ਨਿਪੋਮੁਕ	-10.4626
▁ਇਲਾਕੇ	-10.4626
▁ਮੰਮੀ	-10.4626
▁ਹੱਬ	-10.4629
▁ਜ਼ੋਰ	-10.4629
▁ਲਏ	-10.4633
▁Man	-10.4633
▁VPS	-10.4634
▁ਕੀਬੋਰਡ	-10.4634
▁ਭੇਜੇ	-10.4635
ੈੱਸ	-10.4641
van	-10.4652
▁Copyrights	-10.4659
test	-10.466
ਲਿਆਂ	-10.4662
ਤਾਰ	-10.4663
▁ਅਸਰਦਾਰ	-10.4665
tube	-10.4668
unt	-10.4669
▁Gh	-10.467
iz	-10.4685
▁ਨਹ	-10.4686
▁ਦੱਖਣ	-10.4686
-06	-10.4686
mal	-10.4689
▁dev	-10.4695
▁ਚੀ	-10.4696
▁0.6	-10.4708
▁ਪੈਰਾ	-10.4709
▁ਕਰੋਗੇ	-10.4712
▁PAR	-10.4712
▁ਬਾਈ	-10.4712
210	-10.4714
▁ਮਸ	-10.4714
▁ਫੈਸਲੇ	-10.4715
▁ਬਾਥਰੂਮ	-10.4715
▁ਮੈਗਜ਼ੀਨ	-10.4715
▁ਵਿਟਾਮਿਨ	-10.4715
ਸੈਮੀਕੋਲਨ	-10.4715
▁ਅਣਡਿੱਠਾ	-10.4715
🚩	-10.4715
▁ਸਫ਼ਲ	-10.4715
▁ਲਹਿਰ	-10.4716
▁ਦਿਖਾਇਆ	-10.4716
▁ਬਨਾਮ	-10.4719
▁My	-10.4719
▁ਲੌਰਾ	-10.4719
▁bra	-10.4723
WysLuxury	-10.4723
▁ਵਰਕਿੰਗ	-10.4724
▁ਸੀਰੀਅਲ	-10.4727
▁ਖ਼ੁਸ਼ੀ	-10.4732
▁ਪੱਕਾ	-10.4737
PT	-10.4741
lit	-10.4742
▁Sha	-10.4743
▁comp	-10.4745
▁650	-10.4754
pot	-10.4757
▁Casinos	-10.4766
point	-10.4769
ਾਉਂਦੀ	-10.4775
orn	-10.478
CE	-10.4781
ever	-10.4783
car	-10.4786
ਮੂ	-10.4787
▁ਕਾਸਟ	-10.4787
▁Xin	-10.479
▁PRO	-10.4791
▁ਅੱਧ	-10.4793
▁360	-10.4795
▁ਗੇਮ	-10.4799
▁ਅਗ	-10.4802
▁ਸਾਵਧਾਨ	-10.4802
▁ਰਿਪ	-10.4805
▁ਪਰਮਾਣਕਿਤਾ	-10.4805
▁ਸੰਤੁਸ਼ਟ	-10.4805
▁Concox	-10.4805
▁ਲਗਜ਼ਰੀ	-10.4805
▁ASTM	-10.4806
▁ਤੀਜੀ	-10.4806
▁ਯੂਕਰੇਨੀ	-10.4807
lip	-10.4807
rk	-10.4812
▁ਘਣਤਾ	-10.4813
▁ਖੇਡੋ	-10.4815
▁ਪਾਲਸੀ	-10.4815
▁ਲੂਤ	-10.4817
▁ਲਾਇਨ	-10.4822
ਾਉਂਦੇ	-10.4831
ren	-10.4833
▁ਲੁਕ	-10.4837
UN	-10.4838
SH	-10.4848
ਵਾਸ	-10.4854
ਰਿਕ	-10.4856
ਗਰਾ	-10.486
▁ਬਕਸਾ	-10.4862
ä	-10.4864
ny	-10.4867
▁day	-10.4868
ੱਤੇ	-10.4868
ku	-10.4868
uang	-10.4885
host	-10.489
▁ਪਾਰਸ	-10.4893
▁Health	-10.4896
▁ਅਡਜੱਸਟ	-10.4896
▁ਥੰਮਨੇਲ	-10.4896
▁ਪਾਲਿਸੀ	-10.4896
▁ਜ਼ਿਲ੍ਹੇ	-10.4897
lgeria	-10.4897
▁ਭਾਈਵਾਲ	-10.4898
▁ਪਾਰਟਸ	-10.4898
▁ਜਿਹੀ	-10.4898
Sales	-10.4899
▁ਗੇਮਜ਼	-10.491
▁ਗਰੀਨ	-10.491
▁ਸਾਈਡ	-10.4911
ਪਣ	-10.4917
▁Gold	-10.4917
ise	-10.4918
▁ਬੇਬੀ	-10.492
ਤੂ	-10.4925
▁Bill	-10.4939
▁ਅਤਿ	-10.4941
▁ਅਕ	-10.4944
cap	-10.4945
content	-10.4948
SC	-10.4953
▁ਓਹ	-10.4956
156	-10.4957
▁57	-10.4962
▁2003	-10.4968
▁ਸਟਾਰਟ	-10.4979
▁add	-10.498
ਫੋਰ	-10.498
б	-10.4988
▁University	-10.4988
▁sprites	-10.4988
▁ਤਨਖਾਹ	-10.4988
▁ਨਿਰਪੱਖ	-10.4988
▁ਫਲੈਸ਼	-10.4988
▁ਫਾਊਂਡੇਸ਼ਨ	-10.4988
▁ਵਿਵਹਾਰ	-10.4988
▁ਫਾਇਦਾ	-10.4988
▁HGH	-10.4988
▁ਕੈਮਰੇ	-10.4988
▁ਖਿਲਾਫ	-10.4989
▁ਸਾਕਟ	-10.4991
▁ਕਹਿ	-10.4992
yn	-10.4994
▁ਧੀ	-10.5005
ED	-10.5011
media	-10.5012
ਆਮ	-10.5013
▁ਖਬਰ	-10.5016
755	-10.5019
▁ਅਮਲ	-10.502
dia	-10.5024
▁ਸਲਾਹਕਾਰ	-10.503
ਨੇਟ	-10.504
ਨਿਟੀ	-10.5043
▁ਜੰਗਲ	-10.5047
HD	-10.5049
PL	-10.505
ਠੀ	-10.5051
▁QShortcut	-10.506
▁ਜਾਣਦਾ	-10.5063
sch	-10.5068
▁ਰਾਖਵ	-10.5069
▁Region	-10.507
tors	-10.5076
▁ਯਹੋਵਾਹ	-10.5081
▁ਲਾਇਸੈਂਸ	-10.5081
▁ਸ਼ਨੀਵਾਰ	-10.5081
▁ਗਠਨ	-10.5081
▁ਸਮਕਾਲੀ	-10.5081
▁ਡੈਮਨ	-10.5081
▁ਮੇਜ਼ਬਾਨ	-10.5081
▁ਟੈਪਲੇਟ	-10.5081
▁10%	-10.5082
each	-10.5084
▁ਟਿਕਟ	-10.5084
▁ਮਿਕਸਰ	-10.5093
sis	-10.5093
▁ਨਾਨਕ	-10.5097
eo	-10.5098
▁Str	-10.51
▁ਐੱਨ	-10.5106
▁ਲੱਗਾ	-10.5106
▁ਸੈਰ	-10.5106
▁ਜੈਕ	-10.5107
ਇਲ	-10.5109
ਦੋ	-10.511
▁ਮਾਰਿਆ	-10.5111
ini	-10.5112
ii	-10.5113
ਾਨਾ	-10.5114
▁AT	-10.5114
▁ਸ਼ੇ	-10.5115
▁ਐੱਫ	-10.5116
▁ਵਿਗਿਆਨਕ	-10.5119
eu	-10.5122
ਦਿ	-10.5123
▁Trans	-10.5125
▁450	-10.5125
▁ਵਿਅਕਤੀਆਂ	-10.5126
ture	-10.5135
ਸ਼ੇ	-10.5135
115	-10.5137
▁ਖ਼ਾਸ	-10.5138
▁27,	-10.5143
▁98	-10.5145
title	-10.5149
CN	-10.5166
▁95	-10.5167
▁Enterprise	-10.5174
▁ਅਮਰੋਕ	-10.5174
▁ਪ੍ਰਾਰਥਨਾ	-10.5174
▁ਰਿਵਿਊ	-10.5174
▁ਪ੍ਰਦੇਸ਼	-10.5174
▁ਮਾਊਟ	-10.5174
▁ਅਹਿਮ	-10.5174
▁ਯਾਤਰੀ	-10.5174
▁ਸਮੀਕਰਨ	-10.5175
▁ਗੋਪਨੀਯਤਾ	-10.5175
▁ਲੜਾਈ	-10.5177
▁ਗਿੱਲ	-10.5177
RM	-10.5183
▁ਰਾਇਲ	-10.5186
▁ਪਾਇਆ	-10.5188
▁ਕਰਨਗੇ	-10.519
ct	-10.519
▁ਬਰਨ	-10.5194
▁ਵੈਟ	-10.5196
pics	-10.5199
▁ਪੀਹ	-10.5199
▁72	-10.52
▁Fa	-10.5203
▁PM	-10.5204
use	-10.5207
wp	-10.5214
ਗਰੇ	-10.5222
2.0	-10.5225
▁ਜੁੜ	-10.523
▁UI	-10.5233
Pri	-10.5239
▁59	-10.5241
▁ਕਾਰਵਾਈਆਂ	-10.5245
▁ਪੜ੍ਹੇ	-10.5247
▁ਬਕ	-10.526
ਹੋਰ	-10.5266
▁ਇਨਸੂਲੇਸ਼ਨ	-10.5268
▁ਐਮਾਜ਼ਾਨ	-10.5268
▁ਨਿਯੁਕਤ	-10.5268
▁ਮਾਹੌਲ	-10.5268
▁ਸੈਂਟੀਮੀਟਰ	-10.5268
▁ਕਮਜ਼ੋਰ	-10.5268
▁ਐਡੀਸ਼ਨ	-10.5268
▁ਸਕਾਈਪ	-10.5268
▁ਖੋਲਦਾ	-10.5272
▁ਪੌਦੇ	-10.5272
▁ਘੁੰਮ	-10.5273
▁Hu	-10.5276
AI	-10.5277
▁ਜੇਤੂ	-10.5277
▁more	-10.5281
▁ਹਮ	-10.5282
ਫੋਨ	-10.5296
▁ਵਾਕ	-10.5298
ech	-10.5303
▁Tri	-10.5303
▁Com	-10.5304
▁ਪ੍ਰੋਗਰਾਮਿੰਗ	-10.5308
▁ਜ਼ਿੰਮੇਵਾਰ	-10.5314
▁Slot	-10.5324
fs	-10.5328
tric	-10.533
▁ਦੇਸ਼ਾਂ	-10.533
€	-10.5332
ender	-10.5335
▁ਫੋਟੋਆਂ	-10.5335
ਬਨ	-10.5347
nic	-10.5354
fm	-10.5358
▁Ukraine	-10.5364
▁ਆਈਪੈਡ	-10.5364
▁ਈਵੇਲੂਸ਼ਨ	-10.5364
▁ਗਿਟਾਰ	-10.5364
▁ਬ੍ਰਾਉਜ਼ਰ	-10.5364
▁ਸੁਵਿਧਾਜਨਕ	-10.5364
▁ਵਚਨਬੱਧ	-10.5364
▁ਸਵਰਗ	-10.5364
▁ਬੈਲਟ	-10.5365
▁ਘਟਾਓ	-10.5368
▁ਸਮਾ	-10.537
eck	-10.537
450	-10.5373
▁26,	-10.5374
You	-10.5374
▁Pan	-10.5381
▁ਯੋ	-10.5385
▁Bl	-10.5386
ਕੋਨ	-10.5386
▁ਖਰਚੇ	-10.5386
2006.	-10.5388
▁ਡਰਾਇਵਰ	-10.539
suit	-10.5394
▁ਸੁਧਾਰਨ	-10.5398
201	-10.5415
▁GT	-10.5421
▁ਵਾਇਰਸ	-10.5422
home	-10.5424
PE	-10.5427
ਪਾਰਟੀ	-10.543
fl	-10.5433
pic	-10.5436
fi	-10.5439
▁DJ	-10.544
▁ne	-10.5448
▁TN	-10.5449
berg	-10.5455
ane	-10.5457
я	-10.546
ਅਪਾਰਟਮੈਂਟ	-10.546
▁ਵਾਤਾਵਰਨ	-10.546
▁ਸਕੂਟਰ	-10.546
▁ਉੱਤਮ	-10.546
▁ਵਜ਼ਨ	-10.546
▁Jiangsu	-10.546
▁ਸਲਾਈਡ	-10.5461
▁ਔਪਟ	-10.5461
}}	-10.5462
▁ਸੰਭਾਲੀ	-10.5462
▁ਬਲੱਡ	-10.5464
mark	-10.5465
▁ਮਿਲੀਅਨ	-10.5465
350	-10.5474
▁ਹੱਲ਼	-10.5475
amb	-10.5476
lle	-10.548
▁ਖਾਣਾ	-10.5483
ਟਰਾ	-10.5486
▁ਅਨੁਵਾਦਕ	-10.5488
ਸੈਕਸ	-10.5491
8000	-10.5492
▁ਧਨ	-10.5495
▁radio	-10.55
ਸੈ	-10.5501
▁ਸਰਦੀ	-10.5511
ਬ੍ਰ	-10.5514
▁ਆਓ	-10.5518
fo	-10.552
info	-10.552
▁ਨਰ	-10.5524
▁ਵਰਤਣਾ	-10.5526
ec	-10.554
▁Bit	-10.5542
▁ਘੁ	-10.5546
ull	-10.5551
101	-10.5553
▁Porn	-10.5555
ਰਾਈ	-10.5555
੫	-10.5557
ੲ	-10.5557
▁KOffice	-10.5557
▁ਖੁੱਲ੍ਹੇ	-10.5557
▁ਤੋਹਫ਼ੇ	-10.5557
▁ਵਿਹੜੇ	-10.5557
▁Holiday	-10.5557
▁Vista	-10.5559
▁ਪੂਰਕ	-10.5559
2019-04-	-10.5559
ਮਈ	-10.556
space	-10.5561
▁2002	-10.5562
ਮੀਟਰ	-10.5566
RI	-10.557
▁29,	-10.5573
▁750	-10.5573
ੌਸ	-10.5574
▁ਜਿਮ	-10.5576
▁ਥਾਈ	-10.5578
ute	-10.5586
▁gr	-10.5587
▁Ji	-10.5587
▁ਪੜ	-10.5601
ਲੇਸ	-10.5601
ough	-10.5603
FO	-10.5609
▁ICO	-10.561
▁ਈਦ	-10.5616
▁1.1	-10.5619
▁ਆਖ	-10.5619
▁ਜਾਂਦੀਆਂ	-10.5619
down	-10.5619
▁ਪੁਰਸ਼	-10.5623
੨	-10.5628
west	-10.5642
▁ਕੈਨ	-10.5642
▁ਕਾਲੀ	-10.5652
▁ਕੈਲਕੂਲੇਟਰ	-10.5655
▁ਜ਼ਮੀਨਦੋਜ਼	-10.5655
▁ਪ੍ਰੋਟੋਟਾਈਪ	-10.5655
▁ਰਿਸਰਚ	-10.5655
▁ਹੈਰਾਨੀਜਨਕ	-10.5655
▁ਭੀੜ	-10.5655
▁domini	-10.5655
▁Russia	-10.5655
▁ਅਨੰਦ	-10.5656
Rider	-10.5657
▁ਅਸਟੇਟ	-10.5657
▁ਬਣਾਉਂਦੇ	-10.5658
rac	-10.5658
photo	-10.566
▁ਖੋਲੋ	-10.566
▁ਪੇਸ਼ਕਾਰੀ	-10.566
▁0.4	-10.5664
▁Xbox	-10.5665
ੈਲ	-10.5666
side	-10.5668
-100	-10.5678
ਸੈੱਟ	-10.5678
eth	-10.5678
card	-10.5681
OM	-10.569
▁ਰਸਾਇਣਕ	-10.5692
▁ਮਿਸ	-10.5694
▁ਪੁੱਛਣ	-10.5697
print	-10.5698
izer	-10.5699
5000	-10.5703
HT	-10.5704
▁Cat	-10.5704
▁ਕੇਂਦਰੀ	-10.5724
▁ਲਾਈਨਾਂ	-10.5725
▁Je	-10.573
ੀਅਲ	-10.5732
free	-10.5734
280	-10.5734
="2	-10.5734
ਕਿਊ	-10.5735
▁China	-10.5737
ਬਾਇ	-10.5737
ਬੌ	-10.575
▁ਫ਼ਾਇਬਰਗਲਾਸ	-10.5754
▁ਰਿਪੋਜ਼ਟਰੀ	-10.5754
▁ਸ੍ਟ੍ਰੀਟ	-10.5754
▁ਜਾਸੂਸੀ	-10.5754
▁ਰੋਬੋਟ	-10.5754
▁ਗੂੜਾ	-10.5754
▁ਕਲਾਉਡ	-10.5754
▁ਉਸਦੀ	-10.5755
LP	-10.5755
▁ਸਤਿ	-10.5757
▁ਰਲ	-10.5757
ਪਕ	-10.5757
▁Up	-10.5758
▁online	-10.576
▁Die	-10.5763
▁5000	-10.5765
ble	-10.5766
▁mo	-10.577
▁850	-10.5773
▁ਖਾਣੇ	-10.5773
▁Coil	-10.5774
▁IN	-10.5774
▁like	-10.5778
▁ਜਿਸਦਾ	-10.5782
▁Make	-10.5784
table	-10.5787
uct	-10.5788
ਲ੍	-10.5792
ਮੈਂ	-10.5793
▁PropertyName	-10.5797
▁ਵਾਟ	-10.5798
▁Jun	-10.5799
▁ਭੁ	-10.5801
inder	-10.5807
▁ਲੈਬ	-10.5809
pr	-10.5815
like	-10.582
▁date	-10.5828
▁get	-10.5832
ੰਤਰ	-10.5841
ਗਲੀ	-10.5842
ਘਰ	-10.5853
enezuela	-10.5854
▁category	-10.5854
▁ਇੰਜੈਕਸ਼ਨ	-10.5854
▁ਰਵੱਈਆ	-10.5854
▁ਸਿਧਾਂਤ	-10.5854
▁ਸੰਗਠਿਤ	-10.5854
▁ਗੋਲ਼ਾ	-10.5854
▁ਦੁਬਈ	-10.5854
▁ਨਾਜ਼ੁਕ	-10.5854
▁ਖ਼ਤਮ	-10.5854
▁tips	-10.5854
▁ਡਾਊਨ	-10.5855
urtle	-10.5855
▁ਪੱਤਾ	-10.5865
▁ਬਿਮਾਰੀਆਂ	-10.5865
live	-10.5867
▁learn	-10.5868
ਬੰਧ	-10.5874
▁ਸਕ੍ਰੀਨ	-10.5874
wood	-10.5882
lator	-10.5886
ਕਰਣ	-10.5887
bal	-10.589
Tag	-10.589
ley	-10.5895
▁CSS	-10.5896
ole	-10.5897
▁year	-10.5901
▁ਜਾਉ	-10.5902
ਟੀਨ	-10.5903
550	-10.5904
▁ਫਰਕ	-10.5906
HC	-10.5906
-17	-10.5924
▁my	-10.5924
▁ਰਿਹਾਇਸ਼	-10.5925
੍ਰ	-10.5926
▁Fu	-10.593
▁SE	-10.5931
ਸਕ੍ਰੀਨ	-10.5934
ਬਾਲ	-10.5938
FT	-10.594
▁ਕਾਰੋਬਾਰੀ	-10.5942
▁ਇੰਜੀਨੀਅਰ	-10.5947
VAC	-10.5947
▁Ste	-10.5948
ਨੁ	-10.5948
235	-10.595
wysluxury	-10.5955
▁ਅਥਾਰਟੀ	-10.5955
▁ਡੁਪਲੀਕੇਟ	-10.5955
▁ਵਸਰਾਵਿਕ	-10.5955
▁ਵਿਸਫੋਟ	-10.5955
▁ਵ੍ਹੀਲ	-10.5955
▁ਚਾਈਨਾ	-10.5955
▁ਦਿੱਲੀ	-10.5955
▁Style	-10.5955
▁ਐਲਰਜੀ	-10.5955
▁ਬਾਇਓ	-10.5955
▁2004	-10.5955
▁ਰਚਨਾਤਮਕ	-10.5956
▁Media	-10.5956
wiki	-10.5956
▁ਜ਼ਿਕਰ	-10.5957
ification	-10.5958
▁ODM	-10.596
▁ਟੀਚਾ	-10.5961
▁who	-10.5964
▁ਸੰਵੇਦਨਸ਼ੀਲ	-10.5966
over	-10.5968
▁ਲਾਈਟਾਂ	-10.5969
ਤਮਕ	-10.5969
▁ਪਲੇ	-10.5978
▁ਸਜ਼ਾ	-10.5984
▁5.5	-10.5985
war	-10.5988
▁zimbabwe	-10.5996
▁over	-10.5997
▁ਬਿਲ	-10.5999
▁ਸਕਣ	-10.6009
▁ਫੁ	-10.6009
▁Key	-10.601
▁49	-10.6015
▁TK	-10.6017
▁ਨਿਵੇਸ਼ਕ	-10.6018
▁Server	-10.6019
▁El	-10.6022
140	-10.6028
tions	-10.6028
ਫਾਇਰ	-10.6033
▁Jan	-10.6033
▁states	-10.6036
ship	-10.6038
ym	-10.6038
ੁੱਲ	-10.6042
▁It	-10.6056
μ	-10.6057
з	-10.6057
▁Inverter	-10.6057
▁ਇੰਕੋਡਿੰਗ	-10.6057
▁ਐਨੀਮੇਸ਼ਨ	-10.6057
▁ਗਹਿਣੇ	-10.6057
▁ਫਾਇਰਫਾਕਸ	-10.6057
▁ਰਣਨੀਤੀ	-10.6057
▁ਮਿਹਨਤ	-10.6057
▁ਕਿਨਾਰੇ	-10.6057
ile	-10.6058
▁ਲੱਗੇਗਾ	-10.6061
▁ਗਵਾਹ	-10.6061
▁ਸੇਂਟ	-10.6063
▁was	-10.6063
ਉਂਦਾ	-10.6067
▁ਸਨਮਾਨ	-10.607
ਟੇਬਲ	-10.6075
▁0086-5	-10.6077
pper	-10.6079
▁ਗ੍ਰੇਡ	-10.6081
ਰ੍	-10.6083
hile	-10.6084
▁ਖਿੱਚ	-10.6087
▁PO	-10.6088
emon	-10.6089
eason	-10.609
▁ਮਾਸਕ	-10.61
▁PA	-10.6106
▁ਇਨਕਾਰ	-10.6107
▁If	-10.6112
orea	-10.6117
▁ਪੂਰਬ	-10.6131
▁ਓਰ	-10.6135
▁image	-10.614
▁ਸ਼ੈ	-10.6144
Free	-10.6149
▁Technology	-10.616
▁address	-10.616
▁silicone	-10.616
▁ਐਲਮੀਨੀਅਮ	-10.616
▁ਕੈਟਾਲਾਗ	-10.616
▁ਪ੍ਰਾਇਮਰੀ	-10.616
▁ਸਹਿਣਸ਼ੀਲਤਾ	-10.616
▁ਢਾਂਚਾ	-10.616
▁FREE	-10.616
▁ਚਾਹੀਦੇ	-10.616
▁ਪ੍ਰੋਫਾਈਲ	-10.616
▁ਰੂਬਲ	-10.616
▁ਤਬਾਹ	-10.616
▁ਝੀਲ	-10.616
▁ਉਤਪਾਦਕਤਾ	-10.616
▁ਸ਼੍ਰੀ	-10.6161
▁ਲੋਹੇ	-10.6162
▁ਇੰਸਟੀਚਿਊਟ	-10.6162
▁ਪੋਲੀ	-10.6165
ਾਵ	-10.6165
▁ਹਮਲੇ	-10.6165
nch	-10.6167
▁ਖੋਰ	-10.617
360	-10.6171
▁ਰਾਅ	-10.6171
▁ਕਾਨੇ	-10.6173
eb	-10.6178
▁Br	-10.6187
IR	-10.6188
੍ਰਿ	-10.6188
ella	-10.6192
▁Sch	-10.6192
ਧੂ	-10.6193
▁ਬਾਲਣ	-10.6194
▁ਜੰਗਲੀ	-10.6201
ਕੋਲ	-10.6204
COM	-10.623
▁ਗੱਲਾਂ	-10.6235
rank	-10.6246
1.2	-10.6248
▁ਪਰਬੰਧਨ	-10.6252
ਪੋਰ	-10.6254
PI	-10.6256
▁ਤੋੜ	-10.6259
😂	-10.6264
▁ਗਰੰਟੀ	-10.6264
▁ਠੰਡੇ	-10.6264
▁ਦਰਸਾਉਂਦਾ	-10.6264
▁ਪ੍ਰੇਰਿਤ	-10.6264
▁ਸ਼ਿਕਾਇਤ	-10.6264
▁ਐਸਐਮਐਸ	-10.6264
▁ਐਸੀਟੇਟ	-10.6264
▁ਪੋਰ੍ਟ	-10.6264
medicine	-10.6264
▁ਪ੍ਰਤੀਸ਼ਤ	-10.6264
▁ਬ੍ਰੇਕ	-10.6264
▁ਜ਼ਰੀਏ	-10.6264
▁ਪਿਕਸਲ	-10.6265
▁ਸੂਚੀਬੱਧ	-10.6266
▁ਟਾਇਰ	-10.6266
▁ਫੋਰਮ	-10.6267
ਸਿਰਫ	-10.6267
white	-10.627
▁ਸਵਿ	-10.627
get	-10.6276
▁ਸਾਇਨ	-10.6276
lim	-10.6279
▁ਭੰਗ	-10.6279
▁ਦਰਸ਼ਨ	-10.628
▁ਝਾੜੀ	-10.6281
TI	-10.6281
▁1998	-10.6281
▁160	-10.6282
▁ਚੁਣੀਆਂ	-10.6283
Player	-10.6292
▁ਬੁਰਾ	-10.6296
▁ਮੈਟਾ	-10.6298
mber	-10.6299
ਾਈਮ	-10.6299
ther	-10.6299
122	-10.63
ੂੰ	-10.6301
▁ਹੇਠਲੇ	-10.6302
ਖਣ	-10.6305
▁ਪ੍ਰਦਰਸ਼ਨੀ	-10.6311
AM	-10.6311
ht	-10.6313
▁ਹੌ	-10.6318
▁ਨਾਈਲੋਨ	-10.6333
usa	-10.6333
za	-10.6337
ਲ੍ਹੇ	-10.6342
▁Main	-10.6347
▁ਕੱਚ	-10.635
ਭਾਰਤ	-10.6362
2.3	-10.6362
▁ਮੁਕਤ	-10.6363
ਦੁ	-10.6364
ui	-10.6364
ization	-10.6368
witzerland	-10.6369
å	-10.6369
▁NUKA	-10.6369
▁which	-10.6369
▁ਦਹਾਕਾ	-10.6369
▁ਫਾਰਮਾਸਿਊਟੀਕਲ	-10.6369
▁ਮਿੱਠੇ	-10.6369
▁ਲਾਈਸੈਂਸ	-10.6369
▁ਸੈਮਸੰਗ	-10.6369
▁ਕਲੀਨਿਕ	-10.6369
▁ਸਾਬਕਾ	-10.637
▁ਸਿਆਹੀ	-10.637
▁ਟੈਬਲਿਟ	-10.637
▁ਸਪਸ਼ਟ	-10.6371
▁ਥਾਵਾਂ	-10.6371
ਮਾਰਕ	-10.6371
▁ਪਕੜ	-10.6372
tre	-10.6375
▁ਸੈਲ	-10.6375
ੱਤਾ	-10.6376
ੱਕਾ	-10.6378
▁ਦੋਵੇਂ	-10.6379
▁due	-10.638
playlist	-10.6383
zh	-10.6385
▁File	-10.6393
▁ਧੋ	-10.6395
▁ਨਿਯਮਾਂ	-10.64
105	-10.6405
▁Tech	-10.6413
▁ਅੱਖਾਂ	-10.6413
LO	-10.6418
opify	-10.6422
310	-10.6424
ਮੈਟ	-10.6426
▁ਸਾਂਝ	-10.6427
wing	-10.6431
▁ਡੋਰ	-10.6431
ism	-10.6432
3.5	-10.644
▁ਸਵੀਡਨ	-10.6446
▁sud	-10.6449
▁ਕਰਸਰ	-10.6449
TM	-10.6459
EP	-10.646
▁ਮੈਟ	-10.6461
▁ਤੁ	-10.6462
002	-10.6466
▁ਪੱਛਮ	-10.6467
OP	-10.6468
▁ਤੀਬਰ	-10.6469
▁ਅਧਿਕਾਰੀ	-10.6472
▁us	-10.6474
▁ਅਹਿਸਾਸ	-10.6476
▁ਨੱਥੀ	-10.6476
▁ਅਡੈਪਟਰ	-10.6476
▁ਖੰਭ	-10.6476
▁ਨਾਬਾਲਗ	-10.6476
▁ਨਿਯੰਤਰਣ	-10.6476
▁ਸਮਝੌਤੇ	-10.6476
bra	-10.6476
▁%1$	-10.6476
▁SQL	-10.6476
▁ਜੁੱਤੀ	-10.6476
▁ਟੈਂਪਲੇਟ	-10.6476
▁ਕੰਪਾਇਲ	-10.6476
▁ਡਾਕੂ	-10.6482
BO	-10.6482
gal	-10.6489
▁Job	-10.649
0-2	-10.6494
▁Bi	-10.6498
▁ਜਾਣਨ	-10.6501
▁ਆਪਸ	-10.6501
▁travel	-10.6503
▁ਅਯੋਗ	-10.6503
▁ਕੀਮਤਾਂ	-10.6503
ੈਂਡਰ	-10.6504
▁ਖੁ	-10.6508
▁ਸਾਫਟ	-10.6508
▁lib	-10.6513
ਤੰਗ	-10.6514
ਕਾਨ	-10.6514
▁FL	-10.6516
ਪਿਕਸ	-10.6517
▁ਕੁਸ਼ਲ	-10.6519
▁At	-10.6524
▁ਹੇਠਲੀ	-10.6526
▁ਦੂਤ	-10.6543
▁plan	-10.6543
ਸ਼ੀਲ	-10.6548
-03-	-10.6554
▁ਚੁੰਬਕ	-10.6554
ਿੰਨ	-10.656
you	-10.6567
▁ਘਟਾ	-10.6569
125	-10.6575
ਵੱਡੇ	-10.6577
ੈਸ਼ਨ	-10.6578
ਖੇਤਰ	-10.6579
▁+0000.	-10.6583
▁resources	-10.6583
▁ਅਦਾਇਗੀ	-10.6583
▁ਬਿਸਤਰੇ	-10.6583
▁ਰਾਜਧਾਨੀ	-10.6583
▁ਰੁਕਾਵਟ	-10.6583
▁ਵੈੱਕਯੁਮ	-10.6583
▁ਵਹਾਅ	-10.6583
brazil	-10.6583
▁Machine	-10.6583
▁ਕਿਊਰੀ	-10.6584
▁ਇੰਕ੍ਰਿਪਸ਼ਨ	-10.6584
▁ਜੈਵਿਕ	-10.6584
▁ਸਟਾਇਲ	-10.6584
▁ਡਿੱਗ	-10.6586
▁ਇੰਝ	-10.6587
▁ਪ੍ਰਮਾਣਿਤ	-10.6587
▁ਹੱਦ	-10.6587
▁Power	-10.6589
▁ਫੀ	-10.659
ward	-10.6592
▁ਸਪੇਨੀ	-10.6594
▁ਅੰਦਾਜ਼ਾ	-10.6597
▁Ki	-10.6597
▁ਗ੍ਰ	-10.6599
gram	-10.6601
▁ਬੀਅਰ	-10.6604
▁ਸਥਿਰਤਾ	-10.6608
▁car	-10.6609
sheng	-10.661
ੌਟ	-10.6616
Note	-10.6622
▁ਅਰਬੀ	-10.6629
▁ਬਚਨ	-10.663
tage	-10.6632
▁any	-10.6634
ਕਿਨ	-10.6635
▁ਲੈਣਾ	-10.6636
oli	-10.6637
▁Time	-10.6639
▁Notification	-10.6639
▁Gen	-10.6645
380	-10.6645
Pro	-10.6664
dh	-10.6665
▁94	-10.6665
▁ਛਾਪ	-10.6667
led	-10.667
▁ਸਮਰੱਥ	-10.6671
pri	-10.6672
hin	-10.6675
▁ਵੀਜ਼ਾ	-10.6677
ory	-10.668
ਕੈਸੀਨੋ	-10.6688
▁Pinterest	-10.6692
▁RFID	-10.6692
▁hungary	-10.6692
▁ਅਧਿਆਇ	-10.6692
▁ਡਿਲੀਵਰੀ	-10.6692
XCHARX	-10.6692
▁ਲੋੜੀਂਦੇ	-10.6692
▁ਬੁਣਾਈ	-10.6692
▁%2$	-10.6692
▁ਇਕੱਲੇ	-10.6692
▁PTO	-10.6692
ਕਸੇ	-10.6695
▁ਵਿਰਾਮ	-10.6696
▁ਵਿੰਡ	-10.6697
▁jap	-10.6697
turn	-10.6698
▁bug	-10.6698
▁Spin	-10.671
▁ਕੁਆ	-10.6717
▁ਮੁਹ	-10.6719
key	-10.6722
▁ਪੂਰਵ	-10.6725
▁Rd	-10.6732
128	-10.6744
▁ਹੰ	-10.6752
▁Piece	-10.6754
▁FS	-10.6761
page	-10.6764
▁ਸੇਵ	-10.677
▁ਪਸੰਦੀ	-10.6778
▁ਕੱਢ	-10.6781
right	-10.679
ਜਸ	-10.6791
▁On	-10.6791
▁ਸਹਿਮਤੀ	-10.6799
QFontDatabase	-10.6802
▁ਆਸਟ੍ਰੇਲੀਆ	-10.6802
▁ਐਸੋਸੀਏਸ਼ਨ	-10.6802
▁ਪਰਾਈਵੇਟ	-10.6802
▁ਬਹੁਭੁਜ	-10.6802
▁ਮਾਧਿਅਮ	-10.6802
▁ਮਿਸ਼ਰਣ	-10.6802
▁ਮੁਅੱਤਲ	-10.6802
▁ਰੁਪਏ	-10.6802
	-10.6802
▁plus	-10.6802
▁ਟਰਾਂਸਲੇਸ਼ਨ	-10.6802
▁ਬਿਹਤਰੀਨ	-10.6802
▁Java	-10.6805
▁Txxx	-10.6806
▁ਫਰਾਂਸ	-10.6806
▁ਇੰਕ	-10.6807
▁ਪੰਛੀ	-10.6807
▁KTM	-10.6808
▁ਟੀਚੇ	-10.6809
ਮੰਦ	-10.6809
look	-10.6809
▁ਚੇ	-10.6809
▁ਵਧਾਓ	-10.6812
▁ਕਵਰੇਜ	-10.6812
▁ਚੇਲੇ	-10.6814
▁63	-10.6815
▁ਵਾਟਰ	-10.6816
▁ਸੰਘ	-10.6819
8.0	-10.6831
7.0	-10.6838
inter	-10.6838
0.3	-10.6839
eh	-10.6844
▁10000	-10.6848
▁62	-10.6854
▁ਜਾਣੋ	-10.6861
▁ਤੁਰ	-10.6861
ਸ਼ਿ	-10.6878
nce	-10.6878
▁ਤੱਤਾਂ	-10.6883
▁Cute	-10.6894
▁CAS	-10.6895
iao	-10.6895
▁ਲੈਸ	-10.6896
▁ਚੁੱਕਣ	-10.6896
▁ਬਿਨ	-10.69
▁ਏਮ	-10.6901
▁ਸੁੱਕ	-10.6906
▁ਸੁੱਟ	-10.691
ਕਾਈ	-10.6911
▁Copyshop	-10.6913
▁November	-10.6913
▁Tumblr	-10.6913
▁ਇਤਾਹਾਸ	-10.6913
▁ਕਾਰਬਾਈਡ	-10.6913
▁ਜੱਜ	-10.6913
▁ਸਿੰਗਾਪੁਰ	-10.6913
▁ਕਲਪਨਾ	-10.6913
Coptic	-10.6913
▁Micro	-10.6914
▁listbox	-10.6914
▁ਚੁੱਪ	-10.6915
aalam	-10.6915
▁ਓਧਰ	-10.6915
XNUMX	-10.6917
▁rich	-10.6917
▁ਜਿਨਸੀ	-10.6919
cast	-10.6919
▁ਪਾਠਕ	-10.6922
▁Fe	-10.6922
▁ਐਪਲੀਕੇਸ਼	-10.6924
ਪਿਆਰ	-10.6925
hui	-10.6927
3.0	-10.6928
▁Ti	-10.6931
ਪੁ	-10.6934
blog	-10.6939
▁Max	-10.6947
nal	-10.695
ਪਿਕ	-10.6952
For	-10.6954
▁ਪੌ	-10.6957
ption	-10.6966
▁da	-10.697
ੇਟਰ	-10.6971
н	-10.6971
ਬਾਦ	-10.6974
++	-10.6976
▁ਪਹਿਲ	-10.6978
ਧਿ	-10.6979
▁ਕੋਨਾ	-10.6982
▁out	-10.6982
102	-10.6985
▁56	-10.6985
▁ਵੱ	-10.6986
▁ਪੀਲੇ	-10.6987
ਟੈਨ	-10.6988
▁service	-10.6989
lon	-10.699
▁ਮਰੀਜ਼	-10.6992
▁ਦੌਰ	-10.6999
▁ਠੇ	-10.7003
▁ਸਟਰੀਮ	-10.7018
▁Chi	-10.7021
ham	-10.7021
▁ਲਾਇਬ੍ਰੇਰੀ	-10.7025
▁Generator	-10.7025
▁discuss	-10.7025
▁ਖਿਤਿਜੀ	-10.7025
▁ਖੁਲਾਸਾ	-10.7025
▁ਘੰਟਿਆਂ	-10.7025
sweden	-10.7025
ਘੁੱਗੀ	-10.7026
▁Albert	-10.7026
▁Zhong	-10.7027
▁ਅਪਵਾਦ	-10.7027
▁ਝੁਕ	-10.7028
▁ਹਾਸੇ	-10.7029
raw	-10.7032
search	-10.7036
▁cu	-10.7036
ape	-10.7036
▁ਇਕਸਾਰ	-10.7038
▁ਖੁਦਾਈ	-10.7039
load	-10.7039
▁ਮਾਣੋ	-10.704
yu	-10.7041
ਸਪ	-10.7041
▁ਕਮਾਈ	-10.7042
▁ਦੁਹਰਾ	-10.7043
ਵਤ	-10.7043
▁ਦੋਸਤਾਂ	-10.7045
ੜਿਆਂ	-10.7047
process	-10.7048
▁ਤੋੜਨ	-10.7051
tting	-10.7056
▁Of	-10.7056
▁ਠੰਢਾ	-10.7065
DF	-10.7078
ੜੀਆਂ	-10.7079
cli	-10.7082
GP	-10.7082
ਡ੍ਰੈਗਨ	-10.7085
▁ਫਲੋਰ	-10.7089
emb	-10.7092
▁Tool	-10.7099
▁ਟੈਬਲੇਟ	-10.7099
▁🙏	-10.71
elit	-10.7107
▁ਅੱਠ	-10.7111
▁mar	-10.712
tation	-10.7128
▁Plan	-10.7129
▁ਰੋਸ	-10.7133
ਬੋਰਡ	-10.7136
▁shoppingdirect	-10.7139
Private	-10.7139
generateur	-10.7139
▁protected	-10.7139
▁ਐਕਸਟੈਨਸ਼ਨ	-10.7139
▁Chrome	-10.7139
▁ਅਪਾਚੇ	-10.7139
▁ਕੇਡੀਈ	-10.7139
▁ਕੁਆਇਲ	-10.7139
▁ਜ਼ੀਰੋ	-10.7139
▁ਡਰੈੱਸ	-10.714
▁ਅਸੂਲ	-10.714
▁🇴	-10.7141
▁nym	-10.7141
TF	-10.7141
▁ਸੀਜ਼ਨ	-10.7142
▁ਹਮਲਾ	-10.7144
▁Spec	-10.7146
▁ਪਾਉ	-10.7151
▁PE	-10.7153
AO	-10.7153
ਉਹ	-10.7153
▁ਵੰਡੋ	-10.7155
▁91	-10.7155
▁76	-10.7155
other	-10.7157
trip	-10.7158
▁share	-10.7158
hol	-10.716
▁ਲਾਈ	-10.7161
Triche	-10.7168
ਟ੍ਰੋ	-10.7169
ways	-10.717
▁ਟੈਸਟਰ	-10.7171
▁slot	-10.7176
▁best	-10.7177
5.0	-10.7178
▁ਦੋਵਾਂ	-10.7183
inch	-10.7184
▁ਰੇਡ	-10.7186
ful	-10.7188
▁Ke	-10.7191
ਾਇਕ	-10.7199
▁Ja	-10.7199
ਕਿਉ	-10.7199
ਵਿਚ	-10.7204
Dv	-10.7206
▁ਮੈਨ	-10.7209
▁mobile	-10.7214
08)	-10.7217
▁Text	-10.722
iver	-10.7226
▁2.8	-10.7237
nn	-10.7238
▁ਤਿ	-10.7239
▁help	-10.7243
ਲੇਸ਼ਨ	-10.7249
OL	-10.725
eek	-10.7252
▁ਕੋਲੰਬੀਆ	-10.7254
▁ਉਪਰੋਕਤ	-10.7254
▁ਖੋਜਕਰਤਾਵਾਂ	-10.7254
▁ਤਿਉਹਾਰ	-10.7254
▁ਪ੍ਰੋਫ਼ਾਈਲ	-10.7254
▁download	-10.7254
▁ਨੈਤਿਕ	-10.7254
▁Credit	-10.7254
▁ਵਸਤੂ	-10.7254
ч	-10.7254
field	-10.7254
▁ਸਪੀਕਰ	-10.7254
▁ਦਾਅਵਾ	-10.7254
▁ਸ਼ੀਸ਼ੇ	-10.7254
▁credit	-10.7254
▁ਸੈਕਰੋ	-10.7254
▁ਬਕਵਾਸ	-10.7254
▁ਲੀਅਮ	-10.7255
▁ਕਿਡਜ਼	-10.7256
▁ਬੇਤਾਰ	-10.7257
▁ਹਾਈਲਾਈਟ	-10.7257
▁ਆਫਿਸ	-10.7257
▁ਪ੍ਰਤੀਨਿਧਤਾ	-10.7259
ree	-10.7259
▁ਕਾਰਕ	-10.726
▁facebook	-10.7261
▁ਸੌਦੇ	-10.7262
▁ਲੈਟਿਨ	-10.7262
▁ਮਲਟੀਪਲ	-10.7263
ਵਰਡਪਰੈਸ	-10.7263
ਨਿਸ਼	-10.7263
GE	-10.7268
oxy	-10.7268
▁ਬੀਜਿੰਗ	-10.7268
Color	-10.7269
ਸਾਨੂੰ	-10.7269
yi	-10.727
▁ਬਾਹੀ	-10.7271
▁ਦਾਖਲੇ	-10.7281
Month	-10.7281
ਉਸ	-10.7286
▁web	-10.7286
ਮਿੰਗ	-10.7288
ਰੋਨ	-10.729
▁ਐਕਸਪੋ	-10.729
▁ਰੰਗਦਾਰ	-10.7293
▁ਪੱਤੇ	-10.7294
ਜੂ	-10.7294
▁1100	-10.7301
▁ਡ੍ਰੈਗ	-10.731
▁ਤਹਿ	-10.7316
▁ਕਿੰਨਾ	-10.7317
UT	-10.7318
china	-10.7318
▁ਮਿਲੇ	-10.732
uro	-10.7323
▁ਸੋਲ	-10.7325
,000,000	-10.733
134	-10.7334
af	-10.7338
▁Bar	-10.7343
ਹੁ	-10.7343
▁ਭੂ	-10.7348
▁5.0	-10.735
pre	-10.7363
▁ਵਾਪਰ	-10.7364
▁ਭਾਗਾਂ	-10.7368
vid	-10.7369
ਲੀਆ	-10.737
ਐਗਜਾਮੀਨੈਸ਼ਨ	-10.737
▁Deepthroat	-10.737
▁Slackware	-10.737
▁ਝਰੋਖਾ	-10.737
▁ਟਾਰਗੇਟ	-10.737
▁ਪਰੋਸੈਸ	-10.737
▁ਬਾਦਸ਼ਾਹ	-10.737
▁ਮੁਹਿੰਮ	-10.737
▁ਮੰਚਨ	-10.737
▁ਸਕਾਰਾਤਮਕ	-10.737
▁CentOS	-10.737
▁Linux	-10.737
africa	-10.737
▁ਗਲੈਕਸੀ	-10.737
▁ਵੈਲਡਿੰਗ	-10.7371
▁ਥਾਈਲੈਂਡ	-10.7371
▁ਮਿੱਟੀ	-10.7372
punjabiquotes	-10.7373
▁ਸਿਹਤਮੰਦ	-10.7375
▁(0)	-10.7377
ville	-10.7378
ਮੁਫ਼ਤ	-10.7382
▁ਬੋਤ	-10.7384
▁ਸਾਂਝੇ	-10.7384
▁ਅਨੁ	-10.7385
▁ਹੈਂਡਲ	-10.7386
center	-10.7387
canada	-10.7392
▁720	-10.7394
▁ZY	-10.7394
▁ਹੀਟਿੰਗ	-10.7394
▁TM	-10.7394
▁(4)	-10.7395
▁ਜਨਤਾ	-10.74
ਟੋਰ	-10.7403
sure	-10.7404
PR	-10.7411
ਫ਼ਰ	-10.742
▁Dong	-10.7423
ada	-10.7424
430	-10.7435
▁1800	-10.7437
Show	-10.7438
zo	-10.7439
!!!	-10.7439
ਸਤਾਨ	-10.7439
630	-10.7447
▁alb	-10.7448
▁ਖੋ	-10.7453
▁ਤਦ	-10.746
▁ਡਿਊਟੀ	-10.746
▁ਐਟ	-10.7461
▁ਪੁੱਛੇ	-10.7464
base	-10.7469
CF	-10.747
▁other	-10.7473
▁ਭਾ	-10.7473
ਰੀਅਰ	-10.7474
ves	-10.7479
auto	-10.7481
▁ਟਰਾਂਸ	-10.7487
Ethiopian	-10.7488
Quebec	-10.7488
▁Mallari	-10.7488
▁System	-10.7488
▁command	-10.7488
▁inductor	-10.7488
▁ਨਿਰਧਾਰਿਤ	-10.7488
▁ਬਲਿਊਟੁੱਥ	-10.7488
▁ਮਾਨਸਿਕ	-10.7488
▁ਵਿਆਖਿਆ	-10.7488
▁ਸੁਨੇਹਿਆਂ	-10.7488
▁ਸੱਜਾ	-10.7488
▁ਗਣਰਾਜ	-10.7488
EMAIL	-10.7488
▁cheats	-10.7488
▁ਜ਼ੂਮ	-10.7488
yaanipedia	-10.7488
▁ਮੈਨੁਅਲ	-10.7488
▁ਫੀਡਬੈਕ	-10.7488
▁ਰੱਬ	-10.7489
▁ਪੇਪਾਲ	-10.7489
ਟੇਸ਼ਨ	-10.749
▁Tube	-10.7491
▁ਮੰਦਰ	-10.7491
▁ਸੁੱਖ	-10.7492
▁ਟਾਵਰ	-10.7493
quotes	-10.7493
ਔ	-10.7498
yuan	-10.75
▁ਤੰਦਰੁਸਤੀ	-10.7504
ਮਿੰਟ	-10.7504
size	-10.7507
▁ਬਣਿਆ	-10.7512
▁dd	-10.7513
▁ਸ਼ੋਅ	-10.7516
▁ਟੌ	-10.7517
DI	-10.7517
▁ਅਤਰ	-10.7518
▁Colle	-10.7522
▁ਖੋਲ੍ਹੀ	-10.753
▁70%	-10.7532
ਗਰੀ	-10.7535
▁ਕੀੜੇ	-10.7535
▁support	-10.7546
▁ਕੁੰਜੀਆਂ	-10.7547
▁data	-10.7548
ਹਨ	-10.7552
▁ਸੱਟ	-10.7552
▁ves	-10.756
ML	-10.7564
▁ਬਦਲਣਾ	-10.7566
ੱਕਰ	-10.7567
▁ਬਦ	-10.757
▁ਜੇਬ	-10.7571
ਪਾਲ	-10.758
part	-10.7583
dis	-10.7584
▁Type	-10.759
ਪਾਸ	-10.7593
ਰੀਅਲ	-10.7595
ouse	-10.7599
cat	-10.76
Port	-10.7605
▁123456	-10.7605
▁iSpyoo	-10.7607
▁ਘੰਟਾ	-10.7607
▁ਪਾਰਦਰਸ਼ੀ	-10.7607
▁ਪਿਛਲੀ	-10.7607
▁ਲਿਮਿਟਡ	-10.7607
▁ਵਾਪਿਸ	-10.7607
churchofchrist	-10.7607
▁ਪਿਘਲ	-10.7607
▁ਆਈਡੀਆ	-10.7607
▁ਸਿੱਕੇ	-10.7607
▁ਪੀੜ੍ਹੀ	-10.7607
▁ਜਾਪਦਾ	-10.7607
▁CHF	-10.7607
▁Products	-10.7608
▁ਦਿਖਾਉਣ	-10.7608
▁Charter	-10.7608
▁ਪੁੰਪ	-10.7608
▁ਬਲੇਡ	-10.7609
▁ਲੰਬੀ	-10.761
▁ਤਾਲਾ	-10.761
▁🇱	-10.7611
▁📱	-10.7611
Ch	-10.7613
▁ਹਾਲੀਆ	-10.7614
panel	-10.7615
▁ਸਟਰੀਮਿੰਗ	-10.7615
Search	-10.7617
▁ਸਵੇਰੇ	-10.7618
ਉਂਦੇ	-10.7619
▁ਉੱਚੇ	-10.7619
▁2500	-10.762
▁edu	-10.7622
▁Flight	-10.7624
▁ਲੈਪ	-10.7631
Porn	-10.7633
650	-10.7634
▁ਟੈਲੀ	-10.7635
ਬਾਕਸ	-10.7636
mpa	-10.7636
▁ਸਫਾ	-10.7639
▁ਸਾਗਰ	-10.764
▁ਡਾਇਰੈਕਟਰੀਆਂ	-10.7648
੍ਰੀ	-10.7648
ੱਟੀ	-10.765
▁ਇਕਾਈਆਂ	-10.7654
ਗ੍ਰਾਫ	-10.766
ਬਿਲ	-10.7662
ਰਸ਼	-10.7664
tin	-10.7665
▁ਤਾਰੇ	-10.7668
▁Mod	-10.7668
ega	-10.7674
▁ਸੈਕਸ	-10.7674
▁ਸ਼ੀ	-10.7686
5.00	-10.7686
▁Cas	-10.7687
aff	-10.7695
ਪਿਨ	-10.7701
▁ਅੰਦਾਜ਼	-10.7712
adi	-10.7713
mic	-10.7717
▁{1}	-10.7727
▁ਆਟੋਮੋਟਿਵ	-10.7727
▁ਐਕੁਆਰਿਅਮ	-10.7727
▁ਡੂੰਘੀ	-10.7727
▁ਦਸਤਾਨੇ	-10.7727
▁ਵਰਕਸ਼ਾਪ	-10.7727
▁ਪਹੀਏ	-10.7727
▁ਥੋੜਾ	-10.7728
▁4.5	-10.7728
▁ਚੂਚਕ	-10.7728
▁ਕਾਇਮ	-10.7728
▁Sharp	-10.7728
▁context	-10.7729
▁ਘਾਹ	-10.773
function	-10.7731
▁ਏਧਰ	-10.7732
ਯੁ	-10.7732
▁ਦੱਬੋ	-10.7732
▁ਵੇਖਣਾ	-10.774
FP	-10.7741
▁ਸੰਸਥਾਵਾਂ	-10.7743
▁city	-10.7745
len	-10.7746
▁ਏਰੀਆ	-10.7746
▁ਹਾਜ਼ਰ	-10.7747
Please	-10.7747
▁ਕ੍ਰਿਸ	-10.775
▁IS	-10.775
▁=%	-10.7751
ਇੰਗ	-10.7751
ਸਟੀਰ	-10.7757
ਫਾਰਮ	-10.7758
5,000	-10.7759
▁ਦੁਭਾਸ	-10.7761
ਥਾਈ	-10.7763
260	-10.7764
▁ਸੇਵਰ	-10.7765
▁ਸਥਾਨਾਂ	-10.7784
ਾਇਨ	-10.7786
▁ਐਕਸਗ	-10.7787
PA	-10.7789
▁ਕੇਰਲ	-10.7791
ND	-10.7792
▁twitter	-10.7793
▁ਬਚਾ	-10.7794
OO	-10.7794
ਅੰਤ	-10.7796
ਟਾਈਮ	-10.7804
cial	-10.7814
ਭਾਗ	-10.7814
▁users	-10.7817
▁ਧੁਰ	-10.7823
▁30%	-10.7824
▁view	-10.7838
proof	-10.784
▁ਕਰਾਸ	-10.7848
▁Hot	-10.7848
cuador	-10.7849
੬	-10.7849
▁flicker	-10.7849
▁iPod	-10.7849
▁ਜਾਵਾਸਕਰਿਪਟ	-10.7849
▁ਮੇਲ੍ਬਰ੍ਨ	-10.7849
▁ਰੇਖਿਕ	-10.7849
▁ਚਿਲਡਰ	-10.7849
current	-10.7849
▁ਮਾਜ਼ਦਾ	-10.785
▁ਟਰੱਸਟ	-10.785
▁ਰਸਤੇ	-10.7853
▁ਗਤੀਵਿਧੀਆਂ	-10.7853
lk	-10.7856
▁Change	-10.786
▁Bank	-10.786
▁ਦੌਰੇ	-10.7863
▁ਜਿਸਨੂੰ	-10.7864
230	-10.7866
ਿਜ਼	-10.7867
▁CPA	-10.7868
▁cr	-10.7874
706	-10.7877
▁ਪੂ	-10.7878
▁Ltd	-10.7887
agg	-10.7887
▁Back	-10.7892
lm	-10.7896
▁Har	-10.7899
▁ਅਪਰੈਲ	-10.7904
103	-10.791
▁language	-10.7913
ਕੰਮ	-10.7913
▁ਪਏ	-10.7914
ਜਰਮਨ	-10.7918
▁ਕਰੀਮ	-10.7918
ਫ਼ੀ	-10.7919
▁ਮੀਟ	-10.7923
▁don	-10.7928
pin	-10.793
▁ਪੈਰਿਸ	-10.7934
▁1080	-10.7936
hor	-10.7938
▁ਹਾਊਸ	-10.7939
▁follow	-10.7939
▁instagram	-10.7939
▁ਟ੍ਰੈਕ	-10.7948
ਾਰੇ	-10.795
на	-10.7961
▁ਜੋੜਾ	-10.7962
▁Day	-10.7962
▁email	-10.7963
▁CF	-10.7965
157	-10.7966
▁British	-10.7973
▁Tailoress	-10.7973
▁Twitter	-10.7973
▁ਆਯੋਜਿਤ	-10.7973
▁ਚਾੰਗਜ਼ੌ	-10.7973
▁ਨਵੀਨੀਕਰਨ	-10.7973
▁ਬ੍ਰਾਊਜ਼ਰ	-10.7973
▁ਮੁਲਾਂਕਣ	-10.7973
▁ਵਿਦਗਿਟ	-10.7973
▁ਸੰਕਲਪ	-10.7973
▁ਗਰਾਫਿਕਸ	-10.7973
Plugin	-10.7973
▁ਈਵੈਂਟ	-10.7973
▁ਪਰਚੂਨ	-10.7973
▁ਲਪੇਟ	-10.7973
▁ਧੂੜ	-10.7973
▁ਰਿਟਰਨ	-10.7973
▁ਕਰੇਗੀ	-10.7973
▁ਯਤਨ	-10.7973
▁VPN	-10.7973
▁ਲੋੜੀਦਾ	-10.7973
▁ਗਿਫਟ	-10.7974
▁ਚੀਟਿੰਗ	-10.7974
Track	-10.7974
▁ਅਸਥਾਈ	-10.7974
▁Black	-10.7974
▁ਸਕੋਗੇ	-10.7974
▁ਲੂੰਡ	-10.7975
▁👉	-10.7975
▁ਅੰਡਰ	-10.7975
punjabisuit	-10.7977
▁Javi	-10.7978
▁ਕੂਲਰ	-10.7981
▁ਬਾਬਾ	-10.7981
▁ਜੋਖਮ	-10.7983
▁ਵਰਕਰਜ਼	-10.7985
▁6000	-10.7985
0.8	-10.7986
ਹਾਇ	-10.7994
▁ਸ਼ਾਂਤੀ	-10.7994
▁ਵੈਸਟ	-10.7997
ਕ੍ਰਿ	-10.7999
▁used	-10.8
▁ਰਖ	-10.8
▁ਹਾਂਗ	-10.8004
▁ਵਿਦ	-10.801
▁ਬੈਂ	-10.8011
▁ਬਦਲੇ	-10.8011
river	-10.8013
▁ਮੀਲ	-10.8015
uss	-10.8015
▁vk	-10.8017
ani	-10.8017
▁ਵਪਾਰੀ	-10.8022
ਂਜ	-10.8023
pos	-10.8026
▁ਅਵ	-10.8026
▁96	-10.8029
ਸਕੋ	-10.8041
iam	-10.8044
ira	-10.8044
▁ਵਿਗਿਆਨੀ	-10.8045
▁ਬੈਠ	-10.805
gy	-10.8051
▁kt	-10.8052
▁TP	-10.8054
▁ਕਪ	-10.8056
▁ਭੇਜਣਾ	-10.8056
lite	-10.8066
ors	-10.8069
▁Pr	-10.807
2004	-10.807
▁ਭੇ	-10.8081
ਲਈ	-10.8082
▁ਬ੍ਰਾਜ਼ੀਲ	-10.8086
ਗਰਾਮ	-10.8087
▁work	-10.8091
ਰਾਗ	-10.8095
▁mx	-10.8098
ਗੁੜਗਾਓਂ	-10.8098
੮	-10.8098
▁Square	-10.8098
▁ਅਕੌਂਡੀ	-10.8098
▁ਖਿਡੌਣੇ	-10.8098
▁ਪੋਲਿਸਟਰ	-10.8098
▁ਬ੍ਰਹਿਮੰਡ	-10.8098
▁ਰੌਜਰਜ਼	-10.8098
▁ਸਰਹੱਦ	-10.8098
😍	-10.8098
Message	-10.8098
fashion	-10.8098
▁ਯੂਨੀਅਨ	-10.8098
▁ਛੂਟ	-10.8098
ਚੂਚੀਆਂ	-10.8098
ongolia	-10.8098
▁csgo	-10.8098
▁ਭਿੰਨ	-10.8099
ਫਿਲ	-10.8099
▁transaction	-10.81
▁ਕੋਰਲ	-10.8102
▁ਡਰੇਨ	-10.8103
XXX	-10.8105
▁ਜਿਨਾ	-10.8106
▁ਦਰਿਸ਼	-10.8106
▁ਤੀਬਰਤਾ	-10.8107
▁inter	-10.811
▁ਹਟਾਏ	-10.811
▁ਕਰਵਾਉਣ	-10.8114
▁ਰੋਟਰੀ	-10.8114
▁ਸਹੂਲਤਾਂ	-10.8114
▁ਭੈਣ	-10.8119
▁ਵਿਆਜ	-10.812
▁ਇੰਨ	-10.8125
▁Or	-10.8125
ਬਿਟ	-10.8126
▁sf	-10.8129
▁ਪੜਨ	-10.8129
▁ਵਿਦਿਆਰਥੀਆਂ	-10.8132
yan	-10.8133
ਪੂਰਬੀ	-10.8133
▁ਕੋਨੇ	-10.8135
ਿਅਨ	-10.8136
ਪੰਜਾਬੀ	-10.8141
▁Off	-10.8153
Pieces	-10.8153
ਰਾਡ	-10.816
sky	-10.8167
oon	-10.8172
ਾਊਨ	-10.8172
▁Neo	-10.818
ਧਰ	-10.8182
ਚੁ	-10.8182
▁1.8	-10.8184
▁ਆਊਟ	-10.8184
▁ਵਾਪਸੀ	-10.821
▁ਜਾਣੇ	-10.8211
▁8.1	-10.8213
sec	-10.8214
▁ਸਤ	-10.8215
mil	-10.8216
▁ਸ਼ੇਡ	-10.8217
▁Sand	-10.822
❤	-10.8224
▁Orphek	-10.8224
▁Pneumatic	-10.8224
▁dreambox	-10.8224
▁first	-10.8224
▁ਅਡਾਪਟਰ	-10.8224
▁ਅੱਯੂਬ	-10.8224
▁ਉਲੰਘਣਾ	-10.8224
▁ਮਾਮਲਿਆਂ	-10.8224
▁ਸੋਹਣੀ	-10.8224
▁Ethereum	-10.8224
▁ਪਰੇਸ਼ਾਨ	-10.8224
▁Lesson	-10.8225
▁ਸਮਾਗਮ	-10.8225
xBet	-10.8225
▁Island	-10.8225
build	-10.8225
▁ਕਮੇਟੀ	-10.8225
▁(2015)	-10.8225
▁changes	-10.8225
▁Website	-10.8225
▁ਸਟੋਰੇਜ	-10.8227
▁ਔਖਾ	-10.8228
▁ਕਲੋਨ	-10.823
MY	-10.8231
▁escom	-10.8235
▁ਪੈਂਦਾ	-10.8236
▁ਚਲਾਏ	-10.8237
▁ਵੱਖੋ	-10.8245
▁ਫਾਈਲਾਂ	-10.8249
;#	-10.825
205	-10.8254
View	-10.8257
China	-10.8257
ਪਛਾਣ	-10.8257
▁OR	-10.8258
-800	-10.8262
ਕਲਾ	-10.8262
▁ਪ੍ਰੈਸ਼ਰ	-10.8273
੍ਰੋ	-10.8273
ਲੈਸ	-10.8277
▁red	-10.8291
▁ਕੋਰੀਆਈ	-10.8292
▁UV	-10.8294
ANG	-10.8312
▁ਵੰਡਣ	-10.8314
▁ਫੀਲਡ	-10.8319
170	-10.8334
▁ਮੋਹਰ	-10.8336
▁ਨੂ	-10.8339
▁ਲੀਗ	-10.8343
-300	-10.8343
▁2.2	-10.8344
PO	-10.8344
▁ਜੂਆ	-10.8345
ਕ੍ਰ	-10.8346
heng	-10.8352
▁ਰੁਪਇਆ	-10.8353
SHYAlien	-10.8353
▁Columbia	-10.8353
▁ਐਕਸਪ੍ਰੈਸ	-10.8353
▁ਕਢਾਈ	-10.8353
▁ਗ੍ਰਾਹਕ	-10.8353
▁ਨਿਸ਼ਚਿਤ	-10.8353
▁ਪਰਿਵਰਤਕ	-10.8353
▁ਸੰਗ੍ਰਹਿ	-10.8353
▁ਉਚਿਤ	-10.8353
▁ਰਿਸ਼ਤਾ	-10.8353
▁DROP	-10.8353
▁trainer	-10.8353
▁ਰੁੱਖ	-10.8354
▁ਲਚਕਦਾਰ	-10.8354
▁ਸ਼ਾਖਾ	-10.8355
▁word	-10.8357
MSN	-10.8358
▁ਵਿਹਾਰ	-10.8359
▁but	-10.8359
▁Clash	-10.8362
▁Korea	-10.8362
Trade	-10.8364
▁ਪੀਸੀਬੀ	-10.8364
▁ਦੋਸ਼	-10.8365
▁ਮੋੜ	-10.8365
▁ਸੋਚਿਆ	-10.8366
▁ਐਲਈਡੀ	-10.8368
▁ਧੁਰਾ	-10.8369
▁DI	-10.8371
ੰਦਰ	-10.8374
gra	-10.838
pass	-10.8383
follow	-10.8388
instagram	-10.8389
▁ਪੇਸਟ	-10.8391
HY	-10.8396
tz	-10.8401
▁ਸਟੈ	-10.8401
ations	-10.8411
▁Cha	-10.8418
▁ਆਈਟੀ	-10.8421
▁LC	-10.8426
ool	-10.8426
lam	-10.8427
bat	-10.843
▁ਨਿਆਂ	-10.843
PH	-10.8432
ਸਟਨ	-10.8436
▁ਪੱਖਾ	-10.8437
ition	-10.844
877	-10.844
▁SP	-10.8448
HS	-10.8452
▁ਖਰੀਦਦਾਰੀ	-10.8455
ਤ੍ਰ	-10.8456
jet	-10.8459
ੂਰੀ	-10.8468
▁ਚੀਜ	-10.8473
▁509	-10.8481
▁Bowflex	-10.8483
shayari	-10.8483
▁ਕਾਰਟਰੇਜ	-10.8483
▁ਖੜ੍ਹੇ	-10.8483
▁ਝਰੋਖੇ	-10.8483
▁ਟਿਊਟੋਰਿਯਲ	-10.8483
▁ਥੋੜ੍ਹਾ	-10.8483
▁ਮੁਢਲੇ	-10.8483
▁ਵਾਅਦਾ	-10.8483
▁ਸਮੁੱਚੇ	-10.8483
▁ਹਥਿਆਰ	-10.8483
▁ਹਥੌੜੇ	-10.8483
▁ਪੋਰਟੇਬਲ	-10.8483
▁ਮਾਮਲਾ	-10.8483
▁ਦੌੜ	-10.8483
ਫਰਬਰੀ	-10.8483
▁ਪਲੇਅਬੈਕ	-10.8483
▁ਫਾਇਦੇਮੰਦ	-10.8483
▁ਸਸਤਾ	-10.8483
▁ਘੁੰਮਾਓ	-10.8483
▁string	-10.8483
▁role	-10.8486
▁ਅਲੱਗ	-10.8486
▁ਪੜ੍ਹਾਈ	-10.8488
ਗਿ	-10.8488
▁←	-10.849
▁ਦੱਸਦੀ	-10.8491
▁ਨਗਰ	-10.8491
▁ਕਤਲ	-10.8492
▁ਲੌਗ	-10.8492
pollywood	-10.8493
▁ਸਪੋਰਟ	-10.8498
163.	-10.8498
eller	-10.8501
▁ਸਬਜ਼ੀ	-10.8503
▁ਛੋਟ	-10.8508
ਜਿਸ	-10.8508
ੈੱਲ	-10.8509
ра	-10.8511
▁ਸਿਲ	-10.8513
To	-10.8515
▁ਮਰੀਜ਼ਾਂ	-10.8522
303	-10.8525
▁ਪੁਰਸ਼ਾਂ	-10.8527
oid	-10.8534
▁ਭਰਿਆ	-10.8534
▁Trac	-10.8543
ਪਿੰਗ	-10.8551
0.2	-10.8557
▁ਸਜਾਵਟੀ	-10.8562
ਂਦੀ	-10.8565
olo	-10.8566
▁ਬਲਿ	-10.8568
▁ਇਮ	-10.8571
▁ਸੰਬੰਧਤ	-10.8576
▁ਸ਼ੋਰ	-10.8579
-240	-10.858
8.5	-10.8585
db	-10.8592
▁ਡਾਇਰੈਕਟਰ	-10.8592
graph	-10.8596
▁ਖੋਲ੍ਹ	-10.8605
ਜਡ	-10.8606
▁ਲੰਘ	-10.8611
witch	-10.8614
▁SlotJar	-10.8614
▁contact	-10.8614
▁properly	-10.8614
▁ਅਸਿੱਧੇ	-10.8614
▁ਪਿੱਠਭੂਮੀ	-10.8614
▁ਪ੍ਰੋਟੈਕਸ਼ਨ	-10.8614
▁information	-10.8614
▁ਢਾਂਚੇ	-10.8614
▁ਨਿਲਾਮੀ	-10.8614
▁ਫਰੇਮਵਰਕ	-10.8614
▁heels	-10.8614
▁ਪ੍ਰਵੇਸ਼	-10.8614
▁DRK	-10.8614
▁ਮੰਡਲ	-10.8614
▁ਪੌਂਡ	-10.8615
▁ਮਿਲਿਅਨ	-10.8615
▁ਇਨਸਾਨ	-10.8616
▁ਸੰਕਟ	-10.8617
▁ਆਉਂਦਾ	-10.862
jiang	-10.862
▁ਬੱਡੀ	-10.8621
▁ਅਜਿ	-10.8622
▁Ind	-10.8622
ਬੁਲ	-10.8625
▁ਮਹਿਮਾਨ	-10.8628
но	-10.8628
▁ਵਾੜ	-10.8629
APK	-10.863
▁ਸੌਦਾ	-10.8631
▁Light	-10.8632
199	-10.8635
▁uk	-10.8639
▁ਲਾਸਾ	-10.8641
▁ਆਜ਼ਾਦੀ	-10.8641
EA	-10.8642
▁ਯੁ	-10.8642
▁mail	-10.8644
▁Tue	-10.8644
▁King	-10.8648
▁Posts	-10.8648
Do	-10.8649
▁ਜ਼ਰੂਰਤਾਂ	-10.8651
ਰੇਨ	-10.8652
▁ਨਵੀਆਂ	-10.8656
We	-10.8656
{0}	-10.8659
0.6	-10.8659
▁ਖੋਜਿਆ	-10.866
ਦਿਨ	-10.8662
▁ਚੜ੍ਹ	-10.8668
bon	-10.8676
▁(1,5	-10.8686
ਫਿਕਸ	-10.8691
▁ਸਰਵੇ	-10.8708
rent	-10.8711
ower	-10.8722
ates	-10.873
▁ਠੰਢ	-10.8732
135	-10.8734
arch	-10.8738
▁ਬੈਂਡ	-10.8742
▁03:	-10.8743
reef	-10.8743
▁ਲੰ	-10.8747
੪	-10.8747
ਨਾਇਜੀਰੀਆ	-10.8747
▁Ductile	-10.8747
▁translator	-10.8747
▁ਕਾਰਜਕੁਸ਼ਲਤਾ	-10.8747
▁ਦੁਪਹਿਰ	-10.8747
▁ਪੈਮਾਨੇ	-10.8747
▁ਗਣਿਤ	-10.8747
▁value	-10.8748
▁ਸੁਪਨਾ	-10.8748
▁ਪ੍ਰਦਾਤਾ	-10.8748
Control	-10.8748
▁tense	-10.8748
▁ਬੂਥ	-10.8748
▁ਲੋੜੀਦੇ	-10.8748
▁ਮਹਿੰਗਾ	-10.8749
▁ਹੈੱਡਰ	-10.8749
▁ਲੰਮੀ	-10.8749
▁ਬੰਨ੍ਹ	-10.875
▁ਸਿਲਵਰ	-10.875
article	-10.8751
▁ਫ਼ੋਨ	-10.8751
▁ਪਲਾਨ	-10.8751
▁ਪਹਿਲੂ	-10.8751
▁ਭਾਅ	-10.8752
▁ਇੰਜਨ	-10.8752
▁ਸੂਬਾ	-10.8752
▁ਵੇਖਾਇਆ	-10.8754
▁Tools	-10.8756
▁ਡਾਕ	-10.8756
▁ATV	-10.8758
▁ਮਹਿ	-10.8759
index	-10.8759
Work	-10.8759
▁ਪਟ	-10.8759
▁Valentines	-10.8762
▁ਵਰਗੀ	-10.8763
▁ਕਹਾਣੀਆਂ	-10.8765
▁only	-10.8774
▁🔥	-10.8777
ਤੋਂ	-10.8778
▁ਪੋਸਟਰ	-10.878
▁ਸਟਾਰਟਰ	-10.878
ਬਾਨ	-10.8781
▁ਨਿਸ਼ਾਨਾ	-10.8788
▁ਨਿੱ	-10.8789
▁06:	-10.8796
▁ਬਣੋ	-10.8799
ੈਟਿਕ	-10.88
ਬੱਧ	-10.8804
-150	-10.8804
ੀਵ	-10.8808
▁4.4	-10.8811
lot	-10.8811
▁ਬੈਚ	-10.8816
ਪੈਕ	-10.8816
song	-10.8817
▁MI	-10.8827
format	-10.8827
▁ਵੋਟਰ	-10.8829
ode	-10.883
▁ਸ਼ਾਹ	-10.8835
▁Transposh	-10.8839
▁ਅਧਿਕਾਰਾਂ	-10.8841
fin	-10.8842
▁ਲੱਗਣ	-10.8844
ਪੂਰਨ	-10.8847
ਹੈਲਥ	-10.8849
cam	-10.8849
ਜੁ	-10.8851
▁0.8	-10.8856
▁ਵਧਣ	-10.8859
▁track	-10.886
ਟਰੋ	-10.886
▁0.9	-10.8869
▁ਸਵੇਰ	-10.8871
ration	-10.8877
▁ਹਾਲਤਾਂ	-10.8881
▁ਧਮਾਕਾ	-10.8883
▁ਰੁਜ਼ਗਾਰ	-10.8883
Ctrl	-10.8883
▁ਕੈਟਾਗਰੀ	-10.8883
▁ਕੋਨਕਿਉਰੋਰ	-10.8883
▁ਪਿੰਜਰੇ	-10.8883
▁ਫਿਟਨੈਸ	-10.8883
▁ਫੋਟੋਗਰਾਫ਼	-10.8883
▁ਸਟੂਡੀਓ	-10.8883
▁ਸਫਲਤਾਪੂਰਕ	-10.8883
	-10.8883
▁multi	-10.8883
▁south	-10.8883
▁ਕੈਂਸਰ	-10.8883
▁ਗੂੜ੍ਹ	-10.8883
▁folder	-10.8883
▁ਨਾਇਰਾ	-10.8883
▁ਇਕੱਤਰ	-10.8883
▁element	-10.8883
▁ਪੀੜਤ	-10.8883
▁ਚਰਬੀ	-10.8883
▁ਕੱਲ੍ਹ	-10.8883
▁display	-10.8883
package	-10.8884
▁ਲਗਾਇਆ	-10.8885
band	-10.8893
▁ਬਰਫ਼	-10.8899
▁ਲਾਂਚਰ	-10.8899
▁ਬਣੀ	-10.8903
▁£5	-10.8904
▁(£	-10.8907
🙏	-10.8915
0.01	-10.8916
ਾਈਆਂ	-10.8922
▁ਅਦਾ	-10.8929
ੁਅਲ	-10.893
▁Ru	-10.8932
▁Pos	-10.8932
106	-10.8938
▁ਪਦਾਰਥਾਂ	-10.8938
▁Tai	-10.8938
▁content	-10.8942
▁7.5	-10.895
ਠੇ	-10.8957
▁ਮਾਪੇ	-10.8957
dir	-10.8958
▁ਹਿੱਲ	-10.8965
▁pm	-10.8969
▁1999	-10.8973
png	-10.8978
2011	-10.8979
user	-10.8979
▁ਚੋਣਕਾਰ	-10.898
▁off	-10.8982
▁ਵੇਲ	-10.8993
ubric	-10.8995
GI	-10.8997
▁ਖੋਜਣ	-10.9012
▁ਰਾਸ਼ਟਰ	-10.9013
engal	-10.9013
▁ਸਾਈਟਾਂ	-10.9014
▁top	-10.9019
▁ਇਸ਼ਤਿਹਾਰ	-10.9019
plugin	-10.902
ਨੇਡਿਆਈ	-10.902
▁Metatrader	-10.902
▁ਨਿਊਯਾਰਕ	-10.902
▁ਪਾਈਥਨ	-10.902
▁ਪੀਟੀਐਫਈ	-10.902
▁ਸੰਕਟਕਾਲੀਨ	-10.902
▁ਹਵਾਈਅੱਡਾ	-10.902
▁ਬਾਈਨਰੀ	-10.902
▁ਸਿਤਾਰੇ	-10.902
norway	-10.902
second	-10.902
▁****	-10.9021
▁ਰਸਤਾ	-10.9021
▁ਮਿਕਸ	-10.9021
▁Jiang	-10.9022
▁Iris	-10.9022
▁ਚਲਾਉ	-10.9022
girl	-10.9023
▁ਡੈਮੋ	-10.9024
▁↑	-10.9024
▁Estonia	-10.9025
▁ਦਸਤੀ	-10.9027
▁ਬਾਰਡਰ	-10.9027
▁ਨਸਲ	-10.9028
▁ਨਿਯਮਿਤ	-10.903
Total	-10.9031
▁ਰਾਖਵੇ	-10.9036
▁ਭਾਸਾ	-10.9039
▁ਅਨੁਕੂਲਿਤ	-10.9039
ographic	-10.904
▁6.0	-10.9043
▁ਬੰਬ	-10.9043
▁ਖ਼ਬਰਾਂ	-10.9047
ਟਿਸ	-10.9051
▁ਖਰੀਦਦਾਰ	-10.9054
exe	-10.906
TY	-10.9062
add	-10.9072
ਅਧਾਰਿਤ	-10.9074
New	-10.9074
▁ਕਿਸਾਨ	-10.9075
▁ਕਾਮੇ	-10.9078
▁Tra	-10.9079
▁ਡੂੰਘੇ	-10.9085
Un	-10.9085
ਫਲੋ	-10.91
MO	-10.91
਼ੇ	-10.9102
▁ਟਰੈਕਿੰਗ	-10.9102
▁ਸਿੱਧੀ	-10.9109
਼ੂ	-10.911
▁ਬਿੱਲੀਆ	-10.911
▁ਲਾਟ	-10.9111
6.0	-10.9113
ੌਂ	-10.9117
▁Tian	-10.912
▁ਕਿਸ਼ਤੀ	-10.912
ਰੂਪ	-10.9122
och	-10.9123
▁ਪਿਆਰੇ	-10.9134
cro	-10.9139
▁format	-10.9147
▁ਸ਼ਰਤ	-10.9149
304	-10.9149
▁ਕਾਰਜਾਂ	-10.9153
September	-10.9158
aribbean	-10.9158
੯	-10.9158
▁Skype	-10.9158
▁extruder	-10.9158
▁ਅਕੈਡਮੀ	-10.9158
▁ਦਬ੍ਲੁ	-10.9158
▁reply	-10.9158
▁ਇਸ਼ਾਰਾ	-10.9158
▁ਅੱਡੇ	-10.9159
Status	-10.9159
▁ਗਰਾਫ਼	-10.9159
▁ਸਿਆਸੀ	-10.9159
▁ਅਜੀਬ	-10.9159
cover	-10.9159
▁CVS	-10.9159
▁ਸਲੋਵਾਕੀਆ	-10.9159
▁ਸੈਟਅੱਪ	-10.916
eorgia	-10.916
▁ਬਰਬਾਦ	-10.916
punjabistatus	-10.9161
▁ਕੋਰੀਆ	-10.9162
▁ਬਣਾਉਂਦੀ	-10.9162
▁!!	-10.9163
▁ਸਿਵਲ	-10.9165
▁With	-10.9171
▁ਸੈਕਸ਼ਨ	-10.9174
▁ਦੇਖਦੇ	-10.9176
▁ਰਾਜਾਂ	-10.9177
▁ਸੈਮੀ	-10.9178
▁ਆਇਆਂ	-10.9181
▁ਹੀਰੋ	-10.9183
CAD	-10.9184
▁Plane	-10.9188
▁ਨਿਜੀ	-10.9189
▁Cann	-10.9193
ckets	-10.9193
ALL	-10.9195
▁mode	-10.9197
▁ਐਕਸਐਨਯੂਐਮਐਕਸ	-10.9202
▁ਮਸੀਹੀ	-10.9202
▁ਜਿੱਤਣ	-10.9204
▁1300	-10.9205
0.4	-10.9207
▁ਮੈਥ	-10.9226
▁High	-10.9226
8.3	-10.9232
▁tool	-10.9236
▁1.6	-10.9241
(33)	-10.9253
▁Bra	-10.9253
▁ਕੀਮਤੀ	-10.926
RPM	-10.9263
130	-10.9267
▁creat	-10.9268
▁MM	-10.927
▁ਯੂਰੋਪ	-10.9272
777	-10.9276
ique	-10.9279
▁Gi	-10.9285
▁system	-10.9287
ਲੀਅਨ	-10.9291
116	-10.9291
▁ਕੱਢਣ	-10.9292
▁World	-10.9299
â	-10.9299
′′	-10.9299
▁Africa	-10.9299
▁Queclink	-10.9299
▁ਆਰਕੀਟੈਕਚਰ	-10.9299
▁ਇੰਡਸਟਰੀ	-10.9299
▁ਕਾਨਫਰੰਸ	-10.9299
▁ਤਿੱਕੜੀ	-10.9299
▁ਪੁਰਤਗਾਲ	-10.9299
▁ਪ੍ਰਵਾਨਗੀ	-10.9299
▁ਪ੍ਰਾਈਵੇਸੀ	-10.9299
▁ਬਜ਼ੁਰਗ	-10.9299
í	-10.9299
▁ਬਲਾੱਗ	-10.9299
▁ਮੁੰਡੇ	-10.9299
▁ਸਾਈਟਮੈਪ	-10.9299
▁NZD	-10.9299
▁ਸਰਜਰੀ	-10.9299
craft	-10.9299
▁ਨਾਰਵੇ	-10.93
▁ਰੇਂਜ	-10.93
▁rules	-10.93
Token	-10.9301
▁just	-10.9302
▁ਤੁਰਕੀ	-10.9305
▁Aqua	-10.9305
▁ਮੱਤੀ	-10.9305
▁ਅਲੀ	-10.9306
▁ਮੋਟੋ	-10.9306
▁ਘਟਨਾਵਾਂ	-10.9308
ez	-10.931
ency	-10.9314
▁ਆਰੀਆ	-10.9322
▁ਫਾਸਟ	-10.9325
▁ਟਿਊਟੋਰਿਅਲ	-10.9343
roll	-10.9346
▁2.9	-10.9356
ਆਪਣੇ	-10.9363
source	-10.9365
watch	-10.9365
▁ਵਰਕਰ	-10.9372
off	-10.9389
▁ਜਿਨ	-10.9403
▁Fun	-10.9408
▁ਪ੍ਰਭਾਵੀ	-10.9411
▁ਬੁਨਿਆਦ	-10.9413
▁140	-10.9414
▁Hai	-10.9414
▁ਬੋਲਣ	-10.9419
ਕਾਰਡ	-10.9421
rad	-10.9422
▁URLs	-10.9427
udi	-10.943
▁ਸ਼ਬਦਾਂ	-10.943
▁Ya	-10.9431
wan	-10.9436
▁ਜਿੰਨਾ	-10.944
▁Share	-10.944
couple	-10.944
ਕ੍ਰਿਪਸ਼ਨ	-10.9441
▁ਧੁੰਦ	-10.9442
▁COMMAND	-10.9442
▁CSGO	-10.9442
▁settings	-10.9442
▁ਕਿਲੋਗ੍ਰਾਮ	-10.9442
▁ਗ਼ਲਤ	-10.9442
▁ਘੰਟੀ	-10.9442
▁ਨਜਿੱਠਣ	-10.9442
▁ਪਹਿਨਣ	-10.9442
▁ਮਾਈਕਰੋਸਾਫਟ	-10.9442
▁ਕਲੀਨਰ	-10.9442
▁Rental	-10.9442
▁Multi	-10.9442
▁ਟ੍ਰਾਂਸਫਰ	-10.9443
▁ਪ੍ਰੋਫਾਇਲ	-10.9443
▁ਕ੍ਰਮਬੱਧ	-10.9443
▁Youtube	-10.9444
▁ਅੰਡੇ	-10.9444
▁ਧਿਰ	-10.9444
▁ਪਲਾਂਟ	-10.9444
swag	-10.9447
▁ਪੋਟ	-10.9449
▁ਉਪਭੋਗਤਾਵਾਂ	-10.9451
▁Team	-10.9452
▁ਕੰਪ	-10.9452
▁want	-10.9454
met	-10.9459
preet	-10.946
opt	-10.9471
ਐਂ	-10.948
▁304	-10.9489
▁ਗਲਤੀਆਂ	-10.9493
ਉਲ	-10.9493
uri	-10.9499
▁their	-10.9502
9.5	-10.9506
ਡਬਲਯੂ	-10.9509
ਸਿਸਟਮ	-10.9509
ਚੋਂ	-10.9525
ili	-10.9539
▁ਦੱਸਣ	-10.9547
case	-10.9552
▁ਆਜ਼ਾਦ	-10.9558
▁UN	-10.9583
ੳ	-10.9585
▁Navtelecom	-10.9587
▁ਅਸੰਭਵ	-10.9587
▁ਐਤਵਾਰ	-10.9587
▁ਨਿਰੀਖਣ	-10.9587
▁ਪ੍ਰਮਾਣਿਕਤਾ	-10.9587
▁ਮੀਡਿਅਮ	-10.9587
▁ਮੁਸ਼ਕਿਲ	-10.9587
▁ਰੋਕਥਾਮ	-10.9587
▁ਅਫਸਰ	-10.9587
▁ਐਕਟੀਵੇਟ	-10.9587
▁ਗੁੱਸੇ	-10.9587
▁ਸੁਕਾਉਣ	-10.9587
▁ਅਸੀ	-10.9587
▁ਇੰਡੀਆ	-10.9587
control	-10.9587
▁{{	-10.9588
black	-10.9589
▁ਜਾਗਰੂਕਤਾ	-10.9589
▁poly	-10.959
▁Super	-10.9591
▁ਡਰੈਸ	-10.9591
▁ਓਵਨ	-10.9591
film	-10.9594
▁Oven	-10.9596
690	-10.9599
ਮੰ	-10.9599
▁09:	-10.9603
▁Anti	-10.9607
cheng	-10.9608
▁LCD	-10.9609
▁ਲਿਓ	-10.961
▁Heng	-10.9612
▁ਜ਼ੈ	-10.9614
Turn	-10.9615
▁ਕਣ	-10.9618
▁ਮੇਨ	-10.9618
ious	-10.9619
UI	-10.962
ਵੈਲ	-10.962
▁show	-10.9627
afe	-10.9628
ask	-10.9629
▁ਫੌਜੀ	-10.9636
▁ਜੁਡ਼ੋ	-10.9639
ੀਅਸ	-10.964
oni	-10.9641
▁ਮਰਦਾਂ	-10.9646
▁ਰੋਧਕ	-10.9661
▁ਸੋਧਿਆ	-10.9661
ਸੁਪਰ	-10.9661
-07-	-10.9664
▁Bur	-10.9665
ection	-10.9678
▁Sun	-10.968
▁ਬੋਰ	-10.9697
ਸਟਰੀ	-10.9704
FL	-10.9706
▁ਕਾਰਟ	-10.9708
ਟਾਲ	-10.9717
▁XR	-10.9722
á	-10.9734
▁ਕੈਮੀਕਲ	-10.9734
▁ਡਿਟੈਕਟਰ	-10.9734
▁ਦੂਸਰੇ	-10.9734
▁ਨਾਈਟ੍ਰੋਜਨ	-10.9734
▁ਬੇਤਰਤੀਬ	-10.9734
▁ਮੁੱਢਲੀ	-10.9734
▁ਜ਼ਖ਼ਮ	-10.9734
▁ਸਮੇਟੋ	-10.9734
▁ਭਾਗੀਦਾਰ	-10.9734
▁ਟਰੇਨਿੰਗ	-10.9734
global	-10.9734
▁ਅਪੀਲ	-10.9735
▁MOQ	-10.9736
funny	-10.9737
lder	-10.9737
▁(5)	-10.974
▁ਲੜਕੀ	-10.9742
Network	-10.9743
ст	-10.9747
atvia	-10.9748
▁ਧਾਰਕ	-10.975
ival	-10.975
▁make	-10.9753
▁ਦਬਾਉਣ	-10.9753
▁ਪੱਤਰਕਾਰ	-10.9767
ਲ਼	-10.9772
▁Cap	-10.9776
▁247	-10.9782
yr	-10.9782
▁ਡਾਕਟਰੀ	-10.9782
uo	-10.98
wei	-10.9802
2014	-10.9804
ਸੰਭਾਲ	-10.9808
ਔਰਤ	-10.9811
ਸਵੀਕਾਰ	-10.9811
606	-10.9812
OU	-10.9813
ime	-10.9814
▁ਪਹਾੜੀ	-10.982
tec	-10.9821
ISO	-10.9824
▁ਪ੍ਰਯੋਗਾਂ	-10.9829
▁ਇਤਾਲਵੀ	-10.9835
HP	-10.9838
uru	-10.9842
▁ਸਾਧਨਾਂ	-10.9844
▁(36	-10.9844
▁ਅਪਣਾ	-10.985
▁ਲੱਗਿਆ	-10.9854
▁ਜਾਣੂ	-10.9869
▁ਟਿਊ	-10.9876
▁ਲੰਬਾ	-10.988
136	-10.9882
à	-10.9883
▁method	-10.9883
Gilks	-10.9883
germany	-10.9883
portugal	-10.9883
▁ਇੰਟਰਪਰਾਈਜ਼	-10.9883
▁ਨਿਰਵਿਘਨ	-10.9883
▁ਵਾੱਸ਼ਰ	-10.9883
▁ਸਿਲੀਕੋਨ	-10.9883
▁ਮੰਗਲਵਾਰ	-10.9883
ü	-10.9883
▁ਖੁੱਲ੍ਹਣ	-10.9883
▁ਸੁਵਿਧਾ	-10.9883
▁ਸੁਸਤੀ	-10.9883
▁FAQ	-10.9884
▁LTD	-10.9884
JPY	-10.9884
▁Office	-10.9884
▁ਬੱਚਾ	-10.9885
▁ਫੇਜ਼	-10.9885
▁ਚੁਸਤ	-10.9886
▁ਅੰਬਰ	-10.9887
uba	-10.9889
▁ਮਾਈਕਲ	-10.9891
▁RAM	-10.9891
▁ਤ੍ਰਿ	-10.9892
▁Inter	-10.9893
▁ਇਕਸਾਰਤਾ	-10.9893
cache	-10.9894
▁ਕਿੰਨੀ	-10.9895
▁ਤਜਰਬੇਕਾਰ	-10.9895
▁(8)	-10.9896
▁ਰੀਵਰ	-10.9904
▁ਵਾਇ	-10.9905
▁ਸਮੀਖਿਆਵਾਂ	-10.9913
126	-10.9919
4.0	-10.993
▁ਦਬਾ	-10.9934
ਵਾਇਰ	-10.9943
▁ਰੈਪ	-10.9943
▁230	-10.9944
▁ਐਕਸਯੂ	-10.9944
▁comment	-10.995
lead	-10.9952
dian	-10.9953
▁default	-10.9954
▁General	-10.9954
▁OFF	-10.9962
165	-10.9972
ਕੜ	-10.9979
▁ਫ਼ਰਜ਼	-10.998
ਹਵਾਈ	-10.9983
899	-10.9983
▁Real	-10.9984
▁05:	-10.9987
▁ਨਮ	-10.9989
iya	-10.9989
▁RM	-10.999
▁ਸਕੈਨਰ	-10.9993
ਚੈਨ	-10.9997
nz	-10.9997
▁ਲਾਂਚ	-11.0016
ਭਾਸ਼ਾ	-11.0027
▁Punjab	-11.003
2-3	-11.0031
ੰਝ	-11.0034
▁April	-11.0035
erverAdmin	-11.0035
▁ਇੰਟਰਐਕਟਿਵ	-11.0035
▁ਕੈਲਸ਼ੀਅਮ	-11.0035
▁ਬਰ੍ਲਿਨ	-11.0035
▁document	-11.0035
▁ਸਪੈਸ਼ਲ	-11.0035
▁IMAP	-11.0035
▁north	-11.0035
egypt	-11.0035
▁ਅਰੋਮਾ	-11.0035
▁ਦਰਾੜ	-11.0035
▁present	-11.0035
▁ਕਿਹੜਾ	-11.0035
▁ਰੇਸ਼ਮ	-11.0035
▁ਸਕਰੋਲ	-11.0035
▁ਮਾਈਕ੍ਰੋ	-11.0035
▁ਫ਼ਿਲਮ	-11.0035
▁ਵਾਸੀਆਂ	-11.0035
friend	-11.0035
▁ਪੌਦਿਆਂ	-11.0035
▁ਮੁੱਦਿਆਂ	-11.0036
▁ਪੁੰਜ	-11.0037
▁ਬਕਾਇਆ	-11.0037
ко	-11.0037
▁Hydr	-11.0038
▁also	-11.0038
punjabisong	-11.0038
▁ਚਮਕਦਾਰ	-11.0039
▁ਮਕਾਨ	-11.004
▁ਮੋਟਾ	-11.004
▁ਛਾ	-11.0042
▁ਹੈਂਡਰ	-11.0046
ਯਾਰ	-11.0049
▁KB	-11.0049
▁ਹਾਰਲੇ	-11.0051
3000	-11.0054
ੈਂਕ	-11.0055
ਮਿਟ	-11.0057
010	-11.0058
▁ਯੋਜਨਾਵਾਂ	-11.0058
▁ਬ੍ਰਾ	-11.0061
▁FX	-11.0069
Add	-11.0071
Direct	-11.0071
ਰੇਲ	-11.0077
▁ਸਵੀਡਨੀ	-11.0077
MHz	-11.0082
▁ਰੀਫ਼	-11.0082
chen	-11.0087
miss	-11.009
ਤੁਰਕ	-11.0092
data	-11.0092
▁POR	-11.0095
੍ਰੈ	-11.0098
▁20%	-11.0099
▁ਰੂਲ	-11.0101
ette	-11.0101
ਐਂਡ	-11.0105
▁ਮਿਸਰ	-11.0106
abi	-11.0107
▁Strapon	-11.0107
lli	-11.0107
960	-11.0113
▁Now	-11.0114
▁ਛੱਡਿਆ	-11.0115
wall	-11.0116
▁ਗੁਣਾ	-11.0117
ਪਸੰਦ	-11.012
select	-11.0122
▁version	-11.0132
ਦੋਹਰਾ	-11.0144
▁($	-11.0155
map	-11.0159
ਭਾਵ	-11.0162
▁ਸੂਰਜੀ	-11.0168
▁ਲੰਮਾ	-11.0172
▁ਪੁਲ	-11.0182
ਾਊਂਡ	-11.0187
▁ਸੈਕਰੋਨਾਈਜ਼	-11.0188
▁America	-11.0189
▁ObjectClass	-11.0189
▁ਅਟਲਾਂਟਿਕ	-11.0189
▁ਆਕਰਸ਼ਕ	-11.0189
▁ਪੁਰਾਤਨ	-11.0189
▁ਪ੍ਰਾਚੀਨ	-11.0189
▁ਬਾਇਓਡਾਟਾ	-11.0189
▁ਬੁੱਧੀਮਾਨ	-11.0189
▁ਸੈਟੇਲਾਈਟ	-11.0189
▁ਸੰਚਲਿਤ	-11.0189
▁ਸੰਰਚਿਤ	-11.0189
▁ਸੱਟੇਬਾਜ਼ੀ	-11.0189
107	-11.0189
▁ਉੱਨ	-11.0189
▁ਮੋਢੇ	-11.0189
▁ਹਫ਼ਤਾ	-11.0189
❖	-11.0189
▁ਸੁਰਖੀ	-11.0189
Standard	-11.0189
▁ਖਤਰੇ	-11.0189
▁shell	-11.0189
▁ਅਸੀਮਤ	-11.0189
▁ਟਰਾਂਸਫਰ	-11.0189
▁ਸਸਤੀ	-11.019
159	-11.019
town	-11.0192
▁ਭਰਪੂਰ	-11.0193
▁ਯੇਨ	-11.0193
▁ਸਾਰਿਆਂ	-11.0194
▁ਡਾਟੇ	-11.0195
▁ਪੁੱਛਗਿੱਛ	-11.0198
▁ਐਕਸੈਸ	-11.0199
ocus	-11.0199
kaur	-11.0206
▁ਸੁਣਿਆ	-11.0208
▁ਮਾਪਣ	-11.0208
▁Art	-11.021
▁ਗੇਟ	-11.021
▁ਫਰਮਾ	-11.0224
hour	-11.0226
0-1	-11.0227
7.5	-11.0231
▁ਪੁੱਛਿਆ	-11.0241
▁ਕੇਸਾਂ	-11.0241
▁ਬੀਬੀ	-11.0246
319	-11.0249
▁book	-11.0252
▁ਲੂਪ	-11.0257
ਮਨੀ	-11.0273
mag	-11.0274
3.1	-11.0278
ਪਰੋ	-11.0278
×	-11.0279
▁symbol	-11.0279
▁Mana	-11.028
006	-11.0282
▁ਵਿਲ	-11.029
Time	-11.0291
▁ਵੈਨ	-11.0299
safe	-11.0306
7.00	-11.0306
▁GV	-11.0308
▁ਫਰਮ	-11.031
jan	-11.031
ope	-11.0311
coc	-11.0314
ould	-11.0315
232	-11.0322
▁ਕੋਸ਼	-11.0323
ੋਲੋਨ	-11.0326
vice	-11.0329
gov	-11.0331
▁CN	-11.0332
fan	-11.0333
bri	-11.0338
1.1	-11.0338
ae	-11.034
Temp	-11.0342
▁Royale	-11.0345
▁Українська	-11.0345
▁ਅਤੇਿਨਕਾਸ	-11.0345
▁ਕੋਨਕਿਊਰੋਰ	-11.0345
▁ਮਜਬੂਤ	-11.0345
▁ਵਿਦਿਅਕ	-11.0345
▁ਸਸਪੈਂਡ	-11.0345
▁ਸੂਚਿਤ	-11.0345
੭	-11.0345
▁ਬਜਾਜ	-11.0345
▁ਉਪਾਅ	-11.0345
▁ਲਸਣ	-11.0345
request	-11.0345
▁ਦਾਊਦ	-11.0345
▁ਧਾਰਮਿਕ	-11.0345
▁Villa	-11.0345
▁ਕੈਪਸੂਲ	-11.0345
▁ਬਿੱਟਰੇਟ	-11.0346
▁ਰੂਹ	-11.0346
punjabiwedding	-11.0347
▁ਬਰੈਕਟ	-11.0347
product	-11.0347
▁ਪਹੀਆ	-11.0347
▁ਫਸਲ	-11.0347
▁ਕੋਇਲ	-11.0348
▁ਵੇਖਾਏ	-11.0348
▁ਪੋਲੈਂਡ	-11.0349
▁ਪੋਕਰ	-11.035
▁ਯੋਗਾ	-11.0351
▁ਮੂਵੀ	-11.0352
▁ਅਰਧ	-11.0352
▁ਗਰੀਬ	-11.0353
ben	-11.0354
▁ਲਿਖਣਯੋਗ	-11.0356
▁ਚੱਲਦੀ	-11.0359
▁ਕਾਸਟਿੰਗ	-11.0359
▁ਸੌਨਾ	-11.036
▁px	-11.0363
▁ਇਲ	-11.0367
▁Alam	-11.0367
▁ਕੈਸ	-11.0367
▁ਸਮਝਿਆ	-11.037
▁ਮਿਲਦੇ	-11.0373
1-3	-11.0375
▁ਸ਼ਾਟ	-11.0378
138	-11.0378
UP	-11.0379
▁ਉੱਚਾ	-11.0383
▁ਕਰਦਿਆਂ	-11.0385
▁QC	-11.0388
▁ਰਿਹਾਇਸ਼ੀ	-11.0391
▁Market	-11.0391
▁ਸੀਮਤ	-11.0392
uni	-11.0397
ਮੇਟ	-11.0398
Com	-11.04
hd	-11.0406
▁ਸਰਵਿਸਾਂ	-11.0407
8.00	-11.0408
▁ਸੌਣ	-11.0414
ੋਇਡ	-11.0415
▁ਸਵਾਰੀ	-11.0421
▁ਫੀਡਰ	-11.0425
ੀਓਸ	-11.043
book	-11.0432
▁ਸੋਧੋ	-11.0436
▁Bro	-11.0436
—	-11.0436
▁ਬ੍ਰਿਜ	-11.0437
ਹੁਣ	-11.044
ਸੰਗੀਤ	-11.044
ਅੱਠ	-11.045
▁ਕੱਟਣਾ	-11.045
2.40	-11.0455
▁ਖੁਸ਼ਕ	-11.0459
▁Code	-11.0462
▁ਵਹ	-11.0465
ਸ਼ੀਆ	-11.0469
ਕਰੋ	-11.0469
▁ਮੈਂਬਰਾਂ	-11.0473
▁ਖ਼ੁਸ਼	-11.0474
▁ਕਲਮ	-11.0484
sardar	-11.0498
▁ਨਵੀਨਤਾ	-11.0503
^	-11.0504
Unknown	-11.0504
onduras	-11.0504
▁Bamboo	-11.0504
▁quality	-11.0504
▁ਆਰਾਮਦਾਇਕ	-11.0504
▁ਕਲੀਸਿਯਾ	-11.0504
▁ਥੋੜ੍ਹੇ	-11.0504
▁ਭਵਿੱਖਬਾਣੀ	-11.0504
▁ਰਗੜ	-11.0504
▁ਸਟਿੱਪਰ	-11.0504
Orgasms	-11.0504
▁ਤਿੱਖਾ	-11.0504
▁controller	-11.0504
▁ਬੱਚਤ	-11.0504
▁ਲੀਨੀਅਰ	-11.0504
▁LLC	-11.0504
▁wordpress	-11.0504
Config	-11.0504
▁ਕਰਾਂਗਾ	-11.0505
pdf	-11.0505
▁ਰਿਆਲ	-11.0505
▁ਟ੍ਰਾਂਸ	-11.0505
▁ਕਲਾਇੰਟ	-11.0507
ondale	-11.0507
▁ਰਨਰ	-11.0507
▁ਨਿਰਾਸ਼	-11.0507
RP	-11.0507
▁Chang	-11.0508
▁GUI	-11.0511
▁ਖੜ	-11.0512
▁win	-11.0514
▁ਐੱਲ	-11.0514
▁peru	-11.0516
▁Full	-11.0516
▁most	-11.0518
▁ਉਪਯੋਗਤਾ	-11.0521
▁2.1	-11.0522
▁POP	-11.0523
kr	-11.0524
wo	-11.0528
▁sur	-11.0529
market	-11.053
▁ਇਲੈਕਟ੍ਰਾਨਿਕਸ	-11.0551
▁ਫੇਸ	-11.0557
gain	-11.0567
ਟੱਚ	-11.0571
▁ਵੱਡੀਆਂ	-11.0575
6.00	-11.0582
▁source	-11.0591
▁ਬਾਈਟ	-11.0599
▁Fran	-11.06
▁ਖਿੱਚਣ	-11.06
007	-11.06
status	-11.0601
aze	-11.0603
ਐੱਫ	-11.0603
ਪੱਤਰ	-11.0606
RY	-11.0609
▁1/2	-11.0617
▁ਮੈਂਬਰੀ	-11.0618
ਬਿਨ	-11.062
It	-11.0621
▁ਐਥ	-11.0622
ਬੈਕ	-11.0626
rch	-11.0626
kW	-11.0634
▁ਪ੍ਰਕਾਸ਼ਨ	-11.0639
▁LI	-11.0646
▁filter	-11.0646
▁ਰਹ	-11.0647
.08.20	-11.0652
▁ਝੂਠ	-11.0652
▁ਖਰੀਦਿਆ	-11.0657
▁ਪ੍ਰੋਸੈਸਰ	-11.0665
▁ਮੈਕਸੀਕਨ	-11.0665
uatemala	-11.0665
▁Accessed	-11.0665
▁Agusta	-11.0665
▁Beilun	-11.0665
▁faucet	-11.0665
▁ਗ੍ਰੰਥ	-11.0665
▁ਡਿਸਟਰੀਬਿਊਸ਼ਨ	-11.0665
▁ਨੈਵੀਗੇਟ	-11.0665
▁ਪ੍ਰਮੁਖ	-11.0665
▁ਮਾਸਪੇਸ਼ੀ	-11.0665
▁ਮੁੰਡਾ	-11.0665
▁ਸਾਊਥ	-11.0665
▁ਮੈਕਸੀਕੋ	-11.0665
▁ਐਲੀਮੈਂਟ	-11.0665
virsa	-11.0665
▁ਗਰਲਜ਼	-11.0665
▁ਸਾਇਜ਼	-11.0665
▁Crack	-11.0665
▁ਬਜਟ	-11.0665
▁ਰੱਸੀ	-11.0665
▁ਨਹੁੰ	-11.0665
▁365	-11.0665
▁ਮੋਨੋਸੋ	-11.0666
▁ਨਿਰੰਤਰ	-11.0666
▁ਸੰਦੇਸ਼	-11.0666
▁SMD	-11.0666
▁ਚੇਪੋ	-11.0666
▁ਜਮ੍ਹਾਂ	-11.0667
▁ਕਲਿੱਪ	-11.0667
▁Aprilia	-11.0667
▁ਗੇਟਵੇ	-11.0668
▁person	-11.0668
upload	-11.0668
▁ਚਿਲਰ	-11.0668
▁ਕੂਲਿੰਗ	-11.0669
▁ਚੋਰੀ	-11.0671
cher	-11.0672
BRL	-11.0672
▁ਗਾਮਾ	-11.0673
▁ਨਜ਼ਦੀਕੀ	-11.0674
nny	-11.0678
▁ਵਾਲਾਂ	-11.0679
▁ਕਿਤਾਬਾਂ	-11.0679
▁ਫੀਸਦੀ	-11.0681
▁ਛੁੱਟੀਆਂ	-11.0681
▁mach	-11.0683
oil	-11.0685
▁ਕਰਮਚਾਰੀਆਂ	-11.0685
▁ਦੱਸਦਾ	-11.0685
▁LO	-11.0686
MG	-11.0687
▁ਕਰੀਬ	-11.0692
soft	-11.0695
▁past	-11.0697
ਐਰੀ	-11.0701
urma	-11.0703
ਫੋਰਡ	-11.0704
▁ਕਿਊਬ	-11.0709
▁¥	-11.0712
▁ਸਰਬ	-11.0727
singh	-11.0727
▁ਸੋਚਣ	-11.0729
▁Funny	-11.0731
ray	-11.0733
ਮੌ	-11.0735
▁280	-11.0738
ਮਿਲ	-11.074
▁Blue	-11.0751
ਮੰਡ	-11.0753
255	-11.0754
▁ਵੇਵ	-11.0755
max	-11.0755
▁ਮੋਮ	-11.0755
ology	-11.0762
003	-11.0769
nit	-11.077
Guangdong	-11.077
·	-11.077
fine	-11.0782
ਵਿਕਰੀ	-11.0783
ਵਿਸ	-11.0787
▁Drive	-11.0804
то	-11.0815
ੋਖਮ	-11.0817
▁tag	-11.0821
Mail	-11.0824
XNUM	-11.0824
▁Archiv	-11.0825
▁GALILEOSKY	-11.0829
▁Pocket	-11.0829
▁ਆਂਜੂਤਾ	-11.0829
▁ਜੈਕਪਾਟ	-11.0829
▁ਬੁਲਗਾਰੀਆ	-11.0829
▁ਯੁੱਧ	-11.0829
desktop	-11.0829
▁ਆਟੋਮੇਸ਼ਨ	-11.0829
▁ਫੂਡ	-11.0829
araguay	-11.0829
▁every	-11.0829
▁Intel	-11.0829
▁gettext	-11.083
▁ਹਨੇਰੇ	-11.083
▁ਹੱਡੀ	-11.083
▁ਰਲਵੇਂ	-11.083
▁ਜ਼ਿੰਕ	-11.083
▁ਯੰਤਰ	-11.083
▁ਸ਼੍ਰੇਣੀਬੱਧ	-11.083
▁ਚਾਕੂ	-11.0831
▁what	-11.0832
▁ਭਾਫ	-11.0832
▁ਆਸਮਾਨ	-11.0833
pad	-11.0833
▁ਸਾਹਿਤ	-11.0835
▁ਕੱਢੋ	-11.0839
▁ਹਾਊਸਿੰਗ	-11.084
▁ਮਾਡਮ	-11.084
▁BCE	-11.0842
▁full	-11.0843
▁Link	-11.0844
▁ਫ਼ਰ	-11.0846
▁ਜਾਪਾਨੀ	-11.0847
izing	-11.085
▁ਅੱਧੇ	-11.0852
MAX	-11.0854
▁ਉਡੀਕੋ	-11.0858
▁APC	-11.0858
▁ਵਾਈਡ	-11.0859
="3.	-11.0861
▁1997	-11.0862
▁ਜਾਦੂ	-11.0866
sitemaps	-11.0867
unc	-11.0871
ਵੇਗਾ	-11.0875
-05-	-11.0876
੦੦	-11.088
▁Set	-11.0881
ਡੋਰ	-11.0889
▁Toy	-11.0891
▁ਸਿਮ	-11.091
ੜਾਈ	-11.0914
equ	-11.0919
ove	-11.0921
ੰਟਾਂ	-11.0922
▁ਚਾਹੋ	-11.0924
Site	-11.0927
▁MO	-11.0932
PLU	-11.0935
ਗੁਣਵੱਤਾ	-11.094
▁ਨੌ	-11.0947
▁ਟਾਪ	-11.0948
▁Unit	-11.0957
fact	-11.0957
▁ਪ੍ਰੋਗਰਾਮਾਂ	-11.0962
▁fi	-11.0965
shop	-11.0974
cture	-11.0987
ago	-11.0987
ਸੈਟ	-11.0989
tten	-11.0993
▁ਦੱਬ	-11.0994
▁ਬੁੱਧ	-11.0995
alaysia	-11.0996
ਇਨੋਵੇਟਿਵ	-11.0996
▁Dariussssss	-11.0996
▁available	-11.0996
▁zealand	-11.0996
▁ਕਿਫਾਇਤੀ	-11.0996
▁ਕੰਬੋਡੀਆ	-11.0996
▁ਠਾਠ	-11.0996
▁ਡਿਸਚਾਰਜ	-11.0996
▁ਮਲੇਸ਼ੀਆ	-11.0996
▁ਵੇਖਾਉਦਾ	-11.0996
ਧੋਖਾਧੜੀ	-11.0996
▁Vintage	-11.0996
▁ਦੇਖਾਂਗਾ	-11.0996
▁ਉੱਦਮ	-11.0996
▁ਜੀਟੀਏ	-11.0996
Studio	-11.0996
▁connection	-11.0996
▁ਲੋੜੀਂਦੀ	-11.0996
▁ਧਾਰ	-11.0996
▁ਸ਼ਾਪਿੰਗ	-11.0996
▁ਵੈਕਟਰ	-11.0997
▁(2016)	-11.0997
???	-11.0997
▁ਫੈਲਾਓ	-11.0997
▁ਸਿੱਕਾ	-11.0998
▁ਮੀਮੋ	-11.0999
▁ਜਾਇਜ਼	-11.1
▁ਖੋਲਿਆ	-11.1
▁ਬੁਲੇਟ	-11.1
▁ਹਾਸ਼ੀਆ	-11.1002
ngola	-11.1002
computer	-11.1003
▁ਸੁਪ੍ਰ	-11.1007
▁ਪਤਲਾ	-11.1011
▁Guang	-11.1014
▁ਡਾਇਲ	-11.1017
▁ਇਲੈਕਟ੍ਰੋ	-11.1022
▁ਗੋਲਫ	-11.1022
▁ਪਾਰਸਰ	-11.1033
tools	-11.1034
▁ਕੈਪਸ	-11.1037
1500	-11.1052
videos	-11.1052
▁ਰੱਖੀ	-11.1059
MPa	-11.1064
symbols	-11.1066
▁ਪ੍ਰੇ	-11.1069
erry	-11.1069
▁ਯੂਐਸ	-11.107
▁ਖ਼ਾ	-11.1071
▁Advanced	-11.1071
▁ਚੋ	-11.1077
▁ਪਰਦੇ	-11.1077
4.5	-11.1079
Nm	-11.1084
▁ਵੇਖਾਈ	-11.1086
▁ICOs	-11.109
="0.	-11.1096
ਕ੍ਰਿਤ	-11.1101
▁ਖ਼ਬਰ	-11.1102
tory	-11.1102
BY	-11.1103
▁ਕੈਚ	-11.1105
lab	-11.1111
▁ਚਲਾਉਣਾ	-11.1112
wind	-11.1123
ਚੀਨੀ	-11.1128
▁ਲਾਸ	-11.1128
▁Net	-11.1129
wale	-11.1131
ੇਂਸ	-11.1131
Start	-11.1132
686	-11.1134
▁ਸ਼ਾਂਤ	-11.1136
slot	-11.1138
▁ਬੇਜ	-11.1143
hydro	-11.1145
▁ਰੇਜ਼	-11.1149
qi	-11.1153
▁ਉਤਸ਼ਾਹ	-11.1155
ਲਿਟ	-11.1158
▁ਲਚਕ	-11.1164
ਤਿਆਰ	-11.1165
________________	-11.1165
👇	-11.1165
«	-11.1165
▁Australia	-11.1165
▁Samsung	-11.1165
▁ਆਤੰਕਵਾਦ	-11.1165
▁ਕੰਪਨਸੇਸ਼ਨ	-11.1165
▁ਚਿਟ੍ਟੇ	-11.1165
▁ਟਮਾਟਰ	-11.1165
▁ਦੂਜਿਆਂ	-11.1165
▁ਨਮੂਦਾਰ	-11.1165
ь	-11.1165
▁ਕਨਵਰਟਰ	-11.1165
▁ਕਨਸੋਲ	-11.1165
▁ਚੱਟਾਨ	-11.1165
▁ਨਿਊਜ਼ੀਲੈਂਡ	-11.1165
▁ਪੁਸਤਕ	-11.1165
▁ਖੱਬਾ	-11.1165
▁ਚਮੜੇ	-11.1165
▁ireland	-11.1165
▁ਕੁਵੈਤ	-11.1165
gnome	-11.1165
▁ਰਿਜ਼ਰਵੇਸ਼ਨ	-11.1165
Dragon	-11.1165
▁Water	-11.1165
▁MIME	-11.1166
▁ਲੈਂਪ	-11.1166
▁ਇਕੱਠੀ	-11.1166
▁ਡੀਜ਼ਲ	-11.1167
▁ਸਮਾਰਟਫੋਨ	-11.1167
▁open	-11.1168
▁ਸਪੇਅਰ	-11.1168
ule	-11.1169
Class	-11.1169
cross	-11.117
▁Other	-11.1171
ਏਟ	-11.1173
▁(15)	-11.1176
steel	-11.1177
ਗੇਜ	-11.1178
▁ਗਿਰੀ	-11.118
▁ਬਿਲਿੰਗ	-11.1182
▁ਪਹੁੰਚਯੋਗ	-11.1183
▁ਐਂਟਰੀਆਂ	-11.1183
anna	-11.1186
aver	-11.1187
▁Read	-11.1188
edici	-11.1192
ball	-11.1193
▁Blog	-11.1197
▁ਸਾੜ	-11.1205
▁ਐਮਵੀ	-11.1205
ਸਾਨ	-11.1212
punjabisingers	-11.1212
▁ਸਮਾਪਤੀ	-11.1229
▁ਹੋਈਆਂ	-11.1239
rat	-11.1242
tets	-11.125
▁ਕਿਸਮਤ	-11.126
▁ਹੈਰਾਨੀ	-11.1261
ਆਪ	-11.1263
▁50%	-11.1268
▁Sex	-11.1278
▁ਭੇਜੀ	-11.1282
UM	-11.1288
ਬਣਾਉਣ	-11.1288
▁ਸਵਾਰ	-11.1299
ਕਿਲੋ	-11.1305
ONG	-11.1308
▁ਧੋਣ	-11.1313
▁ਸਥਾਪਨ	-11.1315
020	-11.1326
rab	-11.1327
▁ਖ਼ਰੀਦ	-11.1334
▁ਸਵਿੱਚਾਂ	-11.1335
▁***	-11.1336
▁ਇੰਡੋਨੇਸ਼ੀਆ	-11.1338
🏻	-11.1338
α	-11.1338
ਹਵਾਈਅੱਡੇ	-11.1338
▁ਅਕਾਦਮਿਕ	-11.1338
▁ਔਰਫੇਕ	-11.1338
▁ਫਰੈਂਚ	-11.1338
▁ਮੁਕਾਬਲਾ	-11.1338
▁ਰਸਾਲੇ	-11.1338
▁Scratch	-11.1338
▁UADescription	-11.1338
▁orgasm	-11.1338
▁ਆਰਐਸਐਸ	-11.1338
ਪਹਿਨੇ	-11.1338
▁Rights	-11.1338
▁ਪੁਨਰ	-11.1338
▁micro	-11.1338
▁ਡਾਇਮੰਡ	-11.1338
▁ਮੇਲਿੰਗ	-11.1338
ਮੇਨਲਡ	-11.1338
ਂਦੇ	-11.1338
▁Price	-11.1339
▁ਪਿਸਟਨ	-11.1339
▁ਪੋਥੀ	-11.1339
▁WiFi	-11.1339
▁ਸਕਰਟ	-11.134
▁know	-11.134
▁ਲਿਨਨ	-11.134
▁ਸਸਤੇ	-11.134
▁Review	-11.1341
4.8	-11.1343
▁ਬਚਾਅ	-11.1343
xiang	-11.1344
▁United	-11.1344
▁2.4	-11.1346
jpg	-11.1355
▁ਧੁਰੇ	-11.1356
KGS	-11.1361
▁1.3	-11.1364
▁may	-11.1366
▁ਨੌਕਰ	-11.1367
▁Mark	-11.1369
▁ਮਾਰਦੇ	-11.1374
▁ਕਰਾਉਣ	-11.1375
▁Inc	-11.1375
ਮੈਕਸ	-11.1376
ਪ੍ਰੋ	-11.1379
tag	-11.1382
▁ਪਲੇਨ	-11.1388
not	-11.1388
▁Daqi	-11.1389
▁ਰੋਕਣਾ	-11.14
555	-11.1401
▁Apr	-11.1404
emen	-11.1405
ਰਾਹ	-11.1411
ਕਉ	-11.1425
▁ਘੁੰਮਣ	-11.1434
ਕਾਇ	-11.1436
▁Del	-11.1438
▁ਪੈਕੇਜਿੰਗ	-11.1439
ਵੇਟ	-11.1442
▁Ros	-11.1447
ਿਚ	-11.1449
ਡ੍ਰ	-11.145
ਿੰਦਰ	-11.1457
ੇਂਟ	-11.1463
ਪਕਵਾਨਾ	-11.1466
▁ਰਾਇ	-11.1466
ਨੌਜਵਾਨ	-11.1467
ਤੁਹਾਨੂੰ	-11.1467
▁Led	-11.1467
▁ਫੌਜ	-11.1474
ਮੁੱਕੇ	-11.1478
nel	-11.1481
ਐਕਸਯੂ	-11.1481
▁ਹੈਡਲ	-11.1483
▁ਹਿੰ	-11.1489
ਿਉ	-11.1497
▁Box	-11.1506
▁messages	-11.1507
▁ਲਿਫਟ	-11.1508
road	-11.151
Refrigeration	-11.1513
▁antenna	-11.1513
▁blasting	-11.1513
▁buddypress	-11.1513
▁memory	-11.1513
▁minutes	-11.1513
▁ਅਧੂਰਾ	-11.1513
▁ਜਿਹੜਾ	-11.1513
▁ਤਬਾਦਲਾ	-11.1513
▁ਦੁਸ਼ਮਣ	-11.1513
▁ਫਰਿੱਜ	-11.1513
▁ਭਿਆਨਕ	-11.1513
▁ਮਨੋਵਿਗਿਆਨ	-11.1513
▁ਵਾਜਬ	-11.1513
▁ਵਾਧੇ	-11.1513
▁ਵਾਰਤਾਲਾਪ	-11.1513
▁ਵੈਲੇਨਟਾਈਨ	-11.1513
▁ਸਧਾਰਣ	-11.1513
▁Foshan	-11.1513
▁ਟਿਸ਼ੂ	-11.1513
▁ਸੁਪਨੇ	-11.1513
▁ਸਰੋਵਰ	-11.1513
▁ਸਟੱਡੀ	-11.1513
▁ਡੀਵੀਡੀ	-11.1513
▁ਫਾਰਮੇਸੀ	-11.1513
▁ਲ਼ਈ	-11.1513
▁ਬਰੇਕ	-11.1513
▁provide	-11.1513
▁ਸਪਰੇਅ	-11.1513
▁ਸ਼ਰੀਰ	-11.1514
▁ਕ੍ਰੀਮ	-11.1514
ਯਾਈਆਂ	-11.1515
▁ਸੁਰੰਗ	-11.1517
▁ਭਗਤ	-11.1517
▁ਉੱਠ	-11.1519
▁ਬਚਾਓ	-11.1521
▁ਨੰਗੀ	-11.1521
ਬਾਈਡਿੰਗ	-11.1523
▁ਆਪਟਿਕ	-11.1524
▁ਆਗੂ	-11.1525
ਤਿੰਨ	-11.1532
▁ਕੱਢਣਾ	-11.1536
▁EUR	-11.1537
▁ਰਾਏ	-11.1539
ਿਅਮ	-11.1542
▁ਸਮਝਦਾ	-11.1544
▁ਭਰਤੀ	-11.1544
detail	-11.1545
▁Cert	-11.1546
▁ਇੰਟਰਵਿਊਜ਼	-11.1547
▁ਧਾਰਾ	-11.1548
rule	-11.1549
▁ਪੀਯੂ	-11.1549
tional	-11.155
lut	-11.1552
▁give	-11.1553
ਚਾਲਿਤ	-11.1553
ify	-11.1553
▁ਖਿਡਾਰੀਆਂ	-11.1559
vir	-11.1561
▁ਮੁਕਤੀ	-11.1563
▁Kay	-11.1573
nb	-11.1576
▁ਨੋਡ	-11.1589
▁ਟ੍ਰਿਪ	-11.1591
ਾਂਗੇ	-11.1599
▁Gran	-11.1601
uf	-11.1626
▁Coins	-11.1628
345	-11.163
▁JT	-11.1639
▁ਮੇਜ਼	-11.1646
travel	-11.1649
ਕਾਨੂੰਨ	-11.1652
ਟੈਂਟ	-11.1655
ਉੱਚ	-11.1656
ਆਨਲਾਈਨ	-11.1659
▁ਟਰੇਸ	-11.1678
▁ਲਾਉਣ	-11.168
gur	-11.1689
▁Eyelash	-11.1692
▁February	-11.1692
▁Reserved	-11.1692
▁exacthacks	-11.1692
▁konqueror	-11.1692
▁ਅਟਾਰਨੀ	-11.1692
▁ਅੱਤਵਾਦ	-11.1692
▁ਇਮਤਿਹਾਨ	-11.1692
▁ਐਕਸਟਰੈਕਟ	-11.1692
▁ਕੌਂਡੋ	-11.1692
▁ਨਿਯੰਤ੍ਰਿਤ	-11.1692
▁ਮਹੱਤਤਾ	-11.1692
▁ਮਿਊਜ਼ੀਅਮ	-11.1692
▁ਮੈਡੀਊਲ	-11.1692
▁ਰੋਗਾਣੂ	-11.1692
▁ਸਪਲੀਮੈਂਟ	-11.1692
▁ਹਰੀਜ਼ਟਲ	-11.1692
▁ਹਾਈਡ੍ਰੋ	-11.1692
jattwaad	-11.1692
▁ਪਰੰਪਰਾ	-11.1692
▁awesome	-11.1692
▁ਖਣਿਜ	-11.1692
▁ਆਸਤੀਨ	-11.1692
▁LDAP	-11.1692
▁ਟੈਕਸਟਾਈਲ	-11.1692
▁ਗੂਜ਼ੀ	-11.1692
▁Kingdom	-11.1692
▁ਪੂਰਤੀ	-11.1692
▁ਜੁਰਮਾਨਾ	-11.1692
▁level	-11.1692
▁Suntech	-11.1692
▁ਨਿਗਮ	-11.1692
▁ਨਵੀਨਤਾਕਾਰੀ	-11.1692
▁ਅਨਾਜ	-11.1693
▁ਠਹਿਰ	-11.1693
▁ਟਕਰਾਅ	-11.1693
ма	-11.1694
ਜੈਕਟ	-11.1694
▁ਹਵਾਬਾਜ਼ੀ	-11.1694
1.8	-11.1694
▁ਕੈਫੇ	-11.1695
▁ਬਰਲਿਨ	-11.1695
hewan	-11.1697
▁ਰਾਣੀ	-11.1697
▁ਸਕੋਪ	-11.1698
▁Training	-11.1698
▁(*.	-11.1704
stock	-11.1706
▁ITS	-11.1706
▁One	-11.1707
▁ਬਿਲਡਰ	-11.1709
▁ਅਕਾਲ	-11.171
▁ਕੰਮਕਾਜ	-11.1712
▁ਰੋਲਿੰਗ	-11.1737
ਗੀਆਂ	-11.1739
▁Grand	-11.1741
ami	-11.1745
▁ਸ੍	-11.1746
8-1	-11.1752
ਚੇਤ	-11.1757
▁\(	-11.1759
web	-11.1761
face	-11.1764
lang	-11.1764
▁ਜਰੂਰੀ	-11.1765
2.6	-11.1766
▁Id	-11.1769
uz	-11.1771
▁Exp	-11.1775
▁86-0	-11.1804
▁Bag	-11.1809
▁CET	-11.1814
cool	-11.1816
▁ਜਿਸਦੇ	-11.1816
ਸਪਾਟਾ	-11.1825
Mpa	-11.183
ਮੂਲ	-11.1832
ima	-11.1833
change	-11.1834
akh	-11.1836
ਪੱਛਮ	-11.1837
1.3	-11.184
ੰਗੀ	-11.1842
ਸਾਡੇ	-11.1843
FE	-11.1846
ਲੈਕ	-11.1865
▁ਪ੍ਰਤੀਨਿਧ	-11.1866
▁ਮਿਲਾਨ	-11.1868
subject	-11.1872
tadka	-11.1873
bulgaria	-11.1873
▁Browser	-11.1873
▁Hawaii	-11.1873
▁Logik	-11.1873
▁Security	-11.1873
▁WikiWon	-11.1873
▁eaccelarator	-11.1873
▁iTunes	-11.1873
▁wagering	-11.1873
▁ਅੰਦੋਲਨ	-11.1873
▁ਇਗਨੀਸ਼ਨ	-11.1873
▁ਝਿੱਲੀ	-11.1873
▁ਫਾਲਤੂ	-11.1873
▁ਬੁਝਾਰਤ	-11.1873
】	-11.1873
▁Group	-11.1873
▁ਅਗਿਆਤ	-11.1873
▁ਜੰਮੂ	-11.1873
▁ਰਿਚਰਡ	-11.1873
▁ਬੇਲਚਾ	-11.1873
▁ਸਿਈਵੀ	-11.1873
▁Sweet	-11.1873
▁ਸਗੋਂ	-11.1873
▁ਲੈਂਦਾ	-11.1873
▁ਕਿਸ਼ੋਰ	-11.1873
wmk	-11.1874
▁ਪਰਿਸਰ	-11.1874
▁ਕਿੰਨੇ	-11.1874
▁SVN	-11.1874
▁weekday	-11.1874
▁(2014)	-11.1874
▁jamai	-11.1874
▁ਜਵਾਬਦੇਹ	-11.1874
▁THB	-11.1874
▁ਫੁੱਟਬਾਲ	-11.1874
▁ਦੁਖ	-11.1875
ommerce	-11.1875
▁ਪ੍ਰਾਂਤ	-11.1876
▁ਪੁੱਗ	-11.1876
▁ਥਰਡ	-11.1876
▁xcache	-11.1876
▁ਕੁਇੰਟ	-11.1877
▁ਵਰਲਡ	-11.1877
▁ਕੈਂਪ	-11.1881
▁ਬੈੱਡ	-11.1882
▁ਉਤਸ਼ਾਹਤ	-11.1883
savea	-11.1884
▁ਨਿੰ	-11.1884
▁Miss	-11.1885
ਮੁਕਤ	-11.1888
wire	-11.1889
1200	-11.189
▁ਮਾਪਿਆਂ	-11.189
▁Comm	-11.1893
▁ਪ੍ਰੋਡਕਟਸ	-11.1893
▁ਕਸਰ	-11.1893
▁ਅੰਸ਼	-11.1895
▁ਦਹਿ	-11.1896
▁ਜੌਨ	-11.1913
Head	-11.1916
ਸਾਫ਼	-11.1918
▁ਮਾਸਕੋ	-11.1921
▁More	-11.1931
370	-11.1934
▁ਸਫ਼ਾਈ	-11.1935
ਪੁੱਟ	-11.1936
995	-11.1954
234	-11.1956
860	-11.1958
3.6	-11.1964
▁ਫੈਲਣ	-11.1969
plex	-11.197
▁Mil	-11.1971
ਭਾਸ਼	-11.1978
ride	-11.1984
▁ਰਹੇਗਾ	-11.1985
305	-11.2005
▁ਲੂਣ	-11.2017
▁ਅੰਤਮ	-11.202
This	-11.2021
▁ਮੋਟਰਜ਼	-11.2021
ppm	-11.2032
ollywood	-11.2037
1.9	-11.2046
ਿਅਾ	-11.2048
ਹਿਲ	-11.2048
ਸ੍ਟ	-11.2049
▁ਕਹਿਣ	-11.2056
ਡਬਲਿਊ	-11.2058
screen	-11.2059
▁Meitrack	-11.2059
▁Middle	-11.2059
▁OpenPGP	-11.2059
▁Zhongtai	-11.2059
▁before	-11.2059
▁securityfix	-11.2059
▁ਅਸਧਾਰਨ	-11.2059
▁ਇਮਾਨਦਾਰ	-11.2059
▁ਇੱਥੋਂ	-11.2059
▁ਉਨਟਾਰੀਓ	-11.2059
▁ਕੰਪਰੈੱਸ	-11.2059
▁ਖ਼ਰਾਬ	-11.2059
▁ਪ੍ਰਤੀਬਿੰਬ	-11.2059
▁ਮੁਕੱਦਮੇ	-11.2059
▁Heroes	-11.2059
▁Virtual	-11.2059
▁ਖਰਾਦ	-11.2059
▁ਪੂੰਜੀ	-11.2059
ability	-11.2059
й	-11.2059
channel	-11.2059
▁ਬੱਦਲ	-11.2059
▁ਸ਼ੈਤਾਨ	-11.2059
▁ਪਰੋਮੋ	-11.2059
▁ਤਲਾਕ	-11.2059
ਸਵਾਮੀ	-11.2059
ਡੇਵਿਡਸਨ	-11.2059
▁ਦੇਵੇਗੀ	-11.2059
▁ਡ੍ਰਾਈਵ	-11.2059
▁ਇਰਾਕ	-11.2059
_______________	-11.2059
Design	-11.2059
▁ਕਨਵੇਅਰ	-11.206
▁ਉਪਰੰਤ	-11.206
/12/	-11.206
ка	-11.206
▁ਭਾਫ਼	-11.2064
▁ਉਤਰਨ	-11.2064
▁Steel	-11.2065
▁ਦੁਹਰਾਓ	-11.2065
▁ਖਪਤਕਾਰ	-11.2065
▁ਕਰੂਜ਼ਰ	-11.207
▁ਚਿੱਪ	-11.2072
▁ਖਾਕੇ	-11.2073
katc	-11.2074
ENG	-11.2075
▁ਦਿੰਦੀਆਂ	-11.2078
▁ਪਰਵਾਹ	-11.2079
▁ਕੈਰ	-11.2079
▁ਜਾਮਨੀ	-11.2079
ellow	-11.2086
▁ਫ਼ਾਰ	-11.2086
▁ਛੋਟੀਆਂ	-11.209
▁5.1	-11.2093
▁ਚਾਹੇ	-11.2096
▁ਬੀਮਾਰੀ	-11.2097
order	-11.2099
▁Far	-11.2101
bot	-11.2105
▁ਚੁੱਕੇ	-11.2106
▁ਸੁਮੇਲ	-11.2111
ART	-11.212
▁ਮੇਜ	-11.212
▁NY	-11.2123
Edit	-11.2124
▁Print	-11.2125
▁ਦਰਿਆ	-11.2125
ни	-11.2129
▁ਇਸਤਰੀ	-11.2139
cz	-11.2142
6000	-11.2142
та	-11.2143
▁ext	-11.2147
fit	-11.2164
▁ਰਹਿਣਾ	-11.2171
▁ਪਲਸ	-11.2174
hibi	-11.2176
▁ਲੱਗੀ	-11.2177
▁ਓਪ	-11.2185
▁ਵਜ	-11.2185
bei	-11.2185
shoot	-11.2187
▁1600	-11.2189
▁ਟ੍ਰਿ	-11.2193
040	-11.2204
mov	-11.2208
ਉਤਪਾਦ	-11.2214
var	-11.2215
те	-11.2216
ਰਾਸ਼ਟਰ	-11.2217
000000	-11.2218
ਪਾਣੀ	-11.2221
ਉਮਰ	-11.2226
ਡਿਨ	-11.2226
188	-11.2239
▁ਵੈਧ	-11.2244
▁ref	-11.2244
oftheday	-11.2247
azakhs	-11.2247
▁Equipment	-11.2247
▁Morehacks	-11.2247
netherlands	-11.2247
unknown	-11.2247
▁1528113	-11.2247
▁86-574-8	-11.2247
▁ਇਮੀਗ੍ਰੇਸ਼ਨ	-11.2247
▁ਚੂੜੀਦਾਰ	-11.2247
▁ਨਕਾਰਾਤਮਕ	-11.2247
▁ਨੁਮਾਇੰਦਗੀ	-11.2247
▁ਪਰਸ਼ਾਸ਼ਕ	-11.2247
▁ਬੇਮਿਸਾਲ	-11.2247
▁ਵਸਨੀਕ	-11.2247
▁ਵੱਟਦਾਰ	-11.2247
▁ਸਪਿੰਡਲ	-11.2247
▁ਸੈਕੰਡਰੀ	-11.2247
▁ਹੁਈਜ਼ੌ	-11.2247
ਬਿਛੂ	-11.2247
▁Community	-11.2247
▁ਕਾਲਪਨਿਕ	-11.2247
▁ਮੱਛਰ	-11.2247
manager	-11.2247
▁ਤਾਜ਼ੇ	-11.2247
▁ਪੈਨਾਮਾ	-11.2247
connect	-11.2247
▁ITIL	-11.2247
▁ਸੰਦਰਭ	-11.2247
▁ਸਦਮਾ	-11.2247
▁ਡ੍ਰਾਇਵ	-11.2247
▁Coban	-11.2247
▁bonus	-11.2247
▁77°	-11.2247
▁Xxx	-11.2247
▁ਮਿਡਲ	-11.2247
▁ਬੈਰਲ	-11.2247
▁ਸੈਂਪਲ	-11.2248
▁update	-11.2248
▁ਉਣਿਆ	-11.2248
▁ਸਿਮਰਨ	-11.2249
▁ਅਸੈੱਸ	-11.2249
▁remover	-11.2249
▁now	-11.2249
▁ਪਰਕਾਸ਼	-11.225
▁ਝੱਗ	-11.2251
▁ਜ਼ਾਹਰ	-11.2252
▁ਮਾੜੇ	-11.2257
blue	-11.2259
▁ਅਖੀਰਲਾ	-11.2262
▁ਖਾਕਾ	-11.2263
▁ਮੋਸ਼ਨ	-11.2265
▁ਫੈਨ	-11.2269
▁ਪ੍	-11.2272
2.2	-11.2277
hao	-11.2279
▁ਲਵ	-11.2285
▁ਵੱਕਾਰ	-11.2288
▁ਬਲਬ	-11.2291
iro	-11.2294
rick	-11.2305
▁ਵਰਤੀਆਂ	-11.232
ре	-11.2337
bet	-11.2346
2.7	-11.2349
script	-11.2349
▁ਬੈਠਣ	-11.2356
▁Downloader	-11.2365
rain	-11.2367
▁ਪੈਟ	-11.2369
ਪੂਰਵਕ	-11.2387
ava	-11.2399
message	-11.241
▁ਨਿਗਰਾਨ	-11.241
ਵਿਗਿਆਨ	-11.241
ਦੱਖਣੀ	-11.241
ਸਾਮ	-11.2412
5.5	-11.2412
ਵਿਸ਼ਵਾਸ	-11.2415
▁4.2	-11.2417
ਕ੍ਰਮ	-11.2422
▁ਡੂੰਘਾ	-11.2435
▁ਵਿੱ	-11.2436
password	-11.244
---------------	-11.244
ਅਖ਼ਤਿਆਰੀ	-11.244
ਜਿਉਮੈਟਰਿਕ	-11.244
▁Amateurs	-11.244
▁Newfoundland	-11.244
▁ਆਸਟਰੀਆ	-11.244
▁ਓਕੁਲਾਰ	-11.244
▁ਦੁਰਲੱਭ	-11.244
▁ਬ੍ਰਾਊਜ਼ਿੰਗ	-11.244
▁ਮਹਿੰਦਰਾ	-11.244
▁ਮਿਲ੍ਫ਼	-11.244
▁ਮੁਕਾਬਲਤਨ	-11.244
▁ਰਿਫੰਡ	-11.244
▁ਸਿੰਥੈਟਿਕ	-11.244
Otslaivanie	-11.244
ы	-11.244
▁ਇਸਰਾਏਲ	-11.244
▁ਕਲੋਰਾਈਡ	-11.244
ਸਿਮੂਲੇਸ਼ਨ	-11.244
▁ਸ੍ਰੋਤ	-11.244
▁ਖ਼ਰਚ	-11.244
security	-11.244
▁по	-11.244
▁ਵਸੀਲੇ	-11.244
▁ਹਰਿਆਣਾ	-11.244
▁after	-11.244
▁ਨਿਕਾਰਾ	-11.244
▁ਤਾਮਿਲ	-11.244
▁ਸੀਨੀਅਰ	-11.244
▁ਰਸਮੀ	-11.244
▁ਵਾਸ਼ਿੰਗਟਨ	-11.244
▁temp	-11.244
▁ਭਾਸ਼ਣ	-11.2441
▁ਉੱਲੀਮਾਰ	-11.2441
▁Lucks	-11.2441
▁ਦੇਣਦਾਰੀ	-11.2441
▁ਸੌਖੀ	-11.2441
▁ਜਰਸੀ	-11.2442
ਟੇਟ	-11.2442
▁ਚੱਲਣਯੋਗ	-11.2443
▁cutter	-11.2444
▁ਕੈਦ	-11.2444
▁chart	-11.2444
▁ਪੇਂਟ	-11.2446
sardari	-11.2446
mate	-11.2452
▁ਜ਼ਿਪ	-11.2455
▁March	-11.2456
▁ਈਰਾਨੀ	-11.2456
▁ਦੱਸੇ	-11.2464
▁Inf	-11.2468
▁ਈਕੋ	-11.247
-02-	-11.247
▁Lib	-11.2471
▁ਰਾਹਤ	-11.2477
701	-11.2479
▁ਕੱਲ	-11.2479
▁ਸਟੈਕ	-11.2489
ੰਨ੍ਹ	-11.2491
▁ਸਫੇ	-11.2491
▁ਆਇਤ	-11.2493
ਲੋੜ	-11.2494
ਿੰਸ	-11.2495
▁ਡੀਲਰ	-11.2499
9000	-11.2504
är	-11.2508
▁ਨੀਤੀਆਂ	-11.2508
2-1	-11.251
▁0.15	-11.2511
▁86-13	-11.2519
vest	-11.2528
ema	-11.254
font	-11.255
ਫੈਟ	-11.2556
ਰਤਾਂ	-11.2557
feng	-11.2557
Model	-11.2583
▁Qi	-11.259
▁Card	-11.259
Manufacturer	-11.261
ension	-11.2632
ello	-11.2635
Ω	-11.2636
▁Gurgaon	-11.2636
▁TURAS	-11.2636
▁Virginia	-11.2636
▁Zealand	-11.2636
▁ਆਯੋਜਨ	-11.2636
▁ਕ੍ਰਿਸ਼ਨਾ	-11.2636
▁ਨਿਹਚਾ	-11.2636
▁ਪਰੋਸੈੱਸ	-11.2636
▁ਪਵੇਗੀ	-11.2636
▁ਪੌਲੁਸ	-11.2636
▁ਪ੍ਰਭਾਸ਼ਿਤ	-11.2636
▁ਬੈੱਡਰੂਮ	-11.2636
▁ਬੰਸਰੀ	-11.2636
▁ਮਾਪਦੰਡ	-11.2636
▁ਮਿਲਿੳਨ	-11.2636
▁ਮੁੰਬਈ	-11.2636
▁ਮੇਟਾਡਾਟਾ	-11.2636
▁ਵਿਰਾਸਤ	-11.2636
▁ਵੀਅਤਨਾਮ	-11.2636
▁ਵੇਰੀਏਬਲ	-11.2636
▁ਸਰਟੀਫਕੇਟ	-11.2636
sidhumoosewala	-11.2636
▁XMailer	-11.2636
▁ਟਾਉਨ	-11.2636
▁Packing	-11.2636
▁ਲੈਕਚਰ	-11.2636
location	-11.2636
▁ਫ਼ੌਜ	-11.2636
▁ਦਾਅਵੇ	-11.2636
▁ਖੁੱਲ੍ਹੀ	-11.2636
▁complete	-11.2636
▁ਕਰੰਸੀ	-11.2636
▁ਤੀਜੇ	-11.2636
▁ਅਸਥਾਨ	-11.2636
▁ਜਿੰਨੀ	-11.2636
▁ਵਿਲੀਅਮ	-11.2637
▁ਨਿਸ਼ਾਨਬੱਧ	-11.2637
▁ਲੇਬਰ	-11.2637
▁preview	-11.2637
▁ਡੌਕ	-11.2639
▁Benz	-11.264
▁ਦਇਆ	-11.2641
▁ਉਮੀਦਵਾਰ	-11.2642
▁ਸੱਭਿਆਚਾਰਕ	-11.2642
UPG	-11.2643
▁ਵੈਧਤਾ	-11.2643
▁ਪਦ	-11.2644
PCS	-11.2645
▁ਫਿਲਟਰੇਸ਼ਨ	-11.2645
▁ਰੈੱਡ	-11.2645
Web	-11.2645
▁ਕਿਹੜੀ	-11.2646
▁ਉਦਾਸ	-11.2646
▁ਖਾਨੇ	-11.2647
▁ਰੇਖਾਵਾਂ	-11.2647
▁gold	-11.2649
body	-11.265
xbet	-11.2651
▁ਲਾਟਰੀ	-11.2651
▁FTP	-11.2652
php	-11.2653
▁Dec	-11.2654
deep	-11.2654
▁ਰੋਮਾਨੀਆ	-11.2655
▁ਕੱਟੋ	-11.2657
▁ਸਮਝਦੇ	-11.2658
ਊਂਟ	-11.2661
▁Asia	-11.2664
ector	-11.2664
▁Zhen	-11.2668
share	-11.2669
▁ਫੇਡ	-11.2669
▁ਖ਼ਬਰੀ	-11.267
▁ਪੈਡ	-11.2674
▁kcm	-11.2674
ਸੋਧ	-11.2682
▁ਸਾਂਝੀ	-11.2683
ਫਿਟ	-11.2688
▁than	-11.2694
lovers	-11.2696
ਬਰਗ	-11.2698
▁ਚਿੱ	-11.2709
Book	-11.2713
hz	-11.2722
▁ਸੋਧਣ	-11.2727
ਟੋਨਾ	-11.2737
▁How	-11.2738
▁ਗਿਣ	-11.274
5.2	-11.2748
ਿਯਾ	-11.2755
ਿੰਕ	-11.2758
range	-11.276
▁ਫੌ	-11.276
ਮਰੇ	-11.2771
5:00	-11.278
punjabisinger	-11.2781
▁been	-11.2785
bol	-11.2798
▁(6)	-11.2801
ਚਿੱਤਰ	-11.2815
»	-11.2815
▁156	-11.2817
PDF	-11.2824
nan	-11.2825
▁ਉਭਾਰ	-11.2831
chandigarh	-11.2836
rgentina	-11.2836
▁Digital	-11.2836
▁Facebook	-11.2836
▁cellulose	-11.2836
▁ਐਟਲਾਟਿਕ	-11.2836
▁ਕੰਪਰੈਸ਼ਨ	-11.2836
▁ਗਰਭਵਤੀ	-11.2836
▁ਗੜਬੜ	-11.2836
▁ਘੋਸ਼ਣਾ	-11.2836
▁ਚਤੁਰਭੁਜ	-11.2836
▁ਡਿਵੈਲਪਮੈਂਟ	-11.2836
▁ਰੈਸਟੋਰਟ	-11.2836
▁ਸੁਪਰਐਡਮਿਨ	-11.2836
▁Diavel	-11.2836
▁ਮੀਂਹ	-11.2836
feature	-11.2836
▁ਬਾਂਸ਼ੀ	-11.2836
😘	-11.2836
church	-11.2836
▁ਡਾਇਨਿੰਗ	-11.2836
▁ਕਰਾਫਟ	-11.2836
▁ਕਿਹੜੇ	-11.2836
▁Desmo	-11.2836
piece	-11.2836
▁ਲਵਾਂਗੇ	-11.2836
▁ਬਜ਼ਾਰ	-11.2836
▁bottl	-11.2836
▁Hongxiang	-11.2836
▁ਖੜ੍ਹਾ	-11.2836
▁ਈਸਵੀ	-11.2836
▁ਰਾਸ਼ਟਰਪਤੀ	-11.2836
▁Film	-11.2836
▁Masturbates	-11.2836
▁Green	-11.2837
▁ਖੁੱਲ੍ਹਾ	-11.2837
burg	-11.2837
▁account	-11.2837
▁ਬੋਇੰਗ	-11.2837
sheet	-11.2837
▁ਸਵੀਪ	-11.2837
не	-11.2838
.06.20	-11.2838
.06.2015	-11.2839
▁ਰੀਸਟੋਰ	-11.2839
▁Bao	-11.284
▁ਜਿਆਦਾਤਰ	-11.284
▁ਤਕਨਾਲ	-11.2841
▁ਪੱਕੇ	-11.2841
▁(21)	-11.2844
gang	-11.2844
hong	-11.2849
▁89.00	-11.285
▁ਲੈੱਗ	-11.285
▁ਝੂਠੇ	-11.2851
680	-11.2854
fsx	-11.2854
▁last	-11.2856
▁ਹਾਈਪਰ	-11.2859
▁ਕੰਬਲ	-11.2859
▁4.7	-11.2859
▁ਭਰੋਸੇਯੋਗਤਾ	-11.2868
hydr	-11.2869
▁DNS	-11.287
▁Part	-11.2882
▁ਪ੍ਰੇਮ	-11.2885
▁ਸਵਿਸ	-11.2886
▁ਲੱਭੇ	-11.2887
780	-11.2888
ਰੂਸੀ	-11.2892
▁ਪਾਰਕਿੰਗ	-11.2904
▁ਨਿਸ਼ਾਨੇ	-11.2909
uter	-11.2929
0.9	-11.2936
rong	-11.2944
▁ਸੰਭਾਲਣਾ	-11.2944
ather	-11.2962
0.7	-11.2963
00000	-11.2979
▁ਆਖਿਆ	-11.2981
ਰਾਇਡ	-11.2988
▁Hui	-11.3001
ਥਾਨ	-11.3009
Deli	-11.3014
ਬ੍ਰਿਟਿਸ਼	-11.3022
ਗਰੁੱਪ	-11.3023
anama	-11.303
▁ਕਵਿਤਾ	-11.3037
▁ਡੇਵਿਡ	-11.3039
ntPreviewDialog	-11.304
ѕ	-11.304
▁Chengdu	-11.304
▁Coinfalls	-11.304
▁Florida	-11.304
▁Multifunctional	-11.304
▁Retrieved	-11.304
▁private	-11.304
▁progress	-11.304
▁ਆਰਗੂਮੈਂਟ	-11.304
▁ਐਕਸ਼ਟੇਸ਼ਨ	-11.304
▁ਕੈਨੇਡੀਅਨ	-11.304
▁ਖਤਰਨਾਕ	-11.304
▁ਜ਼ਬੂਰ	-11.304
▁ਡਾਲਫਿਨ	-11.304
▁ਡੁੱਬ	-11.304
▁ਤਜਵੀਜ਼	-11.304
▁ਧਮਾਕੇ	-11.304
▁ਬਰਕਰਾਰ	-11.304
▁ਮੈਨੇਜਮੈਂਟ	-11.304
▁ਯੂਨੀਵਰਸਲ	-11.304
▁ਰਫਤਾਰ	-11.304
▁ਵਿਭਿੰਨ	-11.304
▁ਸਿੰਚਾਈ	-11.304
▁ਸੋਲਯੂਸ਼ਨਜ਼	-11.304
▁ਹਾਈਬ੍ਰਿਡ	-11.304
babbumaan	-11.304
▁Apartment	-11.304
▁ਓਡੀਸ਼ਾ	-11.304
▁ਪੀਡੀਐਫ	-11.304
▁ਸਮਤੋਲ	-11.304
▁ਟਾਇਪ	-11.304
▁inverter	-11.304
▁ਖ਼ੂਨ	-11.304
▁ਪ੍ਰਤੀਕਰਮ	-11.304
▁Nonets	-11.304
▁ਪਰਸੰਗ	-11.304
▁ਕਾਤਲ	-11.304
ão	-11.304
▁York	-11.304
▁ਸੰਘਰਸ਼	-11.304
▁ਗਨੂ	-11.304
,00€	-11.304
▁ਆਰਟੀਕਲ	-11.3041
ਪਾਵਰ	-11.3041
▁ਬੰਧਨ	-11.3041
ਮਸਾਜ	-11.3041
▁ਮਨਪਸੰਦ	-11.3041
▁ਚਾਵਲ	-11.3042
▁ਪਕਾਉਣ	-11.3042
punjabipoetry	-11.3042
▁ਰੁਚੀ	-11.3042
▁ਮਿਲੇਗੀ	-11.3042
▁ਲੀਵਰ	-11.3042
▁Admin	-11.3043
▁below	-11.3045
▁Stick	-11.3046
▁Denmark	-11.3048
▁NEW	-11.3048
▁ਮਾਸਿਕ	-11.3049
▁ਮੇਟਾ	-11.305
▁ਪਾਗਲ	-11.3051
▁good	-11.3051
▁ਸੁੱਟੋ	-11.3052
▁ਖਿੱਚੋ	-11.3053
heat	-11.3054
tail	-11.3054
ਵਾਉਣ	-11.3054
▁ਮੰਨਦੇ	-11.3055
▁dpi	-11.3055
ен	-11.3057
▁ਹਟਾਈ	-11.3058
ਨਲੋਡ	-11.306
▁ਲਾਇ	-11.3061
▁ਸੈਸ਼ਨ	-11.3061
▁ਪ੍ਰਕਾਸ਼ਤ	-11.3064
▁ਆਦਰ	-11.3065
▁ਸੰਗਤਾਂ	-11.307
RAL	-11.3071
ਦੁਆ	-11.3073
lover	-11.3079
▁ਸੋਚਦਾ	-11.3087
▁ਸਖਤੀ	-11.3111
ਯੇ	-11.3112
737	-11.3114
1-2	-11.3115
post	-11.3115
NET	-11.3123
▁ਜਵਾਨ	-11.3124
note	-11.3127
▁ਉਪਲਬਧਤਾ	-11.313
"}	-11.3135
lug	-11.3137
▁ਹੈਕਸਾ	-11.314
▁ਡੈਸ਼	-11.3164
▁Yo	-11.3165
▁0.05	-11.3168
rail	-11.317
GHz	-11.3172
▁2021	-11.3187
ਟ੍ਰਿਕ	-11.3187
੧੦	-11.3208
state	-11.3223
▁ਪ੍ਰੋਡਕਟ	-11.3226
ਨੈਟ	-11.3233
facebook	-11.3235
ford	-11.3237
ਸ਼ੁਰੂ	-11.324
custom	-11.3244
ਪੱਟੀ	-11.3246
tiktok	-11.3248
ī	-11.3248
ਓਕਟੋਪ	-11.3248
▁Automatic	-11.3248
▁Converter	-11.3248
▁Dokitto	-11.3248
▁Enertia	-11.3248
▁French	-11.3248
▁eScooter	-11.3248
▁ਆਕਰਸ਼ਿਤ	-11.3248
▁ਕਰੈਡਿਟ	-11.3248
▁ਕੂਹਣੀ	-11.3248
▁ਕੈਥੋਲਿਕ	-11.3248
▁ਗ੍ਰਿੱਲ	-11.3248
▁ਟ੍ਰੈਡਮਿਲ	-11.3248
▁ਥੈਰੇਪੀ	-11.3248
▁ਪਰੋਫਾਈਲ	-11.3248
▁ਪ੍ਰਸਾਰਿਤ	-11.3248
▁ਪ੍ਹੈਰਾ	-11.3248
▁ਸ਼ਿੱਪਿੰਗ	-11.3248
▁ਸਾਮੱਗਰੀ	-11.3248
▁ਸੋਸਾਇਟੀ	-11.3248
▁ਸੰਗਮਰਮਰ	-11.3248
▁ਉੱਡਦੀ	-11.3248
▁ਕਦੋਂ	-11.3248
▁ਗੋਦਨਾ	-11.3248
▁ਚਮੜਾ	-11.3248
▁ਮਾਈਨਿੰਗ	-11.3248
▁ਏਸ਼ੀਅਨ	-11.3248
▁ਬੈਨਸ਼ੀ	-11.3248
▁ਵਕਫ਼ਾ	-11.3248
▁ਸਟ੍ਰੀਟ	-11.3248
session	-11.3248
▁ਖਤਰਾ	-11.3248
▁ਬੇਰਿੰਗ	-11.3248
magnet	-11.3249
▁ਇਰਾਨ	-11.3249
▁ਜਿਥੇ	-11.325
▁ਸਲੀਪ	-11.325
▁HDPE	-11.325
▁2010-2019	-11.325
▁ਕਵਿਤਾਵਾਂ	-11.3251
▁ਜਿਹੜੀਆਂ	-11.3252
▁ਗੈਬਾ	-11.3252
▁ਉਬਾਲ	-11.3253
▁ਮਹੀਨਾਵਾਰ	-11.3253
▁NYE	-11.3254
▁ਭੂਰਾ	-11.3254
▁ਰਲਵਾਂ	-11.3254
iceland	-11.3255
▁ਮਿਲੇਗਾ	-11.3256
▁ਬੇਸ਼ਕ	-11.3256
enmark	-11.3257
best	-11.3258
▁ਕਿੱਟਾ	-11.3258
▁ਕੱਢਿਆ	-11.3259
▁ਲਗਾਓ	-11.3259
▁ਐਲਫਾ	-11.3263
▁ਇੰਡੀਕੇਟਰਸ	-11.3264
rammo	-11.3264
▁ਹਦਾਇਤਾਂ	-11.3268
▁ਆਲੂ	-11.3268
▁ਇਸਲਾਮੀ	-11.327
▁Data	-11.3277
▁ਉਪਭੋਗੀਆਂ	-11.3285
ਕਾਮਰਸ	-11.3288
206	-11.3288
7.2	-11.3291
▁Point	-11.3298
tek	-11.33
▁call	-11.3311
▁Musk	-11.3312
▁ਲੈਨਜ	-11.3314
▁Char	-11.3316
-11-20	-11.3324
Box	-11.3325
▁Bish	-11.3326
▁ਦਰਜੇ	-11.333
2-4	-11.3332
▁ਸਹਿਜ	-11.3341
desi	-11.3346
▁ਪੁਸ਼	-11.3349
670	-11.3369
▁ਛਾਪਣ	-11.3375
tle	-11.338
▁ਕੰਪਿ	-11.3382
▁ਸਿੰਕ	-11.3383
2.8	-11.3389
▁Geo	-11.3397
metal	-11.3401
▁ਅੱਠੀ	-11.3406
bad	-11.3418
tab	-11.3428
▁ਪੈਣ	-11.3428
4.2	-11.3433
law	-11.3435
jia	-11.3438
left	-11.3449
ਮੌਜੂਦਾ	-11.3453
▁ਬਿਲਡ	-11.346
dictionary	-11.3461
Exhibition	-11.3461
activo	-11.3461
	-11.3461
ੈੱਨ	-11.3461
▁Amazing	-11.3461
▁WinRAR	-11.3461
▁iPhone	-11.3461
▁ultrasonic	-11.3461
▁ਅਣਗਿਣਤ	-11.3461
▁ਇੰਬੈੱਡ	-11.3461
▁ਐਫੀਲੀਏਟ	-11.3461
▁ਕਾਸਮੈਟਿਕ	-11.3461
▁ਕੈਲੀਫੋਰਨੀਆ	-11.3461
▁ਪ੍ਰਸੰਸਾ	-11.3461
▁ਪ੍ਰੋਗ੍ਰਾਮ	-11.3461
▁ਪ੍ਰੋਫੈਸਰ	-11.3461
▁ਫ਼ੈਸਲਾ	-11.3461
▁ਮੈਡੀਸਨ	-11.3461
▁ਰੈਜ਼ੋਲੇਸ਼ਨ	-11.3461
▁ਵਿਕਰੇਤਾ	-11.3461
▁ਸ਼ਮੂਲੀਅਤ	-11.3461
▁ਸੁਭਾਅ	-11.3461
▁ਹਕੂਮਤ	-11.3461
ж	-11.3461
▁ਐਲਐਲਸੀ	-11.3461
▁ਟੋਅਰਕ	-11.3461
👌	-11.3461
▁ਆਵਰਤੀ	-11.3461
▁ਸ਼ਿੰਗਾਰ	-11.3461
▁ਸਿਗਰਟ	-11.3461
▁ਉਂਗਲੀ	-11.3461
▁ਵੈੱਬਸਾਇਟ	-11.3461
▁please	-11.3461
▁ਵਿਸ਼ੇਸਤਾ	-11.3461
▁ਡਰੈਗ	-11.3461
▁TGG	-11.3461
▁ਅਵਾਜ਼	-11.3461
▁School	-11.3461
▁ਛੂਹ	-11.3461
▁entry	-11.3461
▁Japan	-11.3462
audio	-11.3462
▁Manager	-11.3462
▁ਵਾਯੂ	-11.3462
▁ਸਮਰੂਪ	-11.3462
ਫਾਇਲ	-11.3463
next	-11.3465
punjabicouple	-11.3465
▁ਮਿਲਟਰੀ	-11.3466
▁ਸਰਵੋ	-11.3466
▁ਹਿੰਦੂ	-11.3468
europe	-11.3469
▁ਪਾਈਪਲਾਈਨ	-11.3472
🙏🙏	-11.3472
▁ਗ੍ਰਹਿਣ	-11.3488
ਟਿਲ	-11.3492
▁ਲਿਖਤੀ	-11.3495
▁ਕੀਨੀਆ	-11.3497
▁ਮਨਾਉਣ	-11.3506
▁ਖੋਲ	-11.3511
▁ਸਕੋ	-11.3525
▁3.6	-11.3525
▁ਯੂਵੀ	-11.3529
▁ਸਮਾਜਕ	-11.3531
▁ਮੰਨਣ	-11.3541
760	-11.3554
mba	-11.3558
▁2.7	-11.356
ਜੂਨ	-11.3564
▁List	-11.3573
ਿੰਡ	-11.3573
fast	-11.3573
9.0	-11.3574
▁10,000	-11.358
▁ਤੀਰ	-11.3588
SSL	-11.36
▁Post	-11.3601
Gem	-11.3604
▁Qt	-11.3612
▁high	-11.3616
IU	-11.362
ਖੋਜ	-11.3628
▁ਤੰਦਰੁਸਤ	-11.3649
trac	-11.365
▁ਡਾਇਰੈਕਟ	-11.3654
ਟ੍ਰੇਨਰ	-11.3657
▁ਰਹਿੰਦ	-11.3658
▁imp	-11.3662
968	-11.3663
transaction	-11.3674
👉	-11.3674
ਬਿੰਦੂ	-11.3675
Google	-11.3675
ि	-11.3678
✔	-11.3678
▁IFFCO	-11.3678
▁January	-11.3678
▁Koowheel	-11.3678
▁scheme	-11.3678
▁ਅਫਸੋਸ	-11.3678
▁ਅਮਰਦਾਸ	-11.3678
▁ਕੈਪਟਚਾ	-11.3678
▁ਚੁੰਘਾਉਣਾ	-11.3678
▁ਪ੍ਰੋਫੈਸ਼ਨਲ	-11.3678
▁ਬੇਦਾਅਵਾ	-11.3678
▁ਭੌਤਿਕ	-11.3678
▁ਸੰਚਾਲਨ	-11.3678
Calendar	-11.3678
▁Business	-11.3678
▁ਦ੍ਰਿਸ਼ਟੀਕੋਣ	-11.3678
▁ਬੋਸਨੀਆ	-11.3678
▁ਮਾਰਕੈਚ	-11.3678
▁ਸੰਪਾਦਨ	-11.3678
▁ਕੇਮੇਰਾ	-11.3678
▁ਪ੍ਰਸੰਗ	-11.3678
▁$/€	-11.3678
▁Sluts	-11.3678
▁ਸਾਂਬਾ	-11.3679
▁ਚਿਕਨ	-11.3679
▁Singh	-11.3679
▁grinder	-11.3679
▁IRC	-11.3679
▁ਗਾਰਡੀਅਨ	-11.3679
❤️	-11.3679
Outs	-11.3679
▁ਸਮੇਟਣ	-11.3679
▁Prepar	-11.3679
▁ਬਚਪਨ	-11.368
▁ਬਹਾਲ	-11.3681
▁ਟਿੱਪ	-11.3681
▁ਸੁਣਵਾਈ	-11.3682
▁Tianse	-11.3682
▁ਬਚਾਇਆ	-11.3683
▁ਨੈਨੋ	-11.3683
▁ਹਿੰਦੀ	-11.3683
▁ਦਹਿਲਾ	-11.3683
guay	-11.3684
▁4.3	-11.3684
▁ਪੰਚਿੰਗ	-11.3685
artist	-11.3685
▁speed	-11.3685
DAY	-11.3686
keyboard	-11.3687
6.2	-11.3689
▁ਲਾਟੂ	-11.3689
▁What	-11.3692
▁ਦੁੱਖ	-11.3697
▁Rom	-11.3698
vert	-11.3699
▁ਅਜਿਹੀਆਂ	-11.3701
▁ਬਾਥ	-11.3701
itude	-11.3703
▁ਸੋਚੋ	-11.3705
▁ਗੰਭੀਰਤਾ	-11.3705
▁Over	-11.3708
▁Rock	-11.3713
▁ਮੋਟੀ	-11.372
▁intable	-11.3725
▁ਲਿਟਰ	-11.3728
▁ਗੋਲੀਆਂ	-11.3728
▁ਕੌਰ	-11.3732
ਹੈਕ	-11.3732
ਵਾਂਗਾ	-11.374
▁ਸ਼੍ਰੇਣੀਆਂ	-11.3753
ਿਸਤਾਨ	-11.3758
▁ਸਮਝਣਾ	-11.376
▁ਘੁੰਮਾਉਣ	-11.3766
ਲਿੰਕ	-11.3769
position	-11.3772
ਲਿਵ	-11.3795
84.2	-11.3797
Sync	-11.3808
▁ਮਾਡ	-11.3816
▁ਮੋਹ	-11.3818
model	-11.3818
▁Cool	-11.3822
▁guy	-11.3822
rating	-11.3856
2.4	-11.3871
ਇੰਡ	-11.3876
▁porno	-11.3877
▁ਸਵੈਪ	-11.3882
▁0086	-11.3891
▁ਜਮ੍ਹਾ	-11.3898
QXml	-11.39
▁212658025028	-11.39
▁Aquarium	-11.39
▁Insurance	-11.39
▁Jaishi	-11.39
▁Maruko	-11.39
▁mFortune	-11.39
▁ਅਸਥਿਰ	-11.39
▁ਕਲਾਂਈਟ	-11.39
▁ਛੇੜਛਾੜ	-11.39
▁ਧੁੱਪ	-11.39
▁ਨਸ਼ੀਲੇ	-11.39
▁ਪਰਮਾਣਿਤ	-11.39
▁ਪ੍ਰੋਟੋਕੋਲ	-11.39
▁ਪੜਚੋਲ	-11.39
▁ਯੈਲੋ	-11.39
▁ਰੈਗੂਲੇਸ਼ਨ	-11.39
▁ਵਰਣਮਾਲਾ	-11.39
▁ਵਾਸਤਵ	-11.39
▁ਸਮਾਰੋਹ	-11.39
▁ਸਮੂਏਲ	-11.39
😊	-11.39
collection	-11.39
▁ਆਗਾਮੀ	-11.39
▁ਇੰਕੋਡਰ	-11.39
▁ਜਣੇਪੇ	-11.39
▁ਪਿੱਛਾ	-11.39
▁ਬਜਾਇ	-11.39
▁ਕਟੋਰੇ	-11.39
▁ਚਮਤਕਾਰ	-11.39
š	-11.39
turas	-11.39
ਅੰਤਰਜਾਤੀ	-11.39
▁Hunter	-11.39
▁ਸਿੱਟਾ	-11.39
▁where	-11.3901
▁ਸੈਂਸਰ	-11.3901
▁GMT	-11.3901
▁ਪ੍ਰੇਰਨਾ	-11.3901
▁ਹੋਲਡਰ	-11.3901
▁team	-11.3901
▁ਮੈਦਾਨ	-11.3901
▁Sewing	-11.3901
▁ਸੈਕਰੋਨਾਈਜ਼ੇਸ਼ਨ	-11.3901
£200	-11.3901
▁ਸ਼ੀਸ਼ੀ	-11.3902
▁very	-11.3902
▁Hook	-11.3902
▁hours	-11.3902
▁Tips	-11.3902
▁ਅਮੀਰਾਤ	-11.3902
▁ਬਹਿਸ	-11.3903
Casino	-11.3903
▁ਭੂਮੀ	-11.3904
drive	-11.3905
ਕਿਸਮ	-11.3906
▁ਅੰਤਿਮ	-11.3908
▁ਮਨਾਇਆ	-11.391
▁ਦਰਮਿਆਨੇ	-11.3912
▁III	-11.3913
▁Mont	-11.3919
project	-11.3922
▁spe	-11.3926
▁ਬੈਠੇ	-11.3926
ਮਾਰਚ	-11.3927
▁ਛਾਪੇ	-11.3928
▁RMB	-11.393
▁ਰਹਿੰਦੀ	-11.3934
▁Sheng	-11.3938
▁ਅਸਫਲਤਾ	-11.3952
ੇਟਿਡ	-11.3954
▁ਜਾਰਜ	-11.3958
fox	-11.3974
▁ਸੁੱਟਣ	-11.3979
poli	-11.3981
UTF	-11.3982
ਖ਼ਤ	-11.3985
▁0086-13	-11.3996
maan	-11.4001
usion	-11.4002
▁fun	-11.4016
kick	-11.4028
ਪੱਖੀ	-11.4061
guard	-11.4068
wide	-11.4082
odo	-11.4088
II	-11.4091
▁ਲੀਕ	-11.4096
▁10.1	-11.4098
▁ਸੰਗਤ	-11.4099
▁ਕੂਕੀ	-11.4115
▁ਸਫਰ	-11.4118
✅	-11.4128
icaragua	-11.4128
ó	-11.4128
▁3.2.160	-11.4128
▁Carolina	-11.4128
▁FaceTime	-11.4128
▁Ruptela	-11.4128
▁Seguidores	-11.4128
▁people	-11.4128
▁variant	-11.4128
▁ਇਕਵੇਰੀਅਮ	-11.4128
▁ਟਕਸਾਲੀ	-11.4128
▁ਡਿਪਰੈੱਸ਼ਨ	-11.4128
▁ਫੋਰਕਲਿਫਟ	-11.4128
▁ਭਰੋਸੇਮੰਦ	-11.4128
▁ਰੈਗੂਲੇਟਰ	-11.4128
▁ਸ਼ੂਗਰ	-11.4128
▁ਹਫਤਿਆਂ	-11.4128
▁(2012)	-11.4128
▁direction	-11.4128
▁ਠੱਗੀ	-11.4128
▁ਰੂਹਾਨੀ	-11.4128
▁ਪਰਦੇਦਾਰੀ	-11.4128
▁Cutting	-11.4128
▁Rooder	-11.4128
▁ਪਗ਼	-11.4128
▁ਇੰਜੀਲ	-11.4128
▁sexy	-11.4128
▁ਜਿੰਨੇ	-11.4128
▁ਹਿਸਾਬ	-11.4128
width	-11.4128
▁ਚੰਡੀਗੜ੍ਹ	-11.4128
/01/20	-11.4128
ਫਲਾਈ	-11.4128
sandhu	-11.4128
▁Clans	-11.4128
▁24/7	-11.4128
▁ਜੁੱਤੇ	-11.4129
▁(2011)	-11.4129
▁£200	-11.4129
▁Camping	-11.4129
▁ਕੌਫੀ	-11.4129
▁Contactor	-11.4129
▁ਬਹੁਮਤ	-11.4131
▁Orange	-11.4132
▁ਰੋਜਰ	-11.4132
▁ਕੈਪਚਰ	-11.4132
▁ਸ਼ੌਕ	-11.4133
▁ਜਾਰਜੀਆ	-11.4133
▁URI	-11.4133
▁ਬਾਜ਼ਲ	-11.4133
▁ਪ੍ਰਵਾਹ	-11.4133
866	-11.4134
Video	-11.4136
▁2013-2019	-11.4137
ਸਰੋਤ	-11.4139
▁ਖਿੱਚਿਆ	-11.414
▁ਵਧਾਇਆ	-11.4141
▁ਵਾਪਰਦਾ	-11.4142
▁Motor	-11.4145
▁Match	-11.4155
▁Lyn	-11.4155
ਹੁਣੇ	-11.4155
9660	-11.4156
▁Word	-11.4157
.12.20	-11.4165
▁ਬੇਅਰ	-11.4166
▁ਖੋਲਣ	-11.4172
-2002	-11.4175
▁ਰੋਟੀ	-11.4184
▁Base	-11.4188
beh	-11.4189
▁ਪਕਵਾਨ	-11.4189
tl	-11.419
ੋਂਗ	-11.4198
ਪੀਐਮ	-11.4203
ਮੁੱਚ	-11.421
ਬਾਤ	-11.4219
lash	-11.4233
▁Rui	-11.4261
▁ਬੋਲਟ	-11.4271
house	-11.4279
▁ਸੱਟਾ	-11.4299
ਸਾਈਟ	-11.4321
flag	-11.4326
▁ਬੈਠਕ	-11.4338
dom	-11.4339
▁(10)	-11.4346
▁ਝਟਕਾ	-11.4349
stonia	-11.4352
GO	-11.4357
▁ਲਿਖਤ	-11.4358
instagood	-11.436
ह	-11.436
community	-11.436
▁ਭ੍ਰਿਸ਼ਟ	-11.436
▁Antivirus	-11.436
▁Canadian	-11.436
▁Guesthouse	-11.436
▁Sinocastel	-11.436
▁armenia	-11.436
▁author	-11.436
▁character	-11.436
▁nickname	-11.436
▁shelves	-11.436
▁ਓਪਰੇਟਰ	-11.436
▁ਖੂਬਸੂਰਤ	-11.436
▁ਡ੍ਰੌਪ	-11.436
▁ਪਰਿਭਾਸ਼ਾ	-11.436
▁ਪ੍ਰਸ਼ਾਂਤ	-11.436
▁ਫ਼ੈਸਲਾਕੁੰਨ	-11.436
▁ਫੈਕਲਟੀ	-11.436
▁ਬੈਕਟੀਰੀਆ	-11.436
▁ਬੋਸਵਰਥ	-11.436
▁ਬੰਗਲੌਰ	-11.436
▁ਰੀਵਿਜ਼ਨ	-11.436
▁ਵਿਸਤ੍ਰਿਤ	-11.436
▁ਵੇਰੀਬਲ	-11.436
▁ਸਿਲੀਕਾਨ	-11.436
▁Sitemap	-11.436
▁ਘਾਤਕ	-11.436
▁ਡਰਾਫਟ	-11.436
▁ਡੈਲਟਾ	-11.436
▁ਤਿਕੋਣ	-11.436
▁ਕੁਇਜ਼	-11.436
▁ਦਰਸਾਇਆ	-11.436
routes	-11.436
▁ਅਪਲੋਡ	-11.436
▁Support	-11.436
▁dialog	-11.436
▁NEMA	-11.436
▁ਜੀਪੀਐਸ	-11.436
ਲੈਟੇਕਸ	-11.436
▁ਨਾਰਮਲ	-11.436
▁ਕ੍ਰਿਪਾ	-11.436
▁ਫਾਲਸ	-11.436
▁ਕਰਾਚੀ	-11.436
▁ਟ੍ਰੇਡਮਾਰਕ	-11.4361
▁ਫੁਟੇਜ	-11.4361
▁Chengxi	-11.4361
Source	-11.4361
▁Cartr	-11.4361
▁ਜਾਅਲੀ	-11.4361
▁ਖਾਂਦੇ	-11.4362
▁ਨਸ਼ੇ	-11.4362
▁ਲੰਗਰ	-11.4362
▁ਪ੍ਰੋਫਾਰਮ	-11.4362
▁ਚੈਕਆਉਟ	-11.4362
▁ਕਰਵਾਇਆ	-11.4362
▁ਆਈਸਲੈਂਡ	-11.4362
▁ਸ਼ਾਰਟ	-11.4363
ੳੁ	-11.4363
▁ਉਪਚਾਰ	-11.4363
▁ਟ੍ਰੇਡ	-11.4364
▁ਸੈਸਰ	-11.4364
▁ਫਲੀਟ	-11.4365
▁ਰੰਗੀਨ	-11.4365
▁ਕਾਰਜਸ਼ੀਲ	-11.4365
▁ਮੁਖੀ	-11.4366
special	-11.4366
haiti	-11.4366
▁ਬਲਕਿ	-11.4367
▁ਕੂਲਡ	-11.4368
Flex	-11.4368
▁ਭੇਦ	-11.4368
▁ਪਰੰਤੂ	-11.4369
▁Oct	-11.4371
▁ਹਟਾਉਣਯੋਗ	-11.4371
Tube	-11.4371
▁ਜਿਗਰ	-11.4372
ਦੋਸਤਾਨਾ	-11.4373
ਸ਼ੈਲੀ	-11.4373
ਸਿਹਤ	-11.4373
group	-11.4375
ਚੋਣ	-11.4377
ਚਾਲੂ	-11.4377
▁ਖਾਕੀ	-11.4377
ਸਕੈਨ	-11.4378
ਯਾਨ	-11.4381
Casting	-11.4389
nav	-11.439
▁RGB	-11.439
▁ਨੇਪਾਲ	-11.4391
▁ਫ਼ਰਕ	-11.4392
▁ਬਚਤ	-11.4393
▁ਪਾਰਟੀਆਂ	-11.44
▁ਨੀਲੀ	-11.4401
block	-11.4407
phen	-11.4416
▁1.7	-11.4442
active	-11.445
start	-11.4472
1.20	-11.4496
▁ਕੈਟ	-11.4501
▁Map	-11.4505
▁3.3	-11.4538
▁ਹਿਲਾ	-11.4541
sitemap	-11.4544
water	-11.4554
uki	-11.4565
▁ਗਾਰਡ	-11.4573
▁ਸਟਿੱਕ	-11.458
▁his	-11.4582
ъ	-11.4598
दी	-11.4598
australia	-11.4598
zbekistan	-11.4598
▁Legends	-11.4598
▁Marrakech	-11.4598
▁ਆੱਨਲਾਈਨ	-11.4598
▁ਇਲੈਕਟ੍ਰੋਨਿਕਸ	-11.4598
▁ਟੈਕਨਾਲੋਜੀ	-11.4598
▁ਤੇਨਿਰਭਰ	-11.4598
▁ਥਕਾਵਟ	-11.4598
▁ਥੋੜ੍ਹੀ	-11.4598
▁ਦੂਰਸੰਚਾਰ	-11.4598
▁ਪਹਿਰਾਵੇ	-11.4598
▁ਪ੍ਰਦਰਸ਼ਿਤ	-11.4598
▁ਬਿਸਤਰਾ	-11.4598
▁ਬੋਹੀਮੀਅਨ	-11.4598
▁ਰਿਬੇਟਸ	-11.4598
▁ਸਕੇਟਬੋਰਡ	-11.4598
▁ਸੰਖਿਆ	-11.4598
▁ਹਾੰਗਜ਼ੌ	-11.4598
▁ਿਚਪਕਣ	-11.4598
、	-11.4598
🇫	-11.4598
🍁	-11.4598
▁ਮੁਸਕਾਨ	-11.4598
▁ਵੇਹਲਾ	-11.4598
▁ਛਿੱਕੀ	-11.4598
"]],	-11.4598
▁Resort	-11.4598
▁ਤਿੱਕੀ	-11.4598
▁ਕਾਮਯਾਬ	-11.4598
▁Randy	-11.4598
▁ਮੰਜੇ	-11.4598
▁Dream	-11.4598
▁ਸਮੁੱਚੀ	-11.4598
Double	-11.4598
solution	-11.4599
▁Worldwide	-11.4599
▁ਫਿੰਗਰ	-11.4599
sidhu	-11.4599
▁TWD	-11.4599
▁ਬੈਨਰ	-11.4599
▁ਖੇਹ	-11.4599
writer	-11.4599
▁ਕੰਪੈਕਟ	-11.4599
ujeer	-11.4599
▁import	-11.4599
▁Pepper	-11.4599
▁ਕਿਨਾਰੀ	-11.4599
▁ਦਲਾਲ	-11.4599
▁ਸ਼ੈਡੋ	-11.46
▁ਭੂਗੋਲਿਕ	-11.4601
▁ਸਪੂਲ	-11.4601
▁ਢਾਲ	-11.4601
▁ਇਨਡੋਰ	-11.4601
▁ਗਤੀਸ਼ੀਲ	-11.4601
punjabimodel	-11.4602
▁ਨਿਕਾਸ	-11.4602
▁ਰਿਬਨ	-11.4603
▁ਰਾਇਟਰ	-11.4603
▁ਯਾਦਗਾਰ	-11.4603
▁ਸਟਾਪ	-11.4604
▁ਕੁਮਾਰ	-11.4605
▁ਬੂੰਦ	-11.4605
▁sign	-11.4607
▁Bollywood	-11.4607
▁ਮਦਦਗਾਰ	-11.4608
▁ਲਿਫਟਿੰਗ	-11.4609
▁ਨਿਰਣਾ	-11.461
▁KPR	-11.4611
▁ਮੋਨੋ	-11.4611
9-2	-11.4612
▁ਤਰੰਗ	-11.4614
▁ਹਿੱ	-11.4614
▁ਫਲੋਰਿੰਗ	-11.4615
6.1	-11.4616
ਵੀਡੀਓ	-11.4617
ਸੁੰਦਰਤਾ	-11.4618
ਸ਼ਾਮਿਲ	-11.4619
system	-11.462
Disc	-11.462
ਕਾਰਪੋਰੇਸ਼ਨ	-11.4621
▁ਪ੍ਰਕਿਰਿਆਵਾਂ	-11.4626
▁ਸਕ੍ਰ	-11.4639
-04-	-11.4641
9°	-11.4642
2,50	-11.4644
▁ਜੈਮ	-11.4652
album	-11.4672
BTC	-11.4679
ਵਿਧ	-11.4688
▁ਪੌੜੀ	-11.4691
ਪੰਜ	-11.4697
punjabivideo	-11.4718
ਾਈਜ਼ੇਸ਼ਨ	-11.4729
▁ਸਟ੍ਰੈ	-11.474
raq	-11.4744
▁Bei	-11.4744
ific	-11.4746
50,000	-11.4755
▁anti	-11.4772
▁ਘੁਲ	-11.478
fix	-11.4783
ਾਉਂਡ	-11.4795
String	-11.4799
bao	-11.4805
5.3	-11.4806
6.3	-11.4826
xxx	-11.4837
▁ਸੁਝਾ	-11.484
elecharger	-11.4842
▁Bulldozer	-11.4842
▁HdRede	-11.4842
▁Powder	-11.4842
▁xHamster	-11.4842
▁ਅੱਲ੍ਹਾ	-11.4842
▁ਏਕੀਕ੍ਰਿਤ	-11.4842
▁ਛੁਟਕਾਰਾ	-11.4842
▁ਜੁਆਇੰਟ	-11.4842
▁ਟੈਲੀਗ੍ਰਾਮ	-11.4842
▁ਟ੍ਰੈਫਿਕ	-11.4842
▁ਡਿਕਸ਼ਨਰੀ	-11.4842
▁ਪੁਰਸਕਾਰ	-11.4842
▁ਪ੍ਰਸਤਾਵ	-11.4842
▁ਮਾਸ੍ਕੋ	-11.4842
▁ਰਿਵਨਿਆ	-11.4842
▁ਰੁੱਝ	-11.4842
▁ਵਲੰਟੀਅਰ	-11.4842
▁ਵੇਹੜਾ	-11.4842
▁ਹੈਲਪਲਾਈਨ	-11.4842
🇼	-11.4842
ghaint	-11.4842
▁ਝੰਡਾ	-11.4842
▁ਪਤਝੜ	-11.4842
▁ਸੰਸਕਰਣ	-11.4842
▁ਝਿਜਕ	-11.4842
▁ਪਾਇਲਟ	-11.4842
▁ਵਿਵਲਨ	-11.4842
▁ਗੂੰਦ	-11.4842
▁ਸਿੱਟੇ	-11.4842
▁December	-11.4842
▁ਸਟਰੋਕ	-11.4842
▁ਇਨਕਲਾਬ	-11.4842
▁MXN	-11.4842
Lobster	-11.4842
▁ਬੁਕਿੰਗ	-11.4842
▁ਜੇਲ੍ਹ	-11.4842
/02/20	-11.4842
▁erotica	-11.4843
▁MYR	-11.4843
▁local	-11.4843
▁TCP	-11.4843
▁ਚਿੱਠੀ	-11.4843
▁partition	-11.4843
▁ਯੁਆਨ	-11.4843
picture	-11.4845
▁ਉਪਕਰਨ	-11.4845
▁ਪ੍ਰਿੰਸ	-11.4845
▁ਸਟੇਜ	-11.4845
▁ਪਤਰਸ	-11.4848
▁ਕਲੈਪ	-11.4848
hutan	-11.4848
▁ਕਸਟਮਾਈਜ਼ਡ	-11.4849
▁ਟ੍ਰੇਨਿੰਗ	-11.485
▁ਉਵੇਂ	-11.4853
▁ਸੰਯੋਗ	-11.4854
▁ਫੇਲ	-11.4854
▁SEK	-11.4855
▁ਨੰਗੇ	-11.4856
▁ਪਿਆਦੇ	-11.4857
▁ਜੁੜੋ	-11.4859
▁ਕਮਿਟ	-11.4862
▁ਟ੍ਰੇਨ	-11.4864
ਬ੍ਰਾਜ਼ੀਲ	-11.4866
help	-11.4867
ਲੁਟੇਰਾ	-11.4867
Unlimited	-11.4867
ਜਪਾਨੀ	-11.4867
ਲੰਬਾਈ	-11.4867
ਯਾਤਰਾ	-11.4867
▁PID	-11.4868
DVD	-11.4869
▁ਵੋਟਿੰਗ	-11.4872
iyan	-11.4872
(5)	-11.4877
▁ਡੌ	-11.4884
▁nad	-11.489
burn	-11.4895
▁ਪੌਲੀ	-11.4898
▁ਪੀਅਰ	-11.49
ਭੂ	-11.4903
▁ਰੱਖਦੀ	-11.4913
▁Suit	-11.4928
Connect	-11.494
dale	-11.4967
9.95	-11.4969
11.20	-11.4971
jatti	-11.4972
rise	-11.4979
▁ਮੰਡੀ	-11.4985
1.6	-11.5008
utter	-11.5012
▁ਅਬਦ	-11.5014
898	-11.5032
9.4	-11.5042
▁ਐਲਈਡ	-11.5063
ਣਸ਼ੀਲ	-11.5072
▁ਦਰਮਿਆਨ	-11.508
▁ਟੈਪ	-11.5084
poetry	-11.5089
្	-11.5092
ç	-11.5092
ਰਾਂਝਾ	-11.5092
▁CoinCETI	-11.5092
▁RedeLin	-11.5092
▁Remote	-11.5092
▁WeChat	-11.5092
▁ਅੰਡਾਕਾਰ	-11.5092
▁ਕਠੋਰ	-11.5092
▁ਗਿੱਬਸ	-11.5092
▁ਦਹਾਕੇ	-11.5092
▁ਮੁਕੱਦਮਾ	-11.5092
▁ਵਫ਼ਾਦਾਰ	-11.5092
▁ਸੁਨਿਸ਼ਚਿਤ	-11.5092
▁ਹਾਸ਼ੀਏ	-11.5092
:$1_	-11.5092
patiala	-11.5092
▁Tokio	-11.5092
▁ਐਕਸਟੈਂਸ਼ਨ	-11.5092
▁ਥ੍ਰੈਡ	-11.5092
▁ਦਰਸਾਉਂਦੀ	-11.5092
▁ਨਿਬੰਧਨ	-11.5092
▁ਪ੍ਰਸ਼ੰਸਕ	-11.5092
▁ਬਲਾਤਕਾਰ	-11.5092
▁ਪੈਮਾਨਾ	-11.5092
▁ਵੈਬਸਾਇਟ	-11.5092
і	-11.5092
▁ਜਜ਼ਬਾਤ	-11.5092
USMLE	-11.5092
▁Jumma	-11.5092
▁ਡਿਊਲ	-11.5092
▁ਬਿਜਨਸ	-11.5092
▁Hammer	-11.5092
powder	-11.5092
▁Speed	-11.5092
▁means	-11.5092
▁Twin	-11.5093
▁ਮੇਲੇਟੀ	-11.5093
▁Castle	-11.5093
▁ਵੀਰਵਾਰ	-11.5093
▁admin	-11.5093
▁Erw	-11.5093
config	-11.5093
▁ਸਿਲਾਈਕੋਨ	-11.5093
▁ਅਪਣਾਇਆ	-11.5093
▁ਸਲੀਵ	-11.5093
▁ਯੁੱਗ	-11.5093
▁ਭੁੱਖ	-11.5093
▁ਯਾਹੂ	-11.5094
▁Money	-11.5094
▁ਸਮਤਲ	-11.5094
▁ਸਤ੍ਹਾ	-11.5095
▁ਦੋਨਾਂ	-11.5095
▁ਲੁੱਟ	-11.5096
▁Master	-11.5096
▁Airport	-11.5096
▁Panda	-11.5096
▁ਪਲੈਨ	-11.5096
▁Poly	-11.5097
.07.20	-11.5098
▁ਲਾਗਆਉਟ	-11.5098
▁ਸਤਿਕਾਰ	-11.5099
▁ਸਪੈਕਟਰਮ	-11.5099
essa	-11.51
.03.20	-11.51
Order	-11.51
▁ਸਰਜਨ	-11.5101
▁(13)	-11.5105
▁ਕਟਿੰਗ	-11.5108
▁ਨੰਗਾ	-11.5108
▁ਕਾਬੂ	-11.5109
▁ਮਾਲਟਾ	-11.5112
▁TOP	-11.5114
▁ਆਕਸੀ	-11.5116
▁100,000	-11.5117
filter	-11.5122
▁ਆਤਮ	-11.5122
HTML	-11.5124
ਜੁਲਾਈ	-11.5125
(1)	-11.5139
amount	-11.5141
(2)	-11.5144
talk	-11.5158
▁1-2	-11.5169
4-4	-11.5178
▁ਦੋਸ਼ੀ	-11.5178
Flange	-11.5181
ਟ੍ਰੈਡ	-11.52
Braz	-11.5209
▁State	-11.5225
ਫਿਨ	-11.5227
gging	-11.523
▁ਚੜ੍ਹਨ	-11.5256
0:03	-11.5288
ਚਲਣ	-11.53
▁cost	-11.5304
0,000,000	-11.5321
_______	-11.5326
Next	-11.5346
Window	-11.5348
▁ਅੰਮ੍ਰਿਤ	-11.5348
▁ਲਿਮਟ	-11.5349
▁ਜਿੰਮੇਵਾਰ	-11.5349
86-0755-27613097	-11.5349
bosnia	-11.5349
erzegovina	-11.5349
ibility	-11.5349
φ	-11.5349
▁Amazon	-11.5349
▁KRunner	-11.5349
▁Manitoba	-11.5349
▁Yueqing	-11.5349
▁attribute	-11.5349
▁ਐਬਸਟਰੈਕਟ	-11.5349
▁ਐਮਰਜੈਂਸੀ	-11.5349
▁ਤੈਰਾਕੀ	-11.5349
▁ਫ੍ਰੈਂਕ	-11.5349
▁ਰੀਸਾਈਕਲ	-11.5349
▁ਸ਼ਬਦਾਵਲੀ	-11.5349
▁(2013)	-11.5349
▁Alaska	-11.5349
▁Anchor	-11.5349
▁ਮਾਮੂਲੀ	-11.5349
▁ਵੇਅਰਹਾਊਸ	-11.5349
▁ਸ਼ੈਲਫ	-11.5349
▁ROHS	-11.5349
▁ਟ੍ਰੇਲਰ	-11.5349
ਦਿਲ੍ਡੋ	-11.5349
▁ਯਹੂਦੀ	-11.5349
▁ਰੋਟਰ	-11.5349
▁ਵਿੰਟਰ	-11.5349
▁Hyper	-11.5349
▁Wanted	-11.5349
▁ਮਸ਼ਾਲ	-11.5349
▁ਖ਼ਤਰਾ	-11.5349
▁ਸਤਿਗੁਰ	-11.5349
▁ਆਦਤ	-11.5349
▁ਗੇਂਦ	-11.5349
▁ਬੇਗਮ	-11.5349
ਚੱਟਦੇ	-11.5349
▁headers	-11.5349
▁ਸਕਾਟ	-11.5349
▁ਟੋਕਨ	-11.5349
▁ਕਸਬੇ	-11.5349
▁ਉੱਚਤਮ	-11.5349
▁(866)	-11.5349
▁ਵਧੀਕ	-11.5349
▁ਦ੍ਰਿੜ	-11.535
▁ਟਰਾਂਸਪੋਰਟ	-11.535
▁Classic	-11.535
▁ਖਿੱਤੇ	-11.535
pakistan	-11.535
TION	-11.535
▁program	-11.535
▁ਡਿਰਲ	-11.535
jattlife	-11.535
▁week	-11.5351
▁ਟੇਬਲੇਟ	-11.5352
▁ਫਾਈਲੈਸ	-11.5356
▁ਬਾਹਤ	-11.5358
▁match	-11.5358
▁ਪਾਉਂਦੇ	-11.5362
▁ਤਾਰੀਖ਼	-11.5363
▁ਚੁੱਕਿਆ	-11.5368
▁ਜੁਰਮ	-11.5372
▁ਜੂਏ	-11.5373
▁(20)	-11.5374
ungen	-11.5375
▁ਪਤਲੀ	-11.5381
▁ਬਾਹ	-11.5384
15°	-11.5384
Type	-11.5386
ਪੁਰਾਣਾ	-11.5386
ਛੁਪਾਓ	-11.5387
ਅਕਤੂਬਰ	-11.5387
ਸੰਪਰਕ	-11.5387
ਦੂਜੇ	-11.5392
12345	-11.5394
▁ਦਾਖ਼ਲ	-11.5396
ਹੋਸਟ	-11.5398
ਬਾਹਰ	-11.54
ਿਜ਼ਮ	-11.5415
▁Petr	-11.5417
577	-11.5484
HQ	-11.5506
ਸਟੇਟ	-11.5524
▁86-18	-11.5541
730	-11.5563
▁Buy	-11.5591
abl	-11.5594
chang	-11.5598
▁spo	-11.5599
▁ਲੇਵ	-11.5607
"],	-11.5607
▁ਭੂਗੋਲ	-11.5609
Phonon	-11.5612
XLIFF	-11.5612
▁1-800-3	-11.5612
▁Botanix	-11.5612
▁Chelsea	-11.5612
▁Dropshipping	-11.5612
▁EthereumETH	-11.5612
▁alumina	-11.5612
▁leggings	-11.5612
▁shearing	-11.5612
▁ਅਸ਼ਲੀਲ	-11.5612
▁ਅਹੁਦੇ	-11.5612
▁ਇੰਸਟੌਲ	-11.5612
▁ਐਕਸਪ੍ਰੈੱਸ	-11.5612
▁ਗੋਬਿੰਦ	-11.5612
▁ਚੁੰਮਣ	-11.5612
▁ਟੰਗਸਟਨ	-11.5612
▁ਤਰੀਕਿਆਂ	-11.5612
▁ਨੈਵੀਗੇਸ਼ਨ	-11.5612
▁ਬਦਕਿਸਮਤੀ	-11.5612
▁ਮੈਨਿਜਮੈਂਟ	-11.5612
▁ਰੈਗੂਲਰ	-11.5612
▁ਸੁਸਾਇਟੀ	-11.5612
▁ਸੌਫਟਵੇਅਰ	-11.5612
▁ਹਾਦਸੇ	-11.5612
Zombie	-11.5612
▁ਹਾਰਡਕੈਪ	-11.5612
Screen	-11.5612
rikoooo	-11.5612
▁(2010)	-11.5612
▁ਕੱਤਣ	-11.5612
ਇੰਡੋਨੇਸ਼ੀਆਈ	-11.5612
▁ਵਿਵਰਣ	-11.5612
▁Texas	-11.5612
▁Version	-11.5612
▁ਇੰਗਲਡ	-11.5612
▁Cixi	-11.5612
▁ਵਿਤਰਕ	-11.5612
▁ਟਵੀਟ	-11.5612
▁ਅਜਮਾ	-11.5612
▁ਕੁਰਾਨ	-11.5612
▁ਫਿਲਿਪ	-11.5612
▁ਦੁੱਕੀ	-11.5612
▁ਟੈਂਪ	-11.5612
▁ਦਰਸਾਉਣ	-11.5612
UAH	-11.5612
▁ਪ੍ਰਵਾਸੀ	-11.5612
▁ਪਿਲਨ	-11.5612
▁ਟਰਾਂਸੈਕਸ਼ਨ	-11.5613
▁Carbon	-11.5613
▁ਅਪਣਾਉਣ	-11.5613
▁ਵੇਲਣੇ	-11.5613
sardarni	-11.5613
▁ਬੋਸਟਨ	-11.5614
▁Plus	-11.5614
▁ਜੀਵੰਤ	-11.5614
▁ਕੱਪੜਾ	-11.5614
▁ਨਗਨ	-11.5614
▁Check	-11.5614
▁ਤਿਆਗ	-11.5615
▁Undo	-11.5615
▁ਪਲਾਟ	-11.5615
▁ਜਿੰਨਾਂ	-11.5616
▁ਇਕੋਡਰ	-11.5619
▁ਹੋਣਗੀਆਂ	-11.562
▁ਮਾੜਾ	-11.562
▁ਹਟਾਈਆਂ	-11.5621
master	-11.5622
▁ਖਰਚਿਆਂ	-11.5623
▁ਡਰੋਨ	-11.5623
▁ਗੇੜ	-11.5623
▁main	-11.5623
▁ਥੱਕ	-11.5627
▁ਪਹੁੰਚਾਉਣ	-11.5628
▁ਰਾਈਡ	-11.5628
▁Train	-11.563
▁ਲੱਗਦੇ	-11.5631
▁ਬੰਨ	-11.5637
▁Huang	-11.5641
ਨਿਰਦੇਸ਼	-11.5656
ਵੋਲਟੇਜ	-11.5657
ਅਗਲਾ	-11.5657
ਵਧੇਰੇ	-11.5657
▁ਵਿਊ	-11.566
(10)	-11.5664
zech	-11.5667
ਜੀਵਨ	-11.5668
sales	-11.5697
4-2	-11.5705
uyana	-11.5707
File	-11.5715
SPI	-11.576
▁meta	-11.5803
drop	-11.5838
track	-11.5843
▁ਜਾਪਾਨ	-11.5854
▁ਫਿਟਿੰਗ	-11.5864
▁ਪੰਚ	-11.5874
▁ਗਤੀਵਿਧੀ	-11.5875
▁ਸਲੋਵਾਕ	-11.5881
boot	-11.5881
Indicator	-11.5882
▁MobileCasinoFun	-11.5882
▁ਮੋਨਟਰੀਆਲ	-11.5882
photography	-11.5882
х	-11.5882
▁Awaaz	-11.5882
▁Category	-11.5882
▁Decorative	-11.5882
▁Disney	-11.5882
▁Gulfstream	-11.5882
▁NxtNXT	-11.5882
▁Spotify	-11.5882
▁ਐਨਾਲਾਗ	-11.5882
▁ਕਿਰਿਆਸ਼ੀਲ	-11.5882
▁ਖੋਖਲੇ	-11.5882
▁ਗ੍ਰਿਫਤਾਰ	-11.5882
▁ਚਾਕਲੇਟ	-11.5882
▁ਜਿੰਨ੍ਹਾਂ	-11.5882
▁ਟਰੈਵਲ	-11.5882
▁ਦਸ਼ਮਲਵ	-11.5882
▁ਨਿਯੰਤਰਿਤ	-11.5882
▁ਪਰਮਾਣੂ	-11.5882
▁ਪਰਮੇਸ਼ਰ	-11.5882
▁ਪਿਰਾਮਿਡ	-11.5882
▁ਫੈਨਥਮ	-11.5882
▁ਬਪਤਿਸਮਾ	-11.5882
▁ਮਲਟੀਮੀਡਿਆ	-11.5882
▁ਮੁਹੰਮਦ	-11.5882
▁ਮੁੱਢਲਾ	-11.5882
▁ਵਿੰਸਟੇਜ	-11.5882
▁ਹੰਢਣਸਾਰ	-11.5882
▁中文	-11.5882
League	-11.5882
▁ਦਰਸਾਉਂਦੇ	-11.5882
▁ਪਬਲਿਸ਼	-11.5882
▁ਹਿੱਸਿਆਂ	-11.5882
▁Ultra	-11.5882
▁wireless	-11.5882
▁ਇਕਤ੍ਰਤਾ	-11.5882
▁ਐਨੀਮੇਟ	-11.5882
▁ਕਿਯੇਵ	-11.5882
▁ਸਾਊਦੀ	-11.5882
▁ਉੱਕਰੀ	-11.5882
▁ਖੁਸ਼ਕਿਸਮਤ	-11.5882
▁ਸ੍ਰੀਮਤੀ	-11.5882
▁coins	-11.5882
▁ਈਬੁਕ	-11.5882
▁ਸੁਹਜ	-11.5882
▁Avast	-11.5882
▁ਏਬੀਐਸ	-11.5882
▁ਪ੍ਰਜਨਨ	-11.5882
▁ਕਵਿਜ਼	-11.5882
▁ਬੁਲਾਇਆ	-11.5882
▁ਯੂਨਾਨੀ	-11.5882
▁Portable	-11.5882
▁ਥਰਮੋ	-11.5882
▁ਹਫਤਾ	-11.5882
▁ਬਰਾਮਦ	-11.5882
▁ਐਲਬਰਟ	-11.5882
▁ਸਲੀਬ	-11.5882
▁True	-11.5882
Product	-11.5883
pendu	-11.5883
Engine	-11.5883
▁ਟਿੱਕਰ	-11.5883
▁ਕੁਰਸੀ	-11.5884
▁Angel	-11.5884
▁ਡੈਨਿਸ਼	-11.5884
▁Under	-11.5885
▁ਹਾਉਸ	-11.5885
▁ਇੰਟਰਪ੍ਰ	-11.5886
▁ਸੰਸਥਾਗਤ	-11.5887
▁enter	-11.5888
▁Paper	-11.589
▁ਮਰਜ਼ੀ	-11.5891
▁ਲੂਕਾ	-11.5893
▁Love	-11.5895
▁ਵਿਖਾਈ	-11.59
▁icon	-11.5901
▁ਸਾਂਝੀਆਂ	-11.5902
▁+/-	-11.5903
(40)	-11.592
ਕੁਝ	-11.594
9.8	-11.5942
▁ਸੰਸਦ	-11.5944
zheng	-11.596
ੰਤੂ	-11.5964
image	-11.5978
▁8.2	-11.601
▁ਸਟੈਪ	-11.6025
9.3	-11.6054
ੱਖਣ	-11.6097
(12)	-11.6119
-01-20	-11.6126
▁ਛੁਪ	-11.616
▁price	-11.616
▁ਲਕਸ਼ਮਬਰਗ	-11.616
Object	-11.616
😂😂😂	-11.616
Tweezer	-11.616
alvador	-11.616
diljitdosanjh	-11.616
lyrics	-11.616
▁Avenue	-11.616
▁BitstakeXBS	-11.616
▁Borosilicate	-11.616
▁DocBook	-11.616
▁Jackpots	-11.616
▁KYOCERA	-11.616
▁PayCoinXPY	-11.616
▁Quality	-11.616
▁Silicone	-11.616
▁additive	-11.616
▁application	-11.616
▁separator	-11.616
▁ਆਕਸਾਈਡ	-11.616
▁ਜਲਵਾਯੂ	-11.616
▁ਤਤਕਰਾ	-11.616
▁ਦੁਰਘਟਨਾ	-11.616
▁ਨਿਸ਼ਚਤ	-11.616
▁ਫੁਟਬਾਲ	-11.616
▁ਬਖਸ਼ਿਸ਼	-11.616
▁ਭੁਵਨੇਸ਼ਵਰ	-11.616
▁ਮੁਆਵਜ਼ਾ	-11.616
▁ਰਵੱਈਏ	-11.616
▁ਸਾਮ੍ਹਣਾ	-11.616
▁Sauna	-11.616
▁ਟ੍ਰਾਂਜੈਕਸ਼ਨ	-11.616
▁ਪ੍ਰੇਰਣਾ	-11.616
▁Study	-11.616
▁ਇਰਾਦੇ	-11.616
▁ਗਾਇਬ	-11.616
▁ਟਰਿੱਕ	-11.616
▁ਮੰਗੋਲੀਆ	-11.616
▁ਰਾਬਰਟ	-11.616
▁HDMI	-11.616
plasma	-11.616
▁ਇਰਾਦਾ	-11.616
▁ਝਰਨੇ	-11.616
turban	-11.616
▁Battle	-11.616
▁[["	-11.616
▁ਬੰਡਲ	-11.616
▁ਉਧਾਰ	-11.616
▁ਚਟਾਕ	-11.616
▁ਥੋੜੇ	-11.616
▁GNU	-11.616
▁ਦਿਸਦਾ	-11.616
▁ਬੇਲਾਰੂਸ	-11.616
stream	-11.616
▁bytes	-11.616
▁export	-11.616
▁1.800.	-11.616
scriptionSample	-11.616
▁Smile	-11.616
▁GWA	-11.616
▁DTD	-11.616
▁UTC	-11.6161
▁ਵੇਗਾਸ	-11.6161
street	-11.6161
▁Movie	-11.6161
▁ਬੁੱਧਵਾਰ	-11.6161
▁Latest	-11.6162
ਡ੍ਰੀਮ	-11.6162
▁ਨੋਟਬੁੱਕ	-11.6163
perfect	-11.6163
▁ਕਰਜ਼ੇ	-11.6163
▁ਸਪੈਲ	-11.6164
▁ਹਿਲਾਉਣ	-11.6165
gular	-11.6166
▁ਡੌਕੂਮੈਂਟੇਸ਼ਨ	-11.6166
▁super	-11.6167
▁ਪੈਟਰੋ	-11.6167
▁ਅੰਕੜਾ	-11.6167
▁ਉਭਾਰਿਆ	-11.6168
ground	-11.6169
▁ਚਿੱਟੀ	-11.617
▁July	-11.617
▁ਵਿਵਾਦ	-11.6171
359.	-11.6173
ਝਟਕਾਉਣ	-11.6174
▁ਡੈਟਾ	-11.6174
ਪਿਟ	-11.6184
ਹਾਊਸ	-11.6219
ਪ੍ਰਿੰਟ	-11.622
≤	-11.622
ਸਤੰਬਰ	-11.6221
ਮੁੱਖ	-11.6221
crypt	-11.6236
▁Fire	-11.6239
aunchpad	-11.6257
omfort	-11.6283
▁ਫੈਲਾਉਣ	-11.6291
▁move	-11.6328
5°	-11.6332
ਬੰ	-11.6347
ਕਦਮ	-11.6355
▁Custom	-11.636
qiao	-11.6364
747	-11.6376
▁ਹੰਗਰੀ	-11.6403
8°	-11.6403
▁ਇੰਡੀਕੇਟਰ	-11.6424
▁ਮਹਿਮਾ	-11.6425
VDC	-11.6429
▁ਚੌੜਾ	-11.6443
public	-11.6444
▁ਅਟੈਚ	-11.6445
QDialogButtonBox	-11.6446
ਮਸ਼ਵਰਾ	-11.6446
▁BitcoinDarkBTCD	-11.6446
▁BitsharesBTS	-11.6446
▁Brushless	-11.6446
▁Capacitor	-11.6446
▁Dakota	-11.6446
▁DigiByteDGB	-11.6446
▁International	-11.6446
▁Masturbating	-11.6446
▁PeerCoinPPC	-11.6446
▁Yinzhou	-11.6446
▁shafts	-11.6446
▁ਆਫਲਾਇਨ	-11.6446
▁ਏਅਰੋਸਪੇਸ	-11.6446
▁ਕਨਵੈਨਸ਼ਨ	-11.6446
▁ਖੁਫੀਆ	-11.6446
▁ਗ੍ਰੈਜੂਏਟ	-11.6446
▁ਡਿਸਟ੍ਰਿਕਟ	-11.6446
▁ਤਾਇਵਾਨ	-11.6446
▁ਤੰਬੂ	-11.6446
▁ਪਹਿਚਾਣ	-11.6446
▁ਫ਼ਾਇਦੇ	-11.6446
▁ਭਗਵਾਨ	-11.6446
▁ਭੱਜ	-11.6446
▁ਮਰਿਯਮ	-11.6446
▁ਰੈਸਟੋਰੈਂਟ	-11.6446
▁ਸਪੈਨਿਸ਼	-11.6446
▁ਸਰਟੀਫਾਈਡ	-11.6446
▁ਹਰੀਜੱਟਲ	-11.6446
Script	-11.6446
▁RippleXRP	-11.6446
▁Stripper	-11.6446
▁ZCashZEC	-11.6446
▁pageviews	-11.6446
▁ਤੈਅ	-11.6446
▁ਥਿਊਰੀ	-11.6446
▁ਯੂਨੀਕੋਡ	-11.6446
▁ਸਰਵੋਤਮ	-11.6446
ammyvirk	-11.6446
▁57.0.2987.	-11.6446
▁ਅਗੇਤਰ	-11.6446
▁ਆਈਪੋਡ	-11.6446
▁ਉਤਸੁਕ	-11.6446
▁ਐਡਰੈਸ	-11.6446
ਹੌਨਟਾਈ	-11.6446
▁Ninja	-11.6446
▁ਸੀਲੀਕੋਨ	-11.6446
▁ਵਿਸ਼ਿਆਂ	-11.6446
ਅਤਿਕਾਮੀ	-11.6446
▁Molding	-11.6446
▁ਫ਼ੋਮ	-11.6446
▁ਐਸਈਓ	-11.6446
▁zones	-11.6446
▁HUF	-11.6446
▁ਦਲੀਲ	-11.6446
ਵੁੱਡ	-11.6446
▁Earth	-11.6446
▁ਐਡਮਿਨ	-11.6446
▁ਵਰਕਸਪੇਸ	-11.6446
▁ਸੁਨਣ	-11.6446
result	-11.6446
ਉਰਦੂ	-11.6446
school	-11.6446
Label	-11.6446
▁ਗੀਗਾ	-11.6446
lovenia	-11.6447
▁pln	-11.6447
▁ਭਾਵਨਾਤਮਕ	-11.6447
▁ਸ਼ਿਫਟ	-11.6447
▁ਕਨੂੰਨ	-11.6447
About	-11.6447
▁ਗਰੀਸ	-11.6448
▁ਰੋਟੇਸ਼ਨ	-11.6448
▁ਟਰਾਂਸਲੇਟ	-11.6448
▁ਗ੍ਰਾਫਿਕ	-11.6448
scale	-11.6449
▁ਜਤਨ	-11.6449
▁Kč	-11.645
▁ਰਿਸ਼ਤੇਦਾਰ	-11.645
▁ਨਜ਼ਰੀਏ	-11.6451
▁ਸਨਮਾਨਿਤ	-11.6451
▁ਲਿਟਲ	-11.6452
▁ਫ਼ੀਸ	-11.6453
▁ਕ੍ਰਮਵਾਰ	-11.6454
▁ਏਕੜ	-11.6454
▁ਪੇਸੋ	-11.6455
▁Coral	-11.6457
glass	-11.6458
▁debug	-11.6458
▁5802	-11.6459
▁Extr	-11.6461
▁ਟਚ	-11.6465
▁ਇਸਲਾਮ	-11.6476
Disk	-11.65
ਡਿਊਟੀ	-11.6514
Download	-11.6514
ਪੁਆਇੰਟ	-11.6514
ਜਾਣਿਆ	-11.6514
ਦਸੰਬਰ	-11.6515
ਵੇਖੋ	-11.6515
ਚੈੱਕ	-11.6523
ਰਿਅਲ	-11.6545
▁ਸਟੈਂਡ	-11.6551
5.60	-11.6555
▁2013-20	-11.6572
ਰਾਈਟ	-11.659
▁ਭੈ	-11.6594
▁leg	-11.6599
▁ਜਲਣ	-11.661
ਸਪੇਸ	-11.6623
park	-11.6634
▁ਕੂਲ	-11.6642
▁3.7	-11.6642
IVE	-11.6656
▁ਛਿ	-11.6723
mount	-11.6735
ਇਰਸ	-11.6739
belgium	-11.674
otswana	-11.674
ц	-11.674
▁Limited	-11.674
▁Manglik	-11.674
▁Restaurant	-11.674
▁configuration	-11.674
▁license	-11.674
▁ਅਣਡਿੱਠੇ	-11.674
▁ਅਮਰੀਕਨ	-11.674
▁ਆਗਮਨ	-11.674
▁ਆਲੀਸ਼ਾਨ	-11.674
▁ਉਲਝਣ	-11.674
▁ਔਰਪੇਕ	-11.674
▁ਕਾਰਕੁੰਨ	-11.674
▁ਗੁਆਂਢੀ	-11.674
▁ਟੈਕਨੋਲੋਜੀ	-11.674
▁ਡਰਮੇਟਾਇਟਸ	-11.674
▁ਤਿੜਕੀ	-11.674
▁ਤੁਪਕੇ	-11.674
▁ਪੋਪਅੱਪ	-11.674
▁ਬਹਿਰੀਨ	-11.674
▁ਬੈਡਰੂਮ	-11.674
▁ਮਿਥਾਇਲ	-11.674
▁ਰਜਿਸਟ੍ਰੇਸ਼ਨ	-11.674
▁ਰਾਜਨੀਤਕ	-11.674
▁ਰੁਝਿਆ	-11.674
▁ਰੇਡੀਏਸ਼ਨ	-11.674
▁ਲੈਬਾਰਟਰੀ	-11.674
▁ਸੁਗੰਧ	-11.674
▁ਸੰਮਿਲਿਤ	-11.674
▁Birds	-11.674
▁Develop	-11.674
▁something	-11.674
▁ਅਖਬਾਰ	-11.674
▁ਟੋਰੀਨੋ	-11.674
▁ਤਜ਼ਰਬੇ	-11.674
▁ਦੌਲਤ	-11.674
▁ਧਮਕੀ	-11.674
▁ਫੈਮਿਲੀ	-11.674
▁ਸਮਲਿੰਗੀ	-11.674
trending	-11.674
▁ਓਵਰਆਲ	-11.674
▁Daily	-11.674
▁ਇੰਡੀਅਨ	-11.674
▁ਮਹਿੰਗੇ	-11.674
▁ਸਿਰਜਣਾ	-11.674
include	-11.674
▁54.00	-11.674
ਮੁਨਾਫ਼ਾ	-11.674
▁ਜੰਬੋ	-11.674
munde	-11.674
Application	-11.674
▁ਮੈਕਸਿਕੋ	-11.674
▁ਸ਼ੌਕੀਨ	-11.674
ਵੌਇਸ	-11.674
▁Watts	-11.674
▁ਗ੍ਰੀਸ	-11.674
▁ਲੇਕਿਨ	-11.674
▁BMW	-11.674
▁ਡੈਸ਼ਬੋਰਡ	-11.674
▁Canon	-11.674
Angry	-11.674
Cloud	-11.674
▁Update	-11.674
▁ਪ੍ਰਤਿਭਾ	-11.674
First	-11.674
▁ਕੈਬਿਨ	-11.6741
▁ਕੈਨਵਸ	-11.6741
▁ਲਹੂ	-11.6741
▁ctn	-11.6741
▁ਛਿੱਲ	-11.6741
▁RoHS	-11.6741
Patent	-11.6741
▁ਕਾਮਿਕਸ	-11.6742
▁ਬੈਕਅਪ	-11.6742
▁Internet	-11.6742
Split	-11.6743
▁QTY	-11.6743
▁ਚਾਹੋਗੇ	-11.6743
▁ਗਾਣੇ	-11.6744
▁Tags	-11.6744
▁two	-11.6745
▁DIY	-11.6745
▁ਬਫ਼ਰ	-11.6746
▁ਅਦਾਰੇ	-11.6746
▁job	-11.6746
▁ਪ੍ਰੋੜ੍ਹ	-11.6746
▁ਡੈਸਕ	-11.6748
▁without	-11.6749
ਵੁਡ	-11.6749
▁ਜਾਪਦੀ	-11.675
▁ਲਾਇਆ	-11.6758
Pix	-11.6783
▁exec	-11.6784
Select	-11.6804
ਅਧਿਆਪਕ	-11.6817
ਮੈਡੀਕਲ	-11.6818
ਨਵੰਬਰ	-11.6818
“	-11.6818
ਫੇਸਬੁੱਕ	-11.6818
ਅਸੀਂ	-11.6818
(6)	-11.6824
਼ੁ	-11.6852
▁ਧੜ	-11.6898
▁ਸਿੱਧ	-11.6911
▁ਬਦਲਾਵ	-11.6985
christ	-11.7016
ਹੁੰ	-11.7027
5-10	-11.7036
wedding	-11.704
scribe	-11.7042
1314151617181920	-11.7043
▁ਵਿਨਚੈਸਟਰ	-11.7043
▁ਨਿਪਟਾਰਾ	-11.7043
▁ਪੀਟਰਸਬਰਗ	-11.7043
▁ਸੱਭ	-11.7043
austria	-11.7043
patialashahi	-11.7043
standard	-11.7043
ентай	-11.7043
▁Bluetooth	-11.7043
▁CARGO	-11.7043
▁District	-11.7043
▁GnuPG	-11.7043
▁Imperial	-11.7043
▁Kharkiv	-11.7043
▁Little	-11.7043
▁Michigan	-11.7043
▁Rockwell	-11.7043
▁TopSlotSite	-11.7043
▁traditional	-11.7043
▁tweezers	-11.7043
▁ਅਫਗਾਨਿਸਤਾਨ	-11.7043
▁ਅਰਮੀਨੀਆ	-11.7043
▁ਕਾਊਂਟਡਾਊਨ	-11.7043
▁ਛਪਣਯੋਗ	-11.7043
▁ਜਿੰਦਗੀ	-11.7043
▁ਧੱਬੇ	-11.7043
▁ਪ੍ਰਕ੍ਰਿਆ	-11.7043
▁ਫਿਲੀਪੀਨਜ਼	-11.7043
▁ਲੁਧਿਆਣਾ	-11.7043
▁ਸੈਂਕੜੇ	-11.7043
▁Indonesia	-11.7043
▁ਖੁਜਲੀ	-11.7043
▁ਸਮਰਥਕ	-11.7043
▁ਝਟਕੋ	-11.7043
▁ਤਾਲਮੇਲ	-11.7043
▁Fault	-11.7043
▁ਫਿਊਜ਼	-11.7043
▁ਫੈਟਿਸ਼	-11.7043
▁WLAN	-11.7043
▁ਸਜਾਇਆ	-11.7043
▁да	-11.7043
▁ਵਿਨਾਇਲ	-11.7043
▁ਹਲਕੀ	-11.7043
▁ਭੱਠੀ	-11.7043
▁ਰਸੂਲ	-11.7043
Second	-11.7043
▁ਫਲਾਪੀ	-11.7043
punjabilines	-11.7043
▁ਸਕੱਤਰ	-11.7043
▁ਜਨੂੰਨ	-11.7043
margin	-11.7043
▁DHL	-11.7043
▁ਮਨੀਲਾ	-11.7043
▁ਇੱਕਠਾ	-11.7043
▁ਡੀਵਿਲ	-11.7043
▁ਦੋਹਰੀ	-11.7043
▁Longgang	-11.7044
▁ਦਿਖਾਉਂਦਾ	-11.7044
▁DVR	-11.7044
▁ਸ਼ੁਕਰ	-11.7044
.07.2018	-11.7046
gsm	-11.7047
txt	-11.7047
Help	-11.7047
green	-11.7047
▁ਅਸਲੀਅਤ	-11.7048
▁ਐਡਰੈੱਸਬੁੱਕ	-11.7048
airport	-11.7049
ли	-11.7049
nature	-11.7051
▁ਫੋਰਕ	-11.7063
ਅਵਧੀ	-11.7066
▁ਅਭਿ	-11.7094
▁Santa	-11.7105
omatica	-11.7114
ਮੋਬਾਈਲ	-11.7129
ਮੁਸ਼ਕਲ	-11.713
ਸਪੇਨੀ	-11.713
casino	-11.713
ਸੁਰੱਖਿਅਤ	-11.713
ਫਰਵਰੀ	-11.713
ਡਾਊਨਲੋਡ	-11.713
ਤੁਸੀਂ	-11.713
ਮਿਆਰੀ	-11.7131
User	-11.7132
error	-11.7136
Press	-11.7183
▁deposit	-11.7223
▁exc	-11.7247
▁Erotic	-11.7296
1.7	-11.7305
▁ਕਰੂਜ਼	-11.7338
▁ਜਾਇਜ	-11.7353
▁ਕੈਮਰੂਨ	-11.7355
▁ਲਾਹੌਰ	-11.7355
Default	-11.7355
hütte	-11.7355
ਬੈਲਜੀਅਮ	-11.7355
▁EELINK	-11.7355
▁Fujian	-11.7355
▁Injection	-11.7355
▁WooCommerce	-11.7355
▁Woodwind	-11.7355
▁continent	-11.7355
▁ਅਪਗ੍ਰੇਡ	-11.7355
▁ਅਫ਼ਗਾਨ	-11.7355
▁ਅਰਜਨਟੀਨਾ	-11.7355
▁ਆਨਲਾਇਨ	-11.7355
▁ਇਕਰਾਰਨਾਮੇ	-11.7355
▁ਇਨੋਵੇਸ਼ਨ	-11.7355
▁ਐਜੂਕੇਸ਼ਨ	-11.7355
▁ਐਵਨਿਊ	-11.7355
▁ਕੈਸਿਨੋ	-11.7355
▁ਕੰਪਿਊਟਿੰਗ	-11.7355
▁ਜੁਆਇੰਨ	-11.7355
▁ਟਰੈਫਿਕ	-11.7355
▁ਠੇਕੇਦਾਰ	-11.7355
▁ਡੱਲਾਸ	-11.7355
▁ਢੁੱਕਵਾਂ	-11.7355
▁ਦਬਦਬਾ	-11.7355
▁ਪੈਰਾਫ਼ਿਨ	-11.7355
▁ਫ੍ਰੈਂਚ	-11.7355
▁ਬਰਦਾਸ਼ਤ	-11.7355
▁ਬਰੇਸਲੈੱਟ	-11.7355
▁ਬਹਾਦਰ	-11.7355
▁ਬੰਗਲਾਦੇਸ਼	-11.7355
▁ਮਗਰੋਂ	-11.7355
▁ਮਿਲੀਸਕਿੰਟ	-11.7355
▁ਮੁਆਇਨਾ	-11.7355
▁ਮੁਹਾਵਰੇ	-11.7355
▁ਮੈਨੂਅਲ	-11.7355
▁ਯਾਮਾਹਾ	-11.7355
▁ਵੇਰਵਿਆਂ	-11.7355
▁ਵੈਨਕੂਵਰ	-11.7355
▁ਸ਼ਲਾਘਾ	-11.7355
▁ਹੱਤਿਆ	-11.7355
💖	-11.7355
;#39;	-11.7355
Layfka	-11.7355
▁Skrill	-11.7355
▁Xiamen	-11.7355
▁clamps	-11.7355
▁ਅਧੂਰੀ	-11.7355
▁ਕਲੋਰੀਨ	-11.7355
▁ਡੈਰੀਵੇਟਿਵ	-11.7355
▁ਪ੍ਰਾਂਸਲ	-11.7355
▁ਪੰਨਿਆਂ	-11.7355
▁ਸਿਨੇਮਾ	-11.7355
2425262728293031	-11.7355
▁ਟੋਕੀਓ	-11.7355
▁Ohio	-11.7355
▁ਆਖ਼ਰੀ	-11.7355
▁ਕਬਜ਼ਾ	-11.7355
▁ਮਹਾਰਤ	-11.7355
▁ਸਕਿਮਰ	-11.7355
▁за	-11.7355
▁ਅਜ਼ੁਰ	-11.7355
▁ਸਟ੍ਰੋਕ	-11.7355
▁ਓਜ਼ੋਨ	-11.7355
▁KDev	-11.7355
▁ਸੰਸਕਾਰ	-11.7355
▁ਮਜ਼ਾਕ	-11.7355
▁ਕੂੜਾ	-11.7355
▁stator	-11.7355
▁HIM	-11.7355
▁install	-11.7355
▁ਟੈਨਿਸ	-11.7355
▁ਨਾਮਜ਼ਦ	-11.7355
▁ਵੀਆਈਪੀ	-11.7355
▁ਪਾਚਕ	-11.7356
background	-11.7356
▁ਉਡਾਉਣ	-11.7356
▁Springs	-11.7356
▁RAW	-11.7356
phenyl	-11.7356
▁ਤੀਜਾ	-11.7357
▁ਕ੍ਰਿਪਟੋ	-11.7357
▁click	-11.7357
▁ਯੋਜਨਾਬੱਧ	-11.7358
▁ਸੂਝ	-11.7358
▁Dosha	-11.7359
▁ਰਾਖੀ	-11.7359
▁ਸ਼ਰਧਾ	-11.7359
augh	-11.736
Exe	-11.7365
jap	-11.7369
tractor	-11.7371
Text	-11.7452
▁ਕਸਟਮਾਈਜ਼	-11.7496
▁0,0	-11.7517
Life	-11.7561
ੋਲੋਜੀ	-11.7567
▁ਖੁਲ੍ਹ	-11.7606
6°	-11.7633
▁123456789101112	-11.7678
▁effect	-11.7678
▁ਬਰਤਾਨੀਆ	-11.7678
amritsar	-11.7678
matrimony	-11.7678
▁2.6.4.16113	-11.7678
▁Fenghua	-11.7678
▁Jersey	-11.7678
▁NUMX	-11.7678
▁Scotia	-11.7678
▁Ultimate	-11.7678
▁adsorption	-11.7678
▁brushless	-11.7678
▁hoverboard	-11.7678
▁pneumatic	-11.7678
▁ਅਰੰਭ	-11.7678
▁ਅਸੈੱਸਬਿਲਟੀ	-11.7678
▁ਅੰਗ੍ਰੇਜ਼ੀ	-11.7678
▁ਆਰਕੀਟੈਕਟ	-11.7678
▁ਇੰਤਜ਼ਾਰ	-11.7678
▁ਕੇਂਦ੍ਰਤ	-11.7678
▁ਖ਼ਤਰਨਾਕ	-11.7678
▁ਗਿਰਾਵਟ	-11.7678
▁ਜਲੰਧਰ	-11.7678
▁ਜੇਸਪਰੇਅ	-11.7678
▁ਤੈਨੂੰ	-11.7678
▁ਨਫ਼ਰਤ	-11.7678
▁ਪਰਮਾਣਕਤਾ	-11.7678
▁ਪੀਟਰ੍ਜ਼੍ਬਰ੍ਗ	-11.7678
▁ਫਿਟਨੈੱਸ	-11.7678
▁ਬਘਿਆੜ	-11.7678
▁ਬਿਜ਼ਨਸ	-11.7678
▁ਬੌਧਿਕ	-11.7678
▁ਵਿਅੰਜਨ	-11.7678
▁ਸੰਪੱਤੀ	-11.7678
▁Welcome	-11.7678
▁screws	-11.7678
▁ਕਾਰਖਾਨੇ	-11.7678
▁ਚਾਈਲਡ	-11.7678
▁ਤਾਈਵਾਨ	-11.7678
▁ਬਿਊਰੋ	-11.7678
▁ਵੋਲਵੋ	-11.7678
ਮਿਸ਼ੀਗਨ	-11.7678
▁Trailer	-11.7678
▁ਵੈਬਕੈਮ	-11.7678
▁ਦਰਸਾਏ	-11.7678
▁SMTP	-11.7678
▁ਟਿਕਾਊ	-11.7678
ਮਿਠਆਈ	-11.7678
▁ਫਲਾਵਰ	-11.7678
▁ਸਟਰੀਗੀ	-11.7678
plastic	-11.7678
▁query	-11.7678
▁ਅਨੀਮੀ	-11.7678
▁ਅਕਾਉਂਟ	-11.7678
▁ਨੇੜਲੇ	-11.7678
▁Glass	-11.7678
▁clits	-11.7678
▁ਸਪਰਿੰਗ	-11.7678
▁ਮੂਰਤੀ	-11.7678
▁ਪੈਰਲਲ	-11.7678
▁ਇਕੱਲਾ	-11.7678
▁molds	-11.7678
▁ਰਿਟੇਲ	-11.7678
▁subscribe	-11.7678
▁wrap	-11.7678
america	-11.7678
▁TLS	-11.7679
▁ਲਿੰਗਰੀ	-11.7679
▁ਸੈਲੂਨ	-11.7679
▁ਰੂਬੀ	-11.7679
▁Gears	-11.7679
▁ਬੰਗਾਲ	-11.7679
▁CSV	-11.7679
▁ਆਟੋਮੋਬਾਈਲ	-11.7679
▁ਅੰਮ੍ਰਿਤਸਰ	-11.7679
XXXXXXX	-11.7679
▁ਉਭਰ	-11.768
▁Romper	-11.768
▁trust	-11.768
▁ਫਾਰੈਕਸ	-11.7681
▁ਐਂਗਲ	-11.7682
▁ਬੋਝ	-11.7683
▁ਹਾਲੀਡ	-11.7684
▁transformer	-11.7685
▁ਡਾਂਸ	-11.7688
▁THE	-11.7692
\\	-11.7694
service	-11.7707
0'000	-11.7707
£	-11.7724
hristmas	-11.7726
ਹੰਗਰੀਆਈ	-11.7728
▁ਮਾਈਕ	-11.7754
rabia	-11.7774
ਆਊਟ	-11.7783
ਇਤਾਲਵੀ	-11.7785
Transposh	-11.7785
ਪ੍ਰਦਰਸ਼ਨ	-11.7786
ਵਿਅਕਤੀ	-11.7786
ਚੌੜਾਈ	-11.7786
ਪ੍ਰਾਪਤ	-11.7786
number	-11.7787
▁ਮੀਨੂ	-11.7806
▁3.9	-11.7832
Copy	-11.785
-09-20	-11.7925
▁ਬਿਮਾਰ	-11.7982
▁ਹਾਈਡਰੋ	-11.801
▁ਮਹੱਤਵ	-11.8011
utilsdecuisine	-11.8011
iCalImp	-11.8011
ਜਿਬਰਾਲਟਰ	-11.8011
▁877-776-4600	-11.8011
▁91-993.702.7574	-11.8011
▁BADEFASS	-11.8011
▁County	-11.8011
▁Croatia	-11.8011
▁Illinois	-11.8011
▁Jizerou	-11.8011
▁Massachusetts	-11.8011
▁Netherlands	-11.8011
▁Startseite	-11.8011
▁attachment	-11.8011
▁layouts	-11.8011
▁tensile	-11.8011
▁ਅਨੁਸੂਚੀ	-11.8011
▁ਕੰਪਲੈਕਸ	-11.8011
▁ਚਾਹੁੰਦੀ	-11.8011
▁ਟੈਲੀਵਿਜ਼ਨ	-11.8011
▁ਟ੍ਰੈਵਲ	-11.8011
▁ਡ੍ਰਾਇਅਰ	-11.8011
▁ਨਜ਼ਾਰੇ	-11.8011
▁ਪੁਰਾਲੇਖ	-11.8011
▁ਪ੍ਰਚਲਿਤ	-11.8011
▁ਫਿੱਟਨੈੱਸ	-11.8011
▁ਫੈਡਰਲ	-11.8011
▁ਫੈਸਟੀਵਲ	-11.8011
▁ਫ੍ਰੈਨਸਿਸਕੋ	-11.8011
▁ਬਿਕਰਮੀ	-11.8011
▁ਮਾਊਂਸ	-11.8011
▁ਯਰੂਸ਼ਲਮ	-11.8011
▁ਰੈਫਰੀਜੇਸ਼ਨ	-11.8011
▁ਵਾਢੀ	-11.8011
▁ਸਰਪ੍ਰਸਤ	-11.8011
▁ਸਾੱਫਟਵੇਅਰ	-11.8011
▁ਸਿਲਿਕੋਨ	-11.8011
ਫ਼ਰਾਂਸੀਸੀ	-11.8011
▁ਇਬਰਾਨੀ	-11.8011
▁ਉੜੀਸਾ	-11.8011
▁ਕਟੌਤੀ	-11.8011
▁ਕਹਿੰਦੀ	-11.8011
▁ਦਸਤਕਾਰੀ	-11.8011
▁ਭੂਮੱਧ	-11.8011
▁ਵੈਟਰਨਜ਼	-11.8011
Socket	-11.8011
▁Sniper	-11.8011
▁UNIX	-11.8011
▁hardware	-11.8011
▁ਪੱਤਿਆਂ	-11.8011
▁ਲੁਕਵੀਆਂ	-11.8011
energy	-11.8011
peptide	-11.8011
▁59.0.30	-11.8011
▁SPACE	-11.8011
▁ਅਨੋਖਾ	-11.8011
▁ਕੀਜਿਣ	-11.8011
▁ਝੰਡੇ	-11.8011
▁ਪਰਵਰਿਸ਼	-11.8011
▁ਪਾਲੀਮਰ	-11.8011
widget	-11.8011
▁MPEG	-11.8011
▁ਏਕੀਕਰਨ	-11.8011
▁ਟੈਰੇਸ	-11.8011
▁ਪੈਕਜਿੰਗ	-11.8011
▁Savera	-11.8011
▁ਵਸਤਾਂ	-11.8011
▁ਪ੍ਰਸੰਨ	-11.8011
▁ਸ਼ੁਭ	-11.8011
▁ਬੈਂਕਾਕ	-11.8011
▁ਕਸੂਰ	-11.8011
▁ਪਰੈਟੀ	-11.8011
▁ਨਿਗਾਹ	-11.8011
▁ਵਜ਼ੀਰ	-11.8011
▁ਕੋਮਲ	-11.8012
▁Bingo	-11.8012
▁ਖਾਂਦਾ	-11.8012
▁ਸਨਅਤੀ	-11.8012
▁08:00	-11.8012
domain	-11.8012
▁ਟਰਾਲੀ	-11.8012
▁ਬਰਾਂਚ	-11.8012
▁ਹਾਈਡਰੋਜਨ	-11.8012
▁ਪਨੀਰ	-11.8012
▁ਰੁਟੀਨ	-11.8013
▁ਟਰੇਡਿੰਗ	-11.8014
▁Legal	-11.8014
▁many	-11.8015
▁ਘਾਨਾ	-11.8015
▁ਚਮਚ	-11.802
chess	-11.8025
▁ਤੇਜ਼ਾਬ	-11.8031
front	-11.8031
toolbar	-11.8032
▁EVA	-11.8047
slav	-11.806
Metal	-11.8065
▁ਉਸਤਤ	-11.8093
▁identi	-11.8094
ਪੰਜਾਬ	-11.8101
ਨਾਈਲੋਨ	-11.813
ਅਨੁਕੂਲ	-11.8131
ਆਈਓਐਸ	-11.8131
tooltip	-11.8131
ਅੰਗਰੇਜ਼ੀ	-11.8131
•	-11.8131
ਅਮਰੀਕਾ	-11.8131
ਅਗਸਤ	-11.8131
ਤੁਹਾਡੇ	-11.8131
mobile	-11.8131
ਨਹੀਂ	-11.8131
ਗੁਪਤ	-11.8132
▁ਕਿਸ਼ਤ	-11.8143
luehost	-11.8173
ember	-11.8263
▁ਈਰਾਨ	-11.8328
____	-11.8332
▁Washing	-11.8355
transposh	-11.8356
parmishverma	-11.8356
tiveSocketEngine	-11.8356
trendz	-11.8356
ਅਫ੍ਰੀਕਨ	-11.8356
ਸਰਕੋਡੋਸਿਸ	-11.8356
ਸਵਿਟਜ਼ਰਲੈਂਡ	-11.8356
▁Anokuru	-11.8356
▁Groove	-11.8356
▁SharePoint	-11.8356
▁distribution	-11.8356
▁electro	-11.8356
▁jumma	-11.8356
▁repaint	-11.8356
▁transmission	-11.8356
▁ਆਊਟਪੁਟ	-11.8356
▁ਆਫਸ਼ੋਰ	-11.8356
▁ਕੁਸੁੰਡਾ	-11.8356
▁ਡੀਐਮਸੀਏ	-11.8356
▁ਮ੍ਯੂਨਿਚ	-11.8356
▁ਰੇਿੀਅਲ	-11.8356
▁ਲਿਮੋਜ਼ਿਨ	-11.8356
▁ਵਾਹਿਗੁਰੂ	-11.8356
▁ਵਿਕਟੋਰੀਆ	-11.8356
▁ਸਨੈਪਸ਼ਾਟ	-11.8356
▁੨੦੦੮	-11.8356
▁Torrent	-11.8356
▁corals	-11.8356
▁{2}	-11.8356
▁ਨਿੱਜਤਾ	-11.8356
▁ਪ੍ਰੀਮੀਅਰ	-11.8356
▁ਵਿਅਰਥ	-11.8356
atlantik	-11.8356
▁Chiller	-11.8356
▁Pharma	-11.8356
▁operation	-11.8356
▁software	-11.8356
▁ਰਸੀਦ	-11.8356
▁ਲਿਜਾਓ	-11.8356
▁ਸਮਿਥ	-11.8356
▁vCard	-11.8356
▁ਐਡਪਟਰ	-11.8356
▁ਪਲਾਜ਼ਾ	-11.8356
▁ਸੰਕਲਨ	-11.8356
▁ਸੰਟੈਕਸ	-11.8356
▁ਸੱਦੇ	-11.8356
▁SmCo	-11.8356
oinflip	-11.8356
▁ਯੂਏਈ	-11.8356
▁ਅਜ਼ੀਜ਼	-11.8356
▁ਅਕਾਸ਼	-11.8356
▁ਐਨਰਜੀ	-11.8356
▁ਪਨਾਹ	-11.8356
▁ਜਾਏਗਾ	-11.8356
▁ਪ੍ਰੈਕਟਿਸ	-11.8356
europetravel	-11.8356
▁ਇਲੈਕਟ੍ਰੀਕਲ	-11.8356
▁ਸ਼ਾਸਤਰ	-11.8356
/04/20	-11.8356
▁ਨਾਟਕੀ	-11.8356
▁ਲਕਸ਼	-11.8356
▁selected	-11.8356
▁ਆਡਿਟ	-11.8356
▁ਧਾਗਾ	-11.8356
▁ਲਿਜਾਣ	-11.8357
▁ਆਯਾਮ	-11.8357
▁ਹੋਮਪੇਜ	-11.8357
▁Centre	-11.8357
▁Washington	-11.8357
▁ਭੜਕ	-11.8357
▁enable	-11.8358
▁ਕ੍ਰਿਸਟਲ	-11.8358
▁ਵਿਦਵਾਨ	-11.8358
▁compress	-11.8358
▁ਸਲਾਨਾ	-11.8358
ainik	-11.8359
▁Talk	-11.8361
.09.20	-11.8368
▁step	-11.8374
honebook	-11.838
TAG	-11.8384
HOT	-11.8387
▁ਅਟਕ	-11.8411
boss	-11.8417
▁Martin	-11.8461
Monster	-11.8462
aqua	-11.8473
ਟੈਬਲੇਟ	-11.8487
version	-11.8487
Server	-11.8487
ਹੌਲੀ	-11.8488
ਉੱਤਰੀ	-11.8488
ਤਬਦੀਲ	-11.8488
ਪੇਸ਼ਕਸ਼	-11.8488
▁Presse	-11.8493
ਬਹੁਤ	-11.8496
fiber	-11.8623
▁ਹਦਾਇਤ	-11.8679
▁biqle	-11.8713
Accessories	-11.8713
Arizona	-11.8713
OSGEAR	-11.8713
uxembourg	-11.8713
▁Arkansas	-11.8713
▁CoinFalls	-11.8713
▁Defender	-11.8713
▁Fortune	-11.8713
▁LOCTITE	-11.8713
▁Litecoin	-11.8713
▁Luxury	-11.8713
▁PaidVideoChat	-11.8713
▁Software	-11.8713
▁Supplier	-11.8713
▁Syrup	-11.8713
▁Tennessee	-11.8713
▁through	-11.8713
▁ਅਸਪਸ਼ਟ	-11.8713
▁ਆਰੰਭ	-11.8713
▁ਇਨਫਰਾਰੈੱਡ	-11.8713
▁ਇੰਸੂਲੇਸ਼ਨ	-11.8713
▁ਕਿੰਡਰਗਾਰਟਨ	-11.8713
▁ਜ਼ਹਿਰੀਲੇ	-11.8713
▁ਧੱਫੜ	-11.8713
▁ਪਰਮਾਤਮਾ	-11.8713
▁ਪਰੋਜੈੱਕਟ	-11.8713
▁ਪੇਂਡੂ	-11.8713
▁ਫ਼ੈਸਲੇ	-11.8713
▁ਫੈਡਰੇਸ਼ਨ	-11.8713
▁ਬਾਸਕਟਬਾਲ	-11.8713
▁ਮਾਰੈਚਚ	-11.8713
▁ਰੁਝੇ	-11.8713
▁ਸ਼ੇਕਸਪੀਅਰ	-11.8713
▁ਸੰਕੁਚਿਤ	-11.8713
▁ਹਫ਼ਤਿਆਂ	-11.8713
ਅਨਿਸ਼ਚਿਤ	-11.8713
—————————	-11.8713
▁(2009)	-11.8713
▁Crimea	-11.8713
▁ਡੈਨਮਾਰਕ	-11.8713
▁ਦਿਹਾਤੀ	-11.8713
▁ਵਿਗਾੜ	-11.8713
▁ਸੋਲੂਸ਼ਨ	-11.8713
▁JPEG	-11.8713
▁iPad	-11.8713
▁ਕਾਰਬਾਇਡ	-11.8713
▁ਕੁਰਬਾਨ	-11.8713
▁ਭਟਕਣ	-11.8713
▁ਡੰਡੇ	-11.8713
▁Sintered	-11.8713
▁Zhang	-11.8713
▁ਕੋਪੀਟੀ	-11.8713
▁ਸਕਰੀਨਸ਼ਾਟ	-11.8713
▁ਵਿਜ਼ਿਟ	-11.8713
▁easy	-11.8713
▁UHF	-11.8713
▁fences	-11.8713
▁ਹੈੱਡਫੋਨ	-11.8713
▁ਦਖਲ	-11.8713
▁ਨੇਵਾਡਾ	-11.8713
▁Jnr	-11.8713
ਬੁਕਾਕੇ	-11.8713
utorial	-11.8713
▁ਤਲਾਬ	-11.8713
▁Editor	-11.8713
▁require	-11.8713
▁bitch	-11.8713
▁COINF	-11.8713
▁ਕੂੜੇ	-11.8713
▁ਚੇਤਨਾ	-11.8713
▁Electronic	-11.8713
▁ਟੈਕਸਾਸ	-11.8713
methyl	-11.8714
▁Queen	-11.8714
▁ਪ੍ਰੇਮਿਕਾ	-11.8714
▁Zhenhai	-11.8714
▁Prime	-11.8714
▁ਇਸ਼ਤਿਹਾਰਬਾਜ਼ੀ	-11.8714
▁ਅਲਕਲੀ	-11.8714
▁Hills	-11.8714
Hosting	-11.8714
ਕੰਬਦੇ	-11.8714
▁Western	-11.8715
▁OCR	-11.8715
Jesus	-11.8715
▁ਹਸਤੀ	-11.8716
chrome	-11.8716
▁adv	-11.8717
crew	-11.8718
digit	-11.8718
history	-11.8719
ADD	-11.8734
ycarbon	-11.8736
ਪਰੇਟਿੰਗ	-11.8738
▁Surf	-11.8739
▁ਆਈਕਨ	-11.8751
Item	-11.8762
ਪੜਾਅ	-11.8858
ਕੁਦਰਤ	-11.8858
ਦਿਲਚਸਪ	-11.8858
ਸਿਆਣੇ	-11.8858
ਬਕਸਾ	-11.8858
ਫੰਕਸ਼ਨ	-11.8858
ਵਿਆਪਕ	-11.8858
ਜਿੱਥੇ	-11.8858
ਤਹਿਤ	-11.8858
ਪਰਿਵਾਰ	-11.8858
ਪਾਸਵਰਡ	-11.886
č	-11.9078
▁copy	-11.9078
▁ਗੁਇਨੀਆ	-11.9083
FailedReason	-11.9083
Keywords	-11.9083
hosphoric	-11.9083
punjabiwordings	-11.9083
ਮਲਟੀਮੀਡੀਆ	-11.9083
▁ArcSight	-11.9083
▁Catalyst	-11.9083
▁DarkToken	-11.9083
▁Doggy	-11.9083
▁InitialCoinList	-11.9083
▁Institute	-11.9083
▁Lantern	-11.9083
▁Novamagic	-11.9083
▁SoundCloud	-11.9083
▁Survey	-11.9083
▁Wizards	-11.9083
▁experience	-11.9083
▁insulator	-11.9083
▁specified	-11.9083
▁ਅਲਜੀਰੀਆ	-11.9083
▁ਅਲਾਇੰਸ	-11.9083
▁ਇੰਵਾਇਰਨਮੈਂਟ	-11.9083
▁ਓਨਟਾਰੀਓ	-11.9083
▁ਕੰਪੋਜ਼ਰ	-11.9083
▁ਟਰਬਾਈਨ	-11.9083
▁ਢੁਕਵਾਂ	-11.9083
▁ਪਰਿਪੱਕਤਾ	-11.9083
▁ਮਾਈਗਰੇਸ਼ਨ	-11.9083
▁ਲਾਹੇਵੰਦ	-11.9083
▁ਵਾਈਬ੍ਰੇਸ਼ਨ	-11.9083
▁ਵੈਟਰਨਰੀ	-11.9083
▁ਸੋਵੀਅਤ	-11.9083
machinery	-11.9083
ਅਧਿਨਿਯਮ	-11.9083
▁SHARE	-11.9083
▁ਅਧੂਰੇ	-11.9083
▁ਡਿਏਗੋ	-11.9083
▁ਦਰਵਾਜ਼ਾ	-11.9083
▁ਸਮਝੌਤਾ	-11.9083
▁ਸਾਂਤੋਗੋ	-11.9083
▁Bushing	-11.9084
▁Slitting	-11.9084
▁Vulcan	-11.9084
▁trahtube	-11.9084
▁ਫ਼ੋਟੋ	-11.9084
▁ਲਾਇਯਨ	-11.9084
▁ਸਿਕੰਦਰ	-11.9084
Footwork	-11.9084
▁Central	-11.9084
▁Spray	-11.9084
▁turntable	-11.9084
▁ਨੁਕਤੇ	-11.9084
▁ਵਿਥਕਾਰ	-11.9084
▁Floral	-11.9084
▁OpenGL	-11.9084
▁ਲਚਕੀਲਾ	-11.9084
▁Holland	-11.9084
≥98%	-11.9084
▁ਲੈਮਡਾ	-11.9084
▁CUPS	-11.9084
▁ਸਟ੍ਰੀਮ	-11.9084
▁ਕਾਬਲੇ	-11.9084
▁ਪੁਲਾੜ	-11.9084
▁ਹਵਾਦਾਰੀ	-11.9084
▁ਸਜੀਵ	-11.9084
▁ਜਾਏਗੀ	-11.9084
▁ਸੁੰਗੜ	-11.9084
▁ਇਸਕਰਕੇ	-11.9084
▁ਕੀਰਤਨ	-11.9084
▁gems	-11.9084
ਡੌਕੂਮੈਂਟਡੌਕੂਮੈਂਟ	-11.9084
▁James	-11.9084
ਲਾਤੀਨੀ	-11.9084
▁taper	-11.9084
▁ਰਿਆਦ	-11.9084
▁Geocon	-11.9084
▁DMX	-11.9085
▁ready	-11.9085
▁ਉਜਾੜ	-11.9085
▁ਸੌਂਪ	-11.9085
▁Radio	-11.9092
.02.20	-11.9098
Audio	-11.9104
Process	-11.9172
7.8	-11.9214
Tools	-11.9242
ਪੱਧਰ	-11.9243
Slots	-11.9243
ਪਹਿਲੀ	-11.9243
ਵਰਤਣ	-11.9247
ਵੱਡੀ	-11.9248
9.7	-11.9339
learning	-11.9414
ਬਦਲ	-11.9431
▁ਸਟੀਕ	-11.9451
▁ਜਿਹੜੀ	-11.9461
kistan	-11.9466
Masturbate	-11.9467
▁ਵਾਸ਼ਿੰਗ	-11.9467
▁Electro	-11.9468
kaydeli	-11.9468
bbreviat	-11.9468
dilpreetdhillon	-11.9468
hotoluminescent	-11.9468
ਟੁੱਥ	-11.9468
▁00212658025028	-11.9468
▁Blondes	-11.9468
▁Connecticut	-11.9468
▁FOLLOW	-11.9468
▁GiveCoin	-11.9468
▁Inflatable	-11.9468
▁Justfog	-11.9468
▁Lenovo	-11.9468
▁Premier	-11.9468
▁Premium	-11.9468
▁SoftKelo	-11.9468
▁YOBO	-11.9468
▁hammock	-11.9468
▁investigation	-11.9468
▁recipient	-11.9468
▁softkelo	-11.9468
▁ਆਰਐਫ਼	-11.9468
▁ਆਵਿਰਤੀ	-11.9468
▁ਉਦਘਾਟਨ	-11.9468
▁ਉਮੇਗਾ	-11.9468
▁ਏਕੀਕਰਣ	-11.9468
▁ਐਪੀਸੋਡ	-11.9468
▁ਕਾਬਲੀਅਤ	-11.9468
▁ਖਿਡੌਣਾ	-11.9468
▁ਜਨਸੰਖਿਆ	-11.9468
▁ਜੀਸਟਰੀਮਰ	-11.9468
▁ਡਾਇਰੈਕਟੋਰੇਟ	-11.9468
▁ਡਿਪਾਰਟਮੇਂਟ	-11.9468
▁ਤੋਹਫ਼ਾ	-11.9468
▁ਨਾਈਜੀਰੀਆ	-11.9468
▁ਨਿਊਨਤਮ	-11.9468
▁ਨਿਯੰਤ੍ਰਣ	-11.9468
▁ਨਿੱਘਾ	-11.9468
▁ਪਰਿਭਾਸ਼ਿਤ	-11.9468
▁ਪਰੋਵਾਇਡਰ	-11.9468
▁ਪ੍ਰਕਿਰਤੀ	-11.9468
▁ਪ੍ਰਯੋਗਸ਼ਾਲਾ	-11.9468
▁ਫਾਰਗਰਾਊਂਡ	-11.9468
▁ਫਾਸਫੇਟ	-11.9468
▁ਫੋਰ੍ਟ	-11.9468
▁ਬੀਲੀਜ਼ਿ	-11.9468
▁ਮਕੈਨਿਕ	-11.9468
▁ਮੁਲਾਜ਼ਮ	-11.9468
▁ਰਾਮਦਾਸ	-11.9468
▁ਰੋਜ਼ਨਾਮਚੇ	-11.9468
▁ਲਿਮਿਟੇਡ	-11.9468
▁ਵਰਲਪੂਲ	-11.9468
▁ਵਿਕਿਪੀਡਿਆ	-11.9468
▁ਸਟੀਰੌਇਡ	-11.9468
▁ਸਮੱਰਥਾ	-11.9468
▁ਸਿਪਾਹੀ	-11.9468
▁ਸਿਫ਼ਾਰਸ਼	-11.9468
▁ਸਿੰਗਾਪੋਰ	-11.9468
▁੨੦੦੯	-11.9468
beautiful	-11.9468
▁(2007)	-11.9468
▁disabled	-11.9468
▁ਅੰਨ੍ਹੇ	-11.9468
▁ਧੱਕੇ	-11.9468
▁ਬਰਾਜ਼ੀਲ	-11.9468
▁ਲਾਜ਼ੀਕਲ	-11.9468
▁freak	-11.9468
▁ਕਨੇਡਾ	-11.9468
▁ਚਿਪਸੈੱਟ	-11.9468
▁ਪੁਜਾਰੀ	-11.9468
▁ਸਾਮਰਾਜ	-11.9468
▁ਸੰਕੋਚ	-11.9468
▁ਆਵਾਂਗੇ	-11.9468
▁ਕੰਬਣੀ	-11.9468
▁ਬੇਸ਼ੱਕ	-11.9468
▁BSCI	-11.9468
▁PPGI	-11.9468
▁ਅਡੋਬ	-11.9468
▁ਪੰਥ	-11.9468
▁ਫੈਲਾਅ	-11.9468
▁ਵੇਨਿਸ	-11.9468
signature	-11.9468
▁ਬੁਣਿਆ	-11.9468
▁ਵਿਸਤਾਰ	-11.9468
▁ਭੋਲੇ	-11.9468
▁Finland	-11.9468
▁ਵਾਇਲਨ	-11.9468
Result	-11.9468
aturday	-11.9468
Nudity	-11.9468
▁positioner	-11.9468
▁EXW	-11.9469
▁ਖਗੋਲ	-11.9469
▁ਨਾਸ਼ਤਾ	-11.9469
▁ਮਾਉਂਟ	-11.9469
▁ਪਲੇਇੰਗ	-11.9469
▁ਕ੍ਰਿਕਟ	-11.9469
Evans	-11.947
▁Clean	-11.947
▁ਬਿੰਦੀ	-11.947
nnotation	-11.9474
▁customer	-11.9476
▁Plum	-11.9488
-10-20	-11.9529
Quick	-11.9579
checked	-11.9601
ਕਾਰਟੂਨ	-11.9643
ਲਗਾਤਾਰ	-11.9643
ਪ੍ਰਾਈਵੇਟ	-11.9643
ਜਦੋਂ	-11.9643
AUD	-11.9644
▁ProsperCoin	-11.9868
QODBCResult	-11.9868
Salganik	-11.9868
▁86-755-2	-11.9868
▁Israel	-11.9868
▁Pennsylvania	-11.9868
▁Squeegee	-11.9868
▁Vermont	-11.9868
▁browser	-11.9868
▁component	-11.9868
▁different	-11.9868
▁transfer	-11.9868
▁ਅਦਭੁਤ	-11.9868
▁ਅਦਿੱਖ	-11.9868
▁ਅਨੁਸੂਚਿਤ	-11.9868
▁ਅਵਲੋਕਨ	-11.9868
▁ਆਲੋਚਨਾ	-11.9868
▁ਇਜ਼ਰਾਈਲ	-11.9868
▁ਇਜ਼ਾਜਤ	-11.9868
▁ਇੀਵੂ	-11.9868
▁ਕਢਵਾਉਣ	-11.9868
▁ਕੈਬਨਿਟ	-11.9868
▁ਕੰਡਿਆਲੀ	-11.9868
▁ਗੁਰਦੁਆਰਾ	-11.9868
▁ਗੰਢ	-11.9868
▁ਚਿਪਕਾਓ	-11.9868
▁ਟੈਕਨੀਸ਼ੀਅਨ	-11.9868
▁ਡਾਇਜੈਸਟ	-11.9868
▁ਤੂਫਾਨ	-11.9868
▁ਦਰਅਸਲ	-11.9868
▁ਪਲੰਬਿੰਗ	-11.9868
▁ਪਹਿਰਾਵਾ	-11.9868
▁ਪੈਲਅਟ	-11.9868
▁ਫਿਰਦੌਸ	-11.9868
▁ਮਹਾਸਾਗਰ	-11.9868
▁ਮੌਰਗੇਜ	-11.9868
▁ਰਫ਼ਤਾਰ	-11.9868
▁ਰਿਸੈਪਸ਼ਨ	-11.9868
▁ਰੀਮਾਈਡਰ	-11.9868
▁ਰੈਜ਼ੋਲੂਸ਼ਨ	-11.9868
▁ਲਾਇਸੰਸਸ਼ੁਦਾ	-11.9868
▁ਵੇਇਫਾੰਗ	-11.9868
▁ਸਾਈਕੈਡਸ	-11.9868
▁ਸੰਭਾਵਤ	-11.9868
▁ਿਕਤਾਬ	-11.9868
▁Coronavirus	-11.9868
▁Fashion	-11.9868
▁Konica	-11.9868
▁Minnie	-11.9868
▁PocketWin	-11.9868
▁course	-11.9868
▁ਅਜ਼ਰਬਾਈਜਾਨ	-11.9868
▁ਅਣਡਿੱਠੀਆਂ	-11.9868
▁ਐਚਸੀਐਲ	-11.9868
▁ਕਲਾਂਇਟ	-11.9868
▁ਕੌਂਸਲ	-11.9868
▁ਕੱਛੀਆਂ	-11.9868
▁ਚੌਧਰੀ	-11.9868
▁ਸਿਆਸਤਦਾਨ	-11.9868
▁ਸੰਵਿਧਾਨ	-11.9868
▁ਸੰਸਕ੍ਰਿਤ	-11.9868
▁ਸੰਸਾਧਨ	-11.9868
➖➖➖➖➖➖➖➖➖➖	-11.9868
admission	-11.9868
▁Maryland	-11.9868
▁ਇੰਨ੍ਹਾਂ	-11.9868
▁ਨਹਿਲਾ	-11.9868
▁Ireland	-11.9868
▁ਟ੍ਰਿਓਸ	-11.9868
▁ਸਤਰੰਜ਼	-11.9868
$24.99	-11.9868
▁ਚੰਦਰਮਾ	-11.9868
▁ਝਾਕੀ	-11.9868
▁Exchange	-11.9868
▁Pusher	-11.9868
ਜਣੇਪਾ	-11.9868
▁SPMK	-11.9868
▁ਸੁਜ਼ੌ	-11.9868
▁Spicer	-11.9868
▁camera	-11.9868
▁"{0}"	-11.9868
▁$1.99	-11.9868
▁above	-11.9868
▁ਪੱਖਪਾਤ	-11.9868
▁ਬੱਲਬ	-11.9868
▁ਸਿਡਨੀ	-11.9868
▁ਕੰਘੀ	-11.9868
▁ਪ੍ਰਤੀਯੋਗੀ	-11.9868
punjabistars	-11.9868
▁ਕਾਸ਼ਤ	-11.9868
▁CDDB	-11.9868
▁ANSI	-11.9868
▁ਡੀਕੋਡਰ	-11.9868
▁three	-11.9868
▁parent	-11.9869
Error	-11.9869
▁PWM	-11.9869
▁72.00	-11.9869
▁GEO	-11.9869
odiac	-11.9869
mAh	-11.9869
▁ਸੰਵੇਦ	-11.9869
▁Henan	-11.987
Project	-11.9871
▁ਡੁਬ	-11.9872
normal	-11.9873
copyright	-11.9875
million	-11.9878
ਲੰਘਾਉਣ	-11.988
ੀਕੇਸ਼ਨ	-11.989
fresh	-11.9895
pheri	-11.9928
!!!!!	-11.9989
dorf	-11.9994
tivity	-12.0024
twitter	-12.0058
Shenzhen	-12.0059
Lesbians	-12.0059
ਆਧੁਨਿਕ	-12.006
ਵਿਰੋਧ	-12.006
Online	-12.006
Open	-12.006
©	-12.006
ਵੱਡਾ	-12.006
vpn	-12.0133
ਅਟੈਚਮੈਂਟਸ	-12.0156
▁ਇਲੈਕਟ੍ਰ	-12.0215
▁ਸਪੈਕਟਰ	-12.0274
▁remove	-12.0281
sharrymaan	-12.0285
ਡੈਸੀਮਲ	-12.0285
ਪਾਰੰਪਰਕ	-12.0285
ਹੋਰੋਸਕੌਪ	-12.0285
▁Abacre	-12.0285
▁Bottle	-12.0285
▁Brunette	-12.0285
▁Cellocator	-12.0285
▁Meritor	-12.0285
▁Oregon	-12.0285
▁Slotjar	-12.0285
▁parameter	-12.0285
▁rsquo	-12.0285
▁sentence	-12.0285
▁spinbox	-12.0285
▁temperature	-12.0285
▁ਇਨਕਰਿਪਸ਼ਨ	-12.0285
▁ਏੰਜਿਲਸ	-12.0285
▁ਐਨਾਬੋਲਿਕ	-12.0285
▁ਕਾਮੋਤੇਜਤ	-12.0285
▁ਗਰਾਫਿਕਲ	-12.0285
▁ਢੁੱਕਵੀਂ	-12.0285
▁ਦੇਨੌਜ਼ਲ	-12.0285
▁ਨੀਂਦਰਲੈਂਡ	-12.0285
▁ਨੁਮਾਇੰਦੇ	-12.0285
▁ਪਲਾਈਵੁੱਡ	-12.0285
▁ਪਾਇਨੀਅਰ	-12.0285
▁ਪ੍ਰਤੀਕ੍ਰਿਆ	-12.0285
▁ਪ੍ਰਮਾਣਕਿਤਾ	-12.0285
▁ਫਾਰਮਾਸਿਸਟ	-12.0285
▁ਬ੍ਰਿਟੇਨ	-12.0285
▁ਮਾਈਲੇਜ	-12.0285
▁ਮੈਟਾਡਾਟਾ	-12.0285
▁ਮੈਨੀਫੈਸਟੋ	-12.0285
▁ਮੰਤਰਾਲਿਆਂ	-12.0285
▁ਰਣਨੀਤਕ	-12.0285
▁ਰੀਸੈਪਟਰ	-12.0285
▁ਲਤ੍ਤਾ	-12.0285
▁ਲੀਥੀਅਮ	-12.0285
▁ਸਨੈਪਸ਼ਾਂਟ	-12.0285
▁ਸ਼ਾਕਾਹਾਰੀ	-12.0285
▁ਸਿਲੇਬਸ	-12.0285
▁ਸੋਲੀਟਾਇਰ	-12.0285
▁ਸੰਚਾਲਕ	-12.0285
▁ਹਸਤਾਖਰ	-12.0285
▁ਹੁਬੇਈ	-12.0285
▁ਹੇਰਾਫੇਰੀ	-12.0285
▁Abitat	-12.0285
▁Comprar	-12.0285
▁Domain	-12.0285
▁ਅਸੀਮਿਤ	-12.0285
▁ਐਡਜਸਟ	-12.0285
▁ਨਗਾਰਾ	-12.0285
▁ਪਾਰਟਨਰ	-12.0285
▁ਪ੍ਰਚੂਨ	-12.0285
▁ਬੇਹੱਦ	-12.0285
▁ਮਿਆਂਮਾਰ	-12.0285
▁ਰੂਪਰੇਖਾ	-12.0285
▁ਵਿਹੜਾ	-12.0285
ccinate	-12.0285
▁Strictly	-12.0285
▁Xexun	-12.0285
▁ਅਨਾਦਿ	-12.0285
▁ਨਹਿਲੇ	-12.0285
▁ਪਲਾਸਟਰ	-12.0285
aquarium	-12.0285
natural	-12.0285
▁ਖਰੜਾ	-12.0285
▁ਮੌਕਿਆਂ	-12.0285
▁ਵੈੱਬਕੈਮ	-12.0285
▁ਸਰਬੀਆਈ	-12.0285
▁epoxy	-12.0285
▁ਅਸਮਰਥ	-12.0285
▁Iowa	-12.0285
▁snow	-12.0285
▁ਮੁਹਾਵਰਾ	-12.0285
▁ਚੂਸਣ	-12.0285
▁ਮੈਜਿਕ	-12.0285
▁ਖਮੀਰ	-12.0285
▁ਜਮਾਉਣਾ	-12.0285
▁Kumar	-12.0285
▁ਲਾਪਤਾ	-12.0285
▁ਜਸਟਿਸ	-12.0285
▁smd	-12.0285
wikipedia	-12.0285
▁ਅਲਰਜੀ	-12.0285
▁receive	-12.0285
▁ਵਰਨਣ	-12.0285
▁Street	-12.0285
▁ਸਹਿਭਾਗੀ	-12.0285
▁ਥੀਟਾ	-12.0285
▁ਬੰਦੂਕ	-12.0285
16949	-12.0285
▁Candy	-12.0285
▁ਸੁਪਰੀਮ	-12.0285
▁ਆਦਿਵਾਸੀ	-12.0285
▁SALE	-12.0285
▁ਲਾਭਪਾਤ	-12.0285
cycle	-12.0285
▁ਸਲਾਦ	-12.0286
▁ਟਕਰਾ	-12.0286
hatsThis	-12.0287
▁ਮਰਕਰੀ	-12.0306
ਿਣਤੀ	-12.0347
8/10	-12.0353
uardian	-12.0405
ਰੋਮਾਨੀ	-12.0416
language	-12.0493
Notification	-12.0494
Φ	-12.0494
ਅਣਜਾਣ	-12.0494
ਸਬੂਤ	-12.0494
ਨੈੱਟਵਰਕ	-12.0496
ਪਹਿਲਾ	-12.0596
▁ਰਿਜ਼ਰਵ	-12.0719
iqdesign	-12.072
▁ਕਿੰਗਸਟੋਨ	-12.072
ngwugas	-12.072
Basketball	-12.072
Subject	-12.072
currency	-12.072
ranjitbawa	-12.072
ਚਰ੍ਮਾਨੰਦ	-12.072
ਫਾਰੇਨਹਾਇਟ	-12.072
ਸ੍ਟ੍ਰਾਂਗ	-12.072
▁7.41.0.101	-12.072
▁Cloudflare	-12.072
▁HUAFU	-12.072
▁PUNJABI	-12.072
▁Skills	-12.072
▁material	-12.072
▁molybdenum	-12.072
▁permission	-12.072
▁solenoid	-12.072
▁ਅਣਚਾਹੇ	-12.072
▁ਇੰਸਪੈਕਸ਼ਨ	-12.072
▁ਐਨਐਸਡਬਲਯੂ	-12.072
▁ਓਨਟੇਰੀਓ	-12.072
▁ਓਲੰਪਿਕ	-12.072
▁ਕਜ਼ਾਕਿਸਤਾਨ	-12.072
▁ਕਮਨੀਕੇਸ਼ਨ	-12.072
▁ਕਾਮੋਨੰਦ	-12.072
▁ਕੁਚਲਿਆ	-12.072
▁ਕੈਲਕੁਲੇਟਰ	-12.072
▁ਕੋਆਰਡੀਨੇਟ	-12.072
▁ਗਹਿਰਾਈ	-12.072
▁ਜ਼ਿਮਬਾਬਵੇ	-12.072
▁ਟੁਕੜਿਆਂ	-12.072
▁ਟੈਫਲੌਨ	-12.072
▁ਤਕਨੀਸ਼ੀਅਨ	-12.072
▁ਤਿਰਛੇ	-12.072
▁ਥਰੈਸ਼ਹੋਲਡ	-12.072
▁ਥ੍ਰੈੱਡ	-12.072
▁ਨਜ਼ਰਅੰਦਾਜ਼	-12.072
▁ਪਲੇਅਸਟੇਸ਼ਨ	-12.072
▁ਪੇਂਡੈਂਟ	-12.072
▁ਪੋਰਟਫੋਲੀਓ	-12.072
▁ਪ੍ਰਗਤੀਸ਼ੀਲ	-12.072
▁ਪ੍ਰਤੀਕਿਰਿਆ	-12.072
▁ਬੰਮਬਾਰੀ	-12.072
▁ਮਦਰਬੋਰਡ	-12.072
▁ਲੇਬਨਾਨ	-12.072
▁ਵਲਾਦੀਮੀਰ	-12.072
▁ਵੱਡਦਰਸ਼ੀ	-12.072
▁ਸਟੀਫਨ	-12.072
▁ਸਹਿਕਰਮੀਆਂ	-12.072
▁ਸ਼ਾਬਦਿਕ	-12.072
▁ਸ਼ੁਕਰਾਣੂ	-12.072
▁ਸੰਤ੍ਰਿਪਤ	-12.072
▁ਸੰਸਲੇਸ਼ਣ	-12.072
▁ਹਕੀਕਤ	-12.072
▁ਹਾਂਗਕਾਂਗ	-12.072
▁Author	-12.072
▁Culture	-12.072
▁Deutz	-12.072
▁Hobby	-12.072
▁Soccer	-12.072
▁failed	-12.072
▁ਕੋਰੁਨਾ	-12.072
▁ਗੈਸੋਲੀਨ	-12.072
▁ਜ਼ਮਾਨੇ	-12.072
▁ਤਿੱਖੀ	-12.072
▁ਥਲੱਗ	-12.072
▁ਦਹਿਸ਼ਤ	-12.072
▁ਫਲਸਰੂਪ	-12.072
▁ਫਲੋਰੀਡਾ	-12.072
▁ਬੁਲਬੁਲਾ	-12.072
▁ਬੇਅਸਰ	-12.072
▁ਮੈਟਰਿਕਸ	-12.072
▁ਸਰਜੀਕਲ	-12.072
▁ਸੈਕਰੋਨਾਇਜ਼	-12.072
▁kppp	-12.072
▁ਇਵੈਂਟ	-12.072
▁ਕੋਬਾਲਟ	-12.072
▁ਜੌਹਨ	-12.072
▁ਡੱਬੇ	-12.072
▁ਮਰਕੁਸ	-12.072
▁ਸੁਲਤਾਨ	-12.072
▁Tanggu	-12.072
▁ਜ਼ਬਤ	-12.072
XBET	-12.072
married	-12.072
▁ਕੰਟ੍ਰੋਲ	-12.072
▁ਕਸੀਨੋ	-12.072
▁ਪਿਕਨਿਕ	-12.072
▁ਟੀਚਿਆਂ	-12.072
▁Cyber	-12.072
▁Linton	-12.072
▁ਟੋਕਰੇ	-12.072
webstore	-12.072
▁ਕੋਲਕਾਤਾ	-12.072
▁Vikas	-12.072
▁ਸਦਕਾ	-12.072
▁HIV	-12.072
Hearts	-12.072
▁Gongxian	-12.072
▁After	-12.072
Tagged	-12.072
▁ਸ਼ਹੀਦ	-12.072
▁ਖਿਆਲ	-12.0722
Build	-12.0733
▁ਦਿਆਲ	-12.0738
ਗੰਦੀ	-12.0753
Social	-12.076
▁21.08.	-12.0775
ਰੋਧਕ	-12.0787
.10.20	-12.079
Look	-12.083
ਬਲੌਗ	-12.0948
ਕੋਰੀਆਈ	-12.0948
support	-12.0948
ਏਸ਼ੀਆਈ	-12.0948
greece	-12.0949
ਮਹਿਲਾ	-12.0949
ਛੋਟੇ	-12.0949
ਅੱਪਡੇਟ	-12.0949
ਹਿੱਸਾ	-12.0949
ਇੱਥੇ	-12.0949
ਗੱਡੀ	-12.0954
ਸਮੇਂ	-12.0954
ਪਬਲਿਕ	-12.0955
ਰਖਾਵ	-12.1012
▁ਝਾੜ	-12.1099
transform	-12.1174
crushthe	-12.1174
💓	-12.1174
▁407-872-1901	-12.1174
▁CraigsCoinCRAIG	-12.1174
▁Português	-12.1174
▁ਥੀਏਟਰ	-12.1174
Brochure	-12.1174
Column	-12.1174
Frozen	-12.1174
ORIAL	-12.1174
dhillon	-12.1174
likeforlike	-12.1174
ludhiana	-12.1174
ontributions	-12.1174
popular	-12.1174
ų	-12.1174
ਸ੍ਪੇੰਦੇਕ੍ਸ	-12.1174
▁Adventus	-12.1174
▁Castelbajac	-12.1174
▁Deluxe	-12.1174
▁Evaporator	-12.1174
▁Gimåfors	-12.1174
▁Knights	-12.1174
▁Louisiana	-12.1174
▁Mermaid	-12.1174
▁Netkiosk	-12.1174
▁Oklahoma	-12.1174
▁Tengzhou	-12.1174
▁Yangzhou	-12.1174
▁granule	-12.1174
▁kioclient	-12.1174
▁original	-12.1174
▁possible	-12.1174
▁télécharger	-12.1174
▁£££	-12.1174
▁ਅਣਅਧਿਕਾਰਤ	-12.1174
▁ਅਤਿਰਿਕਤ	-12.1174
▁ਆਰ੍ਲੀਯਨ੍ਸ	-12.1174
▁ਇਲੈਕਟਰੋਨ	-12.1174
▁ਐਸੋਸੀਏਟ	-12.1174
▁ਕਮੋਡਿਟੀ	-12.1174
▁ਗਣਤੰਤਰ	-12.1174
▁ਗਰੇਡੀਐਂਟ	-12.1174
▁ਗੁਰਬਾਣੀ	-12.1174
▁ਚਿੱਥਿਆ	-12.1174
▁ਚੈਰਿਟੀ	-12.1174
▁ਡਿਵੀਜ਼ਨ	-12.1174
▁ਢੁਕਵੇਂ	-12.1174
▁ਤਬਾਦਲੇ	-12.1174
▁ਨਿਪੁੰਨ	-12.1174
▁ਪਾਰਦਰਸ਼ਤਾ	-12.1174
▁ਪੁਰਾਤੱਤਵ	-12.1174
▁ਪੌਸ਼ਟਿਕ	-12.1174
▁ਫਾਈਬ੍ਰਾਈਨ	-12.1174
▁ਬਰੁਕਲਿਨ	-12.1174
▁ਬਾਗਬਾਨੀ	-12.1174
▁ਬਿਟਕੋਇਨ	-12.1174
▁ਮਨਸੂਖ	-12.1174
▁ਮੁਤਾਬਿਕ	-12.1174
▁ਮੁਸਲਿਮ	-12.1174
▁ਮੈਡਿਊਲ	-12.1174
▁ਮੈਨੂਫੈਕਚਰਿੰਗ	-12.1174
▁ਵਰ੍ਹੇਗੰਢ	-12.1174
▁ਸਟੋਕਿੰਗਜ਼	-12.1174
▁ਸਿਰਜਣਹਾਰ	-12.1174
▁ਸੁਪੀਰੀਅਰ	-12.1174
▁ਸੈੰਟਰੀਫਿਉਗਲ	-12.1174
Bahasa	-12.1174
smooth	-12.1174
▁Foldable	-12.1174
▁Secure	-12.1174
▁Siemens	-12.1174
▁ਮੈਕਬੁਕ	-12.1174
▁ਲਿੱਕੜ	-12.1174
▁ਸੁਚਾਰੂ	-12.1174
▁ਸੋਹਣੇ	-12.1174
▁ਹੱਸਦੇ	-12.1174
▁ਓਪੇਰਾ	-12.1174
▁ਓਰਫੇਕ	-12.1174
▁ਕੇ੩ਬੀ	-12.1174
ਨੌਕਰਾਣੀ	-12.1174
▁ਆਉਟਲੈਟ	-12.1174
▁ਸੇਕ੍ਸ	-12.1174
(248)	-12.1174
mandeer	-12.1174
▁crepe	-12.1174
▁Happy	-12.1174
▁ਸਵਿਚਿੰਗ	-12.1174
mirates	-12.1174
▁ਫੰਗਲ	-12.1174
▁ਮੰਦਿਰ	-12.1174
PhoneBill	-12.1174
▁ਵਿਯੂਜ਼	-12.1174
▁Hindi	-12.1174
▁ਖ਼ਤਰੇ	-12.1174
▁Auger	-12.1174
▁Racing	-12.1174
▁ਛਿੜਕ	-12.1174
▁54.0.2	-12.1174
▁ਸੁਡਾਨ	-12.1174
degree	-12.1174
▁ਸਾਂਝੇਦਾਰੀ	-12.1174
▁ਢੱਕਣ	-12.1175
▁ਬਲੀਚ	-12.1175
▁ਸਦੀਵੀ	-12.1175
happy	-12.1175
ongtrainjourneys	-12.1175
▁ਟੋਕਰੀ	-12.1176
Insert	-12.1176
Spring	-12.1177
ountain	-12.1177
▁ਪਾਦਰੀ	-12.1179
Futur	-12.1363
Panel	-12.138
default	-12.1424
Strapon	-12.1424
General	-12.1424
ਡੂੰਘੇ	-12.1424
High	-12.1424
ਕੁਸ਼ਲ	-12.1424
ਛਾਪੋ	-12.1425
ਮੂੰਹ	-12.1425
→	-12.1425
ਡਰਾਈਵਰ	-12.1425
ਯੋਜਨਾ	-12.1425
ਨਿਰਧਾਰਨ	-12.1425
ਵਿਦਿਆਰਥੀ	-12.1425
ਮੁਕੰਮਲ	-12.1425
ਐਕਸ਼ਨ	-12.1425
ਘੰਟੇ	-12.1425
EVE	-12.1429
▁ਧੁਨ	-12.1569
▁ਸਪੈਕਟ੍ਰ	-12.1639
▁ਵਾਟਰਪ੍ਰੂਫ	-12.1648
▁ਜਾਹਨਸਬਰਗ	-12.165
▁ਧੁਮਕੇਤੂ	-12.165
▁ਮੈਕਡੋਨੀਆ	-12.165
CategoryName	-12.165
Tropical	-12.165
shutdown	-12.165
ਐਂਗਐਕਸ	-12.165
ਕਦਾਈਂ	-12.165
ਬੁੱਝ	-12.165
ਵਾਤਾਅਨੁਕੂਲਿਤ	-12.165
▁Badefass	-12.165
▁Baiyun	-12.165
▁Buggy	-12.165
▁BuyFollowers	-12.165
▁Cannabidiol	-12.165
▁Gmengyuan	-12.165
▁GotPorn	-12.165
▁LadyLuck	-12.165
▁LongDayName	-12.165
▁Lycopersicon	-12.165
▁Mercenaries	-12.165
▁Minnesota	-12.165
▁Neodymium	-12.165
▁Nevada	-12.165
▁Prefab	-12.165
▁Scraper	-12.165
▁ShortDayName	-12.165
▁SiteGround	-12.165
▁Squirts	-12.165
▁Toggle	-12.165
▁Yuyao	-12.165
▁armature	-12.165
▁because	-12.165
▁calendar	-12.165
▁conductivity	-12.165
▁grammatical	-12.165
▁ਅਫ਼ਰੀਕਾ	-12.165
▁ਅਫ਼ਸੋਸ	-12.165
▁ਅਰੀਜ਼ੋਨਾ	-12.165
▁ਅਲਾਸਕਾ	-12.165
▁ਅਸਗਰੀਪੁਰ	-12.165
▁ਐਕਸਟ੍ਰੋਜ਼ਨ	-12.165
▁ਐਕੁਏਰੀਅਮ	-12.165
▁ਕੜਵਾਹਟ	-12.165
▁ਗੋਇੰਦਵਾਲ	-12.165
▁ਟਰਿੱਗਰ	-12.165
▁ਟੋਰੰਟੋ	-12.165
▁ਡਿਜ਼ਿਟਲ	-12.165
▁ਢੁਕਵੀਂ	-12.165
▁ਤੌਲੀਆ	-12.165
▁ਨਿਯੰਤਰਨ	-12.165
▁ਨਿੱਘੇ	-12.165
▁ਨੋਵਾਇਸ	-12.165
▁ਪੈਟਰੋਲੀਅਮ	-12.165
▁ਫਾਊਨਡੇਸ਼ਨ	-12.165
▁ਬਾਰਬਾਡੋਸ	-12.165
▁ਮੈਗਾਵਾਟ	-12.165
▁ਰੋਜ਼ਨਾਮਚਾ	-12.165
▁ਵੈਕਿਊਮ	-12.165
▁ਸਟੇਡੀਅਮ	-12.165
▁ਸ਼ੋਚ੍ਘਰ	-12.165
▁ਸਾਧਾਰਣ	-12.165
▁ਸੈਲਸੀਅਸ	-12.165
▁ਹੈਲੀਕਾਪਟਰ	-12.165
▁➖➖➖➖➖➖➖➖	-12.165
international	-12.165
toggle	-12.165
traveltips	-12.165
▁Rainha	-12.165
▁Yadav	-12.165
▁ਇਨਪੁਟ	-12.165
▁ਉਜਾਗਰ	-12.165
▁ਉੁਮਰ	-12.165
▁ਐਕਟਵਿਟੀ	-12.165
▁ਜੈਤੂਨ	-12.165
▁ਬੱਗਜ਼ੀਲਾ	-12.165
▁ਲੱਗਭਗ	-12.165
▁ਸ਼ਹਿਦ	-12.165
▁"{{	-12.165
▁Fitness	-12.165
▁PAWG	-12.165
▁ਪ੍ਰਦਰਸ਼ਨਕਾਰੀਆਂ	-12.165
▁Valve	-12.165
▁ਸੂਖਮ	-12.165
▁ਕੁਸ਼ਤੀ	-12.165
▁ਜਨਰੇਟਰ	-12.165
▁ਚੂਸਦੇ	-12.165
▁ਬੁਆਏ	-12.165
▁ਪਰਸ਼ਾਸ਼ਨ	-12.165
▁ਵਿਘਨ	-12.165
culture	-12.165
▁ਦੂਹਰਾ	-12.165
▁ਸ਼ੋਅਰੂਮ	-12.165
▁Stories	-12.165
▁Url	-12.165
▁Client	-12.165
▁ਬੌਂਡ	-12.165
▁ਆਪਰੇਟਰ	-12.165
▁ਤਲਾਅ	-12.165
▁SSAW	-12.165
▁ਵਿਨਾਸ਼	-12.165
▁nbsp	-12.165
Translators	-12.165
▁ਤਰਤੀਬ	-12.165
▁ਗੂੰਜ	-12.165
▁ਬਿੰਗੋ	-12.1651
ਮੁਨਾਫਾ	-12.1651
2019-08-	-12.1651
▁56.0.29	-12.1651
ssociat	-12.1651
▁ਖ਼ੁਦ	-12.1651
▁ਬੱਕਰੀ	-12.1652
Filter	-12.1654
▁Publi	-12.1659
Crush	-12.1663
▁ਕੱਛਾ	-12.1668
Taichi	-12.1688
roofing	-12.1711
▁Dustl	-12.1821
Advanced	-12.1924
ਅਪਰੈਲ	-12.1924
ਇੰਟਰਵਿਊ	-12.1925
ਪੁਰਾਣੇ	-12.1925
ਉਦਯੋਗਿਕ	-12.1925
ਸੁਰੱਖਿਆ	-12.1925
ਸਮੱਗਰੀ	-12.1925
Quest	-12.208
▁Valentine	-12.2095
▁Property	-12.2135
xNUMX	-12.215
asturba	-12.215
▁Wikiwon	-12.215
▁ਫਰੀਟਾਊਂਨ	-12.215
nyauctionwizards	-12.215
▁---------	-12.215
▁temptress	-12.215
Retweets	-12.215
himanshikhurana	-12.215
karanaujla	-12.215
lovakia	-12.215
ê	-12.215
ਅਪੇਟਾਮਿਨ	-12.215
ਵਟਾਂਦਰਾ	-12.215
▁0172-2	-12.215
▁16.5.2018	-12.215
▁Alibaba	-12.215
▁Auslogics	-12.215
▁Baccarat	-12.215
▁Bernstein	-12.215
▁Bilston	-12.215
▁ClassicETC	-12.215
▁Cumshots	-12.215
▁Cycas	-12.215
▁DogecoinDOGE	-12.215
▁Fogarty	-12.215
▁Grillhaus	-12.215
▁Gyeong	-12.215
▁Laminated	-12.215
▁Messenger	-12.215
▁Naruto	-12.215
▁Nektan	-12.215
▁OnePlus	-12.215
▁PAYSON	-12.215
▁Plantix	-12.215
▁Snapchat	-12.215
▁Xiaomi	-12.215
▁battery	-12.215
▁brunettes	-12.215
▁centrifuge	-12.215
▁deadhead	-12.215
▁erkiss	-12.215
▁hooks	-12.215
▁kioslave	-12.215
▁unscented	-12.215
▁whether	-12.215
▁ਅਖ਼ਬਾਰ	-12.215
▁ਅਜਾਇਬ	-12.215
▁ਇਕਰਾਰਨਾਮਾ	-12.215
▁ਇਤਰਾਜ਼	-12.215
▁ਇੰਜਨੀਅਰਿੰਗ	-12.215
▁ਈਮੂਲੇਟਰ	-12.215
▁ਉਤਪ੍ਰੇਰਕ	-12.215
▁ਕਿੰਗਡਮ	-12.215
▁ਕੁਰਿੰਥੀਆਂ	-12.215
▁ਚਬੂਤਰਾ	-12.215
▁ਤਫ਼ਤੀਸ਼	-12.215
▁ਤੂਫ਼ਾਨ	-12.215
▁ਪਰਮਾਕਲਚਰ	-12.215
▁ਪਰਿਯੋਜਨਾ	-12.215
▁ਪ੍ਰਦੂਸ਼ਣ	-12.215
▁ਪ੍ਰੋਟੋਕਾਲ	-12.215
▁ਮੁਲਾਇਮ	-12.215
▁ਮੁੱਢਲੇ	-12.215
▁ਮੈਡ੍ਰਿਡ	-12.215
▁ਯੂਨਾਈਟਿਡ	-12.215
▁ਰਾਜਨੀਤਿਕ	-12.215
▁ਰਿਟਾਇਰਮੈਂਟ	-12.215
▁ਲੈਟਰਹੈੱਡ	-12.215
▁ਵਲੇਨ੍ਸੀਯਾ	-12.215
▁ਵਾਅਦੇ	-12.215
▁ਸਲਿੰਡਰ	-12.215
▁ਸਿੰਡਰੋਮ	-12.215
▁ਸੀਐਟ੍ਲ	-12.215
▁ਸੁਹਾਵਣਾ	-12.215
▁ਹੁਸ਼ਿਆਰ	-12.215
▁ਹੈਰਾਨਕੁੰਨ	-12.215
▁੨੦੦੦	-12.215
Register	-12.215
preferences	-12.215
privacy	-12.215
▁58.0.3029.	-12.215
▁Egypt	-12.215
▁injector	-12.215
▁represent	-12.215
▁ਅਲਬਾਨੀਆ	-12.215
▁ਐਡਵਰਡਜ਼	-12.215
▁ਗਠੀਏ	-12.215
▁ਗਾਬੋਨ	-12.215
▁ਤੋਹਫੇ	-12.215
▁ਬ੍ਰੋਕਰ	-12.215
▁ਰਿਯਾਦਾ	-12.215
▁ਸਿਰਹਾਣਾ	-12.215
73.104	-12.215
▁Defrag	-12.215
▁ਢਿੱਡ	-12.215
▁ਬਰੱਸਟ	-12.215
▁ਵਰ੍ਹੇ	-12.215
▁ਹਾਈਲਾਇਟ	-12.215
▁problem	-12.215
TECU	-12.215
▁Channel	-12.215
▁ਕਾਰਤੂਸ	-12.215
▁ਚੰਬਲ	-12.215
▁ਪ੍ਰਗਟਾਵੇ	-12.215
▁ਲਿਬਰਲ	-12.215
Movix	-12.215
petamin	-12.215
ਆਪਰੇਟਿਵ	-12.215
▁Fabco	-12.215
▁ਡੈਨੀਮ	-12.215
▁women	-12.215
▁ਡਿਊਕ	-12.215
▁Drones	-12.215
≥	-12.2451
±	-12.422
′	-12.5112
¥	-12.6369
‘	-12.6371
🔥	-12.9112
🔰	-12.9338
ी	-13.0449
文	-13.3127
฿	-13.4569
У	-13.6794
द	-13.6794
ã	-13.929
←	-14.2403
↑	-14.7405
📱	-14.7405
🇱	-14.7405
̈	-15.7404
🤣	-15.7405
§	-15.7406
中	-15.7407
【	-15.7408
💥	-15.7409
🌟	-15.741
ї	-15.7411
●	-15.7412
г	-15.7413
◆	-15.7414
★	-15.7415
ñ	-15.7416
в	-15.7417
➖	-15.7418
🇴	-15.7419
ੱ	-15.7419
♪	-15.7419
