<unk>	0
<s>	0
</s>	0
,	-3.47733
▁	-3.67814
.	-3.72228
▁ਹੈ	-4.21574
:	-4.38285
▁ਦੇ	-4.50985
▁ਨੂੰ	-4.60504
▁ਲਈ	-4.61338
-	-4.61755
▁ਅਤੇ	-4.63266
)	-4.80471
▁ਦੀ	-4.84898
s	-5.1049
▁(	-5.17909
▁ਵਿੱਚ	-5.30266
▁ਦਾ	-5.42688
▁ਇੱਕ	-5.44374
▁ਨਾਲ	-5.4469
▁ਕਰਨ	-5.49756
▁ਹਨ	-5.56214
ਾਂ	-5.57436
▁-	-5.59695
ੀ	-5.60624
▁/	-5.64366
▁ਇਸ	-5.64522
ਨ	-5.66092
▁'	-5.7311
▁ਕਿ	-5.7744
▁1	-5.78638
▁ਇਹ	-5.82693
ਸ	-5.87892
;	-5.90615
▁ਤੇ	-5.90779
।	-5.92814
ਤੇ	-5.93764
/	-5.96185
▁ਹੋ	-5.97539
▁ਕਰੋ	-5.97585
ਰ	-6.0251
ਲ	-6.03243
▁kgm	-6.05505
▁ਵਿਚ	-6.10683
▁ਨਹੀਂ	-6.11877
ਕ	-6.12841
▁ਤੋਂ	-6.13235
▁ਜੋ	-6.19544
▁#	-6.19719
▁ਵੀ	-6.20707
(	-6.20988
_	-6.24569
▁ਕਰ	-6.2812
▁।	-6.29091
ਾ	-6.29312
▁ਕੀਤਾ	-6.29833
ੇ	-6.3057
▁2	-6.30865
▁in	-6.31829
▁S	-6.32856
com	-6.3446
▁ਤੁਹਾਨੂੰ	-6.36398
▁ਜਾ	-6.37411
▁ਟੈਟੂ	-6.38995
▁C	-6.4217
ਮ	-6.42889
"	-6.44239
▁ਆਪਣੇ	-6.45602
▁ਸੀ	-6.48566
ਜ਼	-6.4868
Name	-6.52379
▁_	-6.52748
!	-6.53186
%	-6.54976
ਟ	-6.558
▁ਗਿਆ	-6.55979
▁ਹੋਰ	-6.56062
▁"	-6.56568
@	-6.59532
2	-6.6295
▁&	-6.63143
▁3	-6.64108
3	-6.66207
C	-6.66329
▁ਸਾਡੇ	-6.66603
▁ਤੁਸੀਂ	-6.67503
A	-6.68021
▁ਨੇ	-6.70418
ਤ	-6.70481
▁ਜ	-6.70634
a	-6.72567
ਡ	-6.7354
?	-6.75105
▁ਕੇ	-6.7556
▁ਜਾਂ	-6.76131
▁ਪੰਜਾਬੀ	-6.76571
▁ਸਕਦਾ	-6.76622
▁ਕੋਈ	-6.7798
er	-6.78503
▁ਹੀ	-6.78922
▁ਬਹੁਤ	-6.82286
4	-6.83828
▁ਨਾ	-6.84453
▁5	-6.85382
▁ਸਾਰੇ	-6.87811
d	-6.87868
y	-6.88314
S	-6.88716
▁ਕੀ	-6.89462
▁ਬਾਰੇ	-6.89494
▁E	-6.89832
ing	-6.90544
▁4	-6.91094
▁ਪਰ	-6.91387
▁ਸਾਨੂੰ	-6.9161
m	-6.92038
L	-6.92163
▁ਉਹ	-6.924
▁ਦੁਆਰਾ	-6.94068
D	-6.94203
mm	-6.94579
▁...	-6.946
'	-6.95401
▁ਤੌਰ	-6.96105
1	-6.96423
▁ਈ	-6.96746
amp	-6.96931
ਿੰਗ	-6.97489
B	-6.9772
▁ਇਕ	-6.97992
▁A	-6.98586
▁ਫਾਇਲ	-6.99073
▁ਸਭ	-6.99279
▁–	-6.99425
▁D	-6.99898
▁ਡੀ	-7.0041
ੋ	-7.00412
ਤਾ	-7.00737
ਣ	-7.01878
ਆਂ	-7.02585
▁ਤੁਹਾਡੇ	-7.02628
...	-7.02678
▁@	-7.03762
▁$	-7.04274
ਬ	-7.04411
ਜ	-7.04627
▁ਸਕਦੇ	-7.04691
▁T	-7.04808
T	-7.05745
▁ਸ	-7.06584
ਚ	-7.06875
c	-7.07728
▁the	-7.07766
ਪ	-7.08134
in	-7.09569
▁ਤੱਕ	-7.0972
▁B	-7.10924
gt	-7.11031
▁ਜੇ	-7.12711
▁ਕੰਮ	-7.13113
▁%	-7.1326
▁ਰਹੇ	-7.13717
ਦਾ	-7.14639
▁ਉਤਪਾਦ	-7.14785
▁P	-7.14812
M	-7.1495
▁F	-7.15064
Comment	-7.15944
▁ਕੀਤੀ	-7.16054
n	-7.16307
x	-7.17611
▁ਤਾਂ	-7.178
▁10	-7.18249
5	-7.18444
ਿਆ	-7.19065
▁ਜਾਣਕਾਰੀ	-7.19257
▁ਕੁਝ	-7.19548
ਸੀ	-7.19598
▁G	-7.19764
▁H	-7.19906
ਰੀ	-7.2076
an	-7.21395
▁info	-7.22185
ਗ	-7.2237
al	-7.23022
ਸ਼	-7.23352
b	-7.23689
g	-7.2406
▁2018	-7.24676
W	-7.25946
ed	-7.26
▁ਮਸ਼ੀਨ	-7.2626
i	-7.26357
▁ਕਰਦਾ	-7.26724
e	-7.26756
V	-7.26808
▁ਚੀਨ	-7.26894
▁ਡਾਊਨਲੋਡ	-7.28259
ਲੀ	-7.29066
▁ਸ਼ਾਮਲ	-7.29491
▁K	-7.29686
▁+	-7.2996
▁ਉਸ	-7.29992
▁ਹਾਂ	-7.30002
ਵ	-7.31202
City	-7.32265
▁name	-7.32759
t	-7.33134
G	-7.33156
▁ਖੋਜ	-7.3358
▁ਮੁਫ਼ਤ	-7.34336
▁ਉੱਤੇ	-7.34371
p	-7.3475
ਲਾ	-7.35192
R	-7.35401
▁6	-7.35486
▁ਅ	-7.35909
10	-7.36558
▁M	-7.36633
ਨਾ	-7.36987
▁ਪ੍ਰਾਪਤ	-7.37112
▁ਮੁੱਖ	-7.37125
P	-7.37254
▁ਕਿਸੇ	-7.37414
▁ਜੀ	-7.3779
▁ਰੰਗ	-7.38277
▁8	-7.39593
▁L	-7.39984
▁ਕਰਦੇ	-7.40505
▁ਵਰਤੋਂ	-7.40635
E	-7.40771
▁ਮੈਨੂੰ	-7.41515
▁ਨਾਂ	-7.42029
ਏ	-7.42141
▁a	-7.42359
▁ਵੱਧ	-7.42681
ਈ	-7.42714
▁ਰਿਹਾ	-7.42721
▁ਕਰਨਾ	-7.43107
▁*	-7.4425
▁ਸੰਪਰਕ	-7.44263
▁to	-7.44558
k	-7.44658
▁of	-7.45229
▁ਸਿਸਟਮ	-7.45889
u	-7.46121
F	-7.46849
le	-7.46917
▁7	-7.46973
o	-7.471
H	-7.47161
▁R	-7.47416
▁ਸਾਲ	-7.48315
en	-7.48792
ਹ	-7.50022
ਲੇ	-7.50075
ਦ	-7.50269
▁ਹਰ	-7.50903
▁2019	-7.51488
▁ਫੋਨ	-7.51746
▁2017	-7.52215
▁ਦਿਨ	-7.53104
X	-7.53624
▁ਵਾਰ	-7.53864
20	-7.5423
▁ਮੈਂ	-7.54294
h	-7.54317
▁ਸ਼ੁਰੂ	-7.546
ਟੀ	-7.54626
▁ਚੋਣ	-7.56195
▁ਕਿਸਮ	-7.5647
r	-7.57502
ਦੇ	-7.58087
▁©	-7.5815
▁Name	-7.58166
▁ਲੋੜ	-7.58176
K	-7.58264
▁ਅਸੀਂ	-7.58305
O	-7.58462
▁ਵਧੀਆ	-7.58816
▁ਬਾਅਦ	-7.59468
▁c	-7.60238
▁9	-7.6051
lt	-7.60544
f	-7.60889
▁ਕਰਕੇ	-7.61084
6	-7.61211
▁ਹੋਣ	-7.61411
w	-7.63799
▁W	-7.63923
l	-7.64193
▁N	-7.64749
▁ਵੇਖੋ	-7.65384
ੂ	-7.65693
re	-7.66325
00	-7.66355
▁12	-7.66632
▁ਜਾਵੇਗਾ	-7.67077
▁ਵਿਚਾਰ	-7.67444
es	-7.68016
co	-7.6866
▁ਵੱਖ	-7.68763
ਅ	-7.69002
▁ਚਿੱਤਰ	-7.69833
▁20	-7.69853
ਟਰ	-7.70215
▁ਸੇਵਾ	-7.70448
7	-7.70484
ar	-7.707
8	-7.70936
▁V	-7.71461
▁X	-7.71542
▁ਪੋਸਟ	-7.71844
ਦੀ	-7.72173
▁ਆ	-7.72332
▁19	-7.72335
▁ਉੱਚ	-7.72402
▁ਜਿਸ	-7.72656
▁ਬੰਦ	-7.72679
▁and	-7.7282
://	-7.73114
ਨੀ	-7.73135
▁ਵੀਡੀਓ	-7.73375
▁ਪਹਿਲਾਂ	-7.73785
▁ਬਣਾਉਣ	-7.73796
▁ਏ	-7.73969
▁ਘੱਟ	-7.74125
▁ਕੰਪਨੀ	-7.74128
U	-7.74227
I	-7.74788
▁I	-7.74999
▁ਮਾਡਲ	-7.75057
ੀਆਂ	-7.75146
▁ਖੇਡ	-7.76034
▁ਆਕਾਰ	-7.76342
▁2016	-7.76534
▁ਫੋਲਡਰ	-7.77116
ਐਸ	-7.77603
on	-7.78183
▁ਦੀਆਂ	-7.78229
ਪੀ	-7.7848
ਮੇਲ	-7.7848
ਵਾ	-7.78737
z	-7.78935
▁ਸਿਹਤ	-7.80048
N	-7.80424
▁ਦਿੱਤਾ	-7.80945
▁ਪਤਾ	-7.80949
ਓ	-7.8245
▁ਤਿਆਰ	-7.82645
ਰਾ	-7.83013
▁ਆਮ	-7.83406
or	-7.83419
▁ਚਾਹੁੰਦੇ	-7.8356
▁ਸਰਵਰ	-7.8357
▁ਚੁਣੋ	-7.84063
▁m	-7.84942
▁ਨੰਬਰ	-7.84992
▁ਖੇਤਰ	-7.85151
▁24	-7.85427
▁ਜਦੋਂ	-7.85622
v	-7.85627
▁ਕੋਡ	-7.85663
▁ਇੱਥੇ	-7.85678
▁ਵਾਲੇ	-7.85783
▁ਗਲਤੀ	-7.86025
▁0	-7.86214
▁ਹੁਣ	-7.86433
ਵਾਂ	-7.87239
ਡੀ	-7.8728
▁ਉਨ੍ਹਾਂ	-7.87906
▁for	-7.88013
(_	-7.88986
et	-7.89064
ਆ	-7.89095
▁O	-7.89356
▁ਗਈ	-7.89431
▁ਸਿਰਫ	-7.89474
▁ਕ	-7.89617
▁ਐਸ	-7.89762
▁ਪ	-7.89825
9	-7.90137
punjabi	-7.90234
ਰੇ	-7.90603
el	-7.91609
]	-7.91845
11	-7.92039
▁ਗਏ	-7.92239
▁ਲੈ	-7.93177
th	-7.9327
▁ਸਰੋਤ	-7.93339
optional	-7.94014
50	-7.94325
▁ਕੋਲ	-7.94556
▁ਜਾਂਦਾ	-7.94888
:%	-7.95169
▁ਮੌਜੂਦਾ	-7.95271
ਕਾ	-7.95462
▁ਮੁੜ	-7.95551
▁ਕੀਮਤ	-7.95621
▁ਕੀਤੇ	-7.95672
st	-7.95707
▁30	-7.95877
▁ਪੀ	-7.95884
30	-7.96002
ਰੋ	-7.96087
▁ਕਾਪੀਰਾਈਟ	-7.96225
ਤੀ	-7.96571
12	-7.97179
▁15	-7.97297
▁ਆਨਲਾਈਨ	-7.97312
ਖ	-7.97481
ਬੀ	-7.97552
15	-7.97741
▁ਅੱਗੇ	-7.98259
▁ਹੁੰਦਾ	-7.98418
▁ਮੁੱਲ	-7.98671
▁ਗ	-7.98979
▁ਦੋ	-7.99262
▁ਯੋਗ	-7.99401
ਮਾ	-7.99809
▁ਮ	-7.9984
▁2015	-7.99841
60	-7.99928
▁ਰੂਪ	-7.99953
▁ਵ	-8.00022
▁ਆਪਣੀ	-8.00068
ੜ	-8.00187
▁ਸਮੱਗਰੀ	-8.00513
19	-8.00984
▁ਸੰਰਚਨਾ	-8.01245
▁£	-8.0139
▁ਮਦਦ	-8.0191
▁ਫਾਇਲਾਂ	-8.01933
▁ਲੋਕ	-8.02204
ਫ	-8.02354
j	-8.02583
0	-8.02708
ਿਕ	-8.02835
&	-8.03191
▁ਜਾਣ	-8.03311
▁ਚਾਹੀਦਾ	-8.03929
ur	-8.04119
▁ਕਈ	-8.04538
▁ਡਾਲਰ	-8.04993
▁ਪੂਰੀ	-8.0554
ad	-8.05581
16	-8.05653
▁ਸਮੇਂ	-8.05683
▁ਸਟੀਲ	-8.05991
▁ਕਾਰ	-8.05995
▁ਘਰ	-8.06088
▁[	-8.06184
▁ਕਾਲ	-8.06273
ਵੀ	-8.07072
ਜੀ	-8.07274
▁18	-8.07517
▁J	-8.07543
it	-8.07695
▁ਮੇਲ	-8.08151
▁ਮੇਰੇ	-8.08267
▁ਸਾਈਟ	-8.09141
▁ਫੇਸਬੁੱਕ	-8.09589
ਲੋ	-8.09595
▁11	-8.09982
▁ਜੇਕਰ	-8.10062
▁USA	-8.10116
▁ਸਨ	-8.10243
▁ਡਾਟਾ	-8.10256
▁ਮੋਬਾਈਲ	-8.10777
ਂ	-8.108
▁ਵਿ	-8.10933
ਣਾ	-8.1102
▁ਤੁਹਾਡੀ	-8.11289
▁ਨਾਮ	-8.11632
▁ਯੂ	-8.11834
▁ਬ	-8.11851
Y	-8.11871
▁50	-8.1223
ly	-8.12312
▁g	-8.12427
ਕਾਰ	-8.13096
੍	-8.1326
ੁ	-8.14049
40	-8.14316
ਾਈ	-8.14439
18	-8.14548
▁ਸਾਫਟਵੇਅਰ	-8.15025
▁ਵਿੰਡੋ	-8.15133
ਥ	-8.15333
▁ਖਾਸ	-8.15767
▁ਦਿਓ	-8.1606
▁ਬੀ	-8.16362
▁ਦੌਰਾਨ	-8.16538
▁units	-8.17077
▁is	-8.17682
▁ਬਾਹਰ	-8.17749
ਵੇ	-8.17803
il	-8.1788
▁100	-8.179
ri	-8.18221
ਸ਼ਨ	-8.18803
ੱਕ	-8.18987
▁ਵਰਤਿਆ	-8.19029
▁ਨਵਾਂ	-8.19208
▁amount	-8.1925
ਿਆਂ	-8.19376
▁16	-8.19555
▁ਪ੍ਰ	-8.19561
ro	-8.19565
ma	-8.19811
▁ਠੀਕ	-8.19869
▁ਈਮੇਲ	-8.20034
▁ਜੰਤਰ	-8.20323
ol	-8.2033
at	-8.20542
ਉ	-8.20961
25	-8.21288
▁ਆਪ	-8.21321
▁t	-8.21517
ic	-8.22129
se	-8.22156
▁ਲਾਈਨ	-8.22398
13	-8.22558
▁http	-8.22633
▁ਹੈਕ	-8.22904
ਸਾ	-8.22971
ਕੇ	-8.23009
▁ਵਿਕਰੀ	-8.23249
▁ਕਿਰਪਾ	-8.23754
▁ਸੋਧ	-8.24141
▁p	-8.24207
▁ਐਲ	-8.24282
”	-8.24307
am	-8.24995
ਗਾ	-8.2503
id	-8.25103
▁ਅੰਦਰ	-8.2516
▁ਗਾਹਕ	-8.25327
ਕੀ	-8.25353
▁ਸਟਿੱਕਰ	-8.25528
▁ਆਈ	-8.25608
▁ਪਰਿਵਾਰ	-8.25676
▁ਜਦ	-8.25766
▁ਤਰ੍ਹਾਂ	-8.25801
▁€	-8.2633
▁14	-8.26377
ਵਰ	-8.26439
▁ਵਿਕਾਸ	-8.26462
▁ਪਾਣੀ	-8.2669
ਕੋ	-8.26702
▁2014	-8.27269
▁ਵੈੱਬਸਾਈਟ	-8.27603
▁Comment	-8.27896
▁weather	-8.27907
▁2013	-8.28041
▁Constellation	-8.28083
un	-8.28315
▁ਪੂਰਾ	-8.28473
▁ਸੁਰੱਖਿਆ	-8.28904
▁ਸਵਾਲ	-8.28967
14	-8.29149
▁ਕਾਰਵਾਈ	-8.29167
▁ਵੱਡੇ	-8.29274
▁ਕਾਰਨ	-8.29289
ਟਾ	-8.29338
▁ਫਿਰ	-8.29402
cm	-8.29451
▁ਨਕਸ਼ਾ	-8.29537
▁ਸ਼ਾਮਿਲ	-8.29539
▁ਗੁਣਵੱਤਾ	-8.29976
▁v	-8.2999
▁title	-8.30287
▁ਕੰ	-8.30319
ang	-8.30517
▁“	-8.30599
▁ਸਹਾਇਕ	-8.31012
▁by	-8.31075
▁ਐਕਸ	-8.31196
sh	-8.31289
ra	-8.31358
▁ਛੱਡ	-8.3162
▁ਸੰਦ	-8.31635
▁ਵਰਤਣ	-8.31647
▁ਲੋਡ	-8.31729
▁ਸ਼ਾਨਦਾਰ	-8.31907
▁ਰਹੀ	-8.32065
▁ਬੇ	-8.32336
▁2020	-8.32402
▁GIF	-8.3252
▁ਸੈਟਿੰਗ	-8.32728
▁ਪਾ	-8.32789
ਿਤ	-8.32973
ਗੇ	-8.33208
▁ਕਾਰਜ	-8.33265
▁ਵੈਬਸਾਈਟ	-8.33316
us	-8.33498
▁ਹੱਕ	-8.3354
▁No	-8.33618
J	-8.33703
▁action	-8.33737
▁ਫੋਟੋ	-8.33845
80	-8.33855
is	-8.34026
▁ਤਾਪਮਾਨ	-8.34029
▁ਭਾਰਤ	-8.34074
=	-8.34468
▁ਭਾਗ	-8.346
21	-8.34663
▁ਕਲਿੱਕ	-8.34849
ਆਈ	-8.34885
▁U	-8.35029
਼	-8.35282
▁ਸਥਿਤੀ	-8.35318
▁ਬਣਾਇਆ	-8.35378
28	-8.35786
▁f	-8.35851
ex	-8.36373
▁•	-8.36376
▁ਸਾਡੀ	-8.3664
ਸਟ	-8.36725
ia	-8.36948
▁h	-8.36976
▁ਪਲੱਗਇਨ	-8.37141
▁ਸੁ	-8.37276
▁ਉ	-8.37394
▁ਨੈੱਟਵਰਕ	-8.37411
▁re	-8.37778
▁ਹਟਾਓ	-8.37994
▁ਵਰਜਨ	-8.38415
▁ਐਪਲੀਕੇਸ਼ਨ	-8.38626
▁ਲਾਗੂ	-8.38874
▁13	-8.3894
▁ਜਾਰੀ	-8.39077
▁ਓ	-8.39114
17	-8.39239
ent	-8.39305
▁ਉਤਪਾਦਨ	-8.39497
▁ਜਵਾਬ	-8.39591
▁ਕਾ	-8.39738
▁ਵਪਾਰ	-8.39916
▁ਸਹਿਯੋਗ	-8.40029
ers	-8.4003
▁ਢੰਗ	-8.40031
▁ਬੋਨਸ	-8.40568
▁ਜੂਨ	-8.40831
▁ਕੰਟਰੋਲ	-8.40983
▁ਨਹੀ	-8.41036
▁item	-8.4112
▁b	-8.41863
te	-8.41864
▁ਘੰਟੇ	-8.41884
▁ਸੈੱਟ	-8.42173
pa	-8.42184
▁17	-8.42207
▁ਪੋਰਨ	-8.42442
▁ਹੋਏ	-8.42463
▁ਚ	-8.42521
sp	-8.42703
▁ਆਦਿ	-8.42782
and	-8.42944
▁ਵਿੱਚੋਂ	-8.42984
▁ਪ੍ਰਦਾਨ	-8.42995
▁ਨਵ	-8.43213
▁ਫੈਕਟਰੀ	-8.43442
▁25	-8.43619
▁ਸਮਾਂ	-8.43699
ਿ	-8.43706
▁ਜਿਵੇਂ	-8.43769
as	-8.43825
▁Y	-8.4386
ate	-8.43991
08	-8.44203
um	-8.44229
www	-8.4424
▁City	-8.44301
▁Z	-8.44675
▁Windows	-8.44684
▁OF	-8.44906
▁ਪੇਸ਼ਕਸ਼	-8.44991
ਜਾ	-8.45018
ਕਰ	-8.45064
▁ਭੁਗਤਾਨ	-8.45139
▁ਹੋਇਆ	-8.45242
="	-8.45247
to	-8.45404
▁ਵਾਲੀ	-8.45498
▁ਸ਼ਹਿਰ	-8.45715
▁ਹਾਈ	-8.46021
02	-8.46071
ੌ	-8.46127
▁ਟੀ	-8.46255
▁ਵਰਗ	-8.46424
▁ਡਿਸਕ	-8.46441
XL	-8.46454
▁=	-8.46502
▁ਫ	-8.46627
▁ਤ	-8.46865
▁~	-8.46992
▁ਅੱਪਡੇਟ	-8.47098
ਫ਼	-8.4717
▁ਐਮ	-8.47215
▁ਪਹੁੰਚ	-8.47242
▁°	-8.4735
▁ਪਸੰਦ	-8.47403
ion	-8.48016
ਧ	-8.48056
ਮੀ	-8.48134
ਵਿ	-8.48155
▁ਗਿਣਤੀ	-8.4874
▁ਸੁਨੇਹਾ	-8.4874
▁60	-8.48743
▁ਟਿੱਪਣੀ	-8.48888
▁e	-8.4894
35	-8.48999
▁ਪਾਵਰ	-8.49085
ation	-8.49445
22	-8.49504
▁ਭਾਸ਼ਾ	-8.49849
▁ਟਰੈਕ	-8.49977
▁ਕਿਹਾ	-8.50063
▁ਹੁੰਦੇ	-8.50169
)...	-8.50234
90	-8.50349
▁ਸਰਟੀਫਿਕੇਟ	-8.5041
▁ਸਕਦੀ	-8.50697
▁ਗੱਲ	-8.50787
▁ਨਕਸ਼ੇ	-8.51134
▁ਇਨ	-8.51426
▁ਗਰੁੱਪ	-8.51523
▁ਜੀਵਨ	-8.51544
▁ਅਮਰੀਕਾ	-8.51586
▁ਸਥਾਨ	-8.51769
▁ਜਨਵਰੀ	-8.51985
▁ਨਿਰਮਾਤਾ	-8.51985
▁Punjabi	-8.52256
▁ਕਾਰਡ	-8.52258
▁ਫਰਵਰੀ	-8.52451
▁ਤੁਹਾਡਾ	-8.52475
▁ਜੁਲਾਈ	-8.526
▁ਪ੍ਰਤੀ	-8.52894
▁ਨਵੇਂ	-8.52971
▁be	-8.53038
-1	-8.53159
▁ਲਿਮਟਿਡ	-8.53215
▁k	-8.53303
▁ਯੂਜ਼ਰ	-8.53358
▁ਲਾਲ	-8.53436
ne	-8.53461
ਐੱਮ	-8.53473
la	-8.53505
ut	-8.53586
▁ਲੇਖ	-8.5362
04	-8.53767
▁KDE	-8.53847
mo	-8.53966
▁ਪੈਕੇਜ	-8.54341
▁ਪੇਸ਼	-8.54375
me	-8.54582
▁ਤਾਜ਼ਾ	-8.54586
▁ਹੱਲ	-8.54703
ill	-8.54953
ਭ	-8.55053
45	-8.55081
▁ਉਪਲੱਬਧ	-8.55087
▁ਲਿਸਟ	-8.55179
▁TRANSLATORS	-8.55213
ਬਾ	-8.55223
▁ਦੇਣ	-8.55276
▁ਸਤੰਬਰ	-8.55324
▁ਸੂਚੀ	-8.5534
▁ਮੈ	-8.55731
ter	-8.55768
▁ਸਹੀ	-8.55768
▁Re	-8.55809
26	-8.55813
▁ਉਹਨਾਂ	-8.5598
ੱਲ	-8.56079
ਵੱਖ	-8.56099
ਹਾ	-8.56132
▁ਅੰਤ	-8.5619
▁ਸਹਾਇਤਾ	-8.56228
▁ਕੇਵਲ	-8.56401
▁ਆਟੋਮੈਟਿਕ	-8.56413
▁ਅਗਸਤ	-8.5645
▁ਭਾਰ	-8.56493
▁r	-8.56502
01	-8.5656
ਟੋ	-8.56562
ੰ	-8.56659
▁ਉਦਯੋਗ	-8.56707
▁ਮਹੀਨੇ	-8.56739
▁ਮਈ	-8.57055
▁d	-8.57066
▁ਐਨ	-8.57176
▁ਸਕਰੀਨ	-8.57255
ul	-8.57328
70	-8.57375
▁ਅਕਤੂਬਰ	-8.57376
▁ਹੁੰਦੀ	-8.57422
ry	-8.57495
ine	-8.57586
▁The	-8.57942
ਆਰ	-8.5841
▁ਇਲਾਜ	-8.58427
▁ਫਿਲਟਰ	-8.58549
▁ਕਿਵੇਂ	-8.58553
▁ਵੇਰਵਾ	-8.5868
ਿਨ	-8.58866
▁ਭੇਜੋ	-8.59103
▁ਬਣਾਓ	-8.59106
▁ਖਾਲੀ	-8.59253
▁ਨਿ	-8.59312
▁ਪਾਈਪ	-8.59336
▁ਨ੍ਯੂ	-8.59467
▁x	-8.59485
55	-8.59492
33	-8.59614
▁ਜਾਂਚ	-8.59624
▁ਦੇਸ਼	-8.59725
▁ਪੱਧਰ	-8.5973
▁LED	-8.59731
▁ਹੇਠ	-8.59752
na	-8.59923
op	-8.59945
▁ਕੋਸ਼ਿਸ਼	-8.59999
▁ਯਾਤਰਾ	-8.60128
▁ਦਿੰਦਾ	-8.60129
▁ਤਕਨੀਕੀ	-8.6036
pe	-8.60415
▁ਟੈਗ	-8.6042
24	-8.60423
▁ਡੈਸਕਟਾਪ	-8.60526
▁ਡਿਜ਼ਾਈਨ	-8.60659
▁Q	-8.6075
▁ਅਸਲ	-8.60986
▁ਅਨੁਵਾਦ	-8.6111
▁l	-8.61198
▁ਝਲਕ	-8.61329
▁ਆਖਰੀ	-8.61477
23	-8.61537
▁ਲੈਣ	-8.61631
29	-8.6165
▁ਜਿੱਥੇ	-8.61687
▁ਰਾਜ	-8.61702
▁ਲਾ	-8.61816
▁ਮਾਰਚ	-8.6235
▁ਤਬਦੀਲ	-8.62364
86	-8.62406
▁ਸਮਰੱਥਾ	-8.62429
▁ਕੁ	-8.62487
▁ਦਬਾਅ	-8.62546
li	-8.63134
▁ਰੱਖੋ	-8.63138
ਯੂ	-8.63388
31	-8.63449
ha	-8.63462
▁Co	-8.63563
ਨੇ	-8.63621
▁ਜਾਓ	-8.63657
Q	-8.63908
▁ਭੋਜਨ	-8.63909
▁ਟਾਈਮ	-8.64007
▁ਆਰ	-8.64115
▁de	-8.64207
▁»	-8.64217
▁ਨਵੀਂ	-8.6433
▁ਭਰ	-8.64377
▁ਮਿੰਟ	-8.64397
▁ਲਿਆ	-8.64413
ta	-8.64473
ਾਉਣ	-8.64487
▁ਅੱਜ	-8.646
▁ਕੋ	-8.64607
▁ਮਿਨ	-8.64669
+	-8.64671
ay	-8.64674
ig	-8.64737
▁ਸਫ਼ਾ	-8.64771
▁ਵਾਪਸ	-8.64824
land	-8.64975
▁Vessoft	-8.65016
▁ਸਿ	-8.6523
▁ਧਿਆਨ	-8.65435
▁ਅਨੁਸਾਰ	-8.65715
▁ਬੱਚੇ	-8.65857
▁ਨੌਜਵਾਨ	-8.66053
▁ਨਵੰਬਰ	-8.66393
▁ਕਰੇਗਾ	-8.66465
da	-8.66602
▁ਰਿ	-8.66924
ie	-8.67339
"&	-8.67423
▁40	-8.67498
ੰਡ	-8.67543
▁ਅਪ੍ਰੈਲ	-8.67696
de	-8.67707
▁ਪਿਛਲੇ	-8.67922
▁ਚੌੜਾਈ	-8.67947
27	-8.68132
▁ਟੈਸਟ	-8.68233
▁ਸਕਿਆ	-8.68443
ਸ਼ਾ	-8.68629
09	-8.68766
▁ਸੁਰੱਖਿਅਤ	-8.68962
▁ਇੰਸਟਾਲ	-8.69124
▁ਸਪਲਾਇਰ	-8.69136
lu	-8.69247
▁ਅਲ	-8.6946
▁ਸਰਕਾਰ	-8.69525
Z	-8.69555
▁ਅਨੁਕੂਲ	-8.69562
▁label	-8.69572
▁ਪਿਆਰ	-8.69801
▁ਪਾਸਵਰਡ	-8.69867
▁ਦਿੱਤੀ	-8.70068
ਵਾਰ	-8.70118
tor	-8.70175
▁ਕੁੰਜੀ	-8.70214
▁ਹੋਵੇ	-8.70453
▁ਦਰ	-8.70547
39	-8.70558
▁ਸਮੀਖਿਆ	-8.70853
ant	-8.7094
ti	-8.70951
▁ਲੜੀ	-8.70971
▁ਸਪਲਾਈ	-8.71047
▁ਕੁਨੈਕਸ਼ਨ	-8.71187
▁(1	-8.71219
ਗੀ	-8.71284
ਡਾ	-8.71306
▁ਅਧਿਕਾਰ	-8.71336
▁ਮਿਤੀ	-8.71368
ਿਸ	-8.71494
ਮੇ	-8.71583
▁ਪ੍ਰਭਾਵ	-8.71604
▁ਪਹਿਲੀ	-8.71611
ੱਡ	-8.71623
▁'%	-8.71646
▁ਬਦਲੋ	-8.71656
▁ਬਣ	-8.71721
▁ਸਲਾਟ	-8.71783
65	-8.7188
▁ਅਜਿਹੇ	-8.71931
im	-8.72
▁ਦਸੰਬਰ	-8.72058
▁ਵੱਡੀ	-8.72081
ਪਰ	-8.72127
ong	-8.72179
▁×	-8.72318
▁ਹ	-8.72368
ce	-8.72415
▁GPS	-8.72576
▁ਹਾਲਤ	-8.72602
▁ਲਿੰਕ	-8.72684
▁w	-8.72737
-8	-8.72884
ir	-8.72898
▁Ch	-8.72919
▁ਹਿੱਸੇ	-8.72981
▁unit	-8.73019
▁ਪੁੱਛ	-8.73086
▁ਤਕਨਾਲੋਜੀ	-8.73131
ਯ	-8.73143
ch	-8.7315
ਦਰ	-8.73223
ਰੂ	-8.73253
▁ਪੋਰਟ	-8.73275
▁ਰੋਡ	-8.73413
▁ਖ	-8.73437
▁ਲਾਭ	-8.73456
05	-8.73508
ਐੱਨ	-8.73585
▁ਮੂਲ	-8.73699
▁ਗਲਤ	-8.73725
▁ਸ਼	-8.73793
▁ਕਿਉਂਕਿ	-8.73892
36	-8.73899
▁ਨਿੱਜੀ	-8.74045
ਬਰ	-8.74047
▁ਲੰਬਾਈ	-8.74047
▁ਵਿਅਕਤੀ	-8.74061
▁ਗੁਰੂ	-8.74216
▁ਵਰਤ	-8.74382
ਜੇ	-8.74405
ਹਿ	-8.74408
per	-8.74468
▁whatsthis	-8.74498
▁ਕੁੱਲ	-8.74528
▁ਟੀਮ	-8.74589
▁ਜਹਾਜ਼	-8.74652
▁ਰਾਖਵੇਂ	-8.74655
32	-8.74669
ca	-8.7468
▁Casino	-8.74872
’	-8.74959
▁you	-8.75015
95	-8.75024
▁ਸੁਨੇਹੇ	-8.75112
▁ਮੋਟਰ	-8.75158
▁ਮੋ	-8.7532
▁123	-8.75328
▁condition	-8.75421
▁ਜ਼ਰੂਰੀ	-8.75487
▁ਰੇਲ	-8.7551
75	-8.75706
▁ਮਾ	-8.75736
▁ਬਟਨ	-8.75906
▁ਸਧਾਰਨ	-8.76196
▁ਸ਼ਬਦ	-8.76196
man	-8.7625
ab	-8.76251
▁ਪਲਾਸਟਿਕ	-8.76352
▁ਕਾਲੇ	-8.76389
▁ਬਾਲਗ	-8.76429
▁ਕਾਰੋਬਾਰ	-8.76455
▁ਡਿਜ਼ਾਇਨ	-8.76508
▁ਹੋਈ	-8.76534
▁n	-8.76566
▁ਵੇਖਣ	-8.76628
▁ਥੀਮ	-8.76822
ap	-8.76878
▁200	-8.76882
ਕਸ	-8.76939
▁ਕਰਦੀ	-8.76952
▁ਵਿਸ਼ੇਸ਼	-8.77059
os	-8.77175
▁ਸੰਭਾਲੋ	-8.77327
▁ਬਿਜਲੀ	-8.77449
ਐਕਸ	-8.77707
▁ਉਪਲਬਧ	-8.77765
ot	-8.77916
59	-8.77947
88	-8.78052
▁ਉਮਰ	-8.78097
ਦਾਰ	-8.78114
▁ਵਧੇਰੇ	-8.78229
▁on	-8.78333
▁ਪਾਠ	-8.78353
ge	-8.78386
▁ਲੋਕਾਂ	-8.78575
▁ਕੇਂਦਰ	-8.78711
▁ਦਿੱਤੇ	-8.7872
▁ਯਕੀਨੀ	-8.78784
ਪਾ	-8.78863
integer	-8.78878
ਬਲ	-8.78904
IN	-8.79083
▁ਪੈਦਾ	-8.79089
▁ਪ੍ਰਬੰਧਨ	-8.79272
▁CD	-8.79456
ੰਗ	-8.79911
ਡਰ	-8.79922
▁ਸਰਕਾਰੀ	-8.7993
ho	-8.80307
▁ਫੇਲ੍ਹ	-8.80327
▁ਵਧ	-8.80359
ac	-8.80394
real	-8.80407
▁Canada	-8.80489
▁ਸੁਧਾਰ	-8.80694
▁ਕਵਰ	-8.80721
▁ਦਸਤਾਵੇਜ਼	-8.80815
▁ਵੱਡਾ	-8.80816
68	-8.80864
▁ਤਰੀਕੇ	-8.80978
lo	-8.81058
▁ਮੌਜੂਦ	-8.811
▁www	-8.81127
▁ਛੋਟੇ	-8.81166
▁ਵਿਆਪਕ	-8.81416
▁ਸੰ	-8.81544
▁ਰਾਸ਼ਟਰੀ	-8.81799
ਨੋ	-8.81883
ਯੋਗ	-8.82095
▁ਯੂਨੀਵਰਸਿਟੀ	-8.82127
38	-8.82323
all	-8.82341
▁ਤਿੰਨ	-8.82468
▁ਇ	-8.82587
56	-8.82623
▁ਕੋਰਸ	-8.82722
ੱਸ	-8.82749
▁ਮਿਆਰੀ	-8.82754
▁ਇਮੋਜੀ	-8.82957
▁ਕੂਕੀਜ਼	-8.82957
▁ਮਾਰ	-8.8327
▁ਮਨ	-8.83445
ਗਰ	-8.8345
▁ਪ੍ਰੋਗਰਾਮ	-8.837
▁ਜਾਂਦੀ	-8.83912
▁ਮੁ	-8.84078
▁ਉਦਯੋਗਿਕ	-8.84087
▁ਕਦੇ	-8.84279
ਤਰ	-8.84556
▁ਫੀਚਰ	-8.84638
03	-8.8468
▁ਸਰ	-8.84733
▁ਐਡਰੈੱਸ	-8.84805
ru	-8.84814
▁ਮਾਪ	-8.8514
▁ਮਿ	-8.85255
▁ਮੈਨੇਜਰ	-8.85315
▁ਵੈੱਬ	-8.85318
▁ਵਜੋਂ	-8.85486
▁ਸੰਭਵ	-8.85486
200	-8.85527
▁ਕਾਪੀ	-8.8573
ੜਾ	-8.85911
▁500	-8.85962
ag	-8.85984
ੱਟ	-8.85985
▁ਹਵਾਈ	-8.8617
▁ਰੱਖਣ	-8.86293
500	-8.86395
▁ਤੁਰੰਤ	-8.86517
▁ਸਿਖਲਾਈ	-8.86518
▁ਲਾਗ	-8.86567
ist	-8.86744
▁ਸੰਚਾਰ	-8.86825
ਸਰ	-8.87176
emoji	-8.87209
▁ਸੰਸਾਰ	-8.87214
▁user	-8.87249
ਾਇ	-8.87334
▁ਸ਼ੇਅਰ	-8.87393
76	-8.87667
GenericName	-8.87701
°	-8.87702
▁In	-8.87874
85	-8.87922
ੜੀ	-8.8815
▁ਛੁਪਾਓ	-8.88249
▁ਵਜੇ	-8.88298
▁ਕਲਾ	-8.88324
▁ਹਿੱਸਾ	-8.88435
▁ਵੇਖਾਓ	-8.88438
ਇ	-8.88461
▁ਬਦਲ	-8.8847
▁ਰਿਪੋਰਟ	-8.88792
▁ਆਡੀਓ	-8.89139
color	-8.89153
ੀਆ	-8.89208
37	-8.89235
q	-8.89242
▁ਥਾਂ	-8.89248
om	-8.89299
▁ਭਲਾਈ	-8.89325
▁ਮੀਟਰ	-8.89375
▁ਸੰਗੀਤ	-8.89417
▁ਹੇਠਾਂ	-8.89471
▁ਚੈੱਕ	-8.89494
ਰਸ	-8.89501
▁ਲਿਖਣ	-8.89547
org	-8.89704
▁ਪ੍ਰੋਜੈਕਟ	-8.89851
hi	-8.90076
▁ਗਤੀ	-8.90126
▁ਸਾਡਾ	-8.90225
▁ਸੀਮਾ	-8.90597
49	-8.9069
▁ਨਿਗਰਾਨੀ	-8.9078
▁ਸਿਟੀ	-8.90849
ਸਕ	-8.91093
▁ਮੁਹੱਈਆ	-8.91107
▁https	-8.91146
▁ਪੋਰਟਲ	-8.91161
no	-8.91281
▁ਰਾਹੀਂ	-8.91289
▁21	-8.9131
48	-8.91403
ਕੁ	-8.91502
ੈ	-8.91542
ਿੱ	-8.91555
va	-8.91587
▁ਖੋਲ੍ਹੋ	-8.91662
▁ਸਾ	-8.91696
▁world	-8.91726
▁ਯੋਜਨਾ	-8.91793
52	-8.9181
▁ਹੋਣਾ	-8.91995
▁ਜਾਂਦੇ	-8.92275
34	-8.92368
▁ਪਛਾਣ	-8.9237
▁ਫਾਈਬਰ	-8.92385
ment	-8.92716
▁ਫੋਂਟ	-8.92747
▁ਸਬ	-8.92764
69	-8.93003
▁ਇਹਨਾਂ	-8.93143
66	-8.93156
▁ਲਿ	-8.93252
▁ਪ੍ਰਸਿੱਧ	-8.93298
ਜ਼ੀ	-8.93339
em	-8.93364
▁ਡੈ	-8.9345
▁22	-8.93613
ni	-8.93668
57	-8.93753
▁ਅਗਵਾਈ	-8.93856
he	-8.93876
▁ਤੇਲ	-8.94025
▁ਬੋਰਡ	-8.94336
▁ਖਾ	-8.94379
▁ਸੂਚਨਾ	-8.94413
▁ਦ	-8.94415
ph	-8.94438
▁ਅਸਲੀ	-8.94443
▁forecast	-8.946
▁ਡਾ	-8.94738
▁ਪੇਸ਼ੇਵਰ	-8.94787
▁ਹੋਵੇਗਾ	-8.95053
100	-8.95062
ਕਿ	-8.95072
▁ਬਾਲ	-8.95159
▁ਰੈ	-8.95171
▁ਸਵੈ	-8.95203
▁ਫਲ	-8.95283
74	-8.95348
▁ਨੀਤੀ	-8.95379
ਮਾਨ	-8.95583
▁ਮੋਡ	-8.95605
▁ਤੇਜ਼	-8.95662
▁ਕਮਾਂਡ	-8.95729
di	-8.95841
96	-8.95875
000	-8.95963
▁ਹਮੇਸ਼ਾ	-8.96078
▁ਕਲ	-8.96105
▁ਟੈਕਸਟ	-8.96255
▁ਕੈ	-8.96405
ੜੇ	-8.96408
▁ਸਿੰਘ	-8.96499
▁ਟੂਲ	-8.96629
▁ਭ	-8.96662
ਿਲ	-8.96666
▁ਸਕੂਲ	-8.96683
▁ਫਾਰਮ	-8.96816
ਿਊ	-8.9684
▁ਪੰਨਾ	-8.9687
▁ਚੰਗੀ	-8.96871
▁ਬਾਰ	-8.97098
▁ਪ੍ਰੋ	-8.97101
▁ਵਿਚਕਾਰ	-8.97194
▁start	-8.97278
▁ਪਹਿਲੇ	-8.97284
▁not	-8.97335
▁ਸੋ	-8.9741
▁ਬਣਾ	-8.97568
ਾਇਆ	-8.97637
ੇਸ਼ਨ	-8.97798
67	-8.97801
▁ਹੱਥ	-8.97829
▁ਡਾਕਟਰ	-8.97838
▁De	-8.97944
▁ISO	-8.97961
▁ਟਰੈਕਰ	-8.98025
▁ਵਿਆਹ	-8.98071
54	-8.98078
▁ਸਮੱਸਿਆ	-8.98181
▁ਸਟੋਰ	-8.98253
ਜ਼ਰ	-8.98468
▁ਬਾ	-8.98572
▁(%	-8.98638
▁ਕੈਸੀਨੋ	-8.98662
▁ਦਿਵਸ	-8.98806
*	-8.99049
ਣੇ	-8.99259
ੋਲ	-8.99351
▁ਅਧੀਨ	-8.9939
able	-8.99652
▁ਵਾਲਾ	-8.99661
53	-8.99704
ਪ੍ਰ	-8.99747
ver	-8.99758
▁ਸੁਝਾਅ	-8.99787
07	-8.99852
▁ਮੇਰੀ	-8.99879
▁ਮਿਲ	-9.00124
▁26	-9.00187
89	-9.00249
#	-9.00278
ਚਰ	-9.00284
▁ਸ਼੍ਰੇਣੀ	-9.00373
mp	-9.00395
▁am	-9.00396
▁inmenu	-9.00574
੍ਹ	-9.00699
99	-9.00895
ਐਮ	-9.00897
▁ਸ਼ੀਟ	-9.00977
▁ਪੜ੍ਹੋ	-9.01005
58	-9.01035
▁i	-9.01076
▁Free	-9.01284
▁ਵੇਖ	-9.01404
ਜ਼ਾ	-9.01489
▁ਨਿਰਮਾਣ	-9.01572
▁ਫਾਰਮੈਟ	-9.01583
▁ਮੰਗ	-9.017
▁ਈਯੂਆਰ	-9.01974
▁ਇੰਪੋਰਟ	-9.01979
▁ਚੰਗਾ	-9.01981
▁ਚਲਾਉਣ	-9.02008
78	-9.02059
▁ਉਪਕਰਣ	-9.02178
-6	-9.02479
▁ਨਤੀਜੇ	-9.0258
gu	-9.02774
▁ਪਦਾਰਥ	-9.02783
61	-9.02784
▁ਗੈਰ	-9.0281
ਇਨ	-9.0281
▁ਖਤਮ	-9.02987
ਡੋ	-9.0299
▁ਬੁ	-9.03032
▁ਸੰਸਥਾ	-9.03356
▁ਅਪ	-9.03384
▁ਤਸਵੀਰ	-9.03423
▁ਡਿ	-9.03475
ak	-9.0354
▁27	-9.03622
ton	-9.03798
ell	-9.03817
ਬੇ	-9.03913
▁ਯਾਦ	-9.03947
06	-9.0399
▁ਮਹੱਤਵਪੂਰਨ	-9.04009
▁ਰੀ	-9.04135
▁IP	-9.04178
▁ਆਟੋ	-9.04293
ੰਨ	-9.04323
ba	-9.04327
▁ਸਾਫ਼	-9.04461
98	-9.04533
▁ਪਾਊਡਰ	-9.04628
▁ਹਵਾ	-9.04719
▁ਮੇ	-9.04914
47	-9.04986
▁ਕਾਫ਼ੀ	-9.05042
▁ਧੰਨਵਾਦ	-9.05044
ਖ਼	-9.05149
▁ਸਰਵਿਸ	-9.05455
▁ਡਾਉਨਲੋਡ	-9.05458
▁ਵਿਕਲਪ	-9.05459
▁ਮੰਨਿਆ	-9.05502
ਐਚ	-9.05534
ub	-9.05627
▁ਪਰਿੰਟ	-9.05636
▁‘	-9.05734
▁ਪਾਰਕ	-9.05805
46	-9.06069
▁ਟੈਗਸ	-9.06103
▁ਆਸਾਨ	-9.06142
▁ਵਰਗੇ	-9.06217
ਊ	-9.06224
87	-9.06241
▁ਬਲ	-9.06268
▁ਡਿਵਾਈਸ	-9.06718
▁ਮੇਨੂ	-9.06917
▁ਯੂਨਿਟ	-9.06937
▁ਘੱਟੋ	-9.06958
bo	-9.07112
▁ਚੱਲ	-9.07186
we	-9.0721
ਏਥੇ	-9.07223
ਕਲ	-9.07237
tic	-9.07249
▁are	-9.07264
ard	-9.07503
▁ਮੁਫਤ	-9.07566
▁ਉੱਪਰ	-9.07566
▁ਨੁਕਸਾਨ	-9.07566
▁ਕਲਾਕਾਰ	-9.07736
▁ਰੋ	-9.07797
▁kde	-9.07815
▁ਅੱਖਰ	-9.07856
▁ਫਾਈਲ	-9.07927
ਸੇ	-9.07931
▁ਐਫ	-9.07975
▁ਮਾਲ	-9.07981
▁1'	-9.08018
и	-9.08203
▁ਲੱਗਦਾ	-9.08257
▁ਮਾਲਕ	-9.08391
▁ਕੱਟਣ	-9.08407
▁ਫਿਲਮ	-9.08423
81	-9.08447
▁ਬਾਕਸ	-9.08462
▁ਬਿਨਾਂ	-9.08731
97	-9.08752
▁ਪ੍ਰਾਈਵੇਟ	-9.08987
▁31	-9.09053
▁do	-9.09054
end	-9.09104
ian	-9.09189
▁23	-9.09189
▁ਚਲਾਓ	-9.09303
▁ਰੱਦ	-9.09437
ੀਅਨ	-9.09461
ft	-9.09552
ਰਨ	-9.09667
out	-9.09771
▁ਅਣਜਾਣ	-9.09844
ਅਰ	-9.09867
▁ਡਿਫਾਲਟ	-9.09937
▁dur	-9.10022
▁ਸਿਰ	-9.10134
▁ਪੱਟੀ	-9.10196
▁ਸਲਾਹ	-9.1028
▁ਜ਼ਰੂਰਤ	-9.10405
ਮੋ	-9.10469
▁ਅੰਦਰੂਨੀ	-9.10593
е	-9.10642
od	-9.10661
▁status	-9.10712
▁ਅੰਗ	-9.10718
ਜਨ	-9.10723
▁ਕਾਰਬਨ	-9.10814
▁ਔਸਤ	-9.1082
▁ਬੈਗ	-9.10901
one	-9.10972
ਧਾ	-9.11035
▁1000	-9.11088
net	-9.11096
ੋਨ	-9.1113
82	-9.11171
▁ਕੈਲੰਡਰ	-9.11254
pi	-9.1133
▁Phone	-9.11445
ka	-9.1148
▁ਡਿਪਾਜ਼ਿਟ	-9.11697
▁ਯਿਸੂ	-9.11697
▁ਪੜ੍ਹਨ	-9.11749
▁ago	-9.11765
▁ਸੁੰਦਰ	-9.11828
ow	-9.11932
▁ਅੰਕ	-9.1194
ਅੰਦਰ	-9.12113
51	-9.12133
79	-9.12135
▁ਕੇਸ	-9.1216
▁ਅਸ	-9.12182
ਾਰ	-9.12259
port	-9.12308
▁ਜ਼ਿਲ੍ਹਾ	-9.12365
▁ਆਈਕਾਨ	-9.12365
▁ਛ	-9.12431
▁ਯੂਰਪ	-9.12469
ਇਸ	-9.12536
44	-9.12586
▁ਚਾਲੂ	-9.12614
▁ਜੇਨਰੇਟਰ	-9.12813
▁ਪੈਕਿੰਗ	-9.12873
▁ਪੇ	-9.12982
ty	-9.13043
▁ਕੰਪਿਊਟਰ	-9.13263
▁ਨੇੜੇ	-9.13409
ick	-9.13525
▁00	-9.13597
▁ਇਲਾਵਾ	-9.13942
▁ਬਾਹਰੀ	-9.13986
▁ਆਪਣਾ	-9.14018
-15	-9.14025
▁St	-9.14068
▁ਇਕਾਈ	-9.14103
▁ਪਿਛਲਾ	-9.14169
▁ਪ੍ਰਕਿਰਿਆ	-9.14169
ਫੇ	-9.1437
▁ਚਾਰ	-9.14429
art	-9.14727
43	-9.14798
▁ਘ	-9.14832
▁ਪੌਦਾ	-9.14889
ਚੇ	-9.14929
▁ਦਵਾਈ	-9.15007
▁ਬਰ	-9.1504
▁ਪਿੱਛੇ	-9.15083
▁ਗੁ	-9.15109
ਕੂ	-9.15124
▁Mar	-9.15266
▁ਚੈਨਲ	-9.15313
▁with	-9.15314
▁ਸਰੀਰ	-9.15562
▁ਲੜੋ	-9.15568
63	-9.1557
▁80	-9.15639
▁ਸਿਰਫ਼	-9.1565
▁ਪਾਸ	-9.15712
▁ਬੋ	-9.1581
ੈਂਟ	-9.1592
▁ਸਮਝ	-9.1594
ਰਿ	-9.15945
▁ਮਹਿਸੂਸ	-9.16006
▁ਵਿੰਡੋਜ਼	-9.16192
min	-9.16416
▁ਡਾਇਰੈਕਟਰੀ	-9.16454
▁ਮੁਕੰਮਲ	-9.16471
▁29	-9.1671
ਂਗ	-9.16715
kg	-9.16773
ast	-9.16775
▁ਪੱਤਰ	-9.16784
ਸੋ	-9.16907
ਗੋ	-9.16915
ਲੈਂਡ	-9.16939
vi	-9.1701
72	-9.17034
▁ਪੈਨਲ	-9.17069
hu	-9.17082
▁ਵਲੋਂ	-9.17172
▁ਸਿੱਖਿਆ	-9.17213
line	-9.17272
▁ਵਿਸ਼ੇਸ਼ਤਾ	-9.17274
▁ਸਕੀ	-9.17363
▁ਨਿਊ	-9.17491
ok	-9.17531
ਪੇ	-9.17629
▁ਸਾਈਨ	-9.17695
▁2011	-9.17723
▁ਮਤਲਬ	-9.17877
▁ਪ੍ਰਬੰਧ	-9.18058
▁option	-9.1811
The	-9.18111
ਸਤ	-9.1812
▁300	-9.18174
ਸਿ	-9.18178
AN	-9.18221
▁ਨਿੰਗਬੋ	-9.18351
ਯਾ	-9.18439
▁ਸਥਿਤ	-9.18457
ਸ਼ੀ	-9.18458
ਬੋ	-9.18485
ਣੀ	-9.18572
▁ਰਿਕਾਰਡ	-9.18589
world	-9.18727
▁ਸਾਈਜ਼	-9.18829
92	-9.18831
▁"%	-9.1894
ai	-9.19096
▁ਬੀਟਾ	-9.19138
▁ਸਹੂਲਤ	-9.19304
ੱਤ	-9.19328
▁ਢ	-9.19336
▁90	-9.19428
age	-9.19473
▁Mobile	-9.19544
▁ਬਲੌਗ	-9.19544
▁ਗੱਡੀ	-9.19545
est	-9.19614
▁ਦੇਖੋ	-9.19643
be	-9.19753
▁URL	-9.19786
▁DVD	-9.19787
300	-9.19843
go	-9.20024
▁ਗਲਾਸ	-9.20027
▁ਮਰ	-9.20032
▁ਗਾਈਡ	-9.20049
71	-9.20073
au	-9.2028
ਬੂ	-9.20324
▁ਐਪ	-9.2038
▁ਬੈ	-9.20424
ਮਰ	-9.20486
▁ਪਰਮੇਸ਼ੁਰ	-9.20509
ity	-9.20649
▁100%	-9.20673
▁Me	-9.20689
▁ਖਿਡਾਰੀ	-9.20752
▁ਲਗਾਤਾਰ	-9.20752
▁Hack	-9.20823
▁ਪਾਸੇ	-9.20973
▁ਬਿਹਤਰ	-9.20994
▁ਅਨੁਭਵ	-9.20995
▁ਦਿ	-9.21124
ਿਸ਼	-9.21192
▁ਕੈਮਰਾ	-9.21239
▁ਗ੍ਰੀਨ	-9.21239
up	-9.21339
ਢ	-9.21431
▁ਫ਼	-9.21434
▁ਡਾਈਲਾਗ	-9.21484
▁ਇੰਜਣ	-9.21484
ਰਕ	-9.21488
ੈਕਸ	-9.21504
ies	-9.21514
▁ਰੱਖਿਆ	-9.21663
▁ਟੈਬ	-9.21686
▁ਹੁਣੇ	-9.21693
les	-9.21699
ਗਿੱਛ	-9.21713
▁ਤਾਕਤ	-9.21729
ord	-9.21741
▁ਰਹਿਣ	-9.21776
▁ਲੇਖਕ	-9.21944
▁ਊਰਜਾ	-9.21974
▁ਭੇਜਣ	-9.21975
▁ਸਤਰ	-9.22132
▁ਮਿਆਦ	-9.22222
▁ਡਰ	-9.22266
▁ਹਟਾਉਣ	-9.22326
▁ਬਿ	-9.22327
▁ਕਸਟਮ	-9.22351
▁ਤੋ	-9.22425
▁state	-9.22472
▁ਪਲ	-9.22508
▁ਪੈ	-9.22665
▁ਵਿਕਸਿਤ	-9.22715
▁ਮਹਾਨ	-9.22716
▁ਸ਼ਕਤੀ	-9.22716
▁Sh	-9.22717
▁france	-9.22718
▁ਟਿਊਬ	-9.2276
▁ਝ	-9.22846
▁ਸੇਵਾਵਾਂ	-9.22891
▁ਇੰ	-9.22988
▁ਗਰਮੀ	-9.2318
▁ਲੇਜ਼ਰ	-9.23463
91	-9.23466
ੇਜ	-9.23477
ਟਨ	-9.23498
▁ਸੇ	-9.23557
▁ਛੋਟਾ	-9.23597
▁ਆਉਟਪੁੱਟ	-9.23712
▁ਹਾਲ	-9.23727
▁an	-9.2376
▁ਦਿਲ	-9.23893
ਠ	-9.24009
▁ਸਪ	-9.24133
▁28	-9.2418
▁ਗੈਸ	-9.24265
▁ਐਡ	-9.24298
▁ਆਈਟਮ	-9.24338
▁ਥ	-9.24377
▁ਲੱਭ	-9.24408
ਹੀ	-9.2447
▁ਬੈਟਰੀ	-9.24473
▁porn	-9.245
▁type	-9.2467
▁ਸਟੇਸ਼ਨ	-9.24763
son	-9.24856
NI	-9.2495
▁ਚਾਨਣ	-9.24971
41	-9.25049
▁ਸਥਾਨਕ	-9.25168
▁ਡੌਕੂਮੈਂਟ	-9.25225
▁ਗੂਗਲ	-9.25225
▁ਵਰਡਪਰੈਸ	-9.25263
77	-9.254
▁ਸ਼ੈਸ਼ਨ	-9.25496
▁—	-9.2563
▁your	-9.25737
▁ਵੱਲ	-9.25794
▁or	-9.25794
ੱਖ	-9.25804
▁ਸਕਿੰਟ	-9.2599
▁ਸਰਵੇਖਣ	-9.2599
ਝ	-9.26065
▁ਐ	-9.26293
▁ID	-9.26332
▁ਕੁਦਰਤੀ	-9.26375
▁ਅੰਗਰੇਜ਼ੀ	-9.26433
ਫਾ	-9.26455
ਐਲ	-9.26458
▁ਦੂਰ	-9.26519
о	-9.2652
▁ਜਾਣਾ	-9.2657
73	-9.26681
▁ਵੇਲੇ	-9.26698
▁ਰਾ	-9.26746
▁ਫੈਕਸ	-9.27039
▁ਤਕ	-9.27049
▁ਪੁ	-9.27142
ੇਟ	-9.27211
▁ਜ਼ਿਆਦਾ	-9.27264
▁pricelist	-9.27279
▁ਕਿਤਾਬ	-9.27285
▁ਖੋਲ੍ਹਣ	-9.27288
▁To	-9.27294
▁ਬੱਗ	-9.27335
▁ਸਰਗਰਮ	-9.27437
ੁਕ	-9.27458
do	-9.27504
▁ਨਿਯਮ	-9.27532
▁ਉਮੀਦ	-9.27538
▁ਵਾਸਤੇ	-9.27541
str	-9.27597
▁ਸਿਖਰ	-9.27615
ear	-9.27733
▁ਲਾਈਵ	-9.278
ਕੋਈ	-9.27823
▁Google	-9.27834
ve	-9.27843
NAME	-9.2793
▁ਐਲਬਮ	-9.2806
▁ਸੈਂਟਰ	-9.28061
▁ਟੋ	-9.28114
ip	-9.28216
▁ਇੰਟਰਫੇਸ	-9.28322
ob	-9.28366
▁ਪਿ	-9.28375
▁ਏਅਰ	-9.28642
ੈਂ	-9.28642
ight	-9.28717
▁ਅੰਤਰਰਾਸ਼ਟਰੀ	-9.28847
-5	-9.28864
42	-9.28875
▁ਗੁਣ	-9.2904
▁ਵਿਸ਼ਵ	-9.29095
ੋਂ	-9.29259
ੀਏ	-9.29449
▁ਕਲਾਸ	-9.29521
▁ਕੇਬਲ	-9.29575
▁ਹਰੇਕ	-9.29645
ਛ	-9.29653
▁ਨੰ	-9.29862
▁ਫੁੱਲ	-9.29922
64	-9.29955
ਮਿ	-9.30049
▁ਡੇ	-9.30074
▁ਫੰਕਸ਼ਨ	-9.30087
▁Ro	-9.30098
sk	-9.30203
▁Le	-9.3038
▁ਸਫ਼ੇ	-9.30441
▁syn	-9.30448
▁ਭਾਰਤੀ	-9.30477
▁ਚੁਣੇ	-9.30518
ance	-9.30593
,000	-9.30593
▁z	-9.30612
▁ਤਾਰ	-9.30678
▁ਪੈਸੇ	-9.30723
yl	-9.3088
$	-9.30917
▁45	-9.31022
ਿਟ	-9.31036
▁ਯ	-9.31072
ਚਾ	-9.31144
▁ਕੀਤੀਆਂ	-9.312
▁ਮੈਡੀਕਲ	-9.31201
▁ਚੀਨੀ	-9.3122
Country	-9.31247
▁HTML	-9.31247
▁ਲਗਭਗ	-9.31247
▁ਚੱਕਰ	-9.31248
▁ਸ਼ੁੱਧਤਾ	-9.31285
▁ਰੇਟਿੰਗ	-9.31318
ਟੇ	-9.31351
▁ਮਾਰਕੀਟ	-9.31425
▁Bonus	-9.31518
▁ਸਮੂਹ	-9.31518
MoHFW	-9.31586
ash	-9.31779
▁ਅਕਸਰ	-9.31789
▁ਲਵੋ	-9.31902
ਖਾ	-9.31919
▁ਰੱਖ	-9.31933
▁ਵੱਖਰੇ	-9.31982
2018	-9.32096
▁ਬਿੰਦੂ	-9.32097
ik	-9.32209
▁Vi	-9.32214
ਮੁ	-9.32237
ਲਾਈ	-9.32302
▁description	-9.32333
▁ਕ੍ਰੈਡਿਟ	-9.32333
▁ਮੈਂਬਰ	-9.32481
▁ਡਾਟਾਬੇਸ	-9.32607
▁ਪਸੰਦੀਦਾ	-9.32607
▁button	-9.32609
▁ਵਿਦਿਆਰਥੀ	-9.3266
▁ਸਾਰੀਆਂ	-9.32712
ਲਿ	-9.32854
ਨੂੰ	-9.32876
▁ਗੁਪਤ	-9.32886
ਵਾਈ	-9.33061
▁Do	-9.33242
▁ਵਧਾਉਣ	-9.33257
▁ਅਜੇ	-9.33273
ਪੋ	-9.33403
▁Roulette	-9.3343
▁ਦੂਜੇ	-9.33431
ੋਰ	-9.33467
uk	-9.33471
ੰਟ	-9.33477
▁ਸੱਚ	-9.33521
▁Bo	-9.33541
▁NAME	-9.33569
ਐਨ	-9.33576
▁Comments	-9.33656
▁ਛੱਤ	-9.33719
▁it	-9.33732
ੱਚ	-9.33767
▁ਬਿੱਲ	-9.33807
ਵਾਨ	-9.33874
▁ਖੁਸ਼	-9.33925
▁ਵਾਧੂ	-9.33984
94	-9.34054
ੀਅਰ	-9.34154
io	-9.34184
▁ਜ਼ੋਨ	-9.3427
ਚਾਰ	-9.34271
▁ਐਪਸ	-9.34305
84	-9.34352
ens	-9.34392
▁as	-9.34468
▁ਟੈਲੀਫ਼ੋਨ	-9.3454
▁ਚੁਣਿਆ	-9.34571
▁ਸਾਰੀ	-9.34821
▁ਆਉਣ	-9.3485
▁ਐਚ	-9.34859
ਮੈਂਟ	-9.34945
▁ਵੇਰਵੇ	-9.35099
▁ਉਲਟ	-9.35113
▁ਓਪਨ	-9.35114
▁ਜਿੱਤ	-9.35205
tan	-9.35296
▁ਵਾਲ	-9.35359
▁ਸੂਰਜ	-9.35529
▁Li	-9.35555
▁ਪਤ	-9.35559
Hz	-9.35665
2019	-9.3568
▁ਨਿਵੇਸ਼	-9.35726
▁±	-9.35773
ਲੂ	-9.35782
▁sa	-9.35791
oo	-9.35808
▁ਨਿਰਦੇਸ਼	-9.35925
▁ਅਪਡੇਟ	-9.35944
▁ਤਬਦੀਲੀ	-9.3605
ke	-9.36056
▁ਸੰਭਾਲਣ	-9.36195
▁color	-9.36225
▁ਮੋਡੀਊਲ	-9.36228
▁ਉਪਦੇਸ਼	-9.36228
ER	-9.36263
▁ਨੋਟ	-9.36392
▁ਦੱਖਣੀ	-9.36425
▁ਸਵਿੱਚ	-9.36566
62	-9.36569
▁ਟਾਈਪ	-9.36592
▁ਯੂਰੋ	-9.36609
ov	-9.367
▁ਦੋਸਤ	-9.36755
▁ਮਾਤਰਾ	-9.36797
ass	-9.3697
▁ਗਰਮ	-9.36975
▁New	-9.36992
▁120	-9.37012
▁ਅਧਿਐਨ	-9.37082
▁ਇਸਤੇਮਾਲ	-9.37082
▁ਜਿਨ੍ਹਾਂ	-9.37082
▁plain	-9.37084
▁ਅਣ	-9.37131
0.00	-9.37259
ੱਗ	-9.37263
▁Pro	-9.37305
▁Girls	-9.37369
▁ਉਚਾਈ	-9.37369
▁ਔਰਤ	-9.37475
ਐੱਸ	-9.37486
ial	-9.37532
▁ਟਿਕਾਣਾ	-9.37656
▁ਵਾਲਵ	-9.37707
▁ਗਨੋਮ	-9.37945
mi	-9.38002
ki	-9.38099
ide	-9.38103
▁ਪ੍ਰਦਰਸ਼ਨ	-9.38214
▁ਰੋਲ	-9.38223
▁ਉੱਥੇ	-9.38233
▁tooltip	-9.38444
▁ਅਸਫਲ	-9.38528
93	-9.3853
day	-9.38735
ci	-9.388
old	-9.38804
▁ਜਗ੍ਹਾ	-9.38814
SS	-9.38815
▁ਹਾ	-9.38823
▁ਜੈੱਟ	-9.38869
-0	-9.38983
ਪੁਰ	-9.39008
▁ਸੁਪਰ	-9.39065
▁ਲੇਬਲ	-9.39108
ਾਹ	-9.39129
▁ਪੰਜ	-9.39141
▁ਉਦਾਹਰਨ	-9.39245
▁ਸਮਾਰਟ	-9.39397
▁ਨਿਰਭਰ	-9.39398
▁input	-9.39398
top	-9.39443
cc	-9.39446
ੈਟ	-9.39464
MA	-9.39568
▁ਪੇਜ਼	-9.39728
ੀਅਮ	-9.39774
▁ਦੇਖਣ	-9.39902
▁ਉਪ	-9.39937
ect	-9.39954
▁ਵਿਲੱਖਣ	-9.39985
▁ਡਿਗਰੀ	-9.39992
▁ਐਕਸਐਲ	-9.40014
ps	-9.40042
▁USD	-9.40106
ਲਾਈਨ	-9.40146
®	-9.4028
ster	-9.40356
▁ਕ੍ਰਮ	-9.40384
ish	-9.4041
▁ਬਦਲਣ	-9.40423
ੇਨ	-9.40495
▁Mo	-9.40539
▁ਮਕਸਦ	-9.40576
▁ਮੀਡੀਆ	-9.40576
▁ਕਦਮ	-9.40577
▁ਸਪੀਡ	-9.40578
▁ਮਹਿਲਾ	-9.40606
bu	-9.40613
400	-9.40684
▁ਬੀਮਾ	-9.40714
▁ਲਾਈਟ	-9.40753
pp	-9.40794
▁ਜਾਵੇ	-9.4083
▁ਡਬਲ	-9.40836
▁ਸੱਜੇ	-9.40873
▁ਉਡੀਕ	-9.40879
▁ਲਾਗਇਨ	-9.40894
▁You	-9.40945
▁ਨਿਸ਼ਾਨ	-9.41017
▁ਲੋਕਲ	-9.41021
▁ਬਹੁ	-9.41031
pl	-9.41139
onyms	-9.41171
▁ਬਿਲਕੁਲ	-9.41171
ੰਦ	-9.41379
▁ਸੀਰੀਜ਼	-9.41471
▁ਬੇਅੰਤ	-9.41476
▁ਪੰਪ	-9.41488
▁ਸਟ	-9.4155
▁ਪਲੇਟ	-9.4162
oc	-9.4166
▁ਬੁੱਕ	-9.41716
ਡੇ	-9.41732
▁ਲੱਕੜ	-9.41768
▁ਸਥਾਪਿਤ	-9.41768
▁ਸੂਬੇ	-9.41777
▁ਦਿੱਖ	-9.4178
eng	-9.41912
▁ਲਾਗਤ	-9.41992
▁matching	-9.42069
▁ਚੇਤਾਵਨੀ	-9.42069
▁ਵਿਆਸ	-9.4207
▁menu	-9.42074
▁ਵਾਂਗ	-9.42096
▁ਸਕੇ	-9.42135
ive	-9.42212
ਾਉ	-9.42237
ੈਸ	-9.42341
▁ਚਾਹੁੰਦਾ	-9.4237
▁ਚਮੜੀ	-9.4237
▁that	-9.42391
▁ਪਰਬੰਧ	-9.42395
▁ਖਰੀਦ	-9.425
ਵੇਂ	-9.4257
▁ਰਾਤ	-9.42594
ਟਸ	-9.42649
▁this	-9.42712
▁ਇੰਚ	-9.42728
▁translate	-9.42871
▁ਮੇਰਾ	-9.43067
bi	-9.43079
▁Be	-9.43105
▁ਵਰਤੋ	-9.43123
wa	-9.43162
▁ਫੀਡ	-9.43228
▁ਏਸ਼ੀਆ	-9.43231
ਇਆ	-9.43239
}	-9.43263
ੇਡ	-9.43549
ਥਾ	-9.43568
▁ਕਨੈਕਟ	-9.43587
▁ਜਨ	-9.43594
▁ਇਨ੍ਹਾਂ	-9.4389
▁Honda	-9.4389
▁ਔਨਲਾਈਨ	-9.43893
▁+86	-9.44043
ock	-9.44227
ja	-9.44243
▁ਰੂਟ	-9.44378
ence	-9.44523
▁ਲਿਖਿਆ	-9.44553
▁ਕਮਰੇ	-9.44598
of	-9.44644
▁ਡੋਮੇਨ	-9.44813
▁month	-9.44814
▁ਸਾਮਾਨ	-9.44902
▁ਰੌਸ਼ਨੀ	-9.45122
▁ਚੀਜ਼	-9.45123
▁ਅਗਲਾ	-9.45144
ron	-9.4521
log	-9.45295
ਟਿਕ	-9.45325
▁ਗੱਲਬਾਤ	-9.45433
▁ਬ੍ਰ	-9.45467
▁ਨਿਊਜ਼	-9.45651
▁ਔ	-9.45738
▁ਮਸ਼ਹੂਰ	-9.45744
▁ਵਿਕੀਪੀਡੀਆ	-9.45744
▁ਹੋਟਲ	-9.45785
▁ਟ੍ਰ	-9.4583
ਵੋ	-9.45873
▁ਨਜ਼ਰ	-9.46073
▁ਖਰੀਦਣ	-9.46125
▁ਫਿ	-9.46186
▁ਸਮ	-9.46245
ture	-9.46303
83	-9.46338
▁ਪੈਰ	-9.46388
▁150	-9.46395
▁ਵਿਸ਼ਵਾਸ	-9.46479
▁ਚਾਰਟਰ	-9.46534
▁ਕਾਨੂੰਨੀ	-9.46568
▁La	-9.46587
▁HD	-9.46687
▁ਅਗਲੇ	-9.46705
ੈਨ	-9.46709
ਲਿੰਗ	-9.46712
▁ਮਸ਼ੀਨਰੀ	-9.46729
PC	-9.46729
▁ਸਕ੍ਰਿਪਟ	-9.46739
ਗਲ	-9.4676
ਂਡ	-9.46889
▁2012	-9.46952
▁o	-9.47
▁ਸੰਯੁਕਤ	-9.47
▁ਹੁਕਮ	-9.47001
▁ਬਲੈਕ	-9.47026
▁35	-9.47035
;&	-9.472
▁con	-9.47268
▁ਵਾਤਾਵਰਣ	-9.47317
▁ਸਰਟੀਫਿਕੇਸ਼ਨ	-9.47317
▁window	-9.47317
▁ਧੋਖਾ	-9.47319
ice	-9.47408
▁ਵਿਗਿਆਨ	-9.47511
▁ਚੰਗੇ	-9.47634
ਿਰ	-9.47639
\	-9.47649
▁XXXL	-9.47694
▁ਹਿ	-9.47916
▁32	-9.47944
▁ਰਿਮੋਟ	-9.47953
▁ਮਹੀਨਾ	-9.47953
▁ਟੈਂਕ	-9.47953
▁ਚਾਹੀਦੀ	-9.47954
▁ਸਾਥੀ	-9.47963
▁can	-9.48052
▁ਟੈਕਸ	-9.48108
▁ਸਮਰਥਨ	-9.48272
▁ਹਾਲਾਂਕਿ	-9.48272
▁ਜਨਤਕ	-9.48273
▁ਉਸੇ	-9.48297
rb	-9.48412
ack	-9.48454
ud	-9.48586
▁ਪੁਰਾਣੇ	-9.48593
▁ਨੀ	-9.48701
ਘ	-9.48717
tt	-9.48787
▁ਮੋਬਾਇਲ	-9.48914
▁ਓਹਲੇ	-9.48934
▁ਆਇਆ	-9.48959
▁ਹੋਸਟਿੰਗ	-9.48994
ਕਾਰੀ	-9.49066
▁ਰੇ	-9.49078
▁ਵਿਰੋਧੀ	-9.49116
▁ਇੰਟਰਨੈੱਟ	-9.49237
▁ਡਿਸਪਲੇਅ	-9.49237
ah	-9.49289
India	-9.49295
▁AC	-9.49365
res	-9.49377
su	-9.49405
der	-9.49509
IS	-9.49579
▁ਟਰੇ	-9.49625
▁ਵੈਬ	-9.49647
▁ਧ	-9.49675
▁ਕਾਨੂੰਨ	-9.49681
ਪਲ	-9.49696
▁ਗਲੋਬਲ	-9.49885
▁ਮੰਤਰਾਲੇ	-9.49885
▁ਬਲਾਕ	-9.49887
ਸ਼ੁ	-9.4998
▁ਕਾਲਾ	-9.501
▁ਦੇਖ	-9.50105
▁ਛੱਡੋ	-9.50177
▁ਮੈਟਲ	-9.50233
ੰਜ	-9.50408
▁ਸਥਿਰ	-9.50447
philippines	-9.50538
▁ਆਵਾਜਾਈ	-9.50538
▁ਮਜ਼ਬੂਤ	-9.50538
ਟਿੰਗ	-9.50594
▁ਜੋੜ	-9.50655
▁we	-9.50741
ਿਡ	-9.50833
▁ਪਰੋਫਾਇਲ	-9.50866
▁ਵਪਾਰਕ	-9.50867
▁ਚੋਣਾਂ	-9.50894
▁ਤਾਰੀਖ	-9.50895
att	-9.50911
▁ਮੈਕ	-9.50914
du	-9.50915
sha	-9.51053
ਲੀਨ	-9.51067
▁01	-9.51119
▁ਦੁ	-9.51184
▁ਲੰਬੇ	-9.51199
▁pro	-9.51256
▁ਅਲਮੀਨੀਅਮ	-9.51525
▁ਮੌਕਾ	-9.51544
▁ਸ਼ੈਲੀ	-9.51581
800	-9.51819
▁Ra	-9.51847
▁ਪਰੋਗਰਾਮ	-9.51856
▁ਸੰਖੇਪ	-9.51856
ੁਆ	-9.51911
ix	-9.52009
ET	-9.52009
po	-9.52025
ਅਲ	-9.52073
ਮਤ	-9.52103
http	-9.52108
ਰੈ	-9.52108
▁ਇਤਿਹਾਸ	-9.52209
ੱਪ	-9.52409
▁Online	-9.52525
▁from	-9.52542
▁ਪਾਲਣਾ	-9.52617
▁ਬਿਨਾ	-9.52638
▁Ba	-9.52639
▁ਤੇਜ਼ੀ	-9.52692
che	-9.52838
▁ਸਮੇਤ	-9.52856
▁ਦੰਦ	-9.52894
▁ਸ਼ਾ	-9.53166
▁English	-9.53191
ਡਿ	-9.53229
▁ਪ੍ਰੀ	-9.53255
▁Al	-9.53419
▁Slots	-9.53455
qu	-9.53517
ind	-9.53574
▁2010	-9.53591
ਮਾਰ	-9.53644
▁ਅਕਾਰ	-9.53666
▁ਟਿੱਪਣੀਆਂ	-9.5378
▁Zhejiang	-9.53866
▁ਬਰਾਊਜ਼ਰ	-9.53866
cl	-9.54018
▁(1)	-9.54092
▁ਲੱਗ	-9.54202
▁ਭੰਡਾਰ	-9.54205
▁ਸੰਕੇਤ	-9.54205
▁ਸਮਾਜਿਕ	-9.54231
ਪੈ	-9.54255
▁lex	-9.54287
▁ਇਸਦੇ	-9.54333
▁2000	-9.54357
▁ਖਾਤਾ	-9.54371
▁LexUriServ	-9.54545
▁ਅਫਰੀਕਾ	-9.54545
▁ਮੰਤਰੀ	-9.54545
▁ਵਿਡੀਓ	-9.54545
▁ਆਵਾਜ਼	-9.54545
▁ਪ੍ਰਕਾਸ਼ਿਤ	-9.54566
▁ਪੇਪਰ	-9.54571
▁ਲਾਕ	-9.54572
▁ਪ੍ਰੈਸ	-9.54578
▁ਖਾਤੇ	-9.54689
▁ਸਾਫ	-9.548
▁ਤਜਰਬੇ	-9.54857
▁ਸਥਾਪਨਾ	-9.54923
▁ਟੇਪ	-9.54952
▁ਨੀਲਾ	-9.54966
ੰਬ	-9.55001
province	-9.55007
а	-9.55071
▁ਚਿ	-9.55285
ਰਮ	-9.55379
▁86-	-9.55479
-2018	-9.55532
ust	-9.55547
▁GTS	-9.55675
▁ਚਾਰਜ	-9.56001
ੇਲ	-9.56063
ਵਲ	-9.56086
▁ਅਮਰੀਕੀ	-9.56263
▁ਬੇਨਤੀ	-9.56264
▁ਮੈਮੋਰੀ	-9.56264
▁ਪਹਾੜ	-9.56265
▁Description	-9.56411
▁ਟੂਰ	-9.56434
ੰਤ	-9.56447
ng	-9.56449
GB	-9.56569
▁Deposit	-9.5661
▁ਜ਼ਿੰਦਗੀ	-9.5661
▁ਬੱਚਿਆਂ	-9.5661
▁ਕਿਉਕਿ	-9.56611
ake	-9.56643
▁ਗੀਤ	-9.56682
our	-9.56726
ਕੋਡ	-9.56733
ੈਕਟ	-9.56791
ਰਤ	-9.56893
GLONASS	-9.56919
▁ਰਚਨਾ	-9.56956
▁ਸਾਧਨ	-9.5696
▁08	-9.56963
▁ਵਾਹਨ	-9.56965
▁ਸਿੰਗਲ	-9.56966
▁ਅਣੂ	-9.57018
TP	-9.57087
▁ਮਨੁੱਖ	-9.57101
▁ਆਧੁਨਿਕ	-9.57168
▁ਸੋਚ	-9.572
▁ਧਰਤੀ	-9.57309
▁ਕੈਪ	-9.57394
ਸ਼ਕ	-9.57458
ਲੈ	-9.5747
▁ਸਾਲਾਂ	-9.57573
▁ਹਫ਼ਤੇ	-9.57659
▁ਮੌਸਮ	-9.5766
▁ਕਿਰਾਏ	-9.5766
▁ਕੱਪੜੇ	-9.57667
▁0.1	-9.57675
▁PDF	-9.57699
▁ਬੁਰੇ	-9.57724
ਐ	-9.57726
▁ਲਿਖੋ	-9.57732
▁ਸ਼ੁਰੂਆਤ	-9.57875
▁district	-9.58011
ੈਪ	-9.58059
CC	-9.58064
if	-9.58088
rm	-9.58182
▁ਸਪੇਸ	-9.58237
▁ਉਪਭੋਗੀ	-9.58365
▁ਓਪਰੇਸ਼ਨ	-9.58365
▁ਮਾਮਲੇ	-9.58365
▁ਮੀਡਿਆ	-9.58365
▁ਪ੍ਰਯੋਗ	-9.58424
▁ਸ਼ਰਤਾਂ	-9.58461
▁ਯਾ	-9.58618
▁Ma	-9.58626
▁Bu	-9.58657
ੱਦ	-9.58707
▁ਇਕੋ	-9.58711
▁ਸਜਾਵਟ	-9.58719
ਹੱਥ	-9.58724
▁ਤਹਿਤ	-9.58757
red	-9.58768
▁ਪੈਕ	-9.58806
▁ਆਧਾਰ	-9.59051
▁ਮਨਜ਼ੂਰ	-9.59066
▁ਮੰਨ	-9.59068
▁Shandong	-9.59075
▁ਮੰਜ਼ਿਲ	-9.59075
jatt	-9.59126
ਾਮ	-9.59147
ox	-9.59158
220	-9.59184
▁ਰੱਦੀ	-9.59187
▁ਟੀਕਾ	-9.59192
▁j	-9.59235
tu	-9.59264
ਵਾਦ	-9.59319
▁ਮਿਲੀਮੀਟਰ	-9.59402
▁ਖ਼ੁਰਾਕ	-9.59432
▁girls	-9.59436
▁ਬਣਾਈ	-9.59612
▁OS	-9.59632
▁05	-9.59659
ਟਰੀ	-9.59705
ੈਕ	-9.59727
▁ਟਰ	-9.59779
▁ਦਿੰਦੇ	-9.59791
fe	-9.59798
▁ਸਤਹ	-9.59823
▁ਡਾਇ	-9.59825
ts	-9.59856
▁ਅਰਥ	-9.59881
ore	-9.59885
sta	-9.60082
▁ਕੋਰ	-9.60102
▁ਵ੍ਹਾਈਟ	-9.60151
▁OEM	-9.60151
▁An	-9.60176
▁ਉਤਪਾਦਾਂ	-9.60228
▁ਸਬੰਧਤ	-9.60256
▁ਜੈ	-9.60305
ori	-9.60349
ਜਿ	-9.60351
han	-9.60412
▁For	-9.60417
▁Download	-9.60461
har	-9.60484
▁ਵੋਲਟੇਜ	-9.60486
▁ਜਿ	-9.60494
▁07	-9.60499
▁ਮੈਕਸ	-9.60566
ੀਓ	-9.60568
0.000	-9.60573
ler	-9.60578
▁org	-9.60594
▁ਟੈ	-9.60674
ਸਟਰ	-9.60707
ger	-9.60791
av	-9.60799
ness	-9.60809
ਲਡ	-9.60826
▁ਜੀਵ	-9.60831
▁ਨਿਰਯਾਤ	-9.60874
▁ਸਿਰਲੇਖ	-9.60874
▁ਸਥਾਪਤ	-9.60874
▁un	-9.60985
ug	-9.61106
lic	-9.61132
ue	-9.61151
▁su	-9.61161
ral	-9.61162
▁ਵਾਇਰ	-9.61238
br	-9.61341
੍ਸ	-9.61436
ਜਰ	-9.61458
ਸਾਈ	-9.61496
▁EH	-9.61516
ਨੀਆ	-9.61594
▁ਮਜ਼ੇਦਾਰ	-9.61602
▁ਆਕਸੀਜਨ	-9.61604
▁ਪੈਟਰਨ	-9.61607
ਾਊ	-9.61653
ੂਲ	-9.61689
▁ਲੱਭਣ	-9.61725
ਵੀਂ	-9.6174
▁ਦਰਜ	-9.61742
▁ਰਾਹ	-9.61899
▁ਵਿਭਾਗ	-9.61981
▁group	-9.6199
▁no	-9.62045
▁ਫੈਲ	-9.62149
▁ਵਰ	-9.62231
con	-9.62243
ਿਕਸ	-9.62311
CHI	-9.62326
▁ਫਰੇਮ	-9.62337
▁ਹਾਲਾਤ	-9.62345
ost	-9.6235
▁game	-9.62389
▁Red	-9.62399
▁Pa	-9.62528
ran	-9.62617
▁ਕੈਨੇਡਾ	-9.62705
▁ਪੀਵੀਸੀ	-9.62706
▁ਮਸੀਹ	-9.62711
▁star	-9.62713
ee	-9.62879
pt	-9.62905
SA	-9.6295
ਮਾਈ	-9.62967
▁ਸਕੀਮ	-9.63004
▁ਮੱਧ	-9.63014
▁ਸ਼ੇਨਜ਼ੇਨ	-9.63076
▁ਐਂਡ	-9.63257
▁ਸੁਆਗਤ	-9.63448
▁ਪ੍ਰਧਾਨ	-9.63448
▁ਰੋਸ਼ਨੀ	-9.63448
▁ਅਜਿਹਾ	-9.63453
fi	-9.63456
ੰਘ	-9.63524
▁per	-9.63542
▁Wi	-9.63591
box	-9.63592
▁Long	-9.63613
▁CO	-9.63672
▁ਜਨਮ	-9.63743
can	-9.63743
ਜੋ	-9.63778
▁Detacher	-9.63821
▁ਬੈਂਕ	-9.63823
▁ਰੋਜ਼ਾਨਾ	-9.63824
ਾਈਡ	-9.63835
ST	-9.63889
▁ਪਾਰਟੀ	-9.64071
ਹੋ	-9.64103
▁ਜਿਹੜੇ	-9.64195
▁ਬੈਕਗਰਾਊਂਡ	-9.64195
▁ਪੀਸੀ	-9.64216
▁ਜਦਕਿ	-9.64245
▁ਯੂਕੇ	-9.64322
▁ਕੁਨੈਕਟ	-9.64331
▁ਪਲੇਅਰ	-9.64393
▁ਰਜਿਸਟਰ	-9.64441
▁ਹੈਰਾਨ	-9.64466
▁ਗ੍ਰੇ	-9.64472
cy	-9.64482
form	-9.64488
▁regions	-9.64571
▁ਇਮਾਰਤ	-9.64572
▁ਪਾਲਤੂ	-9.64574
▁ਜ਼ਮੀਨ	-9.64575
▁ਆਈਫੋਨ	-9.64585
ਯੋ	-9.64739
ਰਟ	-9.64799
ਟਲ	-9.64926
ting	-9.6494
▁ਦੇਖਭਾਲ	-9.64949
▁ਟਾਊਨ	-9.64949
▁ਇੰਪੁੱਟ	-9.64951
▁ਹਾਰਡਵੇਅਰ	-9.64952
ਇਕ	-9.65081
ber	-9.65153
RA	-9.6519
ਦੂ	-9.65199
ੇਅਰ	-9.65232
▁Un	-9.65239
▁ਪਰਬੰਧਕ	-9.65283
▁ਕਹਿੰਦੇ	-9.65327
▁ਖੱਬੇ	-9.65327
▁USB	-9.65423
▁ਨਿਰਧਾਰਨ	-9.65526
ਗੂ	-9.65556
-12	-9.65557
▁ਵਿਦੇਸ਼ੀ	-9.65606
150	-9.65672
▁ਭਰੋਸੇਯੋਗ	-9.65708
▁ਵਿਸ਼ਲੇਸ਼ਣ	-9.65708
▁ਮੱਛੀ	-9.6574
▁1.5	-9.65805
ling	-9.65853
▁Page	-9.65857
▁US	-9.66085
ure	-9.66131
▁ਬੋਲ	-9.6617
▁ਚੀਜ਼ਾਂ	-9.66175
ade	-9.66189
▁ਸਾਰਾ	-9.66219
▁WP	-9.66236
ਵਾਟਰ	-9.66237
▁ਉੱਤਰੀ	-9.66257
ਿੰ	-9.66281
ਪ੍ਰਭਾਵ	-9.66285
▁ਸਵੀਕਾਰ	-9.66346
nd	-9.66353
▁ਮਾਰਕ	-9.66362
ort	-9.66397
lot	-9.66443
ns	-9.66579
▁ਹੋਸਟ	-9.66584
▁ਹਾਰਡ	-9.66615
Co	-9.66624
ਾਓ	-9.66705
ਆਉਟ	-9.66715
▁ਸਾਹਿਬ	-9.66864
▁ਸਟੋਰੇਜ਼	-9.66865
▁ਕੌ	-9.6687
ound	-9.6687
▁ਐਕਸ਼ਨ	-9.66876
ner	-9.66884
▁ਗੋ	-9.66915
▁ਬਿਲ	-9.6694
2001	-9.67016
▁ਟੇਬਲ	-9.67041
ਚੀ	-9.67093
▁ਆਸਾਨੀ	-9.67141
▁lists	-9.67202
▁ਸੁਣ	-9.6723
russia	-9.67243
▁ਪਿੰਡ	-9.67269
▁ਫਰ	-9.67329
ert	-9.67428
▁file	-9.67629
▁ਸੰਭਾਵਨਾ	-9.67631
▁ਬੁੱਕਮਾਰਕ	-9.67635
▁need	-9.67636
▁ਵੇ	-9.67659
ਿਪ	-9.67685
gen	-9.67697
▁ਨੋ	-9.67748
air	-9.6784
▁ਆਸਟਰੇਲੀਆ	-9.6802
▁ਗਠਿਤ	-9.6802
▁ਉਦੇਸ਼	-9.6802
▁ਗ੍ਰਹਿ	-9.6802
▁ਅਮਨ	-9.68026
▁ਸਕੈਨ	-9.68028
▁400	-9.68048
vo	-9.68059
fa	-9.68277
ਲੇਟ	-9.68309
▁ਮਿਲਾ	-9.6831
lin	-9.68321
▁ਭਾਰੀ	-9.68354
▁ਮੁਕਾਬਲੇ	-9.6841
▁ਰੇਖਾ	-9.68423
ਫਰ	-9.68427
▁0.0	-9.68427
ao	-9.6849
mon	-9.68535
▁ਪਿਤਾ	-9.68551
fer	-9.68659
HFW	-9.68703
ont	-9.68766
▁ਵਾਲੀਆਂ	-9.68775
ਯੁ	-9.6879
▁Image	-9.68803
OS	-9.6891
tal	-9.68945
▁ਸ਼ੁਰੂਆਤੀ	-9.68955
ੱਬ	-9.6907
ium	-9.69079
ੌਕ	-9.69081
ਰਿਆ	-9.69162
▁Mac	-9.69172
▁ਦਸਤਖਤ	-9.69196
▁ਬਜਾਏ	-9.69196
▁ਕਾਫੀ	-9.69223
▁ਹੋਵੇਗੀ	-9.69242
TS	-9.69248
ਟੂ	-9.69301
▁ਰੀਡ	-9.69337
pm	-9.69411
▁р	-9.69449
▁70	-9.69472
▁ਭੇਜ	-9.69493
iv	-9.69526
ਫੀ	-9.69575
▁ਨੈ	-9.69585
▁ਟਾਪੂ	-9.69592
▁ਸੰਗਠਨ	-9.69592
▁ਧਾਰਨਾ	-9.69592
gi	-9.69686
▁(2)	-9.69691
ਸ਼ੀਲ	-9.69738
▁ਬਿਲਡਿੰਗ	-9.69992
▁ਦਰਸ਼ਕ	-9.70008
▁ਟਵਿੱਟਰ	-9.70057
ari	-9.70058
▁ਬਚ	-9.70084
ਗਾਰ	-9.70119
▁ਅਰ	-9.7012
▁Copyright	-9.70178
▁Air	-9.70245
▁ਅਸਰ	-9.70247
▁ਲਾਇਬਰੇਰੀ	-9.70387
▁ਆਈਓਐਸ	-9.70387
▁ਆਲੇ	-9.70402
ਖੀ	-9.70449
250	-9.70481
ਿਮ	-9.70567
ਿਅ	-9.70688
▁ਅਸਮਰੱਥ	-9.70787
▁ਪ੍ਰਣਾਲੀ	-9.70787
▁ਵਾਲੀਅਮ	-9.70799
kh	-9.70864
▁ਪਰਤ	-9.70891
▁PC	-9.70999
▁48	-9.7101
ਸਪੈਮ	-9.71119
pr	-9.71131
▁ਪ੍ਰਕਾਸ਼	-9.71168
▁ਈਮੇਜ਼	-9.71189
▁ਉਸਾਰੀ	-9.71191
▁ਦੇਵੇਗਾ	-9.71208
▁ਖੁਦ	-9.71325
ld	-9.71414
eg	-9.71472
▁ਸੰਭਾਲ	-9.7153
600	-9.7157
video	-9.71616
▁ਲੰਬਕਾਰ	-9.7163
▁ਆਰਡਰ	-9.71638
ੜ੍ਹ	-9.717
lan	-9.71701
ਚੈ	-9.71802
▁ਮਨੁੱਖੀ	-9.71831
pcs	-9.71961
▁ਲੂ	-9.71988
▁ਨਮੂਨੇ	-9.71996
▁ਪੁਸ਼ਟੀ	-9.71997
▁ਸਾਰਣੀ	-9.72004
0,000	-9.72055
hen	-9.72062
ਲਿਨ	-9.72067
▁ਗੋਲੀ	-9.72129
ੌਨ	-9.72228
▁se	-9.72235
US	-9.72294
▁ਬਣਾਉ	-9.72309
ਹੇ	-9.72338
▁ਜਰਮਨੀ	-9.72352
▁Eaton	-9.72403
▁ਰੋਕਣ	-9.72442
▁ਮੌਤ	-9.72485
▁ਲੱਭਿਆ	-9.72524
▁250	-9.7258
ea	-9.72596
▁ਚੈਕ	-9.72599
▁3.0	-9.72625
▁800	-9.72753
▁href	-9.72812
▁ਟੈਲੀਫੋਨ	-9.72812
wise	-9.72854
▁ਨਕਲ	-9.72873
ite	-9.7288
▁ਬੋਤਲ	-9.72895
cu	-9.72976
act	-9.72988
ਂਸ	-9.73017
▁06	-9.73105
▁me	-9.73125
ਪਿ	-9.7315
atch	-9.73156
ਬਾਰ	-9.73215
▁column	-9.73221
▁italy	-9.73221
▁ਘਰੇਲੂ	-9.73221
▁ਮਿੱਤਰ	-9.73221
▁Center	-9.73222
▁ਪਲੇਟਫਾਰਮ	-9.73225
▁EN	-9.73247
ON	-9.73265
ou	-9.73293
▁ਆਪਣੀਆਂ	-9.73311
▁ਰੇਟ	-9.73337
▁ਬਦਲਿਆ	-9.73396
▁ਲੋ	-9.73411
ya	-9.73445
ec	-9.73535
ਾਇਲ	-9.73544
▁ਦੁਨੀਆ	-9.73611
ameroon	-9.73633
▁ਓਪਰੇਟਿੰਗ	-9.73633
▁ਫੈਬਰਿਕ	-9.73633
▁ਸਿਫਾਰਸ਼	-9.73633
▁ਅਸਫ਼ਲ	-9.73633
▁sales	-9.73648
▁ਹੌਲੀ	-9.7366
star	-9.73718
л	-9.74046
▁ਅੰਤਰਾਲ	-9.74046
▁ਪ੍ਰਾਜੈਕਟ	-9.74046
ਤਿ	-9.74063
ਅਤੇ	-9.74125
▁ਕੰਧ	-9.74161
▁ਔਰਤਾਂ	-9.74182
▁ਤਰਲ	-9.74254
▁36	-9.74259
▁pre	-9.74321
▁ਸਬੰਧ	-9.74366
ਦੂਤ	-9.74421
▁WhatsApp	-9.74461
▁ਤਜਰਬਾ	-9.74461
MM	-9.74474
▁ਉਥੇ	-9.74479
▁ਪਲੱਸ	-9.74486
▁ਬਿੱਟ	-9.74498
▁Ne	-9.74566
▁Po	-9.74586
ਨਾਲ	-9.74802
▁ਦ੍ਰਿਸ਼	-9.74877
▁Fruity	-9.74877
▁hPa	-9.74878
work	-9.74893
▁ਪਾਰਟੀਸ਼ਨ	-9.74909
ji	-9.74934
▁ਸਕ	-9.74947
az	-9.75051
▁ਸਿੱਖ	-9.75167
uc	-9.75175
▁≤	-9.75245
oison	-9.75296
▁ਨੇਵੀਗੇਸ਼ਨ	-9.75296
▁ਕਤਾਰ	-9.75297
▁ਆਨੰਦ	-9.753
ਡੂ	-9.75314
▁ਸੰਬੰਧਿਤ	-9.75315
▁ਕਾਲਮ	-9.75327
▁600	-9.75343
▁ਹਵਾਲਾ	-9.75424
▁at	-9.75427
▁ਖਰੀਦੋ	-9.7543
▁ਸੂ	-9.75432
▁We	-9.7544
▁ਗਲ	-9.75445
9001	-9.75473
ਫਿ	-9.755
si	-9.75549
▁ਆਫ	-9.75665
▁ਟਾ	-9.75695
lock	-9.757
▁ਜਾਇਦਾਦ	-9.75716
▁ਸਵਾਗਤ	-9.75716
name	-9.75766
▁ਬਾਕੀ	-9.75778
▁ਜਰਮਨ	-9.75781
ਟ੍ਰ	-9.75826
▁ਬੈਕ	-9.75877
▁ਛੋਟੀ	-9.75906
▁ਨਿਯਮਤ	-9.75913
▁Te	-9.75924
ਮੀਨ	-9.75963
▁ਟਿ	-9.76137
LE	-9.76167
for	-9.76225
1000	-9.76281
▁ਬਸ	-9.76376
-7	-9.76405
\\\\	-9.76562
▁ਮਨੋਰੰਜਨ	-9.76562
▁ਸ਼ਿਪਿੰਗ	-9.76565
▁ਚਿੱਟੇ	-9.76567
▁ਚੋਟੀ	-9.76576
▁ਮੈਬਾ	-9.76627
▁Su	-9.76686
the	-9.76724
ood	-9.76801
ਸਟਾ	-9.76894
int	-9.76926
▁ਰੋਕ	-9.76953
▁ਸ਼ੰਘਾਈ	-9.76987
▁ਯੋਗਦਾਨ	-9.76993
▁ਐਸਿਡ	-9.77039
▁ਸਮਾਜ	-9.7704
ll	-9.77149
-01	-9.77205
dr	-9.77255
▁2008	-9.7729
▁\	-9.77395
Language	-9.77414
▁ਖੁਰਾਕ	-9.77414
▁ਟਰਮੀਨਲ	-9.77414
▁ਅਖੀਰ	-9.77416
▁ਵੇਖਾਉਣ	-9.77423
▁ਕਾਮ	-9.77447
▁Pe	-9.77472
ੈਂਸ	-9.77624
▁ਸੈ	-9.77673
KW	-9.77719
▁check	-9.77729
▁ਅਧਾਰ	-9.77821
▁ਹਲਕਾ	-9.77844
▁ਸੜਕ	-9.77845
▁ਪੈਰਾਮੀਟਰ	-9.77845
▁subjects	-9.77847
▁ਯੋਗਤਾ	-9.77961
▁ਵਰਤੀ	-9.77963
▁ਦਸ	-9.77973
light	-9.77981
▁ਮਿਲਿਆ	-9.78006
▁ਸਮਾਨ	-9.78105
▁ਮਿਲੀ	-9.78151
▁ਨਮੂਨਾ	-9.78275
▁ਭਵਿੱਖ	-9.78275
▁ਨਕਦ	-9.78281
▁ਪੂਰੇ	-9.78292
▁message	-9.78399
AC	-9.78548
PP	-9.78615
▁ਪਾਰ	-9.78697
▁object	-9.78708
▁ਮੈਰਾਕੇਚ	-9.78708
▁Archives	-9.7872
uck	-9.78739
▁ਭੇਜਿਆ	-9.7879
ker	-9.78929
▁ਚੁੱਕ	-9.79024
▁0.5	-9.7909
▁ਠ	-9.79099
ੁਰ	-9.79102
▁ਰਬੜ	-9.79142
ਧੀ	-9.79143
fr	-9.79153
Ltd	-9.79154
▁ਭਾਵਨਾ	-9.79209
▁ਲਿਖ	-9.79255
ated	-9.79288
▁{0}	-9.79356
▁ਸਕੇਲ	-9.794
ਿਓ	-9.79506
▁Play	-9.79553
▁ਇਕੱਠੇ	-9.79579
▁ਦੌਰਾ	-9.79745
let	-9.79753
▁ਅੰ	-9.79762
▁ਬਣਾਉਣਾ	-9.79775
▁ਸਮਝਣ	-9.80016
ਪੰਛੀ	-9.80018
▁ਸੀਐਨਸੀ	-9.80018
▁ਜੂ	-9.80073
▁ਸਪੈਮ	-9.80102
▁ਕੱਟ	-9.80155
her	-9.80294
▁34	-9.80383
RT	-9.80416
▁Win	-9.8042
▁{	-9.80441
▁ਤਰੱਕੀ	-9.80458
▁ਦਿਸ਼ਾ	-9.80507
ਕਾਲ	-9.80636
ਆਨ	-9.80681
▁ਵੈ	-9.807
den	-9.8075
▁ਆਇ	-9.80784
▁ਸਹਿ	-9.80827
▁Ad	-9.80875
▁TabletWise	-9.80901
▁ਕਾਰਪੋਰੇਸ਼ਨ	-9.80901
▁ਮਾਈਕਰੋ	-9.80901
▁ਵਾਧਾ	-9.80903
▁ਡਰੱਗ	-9.80917
▁ਸ੍ਰੀ	-9.80944
tion	-9.80981
ame	-9.81113
ਹਾਰ	-9.81227
ਕਟ	-9.81265
▁ਸਿੱਧੇ	-9.81371
▁App	-9.81412
▁Con	-9.81423
gr	-9.81463
▁ਮਾਰਗ	-9.81471
▁ਰਿੰਗ	-9.81496
▁years	-9.81613
▁So	-9.81646
▁ਮਾਸ	-9.81744
less	-9.81747
ਗਨ	-9.81788
▁[...]	-9.81792
▁ਦੁਕਾਨ	-9.81793
▁ਰਕਮ	-9.81799
▁ਕੋਣ	-9.81828
▁ਇੰਸਟਾਲੇਸ਼ਨ	-9.8183
hai	-9.81834
▁ਚੈਟ	-9.81839
▁ਹਵਾਲੇ	-9.81913
ਉਣ	-9.81914
▁MS	-9.81955
ਵਾਹ	-9.82002
ਘੱਟ	-9.82018
mail	-9.82031
ign	-9.82083
▁ਖੇਡਣ	-9.82113
▁ਸਿੱਖਣ	-9.82232
▁ਚਿੰਨ੍ਹ	-9.8224
▁ਘਟਨਾ	-9.82247
ml	-9.82272
▁ਵਿਸ਼ੇਸ਼ਤਾਵਾਂ	-9.82314
ਪੂਰ	-9.82374
tro	-9.82437
ities	-9.82447
[	-9.8246
▁ਫੋ	-9.82472
ey	-9.82534
▁ਪੀਣ	-9.82624
ko	-9.8268
▁ਵਿਗਿਆਪਨ	-9.8269
▁ਦੁਬਾਰਾ	-9.8269
▁ਤੁਲਨਾ	-9.82691
▁ਮੁਦਰਾ	-9.82691
▁ਅਸਮਾਨ	-9.82719
▁translation	-9.82989
▁ਧਾਤ	-9.8311
ga	-9.83115
ਸਟ੍ਰ	-9.83117
▁inlistbox	-9.83143
▁ਅਕਾਊਂਟ	-9.83143
▁ਮਿੰਨੀ	-9.83143
BAR	-9.83145
▁ਬਸੰਤ	-9.83151
▁ਪ੍ਰਗਟ	-9.83152
▁Car	-9.83163
▁ਬੈਠ	-9.8319
▁ਫੀਸ	-9.83247
▁And	-9.83263
▁Ho	-9.83295
nc	-9.8336
▁ਖਰਚ	-9.83422
▁Ac	-9.83433
ose	-9.83474
Re	-9.83508
ning	-9.83536
▁Mon	-9.83575
▁ਉਪਰ	-9.83601
▁ਡੇਟਿੰਗ	-9.8361
▁ਐਕਸਪੋਰਟ	-9.83625
ਸੰ	-9.83724
▁ਕਦਰ	-9.8373
▁XXL	-9.8378
ਾਤ	-9.83803
MP	-9.83863
▁ਅੰਤਰ	-9.83882
▁ਆਕਰਸ਼ਣ	-9.84054
▁counties	-9.84054
bar	-9.84102
▁ਲਾਈਟਿੰਗ	-9.842
▁ਤੱਤ	-9.84216
india	-9.84263
ਭਾ	-9.84279
ਗ੍ਰ	-9.84397
ene	-9.84442
py	-9.84491
▁ਸਟੈਂਡਰਡ	-9.84513
▁ਆਲਮ	-9.8452
▁ਪੰਜਾਬ	-9.84589
▁ਵਰਤੇ	-9.84603
▁ਕ੍ਰ	-9.84611
▁Jet	-9.84614
ੌਰ	-9.84637
ool	-9.84679
cute	-9.84769
▁ਐੱਸ	-9.84832
und	-9.84857
▁ਬੈਕਅੱਪ	-9.84979
▁ਠੋਸ	-9.8498
press	-9.84981
▁ਜਾਵੇਗੀ	-9.85
▁ਮੋਟਾਈ	-9.85005
▁ਭੂਰੇ	-9.85008
▁ਕਲਾਸਿਕ	-9.85031
ੱਛ	-9.85191
▁ਹਟਾਉ	-9.85261
▁DN	-9.85296
▁ਜਾਣਿਆ	-9.85368
ਨਿਕ	-9.85427
▁ਮੱਦਦ	-9.85437
▁Sexy	-9.85437
▁ਪੱਛਮੀ	-9.85443
▁here	-9.85478
era	-9.85528
▁Game	-9.85582
▁ਮਾਰਕੀਟਿੰਗ	-9.85598
▁ਹਾਰ	-9.8566
ye	-9.85666
ਖੇ	-9.85829
ਵੈ	-9.85877
tive	-9.85902
ਭੈਣ	-9.85904
▁ਮਾਹਰ	-9.85919
ID	-9.85984
ਰਥ	-9.86011
▁੨	-9.86013
ep	-9.8617
▁2009	-9.86171
TH	-9.86191
ਕਰਾਸ	-9.86215
▁ਦਿਲਚਸਪ	-9.86263
hat	-9.86273
view	-9.86347
▁ਕੰਟੇਨਰ	-9.86369
▁ਬਣਤਰ	-9.86416
▁ਸਾਇਟ	-9.86449
ica	-9.86488
▁ਰੀਅਲ	-9.86501
ib	-9.86508
▁po	-9.86639
bl	-9.8675
kw	-9.86755
▁Qu	-9.86757
AT	-9.86766
SI	-9.86782
▁ਏਜੰਟ	-9.86839
ੂਨ	-9.86845
2020	-9.86975
fish	-9.86994
▁Last	-9.87017
▁ਗਿ	-9.87139
ਗਦਾ	-9.87162
nu	-9.87267
▁ਸਟੀਕਰ	-9.8731
▁ਤਰੀਕਾ	-9.87311
▁ਬੈਕਐਂਡ	-9.87312
▁ਛੇਤੀ	-9.87344
ali	-9.87355
▁09	-9.87362
▁how	-9.87387
og	-9.87443
▁Mat	-9.8746
▁ਵੰਡ	-9.87485
ਪੋਰਟ	-9.87568
eb	-9.87624
ਈਮੇਲ	-9.87667
ਇੱਕ	-9.87763
▁ਆਸ	-9.87766
▁03	-9.87784
▁ਕਾਰਪੋਰੇਟ	-9.87784
▁ਸ਼ਾਇਦ	-9.87784
▁ਕੁਕੀਜ਼	-9.87784
▁ਧਾਤੂ	-9.87834
▁Home	-9.8786
▁di	-9.87918
▁all	-9.88028
▁ਵੇਚਣ	-9.88046
cha	-9.8815
▁Diffuser	-9.8826
▁ਦਫਤਰ	-9.8826
▁Gu	-9.88265
▁FSX	-9.88287
▁ਚੇਨ	-9.88321
▁ਬਲੂ	-9.88425
▁ਘਟਾਉਣ	-9.88431
email	-9.88499
ੋਸ	-9.88563
▁ਮੈਚ	-9.88583
ੀਕਲ	-9.88639
▁ਗੰਭੀਰ	-9.88739
▁ਟੁਕੜੇ	-9.88739
▁ਅਲਾਰਮ	-9.88739
▁ਸੂਚਕ	-9.88739
▁ਸ਼ਰਾਬ	-9.88741
2016	-9.88758
▁have	-9.88759
▁ਜ਼ਿਆਦਾਤਰ	-9.88767
▁ਵਿਧੀ	-9.88779
▁ਚਾਲ	-9.88805
▁ਸਾਜ਼ੋ	-9.88806
ਾਈਨ	-9.88849
▁ਕੁੜੀ	-9.8889
ven	-9.88952
ware	-9.8902
ਕੈ	-9.89043
▁ਚਰਚ	-9.89136
zip	-9.89219
▁ਉਦਾਹਰਣ	-9.89219
▁ਦਫ਼ਤਰ	-9.89219
▁ਪਬਲਿਕ	-9.89219
▁ਹਫਤੇ	-9.8922
▁ਲਾਗਿਨ	-9.89273
▁ਉਪਭੋਗਤਾ	-9.89347
▁ਆਯੋਗ	-9.89351
▁Ar	-9.89366
ਕਰਤਾ	-9.89369
▁ਗਈਆਂ	-9.89391
▁ਬਚਾਉਣ	-9.89395
▁ਰੂਸੀ	-9.8944
ਫ਼ਾ	-9.89451
ਵਿੱਚ	-9.89582
ੰਮ	-9.89664
Query	-9.89703
▁ਫੁੱਟ	-9.89706
▁ਜਨਰਲ	-9.89707
▁them	-9.89709
▁ਮੌਕੇ	-9.89725
▁ਆਏ	-9.89753
ating	-9.8976
▁ਭਾਈ	-9.89773
ste	-9.89808
▁18+	-9.89815
ਹਰਾ	-9.89854
way	-9.89901
▁ਲੀਡ	-9.89958
ਸਦੀ	-9.89961
CH	-9.90044
▁SD	-9.90069
unt	-9.90121
ਸੂ	-9.90177
▁ਭਰੋਸਾ	-9.90205
des	-9.90246
PS	-9.90262
▁Se	-9.9027
ਟਿਨ	-9.90289
over	-9.90302
ਐਫ	-9.90377
ical	-9.90439
▁75	-9.90456
back	-9.90462
ਾਉਂਦਾ	-9.90465
▁ਪੁੱਛੋ	-9.90476
▁ਜ਼ਿੰਮੇਵਾਰੀ	-9.90483
▁ਗੋਲ	-9.90493
▁ਦੱਸ	-9.90514
ਮੁਕਤ	-9.9057
KG	-9.90576
ੈਕਸ਼ਨ	-9.90579
▁ਪੁਆਇੰਟ	-9.90605
▁ਸੁਜ਼ੂਕੀ	-9.90676
ਪਰੀਤ	-9.90679
▁ਇਲੈਕਟ੍ਰਿਕ	-9.90684
▁ਮਾਹਿਰ	-9.90692
ਹਰ	-9.9074
px	-9.90762
▁does	-9.90787
ਹੂ	-9.90811
ੰਪ	-9.90893
▁Lo	-9.90916
▁Pre	-9.90987
set	-9.90987
▁All	-9.91117
▁He	-9.9112
departments	-9.91166
▁ਡਿਜੀਟਲ	-9.91166
ਬਿ	-9.9122
ਰੇਟ	-9.91287
▁Di	-9.91303
▁ਰਹਿ	-9.9133
▁ਆਉਟ	-9.91349
▁ਚਾਹ	-9.91349
ਪਨ	-9.91553
▁ਗਾ	-9.91606
▁Germany	-9.91659
▁October	-9.91659
▁ਅਦਾਲਤ	-9.9166
ਕਟਰ	-9.9175
men	-9.91763
▁ਉੱਤਰ	-9.91789
tra	-9.91845
ੁੱਕ	-9.91902
▁ਬੇਸ	-9.91907
ove	-9.91959
ele	-9.91959
ama	-9.91995
▁ਛੇ	-9.9206
▁ਬਰਾਬਰ	-9.92154
ੁਲ	-9.92164
▁take	-9.92198
mark	-9.92333
▁ਰੋਗ	-9.92375
pla	-9.92387
▁ਚੁ	-9.92424
ੱਠ	-9.92457
ous	-9.92465
▁dis	-9.92467
▁ਜਾਣਦੇ	-9.92492
mat	-9.92564
ਇਲ	-9.92606
CT	-9.92616
UR	-9.9263
▁Android	-9.92651
▁ਹਾਈਡ੍ਰੌਲਿਕ	-9.92651
▁ਥੋਕ	-9.92655
▁ਐਂਟਰੀ	-9.92663
▁new	-9.92728
ਫੀਲਡ	-9.92735
24.	-9.92743
▁ਕੋੜ	-9.92803
ਹੈ	-9.92885
▁ਇੰਟਰਵਿਊ	-9.92902
▁ਉਤ	-9.93016
▁ਸਿੱਧਾ	-9.9302
ਪਟ	-9.9315
▁ਪ੍ਰਮੁੱਖ	-9.93151
▁ਰਸੋਈ	-9.93151
▁ਦੂਜਾ	-9.93152
▁ਸੌਖਾ	-9.93159
ਨਿ	-9.9318
▁search	-9.93257
2000	-9.93258
pro	-9.93264
ਹਾਥੀ	-9.93275
▁ਬੁਨਿਆਦੀ	-9.93279
IT	-9.93284
ਅੱਪ	-9.93294
▁ਭੂ	-9.93303
ਅਪ	-9.93314
▁55	-9.93397
▁ਕਿਉਂ	-9.93431
▁ਪਲੇਅ	-9.93459
▁37	-9.93528
▁ਨੌਕਰੀ	-9.93592
low	-9.93615
cess	-9.93633
▁ਅਕਾਇਵ	-9.93654
▁ਐਕਟਿਵ	-9.93661
▁ਅਨ	-9.93673
р	-9.93674
▁ਤਰ	-9.93686
▁ਪਰਿੰਟਰ	-9.93729
ੋਪ	-9.93795
ਸ਼ੇਰ	-9.93816
ੰਕ	-9.93846
pan	-9.93877
▁ਹਟਾ	-9.93954
▁ਡਿਸ	-9.94023
ਕ੍ਰ	-9.94038
▁find	-9.94102
bit	-9.9413
▁greece	-9.94159
▁ਇਲੈਕਟ੍ਰਾਨਿਕ	-9.94159
▁ਮੁਤਾਬਕ	-9.94159
▁ਕੂਪਨ	-9.94159
▁ਚਲਾਇਆ	-9.94178
suit	-9.9429
ਿਟੀ	-9.9431
▁28,	-9.94317
ਬੈ	-9.94388
CM	-9.94403
▁ਹੁ	-9.94539
▁ਪੋ	-9.94548
ੌਲ	-9.94646
▁ਟਰਾਂਸ	-9.94662
▁ਸੰਪਾਦਕ	-9.94666
▁ਤਲਾਸ਼	-9.94667
-9	-9.94704
.99	-9.94708
▁ਪਰਭਾਵ	-9.9474
▁la	-9.94836
▁ਫਾਰ	-9.9488
▁ਮਾਣ	-9.94883
ff	-9.94958
Fi	-9.95087
▁ਸਟਰ	-9.95087
ਿਕਾ	-9.95091
▁ਕਿੱਟ	-9.951
google	-9.95176
+00:00	-9.95177
ਬਟਰਫਲਾਈ	-9.95177
▁ਕਲੱਬ	-9.95194
▁ਗੁਆ	-9.95219
▁ਕੰਟਰੋਲਰ	-9.95275
▁ਦੋਨੋ	-9.95319
▁ਪਲੇ	-9.95344
▁ਪੂਲ	-9.95373
ਵਰਡ	-9.95441
ਸ਼ਿਪ	-9.95463
ics	-9.9547
ੈਂਡ	-9.95478
are	-9.95543
ਇਹ	-9.95645
▁ਪਰੋਜੈਕਟ	-9.95689
▁ਬਾਜ਼ਾਰ	-9.9569
▁ਵਿਧਾਨ	-9.9569
▁Microsoft	-9.9569
▁Mi	-9.957
▁ਐਂਟੀ	-9.9574
ਦਿਆਂ	-9.95766
▁ਦਿਨਾਂ	-9.95869
shan	-9.95957
▁ਪੌ	-9.96028
▁ਰੀਡਰ	-9.96048
ਮੈਟ	-9.96086
ES	-9.9612
-200	-9.96188
️	-9.96203
ਗਰਦਨ	-9.96207
▁ਜਾਨਵਰ	-9.96208
▁ਜਰੂਰ	-9.96235
ਡ਼	-9.96289
ਮਰਦਾਂ	-9.96376
▁ਆਈਟਮਾਂ	-9.96468
ਮੋਰ	-9.96655
▁Go	-9.96661
rit	-9.96675
SP	-9.9671
ੀਕਰਨ	-9.96712
follow	-9.96723
▁ਦਿੰਦੀ	-9.96726
▁Unlimited	-9.96727
▁ਕਮਿਸ਼ਨ	-9.96749
head	-9.9678
nm	-9.96803
▁ਪਿਆ	-9.96853
ਰੁ	-9.96873
▁ਟਨ	-9.96874
long	-9.96902
▁·	-9.96992
ੈਮ	-9.97043
▁ਛਾਤੀ	-9.97065
▁Si	-9.97219
▁ਨੈਟਵਰਕ	-9.97244
▁ਰਵਾਇਤੀ	-9.97244
▁ਕਰੈਸ਼	-9.97244
▁Tablet	-9.97245
▁ਕਹਿੰਦਾ	-9.97247
▁ਸ਼ਰ	-9.97293
▁ਆਪੋ	-9.97329
.0.2	-9.97331
read	-9.97344
love	-9.97442
▁ਨਿਰ	-9.97501
▁ਖਿੱਚ	-9.9753
▁ਡਰਾਈਵਰ	-9.97539
mb	-9.97543
ace	-9.97581
ਸਟੀਵ	-9.97678
ੰਸ	-9.97759
▁ਵਾਈ	-9.97784
▁ਬਾਗ	-9.97801
ਹਿਰ	-9.97834
ietnam	-9.97859
ina	-9.97942
ਨਾਮ	-9.98081
▁ਚਲ	-9.98167
ern	-9.98179
▁XXX	-9.98198
tran	-9.98228
▁ਮੈਨੂਫੈਕਚਰਜ਼	-9.98294
é	-9.98294
▁ਆਦਰਸ਼	-9.98294
▁Psa	-9.98306
▁ਗਾਹਕਾਂ	-9.98322
▁ਮਿੱਲ	-9.98354
ary	-9.98355
ਸਾਰ	-9.98447
EN	-9.98464
TE	-9.98727
so	-9.98759
ਕ੍ਰਿਪਟ	-9.98761
ਸਿਸ	-9.98776
▁Hu	-9.98778
IP	-9.98804
▁{@}	-9.98823
▁ਆਰਥਿਕ	-9.98823
▁ਸਲਾਇਡ	-9.98827
▁ਸੰਬੰਧ	-9.98872
▁Gr	-9.98888
▁Min	-9.98899
ਮੈਨ	-9.9899
▁64	-9.98991
▁000	-9.98999
▁ਦਰਦ	-9.99026
ਾਉਣਾ	-9.99065
ets	-9.99085
ਬੁੱਕ	-9.99104
cr	-9.99112
▁ਕਰਵਾ	-9.99212
▁ਮੁਸ਼ਕਲ	-9.9925
In	-9.99446
ਫ਼ਰ	-9.99508
ਅਤ	-9.99733
▁ਪੈਚ	-9.99751
▁2005	-9.99784
▁ਦੇਖਿਆ	-9.99813
▁ਪ੍ਰਮਾਣ	-9.99866
rs	-9.99874
▁Europe	-9.99889
▁ਗਾਰੰਟੀ	-9.99889
▁ਫੈਸਲਾ	-9.9989
zhou	-9.99894
▁ਅਜਿਹੀ	-9.99896
▁ਮਲਟੀ	-9.99906
▁ਪੈਸਾ	-9.99948
ਅਨੰਤ	-9.9999
▁ਹੇ	-10.0005
▁ਮੈਪ	-10.0019
ਾਈਟ	-10.002
▁Lesbians	-10.0021
▁ਖਿ	-10.0025
▁ਨਾਚ	-10.0032
ਫੈ	-10.0036
▁ਪੇਜ	-10.0037
ਾਇਟ	-10.0038
ੁਰਖਿਅਤ	-10.0043
▁ਵਿਸਥਾਰ	-10.0043
▁ਐਡੀਟਰ	-10.0043
▁ਖੋਜਕਾਰ	-10.0044
rr	-10.0046
▁ਇੱਟ	-10.0047
▁ਸਫਾਈ	-10.0052
▁ਨੀਲੇ	-10.0054
ding	-10.006
ਉਂ	-10.0066
▁0086-	-10.007
ky	-10.0073
app	-10.0076
▁ਛਾਪ	-10.0089
▁02	-10.0089
▁PR	-10.0091
▁ਕਾਪਿਅਰ	-10.0097
▁ਸਮੀਖਿਆਂਵਾਂ	-10.0097
▁ਤੁਸੀ	-10.0098
▁ਫੈਸ਼ਨ	-10.0098
urkey	-10.0098
▁when	-10.0099
▁ਪ੍ਰਿੰਟ	-10.0111
▁ਸਮਾਪਤ	-10.0115
ale	-10.0126
▁ਪੈਨ	-10.0128
▁ਭਰਨ	-10.0137
AP	-10.0137
▁ਸਕਦੀਆਂ	-10.0137
ny	-10.0138
ਫਟ	-10.0142
▁ਦਰਜਾ	-10.0143
ਸ਼ਰ	-10.0148
▁Français	-10.0151
▁ਚਿੰਤਾ	-10.0151
▁ਸਫੈਦ	-10.0151
▁great	-10.0151
▁ਵਰਣਨ	-10.0151
▁ਟਰੱਕ	-10.0156
▁ਸੁੱਟ	-10.0158
▁ਬੱਸ	-10.0161
ਟਿਵ	-10.0164
▁CNC	-10.0165
ਟੈਟੂ	-10.0177
ਤੂ	-10.018
ਾਇਡ	-10.018
ਦੀਆਂ	-10.0187
с	-10.0188
▁ਪੇਚ	-10.0198
▁ਟਿਕਾਣੇ	-10.0206
▁ਨਿਰਧਾਰਤ	-10.0206
▁ਸ਼ੂਟਿੰਗ	-10.0206
▁ਏਪੀਕੇ	-10.0206
content	-10.0206
▁Holmbygden	-10.0206
▁ਪੰਨੇ	-10.0206
aw	-10.0215
▁ਕਲਰ	-10.0217
ਿਵ	-10.022
▁ਸਭਾ	-10.0221
▁ਲੱਭੋ	-10.0225
fl	-10.0225
▁ਸਾਂਝ	-10.0228
▁ਚੌ	-10.023
▁India	-10.0243
▁int	-10.0243
nt	-10.0245
ਗਤ	-10.0249
▁prefectures	-10.0261
▁ਕਿੱਥੇ	-10.0261
▁ਮਾਨੀਟਰ	-10.0261
▁ਸੋਸ਼ਲ	-10.0261
▁ਹੁਨਰ	-10.0261
▁ਸਕੋਰ	-10.0262
ries	-10.0264
▁ਵਿਖੇ	-10.0265
▁ਦਾਖਲ	-10.0267
table	-10.0276
▁ਇੰਟਰ	-10.028
oll	-10.028
▁44	-10.0288
ਦੁਆਲੇ	-10.0288
by	-10.0302
▁ਪੜ੍ਹ	-10.0304
oot	-10.0307
▁Du	-10.0315
▁probably	-10.0316
▁ਧੁਨੀ	-10.0316
▁380	-10.0317
▁ਸਟੇਟ	-10.0322
ਥੇ	-10.0324
▁ਚਲਾ	-10.0325
ark	-10.0325
▁22,	-10.0328
ਸੈਕਸ	-10.0329
▁ਦੁਆਲੇ	-10.0344
ach	-10.035
ata	-10.035
ੋਟ	-10.0351
▁provinc	-10.0352
▁ਫਾਈ	-10.036
▁ਹੈਲਪਡੈਸਕ	-10.0372
▁ਆਦਮੀ	-10.0372
▁ਸਿਗਨਲ	-10.0372
ਪਤ	-10.0372
▁ਲੱਖ	-10.0373
▁ਡੇਟਾ	-10.0377
▁API	-10.0379
120	-10.0382
▁ਚਿੜੀ	-10.0382
▁ਮੀ	-10.039
▁ਰੋਜ਼	-10.0391
▁ਵੋਟ	-10.0391
ਰੀਆ	-10.0394
its	-10.0398
▁Web	-10.04
ਮੋਨ	-10.041
ਲੀਜ਼	-10.0424
ifi	-10.0425
▁ਫਾ	-10.0426
▁sonitattoo	-10.0427
▁ਸਪੱਸ਼ਟ	-10.0427
▁France	-10.0427
▁ਚਮਕ	-10.0428
▁ਕਮਿ	-10.0432
▁MP	-10.0433
▁1.0	-10.0435
▁ਐਕਟ	-10.0436
▁GenericName	-10.0437
▁ਇਸਨੂੰ	-10.0444
ਟਾਈ	-10.0446
ੂਰ	-10.0452
▁fl	-10.0467
▁ਮਾਊਸ	-10.0484
▁ਸਟਰੀਟ	-10.0484
▁ਐਲਾਨ	-10.0485
MB	-10.0485
ਕਰਨ	-10.0487
▁ਟੂ	-10.049
▁will	-10.0491
ਥੀ	-10.0497
▁ਗੇਮਸ	-10.0501
▁ਵਿੱਤੀ	-10.0511
▁ਖੋ	-10.0514
las	-10.0519
▁ਬਾਈਕ	-10.0526
▁ਪੜਾਅ	-10.054
▁ਸ਼ੁਕੀਨ	-10.054
▁ਰਹੋ	-10.0544
▁ਪਹਿਲਾ	-10.0547
203	-10.0549
▁ਸੈਟ	-10.0553
0.0	-10.0556
eep	-10.0557
▁ਪ੍ਰਿੰਟਰ	-10.0565
ਰਾਸ਼ੀ	-10.0574
PE	-10.0577
▁ਕਰੀਏ	-10.0581
▁ਕਹਾਣੀ	-10.0588
▁ਦਿਲਚਸਪੀ	-10.0591
▁ਡਿਵੈਲਪਰ	-10.0597
▁ਮੁਬਾਰਕ	-10.0597
▁ਮੋਟਰਸਾਈਕਲ	-10.0597
▁ਵਾਲਪੇਪਰ	-10.0597
▁ਟੋਨਰ	-10.0598
life	-10.0598
▁ਪਾਬੰਦੀ	-10.0599
ਕਣ	-10.0602
▁ਰੁ	-10.0605
▁ਪਤਨੀ	-10.0606
ala	-10.0607
▁ਜ਼ਿ	-10.061
▁ਸਲ	-10.0611
-2019	-10.0617
="1	-10.0621
ਬਰਾ	-10.0627
੍ਰਿ	-10.0635
ਗੁ	-10.0638
▁ਵਾਈਨ	-10.064
ਲਿਕ	-10.0641
▁ਪ੍ਰਾਪਰਟੀ	-10.0654
▁ਪੜਤਾਲ	-10.0654
▁ਸਖ਼ਤ	-10.0654
▁ਚਿਹਰੇ	-10.0655
▁AM	-10.0657
NG	-10.0657
▁ਜੁ	-10.0658
lay	-10.0658
hy	-10.0659
ME	-10.0659
▁ਸੋਨੇ	-10.066
▁ਸੈੱਲ	-10.066
▁ਲਿਖਣਾ	-10.0661
▁ਰੱਖਦਾ	-10.0671
other	-10.0672
▁ਮੱ	-10.068
rist	-10.0687
ਮੈ	-10.0694
tain	-10.0707
▁ਪ੍ਰਭਾਵਸ਼ਾਲੀ	-10.0711
▁class	-10.0712
▁ਹਜ਼ਾਰ	-10.0712
▁ਲੁਟੇਰਾ	-10.0712
▁ਚੇਅਰ	-10.0715
iao	-10.0718
▁ਰਹਿੰਦੇ	-10.0721
▁ਪ੍ਰਭਾਵਿਤ	-10.0721
uch	-10.0723
ora	-10.0728
ond	-10.0736
▁ਗੈ	-10.0742
▁Coin	-10.0747
▁ਤਬਦੀਲੀਆਂ	-10.0748
▁125	-10.0752
run	-10.076
▁2.0	-10.0764
▁ਐੱਮ	-10.0765
▁ਇੰਡੈਕਸ	-10.0769
▁ਪਰਿਵਰਤਨ	-10.0769
▁ਪੇਸ਼ਾਵਰ	-10.0769
▁about	-10.0769
▁ਸਿਲਾਈ	-10.0773
DM	-10.0779
▁ਸਾਂਝਾ	-10.0785
▁ਲੁ	-10.079
vel	-10.0795
▁ਨੇਵੀ	-10.0804
▁XP	-10.0808
▁MT	-10.082
ਗੁਲਾਬ	-10.0827
▁ਅਭਿਆਸ	-10.0827
▁ਅੱਧ	-10.0827
▁ਨਤੀਜਾ	-10.0827
▁ਵੱਲੋਂ	-10.083
▁ac	-10.0833
▁ਰੱਖਦੇ	-10.0838
ction	-10.0849
lf	-10.085
▁ਡਰਾਈਵ	-10.0853
▁so	-10.0855
dy	-10.0856
2017	-10.0867
▁ਅਰਬ	-10.0875
▁ਅੱਗ	-10.0881
▁Ha	-10.0884
▁ਦੂਰੀ	-10.0886
▁Company	-10.0886
▁ਪ੍ਰਭੂ	-10.0886
▁ਅਮੀਰ	-10.0886
▁ਵੀਡਿਓ	-10.0886
▁ਕਿਲੋਮੀਟਰ	-10.0886
▁ਅਨੁਮਾਨ	-10.0887
▁੧	-10.0889
pic	-10.0889
▁ਕੱਪ	-10.0892
▁En	-10.0901
mu	-10.0902
▁ਪ੍ਰਸ਼ਨ	-10.0905
rom	-10.091
▁ਗੁਰ	-10.0911
▁ਚੁਣੀ	-10.0917
▁ਐਂ	-10.0917
fu	-10.0921
▁ਹੁੰਦੀਆਂ	-10.0926
CI	-10.0926
▁ਤਸਵੀਰਾਂ	-10.0936
ਸਾਮਾਨ	-10.0941
ਰਿਪ	-10.0942
ਕੁੜੀਆਂ	-10.0943
▁42	-10.0943
▁ਸੌ	-10.0944
▁ਫਲੈਟ	-10.0947
▁ਅੰਕੜੇ	-10.0948
▁ਤਕਨੀਕ	-10.0962
▁ਚੌਕ	-10.0966
▁ਡੋ	-10.0972
ਵਿਨ	-10.0975
▁Guangdong	-10.0975
▁ਸਮੁੰਦਰੀ	-10.0976
ੇਗਾ	-10.0986
▁ਪ੍ਰਬੰਧਕ	-10.0992
train	-10.0993
▁ਸਹਿਮਤ	-10.0999
▁ਸਾਹ	-10.1001
▁ਉੱਲੀ	-10.1003
▁ਐਕਸਚੇਂਜ	-10.1004
▁ਵਿਦਜੈੱਟ	-10.1004
▁ਆਗਿਆ	-10.1004
▁ਲੀਨਕਸ	-10.1004
AS	-10.1007
unit	-10.101
ਸੁ	-10.101
site	-10.1015
▁Pu	-10.1018
▁ਬਣਨ	-10.1024
▁ਮਾਤਾ	-10.104
▁ਫਾਇਦੇ	-10.1063
▁ਕਾਰਗੁਜ਼ਾਰੀ	-10.1063
▁ਬਾਵਜੂਦ	-10.1063
▁ਰਮਜ਼ਾਨ	-10.1063
0.1	-10.1064
ਾਨਾ	-10.1072
own	-10.1074
ਚੈਰੀ	-10.1075
ਂਦ	-10.1075
ਬਾਲ	-10.1076
▁ਸਟਾਫ	-10.1077
▁0.2	-10.1083
ਐਂਕਰ	-10.1086
▁II	-10.109
▁2.5	-10.1092
▁QR	-10.1093
jo	-10.1093
wi	-10.1094
▁→	-10.1095
ਕ੍ਰਿ	-10.1102
ase	-10.1102
▁ਨਾਲੋਂ	-10.1103
nic	-10.1109
▁ਵਿਸ਼ਾ	-10.1112
▁ਜੋੜੇ	-10.1115
▁ਫਾਇਲ਼	-10.1118
mar	-10.1122
▁unlimited	-10.1123
▁ਜਰਨੇਟਰ	-10.1123
▁ਸਿਆਣੇ	-10.1123
▁ਜਲਦੀ	-10.1124
▁ਹਟਾਇਆ	-10.1124
▁ਸੰਪਤੀ	-10.1125
▁ਗਰਭ	-10.1125
▁ਨੋਟਿਸ	-10.1127
ਰੇਸ਼ਨ	-10.114
rd	-10.1147
▁ch	-10.1147
▁ਸੁੰਦਰਤਾ	-10.115
▁ਕੰਪ	-10.1151
▁ਪਾਓ	-10.1154
que	-10.116
▁he	-10.116
van	-10.1161
▁ਐਕ	-10.1164
vis	-10.1169
cks	-10.1171
▁ਕਰਮਚਾਰੀ	-10.1175
▁ਨਕਲੀ	-10.1177
▁ਵਿਸ਼ੇ	-10.1179
▁PHP	-10.1184
▁ਚੂ	-10.1184
▁ਜਿਹੇ	-10.1185
▁ਸਖਤ	-10.1186
▁ਕਾਲਜ	-10.1192
rate	-10.1198
9.00	-10.1204
ੈਡ	-10.121
shi	-10.1211
ਵਸ	-10.122
TM	-10.1224
SM	-10.1224
੧	-10.1226
▁ਕੈਲ	-10.1229
ਸ਼ੇ	-10.1234
▁ਖੁਸ਼ੀ	-10.1235
▁ਪਾਰਸ	-10.1238
–	-10.1239
▁Pay	-10.1242
▁ਲਿਖੀ	-10.1242
▁ਜਿਆਦਾ	-10.1243
▁110	-10.1243
▁ਮਿਸ਼ਰਤ	-10.1244
ਕਬਾਇਲੀ	-10.1244
britain	-10.1244
▁ਬਦਲਾਅ	-10.1244
▁Photo	-10.1244
aijan	-10.1245
▁ਟਾਈਟਲ	-10.1245
▁ਐਪਲਿਟ	-10.1245
▁ਟਾਇਲ	-10.1246
meter	-10.1246
▁ਵਿਅਕਤੀਗਤ	-10.1246
▁ਸ਼ੈੱਲ	-10.1247
▁Riad	-10.1247
▁ਪੂਰਨ	-10.1247
▁ਸਾਊਂਡ	-10.1249
▁ਕੁਸ਼ਲਤਾ	-10.1249
▁ਸਫਲਤਾ	-10.1251
▁Ri	-10.1252
ath	-10.1252
▁ਦੱਸਿਆ	-10.1253
ਗਰੀ	-10.1262
ਰੰਗ	-10.1265
▁ਚੱਲਦਾ	-10.1267
▁ਵਿਰੋਧ	-10.1267
▁page	-10.1267
▁San	-10.1268
▁ਸੈਲ	-10.1269
▁ਮੌ	-10.1272
ree	-10.1281
tv	-10.1284
1.5	-10.1285
▁ਡਾਈ	-10.1287
rc	-10.1289
UN	-10.1292
▁ਯਾਕੂਬ	-10.1305
▁ਤਣਾਅ	-10.1305
▁ਰੀਲਿਜ਼	-10.1305
▁Open	-10.1305
▁SKU	-10.1305
▁ਫੋਕਸ	-10.1307
▁ਸਾਵਧਾਨੀਆਂ	-10.1308
ਜ਼ੋ	-10.1309
▁ਪੋਲ	-10.1311
▁ਸਾਲਾਨਾ	-10.1311
▁ਵੱਧੋ	-10.1316
RS	-10.1317
▁Tool	-10.1322
▁ਮੋਹਰੀ	-10.1323
▁ਵੇਚ	-10.1323
ਤਾਜ	-10.1326
▁99	-10.1336
▁ਬਿੱਲੀ	-10.1343
160	-10.1346
ਹੀਰਾ	-10.1348
▁ਕੋਰਟ	-10.1349
▁ਕਹਿ	-10.1352
▁ਹੋਵੋ	-10.1356
EL	-10.1357
zz	-10.1358
੩	-10.1366
▁Rikoooo	-10.1366
▁ਹਾਈਬ੍ਰਾਇਡ	-10.1366
▁ਗੈਲਰੀ	-10.1367
▁ਰਿਹਾਇਸ਼	-10.1367
▁ਫਿੱਟ	-10.1371
ana	-10.1375
ਟੈਕ	-10.1381
heng	-10.1392
▁ਰਾਜਾ	-10.1393
rea	-10.1412
ux	-10.1416
▁ਫੇਰ	-10.1417
ਿੰਨ	-10.1427
🙏	-10.1427
ਸਟੀਚਿਊਟ	-10.1427
▁usa	-10.1427
▁Español	-10.1428
▁Whatsapp	-10.1428
▁ਅਧਿਕਤਮ	-10.1428
▁ਕੁੱਝ	-10.1428
▁ਪਲਾਜ਼ਮਾ	-10.1428
▁ਲੈਪਟਾਪ	-10.1428
▁ਲੈਸਬੀਅਨ	-10.1428
▁ਸਕਰਿਪਟ	-10.1428
▁ਮੁੱ	-10.1429
{	-10.1429
ਫੁੱਲ	-10.143
hailand	-10.1431
ਫਰੀ	-10.1432
gl	-10.1432
▁hack	-10.1433
ung	-10.1434
count	-10.1435
▁ਵਿਖਾ	-10.1435
▁ICO	-10.1436
▁Ju	-10.1436
▁Lu	-10.1441
lb	-10.1444
▁SMS	-10.1444
▁58	-10.1446
qui	-10.1449
▁ਚੁੰਬਕੀ	-10.1449
RE	-10.1459
ati	-10.1469
5.0	-10.1474
ized	-10.1477
▁ਰੋਮ	-10.1477
▁time	-10.1486
▁ਰਾਊਟਰ	-10.149
▁ਕੁਆਲਟੀ	-10.149
▁ਹਾਸਲ	-10.149
uff	-10.1492
▁ਸ਼ਾਵਰ	-10.1495
▁ਮੁੱਦੇ	-10.1495
▁GLONASS	-10.1497
ave	-10.1499
ਪੈਰ	-10.1502
▁Comp	-10.1504
▁ਸ਼ਿ	-10.151
xml	-10.1518
▁ਗੋਲਡਨ	-10.1519
001	-10.1524
▁ਜਪਾਨੀ	-10.1526
ons	-10.1544
▁PS	-10.1545
▁ਘਟ	-10.155
▁ਮਜਬੂਰ	-10.1553
▁ਸਵੀਡਨ	-10.1553
▁ਦੂਜੀ	-10.1553
ink	-10.1559
▁ਵੋ	-10.156
▁ਲਗਾ	-10.1562
▁FM	-10.1564
▁ਮੱਧਮ	-10.1566
ਡਿੰਗ	-10.1574
▁ਆਈਸ	-10.1575
2.1	-10.1577
play	-10.1582
ਈਗਲ	-10.1594
▁ਤਿ	-10.1599
▁21,	-10.16
▁ਵੱਖਰਾ	-10.1601
▁ਸਟੈ	-10.1604
pri	-10.1605
▁ਅਵਸਥਾ	-10.1616
▁ਇੱਛਾ	-10.1616
▁ਬਗੈਰ	-10.1616
▁MYHH	-10.1616
▁number	-10.1616
▁ਡੀਬੱਗ	-10.1616
▁ਅਪਰਾਧ	-10.1616
▁ਵਿਜ਼ਟਰ	-10.1616
▁ਕਲਿੱਪਬੋਰਡ	-10.1616
instagram	-10.1616
tri	-10.1625
NO	-10.163
320	-10.1636
▁ਕਨ	-10.1641
ize	-10.1652
▁ਵੇਖਿਆ	-10.1654
ਨਿਊ	-10.1657
ਿੱਪ	-10.166
▁Th	-10.1662
tech	-10.1663
ei	-10.1667
306	-10.1667
ਆਰਾ	-10.1668
ਟਰਾ	-10.1671
▁ਰੋਲਰ	-10.1675
т	-10.1675
atalonia	-10.1679
▁Gratuit	-10.1679
▁ਇੰਟਰਨੈਟ	-10.1679
▁Cheat	-10.1679
▁ਸੱਦਾ	-10.1679
▁ਰਿਸ਼ਤੇ	-10.1679
▁CPU	-10.1679
ev	-10.168
▁ਖੋਲ੍ਹਿਆ	-10.1683
ਮਿਲੀਮੀਟਰ	-10.1685
ਨੁ	-10.1694
▁ਬਣਾਏ	-10.1699
ਇਰ	-10.1707
ef	-10.1709
my	-10.1721
ition	-10.1727
tin	-10.1729
▁ਮੂ	-10.1733
▁tr	-10.1733
▁ਵਿਚੋਂ	-10.1735
▁sub	-10.1736
▁size	-10.1736
▁ਜੋੜਨ	-10.1738
▁part	-10.174
▁Ducati	-10.1743
▁Tianjin	-10.1743
▁ਉਦੋਂ	-10.1743
▁Cisco	-10.1743
▁ਸਟਾਈਲ	-10.1743
▁ਕਿਰਾਇਆ	-10.1743
▁ਰੇਡੀਓ	-10.1743
▁SSL	-10.1744
▁ਪਲੱਗ	-10.1744
▁ਰਜਿਸਟਰੇਸ਼ਨ	-10.1745
▁ਛੱਡਣ	-10.1746
ਚਿ	-10.1757
▁ਕਲਿਕ	-10.1759
▁ਜੋੜੋ	-10.176
▁ਬੂਟ	-10.1761
▁Ko	-10.1767
ze	-10.1772
▁uri	-10.1776
▁eur	-10.1783
▁ਸੱਤ	-10.1784
par	-10.1794
▁ਸ਼ੁੱਧ	-10.1798
▁ਸ਼ੈ	-10.1798
▁official	-10.1807
▁ਨੁਕਸ	-10.1807
▁puert	-10.1807
mber	-10.1809
▁ਤੂੰ	-10.1809
▁Please	-10.181
▁3000	-10.181
format	-10.1812
IL	-10.1815
▁ਸੰਚਾਰਨ	-10.1824
▁key	-10.1825
▁ਟੀਵੀ	-10.1826
▁Shi	-10.1826
▁ਮਿਆਰ	-10.1828
ਇੰ	-10.1831
▁85	-10.1833
▁ਸਿੰ	-10.1835
▁ਯੂਕਰੇਨ	-10.1835
▁ਕੈਸ਼	-10.1838
▁ਬੀਜ	-10.1841
▁Yu	-10.1851
▁Com	-10.1864
▁Pan	-10.1868
▁ਪਿਛੋਕੜ	-10.1871
▁ਪ੍ਰਸ਼ਾਸਨ	-10.1871
Pirater	-10.1871
arques	-10.1871
▁ਵਿਕਸਤ	-10.1871
▁ਗੁਲਾਬੀ	-10.1872
▁ਗਰੇਡ	-10.1874
▁ਧਰਮ	-10.1875
▁ਇਨਾਮ	-10.1877
▁ਅੱਪ	-10.1879
cent	-10.1882
▁ਪੱਖ	-10.1903
▁ਕੰਪਨੀਆਂ	-10.1909
2015	-10.1919
▁ਅਧਾਰਿਤ	-10.1927
▁use	-10.193
▁ਅੱਪਲੋਡ	-10.1936
▁ਗਾਰਡਨ	-10.1936
▁ਵੂਵਾਨ	-10.1936
▁ਸਿਰਨਾਵਾਂ	-10.1936
▁ਸਲੋਟ	-10.1937
▁ਛਪਾਈ	-10.1937
▁ਵਾਲਿਟ	-10.1939
CD	-10.1944
▁ਮਾਸਟਰ	-10.1946
ਵਧੀਆ	-10.1949
▁ਕੌਣ	-10.1951
▁has	-10.1952
▁ਸਾਰ	-10.1954
▁ਪ੍ਰੇਮੀ	-10.1954
▁ਜਪਾਨ	-10.1965
▁ਫਲੋਰ	-10.1966
bin	-10.1966
ਾਵ	-10.1967
▁ਸਪਾ	-10.1967
Time	-10.1968
PM	-10.1972
▁180	-10.1979
rus	-10.198
FA	-10.1988
▁ਰੀਫ	-10.1988
ਿਯ	-10.1999
ile	-10.2
▁ਨੋਟੀਫਿਕੇਸ਼ਨ	-10.2002
▁ਪਾਕਿਸਤਾਨ	-10.2002
▁ਫਾਰੇਕਸ	-10.2002
▁ਮੋਮਬੱਤੀ	-10.2002
▁ਲਾਭਦਾਇਕ	-10.2002
▁ਵੋਲਟਜ	-10.2002
▁ਨੈੱਟ	-10.2005
▁ਕੰਨ	-10.2006
▁ਆਧਾਰਿਤ	-10.2006
board	-10.2006
▁Video	-10.2007
sardar	-10.2008
▁ਆਰਜ਼ੀ	-10.2008
▁Bra	-10.2012
▁ਪ੍ਰਿੰਟਿੰਗ	-10.2013
ਕੰਪਾਸ	-10.2014
oh	-10.2014
eck	-10.2017
ਟੇਸ਼ਨ	-10.2017
ਕਮਲ	-10.2018
▁ਵਰਕ	-10.2019
ਸਲਾ	-10.2019
mer	-10.2021
▁text	-10.2026
▁ਖੋਜੋ	-10.2028
cn	-10.2031
ਹੁ	-10.2033
▁ਆਖ	-10.204
rt	-10.2041
▁ਮਹ	-10.2047
▁ਮਿਲਣ	-10.2047
ਰੀਨ	-10.2048
▁ਤਰਾਂ	-10.2055
king	-10.206
▁ਪੀਲਾ	-10.2064
м	-10.2067
LO	-10.2067
▁ਅੱਪਗਰੇਡ	-10.2067
▁ਜ਼ਿੱਪਰ	-10.2067
▁ਸਟਾਕ	-10.2069
▁ਘੁੰਮ	-10.2073
mit	-10.2074
ਟੋਨ	-10.208
▁2006	-10.2093
▁ਦਿਖਾ	-10.2098
▁eu	-10.2107
▁ਕੋਨ	-10.2113
serv	-10.2119
test	-10.2121
▁Get	-10.2122
ਾਉਂਦੇ	-10.2126
lip	-10.2126
tage	-10.2129
੦	-10.2133
▁ਐਡਰੱਸ	-10.2134
▁Holm	-10.2134
▁ਸੀਮਿਤ	-10.2134
cal	-10.2135
RM	-10.2138
▁ਆਤਮਾ	-10.2139
ਫਲ	-10.214
▁ਪਿੰਨ	-10.2141
pper	-10.2142
▁By	-10.2155
▁ਕੋਟ	-10.2156
hr	-10.2159
▁ਕੋਰੀਆ	-10.216
▁West	-10.2165
chi	-10.2165
ਿਸਟ	-10.2168
lor	-10.2171
ਦਿਲ	-10.2183
▁ਲਗਾਉਣ	-10.2183
4000	-10.2184
ਰਾਮ	-10.2184
cap	-10.2188
ten	-10.2192
▁Fi	-10.2193
ਹਾਂ	-10.2194
ö	-10.22
▁ਆਰਕਾਈਵ	-10.22
▁ਪੱਥਰ	-10.22
▁ਹਸਪਤਾਲ	-10.22
europa	-10.22
▁ਪਲੇਅਲਿਸਟ	-10.2201
▁ਖੁੱਲ	-10.2202
▁ਬਣਾਉਂਦਾ	-10.2203
6.0	-10.2204
▁ਮੀਟਿੰਗ	-10.2207
ome	-10.2207
ich	-10.2213
▁ਰੱਖਣਾ	-10.2214
▁ਚਾਪ	-10.2214
data	-10.2216
▁ਕਮਰਾ	-10.2222
▁ਲੱਗੇ	-10.2233
੍ਹਾ	-10.2234
▁ਖੇਡਾਂ	-10.2242
0059	-10.2243
▁ਡਰਾਇਵ	-10.2243
▁ਜੁੜ	-10.2244
▁ਵਰਗਾ	-10.2246
▁ਰਲ	-10.2253
SD	-10.2253
ੈਰ	-10.2254
gal	-10.2265
yn	-10.2265
ਪੱਛਮ	-10.2267
▁ਪੁੱਤਰ	-10.2267
▁CZK	-10.2267
should	-10.2268
▁ਹਿੰਸਾ	-10.2269
▁Hotel	-10.2269
ambia	-10.227
▁ਫ੍ਰੀ	-10.227
999	-10.2271
▁ਕੱਢ	-10.2276
arrow	-10.2282
pg	-10.2298
▁Best	-10.2298
Tag	-10.2308
▁ਫਿਕਸ	-10.2313
▁ਰੂਮ	-10.2316
IC	-10.2324
tions	-10.2334
▁ਸਹਿਯੋਗੀ	-10.2334
▁Ontario	-10.2335
▁ਪਰੋਟੋਕਾਲ	-10.2335
▁ਭਾਈਚਾਰੇ	-10.2335
▁ਮੁਰੰਮਤ	-10.2335
▁XML	-10.2335
waters	-10.2335
ELEX	-10.2335
ੱਤੇ	-10.2338
▁GB	-10.2339
▁ਤਲ	-10.2343
ther	-10.2349
▁ਚੁਣ	-10.2353
ਹੇਨ	-10.2354
ਨਿਵਾਸ	-10.2354
▁DC	-10.2355
▁set	-10.2357
ਛਾਤੀ	-10.2358
▁ਸ਼ਾਮ	-10.2361
ory	-10.2364
▁ਚੰਦ	-10.2371
ਬਾਦ	-10.2382
▁ਬੱ	-10.2393
▁ਉਪਯੋਗ	-10.2397
▁WordPress	-10.2403
▁ਥਰਿੱਡ	-10.2403
▁ਪ੍ਰਸਾਰਣ	-10.2403
▁ਮੁਲਾਕਾਤ	-10.2403
▁ਨਿਯਤ	-10.2403
▁ਸੰਪੂਰਨ	-10.2403
▁republic	-10.2404
▁ਪਾਪ	-10.2406
vent	-10.2409
ero	-10.2411
▁ਫੰਡ	-10.2413
▁up	-10.2418
xi	-10.242
ਬੋਰਡ	-10.2421
▁translations	-10.2426
▁comp	-10.2426
▁translated	-10.2426
insta	-10.2427
▁86-5	-10.2433
▁ਵਰਤਦਾ	-10.2438
▁GP	-10.244
ਐਕਸਯੂ	-10.2442
▁ਵਧਾ	-10.2454
▁TS	-10.2458
ions	-10.2459
900	-10.2463
▁ਖਪਤ	-10.2471
▁ਤਰਜੀਹ	-10.2472
▁ਸੰਮੇਲਨ	-10.2472
▁Spain	-10.2472
RI	-10.2472
ring	-10.2472
▁ਬਕਸੇ	-10.2474
OP	-10.2475
▁ਅਦਾਕਾਰ	-10.2479
▁ਦੱਸੋ	-10.2484
pc	-10.2497
ING	-10.2499
bb	-10.25
ਵਾਪਸ	-10.2503
▁CE	-10.2504
ju	-10.2509
▁ਟੈਸਟਿੰਗ	-10.2516
ਭਾਵ	-10.2526
ਪਸ	-10.2529
▁ਤੁਹਾਨ	-10.254
д	-10.254
▁Instagram	-10.254
▁ਤੱਥ	-10.254
ਗਿੱਟੇ	-10.2541
▁ਮਾਊਂਟ	-10.2541
▁Adder	-10.2542
▁ਕਲਾਇਟ	-10.2542
▁ਲੈਵਲ	-10.2548
▁si	-10.2548
▁HTTPS	-10.2549
▁ਸ਼ਕਲ	-10.2549
ਾਰਾ	-10.255
▁ਗੋਰੀ	-10.2555
▁ਸ਼ਿਕਾਰ	-10.2558
ਲਿਸਟ	-10.2565
ਵਾਲ	-10.2566
▁Top	-10.2567
ਪਿਛਲੇ	-10.257
oli	-10.2576
▁ਪ੍ਰਾ	-10.2592
ਟੀਨ	-10.2597
▁ਪੈਰਾ	-10.2597
2.5	-10.2599
▁list	-10.2599
UP	-10.26
tter	-10.2602
▁ਰਹੀਆਂ	-10.2604
▁ਲਗ	-10.2606
н	-10.2606
▁ਨਵੀਨਤਮ	-10.261
▁ਮਹੱਤਵਪੂਰਣ	-10.261
▁ਆਯਾਤ	-10.261
▁ਹਲਕੇ	-10.261
▁interface	-10.261
▁ਕਸਰਤ	-10.261
▁ਕਾਗਜ਼	-10.261
val	-10.261
▁ਬਾਈਬਲ	-10.2611
▁some	-10.2614
▁ਖੇਤਰਾਂ	-10.2615
▁etc	-10.2617
▁ਵੰਡਿਆ	-10.2621
▁ਸਫ਼ਰ	-10.2623
▁ਵਿਦੇਸ਼	-10.2629
ਬਿੱਲੀ	-10.2641
▁ਸਮੁੰਦਰ	-10.2643
▁ਹੋਣਗੇ	-10.2645
ros	-10.2645
▁2007	-10.2647
ਬਾਜ਼ੀ	-10.2649
ਕੋਨ	-10.2651
▁Shenzhen	-10.2652
JS	-10.2659
ਰਾਜ	-10.2662
km	-10.2663
ਵਿੰਗ	-10.2663
▁ਬਿਮਾਰੀ	-10.2671
▁Jin	-10.2675
▁ਮਰਦ	-10.2677
▁ਡਿਜ਼ੀਟਲ	-10.268
▁ਲਰਨਿੰਗ	-10.268
▁ਲੱਛਣ	-10.268
▁ਟਾਕਰੇ	-10.268
▁ਆਦੇਸ਼	-10.268
▁ਸਲੇਟੀ	-10.268
280	-10.268
phone	-10.2682
110	-10.2686
▁ਭਾਲ	-10.2691
ਹਾਈ	-10.2693
https	-10.2697
▁ਜਾਣਗੇ	-10.2703
▁ਵਿਸ਼ਾਲ	-10.2708
0.8	-10.271
ੈਂਪ	-10.2712
▁65	-10.2723
▁51	-10.2733
DE	-10.2749
quot	-10.275
▁Mag	-10.275
NamePossessive	-10.275
▁ਇਜਾਜ਼ਤ	-10.275
▁ਬੇਹਤਰੀਨ	-10.275
▁ਵਾਇਰਲੈੱਸ	-10.275
▁ਕਾਰਟੂਨ	-10.275
▁ਭਾਵੇਂ	-10.275
▁ਘੁ	-10.2753
▁1200	-10.2761
▁ਸਮੱਸਿਆਵਾਂ	-10.2764
ਿਜ	-10.2767
▁ਚਿੱ	-10.2769
▁ਨਹ	-10.277
gy	-10.2772
▁ਦਵਾਈਆਂ	-10.2778
0.5	-10.278
ਫ੍ਰ	-10.2781
NC	-10.2787
nes	-10.2795
ਅੱਖ	-10.2798
ਟੈ	-10.2803
hot	-10.2805
▁aze	-10.2809
▁ਅਪਣਾ	-10.2817
у	-10.2821
ਤਕਰੀਬਨ	-10.2821
	-10.2821
▁device	-10.2823
DF	-10.2826
▁ਸੰਤਰੀ	-10.2829
▁ਸਤਿ	-10.2834
link	-10.2835
▁ਈਸਟ	-10.2835
CO	-10.2838
▁ਭੁ	-10.284
list	-10.284
▁ਰੋਕੋ	-10.2845
RW	-10.2847
▁1500	-10.2852
ਵਾਸ	-10.2853
▁ੂੰ	-10.2853
ਸੂਰਜ	-10.2857
ਉਦਾਹਰਨ	-10.2859
ਿਜ਼	-10.2859
ਅੱਗੇ	-10.2859
aire	-10.2865
▁Str	-10.2867
▁ਧੁਰ	-10.2876
ਜੂ	-10.2887
inder	-10.2887
9.99	-10.2889
▁ਸੰਤੁਲਨ	-10.2893
▁ਥੱਲੇ	-10.2893
▁ਨੈਸ਼ਨਲ	-10.2893
▁ਪੁਲਿਸ	-10.2893
▁ਮਦੀਨਾ	-10.2893
▁ਪਰਾਪਤ	-10.2893
html	-10.2893
DN	-10.2895
iz	-10.2896
▁ਕਿਸਮਾਂ	-10.2897
ਪਤੀ	-10.2898
code	-10.291
fo	-10.2912
ੈਸਟ	-10.2916
sch	-10.2922
▁ਲੌ	-10.2928
▁ਚੱਲਣ	-10.2933
▁ਕੈਨ	-10.2934
▁ਚਾ	-10.2936
▁ਦਾਇਰ	-10.2946
ram	-10.2946
▁66	-10.2957
ਮਿਕ	-10.296
▁ਅਚਾਨਕ	-10.2965
▁ਪਵਿੱਤਰ	-10.2965
▁ਫਲੈਗ	-10.2965
▁ਸੰਚਾਲਿਤ	-10.2965
▁ਸ਼ੋ	-10.2966
▁ਕਮਰ	-10.297
ally	-10.2972
▁ਚਰਚਾ	-10.2978
Pri	-10.2984
ਚੰਦਨ	-10.2985
ਪਾਲ	-10.299
▁ਆਰਟ	-10.3005
Description	-10.3006
▁ਪਾਉਣ	-10.3011
▁ਕੇਅਰ	-10.3013
▁ਟਿਊ	-10.3027
bra	-10.303
▁ਲੋੜਾਂ	-10.3031
ਵੇਅਰ	-10.3033
▁ਮੁਸਲਮਾਨ	-10.3037
▁ਪਿੱਤਲ	-10.3037
mg	-10.3037
▁ਕਪਾਹ	-10.3038
IF	-10.3042
▁46	-10.3043
▁ਅਗਲੀ	-10.3047
▁ਆਰਮੀ	-10.3049
▁ਬੀਚ	-10.3049
ਲ੍	-10.305
avi	-10.3052
▁ਭਰਾ	-10.3054
▁ਕਮ	-10.3055
ਨੇਟ	-10.3061
ਫਾਈ	-10.3065
tar	-10.307
▁ਪਾਲ	-10.3074
▁ਕੁਦਰਤ	-10.3074
▁SE	-10.3079
NE	-10.3086
▁Ka	-10.3086
▁0.3	-10.3091
▁ਪੇਟ	-10.3092
▁ਰੇਤ	-10.3096
▁May	-10.3099
▁ਤਾਰਾ	-10.3099
700	-10.3104
▁NO	-10.3107
ੂੰ	-10.3107
HT	-10.3109
▁ਇੰਦਰਾਜ਼	-10.311
ਮਹਿੰਦੀ	-10.311
▁YouTube	-10.3111
▁ਲੰਮੇ	-10.3111
▁ਅਸਾਨ	-10.3114
▁ਅਰਜ਼ੀ	-10.3116
6.5	-10.3118
▁ਸੰਭਾਲਿਆ	-10.3124
▁ਓਵਰ	-10.3126
Indian	-10.3132
▁1.2	-10.3134
hua	-10.315
▁free	-10.3153
text	-10.3157
▁mod	-10.3159
▁RE	-10.3163
▁ਬਚਣ	-10.3164
▁Pi	-10.3166
cho	-10.3167
▁ਹਟਾਉਣਾ	-10.317
ੌਸ	-10.3173
к	-10.3182
▁ਕੁਆਲਿਟੀ	-10.3184
▁ਟਾਇਟਲ	-10.3184
▁ਫਰਨੀਚਰ	-10.3184
▁ਮਕੈਨੀਕਲ	-10.3184
▁ਪ੍ਰੀਖਿਆ	-10.3184
▁spain	-10.3184
▁ਕ੍ਰਿਸਮਸ	-10.3184
▁ਗਣਨਾ	-10.3184
▁ਖਰਾਬ	-10.3184
▁ਸੂਟ	-10.3184
▁ਜਨਮਦਿਨ	-10.3184
▁ਕਰਾਂਗੇ	-10.3184
ini	-10.3185
▁ਇੰਕ੍ਰਿਪਟ	-10.3185
ਦੁ	-10.3185
▁ਆਇਰਨ	-10.3186
▁ਰਹਿੰਦਾ	-10.3189
156	-10.3193
▁฿	-10.3194
▁ਉਸਨੂੰ	-10.3202
ਪੁ	-10.3207
▁ਗਰ	-10.3207
cd	-10.3207
▁38	-10.3214
▁ਉਸਦੇ	-10.3214
ਸ਼ਟ	-10.3214
-18	-10.3224
ech	-10.3231
▁ST	-10.3235
▁ਅੱਠ	-10.3235
▁casino	-10.3243
▁bo	-10.3249
▁ਆਬਜੈਕਟ	-10.3258
▁ਨਤੀਜਿਆਂ	-10.3258
▁ਸੋਡੀਅਮ	-10.3258
▁ਤਸਦੀਕ	-10.3258
▁ਦਿਮਾਗ	-10.3258
▁ਅਤੀਤ	-10.3258
facebook	-10.3258
▁ਜਿਹਾ	-10.3262
▁ਮਾਸਕ	-10.3264
ਫੋਨ	-10.3264
TF	-10.3267
▁47	-10.327
▁MH	-10.3271
▁ਏਸ਼ੀਆਈ	-10.3272
▁News	-10.3273
ania	-10.3276
▁04:	-10.3277
ਦਿ	-10.328
▁ਸੁਣਨ	-10.3283
7.5	-10.3284
▁ਭਾਵ	-10.3292
CE	-10.3296
▁350	-10.3296
140	-10.3306
ਕਰਣ	-10.3315
ਥੋ	-10.3315
row	-10.3316
▁ਗੋਲਡ	-10.3317
ਤਮਕ	-10.3327
▁ukraine	-10.3332
▁Jailbreak	-10.3332
▁MySQL	-10.3332
▁ਐਟਲਾਂਟਿਕ	-10.3332
▁ਵਿਰੁੱਧ	-10.3332
▁ਸ਼ੋਸ਼ਣ	-10.3332
▁ਸੰਭਾਵੀ	-10.3332
▁ਆਕਾਸ਼	-10.3332
▁ਘਾਟ	-10.3335
ible	-10.3347
days	-10.3348
▁ਕਾਂਗ	-10.3351
LD	-10.3351
▁ਖਾਣ	-10.3359
tting	-10.336
gra	-10.3363
▁ਆਫ਼	-10.3365
▁ਸੋਲਰ	-10.3367
▁Hat	-10.3377
▁ਸੰਤ	-10.3389
▁ਜੋੜਿਆ	-10.3398
amb	-10.3398
▁ਦਬਾਉ	-10.3405
▁one	-10.3406
ithuania	-10.3407
▁welded	-10.3407
▁ਖਿੜੇਗਾ	-10.3407
▁ਚੁਣੌਤੀ	-10.3407
▁ਦਰਵਾਜ਼ੇ	-10.3407
▁ਆਪਟੀਕਲ	-10.3407
source	-10.3408
▁ਬਲਾਗ	-10.3409
▁ਬਿਆਨ	-10.341
▁ਡੂੰਘਾਈ	-10.341
▁ਟੂਲਬਾਰ	-10.341
▁Fu	-10.341
406	-10.3412
▁ਟੇ	-10.3414
▁ਜੁੜਿਆ	-10.3416
ments	-10.3416
▁ਸਨਮਾਨ	-10.342
▁ਲਾਈਫ	-10.343
ਲੀਆ	-10.3431
ਫੋ	-10.3435
▁mol	-10.3438
▁ਨਮੀ	-10.3439
gar	-10.344
▁ਰੁਕ	-10.3443
▁ਚਾਰਟ	-10.3448
▁ਕੁਲ	-10.3454
▁ਵਿੱਤ	-10.3456
CN	-10.3472
▁ਛੁੱਟੀ	-10.3474
▁ਗ਼ੈਰ	-10.3483
▁ਗੁੰਝਲਦਾਰ	-10.3483
▁ਸਾਇੰਸ	-10.3483
▁ਸਿਲੰਡਰ	-10.3483
▁ਪੋਸ਼ਣ	-10.3483
romania	-10.3484
▁ਕੈਰੀਅਰ	-10.3484
▁ਲੜੀਬੱਧ	-10.3485
▁ਦਬਾਓ	-10.3485
▁ਉਤਸ਼ਾਹਿਤ	-10.3485
▁ਧੰਨ	-10.3485
▁ਟਾਸਕ	-10.3486
ਰਿਕ	-10.3488
▁ਸਥਾਈ	-10.3489
▁ਲਓ	-10.3491
ਜੁ	-10.3493
▁ਆਰਾਮ	-10.3493
▁Mu	-10.3503
ੰਧ	-10.3504
ਬੰਦੀ	-10.3508
RO	-10.3515
▁ਉਸਨੇ	-10.3523
VI	-10.353
▁ਜੰਗ	-10.3538
zi	-10.3543
ਜੋੜੇ	-10.3544
ਸੀਡੀ	-10.3545
▁ਅਤਿ	-10.3545
-2017	-10.3546
▁3.5	-10.355
▁ਪਾਲਣ	-10.3551
▁ਭਰੋ	-10.3552
▁play	-10.3552
▁bearings	-10.356
▁ਓਰਪੇਕ	-10.356
▁ਟੋਟੂਜ਼	-10.356
▁ਡਿਜਿਕੈਮ	-10.356
▁ਸਦੱਸ	-10.356
▁Italy	-10.356
▁ਸਬੂਤ	-10.356
▁ਹੋਵੋਗੇ	-10.3563
tablet	-10.3572
ley	-10.3574
▁ਅਟੈਚਮੈਂਟ	-10.3578
▁app	-10.3581
▁ਨਿਕਲ	-10.3583
ਵਿਚ	-10.3598
wo	-10.361
▁Dr	-10.3617
੨	-10.3618
Region	-10.3619
▁23,	-10.3619
▁ਭੁੱਲ	-10.3631
▁ਵੱਖਰੀ	-10.3632
▁ਕੰਪ੍ਰੈਸ਼ਰ	-10.3636
▁ਦੁੱਧ	-10.3636
▁ਯੂਹੰਨਾ	-10.3636
▁ਸੰਪੂਰਣ	-10.3636
▁ਉਡਾਣ	-10.3636
▁ਸਾਹਮਣਾ	-10.3636
▁ਨਾਗਰਿਕ	-10.3636
▁ਗ੍ਰਾਮ	-10.3636
▁ਆਬਾਦੀ	-10.3636
▁ਵਾਪਰ	-10.3637
▁ਇਥੇ	-10.3639
▁ਲੋੜੀਦੀ	-10.3639
pur	-10.3639
▁ਸੰਬੰਧੀ	-10.3644
▁gr	-10.3648
▁72	-10.3653
▁our	-10.3658
gram	-10.366
ski	-10.3668
izer	-10.3673
▁124	-10.3679
▁ਸਪੇਨ	-10.3681
ole	-10.3681
NA	-10.3689
▁Slot	-10.3689
down	-10.369
PR	-10.3703
TI	-10.3704
rid	-10.371
ਪੋਰ	-10.3711
ਸਟੋਰ	-10.3713
▁ਅਨੁਪਾਤ	-10.3714
▁ਇੰਟਰਨੈਸ਼ਨਲ	-10.3714
▁ਮੋਲਡਿੰਗ	-10.3714
▁ਸਭਿਆਚਾਰ	-10.3714
▁ਪਸ਼ੂ	-10.3714
▁Short	-10.3716
ੰਦਾ	-10.372
▁ਪ੍ਰਚਾਰ	-10.3722
▁pu	-10.3724
▁ਲਗਦਾ	-10.3724
▁li	-10.3724
book	-10.3726
▁ਲੱਭੀ	-10.3733
▁ਨਰਸ	-10.3745
ease	-10.3754
▁ਮਲ	-10.3771
▁ਸਾਜ਼	-10.3775
▁ਹੰ	-10.3776
ino	-10.3778
ਟਵਿੱਟਰ	-10.3779
Punjabi	-10.3779
weather	-10.3779
▁ਵਾਰੀ	-10.3781
ku	-10.3783
੦੦	-10.3783
ਟ੍ਰੋ	-10.3787
use	-10.379
▁ਕਾਵਾਸਾਕੀ	-10.3792
▁ਡਰਾਇੰਗ	-10.3792
▁ਸ਼ਕਤੀਸ਼ਾਲੀ	-10.3792
▁Service	-10.3792
▁Posted	-10.3792
▁♪	-10.3793
▁ਲੋਗੋ	-10.3794
help	-10.3797
▁ਉਠ	-10.38
▁fr	-10.3802
▁ਕਮੀ	-10.3803
▁ਹਿੱਟ	-10.3804
ਪਾਈ	-10.3808
▁ਭਾਸ਼ਾਵਾਂ	-10.3817
ted	-10.3825
▁ਸੱਟ	-10.3833
ਬੰਦ	-10.3839
▁HP	-10.3848
tre	-10.3854
ਟੇਨ	-10.3857
ਲਾਈਟ	-10.3862
tors	-10.3863
ual	-10.3866
▁ਪੁਰਾਣਾ	-10.3867
▁ਸਟਾਰ	-10.3869
▁ਕ਼ਿੰਗਦਾਓ	-10.3871
▁ਸਮਰਪਿਤ	-10.3871
▁ਸਾਹਮਣੇ	-10.3871
👉	-10.3871
▁ਲੈਂਦੇ	-10.3871
▁ਗੈਲਨ	-10.3871
▁short	-10.3871
▁ਮਾਨਤਾ	-10.3872
ਫਾਰਮ	-10.3872
Title	-10.3873
▁ਲੱਤ	-10.3873
nn	-10.3873
▁ਚਿੱਟਾ	-10.3874
▁130	-10.3881
▁ਮੋਰੀ	-10.3883
410	-10.3892
ੰਗਾ	-10.3896
ਿੱਟ	-10.3909
▁ਰਸਾਇਣ	-10.3915
ਮੰਦ	-10.3919
ਗਰਾ	-10.3919
ਪਣ	-10.3923
202	-10.3925
▁ਮਿਲਦੀ	-10.3928
▁AS	-10.3929
ਸਾਰੇ	-10.3932
cast	-10.3939
▁ਡਿਪ	-10.3943
ਕਿਨ	-10.3946
▁War	-10.3949
iff	-10.395
transaction	-10.395
▁ਪਰਾਕਸੀ	-10.395
▁ਪੁਰਾਣੀ	-10.395
▁ਪੋਡਕਾਸਟ	-10.395
▁ਪ੍ਰੋਸੈਸਿੰਗ	-10.395
▁ਫੁਟਕਲ	-10.395
▁ਬਰਾਸੀਰੋ	-10.395
▁ਮਹੀਨਿਆਂ	-10.395
▁ਇਕੱਠਾ	-10.395
ਰਾਸ਼ਟਰ	-10.395
▁ਵਾਰੰਟੀ	-10.3951
▁ਪੈਂ	-10.3951
new	-10.3952
▁Opera	-10.3953
▁ਫੋਰਸ	-10.3955
uang	-10.3959
▁ਕੱਦ	-10.396
▁ਐਚਡੀ	-10.3962
▁ਹਮੇਸ਼ਾਂ	-10.3963
PI	-10.3965
USD	-10.3965
▁MB	-10.3968
ਨਲਾਈਨ	-10.3968
▁ਰਜਿਸਟਰਡ	-10.3975
▁ਡਬਲਯੂ	-10.3978
Tube	-10.3979
lit	-10.3983
201	-10.3983
▁ਰੌ	-10.3984
ਨਿਸ਼	-10.3987
▁ਯੂਰਪੀ	-10.3993
▁ਪ੍ਰਭਾਵਾਂ	-10.3996
eek	-10.3999
oz	-10.3999
▁ਜੁੜਨ	-10.4002
porn	-10.4009
▁240	-10.4011
QShortcut	-10.4022
~	-10.4023
▁ਕੋਸ਼ਿਸ	-10.4028
▁modified	-10.403
▁ਲਾਇਸੰਸ	-10.403
▁ਫਾਰਮੂਲਾ	-10.403
▁ਸੀਬੀਡੀ	-10.403
▁php	-10.4031
exico	-10.4031
▁ਵਾਲਿਆਂ	-10.4038
▁700	-10.4039
▁ਪ੍ਰੋਮੋ	-10.4047
▁ਵਾਚ	-10.4048
ouse	-10.4051
▁ਤਿਆਰੀ	-10.4064
ank	-10.4064
▁ਭੇ	-10.4072
▁TV	-10.4075
▁see	-10.4078
▁ਪਹੁੰਚਣ	-10.4081
pack	-10.4084
late	-10.4101
▁tab	-10.411
▁ਡਿਲਿਵਰੀ	-10.4111
▁ਡੱਬਾ	-10.4111
▁ਬੁਰਸ਼	-10.4111
▁ਲੇਆਉਟ	-10.4111
▁Brand	-10.4112
▁Viber	-10.4113
▁ਖੂਨ	-10.4114
afe	-10.4116
▁ਨਰਮ	-10.4117
▁ਦਿਖਾਈ	-10.4118
▁ਦਹਿ	-10.4119
ਂਟ	-10.412
▁ਪੜ੍ਹਿਆ	-10.4122
▁ਬ੍ਰਿਟਿਸ਼	-10.4128
ਾਇਰ	-10.4129
ਸ਼ਿ	-10.4138
ector	-10.414
ੈਸ਼ਨ	-10.4147
▁≥	-10.4149
▁fin	-10.4156
!!!	-10.4169
ren	-10.4173
▁kr	-10.4176
▁Ni	-10.4179
ਕਿਊ	-10.418
De	-10.4187
ਤਕਨੀਕੀ	-10.4189
▁error	-10.4192
▁ਰੁਝਾਨ	-10.4192
▁ਸ਼ਾਰਟਕੱਟ	-10.4192
▁ਚੁਦਾਈ	-10.4192
▁ਵਰਚੁਅਲ	-10.4192
▁ਮਿਰਰ	-10.4193
▁textbox	-10.4193
ification	-10.4193
▁ਸੁਆਦ	-10.4193
Type	-10.4194
▁cu	-10.4194
▁ਕਾਰਜਕਾਰੀ	-10.4198
▁ਟਾਈ	-10.4199
▁ਤੁਹਾਡੀਆਂ	-10.42
▁Bit	-10.42
▁ਸੂਈ	-10.4204
▁ਕੱਚੇ	-10.4206
▁ਸਿਖ	-10.4208
ਇੰਗ	-10.4208
▁ਸਿੱਖੋ	-10.421
ਥਰ	-10.4212
eh	-10.4213
bus	-10.4216
▁ਪੂਰਬੀ	-10.4219
▁PA	-10.4225
rge	-10.4232
inter	-10.4234
888	-10.4241
▁ਰੂਸ	-10.4241
▁ਚੁਣਨ	-10.4243
▁Man	-10.4243
dia	-10.4262
▁ਐਪਲ	-10.4264
▁View	-10.427
fghanistan	-10.4274
▁municipal	-10.4274
▁ਇਕਸਟੈਨਸ਼ਨ	-10.4274
▁ਮਲਕੀਅਤ	-10.4274
▁ਫਿਟਿੰਗਸ	-10.4274
▁ਲਾਜ਼ਮੀ	-10.4274
▁Tra	-10.4274
▁ਜਾਣਗੀਆਂ	-10.4274
style	-10.4275
ceania	-10.4276
▁ਦੋਸਤਾਨਾ	-10.428
▁ਗੇਅਰ	-10.4282
FS	-10.4285
▁ਪੇਸ਼ਗੀ	-10.4285
▁ਮਿਸ਼ਨ	-10.4288
▁ਸ਼ੱਕ	-10.4291
lat	-10.4293
▁ਬਣੇ	-10.4294
▁ਡ੍ਰ	-10.4294
ara	-10.4294
ਫੋਰ	-10.4298
▁ਓਰ	-10.431
ਖਣ	-10.4315
▁ਇਨਕਾਰ	-10.4315
rac	-10.4318
▁41	-10.4322
▁0.7	-10.4327
ਠੀ	-10.4329
ਪਲੇ	-10.433
180	-10.4336
▁ਸਰੀਰਕ	-10.4352
▁`	-10.4352
▁California	-10.4357
▁ਭੂਮਿਕਾ	-10.4357
ਬ੍ਰਾਜ਼ੀਲ	-10.4357
▁ਿਲਵਿੰਗ	-10.4357
▁ਇਟਲੀ	-10.4357
▁ਵਕੀਲ	-10.4357
official	-10.4357
▁ਬਰਤਨ	-10.436
▁ਲਿਆਉਣ	-10.4361
MS	-10.4365
▁china	-10.437
▁Manufacturer	-10.4379
ਸੈ	-10.4383
▁ਵਰਤਦੇ	-10.4385
▁ਘੜੀ	-10.4391
▁East	-10.4394
▁ਪਾਥ	-10.4401
url	-10.4406
ਸ੍ਟ	-10.4407
ham	-10.4408
▁ਕੁਨੈਕਟਰ	-10.441
▁Porn	-10.4416
▁ਬਾਈ	-10.4419
ਮਾਰਕ	-10.4434
olombia	-10.444
▁Follow	-10.444
▁ਗਰਿੱਡ	-10.444
▁ਜਿਹਨਾਂ	-10.444
▁ਮੁਹਾਰਤ	-10.444
▁ਥਾਮਸ	-10.444
੯	-10.444
▁ਅਵਾਰਡ	-10.444
▁ਲੰਡਨ	-10.444
▁ਆਉਂਦੀ	-10.444
arnar	-10.444
ਡਿਊਟੀ	-10.444
▁ਸਾਈਕਲ	-10.444
ਖੋਪੜੀ	-10.444
2005-2018	-10.444
▁ਲਟਕ	-10.4441
▁ਗੁੰਮ	-10.4442
▁ਪਵੇਗਾ	-10.4443
HZ	-10.4444
ੀਂ	-10.4453
▁ਰੇਲਵੇ	-10.4456
ਗੁਲਾਮ	-10.4456
punjab	-10.4456
ano	-10.4457
ਲੈਸ	-10.4468
▁ਸਰਗਰਮੀ	-10.4473
▁ਰਿਪ	-10.4485
pu	-10.4494
iran	-10.4501
ੈਂਡਰ	-10.4501
▁At	-10.4501
yo	-10.4502
▁ਹਾਲੇ	-10.4517
▁ਅੱਖ	-10.4518
edit	-10.4518
▁ਐਕਸਐਕਸਐਲ	-10.4524
▁ਟੁਕੜਾ	-10.4524
▁ਰਿਕਵਰੀ	-10.4524
▁AUD	-10.4524
turn	-10.4528
▁ਕਹਿਣਾ	-10.4528
`	-10.4529
▁ਕੌਮੀ	-10.4529
▁ਦੁਨੀਆਂ	-10.453
▁ਬਰਫ	-10.4534
▁ਸਪਿਨ	-10.4537
▁ਛਾਪੋ	-10.4538
▁4.0	-10.4544
▁Tian	-10.4544
ੈੱਟ	-10.4554
ਟੈਨ	-10.4564
▁ਲੜ	-10.4569
file	-10.4576
ਹਰੇ	-10.4578
230	-10.4582
▁ਕੱਢਣ	-10.4587
ਇੰਟ	-10.4608
indonesia	-10.4609
▁Squirting	-10.4609
▁ਡੇਬੀਅਨ	-10.4609
▁ਪ੍ਰੀਮੀਅਮ	-10.4609
▁ਵਰਟੀਕਲ	-10.4609
▁ਵਿਵਸਥਾ	-10.4609
▁ਵੁਰਚੁਅਲ	-10.4609
▁ਸਪੈਕਟ੍ਰਮ	-10.4609
▁ਸ਼ੁੱਕਰਵਾਰ	-10.4609
▁ਸੱਚਮੁੱਚ	-10.4609
ā	-10.4609
▁ਕਲਾਉਡ	-10.4609
▁ਸਰਵਿਸਿਜ਼	-10.461
trac	-10.4611
▁ਆਮਦਨ	-10.4612
▁ਲੰ	-10.4613
▁Nu	-10.4616
ਮੈਨੂੰ	-10.4618
▁ਨਾਈਟ	-10.4619
gmail	-10.4632
▁ਜ਼ਰੂਰ	-10.4646
ਬਾਨ	-10.4646
▁ਅਨੁਕੂਲਤਾ	-10.4662
▁ਘਣ	-10.4666
ਸਭ	-10.4678
rp	-10.4679
▁ਵੈਲ	-10.4682
WS	-10.4684
▁ਕਰਦੀਆਂ	-10.4687
▁ਕਿਲੋ	-10.4688
­	-10.4694
▁Hebei	-10.4694
▁diffuser	-10.4694
▁ਇਸ਼ਨਾਨ	-10.4694
▁ਮਿਸਾਲ	-10.4694
mobile	-10.4695
▁North	-10.4695
▁South	-10.4695
couple	-10.4695
▁ਜਰਨਲ	-10.4695
▁network	-10.4695
ਹਾਊਸ	-10.4695
▁ਮਨਜ਼ੂਰੀ	-10.4696
▁ਸਫਲ	-10.4697
mal	-10.4699
▁ਸਬੰਧਿਤ	-10.4699
▁ਮੌਜੂਦਗੀ	-10.4704
1.0	-10.4705
ਜਿਵੇਂ	-10.4706
▁post	-10.471
▁My	-10.4711
SE	-10.4721
ਾਤਮਕ	-10.4727
▁travel	-10.4729
iya	-10.4731
▁dev	-10.4746
▁there	-10.4746
ੌਂ	-10.4746
▁ਦਿੱਤੀਆਂ	-10.4747
uct	-10.4749
▁ਕੈਡ	-10.4758
ਟੈਬਲੇਟ	-10.4766
੍ਰੈ	-10.477
▁ਇਤਿਹਾਸਕ	-10.4775
time	-10.4776
yang	-10.478
▁ਮੂੰਹ	-10.4781
▁ਅਲਕੋਹਲ	-10.4781
▁ਐਂਡਰਾਇਡ	-10.4781
▁ਕਮਿਊਨਿਟੀ	-10.4781
▁ਸੁਤੰਤਰ	-10.4781
▁ਠੰਡਾ	-10.4781
▁Smart	-10.4781
▁ਬ੍ਰਾਂਡ	-10.4781
▁magnets	-10.4781
▁ਪ੍ਰੋਟੀਨ	-10.4782
▁ਐੱਚ	-10.4784
▁с	-10.4784
music	-10.4784
▁Tank	-10.4792
▁ਕੱਚਾ	-10.4796
▁ਏਸ	-10.4797
▁UK	-10.4826
ਮੀਟਰ	-10.4837
ਾਉਂਦੀ	-10.4838
oxy	-10.4848
▁SH	-10.4853
▁DI	-10.4853
▁net	-10.4854
tru	-10.4856
▁ਫੜਨ	-10.4857
▁HTTP	-10.4857
▁ਰਾਇ	-10.486
▁ਬਦਲੀ	-10.4861
lator	-10.4862
▁ਖੇਤ	-10.4863
॥	-10.4867
▁Deutsch	-10.4867
▁ਏਜੰਸੀ	-10.4867
▁ਕਸ਼ਮੀਰ	-10.4867
▁ਟੁੱਟ	-10.4867
▁ਥਰਮਲ	-10.4868
▁ਰੀਲੇਅ	-10.4868
▁ਸੋਮਵਾਰ	-10.4868
▁ਸੈਲਾਨੀ	-10.4868
▁ਸਾਬਤ	-10.4868
▁ਹਾਰਮੋਨ	-10.4868
▁ਸਮਗਰੀ	-10.4869
▁ਸੈਕਟਰ	-10.4869
▁ਲੇਅਰ	-10.4869
▁ਸਰਕਟ	-10.4871
▁ਆਉਂਦੇ	-10.4871
▁ਚੜ੍ਹ	-10.4873
▁ਵਰਤਮਾਨ	-10.4875
▁ਦਿਉ	-10.4877
▁ਭੁੱਲੋ	-10.4878
▁ਸੋਚਦੇ	-10.488
ira	-10.4885
▁(3)	-10.4889
ਬੰਧ	-10.4893
▁ਮਿਲਦਾ	-10.4902
ਘਰ	-10.4905
▁Jo	-10.4908
▁Live	-10.4909
power	-10.4912
lam	-10.4914
▁Φ	-10.4918
▁ਯਕੀਨ	-10.4919
nch	-10.4928
▁PAR	-10.4931
ੈੱਸ	-10.494
▁Tech	-10.4946
▁ਲੰਬਕਾਰੀ	-10.4947
ender	-10.4951
▁This	-10.4953
▁ਉਤਸ਼ਾਹ	-10.4953
п	-10.4955
б	-10.4955
▁ਖੇਤੀਬਾੜੀ	-10.4955
▁ਮਿਲੀਗ੍ਰਾਮ	-10.4955
▁ਮੰਜ਼ਲ	-10.4955
▁National	-10.4955
▁ਵਾਟਰਪ੍ਰੂਫ਼	-10.4956
▁ਫਾਈਨਲ	-10.4956
755	-10.4956
▁900	-10.4956
▁Auto	-10.4957
▁ਆਰਪਿਕ	-10.4957
▁ਫਰੰਟ	-10.4957
▁ਰੀਲੀਜ਼	-10.4958
▁ਸੈੱਟਅੱਪ	-10.4959
▁ਸਰੂਪ	-10.4963
▁ਇੰਜੀਨੀਅਰਿੰਗ	-10.4963
▁ਖੰਡ	-10.4966
agg	-10.4971
▁ਚਾਰਜਰ	-10.4971
ਵੱਧ	-10.4972
rec	-10.4978
▁ਜੁੜੇ	-10.4981
ਲਿਆਂ	-10.4985
2.0	-10.4986
▁Gh	-10.4986
type	-10.499
▁ਲਿਖੇ	-10.4992
ਵਿਕ	-10.5
▁ਰੇਸ	-10.5006
▁Hong	-10.5008
ping	-10.5019
▁IC	-10.5022
▁ਅਧਿਆਪਕ	-10.5029
ਕੌ	-10.503
ever	-10.5033
-06	-10.5038
▁ਬੋਲੀ	-10.5043
orphek	-10.5044
system	-10.5044
▁CIBC	-10.5044
▁Teltonika	-10.5044
▁between	-10.5044
▁keyword	-10.5044
▁ਨਿਪੋਮੁਕ	-10.5044
▁ਇਲਾਕੇ	-10.5044
▁ਮੰਮੀ	-10.5044
ਦੋ	-10.5044
▁ਅਸਰਦਾਰ	-10.5047
▁ਹੱਬ	-10.5048
▁ਜ਼ੋਰ	-10.5049
▁VPS	-10.5053
▁ਲਏ	-10.5057
▁ਕੀਬੋਰਡ	-10.5057
▁ਭੇਜੇ	-10.5068
ਬੌ	-10.5068
▁Hua	-10.5073
ੁੱਲ	-10.5079
ਧਰ	-10.5081
▁ਸੈਨ	-10.5088
▁Copyrights	-10.509
▁ਦੱਖਣ	-10.5096
▁Trans	-10.5097
tube	-10.5101
▁Je	-10.5121
▁ਰਖ	-10.513
▁ਕ੍ਰਿਸ	-10.5131
WysLuxury	-10.5133
ਸੈਮੀਕੋਲਨ	-10.5133
ੳ	-10.5133
▁ਅਣਡਿੱਠਾ	-10.5133
▁ਫੈਸਲੇ	-10.5133
▁ਬਾਥਰੂਮ	-10.5133
▁ਮੈਗਜ਼ੀਨ	-10.5133
▁ਵਿਟਾਮਿਨ	-10.5133
▁ਝੂਠ	-10.5133
🚩	-10.5133
▁ਸਫ਼ਲ	-10.5133
▁ਪੱਕਾ	-10.5133
▁ਲਹਿਰ	-10.5134
▁ਦਿਖਾਇਆ	-10.5134
ization	-10.5136
▁ਲੌਰਾ	-10.5138
▁ਬਨਾਮ	-10.5139
▁if	-10.5145
▁ਸੀਰੀਅਲ	-10.5146
▁ਵਰਕਿੰਗ	-10.5146
▁0.6	-10.5146
▁ਖ਼ੁਸ਼ੀ	-10.5155
orn	-10.5161
▁650	-10.5166
ਲਿਟ	-10.5169
ough	-10.518
▁ਵੇਲ	-10.518
▁360	-10.5181
▁ਕਰੋਗੇ	-10.5181
utter	-10.5189
point	-10.5193
pot	-10.5194
rk	-10.5199
▁ਗੇਮ	-10.5202
▁ਕਾਸਟ	-10.5213
▁ਸਟਾਰਟ	-10.5215
▁ਆਨ	-10.5218
▁ਸਾਵਧਾਨ	-10.5219
▁Casinos	-10.5219
▁ਪਰਮਾਣਕਿਤਾ	-10.5223
▁ਸੰਤੁਸ਼ਟ	-10.5223
▁Concox	-10.5223
▁ਲਗਜ਼ਰੀ	-10.5223
▁ASTM	-10.5224
▁ਤੀਜੀ	-10.5224
▁ਬਕਸਾ	-10.5226
PT	-10.5229
▁ਘਣਤਾ	-10.5233
▁ਪਾਲਸੀ	-10.5234
ਪਾਸ	-10.5237
▁ਫੜ	-10.5251
▁ਲੂਤ	-10.5251
▁PRO	-10.5254
▁ਲਾਇਨ	-10.5259
tag	-10.5261
▁ਖੇਡੋ	-10.5274
▁ਯੂਕਰੇਨੀ	-10.5274
▁ਖ਼ਬਰ	-10.5276
ä	-10.5302
_______________	-10.5314
▁Health	-10.5314
▁ਅਡਜੱਸਟ	-10.5314
▁ਥੰਮਨੇਲ	-10.5314
▁ਪਾਲਿਸੀ	-10.5314
lgeria	-10.5314
▁ਜ਼ਿਲ੍ਹੇ	-10.5314
▁bra	-10.5315
▁ਭਾਈਵਾਲ	-10.5315
▁ਪਾਰਟਸ	-10.5316
▁ਜਿਹੀ	-10.5318
Sales	-10.5318
berg	-10.532
▁Power	-10.532
▁ਇੰਨ	-10.5321
ਆਊਟ	-10.5327
▁ਗੇਮਜ਼	-10.5329
SH	-10.5334
▁ਚੀ	-10.5335
▁ਗਰੀਨ	-10.5336
▁ਸਾਈਡ	-10.5341
▁ਸੰਘ	-10.5346
▁Gold	-10.5346
▁ਬੇਬੀ	-10.5346
ise	-10.5349
▁ਓਹ	-10.5355
off	-10.5371
▁Or	-10.5372
▁ਲੁਕ	-10.5372
▁Bill	-10.5376
▁ਵਿਦ	-10.538
▁2003	-10.5387
▁ਮਹਿ	-10.5396
▁Fun	-10.5402
punjabisinger	-10.5406
▁ਨਿਰਪੱਖ	-10.5406
▁University	-10.5406
▁sprites	-10.5406
▁ਤਨਖਾਹ	-10.5406
▁ਫਾਊਂਡੇਸ਼ਨ	-10.5406
▁ਵਿਵਹਾਰ	-10.5406
▁ਫਲੈਸ਼	-10.5406
▁ਫਾਇਦਾ	-10.5406
▁ਕੈਮਰੇ	-10.5406
▁HGH	-10.5406
▁ਭਿੰਨ	-10.5408
▁ਖਿਲਾਫ	-10.5408
▁ਸਾਕਟ	-10.5409
▁lib	-10.5418
media	-10.5423
▁add	-10.544
▁Xin	-10.5441
▁ਫੁ	-10.5444
▁ਜੈਕ	-10.5444
▁ਸਲਾਹਕਾਰ	-10.5448
▁ਇਮ	-10.5448
▁ਖਬਰ	-10.5453
▁ਫੀ	-10.5454
Pro	-10.5454
▁ਅਮਲ	-10.5458
▁ਜੰਗਲ	-10.5471
each	-10.548
▁ਰਾਖਵ	-10.5482
▁Plan	-10.5482
ਨਿਟੀ	-10.5484
car	-10.5491
▁ਟੈਪਲੇਟ	-10.5498
▁ਮੇਜ਼ਬਾਨ	-10.5498
▁ਯਹੋਵਾਹ	-10.5498
▁ਲਾਇਸੈਂਸ	-10.5498
▁ਸ਼ਨੀਵਾਰ	-10.5498
▁ਗਠਨ	-10.5498
▁ਸਮਕਾਲੀ	-10.5498
▁ਡੈਮਨ	-10.5499
▁ਜਾਣਦਾ	-10.5503
▁ਟਿਕਟ	-10.5504
▁QShortcut	-10.5508
▁It	-10.5511
je	-10.5515
▁ਮਿਕਸਰ	-10.5515
▁ਨਾਨਕ	-10.5516
lle	-10.5519
▁Region	-10.552
ਰੀਅਰ	-10.5524
▁ਸਾਂਝੇ	-10.5529
title	-10.5531
sis	-10.5539
▁450	-10.5544
▁ਮਾਰਿਆ	-10.5545
▁Cat	-10.5546
▁ਐੱਫ	-10.5549
▁ਲੱਗਾ	-10.555
▁ਵਿਅਕਤੀਆਂ	-10.5553
▁ਖ਼ਾਸ	-10.5553
▁ਵਿਗਿਆਨਕ	-10.5562
ii	-10.5567
▁ਮਸ	-10.557
▁q	-10.557
ane	-10.5584
ble	-10.5585
ute	-10.5588
twitter	-10.5592
▁Enterprise	-10.5592
▁ਅਮਰੋਕ	-10.5592
▁ਗੋਪਨੀਯਤਾ	-10.5592
▁ਪ੍ਰਾਰਥਨਾ	-10.5592
▁ਰਿਵਿਊ	-10.5592
▁ਪ੍ਰਦੇਸ਼	-10.5592
▁ਮਾਊਟ	-10.5592
▁ਅਹਿਮ	-10.5592
▁ਯਾਤਰੀ	-10.5593
▁ਸੈਰ	-10.5593
▁ਸਮੀਕਰਨ	-10.5593
▁ਬਰਨ	-10.5593
▁ਜਿੰਨਾ	-10.5594
▁ਲੜਾਈ	-10.5595
▁ਅਦਾ	-10.5596
▁ਗਿੱਲ	-10.5597
tric	-10.5597
TY	-10.5598
1.2	-10.5607
▁ਪਾਇਆ	-10.5618
▁ਰਾਇਲ	-10.562
ime	-10.5625
▁ਦੋਸ਼	-10.5631
ਬੱਧ	-10.5632
▁ਪੀਹ	-10.5635
pics	-10.5655
▁Pr	-10.5655
▁ਅਗ	-10.5663
▁UI	-10.5663
▁ਪੜ੍ਹੇ	-10.5663
▁ਕਾਰਵਾਈਆਂ	-10.5678
HD	-10.5678
▁ਇਨਸੂਲੇਸ਼ਨ	-10.5686
▁ਐਮਾਜ਼ਾਨ	-10.5686
▁ਨਿਯੁਕਤ	-10.5686
▁ਮਾਹੌਲ	-10.5686
▁ਸੈਂਟੀਮੀਟਰ	-10.5686
▁ਕਮਜ਼ੋਰ	-10.5686
▁ਐਡੀਸ਼ਨ	-10.5686
▁ਖੋਲਦਾ	-10.5686
▁ਸਕਾਈਪ	-10.5686
ਹੋਰ	-10.5689
▁ਕਰਨਗੇ	-10.5695
▁ਪੌਦੇ	-10.5695
ull	-10.5696
▁more	-10.5698
▁ਜੇਤੂ	-10.57
hor	-10.5701
▁ਸ਼ੋਅ	-10.5704
ada	-10.5707
▁ਵੈਟ	-10.5711
▁PM	-10.5711
€	-10.5723
▁ਜ਼ਿੰਮੇਵਾਰ	-10.5724
Porn	-10.5733
▁ਪ੍ਰੋਗਰਾਮਿੰਗ	-10.5739
wp	-10.5742
▁ਵਾਕ	-10.5744
ਆਮ	-10.5744
host	-10.5746
0-2	-10.5748
▁ਸ਼ੇ	-10.5749
ਭਾਗ	-10.5755
ੌਟ	-10.5757
0.9	-10.5763
eu	-10.5763
▁Tri	-10.5766
▁ਫੋਟੋਆਂ	-10.5769
GE	-10.577
ਐਪਲੀਕੇਸ਼	-10.5781
language	-10.5781
▁Ukraine	-10.5781
▁ਈਵੇਲੂਸ਼ਨ	-10.5781
▁ਬ੍ਰਾਉਜ਼ਰ	-10.5781
▁ਵਚਨਬੱਧ	-10.5781
▁ਸੁਵਿਧਾਜਨਕ	-10.5781
Transposh	-10.5781
▁ਆਈਪੈਡ	-10.5781
▁ਗਿਟਾਰ	-10.5781
▁learn	-10.5781
▁ਬੈਲਟ	-10.5781
▁ਸਵਰਗ	-10.5782
▁ਦੇਸ਼ਾਂ	-10.5783
▁ਘਟਾਓ	-10.5786
450	-10.5798
2006.	-10.5799
You	-10.5807
▁ਡਰਾਇਵਰ	-10.5816
▁ਖਰਚੇ	-10.5819
ਪਾਰਟੀ	-10.5821
EP	-10.5834
▁Sha	-10.5839
ism	-10.584
ਗਰੇ	-10.5846
ਿੰਕ	-10.5847
ਪਿਕ	-10.5851
▁ਸੁਧਾਰਨ	-10.5853
▁ਵਾਇਰਸ	-10.5855
▁AT	-10.5861
▁DJ	-10.587
115	-10.5875
ਅਪਾਰਟਮੈਂਟ	-10.5878
▁ਵਾਤਾਵਰਨ	-10.5878
я	-10.5878
▁ਸਕੂਟਰ	-10.5878
▁ਉੱਤਮ	-10.5878
▁Jiangsu	-10.5878
▁ਵਜ਼ਨ	-10.5878
▁ਔਪਟ	-10.5879
▁ਸਲਾਈਡ	-10.588
home	-10.588
}}	-10.588
▁ਵੈਧ	-10.5882
rank	-10.5883
▁ਮਿਲੀਅਨ	-10.5883
▁ਬਲੱਡ	-10.5885
ville	-10.5887
350	-10.5892
IR	-10.5893
▁ਵਾਟ	-10.5894
▁ਹੱਲ਼	-10.5896
-100	-10.5897
▁TN	-10.5903
▁ਹਿੰ	-10.5905
▁ਖਾਣਾ	-10.5912
▁radio	-10.592
info	-10.592
ਹੁਣ	-10.5926
▁ਸੰਭਾਲੀ	-10.5928
▁ਅਨੁਵਾਦਕ	-10.5938
range	-10.5947
▁750	-10.5947
▁GT	-10.5949
▁ਆਓ	-10.595
੍ਰੀ	-10.5971
lim	-10.5973
੫	-10.5975
ੲ	-10.5975
▁KOffice	-10.5975
▁ਖੁੱਲ੍ਹੇ	-10.5975
▁ਤੋਹਫ਼ੇ	-10.5975
▁ਪ੍ਰੋਡਕਟ	-10.5975
▁Holiday	-10.5975
▁ਵਿਹੜੇ	-10.5975
sitemap	-10.5975
2019-04-	-10.5975
▁Vista	-10.5977
▁ਪੂਰਕ	-10.5978
space	-10.5979
▁ਵਰਤਣਾ	-10.5982
part	-10.5991
▁2002	-10.5996
101	-10.6
▁ਹਮ	-10.6006
ਬ੍ਰ	-10.6011
live	-10.6014
▁ਥਾਈ	-10.6024
▁ਜਿਮ	-10.603
OM	-10.6031
▁ਪੁਰਸ਼	-10.6036
▁ਜਾਂਦੀਆਂ	-10.6047
ਕੜ	-10.6055
ਕੰਮ	-10.6062
3.6	-10.6062
yuan	-10.6064
bal	-10.607
▁ਕੈਲਕੂਲੇਟਰ	-10.6073
▁ਜ਼ਮੀਨਦੋਜ਼	-10.6073
▁ਪ੍ਰੋਟੋਟਾਈਪ	-10.6073
▁ਹੈਰਾਨੀਜਨਕ	-10.6073
▁Russia	-10.6073
▁ਰਿਸਰਚ	-10.6073
▁domini	-10.6073
▁ਭੀੜ	-10.6073
filter	-10.6073
▁ਅਸਟੇਟ	-10.6074
▁ਅਨੰਦ	-10.6074
Rider	-10.6075
▁ਬਣਾਉਂਦੇ	-10.6076
fm	-10.6077
photo	-10.6077
▁ਖੋਲੋ	-10.6078
▁ਪੇਸ਼ਕਾਰੀ	-10.6079
Color	-10.6084
▁Xbox	-10.6085
▁On	-10.6086
ਸੈੱਟ	-10.6089
For	-10.609
▁ਈਦ	-10.6092
▁ਸਰਦੀ	-10.6108
eth	-10.6108
▁0.4	-10.6108
ਅੰਤ	-10.6114
▁ਰਸਾਇਣਕ	-10.6116
ਮਈ	-10.6117
▁Bl	-10.6118
{0}	-10.6123
▁ਸਮਾ	-10.6127
AI	-10.6131
zo	-10.6131
free	-10.6137
▁ਪੁੱਛਣ	-10.6141
cat	-10.6148
▁ਨਿੱ	-10.615
▁1.1	-10.6155
ਪਿੰਗ	-10.6159
▁ਉਸਦੀ	-10.6161
print	-10.6164
▁5000	-10.6169
▁China	-10.6171
▁ਇਸ਼ਤਿਹਾਰ	-10.6172
▁ਫ਼ਾਇਬਰਗਲਾਸ	-10.6172
▁ਰਿਪੋਜ਼ਟਰੀ	-10.6172
▁ਸ੍ਟ੍ਰੀਟ	-10.6172
▁ਸੰਵੇਦਨਸ਼ੀਲ	-10.6172
▁ਜਾਸੂਸੀ	-10.6172
▁ਰੋਬੋਟ	-10.6172
▁ਗੂੜਾ	-10.6172
▁850	-10.6175
▁ਕੇਂਦਰੀ	-10.6176
▁online	-10.6179
▁ਧਨ	-10.618
like	-10.6181
▁date	-10.6182
▁Inter	-10.6183
8000	-10.6188
west	-10.6189
▁ਲਾਈਨਾਂ	-10.6193
▁Coil	-10.6201
▁ਖਾਣੇ	-10.6202
ਮੈਂ	-10.6202
▁ਬੁਰਾ	-10.6206
▁Die	-10.621
▁Make	-10.6212
▁ਜਿਸਦਾ	-10.6215
▁PropertyName	-10.6216
▁like	-10.6223
ਮਿੰਟ	-10.6227
▁car	-10.6248
▁ਬਦ	-10.6249
side	-10.6255
▁ਸਿਧਾਂਤ	-10.6272
enezuela	-10.6272
▁category	-10.6272
▁ਇੰਜੈਕਸ਼ਨ	-10.6272
▁ਖ਼ਤਮ	-10.6272
▁ਰਵੱਈਆ	-10.6272
▁ਸੰਗਠਿਤ	-10.6272
▁ਗੋਲ਼ਾ	-10.6272
▁ਡਾਊਨ	-10.6272
▁ਦੁਬਈ	-10.6272
▁ਨਾਜ਼ੁਕ	-10.6272
▁tips	-10.6272
urtle	-10.6272
.06.20	-10.6275
▁ਪੱਤਾ	-10.6275
235	-10.6282
▁ਬਿਮਾਰੀਆਂ	-10.6284
▁PO	-10.6288
▁ਨਰ	-10.6289
iver	-10.6292
LP	-10.6293
card	-10.6294
arch	-10.6307
wood	-10.6312
exe	-10.6313
▁year	-10.6313
▁Up	-10.6314
▁ਸਕ੍ਰੀਨ	-10.6318
▁0086-5	-10.6321
ਸਕ੍ਰੀਨ	-10.6326
▁CSS	-10.6332
▁ਇਸਲਾਮ	-10.6337
▁ਫਰਕ	-10.635
pre	-10.6357
▁5.5	-10.6357
▁get	-10.6358
▁ਇੰਜੀਨੀਅਰ	-10.6363
▁Jan	-10.6368
VAC	-10.6372
▁ਅਥਾਰਟੀ	-10.6373
▁ਡੁਪਲੀਕੇਟ	-10.6373
▁ਵਸਰਾਵਿਕ	-10.6373
▁ਵਿਸਫੋਟ	-10.6373
▁ਵ੍ਹੀਲ	-10.6373
wysluxury	-10.6373
▁ਚਾਈਨਾ	-10.6373
▁ਦਿੱਲੀ	-10.6373
▁ਐਲਰਜੀ	-10.6373
▁Server	-10.6373
▁ਬਾਇਓ	-10.6373
▁Style	-10.6373
▁ਰਚਨਾਤਮਕ	-10.6374
▁Media	-10.6374
wiki	-10.6374
▁El	-10.6375
▁ਲਿਫਟ	-10.6376
▁ਜ਼ਿਕਰ	-10.6377
▁ODM	-10.638
▁ਟੀਚਾ	-10.6381
▁ਲੈਬ	-10.6382
▁who	-10.6385
▁2004	-10.6387
▁Key	-10.6395
▁ਲਾਈਟਾਂ	-10.6403
▁ਜਾਉ	-10.6403
▁ਕਾਰੋਬਾਰੀ	-10.6407
ਵੇਗਾ	-10.6409
orea	-10.6409
2.7	-10.6413
▁zimbabwe	-10.6418
▁ਸਜ਼ਾ	-10.642
੍ਰੋ	-10.6433
travel	-10.6435
▁ਸਕਣ	-10.6446
ਫਾਇਰ	-10.6451
▁ਨਿਵੇਸ਼ਕ	-10.6452
ਟੇਬਲ	-10.646
ship	-10.646
▁FS	-10.6461
▁TK	-10.6462
▁my	-10.6466
▁Change	-10.647
з	-10.6475
opify	-10.6475
ਇਤਾਲਵੀ	-10.6475
▁Inverter	-10.6475
▁ਇੰਕੋਡਿੰਗ	-10.6475
▁ਐਨੀਮੇਸ਼ਨ	-10.6475
▁ਗਹਿਣੇ	-10.6475
▁ਫਾਇਰਫਾਕਸ	-10.6475
▁ਮਿਹਨਤ	-10.6475
▁ਰਣਨੀਤੀ	-10.6475
μ	-10.6475
▁states	-10.6475
▁image	-10.6475
▁ਕਿਨਾਰੇ	-10.6475
▁Black	-10.6476
▁ਲੱਗੇਗਾ	-10.648
▁ਸੇਂਟ	-10.6482
▁ਗਵਾਹ	-10.6483
GI	-10.6488
hile	-10.6492
▁ਮਿਸ	-10.6499
FO	-10.6504
▁ਗ੍ਰੇਡ	-10.6507
ਤੰਗ	-10.6512
▁was	-10.6515
2.3	-10.6517
3.5	-10.6522
1.3	-10.6523
▁ਪੂਰਬ	-10.6542
ht	-10.6544
Free	-10.6546
eason	-10.6556
ਸਤਾਨ	-10.6563
hin	-10.6568
eo	-10.6573
▁Technology	-10.6578
▁silicone	-10.6578
▁ਐਲਮੀਨੀਅਮ	-10.6578
▁ਕੈਟਾਲਾਗ	-10.6578
▁ਪ੍ਰਾਇਮਰੀ	-10.6578
▁ਸਹਿਣਸ਼ੀਲਤਾ	-10.6578
▁address	-10.6578
▁ਪ੍ਰੋਫਾਈਲ	-10.6578
▁ਢਾਂਚਾ	-10.6578
▁ਕਵਿਤਾ	-10.6578
▁FREE	-10.6578
▁ਚਾਹੀਦੇ	-10.6578
▁ਤਬਾਹ	-10.6578
▁ਰੂਬਲ	-10.6578
▁ਝੀਲ	-10.6578
▁ਉਤਪਾਦਕਤਾ	-10.6578
▁ਇੰਸਟੀਚਿਊਟ	-10.6579
▁ਲੋਹੇ	-10.658
▁ਸ਼੍ਰੀ	-10.658
ration	-10.6584
▁ਹਮਲੇ	-10.6584
ella	-10.6593
▁ਕਾਨੇ	-10.6597
▁ਰਾਅ	-10.6598
▁If	-10.661
ollywood	-10.6616
emon	-10.6624
▁ਬਾਲਣ	-10.6628
▁ਜੰਗਲੀ	-10.6628
▁ਪੋਲੀ	-10.6631
▁Ke	-10.6642
▁ਤੋੜ	-10.6653
▁edu	-10.6658
▁Pos	-10.6666
ਸਿਰਫ	-10.6668
medicine	-10.6682
▁ਪੋਰ੍ਟ	-10.6682
▁ਪ੍ਰੇਰਿਤ	-10.6682
▁ਬੁੱਧ	-10.6682
▁ਸ਼ਿਕਾਇਤ	-10.6682
▁ਐਸਐਮਐਸ	-10.6682
▁ਐਸੀਟੇਟ	-10.6682
▁ਠੰਡੇ	-10.6682
▁ਦਰਸਾਉਂਦਾ	-10.6682
▁ਗਰੰਟੀ	-10.6682
😂	-10.6682
▁ਝਾੜੀ	-10.6682
▁ਪ੍ਰਤੀਸ਼ਤ	-10.6682
▁ਜ਼ਰੀਏ	-10.6682
▁ਬ੍ਰੇਕ	-10.6682
▁ਪਿਕਸਲ	-10.6683
▁ਟਾਇਰ	-10.6684
▁ਸੂਚੀਬੱਧ	-10.6684
▁ਫੋਰਮ	-10.6684
white	-10.6689
▁ਸਾਇਨ	-10.6691
▁ਗੱਲਾਂ	-10.6697
▁ਪਰਬੰਧਨ	-10.6697
▁ਭੰਗ	-10.67
▁ਦਰਸ਼ਨ	-10.6704
Player	-10.6704
▁ਮੈਟਾ	-10.6704
▁1998	-10.6705
▁ਚੁਣੀਆਂ	-10.6705
▁ਡੋਰ	-10.6716
▁ਹੇਠਲੇ	-10.6727
▁ਖੋਰ	-10.673
fact	-10.6738
360	-10.6742
▁File	-10.6744
105	-10.6747
Port	-10.6749
ਭਾਰਤ	-10.6754
ਧੂ	-10.6756
▁ਹੌ	-10.6756
▁ਨਾਈਲੋਨ	-10.6759
▁Jun	-10.6764
▁ਕੱਚ	-10.6767
▁ਪ੍ਰਦਰਸ਼ਨੀ	-10.6768
cam	-10.6771
ਲ੍ਹੇ	-10.6776
ਬਾਇ	-10.6777
ਾਈਮ	-10.6779
COM	-10.6782
witzerland	-10.6787
▁NUKA	-10.6787
▁which	-10.6787
▁ਦਹਾਕਾ	-10.6787
▁ਫਾਰਮਾਸਿਊਟੀਕਲ	-10.6787
▁ਲਾਈਸੈਂਸ	-10.6787
▁ਸੈਮਸੰਗ	-10.6787
å	-10.6787
▁ਮਿੱਠੇ	-10.6787
▁ਸਾਬਕਾ	-10.6787
▁ਸਿਆਹੀ	-10.6787
▁ਕਲੀਨਿਕ	-10.6787
▁ਥਾਵਾਂ	-10.6788
▁ਟੈਬਲਿਟ	-10.6788
▁ਸਪਸ਼ਟ	-10.6789
▁ਪਕੜ	-10.6792
▁ਇੰਜਨ	-10.6792
▁ਦੋਵੇਂ	-10.6799
playlist	-10.6799
▁due	-10.6801
5000	-10.6803
get	-10.6816
ੱਤਾ	-10.6821
▁ਬਕ	-10.6827
select	-10.6835
OO	-10.6836
▁ਨਿਯਮਾਂ	-10.6836
▁ਅੱਖਾਂ	-10.6837
GP	-10.6848
▁ਚਾਹੋ	-10.685
ੜੀਆਂ	-10.6867
rab	-10.6871
▁Cas	-10.6872
002	-10.6873
usa	-10.6874
▁ਕੁਸ਼ਲ	-10.6885
▁ਤੀਬਰ	-10.6885
▁ਧੋ	-10.6891
▁ਅਹਿਸਾਸ	-10.6894
▁ਅਡੈਪਟਰ	-10.6894
▁ਖੰਭ	-10.6894
▁ਟੈਂਪਲੇਟ	-10.6894
▁ਨਾਬਾਲਗ	-10.6894
▁ਨਿਯੰਤਰਣ	-10.6894
▁ਨੱਥੀ	-10.6894
🔰	-10.6894
▁ਸਮਝੌਤੇ	-10.6894
▁%1$	-10.6894
▁ਜੁੱਤੀ	-10.6894
▁SQL	-10.6894
▁ਕੰਪਾਇਲ	-10.6895
version	-10.6895
▁ਡਾਕੂ	-10.69
▁sud	-10.69
lover	-10.6902
▁ਨਗਰ	-10.6907
wing	-10.6908
▁ਕਰਸਰ	-10.6909
▁Job	-10.6916
ward	-10.6931
ੜਿਆਂ	-10.6934
▁ਅਯੋਗ	-10.6935
▁ਸਾਫਟ	-10.694
ਾਇਕ	-10.6944
▁ਹੇਠਲੀ	-10.6953
ਰੂਪ	-10.6954
▁ਚੁੰਬਕ	-10.6965
emb	-10.6967
ਵੱਡੇ	-10.6968
ਡਬਲਯੂ	-10.697
ਖੇਤਰ	-10.6972
380	-10.6977
you	-10.6985
-03-	-10.6989
▁ਜਿਨਾ	-10.6991
▁Main	-10.6993
▁ਰੁਕਾਵਟ	-10.7001
▁+0000.	-10.7001
▁Notification	-10.7001
▁ਅਦਾਇਗੀ	-10.7001
▁ਬਿਸਤਰੇ	-10.7001
▁ਰਾਜਧਾਨੀ	-10.7001
▁ਵੈੱਕਯੁਮ	-10.7001
▁ਵਹਾਅ	-10.7001
▁resources	-10.7001
▁Machine	-10.7001
brazil	-10.7001
▁ਕਿਊਰੀ	-10.7002
▁ਇੰਕ੍ਰਿਪਸ਼ਨ	-10.7002
▁ਜੈਵਿਕ	-10.7002
ਪਿਕਸ	-10.7002
▁ਸਟਾਇਲ	-10.7003
▁ਸੰਗਤ	-10.7005
▁ਡਿੱਗ	-10.7006
▁ਪ੍ਰਮਾਣਿਤ	-10.7006
▁ਹੱਦ	-10.7007
▁ਇੰਝ	-10.7007
1-2	-10.701
aff	-10.7013
▁ਅੰਦਾਜ਼ਾ	-10.7018
▁ਬੀਅਰ	-10.7029
▁ਪੜ	-10.7029
▁ਸਪੇਨੀ	-10.7031
▁ਸਥਿਰਤਾ	-10.7031
hui	-10.7037
war	-10.7051
▁Sch	-10.7051
▁ਸੇਵ	-10.7052
▁ਅਰਬੀ	-10.7058
▁jap	-10.7065
▁any	-10.7069
ਕੈਸੀਨੋ	-10.7079
▁Ste	-10.7091
▁ਸਮਰੱਥ	-10.7091
▁ਲੈਣਾ	-10.7092
nny	-10.7096
▁ਬਚਨ	-10.7096
ੰਤਰ	-10.7097
ч	-10.711
XCHARX	-10.711
▁Pinterest	-10.711
▁hungary	-10.711
▁ਅਧਿਆਇ	-10.711
▁ਡਿਲੀਵਰੀ	-10.711
▁ਲੋੜੀਂਦੇ	-10.711
▁RFID	-10.711
▁ਬੁਣਾਈ	-10.711
▁%2$	-10.711
build	-10.711
▁ਇਕੱਲੇ	-10.711
▁PTO	-10.711
▁Spin	-10.7113
▁ਵੀਜ਼ਾ	-10.7113
Note	-10.7114
▁ਵਿਰਾਮ	-10.7115
▁bug	-10.7118
125	-10.7122
ਮੂਲ	-10.7123
▁ਵਿੰਡ	-10.7125
ਉਂਦੇ	-10.7128
▁ਪੂਰਵ	-10.7137
▁10000	-10.7154
8.0	-10.7154
▁ਇੰਕ	-10.7158
lon	-10.7165
▁ਤੁ	-10.7166
▁Piece	-10.7172
page	-10.7181
▁ਰਹਿੰਦ	-10.7197
ਾਊਂਡ	-10.7215
cheng	-10.7215
QFontDatabase	-10.722
▁ਆਸਟ੍ਰੇਲੀਆ	-10.722
▁ਐਸੋਸੀਏਸ਼ਨ	-10.722
▁ਪਰਾਈਵੇਟ	-10.722
▁ਬਹੁਭੁਜ	-10.722
▁ਮਾਧਿਅਮ	-10.722
▁ਮਿਸ਼ਰਣ	-10.722
▁ਮੁਅੱਤਲ	-10.722
	-10.722
▁ਰੁਪਏ	-10.722
▁Java	-10.722
▁plus	-10.722
▁ਟਰਾਂਸਲੇਸ਼ਨ	-10.722
▁ਬਿਹਤਰੀਨ	-10.722
▁ਚੇਲੇ	-10.7221
▁Txxx	-10.7224
inch	-10.7224
▁ਫਰਾਂਸ	-10.7224
▁ਸਹਿਮਤੀ	-10.723
▁Rd	-10.723
ਕਸੇ	-10.723
look	-10.7231
▁ਟੀਚੇ	-10.7231
▁ਵਧਾਓ	-10.7231
▁KTM	-10.7232
▁ਬਿਨ	-10.7233
▁ਕਵਰੇਜ	-10.7234
430	-10.7237
▁Cute	-10.7245
▁CAS	-10.7255
ਰੀਅਲ	-10.7258
▁ਤੁਰ	-10.7258
dir	-10.726
▁ਖੁ	-10.726
key	-10.7262
▁ਪਾਠਕ	-10.7263
soft	-10.7265
▁ਸੁੱਕ	-10.7269
▁ਤੱਤਾਂ	-10.7312
model	-10.7312
ਪਿਆਰ	-10.7322
7.0	-10.7329
▁Tumblr	-10.7331
੪	-10.7331
▁Copyshop	-10.7331
▁November	-10.7331
▁ਇਤਾਹਾਸ	-10.7331
▁ਜੱਜ	-10.7331
▁ਸਿੰਗਾਪੁਰ	-10.7331
▁ਕਾਰਬਾਈਡ	-10.7331
▁service	-10.7331
▁ਕਲਪਨਾ	-10.7331
Coptic	-10.7331
▁ਜਿਨਸੀ	-10.7331
▁listbox	-10.7332
▁Micro	-10.7332
▁ਜਾਣੋ	-10.7332
▁ਚੁੱਪ	-10.7333
aalam	-10.7333
▁ਓਧਰ	-10.7334
XNUMX	-10.7334
▁rich	-10.7335
ਬਿਟ	-10.7351
++	-10.7352
▁cr	-10.7356
FT	-10.7364
▁Gen	-10.7371
ੀਅਸ	-10.7374
▁ਪਹਿਲ	-10.738
blog	-10.738
ਗਲੀ	-10.739
▁ਕੁਆ	-10.7392
ਤ੍ਰ	-10.7396
adi	-10.7399
3.0	-10.7403
▁ਮਰੀਜ਼	-10.7406
▁ਦੌਰ	-10.741
BO	-10.7411
▁Max	-10.7412
▁Ti	-10.7413
sky	-10.7415
search	-10.7426
▁ਕੋਨਾ	-10.7426
▁ਪੀਲੇ	-10.7428
▁ਸਟਰੀਮ	-10.7434
ਕਿਉ	-10.7441
▁Generator	-10.7443
poetry	-10.7443
▁discuss	-10.7443
▁ਖਿਤਿਜੀ	-10.7443
▁ਖੁਲਾਸਾ	-10.7443
▁ਘੰਟਿਆਂ	-10.7443
▁ਲਾਇਬ੍ਰੇਰੀ	-10.7443
sweden	-10.7443
▁Albert	-10.7443
ਘੁੱਗੀ	-10.7444
▁Zhong	-10.7445
▁ਅਪਵਾਦ	-10.7447
▁ਹਾਸੇ	-10.7448
▁ਝੁਕ	-10.7449
▁ਖੁਦਾਈ	-10.7451
▁ਇਕਸਾਰ	-10.7455
▁ਠੰਢਾ	-10.7459
▁ਕਮਾਈ	-10.7461
▁ਮਾਣੋ	-10.7463
ੋਇਡ	-10.7464
▁ਤੋੜਨ	-10.7465
ੀਅਲ	-10.7466
ਂਜ	-10.7466
▁ਸੋਲ	-10.7476
process	-10.7478
▁ਦੋਸਤਾਂ	-10.7481
▁ਦੁਹਰਾ	-10.7484
▁ਚੁੱਕਣ	-10.7486
▁best	-10.749
▁ਮੀਟ	-10.749
134	-10.7499
▁ਮੁਹ	-10.7505
ਡ੍ਰੈਗਨ	-10.7511
ਜਿਸ	-10.7516
▁mar	-10.7541
ਉਹ	-10.7551
ਧਿ	-10.7551
default	-10.7557
generateur	-10.7557
▁protected	-10.7557
▁shoppingdirect	-10.7557
▁ਐਕਸਟੈਨਸ਼ਨ	-10.7557
Private	-10.7557
▁Chrome	-10.7557
▁ਅਪਾਚੇ	-10.7557
▁123456	-10.7557
▁ਕੇਡੀਈ	-10.7557
elit	-10.7557
General	-10.7557
▁ਕੁਆਇਲ	-10.7557
▁ਜ਼ੀਰੋ	-10.7557
▁nym	-10.7557
▁Spec	-10.7558
▁ਡਰੈੱਸ	-10.7558
▁🇴	-10.7558
▁ਅਸੂਲ	-10.756
▁ਸੀਜ਼ਨ	-10.7561
▁ਹਮਲਾ	-10.7564
630	-10.757
river	-10.7576
▁ਵੰਡੋ	-10.7579
Triche	-10.7587
vid	-10.7592
ways	-10.7594
tation	-10.7599
▁2.8	-10.7606
sheng	-10.7609
▁ves	-10.7618
▁ਦੋਵਾਂ	-10.7618
▁91	-10.7626
▁Tai	-10.7634
▁ਟੈਸਟਰ	-10.7638
▁ਪੈਟ	-10.7641
▁1100	-10.7643
▁ਰੇਡ	-10.7644
ਵਰਡਪਰੈਸ	-10.7654
raw	-10.7656
▁Of	-10.7665
ਸਾਨੂੰ	-10.7666
▁ਰੋਸ	-10.7668
bat	-10.7669
ANG	-10.7669
▁ਉਪਰੋਕਤ	-10.7672
▁ਕੋਲੰਬੀਆ	-10.7672
▁ਤਿਉਹਾਰ	-10.7672
▁ਪ੍ਰੋਫ਼ਾਈਲ	-10.7672
▁download	-10.7672
▁ਖੋਜਕਰਤਾਵਾਂ	-10.7672
▁ਨੈਤਿਕ	-10.7672
▁Credit	-10.7672
field	-10.7672
▁ਵਸਤੂ	-10.7672
▁ਸੈਕਰੋ	-10.7672
Strapon	-10.7672
▁ਸ਼ੀਸ਼ੇ	-10.7672
▁ਸਪੀਕਰ	-10.7672
▁ਬੇਤਾਰ	-10.7672
▁credit	-10.7672
▁ਦਾਅਵਾ	-10.7672
▁ਬਕਵਾਸ	-10.7672
▁ਲੀਅਮ	-10.7674
▁ਕਿਡਜ਼	-10.7674
▁ਹਾਈਲਾਈਟ	-10.7675
▁ਆਫਿਸ	-10.7676
▁ਪ੍ਰਤੀਨਿਧਤਾ	-10.7678
▁ਮਲਟੀਪਲ	-10.7678
▁ਬਾਹੀ	-10.7678
▁ਪੱਤੇ	-10.7678
▁ਲੈਟਿਨ	-10.7681
▁ਸੌਦੇ	-10.7682
▁ਤਹਿ	-10.7684
Dv	-10.7688
▁ਬੀਜਿੰਗ	-10.7689
▁ਹਟਾਈ	-10.7689
auto	-10.7693
Month	-10.7707
china	-10.7708
▁ਦਾਖਲੇ	-10.771
▁ਐਕਸਪੋ	-10.7713
▁ਰੰਗਦਾਰ	-10.7718
▁ਡ੍ਰੈਗ	-10.7718
ND	-10.7745
uro	-10.7757
▁ਕਿੰਨਾ	-10.7761
nce	-10.7763
▁ਐਟ	-10.7766
▁ਲਾਇ	-10.7771
ਫਿਲ	-10.7772
ਮੁਫ਼ਤ	-10.7773
▁ਮਿਲੇ	-10.7782
ਰਾਡ	-10.7783
▁ਲਚਕ	-10.7788
ਐਕਸਐਨਯੂਐਮਐਕਸ	-10.7788
ਐਗਜਾਮੀਨੈਸ਼ਨ	-10.7788
▁Deepthroat	-10.7788
▁Linux	-10.7788
▁Slackware	-10.7788
▁ਝਰੋਖਾ	-10.7788
▁ਟਾਰਗੇਟ	-10.7788
▁ਪਰੋਸੈਸ	-10.7788
▁ਬਾਦਸ਼ਾਹ	-10.7788
▁ਮੁਹਿੰਮ	-10.7788
▁ਮੰਚਨ	-10.7788
▁ਸਕਾਰਾਤਮਕ	-10.7788
🇱	-10.7788
📱	-10.7788
▁CentOS	-10.7788
▁Pocket	-10.7788
africa	-10.7788
▁ਗਲੈਕਸੀ	-10.7788
▁ਮਿੱਟੀ	-10.7788
▁ਵੈਲਡਿੰਗ	-10.7789
▁ਉਭਾਰ	-10.7789
▁ਥਾਈਲੈਂਡ	-10.7789
▁alb	-10.7791
punjabiquotes	-10.7792
▁ਸਿਹਤਮੰਦ	-10.7794
▁(0)	-10.7796
▁ਹੈਂਡਲ	-10.7804
center	-10.781
ਸ਼ੀਆ	-10.7812
▁ਅਨੁ	-10.7812
▁(4)	-10.7812
canada	-10.7813
load	-10.7818
▁ZY	-10.7819
▁ਮੈਨ	-10.7821
2011	-10.7822
▁ਤਦ	-10.7825
▁ਜਨਤਾ	-10.7826
▁ਬੋਤ	-10.7827
▁ਹੀਟਿੰਗ	-10.7828
ful	-10.7831
▁720	-10.7845
sure	-10.7846
Show	-10.7858
,000,000	-10.786
▁ਪਾਉ	-10.7864
▁Dong	-10.7865
trip	-10.7869
▁ਬਚਾ	-10.787
▁1800	-10.7872
AO	-10.7873
ਸਟੀਰ	-10.7874
mpa	-10.7879
£200	-10.7882
▁ਲੈਪ	-10.7889
▁ਛੋਟ	-10.7891
ਔ	-10.7893
ask	-10.7893
ਐਂ	-10.7896
▁ਪੁੱਛੇ	-10.7901
yaanipedia	-10.7906
▁Mod	-10.7906
▁System	-10.7906
▁support	-10.7906
Ethiopian	-10.7906
Quebec	-10.7906
▁Mallari	-10.7906
▁cheats	-10.7906
▁inductor	-10.7906
▁ਧੁੰਦ	-10.7906
▁ਨਿਰਧਾਰਿਤ	-10.7906
▁ਫੀਡਬੈਕ	-10.7906
▁ਬਲਿਊਟੁੱਥ	-10.7906
▁ਮਾਨਸਿਕ	-10.7906
▁ਵਿਆਖਿਆ	-10.7906
▁ਸੁਨੇਹਿਆਂ	-10.7906
▁ਸੱਜਾ	-10.7906
🔥	-10.7906
▁ਜ਼ੂਮ	-10.7906
▁ਦਰਮਿਆਨ	-10.7906
EMAIL	-10.7906
▁command	-10.7906
▁ਗਣਰਾਜ	-10.7906
▁ਮੈਨੁਅਲ	-10.7906
▁ਮੰਦਰ	-10.7907
▁ਰੱਬ	-10.7908
▁ਪੇਪਾਲ	-10.7908
quotes	-10.791
miss	-10.7913
▁ਟਾਵਰ	-10.7914
▁ਸੁੱਖ	-10.7916
▁ਤੰਦਰੁਸਤੀ	-10.7926
base	-10.7929
mic	-10.793
change	-10.793
ious	-10.7933
size	-10.794
ology	-10.7942
▁ਬਣਿਆ	-10.7951
PH	-10.7952
▁70%	-10.7953
▁ਅਤਰ	-10.7954
▁ਖੋਲ੍ਹੀ	-10.7955
▁ਟੌ	-10.7956
▁dd	-10.7962
▁ਘਟਾ	-10.7964
OL	-10.7969
▁ਕੀੜੇ	-10.797
▁ਕੁੰਜੀਆਂ	-10.7978
▁ਟ੍ਰੇਨ	-10.7983
ਬੁਲ	-10.8
▁ਬਦਲਣਾ	-10.8002
ਿਅਨ	-10.8003
cli	-10.8018
churchofchrist	-10.8025
▁iSpyoo	-10.8025
▁ਪਾਰਦਰਸ਼ੀ	-10.8025
▁ਪਿਛਲੀ	-10.8025
▁ਲਿਮਿਟਡ	-10.8025
▁ਵਾਪਿਸ	-10.8025
▁ਘੰਟਾ	-10.8025
▁Charter	-10.8025
▁ਆਈਡੀਆ	-10.8025
▁ਪਿਘਲ	-10.8025
▁ਸਿੱਕੇ	-10.8025
▁ਪੀੜ੍ਹੀ	-10.8025
▁ਜਾਪਦਾ	-10.8025
▁CHF	-10.8025
▁Products	-10.8025
▁ਦਿਖਾਉਣ	-10.8026
▁ਪੁੰਪ	-10.8027
▁ਬਲੇਡ	-10.803
▁ਲੰਬੀ	-10.803
ਬਾਕਸ	-10.8031
▁ਤਾਲਾ	-10.8032
▁ਹਾਲੀਆ	-10.8033
▁ਸਟਰੀਮਿੰਗ	-10.8035
panel	-10.8035
Search	-10.8039
▁ਸਵੇਰੇ	-10.8041
ੋਲੋਨ	-10.8047
▁Flight	-10.8047
3.1	-10.8064
▁ਟੈਲੀ	-10.8068
▁ਇਕਾਈਆਂ	-10.8072
ਲੇਸ਼ਨ	-10.8072
▁2500	-10.8074
▁ਡਾਇਰੈਕਟਰੀਆਂ	-10.8075
▁ਸਾਗਰ	-10.8077
2004	-10.8079
▁ਸਫਾ	-10.8081
▁ਤਾਰੇ	-10.811
▁Bar	-10.8113
▁4.5	-10.8123
▁ਅੰਦਾਜ਼	-10.8127
ਬਿਲ	-10.8129
tten	-10.8132
ਗ੍ਰਾਫ	-10.8134
Please	-10.8139
▁{1}	-10.8145
▁ਆਟੋਮੋਟਿਵ	-10.8145
▁ਇੰਡੀਕੇਟਰ	-10.8145
▁ਐਕੁਆਰਿਅਮ	-10.8145
▁ਡੂੰਘੀ	-10.8145
▁ਦਸਤਾਨੇ	-10.8145
▁ਵਰਕਸ਼ਾਪ	-10.8145
scribe	-10.8145
function	-10.8145
▁ਪਹੀਏ	-10.8145
▁ਥੋੜਾ	-10.8145
▁ਪੰਚ	-10.8145
▁ਚੂਚਕ	-10.8145
▁ਕਾਇਮ	-10.8145
▁Sharp	-10.8146
lk	-10.8146
▁context	-10.8147
▁ਘਾਹ	-10.815
ਟੇਟ	-10.8151
▁ਏਧਰ	-10.8152
▁ਦੱਬੋ	-10.8152
proof	-10.8154
▁ਹਾਜ਼ਰ	-10.8167
▁ਸੰਸਥਾਵਾਂ	-10.8168
▁ਏਰੀਆ	-10.8169
▁city	-10.8172
▁=%	-10.8179
ਟਾਈਮ	-10.8188
▁ਵੇਖਣਾ	-10.8188
▁6000	-10.8194
650	-10.8204
▁1.8	-10.8207
rent	-10.8227
▁ਸੇਵਰ	-10.8232
▁ਦੁਭਾਸ	-10.8233
ਥਾਈ	-10.8238
▁ਕੇਰਲ	-10.8242
706	-10.8249
Track	-10.8265
ਜਰਮਨ	-10.8267
▁ਰੇਖਿਕ	-10.8267
cuador	-10.8267
੬	-10.8267
▁flicker	-10.8267
▁ਜਾਵਾਸਕਰਿਪਟ	-10.8267
▁ਮੇਲ੍ਬਰ੍ਨ	-10.8267
▁iPod	-10.8267
▁ਚਿਲਡਰ	-10.8267
current	-10.8267
▁ਮਾਜ਼ਦਾ	-10.8267
▁ਟਰੱਸਟ	-10.8267
на	-10.8268
▁ਗਤੀਵਿਧੀਆਂ	-10.8271
▁CPA	-10.8271
▁ਰਸਤੇ	-10.8272
▁Bank	-10.8281
▁Colle	-10.8282
▁ਦੌਰੇ	-10.8287
▁ਜਿਸਨੂੰ	-10.8287
0.3	-10.8298
▁Back	-10.8321
▁Day	-10.8322
5.00	-10.8333
▁ਕਰੀਮ	-10.8339
sec	-10.835
▁ਪੈਰਿਸ	-10.8352
ਡ੍ਰ	-10.8355
FP	-10.8372
▁ਪਏ	-10.8383
▁Hot	-10.8383
5,000	-10.8388
Plugin	-10.8391
▁British	-10.8391
▁Tailoress	-10.8391
▁Twitter	-10.8391
▁ਆਯੋਜਿਤ	-10.8391
▁ਚਾੰਗਜ਼ੌ	-10.8391
▁ਨਵੀਨੀਕਰਨ	-10.8391
▁ਬ੍ਰਾਊਜ਼ਰ	-10.8391
▁ਮੁਲਾਂਕਣ	-10.8391
▁ਵਿਦਗਿਟ	-10.8391
▁ਗਰਾਫਿਕਸ	-10.8391
▁ਸੰਕਲਪ	-10.8391
▁ਪਰਚੂਨ	-10.8391
▁ਈਵੈਂਟ	-10.8391
▁ਲਪੇਟ	-10.8391
▁ਸਕੋਗੇ	-10.8391
▁ਕੂਲਰ	-10.8391
▁ਧੂੜ	-10.8391
▁ਰਿਟਰਨ	-10.8391
▁ਕਰੇਗੀ	-10.8391
▁VPN	-10.8391
▁ਯਤਨ	-10.8391
▁ਲੋੜੀਦਾ	-10.8391
▁ਚੀਟਿੰਗ	-10.8392
▁ਅਸਥਾਈ	-10.8392
▁ਗਿਫਟ	-10.8392
▁ਅੰਡਰ	-10.8396
▁ਲੂੰਡ	-10.8396
▁Javi	-10.8396
▁poly	-10.8399
▁ਜੋਖਮ	-10.8401
ਹਾਇ	-10.8401
▁ਬਾਬਾ	-10.8404
▁ਵਰਕਰਜ਼	-10.8404
▁used	-10.8413
▁ਪੂ	-10.8415
▁Ind	-10.8416
▁ਸ਼ਾਂਤੀ	-10.8418
▁ਵੈਸਟ	-10.8434
lite	-10.8436
ption	-10.8445
▁don	-10.8445
▁vk	-10.8449
▁ਮੀਲ	-10.8453
▁1080	-10.8464
▁ਬਦਲੇ	-10.8467
▁ਜੋੜਾ	-10.8471
▁ਟ੍ਰੈਕ	-10.8483
▁ਭੇਜਣਾ	-10.8495
▁kt	-10.8497
ਗਰਾਮ	-10.8502
▁2.2	-10.8512
XXX	-10.8514
Advanced	-10.8516
Message	-10.8516
ਗੁੜਗਾਓਂ	-10.8516
←	-10.8516
▁Square	-10.8516
▁ਅਕੌਂਡੀ	-10.8516
▁ਖਿਡੌਣੇ	-10.8516
▁ਪੋਲਿਸਟਰ	-10.8516
▁ਬ੍ਰਹਿਮੰਡ	-10.8516
▁ਰੌਜਰਜ਼	-10.8516
▁ਸਰਹੱਦ	-10.8516
😍	-10.8516
੮	-10.8516
fashion	-10.8516
▁ਯੂਨੀਅਨ	-10.8516
▁ਛੂਟ	-10.8516
ਚੂਚੀਆਂ	-10.8516
▁csgo	-10.8516
▁ਭੂਗੋਲ	-10.8516
ongolia	-10.8516
▁ਰੋਟਰੀ	-10.852
▁ਡਰੇਨ	-10.8521
ਪੰਜਾਬੀ	-10.8521
▁ਕਰਵਾਉਣ	-10.8522
▁ਦਰਿਸ਼	-10.8525
▁ਤੀਬਰਤਾ	-10.8526
ਪੂਰਬੀ	-10.8528
▁ਹਟਾਏ	-10.8531
▁ਕੋਰਲ	-10.8531
ckets	-10.8535
▁ਪੜਨ	-10.8546
▁ਵਿਦਿਆਰਥੀਆਂ	-10.8557
▁mx	-10.8557
▁ਵਿਆਜ	-10.8558
▁ਕੋਨੇ	-10.8569
Pieces	-10.8571
▁sf	-10.8574
ਪਿਨ	-10.8577
▁Off	-10.8578
add	-10.8615
205	-10.8622
❤	-10.8642
▁Ethereum	-10.8642
▁Orphek	-10.8642
▁Pneumatic	-10.8642
▁dreambox	-10.8642
▁ਅਡਾਪਟਰ	-10.8642
▁ਅੱਯੂਬ	-10.8642
▁ਉਲੰਘਣਾ	-10.8642
▁ਮਾਮਲਿਆਂ	-10.8642
▁first	-10.8642
▁ਪਰੇਸ਼ਾਨ	-10.8642
▁ਸੋਹਣੀ	-10.8642
▁ਪ੍ਰੈਸ਼ਰ	-10.8642
▁ਸਮਾਗਮ	-10.8642
▁Lesson	-10.8642
▁ਕਮੇਟੀ	-10.8642
xBet	-10.8642
▁Island	-10.8642
▁(2015)	-10.8643
▁Website	-10.8643
▁changes	-10.8644
но	-10.8644
▁ਸਟੋਰੇਜ	-10.8646
▁ਔਖਾ	-10.8646
China	-10.8648
View	-10.8648
ਪਛਾਣ	-10.8649
▁ਸ਼ੇਡ	-10.865
This	-10.8652
▁ਕਲੋਨ	-10.8652
▁escom	-10.8654
▁Cann	-10.8655
▁ਪੈਂਦਾ	-10.8655
▁ਚਲਾਏ	-10.8656
Turn	-10.8667
▁inter	-10.8685
It	-10.8686
▁ਕਪ	-10.8702
0.2	-10.8706
iam	-10.8707
▁ਵੰਡਣ	-10.871
▁OR	-10.8711
Edit	-10.8713
9.5	-10.8733
▁UV	-10.8734
▁ਪ੍ਰੇਮ	-10.8735
▁ਮੋਹਰ	-10.8738
▁ਪੇਸਟ	-10.8742
▁Neo	-10.8749
▁Zhen	-10.8752
MSN	-10.8767
▁8.1	-10.8767
▁ਜੂਆ	-10.8769
SHYAlien	-10.877
▁Columbia	-10.877
▁ਐਕਸਪ੍ਰੈਸ	-10.877
▁ਗ੍ਰਾਹਕ	-10.877
▁ਨਿਸ਼ਚਿਤ	-10.877
▁ਪਰਿਵਰਤਕ	-10.877
▁ਰੁਪਇਆ	-10.877
▁ਸੰਗ੍ਰਹਿ	-10.877
▁ਕਢਾਈ	-10.877
▁ਉਚਿਤ	-10.877
▁DROP	-10.877
▁ਰਿਸ਼ਤਾ	-10.877
▁Clash	-10.8771
▁trainer	-10.8771
▁Hai	-10.8772
▁ਲਚਕਦਾਰ	-10.8772
▁ਰੁੱਖ	-10.8773
▁ਲੰਘ	-10.8774
▁ਸ਼ਾਖਾ	-10.8774
▁word	-10.8779
▁ਵਿਹਾਰ	-10.878
▁Korea	-10.8782
▁ਪੀਸੀਬੀ	-10.8783
Trade	-10.8788
▁ਐਲਈਡੀ	-10.8789
▁ਨੂ	-10.8791
▁ਲੀਗ	-10.8792
▁ਸੋਚਿਆ	-10.8798
▁ਧੁਰਾ	-10.8804
▁ਮੋੜ	-10.882
▁but	-10.884
▁ਚੀਜ	-10.8841
▁ਆਈਟੀ	-10.8848
8.5	-10.8855
▁ਪੱਖਾ	-10.8872
▁ਨਿਆਂ	-10.8873
▁ਖਰੀਦਦਾਰੀ	-10.888
▁ਬਲਿ	-10.8888
0.01	-10.8897
▁Bowflex	-10.89
shayari	-10.89
▁ਝਰੋਖੇ	-10.89
▁ਟਿਊਟੋਰਿਯਲ	-10.89
▁ਥੋੜ੍ਹਾ	-10.89
▁ਪਲੇਅਬੈਕ	-10.89
▁ਮੁਢਲੇ	-10.89
▁ਵਾਅਦਾ	-10.89
▁ਸਮੁੱਚੇ	-10.89
▁ਹਥਿਆਰ	-10.89
▁ਹਥੌੜੇ	-10.89
▁ਕਾਰਟਰੇਜ	-10.89
▁ਖੜ੍ਹੇ	-10.89
▁ਪੋਰਟੇਬਲ	-10.89
▁ਮਾਮਲਾ	-10.89
▁ਦੌੜ	-10.89
ਫਰਬਰੀ	-10.8901
▁ਫਾਇਦੇਮੰਦ	-10.8901
▁****	-10.8901
▁ਘੁੰਮਾਓ	-10.8902
▁ਸਸਤਾ	-10.8902
-240	-10.8902
▁string	-10.8902
▁role	-10.8906
▁ਪੜ੍ਹਾਈ	-10.8907
▁ਅਲੱਗ	-10.8908
MY	-10.8911
▁ਦੱਸਦੀ	-10.8912
▁ਲੌਗ	-10.8914
▁ਕਤਲ	-10.8916
163.	-10.8917
▁509	-10.8919
▁ਸਬਜ਼ੀ	-10.8925
ра	-10.8926
▁ਸਪੋਰਟ	-10.8926
oid	-10.8926
▁ਮਰੀਜ਼ਾਂ	-10.8945
▁ਪੁਰਸ਼ਾਂ	-10.8951
eller	-10.8956
877	-10.8963
▁!!	-10.8973
▁ਭਰਿਆ	-10.8976
pollywood	-10.8983
▁ਸੰਬੰਧਤ	-10.9002
equ	-10.9002
▁ਡਾਇਰੈਕਟਰ	-10.9006
▁ਸ਼ੋਰ	-10.9006
ega	-10.9017
uru	-10.9021
jet	-10.9021
cro	-10.9023
▁ਪਿੱਠਭੂਮੀ	-10.9032
▁SlotJar	-10.9032
▁properly	-10.9032
▁ਅਸਿੱਧੇ	-10.9032
▁ਹਦਾਇਤ	-10.9032
▁ਆਉਂਦਾ	-10.9032
▁ਨਿਲਾਮੀ	-10.9032
▁ਪ੍ਰੋਟੈਕਸ਼ਨ	-10.9032
witch	-10.9032
▁contact	-10.9032
▁ਢਾਂਚੇ	-10.9032
▁ਫਰੇਮਵਰਕ	-10.9032
▁information	-10.9032
▁heels	-10.9032
▁ਮੰਡਲ	-10.9032
▁ਪ੍ਰਵੇਸ਼	-10.9032
▁DRK	-10.9032
europe	-10.9032
▁ਇਨਸਾਨ	-10.9032
▁Posts	-10.9033
▁ਮਿਲਿਅਨ	-10.9033
▁ਮਹਿਮਾਨ	-10.9034
▁ਪੌਂਡ	-10.9034
▁ਸੰਕਟ	-10.9037
0.6	-10.9039
▁ਬੱਡੀ	-10.904
graph	-10.904
jiang	-10.904
▁ਖੋਲ੍ਹ	-10.904
▁(1,5	-10.9047
APK	-10.9048
pass	-10.9049
▁ਵਾੜ	-10.905
▁ਸੌਦਾ	-10.905
▁ਅਜਿ	-10.9051
▁ਲਾਸਾ	-10.9061
▁Light	-10.9064
▁ਆਜ਼ਾਦੀ	-10.9065
▁Tue	-10.907
engal	-10.9081
ਰਾਗ	-10.9082
▁ਨਵੀਆਂ	-10.9084
ੰਝ	-10.9085
▁ਕਸਟਮਾਈਜ਼	-10.9094
▁ਬੈਂਡ	-10.9095
▁Trac	-10.9102
ਫਿਕਸ	-10.9105
HY	-10.9105
ਦਿਨ	-10.9105
▁ਠੰਢ	-10.9146
▁ਸਰਵੇ	-10.9148
olo	-10.9161
¥	-10.9165
ਨਾਇਜੀਰੀਆ	-10.9165
↑	-10.9165
▁Ductile	-10.9165
▁translator	-10.9165
▁ਕਾਰਜਕੁਸ਼ਲਤਾ	-10.9165
▁ਦੁਪਹਿਰ	-10.9165
▁ਬੰਨ੍ਹ	-10.9165
▁ਪੈਮਾਨੇ	-10.9165
▁ਗਣਿਤ	-10.9165
▁value	-10.9165
▁ਸਿਲਵਰ	-10.9165
▁ਸੁਪਨਾ	-10.9165
▁ਪ੍ਰਦਾਤਾ	-10.9165
Control	-10.9165
▁tense	-10.9166
▁ਭਾਅ	-10.9166
▁ਬੂਥ	-10.9166
▁ਲੋੜੀਦੇ	-10.9166
▁ਕਿਸ਼ਤੀ	-10.9166
▁ਪਲਾਨ	-10.9167
▁ਟ੍ਰਾਂਸ	-10.9167
▁ਮਹਿੰਗਾ	-10.9168
▁track	-10.9168
▁ਹੈੱਡਰ	-10.9168
▁ਲੰਮੀ	-10.9169
▁ਪਹਿਲੂ	-10.9171
▁ਫ਼ੋਨ	-10.9172
▁ਵੇਖਾਇਆ	-10.9174
▁ਸੂਬਾ	-10.9174
▁4.4	-10.9175
▁ATV	-10.9176
▁Valentines	-10.9181
Work	-10.9182
index	-10.9182
ਤੋਂ	-10.9184
▁ਕਹਾਣੀਆਂ	-10.9186
▁only	-10.9193
▁ਸਟਾਰਟਰ	-10.9209
reef	-10.9211
▁ਬੈਚ	-10.9214
udi	-10.9227
▁Geo	-10.9229
▁ਨਿਸ਼ਾਨਾ	-10.9234
ਿਸਤਾਨ	-10.9236
lder	-10.9245
▁ਬਣੋ	-10.9246
▁ਵੋਟਰ	-10.928
▁ਸਵੇਰ	-10.9283
▁ਰੁਜ਼ਗਾਰ	-10.93
▁ਸਟੂਡੀਓ	-10.93
Ctrl	-10.93
▁south	-10.93
▁ਕੈਟਾਗਰੀ	-10.93
▁ਕੋਨਕਿਉਰੋਰ	-10.93
▁ਪਿੰਜਰੇ	-10.93
▁ਫਿਟਨੈਸ	-10.93
▁ਫੋਟੋਗਰਾਫ਼	-10.93
▁ਸਫਲਤਾਪੂਰਕ	-10.93
	-10.93
▁ਕੱਲ੍ਹ	-10.93
▁ਧਮਾਕਾ	-10.93
▁ਕੈਂਸਰ	-10.93
▁ਗੂੜ੍ਹ	-10.93
▁ਨਾਇਰਾ	-10.93
▁multi	-10.93
▁folder	-10.93
custom	-10.93
▁ਇਕੱਤਰ	-10.93
▁element	-10.9301
▁ਜਿਹੜੀ	-10.9301
▁ਪੀੜਤ	-10.9301
▁ਚਰਬੀ	-10.9301
▁display	-10.9301
package	-10.9302
▁ਲਗਾਇਆ	-10.9305
▁ਲੱਗਣ	-10.9306
ਹੈਲਥ	-10.9311
▁ਬਰਫ਼	-10.9317
▁ਲਾਂਚਰ	-10.9322
▁ਦੁਖ	-10.9323
▁(£	-10.9324
▁ਸ਼ਾਹ	-10.9348
len	-10.9355
▁ਚਲਾਉ	-10.9362
och	-10.9363
png	-10.9369
ੁਅਲ	-10.9392
▁1999	-10.9396
▁ਚੋਣਕਾਰ	-10.9406
▁ਹਿੱਲ	-10.9408
ubric	-10.9412
ographic	-10.9432
ਂਦੀ	-10.9436
▁Jiang	-10.9437
plugin	-10.9437
▁ਨਿਊਯਾਰਕ	-10.9437
ਨੇਡਿਆਈ	-10.9437
੭	-10.9437
▁Metatrader	-10.9437
▁ਪਾਈਥਨ	-10.9437
▁ਪੀਟੀਐਫਈ	-10.9437
▁ਸੰਕਟਕਾਲੀਨ	-10.9437
▁ਹਵਾਈਅੱਡਾ	-10.9437
▁ਸਿਤਾਰੇ	-10.9437
▁ਬਾਈਨਰੀ	-10.9437
norway	-10.9437
second	-10.9438
▁ਭਾਸਾ	-10.9439
▁ਰਸਤਾ	-10.9439
rch	-10.9441
▁Iris	-10.9441
girl	-10.9442
▁what	-10.9442
▁ਮਿਕਸ	-10.9442
▁Estonia	-10.9443
ower	-10.9446
.07.20	-10.9446
▁ਡੈਮੋ	-10.9446
▁ਕਿਸਾਨ	-10.9448
▁ਬਾਰਡਰ	-10.9449
▁ਦਸਤੀ	-10.9449
▁ਨਿਯਮਿਤ	-10.945
▁ਨਸਲ	-10.9452
▁ਬੰਬ	-10.9454
777	-10.9455
▁ਅਨੁਕੂਲਿਤ	-10.9461
Total	-10.9461
▁ਰਾਖਵੇ	-10.9461
ਅਧਾਰਿਤ	-10.9465
New	-10.9466
▁ਖਰੀਦਦਾਰ	-10.9466
band	-10.947
▁Anti	-10.949
▁ਖ਼ਬਰਾਂ	-10.9495
▁ext	-10.9518
ੈੱਲ	-10.952
▁1300	-10.9525
0.4	-10.9528
▁ਬਿੱਲੀਆ	-10.9528
▁ਸਿੱਧੀ	-10.953
ੈਟਿਕ	-10.9563
▁ਜਿੱਤਣ	-10.9571
aribbean	-10.9576
▁extruder	-10.9576
▁ਅਕੈਡਮੀ	-10.9576
▁ਦਬ੍ਲੁ	-10.9576
September	-10.9576
▁Skype	-10.9576
▁ਇਸ਼ਾਰਾ	-10.9576
▁reply	-10.9576
Status	-10.9576
▁ਅੱਡੇ	-10.9576
▁ਗਰਾਫ਼	-10.9576
▁ਅਜੀਬ	-10.9577
▁ਸਿਆਸੀ	-10.9577
▁CVS	-10.9577
▁ਸਲੋਵਾਕੀਆ	-10.9577
▁ਸੈਟਅੱਪ	-10.9577
eorgia	-10.9578
▁High	-10.9578
▁ਬਰਬਾਦ	-10.9579
punjabistatus	-10.9579
▁ਬਣਾਉਂਦੀ	-10.958
▁ਸ਼ਰਤ	-10.9581
▁ਸਿਵਲ	-10.9584
▁With	-10.959
▁ਦੇਖਦੇ	-10.9599
▁ਮੈਥ	-10.9601
CAD	-10.9601
▁ਸੈਕਸ਼ਨ	-10.9603
▁ਸੈਮੀ	-10.9606
▁ਨਿਜੀ	-10.9611
157	-10.9611
▁ਆਇਆਂ	-10.9617
position	-10.9624
▁creat	-10.9626
▁Plane	-10.9635
ALL	-10.9635
(33)	-10.9664
106	-10.9667
user	-10.9708
â	-10.9717
′′	-10.9717
▁Africa	-10.9717
▁Queclink	-10.9717
▁ਆਰਕੀਟੈਕਚਰ	-10.9717
▁ਇੰਡਸਟਰੀ	-10.9717
▁ਕਾਨਫਰੰਸ	-10.9717
▁ਤਿੱਕੜੀ	-10.9717
▁ਪੁਰਤਗਾਲ	-10.9717
▁ਪ੍ਰਵਾਨਗੀ	-10.9717
▁ਪ੍ਰਾਈਵੇਸੀ	-10.9717
▁ਬਜ਼ੁਰਗ	-10.9717
í	-10.9717
▁World	-10.9717
▁ਬਲਾੱਗ	-10.9717
▁ਮੁੰਡੇ	-10.9717
▁ਸਾਈਟਮੈਪ	-10.9717
▁NZD	-10.9717
▁ਸਰਜਰੀ	-10.9717
craft	-10.9717
▁rules	-10.9717
▁ਨਾਰਵੇ	-10.9718
▁ਰੇਂਜ	-10.9718
▁just	-10.9721
Add	-10.9721
▁ਤੁਰਕੀ	-10.9724
▁ਮੱਤੀ	-10.9726
▁Aqua	-10.9726
▁ਘਟਨਾਵਾਂ	-10.9729
RPM	-10.9729
▁ਯੂਰੋਪ	-10.9731
▁ਮੋਟੋ	-10.9734
roll	-10.9737
▁ਆਰੀਆ	-10.9744
▁ਫਾਸਟ	-10.9745
ection	-10.9748
ਆਪਣੇ	-10.9754
690	-10.9765
▁1.6	-10.979
▁2.9	-10.9792
▁ਵਰਕਰ	-10.982
▁ਬੁਨਿਆਦ	-10.9823
watch	-10.9827
ique	-10.9837
▁Share	-10.9843
ਚੋਂ	-10.985
▁ਫਰਮਾ	-10.9852
ਕ੍ਰਿਪਸ਼ਨ	-10.9859
▁CSGO	-10.986
▁COMMAND	-10.986
▁ਅੰਮ੍ਰਿਤ	-10.986
▁ਕਿਲੋਗ੍ਰਾਮ	-10.986
▁ਗ਼ਲਤ	-10.986
▁ਨਜਿੱਠਣ	-10.986
▁ਪਹਿਨਣ	-10.986
▁ਪ੍ਰੋਫਾਇਲ	-10.986
▁ਮਾਈਕਰੋਸਾਫਟ	-10.986
▁settings	-10.986
▁ਘੰਟੀ	-10.986
▁ਕਲੀਨਰ	-10.986
▁Rental	-10.986
▁Multi	-10.986
▁ਟ੍ਰਾਂਸਫਰ	-10.9861
▁ਕ੍ਰਮਬੱਧ	-10.9861
▁Youtube	-10.9861
▁ਅੰਡੇ	-10.9863
▁ਧਿਰ	-10.9864
▁ਪਲਾਂਟ	-10.9864
swag	-10.9867
▁ਉਪਭੋਗਤਾਵਾਂ	-10.9871
▁Team	-10.9872
▁want	-10.9877
preet	-10.9881
cover	-10.9882
case	-10.9893
ਸਿਸਟਮ	-10.9901
▁ਬੋਲਣ	-10.9904
ਫਲੋ	-10.9907
ਵਾਇਰ	-10.9928
fine	-10.9929
ਵੈਲ	-10.995
▁ਆਜ਼ਾਦ	-10.9968
ency	-10.9972
▁ਪੋਟ	-10.9979
▁mode	-10.9986
▁Navtelecom	-11.0005
▁ਅਸੰਭਵ	-11.0005
▁ਐਕਟੀਵੇਟ	-11.0005
▁ਜਾਗਰੂਕਤਾ	-11.0005
▁ਜੁਡ਼ੋ	-11.0005
▁ਮੀਡਿਅਮ	-11.0005
▁ਮੁਸ਼ਕਿਲ	-11.0005
▁ਰੋਕਥਾਮ	-11.0005
▁ਐਤਵਾਰ	-11.0005
▁ਨਿਰੀਖਣ	-11.0005
▁ਪ੍ਰਮਾਣਿਕਤਾ	-11.0005
▁ਅਫਸਰ	-11.0005
▁ਗੁੱਸੇ	-11.0005
▁ਇੰਡੀਆ	-11.0005
▁ਰੋਧਕ	-11.0005
▁ਸੁਕਾਉਣ	-11.0005
▁ਓਵਨ	-11.0005
▁{{	-11.0006
film	-11.0006
black	-11.0007
control	-11.0008
▁ਡਰੈਸ	-11.001
▁Super	-11.0011
▁Oven	-11.0017
▁LCD	-11.002
▁(5)	-11.0026
▁ਲਿਓ	-11.004
▁Heng	-11.0046
ਸੁਪਰ	-11.0054
▁show	-11.0057
▁ਫੌਜੀ	-11.0059
▁Art	-11.0059
ival	-11.0077
-07-	-11.0079
vice	-11.0114
▁ਖ਼ੁਸ਼	-11.0115
▁ਟ੍ਰਿ	-11.0121
▁ਦੱਸਣ	-11.0124
hong	-11.013
▁ਜ਼ੈ	-11.0144
▁ਕੈਮੀਕਲ	-11.0152
▁ਡਿਟੈਕਟਰ	-11.0152
▁ਦੂਸਰੇ	-11.0152
▁ਨਾਈਟ੍ਰੋਜਨ	-11.0152
▁ਬੇਤਰਤੀਬ	-11.0152
▁ਮੁੱਢਲੀ	-11.0152
á	-11.0152
▁ਜ਼ਖ਼ਮ	-11.0152
▁ਸਮੇਟੋ	-11.0152
▁MOQ	-11.0152
▁ਭਾਗੀਦਾਰ	-11.0152
global	-11.0152
▁ਟਰੇਨਿੰਗ	-11.0152
Network	-11.0152
▁ਧਾਰਕ	-11.0152
funny	-11.0153
▁ਅਪੀਲ	-11.0154
▁ਲੜਕੀ	-11.0162
▁ਦਬਾਉਣ	-11.0164
atvia	-11.0167
1-3	-11.018
▁ਪੱਤਰਕਾਰ	-11.0181
ст	-11.0194
ਸੰਭਾਲ	-11.0201
ਔਰਤ	-11.0202
ਸਵੀਕਾਰ	-11.0204
ride	-11.0209
ISO	-11.0224
ਭਾਸ਼	-11.0242
▁ਲੰਬਾ	-11.0299
ü	-11.0301
Gilks	-11.0301
portugal	-11.0301
й	-11.0301
▁ਇੰਟਰਪਰਾਈਜ਼	-11.0301
▁ਨਿਰਵਿਘਨ	-11.0301
▁ਵਾੱਸ਼ਰ	-11.0301
▁ਸਿਲੀਕੋਨ	-11.0301
▁ਸੁਵਿਧਾ	-11.0301
germany	-11.0301
▁method	-11.0301
▁ਖੁੱਲ੍ਹਣ	-11.0301
à	-11.0301
▁ਮੰਗਲਵਾਰ	-11.0301
▁ਮਾਈਕਲ	-11.0301
▁ਸੁਸਤੀ	-11.0301
▁FAQ	-11.0301
JPY	-11.0302
▁RAM	-11.0302
▁Office	-11.0302
▁ਬੱਚਾ	-11.0303
ਿੰਦਰ	-11.0304
▁ਫੇਜ਼	-11.0304
▁ਚੁਸਤ	-11.0305
cache	-11.0307
▁ਅੰਬਰ	-11.0308
▁ਫ਼ਰਜ਼	-11.031
▁ਇਕਸਾਰਤਾ	-11.0313
107	-11.0314
▁ਤਜਰਬੇਕਾਰ	-11.0314
▁(8)	-11.0314
▁ਤ੍ਰਿ	-11.0316
▁ਕਿੰਨੀ	-11.032
▁ਰੀਵਰ	-11.0324
chen	-11.0331
▁ਦਬਾ	-11.0334
▁ਸਮੀਖਿਆਵਾਂ	-11.0341
4.0	-11.0343
feng	-11.0359
▁ਨਮ	-11.0361
▁comment	-11.0374
aze	-11.0379
ਹਵਾਈ	-11.0386
▁ਲੱਗਿਆ	-11.0401
899	-11.0421
ਭਾਸ਼ਾ	-11.0428
▁ਲਾਂਚ	-11.0429
▁Punjab	-11.0446
▁April	-11.045
erverAdmin	-11.0453
▁document	-11.0453
▁ਇੰਟਰਐਕਟਿਵ	-11.0453
▁ਕੈਲਸ਼ੀਅਮ	-11.0453
▁ਬਰ੍ਲਿਨ	-11.0453
▁ਮਾਈਕ੍ਰੋ	-11.0453
▁ਸਪੈਸ਼ਲ	-11.0453
▁IMAP	-11.0453
egypt	-11.0453
▁north	-11.0453
▁ਖ਼ਰੀਦ	-11.0453
▁present	-11.0453
▁ਅਰੋਮਾ	-11.0453
▁ਦਰਾੜ	-11.0453
▁Hydr	-11.0453
▁ਸਕਰੋਲ	-11.0453
▁ਰੇਸ਼ਮ	-11.0453
▁ਕਿਹੜਾ	-11.0453
▁ਫ਼ਿਲਮ	-11.0453
punjabisong	-11.0453
▁ਵਾਸੀਆਂ	-11.0453
▁ਮਕਾਨ	-11.0453
friend	-11.0453
▁also	-11.0453
▁ਮੁੱਦਿਆਂ	-11.0454
▁ਪੌਦਿਆਂ	-11.0454
▁ਬਕਾਇਆ	-11.0455
ко	-11.0455
▁ਚਮਕਦਾਰ	-11.0457
▁ਪੁੰਜ	-11.0457
MHz	-11.0459
▁ਹੈਂਡਰ	-11.0459
▁ਮੋਟਾ	-11.0472
▁ਹਾਰਲੇ	-11.0472
▁ਯੋਜਨਾਵਾਂ	-11.0485
ਪਸੰਦ	-11.0512
ਤੁਰਕ	-11.0513
Direct	-11.0516
▁POR	-11.0517
▁ਰੀਫ਼	-11.0522
tools	-11.0528
▁ਮਿਸਰ	-11.053
ette	-11.0539
▁ਰੂਲ	-11.0562
ਐਂਡ	-11.0562
ਦੋਹਰਾ	-11.0583
▁ਸੈਕਰੋਨਾਈਜ਼	-11.0605
ы	-11.0607
▁ObjectClass	-11.0607
▁ਅਟਲਾਂਟਿਕ	-11.0607
▁ਆਕਰਸ਼ਕ	-11.0607
▁ਉੱਨ	-11.0607
▁ਪੁਰਾਤਨ	-11.0607
▁ਬਾਇਓਡਾਟਾ	-11.0607
▁ਸੈਟੇਲਾਈਟ	-11.0607
▁ਸੰਚਲਿਤ	-11.0607
▁ਸੰਰਚਿਤ	-11.0607
▁ਸੱਟੇਬਾਜ਼ੀ	-11.0607
❖	-11.0607
▁America	-11.0607
▁Electro	-11.0607
▁ਪ੍ਰਾਚੀਨ	-11.0607
▁ਬੁੱਧੀਮਾਨ	-11.0607
▁ਮੋਢੇ	-11.0607
▁ਹਫ਼ਤਾ	-11.0607
▁ਅਸੀਮਤ	-11.0607
▁ਸੁਰਖੀ	-11.0607
Standard	-11.0607
▁ਖਤਰੇ	-11.0607
▁shell	-11.0607
burg	-11.0607
▁ਟਰਾਂਸਫਰ	-11.0608
ни	-11.0609
▁ਸਸਤੀ	-11.0609
▁ਯੇਨ	-11.0612
▁ਭਰਪੂਰ	-11.0613
▁ਸਾਰਿਆਂ	-11.0613
.08.20	-11.0614
▁ਡਾਟੇ	-11.0615
▁ਪੁੱਛਗਿੱਛ	-11.0617
▁ਐਕਸੈਸ	-11.062
ocus	-11.0624
town	-11.0628
kaur	-11.0632
▁ਸੁਣਿਆ	-11.0637
▁ਗੇਟ	-11.0648
▁ਲੰਮਾ	-11.0668
hour	-11.0668
×	-11.067
ਮੋਬਾਈਲ	-11.067
wall	-11.0677
▁symbol	-11.0697
▁ਲੂਪ	-11.0717
000000	-11.0747
7.00	-11.0751
▁Royale	-11.0763
▁Українська	-11.0763
▁ਅਤੇਿਨਕਾਸ	-11.0763
▁ਕੋਨਕਿਊਰੋਰ	-11.0763
▁ਧਾਰਮਿਕ	-11.0763
▁ਮਜਬੂਤ	-11.0763
▁ਵਿਦਿਅਕ	-11.0763
▁ਸਸਪੈਂਡ	-11.0763
▁ਸੂਚਿਤ	-11.0763
▁ਕੈਪਸੂਲ	-11.0763
▁ਬਜਾਜ	-11.0763
▁ਉਪਾਅ	-11.0763
▁ਵੇਖਾਏ	-11.0763
request	-11.0763
▁ਲਸਣ	-11.0763
▁ਦਾਊਦ	-11.0763
▁ਸਪੈਕਟਰ	-11.0763
▁Market	-11.0763
▁Villa	-11.0763
▁Mana	-11.0764
punjabiwedding	-11.0765
▁ਬਿੱਟਰੇਟ	-11.0765
▁ਰੂਹ	-11.0765
product	-11.0766
2.40	-11.0766
▁ਚੱਲਦੀ	-11.0766
▁ਪਹੀਆ	-11.0767
▁ਫਸਲ	-11.0767
▁ਪੋਲੈਂਡ	-11.0768
▁ਬਰੈਕਟ	-11.0768
▁ਕੋਇਲ	-11.0769
▁ਪੋਕਰ	-11.077
▁ਮੂਵੀ	-11.0771
▁ਅਰਧ	-11.0772
▁ਲਿਖਣਯੋਗ	-11.0776
▁ਗਰੀਬ	-11.0777
ould	-11.0779
▁ਕਾਸਟਿੰਗ	-11.0779
▁ਸੌਨਾ	-11.0781
body	-11.0782
lli	-11.0784
▁Alam	-11.0794
ਮਿਟ	-11.0797
▁ਮਿਲਦੇ	-11.0804
1.1	-11.0804
▁ਸਮਝਿਆ	-11.0814
Temp	-11.0821
—	-11.0827
ਸੰਗੀਤ	-11.0831
▁ਸੌਣ	-11.0836
ਅੱਠ	-11.0846
8.00	-11.0863
gov	-11.0874
▁ਬ੍ਰਿਜ	-11.0901
▁Code	-11.0914
▁ਨਵੀਨਤਾ	-11.0921
Orgasms	-11.0921
Unknown	-11.0921
onduras	-11.0921
▁Bamboo	-11.0921
▁quality	-11.0921
▁ਆਰਾਮਦਾਇਕ	-11.0921
▁ਕਲੀਸਿਯਾ	-11.0921
▁ਤਿੱਖਾ	-11.0921
▁ਥੋੜ੍ਹੇ	-11.0921
▁ਭਵਿੱਖਬਾਣੀ	-11.0921
^	-11.0922
▁ਰਗੜ	-11.0922
▁ਸਟਿੱਪਰ	-11.0922
▁controller	-11.0922
▁ਬੱਚਤ	-11.0922
▁GUI	-11.0922
▁ਲੀਨੀਅਰ	-11.0922
▁LLC	-11.0922
Config	-11.0922
▁wordpress	-11.0922
▁ਕਰਾਂਗਾ	-11.0923
ondale	-11.0923
pdf	-11.0923
▁ਰਿਆਲ	-11.0924
▁ਕਲਾਇੰਟ	-11.0924
▁ਰਨਰ	-11.0926
▁ਨਿਰਾਸ਼	-11.0927
▁ਐੱਲ	-11.0934
▁Full	-11.0938
▁most	-11.0941
mag	-11.0942
▁ਉਪਯੋਗਤਾ	-11.0943
▁peru	-11.0948
▁POP	-11.0951
▁Chang	-11.0961
gain	-11.0968
▁ਐਥ	-11.0973
market	-11.0974
IVE	-11.0984
status	-11.0991
ਐੱਫ	-11.0994
ਪੱਤਰ	-11.0998
▁ਫੇਸ	-11.1001
6.00	-11.1011
▁ਬਾਈਟ	-11.1025
▁1/2	-11.1036
singh	-11.1083
č	-11.1083
uatemala	-11.1083
▁Accessed	-11.1083
▁Beilun	-11.1083
▁faucet	-11.1083
▁ਗ੍ਰੰਥ	-11.1083
▁ਡਿਸਟਰੀਬਿਊਸ਼ਨ	-11.1083
▁ਨਹੁੰ	-11.1083
▁ਨੈਵੀਗੇਟ	-11.1083
▁ਪ੍ਰੋਸੈਸਰ	-11.1083
▁ਮਾਸਪੇਸ਼ੀ	-11.1083
▁ਮੈਕਸੀਕਨ	-11.1083
▁ਮੋਨੋਸੋ	-11.1083
▁Agusta	-11.1083
▁ਪ੍ਰਮੁਖ	-11.1083
▁ਸਾਊਥ	-11.1083
▁ਮੁੰਡਾ	-11.1083
▁ਮੈਕਸੀਕੋ	-11.1083
▁ਐਲੀਮੈਂਟ	-11.1083
virsa	-11.1083
▁ਗਰਲਜ਼	-11.1083
▁Crack	-11.1083
▁ਸਾਇਜ਼	-11.1083
▁ਕੂਲਿੰਗ	-11.1083
▁ਚੇਪੋ	-11.1083
▁ਬਜਟ	-11.1083
▁ਚਿਲਰ	-11.1083
▁ਰੱਸੀ	-11.1083
▁ਨਿਰੰਤਰ	-11.1083
▁ਸੰਦੇਸ਼	-11.1084
▁SMD	-11.1084
▁ਜਮ੍ਹਾਂ	-11.1085
▁Aprilia	-11.1085
upload	-11.1085
▁ਗੇਟਵੇ	-11.1086
▁ਕਲਿੱਪ	-11.1086
▁ਚੋਰੀ	-11.1091
BRL	-11.1092
▁ਗਾਮਾ	-11.1096
▁ਫੀਸਦੀ	-11.11
▁ਛੁੱਟੀਆਂ	-11.1102
▁ਕਰਮਚਾਰੀਆਂ	-11.1107
▁mach	-11.1107
ਫੋਰਡ	-11.1108
▁ਦੱਸਦਾ	-11.1113
▁ਕਰੀਬ	-11.1115
▁past	-11.1129
▁ਕਿਊਬ	-11.113
ਐਰੀ	-11.1149
▁ਖਿੱਚਣ	-11.116
Guangdong	-11.1161
·	-11.1162
ਵਿਕਰੀ	-11.1177
▁ਵੇਵ	-11.1204
▁Blue	-11.1222
▁ਰਹ	-11.1223
то	-11.1232
ੋਖਮ	-11.1235
XNUM	-11.1241
▁Archiv	-11.1243
▁ਭਾਫ	-11.1245
ੈੱਨ	-11.1247
araguay	-11.1247
▁GALILEOSKY	-11.1247
▁ਆਂਜੂਤਾ	-11.1247
▁ਜੈਕਪਾਟ	-11.1247
▁ਬੁਲਗਾਰੀਆ	-11.1247
▁ਯੁੱਧ	-11.1247
▁ਆਟੋਮੇਸ਼ਨ	-11.1247
▁ਫੂਡ	-11.1247
▁ਮਾਡਮ	-11.1247
▁ਹਾਊਸਿੰਗ	-11.1247
▁every	-11.1247
▁gettext	-11.1247
▁Intel	-11.1247
▁ਯੰਤਰ	-11.1248
▁ਹੱਡੀ	-11.1248
▁ਹਨੇਰੇ	-11.1248
▁ਰਲਵੇਂ	-11.1249
▁ਜ਼ਿੰਕ	-11.1249
▁ਸ਼੍ਰੇਣੀਬੱਧ	-11.1249
▁ਚਾਕੂ	-11.125
▁ਆਸਮਾਨ	-11.1252
▁ਸਾਹਿਤ	-11.1254
PLU	-11.1254
▁2.4	-11.1257
▁full	-11.1261
▁Link	-11.1265
▁BCE	-11.1266
▁ਕੱਢੋ	-11.1269
▁ਵੇਖਾਈ	-11.1271
izing	-11.1274
-05-	-11.1296
▁2.1	-11.1305
▁Drive	-11.1315
ਗੁਣਵੱਤਾ	-11.1331
Mail	-11.1363
▁ਸੋਚਣ	-11.1388
Site	-11.1394
="3.	-11.1405
▁ਦੱਬ	-11.1411
alaysia	-11.1413
ਇਨੋਵੇਟਿਵ	-11.1413
▁Dariussssss	-11.1413
▁available	-11.1413
▁zealand	-11.1413
▁ਕਿਫਾਇਤੀ	-11.1413
▁ਕੰਬੋਡੀਆ	-11.1413
▁ਡਿਸਚਾਰਜ	-11.1413
▁ਮਲੇਸ਼ੀਆ	-11.1413
▁ਠਾਠ	-11.1413
▁ਵੇਖਾਉਦਾ	-11.1413
ਧੋਖਾਧੜੀ	-11.1413
▁ਖੋਲਿਆ	-11.1413
▁ਦੇਖਾਂਗਾ	-11.1413
▁ਉੱਦਮ	-11.1413
▁ਸਿੱਕਾ	-11.1413
▁ਹਾਈਡਰੋ	-11.1413
▁ਲੋੜੀਂਦੀ	-11.1414
▁ਜੀਟੀਏ	-11.1414
Studio	-11.1414
▁connection	-11.1414
computer	-11.1414
▁ਸ਼ਾਪਿੰਗ	-11.1415
???	-11.1415
▁(2016)	-11.1415
▁ਵੈਕਟਰ	-11.1415
▁ਫੈਲਾਓ	-11.1416
▁ਮੀਮੋ	-11.1417
▁ਜਾਇਜ਼	-11.1418
▁ਬੁਲੇਟ	-11.142
▁ਹਾਸ਼ੀਆ	-11.1423
ngola	-11.1424
▁ਸੁਪ੍ਰ	-11.1433
▁Guang	-11.1439
face	-11.1445
▁ਗੋਲਫ	-11.1453
vir	-11.1458
▁ਇਲੈਕਟ੍ਰੋ	-11.1476
symbols	-11.1484
4.8	-11.1491
▁ਖ਼ਾ	-11.1499
wind	-11.15
5:00	-11.1518
ਚੀਨੀ	-11.1526
ਤਿਆਰ	-11.1534
▁ਸ਼ਾਂਤ	-11.1547
1.9	-11.1567
hydro	-11.1569
ь	-11.1583
▁Australia	-11.1583
▁Samsung	-11.1583
▁ਆਤੰਕਵਾਦ	-11.1583
▁ਕਨਵਰਟਰ	-11.1583
▁ਕੰਪਨਸੇਸ਼ਨ	-11.1583
▁ਚਿਟ੍ਟੇ	-11.1583
▁ਟਮਾਟਰ	-11.1583
▁ਦੂਜਿਆਂ	-11.1583
▁ਨਮੂਦਾਰ	-11.1583
▁ਰਿਜ਼ਰਵੇਸ਼ਨ	-11.1583
👇	-11.1583
«	-11.1583
▁ਚੱਟਾਨ	-11.1583
▁MIME	-11.1583
▁ireland	-11.1583
▁ਖੱਬਾ	-11.1583
▁ਨਿਊਜ਼ੀਲੈਂਡ	-11.1583
▁ਕਨਸੋਲ	-11.1583
▁ਚਮੜੇ	-11.1583
▁ਪੁਸਤਕ	-11.1583
▁ਕੁਵੈਤ	-11.1583
gnome	-11.1583
Dragon	-11.1583
▁Classic	-11.1583
▁Water	-11.1583
▁ਇਕੱਠੀ	-11.1584
▁ਲੈਂਪ	-11.1584
▁ਸਮਾਰਟਫੋਨ	-11.1585
▁ਡੀਜ਼ਲ	-11.1585
▁open	-11.1586
▁ਸਪੇਅਰ	-11.1587
cross	-11.1589
Class	-11.1589
▁Other	-11.1593
▁(15)	-11.1595
steel	-11.1599
▁Unit	-11.1605
▁ਪਹੁੰਚਯੋਗ	-11.1605
edici	-11.1609
▁ਗਿਰੀ	-11.161
та	-11.1623
wale	-11.1628
Start	-11.1631
686	-11.1667
tets	-11.1674
4.5	-11.1676
ਬਣਾਉਣ	-11.168
▁ਸਾੜ	-11.169
▁ਧੋਣ	-11.171
▁ਚੋ	-11.1722
▁ਹਿੱ	-11.1729
▁ਸਥਾਪਨ	-11.1737
▁ਇੰਡੋਨੇਸ਼ੀਆ	-11.1746
ਹਵਾਈਅੱਡੇ	-11.1755
▁Daqi	-11.1755
▁Scratch	-11.1755
▁ਅਕਾਦਮਿਕ	-11.1755
▁ਔਰਫੇਕ	-11.1755
▁ਫਰੈਂਚ	-11.1755
▁ਮੁਕਾਬਲਾ	-11.1755
▁UADescription	-11.1755
▁ਡਾਇਮੰਡ	-11.1755
▁ਰਸਾਲੇ	-11.1755
α	-11.1755
▁orgasm	-11.1755
▁ਆਰਐਸਐਸ	-11.1755
🏻	-11.1755
▁Washing	-11.1755
ਮੇਨਲਡ	-11.1755
▁ਪਿਸਟਨ	-11.1755
ਪਹਿਨੇ	-11.1756
▁Rights	-11.1756
▁micro	-11.1756
▁ਪੁਨਰ	-11.1756
▁Price	-11.1757
▁ਪੋਥੀ	-11.1757
▁WiFi	-11.1758
▁know	-11.1758
▁ਸਕਰਟ	-11.1759
ਾਉਂਡ	-11.176
▁ਲਿਨਨ	-11.176
▁ਸਸਤੇ	-11.176
▁ਬਚਾਅ	-11.1762
▁Review	-11.1763
▁United	-11.1763
xiang	-11.1764
▁Grand	-11.1766
jpg	-11.1774
▁ਨੌਕਰ	-11.1779
▁ਨੌ	-11.1844
ਨੌਜਵਾਨ	-11.1858
ਤੁਹਾਨੂੰ	-11.1858
2.6	-11.1865
▁ਫੌਜ	-11.1866
▁ਘੁੰਮਣ	-11.1916
ਪਕਵਾਨਾ	-11.1919
▁***	-11.1929
Refrigeration	-11.1931
▁antenna	-11.1931
▁blasting	-11.1931
▁buddypress	-11.1931
▁memory	-11.1931
▁minutes	-11.1931
▁ਅਧੂਰਾ	-11.1931
▁ਜਿਹੜਾ	-11.1931
▁ਤਬਾਦਲਾ	-11.1931
▁ਭਿਆਨਕ	-11.1931
▁ਮਨੋਵਿਗਿਆਨ	-11.1931
▁ਵਾਧੇ	-11.1931
▁ਵਾਰਤਾਲਾਪ	-11.1931
▁ਵੈਲੇਨਟਾਈਨ	-11.1931
▁ਸਧਾਰਣ	-11.1931
▁ਦੁਸ਼ਮਣ	-11.1931
▁ਫਰਿੱਜ	-11.1931
▁ਲ਼ਈ	-11.1931
▁ਵਾਜਬ	-11.1931
▁ਟਿਸ਼ੂ	-11.1931
▁Foshan	-11.1931
▁ਸੁਪਨੇ	-11.1931
ਯਾਈਆਂ	-11.1931
▁ਡੀਵੀਡੀ	-11.1931
▁ਸਰੋਵਰ	-11.1931
▁ਸਟੱਡੀ	-11.1931
detail	-11.1931
▁ਫਾਰਮੇਸੀ	-11.1931
▁ਬਰੇਕ	-11.1931
▁provide	-11.1931
▁ਸਪਰੇਅ	-11.1931
▁ਕ੍ਰੀਮ	-11.1932
▁ਸ਼ਰੀਰ	-11.1932
▁ਧਾਰਾ	-11.1934
▁ਸੁਰੰਗ	-11.1938
▁ਭਗਤ	-11.1938
▁ਉੱਠ	-11.1939
▁ਬਚਾਓ	-11.194
▁ਨੰਗੀ	-11.1942
ਬਾਈਡਿੰਗ	-11.1943
▁ਆਪਟਿਕ	-11.1947
▁ਖੜ	-11.1947
ਮੁੱਕੇ	-11.1949
▁ਹੈਡਲ	-11.1969
ਚਾਲਿਤ	-11.1973
="0.	-11.1976
▁give	-11.1981
▁ਟ੍ਰਿਪ	-11.2019
hibi	-11.2025
Casino	-11.204
ਆਨਲਾਈਨ	-11.2052
ਉੱਚ	-11.2057
ੇਂਟ	-11.2059
▁awesome	-11.2109
▁ਹਾਈਡ੍ਰੋ	-11.2109
jattwaad	-11.2109
▁Eyelash	-11.2109
▁February	-11.2109
▁Kingdom	-11.2109
▁Reserved	-11.2109
▁exacthacks	-11.2109
▁konqueror	-11.2109
▁ਅਟਾਰਨੀ	-11.2109
▁ਅੱਤਵਾਦ	-11.2109
▁ਇਮਤਿਹਾਨ	-11.2109
▁ਕੌਂਡੋ	-11.2109
▁ਜੁਰਮਾਨਾ	-11.2109
▁ਟਕਰਾਅ	-11.2109
▁ਨਿਯੰਤ੍ਰਿਤ	-11.2109
▁ਮਹੱਤਤਾ	-11.2109
▁ਮਿਊਜ਼ੀਅਮ	-11.2109
▁ਮੈਡੀਊਲ	-11.2109
▁ਰੋਗਾਣੂ	-11.2109
▁ਸਪਲੀਮੈਂਟ	-11.2109
▁ਹਰੀਜ਼ਟਲ	-11.2109
▁Suntech	-11.2109
▁ਐਕਸਟਰੈਕਟ	-11.2109
▁Training	-11.2109
▁ਖਣਿਜ	-11.2109
▁ਪਰੰਪਰਾ	-11.2109
▁LDAP	-11.2109
▁ਆਸਤੀਨ	-11.2109
▁ਟੈਕਸਟਾਈਲ	-11.2109
▁ਗੂਜ਼ੀ	-11.2109
▁ਪੂਰਤੀ	-11.211
▁ਨਿਗਮ	-11.211
▁level	-11.211
▁ਨਵੀਨਤਾਕਾਰੀ	-11.211
hewan	-11.211
▁ਅਨਾਜ	-11.2111
ма	-11.2111
▁ਠਹਿਰ	-11.2112
▁ਸਕੋਪ	-11.2112
▁ਹਵਾਬਾਜ਼ੀ	-11.2112
▁ਬਰਲਿਨ	-11.2114
▁ਰਾਣੀ	-11.2119
▁ਕੈਫੇ	-11.2119
▁(*.	-11.2122
▁ਕੰਮਕਾਜ	-11.2137
▁ਲਾਉਣ	-11.2221
Press	-11.2224
2-4	-11.2232
wire	-11.2235
▁5.1	-11.2274
▁ਪ੍ਰਤੀਨਿਧ	-11.2282
▁ਕੈਚ	-11.2284
ਸਪਾਟਾ	-11.2289
subject	-11.229
bulgaria	-11.2291
▁Browser	-11.2291
▁Hawaii	-11.2291
▁Logik	-11.2291
▁Security	-11.2291
▁WikiWon	-11.2291
▁eaccelarator	-11.2291
▁iTunes	-11.2291
▁wagering	-11.2291
▁weekday	-11.2291
▁ਅੰਦੋਲਨ	-11.2291
▁ਇਗਨੀਸ਼ਨ	-11.2291
▁ਫਾਲਤੂ	-11.2291
▁ਬੁਝਾਰਤ	-11.2291
】	-11.2291
▁(2014)	-11.2291
▁ਝਿੱਲੀ	-11.2291
▁Group	-11.2291
▁ਅਗਿਆਤ	-11.2291
▁ਜੰਮੂ	-11.2291
▁ਰਿਚਰਡ	-11.2291
▁ਸਿਈਵੀ	-11.2291
▁ਬੇਲਚਾ	-11.2291
▁ਹਫਤਾ	-11.2291
▁Sweet	-11.2291
▁ਸਗੋਂ	-11.2291
▁ਲੈਂਦਾ	-11.2291
tadka	-11.2291
▁ਕਿਸ਼ੋਰ	-11.2291
wmk	-11.2291
▁ਪਰਿਸਰ	-11.2291
▁SVN	-11.2292
▁ਕਿੰਨੇ	-11.2292
▁ਥਰਡ	-11.2292
▁ਜਵਾਬਦੇਹ	-11.2292
▁jamai	-11.2292
ommerce	-11.2292
▁ਹਿੰਦੂ	-11.2292
▁THB	-11.2292
▁ਫੁੱਟਬਾਲ	-11.2293
▁xcache	-11.2294
▁ਪ੍ਰਾਂਤ	-11.2295
▁ਕੁਇੰਟ	-11.2295
▁ਵਰਲਡ	-11.2295
▁ਪੁੱਗ	-11.2297
▁ਕੈਂਪ	-11.2303
▁ਬੈੱਡ	-11.2304
▁Miss	-11.2304
savea	-11.2306
▁4.2	-11.2327
▁ਨਿੰ	-11.2334
те	-11.2409
6.2	-11.2413
ਪੁੱਟ	-11.2419
plex	-11.2448
Head	-11.2464
channel	-11.2476
▁Meitrack	-11.2476
▁Middle	-11.2476
▁OpenPGP	-11.2476
▁Virtual	-11.2476
▁Zhongtai	-11.2476
▁securityfix	-11.2476
▁ਅਸਧਾਰਨ	-11.2476
▁ਇਮਾਨਦਾਰ	-11.2476
▁ਇੱਥੋਂ	-11.2476
▁ਉਨਟਾਰੀਓ	-11.2476
▁ਕੰਪਰੈੱਸ	-11.2476
▁ਖ਼ਰਾਬ	-11.2476
▁ਪ੍ਰਤੀਬਿੰਬ	-11.2476
▁ਮੁਕੱਦਮੇ	-11.2476
ability	-11.2476
screen	-11.2476
▁Heroes	-11.2476
▁before	-11.2476
▁ਪੂੰਜੀ	-11.2476
▁ਖਰਾਦ	-11.2476
▁ਬੱਦਲ	-11.2476
▁ਪਰੋਮੋ	-11.2476
▁ਸ਼ੈਤਾਨ	-11.2476
ਸਵਾਮੀ	-11.2477
▁ਡ੍ਰਾਈਵ	-11.2477
▁ਤਲਾਕ	-11.2477
ਡੇਵਿਡਸਨ	-11.2477
▁ਦੇਵੇਗੀ	-11.2477
▁ਇਰਾਕ	-11.2477
▁ਕਨਵੇਅਰ	-11.2477
Design	-11.2478
/12/	-11.2478
ка	-11.2478
▁ਉਪਰੰਤ	-11.2479
▁ਭਾਫ਼	-11.2479
▁Steel	-11.2483
▁ਦੁਹਰਾਓ	-11.2483
▁ਉਤਰਨ	-11.2483
▁ਖਪਤਕਾਰ	-11.2484
ਡਬਲਿਊ	-11.2492
katc	-11.2493
ре	-11.25
ellow	-11.2506
▁ਫ਼ਾਰ	-11.2514
▁Print	-11.2567
▁ਇਲੈਕਟ੍ਰ	-11.2591
ਉਤਪਾਦ	-11.2606
ਪਾਣੀ	-11.2618
shoot	-11.2646
oftheday	-11.2665
unknown	-11.2665
azakhs	-11.2665
netherlands	-11.2665
▁1528113	-11.2665
▁86-574-8	-11.2665
▁Equipment	-11.2665
▁Morehacks	-11.2665
▁ਇਮੀਗ੍ਰੇਸ਼ਨ	-11.2665
▁ਚੂੜੀਦਾਰ	-11.2665
▁ਨਕਾਰਾਤਮਕ	-11.2665
▁ਨੁਮਾਇੰਦਗੀ	-11.2665
▁ਬੇਮਿਸਾਲ	-11.2665
▁ਵਸਨੀਕ	-11.2665
▁ਸਪਿੰਡਲ	-11.2665
▁ਸੈਕੰਡਰੀ	-11.2665
▁ਹੁਈਜ਼ੌ	-11.2665
▁Community	-11.2665
▁remover	-11.2665
▁ਕਾਲਪਨਿਕ	-11.2665
▁ਪਰਸ਼ਾਸ਼ਕ	-11.2665
▁ਵੱਕਾਰ	-11.2665
▁ਵੱਟਦਾਰ	-11.2665
ਬਿਛੂ	-11.2665
▁bonus	-11.2665
▁ਤਾਜ਼ੇ	-11.2665
▁ਪੈਨਾਮਾ	-11.2665
▁ਮੱਛਰ	-11.2665
▁ITIL	-11.2665
▁ਸਿਮਰਨ	-11.2665
connect	-11.2665
▁ਡ੍ਰਾਇਵ	-11.2665
▁ਸੰਦਰਭ	-11.2665
manager	-11.2665
▁ਸਦਮਾ	-11.2665
▁Coban	-11.2665
▁Xxx	-11.2665
▁77°	-11.2665
▁ਮਿਡਲ	-11.2665
▁ਬੈਰਲ	-11.2665
▁update	-11.2665
▁ਸੈਂਪਲ	-11.2665
▁ਉਣਿਆ	-11.2666
▁ਅਸੈੱਸ	-11.2667
▁ਪਰਕਾਸ਼	-11.2668
▁ਜ਼ਾਹਰ	-11.2671
▁ਝੱਗ	-11.2672
▁ਫੈਨ	-11.2707
blue	-11.2728
script	-11.2744
1.8	-11.2768
ਵਿਗਿਆਨ	-11.2799
message	-11.2802
ਦੱਖਣੀ	-11.2802
ਵਿਸ਼ਵਾਸ	-11.2802
Deli	-11.2811
ਪੂਰਵਕ	-11.2819
▁ਨਿਗਰਾਨ	-11.2821
0.7	-11.284
▁ਡੂੰਘਾ	-11.2851
security	-11.2857
Otslaivanie	-11.2857
ਅਖ਼ਤਿਆਰੀ	-11.2857
ਜਿਉਮੈਟਰਿਕ	-11.2857
▁Newfoundland	-11.2857
▁ਓਕੁਲਾਰ	-11.2857
▁ਦੁਰਲੱਭ	-11.2857
▁ਬ੍ਰਾਊਜ਼ਿੰਗ	-11.2857
▁ਮਹਿੰਦਰਾ	-11.2857
▁ਮੁਕਾਬਲਤਨ	-11.2857
▁ਸਿੰਥੈਟਿਕ	-11.2857
---------------	-11.2857
password	-11.2857
▁Amateurs	-11.2857
▁ਇਸਰਾਏਲ	-11.2857
▁ਕਲੋਰਾਈਡ	-11.2857
▁ਤਾਮਿਲ	-11.2857
▁ਮਿਲ੍ਫ਼	-11.2857
▁ਰਿਫੰਡ	-11.2857
ਸਿਮੂਲੇਸ਼ਨ	-11.2857
▁ਸ੍ਰੋਤ	-11.2857
▁ਆਸਟਰੀਆ	-11.2857
▁по	-11.2857
▁ਖ਼ਰਚ	-11.2857
▁ਹਰਿਆਣਾ	-11.2857
▁after	-11.2857
▁ਵਸੀਲੇ	-11.2857
▁ਈਰਾਨੀ	-11.2857
▁ਨਿਕਾਰਾ	-11.2857
▁ਸੀਨੀਅਰ	-11.2858
▁ਵਾਸ਼ਿੰਗਟਨ	-11.2858
▁ਰਸਮੀ	-11.2858
▁ਭਾਸ਼ਣ	-11.2859
▁Lucks	-11.2859
▁ਡੌਕ	-11.2859
▁temp	-11.2859
▁ਦੇਣਦਾਰੀ	-11.2859
▁ਸੌਖੀ	-11.2859
▁ਉੱਲੀਮਾਰ	-11.286
▁ਜਰਸੀ	-11.2861
▁ਚੱਲਣਯੋਗ	-11.2861
▁chart	-11.2865
▁ਪੇਂਟ	-11.2865
5.5	-11.287
är	-11.2883
੧੦	-11.2904
ਜੈਕਟ	-11.2922
Manufacturer	-11.3001
▁ਪਰੋਸੈੱਸ	-11.3053
sidhumoosewala	-11.3053
Ω	-11.3053
▁Gurgaon	-11.3053
▁TURAS	-11.3053
▁Virginia	-11.3053
▁Zealand	-11.3053
▁ਆਯੋਜਨ	-11.3053
▁ਕ੍ਰਿਸ਼ਨਾ	-11.3053
▁ਪੌਲੁਸ	-11.3053
▁ਪ੍ਰਭਾਸ਼ਿਤ	-11.3053
▁ਬੈੱਡਰੂਮ	-11.3053
▁ਮਿਲਿੳਨ	-11.3053
▁ਮੇਟਾਡਾਟਾ	-11.3053
▁ਵੀਅਤਨਾਮ	-11.3053
▁ਵੇਰੀਏਬਲ	-11.3053
▁ਸਰਟੀਫਕੇਟ	-11.3053
▁XMailer	-11.3053
▁ਨਿਹਚਾ	-11.3053
▁ਬੰਸਰੀ	-11.3053
▁ਮਾਪਦੰਡ	-11.3053
▁ਮੁੰਬਈ	-11.3053
▁ਵਿਰਾਸਤ	-11.3053
▁ਪਵੇਗੀ	-11.3053
▁ਅਸਥਾਨ	-11.3053
▁ਰੋਮਾਨੀਆ	-11.3053
▁ਵਿਲੀਅਮ	-11.3053
▁Packing	-11.3053
▁ਟਾਉਨ	-11.3053
▁ਲੈਕਚਰ	-11.3053
location	-11.3053
xbet	-11.3054
▁ਫ਼ੌਜ	-11.3054
▁ਦਾਅਵੇ	-11.3054
▁ਖੁੱਲ੍ਹੀ	-11.3054
▁complete	-11.3054
▁ਕਰੰਸੀ	-11.3055
▁ਤੀਜੇ	-11.3055
▁ਜਿੰਨੀ	-11.3055
▁ਨਿਸ਼ਾਨਬੱਧ	-11.3055
▁ਲੇਬਰ	-11.3055
▁preview	-11.3056
▁Benz	-11.3058
▁ਦਇਆ	-11.3063
▁ਕਿਹੜੀ	-11.3065
▁ਲਾਟਰੀ	-11.3067
▁ਉਦਾਸ	-11.3067
rick	-11.3079
Model	-11.3086
ਊਂਟ	-11.3086
▁Asia	-11.3088
▁ਫੇਡ	-11.31
▁than	-11.312
Book	-11.3193
»	-11.3206
ਚਿੱਤਰ	-11.3206
▁4.7	-11.3248
chandigarh	-11.3253
😘	-11.3253
_______	-11.3253
rgentina	-11.3253
▁Digital	-11.3253
▁Facebook	-11.3253
▁cellulose	-11.3253
▁ਐਟਲਾਟਿਕ	-11.3253
▁ਕੰਪਰੈਸ਼ਨ	-11.3253
▁ਗੜਬੜ	-11.3253
▁ਘੋਸ਼ਣਾ	-11.3253
▁ਚਤੁਰਭੁਜ	-11.3253
▁ਡਿਵੈਲਪਮੈਂਟ	-11.3253
▁ਸੁਪਰਐਡਮਿਨ	-11.3253
▁Diavel	-11.3253
▁ਗਰਭਵਤੀ	-11.3253
▁ਰੈਸਟੋਰਟ	-11.3253
▁ਲਵਾਂਗੇ	-11.3253
▁ਮੀਂਹ	-11.3253
▁ਰਾਸ਼ਟਰਪਤੀ	-11.3253
feature	-11.3253
church	-11.3253
▁ਬਾਂਸ਼ੀ	-11.3253
▁ਕਰਾਫਟ	-11.3254
▁bottl	-11.3254
▁ਕਿਹੜੇ	-11.3254
▁ਡਾਇਨਿੰਗ	-11.3254
▁Desmo	-11.3254
▁Film	-11.3254
piece	-11.3254
▁Hongxiang	-11.3254
▁ਬਜ਼ਾਰ	-11.3254
▁ਖੜ੍ਹਾ	-11.3254
▁ਈਸਵੀ	-11.3254
▁Masturbates	-11.3254
▁ਖੁੱਲ੍ਹਾ	-11.3254
▁Green	-11.3255
▁account	-11.3255
sheet	-11.3256
▁ਸਵੀਪ	-11.3256
▁ਬੋਇੰਗ	-11.3256
не	-11.3257
▁ਰੀਸਟੋਰ	-11.3257
▁ਤਕਨਾਲ	-11.3258
fsx	-11.3258
▁ਜਿਆਦਾਤਰ	-11.3258
hydr	-11.3277
▁86-0	-11.328
burn	-11.3288
7.2	-11.3327
2.8	-11.3361
ਬ੍ਰਿਟਿਸ਼	-11.3414
ਗਰੁੱਪ	-11.3414
▁ਡੇਵਿਡ	-11.3457
babbumaan	-11.3457
ntPreviewDialog	-11.3457
▁Coinfalls	-11.3457
▁Florida	-11.3457
▁Multifunctional	-11.3457
▁Retrieved	-11.3457
▁private	-11.3457
▁progress	-11.3457
▁ਆਰਗੂਮੈਂਟ	-11.3457
▁ਐਕਸ਼ਟੇਸ਼ਨ	-11.3457
▁ਕੈਨੇਡੀਅਨ	-11.3457
▁ਖਤਰਨਾਕ	-11.3457
▁ਡਾਲਫਿਨ	-11.3457
▁ਡੁੱਬ	-11.3457
▁ਤਜਵੀਜ਼	-11.3457
▁ਧਮਾਕੇ	-11.3457
▁ਬਰਕਰਾਰ	-11.3457
▁ਮੈਨੇਜਮੈਂਟ	-11.3457
▁ਯੂਨੀਵਰਸਲ	-11.3457
▁ਰਫਤਾਰ	-11.3457
▁ਵਿਭਿੰਨ	-11.3457
▁ਸੋਲਯੂਸ਼ਨਜ਼	-11.3457
▁ਹਾਈਬ੍ਰਿਡ	-11.3457
ѕ	-11.3457
▁Apartment	-11.3457
▁Chengdu	-11.3457
▁ਓਡੀਸ਼ਾ	-11.3457
▁ਜ਼ਬੂਰ	-11.3457
▁ਪੀਡੀਐਫ	-11.3457
▁ਸਿੰਚਾਈ	-11.3457
▁ਸਮਤੋਲ	-11.3457
▁inverter	-11.3457
▁ਸੰਘਰਸ਼	-11.3457
▁ਟਾਇਪ	-11.3458
▁ਪ੍ਰਤੀਕਰਮ	-11.3458
▁York	-11.3458
▁ਖ਼ੂਨ	-11.3458
▁Nonets	-11.3458
,00€	-11.3458
▁ਪਰਸੰਗ	-11.3458
▁ਕਾਤਲ	-11.3458
▁ਗਨੂ	-11.3459
▁ਆਰਟੀਕਲ	-11.3459
ão	-11.3459
audio	-11.3459
▁ਮਨਪਸੰਦ	-11.3459
▁ਬੰਧਨ	-11.346
▁ਪਕਾਉਣ	-11.346
▁ਚਾਵਲ	-11.346
ਮਸਾਜ	-11.346
▁ਮਿਲੇਗੀ	-11.3461
▁ਰੁਚੀ	-11.3461
▁ਲੀਵਰ	-11.3461
▁Admin	-11.3462
▁NEW	-11.3468
ਨਲੋਡ	-11.3483
oil	-11.3515
ਪੱਟੀ	-11.3627
▁ਲਵ	-11.3627
▁ਗ੍ਰਿੱਲ	-11.3666
tiktok	-11.3666
ਓਕਟੋਪ	-11.3666
▁Automatic	-11.3666
▁Converter	-11.3666
▁Dokitto	-11.3666
▁Enertia	-11.3666
▁eScooter	-11.3666
▁ਆਕਰਸ਼ਿਤ	-11.3666
▁ਕੂਹਣੀ	-11.3666
▁ਕੈਥੋਲਿਕ	-11.3666
▁ਟ੍ਰੈਡਮਿਲ	-11.3666
▁ਥੈਰੇਪੀ	-11.3666
▁ਪਰੋਫਾਈਲ	-11.3666
▁ਪ੍ਰਸਾਰਿਤ	-11.3666
▁ਪ੍ਹੈਰਾ	-11.3666
▁ਸਾਮੱਗਰੀ	-11.3666
▁ਸੋਸਾਇਟੀ	-11.3666
▁ਸੰਗਮਰਮਰ	-11.3666
▁French	-11.3666
▁ਕਰੈਡਿਟ	-11.3666
▁ਸਟ੍ਰੀਟ	-11.3666
▁ਸ਼ਿੱਪਿੰਗ	-11.3666
▁ਉੱਡਦੀ	-11.3666
▁ਕਦੋਂ	-11.3666
▁ਗੋਦਨਾ	-11.3666
▁ਮਾਈਨਿੰਗ	-11.3666
▁ਵਕਫ਼ਾ	-11.3666
session	-11.3666
ī	-11.3666
▁ਏਸ਼ੀਅਨ	-11.3666
▁ਬੈਨਸ਼ੀ	-11.3666
▁ਚਮੜਾ	-11.3666
▁ਖਤਰਾ	-11.3666
▁ਬੇਰਿੰਗ	-11.3666
magnet	-11.3666
▁ਇਰਾਨ	-11.3667
▁ਸਲੀਪ	-11.3668
▁ਜਿਥੇ	-11.3668
▁2010-2019	-11.3669
▁HDPE	-11.3669
▁ਮਿਲੇਗਾ	-11.3675
▁Musk	-11.3725
ਕਾਮਰਸ	-11.3742
▁Point	-11.3746
-11-20	-11.3789
ਮੌਜੂਦਾ	-11.3845
Exhibition	-11.3879
ж	-11.3879
activo	-11.3879
dictionary	-11.3879
	-11.3879
▁Amazing	-11.3879
▁WinRAR	-11.3879
▁iPhone	-11.3879
▁ultrasonic	-11.3879
▁ਅਣਗਿਣਤ	-11.3879
▁ਇੰਬੈੱਡ	-11.3879
▁ਐਫੀਲੀਏਟ	-11.3879
▁ਕਾਸਮੈਟਿਕ	-11.3879
▁ਕੈਲੀਫੋਰਨੀਆ	-11.3879
▁ਪ੍ਰਸੰਸਾ	-11.3879
▁ਪ੍ਰੋਫੈਸਰ	-11.3879
▁ਮੈਡੀਸਨ	-11.3879
▁ਰੈਜ਼ੋਲੇਸ਼ਨ	-11.3879
▁ਵਿਕਰੇਤਾ	-11.3879
▁ਸ਼ਮੂਲੀਅਤ	-11.3879
▁ਹਕੂਮਤ	-11.3879
👌	-11.3879
▁ਪ੍ਰੋਗ੍ਰਾਮ	-11.3879
▁ਫ਼ੈਸਲਾ	-11.3879
▁ਵੈੱਬਸਾਇਟ	-11.3879
▁ਸੁਭਾਅ	-11.3879
▁ਐਲਐਲਸੀ	-11.3879
▁ਟੋਅਰਕ	-11.3879
▁ਸ਼ਿੰਗਾਰ	-11.3879
▁ਆਵਰਤੀ	-11.3879
▁ਸਿਗਰਟ	-11.3879
▁ਉਂਗਲੀ	-11.3879
▁please	-11.3879
▁Japan	-11.3879
▁ਵਿਸ਼ੇਸਤਾ	-11.3879
▁ਡਰੈਗ	-11.3879
▁TGG	-11.3879
▁ਅਵਾਜ਼	-11.3879
▁KDev	-11.3879
▁entry	-11.3879
▁School	-11.3879
▁Manager	-11.388
▁ਛੂਹ	-11.388
▁ਸਮਰੂਪ	-11.388
▁ਵਾਯੂ	-11.388
🙏🙏	-11.3881
next	-11.3886
9.0	-11.3922
▁ਲੈਨਜ	-11.3951
ਖੋਜ	-11.4033
▁high	-11.4044
▁ਤੰਦਰੁਸਤ	-11.4059
▁ਡਾਇਰੈਕਟ	-11.4064
ਬਿੰਦੂ	-11.4067
Google	-11.4067
✔	-11.4096
ि	-11.4096
▁Business	-11.4096
▁IFFCO	-11.4096
▁January	-11.4096
▁Koowheel	-11.4096
▁scheme	-11.4096
▁ਅਫਸੋਸ	-11.4096
▁ਅਮਰਦਾਸ	-11.4096
▁ਚੁੰਘਾਉਣਾ	-11.4096
▁ਦ੍ਰਿਸ਼ਟੀਕੋਣ	-11.4096
▁ਪ੍ਰੋਫੈਸ਼ਨਲ	-11.4096
▁ਬੇਦਾਅਵਾ	-11.4096
▁ਭੌਤਿਕ	-11.4096
▁ਸੰਚਾਲਨ	-11.4096
▁ਸੰਪਾਦਨ	-11.4096
Calendar	-11.4096
▁ਕੈਪਟਚਾ	-11.4096
▁ਗਾਰਡੀਅਨ	-11.4096
▁ਮਾਰਕੈਚ	-11.4096
▁Sluts	-11.4096
▁ਬੋਸਨੀਆ	-11.4096
▁$/€	-11.4096
▁ਕੇਮੇਰਾ	-11.4096
▁ਪ੍ਰਸੰਗ	-11.4096
▁ਸਮੇਟਣ	-11.4096
▁ਸਾਂਬਾ	-11.4097
▁ਚਿਕਨ	-11.4097
❤️	-11.4097
▁Singh	-11.4097
▁grinder	-11.4097
▁IRC	-11.4097
Outs	-11.4097
▁Prepar	-11.4098
itude	-11.4098
▁ਬਚਪਨ	-11.4099
▁ਬਹਾਲ	-11.41
keyboard	-11.4103
DAY	-11.4107
▁4.3	-11.4123
84.2	-11.4142
ੇਟਿਡ	-11.4199
Sync	-11.4258
▁ਜਮ੍ਹਾ	-11.4315
collection	-11.4318
▁ਕਲਾਂਈਟ	-11.4318
QXml	-11.4318
▁212658025028	-11.4318
▁Aquarium	-11.4318
▁GiveCoin	-11.4318
▁Insurance	-11.4318
▁Jaishi	-11.4318
▁mFortune	-11.4318
▁ਅਸਥਿਰ	-11.4318
▁ਛੇੜਛਾੜ	-11.4318
▁ਧੁੱਪ	-11.4318
▁ਪਰਮਾਣਿਤ	-11.4318
▁ਪ੍ਰੋਟੋਕੋਲ	-11.4318
▁ਪੜਚੋਲ	-11.4318
▁ਯੈਲੋ	-11.4318
▁ਰੈਗੂਲੇਸ਼ਨ	-11.4318
▁ਵਰਣਮਾਲਾ	-11.4318
▁ਵਾਸਤਵ	-11.4318
▁ਸਮਾਰੋਹ	-11.4318
▁ਸਮੂਏਲ	-11.4318
š	-11.4318
▁DarkToken	-11.4318
▁Maruko	-11.4318
▁ਨਸ਼ੀਲੇ	-11.4318
▁ਪਿੱਛਾ	-11.4318
😊	-11.4318
▁ਆਗਾਮੀ	-11.4318
▁ਜਣੇਪੇ	-11.4318
▁ਪ੍ਰੇਰਨਾ	-11.4318
▁ਇੰਕੋਡਰ	-11.4318
▁ਕਟੋਰੇ	-11.4318
▁ਬਜਾਇ	-11.4318
▁ਚਮਤਕਾਰ	-11.4318
ਅੰਤਰਜਾਤੀ	-11.4318
▁Hunter	-11.4318
▁where	-11.4318
▁ਸਿੱਟਾ	-11.4318
▁ਸੈਂਸਰ	-11.4318
turas	-11.4318
▁ਸ਼ੀਸ਼ੀ	-11.4318
▁GMT	-11.4319
uyana	-11.4319
▁Sewing	-11.4319
▁ਮੈਦਾਨ	-11.4319
▁ਹੋਲਡਰ	-11.4319
▁team	-11.432
▁ਸੈਕਰੋਨਾਈਜ਼ੇਸ਼ਨ	-11.432
ਕਿਸਮ	-11.432
▁ਅਮੀਰਾਤ	-11.432
▁hours	-11.432
▁Tips	-11.4321
▁very	-11.4322
▁ਬਹਿਸ	-11.4323
project	-11.4342
Video	-11.4526
ਸਰੋਤ	-11.4536
✅	-11.4545
icaragua	-11.4545
ó	-11.4545
▁3.2.160	-11.4545
▁Carolina	-11.4545
▁Contactor	-11.4545
▁FaceTime	-11.4545
▁Litecoin	-11.4545
▁Ruptela	-11.4545
▁Seguidores	-11.4545
▁people	-11.4545
▁variant	-11.4545
▁ਇਕਵੇਰੀਅਮ	-11.4545
▁ਚੰਡੀਗੜ੍ਹ	-11.4545
▁ਟਕਸਾਲੀ	-11.4545
▁ਡਿਪਰੈੱਸ਼ਨ	-11.4545
▁ਪਰਦੇਦਾਰੀ	-11.4545
▁ਫੋਰਕਲਿਫਟ	-11.4545
▁ਭਰੋਸੇਮੰਦ	-11.4545
▁ਰੈਗੂਲੇਟਰ	-11.4545
▁ਹਫਤਿਆਂ	-11.4545
▁(2012)	-11.4545
▁direction	-11.4545
▁ਰੂਹਾਨੀ	-11.4545
▁ਸ਼ੂਗਰ	-11.4545
▁ਠੱਗੀ	-11.4545
▁Custom	-11.4545
▁Cutting	-11.4545
▁Rooder	-11.4545
▁ਇੰਜੀਲ	-11.4546
▁ਪਗ਼	-11.4546
文	-11.4546
▁sexy	-11.4546
▁ਜਿੰਨੇ	-11.4546
▁ਹਿਸਾਬ	-11.4546
▁ਜਾਰਜੀਆ	-11.4546
/01/20	-11.4546
width	-11.4546
sandhu	-11.4546
▁24/7	-11.4546
▁Clans	-11.4546
▁(2011)	-11.4546
▁ਮਾਉਂਟ	-11.4547
▁ਜੁੱਤੇ	-11.4547
▁Camping	-11.4547
▁ਬਾਜ਼ਲ	-11.4555
▁ਪਕਵਾਨ	-11.4561
.12.20	-11.4586
ਟ੍ਰੇਨਰ	-11.4633
Disc	-11.4693
ਦੋਸਤਾਨਾ	-11.4764
ਸ਼ੈਲੀ	-11.4765
ਸਿਹਤ	-11.4765
▁ਝਟਕਾ	-11.4765
group	-11.4767
ਚੋਣ	-11.477
stonia	-11.477
instagood	-11.4778
special	-11.4778
▁Sitemap	-11.4778
community	-11.4778
▁Antivirus	-11.4778
▁Canadian	-11.4778
▁Guesthouse	-11.4778
▁Sinocastel	-11.4778
▁armenia	-11.4778
▁author	-11.4778
▁character	-11.4778
▁nickname	-11.4778
▁shelves	-11.4778
▁ਓਪਰੇਟਰ	-11.4778
▁ਖੂਬਸੂਰਤ	-11.4778
▁ਟ੍ਰੇਡਮਾਰਕ	-11.4778
▁ਪਰਿਭਾਸ਼ਾ	-11.4778
▁ਪ੍ਰਸ਼ਾਂਤ	-11.4778
▁ਫ਼ੈਸਲਾਕੁੰਨ	-11.4778
▁ਫੈਕਲਟੀ	-11.4778
▁ਬੈਕਟੀਰੀਆ	-11.4778
▁ਬੋਸਵਰਥ	-11.4778
▁ਬੰਗਲੌਰ	-11.4778
▁ਭ੍ਰਿਸ਼ਟ	-11.4778
▁ਰੀਵਿਜ਼ਨ	-11.4778
▁ਵਿਸਤ੍ਰਿਤ	-11.4778
▁ਸਿਲੀਕਾਨ	-11.4778
▁Support	-11.4778
▁ਘਾਤਕ	-11.4778
▁ਡਰਾਫਟ	-11.4778
▁ਡ੍ਰੌਪ	-11.4778
▁ਵੇਰੀਬਲ	-11.4778
▁ਕੁਇਜ਼	-11.4778
ह	-11.4778
▁ਤਿਕੋਣ	-11.4778
▁ਦਰਸਾਇਆ	-11.4778
▁dialog	-11.4778
▁ਅਪਲੋਡ	-11.4778
▁ਡੈਲਟਾ	-11.4778
▁NEMA	-11.4778
▁ਜੀਪੀਐਸ	-11.4778
ਲੈਟੇਕਸ	-11.4778
routes	-11.4778
▁ਨਾਰਮਲ	-11.4778
▁ਕੂਲਡ	-11.4778
▁ਕਰਾਚੀ	-11.4778
▁ਫਾਲਸ	-11.4778
▁ਖਾਂਦੇ	-11.4778
▁ਫੁਟੇਜ	-11.4778
▁ਕ੍ਰਿਪਾ	-11.4779
Source	-11.4779
▁Cartr	-11.4779
▁ਜਾਅਲੀ	-11.4779
▁Chengxi	-11.4779
Flex	-11.4792
Casting	-11.4808
ਪੱਖੀ	-11.4985
▁ਸਟਿੱਕ	-11.4993
ਸੁੰਦਰਤਾ	-11.5008
ਵੀਡੀਓ	-11.5009
australia	-11.5016
zbekistan	-11.5016
दी	-11.5016
▁Legends	-11.5016
▁Marrakech	-11.5016
▁Worldwide	-11.5016
▁ਆੱਨਲਾਈਨ	-11.5016
▁ਇਲੈਕਟ੍ਰੋਨਿਕਸ	-11.5016
▁ਛਿੱਕੀ	-11.5016
▁ਟੈਕਨਾਲੋਜੀ	-11.5016
▁ਤੇਨਿਰਭਰ	-11.5016
▁ਥਕਾਵਟ	-11.5016
▁ਥੋੜ੍ਹੀ	-11.5016
▁ਦੂਰਸੰਚਾਰ	-11.5016
▁ਪਹਿਰਾਵੇ	-11.5016
▁ਪ੍ਰਦਰਸ਼ਿਤ	-11.5016
▁ਬਿਸਤਰਾ	-11.5016
▁ਬੋਹੀਮੀਅਨ	-11.5016
▁ਮੁਸਕਾਨ	-11.5016
▁ਰਿਬੇਟਸ	-11.5016
▁ਸਕੇਟਬੋਰਡ	-11.5016
▁ਸਮੁੱਚੀ	-11.5016
▁ਹਾੰਗਜ਼ੌ	-11.5016
▁ਿਚਪਕਣ	-11.5016
、	-11.5016
🇫	-11.5016
ъ	-11.5016
▁ਵੇਹਲਾ	-11.5016
▁ਸੰਖਿਆ	-11.5016
"]],	-11.5016
▁ਮੰਜੇ	-11.5016
▁Resort	-11.5016
▁Randy	-11.5016
▁Dream	-11.5016
▁ਤਿੱਕੀ	-11.5016
▁ਕਾਮਯਾਬ	-11.5016
Double	-11.5016
solution	-11.5016
methyl	-11.5016
🍁	-11.5016
sidhu	-11.5017
▁import	-11.5017
▁ਫਿੰਗਰ	-11.5017
▁TWD	-11.5017
writer	-11.5017
ujeer	-11.5017
config	-11.5017
▁ਖੇਹ	-11.5017
▁ਬੈਨਰ	-11.5017
▁ਕਿਨਾਰੀ	-11.5018
▁ਦਲਾਲ	-11.5018
▁ਢਾਲ	-11.5021
▁ਨਿਕਾਸ	-11.5021
▁ਬੂੰਦ	-11.5025
album	-11.5083
BTC	-11.5109
ਾਈਜ਼ੇਸ਼ਨ	-11.5147
9-2	-11.5163
xxx	-11.5254
ਲੁਟੇਰਾ	-11.5258
Unlimited	-11.5258
ਜਪਾਨੀ	-11.5258
ਲੰਬਾਈ	-11.5259
ਯਾਤਰਾ	-11.5259
▁ਵਲੰਟੀਅਰ	-11.526
elecharger	-11.526
ghaint	-11.526
▁Bulldozer	-11.526
▁December	-11.526
▁HdRede	-11.526
▁xHamster	-11.526
▁ਅੱਲ੍ਹਾ	-11.526
▁ਏਕੀਕ੍ਰਿਤ	-11.526
▁ਛੁਟਕਾਰਾ	-11.526
▁ਜੁਆਇੰਟ	-11.526
▁ਟੈਲੀਗ੍ਰਾਮ	-11.526
▁ਟ੍ਰੈਫਿਕ	-11.526
▁ਡਿਕਸ਼ਨਰੀ	-11.526
▁ਪ੍ਰਸਤਾਵ	-11.526
▁ਮਾਸ੍ਕੋ	-11.526
▁ਰਿਵਨਿਆ	-11.526
▁ਰੁੱਝ	-11.526
▁ਹੈਲਪਲਾਈਨ	-11.526
▁ਇਨਕਲਾਬ	-11.526
▁ਪਤਝੜ	-11.526
▁ਪੁਰਸਕਾਰ	-11.526
▁ਵੇਹੜਾ	-11.526
🇼	-11.526
▁Powder	-11.526
▁ਸੰਸਕਰਣ	-11.526
▁ਝਿਜਕ	-11.526
▁ਝੰਡਾ	-11.526
▁ਪਾਇਲਟ	-11.526
▁ਵਿਵਲਨ	-11.526
▁ਸਿੱਟੇ	-11.526
▁MXN	-11.526
▁ਗੂੰਦ	-11.526
▁ਸਟਰੋਕ	-11.526
/02/20	-11.526
▁ਬੁਕਿੰਗ	-11.526
▁ਜੇਲ੍ਹ	-11.526
Lobster	-11.526
▁MYR	-11.526
DVD	-11.5261
▁local	-11.5261
▁TCP	-11.5261
▁ਚਿੱਠੀ	-11.5261
▁ਅਬਦ	-11.5278
String	-11.53
Connect	-11.5358
0,000,000	-11.5421
9.95	-11.5471
▁ਐਲਈਡ	-11.5473
Braz	-11.5485
ç	-11.551
:$1_	-11.551
х	-11.551
patiala	-11.551
ਰਾਂਝਾ	-11.551
▁RedeLin	-11.551
▁WeChat	-11.551
▁ਅੰਡਾਕਾਰ	-11.551
▁ਐਕਸਟੈਂਸ਼ਨ	-11.551
▁ਕਠੋਰ	-11.551
▁ਪ੍ਰਸ਼ੰਸਕ	-11.551
▁ਮੁਕੱਦਮਾ	-11.551
▁ਵਫ਼ਾਦਾਰ	-11.551
▁ਸੁਨਿਸ਼ਚਿਤ	-11.551
▁CoinCETI	-11.551
▁Remote	-11.551
▁Tokio	-11.551
▁ਗਿੱਬਸ	-11.551
▁ਜਜ਼ਬਾਤ	-11.551
▁ਥ੍ਰੈਡ	-11.551
▁ਦਹਾਕੇ	-11.551
▁ਬਲਾਤਕਾਰ	-11.551
▁ਵੈਬਸਾਇਟ	-11.551
і	-11.551
▁ਦਰਸਾਉਂਦੀ	-11.551
▁ਨਿਬੰਧਨ	-11.551
▁ਹਾਸ਼ੀਏ	-11.551
▁ਡਿਊਲ	-11.551
▁Hammer	-11.551
▁ਪੈਮਾਨਾ	-11.551
▁ਬਿਜਨਸ	-11.551
្	-11.551
▁Jumma	-11.551
▁Castle	-11.551
powder	-11.551
USMLE	-11.551
▁Speed	-11.551
▁Erw	-11.551
▁means	-11.551
▁Twin	-11.551
▁ਮੇਲੇਟੀ	-11.551
▁ਸਲੀਵ	-11.5511
▁ਸਤ੍ਹਾ	-11.5511
▁ਵੀਰਵਾਰ	-11.5511
▁admin	-11.5511
Flange	-11.5511
▁ਸਮਤਲ	-11.5513
.03.20	-11.5519
Order	-11.5522
▁ਆਕਸੀ	-11.5549
▁ਸੁਝਾ	-11.5639
gging	-11.5653
▁ਆਤਮ	-11.5681
Window	-11.5765
Next	-11.5765
▁ਫ੍ਰੈਂਕ	-11.5766
86-0755-27613097	-11.5766
bosnia	-11.5766
erzegovina	-11.5766
ibility	-11.5766
φ	-11.5766
▁Amazon	-11.5766
▁KRunner	-11.5766
▁Manitoba	-11.5766
▁ROHS	-11.5766
▁Yueqing	-11.5766
▁attribute	-11.5766
▁ਐਬਸਟਰੈਕਟ	-11.5766
▁ਐਮਰਜੈਂਸੀ	-11.5766
▁ਖ਼ਤਰਾ	-11.5766
▁ਜਿੰਮੇਵਾਰ	-11.5766
▁ਤੈਰਾਕੀ	-11.5766
▁ਸ਼ਬਦਾਵਲੀ	-11.5766
▁(2013)	-11.5766
▁(866)	-11.5766
▁Alaska	-11.5766
▁ਮਾਮੂਲੀ	-11.5766
▁ਰੀਸਾਈਕਲ	-11.5766
ц	-11.5766
▁Anchor	-11.5766
▁ਟ੍ਰੇਲਰ	-11.5766
▁ਵੇਅਰਹਾਊਸ	-11.5766
▁ਸ਼ੈਲਫ	-11.5766
▁ਯਹੂਦੀ	-11.5766
ਦਿਲ੍ਡੋ	-11.5766
▁Wanted	-11.5766
▁ਵਿੰਟਰ	-11.5767
▁Hyper	-11.5767
▁ਮਸ਼ਾਲ	-11.5767
▁ਸਤਿਗੁਰ	-11.5767
▁headers	-11.5767
▁ਬੇਗਮ	-11.5767
▁ਆਦਤ	-11.5767
▁ਗੇਂਦ	-11.5767
ਚੱਟਦੇ	-11.5767
▁ਕਸਬੇ	-11.5767
▁ਲਿਮਟ	-11.5767
▁ਸਕਾਟ	-11.5767
▁ਟੋਕਨ	-11.5767
▁ਉੱਚਤਮ	-11.5767
▁ਵਧੀਕ	-11.5768
▁ਦ੍ਰਿੜ	-11.5768
▁ਡਿਰਲ	-11.5769
ਪੁਰਾਣਾ	-11.5777
ਛੁਪਾਓ	-11.5778
ਅਕਤੂਬਰ	-11.5778
ਸੰਪਰਕ	-11.5778
ਚਲਣ	-11.5909
▁Petr	-11.5914
0:03	-11.593
rikoooo	-11.603
▁1-800-3	-11.603
▁Botanix	-11.603
▁Chelsea	-11.603
▁Dropshipping	-11.603
▁EthereumETH	-11.603
▁alumina	-11.603
▁leggings	-11.603
▁shearing	-11.603
▁ਅਸ਼ਲੀਲ	-11.603
▁ਇੰਸਟੌਲ	-11.603
▁ਐਕਸਪ੍ਰੈੱਸ	-11.603
▁ਗੋਬਿੰਦ	-11.603
▁ਚੁੰਮਣ	-11.603
▁ਟੰਗਸਟਨ	-11.603
▁ਤਰੀਕਿਆਂ	-11.603
▁ਨੈਵੀਗੇਸ਼ਨ	-11.603
▁ਬਦਕਿਸਮਤੀ	-11.603
▁ਮੈਨਿਜਮੈਂਟ	-11.603
▁ਰੈਗੂਲਰ	-11.603
▁ਸੁਸਾਇਟੀ	-11.603
▁ਸੌਫਟਵੇਅਰ	-11.603
Phonon	-11.603
XLIFF	-11.603
Zombie	-11.603
▁ਅਹੁਦੇ	-11.603
▁ਹਾਦਸੇ	-11.603
▁ਹਾਰਡਕੈਪ	-11.603
▁(2010)	-11.603
Screen	-11.603
▁ਕੱਤਣ	-11.603
▁Texas	-11.603
▁Version	-11.603
▁ਇੰਗਲਡ	-11.603
▁ਵਿਵਰਣ	-11.603
▁Cixi	-11.603
▁ਵਿਤਰਕ	-11.603
▁ਟਵੀਟ	-11.603
▁ਅਜਮਾ	-11.603
▁ਕੁਰਾਨ	-11.603
▁ਫਿਲਿਪ	-11.603
▁ਦੁੱਕੀ	-11.603
UAH	-11.603
▁ਦਰਸਾਉਣ	-11.603
▁ਪ੍ਰਵਾਸੀ	-11.603
▁ਪਿਲਨ	-11.6031
▁ਤਿਆਗ	-11.6034
▁ਪਲਾਟ	-11.6037
ਇੰਡੋਨੇਸ਼ੀਆਈ	-11.6044
ਵੋਲਟੇਜ	-11.6048
ਨਿਰਦੇਸ਼	-11.6048
ਵਧੇਰੇ	-11.6048
▁ਗਤੀਵਿਧੀ	-11.6291
▁ਸਲੋਵਾਕ	-11.6298
▁ਮੋਨਟਰੀਆਲ	-11.63
Indicator	-11.63
photography	-11.63
▁Category	-11.63
▁Decorative	-11.63
▁Disney	-11.63
▁Gulfstream	-11.63
▁MobileCasinoFun	-11.63
▁NxtNXT	-11.63
▁Spotify	-11.63
▁ਐਨਾਲਾਗ	-11.63
▁ਕਿਯੇਵ	-11.63
▁ਗ੍ਰਿਫਤਾਰ	-11.63
▁ਜਿੰਨ੍ਹਾਂ	-11.63
▁ਟਰੈਵਲ	-11.63
▁ਦਸ਼ਮਲਵ	-11.63
▁ਨਿਯੰਤਰਿਤ	-11.63
▁ਪਰਮਾਣੂ	-11.63
▁ਪਿਰਾਮਿਡ	-11.63
▁ਬਪਤਿਸਮਾ	-11.63
▁ਮਲਟੀਮੀਡਿਆ	-11.63
▁ਮੁਹੰਮਦ	-11.63
▁ਮੁੱਢਲਾ	-11.63
▁ਵਿੰਸਟੇਜ	-11.63
▁ਹੰਢਣਸਾਰ	-11.63
▁Awaaz	-11.63
▁ਕਿਰਿਆਸ਼ੀਲ	-11.63
▁ਖੋਖਲੇ	-11.63
▁ਚਾਕਲੇਟ	-11.63
▁ਪਬਲਿਸ਼	-11.63
▁ਪਰਮੇਸ਼ਰ	-11.63
▁ਫੈਨਥਮ	-11.63
League	-11.63
▁wireless	-11.63
▁ਇਕਤ੍ਰਤਾ	-11.63
▁ਐਨੀਮੇਟ	-11.63
▁ਦਰਸਾਉਂਦੇ	-11.63
▁ਹਿੱਸਿਆਂ	-11.63
▁ਖੁਸ਼ਕਿਸਮਤ	-11.63
▁ਸਾਊਦੀ	-11.63
▁ਟਿੱਕਰ	-11.63
▁Ultra	-11.63
▁ਉੱਕਰੀ	-11.63
▁ਸ੍ਰੀਮਤੀ	-11.63
▁coins	-11.63
▁ਏਬੀਐਸ	-11.63
▁ਈਬੁਕ	-11.63
▁Avast	-11.63
▁Portable	-11.63
▁ਯੂਨਾਨੀ	-11.63
▁ਪ੍ਰਜਨਨ	-11.63
▁ਬੁਲਾਇਆ	-11.63
▁ਸੁਹਜ	-11.63
▁ਕਵਿਜ਼	-11.63
Product	-11.63
▁ਥਰਮੋ	-11.63
▁ਬਰਾਮਦ	-11.63
▁ਐਲਬਰਟ	-11.63
Engine	-11.6301
▁True	-11.6301
▁ਸਲੀਬ	-11.6301
▁Angel	-11.6302
▁ਸੰਸਦ	-11.6459
lyrics	-11.6578
Object	-11.6578
😂😂😂	-11.6578
Tweezer	-11.6578
alvador	-11.6578
diljitdosanjh	-11.6578
▁Avenue	-11.6578
▁BitstakeXBS	-11.6578
▁Borosilicate	-11.6578
▁DocBook	-11.6578
▁Jackpots	-11.6578
▁KYOCERA	-11.6578
▁PayCoinXPY	-11.6578
▁Silicone	-11.6578
▁additive	-11.6578
▁application	-11.6578
▁price	-11.6578
▁separator	-11.6578
▁ਜਲਵਾਯੂ	-11.6578
▁ਟ੍ਰਾਂਜੈਕਸ਼ਨ	-11.6578
▁ਤਤਕਰਾ	-11.6578
▁ਦੁਰਘਟਨਾ	-11.6578
▁ਨਿਸ਼ਚਤ	-11.6578
▁ਪ੍ਰੇਰਣਾ	-11.6578
▁ਫੁਟਬਾਲ	-11.6578
▁ਬਖਸ਼ਿਸ਼	-11.6578
▁ਬੇਲਾਰੂਸ	-11.6578
▁ਭੁਵਨੇਸ਼ਵਰ	-11.6578
▁ਮੁਆਵਜ਼ਾ	-11.6578
▁ਰਵੱਈਏ	-11.6578
▁ਲਕਸ਼ਮਬਰਗ	-11.6578
▁ਸਾਮ੍ਹਣਾ	-11.6578
▁Quality	-11.6578
▁ਆਕਸਾਈਡ	-11.6578
aunchpad	-11.6578
▁Study	-11.6578
▁ਮੰਗੋਲੀਆ	-11.6578
▁[["	-11.6578
▁Sauna	-11.6578
▁ਇਰਾਦੇ	-11.6578
▁ਟਰਿੱਕ	-11.6578
▁HDMI	-11.6578
turban	-11.6578
▁ਇਰਾਦਾ	-11.6578
▁ਗਾਇਬ	-11.6578
▁ਰਾਬਰਟ	-11.6578
▁ਝਰਨੇ	-11.6578
plasma	-11.6578
▁Battle	-11.6578
▁ਥੋੜੇ	-11.6578
▁ਉਧਾਰ	-11.6578
▁GNU	-11.6578
▁ਚਟਾਕ	-11.6578
▁ਬੰਡਲ	-11.6578
▁ਦਿਸਦਾ	-11.6578
▁UTC	-11.6578
stream	-11.6578
▁ਛੁਪ	-11.6578
▁Smile	-11.6578
scriptionSample	-11.6578
▁1.800.	-11.6578
▁Movie	-11.6579
street	-11.658
▁ਹਿਲਾਉਣ	-11.658
ਡ੍ਰੀਮ	-11.6581
perfect	-11.6583
gular	-11.6587
ਝਟਕਾਉਣ	-11.6593
ਪ੍ਰਿੰਟ	-11.6611
≤	-11.6612
ਸਤੰਬਰ	-11.6612
crypt	-11.6657
-01-20	-11.6668
public	-11.6861
▁ਅਟੈਚ	-11.6862
QDialogButtonBox	-11.6863
ammyvirk	-11.6863
trainjourney	-11.6863
▁57.0.2987.	-11.6863
▁BitcoinDarkBTCD	-11.6863
▁BitsharesBTS	-11.6863
▁Brushless	-11.6863
▁Capacitor	-11.6863
▁Dakota	-11.6863
▁DigiByteDGB	-11.6863
▁International	-11.6863
▁Masturbating	-11.6863
▁PeerCoinPPC	-11.6863
▁RippleXRP	-11.6863
▁ZCashZEC	-11.6863
▁ਏਅਰੋਸਪੇਸ	-11.6863
▁ਕਨਵੈਨਸ਼ਨ	-11.6863
▁ਖੁਫੀਆ	-11.6863
▁ਗ੍ਰੈਜੂਏਟ	-11.6863
▁ਡਿਸਟ੍ਰਿਕਟ	-11.6863
▁ਤਾਇਵਾਨ	-11.6863
▁ਪਹਿਚਾਣ	-11.6863
▁ਰੈਸਟੋਰੈਂਟ	-11.6863
▁ਸਪੈਨਿਸ਼	-11.6863
▁ਸਰਟੀਫਾਈਡ	-11.6863
▁ਸਰਵੋਤਮ	-11.6863
▁ਹਰੀਜੱਟਲ	-11.6863
Script	-11.6863
ਮਸ਼ਵਰਾ	-11.6863
▁Yinzhou	-11.6863
▁shafts	-11.6863
▁ਆਫਲਾਇਨ	-11.6863
▁ਥਿਊਰੀ	-11.6863
▁ਭਗਵਾਨ	-11.6863
▁ਮਰਿਯਮ	-11.6863
▁ਯੂਨੀਕੋਡ	-11.6863
▁Stripper	-11.6863
▁pageviews	-11.6863
▁ਤੈਅ	-11.6863
▁ਤੰਬੂ	-11.6863
▁ਫ਼ਾਇਦੇ	-11.6863
▁Ninja	-11.6863
▁ਅਗੇਤਰ	-11.6863
▁ਉਤਸੁਕ	-11.6863
▁ਆਈਪੋਡ	-11.6863
▁ਸੀਲੀਕੋਨ	-11.6863
ਹੌਨਟਾਈ	-11.6863
▁ਐਡਰੈਸ	-11.6863
ਅਤਿਕਾਮੀ	-11.6863
▁Molding	-11.6863
▁ਵਿਸ਼ਿਆਂ	-11.6863
▁ਐਸਈਓ	-11.6863
▁zones	-11.6863
▁ਫ਼ੋਮ	-11.6864
ਵੁੱਡ	-11.6864
▁HUF	-11.6864
▁Earth	-11.6864
▁ਐਡਮਿਨ	-11.6864
▁ਦਲੀਲ	-11.6864
result	-11.6864
ਉਰਦੂ	-11.6865
Label	-11.6865
lovenia	-11.6865
About	-11.6867
▁ਕਨੂੰਨ	-11.6867
▁ਗ੍ਰਾਫਿਕ	-11.6867
▁debug	-11.6877
▁Extr	-11.6879
Download	-11.6904
ਪੁਆਇੰਟ	-11.6906
ਦਸੰਬਰ	-11.6906
ਜਾਣਿਆ	-11.6906
Disk	-11.6926
omfort	-11.6997
▁ਬਹਿਰੀਨ	-11.7157
belgium	-11.7157
otswana	-11.7157
▁Birds	-11.7157
▁Develop	-11.7157
▁Limited	-11.7157
▁Manglik	-11.7157
▁Restaurant	-11.7157
▁configuration	-11.7157
▁license	-11.7157
▁ਅਣਡਿੱਠੇ	-11.7157
▁ਅਮਰੀਕਨ	-11.7157
▁ਆਗਮਨ	-11.7157
▁ਆਲੀਸ਼ਾਨ	-11.7157
▁ਉਲਝਣ	-11.7157
▁ਔਰਪੇਕ	-11.7157
▁ਗੁਆਂਢੀ	-11.7157
▁ਟੈਕਨੋਲੋਜੀ	-11.7157
▁ਡਰਮੇਟਾਇਟਸ	-11.7157
▁ਤਜ਼ਰਬੇ	-11.7157
▁ਤਿੜਕੀ	-11.7157
▁ਪੋਪਅੱਪ	-11.7157
▁ਫੈਮਿਲੀ	-11.7157
▁ਬੈਡਰੂਮ	-11.7157
▁ਮਿਥਾਇਲ	-11.7157
▁ਰਜਿਸਟ੍ਰੇਸ਼ਨ	-11.7157
▁ਰਾਜਨੀਤਕ	-11.7157
▁ਰੁਝਿਆ	-11.7157
▁ਰੇਡੀਏਸ਼ਨ	-11.7157
▁ਲੈਬਾਰਟਰੀ	-11.7157
▁ਸੰਮਿਲਿਤ	-11.7157
Application	-11.7157
▁ਕਾਰਕੁੰਨ	-11.7157
▁ਟੋਰੀਨੋ	-11.7157
▁ਤੁਪਕੇ	-11.7157
▁ਦੌਲਤ	-11.7157
▁ਸੁਗੰਧ	-11.7157
▁something	-11.7157
▁ਅਖਬਾਰ	-11.7157
▁ਇੰਡੀਅਨ	-11.7157
▁ਮੈਕਸਿਕੋ	-11.7157
▁ਸਮਲਿੰਗੀ	-11.7157
trending	-11.7157
▁Daily	-11.7157
▁Erotic	-11.7157
▁ਓਵਰਆਲ	-11.7157
▁ਗ੍ਰੀਸ	-11.7157
▁ਧਮਕੀ	-11.7158
▁54.00	-11.7158
▁RoHS	-11.7158
include	-11.7158
▁ਸਿਰਜਣਾ	-11.7158
▁ਮਹਿੰਗੇ	-11.7158
ਮੁਨਾਫ਼ਾ	-11.7158
munde	-11.7158
▁ਜੰਬੋ	-11.7158
ਵੌਇਸ	-11.7158
▁ctn	-11.7158
Cloud	-11.7158
Angry	-11.7158
▁Update	-11.7158
▁ਪ੍ਰਤਿਭਾ	-11.7158
First	-11.7159
Patent	-11.716
Project	-11.7161
Split	-11.7161
ਵੁਡ	-11.7175
ਅਧਿਆਪਕ	-11.7208
ਮੈਡੀਕਲ	-11.7209
ਨਵੰਬਰ	-11.7209
“	-11.7209
ਫੇਸਬੁੱਕ	-11.7209
ਅਸੀਂ	-11.7209
Select	-11.7211
▁ਸਿੱਧ	-11.7319
wedding	-11.7457
1314151617181920	-11.746
patialashahi	-11.746
▁ਫੈਟਿਸ਼	-11.746
austria	-11.746
ентай	-11.746
▁Bluetooth	-11.746
▁CARGO	-11.746
▁District	-11.746
▁GnuPG	-11.746
▁Imperial	-11.746
▁Indonesia	-11.746
▁Kharkiv	-11.746
▁Michigan	-11.746
▁Rockwell	-11.746
▁TopSlotSite	-11.746
▁traditional	-11.746
▁tweezers	-11.746
▁ਅਫਗਾਨਿਸਤਾਨ	-11.746
▁ਕਾਊਂਟਡਾਊਨ	-11.746
▁ਛਪਣਯੋਗ	-11.746
▁ਜਿੰਦਗੀ	-11.746
▁ਨਿਪਟਾਰਾ	-11.746
▁ਪੀਟਰਸਬਰਗ	-11.746
▁ਫਿਲੀਪੀਨਜ਼	-11.746
▁ਲੁਧਿਆਣਾ	-11.746
▁ਵਿਨਚੈਸਟਰ	-11.746
▁ਸੈਂਕੜੇ	-11.746
standard	-11.746
▁Little	-11.746
▁ਅਰਮੀਨੀਆ	-11.746
▁ਧੱਬੇ	-11.746
▁ਸਮਰਥਕ	-11.746
▁Longgang	-11.746
▁ਖੁਜਲੀ	-11.746
▁ਪ੍ਰਕ੍ਰਿਆ	-11.746
▁ਤਾਲਮੇਲ	-11.7461
▁Fault	-11.7461
▁ਝਟਕੋ	-11.7461
▁WLAN	-11.7461
▁ਫਿਊਜ਼	-11.7461
▁да	-11.7461
▁ਸਜਾਇਆ	-11.7461
▁ਭੱਠੀ	-11.7461
▁ਵਿਨਾਇਲ	-11.7461
▁ਫਲਾਪੀ	-11.7461
Second	-11.7461
margin	-11.7461
▁ਸਕੱਤਰ	-11.7461
ਅਵਧੀ	-11.7461
▁ਦੋਹਰੀ	-11.7461
▁ਅਭਿ	-11.7464
Help	-11.7467
casino	-11.7521
ਮੁਸ਼ਕਲ	-11.7521
ਸੁਰੱਖਿਅਤ	-11.7522
ਸਪੇਨੀ	-11.7522
ਡਾਊਨਲੋਡ	-11.7522
ਫਰਵਰੀ	-11.7522
ਤੁਸੀਂ	-11.7522
omatica	-11.7638
▁deposit	-11.7667
2425262728293031	-11.7773
▁ਅਫ਼ਗਾਨ	-11.7773
Default	-11.7773
Layfka	-11.7773
hütte	-11.7773
ਬੈਲਜੀਅਮ	-11.7773
▁EELINK	-11.7773
▁Fujian	-11.7773
▁Injection	-11.7773
▁Skrill	-11.7773
▁Springs	-11.7773
▁WooCommerce	-11.7773
▁Woodwind	-11.7773
▁continent	-11.7773
▁ਅਪਗ੍ਰੇਡ	-11.7773
▁ਅਰਜਨਟੀਨਾ	-11.7773
▁ਆਨਲਾਇਨ	-11.7773
▁ਇਕਰਾਰਨਾਮੇ	-11.7773
▁ਇਨੋਵੇਸ਼ਨ	-11.7773
▁ਐਜੂਕੇਸ਼ਨ	-11.7773
▁ਐਵਨਿਊ	-11.7773
▁ਕੈਮਰੂਨ	-11.7773
▁ਕੈਸਿਨੋ	-11.7773
▁ਕੰਪਿਊਟਿੰਗ	-11.7773
▁ਜੁਆਇੰਨ	-11.7773
▁ਟਰੈਫਿਕ	-11.7773
▁ਠੇਕੇਦਾਰ	-11.7773
▁ਡੈਰੀਵੇਟਿਵ	-11.7773
▁ਡੱਲਾਸ	-11.7773
▁ਢੁੱਕਵਾਂ	-11.7773
▁ਦਬਦਬਾ	-11.7773
▁ਪੈਰਾਫ਼ਿਨ	-11.7773
▁ਫ੍ਰੈਂਚ	-11.7773
▁ਬਰਦਾਸ਼ਤ	-11.7773
▁ਬਰੇਸਲੈੱਟ	-11.7773
▁ਬੰਗਲਾਦੇਸ਼	-11.7773
▁ਮਿਲੀਸਕਿੰਟ	-11.7773
▁ਮੁਆਇਨਾ	-11.7773
▁ਮੁਹਾਵਰੇ	-11.7773
▁ਮੈਨੂਅਲ	-11.7773
▁ਵੇਰਵਿਆਂ	-11.7773
▁ਵੈਨਕੂਵਰ	-11.7773
▁ਸ਼ਲਾਘਾ	-11.7773
💖	-11.7773
▁ਕਲੋਰੀਨ	-11.7773
▁ਬਹਾਦਰ	-11.7773
▁ਮਗਰੋਂ	-11.7773
▁ਯਾਮਾਹਾ	-11.7773
▁ਲਾਹੌਰ	-11.7773
;#39;	-11.7773
▁Xiamen	-11.7773
▁clamps	-11.7773
▁ਅਧੂਰੀ	-11.7773
▁ਪ੍ਰਾਂਸਲ	-11.7773
▁ਪੰਨਿਆਂ	-11.7773
▁ਸਿਨੇਮਾ	-11.7773
▁ਹੱਤਿਆ	-11.7773
£	-11.8117
•	-11.8522
©	-12.0451
Φ	-12.0885
ų	-12.1592
💓	-12.1592
→	-12.1816
ê	-12.2568
≥	-12.2842
±	-12.4612
′	-12.553
‘	-12.6762
ã	-12.7008
ी	-13.0866
฿	-13.496
У	-13.7212
द	-13.7212
̈	-15.7797
🤣	-15.7798
§	-15.7799
中	-15.78
【	-15.7801
💥	-15.7802
🌟	-15.7803
ї	-15.7804
●	-15.7805
г	-15.7806
◆	-15.7807
★	-15.7808
ñ	-15.7809
в	-15.781
➖	-15.7811
🇴	-15.7812
ੱ	-15.7812
♪	-15.7812
