<unk>	0
<s>	0
</s>	0
▁	-2.03198
,	-3.99894
:	-4.33296
.	-4.59117
)	-4.80983
ที่	-5.0606
ของ	-5.13405
▁(	-5.20217
s	-5.23907
▁-	-5.28177
-	-5.29835
;	-5.30471
และ	-5.45944
ใน	-5.4749
▁&	-5.55033
น	-5.62619
gt	-5.62943
การ	-5.68568
▁/	-5.71223
▁และ	-5.79128
ส	-5.83756
ม	-5.88649
/	-5.91668
▁1	-5.95985
ได้	-5.9719
ก	-6.01957
A	-6.04394
S	-6.06825
เป็น	-6.18388
ค	-6.19316
สําหรับ	-6.20229
2	-6.20734
...	-6.216
▁2	-6.23191
▁S	-6.23729
C	-6.24703
D	-6.27916
y	-6.28442
ล	-6.3244
แบบ	-6.32752
▁C	-6.33289
m	-6.33422
ง	-6.36387
V	-6.36832
e	-6.37684
▁3	-6.37932
▁_	-6.38373
B	-6.39878
3	-6.40041
จาก	-6.40547
มา	-6.41212
ด	-6.41416
d	-6.41828
M	-6.42008
กับ	-6.4359
c	-6.48182
1	-6.48246
L	-6.4834
ด้วย	-6.4884
มี	-6.49684
▁การ	-6.51604
er	-6.51629
ต	-6.54284
▁B	-6.54568
▁A	-6.552
ว	-6.56199
ย	-6.56237
บ	-6.57717
▁F	-6.57809
ให้	-6.59102
?	-6.59512
in	-6.59914
ไป	-6.60052
▁P	-6.62836
p	-6.62909
x	-6.63465
G	-6.6409
T	-6.65707
b	-6.66181
i	-6.66444
t	-6.66582
a	-6.66646
ing	-6.66724
นี้	-6.6796
แล้ว	-6.68976
4	-6.6906
ท	-6.69368
ร	-6.71437
r	-6.71835
▁4	-6.7495
!	-6.75106
g	-6.75153
F	-6.78361
▁ผลิตภัณฑ์	-6.78391
▁ๆ	-6.78441
▁5	-6.79398
ห	-6.79527
▁T	-6.79855
(	-6.79976
k	-6.80129
ใช้	-6.8032
▁เครื่อง	-6.81195
"	-6.81708
ป	-6.82679
W	-6.82985
พ	-6.8306
n	-6.83114
น้ํา	-6.84406
P	-6.84666
al	-6.86414
ตัว	-6.86534
H	-6.87622
▁10	-6.88052
ว่า	-6.88065
5	-6.88717
o	-6.8909
K	-6.89436
f	-6.92199
8	-6.92246
N	-6.92447
▁D	-6.93573
U	-6.94025
ทาง	-6.95558
an	-6.95598
อ	-6.95984
เ	-6.96694
ดี	-6.9742
เครื่อง	-6.97721
ความ	-6.98825
▁G	-6.99098
com	-7.00244
▁M	-7.00538
R	-7.01006
ทํา	-7.01246
u	-7.0309
h	-7.04499
amp	-7.04946
w	-7.05513
6	-7.05673
▁H	-7.0601
กัน	-7.06653
ไม่	-7.06857
▁E	-7.07745
งาน	-7.12051
▁มี	-7.12375
▁หรือ	-7.12768
คุณ	-7.13141
▁Co	-7.13739
▁"	-7.1527
▁สําหรับ	-7.15556
%	-7.16318
l	-7.1738
ต่อ	-7.18061
ข้อมูล	-7.18999
▁6	-7.19049
▁R	-7.20279
จะ	-7.20469
▁เป็น	-7.20569
ใหม่	-7.21638
▁*	-7.21832
on	-7.21902
v	-7.22327
le	-7.22799
ed	-7.23166
00	-7.23372
ช	-7.2393
X	-7.24017
7	-7.24152
▁K	-7.24301
E	-7.24938
en	-7.25427
et	-7.25441
▁คุณ	-7.26259
▁มม	-7.26577
อยู่	-7.26928
▁8	-7.27438
สูง	-7.27633
โดย	-7.27939
แ	-7.28355
20	-7.28642
▁7	-7.2912
mm	-7.2941
หน้า	-7.30534
50	-7.30681
▁เรา	-7.30944
หรือ	-7.31254
or	-7.31351
▁ไม่	-7.31633
th	-7.33104
0	-7.33164
คน	-7.33337
นะ	-7.33719
อาหาร	-7.33775
re	-7.34263
Y	-7.34407
30	-7.34943
ของคุณ	-7.35021
▁ผู้ผลิต	-7.35881
ไฟ	-7.36191
▁หมายเลขชิ้นส่วน	-7.36341
▁ปี	-7.366
ๆ	-7.36802
จ	-7.37075
รถ	-7.3723
รับ	-7.37517
▁ฉัน	-7.37959
▁บริษัท	-7.38613
▁12	-7.38717
สินค้า	-7.39238
สี	-7.39361
▁L	-7.39484
10	-7.40126
at	-7.41309
▁LED	-7.41492
9	-7.41809
ฟ	-7.42524
▁คน	-7.43231
▁–	-7.4384
ร์	-7.45225
่	-7.45265
ตาม	-7.45602
ั	-7.45877
ที่มี	-7.45887
▁W	-7.45988
มิ	-7.46308
ถึง	-7.46926
มัน	-7.47117
ch	-7.47831
เพื่อ	-7.4803
▁บ้าน	-7.48208
ผลิตภัณฑ์	-7.48583
▁J	-7.48715
้	-7.48736
นั้น	-7.48776
ฉัน	-7.48829
รา	-7.48845
▁ลักษณะ	-7.49201
นา	-7.49608
ic	-7.49671
ยา	-7.49789
ar	-7.49979
25	-7.50357
ผู้	-7.50537
ไฟฟ้า	-7.50556
▁20	-7.50747
▁ขนาด	-7.51393
▁N	-7.51611
ภาพ	-7.52358
]	-7.52563
ระบบ	-7.5275
ริ	-7.53122
ทั้งหมด	-7.53295
ต้อง	-7.53594
อย่าง	-7.54268
▁O	-7.55072
สามารถ	-7.5656
ur	-7.57391
el	-7.5778
ก็	-7.58021
เหล็ก	-7.58345
O	-7.58567
▁แต่	-7.59068
รวม	-7.59084
▁Home	-7.59402
12	-7.59471
▁[	-7.60122
80	-7.60555
ขนาด	-7.61596
it	-7.61724
▁$	-7.61974
เงิน	-7.62244
รี	-7.62975
เกี่ยวกับ	-7.63371
ol	-7.64303
▁I	-7.64313
ผม	-7.64344
เลย	-7.64654
▁+	-7.65994
ลิ	-7.66276
อื่น	-7.66356
il	-7.66795
▁เขา	-7.66851
ของเรา	-7.66984
เล	-7.67247
▁โดย	-7.67308
▁9	-7.67369
ออนไลน์	-7.67671
ra	-7.67915
▁25	-7.6805
40	-7.6808
▁ความ	-7.68119
ส์	-7.68319
ไทย	-7.68362
อะไร	-7.68405
▁2019	-7.69071
ะ	-7.69104
co	-7.6917
เน	-7.69415
มาก	-7.69452
พลาสติก	-7.69458
▁0	-7.70045
ลา	-7.70112
am	-7.70265
ติ	-7.70839
▁15	-7.71046
'	-7.71297
35	-7.71388
z	-7.71575
ปี	-7.71658
▁จํากัด	-7.71796
▁1.	-7.71875
is	-7.72317
ด้าน	-7.72365
ออก	-7.72428
เรา	-7.72841
ma	-7.72967
บน	-7.73111
ro	-7.73176
11	-7.73813
ดู	-7.74034
45	-7.74527
คือ	-7.7465
▁วัน	-7.75569
ใจ	-7.75771
เด	-7.75852
เวลา	-7.76849
ฟรี	-7.76884
ทุก	-7.77155
์	-7.77188
▁หมายเลขรุ่น	-7.77239
▁ชุด	-7.77266
ธ	-7.77279
ในการ	-7.77914
▁ราคา	-7.78115
▁ผม	-7.78171
พร้อม	-7.78204
ขึ้น	-7.78225
บ้าน	-7.78622
ลง	-7.78645
นิ	-7.78781
เธ	-7.79318
เรื่อง	-7.79595
ทั้ง	-7.80118
▁ผู้	-7.80246
▁จะ	-7.80368
15	-7.80378
เข้า	-7.80443
สอง	-7.80597
ข	-7.80769
ซี	-7.80916
ค่า	-7.81176
60	-7.81461
16	-7.8289
▁บาท	-7.82909
หนึ่ง	-7.82939
อุตสาหกรรม	-7.83132
ระดับ	-7.83144
โอ	-7.83146
ศ	-7.83473
▁มัน	-7.83509
มาตรฐาน	-7.8434
32	-7.84533
มือ	-7.84693
สาย	-7.84838
13	-7.85095
พิเศษ	-7.85585
นํา	-7.85598
คู่	-7.85676
ตา	-7.85701
19	-7.86236
วัน	-7.86334
90	-7.86352
ราคา	-7.86466
Z	-7.86569
24	-7.86694
เม	-7.87642
ก่อน	-7.87995
ส่ง	-7.88211
es	-7.88233
us	-7.88258
J	-7.8831
▁18	-7.89125
14	-7.89389
un	-7.902
ชิ	-7.90245
18	-7.90485
I	-7.90509
ul	-7.9076
01	-7.91769
ad	-7.92001
▁2.	-7.92008
อร์	-7.92093
ซิ	-7.92128
▁โรงงาน	-7.92133
คา	-7.92309
▁#	-7.92367
”	-7.92747
▁24	-7.92899
ate	-7.93242
▁30	-7.93337
อุปกรณ์	-7.93655
เล่น	-7.93656
เอ	-7.94579
&	-7.94592
▁19	-7.9461
ไว้	-7.95337
▁เพื่อ	-7.95883
นี่	-7.96726
ang	-7.97029
▁ซึ่ง	-7.9709
55	-7.97204
หา	-7.97245
▁16	-7.97603
ระ	-7.9763
ไอ	-7.98071
70	-7.98121
ย์	-7.98298
ผล	-7.98363
ภายใน	-7.9843
▁เธอ	-7.98467
17	-7.98766
สิ	-7.98968
▁11	-7.99061
▁100	-7.99232
ation	-7.99424
อัตโนมัติ	-7.99443
วา	-7.9953
75	-7.99807
จากประเทศจีน	-8.00345
▁©	-8.0043
ธุรกิจ	-8.0096
ยัง	-8.01013
เมือง	-8.0103
เลือก	-8.01328
ut	-8.01439
▁ระบบ	-8.01647
สูงสุด	-8.01655
lt	-8.01692
_	-8.01956
▁Re	-8.01961
ใหญ่	-8.021
21	-8.02184
จริง	-8.02329
อีก	-8.02336
um	-8.02484
▁นาที	-8.02695
ia	-8.02899
เท	-8.02967
ดา	-8.03219
เบ	-8.03255
น้ํามัน	-8.03337
กว่า	-8.03497
ri	-8.03544
หลัก	-8.03557
เว็บไซต์	-8.04145
ขาย	-8.04314
▁ISO	-8.04398
น่า	-8.04419
65	-8.04421
▁วัสดุ	-8.04497
เร	-8.0455
จิ	-8.04846
36	-8.04913
ไม้	-8.04937
ทํางาน	-8.05046
เสียง	-8.05188
▁Read	-8.05434
เขา	-8.05668
04	-8.05781
า	-8.06132
▁มีสินค้า	-8.06133
ผ่าน	-8.06674
ซา	-8.06936
-2	-8.07065
pcs	-8.07105
ผู้ผลิต	-8.072
ต์	-8.07355
▁“	-8.07381
พลังงาน	-8.07453
te	-8.07759
▁3.	-8.07791
ช่วย	-8.07796
▁More	-8.07843
ร้อน	-8.08094
ลด	-8.08222
ผ้า	-8.08309
ot	-8.08541
กา	-8.08692
จัด	-8.08957
อิ	-8.09112
▁เอเชีย	-8.09118
03	-8.09241
ี	-8.09416
▁ดู	-8.09488
ิ	-8.09634
โม	-8.097
โลหะ	-8.09709
แผ่น	-8.09766
▁50	-8.09861
บริการ	-8.09951
โค	-8.10072
ที	-8.10174
สร้าง	-8.10492
id	-8.10539
22	-8.10713
33	-8.10732
05	-8.1074
-1	-8.10849
แสง	-8.11157
เด็ก	-8.11322
ยาง	-8.1134
โร	-8.11358
ta	-8.11362
st	-8.11456
ที่จะ	-8.1165
▁อุปกรณ์	-8.11696
▁Ltd	-8.11786
ชั้น	-8.12019
@	-8.12077
▁ห้อง	-8.12354
08	-8.12397
ส่วน	-8.1265
▁เวลา	-8.12774
▁X	-8.12859
99	-8.12932
ครับ	-8.1318
ท์	-8.13251
38	-8.13443
เปิด	-8.13444
ent	-8.13503
▁อ	-8.13543
่า	-8.13822
and	-8.13876
la	-8.13888
ควบคุม	-8.13912
ter	-8.14
▁สงวนลิขสิทธิ์	-8.14225
26	-8.14731
▁In	-8.14777
โก	-8.14815
สาม	-8.14834
27	-8.15164
as	-8.15197
48	-8.15229
หลาย	-8.15463
34	-8.15628
j	-8.15942
ผลิต	-8.16458
li	-8.16556
▁ถึง	-8.16751
เค	-8.16754
ตั้ง	-8.16776
แสดง	-8.1691
การผลิต	-8.16934
ไม่ได้	-8.16947
เธอ	-8.16991
รัก	-8.17098
ลูก	-8.17167
28	-8.1734
ห้อง	-8.1734
ประ	-8.17394
se	-8.17573
พิมพ์	-8.17673
วิ	-8.17726
แห่ง	-8.17726
▁ใช่	-8.18011
ine	-8.18076
Q	-8.18222
▁ท่าน	-8.18493
ลี	-8.18726
ท่อ	-8.18851
ชุด	-8.18894
▁2018	-8.18966
86	-8.19063
กระดาษ	-8.19125
▁14	-8.19331
▁13	-8.19424
ไม่มี	-8.19669
เซ	-8.20164
เห็น	-8.20173
one	-8.20206
เว	-8.20352
▁Z	-8.20406
23	-8.20414
56	-8.20563
บริษัท	-8.21189
▁บริการ	-8.21463
ซ	-8.21532
เดียว	-8.21555
▁ชั่วโมง	-8.21787
me	-8.22045
กระ	-8.22107
บาง	-8.22375
37	-8.23041
▁พร้อม	-8.23148
39	-8.23153
กําลัง	-8.23256
เคลือบ	-8.23457
้น	-8.23611
เก็บ	-8.2374
บา	-8.2388
31	-8.24148
ชื่อ	-8.24257
ce	-8.24425
จีน	-8.24705
06	-8.2509
to	-8.25096
▁Ch	-8.25298
ชีวิต	-8.25299
per	-8.25405
▁ประเภท	-8.25406
pe	-8.25836
▁•	-8.25905
mo	-8.26004
ชา	-8.26531
ุ	-8.26721
07	-8.271
กิ	-8.27242
ผ	-8.27764
29	-8.27892
เช่น	-8.28241
ry	-8.28295
▁สาย	-8.28571
ป้องกัน	-8.28784
▁สี	-8.28851
▁17	-8.28867
เมื่อ	-8.28885
China	-8.28929
ir	-8.29071
▁กล่อง	-8.29161
▁ผู้จัดจําหน่าย	-8.29186
ชนิด	-8.29318
ตร	-8.29433
การสอบสวน	-8.29454
02	-8.29569
โล	-8.29916
หลัง	-8.30487
เสีย	-8.30845
ท่าน	-8.30956
กล่อง	-8.31037
ณ	-8.3106
▁°	-8.31089
▁พระ	-8.31196
▁ใบรับรอง	-8.3131
▁ครั้ง	-8.31551
นัก	-8.31777
บรรจุ	-8.31916
รอบ	-8.32004
▁เมื่อ	-8.32299
เตอร์	-8.32336
ตัด	-8.32402
ต้องการ	-8.32448
▁60	-8.3262
ถูก	-8.32729
โรงงาน	-8.32881
รู้	-8.33103
อากาศ	-8.33135
ติด	-8.3328
วง	-8.33299
▁รุ่น	-8.33706
รู	-8.33795
▁~	-8.33876
500	-8.34116
ลูกค้า	-8.34129
เป	-8.3416
88	-8.34231
พูด	-8.34341
44	-8.34441
▁แม่	-8.34452
64	-8.34684
คืน	-8.3497
ประมาณ	-8.35009
ผิว	-8.35464
▁แผ่น	-8.35674
เปลี่ยน	-8.35829
โน	-8.36
บัตร	-8.36041
▁ชื่อ	-8.36126
ถ	-8.36338
สาว	-8.36347
ly	-8.36482
ใด	-8.36572
09	-8.3727
เพิ่ม	-8.3735
เหรอ	-8.37388
วัสดุ	-8.37396
ซื้อ	-8.37636
ไฟล์	-8.37648
ex	-8.37765
▁200	-8.37768
เจ	-8.37779
รถยนต์	-8.3792
เพ	-8.38116
เดือน	-8.38323
ดิ	-8.38329
100	-8.38939
42	-8.38981
51	-8.39348
มากกว่า	-8.3936
49	-8.39588
all	-8.4002
im	-8.40182
นาย	-8.40285
เก	-8.40566
็	-8.40668
ie	-8.407
om	-8.40807
คํา	-8.40916
วิดีโอ	-8.41151
โลก	-8.41319
ไหม	-8.4138
การใช้งาน	-8.41524
อลูมิเนียม	-8.41697
61	-8.41762
ge	-8.41765
ne	-8.41789
เพียง	-8.4181
ครั้ง	-8.41822
47	-8.41916
59	-8.41949
้า	-8.42003
่ง	-8.42141
รุ่น	-8.42243
de	-8.42631
จับ	-8.42737
▁4.	-8.42838
ทา	-8.42869
เย็น	-8.42927
เดิน	-8.42946
▁Y	-8.43023
เรียน	-8.43067
ติดตั้ง	-8.43074
▁นิ้ว	-8.43081
สาร	-8.43459
▁ไม่มี	-8.43614
ญี่ปุ่น	-8.43756
52	-8.43831
พื้น	-8.43872
66	-8.44179
58	-8.44213
85	-8.44308
▁เดือน	-8.44347
ล่าสุด	-8.44416
46	-8.44541
IN	-8.44658
▁»	-8.44765
▁100%	-8.44817
▁ซัพพลายเออร์	-8.44838
ใส่	-8.44891
▁Mark	-8.44891
ant	-8.44943
บัญชี	-8.45145
na	-8.45187
▁2017	-8.45302
ต่างๆ	-8.4531
54	-8.45396
▁สามารถ	-8.45691
ab	-8.45768
อ่าน	-8.458
41	-8.45801
ชาย	-8.45856
43	-8.4591
ละ	-8.46171
ที่ดีที่สุด	-8.46271
ระหว่าง	-8.46403
กลาง	-8.46415
สีขาว	-8.46678
▁Pro	-8.46725
▁ก็	-8.4673
ใช้งาน	-8.46804
▁Main	-8.46873
95	-8.4691
ขอ	-8.47086
ีย	-8.47446
+	-8.47816
ประตู	-8.47853
▁ชิ้น	-8.47875
▁CE	-8.48115
แรง	-8.48176
▁ผู้ส่งออก	-8.48204
เช	-8.48281
สําหรับการ	-8.48435
ซ์	-8.48463
ub	-8.48488
ที่มีคุณภาพสูง	-8.48502
▁ฯลฯ	-8.48672
os	-8.48794
57	-8.48843
สัญญาณ	-8.4893
เริ่มต้น	-8.48979
do	-8.49253
bo	-8.49275
ong	-8.49304
๊	-8.49377
lo	-8.49432
53	-8.4951
ต่ํา	-8.49705
เรือ	-8.49777
คุณภาพ	-8.4979
บิ	-8.49841
ตรง	-8.49847
พา	-8.5015
000	-8.50459
▁De	-8.50618
▁ประเภทธุรกิจ	-8.50735
ํา	-8.50776
ฟิ	-8.50899
ha	-8.51017
ติดต่อ	-8.51129
ac	-8.5113
▁โรงแรม	-8.51148
68	-8.51239
รูป	-8.51252
200	-8.51265
▁เอ	-8.51506
สัตว์	-8.51526
0,000	-8.51599
เอง	-8.51673
age	-8.51762
ER	-8.51921
ho	-8.52155
▁เจ้า	-8.52332
ทําให้	-8.52536
EN	-8.5256
▁ดาวน์โหลด	-8.52914
ill	-8.5299
ความร้อน	-8.53224
เห	-8.5365
62	-8.53758
98	-8.53879
ต่าง	-8.54292
เพิ่มเติม	-8.54317
ite	-8.54319
est	-8.54392
อะ	-8.54472
▁Sh	-8.54492
▁ชั้น	-8.5457
▁22	-8.54782
การใช้	-8.55098
ive	-8.55193
อา	-8.55266
ver	-8.55355
76	-8.55413
67	-8.55523
เกม	-8.55769
แม่	-8.55899
ow	-8.55908
ค่ะ	-8.55963
ึ	-8.56049
ack	-8.56165
รี่	-8.56349
MA	-8.56566
op	-8.56586
up	-8.56679
▁จํานวน	-8.56945
แค	-8.57007
▁ถ้า	-8.5719
77	-8.57196
วัด	-8.57284
▁คือ	-8.5746
ip	-8.57478
ขนาดเล็ก	-8.57865
พื้นที่	-8.58115
be	-8.58282
ตลาด	-8.58322
ell	-8.5833
แค่	-8.58456
63	-8.58512
ัล	-8.5868
เล็ก	-8.58763
ประเภท	-8.58891
ง่าย	-8.58932
ธรรมชาติ	-8.59123
▁วัยรุ่น	-8.59162
โต	-8.59227
เต็ม	-8.59339
▁21	-8.5934
▁Sp	-8.59371
เกิด	-8.59403
ยู	-8.59467
การทํางาน	-8.59488
ay	-8.59867
สมัคร	-8.5995
เกรด	-8.59963
โด	-8.59995
ล่ะ	-8.60094
แนะนํา	-8.60223
qu	-8.60299
แรก	-8.60335
▁รายการ	-8.6038
IC	-8.60433
ที่สุด	-8.60444
เริ่ม	-8.60455
▁ผ้า	-8.60501
สแตนเลส	-8.60625
▁เกม	-8.60801
ออ	-8.60802
ไหน	-8.60977
ลึก	-8.61049
der	-8.61161
อายุ	-8.6117
โรงแรม	-8.61229
ers	-8.61624
กีฬา	-8.61643
▁40	-8.61673
อัน	-8.61718
กลุ่ม	-8.61724
▁นาย	-8.61733
รอ	-8.61869
▁รายละเอียด	-8.61987
nd	-8.6211
▁อเมริกา	-8.62257
69	-8.62299
lu	-8.62531
▁Me	-8.62576
วาง	-8.62721
วี	-8.62741
▁ติดต่อตอนนี้	-8.62915
้ง	-8.63053
ตาย	-8.63054
96	-8.63063
▁St	-8.63067
▁บน	-8.63074
อง	-8.63129
โรค	-8.63313
ide	-8.6338
▁สาว	-8.63472
▁ถุง	-8.63501
▁ยุโรป	-8.63757
-5	-8.63805
พี	-8.63953
จําหน่าย	-8.63988
ห้องพัก	-8.64046
บี	-8.6409
ข้อ	-8.64292
สุด	-8.64427
ตกแต่ง	-8.64439
ตรวจสอบ	-8.64444
ตะ	-8.64472
่อ	-8.64602
0.00	-8.64812
AR	-8.65043
*	-8.65098
เขียน	-8.65164
ลอง	-8.65191
ขา	-8.65221
ลาย	-8.6528
▁เมตร	-8.65327
พอ	-8.65334
89	-8.65435
▁the	-8.65482
ประเทศ	-8.65574
▁5.	-8.65683
▁CO	-8.65818
sh	-8.65949
ใบ	-8.6601
ัง	-8.66183
เชื่อมต่อ	-8.66301
ment	-8.66492
▁เช่น	-8.666
สุ	-8.66633
นอน	-8.66686
เสริม	-8.66803
ts	-8.66812
โครงการ	-8.67033
โซ	-8.67176
อิน	-8.67235
ปรับ	-8.67242
บอก	-8.6738
ความปลอดภัย	-8.67488
ลอ	-8.67493
ยก	-8.67599
▁ประเทศ	-8.67825
71	-8.6783
ดิน	-8.67897
di	-8.67914
กด	-8.6796
72	-8.68278
จุด	-8.68314
ai	-8.68459
▁The	-8.68493
▁น้ําหนัก	-8.68523
ผสม	-8.68565
ion	-8.68575
▁ประเทศจีน	-8.68636
ร่วม	-8.68727
พัฒนา	-8.68728
เทคโนโลยี	-8.68843
โย	-8.68886
โทร	-8.68965
ญ	-8.69293
คิด	-8.69335
ig	-8.69427
ลม	-8.69466
ปิด	-8.69508
ear	-8.69518
▁Windows	-8.69549
▁วันที่	-8.69603
▁of	-8.69695
ขาว	-8.69866
fe	-8.69899
min	-8.69905
ขนาดใหญ่	-8.70112
บู	-8.70143
แก่	-8.70184
อยู่ใน	-8.70206
สิ่ง	-8.70338
he	-8.704
▁Q	-8.70411
สมาชิก	-8.70653
เร็ว	-8.70721
ถนน	-8.70855
AT	-8.70939
ard	-8.70952
▁วิดีโอ	-8.71021
▁ตะวันออกกลาง	-8.71107
ต้น	-8.71158
แก้ว	-8.71162
ล้อ	-8.71185
="	-8.71188
ัม	-8.71338
ัต	-8.71486
▁เพศ	-8.71947
▁IP	-8.72071
ม้วน	-8.72076
▁HD	-8.72196
รหัส	-8.72201
ST	-8.72354
▁ขอ	-8.72468
▁พระองค์	-8.72514
ไ	-8.7252
▁จีน	-8.72544
ทดสอบ	-8.72548
▁หน้าหลัก	-8.72631
คอ	-8.72757
ราย	-8.72929
โปรแกรม	-8.7302
กะ	-8.7311
ได้รับ	-8.73183
็ด	-8.73417
ph	-8.7355
ที่นี่	-8.73692
ซึ่ง	-8.73848
ของฉัน	-8.74097
no	-8.74184
สา	-8.74258
วาล์ว	-8.74335
คุณภาพสูง	-8.74385
รายการ	-8.74463
อ่อน	-8.74466
สวย	-8.74481
▁23	-8.74531
ได้รับการ	-8.74591
จํานวน	-8.7462
อุ	-8.74652
▁โอ้	-8.74685
ti	-8.74775
ber	-8.74906
เครื่องมือ	-8.74933
▁Mo	-8.7496
เดินทาง	-8.75008
97	-8.75042
ฮา	-8.75089
แปลง	-8.75139
เจ้า	-8.75155
da	-8.753
▁Se	-8.75442
▁โทร	-8.75632
เฉพาะ	-8.75714
กําหนด	-8.75719
กลับ	-8.75744
สนับสนุน	-8.75749
ni	-8.75902
▁แอฟริกา	-8.76041
ที่ดี	-8.76158
รุ	-8.76187
ชิ้นส่วน	-8.76231
pa	-8.76304
▁ฟรี	-8.76385
ทั่วไป	-8.7645
โทรศัพท์	-8.76483
ap	-8.76489
74	-8.76528
วันที่	-8.76673
กิจกรรม	-8.76733
-4	-8.7674
บอล	-8.7688
▁Tr	-8.77009
ถุง	-8.77071
เอา	-8.77086
87	-8.77207
กร	-8.77263
เฟ	-8.77498
อี	-8.77515
ด์	-8.77548
78	-8.77593
▁Li	-8.77611
▁Ma	-8.77856
-20	-8.7802
พบ	-8.78038
ve	-8.78083
ตรา	-8.78097
ist	-8.7815
ast	-8.78228
ประกอบ	-8.78596
หัว	-8.788
▁ลูก	-8.78803
79	-8.78875
▁ซม	-8.78891
AC	-8.78982
สุขภาพ	-8.79033
โ	-8.79243
▁Vi	-8.79248
ยาว	-8.79265
้อ	-8.7933
ฉ	-8.79347
EC	-8.79391
ภ	-8.79725
แกน	-8.79738
ตําแหน่ง	-8.79757
▁ชาว	-8.79813
กลางแจ้ง	-8.7983
หน้าจอ	-8.79922
เหมือน	-8.79932
AL	-8.79973
▁ทั่วโลก	-8.80255
่ม	-8.80344
▁ขายส่ง	-8.80367
เม็ด	-8.80497
เลเซอร์	-8.80723
▁เลสเบี้ยน	-8.80745
ใคร	-8.80754
▁ท่อ	-8.80865
อน	-8.80947
สํานักงาน	-8.81012
ผนัง	-8.81086
ปัจจุบัน	-8.81153
หญิง	-8.81171
กรอง	-8.81287
em	-8.8134
ฟิล์ม	-8.81361
▁OEM	-8.81533
81	-8.81559
▁An	-8.817
อุณหภูมิ	-8.81824
้ม	-8.81916
สิ่งที่	-8.81929
ปั๊ม	-8.82075
ฉีด	-8.82191
สัน	-8.82246
ไง	-8.82253
เจาะ	-8.82254
สวน	-8.82257
92	-8.82262
▁ไปยัง	-8.82358
นักเรียน	-8.82485
▁2020	-8.82535
▁นี่	-8.82677
เพลง	-8.82681
จ่าย	-8.82782
con	-8.82931
แก	-8.83088
เนีย	-8.83124
ให้บริการ	-8.83167
อื่นๆ	-8.83175
ag	-8.83369
เอส	-8.83404
▁28	-8.83414
ชี	-8.83454
กันน้ํา	-8.83521
ทอ	-8.83558
นม	-8.83567
เต	-8.836
ลู	-8.83665
▁Bo	-8.8374
▁Android	-8.83836
แยก	-8.84281
▁500	-8.84309
รส	-8.84436
ข้าง	-8.84439
if	-8.84458
เนื้อ	-8.84506
ft	-8.84587
สไตล์	-8.84732
ถัง	-8.84741
บท	-8.84767
ทําความสะอาด	-8.84783
ass	-8.84833
▁2016	-8.84927
จี	-8.85017
ผง	-8.8519
▁วัตต์	-8.85228
รองรับ	-8.85316
ee	-8.85317
ใต้	-8.8532
นั่น	-8.85398
▁Ex	-8.8542
ือ	-8.85466
IS	-8.8559
ที่ใช้	-8.85723
ที่กําหนดเอง	-8.85796
ษ	-8.85815
po	-8.85916
ออกแบบ	-8.86046
ชม	-8.86056
ประโยชน์	-8.86058
▁กระเป๋า	-8.86061
อาจ	-8.86157
ทอง	-8.86204
▁Goji	-8.86245
▁เด็ก	-8.86318
▁คุณภาพ	-8.86351
โรง	-8.86441
84	-8.86539
old	-8.86575
ian	-8.86856
มะ	-8.86886
82	-8.86904
ood	-8.86907
▁ร้านดอกไม้	-8.86967
จอ	-8.86984
▁No	-8.87026
เช่า	-8.87048
ace	-8.87161
MP	-8.87167
▁ขาย	-8.87199
OS	-8.87212
▁฿	-8.87216
น้อย	-8.87309
ในปี	-8.87326
▁หน้าแรก	-8.87409
ความคิดเห็น	-8.87555
▁มุมมอง	-8.8756
เกาะ	-8.87734
แดง	-8.87738
ID	-8.8776
เชื่อม	-8.87777
ถือ	-8.87852
▁ยุโรปตะวันออก	-8.88074
สําคัญ	-8.88319
ชั่น	-8.8836
มอง	-8.88403
▁อย่า	-8.88435
ฮ	-8.88469
ทิ	-8.88508
▁300	-8.88513
รายละเอียด	-8.88521
ou	-8.88542
เท่านั้น	-8.88631
-6	-8.88701
ลบ	-8.88725
ัส	-8.88806
สด	-8.88813
ตอบ	-8.8882
เรียก	-8.88874
hi	-8.88961
tr	-8.88985
▁Le	-8.89067
กุ	-8.89097
แห้ง	-8.89115
go	-8.89154
ศูนย์	-8.8917
โท	-8.89319
อยาก	-8.89399
ที่เกี่ยวข้อง	-8.89488
son	-8.89517
บันทึก	-8.8954
73	-8.89542
ซู	-8.89601
vi	-8.89627
แอ	-8.8976
▁He	-8.8985
โหลด	-8.90041
ปกติ	-8.90061
CH	-8.90185
อิเล็กทรอนิกส์	-8.90249
▁จัดส่งดอกไม้	-8.90309
▁รหัส	-8.90459
หนัง	-8.90579
จัดการ	-8.90588
คอมพิวเตอร์	-8.90625
อั	-8.90658
พวก	-8.90694
▁USB	-8.90708
▁Cl	-8.90788
91	-8.91104
ตี	-8.91156
ทีวี	-8.91223
83	-8.91244
รางวัล	-8.91278
94	-8.91311
ล็อค	-8.91393
▁ภาพใหญ่	-8.91403
ON	-8.91437
ust	-8.91445
ฐาน	-8.91533
ขน	-8.91636
va	-8.91683
ขัด	-8.91689
ภาษา	-8.91691
ba	-8.917
ข้อความ	-8.91703
▁Ro	-8.91741
ร้าน	-8.91776
ดูด	-8.91976
ชน	-8.92199
▁นั่น	-8.92268
▁หลอด	-8.92364
▁ปั๊ม	-8.92367
จํา	-8.92368
เรีย	-8.9249
ปัญหา	-8.92549
▁ประเทศไทย	-8.92656
▁โอเค	-8.92764
ตั้งแต่	-8.92872
มีความ	-8.92941
TH	-8.92946
ตลอด	-8.93021
ru	-8.9305
-10	-8.93139
เอเชีย	-8.9315
ไซ	-8.93209
▁วิธีการ	-8.93222
โบ	-8.9349
ดิจิตอล	-8.9353
หนังสือ	-8.94031
▁เปิด	-8.9419
ty	-8.94344
เหนือ	-8.94435
เท้า	-8.94442
พระ	-8.94457
ca	-8.94536
รถไฟ	-8.94559
▁ยุโรปตะวันตก	-8.94562
แผน	-8.94628
▁ยุโรปเหนือ	-8.94755
การออกแบบ	-8.94757
น่ะ	-8.94993
เส้น	-8.95031
we	-8.95066
mi	-8.95113
เพื่อน	-8.95137
น์	-8.95156
ทรง	-8.95191
-8	-8.95216
ไปยัง	-8.95355
ล์	-8.95372
ราช	-8.95427
yl	-8.95479
su	-8.95525
นวด	-8.95552
▁ส่วน	-8.95597
ชอบ	-8.95605
ควร	-8.95608
▁กรัม	-8.9561
▁เครื่องมือ	-8.9567
0.0	-8.9575
โครงสร้าง	-8.9576
ton	-8.95772
ity	-8.95872
▁เพราะ	-8.95893
การศึกษา	-8.95905
บั	-8.95913
แผง	-8.95924
▁Be	-8.95958
หยุด	-8.95959
ประสบการณ์	-8.95961
5%	-8.96019
9001,	-8.9604
โฆษณา	-8.96093
แพ	-8.96112
▁Thailand	-8.96169
ลวด	-8.96248
▁อา	-8.96274
ke	-8.9633
หล่อ	-8.96433
▁(4	-8.96489
หุ้น	-8.96575
io	-8.96705
://	-8.96754
ผู้หญิง	-8.96767
TC	-8.96816
▁	-8.96827
93	-8.96973
เครื่องยนต์	-8.97227
▁Car	-8.97243
ดาวน์โหลด	-8.97297
EL	-8.97389
MS	-8.97405
กว้าง	-8.97415
▁โอ	-8.97549
พัน	-8.97652
IT	-8.97795
นี	-8.9782
pro	-8.97839
รวมถึง	-8.9791
ขยาย	-8.9801
วน	-8.98019
หรือไม่	-8.9807
hen	-8.98088
ขอบ	-8.98199
มุม	-8.98461
ภาค	-8.98468
▁2562	-8.98509
ET	-8.98558
▁ถนน	-8.98617
อย	-8.98618
รร	-8.98677
ปฏิบัติ	-8.9868
able	-8.98728
PS	-8.98734
ผู้ใช้	-8.98829
ga	-8.98853
▁💐	-8.98902
กระเป๋า	-8.98911
ธนาคาร	-8.98911
▁กําลัง	-8.98968
ลับ	-8.99015
▁พวก	-8.99094
คุ	-8.99095
สีแดง	-8.99096
PC	-8.99142
ู	-8.99148
รูปแบบ	-8.99161
ord	-8.99248
น้ําหนัก	-8.99372
ทะเล	-8.99376
ผู้ชาย	-8.99466
เทป	-8.99583
▁6.	-8.99726
ting	-8.99772
แบ	-8.99792
ิก	-8.99799
▁Pa	-8.998
int	-8.99826
พวกเขา	-8.99831
บริหาร	-8.99907
บริสุทธิ์	-8.99977
sion	-9.00138
เบอร์	-9.00314
ได	-9.00521
ปลา	-9.00566
▁27	-9.00657
pl	-9.00693
เครือข่าย	-9.00698
สายเคเบิล	-9.00802
แต่ละ	-9.00848
tic	-9.01078
300	-9.01128
เดี่ยว	-9.01137
การควบคุม	-9.0122
อก	-9.01229
ทางเทคนิค	-9.01441
แก้ไข	-9.01478
พอร์ต	-9.01488
วันนี้	-9.01622
▁1000	-9.01677
สีดํา	-9.01726
รีด	-9.01731
▁เอา	-9.01749
กระจก	-9.01797
เอกสาร	-9.01855
หิน	-9.0191
▁To	-9.01917
โฮ	-9.01936
สิทธิ	-9.01964
ติดตาม	-9.01978
อาคาร	-9.02083
ส่วนลด	-9.02101
▁คุณสมบัติ	-9.02173
็ก	-9.02187
RE	-9.02197
รอย	-9.02201
การจัดการ	-9.02213
เว็บ	-9.02516
เซอร์	-9.02574
ชาร์จ	-9.02758
โจ	-9.02921
เงื่อนไข	-9.02993
▁ศูนย์	-9.03165
▁เมือง	-9.03347
▁02	-9.03353
กิน	-9.03421
มือถือ	-9.03429
บาร์	-9.03461
▁วีดีโอ	-9.03476
▁26	-9.03572
ick	-9.03574
ต้า	-9.03593
▁ภาพยนตร์	-9.03607
การเดินทาง	-9.03665
US	-9.03964
ไร	-9.03986
ฯ	-9.04011
แบตเตอรี่	-9.04085
ฮิ	-9.04103
man	-9.04123
ES	-9.04135
ps	-9.04153
▁×	-9.04166
▁Con	-9.0421
TS	-9.04285
ยอด	-9.04317
▁AC	-9.04421
ข่าว	-9.04475
หมุน	-9.04496
การทดสอบ	-9.04502
ไม่ใช่	-9.04528
ดําเนินการ	-9.04585
▁31	-9.046
พัก	-9.04665
นอก	-9.04666
สถานที่	-9.0473
ator	-9.04755
ลุ	-9.04796
รอง	-9.04846
ฝ่าย	-9.04935
▁to	-9.04951
ช่อง	-9.04988
▁Al	-9.05051
▁ชนิด	-9.05197
ดํา	-9.05441
การ์ด	-9.05549
เสื้อผ้า	-9.05553
พื้นผิว	-9.05607
▁PVC	-9.05742
คะ	-9.05787
รั้ว	-9.05852
PE	-9.05871
อันดับ	-9.0589
ตก	-9.06065
ปุ่ม	-9.06177
▁เฮ้	-9.06324
▁ค้นหา	-9.0649
ไฟเบอร์	-9.06675
จอง	-9.06919
-7	-9.0695
▁ทรง	-9.0703
▁ผู้หญิง	-9.07058
▁PDF	-9.07075
▁Cr	-9.07103
บุ	-9.07114
สื่อ	-9.0715
port	-9.07241
▁150	-9.07257
คุณจะ	-9.07268
ร่า	-9.07308
▁2015	-9.075
ress	-9.07519
▁สมัครเล่น	-9.07556
ตัน	-9.0756
▁วิธี	-9.07736
act	-9.07798
▁ผง	-9.07951
▁กก	-9.07955
รักษา	-9.07962
▁So	-9.0799
▁La	-9.07994
็อ	-9.0811
▁and	-9.08197
ร้อง	-9.08312
▁ทําไม	-9.08396
ซิลิโคน	-9.08484
▁Gr	-9.08495
lor	-9.08611
q	-9.08738
ของขวัญ	-9.08739
▁สถานที่	-9.08756
▁แท็ก	-9.08981
ติดต่อตอนนี้	-9.0904
ทีม	-9.0905
ster	-9.09103
ยาก	-9.09192
แจ้ง	-9.09236
เพศ	-9.09263
▁USD	-9.09394
fi	-9.094
จัดส่ง	-9.094
ใกล้	-9.09401
มืออาชีพ	-9.09616
นาง	-9.09696
ขวด	-9.09769
Ltd	-9.09788
▁2561	-9.0984
สนุก	-9.09863
ium	-9.09893
▁ตลาดอื่น	-9.09915
สมบูรณ์	-9.09963
ซอฟต์แวร์	-9.10024
คาร์บอน	-9.10036
▁ขอบคุณ	-9.10169
สู่	-9.10259
รั	-9.10284
▁เซ็กส์	-9.10302
▁PP	-9.10345
วาด	-9.10363
ies	-9.10363
นาน	-9.10399
▁ความยาว	-9.10423
▁โอเชียเนีย	-9.10458
▁ความหนา	-9.10514
ล้าง	-9.10543
ตัวเอง	-9.10611
ดอกไม้	-9.10626
ความเร็ว	-9.10765
เสา	-9.10785
▁หมายเลข	-9.10824
▁(5	-9.10911
การทํา	-9.10972
ล่า	-9.11005
ตัวอย่าง	-9.11019
ปาก	-9.11063
หนัก	-9.11133
สหรัฐอเมริกา	-9.11146
เก่า	-9.11227
SE	-9.11308
▁สิ่ง	-9.11348
▁(10	-9.11368
แฟน	-9.1142
od	-9.11446
▁ธันวาคม	-9.1164
ยึด	-9.11713
องค์กร	-9.11745
▁Ba	-9.11793
เส	-9.11806
อัด	-9.12027
บุคคล	-9.12094
คอน	-9.12176
จอแสดงผล	-9.12215
▁ข่าว	-9.12224
lic	-9.12345
▁Ra	-9.12402
คัด	-9.12474
แข็ง	-9.12556
ชาว	-9.12579
เครื่องจักร	-9.12611
จา	-9.12663
ice	-9.1272
ka	-9.1275
tra	-9.12761
คง	-9.128
กล้อง	-9.12806
▁Lo	-9.12939
ความดัน	-9.12977
โบนัส	-9.1305
ท่องเที่ยว	-9.13118
โต๊ะ	-9.1316
มั้ย	-9.13367
อด	-9.13401
สิ่งแวดล้อม	-9.13445
▁พ่อ	-9.13552
ป่า	-9.13584
การรักษา	-9.13605
▁Machine	-9.13656
บล็อก	-9.1372
เลีย	-9.13739
ลิน	-9.13756
ตู้	-9.13769
oo	-9.13802
เตียง	-9.13814
การค้า	-9.14084
แลนด์	-9.14094
ดูแล	-9.14103
LE	-9.14165
400	-9.14262
หลังจาก	-9.14284
สอน	-9.14308
ug	-9.14352
▁=	-9.14466
ens	-9.14538
ok	-9.14561
หน่อย	-9.14705
ข้าว	-9.1488
▁DC	-9.14897
สนาม	-9.14948
มอเตอร์	-9.15034
▁ณ	-9.15106
ประกาศ	-9.1521
แบรนด์	-9.15218
mon	-9.15275
ประเทศไทย	-9.15476
พืช	-9.15616
AD	-9.15644
ฟัง	-9.1571
hu	-9.15788
;&	-9.15797
ราคาถูก	-9.15844
▁รีสอร์ท	-9.15871
tor	-9.1592
ect	-9.16033
ron	-9.16056
ไบ	-9.16071
end	-9.16127
อาร์	-9.16174
900	-9.16206
แต่	-9.16247
จริงๆ	-9.16349
▁แผง	-9.16356
ko	-9.16371
โพลีเอสเตอร์	-9.16466
ตอนนี้	-9.16558
ตาข่าย	-9.16579
▁ดอก	-9.16589
คืออะไร	-9.16616
ED	-9.16829
▁นัก	-9.16865
คาสิโน	-9.16877
โรงพยาบาล	-9.16982
ป้าย	-9.17127
▁ร้าน	-9.17161
นั่ง	-9.17218
▁แสดง	-9.17272
ไม	-9.17344
cl	-9.17436
ิง	-9.17454
เกียร์	-9.17529
รายงาน	-9.17539
คณะกรรมการ	-9.17582
ance	-9.17596
▁ตุลาคม	-9.17611
600	-9.17617
สเตอร์	-9.17627
แท้	-9.17924
กฎหมาย	-9.18055
▁ผู้ผลิตในจีน	-9.18162
สาธารณะ	-9.18259
▁Sa	-9.1834
2000	-9.18393
วิธี	-9.18394
รถบรรทุก	-9.18426
▁คํา	-9.18532
ประสิทธิภาพ	-9.18539
pi	-9.18549
br	-9.18643
ทุน	-9.18649
ภาษาไทย	-9.18696
การจัด	-9.18717
เวอร์	-9.18812
▁โทรศัพท์	-9.18863
บรรจุภัณฑ์	-9.1889
▁มาแล้ว	-9.18918
▁จุด	-9.18923
กาย	-9.18963
ซี่	-9.18988
รัสเซีย	-9.19103
แทน	-9.19313
bi	-9.19354
▁Po	-9.19394
▁มีนาคม	-9.19395
2.5	-9.19473
▁หมวดหมู่	-9.19502
เท่ากับ	-9.19562
เคมี	-9.19597
กระบวนการ	-9.19608
ปลอดภัย	-9.19621
art	-9.19669
ki	-9.19736
pp	-9.19792
สนามบิน	-9.198
ทําการ	-9.19807
nc	-9.19976
แหวน	-9.19986
มหาวิทยาลัย	-9.20022
บทความ	-9.20032
▁Su	-9.20052
ix	-9.20157
ลักษณะ	-9.20197
เท่า	-9.20273
ไว	-9.20329
cr	-9.20396
PA	-9.204
ost	-9.20587
▁ช่อง	-9.20617
▁(11	-9.20669
โอน	-9.20795
ต่อไป	-9.20799
▁ดังนั้น	-9.20825
เข้าใจ	-9.20845
มีการ	-9.20996
ไท	-9.21003
แบริ่ง	-9.21074
ถ่าย	-9.21105
ทัวร์	-9.21128
หลักสูตร	-9.21144
เถอะ	-9.21168
TA	-9.21188
ส่วนตัว	-9.21249
กาว	-9.21374
เหรียญ	-9.21424
ฮอ	-9.21472
แอน	-9.21602
EX	-9.2162
▁2560	-9.21643
มุ	-9.21644
การชําระเงิน	-9.2173
ure	-9.21738
บอร์ด	-9.21828
tion	-9.21839
▁CNC	-9.21865
ศิลปะ	-9.21896
ตอน	-9.21901
▁Mac	-9.21928
▁เลือก	-9.21982
๋	-9.22012
ไฮดรอลิก	-9.22049
ระยะ	-9.22209
Hz	-9.22228
พนักงาน	-9.22243
ที่ผ่านมา	-9.22272
แสงอาทิตย์	-9.22321
PO	-9.22399
ประจํา	-9.22416
เยี่ยม	-9.22438
เคย	-9.22471
สถานี	-9.22475
ob	-9.22507
▁เพิ่ม	-9.22607
au	-9.22635
out	-9.22657
แฟชั่น	-9.227
▁พฤศจิกายน	-9.2276
ความถี่	-9.22843
ana	-9.2287
การติดตั้ง	-9.22905
TM	-9.22921
uck	-9.22933
สัมผัส	-9.22958
เลี้ยง	-9.23111
อัล	-9.23143
SP	-9.23164
อินเดีย	-9.23182
les	-9.23186
▁Hotel	-9.23262
ปา	-9.2336
้ว	-9.23363
ลล์	-9.23382
หลังคา	-9.23439
โพสต์	-9.23528
ข้อกําหนด	-9.23565
มาร์	-9.23703
พี่	-9.23837
▁ห้องนอน	-9.23865
การพิมพ์	-9.2409
ด่วน	-9.24092
ino	-9.24097
เกอร์	-9.24172
เนอร์	-9.24196
เกย์	-9.24328
กล	-9.24541
▁เกมส์	-9.24561
ห์	-9.24736
ING	-9.24742
ไน	-9.24832
ื	-9.24855
ock	-9.24966
▁120	-9.24991
เชิง	-9.25019
กรด	-9.25096
ขึ้นรูป	-9.25259
▁Dr	-9.25343
ทองแดง	-9.25454
ชาติ	-9.25482
shi	-9.25492
▁กันยายน	-9.25497
โปร	-9.2552
คิ	-9.25593
ที่คุณ	-9.25733
ปรับปรุง	-9.25807
จิต	-9.25861
ลอก	-9.25966
▁กุมภาพันธ์	-9.25989
low	-9.26037
dy	-9.26124
▁ญี่ปุ่น	-9.26128
▁29	-9.26201
’	-9.26202
▁ขั้นตอน	-9.26212
▁อัตรา	-9.2622
OR	-9.26241
อังกฤษ	-9.26328
เครื่องดื่ม	-9.26329
▁แม	-9.26355
our	-9.26427
แม่เหล็ก	-9.26487
▁ครั้งที่เข้าดู	-9.26514
เชื่อ	-9.2659
▁ถูก	-9.26627
▁(6	-9.26731
สั้น	-9.2675
อยู่ที่	-9.26782
▁www	-9.26797
ทั่วโลก	-9.26831
ว่าง	-9.2698
กุหลาบ	-9.27011
การแข่งขัน	-9.27087
304	-9.27107
▁BookingSuite	-9.27175
สะ	-9.27259
ัญ	-9.27276
ore	-9.27287
▁·	-9.27336
สกรู	-9.27373
ina	-9.27392
▁App	-9.27409
ฟ้า	-9.27467
yo	-9.2747
ธิ	-9.27519
เจน	-9.27541
NO	-9.27555
ไฮ	-9.27623
▁แอ	-9.27644
หนา	-9.27658
ทุกคน	-9.27773
800	-9.27823
เตรียม	-9.27835
ตี้	-9.2785
bu	-9.27871
แขน	-9.27961
หลากหลาย	-9.27978
▁Booking	-9.28036
▁เครื่องตัด	-9.28059
chi	-9.28248
ด้า	-9.28259
ผิด	-9.28391
กระเบื้อง	-9.28507
ความสูง	-9.28522
AP	-9.28555
ถ้า	-9.28558
▁มกราคม	-9.28643
จน	-9.28707
▁เจ	-9.28707
pr	-9.28716
▁พระเจ้า	-9.28735
ฟัน	-9.28817
แหล่ง	-9.28832
▁อี	-9.2886
9001	-9.28909
▁For	-9.28991
ค์	-9.29045
ase	-9.29147
▁เมษายน	-9.29305
▁กลุ่ม	-9.29441
ให้กับ	-9.29464
คําถาม	-9.29545
▁Light	-9.29549
ME	-9.29578
ร่างกาย	-9.29612
เครื่องขึ้นรูป	-9.29619
ทาน	-9.29693
เทียน	-9.29722
ลิป	-9.2977
คิดว่า	-9.29772
ดาว	-9.29779
มหาชน	-9.2981
▁Air	-9.29825
▁Th	-9.29874
กรุงเทพ	-9.29973
oss	-9.30093
รับประกัน	-9.30183
▁Mar	-9.30196
sta	-9.30304
▁ดอกไม้	-9.30323
▁วาล์ว	-9.30366
นด์	-9.3047
-9	-9.3056
รู้จัก	-9.30603
▁ข้อ	-9.30649
สุนัข	-9.30663
ชิ้น	-9.30737
ash	-9.30854
แฮ	-9.30898
UN	-9.30962
ประหยัด	-9.31025
สูตร	-9.31214
2017	-9.3123
▁เค	-9.31234
ซอ	-9.31244
จู	-9.31273
เข้าร่วม	-9.31326
เชื้อ	-9.31465
แล	-9.31536
▁All	-9.31608
iz	-9.3163
ที่ไม่	-9.31771
ร้านอาหาร	-9.31862
การจัดส่ง	-9.31928
gra	-9.32006
▁iPhone	-9.32011
กรรม	-9.32024
▁Da	-9.32102
ภายนอก	-9.32123
บวก	-9.32136
TV	-9.32276
็กซ์	-9.32293
▁Hot	-9.32352
▁องศา	-9.32387
-12	-9.32403
ก่อสร้าง	-9.32478
ภาษาอังกฤษ	-9.3253
line	-9.3265
ทนทาน	-9.32801
นุ	-9.32857
ปล่อย	-9.32884
ดัง	-9.32886
ue	-9.32919
เพื่อให้	-9.32977
สัญญา	-9.32996
ชนะ	-9.3317
ัย	-9.33189
พร	-9.33273
▁มิถุนายน	-9.33381
ภูเก็ต	-9.3343
ที่นั่ง	-9.33515
▁250	-9.33529
พับ	-9.33537
กระจาย	-9.33567
▁ทั้งหลาย	-9.33569
ler	-9.33582
เจอ	-9.33596
เอ็ม	-9.33598
ครัว	-9.33731
เมตร	-9.33756
ลํา	-9.33933
บุตร	-9.34013
ฮั	-9.34013
ช่วง	-9.34014
▁อาคาร	-9.34029
ข้อเสนอ	-9.34071
การตรวจสอบ	-9.34076
▁แค	-9.34178
แนว	-9.34191
▁มือสมัครเล่น	-9.34208
mer	-9.34208
▁for	-9.34239
ครั้งแรก	-9.34244
แถบ	-9.34285
eng	-9.34299
ไร้สาย	-9.34406
พ่อ	-9.3441
วิจัย	-9.34423
ปู	-9.34443
700	-9.34466
net	-9.34474
vo	-9.3454
▁กรุณา	-9.34552
่ว	-9.34592
บ้าง	-9.34721
กรอบ	-9.34823
atch	-9.34823
ครอบครัว	-9.34824
ade	-9.34839
หรอก	-9.34841
โหมด	-9.3485
MC	-9.34905
ศาสตร์	-9.34931
กระแส	-9.35025
เมีย	-9.35077
oc	-9.35093
กาแฟ	-9.35095
"&	-9.35111
ขณะ	-9.35112
สัก	-9.35181
คู	-9.35183
160	-9.35318
พีวีซี	-9.35341
สํารอง	-9.35481
หอ	-9.35496
TR	-9.35514
ภายใต้	-9.35589
ci	-9.35666
▁Ar	-9.35721
ศึกษา	-9.35727
โทรศัพท์มือถือ	-9.35754
gu	-9.35813
ลงทะเบียน	-9.3585
ov	-9.3587
ml	-9.35871
ji	-9.35921
ish	-9.35937
ฟา	-9.35955
แน่น	-9.36037
ใส	-9.36047
มู	-9.36141
่น	-9.36165
are	-9.36186
ถูกต้อง	-9.36189
การพัฒนา	-9.36254
ฝรั่งเศส	-9.36267
กําจัด	-9.36267
▁กล้อง	-9.363
DE	-9.36429
TO	-9.3646
จักรยาน	-9.36494
หวาน	-9.36494
ail	-9.36498
▁โปรด	-9.36552
จํากัด	-9.36565
cm	-9.36609
ฆ่า	-9.36732
ระบุ	-9.36784
ff	-9.36795
เหลือ	-9.36818
▁Un	-9.36827
ประชุม	-9.36838
ight	-9.36839
สเต	-9.36949
เกิดขึ้น	-9.36964
▁บรรจุภัณฑ์	-9.37015
มอบ	-9.37085
ส่งออก	-9.37102
▁เยน	-9.37138
สายไฟ	-9.37163
▁อลูมิเนียม	-9.3717
ner	-9.37295
อัตรา	-9.37301
mp	-9.37426
แน่นอน	-9.37446
เปอร์	-9.37446
own	-9.37554
▁สิงหาคม	-9.37614
หมอ	-9.37714
แมน	-9.37742
ny	-9.37772
▁de	-9.37781
เพชร	-9.37837
TE	-9.37906
บด	-9.37941
▁เขต	-9.37957
เสาอากาศ	-9.38018
NA	-9.3819
ปิ	-9.38251
ต่างประเทศ	-9.38298
ิน	-9.38359
เลื่อน	-9.38369
พื้นฐาน	-9.38377
ud	-9.38378
ตั	-9.38383
▁กิโลกรัม	-9.38389
สีเหลือง	-9.38391
▁นโยบาย	-9.38413
▁Qu	-9.38451
ซั	-9.38455
▁2014	-9.385
ld	-9.3852
▁Mi	-9.38575
สวยงาม	-9.38586
แบบพกพา	-9.38649
▁Di	-9.38671
ยาย	-9.38674
ound	-9.3884
ี่ย	-9.3884
▁ช่วง	-9.38866
▁ชาย	-9.38888
สีเขียว	-9.38972
▁หนุ่ม	-9.39
ผู้ใหญ่	-9.39019
เมล็ด	-9.39045
จะมี	-9.39056
เฟอร์นิเจอร์	-9.39067
oll	-9.39067
สังคม	-9.39075
▁รีวิว	-9.39138
ตัวเลือก	-9.39189
RT	-9.39217
▁เรามี	-9.39243
ไล	-9.39402
▁ชิ้นส่วน	-9.39483
โอกาส	-9.39591
=	-9.39682
นาฬิกา	-9.39728
สวิตช์	-9.39728
▁คุณสามารถ	-9.39767
OP	-9.39772
เมน	-9.39811
ยอมรับ	-9.39922
เตือน	-9.39923
ical	-9.39925
kg	-9.39954
ก็ได้	-9.39969
อย่างไร	-9.40077
แซ	-9.40111
นับ	-9.40125
▁ประตู	-9.40131
ขอโทษ	-9.40141
▁UL	-9.40142
▁พวกเขา	-9.40151
wi	-9.40161
SI	-9.4021
▁En	-9.40345
เปล่า	-9.40457
อม	-9.40528
lin	-9.40594
▁หัว	-9.40609
สอบถาม	-9.40714
▁Ha	-9.40766
▁สีดํา	-9.40767
▁ที่อยู่	-9.40809
กรรมการ	-9.40819
CO	-9.40834
ภัย	-9.40911
▁ติดต่อเรา	-9.40967
▁600	-9.40982
แจ	-9.41035
▁จึง	-9.41054
คะแนน	-9.41131
▁แคริบเบียน	-9.41164
บ้า	-9.41204
ผลไม้	-9.41213
ครู	-9.41268
▁ครอบครัว	-9.41278
งค์	-9.41334
ใช้เวลา	-9.4136
คอร์	-9.41408
▁ล้าน	-9.41453
▁Wi	-9.41477
▁PC	-9.41593
ran	-9.41602
lex	-9.41605
▁Gu	-9.41636
▁ทําให้	-9.4167
ฐ	-9.41708
โดยตรง	-9.41753
ประกัน	-9.41824
han	-9.41828
ปริมาณ	-9.41829
MM	-9.41908
▁ตัน	-9.41927
▁Google	-9.4193
ชายหาด	-9.41949
แบน	-9.41952
▁คลิก	-9.42023
ไพ	-9.42137
land	-9.42147
มากขึ้น	-9.42167
สปา	-9.4233
นําเสนอ	-9.42416
▁Line	-9.42478
▁ติดต่อ	-9.4249
FC	-9.42493
ื่อ	-9.42512
หอม	-9.42531
ak	-9.42532
oy	-9.42533
ั่น	-9.42597
ดี้	-9.42683
ISO	-9.42795
▁2013	-9.42859
หน้าต่าง	-9.42876
▁กม	-9.42883
EM	-9.429
0.2	-9.42903
ประกอบด้วย	-9.42919
ร้าย	-9.42955
▁ดํา	-9.43009
ความต้องการ	-9.4312
หลอด	-9.43133
เทอร์	-9.43183
▁พื้นที่	-9.43228
กางเกง	-9.43272
ภูมิ	-9.43319
อุปกรณ์เสริม	-9.43326
ng	-9.43447
▁หญิง	-9.43506
▁องค์	-9.43532
ree	-9.43548
คุณสมบัติ	-9.4355
140	-9.43698
ยุโรป	-9.43762
▁โปรแกรม	-9.43811
▁ตู้	-9.43845
๊ก	-9.4385
เข้าชม	-9.4385
▁Ta	-9.43963
▁กรกฎาคม	-9.44043
ตัวแทน	-9.44067
ก๊าซ	-9.44072
#	-9.44143
150	-9.44191
®	-9.44216
▁Do	-9.4429
คัน	-9.44358
less	-9.44394
สิทธิ์	-9.44447
ปลาย	-9.4445
ปรับแต่ง	-9.44466
เลข	-9.44467
▁kgm	-9.44478
ทิ้ง	-9.44552
แหล่งจ่ายไฟ	-9.44606
ake	-9.44635
ไม่สามารถ	-9.44646
▁อุณหภูมิ	-9.44651
ปืน	-9.44674
ย่อ	-9.44771
คําแนะนํา	-9.448
เซ็น	-9.4485
Porn	-9.44881
จึง	-9.45018
▁แก่	-9.45044
car	-9.45063
เมนู	-9.45096
lay	-9.4511
ั่ง	-9.45127
app	-9.45148
IP	-9.45149
▁ความเร็ว	-9.4522
เทรด	-9.45233
ort	-9.45237
▁Berry	-9.45247
so	-9.45251
เสื้อ	-9.45303
ตรวจ	-9.45315
ว์	-9.45328
บิน	-9.45348
▁รูป	-9.45359
GB	-9.45371
▁โคมไฟ	-9.4542
เขต	-9.45465
หมายถึง	-9.45483
เกาหลี	-9.45503
สัปดาห์	-9.45516
ค่าใช้จ่าย	-9.45566
ออกไป	-9.45716
▁Ho	-9.45726
HP	-9.45734
โรงเรียน	-9.45778
▁หนัง	-9.45806
แพทย์	-9.4591
cu	-9.45931
▁We	-9.45956
ราง	-9.45962
วิทยา	-9.46062
▁CAS	-9.46073
แพคเกจ	-9.46165
ated	-9.46216
มนุษย์	-9.46252
ของลูกค้า	-9.46265
เรียนรู้	-9.46277
แปล	-9.46364
พล	-9.46413
ull	-9.46574
▁จง	-9.4658
RS	-9.46613
ฝุ่น	-9.46664
หน	-9.46697
หมายเลข	-9.4674
ฝ	-9.46781
สีน้ําตาล	-9.46785
พวกเรา	-9.46792
เดอร์	-9.4682
เที่ยว	-9.46851
ene	-9.46877
สถาน	-9.46925
mail	-9.46953
▁บุคคลทั่วไป	-9.46974
▁start	-9.47
รองเท้า	-9.47107
เส้นทาง	-9.47115
▁เตียง	-9.47127
▁Bra	-9.47147
ข้าม	-9.47161
ซะ	-9.47205
▁หาก	-9.47408
ดอก	-9.47455
เดิม	-9.47457
สี่	-9.47474
สุดท้าย	-9.47569
tal	-9.47598
เกลียว	-9.47609
log	-9.47617
▁เกี่ยวกับการขาย	-9.47633
ขวา	-9.47637
รู้สึก	-9.47701
โพ	-9.4772
แตก	-9.47752
▁Fe	-9.47835
ile	-9.47838
\	-9.4785
รับรอง	-9.47853
มูลค่า	-9.47906
เยอรมัน	-9.4796
คาร์	-9.47983
▁(1)	-9.47991
Fi	-9.47996
หน่วย	-9.48073
สบาย	-9.48077
ฝึก	-9.4814
การป้องกัน	-9.48238
▁LTD	-9.48325
ย้าย	-9.48359
ซุ	-9.48444
LO	-9.48574
ดื่ม	-9.48745
พุ	-9.48857
pt	-9.48888
▁dur	-9.48895
▁ซื้อ	-9.48932
120	-9.48956
▁Cas	-9.49001
ชู	-9.49004
อะไหล่	-9.49009
เซีย	-9.49023
เลือด	-9.49091
โทษ	-9.49136
0000	-9.49205
โป	-9.49264
▁(20	-9.4928
OD	-9.49335
การขาย	-9.49367
สั่ง	-9.49371
ที่พัก	-9.49431
ไหล	-9.49456
ส่วนประกอบ	-9.49468
▁400	-9.49469
▁Dis	-9.49656
ทราบ	-9.49692
มินิ	-9.49739
±	-9.49743
▁คู่มือ	-9.49752
ครีม	-9.49796
ออน	-9.49869
การเชื่อมต่อ	-9.49901
▁มันเป็น	-9.49902
หาก	-9.49909
ผ้าฝ้าย	-9.49926
ink	-9.49927
อย่างรวดเร็ว	-9.49944
▁ลิตร	-9.4995
▁ขวด	-9.49994
สอบ	-9.50116
▁ระยะเวลา	-9.50183
ยังไง	-9.50231
▁(12	-9.50244
แม่พิมพ์	-9.50275
▁LCD	-9.50339
▁โครงการ	-9.5047
▁การออกแบบ	-9.50507
อํานวยความสะดวก	-9.50606
CE	-9.50634
▁PE	-9.50835
▁มอเตอร์	-9.50835
สต์	-9.50937
res	-9.51016
▁1.5	-9.51061
การประชุม	-9.51065
ยิ่ง	-9.51124
สนใจ	-9.51144
▁สาร	-9.51154
ยิง	-9.5117
fl	-9.51199
▁ข้า	-9.51256
▁ASTM	-9.51286
วงจร	-9.51356
▁ประเภทผลิตภัณฑ์	-9.51454
▁Power	-9.51468
▁SC	-9.51534
ภา	-9.51561
โฟม	-9.51591
ข่าวสาร	-9.51593
▁Man	-9.51646
เดียวกัน	-9.51673
▁05:	-9.51726
ประจําปี	-9.51767
ก่อนหน้า	-9.5181
เมอร์	-9.51887
ถาม	-9.5191
▁หลังจาก	-9.51993
▁You	-9.52008
▁High	-9.52017
สระว่ายน้ํา	-9.52034
OL	-9.52062
UR	-9.52102
▁บาร์	-9.52118
ger	-9.52194
form	-9.52254
NS	-9.52272
001	-9.5229
็ค	-9.52329
อีเมล	-9.52337
ตรวจจับ	-9.52339
จาน	-9.52369
สตรี	-9.52385
ประวัติ	-9.52419
▁การค้า	-9.52467
โซ่	-9.52478
เช็ค	-9.52513
แน่	-9.52519
เรือน	-9.52558
▁ออกแบบ	-9.52585
ا	-9.52593
เฉ	-9.52615
ท้อง	-9.52641
IR	-9.52646
อบ	-9.5266
ขึ้นไป	-9.52698
des	-9.52718
ฟังก์ชั่น	-9.5284
เทศกาล	-9.52934
รัฐ	-9.52948
เทคนิค	-9.52964
uk	-9.53036
ค้นหา	-9.5305
ภรรยา	-9.53091
az	-9.53109
▁Ph	-9.53117
เครื่องหมาย	-9.53162
RO	-9.53173
พลัง	-9.53196
110	-9.53203
เชียงใหม่	-9.53258
CT	-9.53262
การตลาด	-9.53279
▁อายุ	-9.53349
ปาร์ตี้	-9.53397
▁Technology	-9.53397
บังคับ	-9.53504
นิค	-9.53604
▁ปิด	-9.53653
2.0	-9.53688
เนื้อหา	-9.53774
▁Mon	-9.53813
▁เซ็กซี่	-9.53841
▁GB	-9.53861
▁http	-9.53867
แต่ง	-9.53876
อีเมล์	-9.53961
ธรรม	-9.53981
3000	-9.54011
CP	-9.54058
อัพ	-9.541
ื้อ	-9.54249
▁Roll	-9.54255
▁ของเล่น	-9.54255
ลาน	-9.54298
เส้นผ่าศูนย์กลาง	-9.54348
บาท	-9.54356
ทารก	-9.54414
▁สวน	-9.54432
อิสระ	-9.54447
▁สถานี	-9.54563
▁กรุงเทพฯ	-9.54567
・	-9.54583
ด้านบน	-9.54627
ัช	-9.54759
วิ่ง	-9.54764
กลิ่น	-9.54781
ฟี	-9.54781
▁กิจกรรม	-9.54807
▁(7	-9.54826
ฟุตบอล	-9.5484
▁สาขา	-9.5489
้ด	-9.54893
▁เดอะ	-9.5492
มหา	-9.54926
ให้คุณ	-9.54953
▁พฤษภาคม	-9.54967
ศรี	-9.54998
เติม	-9.55001
▁by	-9.55062
ary	-9.55119
เก็ต	-9.5512
▁ความจุ	-9.55153
ยอดนิยม	-9.5517
เสนอ	-9.55189
▁ภาษา	-9.55227
สะดวก	-9.55235
▁ตอนนี้	-9.55278
สาขา	-9.55414
ลูกกลิ้ง	-9.55422
เทียม	-9.55432
▁รูปภาพ	-9.55444
ช่าง	-9.55451
ชัน	-9.55487
str	-9.55508
จะเป็น	-9.55529
ยกเลิก	-9.55547
▁เครื่องวัด	-9.55617
นิยม	-9.55618
หนู	-9.55685
▁เว็บไซต์ทางการ	-9.55797
อาการ	-9.55854
▁จังหวัด	-9.55855
way	-9.55869
▁แบรนด์	-9.56135
เหล่านี้	-9.56143
ฟู	-9.56164
ภาพถ่าย	-9.56258
-15	-9.56392
กําเนิด	-9.56522
มาจาก	-9.56571
โช	-9.56678
แม้	-9.56697
▁คะแนน	-9.567
▁2012	-9.56718
อัปโหลดโดย	-9.56719
นู	-9.56749
ทั่ว	-9.56919
ลิขสิทธิ์	-9.56959
สถาบัน	-9.56998
ดอลลาร์	-9.56998
▁\	-9.57041
fa	-9.57065
ตาราง	-9.5713
คําสั่ง	-9.5721
โตเกียว	-9.5726
air	-9.57285
DI	-9.57318
▁ฉันจะ	-9.57335
ฉนวน	-9.57403
เสร็จ	-9.57429
และความ	-9.575
▁PCB	-9.57537
เชีย	-9.57553
และการสนับสนุน	-9.57559
ฤ	-9.57567
เช้า	-9.5757
▁0.5	-9.5763
day	-9.57669
เฟส	-9.57684
วะ	-9.57761
ความต้านทาน	-9.57843
รักษาความปลอดภัย	-9.57854
▁ลวด	-9.57895
iv	-9.5791
▁แบตเตอรี่	-9.57919
bl	-9.57981
ความเป็น	-9.57999
ตั๋ว	-9.58023
สําหรับเด็ก	-9.58041
▁GPS	-9.58088
▁ไม่ใช่	-9.58206
เหตุ	-9.58219
ถัดไป	-9.58227
ทู	-9.58238
โพลี	-9.58254
▁ซึ่งเป็น	-9.58266
หัวใจ	-9.58298
อาจจะ	-9.58344
พาร์	-9.58372
▁หน่วย	-9.58456
เครน	-9.58492
มอ	-9.58556
▁Black	-9.58559
▁ข้อมูลจําเพาะ	-9.58595
Guangdong	-9.58706
▁Lu	-9.58724
สามารถใช้	-9.58807
ยืดหยุ่น	-9.58835
กี้	-9.58876
▁เทคโนโลยี	-9.58927
หลอดไฟ	-9.58957
ox	-9.58971
che	-9.59017
ence	-9.59018
แพลตฟอร์ม	-9.59088
วิว	-9.59089
่ํา	-9.59115
▁ล้อ	-9.59125
ร้านค้า	-9.5913
การท่องเที่ยว	-9.59137
▁Led	-9.59182
ิด	-9.59208
แบ่ง	-9.59276
ข้า	-9.59293
ทันที	-9.59311
วิชา	-9.59344
www	-9.59346
▁Gra	-9.59402
อาบน้ํา	-9.5941
▁VPN	-9.59433
ome	-9.59501
rea	-9.59567
ที่จอดรถ	-9.59621
wa	-9.59634
คุกกี้	-9.59694
รวดเร็ว	-9.59694
นานาชาติ	-9.59709
บี้	-9.59759
▁เยโฮ	-9.59837
เอล	-9.59856
Hebei	-9.59907
บิต	-9.59968
ย่อย	-9.59982
็อก	-9.60066
กลับมา	-9.60142
สั่งซื้อ	-9.60184
HO	-9.60233
หมด	-9.60269
สหรัฐ	-9.60279
▁Na	-9.60289
ฉบับ	-9.60297
บริเวณ	-9.60304
▁ตาราง	-9.60342
EA	-9.60363
เซิร์ฟเวอร์	-9.60394
tu	-9.60464
ความชื้น	-9.60596
porn	-9.60707
อล	-9.60753
วัย	-9.60758
▁ข้าพเจ้า	-9.60783
เพิ่มขึ้น	-9.60808
▁โรงงานขายส่ง	-9.60818
วิธีการ	-9.60819
กรม	-9.60833
ste	-9.60852
ของเขา	-9.60878
โว	-9.60919
2019	-9.6093
โลโก้	-9.60948
▁เป็นต้น	-9.60974
สแกน	-9.61097
รีไซเคิล	-9.61113
▁รูปแบบ	-9.61114
▁Pre	-9.61212
▁เอ่อ	-9.6122
หรอ	-9.61287
หาด	-9.61362
ขนส่ง	-9.6138
-25	-9.614
กล่าว	-9.61403
เกร	-9.61415
ya	-9.61424
โดยใช้	-9.61469
จะต้อง	-9.61607
▁ได้รับ	-9.61654
II	-9.61715
▁Test	-9.61739
ความงาม	-9.61758
▁Ti	-9.6179
เข้าไป	-9.61841
เฉลี่ย	-9.61878
ระเบิด	-9.61938
ทราย	-9.61973
รม	-9.61995
ja	-9.62025
นุ่ม	-9.62267
-01	-9.62401
คณะ	-9.62424
▁เพื่อน	-9.62475
ม้า	-9.62476
▁ตอน	-9.6251
ขับ	-9.62516
fo	-9.62612
นคร	-9.62623
สํา	-9.62641
▁Tags	-9.62726
▁New	-9.62744
แปลก	-9.62755
▁เดี๋ยว	-9.62775
▁220	-9.62788
gen	-9.62842
แรงดัน	-9.62851
ล่วงหน้า	-9.62904
ัว	-9.62926
รุนแรง	-9.63067
ี่	-9.63169
▁เสื้อ	-9.63179
บาน	-9.63187
สีชมพู	-9.63203
ขั้นตอน	-9.6329
ิต	-9.63392
ไทเทเนียม	-9.63662
▁เทียน	-9.63663
จังหวัด	-9.63666
นัน	-9.63779
รอก	-9.63779
เข้ม	-9.63806
การแสดง	-9.63849
จําเป็น	-9.63924
จะได้รับ	-9.63987
ane	-9.6401
cial	-9.64016
▁GS	-9.64042
วิเคราะห์	-9.64078
จดทะเบียน	-9.64095
▁แรงดันไฟฟ้า	-9.64171
$	-9.64176
เจอร์	-9.64179
AI	-9.64244
▁ปริมาณ	-9.64263
อาหรับ	-9.64333
ปรา	-9.64362
ร่วมกับ	-9.64365
ture	-9.64388
▁ความกว้าง	-9.64395
เปิดตัว	-9.64452
▁ABS	-9.64467
หมาย	-9.6449
ยืด	-9.64491
▁รองเท้า	-9.64492
-30	-9.64503
ทหาร	-9.64564
จัดหา	-9.64637
▁ฮาร์ดคอร์	-9.64738
ครอบคลุม	-9.64779
น่าสนใจ	-9.64817
▁วินาที	-9.64836
ส่วนใหญ่	-9.64854
เก้าอี้	-9.64914
▁Poly	-9.64915
หมวก	-9.64998
ทุกวัน	-9.65006
ได้อย่าง	-9.65062
Name	-9.65181
FT	-9.65237
cha	-9.65239
ที่อยู่	-9.65344
ชําระ	-9.65345
0.3	-9.6538
ติก	-9.65405
▁ตั้งแต่	-9.65441
—	-9.65468
โปรด	-9.65485
▁ได้แก่	-9.655
▁อีเมล	-9.65505
3.5	-9.6552
ook	-9.6559
บริการที่สมบูรณ์	-9.65605
หม้อ	-9.6561
เข้ามา	-9.65631
MI	-9.65641
▁งั้น	-9.65704
เพื่อความร่วมมือ	-9.65714
▁มองไปข้างหน้า	-9.65751
๊อ	-9.65781
PP	-9.65795
att	-9.658
▁เราเป็นผู้ผลิตเ	-9.65825
ห้า	-9.65917
unt	-9.65934
รัส	-9.65965
ผัก	-9.66004
ฉพาะจากประเทศจีน	-9.66097
ดวง	-9.66137
น้ําตาล	-9.66166
▁และการผลิตเรามี	-9.66203
▁ประเภทสินค้าของ	-9.66258
รถบัส	-9.66292
vel	-9.66319
แบบหลังการขาย	-9.66319
ยังมี	-9.66378
จุ	-9.66427
▁Super	-9.66429
การเงิน	-9.6645
▁วิทยาลัย	-9.66456
เซลล์	-9.66498
มัด	-9.66504
จดหมาย	-9.66534
▁US	-9.66615
คูปอง	-9.66626
▁ago	-9.6664
ซ่อน	-9.6668
หญ้า	-9.66743
▁เครื่องจักร	-9.66787
org	-9.66798
แดน	-9.66849
ไวน์	-9.6686
▁วาห์	-9.66871
las	-9.66897
▁โมดูล	-9.66984
▁UV	-9.66987
▁(13	-9.66994
▁อะไหล่	-9.67065
และอื่น	-9.67078
du	-9.67093
▁ตัวอย่าง	-9.67199
เฟอร์	-9.67259
หลวง	-9.67286
ส่งเสริม	-9.67326
เจ้าหน้าที่	-9.67391
เดีย	-9.67434
เอก	-9.67483
เทล	-9.67486
IM	-9.67496
jo	-9.67537
NE	-9.67619
▁Comp	-9.67652
กลม	-9.67659
รัง	-9.67665
อํานาจ	-9.6767
▁you	-9.67679
iss	-9.67778
นิว	-9.67798
งั้น	-9.67828
ัท	-9.67848
▁Auto	-9.67855
ดัด	-9.67855
บอ	-9.67866
166	-9.67873
สิงคโปร์	-9.67874
หู	-9.67888
สเปน	-9.67889
เป้าหมาย	-9.67917
ออสเตรเลีย	-9.6797
มากมาย	-9.67984
RI	-9.68014
ating	-9.68047
MO	-9.68136
▁2010	-9.68137
ตัวอักษร	-9.68191
▁น่ารัก	-9.68208
▁Thai	-9.68273
คุณสามารถ	-9.68299
แอร์	-9.68336
▁ตัวเลือก	-9.68348
red	-9.68364
ling	-9.68368
ning	-9.68381
Tube	-9.68473
ame	-9.68479
เข็ม	-9.68495
2016	-9.68499
▁เครื่องพิมพ์	-9.68506
-00	-9.68553
วิน	-9.68564
ในร่ม	-9.68568
กรุง	-9.68585
▁แบรนด์ชั้นนํา	-9.68721
ช่วยให้	-9.68727
วอล	-9.68749
แห	-9.68784
USD	-9.68806
คอนกรีต	-9.68833
▁0.1	-9.68856
▁พัทยา	-9.68863
เครื่องสําอาง	-9.68866
ทุกอย่าง	-9.689
เฮ	-9.68901
▁ผู้ใหญ่	-9.68911
ไก่	-9.68946
ดึง	-9.68968
▁Ni	-9.68972
จบ	-9.69105
ดีที่สุด	-9.69179
ความเป็นส่วนตัว	-9.69344
▁สัปดาห์	-9.69348
cc	-9.69371
ose	-9.69377
▁นี่คือ	-9.69451
LTD	-9.69458
เป็นคน	-9.6948
บรรดา	-9.69485
คลับ	-9.69576
คอย	-9.69611
ica	-9.69612
▁รหัสสินค้า	-9.69621
ous	-9.69649
pan	-9.69691
▁เลขที่	-9.69712
ตอบสนอง	-9.69725
▁กรณี	-9.69731
▁ห้องน้ํา	-9.69793
▁Products	-9.69798
2018	-9.69811
พระเจ้า	-9.69812
ในประเทศ	-9.69823
เซ็นเซอร์	-9.69992
▁PU	-9.69996
ual	-9.70027
▁บลอนด์	-9.70043
จะไม่	-9.7006
ในช่วง	-9.7007
บอกว่า	-9.70074
▁ลบ	-9.70082
ถั่ว	-9.70098
คลื่น	-9.70155
ทริ	-9.70209
แป้ง	-9.70218
ยินดี	-9.70227
ข้อมูลเพิ่มเติม	-9.70371
▁●	-9.70382
เคลื่อนไหว	-9.70395
อินทรีย์	-9.70537
▁800	-9.70655
lan	-9.70744
ด้านล่าง	-9.70764
ก้า	-9.70802
ชุบ	-9.70819
ปลอม	-9.70892
3.0	-9.70906
▁เว็บแคม	-9.7092
คาร์ไบด์	-9.70935
อเมริกัน	-9.71043
130	-9.71044
การดําเนินงาน	-9.71046
▁(19	-9.71054
▁คอนโด	-9.71067
อสังหาริมทรัพย์	-9.71068
เกิน	-9.71118
แข่ง	-9.71144
ซัก	-9.71195
▁30%	-9.71222
เนี่ย	-9.71243
สุขุมวิท	-9.71256
IL	-9.71259
▁2011	-9.7131
โมดูล	-9.7131
zz	-9.7134
จัดเก็บ	-9.71358
ความหนา	-9.71381
สภาพ	-9.7149
ติน	-9.71539
ละลาย	-9.71583
หนี	-9.71587
}	-9.71634
บริ	-9.71649
เป็นผู้เชี่ยวชาญ	-9.71653
▁Bangkok	-9.71679
หวัง	-9.71679
พันธุ์	-9.71704
▁Web	-9.71715
กุญแจ	-9.71723
ความเร็วสูง	-9.71749
ib	-9.71763
ที่เรา	-9.71865
€	-9.71879
▁THB	-9.71884
▁แผนที่	-9.71901
▁เหมาะสําหรับ	-9.71909
หาย	-9.7193
มอน	-9.72021
▁10%	-9.72021
การสนับสนุน	-9.72112
เครื่องประดับ	-9.72129
▁Sha	-9.72154
เงา	-9.72198
▁มิลลิเมตร	-9.72237
▁ใคร	-9.7239
bb	-9.72409
ตุ	-9.72435
ผมบลอนด์	-9.72439
ประธาน	-9.72462
ขายส่ง	-9.72466
bon	-9.72525
ธา	-9.72541
เบรค	-9.72553
ราว	-9.72566
พิกเซล	-9.72675
ุ่น	-9.72767
กลัว	-9.72811
▁หมู่	-9.72877
โดน	-9.72878
Forex	-9.72917
ทําอะไร	-9.72951
rop	-9.72956
ปรากฏ	-9.72957
เย็ด	-9.72985
รอน	-9.72987
▁เฮ	-9.73034
▁Pe	-9.73054
1.0	-9.73055
นาม	-9.73141
▁Str	-9.73158
พยาบาล	-9.73214
▁โปรโมชั่น	-9.73347
สุข	-9.73541
เตา	-9.73614
und	-9.73672
วิทยาศาสตร์	-9.73796
BO	-9.73822
PT	-9.73858
▁โรงเรียน	-9.73864
250	-9.73911
ผู้จัดจําหน่าย	-9.73983
▁เราจะ	-9.74
อย่างเป็นทางการ	-9.74081
คอม	-9.74113
เบา	-9.74122
▁(14	-9.74169
สิบ	-9.7421
▁ก้น	-9.7421
ฏ	-9.74229
ไร้	-9.7424
สุทธิ	-9.74309
การตั้งค่า	-9.74325
IF	-9.74342
▁ชื่อสินค้า	-9.7442
▁Sta	-9.74447
In	-9.74493
▁(15	-9.74621
▁2559	-9.74653
กซ์	-9.74669
กรณี	-9.74816
▁Tube	-9.74827
ใช่	-9.74891
การเปลี่ยนแปลง	-9.74941
ฉุกเฉิน	-9.74987
นําเข้า	-9.74999
แผนที่	-9.75079
ออฟ	-9.7509
izer	-9.75161
ท่า	-9.75175
แว	-9.75187
แลกเปลี่ยน	-9.75196
ผู้จัดการ	-9.75247
อาทิตย์	-9.75262
ขึ้นอยู่กับ	-9.75276
1.2	-9.75318
ตุ๊กตา	-9.75321
อะแดปเตอร์	-9.75333
อําเภอ	-9.75379
โดยสาร	-9.75507
ทดลอง	-9.75542
ไดรฟ์	-9.75564
ยืน	-9.75588
ชิป	-9.75694
ธรรมดา	-9.75709
สถานะ	-9.75799
king	-9.75805
▁Pl	-9.75811
จนถึง	-9.75877
เอ็น	-9.75911
ที่ต้องการ	-9.75948
ได้รับการรับรอง	-9.75968
uc	-9.75975
▁110	-9.75977
นาที	-9.76102
▁ชม	-9.76108
▁Red	-9.76157
วันหยุด	-9.76211
ทรี	-9.76282
เชือก	-9.76286
โฟ	-9.76332
เบีย	-9.7636
1000	-9.76414
▁ปีที่ผ่านมา	-9.76486
▁Copyright	-9.76554
โลหะผสม	-9.76597
awa	-9.76682
ออกมา	-9.76721
ออกจาก	-9.76757
ออกกําลังกาย	-9.76777
ไมโคร	-9.76814
ประหลาด	-9.76823
ปุ๋ย	-9.76847
โต้	-9.76883
ทางการแพทย์	-9.76894
ลัด	-9.76911
ทําจาก	-9.76965
กองทุน	-9.77008
ที่สามารถ	-9.7704
งา	-9.77056
Ningxia	-9.77058
▁Bar	-9.77067
ไม่เกิน	-9.77166
อินเทอร์เน็ต	-9.77176
สุดยอด	-9.77187
ฆ	-9.77265
เพดาน	-9.77271
▁มล	-9.77348
▁คําอธิบาย	-9.77363
ดําเนิน	-9.77401
ไข่	-9.77411
≤	-9.77518
โปรโมชั่น	-9.77524
▁Pri	-9.77526
ลัก	-9.77587
หี	-9.77601
▁PET	-9.77644
RP	-9.77725
5,000	-9.77886
แฟ	-9.77899
การขนส่ง	-9.77931
tube	-9.77959
▁แอนด์	-9.78061
top	-9.78101
วัฒนธรรม	-9.78146
ยืนยัน	-9.78182
ของเหลว	-9.7825
ung	-9.78289
{	-9.78301
ได้ยิน	-9.78301
พรม	-9.78302
คอล	-9.78389
FO	-9.78395
วิลล่า	-9.78395
โชว์	-9.78466
▁สวัสดี	-9.7848
สกุลเงิน	-9.78512
ยุ	-9.78519
▁นอกจากนี้	-9.78661
ทองเหลือง	-9.7878
แหละ	-9.78862
ซัพพลายเออร์	-9.78874
▁รายละเอียดอัตรา	-9.78892
→	-9.78922
ทันสมัย	-9.78925
แร่	-9.7894
ลอน	-9.78956
▁RoHS	-9.78982
ความยาว	-9.78996
▁Tri	-9.79015
สีฟ้า	-9.7903
▁(9	-9.79048
ในประเทศจีน	-9.79055
พยายาม	-9.79114
จําลอง	-9.79119
▁ตารางเมตร	-9.7915
ภาพยนตร์	-9.79281
เยี่ยมชม	-9.79367
ah	-9.79372
เลนส์	-9.79427
9.00	-9.79433
แต่งงาน	-9.79469
ที่สําคัญ	-9.7947
การสร้าง	-9.79481
ลลี่	-9.79599
▁Facebook	-9.79631
เงินฝาก	-9.79721
ยังไม่	-9.79805
โห	-9.79873
UT	-9.79896
bar	-9.7992
ara	-9.79959
let	-9.7997
ซีล	-9.79974
ม่า	-9.79981
ราก	-9.79984
หุ้ม	-9.80103
องค์ประกอบ	-9.80165
▁Win	-9.80206
hai	-9.80222
-11	-9.80224
ตํารวจ	-9.80309
จะถูก	-9.80324
รถเข็น	-9.80384
ญา	-9.80395
ในราคาต่ํา	-9.80485
ไปแล้ว	-9.80505
lip	-9.80556
เหลือง	-9.80625
ขาด	-9.80663
อิตาลี	-9.80711
กษัตริย์	-9.80749
ตะวันออก	-9.8075
BR	-9.80752
sex	-9.80849
เป็นหนึ่งใน	-9.80908
ป้องกันการ	-9.80977
ยี่ห้อ	-9.80992
ฝา	-9.81009
af	-9.81058
ave	-9.81082
ล็อก	-9.81108
▁เครื่องทํา	-9.81187
ไม่เป็นไร	-9.81217
HE	-9.8125
คาด	-9.81289
	-9.81298
เทียบ	-9.81345
คีย์	-9.81477
▁(16	-9.81489
มากที่สุด	-9.81499
▁Ne	-9.81565
ten	-9.81606
▁ถูกหนึ่งใน	-9.81655
▁(2)	-9.81689
ท้องถิ่น	-9.81731
ระวัง	-9.81815
สมาร์ท	-9.81897
สีเทา	-9.81902
รู้ว่า	-9.81923
อ้วน	-9.8194
ในการทํางาน	-9.81954
mg	-9.81955
▁ชาวอินเดีย	-9.82005
°	-9.82027
สังกะสี	-9.82093
▁08:	-9.82151
gi	-9.8216
UP	-9.82238
เตียรอยด์	-9.82247
รหัสผ่าน	-9.82432
ประกันภัย	-9.82443
ฝน	-9.8259
▁Sl	-9.82604
over	-9.82648
NC	-9.82719
แก้	-9.82787
ตั้งอยู่	-9.82808
ขั้นต่ํา	-9.82844
แนวตั้ง	-9.82855
ทะ	-9.82882
▁180	-9.82928
แก๊ส	-9.82944
▁TNT	-9.82972
▁(18	-9.83055
ควย	-9.8309
เค้า	-9.83134
วิศวกรรม	-9.83146
น้อง	-9.83218
สําหรับขาย	-9.83237
IA	-9.83258
ผลงาน	-9.83273
VI	-9.83286
เผา	-9.83318
ด้านหน้า	-9.83421
▁คูณ	-9.83424
น่ารัก	-9.83594
ความรู้	-9.83599
ลอย	-9.83619
▁+66	-9.83647
มิน	-9.83743
สะสม	-9.83759
ป้อน	-9.83759
ert	-9.83815
โปรไฟล์	-9.83874
ห้องน้ํา	-9.83955
▁International	-9.83984
เจ้าของ	-9.83985
เรียกว่า	-9.83994
กํากับ	-9.84074
พาณิชย์	-9.84101
การลงทุน	-9.84184
tri	-9.84216
และอุปกรณ์	-9.84224
of	-9.84463
ชั่วโมง	-9.8447
เต็มรูปแบบ	-9.84533
ของพวกเขา	-9.84536
เชิญ	-9.8454
ดนตรี	-9.84591
ดัชนี	-9.84604
ั้น	-9.84887
รึ	-9.84908
เปลือย	-9.84908
กระบอก	-9.84956
ล้าน	-9.84963
าห์	-9.84964
เค้ก	-9.84986
บําบัด	-9.85023
สากล	-9.85042
ใช่ไหม	-9.85072
0%	-9.85106
จัง	-9.85193
ที่แตกต่างกัน	-9.85341
ไม่รู้	-9.85357
ric	-9.85578
£	-9.85649
ช์	-9.85748
กรุงเทพมหานคร	-9.85803
KW	-9.85803
นิทรรศการ	-9.85841
ไขมัน	-9.8587
ction	-9.85897
ดาวเทียม	-9.85944
น้อยกว่า	-9.85997
บริษัทฯ	-9.86018
แท่น	-9.86021
▁Inc	-9.86064
เรน	-9.86078
ven	-9.86142
อ้างอิง	-9.86163
ไต	-9.86244
ระยะเวลา	-9.86306
เล็บ	-9.86323
ขั้น	-9.86365
▁อืม	-9.86382
การ์ตูน	-9.86485
สกัด	-9.86574
จํานวนมาก	-9.86593
สารเคมี	-9.86671
ในประเทศไทย	-9.86698
▁90%	-9.86706
▁20%	-9.86707
กฎ	-9.86748
อัปเดต	-9.86757
เบน	-9.86782
▁ฟุต	-9.86854
แจ็ค	-9.86873
TP	-9.86881
ชั้นนํา	-9.86885
▁Shi	-9.869
ซาน	-9.86938
ประยุกต์	-9.86939
ลาก	-9.87002
▁#1	-9.8702
ach	-9.87078
ries	-9.87089
หลักทรัพย์	-9.87108
เงินสด	-9.87153
แปรง	-9.87173
ที่ได้รับ	-9.87188
เป็นผู้	-9.87216
ศาล	-9.87222
▁เย	-9.87351
ภูเขา	-9.87407
ปลั๊ก	-9.87466
▁Cap	-9.87568
แบบกําหนดเอง	-9.87631
105	-9.87637
ประชาชน	-9.87668
fer	-9.87709
ท่าเรือ	-9.87763
▁Ko	-9.87772
ris	-9.87793
ขี่	-9.87825
ขับเคลื่อน	-9.87886
English	-9.8793
หุ่นยนต์	-9.8793
ขั้วต่อ	-9.88001
คําตอบ	-9.88116
นวัตกรรม	-9.88167
วัยรุ่น	-9.88255
ครึ่ง	-9.88311
ของบริษัท	-9.88361
เล็	-9.88374
can	-9.88391
หาร	-9.88394
฿	-9.88413
อาศัย	-9.88514
	-9.88535
รวบรวม	-9.88577
ปก	-9.88608
เนื่องจาก	-9.88623
inter	-9.88645
ผู้เชี่ยวชาญ	-9.88683
ละคร	-9.88733
tel	-9.88799
lot	-9.88802
ผ่าตัด	-9.88812
▁RFID	-9.88824
การรับรอง	-9.88858
เบอร์รี่	-9.88885
light	-9.88889
ยะ	-9.89012
thai	-9.89019
ทําความเย็น	-9.89042
▁Ste	-9.89053
ign	-9.89116
โครง	-9.89116
ไกล	-9.89213
ใบหน้า	-9.89241
ลเลอร์	-9.89241
ช้า	-9.89251
เอฟ	-9.89261
ภาษี	-9.89266
อีกครั้ง	-9.89335
ตรงนี้	-9.89353
ping	-9.89393
รายชื่อ	-9.89441
ความสามารถในการ	-9.89446
ระหว่างประเทศ	-9.89506
แดด	-9.89565
ไฟเบอร์กลาส	-9.8973
เราได้	-9.8979
rin	-9.89884
dia	-9.89891
กอล์ฟ	-9.89954
▁Series	-9.89973
ตามความต้องการ	-9.90058
ถอด	-9.90082
ลิง	-9.90099
วิล	-9.90125
แสดงผล	-9.90162
รูปร่าง	-9.9017
220	-9.90303
แทรก	-9.90311
the	-9.90343
▁Micro	-9.90351
ดีกว่า	-9.90393
อัจฉริยะ	-9.90426
ลิฟท์	-9.90426
ไวนิล	-9.90426
0.8	-9.90469
ple	-9.90534
โนะ	-9.9055
เจีย	-9.90567
เครื่องพิมพ์	-9.90712
สปริง	-9.90735
สารสกัดจาก	-9.90736
ลี่	-9.9078
▁Per	-9.90821
วัตถุดิบ	-9.90833
ool	-9.90865
5000	-9.90884
การซื้อขาย	-9.90892
▁ล้านบาท	-9.91059
พิพิธภัณฑ์	-9.91059
เศรษฐกิจ	-9.91169
▁Water	-9.91171
ความแข็งแรง	-9.91202
รูปภาพ	-9.91343
ซ่อม	-9.91398
▁1,000	-9.91435
โคมไฟ	-9.91471
พารามิเตอร์	-9.91507
SU	-9.9152
▁Tag	-9.9153
its	-9.91655
เปิดใช้งาน	-9.91669
ขุด	-9.91696
ถ้วย	-9.91698
▁Mod	-9.91701
ปวด	-9.91812
DR	-9.91813
สีสัน	-9.91831
เซน	-9.9184
play	-9.91852
ลาด	-9.91914
▁ฉันไม่	-9.9196
อยู่ที่นี่	-9.91971
ized	-9.91986
ชัย	-9.91997
OK	-9.92
ley	-9.92028
kin	-9.92039
เราจะ	-9.92108
ข้อตกลง	-9.92118
สํารวจ	-9.92216
สัตว์เลี้ยง	-9.92256
ตัวกรอง	-9.9226
Com	-9.92278
บํารุงรักษา	-9.92331
คุย	-9.92377
ทอด	-9.92401
ประเมิน	-9.92408
คี	-9.92425
เวน	-9.92484
EE	-9.92489
ลงทุน	-9.92568
เป็นเวลา	-9.9257
ซ้ํา	-9.92572
ร่วมกัน	-9.92576
แอล	-9.92642
ike	-9.92715
–	-9.92729
ซ้าย	-9.92751
ภูมิภาค	-9.92772
การส่ง	-9.92774
เวล	-9.92798
fu	-9.92828
ی	-9.92916
ทรา	-9.93019
อายุการใช้งาน	-9.93098
พิษ	-9.93117
0.6	-9.93242
บัง	-9.93263
พ่น	-9.93305
RC	-9.9331
ปรึกษา	-9.934
LI	-9.93474
ทางเลือก	-9.93486
แพ็ค	-9.93545
ition	-9.93557
สึ	-9.93594
kw	-9.93657
มีประสิทธิภาพ	-9.93786
สําหรับผู้	-9.93861
▁ข้าพระ	-9.93928
เชี่ยวชาญ	-9.93971
▁เกี่ยวกับเรา	-9.94167
สับ	-9.94184
aka	-9.94196
CI	-9.94276
ลืม	-9.94333
ari	-9.94334
▁แขวง	-9.94362
ภาวะ	-9.94412
▁อิส	-9.94504
เข้าถึง	-9.94544
bit	-9.94707
คริสตัล	-9.94752
-18	-9.948
▁Jo	-9.9489
เชื้อเพลิง	-9.94935
ปกป้อง	-9.94941
▁50%	-9.95032
ode	-9.95042
PR	-9.95061
วิทยุ	-9.95076
orn	-9.95107
ไส้	-9.95118
เถิด	-9.95132
ระบายความร้อน	-9.95147
สิ้นสุด	-9.95149
▁360	-9.95154
ขั้นสูง	-9.95161
za	-9.95167
ลําโพง	-9.95231
ถอน	-9.95254
ต่อวัน	-9.95291
ชะ	-9.95325
▁XXX	-9.95344
ที่มีประสิทธิภาพ	-9.95356
yu	-9.95388
ยังคง	-9.95393
▁Part	-9.9544
กําเนิดไฟฟ้า	-9.9557
▁70%	-9.95619
ฟุ	-9.95695
วู	-9.95709
ili	-9.95726
▁หากคุณ	-9.95729
xxx	-9.95782
ney	-9.95786
IE	-9.95838
ทาวเวอร์	-9.95896
▁Trans	-9.95922
บางอย่าง	-9.95925
▁Top	-9.95946
ไลท์	-9.95948
GO	-9.95966
็น	-9.96029
▁Inter	-9.96121
หมู่	-9.96196
▁Hol	-9.96212
ที่เหมาะสม	-9.96213
ร่อง	-9.96288
ใ	-9.96327
qui	-9.96352
สูญญากาศ	-9.96365
▁MB	-9.96405
ส่วนผสม	-9.9645
▁(17	-9.96469
ano	-9.96492
เติบโต	-9.96521
ดุ	-9.96659
▁2558	-9.9669
▁เอาล่ะ	-9.96692
ยินดีต้อนรับ	-9.96713
มั่นใจ	-9.96751
ส้นผ่านศูนย์กลาง	-9.96766
▁ที่รัก	-9.96792
พัดลม	-9.9682
ตุรกี	-9.96823
▁2009	-9.96944
▁Report	-9.96961
▁Group	-9.96981
ise	-9.96985
ซับ	-9.96996
กําไร	-9.97024
-40	-9.97061
▁Hi	-9.9714
HZ	-9.97183
VPN	-9.97185
Shandong	-9.97283
ผู้เล่น	-9.973
ethyl	-9.97305
ami	-9.97317
▁List	-9.9734
สมาคม	-9.97369
$1	-9.97388
ฟาร์ม	-9.97393
zhou	-9.97416
hy	-9.97425
บราซิล	-9.97643
เพาะ	-9.97657
ต้อนรับ	-9.9768
บุรี	-9.97688
ชําระเงิน	-9.97707
เขียว	-9.97711
101	-9.97853
คุ้มครอง	-9.9786
วินเทจ	-9.9786
ze	-9.97881
ยานยนต์	-9.97913
1.5	-9.97993
ทําลาย	-9.98
▁sp	-9.98046
TI	-9.98058
▁Wire	-9.98067
คลิก	-9.98115
กอง	-9.98141
เข้าสู่ระบบ	-9.98148
BI	-9.98149
~	-9.98176
สูญเสีย	-9.98193
๊อก	-9.98213
▁มก	-9.98226
กล่าวว่า	-9.98305
โป๊	-9.98343
▁06:	-9.98367
ของเธอ	-9.98386
เหมือง	-9.98397
คงที่	-9.98542
ค่าธรรมเนียม	-9.98572
ทังสเตน	-9.98616
▁Service	-9.98616
ห่อ	-9.98695
▁Mini	-9.98704
ฝาก	-9.98729
OM	-9.98737
ลุก	-9.98782
เพลา	-9.98785
▁เหล่า	-9.9879
เครื่องบิน	-9.988
box	-9.98822
OT	-9.98849
น้ําหนักเบา	-9.98892
ที่อยู่อาศัย	-9.98901
ร่ม	-9.98946
ความเสียหาย	-9.99069
lock	-9.99103
180	-9.9911
ทนต่อ	-9.99134
โซน	-9.99188
-02	-9.9919
รีสอร์ท	-9.9923
ห้าม	-9.99252
แห่งชาติ	-9.99304
เบล	-9.99317
แนวนอน	-9.99396
ฝัน	-9.99554
บีช	-9.99583
คอมเพรสเซอร์	-9.99613
ความเสี่ยง	-9.99701
▁MT	-9.9974
เกลือ	-9.99775
tro	-9.99826
ที่ถูก	-9.99836
มีชื่อเสียง	-9.9989
ไลน์	-9.99941
เซินเจิ้น	-9.99967
▁Sea	-10.0006
230	-10.0008
โดยเฉพาะ	-10.0009
เคล็ดลับ	-10.001
หัวข้อ	-10.0012
ava	-10.0014
▁Go	-10.0028
ขอบเขต	-10.003
กลายเป็น	-10.0038
ครบ	-10.0039
SO	-10.0042
▁เดือนที่ผ่านมา	-10.005
เวียน	-10.0056
zo	-10.0058
นิ้ว	-10.0058
ดับ	-10.0068
ปุ	-10.007
heng	-10.0075
การสื่อสาร	-10.0077
แขวน	-10.0078
ไม่เคย	-10.0084
คู่มือ	-10.0089
หมึก	-10.009
cho	-10.0097
ถ่ายภาพ	-10.0098
กิจการ	-10.0102
▁Custom	-10.0104
ประเทศจีน	-10.011
ature	-10.0114
Distributor	-10.0114
โซเดียม	-10.012
วางใจในการ	-10.0126
ita	-10.0128
▁เป็นแบรนด์ของ	-10.0129
เสียบ	-10.0131
cent	-10.0135
เทร	-10.0136
อนุมัติ	-10.0138
0.4	-10.0148
ไม้อัด	-10.015
ความคิด	-10.0152
เหมาะสําหรับ	-10.0153
ความแม่นยํา	-10.0155
ช่วงเวลา	-10.0159
▁โรงแรมใน	-10.0166
ฟังก์ชัน	-10.0167
TRA	-10.0168
ตลาดดิจิตอลโดย	-10.017
▁กระทํา	-10.0173
ริม	-10.0173
โคร	-10.0174
เซล	-10.0182
ตรฐานระดับโลกจาก	-10.0186
บริการลูกค้ามา	-10.0187
ตกลง	-10.0206
▁Die	-10.0208
เสมอ	-10.0216
กลึง	-10.0218
จันทร์	-10.0218
ใบอนุญาต	-10.022
เครื่องตัด	-10.0222
ชีพ	-10.0222
สังเคราะห์	-10.023
ดังนี้	-10.0234
บันได	-10.0238
ปฏิทิน	-10.0241
rit	-10.0242
170	-10.0248
แกะ	-10.0261
กรีน	-10.0261
14001,	-10.0262
ก็คือ	-10.0262
▁Star	-10.0264
use	-10.0266
ขนดก	-10.0268
สําหรับเครื่อง	-10.0272
ค้า	-10.0276
ปีที่	-10.028
▁Multi	-10.029
-16	-10.0292
ดิบ	-10.0297
ช่วยเหลือ	-10.0303
อนุญาต	-10.0308
เบิล	-10.0309
▁เครื่องทดสอบ	-10.0318
sha	-10.0326
กล้า	-10.0328
อุณหภูมิสูง	-10.0328
eep	-10.0331
[	-10.0333
อบรม	-10.0337
▁Dec	-10.0343
สวม	-10.0344
ห่วง	-10.0348
PH	-10.0354
การไหล	-10.0359
▁350	-10.0371
แถว	-10.038
FL	-10.038
ลัง	-10.038
ยาวนาน	-10.0382
ต่อสู้	-10.0383
สยาม	-10.0386
FX	-10.0387
คลุม	-10.0389
DO	-10.0403
ให้เช่า	-10.0405
ม่าน	-10.0405
ฮิต	-10.0406
ต่ํากว่า	-10.0407
ลําดับ	-10.041
ฮ่องกง	-10.0413
อร่อย	-10.0418
สู	-10.0424
ช่องทาง	-10.0426
▁Wholesaler	-10.043
▁Can	-10.0431
ู่	-10.0441
TER	-10.0442
สตาร์	-10.0443
▁รายงานปัญหา	-10.0443
▁Steel	-10.0456
ทิศทาง	-10.0456
วิส	-10.0461
เวิร์	-10.0463
คําที่เกี่ยวข้อง	-10.0467
▁Microsoft	-10.0468
0.5	-10.0471
เปรียบเทียบ	-10.0479
พอง	-10.0482
91%	-10.0484
IG	-10.0486
ต่อต้าน	-10.0486
ซิล	-10.0487
เรียง	-10.0487
ผู้ป่วย	-10.0496
▁Key	-10.0496
โค้ง	-10.0503
Video	-10.0506
ซอง	-10.0506
สมัย	-10.0519
อันตราย	-10.0522
ระยะทาง	-10.0522
part	-10.0526
การปรับปรุง	-10.0527
ฟอง	-10.0529
เรียบ	-10.0529
ทั้งสอง	-10.0534
FR	-10.0534
0.1	-10.0536
▁Free	-10.054
อธิบาย	-10.0541
ปะ	-10.0567
นิรภัย	-10.0567
กระแทก	-10.0572
iver	-10.0572
GP	-10.0573
ถัก	-10.0577
ว่าจะ	-10.0578
2-3	-10.0591
คุก	-10.0596
เบิร์	-10.06
ตลก	-10.0603
mes	-10.0607
par	-10.0614
▁-&	-10.0637
สําเร็จรูป	-10.064
ปลอก	-10.0644
ดิสก์	-10.0649
▁กิโล	-10.0654
4.5	-10.0658
PRO	-10.0665
ปลูก	-10.0665
กล้ามเนื้อ	-10.0669
ทีมงาน	-10.0672
★	-10.0681
RM	-10.0682
ใช้บริการ	-10.0696
ประสิทธิภาพสูง	-10.0702
สามารถในการจัดหา	-10.0704
คิว	-10.0708
กลางวัน	-10.0709
หลุม	-10.0709
การเข้าถึง	-10.0721
▁ไอ้	-10.0729
view	-10.0731
▁Anti	-10.0734
เที่ยวบิน	-10.0734
ยานพาหนะ	-10.0738
ในขณะที่	-10.0741
การรับประกัน	-10.0744
แรงดันไฟฟ้า	-10.0746
ness	-10.075
ชุมชน	-10.0753
ิ้ล	-10.0753
เทศ	-10.0753
▁TP	-10.0756
▁กิโลเมตร	-10.0758
uff	-10.076
พันธมิตร	-10.0765
เหมือนกัน	-10.0768
ขนม	-10.0774
▁ลูกสาว	-10.0775
ผู้นํา	-10.078
ด้วยตนเอง	-10.0781
ANG	-10.0785
nm	-10.0788
พิธี	-10.079
ark	-10.0792
จ้าง	-10.0797
ผ่านทาง	-10.0804
วิตามิน	-10.0805
ยุค	-10.0806
▁RF	-10.0813
1.1	-10.0814
FP	-10.0814
การประมวลผล	-10.0818
▁(22	-10.0819
มัก	-10.0819
กระตุ้น	-10.0819
▁ที่แล้ว	-10.0827
เผยแพร่	-10.0831
ส่วนบุคคล	-10.0832
พาเลท	-10.085
นัด	-10.0853
ปรุง	-10.0862
▁Game	-10.0871
▁years	-10.0872
ห่าง	-10.0877
สเปรย์	-10.0879
ด้านหลัง	-10.0884
ฉลาก	-10.0886
สหราชอาณาจักร	-10.0893
๊ะ	-10.0894
การตัด	-10.0898
ไซต์	-10.09
serv	-10.0905
พาย	-10.0906
สล็อต	-10.0909
ตะวันตก	-10.0922
โก้	-10.0926
▁ODM	-10.0927
ไต้หวัน	-10.0927
โทรทัศน์	-10.0934
แฟ้ม	-10.0934
อินเตอร์	-10.0939
fil	-10.0941
men	-10.0942
4.0	-10.0948
คํานวณ	-10.0949
เศษ	-10.0951
สมุด	-10.0952
เมื่อวันที่	-10.0954
102	-10.0957
ฤดูร้อน	-10.0957
ไปรษณีย์	-10.0963
เชื่อมโยง	-10.0966
▁---	-10.0969
ใต้ดิน	-10.0971
เกียรติ	-10.0975
	-10.0978
แกะสลัก	-10.0978
▁EVA	-10.098
ถาด	-10.0984
เพราะ	-10.0987
▁โดยมี	-10.0991
▁Mag	-10.0994
ware	-10.0998
▁ใบสมัคร	-10.1001
▁1500	-10.1004
จักร	-10.1015
ชัดเจน	-10.1018
▁Road	-10.1028
วันจันทร์	-10.1036
‘	-10.1038
เปลี่ยนแปลง	-10.1044
▁(0)	-10.1044
ลีน	-10.1048
PI	-10.105
«	-10.1053
▁SMD	-10.1061
0.9	-10.1065
EP	-10.1079
เกมส์	-10.1084
123	-10.1088
การบริการ	-10.1089
ใช่มั้ย	-10.109
กําหนดเอง	-10.1094
มูลนิธิ	-10.1103
▁FDA	-10.1111
เซนเซอร์	-10.1117
ตูด	-10.1121
ได้ถึง	-10.113
-100	-10.1152
แล็ปท็อป	-10.1154
การวิเคราะห์	-10.1165
โซฟา	-10.1166
บะ	-10.1168
สมุนไพร	-10.1176
ject	-10.1177
เชิงพาณิชย์	-10.1182
210	-10.1183
การค้นหา	-10.1195
5429	-10.1197
6047	-10.1199
▁แบบอักษร	-10.1201
7.5	-10.1202
▁07:	-10.1206
ห้องครัว	-10.1206
1.6	-10.1215
เบรก	-10.1221
้นท์	-10.1227
ตื่น	-10.1229
▁Powder	-10.1232
หนุ่ม	-10.1234
hong	-10.1236
ในรูปแบบ	-10.124
แอป	-10.1241
แว่นตา	-10.1241
สต็อก	-10.1244
เบี้ย	-10.1255
วันเสาร์	-10.1263
ทําไม	-10.1277
ลดลง	-10.1277
HC	-10.1278
บํารุง	-10.1279
ต่อเดือน	-10.1279
ก่อตั้ง	-10.128
หล่อลื่น	-10.129
บรรยากาศ	-10.1291
สะอาด	-10.1293
а	-10.1294
999	-10.1294
ชาร์	-10.1301
▁Sun	-10.1303
วาย	-10.1305
ย้อม	-10.1305
cfb	-10.1307
▁Or	-10.1309
8.00	-10.1311
ประวัติศาสตร์	-10.1311
ซึม	-10.1317
อาหารเช้า	-10.1321
มีประสบการณ์	-10.1323
▁รวมผลิตภัณฑ์	-10.1329
lm	-10.1336
การให้บริการ	-10.1337
พัทยา	-10.134
▁Type	-10.1342
▁Lock	-10.1343
tech	-10.1346
แม่น้ํา	-10.1347
...............	-10.1348
แท่ง	-10.1348
▁ชาวเอเชีย	-10.1349
กระดูก	-10.135
แด	-10.135
แท็บเล็ต	-10.1353
ต่อเนื่อง	-10.1357
ฉาก	-10.137
พระราช	-10.138
แผนก	-10.1382
แข็งแกร่ง	-10.1384
และบริการ	-10.1391
ไมล์	-10.1391
ก่อตั้งขึ้น	-10.1391
สีบลอนด์	-10.1392
มวล	-10.1406
▁Electronic	-10.141
ผู้ให้บริการ	-10.1411
ระยะไกล	-10.1412
bra	-10.1418
ค่าบริการ	-10.1419
แมว	-10.1421
▁https	-10.1422
ก้าว	-10.1424
กึ่ง	-10.1427
ใย	-10.1437
ล่าง	-10.1447
กรอก	-10.1453
ush	-10.1457
เครื่องจักรกล	-10.1457
5.00	-10.1469
อย่างดี	-10.1474
INE	-10.1475
ขับรถ	-10.1479
การปรับ	-10.1481
▁ซีรี่ส์	-10.1483
tur	-10.1483
พีซี	-10.1484
หมอน	-10.1489
อเมริกา	-10.1496
อู	-10.1498
ผูก	-10.1498
▁316	-10.1501
▁Park	-10.1505
อย่างน้อย	-10.1506
แสน	-10.1507
▁1200	-10.1509
บริโภค	-10.1509
ray	-10.1511
ชั้นวาง	-10.1519
ขั้ว	-10.152
ยูนิ	-10.152
โมเลกุล	-10.1521
นโยบาย	-10.1522
ขยะ	-10.1543
▁System	-10.1545
▁ได้โปรด	-10.1552
เปียก	-10.1557
รบกวน	-10.1559
▁iOS	-10.1565
โซลูชั่น	-10.1573
▁Express	-10.1573
▁API	-10.1576
เกี่ยว	-10.1581
กัด	-10.1582
ความละเอียด	-10.1583
ความจริง	-10.1586
ไฟเบอร์ออปติก	-10.1588
มี่	-10.1591
เหตุการณ์	-10.1592
▁SMT	-10.1595
ผลกระทบ	-10.16
แคนาดา	-10.16
ําหน่ายและโรงงาน	-10.1603
เส้นด้าย	-10.1604
จอห์น	-10.1609
▁with	-10.1613
▁info	-10.1613
แข็งแรง	-10.1616
2.1	-10.1619
ยกเว้น	-10.1621
ดังกล่าว	-10.1628
duct	-10.163
การกัดกร่อน	-10.1637
สะพาน	-10.1637
ION	-10.164
ล่อง	-10.1646
▁พิ	-10.1657
เร่ง	-10.1659
กับเรา	-10.1661
128	-10.1661
รังสี	-10.1663
ซื้อขาย	-10.1663
คลัง	-10.1665
บลูทู	-10.167
ความสามารถ	-10.1671
ี้ยว	-10.1671
ฟอยล์	-10.1672
NI	-10.1678
280	-10.1678
ความสว่าง	-10.1683
สลับ	-10.1684
กรุงเทพฯ	-10.1685
เส้นใย	-10.1686
สร้างสรรค์	-10.1691
▁Hua	-10.1692
รอด	-10.1697
ที่ยอดเยี่ยม	-10.17
การดูแล	-10.1713
The	-10.1717
ฝั่ง	-10.1726
อย่างต่อเนื่อง	-10.1736
ฝาครอบ	-10.1746
GE	-10.1749
“	-10.1753
0.7	-10.1758
ออฟฟิศ	-10.176
ประเทศญี่ปุ่น	-10.1761
เจ็บ	-10.1765
▁80%	-10.1765
คลาสสิก	-10.1772
การเล่น	-10.178
2,000	-10.1783
5.5	-10.1799
vid	-10.1801
ette	-10.1802
สืบ	-10.1807
อัพเดท	-10.1814
บัตรเครดิต	-10.1814
hot	-10.1815
คุณภาพดี	-10.1817
หน่วยความจํา	-10.1823
▁1/2	-10.1824
▁ผู้ผลิตและผู้จ	-10.1825
สรุป	-10.1825
Shop	-10.1827
แท็ก	-10.1836
อ่าง	-10.1837
ella	-10.1841
รายได้	-10.1841
▁ชื่อผลิตภัณฑ์	-10.1854
สะดวกสบาย	-10.1855
`	-10.1855
▁2008	-10.1859
วางแผน	-10.1866
สีน้ําเงิน	-10.187
มิตร	-10.1872
▁40%	-10.1875
โฮม	-10.1878
▁Pack	-10.1881
ular	-10.1884
	-10.1886
ซ่า	-10.1886
م	-10.1889
อาย	-10.1893
ห่างจาก	-10.1894
▁เครื่องเจาะ	-10.1896
650	-10.1904
board	-10.1906
เพิ่ง	-10.1914
ทองคํา	-10.1916
book	-10.192
ขึ้นมา	-10.1927
ดั้งเดิม	-10.193
เปลือก	-10.1932
จากสถานี	-10.1937
เวีย	-10.1937
▁ผลผลิต	-10.1937
ภาษาญี่ปุ่น	-10.1939
ทัน	-10.1946
▁450	-10.195
อัลตราโซนิก	-10.1952
เพลิดเพลิน	-10.1965
ปั่น	-10.1965
▁Port	-10.1965
สกปรก	-10.1968
115	-10.1969
hydr	-10.1971
แคปซูล	-10.1972
เครือ	-10.1972
▁And	-10.1976
▁เครื่องบรรจุ	-10.1977
ความแม่นยําสูง	-10.1981
▁แผ่นดิน	-10.1984
อดีตแฟนสาว	-10.1992
มะเร็ง	-10.1997
ตัวทําละลาย	-10.1999
▁ซอย	-10.2001
อนาคต	-10.2006
แพ้	-10.2009
row	-10.2009
การก่อสร้าง	-10.2011
เกือบ	-10.2013
เหลี่ยม	-10.202
เหตุผล	-10.2024
การกระทํา	-10.2026
▁Smart	-10.2037
▁อินเดียน	-10.2041
310	-10.2041
โจมตี	-10.2042
,000,000	-10.2045
▁from	-10.2048
รีบ	-10.205
แฟลช	-10.2059
ยอม	-10.2061
ทุกๆ	-10.2063
เย็บ	-10.2079
สายรัด	-10.2079
เกษตร	-10.208
การแพทย์	-10.2083
เหล็กกล้าไร้สนิม	-10.2084
ร้อย	-10.2085
ค่อย	-10.2085
ize	-10.2088
สร้อยข้อมือ	-10.2093
จ์	-10.2096
▁Pump	-10.2098
บุหรี่	-10.2098
การวัด	-10.2102
	-10.2102
name	-10.2104
▁PLC	-10.2105
ละเอียด	-10.2108
สูบ	-10.2109
read	-10.2118
▁Bag	-10.212
ลิ่ง	-10.2121
ฝัง	-10.2122
ความจุ	-10.2126
▁Che	-10.2133
rial	-10.2137
เอช	-10.2139
itch	-10.2139
▁Up	-10.2141
แม็ก	-10.2144
เวที	-10.2152
▁Char	-10.2153
เวียดนาม	-10.2157
▁และอื่น	-10.2162
ผู้บริหาร	-10.2168
เซ็กส์	-10.2172
ผู้โดยสาร	-10.2173
▁Double	-10.2177
เงียบ	-10.2181
ดีมาก	-10.2187
lect	-10.219
ห้องปฏิบัติการ	-10.22
เข็มขัด	-10.22
gsm	-10.2203
เกินไป	-10.2204
นึง	-10.2205
ปรับได้	-10.2208
สิ่งทอ	-10.221
แผล	-10.2211
ส่วนหนึ่ง	-10.222
ธานี	-10.2222
▁2563	-10.2226
›	-10.2227
ออกไซด์	-10.2229
เพียงแค่	-10.223
ตั้งค่า	-10.223
จัดงาน	-10.2237
ไนล่อน	-10.2238
การสั่งซื้อ	-10.2239
cam	-10.2241
วันเกิด	-10.2261
▁380	-10.2263
หัวหน้า	-10.227
เทค	-10.2271
กําแพง	-10.2272
▁Market	-10.2275
เหลว	-10.2282
81%	-10.2284
รับส่ง	-10.2288
อัลบั้ม	-10.2288
เต้น	-10.229
▁One	-10.2292
▁(3)	-10.2293
แบบฟอร์ม	-10.2295
ผู้ถือหุ้น	-10.2298
ผิวดํา	-10.2306
เข้าสู่	-10.2307
สเตนเลส	-10.2307
ทําความร้อน	-10.2309
คลิกที่	-10.231
แคลเซียม	-10.2314
▁Hand	-10.2317
วีซ่า	-10.2322
eck	-10.2325
▁Card	-10.233
หมู	-10.2335
late	-10.2335
≥	-10.2337
สแควร์	-10.2339
ใบรับรอง	-10.2344
1.8	-10.2353
บนเว็บไซต์	-10.2356
ปิดผนึก	-10.2367
อบแห้ง	-10.237
โบราณ	-10.2376
ช้าง	-10.2387
roid	-10.2392
บันเทิง	-10.2399
zu	-10.2403
สาน	-10.2408
ชั่ว	-10.2409
▁JR	-10.2418
เบียร์	-10.2418
▁Hard	-10.2421
แต่งตัว	-10.2422
ตะกร้า	-10.2425
108	-10.2427
ตั้งครรภ์	-10.2427
ร้อยละ	-10.2428
right	-10.2431
ปากกา	-10.2441
ระบาย	-10.2443
▁EUR	-10.2447
ลามิเนต	-10.2448
การจอง	-10.2463
ข้อต่อ	-10.2477
ไฟถนน	-10.2484
▁City	-10.2492
5.0	-10.2495
ตั้งอยู่ใน	-10.2498
ข้าวโพด	-10.2503
คนอื่น	-10.2508
สภาพแวดล้อม	-10.251
แอพ	-10.2511
เปีย	-10.2518
vent	-10.2522
กระบอกสูบ	-10.2522
ยิม	-10.2525
ไค	-10.2525
สัมพันธ์	-10.2537
บ่อ	-10.2537
สตูดิโอ	-10.2543
▁ดร	-10.2546
▁xHamster	-10.2548
หายใจ	-10.2564
HK	-10.2565
ล้ํา	-10.2573
ประดิษฐ์	-10.2577
▁TUV	-10.258
สัญลักษณ์	-10.2581
link	-10.2585
UK	-10.2585
ฟิตเนส	-10.2587
เล่นเกม	-10.2588
ย่าน	-10.2588
▁จากนั้น	-10.2606
▁Open	-10.2616
ไนลอน	-10.2617
วัตถุ	-10.2626
▁Valve	-10.2631
เซ็นทรัล	-10.2633
อารมณ์	-10.2642
▁09:	-10.2647
หมวดหมู่	-10.2652
▁World	-10.2654
260	-10.2655
สดใส	-10.2656
■	-10.2664
ขดลวด	-10.2664
นักลงทุน	-10.2665
ทรัพยากร	-10.2667
พิจารณา	-10.2667
ความช่วยเหลือ	-10.2669
ลื่น	-10.2672
เอ็กซ์	-10.268
สงคราม	-10.2681
▁Art	-10.2683
แช่แข็ง	-10.2686
▁ผู้พัฒนา	-10.2693
ection	-10.2694
อย่างนั้น	-10.2696
ในกรณี	-10.2697
▁Ya	-10.2699
ก็จะ	-10.2704
MHz	-10.2706
】	-10.2708
▁เป็	-10.2712
การฝึกอบรม	-10.2714
▁ฟังนะ	-10.2715
เลสเบี้ยน	-10.2716
HOTEL	-10.2722
▁Blue	-10.2722
▁Bitcoin	-10.2724
ข้อมูลส่วนบุคคล	-10.2725
เป็นมิตรกับ	-10.2726
▁Office	-10.2727
▁Media	-10.273
เข้มข้น	-10.2735
เยน	-10.2736
ทิศ	-10.2737
▁DIN	-10.2738
▁Plus	-10.274
เข้าพัก	-10.274
▁เครื่องเชื่อม	-10.2748
▁อ่านเพิ่มเติม	-10.275
โปร่งใส	-10.2751
น้ําผลไม้	-10.2751
อินพุต	-10.2757
เวย์	-10.2774
9:00	-10.2775
แย่	-10.2776
dom	-10.2785
ค้าปลีก	-10.2786
ดารา	-10.2793
ตู	-10.2796
о	-10.28
มัส	-10.28
ONG	-10.2805
ยูโร	-10.2809
กําลังการผลิต	-10.2809
วันอาทิตย์	-10.2815
▁Related	-10.2815
หลอม	-10.2819
【	-10.2829
ฟอร์ม	-10.2841
บริการลูกค้า	-10.2845
หน้าจอสัมผัส	-10.2845
▁หมายเหตุ	-10.2849
phone	-10.285
▁Wolfberry	-10.2857
ใบมีด	-10.2857
и	-10.2862
้อย	-10.2867
จราจร	-10.2876
เกิดอะไรขึ้น	-10.2876
งานแต่งงาน	-10.2878
นิกเกิล	-10.2878
แม่นยํา	-10.2881
itter	-10.2882
▁Cable	-10.2894
ภาชนะ	-10.2898
กําลังจะ	-10.2909
▁pre	-10.2911
สี่เหลี่ยม	-10.2917
2015	-10.2923
เป่า	-10.2923
หรู	-10.2923
แลก	-10.2932
ชรา	-10.2937
หน้ากาก	-10.294
avi	-10.2942
สอดคล้อง	-10.2944
ฝักบัว	-10.2949
สวรรค์	-10.2953
นิ่ง	-10.2959
2.2	-10.2962
111	-10.2963
ชั่วคราว	-10.2965
พักผ่อน	-10.2977
เหมาะสม	-10.2979
น้ําแข็ง	-10.2985
วินิจฉัย	-10.2987
▁Samsung	-10.2987
ถาวร	-10.2993
เคลื่อนที่	-10.2997
▁Organic	-10.3009
ยั่งยืน	-10.3013
Cloud	-10.3019
คลอด	-10.302
ศา	-10.3021
star	-10.3029
ตู้เย็น	-10.3032
▁เราสามารถ	-10.3035
ท้าย	-10.3036
ประชาสัมพันธ์	-10.3041
ข้อผิดพลาด	-10.3046
ปูพื้น	-10.3051
มั่นคง	-10.3052
ซัน	-10.3056
วันศุกร์	-10.3058
เสร็จสิ้น	-10.306
ร้า	-10.3067
รณ์	-10.3071
106	-10.3072
การณ์	-10.3075
ฮี	-10.3076
ประหยัดพลังงาน	-10.3086
โดยอัตโนมัติ	-10.3087
นักศึกษา	-10.3088
ถา	-10.309
AND	-10.3096
work	-10.3096
อีกมากมาย	-10.3098
▁PTFE	-10.3102
ส่งมอบ	-10.3104
เซนต์	-10.3104
▁2557	-10.3107
รวมภาษี	-10.3115
ไลฟ์	-10.3118
6.5	-10.3121
ฆ่าเชื้อ	-10.3122
โดดเด่น	-10.3126
กรุ๊ป	-10.3136
ฟอสเฟต	-10.3142
แกรนด์	-10.3142
ซิลิคอน	-10.3144
ก้าน	-10.3146
ความรู้สึก	-10.3146
๊า	-10.3151
▁เมา	-10.3159
▁War	-10.3162
ฟอก	-10.3162
กลยุทธ์	-10.3168
เสื่อ	-10.3182
▁Metal	-10.3186
วัว	-10.319
ไดร์เวอร์	-10.3207
ไวรัส	-10.3211
คลินิก	-10.3213
ที่มีอยู่	-10.3231
ไตรมาส	-10.324
ปั้น	-10.3243
▁นั่นคือ	-10.3244
ต่อไปนี้	-10.3247
หัวนม	-10.3251
ไฮโดร	-10.3252
โดยไม่ต้อง	-10.3252
ความแข็ง	-10.3254
โกะ	-10.3254
ن	-10.326
กระดาษแข็ง	-10.3267
ซิตี้	-10.3275
เด่น	-10.3284
4000	-10.3289
โพร	-10.3294
คลังสินค้า	-10.3296
6000	-10.33
ร่วมงาน	-10.3314
เรื่องราว	-10.3319
é	-10.332
▁แล้วก็	-10.3323
1:00	-10.3323
▁ผมจะ	-10.3326
	-10.333
อัตราแลกเปลี่ยน	-10.333
190	-10.3332
เกีย	-10.3341
เลิศ	-10.3353
ออกซิเจน	-10.3357
โตะ	-10.336
ทักษะ	-10.3363
ได้รับรางวัล	-10.3368
พบกับ	-10.337
ศีรษะ	-10.3378
▁(18+)	-10.339
น่าจะ	-10.3396
คริสต์มาส	-10.3399
การตรวจ	-10.3401
กลั่น	-10.3406
กลับไป	-10.3409
สําเร็จ	-10.3413
ช้อปปิ้ง	-10.3413
▁Work	-10.3414
กู้	-10.3419
สัมภาษณ์	-10.3421
▁โทรสาร	-10.3425
เชื่อถือได้	-10.3432
ชุบสังกะสี	-10.3434
ไซด์	-10.3436
ได้อย่างไร	-10.3444
สัมมนา	-10.3444
โฮสติ้ง	-10.3446
โส	-10.3447
▁Digital	-10.3448
▁Machinery	-10.3453
▁Yu	-10.3453
ผลลัพธ์	-10.3463
เวอร์ชัน	-10.3463
▁Limited	-10.3465
iya	-10.3469
เซี่ยงไฮ้	-10.3469
รัด	-10.3481
สั่นสะเทือน	-10.3482
จูบ	-10.3488
▁เพราะว่า	-10.3491
aya	-10.3495
ระดับโลก	-10.3512
ก้อน	-10.3513
ยอดเยี่ยม	-10.3519
จะทําให้	-10.352
▁Box	-10.3523
ในฐานะ	-10.3541
ใช้งานง่าย	-10.3543
บอน	-10.3556
bag	-10.3561
▁Ass	-10.3566
แรงดึง	-10.3581
aker	-10.3584
matic	-10.3589
ชมพู	-10.3589
อาชีพ	-10.359
back	-10.3597
เลอร์	-10.3613
โดเมน	-10.3615
off	-10.362
meter	-10.3622
เครื่องเป่า	-10.3624
ฮาร์ด	-10.3629
โคลน	-10.3631
เล่า	-10.3636
โชคดี	-10.3643
2:00	-10.3652
หรูหรา	-10.3653
▁Mill	-10.366
เพศสัมพันธ์	-10.3668
สิ้น	-10.3669
ตะแกรง	-10.3672
ค้นพบ	-10.3677
▁วันทําการ	-10.3677
รีวิว	-10.3681
หิมะ	-10.3687
บ่อย	-10.3696
เสถียร	-10.3697
ตนเอง	-10.3706
หมู่บ้าน	-10.3707
กันอย่างแพร่หลาย	-10.3709
ศิ	-10.3709
-----	-10.3713
รายละเอียดสินค้า	-10.3716
สร้างขึ้น	-10.3724
หน่วยงาน	-10.3732
ระเบียบ	-10.3737
ต่ําสุด	-10.374
ดีขึ้น	-10.3741
COM	-10.3744
ชื่นชอบ	-10.3744
หมายความว่า	-10.3745
ซุปเปอร์	-10.3749
ประสาน	-10.3751
แก้ปัญหา	-10.3754
oxy	-10.3758
Comment	-10.3759
เป็นไปได้	-10.3762
กราฟ	-10.3779
กระทรวง	-10.3788
วัฒ	-10.3791
สมัครงาน	-10.3791
▁Control	-10.3791
2.00	-10.3793
บูชา	-10.3793
สามารถใช้ได้	-10.3802
ทางทะเล	-10.3805
ติดต่อเรา	-10.3815
ฮะ	-10.3817
ตัวเลข	-10.3818
ฤดูใบไม้ผลิ	-10.3821
เหล็กเส้น	-10.3822
พวกมัน	-10.3824
ระบบปฏิบัติการ	-10.3834
สติกเกอร์	-10.3836
ฮอร์โมน	-10.3838
▁โวลต์	-10.3842
ashi	-10.3849
ประจําวัน	-10.3852
มาร์ทโฟน	-10.3859
▁Rhinestone	-10.3866
atsu	-10.3867
▁House	-10.387
โปรตีน	-10.3871
▁anal	-10.3876
ขับขี่	-10.3878
▁wh	-10.3883
สงสัย	-10.3886
▁ราคาต่อหน่วย	-10.389
Components	-10.3895
time	-10.3901
สถานีรถไฟ	-10.3903
▁ตําบล	-10.3903
▁ดูดควย	-10.3904
ด้านนอก	-10.3914
การเกษตร	-10.3914
ลวดตาข่าย	-10.3915
มณฑล	-10.3919
เธฒเธ	-10.3919
อย่า	-10.3926
คล้าย	-10.3928
ดอน	-10.3928
ชัด	-10.3931
▁Online	-10.3934
การกู้คืน	-10.3935
จําเป็นต้อง	-10.3945
ปริญญา	-10.3947
IO	-10.3948
พรีเมี่ยม	-10.3949
ชื่น	-10.3953
เฮ้าส์	-10.3954
ต้นไม้	-10.3955
ดีเซล	-10.3956
เยอรมนี	-10.396
วิทยาลัย	-10.3968
▁Wall	-10.3978
ดําน้ํา	-10.3979
สายพาน	-10.398
ค้าง	-10.4005
▁code	-10.4006
สัมภาระ	-10.4016
ย่าง	-10.4029
หัก	-10.4029
ใดๆ	-10.4035
ฉนวนกันความร้อน	-10.4035
▁Dongguan	-10.4035
ซีรีส์	-10.4038
ลูกฟูก	-10.4044
▁ยินดีต้อนรับสู่	-10.4049
สถิติ	-10.4055
now	-10.4057
หยาบ	-10.406
มื้อ	-10.4068
▁ผู้หญิงสวย	-10.4071
▁Bay	-10.4077
สวิทช์	-10.4078
รถจักรยานยนต์	-10.4078
ฮาร์ดแวร์	-10.408
love	-10.4081
▁Ver	-10.4086
แพ็คเกจ	-10.4091
วัตถุประสงค์	-10.4093
▁Design	-10.4095
คอนเทนเนอร์	-10.4102
ภัณฑ์	-10.4106
shop	-10.4119
▁รุ่นใหญ่	-10.4129
รถกอล์ฟ	-10.4132
กระดาน	-10.4136
กู้คืน	-10.4137
ผึ้ง	-10.4138
▁Equipment	-10.414
เครื่องยนต์ดีเซล	-10.4146
เบาะ	-10.4147
▁Ultra	-10.4154
▁Material	-10.416
เซรามิค	-10.4162
หูฟัง	-10.4165
ดีไซน์	-10.4167
ผี	-10.4167
▁วันที่อัพโหลด	-10.4171
ต้นทุน	-10.4173
สงวน	-10.4174
▁Log	-10.4181
▁Lab	-10.4184
▁Long	-10.4184
▁Resort	-10.4187
๒	-10.4194
1-3	-10.4197
ทางทวารหนั	-10.42
คุณยังสามารถ	-10.42
รัฐบาล	-10.4203
107	-10.4213
LAN	-10.4219
เครดิต	-10.4221
สติ๊กเกอร์	-10.4221
เสือ	-10.4226
สถานการณ์	-10.4226
ประมวลผล	-10.4228
▁Motor	-10.4229
น่าเชื่อถือ	-10.423
ดัก	-10.4231
ทางการเงิน	-10.4234
สายรัดข้อมือ	-10.4246
ความร่วมมือ	-10.4249
count	-10.4251
oji	-10.4254
นะคะ	-10.4257
แชท	-10.4262
ตัวแทนจําหน่าย	-10.4264
อักเสบ	-10.4266
หัวฉีด	-10.4266
1.3	-10.4268
ผิวหนัง	-10.4276
สมดุล	-10.428
▁Strip	-10.428
TOR	-10.4291
ลิงค์	-10.4292
หลักฐาน	-10.4297
▁ถุงน่อง	-10.4316
ปัก	-10.4319
109	-10.432
▁ร้อนแรง	-10.432
1.4	-10.4322
พระองค์	-10.4323
แปรรูป	-10.4328
proof	-10.433
ลิฟต์	-10.4334
	-10.4348
▁Block	-10.4363
ASS	-10.4377
е	-10.4378
แอฟริกา	-10.4384
ื่	-10.4385
ศาสนา	-10.4388
ยื่น	-10.4394
▁แฟกซ์	-10.4401
ดัน	-10.4402
พฤหัสบดี	-10.4408
Direct	-10.4409
▁CCC	-10.4415
▁BMW	-10.4425
ง่ายต่อการ	-10.4427
ความสําเร็จ	-10.443
▁Plan	-10.4432
หรือเปล่า	-10.4434
▁Asia	-10.444
ลูกสูบ	-10.444
girl	-10.4446
load	-10.4448
สแตนเลสสตีล	-10.4451
เครื่องปรับอากาศ	-10.4454
7.00	-10.4466
ttle	-10.4469
aki	-10.4484
3:00	-10.4488
▁Server	-10.4496
คลาสสิค	-10.4498
แมลง	-10.4502
กังวล	-10.4505
▁ปอนด์	-10.4505
โกจิเบอร์รี่	-10.4509
ปั้ม	-10.4512
กระป๋อง	-10.4519
ด้านข้าง	-10.4531
cap	-10.4537
▁Mobile	-10.4556
ความสัมพันธ์	-10.4561
เน้น	-10.4562
พริก	-10.4566
สื่อสาร	-10.4577
sale	-10.4584
ฑ	-10.4588
▁ไปจนถึง	-10.459
พลัส	-10.4593
ผ้าใบ	-10.4602
mark	-10.4603
อักษร	-10.4609
อุดม	-10.4612
แช่	-10.4614
ง่ายๆ	-10.4615
รถยก	-10.4627
เครื่องซักผ้า	-10.4643
หัวเราะ	-10.4666
วิญญาณ	-10.4671
ชีวภาพ	-10.4673
แสงสว่าง	-10.4674
น้องสาว	-10.4678
นอนหลับ	-10.4678
โพแทสเซียม	-10.468
ขีด	-10.468
AWG	-10.4682
พกพา	-10.4683
รสชาติ	-10.4685
ผู้ผลิตชั้นนํา	-10.4692
ที่มีคุณภาพ	-10.4692
เคาน์เตอร์	-10.4699
กลางคืน	-10.4705
หายไป	-10.4705
2.3	-10.4711
เซรามิก	-10.4713
เหล็กชุบสังกะสี	-10.4714
มืด	-10.4716
ตัดสินใจ	-10.4718
กระชับ	-10.4721
แวร์	-10.473
ความรับผิดชอบ	-10.4732
คอนโด	-10.4734
เปิดเผย	-10.4737
cess	-10.4737
0-3	-10.4743
1.00	-10.4745
สารละลาย	-10.4748
เฟรม	-10.4753
สวีท	-10.4754
อ่าว	-10.4754
ทั้งสิ้น	-10.4755
ปิ้ง	-10.476
นักท่องเที่ยว	-10.4767
สาธารณรัฐ	-10.4773
ฤดูหนาว	-10.4773
aku	-10.478
รถแทรกเตอร์	-10.4782
▁Rights	-10.4783
ไฮดรอลิค	-10.4787
ทางเพศ	-10.4793
มิเตอร์	-10.4836
ระงับ	-10.4845
ปราศจาก	-10.4849
▁นี่มัน	-10.4855
ศิลป	-10.4871
ซัพพลาย	-10.4874
Print	-10.4877
อมควย	-10.4883
แรงดันสูง	-10.4883
ว่ายน้ํา	-10.4888
▁ราคาปกติ	-10.4892
ตั้งแต่ปี	-10.4896
ผจญภัย	-10.4907
▁Engine	-10.4915
▁White	-10.4919
ขนมปัง	-10.4922
ไหว	-10.4926
กองทัพ	-10.4927
สิ่งที่คุณต้อง	-10.4931
ความสุข	-10.4931
เวอร์ชั่น	-10.4949
แพทช์	-10.4968
ครบวงจร	-10.4972
เหมาะกับ	-10.4973
เดิมพัน	-10.4974
ปกครอง	-10.4987
8.5	-10.4994
เป็นที่นิยม	-10.4995
เดี๋ยวนี้	-10.4998
แตกต่าง	-10.4998
ควรจะ	-10.5007
▁ตรัส	-10.5008
รึเปล่า	-10.5016
ฉลาด	-10.5017
เยื่อ	-10.5024
rush	-10.5032
ผู้อํานวยการ	-10.5034
ที่ใหญ่ที่สุด	-10.5034
แชร์	-10.5036
แขก	-10.5044
ซึ	-10.5048
▁Photo	-10.5055
อเนกประสงค์	-10.5061
เลื่อย	-10.5061
าวน์	-10.5067
н	-10.5073
เธญเธ	-10.508
ฟื้นฟู	-10.5086
เรียบร้อย	-10.5087
ปัสสาวะ	-10.51
พลาด	-10.51
▁Yobt	-10.5103
View	-10.5103
นิวเมติก	-10.5105
พระราม	-10.5105
▁Tea	-10.511
ผิดปกติ	-10.5122
รับประทานอาหาร	-10.5127
video	-10.5145
อุบัติเหตุ	-10.5149
▁Electric	-10.5154
สําเนา	-10.5157
axi	-10.5173
พาวเวอร์	-10.5177
วงศ์	-10.5179
มองเห็น	-10.5181
ผัง	-10.5183
ต้านทาน	-10.5185
▁RGB	-10.519
ฝีมือ	-10.5194
▁Master	-10.5196
มีความสุข	-10.5198
▁Link	-10.5208
รูปทรง	-10.521
ซ่อมแซม	-10.5214
กระโปรง	-10.5219
โปแลนด์	-10.5224
▁ภาพรวม	-10.5241
แต่งหน้า	-10.5242
▁ตอ	-10.5244
หมวด	-10.5251
ซอฟแวร์	-10.5256
เซ็ต	-10.5256
เชิงเส้น	-10.5261
แบ่งปัน	-10.5264
บรรยาย	-10.5269
กระเป๋าเดินทาง	-10.5282
อ่างอาบน้ํา	-10.5287
ทนไฟ	-10.5298
▁Reserved	-10.5304
و	-10.5329
บรรทัด	-10.5329
อินโดนีเซีย	-10.5334
บุรุษ	-10.5352
▁Fiber	-10.5358
รอยสัก	-10.5358
▁นอกจากนี้ยัง	-10.5359
▁10:00	-10.5359
ระเบียง	-10.536
วิจารณ์	-10.5375
พิน	-10.5378
ible	-10.5384
เสมือน	-10.5385
รัศมี	-10.539
๐	-10.5398
ชัก	-10.54
·	-10.5401
กราฟิก	-10.5402
แข่งขัน	-10.5405
house	-10.5405
▁Add	-10.5411
▁DVB	-10.5412
อินเตอร์เน็ต	-10.5421
โรงงานผลิต	-10.5423
6.0	-10.5428
แทร	-10.5428
▁นอกจาก	-10.5436
ه	-10.5448
วีดีโอ	-10.5451
▁Pvc	-10.5457
▁Board	-10.5458
อดีต	-10.5464
▁WordPress	-10.5471
ธีม	-10.5474
▁Tool	-10.5474
ทาวน์	-10.5478
ซอฟท์	-10.5484
วินาที	-10.5484
ย้อนกลับ	-10.5489
▁Converter	-10.55
ประสาท	-10.55
ระดับมืออาชีพ	-10.5501
มาพร้อมกับ	-10.5507
ความละเอียดสูง	-10.5511
▁Imp	-10.5513
เมล็ดพันธุ์	-10.5514
▁Sky	-10.5515
▁Plastic	-10.552
3,000	-10.5528
ช็อป	-10.5529
เชอร์	-10.553
ยักษ์	-10.553
ยิ่งใหญ่	-10.5532
เปรียบ	-10.5543
มาเลเซีย	-10.5543
ความหมาย	-10.5543
ินทร์	-10.5551
พูล	-10.556
สปอร์ต	-10.5574
soft	-10.5575
แตกต่างกัน	-10.5576
▁Ethernet	-10.5582
เคลื่อน	-10.5583
สายเคเบิ้ล	-10.5585
Drive	-10.5598
ตลับลูกปืน	-10.5608
เพาเวอร์	-10.5616
ที่คุณต้องการ	-10.5617
ศุกร์	-10.5625
สํานักงานใหญ่	-10.5629
cycl	-10.5639
ฉลอง	-10.5642
เหวี่ยง	-10.5644
โลหิต	-10.5644
เล็กน้อย	-10.5648
ครบรอบ	-10.5652
แนวคิด	-10.5661
คลาส	-10.5679
▁YouTube	-10.5682
บริจาค	-10.5683
▁Chrome	-10.5683
สวีเดน	-10.5686
ไม่ยอมใครง่ายๆ	-10.5686
คริลิค	-10.569
ไล่	-10.5698
ช่วยให้คุณ	-10.5699
มุมมอง	-10.5703
ซูเปอร์	-10.5703
เซอร์วิส	-10.5704
ผู้ประกอบการ	-10.5713
▁poly	-10.5732
องุ่น	-10.5734
คอลัมน์	-10.5749
สู้	-10.5759
เลิก	-10.5765
นํามาใช้	-10.5766
▁เด็กชาย	-10.5771
▁Panel	-10.5783
ทดแทน	-10.5799
หัวหิน	-10.58
เช่นเดียวกับ	-10.5802
ธาตุ	-10.5806
ไฟฉาย	-10.5809
ดูเหมือน	-10.5814
▁บางที	-10.5821
เจริญ	-10.5828
▁data	-10.5828
ขี้ผึ้ง	-10.5831
ر	-10.5839
▁อาทิ	-10.5847
▁Green	-10.5847
จมูก	-10.5855
โภชนาการ	-10.5857
ถ้ํา	-10.586
โหวต	-10.5865
▁แถลงการณ์	-10.5868
สีม่วง	-10.587
ผู้เข้าพัก	-10.5871
ผ้าขนสัตว์	-10.5878
▁ตัวควบคุม	-10.5881
ตั้งแต่วันที่	-10.5883
▁Para	-10.5886
	-10.5886
ฝ้าย	-10.5887
ผอม	-10.5893
จังหวะ	-10.5894
▁Standard	-10.5894
▁เยโฮวาห์	-10.5894
http	-10.5898
ระยะยาว	-10.5904
ทรัพย์สิน	-10.5918
▁Street	-10.5918
pornstar	-10.5919
สัดส่วน	-10.5924
โรแมนติก	-10.5926
กะทัดรัด	-10.5932
×	-10.5934
▁SGS	-10.594
บาร์โค้ด	-10.5943
ลําเลียง	-10.5948
มุ่ง	-10.5948
▁MDF	-10.5949
ดังต่อไปนี้	-10.5952
ยาห์	-10.5954
สถาปัตยกรรม	-10.5959
▁ตัวแปลง	-10.5959
เสื้อยืด	-10.5961
▁เหรียญสหรัฐ	-10.5961
เหล็กกล้า	-10.5964
ศิลปิน	-10.5968
▁nbsp	-10.5969
▁Guide	-10.5973
ไม่จําเป็นต้อง	-10.5974
สีส้ม	-10.5975
เพิ่มประสิทธิภาพ	-10.5979
เคิล	-10.598
เน็ต	-10.5982
๑	-10.5988
น้ําท่วม	-10.5994
ทะเบียน	-10.5995
ปัจจัย	-10.6007
▁Award	-10.6015
กิ้ง	-10.6018
ท็อป	-10.6029
ศัลยกรรม	-10.6034
เฝ้า	-10.6035
หม้อแปลง	-10.6038
hotel	-10.604
เซ็นเตอร์	-10.6042
ฝากเงิน	-10.605
มวย	-10.6059
iff	-10.606
ศัตรู	-10.6067
ชลบุรี	-10.6067
▁Japan	-10.6069
ธุรกรรม	-10.6069
มักจะ	-10.6073
ช่องปาก	-10.6091
▁ทางทวารหนัก	-10.6095
ฝรั่ง	-10.6096
จุ่ม	-10.6103
9.9	-10.6105
ทวาร	-10.6131
Global	-10.6137
▁Activ	-10.6154
4.2	-10.616
แห่งประเทศไทย	-10.616
ความแตกต่าง	-10.6161
รั่ว	-10.6185
ยิ่งขึ้น	-10.6192
สะท้อนแสง	-10.6215
อิ่ม	-10.622
～	-10.622
สายการบิน	-10.622
คอมโพสิต	-10.6222
อาจารย์	-10.6225
ฉาย	-10.6228
เกณฑ์	-10.6228
ห้องอาบน้ํา	-10.624
▁นมโต	-10.6241
ต่างชาติ	-10.6247
ฬ	-10.6253
ละติน	-10.6261
ระบายอากาศ	-10.6265
สว่าน	-10.6293
มัธยม	-10.6311
ซีเอ็นซี	-10.6317
สหภาพ	-10.6319
กรวย	-10.6321
6.00	-10.633
ประสบความสําเร็จ	-10.633
สภาพอากาศ	-10.6331
▁Room	-10.6332
cker	-10.6337
ฤดูกาล	-10.6353
สงบ	-10.6366
บิ๊ก	-10.6368
เยอะ	-10.6369
จัน	-10.6373
แน่ใจ	-10.6383
ค่อนข้าง	-10.6386
เพลย์	-10.6389
นิตยสาร	-10.6398
เซลล์แสงอาทิตย์	-10.6403
วงกลม	-10.6406
▁''	-10.6406
ถู	-10.6419
ตามคําขอ	-10.6431
สไลด์	-10.6431
หมดอายุ	-10.6437
▁HDMI	-10.6456
๕	-10.6457
▁Union	-10.6457
เที่ยง	-10.6459
ปารีส	-10.6459
ซีเมนต์	-10.6465
แอลกอฮอล์	-10.6476
เป็นไปตาม	-10.6479
ฒ	-10.6489
▁error	-10.6494
โซลูชัน	-10.6496
▁Silicon	-10.6496
▁iPad	-10.6505
ลูกปัด	-10.6511
ประสงค์	-10.6513
▁Chain	-10.6518
เกี่ยวข้อง	-10.6524
ลักษณ์	-10.6527
ลิ้นชัก	-10.6544
อียิปต์	-10.6556
วิศวกร	-10.6561
ซ้อน	-10.6584
ริ้วรอย	-10.6587
Zhejiang	-10.6587
▁Company	-10.6593
▁แท็กที่แนะนํา	-10.6599
โฮมเมด	-10.6604
เอพีเค	-10.663
▁Beach	-10.663
▁Product	-10.6635
อัลลอย	-10.6642
แมกนีเซียม	-10.6653
3.3	-10.6657
อนุญาโตตุลาการ	-10.6662
▁Privacy	-10.6665
สังเกต	-10.6668
►	-10.6668
THAI	-10.6674
ฎ	-10.6676
ไถ	-10.6677
มั๊ย	-10.6691
ฟิลิปปินส์	-10.6705
การถ่ายโอน	-10.6713
Singapore	-10.674
ปานกลาง	-10.6743
▁ASME	-10.6755
ปพลิเคชัน	-10.676
▁REACH	-10.676
เหมาะ	-10.6765
สบู่	-10.6781
р	-10.6789
▁Hydr	-10.6796
!!!	-10.6802
ส่องสว่าง	-10.6807
พูดคุย	-10.6812
ดิจิทัล	-10.6816
ถ่านหิน	-10.6822
ส่อง	-10.6825
▁WiFi	-10.6833
▁Xvideos	-10.6842
วิสัยทัศน์	-10.6851
กระบี่	-10.6851
เรียบง่าย	-10.6871
ประทับใจ	-10.6872
▁Electro	-10.6874
ل	-10.6877
▁Piece	-10.6899
เอาต์พุต	-10.6901
โง่	-10.6904
т	-10.6913
Thailand	-10.6913
อาวุธ	-10.6919
รูปถ่าย	-10.6924
ตลับหมึก	-10.693
ใกล้เคียง	-10.6936
โครเมี่ยม	-10.6939
▁Business	-10.6939
เตาอบ	-10.694
หลอดเลือด	-10.6942
2.7	-10.6943
แนบ	-10.6944
trol	-10.6947
▁Villa	-10.6947
เอาท์พุท	-10.6948
ปฏิเสธ	-10.6966
รัฐมนตรี	-10.6972
เครื่องดูดฝุ่น	-10.6972
เท่าไหร่	-10.6975
ฤทธิ์	-10.6978
4.00	-10.6981
▁Twist	-10.6991
นําไปใช้	-10.7009
แว่น	-10.7027
VDC	-10.7028
หัน	-10.703
style	-10.7039
▁Travel	-10.7044
ลัน	-10.7058
สินเชื่อ	-10.7059
มีความยืดหยุ่น	-10.7061
สวิง	-10.7065
แอปเปิ้ล	-10.7076
ขุดเจาะ	-10.708
มีประสิทธิภาพสูง	-10.7084
Φ	-10.7091
บัญญัติ	-10.7122
การเริ่มต้นการ	-10.7149
▁ราคาที่ต่ํา	-10.7155
ฝาปิด	-10.7159
รับประทาน	-10.7167
วันพุธ	-10.7167
3.1	-10.7176
2.8	-10.7196
เทนนิส	-10.72
ทัศน	-10.7209
ผิดพลาด	-10.7212
▁ไม่ว่าจะเป็น	-10.7216
▁Geogrid	-10.7222
▁Switch	-10.7231
ggy	-10.7233
ยุ่ง	-10.7236
สาเหตุ	-10.7243
สายพานลําเลียง	-10.7246
Jiangsu	-10.7249
แฝด	-10.7264
สะท้อน	-10.7267
ปากีสถาน	-10.7267
TECH	-10.7269
ต้นฉบับ	-10.7282
ซัลเฟต	-10.7283
▁ผลิตจากโรงงาน	-10.7292
โอซาก้า	-10.7298
สูบบุหรี่	-10.7305
mAh	-10.7343
โรตารี่	-10.7344
เรซิน	-10.7347
▁เพียงแค่หา	-10.7353
อะลูมิเนียม	-10.7363
ต้องไปหาราคาถูก	-10.7369
บคุณในเร็วที่สุด	-10.7369
ออมและการสํารวจ	-10.7369
▁DVD	-10.7384
ทรัพย์	-10.7384
สมุทร	-10.7384
SHI	-10.7389
แบคทีเรีย	-10.739
ขโมย	-10.7406
กลไก	-10.741
แกลเลอรี	-10.7412
Pieces	-10.743
▁Excel	-10.7433
ผ่อนคลาย	-10.7434
ency	-10.7436
▁Barrier	-10.7437
	-10.7449
▁recover	-10.7456
▁Jammer	-10.7459
สนทนา	-10.7468
▁Bank	-10.7474
พ่วง	-10.7478
ให้คําปรึกษา	-10.7484
ซับซ้อน	-10.7491
9.5	-10.7492
ตะกั่ว	-10.7499
▁คริส	-10.7502
กรุณา	-10.7503
New	-10.7512
ผ้าขนหนู	-10.7515
ทรงกลม	-10.752
ปฏิกิริยา	-10.7537
นามสกุล	-10.7544
บีบอัด	-10.7559
4.8	-10.7565
เธฑเธ	-10.7569
▁เขาพูดว่า	-10.7575
ทันตกรรม	-10.7588
แรงบิด	-10.7588
ล้มเหลว	-10.7591
▁DHL	-10.7595
กล้วย	-10.7597
▁Internet	-10.7605
การเจริญเติบโต	-10.761
ห้างสรรพสินค้า	-10.7616
RAM	-10.7629
ปราสาท	-10.7638
สินทรัพย์	-10.7648
มุ่งมั่น	-10.766
4.1	-10.7675
วันอังคาร	-10.7681
tric	-10.7688
ท้าทาย	-10.7695
ําเนิดไฟฟ้าดีเซล	-10.7714
คว้า	-10.7718
บุ๊ค	-10.7721
ใกล้ชิด	-10.7724
โบรกเกอร์	-10.7727
ยูรีเทน	-10.7734
เทอร์มินัล	-10.774
ปัญญา	-10.7747
ลอนดอน	-10.7748
▁Acid	-10.776
เหล้า	-10.7771
เคเบิ้ล	-10.7772
▁รูปภาพและรูปภาพ	-10.7779
ไมโครเวฟ	-10.7785
อัลลอยด์	-10.7803
พิสูจน์	-10.7811
ทบทวน	-10.7811
หยด	-10.7813
พลาสม่า	-10.7814
▁องศาเซลเซียส	-10.7814
graph	-10.7825
ตุลาคม	-10.7826
ผสมผสาน	-10.7834
บทบาท	-10.7842
โป๊กเกอร์	-10.7843
อบอุ่น	-10.7845
lick	-10.7865
ประกวด	-10.7866
เกาะสมุย	-10.7869
3.6	-10.7881
อินเตอร์เฟซ	-10.7886
▁Single	-10.7887
สําเร็จความใคร่	-10.7899
การกําหนดค่า	-10.7913
แทง	-10.7914
▁Siam	-10.7916
▁Industry	-10.7918
ประทับ	-10.7924
ปทุม	-10.7941
▁Policy	-10.7941
/10/	-10.7942
พี่น้อง	-10.7954
ปลั๊กอิน	-10.7982
ดีลักซ์	-10.7984
▁Slurry	-10.799
จอดรถ	-10.8003
แบตเตอรี่ลิเธียม	-10.8017
โมเดล	-10.802
▁Oct	-10.8024
Xxx	-10.8039
JPY	-10.8047
′	-10.8063
ทะเลสาบ	-10.8063
▁Forming	-10.8076
▁NPK	-10.808
ละเมิด	-10.8083
ซ็อกเก็ต	-10.8093
3.00	-10.8094
ได้รับอนุญาต	-10.8109
▁Garden	-10.812
ตื่นเต้น	-10.8124
เหล็กกล้าคาร์บอน	-10.8154
ไฮดรอลิ	-10.8175
▁Berries	-10.819
บอลลูน	-10.8196
โฟลเดอร์	-10.821
แท็กซี่	-10.8211
▁แผนผังเว็บไซต์	-10.8213
ได้อย่างง่ายดาย	-10.8217
หลีกเลี่ยง	-10.823
▁Instagram	-10.8237
4.3	-10.8243
เป็นกรรมสิทธิ์	-10.8244
ี๊ย	-10.8245
ที่ไม่ซ้ํากัน	-10.8247
เฮาส์	-10.825
▁MSDS	-10.825
▁Geo	-10.8251
▁University	-10.8254
โปรตุเกส	-10.8264
ข้อศอก	-10.8267
ทนความร้อน	-10.8268
เสน่ห์	-10.8274
แอปพลิเคชัน	-10.8275
▁John	-10.8281
ลิปสติก	-10.8294
▁ถวาย	-10.8312
ฟื้น	-10.8317
กําลังมองหา	-10.8325
▁บีดีเอสเอ็ม	-10.8328
แปด	-10.8329
เธฃเธ	-10.8338
▁3/4	-10.8353
▁Temp	-10.8357
การเก็บรักษา	-10.8364
เต็นท์	-10.839
เย็บปักถักร้อย	-10.839
พุทธ	-10.84
ยุทธ	-10.8403
เพล็กซ์	-10.8414
▁Filter	-10.8417
เอกลักษณ์	-10.8432
คาเฟ่	-10.8441
สร้อยคอ	-10.8445
á	-10.8448
บ่งชี้	-10.8448
▁ผมสีบรูเนท	-10.8448
▁เฮนไต	-10.8448
โกหก	-10.8452
▁Solution	-10.8458
▁Neoprene	-10.8462
เกลียด	-10.8479
หมุด	-10.8479
กลิ้ง	-10.8492
ไฮโดรลิค	-10.85
อนามัย	-10.8503
▁หวัดดี	-10.8521
other	-10.8521
อินฟราเรด	-10.8524
สถิต	-10.8524
พาร์ทเมนท์	-10.8528
บุฟเฟ่ต์	-10.8531
งดงาม	-10.8538
เวิลด์	-10.8541
สม่ําเสมอ	-10.8548
▁Professional	-10.8548
เต้นรํา	-10.8559
▁Industrial	-10.8576
สหภาพยุโรป	-10.8588
เม็กซิโก	-10.859
ตํานาน	-10.8608
PLA	-10.8614
ที่ผ่านการ	-10.8615
ough	-10.8633
ฅ	-10.8636
บัญชา	-10.8667
7.0	-10.8682
▁MOQ	-10.8686
บาร์บีคิว	-10.8688
บูรณาการ	-10.8692
พรุ่งนี้	-10.8706
ฺ	-10.8706
»	-10.8707
ล็อต	-10.8709
รองเท้าแตะ	-10.871
ฮอร์โมนเพศชาย	-10.8745
ไม่กี่	-10.8745
โตโยต้า	-10.8756
ปริศนา	-10.8763
คริสต์	-10.8765
л	-10.877
อุโมงค์	-10.8784
1.7	-10.8802
ฮีโร่	-10.8805
โมเสค	-10.8806
threesome	-10.8816
กว้างขวาง	-10.8816
อาเซียน	-10.882
ท่ามกลาง	-10.8823
มัลติ	-10.883
ตัวเก็บประจุ	-10.8852
▁Angel	-10.8866
ประชากร	-10.887
▁SunPorno	-10.8874
ซีซั่น	-10.8877
แซนวิช	-10.8881
2.6	-10.8885
▁Hosting	-10.8888
ศุลกากร	-10.8899
อวัยวะ	-10.8899
▁Twitter	-10.8899
8.0	-10.8917
ในขณะนี้	-10.8931
กล้องวงจรปิด	-10.8938
ตระกูล	-10.8938
กวดวิชา	-10.8942
มัลติฟังก์ชั่	-10.8943
แพร่	-10.8947
ทวีป	-10.8949
ยาเสพติด	-10.8971
อวกาศ	-10.8971
▁Solar	-10.8972
ช็อคโกแลต	-10.8986
หีบห่อ	-10.8989
Org	-10.8996
ซัมซุง	-10.9011
กังหัน	-10.9018
เครื่องสูบน้ํา	-10.9019
ยิ้ม	-10.9026
ศักยภาพ	-10.9037
คุ้มค่า	-10.9046
บริการหลังการขาย	-10.9056
เป็นส่วนหนึ่งของ	-10.9061
▁Contact	-10.9062
ไดรเวอร์	-10.9073
มุ่งเน้น	-10.9077
ปะเก็น	-10.9095
คลอไรด์	-10.9102
กระโดด	-10.9106
с	-10.911
มีส่วนร่วม	-10.9118
เซ็กซี่	-10.9118
แนวโน้ม	-10.9125
เลี่ยน	-10.9125
/09/	-10.9134
▁Access	-10.9136
ether	-10.9136
4,000	-10.9136
▁Ningbo	-10.9139
▁สั่งขั้นต่ํา	-10.914
▁อย่างไรก็ตาม	-10.9143
พัสดุ	-10.915
นิวซีแลนด์	-10.915
▁Rental	-10.9158
ประเด็น	-10.9169
แบล็ค	-10.9187
รับผิดชอบ	-10.9191
ف	-10.9195
IVE	-10.9195
โกรธ	-10.9202
เกราะ	-10.9217
▁Duty	-10.9225
Archive	-10.9243
0-0	-10.9248
ศักดิ์	-10.9258
※	-10.9258
ฮอกไกโด	-10.9273
、	-10.9288
▁Manufacturing	-10.9292
▁Thermo	-10.9296
เจ๋ง	-10.9329
▁School	-10.9329
เหนียว	-10.9344
บางกอก	-10.9344
▁Connector	-10.9345
เยาว์	-10.9363
ปาร์ค	-10.9366
มีผลบังคับใช้กับ	-10.939
▁รับพลังมาจาก	-10.939
สารเติมแต่ง	-10.9401
อนุภาค	-10.9401
ม่วง	-10.9414
▁Tower	-10.9417
▁Factory	-10.942
แชมป์	-10.9424
▁Update	-10.9428
เหนี่ยวนํา	-10.9431
▁Masterbatch	-10.9439
สุภาพสตรี	-10.9462
ช็อกโกแลต	-10.9462
ราคาที่แข่งขัน	-10.9465
เฟิร์มแว	-10.9466
South	-10.9489
สุญญากาศ	-10.9492
มีเครื่องมือที่	-10.9497
เบนซิน	-10.95
▁Galaxy	-10.9504
ดับเพลิง	-10.9523
ดินสอ	-10.9526
แอคเคาท์	-10.9527
สมรรถนะ	-10.9534
แป้นพิมพ์	-10.9538
▁คําถามที่พบบ่อย	-10.9542
ology	-10.9544
และเทคนิคอื่น	-10.9546
ified	-10.9552
พิกัด	-10.9552
ผลข้างเคียง	-10.9561
คุกกี้ฉบับนี้	-10.9581
ของเราที่ชื่อ	-10.9581
▁อีกทั้งอธิบาย	-10.9584
รวบรวมผ่านคุกกี้	-10.9584
▁ไปใช้อย่างไร	-10.9584
ว่าเรานํา	-10.9584
และปฏิบัติการโดย	-10.9588
เครื่องแต่งกาย	-10.9592
อินเทอร์เฟซ	-10.9627
©	-10.9638
เสื้อกันฝน	-10.9642
ภารกิจ	-10.9662
▁Pattaya	-10.9662
สาทร	-10.9665
เครื่องอัดอากาศ	-10.967
ทุ่ง	-10.9677
สมบัติ	-10.968
ไม่มีรอยต่อ	-10.9689
▁โปรดติดต่อที่	-10.9701
อพาร์ทเม้น	-10.9705
ใบพัด	-10.9705
มะเขือเทศ	-10.9709
▁Laser	-10.9714
อุปสรรค	-10.9716
อาณาจักร	-10.972
เมษายน	-10.9724
พวงมาลัย	-10.9724
▁America	-10.9724
ดําเนินการตามที่	-10.9728
พิซซ่า	-10.9752
เอ๋ย	-10.9752
ระบุไว้ในหัวข้อ	-10.9759
▁Outdoor	-10.9759
▁และท่านไม่	-10.976
ในเมนูตั้งค่าของ	-10.9771
▁ว้าว	-10.9771
หากไม่ต้องการให้	-10.9775
ห้องนั่งเล่น	-10.9775
ปัด	-10.9783
ปฐม	-10.9784
machine	-10.9798
ปักกิ่ง	-10.9799
ปิโตรเลียม	-10.9799
การ์เด้น	-10.9811
กระเทย	-10.9811
เต็มไปด้วย	-10.9811
ق	-10.9822
วรรณ	-10.9829
แอพพลิเคชั่น	-10.9838
เบราว์เซอร์	-10.985
▁creampie	-10.9858
มรดก	-10.9862
▁Screen	-10.9874
▁Fabric	-10.9886
▁Glass	-10.9886
▁Corporation	-10.989
ี้ยน	-10.9897
ขัน	-10.9898
▁Vape	-10.9903
อนุพันธ์	-10.9912
▁Management	-10.9914
▁Outlook	-10.9926
16949	-10.9926
6,000	-10.9943
พยากรณ์	-10.995
ผลตอบแทน	-10.9958
อัญมณี	-10.9958
ฝูง	-10.9962
▁Rubber	-10.9962
Connect	-10.9963
แอมป์	-10.997
บัณฑิต	-10.9974
Benz	-10.998
▁Wheel	-10.9982
ยุติธรรม	-10.9986
▁Snap	-10.9991
ดีวีดี	-10.9994
▁Euro	-10.9998
ไร้รอยต่อ	-11.0006
▁แท็ค	-11.0006
9,000	-11.0035
เกียวโต	-11.0041
	-11.0042
แรงบันดาลใจ	-11.0046
Xhamster	-11.0046
แคมเปญ	-11.005
▁Western	-11.0062
ลายนิ้วมือ	-11.0066
เข่า	-11.0075
เมาส์	-11.0077
ع	-11.0083
น่าทึ่ง	-11.0099
▁เชียร์ลีดเดอร์	-11.0103
ทุ่ม	-11.0103
μ	-11.014
ปีศาจ	-11.014
เชียงราย	-11.0152
▁Description	-11.0156
▁Heavy	-11.016
เศร้า	-11.0164
เรื่อย	-11.0185
อบสวนเพิ่มรถเข็น	-11.0188
เมมเบรน	-11.0193
เสิร์ฟ	-11.0197
▁interDidactica	-11.0197
เมื่อเทียบกับ	-11.0205
อินเวอร์เตอร์	-11.0217
Studio	-11.0226
▁ปตท	-11.0226
เรืองแสง	-11.023
▁MPEG	-11.0234
▁Security	-11.0271
ดิสนีย์	-11.0287
แอพลิเคชัน	-11.0304
¥	-11.0308
ت	-11.0308
▁Bluetooth	-11.0308
к	-11.0312
ทึบ	-11.0317
พฤศจิกายน	-11.0321
เหยื่อ	-11.0358
▁ไม่เอาน่า	-11.0366
د	-11.0375
▁Download	-11.0383
▁Mercedes	-11.0387
;#39;	-11.0391
มีเสถียรภาพ	-11.0394
ب	-11.04
♪	-11.0408
ยับยั้ง	-11.0412
ประติมากรรม	-11.0425
ธันวาคม	-11.0432
ทรมาน	-11.045
▁OHSAS	-11.0459
ใบเสนอราคา	-11.0464
วุฒิ	-11.0467
พวงกุญแจ	-11.048
กัญชา	-11.048
จอมเทียน	-11.0497
babes	-11.0497
ให้แน่ใจว่า	-11.05
เคารพ	-11.0501
ปริญญาตรี	-11.0505
ผ้าห่ม	-11.0505
แถม	-11.0514
▁Inflatable	-11.0518
โรมาเนีย	-11.0526
แฟรง	-11.0536
posit	-11.054
เป้สะพายหลัง	-11.0547
world	-11.0547
จดหมายข่าวจาก	-11.0564
Ω	-11.0573
ินเตอร์เนชั่นแนล	-11.0573
งบประมาณ	-11.0584
บุคลากร	-11.0586
中文	-11.0586
เอียง	-11.0586
แผ่นดินใหญ่	-11.0595
โพรพิลีน	-11.0598
บรรทุก	-11.06
เครื่องใช้ไฟฟ้า	-11.0601
บกพร่อง	-11.0611
ถ่ายเทความร้อน	-11.0624
▁Royal	-11.0638
พระผู้เป็นเจ้า	-11.0641
▁HTML	-11.065
ต้องการรับอีเมล	-11.0654
▁WIFI	-11.0663
ข้อความล่าสุดโดย	-11.0667
ศตวรรษ	-11.0676
group	-11.0676
ไนโตรเจน	-11.068
ฤดูใบไม้ร่วง	-11.0684
▁Floor	-11.0684
อีพ็อกซี่	-11.0688
ชุ่ม	-11.0693
▁Enterprise	-11.0697
แท็บ	-11.0697
บาดเจ็บ	-11.071
ลิงก์	-11.0719
▁ฟรีสปิน	-11.0723
▁Optic	-11.0724
▁Network	-11.0727
ดาดฟ้า	-11.0758
▁Trading	-11.0758
บีเอ็มดับเบิลยู	-11.0771
ความคมชัด	-11.0779
กระสุน	-11.0785
field	-11.0785
แอฟริกัน	-11.0792
ถิ่น	-11.0809
ดีบุก	-11.0823
สนามเด็กเล่น	-11.0827
สนุกสนาน	-11.0836
วาล์วผีเสื้อ	-11.0875
คอนเสิร์ต	-11.0884
ยิว	-11.0897
เปลวไฟ	-11.0911
▁micro	-11.0911
นาโกย่า	-11.0928
ป่วย	-11.0932
อิสราเอล	-11.0937
ปลดปล่อย	-11.0937
ปรัชญา	-11.0941
▁มิลลิกรัม	-11.0941
▁items	-11.0942
cumshot	-11.0964
ซีรีย์	-11.0964
สิงหาคม	-11.0972
กลืน	-11.0972
▁Diamond	-11.099
ศัพท์	-11.1
ـ	-11.1035
ü	-11.1224
ー	-11.1717
ฌ	-11.1794
	-11.1979
	-11.2162
в	-11.2302
ฃ	-11.2796
•	-11.2922
|	-11.3275
â	-11.3314
ش	-11.3375
	-11.3754
Ø	-11.3819
φ	-11.4027
←	-11.4082
♦	-11.4161
๓	-11.4185
д	-11.4271
^	-11.4358
๖	-11.4439
à	-11.4603
ํ	-11.4664
√	-11.4848
	-11.498
í	-11.5099
	-11.52
س	-11.5261
๔	-11.5295
한	-11.533
м	-11.544
어	-11.5454
◆	-11.5537
ñ	-11.6248
ê	-11.6285
ン	-11.6835
у	-11.7176
ي	-11.882
ç	-11.9206
●	-12.0339
й	-12.1398
ラ	-12.4636
日	-12.6072
ة	-12.6865
	-12.7225
本	-13.0365
中	-13.0806
プ	-13.2039
語	-13.7468
文	-14.2916
	-18.2589
💐	-18.2589
