<unk>	0
<s>	0
</s>	0
▁	-2.11685
,	-3.91784
:	-4.26066
.	-4.55552
)	-4.74833
ของ	-5.08028
▁(	-5.14285
ที่	-5.16548
▁-	-5.1777
;	-5.22038
s	-5.25042
-	-5.31998
และ	-5.41692
▁&	-5.46484
gt	-5.54565
▁/	-5.60607
▁และ	-5.68823
ใน	-5.81895
การ	-5.86261
▁1	-5.93888
/	-5.98295
ได้	-6.06352
น	-6.08755
S	-6.12777
...	-6.13457
▁2	-6.14525
A	-6.16351
สําหรับ	-6.20377
เป็น	-6.23884
2	-6.28637
D	-6.2881
▁_	-6.29551
▁3	-6.30269
แบบ	-6.30465
ม	-6.31
ส	-6.337
ก	-6.36188
V	-6.39212
C	-6.40081
3	-6.4368
▁S	-6.44309
d	-6.4659
ค	-6.48494
กับ	-6.48901
มา	-6.4923
▁C	-6.50003
y	-6.51609
?	-6.52618
e	-6.53134
m	-6.5339
▁การ	-6.55207
x	-6.57096
B	-6.57148
1	-6.57363
ให้	-6.60721
▁A	-6.62433
จาก	-6.62495
c	-6.63208
M	-6.63912
▁4	-6.6547
มี	-6.65822
!	-6.66675
er	-6.66853
ing	-6.67534
▁5	-6.68473
▁ๆ	-6.68575
G	-6.68699
ล	-6.69023
▁ผลิตภัณฑ์	-6.69849
T	-6.71955
ด	-6.72327
▁B	-6.72844
L	-6.73403
▁เครื่อง	-6.74486
"	-6.7465
(	-6.75648
W	-6.77436
a	-6.78024
นี้	-6.78428
▁T	-6.79533
ด้วย	-6.7962
▁10	-6.81133
F	-6.81469
g	-6.8219
ง	-6.82825
▁P	-6.83651
in	-6.85208
b	-6.86171
K	-6.86658
p	-6.86702
4	-6.86784
ท	-6.86998
ต	-6.89017
k	-6.9004
ตัว	-6.91247
ว่า	-6.91782
เครื่อง	-6.92263
ไป	-6.93545
com	-6.93885
ว	-6.94125
n	-6.95274
i	-6.95348
N	-6.95452
▁ใน	-6.96126
น้ํา	-6.96857
ย	-6.97909
บ	-6.9849
5	-6.99368
▁D	-6.99809
P	-7.00261
amp	-7.00285
▁F	-7.00372
8	-7.00936
แล้ว	-7.03022
▁หรือ	-7.03143
t	-7.03616
H	-7.03799
▁M	-7.04368
▁สําหรับ	-7.0463
▁"	-7.04949
ร	-7.06279
▁6	-7.07598
▁มี	-7.07994
เ	-7.08134
R	-7.09359
an	-7.09761
ทํา	-7.1028
▁เป็น	-7.10953
ดี	-7.10954
o	-7.11719
6	-7.12921
▁*	-7.13083
▁E	-7.13273
▁R	-7.13796
al	-7.14089
กัน	-7.15425
ต่อ	-7.15766
ป	-7.17026
ไม่	-7.17138
▁H	-7.17314
ห	-7.17518
f	-7.17581
ความ	-7.19013
▁มม	-7.19408
ทาง	-7.20581
ใช้	-7.21753
▁Co	-7.2187
r	-7.22214
▁G	-7.22929
▁8	-7.23076
ใหม่	-7.23243
▁7	-7.2336
mm	-7.2347
หรือ	-7.24188
ของคุณ	-7.26466
▁ผู้ผลิต	-7.26988
▁ปี	-7.27044
▁เรา	-7.27272
ed	-7.27413
▁หมายเลขชิ้นส่วน	-7.27911
▁K	-7.28041
▁คุณ	-7.2846
X	-7.28502
งาน	-7.28959
▁บริษัท	-7.29551
▁ไม่	-7.30527
คุณ	-7.3058
โดย	-7.30877
▁คน	-7.32717
th	-7.33074
▁12	-7.33105
7	-7.33149
v	-7.33254
▁LED	-7.33528
E	-7.33636
w	-7.34113
จะ	-7.34339
▁ฉัน	-7.35161
▁–	-7.353
นะ	-7.35913
ๆ	-7.36814
พ	-7.37304
u	-7.37864
l	-7.38141
สินค้า	-7.39002
อ	-7.39179
▁บ้าน	-7.39582
▁ลักษณะ	-7.40369
▁20	-7.40973
สี	-7.41094
h	-7.41393
อาหาร	-7.42509
▁ขนาด	-7.42783
สูง	-7.4334
มัน	-7.43856
]	-7.44133
ทั้งหมด	-7.44948
30	-7.45101
▁L	-7.45758
ระบบ	-7.45825
ที่มี	-7.46617
0	-7.47226
ช	-7.47586
ผลิตภัณฑ์	-7.49011
00	-7.49404
on	-7.49485
Y	-7.49707
▁N	-7.50146
▁แต่	-7.50505
▁Home	-7.50966
▁[	-7.51562
%	-7.51809
▁$	-7.52662
ไฟฟ้า	-7.52734
คน	-7.53351
et	-7.53759
le	-7.5412
▁W	-7.54604
ข้อมูล	-7.54647
เพื่อ	-7.54999
10	-7.55202
ภาพ	-7.56187
or	-7.56932
▁เขา	-7.57142
▁0	-7.57877
▁9	-7.57985
9	-7.59044
50	-7.59427
อย่าง	-7.5946
▁โดย	-7.59889
▁2019	-7.60317
ฉัน	-7.6032
ขนาด	-7.60697
ผม	-7.61086
en	-7.61478
O	-7.61499
ออนไลน์	-7.61587
อื่น	-7.61589
20	-7.6164
ก็	-7.61784
▁+	-7.61906
หน้า	-7.6203
U	-7.62201
▁จํากัด	-7.62496
นา	-7.62546
el	-7.6277
ยา	-7.62932
อยู่	-7.63654
ไฟ	-7.63655
▁15	-7.64342
re	-7.65444
มาก	-7.65941
ถึง	-7.66013
ฟ	-7.6644
เลย	-7.66748
▁1.	-7.67227
▁ผม	-7.67378
รา	-7.67504
▁หมายเลขรุ่น	-7.68808
▁ชุด	-7.68882
▁จาก	-7.69368
▁I	-7.69381
ของเรา	-7.69458
ฟรี	-7.70076
25	-7.70244
สามารถ	-7.70424
▁จะ	-7.70809
พลาสติก	-7.71043
บน	-7.7166
่	-7.7194
▁วัน	-7.72706
ผู้	-7.73248
ร์	-7.73708
▁25	-7.73863
▁ราคา	-7.73996
อะไร	-7.74056
รับ	-7.74153
▁บาท	-7.74237
พร้อม	-7.74404
มิ	-7.74651
ดู	-7.74993
ขึ้น	-7.75636
เน	-7.7568
เงิน	-7.7591
แ	-7.76538
ตาม	-7.76859
จ	-7.77158
รถ	-7.77301
at	-7.7793
รวม	-7.77988
คือ	-7.79348
▁30	-7.81009
เหล็ก	-7.81458
ริ	-7.82047
ส์	-7.82737
Z	-7.83067
ซี	-7.83279
▁#	-7.83326
▁โรงงาน	-7.83403
J	-7.83709
หนึ่ง	-7.83831
▁24	-7.8409
ic	-7.84156
เรา	-7.84254
”	-7.84317
อุตสาหกรรม	-7.8504
▁18	-7.85182
ราคา	-7.85537
ปี	-7.85801
▁19	-7.86384
12	-7.86408
อุปกรณ์	-7.86435
co	-7.86897
&	-7.87386
เวลา	-7.87478
15	-7.87595
นั้น	-7.88438
พิเศษ	-7.88457
เรื่อง	-7.88515
is	-7.8862
▁เธอ	-7.88811
▁O	-7.89008
▁เพื่อ	-7.89107
▁ความ	-7.89485
ก่อน	-7.89557
ไทย	-7.89963
เกี่ยวกับ	-7.89997
11	-7.90086
it	-7.90555
ด้าน	-7.90694
ส่ง	-7.90766
▁16	-7.90777
▁ระบบ	-7.90796
อัตโนมัติ	-7.91003
z	-7.91206
40	-7.91791
▁ด้วย	-7.91896
จากประเทศจีน	-7.91916
▁©	-7.91932
▁100	-7.91945
▁50	-7.91984
้	-7.92087
ur	-7.92232
lt	-7.92469
ั	-7.92544
ไว้	-7.93033
สูงสุด	-7.93359
'	-7.93461
▁มัน	-7.93492
▁ผู้	-7.93832
▁2.	-7.93978
▁นาที	-7.94026
สาย	-7.94055
ลง	-7.94343
▁ซึ่ง	-7.94657
ในการ	-7.94682
ภายใน	-7.94899
▁วัสดุ	-7.95086
▁11	-7.95097
หลัก	-7.95107
▁ISO	-7.95645
▁แล้ว	-7.95794
บ้าน	-7.9642
ลา	-7.96503
ทํางาน	-7.96516
คู่	-7.96979
▁Read	-7.96994
16	-7.97507
ศ	-7.97645
▁มีสินค้า	-7.97686
35	-7.98031
18	-7.98105
ol	-7.98507
ใหญ่	-7.98517
เธ	-7.98588
pcs	-7.98731
▁“	-7.98792
ch	-7.99188
▁J	-7.99235
▁More	-7.99373
80	-7.99667
น้ํามัน	-7.99776
75	-7.99906
ผ่าน	-7.99974
นี่	-8.00065
▁เอเชีย	-8.00113
รี	-8.0025
ตา	-8.0068
ผู้ผลิต	-8.00768
▁ถึง	-8.00824
am	-8.00898
_	-8.01044
45	-8.01386
ลิ	-8.01474
▁อุปกรณ์	-8.01759
โอ	-8.01945
▁Re	-8.02213
อีก	-8.02602
คา	-8.02705
▁Ltd	-8.02859
ไม้	-8.03236
@	-8.03646
ะ	-8.04155
เขา	-8.04457
สิ	-8.04539
es	-8.04885
14	-8.05063
▁สงวนลิขสิทธิ์	-8.05795
60	-8.05933
ยาง	-8.05942
ธุรกิจ	-8.06089
วัน	-8.06232
จริง	-8.06277
เข้า	-8.06475
พลังงาน	-8.06692
▁ท่าน	-8.06717
us	-8.06823
ออก	-8.06853
หลาย	-8.06988
19	-8.07264
โร	-8.07349
โลหะ	-8.07362
▁ดู	-8.07475
เสียง	-8.07608
ma	-8.08027
บริการ	-8.08112
ro	-8.08163
ไม่ได้	-8.08297
24	-8.08639
ข	-8.08659
เธอ	-8.09109
▁ใช่	-8.0934
ad	-8.09552
▁ห้อง	-8.09578
า	-8.09862
55	-8.09895
▁2018	-8.09997
01	-8.10007
ar	-8.10467
65	-8.10674
นิ	-8.10907
▁14	-8.11156
▁บริการ	-8.11213
▁13	-8.11485
▁3.	-8.11727
เด็ก	-8.11778
มาตรฐาน	-8.118
33	-8.11828
▁เวลา	-8.11845
ผ้า	-8.11958
▁ชั่วโมง	-8.13007
พิมพ์	-8.13233
ต้อง	-8.13314
ชุด	-8.13408
กว่า	-8.13557
ครับ	-8.13722
ชั้น	-8.13861
บริษัท	-8.14158
ชิ	-8.14175
▁พร้อม	-8.14304
▁สี	-8.1441
ส่วน	-8.14525
ควบคุม	-8.15061
▁ประเภท	-8.15103
ang	-8.15266
▁ไป	-8.15998
ขาย	-8.16378
เปิด	-8.16507
un	-8.16593
ผลิต	-8.16619
Q	-8.16699
เมือง	-8.16986
▁Z	-8.17001
ใจ	-8.17059
ระดับ	-8.17125
กําลัง	-8.17151
กา	-8.17188
▁•	-8.17411
ติ	-8.17508
แสง	-8.1768
-2	-8.17802
17	-8.18204
ดา	-8.18249
13	-8.18428
34	-8.18896
ต์	-8.19048
▁X	-8.19449
ทั้ง	-8.19556
ia	-8.19604
ri	-8.19728
32	-8.20011
▁ผู้จัดจําหน่าย	-8.20447
China	-8.20493
I	-8.20566
ชื่อ	-8.2062
la	-8.20806
การสอบสวน	-8.21002
ที่จะ	-8.21068
▁กล่อง	-8.21144
ป้องกัน	-8.21192
เก็บ	-8.2152
ชา	-8.21568
เอ	-8.21733
เมื่อ	-8.21819
90	-8.22019
ul	-8.22202
39	-8.22246
▁°	-8.22366
ท่อ	-8.22494
37	-8.22673
▁ใบรับรอง	-8.22688
เคลือบ	-8.23036
ra	-8.23295
38	-8.23414
บรรจุ	-8.23479
เว็บไซต์	-8.23821
28	-8.24188
ค่า	-8.24339
จีน	-8.24704
▁พระ	-8.24845
วา	-8.25057
ลูกค้า	-8.2509
ทุก	-8.25098
เม	-8.25148
▁~	-8.2519
70	-8.25207
21	-8.2559
ิ	-8.25792
ถูก	-8.25869
▁17	-8.25876
▁รุ่น	-8.25925
▁60	-8.2624
ยัง	-8.26715
เร	-8.26761
ation	-8.27126
กล่อง	-8.2735
ate	-8.27853
ห้อง	-8.27944
ที	-8.28055
ใด	-8.28133
36	-8.28193
22	-8.28198
09	-8.28687
▁เมื่อ	-8.28707
แผ่น	-8.28762
▁อ	-8.28902
ตัด	-8.28936
ine	-8.28937
st	-8.28992
น่า	-8.29166
ไฟล์	-8.29224
เว	-8.2955
29	-8.29614
06	-8.29695
รถยนต์	-8.29739
▁In	-8.29764
to	-8.29893
100	-8.29943
เช่น	-8.30176
ซิ	-8.30342
วัสดุ	-8.30346
มากกว่า	-8.30907
27	-8.30951
ลูก	-8.31246
id	-8.31524
ly	-8.3161
il	-8.32116
500	-8.3223
ซ	-8.32252
ต้องการ	-8.32634
▁เดือน	-8.3277
49	-8.32963
ย์	-8.32971
อิ	-8.33051
สอง	-8.33154
▁200	-8.33277
as	-8.33323
ชนิด	-8.3338
นาย	-8.33523
สร้าง	-8.33588
▁แผ่น	-8.33617
ระ	-8.33634
วิ	-8.33672
หา	-8.33773
แสดง	-8.33805
▁ครั้ง	-8.33816
▁ชื่อ	-8.3402
42	-8.34033
59	-8.3406
วิดีโอ	-8.34244
ex	-8.34305
▁นิ้ว	-8.34377
08	-8.34436
ติดตั้ง	-8.34438
เดียว	-8.34439
▁2017	-8.34555
▁ซัพพลายเออร์	-8.34818
โลก	-8.34831
จิ	-8.34857
▁Ch	-8.34872
ติด	-8.34993
เพิ่ม	-8.35219
หลัง	-8.35309
47	-8.35312
44	-8.35417
มือ	-8.35457
นํา	-8.35517
▁U	-8.35529
me	-8.35536
▁ใช้	-8.35631
เห็น	-8.35793
ชีวิต	-8.36024
▁»	-8.36217
05	-8.36231
03	-8.36286
▁100%	-8.36347
▁Y	-8.36373
26	-8.36427
▁Mark	-8.36466
บัญชี	-8.36715
▁แม่	-8.36736
56	-8.36739
ต่างๆ	-8.36865
▁ก็	-8.37006
te	-8.37135
คืน	-8.37334
ซา	-8.37767
ที่ดีที่สุด	-8.37807
48	-8.38203
สีขาว	-8.38233
▁Main	-8.38385
เท	-8.38455
อลูมิเนียม	-8.38541
เหรอ	-8.38545
เล	-8.3872
▁สาย	-8.38744
52	-8.38944
▁CE	-8.39019
▁ชิ้น	-8.3902
กระดาษ	-8.39453
▁ผู้ส่งออก	-8.39767
23	-8.39874
เป	-8.39962
ระหว่าง	-8.40062
▁สามารถ	-8.40332
-1	-8.40346
บัตร	-8.40407
46	-8.40675
51	-8.40689
▁ฯลฯ	-8.40708
รู้	-8.41088
61	-8.41091
02	-8.41105
53	-8.41257
ท์	-8.41322
▁โรงแรม	-8.41331
ตรง	-8.41334
one	-8.41359
ผล	-8.41473
se	-8.41662
58	-8.41693
▁ไม่มี	-8.41924
เซ	-8.4206
▁De	-8.42064
▁ชั้น	-8.42236
▁ประเภทธุรกิจ	-8.42303
pe	-8.42423
▁40	-8.42548
เดือน	-8.42597
บา	-8.42883
um	-8.42926
เอง	-8.42933
โรงงาน	-8.43017
คุณภาพ	-8.43042
ไม่มี	-8.43207
▁คือ	-8.43266
j	-8.43435
▁ดาวน์โหลด	-8.4348
ประ	-8.43629
▁เจ้า	-8.43662
ประตู	-8.43922
▁4.	-8.44221
▁22	-8.4444
เลือก	-8.44522
รุ่น	-8.44561
99	-8.44626
ละ	-8.44686
ความร้อน	-8.44733
ญี่ปุ่น	-8.44758
04	-8.44807
IN	-8.44903
ใส่	-8.45016
รัก	-8.4504
41	-8.45091
ot	-8.45193
เล่น	-8.45322
ุ	-8.45344
วง	-8.45562
จัด	-8.4564
เพียง	-8.45799
ผิว	-8.4583
เพิ่มเติม	-8.45852
▁21	-8.4609
ry	-8.46102
กิ	-8.46143
and	-8.46333
07	-8.46526
สาม	-8.46568
57	-8.46845
เรือ	-8.46933
ซื้อ	-8.47054
31	-8.47307
ut	-8.47413
▁จํานวน	-8.47453
ค่ะ	-8.47533
ลี	-8.47882
88	-8.4811
เกม	-8.48322
อากาศ	-8.48512
ie	-8.48514
นัก	-8.48748
76	-8.48925
95	-8.48963
ac	-8.49234
ช่วย	-8.49255
การผลิต	-8.49299
ta	-8.49313
age	-8.49403
ขนาดเล็ก	-8.49438
▁บน	-8.49562
ce	-8.49664
ณ	-8.49821
แห่ง	-8.49842
54	-8.49857
แม่	-8.502
▁วัยรุ่น	-8.50335
ธ	-8.5043
ธรรมชาติ	-8.50691
เบ	-8.50728
เย็น	-8.50804
ant	-8.50888
โม	-8.50912
บาง	-8.51103
▁เกม	-8.51185
▁นาย	-8.51284
ต่ํา	-8.51529
ล่ะ	-8.51665
ที่สุด	-8.518
68	-8.51925
ดิ	-8.51936
ท่าน	-8.51937
lo	-8.52363
▁รายละเอียด	-8.52442
▁สาว	-8.52825
li	-8.52869
na	-8.53441
ทําให้	-8.53498
▁อเมริกา	-8.53502
86	-8.53594
▁ติดต่อตอนนี้	-8.5365
200	-8.53667
โล	-8.53703
▁ข้อมูล	-8.54265
โรงแรม	-8.54309
85	-8.54405
ตาย	-8.545
แรก	-8.546
ent	-8.54645
▁ยุโรป	-8.54725
กลุ่ม	-8.54751
per	-8.54929
43	-8.55018
รอบ	-8.55056
▁เมตร	-8.55422
ลด	-8.55589
69	-8.5565
โค	-8.55739
67	-8.55779
เตอร์	-8.55808
de	-8.55985
▁CO	-8.56013
ร้อน	-8.56075
ge	-8.56252
63	-8.56464
mo	-8.56597
เขียน	-8.56733
สําหรับการ	-8.57013
▁เช่น	-8.57125
พูด	-8.57169
▁ประเทศ	-8.57177
โก	-8.57393
ยก	-8.57425
สาว	-8.57437
เสีย	-8.57448
0,000	-8.57533
เต็ม	-8.5758
66	-8.57612
▁วันที่	-8.57661
กระ	-8.57665
อา	-8.57708
สุด	-8.57932
วัด	-8.57987
*	-8.5801
▁The	-8.58822
0.00	-8.58834
บอก	-8.58943
ความปลอดภัย	-8.58997
เล็ก	-8.59099
เรียน	-8.59244
▁the	-8.5927
96	-8.59423
▁ผ้า	-8.59536
▁ประเทศจีน	-8.59852
โครงการ	-8.60034
โน	-8.60161
▁จีน	-8.60277
▁วิดีโอ	-8.60573
▁of	-8.60855
ผ	-8.60941
์	-8.60956
่า	-8.61283
▁Q	-8.61285
จุด	-8.61323
ล่าสุด	-8.61521
▁Windows	-8.61565
โซ	-8.61666
ขนาดใหญ่	-8.61695
▁เอ	-8.61755
▁23	-8.62086
bo	-8.62125
เทคโนโลยี	-8.62237
▁เพศ	-8.62307
ปิด	-8.62429
ซ์	-8.62522
▁ตะวันออกกลาง	-8.62677
แก้ว	-8.62731
ir	-8.62797
สาร	-8.63013
72	-8.63028
-5	-8.63173
▁พ	-8.63177
กลาง	-8.63215
ทดสอบ	-8.63372
▁ฟรี	-8.6355
98	-8.6364
จับ	-8.63734
อยู่ใน	-8.63838
▁พระองค์	-8.63841
ประเภท	-8.63908
เค	-8.64035
▁หน้าหลัก	-8.64226
89	-8.64669
ที่นี่	-8.64768
▁รายการ	-8.65068
วาง	-8.65198
all	-8.65211
ter	-8.65467
ร่วม	-8.65619
62	-8.65795
ทา	-8.65825
ของฉัน	-8.6583
เก	-8.65837
up	-8.65972
วี	-8.66083
้า	-8.66144
ที่ดี	-8.66208
ชาย	-8.66252
▁โอ้	-8.6626
ประมาณ	-8.66308
โปรแกรม	-8.66322
การใช้งาน	-8.6656
▁ไฟ	-8.66756
AR	-8.6705
พัฒนา	-8.67114
พื้นที่	-8.67163
เฉพาะ	-8.67299
จํานวน	-8.67437
รายการ	-8.67493
▁IP	-8.67606
เครื่องมือ	-8.67713
พา	-8.67908
ers	-8.67989
64	-8.68153
กด	-8.68407
รูป	-8.68634
97	-8.68649
▁นี่	-8.68686
74	-8.68729
โด	-8.68759
ประเทศ	-8.68838
▁นั้น	-8.69035
พบ	-8.69214
77	-8.69288
ซึ่ง	-8.69438
+	-8.69442
▁Pro	-8.69487
ER	-8.6952
MA	-8.69625
ี	-8.69734
การทํางาน	-8.69759
ถนน	-8.69881
สัตว์	-8.70019
ล้อ	-8.70267
โต	-8.70415
▁28	-8.70426
▁ซม	-8.70427
ยาว	-8.70519
-4	-8.7053
ได้รับ	-8.70688
ม้วน	-8.7089
▁ทั่วโลก	-8.70992
ne	-8.71231
87	-8.71284
สิ่ง	-8.71301
▁โทร	-8.71338
กลางแจ้ง	-8.71395
▁ขายส่ง	-8.71424
ion	-8.71432
แรง	-8.71483
▁ถ้า	-8.71578
เชื่อมต่อ	-8.71604
หัว	-8.71629
ide	-8.71663
no	-8.71733
▁แอฟริกา	-8.71883
▁เลสเบี้ยน	-8.72009
min	-8.72086
ผสม	-8.72298
ite	-8.72497
เด	-8.72585
กรอง	-8.72813
▁ไปยัง	-8.72878
▁500	-8.73008
▁OEM	-8.73088
OS	-8.73115
ment	-8.7326
ต่าง	-8.73608
เจ	-8.73698
รี่	-8.73717
เสริม	-8.73726
ง่าย	-8.73742
ตลาด	-8.73885
ปรับ	-8.74003
เพลง	-8.74217
อร์	-8.74331
ชิ้นส่วน	-8.74388
ลาย	-8.746
อื่นๆ	-8.74732
ปั๊ม	-8.74909
▁รับ	-8.74928
กันน้ํา	-8.74953
der	-8.75226
▁2016	-8.75255
รอ	-8.75393
▁Android	-8.75405
▁คุณภาพ	-8.75662
แยก	-8.75812
ข้าง	-8.75914
๊	-8.7595
ขอ	-8.76021
▁2020	-8.76061
ทอ	-8.76292
im	-8.76314
ทําความสะอาด	-8.76353
ต้น	-8.76378
ill	-8.76461
92	-8.76684
lu	-8.76732
▁วัตต์	-8.76798
▁รหัส	-8.76812
▁น้ําหนัก	-8.76887
sh	-8.76982
▁ขาย	-8.77006
▁อยู่	-8.77167
บู	-8.7723
ที่กําหนดเอง	-8.77354
ทอง	-8.7762
อี	-8.77687
เอา	-8.77763
▁Goji	-8.7781
op	-8.7786
คิด	-8.77944
สัญญาณ	-8.77984
84	-8.78116
▁฿	-8.78216
ผง	-8.7824
นอน	-8.78273
ti	-8.78328
78	-8.78397
▁ร้านดอกไม้	-8.78534
▁มุมมอง	-8.78889
ลึก	-8.78922
▁หน้าแรก	-8.78994
▁5.	-8.79089
ด์	-8.79096
79	-8.79097
ap	-8.79137
ประกอบ	-8.79214
เกิด	-8.79287
ํา	-8.794
ติดต่อ	-8.79419
วาล์ว	-8.79441
แนะนํา	-8.79594
▁ยุโรปตะวันออก	-8.79644
สําคัญ	-8.79702
อายุ	-8.79717
▁อย่า	-8.79721
▁300	-8.79823
ab	-8.79848
เห	-8.80165
▁Le	-8.80252
ip	-8.80267
เรียก	-8.8029
hi	-8.80333
โทรศัพท์	-8.80536
แห้ง	-8.80683
เดินทาง	-8.80709
่ง	-8.80775
ell	-8.8079
ไหม	-8.80803
▁หน้า	-8.80832
▁ขอ	-8.80981
5%	-8.81228
เปลี่ยน	-8.81234
▁ส่วน	-8.81497
รายละเอียด	-8.81505
ปกติ	-8.81623
อิเล็กทรอนิกส์	-8.81818
ong	-8.81821
สแตนเลส	-8.81862
▁จัดส่งดอกไม้	-8.81879
ทั่วไป	-8.82053
คอมพิวเตอร์	-8.82194
ha	-8.82237
▁USB	-8.8226
ho	-8.82339
กะ	-8.82369
ai	-8.8241
▁Sh	-8.82468
แก่	-8.82611
ชั่น	-8.82692
▁รถ	-8.82711
est	-8.82864
▁ภาพใหญ่	-8.82969
▁ประเทศไทย	-8.83079
-6	-8.83121
73	-8.83123
▁หลอด	-8.83169
เริ่มต้น	-8.83207
▁Me	-8.83242
82	-8.83299
▁กระเป๋า	-8.83331
▁โอ	-8.83367
94	-8.83393
คอ	-8.83397
หนัง	-8.83424
ลม	-8.83632
▁Se	-8.83849
ive	-8.83974
ญ	-8.84017
ตกแต่ง	-8.84147
="	-8.84195
ร้าน	-8.8424
em	-8.84334
81	-8.84642
fe	-8.84741
คํา	-8.84826
-20	-8.84989
▁ลูก	-8.85065
ตรวจสอบ	-8.8507
ดิจิตอล	-8.85099
83	-8.85149
ไอ	-8.85484
▁เครื่องมือ	-8.85639
pa	-8.85659
สด	-8.85709
di	-8.85755
อ่อน	-8.85809
เจ้า	-8.85854
71	-8.85879
เท้า	-8.85985
▁Vi	-8.85998
เอเชีย	-8.86054
-10	-8.86115
▁ยุโรปตะวันตก	-8.86132
อ่าน	-8.86141
หญิง	-8.86182
เริ่ม	-8.86186
ใต้	-8.86314
▁ยุโรปเหนือ	-8.86325
▁27	-8.86425
▁เมือง	-8.86435
น่ะ	-8.86513
▁อา	-8.86525
▁Bo	-8.86773
▁โอเค	-8.86795
IC	-8.868
จ่าย	-8.86801
เร็ว	-8.86911
เพื่อน	-8.86918
▁เพราะ	-8.87045
▁Sp	-8.87061
ที่ใช้	-8.87127
ชอบ	-8.87161
ัม	-8.87399
สุขภาพ	-8.87484
▁Thailand	-8.87503
การศึกษา	-8.87538
พี	-8.87564
▁26	-8.87602
ga	-8.8764
สุ	-8.87682
ไปยัง	-8.87689
ig	-8.87728
9001,	-8.87728
สวน	-8.87784
อัน	-8.87815
ครั้ง	-8.88071
▁ถนน	-8.88093
ออกแบบ	-8.88127
หุ้น	-8.88142
://	-8.88314
▁	-8.88365
▁วิธีการ	-8.88404
▁to	-8.88468
ฉ	-8.885
ข้อ	-8.88527
้น	-8.88604
EN	-8.88757
▁กรัม	-8.88959
AL	-8.89073
hen	-8.89422
ขยาย	-8.89574
ที่มีคุณภาพสูง	-8.89725
ภาค	-8.89812
ผนัง	-8.89834
ub	-8.89918
▁and	-8.89957
▁2562	-8.90089
กิจกรรม	-8.90247
กําหนด	-8.9025
เชื่อม	-8.90306
ดาวน์โหลด	-8.90451
▁💐	-8.90471
้ง	-8.90504
น้อย	-8.90533
การใช้	-8.90535
สา	-8.90549
300	-8.90575
ให้บริการ	-8.90602
ล็อค	-8.90709
ow	-8.90747
ทะเล	-8.9095
91	-8.9104
▁AC	-8.9122
93	-8.91225
-8	-8.91266
os	-8.91404
ใคร	-8.91407
ist	-8.9146
▁02	-8.91519
go	-8.91528
ราย	-8.91612
แปลง	-8.91765
if	-8.91777
แดง	-8.91842
▁ชนิด	-8.91894
จําหน่าย	-8.92031
รูปแบบ	-8.92066
▁ถุง	-8.92154
MP	-8.92222
▁80	-8.92267
เครือข่าย	-8.92268
ตั้งแต่	-8.92271
▁HD	-8.92287
สมาชิก	-8.92356
va	-8.92375
เช	-8.92398
โรค	-8.92482
อุ	-8.92554
ity	-8.92601
พวกเขา	-8.9267
เดี่ยว	-8.92707
ัต	-8.92774
ทางเทคนิค	-8.92988
ภาษา	-8.93255
▁เอา	-8.93344
กระจก	-8.93366
เอกสาร	-8.93419
▁วิธี	-8.93433
ph	-8.93461
แค	-8.93685
ba	-8.93728
man	-8.93734
บี	-8.93799
IS	-8.93811
เฟ	-8.93942
เหนือ	-8.94005
▁Tr	-8.94238
▁Con	-8.94324
▁ภาพยนตร์	-8.94372
อะ	-8.94394
son	-8.94412
มือถือ	-8.9462
สีดํา	-8.9468
สัน	-8.94726
รู	-8.9473
▁วีดีโอ	-8.94754
▁ทรง	-8.94769
จัดการ	-8.94816
▁ท่อ	-8.94881
▁เปิด	-8.94915
ไง	-8.94936
ชม	-8.94965
อาคาร	-8.95018
▁ผู้หญิง	-8.95056
ขาว	-8.95087
ton	-8.95172
โทร	-8.95211
ไร	-8.95304
▁×	-8.95455
ผู้ใช้	-8.95567
000	-8.95794
นอก	-8.95874
▁1000	-8.95963
▁เกี่ยวกับ	-8.96063
ลบ	-8.96112
▁'	-8.96157
รหัส	-8.96388
กระเป๋า	-8.96663
ay	-8.96743
วันที่	-8.96827
▁ณ	-8.97024
ใบ	-8.97073
▁So	-8.97118
ถุง	-8.97134
▁ค้นหา	-8.97147
แผง	-8.97176
▁150	-8.97189
yl	-8.97219
เลเซอร์	-8.97227
แบตเตอรี่	-8.97277
▁PVC	-8.9731
เช่า	-8.97339
▁ตาม	-8.97386
การ์ด	-8.97439
▁ผง	-8.97487
▁เลือก	-8.97667
ดํา	-8.97831
▁เฮ้	-8.97896
ทิ	-8.98221
ไม่ใช่	-8.9827
ตลอด	-8.98338
รักษา	-8.98388
การออกแบบ	-8.98562
อุณหภูมิ	-8.98614
▁PDF	-8.98644
▁PP	-8.98654
▁2015	-8.98698
▁เด็ก	-8.98728
คุณภาพสูง	-8.99026
จอ	-8.99117
▁กก	-8.99117
ขัด	-8.99157
เว็บ	-8.9925
▁No	-8.9939
ซู	-8.99401
EC	-8.9942
ass	-8.99435
▁แสดง	-8.99563
po	-8.99569
ลู	-8.99678
ca	-8.99841
เนีย	-8.99882
พื้น	-8.99936
ian	-8.9995
ni	-8.99998
ซิลิโคน	-9.00054
▁แท็ก	-9.00107
ได้รับการ	-9.00131
▁USD	-9.0023
น์	-9.00244
กิน	-9.00299
ของขวัญ	-9.00368
▁31	-9.00454
ชน	-9.00831
he	-9.00881
ru	-9.00932
แพ	-9.00942
q	-9.01006
▁สมัครเล่น	-9.01011
ที่เกี่ยวข้อง	-9.01061
ลอ	-9.01126
มืออาชีพ	-9.0118
ตี	-9.01287
ดิน	-9.01324
บริสุทธิ์	-9.01332
▁ความยาว	-9.01375
▁2561	-9.01397
▁หมายเลข	-9.01468
▁ตลาดอื่น	-9.01482
อยาก	-9.01489
▁ข่าว	-9.01517
ไซ	-9.01562
▁Be	-9.01628
โย	-9.01657
▁La	-9.01843
รุ	-9.01847
-7	-9.01853
EL	-9.01863
ET	-9.01883
ติดต่อตอนนี้	-9.01945
โฆษณา	-9.01999
▁โอเชียเนีย	-9.02028
จัดส่ง	-9.02084
▁นั่น	-9.02297
ัส	-9.02325
CH	-9.02412
tic	-9.025
พระ	-9.0253
เพศ	-9.02591
▁(5	-9.02677
Ltd	-9.02691
ขวด	-9.02762
เก่า	-9.02764
ฐาน	-9.02796
▁ธันวาคม	-9.02896
400	-9.02934
RE	-9.03
แข็ง	-9.03049
▁Al	-9.03066
ัล	-9.03068
ใช้งาน	-9.032
ยึด	-9.0323
องค์กร	-9.03311
▁พวก	-9.03328
ตัวอย่าง	-9.0336
AT	-9.03386
mon	-9.03449
▁=	-9.03493
▁ปั๊ม	-9.03758
ag	-9.03793
▁พ่อ	-9.03978
▁Ba	-9.04003
เกรด	-9.04163
▁ขอบคุณ	-9.04235
กุ	-9.04296
▁Car	-9.04321
โหลด	-9.04331
ท่องเที่ยว	-9.04575
ได	-9.04575
▁กําลัง	-9.04598
mi	-9.04678
do	-9.04716
ล์	-9.04785
ล่า	-9.04866
เดิน	-9.04883
มั้ย	-9.04918
หน้าจอ	-9.0493
สิ่งแวดล้อม	-9.05016
ลวด	-9.0514
▁Machine	-9.0523
ช่อง	-9.05303
AC	-9.05313
ตร	-9.05474
บิ	-9.05497
เครื่องจักร	-9.05519
็	-9.05782
แค่	-9.05856
กล้อง	-9.05902
▁DC	-9.0608
การเดินทาง	-9.06097
ty	-9.06183
ON	-9.06299
กว้าง	-9.06524
รถไฟ	-9.06747
ควร	-9.06802
600	-9.06818
om	-9.06827
▁รีสอร์ท	-9.06864
อง	-9.06941
▁โทรศัพท์	-9.07054
ชาว	-9.07058
ตู้	-9.07095
หล่อ	-9.07278
สถานที่	-9.07412
ประโยชน์	-9.07425
AD	-9.0745
▁Mo	-9.07481
;&	-9.0749
ภ	-9.0751
นั่น	-9.07572
▁ดอก	-9.07605
tor	-9.07627
จริงๆ	-9.07891
มอเตอร์	-9.07957
da	-9.0797
โพลีเอสเตอร์	-9.08035
▁ศูนย์	-9.08042
ข่าว	-9.08125
ตาข่าย	-9.0815
900	-9.08153
ล้าง	-9.08296
ผู้หญิง	-9.08428
สวย	-9.08431
บาร์	-9.08439
▁เพิ่ม	-9.08449
ผู้ชาย	-9.0847
ko	-9.08582
สอน	-9.08643
▁ตุลาคม	-9.08745
▁6.	-9.08746
โรง	-9.09022
กีฬา	-9.09028
เกียร์	-9.09088
คง	-9.09256
เท่านั้น	-9.09257
ตอนนี้	-9.09478
ประเทศไทย	-9.09563
▁ไทย	-9.0958
นาน	-9.09597
กฎหมาย	-9.09632
▁ผู้ผลิตในจีน	-9.09731
ปลา	-9.09773
วิธี	-9.09883
จํา	-9.09893
ข้อความ	-9.10067
้อ	-9.10112
ปาก	-9.1016
หรือไม่	-9.10171
ตําแหน่ง	-9.10394
จี	-9.10479
▁หมวดหมู่	-9.10527
▁Mac	-9.10567
ft	-9.10593
เพ	-9.10708
สนับสนุน	-9.10825
เม็ด	-9.10917
▁มีนาคม	-9.10965
ver	-9.10972
รอง	-9.11014
be	-9.11206
ปลอดภัย	-9.11213
▁เซ็กส์	-9.11244
หิน	-9.11254
สนามบิน	-9.11367
▁Ma	-9.11382
ีย	-9.11399
สู่	-9.11424
แกน	-9.11473
▁(10	-9.11504
ดูด	-9.11557
▁To	-9.11662
▁ชาว	-9.11669
สถานี	-9.1177
บรรจุภัณฑ์	-9.11809
▁คุณสมบัติ	-9.1185
หมุน	-9.11978
▁ทุก	-9.12007
แต่ละ	-9.12019
การชําระเงิน	-9.12035
TA	-9.121
▁Li	-9.12137
US	-9.12163
โท	-9.12224
▁ดังนั้น	-9.12392
คุ	-9.1264
แบ	-9.12693
EX	-9.12696
▁ญี่ปุ่น	-9.12756
ส่วนตัว	-9.12801
อัด	-9.12864
โ	-9.12943
บันทึก	-9.12991
ee	-9.13021
แสงอาทิตย์	-9.1307
ดอกไม้	-9.13136
ance	-9.13141
TC	-9.1316
▁2560	-9.13198
ตะ	-9.13285
บอร์ด	-9.13353
▁29	-9.1338
▁CNC	-9.1341
ฮิ	-9.13424
อาร์	-9.13446
ไฮดรอลิก	-9.13635
▁For	-9.13783
พนักงาน	-9.13813
ที่ผ่านมา	-9.13836
เจาะ	-9.13899
ตก	-9.13908
▁พฤศจิกายน	-9.13978
▁ถูก	-9.14007
เยี่ยม	-9.1401
ลักษณะ	-9.14025
เนื้อ	-9.14239
แฟชั่น	-9.14269
ชาร์จ	-9.14351
able	-9.14417
สัมผัส	-9.14509
▁มาแล้ว	-9.14553
นี	-9.14568
ป่า	-9.14665
▁Hotel	-9.1486
การติดตั้ง	-9.14866
IT	-9.14895
ure	-9.14985
▁120	-9.15066
ในปี	-9.15186
au	-9.1529
ไฟเบอร์	-9.1549
ข้าว	-9.15549
chi	-9.1555
▁เกมส์	-9.15603
ตัน	-9.1561
ps	-9.15623
TM	-9.15666
▁จุด	-9.15695
ถ	-9.15699
เบอร์	-9.15702
ความดัน	-9.15738
เตียง	-9.15816
▁Ro	-9.15841
โบ	-9.15864
ที่คุณ	-9.15999
ber	-9.16015
ต่อไป	-9.16035
เวอร์	-9.16099
ING	-9.16101
ts	-9.16282
800	-9.16333
สื่อ	-9.16407
่ม	-9.16442
คะ	-9.16533
ator	-9.16539
ษ	-9.16611
▁อัตรา	-9.16714
รางวัล	-9.16728
▁(4	-9.16771
▁ค่า	-9.16858
▁แผง	-9.16867
▁de	-9.16996
ทองแดง	-9.17023
▁กันยายน	-9.17067
MS	-9.17174
▁กุมภาพันธ์	-9.1721
หน่อย	-9.17238
พืช	-9.17299
▁90	-9.17323
▁สิ่ง	-9.17396
▁วาล์ว	-9.17404
▁www	-9.17408
ยู	-9.17587
พัน	-9.17592
io	-9.17619
ick	-9.17726
ตั้ง	-9.17735
▁พระเจ้า	-9.17741
’	-9.17771
tra	-9.17808
สิ่งที่	-9.17833
ขน	-9.17848
แทน	-9.17912
▁ครั้งที่เข้าดู	-9.18083
เชื่อ	-9.18196
▁กลุ่ม	-9.18202
▁St	-9.18516
▁·	-9.18532
ประสบการณ์	-9.18603
หนา	-9.18679
เครื่องยนต์	-9.18682
มะ	-9.18732
▁BookingSuite	-9.18745
▁มาตรฐาน	-9.18749
หนัก	-9.1878
▁ห้องนอน	-9.18782
oo	-9.18791
old	-9.18928
สกรู	-9.18937
bi	-9.18967
การแข่งขัน	-9.19025
กลับ	-9.19083
▁Po	-9.19226
การรักษา	-9.19238
AP	-9.19344
เตรียม	-9.19403
▁He	-9.1941
เซอร์	-9.19444
แขน	-9.19471
ทุกคน	-9.19584
▁Booking	-9.19606
▁Gr	-9.19625
บอล	-9.19628
ทั่วโลก	-9.19736
LE	-9.19907
▁คํา	-9.19916
ผิด	-9.19949
ห์	-9.20027
เต	-9.20096
▁ธ	-9.20129
เคย	-9.20195
▁มกราคม	-9.20212
ES	-9.20247
9001	-9.2026
รอย	-9.20267
รส	-9.20275
ฟัน	-9.20381
ซี่	-9.20407
▁32	-9.20426
▁เมษายน	-9.20464
จน	-9.20605
ให้กับ	-9.20639
ความเร็ว	-9.20794
มุม	-9.2082
ตัวเอง	-9.20935
กรด	-9.20949
วน	-9.21032
▁45	-9.21048
▁Light	-9.2111
ID	-9.21164
ร่างกาย	-9.21182
ki	-9.21218
ทรง	-9.21228
นม	-9.21235
มหาชน	-9.21378
อิน	-9.21465
ตอน	-9.21485
▁ทําไม	-9.21493
art	-9.21857
คาสิโน	-9.21896
สเตอร์	-9.22054
▁An	-9.22087
อาจ	-9.22206
สุนัข	-9.22233
ue	-9.22246
ดูแล	-9.22392
▁(6	-9.2245
TV	-9.22552
เทียน	-9.2257
ประหยัด	-9.22594
ปา	-9.22702
บุคคล	-9.22957
▁ติดต่อ	-9.22978
ron	-9.23019
▁All	-9.23162
ST	-9.23187
▁เล่น	-9.23188
ไม	-9.23194
โจ	-9.2334
ราช	-9.2339
ก่อสร้าง	-9.23467
▁250	-9.23512
▁iPhone	-9.2358
ถัง	-9.23581
ไฮ	-9.23639
▁35	-9.23677
ภายนอก	-9.23693
▁Hot	-9.23732
▁อาคาร	-9.23758
ium	-9.23856
การพิมพ์	-9.23886
สํานักงาน	-9.23909
▁องศา	-9.23956
▁Sa	-9.24
ตรา	-9.24045
ภาษาอังกฤษ	-9.24088
แจ้ง	-9.24119
ack	-9.2412
ดัง	-9.24177
โปร	-9.24306
บท	-9.2439
▁ชาย	-9.24436
ปล่อย	-9.24453
▁ร้าน	-9.24463
ast	-9.24515
su	-9.24529
ห้องพัก	-9.24541
ish	-9.24563
สัญญา	-9.2457
ชนะ	-9.2461
▁มิถุนายน	-9.24745
มอง	-9.24809
NA	-9.24828
700	-9.24832
การตรวจสอบ	-9.24836
ace	-9.24879
แอ	-9.25075
▁ทั้งหลาย	-9.25161
vi	-9.25168
สไตล์	-9.25213
ฮ	-9.25249
การจัดการ	-9.2529
สมัคร	-9.2531
ปัญหา	-9.25379
lic	-9.25381
สีแดง	-9.25535
-9	-9.2566
UN	-9.257
ตี้	-9.25765
DE	-9.25924
ไร้สาย	-9.25978
กรอบ	-9.26008
ดําเนินการ	-9.26047
ทีวี	-9.26102
ust	-9.26105
OP	-9.26225
ไบ	-9.26299
▁กล้อง	-9.26301
หรอก	-9.26308
pl	-9.26402
eng	-9.26451
ช่วง	-9.26456
SE	-9.26554
กาแฟ	-9.26658
▁Th	-9.26674
"&	-9.26713
น้ําหนัก	-9.26816
พีวีซี	-9.2691
จักรยาน	-9.26937
▁สถานที่	-9.26944
▁บรรจุภัณฑ์	-9.26993
หนังสือ	-9.27062
สั้น	-9.27157
ภายใต้	-9.27159
cm	-9.27216
พ่อ	-9.27236
▁ความหนา	-9.27254
เท่า	-9.27287
คําถาม	-9.27368
ปัจจุบัน	-9.27548
▁เครื่องตัด	-9.27603
็ก	-9.27619
ครอบครัว	-9.27741
การพัฒนา	-9.27775
โทรศัพท์มือถือ	-9.27804
▁เยน	-9.27973
ฯ	-9.2804
ประชุม	-9.28061
เข้าใจ	-9.28161
แน่น	-9.2817
od	-9.28245
ฆ่า	-9.28292
ak	-9.28385
▁เขต	-9.28394
ka	-9.28401
สายไฟ	-9.28485
แมน	-9.28516
we	-9.28594
net	-9.28623
รองรับ	-9.28715
▁สิงหาคม	-9.28783
พัก	-9.28791
ight	-9.28831
-12	-9.28968
▁ช่วง	-9.29104
ina	-9.29158
ies	-9.29187
▁ช่อง	-9.29188
▁อุณหภูมิ	-9.2932
รัสเซีย	-9.29325
▁นโยบาย	-9.29369
เพชร	-9.29403
กระบวนการ	-9.29427
▁พื้นที่	-9.29432
▁เม	-9.29454
MC	-9.29454
คิ	-9.29497
มอบ	-9.29504
▁นัก	-9.2969
▁พวกเขา	-9.29741
▁กิโลกรัม	-9.29753
▁ร้อน	-9.29839
ต่างประเทศ	-9.29849
ยาย	-9.29859
ไล	-9.29905
tion	-9.29911
▁ตัน	-9.29932
ธิ	-9.29943
สีเหลือง	-9.29943
▁หัว	-9.29991
พื้นฐาน	-9.29994
▁Qu	-9.29999
เอส	-9.30013
อัตรา	-9.3006
▁2014	-9.30071
แก้ไข	-9.30134
เส้น	-9.30149
▁รีวิว	-9.30208
ลิน	-9.3021
คอน	-9.30226
แบบพกพา	-9.3024
port	-9.3028
ster	-9.30284
▁ล้าน	-9.30294
▁สีดํา	-9.30368
▁Ar	-9.3043
▁อลูมิเนียม	-9.30501
สีเขียว	-9.30554
เมล็ด	-9.30616
มีการ	-9.3064
สังคม	-9.30644
▁ทําให้	-9.30665
ศาสตร์	-9.30817
แต่	-9.30825
are	-9.30862
PC	-9.30871
นวด	-9.30981
ระบุ	-9.31012
ner	-9.31029
▁for	-9.3109
สม	-9.31092
▁แก่	-9.31109
▁ซื้อ	-9.31153
โอกาส	-9.31161
▁ที่อยู่	-9.3118
ou	-9.31234
cl	-9.31271
kg	-9.31284
▁600	-9.31341
ไว	-9.31341
▁จึง	-9.31347
บุ	-9.31367
▁ครอบครัว	-9.3143
▁ติดต่อเรา	-9.31477
ard	-9.31479
ก็ได้	-9.31484
พวก	-9.31491
ติดตาม	-9.31579
อย่างไร	-9.31612
ถือ	-9.3162
hu	-9.31762
PS	-9.31786
ที่ไม่	-9.3179
แบรนด์	-9.31808
ยอด	-9.31821
นับ	-9.31824
แท้	-9.31838
ix	-9.3185
▁โปรแกรม	-9.31954
บ้า	-9.32152
สอบถาม	-9.32282
ฉีด	-9.32371
ตัวเลือก	-9.32378
▁ประตู	-9.32403
ED	-9.32406
เลี้ยง	-9.32413
▁คลิก	-9.3248
ug	-9.3249
ระยะ	-9.32522
ฟิล์ม	-9.3269
ฮา	-9.32719
▁แคริบเบียน	-9.32733
แบน	-9.32827
ผลไม้	-9.32829
▁ดํา	-9.32838
ต้า	-9.32906
vo	-9.32966
150	-9.3303
▁ตู้	-9.33075
▁Lo	-9.33078
ยาก	-9.33084
ase	-9.33285
dy	-9.33299
TS	-9.33311
ความคิดเห็น	-9.33404
▁PC	-9.33415
กร	-9.33473
▁Google	-9.335
▁โปรด	-9.33548
รีด	-9.3355
อน	-9.33577
ขึ้นรูป	-9.33697
TO	-9.33721
ดี้	-9.33726
มากขึ้น	-9.33741
▁กม	-9.33798
ัย	-9.3392
0.0	-9.33962
นําเสนอ	-9.33991
ออ	-9.34016
สะ	-9.34071
ัง	-9.34297
▁2013	-9.34383
ทุน	-9.34388
▁สร้าง	-9.34389
ประกอบด้วย	-9.34396
หน้าต่าง	-9.34453
ู	-9.34503
ความถี่	-9.34503
ฟิ	-9.34645
ฟา	-9.3467
▁Mar	-9.3467
ปริมาณ	-9.34749
่น	-9.34769
sion	-9.34814
pp	-9.34836
เชิง	-9.34942
gu	-9.34991
▁องค์	-9.35087
สนาม	-9.35098
▁หนัง	-9.35122
จะมี	-9.35142
▁Ex	-9.35242
lay	-9.35272
ake	-9.35312
ens	-9.35339
les	-9.35346
ย่อ	-9.35383
เข้าชม	-9.35393
▁กรกฎาคม	-9.35406
▁คุณสามารถ	-9.35466
ISO	-9.35504
CO	-9.35509
มีความ	-9.35515
ิก	-9.35517
int	-9.3554
▁รูป	-9.35581
▁ลด	-9.35583
กาย	-9.35593
ตัวแทน	-9.35628
งค์	-9.35636
ก๊าซ	-9.35641
๋	-9.35726
®	-9.35785
คาร์บอน	-9.35791
กาว	-9.35791
▁หาก	-9.35848
ปลาย	-9.3588
คัน	-9.35927
pi	-9.35986
nd	-9.36033
▁kgm	-9.36041
หลอด	-9.36075
อันดับ	-9.36118
เสื้อผ้า	-9.36121
สัก	-9.36133
▁โคมไฟ	-9.36164
▁เว็บไซต์	-9.36274
▁Air	-9.36357
tal	-9.36371
▁PE	-9.36395
อั	-9.36401
ด่วน	-9.36431
ke	-9.36565
สเต	-9.36603
เมนู	-9.3666
ran	-9.36666
ยุโรป	-9.36679
ราง	-9.36721
ob	-9.36727
มม	-9.36796
ice	-9.36805
▁Berry	-9.36816
ตรวจ	-9.36821
▁ทั้ง	-9.36869
PE	-9.36947
เปอร์	-9.36989
หมายถึง	-9.37034
เกาหลี	-9.37072
ค่าใช้จ่าย	-9.3709
#	-9.37104
แพทย์	-9.37147
เหลือ	-9.3717
▁การค้า	-9.37193
อย	-9.37216
ศิลปะ	-9.37323
▁อายุ	-9.37324
▁ยัง	-9.37464
▁UL	-9.37607
▁การออกแบบ	-9.37623
ออกไป	-9.37626
oc	-9.37642
กุหลาบ	-9.37716
แผน	-9.37813
มนุษย์	-9.37821
▁ต้อง	-9.37846
▁ออก	-9.37886
แม่เหล็ก	-9.37912
จึง	-9.37933
ของลูกค้า	-9.38006
ศูนย์	-9.38011
บริหาร	-9.38013
qu	-9.38068
ซะ	-9.38111
▁Ha	-9.3814
เหมือน	-9.38144
ml	-9.38151
ana	-9.38213
ฝุ่น	-9.38231
เดอร์	-9.38241
▁CAS	-9.38249
เขต	-9.38273
▁Un	-9.38383
เที่ยว	-9.38422
ger	-9.38511
▁บุคคลทั่วไป	-9.38543
▁start	-9.38564
เมตร	-9.3857
เอ็ม	-9.38655
▁โครงการ	-9.38671
โรงเรียน	-9.3868
▁กิจกรรม	-9.38715
สัปดาห์	-9.38743
เถอะ	-9.38746
mp	-9.38795
สี่	-9.38816
▁LTD	-9.3882
วันนี้	-9.38849
ือ	-9.38863
โครงสร้าง	-9.38996
เดิม	-9.39028
Hz	-9.39045
ler	-9.39076
หวาน	-9.3908
120	-9.39118
สุดท้าย	-9.3914
เกลียว	-9.39178
▁เกี่ยวกับการขาย	-9.3921
แตก	-9.39234
▁Di	-9.39263
รับรอง	-9.39306
รู้สึก	-9.39322
ธนาคาร	-9.39332
เลีย	-9.39348
เส	-9.39362
คาร์	-9.39432
▁ขวด	-9.39476
เยอรมัน	-9.3953
▁(1)	-9.39556
ดอก	-9.3956
ade	-9.39575
end	-9.3958
GB	-9.39618
หมายเลข	-9.39676
ร้อง	-9.39678
uck	-9.39818
TR	-9.3983
นก	-9.39854
ขณะ	-9.39874
ng	-9.39934
รองเท้า	-9.40019
▁400	-9.40137
ดื่ม	-9.40151
เส้นทาง	-9.40303
▁dur	-9.40414
เข้าร่วม	-9.40423
▁มอเตอร์	-9.4049
▁คู่มือ	-9.40545
▁สถานี	-9.4057
เลือด	-9.40658
มาร์	-9.40731
สั่ง	-9.40731
ทาน	-9.40732
▁SS	-9.40748
สํารอง	-9.40804
▁ระยะเวลา	-9.40829
หน่วย	-9.41006
สนุก	-9.41031
ทีม	-9.41066
กล	-9.41075
▁SA	-9.41095
สะดวก	-9.41109
มินิ	-9.41111
▁Pa	-9.41117
เครื่องดื่ม	-9.41375
CE	-9.41438
ขา	-9.41498
▁ลิตร	-9.41506
ผ้าฝ้าย	-9.4156
พับ	-9.41572
สอบ	-9.41594
fa	-9.41677
ทําการ	-9.41696
รู้จัก	-9.41761
จู	-9.41767
sta	-9.41783
การป้องกัน	-9.41837
แม่พิมพ์	-9.41856
▁ข้า	-9.419
110	-9.41987
▁LCD	-9.42
▁ปิด	-9.4205
OD	-9.42056
การทดสอบ	-9.42186
สายเคเบิล	-9.42227
▁แบรนด์	-9.42239
▁สอง	-9.42278
ound	-9.42411
ชิ้น	-9.42432
▁เรามี	-9.42433
คิดว่า	-9.42546
▁1.5	-9.42586
ยิง	-9.42615
บั	-9.42742
▁จง	-9.42775
สถาน	-9.42782
ไม่สามารถ	-9.42806
low	-9.42815
▁ASTM	-9.42862
▁ชิ้นส่วน	-9.42874
วงจร	-9.42939
ME	-9.42947
ศึกษา	-9.42985
▁ประเภทผลิตภัณฑ์	-9.4303
การประชุม	-9.43034
โฟม	-9.43081
็อ	-9.43126
▁ระดับ	-9.43195
ประจํา	-9.43205
140	-9.43226
ก่อนหน้า	-9.43271
▁สาร	-9.43288
ประจําปี	-9.43316
OR	-9.43408
จาน	-9.43485
เดียวกัน	-9.43498
CP	-9.43533
ไปที่	-9.43537
▁SC	-9.43567
▁ซา	-9.43618
▁High	-9.43619
อก	-9.43641
▁แห่ง	-9.43643
รั้ว	-9.43644
ื	-9.43654
ear	-9.43684
ud	-9.43704
ไ	-9.43842
MM	-9.43846
ตรวจจับ	-9.43905
สตรี	-9.43952
ny	-9.43959
ร้าย	-9.43975
▁หญิง	-9.44017
หอ	-9.44129
พอ	-9.44135
▁อี	-9.44141
ฟังก์ชั่น	-9.44147
yo	-9.44214
ท้อง	-9.44215
ขึ้นไป	-9.44266
การตลาด	-9.44326
▁ออกแบบ	-9.44385
เคมี	-9.44398
ขอบ	-9.44463
เทศกาล	-9.44504
▁ผล	-9.4461
เนอร์	-9.44705
พลัง	-9.44747
▁Power	-9.44784
การเชื่อมต่อ	-9.44804
เชียงใหม่	-9.44828
▁มันเป็น	-9.44873
ect	-9.44904
▁ตอนนี้	-9.44909
IR	-9.44919
▁Technology	-9.44967
▁http	-9.44987
ชู	-9.45019
หยุด	-9.45032
บังคับ	-9.45072
▁เซ็กซี่	-9.45076
ock	-9.45106
นักเรียน	-9.45123
TH	-9.45175
▁สาขา	-9.4521
ร่า	-9.45301
เนื้อหา	-9.4537
▁\	-9.45411
▁กรุงเทพฯ	-9.45424
▁Cl	-9.45442
ความต้องการ	-9.45584
SI	-9.45654
อีเมล	-9.45667
▁กรุณา	-9.45704
IP	-9.45715
คะแนน	-9.4587
เส้นผ่าศูนย์กลาง	-9.45918
อิสระ	-9.46015
▁ความจุ	-9.46018
สหรัฐอเมริกา	-9.46048
ลํา	-9.46049
ting	-9.46055
▁รูปภาพ	-9.46074
▁พฤษภาคม	-9.46093
ฟ้า	-9.46102
▁เทคโนโลยี	-9.46143
・	-9.46152
ให้คุณ	-9.46153
ค้นหา	-9.46163
▁ไม่ใช่	-9.46184
▁จังหวัด	-9.46196
▁บาร์	-9.46207
เชื้อ	-9.46211
▁(11	-9.46214
ด้านบน	-9.46292
วิ่ง	-9.46292
▁Mi	-9.46293
แก	-9.46306
กรรม	-9.46392
ฟุตบอล	-9.46401
หลังคา	-9.46467
มาจาก	-9.46522
เติม	-9.46565
▁70	-9.4659
ข้าม	-9.46698
ยอดนิยม	-9.46731
▁แบตเตอรี่	-9.46764
way	-9.46769
เสนอ	-9.46795
กําจัด	-9.46812
ถ้า	-9.46851
้ว	-9.46891
line	-9.469
ลุ	-9.46944
โฮ	-9.46982
ลูกกลิ้ง	-9.46991
mer	-9.47016
ช่าง	-9.47021
บาท	-9.47033
อาการ	-9.47097
less	-9.47099
log	-9.47114
พร	-9.47119
หนู	-9.4719
พื้นผิว	-9.47201
วะ	-9.47211
out	-9.47331
▁เว็บไซต์ทางการ	-9.47371
▁(7	-9.47506
เรีย	-9.47602
▁Na	-9.47604
▁Do	-9.4763
RO	-9.47695
เหล่านี้	-9.47795
▁VPN	-9.47804
car	-9.47844
เซีย	-9.47856
ji	-9.47921
ลงทะเบียน	-9.48042
pr	-9.48098
สาขา	-9.4823
อัปโหลดโดย	-9.48302
รวมถึง	-9.48324
▁0.5	-9.48339
การจัดส่ง	-9.48456
ราคาถูก	-9.48559
▁หน่วย	-9.48563
สถาบัน	-9.48567
เจอ	-9.48613
app	-9.48642
ซอฟต์แวร์	-9.48662
▁หลังจาก	-9.48694
ิง	-9.48714
ฟัง	-9.48722
ci	-9.48724
โตเกียว	-9.48829
CC	-9.48897
ated	-9.48944
ฉนวน	-9.48972
เสร็จ	-9.48998
รัฐ	-9.49004
หลังจาก	-9.49041
และการสนับสนุน	-9.49146
OL	-9.49182
air	-9.49196
▁กระดาษ	-9.49329
▁มือสมัครเล่น	-9.49377
▁PCB	-9.49401
han	-9.49505
รักษาความปลอดภัย	-9.49544
▁GPS	-9.4956
▁ช่วย	-9.49589
ตั๋ว	-9.49592
ฮอ	-9.49646
▁ขั้นตอน	-9.4976
ถัดไป	-9.49797
หัวใจ	-9.49813
เปล่า	-9.49814
▁ข้อมูลจําเพาะ	-9.49914
ตาราง	-9.49973
-15	-9.50006
การค้า	-9.5007
ไท	-9.50083
นั่ง	-9.50115
▁Black	-9.50129
วิว	-9.50169
Guangdong	-9.50275
่อ	-9.50291
▁ภาษา	-9.50305
▁App	-9.50339
▁รูปแบบ	-9.50339
สําหรับเด็ก	-9.50443
หลอดไฟ	-9.50453
▁Led	-9.50537
fi	-9.50552
ที่จอดรถ	-9.50583
▁ตาราง	-9.50608
▁เจ	-9.50613
our	-9.50646
แพลตฟอร์ม	-9.50658
ร้านค้า	-9.50698
ทิ้ง	-9.50739
บ้าง	-9.50758
ยอมรับ	-9.50763
การควบคุม	-9.50785
NS	-9.50837
ทันที	-9.50887
ปิ	-9.50926
con	-9.50954
br	-9.50975
ตน	-9.51031
อยู่ที่	-9.51093
มูลค่า	-9.5111
ฝ่าย	-9.51112
▁(20	-9.51117
▁ล้อ	-9.51126
อาบน้ํา	-9.51142
กี้	-9.51142
หมด	-9.51172
คุกกี้	-9.51264
นานาชาติ	-9.51279
ถาม	-9.51318
แปล	-9.5134
ทราบ	-9.51381
▁2012	-9.51385
▁เยโฮ	-9.51401
SP	-9.51403
ที่พัก	-9.51415
▁เพื่อน	-9.5145
▁Pre	-9.51456
Hebei	-9.51477
ยังไง	-9.51482
▁เค	-9.51585
▁เตียง	-9.51863
บริเวณ	-9.51874
พอร์ต	-9.51887
▁36	-9.51927
ve	-9.51948
เซิร์ฟเวอร์	-9.51963
ขนส่ง	-9.52062
ey	-9.52069
▁ซึ่งเป็น	-9.52118
จะเป็น	-9.5212
ความชื้น	-9.52164
ข้า	-9.5218
II	-9.5221
www	-9.52259
▁ของเล่น	-9.52293
โดยใช้	-9.5234
▁ข้าพเจ้า	-9.52352
▁โรงงานขายส่ง	-9.52389
เพิ่มขึ้น	-9.52444
รร	-9.52451
ประกัน	-9.52502
โลโก้	-9.52514
ของเขา	-9.52517
▁เดอะ	-9.52553
ขอโทษ	-9.52553
รีไซเคิล	-9.52682
▁เอ่อ	-9.52746
หาด	-9.5279
ste	-9.52798
หรอ	-9.52812
-25	-9.52842
อล	-9.52856
▁นํา	-9.52908
กล่าว	-9.52976
PA	-9.53065
แซ	-9.53079
▁ได้รับ	-9.53096
กระแส	-9.53109
ling	-9.5318
ทราย	-9.53393
เฉลี่ย	-9.53447
ความงาม	-9.53456
▁เทียน	-9.53492
ระเบิด	-9.53508
ครู	-9.53528
▁สาม	-9.53538
เข้าไป	-9.53577
อาจจะ	-9.53651
▁220	-9.53703
▁คะแนน	-9.53713
สามารถใช้	-9.53724
เกาะ	-9.53817
นุ่ม	-9.53858
คณะ	-9.53914
res	-9.54116
▁อะไหล่	-9.54121
▁New	-9.54142
▁ปริมาณ	-9.54168
ขับ	-9.54181
ชี	-9.54181
แปลก	-9.54218
▁เครื่องวัด	-9.54284
▁Tags	-9.54288
▁ลบ	-9.54329
สมบูรณ์	-9.54341
แรงดัน	-9.54359
▁by	-9.54421
▁รองเท้า	-9.54463
ล่วงหน้า	-9.54473
AI	-9.54497
ครัว	-9.54549
▁We	-9.5472
สีชมพู	-9.54738
▁ผู้ใหญ่	-9.54752
การทํา	-9.5481
ทนทาน	-9.54866
▁แรงดันไฟฟ้า	-9.54876
ลล์	-9.54903
ิต	-9.54975
มู	-9.5501
พล	-9.55029
ไทเทเนียม	-9.55231
▁อีเมล	-9.5532
เข้ม	-9.55375
สิทธิ	-9.55419
วิเคราะห์	-9.55421
ica	-9.5552
ครีม	-9.55555
▁เบ	-9.55611
▁ฉันจะ	-9.55622
เจอร์	-9.55632
▁US	-9.55635
ถูกต้อง	-9.55712
ook	-9.55818
โป	-9.55859
▁วินาที	-9.55861
ile	-9.55869
วิธีการ	-9.55889
ร่วมกับ	-9.55912
เมีย	-9.55925
ort	-9.55975
เปิดตัว	-9.5599
\	-9.56008
0000	-9.56013
▁เครื่องจักร	-9.56043
▁ABS	-9.5606
ทหาร	-9.56098
lin	-9.56109
เกอร์	-9.56121
การท่องเที่ยว	-9.56229
ja	-9.56239
สิทธิ์	-9.56251
-30	-9.56264
ขั้นตอน	-9.56273
เมอร์	-9.56299
▁ฮาร์ดคอร์	-9.56307
ครอบคลุม	-9.56348
ปืน	-9.56354
▁หนุ่ม	-9.56432
ส่วนใหญ่	-9.56449
จังหวัด	-9.56582
ส่งออก	-9.56598
จัดหา	-9.56665
Name	-9.56723
act	-9.56825
Fi	-9.56868
▁Test	-9.56873
ชําระ	-9.56913
fl	-9.56928
▁เป็นต้น	-9.56942
$	-9.56951
▁ใคร	-9.56991
จะต้อง	-9.57011
▁ได้แก่	-9.57043
▁โมดูล	-9.57103
็ค	-9.57171
ลอง	-9.5727
เพื่อความร่วมมือ	-9.57281
▁มองไปข้างหน้า	-9.5732
จา	-9.57336
โอน	-9.57347
CT	-9.57363
▁เราเป็นผู้ผลิตเ	-9.57371
▁วิทยาลัย	-9.57386
การแสดง	-9.57389
เข้ามา	-9.574
บริการที่สมบูรณ์	-9.57425
▁ตัวอย่าง	-9.57484
รถบรรทุก	-9.57528
ene	-9.57533
▁ดอกไม้	-9.5756
▁ตัวเลือก	-9.57565
ผัก	-9.57573
▁ประมาณ	-9.57597
ฉพาะจากประเทศจีน	-9.57668
เกร	-9.57706
▁ตร	-9.57767
▁และการผลิตเรามี	-9.57773
อบ	-9.57802
น้ําตาล	-9.57823
▁ประเภทสินค้าของ	-9.57828
แบบหลังการขาย	-9.57889
ating	-9.57894
ผู้ใหญ่	-9.57913
▁Super	-9.57972
ขวา	-9.57977
ทุกวัน	-9.58045
▁ชม	-9.5808
gen	-9.58097
จดหมาย	-9.58103
มอน	-9.58127
rea	-9.58138
▁ago	-9.58152
คูปอง	-9.58196
รถบัส	-9.58224
ประสิทธิภาพ	-9.58244
แล	-9.58318
▁0.1	-9.58336
ไวน์	-9.58425
วิน	-9.58458
vel	-9.58461
แนว	-9.5848
ino	-9.58506
▁Tube	-9.58545
▁น่ารัก	-9.58611
เลื่อน	-9.58734
กระจาย	-9.58743
ok	-9.58746
๊ก	-9.5885
▁สัปดาห์	-9.58853
เสา	-9.5889
ox	-9.58978
▁UV	-9.58979
ัญ	-9.59014
oy	-9.59031
=	-9.59076
fo	-9.59093
▁Fe	-9.59189
อํานาจ	-9.5924
เฟส	-9.59269
166	-9.59364
▁Auto	-9.59414
ดัด	-9.59422
สิงคโปร์	-9.59443
ธรรม	-9.59455
สเปน	-9.59456
เป้าหมาย	-9.59486
▁เสื้อ	-9.59499
▁(12	-9.5951
ออสเตรเลีย	-9.5954
▁เครื่องพิมพ์	-9.59547
มากมาย	-9.59559
▁พัทยา	-9.59577
-01	-9.5962
RI	-9.59715
้ม	-9.59716
▁2010	-9.59741
ตัวอักษร	-9.59759
so	-9.59842
▁Lu	-9.5988
day	-9.59901
จบ	-9.59932
และอื่น	-9.6001
▁Wi	-9.6002
ous	-9.60028
เข็ม	-9.60066
▁ห้องน้ํา	-9.60073
▁กรณี	-9.60088
▁ความกว้าง	-9.60229
ในร่ม	-9.60231
▁แบรนด์ชั้นนํา	-9.60291
az	-9.6034
คอนกรีต	-9.60403
ไก่	-9.60517
org	-9.6053
ฝ	-9.60535
RS	-9.60645
▁Line	-9.6069
โพลี	-9.60715
บล็อก	-9.60718
ทุกอย่าง	-9.60723
การสนับสนุน	-9.60762
▁นี่คือ	-9.60769
▁แอ	-9.60826
2019	-9.60857
ทัวร์	-9.60869
คลับ	-9.60871
ความเป็นส่วนตัว	-9.60911
250	-9.60984
▁PU	-9.60986
MO	-9.61077
▁Ho	-9.61114
มุ	-9.61115
▁ห้องพัก	-9.61138
กลับมา	-9.61157
▁รหัสสินค้า	-9.61191
ก้า	-9.6121
ไหน	-9.61222
▁En	-9.61239
ที่ตั้ง	-9.6128
ดีที่สุด	-9.61322
▁Products	-9.61363
ในประเทศ	-9.61405
พุ	-9.61427
▁48	-9.61498
pan	-9.61535
เซ็นเซอร์	-9.61556
▁งั้น	-9.61591
วาด	-9.6161
บอกว่า	-9.61611
▁บลอนด์	-9.61612
USD	-9.61676
คลื่น	-9.61683
ใกล้	-9.61693
ชาติ	-9.61699
▁Poly	-9.61701
แป้ง	-9.61788
ยินดี	-9.6179
ครั้งแรก	-9.61795
บอ	-9.61811
▁●	-9.61823
own	-9.6184
TE	-9.61912
อํานวยความสะดวก	-9.62006
แฮ	-9.62027
ข้อมูลเพิ่มเติม	-9.62044
แลนด์	-9.62057
ture	-9.62081
ค์	-9.62087
อินทรีย์	-9.62107
▁คอนโด	-9.62196
▁ลวด	-9.62221
ด้านล่าง	-9.62353
LTD	-9.62368
ชุบ	-9.6241
ในช่วง	-9.62416
โพ	-9.62456
▁เหมาะสําหรับ	-9.62474
▁เว็บแคม	-9.62487
shi	-9.62519
เกิน	-9.62549
เสื้อ	-9.62564
เกิดขึ้น	-9.62583
อเมริกัน	-9.62613
▁30%	-9.62626
อสังหาริมทรัพย์	-9.62637
▁รอบ	-9.62843
▁แผนที่	-9.62873
▁ตอน	-9.62905
FC	-9.62905
โซ่	-9.62928
▁2011	-9.62967
สบาย	-9.63095
นาม	-9.63097
EA	-9.63115
▁10%	-9.63128
ความเร็วสูง	-9.63167
▁(9	-9.6317
ย้าย	-9.63172
อม	-9.63185
}	-9.63204
คณะกรรมการ	-9.63204
▁Bangkok	-9.63248
กุญแจ	-9.63293
คําสั่ง	-9.63304
ence	-9.63333
PP	-9.63427
▁THB	-9.63548
▁โปรโมชั่น	-9.63643
▁โรงเรียน	-9.63673
เครื่องประดับ	-9.63698
▁สํานักงาน	-9.63751
กระเบื้อง	-9.63768
ธา	-9.6391
ash	-9.63962
ราว	-9.64116
cu	-9.64124
เบรค	-9.64182
หมวก	-9.64211
ประกาศ	-9.64381
▁800	-9.64452
▁Thai	-9.64463
ปรากฏ	-9.64527
▁2000	-9.64574
กลิ่น	-9.64657
บด	-9.64725
▁เงื่อนไข	-9.64725
เป็นผู้เชี่ยวชาญ	-9.64728
พยาบาล	-9.64786
AB	-9.64801
ความหนา	-9.64869
จะไม่	-9.64894
1.0	-9.64909
เตา	-9.64967
นัน	-9.64975
mail	-9.65029
ได้อย่าง	-9.6504
ya	-9.65056
ช่วยให้	-9.65057
เซลล์	-9.65146
การจัด	-9.65155
che	-9.65156
NO	-9.65267
In	-9.65334
ขายส่ง	-9.65347
แต่ง	-9.65376
ตั	-9.65399
PT	-9.65443
ปรับแต่ง	-9.65505
ไร้	-9.65542
อย่างเป็นทางการ	-9.6565
-00	-9.65654
โมดูล	-9.65669
▁มิลลิเมตร	-9.65696
BO	-9.65717
จํากัด	-9.65721
MI	-9.65738
▁ไอ	-9.65761
คอม	-9.65772
ย่อย	-9.65773
▁Bra	-9.65832
▁Ni	-9.65845
การตั้งค่า	-9.65862
ั่น	-9.65882
▁ตั้งแต่	-9.65927
รม	-9.65941
▁ชื่อสินค้า	-9.65973
1000	-9.65986
ท่า	-9.66021
▁ภาษาไทย	-9.66043
วิทยาศาสตร์	-9.66056
ا	-9.66108
▁ความคิดเห็น	-9.66147
ree	-9.66154
ปุ่ม	-9.66175
▁110	-9.66177
BA	-9.66191
กลม	-9.66193
▁2559	-9.66202
▁Tri	-9.6623
โดยตรง	-9.66296
▁Ra	-9.66353
▁เฮ	-9.66394
ทําอะไร	-9.66432
EM	-9.66534
ฉุกเฉิน	-9.66556
ปู	-9.66581
▁Str	-9.66634
นุ	-9.6665
ail	-9.66659
▁สวน	-9.66698
ที่อยู่	-9.66699
นําเข้า	-9.66704
แลกเปลี่ยน	-9.66752
อาทิตย์	-9.66791
การเปลี่ยนแปลง	-9.66838
▁05:	-9.66841
form	-9.6686
ขึ้นอยู่กับ	-9.66878
ชิป	-9.66898
pro	-9.6693
เฉ	-9.66944
ผู้จัดจําหน่าย	-9.66954
▁Man	-9.66975
▁Gu	-9.66978
มหา	-9.67075
โดยสาร	-9.67081
ทดลอง	-9.67111
ไดรฟ์	-9.67134
ยืน	-9.67157
▁ที่มีคุณภาพสูง	-9.67212
แผนที่	-9.67219
ธรรมดา	-9.67269
กรณี	-9.67327
สถานะ	-9.67348
cr	-9.67381
▁รองรับ	-9.67407
จนถึง	-9.67411
ave	-9.67452
เอ็น	-9.6747
ea	-9.67532
ได้รับการรับรอง	-9.67567
2017	-9.67589
ใช่	-9.67663
▁เลขที่	-9.67666
การขาย	-9.67676
ทน	-9.67677
วันหยุด	-9.67682
เทคนิค	-9.67702
หี	-9.67706
iss	-9.67724
ถ่าย	-9.67815
วิทยา	-9.67829
แน่	-9.67846
เชือก	-9.67855
▁Su	-9.67862
จุ	-9.67895
PO	-9.67923
let	-9.67973
นิว	-9.6799
โบนัส	-9.68011
ี่ย	-9.68059
▁ปีที่ผ่านมา	-9.68065
ov	-9.68102
▁GB	-9.68105
ทําจาก	-9.68167
ah	-9.68303
โลหะผสม	-9.68318
ไมโคร	-9.6838
ปุ๋ย	-9.68416
ลัด	-9.68423
ทางการแพทย์	-9.68454
ป้าย	-9.68484
red	-9.68496
การสร้าง	-9.68559
ออกจาก	-9.68678
เซ็น	-9.68735
อินเทอร์เน็ต	-9.68746
▁เราจะ	-9.68749
สุดยอด	-9.68754
ไม่เกิน	-9.68758
RP	-9.68759
tu	-9.68814
ยังมี	-9.68826
เพดาน	-9.6884
แบ่ง	-9.68842
IL	-9.68934
นาที	-9.68941
กําเนิด	-9.68952
อังกฤษ	-9.68966
▁Bar	-9.68969
ไข่	-9.69004
▁เด	-9.69056
แอร์	-9.6908
▁PET	-9.69084
วัย	-9.69116
ress	-9.69197
▁แค	-9.69305
▁(19	-9.69354
▁Copyright	-9.6942
top	-9.69538
รายงาน	-9.69557
wi	-9.69645
วัฒนธรรม	-9.69716
ออกมา	-9.69731
▁(14	-9.69734
ลับ	-9.69751
ยืนยัน	-9.69751
ของเหลว	-9.69757
เฮ	-9.69784
land	-9.69823
วิลล่า	-9.69873
ได้ยิน	-9.69952
โชว์	-9.70029
แต่งงาน	-9.70048
รอน	-9.70054
สกุลเงิน	-9.70081
jo	-9.70278
คุณสามารถ	-9.70278
▁หยุด	-9.70345
ทองเหลือง	-9.70346
ara	-9.70388
โปรโมชั่น	-9.70439
▁รายละเอียดอัตรา	-9.70464
ที่ต้องการ	-9.70517
IM	-9.7052
การขนส่ง	-9.70536
▁บทความ	-9.70548
▁RoHS	-9.70552
สีฟ้า	-9.70593
▁รวมถึง	-9.70595
ไปแล้ว	-9.70655
ในประเทศจีน	-9.70659
พยายาม	-9.70683
▁ตารางเมตร	-9.70718
เยี่ยมชม	-9.70934
▁เดิน	-9.70942
▁ก้น	-9.71007
VI	-9.71017
เลนส์	-9.7102
ชัน	-9.71089
▁มล	-9.71096
ซีล	-9.71097
เงินฝาก	-9.71101
จิต	-9.71158
็ด	-9.71177
นิค	-9.71195
▁Facebook	-9.71203
▁เกรด	-9.71214
สภาพ	-9.71229
9.00	-9.7127
เอล	-9.7135
mg	-9.71354
sex	-9.71363
▁โพสต์	-9.7141
สั่งซื้อ	-9.71434
▁โค	-9.71487
ที่สําคัญ	-9.71506
du	-9.71613
tro	-9.71638
เตือน	-9.71657
5,000	-9.71662
▁สวัสดี	-9.71672
หุ้ม	-9.71673
องค์ประกอบ	-9.71744
▁±	-9.71831
รถเข็น	-9.7185
ตํารวจ	-9.7188
▁โรงพยาบาล	-9.71885
โฟ	-9.71912
ความยาว	-9.71937
TP	-9.71991
2018	-9.72022
ขาด	-9.7203
wa	-9.72144
BR	-9.72149
อิตาลี	-9.72281
ตะวันออก	-9.72319
bar	-9.72372
แดน	-9.72457
▁คําอธิบาย	-9.72514
ซัก	-9.72539
ฝา	-9.72581
ภาพยนตร์	-9.72585
▁180	-9.72614
over	-9.72682
▁แหล่งจ่ายไฟ	-9.72708
▁จอแสดงผล	-9.72769
จะถูก	-9.72803
เป็นคน	-9.72811
ซ่อน	-9.72832
UR	-9.72866
	-9.72869
บิน	-9.72947
▁เริ่มต้น	-9.7299
คีย์	-9.73034
มากที่สุด	-9.73084
คืออะไร	-9.73228
▁ถูกหนึ่งใน	-9.73234
▁(2)	-9.73253
สนใจ	-9.73278
ท้องถิ่น	-9.733
มอ	-9.73315
IA	-9.7339
ป้องกันการ	-9.73419
สีเทา	-9.73472
สมาร์ท	-9.73483
und	-9.73483
อ้วน	-9.73508
▁ชาวอินเดีย	-9.73557
▁Inc	-9.73571
SL	-9.73599
ประกันภัย	-9.73621
ในราคาต่ํา	-9.73623
ที่เรา	-9.73626
สังกะสี	-9.73662
si	-9.73748
▁แอนด์	-9.73795
สต์	-9.73799
ม่า	-9.73803
king	-9.7382
พรม	-9.73837
▁แบริ่ง	-9.73853
ยืดหยุ่น	-9.73897
▁ถัง	-9.73901
ฝน	-9.73905
ลอย	-9.73939
นิยม	-9.73986
เป็นหนึ่งใน	-9.73998
คุณสมบัติ	-9.74066
จอแสดงผล	-9.741
รหัสผ่าน	-9.7412
2016	-9.7417
▁เปลี่ยน	-9.74178
▁เกาะ	-9.7419
เชีย	-9.74206
▁เทป	-9.74207
แก้	-9.74219
▁มิติ	-9.74226
▁พอร์ต	-9.74238
HE	-9.74354
แนวตั้ง	-9.74388
NC	-9.74393
ขั้นต่ํา	-9.74414
bl	-9.74443
แถบ	-9.74471
ัว	-9.74483
แก๊ส	-9.74513
▁TNT	-9.74541
เค้า	-9.74587
ดาว	-9.74598
gi	-9.74605
เจ้าหน้าที่	-9.74713
ความรู้	-9.74714
▁สนับสนุน	-9.74751
▁คุณจะ	-9.74775
ome	-9.7492
°	-9.74929
อย่างรวดเร็ว	-9.74968
ด้านหน้า	-9.74991
▁2.5	-9.75088
อินเดีย	-9.75173
▁+66	-9.75178
แจ	-9.75235
สําหรับขาย	-9.75242
วิจัย	-9.75266
▁ข้อ	-9.75315
ป้อน	-9.75327
ll	-9.75337
ical	-9.75348
อะไหล่	-9.75407
โปรไฟล์	-9.75444
เรียกว่า	-9.75511
▁International	-9.75554
พาณิชย์	-9.75671
สวยงาม	-9.757
ม้า	-9.75726
็อก	-9.75728
▁อัน	-9.75825
ping	-9.75848
หาก	-9.75853
เรียนรู้	-9.75866
awa	-9.75877
▁เกย์	-9.75914
ราก	-9.75952
▁ความเร็ว	-9.75979
160	-9.76
▁แก	-9.76024
▁เริ่ม	-9.76035
ในการทํางาน	-9.76049
ไหล	-9.76062
tr	-9.76062
เต็มรูปแบบ	-9.76102
การลงทุน	-9.76104
เชิญ	-9.7611
เหตุ	-9.76122
ดนตรี	-9.7616
ดัชนี	-9.76174
ไม่รู้	-9.76174
ของพวกเขา	-9.76244
ปก	-9.76263
และอุปกรณ์	-9.76314
0%	-9.76322
▁ฟิล์ม	-9.76339
ใช้เวลา	-9.76374
จอง	-9.76397
nic	-9.76473
LO	-9.76475
ใช่ไหม	-9.76538
เค้ก	-9.76559
รอก	-9.76586
บําบัด	-9.76592
สากล	-9.76606
ผลงาน	-9.76639
โต๊ะ	-9.76643
จัง	-9.76645
น่ารัก	-9.7672
▁บุตร	-9.76752
-11	-9.76775
bu	-9.76793
ven	-9.76796
ห้องน้ํา	-9.76803
▁ข้อกําหนด	-9.76807
▁การใช้	-9.76886
▁พื้น	-9.76901
ฝรั่งเศส	-9.76902
ที่แตกต่างกัน	-9.76957
หลากหลาย	-9.76996
ว์	-9.77003
of	-9.77007
ord	-9.77011
▁Dr	-9.77027
การเงิน	-9.77069
porn	-9.77156
เท่ากับ	-9.77167
ทั่ว	-9.77185
£	-9.77218
▁Cr	-9.77266
ตอบสนอง	-9.77337
▁เครื่องขึ้นรูป	-9.77395
นิทรรศการ	-9.77411
บริษัทฯ	-9.77424
KW	-9.77428
ไขมัน	-9.77443
ดาวเทียม	-9.7751
น้อยกว่า	-9.77546
iv	-9.7757
ิน	-9.77574
แท่น	-9.77591
▁(15	-9.77626
ung	-9.77654
ทรี	-9.77703
อ้างอิง	-9.77732
เล็บ	-9.778
โว	-9.77817
ยังไม่	-9.7782
ชั่วโมง	-9.77837
ลาก	-9.77844
ขั้น	-9.77863
▁ยู	-9.77928
ib	-9.77931
▁อืม	-9.77952
นคร	-9.77955
HO	-9.77962
▁20%	-9.77973
สิบ	-9.7801
ึ	-9.78035
สกัด	-9.78039
การ์ตูน	-9.78055
can	-9.78065
▁j	-9.78082
dia	-9.78084
▁โครงสร้าง	-9.78089
ซาน	-9.78097
ซุ	-9.78148
และความ	-9.78263
จํานวนมาก	-9.78265
กฎ	-9.78266
ชั้นนํา	-9.78312
สารเคมี	-9.78328
▁0.2	-9.78333
▁90%	-9.78342
โปรด	-9.7837
▁ฟุต	-9.78418
ach	-9.78448
▁หา	-9.7849
ในประเทศไทย	-9.78491
220	-9.78529
ที่สามารถ	-9.7857
ลี่	-9.78594
คุณจะ	-9.78621
ทะ	-9.78626
▁อิน	-9.78646
▁You	-9.78662
แปรง	-9.7877
กรรมการ	-9.78854
หญ้า	-9.78868
ภูเขา	-9.78977
▁คูณ	-9.79035
หมาย	-9.79042
ปลั๊ก	-9.79045
แฟ	-9.79082
เงินสด	-9.79175
ระยะเวลา	-9.79196
แบบกําหนดเอง	-9.79211
▁ความสูง	-9.79227
ประชาชน	-9.79238
ที่ได้รับ	-9.7925
ขี่	-9.79267
CM	-9.79337
ยะ	-9.79339
▁หมู่	-9.79353
มหาวิทยาลัย	-9.79376
ขับเคลื่อน	-9.79454
หุ่นยนต์	-9.795
▁บวก	-9.795
5000	-9.79539
สุข	-9.79562
ary	-9.79567
ขั้วต่อ	-9.79575
คําตอบ	-9.79599
หลักสูตร	-9.79666
▁Per	-9.79721
ld	-9.79735
นวัตกรรม	-9.79736
ใส	-9.79762
ท่าเรือ	-9.79834
ครึ่ง	-9.79881
light	-9.8006
▁เดี๋ยว	-9.80078
วิศวกรรม	-9.80094
	-9.80105
ten	-9.80109
เนื่องจาก	-9.80119
เรือน	-9.80161
รู้ว่า	-9.8017
304	-9.80173
มัด	-9.8032
▁RFID	-9.8039
ของบริษัท	-9.80394
▁(18	-9.80424
อัล	-9.80455
ยืด	-9.80469
สแกน	-9.80487
เทป	-9.80528
▁ภรรยา	-9.80562
ทําความเย็น	-9.8061
การรับรอง	-9.80648
ไน	-9.80653
001	-9.80676
ัท	-9.80702
ช้า	-9.80758
▁Mod	-9.80772
ไกล	-9.80772
ส่วนลด	-9.80774
▁#1	-9.80785
ull	-9.80843
โครง	-9.80843
MB	-9.80846
▁นักเรียน	-9.80851
ใบหน้า	-9.80854
สาธารณะ	-9.80869
ปลอม	-9.80912
▁การควบคุม	-9.80923
ตรงนี้	-9.80928
รายชื่อ	-9.80992
เราได้	-9.81004
แว	-9.81016
อีกครั้ง	-9.81029
▁สิ่งที่	-9.81035
เอฟ	-9.81046
แดด	-9.81096
ระหว่างประเทศ	-9.81119
มีด	-9.81159
เฟอร์นิเจอร์	-9.81214
วัยรุ่น	-9.81275
105	-9.81282
ไฟเบอร์กลาส	-9.813
IF	-9.8136
ซอ	-9.8139
โห	-9.81424
ความสามารถในการ	-9.81451
ื่อ	-9.81478
▁Series	-9.81535
▁ตอบ	-9.81562
฿	-9.81569
▁จอง	-9.81571
ign	-9.81576
▁Pe	-9.81584
ถอด	-9.81612
▁TH	-9.81642
ตามความต้องการ	-9.81689
รูปร่าง	-9.81772
แทรก	-9.81823
▁ST	-9.81827
เจน	-9.81872
▁Micro	-9.81918
เรน	-9.81921
เบา	-9.81931
ลิฟท์	-9.81995
อัจฉริยะ	-9.81995
ไวนิล	-9.81995
เย็ด	-9.82021
Porn	-9.82023
ปฏิบัติ	-9.82101
ฟี	-9.82157
kin	-9.82163
▁Ne	-9.82241
ดวง	-9.82248
จดทะเบียน	-9.8225
เซน	-9.82266
สปริง	-9.82305
▁Dis	-9.82312
ลาน	-9.82339
วัตถุดิบ	-9.82403
ดีกว่า	-9.82454
ื้อ	-9.82495
▁Da	-9.82568
พิพิธภัณฑ์	-9.82629
▁ล้านบาท	-9.82629
โทษ	-9.82677
เวน	-9.82696
เศรษฐกิจ	-9.82739
▁Water	-9.82773
▁เครื่องทํา	-9.82795
การซื้อขาย	-9.82818
ei	-9.82841
▁เสาอากาศ	-9.82852
cha	-9.8287
▁Tag	-9.8291
▁Hi	-9.82926
ink	-9.82964
ซ่อม	-9.82968
▁(13	-9.82997
ฉบับ	-9.83034
กซ์	-9.83037
ตุ๊กตา	-9.83049
จะได้รับ	-9.83053
des	-9.83079
▁Mon	-9.83093
ano	-9.83133
เปิดใช้งาน	-9.83218
lan	-9.83223
ขุด	-9.83254
ถ้วย	-9.83267
qui	-9.83274
เครน	-9.8329
แอล	-9.83293
สหรัฐ	-9.83303
2.5	-9.83335
py	-9.83389
เหรียญ	-9.8341
ชัย	-9.8356
▁แกน	-9.83593
เครื่องพิมพ์	-9.83611
fu	-9.83642
ข้อตกลง	-9.83673
▁86	-9.83714
เป็นเวลา	-9.83726
สํารวจ	-9.83786
ลงทุน	-9.83798
sha	-9.83826
ตัวกรอง	-9.83831
OT	-9.83912
▁สวย	-9.8397
ดึง	-9.83975
ประเมิน	-9.83977
▁พี่	-9.83987
▁be	-9.84033
▁1,000	-9.84114
ร่วมกัน	-9.84114
นาง	-9.84127
ซ้ํา	-9.84142
ame	-9.84185
สัตว์เลี้ยง	-9.84189
่ํา	-9.84189
▁ตําแหน่ง	-9.8422
โรงพยาบาล	-9.84231
▁Shi	-9.84279
รูปภาพ	-9.8431
ซ้าย	-9.84321
ภูมิภาค	-9.84334
โคมไฟ	-9.84361
HP	-9.84375
ple	-9.84377
บริ	-9.84413
ประหลาด	-9.84417
▁หลักสูตร	-9.84423
ตั้งอยู่	-9.84508
ert	-9.84514
ทางเลือก	-9.84702
คู	-9.84742
0.8	-9.84789
ตอบ	-9.84808
▁Web	-9.84925
อายุการใช้งาน	-9.85001
NE	-9.85021
มีประสิทธิภาพ	-9.85037
ความเป็น	-9.85066
แพ็ค	-9.85111
za	-9.85179
ise	-9.85299
▁นอกจากนี้	-9.85353
▁Hu	-9.85373
พ่น	-9.85465
▁ข้าพระ	-9.85496
▁ส่วนลด	-9.85525
izer	-9.85565
สํา	-9.85583
PR	-9.85584
–	-9.85628
▁ดอลลาร์	-9.85631
bit	-9.85701
เพื่อให้	-9.85728
▁เกี่ยวกับเรา	-9.85819
สับ	-9.8588
▁สายเคเบิล	-9.85893
ลืม	-9.85902
▁แขวง	-9.85916
ane	-9.86014
▁คืออะไร	-9.86023
▁เสา	-9.86032
▁Roll	-9.8611
OM	-9.86122
SO	-9.8616
UT	-9.86201
Me	-9.86205
เป็นผู้	-9.86241
atch	-9.86294
คริสตัล	-9.86322
กําเนิดไฟฟ้า	-9.86383
ภาวะ	-9.86385
กรุง	-9.86413
▁50%	-9.86416
▁นาง	-9.86426
หู	-9.86478
เชื้อเพลิง	-9.86504
ปกป้อง	-9.86514
▁ขาว	-9.86547
คอร์	-9.86574
วิทยุ	-9.86645
ที่มีประสิทธิภาพ	-9.86661
lor	-9.86684
ไส้	-9.86691
ระบายความร้อน	-9.86714
สิ้นสุด	-9.86719
ต่อวัน	-9.86731
ขั้นสูง	-9.86752
ลําโพง	-9.868
ถอน	-9.86806
▁Part	-9.86867
แฟน	-9.86926
ep	-9.86946
og	-9.8696
2000	-9.86964
-40	-9.86986
0.6	-9.87011
ning	-9.87016
ยังคง	-9.87032
kw	-9.87125
เก็ต	-9.87136
ปรับปรุง	-9.87165
▁360	-9.87173
ออฟ	-9.87173
▁Ta	-9.8719
▁70%	-9.87238
▁หากคุณ	-9.8725
rin	-9.87257
กรุงเทพ	-9.87268
ภัย	-9.87292
▁you	-9.87355
xxx	-9.8738
่ว	-9.8743
บางอย่าง	-9.87432
คอล	-9.8746
ทาวเวอร์	-9.87465
ไลท์	-9.87505
เงา	-9.87556
ผู้เล่น	-9.87673
▁Top	-9.87699
ที่เหมาะสม	-9.87759
▁(16	-9.8777
พระเจ้า	-9.87815
cc	-9.87838
ze	-9.87886
FL	-9.87922
สูญญากาศ	-9.87935
ห้า	-9.87935
DI	-9.87946
ool	-9.88007
ส่วนผสม	-9.88026
▁รายงาน	-9.88052
▁Si	-9.88073
เติบโต	-9.8809
ลเลอร์	-9.88119
รัส	-9.88123
▁โรค	-9.88143
▁ที่รัก	-9.88144
{	-9.88148
▁สแตนเลส	-9.8818
ร่อง	-9.88195
▁2558	-9.88223
▁เอาล่ะ	-9.88266
พัดลม	-9.88282
นด์	-9.88302
ใ	-9.88317
มั่นใจ	-9.88321
เปลือย	-9.88335
ตุรกี	-9.88392
ev	-9.88472
▁2009	-9.88503
▁Report	-9.88508
▁อิส	-9.88525
▁Group	-9.8855
HZ	-9.88569
กําไร	-9.88594
สึ	-9.88621
▁มก	-9.88642
the	-9.88712
▁List	-9.88724
แน่นอน	-9.88808
▁อีเมล์	-9.88848
Shandong	-9.88852
▁ป้าย	-9.88861
สมาคม	-9.88938
ฟาร์ม	-9.88955
yu	-9.89028
ภาษี	-9.89059
กอง	-9.89155
บราซิล	-9.89212
▁Sha	-9.89228
รวบรวม	-9.89229
๊อก	-9.89244
เครื่องสําอาง	-9.89249
ต้อนรับ	-9.89249
อด	-9.89255
เขียว	-9.89259
▁sp	-9.89266
▁ลอง	-9.89335
เทอร์	-9.89348
▁ประกาศ	-9.89371
วินเทจ	-9.89429
str	-9.89438
▁Go	-9.89475
▁ฉันไม่	-9.89515
ric	-9.89559
uc	-9.89571
ทําลาย	-9.89587
▁Wire	-9.89624
เข้าสู่ระบบ	-9.89713
ภูเก็ต	-9.89715
เบน	-9.8974
▁เอส	-9.8975
170	-9.89785
▁06:	-9.89815
ห่อ	-9.89833
ติน	-9.89844
โป๊	-9.89848
ik	-9.89855
มั	-9.89855
กล่าวว่า	-9.89866
pt	-9.89891
มิน	-9.89896
▁Ste	-9.89987
คงที่	-9.9
▁Bu	-9.90053
▁ปรับปรุง	-9.90076
ของเธอ	-9.90106
ค่าธรรมเนียม	-9.90141
ร่ม	-9.90161
ติก	-9.90173
ภูมิ	-9.90175
▁Service	-9.90185
เพลา	-9.90197
ฝาก	-9.90214
▁Sea	-9.90229
▁เหล่า	-9.90245
เครื่องบิน	-9.90247
box	-9.90279
▁ร้านอาหาร	-9.90299
โนะ	-9.90325
เนี่ย	-9.90327
การส่ง	-9.90432
ที่อยู่อาศัย	-9.90462
น้ําหนักเบา	-9.90481
RT	-9.90496
รั	-9.905
▁รับประกัน	-9.90548
ose	-9.90608
ห้าม	-9.90619
▁นวด	-9.90629
▁มหาวิทยาลัย	-9.90629
▁บล็อก	-9.90674
ความเสียหาย	-9.9069
rop	-9.907
▁ถุงมือ	-9.9073
หน	-9.90764
แบริ่ง	-9.90787
▁เนื้อ	-9.90819
คลิก	-9.90822
แห่งชาติ	-9.90846
ทนต่อ	-9.90846
lip	-9.90889
▁304	-9.90918
แนวนอน	-9.90953
็น	-9.9102
นู	-9.91038
~	-9.91078
ฝัน	-9.91123
อาหรับ	-9.91126
ris	-9.91132
▁Ko	-9.91143
ที่นั่ง	-9.91179
คอมเพรสเซอร์	-9.91182
บีช	-9.91294
โซน	-9.91341
เกลือ	-9.91354
กลายเป็น	-9.91359
▁สีน้ําตาล	-9.91374
เราจะ	-9.91378
▁pro	-9.91407
เดีย	-9.91409
▁เท่ากับ	-9.91414
ความเสี่ยง	-9.91421
ไลน์	-9.91512
บี้	-9.91532
เซินเจิ้น	-9.91536
ยานยนต์	-9.91576
ศาล	-9.91604
230	-9.91606
ฮั	-9.91619
หัวข้อ	-9.91662
af	-9.91702
เช็ค	-9.91708
ส่งเสริม	-9.9175
ที่ถูก	-9.91792
EE	-9.91804
101	-9.91875
เผา	-9.91913
hy	-9.91916
▁แหวน	-9.92004
tin	-9.92006
ชําระเงิน	-9.92037
▁เดือนที่ผ่านมา	-9.92071
รีสอร์ท	-9.92139
▁Ti	-9.92157
▁Can	-9.92175
▁MT	-9.92186
บทความ	-9.92284
tt	-9.92346
แขวน	-9.92353
ไม่เคย	-9.9237
▁คุณภาพสูง	-9.92381
ยกเลิก	-9.92395
▁Die	-9.92457
หมึก	-9.9247
ถ่ายภาพ	-9.92501
▁วันนี้	-9.9255
เสียบ	-9.92552
▁เหมือน	-9.92556
ข้อกําหนด	-9.92579
▁Custom	-9.92607
ครบ	-9.92678
การสื่อสาร	-9.92699
by	-9.92702
อําเภอ	-9.92708
Distributor	-9.92712
การปรับปรุง	-9.92715
▁การใช้งาน	-9.92719
โหมด	-9.92737
โซเดียม	-9.92771
LI	-9.92776
ลัก	-9.92829
▁เป็นแบรนด์ของ	-9.92863
ช่วงเวลา	-9.92906
ความคิด	-9.92921
FX	-9.92932
GO	-9.92956
cent	-9.92991
fr	-9.92997
ไม้อัด	-9.93063
วางใจในการ	-9.93084
▁64	-9.93163
TI	-9.93176
แหล่ง	-9.93226
ฟังก์ชัน	-9.93237
▁กระทํา	-9.93254
▁Star	-9.93262
รับประกัน	-9.93264
ตลาดดิจิตอลโดย	-9.93268
ความแม่นยํา	-9.93309
าห์	-9.93363
▁สวิตช์	-9.93386
▁โรงแรมใน	-9.93418
ตรฐานระดับโลกจาก	-9.93432
งั้น	-9.93435
นิ้ว	-9.93438
บริการลูกค้ามา	-9.93458
▁Ka	-9.93462
ari	-9.93475
▁ลิขสิทธิ์	-9.93487
tube	-9.93575
▁Mini	-9.93581
▁แนะนํา	-9.93585
ore	-9.93607
จันทร์	-9.93622
ley	-9.93645
1.5	-9.93645
ค้า	-9.93652
▁หนังสือ	-9.93665
คู่มือ	-9.93693
DR	-9.93702
กางเกง	-9.9371
▁ใบ	-9.93715
เสมอ	-9.93736
ตกลง	-9.93749
กลึง	-9.9375
ริม	-9.93761
สังเคราะห์	-9.9387
ใบอนุญาต	-9.9387
▁≤	-9.93878
ดังนี้	-9.93886
ปฏิทิน	-9.93976
RC	-9.94021
แกะ	-9.94107
ก็คือ	-9.94118
ปีที่	-9.94121
ฏ	-9.94128
ดิบ	-9.94191
ประเทศจีน	-9.94224
▁Pi	-9.94236
จําเป็น	-9.94249
ขนดก	-9.9425
ว่าง	-9.94276
ความเร็วในการ	-9.94286
▁—	-9.94312
ู่	-9.94412
▁Multi	-9.94464
เอก	-9.94558
▁กรุงเทพ	-9.94597
รวดเร็ว	-9.94628
ff	-9.94691
เบล	-9.94744
ช่วยเหลือ	-9.94748
▁เครื่องทดสอบ	-9.94776
เหมาะสําหรับ	-9.9479
GP	-9.94849
14001,	-9.94863
ร้านอาหาร	-9.94885
ฮิต	-9.94891
ภาษาไทย	-9.94905
0.4	-9.94915
การไหล	-9.94919
▁เม็ด	-9.94967
ห่วง	-9.95043
-16	-9.95169
set	-9.95172
กองทุน	-9.95248
ผู้จัดการ	-9.95261
แถว	-9.95365
เกย์	-9.95385
ต่อสู้	-9.95389
ยาวนาน	-9.95403
▁2.0	-9.95403
oll	-9.95417
▁ตรวจสอบ	-9.95419
คลุม	-9.95454
ให้เช่า	-9.95559
▁€	-9.95573
den	-9.95605
DO	-9.9566
ลําดับ	-9.95662
ฮ่องกง	-9.95703
อร่อย	-9.9575
พอง	-9.95754
อุณหภูมิสูง	-9.95777
ควย	-9.95782
▁Wholesaler	-9.95873
▁ออ	-9.95873
▁SP	-9.95877
เมน	-9.9599
หมอ	-9.95991
ถั่ว	-9.95993
▁รายงานปัญหา	-9.96009
ต่ํากว่า	-9.9601
โดน	-9.96063
เรียง	-9.96096
▁Steel	-9.96132
พวกเรา	-9.96139
ทิศทาง	-9.9614
เบอร์รี่	-9.96154
คําที่เกี่ยวข้อง	-9.96185
ี่	-9.962
▁Microsoft	-9.96247
tri	-9.96255
ซอง	-9.96312
91%	-9.96314
วู	-9.96325
ช่องทาง	-9.9634
เปรียบเทียบ	-9.96355
[	-9.96375
▁3000	-9.96408
▁หน้าจอ	-9.96413
ized	-9.9649
ต่อต้าน	-9.96496
SU	-9.96507
ผู้ป่วย	-9.96508
โค้ง	-9.96554
▁คณะกรรมการ	-9.966
เรียบ	-9.96624
Video	-9.96639
▁Key	-9.9666
บุรี	-9.96674
FP	-9.96713
ฟอง	-9.96718
สําหรับเครื่อง	-9.96738
▁TP	-9.96741
▁Ga	-9.96767
▁Free	-9.96776
สมัย	-9.96781
อันตราย	-9.96789
▁รั้ว	-9.96804
▁Pri	-9.96823
ระยะทาง	-9.96852
▁ID	-9.9687
ฝึก	-9.96871
▁IC	-9.96895
ยิ่ง	-9.96921
$1	-9.96927
แข่ง	-9.97045
▁คัดลอก	-9.97083
▁แพคเกจ	-9.97117
คุก	-9.97157
▁อ่าน	-9.97163
ไพ	-9.97168
▁ในปี	-9.97196
หอม	-9.97234
ปลอก	-9.97275
▁ธนาคาร	-9.97279
-02	-9.97295
ถัก	-9.97336
ศรี	-9.97367
เลข	-9.97437
พาย	-9.97483
การดําเนินงาน	-9.97529
ตุ	-9.97561
เทรด	-9.97578
ตลก	-9.97592
▁ที่นั่ง	-9.97598
วิชา	-9.97643
▁Pl	-9.97655
เบีย	-9.97698
หาร	-9.9778
▁เพื่อให้	-9.97797
las	-9.97823
การรับประกัน	-9.9791
-50	-9.97921
yn	-9.97924
สําเร็จรูป	-9.97974
▁แค่	-9.98013
▁Cap	-9.98016
▁do	-9.98044
ดิสก์	-9.98065
▁บรรดา	-9.98069
OK	-9.98075
▁กิโล	-9.981
การเข้าถึง	-9.98108
ted	-9.98154
280	-9.98188
2-3	-9.982
ขนม	-9.98248
กล้ามเนื้อ	-9.98264
▁-&	-9.98296
▁XXX	-9.98312
ทั้งสอง	-9.98339
PH	-9.98352
ชะ	-9.98355
ประสิทธิภาพสูง	-9.98368
★	-9.98375
บาน	-9.98377
ทีมงาน	-9.98398
▁Or	-9.98432
▁การทดสอบ	-9.98456
ปลูก	-9.98463
nc	-9.98468
แอน	-9.98524
คิว	-9.98538
หลุม	-9.9866
คี	-9.98687
▁ที่แล้ว	-9.9871
ike	-9.98718
▁Anti	-9.98762
▁นาฬิกา	-9.98802
▁GS	-9.98826
▁โหมด	-9.98827
0.5	-9.98874
IE	-9.98875
view	-9.989
เที่ยวบิน	-9.9891
▁ไอ้	-9.98931
ยานพาหนะ	-9.98947
ในขณะที่	-9.99007
สามารถในการจัดหา	-9.99011
4.5	-9.9906
ฟุ	-9.99078
ชุมชน	-9.99099
▁กีฬา	-9.99114
▁ภูเก็ต	-9.99143
▁กิโลเมตร	-9.99146
▁หมอ	-9.99162
ล็อก	-9.99163
เหมือนกัน	-9.99183
พันธมิตร	-9.99218
uk	-9.99231
ی	-9.9925
▁ลูกสาว	-9.99289
mes	-9.99303
EP	-9.99325
ยุค	-9.99344
โพสต์	-9.99365
ด้วยตนเอง	-9.99374
พิธี	-9.99465
จ้าง	-9.99526
▁ชายหาด	-9.99546
▁ซอฟต์แวร์	-9.99572
วิตามิน	-9.99618
▁แอน	-9.9962
▁English	-9.99677
ใช้บริการ	-9.99725
ส่วนบุคคล	-9.99725
▁Cas	-9.99758
กระตุ้น	-9.99762
CI	-9.99772
เผยแพร่	-9.99875
▁ปุ่ม	-9.9991
AH	-9.99941
▁ความรัก	-9.99942
aw	-9.99977
▁EN	-10.0004
พาเลท	-10.0007
ความสูง	-10.0008
ได้แล้ว	-10.001
หมา	-10.0012
▁(17	-10.0029
▁years	-10.0032
สเปรย์	-10.0036
▁Ph	-10.0036
แรงดันไฟฟ้า	-10.0037
▁0.3	-10.0041
ฉลาก	-10.0042
▁ดาว	-10.0043
อุปกรณ์เสริม	-10.0044
พันธุ์	-10.0047
สหราชอาณาจักร	-10.005
▁Game	-10.0051
ด้านหลัง	-10.0052
ฆ	-10.0054
ไซต์	-10.0055
สล็อต	-10.0061
ผ่านทาง	-10.0076
ตะวันตก	-10.0079
▁ODM	-10.0083
ไต้หวัน	-10.0084
แฟ้ม	-10.009
โทรทัศน์	-10.0091
4.0	-10.0098
อินเตอร์	-10.0101
เมื่อวันที่	-10.0104
tel	-10.0104
คํานวณ	-10.0105
ANG	-10.0106
เศษ	-10.0108
ฤดูร้อน	-10.0114
การประมวลผล	-10.0115
▁---	-10.0117
ual	-10.0117
ไปรษณีย์	-10.012
for	-10.0122
เชื่อมโยง	-10.0123
กลัว	-10.0125
▁RF	-10.013
▁ถ	-10.0131
แกะสลัก	-10.0135
	-10.0135
ถาด	-10.0135
▁Hol	-10.0141
▁EVA	-10.0145
▁Center	-10.0145
วอ	-10.0147
ark	-10.0147
-18	-10.0149
ฐ	-10.0153
คําแนะนํา	-10.0154
เปลี่ยนแปลง	-10.0156
▁ใบสมัคร	-10.0165
ction	-10.0172
แห	-10.0176
▁สปา	-10.0178
▁Road	-10.018
lock	-10.0188
การบริการ	-10.019
▁1500	-10.0192
▁(25	-10.0197
▁(0)	-10.02
วันจันทร์	-10.0208
▁เหรียญ	-10.0216
▁SMD	-10.0218
ราบ	-10.0219
ละลาย	-10.0219
หาย	-10.0224
unt	-10.0224
ray	-10.0228
เทียม	-10.0238
เบี้ย	-10.0238
TL	-10.0238
▁แฟน	-10.0241
จะได้	-10.0243
▁MB	-10.0245
นาฬิกา	-10.0247
ใช่มั้ย	-10.0252
กําหนดเอง	-10.0254
มูลนิธิ	-10.026
ปรา	-10.0261
▁FDA	-10.0267
TRA	-10.0268
nm	-10.0269
หมู่	-10.0272
เซนเซอร์	-10.0274
▁Sun	-10.0276
เพราะ	-10.0278
par	-10.0281
tan	-10.0283
210	-10.0287
โก้	-10.0297
ชัดเจน	-10.0298
▁Sta	-10.0303
180	-10.031
แล็ปท็อป	-10.0311
โซฟา	-10.0323
IG	-10.033
สมุนไพร	-10.0332
เกมส์	-10.0333
row	-10.0337
lex	-10.0337
รึ	-10.0338
เชิงพาณิชย์	-10.0339
▁07:	-10.034
วาย	-10.034
การเล่น	-10.0343
att	-10.0344
▁โดยมี	-10.0351
5429	-10.0352
6047	-10.0352
การค้นหา	-10.0357
▁แบบอักษร	-10.0357
▁อินเดีย	-10.0358
การวิเคราะห์	-10.0359
ห้องครัว	-10.0359
ได้ถึง	-10.036
มีประสบการณ์	-10.0362
bb	-10.0366
กรม	-10.0367
แด	-10.0371
เครื่องตัด	-10.0384
ตื่น	-10.0385
hot	-10.0386
7.5	-10.0388
▁Powder	-10.0389
▁→	-10.0391
กล้า	-10.0396
แว่นตา	-10.0398
ญา	-10.0402
อาหารเช้า	-10.0419
วันเสาร์	-10.0419
▁Min	-10.0425
สุทธิ	-10.0428
การให้บริการ	-10.0428
สยาม	-10.043
ต่อเดือน	-10.0431
สูตร	-10.0433
ก่อตั้ง	-10.0438
999	-10.0438
8.00	-10.0445
บรรยากาศ	-10.0448
1.1	-10.0448
สะอาด	-10.045
а	-10.0451
its	-10.0456
ซึม	-10.0459
▁ถ้าคุณ	-10.046
ในรูปแบบ	-10.0461
ย้อม	-10.0462
rs	-10.0462
cfb	-10.0463
ระวัง	-10.0464
ประวัติศาสตร์	-10.047
rt	-10.0473
ัช	-10.0476
แม่น้ํา	-10.0479
ลดลง	-10.048
fer	-10.0482
▁รวมผลิตภัณฑ์	-10.0483
คนที่	-10.0485
▁ไม่ต้อง	-10.0486
men	-10.0488
▁สายการผลิต	-10.0497
-100	-10.0498
▁Type	-10.0499
สปา	-10.05
ef	-10.0502
Co	-10.0502
▁ชาวเอเชีย	-10.0504
แท่ง	-10.0505
กระดูก	-10.0507
แท็บเล็ต	-10.051
หนี	-10.0513
แมว	-10.0521
ต่อเนื่อง	-10.0523
สะสม	-10.0524
ฉาก	-10.0527
อู	-10.0536
ani	-10.0538
ผู้ให้บริการ	-10.054
โช	-10.054
หนุ่ม	-10.0541
▁ปาร์ตี้	-10.0541
ไมล์	-10.0547
BL	-10.0548
ก่อตั้งขึ้น	-10.0549
สีบลอนด์	-10.0549
ลอก	-10.055
HC	-10.055
อย่างดี	-10.0552
▁ข่าวสาร	-10.0552
ข้อเสนอ	-10.0554
ุ่น	-10.0555
oh	-10.0556
▁สไตล์	-10.0561
ดําเนิน	-10.0567
ระยะไกล	-10.0569
har	-10.0574
ก้าว	-10.0575
▁https	-10.0577
▁con	-10.0577
▁350	-10.0582
แผนก	-10.0582
กึ่ง	-10.0584
▁Forex	-10.0584
และบริการ	-10.0584
▁Red	-10.0585
ั่ง	-10.0586
ล่าง	-10.0587
ใย	-10.0587
cial	-10.0591
▁My	-10.0592
130	-10.0595
▁พอ	-10.0601
HD	-10.0606
▁(22	-10.0609
เครื่องจักรกล	-10.0614
ส้นผ่านศูนย์กลาง	-10.0615
๊อ	-10.0615
5.00	-10.0616
▁ประสิทธิภาพ	-10.0618
ชายหาด	-10.0619
tur	-10.0621
ขับรถ	-10.0623
GE	-10.0625
ros	-10.0626
ita	-10.0629
ทําไม	-10.0629
พัทยา	-10.0632
ของเล่น	-10.0634
กรอก	-10.0638
▁ซีรี่ส์	-10.064
แหวน	-10.0641
ช์	-10.0642
พีซี	-10.0647
ค่าบริการ	-10.0651
ความสามารถ	-10.0651
ผูก	-10.0655
▁Park	-10.0657
ney	-10.0658
อย่างน้อย	-10.0659
FR	-10.066
สระว่ายน้ํา	-10.0663
▁info	-10.0664
ขั้ว	-10.0677
แสน	-10.068
ชั้นวาง	-10.0681
mar	-10.0687
ความจริง	-10.0688
ได้ดี	-10.069
▁Sl	-10.0698
ขยะ	-10.0699
FO	-10.07
▁นม	-10.0701
▁System	-10.0702
หลวง	-10.0704
102	-10.0706
หมอน	-10.0707
▁ได้โปรด	-10.0707
แหละ	-10.0709
เปียก	-10.0709
PI	-10.0715
▁สหรัฐอเมริกา	-10.0719
▁iOS	-10.072
ยูนิ	-10.0723
orn	-10.0727
▁API	-10.0729
โซลูชั่น	-10.073
ost	-10.073
▁รถบรรทุก	-10.0732
มี่	-10.0736
▁Cat	-10.0741
ความละเอียด	-10.0743
ไฟเบอร์ออปติก	-10.0745
เหตุการณ์	-10.0749
ML	-10.075
▁SMT	-10.0751
ผลกระทบ	-10.0757
แคนาดา	-10.0757
▁แผน	-10.0757
เส้นด้าย	-10.0764
คอย	-10.0765
จอห์น	-10.0766
สลับ	-10.0768
▁with	-10.0769
mil	-10.0772
▁รางวัล	-10.0773
ยกเว้น	-10.0779
▁ข้อเสนอ	-10.0783
▁โต๊ะ	-10.0785
ดังกล่าว	-10.0786
สะพาน	-10.0794
รอด	-10.0795
ล่อง	-10.0799
ดุ	-10.0801
แข็งแรง	-10.0801
650	-10.0801
▁อุปกรณ์เสริม	-10.0802
การดูแล	-10.0802
วอล	-10.0805
คร	-10.0806
เร่ง	-10.0807
อเมริกา	-10.0809
▁เส้น	-10.0809
กอล์ฟ	-10.081
▁กษัตริย์	-10.0811
คลัง	-10.0812
นโยบาย	-10.0812
รังสี	-10.0815
ซั	-10.0816
Mo	-10.0817
UL	-10.0826
RM	-10.0827
บลูทู	-10.0828
นัด	-10.0829
ําหน่ายและโรงงาน	-10.0831
สวิตช์	-10.0841
เส้นใย	-10.0845
vid	-10.0845
สร้างสรรค์	-10.0848
NI	-10.085
ที่ยอดเยี่ยม	-10.0854
บวก	-10.0863
ลอน	-10.0864
tech	-10.0871
TER	-10.0874
คุณภาพดี	-10.0881
▁Ningxia	-10.0882
lon	-10.0884
▁ทัวร์	-10.0887
จากสถานี	-10.0888
▁Pin	-10.0888
อย่างต่อเนื่อง	-10.0893
จําลอง	-10.0901
▁NO	-10.0902
ฝาครอบ	-10.0902
เจีย	-10.0904
ยุ	-10.0907
rit	-10.0915
ess	-10.0916
ออฟฟิศ	-10.0917
▁ความต้านทาน	-10.0921
▁ตั้ง	-10.0921
▁แน่นอน	-10.0923
aka	-10.0924
▁ส่วนประกอบ	-10.0925
คลาสสิก	-10.0929
▁80%	-10.0933
ยาน	-10.0938
ich	-10.0939
▁And	-10.0952
การกัดกร่อน	-10.0952
▁ผมบลอนด์	-10.0955
ที่ดิน	-10.0955
▁1/2	-10.0956
-19	-10.0957
▁อังกฤษ	-10.0958
รัง	-10.0962
iver	-10.0962
โฮม	-10.0965
▁El	-10.0969
▁PA	-10.097
บัตรเครดิต	-10.0971
▁ทีม	-10.0974
กรุงเทพฯ	-10.0975
▁คําแนะนํา	-10.0979
หน่วยความจํา	-10.098
รายได้	-10.0982
สรุป	-10.0982
▁ผู้ผลิตและผู้จ	-10.0984
▁เสื้อผ้า	-10.0984
▁Pack	-10.0987
Shop	-10.0995
ทรา	-10.0998
▁2008	-10.0999
ode	-10.1001
มิตร	-10.1003
สะดวกสบาย	-10.1003
▁โบนัส	-10.1007
▁ชื่อผลิตภัณฑ์	-10.1009
ura	-10.1009
นี้มี	-10.101
`	-10.1012
▁สูตร	-10.1018
▁40%	-10.1018
▁อาจ	-10.1023
วางแผน	-10.1025
สีน้ําเงิน	-10.1027
ตูด	-10.1027
5.5	-10.1028
cor	-10.1031
ซ่า	-10.1031
กระบอก	-10.1036
▁ประวัติ	-10.1037
cam	-10.1039
	-10.1043
“	-10.1043
เกียรติ	-10.1044
ในตัว	-10.1048
▁160	-10.1053
board	-10.1057
-17	-10.1058
310	-10.1064
▁Fu	-10.1069
book	-10.1071
เพิ่ง	-10.1071
ทองคํา	-10.1071
ผู้เชี่ยวชาญ	-10.1072
เรามี	-10.1075
ประเทศญี่ปุ่น	-10.1077
108	-10.108
รีบ	-10.1086
เปลือก	-10.1089
115	-10.1091
▁บันทึก	-10.1094
ภาษาญี่ปุ่น	-10.1095
▁(24	-10.1096
▁ผลผลิต	-10.1098
ทัน	-10.1101
ในเมือง	-10.1101
เวล	-10.1102
เกษตร	-10.1102
2.1	-10.1103
ซื้อขาย	-10.1104
เหลือง	-10.1105
อัลตราโซนิก	-10.1109
ปั่น	-10.111
ness	-10.112
name	-10.1122
สกปรก	-10.1125
แท็ก	-10.1126
เครือ	-10.1129
แคปซูล	-10.1129
ด้วยกัน	-10.1133
▁เครื่องบรรจุ	-10.1138
▁Inter	-10.1138
ความแม่นยําสูง	-10.1144
อดีตแฟนสาว	-10.1149
ular	-10.115
เช้า	-10.1153
▁ซอย	-10.1154
▁และอื่น	-10.1154
มะเร็ง	-10.1154
ส่วนประกอบ	-10.1154
ตัวทําละลาย	-10.1156
แพ้	-10.1157
อนาคต	-10.1163
0.9	-10.1163
ขึ้นมา	-10.1168
เกือบ	-10.117
วิส	-10.1177
เหตุผล	-10.1178
The	-10.1179
การกระทํา	-10.1184
กํากับ	-10.1186
bon	-10.1187
ont	-10.1188
เตียรอยด์	-10.1188
นิรภัย	-10.119
▁Fin	-10.1191
โจมตี	-10.1199
▁Dec	-10.1199
FT	-10.12
▁1200	-10.1202
▁from	-10.1206
ทารก	-10.1215
▁‘	-10.1215
แฟลช	-10.1216
้ด	-10.1219
กับเรา	-10.1219
rid	-10.1228
316	-10.1229
การสั่งซื้อ	-10.1229
0.7	-10.123
เอช	-10.123
ิด	-10.1232
▁LC	-10.1233
ize	-10.1233
ร้อย	-10.1235
สายรัด	-10.1235
เย็บ	-10.1236
▁อัล	-10.1236
2,000	-10.124
เหล็กกล้าไร้สนิม	-10.1241
ama	-10.1244
arm	-10.1245
ละเอียด	-10.1248
ภาพถ่าย	-10.1249
สร้อยข้อมือ	-10.125
▁บี	-10.1251
บุหรี่	-10.1255
0.1	-10.1257
สูบ	-10.1258
▁«	-10.1258
	-10.1259
กิจการ	-10.1261
▁PLC	-10.1262
read	-10.1262
▁Pump	-10.1263
ฝัง	-10.1277
▁สีแดง	-10.1281
ปุ	-10.1284
ผู้บริหาร	-10.1286
วิล	-10.1289
เทียบ	-10.1289
การตัด	-10.1297
▁อินเดียน	-10.13
เวที	-10.1302
260	-10.1304
การก่อสร้าง	-10.1311
การแพทย์	-10.1313
เวียดนาม	-10.1314
ผู้โดยสาร	-10.1322
▁380	-10.1324
ซิล	-10.1325
แผล	-10.1327
-22	-10.1327
▁Smart	-10.1331
ของท่าน	-10.1332
iz	-10.1334
▁Double	-10.1334
เงียบ	-10.1338
▁Jo	-10.1339
,000,000	-10.1342
UP	-10.1343
▁สาธารณะ	-10.1343
ออกกําลังกาย	-10.135
-60	-10.1353
หนึ่งใน	-10.1355
เข็มขัด	-10.1357
ห้องปฏิบัติการ	-10.1361
gsm	-10.1368
ปรับได้	-10.1371
หก	-10.1371
เกินไป	-10.1372
-24	-10.1373
เทค	-10.1374
▁2563	-10.1378
เพียงแค่	-10.1381
ออกไซด์	-10.1385
ไต	-10.1389
▁Win	-10.1393
ไนล่อน	-10.1395
วันเกิด	-10.14
เซล	-10.1402
ทุกๆ	-10.1403
หัวหน้า	-10.1404
km	-10.1411
เต้น	-10.1413
▁Card	-10.1415
ตั้งค่า	-10.1416
eck	-10.1417
▁Market	-10.142
ส่วนหนึ่ง	-10.1421
▁Ja	-10.1422
▁แม	-10.1422
▁Trans	-10.1424
81%	-10.1427
จัดงาน	-10.1427
กําแพง	-10.1429
ทําความร้อน	-10.1432
อัปเดต	-10.1439
หลักทรัพย์	-10.144
▁Hand	-10.1442
อัลบั้ม	-10.1445
▁(3)	-10.145
ความจุ	-10.1451
แบบฟอร์ม	-10.1452
ผู้ถือหุ้น	-10.1456
PRO	-10.1457
▁3.0	-10.1461
สเตนเลส	-10.1464
เซ็กส์	-10.1466
แคลเซียม	-10.1471
เข้าสู่	-10.1473
ประธาน	-10.1478
วีซ่า	-10.1479
หมู	-10.1479
▁JR	-10.1481
▁Cor	-10.1486
ดีมาก	-10.1487
▁ฮา	-10.1493
≥	-10.1494
▁ฟัง	-10.1495
สาน	-10.1495
สแควร์	-10.1496
▁Comp	-10.1503
▁One	-10.1504
▁ฝ่าย	-10.1508
▁ดร	-10.1508
▁รุนแรง	-10.1509
▁Up	-10.151
▁Char	-10.1511
อาศัย	-10.1518
▁125	-10.1522
ปิดผนึก	-10.1524
อบแห้ง	-10.1526
จะทํา	-10.153
บนเว็บไซต์	-10.1532
โบราณ	-10.1533
ช้าง	-10.1535
แอป	-10.1538
ล้าน	-10.1539
ออน	-10.154
▁ราคาถูก	-10.1546
ood	-10.1551
330	-10.1556
▁Port	-10.1556
▁ขา	-10.1556
ild	-10.1563
ชั่ว	-10.157
เบียร์	-10.157
สําหรับผู้	-10.1573
แต่งตัว	-10.1576
pin	-10.1577
▁(21	-10.1577
ตะกร้า	-10.1582
คลิกที่	-10.1583
ตั้งครรภ์	-10.1585
ร้อยละ	-10.1585
bol	-10.1588
ข้อต่อ	-10.1596
▁EUR	-10.1597
ปากกา	-10.1597
แอพ	-10.1598
ลามิเนต	-10.1605
การวัด	-10.1613
5.0	-10.1619
mal	-10.1624
ที่ไหน	-10.163
ประวัติ	-10.1631
▁City	-10.1633
ใบรับรอง	-10.1634
บ่อ	-10.1639
คนอื่น	-10.1645
▁08:	-10.1646
ว่าจะ	-10.165
▁ปัจจุบัน	-10.1651
use	-10.1654
▁3.5	-10.1656
โคร	-10.1657
ข้าวโพด	-10.166
HK	-10.1661
▁นั่ง	-10.1663
สภาพแวดล้อม	-10.1667
ไฟถนน	-10.167
เลอร์	-10.1673
190	-10.1673
มาถึง	-10.1676
lm	-10.1676
กระบอกสูบ	-10.1679
▁เก้าอี้	-10.1681
rom	-10.1691
มาแล้ว	-10.1692
สตูดิโอ	-10.17
บุตร	-10.17
▁xHamster	-10.1705
เดน	-10.1707
▁พิ	-10.1715
หายใจ	-10.1717
▁ใกล้	-10.1722
จิน	-10.1722
3%	-10.1722
▁รู	-10.1724
hat	-10.1727
▁PM	-10.173
ล้ํา	-10.173
ประดิษฐ์	-10.1734
▁CR	-10.1736
▁TUV	-10.1737
สัญลักษณ์	-10.1738
ปะ	-10.1738
Pro	-10.1741
ฟิตเนส	-10.1744
▁พิกเซล	-10.1753
ไค	-10.1759
chan	-10.1764
ไนลอน	-10.1773
ili	-10.1775
her	-10.1776
▁Open	-10.1776
▁กรุงเทพมหานคร	-10.1779
วัตถุ	-10.1783
els	-10.1785
▁พวกเรา	-10.1786
เปีย	-10.1786
▁จากนั้น	-10.1789
เซ็นทรัล	-10.179
roid	-10.179
▁Valve	-10.1791
▁เท่านั้น	-10.1792
320	-10.1794
อารมณ์	-10.1799
ย่าน	-10.1803
เสาอากาศ	-10.1803
66)	-10.1805
ct	-10.1805
อย่างนั้น	-10.1806
▁แหล่ง	-10.1807
แพคเกจ	-10.1809
สดใส	-10.1811
▁World	-10.1811
เล่นเกม	-10.1815
val	-10.1817
เอ็กซ์	-10.182
■	-10.182
ขดลวด	-10.1821
พิจารณา	-10.1824
ทรัพยากร	-10.1824
ความช่วยเหลือ	-10.1825
▁316	-10.1834
▁เครื่องเจาะ	-10.1835
ลื่น	-10.1836
uff	-10.1838
cho	-10.1838
สงคราม	-10.1838
MHz	-10.1839
ition	-10.1839
▁เป็	-10.1841
แช่แข็ง	-10.1843
▁ผู้พัฒนา	-10.1845
▁1.2	-10.1848
คุย	-10.1849
▁คลิป	-10.1852
▁ทารก	-10.1856
】	-10.1865
▁(23	-10.1872
▁DIN	-10.1876
▁ติดตาม	-10.1877
▁Blue	-10.1878
HOTEL	-10.1879
▁Bitcoin	-10.1881
ึก	-10.1881
เป็นมิตรกับ	-10.1883
▁Office	-10.1885
ทิศ	-10.1887
▁Media	-10.1887
vent	-10.189
เข้มข้น	-10.1892
▁เจาะ	-10.1893
▁Plus	-10.1894
หน้าที่	-10.1895
▁Art	-10.1896
▁ฟังนะ	-10.1898
cal	-10.1899
▁240	-10.1899
▁เครื่องเชื่อม	-10.1901
ข้อมูลส่วนบุคคล	-10.1902
ตั้งอยู่ใน	-10.1904
น้ําผลไม้	-10.1905
โปร่งใส	-10.1908
ata	-10.1909
▁อ่านเพิ่มเติม	-10.191
▁แผ่นดิน	-10.191
เข้าพัก	-10.1912
เฟอร์	-10.1912
ในกรณี	-10.1913
อินพุต	-10.1914
ตู	-10.1918
gra	-10.1919
UK	-10.1925
แย่	-10.1931
▁บิต	-10.1936
▁ยี่ห้อ	-10.1938
การประยุกต์ใช้	-10.1938
ONG	-10.1941
ดารา	-10.1941
กําลังการผลิต	-10.1947
о	-10.1957
น้อง	-10.1964
▁สระว่ายน้ํา	-10.1965
ข่าวสาร	-10.1968
▁Gra	-10.1969
▁รวมทั้ง	-10.1969
หมวดหมู่	-10.1969
▁Related	-10.1972
-13	-10.1978
วันอาทิตย์	-10.1979
106	-10.1982
ยูโร	-10.1983
▁ทีวี	-10.1986
【	-10.1986
4000	-10.1988
ลิป	-10.199
lect	-10.199
DP	-10.1996
sol	-10.1997
phone	-10.2003
เลสเบี้ยน	-10.2006
▁หมายเหตุ	-10.2006
แม่นยํา	-10.2007
หน้าจอสัมผัส	-10.2007
▁Wolfberry	-10.2013
สู	-10.2018
inter	-10.2019
и	-10.2019
ใบมีด	-10.2021
▁Cable	-10.2025
หรู	-10.2028
350	-10.2031
ชรา	-10.2033
เกิดอะไรขึ้น	-10.2034
นิกเกิล	-10.2035
ภาชนะ	-10.2054
แลก	-10.2056
แม้	-10.206
แจ็ค	-10.2065
สติ	-10.2066
สี่เหลี่ยม	-10.2073
ial	-10.2085
▁450	-10.2088
mas	-10.2092
▁ประสบการณ์	-10.2095
เงื่อนไข	-10.2097
หน้ากาก	-10.2097
ote	-10.21
นิ่ง	-10.2101
ฝักบัว	-10.2106
สวรรค์	-10.211
ิ้ล	-10.2115
เคลื่อนที่	-10.2118
ชั่วคราว	-10.2122
▁แถบ	-10.2131
▁09:	-10.2133
เหมาะสม	-10.214
โต้	-10.2142
เยน	-10.2143
วินิจฉัย	-10.2144
▁Samsung	-10.2144
พักผ่อน	-10.2145
ซัน	-10.2149
ถาวร	-10.215
กําลังจะ	-10.2152
▁›	-10.2155
itch	-10.216
▁แม็กซ์	-10.2165
▁Bag	-10.2165
▁Organic	-10.2166
ella	-10.2169
ยั่งยืน	-10.217
BE	-10.2171
ลีน	-10.2175
บิต	-10.2176
mic	-10.2176
eep	-10.2177
Cloud	-10.218
การ์	-10.2182
ปวด	-10.2182
ทู	-10.2186
ตู้เย็น	-10.2189
ท้าย	-10.2193
งานแต่งงาน	-10.2194
คลอด	-10.2197
ปูพื้น	-10.2197
-03	-10.2197
ประชาสัมพันธ์	-10.2198
ข้อผิดพลาด	-10.2202
▁ภาพถ่าย	-10.2204
▁มุม	-10.2205
6000	-10.2205
ฮี	-10.2206
มั่นคง	-10.2209
เสร็จสิ้น	-10.2217
ren	-10.2217
วันศุกร์	-10.2217
ring	-10.2219
รณ์	-10.2223
การปรับ	-10.2224
▁PS	-10.2229
ก็จะ	-10.2229
ire	-10.2235
BI	-10.2239
ประหยัดพลังงาน	-10.2243
นักศึกษา	-10.2243
work	-10.2251
▁ครั้งที่	-10.2252
โดยอัตโนมัติ	-10.2253
อีกมากมาย	-10.2255
▁ฝรั่งเศส	-10.2258
-14	-10.2258
▁PTFE	-10.2259
▁2557	-10.226
เซนต์	-10.2261
ลลี่	-10.2264
ush	-10.2272
อาย	-10.2276
ฆ่าเชื้อ	-10.2279
star	-10.2279
โดดเด่น	-10.2283
พี่	-10.2283
ก้าน	-10.2283
▁FA	-10.2283
▁สารสกัดจาก	-10.2284
ร้า	-10.2284
ส่งมอบ	-10.2286
กรุ๊ป	-10.2293
125	-10.2294
ความรู้สึก	-10.2294
▁Cam	-10.2294
ฟอสเฟต	-10.2299
แกรนด์	-10.2299
วาน	-10.23
▁เฟอร์นิเจอร์	-10.2304
▁SH	-10.2306
ฟอก	-10.2306
▁เมา	-10.2309
เลขที่	-10.2311
thai	-10.2313
6.5	-10.2313
▁พารามิเตอร์	-10.2322
ด้า	-10.2322
▁การจัดการ	-10.2322
ลัง	-10.2323
กลยุทธ์	-10.2325
เสื่อ	-10.2329
▁ไม่เป็นไร	-10.2335
วัว	-10.2335
▁พื้นผิว	-10.2336
2.2	-10.2337
▁Metal	-10.2339
▁Mag	-10.2341
บันได	-10.2342
รบ	-10.2345
ในงาน	-10.2347
▁กลับ	-10.2348
งา	-10.2355
ble	-10.2358
ali	-10.2363
ไดร์เวอร์	-10.2364
ฟู	-10.2367
ไวรัส	-10.2367
คลินิก	-10.237
ในวันที่	-10.2373
▁นั่นคือ	-10.2379
ที่สอง	-10.2385
โกะ	-10.2388
ปั้น	-10.2389
▁Yu	-10.2391
LP	-10.2393
บริการลูกค้า	-10.2393
▁กระเบื้อง	-10.2394
ไตรมาส	-10.2397
หัวนม	-10.2401
ต่อไปนี้	-10.2402
ปาร์ตี้	-10.2403
ครั้งที่	-10.2413
มัส	-10.2422
พิษ	-10.2423
ความแข็ง	-10.2424
▁เครื่องยนต์	-10.2424
ห่างจาก	-10.2425
rm	-10.2427
ซิตี้	-10.2428
เด่น	-10.2434
rain	-10.2443
บะ	-10.2443
เบิร์	-10.2446
คดี	-10.2446
บัง	-10.2448
คลังสินค้า	-10.2453
▁อะแดปเตอร์	-10.246
การฝึกอบรม	-10.2475
น้ําแข็ง	-10.2476
é	-10.2477
ที่น่า	-10.2477
เคลื่อนไหว	-10.2478
อิม	-10.2479
เรื่องราว	-10.248
▁War	-10.2481
235	-10.2481
bra	-10.2482
โดยไม่ต้อง	-10.2485
	-10.2487
led	-10.2488
อัตราแลกเปลี่ยน	-10.2489
ใช้ได้	-10.249
ฟอร์ม	-10.2492
lar	-10.2497
สีสัน	-10.2498
มวล	-10.2499
โตะ	-10.2501
คาร์ไบด์	-10.2503
ได้รับรางวัล	-10.2505
▁HP	-10.2505
สิ้น	-10.2506
สําหรับงาน	-10.2508
เลิศ	-10.251
เลน	-10.2511
VPN	-10.2511
ซัพพลายเออร์	-10.2511
nit	-10.2514
ออกซิเจน	-10.2514
gh	-10.2518
ทักษะ	-10.252
คุ้มครอง	-10.2522
เทร	-10.2523
พบกับ	-10.2527
sia	-10.2528
ที่กําหนด	-10.2534
ศีรษะ	-10.2535
การทํางานของ	-10.2535
โพร	-10.2537
TF	-10.2537
หวัง	-10.2538
hai	-10.2539
▁(18+)	-10.2547
ับ	-10.2548
น่าจะ	-10.2549
คริสต์มาส	-10.2557
ทําได้	-10.2558
123	-10.2558
ผ่าตัด	-10.2561
ความแข็งแรง	-10.2562
ช้อปปิ้ง	-10.257
▁Work	-10.257
▁แล้วก็	-10.2571
การแปลง	-10.2573
สําเร็จ	-10.2573
เชื่อถือได้	-10.2573
การตรวจ	-10.2574
กลั่น	-10.2575
สัมภาษณ์	-10.2578
sch	-10.2579
▁โทรสาร	-10.2579
แม็ก	-10.2581
กู้	-10.2584
▁Mat	-10.2588
อร	-10.2589
ไซด์	-10.2592
รัด	-10.2594
▁ยินดีต้อนรับ	-10.26
สัมมนา	-10.2601
lim	-10.2602
โฮสติ้ง	-10.2603
▁Digital	-10.2605
▁Machinery	-10.2608
เครื่องหมาย	-10.2611
จูบ	-10.2615
ที่บ้าน	-10.2619
เวอร์ชัน	-10.262
ผลลัพธ์	-10.262
▁Limited	-10.2622
เซี่ยงไฮ้	-10.2626
.99	-10.2627
back	-10.2627
โกน	-10.2633
pc	-10.2636
สั่นสะเทือน	-10.2639
ได้อย่างไร	-10.2645
▁เพราะว่า	-10.2646
201	-10.2647
กัด	-10.2648
111	-10.2648
lit	-10.2652
-04	-10.2661
ร่วมงาน	-10.2663
เพื่อการ	-10.2667
ก้อน	-10.2669
▁Box	-10.2669
เชี่ยวชาญ	-10.2672
ที่มีอยู่	-10.2673
part	-10.2674
▁เคล็ดลับ	-10.2677
ยอดเยี่ยม	-10.2679
▁04:	-10.2683
ระดับโลก	-10.2686
ลาด	-10.2689
bag	-10.2692
2:00	-10.2693
ทริ	-10.2693
เทล	-10.2693
หด	-10.2695
สีน้ําตาล	-10.2697
ในฐานะ	-10.2698
ชิง	-10.2702
heng	-10.2703
avi	-10.2704
▁มันมี	-10.2714
ในการผลิต	-10.2716
meter	-10.2717
▁anal	-10.2721
▁ข้อความ	-10.2725
▁San	-10.2728
ลิง	-10.2728
▁(26	-10.273
zu	-10.2737
uri	-10.274
เรื่องนี้	-10.274
aker	-10.2743
ใช้งานง่าย	-10.2745
อาชีพ	-10.2745
ami	-10.2751
IO	-10.2756
ได้ง่าย	-10.2757
เล่า	-10.2759
เบิล	-10.2763
ที่น่าสนใจ	-10.2767
โดเมน	-10.2769
สมอง	-10.2775
tar	-10.2784
zo	-10.2787
1:00	-10.2793
บาย	-10.2797
การเลือก	-10.2798
9:00	-10.2805
-05	-10.2808
ให้ฉัน	-10.2809
หรูหรา	-10.281
▁ยาก	-10.2812
โคลน	-10.2817
โชคดี	-10.2822
เพศสัมพันธ์	-10.2822
zhou	-10.2823
้นท์	-10.2827
rr	-10.2827
▁สุขุมวิท	-10.2827
ตะแกรง	-10.2829
▁วันทําการ	-10.2829
ทอด	-10.283
ค้นพบ	-10.2835
คาด	-10.284
ศิ	-10.2842
หิมะ	-10.2844
ลิส	-10.2845
2.00	-10.2848
เจ้าของ	-10.2852
▁Mill	-10.2852
เสถียร	-10.2853
ฮะ	-10.2853
ชีพ	-10.2864
ต้องใช้	-10.2864
กันอย่างแพร่หลาย	-10.2866
ester	-10.2867
ดอน	-10.2869
ตนเอง	-10.2869
ฮาร์ด	-10.2875
104	-10.2877
หน่วยงาน	-10.2882
ระเบียบ	-10.2894
แสดงผล	-10.2896
รายละเอียดสินค้า	-10.2898
ชื่นชอบ	-10.2901
-200	-10.2901
vis	-10.2902
หมายความว่า	-10.2902
107	-10.2902
ประสาน	-10.2907
ซุปเปอร์	-10.2907
กลับไป	-10.2908
แก้ปัญหา	-10.291
Comment	-10.2915
lot	-10.292
bur	-10.2921
oz	-10.2922
สิ่งทอ	-10.2924
ries	-10.2929
สร้างขึ้น	-10.293
play	-10.2932
เป็นไปได้	-10.2934
UM	-10.2941
ประจําวัน	-10.2941
3000	-10.2944
กระทรวง	-10.2945
▁Control	-10.2948
ความต้านทาน	-10.2951
บูชา	-10.2951
ทางทะเล	-10.2957
จร	-10.2964
อ่าง	-10.2966
รับส่ง	-10.2966
ram	-10.2968
พวกมัน	-10.2971
เหล็กเส้น	-10.2974
▁ท่อเหล็ก	-10.2976
รีวิว	-10.2977
ฤดูใบไม้ผลิ	-10.2978
HR	-10.298
now	-10.2988
▁ผมจะ	-10.2988
สติกเกอร์	-10.2993
ดีเซล	-10.2995
ฮอร์โมน	-10.2995
▁โวลต์	-10.2999
▁sa	-10.3003
ระบบปฏิบัติการ	-10.3005
อบรม	-10.3007
▁Rhinestone	-10.3023
ผิวดํา	-10.3024
ชาร์	-10.3025
▁House	-10.3026
โปรตีน	-10.3028
fin	-10.3033
การดําเนินการ	-10.3035
ขับขี่	-10.3035
2015	-10.3038
ที่ฉัน	-10.3039
รูม	-10.3039
สงสัย	-10.3043
ตัวเลข	-10.3043
แรงดึง	-10.3047
▁ราคาต่อหน่วย	-10.3047
การจอง	-10.305
สามารถใช้ได้	-10.3056
▁ตําบล	-10.306
▁ดูดควย	-10.3061
ยอม	-10.3061
หมู่บ้าน	-10.3067
จง	-10.3068
ด้านนอก	-10.3069
ลวดตาข่าย	-10.3072
ที่สวยงาม	-10.308
ในอุตสาหกรรม	-10.3083
▁Online	-10.3092
3.2	-10.3093
▁Nor	-10.3094
ต่ําสุด	-10.3094
พรีเมี่ยม	-10.3106
ette	-10.3109
▁Che	-10.3111
เฮ้าส์	-10.3111
การกู้คืน	-10.3112
▁Wall	-10.3112
oma	-10.3116
เยอรมนี	-10.3117
ต้นไม้	-10.3118
สระ	-10.3128
ดําน้ํา	-10.313
oxy	-10.3134
สายพาน	-10.3137
zz	-10.3142
Components	-10.3142
ค้าง	-10.3145
COM	-10.3148
ature	-10.315
▁code	-10.3155
ware	-10.3156
จ์	-10.3157
ที่มีความ	-10.3161
118	-10.3169
109	-10.3171
สัมภาระ	-10.3172
หัก	-10.3174
▁Bay	-10.3179
cle	-10.3185
▁Ver	-10.319
ประมวลผล	-10.319
ใดๆ	-10.319
โดยเฉพาะ	-10.3191
มื้อ	-10.3191
ฉนวนกันความร้อน	-10.3192
▁Dongguan	-10.3192
ซีรีส์	-10.3195
▁Du	-10.3196
850	-10.3198
ดีขึ้น	-10.32
love	-10.32
ลูกฟูก	-10.3201
อนุมัติ	-10.3202
▁ยินดีต้อนรับสู่	-10.3207
270	-10.3209
tsu	-10.3209
สถิติ	-10.3212
อย่า	-10.3217
ย่าง	-10.3218
จะใช้	-10.3219
▁ผู้หญิงสวย	-10.3221
เพาะ	-10.3223
สวิทช์	-10.3235
oji	-10.3236
การเกษตร	-10.3237
ฮาร์ดแวร์	-10.3237
รถจักรยานยนต์	-10.324
▁มีอะไร	-10.3242
แพ็คเกจ	-10.3248
วัตถุประสงค์	-10.325
▁GR	-10.3251
▁Design	-10.3252
................	-10.3254
แร่	-10.3258
ภัณฑ์	-10.3258
time	-10.3258
วิทยาลัย	-10.3259
คอนเทนเนอร์	-10.3259
LU	-10.3269
สมัครงาน	-10.3271
กู้คืน	-10.3274
right	-10.3276
กลอง	-10.3279
ค้น	-10.3281
dom	-10.3282
shop	-10.3283
▁รุ่นใหญ่	-10.3287
บิด	-10.329
กระดาน	-10.3293
ไม่ต้อง	-10.3293
รถกอล์ฟ	-10.3293
▁Equipment	-10.3297
เบาะ	-10.3301
เครื่องยนต์ดีเซล	-10.3304
ชุบสังกะสี	-10.3309
▁Ultra	-10.3311
▁Long	-10.3317
เป็นเรื่อง	-10.3317
▁Material	-10.3317
เซรามิค	-10.3319
หูฟัง	-10.3321
ต้าน	-10.3327
2.0	-10.3328
▁วันที่อัพโหลด	-10.333
ต้นทุน	-10.3331
ดีไซน์	-10.3337
103	-10.3341
▁Resort	-10.3344
▁On	-10.3345
▁(28	-10.3347
rial	-10.3351
62)	-10.3352
กรง	-10.3353
arn	-10.3353
▁Food	-10.3354
ทางทวารหนั	-10.3358
รัฐบาล	-10.336
มิล	-10.3362
ผู้ที่	-10.3362
▁Dia	-10.3365
รุนแรง	-10.3369
คุณยังสามารถ	-10.337
▁Kit	-10.3373
เครดิต	-10.3378
สติ๊กเกอร์	-10.3378
เสือ	-10.338
ทางการเงิน	-10.3383
สถานการณ์	-10.3383
▁Motor	-10.3385
ที่มีชื่อเสียง	-10.339
bet	-10.3392
อยู่ที่นี่	-10.3393
็กซ์	-10.3395
เข้าถึง	-10.3396
สายรัดข้อมือ	-10.3403
ั้น	-10.3404
เวีย	-10.3405
▁ตรม	-10.3411
แชท	-10.3419
ตัวแทนจําหน่าย	-10.342
▁Lab	-10.3421
อักเสบ	-10.3423
เครื่องขึ้นรูป	-10.3425
cap	-10.3425
▁วาห์	-10.3427
▁เราสามารถ	-10.3429
อัพ	-10.343
count	-10.343
หัวฉีด	-10.3435
สมดุล	-10.3437
ลิงค์	-10.3445
ผิวหนัง	-10.3449
หลักฐาน	-10.3455
ห่าง	-10.3466
จําเป็นต้อง	-10.3467
ada	-10.3469
▁ถุงน่อง	-10.3473
fil	-10.3476
▁ร้อนแรง	-10.3481
ดับ	-10.3485
proof	-10.3486
แปรรูป	-10.3486
ปัก	-10.3488
มีปัญหา	-10.349
ลิฟต์	-10.3491
ทังสเตน	-10.3496
	-10.3505
pen	-10.3507
จะทําให้	-10.3509
112	-10.3513
นะคะ	-10.3513
▁Block	-10.3513
▁Ya	-10.3517
ในเวลา	-10.3522
aki	-10.3531
е	-10.3535
232	-10.3538
ศาสนา	-10.3544
การเทรด	-10.3546
▁Plan	-10.3548
ลุก	-10.3549
ยื่น	-10.3551
เทน	-10.3558
▁แฟกซ์	-10.3558
ดัน	-10.356
มิติ	-10.3561
เก้าอี้	-10.3568
hz	-10.3579
▁BMW	-10.3581
1-3	-10.3583
ความสําเร็จ	-10.3583
ภา	-10.3585
but	-10.3586
ทางออก	-10.3589
หรือเปล่า	-10.359
load	-10.3596
ลูกสูบ	-10.3597
ก็ตาม	-10.3597
-08	-10.3597
girl	-10.3603
ttle	-10.3603
▁Asia	-10.3604
ง่ายต่อการ	-10.3607
สแตนเลสสตีล	-10.3608
เครื่องปรับอากาศ	-10.3611
ฟอร์	-10.3612
โคล	-10.3613
อริ	-10.3613
พระองค์	-10.3615
▁CCC	-10.3616
ริก	-10.3616
สุขุมวิท	-10.3618
ซิส	-10.3618
▁(27	-10.3629
เจล	-10.3632
7.00	-10.3637
uch	-10.3639
นึง	-10.3639
แมลง	-10.3644
เราเป็น	-10.3645
▁Bio	-10.3652
▁Server	-10.3652
คลาสสิค	-10.3655
rate	-10.3657
กังวล	-10.3662
▁ปอนด์	-10.3662
โกจิเบอร์รี่	-10.3667
ลงใน	-10.3669
ปั้ม	-10.367
กระป๋อง	-10.3676
สื่อสาร	-10.3676
บิล	-10.3677
ความสัมพันธ์	-10.3684
que	-10.3685
ส้ม	-10.3686
ero	-10.3686
นําทาง	-10.3691
รวมภาษี	-10.3691
▁wh	-10.3692
เน้น	-10.3693
▁Strip	-10.3693
เธฒเธ	-10.3694
ด้านข้าง	-10.3699
▁Hua	-10.371
▁Mobile	-10.3713
119	-10.3714
FI	-10.3716
ที่ปรึกษา	-10.3719
240	-10.372
การเปลี่ยน	-10.3725
▁Back	-10.3731
เบรก	-10.3736
พริก	-10.3737
ผ้าใบ	-10.374
เวย์	-10.3744
ความร่วมมือ	-10.3748
off	-10.3748
พลัส	-10.3749
▁ไปจนถึง	-10.3752
อักษร	-10.3766
แช่	-10.3769
1.4	-10.377
สตาร์	-10.3773
ยาม	-10.3783
tre	-10.3786
หนี้	-10.379
mark	-10.3797
ลอด	-10.3801
เครื่องซักผ้า	-10.3801
1.00	-10.3802
BTC	-10.3802
เทศ	-10.3803
ที่ทันสมัย	-10.381
รถยก	-10.3814
uit	-10.3817
▁At	-10.3819
เหลว	-10.3822
การเคลื่อนไหว	-10.3824
▁FM	-10.3828
วิญญาณ	-10.3828
ทางเดิน	-10.3828
ปูน	-10.3828
ชีวภาพ	-10.383
เหมือนกับ	-10.383
น้องสาว	-10.3832
พกพา	-10.3833
นอนหลับ	-10.3836
โพแทสเซียม	-10.3837
ขีด	-10.3837
AWG	-10.3839
แสงสว่าง	-10.3847
ผู้ผลิตชั้นนํา	-10.385
รสชาติ	-10.3855
หม้อ	-10.3855
เคาน์เตอร์	-10.3856
กลางคืน	-10.3859
113	-10.3867
เซรามิก	-10.387
มืด	-10.3873
การบริหาร	-10.3876
ซับ	-10.3876
ตัดสินใจ	-10.3877
กระชับ	-10.3878
แวร์	-10.3882
ความรับผิดชอบ	-10.3884
FE	-10.3888
เวิร์	-10.3889
เปิดเผย	-10.3897
ENT	-10.3903
เฟรม	-10.3909
สวีท	-10.3911
ขอบเขต	-10.3912
ปิ้ง	-10.3915
hr	-10.3918
แอบ	-10.3919
นักท่องเที่ยว	-10.3923
สารละลาย	-10.3923
ที่มีคุณภาพ	-10.3925
Com	-10.3925
ฤดูหนาว	-10.393
สาธารณรัฐ	-10.393
ย่า	-10.3932
รูปที่	-10.3934
ule	-10.3938
อ่าว	-10.3938
รถแทรกเตอร์	-10.3939
▁Rights	-10.394
นึก	-10.3941
ทางเพศ	-10.3943
ฑ	-10.395
ไฮดรอลิค	-10.395
แคน	-10.3954
เถิด	-10.396
อัพเดท	-10.3963
มิเตอร์	-10.3971
โดยรวม	-10.3974
▁Day	-10.3977
อธิบาย	-10.3979
คอนโด	-10.3988
rush	-10.3993
get	-10.3996
Print	-10.4
ระงับ	-10.4002
ปราศจาก	-10.4006
▁นี่มัน	-10.4013
แรงงาน	-10.4014
เลส	-10.4022
420	-10.4028
TY	-10.4033
ral	-10.4035
อมควย	-10.4039
▁60%	-10.404
rad	-10.404
ว่ายน้ํา	-10.4044
เวียน	-10.4046
114	-10.4046
cess	-10.4047
ตั้งแต่ปี	-10.4049
▁ราคาปกติ	-10.4049
(6	-10.4052
แรงดันสูง	-10.4054
เหล็กชุบสังกะสี	-10.4055
ผจญภัย	-10.4064
3.5	-10.4067
pon	-10.4072
บัว	-10.4073
ความสุข	-10.4075
▁White	-10.4076
ขนมปัง	-10.4079
กองทัพ	-10.4084
การฉีด	-10.4086
บอน	-10.4096
เวอร์ชั่น	-10.4106
link	-10.4109
สิ่งที่คุณต้อง	-10.4109
UB	-10.4118
แพทช์	-10.4125
ครบวงจร	-10.4129
เหมาะกับ	-10.413
เดิมพัน	-10.413
อีกด้วย	-10.4131
▁ตอ	-10.4137
เดี๋ยวนี้	-10.414
▁dr	-10.4141
1.3	-10.4151
ผู้นํา	-10.4152
ชิน	-10.4152
ทันสมัย	-10.4156
2.3	-10.4158
เป็นที่นิยม	-10.4159
แตกต่าง	-10.4163
▁ตรัส	-10.4165
ดะ	-10.4169
ในปัจจุบัน	-10.417
1.2	-10.417
ด้าย	-10.417
รึเปล่า	-10.4172
ฉลาด	-10.4173
8.5	-10.4173
late	-10.4174
เยื่อ	-10.418
ม่าน	-10.4181
raw	-10.4181
ole	-10.4184
888	-10.4185
sale	-10.4185
960	-10.4187
ที่ใหญ่ที่สุด	-10.4191
ผู้อํานวยการ	-10.4192
แชร์	-10.4193
▁Para	-10.4195
โอเค	-10.4197
ซิป	-10.4198
แขก	-10.4201
▁เย	-10.4203
▁Tea	-10.4206
ง่ายๆ	-10.421
▁Photo	-10.4211
213	-10.4213
ซึ	-10.4215
อเนกประสงค์	-10.4218
н	-10.423
EG	-10.4236
ฟื้นฟู	-10.4242
เรียบร้อย	-10.4244
▁1080	-10.4245
พลาด	-10.4246
134	-10.425
abi	-10.4251
ปัสสาวะ	-10.4257
▁Yobt	-10.4259
View	-10.426
นิวเมติก	-10.4262
ทั้งสิ้น	-10.4262
ศา	-10.4269
พระราม	-10.4272
-07	-10.4279
ผิดปกติ	-10.4279
nes	-10.4283
ที่ใช้งาน	-10.4284
0.2	-10.4288
การรับ	-10.429
ห้องนอน	-10.4291
ริน	-10.4294
โกง	-10.4296
แตะ	-10.4298
video	-10.4301
eek	-10.4301
อุบัติเหตุ	-10.4306
TOR	-10.4306
▁Electric	-10.4311
สําเนา	-10.4314
ต้านทาน	-10.4315
tain	-10.4316
ever	-10.4318
7%	-10.4324
ใช้ในการ	-10.4326
ผัง	-10.4329
oss	-10.433
วงศ์	-10.4336
press	-10.4342
750	-10.4342
▁2556	-10.4343
▁RGB	-10.4347
web	-10.4348
▁Master	-10.4349
ฝีมือ	-10.4351
ection	-10.4351
มองเห็น	-10.4354
หายไป	-10.4354
▁Link	-10.4355
key	-10.4358
ลงไป	-10.4359
้อย	-10.4363
เธญเธ	-10.4363
ให้แก่	-10.4363
▁Fla	-10.4363
▁Sil	-10.4367
ซ่อมแซม	-10.4371
ต้องมี	-10.4373
กระโปรง	-10.4376
VAC	-10.4378
มีความสุข	-10.4378
▁Set	-10.4379
โปแลนด์	-10.438
แต่งหน้า	-10.4388
▁ภาพรวม	-10.4393
▁ขั้นตอนที่	-10.4395
การตกแต่ง	-10.4395
สูงกว่า	-10.44
-80	-10.4406
หมวด	-10.4408
ซอฟแวร์	-10.4413
เซ็ต	-10.4413
เชิงเส้น	-10.4416
NY	-10.4416
ติดต่อเรา	-10.4418
แบ่งปัน	-10.4421
ava	-10.4422
ไปเลย	-10.4422
บรรยาย	-10.4426
แข่งขัน	-10.4432
ศพ	-10.4433
เป่า	-10.4434
▁Out	-10.4434
พิน	-10.4434
กระเป๋าเดินทาง	-10.4438
▁Express	-10.4439
م	-10.4443
อ่างอาบน้ํา	-10.4444
ration	-10.4447
ควรจะ	-10.445
ระบาย	-10.4452
▁Reserved	-10.4461
การสูญเสีย	-10.4469
ทนไฟ	-10.4474
و	-10.4486
บรรทัด	-10.4486
กระแทก	-10.4486
▁gr	-10.4489
อินโดนีเซีย	-10.4491
แคม	-10.4493
หลอม	-10.4496
ในวัน	-10.4497
oil	-10.4503
▁Eco	-10.4505
▁Fiber	-10.4514
รอยสัก	-10.4514
ระเบียง	-10.4519
และเงื่อนไข	-10.4522
เราสามารถ	-10.4534
▁130	-10.4542
เสมือน	-10.4542
tom	-10.4543
รัศมี	-10.4547
๐	-10.4554
เป็นครั้งแรก	-10.4557
กราฟิก	-10.4558
▁Add	-10.4558
ves	-10.4559
house	-10.4561
YA	-10.4561
วัฒ	-10.4562
▁DVB	-10.4568
GI	-10.4572
ต่อปี	-10.4577
อินเตอร์เน็ต	-10.4578
▁(4)	-10.4579
ดัก	-10.4584
IB	-10.4587
ashi	-10.4588
▁นอกจาก	-10.4591
ความหมาย	-10.4597
aya	-10.4609
เนส	-10.461
▁Board	-10.461
▁นอกจากนี้ยัง	-10.461
▁Pvc	-10.4613
▁Tool	-10.462
กี	-10.4622
สวม	-10.4623
ทาวน์	-10.4623
▁แม่บ้าน	-10.4626
▁WordPress	-10.4628
▁Imp	-10.4632
อดีต	-10.4633
ไม่มีการ	-10.4639
คาน	-10.464
ซอฟท์	-10.4641
ร่าง	-10.4645
ย้อนกลับ	-10.4646
มัก	-10.4651
▁Color	-10.4651
iya	-10.4654
▁Converter	-10.4657
ประสาท	-10.4657
ระดับมืออาชีพ	-10.466
ใต้ดิน	-10.4663
มาพร้อมกับ	-10.4664
เชอร์	-10.4667
ible	-10.4668
6.0	-10.467
เมล็ดพันธุ์	-10.4671
▁Sky	-10.4671
ธีม	-10.4674
▁Plastic	-10.4677
▁Anal	-10.4678
คิง	-10.4678
ื่อง	-10.4685
ช็อป	-10.4686
ยักษ์	-10.4687
เป็นศูนย์	-10.4688
ความละเอียดสูง	-10.4688
8%	-10.469
·	-10.4692
โรงงานผลิต	-10.4693
มาเลเซีย	-10.47
▁Har	-10.4704
โส	-10.4707
แตกต่างกัน	-10.4716
▁XL	-10.4718
ียว	-10.472
▁Jin	-10.4724
พูล	-10.4724
สปอร์ต	-10.4731
น้ําหอม	-10.4735
▁10:00	-10.4737
▁Ethernet	-10.4739
วีดีโอ	-10.474
สายเคเบิ้ล	-10.4742
แส	-10.4762
เพาเวอร์	-10.4773
วินาที	-10.4775
นะครับ	-10.4777
ยิ่งใหญ่	-10.4778
ศุกร์	-10.4779
2%	-10.478
43)	-10.4782
char	-10.4783
unch	-10.4784
ن	-10.4788
mate	-10.4791
ที่คุณต้องการ	-10.4791
ฉลอง	-10.4792
▁มันคือ	-10.4793
ฝั่ง	-10.4799
เหวี่ยง	-10.4801
บ่อย	-10.4803
เล็กน้อย	-10.4806
ครบรอบ	-10.4807
▁ปั๊มน้ํา	-10.4807
สํานักงานใหญ่	-10.4814
แนวคิด	-10.4815
ธน	-10.4822
ฟิล	-10.4822
องุ่น	-10.4827
อยู่ไหน	-10.4828
คลาส	-10.4831
▁YouTube	-10.4838
บริจาค	-10.484
▁Chrome	-10.484
hang	-10.4841
สวีเดน	-10.4843
ไม่ยอมใครง่ายๆ	-10.4843
ไล่	-10.4843
ทางด้าน	-10.4844
ตึก	-10.4849
265	-10.4853
ซูเปอร์	-10.486
เซอร์วิส	-10.486
ผู้ประกอบการ	-10.486
คลอง	-10.4862
atsu	-10.4865
matic	-10.4866
ump	-10.4867
hin	-10.487
รถไฟฟ้า	-10.4872
เรย์	-10.4873
คนเดียว	-10.4874
▁ความหนาของ	-10.4874
โดยไม่	-10.4874
แบบนั้น	-10.488
การบํารุงรักษา	-10.4881
31)	-10.4888
▁poly	-10.4889
ความรัก	-10.4893
new	-10.4893
▁การทํา	-10.4893
▁Clo	-10.4893
ก้น	-10.4895
▁FCC	-10.4895
ฟอยล์	-10.49
ฒ	-10.4901
มีอายุ	-10.4902
▁คุณต้อง	-10.4903
เลิก	-10.4905
คอลัมน์	-10.4906
อยากจะ	-10.491
สู้	-10.491
โยน	-10.4915
117	-10.4918
▁เด็กชาย	-10.4924
anna	-10.4924
นํามาใช้	-10.4932
เครื่องเป่า	-10.4933
อะแดปเตอร์	-10.4937
▁Panel	-10.4941
VER	-10.4943
▁Flu	-10.4945
พูดว่า	-10.4946
▁ใช้สําหรับ	-10.4947
tec	-10.4948
วิชาการ	-10.4948
rent	-10.4949
อีเมล์	-10.4951
อนุญาต	-10.4951
side	-10.4951
ทดแทน	-10.4956
หัวหิน	-10.4957
เช่นเดียวกับ	-10.4959
ธาตุ	-10.4962
ช่วยให้คุณ	-10.4965
รับประทานอาหาร	-10.4966
เชล	-10.4967
ในด้าน	-10.4968
▁บางที	-10.497
Tube	-10.4975
▁Dong	-10.4981
▁Bus	-10.4981
450	-10.4984
เจริญ	-10.4985
ที่นั่น	-10.4986
▁data	-10.4986
ขี้ผึ้ง	-10.4988
ไฟฉาย	-10.4988
▁pre	-10.4989
มุมมอง	-10.499
ดูเหมือน	-10.4996
▁Ji	-10.4997
▁อาทิ	-10.5003
▁Green	-10.5004
ราชการ	-10.5006
หล่อลื่น	-10.5006
010	-10.5011
จมูก	-10.5011
ลิขสิทธิ์	-10.5012
โภชนาการ	-10.5014
ะต	-10.5018
โหวต	-10.5022
ผู้เข้าพัก	-10.5023
ซิน	-10.5023
▁แถลงการณ์	-10.5025
ฝ้าย	-10.5025
38)	-10.5028
สีม่วง	-10.5029
▁Apple	-10.5036
ตั้งแต่วันที่	-10.5036
	-10.5043
room	-10.5045
ผอม	-10.5045
ยาห์	-10.5048
จังหวะ	-10.5051
▁เยโฮวาห์	-10.5051
▁Standard	-10.5052
การกระจาย	-10.5053
ฟิน	-10.5055
เป็นพิเศษ	-10.5055
ป์	-10.5056
ข้อมูลเกี่ยวกับ	-10.5059
ระยะยาว	-10.506
410	-10.5065
116	-10.507
▁Street	-10.5075
pornstar	-10.5076
คอร์ส	-10.5076
ผ้าขนสัตว์	-10.5077
ทรัพย์สิน	-10.5078
พัง	-10.5079
▁รายการผลิตภัณฑ์	-10.508
สัดส่วน	-10.5081
โรแมนติก	-10.5083
ผู้ถือ	-10.5095
▁SGS	-10.5096
UI	-10.5098
มุ่ง	-10.51
ียน	-10.5101
บาร์โค้ด	-10.5101
3,000	-10.5104
ลําเลียง	-10.5105
▁MDF	-10.5106
ในพื้นที่	-10.5107
▁Ass	-10.5109
ดังต่อไปนี้	-10.5109
เคน	-10.5113
สถาปัตยกรรม	-10.5116
เสื้อยืด	-10.5116
▁Post	-10.5117
▁Face	-10.5118
ศิลปิน	-10.5124
และกิจกรรม	-10.5125
133	-10.5126
▁nbsp	-10.5126
ทางธุรกิจ	-10.5127
▁Guide	-10.5128
3:00	-10.5128
เพิ่มประสิทธิภาพ	-10.5131
0-3	-10.5132
▁Hard	-10.5136
เคิล	-10.5137
เน็ต	-10.5139
จัดขึ้น	-10.5143
199	-10.5144
๑	-10.5145
▁Ben	-10.5145
สีส้ม	-10.5149
ที่ไม่มี	-10.5149
น้ําท่วม	-10.5151
ไม่จําเป็นต้อง	-10.5151
ทะเบียน	-10.5152
จัดเก็บ	-10.5154
ซอส	-10.5163
ปัจจัย	-10.5164
กิ้ง	-10.5167
▁Ah	-10.517
กลางวัน	-10.5172
ควัน	-10.5177
▁Vol	-10.5179
▁Award	-10.5183
เหล็กกล้า	-10.5185
ท็อป	-10.5186
http	-10.5188
ื่	-10.5188
ที่เกี่ยวข้องกับ	-10.5188
เนียน	-10.519
ศัลยกรรม	-10.5191
aku	-10.5192
เฝ้า	-10.5192
หม้อแปลง	-10.5193
methyl	-10.5194
เซ็นเตอร์	-10.5195
จัดทํา	-10.5198
มักจะ	-10.5199
▁ตัวควบคุม	-10.5202
กรีน	-10.5204
เทพ	-10.5218
มวย	-10.5218
โกจิ	-10.5222
ศัตรู	-10.5224
ชลบุรี	-10.5224
▁เหรียญสหรัฐ	-10.5224
×	-10.5225
▁03:	-10.5225
hotel	-10.5225
ธุรกรรม	-10.5226
▁Japan	-10.5227
ater	-10.5243
ช่องปาก	-10.5247
ION	-10.5249
▁ทางทวารหนัก	-10.525
ฝรั่ง	-10.5253
ฝากเงิน	-10.5261
▁ซึ่งมี	-10.5263
hon	-10.5263
ori	-10.5264
พิกเซล	-10.5267
▁คุณมี	-10.5267
สืบ	-10.5268
3.0	-10.527
ซัล	-10.5272
ham	-10.5273
▁Inn	-10.5274
▁Pass	-10.528
2020	-10.5282
ข้อดี	-10.5283
ทวาร	-10.5283
น่าสนใจ	-10.5285
▁Max	-10.5288
เชื่อมต่อกับ	-10.5294
Global	-10.5294
เกี่ยว	-10.5295
ที่เกิดขึ้น	-10.5297
การเรียนรู้	-10.5301
▁Activ	-10.5311
แห่งประเทศไทย	-10.5315
พาร์	-10.5316
ความแตกต่าง	-10.5317
ตํา	-10.532
ถา	-10.5321
มาตรา	-10.5331
จักร	-10.5333
▁Cur	-10.5339
รั่ว	-10.5339
ยิ่งขึ้น	-10.5345
▁Rock	-10.5347
แนวทาง	-10.535
๊ะ	-10.5361
ฉาย	-10.5361
อาหารเสริม	-10.5362
อิ่ม	-10.5365
สะท้อนแสง	-10.5369
▁ฉันรู้	-10.5376
～	-10.5377
คอมโพสิต	-10.5379
▁Jun	-10.5382
อาจารย์	-10.5382
เกณฑ์	-10.5385
0-1	-10.5385
สายการบิน	-10.5388
บํารุง	-10.5394
ben	-10.5394
▁นมโต	-10.5399
ต่างชาติ	-10.54
ห้องอาบน้ํา	-10.54
▁ผู้จําหน่าย	-10.5404
ใช้งานได้	-10.5404
Thai	-10.5404
คอส	-10.5415
ละติน	-10.5417
การบิน	-10.542
ระบายอากาศ	-10.542
ตามมาตรฐาน	-10.5421
ในทุก	-10.5422
ju	-10.5435
002	-10.5438
ริส	-10.5438
มีค่า	-10.5441
สว่าน	-10.5447
ฉีดพลาสติก	-10.5449
▁10,000	-10.545
▁ดอกไม้สําหรับ	-10.5452
▁Lock	-10.5453
แหล่งจ่ายไฟ	-10.546
MAX	-10.5463
อยู่แล้ว	-10.5463
124	-10.5466
มัธยม	-10.5468
เป็นต้น	-10.547
6.00	-10.5471
ซีเอ็นซี	-10.5474
ความสว่าง	-10.5475
สหภาพ	-10.5476
กรวย	-10.5476
▁เราต้อง	-10.5479
▁Fast	-10.5479
▁Room	-10.5482
สายการผลิต	-10.5482
ALL	-10.5483
สภาพอากาศ	-10.5487
ประสบความสําเร็จ	-10.5488
รวมทั้ง	-10.5488
เลค	-10.5493
138	-10.5493
งาม	-10.5494
วัง	-10.5496
การติดต่อ	-10.5499
พระราช	-10.55
ทางหลวง	-10.5501
ในตลาด	-10.5504
205	-10.5505
ฤดูกาล	-10.551
็ป	-10.5514
ฐานข้อมูล	-10.5516
บิ๊ก	-10.5521
itter	-10.5522
ฟอร์ด	-10.5523
เยอะ	-10.5525
าวน์	-10.5527
จัน	-10.5529
tric	-10.5531
แน่ใจ	-10.5532
ภาพวาด	-10.5532
ime	-10.5534
บูธ	-10.5535
165	-10.5536
AND	-10.5538
รถเช่า	-10.554
ค่อนข้าง	-10.5543
เพลย์	-10.5546
รับประทาน	-10.5547
วงกลม	-10.5551
▁Core	-10.5553
นิตยสาร	-10.5555
▁คุณสมบัติของ	-10.5557
เดอ	-10.5558
▁เครื่องบด	-10.5562
ราม	-10.5563
อุ่น	-10.5564
teen	-10.5565
gar	-10.5571
โล่	-10.5571
▁''	-10.5575
LED	-10.5576
ถู	-10.5579
สงบ	-10.5581
สไลด์	-10.5588
มอร์	-10.5592
ทําอาหาร	-10.5593
คัด	-10.5594
รูปทรง	-10.5596
หมดอายุ	-10.5597
ด้านใน	-10.5598
ธานี	-10.56
axi	-10.5601
กั้น	-10.5602
▁Log	-10.5604
▁Roller	-10.5605
กราฟ	-10.561
▁HDMI	-10.5612
ume	-10.5612
▁Union	-10.5613
ได้ไหม	-10.5614
▁2.4	-10.5614
ปารีส	-10.5616
เที่ยง	-10.5616
ซีเมนต์	-10.5625
▁HI	-10.5629
▁ทาส	-10.5633
แอลกอฮอล์	-10.5633
เลอ	-10.5635
127	-10.5639
▁Live	-10.5641
ตามคําขอ	-10.5644
▁error	-10.565
โซลูชัน	-10.5653
▁Silicon	-10.5654
ตัวนํา	-10.5654
ให้เลือก	-10.5659
เป็นไปตาม	-10.5661
ที่สมบูรณ์แบบ	-10.5662
▁iPad	-10.5662
ลูกปัด	-10.5668
ประสงค์	-10.567
4.2	-10.5671
ในระดับ	-10.5672
▁Chain	-10.5674
pot	-10.5677
168	-10.5678
zi	-10.568
เพื่อสุขภาพ	-10.5681
ลักษณ์	-10.5684
ลุง	-10.5686
เกี่ยวข้อง	-10.5686
▁Val	-10.5689
ปฏิบัติการ	-10.569
121	-10.5694
สถานีรถไฟ	-10.5699
ลิ้นชัก	-10.5702
ใหม่ล่าสุด	-10.5706
สมุด	-10.5706
▁Data	-10.5709
การจัดเก็บ	-10.5709
ful	-10.571
อียิปต์	-10.5713
วิศวกร	-10.5718
tw	-10.5723
สําหรับคุณ	-10.5727
▁Gold	-10.5727
ทุกชนิด	-10.5728
ติดผนัง	-10.5728
tv	-10.5729
เสียใจ	-10.5734
๊ด	-10.5734
▁GSM	-10.5736
ทําเครื่องหมาย	-10.5737
ซ้อน	-10.5741
ริ้วรอย	-10.5744
Zhejiang	-10.5744
oke	-10.5748
▁Electronics	-10.5748
▁Company	-10.575
ไช	-10.5751
▁แท็กที่แนะนํา	-10.5756
สิน	-10.5761
โฮมเมด	-10.5761
เล็	-10.5763
บํารุงรักษา	-10.5782
ที่รวดเร็ว	-10.5785
▁Beach	-10.5787
เอพีเค	-10.5787
วอร์	-10.5788
▁Product	-10.5791
๊า	-10.5792
ART	-10.5793
ไม่เห็น	-10.5797
▁Yo	-10.5798
อยู่บน	-10.5798
จับคู่	-10.5799
อัลลอย	-10.58
ความทนทาน	-10.5802
ไม่รวม	-10.5809
แมกนีเซียม	-10.581
305	-10.5812
Pay	-10.5815
ASS	-10.5818
อนุญาโตตุลาการ	-10.5819
31%	-10.5821
▁Privacy	-10.5822
ไถ	-10.5822
เบย์	-10.5823
สังเกต	-10.5825
►	-10.5825
สายตา	-10.5833
ที่แข็งแกร่ง	-10.5835
THAI	-10.5838
ฎ	-10.5841
175	-10.5843
ผู้คน	-10.5847
หาง	-10.5848
มั๊ย	-10.5848
ลิ่ง	-10.5849
โมโน	-10.5858
INE	-10.5858
เหมาะ	-10.5859
ฟิลิปปินส์	-10.5862
long	-10.5862
▁2555	-10.5862
เดท	-10.5883
ข้อมือ	-10.5884
ชัด	-10.5897
ject	-10.59
ปานกลาง	-10.59
เซลล์แสงอาทิตย์	-10.5905
ฉันจะ	-10.5906
ship	-10.591
▁ASME	-10.5912
เช่นกัน	-10.5913
▁REACH	-10.5917
ปพลิเคชัน	-10.5917
ความกว้าง	-10.592
เลย์	-10.5926
สูงถึง	-10.5932
แลน	-10.5936
นิก	-10.5936
สบู่	-10.5938
144	-10.5942
ก็แค่	-10.5944
р	-10.5946
71%	-10.5947
▁XP	-10.595
▁Hydr	-10.5952
ไอน้ํา	-10.5954
222	-10.5955
แอฟริกา	-10.5957
การใช้พลังงาน	-10.5958
!!!	-10.5959
ขอบคุณ	-10.5962
ส่องสว่าง	-10.5964
ที่หลากหลาย	-10.5967
การวิจัย	-10.5972
ดิจิทัล	-10.5973
630	-10.5975
dic	-10.5976
ส่อง	-10.5981
ถ่านหิน	-10.5982
ไม่จํากัด	-10.5985
▁Jul	-10.5987
▁WiFi	-10.5989
264	-10.5995
และโรงงาน	-10.5995
โทน	-10.5997
fuck	-10.5997
▁Xvideos	-10.5999
ตับ	-10.6001
▁Bit	-10.6003
quot	-10.6006
วิสัยทัศน์	-10.6008
กระบี่	-10.6008
ต้ม	-10.6011
กันเถอะ	-10.6015
▁มันจะ	-10.6017
พูดคุย	-10.6018
ที่มีคุณภาพสูงใน	-10.6022
950	-10.6024
เรียบง่าย	-10.6027
ประทับใจ	-10.6028
พาร์ค	-10.6029
ออร์	-10.603
▁Electro	-10.6031
duct	-10.6035
มีผล	-10.604
เราเตอร์	-10.6044
พูดถึง	-10.6046
▁dis	-10.605
▁Piece	-10.6054
440	-10.6055
ได้โดยตรง	-10.6056
เอาต์พุต	-10.6058
ได้หรือไม่	-10.606
โง่	-10.6061
เล่ม	-10.6062
อยู่กับ	-10.6063
คําว่า	-10.6069
т	-10.607
ถุงมือ	-10.6072
lick	-10.6073
รูปถ่าย	-10.6075
อาวุธ	-10.6076
ตลับหมึก	-10.6088
▁ทําไมต้อง	-10.6092
ใกล้เคียง	-10.6093
เตาอบ	-10.6096
โครเมี่ยม	-10.6096
▁Business	-10.6096
▁กําลังสอง	-10.6097
แนบ	-10.61
485	-10.61
หลอดเลือด	-10.61
gram	-10.61
▁IEC	-10.6102
เอาท์พุท	-10.6105
▁Villa	-10.6106
▁Gen	-10.6109
ove	-10.611
▁End	-10.611
▁วิด	-10.6111
ender	-10.6112
ปฏิเสธ	-10.6123
ไอที	-10.6125
▁Rain	-10.6129
รัฐมนตรี	-10.6129
เครื่องดูดฝุ่น	-10.6129
▁Ball	-10.6132
เท่าไหร่	-10.6132
นักแสดง	-10.6134
ฤทธิ์	-10.6135
4.00	-10.6136
132	-10.6136
pic	-10.6141
oku	-10.6145
เหล็กแผ่น	-10.6147
▁Twist	-10.6147
บลู	-10.615
ไปไหน	-10.6154
▁Club	-10.6154
136	-10.616
more	-10.6169
สามารถเลือก	-10.6169
เดอะ	-10.6176
นําไปใช้	-10.6181
แว่น	-10.6184
VDC	-10.6185
หัน	-10.6186
139	-10.6187
อยู่ที่ไหน	-10.6187
style	-10.6193
145	-10.6195
▁Travel	-10.62
UC	-10.6201
ลัน	-10.6202
hong	-10.6202
Thailand	-10.6204
▁Press	-10.6205
ยี	-10.6205
คลิป	-10.6206
เลว	-10.6209
สินเชื่อ	-10.6216
สวิง	-10.6222
AU	-10.6224
เหล็กหล่อ	-10.6226
เข้ากับ	-10.6226
▁750	-10.6231
เล่	-10.6231
ative	-10.6231
แผ่นเหล็ก	-10.6231
แอปเปิ้ล	-10.6233
128	-10.6239
ขุดเจาะ	-10.6239
Φ	-10.6248
126	-10.6251
ออส	-10.6252
2.7	-10.6256
ทางอากาศ	-10.6257
เจ็บ	-10.6258
พาส	-10.6262
ไตร	-10.6267
สมบูรณ์แบบ	-10.627
8000	-10.6287
มาร์ค	-10.6293
trol	-10.63
การเริ่มต้นการ	-10.63
▁+86	-10.6301
▁SMS	-10.6302
225	-10.6306
รัน	-10.6308
▁ราคาที่ต่ํา	-10.6312
ฝาปิด	-10.6316
วันพุธ	-10.6324
รับส่วนลด	-10.6324
▁Sub	-10.6327
ไหล่	-10.6335
การแก้ไข	-10.6339
จอภาพ	-10.6339
GHz	-10.6342
วอน	-10.6344
mov	-10.6345
512	-10.6349
ที่จําเป็น	-10.6354
word	-10.6356
เทนนิส	-10.6358
ไอคอน	-10.6359
▁00:	-10.6362
ทัศน	-10.6367
ผิดพลาด	-10.637
ggy	-10.637
การซื้อ	-10.6372
▁ไม่ว่าจะเป็น	-10.6373
2.8	-10.6374
ละคร	-10.6374
จี้	-10.6376
ก่อ	-10.6376
▁Geogrid	-10.6378
สัมพันธ์	-10.6381
เซฟ	-10.6382
▁Switch	-10.6388
ยุ่ง	-10.639
ทางเคมี	-10.6393
ท่อเหล็ก	-10.6398
สาเหตุ	-10.6399
3.3	-10.6401
สว่าง	-10.6402
สายพานลําเลียง	-10.6403
PER	-10.6405
▁Chang	-10.6406
Jiangsu	-10.6406
เรียล	-10.6409
หยาบ	-10.6409
iff	-10.641
การจัดอันดับ	-10.6411
down	-10.6412
สกี	-10.642
แฝด	-10.6421
ล่อ	-10.6423
ปากีสถาน	-10.6424
ดาบ	-10.6425
สะท้อน	-10.6426
โทรหา	-10.6429
ด้วยมือ	-10.6434
▁my	-10.6439
ซัลเฟต	-10.644
156	-10.6442
มีประสิทธิภาพสูง	-10.6442
ต้นฉบับ	-10.6443
137	-10.6444
จุ่ม	-10.6445
▁ผลิตจากโรงงาน	-10.6449
TECH	-10.6453
CU	-10.6454
โอซาก้า	-10.6455
สูบบุหรี่	-10.6462
ute	-10.6462
การถ่ายโอน	-10.6468
บทเรียน	-10.6468
ไข	-10.6474
ethyl	-10.6486
การส่งออก	-10.6487
ชาร์จไฟ	-10.6495
ได้อย่างรวดเร็ว	-10.6496
มีคุณสมบัติ	-10.6498
mAh	-10.6499
โรตารี่	-10.6503
ر	-10.6504
เจ็ด	-10.6506
็บ	-10.6506
เรซิน	-10.6507
▁Pol	-10.6509
▁เพียงแค่หา	-10.651
แจก	-10.6514
chlor	-10.6515
หลับ	-10.6516
อะลูมิเนียม	-10.652
ไม่เป็นไร	-10.6522
195	-10.6523
▁LG	-10.6525
ต้องไปหาราคาถูก	-10.6526
บคุณในเร็วที่สุด	-10.6526
ออมและการสํารวจ	-10.6526
▁Pet	-10.6528
++	-10.6528
เดล	-10.6532
นักลงทุน	-10.6534
ในแต่ละ	-10.6537
▁DVD	-10.654
สมุทร	-10.6541
umb	-10.6542
0.3	-10.6542
ลูกบอล	-10.6543
โยคะ	-10.6543
แบคทีเรีย	-10.6547
9.5	-10.6551
ไม่มีใคร	-10.6553
นูน	-10.6559
ขโมย	-10.6563
กลไก	-10.6568
คัดเลือก	-10.6568
amine	-10.6569
ency	-10.6572
ดอลลาร์	-10.658
CHI	-10.6587
▁Excel	-10.6587
Pieces	-10.6589
ผ่อนคลาย	-10.6591
บริโภค	-10.6593
▁Barrier	-10.6594
ราคาต่ํา	-10.6595
คล้าย	-10.6596
ถอย	-10.6598
มีความยืดหยุ่น	-10.6599
ลาติน	-10.6601
	-10.6606
▁Full	-10.6611
ซิลิคอน	-10.6612
▁recover	-10.6613
▁Jammer	-10.6616
๊บ	-10.6622
สนทนา	-10.6625
▁Bank	-10.6626
ทาสี	-10.6627
เต่า	-10.6629
สมาร์ทโฟน	-10.663
▁Mr	-10.6632
pack	-10.6633
พ่วง	-10.6635
bus	-10.6636
lum	-10.6639
ให้คําปรึกษา	-10.6641
ตลับลูกปืน	-10.6644
ซับซ้อน	-10.6647
บางส่วน	-10.6656
ตะกั่ว	-10.6656
▁คริส	-10.666
ผ้าขนหนู	-10.6672
พอดี	-10.6675
กุ้ง	-10.6676
▁320	-10.6679
ทรงกลม	-10.668
เป็นสมาชิก	-10.6682
ความลึก	-10.669
ปฏิกิริยา	-10.6694
นามสกุล	-10.6701
เคส	-10.6708
ยามะ	-10.6711
บีบอัด	-10.6716
1-1	-10.6721
ไข้	-10.6725
430	-10.6727
table	-10.6731
New	-10.6735
ient	-10.6738
▁เขาพูดว่า	-10.6739
สิทธิบัตร	-10.6739
สองชั้น	-10.6739
เรียว	-10.6739
ทันตกรรม	-10.6744
บัส	-10.6747
แรงบิด	-10.6747
ล้มเหลว	-10.6748
สั่น	-10.6748
▁DHL	-10.6751
กล้วย	-10.6754
4.8	-10.6756
กรุณา	-10.6759
▁Internet	-10.6762
การเจริญเติบโต	-10.6767
RAM	-10.6768
ห้างสรรพสินค้า	-10.6773
รอยัล	-10.6775
LAN	-10.6777
ผลิตภัณฑ์ของเรา	-10.678
▁อ่า	-10.6783
door	-10.6784
illa	-10.6786
พฤ	-10.6787
560	-10.6788
card	-10.679
ปราสาท	-10.6795
ความถูกต้อง	-10.68
hole	-10.68
สินทรัพย์	-10.6805
งั้นเหรอ	-10.6807
▁2554	-10.6811
การจัดส่งสินค้า	-10.6817
มุ่งมั่น	-10.6817
สอด	-10.6821
รบกวน	-10.6824
color	-10.6826
run	-10.6832
การณ์	-10.6836
รุ่นใหม่	-10.6838
รัช	-10.6845
ลีก	-10.6846
วันอังคาร	-10.6848
you	-10.6852
ท้าทาย	-10.6852
155	-10.6855
เปิดให้บริการ	-10.6858
▁1.6	-10.686
▁HDPE	-10.6861
เพีย	-10.6866
จะช่วย	-10.6867
▁Tai	-10.6872
คว้า	-10.6875
ตลับ	-10.6877
หอย	-10.6879
ใกล้ชิด	-10.6881
โบรกเกอร์	-10.6884
▁Mono	-10.689
ยูรีเทน	-10.6891
เทอร์มินัล	-10.6897
ปัญญา	-10.6903
ลอนดอน	-10.6904
ส้น	-10.6908
▁2007	-10.6913
▁Acid	-10.6917
Mpa	-10.692
กาล	-10.6922
คําสั่งซื้อ	-10.6924
▁ทั้งนี้	-10.6926
เหล้า	-10.6926
เคเบิ้ล	-10.6929
สอดคล้องกับ	-10.6929
ลูกไม้	-10.6931
เอว	-10.6933
▁รูปภาพและรูปภาพ	-10.6936
ตเตอร์	-10.694
ไมโครเวฟ	-10.6942
กเกอร์	-10.6942
จัดจําหน่าย	-10.6942
▁Spa	-10.6957
การออกกําลังกาย	-10.6959
เพจ	-10.696
อัลลอยด์	-10.696
290	-10.6966
Drive	-10.6966
พิสูจน์	-10.6968
ทบทวน	-10.6968
หยด	-10.6969
พลาสม่า	-10.6971
▁องศาเซลเซียส	-10.6971
graph	-10.6978
ฤ	-10.698
เกต	-10.6981
215	-10.6987
ก่อนที่จะ	-10.6988
ผสมผสาน	-10.6991
บทบาท	-10.6997
โป๊กเกอร์	-10.7001
โอนเงิน	-10.7002
ken	-10.7002
อบอุ่น	-10.7008
ะพ	-10.7018
เกีย	-10.7022
สําหรับการใช้งาน	-10.7023
ه	-10.7023
ประกวด	-10.7023
เกาะสมุย	-10.7029
อย่างมาก	-10.703
990	-10.7033
จอดรถ	-10.7034
rack	-10.7035
ําเนิดไฟฟ้าดีเซล	-10.704
▁Single	-10.7043
อินเตอร์เฟซ	-10.7043
ลาว	-10.7046
สําเร็จความใคร่	-10.7056
นักกีฬา	-10.7056
ida	-10.7061
▁Dual	-10.7063
แทง	-10.7065
แม้ว่า	-10.7067
เธฑเธ	-10.7068
ผู้ใช้งาน	-10.707
ระดับสูง	-10.7073
▁Non	-10.7074
▁01:	-10.7075
▁Industry	-10.7075
serv	-10.7077
ถ้าคุณ	-10.7078
▁Jack	-10.7079
▁Wind	-10.7081
ประทับ	-10.7084
มือสมัครเล่น	-10.7086
ฟูจิ	-10.7087
สําหรับผู้ชาย	-10.709
▁FOR	-10.709
▁Siam	-10.7093
การแสดงผล	-10.7094
ยี่ห้อ	-10.7096
โดยทั่วไป	-10.7097
ปทุม	-10.7098
▁Policy	-10.7098
rag	-10.7111
ل	-10.7115
cut	-10.7115
พี่น้อง	-10.712
ฮัน	-10.7121
ปีใหม่	-10.7136
ปลั๊กอิน	-10.7137
เพน	-10.7137
โดยไม่มี	-10.7141
ดีลักซ์	-10.7141
▁Slurry	-10.7147
เคลือบผิว	-10.7148
▁10000	-10.7154
/10/	-10.7155
เป็นเจ้าของ	-10.7159
การกําหนดค่า	-10.7159
สุ่ม	-10.7167
รายเดือน	-10.7168
▁Oil	-10.7171
แบตเตอรี่ลิเธียม	-10.7176
AST	-10.7176
โมเดล	-10.7179
▁UPS	-10.7181
กระดาษแข็ง	-10.7187
unk	-10.7188
Xxx	-10.7193
ผู้ช่วย	-10.7194
แห่งนี้	-10.7198
หม้อน้ํา	-10.7199
▁Store	-10.7201
ลิลลี่	-10.7202
ตุลาคม	-10.7202
JPY	-10.7209
arch	-10.721
ทะเลสาบ	-10.722
6%	-10.7225
▁Forming	-10.7233
▁NPK	-10.7237
เหมือง	-10.724
ละเมิด	-10.724
band	-10.7249
ซ็อกเก็ต	-10.725
สภา	-10.7255
การเข้ารหัส	-10.7263
และซัพพลายเออร์	-10.7266
สามารถปรับแต่ง	-10.7266
การฝึก	-10.7268
▁Best	-10.7268
กวาด	-10.7268
3.1	-10.7271
▁Garden	-10.7277
ตื่นเต้น	-10.7281
3.00	-10.7291
ขวาง	-10.7293
ไหม้	-10.7295
ดั้งเดิม	-10.7295
กลับบ้าน	-10.7305
พ้น	-10.7306
เหล็กกล้าคาร์บอน	-10.7311
ขนสัตว์	-10.7313
ไฮดรอลิ	-10.7316
berry	-10.733
หนีบ	-10.7331
ในสต็อก	-10.7332
tail	-10.7337
หาคู่	-10.7342
▁ทีนี้	-10.7346
▁Berries	-10.7347
340	-10.7351
บอลลูน	-10.7353
บุญ	-10.7357
โฟลเดอร์	-10.7367
แท็กซี่	-10.7368
▁แผนผังเว็บไซต์	-10.737
▁Jan	-10.7372
▁Rod	-10.7374
▁99%	-10.7375
ได้อย่างง่ายดาย	-10.7375
—	-10.738
157	-10.7386
เซ็กซ์	-10.7387
หลีกเลี่ยง	-10.7387
▁Instagram	-10.7394
▁mod	-10.7394
ยังสามารถ	-10.7397
เป็นกรรมสิทธิ์	-10.7401
ที่ไม่ซ้ํากัน	-10.7404
เฮาส์	-10.7407
▁MSDS	-10.7407
▁University	-10.7411
อุดม	-10.7414
โปรตุเกส	-10.7421
ข้อศอก	-10.7424
ตกปลา	-10.743
ไหว	-10.743
ทนความร้อน	-10.7431
แอปพลิเคชัน	-10.7431
เสน่ห์	-10.7431
core	-10.7437
▁John	-10.7438
head	-10.7441
ชีส	-10.7446
cycl	-10.7447
▁Big	-10.7448
หินอ่อน	-10.7449
ลิปสติก	-10.7451
ipper	-10.7455
ลีย์	-10.7465
▁ตัวแปลง	-10.7467
ที่ผ่านการ	-10.7469
▁ถวาย	-10.7469
น้ําร้อน	-10.7473
ฟื้น	-10.7475
ปีก	-10.7477
อัพเกรด	-10.7477
raft	-10.748
กําลังมองหา	-10.7482
▁บีดีเอสเอ็ม	-10.7485
แปด	-10.7485
±	-10.7488
well	-10.7489
ปรึกษา	-10.7493
และเครื่องดื่ม	-10.7495
ball	-10.7502
บางคน	-10.7504
อนุญาตให้	-10.7508
▁Life	-10.7508
▁3/4	-10.751
ไม่ค่อย	-10.7513
▁Temp	-10.7513
การเก็บรักษา	-10.7523
โตร	-10.7527
▁หนุ่มใส	-10.7528
เงินตรา	-10.7529
tory	-10.7539
204	-10.7544
▁Station	-10.7544
เต็นท์	-10.7547
เย็บปักถักร้อย	-10.7547
PCS	-10.7548
พุทธ	-10.7557
▁1.8	-10.756
ยุทธ	-10.7561
็ง	-10.7563
เชลล์	-10.7566
ความลับ	-10.7568
▁ดูเถิด	-10.7569
เพล็กซ์	-10.7571
▁Filter	-10.7574
▁Time	-10.7576
รับสัญญาณ	-10.7579
ละลายน้ํา	-10.7582
▁Shin	-10.7582
▁อีโม	-10.7587
เอกลักษณ์	-10.7588
soft	-10.7589
สูญเสีย	-10.759
แอนด์	-10.7591
▁Casino	-10.7593
คาเฟ่	-10.7598
สร้อยคอ	-10.7602
á	-10.7605
บ่งชี้	-10.7605
▁ผมสีบรูเนท	-10.7605
▁เฮนไต	-10.7605
▁ชื่อแบรนด์	-10.7606
3.6	-10.7606
น้ําผึ้ง	-10.7612
โกหก	-10.7612
▁Solution	-10.7615
การสมัคร	-10.7618
▁Neoprene	-10.7619
ความสนใจ	-10.7621
ไอเสีย	-10.7622
host	-10.7623
พื้นหลัง	-10.7624
520	-10.7625
อ่านต่อ	-10.7631
เกลียด	-10.7636
หมุด	-10.7636
▁CAT	-10.7637
พวกนี้	-10.7639
ยูเครน	-10.764
เทปกาว	-10.7642
▁VR	-10.7643
▁คุณอยู่ที่นี่	-10.7644
สกรีน	-10.7645
ปฏิบัติตาม	-10.7645
▁เครื่องผสม	-10.7646
เตะ	-10.7646
การอ่าน	-10.7646
น้องชาย	-10.765
ติ้ง	-10.7653
ไฮโดรลิค	-10.7657
hydr	-10.7658
yama	-10.7658
vir	-10.7659
อนามัย	-10.766
คืนเงิน	-10.7662
▁อะไรนะ	-10.7667
610	-10.7669
สําหรับผู้หญิง	-10.7675
▁หวัดดี	-10.7678
งวด	-10.7678
กลิ้ง	-10.7679
hao	-10.7679
ต้องการที่จะ	-10.768
แอด	-10.7681
อินฟราเรด	-10.7681
สถิต	-10.7682
ทางเข้า	-10.7684
บุฟเฟ่ต์	-10.7688
แผ่นหลังคา	-10.7691
งดงาม	-10.7695
เวิลด์	-10.7698
ินทร์	-10.7701
ชิ้นส่วนอะไหล่	-10.7704
สม่ําเสมอ	-10.7705
▁Professional	-10.7706
▁Hong	-10.7707
ความบันเทิง	-10.7709
▁Gar	-10.7711
โชค	-10.7711
185	-10.7712
ด้วยเลเซอร์	-10.7712
เต้นรํา	-10.7716
เออร์	-10.7717
เดร	-10.7719
type	-10.7719
มณฑล	-10.7723
164	-10.7726
4.3	-10.7726
กรัม	-10.7729
▁Industrial	-10.7733
▁ชาวอาหรับ	-10.7736
สหภาพยุโรป	-10.7745
▁Patch	-10.7745
เม็กซิโก	-10.7747
เธฃเธ	-10.7764
ตํานาน	-10.7766
opp	-10.777
ถุงพลาสติก	-10.7771
HU	-10.7772
▁เออ	-10.7776
ขนาดกลาง	-10.778
แทร	-10.7782
▁Vo	-10.779
▁Scr	-10.7801
๒	-10.7807
ได้รับอนุญาต	-10.7807
▁Linear	-10.781
▁98%	-10.7817
9.9	-10.782
บัญชา	-10.7824
แฮม	-10.7826
ต่างหาก	-10.7826
1.6	-10.7827
▁คู่รัก	-10.783
▁128	-10.7838
บรรดา	-10.784
▁MOQ	-10.7843
บาร์บีคิว	-10.7845
เบร	-10.7848
เมนต์	-10.7849
บูรณาการ	-10.7849
สนุกกับ	-10.7852
พรุ่งนี้	-10.7863
รองเท้าแตะ	-10.7873
▁Rose	-10.7879
ough	-10.7882
มัลติ	-10.7885
▁08:00	-10.7887
anta	-10.7888
ยอดขาย	-10.7893
uz	-10.7894
TU	-10.7895
4.1	-10.79
ฮอร์โมนเพศชาย	-10.7902
ไม่กี่	-10.7902
ล็อต	-10.7903
ผี	-10.7904
stone	-10.7904
เลียน	-10.791
ด้วยตัวเอง	-10.7912
โตโยต้า	-10.7913
ept	-10.7913
สลิง	-10.7915
▁Gear	-10.7919
ปริศนา	-10.792
คริสต์	-10.7921
Ningxia	-10.7923
л	-10.7927
▁Off	-10.794
ยิม	-10.7941
อุโมงค์	-10.7941
ขาตั้ง	-10.7951
เร็วๆ	-10.7954
ส่งสัญญาณ	-10.7958
คุณค่า	-10.7959
ฮีโร่	-10.7962
โมเสค	-10.7962
สิ่งนี้	-10.7964
last	-10.7965
พอใจ	-10.7966
▁Mount	-10.7973
threesome	-10.7973
▁ขอบใจ	-10.7974
อาเซียน	-10.7977
กว้างขวาง	-10.7979
▁Program	-10.7979
ท่ามกลาง	-10.798
ี้ยว	-10.7988
ชื่น	-10.7988
»	-10.7997
PLA	-10.7997
เทอร์โม	-10.8
7.0	-10.8002
1200	-10.8003
▁Touch	-10.8007
ตัวเก็บประจุ	-10.8009
▁Cnc	-10.8009
พวกนั้น	-10.8013
▁น้ําหนักสุทธิ	-10.802
▁mature	-10.802
▁Angel	-10.8022
เช็คอิน	-10.8022
สายพันธุ์	-10.8022
ประชากร	-10.8027
ison	-10.803
▁SunPorno	-10.803
ซีซั่น	-10.8034
uku	-10.8037
แซนวิช	-10.8038
ความน่าเชื่อถือ	-10.8039
วันพฤหัสบดี	-10.8042
cker	-10.8043
▁Hosting	-10.8046
ศุลกากร	-10.8056
อวัยวะ	-10.8056
▁Twitter	-10.8056
เชื้อชาติ	-10.8058
129	-10.8065
ดาร์	-10.8066
ความเห็น	-10.8067
เดรส	-10.8068
777	-10.807
ไนท์	-10.8073
แอส	-10.8076
ออกอากาศ	-10.8077
กิจ	-10.8077
ira	-10.8081
ในขณะนี้	-10.8088
กระเช้า	-10.8092
กล้องวงจรปิด	-10.8095
ตระกูล	-10.8095
ภรรยา	-10.8097
กวดวิชา	-10.8099
จัดตั้ง	-10.8101
▁Head	-10.8104
แพร่	-10.8104
ทวีป	-10.8106
▁cnc	-10.8114
ดูดซับ	-10.8119
ยาเสพติด	-10.8128
อวกาศ	-10.8128
510	-10.813
osis	-10.813
▁Solar	-10.8131
▁Over	-10.8132
ทุกประเภท	-10.8133
IX	-10.8134
ไพร	-10.814
ช็อคโกแลต	-10.8142
หีบห่อ	-10.8146
การผ่าตัด	-10.8151
oul	-10.8151
สหรัฐฯ	-10.8152
8.0	-10.8156
Org	-10.8156
hua	-10.8163
ลาร์	-10.8167
ซัมซุง	-10.8168
บุรุษ	-10.8168
พาร์ทเมนท์	-10.8168
กังหัน	-10.8175
เครื่องสูบน้ํา	-10.8179
ยิ้ม	-10.8183
gmail	-10.8192
ไพ่	-10.8192
ศักยภาพ	-10.8193
▁Grand	-10.82
กระเทียม	-10.8201
น่ากลัว	-10.8202
มัลติฟังก์ชั่	-10.8203
ค่าย	-10.8211
บริการหลังการขาย	-10.8213
wood	-10.8217
▁Contact	-10.8219
▁Slot	-10.8224
ATE	-10.8225
ไดรเวอร์	-10.823
คุ้มค่า	-10.8233
มุ่งเน้น	-10.8234
▁Sale	-10.824
เป็นส่วนหนึ่งของ	-10.8241
free	-10.8241
เพื่อดู	-10.8248
ปะเก็น	-10.8252
คลอไรด์	-10.8259
▁มิได้	-10.8262
▁Body	-10.8262
กระโดด	-10.8263
ม์	-10.8264
ชัก	-10.8265
с	-10.8267
PORT	-10.827
▁your	-10.8272
▁SEM	-10.8272
ชวน	-10.8272
รายวัน	-10.8275
มีส่วนร่วม	-10.8275
แนวโน้ม	-10.8281
▁Ext	-10.8284
9%	-10.8287
▁Engine	-10.8293
▁Access	-10.8293
ทับ	-10.8293
/09/	-10.8294
▁Ningbo	-10.8296
▁สั่งขั้นต่ํา	-10.8297
▁อย่างไรก็ตาม	-10.83
▁Flex	-10.8305
ทางด่วน	-10.8305
พัสดุ	-10.8307
นิวซีแลนด์	-10.8307
เจอกัน	-10.8308
iso	-10.8309
▁Rental	-10.8315
JP	-10.8317
460	-10.8321
ค้าปลีก	-10.8324
ika	-10.8325
ประเด็น	-10.8326
▁Display	-10.8327
year	-10.8329
IK	-10.8335
▁Phone	-10.8335
พรี	-10.8336
สมัครเล่น	-10.8339
▁0.01	-10.834
ลดน้ําหนัก	-10.8341
แบล็ค	-10.8344
สํานัก	-10.8345
▁Alex	-10.8346
▁Word	-10.8348
555	-10.8349
▁Grade	-10.8354
208	-10.8354
รับผิดชอบ	-10.8356
158	-10.8358
▁ฉบับที่	-10.8359
โกรธ	-10.8359
▁Pipe	-10.8361
198	-10.8372
เกราะ	-10.8374
ไบโอ	-10.8377
▁บทนํา	-10.8379
แผ่นโลหะ	-10.838
▁Duty	-10.8384
โมง	-10.8386
2.6	-10.8391
เทียบเท่า	-10.8395
▁Heat	-10.8399
Archive	-10.84
บรู	-10.8403
โจว	-10.8404
เซ็กซี่	-10.8408
โฮสต์	-10.841
สามารถเข้าถึง	-10.841
เหล็กคาร์บอน	-10.8414
ศักดิ์	-10.8415
※	-10.8415
คูณ	-10.8419
เคีย	-10.8429
ether	-10.8429
ฮอกไกโด	-10.843
▁Show	-10.8431
เข้ารหัส	-10.8433
actor	-10.8434
Host	-10.8437
ยอง	-10.8438
4.4	-10.8442
▁สมัครสมาชิก	-10.8442
、	-10.8445
สองคน	-10.8445
▁Manufacturing	-10.8449
ลิ้น	-10.845
167	-10.8452
188	-10.8456
โค้ด	-10.8462
ไวท์	-10.8463
EST	-10.8469
list	-10.8472
ทูต	-10.8473
hydro	-10.8477
ความถี่สูง	-10.848
แกรม	-10.848
178	-10.8483
ผลการดําเนินงาน	-10.8483
เจ๋ง	-10.8486
▁School	-10.8486
▁นั่นมัน	-10.8493
▁Brand	-10.8498
เหนียว	-10.8501
▁Connector	-10.8502
แจ็คเก็ต	-10.8506
ique	-10.8508
แบบจําลอง	-10.8509
▁Tour	-10.8509
ฮาร์	-10.8512
2012	-10.8513
เพรส	-10.8513
▁Wood	-10.8515
เครื่องส่งสัญญาณ	-10.8519
เยาว์	-10.852
มือสอง	-10.852
โน่	-10.8522
ปาร์ค	-10.8528
ถั่วเหลือง	-10.8529
ความหลากหลาย	-10.8529
พร้อมใช้งาน	-10.8536
▁เวลาเดินทาง	-10.8543
เสียงรบกวน	-10.8546
มีผลบังคับใช้กับ	-10.8547
▁รับพลังมาจาก	-10.8547
ซัง	-10.8557
สารเติมแต่ง	-10.8558
อนุภาค	-10.8558
เด็กๆ	-10.8561
ม่วง	-10.8569
ward	-10.8573
▁Tower	-10.8574
▁Factory	-10.8577
ization	-10.8577
4,000	-10.858
แชมป์	-10.8581
ห้องสมุด	-10.8582
▁Fire	-10.8584
▁Update	-10.8585
เหนี่ยวนํา	-10.8588
▁Masterbatch	-10.8596
คุ้ม	-10.8605
ส่งเสริมการขาย	-10.8609
เร็	-10.861
ถ่ายทอด	-10.8613
sky	-10.8615
▁BTS	-10.8616
ช็อกโกแลต	-10.8619
สุภาพสตรี	-10.8619
ราคาที่แข่งขัน	-10.8621
เฟิร์มแว	-10.8623
cast	-10.8628
คําขอ	-10.8628
other	-10.8631
แข่งรถ	-10.8632
ฬ	-10.8634
lash	-10.8634
Sets	-10.8637
ครั้งเดียว	-10.8638
South	-10.864
สวมใส่	-10.8641
-240	-10.8643
▁Good	-10.8644
จาร	-10.8648
สุญญากาศ	-10.8649
179	-10.8657
มีเครื่องมือที่	-10.8657
เบนซิน	-10.8658
▁ฉันคิดว่า	-10.866
▁Galaxy	-10.8661
home	-10.8662
การจราจร	-10.8672
สวนสนุก	-10.8675
โรงงานของเรา	-10.8677
ดับเพลิง	-10.868
ดินสอ	-10.8683
แอคเคาท์	-10.8684
สมรรถนะ	-10.8691
อาหารกลางวัน	-10.8693
แป้นพิมพ์	-10.8695
การบริหารจัดการ	-10.8697
เชฟ	-10.8699
▁คําถามที่พบบ่อย	-10.8699
QU	-10.87
และเทคนิคอื่น	-10.8703
ified	-10.8708
พิกัด	-10.8709
▁Flash	-10.8709
รับสมัคร	-10.8713
ผู้บริโภค	-10.8716
ผลข้างเคียง	-10.8718
▁Cross	-10.8723
ไทยแลนด์	-10.8725
anda	-10.8732
คุกกี้ฉบับนี้	-10.8737
ของเราที่ชื่อ	-10.8738
รวบรวมผ่านคุกกี้	-10.8741
▁อีกทั้งอธิบาย	-10.8741
▁ไปใช้อย่างไร	-10.8741
ว่าเรานํา	-10.8741
และปฏิบัติการโดย	-10.8745
เครื่องแต่งกาย	-10.8749
กรุงเทพมหานคร	-10.8751
▁ทูล	-10.8758
ONE	-10.876
ความแข็งแรงสูง	-10.8764
▁Acc	-10.8769
thailand	-10.8773
ประยุกต์	-10.8774
หมุนเวียน	-10.8774
ology	-10.8776
ทั่วประเทศ	-10.8782
อินเทอร์เฟซ	-10.8784
สําหรับผู้ใหญ่	-10.8785
▁1/4	-10.8792
▁GMP	-10.8793
1.7	-10.8795
utter	-10.8796
จัดแสดง	-10.8796
เสื้อกันฝน	-10.8799
แบบดั้งเดิม	-10.8801
lli	-10.8814
ภารกิจ	-10.8819
▁Pattaya	-10.8819
ปอก	-10.8819
ฮู	-10.8822
สาทร	-10.8822
▁อ้อ	-10.8824
สมบัติ	-10.8825
เครื่องอัดอากาศ	-10.8827
ความเป็นจริง	-10.8833
ทุ่ง	-10.8834
etting	-10.8837
ไม่มีรอยต่อ	-10.8846
189	-10.8847
นั่นแหละ	-10.8855
▁โปรดติดต่อที่	-10.8858
ฟีด	-10.8859
ชี้	-10.8865
มะเขือเทศ	-10.8866
▁Laser	-10.887
นําแสง	-10.8872
อุปสรรค	-10.8873
อาณาจักร	-10.8877
พวงมาลัย	-10.8881
▁America	-10.8881
สเตียรอยด์	-10.8885
ดําเนินการตามที่	-10.8885
▁comp	-10.8887
ค่อย	-10.8887
▁เวลาทําการ	-10.889
กระแสไฟฟ้า	-10.8894
ใบพัด	-10.8895
▁desi	-10.8899
การโฆษณา	-10.89
ดําเนินธุรกิจ	-10.8904
คูล	-10.8908
พิซซ่า	-10.8909
เอ๋ย	-10.8909
จ่ายเงิน	-10.8909
จ๊ะ	-10.8912
ผู้ชม	-10.8915
▁Love	-10.8915
ระบุไว้ในหัวข้อ	-10.8916
▁Outdoor	-10.8917
▁และท่านไม่	-10.8917
test	-10.8918
เอกชน	-10.892
▁เร็วเข้า	-10.8925
▁Code	-10.8926
ใช้ยกเลิก	-10.8928
©	-10.8928
ในเมนูตั้งค่าของ	-10.8928
▁ว้าว	-10.8928
ไลฟ์	-10.8931
หากไม่ต้องการให้	-10.8932
ห้องนั่งเล่น	-10.8932
ปฐม	-10.894
จองห้องพัก	-10.8944
ปัด	-10.8949
machine	-10.8952
ขอบเขตอื่น	-10.8953
กู	-10.8955
ปักกิ่ง	-10.8956
ปิโตรเลียม	-10.8956
▁Zhong	-10.8957
ศูนย์กลาง	-10.8959
กระเทย	-10.8968
การ์เด้น	-10.8968
เต็มไปด้วย	-10.8968
izing	-10.8968
แม่เหล็กไฟฟ้า	-10.8973
ห้องเรียน	-10.8973
บางนา	-10.8975
ق	-10.8979
▁that	-10.8981
วรรณ	-10.8987
ไฮโดร	-10.8991
▁Carbon	-10.8994
คุณจะได้รับ	-10.8994
ปลุก	-10.8995
แอพพลิเคชั่น	-10.8995
คําอธิบาย	-10.8996
ตลอดเวลา	-10.9001
ธ์	-10.9006
เจาะรู	-10.9007
เบราว์เซอร์	-10.9007
2.4	-10.9011
▁creampie	-10.9015
เด็ด	-10.9018
มรดก	-10.9019
ผ้าไหม	-10.902
ควบ	-10.9024
▁Suite	-10.9025
กระบวนการผลิต	-10.9028
▁Screen	-10.9031
▁WPC	-10.9032
ระยะห่าง	-10.9035
จิตใจ	-10.904
206	-10.9042
▁Fabric	-10.9043
▁Glass	-10.9043
หมายการค้า	-10.9044
▁Corporation	-10.9047
ี้ยน	-10.9047
หวังว่า	-10.9049
ขัน	-10.9054
▁Vape	-10.9059
omb	-10.906
base	-10.9064
▁ป้า	-10.9069
อนุพันธ์	-10.9069
▁Management	-10.9071
food	-10.9078
izz	-10.9082
▁Outlook	-10.9083
16949	-10.9083
▁ชั	-10.909
ตัวละคร	-10.9098
เมษายน	-10.9104
ห้าง	-10.9105
พยากรณ์	-10.9106
▁Euro	-10.9109
ขายร้อน	-10.911
ผลตอบแทน	-10.9115
อัญมณี	-10.9115
Connect	-10.9115
ฝูง	-10.9119
▁Rubber	-10.9119
18001	-10.9119
แอมป์	-10.9127
บัณฑิต	-10.9131
/12/	-10.9133
ที่มีสีสัน	-10.9134
▁Clamp	-10.9138
ทุกท่าน	-10.9138
▁Wheel	-10.9139
คิดถึง	-10.914
177	-10.9141
ยุติธรรม	-10.9143
ผมบลอนด์	-10.9146
▁Snap	-10.9148
▁TFT	-10.9148
การเดิน	-10.9149
andro	-10.9149
▁Watch	-10.915
มีให้เลือก	-10.9151
วงแหวน	-10.9152
ดีวีดี	-10.9152
อิฐ	-10.9161
▁ราคาเริ่มต้น	-10.9161
ไร้รอยต่อ	-10.9163
▁แท็ค	-10.9163
รีดเย็น	-10.9167
ยุง	-10.9167
แต้ม	-10.9169
▁Geo	-10.9169
ทริป	-10.9176
▁URL	-10.918
ฟู้ด	-10.918
▁ความนิยม	-10.919
เพอร์	-10.919
▁8.1	-10.9194
เกียวโต	-10.9198
	-10.9199
ปริญญา	-10.92
แรงบันดาลใจ	-10.9203
Xhamster	-10.9203
แคมเปญ	-10.9207
ทังสเตนคาร์ไบด์	-10.9212
▁May	-10.9215
▁Western	-10.9219
หลบ	-10.9221
สารสกัดจาก	-10.9221
ลายนิ้วมือ	-10.9223
ะฐ	-10.9224
เข่า	-10.9232
เมาส์	-10.9233
น่าทึ่ง	-10.9256
ทุ่ม	-10.926
▁เชียร์ลีดเดอร์	-10.926
€	-10.9266
สแกนเนอร์	-10.9266
ลําแสง	-10.9268
จราจร	-10.9268
ITE	-10.9273
ไม่ควร	-10.9275
หนอง	-10.9276
เฟอร์รี่	-10.9292
/11/	-10.9295
μ	-10.9296
ปีศาจ	-10.9297
เชียงราย	-10.9309
▁Description	-10.9313
trip	-10.9316
▁Heavy	-10.9317
เศร้า	-10.9321
LAND	-10.9323
บันเทิง	-10.9333
▁กุหลาบแดง	-10.9338
หน้าอก	-10.9341
เรื่อย	-10.9341
ities	-10.935
เมมเบรน	-10.935
เสิร์ฟ	-10.9354
▁interDidactica	-10.9354
เมื่อเทียบกับ	-10.9362
1.8	-10.9363
อินเวอร์เตอร์	-10.9374
พารามิเตอร์	-10.9378
เรืองแสง	-10.9379
อบสวนเพิ่มรถเข็น	-10.938
Studio	-10.9382
▁ปตท	-10.9383
▁Flat	-10.9383
▁MPEG	-10.9391
▁CFD	-10.9393
ซัพพลาย	-10.9399
▁Flow	-10.9399
3.8	-10.9401
ตกแต่งภายใน	-10.9406
▁Paint	-10.9417
▁Security	-10.9428
5.6	-10.9431
แข็งแกร่ง	-10.9433
▁GBP	-10.9434
เพาะกาย	-10.9438
ถือว่า	-10.9441
อาหารสัตว์	-10.9441
สิทธิพิเศษ	-10.9443
มีความเชี่ยวชาญ	-10.9443
แรงกระแทก	-10.9444
ดิสนีย์	-10.9444
ศูนย์การค้า	-10.9447
แอพลิเคชัน	-10.9461
¥	-10.9465
ت	-10.9465
▁Bluetooth	-10.9465
к	-10.9469
เส้นผม	-10.947
aff	-10.9471
Benz	-10.9471
ทึบ	-10.9473
▁ร้านค้าปลีก	-10.9475
การแจ้งเตือน	-10.9477
ผ้าม่าน	-10.9478
▁ใจเย็น	-10.9481
เป็นที่รู้จัก	-10.9484
▁ว่าไง	-10.9486
▁นางฟ้า	-10.9488
ไลฟ์สไตล์	-10.9491
oshi	-10.9494
อย่างยิ่ง	-10.9498
6,000	-10.9504
▁มานี่	-10.9512
เหยื่อ	-10.9515
เสียชีวิต	-10.9515
▁Meter	-10.9515
งานศิลปะ	-10.9517
มือจับ	-10.9518
▁POE	-10.952
▁ไม่เอาน่า	-10.9523
ตั้งใจ	-10.9526
ทําหน้าที่	-10.9527
เชิงปฏิบัติการ	-10.9529
งานเลี้ยง	-10.953
د	-10.9532
เป็นผู้นํา	-10.9537
แหลม	-10.954
▁Download	-10.954
▁Mercedes	-10.9544
การลงทะเบียน	-10.9545
▁DIY	-10.9546
เพียงพอ	-10.9548
;#39;	-10.9548
มีเสถียรภาพ	-10.9553
ประจําตัว	-10.9554
ปฏิบัติงาน	-10.9557
iving	-10.9558
5.8	-10.956
♪	-10.9565
ได้รับการออกแบบ	-10.9568
▁ข้อดีของ	-10.9568
ยับยั้ง	-10.9569
9,000	-10.9575
ประติมากรรม	-10.9582
▁แซม	-10.9585
▁มือสมัครเล่นแน่	-10.9589
รองพื้น	-10.959
อยู่ใกล้	-10.9591
อัพโหลด	-10.9595
บอลวาล์ว	-10.9599
คุณอาจ	-10.9607
ทรมาน	-10.9607
pdf	-10.9608
▁JIS	-10.9611
roll	-10.9615
▁OHSAS	-10.9615
ใบเสนอราคา	-10.9622
▁Electronic	-10.9623
วุฒิ	-10.9624
SHI	-10.9624
พวงกุญแจ	-10.9637
กัญชา	-10.9637
→	-10.9637
▁(8)	-10.9639
จอมเทียน	-10.9653
เคารพ	-10.9658
ให้แน่ใจว่า	-10.966
ปริญญาตรี	-10.9662
ผ้าห่ม	-10.9662
LOG	-10.9663
หลาน	-10.9665
แถม	-10.967
ซุป	-10.9674
▁Inflatable	-10.9675
สบายดี	-10.9676
บางครั้ง	-10.9677
▁ผู้ติดต่อ	-10.9681
โรมาเนีย	-10.9683
ผลึก	-10.9688
แฟรง	-10.969
พฤศจิกายน	-10.9695
▁วันหลังจาก	-10.9698
เป้สะพายหลัง	-10.9704
world	-10.9704
ไฮโดรเจน	-10.9705
โทรคมนาคม	-10.9706
online	-10.9706
Sec	-10.9711
สวนสาธารณะ	-10.9714
8.3	-10.972
จดหมายข่าวจาก	-10.9721
▁Ann	-10.9722
โธ	-10.9725
เคลื่อนย้าย	-10.9726
บรรทุก	-10.9729
Ω	-10.973
ินเตอร์เนชั่นแนล	-10.973
▁1,500	-10.9739
งบประมาณ	-10.974
คําพูด	-10.9742
ระยอง	-10.9742
中文	-10.9743
บุคลากร	-10.9743
เอียง	-10.9743
เคอร์	-10.9743
▁กรุณาติดต่อ	-10.9748
แผ่นดินใหญ่	-10.9752
โพรพิลีน	-10.9755
▁Java	-10.9757
▁Drill	-10.9757
เครื่องใช้ไฟฟ้า	-10.9757
เจ็บปวด	-10.976
กดปุ่ม	-10.9762
water	-10.9762
มีชื่อเสียง	-10.9764
ssa	-10.9765
บกพร่อง	-10.9768
แผงควบคุม	-10.9776
ถ่ายเทความร้อน	-10.9781
▁gets	-10.9781
▁ข้อมูลอัปเดต	-10.9783
▁sub	-10.9788
Singapore	-10.9794
▁Royal	-10.9794
ทําให้เกิด	-10.9794
เครื่องกล	-10.9796
พระผู้เป็นเจ้า	-10.9798
ธันวาคม	-10.9806
ชิ้นงาน	-10.9807
▁HTML	-10.9807
ต้องการรับอีเมล	-10.9811
แม้แต่	-10.9812
สนิม	-10.9812
▁WIFI	-10.982
ข้อความล่าสุดโดย	-10.9824
oka	-10.9825
ร้องขอ	-10.983
ศตวรรษ	-10.9833
group	-10.9833
ขนาดกะทัดรัด	-10.9833
▁OBD	-10.9833
บํารุงผิว	-10.9834
ไนโตรเจน	-10.9837
0-0	-10.984
ฤดูใบไม้ร่วง	-10.9841
▁Floor	-10.9841
▁อ้า	-10.9844
ชั่ง	-10.9845
อีพ็อกซี่	-10.9845
▁05:00	-10.9848
ชุ่ม	-10.985
เว้น	-10.9853
▁Enterprise	-10.9854
แท็บ	-10.9854
บาดเจ็บ	-10.9867
ลิงก์	-10.9876
▁ฟรีสปิน	-10.988
▁Optic	-10.988
▁Network	-10.9884
เพลิดเพลินกับ	-10.9889
น้อยลง	-10.9892
เครื่องสําอางค์	-10.9895
ตลาดหลักทรัพย์	-10.9895
▁ฉันขอโทษ	-10.9897
แก้ไขปัญหา	-10.9898
wear	-10.9901
▁Lockout	-10.9903
ดาดฟ้า	-10.9915
▁Trading	-10.9915
เมฆ	-10.9921
ศูนย์บริการ	-10.9922
▁series	-10.9924
พาวเวอร์	-10.9924
บีเอ็มดับเบิลยู	-10.9928
กระสุน	-10.9941
field	-10.9941
▁เยซู	-10.9943
babes	-10.9943
ตั้งแต่เวลา	-10.9945
Direct	-10.9948
แอฟริกัน	-10.9949
หมู่เกาะ	-10.9951
หมัก	-10.9954
สามารถใช้งานได้	-10.9956
▁Plate	-10.9959
▁Wifi	-10.9961
ถิ่น	-10.9966
พื้นดิน	-10.9968
สงวน	-10.9984
สนามเด็กเล่น	-10.9984
ดีบุก	-10.9989
สนุกสนาน	-10.9993
▁อับ	-10.9993
เด็กซ์	-10.9998
▁LINE	-11.0005
ค้อน	-11.0006
กระเป๋าถือ	-11.0012
หม้อไอน้ํา	-11.002
จัดอันดับ	-11.0022
▁สถานที่ตั้ง	-11.0038
วาล์วผีเสื้อ	-11.0038
คอนเสิร์ต	-11.0041
ปรับระดับ	-11.0043
▁ชาวญี่ปุ่น	-11.0048
▁Twin	-11.0049
สต็อก	-11.005
ยิว	-11.0053
วิจารณ์	-11.0054
▁คุณครู	-11.0061
เปลวไฟ	-11.0068
ครอส	-11.0078
▁เบอร์โทรศัพท์	-11.0085
นาโกย่า	-11.0085
▁micro	-11.0088
สาระ	-11.0089
ปลดปล่อย	-11.0094
บุ๊ค	-11.0094
อิสราเอล	-11.0094
ป่วย	-11.0094
▁Casting	-11.0096
▁มิลลิกรัม	-11.0098
ปรัชญา	-11.0098
▁items	-11.0099
เสียงหัวเราะ	-11.0101
posit	-11.0105
ตราสาร	-11.0109
อะคริลิค	-11.011
ความยืดหยุ่น	-11.0111
▁FOB	-11.0112
ทุนจดทะเบียน	-11.0116
ไซน์	-11.0118
cumshot	-11.0121
ซีรีย์	-11.0121
เก่ง	-11.0125
ทรงกระบอก	-11.0128
กลืน	-11.0129
▁SEO	-11.013
8,000	-11.0131
รีเลย์	-11.0131
พี่ชาย	-11.0133
สตาร์ท	-11.0139
▁Diamond	-11.0147
ธี	-11.015
▁Fuji	-11.0154
ตัวแปร	-11.0155
ศัพท์	-11.0157
เลื่อย	-11.0161
เซอร์โว	-11.0164
IVE	-11.0171
แมท	-11.0179
▁เดี๋ยวก่อน	-11.0182
▁มิลลิลิตร	-11.0183
พิการ	-11.0185
พักอาศัย	-11.0188
ـ	-11.0192
photo	-11.0192
เวิร์ค	-11.0193
อุทยาน	-11.0196
เฉพาะอย่างยิ่ง	-11.0197
ครั้งล่าสุด	-11.0197
▁Spring	-11.02
รู้ไหม	-11.02
เอนไซม์	-11.0201
ฝึกอบรม	-11.0202
เข้ากันได้กับ	-11.0205
เวกเตอร์	-11.0205
เทอร์โบ	-11.0206
ภาษาจีน	-11.0206
japanese	-11.021
▁Rfid	-11.021
รถไฟใต้ดิน	-11.0212
รักษ์	-11.0222
ปรุงรส	-11.023
▁dildo	-11.0232
แสดงให้เห็น	-11.0232
ด้านเทคนิค	-11.0232
ดํารง	-11.0233
▁HDporn	-11.0237
▁ดาราหนังโป๊	-11.025
ทรัพย์	-11.025
▁บิดา	-11.0253
เปรียบ	-11.0254
▁trans	-11.0267
เช็ด	-11.0268
-----	-11.0271
▁ป๊ะป๋า	-11.0281
ผู้เข้าร่วม	-11.0284
เทอม	-11.0284
ษา	-11.029
หญิงสาว	-11.0292
▁บิกินี่	-11.0306
▁Shijiazhuang	-11.0308
▁Phuket	-11.0317
เอ็ด	-11.032
พวกคุณ	-11.0321
เตียงใหญ่	-11.0323
วิถี	-11.0326
ต่างหู	-11.0327
▁Two	-11.0333
▁เมื่อวาน	-11.0333
14001	-11.0333
ไอออน	-11.0339
หลังจากนั้น	-11.0339
กําจัดขน	-11.034
แคมป์	-11.0345
3.9	-11.0348
ปรับเปลี่ยน	-11.0352
สิงหาคม	-11.0356
9.99	-11.0371
ศาสตราจารย์	-11.0376
ü	-11.0381
ปกครอง	-11.0398
ฮังการี	-11.0399
สนามกีฬา	-11.04
/03/	-11.0404
ยินดีต้อนรับ	-11.0405
▁Price	-11.0405
▁สเปค	-11.0408
▁พันล้าน	-11.0408
▁0.05	-11.0417
เยาวชน	-11.0417
ช้อป	-11.0421
และผู้จําหน่าย	-11.0422
พรรค	-11.0422
เบื้องต้น	-11.0426
เลขานุการ	-11.0431
ช่วยลด	-11.0441
ตีพิมพ์	-11.0449
ได้รับความนิยม	-11.0449
ความเข้าใจ	-11.0457
ขาเข้า	-11.0462
▁Linux	-11.0467
ขี้	-11.0471
5.1	-11.0473
เยือน	-11.0477
▁Hospital	-11.0477
1.9	-11.0484
power	-11.0489
search	-11.0491
ประธานกรรมการ	-11.0493
ยิป	-11.0493
▁***	-11.0495
น้ํามันหล่อลื่น	-11.0498
วอลล์เปเปอร์	-11.0504
ชิมะ	-11.0505
ผา	-11.0507
▁น้ําเงิน	-11.0511
แค่ไหน	-11.0513
9000	-11.0514
ลวดเชื่อม	-11.0517
Stock	-11.0525
โบสถ์	-11.0532
Forex	-11.0533
▁ดิลโด้	-11.0538
เมนท์	-11.0543
▁Square	-11.0546
ทุกข์	-11.0546
5.4	-11.0555
โรงสี	-11.0558
ควบคุมอุณหภูมิ	-11.0559
อึ	-11.0562
▁Track	-11.0574
เสรี	-11.0574
ได้รับการยอมรับ	-11.058
ฟักทอง	-11.0583
ได้รับการอนุมัติ	-11.0585
▁AUD	-11.0586
มังกร	-11.0587
▁Spandex	-11.0592
โฟกัส	-11.0597
คุยกัน	-11.06
โลจิสติกส์	-11.0601
2.9	-11.0604
เสด็จ	-11.0615
6.2	-11.0619
▁MACHINE	-11.062
ฟิลด์	-11.0623
สัตวแพทย์	-11.0625
▁Film	-11.0635
9.0	-11.0636
มหัศจรรย์	-11.0643
ลูกปืน	-11.065
บรรเทา	-11.0652
ประมง	-11.0657
กรรมการผู้จัดการ	-11.0661
บาร์เซโลนา	-11.0662
▁กางเกงใน	-11.0664
▁State	-11.067
กรุงศรี	-11.0673
กุมภาพันธ์	-11.0679
แร็ค	-11.0681
โลหิต	-11.0684
แวมไพร์	-11.0685
คาร์บอนไฟเบอร์	-11.0692
แมค	-11.0696
ตัดสิน	-11.0697
12345	-11.0698
ผู้เข้าชมทั้งหมด	-11.0698
รีโมทคอนโทรล	-11.0702
ผ้าอ้อม	-11.0713
ผู้เชี่ยวชาญด้าน	-11.0715
ประกันชีวิต	-11.0722
Pornhub	-11.0737
▁Safety	-11.0742
สนิท	-11.0746
▁ROHS	-11.0751
▁Audi	-11.0761
ลําบาก	-11.0765
▁Stick	-11.0768
▁Ferro	-11.0769
,000.00	-11.0777
แชมพู	-11.0779
▁Space	-11.0783
อัพเดต	-11.0789
0/1	-11.0793
คลอรีนไดออกไซด์	-11.0794
ชํานาญ	-11.0798
มิตซูบิชิ	-11.0798
เก็บเกี่ยว	-11.08
ASH	-11.08
▁RSS	-11.0803
ทฤษฎี	-11.0803
หิว	-11.0806
▁Aqua	-11.0812
▁ชาวรัสเซีย	-11.0815
wind	-11.0816
▁Pyrolysis	-11.0817
▁Loader	-11.0817
ความสว่างสูง	-11.0819
อนุรักษ์	-11.0823
friend	-11.0827
service	-11.0828
uki	-11.0832
แคตตาล็อก	-11.0841
พลาซ่า	-11.0846
ขอขอบคุณ	-11.0849
▁Tape	-11.0849
เหนื่อย	-11.0851
กัมพูชา	-11.0851
แหล่งกําเนิดแสง	-11.0851
ออสเตรีย	-11.0851
▁Lift	-11.0857
ลวดลาย	-11.0869
ไมค์	-11.0869
ー	-11.0874
▁Paper	-11.0876
ขัง	-11.0883
ดวงตา	-11.0887
คอยล์	-11.0897
จักรเย็บผ้า	-11.0903
rail	-11.0905
▁Baby	-11.0907
ฟิล์มยืด	-11.0909
▁เด็กนักเรียน	-11.091
ร็อค	-11.0914
โบว์	-11.0924
▁Oct	-11.0931
ศิลป์	-11.0938
เหล่านั้น	-11.094
ชื้น	-11.0941
▁อะไรคือ	-11.0942
รัล	-11.0943
▁17:00	-11.0948
ปริญญาโท	-11.095
แผนภูมิ	-11.0951
กระทู้	-11.0951
▁Central	-11.0956
ความคุ้มครอง	-11.0957
เอ็ก	-11.0961
จ้ะ	-11.0966
4.7	-11.0967
พันธ์	-11.0969
ขาออก	-11.0972
ภูมิใจ	-11.0985
สก์	-11.0992
ดึงดูด	-11.0992
ศิลป	-11.0994
นิวยอร์ก	-11.0995
▁Project	-11.0998
ราบรื่น	-11.0999
▁Musk	-11.1
▁mom	-11.1002
สาธิต	-11.1004
ถ่ายรูป	-11.1004
รุ่ง	-11.1026
▁RedTube	-11.1034
โกลด์	-11.1038
ATION	-11.1041
▁WhatsApp	-11.1043
มะนาว	-11.1043
▁Wrap	-11.1044
อ้าง	-11.1048
กรรไกร	-11.1058
7000	-11.1061
▁Vinyl	-11.1062
เหมืองแร่	-11.1062
คะแนนสะสม	-11.1067
ปรุงอาหาร	-11.1073
ชุมนุม	-11.1077
มะพร้าว	-11.1077
ความเครียด	-11.1079
ไฮบริด	-11.1082
/04/	-11.1085
▁Natural	-11.1096
นอกเหนือจาก	-11.1097
ด่าง	-11.1097
▁Director	-11.1097
ตัดเลเซอร์	-11.1098
นิยาม	-11.1104
life	-11.1109
เลี้ยว	-11.1119
▁Golden	-11.112
สวัสดิ์	-11.1121
ใช้เวลาประมาณ	-11.1123
ฟอเร็กซ์	-11.1126
ี๊ย	-11.1131
จัดเก็บข้อมูล	-11.1131
ตะขอ	-11.1134
	-11.1136
▁Creat	-11.1143
▁Development	-11.1145
▁อีโรติก	-11.116
ดุสิต	-11.1175
แก๊ง	-11.1176
นนทบุรี	-11.118
struct	-11.1185
▁แกลเลอรี่	-11.1185
พฤษภาคม	-11.1187
▁Stand	-11.1198
▁Special	-11.12
เดนมาร์ก	-11.12
▁Extract	-11.1205
กําปั้น	-11.1219
▁Sheet	-11.1224
เจมส์	-11.1234
ผลประโยชน์	-11.1243
มัลติมีเดีย	-11.1244
▁Sensor	-11.1249
▁1,0	-11.125
▁babe	-11.1251
▁Mesh	-11.1253
รายละเอียดโดยย่อ	-11.1254
สารสนเทศ	-11.1259
สามารถทําได้	-11.126
ฝ่ายขาย	-11.1261
มิลลิ่ง	-11.1264
ตะเข็บ	-11.1269
▁ดูทีวีออนไลน์	-11.1269
ซัปโปโร	-11.1274
HAN	-11.1278
แอมโมเนีย	-11.1279
ทางกายภาพ	-11.1279
▁สิ่งอํานวยความ	-11.1285
ฉีดขึ้นรูป	-11.1288
ตะวันออกเฉียงใต้	-11.1289
ชั่งน้ําหนัก	-11.1293
เจ้าสาว	-11.1298
นอร์เวย์	-11.1299
ขบวน	-11.1314
▁Eye	-11.1316
	-11.1319
เภสัชกรรม	-11.1319
ออกแบบมาเพื่อ	-11.1332
เบเกอรี่	-11.1334
▁พี่เลี้ยงเด็ก	-11.1339
เคล็ดลับ	-11.1344
ตอนเช้า	-11.1344
เทิร์น	-11.1349
/01/	-11.1349
ว่างเปล่า	-11.1352
โปรโตคอล	-11.1354
เห็ด	-11.1355
พวกเจ้า	-11.1356
วาเลนไทน์	-11.1359
ออนเซ็น	-11.1363
มิถุนายน	-11.1366
▁แคสติ้ง	-11.1379
▁กองทุนเปิด	-11.138
แต่งตั้ง	-11.1382
สามเหลี่ยม	-11.1382
บานพับ	-11.1386
ขอร้อง	-11.1403
ปาล์ม	-11.1414
วีเนียร์	-11.1419
บําบัดน้ําเสีย	-11.1419
▁GROUP	-11.1419
▁Software	-11.1419
▁Universal	-11.1419
▁Decanate	-11.1419
พระราชบัญญัติ	-11.1424
งานแสดงสินค้า	-11.1425
เสียหาย	-11.1425
5.2	-11.1432
เกล็ด	-11.1434
ไดโอด	-11.1444
เป่าลม	-11.1449
place	-11.1451
คอร์ปอเรชั่น	-11.1454
▁Terminal	-11.1454
นิสสัน	-11.1454
หัวเราะ	-11.1456
▁Protection	-11.1459
в	-11.1459
▁น้ําหนักโมเลกุล	-11.1461
กระดาษคราฟท์	-11.1469
นักสืบ	-11.1474
▁busty	-11.148
วัดอุณหภูมิ	-11.1484
ผู้ดูแลระบบ	-11.1505
เสื้อกันหนาว	-11.151
ฟิวส์	-11.151
▁Empflix	-11.1515
ทําน้ําอุ่น	-11.1516
▁สถานที่กําเนิด	-11.152
พื้นที่ใช้สอย	-11.152
▁อําเภอเมือง	-11.1521
3.4	-11.1524
กระเป๋าสตางค์	-11.153
▁Machining	-11.153
ชีพจร	-11.1531
▁แรงม้า	-11.1531
กางเกงยีนส์	-11.1536
คัพ	-11.1541
▁Purlin	-11.1541
จินตนาการ	-11.1546
▁Supply	-11.1546
ประกอบไปด้วย	-11.1546
ฃ	-11.1546
เคลียร์	-11.1551
▁Pulse	-11.1551
โหดร้าย	-11.1556
กรีก	-11.1562
ครัวเรือน	-11.1567
ฤดู	-11.1574
▁โบนัสคาสิโน	-11.1575
▁ช่องทีวี	-11.1578
8.8	-11.1581
สิทธิประโยชน์	-11.1582
ถ้ํา	-11.1592
พรรณ	-11.1592
แชมเปญ	-11.1597
▁Solenoid	-11.1597
๕	-11.1607
นักลงทุนสัมพันธ์	-11.1608
โมเลกุล	-11.161
▁Packaging	-11.1618
รัตน์	-11.1618
eather	-11.1618
▁ฉะนั้น	-11.1628
อิตาเลียน	-11.1633
IGHT	-11.1635
ชดเชย	-11.1638
ตั้งโต๊ะ	-11.1652
▁เฟติสฆ์	-11.1659
พฤติกรรม	-11.1659
แหล่งที่มา	-11.1661
ชมพู	-11.1666
ยางพารา	-11.1669
ท่าอากาศยาน	-11.1674
คาร์บอเนต	-11.1685
สอดคล้อง	-11.1701
ควอตซ์	-11.1705
ANT	-11.171
กิโลกรัม	-11.1718
Language	-11.1726
mission	-11.1727
เงินปันผล	-11.1737
▁Premium	-11.1737
1-0	-11.1741
▁Kneader	-11.1742
▁การรักษาพื้นผิว	-11.1748
▁แฟนสาว	-11.1748
▁bbw	-11.175
▁โมเสส	-11.1752
ซากุระ	-11.1753
▁YouPorn	-11.1754
โถ	-11.1761
cross	-11.1766
▁Thermo	-11.1768
▁Airport	-11.1768
พีพี	-11.177
▁ผู้เข้าชมวันนี้	-11.1773
Month	-11.178
ปรุง	-11.1782
คลาวด์	-11.1783
อลูมิเนียมฟอยล์	-11.1784
แอฟริกาใต้	-11.1785
▁UHF	-11.1789
▁Radi	-11.1791
▁Silver	-11.1792
วารสาร	-11.1794
เพลิดเพลินไปกับ	-11.1804
ผู้ปกครอง	-11.1805
▁not	-11.1809
ตอบกลับ	-11.1812
กระต่าย	-11.1815
verse	-11.1819
ใช้เวลาเดิน	-11.1819
▁Building	-11.182
การสึกหรอ	-11.1825
FSC	-11.1831
คอลเลกชัน	-11.1836
5-3	-11.1848
4.6	-11.1849
พลิก	-11.1857
▁Shaft	-11.1872
▁Messenger	-11.1878
ความอดทน	-11.1884
มารีน	-11.1886
ขัดเงา	-11.1888
เดี๋ยว	-11.1894
กวางตุ้ง	-11.1899
▁NINGXIA	-11.1899
▁Screw	-11.1899
▁บ้านพักใน	-11.1899
อภิ	-11.1905
เรซิ่น	-11.191
ب	-11.1915
พอร์ท	-11.1921
คัดลอก	-11.1922
อาวุโส	-11.1926
ใยแก้วนําแสง	-11.1926
ผ้าปูที่นอน	-11.1931
▁สูตรโมเลกุล	-11.1931
สลักเกลียว	-11.1942
ช่องว่าง	-11.1946
ville	-11.1949
▁Joint	-11.1952
▁Sheng	-11.1955
ฮุ	-11.1967
ประถมศึกษา	-11.1969
นอนวูฟเวน	-11.1973
เมลามีน	-11.1973
ไดอะแฟรม	-11.1973
2-0	-11.1977
รอกโซ่	-11.1988
▁โทษที	-11.2
Rec	-11.201
เทรนด์	-11.2012
ศาลา	-11.2014
ครอบครอง	-11.2016
ถ่าน	-11.2021
กรวด	-11.2027
▁Gigabit	-11.2027
therm	-11.2046
สี่เหลี่ยมผืนผ้า	-11.2048
▁Christ	-11.2049
▁Paypal	-11.2054
โบรชัวร์	-11.2059
มาริโอ	-11.2059
ราศี	-11.2062
บรอนซ์	-11.2064
หกเหลี่ยม	-11.207
▁ราเอล	-11.2072
≤	-11.2073
▁0.02	-11.2076
มัตสึ	-11.2081
แพ็กเกจ	-11.2097
ไฟฟ้าสถิตย์	-11.2097
เดือนมกราคม	-11.2102
จัดตําแหน่งล้อ	-11.2108
บ่าย	-11.211
ฮาโลวีน	-11.2113
เบสบอล	-11.2118
ออโต้	-11.2127
ที่แท้จริง	-11.214
ไม้ไผ่	-11.2145
กล่องกระดาษแข็ง	-11.2146
เสื้อกั๊ก	-11.2151
▁Novotel	-11.2151
ชายฝั่ง	-11.2153
ครบครัน	-11.2178
เคเบิล	-11.2183
:86-	-11.2189
▁Crane	-11.2198
point	-11.2204
▁HGH	-11.2206
•	-11.2212
dding	-11.2215
▁Emb	-11.2217
คาดการณ์	-11.2222
▁Titanium	-11.2238
▁Feeder	-11.2238
▁จํานวนผู้เข้าชม	-11.2239
▁Derma	-11.2241
ภาระ	-11.2242
script	-11.2247
ใบเลื่อย	-11.2248
วัคซีน	-11.2249
000000	-11.2254
ฺ	-11.2254
แซนด์วิช	-11.2265
▁ทั้งปวง	-11.2282
ข้อมูลจําเพาะ	-11.2282
ไอเดีย	-11.2284
สายคล้อง	-11.2287
เชฟโรเลต	-11.2287
วีไอพี	-11.2298
ฮอลล์	-11.2302
▁ซอฟต์คอ	-11.2304
ยั่ว	-11.2304
усский	-11.2309
ยาฆ่าแมลง	-11.2309
ผ้าพันคอ	-11.2315
Turbo	-11.2315
จิตรกรรม	-11.232
▁ถ้ํามอง	-11.2321
▁April	-11.2326
โมเดิร์น	-11.2343
ถ่ายโอน	-11.2344
/08/	-11.2345
คอลเลคชั่น	-11.2354
ซ้อม	-11.2359
กรกฎาคม	-11.2364
จิตวิทยา	-11.2368
พึ่ง	-11.237
▁HACCP	-11.2381
▁Medical	-11.2381
บางกอก	-11.2386
การทําเหมืองแร่	-11.2387
▁Ferr	-11.2398
ภูมิคุ้มกัน	-11.2404
เบื้องหลัง	-11.2409
อิงค์เจ็ท	-11.2409
เป็นไงบ้าง	-11.2409
พันธกิจ	-11.2415
เศรษฐ	-11.242
เฟือง	-11.242
ที่ยังไม่ได้อ่าน	-11.242
จําแนก	-11.2426
|	-11.2431
ระเหย	-11.2437
▁Chemical	-11.2443
ภายหลัง	-11.2444
product	-11.2445
transparent	-11.2448
เถื่อน	-11.2448
tract	-11.2449
▁ExpressVPN	-11.2449
domain	-11.2454
▁LLC	-11.2455
4.9	-11.2456
ไมโครโฟน	-11.2465
â	-11.2471
▁FSX	-11.2472
▁เล็ม	-11.2475
เดินทางด้วยรถไฟ	-11.2479
มอเตอร์ไซค์	-11.2482
อย่างเต็มที่	-11.2498
▁ANSI	-11.2499
เนเธอร์แลนด์	-11.2504
กลิ่นหอม	-11.2518
กสิกรไทย	-11.2521
คัมภีร์	-11.2521
โฮเต็ล	-11.2521
อยุธยา	-11.2521
ผู้สูงอายุ	-11.2521
GMT	-11.2527
/07/	-11.2535
เจ็ต	-11.2538
6.3	-11.2544
▁วาห์พระเจ้า	-11.2545
เดือด	-11.2549
แปร	-11.2554
สุวรรณภูมิ	-11.2555
สมุย	-11.2561
ลาดพร้าว	-11.2572
เดสก์ท็อป	-11.2572
ปลอดสารพิษ	-11.2578
สง่างาม	-11.2595
▁Festival	-11.2606
▁Howo	-11.2606
ไว้วางใจ	-11.2629
สดชื่น	-11.2631
คลัทช์	-11.264
กระพริบ	-11.2646
▁brunette	-11.2646
โรงละคร	-11.2648
▁เยรูซา	-11.2657
▁Bridge	-11.2658
▁18:00	-11.266
▁Website	-11.2663
ฟินแลนด์	-11.2664
หญ้าเทียม	-11.2665
ประกาศนียบัตร	-11.2669
▁Self	-11.2692
สนามกอล์ฟ	-11.2694
โครเมียม	-11.2697
Friend	-11.2703
อีเธอร์เน็ต	-11.272
▁มือรูดควย	-11.272
ขายปลีก	-11.272
จดจํา	-11.272
▁เลเวล	-11.2721
พึง	-11.2732
สเตอริโอ	-11.2732
6.4	-11.2738
▁Taiwan	-11.2743
ไทม์	-11.2744
สมุทรปราการ	-11.2749
หลุด	-11.2749
อัปโหลด	-11.2752
ขยับ	-11.2755
ราชินี	-11.2755
▁น่ารักน่าหยิก	-11.276
▁Router	-11.2761
▁Juice	-11.2772
ประสบ	-11.2777
▁Crystal	-11.2783
ละออง	-11.2784
日本語	-11.2789
ฤกษ์	-11.2795
ซิลิคอนคาร์ไบด์	-11.2796
ชัตเตอร์	-11.2801
อ่ะ	-11.2803
▁Antenna	-11.2807
▁ขออภัย	-11.2812
พาวเวอร์ซัพพลาย	-11.2817
โกลเด้น	-11.2824
▁Amazon	-11.2824
ไอร์แลนด์	-11.2824
▁ESD	-11.2827
แอพพลิเคชัน	-11.283
Shanghai	-11.283
▁Bearing	-11.2836
ยนต์	-11.2836
6.6	-11.2838
▁วาห์ทรง	-11.2838
แพทยศาสตร์	-11.2859
โรงยิม	-11.2867
ผงซักฟอก	-11.2882
electric	-11.2882
ความบริสุทธิ์สูง	-11.2886
▁รอบต่อนาที	-11.2888
ขี่จักรยานในร่ม	-11.2894
แปซิฟิก	-11.29
▁Public	-11.29
ความดันโลหิต	-11.2907
▁here	-11.2911
▁VipTube	-11.2911
	-11.2912
คอนโทรลเลอร์	-11.292
/05/	-11.2922
โฮสเทล	-11.2923
เธตเน	-11.2924
กวางโจว	-11.2929
ห้วย	-11.2935
งบการเงิน	-11.2941
/02/	-11.2945
เบรกเกอร์	-11.2972
Ø	-11.2976
ขึ้นรูปม้วน	-11.2977
ความพึงพอใจ	-11.2982
▁Beauty	-11.2988
ถ่านกัมมันต์	-11.3005
ริมฝีปาก	-11.3011
เพิร์	-11.3017
azole	-11.3019
ifier	-11.3021
โน้ต	-11.3023
5.3	-11.3025
▁Classic	-11.3035
loss	-11.3038
ตะกอน	-11.3041
เลี่ยน	-11.3041
เผ็ด	-11.3047
ร้องไห้	-11.3047
กัก	-11.3049
พัด	-11.3055
บันไดเลื่อน	-11.3055
เมื่อไหร่	-11.3059
▁HOME	-11.3059
ปรารถนา	-11.3065
▁Precision	-11.3089
มลพิษ	-11.3091
สัตว์ปีก	-11.3106
▁Christophe	-11.3106
บทวิจารณ์	-11.3107
อิหร่าน	-11.3112
▁Promotion	-11.3112
แบ่งออกเป็น	-11.3112
▁CVC	-11.3115
เหลี่ยม	-11.3119
ที่เกิดจาก	-11.3122
="1.	-11.3128
ไอศกรีม	-11.3136
บุคคลที่สาม	-11.3137
7.8	-11.3137
อังคาร	-11.3139
เตือนภัย	-11.3151
บรรลุ	-11.3154
▁Dream	-11.3167
▁Channel	-11.3172
บริติช	-11.3178
▁Manager	-11.3178
φ	-11.3184
▁Lotus	-11.319
▁Terr	-11.3194
แบบไดนามิก	-11.3202
▁Generator	-11.3202
สมเด็จพระ	-11.3208
▁Cotton	-11.3215
การสํารองข้อมูล	-11.3226
ข้อได้เปรียบ	-11.3233
ป๊อป	-11.3233
hentai	-11.3236
←	-11.3239
แพลน	-11.3239
▁ออนซ์	-11.3251
▁Transfer	-11.3252
CONN	-11.3269
นิดหน่อย	-11.3279
▁FTTH	-11.3281
วิจัยและพัฒนา	-11.3282
ผีเสื้อ	-11.3286
CAN	-11.3304
▁Toyota	-11.3305
♦	-11.3318
น่าเชื่อถือ	-11.3324
ริบบิ้น	-11.3342
โมลิบดีนัม	-11.3342
๓	-11.3342
คาดหวัง	-11.3353
เผย	-11.3354
เม็กซิกัน	-11.3354
โซลินอยด์	-11.336
คณิตศาสตร์	-11.3379
▁Counter	-11.3379
ว่ะ	-11.3379
▁Comb	-11.3385
นึ่ง	-11.3389
หยิบ	-11.3391
อพาร์ตเมนต์	-11.3391
▁Driver	-11.3396
พิพากษา	-11.3397
โต้ตอบ	-11.3402
สโมสร	-11.3428
д	-11.3428
6.7	-11.3438
PLUS	-11.3445
▁ปั	-11.3446
7.4	-11.3452
custom	-11.3471
ซาวน่า	-11.3471
ปริมาตร	-11.3474
พรุน	-11.3477
▁JCB	-11.3478
Option	-11.3484
Guard	-11.3484
▁super	-11.3486
▁เบอร์โทร	-11.3491
▁Deutz	-11.3496
หมื่น	-11.3502
ผู้สื่อข่าว	-11.3502
▁EPDM	-11.3502
Power	-11.3513
^	-11.3515
พัลส์	-11.3515
มาราธอน	-11.3521
ผลักดัน	-11.3527
spir	-11.353
9.7	-11.3532
▁Opera	-11.3539
▁Cylinder	-11.3552
ยางมะตอย	-11.3558
ใช้แล้วทิ้ง	-11.3559
▁ออนไลน์ขณะนี้	-11.3564
แกลลอน	-11.3571
สมมุติ	-11.3583
๒๕	-11.3583
▁Hostel	-11.3584
/06/	-11.3585
รีโมท	-11.3593
๖	-11.3596
ใจกลางเมือง	-11.3596
▁Apartment	-11.3602
▁Exchange	-11.3602
แทบ	-11.3606
Europe	-11.3613
6.8	-11.3618
▁Crossbow	-11.3627
อัลตร้า	-11.364
▁Energy	-11.364
ร่วง	-11.364
ขวัญ	-11.364
Movie	-11.3648
ลูกโป่ง	-11.3652
▁โฮเทล	-11.3653
ซูเปอร์มาร์เก็ต	-11.3659
สัญชาติ	-11.3659
▁District	-11.3659
▁ลาเท็กซ์	-11.3659
คลิ๊ก	-11.3659
="3.	-11.366
อาชญากรรม	-11.3665
ผ้าเช็ดตัว	-11.3665
▁Hydraulic	-11.369
▁อพาร์ทเม้นท์	-11.3697
7.6	-11.37
ตรึง	-11.3703
แนน	-11.3703
▁Hardware	-11.3704
▁DMX	-11.3704
แรน	-11.3707
ก๋วยเตี๋ยว	-11.3709
หัด	-11.371
5.7	-11.3715
▁Walk	-11.372
อุปทาน	-11.3722
เย้	-11.3727
ยืม	-11.3732
หัตถกรรม	-11.3735
รูเล็ต	-11.3735
▁Trampoline	-11.3735
▁filter	-11.3742
ผ่อน	-11.3752
▁Music	-11.3755
พฤหัสบดี	-11.3759
à	-11.376
Center	-11.3765
สุขาภิบาล	-11.3766
ผึ้ง	-11.3779
สิ้นเปลือง	-11.3786
ํ	-11.3802
คริลิค	-11.3809
จีพีเอส	-11.3824
นรก	-11.3832
プラン	-11.3837
ประเพณี	-11.3843
▁เซ็กส์สามคน	-11.3843
สเปรด	-11.385
Bags	-11.3853
▁Cooler	-11.3853
ร่อน	-11.386
บรรพบุรุษ	-11.3862
▁วัยใส	-11.3863
คอนแทค	-11.3888
▁Easy	-11.3895
กุรอาน	-11.3908
ขอนแก่น	-11.3908
▁Turn	-11.3915
▁VisitSingapore	-11.3947
เผชิญ	-11.3972
▁นิเวศ	-11.3979
▁ที่เกิดเหตุ	-11.3979
system	-11.398
ภูมิทัศน์	-11.3986
หยวน	-11.3992
นําไปสู่	-11.3998
▁Geotextile	-11.3999
√	-11.4005
เด็กนักเรียนหญิง	-11.4013
▁Trenbolone	-11.4018
▁เพราะฉะนั้น	-11.4018
▁DLC	-11.402
source	-11.4032
▁ควยปลอม	-11.4058
▁Clinic	-11.4058
▁Mixer	-11.4064
สมิติเวช	-11.409
สวิตเซอร์แลนด์	-11.409
ออกแบบมาสําหรับ	-11.4094
Next	-11.4106
▁Girl	-11.4111
▁Cashmere	-11.4117
ควีน	-11.4117
5.9	-11.4125
เฟิร์	-11.4129
กัปตัน	-11.413
อโศก	-11.4134
9.6	-11.4135
ธัญพืช	-11.4137
	-11.4137
Term	-11.414
▁วาห์ตรัส	-11.4143
ไดเรกทอรี	-11.4156
▁ช้อนโต๊ะ	-11.4163
▁รถตักล้อยาง	-11.4163
แคลิฟอร์เนีย	-11.417
▁Guardrail	-11.417
ยีนส์	-11.4176
บัดกรี	-11.4183
สาหร่าย	-11.419
▁Kids	-11.4194
▁Technologies	-11.4196
▁First	-11.4196
▁Environmental	-11.421
▁รวมไปถึง	-11.421
เคลื่อน	-11.4213
โฉม	-11.423
▁Bulk	-11.4238
▁อ๋อ	-11.425
í	-11.4256
คลองเตย	-11.4256
ที่เหนือกว่า	-11.4257
ลูกศร	-11.4257
กีตาร์	-11.4263
ปลดล็อค	-11.4263
โค้ช	-11.4263
▁Foam	-11.427
▁รัสเชีย	-11.4277
บรรณาธิการ	-11.4283
กษัตริย์	-11.4287
ครบถ้วน	-11.429
ศรัทธา	-11.429
ผ้ากันเปื้อน	-11.4297
ย้อนหลัง	-11.4317
เฉลิมฉลอง	-11.4324
▁Firefox	-11.4324
น้ํามันหอมระเหย	-11.4337
บาสเกตบอล	-11.4344
7,000	-11.4347
ป่าตอง	-11.4351
ประมูล	-11.4357
	-11.4357
ไอศครีม	-11.4364
ร่วมมือกับ	-11.4377
บัลแกเรีย	-11.4384
กาญจนบุรี	-11.4384
▁จนกระทั่ง	-11.4384
▁อนิเมะ	-11.4384
เธฅเธ	-11.439
นินจา	-11.4391
หยุดนักขัตฤกษ์	-11.4391
เจรจา	-11.4391
▁multi	-11.4391
="0.	-11.4397
สมาธิ	-11.4398
ที่เป็นประโยชน์	-11.4401
ف	-11.4405
ผัด	-11.4405
มนต์	-11.4409
แตงกวา	-11.4412
เอ้ย	-11.4419
▁Splice	-11.4426
๔	-11.4452
หินแกรนิต	-11.4466
JAPAN	-11.4473
วอลนัท	-11.448
เครื่องอัดรีด	-11.4483
한	-11.4487
แคลอรี่	-11.4487
วันหลังจากได้รับ	-11.4498
▁อัพเดทล่าสุด	-11.4501
มาเก๊า	-11.4521
หยอดเหรียญ	-11.4521
แทนทาลัม	-11.4528
FFFFFF	-11.4535
▁Fashion	-11.4549
Mbps	-11.4556
ข้อเสนอแนะ	-11.456
ประตูบานเลื่อน	-11.4569
เสี่ยง	-11.4575
▁PayPal	-11.4576
เอ๊ย	-11.4576
ภัตตาคาร	-11.4583
รังสิต	-11.4583
ع	-11.459
м	-11.4597
General	-11.4597
▁Ocean	-11.4597
บวม	-11.4598
มณฑลซานตง	-11.4604
น้ําพุร้อน	-11.4605
เธกเธ	-11.461
어	-11.4611
▁IcePorn	-11.4611
▁Adobe	-11.4611
รถเมล์	-11.462
แนล	-11.4627
▁Excavator	-11.4632
▁Chiang	-11.4632
กฏหมาย	-11.4645
คริสตจักร	-11.4648
ฟิตติ้ง	-11.4652
ความทรงจํา	-11.4659
จิ๋ม	-11.4666
หน้าแปลน	-11.4674
′′	-11.468
◆	-11.4694
วิลเลจ	-11.4701
▁Acetate	-11.4701
ความคมชัด	-11.4708
ประธานาธิบดี	-11.4708
▁Deluxe	-11.4729
▁Foundation	-11.4736
▁Engineering	-11.4736
piece	-11.4744
▁รุมเย็ด	-11.475
ปศุสัตว์	-11.4757
ตระหนัก	-11.4765
เครื่องคิดเลข	-11.4765
▁Marvec	-11.4779
scope	-11.4784
เรสซิเดนซ์	-11.4786
โปรเซสเซอร์	-11.4793
▁บมจ	-11.48
▁Edition	-11.4807
มิลลิเมตร	-11.4814
ทิวทัศน์	-11.4814
crystal	-11.4821
กะทัดรัด	-11.4827
title	-11.4835
XNUMX	-11.4842
▁Anabolic	-11.4842
BSCI	-11.4843
ยัด	-11.4846
ชลประทาน	-11.4871
OWER	-11.4882
▁{\	-11.4885
ตัวชี้วัด	-11.4892
อัศจรรย์	-11.4892
ไดโนเสาร์	-11.4914
อิสลาม	-11.4915
แบบเรียลไทม์	-11.4928
ซิลิกา	-11.4928
ตึง	-11.4935
มาร์ทโฟน	-11.4945
สาธารณูปโภค	-11.4949
English	-11.4952
ล้วน	-11.4969
ข้อเท็จจริง	-11.4978
▁IELTS	-11.4978
xiang	-11.4979
▁Solid	-11.4979
ถนนลาดยาง	-11.4993
▁สินค้าขายดี	-11.5
▁Osaka	-11.5007
ข้าวสาลี	-11.5021
▁August	-11.5021
▁กทม	-11.5022
ซื่อสัตย์	-11.5043
หน่วง	-11.5043
มีชีวิตอยู่	-11.5047
ฮอนด้า	-11.505
มังสวิรัติ	-11.5058
▁Women	-11.5058
▁BANGKOK	-11.5065
▁Liquid	-11.5072
ฅ	-11.5073
เมทริกซ์	-11.5094
support	-11.5101
ผลิตและจําหน่าย	-11.5108
▁Bulldozer	-11.5123
▁Cummins	-11.5123
ประโยค	-11.5123
มาตรการ	-11.5125
ใช้ในครัวเรือน	-11.5136
สะดวกในห้องพัก	-11.5138
ประธานเจ้าหน้า	-11.5144
▁Range	-11.5151
แม็	-11.5155
สิงห์	-11.5167
▁Injection	-11.5174
ต้านอนุมูลอิสระ	-11.5182
▁Trefoil	-11.5196
ฮาลาล	-11.5196
เอนกประสงค์	-11.5204
หลอกลวง	-11.5211
โปรดจําไว้	-11.5219
▁says	-11.5219
เพื่อตอบสนองความ	-11.5224
ป้อม	-11.5234
Commerce	-11.5248
▁Coupler	-11.5255
ที่คล้ายกัน	-11.5257
สุราษฎร์ธานี	-11.5278
▁ชาร์ล	-11.5282
▁Turnstile	-11.5285
เพลส	-11.5301
ค็อกเทล	-11.5315
สอดแนม	-11.5315
ย่อยสลาย	-11.5322
สังหาร	-11.5337
จริยธรรม	-11.5345
สุขสันต์	-11.5345
html	-11.5345
ลามิเนท	-11.5352
แฟนตาซี	-11.5352
▁twink	-11.5352
...............	-11.5353
العربية	-11.5367
อธิษฐาน	-11.5367
แสตมป์	-11.5367
▁Assembly	-11.5367
▁Capital	-11.5375
เพลิดเพลิน	-11.5388
บัญญัติ	-11.5389
▁สงวนสิทธิ์	-11.539
เช็คเอาท์	-11.5397
ñ	-11.5404
▁Lycium	-11.5405
▁Island	-11.5405
แม้กระทั่ง	-11.5412
▁Residence	-11.5412
แมรี่	-11.5427
Robot	-11.5442
แรงเสียดทาน	-11.5442
โรคเบาหวาน	-11.5442
0:30	-11.5443
โพลิเมอร์	-11.545
period	-11.545
สรรเสริญ	-11.5457
▁Barebacking	-11.5457
▁Support	-11.5457
จุดหมายปลายทาง	-11.5465
▁PingBooster	-11.5465
▁เปิดซิง	-11.5472
จาระบี	-11.548
กีต้าร์	-11.548
▁Capacitive	-11.5487
มานานกว่า	-11.5488
▁โดนจับได้	-11.5495
ต่างด้าว	-11.551
▁Visit	-11.5519
กว่างโจว	-11.5525
function	-11.5556
ท่อระบายน้ํา	-11.5556
ternal	-11.5556
▁081-	-11.5563
▁Institute	-11.5563
ดอลล่าร์	-11.5579
อ่อนนุช	-11.5586
ตาบอด	-11.5586
▁Edge	-11.5598
▁rfid	-11.5602
▁Cisco	-11.561
จอแอลซีดี	-11.5617
ไนจีเรีย	-11.5617
▁พักตร์	-11.5617
เคร่งครัด	-11.5617
คอลลาเจน	-11.5625
กระถาง	-11.5632
▁Enanthate	-11.5632
อุดมไปด้วย	-11.5632
▁TOYOTA	-11.564
ช็อต	-11.564
▁IPhone	-11.564
รถประจําทาง	-11.5652
หลวม	-11.5655
▁Jacquard	-11.5655
▁Betaine	-11.5663
▁FREE	-11.5664
Zhou	-11.5664
โรตารี	-11.5666
พจนานุกรม	-11.5679
มิชชันนารี	-11.5679
ش	-11.5795
ン	-11.5992
у	-11.6332
ฌ	-11.6608
س	-11.7121
ي	-11.7977
ç	-11.8363
●	-11.9629
й	-12.0555
ê	-12.0836
«	-12.3292
‘	-12.3538
ラ	-12.3793
日	-12.5229
ة	-12.6022
	-12.6514
›	-12.7407
本	-12.9522
中	-12.9963
プ	-13.1196
語	-13.6625
′	-13.6943
文	-14.2073
	-18.1877
💐	-18.1877
