<unk>	0
<s>	0
</s>	0
▁	-2.1783
,	-3.86453
:	-4.21537
.	-4.51541
)	-4.88917
ของ	-5.05293
▁(	-5.06107
▁-	-5.11069
;	-5.16617
ที่	-5.21761
-	-5.30995
s	-5.31255
และ	-5.40321
▁&	-5.40834
gt	-5.49104
▁/	-5.54271
▁และ	-5.63114
ใน	-5.85084
▁1	-5.95005
/	-5.95738
ได้	-6.05124
...	-6.08371
▁2	-6.11284
การ	-6.14169
สําหรับ	-6.16416
S	-6.18026
A	-6.22757
▁_	-6.23821
▁3	-6.29176
แบบ	-6.31235
D	-6.32583
2	-6.35125
เป็น	-6.3802
V	-6.43049
C	-6.46882
?	-6.47046
d	-6.50051
3	-6.53859
น	-6.54162
ม	-6.54313
ก	-6.5586
m	-6.57839
มา	-6.59464
▁C	-6.60459
▁4	-6.6048
ส	-6.60485
จาก	-6.61163
▁ๆ	-6.61208
!	-6.62133
▁ผลิตภัณฑ์	-6.63791
▁5	-6.64194
B	-6.64615
1	-6.64696
y	-6.64725
▁A	-6.65503
▁การ	-6.65817
▁S	-6.65914
ค	-6.6722
c	-6.68094
"	-6.70719
e	-6.70928
M	-6.71718
ing	-6.71774
มี	-6.75576
G	-6.75964
▁10	-6.7767
▁เครื่อง	-6.77763
W	-6.77914
er	-6.8133
(	-6.81399
ด้วย	-6.82823
กับ	-6.82958
L	-6.83641
▁B	-6.869
T	-6.87258
▁T	-6.8783
นี้	-6.88566
com	-6.88887
▁ใน	-6.89559
x	-6.89728
a	-6.90036
ให้	-6.90113
K	-6.91292
เครื่อง	-6.92577
F	-6.92857
in	-6.92874
4	-6.92911
amp	-6.94944
g	-6.95593
▁หรือ	-6.96759
b	-6.97109
▁สําหรับ	-6.97676
▁"	-6.98103
ล	-6.98184
n	-6.99772
▁มี	-6.99827
ว่า	-7.00154
ไป	-7.01103
N	-7.01971
▁6	-7.02842
ด	-7.03185
ท	-7.03313
k	-7.03703
8	-7.03745
ง	-7.03758
t	-7.04426
▁เป็น	-7.05164
p	-7.05574
น้ํา	-7.06976
i	-7.07163
▁D	-7.08018
▁P	-7.08241
5	-7.09412
แล้ว	-7.09545
▁M	-7.09682
▁*	-7.09892
H	-7.10641
P	-7.12117
▁มม	-7.13652
6	-7.17255
บ	-7.17339
ต	-7.17991
▁F	-7.18334
ทํา	-7.18626
▁H	-7.19671
R	-7.19749
mm	-7.19916
ใช้	-7.20044
▁7	-7.20089
▁8	-7.20119
▁E	-7.20148
ของคุณ	-7.20804
▁ผู้ผลิต	-7.20823
▁Co	-7.2142
ย	-7.21511
หรือ	-7.21841
ตัว	-7.22192
▁หมายเลขชิ้นส่วน	-7.22339
▁เรา	-7.22373
▁ปี	-7.22462
ต่อ	-7.2258
ทาง	-7.23212
ใหม่	-7.23319
ดี	-7.23572
▁R	-7.24237
f	-7.25384
▁บริษัท	-7.2572
▁คุณ	-7.26595
ed	-7.26873
▁12	-7.27105
▁LED	-7.2792
ไม่	-7.27997
ว	-7.2811
▁–	-7.29656
o	-7.29918
▁คน	-7.30931
al	-7.31032
ร	-7.31845
กัน	-7.31883
▁บ้าน	-7.3281
▁ไม่	-7.33306
โดย	-7.34059
▁ลักษณะ	-7.3451
ป	-7.35392
r	-7.36036
X	-7.36603
v	-7.37738
▁K	-7.38723
▁ขนาด	-7.38858
▁G	-7.39001
จะ	-7.3901
นะ	-7.39041
ทั้งหมด	-7.39332
th	-7.39697
]	-7.40355
▁20	-7.40419
▁ฉัน	-7.41539
E	-7.41545
an	-7.41833
w	-7.42043
ที่มี	-7.42821
ผลิตภัณฑ์	-7.44268
ความ	-7.45073
ห	-7.45117
▁Home	-7.4539
สูง	-7.45586
7	-7.45597
อาหาร	-7.45769
h	-7.47612
▁[	-7.47744
▁แต่	-7.4807
คุณ	-7.49058
เ	-7.49221
ระบบ	-7.49617
▁$	-7.50454
▁L	-7.51351
30	-7.52089
▁เขา	-7.52298
มัน	-7.52916
ข้อมูล	-7.52946
▁โดย	-7.53737
▁2019	-7.54469
10	-7.54601
ภาพ	-7.54837
สี	-7.55821
▁+	-7.55892
อื่น	-7.55981
ขนาด	-7.56039
ไฟฟ้า	-7.56255
▁จํากัด	-7.56552
l	-7.56564
▁9	-7.58254
▁W	-7.58564
เพื่อ	-7.58713
พ	-7.59365
▁15	-7.60932
Y	-7.61454
▁จาก	-7.6222
on	-7.63202
▁หมายเลขรุ่น	-7.63237
ออนไลน์	-7.6328
งาน	-7.63901
อยู่	-7.64551
▁จะ	-7.64684
หน้า	-7.65499
or	-7.66185
le	-7.66208
ไฟ	-7.66534
ๆ	-7.6661
ผม	-7.66644
▁1.	-7.66689
ฉัน	-7.6715
▁วัน	-7.67364
สามารถ	-7.67373
▁ชุด	-7.68149
▁0	-7.68224
9	-7.68291
▁บาท	-7.68387
ยา	-7.68868
50	-7.69497
0	-7.69645
ถึง	-7.699
▁I	-7.70143
ของเรา	-7.70653
บน	-7.70824
▁N	-7.70845
นา	-7.70917
%	-7.71695
สินค้า	-7.72523
อ	-7.72813
คน	-7.72902
▁30	-7.73931
ช	-7.74122
ฟรี	-7.74309
▁ผม	-7.75758
▁ราคา	-7.75817
ดู	-7.76267
พลาสติก	-7.76396
▁โรงงาน	-7.76663
▁25	-7.77129
▁#	-7.77441
▁24	-7.77913
เลย	-7.7795
ก็	-7.7825
”	-7.78745
คือ	-7.7887
u	-7.79299
อุตสาหกรรม	-7.7946
พร้อม	-7.80222
อะไร	-7.81003
ขึ้น	-7.81057
O	-7.81199
่	-7.81349
เหล็ก	-7.81506
▁18	-7.81542
อุปกรณ์	-7.81603
▁เธอ	-7.81766
ฟ	-7.8234
▁19	-7.82412
&	-7.82622
et	-7.83002
25	-7.83395
el	-7.83526
อย่าง	-7.83953
ตาม	-7.83958
มาก	-7.84086
▁50	-7.84245
เรา	-7.84538
at	-7.84988
ผู้	-7.85007
Z	-7.8506
▁100	-7.85067
00	-7.85083
เน	-7.85128
lt	-7.8524
▁เพื่อ	-7.86171
▁ระบบ	-7.86278
▁©	-7.86315
จากประเทศจีน	-7.86342
co	-7.86893
รา	-7.87204
J	-7.88013
▁นาที	-7.88263
▁ซึ่ง	-7.88366
เงิน	-7.88598
'	-7.88787
▁16	-7.89055
▁11	-7.89074
ด้าน	-7.8927
▁2.	-7.89443
ปี	-7.89732
▁ISO	-7.89854
รถ	-7.90052
▁แล้ว	-7.90101
สาย	-7.90314
20	-7.90416
▁วัสดุ	-7.90448
พิเศษ	-7.91042
เวลา	-7.91266
▁Read	-7.91416
▁ด้วย	-7.91586
สูงสุด	-7.91894
U	-7.92182
▁มีสินค้า	-7.92619
▁ถึง	-7.92745
ภายใน	-7.928
▁“	-7.93111
pcs	-7.93156
▁More	-7.93792
ก่อน	-7.93926
▁เอเชีย	-7.94133
อัตโนมัติ	-7.94182
รับ	-7.9423
น้ํามัน	-7.94311
ผ่าน	-7.94446
▁O	-7.94748
ราคา	-7.94913
เกี่ยวกับ	-7.94929
▁อุปกรณ์	-7.95243
▁กับ	-7.9585
ส์	-7.95913
en	-7.96298
_	-7.9635
▁ความ	-7.96721
ริ	-7.96952
▁Ltd	-7.96965
นั้น	-7.97577
▁ผู้	-7.97683
หลัก	-7.97876
▁ให้	-7.97983
▁x	-7.98053
@	-7.98074
ผู้ผลิต	-7.98697
ลา	-7.98802
12	-7.99174
▁น	-7.99271
ในการ	-7.99876
▁มัน	-8.00065
11	-8.0017
▁ท่าน	-8.002
▁สงวนลิขสิทธิ์	-8.00223
ใหญ่	-8.00494
40	-8.01493
บริการ	-8.01677
เขา	-8.02313
ธุรกิจ	-8.02989
แ	-8.03105
75	-8.0317
ไว้	-8.03414
▁2018	-8.03533
re	-8.03572
ตา	-8.03842
บ้าน	-8.0404
16	-8.04067
จริง	-8.04113
รวม	-8.04222
โอ	-8.04648
▁บริการ	-8.04733
ไทย	-8.04921
โลหะ	-8.05168
es	-8.05342
ยาง	-8.05358
้	-8.05982
ไม้	-8.06653
อีก	-8.0667
ทํางาน	-8.06936
นี่	-8.07395
▁3.	-8.07449
ร์	-8.07506
ครับ	-8.07538
กว่า	-8.0759
วัน	-8.07659
ศ	-8.08006
▁ไป	-8.08084
▁ห้อง	-8.08209
พลังงาน	-8.08615
เด็ก	-8.08645
▁J	-8.08772
▁ชั่วโมง	-8.08803
▁ประเภท	-8.09104
▁ใช่	-8.09231
เสียง	-8.09364
15	-8.09381
▁14	-8.09741
18	-8.09962
▁เวลา	-8.09979
มาตรฐาน	-8.10345
▁สี	-8.10478
เรื่อง	-8.10485
▁13	-8.10573
ลิ	-8.1069
24	-8.10762
ควบคุม	-8.113
01	-8.11787
▁•	-8.11798
ชุด	-8.11889
65	-8.12184
ar	-8.12235
สิ	-8.12424
ป้องกัน	-8.12792
เข้า	-8.13019
หนึ่ง	-8.13248
ไม่ได้	-8.13634
▁กล่อง	-8.13883
it	-8.14036
▁ผู้จัดจําหน่าย	-8.14673
z	-8.14845
China	-8.14917
ic	-8.15355
▁ดู	-8.15357
การสอบสวน	-8.15419
เธ	-8.16537
▁°	-8.16604
▁60	-8.16841
▁ใบรับรอง	-8.1699
เธอ	-8.17041
45	-8.17111
แสง	-8.17164
ol	-8.17189
ro	-8.17368
▁X	-8.17622
is	-8.1788
ur	-8.18797
รี	-8.19136
บริษัท	-8.19398
▁~	-8.19452
▁รุ่น	-8.19502
ชิ	-8.19732
▁พร้อม	-8.1977
ท่อ	-8.19833
มิ	-8.20654
▁Re	-8.20762
▁17	-8.20835
โร	-8.20896
เมือง	-8.2117
ซี	-8.21211
▁Z	-8.21286
us	-8.21328
ทั้ง	-8.21724
ส่ง	-8.22049
Q	-8.22261
ที่จะ	-8.22283
หลาย	-8.22977
ตัด	-8.23782
ั	-8.23792
กําลัง	-8.23806
▁พระ	-8.24218
ต้อง	-8.24656
ผ้า	-8.24684
มากกว่า	-8.25327
กา	-8.25357
เมื่อ	-8.25623
เปิด	-8.25919
ชั้น	-8.2604
ใจ	-8.26093
ส่วน	-8.26554
แผ่น	-8.26698
60	-8.26711
ระดับ	-8.27075
ใด	-8.27111
▁อ	-8.27388
ออก	-8.27436
▁ใช้	-8.27483
am	-8.27953
▁ครั้ง	-8.27983
ทุก	-8.27997
สอง	-8.2817
▁2017	-8.28304
▁ก็	-8.28341
ข	-8.28474
I	-8.28582
▁นิ้ว	-8.28627
35	-8.28981
▁ซัพพลายเออร์	-8.29107
วัสดุ	-8.29126
เว็บไซต์	-8.29189
น่า	-8.2924
นิ	-8.29612
มือ	-8.2978
▁ชื่อ	-8.30005
▁เมื่อ	-8.30554
▁»	-8.30569
ขาย	-8.30798
▁Mark	-8.30884
คู่	-8.30993
ชื่อ	-8.31154
ต่างๆ	-8.31269
▁100%	-8.31519
ะ	-8.31654
จ	-8.31721
▁สาย	-8.31975
ห้อง	-8.32088
กล่อง	-8.32157
ine	-8.32248
หลัง	-8.3226
เช่น	-8.32339
ถูก	-8.32654
▁CE	-8.32657
คา	-8.32869
ค่า	-8.32954
เหรอ	-8.32963
รถยนต์	-8.33143
▁ชิ้น	-8.33147
จีน	-8.33227
100	-8.33272
เร	-8.33275
ลง	-8.33288
▁40	-8.33291
33	-8.33361
▁Main	-8.33832
อลูมิเนียม	-8.33856
▁สามารถ	-8.33945
▁โรงแรม	-8.33998
ิ	-8.34018
วา	-8.34151
▁เดือน	-8.34162
▁ผู้ส่งออก	-8.34194
เดียว	-8.3425
▁แม่	-8.34363
▁ไม่มี	-8.34608
สร้าง	-8.34623
ลูกค้า	-8.34722
ติดตั้ง	-8.34733
▁คือ	-8.34942
▁ฯลฯ	-8.35101
กระดาษ	-8.35366
เอ	-8.35546
▁แผ่น	-8.35547
14	-8.35646
▁ชั้น	-8.35683
ia	-8.35696
06	-8.35766
ไฟล์	-8.35768
ชนิด	-8.35872
ชีวิต	-8.36099
▁Y	-8.36132
วิดีโอ	-8.36296
▁ดาวน์โหลด	-8.36595
จิ	-8.36605
▁ประเภทธุรกิจ	-8.36732
ri	-8.36907
17	-8.37205
32	-8.37231
st	-8.37567
13	-8.37665
บัญชี	-8.37843
ma	-8.37918
ความร้อน	-8.38209
500	-8.38217
ไม่มี	-8.38337
ที่ดีที่สุด	-8.38918
เม	-8.39004
ติ	-8.39034
ซ	-8.39147
▁4.	-8.39155
ญี่ปุ่น	-8.40056
80	-8.40153
ติด	-8.40197
ลูก	-8.40199
36	-8.40355
IN	-8.40412
ad	-8.40707
▁22	-8.40875
รุ่น	-8.41007
ang	-8.41134
un	-8.41255
เก็บ	-8.41292
ระหว่าง	-8.41325
ra	-8.41679
ค่ะ	-8.41961
ate	-8.4205
นาย	-8.42298
ประตู	-8.4231
ดา	-8.42315
la	-8.42663
03	-8.42791
เคลือบ	-8.42898
า	-8.42934
▁U	-8.43023
การผลิต	-8.43165
▁บน	-8.43337
เกม	-8.43582
as	-8.43707
ขนาดเล็ก	-8.43865
id	-8.43902
44	-8.43906
to	-8.44016
42	-8.44038
ต้องการ	-8.44081
ยัง	-8.44103
▁ตัว	-8.44174
▁De	-8.44269
ที	-8.44306
▁วัยรุ่น	-8.44341
▁เจ้า	-8.44403
▁จํานวน	-8.44711
ation	-8.44805
ธรรมชาติ	-8.45119
▁นาย	-8.45228
ใส่	-8.45231
19	-8.45375
▁ข้อมูล	-8.45574
พิมพ์	-8.45602
▁200	-8.45837
เอง	-8.46012
95	-8.46276
ผลิต	-8.46282
05	-8.46569
เพียง	-8.46833
เว	-8.46876
แห่ง	-8.46887
ลี	-8.4691
49	-8.47041
ซิ	-8.4708
ต์	-8.47163
เลือก	-8.47195
28	-8.47209
▁ติดต่อตอนนี้	-8.47539
โรงงาน	-8.47787
เย็น	-8.47917
บาง	-8.48179
▁21	-8.48541
▁ยุโรป	-8.48575
ละ	-8.48663
นํา	-8.48777
ต่ํา	-8.48778
39	-8.48875
ta	-8.49212
▁เช่น	-8.4949
ly	-8.49602
se	-8.49952
เล่น	-8.50149
▁อเมริกา	-8.50156
61	-8.503
เรือ	-8.5044
29	-8.50478
-1	-8.50931
เพิ่มเติม	-8.51002
▁เมตร	-8.51009
56	-8.5105
▁ประเทศ	-8.5123
me	-8.51401
ช่วย	-8.51565
55	-8.51695
▁In	-8.51703
▁จีน	-8.51789
ie	-8.51923
เต็ม	-8.52008
▁รายละเอียด	-8.52285
ย์	-8.52556
▁เกม	-8.52722
38	-8.52753
46	-8.53019
▁The	-8.53023
59	-8.53065
▁วิดีโอ	-8.53184
แสดง	-8.53375
▁the	-8.53632
43	-8.53653
▁ฟรี	-8.53822
ท่าน	-8.53851
ที่สุด	-8.53853
▁of	-8.53911
ล่ะ	-8.54021
▁ประเทศจีน	-8.54047
ผล	-8.54114
07	-8.54462
▁CO	-8.54561
58	-8.54695
48	-8.54782
04	-8.55128
ch	-8.5521
ul	-8.55224
one	-8.55371
โครงการ	-8.55481
รอบ	-8.55534
▁Windows	-8.5596
แม่	-8.56089
ขนาดใหญ่	-8.56123
70	-8.5623
ac	-8.56282
รัก	-8.56378
แรก	-8.56393
34	-8.5646
22	-8.5654
เพิ่ม	-8.56602
รู้	-8.56827
โรงแรม	-8.56893
อากาศ	-8.5701
09	-8.57057
▁ตะวันออกกลาง	-8.57105
27	-8.57112
88	-8.57188
68	-8.57213
หา	-8.57234
กระ	-8.57281
ซา	-8.57403
เล	-8.57406
▁วันที่	-8.57442
26	-8.575
เห็น	-8.57753
ทดสอบ	-8.57833
▁เพศ	-8.57916
▁Q	-8.57968
▁พระองค์	-8.58046
te	-8.58052
ปิด	-8.58078
52	-8.58338
ทา	-8.58362
สําหรับการ	-8.58372
ซื้อ	-8.58533
ผิว	-8.58591
200	-8.58653
▁หน้าหลัก	-8.58653
▁นั้น	-8.58734
สีขาว	-8.58874
ประเภท	-8.59029
ดิ	-8.59218
พูด	-8.59288
คุณภาพ	-8.59413
ตรง	-8.59478
il	-8.59607
-2	-8.59695
ของฉัน	-8.60117
▁23	-8.60163
ER	-8.60221
โค	-8.60435
02	-8.60442
41	-8.60473
▁พ	-8.60485
47	-8.60656
ตาย	-8.60681
▁โอ้	-8.60684
pe	-8.60839
de	-8.60888
▁ไฟ	-8.61117
51	-8.61142
บอก	-8.61156
▁IP	-8.61226
57	-8.61238
▁28	-8.6133
อา	-8.61482
66	-8.61618
na	-8.61679
ประมาณ	-8.61814
▁ผ้า	-8.61955
วง	-8.621
53	-8.62179
ล่าสุด	-8.62375
อยู่ใน	-8.62422
พื้นที่	-8.62434
รายการ	-8.62698
โน	-8.62925
จํานวน	-8.62988
ร้อน	-8.63023
ได้รับ	-8.63288
เตอร์	-8.63368
67	-8.63559
37	-8.63731
เฉพาะ	-8.63736
โลก	-8.63863
90	-8.64069
um	-8.64075
0,000	-8.64446
▁รับ	-8.64497
▁โทร	-8.64509
▁เ	-8.64582
นัก	-8.64753
54	-8.64772
บรรจุ	-8.64772
การทํางาน	-8.64825
▁ซม	-8.64844
▁ทั่วโลก	-8.64882
ระ	-8.65002
ธ	-8.65046
31	-8.65121
98	-8.65158
ยาว	-8.652
เล็ก	-8.65257
▁500	-8.65375
กลาง	-8.65386
ยก	-8.6544
▁ขายส่ง	-8.65494
▁ถ้า	-8.65591
กิ	-8.65683
แรง	-8.65762
เครื่องมือ	-8.65804
กลางแจ้ง	-8.65821
▁คุณภาพ	-8.65905
▁Pro	-8.65971
▁สาว	-8.66128
▁แอฟริกา	-8.6619
▁เลสเบี้ยน	-8.66238
ry	-8.66259
▁ไปยัง	-8.66555
ผสม	-8.66719
จุด	-8.66725
กลุ่ม	-8.66834
ลด	-8.66991
23	-8.67087
lo	-8.67116
▁รายการ	-8.67283
ชา	-8.67371
หัว	-8.67473
▁OEM	-8.67513
▁Ch	-8.68035
เท	-8.68118
▁เอ	-8.68175
พัฒนา	-8.6848
ers	-8.6861
▁2016	-8.68756
08	-8.68804
▁ขาย	-8.69252
*	-8.693
0.00	-8.69432
+	-8.69625
ชิ้นส่วน	-8.69667
รอ	-8.69692
ท์	-8.69749
บัตร	-8.6979
no	-8.6982
ชาย	-8.6991
▁หน้า	-8.69966
อิ	-8.70101
สาม	-8.70144
▁Android	-8.70205
▁2020	-8.70247
โล	-8.70381
ทําความสะอาด	-8.70781
▁น้ําหนัก	-8.70849
แก้ว	-8.7099
สาร	-8.71003
ความปลอดภัย	-8.7103
▁อยู่	-8.71041
▁นี่	-8.71274
ot	-8.71324
เทคโนโลยี	-8.71627
วัด	-8.71691
▁วัตต์	-8.71736
ที่กําหนดเอง	-8.71771
ne	-8.71877
▁Goji	-8.72232
เปลี่ยน	-8.72269
up	-8.72368
คิด	-8.72386
▁300	-8.72527
ir	-8.72615
ant	-8.72728
ent	-8.72792
ที่ดี	-8.72837
-4	-8.72872
ill	-8.72884
อายุ	-8.72906
ประเทศ	-8.72951
▁ร้านดอกไม้	-8.72961
▁งาน	-8.73055
▁มุมมอง	-8.73159
97	-8.73263
▁5.	-8.73406
▁หน้าแรก	-8.73421
ge	-8.73503
ม้วน	-8.73561
ut	-8.73707
ปั๊ม	-8.73849
โก	-8.73867
ter	-8.7387
ทําให้	-8.74063
▁ยุโรปตะวันออก	-8.74072
▁อย่า	-8.741
การใช้งาน	-8.74131
โปรแกรม	-8.74223
คืน	-8.74363
ion	-8.7459
แยก	-8.74681
ติดต่อ	-8.7492
วิ	-8.75076
แห้ง	-8.75114
ไหม	-8.75141
ล้อ	-8.75836
mo	-8.75928
เขียน	-8.75991
โทรศัพท์	-8.76021
99	-8.76128
เดือน	-8.76213
เบ	-8.76242
อิเล็กทรอนิกส์	-8.76246
▁จัดส่งดอกไม้	-8.76306
96	-8.76431
ทั่วไป	-8.76453
▁ประเทศไทย	-8.76619
คอมพิวเตอร์	-8.76622
▁USB	-8.76668
ุ	-8.76826
-6	-8.76933
▁หลอด	-8.77031
85	-8.7719
▁27	-8.77304
ต่าง	-8.77336
age	-8.77341
▁ภาพใหญ่	-8.77396
▁ส่วน	-8.77469
ขอ	-8.77581
ง่าย	-8.77662
▁and	-8.77768
▁฿	-8.77914
j	-8.78055
▁รหัส	-8.78237
หนัง	-8.7828
รูป	-8.78382
AR	-8.78578
▁to	-8.7862
คอ	-8.78631
เริ่มต้น	-8.78738
▁26	-8.78811
ex	-8.79091
สุด	-8.79171
▁โอ	-8.79204
เสริม	-8.7923
62	-8.79299
เค	-8.79317
ตรวจสอบ	-8.79353
69	-8.79375
MA	-8.79417
▁80	-8.79455
วี	-8.79587
ลาย	-8.79657
สําคัญ	-8.79797
ณ	-8.79811
สิ่ง	-8.79838
li	-8.79891
โต	-8.80116
โม	-8.80158
ซ์	-8.80194
อ่อน	-8.80236
▁ลูก	-8.80434
ce	-8.80486
▁ยุโรปตะวันตก	-8.8056
▁เมือง	-8.8071
64	-8.80731
▁ยุโรปเหนือ	-8.80753
ถนน	-8.80815
น่ะ	-8.80922
▁เพราะ	-8.81035
▁โอเค	-8.81037
อื่นๆ	-8.81263
เอเชีย	-8.81447
ซึ่ง	-8.81469
ที่ใช้	-8.81525
ชอบ	-8.81595
หญิง	-8.81697
▁Thailand	-8.81779
เสีย	-8.81797
สด	-8.81808
สาว	-8.81834
สุขภาพ	-8.81908
21	-8.81991
วาล์ว	-8.81993
เอา	-8.82092
9001,	-8.82237
ประกอบ	-8.82619
ไปยัง	-8.82662
ong	-8.82718
://	-8.82745
▁	-8.82773
89	-8.82938
ap	-8.83035
ทอง	-8.83107
บา	-8.83114
อัน	-8.83201
▁กรัม	-8.83236
86	-8.83337
ide	-8.83532
▁เครื่องมือ	-8.83613
เป	-8.8378
และการ	-8.84037
์	-8.84151
เกิด	-8.84393
-10	-8.84505
bo	-8.8458
▁ชนิด	-8.84595
76	-8.84607
ให้บริการ	-8.84783
▁AC	-8.8486
▁💐	-8.84899
น้อย	-8.84952
ที่มีคุณภาพสูง	-8.85078
▁กระเป๋า	-8.85402
อี	-8.85509
▁อา	-8.85515
่า	-8.85582
-5	-8.85653
="	-8.85742
▁2562	-8.85809
▁ณ	-8.85888
ญ	-8.85961
▁วิธีการ	-8.86057
min	-8.86094
แดง	-8.86118
กะ	-8.862
โซ	-8.86258
▁HD	-8.86285
ผ	-8.86403
74	-8.86498
เครือข่าย	-8.86697
▁ถนน	-8.86893
ผง	-8.86943
hi	-8.86995
เดี่ยว	-8.87136
รายละเอียด	-8.87214
สุ	-8.87341
▁Bo	-8.87391
ทางเทคนิค	-8.87414
รูปแบบ	-8.87458
โด	-8.8746
ผนัง	-8.87471
ตกแต่ง	-8.87492
▁ภาพยนตร์	-8.87497
เรียน	-8.87552
ตั้งแต่	-8.87604
สแตนเลส	-8.87783
pa	-8.87885
พวกเขา	-8.8802
▁'	-8.8812
▁เอา	-8.88124
▁ถุง	-8.88287
em	-8.88391
▁ทรง	-8.88435
▁ผู้หญิง	-8.88615
▁ท่อ	-8.88833
87	-8.88881
▁วีดีโอ	-8.88992
มือถือ	-8.89011
เก	-8.8906
AL	-8.89115
▁วิธี	-8.89133
ไง	-8.89302
▁1000	-8.89309
est	-8.89434
▁เลือก	-8.89443
จ่าย	-8.89466
ร้าน	-8.89589
▁×	-8.89702
ผู้ใช้	-8.89706
เร็ว	-8.89715
▁150	-8.89734
▁เกี่ยวกับ	-8.89736
ba	-8.89912
คํา	-8.90055
สีดํา	-8.9007
fe	-8.90101
ข้าง	-8.90114
im	-8.90242
ร่วม	-8.90301
ment	-8.90351
แนะนํา	-8.90414
▁ตาม	-8.90451
อาคาร	-8.90493
per	-8.90711
▁PP	-8.90737
การใช้	-8.90905
เจ้า	-8.91025
การศึกษา	-8.91069
อุ	-8.91147
77	-8.91161
▁ผง	-8.91416
กรอง	-8.91622
▁สินค้า	-8.9177
เลเซอร์	-8.91789
▁ขอ	-8.92129
ี	-8.92146
กระเป๋า	-8.92162
แก่	-8.92192
▁เฮ้	-8.92305
▁รถ	-8.92371
IC	-8.92398
ประ	-8.9248
จับ	-8.92513
ภาค	-8.92523
สัน	-8.92571
เริ่ม	-8.92586
เซ	-8.92674
▁PVC	-8.92681
ha	-8.92711
▁2015	-8.92749
ton	-8.92795
ลม	-8.93048
63	-8.93096
ออกแบบ	-8.93133
ดํา	-8.93194
▁กก	-8.93425
go	-8.93475
ist	-8.93692
▁31	-8.93766
ขาว	-8.93959
▁Le	-8.93977
man	-8.94001
▁PDF	-8.94046
▁USD	-8.94157
ip	-8.94162
สวน	-8.94249
▁แท็ก	-8.94276
▁เปิด	-8.94289
อุณหภูมิ	-8.94306
-20	-8.94394
ไร	-8.9448
ซิลิโคน	-8.94482
เพื่อน	-8.94502
โทร	-8.9481
78	-8.94827
▁กําลัง	-8.94945
รี่	-8.94999
เดินทาง	-8.95009
๊	-8.95025
79	-8.95123
พื้น	-8.95181
sh	-8.95198
▁ค้นหา	-8.95245
ที่นี่	-8.95301
▁สมัครเล่น	-8.95302
คุณภาพสูง	-8.95333
▁หมายเลข	-8.95393
ที่เกี่ยวข้อง	-8.95463
มืออาชีพ	-8.95596
▁2561	-8.95843
▁ตลาดอื่น	-8.95926
▁นั่น	-8.95966
ive	-8.95994
กันน้ํา	-8.96255
ครั้ง	-8.96283
เหนือ	-8.96383
▁ธันวาคม	-8.96436
▁โอเชียเนีย	-8.96456
เด	-8.96484
400	-8.96546
ga	-8.96571
ถุง	-8.96621
กิจกรรม	-8.96906
ตลาด	-8.96948
ฐาน	-8.97201
ติดต่อตอนนี้	-8.97253
OS	-8.97257
84	-8.97321
▁=	-8.97419
▁เพิ่ม	-8.97421
▁แสดง	-8.97516
92	-8.97546
จัด	-8.97559
ยึด	-8.97648
and	-8.97752
องค์กร	-8.97754
การออกแบบ	-8.97759
จัดการ	-8.9781
Ltd	-8.97997
สัญญาณ	-8.98049
รักษา	-8.98055
ขัด	-8.98139
▁Al	-8.98143
อ่าน	-8.98233
▁Se	-8.9839
ใช้งาน	-8.9846
ดาวน์โหลด	-8.98477
ลึก	-8.99085
ภาษา	-8.99206
ตัวอย่าง	-8.9925
73	-8.99311
da	-8.99374
สิ่งแวดล้อม	-8.99444
300	-8.9961
▁Machine	-8.99662
ใคร	-8.99721
ay	-8.99748
▁เด็ก	-8.99758
ต้น	-8.9983
ig	-8.99869
ab	-8.99979
81	-9.00016
▁DC	-9.00039
▁โทรศัพท์	-9.00148
ph	-9.00198
เดิน	-9.00199
ขยาย	-9.003
แค่	-9.00312
ลวด	-9.00439
▁ไทย	-9.0045
หน้าจอ	-9.00481
▁ข่าว	-9.00581
ตลอด	-9.00583
วาง	-9.00627
-8	-9.00797
เครื่องจักร	-9.00821
▁รีสอร์ท	-9.00853
กว้าง	-9.01017
▁พ่อ	-9.01051
รู	-9.01098
ai	-9.01122
▁29	-9.01167
IS	-9.01175
AD	-9.01215
os	-9.01234
สถานที่	-9.0152
ปรับ	-9.01536
ca	-9.01573
94	-9.01642
▁ตุลาคม	-9.01977
;&	-9.02001
แบตเตอรี่	-9.02102
83	-9.02147
กด	-9.02175
นั่น	-9.02211
ดิจิตอล	-9.02259
จริงๆ	-9.02284
▁90	-9.02415
แข็ง	-9.02563
เชื่อมต่อ	-9.02676
AC	-9.02934
รหัส	-9.0295
กล้อง	-9.03151
lu	-9.03371
มอเตอร์	-9.034
ทอ	-9.03464
72	-9.03489
เกียร์	-9.03514
82	-9.03759
้ง	-9.03801
ผู้หญิง	-9.03819
บี	-9.04022
▁ผู้ผลิตในจีน	-9.04159
▁ศูนย์	-9.04162
▁หมวดหมู่	-9.04171
กีฬา	-9.04199
เชื่อม	-9.04259
ดิน	-9.04261
▁พวก	-9.04286
เท้า	-9.04427
ti	-9.04495
เท่านั้น	-9.04556
▁สิ่ง	-9.04674
ชั่น	-9.04708
ตอนนี้	-9.0484
หรือไม่	-9.04943
ทิ	-9.05024
▁Mac	-9.05207
พา	-9.05211
ประเทศไทย	-9.05213
แผง	-9.05266
▁ปั๊ม	-9.05303
▁ญี่ปุ่น	-9.05335
ity	-9.0535
EN	-9.05411
สนับสนุน	-9.055
เพลง	-9.05563
หิน	-9.0562
ทะเล	-9.05796
▁คุณสมบัติ	-9.05797
สู่	-9.05803
▁6.	-9.05911
▁de	-9.06001
▁มีนาคม	-9.06053
all	-9.06077
▁ถูก	-9.06148
ass	-9.06274
▁ทุก	-9.06284
▁Car	-9.06392
▁ชาว	-9.06456
วันที่	-9.06471
หล่อ	-9.06493
โท	-9.06529
สถานี	-9.06556
วิธี	-9.06628
ด์	-9.06862
▁For	-9.07062
ส่วนตัว	-9.07088
บรรจุภัณฑ์	-9.07116
แกน	-9.07202
ข่าว	-9.07285
ท่องเที่ยว	-9.07306
คุ	-9.07395
▁พฤศจิกายน	-9.0743
▁La	-9.07502
บาร์	-9.07554
▁2560	-9.07595
▁Me	-9.07604
be	-9.07606
ข้อ	-9.07766
▁45	-9.07779
้น	-9.07803
▁CNC	-9.07804
ลบ	-9.07988
ที่เป็น	-9.08039
ไฮดรอลิก	-9.08068
กิน	-9.08299
▁ดังนั้น	-9.08396
EC	-9.08413
▁120	-9.08419
ช่อง	-9.08581
▁มาแล้ว	-9.08635
น์	-9.08686
จัดส่ง	-9.08804
71	-9.08847
▁35	-9.08908
สัมผัส	-9.08933
อร์	-9.09068
ล้าง	-9.09092
คง	-9.09164
คะ	-9.09226
นอน	-9.09292
เห	-9.09356
▁วาล์ว	-9.09539
ไอ	-9.09617
▁เกมส์	-9.09673
ปกติ	-9.09688
AT	-9.09903
▁Hotel	-9.10007
โรค	-9.10121
600	-9.10173
บริสุทธิ์	-9.10279
ho	-9.10353
93	-9.10411
พระ	-9.10426
เกรด	-9.10506
ru	-9.1054
▁กุมภาพันธ์	-9.10594
ควร	-9.10633
ชาว	-9.10762
-7	-9.10763
ตะ	-9.11049
ในปี	-9.11148
▁www	-9.11219
ตัน	-9.11288
91	-9.11316
ทองแดง	-9.11473
▁32	-9.11533
หน่อย	-9.11663
5%	-9.11691
▁พระเจ้า	-9.1173
▁Be	-9.11791
▁Sp	-9.11807
ag	-9.11842
▁ขอบคุณ	-9.12038
เรียก	-9.12074
able	-9.12123
’	-9.12199
▁กันยายน	-9.12251
รางวัล	-9.12366
ขวด	-9.12395
tor	-9.12471
▁Li	-9.12471
▁02	-9.12476
แสงอาทิตย์	-9.12478
▁ครั้งที่เข้าดู	-9.12511
ดอกไม้	-9.12681
▁·	-9.12719
ที่คุณ	-9.12773
om	-9.1283
▁ห้องนอน	-9.1294
ล์	-9.13034
ปาก	-9.13055
▁ความยาว	-9.13072
หนัก	-9.13158
ตําแหน่ง	-9.1317
▁BookingSuite	-9.13173
TA	-9.13224
เจ	-9.13267
จํา	-9.13403
▁มาตรฐาน	-9.13552
▁No	-9.13626
การชําระเงิน	-9.13634
ได้รับการ	-9.13657
▁เมษายน	-9.13729
ko	-9.13773
กลับ	-9.14006
เครื่องยนต์	-9.14008
▁Booking	-9.14034
▁เล่น	-9.14068
ราย	-9.141
ni	-9.14119
▁Mo	-9.14135
CH	-9.14136
บิ	-9.14177
▁(4	-9.14187
9001	-9.14523
yl	-9.14535
ty	-9.14599
ใต้	-9.1467
รอย	-9.14738
▁Vi	-9.14935
เคย	-9.15034
ทั่วโลก	-9.15044
RE	-9.15052
▁มกราคม	-9.15145
สมาชิก	-9.15147
นม	-9.15394
▁ทําไม	-9.15424
▁Light	-9.15517
ความเร็ว	-9.15535
ร่างกาย	-9.15605
หุ้น	-9.15627
▁ติดต่อ	-9.15668
▁จุด	-9.15769
ps	-9.15791
มหาชน	-9.15803
รุ	-9.15879
▁เซ็กส์	-9.15929
▁ค่า	-9.15994
เวอร์	-9.1602
bi	-9.16038
สื่อ	-9.16104
ประสบการณ์	-9.16196
old	-9.16208
ให้กับ	-9.16222
ตอน	-9.16233
ตั้ง	-9.16252
▁Tr	-9.16381
▁To	-9.16437
ian	-9.16483
สุนัข	-9.16661
▁อาคาร	-9.16808
ลู	-9.16813
เฟ	-9.16839
ow	-9.17013
ได	-9.171
อาจ	-9.17162
der	-9.17195
บุคคล	-9.17387
io	-9.17649
ชน	-9.17731
นาน	-9.17931
▁iPhone	-9.18008
▁Hot	-9.18115
ภายนอก	-9.18121
▁250	-9.1817
การรักษา	-9.18261
ตี	-9.18361
▁องศา	-9.18384
ภาษาอังกฤษ	-9.18519
ชาร์จ	-9.18871
▁ชาย	-9.18902
▁มิถุนายน	-9.18925
สัญญา	-9.19003
ัส	-9.19075
▁ธ	-9.19091
อัด	-9.19433
สํานักงาน	-9.19473
q	-9.19541
แบ	-9.19555
ใบ	-9.19557
บอร์ด	-9.19558
เบอร์	-9.19646
mon	-9.19811
ance	-9.19891
di	-9.19947
▁อย่าง	-9.20067
มุม	-9.20132
▁ร้อน	-9.20301
▁บรรจุภัณฑ์	-9.20398
ดูด	-9.20535
สไตล์	-9.20537
เตียง	-9.20578
he	-9.20704
หรอก	-9.2071
ดําเนินการ	-9.20825
"&	-9.21162
พีวีซี	-9.21338
ทีวี	-9.21395
cm	-9.21423
ไฟเบอร์	-9.21457
โ	-9.21549
ช่วง	-9.21574
▁ทั้งหลาย	-9.2161
TC	-9.21729
เทียน	-9.21783
ไม	-9.21786
▁เม	-9.21901
น้ําหนัก	-9.21918
▁อุณหภูมิ	-9.21925
ST	-9.21943
ประชุม	-9.22018
▁เยน	-9.22027
▁สิงหาคม	-9.22047
▁แผง	-9.22104
▁He	-9.22115
อยาก	-9.22188
ถัง	-9.22243
การพัฒนา	-9.22275
▁พื้นที่	-9.22289
ฯ	-9.22313
▁สถานที่	-9.22505
ภ	-9.22531
ซี่	-9.22654
▁ช่วง	-9.22695
ฆ่า	-9.22716
▁อลูมิเนียม	-9.22739
▁โปรแกรม	-9.22761
800	-9.22773
net	-9.22818
สวย	-9.22894
tic	-9.22955
พัก	-9.2299
▁ตัน	-9.23
ครอบครัว	-9.23061
ัล	-9.23073
▁พวกเขา	-9.2309
▁for	-9.23133
สีแดง	-9.23147
ปัจจุบัน	-9.23158
▁ซื้อ	-9.23179
▁เรื่อง	-9.23254
op	-9.23276
EL	-9.233
ไซ	-9.23381
vi	-9.23406
▁นโยบาย	-9.23452
▁ทําให้	-9.23485
▁600	-9.23526
▁สีดํา	-9.23532
MC	-9.23591
บันทึก	-9.23649
พบ	-9.23674
ka	-9.23692
เพชร	-9.23831
นี	-9.23895
ตี้	-9.23935
ID	-9.23953
▁กิโลกรัม	-9.24047
▁กลุ่ม	-9.24087
ish	-9.24092
ต่างประเทศ	-9.2427
son	-9.24306
▁รีวิว	-9.24309
▁Gr	-9.24406
▁ล้าน	-9.24474
แบบพกพา	-9.24667
are	-9.24673
▁อายุ	-9.24739
▁ที่อยู่	-9.24748
▁Ro	-9.249
▁ครอบครัว	-9.24941
▁จึง	-9.24952
va	-9.2506
สังคม	-9.25072
ak	-9.25097
ฉ	-9.25124
▁สร้าง	-9.25141
่ง	-9.25173
เส้น	-9.25319
สา	-9.25319
บ้า	-9.25363
▁ทั้ง	-9.25392
▁ติดต่อเรา	-9.25465
ของขวัญ	-9.2547
ระบุ	-9.25485
▁PC	-9.2549
-12	-9.25501
pi	-9.25583
▁(5	-9.25688
▁ลด	-9.25705
การ์ด	-9.25768
▁ยัง	-9.25793
▁Ba	-9.25853
แต่	-9.2586
รถไฟ	-9.25861
▁ช่อง	-9.25932
สอน	-9.25975
อย่างไร	-9.26061
แท้	-9.26255
บุ	-9.26287
ou	-9.26307
ไม่ใช่	-9.2633
TM	-9.26366
▁Con	-9.2645
ell	-9.26471
เอกสาร	-9.26568
ตร	-9.26574
▁2014	-9.26707
▁คลิก	-9.26714
ee	-9.2681
เม็ด	-9.26848
▁กล้อง	-9.26851
สัตว์	-9.26897
เก่า	-9.26935
ฟัน	-9.27011
ure	-9.27075
▁หัว	-9.27084
▁PE	-9.27084
▁ต้อง	-9.27116
แบรนด์	-9.27118
▁รวม	-9.27158
▁แคริบเบียน	-9.27161
ผลไม้	-9.27231
พี	-9.27309
หนา	-9.27336
mi	-9.27506
ีย	-9.27574
lic	-9.27735
▁เขต	-9.27774
พืช	-9.27826
▁ออก	-9.27953
ฟิล์ม	-9.28009
▁กม	-9.28046
มากขึ้น	-9.28074
▁คํา	-9.28161
จําหน่าย	-9.28196
MS	-9.28305
ล็อค	-9.28337
รอง	-9.28339
ทรง	-9.28439
▁Google	-9.28472
นําเสนอ	-9.28487
ดูแล	-9.28496
▁โปรด	-9.28509
OP	-9.28615
นอก	-9.28641
▁คุณสามารถ	-9.2871
สิ่งที่	-9.28751
▁หนัง	-9.28823
▁หนึ่ง	-9.29055
บอล	-9.29111
ator	-9.29224
EX	-9.29274
บู	-9.29382
ลอ	-9.29449
ger	-9.29524
โหลด	-9.29541
▁กรกฎาคม	-9.29583
su	-9.29599
มั้ย	-9.29614
ัม	-9.2972
ํา	-9.298
อง	-9.29895
่ม	-9.29925
เข้าชม	-9.29948
เพ	-9.30027
▁โคมไฟ	-9.30054
ปริมาณ	-9.30067
ก๊าซ	-9.30069
ick	-9.30074
▁ดํา	-9.30145
กาว	-9.30161
มะ	-9.30171
▁การออกแบบ	-9.302
®	-9.30213
▁ประตู	-9.30235
้า	-9.30324
▁กิจกรรม	-9.3034
▁การค้า	-9.30367
▁kgm	-9.30464
ix	-9.30478
▁เครื่องตัด	-9.30511
พ่อ	-9.30652
ISO	-9.30662
▁70	-9.30665
▁2013	-9.30751
เชื่อ	-9.30757
ษ	-9.30946
โพลีเอสเตอร์	-9.30986
หลอด	-9.31084
▁UL	-9.31091
▁All	-9.31092
▁โครงการ	-9.31171
▁รูป	-9.31245
▁Berry	-9.3127
เว็บ	-9.31344
กุ	-9.31363
US	-9.31411
จะมี	-9.31514
ค่าใช้จ่าย	-9.31565
เหลือ	-9.31619
ซะ	-9.31723
ห้องพัก	-9.31737
▁เว็บไซต์	-9.31755
เต	-9.31793
000	-9.31834
▁St	-9.31888
▁Sh	-9.31937
ies	-9.32054
ub	-9.32093
UN	-9.32113
CO	-9.32149
มนุษย์	-9.32249
้อ	-9.32275
▁re	-9.32315
ml	-9.32328
แม่เหล็ก	-9.32328
แบน	-9.3238
gu	-9.3241
ยุโรป	-9.32432
ออกไป	-9.32448
ON	-9.32544
▁LTD	-9.32557
ts	-9.32587
ตู้	-9.32602
จี	-9.32638
▁CAS	-9.3264
ฝุ่น	-9.32657
สม	-9.3269
LE	-9.32703
มอง	-9.32734
▁นัก	-9.32881
ver	-9.32908
▁มิ	-9.32936
▁บุคคลทั่วไป	-9.32971
▁start	-9.3299
ber	-9.33109
ลิน	-9.33125
เจาะ	-9.33155
เถอะ	-9.33161
หมุน	-9.33199
จึง	-9.33247
แมน	-9.33272
▁400	-9.333
Hz	-9.33358
IT	-9.33382
เดิม	-9.33416
ศูนย์	-9.33499
ปลา	-9.335
qu	-9.33525
▁มอเตอร์	-9.33525
เหมือน	-9.3354
ina	-9.33564
สุดท้าย	-9.33567
เซอร์	-9.33576
เพศ	-9.33583
▁ระดับ	-9.33598
เกลียว	-9.33606
▁เกี่ยวกับการขาย	-9.33639
ฮิ	-9.33748
▁ปิด	-9.3378
รู้สึก	-9.33785
พัน	-9.33839
▁สถานี	-9.33879
ราช	-9.33902
▁(1)	-9.33969
โรงเรียน	-9.33973
นก	-9.34219
120	-9.34233
เขต	-9.34283
เอส	-9.34286
▁สอง	-9.34288
ซู	-9.34289
ke	-9.34314
ป่า	-9.34343
-9	-9.34348
ES	-9.34645
พื้นฐาน	-9.3465
ธนาคาร	-9.34651
▁ระยะเวลา	-9.34678
SE	-9.34689
เส้นทาง	-9.34781
▁dur	-9.34816
หมายเลข	-9.34832
บท	-9.34892
po	-9.35002
มอบ	-9.35079
เลือด	-9.35081
จักรยาน	-9.35096
our	-9.3512
ฟา	-9.35172
สั้น	-9.3519
▁แห่ง	-9.35229
เข้าร่วม	-9.35315
รองเท้า	-9.35316
▁ส่ง	-9.35436
แจ้ง	-9.35441
ปลอดภัย	-9.35464
▁เทคโนโลยี	-9.35576
▁ไม่ใช่	-9.356
▁ชิ้นส่วน	-9.35623
แต่ละ	-9.35641
▁ข้า	-9.35684
▁แบรนด์	-9.35696
เตรียม	-9.35697
▁เรามี	-9.35697
ard	-9.35753
▁(10	-9.35783
อะ	-9.35875
▁1.5	-9.35909
▁ลิตร	-9.35932
มม	-9.3595
ตรา	-9.35965
do	-9.3603
#	-9.36068
ตรวจ	-9.36083
ฮา	-9.36088
ทีม	-9.36123
แม่พิมพ์	-9.36222
พนักงาน	-9.3625
อิน	-9.3626
เนื้อ	-9.36274
▁LCD	-9.36424
▁จง	-9.36431
เช่า	-9.36438
หน่วย	-9.3644
TS	-9.36467
ที่ไม่	-9.36562
▁หญิง	-9.36569
รส	-9.3657
คิ	-9.36623
▁SA	-9.3673
chi	-9.36881
ไปที่	-9.36915
ยิง	-9.3697
ED	-9.37085
ตาข่าย	-9.37171
ไม่สามารถ	-9.37195
ปา	-9.37202
oo	-9.37215
▁ASTM	-9.37289
ข้าว	-9.37352
▁SC	-9.37371
NA	-9.37384
▁Sa	-9.37435
▁ประเภทผลิตภัณฑ์	-9.37466
โฟม	-9.37474
ล่า	-9.3752
ประจํา	-9.37528
สายเคเบิล	-9.37539
PC	-9.37722
ชิ้น	-9.37723
การทดสอบ	-9.37736
หวาน	-9.37817
ack	-9.37827
เดียวกัน	-9.37879
ner	-9.37886
end	-9.38021
▁Air	-9.38085
สัก	-9.38085
▁ตอนนี้	-9.38097
แค	-9.38158
MM	-9.38246
110	-9.38272
การติดตั้ง	-9.38346
GB	-9.38364
▁An	-9.38383
การตลาด	-9.38428
การเชื่อมต่อ	-9.38448
▁แบตเตอรี่	-9.38501
การจัดการ	-9.38655
▁\	-9.38678
we	-9.38687
โฆษณา	-9.3869
▁Ar	-9.38722
ขอบ	-9.38759
▁ตู้	-9.38905
แทน	-9.38977
▁High	-9.39004
▁Power	-9.391
เนอร์	-9.39119
▁กรุงเทพฯ	-9.39134
▁http	-9.39147
ING	-9.39147
▁คู่มือ	-9.39173
▁จ	-9.39182
รั้ว	-9.39204
▁พฤษภาคม	-9.39232
ฉีด	-9.39258
หนังสือ	-9.39283
▁เซ็กซี่	-9.39287
MP	-9.39363
▁Technology	-9.39395
▁กระดาษ	-9.39419
▁คู่	-9.39473
กาแฟ	-9.39628
เดอร์	-9.39704
เนื้อหา	-9.39755
ศึกษา	-9.39799
▁จังหวัด	-9.39804
ขา	-9.39807
PE	-9.39843
▁Di	-9.39858
กฎหมาย	-9.39868
ound	-9.39872
▁รูปภาพ	-9.39896
▁Mar	-9.39919
ทาน	-9.39943
ME	-9.39983
▁ความจุ	-9.40006
เส	-9.40105
ice	-9.40187
ki	-9.40199
ji	-9.40226
เส้นผ่าศูนย์กลาง	-9.40346
คาร์บอน	-9.40396
นักเรียน	-9.404
อิสระ	-9.40437
▁Lo	-9.40501
・	-9.40581
วิ่ง	-9.40693
แผน	-9.40696
ด้านบน	-9.40711
รู้จัก	-9.40807
ฟุตบอล	-9.4083
มีการ	-9.40846
หลังคา	-9.40848
ถ	-9.40887
ยอดนิยม	-9.41164
คะแนน	-9.41245
▁องค์	-9.41291
900	-9.41311
▁แก่	-9.41314
กําหนด	-9.41326
ลูกกลิ้ง	-9.4142
สหรัฐอเมริกา	-9.41452
way	-9.41513
▁ภาษา	-9.41562
ana	-9.41581
▁0.5	-9.4166
▁VPN	-9.41734
สเต	-9.41775
▁หน่วย	-9.4178
เลี้ยง	-9.41796
▁เว็บไซต์ทางการ	-9.41799
การเดินทาง	-9.41814
มาจาก	-9.41939
▁36	-9.4202
ศาสตร์	-9.42033
พอ	-9.42079
การแข่งขัน	-9.42119
ถ้า	-9.42218
ตัวเอง	-9.42333
ake	-9.42398
การจัดส่ง	-9.42421
พื้นผิว	-9.42533
สะดวก	-9.42535
สอบถาม	-9.42539
▁ได้รับ	-9.4257
▁หลังจาก	-9.42615
เหล่านี้	-9.42666
เจอ	-9.42725
อัปโหลดโดย	-9.4273
ไร้สาย	-9.43102
▁รูปแบบ	-9.43151
▁บาร์	-9.43164
▁นํา	-9.43206
โตเกียว	-9.43257
AP	-9.43301
▁ขั้นตอน	-9.43336
และการสนับสนุน	-9.43437
▁ซี	-9.43459
ความดัน	-9.43531
▁มือสมัครเล่น	-9.43535
รวมถึง	-9.43576
ยู	-9.43578
eng	-9.43591
ไว	-9.43713
▁ลง	-9.43778
▁PCB	-9.43834
ft	-9.4385
่น	-9.43852
รักษาความปลอดภัย	-9.43871
ราคาถูก	-9.43875
พับ	-9.43891
▁GPS	-9.43949
ium	-9.43967
ซอฟต์แวร์	-9.43974
หลังจาก	-9.44001
ฟัง	-9.44038
บริหาร	-9.44099
คอน	-9.44156
โครงสร้าง	-9.44201
▁ขวด	-9.44215
หัวใจ	-9.4424
กระจก	-9.44542
มีความ	-9.44611
แพทย์	-9.4463
ออ	-9.4465
Guangdong	-9.44703
▁Led	-9.44793
▁Ha	-9.44847
โบ	-9.44851
art	-9.44858
หยุด	-9.44916
▁ร้าน	-9.44941
▁ลบ	-9.44994
สําหรับเด็ก	-9.45035
RO	-9.45046
▁หาก	-9.45052
แพลตฟอร์ม	-9.45086
150	-9.45127
ทิ้ง	-9.45162
เชิง	-9.45254
ทันที	-9.45306
เสื้อผ้า	-9.45325
▁อี	-9.4533
ตาราง	-9.45362
▁มันเป็น	-9.45374
นั่ง	-9.45395
จะเป็น	-9.45413
▁2012	-9.45459
ห์	-9.45544
▁ช่วย	-9.45568
ตัวเลือก	-9.45688
▁ผล	-9.45709
▁(6	-9.45714
ที่พัก	-9.45777
แปล	-9.45788
▁เยโฮ	-9.45828
การค้า	-9.45841
Hebei	-9.45905
▁ตร	-9.45908
ยังไง	-9.45971
หมด	-9.45978
ite	-9.46075
▁ของเล่น	-9.46189
ทุกคน	-9.46213
ัต	-9.46224
ัย	-9.46228
les	-9.46246
kg	-9.46253
รองรับ	-9.46291
บริเวณ	-9.46302
เซิร์ฟเวอร์	-9.46392
ข้อความ	-9.46418
▁สาขา	-9.46502
ความชื้น	-9.46561
ความคิดเห็น	-9.4661
▁ผู้ใหญ่	-9.46624
แก	-9.46637
▁เดอะ	-9.4668
พวก	-9.46709
แขน	-9.46769
▁ข้าพเจ้า	-9.4678
ไล	-9.46791
ือ	-9.46791
▁โรงงานขายส่ง	-9.46819
จาน	-9.46845
โลโก้	-9.4694
เพิ่มขึ้น	-9.46978
▁อีเมล	-9.47033
▁คะแนน	-9.47125
▁App	-9.47145
▁เอ่อ	-9.47172
เที่ยว	-9.47192
▁ตาราง	-9.47202
พอร์ต	-9.47203
ของเขา	-9.47209
หรอ	-9.47221
โอกาส	-9.47256
II	-9.47346
ด่วน	-9.47348
ขน	-9.47418
▁220	-9.47438
รัฐ	-9.47464
โดยใช้	-9.47482
▁ปริมาณ	-9.47526
ob	-9.47545
แฟชั่น	-9.47545
สั่ง	-9.47548
กร	-9.47559
www	-9.47567
SP	-9.47582
แรงดัน	-9.47666
ข้า	-9.47704
ทราย	-9.47726
ja	-9.47772
▁ใคร	-9.47777
สาขา	-9.47796
▁อะไหล่	-9.47838
ิต	-9.47853
ความงาม	-9.47872
▁รองเท้า	-9.47883
สํารอง	-9.47906
ระเบิด	-9.47936
0.0	-9.48139
0000	-9.48324
อาจจะ	-9.48446
บาท	-9.48471
ขับ	-9.48481
if	-9.48583
▁ซา	-9.48621
▁by	-9.48627
▁Tags	-9.48692
ตก	-9.4879
line	-9.48813
Fi	-9.48836
▁Ma	-9.48846
ล่วงหน้า	-9.48908
มู	-9.48935
ความต้องการ	-9.48962
▁เครื่องจักร	-9.49017
วน	-9.49069
ให้คุณ	-9.49145
▁ตัวเลือก	-9.49172
สีชมพู	-9.49177
ปลาย	-9.49236
จู	-9.49262
▁แรงดันไฟฟ้า	-9.49289
OL	-9.49299
▁เตียง	-9.49317
แปลง	-9.49359
ชนะ	-9.49361
▁ประมาณ	-9.49388
อยู่ที่	-9.4957
มาร์	-9.49606
วิเคราะห์	-9.49608
แตก	-9.49626
ox	-9.49641
ไทเทเนียม	-9.49659
ock	-9.49666
ผิด	-9.49701
▁วินาที	-9.49733
ัง	-9.49806
PA	-9.4981
▁ซึ่งเป็น	-9.49996
▁(11	-9.50161
แอ	-9.50253
-15	-9.50309
สามารถใช้	-9.50334
โฮ	-9.50341
▁ดอกไม้	-9.50369
▁ABS	-9.5048
อบ	-9.50482
ทหาร	-9.50501
tra	-9.50505
ey	-9.50528
ส่งออก	-9.50611
PS	-9.50631
▁โมดูล	-9.50694
สิทธิ์	-9.50705
การท่องเที่ยว	-9.50735
▁ฮาร์ดคอร์	-9.50735
ครอบคลุม	-9.50776
ปืน	-9.50781
ook	-9.50881
ส่วนใหญ่	-9.50946
ต้า	-9.51004
▁เป็นต้น	-9.51062
▁วิทยาลัย	-9.51275
▁เครื่องวัด	-9.51316
ng	-9.51349
▁ฉันจะ	-9.51378
▁So	-9.51441
▁ได้แก่	-9.51459
ดี้	-9.51467
ขั้นตอน	-9.5154
ประกัน	-9.51608
$	-9.51616
ต่อไป	-9.51624
ทุกวัน	-9.51693
เพื่อความร่วมมือ	-9.51708
\	-9.51743
พล	-9.51747
เข้าใจ	-9.51748
▁มองไปข้างหน้า	-9.51748
ชม	-9.51846
บริการที่สมบูรณ์	-9.51864
lin	-9.51872
▁เจ	-9.51882
จังหวัด	-9.51927
ผัก	-9.52001
▁Tube	-9.52024
IP	-9.52037
เช	-9.52074
ติดตาม	-9.52096
▁เราเป็นผู้ผลิตเ	-9.52099
ฉพาะจากประเทศจีน	-9.52109
ขณะ	-9.52164
▁และการผลิตเรามี	-9.52201
pl	-9.52209
▁ประเภทสินค้าของ	-9.52255
OR	-9.52299
▁48	-9.52302
แบบหลังการขาย	-9.52318
▁น่ารัก	-9.52319
เข้ามา	-9.5236
ขวา	-9.52458
ยาก	-9.5247
▁ชม	-9.5252
เกาะ	-9.52566
ประสิทธิภาพ	-9.52571
▁ago	-9.52572
จดหมาย	-9.52577
ลอง	-9.52745
รถบรรทุก	-9.52779
ไวน์	-9.52848
แนว	-9.52871
▁Wi	-9.52917
▁Na	-9.5296
จะต้อง	-9.52979
ก่อสร้าง	-9.5298
▁ล้อ	-9.53002
▁ห้องพัก	-9.53023
tal	-9.53101
oc	-9.53101
▁เสื้อ	-9.53117
กระจาย	-9.53117
ous	-9.53169
▁คา	-9.53196
ชี	-9.53207
เคมี	-9.53228
▁UV	-9.53245
▁พัทยา	-9.53266
▁ห้องน้ํา	-9.5328
ight	-9.53299
สกรู	-9.53385
ค้นหา	-9.53518
uck	-9.53535
TH	-9.53537
วิธีการ	-9.53589
ราง	-9.53607
mer	-9.53701
▁กรณี	-9.53716
▁Black	-9.53743
สิงคโปร์	-9.53871
CC	-9.5391
เป้าหมาย	-9.53918
่อ	-9.53925
▁อัตรา	-9.53966
ating	-9.53978
มากมาย	-9.5399
ของลูกค้า	-9.54081
▁2010	-9.54119
พลัง	-9.54122
คิดว่า	-9.54182
166	-9.54202
๊ก	-9.54223
250	-9.54224
จบ	-9.54263
ู	-9.54328
=	-9.54381
▁ความกว้าง	-9.54495
▁Pre	-9.54501
▁เทียน	-9.54523
▁ออกแบบ	-9.54555
ในร่ม	-9.54643
org	-9.54673
▁แบรนด์ชั้นนํา	-9.5472
วันนี้	-9.5474
คอนกรีต	-9.54831
การแสดง	-9.54984
ไหน	-9.55005
ens	-9.55015
ท้อง	-9.55056
ไก่	-9.55061
ทุกอย่าง	-9.55071
od	-9.55088
700	-9.55119
▁ลวด	-9.55256
ความเป็นส่วนตัว	-9.5534
EA	-9.55343
ในประเทศ	-9.55364
act	-9.55482
▁งั้น	-9.55548
และอื่น	-9.55554
▁รหัสสินค้า	-9.55565
▁800	-9.55575
sion	-9.55678
ci	-9.55724
▁0.1	-9.55773
▁Products	-9.5578
ฟิ	-9.55798
ica	-9.55808
อํานวยความสะดวก	-9.55868
ครั้งแรก	-9.55933
บังคับ	-9.55956
บล็อก	-9.56015
▁บลอนด์	-9.5604
วาด	-9.56124
▁●	-9.56168
▁Test	-9.56182
แป้ง	-9.56216
กลับมา	-9.56286
▁เหมาะสําหรับ	-9.56287
สีเหลือง	-9.56378
▁แผนที่	-9.56448
บอกว่า	-9.56449
▁สํานักงาน	-9.56503
ปัญหา	-9.56516
au	-9.56527
อินทรีย์	-9.56535
เสนอ	-9.56672
▁ตอน	-9.56678
con	-9.56727
▁เพื่อน	-9.56771
ด้านล่าง	-9.56781
▁PU	-9.56783
ชุบ	-9.56838
เกิน	-9.56894
USD	-9.56907
▁เว็บแคม	-9.56918
ในช่วง	-9.56922
อาการ	-9.56924
▁30%	-9.56956
▁ความคิดเห็น	-9.56971
▁โรงเรียน	-9.56986
สิทธิ	-9.57013
อสังหาริมทรัพย์	-9.57065
ue	-9.571
less	-9.57122
จัดหา	-9.57174
▁เค	-9.57207
▁โปรโมชั่น	-9.57254
▁2011	-9.57327
▁10%	-9.5733
▁2000	-9.5736
nd	-9.57376
ฝ่าย	-9.57408
ash	-9.57473
นวด	-9.57498
สบาย	-9.57522
-25	-9.57538
▁พิมพ์	-9.57542
คําสั่ง	-9.57544
▁(20	-9.57603
fa	-9.57606
ย้าย	-9.5761
อก	-9.57618
LTD	-9.57675
กุญแจ	-9.57721
ade	-9.57819
▁รองรับ	-9.57827
เสื้อ	-9.57893
ตั๋ว	-9.57895
▁THB	-9.57965
ree	-9.57988
ve	-9.57991
▁นี่คือ	-9.58087
ความเร็วสูง	-9.58093
▁ข้อมูลจําเพาะ	-9.58143
เครื่องประดับ	-9.58285
▁เบ	-9.58289
ยอด	-9.58331
▁ความหนา	-9.58412
br	-9.5842
▁Thai	-9.58474
▁ตั้งแต่	-9.58484
▁Bangkok	-9.58485
คณะกรรมการ	-9.58488
ข้าม	-9.58505
▁กรุณา	-9.58571
▁Tri	-9.5858
เบรค	-9.58602
สายไฟ	-9.58603
▁Th	-9.58641
▁เงื่อนไข	-9.58658
สัปดาห์	-9.58721
ดื่ม	-9.58768
ร้าย	-9.58781
▁110	-9.58864
ah	-9.58889
ประโยชน์	-9.5889
▁Line	-9.58977
กลิ่น	-9.59086
ยอมรับ	-9.59097
เติม	-9.59103
ขึ้นไป	-9.59108
▁รอบ	-9.59128
เป็นผู้เชี่ยวชาญ	-9.59136
▁Un	-9.59237
อีเมล	-9.59283
กระเบื้อง	-9.59422
แซ	-9.59499
การพิมพ์	-9.59509
ET	-9.59533
เซลล์	-9.59561
▁ที่มีคุณภาพสูง	-9.59563
▁SS	-9.59585
เตา	-9.59619
CE	-9.59621
ประกาศ	-9.59692
▁Pa	-9.59749
▁ภาษาไทย	-9.59805
▁สาร	-9.59833
แต่ง	-9.5984
ling	-9.59857
เท่า	-9.59866
สีเขียว	-9.59869
จอ	-9.59875
สะ	-9.59941
▁มิลลิเมตร	-9.59984
ธิ	-9.6007
คอม	-9.60077
อย่างเป็นทางการ	-9.6009
ย่อย	-9.60143
นานาชาติ	-9.6015
พร	-9.60175
out	-9.60249
▁Po	-9.60301
▁ชื่อสินค้า	-9.60316
▁Ho	-9.60318
hu	-9.60325
การตั้งค่า	-9.60329
กลม	-9.60331
ron	-9.60339
han	-9.60359
▁โค	-9.60378
TE	-9.60397
โทรศัพท์มือถือ	-9.60469
yo	-9.60477
วิทยาศาสตร์	-9.60483
ขายส่ง	-9.60507
จะไม่	-9.60509
ผู้ชาย	-9.60578
-30	-9.60582
ทน	-9.6064
▁2559	-9.6065
▁GB	-9.60695
MI	-9.60778
▁We	-9.6088
ที่อยู่	-9.60927
ฉนวน	-9.60946
ไท	-9.60976
วิน	-9.60988
ขนส่ง	-9.61028
day	-9.61124
SI	-9.61147
ทําการ	-9.61221
▁เลขที่	-9.61226
▁05:	-9.613
ขึ้นอยู่กับ	-9.61302
ชิป	-9.61325
▁Fe	-9.61434
ste	-9.61434
นําเข้า	-9.61475
การเปลี่ยนแปลง	-9.61476
res	-9.6153
ไดรฟ์	-9.61562
ile	-9.61601
การขาย	-9.61613
วะ	-9.61629
PT	-9.61677
cr	-9.61685
ธรรมดา	-9.61688
เมตร	-9.61702
ทัวร์	-9.61722
สถานะ	-9.61793
▁Super	-9.61795
▁(12	-9.61906
cl	-9.61909
▁Bar	-9.61932
sex	-9.61934
แน่	-9.62022
การควบคุม	-9.62022
ข้อมูลเพิ่มเติม	-9.62046
วันหยุด	-9.62116
เทคนิค	-9.62117
รีด	-9.62167
ผู้จัดจําหน่าย	-9.62255
เชือก	-9.62283
แผนที่	-9.62287
mp	-9.62365
คุกกี้	-9.62414
▁ปีที่ผ่านมา	-9.62439
CT	-9.62483
ถือ	-9.62511
BA	-9.62525
กรณี	-9.62559
CP	-9.62594
โดยตรง	-9.62649
โลหะผสม	-9.62753
ase	-9.62766
ทําอะไร	-9.6281
อัตรา	-9.62833
ทางการแพทย์	-9.62878
▁สัปดาห์	-9.62938
การสร้าง	-9.6295
▁(9	-9.62998
ร่า	-9.63024
ธรรม	-9.63029
form	-9.63144
สุดยอด	-9.63155
เซ็น	-9.63164
อินเทอร์เน็ต	-9.63174
ค์	-9.63175
ไม่เกิน	-9.63197
ใช่	-9.63218
แบ่ง	-9.63259
แอร์	-9.63365
▁PET	-9.63377
AI	-9.63392
IA	-9.63412
▁หยุด	-9.63416
โบนัส	-9.63427
นับ	-9.635
ออกจาก	-9.63532
2019	-9.63594
▁เดิน	-9.63601
เกร	-9.63667
▁Copyright	-9.63752
ลํา	-9.6382
อาร์	-9.63876
ออกมา	-9.63897
▁รวมถึง	-9.63977
so	-9.64047
หน้าต่าง	-9.64105
แต่งงาน	-9.64131
ยืนยัน	-9.6418
ของเหลว	-9.64193
▁เครื่องพิมพ์	-9.64248
ที่ผ่านมา	-9.64252
▁บทความ	-9.64281
บั	-9.64283
ได้ยิน	-9.64381
โชว์	-9.64458
การทํา	-9.64462
รายงาน	-9.64463
สกุลเงิน	-9.64567
อน	-9.64569
นาที	-9.6457
อังกฤษ	-9.64598
นุ่ม	-9.64661
กรด	-9.64736
ทองเหลือง	-9.64778
▁เริ่มต้น	-9.64805
รัสเซีย	-9.64828
▁รายละเอียดอัตรา	-9.64899
อม	-9.64908
เมอร์	-9.64975
▁RoHS	-9.6498
สีฟ้า	-9.65022
▁ก้น	-9.65086
▁ตารางเมตร	-9.65144
ในประเทศจีน	-9.65147
▁เราจะ	-9.65193
PO	-9.65221
▁โพสต์	-9.65244
▁มล	-9.65319
สภาพ	-9.65326
ยังมี	-9.65333
ซีล	-9.65344
เยี่ยมชม	-9.65358
โย	-9.65427
port	-9.65436
เลนส์	-9.65444
เงินฝาก	-9.65504
เปอร์	-9.65505
RI	-9.65505
▁Facebook	-9.6563
▁โรงพยาบาล	-9.65668
▁เปลี่ยน	-9.65687
ที่สําคัญ	-9.65704
bar	-9.65731
โปรโมชั่น	-9.65749
▁หา	-9.65769
9.00	-9.65821
ler	-9.65866
ไปแล้ว	-9.65867
mg	-9.659
▁เด	-9.65905
▁±	-9.65948
ไร้	-9.6603
In	-9.66039
▁สวัสดี	-9.66044
ที่ต้องการ	-9.66158
ace	-9.66194
คุณสามารถ	-9.66221
รถเข็น	-9.66225
▁จอแสดงผล	-9.66307
็ก	-9.66338
dy	-9.66391
▁เริ่ม	-9.66436
กําจัด	-9.6646
▁มิติ	-9.6661
ชําระ	-9.66613
▁คําอธิบาย	-9.66673
เรีย	-9.66701
ที่เรา	-9.66724
ตะวันออก	-9.66746
ย่อ	-9.6675
▁แหล่งจ่ายไฟ	-9.66751
บิน	-9.66857
ฟ้า	-9.66907
โปร	-9.66928
ust	-9.66947
▁สนับสนุน	-9.67042
▁เกย์	-9.67151
NO	-9.67217
ster	-9.67236
	-9.67295
การตรวจสอบ	-9.67487
▁พอร์ต	-9.67562
กาย	-9.67567
วงจร	-9.6757
เอ็น	-9.67588
ลอย	-9.67628
คณะ	-9.67635
▁(2)	-9.67653
▁ถูกหนึ่งใน	-9.67661
โมดูล	-9.67684
บด	-9.67693
bu	-9.67755
ได้อย่าง	-9.67781
▁180	-9.67782
สนใจ	-9.67782
ประกันภัย	-9.67838
สีเทา	-9.679
▁แอนด์	-9.67902
สมาร์ท	-9.67911
ภายใต้	-9.67926
รีไซเคิล	-9.6797
▁เทป	-9.67973
▁ชาวอินเดีย	-9.67985
ในราคาต่ํา	-9.67993
vel	-9.68047
สังกะสี	-9.6809
พรม	-9.68139
บ้าง	-9.68158
land	-9.68165
▁2.5	-9.68176
▁Man	-9.68217
pan	-9.68239
5,000	-9.68242
ทราบ	-9.68262
▁อัน	-9.68274
แก้ไข	-9.68303
จะถูก	-9.68323
นิยม	-9.68351
▁คุณจะ	-9.6836
สั่งซื้อ	-9.68538
รหัสผ่าน	-9.68582
ความรู้	-9.68591
ม้า	-9.6861
อั	-9.68648
▁Qu	-9.68658
ครัว	-9.68701
คุณสมบัติ	-9.68749
กระบวนการ	-9.68815
แนวตั้ง	-9.68819
ขั้นต่ํา	-9.68826
▁การใช้	-9.68901
แก๊ส	-9.68941
ino	-9.68954
็ค	-9.68956
RP	-9.68964
เค้า	-9.68964
▁TNT	-9.68968
สี่	-9.69003
▁สาม	-9.69012
ran	-9.69148
ea	-9.69247
อย่างรวดเร็ว	-9.69291
▁พื้น	-9.69335
160	-9.69339
แพ	-9.69351
ด้านหน้า	-9.6936
▁ฟิล์ม	-9.69401
▁Cl	-9.6952
จอแสดงผล	-9.69548
คืออะไร	-9.69568
▁+66	-9.69598
็อ	-9.6962
tr	-9.6963
si	-9.69642
SL	-9.69674
โป	-9.69688
วัฒนธรรม	-9.69713
ชู	-9.69739
ป้อน	-9.69755
แถบ	-9.69783
ว์	-9.6981
MO	-9.69869
fl	-9.69883
มากที่สุด	-9.69923
เซีย	-9.70034
สวยงาม	-9.7021
▁38	-9.7022
°	-9.70238
ชาติ	-9.70242
▁US	-9.70261
iss	-9.70344
ไหล	-9.70404
ei	-9.70457
▁ข้อกําหนด	-9.70474
che	-9.70501
เต็มรูปแบบ	-9.70533
เชิญ	-9.70538
ping	-9.7054
เหตุ	-9.70553
ปรากฏ	-9.70561
การลงทุน	-9.70564
pp	-9.70583
ดนตรี	-9.70588
▁บุตร	-9.70601
เกอร์	-9.70638
ปุ่ม	-9.70657
▁หมู่	-9.70661
wi	-9.70676
อะไหล่	-9.70713
▁International	-9.70723
ของพวกเขา	-9.70731
อินเดีย	-9.70772
ความถี่	-9.70837
วัย	-9.7088
001	-9.70934
เค้ก	-9.70983
ort	-9.70985
ใช่ไหม	-9.70987
log	-9.7099
โอน	-9.71004
จัง	-9.71045
สอบ	-9.7107
fi	-9.71072
อันดับ	-9.71132
เสา	-9.71135
du	-9.71154
BR	-9.71171
ใกล้	-9.7118
▁86	-9.71187
ท่า	-9.71263
gi	-9.71274
และอุปกรณ์	-9.71305
วิทยา	-9.71345
รับรอง	-9.71346
เฉ	-9.71366
ที่แตกต่างกัน	-9.71377
▁55	-9.7138
การเงิน	-9.7145
▁ความเร็ว	-9.7148
รอน	-9.71507
หลากหลาย	-9.71549
porn	-9.71559
▁หนุ่ม	-9.71601
▁TH	-9.71667
ซาน	-9.71692
▁Mi	-9.71696
sta	-9.71749
เข้าไป	-9.71823
▁เกรด	-9.71831
นิทรรศการ	-9.71839
ศิลปะ	-9.71852
ไขมัน	-9.71858
PP	-9.71908
▁ตัวอย่าง	-9.71924
NS	-9.71942
น้อยกว่า	-9.71986
น่ารัก	-9.71992
ใช้เวลา	-9.72003
โต๊ะ	-9.72046
แลกเปลี่ยน	-9.72084
บริษัทฯ	-9.72102
การขนส่ง	-9.72143
อ้างอิง	-9.7216
▁เครื่องขึ้นรูป	-9.72162
KW	-9.72179
ในการทํางาน	-9.72196
▁20%	-9.72218
ฝรั่งเศส	-9.72235
ated	-9.72272
ชั้นนํา	-9.72321
▁อืม	-9.7238
awa	-9.72426
ยะ	-9.72433
เนีย	-9.7244
สกัด	-9.72444
ไบ	-9.72564
ast	-9.72593
ป้าย	-9.72597
ปู	-9.72677
เท่ากับ	-9.72714
ไ	-9.72729
จํานวนมาก	-9.72731
▁90%	-9.72733
ในประเทศไทย	-9.72758
ug	-9.72797
สารเคมี	-9.728
เสร็จ	-9.72925
220	-9.72992
ผลงาน	-9.73009
▁แบริ่ง	-9.73054
ที่สามารถ	-9.73064
▁เห็น	-9.73104
ud	-9.73153
▁คูณ	-9.73158
กําเนิด	-9.7323
▁บวก	-9.73271
▁ความสูง	-9.73344
▁You	-9.73353
ภูเขา	-9.73405
โฟ	-9.7347
ราก	-9.73473
ปลั๊ก	-9.73474
ดัง	-9.7351
แบบกําหนดเอง	-9.73642
จน	-9.7366
ประชาชน	-9.73668
EM	-9.73717
ร่วมกับ	-9.7372
light	-9.73738
หุ่นยนต์	-9.73928
ting	-9.73946
▁Ni	-9.73961
▁นักเรียน	-9.74015
มีด	-9.74074
ใส	-9.74126
นวัตกรรม	-9.74166
ห้องน้ํา	-9.74186
-11	-9.7424
เลื่อน	-9.74291
▁เดี๋ยว	-9.74297
ครึ่ง	-9.74309
▁ผลิต	-9.74349
TR	-9.74425
ave	-9.74457
top	-9.74461
ระยะเวลา	-9.74485
คลื่น	-9.74488
ฝา	-9.74502
วิศวกรรม	-9.74522
	-9.74532
แล	-9.7455
▁เฮ	-9.74555
เงินสด	-9.74652
▁ภรรยา	-9.7467
▁Mon	-9.74682
มัด	-9.74705
tion	-9.74727
red	-9.74761
เกิดขึ้น	-9.74788
▁RFID	-9.74818
▁ถัง	-9.74827
โครง	-9.74832
สแกน	-9.74835
ven	-9.74849
▁Inc	-9.74915
ยืด	-9.74925
เข็ม	-9.74927
หลักสูตร	-9.74983
304	-9.75012
ara	-9.75018
UR	-9.75064
เข้ม	-9.75208
ใบหน้า	-9.75235
การประชุม	-9.75351
ตรงนี้	-9.75356
การจัด	-9.75424
อีกครั้ง	-9.7544
มหาวิทยาลัย	-9.75443
▁ไอ	-9.75453
เทป	-9.75488
AB	-9.75535
▁En	-9.75553
ระหว่างประเทศ	-9.75556
sha	-9.75577
ช่วยให้	-9.7566
ไฟเบอร์กลาส	-9.75732
โปรด	-9.75772
รอก	-9.75899
▁(19	-9.75918
▁Series	-9.7596
CM	-9.76018
▁แกน	-9.7604
▁ฟุต	-9.76083
ปิ	-9.76188
เบา	-9.76207
แทรก	-9.76233
tu	-9.7625
ตามความต้องการ	-9.76252
▁Sha	-9.76256
MB	-9.76292
ตัวแทน	-9.76307
๋	-9.76329
▁Su	-9.76341
▁#1	-9.76397
ความสามารถในการ	-9.76419
ลิฟท์	-9.76423
อัจฉริยะ	-9.76423
ไวนิล	-9.76423
เย็ด	-9.76445
ส่วนลด	-9.76457
อาทิตย์	-9.76525
เฟอร์นิเจอร์	-9.76526
สนุก	-9.76545
vo	-9.76553
ผู้ใหญ่	-9.76557
โพลี	-9.76566
ื	-9.76569
จดทะเบียน	-9.76602
เป็นคน	-9.76608
▁ST	-9.76652
▁เสาอากาศ	-9.76662
ประกอบด้วย	-9.76682
ary	-9.76686
อย	-9.76709
แลนด์	-9.76713
สปริง	-9.76733
ดีที่สุด	-9.76737
เฮ	-9.76751
▁ดอก	-9.76754
ความยาว	-9.76762
ึ	-9.7677
กรอบ	-9.7683
วัตถุดิบ	-9.7683
ของบริษัท	-9.76937
ดีกว่า	-9.76938
เจอร์	-9.76961
โซ่	-9.7699
▁ล้านบาท	-9.77057
ture	-9.77071
เศรษฐกิจ	-9.77168
bl	-9.77174
เซน	-9.7723
จะได้รับ	-9.77252
แอล	-9.77333
ประจําปี	-9.7734
การซื้อขาย	-9.77366
ฉบับ	-9.77523
105	-9.77536
จอง	-9.7755
้ว	-9.77556
pr	-9.77614
▁Tag	-9.77638
▁แก	-9.77642
▁ขาว	-9.77659
ขุด	-9.77686
เราได้	-9.77688
za	-9.77713
สหรัฐ	-9.77731
FC	-9.77828
เปิดใช้งาน	-9.77838
▁หลักสูตร	-9.77933
ชัย	-9.7794
dia	-9.77946
ดาว	-9.78029
▁สแตนเลส	-9.78066
▁โครงสร้าง	-9.78119
ลงทุน	-9.7816
ความเป็น	-9.78173
▁Shi	-9.78199
ทั่ว	-9.78257
มหา	-9.783
ดึง	-9.78403
ก็ได้	-9.78427
▁ส่วนลด	-9.78505
ร่วมกัน	-9.78507
เป็นเวลา	-9.7851
▁สวน	-9.78532
สัตว์เลี้ยง	-9.78601
VI	-9.78641
2.5	-9.78659
▁08	-9.78662
สต์	-9.78674
เหรียญ	-9.78731
ซ้าย	-9.78749
ภูมิภาค	-9.78761
lan	-9.78906
bit	-9.78916
▁สายเคเบิล	-9.78968
▁อิน	-9.79022
▁คืออะไร	-9.79056
ทางเลือก	-9.79094
OT	-9.79148
ทุน	-9.79187
น้ําตาล	-9.79214
▁j	-9.79231
▁นาง	-9.79273
ท้องถิ่น	-9.79303
ยินดี	-9.79347
โรงพยาบาล	-9.79386
เอ็ม	-9.79427
▁สีขาว	-9.79436
IM	-9.79448
▁ดอลลาร์	-9.79475
แพ็ค	-9.79529
มีประสิทธิภาพ	-9.79545
Me	-9.79583
▁ข้าพระ	-9.79617
สํา	-9.79629
2017	-9.79651
โคมไฟ	-9.79665
จุ	-9.79669
over	-9.79687
▁Go	-9.79718
รูปภาพ	-9.79792
พ่น	-9.79797
by	-9.79838
2000	-9.79874
▁Ra	-9.79905
▁Poly	-9.79921
let	-9.80019
สเตอร์	-9.80113
คาสิโน	-9.80144
ano	-9.80181
▁Ta	-9.80192
โห	-9.80222
ny	-9.80237
▁เกี่ยวกับเรา	-9.8024
สตรี	-9.80281
เพดาน	-9.80301
ลืม	-9.8033
▁Bra	-9.80334
▁แขวง	-9.80344
กรรม	-9.80373
สมบูรณ์	-9.8041
นาม	-9.80436
▁Roll	-9.8054
ยืน	-9.8057
ที่มีประสิทธิภาพ	-9.80598
170	-9.8064
▁(7	-9.80725
▁50%	-9.80744
คริสตัล	-9.8075
คอร์	-9.80751
เพื่อให้	-9.80789
IF	-9.80835
ya	-9.80836
กรุง	-9.80842
ภาวะ	-9.80873
▁ข้อ	-9.8088
▁(15	-9.80922
–	-9.80932
เชื้อเพลิง	-9.80933
ปกป้อง	-9.80938
เมนู	-9.80953
ขั้นสูง	-9.81006
กล	-9.81034
ระยะ	-9.81038
▁1,000	-9.81042
ลาน	-9.81049
▁64	-9.81066
วิทยุ	-9.81074
ต่อวัน	-9.81092
▁you	-9.81123
ระบายความร้อน	-9.81138
▁Do	-9.81177
ลําโพง	-9.81228
▁แนะนํา	-9.81236
▁การใช้งาน	-9.8126
shi	-9.8136
บริ	-9.81417
TO	-9.81429
▁เครื่องทํา	-9.81431
-40	-9.81437
ยังคง	-9.81452
0%	-9.81553
▁70%	-9.81631
เอฟ	-9.81633
▁be	-9.81634
สึ	-9.81676
เจน	-9.81687
xxx	-9.81744
▁ตอบ	-9.81821
ลับ	-9.81843
kw	-9.81876
ning	-9.81893
เยอรมัน	-9.81901
▁Gu	-9.81917
ปรับปรุง	-9.8193
▁รายงาน	-9.8197
ผู้เล่น	-9.81973
สนามบิน	-9.81975
แปรง	-9.81997
แฟน	-9.82028
สนาม	-9.82032
▁ลอง	-9.8207
กระแส	-9.82103
ที่เหมาะสม	-9.82164
ห้า	-9.82219
เมล็ด	-9.82219
สูญญากาศ	-9.82363
DI	-9.82381
เครื่องดื่ม	-9.82393
จํากัด	-9.82436
วิว	-9.82436
ไข่	-9.82449
ส่วนผสม	-9.82467
เรน	-9.82477
1000	-9.82648
▁2558	-9.82675
▁ประกาศ	-9.82676
ทรี	-9.82677
▁เอาล่ะ	-9.82691
▁อีเมล์	-9.82702
พัดลม	-9.82718
ok	-9.8276
เปลือย	-9.82763
TV	-9.82822
ซุ	-9.82823
▁มก	-9.82837
▁2009	-9.82858
▁อิ	-9.82905
▁37	-9.82907
▁Report	-9.82911
HZ	-9.82917
▁Group	-9.82978
กําไร	-9.83022
▁แอ	-9.8306
▁New	-9.83074
wa	-9.83087
▁เสา	-9.83097
พระเจ้า	-9.83111
▁List	-9.83164
▁อิส	-9.83204
ปรับแต่ง	-9.8322
กรุงเทพ	-9.83263
Shandong	-9.8328
ไมโคร	-9.83285
ool	-9.83334
ung	-9.83336
ไกล	-9.83352
ผ้าฝ้าย	-9.83355
สมาคม	-9.83366
ฟาร์ม	-9.8338
▁วันนี้	-9.83413
ภาษี	-9.83424
▁Hi	-9.8344
uc	-9.83528
ence	-9.83533
กอง	-9.83573
ต้อนรับ	-9.83621
บราซิล	-9.83642
▁นอกจากนี้	-9.8365
รวบรวม	-9.83659
คัน	-9.83662
cc	-9.83668
เครื่องสําอาง	-9.83677
เขียว	-9.83727
▁คุณภาพสูง	-9.83821
DE	-9.83824
นคร	-9.8386
โจ	-9.83866
ink	-9.83897
▁บล็อก	-9.83916
fu	-9.83916
▁สวย	-9.83942
▁Hu	-9.8396
การป้องกัน	-9.83982
▁ร้านอาหาร	-9.83991
ทําลาย	-9.84017
ا	-9.84031
เบน	-9.84072
▁304	-9.84123
ป้องกันการ	-9.84134
ดอก	-9.84146
อัล	-9.8415
วัยรุ่น	-9.84167
▁Ti	-9.84182
▁Dis	-9.84194
ของเธอ	-9.84221
โป๊	-9.84318
box	-9.84338
▁06:	-9.84357
คงที่	-9.84387
hy	-9.84419
▁เท่ากับ	-9.84461
แน่นอน	-9.84468
▁Pi	-9.84485
กล่าวว่า	-9.84493
ค่าธรรมเนียม	-9.84569
▁Top	-9.84578
ฝาก	-9.84581
พยายาม	-9.84594
HE	-9.84615
▁ถุงมือ	-9.8474
ที่อยู่อาศัย	-9.84882
▁อ่าน	-9.84917
น้ําหนักเบา	-9.84918
กี้	-9.84924
ฝน	-9.84994
▁โรค	-9.84997
เครื่องพิมพ์	-9.85
ภูเก็ต	-9.85026
ประหยัด	-9.85038
เนี่ย	-9.85056
ห้าม	-9.85062
ราว	-9.85088
ความเสียหาย	-9.85112
▁Micro	-9.85127
▁เหมือน	-9.85161
gen	-9.8517
▁สีน้ําตาล	-9.85171
ทนต่อ	-9.85266
แดน	-9.85322
แนวนอน	-9.85375
โซน	-9.8541
2016	-9.85507
แปลก	-9.85521
ris	-9.85607
คอมเพรสเซอร์	-9.8561
คุณจะ	-9.85611
▁แหวน	-9.85675
▁Auto	-9.85697
กลายเป็น	-9.85775
เกลือ	-9.8579
ความเสี่ยง	-9.85834
▁(18	-9.85852
บี้	-9.85878
็น	-9.85938
101	-9.85969
ไฮ	-9.86028
เบล	-9.86059
หัวข้อ	-9.86091
ส่งเสริม	-9.86113
-01	-9.86139
lip	-9.86142
TP	-9.86172
ดัด	-9.86321
เผา	-9.86347
ยานยนต์	-9.86379
~	-9.86382
LO	-9.86406
▁เดือนที่ผ่านมา	-9.8647
▁Dr	-9.86528
ll	-9.86555
ัท	-9.86579
TI	-9.86612
▁IC	-9.86653
▁Star	-9.86711
แขวน	-9.86781
ยกเลิก	-9.86821
ที่นั่ง	-9.86825
แบริ่ง	-9.8684
หมึก	-9.86898
คลิก	-9.86901
▁Si	-9.86915
str	-9.86919
ose	-9.86973
ลาก	-9.8701
เชื้อ	-9.87039
ครบ	-9.8704
▁สวิตช์	-9.87062
ฝ	-9.87067
▁ตรวจสอบ	-9.87125
▁ลิขสิทธิ์	-9.8716
▁360	-9.87184
RT	-9.87206
-00	-9.87209
ฉุกเฉิน	-9.87251
การสื่อสาร	-9.87255
▁เป็นแบรนด์ของ	-9.87291
▁มหาวิทยาลัย	-9.87304
pro	-9.87317
▁ที่รัก	-9.87329
จันทร์	-9.87344
▁กรุงเทพ	-9.87364
▁Pri	-9.87375
ไม่เคย	-9.87376
▁เหล่า	-9.8738
ทนทาน	-9.87422
▁นวด	-9.87461
ช่วงเวลา	-9.87494
▁Ne	-9.87511
วางใจในการ	-9.87517
ไม้อัด	-9.87517
การปรับปรุง	-9.8758
มูลค่า	-9.87601
รีสอร์ท	-9.87605
บทความ	-9.87606
ความแม่นยํา	-9.87625
140	-9.87637
ฟังก์ชัน	-9.87665
▁กระทํา	-9.87677
ตลาดดิจิตอลโดย	-9.87696
PR	-9.87707
ริม	-9.87707
▁บัตร	-9.8774
กําเนิดไฟฟ้า	-9.87744
สับ	-9.8778
ane	-9.8785
บริการลูกค้ามา	-9.8786
ตรฐานระดับโลกจาก	-9.8786
▁หน้าจอ	-9.87879
ข้อกําหนด	-9.8788
ect	-9.87954
หู	-9.88019
หมายถึง	-9.8803
▁SD	-9.88037
โหมด	-9.88043
▁ในปี	-9.88076
▁Can	-9.88114
กางเกง	-9.88141
หนู	-9.88143
เสมอ	-9.8816
ดังนี้	-9.88219
นาง	-9.88226
ชัน	-9.88238
และความ	-9.88252
โว	-9.88268
สังเคราะห์	-9.88298
เลีย	-9.88301
▁คืน	-9.88303
ใบอนุญาต	-9.88321
▁(14	-9.88332
▁Custom	-9.8837
งั้น	-9.88438
ที่ได้รับ	-9.88441
แห่งชาติ	-9.88464
▁Mini	-9.88467
เราจะ	-9.88482
รู้ว่า	-9.88489
ิก	-9.88492
ดิบ	-9.88496
tt	-9.8851
แหล่ง	-9.88537
den	-9.88563
▁pro	-9.88611
▁เกาะ	-9.88662
1.5	-9.88675
นิ้ว	-9.88726
▁2.0	-9.88729
▁แค	-9.88773
สิ้นสุด	-9.88832
▁จอง	-9.88888
▁Multi	-9.88892
งค์	-9.889
อล	-9.88912
มินิ	-9.88967
▁Lu	-9.89005
รวดเร็ว	-9.89068
ช่วยเหลือ	-9.89081
▁เครื่องทดสอบ	-9.8919
14001,	-9.89328
▁รั้ว	-9.89328
▁โรงแรมใน	-9.89333
RC	-9.89363
▁3000	-9.89374
▁ID	-9.8939
ขึ้นรูป	-9.89408
เฉลี่ย	-9.89441
ld	-9.8946
ประเทศจีน	-9.89463
ถ่าย	-9.89476
hen	-9.89631
▁แค่	-9.89632
▁€	-9.8967
กองทุน	-9.8972
เชียงใหม่	-9.89758
▁คณะกรรมการ	-9.89774
280	-9.8978
แถว	-9.89793
ที่ถูก	-9.89815
fr	-9.89821
โดน	-9.8983
▁(16	-9.89933
▁Da	-9.89964
คีย์	-9.90015
สถาบัน	-9.90036
ร่อง	-9.90053
ยังไม่	-9.90082
▁ธนาคาร	-9.90115
ฮ่องกง	-9.90131
อร่อย	-9.90178
▁สิ่งที่	-9.90196
ภาษาไทย	-9.90201
เหมาะสําหรับ	-9.90215
ัว	-9.90232
ว่าง	-9.9026
ช่าง	-9.90277
ร้านอาหาร	-9.90285
▁Wholesaler	-9.90301
▁ออ	-9.90317
เป็นผู้	-9.90408
▁รายงานปัญหา	-9.90433
สุข	-9.90459
ก็คือ	-9.90462
ปีที่	-9.90493
ต่ํากว่า	-9.90508
izer	-9.90533
สน	-9.90547
▁Steel	-9.90559
ทิศทาง	-9.90568
ให้เช่า	-9.90606
คําที่เกี่ยวข้อง	-9.90612
อุณหภูมิสูง	-9.90613
▁Microsoft	-9.90675
▁พี่	-9.9068
ซอง	-9.90687
91%	-9.90691
▁ที่นั่ง	-9.90755
air	-9.90767
เปรียบเทียบ	-9.90784
ช่องทาง	-9.90784
▁การทดสอบ	-9.90831
▁แพคเกจ	-9.90836
BL	-9.90864
▁Cap	-9.90909
ผู้ป่วย	-9.90931
โค้ง	-9.9097
▁Ph	-9.90977
เรียบ	-9.90989
ต่อต้าน	-9.91007
บุรี	-9.91008
ฝึก	-9.91024
ไน	-9.91069
แจ	-9.91074
้ม	-9.91126
อันตราย	-9.91217
▁Key	-9.91228
▁เพื่อให้	-9.91233
▁คัดลอก	-9.91254
พวกเรา	-9.91317
ปก	-9.9135
ov	-9.91359
ยิ่ง	-9.91372
ไพ	-9.914
ระยะทาง	-9.91457
แข่ง	-9.91474
เก็ต	-9.91531
การส่ง	-9.91535
az	-9.91551
จา	-9.91584
ร้อง	-9.91602
ร่ม	-9.91611
ขนม	-9.91642
▁ใบ	-9.9172
▁กีฬา	-9.9172
ถัก	-9.91763
▁Free	-9.91777
qui	-9.91809
มอน	-9.91824
▁รับประกัน	-9.91826
ted	-9.91847
▁ปรับปรุง	-9.91852
การดําเนินงาน	-9.91859
des	-9.91868
คู	-9.91878
▁บรรดา	-9.91884
ten	-9.91905
ตลก	-9.92017
ene	-9.92019
ร้านค้า	-9.92025
เทรด	-9.92036
ภาพยนตร์	-9.92105
▁ตําแหน่ง	-9.92149
IR	-9.92177
▁Str	-9.92182
▁Ex	-9.92253
DR	-9.92295
▁โหมด	-9.92326
▁ยู	-9.92335
สําเร็จรูป	-9.92399
▁นาฬิกา	-9.92435
บางอย่าง	-9.92442
▁เนื้อ	-9.92459
PH	-9.92459
฿	-9.92502
▁ซอฟต์แวร์	-9.92546
SO	-9.92591
▁GS	-9.92602
▁ภูเก็ต	-9.9261
▁ชา	-9.92666
aw	-9.92701
กล้ามเนื้อ	-9.92709
ประสิทธิภาพสูง	-9.92724
-50	-9.92727
ปลูก	-9.92764
▁MT	-9.92795
★	-9.92803
-16	-9.9284
กฎ	-9.92848
▁ที่แล้ว	-9.92856
คิว	-9.92903
ดาวเทียม	-9.92921
หญ้า	-9.92943
▁Sta	-9.92951
ทีมงาน	-9.92981
▁-&	-9.92983
ทั้งสอง	-9.93001
EP	-9.93044
หลุม	-9.93088
▁Anti	-9.93177
ทําจาก	-9.93213
car	-9.93293
เที่ยวบิน	-9.93337
ยานพาหนะ	-9.93375
สามารถในการจัดหา	-9.93434
ชําระเงิน	-9.93452
ชุมชน	-9.93528
จะได้	-9.93543
เหมือนกัน	-9.93567
พันธมิตร	-9.93646
2-3	-9.93656
IG	-9.93665
low	-9.93709
เพลา	-9.9379
▁ความรัก	-9.93791
▁ถ	-9.93829
พิธี	-9.93893
โรง	-9.93909
▁การควบคุม	-9.93909
▁English	-9.9391
ส่วนบุคคล	-9.93962
นิว	-9.94001
ได้แล้ว	-9.94011
จิต	-9.94017
ด้วยตนเอง	-9.94038
วิตามิน	-9.94046
LS	-9.94051
เดีย	-9.94055
tube	-9.9413
IL	-9.94136
มั	-9.94175
กระตุ้น	-9.9419
ความสูง	-9.9421
ลี่	-9.94223
ฮอ	-9.94249
row	-9.94285
เผยแพร่	-9.94303
เชีย	-9.94341
▁Min	-9.94428
▁(13	-9.94473
▁Sea	-9.94482
พาเลท	-9.94496
AH	-9.9458
โพสต์	-9.94587
▁years	-9.94746
CI	-9.94746
สเปรย์	-9.94764
▁Game	-9.94786
the	-9.94842
ฉลาก	-9.94845
▁XXX	-9.94848
พันธุ์	-9.94872
ด้านหลัง	-9.94902
▁0.2	-9.94931
สหราชอาณาจักร	-9.94932
สล็อต	-9.95017
ซ่อม	-9.95076
}	-9.951
ยืดหยุ่น	-9.95102
นิค	-9.95126
เทียม	-9.95197
ผ่านทาง	-9.95215
ตะวันตก	-9.95217
▁กิโลเมตร	-9.95252
ไต้หวัน	-9.95272
▁ODM	-9.95303
หาก	-9.95307
แฟ้ม	-9.95324
ทดลอง	-9.95325
hot	-9.95325
▁สปา	-9.95331
โทรทัศน์	-9.95337
4.5	-9.95392
ดวง	-9.954
คํานวณ	-9.95483
▁Water	-9.95484
็	-9.95489
▁Die	-9.95496
rea	-9.95509
▁เหรียญ	-9.95518
▁MB	-9.95543
ฤดูร้อน	-9.9557
การประมวลผล	-9.95574
▁---	-9.95598
▁Center	-9.95614
กลัว	-9.95664
อุปกรณ์เสริม	-9.95698
▁Pe	-9.95722
ถาด	-9.95761
	-9.95776
แกะสลัก	-9.95778
atch	-9.95826
ike	-9.95832
999	-9.95834
▁EVA	-9.95857
▁แฟน	-9.95905
เลข	-9.95914
ทะ	-9.95923
ise	-9.95923
เปล่า	-9.95928
ฐ	-9.95968
▁Ka	-9.95969
เปลี่ยนแปลง	-9.96004
ray	-9.96023
▁Sl	-9.96037
เปิดตัว	-9.96077
ใช้บริการ	-9.96134
▁Road	-9.96198
▁ปาร์ตี้	-9.96337
▁อินเดีย	-9.96461
หาย	-9.96482
หาด	-9.96491
แรงดันไฟฟ้า	-9.96522
ละลาย	-9.96531
▁SMD	-9.96602
สําหรับเครื่อง	-9.96621
ual	-9.96644
tin	-9.96795
▁do	-9.96849
ใช่มั้ย	-9.96885
เล็บ	-9.96916
bb	-9.96946
180	-9.96987
รม	-9.97014
มูลนิธิ	-9.97024
ame	-9.97028
กําหนดเอง	-9.97054
โปรไฟล์	-9.97085
การรับประกัน	-9.97096
▁FDA	-9.97096
ทําความเย็น	-9.97127
เซนเซอร์	-9.97167
210	-9.97173
คําแนะนํา	-9.97266
▁ไอ้	-9.97289
nm	-9.97324
GO	-9.97365
ชัดเจน	-9.97404
ฟังก์ชั่น	-9.97443
▁ลูกสาว	-9.97448
การเล่น	-9.97453
พาณิชย์	-9.97464
แล็ปท็อป	-9.97537
▁0.3	-9.9754
uk	-9.97542
โก้	-9.97559
บอ	-9.97705
นาฬิกา	-9.97725
สมุนไพร	-9.97753
เชิงพาณิชย์	-9.97811
▁โดยมี	-9.97822
ได้ถึง	-9.97868
อู	-9.97883
▁07:	-9.97889
5429	-9.97929
6047	-9.97942
▁เอส	-9.97957
GP	-9.97962
▁→	-9.97989
▁แบบอักษร	-9.97999
ออสเตรเลีย	-9.98046
▁สไตล์	-9.98063
เพราะ	-9.98081
BC	-9.98092
ขี่	-9.98139
เกมส์	-9.98163
ม่า	-9.9818
เทศกาล	-9.98276
py	-9.98283
ตื่น	-9.98283
▁Powder	-9.9832
การวิเคราะห์	-9.98404
การบริการ	-9.98411
ิน	-9.98439
7.5	-9.98467
สาธารณะ	-9.98472
สากล	-9.98483
▁ถ้าคุณ	-9.98492
af	-9.98495
สมัคร	-9.98528
tan	-9.98548
▁NO	-9.98562
ช้า	-9.98573
▁ใบสมัคร	-9.9859
ต่อเดือน	-9.98594
เมีย	-9.98605
การให้บริการ	-9.98611
วิจัย	-9.98614
วันเสาร์	-9.98622
อาหารเช้า	-9.98637
สุทธิ	-9.98705
▁เสีย	-9.98755
ก่อตั้ง	-9.98806
▁ข่าวสาร	-9.98813
รับประกัน	-9.9882
ตุ	-9.98855
▁350	-9.9887
▁สายการผลิต	-9.98877
▁SP	-9.98881
บรรยากาศ	-9.98907
ซึม	-9.98915
tro	-9.9892
สะอาด	-9.98924
а	-9.98941
ani	-9.98963
แม่น้ํา	-9.99035
▁ไม่ต้อง	-9.99037
cfb	-9.99061
cu	-9.99121
ประวัติศาสตร์	-9.99127
โนะ	-9.99133
ดําเนิน	-9.99146
เครน	-9.99162
▁ประสิทธิภาพ	-9.99186
▁หมอ	-9.99211
ในรูปแบบ	-9.99227
▁รางวัล	-9.99227
หนี	-9.99249
ress	-9.99271
ลดลง	-9.99293
ต่อเนื่อง	-9.9932
ความสามารถ	-9.99324
ส้นผ่านศูนย์กลาง	-9.99357
▁รวมผลิตภัณฑ์	-9.99364
EE	-9.99411
▁Type	-9.99415
DO	-9.99426
▁ชาวเอเชีย	-9.99472
can	-9.9948
แท่ง	-9.99481
▁(0)	-9.99508
แมว	-9.99515
Mo	-9.99516
-18	-9.99523
แท็บเล็ต	-9.99532
โช	-9.99569
▁Red	-9.99589
ประหลาด	-9.9963
สูตร	-9.99639
สะสม	-9.9966
PI	-9.99687
ฉาก	-9.99718
▁แผน	-9.99723
ized	-9.99729
▁1500	-9.99732
ผู้ให้บริการ	-9.99786
▁Forex	-9.99815
▁สหรัฐอเมริกา	-9.99836
rt	-9.99841
ไมล์	-9.99898
ปลอม	-9.99912
ก่อตั้งขึ้น	-9.99914
ire	-9.9993
▁34	-9.9993
130	-9.99956
▁RF	-9.99962
HO	-9.99991
แผนก	-10.0005
ple	-10.0005
ติก	-10.001
ระยะไกล	-10.0012
▁https	-10.0014
ขับเคลื่อน	-10.0016
สปา	-10.0016
ล่าง	-10.0016
อายุการใช้งาน	-10.0027
ถัดไป	-10.0027
▁เสื้อผ้า	-10.0029
▁บันทึก	-10.0031
▁รถบรรทุก	-10.0032
ff	-10.0036
cent	-10.0038
ข้อเสนอ	-10.0039
▁พอ	-10.0043
5.00	-10.0046
rs	-10.005
▁PA	-10.0054
▁บี	-10.0062
แห	-10.0069
ขับรถ	-10.0078
▁Pin	-10.0079
เสียบ	-10.0085
พีซี	-10.0085
BO	-10.0087
▁≤	-10.0087
HD	-10.0089
▁คอนโด	-10.0092
▁Park	-10.0094
ลงทะเบียน	-10.0094
0.5	-10.0095
▁โต๊ะ	-10.0096
และบริการ	-10.0096
ื่อ	-10.0107
อย่างน้อย	-10.0108
หนุ่ม	-10.0113
ชั้นวาง	-10.0114
บําบัด	-10.0114
tri	-10.0114
ขั้ว	-10.0119
แสน	-10.0121
men	-10.0126
มี่	-10.0128
หมอน	-10.013
GE	-10.0131
โพ	-10.0134
ความจริง	-10.0138
Co	-10.0139
▁Cr	-10.0141
▁Per	-10.0141
▁Cat	-10.0141
ขยะ	-10.0141
▁System	-10.0145
ยูนิ	-10.0146
เปียก	-10.0146
ความละเอียด	-10.0147
หลวง	-10.0147
สต	-10.0147
ลอน	-10.0148
▁อุปกรณ์เสริม	-10.0149
ของเล่น	-10.015
แหละ	-10.015
▁ได้โปรด	-10.0152
▁เส้น	-10.0155
คู่มือ	-10.0157
นด์	-10.0158
▁EN	-10.0158
ตน	-10.0159
ML	-10.016
ขาด	-10.016
▁iOS	-10.0161
ความหนา	-10.0163
ign	-10.0164
▁API	-10.0171
ทําไม	-10.0172
แหวน	-10.0172
โซลูชั่น	-10.0172
รถบัส	-10.0176
▁นม	-10.0182
ney	-10.0182
▁ข้อเสนอ	-10.0183
ess	-10.0184
▁บรรจุ	-10.0185
OD	-10.0187
Name	-10.0188
ที่จอดรถ	-10.0188
ไฟเบอร์ออปติก	-10.0188
เหตุการณ์	-10.0192
▁ชายหาด	-10.0192
ลักษณะ	-10.0193
พัทยา	-10.0194
สระว่ายน้ํา	-10.0194
▁อาจ	-10.0195
คอล	-10.0195
▁ปุ่ม	-10.0197
แคนาดา	-10.02
ผลกระทบ	-10.0204
▁SMT	-10.0205
ลเลอร์	-10.0208
แน่น	-10.0209
สถาน	-10.021
▁แน่นอน	-10.021
▁with	-10.0212
เส้นด้าย	-10.0212
ยกเว้น	-10.0222
▁อังกฤษ	-10.0223
ดังกล่าว	-10.0227
▁ดาว	-10.0228
FR	-10.0231
▁กษัตริย์	-10.0231
▁ทีม	-10.0235
สะพาน	-10.0237
oy	-10.0248
กอล์ฟ	-10.0248
แข็งแรง	-10.0251
▁โม	-10.0264
▁Cor	-10.0264
ในตัว	-10.0268
บลูทู	-10.0272
การสนับสนุน	-10.0273
cam	-10.0275
▁คําแนะนํา	-10.0281
▁Ningxia	-10.0281
▁ส่วนประกอบ	-10.0282
ําหน่ายและโรงงาน	-10.0283
มิน	-10.0287
ื้อ	-10.0292
▁ความต้านทาน	-10.0292
ที่ยอดเยี่ยม	-10.0294
▁โบนัส	-10.0295
▁ซีรี่ส์	-10.0296
108	-10.0298
▁sp	-10.0299
TER	-10.0301
int	-10.0313
ตอบสนอง	-10.0314
pt	-10.0318
คนที่	-10.0318
▁หนังสือ	-10.0321
▁And	-10.0324
ear	-10.0329
นโยบาย	-10.0331
▁ผมบลอนด์	-10.0332
อย่างต่อเนื่อง	-10.0337
จําลอง	-10.0342
ฝาครอบ	-10.0345
สยาม	-10.0353
เส้นใย	-10.0353
FT	-10.036
โซฟา	-10.0367
▁สูตร	-10.0368
▁80%	-10.0369
vid	-10.037
คลาสสิก	-10.0372
สวิตช์	-10.0372
เครื่องตัด	-10.0372
การกัดกร่อน	-10.0374
▁Sun	-10.0376
aka	-10.0382
ที่ดิน	-10.0385
RM	-10.0386
บวก	-10.0397
▁ประวัติ	-10.0398
ซ้ํา	-10.0402
tur	-10.0414
บัตรเครดิต	-10.0415
จากสถานี	-10.0419
▁Pack	-10.042
SU	-10.0422
สรุป	-10.0425
▁ผู้ผลิตและผู้จ	-10.0427
ทาวเวอร์	-10.0435
Shop	-10.0435
rin	-10.0438
คี	-10.0438
▁สาธารณะ	-10.0438
[	-10.0441
▁แอน	-10.0443
ical	-10.0449
▁ชื่อผลิตภัณฑ์	-10.0452
▁40%	-10.0453
รายได้	-10.0455
กระบอก	-10.0456
ตูด	-10.0465
สีน้ําเงิน	-10.047
เตือน	-10.0472
เรียกว่า	-10.0473
▁สีแดง	-10.0474
หลอดไฟ	-10.0478
RS	-10.0479
▁รู	-10.0481
▁Web	-10.0482
	-10.0485
ถั่ว	-10.0489
กล่าว	-10.0497
FL	-10.0499
board	-10.0499
310	-10.0502
ผู้เชี่ยวชาญ	-10.0502
5.5	-10.0503
ANG	-10.0503
ซ่า	-10.0509
เพิ่ง	-10.0514
ทองคํา	-10.0515
ถาม	-10.0518
เกษตร	-10.0521
ด้วยกัน	-10.0523
เหลือง	-10.0531
เปลือก	-10.0532
▁Bu	-10.0536
190	-10.0538
▁ตั้ง	-10.054
ภาษาญี่ปุ่น	-10.054
เงา	-10.0541
เทอร์	-10.0543
ib	-10.0544
ปั่น	-10.0546
▁info	-10.055
ซื้อขาย	-10.0551
อัลตราโซนิก	-10.0552
▁160	-10.0552
กรุงเทพฯ	-10.0556
ประเทศญี่ปุ่น	-10.056
▁บา	-10.0568
สกปรก	-10.0568
แคปซูล	-10.0571
ord	-10.0572
“	-10.0573
▁Ja	-10.0575
▁1200	-10.0575
ep	-10.0581
▁Inter	-10.0582
Porn	-10.0583
▁เจาะ	-10.0583
การก่อสร้าง	-10.0587
▁PS	-10.059
เช้า	-10.0591
ความแม่นยําสูง	-10.0594
ตัวทําละลาย	-10.0599
โทษ	-10.0599
ค่าบริการ	-10.06
การสั่งซื้อ	-10.0605
เกือบ	-10.0613
เหตุผล	-10.062
การกระทํา	-10.0626
▁con	-10.0631
เตียรอยด์	-10.0634
นี้มี	-10.0635
เอช	-10.0636
▁Smart	-10.0636
▁(17	-10.0637
▁LC	-10.0638
เครื่องบิน	-10.0642
▁เม็ด	-10.0644
แท็ก	-10.0646
▁from	-10.0648
▁‘	-10.0649
ขึ้นมา	-10.0654
แฟลช	-10.0658
-100	-10.0664
▁ติดตาม	-10.0668
หน	-10.0669
ร้า	-10.0671
ก้า	-10.0671
▁และอื่น	-10.0673
The	-10.0673
ร้อย	-10.0678
เย็บ	-10.0679
พุ	-10.0679
ส่วนประกอบ	-10.0682
เหล็กกล้าไร้สนิม	-10.0684
สูบ	-10.0685
▁(25	-10.0689
ถูกต้อง	-10.069
▁«	-10.0692
ละเอียด	-10.0693
ular	-10.0696
▁ขา	-10.0696
	-10.0702
กิจการ	-10.0704
▁Pump	-10.0704
ปุ	-10.0711
-60	-10.0715
ฝัง	-10.0719
▁ทัวร์	-10.0722
ans	-10.0724
คุณภาพดี	-10.0732
ผู้โดยสาร	-10.0743
▁Jo	-10.0743
▁อินเดียน	-10.0745
OK	-10.0749
การแพทย์	-10.0751
NC	-10.0752
ไลน์	-10.0753
▁จับ	-10.0755
เวียดนาม	-10.0757
▁ฟัง	-10.0765
พยาบาล	-10.0768
2,000	-10.0768
ของท่าน	-10.0768
ซอ	-10.077
ออกกําลังกาย	-10.0771
ผู้บริหาร	-10.0773
▁Double	-10.0777
2018	-10.0778
eck	-10.0784
$1	-10.0785
3%	-10.0788
316	-10.0788
NI	-10.0789
ทุกๆ	-10.0789
▁เครื่องบรรจุ	-10.0791
pin	-10.0792
ทารก	-10.0795
▁Ga	-10.0797
▁125	-10.0799
เข็มขัด	-10.0799
▁3.0	-10.08
พาย	-10.0801
เวที	-10.0804
▁ปัจจุบัน	-10.0804
iv	-10.0811
▁ราคาถูก	-10.0813
ห้องปฏิบัติการ	-10.0813
arm	-10.0818
จัดงาน	-10.0819
gsm	-10.082
▁ฮา	-10.0822
▁2563	-10.0824
ปรับได้	-10.0825
ไซต์	-10.0827
▁ตลาด	-10.0827
เพียงแค่	-10.0833
วันเกิด	-10.0837
▁ใกล้	-10.0837
เต้น	-10.0838
ไนล่อน	-10.0838
▁รุนแรง	-10.0843
▁Card	-10.0843
ความคิด	-10.0845
tech	-10.0847
ปฏิบัติ	-10.085
,000,000	-10.085
▁เซ	-10.0853
-19	-10.0853
ตั้งค่า	-10.0853
mail	-10.0854
คลิกที่	-10.0859
ปล่อย	-10.0859
▁2008	-10.0863
ert	-10.0864
81%	-10.0864
name	-10.0868
กําแพง	-10.0871
mar	-10.0873
การดูแล	-10.0878
▁จัด	-10.088
und	-10.0881
อัปเดต	-10.0882
lor	-10.0882
การตัด	-10.0885
ฏ	-10.0886
mic	-10.0887
อัลบั้ม	-10.0888
▁(3)	-10.0888
of	-10.0892
แบบฟอร์ม	-10.0894
▁Up	-10.0897
ไต	-10.0898
คุก	-10.0899
▁Char	-10.0901
▁Wire	-10.0903
▁One	-10.0904
▁JR	-10.0909
▁Hand	-10.091
แคลเซียม	-10.0914
เข้าสู่	-10.0917
หมู	-10.0918
km	-10.0918
▁นั่ง	-10.092
วีซ่า	-10.0921
จ้าง	-10.0923
106	-10.0924
cha	-10.0926
330	-10.0927
▁—	-10.0929
่ํา	-10.0935
สแควร์	-10.0937
ตรวจจับ	-10.094
ev	-10.0941
ห่อ	-10.0948
HP	-10.0949
las	-10.0951
การวัด	-10.0956
แอป	-10.0959
ความจุ	-10.0959
ลุ	-10.0964
ปิดผนึก	-10.0967
อบแห้ง	-10.0967
▁ผลผลิต	-10.0972
ซิล	-10.0972
โบราณ	-10.0976
▁3.5	-10.0976
▁เท่านั้น	-10.0979
กซ์	-10.0979
▁Port	-10.0986
▁1.2	-10.0988
ได้ดี	-10.0992
ita	-10.0993
▁Comp	-10.0997
▁PLC	-10.0997
มุ	-10.1
og	-10.1008
เบียร์	-10.101
ชั่ว	-10.1012
▁บิต	-10.1013
แต่งตัว	-10.1017
ef	-10.1018
▁ดร	-10.1021
ข้อต่อ	-10.1021
ตะกร้า	-10.1025
ร้อยละ	-10.1026
ตั้งครรภ์	-10.1028
ric	-10.103
ภูมิ	-10.1031
ชั่วโมง	-10.1035
ปากกา	-10.1038
เกาหลี	-10.1042
จะทํา	-10.1043
▁1/2	-10.1043
▁My	-10.1046
ลามิเนต	-10.1047
▁เก้าอี้	-10.1052
ที่ไหน	-10.1056
ไม่รู้	-10.1056
ล้าน	-10.1057
▁City	-10.1061
สํารวจ	-10.1062
2.1	-10.1071
ชายหาด	-10.1072
▁Fin	-10.1075
เซ็กส์	-10.1078
โคร	-10.1082
ยาย	-10.1082
บนเว็บไซต์	-10.1083
mil	-10.1085
▁EUR	-10.1086
มาถึง	-10.1087
▁พวกเรา	-10.1089
ik	-10.109
▁240	-10.1094
mal	-10.1095
วอล	-10.1096
คนอื่น	-10.1097
ถอน	-10.11
▁ซอย	-10.11
จิน	-10.1101
ข้าวโพด	-10.1102
แอน	-10.1103
▁พิกเซล	-10.1103
OM	-10.1108
สภาพแวดล้อม	-10.111
ome	-10.1112
ont	-10.1114
ไฟถนน	-10.1117
กระบอกสูบ	-10.1122
rom	-10.1124
5.0	-10.1125
เวล	-10.1132
own	-10.1133
val	-10.1133
LI	-10.1137
▁แหล่ง	-10.1138
สตูดิโอ	-10.1142
HC	-10.1143
หนึ่งใน	-10.1145
ley	-10.1145
▁ข้อความ	-10.1146
▁xHamster	-10.1148
ize	-10.1152
▁ทารก	-10.1154
๊อ	-10.1155
jo	-10.1155
สเปน	-10.1158
คําถาม	-10.1159
หายใจ	-10.1159
ประวัติ	-10.1162
▁อัล	-10.1162
ใบรับรอง	-10.1163
▁กรุงเทพมหานคร	-10.1163
ล้ํา	-10.1173
ประดิษฐ์	-10.1177
▁TUV	-10.118
สัญลักษณ์	-10.1181
▁316	-10.1182
ฝัน	-10.1183
Pro	-10.1184
ฟิตเนส	-10.1186
ยุค	-10.1189
UL	-10.1202
▁หากคุณ	-10.1205
320	-10.1206
ใ	-10.1207
▁ทีวี	-10.1208
มาแล้ว	-10.1211
ama	-10.1212
ไนลอน	-10.1216
เวน	-10.1216
▁ประสบการณ์	-10.1219
▁การจัดการ	-10.1224
▁Art	-10.1225
▁จากนั้น	-10.1225
เซ็นทรัล	-10.1232
▁Valve	-10.1235
▁คลิป	-10.1238
อย่างนั้น	-10.1241
อารมณ์	-10.1242
ตั้งอยู่ใน	-10.1243
ฟี	-10.1244
ปรา	-10.1245
▁World	-10.1254
บุตร	-10.1256
มอ	-10.1259
ย่าน	-10.1263
■	-10.1263
ขดลวด	-10.1263
พิจารณา	-10.1267
ทรัพยากร	-10.1268
ct	-10.1272
▁เครื่องเจาะ	-10.1277
ในเมือง	-10.1277
ความช่วยเหลือ	-10.1279
use	-10.128
MHz	-10.128
สงคราม	-10.1281
▁DIN	-10.1285
▁ผู้พัฒนา	-10.1286
▁ฝ่าย	-10.1287
นี้เป็น	-10.1288
เยี่ยม	-10.1289
▁TV	-10.1289
ก่อนหน้า	-10.129
▁1.0	-10.1291
ach	-10.13
อาบน้ํา	-10.1305
FS	-10.1307
▁สระว่ายน้ํา	-10.1308
▁TP	-10.1311
4000	-10.1316
▁Blue	-10.132
HOTEL	-10.1321
แกะ	-10.1322
▁Bitcoin	-10.1323
เป็นมิตรกับ	-10.1326
▁มุม	-10.1327
ทิศ	-10.1328
▁Office	-10.1328
▁ยี่ห้อ	-10.1329
▁Media	-10.1329
rit	-10.133
▁08:	-10.1331
▁เครื่องเชื่อม	-10.1332
เสาอากาศ	-10.1333
วาย	-10.1336
เล่นเกม	-10.1338
ศาล	-10.1338
▁พา	-10.1339
▁กันน้ํา	-10.1339
uff	-10.134
แพคเกจ	-10.134
▁ฟังนะ	-10.134
IE	-10.135
▁39	-10.1351
น้ําผลไม้	-10.1351
▁แผ่นดิน	-10.1351
เฟอร์	-10.1352
▁กลับ	-10.1353
102	-10.1354
อินพุต	-10.1356
โปร่งใส	-10.1357
▁ภาพถ่าย	-10.1359
ในกรณี	-10.1366
ข้อมูลส่วนบุคคล	-10.1368
ดารา	-10.1369
▁Ste	-10.1372
แย่	-10.1373
▁อ่านเพิ่มเติม	-10.1375
ยาวนาน	-10.1383
หอม	-10.1384
nic	-10.1391
kin	-10.1394
ซั	-10.1396
กําลังการผลิต	-10.1397
เข้าพัก	-10.1399
о	-10.1399
หน่วยความจํา	-10.1405
กระดูก	-10.1405
ata	-10.1406
น้อง	-10.1407
วันอาทิตย์	-10.1412
สายรัด	-10.1414
▁Related	-10.1415
การไหล	-10.1417
▁Yu	-10.1419
▁Fu	-10.1421
คาร์	-10.1423
ทําความร้อน	-10.1424
cho	-10.1427
เรียง	-10.1434
▁แถบ	-10.1434
▁เพลง	-10.1441
ชรา	-10.1444
▁หมายเหตุ	-10.1448
หน้าจอสัมผัส	-10.1451
▁450	-10.1452
ัช	-10.1453
▁Wolfberry	-10.1456
แม่นยํา	-10.1457
▁Cable	-10.1462
и	-10.1462
ใบมีด	-10.1463
แม้	-10.1465
ดีมาก	-10.1466
ring	-10.1473
นิกเกิล	-10.1478
หน้าที่	-10.1478
แลก	-10.1482
ฮ	-10.1492
ภาชนะ	-10.1496
แจ็ค	-10.1508
หุ้ม	-10.1509
คูปอง	-10.1513
▁OS	-10.1519
การ์	-10.1521
▁380	-10.1523
เร่ง	-10.1525
ออฟ	-10.1527
ตัวอักษร	-10.1528
ค้า	-10.1531
▁ยาก	-10.1535
เลสเบี้ยน	-10.1536
ับ	-10.1537
ost	-10.1537
นิ่ง	-10.1537
เติบโต	-10.1539
fo	-10.1539
หน้ากาก	-10.1539
ข่าวสาร	-10.1543
▁รวมทั้ง	-10.1543
app	-10.1545
สวรรค์	-10.1553
▁ฝรั่งเศส	-10.156
ขั้น	-10.1561
รร	-10.1563
ชั่วคราว	-10.1565
▁ครั้งที่	-10.1568
ซัน	-10.1581
▁ฉันไม่	-10.1582
350	-10.1582
หก	-10.1585
เหมาะสม	-10.1586
▁Samsung	-10.1587
▁พื้นผิว	-10.1589
▁›	-10.1591
ถาวร	-10.1593
6000	-10.1597
รอด	-10.1597
เช็ค	-10.1598
ด้า	-10.1602
▁Plus	-10.1607
▁Organic	-10.1609
เคลื่อนที่	-10.1612
การปรับ	-10.1613
▁เครื่องยนต์	-10.1613
▁เฟอร์นิเจอร์	-10.1614
▁กระเบื้อง	-10.1617
▁MP	-10.1621
เงื่อนไข	-10.1625
lon	-10.1629
งา	-10.1635
ปูพื้น	-10.1636
ท้าย	-10.1636
ประชาสัมพันธ์	-10.1641
ตู้เย็น	-10.1643
ข้อผิดพลาด	-10.1644
ild	-10.1648
บะ	-10.165
เสร็จสิ้น	-10.166
▁(24	-10.1661
คลับ	-10.1662
วันศุกร์	-10.1663
เยน	-10.1666
ควย	-10.1668
ทู	-10.1672
ella	-10.1683
▁สารสกัดจาก	-10.1683
vent	-10.1685
นักศึกษา	-10.1685
ยุ	-10.1687
work	-10.1694
cor	-10.1695
ประหยัดพลังงาน	-10.1696
อีกมากมาย	-10.1697
งานแต่งงาน	-10.1697
avi	-10.17
par	-10.1701
▁PTFE	-10.1701
ก้าน	-10.1703
▁2557	-10.1704
ครีม	-10.1708
อาย	-10.1708
อเมริกา	-10.1712
6.5	-10.1717
โดยอัตโนมัติ	-10.1717
ซัก	-10.1719
▁ไม่เป็นไร	-10.172
ฆ่าเชื้อ	-10.1721
▁พารามิเตอร์	-10.1721
ความรู้สึก	-10.1727
รบ	-10.1728
▁Or	-10.1728
ู่	-10.1731
-17	-10.1732
▁Bag	-10.1733
▁Mat	-10.1735
thai	-10.1738
ฟอก	-10.1741
ฟอสเฟต	-10.1742
แกรนด์	-10.1742
▁ร่วม	-10.1751
้ด	-10.1754
cal	-10.1758
ก้าว	-10.1759
star	-10.176
ฟู	-10.1765
กลยุทธ์	-10.1768
ura	-10.1772
ห่วง	-10.1776
▁Metal	-10.1778
LP	-10.1779
่ว	-10.1779
เสื่อ	-10.178
ถอด	-10.1781
▁ที่นี่	-10.1785
หาร	-10.1787
วาน	-10.1787
บาน	-10.1794
ที่น่าสนใจ	-10.1796
▁99	-10.1796
คดี	-10.1798
แฟ	-10.1799
เครื่องจักรกล	-10.18
ติน	-10.1801
บันได	-10.1802
ในวันที่	-10.1803
nc	-10.1805
ไดร์เวอร์	-10.1807
ไวรัส	-10.181
คลินิก	-10.1813
104	-10.1816
โกะ	-10.1822
▁นั่นคือ	-10.1824
วัว	-10.1827
สําหรับผู้	-10.1828
ปั้น	-10.1829
▁อะแดปเตอร์	-10.1835
▁War	-10.1839
ความแข็ง	-10.1848
ek	-10.185
-24	-10.1854
ที่น่า	-10.1865
พิษ	-10.1866
orn	-10.1866
▁โรง	-10.1867
ซิตี้	-10.1869
her	-10.1871
view	-10.1875
▁FA	-10.1884
▁คัน	-10.1888
att	-10.1895
เซล	-10.1895
ครั้งที่	-10.1898
มัส	-10.1902
สลับ	-10.1907
คลังสินค้า	-10.1912
107	-10.1912
125	-10.1913
lect	-10.1914
น้ําแข็ง	-10.1915
▁สถาน	-10.1917
-13	-10.1918
▁สุขุมวิท	-10.1919
ที่สอง	-10.1919
é	-10.192
▁ป้าย	-10.1922
ตํารวจ	-10.1923
เรื่องราว	-10.1925
▁ประหยัด	-10.1925
สติ	-10.1928
อัตราแลกเปลี่ยน	-10.1928
	-10.193
เอ็กซ์	-10.1931
ัญ	-10.1931
▁เทศกาล	-10.1933
การฝึกอบรม	-10.1934
โดยไม่ต้อง	-10.1936
ฟอร์ม	-10.1941
ได้รับรางวัล	-10.1946
คาร์ไบด์	-10.1946
.99	-10.1947
▁แม็กซ์	-10.1949
คลัง	-10.1949
ที่บ้าน	-10.1951
yn	-10.1952
109	-10.1954
ต่อไปนี้	-10.1954
ออกซิเจน	-10.1957
▁การตรวจสอบ	-10.1957
ทักษะ	-10.1963
ari	-10.1967
วู	-10.1968
UT	-10.1976
ศีรษะ	-10.1977
พบกับ	-10.1985
ore	-10.1989
▁(18+)	-10.199
ผ่าตัด	-10.199
แว	-10.1992
เครื่องหมาย	-10.1992
ความแข็งแรง	-10.1994
▁สนามบิน	-10.1996
-03	-10.1996
▁กด	-10.1999
▁09	-10.1999
▁หอ	-10.2
คริสต์มาส	-10.2
▁ยินดีต้อนรับ	-10.2002
กลั่น	-10.2009
iz	-10.2011
ช้อปปิ้ง	-10.2013
IO	-10.2015
กลึง	-10.2015
สําเร็จ	-10.2015
รัด	-10.2019
ดุ	-10.2019
BI	-10.202
pc	-10.202
สัมภาษณ์	-10.2021
▁โทรสาร	-10.2021
อํานาจ	-10.2022
การทํางานของ	-10.2023
ของผม	-10.2023
ao	-10.2026
ze	-10.2028
ลลี่	-10.2032
235	-10.2036
อ้วน	-10.2038
เกียรติ	-10.2038
ลล์	-10.2038
ซัพพลายเออร์	-10.204
สิ้น	-10.2044
สัมมนา	-10.2044
เทล	-10.2045
▁Digital	-10.2048
▁Machinery	-10.205
จูบ	-10.2057
ตอบ	-10.2061
back	-10.2062
เวอร์ชัน	-10.2062
VPN	-10.2063
ผลลัพธ์	-10.2063
▁Limited	-10.2065
ทรา	-10.2067
▁ปุ๋ย	-10.2069
เซี่ยงไฮ้	-10.2069
▁แล้วก็	-10.2071
พอง	-10.2073
ค้น	-10.2075
▁ภายใต้	-10.2079
inter	-10.2081
เจ้าหน้าที่	-10.2082
▁เคล็ดลับ	-10.2083
▁Box	-10.2086
กัด	-10.2086
▁ฟังก์ชั่น	-10.2087
▁แฮ	-10.2093
bon	-10.2093
ได้อย่างไร	-10.2093
oh	-10.2096
โฮม	-10.2096
ทําได้	-10.2115
ที่มีอยู่	-10.2115
เชี่ยวชาญ	-10.2116
ระดับโลก	-10.2118
▁04:	-10.2123
ในการผลิต	-10.2127
ไค	-10.213
its	-10.2136
bag	-10.2139
การเลือก	-10.214
เลน	-10.2141
น่าจะ	-10.2141
aker	-10.2142
ที่กําหนด	-10.2144
▁85	-10.2147
▁สัญญาณ	-10.2149
▁El	-10.2149
ใช้ได้	-10.2149
เรามี	-10.2155
▁Trans	-10.2155
▁เพราะว่า	-10.2155
-14	-10.2156
▁ครีม	-10.2157
เรือน	-10.216
ปะ	-10.2162
ยอดเยี่ยม	-10.2163
hat	-10.2163
part	-10.2165
mas	-10.2173
king	-10.2174
หมอ	-10.2175
▁Nor	-10.2179
ทัน	-10.2181
111	-10.2183
อาชีพ	-10.2185
็ด	-10.2186
ใช้งานง่าย	-10.2192
เล่า	-10.2193
lar	-10.2195
270	-10.2205
▁แฟชั่น	-10.2205
for	-10.2209
โดเมน	-10.2211
▁ดัชนี	-10.2216
led	-10.2219
▁มันมี	-10.222
ลําดับ	-10.2225
hr	-10.2226
ชะ	-10.2229
สีน้ําตาล	-10.2229
▁เป็	-10.223
sol	-10.2236
▁di	-10.2239
▁ล็อค	-10.224
เรื่องนี้	-10.2244
▁กระจก	-10.2244
TF	-10.2246
การตรวจ	-10.2247
ทอด	-10.225
หรูหรา	-10.2253
▁Mod	-10.2255
▁จําหน่าย	-10.2257
บาย	-10.2259
โชคดี	-10.2262
2.00	-10.2265
แอพ	-10.2268
▁anal	-10.2268
วัตถุ	-10.2269
▁วันทําการ	-10.227
ตะแกรง	-10.2272
รายละเอียดสินค้า	-10.2272
ในงาน	-10.2274
▁ขอโทษ	-10.2275
ตนเอง	-10.2279
ial	-10.2281
หมา	-10.2284
ค้นพบ	-10.2284
เจ้าของ	-10.2284
▁ตุ๊กตา	-10.2284
หิมะ	-10.2287
คาด	-10.2289
UK	-10.2291
▁ดอกกุหลาบ	-10.2297
แก้	-10.2298
har	-10.23
ble	-10.2304
lot	-10.2308
กันอย่างแพร่หลาย	-10.2308
ศรี	-10.2315
บุหรี่	-10.2317
bur	-10.2319
BT	-10.232
ไลท์	-10.2327
vis	-10.233
แสดงผล	-10.233
ition	-10.2337
คร	-10.2342
หมายความว่า	-10.2345
▁อเมริกัน	-10.2348
NE	-10.2348
ซุปเปอร์	-10.235
แก้ปัญหา	-10.2353
รึ	-10.2353
หน่วยงาน	-10.2356
ที่ฉัน	-10.2359
บูชา	-10.2361
ดีเซล	-10.2362
ได้ง่าย	-10.2363
-04	-10.2365
COM	-10.2371
Comment	-10.2372
▁ฮ	-10.2375
▁CR	-10.2377
แผล	-10.238
ฮี	-10.2381
ONG	-10.2383
▁เซินเจิ้น	-10.2384
เป็นไปได้	-10.2389
ทางทะเล	-10.2393
เกย์	-10.2395
ต้องใช้	-10.2397
ประธาน	-10.2399
คอย	-10.2399
อ่าง	-10.2406
▁เกาหลี	-10.2407
▁Mill	-10.2408
เซนต์	-10.2409
ลีน	-10.241
ush	-10.2411
fer	-10.2414
fil	-10.2417
ฤดูใบไม้ผลิ	-10.2421
▁0.6	-10.2427
รัง	-10.243
▁สกรู	-10.2432
สติกเกอร์	-10.2436
3000	-10.2436
ฮอร์โมน	-10.2438
ami	-10.2439
▁โวลต์	-10.2442
อบรม	-10.2447
การเข้าถึง	-10.2449
ระบบปฏิบัติการ	-10.245
▁ครู	-10.2452
▁เมนู	-10.2452
รูม	-10.2461
ette	-10.2461
DP	-10.2463
ผิวดํา	-10.2465
▁โย	-10.2466
ก็จะ	-10.2466
▁Rhinestone	-10.2466
▁เซ็นเซอร์	-10.2467
bra	-10.2467
▁House	-10.2469
ช์	-10.247
โปรตีน	-10.247
ลัง	-10.2473
ความต้านทาน	-10.2475
สิ่งทอ	-10.2478
▁ปรับ	-10.2483
สงสัย	-10.2486
▁ราคาต่อหน่วย	-10.249
aki	-10.2494
สระ	-10.2497
เทร	-10.2501
ตัวเลข	-10.2503
▁ตําบล	-10.2503
▁ดูดควย	-10.2503
การดําเนินการ	-10.2504
รีวิว	-10.2504
หมู่บ้าน	-10.2509
ด้านนอก	-10.251
สามารถใช้ได้	-10.251
ที่สวยงาม	-10.251
ลวดตาข่าย	-10.2512
▁พิ	-10.2513
พวกมัน	-10.2513
รับส่ง	-10.2517
nu	-10.2521
yu	-10.2526
แรงดึง	-10.2527
zo	-10.253
กลับไป	-10.2533
ในอุตสาหกรรม	-10.2534
▁Online	-10.2535
MT	-10.254
▁กระบวนการ	-10.254
▁Wall	-10.2542
ระวัง	-10.2543
▁Che	-10.2544
▁Cas	-10.2547
ต่ําสุด	-10.2549
พรีเมี่ยม	-10.2549
อินเตอร์	-10.255
การกู้คืน	-10.2552
เฮ้าส์	-10.2554
ware	-10.2554
▁หลอดไฟ	-10.2554
ต้นไม้	-10.2556
▁ตาข่าย	-10.2557
เยอรมนี	-10.256
▁ประกอบด้วย	-10.2564
ว่าจะ	-10.2566
ดําน้ํา	-10.2571
itch	-10.2572
▁Distributor	-10.2578
▁เมา	-10.2578
สายพาน	-10.258
ค้าง	-10.2581
▁ลงทะเบียน	-10.2582
กรอก	-10.2582
▁อํานาจ	-10.2583
จนถึง	-10.2583
จ์	-10.2586
▁Bay	-10.2587
▁code	-10.2591
เซ็นเซอร์	-10.2594
set	-10.2604
▁140	-10.2605
HR	-10.2606
นู	-10.2614
▁ถาม	-10.2614
สัมภาระ	-10.2615
ผูก	-10.2618
ใดๆ	-10.262
▁HP	-10.2621
▁Ver	-10.2625
2:00	-10.2626
หัก	-10.2628
ฟอง	-10.2632
ประมวลผล	-10.2634
▁เอล	-10.2634
▁Dongguan	-10.2635
ฉนวนกันความร้อน	-10.2635
ซีรีส์	-10.2637
มิตร	-10.2638
อนุมัติ	-10.2642
ลูกฟูก	-10.2644
▁สมาชิก	-10.2646
โดยเฉพาะ	-10.2647
▁ยินดีต้อนรับสู่	-10.265
shop	-10.2654
สถิติ	-10.2654
กรง	-10.2654
time	-10.2655
▁Pl	-10.2656
ros	-10.2657
ย่าง	-10.266
รถจักรยานยนต์	-10.2663
▁ผู้หญิงสวย	-10.2663
ull	-10.2663
เลอร์	-10.2666
เพาะ	-10.2666
เรียนรู้	-10.2674
ให้ฉัน	-10.2675
สวิทช์	-10.2677
ฮาร์ดแวร์	-10.268
▁Part	-10.2681
ชุบสังกะสี	-10.2683
zz	-10.2686
แพ็คเกจ	-10.2691
ี่	-10.2693
วัตถุประสงค์	-10.2693
▁Design	-10.2696
บ่อ	-10.2697
ครู	-10.2697
▁คําถาม	-10.27
แร่	-10.2701
มีปัญหา	-10.2701
▁ผมจะ	-10.2707
ตั	-10.271
ren	-10.2713
กลอง	-10.2713
กู้คืน	-10.2719
▁การ์ด	-10.2721
................	-10.2722
118	-10.2724
มิล	-10.2726
▁Service	-10.2726
▁รุ่นใหญ่	-10.2729
โพร	-10.2733
แด	-10.2735
กระดาน	-10.2735
เข้าถึง	-10.2737
▁วินเทจ	-10.2739
หี	-10.2739
ada	-10.274
▁Equipment	-10.274
รถกอล์ฟ	-10.274
เบาะ	-10.2742
els	-10.2745
เครื่องยนต์ดีเซล	-10.2747
วิล	-10.2748
▁PM	-10.2749
▁ท่อเหล็ก	-10.2749
▁การเดินทาง	-10.2752
อย่า	-10.2752
ิด	-10.2754
▁Long	-10.2754
▁Material	-10.276
เซรามิค	-10.2762
หูฟัง	-10.2763
ction	-10.2765
▁กรด	-10.2766
ต้นทุน	-10.277
▁วันที่อัพโหลด	-10.2772
เพื่อการ	-10.2777
ดีไซน์	-10.278
จําเป็น	-10.2782
but	-10.2785
ness	-10.2785
▁Resort	-10.2787
▁per	-10.279
sen	-10.2791
▁ของขวัญ	-10.2794
▁Food	-10.2794
rid	-10.2794
เศษ	-10.2796
ทางทวารหนั	-10.2801
รัฐบาล	-10.2803
123	-10.2809
หอ	-10.2811
คุณยังสามารถ	-10.2813
วิทยาลัย	-10.2817
lm	-10.2817
สมัครงาน	-10.2818
unt	-10.282
เครดิต	-10.282
สติ๊กเกอร์	-10.2821
เสือ	-10.2823
ทางการเงิน	-10.2825
สถานการณ์	-10.2826
▁SH	-10.2827
▁Motor	-10.2827
พักผ่อน	-10.2829
ได้รับการรับรอง	-10.283
que	-10.2831
ลื่น	-10.2833
▁วิลล่า	-10.2836
ood	-10.2837
TL	-10.2837
103	-10.284
ที่มีชื่อเสียง	-10.2841
▁ตรม	-10.2842
bet	-10.2844
สี่เหลี่ยม	-10.2844
สายรัดข้อมือ	-10.2846
2.0	-10.2851
เวีย	-10.2853
▁จอ	-10.2857
▁On	-10.2858
ตัวแทนจําหน่าย	-10.2864
240	-10.2864
อัพ	-10.2864
Com	-10.2865
อักเสบ	-10.2866
▁วาห์	-10.2868
แชท	-10.2871
ถ่ายภาพ	-10.2874
62)	-10.2875
▁Mag	-10.2876
จะใช้	-10.2878
สมดุล	-10.288
หัวฉีด	-10.288
ลิงค์	-10.2884
เอก	-10.2886
▁ถัดไป	-10.2888
จําเป็นต้อง	-10.2889
ห่าง	-10.2889
ลุก	-10.2889
เมน	-10.289
ku	-10.2893
tsu	-10.2895
▁Open	-10.2895
ผิวหนัง	-10.2898
▁ผู้ชาย	-10.2898
หลักฐาน	-10.2898
▁Plan	-10.2903
เลขที่	-10.2903
ไซด์	-10.2905
2015	-10.2906
uri	-10.2907
ole	-10.2917
▁ร้อนแรง	-10.2924
รังสี	-10.2924
▁คูปอง	-10.2925
▁Bi	-10.2927
แปรรูป	-10.2929
ปัก	-10.293
▁ขั้วต่อ	-10.2932
-05	-10.2932
อเมริกัน	-10.2933
โต้	-10.2934
ลิฟต์	-10.2934
พี่	-10.2934
▁Win	-10.2935
ไม่ต้อง	-10.2938
ทังสเตน	-10.2938
▁ตัวแทน	-10.2942
รุนแรง	-10.2944
อิตาลี	-10.2945
อยู่ที่นี่	-10.2947
▁Block	-10.2947
	-10.2948
▁ที่จอดรถ	-10.2952
▁ตัวเชื่อมต่อ	-10.2956
เจล	-10.2958
ซิส	-10.296
▁การป้องกัน	-10.2962
▁TO	-10.2967
กระทรวง	-10.2968
CR	-10.297
เครื่องขึ้นรูป	-10.2971
▁กล่าว	-10.2975
เทน	-10.2976
บัง	-10.2977
สร้างสรรค์	-10.2977
е	-10.2978
การจอง	-10.2978
การเทรด	-10.298
ศาสนา	-10.2987
▁องค์ประกอบ	-10.299
ทางออก	-10.2992
ในเวลา	-10.2992
ผู้ที่	-10.2993
ยื่น	-10.2994
▁โฆษณา	-10.2995
▁แฟกซ์	-10.3001
หมาย	-10.3005
oz	-10.3008
hz	-10.3015
▁เอกสาร	-10.3015
สิบ	-10.3017
หรือเปล่า	-10.3021
▁BMW	-10.3024
ก็ตาม	-10.3026
ความสําเร็จ	-10.3026
วอ	-10.3028
เงียบ	-10.3028
load	-10.3029
ดัน	-10.3031
▁Asia	-10.3033
ง่ายต่อการ	-10.3037
0.7	-10.3039
ลูกสูบ	-10.304
ฟอร์	-10.3041
ttle	-10.3044
ไปรษณีย์	-10.3045
girl	-10.3045
▁กําหนด	-10.3049
▁CCC	-10.305
▁เยอรมัน	-10.305
รณ์	-10.3052
สแตนเลสสตีล	-10.3053
กําลังจะ	-10.3064
การค้นหา	-10.3067
off	-10.3067
oss	-10.3072
มีประสบการณ์	-10.3073
7.00	-10.3073
▁Ya	-10.3073
-200	-10.3076
▁สีบลอนด์	-10.3077
ภาพถ่าย	-10.3077
แมลง	-10.308
เครื่องปรับอากาศ	-10.308
นึง	-10.3081
▁เนื่องจาก	-10.3082
นัด	-10.3086
กับเรา	-10.3092
TY	-10.3095
▁Server	-10.3095
คลาสสิค	-10.3098
สื่อสาร	-10.3099
เก้าอี้	-10.3099
▁กิโลวัตต์	-10.3101
ode	-10.3103
▁ปอนด์	-10.3104
แคน	-10.3105
▁ประโยชน์	-10.3105
เน้น	-10.3112
▁อาหรับ	-10.3113
ปั้ม	-10.3113
▁คาสิโน	-10.3115
ความสัมพันธ์	-10.3117
ยาม	-10.3117
ออกไซด์	-10.3117
กระป๋อง	-10.3118
▁จน	-10.312
7%	-10.3122
▁Work	-10.313
▁FM	-10.314
บิล	-10.314
ด้านข้าง	-10.3141
▁Strip	-10.3142
รวมภาษี	-10.3144
▁(23	-10.3148
▁โหลด	-10.3152
อิม	-10.3153
หนี้	-10.3154
▁Mobile	-10.3156
ที่ปรึกษา	-10.3159
▁Back	-10.316
ลัด	-10.3162
สําหรับขาย	-10.3162
▁DE	-10.3171
แฮ	-10.3172
ผ้าใบ	-10.3174
ฟุ	-10.3177
เบรก	-10.3177
▁เชียงใหม่	-10.3177
ก้อน	-10.3178
เวย์	-10.3179
▁แก้ไข	-10.3184
▁Gra	-10.3184
▁พี	-10.3186
▁การ์ตูน	-10.3187
ได้เลย	-10.319
▁ไปจนถึง	-10.319
พลัส	-10.3191
เทค	-10.3194
ลิป	-10.3198
FO	-10.3199
KG	-10.3199
read	-10.32
หมวดหมู่	-10.3201
▁Cu	-10.3208
fin	-10.3211
สตาร์	-10.3217
การเคลื่อนไหว	-10.322
▁sa	-10.322
ิง	-10.3221
BTC	-10.3221
การเปลี่ยน	-10.3225
▁ความเร็วในการ	-10.3227
กึ่ง	-10.3227
ซ่อน	-10.323
พระองค์	-10.3236
FX	-10.3238
▁car	-10.3243
▁ตัวอักษร	-10.3246
เดน	-10.3247
ที่ทันสมัย	-10.325
ทางเดิน	-10.3252
▁พิพิธภัณฑ์	-10.3253
oma	-10.3255
▁รัสเซีย	-10.3258
▁คาร์	-10.3259
หมู่	-10.326
นําทาง	-10.3261
เหลว	-10.3263
▁เข้าสู่ระบบ	-10.3265
ชีวภาพ	-10.3273
{	-10.3275
น้องสาว	-10.3275
เครื่องซักผ้า	-10.3275
พกพา	-10.3277
ความร่วมมือ	-10.3277
นอนหลับ	-10.328
ขีด	-10.328
โพแทสเซียม	-10.328
AWG	-10.3282
รถยก	-10.3284
การแปลง	-10.3287
▁ขนดก	-10.3287
ั่น	-10.329
หม้อ	-10.329
แสงสว่าง	-10.329
▁เก่า	-10.3292
เป็นเรื่อง	-10.3296
119	-10.3297
กลางคืน	-10.3297
เหมือนกับ	-10.3298
1.00	-10.3299
เคาน์เตอร์	-10.3299
ซับ	-10.33
get	-10.3309
ใย	-10.3312
เซรามิก	-10.3313
▁At	-10.3313
แพ้	-10.3318
ตัดสินใจ	-10.3319
กระชับ	-10.332
▁หมวก	-10.3321
เบีย	-10.3323
▁คลับ	-10.3324
มืด	-10.3329
FP	-10.3332
นะคะ	-10.3339
รูปที่	-10.334
▁Play	-10.3342
เปิดเผย	-10.3343
ero	-10.3343
▁เราสามารถ	-10.3347
▁การพิมพ์	-10.3348
gh	-10.335
ju	-10.3353
สวีท	-10.3354
ขอบเขต	-10.3354
เฟรม	-10.336
เบอร์รี่	-10.3362
นักท่องเที่ยว	-10.3363
2%	-10.3364
ผู้ผลิตชั้นนํา	-10.3366
rad	-10.337
นึก	-10.337
รสชาติ	-10.3372
▁ผ้าฝ้าย	-10.3372
ฤดูหนาว	-10.3373
กรม	-10.3373
โกจิเบอร์รี่	-10.3375
tar	-10.3376
อ่าว	-10.3378
ลาด	-10.3378
โดยรวม	-10.338
รถแทรกเตอร์	-10.3382
-02	-10.3382
▁Rights	-10.3382
▁โบ	-10.3388
ไฮดรอลิค	-10.339
ลงใน	-10.3391
▁เมล็ด	-10.34
เถิด	-10.3403
▁£	-10.3405
อัพเดท	-10.3406
mu	-10.3409
▁0.8	-10.3409
rm	-10.3409
มิเตอร์	-10.3411
1-3	-10.3412
▁มีอะไร	-10.3417
1.0	-10.3418
66)	-10.342
ที่มีคุณภาพ	-10.3421
อธิบาย	-10.3422
▁เครื่องดื่ม	-10.3425
▁Day	-10.3426
-08	-10.3427
หมวก	-10.3432
ili	-10.3434
ล็อก	-10.3439
ทางเพศ	-10.344
960	-10.3444
ระงับ	-10.3444
sia	-10.3445
▁5000	-10.3448
ปราศจาก	-10.3449
134	-10.3451
ดะ	-10.3454
เวียน	-10.3458
112	-10.3461
ญา	-10.3462
▁ได้รับการรับรอง	-10.3467
สมอง	-10.3468
▁เช่า	-10.3468
ช้าง	-10.3468
HK	-10.3469
▁60%	-10.3471
oxy	-10.3472
แท่น	-10.3475
▁เท้า	-10.348
อมควย	-10.3481
▁63	-10.3482
ความสุข	-10.3482
UM	-10.3484
▁ราคาปกติ	-10.3485
▁พบ	-10.3485
▁นี่มัน	-10.3486
ว่ายน้ํา	-10.3486
rush	-10.3487
ตั้งแต่ปี	-10.3493
โตะ	-10.3495
ชิน	-10.3495
ผู้นํา	-10.3496
แรงงาน	-10.3496
เหล็กชุบสังกะสี	-10.3499
▁Ji	-10.3502
▁09:	-10.3507
▁เปล่า	-10.3508
แรงดันสูง	-10.3512
420	-10.3514
▁White	-10.3519
ขนมปัง	-10.3522
ต่อสู้	-10.3524
กองทัพ	-10.3526
แช่	-10.3528
▁Video	-10.3531
▁บีช	-10.3531
oll	-10.3532
▁ปล่อย	-10.3538
เธญเธ	-10.3538
▁กรรมการ	-10.3541
ง่ายๆ	-10.3544
uit	-10.3545
8%	-10.3546
เวอร์ชั่น	-10.3547
ali	-10.3548
ui	-10.3559
อีกด้วย	-10.356
แพทช์	-10.3568
เดิมพัน	-10.3573
ever	-10.3576
PM	-10.3576
hai	-10.3577
เดี๋ยวนี้	-10.358
8.5	-10.3581
▁อําเภอ	-10.3583
การรับรอง	-10.3586
ทั้งสิ้น	-10.3589
▁ปกติ	-10.3592
มะเร็ง	-10.3592
เหมาะกับ	-10.3593
▁ความถี่	-10.3593
ves	-10.3595
▁หี	-10.3598
รั	-10.36
book	-10.36
ทันสมัย	-10.3602
ม่าน	-10.3602
ด้าย	-10.3604
▁ตรัส	-10.3605
▁ปฏิทิน	-10.3606
▁ความดัน	-10.3608
แดด	-10.3609
แตกต่าง	-10.3611
114	-10.3613
เป็นที่นิยม	-10.3614
รึเปล่า	-10.3614
ฉลาด	-10.3615
มวล	-10.3616
ในปัจจุบัน	-10.3623
▁ราย	-10.3623
ซิป	-10.3624
To	-10.3625
cess	-10.3627
ฮั	-10.3629
ผู้อํานวยการ	-10.3635
ต้าน	-10.3637
▁สเปน	-10.3638
แขก	-10.3641
▁Shenzhen	-10.3648
▁Dia	-10.365
โกน	-10.3653
็อก	-10.3655
▁ช่าง	-10.3657
uch	-10.3659
รูปร่าง	-10.366
อเนกประสงค์	-10.366
ที่ใหญ่ที่สุด	-10.3662
▁เท่า	-10.3666
▁Set	-10.3672
н	-10.3673
(6	-10.3674
gra	-10.3674
▁1080	-10.3676
มั่นใจ	-10.368
ซึ	-10.368
rial	-10.368
▁Photo	-10.368
ศา	-10.3683
ที่ใช้งาน	-10.3685
ฟื้นฟู	-10.3685
▁Ko	-10.3687
พลาด	-10.3687
▁สัตว์	-10.3688
มีอายุ	-10.3695
▁ในขณะที่	-10.3696
】	-10.3697
pon	-10.37
ปัสสาวะ	-10.37
2.3	-10.37
▁Yobt	-10.3702
▁โทรศัพท์มือถือ	-10.3704
นิวเมติก	-10.3705
pu	-10.3706
LF	-10.3709
View	-10.371
โกง	-10.3715
พระราม	-10.3715
ต้องมี	-10.3716
▁San	-10.3718
โอเค	-10.3728
Point	-10.3735
แตะ	-10.3736
ย้อม	-10.3744
▁【	-10.3748
video	-10.3748
จง	-10.3748
อุบัติเหตุ	-10.3749
▁จนถึง	-10.3752
▁Electric	-10.3754
สําเนา	-10.3757
:15	-10.3757
199	-10.3757
ียว	-10.3762
ics	-10.3763
ฑ	-10.3763
การบริหาร	-10.3764
ต้านทาน	-10.3765
▁Fla	-10.3776
วงศ์	-10.3779
แข่งขัน	-10.378
rain	-10.378
hin	-10.3785
ori	-10.3786
▁RGB	-10.3786
▁130	-10.3789
key	-10.3791
▁2556	-10.3792
มันเป็น	-10.3793
มองเห็น	-10.3794
หายไป	-10.3796
▁Master	-10.3796
232	-10.3797
roid	-10.3797
้อย	-10.3802
สําหรับงาน	-10.3803
คําตอบ	-10.381
รัส	-10.381
ให้แก่	-10.3813
▁Cam	-10.3813
▁Link	-10.3813
ซ่อมแซม	-10.3814
กระโปรง	-10.3819
บิด	-10.3822
โปแลนด์	-10.3822
ENT	-10.3824
าห์	-10.3828
พิน	-10.3829
ห้องนอน	-10.383
▁ภาพรวม	-10.3833
▁Lab	-10.3833
ฮะ	-10.3836
แต่งหน้า	-10.3839
เทียบ	-10.384
แคม	-10.3841
▁ถุงน่อง	-10.3841
▁ขั้นตอนที่	-10.3847
อร	-10.3849
มีความสุข	-10.3851
หมวด	-10.3851
▁สมัคร	-10.3851
▁700	-10.3852
เชิงเส้น	-10.3858
วิลล่า	-10.386
การเกษตร	-10.386
▁Sil	-10.3862
LU	-10.3863
แบ่งปัน	-10.3864
ชื่นชอบ	-10.3864
tain	-10.3864
ศพ	-10.3864
เป่า	-10.3865
3.5	-10.3865
▁Out	-10.3865
โคล	-10.3866
สูงกว่า	-10.3868
กระเป๋าเดินทาง	-10.3876
▁Express	-10.3882
ออน	-10.3885
▁0.4	-10.3885
อ่างอาบน้ํา	-10.3887
-80	-10.3889
ลงไป	-10.3889
▁เย	-10.389
เอล	-10.3896
-07	-10.3903
▁Reserved	-10.3904
▁Bio	-10.3907
rop	-10.391
ผู้ถือหุ้น	-10.3912
สิ่งที่คุณต้อง	-10.3913
การสูญเสีย	-10.3919
ทนไฟ	-10.392
VAC	-10.3923
mes	-10.3923
ที่คุณต้องการ	-10.3924
NY	-10.3924
ราบ	-10.3924
บรรทัด	-10.3929
و	-10.3929
ริก	-10.393
▁ออฟฟิศ	-10.3934
อินโดนีเซีย	-10.3934
-22	-10.3938
หลอม	-10.3939
▁(26	-10.3944
ไปเลย	-10.3945
▁Mu	-10.395
นุ	-10.3951
แช่แข็ง	-10.3951
ความหมาย	-10.3955
รอยสัก	-10.3957
จร	-10.396
▁Fiber	-10.3961
ระเบียง	-10.3962
888	-10.3965
ใช้ในการ	-10.3965
▁วาง	-10.3967
และเงื่อนไข	-10.3968
▁(4)	-10.3972
cle	-10.398
รัศมี	-10.399
สเตนเลส	-10.3992
๐	-10.3997
▁มารดา	-10.4
กราฟิก	-10.4
ต่อปี	-10.4001
house	-10.4004
▁DVB	-10.4011
lim	-10.4012
▁(22	-10.4019
อินเตอร์เน็ต	-10.402
43)	-10.4023
นิรภัย	-10.4028
เธฒเธ	-10.4028
▁นอกจาก	-10.4032
▁อันดับ	-10.4032
lex	-10.404
mate	-10.4041
ยาน	-10.4042
การรับ	-10.4042
▁หนู	-10.4043
ภัย	-10.4045
ติดต่อเรา	-10.405
▁Board	-10.4052
▁Tool	-10.4053
ทาวน์	-10.4054
▁pre	-10.4055
▁ปัญหา	-10.4056
▁Pvc	-10.4056
มัก	-10.4061
สวม	-10.4065
▁แม่บ้าน	-10.4065
เป็นครั้งแรก	-10.4068
ew	-10.4069
230	-10.407
▁WordPress	-10.4071
rr	-10.4072
▁Hol	-10.4073
▁การบรรจุ	-10.4073
อดีต	-10.4073
เนส	-10.4074
▁0.9	-10.4075
ร่าง	-10.4078
FI	-10.4081
▁ปลา	-10.4082
ซอฟท์	-10.4084
ย้อนกลับ	-10.4089
โคลน	-10.409
▁Color	-10.409
โรงงานผลิต	-10.4093
13)	-10.4095
ible	-10.4097
▁Jin	-10.4099
▁Converter	-10.4099
ประสาท	-10.41
1.2	-10.4102
▁สถาบัน	-10.4102
รายชื่อ	-10.4105
6.0	-10.4105
ใต้ดิน	-10.4107
ระดับมืออาชีพ	-10.4108
▁แขน	-10.4109
กํากับ	-10.4112
▁Clo	-10.4114
▁RS	-10.4115
เมล็ดพันธุ์	-10.4115
ration	-10.4116
ธีม	-10.4118
คาน	-10.4118
▁ซ่อน	-10.412
▁Plastic	-10.412
องค์ประกอบ	-10.4124
ยักษ์	-10.413
มาเลเซีย	-10.4143
ควรจะ	-10.4144
ั่ง	-10.4145
gin	-10.4147
เป็นศูนย์	-10.4147
การตกแต่ง	-10.4156
arn	-10.4159
113	-10.4162
zhou	-10.4163
ele	-10.4164
พูล	-10.4166
แตกต่างกัน	-10.4166
▁มันคือ	-10.4171
น้ําหอม	-10.4171
สปอร์ต	-10.4174
213	-10.4174
tec	-10.4176
265	-10.4177
▁≥	-10.4178
มาพร้อมกับ	-10.418
กังวล	-10.4182
▁Ethernet	-10.4182
ky	-10.4182
ความละเอียดสูง	-10.4183
▁โพลีเอสเตอร์	-10.4185
สายเคเบิ้ล	-10.4186
ที่ตั้ง	-10.4187
รถไฟฟ้า	-10.4188
จะไป	-10.4192
201	-10.4192
▁900	-10.4194
หลักของ	-10.4201
▁Imp	-10.4201
▁สายไฟ	-10.4212
117	-10.4213
ท่าเรือ	-10.4214
เพาเวอร์	-10.4215
ศุกร์	-10.4218
▁Du	-10.4222
·	-10.4222
ยิ่งใหญ่	-10.4224
260	-10.4226
UP	-10.4228
▁เอ็ม	-10.4229
▁Tea	-10.423
องุ่น	-10.423
▁ฉันรู้	-10.423
ฉลอง	-10.4234
เกินไป	-10.4236
0.1	-10.424
ฝั่ง	-10.4241
บ่อย	-10.4242
กรรมการ	-10.4246
เล็กน้อย	-10.4248
▁ทุกคน	-10.4248
ครบรอบ	-10.425
▁หาด	-10.425
▁gr	-10.4251
▁อาร์	-10.4251
▁ความหนาของ	-10.4252
▁GR	-10.4254
สํานักงานใหญ่	-10.4259
▁Bus	-10.4262
ี่ย	-10.4262
แนวคิด	-10.4262
ส้ม	-10.4263
GI	-10.4264
สาน	-10.4265
คลาส	-10.4269
▁0-2	-10.427
อยู่ไหน	-10.427
▁การประยุกต์ใช้	-10.4272
วีดีโอ	-10.4272
ะต	-10.4277
ไล่	-10.428
play	-10.428
เพศสัมพันธ์	-10.4281
▁YouTube	-10.4281
เชื่อมโยง	-10.4282
บริจาค	-10.4283
▁Chrome	-10.4283
ชาร์	-10.4285
ตึก	-10.4285
สวีเดน	-10.4286
ไม่ยอมใครง่ายๆ	-10.4286
แบบนั้น	-10.4286
side	-10.4296
450	-10.4297
lock	-10.43
ซูเปอร์	-10.4301
ผู้ประกอบการ	-10.4302
เซอร์วิส	-10.4302
คลอง	-10.4304
▁อิตาลี	-10.4307
เรย์	-10.431
ลอก	-10.431
คนเดียว	-10.4311
▁ศิลปะ	-10.4312
แส	-10.4316
ตั้งอยู่	-10.4316
▁นับ	-10.4321
ขอโทษ	-10.4322
ก้น	-10.4323
▁FCC	-10.4329
era	-10.4331
โยน	-10.4333
▁ร้านค้า	-10.4334
750	-10.4339
▁แต่ละ	-10.4339
ฟอยล์	-10.4342
เลิก	-10.4343
คอลัมน์	-10.4349
สู้	-10.435
ump	-10.4352
การบํารุงรักษา	-10.4353
3:00	-10.4354
ซิน	-10.4355
วินาที	-10.4357
โดยไม่	-10.4357
▁จอห์น	-10.4357
วิชาการ	-10.436
ริน	-10.4365
sch	-10.4365
▁เด็กชาย	-10.4365
VER	-10.4366
▁สําหรับขาย	-10.4368
มื้อ	-10.437
▁10:00	-10.4371
ทางด้าน	-10.4373
ในวัน	-10.4381
38)	-10.4385
ที่มีความ	-10.4387
new	-10.4389
zi	-10.4393
▁Panel	-10.4394
เครื่องเป่า	-10.4397
ทดแทน	-10.4399
ถ้วย	-10.4399
▁สนุก	-10.4399
ผู้ถือ	-10.4401
FE	-10.4401
เช่นเดียวกับ	-10.4401
หัวหิน	-10.4402
ธาตุ	-10.4404
พูดว่า	-10.4408
วิชา	-10.4408
อนุญาต	-10.4408
010	-10.4409
ier	-10.4409
115	-10.4409
ฝักบัว	-10.4411
▁บางที	-10.4412
รับประทานอาหาร	-10.4414
met	-10.4417
31)	-10.4419
205	-10.4421
116	-10.4424
ราชการ	-10.4425
เจริญ	-10.4427
8.00	-10.4428
▁data	-10.4429
ขี้ผึ้ง	-10.443
Cr	-10.4432
NG	-10.4433
ไฟฉาย	-10.4435
▁Flu	-10.4437
ความรัก	-10.4437
ที่นั่น	-10.4438
▁Ben	-10.4441
410	-10.4444
▁อาทิ	-10.4445
▁Green	-10.4447
เราสามารถ	-10.4447
หล่อลื่น	-10.4449
▁ใช้สําหรับ	-10.4449
▁เช	-10.445
ดูเหมือน	-10.4451
▁คุณต้อง	-10.4454
จมูก	-10.4454
▁app	-10.4454
ยาห์	-10.4456
โภชนาการ	-10.4457
นํามาใช้	-10.4462
ume	-10.4463
ผู้เข้าพัก	-10.4464
โหวต	-10.4465
▁แถลงการณ์	-10.4468
tel	-10.4468
อะแดปเตอร์	-10.4468
ben	-10.4468
สีม่วง	-10.4469
▁แปลง	-10.4469
ฝ้าย	-10.4473
133	-10.4474
▁Apple	-10.4475
ral	-10.4476
room	-10.4476
ตั้งแต่วันที่	-10.4478
หลักทรัพย์	-10.4479
พัง	-10.448
เชล	-10.448
UB	-10.4483
	-10.4486
ผอม	-10.4487
อย่างดี	-10.4487
วางแผน	-10.4488
52)	-10.4489
▁กุหลาบ	-10.449
จังหวะ	-10.4494
▁เยโฮวาห์	-10.4494
▁Standard	-10.4495
ที่ไม่มี	-10.4495
สะดวกสบาย	-10.4495
ระยะยาว	-10.4501
▁02:	-10.4503
ION	-10.4504
▁ท่าเรือ	-10.4508
ธา	-10.4508
▁ตุรกี	-10.4508
▁ผู้จัดการ	-10.4508
การกระจาย	-10.4509
138	-10.4513
▁Post	-10.4513
ปุ๋ย	-10.4513
คอร์ส	-10.4518
▁Street	-10.4518
อยากจะ	-10.452
มุมมอง	-10.4521
ทรัพย์สิน	-10.4521
hang	-10.4521
ในด้าน	-10.4522
▁รายการผลิตภัณฑ์	-10.4522
nit	-10.4523
▁ข้อตกลง	-10.4523
โรแมนติก	-10.4526
เป็นพิเศษ	-10.4529
ผ้าขนสัตว์	-10.4533
22)	-10.4535
▁SGS	-10.4538
แชร์	-10.4542
จัดทํา	-10.4543
▁Face	-10.4543
บาร์โค้ด	-10.4544
9:00	-10.4544
▁เฟส	-10.4545
lay	-10.4547
สดใส	-10.4547
ลําเลียง	-10.4547
▁MDF	-10.4548
ดังต่อไปนี้	-10.4551
และกิจกรรม	-10.4552
▁อดีตแฟนสาว	-10.4555
ลิส	-10.4557
สถาปัตยกรรม	-10.4558
ark	-10.4559
เสื้อยืด	-10.456
ทางธุรกิจ	-10.4563
ศิลปิน	-10.4567
▁nbsp	-10.4569
▁Guide	-10.4569
hon	-10.4571
ที่เกิดขึ้น	-10.4573
32)	-10.4574
จัดขึ้น	-10.458
▁อัตราการ	-10.458
เคิล	-10.458
ในพื้นที่	-10.4582
ควัน	-10.4583
๑	-10.4588
เหล็กกล้า	-10.4588
▁Ah	-10.4589
ลิขสิทธิ์	-10.459
ซอส	-10.459
▁โจ	-10.4592
น้ําท่วม	-10.4593
สีส้ม	-10.46
▁wh	-10.4601
▁มินิ	-10.4604
▁อาบน้ํา	-10.4605
▁ปลอก	-10.4605
ปัจจัย	-10.4607
กลางวัน	-10.4609
เคน	-10.4609
▁สร้อยข้อมือ	-10.4612
cial	-10.4616
จัดเก็บ	-10.4617
▁(21	-10.4621
ร่วมงาน	-10.4622
▁กรอบ	-10.4622
เชื่อมต่อกับ	-10.4626
▁Award	-10.4626
CU	-10.4626
ท็อป	-10.4628
ศัลยกรรม	-10.4634
หม้อแปลง	-10.4635
▁ที่ตั้ง	-10.4635
อักษร	-10.4635
เซ็นเตอร์	-10.4638
▁เมีย	-10.4638
ที่เกี่ยวข้องกับ	-10.4648
วิส	-10.4649
▁Ass	-10.465
3,000	-10.4651
pen	-10.4653
กู้	-10.4654
เปีย	-10.4655
โล่	-10.4656
42)	-10.4661
ศัตรู	-10.4666
ชลบุรี	-10.4666
การเรียนรู้	-10.4667
hotel	-10.4667
▁เหรียญสหรัฐ	-10.4667
▁Japan	-10.467
anna	-10.4673
▁รถบัส	-10.4675
▁ฮิต	-10.4676
อีเมล์	-10.4676
มักจะ	-10.4678
กรีน	-10.4679
ไม่จําเป็นต้อง	-10.4681
แวร์	-10.4684
โดยสาร	-10.4685
▁Max	-10.4687
▁ทางทวารหนัก	-10.4693
ข้อดี	-10.4695
มวย	-10.4696
▁Cha	-10.4699
▁Pass	-10.4703
ซัล	-10.4705
สืบ	-10.4711
650	-10.4714
ธน	-10.4716
▁สีเขียว	-10.4716
ฝากเงิน	-10.4718
http	-10.4718
long	-10.4722
ทวาร	-10.4723
ature	-10.4723
168	-10.4728
เพิ่มประสิทธิภาพ	-10.4733
ในฐานะ	-10.4734
▁Tech	-10.4734
45)	-10.4735
Global	-10.4737
ข้อมูลเกี่ยวกับ	-10.4737
▁Ke	-10.4739
เกี่ยว	-10.4741
ประจําวัน	-10.4742
นิก	-10.4744
▁dr	-10.4747
ความแตกต่าง	-10.4749
▁ยาย	-10.4752
▁72	-10.4755
×	-10.4755
แห่งประเทศไทย	-10.476
เลส	-10.4762
ถา	-10.4763
ยง	-10.4765
▁ความหนาแน่น	-10.4777
gar	-10.4778
รั่ว	-10.4781
▁Rock	-10.4784
▁Market	-10.4785
ยิ่งขึ้น	-10.4785
ช่วยให้คุณ	-10.4786
ดอ	-10.4786
165	-10.4786
▁ตกลง	-10.4789
แนวทาง	-10.4793
รีบ	-10.4793
นะครับ	-10.4798
ฉาย	-10.4801
▁ซึ่งมี	-10.4803
▁ตอ	-10.4804
อิ่ม	-10.4804
▁เยี่ยม	-10.4809
สะท้อนแสง	-10.4816
อาหารเสริม	-10.4817
～	-10.4819
คอมโพสิต	-10.4822
ห้องอาบน้ํา	-10.4823
อาจารย์	-10.4825
3.0	-10.4826
เกณฑ์	-10.4828
▁ปั๊มน้ํา	-10.483
โจมตี	-10.4831
สายการบิน	-10.4832
▁Kit	-10.4834
cap	-10.4835
53)	-10.4836
▁ผู้จําหน่าย	-10.4838
▁ตัวควบคุม	-10.4839
£	-10.4841
▁นมโต	-10.4842
พิกเซล	-10.4843
eep	-10.4844
โดยการ	-10.4847
▁Eco	-10.4852
eek	-10.4853
▁เป็นหนึ่งใน	-10.4856
▁รายชื่อ	-10.4857
▁03:	-10.4858
ละติน	-10.4858
ระบายอากาศ	-10.4862
teen	-10.4867
เข้มข้น	-10.4869
การบิน	-10.4871
▁นอน	-10.4871
อยู่แล้ว	-10.4873
▁การทํา	-10.4877
TOR	-10.4879
ใช้งานได้	-10.4882
14)	-10.4883
▁ก่อนหน้านี้	-10.4883
▁คําตอบ	-10.4884
ail	-10.4888
สว่าน	-10.4889
▁ก็ได้	-10.4889
ฉีดพลาสติก	-10.4889
▁2.4	-10.489
▁10,000	-10.4893
▁(28	-10.4894
▁Lock	-10.4895
▁ดอกไม้สําหรับ	-10.4896
bol	-10.4896
6.00	-10.4898
ในตลาด	-10.4902
▁Core	-10.4904
ความสว่าง	-10.4906
▁อะ	-10.4906
MAX	-10.4909
มัธยม	-10.4911
นัน	-10.4919
▁พนักงาน	-10.492
งาม	-10.4921
ภา	-10.4921
▁Room	-10.4923
23)	-10.4925
▁คุณมี	-10.4926
ชิง	-10.4926
วัง	-10.4926
มอร์	-10.4928
สภาพอากาศ	-10.4929
Thai	-10.493
ประสบความสําเร็จ	-10.493
ฟิล	-10.4934
พระราช	-10.4935
ทางหลวง	-10.4943
มีค่า	-10.4943
ของโลก	-10.4944
ริส	-10.4945
29)	-10.495
ฤดูกาล	-10.4953
▁ประจําปี	-10.4955
การติดต่อ	-10.4955
แอบ	-10.4956
ฐานข้อมูล	-10.4956
▁Fast	-10.4957
กรวย	-10.4959
ข้อตกลง	-10.496
รถเช่า	-10.4963
ฟอร์ด	-10.4963
บิ๊ก	-10.4964
เยอะ	-10.4967
บูธ	-10.4968
แน่ใจ	-10.4971
▁ที่ผ่านมา	-10.4973
เดอ	-10.4976
จัน	-10.4976
รวมทั้ง	-10.4977
ภาพวาด	-10.4978
61)	-10.4979
รับประทาน	-10.4984
EG	-10.4985
(7	-10.4986
ค่อนข้าง	-10.4986
oli	-10.4987
เพลย์	-10.4989
แหล่งจ่ายไฟ	-10.4991
อุ่น	-10.4991
อาศัย	-10.4992
การฉีด	-10.4993
รูปทรง	-10.4995
ตัวกรอง	-10.4995
นิตยสาร	-10.4997
วงกลม	-10.5001
▁ตัวกรอง	-10.5001
▁เครื่องบด	-10.5002
▁ถ้วย	-10.5014
สายการผลิต	-10.5015
▁Live	-10.5019
▁''	-10.5019
▁HI	-10.5019
▁คุณสมบัติของ	-10.5025
หวัง	-10.5026
ในทุก	-10.503
สไลด์	-10.5031
34)	-10.5031
▁หน้าต่าง	-10.5032
ในระดับ	-10.5033
กั้น	-10.5035
คัด	-10.5037
หมดอายุ	-10.5039
▁เลีย	-10.5041
▁Roller	-10.5045
กราฟ	-10.505
ไม่รวม	-10.5051
5000	-10.5051
love	-10.5054
▁HDMI	-10.5054
▁Union	-10.5055
▁Val	-10.5057
305	-10.5058
tv	-10.5058
IB	-10.5059
ได้ไหม	-10.5059
เที่ยง	-10.5059
ปารีส	-10.5065
▁ทาส	-10.5073
นี้จะ	-10.5073
ด้านใน	-10.5075
แอลกอฮอล์	-10.5076
็ป	-10.5077
33)	-10.5079
ให้เลือก	-10.5079
lick	-10.5081
AND	-10.5081
ทําอาหาร	-10.5083
สิน	-10.5086
LED	-10.5088
▁รับรอง	-10.5093
▁error	-10.5093
ที่สมบูรณ์แบบ	-10.5093
โซลูชัน	-10.5096
▁Silicon	-10.5096
ดิสก์	-10.5098
▁iPad	-10.5104
ลุง	-10.5109
360	-10.5111
ลูกปัด	-10.5111
▁โซเดียม	-10.5113
การจัดเก็บ	-10.5113
Pay	-10.5116
440	-10.5118
อริ	-10.5123
ราม	-10.5123
▁`	-10.5124
เพื่อสุขภาพ	-10.5124
เป็นไปตาม	-10.5129
ใหม่ล่าสุด	-10.5135
ประเมิน	-10.5139
ตัวนํา	-10.514
คอส	-10.5143
ลิ้นชัก	-10.5144
๊ด	-10.5145
ของจีน	-10.5145
สมุด	-10.5147
175	-10.5147
▁Pu	-10.5149
เลอ	-10.5151
อียิปต์	-10.5156
▁Pol	-10.5159
วิศวกร	-10.5161
▁Gold	-10.5161
อด	-10.5161
▁XL	-10.5164
▁Data	-10.5164
▁เราต้อง	-10.5167
ทุกชนิด	-10.5169
ั้น	-10.517
ติดผนัง	-10.517
64)	-10.5171
▁GSM	-10.5177
สําหรับคุณ	-10.5179
▁สี่	-10.518
ไช	-10.518
เสียใจ	-10.518
เป็นต้น	-10.5182
ALL	-10.5183
▁ไฮ	-10.5184
ซ้อน	-10.5184
Zhejiang	-10.5187
ริ้วรอย	-10.5187
▁Chain	-10.5188
▁เปิดตัว	-10.5188
▁Electronics	-10.5189
methyl	-10.5192
▁Company	-10.5193
วอร์	-10.5196
▁แท็กที่แนะนํา	-10.52
โฮมเมด	-10.5204
สถานีรถไฟ	-10.5208
1.1	-10.521
late	-10.5212
ไม่เห็น	-10.5219
002	-10.5221
▁ข้าว	-10.5222
ที่รวดเร็ว	-10.5223
ทําเครื่องหมาย	-10.5226
▁Cloud	-10.5227
▁Control	-10.5227
▁การติดตั้ง	-10.5228
now	-10.5229
ลิง	-10.523
เอพีเค	-10.523
31%	-10.5232
INE	-10.5235
oji	-10.5237
▁Product	-10.5237
▁Beach	-10.5237
▁Para	-10.5238
หรู	-10.5239
จับคู่	-10.5241
ผู้คน	-10.5242
อัลลอย	-10.5243
บํารุงรักษา	-10.5244
หาง	-10.5244
▁มูลค่า	-10.5246
เหมาะ	-10.5251
ปวด	-10.5252
แมกนีเซียม	-10.5253
44)	-10.5253
เบย์	-10.5254
▁Dec	-10.5259
อนุญาโตตุลาการ	-10.5262
เหล็กเส้น	-10.5262
▁Privacy	-10.5265
สังเกต	-10.5267
▁การรับรอง	-10.5268
ยี	-10.5269
สายตา	-10.5275
ที่แข็งแกร่ง	-10.5279
THAI	-10.528
ไปกับ	-10.5281
duct	-10.5282
ลิ่ง	-10.5283
การ์ตูน	-10.5284
36)	-10.5286
น่าสนใจ	-10.5286
195	-10.5289
มั๊ย	-10.529
▁รถไฟ	-10.5292
▁คุณลักษณะ	-10.5294
2020	-10.5295
เดท	-10.5298
การวิจัย	-10.5299
ซอฟแวร์	-10.5299
tric	-10.5301
บริการลูกค้า	-10.5304
โมโน	-10.5304
ฟิลิปปินส์	-10.5305
▁2555	-10.5307
ship	-10.5307
950	-10.5307
เด่น	-10.5311
21)	-10.5312
0.2	-10.5312
เกี่ยวกับการ	-10.5313
ena	-10.5326
ASS	-10.5328
เทพ	-10.5328
เครื่องทํา	-10.533
เช่นกัน	-10.5337
ปานกลาง	-10.5343
39)	-10.5343
เมา	-10.5345
เลย์	-10.5345
เซลล์แสงอาทิตย์	-10.5348
การแก้ไข	-10.5349
ปฏิบัติการ	-10.5349
▁การแข่งขัน	-10.535
54)	-10.5353
▁ASME	-10.5354
▁REACH	-10.536
▁XP	-10.536
ปพลิเคชัน	-10.5361
abi	-10.5362
char	-10.5365
ไอน้ํา	-10.5369
สูงถึง	-10.537
▁4.0	-10.5373
ความกว้าง	-10.5376
press	-10.5376
mit	-10.5376
71%	-10.5378
ียน	-10.5379
สบู่	-10.538
550	-10.5381
▁สามี	-10.5384
็กซ์	-10.5386
р	-10.5389
▁ระยะ	-10.5392
27)	-10.5392
ตามมาตรฐาน	-10.5395
51)	-10.5396
และโรงงาน	-10.54
!!!	-10.5402
ที่หลากหลาย	-10.5402
any	-10.5402
225	-10.5404
ส่องสว่าง	-10.5407
ไม่จํากัด	-10.5407
▁สีเหลือง	-10.5408
▁แก้	-10.5409
คลุม	-10.5411
rus	-10.5412
ออร์	-10.5414
ดิจิทัล	-10.5415
AU	-10.5417
ram	-10.5419
โทน	-10.5422
124	-10.5422
ถ่านหิน	-10.5424
ตับ	-10.543
fuck	-10.5432
ต้ม	-10.5432
▁IR	-10.5432
▁WiFi	-10.5432
UI	-10.5434
6%	-10.5437
485	-10.5437
▁Hua	-10.5438
▁750	-10.5439
quot	-10.5442
▁Xvideos	-10.5442
▁LG	-10.5445
63)	-10.5447
▁King	-10.5447
▁ยอด	-10.5448
กระบี่	-10.5451
วิสัยทัศน์	-10.5451
สมัย	-10.5452
28)	-10.5454
gram	-10.5457
เคลื่อนไหว	-10.5458
เราเตอร์	-10.546
▁End	-10.5462
กันเถอะ	-10.5462
ender	-10.5463
▁การประชุม	-10.5463
พาร์ค	-10.5464
▁สิบ	-10.5466
ประทับใจ	-10.547
เรียบง่าย	-10.547
มีผล	-10.548
โฮสติ้ง	-10.5481
ขอบคุณ	-10.5481
พูดถึง	-10.5485
▁สนาม	-10.5485
▁วิด	-10.5486
ote	-10.5489
แอฟริกา	-10.5489
คําว่า	-10.5489
▁พยาบาล	-10.5494
๊อก	-10.5496
▁Piece	-10.5497
เล่ม	-10.5498
เอาต์พุต	-10.5501
เบิร์	-10.5504
โง่	-10.5504
ได้โดยตรง	-10.5504
ham	-10.5511
BE	-10.5512
т	-10.5512
ัน	-10.5514
▁ผมไม่	-10.5515
▁เรียนรู้	-10.5515
อาวุธ	-10.5518
phone	-10.5522
รูปถ่าย	-10.5523
ที่มีคุณภาพสูงใน	-10.5523
▁ตํารวจ	-10.5526
ได้หรือไม่	-10.553
▁เมื่อวันที่	-10.553
ตลับหมึก	-10.5531
▁รูปร่าง	-10.5532
127	-10.5534
ฮาร์ด	-10.5535
ใกล้เคียง	-10.5536
เตาอบ	-10.5538
▁IEC	-10.5538
โครเมี่ยม	-10.5539
▁Business	-10.5539
▁กําลังสอง	-10.554
▁Bit	-10.5547
▁Villa	-10.5547
เอาท์พุท	-10.5548
144	-10.5551
74)	-10.5554
▁ทําไมต้อง	-10.5555
ไอที	-10.5555
นักแสดง	-10.5562
▁Rain	-10.5562
บลู	-10.5565
เทศ	-10.5566
ปฏิเสธ	-10.5566
dic	-10.5566
▁Exp	-10.5566
เลว	-10.557
56)	-10.5571
เครื่องดูดฝุ่น	-10.5572
aku	-10.5573
ัค	-10.5574
gal	-10.5574
เท่าไหร่	-10.5575
ย่า	-10.5583
▁►	-10.5586
▁Twist	-10.5591
▁Club	-10.5594
เหล็กแผ่น	-10.5595
41)	-10.5595
136	-10.5596
ดัก	-10.5602
ถุงมือ	-10.5603
512	-10.5603
▁วันจันทร์	-10.5603
▁poly	-10.5608
ی	-10.5613
tw	-10.5614
ไว้ใน	-10.5615
560	-10.5618
ว่าคุณ	-10.5618
link	-10.5618
8000	-10.562
เข้ากับ	-10.5625
▁Pet	-10.5625
46)	-10.5625
tre	-10.5625
ไม่มีการ	-10.5627
VDC	-10.5627
สามารถเลือก	-10.5628
▁มันจะ	-10.563
ตู	-10.5631
▁เว็บ	-10.5631
▁Press	-10.5633
35)	-10.5634
style	-10.5634
4.00	-10.5635
UC	-10.5636
more	-10.5636
หัน	-10.5637
ez	-10.5639
▁Travel	-10.5643
อยู่ที่ไหน	-10.5646
ออส	-10.565
เล่	-10.5652
พูดคุย	-10.5652
48)	-10.5652
สินเชื่อ	-10.5659
▁Cur	-10.566
▁DN	-10.5663
คลอด	-10.5667
เหล็กหล่อ	-10.5674
แอปเปิ้ล	-10.5676
ที่จําเป็น	-10.5679
▁การสนับสนุน	-10.5679
ไตร	-10.568
37)	-10.5681
๊ะ	-10.5681
2.7	-10.5683
ater	-10.5688
ทางอากาศ	-10.5689
49)	-10.5689
Φ	-10.5691
ดีขึ้น	-10.5692
หด	-10.5697
▁Components	-10.5698
เจ็บ	-10.57
เดอะ	-10.5703
พาส	-10.5706
▁เจ้าหน้าที่	-10.5709
▁ออสเตรเลีย	-10.5714
ava	-10.5716
▁SMS	-10.5719
139	-10.572
มาร์ค	-10.5722
กอ	-10.5725
mat	-10.5726
▁Sub	-10.573
คลิป	-10.5731
ดอน	-10.5733
▁+86	-10.5734
Thailand	-10.5734
ute	-10.5737
▁Ball	-10.5737
ไตรมาส	-10.5737
26)	-10.5741
oke	-10.5742
264	-10.5743
สกี	-10.5745
0-1	-10.5747
67)	-10.5747
pic	-10.575
การเริ่มต้นการ	-10.575
ุน	-10.5751
▁ราคาที่ต่ํา	-10.5754
เนียน	-10.5757
▁อ้วน	-10.5758
ฝาปิด	-10.5759
▁(5)	-10.576
แทนที่	-10.5762
137	-10.5764
HT	-10.5771
GHz	-10.5774
▁ชุดชั้นใน	-10.5775
▁คอนโดมิเนียม	-10.5776
ไหล่	-10.5777
630	-10.578
▁กรุ๊ป	-10.5782
YA	-10.5784
ไปไหน	-10.5785
290	-10.5786
รับส่วนลด	-10.5793
word	-10.5794
▁Ru	-10.5796
ไอคอน	-10.5797
145	-10.5797
เทนนิส	-10.58
เซฟ	-10.5805
บอน	-10.5807
จอภาพ	-10.5809
จี้	-10.581
▁Gen	-10.5811
down	-10.5813
ก่อ	-10.5814
ละคร	-10.5816
บิต	-10.5817
bus	-10.5817
▁ไม่ว่าจะเป็น	-10.5817
สร้างขึ้น	-10.5819
ART	-10.5819
▁Geogrid	-10.5821
▁**	-10.5825
ฉันจะ	-10.5827
วันพุธ	-10.5827
ทางเคมี	-10.5829
▁230	-10.5829
▁Switch	-10.583
76)	-10.583
▁Chang	-10.5832
ยุ่ง	-10.5832
ggy	-10.5832
2.8	-10.5835
สว่าง	-10.5835
สาเหตุ	-10.584
สายพานลําเลียง	-10.5846
เบิล	-10.5846
Jiangsu	-10.5849
▁Name	-10.5851
หยาบ	-10.5852
เดล	-10.5852
รัน	-10.5854
▁my	-10.5857
▁หัวหน้า	-10.5859
▁แว่นตา	-10.5863
ลัก	-10.5863
แฝด	-10.5864
สะท้อน	-10.5865
ปากีสถาน	-10.5867
โทรหา	-10.5868
lit	-10.5868
▁Soft	-10.5871
ient	-10.5875
ก็แค่	-10.5878
เลิศ	-10.5878
สัดส่วน	-10.5879
count	-10.5879
71)	-10.5879
▁GT	-10.588
ซัลเฟต	-10.5882
ต้นฉบับ	-10.5882
ries	-10.5883
▁Fr	-10.5885
▁ห้องครัว	-10.5891
▁ป่า	-10.5892
▁ผลิตจากโรงงาน	-10.5892
▁(27	-10.5893
TECH	-10.5894
van	-10.5895
โอซาก้า	-10.5898
ken	-10.5903
สูบบุหรี่	-10.5904
็บ	-10.5905
▁ส่วนหนึ่ง	-10.5906
ด้วยมือ	-10.5908
บทเรียน	-10.5908
กับคุณ	-10.5914
tom	-10.5928
ในแต่ละ	-10.5935
ดาบ	-10.5939
▁หมายถึง	-10.594
mAh	-10.5941
คุ้มครอง	-10.5942
เจ็ด	-10.5942
วย	-10.5943
4.2	-10.5946
โรตารี่	-10.5946
ทะเบียน	-10.5946
เนื่องจาก	-10.5946
เหวี่ยง	-10.5947
ر	-10.5947
don	-10.5948
เรซิน	-10.595
หลับ	-10.5951
ระเบียบ	-10.5953
▁เพียงแค่หา	-10.5953
▁ต่อไป	-10.5957
ในราคา	-10.5958
3.3	-10.5958
MR	-10.5962
ขั้วต่อ	-10.5962
แจก	-10.5962
อะลูมิเนียม	-10.5962
ได้อย่างรวดเร็ว	-10.5967
นูน	-10.5968
ต้องไปหาราคาถูก	-10.5969
บคุณในเร็วที่สุด	-10.5969
ออมและการสํารวจ	-10.5969
ตุรกี	-10.5974
380	-10.5974
++	-10.5976
นักลงทุน	-10.5977
990	-10.5979
การเดิน	-10.5981
ลูกบอล	-10.5983
▁DVD	-10.5983
59)	-10.5986
๊า	-10.5986
โยคะ	-10.599
แบคทีเรีย	-10.599
▁Mr	-10.5994
ไม่มีใคร	-10.5995
▁เกิดอะไรขึ้น	-10.6004
126	-10.6004
ency	-10.6004
ขโมย	-10.6006
ชาร์จไฟ	-10.6006
กี	-10.6008
คัดเลือก	-10.6011
▁320	-10.6011
tory	-10.6013
ไส้	-10.6015
กลไก	-10.6015
ative	-10.6017
คอนโด	-10.6021
73)	-10.6023
เธฑเธ	-10.6025
yan	-10.6025
เราเป็น	-10.6029
Pieces	-10.6032
สีสัน	-10.6032
amine	-10.6033
ผ่อนคลาย	-10.6034
156	-10.6036
ถอย	-10.6037
▁Barrier	-10.6037
คล้าย	-10.6038
ลาติน	-10.6039
การถ่ายโอน	-10.6039
▁Full	-10.6041
155	-10.6041
การส่งออก	-10.6041
▁ยูโร	-10.6042
ึก	-10.6043
๊บ	-10.6044
ida	-10.6045
▁Pan	-10.6048
illa	-10.6048
	-10.6049
ไม่เป็นไร	-10.6053
ซิลิคอน	-10.6055
▁recover	-10.6055
วัฒ	-10.6055
▁เข้าใจ	-10.6056
▁Jammer	-10.6059
บัส	-10.6065
มีความยืดหยุ่น	-10.6068
▁Bank	-10.6068
สนทนา	-10.6068
▁Us	-10.6069
pack	-10.607
สมาร์ทโฟน	-10.6071
มีคุณสมบัติ	-10.6074
ful	-10.6074
ime	-10.6079
ทาสี	-10.6079
ให้คําปรึกษา	-10.6084
ราคาต่ํา	-10.6084
ตลับลูกปืน	-10.6087
การจัดอันดับ	-10.6089
ซับซ้อน	-10.609
FF	-10.6095
215	-10.6096
บางส่วน	-10.6097
มีประสิทธิภาพสูง	-10.6097
ตะกั่ว	-10.6099
▁คริส	-10.6104
atsu	-10.6105
▁Spa	-10.6113
พอดี	-10.6115
ผ้าขนหนู	-10.6115
กุ้ง	-10.6116
▁Excel	-10.6119
121	-10.6123
9.5	-10.6127
เคส	-10.6128
▁Jun	-10.6133
132	-10.6135
ทร	-10.6136
ทรงกลม	-10.6139
▁Hard	-10.6139
▁PRO	-10.6142
นามสกุล	-10.6144
ยามะ	-10.6147
▁Jul	-10.6151
raw	-10.6151
เป็นสมาชิก	-10.6152
ดัชนี	-10.6153
ดอลลาร์	-10.6154
สั่น	-10.6162
คุย	-10.6165
ไข้	-10.6165
กล้า	-10.6167
เรียว	-10.6169
▁Har	-10.6174
สิทธิบัตร	-10.6179
สองชั้น	-10.6181
▁เขาพูดว่า	-10.6182
ความถูกต้อง	-10.6183
ทันตกรรม	-10.6187
82)	-10.6187
แรงบิด	-10.619
ล้มเหลว	-10.6191
meter	-10.6191
▁DHL	-10.6194
ื่อง	-10.6203
▁Internet	-10.6205
คอนเทนเนอร์	-10.6206
▁1.6	-10.6208
การเจริญเติบโต	-10.621
door	-10.6214
รบกวน	-10.6216
ห้างสรรพสินค้า	-10.6216
card	-10.6216
dom	-10.6216
รอยัล	-10.6217
87)	-10.6218
57)	-10.6222
โซเดียม	-10.6222
▁อ่า	-10.6228
การจัดส่งสินค้า	-10.6231
proof	-10.6232
Tube	-10.6237
ปราสาท	-10.6238
RAM	-10.624
สอด	-10.6244
พิพิธภัณฑ์	-10.6246
สินทรัพย์	-10.6248
iff	-10.6248
งั้นเหรอ	-10.6252
0-3	-10.6254
cut	-10.6255
▁Tai	-10.6255
▁2554	-10.6256
axi	-10.6257
▁Mono	-10.6259
ท่อเหล็ก	-10.6259
ซีเอ็นซี	-10.626
ลีก	-10.6266
255	-10.6267
รัช	-10.6268
เอว	-10.6273
003	-10.6274
การณ์	-10.6275
-21	-10.6278
rack	-10.6285
1-1	-10.6286
จัดจําหน่าย	-10.6287
▁Dong	-10.6289
color	-10.6291
ด้วยความ	-10.6291
วันอังคาร	-10.6294
hole	-10.6296
72)	-10.6298
128	-10.6301
▁HDPE	-10.6303
เปิดให้บริการ	-10.6308
ตลับ	-10.631
ส้น	-10.6312
แผ่นเหล็ก	-10.6315
สหภาพ	-10.6317
คว้า	-10.6318
กรุณา	-10.6323
ใกล้ชิด	-10.6324
โบรกเกอร์	-10.6327
Mpa	-10.6333
กาล	-10.6333
รุ่นใหม่	-10.6334
86)	-10.6335
เทอร์มินัล	-10.634
▁2007	-10.6342
tis	-10.6346
ปัญญา	-10.6346
เพีย	-10.6347
ลอนดอน	-10.6347
ich	-10.6349
มั่นคง	-10.635
ตเตอร์	-10.6352
New	-10.6355
▁Acid	-10.636
▁Electro	-10.6369
อยู่กับ	-10.6369
สอดคล้องกับ	-10.6369
เหล้า	-10.637
58)	-10.637
เคเบิ้ล	-10.637
ลูกไม้	-10.6373
เกต	-10.6373
340	-10.6376
you	-10.6379
▁รูปภาพและรูปภาพ	-10.6379
▁ทั้งนี้	-10.6382
สู	-10.6383
ที่ได้รับการ	-10.6383
ไมโครเวฟ	-10.6385
เพจ	-10.639
▁01:	-10.6393
wan	-10.6395
79)	-10.6398
serv	-10.64
อัลลอยด์	-10.6403
Drive	-10.6403
กเกอร์	-10.6406
ะพ	-10.6408
▁00:	-10.641
หยด	-10.641
ทบทวน	-10.6411
พิสูจน์	-10.6411
9%	-10.6412
▁องศาเซลเซียส	-10.6414
oul	-10.6416
▁000	-10.6416
83)	-10.6417
คําสั่งซื้อ	-10.6419
ประสาน	-10.6419
▁Non	-10.6422
004	-10.6426
ผสมผสาน	-10.6434
บทบาท	-10.6439
การออกกําลังกาย	-10.6441
โป๊กเกอร์	-10.6444
มุ่ง	-10.6444
สําหรับผู้ชาย	-10.645
อบอุ่น	-10.6451
สําหรับการใช้งาน	-10.6457
สมบูรณ์แบบ	-10.6459
อย่างมาก	-10.6463
yr	-10.6465
เน็ต	-10.6469
47)	-10.6471
เกาะสมุย	-10.6472
เกีย	-10.6475
HU	-10.6479
อนาคต	-10.648
run	-10.6481
nes	-10.6483
▁Single	-10.6485
อินเตอร์เฟซ	-10.6485
ผู้ใช้งาน	-10.6492
site	-10.6492
ในโลก	-10.6492
หัวนม	-10.6497
นักกีฬา	-10.6498
สําเร็จความใคร่	-10.6498
▁Dual	-10.65
แทง	-10.6503
tail	-10.6508
เลยนะ	-10.6509
-28	-10.651
204	-10.6515
การสมัคร	-10.6517
▁Jack	-10.6518
▁Industry	-10.6518
ป์	-10.652
เป็นอะไร	-10.6522
▁Siam	-10.6535
▁Policy	-10.6541
แม้ว่า	-10.6543
▁Ju	-10.6544
ฟูจิ	-10.6546
4.8	-10.6546
▁Pal	-10.6547
การแสดงผล	-10.6553
โดยทั่วไป	-10.6559
69)	-10.6562
พี่น้อง	-10.6563
table	-10.6564
430	-10.6566
ปีใหม่	-10.6577
ปลั๊กอิน	-10.6579
▁Ultra	-10.658
▁10000	-10.658
222	-10.6584
rent	-10.6587
ดีลักซ์	-10.6588
▁Slurry	-10.659
/10/	-10.6593
ําเนิดไฟฟ้าดีเซล	-10.6594
▁Oil	-10.6596
ฮัน	-10.6596
ถ้าคุณ	-10.66
มาตรา	-10.66
rate	-10.6602
XL	-10.6604
ลาว	-10.6606
ผู้ช่วย	-10.6608
มือสมัครเล่น	-10.6609
รายเดือน	-10.6609
สุ่ม	-10.6609
กระดาษแข็ง	-10.6615
▁UPS	-10.6618
โมเดล	-10.6624
▁Shin	-10.6624
แบตเตอรี่ลิเธียม	-10.6626
ยี่ห้อ	-10.6627
ปีก	-10.663
จอดรถ	-10.6637
▁FOR	-10.6639
โดยไม่มี	-10.664
band	-10.6641
โรล	-10.6641
พ้น	-10.6642
▁Store	-10.6642
ลิลลี่	-10.6644
▁Best	-10.6645
Xxx	-10.6646
JPY	-10.6652
ฮิต	-10.6654
หม้อน้ํา	-10.6654
สภา	-10.6655
เป็นเจ้าของ	-10.6662
ทะเลสาบ	-10.6663
กวาด	-10.6666
325	-10.6671
▁Forming	-10.6676
สามารถปรับแต่ง	-10.6678
ภัณฑ์	-10.668
เคลือบผิว	-10.668
ระดับสูง	-10.6681
เหมือง	-10.6682
ละเมิด	-10.6683
วินิจฉัย	-10.6685
▁NPK	-10.6688
92)	-10.6689
เป็นหนึ่งใน	-10.6689
ซ็อกเก็ต	-10.6693
185	-10.6693
โอนเงิน	-10.6694
cycl	-10.6703
AST	-10.6704
สําหรับลูกค้า	-10.6705
เลค	-10.6705
55)	-10.6705
นท์	-10.6711
สาธารณรัฐ	-10.6716
การเข้ารหัส	-10.6717
▁Garden	-10.672
และซัพพลายเออร์	-10.6721
ตื่นเต้น	-10.6723
การเข้า	-10.6725
ashi	-10.6727
ความลึก	-10.6732
ขนสัตว์	-10.6733
ไหม้	-10.6734
3.00	-10.6739
▁Gar	-10.6739
กลับบ้าน	-10.6748
ก่อนที่จะ	-10.6757
ไฮดรอลิ	-10.6759
ดั้งเดิม	-10.6765
▁ด้วยการ	-10.6766
ส่งมอบ	-10.6767
LAN	-10.6768
▁Rod	-10.677
การฝึก	-10.677
:21	-10.6771
หนีบ	-10.6772
เหล็กกล้าคาร์บอน	-10.6774
م	-10.6779
▁Ton	-10.678
ในสต็อก	-10.6781
ments	-10.6784
▁ทีนี้	-10.6785
berry	-10.6786
uni	-10.6788
▁Inn	-10.6788
▁Berries	-10.6789
ope	-10.6791
บอลลูน	-10.6796
แห่งนี้	-10.6797
ตํา	-10.6798
บุญ	-10.68
91)	-10.6802
core	-10.6805
โฟลเดอร์	-10.681
แท็กซี่	-10.6812
▁แผนผังเว็บไซต์	-10.6813
02)	-10.6813
▁(6)	-10.682
ได้อย่างง่ายดาย	-10.6822
▁99%	-10.6824
▁Sam	-10.6828
▁Wind	-10.6828
หลีกเลี่ยง	-10.683
เซ็กซ์	-10.6831
▁Jan	-10.6832
ตกลง	-10.6834
สําหรับรถยนต์	-10.6836
▁Instagram	-10.6837
81)	-10.6837
gon	-10.6837
ผลิตภัณฑ์ของเรา	-10.6839
เป็นกรรมสิทธิ์	-10.6844
ที่ไม่ซ้ํากัน	-10.6847
และเครื่องดื่ม	-10.6848
เฮาส์	-10.685
▁MSDS	-10.685
▁University	-10.6853
อุดม	-10.6854
157	-10.6855
ปาร์ตี้	-10.6856
ยังสามารถ	-10.6862
โปรตุเกส	-10.6864
อนุญาตให้	-10.6864
-300	-10.6865
การกําหนดค่า	-10.6867
ข้อศอก	-10.6867
็ง	-10.6869
ตกปลา	-10.6869
▁1.8	-10.687
ที่ผ่านการ	-10.6872
ไหว	-10.6872
แอปพลิเคชัน	-10.6873
เสน่ห์	-10.6874
ทนความร้อน	-10.6874
head	-10.688
ชีส	-10.688
cher	-10.6883
202	-10.689
หินอ่อน	-10.6892
ลิปสติก	-10.6894
ball	-10.6896
▁1%	-10.6899
▁dis	-10.69
ลีย์	-10.6903
ก็มี	-10.6906
▁ถวาย	-10.6912
▁ไม่ว่า	-10.6915
อัพเกรด	-10.6919
TU	-10.6921
ที่ต้อง	-10.6924
การใช้พลังงาน	-10.6926
anta	-10.6926
▁บีดีเอสเอ็ม	-10.6928
แปด	-10.6928
ที่รัก	-10.6929
ชีพ	-10.6935
เฟส	-10.6935
3.1	-10.6936
oid	-10.6938
กําลังมองหา	-10.6939
ปรึกษา	-10.6941
CHI	-10.6941
บางคน	-10.6943
gl	-10.6943
ยอม	-10.6948
▁Life	-10.6949
▁3/4	-10.6952
เงินตรา	-10.6957
▁Temp	-10.6957
len	-10.6961
84)	-10.6963
78)	-10.6965
การเก็บรักษา	-10.6966
88)	-10.6968
เพน	-10.6968
ora	-10.6969
▁หนุ่มใส	-10.6971
bre	-10.6971
การอ่าน	-10.6974
PCS	-10.6976
▁Station	-10.6982
ความลับ	-10.6984
เต็นท์	-10.6989
เย็บปักถักร้อย	-10.6989
▁News	-10.6999
พุทธ	-10.7
RL	-10.7
ยุทธ	-10.7003
▁Pen	-10.7004
มิติ	-10.7005
เชลล์	-10.7007
▁Time	-10.7011
▁ดูเถิด	-10.7011
รับสัญญาณ	-10.7012
เพล็กซ์	-10.7013
▁Filter	-10.7017
±	-10.7019
สูญเสีย	-10.7024
host	-10.7025
ions	-10.7026
web	-10.7027
▁อีโม	-10.7027
soft	-10.7029
เอกลักษณ์	-10.7031
สท์	-10.7031
ละลายน้ํา	-10.7032
แอด	-10.7032
ิ้ล	-10.7035
▁Casino	-10.7035
(12	-10.7037
อ่านต่อ	-10.7039
คาเฟ่	-10.7041
เดร	-10.7043
สร้อยคอ	-10.7044
▁มันไม่	-10.7046
á	-10.7048
บ่งชี้	-10.7048
▁ผมสีบรูเนท	-10.7048
▁เฮนไต	-10.7048
last	-10.7048
▁ชื่อแบรนด์	-10.7049
ความสนใจ	-10.7049
yama	-10.7052
ไม่ดี	-10.7053
โกหก	-10.7054
น้ําผึ้ง	-10.7054
▁Solution	-10.7058
▁Neoprene	-10.7062
hong	-10.7068
3.6	-10.7068
พื้นหลัง	-10.7071
▁อะไรนะ	-10.7078
หมุด	-10.7079
เกลียด	-10.7079
ความทนทาน	-10.708
ยูเครน	-10.7081
ฎ	-10.7081
สกรีน	-10.7083
น้ําร้อน	-10.7083
▁เครื่องผสม	-10.7086
เทปกาว	-10.7086
▁คุณอยู่ที่นี่	-10.7087
น้องชาย	-10.7092
▁CAT	-10.7095
ติ้ง	-10.7097
ไฮโดรลิค	-10.71
ต้องทํา	-10.71
ทางเข้า	-10.7101
คืนเงิน	-10.7101
อนามัย	-10.7103
▁OD	-10.7104
▁128	-10.7111
198	-10.7116
-35	-10.7117
กลิ้ง	-10.7118
แอนด์	-10.7119
▁หวัดดี	-10.712
89)	-10.7122
ept	-10.7124
อินฟราเรด	-10.7124
▁VR	-10.7125
ทีน	-10.7126
บุฟเฟ่ต์	-10.7131
93)	-10.7132
ject	-10.7136
สําหรับผู้หญิง	-10.7136
iso	-10.7137
แผ่นหลังคา	-10.7138
งดงาม	-10.7138
และเทคโนโลยี	-10.7138
หาคู่	-10.7139
เออร์	-10.714
ester	-10.7141
เวิลด์	-10.7141
(9	-10.7142
▁Hong	-10.7143
▁Yo	-10.7143
ินทร์	-10.7143
▁NT	-10.7143
สม่ําเสมอ	-10.7148
005	-10.7149
▁Professional	-10.7149
ria	-10.7149
ชิ้นส่วนอะไหล่	-10.7149
hua	-10.7149
ความบันเทิง	-10.7149
ตรี	-10.7152
type	-10.7155
ด้วยเลเซอร์	-10.7157
เต้นรํา	-10.7159
ipper	-10.716
เอน	-10.7162
มณฑล	-10.7166
ough	-10.7172
▁Industrial	-10.7176
▁ชาวอาหรับ	-10.7177
▁Patch	-10.7179
โชค	-10.7179
เบร	-10.718
ism	-10.7185
610	-10.7186
สหภาพยุโรป	-10.7187
เม็กซิโก	-10.719
ปูน	-10.7192
oon	-10.7193
▁เออ	-10.7196
520	-10.7202
-23	-10.7203
ira	-10.7203
พวกนี้	-10.7208
ตํานาน	-10.7208
ตามคําขอ	-10.7209
ถุงพลาสติก	-10.7211
135	-10.7212
แทร	-10.7216
การออก	-10.7221
lum	-10.7223
ขนาดกลาง	-10.7224
โตร	-10.7229
aya	-10.7239
ว่ามัน	-10.7242
๒	-10.7249
การซื้อ	-10.7252
▁Linear	-10.7252
▁98%	-10.7258
▁WH	-10.7263
TRA	-10.7263
ดับ	-10.7265
ato	-10.7266
บัญชา	-10.7267
ต่างหาก	-10.7268
ส่อง	-10.727
460	-10.7273
▁คู่รัก	-10.728
สุขุมวิท	-10.7285
stone	-10.7285
▁MOQ	-10.7286
วอน	-10.7286
▁Vo	-10.7287
บาร์บีคิว	-10.7288
บูรณาการ	-10.7293
แฮม	-10.7297
unk	-10.7297
cker	-10.7299
พรุ่งนี้	-10.7306
mov	-10.7314
ลด์	-10.7316
รองเท้าแตะ	-10.7317
▁Bur	-10.7318
▁KB	-10.7323
PLA	-10.7326
0.8	-10.7327
▁Big	-10.7335
สนุกกับ	-10.7336
1200	-10.7338
ส่งสัญญาณ	-10.7339
ผี	-10.734
▁2500	-10.734
ล่อง	-10.7341
ทริ	-10.7342
อยู่บน	-10.7343
สลิง	-10.7344
hor	-10.7344
ฮอร์โมนเพศชาย	-10.7345
ได้รับอนุญาต	-10.7345
▁Gear	-10.7347
ล็อต	-10.7348
ในกล่อง	-10.7354
โตโยต้า	-10.7355
หลอดเลือด	-10.7359
▁Rose	-10.736
ไม่กี่	-10.736
คริสต์	-10.736
ปริศนา	-10.7363
เรส	-10.7368
คุณค่า	-10.7369
л	-10.737
oil	-10.737
▁Off	-10.7381
ยิม	-10.7382
▁Bri	-10.7383
อุโมงค์	-10.7384
ยอดขาย	-10.7389
var	-10.739
94)	-10.7391
Print	-10.7392
เกล	-10.7394
กรัม	-10.7395
ขาตั้ง	-10.7397
เร็วๆ	-10.7402
OC	-10.7404
▁Mount	-10.7404
ฮีโร่	-10.7405
โมเสค	-10.7405
77)	-10.7408
พอใจ	-10.7408
ที่ทํางาน	-10.7408
well	-10.7411
ความเห็น	-10.7414
threesome	-10.7416
▁ขอบใจ	-10.7417
อาเซียน	-10.742
ถู	-10.742
1.6	-10.7421
กว้างขวาง	-10.7422
▁Program	-10.7422
บรรดา	-10.7422
ท่ามกลาง	-10.7423
ด้วยตัวเอง	-10.7427
▁แม	-10.7429
สัมพันธ์	-10.7437
▁Cnc	-10.744
เทอร์โม	-10.7441
7.0	-10.7445
พวกนั้น	-10.7446
510	-10.7447
▁Touch	-10.745
ตัวเก็บประจุ	-10.7452
Ningxia	-10.7454
ants	-10.7456
เมื่อวันที่	-10.7458
▁Add	-10.746
234	-10.746
▁mature	-10.7462
▁น้ําหนักสุทธิ	-10.7463
208	-10.7463
เช็คอิน	-10.7464
สายพันธุ์	-10.7468
ผู้จัดการ	-10.7468
ม์	-10.7469
ประชากร	-10.747
กิจ	-10.7472
▁SunPorno	-10.7473
ความน่าเชื่อถือ	-10.7476
ซีซั่น	-10.7477
ดาร์	-10.748
▁08:00	-10.7483
164	-10.7487
วันพฤหัสบดี	-10.7487
▁Hosting	-10.7489
ช่องปาก	-10.7491
chan	-10.7498
ศุลกากร	-10.7498
▁Twitter	-10.7498
เชื้อชาติ	-10.75
96)	-10.7503
เดรส	-10.7503
▁VS	-10.7504
ATE	-10.7504
▁Reg	-10.7507
ในห้อง	-10.7508
301	-10.751
ไนท์	-10.7514
AO	-10.7514
โส	-10.7517
ola	-10.7518
▁Angel	-10.7521
IX	-10.7521
การนํา	-10.7525
»	-10.7527
ในขณะนี้	-10.7531
ให้เรา	-10.7533
▁นี่เป็น	-10.7534
จัดตั้ง	-10.7535
▁Scr	-10.7535
กระเช้า	-10.7535
▁Grade	-10.7537
กล้องวงจรปิด	-10.7538
ตระกูล	-10.7538
ความรับผิดชอบ	-10.7539
กวดวิชา	-10.7542
ison	-10.7542
▁Bal	-10.7542
ประการ	-10.7544
แอส	-10.7545
▁Head	-10.7546
แพร่	-10.7546
ทวีป	-10.7548
▁15%	-10.7549
มัลติ	-10.7552
▁cnc	-10.7555
777	-10.7561
การเพิ่ม	-10.7562
LY	-10.7569
ยาเสพติด	-10.7571
อวกาศ	-10.7571
พาร์ทเมนท์	-10.7571
▁Sur	-10.7571
▁Solar	-10.7573
ทุกประเภท	-10.7578
▁Over	-10.7579
▁ฉันก็	-10.7583
ดูดซับ	-10.7584
ช็อคโกแลต	-10.7585
สิ่งนี้	-10.759
▁Sale	-10.7593
cum	-10.7594
สหรัฐฯ	-10.7596
ที่ถูกต้อง	-10.7597
ค่าย	-10.7605
4%	-10.7606
203	-10.7606
192	-10.761
ซัมซุง	-10.7611
ออกอากาศ	-10.7611
TX	-10.7611
gmail	-10.7613
ไพร	-10.7613
8.0	-10.7617
การผ่าตัด	-10.7618
กังหัน	-10.7618
Org	-10.7619
ยิ้ม	-10.7625
ภรรยา	-10.7627
zer	-10.763
ไพ่	-10.7632
ห้องครัว	-10.7633
ศักยภาพ	-10.7636
370	-10.7638
▁1.1	-10.7641
เครื่องสูบน้ํา	-10.7642
กระเทียม	-10.7644
บรรยาย	-10.7645
ฟิน	-10.7647
น่ากลัว	-10.7648
▁Slot	-10.7652
▁SEM	-10.7655
บริการหลังการขาย	-10.7656
wood	-10.7658
พรี	-10.766
ฤ	-10.7661
▁Contact	-10.7662
ลอด	-10.7663
คุ้มค่า	-10.7671
ไถ	-10.7671
ไดรเวอร์	-10.7673
free	-10.7674
มุ่งเน้น	-10.7677
▁Han	-10.7681
▁0.01	-10.7681
เพื่อดู	-10.7684
122	-10.7684
ปะเก็น	-10.7695
ชวน	-10.7698
▁your	-10.7699
▁Lin	-10.7702
คลอไรด์	-10.7702
▁Body	-10.7703
เหล็กคาร์บอน	-10.7704
ชัก	-10.7705
กระโดด	-10.7706
с	-10.771
PORT	-10.7715
▁25%	-10.7716
รายวัน	-10.7717
มีส่วนร่วม	-10.7718
▁ตัวแปลง	-10.7724
แนวโน้ม	-10.7724
ที่ทําให้	-10.7728
ทางด่วน	-10.773
ทับ	-10.7735
เลียน	-10.7735
▁Engine	-10.7735
/09/	-10.7736
▁Access	-10.7736
▁Flex	-10.7737
▁Ningbo	-10.7739
▁สั่งขั้นต่ํา	-10.7739
year	-10.7742
▁อย่างไรก็ตาม	-10.7743
เจอกัน	-10.7746
พัสดุ	-10.775
นิวซีแลนด์	-10.775
▁Rental	-10.7758
เป็นส่วนหนึ่งของ	-10.7761
ด้วยระบบ	-10.7764
JP	-10.7768
รวมกัน	-10.7768
ค้าปลีก	-10.7769
ประเด็น	-10.7769
▁Display	-10.7769
129	-10.7769
▁Alex	-10.7771
จะทําให้	-10.7772
▁Gate	-10.7772
▁Phone	-10.7777
▁มิได้	-10.7783
4.3	-10.7783
ซีดี	-10.7784
▁Word	-10.7785
จักร	-10.7787
แบล็ค	-10.7787
▁ฉบับที่	-10.7788
▁Grand	-10.7789
315	-10.7793
IK	-10.7795
รับผิดชอบ	-10.7797
▁Heat	-10.7797
ตรงกับ	-10.7798
โกรธ	-10.7802
โจว	-10.7808
ไบโอ	-10.781
1-2	-10.7811
▁Pipe	-10.7811
▁Log	-10.7812
ชาม	-10.7813
สํานัก	-10.7814
สารละลาย	-10.7814
เกราะ	-10.7817
▁Sch	-10.7821
▁บทนํา	-10.7821
▁Sand	-10.7822
nce	-10.7822
ลดน้ําหนัก	-10.7823
▁1.4	-10.7824
แผ่นโลหะ	-10.7824
▁Duty	-10.7826
ในการใช้งาน	-10.7833
บรู	-10.7834
bang	-10.7835
ika	-10.7835
ตุ๊กตา	-10.7836
540	-10.784
วันจันทร์	-10.7842
เทียบเท่า	-10.7848
ยอง	-10.785
390	-10.785
uz	-10.7851
โฮสต์	-10.7852
345	-10.7853
ฤทธิ์	-10.7854
เยื่อ	-10.7855
เชอร์	-10.7856
2.2	-10.7857
vol	-10.7857
※	-10.7858
ศักดิ์	-10.7858
Host	-10.7858
ลิ้น	-10.786
ที่ไม่ใช่	-10.7861
เข้ารหัส	-10.7862
บัว	-10.7864
▁Show	-10.7865
สมัครเล่น	-10.7872
ฮอกไกโด	-10.7873
▁RJ	-10.7873
lone	-10.7873
ดีๆ	-10.7875
▁Real	-10.7875
opp	-10.7879
สามารถเข้าถึง	-10.788
trol	-10.7882
555	-10.7883
pot	-10.7885
แลน	-10.7886
▁สมัครสมาชิก	-10.7886
、	-10.7888
ener	-10.789
▁Manufacturing	-10.7891
โมง	-10.7892
บีช	-10.7894
▁เครื่องอ่าน	-10.7896
ไวท์	-10.7902
คิง	-10.7902
▁mod	-10.7902
ที่แนะนํา	-10.7904
โค้ด	-10.7904
right	-10.7912
ทูต	-10.7913
163	-10.7914
แกรม	-10.7915
ฮาร์	-10.7916
ผัง	-10.7919
lash	-10.7919
วิญญาณ	-10.7921
เด็กๆ	-10.7921
▁Anal	-10.7923
2.6	-10.7924
สองคน	-10.7926
▁Tour	-10.7928
เจ๋ง	-10.7929
▁School	-10.7929
ปลอก	-10.7933
131	-10.7934
▁Brand	-10.7939
333	-10.7939
เซ็กซี่	-10.794
เหนียว	-10.7944
▁Connector	-10.7945
ความหลากหลาย	-10.7945
ผลการดําเนินงาน	-10.7946
คูณ	-10.7947
แจ็คเก็ต	-10.7949
เพรส	-10.7949
แบบจําลอง	-10.7954
ความถี่สูง	-10.7955
▁Wood	-10.7955
พร้อมกับ	-10.7959
สูงขึ้น	-10.7963
เครื่องส่งสัญญาณ	-10.7964
มือสอง	-10.7966
การโฆษณา	-10.7967
ระบาย	-10.7968
▁นั่นมัน	-10.7969
ปาร์ค	-10.7969
ถั่วเหลือง	-10.7971
พร้อมใช้งาน	-10.7973
เซส	-10.7978
คูล	-10.7978
ลาร์	-10.798
▁เวลาเดินทาง	-10.7981
▁Net	-10.7982
เข้าสู่ระบบ	-10.7982
แบบไร้สาย	-10.7983
uro	-10.7985
ชัด	-10.7986
ซัง	-10.7988
มีผลบังคับใช้กับ	-10.7989
▁รับพลังมาจาก	-10.7989
▁Gi	-10.7992
▁3.2	-10.7994
max	-10.8
นอร์	-10.8
ปฏิบัติตาม	-10.8
สารเติมแต่ง	-10.8001
อนุภาค	-10.8002
โน่	-10.8011
การบรรจุ	-10.8015
▁Tower	-10.8016
▁Mal	-10.8016
EST	-10.8017
ization	-10.8018
RF	-10.8018
ward	-10.8018
▁Factory	-10.802
▁Fire	-10.8022
แชมป์	-10.8023
เคีย	-10.8024
umb	-10.8027
iver	-10.8027
▁Update	-10.8028
ห้องสมุด	-10.8028
เหนี่ยวนํา	-10.8031
▁Xin	-10.8035
มาก่อน	-10.8035
▁Masterbatch	-10.8039
home	-10.8043
4.0	-10.8048
คุ้ม	-10.805
เสียงรบกวน	-10.805
ส่งเสริมการขาย	-10.8052
▁BTS	-10.8052
ถ่ายทอด	-10.8056
มิว	-10.8058
ช็อกโกแลต	-10.8061
สุภาพสตรี	-10.8061
ราคาที่แข่งขัน	-10.8064
hydro	-10.8066
ออนไลน์ฟรี	-10.8067
แข่งรถ	-10.8074
2012	-10.8075
South	-10.8081
ครั้งเดียว	-10.8081
Sets	-10.8082
▁Good	-10.8082
สวมใส่	-10.8084
▁100,000	-10.8084
ove	-10.8086
ski	-10.8091
สุญญากาศ	-10.8092
some	-10.8095
หลง	-10.8095
▁ฉันคิดว่า	-10.8097
เบนซิน	-10.81
แบบอัตโนมัติ	-10.8102
▁Galaxy	-10.8103
ช็อป	-10.8109
สั่นสะเทือน	-10.8109
การจราจร	-10.8111
สวนสนุก	-10.8112
stat	-10.8115
ether	-10.8115
มีเครื่องมือที่	-10.8115
ดับเพลิง	-10.8123
▁และอื่นๆ	-10.8126
▁FX	-10.8126
แอคเคาท์	-10.8126
ดินสอ	-10.8127
สมรรถนะ	-10.8134
4,000	-10.8138
อาหารกลางวัน	-10.8138
แป้นพิมพ์	-10.814
▁คําถามที่พบบ่อย	-10.8142
ผู้บริโภค	-10.8146
และเทคนิคอื่น	-10.8146
actor	-10.8148
▁Flash	-10.815
พิกัด	-10.8151
cast	-10.8154
-240	-10.8155
iti	-10.816
ผลข้างเคียง	-10.8161
ไทยแลนด์	-10.8163
lli	-10.8163
เชฟ	-10.8163
167	-10.8164
test	-10.8164
▁Cross	-10.8166
▁Parts	-10.8169
รับสมัคร	-10.818
ของเราที่ชื่อ	-10.8181
คุกกี้ฉบับนี้	-10.8181
แว่น	-10.8182
▁Int	-10.8182
รวบรวมผ่านคุกกี้	-10.8184
▁อีกทั้งอธิบาย	-10.8184
▁ไปใช้อย่างไร	-10.8184
ว่าเรานํา	-10.8184
และปฏิบัติการโดย	-10.8188
206	-10.8188
เครื่องแต่งกาย	-10.8192
iya	-10.8195
1.7	-10.8196
▁ทูล	-10.82
ขวาง	-10.8201
216	-10.8203
▁GMP	-10.8207
ula	-10.8207
สําหรับผู้ใหญ่	-10.8208
แบบดั้งเดิม	-10.8212
แพน	-10.8213
ความแข็งแรงสูง	-10.8213
thailand	-10.8216
ประยุกต์	-10.8221
มากเลย	-10.8222
อินเทอร์เฟซ	-10.8227
▁1/4	-10.8232
เนอ	-10.8232
เซ็ต	-10.8236
321	-10.8237
▁TR	-10.8239
หอย	-10.8241
เสื้อกันฝน	-10.8242
อําเภอ	-10.8244
ื่	-10.8246
inder	-10.8247
ปอก	-10.8248
ธง	-10.8249
ทั่วประเทศ	-10.825
หมุนเวียน	-10.8253
ique	-10.8257
ภารกิจ	-10.8262
▁Pattaya	-10.8262
ฮู	-10.8262
เทม	-10.8263
196	-10.8263
สาทร	-10.8266
สมบัติ	-10.8267
เครื่องอัดอากาศ	-10.8269
226	-10.8274
-90	-10.8274
ความเป็นจริง	-10.8275
197	-10.8276
ไปถึง	-10.8276
ทุ่ง	-10.8277
▁Acc	-10.8277
178	-10.8279
ผู้ชม	-10.8281
ฟีด	-10.8282
▁Call	-10.8286
ไม่มีรอยต่อ	-10.8289
sale	-10.8291
oku	-10.8291
hao	-10.8297
นํามา	-10.8298
นั่นแหละ	-10.83
ค่อย	-10.83
▁โปรดติดต่อที่	-10.8301
จด	-10.8303
เพื่อรับ	-10.8304
tex	-10.8305
ชี้	-10.8306
มะเขือเทศ	-10.8308
เยาว์	-10.8312
กรุงเทพมหานคร	-10.8313
▁Laser	-10.8313
นําแสง	-10.8313
emo	-10.8315
อุปสรรค	-10.8316
lie	-10.8317
080	-10.8318
อาณาจักร	-10.832
▁Love	-10.8321
▁Activ	-10.8321
lam	-10.8321
สเตียรอยด์	-10.8321
158	-10.8324
พวงมาลัย	-10.8324
คืนนี้	-10.8324
nite	-10.8325
ดําเนินการตามที่	-10.8328
กู	-10.8328
ที่เชื่อถือได้	-10.8329
▁เวลาทําการ	-10.833
850	-10.833
▁พร้อมด้วย	-10.8331
sky	-10.8334
179	-10.8335
ใบพัด	-10.8335
▁Code	-10.8336
เรียล	-10.8336
จ๊ะ	-10.8343
404	-10.8344
ดําเนินธุรกิจ	-10.8347
ริค	-10.8349
การเปิด	-10.8351
พิซซ่า	-10.8351
เอ๋ย	-10.8351
188	-10.8352
omb	-10.8352
fit	-10.8353
ระบุไว้ในหัวข้อ	-10.8359
▁Outdoor	-10.836
▁และท่านไม่	-10.836
เอกชน	-10.8361
▁เร็วเข้า	-10.8367
cul	-10.8367
ology	-10.8368
ในเมนูตั้งค่าของ	-10.8371
▁ว้าว	-10.8371
ใช้ยกเลิก	-10.8372
ไลฟ์	-10.8374
ห้องนั่งเล่น	-10.8375
หากไม่ต้องการให้	-10.8375
▁1800	-10.8379
iva	-10.8379
ปฐม	-10.8383
ผู้มี	-10.8386
พริก	-10.8387
0.3	-10.8389
4.1	-10.8389
ปัด	-10.839
177	-10.8391
PU	-10.8391
ศูนย์กลาง	-10.8393
erry	-10.8396
็ต	-10.8397
ขอบเขตอื่น	-10.8397
ปักกิ่ง	-10.8399
ปิโตรเลียม	-10.8399
▁Zhong	-10.8399
machine	-10.8403
izing	-10.8404
312	-10.8404
ห้องเรียน	-10.8405
จองห้องพัก	-10.8407
การ์เด้น	-10.8409
กระเทย	-10.841
เต็มไปด้วย	-10.8411
คลอ	-10.8412
บางนา	-10.8413
จาร	-10.8415
จุ่ม	-10.8417
แม่เหล็กไฟฟ้า	-10.8418
zy	-10.8419
▁that	-10.842
▁Ref	-10.8425
วรรณ	-10.8429
1:00	-10.843
ไฮโดร	-10.8434
ปลุก	-10.8436
▁Carbon	-10.8436
แอพพลิเคชั่น	-10.8438
OB	-10.8439
กระแสไฟฟ้า	-10.8439
▁SSD	-10.844
ตลอดเวลา	-10.8441
เบราว์เซอร์	-10.845
เจาะรู	-10.8451
▁365	-10.8452
ประดับ	-10.8454
etting	-10.8456
มติ	-10.8457
เด็ด	-10.8457
▁creampie	-10.8458
©	-10.8458
base	-10.8459
มรดก	-10.8462
กับฉัน	-10.8463
จ่ายเงิน	-10.8463
▁Suite	-10.8465
ควบ	-10.8466
บูม	-10.847
ราด	-10.8471
▁SUS	-10.8472
▁Screen	-10.8474
▁มันก็	-10.8475
OO	-10.8476
กระบวนการผลิต	-10.8479
หมายการค้า	-10.8479
จิตใจ	-10.848
จัดแสดง	-10.8483
▁WPC	-10.8484
คุณจะได้รับ	-10.8485
▁Fabric	-10.8486
▁Glass	-10.8486
▁(7)	-10.8486
189	-10.8489
utter	-10.8489
QS	-10.8489
▁Corporation	-10.849
▁NP	-10.8491
andro	-10.8493
การปฏิบัติ	-10.8493
chlor	-10.8497
เก็บข้อมูล	-10.8498
(11	-10.85
list	-10.8501
ขัน	-10.8501
▁Vape	-10.8502
ลัน	-10.8505
▁ป้า	-10.8507
หลายคน	-10.8512
zu	-10.8513
▁Management	-10.8514
food	-10.8515
อนุพันธ์	-10.8515
ขายร้อน	-10.8517
0-2	-10.8524
QU	-10.8524
▁Outlook	-10.8525
คําอธิบาย	-10.8526
16949	-10.8528
▁ไม่นะ	-10.8529
หวังว่า	-10.853
980	-10.8531
ผ้าไหม	-10.8533
680	-10.8535
เสมือน	-10.8538
มาสเตอร์	-10.8538
ของเรามี	-10.8539
ل	-10.8541
ห้าง	-10.8542
ปฏิทิน	-10.8543
ตัวละคร	-10.8545
Connect	-10.8546
660	-10.8546
พยากรณ์	-10.8549
้นท์	-10.855
ปิ้ง	-10.8551
บรา	-10.8551
กระแทก	-10.8552
ผลตอบแทน	-10.8557
อัญมณี	-10.8557
▁Euro	-10.856
ฝูง	-10.8561
▁Rubber	-10.8561
▁May	-10.8563
จากโรงงาน	-10.8565
▁Clamp	-10.8569
แอมป์	-10.857
18001	-10.8573
บัณฑิต	-10.8574
เวลาทํางาน	-10.8574
คิดถึง	-10.8577
ปฏิกิริยา	-10.8578
พาร์	-10.8579
ทุกท่าน	-10.8579
ฆ	-10.858
▁Wheel	-10.8582
▁480	-10.8584
▁ATM	-10.8584
ยุติธรรม	-10.8586
147	-10.8586
▁desi	-10.8587
▁TFT	-10.8588
▁Watch	-10.8589
ITE	-10.859
▁Snap	-10.859
โดดเด่น	-10.8592
ดีวีดี	-10.8593
ด้ง	-10.8593
วงแหวน	-10.8594
ยุง	-10.8594
การบริหารจัดการ	-10.8599
ความเร็วในการ	-10.8601
▁ราคาเริ่มต้น	-10.8602
ไร้รอยต่อ	-10.8606
▁แท็ค	-10.8606
อิฐ	-10.8606
EY	-10.8607
รีดเย็น	-10.861
ที่ปลอดภัย	-10.861
แต้ม	-10.861
อาหรับ	-10.861
EI	-10.8613
1.4	-10.8613
ทริป	-10.8614
การติดตาม	-10.8615
▁1-2	-10.8616
ฟู้ด	-10.8623
▁URL	-10.8625
เพอร์	-10.8628
▁ความนิยม	-10.8631
การลงทะเบียน	-10.8636
2014	-10.8639
มีให้เลือก	-10.8639
▁Nan	-10.8641
เกียวโต	-10.8641
	-10.8642
RU	-10.8643
ห่างจาก	-10.8644
แรงบันดาลใจ	-10.8646
Xhamster	-10.8646
การทดลอง	-10.8649
หลบ	-10.865
แคมเปญ	-10.865
แบบดิจิตอล	-10.865
ทังสเตนคาร์ไบด์	-10.8655
▁EU	-10.8657
▁comp	-10.866
4.4	-10.8661
▁Western	-10.8662
ซอย	-10.8666
ลายนิ้วมือ	-10.8666
ต้องการที่จะ	-10.8668
ะฐ	-10.8668
face	-10.8669
เข่า	-10.8674
2.4	-10.8677
เมาส์	-10.8678
▁Sky	-10.868
▁(10)	-10.868
หมาก	-10.8685
บํารุง	-10.8688
โกจิ	-10.8694
▁8.1	-10.8696
น่าทึ่ง	-10.8699
050	-10.87
ทุ่ม	-10.8703
▁เชียร์ลีดเดอร์	-10.8703
ลําแสง	-10.8708
สแกนเนอร์	-10.8709
149	-10.8712
▁10.00	-10.8715
จราจร	-10.8715
ทัศน	-10.8715
หนอง	-10.8717
▁Arm	-10.8719
ในอนาคต	-10.8721
ที่โดดเด่น	-10.8724
สงบ	-10.8727
▁Land	-10.8731
▁2006	-10.8734
เฟอร์รี่	-10.8734
/11/	-10.8735
ผมบลอนด์	-10.8738
μ	-10.8739
ปีศาจ	-10.8739
สารสกัดจาก	-10.8751
เชียงราย	-10.8752
hel	-10.8755
▁Description	-10.8756
จะช่วย	-10.8757
ไม่ควร	-10.8757
LAND	-10.8759
▁Heavy	-10.876
▁ฉันมี	-10.8763
เศร้า	-10.8764
▁550	-10.8768
3.8	-10.8768
พบว่า	-10.8769
โกล	-10.8771
Sec	-10.8774
หน้าอก	-10.8776
ities	-10.8776
บันเทิง	-10.8779
▁กุหลาบแดง	-10.8782
arch	-10.8783
เรื่อย	-10.8784
เมมเบรน	-10.8792
พฤ	-10.8795
€	-10.8796
เสิร์ฟ	-10.8797
▁interDidactica	-10.8797
osis	-10.8797
ที่ดีเยี่ยม	-10.88
JA	-10.8801
sets	-10.8802
วินเทจ	-10.8802
บาป	-10.8804
เมื่อเทียบกับ	-10.8805
▁Site	-10.8807
kan	-10.8814
lia	-10.8815
เคล	-10.8815
อินเวอร์เตอร์	-10.8817
▁Flow	-10.8819
เรืองแสง	-10.8821
▁Flat	-10.8823
▁ปตท	-10.8825
ที่มีสีสัน	-10.8825
▁Pure	-10.8826
▁2005	-10.8827
▁Ext	-10.8828
lb	-10.8831
Studio	-10.8831
▁MPEG	-10.8834
▁Bai	-10.8835
▁CFD	-10.8835
▁sl	-10.8836
อบสวนเพิ่มรถเข็น	-10.8841
ซัพพลาย	-10.8841
ตกแต่งภายใน	-10.8842
▁Bed	-10.8842
เครื่องวัด	-10.8852
▁Paint	-10.8856
0.4	-10.8858
อยู่ใกล้	-10.8858
อยู่นี่	-10.886
ชื่อว่า	-10.8862
งานศิลปะ	-10.8864
▁คุณกําลัง	-10.887
▁Security	-10.8871
▁GBP	-10.8874
แข็งแกร่ง	-10.8875
470	-10.8878
▁Vol	-10.888
เพาะกาย	-10.888
ศิ	-10.8883
ดิส	-10.8883
▁เครื่องตรวจจับ	-10.8883
อีกแล้ว	-10.8884
สิทธิพิเศษ	-10.8884
อัตราการ	-10.8885
มีความเชี่ยวชาญ	-10.8885
แรงกระแทก	-10.8885
ดิสนีย์	-10.8887
0.000	-10.889
ศูนย์การค้า	-10.8891
เตะ	-10.8897
1.8	-10.8903
แอพลิเคชัน	-10.8904
¥	-10.8908
ت	-10.8908
▁Bluetooth	-10.8908
rag	-10.8908
พารามิเตอร์	-10.8909
เส้นผม	-10.8912
к	-10.8912
ไข	-10.8915
อาหารสัตว์	-10.8916
ทึบ	-10.8916
ธุรกรรม	-10.8916
▁ร้านค้าปลีก	-10.8917
มีโอกาส	-10.8918
ถือว่า	-10.8922
▁ใจเย็น	-10.8924
อย่างยิ่ง	-10.8924
คนไทย	-10.8928
▁ว่าไง	-10.8928
มากๆ	-10.8929
ผ้าม่าน	-10.893
▁ฉันไม่ได้	-10.8931
▁นางฟ้า	-10.8931
ในกลุ่ม	-10.8932
ก็รู้	-10.8933
ไลฟ์สไตล์	-10.8934
มือจับ	-10.8934
การเขียน	-10.8936
▁Ann	-10.8942
anda	-10.8944
โอะ	-10.8945
▁มานี่	-10.8946
งานเลี้ยง	-10.8946
ENG	-10.8947
Benz	-10.8948
▁Meter	-10.8953
-70	-10.8956
เหยื่อ	-10.8958
เสียชีวิต	-10.8958
▁อ้อ	-10.8958
ตั้งใจ	-10.8961
▁POE	-10.8962
▁เครื่องเล่น	-10.8965
▁ไม่เอาน่า	-10.8966
each	-10.8967
trip	-10.8971
เชิงปฏิบัติการ	-10.8972
▁แก่แล้ว	-10.8973
ในเครือ	-10.8976
นี่คือ	-10.8977
▁แต่ฉัน	-10.8981
แหลม	-10.8982
▁Download	-10.8983
ฒ	-10.8987
▁Mercedes	-10.8987
▁DIY	-10.8989
ทําหน้าที่	-10.899
ข้อมือ	-10.899
ประจําตัว	-10.899
;#39;	-10.8991
การลด	-10.8991
je	-10.8992
480	-10.8992
put	-10.8994
ได้รับการออกแบบ	-10.8995
โรงงานของเรา	-10.8996
▁ชั	-10.9004
▁ข้อดีของ	-10.9004
iving	-10.9005
น้ําดื่ม	-10.9006
♪	-10.9008
219	-10.9009
ของตัวเอง	-10.901
ONE	-10.901
▁2.2	-10.901
ยับยั้ง	-10.9012
rn	-10.9014
MPa	-10.9015
209	-10.9016
แพค	-10.9021
174	-10.9022
ประติมากรรม	-10.9025
ทั้งหลาย	-10.9025
▁แซม	-10.9025
ตัวเชื่อมต่อ	-10.9028
อัพโหลด	-10.9037
เฟร	-10.9037
▁มือสมัครเล่นแน่	-10.9037
pad	-10.904
บอลวาล์ว	-10.904
๊ต	-10.904
อะไรกัน	-10.904
▁Services	-10.9042
530	-10.9046
aff	-10.9047
▁Geo	-10.9049
▁JIS	-10.9049
ทรมาน	-10.905
pdf	-10.9051
▁OHSAS	-10.9058
การต่อสู้	-10.9061
768	-10.9062
ใบเสนอราคา	-10.9065
วุฒิ	-10.9067
▁Electronic	-10.9068
รองพื้น	-10.9069
6,000	-10.9069
490	-10.907
▁WP	-10.9075
51%	-10.9076
▁(8)	-10.9077
▁เครื่องเคลือบ	-10.9079
การประเมิน	-10.9079
กัญชา	-10.9079
พวงกุญแจ	-10.9079
lab	-10.908
jp	-10.9081
pornstar	-10.9084
LOG	-10.9089
จอมเทียน	-10.9097
5.8	-10.9099
หลาน	-10.9099
เคารพ	-10.91
เป็นผู้นํา	-10.9102
ผ้าห่ม	-10.9105
ปริญญาตรี	-10.9105
ให้แน่ใจว่า	-10.9107
▁กรุณาติดต่อ	-10.9111
เรียบร้อย	-10.9112
▁Ten	-10.9112
แถม	-10.9113
สบายดี	-10.9117
ซุป	-10.9117
การกําจัด	-10.9117
▁Inflatable	-10.9117
บางครั้ง	-10.9118
▁วันหลังจาก	-10.9119
ระบบไฟฟ้า	-10.9119
แฟรง	-10.912
ผลึก	-10.9121
▁ผู้ติดต่อ	-10.9121
ense	-10.9124
โรมาเนีย	-10.9126
online	-10.9134
จัดอันดับ	-10.9136
▁เครื่องราง	-10.9138
▁1.3	-10.9142
mark	-10.9143
ล้า	-10.9143
การเจาะ	-10.9143
ใต้น้ํา	-10.9146
5.6	-10.9147
เป้สะพายหลัง	-10.9147
world	-10.9147
ไฮโดรเจน	-10.9148
โทรคมนาคม	-10.9149
277	-10.9149
สวนสาธารณะ	-10.9154
ไปทาง	-10.9156
เพียงพอ	-10.9157
176	-10.9161
เพื่อเพิ่ม	-10.9164
ขนดก	-10.9164
จดหมายข่าวจาก	-10.9164
โธ	-10.9167
→	-10.9167
เคลื่อนย้าย	-10.9169
Ω	-10.9173
ินเตอร์เนชั่นแนล	-10.9173
สลัด	-10.9174
▁แล้วคุณ	-10.9174
เคอร์	-10.9175
คําพูด	-10.9177
โดม	-10.9178
งบประมาณ	-10.9182
ระยอง	-10.9185
บุคลากร	-10.9185
中文	-10.9185
เอียง	-10.9185
บัน	-10.9187
เจีย	-10.9188
wall	-10.9192
แผ่นดินใหญ่	-10.9195
0.6	-10.9197
▁Java	-10.9198
โพรพิลีน	-10.9198
▁Drill	-10.9199
Mart	-10.92
▁Men	-10.92
620	-10.9201
เครื่องกล	-10.9202
เจ็บปวด	-10.9203
▁1,500	-10.9203
เครื่องใช้ไฟฟ้า	-10.9204
ซึ่งเป็น	-10.9204
water	-10.9204
บรรทุก	-10.9207
▁sub	-10.9208
▁Gets	-10.9209
boy	-10.9212
▁Pop	-10.9213
▁Sage	-10.9217
ครบวงจร	-10.9217
ที่เรียกว่า	-10.9219
คุณอาจ	-10.9219
ชง	-10.922
▁gets	-10.9222
tag	-10.9223
ถ่ายเทความร้อน	-10.9224
▁ข้อมูลอัปเดต	-10.9226
ssa	-10.9233
ชิ้นงาน	-10.9233
SHI	-10.9235
Singapore	-10.9237
▁Royal	-10.9237
พระผู้เป็นเจ้า	-10.9241
กิ้ง	-10.9244
elle	-10.9244
▁Get	-10.9247
็ท	-10.9249
▁HTML	-10.925
▁Fre	-10.925
แม้แต่	-10.9253
ต้องการรับอีเมล	-10.9254
สนิม	-10.9254
▁Fly	-10.9258
การกําหนด	-10.926
เว้น	-10.926
▁WIFI	-10.9262
มีเสถียรภาพ	-10.9263
ข้อความล่าสุดโดย	-10.9267
แผงควบคุม	-10.9268
ทําให้เกิด	-10.927
เกรดอาหาร	-10.927
รํา	-10.9272
▁อ้า	-10.9274
(14	-10.9274
oka	-10.9274
ศตวรรษ	-10.9275
group	-10.9275
ขนาดกะทัดรัด	-10.9277
▁OBD	-10.9279
ไนโตรเจน	-10.928
ชั่ง	-10.928
itter	-10.9281
SET	-10.9283
ฤดูใบไม้ร่วง	-10.9284
▁Floor	-10.9284
▁05:00	-10.9285
ร้องขอ	-10.9286
ule	-10.9288
อีพ็อกซี่	-10.9288
▁Kar	-10.929
กดปุ่ม	-10.9291
เฝ้า	-10.9292
ครั้งนี้	-10.9293
จอด	-10.9294
▁Enterprise	-10.9297
แท็บ	-10.9297
การเชื่อม	-10.9301
▁115	-10.9308
บาดเจ็บ	-10.931
▁Plate	-10.9312
wear	-10.9314
ศูนย์บริการ	-10.9315
ลิงก์	-10.9318
แก้ไขปัญหา	-10.9319
มีชื่อเสียง	-10.9319
▁ใช่แล้ว	-10.932
▁ฉันขอโทษ	-10.932
น้อยลง	-10.9322
mai	-10.9323
▁Optic	-10.9323
คราว	-10.9324
▁ฟรีสปิน	-10.9324
ตลาดหลักทรัพย์	-10.9326
▁Network	-10.9328
เพลิดเพลินกับ	-10.9329
625	-10.9331
เครื่องสําอางค์	-10.9338
ัฟ	-10.9341
ขับขี่	-10.9344
▁Sex	-10.9344
▁Lockout	-10.9345
MAN	-10.9349
การเชื่อมโยง	-10.935
UE	-10.9351
บํารุงผิว	-10.9354
เมฆ	-10.9355
ดอง	-10.9357
ดาดฟ้า	-10.9357
▁Trading	-10.9357
Direct	-10.9361
▁series	-10.9366
พาวเวอร์	-10.9367
บีเอ็มดับเบิลยู	-10.937
สีเงิน	-10.9376
880	-10.9377
PER	-10.9382
graph	-10.9384
กระสุน	-10.9384
field	-10.9384
▁เยซู	-10.9385
babes	-10.9389
ตั้งแต่เวลา	-10.9389
แอฟริกัน	-10.9392
หมัก	-10.9392
คุณลักษณะ	-10.9394
เอะ	-10.9396
การแจ้งเตือน	-10.9398
-150	-10.9399
▁Wifi	-10.9403
8.3	-10.9405
uku	-10.9407
ถิ่น	-10.9409
▁Rack	-10.941
พื้นดิน	-10.9411
สามารถใช้งานได้	-10.9422
▁720	-10.9422
สงวน	-10.9427
สนามเด็กเล่น	-10.9427
KIT	-10.9428
ฝีมือ	-10.9428
NET	-10.9429
เด็กซ์	-10.9429
ดีบุก	-10.9431
การถ่ายภาพ	-10.9435
สนุกสนาน	-10.9436
▁อับ	-10.9438
159	-10.9439
kgs	-10.944
กระเป๋าถือ	-10.9442
0-0	-10.9443
▁LINE	-10.9447
ค้อน	-10.9449
-01-	-10.9454
319	-10.9456
ขุดเจาะ	-10.946
rail	-10.9462
▁Gran	-10.9462
หม้อไอน้ํา	-10.9463
ความยืดหยุ่น	-10.9464
เคลือบด้วย	-10.9465
รัล	-10.9465
ethyl	-10.9467
ตั้งอยู่ที่	-10.947
▁ห้องอาหาร	-10.9471
▁เบอร์โทรศัพท์	-10.9481
วาล์วผีเสื้อ	-10.9482
▁สถานที่ตั้ง	-10.9482
9,000	-10.9484
คอนเสิร์ต	-10.9484
▁คุณครู	-10.9486
สต็อก	-10.9487
▁ชาวญี่ปุ่น	-10.9491
▁Twin	-10.9494
ปรับระดับ	-10.9495
สาระ	-10.9495
ธี	-10.9495
ยิว	-10.9496
วิจารณ์	-10.9496
พ์	-10.9497
other	-10.95
การขับขี่	-10.9501
พร้อมกัน	-10.9506
url	-10.9507
เปลวไฟ	-10.951
ที่รองรับ	-10.9517
ผิดปกติ	-10.9519
ครอส	-10.952
job	-10.9522
inch	-10.9526
▁micro	-10.9526
นาโกย่า	-10.9528
335	-10.9534
020	-10.9534
คําขอ	-10.9536
การเรียน	-10.9537
ปลดปล่อย	-10.9537
บุ๊ค	-10.9537
อิสราเอล	-10.9537
ป่วย	-10.9538
ปรัชญา	-10.9541
▁มิลลิกรัม	-10.9541
▁items	-10.9541
299	-10.9542
เสียงหัวเราะ	-10.9544
ตราสาร	-10.9549
▁Casting	-10.955
▁2002	-10.9551
กาม	-10.9551
แมท	-10.9552
อะคริลิค	-10.9552
318	-10.9554
▁ความบริสุทธิ์	-10.9554
ไซน์	-10.9556
760	-10.9556
เก่ง	-10.9559
unch	-10.956
cumshot	-10.9563
▁FOB	-10.9563
ซีรีย์	-10.9563
ที่พบ	-10.957
พี่ชาย	-10.9572
rac	-10.9572
กลืน	-10.9572
▁Night	-10.9573
▁Map	-10.9574
สตาร์ท	-10.9578
รีเลย์	-10.9581
355	-10.9583
ทุนจดทะเบียน	-10.9584
▁SEO	-10.9586
▁Diamond	-10.959
ทําตาม	-10.9591
207	-10.9591
217	-10.9592
▁Fuji	-10.9597
สุดๆ	-10.9597
ตัวแปร	-10.9598
IVE	-10.9598
เบี้ย	-10.9599
▁Pad	-10.9599
009	-10.9601
เลื่อย	-10.9604
บิว	-10.9606
เซอร์โว	-10.9606
ogen	-10.9607
พิการ	-10.9608
ฝึกอบรม	-10.961
พักอาศัย	-10.9614
เวิร์ค	-10.9616
เชื่อถือได้	-10.9616
▁Eva	-10.9617
เล็กๆ	-10.9617
live	-10.9617
ทรงกระบอก	-10.9624
▁เดี๋ยวก่อน	-10.9625
ELL	-10.9625
▁มิลลิลิตร	-10.9626
▁Low	-10.9631
ปฏิบัติงาน	-10.9635
ที่ทําจาก	-10.9636
vir	-10.9637
ครั้งล่าสุด	-10.9638
ผิวหน้า	-10.9638
อุทยาน	-10.9639
รู้ไหม	-10.964
194	-10.9641
▁Spring	-10.9642
ไม่ค่อย	-10.9642
เอนไซม์	-10.9643
ภาษาจีน	-10.9645
เนียม	-10.9646
เทอร์โบ	-10.9647
เวกเตอร์	-10.9648
เฉพาะอย่างยิ่ง	-10.9648
227	-10.9651
รถไฟใต้ดิน	-10.9651
275	-10.9652
japanese	-10.9652
▁Rfid	-10.9652
▁Cho	-10.9655
▁แผ่นพลาสติก	-10.9655
matic	-10.9663
ริช	-10.9665
heng	-10.9668
ฟุต	-10.9669
ดํารง	-10.9673
ปรุงรส	-10.9674
▁dildo	-10.9675
แสดงให้เห็น	-10.9675
▁$10	-10.9675
▁HDporn	-10.968
ด้านเทคนิค	-10.9682
▁Cast	-10.9684
สีทอง	-10.9691
พวกคุณ	-10.9692
▁ดาราหนังโป๊	-10.9693
ทรัพย์	-10.9693
▁บิดา	-10.9695
เปรียบ	-10.9696
ลูกค้าของเรา	-10.9705
ชนิดหนึ่ง	-10.9705
เช็ด	-10.9709
▁Ana	-10.971
จีบ	-10.9711
▁trans	-10.9711
-----	-10.9714
▁3-5	-10.9716
จาง	-10.972
ผู้เข้าร่วม	-10.972
หญิงสาว	-10.9722
ได้มั้ย	-10.9724
▁ป๊ะป๋า	-10.9724
1-5	-10.9725
ษา	-10.9727
ล่อ	-10.9727
-1000	-10.9729
ไอ้	-10.9735
9000	-10.9742
เอ็ด	-10.9743
▁บิกินี่	-10.9748
แถลง	-10.9751
▁Shijiazhuang	-10.9751
▁นอกจากนี้ยัง	-10.9753
ในขณะที่	-10.9755
▁Phuket	-10.976
8,000	-10.9761
เตียงใหญ่	-10.9765
เข้ากันได้กับ	-10.9767
มายัง	-10.9769
วิถี	-10.9769
ต่างหู	-10.9769
2008	-10.977
ครอง	-10.9774
หลังจากนั้น	-10.9774
▁Two	-10.9775
ทีฟ	-10.9775
ควบคุมอุณหภูมิ	-10.9775
▁เมื่อวาน	-10.9775
RY	-10.9776
14001	-10.9777
▁0.05	-10.9778
ไอออน	-10.9779
แคมป์	-10.9788
148	-10.9789
1500	-10.979
3.9	-10.9796
Play	-10.9797
ตรงนั้น	-10.9798
กําจัดขน	-10.9803
เธฃเธ	-10.9809
YU	-10.981
umi	-10.9811
ๆๆ	-10.9813
chat	-10.9813
ปรับเปลี่ยน	-10.9818
ศาสตราจารย์	-10.9819
269	-10.9819
ช่วยลด	-10.9821
ü	-10.9824
info	-10.9829
ความเข้าใจ	-10.983
PRO	-10.9831
317	-10.9833
▁USA	-10.9839
▁Case	-10.9841
ฮังการี	-10.9842
▁East	-10.9842
ปกครอง	-10.9842
isa	-10.9844
/03/	-10.9846
▁Price	-10.9847
เมื่อปี	-10.9847
สนามกีฬา	-10.9849
▁สเปค	-10.9851
▁พันล้าน	-10.9851
App	-10.9853
▁เจ้านาย	-10.9853
ello	-10.986
เยาวชน	-10.986
3.2	-10.986
1.3	-10.9861
และผู้จําหน่าย	-10.9864
ช้อป	-10.9864
พรรค	-10.9865
เบื้องต้น	-10.9869
212	-10.9873
เลขานุการ	-10.9874
▁Page	-10.9876
100%	-10.9882
ตีพิมพ์	-10.9882
ยิป	-10.9884
▁สาวๆ	-10.989
อึ	-10.9891
จอม	-10.9892
ได้รับความนิยม	-10.9892
ธานี	-10.9893
▁1600	-10.9896
ส่วนหนึ่ง	-10.9896
▁Skin	-10.9899
ก่อนหน้านี้	-10.9903
กวน	-10.9906
ของที่ระลึก	-10.991
posit	-10.991
▁Linux	-10.991
347	-10.991
ขาเข้า	-10.9911
เว็บไซต์นี้	-10.9915
ขี้	-10.9916
▁Gal	-10.9918
เยือน	-10.9919
▁Hospital	-10.9919
375	-10.9925
power	-10.9931
ผา	-10.9932
search	-10.9933
▁***	-10.994
น้ํามันหล่อลื่น	-10.9941
ชิมะ	-10.9944
▁น้ําเงิน	-10.9945
วอลล์เปเปอร์	-10.9947
หรือยัง	-10.9947
สกิน	-10.9947
▁Bang	-10.995
ลวดเชื่อม	-10.995
แค่ไหน	-10.9956
ยินดีต้อนรับ	-10.9957
186	-10.9957
Stock	-10.9965
chai	-10.9966
lux	-10.9968
211	-10.9972
BU	-10.9973
โบสถ์	-10.9975
2562	-10.9979
เทอ	-10.9979
กรองอากาศ	-10.998
▁18.00	-10.998
▁ดิลโด้	-10.9981
hui	-10.9987
ทุกข์	-10.9988
▁Square	-10.9988
▁West	-10.9991
cell	-10.9993
รัม	-11.0001
เม็ดพลาสติก	-11.0007
โรงสี	-11.0008
228	-11.0008
การสั่นสะเทือน	-11.0009
ซีเมนต์	-11.0011
▁Track	-11.0012
เสรี	-11.0012
คุยกัน	-11.0013
2-1	-11.0014
690	-11.0019
860	-11.0025
ฟักทอง	-11.0026
▁AUD	-11.0028
มังกร	-11.003
หัวหน้า	-11.0031
▁95%	-11.0031
▁Nov	-11.0033
▁ผมก็	-11.0033
▁Spandex	-11.0035
970	-11.0035
ได้รับการอนุมัติ	-11.0035
ต่างชาติ	-11.0038
▁NC	-11.0038
214	-11.0039
โฟกัส	-11.004
▁Mil	-11.0045
โลจิสติกส์	-11.0045
▁ZH	-11.0048
แมค	-11.005
▁Tee	-11.0051
▁11:00	-11.0051
มาที่นี่	-11.0052
ally	-11.0054
ได้รับการยอมรับ	-11.0055
เสด็จ	-11.0058
ต้นแบบ	-11.0061
▁Den	-11.0065
ฟิลด์	-11.0066
แอค	-11.0066
osa	-11.0067
สัตวแพทย์	-11.0067
1.9	-11.007
ใหม่ๆ	-11.007
▁เกมรถ	-11.0074
▁Film	-11.0077
▁ราคาพิเศษ	-11.0082
EO	-11.0084
แม็ก	-11.0084
มหัศจรรย์	-11.0086
358	-11.0087
ยางลบ	-11.0089
uki	-11.009
▁135	-11.0092
224	-11.0093
ลูกปืน	-11.0093
Forex	-11.0094
Distributor	-11.0095
บรรเทา	-11.0095
กรรมการผู้จัดการ	-11.0098
กุล	-11.0098
ประมง	-11.01
บาร์เซโลนา	-11.0105
▁กางเกงใน	-11.0106
▁State	-11.0107
โซล	-11.0109
ตําแหน่งงาน	-11.0111
park	-11.0112
กรุงศรี	-11.0115
ผลผลิต	-11.0116
ด้านความปลอดภัย	-11.0117
แร็ค	-11.0124
โลหิต	-11.0126
▁Pra	-11.0128
แวมไพร์	-11.0128
218	-11.0129
คาร์บอนไฟเบอร์	-11.0134
ulation	-11.0141
ผู้เข้าชมทั้งหมด	-11.0142
เซินเจิ้น	-11.0142
flow	-11.0144
รีโมทคอนโทรล	-11.0146
ตัดสิน	-11.0146
ฟื้น	-11.0151
เช่ารถ	-11.0152
2.9	-11.0154
ชื่อเสียง	-11.0156
ister	-11.0156
141	-11.0156
ประกันชีวิต	-11.0164
187	-11.0171
ผ้าอ้อม	-11.0171
เทอม	-11.0174
5.4	-11.0178
bot	-11.0178
Pornhub	-11.018
▁Safety	-11.0184
BET	-11.0185
720	-11.0189
สนิท	-11.0189
ธาน	-11.019
แนบ	-11.0191
IZ	-11.0192
▁ROHS	-11.0194
12345	-11.0195
ไม่จําเป็น	-11.0195
ผู้เชี่ยวชาญด้าน	-11.0198
▁Audi	-11.0201
MIC	-11.0206
ลําบาก	-11.0208
▁Stick	-11.0209
▁Tape	-11.021
▁Ferro	-11.0212
roll	-11.0213
▁Space	-11.0217
แชมพู	-11.022
,000.00	-11.0223
action	-11.0225
ฝรั่ง	-11.0226
ดังนั้น	-11.0227
อัพเดต	-11.0232
คลอรีนไดออกไซด์	-11.0236
การขึ้นรูป	-11.0237
ทําเล	-11.0239
ชํานาญ	-11.0241
มิตซูบิชิ	-11.0241
เก็บเกี่ยว	-11.0242
การเกิด	-11.0245
ทฤษฎี	-11.0246
เวิร์ด	-11.0246
หิว	-11.0248
▁Aqua	-11.0252
▁ชาวรัสเซีย	-11.0256
▁Pyrolysis	-11.026
▁Loader	-11.026
ผจญภัย	-11.0262
aster	-11.0263
อนุรักษ์	-11.0266
เป็นที่รู้จัก	-11.0266
friend	-11.027
ection	-11.027
service	-11.0271
ify	-11.0272
สกาย	-11.0276
onic	-11.0277
ความสว่างสูง	-11.0278
ขนาน	-11.028
ระยะห่าง	-11.0281
แคตตาล็อก	-11.0284
▁RSS	-11.0288
พลาซ่า	-11.0289
193	-11.0289
ขอขอบคุณ	-11.0291
คาสิโนออนไลน์	-11.0291
เหนื่อย	-11.0293
กัมพูชา	-11.0293
แหล่งกําเนิดแสง	-11.0294
ออสเตรีย	-11.0294
▁Lift	-11.0296
การตอบสนอง	-11.0302
เวิร์	-11.0303
146	-11.0303
กกี้	-11.0304
▁Tele	-11.0305
9.0	-11.0306
ในวันนี้	-11.031
ฉะ	-11.0311
ไมค์	-11.0312
ลวดลาย	-11.0312
แพง	-11.0312
▁Paper	-11.0314
เคลือบผง	-11.0316
▁Van	-11.0316
ー	-11.0317
`	-11.0319
ขัง	-11.0319
ดวงตา	-11.0327
9.99	-11.0331
เวช	-11.0338
คอยล์	-11.0339
dust	-11.034
ado	-11.0345
จักรเย็บผ้า	-11.0346
สูงสุดถึง	-11.0347
▁Baby	-11.0349
อะไรบ้าง	-11.035
ASH	-11.0351
▁เด็กนักเรียน	-11.0351
▁2004	-11.0353
ฟิล์มยืด	-11.0353
ดึงดูด	-11.0353
หล่ะ	-11.0353
ลูกสาว	-11.0353
ร็อค	-11.0356
แวะ	-11.036
7000	-11.0368
บรร	-11.0369
โบว์	-11.0369
พลังงานสูง	-11.0372
▁Oct	-11.0374
une	-11.0374
▁พร้อมกับ	-11.0375
ความคุ้มครอง	-11.0379
เอ็ก	-11.038
ศิลป์	-11.0381
▁อะไรคือ	-11.0381
เหล่านั้น	-11.0385
ริง	-11.0388
▁17:00	-11.039
เชน	-11.0391
ปริญญาโท	-11.0391
แผนภูมิ	-11.0392
กระทู้	-11.0394
▁Central	-11.0399
ปู่	-11.04
จ้ะ	-11.0408
ผู้ซื้อ	-11.041
เต่า	-11.0411
หมอก	-11.0416
ขาออก	-11.0417
เดา	-11.042
ตัดเลเซอร์	-11.0421
หลอก	-11.0424
ภูมิใจ	-11.0425
สิว	-11.043
590	-11.043
สก์	-11.0432
ที่ทนทาน	-11.0436
นิวยอร์ก	-11.0437
วิก	-11.0438
เฮน	-11.0438
ถ่ายรูป	-11.0439
309	-11.0439
▁Project	-11.044
ราบรื่น	-11.0442
พันธ์	-11.0445
สาธิต	-11.0447
▁mom	-11.0448
▁Spy	-11.0449
▁Musk	-11.045
สวนน้ํา	-11.0451
imp	-11.0452
ซื้อสินค้า	-11.0459
รุ่ง	-11.0463
▁2553	-11.0464
▁การนวด	-11.0466
505	-11.047
▁Hex	-11.0472
เอาไว้	-11.0474
221	-11.0475
ชาน	-11.0476
ه	-11.0476
▁RedTube	-11.0477
-2018	-11.0478
6.2	-11.0479
เปิดบัญชี	-11.0481
การปล่อย	-11.0481
ATION	-11.0483
โกลด์	-11.0485
อ้าง	-11.0486
บุรุษ	-11.0486
▁WhatsApp	-11.0486
มะนาว	-11.0486
▁Wrap	-11.0487
154	-11.0491
223	-11.0493
เขาจะ	-11.0499
กรรไกร	-11.05
▁Vinyl	-11.0505
เหมืองแร่	-11.0506
ตายแล้ว	-11.0507
▁She	-11.0507
ech	-11.0509
คะแนนสะสม	-11.0511
▁ขอบคุณมาก	-11.0513
▁การดูด	-11.0513
▁SFP	-11.0514
ปรุงอาหาร	-11.052
ชุมนุม	-11.052
มะพร้าว	-11.052
life	-11.052
ความเครียด	-11.0521
ไฮบริด	-11.0525
/04/	-11.0528
บนถนน	-11.0529
▁Creat	-11.053
▁เรากําลัง	-11.053
โรงไฟฟ้า	-11.0535
▁Natural	-11.0539
นอกเหนือจาก	-11.0539
ด่าง	-11.054
นิยาม	-11.054
▁Director	-11.054
วิต	-11.054
ลุย	-11.0542
แสดงสินค้า	-11.0547
เมนต์	-11.0559
▁650	-11.056
เลี้ยว	-11.0561
ยกระดับ	-11.0563
ใช้เวลาประมาณ	-11.0566
▁Golden	-11.0567
เรียกเก็บ	-11.0568
เข้าไปใน	-11.0568
ฟอเร็กซ์	-11.0569
บําบัดน้ํา	-11.0571
หลายสี	-11.0572
คุยกับ	-11.0573
ุ่น	-11.0577
	-11.0578
ตะขอ	-11.0582
oker	-11.0583
▁Coll	-11.0587
▁Development	-11.0588
▁อีโรติก	-11.0603
ทราบว่า	-11.0604
ไปหา	-11.0605
337	-11.0608
เล็	-11.0612
790	-11.0614
แก๊ง	-11.0616
ดุสิต	-11.0618
ระหว่างวันที่	-11.062
การผจญภัย	-11.0621
นนทบุรี	-11.0623
ความไว	-11.0623
บูท	-11.0623
page	-11.0624
เป็นใคร	-11.0624
▁แกลเลอรี่	-11.0628
172	-11.0633
ปลายทาง	-11.0634
▁Stand	-11.0638
▁SUP	-11.0642
เดนมาร์ก	-11.0642
▁Special	-11.0643
▁เมื่อคุณ	-11.0646
▁Extract	-11.0648
กระแสไฟ	-11.0655
uma	-11.0657
หุ้นส่วน	-11.0662
การสํารวจ	-11.0669
▁Ace	-11.067
▁Sheet	-11.0671
5.1	-11.0676
ผลประโยชน์	-11.0677
เจมส์	-11.0677
มัลติมีเดีย	-11.0687
loc	-11.0687
จัดเก็บข้อมูล	-11.0688
▁Mesh	-11.0688
2-4	-11.0688
กี่	-11.0688
การส่งมอบ	-11.0689
ติดตั้งง่าย	-11.0689
▁babe	-11.0691
▁Sensor	-11.0692
245	-11.0693
ณา	-11.0695
รายละเอียดโดยย่อ	-11.0697
กลุ่มบริษัท	-11.0698
eller	-11.0698
ฝ่ายขาย	-11.0699
ประธานกรรมการ	-11.0699
สารสนเทศ	-11.0702
สามารถทําได้	-11.0703
lian	-11.0704
มิลลิ่ง	-11.0707
ฉีดขึ้นรูป	-11.0709
วิท	-11.071
ตะเข็บ	-11.0712
▁ดูทีวีออนไลน์	-11.0712
2013	-11.0713
เจ้าสาว	-11.0714
▁Dai	-11.0716
ซัปโปโร	-11.0717
▁Fund	-11.072
แอมโมเนีย	-11.0722
ทางกายภาพ	-11.0722
ราคาที่ดีที่สุด	-11.0726
แคร์	-11.0727
ตะวันออกเฉียงใต้	-11.0732
▁Drop	-11.0732
ชั่งน้ําหนัก	-11.0735
ทํางานร่วมกับ	-11.0736
ี้ยน	-11.0737
นอร์เวย์	-11.0742
เธอร์	-11.0745
007	-11.0746
ทําร้าย	-11.0747
▁CPU	-11.0749
789	-11.075
ข้างต้น	-11.0751
ไฟฉุกเฉิน	-11.0754
▁Eye	-11.0754
ขบวน	-11.0756
	-11.0761
เภสัชกรรม	-11.0762
มีคุณภาพ	-11.0765
ยังไม่ได้	-11.0765
การวินิจฉัย	-11.0767
ไซส์	-11.0768
ต่อคน	-11.077
เบเกอรี่	-11.0776
▁พี่เลี้ยงเด็ก	-11.0781
ไม่อยาก	-11.0786
ตอนเช้า	-11.0788
ว่างเปล่า	-11.0791
เทิร์น	-11.0791
/01/	-11.0792
6-2	-11.0793
พวกเจ้า	-11.0794
เห็ด	-11.0794
โปรโตคอล	-11.0796
วาเลนไทน์	-11.0801
ซากิ	-11.0802
งู	-11.0802
ออนเซ็น	-11.0806
Mail	-11.081
ขอร้อง	-11.0814
องค์การ	-11.0817
ผ้าทอ	-11.0821
ตามกฎหมาย	-11.0821
▁แคสติ้ง	-11.0821
▁กองทุนเปิด	-11.0822
แต่งตั้ง	-11.0824
ECT	-11.0824
สามเหลี่ยม	-11.0825
ล้ม	-11.0826
ออกแบบมาเพื่อ	-11.0828
บานพับ	-11.0829
รวย	-11.083
ดัม	-11.083
ฉีดยา	-11.0833
▁ออกแบบโดย	-11.0834
ดีเยี่ยม	-11.0838
อิชิ	-11.0839
ออกเดินทาง	-11.0844
พูดถูก	-11.0845
เมืองไทย	-11.0848
ease	-11.0851
เป่าลม	-11.0857
ปาล์ม	-11.0857
วีเนียร์	-11.0862
▁Decanate	-11.0862
▁GROUP	-11.0862
▁Universal	-11.0862
▁Software	-11.0862
บําบัดน้ําเสีย	-11.0863
วัล	-11.0864
ทําให้คุณ	-11.0865
ق	-11.0867
พระราชบัญญัติ	-11.0867
cord	-11.0868
เสียหาย	-11.087
RES	-11.0873
เคล็ดลับ	-11.0874
4.7	-11.0875
เกล็ด	-11.0877
▁ตัวอย่างเช่น	-11.0884
▁But	-11.0884
ไดโอด	-11.0887
place	-11.089
ทอผ้า	-11.0895
คอร์ปอเรชั่น	-11.0897
▁Terminal	-11.0897
นิสสัน	-11.0897
หัวเราะ	-11.0899
iber	-11.09
▁21%	-11.0902
▁Protection	-11.0902
в	-11.0902
เมะ	-11.0903
▁น้ําหนักโมเลกุล	-11.0904
สูท	-11.0907
เหล่า	-11.0907
ความผิด	-11.0909
เพื่อความปลอดภัย	-11.0911
▁Run	-11.0913
กระดาษคราฟท์	-11.0914
นักสืบ	-11.0916
yuan	-11.0918
การหมุน	-11.0919
184	-11.092
รู้มั้ย	-11.092
▁busty	-11.0923
itting	-11.0926
etic	-11.0928
169	-11.0928
การดาวน์โหลด	-11.0935
งานก่อสร้าง	-11.0939
เจียร	-11.0941
ตัวตน	-11.0946
ผู้ดูแลระบบ	-11.0948
เสื้อกันหนาว	-11.0953
ฟิวส์	-11.0953
▁Fair	-11.0953
006	-11.0956
ระบบการจัดการ	-11.0957
▁Empflix	-11.0958
ทําน้ําอุ่น	-11.0959
งานแสดงสินค้า	-11.0962
▁สถานที่กําเนิด	-11.0962
พื้นที่ใช้สอย	-11.0963
▁อําเภอเมือง	-11.0969
บอกฉัน	-11.0973
กระเป๋าสตางค์	-11.0973
▁Machining	-11.0973
ชีพจร	-11.0973
▁แรงม้า	-11.0974
มิถุนายน	-11.0974
-02-	-11.0977
กางเกงยีนส์	-11.0979
▁CON	-11.0979
การเติบโต	-11.0979
แปลงไฟล์	-11.0981
คนหนึ่ง	-11.0981
สวิง	-11.0984
คัพ	-11.0984
▁Purlin	-11.0984
▁Jet	-11.0985
ความมั่นใจ	-11.0986
ن	-11.0988
จินตนาการ	-11.0989
▁Supply	-11.0989
ประกอบไปด้วย	-11.0989
415	-11.0989
8.8	-11.0989
▁Pulse	-11.0994
▁สิ่งอํานวยความ	-11.0994
ครัวเรือน	-11.0997
โหดร้าย	-11.0999
ค้นหาโดย	-11.1
กรีก	-11.1003
ประทับ	-11.1007
▁months	-11.1009
จอห์น	-11.1012
ฤดู	-11.1016
▁ช่องทีวี	-11.1021
สิทธิประโยชน์	-11.1022
Tech	-11.1026
แวน	-11.1029
▁ขนาดไฟล์	-11.1033
พรรณ	-11.1034
ถ้ํา	-11.1035
ผู้รับ	-11.1036
▁โบนัสคาสิโน	-11.1037
วาระ	-11.1037
แชมเปญ	-11.104
▁Solenoid	-11.104
เมอ	-11.1041
บอย	-11.1041
▁Sports	-11.1044
มีลักษณะ	-11.1048
ยัน	-11.1048
๕	-11.105
นักลงทุนสัมพันธ์	-11.105
โมเลกุล	-11.1053
ขวดพลาสติก	-11.1054
คนรัก	-11.1058
mode	-11.1059
▁Packaging	-11.106
wind	-11.106
รัตน์	-11.1064
ที่มีประสบการณ์	-11.1065
verse	-11.1065
ใช้เวลาเดิน	-11.1066
▁Down	-11.1066
ต่างกัน	-11.1067
▁ฉะนั้น	-11.1071
IGHT	-11.1076
อิตาเลียน	-11.1076
ทางกฎหมาย	-11.1078
eather	-11.1079
ชดเชย	-11.1081
▁ขอให้	-11.1084
▁ปีขึ้นไป	-11.1091
email	-11.1092
ตั้งโต๊ะ	-11.1094
ขนส่งสินค้า	-11.1096
แว่นตา	-11.1098
ฮัม	-11.1099
พฤติกรรม	-11.1102
▁เฟติสฆ์	-11.1102
แหล่งที่มา	-11.1103
ชมพู	-11.1104
ครีบ	-11.1106
▁ฉันต้องการ	-11.111
เกี่ยวข้อง	-11.1111
ยางพารา	-11.1112
นิช	-11.1112
photo	-11.1112
3.4	-11.1114
aj	-11.1116
399	-11.1116
oper	-11.1117
ท่าอากาศยาน	-11.1117
นิด	-11.1117
hard	-11.1118
▁Ang	-11.1119
▁ความยาววิดีโอ	-11.1119
การบันทึก	-11.1126
คาร์บอเนต	-11.1127
วัดอุณหภูมิ	-11.1132
โพส	-11.1133
▁กิโล	-11.1135
▁รายการสินค้า	-11.1137
yang	-11.1146
สอดคล้อง	-11.1147
ควอตซ์	-11.1148
▁Syn	-11.1149
Video	-11.1149
▁Cover	-11.115
▁ราคาเฉลี่ย	-11.1154
นัง	-11.1154
307	-11.1156
ORE	-11.1159
โยก	-11.116
171	-11.1163
▁Dry	-11.1163
▁1,0	-11.1167
Language	-11.1169
1-8	-11.117
mission	-11.117
▁SPC	-11.1171
▁ดูเพิ่มเติม	-11.1176
▁Premium	-11.1179
เงินปันผล	-11.1179
▁Kneader	-11.1185
เป็นอย่างดี	-11.1189
▁แฟนสาว	-11.119
▁การรักษาพื้นผิว	-11.119
▁bbw	-11.1192
▁โมเสส	-11.1195
ซากุระ	-11.1195
▁YouPorn	-11.1197
306	-11.1197
570	-11.1199
โถ	-11.1201
ified	-11.1202
ดีใจ	-11.1207
cross	-11.1207
ishi	-11.1208
▁Airport	-11.1209
6-1	-11.1211
แอฟริกาใต้	-11.1211
▁Thermo	-11.1215
▁ผู้เข้าชมวันนี้	-11.1216
รถโดยสาร	-11.1219
ปรุง	-11.1219
พีพี	-11.1219
แลค	-11.122
▁Radi	-11.1222
ronic	-11.1222
therm	-11.1225
▁Coil	-11.1226
คลาวด์	-11.1226
Month	-11.1228
อยากให้	-11.1228
อลูมิเนียมฟอยล์	-11.1228
▁260	-11.1231
▁UHF	-11.1232
มุก	-11.1235
▁Silver	-11.1235
▁Lug	-11.1236
วารสาร	-11.1237
229	-11.1241
สแตน	-11.1241
market	-11.1243
▁not	-11.1244
ตอบกลับ	-11.1244
aking	-11.1246
ผู้ปกครอง	-11.1247
เพลิดเพลินไปกับ	-11.1247
กิโลกรัม	-11.1248
ถือเป็น	-11.1257
กระต่าย	-11.1258
ฟองน้ํา	-11.1262
▁Building	-11.1263
โลชั่น	-11.1266
การสึกหรอ	-11.1268
สุดพิเศษ	-11.1276
285	-11.1278
▁Step	-11.1278
คอลเลกชัน	-11.1279
การสอน	-11.1287
ไม่เพียง	-11.1289
เรียกใช้	-11.1292
ยูโร	-11.1296
ผู้ชนะ	-11.13
ส่วนขยาย	-11.1306
▁Seal	-11.131
มารีน	-11.131
ไทยพาณิชย์	-11.131
อัส	-11.1311
ผู้ขาย	-11.1312
▁Shaft	-11.1313
พลิก	-11.1314
lite	-11.132
▁Messenger	-11.1321
FSC	-11.1322
ความอดทน	-11.1326
แสดงโปรไฟล์	-11.1327
519	-11.1327
แสงแดด	-11.1328
รีดร้อน	-11.1329
ขัดเงา	-11.133
การควบคุมคุณภาพ	-11.1332
▁Ray	-11.1334
วัสดุก่อสร้าง	-11.1335
840	-11.1338
ย้อมสี	-11.1338
กวางตุ้ง	-11.1342
▁NINGXIA	-11.1342
▁บ้านพักใน	-11.1342
▁Screw	-11.1342
เรซิ่น	-11.1353
คนแรก	-11.1354
▁หากต้องการ	-11.1355
ซีเรีย	-11.1357
พอร์ท	-11.1357
▁ผมรู้	-11.1358
276	-11.136
หมู่เกาะ	-11.1365
▁Mai	-11.1366
▁Sheng	-11.1367
การโจมตี	-11.1367
อาวุโส	-11.1368
ใยแก้วนําแสง	-11.1369
▁Blog	-11.1371
▁Sport	-11.1373
308	-11.1373
ผ้าปูที่นอน	-11.1374
มาตรฐานสากล	-11.1374
▁สูตรโมเลกุล	-11.1374
▁0.02	-11.1377
▁Joint	-11.138
000000	-11.1382
▁Band	-11.1384
สลักเกลียว	-11.1385
แบบยืดหยุ่น	-11.1385
038	-11.1387
▁850	-11.1387
820	-11.1388
รัต	-11.1388
ville	-11.1392
ขจัด	-11.1393
ช่องว่าง	-11.1393
0/1	-11.1399
odi	-11.1411
ประถมศึกษา	-11.1411
▁เครื่องรีไซเคิล	-11.1412
▁หนุ่มสาว	-11.1412
นอนวูฟเวน	-11.1416
เมลามีน	-11.1416
ไดอะแฟรม	-11.1416
oshi	-11.1417
เป็นเพื่อน	-11.1418
เดี๋ยว	-11.1426
รอกโซ่	-11.1429
ศาลา	-11.143
▁โทษที	-11.1438
น้ําตก	-11.1439
ความสะดวกสบาย	-11.1439
ต่อสัปดาห์	-11.1439
เหล็กสแตนเลส	-11.144
5.2	-11.1441
รับชม	-11.1442
ANT	-11.1444
ตัก	-11.1445
สิ่งที่คุณ	-11.1445
การบีบอัด	-11.1452
คัดลอก	-11.1453
ี้ยว	-11.1454
เทรนด์	-11.1455
หนาว	-11.1455
เดย์	-11.1455
จะเริ่ม	-11.1459
ครอบครอง	-11.1459
ถ่าน	-11.1463
ความมั่นคง	-11.1466
กรวด	-11.1469
▁Gigabit	-11.147
กรอบรูป	-11.1478
▁เป็นผู้ใหญ่	-11.1482
tract	-11.1483
ซูม	-11.1483
เก้า	-11.1483
จากสนามบิน	-11.1488
สี่เหลี่ยมผืนผ้า	-11.1491
▁Christ	-11.1491
hoe	-11.1493
▁Paypal	-11.1497
กุหลาบ	-11.15
โบรชัวร์	-11.1502
มาริโอ	-11.1502
ราศี	-11.1504
ILL	-11.1507
บรอนซ์	-11.1507
TON	-11.1508
มอล	-11.1508
พวกเธอ	-11.1509
หกเหลี่ยม	-11.1513
▁ราเอล	-11.1514
การประกวด	-11.152
ต่อชั่วโมง	-11.1525
▁เวลาจัดส่ง	-11.1529
สวิส	-11.153
แพ็กเกจ	-11.154
ไฟฟ้าสถิตย์	-11.1541
take	-11.1542
การวางแผน	-11.1542
▁ขณะที่	-11.1546
นักโทษ	-11.1548
เดือนมกราคม	-11.1549
izz	-11.1549
▁Pot	-11.1549
road	-11.155
บ่าย	-11.1552
จัดตําแหน่งล้อ	-11.1553
ฮาโลวีน	-11.1556
ถ่ายโอน	-11.1558
เบสบอล	-11.1561
1-0	-11.1562
ประปา	-11.1564
ี่ยว	-11.1564
ข้างนอก	-11.1567
ไก	-11.1569
ออโต้	-11.1569
▁Bull	-11.1573
▁EMS	-11.1575
แอม	-11.1576
:86-	-11.1579
9.9	-11.1581
ที่แท้จริง	-11.1583
สีลม	-11.1586
เกิดอะไรขึ้น	-11.1586
ไม้ไผ่	-11.1588
เสื้อกั๊ก	-11.1594
▁Novotel	-11.1594
ลงนาม	-11.1595
ชายฝั่ง	-11.1596
หนอน	-11.1597
327	-11.1598
บูต	-11.1604
เก็บไว้	-11.1606
919	-11.1607
ืด	-11.1607
ซิ่ง	-11.1608
กล่องกระดาษแข็ง	-11.1616
ครบครัน	-11.1621
เคเบิล	-11.1622
point	-11.1628
เสถียรภาพ	-11.1634
ดูแลผิว	-11.1635
การสอบ	-11.1637
เร็	-11.1638
▁Crane	-11.1639
808	-11.1643
2-0	-11.1645
▁HGH	-11.1649
สามารถผลิต	-11.1649
▁ผู้เขียน	-11.1658
heat	-11.1659
เป็นตัวเลือก	-11.166
ก๊อกน้ํา	-11.1661
▁นอกจากนี้ยังมี	-11.1663
การปรับแต่ง	-11.1665
คาดการณ์	-11.1665
zen	-11.1668
คนนั้น	-11.1671
ผู้สมัคร	-11.1675
▁Titanium	-11.1681
▁Feeder	-11.1681
▁จํานวนผู้เข้าชม	-11.1682
ภาระ	-11.1682
master	-11.1683
script	-11.1685
266	-11.1685
ถอนเงิน	-11.1685
สตรีม	-11.1686
กัส	-11.1689
▁Emb	-11.169
ใบเลื่อย	-11.1691
วัคซีน	-11.1692
▁OFF	-11.1694
ฺ	-11.1697
▁Derma	-11.1699
พนัน	-11.1701
ญาติ	-11.1706
แซนด์วิช	-11.1708
ไอเดีย	-11.1724
▁กรุณาเลือก	-11.1724
qr	-11.1724
▁ทั้งปวง	-11.1725
คราบ	-11.1727
สายคล้อง	-11.173
เชฟโรเลต	-11.173
หัวนมใหญ่	-11.1736
เป้	-11.1739
องค์	-11.1741
วีไอพี	-11.1741
ฮอลล์	-11.1742
•	-11.1742
การพนัน	-11.1744
ยั่ว	-11.1747
ยาฆ่าแมลง	-11.1752
усский	-11.1752
▁Scan	-11.1754
ตกแต่งบ้าน	-11.1757
dding	-11.1757
ผ้าพันคอ	-11.1758
Turbo	-11.1758
▁2552	-11.1759
อนุ	-11.176
▁ถ้ํามอง	-11.1763
อดีตแฟนสาว	-11.1764
วันละ	-11.1769
▁April	-11.1769
จัดกิจกรรม	-11.177
ส่วนกลาง	-11.1771
กล้วย	-11.1771
plus	-11.1773
▁เครื่องกลึง	-11.178
/08/	-11.1784
โมเดิร์น	-11.1785
เงินทุน	-11.1788
อาหารทะเล	-11.1793
คอลเลคชั่น	-11.1796
ราคาประหยัด	-11.18
HAN	-11.1801
ซ้อม	-11.1802
▁รหัสไปรษณีย์	-11.1806
จิตวิทยา	-11.181
พึ่ง	-11.1813
บล็อค	-11.1813
▁Rail	-11.1814
shima	-11.1817
ศึก	-11.1818
▁Bright	-11.182
▁HACCP	-11.1824
▁Medical	-11.1824
jpg	-11.1827
จะช่วยให้	-11.1828
บางกอก	-11.1828
การทําเหมืองแร่	-11.183
ภูมิคุ้มกัน	-11.1846
เงินคืน	-11.185
เบื้องหลัง	-11.1852
อิงค์เจ็ท	-11.1852
เป็นไงบ้าง	-11.1852
▁ก่อนที่	-11.1856
พันธกิจ	-11.1858
▁ฉันหมายถึง	-11.1859
▁Expo	-11.1862
เศรษฐ	-11.1862
เฟือง	-11.1863
ที่ยังไม่ได้อ่าน	-11.1863
เม็ดสี	-11.1865
จําแนก	-11.1869
|	-11.1874
▁Fur	-11.1878
เธฃ	-11.1879
ดูไบ	-11.188
ระเหย	-11.188
เนื้อสัตว์	-11.1881
aze	-11.1883
▁Chemical	-11.1885
▁sales	-11.1886
ภายหลัง	-11.1887
product	-11.1888
transparent	-11.1891
เถื่อน	-11.1891
สอบถามรายละเอียด	-11.1891
▁ExpressVPN	-11.1892
post	-11.1893
domain	-11.1897
▁LLC	-11.1897
ล้อเลื่อน	-11.1903
ไมโครโฟน	-11.1908
pho	-11.1913
â	-11.1913
▁เล็ม	-11.1915
▁FSX	-11.1916
ตามลําดับ	-11.1921
มอเตอร์ไซค์	-11.1925
▁Intel	-11.1925
พยาน	-11.1925
▁anti	-11.1926
ความผิดปกติ	-11.1932
▁Dog	-11.1934
ไอดี	-11.1937
สารประกอบ	-11.1937
นําไปใช้กับ	-11.194
อย่างเต็มที่	-11.194
ลัม	-11.1941
▁ANSI	-11.1942
ดอย	-11.1942
เดินทางด้วยรถไฟ	-11.1943
เธฒ	-11.1947
เนเธอร์แลนด์	-11.1947
ellow	-11.1948
▁รายละเอียดด่วน	-11.1954
สร้อยข้อมือ	-11.1958
กลิ่นหอม	-11.196
คัมภีร์	-11.1964
โฮเต็ล	-11.1964
ผู้สูงอายุ	-11.1964
dress	-11.1965
ขึ้นรูปม้วน	-11.1967
กรกฎาคม	-11.1973
/07/	-11.1978
แบบครบวงจร	-11.1981
เจ็ต	-11.1984
▁วาห์พระเจ้า	-11.1988
มีคําถาม	-11.1989
เดือด	-11.1991
ดีเจ	-11.1995
สุวรรณภูมิ	-11.1998
สมุย	-11.2004
ประชา	-11.2004
การโอน	-11.2011
ลาดพร้าว	-11.2015
เดสก์ท็อป	-11.2015
ปลอดสารพิษ	-11.202
อาศัยอยู่	-11.2022
ความยั่งยืน	-11.2036
สง่างาม	-11.2037
▁has	-11.2038
ขับเคลื่อนด้วย	-11.2042
▁Festival	-11.2049
▁Howo	-11.2049
ความหนาแน่น	-11.2053
▁Chip	-11.2057
MON	-11.2057
▁สาวสวย	-11.2062
GMT	-11.2063
ไว้วางใจ	-11.2071
สดชื่น	-11.2073
ท้าทาย	-11.2075
คลัทช์	-11.2083
หุ่น	-11.2084
เติมเงิน	-11.2088
กระพริบ	-11.2089
▁brunette	-11.2089
โรงละคร	-11.2093
▁Stud	-11.2098
▁เยรูซา	-11.21
▁Bridge	-11.2101
แคบ	-11.2101
▁18:00	-11.2102
hub	-11.2103
▁Beam	-11.2103
รอบๆ	-11.2105
china	-11.2106
▁Website	-11.2106
▁คนแก่	-11.2106
ฟินแลนด์	-11.2107
แสดงความคิดเห็น	-11.211
ประกาศนียบัตร	-11.2111
ผิดพลาด	-11.2115
ให	-11.2115
sign	-11.2118
mesh	-11.2118
อาร์ต	-11.2119
▁Iron	-11.2119
▁Self	-11.2135
▁Koh	-11.2135
ซิงค์	-11.2137
เครื่องครัว	-11.2139
โครเมียม	-11.214
สนามกอล์ฟ	-11.214
Friend	-11.2146
5-8	-11.2152
เกาหลีใต้	-11.2157
เยอร์	-11.2157
อีเธอร์เน็ต	-11.2163
▁มือรูดควย	-11.2163
ขายปลีก	-11.2163
▁เลเวล	-11.2164
5-3	-11.2164
จดจํา	-11.2165
แผงวงจร	-11.2166
6.3	-11.2171
สเตอริโอ	-11.2174
4-5	-11.2176
4.6	-11.2183
▁Taiwan	-11.2186
ไทม์	-11.2187
พริกไทย	-11.2191
สมุทรปราการ	-11.2192
หลุด	-11.2192
การติดเชื้อ	-11.2193
ดาวน์	-11.2195
อัปโหลด	-11.2195
ขยับ	-11.2197
ราชินี	-11.2198
OCK	-11.2199
▁น่ารักน่าหยิก	-11.2203
▁Router	-11.2203
▁Juice	-11.2216
งานฝีมือ	-11.2219
ประสบ	-11.222
ชู้	-11.2225
▁Crystal	-11.2226
▁Deep	-11.2226
ละออง	-11.2227
plex	-11.2229
การตรวจจับ	-11.2229
日本語	-11.2232
บ่ม	-11.2234
ific	-11.2235
ซิลิคอนคาร์ไบด์	-11.2239
▁this	-11.224
ชัตเตอร์	-11.2244
อ่ะ	-11.2245
▁Antenna	-11.2249
▁ขออภัย	-11.2257
ล่องเรือ	-11.2257
พาวเวอร์ซัพพลาย	-11.2259
กล้าม	-11.2263
▁ESD	-11.2265
โกลเด้น	-11.2267
ไอร์แลนด์	-11.2267
▁Amazon	-11.2267
เปิดทําการ	-11.227
เม้นท์	-11.227
จัดเตรียม	-11.2271
Shanghai	-11.2273
แอพพลิเคชัน	-11.2273
ไฟฟ้าสถิต	-11.2274
หรี่	-11.2274
▁Bearing	-11.2278
▁วาห์ทรง	-11.2281
6.4	-11.2284
สลัก	-11.2287
ช่วยเพิ่ม	-11.2289
ทริค	-11.2293
ตอก	-11.2298
▁วันที่ออก	-11.2302
แพทยศาสตร์	-11.2302
257	-11.2305
โปสเตอร์	-11.231
โรงยิม	-11.2311
งานปาร์ตี้	-11.2313
เตียงคู่	-11.2317
▁Player	-11.2319
เชื่อว่า	-11.232
ผงซักฟอก	-11.2325
electric	-11.2325
เมตริก	-11.2327
▁รอบต่อนาที	-11.2331
▁02-2	-11.2336
▁0.25	-11.2337
ขี่จักรยานในร่ม	-11.2337
เสาเข็ม	-11.2338
อีกต่อไป	-11.2338
เธตเน	-11.2339
แปซิฟิก	-11.2343
▁Public	-11.2343
ทําให้พอง	-11.2345
ยูรีเทน	-11.2348
ความดันโลหิต	-11.235
ม้วนขึ้นรูป	-11.2352
▁here	-11.2352
	-11.2354
▁VipTube	-11.2354
อภัย	-11.2356
6.6	-11.2358
▁Town	-11.2358
▁Surf	-11.2361
คอนโทรลเลอร์	-11.2361
/05/	-11.2363
โฮสเทล	-11.2366
="1.	-11.2367
▁ETL	-11.2371
กวางโจว	-11.2372
อัดขึ้นรูป	-11.2373
หั่น	-11.2374
▁แช	-11.2375
ห้วย	-11.2378
ฮุ	-11.2378
ความบริสุทธิ์สูง	-11.238
ETH	-11.2383
งบการเงิน	-11.2384
▁ดูข้อความ	-11.2384
ออฟฟิศ	-11.2384
/02/	-11.2387
วิเศษ	-11.2388
vert	-11.2388
911	-11.2389
ทีเดียว	-11.2392
▁Iphone	-11.2393
เรียบร้อยแล้ว	-11.2401
▁ปั	-11.2408
๊ป	-11.2409
เบรกเกอร์	-11.2415
Ø	-11.2419
ยนต์	-11.2421
็อกซ์	-11.2423
uge	-11.2423
ความพึงพอใจ	-11.2425
▁Beauty	-11.2431
show	-11.2431
ควบคุมการเข้าถึง	-11.2435
ปิง	-11.2438
อย่างยั่งยืน	-11.2441
วงเล็บ	-11.2443
8-9	-11.2444
ปอด	-11.2445
ถ่านกัมมันต์	-11.2448
ปเปอร์	-11.2451
ริมฝีปาก	-11.2454
ที่จะทําให้	-11.2456
เพิร์	-11.246
ifier	-11.2462
บอดี้	-11.2463
ตามปกติ	-11.2464
สมัยใหม่	-11.2465
โน้ต	-11.2466
azole	-11.2466
076	-11.2467
มัลติฟังก์ชั่น	-11.247
จัดเลี้ยง	-11.2472
มองหา	-11.2473
ที่มีประโยชน์	-11.2475
▁Classic	-11.2478
รักษ์	-11.2483
ลักซ์	-11.2484
ตะกอน	-11.2485
▁ฉันไม่รู้	-11.2485
เลี่ยน	-11.2486
เผ็ด	-11.249
ร้องไห้	-11.249
0.9	-11.249
▁มันไม่ใช่	-11.249
กัก	-11.2491
ตรงข้าม	-11.2494
บันไดเลื่อน	-11.2497
พัด	-11.2497
เรียกร้อง	-11.2498
(0)	-11.25
เมื่อไหร่	-11.2502
▁HOME	-11.2502
IDE	-11.2506
ขอรับ	-11.2507
ปรารถนา	-11.2508
หากคุณ	-11.2518
▁Archives	-11.2523
ใยแก้ว	-11.2528
▁Precision	-11.2531
มลพิษ	-11.2534
▁น้ําแตก	-11.2534
▁ผมคิดว่า	-11.2535
▁Christophe	-11.2549
loss	-11.255
บทวิจารณ์	-11.255
อิหร่าน	-11.2555
▁Promotion	-11.2555
แบ่งออกเป็น	-11.2555
▁CVC	-11.2556
เซ็ท	-11.2558
ซาร์	-11.2561
เหลี่ยม	-11.2562
ที่เกิดจาก	-11.2564
ยูวี	-11.2568
ฮิโร	-11.2572
ขี่จักรยาน	-11.2574
อังคาร	-11.2575
ไอศกรีม	-11.2579
บุคคลที่สาม	-11.2579
มุ่งมั่น	-11.2597
บรรลุ	-11.2598
stand	-11.2598
เตือนภัย	-11.2606
ส่งอีเมล	-11.2607
▁Dream	-11.261
หุ้มฉนวน	-11.261
▁หากคุณต้องการ	-11.2614
▁Vent	-11.2615
▁Channel	-11.2615
5-7	-11.262
บริติช	-11.2621
▁Manager	-11.2621
ที่ดีขึ้น	-11.2622
φ	-11.2627
ทุนการศึกษา	-11.2631
▁Lotus	-11.2633
ร้องเพลง	-11.2635
อยู่ห่างจาก	-11.2638
แบบไดนามิก	-11.2645
▁Generator	-11.2645
เอเซีย	-11.2648
ไม่ยอม	-11.265
247	-11.2655
body	-11.2656
▁Cotton	-11.2657
โปรเจคเตอร์	-11.2658
สัตว์ปีก	-11.2658
การสํารองข้อมูล	-11.2663
ข้อได้เปรียบ	-11.2675
ป๊อป	-11.2675
ขนตา	-11.2676
hentai	-11.2677
chang	-11.2679
←	-11.2681
แพลน	-11.2682
▁PHP	-11.2683
ธ์	-11.2683
เสริมสร้าง	-11.2685
หญ้าเทียม	-11.2685
CAN	-11.2686
Cheng	-11.2687
▁VPS	-11.2692
▁ออนซ์	-11.2694
▁Transfer	-11.2695
▁Hair	-11.2699
เก๋	-11.27
▁กระเป๋าใส่	-11.2708
olly	-11.2716
7.8	-11.2717
ภายในประเทศ	-11.272
จองโรงแรม	-11.272
รถตัก	-11.2722
นิดหน่อย	-11.2723
▁FTTH	-11.2724
วิจัยและพัฒนา	-11.2726
ผีเสื้อ	-11.2728
ปล่อยให้	-11.2729
ไอเสีย	-11.2729
ข้อมูลจําเพาะของ	-11.2734
เนียล	-11.2734
ช่องคลอด	-11.2738
▁Marketing	-11.274
กรุ๊ป	-11.2741
คีย์บอร์ด	-11.2746
▁col	-11.2747
CONN	-11.2747
▁Toyota	-11.2748
ชั้นเรียน	-11.2749
ท้องฟ้า	-11.2752
หายาก	-11.2759
♦	-11.276
ระยะสั้น	-11.2763
รถพ่วง	-11.2766
class	-11.2767
ซูชิ	-11.2773
ปลอมแปลง	-11.2776
ริบบิ้น	-11.2785
โมลิบดีนัม	-11.2785
๓	-11.2785
เผย	-11.2787
น่าเชื่อถือ	-11.2788
ซักผ้า	-11.2789
CAP	-11.279
ขายดีที่สุด	-11.279
หลายภาษา	-11.279
ทําซ้ํา	-11.2791
เม็กซิกัน	-11.2797
คาดหวัง	-11.2799
โซลินอยด์	-11.2803
เล็ค	-11.2806
ถอดรหัส	-11.2809
ข้อบังคับ	-11.2809
โม่	-11.2811
▁Comb	-11.2814
▁POM	-11.2815
พายุ	-11.2817
5.3	-11.282
คณิตศาสตร์	-11.2822
▁Counter	-11.2822
ว่ะ	-11.2822
มั่น	-11.2828
▁UTC	-11.283
ก๊อก	-11.2831
หยิบ	-11.2834
อพาร์ตเมนต์	-11.2834
นึ่ง	-11.2834
▁Driver	-11.2837
cheng	-11.2838
▁เป็นเกย์	-11.284
พิพากษา	-11.284
▁Email	-11.2843
โต้ตอบ	-11.2847
ชมวิว	-11.2855
▁ผลการค้นหา	-11.2855
open	-11.2856
made	-11.2865
▁ป้ายกํากับ	-11.2866
วิลล์	-11.2866
▁Year	-11.2869
д	-11.2871
สโมสร	-11.2871
ฮอต	-11.2872
บริษัทหลักทรัพย์	-11.2875
PLUS	-11.2886
การบริโภค	-11.2886
≤	-11.2906
ี่ยน	-11.2907
ร้องเรียน	-11.2907
custom	-11.2914
ซาวน่า	-11.2914
ปริมาตร	-11.2916
ب	-11.292
▁JCB	-11.2921
Guard	-11.2921
ศิลป	-11.2921
พรุน	-11.2922
Option	-11.2927
เครือ	-11.2927
▁super	-11.2928
ility	-11.293
6.7	-11.2932
▁Guan	-11.2932
▁เบอร์โทร	-11.2934
▁เพื่อนบ้าน	-11.2936
▁Deutz	-11.2939
="3.	-11.294
ผู้สื่อข่าว	-11.2945
หมื่น	-11.2945
▁EPDM	-11.2945
ทะลุ	-11.2946
เดือนมีนาคม	-11.2957
▁Opera	-11.2957
^	-11.2957
พัลส์	-11.2957
▁Sep	-11.2959
ห่วงโซ่	-11.2959
▁เด็กผู้ชาย	-11.296
มาราธอน	-11.2964
ซักรีด	-11.2967
ผลักดัน	-11.297
ศาลเจ้า	-11.2975
ทนทานต่อ	-11.2975
▁ใหม่ฟรี	-11.2979
กึ่งอัตโนมัติ	-11.2979
azine	-11.2984
6.8	-11.2986
วิวทะเล	-11.2987
พีช	-11.2988
pop	-11.2992
▁Cylinder	-11.2995
ยางมะตอย	-11.3001
ใช้แล้วทิ้ง	-11.3001
▁ออนไลน์ขณะนี้	-11.3007
นิยาย	-11.3007
แกลลอน	-11.3013
text	-11.3015
ford	-11.3019
7.4	-11.3021
ชนบท	-11.3021
ติดเชื้อ	-11.3021
ประสงค์	-11.3022
สุดหรู	-11.3025
สมมุติ	-11.3026
ี๊ย	-11.3026
๒๕	-11.3026
▁Hostel	-11.3027
/06/	-11.3027
แฟร์	-11.3029
Power	-11.3032
รีโมท	-11.3033
8.4	-11.3038
๖	-11.3039
ใจกลางเมือง	-11.3039
คิ้ว	-11.3042
บริหารจัดการ	-11.3043
▁Apartment	-11.3045
▁Exchange	-11.3045
▁add	-11.3046
แทบ	-11.3048
แคช	-11.3052
Europe	-11.3052
▁Social	-11.3053
9.7	-11.3064
งานวิจัย	-11.3065
▁Crossbow	-11.307
บริโภค	-11.3073
โครงสร้างเหล็ก	-11.3077
block	-11.3079
omi	-11.3079
trade	-11.308
สกุล	-11.308
ขวัญ	-11.3081
อัลตร้า	-11.3082
▁Energy	-11.3082
ร่วง	-11.3083
ไม่พบ	-11.3085
กระจกนิรภัย	-11.3089
▁Terr	-11.309
Movie	-11.309
รถตู้	-11.3094
ฮ่า	-11.3094
ลูกโป่ง	-11.3095
▁โฮเทล	-11.3095
ซูเปอร์มาร์เก็ต	-11.3101
สัญชาติ	-11.3101
▁District	-11.3101
▁ลาเท็กซ์	-11.3101
คลิ๊ก	-11.3101
เกี่ยวข้องกับ	-11.3102
▁Alloy	-11.3105
4.9	-11.3107
ทุกสิ่ง	-11.3107
อาชญากรรม	-11.3108
ผ้าเช็ดตัว	-11.3108
จ้า	-11.3108
เมนท์	-11.3114
คู่ค้า	-11.3126
เฟิร์มแวร์	-11.3129
นักพัฒนา	-11.3132
▁Hydraulic	-11.3133
การคุ้มครอง	-11.3139
▁อพาร์ทเม้นท์	-11.3139
เพศชาย	-11.314
โรงภาพยนตร์	-11.3143
แนน	-11.3144
store	-11.3144
ตรึง	-11.3146
แรน	-11.3146
▁DMX	-11.3146
▁Hardware	-11.3146
เย้	-11.3148
▁ไตรมาสที่	-11.315
ไมโครไฟเบอร์	-11.315
ก๋วยเตี๋ยว	-11.3152
เบิก	-11.3157
หัด	-11.3158
▁Walk	-11.3161
/12/	-11.3162
อุปทาน	-11.3165
จิตวิญญาณ	-11.3165
สัปดาห์ที่ผ่านมา	-11.3168
ล่าช้า	-11.3168
ปรับอากาศ	-11.3171
ยืม	-11.3175
หัตถกรรม	-11.3177
รูเล็ต	-11.3177
▁Trampoline	-11.3177
▁Pull	-11.318
จับเวลา	-11.318
▁09:00	-11.3181
▁filter	-11.3184
7.6	-11.319
ผ่อน	-11.3193
พฤหัสบดี	-11.3197
▁Music	-11.3198
▁Door	-11.32
="0.	-11.3202
à	-11.3203
▁Model	-11.3204
ชนะเลิศ	-11.3205
ความฝัน	-11.3209
สุขาภิบาล	-11.3209
ล่าสัตว์	-11.3217
▁exp	-11.3222
ผึ้ง	-11.3222
ไบต์	-11.3226
สิ้นเปลือง	-11.3228
asia	-11.3229
LEX	-11.3232
1/2	-11.3235
มากเกินไป	-11.3235
บัตรโดยสาร	-11.3241
กําปั้น	-11.3241
กอน	-11.3244
ประกาย	-11.3248
พวกท่าน	-11.325
คริลิค	-11.3252
▁pri	-11.3253
ตัดพลาสม่า	-11.3253
▁เซ็กส์หมู่	-11.3257
สีบลอนด์	-11.3259
พ่วง	-11.3261
มันฝรั่ง	-11.3262
นรก	-11.3265
5.7	-11.3266
จีพีเอส	-11.3267
1/1	-11.3272
ประตูหมุน	-11.3277
プラン	-11.328
เกี่ยวกับคุกกี้	-11.328
ฟีเจอร์	-11.3281
ใช้จ่าย	-11.3282
1,000	-11.3285
ประเพณี	-11.3286
▁เซ็กส์สามคน	-11.3286
เร็วขึ้น	-11.3289
สเปรด	-11.3292
Bags	-11.3294
▁Cooler	-11.3295
ความหนาแน่นสูง	-11.3301
ร่อน	-11.3302
ถุงกรอง	-11.3302
ประสานงาน	-11.3305
บรรพบุรุษ	-11.3305
▁วัยใส	-11.3306
นําไปใช้	-11.3306
แซนวิช	-11.3306
▁Boot	-11.3307
ัวร์	-11.3309
Center	-11.3312
ดอกเบี้ย	-11.3314
กําหนดค่า	-11.3318
3-3	-11.3323
คอนแทค	-11.3331
แจกัน	-11.3332
▁Easy	-11.3338
พม่า	-11.3348
เช็ก	-11.335
ขอนแก่น	-11.335
กุรอาน	-11.335
▁NFC	-11.3351
▁Turn	-11.3355
▁Lead	-11.3365
▁แด่	-11.3372
ยั่งยืน	-11.3373
▁Just	-11.338
รูปลักษณ์	-11.3381
ชื่อดัง	-11.3382
บริษัทในเครือ	-11.3384
ผสาน	-11.3385
ผ้าคลุม	-11.3385
สามัญ	-11.3387
▁VisitSingapore	-11.3389
option	-11.3396
ปกคลุม	-11.3397
เบต้า	-11.3397
ใดก็ได้	-11.3399
แปลกใจ	-11.3414
เสถียร	-11.3414
พิมพ์ลาย	-11.3415
เผชิญ	-11.3415
เที่ยวชม	-11.3418
พุ่ง	-11.3419
▁ที่เกิดเหตุ	-11.3422
▁นิเวศ	-11.3422
ความผิดพลาด	-11.3423
ability	-11.3424
ภูมิทัศน์	-11.3428
หยวน	-11.3435
▁Hydro	-11.3435
นําไปสู่	-11.344
เพิ่มเติมได้ที่	-11.3441
▁Geotextile	-11.3441
system	-11.3442
พลาสม่า	-11.3442
เรือนกระจก	-11.3444
โสด	-11.3447
ซาร่า	-11.3448
√	-11.3448
▁ต่อหน้า	-11.3448
พ่อแม่	-11.3451
ความยาวคลื่น	-11.3452
ความเข้มข้น	-11.3454
เด็กนักเรียนหญิง	-11.3458
▁Trenbolone	-11.3461
▁เพราะฉะนั้น	-11.3461
▁DLC	-11.3462
แผ่นดิสก์	-11.3466
▁Rich	-11.3466
amide	-11.3468
ห่อหุ้ม	-11.3469
ชุ่ม	-11.3474
source	-11.3475
สมควร	-11.3487
OUT	-11.3489
▁ควยปลอม	-11.35
▁Clinic	-11.3501
▁Wireless	-11.3503
▁Mixer	-11.3507
เสนอขาย	-11.351
แม็กซ์	-11.3513
▁was	-11.3514
Term	-11.3515
หนังสือพิมพ์	-11.352
6.1	-11.3525
SHA	-11.3525
อาการปวด	-11.3528
วางจําหน่าย	-11.353
เครื่องมือวัด	-11.3531
สมิติเวช	-11.3533
สวิตเซอร์แลนด์	-11.3533
ACE	-11.3537
ออกแบบมาสําหรับ	-11.3543
อย่างสมบูรณ์	-11.3545
Next	-11.3547
▁ดูข้อความล่าสุด	-11.3548
ฮิลล์	-11.3549
▁Girl	-11.3553
ไทเป	-11.3555
หุ้นสามัญ	-11.3556
เจ็ท	-11.3557
▁Cashmere	-11.356
ควีน	-11.356
▁Ferr	-11.3563
egra	-11.3564
▁Johnson	-11.3567
Cloud	-11.3568
กัปตัน	-11.3573
เฟิร์	-11.3573
ไม่ถูกต้อง	-11.3573
ร่วมมือกับ	-11.3574
อโศก	-11.3577
ธัญพืช	-11.3579
	-11.3579
ผัน	-11.3583
พิมพ์ดิจิตอล	-11.3584
▁วาห์ตรัส	-11.3586
ตอบรับ	-11.359
Web	-11.3592
▁Automatic	-11.3593
เธกเธ	-11.3594
รักษาโรค	-11.3596
▁Condo	-11.3597
วูด	-11.3599
ไดเรกทอรี	-11.3599
ศิริ	-11.3606
หนังสือเดินทาง	-11.3606
▁ช้อนโต๊ะ	-11.3606
▁รถตักล้อยาง	-11.3606
แคลิฟอร์เนีย	-11.3612
▁Guardrail	-11.3612
ยีนส์	-11.3619
โปร่ง	-11.3624
Rec	-11.3625
บัดกรี	-11.3626
สาหร่าย	-11.3632
ปั๊มสารละลาย	-11.3633
▁Kids	-11.3637
▁Technologies	-11.3639
▁First	-11.3639
▁ควยใหญ่	-11.364
PDF	-11.3641
เหอะ	-11.3647
สวนสัตว์	-11.3648
เป้า	-11.3648
▁Environmental	-11.3652
▁รวมไปถึง	-11.3655
9.6	-11.3659
▁Vista	-11.3659
เดือนตุลาคม	-11.3666
▁TPU	-11.3668
5.9	-11.3669
โฉม	-11.3672
กลวง	-11.3677
▁Quick	-11.3677
ฬ	-11.3679
▁Bulk	-11.368
metal	-11.368
ทรงพลัง	-11.3681
ข้อมูลจําเพาะ	-11.3683
club	-11.3685
▁ขั้นที่	-11.3689
▁อ๋อ	-11.3692
สารทําความเย็น	-11.3693
▁Punch	-11.3693
í	-11.3699
คลองเตย	-11.3699
ลูกศร	-11.3699
ที่เหนือกว่า	-11.37
ใบสั่ง	-11.3703
กีตาร์	-11.3706
ปลดล็อค	-11.3706
โค้ช	-11.3706
ข้อจํากัด	-11.3706
เปียโน	-11.371
ยืนขึ้น	-11.371
▁Foam	-11.3713
วิธีการชําระเงิน	-11.3715
แปลกๆ	-11.3715
machi	-11.3718
▁รัสเชีย	-11.3719
มอลล์	-11.3722
บรรณาธิการ	-11.3726
▁River	-11.3727
ส่งข้อความ	-11.3731
ครบถ้วน	-11.3733
ศรัทธา	-11.3733
ผ้ากันเปื้อน	-11.3739
craft	-11.3741
sonic	-11.3742
นุ่มนวล	-11.3747
การเขียนโปรแกรม	-11.3747
ขวดแก้ว	-11.375
▁ขอโทษนะ	-11.3756
ย้อนหลัง	-11.376
เฉลิมฉลอง	-11.3766
▁Firefox	-11.3766
▁VOD	-11.3766
hydr	-11.3771
facebook	-11.3774
น้ํามันหอมระเหย	-11.378
มิ่ง	-11.3783
oya	-11.3784
≥	-11.3784
บาสเกตบอล	-11.3787
▁8:00	-11.3791
ป่าตอง	-11.3793
นักออกแบบ	-11.3794
	-11.38
ประมูล	-11.38
ไอศครีม	-11.3807
กษัตริย์	-11.3814
9.8	-11.3818
ตั้งอยู่บน	-11.382
STAR	-11.3821
อวัยวะเพศ	-11.3827
กาญจนบุรี	-11.3827
บัลแกเรีย	-11.3827
▁จนกระทั่ง	-11.3827
▁อนิเมะ	-11.3827
ความมุ่งมั่น	-11.3828
ชื่น	-11.3829
พยายามที่จะ	-11.3829
นินจา	-11.3831
▁Sony	-11.3832
PVC	-11.3834
เจรจา	-11.3834
หยุดนักขัตฤกษ์	-11.3834
▁multi	-11.3834
เยี่ยมมาก	-11.3837
สมาธิ	-11.3841
ข่าวดาวเทียม	-11.3843
ผัด	-11.3848
KVA	-11.3848
เคมีภัณฑ์	-11.3852
มนต์	-11.3854
แตงกวา	-11.3854
▁EXP	-11.3858
ภาคใต้	-11.3859
เอ้ย	-11.3862
ร้านกาแฟ	-11.3864
print	-11.3866
range	-11.3868
▁Splice	-11.3868
เคลือบเงา	-11.387
ที่เป็นประโยชน์	-11.3874
กันกระแทก	-11.3875
ไข่มุก	-11.3875
สนามหญ้า	-11.3879
ชาวต่างชาติ	-11.3879
▁Plug	-11.3894
๔	-11.3895
หดตัว	-11.3901
หินแกรนิต	-11.3909
7.3	-11.391
JAPAN	-11.3916
สอบเทียบ	-11.3917
วอลนัท	-11.3923
▁Mega	-11.3923
เครื่องอัดรีด	-11.3926
แคลอรี่	-11.3929
한	-11.3929
ค่าโดยสาร	-11.393
7,000	-11.3941
▁อัพเดทล่าสุด	-11.3944
ฅ	-11.3951
plate	-11.3958
มาเก๊า	-11.3964
หยอดเหรียญ	-11.3964
สีสันสดใส	-11.3964
แทนทาลัม	-11.3971
▁ดอกบัว	-11.3972
▁Truck	-11.3977
FFFFFF	-11.3978
วันหลังจากได้รับ	-11.3985
▁Vision	-11.3991
▁Fashion	-11.3991
Mbps	-11.3999
oko	-11.4002
ข้อเสนอแนะ	-11.4003
ประตูบานเลื่อน	-11.4012
ความรับผิดชอบต่อ	-11.4013
raft	-11.4019
▁PayPal	-11.4019
เอ๊ย	-11.4019
▁Note	-11.402
คนดัง	-11.4023
เสี่ยง	-11.4024
ภัตตาคาร	-11.4026
รังสิต	-11.4026
ขนแกะ	-11.4028
hydrate	-11.4029
แจ้งเตือน	-11.4032
ع	-11.4033
▁user	-11.4035
м	-11.404
▁Ocean	-11.404
บวม	-11.404
General	-11.4041
น้ําพุร้อน	-11.4043
เสมือนจริง	-11.4045
มณฑลซานตง	-11.4047
▁Spot	-11.405
▁IcePorn	-11.4054
▁Adobe	-11.4054
어	-11.4054
รถเมล์	-11.4061
แนล	-11.4065
ดัดแปลง	-11.4066
▁John	-11.4066
ค่าเฉลี่ย	-11.4074
▁Excavator	-11.4074
▁Chiang	-11.4074
ดับเบิล	-11.4075
กฏหมาย	-11.4088
ification	-11.4088
คริสตจักร	-11.4091
▁Quad	-11.4094
ฟิตติ้ง	-11.4095
ความทรงจํา	-11.4102
จิ๋ม	-11.4109
ถ่ายเอกสาร	-11.4109
▁Frame	-11.4111
โรคมะเร็ง	-11.4115
เชียร์	-11.4115
หน้าแปลน	-11.4116
′′	-11.4123
PLC	-11.4127
◆	-11.4137
อัตราการไหล	-11.4138
▁Metro	-11.414
0/2	-11.4144
วิลเลจ	-11.4144
▁Acetate	-11.4144
blue	-11.4149
พิง	-11.4151
ประธานาธิบดี	-11.4151
ชาร์จแบตเตอรี่	-11.4154
CAM	-11.4156
▁[...]	-11.4159
▁1,5	-11.4161
▁(%)	-11.4164
ความเคลื่อนไหว	-11.4172
▁Deluxe	-11.4172
สเตนเลสสตีล	-11.4172
▁Foundation	-11.4179
▁Engineering	-11.4179
แมก	-11.4181
9.2	-11.4181
ความคมชัด	-11.4182
รับประกันคุณภาพ	-11.4186
มหาสมุทร	-11.4187
piece	-11.4187
▁รุมเย็ด	-11.4193
▁Skype	-11.4196
ปศุสัตว์	-11.42
ตระหนัก	-11.4207
เครื่องคิดเลข	-11.4207
▁Ultrasonic	-11.4215
▁Marvec	-11.4221
ตรวจจับโลหะ	-11.4224
scope	-11.4227
เรสซิเดนซ์	-11.4228
รีเซ็ต	-11.423
ทาวเวอร์เครน	-11.423
จุดเด่น	-11.4233
วิหาร	-11.4234
โปรเซสเซอร์	-11.4236
games	-11.4239
▁บมจ	-11.4243
▁Edition	-11.425
กสิกรไทย	-11.4257
ทิวทัศน์	-11.4257
พี่สาว	-11.426
▁American	-11.4262
crystal	-11.4264
กฎระเบียบ	-11.4265
ลักษณ์	-11.4266
กะทัดรัด	-11.4268
เนื้อเยื่อ	-11.4268
เวชศาสตร์	-11.4272
title	-11.4272
▁Duplex	-11.4278
โพลียูรีเทน	-11.4279
▁Review	-11.428
XNUMX	-11.4285
▁Anabolic	-11.4285
BSCI	-11.4286
ยัด	-11.4287
จะเกิดขึ้น	-11.429
▁Under	-11.4292
งวด	-11.4293
ประเมินผล	-11.4298
▁LINA	-11.43
วอเตอร์	-11.4305
ชลประทาน	-11.4314
นัดหมาย	-11.4316
OWER	-11.4325
▁ดาห์	-11.4325
เซ็ก	-11.4325
▁Short	-11.4327
▁{\	-11.4328
}}	-11.433
▁ext	-11.4333
อัศจรรย์	-11.4335
ตัวชี้วัด	-11.4335
มิลลิเมตร	-11.4344
▁กลุ่มเพศ	-11.4356
ไดโนเสาร์	-11.4356
▁——	-11.4357
อิสลาม	-11.436
▁15:00	-11.4366
izu	-11.437
แบบเรียลไทม์	-11.4371
ซิลิกา	-11.4371
ตึง	-11.4378
อย่างปลอดภัย	-11.4381
—	-11.4385
อัตราดอกเบี้ย	-11.4386
เธฅเธ	-11.4391
ตู้เสื้อผ้า	-11.4391
มาร์ทโฟน	-11.4392
สาธารณูปโภค	-11.4392
อาห์	-11.4392
เว็บโฮสติ้ง	-11.4405
ล้วน	-11.4411
ข้อเท็จจริง	-11.4421
▁IELTS	-11.4421
▁Solid	-11.4422
xiang	-11.4422
ล้อแม็ก	-11.4424
ถนนลาดยาง	-11.4435
8.6	-11.4436
การใช้งานยาวนาน	-11.4439
▁20:00	-11.4447
ซึ่งเป็นหนึ่งใน	-11.4448
▁Osaka	-11.445
ข้าวสาลี	-11.4464
▁August	-11.4464
▁กทม	-11.4464
ม่วง	-11.4466
▁สินค้าขายดี	-11.4477
สตรีมมิ่ง	-11.4479
English	-11.4482
ถือหุ้น	-11.4485
ซื่อสัตย์	-11.4486
หน่วง	-11.4486
ปูนซีเมนต์	-11.4486
▁0.75	-11.4489
ฮอนด้า	-11.4493
unny	-11.4494
{{	-11.4494
บรรจุหีบห่อ	-11.4495
เสร็จสมบูรณ์	-11.4497
มังสวิรัติ	-11.45
▁Women	-11.4501
โยธา	-11.4507
▁BANGKOK	-11.4508
▁Lady	-11.4509
▁have	-11.451
ดินแดน	-11.4511
▁Liquid	-11.4515
ฟิลเลอร์	-11.4519
▁ดื้อ	-11.4519
แพะ	-11.4521
▁Range	-11.4522
สวิงกิ้ง	-11.4522
liver	-11.4523
ผลิตและจําหน่าย	-11.4525
มีชีวิตอยู่	-11.4526
▁NEW	-11.4527
เฝ้าระวัง	-11.453
ความท้าทาย	-11.4532
เมทริกซ์	-11.4537
จัดเรียง	-11.4542
▁Shell	-11.4542
โซนิค	-11.4543
support	-11.4544
หีบห่อ	-11.4549
▁Pallet	-11.4553
▁0086	-11.4557
▁pornstars	-11.4561
อเมริกาเหนือ	-11.4562
▁Bulldozer	-11.4566
▁Cummins	-11.4566
ประโยค	-11.4566
มาตรการ	-11.4569
▁True	-11.4573
▁ผังเว็บไซต์	-11.4574
สะดวกในห้องพัก	-11.458
foot	-11.4588
ใช้ในครัวเรือน	-11.4596
▁APK	-11.4598
ปทุมธานี	-11.4603
เนิน	-11.4604
สิงห์	-11.461
ใบสมัคร	-11.4612
▁Printing	-11.4613
ในที่สาธารณะ	-11.4617
▁Injection	-11.4617
▁สัตว์ประหลาด	-11.4619
ต้านอนุมูลอิสระ	-11.4625
อินเตอร์เฟส	-11.4625
เบ็ด	-11.4627
ความเสถียร	-11.4629
สนามบินนานาชาติ	-11.4637
▁Trefoil	-11.4639
ฮาลาล	-11.4639
▁CBN	-11.4641
พุธ	-11.4645
เอนกประสงค์	-11.4647
ลําไส้	-11.4648
รึยัง	-11.4651
หลอกลวง	-11.4654
เพื่อตอบสนองความ	-11.4659
ตอบคําถาม	-11.4661
โปรดจําไว้	-11.4661
▁says	-11.4662
ขิง	-11.4669
▁นอกบ้าน	-11.4672
▁1,200	-11.4672
ป้อม	-11.4676
▁ชาร์ล	-11.4681
อยุธยา	-11.4683
د	-11.4683
สามัญผู้ถือหุ้น	-11.4684
Commerce	-11.4691
ชําระค่า	-11.4692
▁Coupler	-11.4698
ที่คล้ายกัน	-11.4702
กล้วยไม้	-11.4702
▁VIP	-11.4704
...............	-11.4709
คําศัพท์	-11.4709
สุราษฎร์ธานี	-11.472
นีออน	-11.4725
Talk	-11.4726
▁Turnstile	-11.4728
▁จูเลีย	-11.4738
สะกด	-11.4743
▁Textile	-11.4743
เพลส	-11.4744
ดอนเมือง	-11.4748
Admin	-11.4752
คิดสร้างสรรค์	-11.4753
ถูกสร้างขึ้น	-11.4754
ค็อกเทล	-11.4758
สอดแนม	-11.4758
ย่อยสลาย	-11.4765
ometer	-11.4767
สังหาร	-11.478
รังสียูวี	-11.478
จริยธรรม	-11.4787
สุขสันต์	-11.4787
html	-11.4787
ตุลาคม	-11.4794
ลามิเนท	-11.4795
แฟนตาซี	-11.4795
▁twink	-11.4795
▁Visa	-11.4796
ภูมิแพ้	-11.4796
▁March	-11.4798
▁EDM	-11.4802
วิชาชีพ	-11.4804
▁Vari	-11.4806
แสตมป์	-11.481
อธิษฐาน	-11.481
▁Assembly	-11.481
العربية	-11.481
สํารองห้องพัก	-11.4816
▁Capital	-11.4817
เบอร์รี่โกจิ	-11.482
0:30	-11.4826
▁UFO	-11.4826
แปร	-11.4829
▁Strap	-11.483
บัญญัติ	-11.4832
▁สงวนสิทธิ์	-11.4832
เพลิดเพลิน	-11.4835
เช็คเอาท์	-11.484
ตั๋วเครื่องบิน	-11.4843
ñ	-11.4847
▁Lycium	-11.4847
▁Island	-11.4847
ระบายสี	-11.485
แมรี่	-11.4854
แม้กระทั่ง	-11.4855
▁Residence	-11.4855
ฝ้าเพดาน	-11.487
ลึกลับ	-11.4872
spir	-11.4877
แรงเสียดทาน	-11.4885
โรคเบาหวาน	-11.4885
แท่นวางสินค้า	-11.4889
Robot	-11.4891
ตู้คอนเทนเนอร์	-11.4892
โพลิเมอร์	-11.4892
period	-11.4893
อนุกรม	-11.4893
ฆาตกรรม	-11.4893
เรือนจํา	-11.4896
9.3	-11.4898
สรรเสริญ	-11.49
▁Barebacking	-11.49
▁Support	-11.49
จุดหมายปลายทาง	-11.4908
▁PingBooster	-11.4908
แม็	-11.491
▁ถนนสุขุมวิท	-11.4911
▁เปิดซิง	-11.4915
9.1	-11.4917
เป็ด	-11.4922
กีต้าร์	-11.4923
จาระบี	-11.4923
ล็อกอิน	-11.493
▁Capacitive	-11.493
มานานกว่า	-11.493
bank	-11.4931
ชื่นชม	-11.4933
▁โดนจับได้	-11.4938
ร่วมสมัย	-11.4939
สแต	-11.4947
ต่างด้าว	-11.4953
จุดประสงค์	-11.4957
เบอร์เกอร์	-11.4959
กว่างโจว	-11.4968
▁Visit	-11.4971
Franc	-11.498
ออฟไลน์	-11.4985
Plus	-11.4986
คําเตือน	-11.4989
audi	-11.4995
function	-11.4999
ท่อระบายน้ํา	-11.4999
▁23:59	-11.4999
▁Institute	-11.5006
เป็นที่ยอมรับ	-11.5009
ปุ่มกด	-11.5009
นอกจากนี้	-11.501
สาบาน	-11.501
แมง	-11.5011
ฝ่ายบริการลูกค้า	-11.5019
ดอลล่าร์	-11.5022
ternal	-11.5022
▁Zhen	-11.5028
ตาบอด	-11.5029
อ่อนนุช	-11.5029
▁mono	-11.503
▁Other	-11.503
ที่สุดในโลก	-11.5038
▁Edge	-11.5041
ต้นกําเนิด	-11.5044
▁rfid	-11.5045
รถประจําทาง	-11.5052
▁Cisco	-11.5052
บีบอัด	-11.5054
ธนู	-11.5056
เคร่งครัด	-11.506
▁พักตร์	-11.506
ไนจีเรีย	-11.506
จอแอลซีดี	-11.506
travel	-11.5067
คอลลาเจน	-11.5068
▁Hollow	-11.5069
เดือนเมษายน	-11.5074
กระถาง	-11.5075
▁Enanthate	-11.5075
อุดมไปด้วย	-11.5075
อวัยวะ	-11.5075
▁TOYOTA	-11.5083
ช็อต	-11.5083
▁IPhone	-11.5083
▁Fresh	-11.5087
ดอกกุหลาบ	-11.5088
Herb	-11.509
▁0.03	-11.5091
หลวม	-11.5098
▁Jacquard	-11.5098
Zhou	-11.5104
▁Betaine	-11.5106
▁FREE	-11.5106
คณะรัฐมนตรี	-11.5107
โรตารี	-11.5109
▁Spec	-11.5115
▁Front	-11.5115
ผูกพัน	-11.5118
พจนานุกรม	-11.5121
มิชชันนารี	-11.5121
▁Original	-11.5121
▁Summer	-11.5122
▁Filler	-11.5122
▁Chlor	-11.5126
ขุน	-11.5128
เรื้อรัง	-11.5129
▁ยกเลิกการตอบ	-11.5137
7.7	-11.5138
▁ตลอดจน	-11.5146
คู่มือท่องเที่ยว	-11.5151
เจ้อเจียง	-11.5152
▁hand	-11.5159
ตุ๊กตาบาร์บี้	-11.516
▁Anchor	-11.516
ช่อดอกไม้	-11.5168
สปอต	-11.5168
struct	-11.5169
เช็ควาล์ว	-11.5174
▁Gimbal	-11.5176
ไททาเนียม	-11.5183
▁IMG	-11.5185
สแตนดาร์ด	-11.5191
ทวิตเตอร์	-11.5191
▁081-	-11.5195
ม่อน	-11.5196
การประยุกต์ใช้	-11.5197
▁Lanyard	-11.5199
ที่ซ่อนอยู่	-11.5203
ชื้น	-11.5207
เทศบาล	-11.5207
bangkok	-11.5207
เฮิร์	-11.5207
สตริง	-11.5207
ไกด์	-11.5208
เบลเยียม	-11.5214
language	-11.5214
▁EnglishEspañolP	-11.5215
ฟฟี่	-11.522
ไดร์ฟ	-11.5222
มงกุฎ	-11.523
ش	-11.5238
ชินจูกุ	-11.5238
▁auto	-11.5251
▁Sukhumvit	-11.5254
▁Ubuntu	-11.5254
เพลิง	-11.5255
ประธานเจ้าหน้า	-11.5257
การันตี	-11.5261
▁Crimp	-11.5262
ชีววิทยา	-11.5263
▁CSA	-11.5266
ช็อปปิ้ง	-11.527
mount	-11.527
ผิดหวัง	-11.5274
▁interracial	-11.5277
พญาไท	-11.5277
ฮาร์ดดิสก์	-11.5278
เชิงกล	-11.528
สามมิติ	-11.5284
การทําธุรกรรม	-11.5284
การเรียนการสอน	-11.5287
ดวงอาทิตย์	-11.5288
เทียนหอม	-11.529
อนุบาล	-11.5293
▁PHUKET	-11.5293
การกํากับดูแล	-11.5298
สามเฟส	-11.5303
จอร์จ	-11.5305
Lux	-11.5308
▁Gallery	-11.5308
ความคืบหน้า	-11.5316
รถกระบะ	-11.5316
นวล	-11.5318
space	-11.5331
Official	-11.5332
ไส้กรอก	-11.5333
แองเจล	-11.534
ปริญญาเอก	-11.534
glyc	-11.5349
เธซเธ	-11.5361
กริด	-11.5368
Virtual	-11.5372
▁TRADE	-11.538
ต้องการของลูกค้า	-11.5381
ขาดทุน	-11.5382
มอนสเตอร์	-11.5382
▁asian	-11.5384
▁น่าประหลาดใจ	-11.5387
ssgoo	-11.5403
อีเว้นท์	-11.5411
▁Battery	-11.5411
▁MetaTrader	-11.5411
เซอร์เบีย	-11.5414
ข้อบกพร่อง	-11.5415
Exp	-11.5426
▁AAA	-11.5434
กระปุก	-11.5435
อสุจิ	-11.5435
ン	-11.5435
ท่อไอเสีย	-11.5438
ชุดชั้นใน	-11.544
ที่แนบมา	-11.5441
คําบรรยาย	-11.5441
ก่อให้เกิด	-11.5444
▁tea	-11.545
เธรด	-11.5459
มะม่วง	-11.546
ฝักบัวอาบน้ํา	-11.546
.06.201	-11.546
ป้ายโฆษณา	-11.5464
▁ASEAN	-11.5467
เหยียบ	-11.5475
Components	-11.5484
ไส้กรอง	-11.5486
อภิ	-11.5491
ภาษีมูลค่าเพิ่ม	-11.5491
การเผาไหม้	-11.5494
9002,	-11.5495
ฝนตก	-11.5496
แท่นวาง	-11.5498
gging	-11.5498
▁National	-11.5499
▁หยิบใส่ตะกร้า	-11.5515
▁Collection	-11.5515
▁฿1,	-11.5522
ฮาโลเจน	-11.5523
▁บัดนี้	-11.5523
มงคล	-11.5523
▁14:00	-11.5525
รอยขีดข่วน	-11.5531
เซ็นทารา	-11.5531
▁Science	-11.5531
แครอท	-11.5531
ง่ายดาย	-11.5535
ลูเมน	-11.5538
▁ทางปาก	-11.554
กล้องจุลทรรศน์	-11.5547
นิคมอุตสาหกรรม	-11.5547
ดับเบิ้ล	-11.5555
จอร์แดน	-11.5555
▁10/100	-11.5557
กรีดร้อง	-11.5563
▁Mitsubishi	-11.5563
▁Volvo	-11.5564
Script	-11.5571
▁pov	-11.5577
+00:00	-11.5579
▁Binary	-11.558
คิงไซส์	-11.558
ดูสถานที่น่าสนใจ	-11.5588
content	-11.5588
สาขาวิชา	-11.5597
บ๊อบ	-11.5602
สมุทร	-11.5603
▁Thread	-11.5606
กรดอะมิโน	-11.5612
วอชิงตัน	-11.5612
▁clips	-11.5612
▁Hyper	-11.5612
plastic	-11.5612
▁Waterproof	-11.5613
เมล็ดพืช	-11.5623
▁step	-11.5624
โซเชียลมีเดีย	-11.5628
ดาวน์ไลท์	-11.5629
ห่วย	-11.5629
▁HKD	-11.563
▁หยาบคาย	-11.5636
▁Botou	-11.5636
เธงเธ	-11.5637
0:00	-11.5637
▁CBD	-11.564
หุบเขา	-11.5644
อย่างแท้จริง	-11.5644
▁ประชาชาติ	-11.5644
▁Servo	-11.5644
ชุดเครื่องนอน	-11.5645
8.9	-11.5657
แผงแซนวิช	-11.5659
ตีนตะขาบ	-11.5661
เปล่ง	-11.5661
▁Motion	-11.5667
คริสมาสต์	-11.5669
ความหนืด	-11.5669
ประกบ	-11.5669
เเละ	-11.5669
ย้ํา	-11.5669
▁16:00	-11.5671
ลูกบาศก์	-11.5685
มัตสึ	-11.5685
▁นอกใจ	-11.5696
Sichuan	-11.5701
จิตรกรรม	-11.5701
ปฏิวัติ	-11.571
▁Commercial	-11.571
ประกวด	-11.5715
▁Boldenone	-11.5718
▁Holiday	-11.5718
▁windows	-11.5718
▁Clear	-11.5721
อาหารค่ํา	-11.5732
ปะการัง	-11.5734
บาร์เรล	-11.5734
▁Gaming	-11.5735
เชอร์รี่	-11.5737
ส้อม	-11.5743
เดือนกุมภาพันธ์	-11.5749
ทับทิม	-11.5751
▁Magnetic	-11.5751
คอนโซล	-11.5752
อัลตราโซนิค	-11.5759
สรรพ	-11.5766
สัมประสิทธิ์	-11.5767
5-0	-11.5773
AKA	-11.5775
у	-11.5775
ค่าคอมมิชชั่น	-11.5775
เปปไทด์	-11.5775
ขั้นพื้นฐาน	-11.5779
AWA	-11.578
สุภาพบุรุษ	-11.5784
▁Transducer	-11.5784
▁anabolic	-11.5784
มอบหมาย	-11.5787
Smile	-11.5791
อาสาสมัคร	-11.5792
▁Explorer	-11.5792
▁นอกจากนี้เรายัง	-11.5792
Soft	-11.5795
▁Camera	-11.5801
Indonesia	-11.5808
ตู้แช่แข็ง	-11.5813
ยาปฏิชีวนะ	-11.5817
ชักว่าว	-11.5817
ปริญญา	-11.5821
จตุจักร	-11.5825
พรีเมียม	-11.5825
เผาผลาญ	-11.5825
▁ศึกสามเส้า	-11.5825
ดัตช์	-11.5825
Corporate	-11.5833
ยูทิลิตี้	-11.5833
เดือนสิงหาคม	-11.5839
ตัวแปลงสัญญาณ	-11.5841
มาร์ติน	-11.5849
▁10.1	-11.585
ฝ้า	-11.5853
สปิน	-11.5854
กางเกงขาสั้น	-11.5858
▁ทั้	-11.5859
▁ไม่รู้สิ	-11.586
▁Gift	-11.5861
เพ็	-11.5862
▁AWS	-11.5862
มุสลิม	-11.5866
▁iTunes	-11.5875
glass	-11.5876
▁ซอฟต์คอร์	-11.5876
="4.	-11.588
This	-11.5882
ข่มขืน	-11.5883
เทมเพลต	-11.5891
▁$0.	-11.5892
ฉ่ํา	-11.5896
▁Pellet	-11.59
direct	-11.5903
กระดุม	-11.5908
ฯลฯ	-11.5914
รีเฟรช	-11.5916
7.9	-11.5921
เทฟลอน	-11.5925
phosph	-11.5925
▁CHA	-11.5927
นาริตะ	-11.5933
0.30	-11.5937
▁Gabion	-11.5942
ซ่อมบํารุง	-11.5942
▁DVR	-11.5951
สาธารณรัฐเช็ก	-11.5958
แกลเลอรี	-11.5966
การลงโทษ	-11.5971
▁Welding	-11.5975
▁Polyester	-11.5976
ลุมพินี	-11.5983
Redtube	-11.5986
เห็นได้ชัด	-11.5991
Graph	-11.5992
ซิดนีย์	-11.5992
▁Bollard	-11.5992
▁Module	-11.5993
ข่าย	-11.5994
เธกเน	-11.5996
ฮ็อ	-11.6
▁Extrusion	-11.6
เนปาล	-11.6006
8.7	-11.6008
นิติบุคคล	-11.6009
▁Category	-11.6009
silicon	-11.6009
อายแชโดว์	-11.6017
▁Compressor	-11.6017
▁1/8	-11.6023
รัฐมนตรี	-11.6025
▁Stainless	-11.6026
หรี่แสงได้	-11.6026
▁SQL	-11.6026
สปีด	-11.6042
▁Interlining	-11.6043
▁Centre	-11.6043
▁Apk	-11.6047
ฌ	-11.6051
พาร์ทเนอร์	-11.6059
▁Museum	-11.6059
▁สมุฏฐาน	-11.6068
nks	-11.6073
าวน์	-11.6074
▁เกาะช้าง	-11.6079
▁know	-11.608
▁PDA	-11.6081
สื่อลามก	-11.6085
ฉีกขาด	-11.6085
▁Bird	-11.6085
แกลลอรี่	-11.6093
หม่อ	-11.6096
▁AMD	-11.6097
แกว่ง	-11.6102
▁ขอแสดงความยินดี	-11.6103
แผ่นดินไหว	-11.6105
เดือนธันวาคม	-11.6108
▁Education	-11.611
เทือกเขา	-11.6119
จูงใจ	-11.6136
ุ้ย	-11.6142
▁Extruder	-11.6145
▁Family	-11.6145
▁Mould	-11.6145
เกิ้ล	-11.6148
▁Roof	-11.6149
แฝง	-11.6153
▁AISI	-11.6154
ไฮเทค	-11.6158
แรงโน้มถ่วง	-11.6162
ethylene	-11.6163
ประถม	-11.617
▁Citr	-11.617
▁VGA	-11.6171
สโตน	-11.6178
▁Honda	-11.6179
imming	-11.6179
▁ดอกคาร์เนชั่น	-11.6197
คัดสรร	-11.6205
ผู้ลี้ภัย	-11.6205
โฮลดิ้ง	-11.6205
▁SHANDONG	-11.6205
ราคาไม่แพง	-11.6205
▁prefab	-11.6205
ชมรม	-11.6206
หลงใหล	-11.6213
▁Adhesive	-11.6213
▁Dye	-11.622
ดาวเคราะห์	-11.6222
▁Splitter	-11.623
ฮอกกี้	-11.6231
สถิต	-11.6232
Tec	-11.6238
อักขระ	-11.6239
จัดสรร	-11.6243
สักหลาด	-11.6248
▁Account	-11.6248
ทุจริต	-11.6265
แบล็ก	-11.6265
ฟอรั่ม	-11.6282
mobile	-11.6283
เดือนพฤศจิกายน	-11.6289
ไฮไลท์	-11.6291
race	-11.6306
.10.201	-11.6308
▁Profile	-11.6309
ตอบโจทย์	-11.6317
อิทธิพล	-11.6317
▁Tattoo	-11.6317
▁Address	-11.6318
▁โว้ว	-11.6326
ล่วง	-11.6328
ชะลอ	-11.633
เดือนกันยายน	-11.6332
▁MACHINERY	-11.6335
ชั่วโมงที่ผ่านมา	-11.6342
Japanese	-11.6343
▁Cristi	-11.6344
XXX	-11.6347
สัมพัทธ์	-11.6352
เรยอน	-11.6352
▁Bbq	-11.6352
หอคอย	-11.6353
▁Nandrolone	-11.6361
ลัตเวีย	-11.6361
▁Asp	-11.6362
▁Foot	-11.6362
ดัดเหล็กเส้น	-11.6362
▁America	-11.6363
อเล็กซ์	-11.637
▁about	-11.6371
จูเนียร์	-11.6378
▁Poncho	-11.6378
▁Controller	-11.638
▁Piezo	-11.6396
ortuguêsP	-11.6422
หุบปาก	-11.6431
สวัสดี	-11.6436
บาคาร่า	-11.644
▁จุดหลอมเหลว	-11.644
อะตอม	-11.644
อ้อม	-11.6447
4-0	-11.645
กํากับดูแลกิจการ	-11.6451
▁Virgin	-11.6457
▁Ridge	-11.6457
▁Sweet	-11.6457
วิกฤต	-11.6457
▁Simple	-11.646
ฟอสฟอรัส	-11.6475
สถาปนิก	-11.6475
พึง	-11.6484
พหลโยธิน	-11.6484
ฟิสิกส์	-11.6484
จระเข้	-11.6484
สคริปต์	-11.6493
Guangzhou	-11.6493
ขูด	-11.6493
▁Second	-11.6493
Spankwire	-11.6501
เกิร์ล	-11.6501
▁protected	-11.6501
ยูเนี่ยน	-11.6501
เดือนพฤษภาคม	-11.6506
บ่าว	-11.6511
ชิงเต่า	-11.6511
ออปติคอล	-11.6529
ession	-11.6531
blowjob	-11.6537
▁Luxury	-11.6537
▁Boutique	-11.6546
▁Jewelry	-11.6546
ลัดวงจร	-11.6548
สูญหาย	-11.6555
س	-11.6564
เเล้ว	-11.6564
▁Cangzhou	-11.6564
نی	-11.6564
TRANS	-11.6565
ชิคาโก	-11.6568
มณฑลเจียงซู	-11.6573
ลักพาตัว	-11.6582
▁Property	-11.6582
อสังหาฯ	-11.659
เอทีเอ็ม	-11.659
▁Fruit	-11.6601
▁Financial	-11.6608
อะนาล็อก	-11.6608
ــ	-11.6617
▁Copper	-11.6618
หนุน	-11.6621
พงษ์	-11.6626
โยเกิร์ต	-11.6626
▁voyeur	-11.6626
โรงแรมโนโวเทล	-11.6635
▁Gerberas	-11.6635
▁Netflix	-11.6635
อะนิเมะ	-11.6635
▁Pantone	-11.6635
อุดรธานี	-11.6644
▁YourSingapore	-11.6653
ซีรี่ส์	-11.6656
มัลติฟังก์ชั่	-11.6675
Shaanxi	-11.668
เซลลูโลส	-11.6689
ซีพียู	-11.6689
▁website	-11.6689
Safe	-11.6693
สมเด็จพระ	-11.6698
คาร์บอนไดออกไซด์	-11.6698
กู้ภัย	-11.6699
เป็นมิตรต่อ	-11.671
เกิล	-11.6716
คํานึงถึง	-11.6716
ประทับตรา	-11.6718
cream	-11.6723
ด้ามจับ	-11.6726
จักรวาล	-11.6731
มหาลัย	-11.6735
Beijing	-11.6744
อัลลอฮฺ	-11.6744
▁CMYK	-11.6744
▁Panasonic	-11.6744
▁Crypto	-11.6744
scape	-11.6747
กว้าน	-11.6753
ครรภ์	-11.6757
ฤกษ์	-11.6762
เสียงปรบมือ	-11.6762
พระเยซู	-11.6771
สตรอเบอร์รี่	-11.6771
สารหน่วงไฟ	-11.6771
Strike	-11.6775
▁Cufflink	-11.678
ระมัดระวัง	-11.6789
▁Intermediate	-11.6789
สโนว์	-11.6798
!】"	-11.6798
▁โกลบอล	-11.6799
▁Activated	-11.68
0.10	-11.6801
▁Component	-11.6804
ศรีลังกา	-11.6807
เมทัล	-11.6807
▁INTERNATIONAL	-11.6817
เงียบสงบ	-11.6817
Calendar	-11.6826
คูปอนรหัส	-11.6835
อวยพร	-11.6835
▁Blade	-11.6835
สแตนด์บาย	-11.6853
โปรดปราน	-11.6853
▁เราเป็นผู้ผลิต	-11.6859
สาธารณสุข	-11.6872
▁Restaurant	-11.6881
▁WIRE	-11.6881
บาหลี	-11.689
น่าสงสาร	-11.6899
▁adopts	-11.6899
กราฟฟิก	-11.6899
▁Merc	-11.6902
▁ในฐานะที่เป็น	-11.691
ผืน	-11.6918
▁Coffee	-11.6918
เพลินจิต	-11.6927
บกพร่อง	-11.6932
self	-11.6933
▁Small	-11.6937
▁London	-11.6945
ออปติคัล	-11.6947
เธธเธ	-11.6949
ก่อการร้าย	-11.6955
พาร์ทิชัน	-11.6955
หนิง	-11.6957
เธดเธ	-11.6958
▁ร่วมงานกับเรา	-11.6973
ข้อควรระวัง	-11.6983
สะเทือน	-11.6992
โมเด็ม	-11.6992
มะกอก	-11.6992
แจ้งให้ทราบ	-11.6992
ขนมขบเคี้ยว	-11.7001
เซรั่ม	-11.7001
▁Omazz	-11.7001
▁Cream	-11.7002
แป้น	-11.7007
แทรมโพลีน	-11.701
▁interlining	-11.701
อีคอมเมิร์ซ	-11.701
▁Candle	-11.7012
addle	-11.7017
อพาร์ทเมน	-11.7019
เอทิลีน	-11.702
กระตุก	-11.7029
▁Pikbest	-11.7038
▁Dried	-11.7039
▁Tetra	-11.7043
ยอดคงเหลือ	-11.7048
calcium	-11.7048
contact	-11.7048
ผ่านศูนย์กลางของ	-11.7053
บีทีเอส	-11.7057
▁Nailer	-11.7057
หย่อน	-11.7067
▁MgO	-11.7067
สตีล	-11.7069
หมั้น	-11.7095
คอมโพเนนต์	-11.7104
ฆาตกร	-11.7104
กัดกร่อน	-11.7109
ถังเก็บน้ํา	-11.712
▁จํานวนคนดู	-11.7123
ทศวรรษ	-11.7132
▁Cyclo	-11.7133
พฤศจิกายน	-11.7133
mulator	-11.7134
แคชเมียร์	-11.7142
▁Happy	-11.7142
กําไลข้อมือ	-11.7142
drive	-11.7145
สแปม	-11.7151
▁ebony	-11.7151
ที่ใกล้ที่สุด	-11.7152
Computer	-11.7161
รัพย์สินทางปัญญา	-11.7161
ลงชื่อเข้าใช้	-11.717
อิเล็กโทร	-11.717
【	-11.7186
ดับบลิว	-11.7189
ทางเพื่อธุรกิจ	-11.7202
▁Earth	-11.7209
คล้ายคลึง	-11.7218
▁goji	-11.7223
▁Dragon	-11.7227
Regist	-11.7229
▁Ambrette	-11.7237
▁Pacific	-11.7237
แท่นขุดเจาะ	-11.7247
▁Decking	-11.7248
เภสัช	-11.7255
▁Telescopic	-11.7256
▁cFos	-11.7256
▁Instrument	-11.7265
เป็นไปไม่ได้	-11.7281
มุงหลังคา	-11.7285
ซิลิกอน	-11.7294
บังกะโล	-11.7294
ปริมณฑล	-11.7294
เฟิร์มแว	-11.7301
ตั้งโปรแกรมได้	-11.7302
ขัดแย้ง	-11.7304
ไทเทเนี่ยม	-11.7313
แอนดรอยด์	-11.7313
▁XHamster	-11.7313
▁Kingston	-11.7314
แสวงหา	-11.7323
google	-11.7333
สรรหา	-11.7333
อัคคีภัย	-11.7342
เฉือน	-11.7342
▁rhinestone	-11.7342
เมษายน	-11.7347
ย้อนยุค	-11.7352
เบ็ดเตล็ด	-11.7352
▁September	-11.7352
พระตําหนัก	-11.7352
ล็อบบี้	-11.7362
สะโพก	-11.7362
โปรโมชัน	-11.7362
ราสเบอร์รี่	-11.7362
▁Omni	-11.7362
ถ่วง	-11.7371
มอสโก	-11.7371
คลอรีน	-11.7371
มันวาว	-11.7371
เป่ย	-11.738
ยี่สิบ	-11.7381
อํานวย	-11.7389
อัลลอฮ์	-11.7391
ชีวมวล	-11.7391
ประเสริฐ	-11.7391
ภักดี	-11.7391
▁Platform	-11.7391
ซอมบี้	-11.74
▁Dispersion	-11.74
▁Sulf	-11.7404
เผ่า	-11.7419
ي	-11.742
มองโกเลีย	-11.742
▁วจนะ	-11.742
โฮโลแกรม	-11.7429
▁cryptocurrency	-11.7429
▁นมคู่โต	-11.7429
อิตาเลี่ยน	-11.7439
เท็จ	-11.7449
ปิโตรเคมี	-11.7449
อิสตันบูล	-11.7449
เป็นยังไงบ้าง	-11.7459
ค่าตอบแทน	-11.7459
pussy	-11.7468
.05.2017	-11.7488
พิท	-11.7492
คุกคาม	-11.7498
ช้อนส้อม	-11.7498
commerce	-11.7498
หลั่ง	-11.7498
≤0.	-11.7503
แวดล้อม	-11.7504
สก็อต	-11.7508
▁About	-11.7508
▁BOPP	-11.7508
อะคริลิ	-11.7515
พันธบัตร	-11.7517
นิวเคลียร์	-11.7518
▁โลกภาพถ่าย	-11.7528
พาราฟิน	-11.7537
▁Nylon	-11.7537
ระดมทุน	-11.7547
▁Actuator	-11.7547
▁Recovery	-11.7557
เฟสติวัล	-11.7566
ฟอส	-11.7575
▁ซีอาน	-11.7576
กํามะหยี่	-11.7586
▁13.56	-11.7587
จอร์เจีย	-11.759
แพลทินัม	-11.7596
▁DrTuber	-11.7596
▁Granulator	-11.7596
ฉีก	-11.7605
▁Adapter	-11.7606
ธันวาคม	-11.7612
บูติค	-11.7616
ไนเตรต	-11.7626
นุษย	-11.7626
เตรียมความพร้อม	-11.7626
smart	-11.7635
▁consultation	-11.7636
อลิซ	-11.7649
▁College	-11.7656
ะฮฺ	-11.7656
วิปริต	-11.7675
.04.201	-11.7685
ศรีนครินทร์	-11.7685
▁IEEE	-11.7686
▁Agent	-11.7686
Archive	-11.769
กรมธรรม์	-11.7695
ออมทรัพย์	-11.7696
▁MACHINE	-11.7705
testosterone	-11.7705
พํานัก	-11.7715
lysis	-11.7718
chemical	-11.7725
คริสเตียน	-11.7735
เบอรี่	-11.7735
ทมิฬ	-11.7745
ยกย่อง	-11.7745
▁ANKO	-11.7755
▁Fitness	-11.7755
วาฟเฟิล	-11.7766
▁reserved	-11.7766
▁ดิลโด	-11.7772
▁Shantui	-11.7776
Market	-11.7777
German	-11.7777
อ่างล้างหน้า	-11.7786
▁bigXvideos	-11.7786
High	-11.7787
▁PRODUCT	-11.7796
ลิเธียม	-11.7798
ç	-11.7806
▁Chinese	-11.7806
Order	-11.781
▁Association	-11.7816
▁Information	-11.7816
มารดา	-11.7825
แตงโม	-11.7826
ห้องโถง	-11.7826
screen	-11.7836
▁Device	-11.7836
▁After	-11.7837
▁Cafe	-11.7837
▁Gloves	-11.7846
เอกอัครราชทูต	-11.7856
▁December	-11.7856
ด่าน	-11.7857
ทุบ	-11.7859
นครราชสีมา	-11.7867
รอบชิงชนะเลิศ	-11.7867
▁รองประธาน	-11.7871
ระเหิด	-11.7877
▁Caterpillar	-11.7877
▁(+66)	-11.7877
อพาร์ทเม้น	-11.7897
มหกรรม	-11.7898
▁Communication	-11.7907
▁Intelligent	-11.7907
เคลื่อน	-11.7913
วัตต์	-11.7914
▁January	-11.7918
เลานจ์	-11.7928
ف	-11.7938
public	-11.7938
▁ฮิญาบ	-11.7948
วอลเปเปอร์	-11.7958
Dynamic	-11.7958
พระมหากษัตริย์	-11.7958
โช้คอัพ	-11.7958
▁November	-11.7958
แอปพลิเคชั่น	-11.7969
โคลัมเบีย	-11.7969
ระบํา	-11.7969
ส่งผลให้	-11.7969
▁Personal	-11.7979
Auto	-11.7981
Hotel	-11.7985
กํามะถัน	-11.7989
▁Creampie	-11.7989
.02.2017	-11.8
▁SHIJIAZHUANG	-11.8
โรเบิร์ต	-11.8
กรกฏาคม	-11.801
กันยายน	-11.801
▁Pearl	-11.8011
ลักษณะที่ปรากฏ	-11.8012
ชี้แจง	-11.802
เครื่องปฏิกรณ์	-11.802
แชสซี	-11.802
,000฿	-11.8022
บัฟเฟอร์	-11.803
เทรดดิ้ง	-11.803
▁(32/64	-11.803
▁York	-11.8031
แม่มด	-11.8032
สมรรถภาพ	-11.8041
ออฟติคัล	-11.8041
▁Certificate	-11.8041
▁Suspension	-11.8041
เนสท์เล่	-11.8051
กะพริบ	-11.8061
▁Pocket	-11.8062
ธรณี	-11.8072
▁Straight	-11.8072
▁Nonwoven	-11.8082
พจน์	-11.8083
มดลูก	-11.8091
Français	-11.8093
▁Hydr	-11.8101
▁Australia	-11.8103
▁TOKYO	-11.8113
▁Vessoft	-11.8113
▁Nozzle	-11.8134
เหล่านักสวิงกิ้ง	-11.8145
▁Meanwell	-11.8145
เครื่องล้างจาน	-11.8145
แกรน	-11.8149
อาหรับเอมิเรตส์	-11.8155
เลเวอเรจ	-11.8155
อพยพ	-11.8155
▁neoprene	-11.8155
พันธุกรรม	-11.8166
ในชีวิตประจําวัน	-11.8166
มายากล	-11.8166
เท็กซัส	-11.8176
ทนายความ	-11.8176
มั่นใจได้ว่า	-11.8177
งานอดิเรก	-11.8187
ฟลูออเรสเซนต์	-11.8187
คลั่ง	-11.8197
หลากสี	-11.8199
เซอร์ไพรส์	-11.8208
▁October	-11.8208
ปรนนิบัติ	-11.8218
โค้ท	-11.8239
▁Composite	-11.825
กิโลเมตร	-11.8253
บัตรกํานัล	-11.826
▁เบ็นเท็น	-11.826
งี้	-11.8261
สุนทร	-11.8264
▁CCTV	-11.8272
รัชดาภิเษก	-11.8281
แบดมินตัน	-11.8281
จนกระทั่งการส่ง	-11.8292
บุกรุก	-11.8313
▁Phosphate	-11.8313
ความก้าวหน้า	-11.8315
▁บิกินี	-11.832
เจือปน	-11.8324
สวัสดิการ	-11.8334
▁OHSMS	-11.8334
ยินยอม	-11.8349
เคลียร์	-11.8355
แบบแยกส่วน	-11.8363
ไบนารี	-11.8379
▁ทํากันเอง	-11.8388
ร้านขายยา	-11.8388
▁Prefab	-11.8393
ที่ระลึก	-11.8399
ยาสีฟัน	-11.8409
▁HTTP	-11.841
▁spec	-11.841
ารกําจัดศัตรูพืช	-11.842
▁Exhibition	-11.842
อัลตราซาวด์	-11.842
เคาะ	-11.842
กรีซ	-11.8427
Windows	-11.8432
กําไล	-11.8452
โดมินิกัน	-11.8452
น็อต	-11.8453
▁AlotPorn	-11.8463
creat	-11.8469
▁Automation	-11.8474
▁Voyeur	-11.8495
▁Huawei	-11.8495
เครื่องขยายเสียง	-11.8505
สเปกตรัม	-11.8506
ลูกเบี้ยว	-11.8506
ชอป	-11.8509
▁aunty	-11.8517
Copyright	-11.8518
จุฬาลงกรณ์	-11.8528
นากาโนะ	-11.8528
▁Abrasive	-11.8528
.07.201	-11.8534
เจี๊ยบ	-11.8539
▁บจก	-11.8539
กลีบ	-11.8539
wheel	-11.855
ถอดออกได้	-11.8577
เหงื่อ	-11.8582
▁Faucet	-11.8582
คุ้นเคย	-11.8593
ฉงชิ่ง	-11.8604
▁CUMMINS	-11.8604
▁Granules	-11.8604
▁strapon	-11.8604
▁iPod	-11.8604
รถบดถนน	-11.8604
/12/201	-11.8617
▁Logitech	-11.8626
คําขอของลูกค้า	-11.8628
ผ้าลินิน	-11.8641
เปี่ยม	-11.8648
แอ็พพลิเคชัน	-11.8648
▁Sinotruk	-11.8648
▁electro	-11.8648
●	-11.9159
ฃ	-11.9681
й	-11.9998
ê	-12.0279
ํ	-12.055
«	-12.2822
‘	-12.3069
ラ	-12.3236
日	-12.4672
ة	-12.5465
	-12.6045
›	-12.6938
本	-12.8965
中	-12.9406
プ	-13.0639
語	-13.6068
′	-13.6386
►	-13.9921
文	-14.1516
ـ	-16.327
	-18.1406
💐	-18.1406
