<unk>	0
<s>	0
</s>	0
-	-2.36454
▁	-2.83072
,	-3.87332
▁ta	-3.94317
i	-3.9506
▁l	-4.00463
▁tal	-4.0227
.	-4.08059
’	-4.10086
▁u	-4.29259
a	-4.31427
▁li	-4.36957
'	-4.46134
▁il	-4.78381
s	-4.87306
t	-4.89961
b	-5.12267
)	-5.12406
▁(	-5.22069
u	-5.39438
x	-5.46158
▁għall	-5.49718
l	-5.50606
▁b	-5.53267
w	-5.53342
▁jew	-5.61443
▁f	-5.63523
g	-5.64206
/	-5.64498
e	-5.6558
▁fil	-5.66077
▁ma	-5.69075
jiet	-5.76121
d	-5.76457
▁mill	-5.78422
▁għal	-5.79759
▁t	-5.79993
f	-5.82554
ri	-5.85698
▁L	-5.86987
▁j	-5.8828
ti	-5.89874
▁fl	-5.90758
▁Il	-5.99353
▁minn	-6.0041
er	-6.01741
ta	-6.02783
in	-6.05046
▁dwar	-6.05388
o	-6.06834
:	-6.0732
r	-6.09056
▁fuq	-6.09617
▁s	-6.11213
il	-6.11325
;	-6.14448
n	-6.21146
ra	-6.24983
li	-6.25096
ar	-6.2805
ja	-6.28747
▁tas	-6.30137
▁biex	-6.31963
▁ir	-6.33479
m	-6.34549
▁tat	-6.36295
or	-6.37743
A	-6.40092
k	-6.41325
ħ	-6.41445
h	-6.44096
Artikolu	-6.45371
p	-6.45982
ment	-6.48082
Kummissjoni	-6.49505
▁m	-6.49535
▁d	-6.5043
▁r	-6.51326
▁tad	-6.51569
na	-6.52155
▁tar	-6.52878
di	-6.53276
▁id	-6.53696
P	-6.54445
c	-6.54476
ż	-6.55045
▁S	-6.5512
mod	-6.55129
▁it	-6.55377
▁għandhom	-6.55697
al	-6.57219
▁is	-6.5797
UE	-6.58224
S	-6.59101
Regolament	-6.60996
ni	-6.62154
en	-6.6487
azzjoni	-6.6529
el	-6.66425
2	-6.66617
q	-6.67709
I	-6.69956
▁għandu	-6.70621
▁lill	-6.71174
▁T	-6.71668
T	-6.7208
1	-6.72416
▁in	-6.74975
▁mal	-6.75326
▁A	-6.76274
zzjoni	-6.76353
▁dan	-6.77035
▁kif	-6.77068
re	-6.7808
▁F	-6.78167
▁1	-6.78662
3	-6.79385
an	-6.80543
on	-6.80712
C	-6.80799
ma	-6.83046
j	-6.83149
▁huma	-6.84562
M	-6.84612
▁B	-6.85409
at	-6.85557
5	-6.86101
E	-6.86768
▁huwa	-6.87667
▁jiġu	-6.87723
▁p	-6.88103
et	-6.88111
▁għandha	-6.88905
D	-6.89288
lu	-6.89704
mi	-6.90001
ji	-6.90173
▁3	-6.90193
K	-6.90442
du	-6.90696
4	-6.94926
Unjoni	-6.95143
ed	-6.95964
da	-6.96474
ċi	-6.96708
ju	-6.96972
es	-6.97596
▁fis	-6.97724
▁P	-6.978
▁Membri	-6.97973
Kunsill	-6.98004
B	-6.98477
aw	-6.99751
KE	-7.00299
Istati	-7.01
▁tkun	-7.01718
▁2	-7.01727
▁Nru	-7.01823
”	-7.02364
ali	-7.02536
em	-7.02709
z	-7.02719
6	-7.03032
▁n	-7.0312
▁skont	-7.03239
għ	-7.0397
y	-7.04047
F	-7.04226
U	-7.0552
▁tagħhom	-7.05699
▁k	-7.06416
▁M	-7.06942
R	-7.08152
▁mhux	-7.08264
im	-7.09677
▁aktar	-7.09793
id	-7.10515
▁jiġi	-7.11353
▁jkun	-7.11505
ir	-7.12784
vi	-7.13874
ġ	-7.15415
ati	-7.15781
▁bħala	-7.15832
▁se	-7.16499
O	-7.16999
▁fi	-7.17831
ur	-7.18646
▁jekk	-7.18998
▁Ewropea	-7.19132
ro	-7.19564
▁hija	-7.19973
le	-7.20415
v	-7.20705
▁Ewropew	-7.21412
▁kollha	-7.21567
ol	-7.21687
▁sabiex	-7.22454
▁K	-7.23255
ka	-7.23537
ċ	-7.23755
tu	-7.25808
L	-7.26066
ha	-7.26074
▁din	-7.26242
▁jistgħu	-7.26494
am	-7.27024
te	-7.27135
▁jista	-7.27198
▁bejn	-7.2873
▁bil	-7.28841
▁5	-7.29529
▁C	-7.3106
▁dawn	-7.31662
un	-7.31866
▁im	-7.32027
▁I	-7.3212
▁wara	-7.32294
▁tiġi	-7.32381
7	-7.32788
▁D	-7.32942
▁tiegħu	-7.32974
Direttiva	-7.33004
▁kull	-7.33731
▁ukoll	-7.3382
▁meta	-7.33949
▁E	-7.35075
▁fir	-7.35865
▁“	-7.35901
bbli	-7.37309
aq	-7.38301
ist	-7.38625
G	-7.39689
N	-7.39962
▁bl	-7.41288
▁oħra	-7.41606
użu	-7.41619
▁sa	-7.436
ku	-7.43609
ett	-7.43902
▁jkunu	-7.44097
suq	-7.44458
▁fit	-7.44557
ul	-7.46445
▁tagħha	-7.46461
rigward	-7.46669
V	-7.47202
de	-7.49329
ru	-7.51016
us	-7.51118
▁jit	-7.51806
ġi	-7.51872
▁fejn	-7.52085
▁ikun	-7.53726
ek	-7.54356
▁hemm	-7.54404
um	-7.55076
qa	-7.55581
fi	-7.55606
▁għat	-7.57095
▁dawk	-7.57276
▁tista	-7.5731
▁4	-7.57571
ter	-7.57855
▁jin	-7.58191
Anness	-7.5862
▁nazzjonali	-7.59865
▁permezz	-7.59885
enti	-7.60231
turi	-7.6048
min	-7.61111
▁qed	-7.62014
00	-7.6333
aħ	-7.64029
▁6	-7.64452
os	-7.64839
mu	-7.65019
▁R	-7.65351
tra	-7.65358
dan	-7.65747
ija	-7.65977
iż	-7.66311
se	-7.66474
▁taħt	-7.66812
▁Ir	-7.67039
ent	-7.67412
kon	-7.67624
lo	-7.67638
▁kien	-7.67866
(	-7.67887
ata	-7.68876
każ	-7.69062
▁qabel	-7.69088
▁ikunu	-7.6931
om	-7.70086
għan	-7.70155
żi	-7.70208
8	-7.70238
▁N	-7.71253
data	-7.71437
▁»	-7.72183
forma	-7.72718
ew	-7.7284
Parlament	-7.73582
▁J	-7.73888
hom	-7.74291
ko	-7.75251
▁Id	-7.75319
ut	-7.75352
▁biss	-7.75439
tur	-7.75561
▁Membru	-7.75644
▁wkoll	-7.75901
iċi	-7.75984
ess	-7.77185
Istat	-7.77815
▁%	-7.77833
▁tan	-7.78843
fer	-7.79421
azzjonijiet	-7.79659
▁partikolari	-7.80459
ad	-7.80494
▁G	-7.8059
ik	-7.80634
▁Dan	-7.81112
▁għas	-7.81349
▁10	-7.81426
post	-7.81435
▁wieħed	-7.82143
ament	-7.82286
▁fid	-7.8284
▁għad	-7.83227
ot	-7.83256
mo	-7.83678
]	-7.83881
eż	-7.83995
tit	-7.84143
ing	-7.84466
kar	-7.8512
iet	-7.854
ħall	-7.8606
sta	-7.86297
att	-7.86703
ewwel	-7.86798
rapport	-7.86917
punt	-7.87215
per	-7.87508
Deċiżjoni	-7.87926
ġġ	-7.88564
għa	-7.88827
▁8	-7.88962
awtoritajiet	-7.90061
fika	-7.90312
ara	-7.90396
▁Is	-7.90533
"	-7.90594
ass	-7.90808
▁V	-7.9082
paragrafu	-7.90904
▁ser	-7.91052
all	-7.91322
▁It	-7.9136
ità	-7.92761
▁xi	-7.93331
to	-7.93503
▁bħal	-7.93543
▁–	-7.94167
10	-7.94712
▁In	-7.94796
▁mg	-7.94956
9	-7.95183
▁billi	-7.95326
iżvilupp	-7.95534
kom	-7.95548
▁tiegħek	-7.96026
H	-7.96495
▁7	-7.96533
ħa	-7.96985
jar	-7.97037
▁kontra	-7.97057
qu	-7.97572
▁re	-7.97727
ne	-7.97731
livell	-7.97808
saħħa	-7.98079
ttiv	-7.98197
▁H	-7.98514
aġġ	-7.98601
konformità	-7.98606
ġen	-7.98677
implimentazzjoni	-7.98901
enza	-7.98974
ran	-7.99801
ef	-7.9992
istess	-8.00113
▁[	-8.00242
informazzjoni	-8.00403
oli	-8.0052
▁kienu	-8.00693
sistema	-8.00955
▁min	-8.0121
regoli	-8.01578
▁dak	-8.02219
ell	-8.0234
ej	-8.02545
akk	-8.02706
▁tin	-8.03762
ġdid	-8.03945
▁kwalunkwe	-8.03979
▁Jekk	-8.03996
perjodu	-8.04268
nu	-8.04899
▁de	-8.0586
va	-8.06624
xogħol	-8.06754
miżuri	-8.068
ammont	-8.07502
▁informazzjoni	-8.0809
jo	-8.0846
▁għar	-8.08582
test	-8.08715
▁mingħajr	-8.08892
ejj	-8.08948
ebda	-8.09031
applikazzjoni	-8.09295
zza	-8.09324
amp	-8.09361
▁O	-8.1008
dispożizzjoni	-8.10147
ki	-8.10495
uri	-8.10723
▁kemm	-8.1079
aj	-8.1227
W	-8.12323
19	-8.1235
anti	-8.12523
nt	-8.12634
valur	-8.13065
Kumitat	-8.13107
zzjonijiet	-8.13307
▁mar	-8.13329
pe	-8.1414
pi	-8.14375
and	-8.1439
ch	-8.15394
pre	-8.15838
proċess	-8.16037
kol	-8.16289
20	-8.16385
▁prodotti	-8.16499
▁ġenerali	-8.16641
iku	-8.17031
aħħar	-8.17523
▁kon	-8.17551
seħħ	-8.17836
▁waħda	-8.17927
sigurtà	-8.18423
▁iż	-8.18439
pożizzjoni	-8.18592
▁jis	-8.18795
ten	-8.19544
▁ħafna	-8.19632
▁żmien	-8.19667
liġi	-8.19903
zz	-8.20004
▁Din	-8.205
pro	-8.20553
tip	-8.20563
ċe	-8.20632
▁ġew	-8.20865
▁ieħor	-8.20932
▁parti	-8.21101
po	-8.21455
rekwiżiti	-8.21965
▁stabbiliti	-8.22028
grupp	-8.22174
art	-8.2227
tri	-8.22501
ex	-8.22534
enerġija	-8.22912
▁ġej	-8.22925
▁komuni	-8.23241
pa	-8.23247
▁iżda	-8.23264
ża	-8.2345
settur	-8.23461
▁mit	-8.23689
(1)	-8.2377
▁minħabba	-8.24027
attivitajiet	-8.24689
assi	-8.24693
▁matul	-8.24779
od	-8.24914
prodotti	-8.25575
ika	-8.25823
iv	-8.25861
agħ	-8.2587
(2)	-8.25979
▁X	-8.26085
▁kienet	-8.26616
iġ	-8.26883
kwi	-8.26912
▁inkluż	-8.26917
partijiet	-8.26924
proċedura	-8.27151
▁12	-8.27199
▁disponibbli	-8.27329
ixxi	-8.27536
ejn	-8.27557
pajjiż	-8.27567
protezzjoni	-8.27609
ĠU	-8.28018
▁Stat	-8.28253
arja	-8.28463
dejta	-8.28463
▁flimkien	-8.28501
ve	-8.2859
je	-8.28688
Z	-8.28761
ħar	-8.28886
▁meħtieġa	-8.29728
kundizzjonijiet	-8.29799
dis	-8.29968
ok	-8.302
Ftehim	-8.30374
pp	-8.30453
ssi	-8.30598
▁soċjali	-8.30785
op	-8.3084
▁rilevanti	-8.30891
000	-8.31078
tiċi	-8.31088
est	-8.31132
rata	-8.31194
12	-8.31287
opera	-8.31433
produzzjoni	-8.3153
▁Fil	-8.32559
J	-8.32575
▁lejn	-8.32605
X	-8.32747
ver	-8.33082
aktar	-8.33108
pen	-8.3324
ien	-8.33444
▁Fl	-8.33634
▁oħrajn	-8.33863
▁U	-8.34235
▁20	-8.34454
▁hekk	-8.34492
trasport	-8.34507
tro	-8.34573
servizzi	-8.34767
▁"	-8.35007
ħin	-8.35135
ap	-8.35204
isti	-8.35442
Ġ	-8.36324
▁ġejjin	-8.36534
sti	-8.36596
ema	-8.36681
kun	-8.36746
programm	-8.3678
▁jik	-8.36952
for	-8.36979
▁Ma	-8.36982
do	-8.37045
investiment	-8.37161
▁miżuri	-8.37288
kuntratt	-8.37397
drittijiet	-8.37704
arju	-8.38054
valutazzjoni	-8.38097
▁v	-8.38166
deċiżjoni	-8.38336
proġett	-8.39082
pjan	-8.39187
rati	-8.39279
▁tip	-8.39414
%	-8.39493
▁mis	-8.39624
Ewropa	-8.40008
ine	-8.40069
port	-8.40086
rja	-8.40376
▁kompetenti	-8.40483
▁pro	-8.40661
▁&	-8.40663
1/	-8.4067
▁msemmija	-8.40686
kk	-8.40794
▁iktar	-8.40952
▁4.	-8.41197
parti	-8.41275
awtorità	-8.4178
▁19	-8.42063
sistemi	-8.42713
11	-8.42761
▁ġie	-8.43056
bo	-8.43379
▁dik	-8.43592
▁taż	-8.43659
tika	-8.43822
mm	-8.43883
fin	-8.43896
man	-8.43904
▁internazzjonali	-8.44733
no	-8.45312
▁9	-8.45361
prodott	-8.45364
met	-8.4571
aqq	-8.45782
ost	-8.46082
Trattat	-8.46247
▁taċ	-8.46291
▁W	-8.46373
▁finanzjarji	-8.47228
0	-8.4726
pass	-8.47274
Is	-8.47291
▁differenti	-8.47338
eġ	-8.47349
issa	-8.47353
▁inklużi	-8.47422
sena	-8.47478
▁hawn	-8.48011
▁Barra	-8.4802
regola	-8.4805
ce	-8.48536
ic	-8.48722
jon	-8.48726
▁waqt	-8.48849
2013	-8.48882
din	-8.48998
ieħ	-8.49064
?	-8.49102
għu	-8.49172
proposta	-8.49293
politika	-8.49678
iff	-8.49711
pajjiżi	-8.49731
qafas	-8.49751
▁hu	-8.4986
dħul	-8.4992
▁barra	-8.5
dritt	-8.5025
▁legali	-8.50319
16	-8.50613
tà	-8.51066
riskju	-8.51129
ola	-8.51215
▁13	-8.51335
anza	-8.51381
organizzazzjoni	-8.51427
bilità	-8.51695
interess	-8.51702
ħu	-8.51864
ċċ	-8.51927
nuqqas	-8.52017
qasam	-8.52223
▁ħa	-8.52365
Ċ	-8.52383
▁tis	-8.52601
IS	-8.5266
sid	-8.52754
IN	-8.53332
jali	-8.53505
ista	-8.53584
AT	-8.53697
bażi	-8.53731
wali	-8.53812
▁sena	-8.53968
▁tik	-8.5402
ġu	-8.5404
osta	-8.54176
▁inter	-8.54225
notifika	-8.54297
AR	-8.54319
tor	-8.54331
għajnuna	-8.54334
ġa	-8.54336
▁pre	-8.54525
kontroll	-8.54539
numru	-8.54613
par	-8.54736
sodisfa	-8.54963
▁—	-8.55132
▁jir	-8.55351
proċeduri	-8.55411
▁mid	-8.55447
tiku	-8.5546
tul	-8.5547
ġestjoni	-8.55479
▁EUR	-8.55547
jati	-8.5568
wie	-8.55791
val	-8.55977
TI	-8.56834
▁bażi	-8.56972
2009	-8.57015
isk	-8.57017
15	-8.57024
omm	-8.57083
28	-8.57151
▁Diċembru	-8.57201
kooperazzjoni	-8.57246
impatt	-8.57261
ott	-8.57265
prezz	-8.57311
pazjenti	-8.57353
mon	-8.57505
piż	-8.57819
ajru	-8.58036
▁meħtieġ	-8.58056
co	-8.58351
me	-8.58363
▁relatati	-8.58639
sin	-8.58671
para	-8.58749
▁15	-8.58964
▁ċ	-8.59209
▁Re	-8.59227
▁quddiem	-8.59309
str	-8.59328
▁applikabbli	-8.59335
▁Meta	-8.59362
▁skond	-8.59377
rin	-8.5951
▁speċifiċi	-8.59647
Komunità	-8.59754
annimali	-8.59862
ress	-8.60492
2004	-8.60505
▁sal	-8.6069
aff	-8.60917
▁mir	-8.61298
materjal	-8.61302
Qorti	-8.61424
▁ġodda	-8.61556
▁ċerti	-8.61738
▁effettiv	-8.61763
trattament	-8.61772
ikel	-8.62118
med	-8.6214
30	-8.62212
tar	-8.6223
▁finanzjarja	-8.62308
ber	-8.62431
▁servizzi	-8.62796
ossi	-8.62884
kwalità	-8.62888
▁pazjenti	-8.63075
axx	-8.63088
▁madwar	-8.63209
50	-8.63601
▁Madankollu	-8.63913
oħra	-8.64169
żieda	-8.64362
bar	-8.64415
finanzjament	-8.64442
zjoni	-8.64525
▁fih	-8.64999
tieni	-8.65058
▁Ewropej	-8.65076
18	-8.65145
ers	-8.65386
vo	-8.6565
▁stabbilit	-8.6576
▁ġiet	-8.65781
tan	-8.65794
ispejjeż	-8.65819
▁żgurat	-8.65826
flus	-8.65921
effett	-8.66029
▁II	-8.6638
▁xieraq	-8.66539
▁baxx	-8.66618
sit	-8.6668
▁Wara	-8.66717
fiċ	-8.66719
▁Għal	-8.6673
ke	-8.67127
kop	-8.67437
sens	-8.67612
2008	-8.67616
anqas	-8.67762
kan	-8.67804
13	-8.682
EN	-8.68252
▁jkollhom	-8.68257
tras	-8.68366
‐	-8.68496
▁Dawn	-8.69051
▁żvilupp	-8.69068
26	-8.69154
kura	-8.69366
klu	-8.6947
ann	-8.69485
tal	-8.695
appoġġ	-8.69528
kreditu	-8.6966
ES	-8.69783
ER	-8.69871
▁Ħ	-8.69895
naħa	-8.69955
▁importanti	-8.69964
attiv	-8.70068
▁11	-8.70082
app	-8.70107
17	-8.70139
vir	-8.70168
▁Ġ	-8.70267
aħħ	-8.7033
effetti	-8.704
ard	-8.70587
baġit	-8.70605
27	-8.70767
▁TA	-8.70835
▁‘	-8.70961
hekk	-8.7156
bru	-8.71586
atur	-8.71765
let	-8.71885
bit	-8.71936
ttivi	-8.72225
sħiħ	-8.72275
mun	-8.72472
rat	-8.72513
istituzzjonijiet	-8.726
stru	-8.72664
(3)	-8.72769
▁snin	-8.73001
iġġ	-8.73058
▁intern	-8.73081
servizz	-8.73153
tiv	-8.73202
riċerka	-8.73271
mar	-8.73338
serv	-8.73462
Ħ	-8.73616
IL	-8.73755
▁tieħu	-8.7382
KEE	-8.74059
▁filwaqt	-8.74343
importazzjoni	-8.74372
Parti	-8.7442
ċer	-8.74584
war	-8.74585
▁totali	-8.74665
għod	-8.74732
▁sakemm	-8.74804
taħriġ	-8.75152
01	-8.75277
▁possibbli	-8.75371
▁jintuża	-8.75527
Ż	-8.75652
bbiltà	-8.75849
ov	-8.75862
żona	-8.75864
għadd	-8.76049
izzazzjoni	-8.76075
medja	-8.76119
ep	-8.7636
inqas	-8.76481
każijiet	-8.76529
29	-8.76572
▁doża	-8.76698
kwistjoni	-8.76822
40	-8.77102
sk	-8.77169
euro	-8.7718
jew	-8.77302
▁30	-8.77316
▁2009	-8.7735
għat	-8.77861
▁hi	-8.77977
opinjoni	-8.78068
atti	-8.78114
kapaċità	-8.78214
KESE	-8.7824
pr	-8.78353
etti	-8.78399
ck	-8.78491
wal	-8.78509
approvazzjoni	-8.78839
ġe	-8.78859
ura	-8.78895
ivi	-8.78981
form	-8.79072
fatt	-8.79133
25	-8.79157
rju	-8.79273
sitwazzjoni	-8.79465
ene	-8.79495
riżultati	-8.79841
az	-8.79849
▁għalhekk	-8.79919
fil	-8.79942
ftehim	-8.79977
oq	-8.79991
okk	-8.8002
riżorsi	-8.80159
▁livell	-8.80433
sajd	-8.80571
tura	-8.80586
▁fiż	-8.80672
żewġ	-8.80736
prezzijiet	-8.80748
itajiet	-8.80838
▁jim	-8.80864
▁18	-8.80871
▁tingħata	-8.8098
lari	-8.81086
▁jistabbilixxi	-8.81146
kawża	-8.81179
Artikoli	-8.81293
2005	-8.81341
▁addizzjonali	-8.81411
uża	-8.81495
qal	-8.81554
industrija	-8.81585
▁Huwa	-8.81612
▁pajjiżi	-8.81666
RA	-8.81827
isp	-8.81886
▁14	-8.82023
żż	-8.82052
pressjoni	-8.82082
2012	-8.82091
awtorizzazzjoni	-8.82222
bejgħ	-8.82282
▁aċċess	-8.82425
▁kummerċjali	-8.82439
demm	-8.82472
▁inqas	-8.82564
14	-8.82594
daqs	-8.82666
▁appoġġ	-8.82848
dokument	-8.83094
kont	-8.83202
verifika	-8.83234
▁previst	-8.83385
▁speċjali	-8.83515
membri	-8.83671
AN	-8.83875
▁Kon	-8.83981
▁tfisser	-8.84134
2010	-8.84202
IT	-8.84219
ilma	-8.84576
▁kontroll	-8.84627
▁jif	-8.84674
kor	-8.84698
dija	-8.84866
▁ċar	-8.85012
lin	-8.85074
sotto	-8.85121
▁sinifikanti	-8.85358
▁komp	-8.85696
▁japplikaw	-8.8575
▁terzi	-8.85948
feri	-8.86053
iex	-8.86071
ożi	-8.86242
ET	-8.86392
zzjonali	-8.86549
tagħmir	-8.86603
▁Ż	-8.86865
kapital	-8.86893
dawl	-8.87297
tkabbir	-8.87447
diet	-8.8753
▁miljun	-8.87541
▁referenza	-8.87546
arji	-8.87776
naqqas	-8.87855
suġġett	-8.8792
livelli	-8.87925
land	-8.88025
indika	-8.88158
60	-8.8826
2006	-8.88275
2014	-8.88315
▁għajnuna	-8.88367
▁Ġunju	-8.8838
jat	-8.88669
mministra	-8.88707
AS	-8.88778
▁iċ	-8.889
Q	-8.88927
90	-8.88973
ula	-8.89008
programmi	-8.89053
2011	-8.89061
doża	-8.89327
iċċ	-8.89448
▁16	-8.89503
analiżi	-8.89571
nti	-8.89589
tabib	-8.90003
Euro	-8.90074
ċittadini	-8.90157
għaj	-8.90193
2003	-8.90275
kummerċ	-8.90513
kumpaniji	-8.9063
▁kkunsidrat	-8.90876
▁Għalhekk	-8.90988
ambjent	-8.91127
sustanzi	-8.91262
diversi	-8.9129
▁fihom	-8.91321
▁emendat	-8.91405
faċilita	-8.91632
ON	-8.91686
▁fost	-8.91719
▁sp	-8.9185
▁jib	-8.91983
▁standard	-8.92029
▁Għall	-8.92215
▁bżonn	-8.92218
▁0	-8.92244
fondi	-8.9225
taxxa	-8.92434
lat	-8.92517
ħruġ	-8.92591
▁2008	-8.92624
injezzjoni	-8.92659
zzjon	-8.92691
isem	-8.92837
ippro	-8.92852
għoti	-8.92898
netwerk	-8.9312
ħass	-8.93143
tfal	-8.93309
iċ	-8.93476
▁Stati	-8.93509
▁tliet	-8.93525
determina	-8.93559
▁25	-8.93575
Fond	-8.93618
aċċess	-8.9362
▁jeħtieġ	-8.9373
▁Jannar	-8.93746
▁2014	-8.93752
ide	-8.93858
▁responsabbli	-8.93884
BĊE	-8.93919
▁mil	-8.93948
2007	-8.94009
ġimgħa	-8.94192
▁jagħmlu	-8.94328
▁Ċ	-8.94665
ħlas	-8.94811
emissjonijiet	-8.94957
▁pubbliku	-8.95233
tali	-8.95289
▁2011	-8.95566
enz	-8.95718
denti	-8.95722
kriterji	-8.96269
th	-8.96318
▁personali	-8.96392
▁jinkludu	-8.9652
▁jintużaw	-8.96535
▁lokali	-8.96556
vers	-8.96686
98	-8.96748
aturi	-8.96819
għar	-8.96827
attività	-8.96876
Repubblika	-8.96876
▁simili	-8.96913
▁Q	-8.96984
Aġenzija	-8.97019
2002	-8.97055
reġjun	-8.97154
▁eżistenti	-8.97237
edi	-8.97415
rispett	-8.97455
dik	-8.97475
kri	-8.97584
▁pubbliċi	-8.97646
▁mhumiex	-8.97845
kost	-8.98096
▁Lulju	-8.98649
missjoni	-8.98703
abbiltà	-8.9876
7/	-8.98963
▁kkonċernat	-8.98975
mess	-8.99036
alità	-8.99046
▁definit	-8.99371
fattur	-8.9952
indirizz	-8.99541
eżami	-8.99576
▁għolja	-8.99713
▁fiha	-8.99752
one	-8.99848
▁persuni	-8.99945
▁darba	-8.9997
TA	-9.00002
ġin	-9.00116
▁xierqa	-9.00133
▁TAL	-9.00242
-20	-9.00252
proporzjon	-9.00362
iżmu	-9.0041
▁annwali	-9.00491
imp	-9.00519
korp	-9.0059
▁Pro	-9.00786
▁tagħna	-9.01023
▁jieħdu	-9.01091
▁ewlenin	-9.01127
▁2010	-9.01406
▁jingħata	-9.0149
▁ip	-9.01506
▁100	-9.01567
ħadd	-9.0178
ħajja	-9.01791
riskji	-9.01844
▁attwali	-9.01887
▁17	-9.01898
men	-9.0193
mer	-9.02035
fornitur	-9.02105
▁ambjentali	-9.02113
enzi	-9.0212
klassi	-9.02166
jen	-9.02186
attivi	-9.02216
▁kuljum	-9.02218
▁dirett	-9.02281
CO	-9.02447
ppreżenta	-9.0246
▁2015	-9.02497
evalwazzjoni	-9.02506
bilanċ	-9.02512
▁diġà	-9.02527
għanijiet	-9.02612
▁tnaqqis	-9.0262
bijo	-9.02723
up	-9.02992
Implimentazzjoni	-9.03053
▁jipprovdu	-9.03255
istat	-9.03314
dar	-9.03362
▁inti	-9.0337
dikjarazzjoni	-9.0341
▁jiżguraw	-9.03623
komunikazzjoni	-9.03814
nn	-9.03867
vetturi	-9.03895
▁finali	-9.03902
plika	-9.04009
Y	-9.04068
tru	-9.04122
In	-9.04201
▁speċifikat	-9.04306
torja	-9.04387
deċiżjonijiet	-9.04398
kompetizzjoni	-9.04401
zja	-9.04441
ulta	-9.04511
80	-9.04645
punti	-9.04754
▁Sabiex	-9.04767
mediċina	-9.04817
torju	-9.04889
▁jipprovdi	-9.04906
ċertifikat	-9.05062
RI	-9.05155
endi	-9.05175
▁mogħtija	-9.05183
kuntest	-9.05328
żjoni	-9.05532
▁limitat	-9.05663
bidu	-9.05781
sustanza	-9.05789
sal	-9.05813
koll	-9.05836
but	-9.05956
▁tirr	-9.05958
▁ssir	-9.05997
żmien	-9.06163
nota	-9.06306
▁2013	-9.06355
sjoni	-9.06356
nzi	-9.06395
linja	-9.064
▁applikat	-9.06503
liet	-9.06504
▁2016	-9.0651
manifattur	-9.06524
IF	-9.06805
LI	-9.06997
apparat	-9.06998
▁soluzzjoni	-9.07063
▁Marzu	-9.07137
tagħrif	-9.07144
▁sistema	-9.07153
kampjun	-9.07391
ħidma	-9.07453
organi	-9.07485
▁Kull	-9.07546
bra	-9.077
regolament	-9.07991
24	-9.08032
PA	-9.08147
vettura	-9.0821
tnaqqis	-9.08214
23	-9.08215
▁24	-9.08315
investigazzjoni	-9.08386
pan	-9.0841
▁żewġ	-9.08446
kbira	-9.08587
21	-9.08589
oqsma	-9.08593
assigurazzjoni	-9.0865
▁Ottubru	-9.08731
▁politika	-9.08823
▁soġġett	-9.08914
leġiżlazzjoni	-9.09317
▁Mejju	-9.094
sej	-9.09457
kontenut	-9.0947
vol	-9.09513
sikurezza	-9.09675
▁Al	-9.09846
lista	-9.09916
mira	-9.09919
▁applikazzjoni	-9.09938
▁aħjar	-9.09983
aċċ	-9.1001
“	-9.10019
▁jiss	-9.10063
monitoraġġ	-9.10145
▁għadd	-9.10227
ġilda	-9.10437
riż	-9.10467
Għ	-9.10532
xahar	-9.10585
prov	-9.10592
▁pubblika	-9.10622
mel	-9.10696
▁japplika	-9.10769
▁50	-9.10793
negozju	-9.10831
inter	-9.10865
qiegħ	-9.1091
95	-9.11061
22	-9.11174
▁prodott	-9.11263
entità	-9.11285
Awtorità	-9.11589
▁xhur	-9.11613
nisa	-9.11656
▁indikat	-9.11747
▁tekniċi	-9.11918
▁kont	-9.11941
jet	-9.12044
esti	-9.12121
▁persuna	-9.12189
▁mm	-9.12243
funzjoni	-9.12275
▁2007	-9.12333
9/	-9.12341
yl	-9.12409
vel	-9.12531
emenda	-9.12624
▁privat	-9.12633
seb	-9.12718
pla	-9.12725
rija	-9.12833
▁Skont	-9.13072
ordina	-9.1318
prop	-9.1327
linji	-9.13284
miss	-9.13287
▁reġjonali	-9.13291
korpi	-9.13336
President	-9.13409
▁int	-9.13465
progress	-9.13525
dew	-9.13604
grad	-9.13633
rom	-9.13696
aċċetta	-9.13729
Bank	-9.13757
kis	-9.13846
fet	-9.14121
pru	-9.14198
▁2012	-9.14295
kumpanija	-9.14303
SA	-9.14332
▁stabbilita	-9.1439
aġ	-9.14453
96	-9.14537
▁ogħla	-9.14901
▁anti	-9.14903
rji	-9.1517
▁marbuta	-9.15232
▁jid	-9.15242
tratt	-9.15294
▁Novembru	-9.1538
prova	-9.15399
▁jsir	-9.15415
▁ekonomika	-9.15431
rwol	-9.15467
swieq	-9.1571
bniedem	-9.15798
jiġifieri	-9.15816
Programm	-9.15843
OL	-9.15889
titjib	-9.15904
sub	-9.1594
▁tagħmel	-9.15963
▁abbażi	-9.16042
iva	-9.16097
▁individwali	-9.16103
kump	-9.16124
▁bis	-9.16206
▁oġġetti	-9.16208
▁sezzjoni	-9.16351
ron	-9.1636
dak	-9.16555
▁ml	-9.16629
emp	-9.16655
egħ	-9.16716
▁tif	-9.16745
▁2006	-9.16746
età	-9.16777
bili	-9.16789
▁jkunx	-9.17044
bel	-9.1705
obbligi	-9.17207
produtturi	-9.17295
▁III	-9.17348
laqgħa	-9.17403
▁0.	-9.17448
self	-9.17476
proposti	-9.17598
75	-9.1773
pakkett	-9.18063
sehem	-9.18207
telf	-9.18279
ast	-9.18309
ven	-9.18426
miżura	-9.18503
ph	-9.18688
▁pprovdut	-9.18697
Malta	-9.18707
żoni	-9.1871
qar	-9.18947
istrument	-9.19258
▁jint	-9.1928
kondizzjonijiet	-9.19313
▁awtorizzat	-9.19341
termini	-9.19347
▁De	-9.19505
▁globali	-9.19542
IC	-9.19655
▁prinċipali	-9.19791
eko	-9.19805
konsumaturi	-9.19883
▁ħdan	-9.19894
▁kura	-9.20067
add	-9.20145
▁riskju	-9.20197
ċell	-9.203
▁Kif	-9.20308
▁identifikat	-9.20377
kompli	-9.20392
▁approvat	-9.20409
ega	-9.20504
natura	-9.20577
▁wa	-9.20608
▁sostenibbli	-9.20623
sors	-9.20711
▁An	-9.2078
▁imsemmi	-9.20915
▁jagħti	-9.21056
▁jinkludi	-9.21086
▁April	-9.21127
vu	-9.2121
persuni	-9.21271
izzat	-9.21421
▁ċivili	-9.2143
ħaddiema	-9.21592
kuntatt	-9.21647
dejn	-9.21783
limitu	-9.21785
mudell	-9.21842
▁jirri	-9.21881
(4)	-9.2198
▁tipprovdi	-9.22059
trasferiment	-9.22066
SE	-9.22072
għażla	-9.22239
objettiv	-9.22299
ħtieġa	-9.22416
▁jum	-9.226
jata	-9.22604
▁estern	-9.22674
▁ikk	-9.22738
▁biżżejjed	-9.22758
edukazzjoni	-9.22784
bet	-9.22971
▁finanzjarju	-9.23135
prinċipju	-9.23197
▁speċifika	-9.23253
▁21	-9.23534
=	-9.23627
soċjetà	-9.23796
▁għax	-9.23846
oġġett	-9.23848
▁jirriżulta	-9.2395
finanzja	-9.23963
EC	-9.2402
▁dejjem	-9.24089
kejl	-9.24272
pazjent	-9.24497
▁kollu	-9.24543
dokumenti	-9.24713
▁multi	-9.24775
▁per	-9.24954
▁minnhom	-9.24972
▁adottat	-9.25198
esportazzjoni	-9.25201
raġunijiet	-9.25286
▁użati	-9.25332
paga	-9.25345
lok	-9.25384
▁Settembru	-9.25422
komponent	-9.25546
▁nett	-9.25566
Il	-9.25603
raw	-9.25887
kontribuzzjoni	-9.25965
off	-9.26096
▁ekonomiċi	-9.2623
bank	-9.26384
▁Komuni	-9.26479
▁mediċinali	-9.26511
▁essenzjali	-9.266
▁għalihom	-9.2666
▁tinkludi	-9.26704
ang	-9.26705
70	-9.26766
▁attiva	-9.26788
▁+	-9.26795
jin	-9.26878
tibdil	-9.27031
34	-9.27037
▁lura	-9.27066
diż	-9.2709
kre	-9.27308
48	-9.27444
approċċ	-9.27457
kull	-9.27482
esperjenza	-9.27488
▁Ko	-9.2754
relazzjoni	-9.27605
impjiegi	-9.27721
setgħa	-9.27757
▁kkunsidra	-9.27865
▁tagħti	-9.27973
ħol	-9.28077
tarji	-9.2816
konsultazzjoni	-9.28292
▁użat	-9.28382
•	-9.28552
▁ċentrali	-9.28552
UN	-9.28642
den	-9.28805
fond	-9.28956
pjega	-9.29148
RE	-9.29175
OR	-9.29245
politiki	-9.29347
torji	-9.29574
aħjar	-9.2958
bidla	-9.29611
reviżjoni	-9.29612
▁assoċjat	-9.29871
talba	-9.29872
wit	-9.29935
innovazzjoni	-9.29951
provvista	-9.30027
▁gwida	-9.30034
benefiċċji	-9.30075
prinċipji	-9.30111
ġenti	-9.3021
▁trid	-9.30279
▁tim	-9.30311
perijodu	-9.30319
għad	-9.30427
▁Għa	-9.30621
▁interessati	-9.30631
▁Frar	-9.30744
ekonomija	-9.30849
▁jippre	-9.30897
▁jikkon	-9.31014
konklużjoni	-9.31216
operazzjonijiet	-9.31261
▁ħsara	-9.31366
operazzjoni	-9.314
prestazzjoni	-9.3143
▁prima	-9.3157
klijent	-9.31711
għarfien	-9.3173
.1.	-9.31744
gass	-9.31911
riżultat	-9.31999
parteċipazzjoni	-9.32006
elettriku	-9.32166
▁għandek	-9.3222
▁relatat	-9.32375
kodiċi	-9.32491
bini	-9.32523
▁għoli	-9.32555
pereżempju	-9.32608
▁jagħtu	-9.32711
futur	-9.32987
▁Co	-9.33157
territorju	-9.33163
konsum	-9.33233
▁Ġenerali	-9.33402
▁stat	-9.33408
akkwist	-9.3341
entitajiet	-9.33436
▁bħall	-9.33527
applikant	-9.3353
trab	-9.34107
operaturi	-9.34193
▁involut	-9.34223
▁tistabbilixxi	-9.34587
65	-9.34592
▁bid	-9.34681
poni	-9.34699
kla	-9.34753
finijiet	-9.34777
Ġustizzja	-9.34984
zzazzjoni	-9.35381
▁imsemmija	-9.35459
kors	-9.3548
▁kellhom	-9.35542
eq	-9.3558
▁osservat	-9.35705
unità	-9.35795
volum	-9.35889
erba	-9.35899
problemi	-9.35971
evi	-9.35988
log	-9.36158
ation	-9.36178
ċikl	-9.36247
▁akbar	-9.36268
▁implimentat	-9.36323
ixxu	-9.36427
delega	-9.36482
ST	-9.36614
impriżi	-9.36665
▁2017	-9.3678
▁Iż	-9.36793
▁jiżdied	-9.36809
elementi	-9.36815
Konvenzjoni	-9.36818
▁ekonomiku	-9.36882
▁jidde	-9.36957
▁23	-9.36972
jenza	-9.36982
aspett	-9.37007
gvern	-9.37098
▁konformi	-9.37311
▁Uniti	-9.37357
▁terz	-9.37358
qrib	-9.37495
tensjoni	-9.37656
tba	-9.3771
viżjoni	-9.37727
Partijiet	-9.37792
terapija	-9.37814
▁Unit	-9.37946
SI	-9.37997
-31	-9.3803
Renju	-9.38145
▁jagħmel	-9.38291
46	-9.38313
mezzi	-9.3875
persunal	-9.38797
▁elenkati	-9.38819
▁ġdida	-9.38931
▁Fejn	-9.39
AL	-9.39274
istituzzjoni	-9.39553
43	-9.39575
lest	-9.39613
°	-9.39653
konferma	-9.39687
ispeċi	-9.39826
kell	-9.39888
%)	-9.39907
prattika	-9.39949
38	-9.40085
munita	-9.40175
ster	-9.40221
minbarra	-9.40232
▁subparagrafu	-9.40242
kumpens	-9.40383
*	-9.40749
▁jingħataw	-9.40814
▁bir	-9.40968
tejjeb	-9.41
▁ibbażat	-9.41164
effiċjenza	-9.41289
▁awto	-9.41443
karatteristiċi	-9.41486
▁adottati	-9.41486
għandux	-9.41549
responsabbiltà	-9.41584
Komunikazzjoni	-9.41584
konċentrazzjoni	-9.41653
ton	-9.41667
▁sew	-9.41668
fur	-9.41776
97	-9.41783
Bord	-9.42033
▁tuża	-9.42058
▁jużaw	-9.42153
kamp	-9.42257
▁jkollu	-9.42375
_	-9.42438
tmiem	-9.42543
▁Pre	-9.42696
▁konġunt	-9.42802
new	-9.42846
▁tapplika	-9.42925
▁jgħin	-9.43098
wiċċ	-9.43147
ŻEE	-9.43518
rakkomandazzjoni	-9.4367
zzati	-9.43759
limiti	-9.43863
EM	-9.43909
ħad	-9.4391
▁normali	-9.43948
Kapitolu	-9.44265
▁stipulati	-9.44302
ifikazzjoni	-9.445
▁22	-9.44508
▁Mar	-9.44516
negozja	-9.44689
mediċini	-9.44745
Sur	-9.44853
ksur	-9.44924
▁studji	-9.45004
sorveljanza	-9.45023
oriġini	-9.45041
graf	-9.45144
▁naturali	-9.45161
kap	-9.45184
▁adegwat	-9.452
lum	-9.45219
93	-9.45327
nofs	-9.45495
metri	-9.45591
▁kwistjonijiet	-9.45833
kriżi	-9.45917
▁ftit	-9.46182
Protokoll	-9.4657
adozzjoni	-9.4669
reġistra	-9.46797
kategoriji	-9.46835
istandards	-9.46855
obbligu	-9.46905
sib	-9.47036
metodu	-9.47257
▁Soċjali	-9.47303
PE	-9.47315
▁bit	-9.47321
02	-9.47329
nomi	-9.47342
persuna	-9.47477
vjaġġ	-9.47491
MI	-9.47504
iskop	-9.47528
▁jip	-9.47559
94	-9.4788
92	-9.47962
infrastruttura	-9.47984
ID	-9.48064
pat	-9.4824
definizzjoni	-9.48305
▁jemenda	-9.48309
reġistrazzjoni	-9.48402
▁Fir	-9.48807
▁talba	-9.48811
dawn	-9.48823
ħames	-9.48861
klassifikazzjoni	-9.49211
għid	-9.49232
▁jkollha	-9.49308
żo	-9.49386
▁ppreżentat	-9.49495
pol	-9.49586
IR	-9.49597
▁tintuża	-9.49905
trattat	-9.49942
▁tajjeb	-9.49958
suċċess	-9.49973
dinja	-9.50041
rakkomanda	-9.50125
▁miżjud	-9.50222
JA	-9.50255
impjieg	-9.50394
▁trans	-9.50401
stika	-9.50419
▁tiżgura	-9.50467
▁Inter	-9.50487
ome	-9.50503
unika	-9.50684
▁massimu	-9.50693
▁Mo	-9.50971
abbozz	-9.51108
arranġamenti	-9.51276
ħsieb	-9.51357
▁żgħar	-9.51367
bastimenti	-9.51414
residenza	-9.51478
promozzjoni	-9.51537
▁jitqiesu	-9.51577
▁imma	-9.51791
mark	-9.51877
utenti	-9.51999
▁uffiċjali	-9.52048
klima	-9.52123
▁direttament	-9.52136
metodi	-9.52304
▁evitat	-9.52394
CE	-9.52443
▁jaħdmu	-9.52461
▁protett	-9.52502
vantaġġ	-9.52566
68	-9.52642
attenzjoni	-9.52691
▁speċifiku	-9.52721
var	-9.52799
▁biljun	-9.52833
jum	-9.52864
aġġustament	-9.52866
Taqsima	-9.52922
▁indirizzat	-9.52944
amministrazzjoni	-9.53053
Kap	-9.53456
potenzjal	-9.53566
opp	-9.53583
07	-9.53723
▁teknika	-9.53789
nija	-9.53985
JIET	-9.54002
pensjoni	-9.54058
titoli	-9.54152
paragrafi	-9.54526
03	-9.54546
▁sħiħa	-9.54607
▁medju	-9.54644
é	-9.54669
inbid	-9.54805
jonijiet	-9.54841
EL	-9.5485
▁(“	-9.54884
▁magħmula	-9.54892
▁ikkonċernat	-9.55022
▁tajba	-9.5505
rappreżentant	-9.5506
ipproċessar	-9.5511
05	-9.55253
ħeġġ	-9.55329
▁jridu	-9.55352
kategorija	-9.55361
▁maħsuba	-9.55486
waqqaf	-9.55536
▁eċċ	-9.55647
▁Brussell	-9.55717
popolazzjoni	-9.5581
preżent	-9.55921
kontijiet	-9.55929
MA	-9.55971
39	-9.56019
eva	-9.5637
▁jirre	-9.56416
evidenza	-9.56515
▁strumenti	-9.56576
▁saru	-9.56838
▁għalih	-9.57082
ħtiġijiet	-9.57089
banek	-9.57094
▁Biex	-9.57221
solv	-9.5724
▁effiċjenti	-9.57246
qalb	-9.57326
importanza	-9.57373
▁koperti	-9.5738
tqegħid	-9.5742
proprjetà	-9.57451
▁qegħdin	-9.57614
Sigurtà	-9.57625
▁peress	-9.57633
08	-9.57659
▁jieħu	-9.57718
▁qawwi	-9.57788
MP	-9.57845
identifikazzjoni	-9.57905
▁eċċessiv	-9.57936
assistenza	-9.58031
1999	-9.58054
88	-9.58075
operatur	-9.58123
▁Uffiċjali	-9.58136
▁partikolarment	-9.58285
▁stess	-9.58313
konsumatur	-9.58368
kro	-9.58373
sinjal	-9.58489
▁amministrattivi	-9.58587
Ċina	-9.58605
żgħażagħ	-9.58741
nomina	-9.58756
fażi	-9.59019
għandhiex	-9.59088
impjegat	-9.59089
labora	-9.59119
Servizz	-9.59163
testijiet	-9.59169
inizjattiva	-9.592
unitajiet	-9.59243
merkanzija	-9.59484
jenti	-9.59659
Rapport	-9.59871
▁pożittiv	-9.60038
nies	-9.60143
istabbiliment	-9.60535
integrazzjoni	-9.60582
valuta	-9.60612
Pjan	-9.60623
▁Fuq	-9.60757
fwied	-9.60794
▁jsiru	-9.60816
Prodott	-9.60857
magni	-9.60995
▁preċedenti	-9.61236
OM	-9.61259
▁No	-9.61303
xejn	-9.61428
▁kbir	-9.61473
qorti	-9.61573
iga	-9.6163
47	-9.61726
las	-9.61849
sentenza	-9.61867
jes	-9.61965
baħar	-9.61978
dumping	-9.62042
ħolqien	-9.6213
Ġurnal	-9.62267
▁Għaldaqstant	-9.62543
għandhomx	-9.62664
▁miftuħ	-9.62726
▁deskritt	-9.6277
lhom	-9.62937
ross	-9.63062
▁segwit	-9.63108
¢	-9.63137
▁potenzjali	-9.63142
▁negattiv	-9.63193
manifattura	-9.63244
▁sekondarji	-9.63276
infezzjoni	-9.63332
Ġermanja	-9.63376
▁isir	-9.63379
▁siegħa	-9.63466
und	-9.63474
teħid	-9.63517
kwalifika	-9.63708
ordni	-9.63942
▁meħud	-9.63946
49	-9.63962
iskema	-9.6397
emendi	-9.63985
Tabella	-9.64266
marka	-9.64316
garanzija	-9.64317
koordinazzjoni	-9.64649
2015	-9.64723
triq	-9.64723
Grupp	-9.6478
04	-9.6481
ajruport	-9.64975
▁ewlieni	-9.65023
▁Konġunt	-9.65057
▁jinsabu	-9.65172
impriża	-9.65205
kum	-9.6533
effikaċja	-9.65392
ssa	-9.65408
twettiq	-9.6546
nifs	-9.65461
pubbliku	-9.65463
firma	-9.65492
Kodiċi	-9.65509
lab	-9.6557
▁professjonali	-9.65665
▁mhuwiex	-9.65714
▁Str	-9.65749
▁għaż	-9.65975
ftehimiet	-9.66117
73	-9.66135
depożit	-9.66172
06	-9.66227
moviment	-9.66238
▁[1]	-9.66278
teknoloġija	-9.66427
▁indipendenti	-9.6645
▁VI	-9.66517
99	-9.66632
mandat	-9.66648
▁jippermetti	-9.66764
kulur	-9.66779
▁kbar	-9.66961
▁magħmul	-9.66994
benefiċċju	-9.67038
impenn	-9.67298
vent	-9.67386
konsulta	-9.67399
intrapriżi	-9.67495
pjanti	-9.67542
żejt	-9.67706
Gvern	-9.67711
importa	-9.6776
tielet	-9.67761
▁jiżgura	-9.67943
pagamenti	-9.68048
AZZJONI	-9.68117
familja	-9.68178
restrizzjoni	-9.68234
loġiċi	-9.68307
ħtieġ	-9.68496
▁studju	-9.68552
SMEs	-9.68588
(5)	-9.68691
mplifika	-9.68774
▁Ċentrali	-9.68876
identifika	-9.68938
bidliet	-9.68987
marda	-9.69033
mikro	-9.69074
▁jenħtieġ	-9.69491
▁reali	-9.69545
kambju	-9.69556
tikketta	-9.69657
Politika	-9.69746
▁obbligat	-9.69751
Att	-9.69855
esportatur	-9.7011
erija	-9.70148
CR	-9.70168
ezza	-9.70192
58	-9.70497
firxa	-9.70606
ġarr	-9.70734
▁stipulat	-9.7085
▁isiru	-9.7089
rabta	-9.70903
▁integrat	-9.70957
temperatura	-9.70965
NA	-9.71011
▁Minħabba	-9.71073
78	-9.7111
prevenzjoni	-9.71194
oxx	-9.71284
▁saret	-9.71413
87	-9.71486
▁jippermettu	-9.71725
▁pillola	-9.71834
pubblikazzjoni	-9.71862
ġisem	-9.7188
parteċipanti	-9.72063
enfasi	-9.72188
ħalib	-9.7221
▁jittieħdu	-9.72284
disinn	-9.72323
kejjel	-9.72421
inhu	-9.72571
Qafas	-9.72604
super	-9.72629
sof	-9.72702
▁IV	-9.72786
possibbiltà	-9.72914
▁2018	-9.73032
infurzar	-9.73221
sejħa	-9.73427
avveniment	-9.73486
eżistenza	-9.73523
magħruf	-9.73637
kwa	-9.7369
EG	-9.73712
loġika	-9.73721
▁ġust	-9.73852
kkonklud	-9.73857
istruttura	-9.73909
daħħal	-9.74116
poġġ	-9.74209
GĦA	-9.7438
▁adotta	-9.7452
▁miksub	-9.74708
▁regolari	-9.74821
kollox	-9.75105
▁tippermetti	-9.75196
▁jibqgħu	-9.75366
dettalji	-9.75504
nefqa	-9.7557
▁jitqies	-9.75691
distribuzzjoni	-9.75788
opportunitajiet	-9.75838
▁jaffettwa	-9.75946
istudju	-9.75959
0%	-9.76077
▁malajr	-9.76206
▁Mhux	-9.76262
iktar	-9.76311
▁jinżamm	-9.76345
evol	-9.76357
rispons	-9.76389
fas	-9.76449
tneħħija	-9.76665
€	-9.76745
Sistema	-9.7724
▁għadhom	-9.77244
▁industrijali	-9.77411
▁eskluż	-9.77453
ġbir	-9.77488
inkluż	-9.78014
verżjoni	-9.78054
▁immedjat	-9.78258
biċċa	-9.78277
▁rakkomandat	-9.78282
ħoss	-9.78291
prim	-9.78452
allokazzjoni	-9.78505
▁ngħata	-9.78631
ambitu	-9.78703
total	-9.78745
indikazzjoni	-9.78919
▁jikkonċerna	-9.78975
▁jikk	-9.79102
▁doganali	-9.79157
negozjati	-9.79164
▁[2]	-9.79537
massa	-9.79646
▁tqis	-9.79676
metru	-9.79731
viżi	-9.79895
magna	-9.80042
▁permess	-9.80117
appell	-9.80234
profitt	-9.80274
▁uġigħ	-9.80301
kultura	-9.80316
sintomi	-9.80518
▁bażiku	-9.80538
derivat	-9.80598
▁eliġibbli	-9.80796
▁Hija	-9.80812
▁kliniċi	-9.81175
istrateġija	-9.81242
▁2001	-9.81526
▁twil	-9.81566
kunjett	-9.81692
▁organizzat	-9.81739
▁Huma	-9.81761
Opinjoni	-9.81783
▁Informazzjoni	-9.8179
!	-9.81857
terminu	-9.8192
▁jirċievu	-9.82165
abbi	-9.82374
idro	-9.82563
▁sostitwit	-9.8261
–	-9.82708
09	-9.82728
fjuwil	-9.8282
ħabb	-9.82969
act	-9.83233
▁ikollhom	-9.83288
▁iżjed	-9.83337
▁jix	-9.83383
▁mqabbel	-9.83499
▁of	-9.83571
rikonoxxut	-9.8369
▁elettroniku	-9.8369
▁fundamentali	-9.83738
▁Nazzjonali	-9.8374
għalf	-9.83868
detentur	-9.84234
kundizzjoni	-9.84239
differenza	-9.84369
inizjattivi	-9.84376
metall	-9.84548
lingwa	-9.84703
▁issir	-9.84719
kontribut	-9.84753
▁jirrappreżenta	-9.84783
tranżazzjonijiet	-9.84818
▁jidher	-9.84845
▁ppubblikat	-9.8495
▁juru	-9.84984
adulti	-9.85061
▁jistabbilixxu	-9.85295
▁fiskali	-9.85443
ġlieda	-9.8551
ogħla	-9.85539
CH	-9.85585
▁minimi	-9.86
ħarsien	-9.86048
teknoloġiji	-9.86145
fruntieri	-9.86292
eżenzjoni	-9.86595
trasparenza	-9.8665
esperti	-9.86664
▁Internazzjonali	-9.86678
iskambju	-9.86741
▁2020	-9.86748
ALI	-9.86749
▁Għandu	-9.86777
+	-9.87042
poli	-9.87053
kalkolu	-9.87066
segwi	-9.87126
prattiki	-9.87187
bżonn	-9.87237
▁favur	-9.8747
▁provi	-9.87663
individwi	-9.87718
negozji	-9.87868
Iżvilupp	-9.87939
konnessjoni	-9.8796
domanda	-9.88025
▁mistennija	-9.88071
miktub	-9.88239
▁rispettivament	-9.88267
adatta	-9.88311
investitur	-9.88364
plaċebo	-9.88367
▁inizjali	-9.88382
Titolu	-9.88382
uffiċjal	-9.88403
imgħax	-9.88427
riżoluzzjoni	-9.88439
irġiel	-9.88513
ħiliet	-9.88643
iskart	-9.88643
▁ġewwa	-9.88659
deroga	-9.88681
▁jibqa	-9.8879
▁tkopri	-9.88815
▁uniku	-9.88988
[	-9.89014
EUR	-9.89022
tagħlim	-9.89268
▁sitt	-9.89277
▁magħrufa	-9.89321
▁elettroniċi	-9.89374
▁bbażati	-9.89418
influwenza	-9.89548
eżerċita	-9.89548
azzar	-9.8968
soluzzjoni	-9.89827
5%	-9.8993
▁minimu	-9.90074
kliewi	-9.9037
infużjoni	-9.90454
▁kompletament	-9.90466
▁msemmi	-9.90491
maniġġ	-9.90548
▁Franza	-9.9059
▁Komunitarja	-9.90758
Ewro	-9.9076
▁speċjalment	-9.90919
offerti	-9.90935
TFUE	-9.9095
zokkor	-9.90965
▁Gwida	-9.90985
▁korrett	-9.91011
insulina	-9.91103
Italja	-9.91224
mezz	-9.91315
mekkaniżmu	-9.91331
▁żgħir	-9.91553
(1)(	-9.91687
▁preżenti	-9.91758
▁jimplimenta	-9.91782
▁avversi	-9.92101
ħġieġ	-9.92391
djalogu	-9.92428
Uffiċċju	-9.9251
▁kriminali	-9.92525
Malti	-9.92542
introduzzjoni	-9.92547
migrazzjoni	-9.92577
▁Dis	-9.92712
superviżjoni	-9.92715
III	-9.92744
▁jiżviluppaw	-9.92751
▁qasir	-9.92787
kompiti	-9.93135
rikonoxximent	-9.93334
▁orali	-9.9341
▁konsistenti	-9.93417
▁transkonfinali	-9.93794
biegħ	-9.93816
▁jippreżenta	-9.93884
lingwi	-9.93913
Suq	-9.9399
▁tibda	-9.9416
▁politiċi	-9.94288
▁Hemm	-9.94364
perjodi	-9.94376
▁konkluż	-9.94378
kumitat	-9.94591
▁elettronika	-9.94613
dazju	-9.94841
ittra	-9.94882
▁regolatorji	-9.95058
isforzi	-9.95309
ishma	-9.95513
ġurnata	-9.95539
▁spejjeż	-9.95647
▁aġġornat	-9.95709
oħrajn	-9.9579
▁mistenni	-9.95881
karbonju	-9.9604
snin	-9.96229
▁adattat	-9.96395
▁meqjus	-9.96435
valida	-9.96481
Euratom	-9.96769
tabella	-9.96813
▁mhijiex	-9.97144
▁għaċ	-9.97335
▁titqies	-9.97347
temm	-9.97356
................	-9.97428
tħaddim	-9.97462
▁tiżdied	-9.97488
frekwenza	-9.97504
«	-9.97614
▁jadotta	-9.97669
▁kapaċi	-9.97671
amina	-9.977
▁mqabbla	-9.97786
▁agrikoli	-9.97944
(6)	-9.98143
istudji	-9.9818
▁anki	-9.9827
tejbu	-9.9868
kliem	-9.98752
▁hinn	-9.98952
▁Ekonomiku	-9.99069
▁dovut	-9.99085
▁diġitali	-9.99292
▁oriġinali	-9.99452
rifjut	-9.99484
▁tinsab	-9.99588
▁bbażata	-9.99796
▁klinika	-9.99844
sħana	-10.0003
forniment	-10.0026
tessut	-10.003
ħalq	-10.0052
Ministru	-10.0053
rappurtar	-10.006
▁relevanti	-10.0069
▁kellu	-10.0075
▁qiegħda	-10.0075
▁fiżika	-10.0084
rekwiżit	-10.0086
Liġi	-10.0086
suppliment	-10.0091
▁jogħġbok	-10.0094
ġodda	-10.0115
59	-10.0136
▁estiż	-10.0143
▁twettaq	-10.0153
▁Matul	-10.0153
▁tittieħed	-10.0155
▁tibqa	-10.0162
kunsiderazzjoni	-10.0166
xiri	-10.0229
ċertifikazzjoni	-10.0231
▁miksija	-10.0245
pond	-10.0245
-2020	-10.0255
ċittadin	-10.0255
kompetittività	-10.0258
Funzjonament	-10.0269
▁Bħala	-10.0274
impenji	-10.0289
▁twassal	-10.0298
intervent	-10.031
ftuħ	-10.0316
fużjoni	-10.0331
89	-10.0337
Afrika	-10.0352
maġġoranza	-10.0361
oloġija	-10.0367
▁maħsub	-10.0381
▁qiegħed	-10.0386
talbiet	-10.041
liċenzja	-10.0414
▁preġudizzju	-10.0428
prijoritajiet	-10.0431
▁jintlaħqu	-10.0438
▁adatt	-10.0455
kopertura	-10.046
traffiku	-10.046
▁jżomm	-10.0461
proċedimenti	-10.0462
▁indirett	-10.0495
▁għajr	-10.0511
Irlanda	-10.0514
Affarijiet	-10.0519
Drittijiet	-10.0555
▁ijiem	-10.0559
▁stmat	-10.0564
Enerġija	-10.0569
premessa	-10.0592
▁mogħti	-10.0605
▁Billi	-10.0635
▁magħżul	-10.0638
entement	-10.064
aqwa	-10.0655
bastiment	-10.0681
▁sostanzjali	-10.071
assoċjazzjoni	-10.072
kompetenza	-10.0723
serje	-10.0737
tħassib	-10.0741
siringa	-10.0746
disk	-10.0764
ġenerazzjoni	-10.0776
▁sempliċi	-10.0778
radju	-10.0778
preparazzjoni	-10.0787
sekonda	-10.079
twaqqif	-10.0795
▁skart	-10.0811
▁kulturali	-10.0817
soċj	-10.0827
raġuni	-10.0827
tribu	-10.0831
trażmissjoni	-10.0836
PRO	-10.084
jaqsmu	-10.0855
▁allokat	-10.0868
▁mimlija	-10.0868
▁jitlob	-10.0869
fajl	-10.0871
funzjonament	-10.0873
Linji	-10.0896
sħubija	-10.0916
impjant	-10.0928
mekkaniżmi	-10.0934
▁ugwali	-10.094
hydro	-10.0942
▁leġiżlattiv	-10.0977
▁armonizzat	-10.0983
indeboliment	-10.0992
▁strument	-10.0994
professjoni	-10.1006
deskrizzjoni	-10.1007
Franċiż	-10.1029
▁[3]	-10.1063
taħlita	-10.1066
ispeċifikazzjoni	-10.1074
▁jidħol	-10.1076
ħlasijiet	-10.1079
▁tidde	-10.1094
▁rreġistrat	-10.1099
ristrutturar	-10.11
▁preċiż	-10.1101
internet	-10.1106
▁umani	-10.1112
veloċità	-10.1117
▁komprensiv	-10.1119
▁taħdem	-10.1119
jalment	-10.1123
eżerċizzju	-10.1141
perċentwal	-10.1146
▁tekniku	-10.1146
benefiċjarji	-10.1149
▁jidhru	-10.1155
ċirkostanzi	-10.1157
titjir	-10.1163
Pajjiż	-10.1178
▁aħna	-10.1182
▁Filwaqt	-10.119
taqsima	-10.1194
▁Spanja	-10.1213
kummenti	-10.1222
▁jaqgħu	-10.1224
tariffi	-10.1228
sussidja	-10.1228
PESK	-10.1231
▁anke	-10.1241
kwota	-10.1244
inklużjoni	-10.1244
ittestjar	-10.1246
▁Awwissu	-10.125
plastik	-10.1261
pjanijiet	-10.1264
Istrateġija	-10.127
Karta	-10.1271
▁permanenti	-10.1288
plażma	-10.1296
▁jqis	-10.1314
Regoli	-10.1324
▁massima	-10.1325
▁mhix	-10.1328
▁żdied	-10.1336
▁kompetittiv	-10.1347
▁qatt	-10.1352
hemmx	-10.1375
parteċipa	-10.141
kwoti	-10.1411
▁jikkunsidra	-10.1441
▁ġol	-10.1445
▁ġeneralment	-10.1454
▁online	-10.1466
▁strutturali	-10.148
▁evalwat	-10.1487
▁jittieħed	-10.1515
manutenzjoni	-10.1524
▁raġonevoli	-10.1525
postijiet	-10.1529
▁jaħdem	-10.1532
▁Mill	-10.1548
argument	-10.1559
injam	-10.1565
problema	-10.1608
ieqa	-10.1627
▁kotba	-10.163
referenza	-10.1632
alternattivi	-10.1639
formula	-10.1641
Reġjun	-10.1643
laħam	-10.1647
approprjazzjoni	-10.1651
▁ħażin	-10.1656
lbu	-10.1718
direzzjoni	-10.1719
żamma	-10.172
▁jikkonformaw	-10.172
▁inkorporat	-10.173
▁suffiċjenti	-10.1732
aġenziji	-10.1759
tifsira	-10.176
▁Komp	-10.1768
kunċett	-10.1776
▁illegali	-10.179
inċentiv	-10.1794
▁normalment	-10.1797
neħħi	-10.1798
Direttur	-10.1799
▁mingħand	-10.1827
▁eżaminat	-10.1838
Kummerċ	-10.1842
▁tgħin	-10.1851
aċidu	-10.1863
▁jinkiseb	-10.187
▁jidħlu	-10.1871
diversità	-10.1875
logħob	-10.1877
‘	-10.1884
brejk	-10.1886
▁jikkontribwixxu	-10.1896
addittiv	-10.19
▁jżid	-10.1912
sostenn	-10.1916
invest	-10.1924
tnejn	-10.1926
▁minnufih	-10.1935
▁espress	-10.1936
emerġenza	-10.1947
▁jappoġġja	-10.1952
isfidi	-10.1954
eċċezzjoni	-10.196
▁the	-10.1962
governanza	-10.1963
JONI	-10.1973
Art	-10.1981
twelid	-10.2009
Riċerka	-10.201
imsieħba	-10.2011
▁jwassal	-10.2013
tħejjija	-10.2015
vaċċin	-10.2016
▁konċernat	-10.2019
esponiment	-10.2019
libertà	-10.2019
ZZJONI	-10.2031
irkupru	-10.2035
▁ippreżentat	-10.2038
▁parir	-10.2039
inċident	-10.2049
diskriminazzjoni	-10.2056
eżekuzzjoni	-10.2061
▁jitwettqu	-10.2066
▁ewlenija	-10.2067
fuljett	-10.2069
installazzjoni	-10.2084
intestatura	-10.2086
MENT	-10.2086
▁jintlaħaq	-10.2093
Greċja	-10.2094
pubblika	-10.21
▁jinsab	-10.21
▁prijorità	-10.2119
materja	-10.2119
▁faċli	-10.2131
BĊN	-10.2132
▁ċertu	-10.2132
▁1.1	-10.2133
▁qbil	-10.2136
▁dewmien	-10.2154
tariffa	-10.2171
kostruzzjoni	-10.2175
▁teħtieġ	-10.2184
differenzi	-10.223
frott	-10.2232
▁diffiċli	-10.2236
▁jirrigwarda	-10.224
▁ikollu	-10.2248
Direttivi	-10.2252
Proċedura	-10.2252
▁kellha	-10.2262
websajt	-10.2281
▁madankollu	-10.2283
ċelluli	-10.2285
ċentru	-10.2294
tagħbija	-10.2295
leġislazzjoni	-10.2302
kwantitajiet	-10.2319
ilmijiet	-10.232
▁titlob	-10.2341
▁tirċievi	-10.2352
istituzzjonali	-10.2356
alkoħol	-10.2357
paġna	-10.2368
▁kopert	-10.2379
dimensjoni	-10.2379
għażliet	-10.2386
▁ulterjuri	-10.2389
▁Dawk	-10.2399
fabbrika	-10.2408
▁wisq	-10.2432
▁innovattiv	-10.2433
▁wiesgħa	-10.2436
▁ingħata	-10.2483
tmexxija	-10.249
▁spiss	-10.2497
periklu	-10.2501
▁Għandha	-10.253
▁rivedut	-10.2533
Appendiċi	-10.255
kandidat	-10.2565
garanziji	-10.2574
▁uniformi	-10.2574
diskussjoni	-10.2576
għeluq	-10.2591
▁Finanzjarju	-10.2591
▁sentejn	-10.2595
▁kważi	-10.2595
fiduċja	-10.2596
▁proprji	-10.26
preżenza	-10.2601
▁xulxin	-10.2607
revoka	-10.2616
▁kontinwa	-10.262
▁relattiv	-10.2642
Żona	-10.2648
logħba	-10.2652
nkoraġġ	-10.2654
ritorn	-10.266
▁nukleari	-10.2671
Polonja	-10.2684
▁magħhom	-10.2687
▁trasparenti	-10.2689
▁strett	-10.2701
reġistru	-10.2711
direttiva	-10.272
xogħlijiet	-10.2726
opportunità	-10.2752
▁CYP	-10.2757
Assoċjazzjoni	-10.2779
fittex	-10.2779
▁Qabel	-10.2789
karozzi	-10.2804
▁rurali	-10.2812
fehma	-10.2825
kostijiet	-10.2843
faċilità	-10.2847
affarijiet	-10.2848
Saħħa	-10.2869
qawwa	-10.2873
▁Komunitarju	-10.2876
tilqim	-10.2883
klor	-10.2886
▁statistika	-10.2889
sottomett	-10.2889
Użu	-10.29
Ambjent	-10.2911
▁darbtejn	-10.2913
Investiment	-10.292
▁tiegħi	-10.2932
▁eżempju	-10.2935
produttur	-10.2959
Organizzazzjoni	-10.2976
dipendenza	-10.2976
gassijiet	-10.2984
Belġju	-10.3029
kwantità	-10.3032
Amerika	-10.3039
▁jinbidel	-10.3058
tfassil	-10.3067
humiex	-10.3072
▁kollettiv	-10.3076
ħżin	-10.3092
▁maħdum	-10.3106
offerta	-10.3109
▁tidħol	-10.3121
osservazzjoni	-10.3128
projbizzjoni	-10.3136
frutt	-10.3151
▁affettwat	-10.3161
adeżjoni	-10.3161
▁domestiċi	-10.3166
prospett	-10.3181
dazji	-10.32
ħażna	-10.3212
▁korrispondenti	-10.3216
▁introdott	-10.3218
▁għalkemm	-10.3218
▁iqis	-10.3232
▁jinvolvu	-10.3246
istatistika	-10.3249
ċentri	-10.3275
obbligazzjoni	-10.3277
▁jiksbu	-10.3283
konċentra	-10.331
Manifattur	-10.3318
▁minkejja	-10.3349
Danimarka	-10.3353
▁sussegwenti	-10.3374
▁[...]	-10.3383
ispiża	-10.3396
rilaxx	-10.3403
▁ippubblikat	-10.341
▁Għandhom	-10.3423
skriv	-10.3435
▁ghal	-10.3437
jaqsam	-10.3478
▁neċessarju	-10.3491
▁kinux	-10.3491
ħafna	-10.3509
karburant	-10.3533
fjamma	-10.3556
▁kkalkulat	-10.357
▁Minkejja	-10.3573
theddid	-10.3581
▁kkontrollat	-10.3586
riżerva	-10.3591
Awstrija	-10.3607
▁sodisfatt	-10.3626
▁ipprovdut	-10.3633
Ċentru	-10.3635
▁regolatorja	-10.3638
▁Numru	-10.365
kapaċitajiet	-10.3659
▁ġuridika	-10.3659
▁Ċiniż	-10.3672
▁spezzjoni	-10.3686
▁moderat	-10.3696
▁rinnovabbli	-10.3702
▁operazzjonali	-10.3738
▁joffru	-10.3752
▁perikoluż	-10.3765
Kooperazzjoni	-10.3769
▁speċi	-10.3781
▁tikkunsidra	-10.3792
denominazzjoni	-10.3801
▁mbagħad	-10.3812
uffiċċju	-10.3816
komplet	-10.3824
Ingliż	-10.3835
HIV	-10.3838
▁jinstab	-10.3852
Mediterran	-10.3852
ċertezza	-10.386
benefiċjarju	-10.3868
▁rrappurtat	-10.3871
sessjoni	-10.3879
rekord	-10.3888
Kontroll	-10.3889
▁kompatibbli	-10.3895
istruzzjonijiet	-10.391
▁jixtieq	-10.3916
istandard	-10.3917
▁massimi	-10.3919
liċenzji	-10.392
▁sforz	-10.3932
evalwa	-10.3949
avviż	-10.3972
▁politiku	-10.3985
▁jwasslu	-10.3999
reġim	-10.3999
▁Magħmul	-10.4001
ingrossa	-10.4009
▁tidher	-10.4017
▁ifisser	-10.4024
▁neċessarji	-10.4032
Rakkomandazzjoni	-10.4057
▁mixtieq	-10.4075
▁kurrenti	-10.4078
(7)	-10.4082
kompjuter	-10.4095
Lvant	-10.4103
▁Pazjenti	-10.4111
&	-10.4118
▁Delega	-10.4118
▁alfa	-10.4127
diffikultajiet	-10.4156
▁jinkisbu	-10.4158
maniġer	-10.4161
limitazzjoni	-10.4163
▁Permezz	-10.4168
migranti	-10.4188
Dokument	-10.419
Għajnuna	-10.4202
ispazju	-10.4204
Internet	-10.4209
kontroparti	-10.4213
▁[4]	-10.4227
ispezzjoni	-10.4237
▁renali	-10.4242
Protezzjoni	-10.4244
▁strateġija	-10.4256
▁jitnaqqsu	-10.4261
qligħ	-10.4266
▁darbiet	-10.4274
▁Aktar	-10.4281
▁ddeterminat	-10.4286
▁tipproponi	-10.4295
▁Governattiv	-10.4328
Sħubija	-10.4338
Indja	-10.4338
▁mwettqa	-10.4352
▁kkurati	-10.4354
▁modifikat	-10.4355
▁tinżamm	-10.4355
▁skala	-10.4405
Sajd	-10.441
▁drabi	-10.4411
konsegwenzi	-10.4414
▁jitolbu	-10.4421
▁sikur	-10.4428
▁jistipula	-10.4435
▁provdut	-10.4442
saħħithom	-10.4444
▁deċiż	-10.4453
▁infurmat	-10.446
▁separata	-10.4465
esklużjoni	-10.4469
▁jeżistu	-10.4477
▁wħud	-10.448
koeżjoni	-10.4493
▁vvalutat	-10.4513
à	-10.4513
▁Speċjali	-10.4518
alternattiva	-10.4523
▁minflok	-10.4523
inġenji	-10.4549
ġurisdizzjoni	-10.4556
▁joħolqu	-10.4559
Kummissarju	-10.4574
kkredita	-10.4597
▁Eżekuttiv	-10.4616
irtirar	-10.4626
▁skemi	-10.4644
▁parzjali	-10.4663
▁akkumpanjat	-10.467
▁għaldaqstant	-10.4673
▁għoljin	-10.4679
.2.1	-10.4682
ġejjieni	-10.469
armonizzazzjoni	-10.4712
▁jibbenefikaw	-10.4721
▁Ekonomika	-10.4738
avjazzjoni	-10.4755
▁jipparteċipaw	-10.4757
qtugħ	-10.4758
▁ikollok	-10.4764
Netwerk	-10.4769
Dikjarazzjoni	-10.4774
▁intitolat	-10.4786
privat	-10.4788
awditjar	-10.4801
▁jilħqu	-10.4806
interpretazzjoni	-10.4816
tranżazzjoni	-10.4848
ġustizzja	-10.4856
fruntiera	-10.487
▁sigur	-10.4885
▁toħloq	-10.4887
▁acid	-10.4893
▁domestiku	-10.4897
▁kontinwu	-10.4898
▁http	-10.4899
involviment	-10.4911
▁kruċjali	-10.4919
▁temporanja	-10.4923
▁tikkontribwixxi	-10.4937
Proposta	-10.4944
normal	-10.495
▁Uniku	-10.4959
tossiċità	-10.4998
referenzi	-10.5026
▁onlajn	-10.5038
▁ħielsa	-10.5041
▁assenjat	-10.5045
▁jikkontribwixxi	-10.5065
▁Schengen	-10.5067
emittent	-10.5069
kompetenzi	-10.5078
kontenitur	-10.5096
▁medika	-10.5105
inibitur	-10.5105
klieb	-10.512
▁parzjalment	-10.5129
▁ġeografika	-10.5148
sospensjoni	-10.5151
▁preliminari	-10.5154
verifiki	-10.5176
kummerċjalizz	-10.5207
metodoloġija	-10.521
▁Kontraenti	-10.5214
▁joħorġu	-10.5222
▁jipproduċu	-10.5244
▁separati	-10.53
vapur	-10.5312
mistoqsijiet	-10.5323
▁jaġixxi	-10.5356
EFTA	-10.5365
▁sodium	-10.5374
▁prinċipalment	-10.5375
elettro	-10.5427
▁xjentifika	-10.5438
Portugall	-10.5443
▁jiddeċiedi	-10.5443
Lussemburgu	-10.5455
iskadenza	-10.5456
responsabbilta	-10.5458
tixrid	-10.5463
▁tinkiseb	-10.5472
gwida	-10.5484
▁kliniku	-10.5488
▁ħieles	-10.5498
validità	-10.5501
kunflitt	-10.5504
▁reċiproku	-10.5504
Valutazzjoni	-10.5509
Rumanija	-10.552
imkien	-10.5526
Trasport	-10.5558
▁tirriżulta	-10.5578
▁Mingħajr	-10.5581
▁toħroġ	-10.5582
▁studjat	-10.5589
▁avvanzat	-10.5598
effettività	-10.562
Awdituri	-10.5623
integra	-10.5627
▁kulħadd	-10.564
Komunitajiet	-10.5702
▁tikkonċerna	-10.5706
▁konkret	-10.5714
difiża	-10.5745
▁tiddeċiedi	-10.5754
▁monetarja	-10.5774
▁militari	-10.5797
▁favorevoli	-10.5799
Ministeru	-10.5827
provvediment	-10.5835
▁effikaċi	-10.5861
agrikoltura	-10.5869
tilwim	-10.5912
Ungerija	-10.5927
▁skopijiet	-10.5956
tweġiba	-10.5981
▁FUQ	-10.5982
ispiżjar	-10.5987
falliment	-10.5992
anzjani	-10.5997
aluminju	-10.6
ugwaljanza	-10.6005
kwalifiki	-10.6022
▁eċċezzjonali	-10.6022
kombinazzjoni	-10.6069
▁Kwalunkwe	-10.6075
▁kinitx	-10.6082
▁mibdul	-10.6094
immaniġġjar	-10.6098
▁abbord	-10.61
▁bilaterali	-10.6104
▁offrut	-10.6113
▁Abbozz	-10.6116
▁jaġixxu	-10.6116
bdiewa	-10.6128
▁GĦALL	-10.6132
Xogħol	-10.6141
▁tradizzjonali	-10.6146
Impjieg	-10.6156
▁ddikjarat	-10.618
▁garantit	-10.618
▁urban	-10.6182
Bulgarija	-10.6183
▁ristrett	-10.6202
▁leġislattiv	-10.6208
intervall	-10.6251
▁reċenti	-10.6267
▁kieku	-10.6288
disponibbiltà	-10.6304
▁territorjali	-10.6317
konsolidat	-10.6318
▁jikkostitwixxu	-10.632
▁Għalkemm	-10.6323
sensittività	-10.633
Livell	-10.6336
dibattitu	-10.6344
▁stadju	-10.6351
Kroazja	-10.6359
▁jenfasizza	-10.6377
Arċisqof	-10.638
European	-10.6415
▁ikkunsidrat	-10.6432
▁miegħu	-10.644
sostituzzjoni	-10.6455
Ġermaniż	-10.6455
▁agrikola	-10.6467
huwiex	-10.6475
abbuż	-10.6506
prijorit	-10.653
ikkalkula	-10.6549
pjattaforma	-10.6566
Norveġja	-10.6575
settorjali	-10.6607
▁diskuss	-10.6624
makkinarju	-10.6636
ippjanar	-10.6644
aġenzija	-10.666
aggregat	-10.6677
twissija	-10.6677
▁tilħaq	-10.67
▁imbagħad	-10.6702
Segretarju	-10.6733
Riżoluzzjoni	-10.6746
ċirkolazzjoni	-10.6767
Finlandja	-10.6782
veterinarju	-10.6798
▁Disturbi	-10.6798
▁farmako	-10.6808
▁jaqbeż	-10.6824
▁ġustifikat	-10.6824
▁żejda	-10.6832
▁analizzat	-10.6836
sostenibbiltà	-10.6859
tranżizzjoni	-10.6862
Latvja	-10.6863
▁Reġjonali	-10.687
Kategorija	-10.6907
▁joħroġ	-10.691
bandiera	-10.692
▁neċessarja	-10.6926
»	-11.8604
—	-11.9127
