<unk>	0
<s>	0
</s>	0
-	-2.15302
▁	-3.32128
,	-3.66976
▁ta	-3.75341
▁tal	-3.79566
▁l	-3.80327
’	-3.87557
.	-3.94533
▁u	-4.06217
▁li	-4.15552
'	-4.23605
▁il	-4.55322
i	-4.89883
)	-4.96984
▁(	-5.00826
a	-5.10393
▁għall	-5.27235
▁jew	-5.38779
▁fil	-5.43893
▁b	-5.46288
▁f	-5.53835
▁mill	-5.5591
▁ma	-5.59768
▁għal	-5.60658
s	-5.69964
▁fl	-5.70305
▁L	-5.71875
▁Il	-5.77407
▁minn	-5.79108
/	-5.80999
▁dwar	-5.8286
:	-5.86097
▁fuq	-5.88305
;	-5.93423
jiet	-6.03438
▁tas	-6.04239
▁tat	-6.08271
▁biex	-6.09431
▁ir	-6.22518
Artikolu	-6.22842
x	-6.23647
b	-6.23978
▁t	-6.24015
Kummissjoni	-6.26976
u	-6.27452
▁tad	-6.29922
▁tar	-6.32767
▁għandhom	-6.3344
▁id	-6.35806
t	-6.36305
UE	-6.36411
▁it	-6.37182
Regolament	-6.38483
l	-6.39086
mod	-6.43182
▁is	-6.46574
▁lill	-6.4867
▁għandu	-6.50678
▁mal	-6.53038
▁s	-6.53312
▁kif	-6.54571
▁dan	-6.54998
▁r	-6.56318
e	-6.56737
▁d	-6.57677
▁huma	-6.62044
w	-6.64577
▁huwa	-6.65159
▁jiġu	-6.65192
▁għandha	-6.6641
il	-6.67767
Unjoni	-6.72614
Kunsill	-6.75475
▁Membri	-6.75513
▁fis	-6.75934
Istati	-6.78082
▁Nru	-6.79303
KE	-6.79586
▁skont	-6.80692
▁tagħhom	-6.83169
▁1	-6.84052
▁mhux	-6.85816
▁aktar	-6.86975
▁tkun	-6.8701
f	-6.87994
”	-6.88435
▁jiġi	-6.88815
▁jkun	-6.89423
li	-6.92736
▁bħala	-6.9297
ta	-6.95082
▁jekk	-6.96548
▁Ewropea	-6.96632
▁hija	-6.9741
d	-6.98627
▁Ewropew	-6.98918
▁kollha	-6.99037
▁in	-6.99253
r	-6.9986
▁sabiex	-6.99926
▁B	-7.0039
o	-7.00949
▁fi	-7.01205
g	-7.02136
▁m	-7.04244
▁2	-7.07017
▁din	-7.07871
▁bil	-7.08159
▁bejn	-7.08708
▁dawn	-7.08862
▁tiġi	-7.10253
1	-7.10349
▁wara	-7.10392
▁tiegħu	-7.10445
Direttiva	-7.10475
▁kull	-7.11025
▁ukoll	-7.11181
▁jistgħu	-7.11604
c	-7.11711
▁“	-7.12489
2	-7.12908
▁jista	-7.13043
▁fir	-7.14155
in	-7.14449
▁S	-7.14611
▁meta	-7.14837
▁F	-7.18261
▁oħra	-7.1838
ti	-7.18561
▁j	-7.18678
▁n	-7.19959
suq	-7.21935
▁fit	-7.22374
▁se	-7.22642
m	-7.22664
▁3	-7.22926
▁tagħha	-7.24012
A	-7.26631
h	-7.27079
▁fejn	-7.29501
▁p	-7.30753
▁ikun	-7.31411
▁sa	-7.3244
ri	-7.32836
▁għat	-7.33483
▁jkunu	-7.33756
▁hemm	-7.33911
▁bl	-7.34526
▁A	-7.34556
▁dawk	-7.34963
Anness	-7.36091
▁permezz	-7.37354
▁nazzjonali	-7.38002
n	-7.39326
▁qed	-7.39471
użu	-7.41035
C	-7.4183
▁taħt	-7.44255
B	-7.45309
rigward	-7.45335
▁tista	-7.45338
S	-7.46342
▁ikunu	-7.46468
▁qabel	-7.4656
ar	-7.46616
▁C	-7.46723
ja	-7.4691
▁Ir	-7.48875
3	-7.49377
▁»	-7.49615
▁I	-7.50764
każ	-7.51475
▁%	-7.51547
ment	-7.5219
▁tan	-7.52217
▁biss	-7.52807
▁Membru	-7.53153
Parlament	-7.53333
▁wkoll	-7.53366
▁Id	-7.54054
4	-7.56087
dan	-7.5733
▁kien	-7.57544
▁partikolari	-7.57931
er	-7.57978
azzjoni	-7.58357
L	-7.58395
T	-7.58484
▁Dan	-7.58547
di	-7.58886
▁5	-7.5895
▁fid	-7.59585
▁wieħed	-7.59741
▁għas	-7.60167
at	-7.61016
al	-7.61156
Istat	-7.61222
na	-7.63501
ewwel	-7.64268
Deċiżjoni	-7.65396
▁T	-7.67168
awtoritajiet	-7.67532
▁It	-7.67957
ha	-7.68815
▁M	-7.689
ra	-7.69819
"	-7.70469
paragrafu	-7.70473
q	-7.70521
▁4	-7.70655
el	-7.70704
k	-7.71206
▁–	-7.71278
ma	-7.72041
▁bi	-7.72374
▁billi	-7.72596
5	-7.73034
▁mg	-7.73377
▁xi	-7.73454
▁tiegħek	-7.73497
et	-7.73772
▁lil	-7.73798
en	-7.7462
konformità	-7.76073
data	-7.76165
implimentazzjoni	-7.76373
istess	-7.77508
▁kienu	-7.77763
ir	-7.77988
▁Is	-7.78167
livell	-7.78344
y	-7.79597
informazzjoni	-7.8028
P	-7.8074
M	-7.80861
▁dak	-7.80937
▁kwalunkwe	-7.81484
▁Jekk	-7.81522
▁informazzjoni	-7.83035
F	-7.83045
ed	-7.83267
▁għar	-7.84574
▁għad	-7.85072
I	-7.85714
▁mingħajr	-7.86427
miżuri	-7.8667
E	-7.87537
K	-7.87701
▁kemm	-7.88432
▁kontra	-7.88638
applikazzjoni	-7.89212
Kumitat	-7.90578
▁prodotti	-7.91354
(	-7.91461
N	-7.91543
6	-7.91881
▁E	-7.92128
on	-7.92585
p	-7.92613
sistema	-7.93165
G	-7.93406
an	-7.93422
]	-7.94076
▁ġenerali	-7.94112
punt	-7.94754
▁bħal	-7.95085
ħ	-7.95243
▁6	-7.95337
għan	-7.95459
iżvilupp	-7.95497
▁K	-7.9552
▁waħda	-7.95591
▁żmien	-7.96144
ati	-7.9615
▁ħafna	-7.96827
D	-7.96973
hom	-7.9712
id	-7.97292
▁10	-7.97936
ż	-7.98231
▁x	-7.98688
▁ieħor	-7.9869
▁stabbiliti	-7.9874
rekwiżiti	-7.99238
ara	-7.99539
enerġija	-8.00383
▁iżda	-8.00644
ji	-8.00779
▁minħabba	-8.01499
▁Din	-8.01838
z	-8.01863
▁matul	-8.0217
▁ser	-8.0228
zzjoni	-8.02448
▁D	-8.02632
▁komuni	-8.02693
▁tax	-8.03096
▁im	-8.03836
ni	-8.03945
▁kienet	-8.03959
R	-8.04328
prodotti	-8.04497
▁disponibbli	-8.048
saħħa	-8.0484
aħħar	-8.05676
▁flimkien	-8.05962
is	-8.05963
it	-8.06096
▁Stat	-8.06186
lu	-8.06625
▁meħtieġa	-8.06649
j	-8.07241
du	-8.07291
xogħol	-8.07316
da	-8.08126
▁soċjali	-8.08255
▁rilevanti	-8.08362
▁lejn	-8.08696
▁"	-8.08842
7	-8.09186
▁P	-8.09311
8	-8.09503
▁hekk	-8.09911
re	-8.10107
▁ġew	-8.10152
▁Fil	-8.10228
▁oħrajn	-8.1087
ċ	-8.11439
Ftehim	-8.11465
▁miżuri	-8.11592
regoli	-8.12051
▁taż	-8.12151
dispożizzjoni	-8.12445
▁7	-8.12562
servizzi	-8.1366
▁ġejjin	-8.13997
▁V	-8.14034
aw	-8.14453
ka	-8.14531
▁Fl	-8.14628
▁min	-8.14801
ċi	-8.15244
amp	-8.15812
▁parti	-8.16312
ebda	-8.16704
▁G	-8.17265
▁iktar	-8.17813
▁&	-8.17814
perjodu	-8.17928
▁kompetenti	-8.17954
Ewropa	-8.17958
▁msemmija	-8.18124
▁k	-8.18221
▁ġej	-8.18507
H	-8.19052
or	-8.19826
▁g	-8.2059
▁taċ	-8.20834
▁dik	-8.21077
għ	-8.2172
▁internazzjonali	-8.22205
▁8	-8.22211
▁[	-8.22404
es	-8.23231
te	-8.23912
am	-8.24459
▁finanzjarji	-8.24699
▁differenti	-8.24809
▁mis	-8.25152
tip	-8.2531
aktar	-8.25322
prodott	-8.26385
?	-8.26573
▁waqt	-8.26729
▁inklużi	-8.26827
▁In	-8.26863
V	-8.26922
sena	-8.27003
pajjiżi	-8.27908
▁hu	-8.28033
▁legali	-8.28176
liġi	-8.28446
▁sena	-8.28496
▁ġie	-8.28537
politika	-8.29546
▁iż	-8.29664
qasam	-8.29668
riskju	-8.31002
ur	-8.31021
ol	-8.31167
ing	-8.31861
drittijiet	-8.32017
settur	-8.32087
▁—	-8.3252
sigurtà	-8.32808
▁hawn	-8.32923
▁mit	-8.33004
▁Barra	-8.33742
għajnuna	-8.34207
▁Diċembru	-8.34471
▁EUR	-8.34618
▁mid	-8.34698
ali	-8.34865
mi	-8.35294
▁20	-8.353
▁relatati	-8.35346
awtorità	-8.35553
▁U	-8.36169
▁meħtieġ	-8.36263
pazjenti	-8.36376
10	-8.36424
▁inkluż	-8.36486
▁quddiem	-8.36494
seħħ	-8.36681
kundizzjonijiet	-8.36784
▁applikabbli	-8.36806
▁skond	-8.36845
▁Meta	-8.36942
▁speċifiċi	-8.37118
Komunità	-8.37224
▁servizzi	-8.37381
Trattat	-8.37733
▁N	-8.37825
▁pazjenti	-8.38303
proċedura	-8.38361
▁ġodda	-8.3844
Qorti	-8.38895
▁R	-8.38925
▁J	-8.3941
em	-8.39513
produzzjoni	-8.39638
▁finanzjarja	-8.39778
▁jin	-8.39965
▁ċerti	-8.39968
▁15	-8.40356
attivitajiet	-8.40379
test	-8.41019
▁madwar	-8.41133
ammont	-8.41155
▁sal	-8.41232
▁12	-8.4137
▁Madankollu	-8.41383
▁mir	-8.41849
valur	-8.42051
ru	-8.42176
ġdid	-8.4239
tieni	-8.42474
qa	-8.42801
▁Ewropej	-8.42885
im	-8.4298
▁mar	-8.43087
▁fih	-8.43191
dejta	-8.43299
ispejjeż	-8.43318
le	-8.43741
▁II	-8.4397
▁xieraq	-8.44009
▁H	-8.44021
oħra	-8.44037
▁Wara	-8.44157
▁stabbilit	-8.45233
▁jkollhom	-8.45728
dritt	-8.45886
‐	-8.45967
trasport	-8.46134
ĠU	-8.46149
programm	-8.46162
partijiet	-8.46464
▁Dawn	-8.46521
bażi	-8.47431
▁importanti	-8.47433
protezzjoni	-8.47435
▁X	-8.47661
▁‘	-8.47872
de	-8.48701
ata	-8.49031
us	-8.49629
▁snin	-8.4979
▁Għal	-8.50184
istituzzjonijiet	-8.50354
▁tieħu	-8.51289
ter	-8.51334
KEE	-8.51465
▁de	-8.51574
▁9	-8.51796
▁filwaqt	-8.51862
▁totali	-8.52174
▁sakemm	-8.52281
ew	-8.52481
▁ċ	-8.52542
din	-8.52649
v	-8.52669
żona	-8.52682
▁ġiet	-8.52801
▁possibbli	-8.52842
pajjiż	-8.52961
vi	-8.53026
▁jintuża	-8.53252
iż	-8.53287
ne	-8.54136
rata	-8.54205
post	-8.54362
dħul	-8.54926
O	-8.54965
KESE	-8.55685
▁30	-8.55985
▁pajjiżi	-8.5623
▁Ma	-8.56372
jew	-8.56449
▁barra	-8.57371
▁għalhekk	-8.57379
kura	-8.57388
▁inqas	-8.57432
(1)	-8.57907
sajd	-8.58031
▁bażi	-8.58327
▁tingħata	-8.5845
ku	-8.58483
▁jistabbilixxi	-8.58618
Artikoli	-8.58764
▁kummerċjali	-8.58839
proċess	-8.58875
▁addizzjonali	-8.58882
9	-8.58989
industrija	-8.59064
▁Huwa	-8.59083
▁19	-8.59233
art	-8.59304
inqas	-8.59822
▁iċ	-8.60268
(2)	-8.60701
▁14	-8.60799
ajru	-8.60882
▁doża	-8.60932
ikel	-8.60977
▁ż	-8.61011
ju	-8.6145
▁tfisser	-8.61605
▁11	-8.61677
żewġ	-8.62195
ro	-8.62401
▁għajnuna	-8.62555
▁terzi	-8.62637
▁sinifikanti	-8.62889
ament	-8.62989
▁japplikaw	-8.63006
▁livell	-8.63292
qafas	-8.63422
tur	-8.64071
▁O	-8.64141
▁referenza	-8.64363
eż	-8.64784
dawl	-8.64791
▁hi	-8.64838
tu	-8.6484
deċiżjoni	-8.64935
▁miljun	-8.65024
ek	-8.65081
ko	-8.65297
▁jit	-8.65591
rapport	-8.65605
▁13	-8.66115
▁Ġunju	-8.66226
importazzjoni	-8.66358
ija	-8.66997
parti	-8.67724
annimali	-8.6828
proposta	-8.68396
▁Għalhekk	-8.68457
ch	-8.68515
ambjent	-8.68602
▁fihom	-8.68656
mu	-8.68752
▁Għall	-8.69498
isem	-8.70051
azzjonijiet	-8.70394
▁Stati	-8.70447
tul	-8.71045
xi	-8.71151
fatt	-8.71257
prezz	-8.71275
hekk	-8.71309
▁responsabbli	-8.71355
▁bżonn	-8.71361
min	-8.7141
▁Jannar	-8.71476
▁18	-8.71516
▁pubbliku	-8.71534
▁tliet	-8.71789
▁jagħmlu	-8.71799
ent	-8.71979
ilma	-8.7199
W	-8.72223
to	-8.72386
kapaċità	-8.72675
ul	-8.72987
ut	-8.73036
▁TA	-8.73128
▁25	-8.73262
proċeduri	-8.73396
▁jintużaw	-8.73681
20	-8.73737
iet	-8.73873
▁personali	-8.73908
▁jinkludu	-8.73991
assi	-8.74021
▁16	-8.74114
valutazzjoni	-8.74239
Repubblika	-8.74344
▁simili	-8.74383
ġi	-8.74391
Aġenzija	-8.74489
kummerċ	-8.74608
▁eżistenti	-8.7487
arja	-8.7503
▁lokali	-8.75165
▁mhumiex	-8.75282
0	-8.75456
▁persuni	-8.75515
▁speċjali	-8.75798
anti	-8.75854
▁fiha	-8.75971
▁Lulju	-8.76411
▁pubbliċi	-8.76553
prezzijiet	-8.76749
numru	-8.77152
approvazzjoni	-8.77161
▁għolja	-8.77183
doża	-8.772
organizzazzjoni	-8.77314
▁TAL	-8.77525
st	-8.77547
▁xierqa	-8.77603
ġestjoni	-8.77706
▁darba	-8.77739
▁tnaqqis	-8.7787
▁appoġġ	-8.77966
▁annwali	-8.78143
per	-8.78179
sistemi	-8.78323
▁tagħna	-8.78474
▁jieħdu	-8.78561
▁ewlenin	-8.78597
lo	-8.78749
riżultati	-8.78943
▁17	-8.79012
▁kontroll	-8.79024
1/	-8.79089
ħajja	-8.79091
tri	-8.79156
▁jingħata	-8.79222
baġit	-8.79351
▁attwali	-8.79355
▁ambjentali	-8.79578
euro	-8.79694
jar	-8.79835
▁kuljum	-8.79842
▁diġà	-8.79998
Implimentazzjoni	-8.80524
▁jipprovdu	-8.80728
▁jiżguraw	-8.80955
kooperazzjoni	-8.81083
▁applikazzjoni	-8.81123
bejgħ	-8.81288
▁użu	-8.81763
▁finali	-8.81857
naħa	-8.81946
▁politika	-8.82096
forma	-8.8216
▁Sabiex	-8.82238
▁jipprovdi	-8.82382
▁mogħtija	-8.82606
kuntest	-8.82755
▁żewġ	-8.82763
sitwazzjoni	-8.82887
turi	-8.83282
impatt	-8.83289
▁ssir	-8.83413
fer	-8.8359
tra	-8.83902
ġ	-8.8401
▁fin	-8.8451
▁24	-8.84666
un	-8.84727
▁Marzu	-8.84956
żi	-8.85071
qu	-8.85298
▁ix	-8.85315
▁aħjar	-8.85516
▁prodott	-8.85521
gt	-8.85586
kwalità	-8.85588
▁Kull	-8.85912
ki	-8.86036
żmien	-8.86042
aċċess	-8.86044
▁100	-8.86321
▁Ottubru	-8.86642
▁Mejju	-8.87222
▁mil	-8.87483
fi	-8.8789
tnaqqis	-8.88088
▁50	-8.88266
BĊE	-8.88398
va	-8.88486
U	-8.88583
kontroll	-8.88659
għoti	-8.88741
Awtorità	-8.8906
piż	-8.89284
▁xhur	-8.89293
▁tekniċi	-8.89389
jo	-8.8939
aq	-8.89474
▁persuna	-8.89529
os	-8.89565
ad	-8.89663
pożizzjoni	-8.90151
▁azzjoni	-8.90178
▁fost	-8.90294
▁Skont	-8.90392
15	-8.90498
emissjonijiet	-8.9053
▁stabbilita	-8.90676
(3)	-8.90745
▁ml	-8.9099
ċittadini	-8.91099
▁reġjonali	-8.91122
▁ogħla	-8.91207
▁inti	-8.91822
▁fiż	-8.92115
pjan	-8.92462
▁III	-8.92557
all	-8.92579
ħin	-8.9259
ot	-8.92685
▁jkunx	-8.92731
▁marbuta	-8.9286
▁sistema	-8.92914
▁riskju	-8.93041
▁kura	-8.93099
▁jsir	-8.93169
▁Novembru	-8.93232
bniedem	-8.93268
▁tagħmel	-8.93432
nuqqas	-8.93491
▁21	-8.93506
▁abbażi	-8.93511
▁individwali	-8.93574
▁2008	-8.93686
ef	-8.93837
riżorsi	-8.93903
▁mad	-8.94309
▁Re	-8.94377
od	-8.94581
bbli	-8.94586
uri	-8.94728
dak	-8.95286
grupp	-8.95307
tal	-8.9578
▁pubblika	-8.96093
lt	-8.96301
J	-8.96315
▁aċċess	-8.96423
konsumaturi	-8.96551
se	-8.96635
termini	-8.96833
nu	-8.96886
▁bis	-8.97102
finanzjament	-8.97211
appoġġ	-8.97231
▁prinċipali	-8.97262
▁ħdan	-8.97355
livelli	-8.97359
għanijiet	-8.97373
▁2009	-8.97466
▁globali	-8.97689
▁Kif	-8.97734
ex	-8.97847
▁sostenibbli	-8.98094
lista	-8.98107
co	-8.98185
att	-8.9836
taxxa	-8.98419
▁żgurat	-8.98512
▁jinkludi	-8.98562
▁japplika	-8.987
kom	-8.98751
▁ċivili	-8.98902
▁April	-8.99034
tkabbir	-8.99092
ħtieġa	-8.99109
▁tipprovdi	-8.99547
wi	-8.99813
▁mat	-8.99825
Parti	-8.9984
▁data	-8.99955
ist	-9.00221
▁biżżejjed	-9.00229
▁2007	-9.00354
▁finanzjarju	-9.00604
prinċipju	-9.00668
kriterji	-9.00857
kon	-9.0087
▁ħin	-9.00887
▁perjodu	-9.00931
Il	-9.01005
Q	-9.01054
persuni	-9.01144
soċjetà	-9.01263
▁użati	-9.01374
▁dejjem	-9.01559
50	-9.01649
▁rigward	-9.01664
▁kollu	-9.0197
▁minnhom	-9.022
każijiet	-9.02204
▁lura	-9.0226
▁jum	-9.02326
bidu	-9.02571
▁sezzjoni	-9.02574
▁ekonomika	-9.02621
po	-9.02676
▁+	-9.02957
riskji	-9.03007
servizz	-9.03029
▁Settembru	-9.03263
▁nett	-9.03407
▁tip	-9.03476
11	-9.03558
zzjonijiet	-9.03587
13	-9.03665
▁żieda	-9.03718
▁ekonomiċi	-9.03864
▁tin	-9.03872
kompetizzjoni	-9.03883
▁mediċinali	-9.0402
leġiżlazzjoni	-9.04023
▁essenzjali	-9.04071
▁ġdid	-9.04075
▁għalihom	-9.04083
riċerka	-9.04111
▁tinkludi	-9.0419
16	-9.04275
▁2006	-9.04407
▁pajjiż	-9.0468
investiment	-9.04873
▁W	-9.04981
ħa	-9.05093
▁partijiet	-9.05433
▁2013	-9.05523
19	-9.05576
demm	-9.05706
għa	-9.05719
▁tagħti	-9.05728
rati	-9.05803
▁regoli	-9.05952
pa	-9.05981
port	-9.06052
▁jagħti	-9.061
▁ċentrali	-9.06158
ant	-9.06324
effetti	-9.06636
membri	-9.06641
▁gwida	-9.06695
trattament	-9.06818
Fond	-9.06914
ità	-9.07003
▁2016	-9.07046
ess	-9.07133
prinċipji	-9.07582
kontenut	-9.07765
▁interessati	-9.0812
għadd	-9.08147
▁Frar	-9.08204
▁trid	-9.08917
▁intern	-9.09019
iku	-9.09133
ej	-9.09171
aħjar	-9.09272
▁22	-9.09647
talba	-9.09716
opinjoni	-9.09859
tfal	-9.09888
▁2011	-9.09913
sikurezza	-9.09943
um	-9.09959
▁ħsara	-9.09994
tar	-9.10172
▁jagħtu	-9.10196
30	-9.10201
▁28	-9.10218
▁soluzzjoni	-9.10254
▁trattament	-9.10283
pro	-9.10341
▁bħall	-9.1044
▁għoli	-9.10544
▁deċiżjoni	-9.10632
territorju	-9.10633
konsum	-9.10716
▁attiva	-9.1074
▁Ġenerali	-9.10876
▁għan	-9.11069
awtorizzazzjoni	-9.11318
kumpaniji	-9.11326
▁protezzjoni	-9.11419
▁kon	-9.11429
do	-9.11476
▁taħriġ	-9.1163
effett	-9.11921
▁tistabbilixxi	-9.12058
12	-9.12135
ine	-9.12266
programmi	-9.12331
finijiet	-9.12418
▁imsemmi	-9.12447
Ġustizzja	-9.12455
tabib	-9.12567
▁bla	-9.12617
▁oġġetti	-9.12644
▁kellhom	-9.1301
▁imsemmija	-9.1315
▁punt	-9.13194
▁2010	-9.13211
▁jeħtieġ	-9.13261
▁Uniti	-9.13625
ika	-9.13651
▁re	-9.13959
punti	-9.1415
Konvenzjoni	-9.14288
sit	-9.1432
ass	-9.14331
▁xahar	-9.14342
14	-9.14412
▁ĠU	-9.14442
▁2014	-9.14467
▁ekonomiku	-9.14535
kull	-9.1459
mo	-9.14596
▁konformi	-9.14795
▁bid	-9.14913
▁0	-9.14969
▁Fi	-9.14979
▁akbar	-9.15043
ik	-9.15349
negozju	-9.15353
obbligi	-9.15372
Renju	-9.1562
▁23	-9.15691
▁jagħmel	-9.15762
iv	-9.16023
rakkomandazzjoni	-9.16126
▁Fejn	-9.16166
▁elenkati	-9.16175
▁•	-9.16201
swieq	-9.16246
▁għandek	-9.16417
▁effett	-9.16614
om	-9.16629
▁attivitajiet	-9.16818
▁adottati	-9.17101
▁valutazzjoni	-9.17157
▁bir	-9.17168
00	-9.17283
▁sustanzi	-9.17355
▁kkunsidrat	-9.17387
▁mm	-9.1739
ic	-9.17457
kuntratt	-9.17527
▁jingħataw	-9.17895
▁subparagrafu	-9.18075
vettura	-9.18127
▁2015	-9.18181
▁ġdida	-9.18363
25	-9.18497
effiċjenza	-9.18759
and	-9.18838
▁tuża	-9.1895
flus	-9.18971
▁bit	-9.19022
▁inter	-9.19042
op	-9.19202
żieda	-9.19298
oqsma	-9.19428
Bord	-9.19568
▁diversi	-9.19573
▁kreditu	-9.19617
esportazzjoni	-9.19646
▁jużaw	-9.19686
▁ċar	-9.19738
▁jkollu	-9.19842
▁2012	-9.19878
-“	-9.19893
▁ftehim	-9.1996
Sur	-9.20293
ers	-9.20326
▁tapplika	-9.20437
▁stipulati	-9.20714
▁ebda	-9.20933
▁normali	-9.20958
-31	-9.21023
sta	-9.21239
ci	-9.21393
▁sħiħ	-9.21518
tit	-9.21814
ża	-9.21824
edukazzjoni	-9.21888
▁Unit	-9.21898
▁talba	-9.2204
▁ftit	-9.22061
▁sigurtà	-9.22128
me	-9.22378
▁dejta	-9.2246
Programm	-9.22537
President	-9.22585
▁studji	-9.22638
fondi	-9.22655
▁naturali	-9.22671
linja	-9.22885
ok	-9.23083
mm	-9.2309
▁tul	-9.23167
7/	-9.23551
▁jiġifieri	-9.23619
nisa	-9.23669
▁sar	-9.23712
analiżi	-9.23767
▁Ta	-9.23924
▁baxx	-9.24004
X	-9.24039
Protokoll	-9.24041
istandards	-9.24121
adozzjoni	-9.24154
produtturi	-9.24282
dikjarazzjoni	-9.24297
istat	-9.2443
tali	-9.24443
▁investiment	-9.24444
▁Soċjali	-9.24774
Ġ	-9.24851
▁4.	-9.24879
▁għax	-9.24929
iċi	-9.25104
dokument	-9.25261
▁kwistjonijiet	-9.2528
▁organizzazzjoni	-9.2557
▁kkunsidra	-9.25694
għu	-9.25708
▁Fir	-9.25774
Z	-9.25914
pressjoni	-9.26058
ate	-9.26064
kondizzjonijiet	-9.26102
ekonomija	-9.26114
▁effettiv	-9.26187
għażla	-9.26358
attività	-9.26381
▁emendat	-9.26468
▁pro	-9.26471
innovazzjoni	-9.26503
dinja	-9.26642
provvista	-9.2665
▁Z	-9.26734
▁jkollha	-9.26778
klassifikazzjoni	-9.26822
żoni	-9.26827
TA	-9.26913
bo	-9.26952
ġilda	-9.26968
kont	-9.27071
th	-9.27207
▁tintuża	-9.27376
persuna	-9.27503
▁tajjeb	-9.27589
▁Q	-9.27834
▁tiżgura	-9.27937
investigazzjoni	-9.27962
▁pre	-9.28051
atti	-9.28321
▁tagħrif	-9.28382
▁massimu	-9.2847
ġġ	-9.28586
kumpanija	-9.28617
dawn	-9.28711
▁jitqiesu	-9.28837
no	-9.28975
promozzjoni	-9.29006
ina	-9.29103
tru	-9.29142
ħaddiema	-9.29192
▁effetti	-9.29291
pe	-9.29457
▁direttament	-9.2957
deċiżjonijiet	-9.29593
▁żgħar	-9.29633
met	-9.29848
▁jaħdmu	-9.29931
▁interess	-9.30127
linji	-9.30141
▁speċifiku	-9.30192
▁2017	-9.30211
▁tard	-9.30217
sk	-9.30234
▁uffiċjali	-9.3034
Taqsima	-9.30392
▁biljun	-9.3041
one	-9.30443
amministrazzjoni	-9.30473
▁tagħmir	-9.30626
▁Al	-9.30637
tà	-9.30935
▁0.	-9.3101
utenti	-9.31061
▁Pro	-9.31097
ke	-9.31324
aħ	-9.3134
▁magħmula	-9.31557
Y	-9.31599
▁(“	-9.3174
▁Malta	-9.31776
▁sistemi	-9.3184
Bank	-9.31857
paragrafi	-9.31997
▁medju	-9.321
▁2004	-9.322
pre	-9.32293
komunikazzjoni	-9.32407
tika	-9.325
▁maħsuba	-9.32506
ipproċessar	-9.3258
▁sħiħa	-9.32589
Ċ	-9.3267
sustanza	-9.32841
▁40	-9.3286
proġett	-9.32869
▁tajba	-9.32892
▁jridu	-9.32902
ħall	-9.33109
18	-9.33144
AR	-9.33186
▁Brussell	-9.33211
kontijiet	-9.33216
enti	-9.3322
impjiegi	-9.33359
▁strumenti	-9.33359
▁proġetti	-9.33405
taħriġ	-9.33433
▁numru	-9.33471
90	-9.33513
mira	-9.33601
▁ħlas	-9.33643
izzazzjoni	-9.33653
bini	-9.33755
▁kooperazzjoni	-9.33813
ap	-9.33827
operaturi	-9.33906
natura	-9.33959
fil	-9.33973
munita	-9.34096
▁koperti	-9.3411
ftehim	-9.34117
▁saru	-9.34151
▁Biex	-9.34484
ce	-9.34523
ħtiġijiet	-9.3456
▁effiċjenti	-9.34719
▁sew	-9.34759
▁proposta	-9.34786
ixxi	-9.34829
assigurazzjoni	-9.34852
parteċipazzjoni	-9.34855
▁jkunux	-9.34872
tqegħid	-9.3489
għandhomx	-9.34942
▁peress	-9.35032
▁qegħdin	-9.35085
▁26	-9.35178
▁jieħu	-9.35185
000	-9.35236
identifikazzjoni	-9.35254
%	-9.3529
-19	-9.35292
mediċina	-9.35335
kapital	-9.35455
kodiċi	-9.35489
eri	-9.35582
▁Uffiċjali	-9.35611
▁60	-9.35679
▁partikolarment	-9.35755
▁stess	-9.35772
dar	-9.35965
_	-9.36036
Ċina	-9.36073
manifattur	-9.36157
tagħmir	-9.36231
▁Ħ	-9.36299
▁amministrattivi	-9.36361
▁ekwivalenti	-9.36381
▁żvilupp	-9.36411
▁finanzjament	-9.36573
é	-9.3659
17	-9.36608
isti	-9.36629
▁29	-9.36739
▁tkunx	-9.36787
▁terz	-9.36881
▁27	-9.3694
konsumatur	-9.37007
pi	-9.37012
9/	-9.37041
IT	-9.37074
anqas	-9.37258
prestazzjoni	-9.37377
klima	-9.37645
gass	-9.37665
elettriku	-9.37791
▁jsiru	-9.37815
Is	-9.37841
istabbiliment	-9.38021
▁issa	-9.38037
tro	-9.38174
▁Fuq	-9.38218
▁pazjent	-9.38658
▁preċedenti	-9.38707
qorti	-9.39043
▁inkluża	-9.39087
baħar	-9.39396
▁standard	-9.3941
persunal	-9.39436
EN	-9.3948
ħolqien	-9.396
Ġurnal	-9.39738
sin	-9.39814
arju	-9.39902
▁Għaldaqstant	-9.40014
ver	-9.40038
sens	-9.4009
▁isir	-9.40118
evalwazzjoni	-9.40257
▁Komuni	-9.40325
bilanċ	-9.40357
dis	-9.40376
kontribuzzjoni	-9.40424
▁dispożizzjoni	-9.4044
▁potenzjali	-9.40505
▁imma	-9.40563
¢	-9.40607
▁sekondarji	-9.40746
Ġermanja	-9.40847
▁nuqqas	-9.40875
AN	-9.41071
politiki	-9.41264
titjib	-9.41285
▁siegħa	-9.41352
Komunikazzjoni	-9.41353
iskema	-9.41369
▁kwalità	-9.41461
triq	-9.41662
limiti	-9.41712
Partijiet	-9.41805
▁proposti	-9.41837
▁ħlief	-9.4197
ER	-9.42023
▁De	-9.42033
mer	-9.42099
▁xogħol	-9.42122
enza	-9.42182
(4)	-9.42188
tiku	-9.42217
objettivi	-9.4225
rwol	-9.42281
▁jinsabu	-9.42489
▁ewlieni	-9.42493
▁għadd	-9.42675
▁teknika	-9.42676
▁proċeduri	-9.4281
▁Ġ	-9.42817
ard	-9.42895
twettiq	-9.42931
kreditu	-9.43006
benefiċċji	-9.43108
▁rapport	-9.43114
▁mhuwiex	-9.43138
EC	-9.4322
▁servizz	-9.43222
▁professjonali	-9.43364
▁kundizzjonijiet	-9.43635
▁indipendenti	-9.43927
est	-9.44118
▁jippermetti	-9.44231
korpi	-9.4425
istrumenti	-9.44304
▁anti	-9.44478
interessi	-9.44605
Kapitolu	-9.44616
ak	-9.44675
▁daqs	-9.4487
▁kbar	-9.44877
responsabbiltà	-9.44984
edi	-9.45193
▁reali	-9.45212
tielet	-9.45226
akkwist	-9.45235
▁v	-9.45273
▁2005	-9.45283
pubbliku	-9.45337
▁injezzjoni	-9.4547
dokumenti	-9.45526
▁previsti	-9.45533
applikant	-9.45629
40	-9.45673
▁jiżgura	-9.45678
▁IL	-9.46014
▁Ri	-9.46085
SMEs	-9.46105
▁jemenda	-9.46297
▁qafas	-9.46342
▁studju	-9.46343
▁Ċentrali	-9.46346
ejn	-9.46403
mon	-9.46588
▁grupp	-9.46594
ett	-9.46672
▁Sa	-9.46722
▁kbira	-9.46745
liġijiet	-9.46805
▁pereżempju	-9.46869
▁jenħtieġ	-9.46961
▁2000	-9.46965
karatteristiċi	-9.46995
▁EU	-9.47099
Att	-9.47106
21	-9.47185
popolazzjoni	-9.47326
ħruġ	-9.47472
netwerk	-9.47511
▁ġestjoni	-9.47754
▁involuti	-9.47835
gvern	-9.47892
zz	-9.48004
▁isiru	-9.4801
▁identifikati	-9.48088
▁għaż	-9.48091
pubblikazzjoni	-9.48127
Ħ	-9.48183
limitu	-9.48274
rabta	-9.48377
vetturi	-9.48545
▁Minħabba	-9.48545
prevenzjoni	-9.48664
injezzjoni	-9.48705
▁ħ	-9.48744
bilità	-9.48817
▁saret	-9.48969
tiċi	-9.49082
għarfien	-9.49128
▁jippermettu	-9.49196
notifika	-9.49298
▁sehem	-9.49314
▁speċifika	-9.49553
ħalib	-9.49641
▁kkonċernati	-9.4967
▁jittieħdu	-9.49755
disinn	-9.49786
24	-9.49847
▁pillola	-9.4985
▁2002	-9.49947
miżura	-9.50004
Ż	-9.50097
ċe	-9.50102
▁każijiet	-9.50118
ħlas	-9.50142
progress	-9.50218
aj	-9.50319
possibbiltà	-9.50385
kamp	-9.50416
▁awtorizzazzjoni	-9.50551
apparat	-9.50639
▁turi	-9.50717
▁użat	-9.50719
▁analiżi	-9.50755
▁kbir	-9.50772
ell	-9.50822
reġjun	-9.50873
▁għandux	-9.5092
▁materjali	-9.50937
qrib	-9.51096
operazzjonijiet	-9.5118
▁IV	-9.51363
▁Co	-9.51628
▁int	-9.51643
▁mediċini	-9.5172
kbira	-9.51812
▁2018	-9.51887
TI	-9.51961
sti	-9.51976
proġetti	-9.52029
kk	-9.52204
monitoraġġ	-9.52205
vir	-9.52284
▁ko	-9.52289
▁soġġetti	-9.52536
kategoriji	-9.52553
▁Parti	-9.52651
▁tippermetti	-9.52667
▁regolari	-9.52826
▁jibqgħu	-9.52837
▁vetturi	-9.52863
medja	-9.5296
nefqa	-9.53038
Gvern	-9.53118
obbligu	-9.53146
▁jitqies	-9.53435
▁adottat	-9.53472
istudju	-9.53522
▁malajr	-9.5371
▁Mhux	-9.53733
IN	-9.53755
ħidma	-9.53776
▁effettiva	-9.53796
▁ġimgħa	-9.53813
▁standards	-9.53912
▁żgurata	-9.5395
▁per	-9.54
▁medja	-9.54023
potenzjal	-9.54027
tt	-9.54097
je	-9.54224
ens	-9.54238
eġ	-9.54419
daqs	-9.54436
bit	-9.54487
▁ħidma	-9.54703
wiċċ	-9.54788
ec	-9.54836
▁industrijali	-9.5486
ġbir	-9.54965
▁ik	-9.55049
yl	-9.5509
infrastruttura	-9.55158
▁pressjoni	-9.55208
▁kg	-9.55228
▁90	-9.55266
valuri	-9.55589
EL	-9.55593
23	-9.55598
za	-9.55631
▁ħa	-9.55646
2011	-9.55671
biċċa	-9.55686
▁2003	-9.55735
▁gruppi	-9.55842
▁livelli	-9.5587
▁proċedura	-9.55907
nti	-9.5596
IS	-9.5597
metodu	-9.56033
iktar	-9.56041
▁fondi	-9.56082
allokazzjoni	-9.56093
oġġetti	-9.56115
man	-9.56138
aġġ	-9.56161
ambitu	-9.56175
▁jis	-9.56336
RA	-9.56419
▁Kon	-9.56487
familja	-9.56521
0/	-9.56584
ov	-9.56603
▁doganali	-9.56628
▁eċċ	-9.56712
▁tadotta	-9.56748
▁anqas	-9.56754
ħar	-9.56791
▁liema	-9.56854
istituzzjoni	-9.56913
go	-9.57032
eu	-9.57079
▁tqis	-9.57195
riżultat	-9.57402
magna	-9.57434
▁pilloli	-9.57486
RI	-9.57641
definizzjoni	-9.57655
▁kont	-9.57773
▁bażiku	-9.57843
tor	-9.5785
-30	-9.5799
▁Hija	-9.58001
▁eliġibbli	-9.58267
reviżjoni	-9.58394
perijodu	-9.58473
▁uġigħ	-9.58487
nd	-9.58535
▁kliniċi	-9.58645
▁post	-9.58655
▁għadhom	-9.58691
kar	-9.58709
istrateġija	-9.58719
05	-9.58721
-20	-9.58742
volum	-9.58754
ve	-9.58828
ċertifikat	-9.58832
koll	-9.58972
pla	-9.59076
▁demm	-9.59113
▁Se	-9.5915
▁programm	-9.59201
!	-9.59327
etti	-9.5957
▁jirċievu	-9.59636
banek	-9.59793
pjanti	-9.59861
▁adotta	-9.59933
▁Informazzjoni	-9.60192
kol	-9.60356
passiġġieri	-9.60656
▁Fit	-9.60683
▁materjal	-9.60707
▁ikollhom	-9.60759
lat	-9.60834
korp	-9.60917
▁mqabbel	-9.6097
▁minbarra	-9.60979
▁speċifikati	-9.60983
▁elettroniku	-9.61161
▁fundamentali	-9.61209
▁Nazzjonali	-9.61211
iz	-9.6129
▁temenda	-9.6129
▁programmi	-9.61315
▁speċifikat	-9.61323
omm	-9.61421
up	-9.61643
SI	-9.61697
▁iżjed	-9.61702
▁membri	-9.61783
ven	-9.61806
▁monitoraġġ	-9.61894
futur	-9.61985
atur	-9.61986
lingwa	-9.62147
għandux	-9.62156
▁issir	-9.62173
tranżazzjonijiet	-9.62249
60	-9.62258
▁31	-9.62261
elementi	-9.62267
▁baxxa	-9.62277
▁jidher	-9.62316
ossi	-9.62321
▁juru	-9.62369
▁riċerka	-9.6255
–	-9.62582
integrazzjoni	-9.62599
▁mard	-9.6276
▁jistabbilixxu	-9.62765
hu	-9.62766
▁Fid	-9.62907
▁fiskali	-9.6297
ġlieda	-9.62981
kategorija	-9.63026
kor	-9.6303
▁problemi	-9.63073
telf	-9.63081
rin	-9.63195
kwistjoni	-9.63358
mezzi	-9.63472
▁jir	-9.63478
ħarsien	-9.63518
fruntieri	-9.6354
żgħażagħ	-9.63593
nt	-9.63604
▁jik	-9.6365
ħu	-9.6373
▁minimi	-9.63748
setgħa	-9.63819
▁jissodisfaw	-9.63859
ml	-9.63902
setturi	-9.63931
▁self	-9.63962
°	-9.6403
kejl	-9.64103
▁2020	-9.64119
▁Internazzjonali	-9.64152
sustanzi	-9.64173
self	-9.64197
iskambju	-9.64213
▁Għandu	-9.64248
manifattura	-9.64306
jati	-9.64428
let	-9.64436
kalkolu	-9.64537
▁80	-9.64562
▁Ż	-9.64593
▁raġunijiet	-9.64627
▁ħames	-9.64693
AL	-9.64734
esperjenza	-9.64773
jali	-9.64908
ET	-9.64939
▁favur	-9.6494
▁applikati	-9.65149
CO	-9.65178
▁jiżdied	-9.65219
▁attivi	-9.65224
▁kienx	-9.65228
▁miżjud	-9.65251
negozji	-9.65338
▁ex	-9.65388
Iżvilupp	-9.6541
ogħla	-9.65412
▁assoċjati	-9.6542
▁mistennija	-9.65424
domanda	-9.65496
▁jistgħux	-9.65533
ly	-9.65543
▁relatata	-9.65546
35	-9.6566
%)	-9.65676
miktub	-9.65709
▁rispettivament	-9.65742
▁An	-9.65773
▁inizjali	-9.65852
Titolu	-9.65855
imgħax	-9.65883
ema	-9.65891
għalf	-9.65896
iskart	-9.65925
▁azzjonijiet	-9.65952
iġ	-9.65956
irġiel	-9.65975
ge	-9.66019
reġistrazzjoni	-9.66038
operatur	-9.66069
reġjuni	-9.66088
▁ġewwa	-9.66103
▁jibqa	-9.66116
▁ksur	-9.66223
▁tkopri	-9.66311
▁atti	-9.66312
2012	-9.66368
▁produzzjoni	-9.66462
kriżi	-9.66507
PA	-9.66562
zi	-9.66809
2003	-9.66814
▁elettroniċi	-9.66845
▁fiċ	-9.66878
▁dirett	-9.66906
▁telf	-9.66913
+	-9.66948
wie	-9.66977
NU	-9.67009
azzar	-9.67056
jum	-9.67162
abbozz	-9.67187
prop	-9.67232
▁bbażati	-9.67268
▁magħrufa	-9.67284
AT	-9.67399
▁erba	-9.67426
▁previst	-9.67557
▁of	-9.67703
▁konsultazzjoni	-9.67736
▁St	-9.67747
▁uniku	-9.67754
ħsieb	-9.67778
trasferiment	-9.67827
-15	-9.67855
iskop	-9.67858
impriżi	-9.67895
▁kompletament	-9.67944
▁(1)	-9.68022
▁Franza	-9.68061
07	-9.68079
▁minimu	-9.68093
SE	-9.68115
▁pjan	-9.6821
iċ	-9.68219
qiegħ	-9.68228
▁Komunitarja	-9.68228
▁Ċ	-9.68248
▁sitt	-9.68289
▁jistax	-9.68365
fond	-9.68407
tibdil	-9.68442
▁speċjalment	-9.68628
rispett	-9.68633
▁tabib	-9.6865
▁jirriżultaw	-9.68652
Italja	-9.68692
relazzjoni	-9.68711
ast	-9.68742
▁approvat	-9.68816
▁Gwida	-9.68819
▁=	-9.68934
▁komunikazzjoni	-9.68935
mandat	-9.68983
70	-9.69033
rat	-9.69079
▁preżenti	-9.69079
Sigurtà	-9.69096
marka	-9.69146
bin	-9.69194
fl	-9.69246
ID	-9.69343
2007	-9.69362
▁avversi	-9.69735
aturi	-9.69761
▁dħul	-9.69778
▁limitat	-9.69872
▁annimali	-9.69973
Uffiċċju	-9.69981
introduzzjoni	-9.70018
mudell	-9.70064
ase	-9.70117
▁jiżviluppaw	-9.70253
verifika	-9.70278
akk	-9.7034
▁000	-9.70441
▁evidenza	-9.70461
suġġett	-9.70506
kompiti	-9.70545
teknoloġija	-9.70578
▁qal	-9.70582
rita	-9.70595
▁Huma	-9.70632
26	-9.70635
▁impatt	-9.70681
▁orali	-9.70688
ala	-9.70691
▁attività	-9.70697
rikonoxximent	-9.70805
ŻEE	-9.70806
▁rari	-9.70881
▁konsistenti	-9.70887
▁mediċina	-9.70985
▁assi	-9.71179
▁transkonfinali	-9.71264
Suq	-9.71386
▁approċċ	-9.71405
merkanzija	-9.71414
06	-9.7147
interess	-9.71577
▁tistax	-9.71609
▁tibda	-9.71628
ammonti	-9.71704
▁politiċi	-9.7176
▁Hemm	-9.71837
▁magħruf	-9.71844
▁Di	-9.72026
(1)(	-9.72069
diversi	-9.72072
ron	-9.72082
▁elettronika	-9.72084
▁€	-9.72101
teħid	-9.72103
oriġini	-9.72138
01	-9.72351
żejt	-9.72418
funzjoni	-9.72453
▁ikkonċernat	-9.72497
pol	-9.72513
▁regolatorji	-9.72527
moviment	-9.72553
sid	-9.72595
bidla	-9.72719
età	-9.72758
operat	-9.7277
▁kumpaniji	-9.72815
▁jirriżulta	-9.72867
isforzi	-9.73001
Grupp	-9.73094
MA	-9.73135
▁membru	-9.73333
▁valur	-9.73333
konklużjonijiet	-9.73358
rja	-9.73358
▁spejjeż	-9.73371
▁jmiss	-9.73374
▁mistenni	-9.73493
karbonju	-9.73514
08	-9.73796
effikaċja	-9.73822
▁tipi	-9.73924
-2008	-9.74123
ES	-9.74278
tabella	-9.74297
indirizz	-9.74326
lek	-9.74368
temperatura	-9.74456
-2010	-9.74488
▁trans	-9.74547
pakkett	-9.74583
zzazzjoni	-9.74591
EM	-9.74597
▁mhijiex	-9.74622
▁għaċ	-9.74742
Politika	-9.74754
▁lanqas	-9.74787
▁titqies	-9.74818
tħaddim	-9.74928
▁tkompli	-9.74946
▁tiżdied	-9.74959
istruttura	-9.75006
ini	-9.75075
tisħiħ	-9.75126
▁kapaċi	-9.752
▁mqabbla	-9.75257
▁agrikoli	-9.75414
2010	-9.75417
▁esterni	-9.75438
▁Iż	-9.75459
kg	-9.75569
arranġamenti	-9.75613
▁entitajiet	-9.75629
ide	-9.75634
[	-9.75649
▁pagament	-9.75663
oħrajn	-9.75671
▁anki	-9.757
istudji	-9.75727
▁tmiem	-9.75893
miri	-9.76005
▁kriminali	-9.76016
▁privat	-9.76213
intrapriżi	-9.76246
snin	-9.76268
▁tis	-9.76328
ista	-9.76345
▁hinn	-9.76387
az	-9.76484
▁Azzjoni	-9.76523
▁Ekonomiku	-9.76539
▁riżorsi	-9.76631
fornituri	-9.76731
app	-9.76764
22	-9.76774
▁diġitali	-9.76798
▁(2)	-9.7684
sub	-9.76938
▁oriġinali	-9.76947
▁għaliex	-9.77082
▁tinsab	-9.77091
▁reazzjonijiet	-9.77156
approċċ	-9.77166
▁sustanza	-9.77188
entità	-9.77261
ġisem	-9.77308
75	-9.77415
sħana	-9.77471
ana	-9.77514
menti	-9.77593
relazzjonijiet	-9.77613
▁bbażata	-9.77614
arji	-9.77625
forniment	-9.77734
agħ	-9.77739
5%	-9.77794
▁verifika	-9.77818
▁man	-9.78098
▁jeħtieġu	-9.78102
▁relevanti	-9.78161
▁kellu	-9.78172
▁qiegħda	-9.78211
▁tik	-9.78216
-2013	-9.78281
bastimenti	-9.78293
▁35	-9.78349
▁deċiżjonijiet	-9.78352
▁jogħġbok	-9.78413
ang	-9.78521
jat	-9.78568
▁nofs	-9.78634
tura	-9.78645
▁fiżika	-9.78712
massa	-9.78813
ivi	-9.78829
▁apparat	-9.78946
▁Matul	-9.78951
03	-9.78982
▁twettaq	-9.78999
▁evalwazzjoni	-9.78999
vers	-9.79022
▁tittieħed	-9.79023
32	-9.79026
vjaġġ	-9.79044
▁tibqa	-9.79088
▁Min	-9.79089
kunsiderazzjoni	-9.7913
ien	-9.79177
▁indikat	-9.792
konklużjoni	-9.79401
oli	-9.79465
-2009	-9.79496
rekwiżit	-9.79517
▁ġimgħat	-9.79593
uni	-9.7982
▁piż	-9.79913
▁miksija	-9.79925
ON	-9.79989
▁32	-9.80005
kompetittività	-9.80016
raġunijiet	-9.80047
konsultazzjoni	-9.80074
▁ġejja	-9.80123
▁bidla	-9.80124
Funzjonament	-9.80165
impjieg	-9.80247
kri	-9.80285
impenji	-9.80355
▁Bħala	-9.80422
▁twassal	-9.80475
konċentrazzjoni	-9.80483
28	-9.80492
09	-9.80577
29	-9.80599
ġu	-9.80789
ser	-9.80929
▁Data	-9.80999
ġodda	-9.81019
rapporti	-9.81042
▁Ara	-9.81057
ejj	-9.81078
maġġoranza	-9.81086
▁kumpens	-9.81158
mar	-9.81307
▁qiegħed	-9.81321
RE	-9.81392
inizjattiva	-9.81449
▁«	-9.81469
jon	-9.8147
▁LI	-9.81472
▁ġ	-9.81485
nies	-9.81485
27	-9.81565
AS	-9.81639
▁preġudizzju	-9.81747
fwied	-9.81763
prijoritajiet	-9.8178
kampjun	-9.8178
▁jintlaħqu	-9.81855
lin	-9.81883
▁maħsub	-9.8201
uti	-9.82021
▁proċess	-9.82058
▁Mar	-9.82067
traffiku	-9.82074
9.	-9.82162
format	-9.8246
ħoss	-9.82491
▁għajr	-9.82533
add	-9.82538
Irlanda	-9.82615
Affarijiet	-9.82657
NA	-9.82738
▁75	-9.82801
eħ	-9.82885
EU	-9.82889
prattika	-9.82955
Drittijiet	-9.83022
▁ijiem	-9.83067
Enerġija	-9.83158
Pjan	-9.83189
CA	-9.8328
▁tfal	-9.83291
▁miżura	-9.83341
premessa	-9.83388
tneħħija	-9.83404
jet	-9.83492
karta	-9.83531
nar	-9.83604
sehem	-9.8361
▁stipulat	-9.83644
▁mogħti	-9.83654
impenn	-9.83706
▁pprovduti	-9.83735
zza	-9.8378
int	-9.8381
ġa	-9.83818
▁magħmul	-9.83868
▁Billi	-9.83885
▁San	-9.83919
aqwa	-9.83947
▁[2]	-9.83973
▁Għa	-9.84105
importanza	-9.84137
▁bħalissa	-9.84282
metall	-9.84341
top	-9.84364
VAT	-9.84387
▁Qafas	-9.84485
-18	-9.84523
▁sostanzjali	-9.84572
▁flus	-9.84601
marda	-9.84661
iva	-9.84791
infurzar	-9.84807
entitajiet	-9.8487
laqgħa	-9.84891
kuntratti	-9.85025
▁juri	-9.85035
ene	-9.85224
operazzjoni	-9.85257
▁limitata	-9.8532
▁dikjarazzjoni	-9.85362
ġenerazzjoni	-9.85363
▁baxxi	-9.8541
twaqqif	-9.85421
setgħat	-9.85483
kwistjonijiet	-9.85483
▁skart	-9.85526
JIET	-9.85594
▁magni	-9.85621
kawża	-9.85624
▁kulturali	-9.85625
ost	-9.85637
ep	-9.85769
ner	-9.8579
▁interni	-9.85806
raw	-9.8583
metodi	-9.8586
▁awtorizzat	-9.85894
sentenza	-9.859
▁Pa	-9.85905
abbli	-9.85955
Kodiċi	-9.86065
▁jitlob	-9.86155
▁mimlija	-9.86161
funzjonament	-9.86199
2004	-9.86299
Linji	-9.86383
-2007	-9.86424
▁Tra	-9.86448
vini	-9.86544
▁attiv	-9.86563
testijiet	-9.86669
trattat	-9.86704
04	-9.86757
ġarr	-9.86761
▁Ra	-9.8684
▁ugwali	-9.86853
(5)	-9.8686
▁definit	-9.8701
▁rwol	-9.87041
użi	-9.87071
hemmx	-9.87218
gruppi	-9.87235
▁adottata	-9.8731
restrizzjonijiet	-9.87416
▁irid	-9.87558
▁meħuda	-9.87569
klijenti	-9.87578
▁ammont	-9.87736
2002	-9.88003
for	-9.88006
▁żviluppati	-9.88083
▁kollox	-9.88086
▁[3]	-9.88103
dik	-9.88154
▁kuntratti	-9.88158
end	-9.88172
▁jidħol	-9.88213
ispeċifikazzjoni	-9.88214
ajruport	-9.88238
▁2001	-9.88248
internet	-9.8833
tagħrif	-9.8833
ren	-9.88338
▁strument	-9.8856
-16	-9.88579
veloċità	-9.88649
IL	-9.8865
▁juża	-9.88656
▁taħdem	-9.8866
-25	-9.88663
▁kuntatt	-9.88684
mutur	-9.888
eżerċizzju	-9.88884
▁tkabbir	-9.88892
ort	-9.88902
▁tekniku	-9.88929
▁dożi	-9.88933
▁jgħin	-9.88946
................	-9.89003
▁entità	-9.89026
ċirkostanzi	-9.89037
▁aħna	-9.89185
▁implimentati	-9.89193
enzi	-9.89228
ċċ	-9.89235
▁terapija	-9.89258
▁pprovduta	-9.89346
▁Filwaqt	-9.89385
taqsima	-9.89445
▁kkunsidrati	-9.89459
▁Spanja	-9.896
kwota	-9.89649
▁twil	-9.89657
kummenti	-9.89721
▁jaqgħu	-9.89727
klu	-9.89739
▁awtorizzati	-9.89768
PESK	-9.8978
▁privati	-9.89838
▁anke	-9.89855
inklużjoni	-9.89878
minn	-9.89919
ittestjar	-9.89926
▁titjib	-9.89958
▁emendata	-9.89965
sotto	-9.90018
▁Po	-9.90079
plastik	-9.9008
▁ad	-9.90081
okk	-9.90098
Istrateġija	-9.90172
atturi	-9.90346
▁permanenti	-9.90355
▁Awwissu	-9.90386
▁34	-9.90429
▁sub	-9.90437
attiv	-9.9052
ċiklu	-9.90564
lest	-9.9057
Karta	-9.90588
era	-9.90633
31	-9.9064
jaw	-9.90644
▁prattika	-9.90665
negozjati	-9.90669
sorveljanza	-9.90704
▁massima	-9.90722
Regoli	-9.90725
▁mhix	-9.90749
tliet	-9.90757
▁jgħinu	-9.90829
ry	-9.90866
manifatturi	-9.90911
ftuħ	-9.90943
-2012	-9.91095
pagamenti	-9.91211
▁eċċessiva	-9.91236
▁Inter	-9.91292
għat	-9.91376
tipi	-9.91479
dettalji	-9.91488
SA	-9.91639
anza	-9.91715
▁200	-9.91776
inter	-9.91839
▁ġol	-9.91969
par	-9.91991
▁ġeneralment	-9.92015
▁definiti	-9.92028
▁36	-9.92066
▁qatt	-9.92075
terminu	-9.92108
ation	-9.9211
▁online	-9.92127
▁stat	-9.92148
/10	-9.92231
▁strutturali	-9.92307
kontrolli	-9.92326
-27	-9.92353
differenza	-9.92467
ani	-9.92506
ite	-9.92615
▁jittieħed	-9.92624
▁33	-9.92633
▁investigazzjoni	-9.92677
proprjetà	-9.92715
▁raġonevoli	-9.92724
▁jaħdem	-9.92792
▁naħa	-9.92894
raba	-9.92902
▁sorveljanza	-9.92929
▁Mill	-9.92933
ben	-9.93008
ton	-9.93012
tim	-9.93121
qar	-9.93187
▁Bl	-9.93213
pen	-9.93234
▁trab	-9.93308
tir	-9.93475
kuntatt	-9.93527
▁indirizzati	-9.93738
injam	-9.93782
diet	-9.93844
istrument	-9.9385
laħam	-9.93857
ann	-9.93866
▁limitu	-9.93886
▁suġġetti	-9.93887
ph	-9.93893
PE	-9.9393
▁48	-9.93974
approprjazzjoni	-9.93977
fażi	-9.94037
12.	-9.94147
▁Iċ	-9.9418
36	-9.94205
proposti	-9.94236
▁għandhiex	-9.94243
emendi	-9.94434
▁serji	-9.94451
koordinazzjoni	-9.9446
pr	-9.94473
▁bosta	-9.94579
80	-9.9459
direzzjoni	-9.94607
▁miksuba	-9.94637
ret	-9.94639
isp	-9.94646
▁għalih	-9.94685
żamma	-9.94696
▁kotba	-9.94719
▁jikkonformaw	-9.94731
▁konċentrazzjoni	-9.94759
▁suffiċjenti	-9.94786
▁amministrattiva	-9.94816
lingwi	-9.94881
-12	-9.94917
soluzzjoni	-9.94963
aġenziji	-9.95064
dija	-9.95069
tifsira	-9.95074
negozjar	-9.95124
Sistema	-9.95189
▁ġust	-9.95203
kunċett	-9.95228
▁esperjenza	-9.95426
▁normalment	-9.95439
ust	-9.95445
Direttur	-9.95458
2005	-9.95489
▁fix	-9.95543
materjal	-9.95546
02	-9.95641
▁miftuħa	-9.95694
JA	-9.9575
itajiet	-9.95787
fin	-9.95857
IR	-9.95921
▁tgħin	-9.95951
fornitur	-9.95996
▁propost	-9.96018
46	-9.96133
▁jinkiseb	-9.96173
▁jidħlu	-9.96182
referenza	-9.96182
▁miż	-9.96232
▁jikkontribwixxu	-9.96435
bank	-9.96442
▁reviżjoni	-9.96464
aqq	-9.96499
MS	-9.96532
IF	-9.96597
▁mingħand	-9.96613
ella	-9.96657
funzjonijiet	-9.96695
-2014	-9.96707
investimenti	-9.96753
com	-9.96763
attivi	-9.96767
▁minnufih	-9.96824
Tabella	-9.96828
fjuwil	-9.96865
▁illegali	-9.96877
EUR	-9.97014
isfidi	-9.97022
-17	-9.97058
▁jint	-9.97156
sħiħ	-9.97168
▁qasir	-9.97179
▁attenzjoni	-9.9721
-22	-9.97305
żjoni	-9.97339
istatus	-9.97367
=	-9.97452
twelid	-9.97559
val	-9.97563
Riċerka	-9.97569
imsieħba	-9.97598
33	-9.97599
▁jwassal	-9.97608
libertà	-9.97658
2013	-9.97704
▁37	-9.97721
tħejjija	-9.97755
irkupru	-9.97824
44	-9.97835
95	-9.97915
zzati	-9.97932
▁85	-9.97995
68	-9.97995
joni	-9.98012
diskriminazzjoni	-9.98032
eżekuzzjoni	-9.98081
▁Ar	-9.98098
aspetti	-9.98128
▁jitwettqu	-9.98134
▁ewlenija	-9.9814
dejn	-9.98146
fuljett	-9.9816
45	-9.98209
impriża	-9.98223
▁permess	-9.98231
▁45	-9.98239
Għ	-9.98276
intestatura	-9.98328
▁għadu	-9.98359
kundizzjoni	-9.98382
▁jintlaħaq	-9.98398
Greċja	-9.98407
DA	-9.98525
fika	-9.98573
▁Xi	-9.98698
distribuzzjoni	-9.987
DI	-9.987
▁jinsab	-9.98743
▁relatat	-9.98752
ran	-9.98758
log	-9.98766
ċerti	-9.98772
▁faċli	-9.98785
▁punti	-9.98786
‘	-9.98802
▁ċertu	-9.9882
▁Konġunt	-9.98842
ġen	-9.98862
CE	-9.98871
kost	-9.98954
▁kuntratt	-9.99026
▁Tel	-9.99204
▁jaffettwaw	-9.99218
kostruzzjoni	-9.99224
▁VI	-9.99257
▁teħtieġ	-9.99304
▁prijorità	-9.99341
MP	-9.99357
gen	-9.99472
▁and	-9.99584
OS	-9.99588
we	-9.99617
▁(3)	-9.99647
kultura	-9.99652
idejn	-9.99716
PS	-9.99786
▁diffiċli	-9.99835
34	-9.99839
▁qbil	-9.99897
▁Rapport	-9.99919
zjoni	-9.99932
▁ikollu	-9.99946
Direttivi	-9.99986
▁perijodu	-10.0003
▁kellha	-10.0008
imp	-10.0011
▁assistenza	-10.0016
▁dewmien	-10.0019
websajt	-10.0028
▁madankollu	-10.003
ċentru	-10.0041
tagħbija	-10.0042
▁jissodisfa	-10.0043
suċċess	-10.0046
leġislazzjoni	-10.0049
ttivi	-10.0049
▁70	-10.0051
ilmijiet	-10.0056
qalb	-10.0065
kwantitajiet	-10.0066
ME	-10.0067
▁ġilda	-10.008
▁titlob	-10.0088
ras	-10.0089
ħġieġ	-10.0092
▁tirċievi	-10.0099
red	-10.0101
▁dokumenti	-10.0102
▁[1]	-10.0104
kre	-10.0107
IC	-10.011
ħiliet	-10.0116
paġna	-10.0116
tie	-10.0119
▁sintomi	-10.0124
98	-10.0129
▁Fis	-10.0129
tin	-10.0129
▁joriġinaw	-10.0131
▁linji	-10.0131
ori	-10.0131
▁ulterjuri	-10.0136
▁ibbażat	-10.0143
għall	-10.0145
▁Dawk	-10.0146
PI	-10.0147
▁inkwistjoni	-10.0149
aġ	-10.0159
▁drittijiet	-10.0159
-11	-10.0163
act	-10.0166
-2011	-10.0168
▁sorsi	-10.0169
bbiltà	-10.017
▁wisq	-10.0179
attenzjoni	-10.0181
▁wiesgħa	-10.0183
▁impriżi	-10.0189
ber	-10.0193
▁ċara	-10.02
▁ikel	-10.0209
-28	-10.0214
but	-10.0217
85	-10.0226
▁fiżiċi	-10.0227
▁jikkonċernaw	-10.0227
der	-10.0228
-2006	-10.0229
▁spiss	-10.0242
43	-10.0244
issa	-10.0245
ġdida	-10.0245
bar	-10.0246
tmexxija	-10.0252
▁rakkomandat	-10.0254
xejn	-10.0255
▁msemmi	-10.0258
▁kunjett	-10.0267
RO	-10.0267
regolament	-10.0274
▁Għandha	-10.0277
bra	-10.0283
fen	-10.0285
IP	-10.0294
Appendiċi	-10.0297
ck	-10.0307
▁uniformi	-10.0321
kors	-10.0322
fluss	-10.0329
▁kkonċernat	-10.0334
detentur	-10.0337
għeluq	-10.0338
▁Finanzjarju	-10.0338
▁osservati	-10.0338
▁kważi	-10.0342
48	-10.0343
jin	-10.0346
ins	-10.0346
▁proprji	-10.0347
preżenza	-10.0348
▁xulxin	-10.0354
▁jim	-10.0356
land	-10.0357
offerti	-10.0361
▁effettivi	-10.0364
▁qawwi	-10.0374
▁the	-10.0382
▁sentejn	-10.0394
Żona	-10.0396
▁korpi	-10.0397
mija	-10.0399
logħba	-10.0399
utent	-10.04
benefiċċju	-10.0404
99	-10.0405
MI	-10.0406
▁nukleari	-10.0418
37	-10.0424
tikketta	-10.0425
Polonja	-10.0431
▁magħhom	-10.0434
▁trasparenti	-10.0436
reġistru	-10.0458
kat	-10.0462
direttiva	-10.0464
mard	-10.0466
vo	-10.0468
▁diretti	-10.0472
▁plaċebo	-10.0473
tmiem	-10.0476
preżentazzjoni	-10.0478
pożizzjonijiet	-10.048
▁att	-10.048
▁Ji	-10.0488
▁Euratom	-10.0501
aħħ	-10.0503
▁CYP	-10.0504
38	-10.0505
ordni	-10.0507
78	-10.0512
▁grad	-10.0516
ram	-10.0518
etta	-10.0523
eżami	-10.0525
▁Qabel	-10.0536
europa	-10.0541
▁qawwija	-10.0542
97	-10.0544
fur	-10.0545
▁dokument	-10.0546
karozzi	-10.0551
opinjonijiet	-10.0554
▁applikat	-10.0556
▁korp	-10.0558
▁rurali	-10.0559
dem	-10.0561
-2020	-10.0562
▁Ti	-10.0564
klassi	-10.0564
aċċ	-10.0565
firxa	-10.057
fehma	-10.0572
las	-10.0581
tagħlim	-10.0586
objettiv	-10.0588
TE	-10.0591
Saħħa	-10.0593
faċilità	-10.0594
kostijiet	-10.0597
11.	-10.0598
proporzjon	-10.0599
-13	-10.0602
▁tnaqqas	-10.0604
▁jibda	-10.0606
▁jrid	-10.061
▁jiżdiedu	-10.0613
qawwa	-10.062
▁Komunitarju	-10.0624
ami	-10.0624
▁formali	-10.0629
65	-10.0643
uża	-10.0647
▁garanzija	-10.0651
mel	-10.0651
kliewi	-10.0657
▁darbtejn	-10.066
▁Bo	-10.0663
▁tiegħi	-10.0679
jan	-10.0692
ks	-10.0705
In	-10.0705
Organizzazzjoni	-10.0724
problemi	-10.0729
OR	-10.0729
▁dritt	-10.0732
▁eżempju	-10.0745
investituri	-10.0749
regolamenti	-10.0751
-23	-10.0758
den	-10.0765
bijo	-10.0765
jer	-10.0766
total	-10.0771
Belġju	-10.0776
para	-10.0778
kwantità	-10.078
▁jinbidel	-10.0805
▁rata	-10.0805
LI	-10.0813
▁rispons	-10.0813
tfassil	-10.0814
▁kollettiv	-10.0823
tan	-10.0827
lan	-10.0829
▁39	-10.0831
verżjoni	-10.0837
▁300	-10.0837
dokumentazzjoni	-10.084
▁Prodotti	-10.0842
migrazzjoni	-10.0849
ula	-10.085
Euro	-10.0867
▁tidħol	-10.0868
▁awtorità	-10.0868
▁Minn	-10.087
UN	-10.0875
FA	-10.0882
▁IU	-10.0888
regola	-10.0893
kan	-10.0894
▁me	-10.0897
▁użata	-10.0905
▁prevista	-10.0907
▁stmat	-10.0908
adeżjoni	-10.0908
▁domestiċi	-10.0913
▁jitnaqqas	-10.0917
▁mitluba	-10.0918
trasparenza	-10.0932
47	-10.0937
komponenti	-10.0937
dazji	-10.0948
▁kumpanija	-10.0948
▁għaliha	-10.0952
rji	-10.0955
materjali	-10.0962
▁korrispondenti	-10.0963
assistenza	-10.0971
▁għalkemm	-10.0982
wali	-10.0984
xiri	-10.0985
▁Opinjoni	-10.0986
AM	-10.0988
▁trasport	-10.0989
▁jinvolvu	-10.0993
ger	-10.0995
gal	-10.0995
istatistika	-10.0998
-21	-10.0999
kulur	-10.1007
Ma	-10.1009
▁sempliċi	-10.1012
▁1).	-10.1012
ten	-10.1013
▁unità	-10.1014
missjoni	-10.1019
gar	-10.1021
obbligazzjoni	-10.1024
▁tibdil	-10.1029
▁jiksbu	-10.103
bżonn	-10.1039
▁jinżammu	-10.1041
▁prattiki	-10.1041
▁150	-10.1045
ou	-10.105
radju	-10.105
feri	-10.1057
▁adegwat	-10.1065
fini	-10.1067
eżistenza	-10.1067
▁progress	-10.1069
egħ	-10.107
▁prova	-10.1074
▁1999	-10.1074
▁soġġett	-10.1087
CAS	-10.1094
▁minkejja	-10.1096
▁test	-10.1097
Danimarka	-10.11
▁sussegwenti	-10.1121
kliem	-10.1122
grad	-10.1128
bet	-10.1131
mit	-10.1139
-2015	-10.1141
ispiża	-10.1142
new	-10.1143
▁riżultat	-10.1144
▁dettaljati	-10.1145
pensjoni	-10.1146
▁Hu	-10.116
▁elementi	-10.1161
kumitat	-10.1161
▁suċċess	-10.1162
▁Ro	-10.1164
zzat	-10.1164
oq	-10.1164
▁[...]	-10.1165
▁ftehimiet	-10.1166
▁Għandhom	-10.117
ies	-10.1171
les	-10.1178
▁38	-10.1178
Eurosistema	-10.1185
▁għadha	-10.1187
SS	-10.1193
▁imposti	-10.1196
▁oqsma	-10.1205
▁mezzi	-10.1206
-14	-10.1208
bord	-10.1208
▁kapitali	-10.121
▁500	-10.1215
jaqsam	-10.1225
▁kinux	-10.1238
▁neċessarju	-10.1238
ittra	-10.1242
med	-10.1243
2014	-10.1247
▁parteċipanti	-10.1249
▁tippreżenta	-10.1252
-26	-10.1255
▁evitat	-10.1266
▁ilma	-10.1269
ttiv	-10.1275
▁interna	-10.128
żż	-10.1293
inċident	-10.1295
vel	-10.1304
axx	-10.131
kambju	-10.1313
▁kkalkulat	-10.1317
installazzjoni	-10.1318
▁Minkejja	-10.132
str	-10.1321
▁*	-10.1323
netwerks	-10.1328
klijent	-10.1334
▁insulina	-10.135
▁aġġustament	-10.1354
Awstrija	-10.1354
ress	-10.1367
▁immedjatament	-10.1368
▁Ltd	-10.1378
Ċentru	-10.1382
▁jirri	-10.1383
pri	-10.1384
▁regolatorja	-10.1384
Rapport	-10.1389
▁kapital	-10.1401
▁vettura	-10.1403
ftehimiet	-10.1405
kapaċitajiet	-10.1405
▁ġuridika	-10.1406
oni	-10.1407
▁provi	-10.1408
fatturi	-10.1409
▁partikulari	-10.141
lum	-10.1424
▁Numru	-10.1431
cy	-10.1432
▁Na	-10.1433
▁metodi	-10.1434
▁Iżda	-10.1434
JI	-10.1435
▁operazzjonijiet	-10.1441
rju	-10.1446
▁rinnovabbli	-10.1449
▁ŻEE	-10.1456
dawk	-10.1459
▁iridu	-10.1465
▁65	-10.1466
akbar	-10.147
stiċi	-10.147
▁multi	-10.1476
kopertura	-10.1476
determinazzjoni	-10.148
▁1.1	-10.1481
Kummerċ	-10.1482
▁operazzjonali	-10.1484
▁kontraenti	-10.1487
ty	-10.1488
2017	-10.1494
ħafna	-10.1495
▁44	-10.1498
▁joffru	-10.1499
nit	-10.1501
▁maħruġa	-10.1502
ġija	-10.1503
bidliet	-10.1508
39	-10.151
opportunitajiet	-10.1512
metil	-10.1516
▁klinika	-10.1527
wer	-10.1532
▁nisa	-10.1534
▁°	-10.1537
▁tikkunsidra	-10.1539
denominazzjoni	-10.1547
▁mbagħad	-10.1559
rit	-10.1562
uffiċċju	-10.1563
▁95	-10.157
▁sett	-10.1571
raf	-10.1571
Ingliż	-10.1582
▁jirrappreżentaw	-10.1592
garanzija	-10.1592
deroga	-10.1598
Mediterran	-10.1599
CC	-10.1606
benefiċjarju	-10.1615
▁bidliet	-10.1616
formola	-10.1637
▁oriġini	-10.1637
▁reazzjoni	-10.1639
▁kompatibbli	-10.1642
▁alternattivi	-10.1656
▁Ministru	-10.1657
▁Me	-10.1658
Malta	-10.1658
kwi	-10.1659
istruzzjonijiet	-10.166
▁massimi	-10.1665
TFUE	-10.1666
liċenzji	-10.1667
emenda	-10.1667
0%	-10.1669
▁natura	-10.1669
▁esperti	-10.1678
aktarx	-10.1682
dew	-10.1683
▁sostitwit	-10.1685
sal	-10.1689
▁01	-10.169
stru	-10.1698
rix	-10.1708
-29	-10.1709
FE	-10.1711
kwa	-10.1718
ay	-10.1719
94	-10.1721
▁marbutin	-10.1722
reġim	-10.1726
▁proprjetà	-10.1727
IM	-10.1727
biegħ	-10.173
▁politiku	-10.1732
viżjoni	-10.1734
ord	-10.1737
ola	-10.1738
kumpens	-10.1739
▁jwasslu	-10.1746
▁Magħmul	-10.1748
▁kriterji	-10.1749
ażi	-10.1749
ingrossa	-10.1755
▁riżultati	-10.1757
▁tidher	-10.1764
▁bażiċi	-10.1768
▁ifisser	-10.1771
riżoluzzjoni	-10.1772
ħass	-10.1777
lhom	-10.1777
▁neċessarji	-10.178
93	-10.1783
▁fatturi	-10.1783
inkluż	-10.1797
CR	-10.18
Rakkomandazzjoni	-10.1804
ħżin	-10.1817
form	-10.1818
sider	-10.1821
▁lista	-10.1824
▁kurrenti	-10.1828
bel	-10.1833
far	-10.1836
organizza	-10.1845
Lvant	-10.185
▁opinjoni	-10.1851
▁pożittiv	-10.1854
▁Pazjenti	-10.1858
ng	-10.1863
mal	-10.1864
inbid	-10.1866
ħut	-10.1867
▁miċ	-10.187
▁alfa	-10.1873
▁ġurnata	-10.1879
▁Ko	-10.1884
ishma	-10.1889
▁applikata	-10.1896
erija	-10.1897
fet	-10.19
għandhiex	-10.1904
riformi	-10.1905
▁jinkisbu	-10.1905
iżviluppi	-10.1908
▁Permezz	-10.1915
arr	-10.1923
://	-10.1926
▁vantaġġ	-10.1926
firma	-10.193
kunsens	-10.1933
ster	-10.1934
AC	-10.194
▁residenza	-10.195
ispazju	-10.1951
tras	-10.1957
tarji	-10.1957
ALI	-10.1958
▁Per	-10.1963
▁skambju	-10.1966
▁42	-10.1968
Internet	-10.197
▁approvati	-10.1971
▁[4]	-10.1974
paċi	-10.1975
men	-10.1983
▁renali	-10.1988
Protezzjoni	-10.1991
sezzjoni	-10.1996
▁kkonċernata	-10.1999
▁żgħir	-10.2002
▁strateġija	-10.2003
▁jitnaqqsu	-10.2009
▁84	-10.201
▁estiż	-10.201
▁kimiċi	-10.2013
▁darbiet	-10.2021
▁ddeterminat	-10.2027
▁stabbli	-10.2027
FI	-10.2028
▁Aktar	-10.2028
▁konkluż	-10.2028
▁għarfien	-10.2031
▁eċċessiv	-10.2032
▁tipproponi	-10.2042
und	-10.2045
▁impjieg	-10.2049
ero	-10.2049
*	-10.2055
(7)	-10.2061
▁protetti	-10.2068
Afrika	-10.2072
dif	-10.2073
▁Governattiv	-10.2075
medda	-10.2078
IA	-10.208
▁kontribuzzjoni	-10.2081
(6)	-10.2084
parametri	-10.2085
▁sat	-10.2092
ħad	-10.2095
ST	-10.2099
▁mwettqa	-10.2099
ċer	-10.2099
89	-10.2102
▁tinżamm	-10.2102
riforma	-10.2103
&	-10.2105
▁sotto	-10.2106
96	-10.2111
▁kkurati	-10.2113
▁esklużi	-10.2116
▁sp	-10.2118
torju	-10.2124
66	-10.2124
AG	-10.2125
uż	-10.213
djalogu	-10.213
▁sikur	-10.2132
▁President	-10.2134
▁adulti	-10.2134
▁bastimenti	-10.2137
ez	-10.2143
▁pass	-10.2144
ħsara	-10.2147
▁skala	-10.2152
Sajd	-10.2156
esklużjoni	-10.2156
▁drabi	-10.2159
konsegwenzi	-10.2161
▁inizjattivi	-10.2162
▁Ni	-10.2163
▁emerġenza	-10.2163
▁jitolbu	-10.2168
zzata	-10.2176
▁56	-10.2181
ħol	-10.2182
▁jistipula	-10.2182
Fondi	-10.2183
aff	-10.2184
vina	-10.2185
mun	-10.2187
▁ċittadini	-10.2188
saħħithom	-10.2191
▁bħalma	-10.2199
▁xejn	-10.2201
eni	-10.2201
OL	-10.2202
▁Bil	-10.2203
▁Bank	-10.2204
attiva	-10.2208
istabbiltà	-10.222
kun	-10.2221
Liġi	-10.2223
zokkor	-10.2223
▁jeżistu	-10.2224
por	-10.2226
▁wħud	-10.2227
▁negattiv	-10.2227
▁Ne	-10.2231
minbarra	-10.2233
faqar	-10.2237
9,	-10.2244
▁konġunt	-10.2245
sess	-10.2245
▁ngħataw	-10.2245
▁minnha	-10.2247
konnessjoni	-10.2247
oċċ	-10.2248
”).	-10.226
▁magħżula	-10.2261
▁jimplimentaw	-10.2262
EF	-10.2263
▁konġunta	-10.2264
olu	-10.2265
▁minflok	-10.227
2008	-10.2271
inhu	-10.2282
▁Y	-10.2286
▁ppreżentati	-10.2286
ġimgħa	-10.2287
impjegati	-10.2289
ibbli	-10.2293
▁isfel	-10.2298
nn	-10.2302
ġurisdizzjoni	-10.2303
▁sigħat	-10.2303
▁Peress	-10.2303
▁joħolqu	-10.2306
▁serju	-10.2306
▁joperaw	-10.2312
▁kor	-10.2313
▁kuntrattwali	-10.2313
▁Komunitarji	-10.2313
jata	-10.2317
ull	-10.2317
▁ħaġa	-10.2317
Kummissarju	-10.2321
▁rispettivi	-10.2322
▁titoli	-10.2327
▁kulur	-10.2332
▁Pr	-10.2339
▁rapporti	-10.2349
58	-10.235
▁approvazzjoni	-10.2351
▁prezz	-10.2356
kali	-10.2361
▁Eżekuttiv	-10.2363
▁3.1	-10.2364
▁vs	-10.2364
▁prima	-10.2367
katina	-10.2373
irtirar	-10.2373
taxxi	-10.2373
▁47	-10.2375
▁notifika	-10.2376
▁bejgħ	-10.2385
arti	-10.2387
▁mikro	-10.2388
▁skemi	-10.2391
pazjent	-10.2394
ġni	-10.2399
ġe	-10.2408
▁Kar	-10.241
▁parzjali	-10.241
karti	-10.2418
▁għaldaqstant	-10.2421
Pajjiżi	-10.2422
▁jibdew	-10.2422
che	-10.2425
▁għoljin	-10.2426
▁tikseb	-10.2433
emo	-10.2436
ġejjieni	-10.2437
▁operattivi	-10.244
▁jidhru	-10.2449
line	-10.2451
kur	-10.2453
-24	-10.2453
▁eż	-10.2456
armonizzazzjoni	-10.2459
▁sens	-10.2459
▁ferm	-10.246
Baħar	-10.2463
▁Free	-10.2466
▁benefiċċju	-10.2467
▁jibbenefikaw	-10.2472
għajnejn	-10.2473
42	-10.2482
segwi	-10.2483
ion	-10.2485
▁Ekonomika	-10.2485
forza	-10.2488
seb	-10.2494
avjazzjoni	-10.2502
▁Pre	-10.2502
▁mezz	-10.2503
qtugħ	-10.2504
▁Mo	-10.2505
▁jipparteċipaw	-10.2508
HA	-10.2508
ssa	-10.2509
▁tiżviluppa	-10.251
▁ikollok	-10.2511
iff	-10.2513
Netwerk	-10.2516
▁komponenti	-10.2521
ev	-10.2523
▁tissodisfa	-10.2529
PRO	-10.2529
eċċezzjoni	-10.253
▁amministrattiv	-10.253
▁ibbażata	-10.2534
nes	-10.2536
awditjar	-10.2548
oloġija	-10.2553
▁jilħqu	-10.2554
▁miftuħ	-10.2554
interpretazzjoni	-10.2567
ink	-10.2569
PC	-10.2576
SC	-10.2579
kompetenza	-10.2582
▁jwettqu	-10.2587
ksur	-10.2592
parteċipanti	-10.2599
tranżazzjoni	-10.2603
ġustizzja	-10.2603
ium	-10.2604
bastiment	-10.2604
mument	-10.2616
roti	-10.2617
▁arranġamenti	-10.2625
iskemi	-10.2625
ps	-10.2627
daħħal	-10.2628
▁deskritt	-10.2628
teknoloġiji	-10.2629
▁osservat	-10.2629
▁toħloq	-10.2634
▁(4)	-10.2635
▁acid	-10.264
press	-10.2642
▁domestiku	-10.2644
▁kontinwu	-10.2645
fruntiera	-10.2648
▁88	-10.2649
.1.	-10.2649
kap	-10.2658
involviment	-10.2658
▁43	-10.2658
wit	-10.2662
▁kruċjali	-10.2666
Re	-10.2669
torja	-10.2669
of	-10.2671
▁[1],	-10.2676
eq	-10.2678
▁Konġunta	-10.2679
kaxxa	-10.2681
49	-10.2681
▁infezzjoni	-10.2684
▁tikkontribwixxi	-10.2684
affi	-10.2685
Nazzjonijiet	-10.2692
▁istituzzjoni	-10.2692
▁pakkett	-10.2693
▁liberu	-10.2697
(1),	-10.2699
fabbrika	-10.2703
▁Uniku	-10.2707
▁http	-10.2708
ritorn	-10.2714
kompjuter	-10.272
frekwenza	-10.2725
-2005	-10.2733
▁55	-10.2735
mplifika	-10.2735
jiġifieri	-10.2737
▁miżmuma	-10.274
▁jindirizzaw	-10.274
infiq	-10.2741
ow	-10.2746
▁esterna	-10.2748
ona	-10.275
▁residenti	-10.2753
riet	-10.2759
73	-10.2761
▁Tabella	-10.2765
dazju	-10.2766
Servizz	-10.2775
mekkaniżmu	-10.2778
▁marbut	-10.2783
▁onlajn	-10.2785
▁ħielsa	-10.2788
dumping	-10.279
ura	-10.279
ple	-10.2791
pereżempju	-10.2791
raġġ	-10.2792
ttiva	-10.2793
▁impriża	-10.2797
titoli	-10.2798
▁jiss	-10.28
▁trasferiment	-10.2802
US	-10.2805
imnut	-10.2806
fiċ	-10.2808
virus	-10.281
▁jikkontribwixxi	-10.2812
▁Schengen	-10.2814
van	-10.2819
▁benefiċċji	-10.282
▁for	-10.2821
▁Kien	-10.2825
kompetenzi	-10.2825
▁sinjali	-10.2829
▁ppreżentat	-10.2832
▁negattivi	-10.2835
64	-10.2839
proċessi	-10.2841
▁soluzzjonijiet	-10.2844
għajn	-10.285
55	-10.2852
iel	-10.2856
toroq	-10.2857
▁kwistjoni	-10.2858
▁4.2	-10.2861
▁parzjalment	-10.2876
tariffi	-10.2877
▁definittiv	-10.2886
ena	-10.2886
▁art	-10.2894
▁ġeografika	-10.2895
vol	-10.2897
sospensjoni	-10.2898
flussi	-10.29
▁preliminari	-10.2901
rej	-10.2902
serje	-10.291
▁żoni	-10.2913
mewt	-10.2917
▁suġġett	-10.2917
▁bijo	-10.2918
▁importanza	-10.2922
verifiki	-10.2923
benefiċjarji	-10.2925
▁CO	-10.2925
terapija	-10.2936
67	-10.2937
ung	-10.2944
kaw	-10.2951
▁ħadu	-10.2954
metodoloġija	-10.2957
▁firxa	-10.2961
endi	-10.2961
▁Kontraenti	-10.2961
▁proġett	-10.2967
100	-10.2968
▁joħorġu	-10.2969
▁produtturi	-10.297
kontribut	-10.2974
metri	-10.2976
unità	-10.2978
mat	-10.299
▁jipproduċu	-10.2991
▁testijiet	-10.2993
▁emendi	-10.2995
fattur	-10.3008
taw	-10.3009
▁esportaturi	-10.301
▁ikbar	-10.301
▁infużjoni	-10.3013
▁politiki	-10.3013
▁meqjusa	-10.3016
▁xorta	-10.3021
▁forma	-10.3022
▁diretta	-10.3033
▁għand	-10.3035
oġġett	-10.3035
superviżjoni	-10.3035
▁ħażin	-10.3039
▁statistika	-10.3051
▁fuqhom	-10.3055
▁No	-10.3055
ieħ	-10.3057
BA	-10.3058
nomina	-10.3058
▁wera	-10.306
▁mix	-10.3065
▁Programm	-10.3067
pp	-10.3072
▁opportunitajiet	-10.3074
IE	-10.3084
niċi	-10.309
▁jippre	-10.3094
ong	-10.3097
▁2.1	-10.3098
awrina	-10.3099
▁jaġixxi	-10.3103
erba	-10.3105
▁serra	-10.311
elli	-10.311
EFTA	-10.3113
▁tindika	-10.3115
unitajiet	-10.3115
laqgħat	-10.3121
▁prinċipalment	-10.3122
▁Jista	-10.3123
ega	-10.3133
tat	-10.3135
liet	-10.3138
▁minuta	-10.3141
▁deskritti	-10.3144
war	-10.3146
▁regolatorju	-10.315
rem	-10.3156
▁tim	-10.3166
▁jid	-10.3168
kop	-10.3171
individwi	-10.3176
▁Dis	-10.3181
92	-10.3184
0)	-10.3185
▁xjentifika	-10.3185
▁sodium	-10.3186
EX	-10.3186
DE	-10.3186
jaqsmu	-10.3187
Portugall	-10.319
▁jiddeċiedi	-10.319
▁koordinazzjoni	-10.319
▁co	-10.319
▁separati	-10.3191
ubi	-10.3191
aġenda	-10.3194
qrati	-10.3196
oss	-10.3199
Lussemburgu	-10.3202
ilment	-10.3203
iskadenza	-10.3203
responsabbilta	-10.3205
tixrid	-10.321
proċedimenti	-10.3212
▁if	-10.3213
muniti	-10.3214
▁jħassar	-10.3217
enja	-10.3218
▁tinkiseb	-10.3219
kro	-10.3221
▁negozju	-10.3227
▁kliniku	-10.3235
erja	-10.3238
Ambjent	-10.3242
88	-10.3243
▁ħieles	-10.3245
▁reċiproku	-10.3251
validità	-10.3251
▁jaf	-10.3253
▁fosthom	-10.3264
age	-10.3265
▁fattur	-10.3267
Rumanija	-10.3268
ance	-10.327
▁kontribut	-10.3271
▁umani	-10.3272
(2),	-10.328
messaġġ	-10.328
▁Sp	-10.3283
001	-10.3298
kis	-10.3301
▁aċċessibbli	-10.3301
over	-10.3302
Trasport	-10.3305
dati	-10.3308
ixxu	-10.3315
56	-10.332
▁tirriżulta	-10.3325
ano	-10.3326
▁Mingħajr	-10.3328
▁toħroġ	-10.3329
▁determinat	-10.3332
▁studjat	-10.3336
Prim	-10.3341
intenzjoni	-10.3341
konferma	-10.3347
▁nhar	-10.335
▁tunnellata	-10.3351
rappreżentanti	-10.3355
▁ġo	-10.3367
▁kampjuni	-10.3368
ħadid	-10.3369
frodi	-10.337
Awdituri	-10.337
▁Ka	-10.3375
għal	-10.3376
rab	-10.3382
talbiet	-10.3383
▁kulħadd	-10.3387
applikanti	-10.3388
ċertifikati	-10.3391
▁tri	-10.3394
▁intra	-10.3395
▁kondizzjonijiet	-10.3395
kamra	-10.3397
▁Tri	-10.3404
▁ħaddiema	-10.3404
effettività	-10.3411
ZZJONI	-10.3414
PL	-10.342
▁qrib	-10.3422
77	-10.3429
▁medika	-10.343
▁dettaljata	-10.3432
tarju	-10.3434
▁akkwist	-10.3437
kolonna	-10.3439
res	-10.3443
var	-10.3452
xahar	-10.3453
▁tikkonċerna	-10.3454
▁54	-10.3455
Komunitajiet	-10.3457
▁assigurazzjoni	-10.3459
▁reġistrazzjoni	-10.3461
pjanijiet	-10.3461
ester	-10.347
kin	-10.3473
▁Waqt	-10.3474
▁Te	-10.3477
▁spjegat	-10.3483
difiża	-10.3492
▁riskji	-10.3492
▁futuri	-10.3493
kisba	-10.3495
▁eżami	-10.3497
▁tiddeċiedi	-10.3501
▁So	-10.3505
bol	-10.3507
isk	-10.3509
XX	-10.3511
▁02	-10.3515
son	-10.3517
▁monetarja	-10.3521
▁bbażat	-10.3526
▁identifikat	-10.3527
ICT	-10.3533
anness	-10.3536
trażmissjoni	-10.3542
▁militari	-10.3544
▁favorevoli	-10.3546
▁51	-10.3551
79	-10.3552
iċċ	-10.3555
▁jix	-10.3555
▁limitati	-10.3556
magni	-10.3557
flu	-10.3557
▁par	-10.3557
▁ras	-10.356
organi	-10.3561
▁VII	-10.3561
▁ġewx	-10.3565
▁Fin	-10.3567
Ministeru	-10.3574
▁Post	-10.3575
▁tħassib	-10.3576
▁prezzijiet	-10.3589
ze	-10.3595
xjenza	-10.3599
ħalq	-10.3602
NO	-10.3603
www	-10.3606
▁effikaċi	-10.3608
agrikoltura	-10.3616
▁innovattivi	-10.3622
ino	-10.3625
traduzzjoni	-10.3626
▁jif	-10.3641
▁49	-10.3645
dimensjoni	-10.3648
adattament	-10.365
▁nies	-10.3654
Ikel	-10.3658
▁bilanċ	-10.3659
tilwim	-10.3659
▁tmur	-10.3663
(2)(	-10.3666
eko	-10.3667
▁kontrolli	-10.3669
▁jindika	-10.3671
Ungerija	-10.3674
▁inkella	-10.3675
AB	-10.3675
PDG	-10.3698
solv	-10.37
▁52	-10.3701
▁skopijiet	-10.3703
GA	-10.3705
74	-10.3708
gwa	-10.371
kard	-10.3712
pet	-10.3719
rija	-10.3719
▁jaħ	-10.3722
EA	-10.3725
ożi	-10.3726
impjant	-10.3727
▁FUQ	-10.3729
▁individwi	-10.3733
ispiżjar	-10.3734
59	-10.3741
dotta	-10.3741
▁ip	-10.3743
aluminju	-10.3747
zo	-10.3749
strat	-10.375
ugwaljanza	-10.3752
rom	-10.3754
▁avvenimenti	-10.3761
ostakli	-10.3766
rak	-10.3767
kwalifiki	-10.3769
▁eċċezzjonali	-10.3769
għad	-10.377
tant	-10.377
OP	-10.3771
▁jinżamm	-10.3772
iga	-10.3773
sp	-10.3774
adatta	-10.3774
orn	-10.378
▁Tal	-10.3781
numri	-10.3785
▁immedjat	-10.3785
“	-10.3785
inklużi	-10.3793
AP	-10.3799
identità	-10.3806
▁Intern	-10.3812
rimi	-10.3812
▁sentenza	-10.3814
▁apposta	-10.3817
▁Kwalunkwe	-10.3822
▁operazzjoni	-10.3824
ċità	-10.3827
▁kinitx	-10.3829
▁barranin	-10.3832
▁tindirizza	-10.384
tion	-10.3841
rappurtar	-10.3842
▁deskrizzjoni	-10.3844
immaniġġjar	-10.3845
▁aspetti	-10.3845
▁abbord	-10.3847
esti	-10.3847
MO	-10.3852
EG	-10.3852
▁bilaterali	-10.3853
SO	-10.3854
posta	-10.3855
▁inizjattiva	-10.3858
ED	-10.3862
▁jaġixxu	-10.3863
plażma	-10.3871
bdiewa	-10.3875
lus	-10.3882
▁GĦALL	-10.3883
Xogħol	-10.3888
▁tradizzjonali	-10.3893
▁importazzjoni	-10.3893
ans	-10.3894
▁mobbli	-10.3894
▁Abbozz	-10.39
indikaturi	-10.39
sib	-10.39
▁mark	-10.39
poli	-10.3902
seba	-10.392
nija	-10.3926
indikazzjonijiet	-10.3926
estensjoni	-10.3928
izza	-10.3929
Bulgarija	-10.393
influwenza	-10.3933
ipp	-10.3934
laboratorju	-10.3948
▁ristrett	-10.3949
▁unika	-10.3955
oto	-10.3959
impatti	-10.3961
kwoti	-10.3983
ott	-10.3984
▁linja	-10.3986
ssi	-10.3993
▁jindikaw	-10.3997
nofs	-10.3998
asi	-10.4
▁jippreżenta	-10.4002
TC	-10.4003
rilaxx	-10.4003
▁teknoloġiji	-10.4005
▁jadotta	-10.4013
▁reċenti	-10.4014
▁41	-10.402
▁jinnota	-10.4028
org	-10.4032
▁żżomm	-10.4033
ilhom	-10.4034
▁kieku	-10.4035
PO	-10.4038
stiku	-10.4045
uffiċjal	-10.4047
ispeċi	-10.4049
TRA	-10.405
disponibbiltà	-10.4052
▁Proċedura	-10.4054
84	-10.4059
eżenzjoni	-10.406
ker	-10.4061
ħames	-10.4062
▁territorjali	-10.4064
oġen	-10.4064
▁jikkostitwixxu	-10.4067
ele	-10.4067
▁iwettqu	-10.4069
▁Għalkemm	-10.4071
zzjonali	-10.4073
mobilità	-10.4076
għar	-10.408
rispons	-10.409
dibattitu	-10.4091
somma	-10.4093
▁meħud	-10.4094
bor	-10.4097
▁stadju	-10.4098
▁Assoċjazzjoni	-10.4099
▁ddikjarat	-10.4101
gvernijiet	-10.4102
2006	-10.4103
Kroazja	-10.4106
pan	-10.4113
72	-10.4119
▁jkopri	-10.412
argument	-10.4121
▁kapaċità	-10.4121
▁jenfasizza	-10.4124
▁jippreżentaw	-10.4127
Arċisqof	-10.4127
▁serja	-10.4133
RU	-10.4136
▁funzjoni	-10.4139
pit	-10.4144
▁kimika	-10.4144
AZZJONI	-10.4153
manutenzjoni	-10.4157
▁unitajiet	-10.4158
inizjattivi	-10.4172
raġuni	-10.4177
▁ikkunsidrat	-10.4179
▁sigur	-10.4181
▁Str	-10.4182
pass	-10.4184
▁miegħu	-10.4187
ezza	-10.419
▁impjiegi	-10.4193
▁Sal	-10.4206
▁miġbura	-10.4209
▁agrikola	-10.4214
fajl	-10.4217
eva	-10.4221
▁ċertifikat	-10.4221
▁prattiċi	-10.423
▁eżaminat	-10.4232
▁Għoli	-10.4236
▁wiċċ	-10.4239
▁Man	-10.424
ect	-10.424
▁fwied	-10.4241
ajruporti	-10.4249
tek	-10.4251
▁46	-10.4254
infużjoni	-10.4255
RPĊ	-10.4272
▁rrakkomandat	-10.4272
▁Alla	-10.4272
perċentwal	-10.4273
▁joffri	-10.4276
▁61	-10.4284
tensjoni	-10.4291
▁Tip	-10.4295
▁Servizzi	-10.4297
VA	-10.4298
delega	-10.4298
koperazzjoni	-10.4305
dożi	-10.431
.2.2	-10.4311
pjattaforma	-10.4313
żjara	-10.4315
siti	-10.4315
Norveġja	-10.4322
jun	-10.4327
sett	-10.4329
zja	-10.4329
distanza	-10.4332
▁abbozz	-10.4344
▁ikkonċernati	-10.4346
▁assoċjat	-10.4347
olo	-10.4349
awtur	-10.4351
pagament	-10.4355
del	-10.4357
vidjo	-10.4366
vu	-10.4369
▁93	-10.437
▁92	-10.4381
▁komprensiv	-10.4381
adulti	-10.4382
▁miżjuda	-10.4382
makkinarju	-10.4383
nju	-10.4384
hemm	-10.4385
sejbiet	-10.4388
DC	-10.4391
ippjanar	-10.4391
oma	-10.4397
▁adegwati	-10.4402
aġenzija	-10.4407
▁COM	-10.4407
▁kompetizzjoni	-10.4412
▁nominali	-10.4413
għotja	-10.4414
▁jgħaddi	-10.4418
▁jilqa	-10.4422
aggregat	-10.4424
ħlasijiet	-10.4425
NI	-10.4426
”),	-10.4437
▁Abbażi	-10.4438
meta	-10.4439
rap	-10.4442
konverżjoni	-10.4446
▁tilħaq	-10.4447
▁imbagħad	-10.4449
derivattivi	-10.4458
ole	-10.4459
iegħ	-10.4462
▁periklu	-10.4465
▁intervent	-10.4473
▁gass	-10.4475
kwalifika	-10.4475
▁skema	-10.4476
poġġ	-10.4479
Segretarju	-10.448
nat	-10.4481
ulta	-10.4488
2018	-10.4489
▁62	-10.4489
LU	-10.449
▁sostenn	-10.449
▁għażla	-10.4492
Riżoluzzjoni	-10.4493
poni	-10.4496
bru	-10.4506
UR	-10.4507
SP	-10.4508
qgħad	-10.451
ċirkolazzjoni	-10.4514
▁Użu	-10.4515
NE	-10.4521
liċenzja	-10.4522
Finlandja	-10.4529
▁Do	-10.4537
▁utli	-10.4538
▁Disturbi	-10.4545
▁ċertifikazzjoni	-10.4554
abbiltà	-10.4556
nota	-10.4556
ħabb	-10.4557
▁fornituri	-10.4557
tnejn	-10.4562
dro	-10.4567
▁jaqbeż	-10.4571
▁VIII	-10.4572
tassazzjoni	-10.4574
▁żejda	-10.4579
Reġjuni	-10.4583
▁investimenti	-10.4583
▁Tista	-10.4586
ris	-10.46
sostenibbiltà	-10.4606
▁armonizzati	-10.4607
tranżizzjoni	-10.4609
Latvja	-10.4611
sors	-10.4613
▁sikurezza	-10.4616
▁Reġjonali	-10.4617
▁rikonoxxuti	-10.4622
AD	-10.4627
sodju	-10.4628
għadam	-10.4629
xorb	-10.4636
▁forom	-10.4639
faċilitajiet	-10.4642
▁fond	-10.4646
▁element	-10.465
dra	-10.4651
abilità	-10.4652
▁moderat	-10.4657
▁joħroġ	-10.4657
▁kontinwa	-10.466
triċi	-10.4665
bandiera	-10.4667
▁tqal	-10.467
▁istituzzjonali	-10.4671
▁suppost	-10.4676
suspett	-10.4676
▁jikkonsisti	-10.4678
▁53	-10.468
▁minima	-10.468
ash	-10.4684
▁jinforma	-10.4686
▁tinbidel	-10.4689
sim	-10.4692
▁parir	-10.4693
PR	-10.4697
muskoli	-10.4697
daqqa	-10.4698
tjur	-10.4706
preżent	-10.4707
▁evitati	-10.4707
titolu	-10.471
▁jappoġġja	-10.4717
▁adegwata	-10.4721
▁tippromwovi	-10.4723
▁emenda	-10.4724
▁terġa	-10.4726
EP	-10.4726
fra	-10.4728
▁jqis	-10.473
▁regolament	-10.473
▁konġunti	-10.4732
eter	-10.4732
ys	-10.4735
appell	-10.4739
▁dejn	-10.474
▁jirċievi	-10.4741
▁The	-10.4742
ekwità	-10.4744
II	-10.4745
kw	-10.4749
▁infezzjonijiet	-10.4751
wal	-10.4752
KA	-10.4755
raġ	-10.4755
▁jaqblu	-10.4755
ieħor	-10.4765
▁Par	-10.4766
prova	-10.4771
trade	-10.4773
qsim	-10.4776
marġni	-10.478
viża	-10.4781
għażliet	-10.4782
frott	-10.4782
qal	-10.4782
istandard	-10.4783
▁eżatt	-10.4786
▁jirregolaw	-10.4789
▁frisk	-10.479
eh	-10.4792
▁Kodiċi	-10.4795
ifikazzjoni	-10.4796
Amerika	-10.4798
▁Minbarra	-10.4798
formula	-10.4805
irrispettivament	-10.4806
destinazzjoni	-10.4808
bnedmin	-10.4809
▁ipprovdut	-10.481
▁pagamenti	-10.4811
63	-10.4811
nin	-10.4813
▁allokati	-10.4813
ock	-10.4815
kla	-10.4816
enfasi	-10.4821
hy	-10.4821
soltu	-10.4822
residenza	-10.483
nzi	-10.4832
djar	-10.4836
▁To	-10.4837
sħubija	-10.4839
▁prestazzjoni	-10.484
▁lok	-10.4843
▁kopert	-10.4843
seduta	-10.4844
entrata	-10.4851
differenzi	-10.4851
83	-10.4859
sur	-10.4861
▁stabbiliment	-10.4863
tisħin	-10.4863
▁jinvolvi	-10.4868
▁siringa	-10.4868
▁87	-10.4868
korrezzjoni	-10.4876
MM	-10.4877
gwida	-10.4879
tqassim	-10.4879
▁għoti	-10.488
▁Speċjali	-10.488
arma	-10.4881
▁soġġetta	-10.4882
-2004	-10.4891
▁For	-10.4892
▁jidde	-10.4896
▁jadottaw	-10.4898
kummerċjalizz	-10.4899
eth	-10.49
vittmi	-10.4905
▁2019	-10.4907
Rappreżentant	-10.4912
fit	-10.4913
istadju	-10.4917
komunità	-10.4925
sewwieq	-10.4931
-2016	-10.4931
super	-10.4935
▁ruħhom	-10.4935
▁tajbin	-10.4939
.3.2	-10.4942
▁faċilment	-10.4948
52	-10.4954
assoċjazzjoni	-10.4954
▁superviżjoni	-10.4956
▁bidu	-10.4959
▁gross	-10.4961
▁400	-10.4963
▁mekkaniżmu	-10.4965
▁segwit	-10.4972
ġeni	-10.4978
irrifjuta	-10.498
▁El	-10.498
UL	-10.4981
54	-10.4981
assorbiment	-10.4981
▁affidabbli	-10.4985
▁mediku	-10.4985
tiva	-10.4987
▁MA	-10.4988
▁Ru	-10.4988
▁estern	-10.4989
▁attwalment	-10.4992
produ	-10.4992
▁jżommu	-10.4997
▁integrati	-10.4998
navigazzjoni	-10.5
postijiet	-10.5002
Di	-10.5003
▁Pi	-10.5007
ica	-10.5012
▁jirrappreżenta	-10.5014
tariffa	-10.5014
▁elettriku	-10.5014
anja	-10.5014
gre	-10.5014
ejja	-10.5021
▁ċelluli	-10.5038
▁pożittivi	-10.5043
▁assigurat	-10.505
ert	-10.5057
passat	-10.5069
▁poli	-10.507
bliet	-10.5072
madwar	-10.5072
Sinjura	-10.5075
preparazzjoni	-10.5077
▁Paper	-10.5079
esponiment	-10.5081
▁jgħixu	-10.5084
▁non	-10.5094
rikors	-10.5096
▁dumping	-10.5096
temm	-10.5101
▁mnaqqsa	-10.5101
quddiem	-10.5102
iġġ	-10.5103
riż	-10.5115
▁swieq	-10.5116
71	-10.5118
▁konsiderevoli	-10.5122
logħob	-10.5122
▁indikazzjoni	-10.5123
ħadd	-10.5125
vent	-10.513
temp	-10.5134
Ġimgħa	-10.5139
can	-10.5139
Linja	-10.5139
opportunità	-10.5147
serum	-10.5149
diversità	-10.5149
CH	-10.515
▁jkopru	-10.5154
bqija	-10.5154
konsegwenza	-10.5159
Opinjoni	-10.516
Turkija	-10.516
CI	-10.5166
Konferenza	-10.517
jj	-10.5175
stika	-10.5175
stra	-10.5176
▁IN	-10.5177
impjanti	-10.5177
car	-10.5178
▁proporzjon	-10.518
vot	-10.5185
Presidenza	-10.5188
revoka	-10.5194
▁jikkon	-10.5196
torji	-10.5197
▁delegati	-10.5197
▁skop	-10.5197
▁deċiż	-10.5198
konsistenza	-10.5201
CV	-10.5206
▁jikkawża	-10.5208
▁laqgħa	-10.521
governanza	-10.5212
moħħ	-10.5216
▁sodisfatti	-10.5217
fatti	-10.5219
NS	-10.522
▁jwettaq	-10.5223
FR	-10.5225
▁jikkunsidra	-10.5227
▁valida	-10.5231
qosor	-10.5233
▁jippromwovu	-10.5237
▁2011,	-10.5238
▁rakkomandata	-10.5243
▁temporanju	-10.5243
ski	-10.5244
ome	-10.5244
▁emissjonijiet	-10.5251
referenzi	-10.5252
41	-10.5254
evidenza	-10.5254
▁tinnota	-10.5263
eġġ	-10.5264
sewqan	-10.5272
▁lest	-10.5275
opp	-10.5276
ċertifikazzjoni	-10.5278
anal	-10.5283
▁Ha	-10.5284
▁jżomm	-10.5286
neħħi	-10.5286
▁59	-10.5288
▁Ser	-10.5293
tinib	-10.5299
dmirijiet	-10.5301
▁approvata	-10.5307
aġent	-10.532
▁00	-10.5321
valuta	-10.5322
materja	-10.5324
▁żviluppat	-10.5327
rex	-10.5332
▁Ver	-10.5333
dijabete	-10.5339
ivvjaġġar	-10.5339
▁joħloq	-10.5344
▁restrittivi	-10.5344
▁72	-10.5347
.”;	-10.5354
ġenituri	-10.5354
diffikultà	-10.5355
▁jaffettwa	-10.5356
▁netwerk	-10.5358
▁108	-10.5362
76	-10.5364
vin	-10.5377
▁Tagħrif	-10.5377
agg	-10.5378
▁En	-10.5379
▁Effetti	-10.5382
53	-10.5384
ħamrija	-10.5387
▁għodda	-10.5389
ċirkustanzi	-10.5389
profil	-10.5392
bżonnijiet	-10.5397
▁intelliġenti	-10.5398
kompożizzjoni	-10.5398
▁distribuzzjoni	-10.54
iżmu	-10.5403
▁Gr	-10.5405
▁kontenut	-10.5408
▁66	-10.5412
ity	-10.5414
ulazzjoni	-10.5416
▁76	-10.5419
▁awto	-10.542
▁tinvolvi	-10.5422
mill	-10.5425
portafoll	-10.5427
▁sesswali	-10.5427
mekkaniżmi	-10.5428
▁probabbli	-10.5438
esperti	-10.5438
57	-10.5439
2009	-10.5448
▁età	-10.5449
reazzjoni	-10.545
▁abjad	-10.5451
▁adattati	-10.5455
▁għamlu	-10.5458
sottomissjoni	-10.5463
▁pożizzjoni	-10.5464
▁250	-10.5465
intervent	-10.5467
▁Test	-10.5468
▁qalb	-10.5472
xagħar	-10.5474
GĦ	-10.5475
▁integrat	-10.5478
▁marda	-10.5478
Mediċini	-10.5479
▁taffettwa	-10.5483
▁mixtieqa	-10.5485
Pro	-10.5485
▁perikolużi	-10.5486
ġel	-10.5486
▁klassi	-10.5488
▁tif	-10.5491
metru	-10.55
▁3.2	-10.55
▁indeboliment	-10.5502
disk	-10.5515
nifs	-10.5521
fużjoni	-10.5524
diviżjoni	-10.5526
mezz	-10.5526
2000	-10.5527
PT	-10.5528
▁żejjed	-10.5531
CS	-10.5534
▁jnaqqsu	-10.5534
avveniment	-10.5535
▁rrappurtati	-10.5541
▁stima	-10.5543
udi	-10.5543
▁tikkonsisti	-10.5544
▁Car	-10.5549
▁Dak	-10.5559
▁jipprevedi	-10.556
▁ċari	-10.556
definizzjonijiet	-10.5562
▁waħdu	-10.5563
▁ttrattati	-10.5565
serva	-10.5568
taħlita	-10.5568
ismijiet	-10.5579
▁indirizzata	-10.5579
▁medji	-10.5581
Ombudsman	-10.5583
bajd	-10.5585
tiv	-10.5589
konsenja	-10.559
62	-10.5591
▁jkollok	-10.5597
▁Aħna	-10.5597
problema	-10.5597
ħeġġ	-10.5599
▁espert	-10.5604
▁2010,	-10.5607
▁konċernat	-10.5607
▁metodu	-10.5611
acquis	-10.5613
▁zokkor	-10.5613
tikkettar	-10.5616
CRR	-10.5621
▁(5)	-10.5626
▁emendati	-10.5626
Ri	-10.5627
projbizzjoni	-10.5636
Ent	-10.5638
kriterju	-10.5639
Istatut	-10.564
▁ppubblikati	-10.5642
▁organizzata	-10.5645
▁riżoluzzjoni	-10.5646
theddid	-10.5649
mg	-10.5653
▁jikkonċerna	-10.5653
ristrutturar	-10.5657
▁mgħammra	-10.5659
itu	-10.5664
▁Deskrizzjoni	-10.5664
OM	-10.5666
titlu	-10.567
lement	-10.5671
Punent	-10.5676
żin	-10.5683
professjonisti	-10.5683
fakkar	-10.5685
▁vinkolanti	-10.5685
professjoni	-10.5687
▁BĊE	-10.5692
produttur	-10.5693
pir	-10.5695
offerta	-10.5697
▁skadenza	-10.5698
▁liċenzja	-10.5698
ċikli	-10.5702
aċidu	-10.5704
▁sors	-10.5707
iex	-10.5708
BĊN	-10.571
intrapriża	-10.571
▁[5]	-10.571
komplet	-10.5712
istika	-10.5713
Klassi	-10.5716
▁mudell	-10.5718
pat	-10.572
▁rappurtar	-10.5725
69	-10.5727
bla	-10.5727
naw	-10.5732
TS	-10.5732
amina	-10.5736
pensjonijiet	-10.5737
▁adatt	-10.5744
ħażna	-10.5745
▁kejl	-10.5745
▁jemmen	-10.5746
▁Kap	-10.5748
industriji	-10.5751
lor	-10.5755
▁jimplimenta	-10.5756
pine	-10.576
SM	-10.5762
▁ħsieb	-10.5763
▁4.1	-10.5766
▁2.2	-10.5766
▁jinħa	-10.5766
uk	-10.5771
konsiderazzjoni	-10.5773
▁parteċipazzjoni	-10.578
tniġġis	-10.5782
addittivi	-10.5783
▁wa	-10.5784
▁Ex	-10.5785
▁dazju	-10.5788
▁ġudizzjarja	-10.5791
▁57	-10.5791
▁impenn	-10.5792
passi	-10.5793
▁mekkaniżmi	-10.5802
Aġenda	-10.5805
ħila	-10.5805
tluq	-10.5818
▁Euro	-10.582
pil	-10.5824
għid	-10.5824
▁kun	-10.5824
▁meqjus	-10.5826
▁għaxar	-10.5827
ENTI	-10.5828
▁jist	-10.5828
IK	-10.583
▁llum	-10.5832
3%	-10.5833
ight	-10.5833
▁miksub	-10.5833
diż	-10.5837
BEI	-10.5838
fis	-10.5839
▁għalik	-10.584
proporzjonalità	-10.584
indeboliment	-10.5843
kawżi	-10.5843
suf	-10.5844
▁Shipping	-10.5845
▁preparazzjoni	-10.5846
konservazzjoni	-10.5848
▁epi	-10.5849
trab	-10.5849
twa	-10.5858
bro	-10.5858
▁wiesa	-10.5859
Ġestjoni	-10.5861
▁imsejħa	-10.5862
aġġustament	-10.5862
ting	-10.5867
▁humiex	-10.5867
mediċini	-10.587
hin	-10.5871
▁preskritt	-10.5872
portijiet	-10.5877
Estonja	-10.5877
Prodott	-10.5881
▁preċiż	-10.5883
sor	-10.5884
mobbiltà	-10.5885
▁Isem	-10.5885
Innovazzjoni	-10.5888
▁jgħaddu	-10.5888
▁jerġa	-10.5892
tifel	-10.5892
JU	-10.5893
▁iqis	-10.5893
▁Dr	-10.5894
▁implimentat	-10.5895
defiċit	-10.5897
▁iddikjarat	-10.5898
▁assoċjazzjoni	-10.5899
kodiċijiet	-10.59
▁alternattiva	-10.5901
▁2009,	-10.5901
ħal	-10.5901
▁ristrutturar	-10.5902
nie	-10.5903
▁itwal	-10.5904
GĦA	-10.591
osi	-10.5915
żmu	-10.5924
sof	-10.5927
formazzjoni	-10.5928
kanċer	-10.593
▁pendenti	-10.5935
▁ħalli	-10.5941
▁primarjament	-10.5946
finanzi	-10.5947
loġika	-10.5948
▁Sigurtà	-10.595
▁magħmulin	-10.595
▁taħlita	-10.5956
▁għodod	-10.5963
▁Med	-10.5963
tema	-10.5963
▁tikkostitwixxi	-10.5965
żo	-10.5967
qagħda	-10.5977
dju	-10.5978
ċelloli	-10.5981
▁karatteristiċi	-10.5982
(8)	-10.5986
1997	-10.5989
▁speċifikata	-10.5995
▁influwenza	-10.5996
iskeda	-10.6
.10.20	-10.6
Kon	-10.6001
▁kampjun	-10.6006
qoton	-10.6007
ippro	-10.6008
▁żżid	-10.6009
fiduċja	-10.6015
ifika	-10.6016
sorsi	-10.6016
siringa	-10.6017
▁Con	-10.6022
▁indikaturi	-10.6023
▁merkanzija	-10.6024
▁ppreżentata	-10.6025
▁Partijiet	-10.6025
verti	-10.6027
eliminazzjoni	-10.6029
rif	-10.6033
▁ripetut	-10.6034
perspettiva	-10.6036
▁jitwettaq	-10.6036
dri	-10.6037
▁awtorizzata	-10.604
tom	-10.6043
għaj	-10.6044
▁ċittadin	-10.6047
▁protettiv	-10.6048
▁qab	-10.6051
▁vaċċin	-10.6057
gan	-10.6062
terroriżmu	-10.6066
▁korrett	-10.6075
▁żgħira	-10.6079
territorji	-10.6084
rik	-10.6086
graf	-10.609
▁Pjan	-10.6091
Indja	-10.6094
ND	-10.6094
Russja	-10.6097
▁ħruġ	-10.6102
CON	-10.6102
Bniedem	-10.6105
▁djalogu	-10.6106
▁64	-10.6107
51	-10.6108
▁legalment	-10.6116
diskussjoni	-10.6117
low	-10.6117
▁wrew	-10.6119
sitwazzjonijiet	-10.6121
run	-10.6122
▁vulnerabbli	-10.6125
pin	-10.6128
▁spezzjoni	-10.6129
▁għamlet	-10.6131
▁infrastruttura	-10.6134
▁kkonfermat	-10.6135
▁1.2	-10.6139
▁ġuridiċi	-10.6147
▁all	-10.6148
finanzjat	-10.6154
▁tissaħħaħ	-10.6155
ċertezza	-10.6157
tifla	-10.6159
armi	-10.6162
ors	-10.6163
▁riċenti	-10.6164
lok	-10.617
lbu	-10.6171
inċidenza	-10.6183
nett	-10.6186
det	-10.6186
kriminalità	-10.6186
▁għamel	-10.6187
salvagwardja	-10.6188
▁Wi	-10.6189
2001	-10.619
▁separat	-10.6202
ped	-10.6204
▁magħha	-10.6207
▁msaħħa	-10.6213
Litwanja	-10.6213
▁Mal	-10.6219
mini	-10.6225
▁setturi	-10.6225
uma	-10.6231
ric	-10.6232
indipendenza	-10.6232
tell	-10.6234
enz	-10.6236
▁umana	-10.6239
▁obbligi	-10.6239
Sezzjoni	-10.6242
▁aġġornata	-10.6242
▁Trans	-10.6243
kola	-10.6245
▁pprovdut	-10.6249
valutazzjonijiet	-10.6253
▁Ċivili	-10.6254
han	-10.6254
▁Pereżempju	-10.6256
illa	-10.6258
▁73	-10.6262
sintomi	-10.6265
▁superviżorji	-10.6265
▁kkon	-10.6265
ġenb	-10.6267
▁Ċeka	-10.6267
▁Dokument	-10.6268
tendenza	-10.6271
▁ospitanti	-10.6273
reg	-10.6275
2%	-10.628
orja	-10.6284
riku	-10.6294
▁bini	-10.6294
profitt	-10.6295
trabi	-10.6298
▁jnaqqas	-10.6301
▁obbligu	-10.6301
▁operattiva	-10.6302
walment	-10.6305
▁Kooperazzjoni	-10.6306
▁urġenti	-10.6307
etika	-10.631
▁koerenti	-10.6311
▁toffri	-10.6316
▁appell	-10.632
għamla	-10.632
uss	-10.6327
lev	-10.6331
▁jiddependi	-10.6332
61	-10.6332
▁titwettaq	-10.6333
kunjett	-10.6336
debitur	-10.6341
▁idejn	-10.6342
▁jip	-10.6346
mhux	-10.6348
▁allokat	-10.6349
1%	-10.635
▁timplimenta	-10.6351
Tmexxija	-10.6352
▁2012,	-10.6355
▁veterinarju	-10.6356
ditti	-10.6358
rifjut	-10.6359
▁jirrigwarda	-10.6364
▁120	-10.6371
▁xjentifiċi	-10.6373
▁op	-10.6374
▁68	-10.6375
baxx	-10.6383
▁ffaċilitat	-10.6386
▁edukazzjoni	-10.6398
▁jseħħu	-10.6399
▁94	-10.64
▁għanijiet	-10.6401
▁persunal	-10.6401
▁fażi	-10.6407
sis	-10.641
sol	-10.641
▁sħubija	-10.6413
▁dovut	-10.642
con	-10.6422
ewro	-10.6426
For	-10.6426
indiċi	-10.6432
input	-10.6432
arranġament	-10.6437
derivat	-10.6442
▁TFUE	-10.6443
▁iżommu	-10.6451
paga	-10.6452
▁jikkostitwixxi	-10.6452
▁kategoriji	-10.6452
igi	-10.6456
▁58	-10.6463
▁ħaj	-10.6464
▁jżidu	-10.6471
▁Sistema	-10.6471
ick	-10.6471
▁Teva	-10.6471
etiċi	-10.6471
aga	-10.6475
tribu	-10.6476
▁Skond	-10.6479
▁kmieni	-10.6481
▁minerali	-10.6483
Ewro	-10.6485
▁frekwenza	-10.6485
▁garanziji	-10.6486
prattiki	-10.6486
infrastrutturi	-10.6488
ister	-10.6492
▁vvalutat	-10.6497
ċifri	-10.6498
reat	-10.6501
CF	-10.6502
▁off	-10.6505
tiġdid	-10.6509
▁vverifikat	-10.651
konsolidat	-10.651
▁medda	-10.6513
▁CE	-10.6513
▁Jenħtieġ	-10.6523
familji	-10.6525
▁multipli	-10.6527
▁trasparenza	-10.6528
vja	-10.653
▁Ċiniżi	-10.6535
TT	-10.6535
tabakk	-10.6536
unt	-10.6541
MB	-10.6544
epatite	-10.6544
TO	-10.6545
91	-10.655
laħ	-10.6552
organiżmi	-10.6552
▁79	-10.6553
Green	-10.6557
jes	-10.656
imġiba	-10.6579
▁titnaqqas	-10.6579
▁mfassla	-10.6581
suppliment	-10.6582
tlaq	-10.6582
maturità	-10.6584
sitt	-10.6585
▁2014,	-10.6585
emija	-10.6587
▁ass	-10.6587
ibr	-10.6589
bħal	-10.659
▁2013,	-10.6591
serv	-10.6593
▁ssodisfati	-10.6594
87	-10.6594
▁ġeografiċi	-10.6599
importaturi	-10.66
▁perjodi	-10.6602
anda	-10.6602
ieg	-10.6603
Edukazzjoni	-10.6605
telefon	-10.6607
▁99	-10.6611
▁implimentata	-10.6612
▁sit	-10.6616
tol	-10.6617
iskola	-10.6618
▁iżgħar	-10.6624
▁jerġgħu	-10.6626
▁jżid	-10.6626
▁tirreferi	-10.6628
CD	-10.6633
▁130	-10.6633
▁orizzontali	-10.6634
▁intitolat	-10.6636
ova	-10.6639
vista	-10.6642
Slovenja	-10.6642
▁He	-10.6642
▁kanċer	-10.6644
kontabilità	-10.6648
off	-10.6648
istudenti	-10.665
▁tqila	-10.6655
fas	-10.6657
▁jinbidlu	-10.6661
▁98	-10.6664
▁tel	-10.6668
ved	-10.6669
lejl	-10.6672
RS	-10.6673
▁responsabbiltà	-10.6673
JONI	-10.6673
▁diż	-10.6679
mes	-10.6679
modifika	-10.668
▁flessibbli	-10.6683
▁Mon	-10.6684
jen	-10.6687
sussidji	-10.6689
▁jiddaħħal	-10.6689
ġin	-10.6694
inġenju	-10.6695
residwi	-10.6701
applika	-10.6703
▁dettalji	-10.6704
fir	-10.6706
Nofsinhar	-10.6714
premessi	-10.6714
▁iddefinit	-10.6714
Dejta	-10.6715
▁uman	-10.6716
▁evitata	-10.6718
gram	-10.6719
Impriża	-10.672
FP	-10.6723
ċentri	-10.6724
ħatra	-10.6725
korpora	-10.6726
jiem	-10.6731
▁kategorija	-10.6731
▁kar	-10.6731
1995	-10.6738
▁Lisbona	-10.6744
Kawża	-10.6744
Sena	-10.6745
kump	-10.6747
una	-10.6752
▁New	-10.6754
rum	-10.6754
▁Ix	-10.6756
emittent	-10.6757
forom	-10.6762
taħlitiet	-10.6763
PP	-10.6773
▁operaturi	-10.6773
izzat	-10.6779
▁xogħlijiet	-10.6782
▁varji	-10.6782
▁jiffaċilitaw	-10.6789
▁jilħaq	-10.6798
▁segwiti	-10.6803
▁temporanja	-10.6806
▁ikollha	-10.6809
waqfien	-10.6811
▁63	-10.6812
▁taxxa	-10.6813
▁tfittex	-10.6813
belt	-10.6823
▁jonqos	-10.6825
.2.1	-10.6826
des	-10.6828
Investiment	-10.6828
▁affarijiet	-10.6833
uffiċjali	-10.6834
▁Sħubija	-10.6835
▁armonizzat	-10.6842
istampa	-10.6842
mikro	-10.6847
▁SA	-10.685
▁est	-10.6853
▁Ċipru	-10.6857
▁sostnut	-10.6861
▁nnotifikat	-10.6866
lità	-10.6868
niżżel	-10.6871
▁esportatur	-10.6874
▁1000	-10.6875
▁4.3	-10.6886
▁kopja	-10.6889
▁Miżuri	-10.6889
▁osservata	-10.6896
▁rreġistrati	-10.6899
▁infurmat	-10.6904
▁Wa	-10.6906
▁4.4	-10.6907
▁jinħolqu	-10.6907
diżabilità	-10.6908
▁kkunsidrata	-10.6909
maniġġ	-10.6915
▁speċifikament	-10.6919
▁71	-10.6925
istokk	-10.6928
Tkabbir	-10.6932
solidarjetà	-10.6934
Membri	-10.6935
detenturi	-10.6935
1994	-10.6935
1996	-10.6936
orju	-10.6937
▁nistgħu	-10.6938
▁deroga	-10.6939
FS	-10.694
dettall	-10.6942
▁Kotba	-10.6946
gassijiet	-10.695
ġene	-10.695
ażil	-10.6953
annimal	-10.6954
ħnieżer	-10.6956
▁tinforma	-10.696
viżi	-10.6963
▁Jeħtieġ	-10.6964
▁1.5	-10.6969
ormon	-10.6973
essi	-10.6975
▁settorjali	-10.6975
▁tgħaddi	-10.6977
RD	-10.6979
Knisja	-10.6982
KK	-10.6993
riassigurazzjoni	-10.6994
etil	-10.6994
▁twaqqaf	-10.6997
▁iddeċieda	-10.6998
▁netwerks	-10.7002
kondizzjoni	-10.7007
▁Or	-10.7011
tilqim	-10.7011
010	-10.7012
▁speċi	-10.7014
▁jkomplu	-10.7017
integrità	-10.7019
▁Ħafna	-10.7019
insulina	-10.7022
numer	-10.7022
▁rċevew	-10.7023
▁problema	-10.7028
aqqa	-10.703
▁integrata	-10.703
▁Rigward	-10.7031
▁aċċettabbli	-10.7031
▁jirrakkomanda	-10.7031
marki	-10.7036
▁immirat	-10.7036
▁ffinanzjati	-10.7039
kum	-10.7043
evol	-10.7051
flixkun	-10.7051
▁ibbażati	-10.7051
Proġett	-10.7052
▁permessi	-10.7054
ċirku	-10.7056
▁raġuni	-10.7057
fajls	-10.7059
▁elenkat	-10.7061
simplifikazzjoni	-10.7076
▁Com	-10.708
mien	-10.7083
razza	-10.7083
▁dannu	-10.7088
reqqa	-10.7088
waqt	-10.7093
▁jikkunsidraw	-10.7101
konferenza	-10.7104
▁Tali	-10.7105
▁imwettqa	-10.7106
COM	-10.7111
▁leġiżlazzjoni	-10.7111
▁bejniethom	-10.7113
▁tappoġġa	-10.7121
gran	-10.7122
tre	-10.7122
▁komponent	-10.7124
▁Total	-10.7124
▁notifikat	-10.7127
SD	-10.7131
pont	-10.7132
▁regolat	-10.7132
▁solvent	-10.7139
ESS	-10.7141
▁marittimu	-10.7143
▁talbiet	-10.7144
▁elettriċi	-10.7147
▁relattivament	-10.7149
▁ghal	-10.7151
▁jitneħħew	-10.7152
▁5.1	-10.7152
spe	-10.7156
anz	-10.7166
ċita	-10.7169
▁indikati	-10.717
vantaġġi	-10.7172
kunsinna	-10.7175
ispeċijiet	-10.718
▁Magni	-10.718
▁fibri	-10.7181
▁Speċi	-10.7182
▁ipo	-10.7184
▁nota	-10.7184
7%	-10.7186
▁jirriflettu	-10.7189
kampjuni	-10.7189
rad	-10.7192
evi	-10.7192
▁faċilitajiet	-10.7207
konċentra	-10.7208
cle	-10.7209
▁twissija	-10.7209
xandir	-10.7212
TP	-10.7212
▁aħħari	-10.7213
▁Ħa	-10.7215
▁bdiet	-10.7216
▁ppubblikat	-10.7218
▁bank	-10.722
▁Studji	-10.7221
ossidu	-10.7221
▁Fundamentali	-10.7224
▁komparabbli	-10.7224
hem	-10.7233
▁sseħħ	-10.7235
▁primarja	-10.7236
sie	-10.7238
daw	-10.7239
perjodi	-10.7239
▁mmirati	-10.724
▁600	-10.724
▁pjuttost	-10.724
▁impjegati	-10.7242
don	-10.7249
▁passi	-10.725
ħasil	-10.7252
proteina	-10.7253
motiv	-10.7261
▁tixtieq	-10.7261
piżijiet	-10.7264
firien	-10.7266
ixxa	-10.7272
BS	-10.7274
que	-10.7275
9%	-10.7281
Ġermaniż	-10.7282
HIV	-10.7283
ħwejjeġ	-10.7284
▁ishma	-10.7288
EE	-10.729
▁teħid	-10.729
salvataġġ	-10.7293
▁ħlasijiet	-10.7293
pur	-10.7294
▁Żvilupp	-10.7295
▁TAGĦRIF	-10.7297
▁jagħżlu	-10.7297
▁jiddaħħlu	-10.7297
▁teżisti	-10.7299
trasportaturi	-10.7301
▁Emenda	-10.7304
koerenza	-10.7305
▁Punt	-10.7305
provi	-10.7309
▁vitro	-10.7312
Tramuntana	-10.7313
introjtu	-10.7313
midja	-10.7316
ġurnata	-10.7317
500	-10.7318
▁parallel	-10.732
▁jikkonforma	-10.7325
OT	-10.7327
▁operatur	-10.7332
▁tiss	-10.7333
smigħ	-10.7339
sussidjarjetà	-10.7341
▁rati	-10.7344
▁74	-10.7346
Qafas	-10.7347
titjira	-10.7353
mark	-10.7355
investitur	-10.7359
▁Wieħed	-10.7364
jn	-10.7366
▁severa	-10.7369
▁introdotti	-10.737
▁modifikat	-10.7374
vaċċin	-10.7376
▁eliminat	-10.7378
non	-10.7381
▁impenjat	-10.7382
▁profitt	-10.7383
▁ikomplu	-10.7388
traċċa	-10.7388
iji	-10.7391
Persunal	-10.7396
▁ffirmat	-10.7397
disposizzjoni	-10.7398
▁affettwati	-10.7399
rikorrent	-10.74
CT	-10.7404
blu	-10.7405
oz	-10.7406
▁fissi	-10.7414
dal	-10.7414
ross	-10.7415
▁Livell	-10.7415
fikat	-10.7416
rotta	-10.7417
▁tiffaċilita	-10.7419
Servizzi	-10.7424
Isfel	-10.7427
Trattati	-10.7429
▁stipulata	-10.7431
▁Ħidma	-10.7433
addittiv	-10.7436
▁lilhom	-10.7441
▁bih	-10.7443
▁jqisu	-10.7445
▁2011.	-10.7447
▁komprensiva	-10.7449
▁raxx	-10.7449
▁aċidu	-10.745
▁mistoqsijiet	-10.7457
▁proċessi	-10.7458
reazzjonijiet	-10.7461
▁web	-10.7461
▁taġixxi	-10.7463
vul	-10.7464
▁sodisfaċenti	-10.7465
akkomodazzjoni	-10.7467
▁96	-10.747
▁tikkonforma	-10.7473
▁antidumping	-10.7473
azzjonisti	-10.7475
Impjiegi	-10.7476
▁infurzar	-10.7482
ML	-10.7483
▁klijenti	-10.7483
0000	-10.7484
rimborż	-10.7485
emp	-10.7485
▁Int	-10.7487
▁Grupp	-10.7491
▁mediċi	-10.7491
lha	-10.7494
▁relattiv	-10.7496
▁jirrigwardaw	-10.7499
▁jiddikjara	-10.7504
▁CI	-10.7504
.4.2	-10.7508
▁Val	-10.7512
▁ippubblikata	-10.7512
▁privata	-10.7512
▁iper	-10.7515
net	-10.7518
▁ġietx	-10.752
▁effikaċja	-10.752
ore	-10.7521
▁reċiproka	-10.7529
espożizzjoni	-10.753
PM	-10.7533
▁jikk	-10.7537
out	-10.7544
put	-10.7545
▁Nhar	-10.7546
▁67	-10.7548
▁jiddeċiedu	-10.7548
▁pilota	-10.7557
jekk	-10.7558
istima	-10.7564
▁proċedimenti	-10.7566
▁postijiet	-10.7566
paragun	-10.757
▁(6)	-10.7571
▁baġitarja	-10.7575
permess	-10.7579
/12	-10.758
Belt	-10.7583
ice	-10.7583
4%	-10.7586
▁2008,	-10.7595
stan	-10.7598
▁regolarment	-10.76
▁2010.	-10.7601
▁Kun	-10.7606
▁Għajnuna	-10.7609
our	-10.7613
▁pan	-10.7615
TM	-10.7616
tessuti	-10.7616
▁riforma	-10.7618
.1.1	-10.7619
ġun	-10.7619
trop	-10.7619
▁Tags	-10.762
▁konklużi	-10.7621
rappreżentant	-10.7622
▁estensiv	-10.7626
▁ikkawżat	-10.7626
.6.2	-10.7629
▁tinbeda	-10.763
▁proċedurali	-10.7631
kontrollur	-10.7633
pos	-10.7639
▁intrapriżi	-10.7643
nijiet	-10.7644
▁tittejjeb	-10.765
▁reġjuni	-10.7651
▁assoċjata	-10.7654
trasmissjoni	-10.7654
▁jeħ	-10.7657
▁tidde	-10.7658
Ir	-10.766
▁perċentwali	-10.7662
▁sfidi	-10.7666
▁107	-10.7666
▁baġitarji	-10.7667
omo	-10.7667
▁inkarigat	-10.767
kell	-10.7673
okkażjoni	-10.7674
Żgħażagħ	-10.7676
▁ipproċessat	-10.7676
avviż	-10.7679
tħassib	-10.7682
▁kkontrollati	-10.7683
▁żied	-10.7684
Viċi	-10.7687
skriv	-10.7694
hydro	-10.7698
▁jkompli	-10.7698
brejk	-10.7699
saħħitha	-10.77
tqabbil	-10.77
▁ammonti	-10.7702
hiex	-10.7706
De	-10.7712
osservazzjoni	-10.7714
▁2014.	-10.7723
▁CON	-10.7723
▁żdied	-10.7724
testi	-10.7729
▁km	-10.7729
▁imsejjaħ	-10.7734
▁leġiżlattivi	-10.7738
waqqaf	-10.7742
▁attakk	-10.7745
diskussjonijiet	-10.7747
deheb	-10.7748
umab	-10.7749
FC	-10.7749
immodifika	-10.7756
traspożizzjoni	-10.7758
OD	-10.776
▁Dik	-10.7761
kollaborazzjoni	-10.7763
▁tirri	-10.7763
▁Online	-10.7767
fus	-10.7767
komponent	-10.7768
▁Valutazzjoni	-10.777
▁ppjanat	-10.7773
Ewropej	-10.7774
▁69	-10.7774
otti	-10.7782
▁Materjal	-10.7784
elettro	-10.7786
żgħar	-10.779
Kontroll	-10.7801
▁intenzjonat	-10.7802
▁2015,	-10.7803
aċċettazzjoni	-10.7804
jja	-10.7804
▁ruħha	-10.7807
▁Tagħmir	-10.7809
▁Proposta	-10.7817
Franċiż	-10.782
erti	-10.7822
▁jeżamina	-10.7822
▁tneħħi	-10.7825
▁jitħallsu	-10.7829
produttività	-10.7829
▁tikkonkludi	-10.7831
Ajru	-10.7832
▁akkumpanjat	-10.7835
▁sforzi	-10.784
▁riżerva	-10.7842
▁separata	-10.7843
▁2.5	-10.7843
vultaġġ	-10.7844
ġenti	-10.7846
▁sottostanti	-10.7851
oo	-10.7853
▁xiri	-10.7859
▁disturbi	-10.786
fjuwils	-10.7861
▁definita	-10.7862
▁lesti	-10.7865
EPAR	-10.7869
▁adattat	-10.7877
yn	-10.7883
IJA	-10.7886
▁jtejbu	-10.7889
Baxxi	-10.7889
▁tgħid	-10.7889
▁wriet	-10.7889
pulmun	-10.7893
▁Tużax	-10.7895
▁inċiż	-10.7898
▁Barranin	-10.7898
▁jaqbżu	-10.79
▁sever	-10.7905
plaċebo	-10.7911
sej	-10.7913
▁żgħażagħ	-10.7913
6%	-10.7915
▁funzjonali	-10.7917
ane	-10.7921
▁konċernati	-10.7922
proteini	-10.7926
▁tħallas	-10.7928
WTO	-10.7929
pulizija	-10.7931
LE	-10.7932
▁xjentifiku	-10.7935
Korp	-10.7937
ose	-10.794
separazzjoni	-10.7944
deskrizzjoni	-10.7946
▁tagħlim	-10.7952
ble	-10.7953
▁intellettwali	-10.7953
tent	-10.7954
istorja	-10.7955
kit	-10.7956
▁jseħħ	-10.7956
Titoli	-10.7958
iera	-10.7959
passiv	-10.7963
traffikar	-10.7964
▁ritonavir	-10.7967
ey	-10.7973
kra	-10.7973
ballun	-10.7975
▁trażmissjoni	-10.7976
▁rieżami	-10.798
ritratt	-10.7982
▁Op	-10.7984
aci	-10.7989
ska	-10.7991
EV	-10.7992
▁Komp	-10.7993
BB	-10.7996
▁jitħallew	-10.7998
▁barranija	-10.7998
▁jikkooperaw	-10.7998
▁varjabbli	-10.8
▁Liġi	-10.8002
▁Komunikazzjoni	-10.8004
▁kundizzjoni	-10.8006
vjolenza	-10.8009
komunitajiet	-10.8009
flessibbiltà	-10.8011
▁kunfidenzjali	-10.8012
▁assenjat	-10.8012
▁osservazzjoni	-10.8013
▁oġġett	-10.8015
▁operattiv	-10.8015
▁jikkawżaw	-10.8017
▁IX	-10.802
▁spazju	-10.802
Mo	-10.8023
Eurostat	-10.8028
▁żgurati	-10.8029
ispezzjoni	-10.803
kontroparti	-10.8036
▁mitlub	-10.804
▁jikkorrispondi	-10.804
ATI	-10.8043
▁04	-10.8044
▁maġġuri	-10.8045
għam	-10.8046
▁Kapitolu	-10.8046
BĊNi	-10.8048
ade	-10.8056
▁NM	-10.8061
▁struttura	-10.8065
formulazzjoni	-10.8066
istrateġiji	-10.8067
lew	-10.8069
xogħlijiet	-10.807
VI	-10.8072
primjum	-10.8072
SF	-10.8076
sejħiet	-10.8076
▁jaqbel	-10.8081
imballaġġ	-10.8083
garanziji	-10.8084
▁jikkonsistu	-10.8085
duttur	-10.8086
▁enfasizzat	-10.8086
1).	-10.8088
tarbija	-10.8089
IŻ	-10.809
▁iwassal	-10.8091
▁ħalq	-10.8093
ħares	-10.8096
▁sessjoni	-10.8099
▁[6]	-10.8099
ters	-10.8104
esportatur	-10.8109
(9)	-10.811
▁titjieb	-10.811
▁jaqa	-10.8111
fergħa	-10.8112
tqala	-10.8115
SU	-10.8116
ditta	-10.8119
sentenzi	-10.8119
rendiment	-10.812
▁ċelloli	-10.812
NG	-10.8121
kejjel	-10.8121
▁jirrifletti	-10.8122
farmakokinetika	-10.8124
jonijiet	-10.8129
olli	-10.813
▁kapsuli	-10.8131
▁tappoġġja	-10.8138
pett	-10.8138
▁neċessarja	-10.8139
▁kliewi	-10.8145
tilqima	-10.8145
materji	-10.8146
fittex	-10.8146
▁106	-10.8146
▁beda	-10.8146
▁jmorru	-10.8151
▁kontanti	-10.8155
borża	-10.8155
▁mono	-10.8156
▁itejbu	-10.8163
▁provviżorju	-10.8165
biċċiet	-10.8165
kumpannija	-10.8167
xerrej	-10.8167
ħas	-10.817
Pożizzjoni	-10.8171
titolizzazzjoni	-10.8171
eno	-10.8173
.7.2	-10.8175
aspett	-10.8179
▁komp	-10.818
AV	-10.8181
ball	-10.8183
ETT	-10.8183
ekonomiji	-10.8183
iber	-10.8184
bijodiversità	-10.8187
agh	-10.8187
▁89	-10.8201
rekord	-10.8207
▁jagħ	-10.8209
mara	-10.821
sekonda	-10.821
▁moviment	-10.8212
▁Qu	-10.8214
▁03	-10.8216
▁provvista	-10.8221
▁wassal	-10.8223
ferrovija	-10.8224
loġiċi	-10.8227
CHMP	-10.8227
Malti	-10.8228
▁logħob	-10.823
inġenji	-10.8233
▁tivvaluta	-10.8233
▁strateġiċi	-10.8236
▁109	-10.8236
▁setgħu	-10.8246
rilevanza	-10.825
denti	-10.8253
▁jitwaqqaf	-10.8256
▁estensjoni	-10.8257
▁innovazzjoni	-10.8259
riżervi	-10.8259
qbid	-10.826
.1.2	-10.8264
▁ħut	-10.8266
8%	-10.8267
▁Lista	-10.8268
▁jirreferi	-10.8269
affarijiet	-10.8273
Sorveljanza	-10.8275
ack	-10.8276
200	-10.8279
▁jinstab	-10.8281
IKA	-10.8286
DU	-10.8287
▁kawża	-10.8287
▁insuffiċjenza	-10.8288
▁konkreti	-10.8294
▁taqbeż	-10.8298
tenni	-10.83
▁strateġiji	-10.8302
Korea	-10.8303
nuqqasijiet	-10.8303
ssu	-10.8306
▁Pe	-10.8307
▁affettwat	-10.8311
▁governanza	-10.8311
agħar	-10.8314
▁tħassar	-10.8314
ħlief	-10.8315
migranti	-10.8318
▁2009.	-10.8318
uff	-10.8321
▁inaqqas	-10.8323
ken	-10.8324
▁terza	-10.8329
▁tidentifika	-10.833
jt	-10.8331
009	-10.8331
transazzjonijiet	-10.8332
pru	-10.8332
▁karti	-10.8332
▁involut	-10.8333
EST	-10.8334
▁jixtiequ	-10.8344
tnedija	-10.8344
▁awtomatiku	-10.8344
saldu	-10.8348
plika	-10.8348
▁nefħa	-10.8349
sla	-10.835
DĠ	-10.835
chi	-10.835
▁77	-10.8361
qligħ	-10.8362
Sikurezza	-10.8363
rabtiet	-10.8363
Jum	-10.8364
▁pożittiva	-10.8364
▁bikri	-10.8365
▁sħab	-10.8365
▁mudelli	-10.8366
koeżjoni	-10.8367
fuq	-10.8368
KON	-10.8369
bilita	-10.837
TEN	-10.8373
OC	-10.8375
prassi	-10.8375
għalliema	-10.8377
wisa	-10.8382
Diċembru	-10.8385
▁vertikali	-10.8388
fibra	-10.8391
▁baqa	-10.8392
Suppliment	-10.8393
faħam	-10.8396
▁talbet	-10.8396
▁valuri	-10.8398
liema	-10.84
tessut	-10.8406
▁pp	-10.8406
MENT	-10.8411
Ewwel	-10.8412
▁veterinarji	-10.8416
pagi	-10.8418
▁ttejjeb	-10.8419
▁qari	-10.8421
▁offruti	-10.8422
oloġiċi	-10.8423
Segretarjat	-10.8423
ejt	-10.8424
▁83	-10.8425
▁gassijiet	-10.8427
roaming	-10.8428
81	-10.8428
Reġjun	-10.8429
immigrazzjoni	-10.8432
matika	-10.8433
▁Investiment	-10.8434
▁rifless	-10.8436
her	-10.8438
aċet	-10.8438
▁volum	-10.8439
kwalita	-10.8441
tranżitu	-10.8442
▁jiffurmaw	-10.8442
ordnijiet	-10.8447
DS	-10.8449
Cmax	-10.8454
▁ħajjin	-10.8454
mol	-10.8455
▁urban	-10.8455
▁banek	-10.8457
Ministri	-10.8463
dipartiment	-10.8463
Azzjoni	-10.8467
folja	-10.847
▁nifs	-10.8471
▁żviluppata	-10.8474
▁jvarjaw	-10.8474
▁diffikultajiet	-10.8479
▁installat	-10.848
▁naqas	-10.8482
1.7	-10.8484
▁81	-10.8488
▁rkupru	-10.8489
▁ġiex	-10.8491
Forum	-10.8494
0,000	-10.8495
▁fissa	-10.85
▁Spanjol	-10.851
Awtorizzazzjoni	-10.851
▁dubju	-10.851
▁sensittività	-10.8515
likwidità	-10.8515
▁iwettaq	-10.852
ure	-10.8527
estratt	-10.8533
▁kandidati	-10.8533
82	-10.8536
▁sħaħ	-10.8536
▁multilaterali	-10.8536
▁jikseb	-10.854
riċiklaġġ	-10.8543
Kap	-10.8545
jenza	-10.8547
EFSA	-10.8549
bur	-10.8549
clo	-10.855
notifikata	-10.8551
assar	-10.8559
segment	-10.8561
▁RN	-10.8565
▁jevitaw	-10.8566
▁mikrogramma	-10.8569
abi	-10.8571
cro	-10.8577
mus	-10.8579
ejjaħ	-10.8582
legat	-10.8583
▁ngħatat	-10.8584
▁eżenzjoni	-10.8586
002	-10.8588
▁Koeżjoni	-10.8588
miss	-10.859
▁miksijin	-10.8591
labar	-10.8591
għandekx	-10.8591
▁82	-10.8593
1999	-10.8595
▁interpretat	-10.8598
rifużjoni	-10.8599
▁mandat	-10.8601
▁inhu	-10.8604
ulari	-10.8607
▁jaqsmu	-10.8608
asil	-10.8609
sinjali	-10.8609
notifiki	-10.8615
▁obbligatorja	-10.8615
inflazzjoni	-10.8617
▁rappreżentanti	-10.8618
waħda	-10.8619
rotot	-10.862
▁xahrejn	-10.8622
stat	-10.8622
▁esponiment	-10.8627
karozza	-10.8631
espressjoni	-10.8634
▁bażika	-10.8636
▁Applikazzjoni	-10.8637
▁mressqa	-10.8638
IST	-10.8641
▁plażma	-10.8642
▁jiffoka	-10.8643
infezzjoni	-10.8645
86	-10.8649
▁suspensjoni	-10.8651
▁Ġes	-10.8653
itx	-10.8654
▁attent	-10.8655
▁125	-10.8656
ajt	-10.8659
korporazzjoni	-10.8659
kisi	-10.866
▁xaħam	-10.8665
trans	-10.8668
▁minuti	-10.8668
wajer	-10.8669
▁tiddependi	-10.867
▁universali	-10.8672
▁trattati	-10.8672
▁korretta	-10.8677
egi	-10.8681
reġistri	-10.8686
softwer	-10.8686
olla	-10.8687
rina	-10.8687
porzjon	-10.8687
▁estiża	-10.869
konverġenza	-10.8691
ganċ	-10.8692
lett	-10.8693
pakketti	-10.8694
kariga	-10.8696
dwana	-10.8696
▁ippubblikat	-10.8701
▁terminu	-10.8703
▁bojod	-10.8703
▁iħaddem	-10.8706
idro	-10.8708
awto	-10.8708
▁EN	-10.8711
▁fiduċja	-10.8717
turiżmu	-10.8718
▁likwidu	-10.8718
riżerva	-10.8718
▁jeżisti	-10.8722
Kultura	-10.8725
▁tweġiba	-10.8726
▁kkonkludiet	-10.8727
▁idro	-10.8731
amenti	-10.8733
▁86	-10.8734
għodod	-10.8736
▁Reazzjonijiet	-10.8736
saqajn	-10.8737
▁Kont	-10.8738
Orizzont	-10.8739
akkwakultura	-10.8739
▁anzjani	-10.874
pu	-10.8741
▁konvenzjonali	-10.8742
▁teżamina	-10.8742
▁adatti	-10.8742
▁kal	-10.8745
▁Dwar	-10.8746
mor	-10.875
▁supplimentari	-10.8754
▁tintlaħaq	-10.8754
baħ	-10.8754
▁sinjal	-10.8755
glo	-10.8759
Kom	-10.876
▁kwoti	-10.8763
▁awtomatikament	-10.8763
risposta	-10.8764
forn	-10.8767
amministratur	-10.877
OECD	-10.8773
provvisti	-10.8773
▁organizzat	-10.8778
▁għalfejn	-10.8778
▁profil	-10.8778
▁manutenzjoni	-10.878
hand	-10.8781
2015	-10.8784
Missjoni	-10.8785
▁karta	-10.8785
ings	-10.8785
▁jinstabu	-10.8786
▁[1	-10.8791
91/	-10.8795
▁3.3	-10.8797
▁ħiliet	-10.8798
▁ANNESS	-10.8799
xenarju	-10.88
alkoħol	-10.88
▁rappreżentattiv	-10.8805
formati	-10.8805
▁labra	-10.8805
qies	-10.8806
preċiżjoni	-10.8808
inhuma	-10.8809
▁alkoħol	-10.8813
▁primarju	-10.8815
▁aċċettati	-10.8816
▁sitwazzjonijiet	-10.8817
▁inaqqsu	-10.8821
▁ordni	-10.8826
▁jikkorrispondu	-10.8829
▁reġistrat	-10.8832
▁sewwa	-10.8837
PV	-10.8843
volumi	-10.8845
IMI	-10.8847
▁ħafif	-10.8849
▁Evoluzzjoni	-10.8851
sessi	-10.8854
▁jixtieq	-10.8854
tweġibiet	-10.8856
▁evalwati	-10.8857
▁żejt	-10.8857
imposta	-10.8857
▁bijoċidali	-10.8858
melħ	-10.886
▁qalet	-10.8861
▁sekondarju	-10.8863
sejħa	-10.8866
▁saħansitra	-10.8866
▁pur	-10.8867
▁78	-10.8868
▁garantit	-10.8869
▁2.3	-10.8871
▁Sistemi	-10.8876
▁Studju	-10.8876
kosta	-10.8877
▁esportazzjoni	-10.8877
lab	-10.8881
rite	-10.8882
labra	-10.8894
▁tressaq	-10.8895
▁farmako	-10.8896
VE	-10.8897
ejk	-10.8897
▁iebsa	-10.8902
▁jitqiegħdu	-10.8902
▁Valur	-10.8903
▁jgħid	-10.8904
▁teknoloġija	-10.8908
008	-10.891
▁vot	-10.8912
▁GĦAL	-10.8914
▁tint	-10.8915
▁tirrappreżenta	-10.8917
▁1.3	-10.8921
▁espożizzjoni	-10.8922
SIS	-10.8923
▁japprova	-10.8924
▁Kemm	-10.8925
parir	-10.8925
AF	-10.8929
Assi	-10.893
à	-10.8932
▁Bħal	-10.8933
▁Appoġġ	-10.8934
▁ladarba	-10.8935
limitazzjonijiet	-10.8937
rekords	-10.8938
▁limiti	-10.894
▁stretti	-10.8941
jed	-10.8941
▁rikonoxxut	-10.8941
▁ħfief	-10.8942
isport	-10.8944
▁taxxabbli	-10.8946
bir	-10.8948
provvediment	-10.8952
▁jindirizza	-10.8961
ħabba	-10.8963
▁ħadet	-10.8963
▁Politika	-10.8965
▁proprja	-10.8966
dijametru	-10.8967
▁European	-10.8968
▁ekonomija	-10.8973
cum	-10.8974
▁iddisinjat	-10.8977
▁potenzjalment	-10.8982
riċevitur	-10.8984
▁ffissat	-10.8984
▁artifiċjali	-10.8986
▁iffirmat	-10.8986
▁ingħata	-10.8988
▁offerti	-10.8989
▁ġisem	-10.8991
▁jfisser	-10.8994
▁Inti	-10.8995
▁ekwi	-10.8996
▁jappoġġjaw	-10.9001
kelma	-10.9006
able	-10.9011
iskala	-10.9015
gon	-10.9018
▁ħadd	-10.9019
agonist	-10.902
indikazzjoni	-10.9023
▁Mudell	-10.9023
III	-10.9025
▁Poli	-10.9031
▁Madanakollu	-10.9033
▁integrazzjoni	-10.9035
network	-10.9038
vapuri	-10.9039
▁xkiel	-10.9041
▁studenti	-10.9043
saħħtu	-10.905
vis	-10.9052
ċittadinanza	-10.9055
Ġunju	-10.9057
opera	-10.9057
roga	-10.9058
ny	-10.9059
finali	-10.9063
missjonijiet	-10.9064
invest	-10.9064
▁Nor	-10.9068
rieda	-10.907
forzi	-10.9072
kemm	-10.9073
sessjoni	-10.9075
foresti	-10.9077
ċja	-10.9077
▁jmur	-10.908
klassifika	-10.9087
iba	-10.909
▁indikattiv	-10.9098
▁deni	-10.9099
▁jibgħat	-10.91
tekniki	-10.9101
▁kostanti	-10.9101
▁sezzjonijiet	-10.9106
zjonijiet	-10.9108
trasportatur	-10.9108
▁Du	-10.9109
fehmiet	-10.9111
glu	-10.9111
▁DWAR	-10.9113
irkant	-10.912
its	-10.912
▁superviżorja	-10.9121
▁hawnhekk	-10.9125
ħxuna	-10.9126
▁ppubblikata	-10.9126
▁ikopri	-10.9129
▁kapsula	-10.9129
już	-10.913
Baġit	-10.9132
▁jiddependu	-10.9133
korruzzjoni	-10.9133
▁tneħħija	-10.9135
zju	-10.9135
▁Permanenti	-10.9136
sse	-10.9138
▁selettiv	-10.914
▁mniżżla	-10.9141
▁msemmijin	-10.9142
iskejjel	-10.9144
▁inċentivi	-10.9146
publi	-10.9148
▁2013.	-10.915
▁rita	-10.9151
/100	-10.9152
Papa	-10.9152
pajpijiet	-10.9153
batterija	-10.9155
siġill	-10.9156
waqqfu	-10.9162
razz	-10.9163
▁tnejn	-10.9165
sensiela	-10.9166
▁jappoġġaw	-10.9166
trapjant	-10.9167
FF	-10.9169
sodisfazzjon	-10.917
ale	-10.917
▁temporanji	-10.9176
▁organiċi	-10.9176
▁ghall	-10.9176
dy	-10.9179
sidien	-10.9181
wieħed	-10.9182
ratifika	-10.9183
sjoni	-10.9184
amide	-10.9185
▁jispjega	-10.9187
▁Sol	-10.9187
▁minsuġ	-10.9188
▁inkorporat	-10.9192
▁aġenti	-10.9194
Ministru	-10.9195
ction	-10.9197
%).	-10.9199
ibbiltà	-10.9199
▁tikkon	-10.92
loġiku	-10.9207
diffikultajiet	-10.9209
▁IR	-10.9211
▁Annwali	-10.9216
sussidjarji	-10.9223
▁fuck	-10.9226
▁mistiedna	-10.9226
▁fornitur	-10.9228
▁jemendaw	-10.9229
evoluzzjoni	-10.9229
inċentiv	-10.9233
▁Delegat	-10.9235
PAK	-10.9239
▁pjanijiet	-10.9243
niku	-10.9244
gy	-10.9246
PD	-10.9247
▁klieb	-10.9248
aġenti	-10.9249
▁Afrikan	-10.925
▁bankarji	-10.9255
oxa	-10.9256
1992	-10.9257
DF	-10.9258
▁klinikament	-10.9259
9)	-10.926
▁penali	-10.9263
sostenn	-10.9263
kati	-10.9264
▁illum	-10.9267
IO	-10.9269
pul	-10.9269
ffa	-10.927
ISO	-10.9274
unika	-10.9275
▁elettrika	-10.9277
enzjali	-10.9277
implikazzjoni	-10.9284
▁aġġornat	-10.9287
ammin	-10.9288
▁kriżi	-10.9289
demokrazija	-10.929
gura	-10.9295
libera	-10.9295
uffiċċji	-10.9295
kontenitur	-10.9298
▁GĦANDU	-10.93
sussidju	-10.9303
frekwenzi	-10.9305
mp	-10.9306
entrati	-10.9308
lott	-10.9309
qabdiet	-10.9309
▁Dikjarazzjoni	-10.931
▁għaddejjin	-10.9311
▁jirre	-10.9311
dipendenza	-10.9314
żja	-10.9318
▁protetta	-10.9318
▁ambizzjuż	-10.9318
tindif	-10.932
▁Tnaqqis	-10.9326
ING	-10.9327
cus	-10.9329
▁Għadd	-10.933
▁interim	-10.9339
tba	-10.9341
▁serje	-10.9341
▁tispeċifika	-10.9341
nol	-10.9342
▁Manifattura	-10.9343
▁kompetenza	-10.9344
ċelluli	-10.9351
kombustjoni	-10.9351
ostakoli	-10.9352
ġurisprudenza	-10.9354
▁jiddeterminaw	-10.9357
▁kompost	-10.9362
▁twila	-10.9362
Teknoloġija	-10.9367
kuntrarju	-10.9367
AW	-10.9368
ekwipaġġ	-10.9369
▁Ġie	-10.937
Arti	-10.9371
Os	-10.9372
▁huwiex	-10.9373
kalċju	-10.9374
▁mtejba	-10.938
▁tonqos	-10.938
▁xott	-10.938
▁jeżerċitaw	-10.9381
Reġistru	-10.9382
▁minuri	-10.9384
▁daħal	-10.9385
ISTA	-10.9387
iżgurar	-10.9387
▁nstab	-10.9388
ban	-10.9389
▁Mod	-10.939
▁frekwenti	-10.939
▁progressiv	-10.9391
istrutturi	-10.9395
kompartiment	-10.9398
▁Jo	-10.9399
▁Kontroll	-10.9399
prov	-10.9404
▁total	-10.9404
interoperabbiltà	-10.9408
▁1998	-10.9409
mudelli	-10.941
elezzjonijiet	-10.9414
liku	-10.9417
▁jidentifikaw	-10.942
remunerazzjoni	-10.9421
kazzjoni	-10.9421
▁ikopru	-10.9423
▁laqgħat	-10.9426
It	-10.9426
.5.2	-10.9426
▁maż	-10.9428
orji	-10.9431
▁ġudizzjarji	-10.9431
COD	-10.9432
▁ddeċidiet	-10.9434
▁iffinanzjat	-10.9437
▁Gu	-10.944
ittri	-10.944
pra	-10.944
▁jitħalla	-10.9443
Logħob	-10.9447
immigranti	-10.9449
▁żgur	-10.9449
Informazzjoni	-10.945
rett	-10.9454
▁miftiehma	-10.9457
ġid	-10.9457
▁kompetittiv	-10.9459
broadband	-10.946
▁jintbagħtu	-10.9462
▁Imp	-10.9466
gro	-10.9468
ħjut	-10.9469
istonku	-10.947
▁sforz	-10.9471
▁jien	-10.9473
▁ssaħħaħ	-10.9478
RT	-10.9483
▁gradwali	-10.9484
▁eżaminati	-10.9484
▁żball	-10.9485
▁jafu	-10.9488
▁amministrat	-10.9489
App	-10.9491
wara	-10.9491
▁Taħt	-10.9494
▁Kategorija	-10.9496
biet	-10.9498
▁promoss	-10.9498
impożizzjoni	-10.9499
▁tossiċità	-10.9499
Ottubru	-10.95
finanzja	-10.9501
dom	-10.9504
▁differenzi	-10.9504
ood	-10.9506
▁tiffoka	-10.9507
▁differenza	-10.951
bosta	-10.9512
izzaw	-10.9513
▁ruħu	-10.9513
▁jixtru	-10.9513
ZZ	-10.9518
ordina	-10.9519
juri	-10.9523
ring	-10.9527
▁kwantitattiv	-10.9527
▁bastiment	-10.9527
moduli	-10.9528
BE	-10.9528
intensità	-10.953
▁Kor	-10.953
ħajt	-10.9533
▁konċentrat	-10.9534
riċerkaturi	-10.9535
KU	-10.9535
ħtieġ	-10.9536
imkien	-10.954
▁inibituri	-10.9543
esperjenzi	-10.9548
Islanda	-10.9548
tajers	-10.9555
▁2016,	-10.9556
Ukraina	-10.9561
▁safejn	-10.9562
▁qligħ	-10.9562
5).	-10.9567
qajjem	-10.9569
▁ippreżentat	-10.9569
esplora	-10.957
▁Rekwiżiti	-10.9573
eku	-10.9574
saħħ	-10.9575
limitazzjoni	-10.9577
▁regolamenti	-10.9579
▁Doganali	-10.958
▁temperatura	-10.958
▁tipprevedi	-10.9582
sjieda	-10.9582
jetà	-10.9584
tolleranza	-10.959
▁Franċiżi	-10.9593
▁armi	-10.9594
riproduzzjoni	-10.9596
▁ġustifikat	-10.9596
Dikjarazzjoni	-10.9599
direttivi	-10.9602
radjazzjoni	-10.9603
▁rimedju	-10.9603
▁kum	-10.9605
▁tiddetermina	-10.9606
attur	-10.9607
/2001	-10.9608
▁Ass	-10.9609
bul	-10.9612
konsolidazzjoni	-10.9614
rika	-10.9615
ikbar	-10.9615
▁jinnotifikaw	-10.9618
▁jirreferu	-10.9619
▁pariri	-10.9619
burg	-10.9621
STI	-10.9622
own	-10.9627
nor	-10.9628
Istandard	-10.9639
▁Diġitali	-10.964
bniet	-10.9641
▁strateġiku	-10.9646
denza	-10.9651
▁2012.	-10.9651
▁kkalkolat	-10.9654
▁IS	-10.9659
▁maħruġ	-10.966
LO	-10.966
sing	-10.9662
swa	-10.9663
kunfidenzjalità	-10.9664
żjut	-10.9673
▁għandna	-10.9674
▁Home	-10.9674
▁JEW	-10.9679
▁skrutinju	-10.968
▁awdjoviżiv	-10.968
▁Ter	-10.9681
riħ	-10.9681
▁leġiżlattiva	-10.9684
▁volontarja	-10.9686
▁irregolari	-10.9688
ilħuq	-10.9692
▁jikkonferma	-10.9697
▁depożiti	-10.9701
▁TAS	-10.9702
▁ġenwin	-10.9704
▁impjegat	-10.9709
kawtela	-10.9709
▁obbligatorju	-10.9709
1),	-10.9711
▁jiffaċilita	-10.9713
angolu	-10.9713
rav	-10.9718
fran	-10.9719
prospetti	-10.9722
indikatur	-10.9724
▁avviż	-10.973
▁tqala	-10.9733
Prodotti	-10.9733
▁jaqbiżx	-10.9736
▁esposti	-10.9736
▁103	-10.9737
tiswija	-10.9739
partita	-10.974
▁magħżul	-10.974
dannu	-10.9741
emissjoni	-10.9744
prospett	-10.9745
rakkomanda	-10.9753
Gżejjer	-10.9754
distinzjoni	-10.9757
Istitut	-10.9757
▁Malti	-10.9757
(10)	-10.9761
kumpanniji	-10.9763
▁aġġornati	-10.9763
taqsam	-10.9763
▁Issa	-10.9764
▁ikk	-10.9765
ive	-10.9767
validazzjoni	-10.9768
▁doppju	-10.977
Direttorat	-10.9771
jenti	-10.9771
▁Bla	-10.9773
Kostituzzjoni	-10.9776
Olanda	-10.9781
urġenza	-10.9784
▁sejħa	-10.9786
għandu	-10.9787
▁materja	-10.9789
varjetà	-10.979
dixxiplina	-10.9792
▁101	-10.9793
▁investigat	-10.9797
ħaddiem	-10.9801
▁indirizzat	-10.9802
soli	-10.9804
listi	-10.9804
Ġappun	-10.9805
viċin	-10.9806
Europol	-10.9811
CCP	-10.9811
dahar	-10.9812
3/2009	-10.9813
▁kliem	-10.9817
▁tmien	-10.9823
▁mor	-10.9823
▁91/414/	-10.9824
▁frott	-10.9826
ace	-10.9828
rapportar	-10.9829
pot	-10.9829
kontropartijiet	-10.9829
mistoqsija	-10.983
Kont	-10.9833
Asja	-10.9839
▁ittra	-10.9841
▁sanzjonijiet	-10.9851
▁kompetittiva	-10.9854
▁jitjieb	-10.9854
▁jidentifika	-10.9854
izzati	-10.9855
ispezzjonijiet	-10.9858
tossiċità	-10.986
titjiriet	-10.986
▁bdew	-10.9861
▁Sub	-10.9861
qis	-10.9861
Erasmus	-10.9862
IAS	-10.9867
saff	-10.9867
karburant	-10.9868
għti	-10.9872
▁jġib	-10.9873
ish	-10.9876
▁Operatur	-10.9878
avukat	-10.9879
domin	-10.9883
għoli	-10.9884
▁2015.	-10.9885
▁tikkawża	-10.9885
iskoperturi	-10.9886
▁jonqsu	-10.9894
▁Art	-10.9896
pilloli	-10.9897
CSD	-10.9901
avvenimenti	-10.9902
▁dovuti	-10.9904
PVC	-10.9904
1998	-10.9905
iffrankar	-10.9909
qalba	-10.991
▁Illum	-10.9911
krom	-10.9911
▁dożaġġ	-10.9912
▁jitħallas	-10.9913
▁1.4	-10.9915
ingredjenti	-10.9916
ippakkjar	-10.9916
ling	-10.9916
▁evalwat	-10.9918
▁tibgħat	-10.9919
gur	-10.9927
▁HIV	-10.9928
reżistenza	-10.9933
zzi	-10.9936
▁benefiċjarji	-10.9937
ence	-10.9938
▁preċiża	-10.9939
▁pakketti	-10.9943
Persuni	-10.9943
▁5.3	-10.9945
▁Grad	-10.9945
▁rċeviet	-10.9949
tenti	-10.995
privileġġ	-10.9951
NZ	-10.9952
▁jiltaqa	-10.9954
▁aċċessorji	-10.9964
ener	-10.9965
▁miżmum	-10.9966
▁tirrapporta	-10.9968
estrazzjoni	-10.997
noti	-10.9971
▁solidu	-10.9971
▁ttieħdu	-10.9973
depożit	-10.9976
▁Finanzjarja	-10.9981
metaboliżmu	-10.9981
kiri	-10.9982
iżjed	-10.9983
lina	-10.9987
Afganistan	-10.999
protokoll	-10.999
▁doppja	-10.999
▁għażliet	-10.999
▁reżistenti	-10.999
cent	-10.9992
011	-10.9998
▁mibdul	-11.0008
majjal	-11.0008
tossiċi	-11.002
▁Konsultattiv	-11.0023
▁wasslu	-11.0025
▁siti	-11.0026
idine	-11.0026
potenza	-11.0028
Sustanzi	-11.0028
tagħha	-11.003
osta	-11.0031
inibitur	-11.0031
▁dovuta	-11.0039
kif	-11.004
conazole	-11.0042
normal	-11.0043
▁koeżjoni	-11.0048
▁sostituzzjoni	-11.0048
izz	-11.0048
għodda	-11.0052
▁falliment	-11.0054
nov	-11.0054
kartun	-11.0057
għoxrin	-11.0058
agu	-11.0061
▁kultant	-11.0064
▁Pakkett	-11.0064
▁ġestit	-11.0064
▁biha	-11.0068
kampanja	-11.0071
Ħadd	-11.0074
▁Bar	-11.0074
▁nru	-11.0076
▁bikrija	-11.0076
kloro	-11.0078
ves	-11.008
eżempji	-11.008
xejriet	-11.008
ċell	-11.0081
▁skoperturi	-11.0083
mitigazzjoni	-11.0083
istħarriġ	-11.0086
▁tħossok	-11.0086
▁analizzat	-11.009
▁jirrispettaw	-11.009
ark	-11.0096
▁Żieda	-11.01
▁Referenza	-11.0105
dam	-11.0106
▁bogħod	-11.0107
humiex	-11.0107
GR	-11.011
▁ċċarat	-11.0111
tran	-11.0114
Aċċess	-11.0116
ċereali	-11.0116
bis	-11.0117
sħab	-11.012
ħtiġiet	-11.0122
segwitu	-11.0122
ieda	-11.0123
▁jib	-11.0123
▁sospiż	-11.0125
nder	-11.0125
▁[2],	-11.0126
▁mibjugħ	-11.0127
▁reżistenza	-11.0128
OV	-11.013
▁importati	-11.0131
kata	-11.0132
▁ikkonfermat	-11.0133
idea	-11.0134
istituzzjonali	-11.0136
▁segwita	-11.0137
▁żviluppi	-11.0139
kunflitti	-11.0139
intervall	-11.014
▁Standard	-11.0144
sieħeb	-11.0144
▁(0.	-11.0145
▁dipendenti	-11.0145
▁JIDHER	-11.0147
▁jikber	-11.0149
Slovakkja	-11.0151
▁infjammazzjoni	-11.0154
ħxejjex	-11.0155
▁maħduma	-11.0156
▁metformin	-11.0158
Amministrazzjoni	-11.0158
parteċipant	-11.0159
ach	-11.016
▁180	-11.016
▁speċijiet	-11.016
▁strutturat	-11.0161
▁stampa	-11.0161
żerriegħa	-11.0163
▁mehmuż	-11.0163
▁spe	-11.0166
(3)(	-11.0167
▁derivati	-11.0167
kompatibbiltà	-11.0169
3).	-11.0173
pjattaformi	-11.0175
Kanada	-11.0175
▁ħġieġ	-11.0194
▁jittrattaw	-11.0199
kriżijiet	-11.0202
Riskju	-11.0203
▁maħtura	-11.0204
▁mL	-11.0204
▁PAKKETT	-11.0204
▁jevalwa	-11.0206
aġġornament	-11.0208
mid	-11.0212
▁Żid	-11.0217
▁ċertifikati	-11.0221
▁indirettament	-11.0221
konfront	-11.0226
▁inkorporati	-11.0226
kunflitt	-11.0227
qatt	-11.023
Assemblea	-11.023
▁żdiedu	-11.0232
▁likwidità	-11.0234
erna	-11.0235
reklamar	-11.0236
▁rappreżentant	-11.0237
rota	-11.0237
▁jitneħħa	-11.0239
qerda	-11.0239
poplu	-11.0242
Liechtenstein	-11.0244
▁tariffi	-11.0245
▁enerġetika	-11.0247
▁diskuss	-11.0248
lura	-11.0251
▁Strutturali	-11.0253
SEBĊ	-11.0253
▁negozjati	-11.0254
klassijiet	-11.0254
▁nuqqasijiet	-11.0254
ajjar	-11.0257
eliġibbiltà	-11.0259
tollera	-11.0259
▁mħallsa	-11.027
load	-11.0273
kontenituri	-11.0275
▁gravi	-11.0276
▁Vol	-11.0277
oro	-11.0277
partiti	-11.028
▁spjegazzjoni	-11.0281
▁beta	-11.0283
kosti	-11.0285
▁Konsegwentement	-11.0289
450	-11.029
▁konnessi	-11.0291
▁NB	-11.0291
mużika	-11.0292
▁organizzati	-11.0298
▁biċ	-11.0298
▁aġġornament	-11.0298
▁ġusta	-11.03
▁Federali	-11.0301
▁stħarriġ	-11.0301
▁FL	-11.0303
trażżin	-11.0304
▁kronika	-11.0306
hor	-11.0309
▁koperta	-11.0311
suġġetti	-11.0312
marġini	-11.0312
Metodu	-11.0315
▁domestika	-11.0318
għatu	-11.0324
▁mmonitorjat	-11.0326
▁futura	-11.0327
▁Amministrattiv	-11.0329
▁inġenji	-11.033
▁postali	-11.033
Annimali	-11.0332
▁integrali	-11.0332
Għajnuna	-11.034
▁indaqs	-11.034
carb	-11.0343
abine	-11.0345
▁ISO	-11.0346
ign	-11.0348
plo	-11.0355
għasafar	-11.0355
▁sostitwita	-11.0356
▁obbligatorji	-11.0357
▁sussegwentement	-11.036
HR	-11.0361
▁produttur	-11.0362
▁av	-11.0365
awwar	-11.0366
▁tilqa	-11.0369
▁2(	-11.0373
▁Mer	-11.0375
▁strutturi	-11.0377
Atlantiku	-11.0377
klieb	-11.0381
▁trombo	-11.0382
HU	-11.0384
indika	-11.0387
kulari	-11.039
less	-11.0393
▁espressa	-11.0393
▁ippreżentati	-11.0394
qui	-11.0394
Faċilità	-11.0394
▁opportunità	-11.0397
Isvezja	-11.04
▁bankarju	-11.0401
segwenti	-11.0403
ħatt	-11.0403
▁Liżbona	-11.0406
karburanti	-11.0408
kien	-11.0409
▁tikber	-11.0413
attivazzjoni	-11.0414
▁ikkuntattja	-11.0417
▁teknoloġiċi	-11.0423
▁[7]	-11.0423
pussess	-11.0423
naqqas	-11.0423
Garanzija	-11.0426
pjega	-11.0428
▁strateġika	-11.0429
ksib	-11.0433
terminazzjoni	-11.0436
▁offerta	-11.0436
▁GmbH	-11.0437
▁122	-11.0437
▁lesta	-11.0438
iso	-11.0439
fenil	-11.0442
ġugarell	-11.0443
▁iqisu	-11.0444
▁komplut	-11.0446
▁cm	-11.0451
▁imsemmijin	-11.0452
kbar	-11.0452
▁ittejjeb	-11.0457
▁tħalli	-11.0462
oxy	-11.0466
▁ikkontrollat	-11.0466
▁iżolat	-11.0469
Bejgħ	-11.0469
mant	-11.0471
▁Doża	-11.0471
ĠAI	-11.0471
qoxra	-11.0474
▁tessuti	-11.0475
polimer	-11.0475
adolexxenti	-11.0477
sinjal	-11.0479
agħtu	-11.0484
direttur	-11.0489
kompitu	-11.0491
lati	-11.0492
▁jgħodd	-11.0495
▁jimponi	-11.0495
bħala	-11.0496
ions	-11.0497
▁Ladarba	-11.0497
▁twal	-11.0498
bili	-11.0499
▁4.4).	-11.0502
TSO	-11.0504
▁rreġistrata	-11.0505
inte	-11.0509
link	-11.0509
Figura	-11.0519
▁fornut	-11.0519
▁rrapportati	-11.0524
▁effettivament	-11.0524
▁con	-11.0526
▁110	-11.0527
tapp	-11.053
Għażla	-11.0531
▁IP	-11.0534
libertajiet	-11.0535
▁pinna	-11.0536
ATT	-11.0536
▁chloride	-11.0538
▁rregolat	-11.0541
krediti	-11.0543
▁eskluż	-11.0544
kompetituri	-11.0545
otta	-11.0546
intermedjarji	-11.0546
▁Valletta	-11.0546
▁semi	-11.0548
vv	-11.055
żer	-11.0552
privatezza	-11.0553
biex	-11.0553
▁seħħew	-11.0553
KO	-11.0555
Kwalità	-11.0558
kombinazzjoni	-11.056
Bureau	-11.057
kredituri	-11.057
kontabbiltà	-11.0571
▁Kontenut	-11.0572
▁Ċiniż	-11.0573
oloġiku	-11.0575
IFRS	-11.0582
aċidi	-11.0582
▁Sakemm	-11.0582
▁immobbli	-11.0584
▁plenarja	-11.0584
otto	-11.0587
▁riċevut	-11.0589
▁Sar	-11.059
sinerġiji	-11.0593
ideat	-11.0605
▁projbizzjoni	-11.0607
tlestija	-11.061
probabbiltà	-11.061
▁indikata	-11.061
by	-11.0611
▁TAR	-11.0613
tubu	-11.0613
adegwatezza	-11.0617
▁ikkalkulat	-11.0617
gaw	-11.0622
▁ħażna	-11.0624
▁rkuprat	-11.0625
riċetta	-11.0625
▁instab	-11.0627
Awtoritajiet	-11.0628
Patt	-11.0631
▁3.5	-11.0633
Inizjattiva	-11.0636
ote	-11.0639
▁jiżviluppa	-11.0639
possibilità	-11.0639
▁tipproduċi	-11.0648
Erbgħa	-11.0648
ajr	-11.065
▁ippjanat	-11.0651
ġustifikazzjoni	-11.0652
tivi	-11.0652
ERA	-11.0655
▁Europe	-11.0655
karattru	-11.0663
▁topera	-11.0663
▁Viċi	-11.0665
▁titwaqqaf	-11.0674
ċidi	-11.0685
▁kkonsultat	-11.0686
ġja	-11.0688
telekomunika	-11.0691
▁2.4	-11.0691
▁marittima	-11.0692
▁rikonoxxuta	-11.0694
1993	-11.0695
▁Imma	-11.0697
▁ċatt	-11.0698
avvanz	-11.0699
multi	-11.07
▁lilha	-11.0701
▁intuża	-11.0706
CP	-11.0708
Euratom	-11.071
bdil	-11.0712
▁alia	-11.0712
trattur	-11.0714
Monitoraġġ	-11.0718
▁tevita	-11.0719
wasla	-11.0719
dubji	-11.0722
eżenzjonijiet	-11.0722
FSE	-11.0726
ros	-11.0727
abbar	-11.0727
▁folji	-11.0733
▁Pubbliku	-11.0733
▁iżomm	-11.0733
time	-11.0735
kwittanza	-11.0736
nomi	-11.0739
importatur	-11.074
▁separatament	-11.074
▁espress	-11.0742
▁tiddaħħal	-11.0742
profitti	-11.0743
edded	-11.0743
xemx	-11.0743
modalità	-11.0744
▁żidiet	-11.0745
ous	-11.0752
cal	-11.0753
▁edukattivi	-11.0755
006	-11.0757
▁jipproteġu	-11.076
▁ikompli	-11.0762
EW	-11.0763
▁depożitu	-11.0764
▁iseħħ	-11.0765
divulgazzjoni	-11.0766
▁tinstab	-11.0766
okkupa	-11.0768
esp	-11.0775
▁91	-11.0776
Tip	-11.0781
UT	-11.0781
fiċi	-11.0782
amine	-11.0784
prin	-11.0785
ammissjoni	-11.0787
▁testendi	-11.0787
▁Analiżi	-11.0788
rieżami	-11.0789
▁1(	-11.0789
004	-11.0791
diżabbiltà	-11.0793
mexxejja	-11.0794
għet	-11.0795
INN	-11.0796
ċenti	-11.0796
▁jiġri	-11.0807
▁spinta	-11.0807
▁validi	-11.081
orjentazzjoni	-11.0816
▁jifforma	-11.0816
TR	-11.0817
tabbilizzazzjoni	-11.0817
▁impost	-11.0819
TTIV	-11.0819
▁MT	-11.082
negozja	-11.0824
April	-11.0824
tarf	-11.0828
wirt	-11.0829
DO	-11.0832
jazzjoni	-11.0835
▁mgħaġġel	-11.0837
▁rimettar	-11.0837
▁Fost	-11.0843
8.2	-11.0843
jel	-11.0844
▁joriġina	-11.0848
▁koordinat	-11.0848
▁iswed	-11.085
kwe	-11.085
togħma	-11.0855
▁jintemm	-11.0856
isforz	-11.0857
Appell	-11.0857
Iran	-11.0859
▁foto	-11.086
▁Imbagħad	-11.0864
▁tippubblika	-11.0865
▁4.5	-11.0866
▁ċentri	-11.0868
▁jistieden	-11.087
arbi	-11.0872
▁res	-11.0879
ĊI	-11.0879
▁fsada	-11.0882
▁97	-11.0886
▁ingħatat	-11.0886
▁98/	-11.0886
▁rapportar	-11.0888
real	-11.0889
pari	-11.089
ċarezza	-11.0891
▁ġeo	-11.0894
ffu	-11.0897
bieb	-11.0898
ound	-11.0899
▁Pla	-11.0901
▁jiddetermina	-11.0902
modalitajiet	-11.0903
▁jippromwovi	-11.0905
Met	-11.0908
oxx	-11.0908
periklu	-11.0914
diżastri	-11.0914
▁restrizzjoni	-11.0917
iskopertura	-11.0918
▁Rurali	-11.0921
idrokarburi	-11.0924
▁kollateral	-11.0929
▁Sch	-11.093
fol	-11.0932
pel	-11.0935
▁pprojbit	-11.0936
disturb	-11.0936
▁jikkomunikaw	-11.0938
▁rivedut	-11.0942
riġ	-11.0949
▁jaslu	-11.0951
▁Flimkien	-11.0951
kjarifika	-11.0954
▁għotjiet	-11.0957
▁mibgħuta	-11.0958
▁ġġenerat	-11.096
▁korporattiva	-11.0961
dewmien	-11.0962
Id	-11.0962
elle	-11.0965
Brażil	-11.0966
▁Jin	-11.0969
voka	-11.0969
▁teknoloġiku	-11.0972
▁regolati	-11.0974
▁msieħba	-11.0976
ħażniet	-11.0978
▁kombinazzjoni	-11.0978
umdità	-11.0979
▁ifittxu	-11.0981
▁marittimi	-11.0981
rfu	-11.0983
▁part	-11.0983
▁para	-11.0985
rikk	-11.0985
Proċedura	-11.0986
uniku	-11.0989
▁jidhrux	-11.099
RP	-11.0994
/01	-11.0995
▁140	-11.0999
derogi	-11.0999
izzatur	-11.1001
▁strett	-11.1002
▁kompetittivi	-11.1006
▁approva	-11.1008
kondiviżjoni	-11.1009
▁suġġetta	-11.101
affidabbiltà	-11.1011
▁Ryanair	-11.1011
▁stampat	-11.1013
▁Delega	-11.102
▁infushom	-11.102
batterj	-11.1023
▁magħluqa	-11.1024
koli	-11.1024
▁jipproponi	-11.1026
membru	-11.1026
Agrikoltura	-11.1029
vapur	-11.1036
Pollakk	-11.1038
▁jopera	-11.1041
ETS	-11.1044
cer	-11.1045
law	-11.1049
ċikl	-11.1053
▁2009/1	-11.1055
▁ġenetikament	-11.1055
▁133	-11.1061
Tribunal	-11.1063
uċuħ	-11.1063
blokk	-11.1066
AETS	-11.1067
salva	-11.107
▁rispettiv	-11.1079
▁segwitu	-11.1079
▁identifikata	-11.1084
qamħ	-11.1084
ħaxix	-11.1084
abbuż	-11.1086
kmand	-11.1091
Kooperazzjoni	-11.1096
ġirien	-11.1096
klor	-11.1097
▁modifikati	-11.11
dehra	-11.11
▁ċerta	-11.1101
ulin	-11.1102
aċċident	-11.1106
▁hijiex	-11.1107
PER	-11.1109
entement	-11.1109
▁ngħata	-11.1114
7).	-11.1114
▁transnazzjonali	-11.1118
tratt	-11.1119
▁indiretti	-11.1122
Każ	-11.1122
stro	-11.1122
▁KON	-11.1125
ky	-11.113
Pajjiż	-11.1133
▁akkumpanjati	-11.1133
riv	-11.1134
dura	-11.1134
mula	-11.1137
▁determinati	-11.1138
▁Kan	-11.1142
ilsien	-11.1145
▁tirrifletti	-11.1145
▁AUC	-11.1152
sho	-11.1157
AUC	-11.1157
▁rikjest	-11.1157
Regola	-11.1158
▁notifikati	-11.1158
acc	-11.1164
trasferimenti	-11.1165
koeffiċjent	-11.1168
ART	-11.1168
iżvelar	-11.117
Konsumatur	-11.117
▁status	-11.1171
fejn	-11.1172
software	-11.1176
▁Jistgħu	-11.1179
▁We	-11.1184
tumur	-11.1185
Taħriġ	-11.1188
Avjazzjoni	-11.1191
Assigurazzjoni	-11.1197
▁ssib	-11.1202
Finanzi	-11.1204
deni	-11.1204
pm	-11.1204
relatur	-11.1205
kurrent	-11.1205
▁taċċetta	-11.1206
allerġiċi	-11.1207
jent	-11.1208
zon	-11.1212
▁spezzjonijiet	-11.1217
▁Ġew	-11.1221
▁komposti	-11.1223
ċiti	-11.1224
▁biż	-11.1227
▁baqgħu	-11.1228
▁Kaxxa	-11.1231
▁1234/2007	-11.1238
▁jipproduċi	-11.1238
tibdiliet	-11.124
ppja	-11.1241
idroġenu	-11.1241
kwestjonarju	-11.1241
idrat	-11.1241
▁he	-11.1241
iffirmar	-11.1244
▁eżerċitat	-11.1252
▁My	-11.1252
▁jillimitaw	-11.1255
▁trejner	-11.1259
▁Belġjan	-11.1262
Stat	-11.1265
tnissil	-11.1266
▁tix	-11.127
▁6.1	-11.1276
xellug	-11.1278
▁Finanzjarji	-11.1278
▁abbuż	-11.1278
▁Air	-11.1281
Mekkaniżmu	-11.1281
▁ferrovjarji	-11.1281
▁ħażina	-11.1281
distorsjoni	-11.1282
vor	-11.1286
tonn	-11.1289
ografija	-11.129
▁dinjija	-11.1293
▁iżidu	-11.1294
raz	-11.1297
MU	-11.1298
cur	-11.1302
▁korsijiet	-11.1303
ażol	-11.1305
president	-11.1305
infermier	-11.1306
▁jappoġġa	-11.1306
ekwivalenti	-11.1313
▁112	-11.1315
pretensjonijiet	-11.1315
Gran	-11.1318
fanal	-11.1319
passaġġ	-11.132
▁kombinat	-11.1322
▁4(1)	-11.1323
▁tikkonsulta	-11.1328
falliment	-11.133
▁Nota	-11.1333
nazzjonali	-11.1333
▁jiż	-11.1339
▁sommarju	-11.134
▁solari	-11.1346
003	-11.135
▁dinji	-11.1353
▁muri	-11.1353
.3.1	-11.1356
insolvenza	-11.1356
salvagwardji	-11.1356
IV	-11.1356
pompa	-11.1356
sten	-11.1357
▁distint	-11.1357
enzja	-11.1358
ġurnal	-11.1362
▁ippreparat	-11.1366
iskopijiet	-11.1366
kompli	-11.1369
▁governattiv	-11.1372
fid	-11.1378
▁antikorpi	-11.1386
liga	-11.1388
▁kalendarja	-11.1391
▁tiddikjara	-11.1391
aġġorna	-11.1393
▁ttestjar	-11.1394
▁speċjalizzati	-11.1396
kumitati	-11.1397
▁jixraq	-11.14
▁primarji	-11.1401
pdf	-11.1402
konsulenza	-11.1403
▁sturdament	-11.1403
▁dde	-11.1406
▁barrani	-11.1409
anġjo	-11.1409
▁iżżid	-11.141
▁Tan	-11.141
▁likwidi	-11.141
▁Pan	-11.141
inhi	-11.1411
VO	-11.1413
filament	-11.1416
▁esklussivament	-11.1421
▁riveduti	-11.1421
▁kata	-11.1423
▁AD	-11.1424
għajnuniet	-11.1428
żebbuġ	-11.1428
▁jipp	-11.1433
konnessjonijiet	-11.1436
▁joqgħod	-11.1438
▁tevalwa	-11.1438
ħażen	-11.1438
▁deskritta	-11.144
▁reati	-11.144
grav	-11.1441
▁jirrapportaw	-11.1442
▁jissorvelja	-11.1445
realtà	-11.1445
▁riveduta	-11.1448
▁Żomm	-11.145
isser	-11.1455
▁102	-11.1457
▁800	-11.1463
istokkijiet	-11.1464
għandek	-11.1464
tik	-11.1465
▁qasira	-11.1466
jonali	-11.1469
▁konsultattiv	-11.1474
▁jinfurmaw	-11.1476
▁nis	-11.1476
żwieġ	-11.1476
għeneb	-11.1476
▁tlett	-11.1479
▁rrapportat	-11.1481
▁jiffaċċjaw	-11.1482
kimoterapija	-11.1482
rimunerazzjoni	-11.1485
▁sejra	-11.1486
ENT	-11.1491
/22	-11.1494
Mar	-11.1495
▁bihom	-11.1496
nitroġenu	-11.1501
▁Ph	-11.1504
▁maqbul	-11.1505
frazzjoni	-11.151
▁Chi	-11.1511
tifi	-11.1511
ferroviji	-11.1511
Adeżjoni	-11.1511
▁5.2	-11.1513
1,000	-11.1516
▁jispeċifika	-11.1517
Data	-11.152
diskriminat	-11.1527
Banek	-11.1527
Impatt	-11.1532
▁enfasizza	-11.1533
tun	-11.1536
▁multiannwali	-11.1537
lemin	-11.154
▁anormali	-11.1541
epa	-11.1546
DR	-11.1547
qet	-11.1547
▁tieqaf	-11.1549
kolari	-11.1562
▁jsaħħu	-11.1565
▁jinħoloq	-11.1567
isfida	-11.1567
ADR	-11.1568
▁ivvaluta	-11.1575
Kuntratt	-11.158
isfond	-11.1586
emato	-11.1586
▁urew	-11.1587
▁2015/2	-11.1588
AKP	-11.1589
kanali	-11.1598
żur	-11.1599
▁aħmar	-11.1601
ĠĠ	-11.1601
▁mibdula	-11.1601
elezzjoni	-11.1602
▁manteniment	-11.1604
TUR	-11.1604
Novembru	-11.1605
ġer	-11.1606
part	-11.1607
DNA	-11.1611
Istituzzjonijiet	-11.1612
▁3.4	-11.1614
▁jitqiegħed	-11.1617
Inter	-11.1623
Karatteristiċi	-11.1623
▁jipprevjenu	-11.1623
vantaġġ	-11.1623
iffissar	-11.1633
żjieda	-11.1636
ISA	-11.1636
▁jirrikjedu	-11.1639
Dipartiment	-11.1639
magħruf	-11.1642
rist	-11.1648
ħinijiet	-11.1649
uġigħ	-11.1652
▁akuta	-11.1654
tbassir	-11.1659
▁Natura	-11.1659
▁PC	-11.1666
fergħat	-11.1666
▁104	-11.1668
▁medjan	-11.1669
enzimi	-11.1671
▁ferrovjarja	-11.1671
inċertezza	-11.1673
għażel	-11.1676
eqreb	-11.1678
▁spp	-11.1681
pinna	-11.1681
▁Għandek	-11.1684
▁Apparat	-11.1684
82/	-11.1685
Marzu	-11.1692
ntraprenditorija	-11.1694
imposti	-11.1697
settijiet	-11.1698
jur	-11.1698
qadd	-11.1702
▁oġġezzjoni	-11.1702
inali	-11.1703
orti	-11.1703
zzjon	-11.1705
▁preferenzjali	-11.1707
9).	-11.1708
tella	-11.171
▁tirr	-11.1713
▁metalli	-11.172
densità	-11.1723
istadji	-11.1725
fibri	-11.1725
▁jiġbru	-11.173
ħobb	-11.1731
Tfal	-11.1732
Punt	-11.1736
▁Ammont	-11.1736
eżitu	-11.1737
impenja	-11.1739
▁assolut	-11.1739
element	-11.1743
Moldova	-11.1746
▁jissaħħu	-11.1746
▁individwu	-11.1758
ċaqliq	-11.1762
▁espressi	-11.1763
▁proporzjonali	-11.1765
▁Dispożizzjoni	-11.1767
Isvizzera	-11.1769
xewqa	-11.1769
formoli	-11.1771
ġabra	-11.1771
▁vokazzjonali	-11.1772
aċċessibbiltà	-11.1772
▁114	-11.1773
Mejju	-11.1774
stin	-11.1774
films	-11.1774
rek	-11.1775
tkessiħ	-11.1775
▁severi	-11.1777
intervalli	-11.1781
nazzjonalità	-11.1784
▁160	-11.1787
web	-11.1787
konsulent	-11.1789
eng	-11.179
1/10	-11.1791
▁assenjati	-11.1791
▁innifsu	-11.1795
roll	-11.1795
passaport	-11.1799
fikati	-11.1801
▁jara	-11.1802
▁theddida	-11.1802
razzjonali	-11.1803
upp	-11.1804
jalment	-11.1806
Sħubija	-11.1811
▁ħarsa	-11.1815
▁Kontra	-11.1815
▁kumplessi	-11.1818
▁iżid	-11.1818
▁tirrigwarda	-11.1821
jonalment	-11.1823
ħaffef	-11.1825
qbil	-11.1825
Proposta	-11.1826
IMO	-11.1826
ċirkwit	-11.1828
TER	-11.1828
jit	-11.1829
▁575/2013	-11.1831
▁jassiguraw	-11.1834
bhejjem	-11.1838
perijodi	-11.1838
▁Jixtru	-11.1838
▁Tim	-11.1839
FO	-11.1839
Awstralja	-11.1844
SR	-11.1846
▁tassew	-11.1846
azzjon	-11.1847
FOR	-11.185
▁sekondarja	-11.1851
bes	-11.1853
▁jimplika	-11.1858
▁Amerikan	-11.1861
rappreżenta	-11.1861
privat	-11.1861
▁adattata	-11.1863
UCITS	-11.1867
sopravivenza	-11.1874
▁informali	-11.1874
WA	-11.1875
istaġun	-11.1875
▁proporzjonat	-11.1876
ikkalkula	-11.188
▁ikkon	-11.1884
(2008)	-11.1885
▁kklassifikati	-11.1887
nom	-11.1889
▁jiffinanzja	-11.1889
iffinanzjar	-11.1892
attakk	-11.1894
muskolu	-11.1897
▁tintbagħat	-11.1897
Istrument	-11.1897
ċomb	-11.1898
abba	-11.19
▁wasslet	-11.1904
votazzjoni	-11.1905
▁Dħul	-11.191
▁Żewġ	-11.1914
offerent	-11.1914
▁kwart	-11.1915
▁għaddej	-11.1916
Istanza	-11.1918
▁Oġġetti	-11.192
AQ	-11.1921
Attivitajiet	-11.1923
▁maħdum	-11.1925
005	-11.1926
▁Tul	-11.1927
▁titħassar	-11.193
▁evalwata	-11.1935
Swieq	-11.1937
▁jimponu	-11.1944
▁Em	-11.1946
▁ribavirin	-11.1947
EK	-11.1948
reġistra	-11.1949
sostitut	-11.195
reġjonali	-11.1951
▁apparati	-11.1952
soluzzjonijiet	-11.1966
kristall	-11.1967
▁ġeografiku	-11.1967
oci	-11.197
▁żvelat	-11.197
2019	-11.1979
▁naqsu	-11.198
Tieni	-11.198
rbi	-11.1982
ospita	-11.1982
▁Esp	-11.1985
76/	-11.1987
ther	-11.1987
Libja	-11.1987
DP	-11.1988
ipper	-11.1991
▁ddisinjati	-11.1992
Użu	-11.1997
▁fadal	-11.1998
residwu	-11.2
matiku	-11.2003
ilmentatur	-11.2006
▁darb	-11.201
▁ssostitwit	-11.201
▁ħakk	-11.2011
IG	-11.2012
▁allura	-11.2015
ŻI	-11.2017
artikolu	-11.2017
devjazzjoni	-11.2018
▁infurmati	-11.2023
▁kkunsidraw	-11.2027
▁dehru	-11.203
konjuġi	-11.2034
temi	-11.2041
▁Strumenti	-11.2043
kontinwità	-11.2051
aġġustamenti	-11.2055
mili	-11.2055
għonq	-11.2058
qtates	-11.2061
▁jibagħtu	-11.2061
fanali	-11.2061
solvent	-11.2063
▁glu	-11.2064
▁ħareġ	-11.2064
▁iwasslu	-11.2067
obb	-11.2072
▁Fran	-11.2073
▁eżekuttiv	-11.2074
▁speċifikazzjoni	-11.2077
satellita	-11.2078
▁105	-11.2079
▁involuta	-11.208
Konfederazzjoni	-11.2081
fażijiet	-11.2081
late	-11.2081
RM	-11.2081
▁Oħrajn	-11.2088
;=	-11.2094
ward	-11.2094
petrol	-11.2095
/2000	-11.2095
vita	-11.2096
tejjeb	-11.2099
emoglobina	-11.2101
Detentur	-11.2101
▁des	-11.2102
▁1107/2009	-11.2105
Taliban	-11.2109
▁appoġġjat	-11.211
▁tistipula	-11.2111
KI	-11.2113
abbi	-11.2113
Tibdil	-11.2113
▁KAPITOLU	-11.2113
▁[8]	-11.2115
▁tiġbor	-11.2118
▁attraenti	-11.2121
▁Hekk	-11.2126
tive	-11.213
▁rapidu	-11.2132
restawr	-11.2132
▁irrappurtati	-11.2133
ritmu	-11.2134
kant	-11.2134
Fabbrika	-11.2135
▁mnejn	-11.2135
▁jtejjeb	-11.2136
cial	-11.2141
pprezza	-11.2141
PIR	-11.2142
▁aċċettat	-11.2143
DG	-11.2147
▁tħeġġeġ	-11.2152
▁jiddi	-11.2152
▁viżibbli	-11.2155
kambja	-11.2155
dinamika	-11.2156
alità	-11.216
▁jammontaw	-11.2161
▁AS	-11.2162
▁Kwadru	-11.2162
proprjetajiet	-11.2169
▁infettati	-11.2169
back	-11.2171
possibbiltajiet	-11.2172
Per	-11.2175
▁sottomessi	-11.2178
eriji	-11.2179
ibbrejkjar	-11.2179
▁tiftaħ	-11.2179
korsijiet	-11.2183
▁jammonta	-11.2187
▁esklussiv	-11.2188
did	-11.2188
xhieda	-11.2193
farmakokinetiċi	-11.2196
▁Aqra	-11.22
ering	-11.2202
▁ġġib	-11.2203
▁inkorporata	-11.2204
▁leġiżlattiv	-11.2206
▁Dinjija	-11.2206
danni	-11.2209
uck	-11.2209
▁Indirizz	-11.221
▁123	-11.2213
ħidmiet	-11.2213
▁baġitarju	-11.2214
▁setgħet	-11.2214
▁tqies	-11.2214
▁japplikax	-11.2215
▁għaddew	-11.2216
sħubijiet	-11.2219
trasformazzjoni	-11.2221
Żejt	-11.2221
xxu	-11.2223
Iżvezja	-11.2223
▁MILL	-11.2223
intestaturi	-11.2227
IĊI	-11.2231
ibħra	-11.2234
interkonnessjoni	-11.224
ISPEĊIFIKAZZJONI	-11.2241
Ħamis	-11.2241
IJIET	-11.2242
wixxi	-11.2244
▁Diversi	-11.2247
ringiela	-11.2247
▁naqset	-11.2247
lav	-11.2254
▁qosra	-11.2254
PARTI	-11.226
ġuriżdizzjoni	-11.2261
mqabb	-11.2263
▁tawtorizza	-11.2265
ebb	-11.2266
Pariġi	-11.2269
metti	-11.2271
dimensjonijiet	-11.2273
ejjed	-11.2274
Serbja	-11.2275
▁raffinat	-11.2278
▁Prezz	-11.2281
▁aġġustat	-11.2281
..............	-11.2282
Bijo	-11.2283
▁Sostenibbli	-11.2285
POL	-11.229
friġġ	-11.229
▁Av	-11.2293
akkumulazzjoni	-11.2293
Fondazzjoni	-11.2296
gomma	-11.2299
▁kondiviż	-11.2299
▁jiġbor	-11.2302
Konklużjonijiet	-11.2304
▁preventiv	-11.2316
▁fatali	-11.2317
ESA	-11.2318
fatturat	-11.2321
sbu	-11.2324
ohra	-11.2325
personal	-11.2327
▁nnifisha	-11.2337
għel	-11.2337
▁tikkonferma	-11.2338
azjenda	-11.234
espansjoni	-11.234
▁96/	-11.2342
kapitolu	-11.2344
olari	-11.2345
lenti	-11.2347
kandidat	-11.2349
▁intiż	-11.2351
sostituzzjoni	-11.2353
▁tenfasizza	-11.2354
▁msejħa	-11.2357
▁irrakkomandat	-11.2359
▁DE	-11.236
▁sostitwiti	-11.236
▁jinħtieġ	-11.2361
▁magħluq	-11.2363
▁tħaddem	-11.2365
fosfat	-11.2365
▁naħat	-11.2365
provvedimenti	-11.2368
▁maniġerjali	-11.2368
fehim	-11.2368
▁Ġabra	-11.2375
▁0.5	-11.2378
▁ħomor	-11.2379
tunnellati	-11.2385
▁dijarea	-11.2385
PU	-11.2386
opzjoni	-11.2388
▁Riżultat	-11.2389
▁miċħud	-11.2389
▁bħat	-11.239
Dokument	-11.2394
▁jinħarġu	-11.2396
ħbi	-11.2396
▁Franċiża	-11.2399
▁stadji	-11.2403
/02	-11.2405
sommarju	-11.2405
AIFM	-11.2406
kejbil	-11.2406
zjali	-11.2406
▁għaddejja	-11.2407
refuġjati	-11.2413
dgħajjef	-11.2417
cam	-11.2417
Avukat	-11.2417
▁Magħquda	-11.242
▁Pharma	-11.2421
▁issodisfat	-11.2422
▁tariffarji	-11.2427
MIN	-11.2428
▁provdut	-11.2428
shi	-11.2431
xejra	-11.2431
DD	-11.2437
▁għadda	-11.244
▁tikkorrispondi	-11.2441
RIS	-11.2443
▁sfida	-11.2443
osservatur	-11.2443
Avviż	-11.2447
aċċellera	-11.2459
artrite	-11.246
▁maħtur	-11.2461
▁Għad	-11.2462
egżost	-11.2462
fertilità	-11.2462
spira	-11.2465
▁1.6	-11.2467
▁Daqs	-11.2469
▁0,1	-11.2474
methyl	-11.2477
▁Bażi	-11.2479
ċjali	-11.2483
anġ	-11.2484
kalkoli	-11.2485
▁kompluta	-11.2498
dożaġġ	-11.2498
kru	-11.2499
▁Central	-11.2501
annotazzjoni	-11.2501
▁tatTrattat	-11.2504
reklutaġġ	-11.2505
Kum	-11.2507
uba	-11.2512
Approċċ	-11.2515
tħassir	-11.2515
▁ssegwi	-11.2519
▁każi	-11.252
▁innovattiv	-11.2522
▁ttrasferit	-11.2526
ktieb	-11.2526
▁tipprepara	-11.2526
pubblika	-11.2528
Iżvizzera	-11.2529
▁0,5	-11.253
eve	-11.2531
rij	-11.2533
ċessjoni	-11.2534
disponi	-11.2534
oppożizzjoni	-11.2535
eskl	-11.2543
inklu	-11.2546
reċipjent	-11.2547
Assoċjazzjoni	-11.2552
drapp	-11.2552
▁pluriennali	-11.2557
▁sejrin	-11.2561
▁sensittiv	-11.2568
merkurju	-11.2571
▁jirrikjedi	-11.2571
▁Bħalissa	-11.2572
immaniġġar	-11.2575
007	-11.2575
▁tħares	-11.2578
▁imħallas	-11.2578
Sentenza	-11.2582
televiżjoni	-11.2582
▁mkejla	-11.2586
semmi	-11.2588
▁Reg	-11.2591
▁nik	-11.2592
▁jeżerċita	-11.2592
▁rikostitwit	-11.2593
eks	-11.2594
half	-11.2595
▁ippreżentata	-11.2598
▁tond	-11.2599
Lulju	-11.26
passiġġier	-11.26
suppożizzjoni	-11.2606
ikkum	-11.2609
▁sħun	-11.2613
TARGET	-11.2618
▁timponi	-11.2622
nsibilizzazzjoni	-11.2628
media	-11.2629
012	-11.263
kotba	-11.2632
għod	-11.2634
FIN	-11.2635
ISS	-11.2636
SPE	-11.2637
▁Stabbiltà	-11.2641
▁murija	-11.2646
▁kumulattiv	-11.2646
univers	-11.2652
▁3(1)	-11.2656
vilupp	-11.2659
▁tivverifika	-11.2664
pożi	-11.2665
▁perikoluż	-11.2665
vojt	-11.2666
▁HS	-11.2667
Un	-11.2668
kkjar	-11.2671
▁jispeċifikaw	-11.2675
annessi	-11.2675
Laqgħa	-11.2679
▁Brussel	-11.2679
▁Għid	-11.2682
▁Port	-11.2683
Riżorsi	-11.2689
▁jbatu	-11.2689
approssimazzjoni	-11.2696
flotta	-11.2698
▁tfassal	-11.27
trejler	-11.27
argumenti	-11.2709
defin	-11.2709
▁attribwit	-11.2714
tern	-11.2716
unjoni	-11.2721
▁edukattiv	-11.2723
Kundizzjonijiet	-11.2725
▁sussidjarja	-11.2725
semen	-11.2726
terminal	-11.2727
▁jinġabru	-11.2728
▁Attiv	-11.2731
▁mgħaġġla	-11.2732
AIF	-11.2732
▁inkompatibbli	-11.2736
Istituzzjoni	-11.2736
Università	-11.2737
▁iżżomm	-11.2739
ego	-11.2741
telefown	-11.2754
ħaw	-11.2759
▁Maltin	-11.276
amma	-11.2761
fjamma	-11.2761
▁Bejn	-11.277
▁organika	-11.2776
AST	-11.2778
▁jispiċċa	-11.2779
▁rriżulta	-11.2782
▁provviżorja	-11.2782
Ġdid	-11.2783
▁4).	-11.2783
▁sodisfatt	-11.2784
▁maqsuma	-11.2786
ATA	-11.2789
▁magħqud	-11.2793
HD	-11.2796
park	-11.2796
soċjetajiet	-11.2801
brejkijiet	-11.2801
rikostituzzjoni	-11.2804
▁agrikolu	-11.2811
immaġni	-11.2813
fos	-11.2814
▁Trab	-11.2818
tele	-11.2819
▁sensittivi	-11.2821
evalwazzjonijiet	-11.2824
▁aġġustamenti	-11.2824
UK	-11.2828
▁qablu	-11.2829
▁riferiment	-11.2833
PGD	-11.2833
qlib	-11.2834
▁stampati	-11.2838
▁iddeterminat	-11.2845
stallazzjonijiet	-11.2846
friża	-11.2849
epi	-11.2851
▁mibnija	-11.2854
▁sostanzjalment	-11.2855
kalendarju	-11.2859
▁tiddefinixxi	-11.2859
▁tħejji	-11.286
▁ikkurati	-11.2862
▁provduti	-11.2864
konsulta	-11.2866
universitajiet	-11.287
▁tinġabar	-11.2873
▁Liema	-11.2875
▁rrappurtat	-11.2876
ispettru	-11.2877
tfixkil	-11.2877
▁121	-11.2878
duzzjoni	-11.288
▁jfittxu	-11.2881
MET	-11.2883
urea	-11.2886
raq	-11.2888
monitor	-11.2889
▁vvalutati	-11.289
nutrizzjoni	-11.2892
▁Group	-11.2892
▁jiffissa	-11.2892
ġenera	-11.2893
RSUE	-11.2896
▁tagħżel	-11.2896
depożiti	-11.2899
▁kontro	-11.2901
kwanti	-11.2901
▁gastro	-11.2904
NGOs	-11.2905
2.5	-11.2907
▁riproduttiv	-11.2907
▁soda	-11.2908
▁rapida	-11.2914
▁verament	-11.2914
nza	-11.292
▁żdiedet	-11.2925
▁interessata	-11.2926
kartuna	-11.2928
Settembru	-11.2929
▁nagħmlu	-11.2932
▁struzzjonijiet	-11.2932
BR	-11.2933
medjazzjoni	-11.2933
▁PR	-11.2934
▁fiżiku	-11.2937
▁jiggarantixxu	-11.2943
oloġika	-11.2943
awdituri	-11.2945
maniġers	-11.2946
modifiki	-11.2947
▁Fornituri	-11.2948
tiġieġ	-11.2948
żwiemel	-11.295
Tlieta	-11.2951
▁imħallsa	-11.2954
▁irrappurtat	-11.2956
parlament	-11.2958
BAT	-11.2962
labora	-11.2963
karb	-11.2964
output	-11.2965
ewwa	-11.2965
▁wasal	-11.2973
▁sapport	-11.2976
taħlit	-11.2982
International	-11.2983
▁Għaliex	-11.2984
▁iġġustifikat	-11.2987
▁ppreparat	-11.2987
aċċerta	-11.2992
Ċertifikat	-11.2996
▁oġġettivi	-11.2996
▁uħud	-11.2999
esklużi	-11.3001
ħruq	-11.3001
lari	-11.3002
Alternattiva	-11.3006
▁jissottomettu	-11.3006
▁titt	-11.3006
▁anċillari	-11.3009
▁tirrispetta	-11.3013
etiku	-11.3017
ning	-11.3018
▁avvanzati	-11.302
passaġġi	-11.3021
▁sistematiku	-11.3022
ojdi	-11.3024
▁inġust	-11.3024
▁waslet	-11.3028
▁jikbru	-11.3029
inadempjenza	-11.3031
▁Parlamentari	-11.3032
kontra	-11.3035
sisa	-11.3036
rebbieħ	-11.3039
▁nnifsu	-11.3039
indirizzar	-11.304
kulat	-11.3042
▁rreġistrat	-11.3045
database	-11.3046
ġebel	-11.3047
▁proporzjonati	-11.3048
▁konkret	-11.305
ICES	-11.3053
▁obbligat	-11.3053
qatgħa	-11.3058
voti	-11.3059
tweġiba	-11.306
kompromess	-11.3061
ajruplani	-11.3062
▁akkumulat	-11.3064
▁Globali	-11.3065
▁stmata	-11.3066
▁psiko	-11.3068
konċessjoni	-11.3068
▁persistenti	-11.3069
valv	-11.3069
▁pubblikament	-11.307
kumplessità	-11.307
▁196	-11.3073
▁injezzjonijiet	-11.3079
agi	-11.3079
anzjani	-11.3083
ical	-11.3092
▁ċellulari	-11.3095
▁interazzjoni	-11.3096
rod	-11.3101
ferenzja	-11.3101
Produzzjoni	-11.3103
emor	-11.3105
▁jħallsu	-11.3106
▁innotifikat	-11.3109
miku	-11.3109
Industrija	-11.3109
responsab	-11.311
▁appoġġjati	-11.311
portal	-11.3114
▁jiskadi	-11.3117
▁ġab	-11.3119
▁tinjetta	-11.3121
▁essenzjalment	-11.3121
▁jgawdu	-11.3121
ixk	-11.3124
sulf	-11.3124
Seba	-11.3124
▁Soluzzjoni	-11.3125
aqgħu	-11.3128
▁emerġenti	-11.3132
▁popolari	-11.3132
way	-11.3133
Kosovo	-11.3136
jani	-11.3136
▁intensiv	-11.314
▁żero	-11.3142
▁deher	-11.3143
AE	-11.3144
▁storja	-11.3144
figura	-11.3147
▁Indjan	-11.3151
potassju	-11.3155
tiftix	-11.3159
▁trasferimenti	-11.3159
sulfon	-11.3159
kostitwent	-11.3162
ekosistemi	-11.3162
5/2008	-11.3163
istorbju	-11.3166
▁vijabbli	-11.3166
▁ordnat	-11.3166
mide	-11.3168
▁espliċitu	-11.317
laboratorji	-11.317
▁English	-11.3173
(11)	-11.3174
▁kkontestat	-11.3177
gliċ	-11.3179
feriti	-11.3179
▁obbligati	-11.318
▁analizzati	-11.3183
Uffiċjal	-11.3184
kamera	-11.3186
▁ddefiniti	-11.3188
għotjiet	-11.3188
▁Bis	-11.3191
oġ	-11.3192
▁Uġigħ	-11.3192
ċar	-11.3194
igu	-11.3197
pond	-11.3199
▁spiża	-11.3201
oster	-11.3202
gliptin	-11.3203
▁ġġustifikat	-11.3207
opatija	-11.3215
kompeti	-11.3217
treddigħ	-11.3219
▁trażmess	-11.3222
▁standardizzat	-11.3223
Rom	-11.3226
▁Tor	-11.3233
domiċilju	-11.3234
arrest	-11.3234
pep	-11.3235
▁TAT	-11.3236
▁tinnotifika	-11.3241
▁transfruntiera	-11.3241
Bidla	-11.3241
▁issib	-11.3243
▁kreattiv	-11.3243
▁XI	-11.3243
delegazzjonijiet	-11.3244
iskrin	-11.3244
ACE	-11.3246
▁kumplessa	-11.3249
azjendi	-11.3249
▁ekonomikament	-11.325
jarji	-11.3256
leave	-11.3256
TRI	-11.3261
▁jivvalutaw	-11.3268
tradizzjoni	-11.3271
1991	-11.3271
cap	-11.3271
▁kkoordinat	-11.3272
ife	-11.3277
UM	-11.3277
perikli	-11.3279
biljett	-11.3283
akkreditazzjoni	-11.3283
▁indirett	-11.3283
RR	-11.329
▁jimmonitorja	-11.3291
▁avvers	-11.3291
Jannar	-11.3297
▁jinnotifika	-11.3299
Approvazzjoni	-11.3302
INTER	-11.3304
arbitraġġ	-11.3317
▁tinħoloq	-11.3318
batteriji	-11.3319
htm	-11.3324
INT	-11.3324
▁BARRA	-11.3325
ffoka	-11.3328
AWTORIZZAZZJONI	-11.3329
▁tirrikonoxxi	-11.3329
▁50%	-11.333
titjir	-11.3338
▁nadif	-11.3345
▁jivverifikaw	-11.3347
Portugiż	-11.3348
arloġġ	-11.3348
lokazzjoni	-11.3349
▁mentali	-11.335
▁KO	-11.335
mobili	-11.3351
huwiex	-11.3352
mess	-11.3353
▁jipprevedu	-11.3355
▁umanitarja	-11.3355
ħdu	-11.3358
▁hoc	-11.3359
▁titneħħa	-11.3359
▁sterili	-11.336
grafika	-11.3362
bejjiegħa	-11.3362
▁alternattiv	-11.3363
▁aċċettata	-11.3364
▁garantiti	-11.3365
▁kkomunikat	-11.3367
▁akut	-11.3369
▁Suġġett	-11.3375
▁waslu	-11.3378
▁protett	-11.3381
kreditur	-11.3381
għandha	-11.3381
Kompetizzjoni	-11.3382
Valutazzjoni	-11.3385
Ordni	-11.339
▁tibni	-11.3394
bejjiegħ	-11.3395
maniġer	-11.3399
▁immuni	-11.3402
xaħam	-11.3405
▁tirrikjedi	-11.3405
▁assoluta	-11.3406
Univers	-11.3408
superviżur	-11.3413
▁2017/1	-11.3416
▁jħallu	-11.3421
▁intitolati	-11.3424
mistoqsijiet	-11.3425
.4.1	-11.3426
▁jitħassar	-11.3432
▁miftiehem	-11.3432
kundanna	-11.3433
korre	-11.3433
6/2008	-11.3434
Human	-11.3435
▁129	-11.3436
▁Popolari	-11.3444
spar	-11.3444
modulu	-11.3446
sodisfa	-11.3446
MED	-11.3448
Pakistan	-11.3452
▁Uża	-11.3458
▁jaraw	-11.3458
sajf	-11.346
infetta	-11.346
▁taħseb	-11.346
▁każwali	-11.346
▁eżentati	-11.347
tropin	-11.3476
▁mmarkat	-11.3476
▁jikkontrolla	-11.3478
▁stqarr	-11.3481
▁mifruxa	-11.3488
▁tqiegħed	-11.349
skop	-11.3492
chlor	-11.3497
▁temporanjament	-11.3497
▁EWROPEW	-11.3502
erman	-11.3502
▁validu	-11.3502
▁elett	-11.3505
▁jappella	-11.3507
▁irrapportati	-11.3508
▁jirrapporta	-11.3509
▁konsekuttiv	-11.351
tikketti	-11.3511
€	-11.3517
▁2).	-11.3519
▁Sors	-11.3524
Manifattur	-11.3532
radi	-11.3545
Proċeduri	-11.3545
0,0	-11.3545
▁Maltija	-11.3546
kler	-11.3546
kanti	-11.3548
thro	-11.3548
destin	-11.3548
▁jgħ	-11.3549
/13/	-11.3552
parametru	-11.3555
▁Winthrop	-11.3557
▁extra	-11.3559
▁ċm	-11.3559
▁delegat	-11.356
inġinerija	-11.3564
zji	-11.3568
▁radjuattiv	-11.3569
voluntier	-11.3572
▁mif	-11.3576
Olandiż	-11.3576
▁100%	-11.3579
▁bħas	-11.3579
metrika	-11.3579
hawn	-11.359
għandhom	-11.3592
Ktieb	-11.3592
mejda	-11.3593
▁kwalifikata	-11.3595
▁kklassifikat	-11.36
▁Neħħi	-11.3604
▁tintroduċi	-11.3604
▁negattiva	-11.3605
▁appoġġati	-11.3605
▁żbilanċ	-11.3606
▁Cor	-11.3608
oqfsa	-11.3611
▁awtentiċi	-11.3612
▁iħallas	-11.3615
idrossi	-11.3622
ump	-11.3624
mobilizzazzjoni	-11.3624
▁vitali	-11.3628
▁ħarġet	-11.3635
▁sabet	-11.3636
waħ	-11.3637
blind	-11.3639
▁reġistrati	-11.3639
▁kostali	-11.364
▁mixtieq	-11.3641
kollox	-11.3642
▁ħafifa	-11.3642
prekawzjonijiet	-11.3642
▁żbalji	-11.3643
▁Tin	-11.3645
▁jaqdu	-11.3647
▁Mediċinali	-11.3647
▁akkreditat	-11.3647
FFC	-11.3647
reati	-11.365
legalità	-11.3651
ċellula	-11.3651
popolazzjonijiet	-11.3653
ilbies	-11.3654
▁periferali	-11.3655
zwiemel	-11.3659
▁Aġġustament	-11.3659
Vetturi	-11.3667
Art	-11.367
▁jiddefinixxu	-11.3671
▁skeda	-11.3671
▁disa	-11.3678
eċċezzjonijiet	-11.3681
ipogliċemija	-11.3682
▁97/	-11.3683
vijabbiltà	-11.3686
▁komparattiv	-11.3688
EURES	-11.3688
Unità	-11.3692
pillola	-11.37
TW	-11.3703
TV	-11.3706
imsemmija	-11.371
forum	-11.3714
▁jiżnu	-11.3716
▁kwalifikat	-11.3718
Klima	-11.3721
▁newro	-11.3724
ċifra	-11.3727
▁jsibu	-11.373
▁soċjo	-11.373
▁sproporzjonat	-11.3731
400	-11.3732
redditu	-11.3734
▁volontarju	-11.3734
vali	-11.3735
ALT	-11.3736
emboli	-11.3738
prim	-11.3744
mut	-11.3744
ċittadin	-11.3744
gwerra	-11.3746
▁injettat	-11.3748
superfiċje	-11.375
ċinturin	-11.375
▁inklużiv	-11.3753
▁ipprovduta	-11.3754
▁tipproteġi	-11.3758
▁spazjali	-11.3758
enna	-11.3761
▁dgħajfa	-11.3762
▁maħdumin	-11.3763
ary	-11.3765
kandidati	-11.3769
▁kontinwament	-11.3771
▁118	-11.3772
ambi	-11.3779
▁leġislattiva	-11.378
nofsinhar	-11.3782
▁ikkontrollati	-11.3782
▁teknoloġika	-11.3786
▁Dar	-11.3787
▁diskussi	-11.3787
The	-11.3788
konfigurazzjoni	-11.379
donaturi	-11.3793
ċelebra	-11.3798
Sirja	-11.3801
▁Multi	-11.3801
▁Mark	-11.3802
▁Kuntatt	-11.3802
ĦA	-11.3803
glukożju	-11.3806
importa	-11.3806
.2015,	-11.3807
European	-11.3808
disponibilità	-11.3811
restrizzjoni	-11.3811
.1.3	-11.3815
▁uffiċjalment	-11.3818
MFI	-11.382
ħla	-11.3823
▁trasferiti	-11.3826
chlorothiazide	-11.3826
fakultattiv	-11.3826
ller	-11.3826
▁Path	-11.3827
artisti	-11.3828
tetra	-11.3829
▁KUMM	-11.383
▁esportati	-11.3831
▁nbid	-11.3834
penali	-11.3836
▁sempliċiment	-11.3838
ikklerjar	-11.3842
▁FIL	-11.3845
benesseri	-11.3846
▁Strasburgu	-11.3846
▁josserva	-11.3851
life	-11.3854
metodoloġiji	-11.3854
▁ġustifikati	-11.3861
swaba	-11.3862
irregolaritajiet	-11.3863
▁Navigation	-11.3866
bibien	-11.3875
sanzjonijiet	-11.3875
egolamentazzjoni	-11.388
imblokk	-11.3881
regolazzjoni	-11.3883
tenzjoni	-11.3892
▁Għat	-11.3894
għajxien	-11.3894
▁jħallas	-11.3898
▁Qed	-11.39
▁bankarja	-11.3902
▁Mir	-11.3903
▁offrut	-11.3906
inċentivi	-11.3907
rappreżentattivi	-11.3911
Aħjar	-11.3919
Notifika	-11.3921
konferenzi	-11.3923
konflitt	-11.3927
▁ggarantit	-11.3927
detenzjoni	-11.3928
MRLs	-11.3929
trobbija	-11.3931
▁miegħek	-11.3935
Dritt	-11.3936
tank	-11.3943
Soċjetà	-11.3947
▁jiddefinixxi	-11.3947
▁tvarja	-11.3947
pront	-11.3948
▁newtrali	-11.3949
tanza	-11.3954
▁tmexxi	-11.3955
▁jintwera	-11.3955
▁Manifatturi	-11.3958
•	-11.3958
▁tittratta	-11.3959
imħabba	-11.3964
Proċess	-11.3965
sottomett	-11.397
▁aġġustata	-11.3976
▁sottomessa	-11.3977
Pre	-11.3979
▁orjentat	-11.398
delegazzjoni	-11.3982
kontaminazzjoni	-11.3984
▁sejjer	-11.3984
900	-11.399
▁nieqsa	-11.3992
rga	-11.3992
▁jirrikonoxxi	-11.3996
diskrezzjoni	-11.4
▁leġislattivi	-11.4003
ranġa	-11.4008
▁skedat	-11.4008
▁1.8	-11.4009
▁Indika	-11.4013
▁seħħet	-11.4015
Federazzjoni	-11.4024
buttuna	-11.4024
▁jingħad	-11.4027
▁lineari	-11.4027
300	-11.4027
▁superjuri	-11.4029
▁milquta	-11.4029
Pubblikazzjoni	-11.403
bogħod	-11.4032
▁131	-11.4032
▁Bio	-11.4032
▁kkawżati	-11.4032
▁Pawl	-11.4033
▁emittenti	-11.4034
▁urbani	-11.4035
NM	-11.4035
▁Lokali	-11.4038
▁żviluppaw	-11.404
UNI	-11.4042
▁irreġistrata	-11.4045
gżejjer	-11.4045
ġest	-11.4048
mministra	-11.4049
cho	-11.4055
▁Madwar	-11.4055
▁[9]	-11.4057
▁irregolat	-11.4057
▁daħlu	-11.4061
▁rashom	-11.4068
▁jissaħħaħ	-11.4074
cip	-11.4074
▁ġimagħtejn	-11.4078
bijomassa	-11.4081
kisbiet	-11.4087
▁twettqu	-11.4087
ġogi	-11.4088
Nisa	-11.409
(2007)	-11.4091
daqsijiet	-11.4098
▁126	-11.4099
▁jistenna	-11.4103
sodda	-11.4107
▁Awto	-11.4107
▁isibu	-11.4115
▁kkombinat	-11.4115
klorur	-11.4119
kollateral	-11.4121
▁3).	-11.4122
▁tillimita	-11.4123
assenza	-11.4124
lift	-11.4125
▁sovran	-11.4125
omer	-11.4126
propil	-11.4126
kwarz	-11.4127
alloka	-11.4131
▁ekoloġiċi	-11.4132
▁irreġistrati	-11.4133
▁individwalment	-11.4136
Iżrael	-11.4136
riflessjoni	-11.4139
▁kumplessiv	-11.4139
▁ddefinit	-11.4141
▁aġġustati	-11.4146
▁endo	-11.4147
Ftehimiet	-11.4152
Digriet	-11.4152
seminar	-11.4154
▁korrettivi	-11.4162
▁double	-11.4165
nano	-11.4165
identifika	-11.4166
▁ċert	-11.4166
juni	-11.4169
▁jikkontrollaw	-11.4174
▁Limited	-11.4177
▁tirrevedi	-11.4177
▁wettqet	-11.4177
Nru	-11.418
ġranet	-11.4181
istampar	-11.4184
▁jagħmilha	-11.4185
pretensjoni	-11.4188
▁2008/1	-11.4189
TES	-11.419
▁XVI	-11.4191
kuntrast	-11.4198
▁ħelu	-11.4198
▁kwadru	-11.4202
Tnejn	-11.4202
zzjona	-11.4203
Għal	-11.4206
kaxxi	-11.4211
▁tieg	-11.4211
201	-11.4215
▁4.6	-11.4215
istaff	-11.4215
igh	-11.4218
Delegazzjoni	-11.4219
▁korporattiv	-11.422
▁pproponiet	-11.4223
ESMA	-11.4224
Għawdex	-11.4227
tabelli	-11.4228
intensifika	-11.4232
Kategorija	-11.4232
biedja	-11.4236
▁TAIL	-11.4239
Provinċja	-11.4244
▁enormi	-11.4248
▁isfar	-11.4249
▁leġittimi	-11.4251
▁jappartjenu	-11.4261
▁magħna	-11.4261
soġġorn	-11.4265
▁Qari	-11.4266
klawżola	-11.4269
kubrit	-11.4269
fett	-11.4272
▁espliċita	-11.4273
▁kellem	-11.4273
film	-11.4276
kummerċjant	-11.4278
▁mħallta	-11.4282
valwazzjoni	-11.4283
cept	-11.4287
kunfidenza	-11.429
żebgħa	-11.429
▁totalment	-11.4291
Infrastruttura	-11.4294
▁timmira	-11.4297
Kapital	-11.4297
fluwor	-11.43
▁perfett	-11.4304
Leader	-11.4307
▁dilwit	-11.4307
▁Act	-11.4308
ipprovdi	-11.4309
7.5	-11.4311
Indoneżja	-11.4315
▁Nefqa	-11.4315
vet	-11.4317
darba	-11.4317
irċev	-11.432
▁95/46/	-11.4324
▁Rari	-11.4327
▁statistiċi	-11.4328
▁Atomika	-11.4332
▁jinbeda	-11.4332
▁provduta	-11.4333
▁rtirat	-11.4333
▁indiretta	-11.4335
▁demokratika	-11.4336
fwar	-11.4337
▁Mel	-11.4344
assorb	-11.4344
▁provviżorji	-11.4349
klabb	-11.435
TAC	-11.435
fluwidu	-11.4353
GO	-11.4354
▁moderata	-11.4355
▁kkawżata	-11.4361
ekwivalenza	-11.4366
▁127	-11.4371
preċed	-11.4376
acet	-11.4378
pestiċidi	-11.4379
▁France	-11.438
▁pproċessar	-11.4383
▁mifrux	-11.4385
onic	-11.4388
▁Marittima	-11.4391
droga	-11.4392
IU	-11.4394
▁1999/468/	-11.4396
▁anemija	-11.4396
▁Anti	-11.4401
metaboliti	-11.4408
ICAO	-11.4408
▁jiltaqgħu	-11.4413
▁msejsa	-11.4413
ċaħda	-11.4417
-2030	-11.4418
▁jfasslu	-11.4421
▁jingħaqdu	-11.4421
riċetturi	-11.4429
▁antiretrovirali	-11.443
▁issaħħaħ	-11.443
▁Tit	-11.443
▁eskluża	-11.4432
Ukrajna	-11.4434
phen	-11.4436
▁Kura	-11.4436
▁Jan	-11.444
fetu	-11.4443
▁promossi	-11.4443
▁ruħ	-11.4447
▁Est	-11.4448
twaħħil	-11.4451
▁maħluqa	-11.4455
alternattiva	-11.4456
.2.3	-11.4456
▁jsaħħaħ	-11.446
▁LED	-11.4462
▁jagħżel	-11.4463
tobba	-11.4466
▁tossiku	-11.4468
▁mmol	-11.4469
▁mħassra	-11.4472
▁Pen	-11.4474
Ħerzegovina	-11.4477
▁bajda	-11.4482
integra	-11.4486
▁Kal	-11.4487
▁konness	-11.4488
▁Sim	-11.4491
▁jitkejjel	-11.4497
Eurojust	-11.4498
▁sistematika	-11.4502
▁eċċellenti	-11.4502
ogi	-11.4504
▁insuffiċjenti	-11.4507
maniġment	-11.4507
▁jservu	-11.4507
tkomplija	-11.4507
▁ferrovjarju	-11.4511
▁pedjatriċi	-11.4511
kanal	-11.4513
▁ingħataw	-11.4516
Poplu	-11.452
▁evidenti	-11.452
organiżmu	-11.4526
quin	-11.4527
▁tintalab	-11.4533
elimina	-11.4533
Kamra	-11.4534
▁rappreżentat	-11.4537
negozjanti	-11.4539
poteri	-11.4543
▁jivvaluta	-11.4546
▁sempliċement	-11.455
▁jinvestu	-11.455
▁mħeġġa	-11.455
▁jikkoordina	-11.4558
Iswed	-11.4561
0.1	-11.4562
▁kisbu	-11.4567
▁sfruttat	-11.4567
għaxar	-11.4576
idae	-11.4577
▁speċjalizzat	-11.4578
Armi	-11.4578
depożitu	-11.4579
▁maħżuna	-11.4582
▁tiggarantixxi	-11.4584
globalizzazzjoni	-11.4588
▁tassigura	-11.4589
▁ddedikat	-11.4589
▁mikrogrammi	-11.4598
diżil	-11.4598
taqsimiet	-11.4598
▁TV	-11.4605
jistgħu	-11.4607
▁marġinali	-11.461
▁Ħal	-11.4614
ndustri	-11.4614
White	-11.4619
▁stazzjon	-11.4621
IX	-11.4621
sulph	-11.4625
▁iġib	-11.4628
pajji	-11.4632
▁mmexxija	-11.4632
/36/	-11.4632
tifqigħ	-11.4632
(2010)	-11.4634
konġestjoni	-11.4636
▁1308/2013	-11.4637
▁jaħtar	-11.464
Viċinat	-11.464
▁żbaljat	-11.4641
pjanċa	-11.4641
▁apparti	-11.4641
barra	-11.4642
Ungeriż	-11.4645
▁qieset	-11.4645
aċċetta	-11.4651
▁3(2)	-11.4652
kimika	-11.4653
▁ssimplifikat	-11.4654
varjazzjoni	-11.4657
plejtlits	-11.4658
qamħirrum	-11.4658
▁solidi	-11.4664
karatteristika	-11.4667
ċeramika	-11.4667
▁manifatturati	-11.467
ssen	-11.4671
tfittxija	-11.4671
reġġ	-11.4675
▁Użat	-11.4675
żul	-11.4677
izzanti	-11.4677
▁referenzjarju	-11.4693
▁Għolja	-11.4693
▁kkontrollata	-11.4693
▁stokkijiet	-11.4693
86/	-11.4694
Montenegro	-11.4698
ieqa	-11.4704
varjazzjonijiet	-11.4704
dividend	-11.4706
etanol	-11.4709
▁jitħassru	-11.4711
▁iffriżat	-11.4711
▁Jean	-11.4712
▁assorbit	-11.4713
ship	-11.4714
▁avvanzata	-11.4714
▁żvantaġġ	-11.472
impjegat	-11.4721
kombina	-11.4729
▁ssostni	-11.4737
▁ttestjati	-11.4739
0.5	-11.474
Balkani	-11.4742
SME	-11.4743
vaskulari	-11.4746
cross	-11.4747
biddlu	-11.4751
prosekuzzjoni	-11.4759
▁wżat	-11.476
ġeneru	-11.4767
▁organiku	-11.4768
▁jħalli	-11.4769
dimostrazzjoni	-11.4772
▁jittejbu	-11.4773
simbolu	-11.4781
immunità	-11.4782
▁Comb	-11.4783
KUNSILL	-11.479
600	-11.479
festa	-11.4791
frutt	-11.4794
xenarji	-11.4795
bozza	-11.4795
▁jgħidu	-11.4796
jna	-11.4798
▁128	-11.4804
IKU	-11.4808
▁218	-11.4809
nità	-11.4814
Assistenza	-11.4817
twissijiet	-11.4817
karriera	-11.4817
▁rilaxxat	-11.4818
1/2013	-11.4819
Iskema	-11.4821
dizzjonali	-11.4822
▁jikkonsultaw	-11.4824
▁107(1)	-11.4825
▁skejjel	-11.4825
▁laħqu	-11.4826
▁analogu	-11.483
▁titħallas	-11.4835
▁jtajru	-11.4844
▁jilagħbu	-11.4848
▁isaħħu	-11.4848
kontinent	-11.485
▁taħżen	-11.4852
▁stabbiltà	-11.4853
Kumpanija	-11.4857
▁jinkoraġġixxu	-11.4857
▁jivvjaġġaw	-11.4857
vuċi	-11.4857
5/2009	-11.4858
▁Self	-11.4862
▁għeja	-11.487
rebħ	-11.4871
TU	-11.4873
assaġġ	-11.4879
▁gradwalment	-11.488
▁hemmhekk	-11.4881
poter	-11.4884
jarju	-11.4887
sensittività	-11.489
igg	-11.4891
plimenta	-11.4892
emerġenza	-11.4895
ffinalizza	-11.4899
▁iseħħu	-11.4899
▁immuno	-11.4901
Difiża	-11.4901
▁jipparteċipa	-11.4902
▁2007-2013	-11.4904
bah	-11.4905
▁motivata	-11.4906
ħsad	-11.4908
kkunsidra	-11.4914
minorenni	-11.4915
▁jikkompetu	-11.4915
▁prudenzjali	-11.4915
distributuri	-11.4915
▁introdotta	-11.4921
▁jirrappurtaw	-11.4923
▁jsegwu	-11.4923
▁3.6	-11.4926
▁mmirata	-11.4926
Marokk	-11.4932
▁għalkollox	-11.4934
fertilizzant	-11.4941
▁tapprova	-11.4942
Settur	-11.4943
▁Personali	-11.4946
allinjament	-11.4946
trademark	-11.4947
(2009)	-11.4947
sussidjar	-11.4952
▁tnax	-11.4961
nieqes	-11.4964
▁Insulin	-11.4964
Taljan	-11.4974
▁dettaljat	-11.4975
isptar	-11.4976
/1999	-11.4977
▁jimmiraw	-11.4977
▁jissuġġerixxi	-11.4982
folji	-11.4983
▁jikkom	-11.4986
Dan	-11.4989
laterali	-11.499
▁Ikun	-11.499
▁allerġika	-11.4991
▁innota	-11.4991
dossier	-11.4992
Maċedonja	-11.5
temperaturi	-11.5
vjola	-11.5001
fosfo	-11.5004
pH	-11.5005
konċessjonijiet	-11.5007
interazzjoni	-11.5011
▁KIF	-11.5017
▁jittratta	-11.5019
▁esplorat	-11.5022
kunjom	-11.5023
Awla	-11.5023
▁għaddiet	-11.5023
nukle	-11.5024
▁jissupplimenta	-11.5025
3,5	-11.5029
▁Mozzjoni	-11.5029
▁tieghu	-11.5037
▁Pubblika	-11.5039
kċina	-11.5041
INI	-11.5044
▁tipprova	-11.5044
▁stabbilixxa	-11.5045
intermedjarju	-11.505
▁jintroduċu	-11.505
▁inkunu	-11.505
assemblaġġ	-11.5054
▁jipprevjeni	-11.5054
rimedji	-11.5054
ELL	-11.5056
Pressjoni	-11.5061
twassil	-11.5063
▁Kunjett	-11.5063
▁tig	-11.5071
kontinwazzjoni	-11.5072
persentaġġ	-11.5072
żidiet	-11.5074
fabbrikant	-11.5075
metriċi	-11.5082
▁toqgħod	-11.5086
▁Gal	-11.5087
▁ċito	-11.5088
▁virali	-11.5091
▁oriġina	-11.5092
istandardizz	-11.5092
ingranaġġ	-11.5095
Rekwiżit	-11.5097
konvenzjonijiet	-11.5098
▁ressqet	-11.5104
HO	-11.5106
tudni	-11.5109
▁Nuqqas	-11.5113
▁imiss	-11.512
▁sintetiċi	-11.5123
sigriet	-11.5123
▁monetarju	-11.5127
▁jifdal	-11.5128
punteġġ	-11.513
▁indispensabbli	-11.5132
użat	-11.5137
mewġ	-11.5139
rinunzja	-11.5144
rikapitalizz	-11.5146
IPA	-11.5148
0/2009	-11.5149
kumpliment	-11.5149
▁titħalla	-11.5149
▁Preparazzjoni	-11.515
▁Kapitali	-11.5156
▁jistimula	-11.5159
BBLI	-11.5162
▁tpoġġi	-11.5162
▁ordinarja	-11.5164
▁jimxu	-11.5164
dwar	-11.5166
zjonali	-11.5167
kumpless	-11.5167
▁siringi	-11.5168
għaqda	-11.5173
▁cock	-11.5175
terapewtika	-11.5178
▁prattiku	-11.5178
7/2009	-11.5185
▁kkooperaw	-11.5185
GTĊ	-11.5187
▁prezzjuż	-11.5192
subparagrafu	-11.5197
izzju	-11.5198
iqsar	-11.5205
▁kompleta	-11.5209
Titjib	-11.521
▁jivverifika	-11.5211
ċedu	-11.5211
Roma	-11.5211
▁tranżizzjonali	-11.5214
▁notevolment	-11.5219
rappreżentanza	-11.5219
▁mibgħut	-11.5222
tipjip	-11.5224
rest	-11.5225
konfini	-11.5226
▁ħadt	-11.5228
kolesterol	-11.5237
▁Infezzjoni	-11.5237
▁impossibbli	-11.5237
ional	-11.5246
▁pprovdiet	-11.5247
qabad	-11.5252
oxetine	-11.5256
Dinja	-11.5258
▁imfassla	-11.5261
Festival	-11.5261
kilometru	-11.5261
▁setgħetx	-11.5269
▁ħżiena	-11.5279
▁veġetali	-11.5284
Irlandiż	-11.5284
kaptan	-11.5286
rendikont	-11.5286
▁Ferr	-11.5287
Premju	-11.5289
interruzzjoni	-11.5292
MAN	-11.5293
▁jassumi	-11.5293
futbol	-11.5293
▁10%	-11.53
minimu	-11.5301
kilo	-11.5301
AZZJONIJIET	-11.5302
▁jibnu	-11.5304
▁ttestjat	-11.5307
Ekonomija	-11.5307
▁Novo	-11.531
Ġen	-11.5311
▁kritiċi	-11.5312
▁allinjat	-11.5312
forestrija	-11.5316
Sibt	-11.5321
▁nnutat	-11.5326
▁4.8	-11.5327
▁jikkonsulta	-11.5328
karatterizz	-11.533
PPE	-11.533
▁Ġodda	-11.5335
nagħaġ	-11.534
▁CPA	-11.5342
pompi	-11.5344
ħabs	-11.5347
FAEŻR	-11.5349
djun	-11.5354
tività	-11.5355
▁strettament	-11.5356
intestinali	-11.5364
foresta	-11.5364
grafiku	-11.5366
▁ġuridiku	-11.5368
biltà	-11.5369
▁6(1)	-11.537
BAR	-11.5375
▁differenzjat	-11.5377
▁stabbiliet	-11.5377
interazzjonijiet	-11.5378
/12/	-11.538
▁spa	-11.5381
ħoloq	-11.5385
▁tinsa	-11.5385
xandar	-11.5385
rill	-11.5387
kontribwent	-11.5391
Ħajja	-11.5394
allarm	-11.5399
▁jiġġeneraw	-11.5401
awdjo	-11.5401
▁jwaqqaf	-11.5408
ġiegħ	-11.5411
▁alimentari	-11.5415
▁kW	-11.5415
Mulej	-11.5415
▁avvanzat	-11.5417
ASSI	-11.5421
alternattivi	-11.5422
karbon	-11.5424
Koordinazzjoni	-11.5424
kompatibilità	-11.5424
gravità	-11.5433
aggregazzjoni	-11.5433
etajiet	-11.5435
bag	-11.5438
▁1,5	-11.5447
▁Che	-11.545
grammi	-11.545
▁multipla	-11.545
▁136	-11.545
essjoni	-11.5452
mortalità	-11.5452
gue	-11.5456
PRODOTT	-11.5457
▁statistiku	-11.5457
▁Ambjentali	-11.5457
Arranġament	-11.5462
▁addominali	-11.5467
▁Kristu	-11.5467
PRI	-11.5467
0/2014	-11.5477
Rab	-11.5479
Migrazzjoni	-11.5481
▁MHz	-11.5481
kampjunar	-11.5481
▁jevita	-11.5482
timijiet	-11.5486
proċediment	-11.5487
▁396/2005	-11.549
JAR	-11.5493
▁tissottometti	-11.5495
▁TAD	-11.5499
▁jassigura	-11.5501
▁jaċċettaw	-11.5502
▁jiddeskrivi	-11.5504
▁taqbiżx	-11.5504
3/2008	-11.5506
▁sistemika	-11.5507
▁tredda	-11.5509
▁Russa	-11.551
▁tipparteċipa	-11.551
▁Hot	-11.5515
ppreżenta	-11.5518
▁Kummenti	-11.5519
trasfer	-11.5519
immodernizza	-11.5523
▁jirkupra	-11.5523
reliġjuż	-11.5528
▁volontarji	-11.5528
▁epatiku	-11.5533
Grad	-11.5539
isfel	-11.554
fidi	-11.5542
▁jintalab	-11.5542
Off	-11.5551
bert	-11.5552
1,3	-11.5553
TOR	-11.5556
▁2003/87/	-11.5557
▁2014-2020	-11.5557
GH	-11.5558
.2016,	-11.556
ethylene	-11.5561
iberalizzazzjoni	-11.5563
reputazzjoni	-11.5566
aspettattivi	-11.5572
frammentazzjoni	-11.5576
▁ddelegati	-11.5576
STR	-11.5577
duct	-11.5578
konvenut	-11.5581
Kosta	-11.5582
titanju	-11.5586
manifest	-11.5589
għeruq	-11.559
▁Integrat	-11.559
▁joqogħdu	-11.559
boroż	-11.5591
IMP	-11.5593
▁tiskadi	-11.5595
▁laħaq	-11.5595
▁tosserva	-11.5596
phosphate	-11.56
▁suxxettibbli	-11.56
glyc	-11.56
siegħa	-11.5603
▁itejjeb	-11.5608
0.3	-11.5609
kunsinni	-11.5609
▁jadattaw	-11.5609
▁jasal	-11.561
APP	-11.5613
mur	-11.5614
banda	-11.5615
wettqu	-11.5625
ajrudrom	-11.5629
nirien	-11.5629
▁tikk	-11.5629
kondizzjona	-11.5629
agri	-11.5631
▁6(2)	-11.5634
iversifikazzjoni	-11.5641
klo	-11.5643
▁jorbot	-11.5643
CPC	-11.5646
kummissjoni	-11.5647
▁nitr	-11.5647
kirurġija	-11.5648
1/2009	-11.565
tankijiet	-11.5655
▁Merħba	-11.5658
glucose	-11.5658
identifikatur	-11.5661
ġrieden	-11.5662
squo	-11.5664
▁Pass	-11.5671
▁monetarji	-11.5672
battal	-11.5679
fluworo	-11.5681
preskrizzjoni	-11.5682
▁debitament	-11.5682
immarkar	-11.5682
BG	-11.5682
tum	-11.5684
KW	-11.5688
inċiż	-11.5692
1.5	-11.5695
▁teknikament	-11.5699
kustodja	-11.5706
▁jestendi	-11.5706
VIS	-11.5708
▁20%	-11.571
likwidazzjoni	-11.5711
istabbili	-11.5713
ħiter	-11.572
▁awtomatizzat	-11.572
▁nnegozjat	-11.5721
▁deċiżiv	-11.5723
deċentralizz	-11.5725
▁proviżorja	-11.5725
naqqsu	-11.5728
▁3.7	-11.5729
▁permissibbli	-11.573
▁kompliet	-11.5731
▁tippre	-11.5732
AĦ	-11.5734
diskors	-11.5735
▁Spejjeż	-11.574
▁skambji	-11.574
▁pproċessata	-11.574
▁setgħux	-11.5742
sosteni	-11.5744
drogi	-11.5746
istor	-11.5747
▁aqra	-11.5757
▁XII	-11.5762
kulleġġ	-11.5766
responsabilità	-11.5769
▁1605/2002	-11.5769
▁Rata	-11.577
▁jittejjeb	-11.5772
▁Abd	-11.5773
dilwizzjoni	-11.5774
▁daħlet	-11.5774
▁tixtri	-11.5776
silikon	-11.5779
tajba	-11.579
amino	-11.5791
residenti	-11.5793
▁jibbenefika	-11.5793
allowance	-11.5793
▁jissottometti	-11.5793
▁Dejjem	-11.5798
EEA	-11.5799
▁0,2	-11.58
sussidja	-11.5807
▁Ekonomiċi	-11.5808
valida	-11.5809
pali	-11.5809
matiċi	-11.581
FU	-11.5817
ġiċi	-11.5819
kaċċa	-11.582
iċċarġja	-11.5824
▁baqgħet	-11.5833
proliferazzjoni	-11.5837
tfaddil	-11.5837
▁nominat	-11.5839
esperiment	-11.5842
▁espost	-11.5844
Fruntieri	-11.5847
gla	-11.5848
▁ippre	-11.5848
farm	-11.5852
▁jħeġġeġ	-11.5852
▁tinkoraġġixxi	-11.5852
bozoz	-11.5852
fliexken	-11.5852
EIT	-11.5855
għalliem	-11.5856
manteniment	-11.5857
▁sistemiku	-11.5857
iswed	-11.5857
▁possibbilment	-11.5857
▁jibdlu	-11.5857
▁jillimita	-11.5859
eċċellenza	-11.5862
Komunita	-11.5863
▁vera	-11.5864
▁transfruntier	-11.5868
TURI	-11.587
▁maltadiocese	-11.5872
▁introdott	-11.5875
kkonklud	-11.5875
▁rnexxi	-11.5877
kompara	-11.5883
▁spjega	-11.589
sedil	-11.5895
Pjattaforma	-11.5897
▁jiftaħ	-11.5897
zzjonjiet	-11.5899
▁imressqa	-11.5901
▁trasferit	-11.5902
tħaffir	-11.5906
▁bonus	-11.5912
▁2.6	-11.5912
VER	-11.5912
Indi	-11.5913
▁Mix	-11.5915
regolarità	-11.5915
▁jiffunzjona	-11.5916
1/2006	-11.5918
logo	-11.5919
istimi	-11.592
▁termali	-11.5921
butir	-11.5922
▁Ċerti	-11.5925
kalkola	-11.5925
5/2010	-11.5928
Impjieg	-11.5932
Prevenzjoni	-11.5936
għawm	-11.5937
evażjoni	-11.5938
proprjetarju	-11.5946
żminijiet	-11.5946
OLI	-11.5948
pieni	-11.5955
▁tanġibbli	-11.5961
vastatin	-11.5971
limitat	-11.5975
▁Kompetenti	-11.5976
inventarju	-11.5976
memorja	-11.5976
eżaminazzjoni	-11.5977
▁Rev	-11.5978
▁foloz	-11.5981
ċanga	-11.5982
Albanija	-11.5986
▁jirrikonoxxu	-11.5986
Kontijiet	-11.5986
▁janalizza	-11.5991
JJ	-11.5991
patoġeni	-11.5996
appreżentazzjoni	-11.5999
▁5.2).	-11.6008
Sudan	-11.6011
▁filgħodu	-11.6011
▁konsegwentement	-11.6016
tendenzi	-11.6016
▁Ebda	-11.6016
▁jikkwalifikaw	-11.6021
modernizzazzjoni	-11.6025
8/2008	-11.6028
▁statistikament	-11.6031
Netherlands	-11.6031
rank	-11.6034
vajrus	-11.6034
▁jippubblikaw	-11.6034
▁tibbenefika	-11.6039
RAN	-11.604
mycin	-11.6041
minimizza	-11.6046
Tqegħid	-11.6051
isfruttament	-11.6051
▁Demokratika	-11.6051
▁kellek	-11.6051
▁jagħtik	-11.6051
▁(*)	-11.6053
kunsill	-11.6061
board	-11.6065
▁kostituzzjonali	-11.6071
ralment	-11.6073
inibizzjoni	-11.6076
800	-11.6077
TIP	-11.6083
▁għen	-11.6084
▁mitluf	-11.6086
▁jippruvaw	-11.6091
pajp	-11.6091
▁assistit	-11.6092
multa	-11.6092
▁moderni	-11.6093
piena	-11.6095
▁iġġenerat	-11.6101
▁tenofovir	-11.6106
epoetin	-11.6111
▁identiċi	-11.6117
Pulizija	-11.6121
▁kkwalifikat	-11.6122
Ewropew	-11.6125
1.12	-11.6128
bdot	-11.6132
Finanzjament	-11.6136
Prinċipji	-11.6136
Solidarjetà	-11.6136
▁teżerċita	-11.6141
PKS	-11.6142
▁6.2	-11.6145
ENZA	-11.6147
EMEA	-11.6154
niex	-11.6154
intervista	-11.6155
▁sagħtejn	-11.6162
▁2006/1	-11.6162
ALL	-11.6165
imnieħer	-11.6167
▁dominanti	-11.6182
parteċipa	-11.6187
▁Waħda	-11.6187
▁Mard	-11.6187
tilfu	-11.6189
nkoraġġ	-11.619
▁konfużjoni	-11.619
visti	-11.6196
meraq	-11.6198
(2011)	-11.6198
▁ikkombinat	-11.6202
benefi	-11.6209
proċessur	-11.6214
ġeneratur	-11.6214
▁radjo	-11.6219
ebi	-11.6222
respon	-11.6222
żrieragħ	-11.6223
▁allerġiku	-11.6223
▁prevedibbli	-11.6223
2/2004	-11.6228
▁tikkontrolla	-11.6233
Kompetittività	-11.6238
▁bagħtet	-11.6238
▁4.8).	-11.624
▁Evalwazzjoni	-11.6243
Ġeorġja	-11.6243
▁Pillola	-11.6248
▁stabbilixxiet	-11.6248
▁vojta	-11.6251
huma	-11.6251
▁Emendi	-11.6254
NACE	-11.626
OLAF	-11.6264
▁Clopidogrel	-11.6269
▁ekoloġika	-11.6274
kaġun	-11.6274
▁taqbel	-11.6274
▁jawtorizzaw	-11.6275
irqad	-11.6276
EES	-11.6278
leġiżlatur	-11.6279
riġlejn	-11.6289
▁Tekniku	-11.6289
▁sikwit	-11.6289
rilokazzjoni	-11.629
▁tispjega	-11.629
ERIC	-11.6291
ikkontrib	-11.6291
▁immarkat	-11.6291
▁bijoloġiċi	-11.6295
apprendist	-11.6305
▁awtomatiċi	-11.6305
derma	-11.6305
kurva	-11.6306
▁sottoskritt	-11.631
▁imkejla	-11.631
▁perjodiċi	-11.6314
5/2013	-11.632
▁jitkejlu	-11.632
▁irreġistrat	-11.6324
▁ho	-11.6329
grazzja	-11.633
stituzzjoni	-11.633
▁proprju	-11.633
distillazzjoni	-11.6336
▁5.4	-11.6336
▁2.7	-11.6338
prijorità	-11.6342
▁jservi	-11.6346
▁jikkura	-11.6347
▁jinfetaħ	-11.6351
kundizz	-11.6351
▁teskludi	-11.6356
▁tissuġġerixxi	-11.6356
istatut	-11.636
berg	-11.6365
Kwistjonijiet	-11.6367
ahhar	-11.6367
tigrijiet	-11.6367
kitba	-11.637
skelet	-11.6371
▁[10]	-11.6372
bijodiżil	-11.6376
▁tifforma	-11.6376
Identifikazzjoni	-11.6377
▁tissorvelja	-11.6377
aptit	-11.6381
reliġjon	-11.6382
▁maqsum	-11.6392
▁titqiegħed	-11.6392
ehm	-11.6393
▁selvaġġi	-11.6398
▁jirrispetta	-11.64
▁jvarja	-11.64
▁jmexxu	-11.6403
▁Accord	-11.6408
▁ġudizzjarju	-11.6408
mber	-11.6411
patata	-11.6412
▁ssodisfat	-11.6412
▁pproċessati	-11.6413
Gass	-11.6414
digriet	-11.6418
preservazzjoni	-11.6424
ITU	-11.6426
front	-11.6427
posizzjoni	-11.6429
Imħallef	-11.6434
▁nervuża	-11.6434
▁griż	-11.6434
cher	-11.6439
▁medicine	-11.6439
▁mġarrba	-11.6439
siġar	-11.644
konvenzjoni	-11.6441
kontabil	-11.6446
innova	-11.6452
Diviżjoni	-11.6453
awditur	-11.6453
▁jintroduċi	-11.6455
▁parlamentari	-11.6455
▁Taljana	-11.6457
▁pulmonari	-11.646
interferenza	-11.646
▁tematiċi	-11.646
divorzju	-11.6465
għelejjel	-11.6465
Tielet	-11.6466
Sub	-11.6466
imsemmi	-11.6469
gas	-11.6472
▁Xjentifiku	-11.6476
/11/	-11.648
Tajwan	-11.6481
▁pprovdew	-11.6486
▁trasversali	-11.6486
dmir	-11.6487
▁ħarġu	-11.6492
distakk	-11.6492
Nomenklatura	-11.6497
sindromu	-11.6497
▁jaċċetta	-11.6498
distorsjonijiet	-11.65
kodifika	-11.6507
FEŻR	-11.6507
ispirtu	-11.6507
▁John	-11.6512
artikoli	-11.6517
xbieki	-11.6518
▁maqbud	-11.6518
▁maħruġin	-11.6518
video	-11.6521
▁isegwu	-11.6523
Verifika	-11.6523
estimi	-11.6524
eżerċita	-11.6524
▁efavirenz	-11.6528
eba	-11.6531
Relazzjonijiet	-11.6534
▁jipprova	-11.654
figuri	-11.6541
kmamar	-11.6544
manwal	-11.6546
missjon	-11.6556
▁jibni	-11.6556
kbir	-11.6557
EURO	-11.6559
transizzjoni	-11.656
Rebbiegħa	-11.6565
▁ntuża	-11.6569
kopri	-11.6571
inkludi	-11.6572
▁5.5	-11.6573
rela	-11.6575
implementazzjoni	-11.6576
▁irriżulta	-11.6576
Azzar	-11.6582
istqarrija	-11.6586
▁direzzjonali	-11.6586
▁jiġbed	-11.6586
▁tariffarja	-11.6586
»	-11.6591
sigurta	-11.6593
▁966/2012	-11.6597
most	-11.6597
metabolit	-11.66
waqtha	-11.66
▁jdum	-11.6608
sulfur	-11.6608
ASE	-11.6614
farmakoviġilanza	-11.6614
fniek	-11.6617
iskambji	-11.6618
▁metabolizzat	-11.6618
9/2009	-11.6622
inkjesta	-11.6623
abr	-11.6624
▁Bankarja	-11.6636
Parteċipazzjoni	-11.6639
kultivazzjoni	-11.6639
Ċittadini	-11.6639
▁mdaħħla	-11.6639
Indiċi	-11.664
▁stil	-11.6641
Ċirk	-11.6643
▁jitfasslu	-11.6655
pjaċir	-11.6655
ġarrbu	-11.6657
ghad	-11.666
rinviju	-11.6661
▁Bonus	-11.6661
sejba	-11.6661
ley	-11.6661
▁simultanja	-11.6671
▁Insuman	-11.6677
▁jintalbu	-11.6677
▁spiċċa	-11.6677
▁jinvesti	-11.6677
Kmandant	-11.6682
Ħarsien	-11.6682
Livell	-11.6685
ħarreġ	-11.6686
▁vivo	-11.6688
involv	-11.6689
▁residenzjali	-11.6693
7/2006	-11.6694
ġbid	-11.6699
butyl	-11.6703
tikkettjar	-11.6703
▁storika	-11.6703
arterji	-11.6709
Emissjonijiet	-11.6712
▁kardjovaskulari	-11.6719
▁jirreġistraw	-11.6723
antibijotiċi	-11.673
▁1907/2006	-11.673
▁jattendu	-11.673
▁Comments	-11.673
▁Industrijali	-11.6731
▁antiċipat	-11.6735
krejatinina	-11.6736
▁komplementari	-11.6736
ximab	-11.6736
varjetajiet	-11.6741
▁adult	-11.6742
Taxxa	-11.6743
0.0	-11.6744
▁tippjana	-11.6746
▁gastrointestina	-11.675
ICCAT	-11.6752
▁jifhmu	-11.6752
rapporteur	-11.6752
**	-11.6763
▁innifsek	-11.6768
degradazzjoni	-11.6772
▁jirnexxi	-11.6773
▁tissospendi	-11.6773
▁pagabbli	-11.6779
Taħlita	-11.678
ffe	-11.6785
▁Agrikolu	-11.6789
▁interessanti	-11.679
▁miġbur	-11.6794
▁sostantiv	-11.6795
kelb	-11.6796
3/2006	-11.6798
▁jintbagħat	-11.6806
▁Organi	-11.6806
tbaħħir	-11.6811
Reġistrazzjoni	-11.6811
▁2006/112/	-11.6811
▁lactose	-11.6811
(4)(	-11.6816
Summit	-11.6816
huwa	-11.6827
ewwi	-11.6829
▁1.9	-11.683
vitamina	-11.6833
▁Aħżen	-11.6843
▁XIII	-11.6844
operattiv	-11.6848
strazzjoni	-11.6853
▁2,5	-11.6854
benessri	-11.6876
rebbiegħa	-11.6882
▁Suprem	-11.6882
ografiċi	-11.689
degrada	-11.6892
planġer	-11.6892
flett	-11.6895
▁imnaqqsa	-11.6898
ċinga	-11.6901
ċiklo	-11.6905
Ġeneral	-11.6907
▁Griegi	-11.6914
▁tniedi	-11.6914
▁prijoritarji	-11.692
▁jiġġustifikaw	-11.6925
▁jipprojbixxu	-11.6925
▁ikkonkluda	-11.6925
istrutturazzjoni	-11.6927
baqar	-11.6928
banju	-11.6936
▁intiżi	-11.694
▁fossili	-11.6942
ramm	-11.6942
▁imkejjel	-11.6944
▁nfiq	-11.6947
sostanzja	-11.6952
▁tranżitorji	-11.6953
▁mitħun	-11.6953
▁manwali	-11.6953
▁neċessarjament	-11.6955
individwu	-11.6955
severità	-11.6959
▁Speċjalizzata	-11.6959
iPhone	-11.6964
▁denominati	-11.6964
snien	-11.6965
pyr	-11.6972
▁Taljani	-11.6973
▁irrapportat	-11.6973
9/2014	-11.6973
sanzjon	-11.6978
sede	-11.698
▁jitressqu	-11.698
▁ikklassifikat	-11.698
mutazzjoni	-11.6984
▁Monetarja	-11.6986
ipprezzar	-11.6986
mowbajl	-11.7002
Operazzjoni	-11.7002
▁konxji	-11.7002
▁awtomatika	-11.7003
(2006)	-11.7004
▁ntużaw	-11.7005
likwidu	-11.7012
Fuljett	-11.7013
interoperabilità	-11.7013
reklam	-11.7019
▁Makkinarju	-11.7019
▁hydrochloride	-11.7024
2/2009	-11.7025
▁rifinanzjament	-11.7029
petizzjoni	-11.7033
ministri	-11.7042
dijalisi	-11.7046
▁implimentattivi	-11.7047
▁tgħaqqad	-11.7052
▁tumuri	-11.7052
▁sinifikattiv	-11.7052
▁oxide	-11.7057
UNJONI	-11.7059
▁tintwera	-11.7063
ANTI	-11.707
▁kkontrollat	-11.7071
rikonċiljazzjoni	-11.7074
▁tipprevjeni	-11.7074
Iżlanda	-11.7074
▁ibsin	-11.7074
▁tessili	-11.7074
salarji	-11.7074
polari	-11.7084
▁tanalizza	-11.7085
kooperattivi	-11.7085
teknika	-11.7086
garanti	-11.7088
rombli	-11.7091
deterjorament	-11.7096
▁Marija	-11.7099
DIS	-11.7101
▁Svizzera	-11.7102
ħbieb	-11.7105
▁sorveljat	-11.7111
▁titressaq	-11.7113
▁dakinhar	-11.7113
—	-11.7115
Klassifikazzjoni	-11.7119
ikklikkja	-11.7119
▁ittestjat	-11.7121
embrijuni	-11.7121
▁steel	-11.7125
rgi	-11.7125
▁Jiġi	-11.7127
PORT	-11.7136
▁mela	-11.7138
pilastru	-11.7141
Londra	-11.7142
suċċessjoni	-11.7143
mudullun	-11.7147
piro	-11.7147
Eġittu	-11.7152
▁jissuġġerixxu	-11.7152
Kulleġġ	-11.7156
intier	-11.7159
nikil	-11.7162
▁Forma	-11.7165
istanza	-11.7169
▁Kummerċjali	-11.7169
demel	-11.717
dinamiċi	-11.7176
▁negozjabbli	-11.718
xhur	-11.7185
▁kredibbli	-11.7186
▁veterinarja	-11.7186
6/2009	-11.7191
▁Bosta	-11.7194
għmlu	-11.7198
▁Norveġiża	-11.7198
simboli	-11.7202
rieq	-11.7202
▁makroekonomiċi	-11.7203
speċifika	-11.7203
FER	-11.7204
lastku	-11.7204
▁tammonta	-11.7206
▁rrispettat	-11.7206
impliment	-11.7208
premju	-11.721
Iraq	-11.7213
ħwienet	-11.7214
▁jintgħażlu	-11.7214
klussiv	-11.7215
▁importat	-11.722
seklu	-11.7221
għargħar	-11.7222
National	-11.7232
regolaturi	-11.7236
istress	-11.7236
vittma	-11.7236
▁jġorru	-11.7237
▁dikjarat	-11.7241
▁nnotat	-11.7243
vizz	-11.7244
down	-11.7247
Aġenziji	-11.7248
iPad	-11.7248
▁artab	-11.7248
▁tgħix	-11.7259
karkassi	-11.7259
▁jiggarantixxi	-11.727
▁jwieġeb	-11.727
▁jawtorizza	-11.7274
▁terminali	-11.7275
▁jaġġusta	-11.7277
ritt	-11.7279
propulsjoni	-11.7282
▁Mont	-11.7283
▁Andr	-11.7284
▁proviżorju	-11.7287
faċilitazzjoni	-11.7288
Malasja	-11.7288
suġġeriment	-11.7293
▁MINIMU	-11.7293
▁familjari	-11.7296
▁skrin	-11.7296
frażi	-11.7297
▁monohydrate	-11.7299
prosperità	-11.7304
kabina	-11.731
▁Każijiet	-11.7316
massimu	-11.7319
casino	-11.7321
▁wettaq	-11.7321
dwiefer	-11.7322
Avveniment	-11.7333
koagulazzjoni	-11.7333
farmaċewtiċi	-11.7339
▁inġenerali	-11.7339
rinforz	-11.7339
▁għalxiex	-11.7339
▁jeċċedi	-11.7344
▁lewn	-11.7345
still	-11.7347
naddaf	-11.735
▁jimmaniġġja	-11.735
torque	-11.7352
muniċipalità	-11.7353
▁stokk	-11.7357
▁klassifikati	-11.7357
etilen	-11.7358
Integrazzjoni	-11.7361
▁viżwali	-11.7361
minjieri	-11.7361
▁kkaratterizzat	-11.7362
sinkroni	-11.7366
laminat	-11.7366
adoloxxenti	-11.7367
▁jipproteġi	-11.7367
▁6.3	-11.7375
subien	-11.7377
INFORMAZZJONI	-11.7379
destinatarju	-11.7379
▁femminili	-11.7379
▁reċentement	-11.7379
▁imorru	-11.7384
flessibilità	-11.7384
▁Legali	-11.7385
▁Frankfurt	-11.739
▁jakkumpanjaw	-11.7394
label	-11.7396
▁staqsi	-11.7396
▁superviżorju	-11.7401
▁ħmura	-11.7402
rappurtaġġ	-11.7407
ispazji	-11.7407
▁1831/2003	-11.7413
▁Scicluna	-11.7413
disinja	-11.7414
▁jorbtu	-11.7419
pannell	-11.7423
ippurgar	-11.7424
individwa	-11.7435
annwali	-11.7439
▁purament	-11.7441
▁Jugoslava	-11.7442
domandi	-11.7442
ċinema	-11.7443
Tuneżija	-11.7448
ċilindri	-11.7448
▁jsostnu	-11.7448
▁setax	-11.7449
▁leġislattiv	-11.7452
▁leġittimu	-11.7459
ovarji	-11.746
▁3.8	-11.7464
▁jitilqu	-11.7471
▁jirtiraw	-11.7476
Xlokk	-11.7476
▁Ġermaniża	-11.7482
▁sservi	-11.7482
▁mimlijin	-11.7482
kessaħ	-11.7488
SEAE	-11.7489
formalitajiet	-11.7489
▁Volum	-11.7497
irziezet	-11.75
▁jiskambjaw	-11.75
▁ultra	-11.75
▁1151/2012	-11.7505
▁drappijiet	-11.7505
▁Ġeneralment	-11.7506
▁inizjalment	-11.7511
▁impeditur	-11.7511
▁(95%	-11.7511
profittabbiltà	-11.7522
ogh	-11.7523
▁tgħarraf	-11.7529
projezzjoni	-11.7531
Progress	-11.7536
Profeta	-11.754
▁malinn	-11.7541
▁aċċidentali	-11.7546
ordinat	-11.7548
eċċess	-11.7551
tirojde	-11.7552
wieqfa	-11.7552
indipendentement	-11.7558
afe	-11.7558
▁jimm	-11.7559
HBV	-11.7561
okkorrenza	-11.7563
varjant	-11.7566
prijorit	-11.7569
ammonju	-11.7569
żla	-11.7575
▁konformement	-11.7581
▁kompla	-11.7582
▁1303/2013	-11.7587
kopja	-11.7592
tressiq	-11.7593
Kapaċità	-11.7593
annullament	-11.7599
▁kiseb	-11.7599
▁jgħidlek	-11.76
▁Road	-11.76
▁ngħas	-11.7607
▁diviż	-11.761
wiss	-11.7611
akkumula	-11.7616
▁ipprojbit	-11.7616
▁30%	-11.7619
▁LIFE	-11.7625
▁jikkonkludi	-11.7628
viċinat	-11.7633
allegazzjoni	-11.7634
Għanijiet	-11.7642
▁Play	-11.7644
▁rappurtat	-11.7645
▁tabilħaqq	-11.7645
distrett	-11.7646
kabbru	-11.7646
▁ikla	-11.765
ħsejjes	-11.7657
▁waħedhom	-11.7657
ABE	-11.7663
tigrija	-11.7668
▁jinqalgħu	-11.7675
imgħoddi	-11.768
▁formalment	-11.7681
▁kontraċettiv	-11.7681
▁rtirar	-11.7687
phone	-11.7687
afa	-11.7688
ipprogrammar	-11.7693
migr	-11.7706
▁GĦAT	-11.7707
▁statali	-11.7709
▁tibdel	-11.771
▁lokalment	-11.771
▁jintrema	-11.771
▁jumejn	-11.7711
6/2014	-11.7713
quċċata	-11.7716
▁Islandiż	-11.7716
▁titkompla	-11.7716
▁imħallat	-11.7716
sostitw	-11.7722
▁opportun	-11.7732
gwardja	-11.7733
▁Relatur	-11.774
minuti	-11.7747
ming	-11.7748
0/2008	-11.7752
lizumab	-11.7752
ILO	-11.7757
sieħba	-11.7761
Akkwist	-11.7764
▁subordinat	-11.7764
sulfat	-11.7767
book	-11.777
▁oġġettiva	-11.7771
arkivj	-11.7778
9/2008	-11.7781
effiċjent	-11.7789
xxenti	-11.7794
▁2016/2	-11.7795
▁Norveġiżi	-11.7795
Komponent	-11.7795
▁ddisinjat	-11.7798
OX	-11.7799
WHO	-11.7803
aħħarnett	-11.7804
weraq	-11.7811
▁preżunt	-11.7812
▁sanitarji	-11.7812
kkredita	-11.7812
▁mormi	-11.7813
tramuntana	-11.7817
▁EWROPEA	-11.7817
Djalogu	-11.7823
akkwiżizzjoni	-11.7823
▁MEMO	-11.7824
osservanza	-11.7824
▁armati	-11.7836
▁jestendu	-11.7841
Ekotikketta	-11.7842
informatika	-11.7842
rotazzjoni	-11.7844
potassium	-11.7847
installa	-11.7851
jkun	-11.7852
▁jeskludi	-11.7853
Semestru	-11.7853
awtonomija	-11.7858
lamtu	-11.7861
IĠP	-11.7866
▁tintemm	-11.787
Ewropea	-11.7871
▁iħallsu	-11.7871
silġ	-11.7881
divertiment	-11.7884
twemmin	-11.7884
Kummiss	-11.7884
pons	-11.7886
mikrobi	-11.7894
retin	-11.7895
▁jgħaqqdu	-11.7896
Ħaddiema	-11.7896
ssel	-11.7896
żaqq	-11.7899
▁intwera	-11.7902
komplement	-11.7906
wild	-11.7911
dinjità	-11.7912
▁jinfluwenzaw	-11.7914
0.4	-11.7918
▁[11]	-11.792
metriku	-11.7921
▁terrestri	-11.7926
▁Riforma	-11.7926
preferenzi	-11.793
▁OĦRA	-11.7932
▁imwettaq	-11.7932
▁irkupra	-11.7932
għamara	-11.7933
▁timxi	-11.7934
purità	-11.7937
fenomenu	-11.7944
▁Edizzjoni	-11.7944
website	-11.7944
▁sostniet	-11.795
koordinatur	-11.7952
kimiċi	-11.7953
detriment	-11.7956
▁irtirat	-11.7959
bagalji	-11.7962
bajja	-11.7963
▁Galileo	-11.7968
żingu	-11.7969
▁bilanċjat	-11.7974
ajruplan	-11.7979
▁invokat	-11.7989
fiżika	-11.7991
▁miksi	-11.7993
tieħed	-11.7997
korrispondenza	-11.7999
.5.1	-11.8003
▁mmaniġġjar	-11.8005
COP	-11.8005
isimhom	-11.8006
7/2010	-11.8008
nomenklatura	-11.8011
Rumen	-11.8012
Sitt	-11.8013
varjabbli	-11.8016
▁waħdieni	-11.8017
ambizzjoni	-11.8023
disseminazzjoni	-11.8023
iffriżar	-11.8023
FEIS	-11.8026
▁Bayer	-11.8029
salarju	-11.8033
▁tinħareġ	-11.8035
qleb	-11.8038
▁your	-11.8042
▁tirregola	-11.8042
benżo	-11.8043
Paċifiku	-11.8047
workshop	-11.8047
▁iddikjara	-11.8053
▁misjuba	-11.8054
0.9	-11.8055
▁akkwatiċi	-11.806
▁jintremew	-11.806
idejh	-11.8068
▁jolqtu	-11.8072
grilja	-11.8072
karattri	-11.8072
eżempju	-11.8083
000000	-11.8084
▁Kollha	-11.8084
eau	-11.8084
ċarġ	-11.8085
FEI	-11.8087
▁Anki	-11.809
Blackbell	-11.809
▁kontinwi	-11.8096
ingredjent	-11.8097
▁jissostitwixxi	-11.8097
▁titkejjel	-11.8097
abitat	-11.8099
▁182/2011	-11.8104
hydroxy	-11.8109
QU	-11.8113
▁648/2012	-11.8115
▁jifhem	-11.8117
▁ponderat	-11.8127
widna	-11.8128
Familja	-11.8134
▁Applika	-11.8139
▁rikombinanti	-11.814
UNSCR	-11.814
▁korrettiva	-11.8141
▁XIV	-11.8149
Kapijiet	-11.8149
Sinjal	-11.8159
Parteċipant	-11.8162
▁jinqraw	-11.8164
▁mutandis	-11.8171
konnettività	-11.8177
1987	-11.8181
nitrat	-11.8182
▁komplew	-11.8184
▁kkawżat	-11.8185
▁5.1).	-11.8187
ġenitur	-11.8188
▁mutatis	-11.8189
▁strixxi	-11.8189
0.6	-11.819
work	-11.819
▁Skart	-11.8193
▁Dublin	-11.8195
▁tagħmilha	-11.8208
diliġenza	-11.8214
▁tiffinanzja	-11.8215
ombi	-11.8219
▁jimpedixxi	-11.822
▁prudenti	-11.822
tieqa	-11.8222
ġenotip	-11.8227
▁tipikament	-11.8233
REACH	-11.8239
iskadenzi	-11.8239
ippruva	-11.8239
osserva	-11.824
▁muniċipali	-11.8241
akkoljenza	-11.8245
▁temmen	-11.8246
▁Jinnota	-11.8246
9/2013	-11.825
info	-11.825
▁analitiċi	-11.8252
▁esklużivament	-11.8258
▁tranżitorju	-11.8264
▁jirrispondu	-11.827
▁Kimiċi	-11.827
4/2013	-11.8271
lubri	-11.8271
pioglitazone	-11.8277
klejm	-11.8283
▁Irbesartan	-11.8289
PPP	-11.8289
istazzjon	-11.8291
▁alkoħolika	-11.8292
SUQ	-11.8293
Estratt	-11.8295
riservi	-11.8295
kulturi	-11.8303
proporzjonijiet	-11.8304
▁statutorji	-11.8308
mistrieħ	-11.8308
esporta	-11.8313
▁terroristiċi	-11.8314
▁veru	-11.8319
atmosfera	-11.8327
▁statutorju	-11.8333
siment	-11.8334
3/4	-11.8337
▁eżentat	-11.8341
▁Eżempju	-11.8346
eżistenti	-11.8348
miżati	-11.8356
rettifika	-11.836
donazzjoni	-11.8364
Negozju	-11.8365
▁Pilloli	-11.8365
UŻU	-11.8365
▁swap	-11.8367
bżieżaq	-11.8371
▁Minflok	-11.8377
.12.2006	-11.8377
▁jgħaqqad	-11.8384
▁jiffukaw	-11.8384
Ġordan	-11.8384
patrimonju	-11.839
▁mħejji	-11.839
▁45/2001	-11.8391
RAPPORT	-11.8396
widnejn	-11.8396
▁viżiv	-11.8401
▁jitgħallmu	-11.8403
Armenja	-11.8403
għadhomx	-11.8407
▁imniżżla	-11.8409
Ftuħ	-11.841
imħallfin	-11.8422
fenol	-11.8425
▁probabbilment	-11.8434
lukka	-11.8439
▁Rispons	-11.8441
ċellola	-11.8446
(2013)	-11.845
▁HCT	-11.8454
▁tistieden	-11.846
▁jistennew	-11.8466
▁kwalifikanti	-11.8466
enżimi	-11.8469
▁żvantaġġati	-11.8471
▁jiddiskutu	-11.8473
.2.4	-11.8478
▁eżegwit	-11.8479
▁Ilbies	-11.8479
ossiġnu	-11.848
kreatinina	-11.8485
▁jinħareġ	-11.8485
Finlandiż	-11.8485
dwal	-11.8486
▁nediet	-11.8486
ħitan	-11.8486
Proprjetà	-11.8492
▁aħdar	-11.8492
▁mekkaniku	-11.8498
0.00	-11.8501
▁Dexia	-11.8505
partiċelli	-11.8512
possib	-11.8513
Memorandum	-11.8517
vibrazzjoni	-11.8518
▁language	-11.8524
▁lonġitudinali	-11.8524
prattiċi	-11.8529
▁Segwi	-11.853
▁jiġġenera	-11.8537
▁jitħaddmu	-11.8537
▁Kellem	-11.8537
▁monoterapija	-11.8538
▁irċieva	-11.8543
▁USD	-11.8548
epilessija	-11.8556
▁tolqot	-11.8556
imsaren	-11.8556
▁ħdejn	-11.8562
SEPA	-11.8562
▁filgħaxija	-11.8562
twissija	-11.8569
sekwenza	-11.8569
▁klimatiċi	-11.8569
▁mħarsa	-11.8575
▁stqarrija	-11.8578
twil	-11.8579
kolonni	-11.8582
▁bbilanċjat	-11.8585
▁jaqra	-11.8586
2/2011	-11.8586
▁Alimentari	-11.8588
▁Aċidu	-11.8588
Somalja	-11.8601
▁nkunu	-11.8601
▁2008/9	-11.8601
▁prospettiv	-11.8606
1980	-11.8606
▁Kollox	-11.8608
▁[12]	-11.8614
▁Select	-11.8615
Ajruport	-11.8617
Tajlandja	-11.8621
▁jinġieb	-11.8621
evitar	-11.8631
/34/	-11.8638
Kumpaniji	-11.864
bilta	-11.8644
REGOLAMENT	-11.8647
▁Char	-11.8651
▁jiżvela	-11.8653
Madrid	-11.8653
▁mekkanika	-11.866
▁jniġġsu	-11.8666
mbri	-11.8672
studju	-11.8673
phenyl	-11.8674
ritmi	-11.8675
▁jidhirx	-11.8686
▁Parteċipanti	-11.8688
▁ekoloġiku	-11.8692
▁OTC	-11.8695
▁tiġbed	-11.8699
Oħra	-11.87
dixxipli	-11.87
vertebra	-11.8712
▁rġiel	-11.8719
bijokarburanti	-11.872
▁Strument	-11.872
Sistemi	-11.8724
▁ddikjara	-11.8725
Ċittadinanza	-11.8725
kiesaħ	-11.8725
▁Iktar	-11.8725
▁kisbet	-11.8725
NSAID	-11.8726
mingħajr	-11.873
▁titgħallem	-11.8731
▁Esperti	-11.8732
.3.3	-11.8738
▁ċirkolari	-11.8738
simulazzjoni	-11.874
irreferi	-11.8744
Objettiv	-11.8745
▁eventwalment	-11.8745
▁terapewtiċi	-11.8745
▁tistenna	-11.8745
xekkel	-11.8745
sojja	-11.8745
▁naraw	-11.8748
/2013/	-11.8749
6/2010	-11.8756
▁iggarantit	-11.8758
▁Lingwi	-11.8758
▁tissostitwixxi	-11.8764
EGF	-11.8768
▁fattibbli	-11.8771
EJN	-11.8774
▁Stqarrija	-11.8777
kanċellazzjoni	-11.8777
▁irċeviet	-11.8778
▁clopidogrel	-11.8784
▁jinfetħu	-11.8784
▁ottiċi	-11.8785
▁oriġinarjament	-11.8791
▁Mylan	-11.8792
▁imnaqqas	-11.8792
nunzja	-11.8792
karbur	-11.8796
iżbalji	-11.8797
qtil	-11.8798
sħubiji	-11.8799
abbandun	-11.8804
▁indikaw	-11.8805
viżibbiltà	-11.8805
KUMMISSJONI	-11.881
▁organizzattivi	-11.8811
klawżoli	-11.8817
ofili	-11.882
.7.19	-11.8823
▁jiċċekkja	-11.8824
▁Ġwann	-11.8824
▁mekkaniċi	-11.883
Xjenza	-11.8832
▁jgħix	-11.8832
3/2011	-11.8836
▁jikkonkludu	-11.8837
▁joġġezzjona	-11.8837
dgħajjes	-11.8837
▁kilogramm	-11.8844
ector	-11.8846
Alla	-11.8849
▁esportat	-11.8849
EMI	-11.8854
ritonavir	-11.8861
ATTIVI	-11.8861
issettja	-11.8863
tnixxif	-11.8863
▁jisfrutta	-11.8864
▁jirregola	-11.8865
fitting	-11.8868
tjieb	-11.8872
karbonat	-11.8874
▁mfassal	-11.8877
▁twieġeb	-11.8877
▁Ħieles	-11.8877
Ħruġ	-11.8877
▁2014/2	-11.8877
▁540/2011	-11.8883
▁imħejji	-11.8883
▁tressqet	-11.8883
▁kontraċezzjoni	-11.8883
▁Umani	-11.8886
kuritur	-11.8891
ġewż	-11.8893
angiotensin	-11.8897
▁Tabilħaqq	-11.8903
xorta	-11.8904
stream	-11.8904
replika	-11.8904
▁Airlines	-11.891
▁Depożitu	-11.891
plus	-11.891
xibka	-11.8915
diskrepanza	-11.8917
Distrett	-11.8917
▁mmodifikat	-11.8919
1988	-11.8921
sigaretti	-11.8923
▁tiffaċċja	-11.8923
head	-11.8929
▁4.5).	-11.8929
Wikipedija	-11.893
▁ippreżenta	-11.8932
▁demokratiċi	-11.8937
▁addattat	-11.8944
▁Dettalji	-11.895
▁mgħammar	-11.895
▁pedjatrika	-11.895
kampjonat	-11.8957
bbilment	-11.8959
aħbarijiet	-11.8964
ħawwad	-11.8964
▁tqabbel	-11.897
ħelsien	-11.8977
▁jħarsu	-11.8977
evalwa	-11.8977
gressjoni	-11.8981
3/2013	-11.8987
mogħoż	-11.899
terapewtiku	-11.899
Kondizzjonijiet	-11.8991
Prestazzjoni	-11.8991
2/2013	-11.8996
EASA	-11.9
▁2.8	-11.9006
ipoteka	-11.9009
AIDS	-11.901
▁mġiba	-11.9011
▁tkellem	-11.9017
▁Persuna	-11.9021
ożju	-11.9022
iffaċilitar	-11.9022
▁iebes	-11.9024
koordinament	-11.9024
settorjali	-11.9028
Tagħlim	-11.9038
inugwaljanzi	-11.9038
▁Indeboliment	-11.9038
▁ivverifikat	-11.9038
3/2014	-11.9044
▁trimestrali	-11.9044
▁Shi	-11.9046
affettwa	-11.9048
▁tikkomunika	-11.9051
ventilazzjoni	-11.9051
▁jiġġustifika	-11.9052
newtropenija	-11.9058
▁You	-11.9058
nafta	-11.907
▁igawdu	-11.9072
▁ghandu	-11.9072
▁kimiku	-11.9072
▁spazji	-11.9072
▁ifakkar	-11.9075
attitudni	-11.9076
lottijiet	-11.9077
loġistika	-11.9078
▁jaqdi	-11.9078
baħħara	-11.9081
▁ppruvat	-11.9085
▁tiġġustifika	-11.9085
Formola	-11.9085
KtR	-11.9085
▁farmakokinetiku	-11.9092
▁hydroxide	-11.9092
kodifikazzjoni	-11.9097
trakkijiet	-11.9099
▁konkomitanti	-11.9099
▁randomised	-11.9099
GMES	-11.9099
2/2008	-11.9102
▁2009/7	-11.9104
IET	-11.9104
▁LILL	-11.9106
▁ruħek	-11.9115
determina	-11.9115
qabda	-11.9119
relevanza	-11.9119
▁ngħidu	-11.9119
Mikro	-11.9126
▁preparatorja	-11.9126
maternità	-11.9126
riċettur	-11.9127
▁jressqu	-11.914
▁Talba	-11.914
▁vitamini	-11.9146
.6.1	-11.9149
▁jitkompla	-11.9153
▁tikkoordina	-11.9153
Konsum	-11.9154
▁Latina	-11.9154
8/2014	-11.9154
ppermetti	-11.9155
▁Militari	-11.916
ITER	-11.9165
abbiltajiet	-11.9167
▁mixtrija	-11.9167
▁98/8/	-11.9174
▁Finalment	-11.9181
▁jissemma	-11.9187
konnettur	-11.9188
▁storiċi	-11.9194
Sanzjonijiet	-11.9195
▁iffissat	-11.9201
▁solida	-11.9202
traprenditorjali	-11.9208
▁ireddgħu	-11.9208
▁iħeġġeġ	-11.9208
▁jimpenjaw	-11.9208
▁sekondi	-11.9208
▁diskriminatorji	-11.9215
zyme	-11.9225
▁bijoloġika	-11.923
missier	-11.9231
injetta	-11.9234
▁aċċessjonijiet	-11.9247
pilastri	-11.9249
▁emorraġija	-11.9249
▁tinftiehem	-11.9249
▁Quddiesa	-11.9256
▁jaqbdu	-11.9256
volatilità	-11.926
▁Company	-11.9263
▁dinamiku	-11.9263
▁jitilfu	-11.9263
kwadra	-11.9266
komposti	-11.9269
▁intermedji	-11.927
defiċjenza	-11.9276
ZZJONALI	-11.9277
aġġusta	-11.9283
▁Adv	-11.9285
▁timplika	-11.9285
riċevuta	-11.9286
▁6.6	-11.9287
▁jgħarrfu	-11.9291
▁Mizzi	-11.9291
Katina	-11.9292
statika	-11.9294
Arġentina	-11.9298
editur	-11.9302
▁elast	-11.9303
Intrapriżi	-11.9305
enerali	-11.9306
Karibew	-11.9312
▁ffriżat	-11.9319
▁Żmien	-11.9321
tejbu	-11.9338
▁raġonevolment	-11.934
▁jimmira	-11.934
bażat	-11.9345
▁Dollaru	-11.9347
▁Terminu	-11.9347
diżastru	-11.9347
konvertitur	-11.9347
▁sottomess	-11.9353
▁unanimu	-11.936
▁jaħsbu	-11.9361
dwieli	-11.9361
preżerva	-11.9361
Bilanċ	-11.9362
▁jgħarraf	-11.9367
▁mqiegħda	-11.9368
▁isaħħaħ	-11.9368
▁fattwali	-11.9368
▁Paperback	-11.9368
perċezzjoni	-11.9368
▁falz	-11.9369
ħelikopter	-11.9374
▁Zealand	-11.9381
▁konsolidati	-11.9391
fidda	-11.9395
assiguratur	-11.9402
privattiva	-11.9403
sajjieda	-11.9417
▁Żvizzera	-11.9417
▁Għe	-11.9419
depożitarju	-11.9419
polpa	-11.9426
Berlin	-11.9428
Effiċjenza	-11.9431
▁inċidentali	-11.9431
qisien	-11.9432
Taqsimiet	-11.9438
▁jiġġieldu	-11.9438
▁inferjuri	-11.9445
counter	-11.9445
semplifikazzjoni	-11.9446
Nota	-11.9451
kuljum	-11.9456
▁virtwali	-11.9459
▁tirreġistra	-11.9459
ternazzjonalment	-11.9459
imqass	-11.9466
▁trasferibbli	-11.9466
▁jimpjega	-11.9467
sopra	-11.9469
▁Trejner	-11.9473
▁jeskludu	-11.9473
kesħa	-11.9473
filtrazzjoni	-11.9477
kapsuli	-11.9478
▁Ibbażat	-11.948
▁aġġustabbli	-11.948
ġudizzju	-11.9493
▁Google	-11.9494
▁disoproxil	-11.9494
▁faċilitat	-11.9498
▁lingwistiċi	-11.9501
duplikazzjoni	-11.9508
▁stress	-11.9509
▁Chris	-11.9509
tossikoloġi	-11.9515
Manwal	-11.9516
4/2009	-11.9521
iżolament	-11.9523
akkwirent	-11.9529
▁jipperikola	-11.9529
▁negliġibbli	-11.9529
ġobon	-11.9544
▁ppreżentaw	-11.9544
▁ddum	-11.9545
▁Fornitur	-11.9548
▁timtela	-11.9551
Żoni	-11.9553
kompens	-11.9557
▁ntlaħaq	-11.9558
diploma	-11.956
sovranità	-11.9562
ghat	-11.9563
iġjene	-11.9565
▁jesprimu	-11.9565
▁jitpoġġew	-11.9565
▁ottika	-11.9567
siġġu	-11.9567
istitut	-11.9571
▁Breezhaler	-11.9579
▁Pubbliċi	-11.9579
infjammazzjoni	-11.9581
ammid	-11.9582
▁Eżempji	-11.9586
▁kuntent	-11.9588
▁Passiv	-11.959
▁ikkoordinat	-11.9594
▁imġarrba	-11.9594
▁2001/83/	-11.9594
qanq	-11.96
▁aromatiċi	-11.9601
▁jibdel	-11.9601
▁irbesartan	-11.9608
▁daqstant	-11.9612
Prosekutur	-11.9615
▁splussiv	-11.9615
vakwu	-11.9615
▁ħabbret	-11.9615
pożizzjona	-11.9615
Kreditu	-11.9619
sentejn	-11.9626
intix	-11.9626
▁jitwaqqfu	-11.9627
▁ĠENERALI	-11.9629
Reġistratur	-11.9637
172)	-11.9639
filgrastim	-11.9644
istainless	-11.9644
tbatija	-11.9644
▁ekstra	-11.9645
▁remot	-11.9645
provinċja	-11.9647
Tazza	-11.965
▁XXI	-11.9659
tarzna	-11.9659
Gwida	-11.9663
▁1829/2003	-11.9665
▁Hawnhekk	-11.9667
▁awtonomi	-11.9668
tixjiħ	-11.9672
▁vireg	-11.9673
▁jikkomunika	-11.9674
eċen	-11.9675
dibattiti	-11.9687
▁jobbliga	-11.9687
saqaf	-11.9689
▁Stabbil	-11.9692
litju	-11.9698
▁moħbija	-11.9701
▁torbot	-11.9701
Promozzjoni	-11.9702
▁jitħarsu	-11.9709
▁tacrolimus	-11.9709
terroristi	-11.9723
ċaqlaq	-11.9723
game	-11.973
▁apparenti	-11.9738
▁ddeċieda	-11.9738
▁jinkoraġġixxi	-11.9738
Jekk	-11.9738
▁prekawzjoni	-11.974
▁Spins	-11.974
faks	-11.9742
▁allegatament	-11.9745
distillat	-11.9745
▁bilfors	-11.9745
index	-11.9746
Bastimenti	-11.9752
▁Agħżel	-11.9752
▁Operazzjonijiet	-11.9753
Kapitoli	-11.9759
irritorna	-11.9762
punent	-11.9767
▁bilqiegħda	-11.9767
▁jinqasmu	-11.9767
▁Sirjan	-11.977
▁ulterjorment	-11.9781
inbejjed	-11.9781
▁kontrih	-11.9782
▁stimi	-11.9784
/2014/	-11.9787
qodma	-11.9788
▁manifatturat	-11.9793
Ristrutturar	-11.9796
munizzjon	-11.9808
akkademiċi	-11.981
▁kroniku	-11.981
▁kumplimentari	-11.981
hold	-11.9811
▁jaħtru	-11.9815
▁jħejji	-11.9818
▁konxju	-11.9818
▁niexef	-11.9818
BERS	-11.9818
▁mużikali	-11.9818
kapsula	-11.9821
ARTIKOLU	-11.9825
Qasam	-11.9825
▁Skeda	-11.9825
Ħames	-11.9833
palm	-11.9836
▁Nofsani	-11.9839
▁Addizzjonali	-11.984
Kongo	-11.984
▁jippromovu	-11.9847
Windows	-11.9847
▁Slovakka	-11.9848
▁ipprovda	-11.9854
amlodipine	-11.9861
merluzz	-11.9861
trawwim	-11.9861
twaqqigħ	-11.9861
▁awtorizzanti	-11.9862
▁mwettaq	-11.9869
artiklu	-11.9876
▁Drappijiet	-11.9876
▁Hydro	-11.9876
▁Kriminali	-11.9876
▁Preċedenti	-11.9876
toqba	-11.9876
▁holding	-11.9877
▁possibli	-11.9884
▁klassifikata	-11.9885
▁kortikosterojdi	-11.9885
dijanjosi	-11.9891
▁jippreġudika	-11.9891
▁tikkuntattja	-11.9891
▁jressaq	-11.9891
attribut	-11.9893
privattivi	-11.9893
FAEG	-11.9893
banana	-11.9895
negozjant	-11.9898
▁partikularment	-11.9898
▁Aċċessorji	-11.9906
partikuli	-11.9907
arkitettura	-11.9913
sottoskrizzjoni	-11.9913
▁iddedikat	-11.992
▁dedikat	-11.9922
▁mellitus	-11.9928
xaħmijiet	-11.9932
▁Intelliġenti	-11.9935
▁jinftiehmu	-11.9935
▁kollegament	-11.9943
Miżura	-11.9943
soċj	-11.9947
▁investigattiv	-11.9948
ħwawar	-11.995
▁fumarate	-11.995
▁riversibbli	-11.995
antiċipa	-11.9952
ħsibijiet	-11.9957
▁jfixklu	-11.9957
▁multiplu	-11.9957
5/2012	-11.9963
▁Parkinson	-11.9965
▁tinbena	-11.9965
▁irritazzjoni	-11.9965
lipid	-11.9972
▁promozzjonali	-11.9972
▁veloċi	-11.9973
▁ammessi	-11.9987
fokus	-11.9989
▁mifhum	-11.9991
Pjanijiet	-11.9991
5/2006	-11.9993
Operat	-11.9994
▁dioxide	-11.9994
▁umanitarji	-11.9996
lampa	-12.0001
tgħammir	-12.0002
karigi	-12.0009
drenaġġ	-12.0009
▁jippubblika	-12.0012
▁ċċekkjat	-12.0017
▁ppjanar	-12.0017
▁tissejjaħ	-12.0018
▁investit	-12.002
▁robust	-12.0024
▁jitlesta	-12.0032
▁ressaq	-12.0032
RDPK	-12.0039
mogħdija	-12.0039
▁Disponibbli	-12.0039
▁Normalment	-12.0039
Istampa	-12.0039
1986	-12.004
Kapitlu	-12.0047
inħawi	-12.0047
volontarjat	-12.0053
▁jkollhiex	-12.0054
▁preview	-12.0054
▁Iċċekkja	-12.0062
▁RESPONSABBLI	-12.0062
onora	-12.0065
▁Enbrel	-12.0069
▁riportat	-12.0069
Amministratur	-12.007
preżunzjoni	-12.0077
▁twettqet	-12.0077
imitazzjoni	-12.0082
▁kollaborattiv	-12.0084
▁Kulur	-12.0084
Konverġenza	-12.0092
▁elettorali	-12.0092
▁waħdek	-12.0092
isimha	-12.0097
▁jiċċelebra	-12.0099
http	-12.0105
▁Ħlief	-12.0114
somom	-12.0115
komplu	-12.0117
sodium	-12.0122
bużżieqa	-12.0122
▁Bidu	-12.0126
▁imfassal	-12.0129
disinji	-12.0129
ankraġġ	-12.0137
▁jerħu	-12.0137
▁ssorveljat	-12.0138
awditu	-12.0143
▁ibridi	-12.0144
▁jiċċara	-12.0144
▁timmonitorja	-12.0152
insetti	-12.0153
Globalizzazzjoni	-12.0154
▁Eżenzjoni	-12.0159
rikorrenza	-12.0159
▁iddeċidiet	-12.0159
▁jintwerew	-12.0159
▁infettiv	-12.016
▁levodopa	-12.0175
Health	-12.0175
abjad	-12.0176
▁jelenka	-12.0182
▁urtikarja	-12.0182
Child	-12.0183
fażola	-12.0186
▁Kjoto	-12.019
fluwidi	-12.019
▁ECLI	-12.019
▁jimpedixxu	-12.0205
▁immexxija	-12.0213
▁jittrasferixxi	-12.0213
▁matrimonjali	-12.0213
▁2001/29	-12.0213
intitolament	-12.0213
▁Frott	-12.0218
▁jissejħu	-12.022
▁kkoreġut	-12.022
trażbord	-12.022
gżira	-12.0221
driegħ	-12.0225
▁Marittimi	-12.0228
▁sildenafil	-12.0228
imħallef	-12.0233
Bosnja	-12.0235
▁immuntat	-12.0235
▁jitfa	-12.0236
KOLL	-12.0237
▁mgħarrfa	-12.0243
Gvernijiet	-12.0245
tica	-12.0249
▁respiratorju	-12.0251
▁stonku	-12.0251
dijossidu	-12.0258
immaġini	-12.0266
ullah	-12.0267
LOTT	-12.0272
korrużjoni	-12.0274
▁Jidher	-12.0274
▁prominenti	-12.0274
▁jirreġistra	-12.0277
tkarkir	-12.0281
▁jitlaq	-12.0285
▁jissemmew	-12.0289
▁tiġġenera	-12.0289
▁jikkaġuna	-12.0289
4/2004	-12.0291
▁Laħam	-12.0297
esternalizza	-12.0302
▁maskili	-12.0305
▁xaħmi	-12.0308
Portal	-12.0308
▁3.9	-12.031
ebusija	-12.032
parkeġġ	-12.032
▁diġa	-12.0323
▁okkupazzjonali	-12.0327
dqiq	-12.0327
▁Folja	-12.0327
istallazzjoni	-12.0341
0.7	-12.0343
▁Talbiet	-12.0344
▁Jiena	-12.0346
/49/	-12.0348
▁liberament	-12.0351
8/2007	-12.0354
▁miġġielda	-12.0358
Messiku	-12.0358
Tariffa	-12.0358
▁jakkumpanja	-12.0368
Ugwaljanza	-12.0381
▁tipprojbixxi	-12.0381
diskrepanzi	-12.0397
▁projbit	-12.0397
▁ntqal	-12.0397
▁1.0	-12.0398
▁kkurat	-12.04
▁Uħud	-12.0404
▁kmiem	-12.0405
▁tbiddel	-12.0412
irkaptu	-12.0412
Maniġer	-12.0413
▁jiftħu	-12.042
6/2013	-12.0421
proba	-12.0423
bilirubin	-12.0428
twieqi	-12.0435
▁tiffavorixxi	-12.0443
▁profonda	-12.0444
taħt	-12.0444
eżerċizzji	-12.0451
▁nwasslu	-12.0451
dijanjostika	-12.0451
komoditajiet	-12.0451
funzjonalità	-12.0455
8/2013	-12.046
dipendenti	-12.0461
oxo	-12.0461
insuffiċjenza	-12.0462
UNECE	-12.0467
▁tgawdi	-12.0467
Emenda	-12.0471
wassal	-12.048
▁ghandhom	-12.0482
BEREC	-12.0482
Awwissu	-12.0487
▁argumentat	-12.0489
▁deċimali	-12.049
riżorsa	-12.0498
2/2006	-12.0503
segretarjat	-12.0506
▁idaħħlu	-12.0506
ħarifa	-12.0506
▁jiċċertifika	-12.0513
isptarijiet	-12.0514
▁kritiku	-12.0522
vision	-12.0525
Oċean	-12.053
mappa	-12.0532
Membru	-12.0543
kowċ	-12.0544
KOMP	-12.0545
blast	-12.0549
/98/	-12.0549
waqgħa	-12.055
▁jieqaf	-12.0553
kollezzjoni	-12.0555
smart	-12.0557
ifrat	-12.0557
▁sfurzat	-12.0561
duċu	-12.0561
▁Għażliet	-12.0568
▁perjodikament	-12.0568
▁nnominat	-12.0573
Milied	-12.0576
organu	-12.0576
GNSS	-12.0577
▁Esterna	-12.0577
molluski	-12.0584
▁imnixxef	-12.0584
▁tiċċara	-12.0592
▁TOTAL	-12.0593
8/2009	-12.0595
Deputat	-12.06
▁użaw	-12.0603
▁020	-12.0608
0.8	-12.0611
▁mimli	-12.0618
Għarfien	-12.0632
▁1306/2013	-12.0632
Kopenħagen	-12.064
▁interoperabbli	-12.064
▁tressqu	-12.064
favorit	-12.064
▁retroattiv	-12.064
▁ħaddieħor	-12.0641
trombo	-12.0642
▁jiddiskuti	-12.0648
4/2014	-12.0649
▁esprimiet	-12.0655
▁jassistu	-12.0655
toqob	-12.0656
▁[13]	-12.0656
tribunal	-12.0657
benefiċj	-12.0658
▁tradott	-12.0662
▁sperimentali	-12.0663
▁ffurmat	-12.0663
sempliċi	-12.0666
xtut	-12.067
perspettivi	-12.0679
▁dalwaqt	-12.0679
deprezzament	-12.068
Għajn	-12.0681
▁jħaddmu	-12.0687
▁Regolatorju	-12.0687
Turiżmu	-12.0687
▁vakanti	-12.0687
▁jitniżżlu	-12.0695
sinifikat	-12.0695
▁Għandna	-12.0703
▁konvenjenti	-12.0703
▁iġorr	-12.0703
▁jiksru	-12.0703
rimbors	-12.0704
▁kkoopera	-12.0707
▁jirrelataw	-12.0711
▁mwaqqfa	-12.0711
volont	-12.0726
▁tirkupra	-12.0727
▁preċedentement	-12.0727
lvant	-12.0733
▁2010/4	-12.0733
Public	-12.0743
▁jfassal	-12.0743
▁storiku	-12.0743
▁Charles	-12.0744
ċilindru	-12.0751
▁jissejjaħ	-12.0752
▁ibb	-12.0755
ibbilanċjar	-12.0759
▁cisplatin	-12.0759
Dawl	-12.076
trasmett	-12.0764
▁estremi	-12.0764
lokalità	-12.0766
tlugħ	-12.077
/2010/	-12.0772
▁mqassma	-12.0775
▁notevoli	-12.0775
▁jirrestrinġu	-12.0783
soċjeta	-12.0787
▁downstream	-12.0792
▁jikkumplimenta	-12.0792
▁multinazzjonali	-12.0801
▁Oqgħod	-12.0808
approssim	-12.0815
▁jilqgħu	-12.0816
▁waħedha	-12.0816
▁2009/138/	-12.0816
▁Maniġerjali	-12.0816
▁ikkalkolat	-12.0816
ixprun	-12.0816
kWh	-12.082
▁ideali	-12.0822
PARLAMENT	-12.0824
▁kaloriji	-12.0824
ekonomika	-12.0824
ipprovdu	-12.0826
▁forsi	-12.0827
DEĊIŻJONI	-12.0832
Esportazzjoni	-12.0832
▁Kreattiv	-12.0834
(2005)	-12.0835
▁epatika	-12.084
▁1272/2008	-12.084
lakuni	-12.0843
platti	-12.0844
dijaliżi	-12.0856
8/2012	-12.0859
▁2004/2	-12.086
▁mwaħħla	-12.0864
▁2014/65/	-12.0864
▁stimulat	-12.0864
▁rrifjutat	-12.0866
konfiska	-12.0872
▁Kostituzzjonali	-12.0872
▁Esterni	-12.0872
▁tirrakkomanda	-12.0872
▁rutina	-12.0873
search	-12.0873
lding	-12.0875
▁referenzjarji	-12.088
għaqdiet	-12.0881
▁immunitarja	-12.0881
▁jassisti	-12.0881
stabilizza	-12.0886
▁nfisha	-12.0889
għandiex	-12.0891
8/2006	-12.0893
ċirkola	-12.0894
tkeċċija	-12.0897
interface	-12.0897
kwartieri	-12.0897
▁iddelegat	-12.0902
▁ffukat	-12.0906
▁eħfef	-12.0913
maqlub	-12.0913
sikka	-12.0917
▁jesprimi	-12.0921
▁jinqabdu	-12.0921
RAPEX	-12.0921
▁jikkumpensa	-12.0922
▁kampus	-12.0922
▁afferma	-12.0923
likwidi	-12.0925
▁Nukleari	-12.0929
awtentiċità	-12.0937
▁KARTUNA	-12.0938
albumina	-12.0938
immuntar	-12.0938
Depożiti	-12.0938
Qaddis	-12.0938
▁ittieħdet	-12.0946
pitravi	-12.0946
▁ppakkjat	-12.0946
▁MHUX	-12.0954
▁mħaddma	-12.0954
▁akkumpanjament	-12.097
▁prevalenti	-12.097
▁roża	-12.0972
▁rċivew	-12.0978
▁isostnu	-12.0979
OBD	-12.098
▁ppakjati	-12.0987
Riskji	-12.0987
/42/	-12.0999
Iżlandiż	-12.1003
▁solvuti	-12.1003
muniċipalitajiet	-12.1012
▁jordna	-12.1012
▁sinjifikanti	-12.102
▁tippromovi	-12.102
▁ndaħħlu	-12.1028
▁ostaklu	-12.1028
Belarus	-12.1036
▁Teknika	-12.1036
▁stitikezza	-12.1036
▁azzjonarji	-12.1036
prosekutur	-12.1044
▁illegalment	-12.1044
Passaport	-12.1045
inkoraġġiment	-12.1053
faċilita	-12.1053
Frodi	-12.1053
Dwana	-12.1061
▁glycol	-12.1063
nutrijenti	-12.1069
Radju	-12.1075
Kategoriji	-12.1086
▁ikkontestat	-12.1086
Kaxxa	-12.1088
▁issostni	-12.1094
▁mgħobbija	-12.1094
▁preferibbilment	-12.1094
raggruppament	-12.1102
▁jipprojbixxi	-12.1102
▁jitkellmu	-12.1102
▁identifikabbli	-12.1102
▁dormitorji	-12.1111
▁żvelar	-12.1111
risposti	-12.1111
▁limfo	-12.1113
ekonomiku	-12.1113
▁Game	-12.1114
intergovernattiv	-12.1114
▁Agrikola	-12.1119
▁iservu	-12.1119
2/2014	-12.1127
enċefal	-12.1127
letteratura	-12.1127
▁ammissibbli	-12.1127
▁inadegwat	-12.1133
fobija	-12.1136
▁iebsin	-12.1136
▁ttieħdet	-12.1136
▁revokata	-12.1137
▁Prekawzjonijiet	-12.1144
▁ddettaljati	-12.1144
▁ntgħażlu	-12.1152
▁528/2012	-12.1153
Smigħ	-12.1153
biża	-12.116
(2016)	-12.1161
Modulu	-12.1161
Invest	-12.1165
oġġezzjoni	-12.1166
▁jinġabar	-12.1169
▁Steel	-12.1169
istruzzjoni	-12.1173
▁mmirat	-12.1175
xog	-12.1176
impuls	-12.1178
ekonomiċi	-12.1182
▁jittrasferixxu	-12.1186
▁facto	-12.1191
▁Maria	-12.1198
Alġerija	-12.1211
▁Barroso	-12.1211
ikteb	-12.1213
udjenza	-12.1218
▁Strateġiku	-12.1219
sorvelja	-12.122
▁jdur	-12.1224
▁jitwaħħlu	-12.1228
Adulti	-12.1228
▁Ġappuniż	-12.1228
Noti	-12.1235
kalibrazzjoni	-12.1236
Materja	-12.1239
Pakkett	-12.1244
Vjetnam	-12.1245
(2015)	-12.1253
zewg	-12.1254
▁preparatorji	-12.1262
ħabitats	-12.1262
▁Miftuħ	-12.1262
▁107(3)(	-12.1262
▁cas	-12.1263
OKS	-12.1265
▁2004/38	-12.127
plasma	-12.1271
ċirko	-12.1281
Frontex	-12.1287
manipulazzjoni	-12.1287
Moviment	-12.1287
Ċipru	-12.1287
bidwi	-12.1293
segretezza	-12.1295
▁trasmess	-12.1312
▁irridu	-12.1313
ktajjen	-12.1329
ppreserva	-12.1329
▁2007/2	-12.1336
▁Liprolog	-12.1338
delitt	-12.1341
waqfa	-12.1346
Kawżi	-12.1347
Eżami	-12.1349
Injam	-12.1351
fungi	-12.1355
▁Jagħti	-12.1355
Paċi	-12.1355
▁Flixkun	-12.1363
▁awtentiku	-12.1363
budget	-12.1372
▁diverġenti	-12.1372
▁esprimew	-12.1372
▁ettaru	-12.1373
hijiex	-12.1375
▁abacavir	-12.138
▁mġedda	-12.138
▁tiġġedded	-12.138
▁jinnegozjaw	-12.138
hydrate	-12.1389
Kunfidenza	-12.1389
enerġiji	-12.1389
▁jmexxi	-12.1389
▁żżejjed	-12.1389
xmajjar	-12.1389
▁mmuntat	-12.1389
oriġinal	-12.1397
konsenji	-12.1397
▁jingħelbu	-12.1397
kapitlu	-12.1398
▁konvint	-12.1398
▁predominanti	-12.1406
▁ordinarji	-12.1406
▁jesperjenzaw	-12.1406
▁Brittanja	-12.1415
▁jissostitwixxu	-12.1415
ħbula	-12.1415
distrib	-12.1417
▁informattiv	-12.1425
▁avjarja	-12.1432
▁Ħjut	-12.1432
▁niżguraw	-12.144
▁noramli	-12.144
▁Stud	-12.1445
▁Sho	-12.1446
▁jolqot	-12.1449
Palestinjan	-12.1449
Aħbarijiet	-12.1466
▁varjat	-12.1469
Osservatorju	-12.1475
▁jintegraw	-12.1475
▁laħqet	-12.1475
ħrieqi	-12.1475
Ingilterra	-12.1492
Elettriku	-12.1501
▁Monetarju	-12.1501
▁tirrevoka	-12.1501
▁respiratorja	-12.1509
▁stiednet	-12.1509
▁Amazon	-12.1509
reżiljenza	-12.1527
▁FULJETT	-12.1527
▁jiċċaqilqu	-12.1527
▁vvalidat	-12.1527
▁Skema	-12.1527
▁eventwali	-12.1531
▁acetate	-12.1535
▁jaqbad	-12.1536
▁Gold	-12.154
▁proviżorji	-12.1544
▁twaqqfet	-12.1544
naviga	-12.1549
▁antivirali	-12.1553
▁titlef	-12.1553
▁Għodod	-12.1561
xufier	-12.1561
fdalijiet	-12.1562
.4.3	-12.1569
▁merħba	-12.157
▁supplenti	-12.1579
utilizzazzjoni	-12.1579
▁jiskadu	-12.1588
koppji	-12.1588
ċineg	-12.1588
▁preservat	-12.1593
agħżel	-12.1603
▁Docetaxel	-12.1605
▁mmanifatturat	-12.1609
Deutsche	-12.1614
▁ikkonkludiet	-12.1614
▁jqiegħdu	-12.1614
▁skambjata	-12.1614
rekluta	-12.162
▁iffurmat	-12.1623
▁tirrispondi	-12.1623
▁Sodium	-12.1623
Oriġini	-12.1631
abbonat	-12.164
▁niexfa	-12.164
imwiet	-12.1642
house	-12.1642
kelliem	-12.1642
▁tibla	-12.1651
depend	-12.1652
▁rrevokat	-12.1656
Ċentri	-12.1658
(2014)	-12.1662
▁abitwali	-12.1666
▁nixtieq	-12.1666
▁jinbdew	-12.1666
▁fokali	-12.1667
qbad	-12.1677
▁volatili	-12.1679
thio	-12.168
cellulose	-12.1684
▁20.12.2013	-12.1684
▁Funzjoni	-12.1684
Governanza	-12.1693
▁Marittimu	-12.1693
▁reġgħet	-12.1693
▁riferenza	-12.1693
▁Tekniċi	-12.1693
Mobil	-12.1694
▁makroekonomiku	-12.1702
▁[14]	-12.1702
OĠM	-12.1702
▁Definizzjoni	-12.1706
ISPOŻIZZJONIJIET	-12.171
▁2007/46/	-12.171
▁Olanzapine	-12.171
▁analitiku	-12.171
ilqugħ	-12.1727
glukosju	-12.1728
▁imqabbla	-12.1728
petroleum	-12.1728
risistemazzjoni	-12.1737
professjonali	-12.1764
▁awtorizza	-12.1767
▁karċinoġen	-12.1771
konsiderevolment	-12.1772
▁Metodi	-12.1772
▁Rapid	-12.1773
Paragrafu	-12.1781
Twelid	-12.1781
burokrazija	-12.1781
▁tappella	-12.1782
xandr	-12.1783
▁ippakkjat	-12.1799
▁tagħraf	-12.18
Indikatur	-12.1802
▁Joseph	-12.1808
Ażil	-12.1811
▁inkrementali	-12.1817
▁Svediż	-12.1817
▁ratiopharm	-12.1826
Mistoqsijiet	-12.1835
/96/	-12.1838
.10.19	-12.1844
Kostruzzjoni	-12.1853
▁supplementari	-12.1862
▁irċevew	-12.1862
▁2011/2	-12.1864
▁1380/2013	-12.1871
▁jappartjeni	-12.1871
▁jintrabtu	-12.1871
▁jieqfu	-12.188
▁Tqala	-12.188
HbA	-12.188
▁infart	-12.1881
▁jaqtgħu	-12.1889
Libertà	-12.1889
ġewwieni	-12.1889
mexxej	-12.1892
Sottokumitat	-12.1898
REKWIŻITI	-12.1907
▁konsulari	-12.1907
▁warajh	-12.1923
▁Griega	-12.1934
▁paragunabbli	-12.1934
▁portabbli	-12.1934
batteri	-12.194
▁.............	-12.1941
▁tinfetaħ	-12.1943
▁reċiproċi	-12.1947
▁jitqassmu	-12.1952
▁jittrenja	-12.1952
▁iressqu	-12.1952
flieles	-12.1953
▁iħarsu	-12.1961
▁jaffetwa	-12.1961
▁jheddu	-12.1961
▁jiddeskrivu	-12.1961
▁jipproponu	-12.1961
dimensjona	-12.1961
▁drive	-12.1967
asbestos	-12.197
tunnellaġġ	-12.1979
HICP	-12.1979
▁distribwit	-12.1997
▁capita	-12.1997
▁taghhom	-12.2006
detezzjoni	-12.2007
▁globalment	-12.2015
▁titlesta	-12.2015
▁tittrasferixxi	-12.2015
▁jimblokka	-12.2016
Teknoloġiji	-12.2024
inċertezzi	-12.2024
deżinjazzjoni	-12.2024
▁1224/2009	-12.2025
kwestjonarji	-12.2033
▁esprima	-12.2033
tqabbid	-12.2052
JRC	-12.2052
Impjant	-12.2053
MRL	-12.2056
ħbub	-12.2061
▁peżat	-12.2067
6/2012	-12.2075
Pugh	-12.2079
Qawwa	-12.2079
▁azzjonarja	-12.2079
▁Altmark	-12.2088
▁SIRENE	-12.2098
▁ifasslu	-12.2098
doppju	-12.2101
memorandum	-12.2107
▁kostruttiv	-12.2107
Provvista	-12.2107
▁sterojdi	-12.2107
▁isostni	-12.2107
▁peginterferon	-12.2116
▁determinanti	-12.2134
għadux	-12.2143
Inizjattivi	-12.2144
▁jinstemgħu	-12.2144
▁avżat	-12.2144
▁ikkurat	-12.2146
newtralità	-12.2149
▁Direzzjonali	-12.2153
▁awtonomu	-12.2153
▁vjolenti	-12.2153
distributur	-12.2161
Filippini	-12.2162
▁aggressiv	-12.2162
▁tassumi	-12.2162
kwantifikazzjoni	-12.2171
Uffi	-12.2177
▁MANIFATTUR	-12.2178
▁lingwistika	-12.2181
Istruzzjonijiet	-12.2181
bojler	-12.219
▁York	-12.219
▁jikkoopera	-12.2203
▁rrispondew	-12.2208
viżitaturi	-12.2208
▁Iranjan	-12.2211
barrieri	-12.2218
ċibersigurtà	-12.2218
missili	-12.2219
▁student	-12.2226
Rikonoxximent	-12.2227
▁Facebook	-12.2227
ħarrġu	-12.2236
▁Parrokkjali	-12.2236
▁rikjedenti	-12.2236
qofol	-12.2236
▁PRODOTTI	-12.2236
▁Sensittività	-12.2245
nhar	-12.2254
suspensjoni	-12.2254
Ġinevra	-12.2255
valsartan	-12.2264
▁jitressaq	-12.2264
▁sitagliptin	-12.2264
Network	-12.2264
moniter	-12.2271
baċir	-12.2272
▁ibbilanċjat	-12.2273
▁jistabilixxi	-12.2273
▁tfixkel	-12.2273
▁ġenerika	-12.2273
Vettura	-12.2274
irmonk	-12.2281
▁Introduzzjoni	-12.2283
▁jitħaddem	-12.2283
▁jiġbdu	-12.2283
xaft	-12.2286
awtentikazzjoni	-12.2291
▁demokratiku	-12.2292
▁jissospendi	-12.2292
▁zidovudine	-12.2292
▁jkollna	-12.2292
żraben	-12.2292
Faċilita	-12.2302
Konformità	-12.2302
▁xkumat	-12.2302
▁ttrasportat	-12.2302
Mudell	-12.2303
▁nodfa	-12.2311
▁tibbaża	-12.2311
immassimizza	-12.2311
▁strixxa	-12.2311
Tabelli	-12.2311
▁imparzjali	-12.2314
▁produttivi	-12.2316
newtrofili	-12.232
▁jirrevedu	-12.232
newropatija	-12.233
Singapor	-12.233
summit	-12.233
kwarantina	-12.2339
CARIFORUM	-12.2348
klawsola	-12.2348
▁jsofru	-12.2348
▁imexxi	-12.2348
sellef	-12.2356
▁impurtat	-12.2358
▁prijoritarju	-12.2358
▁unilaterali	-12.2358
atmosferi	-12.2358
.8.19	-12.2359
SERVIZZ	-12.2367
mekkani	-12.2376
Kampjonat	-12.2377
Tranżazzjonijiet	-12.2377
▁difettuż	-12.2377
▁distrettwali	-12.2377
▁jinqara	-12.2377
Ħiliet	-12.2378
▁Direct	-12.2379
▁Hawn	-12.2385
▁residwa	-12.2396
Madagaskar	-12.2405
xjuħija	-12.2405
▁intermedju	-12.2405
▁motorizzat	-12.2405
ringieli	-12.2405
▁ippreservat	-12.2405
Trasparenza	-12.2415
▁Kalkolu	-12.2415
▁jivvota	-12.2415
▁rigoruż	-12.2415
▁preferut	-12.2415
▁Maċedonjan	-12.2415
▁sabiħ	-12.2416
▁dijanjostiċi	-12.2424
▁frammentat	-12.2424
Libanu	-12.2424
▁riċiklat	-12.2424
▁Zentiva	-12.2434
▁dejjiema	-12.2434
▁iffaċilitat	-12.2443
▁510/2006	-12.2453
▁lopinavir	-12.2453
▁Armonizzat	-12.2453
▁sostnew	-12.2453
impediment	-12.2453
▁jisħaq	-12.2453
awditi	-12.2453
embriju	-12.2458
▁jitqabblu	-12.2462
▁jsostni	-12.2462
▁suwed	-12.2462
▁jħeġġu	-12.2462
ħerqa	-12.2463
cookies	-12.2472
▁tordna	-12.2472
▁soċjoekonomiċi	-12.2472
▁rrappreżentat	-12.2475
▁Żerriegħa	-12.2481
▁difetti	-12.2481
▁attribwibbli	-12.2491
▁wġigħ	-12.2491
▁spirtu	-12.2491
▁jiffranka	-12.2498
▁jissieħbu	-12.25
▁teċċedi	-12.25
▁Ministerjali	-12.25
▁telenka	-12.25
▁mmaniġġjat	-12.25
espert	-12.2508
▁jibbaża	-12.2519
grass	-12.2524
▁stand	-12.2528
veterinarju	-12.2529
▁pprovda	-12.2529
vaguni	-12.2529
Premessa	-12.2539
Ginea	-12.2542
▁mibni	-12.2542
(2012)	-12.2558
Libertajiet	-12.2558
SALW	-12.2558
Koeżjoni	-12.2558
osteo	-12.2559
TQEGĦID	-12.2567
xarabank	-12.2567
possibilitajiet	-12.2577
▁jitfassal	-12.2577
▁jagħlaq	-12.2577
dexamethasone	-12.2587
▁jitlestew	-12.2587
▁dentali	-12.2597
▁2016/6	-12.2601
Imħallfin	-12.2606
▁interkulturali	-12.2606
▁jaċċessaw	-12.2606
pajsaġġ	-12.2616
screen	-12.2616
▁toqol	-12.2616
struttura	-12.2617
▁ulċera	-12.2617
editja	-12.2623
Tarzna	-12.2625
aripiprazole	-12.2625
▁FILWAQT	-12.2625
▁imsaħħaħ	-12.2625
Liċenzja	-12.2625
Uffiċċji	-12.2635
eradikazzjoni	-12.2635
▁reġgħu	-12.2635
Gwerra	-12.2635
peptid	-12.2637
ispeċifiċitajiet	-12.2645
▁suwiċidju	-12.2645
▁jitpoġġa	-12.2645
6/2002	-12.265
imblukkar	-12.2654
▁diplomatiċi	-12.2654
Restrizzjoni	-12.2654
▁09.41	-12.2664
djalogi	-12.2664
Amerka	-12.2664
irkoppa	-12.2664
Superviżuri	-12.2674
repożitorju	-12.2674
▁Ikklikkja	-12.2674
▁skada	-12.2675
▁Stampa	-12.2675
tħejjijiet	-12.2679
▁neqsin	-12.2683
▁Kaletra	-12.2683
▁iservi	-12.2684
▁identiku	-12.2703
stabbilit	-12.2703
▁Operattiv	-12.2704
▁ġenetika	-12.2707
.11.19	-12.2709
▁kardijaka	-12.2713
▁[15]	-12.2713
separat	-12.2717
Elettro	-12.2723
Teżor	-12.2725
KUMITAT	-12.2732
▁999/2001	-12.2732
▁staġonali	-12.2732
▁WARA	-12.2732
▁rajna	-12.2733
▁interkonness	-12.2736
duħħan	-12.2742
5/2014	-12.2749
ħeffa	-12.2752
Global	-12.2758
▁azzjonarju	-12.2762
4/2010	-12.2769
▁jippreskrivi	-12.2771
▁kkumpensat	-12.2772
unanimità	-12.2781
▁QABEL	-12.2781
▁Tiegħek	-12.2781
vaġina	-12.2785
piraterija	-12.2791
▁tikkoopera	-12.2791
ċivil	-12.2793
seduti	-12.2806
▁SPEĊJALI	-12.2821
▁tagħlaq	-12.2821
maħżen	-12.2821
▁Rupee	-12.2821
akkreditament	-12.2821
▁mhedda	-12.283
griżmejn	-12.283
Infurzar	-12.284
qegħda	-12.284
▁spezzjonat	-12.284
Opportunitajiet	-12.285
▁titħaddem	-12.285
▁eżawrjenti	-12.286
dispaċċ	-12.286
kumpilazzjoni	-12.286
Andorra	-12.287
▁mistieden	-12.287
▁analogi	-12.287
▁kumplikazzjoni	-12.287
▁iġġib	-12.288
assenjazzjoni	-12.288
tunnellata	-12.2882
▁annullat	-12.289
▁illeċitu	-12.289
▁tiċċekkja	-12.289
serħan	-12.2893
Fjuwil	-12.29
PROĊEDURA	-12.291
▁wahda	-12.291
▁jinbnew	-12.291
ċelluloża	-12.292
ruminanti	-12.292
Ġlieda	-12.292
▁nieħdu	-12.293
festival	-12.293
adapter	-12.293
▁jilgħab	-12.294
▁jinftiehem	-12.294
superstiti	-12.294
kaxex	-12.294
▁tletin	-12.294
aċċessibilità	-12.2951
isfruttar	-12.296
▁EWLENIN	-12.296
▁Folji	-12.296
attestazzjoni	-12.2965
KUMMERĊ	-12.297
▁jiffavorixxu	-12.298
gradwati	-12.298
leżjonijiet	-12.2984
kadmju	-12.299
ħobż	-12.299
▁jiċċirkola	-12.299
▁Stokkolma	-12.3
▁tħallsu	-12.3
eCall	-12.3
▁Elementi	-12.3001
▁Obbligi	-12.301
▁jinibixxi	-12.301
▁titkellem	-12.301
Impriżi	-12.301
▁madanakollu	-12.302
ħlewwa	-12.302
Litwan	-12.3028
▁jitħejjew	-12.303
studji	-12.3032
▁invażivi	-12.304
▁jimtlew	-12.304
ponderazzjoni	-12.304
immunosoppress	-12.305
gverta	-12.3051
▁radikali	-12.3054
▁qarrieqa	-12.306
▁imbiegħda	-12.306
frieħ	-12.3068
▁televiżiv	-12.307
investigatur	-12.3076
▁mniżżlin	-12.308
▁mċajpra	-12.308
▁Vjenna	-12.3081
▁imsejsa	-12.3081
Laboratorju	-12.3091
konsorzju	-12.3091
impuritajiet	-12.3091
Termini	-12.3091
▁jittrasponu	-12.3101
▁jiġġeddu	-12.3101
Osservazzjoni	-12.3101
Liberja	-12.3102
affidabilità	-12.3111
fejqan	-12.3111
▁jipprekludi	-12.3111
▁remettar	-12.3111
Applikant	-12.3115
ġlud	-12.3122
4/2008	-12.3126
▁Privat	-12.3127
laqgha	-12.3129
8/2003	-12.3133
kupun	-12.3135
oriġinatur	-12.3139
kategorizza	-12.3141
Xahar	-12.3141
interpreta	-12.315
POLITIKA	-12.3152
▁mħarrġa	-12.3152
▁ansjetà	-12.3152
Isqof	-12.3152
Privatezza	-12.3153
tqattigħ	-12.3162
▁System	-12.3162
▁Ikseb	-12.3162
Premier	-12.3162
▁Franġisku	-12.3172
.12.2008	-12.3172
▁injorat	-12.3176
orizzont	-12.3182
ĦRUĠ	-12.3182
▁mibrum	-12.3182
▁issiġillat	-12.3183
▁Sintomi	-12.3193
tidwir	-12.3193
▁grazzi	-12.3193
EUCAP	-12.3203
▁differit	-12.3204
Niġer	-12.3205
ġudikatura	-12.3213
▁jesiġu	-12.3213
▁titfassal	-12.3213
manjiera	-12.3213
▁innutat	-12.3213
▁iċċekkja	-12.3218
Traduzzjoni	-12.3219
▁naħdmu	-12.3223
▁jiswew	-12.3223
▁sostna	-12.3223
▁ittrasferit	-12.3224
▁Siringa	-12.3234
▁kontinġenza	-12.3234
▁92/43/	-12.3234
Fruntiera	-12.3244
▁intlaħaq	-12.3244
falsifikazzjoni	-12.3244
▁jirrevedi	-12.3244
4/2006	-12.3245
▁ddettaljata	-12.3254
Importazzjoni	-12.3256
dgħufija	-12.3264
▁minfuħ	-12.3265
ċentrali	-12.3273
knisja	-12.3275
▁GHz	-12.3275
ġnub	-12.3275
▁tropikali	-12.3285
tidwil	-12.3285
kożmetiċi	-12.3295
▁Għeluq	-12.3295
Ċertifikazzjoni	-12.3296
▁Custom	-12.3296
Bundes	-12.3296
▁maħluq	-12.3297
terapiji	-12.3306
tniżżil	-12.3306
▁Sandoz	-12.3306
▁Inkella	-12.3306
▁operatorja	-12.3316
source	-12.3327
salamun	-12.3328
calcium	-12.3337
▁imqabbel	-12.3337
▁javża	-12.3337
▁tispiċċa	-12.3337
▁Agħmel	-12.3337
▁immanifatturat	-12.3341
▁MEDIĊINALI	-12.3347
▁mijokardijaku	-12.3347
▁ntlaħqu	-12.3347
xadini	-12.3348
▁tgħodd	-12.3358
▁iħallu	-12.3358
dgħufijiet	-12.3368
▁jiċċaqalqu	-12.3368
▁tistaqsi	-12.3368
musrana	-12.3368
Johnson	-12.337
aldeid	-12.3375
sejbien	-12.3379
▁rogħda	-12.3379
▁estremament	-12.3389
▁tissimplifika	-12.3389
inklinazzjoni	-12.3389
▁Struttura	-12.3389
internal	-12.3391
gwardji	-12.341
▁Laburista	-12.341
▁migratorji	-12.341
Aluminju	-12.341
▁883/2004	-12.342
▁jitkellem	-12.342
▁mobilizzat	-12.3424
Georgia	-12.3431
▁ppreferut	-12.3431
Salmonella	-12.3431
kredibbiltà	-12.3431
possibiltà	-12.3431
siġġijiet	-12.3431
Jemen	-12.3431
Solvenza	-12.3441
▁1290/2005	-12.3441
▁mgħoddija	-12.3441
deliberazzjoni	-12.3443
eżattezza	-12.346
▁David	-12.3462
▁Paġna	-12.3462
niġġes	-12.3463
ipergliċemija	-12.3473
▁federali	-12.3473
▁tbigħ	-12.3473
ANNESS	-12.3476
▁possibilment	-12.3483
koxxa	-12.3484
Bibbja	-12.3494
aromatizzanti	-12.3505
minoranzi	-12.3505
tagħqid	-12.3505
▁beħsiebha	-12.3515
infjammatorji	-12.3515
▁tinqara	-12.3515
imparzjalità	-12.3522
penetrazzjoni	-12.3526
▁soċjalment	-12.3526
▁stradali	-12.3526
Irkupru	-12.3526
akkoppjament	-12.3536
▁intanġibbli	-12.3536
inkarigu	-12.3536
▁Daħħal	-12.3536
▁89/6	-12.3537
trejdjunjins	-12.3547
▁jegħlbu	-12.3547
▁storbju	-12.3547
▁Reding	-12.3547
▁rċieva	-12.3558
NRTI	-12.3559
Barċellona	-12.3568
▁miġbud	-12.3568
▁pulzier	-12.3568
▁Apparti	-12.3568
OPERAZZJONI	-12.3574
Kroat	-12.3576
Prezzijiet	-12.3578
▁Corporation	-12.3579
▁[16]	-12.3579
ViraferonPeg	-12.3589
▁siewja	-12.3589
Ippjanar	-12.3589
ispjegazzjoni	-12.359
Tassazzjoni	-12.359
Istħarriġ	-12.36
Quddiem	-12.36
kript	-12.3603
▁Pregabalin	-12.3611
▁ketoconazole	-12.3611
Norveġiż	-12.3617
2006/48/	-12.3621
▁pedjatriku	-12.3621
▁demografiċi	-12.3621
House	-12.3623
ċerimonja	-12.3632
▁Twitter	-12.3632
dieħla	-12.3643
▁iħeġġu	-12.3643
▁1049/2001	-12.3654
▁mħallas	-12.3664
▁alihi	-12.3664
Grafika	-12.3665
blokok	-12.3665
Kolombja	-12.3675
▁Jintuża	-12.3675
karrieri	-12.3675
▁titwaħħal	-12.3686
diossini	-12.3686
▁Tiħux	-12.3697
krofinanzjarja	-12.3697
Valur	-12.3698
imbark	-12.3699
Groenlandja	-12.3707
quddies	-12.3707
▁Michael	-12.3707
▁iħejju	-12.3707
▁Awissu	-12.3707
▁kontraindikat	-12.3708
spejjeż	-12.3716
▁Tajba	-12.3718
Institut	-12.3718
▁Poġġi	-12.3718
[...]
