<unk>	0
<s>	0
</s>	0
-	-2.18953
▁	-3.16927
,	-3.69945
▁ta	-3.78824
▁tal	-3.83221
▁l	-3.83733
’	-3.91313
.	-3.95896
▁u	-4.09844
▁li	-4.19551
'	-4.27361
▁il	-4.58877
i	-4.63349
a	-4.90258
)	-4.99237
▁(	-5.04486
▁għall	-5.31009
▁jew	-5.42564
▁fil	-5.47701
▁b	-5.48991
▁f	-5.551
▁mill	-5.5967
s	-5.60734
▁ma	-5.62313
▁għal	-5.64122
/	-5.68972
▁fl	-5.74012
▁L	-5.74315
▁Il	-5.80967
▁minn	-5.82867
▁dwar	-5.86607
:	-5.89854
x	-5.91843
▁fuq	-5.92063
;	-5.96671
b	-6.00307
jiet	-6.00428
t	-6.066
u	-6.08034
▁tas	-6.08342
▁tat	-6.1196
▁biex	-6.13193
▁t	-6.15543
w	-6.253
▁ir	-6.25585
Artikolu	-6.26599
l	-6.28189
Kummissjoni	-6.30733
▁tad	-6.3398
e	-6.35375
▁tar	-6.36736
▁għandhom	-6.3713
▁id	-6.37677
UE	-6.39445
▁it	-6.40724
Regolament	-6.42225
▁s	-6.46347
mod	-6.46443
▁is	-6.47582
▁lill	-6.52434
▁għandu	-6.54376
▁r	-6.55924
▁mal	-6.56442
▁d	-6.5693
▁kif	-6.58287
il	-6.58441
▁dan	-6.58835
▁huma	-6.65779
f	-6.67232
▁huwa	-6.6892
▁jiġu	-6.68948
▁għandha	-6.70172
d	-6.74208
▁1	-6.74638
ta	-6.75188
Unjoni	-6.76371
o	-6.78254
Kunsill	-6.79232
▁Membri	-6.79282
▁fis	-6.79833
Istati	-6.81758
KE	-6.81914
g	-6.82678
▁Nru	-6.83027
li	-6.83293
▁skont	-6.84448
▁tagħhom	-6.86926
r	-6.89525
▁mhux	-6.89587
▁tkun	-6.90704
▁aktar	-6.90835
▁m	-6.91088
▁j	-6.91913
ti	-6.9212
”	-6.92195
▁jiġi	-6.92572
▁jkun	-6.93046
in	-6.93525
▁B	-6.94372
▁in	-6.94718
▁bħala	-6.96719
c	-6.97997
ri	-6.99695
▁jekk	-7.00318
▁Ewropea	-7.00393
▁hija	-7.01169
▁2	-7.02168
▁Ewropew	-7.02681
▁kollha	-7.02794
▁sabiex	-7.03683
h	-7.03691
m	-7.03997
2	-7.0457
▁S	-7.05296
▁fi	-7.05681
1	-7.07269
▁din	-7.10178
▁bil	-7.11255
▁bejn	-7.12488
▁dawn	-7.12686
▁n	-7.13096
▁wara	-7.13464
▁tiġi	-7.14002
▁tiegħu	-7.14201
Direttiva	-7.14231
▁kull	-7.14701
▁F	-7.14834
▁ukoll	-7.14947
▁jistgħu	-7.15299
A	-7.15906
▁“	-7.16279
▁jista	-7.16769
▁fir	-7.17878
▁meta	-7.18615
ar	-7.18797
▁3	-7.20341
di	-7.21396
▁oħra	-7.22307
▁se	-7.22785
▁fit	-7.25443
suq	-7.25687
n	-7.25874
▁p	-7.26556
▁A	-7.26874
el	-7.27153
▁tagħha	-7.27783
ment	-7.29842
al	-7.30305
ja	-7.32329
er	-7.32839
▁fejn	-7.33206
▁sa	-7.33919
T	-7.33923
S	-7.34336
azzjoni	-7.35017
▁ikun	-7.35131
▁hemm	-7.35998
na	-7.36408
▁għat	-7.3697
at	-7.3711
▁jkunu	-7.37507
C	-7.37587
▁bl	-7.3792
▁dawk	-7.38756
B	-7.39584
Anness	-7.39847
3	-7.40078
▁T	-7.40905
▁permezz	-7.41111
ra	-7.41259
▁nazzjonali	-7.41821
▁qed	-7.43228
▁I	-7.4342
użu	-7.44213
en	-7.4439
L	-7.44817
k	-7.45085
▁C	-7.45341
▁taħt	-7.47981
▁M	-7.48094
▁tista	-7.48282
rigward	-7.48513
y	-7.50099
▁ikunu	-7.50271
▁qabel	-7.50318
q	-7.50429
▁Ir	-7.51057
4	-7.51913
ir	-7.52564
każ	-7.53157
P	-7.53204
ma	-7.53292
▁»	-7.53382
et	-7.54495
▁%	-7.55132
▁biss	-7.56572
▁tan	-7.56618
▁Membru	-7.56917
Parlament	-7.57089
▁wkoll	-7.57123
▁Id	-7.57376
K	-7.57543
dan	-7.57948
I	-7.58492
D	-7.59098
▁5	-7.59846
ha	-7.60493
M	-7.61198
▁kien	-7.61203
▁partikolari	-7.61688
ji	-7.61699
p	-7.6191
▁Dan	-7.62252
ħ	-7.62659
▁fid	-7.63371
▁wieħed	-7.6352
▁għas	-7.6393
ni	-7.6406
zzjoni	-7.65072
Istat	-7.65148
R	-7.66708
F	-7.66863
5	-7.66891
ewwel	-7.68025
ed	-7.69086
Deċiżjoni	-7.69153
▁4	-7.69164
ati	-7.69488
or	-7.69731
an	-7.698
ż	-7.70089
aw	-7.71275
awtoritajiet	-7.71289
▁It	-7.71609
E	-7.7172
paragrafu	-7.72126
▁K	-7.72565
▁P	-7.72958
għ	-7.7305
▁E	-7.73468
"	-7.7363
G	-7.73646
▁bi	-7.73788
N	-7.73813
du	-7.74601
6	-7.74763
▁–	-7.75124
▁xi	-7.7515
▁billi	-7.76374
▁tiegħek	-7.77254
▁im	-7.774
is	-7.77505
▁lil	-7.77649
▁mg	-7.77705
ċi	-7.77846
data	-7.79148
konformità	-7.79828
implimentazzjoni	-7.8013
j	-7.80726
▁Is	-7.80978
(	-7.81064
istess	-7.81268
livell	-7.8129
▁kienu	-7.8157
id	-7.81775
▁10	-7.81915
on	-7.82023
lu	-7.82691
it	-7.83202
informazzjoni	-7.83441
re	-7.84457
▁6	-7.84468
da	-7.84798
▁dak	-7.84889
▁Jekk	-7.85224
▁kwalunkwe	-7.85246
▁D	-7.86214
▁għad	-7.86907
▁informazzjoni	-7.87409
▁għar	-7.87855
ka	-7.88137
ċ	-7.88176
z	-7.88313
hom	-7.88485
ali	-7.88728
es	-7.89023
8	-7.89268
miżuri	-7.89831
ara	-7.89902
▁mingħajr	-7.90119
mi	-7.90205
]	-7.90306
▁kontra	-7.91439
▁kemm	-7.92218
applikazzjoni	-7.92393
Kumitat	-7.94335
sistema	-7.94815
▁prodotti	-7.95728
punt	-7.96084
għan	-7.97761
▁ġenerali	-7.97869
▁k	-7.98033
am	-7.98103
▁bħal	-7.98743
7	-7.98769
iżvilupp	-7.99037
▁waħda	-7.99381
te	-7.99705
▁G	-7.99998
▁żmien	-8.00147
▁ħafna	-8.00652
ol	-8.01786
▁ieħor	-8.0257
▁stabbiliti	-8.02637
rekwiżiti	-8.03032
H	-8.03637
enerġija	-8.0414
ur	-8.0429
▁iżda	-8.04409
▁ser	-8.04506
aħħar	-8.04868
▁minħabba	-8.05254
V	-8.05593
▁Din	-8.05608
▁matul	-8.05928
ru	-8.05979
▁komuni	-8.06454
saħħa	-8.07169
▁kienet	-8.07731
prodotti	-8.07831
▁disponibbli	-8.08556
le	-8.08858
▁flimkien	-8.09718
▁H	-8.10391
xogħol	-8.10475
▁meħtieġa	-8.10509
▁Stat	-8.10847
▁7	-8.11473
Ftehim	-8.11601
▁tax	-8.11606
▁soċjali	-8.12012
▁rilevanti	-8.12118
▁lejn	-8.12762
▁Fil	-8.13214
im	-8.13457
▁"	-8.1348
▁V	-8.13531
amp	-8.13649
▁ġew	-8.13804
▁hekk	-8.14235
▁g	-8.14547
▁oħrajn	-8.14745
▁8	-8.15132
regoli	-8.15219
dispożizzjoni	-8.15792
▁miżuri	-8.16119
▁min	-8.16441
em	-8.16702
▁taż	-8.16756
servizzi	-8.1691
ing	-8.17496
▁ġejjin	-8.17755
▁jin	-8.18292
▁U	-8.1837
▁In	-8.18522
▁12	-8.18537
▁Fl	-8.18775
drittijiet	-8.18929
test	-8.19701
▁parti	-8.19702
ebda	-8.19872
▁[	-8.20177
perjodu	-8.21086
▁&	-8.2165
▁kompetenti	-8.2171
Ewropa	-8.21714
▁iktar	-8.21724
▁msemmija	-8.21882
▁jit	-8.21974
▁ġej	-8.22255
▁J	-8.22939
awtorità	-8.23007
de	-8.2408
▁dik	-8.25187
ju	-8.25217
▁taċ	-8.25428
vi	-8.25542
▁mis	-8.25617
▁internazzjonali	-8.25962
ata	-8.2653
Trattat	-8.27474
eż	-8.27585
qa	-8.27786
tip	-8.2788
ek	-8.27958
ul	-8.2812
aktar	-8.28417
▁finanzjarji	-8.28455
▁differenti	-8.28565
prodott	-8.29356
▁iż	-8.29501
ter	-8.29623
ew	-8.29642
ch	-8.29699
trasport	-8.30221
sena	-8.3029
?	-8.30329
▁waqt	-8.30669
▁inklużi	-8.30836
U	-8.31141
pajjiżi	-8.31243
tu	-8.31291
ku	-8.31855
▁legali	-8.31936
▁ġie	-8.31968
▁hu	-8.32176
sigurtà	-8.32193
10	-8.32381
liġi	-8.3265
iż	-8.32659
O	-8.32659
politika	-8.32709
▁sena	-8.32923
qasam	-8.33432
riskju	-8.34165
min	-8.34415
ro	-8.35543
settur	-8.35616
ġ	-8.35746
▁mit	-8.35989
W	-8.36107
v	-8.3613
▁—	-8.36297
▁ċ	-8.36363
▁hawn	-8.36708
ġi	-8.37082
▁mid	-8.37217
▁EUR	-8.37229
għajnuna	-8.37368
▁Barra	-8.37496
ne	-8.38035
▁Diċembru	-8.38277
▁20	-8.38593
▁9	-8.3871
▁relatati	-8.39146
pazjenti	-8.3957
aq	-8.39742
▁meħtieġ	-8.3988
us	-8.39919
▁inkluż	-8.39948
kundizzjonijiet	-8.39974
▁de	-8.4028
▁quddiem	-8.40322
seħħ	-8.40385
▁applikabbli	-8.40563
(1)	-8.40578
ammont	-8.40582
▁skond	-8.40602
▁Meta	-8.40689
▁speċifiċi	-8.40874
Komunità	-8.4098
ament	-8.41241
▁N	-8.41354
proċedura	-8.41531
▁servizzi	-8.41976
ija	-8.42147
▁R	-8.42329
▁ġodda	-8.42342
Qorti	-8.42651
▁pazjenti	-8.42754
produzzjoni	-8.42785
▁sal	-8.43454
▁finanzjarja	-8.43535
attivitajiet	-8.43545
▁X	-8.43583
▁ċerti	-8.43852
▁15	-8.44731
▁madwar	-8.4495
▁Madankollu	-8.4514
valur	-8.4516
ġdid	-8.45387
art	-8.45436
▁mir	-8.45669
tur	-8.45827
tieni	-8.46199
dejta	-8.46464
din	-8.46493
▁Ewropej	-8.467
▁fih	-8.46869
ispejjeż	-8.47047
oħra	-8.47191
ad	-8.47222
kura	-8.47411
tri	-8.47454
▁xieraq	-8.47766
▁Wara	-8.4792
▁II	-8.47949
▁mar	-8.48063
ut	-8.48524
▁stabbilit	-8.48641
dritt	-8.49056
programm	-8.49166
ĠU	-8.49373
▁jkollhom	-8.49484
partijiet	-8.4964
‐	-8.49724
▁19	-8.49795
▁Dawn	-8.50278
protezzjoni	-8.50598
bażi	-8.50655
9	-8.50656
▁importanti	-8.51189
▁13	-8.51308
rata	-8.51413
▁11	-8.51421
▁‘	-8.51782
mu	-8.5229
se	-8.52482
▁TA	-8.52663
os	-8.53056
ki	-8.53262
▁snin	-8.5372
▁Għal	-8.53746
importazzjoni	-8.53911
istituzzjonijiet	-8.54068
ass	-8.54187
(2)	-8.54405
post	-8.54898
▁tieħu	-8.55046
KEE	-8.55219
▁filwaqt	-8.55648
▁totali	-8.55863
00	-8.5588
pajjiż	-8.55901
▁sakemm	-8.56037
żi	-8.56127
▁ġiet	-8.56561
▁possibbli	-8.56598
żona	-8.56937
▁jintuża	-8.56946
turi	-8.56978
proċess	-8.57078
ot	-8.57131
jar	-8.57865
iet	-8.57916
dħul	-8.58095
azzjonijiet	-8.58414
▁30	-8.58503
ent	-8.58991
kapaċità	-8.59434
KESE	-8.59453
lo	-8.59475
anti	-8.59483
▁O	-8.59604
▁Ma	-8.59636
jew	-8.59863
assi	-8.60433
▁14	-8.60517
ko	-8.60526
▁barra	-8.60917
▁pajjiżi	-8.60921
1/	-8.611
▁għalhekk	-8.6116
▁inqas	-8.61772
sajd	-8.61788
▁tingħata	-8.62207
▁jistabbilixxi	-8.62373
ilma	-8.62401
ajru	-8.6242
Artikoli	-8.6252
▁ż	-8.62612
▁addizzjonali	-8.62638
va	-8.62668
qu	-8.62727
▁bażi	-8.62766
▁kummerċjali	-8.62809
industrija	-8.62821
▁Huwa	-8.6284
inqas	-8.62976
tra	-8.63048
▁2009	-8.63607
żewġ	-8.63755
▁iċ	-8.63974
ikel	-8.64187
to	-8.64306
hekk	-8.64471
▁doża	-8.65032
um	-8.6509
un	-8.65326
▁tfisser	-8.65362
▁terzi	-8.665
▁sinifikanti	-8.66585
qafas	-8.66589
0	-8.66645
▁japplikaw	-8.66821
▁għajnuna	-8.67109
fer	-8.67335
st	-8.67772
deċiżjoni	-8.6809
▁livell	-8.68225
▁referenza	-8.68281
dawl	-8.68554
rapport	-8.6856
▁hi	-8.68645
parti	-8.68755
▁miljun	-8.68772
arja	-8.69079
forma	-8.69342
▁Ġunju	-8.70047
20	-8.70737
J	-8.70934
fatt	-8.70973
per	-8.71168
ist	-8.71357
annimali	-8.71477
proposta	-8.71562
nu	-8.71992
▁Għalhekk	-8.72216
ambjent	-8.72358
▁18	-8.72407
▁fihom	-8.72435
▁Stati	-8.72579
▁kon	-8.72859
▁Għall	-8.73279
ġestjoni	-8.74079
pa	-8.74145
isem	-8.742
prezz	-8.74352
▁appoġġ	-8.74556
tul	-8.74692
zzjonijiet	-8.74739
▁2014	-8.74905
▁responsabbli	-8.75112
BĊE	-8.75145
jo	-8.75154
▁bżonn	-8.75266
▁Jannar	-8.75276
▁16	-8.75415
▁jagħmlu	-8.75555
▁pubbliku	-8.75579
▁W	-8.75689
▁tliet	-8.75737
emissjonijiet	-8.7624
uri	-8.7633
proċeduri	-8.7656
pożizzjoni	-8.76591
kon	-8.76885
op	-8.7692
valutazzjoni	-8.77406
▁jintużaw	-8.77515
▁personali	-8.77681
▁jinkludu	-8.77748
▁lokali	-8.77783
▁25	-8.77837
kom	-8.78024
Repubblika	-8.78103
▁simili	-8.7814
Aġenzija	-8.78246
kummerċ	-8.78365
▁eżistenti	-8.78654
fi	-8.78742
ess	-8.78979
▁mhumiex	-8.79041
ża	-8.79161
▁speċjali	-8.7929
ex	-8.79414
għa	-8.79569
▁persuni	-8.79738
Z	-8.7984
prezzijiet	-8.79927
▁fiha	-8.79946
od	-8.8016
▁Lulju	-8.80217
numru	-8.80314
▁2008	-8.80316
▁pubbliċi	-8.80331
approvazzjoni	-8.80336
doża	-8.80366
▁2013	-8.80587
tar	-8.8059
organizzazzjoni	-8.80714
▁għolja	-8.8094
att	-8.81094
▁darba	-8.81263
▁re	-8.81315
▁TAL	-8.81334
▁xierqa	-8.8136
sistemi	-8.81435
all	-8.81668
▁annwali	-8.81716
iku	-8.8188
▁tnaqqis	-8.8217
riżultati	-8.82222
▁tagħna	-8.82233
▁jieħdu	-8.82318
▁ewlenin	-8.82354
▁17	-8.82803
▁jingħata	-8.82916
ħajja	-8.8293
baġit	-8.83106
▁attwali	-8.83113
▁kontroll	-8.83132
aċċess	-8.83323
▁ambjentali	-8.83336
euro	-8.8346
bbli	-8.83491
▁kuljum	-8.83624
▁diġà	-8.83755
għanijiet	-8.83832
Q	-8.8389
kooperazzjoni	-8.84245
Implimentazzjoni	-8.84281
bejgħ	-8.84462
▁jipprovdu	-8.84486
▁jiżguraw	-8.84744
naħa	-8.85053
taxxa	-8.85383
15	-8.85645
▁finali	-8.85674
▁Sabiex	-8.85995
▁jipprovdi	-8.86141
impatt	-8.86266
▁mogħtija	-8.86367
▁applikazzjoni	-8.86377
kuntest	-8.86508
sitwazzjoni	-8.86635
▁politika	-8.86867
▁żgurat	-8.87085
ef	-8.87163
▁ssir	-8.87171
rati	-8.87217
▁żewġ	-8.8734
▁Re	-8.87497
▁użu	-8.87938
kwalità	-8.88751
▁Marzu	-8.88772
▁tin	-8.88907
żmien	-8.89203
▁fin	-8.89219
▁24	-8.89263
▁ix	-8.89337
▁Kull	-8.89664
▁2011	-8.89706
gt	-8.89722
▁aħjar	-8.89747
po	-8.90011
AN	-8.90054
▁prodott	-8.90075
▁100	-8.90209
▁mil	-8.90347
▁2012	-8.90453
▁Ottubru	-8.90474
leġiżlazzjoni	-8.90544
mo	-8.90598
aħ	-8.90665
▁sistema	-8.90683
kontenut	-8.90697
▁pubblika	-8.90966
ħa	-8.91016
▁2015	-8.91034
▁Mejju	-8.91039
tnaqqis	-8.91247
enza	-8.91455
kontroll	-8.91601
port	-8.9166
għoti	-8.91919
ità	-8.92107
co	-8.92112
pjan	-8.92174
ok	-8.92208
▁japplika	-8.92214
▁persuna	-8.92649
▁50	-8.92693
Awtorità	-8.92816
piż	-8.92901
▁2007	-8.92978
▁Ħ	-8.93046
tal	-8.9307
▁xhur	-8.93086
ħin	-8.93135
▁tekniċi	-8.93146
▁2016	-8.93267
finanzjament	-8.93875
(3)	-8.93876
▁Skont	-8.9416
▁fost	-8.94164
ċittadini	-8.94292
▁21	-8.94521
kol	-8.94558
▁stabbilita	-8.9465
Ġ	-8.94789
▁inti	-8.9487
▁reġjonali	-8.9494
▁ogħla	-8.95251
▁aċċess	-8.95272
ce	-8.95526
▁ml	-8.95536
▁2010	-8.9563
▁inter	-8.95854
ER	-8.95924
▁fiż	-8.96115
tit	-8.96186
9/	-8.96239
grupp	-8.96501
▁marbuta	-8.96652
nuqqas	-8.96653
▁III	-8.96667
▁jsir	-8.96885
▁ekonomika	-8.96955
▁jkunx	-8.97024
bniedem	-8.97025
▁Novembru	-8.97054
riżorsi	-8.97068
▁tagħmel	-8.97189
▁abbażi	-8.97268
▁individwali	-8.97331
man	-8.97407
▁riskju	-8.97911
ika	-8.98018
19	-8.982
obbligi	-8.98435
dak	-8.98467
▁kura	-8.98562
▁mad	-8.98867
sit	-8.98876
▁tip	-8.9891
ine	-8.99249
om	-8.99327
▁oġġetti	-8.99435
Fond	-8.99466
▁bis	-9.00243
▁jum	-9.00249
appoġġ	-9.00368
16	-9.00446
konsumaturi	-9.00459
lt	-9.00462
▁azzjoni	-9.00548
termini	-9.00589
pre	-9.00686
ard	-9.00772
▁prinċipali	-9.0102
bo	-9.01119
▁ħdan	-9.01127
livelli	-9.01247
▁globali	-9.01447
▁Kif	-9.01494
lista	-9.01549
30	-9.01565
eri	-9.01581
13	-9.01744
▁sostenibbli	-9.01851
tkabbir	-9.02258
▁jinkludi	-9.02313
▁jagħti	-9.02317
ejn	-9.02388
tika	-9.02543
dis	-9.02599
▁ċivili	-9.02657
▁April	-9.02866
ħtieġa	-9.02887
pi	-9.02928
Parti	-9.03067
mudell	-9.03069
ap	-9.03295
▁tipprovdi	-9.03305
X	-9.03389
14	-9.03509
est	-9.03571
ġġ	-9.03902
▁biżżejjed	-9.03985
ic	-9.04004
edukazzjoni	-9.04011
kriterji	-9.04027
ik	-9.0417
persuni	-9.04302
▁finanzjarju	-9.04361
prinċipju	-9.04424
Il	-9.04458
7/	-9.04489
iv	-9.0483
soċjetà	-9.05021
zz	-9.05167
▁4.	-9.05229
▁użati	-9.05272
▁dejjem	-9.05316
enti	-9.05318
każijiet	-9.05368
and	-9.05466
▁ħin	-9.0547
ina	-9.05511
▁mat	-9.05516
ej	-9.05533
▁kollu	-9.0573
bidu	-9.05754
▁data	-9.0587
me	-9.05886
11	-9.05964
servizz	-9.05972
▁minnhom	-9.06036
▁perjodu	-9.06076
riskji	-9.06179
12	-9.06215
kar	-9.06224
▁lura	-9.06376
sta	-9.06389
50	-9.0639
esportazzjoni	-9.06558
▁sezzjoni	-9.06594
ers	-9.06598
pro	-9.06914
għadd	-9.0698
IT	-9.0703
▁+	-9.07048
kompetizzjoni	-9.07068
▁Settembru	-9.07082
riċerka	-9.0727
ate	-9.07596
isti	-9.07687
mm	-9.07745
▁mediċinali	-9.07783
▁nett	-9.07786
▁Ta	-9.07809
investiment	-9.07812
▁ekonomiċi	-9.07823
▁essenzjali	-9.07827
▁għalihom	-9.07844
▁tinkludi	-9.07932
▁mm	-9.07967
effetti	-9.08004
▁żieda	-9.08016
▁rigward	-9.0824
ant	-9.08667
▁pre	-9.08702
▁ġdid	-9.08804
do	-9.08879
demm	-9.08893
2013	-9.09202
▁pajjiż	-9.09219
IS	-9.09344
▁tagħti	-9.0955
iġ	-9.09551
18	-9.09575
AR	-9.09704
membri	-9.09805
▁ċentrali	-9.09938
trattament	-9.09977
▁partijiet	-9.10292
▁2006	-9.10309
▁jik	-9.10343
kull	-9.10497
▁gwida	-9.10744
nti	-9.11003
innovazzjoni	-9.11211
▁regoli	-9.11234
provvista	-9.11255
prinċipji	-9.11338
▁intern	-9.11873
▁interessati	-9.1189
▁Frar	-9.11961
ekonomija	-9.12076
fil	-9.12119
▁żvilupp	-9.12129
▁Q	-9.12167
▁bħall	-9.1239
aħjar	-9.12441
▁trid	-9.12634
talba	-9.12878
parteċipazzjoni	-9.12987
opinjoni	-9.1301
tfal	-9.13061
sikurezza	-9.13116
arju	-9.13433
ett	-9.1353
25	-9.13579
▁0	-9.1379
▁ħsara	-9.13948
▁jagħtu	-9.13966
effett	-9.13995
Is	-9.14058
2014	-9.14144
bini	-9.14374
territorju	-9.1439
▁għoli	-9.14393
konsum	-9.1447
awtorizzazzjoni	-9.1448
kumpaniji	-9.14489
wie	-9.14528
operaturi	-9.14547
▁Ġenerali	-9.14634
▁trattament	-9.14662
▁punt	-9.1471
▁soluzzjoni	-9.14744
▁attiva	-9.15058
▁deċiżjoni	-9.15329
ixxi	-9.15541
▁28	-9.15546
sin	-9.15657
tabib	-9.1573
akk	-9.15805
▁tistabbilixxi	-9.15817
▁taħriġ	-9.1587
one	-9.15909
programmi	-9.15911
▁imsemmi	-9.15913
▁kkunsidra	-9.16019
sk	-9.16166
ci	-9.16174
Ġustizzja	-9.16211
finijiet	-9.16219
▁protezzjoni	-9.16311
ħu	-9.16396
▁22	-9.16551
▁bla	-9.16614
ver	-9.16642
▁kellhom	-9.16767
▁għan	-9.16777
▁bid	-9.16804
▁jeħtieġ	-9.16977
▁imsemmija	-9.16981
EN	-9.17028
atti	-9.17113
▁pro	-9.17163
▁sistemi	-9.17376
tiċi	-9.17544
volum	-9.17561
▁Uniti	-9.17589
dar	-9.17886
Konvenzjoni	-9.18045
punti	-9.18092
▁xahar	-9.1828
▁ekonomiku	-9.18323
▁ħ	-9.18425
għu	-9.18503
negozju	-9.18523
▁konformi	-9.18559
ħall	-9.18573
iċi	-9.18681
tro	-9.1897
▁akbar	-9.19023
persunal	-9.19229
▁2004	-9.19273
Renju	-9.19378
▁ĠU	-9.1939
swieq	-9.19419
▁jagħmel	-9.1952
tiku	-9.19743
istat	-9.19808
Partijiet	-9.19823
▁elenkati	-9.1984
▁Fejn	-9.1996
izzazzjoni	-9.2001
▁•	-9.20023
met	-9.20043
▁għandek	-9.2008
▁23	-9.20102
TA	-9.20129
▁Fi	-9.20205
rakkomandazzjoni	-9.20286
kuntratt	-9.20512
▁effett	-9.20824
▁kkunsidrat	-9.20863
▁adottati	-9.2103
no	-9.2107
eġ	-9.21224
vettura	-9.21293
▁kreditu	-9.21464
▁sustanzi	-9.21489
▁subparagrafu	-9.2149
▁jingħataw	-9.21744
ber	-9.21828
▁attivitajiet	-9.2186
▁bir	-9.22008
flus	-9.22066
▁valutazzjoni	-9.22075
żieda	-9.2246
kont	-9.2249
effiċjenza	-9.22516
▁ġdida	-9.22539
oqsma	-9.22594
▁bit	-9.22616
karatteristiċi	-9.22713
▁tuża	-9.22742
responsabbiltà	-9.22812
Komunikazzjoni	-9.22815
tru	-9.22855
▁ċar	-9.2291
ħruġ	-9.23284
Bord	-9.23381
Ċ	-9.23408
▁jużaw	-9.23475
-“	-9.23532
sti	-9.23572
▁jkollu	-9.23599
▁diversi	-9.23698
mer	-9.24047
tali	-9.24051
mira	-9.24071
▁tapplika	-9.24199
▁ftehim	-9.24236
Sur	-9.24241
▁Z	-9.24316
pe	-9.2457
▁stipulati	-9.2459
▁normali	-9.24724
▁interess	-9.24737
limiti	-9.24986
-31	-9.25001
th	-9.25045
yl	-9.25277
▁Unit	-9.25383
▁sħiħ	-9.25419
Kapitolu	-9.25492
edi	-9.25552
Programm	-9.25702
President	-9.25753
▁ftit	-9.25949
linja	-9.26025
fondi	-9.26081
Ħ	-9.2609
▁studji	-9.26231
2004	-9.26344
▁ebda	-9.26379
▁naturali	-9.26429
▁talba	-9.26584
17	-9.26766
▁De	-9.26808
analiżi	-9.26928
nisa	-9.26942
dikjarazzjoni	-9.27468
▁dejta	-9.27536
▁jiġifieri	-9.27589
Y	-9.27597
produtturi	-9.27667
▁sigurtà	-9.27708
▁baxx	-9.27727
Protokoll	-9.27798
istandards	-9.27887
adozzjoni	-9.27911
TI	-9.28019
kategoriji	-9.28062
obbligu	-9.28133
dokument	-9.2819
▁tul	-9.28216
ke	-9.28436
attività	-9.28466
metodu	-9.28483
▁Soċjali	-9.28531
▁investiment	-9.2871
▁0.	-9.28776
▁sar	-9.28798
▁Pro	-9.288
▁għax	-9.28854
ve	-9.28888
pressjoni	-9.29198
infrastruttura	-9.29212
kondizzjonijiet	-9.29272
▁Al	-9.29331
▁kwistjonijiet	-9.29369
tà	-9.29497
għażla	-9.29527
▁effettiv	-9.29585
▁Fir	-9.29668
▁għadd	-9.29815
ien	-9.29913
żoni	-9.2997
tor	-9.30048
ġilda	-9.30133
kk	-9.30155
▁emendat	-9.30277
▁organizzazzjoni	-9.30296
dinja	-9.30447
▁jkollha	-9.30535
▁ik	-9.30553
persuna	-9.3069
klassifikazzjoni	-9.30776
manifattur	-9.30864
investigazzjoni	-9.31125
▁tintuża	-9.31133
▁tajjeb	-9.31186
▁2017	-9.31437
▁tiżgura	-9.31694
kumpanija	-9.31783
dawn	-9.31871
Ż	-9.32235
nt	-9.32239
▁massimu	-9.32279
ħaddiema	-9.32385
▁tagħrif	-9.3247
vir	-9.32505
ħsieb	-9.32585
▁jitqiesu	-9.32626
pen	-9.32675
jati	-9.32714
promozzjoni	-9.32763
deċiżjonijiet	-9.32769
-19	-9.32798
2012	-9.32927
ċe	-9.32936
etti	-9.32964
IL	-9.33029
mon	-9.33045
▁jir	-9.33114
▁direttament	-9.33334
linji	-9.33335
klima	-9.33381
▁żgħar	-9.33529
evalwazzjoni	-9.33539
▁jaħdmu	-9.33688
▁speċifiku	-9.33948
▁biljun	-9.34103
▁effetti	-9.34129
Taqsima	-9.34149
amministrazzjoni	-9.34231
▁uffiċjali	-9.3425
je	-9.34327
▁tard	-9.34597
40	-9.34652
kejl	-9.34661
ossi	-9.34799
ost	-9.34805
ħar	-9.34818
Bank	-9.34923
▁tagħmir	-9.34951
2010	-9.34954
90	-9.35027
kreditu	-9.35056
AL	-9.3507
▁injezzjoni	-9.3517
▁magħmula	-9.35394
▁teknika	-9.35395
▁(“	-9.35489
utenti	-9.35533
RI	-9.35737
iċ	-9.35742
paragrafi	-9.35753
klu	-9.35788
▁Malta	-9.35797
proġett	-9.35809
(4)	-9.35834
▁medju	-9.35859
é	-9.35896
sustanza	-9.36003
▁Sa	-9.3603
21	-9.36168
pla	-9.36321
ipproċessar	-9.36337
▁maħsuba	-9.36347
▁sħiħa	-9.36501
setturi	-9.36586
kategorija	-9.36588
taħriġ	-9.36591
▁Mar	-9.36593
impjiegi	-9.36664
▁jridu	-9.36678
▁tajba	-9.36712
era	-9.36731
ph	-9.36829
tura	-9.36885
▁Brussell	-9.36971
kontijiet	-9.37018
popolazzjoni	-9.37037
natura	-9.37216
▁strumenti	-9.37245
ftehim	-9.37272
▁proġetti	-9.37749
korp	-9.37878
▁ħlas	-9.37887
assigurazzjoni	-9.37991
▁saru	-9.38031
munita	-9.38052
▁koperti	-9.38116
PA	-9.38229
▁Biex	-9.38248
▁numru	-9.38279
komunikazzjoni	-9.38285
banek	-9.38315
ħtiġijiet	-9.38317
anza	-9.3844
▁effiċjenti	-9.38477
mediċina	-9.38496
valuri	-9.38506
01	-9.38523
▁Ġ	-9.38575
▁kooperazzjoni	-9.38585
kapital	-9.38626
tqegħid	-9.38647
24	-9.38659
▁peress	-9.38794
▁qegħdin	-9.38841
Sigurtà	-9.38852
03	-9.3888
▁40	-9.389
▁jieħu	-9.38942
identifikazzjoni	-9.39021
▁sew	-9.3915
ens	-9.39153
▁jkunux	-9.39154
000	-9.39223
kodiċi	-9.39238
▁Uffiċjali	-9.39369
tagħmir	-9.3939
bit	-9.3948
▁partikolarment	-9.39512
▁stess	-9.3953
▁proposta	-9.39781
_	-9.39793
EL	-9.3981
Ċina	-9.39841
▁Ri	-9.39962
ide	-9.39966
żgħażagħ	-9.39969
IN	-9.40083
▁26	-9.40102
għandhomx	-9.40165
operatur	-9.40191
▁amministrattivi	-9.4021
▁ekwivalenti	-9.40241
▁terz	-9.40286
aj	-9.40431
anqas	-9.40484
konsumatur	-9.40541
prestazzjoni	-9.40546
▁v	-9.40578
merkanzija	-9.40711
za	-9.40723
gass	-9.40767
elettriku	-9.4096
▁jis	-9.41137
ell	-9.41293
▁daqs	-9.41308
rita	-9.41349
go	-9.41374
▁tkunx	-9.4139
reġjuni	-9.41408
▁finanzjament	-9.41597
▁jsiru	-9.41637
▁Ra	-9.41657
agħ	-9.41742
integrazzjoni	-9.41772
istabbiliment	-9.41783
bbiltà	-9.4187
▁Fuq	-9.41975
▁imma	-9.42103
▁Kon	-9.42107
EC	-9.4214
▁issa	-9.4215
uti	-9.42169
▁St	-9.42193
lat	-9.4233
fażi	-9.42403
▁pazjent	-9.4245
▁preċedenti	-9.42464
AT	-9.42486
ec	-9.42745
qorti	-9.42792
▁27	-9.42904
manifattura	-9.42998
▁standard	-9.43077
0/	-9.43081
baħar	-9.4316
22	-9.43181
▁29	-9.43184
▁inkluża	-9.43232
sens	-9.43308
ħolqien	-9.43357
bilanċ	-9.43493
Ġurnal	-9.43495
kontribuzzjoni	-9.43589
ep	-9.43662
ana	-9.4368
▁Għaldaqstant	-9.43771
mar	-9.43882
▁Komuni	-9.44068
▁isir	-9.44113
▁Co	-9.44169
▁potenzjali	-9.44277
¢	-9.44364
politiki	-9.4443
titjib	-9.44448
oli	-9.44454
RA	-9.44499
▁sekondarji	-9.44503
Ġermanja	-9.44603
▁siegħa	-9.44695
teħid	-9.44744
iskema	-9.45129
arji	-9.45341
raw	-9.45359
ġu	-9.45361
▁int	-9.45419
triq	-9.45424
rwol	-9.45464
▁nuqqas	-9.45568
aturi	-9.45568
rin	-9.45647
jali	-9.45718
▁ħlief	-9.45874
wali	-9.45886
aħħ	-9.45919
23	-9.45944
kriżi	-9.46004
Grupp	-9.46007
▁An	-9.46078
▁proposti	-9.46083
▁2002	-9.46083
objettivi	-9.46131
▁ewlieni	-9.4625
mandat	-9.46264
▁kwalità	-9.46265
2006	-9.46269
▁jinsabu	-9.46269
benefiċċji	-9.46273
▁dispożizzjoni	-9.46345
▁Ż	-9.46356
itajiet	-9.46484
effikaċja	-9.46619
▁60	-9.4663
twettiq	-9.46687
bilità	-9.46857
▁mhuwiex	-9.46919
▁rapport	-9.47027
04	-9.47078
▁professjonali	-9.4716
kamp	-9.47172
▁2000	-9.47284
▁anti	-9.4742
moviment	-9.47465
ck	-9.476
SE	-9.47605
▁servizz	-9.4765
teknoloġija	-9.47654
▁indipendenti	-9.47705
▁proċeduri	-9.47764
aqq	-9.47771
korpi	-9.47847
2007	-9.47912
▁jippermetti	-9.47988
abbli	-9.48042
isp	-9.48069
ov	-9.48168
istrumenti	-9.482
▁xogħol	-9.48213
akkwist	-9.48445
pubbliku	-9.48493
operat	-9.4856
2011	-9.48582
ak	-9.48597
intrapriżi	-9.48723
▁kbar	-9.48776
Gvern	-9.48957
dokumenti	-9.48965
tielet	-9.48985
żejt	-9.48985
▁reali	-9.49017
▁kundizzjonijiet	-9.49066
ejj	-9.49158
applikant	-9.49167
60	-9.49257
interessi	-9.49289
▁jiżgura	-9.49371
▁2005	-9.49394
familja	-9.49405
▁previsti	-9.49467
96	-9.49491
trasferiment	-9.4969
%)	-9.49766
SMEs	-9.49816
ammonti	-9.49834
Att	-9.49848
app	-9.4988
lin	-9.49899
▁jemenda	-9.50003
▁jim	-9.50046
suġġett	-9.50058
▁Ċentrali	-9.50103
▁EU	-9.50115
▁studju	-9.50155
-20	-9.5028
▁per	-9.50376
ast	-9.50443
liġijiet	-9.50595
▁jenħtieġ	-9.50718
iz	-9.50779
netwerk	-9.50802
%	-9.50876
▁pereżempju	-9.50894
Politika	-9.50993
▁ko	-9.51022
stru	-9.51022
up	-9.51207
▁kbira	-9.51207
▁grupp	-9.51249
kor	-9.5142
limitu	-9.51436
▁qafas	-9.51468
gvern	-9.51478
zi	-9.51573
vetturi	-9.51702
98	-9.51711
▁għaż	-9.51725
▁isiru	-9.51815
▁involuti	-9.5182
injezzjoni	-9.51862
jon	-9.52013
kan	-9.52033
▁Parti	-9.52045
▁IL	-9.52055
rabta	-9.52156
▁identifikati	-9.52172
temperatura	-9.52192
05	-9.52277
għarfien	-9.52292
▁Minħabba	-9.523
prevenzjoni	-9.52421
▁speċifika	-9.52427
notifika	-9.52468
pubblikazzjoni	-9.52496
inter	-9.52748
▁saret	-9.52756
progress	-9.52767
▁jippermettu	-9.52953
ġisem	-9.53074
koll	-9.53112
miżura	-9.53166
▁ġestjoni	-9.53242
iva	-9.53295
ħlas	-9.53357
ħalib	-9.53401
▁sehem	-9.53506
▁jittieħdu	-9.53512
disinn	-9.53543
▁kkonċernati	-9.53558
let	-9.53594
▁kont	-9.53629
jat	-9.53683
▁pillola	-9.53699
apparat	-9.53761
war	-9.53914
▁kbir	-9.53987
possibbiltà	-9.54142
bar	-9.54192
str	-9.54258
qrib	-9.54262
▁użat	-9.54302
operazzjonijiet	-9.54348
reġjun	-9.54408
▁IV	-9.5444
infurzar	-9.54448
sub	-9.54603
ress	-9.5461
▁każijiet	-9.548
ven	-9.54852
kbira	-9.54893
▁materjali	-9.55218
▁awtorizzazzjoni	-9.55263
▁analiżi	-9.55307
monitoraġġ	-9.55365
nd	-9.55375
proġetti	-9.5546
bank	-9.55609
▁mediċini	-9.55688
bet	-9.55839
▁2018	-9.55855
rat	-9.55957
prop	-9.55959
medja	-9.56004
▁tippermetti	-9.56424
▁soġġetti	-9.56436
68	-9.56518
klijenti	-9.56537
▁għandux	-9.56571
▁regolari	-9.56586
▁jibqgħu	-9.56593
dettalji	-9.56732
nefqa	-9.56795
ET	-9.56804
▁adottat	-9.56915
nota	-9.56925
ħidma	-9.56935
atur	-9.57052
ES	-9.5709
▁jitqies	-9.57158
karta	-9.57166
▁vetturi	-9.57247
kawża	-9.57295
istudju	-9.57301
▁malajr	-9.57466
▁Mhux	-9.5749
▁Se	-9.57501
pr	-9.57555
EM	-9.57587
daqs	-9.57618
▁indikat	-9.57625
▁standards	-9.57709
▁effettiva	-9.57729
potenzjal	-9.57764
ben	-9.5781
▁ġimgħa	-9.57817
wiċċ	-9.58013
tneħħija	-9.5802
kri	-9.58069
▁2003	-9.5811
▁turi	-9.58135
▁żgurata	-9.58153
qiegħ	-9.58194
▁medja	-9.58255
Sistema	-9.58465
▁industrijali	-9.58618
ġbir	-9.58731
hu	-9.58745
par	-9.58904
indirizz	-9.59014
▁ħidma	-9.59068
28	-9.59104
AS	-9.59162
iktar	-9.59208
▁Għa	-9.5922
biċċa	-9.59445
dik	-9.59662
▁kg	-9.59672
bin	-9.59701
esperjenza	-9.59737
▁90	-9.59754
▁pressjoni	-9.59823
allokazzjoni	-9.5987
oġġetti	-9.59883
ambitu	-9.59936
rja	-9.60034
aġġ	-9.60092
istituzzjoni	-9.60098
▁gruppi	-9.60286
▁doganali	-9.60385
▁tadotta	-9.60449
▁eċċ	-9.60679
riżultat	-9.60737
▁[2]	-9.60764
▁fondi	-9.60779
▁liema	-9.60898
▁tqis	-9.60978
magna	-9.61148
az	-9.61177
▁anqas	-9.61238
▁livelli	-9.61262
▁pilloli	-9.6139
definizzjoni	-9.61404
▁apparat	-9.61452
profitt	-9.61502
▁proċedura	-9.61577
▁bażiku	-9.61616
perijodu	-9.61635
reviżjoni	-9.61673
▁Hija	-9.61805
fond	-9.61879
SI	-9.61902
-30	-9.61969
▁eliġibbli	-9.62023
ċertifikat	-9.62041
▁għadhom	-9.6224
▁uġigħ	-9.62369
▁kliniċi	-9.62402
istrateġija	-9.62475
egħ	-9.62522
2003	-9.62591
▁tik	-9.62677
ott	-9.62719
▁twil	-9.62745
sal	-9.62788
menti	-9.62864
CO	-9.62865
!	-9.63084
26	-9.63088
terminu	-9.63144
07	-9.63212
▁jirċievu	-9.63393
▁adotta	-9.63596
▁tis	-9.63603
lest	-9.63657
IR	-9.63674
pjanti	-9.63694
idejn	-9.63729
format	-9.63735
klassi	-9.63763
esti	-9.63818
pol	-9.63821
▁sostitwit	-9.63838
ivi	-9.63845
▁demm	-9.63904
istruttura	-9.6401
ema	-9.64066
▁Huma	-9.64088
▁Informazzjoni	-9.64107
▁ħa	-9.6426
IP	-9.6432
▁programm	-9.64397
passiġġieri	-9.64455
▁post	-9.64515
▁ikollhom	-9.64516
▁Fit	-9.64534
▁materjal	-9.64576
▁mqabbel	-9.64727
▁speċifikat	-9.64779
94	-9.64886
▁elettroniku	-9.64918
▁fundamentali	-9.64966
▁Nazzjonali	-9.64969
▁speċifikati	-9.64989
torja	-9.64997
lek	-9.65043
▁minbarra	-9.65057
▁temenda	-9.6506
36	-9.65125
elementi	-9.65264
għandux	-9.65367
kundizzjoni	-9.65535
▁80	-9.65566
differenza	-9.65596
▁iżjed	-9.6561
Għ	-9.65705
futur	-9.65727
–	-9.65737
zzati	-9.65839
NU	-9.65872
negozjati	-9.65896
lingwa	-9.65923
▁issir	-9.65932
omm	-9.66005
tranżazzjonijiet	-9.66009
ret	-9.66066
▁jidher	-9.66073
regola	-9.66085
▁juru	-9.66132
78	-9.66214
▁baxxa	-9.66237
telf	-9.66247
▁programmi	-9.66296
▁monitoraġġ	-9.66313
kwistjoni	-9.66508
▁jistabbilixxu	-9.66522
▁membri	-9.6658
kun	-9.66649
mezzi	-9.66726
ġlieda	-9.66737
▁fiskali	-9.66739
2008	-9.6679
▁Fid	-9.66856
ort	-9.66908
▁mard	-9.66966
▁man	-9.67009
RE	-9.67104
ron	-9.67154
fornitur	-9.67184
°	-9.67192
▁problemi	-9.67216
ħarsien	-9.67274
ml	-9.67287
sustanzi	-9.6733
self	-9.67357
▁riċerka	-9.67366
iskop	-9.67406
fruntieri	-9.67477
02	-9.67523
setgħa	-9.67523
mel	-9.67524
aċċ	-9.67612
▁jissodisfaw	-9.67659
kop	-9.67666
ase	-9.6778
▁minimi	-9.67858
trasparenza	-9.67878
▁2020	-9.67895
▁Internazzjonali	-9.67909
iskambju	-9.67976
▁Għandu	-9.68004
35	-9.68017
▁31	-9.68072
06	-9.68194
▁Ċ	-9.68222
kalkolu	-9.68293
▁self	-9.68321
▁atti	-9.68355
ogħla	-9.68569
▁favur	-9.68697
▁ħames	-9.68732
▁raġunijiet	-9.6882
▁miżjud	-9.68872
▁jiżdied	-9.68935
27	-9.68945
▁applikati	-9.69056
żjoni	-9.69059
negozji	-9.69095
Iżvilupp	-9.69166
ID	-9.69179
▁mistennija	-9.69186
domanda	-9.69254
▁assoċjati	-9.69279
reġistrazzjoni	-9.69308
▁relatata	-9.69401
miktub	-9.69466
▁rispettivament	-9.695
▁kienx	-9.69542
għat	-9.69594
Titolu	-9.69609
▁inizjali	-9.69609
imgħax	-9.6964
▁ġust	-9.6969
iskart	-9.69692
irġiel	-9.69733
▁ġ	-9.69778
diet	-9.69831
▁ġewwa	-9.69864
ħiliet	-9.69868
▁jibqa	-9.6988
▁Di	-9.69958
09	-9.7002
għalf	-9.70037
▁tkopri	-9.7004
+	-9.70073
▁attivi	-9.70095
FE	-9.70103
▁jistgħux	-9.70172
▁ksur	-9.70314
abbozz	-9.7032
jum	-9.70421
▁dirett	-9.7045
-2013	-9.70451
tagħlim	-9.70494
▁elettroniċi	-9.70602
eħ	-9.70609
MA	-9.70664
▁sp	-9.70673
but	-9.70695
08	-9.70813
azzar	-9.70828
ner	-9.70835
▁previst	-9.70955
2002	-9.71041
ang	-9.71057
impriżi	-9.71057
▁trans	-9.71113
▁privat	-9.71126
ala	-9.71129
▁bbażati	-9.71138
0%	-9.71171
▁magħrufa	-9.71173
▁telf	-9.71255
▁minimu	-9.71292
29	-9.71307
val	-9.71338
nar	-9.71404
sid	-9.71407
▁Ji	-9.71432
▁erba	-9.71455
enzi	-9.71524
kliewi	-9.71597
▁fiċ	-9.71607
tibdil	-9.71607
opp	-9.71666
▁kompletament	-9.71693
▁sitt	-9.71786
▁Franza	-9.71818
▁uniku	-9.71827
▁LI	-9.7193
▁Komunitarja	-9.71985
▁konsultazzjoni	-9.72027
[	-9.72064
80	-9.72106
▁speċjalment	-9.72146
eġġ	-9.72157
TFUE	-9.72162
offerti	-9.72175
▁assi	-9.72198
▁stat	-9.72217
▁approvat	-9.72227
▁produzzjoni	-9.72331
rispett	-9.72385
▁Tra	-9.72393
Italja	-9.72448
relazzjoni	-9.72469
▁jirriżultaw	-9.72469
OR	-9.7251
zzazzjoni	-9.72553
▁ex	-9.72609
▁Gwida	-9.72637
log	-9.72645
99	-9.72646
land	-9.72785
ran	-9.72792
▁preżenti	-9.72844
▁of	-9.72884
soluzzjoni	-9.72913
70	-9.72984
ly	-9.72993
▁jistax	-9.73013
▁azzjonijiet	-9.73021
fl	-9.73176
(1)(	-9.73244
uni	-9.73264
qalb	-9.73311
ation	-9.7334
▁pjan	-9.73351
▁limitat	-9.73356
▁komunikazzjoni	-9.73391
verifika	-9.73401
▁tabib	-9.73457
ordni	-9.73504
netwerks	-9.73521
▁avversi	-9.73535
IF	-9.73606
ħġieġ	-9.73618
marka	-9.73711
Uffiċċju	-9.73737
introduzzjoni	-9.73775
-15	-9.73797
deroga	-9.73812
ŻEE	-9.7397
▁jif	-9.73991
▁qasir	-9.74014
▁=	-9.7402
▁jiżviluppaw	-9.74026
joni	-9.74137
9.	-9.74152
▁valur	-9.74164
ola	-9.74192
ge	-9.74262
SA	-9.74271
kompiti	-9.74304
=	-9.74322
far	-9.74375
▁naħa	-9.74448
▁orali	-9.74453
▁evidenza	-9.74483
para	-9.74503
interess	-9.74547
rikonoxximent	-9.74561
lingwi	-9.74598
▁konsistenti	-9.74644
▁rari	-9.74677
kampjun	-9.74679
add	-9.74818
kro	-9.7484
▁proċess	-9.74872
medda	-9.74978
▁transkonfinali	-9.75021
▁Pa	-9.75091
Suq	-9.75146
▁000	-9.75157
oriġini	-9.75299
97	-9.75372
▁annimali	-9.7538
▁tibda	-9.75385
▁dħul	-9.75411
diversi	-9.75428
▁attività	-9.75477
▁impatt	-9.75508
▁politiċi	-9.75518
funzjoni	-9.75578
▁mediċina	-9.75592
▁Hemm	-9.75594
PI	-9.75597
▁magħruf	-9.75604
▁qal	-9.75609
UN	-9.75673
▁approċċ	-9.75685
rit	-9.75686
zza	-9.75695
fet	-9.75755
▁elettronika	-9.7584
tin	-9.75878
bidla	-9.75879
▁€	-9.75976
75	-9.75989
▁ikkonċernat	-9.76033
attiv	-9.76042
▁tistax	-9.76054
età	-9.76154
int	-9.76157
ġa	-9.76177
▁regolatorji	-9.76285
total	-9.76476
5%	-9.76486
▁jirriżulta	-9.76561
tras	-9.76701
ishma	-9.76718
In	-9.76812
isforzi	-9.76818
▁evalwazzjoni	-9.7683
▁spejjeż	-9.76874
fika	-9.76943
ann	-9.77027
▁(1)	-9.77032
konklużjonijiet	-9.77125
vjaġġ	-9.77135
lum	-9.77191
▁jmiss	-9.77194
▁mistenni	-9.7724
▁membru	-9.77243
karbonju	-9.77275
ster	-9.77276
ttivi	-9.77282
ord	-9.77474
EU	-9.77576
▁kumpaniji	-9.77678
▁Iż	-9.77815
ista	-9.77827
pakkett	-9.77904
dija	-9.78036
ene	-9.7805
tabella	-9.78058
ON	-9.78107
der	-9.78174
delega	-9.78284
▁mhijiex	-9.78407
▁lanqas	-9.78452
▁għaċ	-9.78501
▁titqies	-9.78575
LI	-9.78598
tħaddim	-9.78684
▁tkompli	-9.78706
▁tiżdied	-9.78715
frekwenza	-9.78731
fen	-9.78732
▁tipi	-9.78767
oħrajn	-9.7883
arranġamenti	-9.78864
ażi	-9.78873
2009	-9.78891
tisħiħ	-9.78903
▁kapaċi	-9.78924
▁mqabbla	-9.79014
CA	-9.79023
kg	-9.79087
ton	-9.79106
impjegati	-9.79168
▁agrikoli	-9.79171
ins	-9.79241
(6)	-9.79278
▁Ara	-9.79297
▁esterni	-9.79302
snin	-9.79398
istudji	-9.79408
riforma	-9.79435
▁anki	-9.79454
IC	-9.79501
▁pagament	-9.79506
aġ	-9.79696
JA	-9.79778
▁kriminali	-9.79778
▁San	-9.79803
imp	-9.79845
tan	-9.79908
▁entitajiet	-9.79935
34	-9.79946
kliem	-9.79964
▁tmiem	-9.80101
▁hinn	-9.80145
Pjan	-9.80233
▁Ekonomiku	-9.80296
▁dovut	-9.80312
for	-9.80359
approċċ	-9.80371
fornituri	-9.80375
iġġ	-9.80494
ry	-9.80527
regolamenti	-9.80531
▁diġitali	-9.80564
entità	-9.80608
32	-9.80698
appell	-9.80707
▁oriġinali	-9.80709
67	-9.80812
▁tinsab	-9.80857
▁għaliex	-9.80862
miri	-9.80884
▁Mo	-9.80933
vot	-9.8096
▁reazzjonijiet	-9.81167
tir	-9.81202
sħana	-9.8123
ttiv	-9.8123
ser	-9.81296
relazzjonijiet	-9.81378
ċċ	-9.81395
ċer	-9.81404
▁bbażata	-9.81449
ħut	-9.81465
forniment	-9.8149
ittra	-9.816
Liġi	-9.81617
▁riżorsi	-9.81753
12.	-9.81754
jun	-9.81785
▁multi	-9.81821
MP	-9.81857
▁sustanza	-9.81879
bastimenti	-9.81885
MI	-9.8189
▁relevanti	-9.81918
▁kellu	-9.81932
▁jeħtieġu	-9.81936
aff	-9.81951
▁qiegħda	-9.81969
▁Azzjoni	-9.82113
▁jogħġbok	-9.82169
▁verifika	-9.82237
EA	-9.823
massa	-9.82325
jan	-9.82333
fini	-9.82358
lok	-9.82542
▁fiżika	-9.82554
tim	-9.82617
-2008	-9.82675
▁Min	-9.82697
▁Matul	-9.82707
▁nofs	-9.82716
▁twettaq	-9.82755
▁tittieħed	-9.8278
▁tibqa	-9.82845
kunsiderazzjoni	-9.82886
den	-9.82915
metri	-9.82974
▁35	-9.83045
rekwiżit	-9.8305
ieħ	-9.8308
▁deċiżjonijiet	-9.831
bra	-9.83113
pp	-9.83126
konklużjoni	-9.83151
impjieg	-9.83194
raġunijiet	-9.83304
konsultazzjoni	-9.83318
PE	-9.83417
▁ġimgħat	-9.83421
-2020	-9.83674
ren	-9.83675
▁miksija	-9.83683
kompetittività	-9.83772
jet	-9.83836
stika	-9.83848
konċentrazzjoni	-9.83862
▁Data	-9.83908
Funzjonament	-9.83921
▁ġejja	-9.8393
etta	-9.83954
qar	-9.84069
ħabb	-9.84109
impenji	-9.84112
ġodda	-9.84174
attivi	-9.84204
▁twassal	-9.84211
▁Bħala	-9.84222
-2010	-9.84275
karti	-9.84303
ftuħ	-9.84354
▁bidla	-9.84529
inizjattiva	-9.84612
mit	-9.8464
kumitat	-9.84668
fur	-9.84756
PC	-9.84814
maġġoranza	-9.84842
vu	-9.84859
rapporti	-9.84907
fwied	-9.84926
nies	-9.84964
inhu	-9.85014
▁(2)	-9.85027
▁qiegħed	-9.85078
żż	-9.85123
89	-9.85134
65	-9.85191
vers	-9.85234
▁piż	-9.85235
▁«	-9.85266
of	-9.85283
ula	-9.85418
2005	-9.85461
▁preġudizzju	-9.85504
prijoritajiet	-9.85537
ella	-9.85538
▁sotto	-9.85559
ou	-9.85582
▁jintlaħqu	-9.85612
▁maħsub	-9.85629
les	-9.85739
traffiku	-9.85831
proċedimenti	-9.8602
▁kumpens	-9.8607
▁32	-9.86097
tarji	-9.86109
prattika	-9.86115
wer	-9.86227
ħoss	-9.86261
▁għajr	-9.86291
kost	-9.86361
Irlanda	-9.86372
Affarijiet	-9.86413
dejn	-9.86419
31	-9.86477
oġġett	-9.866
preżentazzjoni	-9.86624
NA	-9.86759
sehem	-9.86773
Drittijiet	-9.86779
▁ijiem	-9.86829
miss	-9.86836
▁stmat	-9.86865
impenn	-9.86871
Enerġija	-9.86914
▁stipulat	-9.87041
new	-9.87055
86	-9.87058
▁2001	-9.8706
premessa	-9.87144
▁tim	-9.87217
TE	-9.87266
importanza	-9.87299
ME	-9.8734
▁mogħti	-9.87401
▁magħmul	-9.87472
▁pprovduti	-9.87594
dem	-9.8761
▁Billi	-9.8765
▁75	-9.87674
aqwa	-9.8771
▁juri	-9.878
VAT	-9.87842
-2009	-9.87853
serva	-9.87886
▁miżura	-9.87937
▁Ro	-9.87959
marda	-9.87968
▁bħalissa	-9.88038
entitajiet	-9.88043
▁45	-9.88069
metall	-9.88076
laqgħa	-9.8808
ena	-9.8809
▁ammont	-9.88225
▁Ti	-9.88233
ium	-9.88282
▁tfal	-9.88294
▁sostanzjali	-9.88329
operazzjoni	-9.88397
jin	-9.88426
kompetenza	-9.88458
▁Qafas	-9.88489
EG	-9.88508
kuntratti	-9.88617
kwistjonijiet	-9.88649
ura	-9.88858
bastiment	-9.88997
wit	-9.89016
metodi	-9.89021
sentenza	-9.89062
ħalq	-9.8909
gar	-9.8914
twaqqif	-9.89178
▁Po	-9.89179
Kodiċi	-9.89228
▁limitata	-9.8924
▁skart	-9.89296
setgħat	-9.89307
ami	-9.8931
▁awtorizzat	-9.89324
ġenerazzjoni	-9.89332
act	-9.89369
vel	-9.89381
▁kulturali	-9.89383
▁sempliċi	-9.89464
vini	-9.89505
*	-9.8956
raġuni	-9.89571
▁baxxi	-9.8958
trażmissjoni	-9.89588
JIET	-9.89621
mun	-9.89669
ġen	-9.89699
uża	-9.89701
eq	-9.89715
testijiet	-9.89738
▁magni	-9.89745
jaqsmu	-9.8978
▁flus	-9.89844
top	-9.89905
▁mimlija	-9.89912
▁jitlob	-9.89912
funzjonament	-9.89956
(5)	-9.89989
▁Me	-9.90016
EUR	-9.90028
restrizzjonijiet	-9.90071
▁interni	-9.90114
ram	-9.90138
FI	-9.90138
Linji	-9.90145
38	-9.9015
▁aġġustament	-9.9016
▁dikjarazzjoni	-9.90221
użi	-9.90294
▁definit	-9.90362
33	-9.90439
▁jiss	-9.90444
trattat	-9.90471
kuntatt	-9.90478
kors	-9.90498
sib	-9.90549
▁ugwali	-9.90611
suċċess	-9.90845
ġarr	-9.90928
gruppi	-9.91001
tie	-9.91043
rappreżentanti	-9.91046
▁attiv	-9.91134
LU	-9.91147
ies	-9.91216
................	-9.91236
▁adottata	-9.91289
ite	-9.9133
▁meħuda	-9.91411
sotto	-9.91426
tagħrif	-9.91487
▁irid	-9.91541
serje	-9.91713
▁rwol	-9.91736
ajruport	-9.91781
▁[3]	-9.9186
tipi	-9.91906
▁jidħol	-9.9197
ispeċifikazzjoni	-9.91974
ras	-9.91997
▁żviluppati	-9.92001
dew	-9.92032
ħlasijiet	-9.92042
▁miż	-9.92086
internet	-9.92095
▁strument	-9.92096
com	-9.92114
fin	-9.92233
▁tif	-9.92235
▁Inter	-9.9234
regolament	-9.92345
▁juża	-9.92397
veloċità	-9.92404
▁taħdem	-9.92417
▁wa	-9.92479
arti	-9.92522
▁miċ	-9.92586
eżerċizzju	-9.92641
kat	-9.9266
▁tekniku	-9.92686
hemmx	-9.92689
benefiċjarji	-9.92723
▁kuntratti	-9.92737
▁jgħin	-9.92773
ċirkostanzi	-9.92794
kre	-9.92841
▁kollox	-9.92842
mutur	-9.92848
▁identifikat	-9.92924
▁aħna	-9.92946
faċilitajiet	-9.92961
jaw	-9.92979
▁sub	-9.93001
estensjoni	-9.93044
▁dożi	-9.93089
osta	-9.93116
proċessi	-9.93148
▁Filwaqt	-9.9315
▁pprovduta	-9.93169
taqsima	-9.93203
▁implimentati	-9.93216
▁kuntatt	-9.93263
▁jint	-9.93289
laqgħat	-9.93307
minn	-9.93322
▁Spanja	-9.93358
stra	-9.93384
kwota	-9.93407
raba	-9.93419
tariffi	-9.93426
▁entità	-9.93452
kummenti	-9.93462
-18	-9.93493
kultura	-9.93518
▁jaqgħu	-9.93518
PESK	-9.93537
▁anke	-9.93613
-2007	-9.93624
ittestjar	-9.93683
inklużjoni	-9.93693
▁jip	-9.93703
-25	-9.93704
SS	-9.93739
▁kkunsidrati	-9.93745
▁awtorizzati	-9.93771
pjanijiet	-9.93862
sorveljanza	-9.93863
plastik	-9.93872
95	-9.93886
Istrateġija	-9.93929
tliet	-9.9395
▁terapija	-9.93985
oto	-9.93986
▁emendata	-9.93991
▁privati	-9.94037
▁permanenti	-9.94112
▁tkabbir	-9.94114
FA	-9.94168
plażma	-9.94185
oq	-9.94211
▁Awwissu	-9.94214
DI	-9.94246
OS	-9.94342
Karta	-9.94383
▁massima	-9.94478
Regoli	-9.94489
▁jgħinu	-9.94492
▁mhix	-9.94506
pagamenti	-9.9451
ċiklu	-9.94568
▁deskritt	-9.94645
DE	-9.94653
▁titjib	-9.94689
feri	-9.94741
▁Ar	-9.94748
ibbli	-9.94809
atturi	-9.94809
11.	-9.94818
77	-9.94971
▁36	-9.95051
▁prattika	-9.95071
▁eċċessiva	-9.95101
kejjel	-9.95147
TT	-9.95202
manifatturi	-9.95203
kwoti	-9.95335
-16	-9.95357
43	-9.95537
/10	-9.95634
▁ġol	-9.95758
▁ġeneralment	-9.95771
ust	-9.95793
ev	-9.95844
proprjetà	-9.95876
▁online	-9.95884
▁34	-9.95901
zjoni	-9.95961
end	-9.95961
zzata	-9.95967
▁definiti	-9.96019
▁strutturali	-9.96023
kumpens	-9.96036
▁qatt	-9.96047
kontrolli	-9.96111
kwa	-9.96164
jata	-9.96167
las	-9.96198
eżenzjoni	-9.96214
▁jittieħed	-9.96382
konnessjoni	-9.96441
manutenzjoni	-9.96471
ħeġġ	-9.96472
▁raġonevoli	-9.96481
talbiet	-9.96491
postijiet	-9.96499
▁jaħdem	-9.96551
jer	-9.96587
segwi	-9.96648
▁Mill	-9.96683
zzjon	-9.96745
med	-9.96795
argument	-9.96818
xejn	-9.96928
rap	-9.9699
79	-9.97001
▁suġġetti	-9.9707
iċċ	-9.97173
kanċer	-9.9725
▁sorveljanza	-9.973
problema	-9.97308
istrument	-9.97386
proposti	-9.97395
ors	-9.9745
▁Y	-9.97474
▁Gr	-9.97536
injam	-9.97546
▁indirizzati	-9.97575
▁investigazzjoni	-9.97576
emendi	-9.97607
koordinazzjoni	-9.97621
laħam	-9.97631
▁suġġett	-9.97715
approprjazzjoni	-9.97734
▁ħażin	-9.97778
okk	-9.97797
▁negattiv	-9.97799
▁trab	-9.97819
ċerti	-9.97968
▁Tel	-9.98015
pjega	-9.9802
85	-9.98089
OL	-9.98092
-27	-9.98159
ani	-9.98162
▁Iċ	-9.98231
▁għalih	-9.98328
▁serji	-9.98332
direzzjoni	-9.98367
▁għadu	-9.98381
aġent	-9.98389
ion	-9.98397
żamma	-9.98419
▁miksuba	-9.98466
▁għandhiex	-9.98469
▁jikkonformaw	-9.98516
▁inkorporat	-9.98524
▁suffiċjenti	-9.98543
materjal	-9.98568
45	-9.98575
▁limitu	-9.98591
▁kotba	-9.9864
▁Bo	-9.98674
▁amministrattiva	-9.98676
tiv	-9.98727
aġenziji	-9.98821
kwi	-9.98827
tifsira	-9.9883
▁bosta	-9.98851
PS	-9.98882
▁33	-9.98922
negozjar	-9.98935
kunċett	-9.98985
bijo	-9.98994
iff	-9.99002
ori	-9.99131
DA	-9.9914
▁48	-9.9919
▁normalment	-9.99197
Direttur	-9.99215
▁konċentrazzjoni	-9.99217
48	-9.99258
proporzjon	-9.99276
44	-9.99295
referenza	-9.99339
▁propost	-9.99416
axx	-9.99418
▁determinat	-9.99427
ks	-9.9948
▁miftuħa	-9.99552
▁eżaminat	-9.99606
rji	-9.9967
▁tgħin	-9.99709
gen	-9.9977
aċidu	-9.99826
▁jinkiseb	-9.99929
▁jidħlu	-9.99939
46	-9.9998
Tabella	-9.99989
logħob	-9.99997
ED	-10.0009
lan	-10.0015
zzjonali	-10.0015
▁jikkontribwixxu	-10.0019
▁mingħand	-10.0027
funzjonijiet	-10.0029
sħiħ	-10.003
res	-10.0033
▁jirri	-10.0039
bel	-10.0043
▁esperjenza	-10.0044
tnejn	-10.0045
investimenti	-10.0047
-12	-10.0048
ssi	-10.0051
MS	-10.0053
Ma	-10.0058
▁minnufih	-10.0058
fjuwil	-10.0059
oni	-10.006
▁illegali	-10.0063
▁ad	-10.0064
▁Ne	-10.0067
▁200	-10.0069
▁fix	-10.0071
eċċezzjoni	-10.0074
isfidi	-10.0077
governanza	-10.0085
▁reviżjoni	-10.0107
KA	-10.0108
istatus	-10.0113
stiċi	-10.0115
twelid	-10.0132
▁if	-10.0132
Riċerka	-10.0133
▁jwassal	-10.0135
imsieħba	-10.0136
▁37	-10.0138
impriża	-10.0138
aspetti	-10.0138
esponiment	-10.0141
libertà	-10.0142
-2012	-10.0147
tħejjija	-10.0151
▁attenzjoni	-10.0154
rju	-10.0155
▁ippreżentat	-10.0157
irkupru	-10.0158
inċident	-10.016
eva	-10.0161
ċertifikati	-10.0165
nit	-10.0167
diskriminazzjoni	-10.0179
eżekuzzjoni	-10.0184
distribuzzjoni	-10.0186
‘	-10.0187
▁ewlenija	-10.019
▁jitwettqu	-10.019
fuljett	-10.0192
temm	-10.0192
▁permess	-10.0193
intestatura	-10.0208
▁relatat	-10.0215
▁jintlaħaq	-10.0215
Greċja	-10.0216
CE	-10.0217
▁Sp	-10.0218
49	-10.0219
mat	-10.0225
▁trasferiment	-10.0239
erija	-10.0241
▁jinsab	-10.0246
▁Konġunt	-10.0246
ten	-10.0248
▁ċertu	-10.0253
▁faċli	-10.0254
▁Bl	-10.0271
kur	-10.0286
rem	-10.0287
kostruzzjoni	-10.0298
XX	-10.03
siti	-10.03
▁jaffettwaw	-10.0301
▁teħtieġ	-10.0306
red	-10.0309
RO	-10.0311
-17	-10.0321
▁prijorità	-10.0321
▁me	-10.0328
ġene	-10.0329
nifs	-10.0332
▁lest	-10.0338
▁parir	-10.0338
differenzi	-10.0353
▁diffiċli	-10.0359
▁ikollu	-10.037
Direttivi	-10.0374
69	-10.0374
kum	-10.0377
▁kellha	-10.0383
▁qbil	-10.0385
▁kuntratt	-10.039
▁grad	-10.0396
▁segwit	-10.0397
għar	-10.0399
▁VI	-10.0402
websajt	-10.0404
▁madankollu	-10.0406
▁jissodisfa	-10.0413
profil	-10.0413
▁Xi	-10.0414
▁dewmien	-10.0415
ċentru	-10.0417
▁Rapport	-10.0418
tagħbija	-10.0418
kulur	-10.0423
leġislazzjoni	-10.0425
pensjoni	-10.0425
ilmijiet	-10.0433
ċelloli	-10.0437
kwantitajiet	-10.0442
finanzja	-10.0445
▁assistenza	-10.0446
għall	-10.045
ġija	-10.0453
ger	-10.0454
▁punti	-10.0454
attiva	-10.0458
▁85	-10.0459
▁titlob	-10.0463
▁perijodu	-10.0469
fis	-10.0472
▁tirċievi	-10.0474
grad	-10.0479
frott	-10.0479
RS	-10.0481
▁ibbażat	-10.0482
niċi	-10.0486
▁[1]	-10.0487
paġna	-10.0492
anness	-10.0496
attenzjoni	-10.0498
▁Fis	-10.0498
għażliet	-10.05
dimensjoni	-10.0502
AD	-10.0504
▁joriġinaw	-10.0509
▁ulterjuri	-10.0512
sp	-10.0513
CON	-10.0514
▁Dawk	-10.0521
▁inkwistjoni	-10.0526
▁awto	-10.0528
▁sintomi	-10.0533
-22	-10.0542
-11	-10.0547
und	-10.0551
pożizzjonijiet	-10.0554
▁wisq	-10.0555
▁wiesgħa	-10.0558
▁(3)	-10.0565
▁jaħ	-10.0581
▁ġilda	-10.0581
ESS	-10.0586
▁sorsi	-10.0591
PR	-10.0592
mija	-10.0595
pir	-10.0597
▁Bank	-10.0598
▁kopert	-10.0601
▁fiżiċi	-10.0603
▁dokumenti	-10.0603
▁jikkonċernaw	-10.0606
▁ċara	-10.0613
▁rakkomandat	-10.0618
▁spiss	-10.0618
tmexxija	-10.0627
tant	-10.0628
ġdida	-10.0629
▁linji	-10.063
▁msemmi	-10.0635
issa	-10.0637
GĦA	-10.0643
▁impriżi	-10.0649
emo	-10.0652
▁Għandha	-10.0653
37	-10.0655
▁rivedut	-10.0656
▁kunjett	-10.0672
Appendiċi	-10.0673
▁Ka	-10.0674
▁kkonċernat	-10.0674
plika	-10.0678
ull	-10.0679
fluss	-10.0681
seb	-10.0685
ifika	-10.0687
detentur	-10.069
raf	-10.0693
▁uniformi	-10.0697
▁and	-10.0698
torji	-10.0702
torju	-10.071
għeluq	-10.0713
▁Finanzjarju	-10.0713
▁sentejn	-10.0717
▁kważi	-10.0718
fiduċja	-10.0719
benefiċċju	-10.072
▁proprji	-10.0723
preżenza	-10.0724
-2011	-10.0726
▁xulxin	-10.073
▁osservati	-10.0731
▁Tal	-10.0731
▁qawwi	-10.0748
materja	-10.0763
▁the	-10.0763
don	-10.0772
Żona	-10.0772
logħba	-10.0775
evi	-10.0776
utent	-10.0784
▁effettivi	-10.0789
tmiem	-10.0791
▁nukleari	-10.0794
▁70	-10.0795
▁korp	-10.0797
ez	-10.0798
tikketta	-10.0799
Polonja	-10.0806
▁magħhom	-10.081
▁trasparenti	-10.0812
mard	-10.0814
▁300	-10.0817
IM	-10.0824
42	-10.0824
AM	-10.0824
sitwazzjonijiet	-10.0825
reġistru	-10.0834
kali	-10.0837
armi	-10.084
▁ikel	-10.084
direttiva	-10.0843
xogħlijiet	-10.0849
ung	-10.0859
komponent	-10.0863
ilment	-10.0865
-28	-10.087
wal	-10.0872
▁diretti	-10.0875
▁plaċebo	-10.0877
opportunità	-10.0877
form	-10.0878
▁CYP	-10.0879
PP	-10.0883
firxa	-10.0886
▁applikat	-10.0896
▁Euratom	-10.0899
revoka	-10.0899
▁jippre	-10.0899
88	-10.0899
AB	-10.0901
opinjonijiet	-10.0903
▁korpi	-10.0906
vo	-10.091
▁jagħ	-10.0912
▁Qabel	-10.0912
▁qawwija	-10.0919
BA	-10.0924
europa	-10.0924
AC	-10.0926
karozzi	-10.0927
qal	-10.0934
pri	-10.0934
▁rurali	-10.0935
objettiv	-10.094
47	-10.0942
nn	-10.0944
fehma	-10.0947
pan	-10.0959
eżami	-10.0963
esportatur	-10.0967
faċilità	-10.097
affarijiet	-10.0971
por	-10.0972
Saħħa	-10.0973
kostijiet	-10.0974
men	-10.098
▁jrid	-10.0982
▁jibda	-10.0983
▁tnaqqas	-10.0984
biegħ	-10.0991
▁jiżdiedu	-10.0995
qawwa	-10.0995
lement	-10.0999
▁Komunitarju	-10.0999
▁formali	-10.1007
▁statistika	-10.1011
▁dokument	-10.1029
▁darbtejn	-10.1036
Investiment	-10.1043
problemi	-10.1045
ST	-10.1048
▁tiegħi	-10.1055
avveniment	-10.1065
▁Prodotti	-10.1075
cy	-10.1075
▁garanzija	-10.1081
tivi	-10.1088
▁bijo	-10.1088
del	-10.1093
ħadd	-10.1096
-13	-10.1097
Organizzazzjoni	-10.1099
.1.	-10.1103
▁att	-10.1103
gassijiet	-10.1107
▁ras	-10.112
▁suċċess	-10.1123
▁eżempju	-10.1131
investituri	-10.1134
Belġju	-10.1152
kwantità	-10.1155
endi	-10.1162
▁organizzat	-10.1173
▁ip	-10.1175
▁jinbidel	-10.118
IE	-10.1181
Euro	-10.1181
▁IU	-10.1182
produttur	-10.1184
tfassil	-10.119
▁kollettiv	-10.1199
Prodott	-10.1208
verżjoni	-10.121
ħass	-10.122
dokumentazzjoni	-10.1222
migrazzjoni	-10.1222
▁progress	-10.1223
ġenti	-10.1225
arr	-10.1225
ħżin	-10.1228
offerta	-10.1232
▁rispons	-10.1232
TO	-10.1234
che	-10.1243
▁tidħol	-10.1244
▁Minn	-10.1246
osservazzjoni	-10.1249
projbizzjoni	-10.1259
▁65	-10.1272
ulta	-10.1276
xiri	-10.1281
eżistenza	-10.1281
adeżjoni	-10.1284
terapija	-10.1285
assistenza	-10.1286
abbiltà	-10.1288
ixxu	-10.1289
▁domestiċi	-10.1289
CC	-10.1293
▁jitnaqqas	-10.1294
zja	-10.1294
-23	-10.1296
ect	-10.1296
▁*	-10.1296
▁mitluba	-10.1301
▁prevista	-10.1303
▁użata	-10.1307
73	-10.1311
materjali	-10.1313
komponenti	-10.1313
dazji	-10.1322
ħażna	-10.1333
gal	-10.1336
missjoni	-10.1337
▁korrispondenti	-10.1339
▁għaliha	-10.1345
PO	-10.1351
bżonn	-10.1355
▁għalkemm	-10.1357
▁jinvolvu	-10.1369
ġun	-10.1369
istatistika	-10.1371
ome	-10.1379
ved	-10.1383
dif	-10.1386
JI	-10.1389
ega	-10.1394
▁unità	-10.1395
ċentri	-10.1398
obbligazzjoni	-10.14
▁dritt	-10.14
▁Opinjoni	-10.1402
▁adegwat	-10.1402
▁Ni	-10.1406
▁jiksbu	-10.1406
▁Per	-10.1416
ino	-10.1418
radju	-10.1418
▁jinżammu	-10.142
▁soġġett	-10.1436
▁1).	-10.1442
rom	-10.1447
▁prattiki	-10.1452
▁150	-10.1454
58	-10.1457
▁kumpanija	-10.1458
CAS	-10.1458
2000	-10.1464
dju	-10.1467
▁minkejja	-10.1472
Danimarka	-10.1476
39	-10.1485
rab	-10.1486
sulf	-10.1487
mor	-10.1495
▁tibdil	-10.1495
▁sussegwenti	-10.1496
ożi	-10.1497
otti	-10.1503
▁[...]	-10.1505
ispiża	-10.1518
▁Hu	-10.152
bla	-10.1522
▁39	-10.1522
▁dettaljati	-10.1526
▁1.1	-10.1531
▁500	-10.1541
uż	-10.1544
iegħ	-10.1545
▁Str	-10.1546
▁Għandhom	-10.1546
ting	-10.1553
-2014	-10.1554
Eurosistema	-10.156
AP	-10.1563
▁għadha	-10.1568
▁prova	-10.1569
ppreżenta	-10.1573
kla	-10.1574
għad	-10.1575
ink	-10.1577
-21	-10.1578
▁kapitali	-10.1586
OM	-10.1588
iga	-10.1596
▁riżultat	-10.1597
jaqsam	-10.16
▁ftehimiet	-10.1601
▁evitat	-10.1605
▁rata	-10.1606
ġeni	-10.1611
▁kinux	-10.1614
▁neċessarju	-10.1614
sim	-10.1615
tiva	-10.1616
bord	-10.1624
▁imposti	-10.1625
ġin	-10.1628
▁tippreżenta	-10.1628
▁1999	-10.1634
▁kontinwa	-10.1638
ps	-10.1639
-2015	-10.1642
orn	-10.1642
-2006	-10.1645
▁interna	-10.1646
▁par	-10.1646
▁elementi	-10.1651
karburant	-10.1655
zzat	-10.1665
▁parteċipanti	-10.1678
kambju	-10.1686
klijent	-10.1687
espożizzjoni	-10.1688
▁kkalkulat	-10.1693
kap	-10.1694
▁Minkejja	-10.1695
▁mezzi	-10.1698
(1),	-10.1703
Rapport	-10.1707
riżerva	-10.1714
bħal	-10.1718
ftehimiet	-10.1721
lbu	-10.1726
ħol	-10.1728
Awstrija	-10.173
▁oqsma	-10.1732
ona	-10.1732
lew	-10.1736
▁38	-10.1739
▁immedjatament	-10.1744
fatturi	-10.1749
▁Ltd	-10.1754
Ċentru	-10.1758
▁ipprovdut	-10.176
93	-10.176
▁insulina	-10.176
▁regolatorja	-10.176
fra	-10.1763
ica	-10.1764
▁provi	-10.1768
▁Numru	-10.1773
kapaċitajiet	-10.1781
▁ġuridika	-10.1782
trop	-10.1784
-26	-10.1786
▁partikulari	-10.1786
PRO	-10.1787
dawk	-10.1788
installazzjoni	-10.1789
akbar	-10.1792
fiċ	-10.1792
CR	-10.18
sis	-10.1805
2017	-10.1808
ng	-10.1809
ħafna	-10.1811
▁Iżda	-10.1812
RU	-10.1812
nomina	-10.1815
▁moderat	-10.1817
għal	-10.1818
▁umani	-10.1823
bidliet	-10.1824
▁rinnovabbli	-10.1825
opportunitajiet	-10.1828
▁iridu	-10.1847
metil	-10.1849
lhom	-10.1849
lus	-10.1849
kopertura	-10.1853
Kummerċ	-10.1858
66	-10.1859
▁operazzjonali	-10.186
komplet	-10.1862
determinazzjoni	-10.1862
▁kontraenti	-10.1866
SC	-10.1869
ħad	-10.1869
-14	-10.1875
▁joffru	-10.1875
▁regolat	-10.1879
aġġustament	-10.1886
▁metodi	-10.1889
mplifika	-10.1894
vol	-10.1896
▁maħruġa	-10.1901
▁klinika	-10.1901
▁kapital	-10.1908
garanzija	-10.1908
▁tikkunsidra	-10.1915
erja	-10.1918
denominazzjoni	-10.1922
▁ŻEE	-10.1925
▁operazzjonijiet	-10.193
▁vettura	-10.1934
▁mbagħad	-10.1935
uffiċċju	-10.1939
con	-10.1941
Ingliż	-10.1957
HIV	-10.196
▁jirrappreżentaw	-10.1972
bili	-10.1973
Malta	-10.1974
Mediterran	-10.1975
emenda	-10.1976
KON	-10.1976
▁44	-10.1976
benefiċjarju	-10.1991
AZZJONI	-10.2
ALI	-10.2008
Kontroll	-10.2013
▁Na	-10.2013
▁°	-10.2013
formola	-10.2013
sessjoni	-10.2015
▁kompatibbli	-10.2018
▁bilanċ	-10.2023
van	-10.2026
istruzzjonijiet	-10.2032
mal	-10.2035
▁nisa	-10.2036
▁massimi	-10.204
liċenzji	-10.2043
▁bidliet	-10.2053
organizza	-10.2053
▁sett	-10.2053
▁alternattivi	-10.2054
▁Ministru	-10.2061
▁reazzjoni	-10.2066
għajn	-10.2066
ano	-10.2071
isk	-10.2074
ole	-10.2076
riżoluzzjoni	-10.2088
rikonoxxut	-10.2097
▁Ko	-10.2099
▁marbutin	-10.2099
inkluż	-10.21
reġim	-10.2104
▁oriġini	-10.2106
nzi	-10.2107
▁politiku	-10.2108
▁esperti	-10.211
▁So	-10.2118
▁jwasslu	-10.2122
▁Magħmul	-10.2124
viżjoni	-10.2124
avviż	-10.2131
ingrossa	-10.2131
rif	-10.2132
ttiva	-10.2133
▁tidher	-10.214
ġe	-10.214
▁pakkett	-10.2144
▁ifisser	-10.2147
▁bażiċi	-10.215
▁neċessarji	-10.2155
żo	-10.2163
▁natura	-10.2173
PAK	-10.2176
▁proprjetà	-10.2179
Rakkomandazzjoni	-10.2179
▁3.1	-10.2184
▁pożittiv	-10.2192
sider	-10.2203
▁kurrenti	-10.2204
▁indirett	-10.2211
▁mikro	-10.2215
kompjuter	-10.2218
għandhiex	-10.222
Lvant	-10.2225
aktarx	-10.2231
▁Pazjenti	-10.2234
▁fatturi	-10.224
inbid	-10.2244
▁01	-10.2244
▁alfa	-10.2248
negozja	-10.2259
azzjon	-10.2263
rappreżentant	-10.2264
▁No	-10.2271
▁vantaġġ	-10.2278
EX	-10.2278
diffikultajiet	-10.2279
riformi	-10.228
▁jinkisbu	-10.2281
▁applikata	-10.2287
▁ġurnata	-10.229
▁Permezz	-10.2291
-29	-10.23
zo	-10.2303
ISO	-10.2303
://	-10.2303
▁sat	-10.2304
▁95	-10.2308
kunsens	-10.2309
Dokument	-10.2313
▁kriterji	-10.2315
poġġ	-10.2318
affi	-10.2319
labra	-10.232
Għajnuna	-10.2325
tell	-10.2325
ispazju	-10.2326
firma	-10.2334
our	-10.234
▁jikkon	-10.2341
▁skambju	-10.2343
Internet	-10.2346
▁[4]	-10.235
waqt	-10.2357
▁mix	-10.2359
press	-10.2361
▁For	-10.2362
▁renali	-10.2363
▁żgħir	-10.2364
paċi	-10.2365
Protezzjoni	-10.2367
ban	-10.2367
solv	-10.237
OP	-10.2371
jes	-10.2371
AG	-10.2371
9,	-10.2373
elli	-10.2373
▁estiż	-10.2373
▁residenza	-10.2374
▁konkluż	-10.2377
▁strateġija	-10.2379
▁jitnaqqsu	-10.2385
▁approvati	-10.2385
ordina	-10.2386
qligħ	-10.2388
oma	-10.239
▁kkonċernata	-10.239
parametri	-10.2392
▁riżultati	-10.2393
▁eċċessiv	-10.2393
▁darbiet	-10.2397
tessuti	-10.2399
▁kimiċi	-10.2401
▁ddeterminat	-10.2403
▁stabbli	-10.2403
▁Aktar	-10.2404
dra	-10.2406
▁co	-10.2407
▁tipproponi	-10.2417
&	-10.2421
(7)	-10.2425
▁notifika	-10.2425
nju	-10.2431
għaj	-10.2436
TC	-10.2437
posta	-10.2437
▁opinjoni	-10.2439
Afrika	-10.2444
djalogu	-10.2446
▁protetti	-10.2451
▁Governattiv	-10.2451
flu	-10.2452
var	-10.2456
ħsara	-10.2463
▁107	-10.2469
mess	-10.2472
▁mwettqa	-10.2474
▁kkurati	-10.2477
▁tinżamm	-10.2478
▁jgħid	-10.2479
spe	-10.2485
Malti	-10.2488
iżviluppi	-10.2489
ieg	-10.249
▁impjieg	-10.2492
▁Kar	-10.2501
ħas	-10.2501
rix	-10.2511
▁Pr	-10.2511
▁modifikat	-10.2512
64	-10.2516
▁sikur	-10.2516
prova	-10.2517
sezzjoni	-10.2519
▁lista	-10.2523
▁skala	-10.2528
▁għarfien	-10.2528
Sajd	-10.2532
▁drabi	-10.2534
konsegwenzi	-10.2537
▁52	-10.2537
zokkor	-10.2539
SD	-10.2542
▁jitolbu	-10.2544
minbarra	-10.2549
esklużjoni	-10.2553
▁emerġenza	-10.2555
▁jistipula	-10.2558
line	-10.2561
▁adulti	-10.2563
▁provdut	-10.2564
▁Com	-10.2566
saħħithom	-10.2567
▁bastimenti	-10.257
nes	-10.2575
▁konġunt	-10.2575
▁deċiż	-10.2579
▁infurmat	-10.2583
ero	-10.2584
▁bħalma	-10.2585
▁inizjattivi	-10.2587
oċċ	-10.259
▁kontribuzzjoni	-10.259
NI	-10.2592
fit	-10.2592
▁84	-10.2595
istabbiltà	-10.2597
▁jeżistu	-10.2599
taxxi	-10.2601
ġimgħa	-10.2602
▁wħud	-10.2603
▁pass	-10.2604
Viċi	-10.2606
▁56	-10.2613
faqar	-10.2613
koeżjoni	-10.2616
rija	-10.2617
▁notifikat	-10.2618
ple	-10.262
abilità	-10.2622
▁ngħataw	-10.2624
”).	-10.2634
▁vvalutat	-10.2635
▁jirre	-10.2637
▁Speċjali	-10.2641
vina	-10.2642
▁jimplimentaw	-10.2642
▁magħżula	-10.2643
HA	-10.2644
rieżami	-10.2645
▁minflok	-10.2646
▁Bil	-10.2648
sħab	-10.2649
jonijiet	-10.2652
▁konġunta	-10.2654
▁minnha	-10.2661
Fondi	-10.2663
pat	-10.2667
inġenji	-10.267
▁President	-10.2671
ZZJONI	-10.2673
ġurisdizzjoni	-10.2679
ure	-10.2679
▁sigħat	-10.2679
▁Peress	-10.2679
nuqqasijiet	-10.2681
▁joħolqu	-10.2681
▁ppreżentati	-10.2683
soċj	-10.2684
arma	-10.2684
pazjent	-10.2687
▁kuntrattwali	-10.2689
▁Komunitarji	-10.2689
▁isfel	-10.269
▁joperaw	-10.2691
▁serju	-10.2691
▁xejn	-10.2692
▁ħaġa	-10.2693
Kummissarju	-10.2697
EE	-10.2701
▁rispettivi	-10.2707
ezza	-10.272
sess	-10.2724
▁wera	-10.2727
▁ferm	-10.2734
▁Eżekuttiv	-10.2739
solvent	-10.2744
▁prima	-10.2745
irtirar	-10.2749
sejħa	-10.2751
katina	-10.2752
lha	-10.2755
▁għand	-10.2755
ipp	-10.2759
▁vs	-10.2759
▁titoli	-10.2761
▁skemi	-10.2767
▁operattivi	-10.2771
▁Dis	-10.2773
likwidità	-10.2781
▁parzjali	-10.2786
Punt	-10.2787
▁komp	-10.2789
rej	-10.279
▁akkumpanjat	-10.2792
opera	-10.2795
▁għaldaqstant	-10.2796
▁ċittadini	-10.2797
▁jibdew	-10.2798
1998	-10.2799
▁għoljin	-10.2801
riż	-10.2806
Pajjiżi	-10.2807
▁tikseb	-10.2809
depożit	-10.2811
▁42	-10.2812
ġejjieni	-10.2813
▁jidhru	-10.2817
▁02	-10.2818
72	-10.282
ty	-10.282
liet	-10.2821
▁kulur	-10.2821
riet	-10.2823
▁esklużi	-10.2829
ans	-10.2832
armonizzazzjoni	-10.2835
jn	-10.2836
Baħar	-10.2839
55	-10.2839
▁aġġustat	-10.284
▁Free	-10.2842
▁jibbenefikaw	-10.2844
għajnejn	-10.2849
▁Ekonomika	-10.2861
ġni	-10.2861
▁for	-10.2862
jenza	-10.2864
(2),	-10.2867
▁rapporti	-10.2869
▁amministrattiv	-10.287
ubi	-10.2871
avjazzjoni	-10.2877
qtugħ	-10.288
olu	-10.2881
▁jipparteċipaw	-10.2885
▁tiżviluppa	-10.2886
▁ikollok	-10.2886
forza	-10.2887
Netwerk	-10.2892
Dikjarazzjoni	-10.2897
NO	-10.2897
org	-10.2899
web	-10.2899
sett	-10.2899
▁tissodisfa	-10.2905
▁mezz	-10.2905
▁CO	-10.2906
roti	-10.2908
▁intitolat	-10.2908
ksur	-10.2911
▁miftuħ	-10.2917
▁benefiċċju	-10.2917
oloġija	-10.2922
▁komponenti	-10.2923
awditjar	-10.2924
parteċipanti	-10.2925
fibri	-10.2925
▁ibbażata	-10.2927
▁jilħqu	-10.2929
fużjoni	-10.293
nija	-10.2935
interpretazzjoni	-10.2938
teknoloġiji	-10.2945
enja	-10.2964
▁jwettqu	-10.2966
trab	-10.2968
tqala	-10.2971
▁Pre	-10.2975
fruntiera	-10.2976
tranżazzjoni	-10.2977
ġustizzja	-10.2979
PL	-10.2981
dati	-10.2984
▁sens	-10.2985
▁approvazzjoni	-10.2988
91	-10.2995
iskemi	-10.2997
daħħal	-10.3005
▁prezz	-10.3005
▁regolament	-10.3006
▁bejgħ	-10.3007
▁toħloq	-10.301
mument	-10.3011
▁osservat	-10.3013
▁acid	-10.3016
ritorn	-10.3018
▁domestiku	-10.3019
ċità	-10.302
▁kontinwu	-10.3021
▁http	-10.3022
sinjal	-10.3024
involviment	-10.3034
▁sever	-10.3038
▁kruċjali	-10.3042
▁[1],	-10.3042
▁temporanja	-10.3046
kump	-10.3048
jiġifieri	-10.3053
TRA	-10.3056
kaxxa	-10.3056
▁(4)	-10.3057
▁tikkontribwixxi	-10.306
raġġ	-10.3064
attakk	-10.3065
jonali	-10.3066
▁El	-10.3069
▁liberu	-10.3073
▁Konġunta	-10.3073
fabbrika	-10.3074
Nazzjonijiet	-10.3075
▁2.1	-10.3075
graf	-10.3076
Proposta	-10.308
▁soluzzjonijiet	-10.3081
▁Uniku	-10.3083
dazju	-10.3084
gram	-10.3091
▁infezzjoni	-10.3092
mekkaniżmu	-10.3094
ewro	-10.3096
EF	-10.3098
▁arranġamenti	-10.31
ssa	-10.3102
IA	-10.3103
dumping	-10.3106
▁43	-10.3107
pereżempju	-10.3107
titoli	-10.3116
fol	-10.3116
infiq	-10.3117
▁jindirizzaw	-10.3119
tossiċità	-10.3121
▁miżmuma	-10.3122
Servizz	-10.3128
▁64	-10.3132
viżi	-10.3135
▁marbut	-10.3144
▁residenti	-10.3145
referenzi	-10.3148
▁esterna	-10.3151
0)	-10.3152
1999	-10.3157
ieħor	-10.3161
▁onlajn	-10.3161
-24	-10.3162
▁ħielsa	-10.3163
▁Fin	-10.3164
▁assenjat	-10.3167
▁ppreżentat	-10.3172
▁sinjali	-10.3176
▁47	-10.3182
imnut	-10.3182
▁adattat	-10.3182
Kon	-10.3183
vis	-10.3183
vin	-10.3184
▁jikkontribwixxi	-10.3187
virus	-10.3188
▁Schengen	-10.319
kompetenzi	-10.3201
etil	-10.3201
nett	-10.3202
▁Kien	-10.3208
▁istituzzjoni	-10.3215
kontenitur	-10.3218
▁Tabella	-10.3222
▁kor	-10.3225
▁medika	-10.3227
toroq	-10.3233
▁forma	-10.3234
JONI	-10.3235
fikat	-10.3238
klieb	-10.3242
▁parzjalment	-10.3252
▁impriża	-10.3253
-2005	-10.3253
74	-10.3262
istampa	-10.3267
▁definittiv	-10.3268
▁ġeografika	-10.327
▁negattivi	-10.3271
sospensjoni	-10.3274
▁preliminari	-10.3277
unità	-10.3289
kontribut	-10.329
fattur	-10.3297
▁55	-10.3297
over	-10.3298
mewt	-10.3299
verifiki	-10.3299
▁Paper	-10.3307
flussi	-10.3308
▁4.2	-10.3308
izzat	-10.3312
maniġġ	-10.3312
ze	-10.3314
41	-10.3321
▁xorta	-10.3324
▁jid	-10.333
produ	-10.3331
metodoloġija	-10.3332
▁ħadu	-10.3333
▁benefiċċji	-10.3335
▁Kontraenti	-10.3337
pru	-10.3337
▁esportaturi	-10.3338
gwa	-10.334
▁joħorġu	-10.3345
▁kwistjoni	-10.3348
2.5	-10.3351
superviżjoni	-10.3351
SO	-10.336
son	-10.3363
▁jipproduċu	-10.3366
pit	-10.3367
Re	-10.3371
▁IN	-10.3373
US	-10.3376
ong	-10.3377
ippro	-10.3383
▁importanza	-10.3392
▁implimentat	-10.3398
II	-10.3399
▁meqjusa	-10.3404
klassifika	-10.341
unitajiet	-10.3414
▁firxa	-10.3415
▁ikbar	-10.3419
bru	-10.3421
▁involut	-10.3424
▁diretta	-10.3433
▁kkon	-10.3437
diż	-10.3441
▁infużjoni	-10.3445
mistoqsijiet	-10.3445
kard	-10.3448
ester	-10.3455
▁żoni	-10.3455
▁fuqhom	-10.3456
▁emendi	-10.3457
▁tiss	-10.346
reat	-10.3461
▁testijiet	-10.3461
87	-10.3462
awrina	-10.3472
▁proġett	-10.3477
▁jaġixxi	-10.3478
▁produtturi	-10.3482
EFTA	-10.3489
individwi	-10.3492
tek	-10.3494
UR	-10.3496
▁sodium	-10.3496
▁prinċipalment	-10.3498
kwalifika	-10.3498
▁tindika	-10.3499
▁serra	-10.3501
ys	-10.3508
100	-10.3508
▁130	-10.3513
71	-10.3517
▁minuta	-10.3517
▁opportunitajiet	-10.352
▁regolatorju	-10.3525
sej	-10.3533
▁politiki	-10.3534
ħares	-10.3536
▁Tri	-10.3543
001	-10.3547
▁xjentifika	-10.3561
Portugall	-10.3565
▁jiddeċiedi	-10.3565
aġenda	-10.357
Lussemburgu	-10.3578
56	-10.3578
iskadenza	-10.3579
qrati	-10.358
responsabbilta	-10.3581
sie	-10.3582
tixrid	-10.3586
▁separati	-10.3587
▁Te	-10.3588
tarju	-10.359
muniti	-10.359
▁jħassar	-10.3593
▁tinkiseb	-10.3594
▁kompetittiv	-10.3596
oss	-10.3597
▁spjegat	-10.3604
▁jidde	-10.3606
▁kliniku	-10.3611
▁Programm	-10.3612
stiku	-10.3614
Ambjent	-10.3618
▁ħieles	-10.3621
kaw	-10.3624
▁kompost	-10.3626
validità	-10.3626
kunflitt	-10.3626
▁reċiproku	-10.3626
▁deskritti	-10.3629
Valutazzjoni	-10.3632
▁fosthom	-10.3641
Rumanija	-10.3643
92	-10.3646
▁koordinazzjoni	-10.3653
messaġġ	-10.3657
erba	-10.366
▁nhar	-10.3671
reżistenza	-10.3675
▁aċċessibbli	-10.3677
Trasport	-10.3681
pur	-10.3685
▁jib	-10.3687
▁fattur	-10.369
tion	-10.3699
aġġornament	-10.37
▁tirriżulta	-10.3701
tejjeb	-10.3702
ance	-10.3702
▁Mingħajr	-10.3703
▁toħroġ	-10.3705
▁kontribut	-10.3708
effettività	-10.3709
▁studjat	-10.3712
intenzjoni	-10.3717
▁jaf	-10.3719
konferma	-10.3723
sof	-10.3725
oġen	-10.3726
▁avvanzat	-10.3726
fakkar	-10.3733
▁tunnellata	-10.3736
Prim	-10.3736
kell	-10.3738
ħadid	-10.3743
frodi	-10.3745
Awdituri	-10.3746
age	-10.3747
ulazzjoni	-10.3749
emp	-10.3757
reg	-10.3757
▁kulħadd	-10.3763
▁Ru	-10.3764
xahar	-10.3769
kamra	-10.3773
ener	-10.3775
super	-10.3776
59	-10.3776
▁Jista	-10.3785
gwida	-10.3788
▁korrett	-10.3792
jen	-10.3793
▁negozju	-10.3794
▁intra	-10.3795
izza	-10.3804
pakketti	-10.3805
fatti	-10.3807
sjoni	-10.3809
kummerċjalizz	-10.3809
▁92	-10.3809
▁perjodi	-10.3809
qies	-10.381
▁dettaljata	-10.3812
▁kampjuni	-10.3814
ilhom	-10.3814
kolonna	-10.3815
ross	-10.3816
applikanti	-10.3817
84	-10.3818
low	-10.3824
▁tikkonċerna	-10.3829
Komunitajiet	-10.3832
que	-10.3833
▁Waqt	-10.3849
▁bbażat	-10.3865
difiża	-10.3868
ski	-10.3869
kisba	-10.3871
▁futuri	-10.3872
kis	-10.3872
magni	-10.3873
erti	-10.3873
anal	-10.3874
▁tiddeċiedi	-10.3876
CT	-10.3884
▁eżami	-10.3893
(2)(	-10.3895
jj	-10.3895
▁monetarja	-10.3896
GA	-10.3899
serv	-10.3901
▁ġo	-10.3901
triċi	-10.3902
pet	-10.3906
bol	-10.3917
▁militari	-10.3919
▁favorevoli	-10.3922
laħ	-10.3926
▁VII	-10.3933
▁qrib	-10.3934
organi	-10.3937
▁kondizzjonijiet	-10.3946
▁akkwist	-10.3947
▁avvenimenti	-10.3949
Ministeru	-10.3949
▁ħaddiema	-10.395
loġika	-10.395
▁reġistrazzjoni	-10.3956
provvediment	-10.3958
▁ċertifikat	-10.3963
▁limitati	-10.3975
▁all	-10.3976
ICT	-10.3982
www	-10.3984
▁effikaċi	-10.3984
xjenza	-10.3988
▁tħassib	-10.3991
agrikoltura	-10.3991
adattament	-10.3996
▁assigurazzjoni	-10.3996
traduzzjoni	-10.4002
rapportar	-10.4005
▁ġewx	-10.4006
▁innovattivi	-10.4007
▁jix	-10.4016
▁Post	-10.4019
ġiċi	-10.402
eko	-10.403
▁tmur	-10.4032
Ikel	-10.4034
tilwim	-10.4035
tribu	-10.4037
▁jindika	-10.4045
Ungerija	-10.4049
▁inkella	-10.4051
dotta	-10.4055
PDG	-10.4071
▁5.1	-10.4075
impjant	-10.4078
▁skopijiet	-10.4079
anda	-10.4079
▁riskji	-10.409
Ir	-10.4091
tweġiba	-10.4103
▁FUQ	-10.4105
ispiżjar	-10.4109
falliment	-10.4115
anzjani	-10.4121
aluminju	-10.4122
ugwaljanza	-10.4128
tom	-10.413
inklużi	-10.4137
▁nies	-10.4138
ostakli	-10.4143
“	-10.4143
▁jinżamm	-10.4143
kwalifiki	-10.4144
▁eċċezzjonali	-10.4144
glu	-10.4148
adatta	-10.415
rappurtar	-10.4158
poli	-10.4159
▁immedjat	-10.416
numri	-10.4161
identità	-10.4166
ejjaħ	-10.4167
▁irreġistrat	-10.4169
▁individwi	-10.4173
pos	-10.4175
54	-10.4181
▁apposta	-10.4193
▁Kwalunkwe	-10.4197
xaħam	-10.42
▁kinitx	-10.4205
▁barranin	-10.4208
rika	-10.4212
▁tindirizza	-10.4215
▁mibdul	-10.4216
dri	-10.4217
immaniġġjar	-10.4221
▁Intern	-10.4221
▁abbord	-10.4222
kombinazzjoni	-10.4223
▁54	-10.4227
indikaturi	-10.4228
▁bilaterali	-10.4229
▁Abbozz	-10.4239
▁jaġixxu	-10.4239
uss	-10.4244
▁kontrolli	-10.4244
influwenza	-10.4249
bdiewa	-10.4251
▁prezzijiet	-10.4254
▁deskrizzjoni	-10.4259
▁GĦALL	-10.426
skriv	-10.4263
Xogħol	-10.4264
▁evalwat	-10.4268
▁tradizzjonali	-10.4268
▁mobbli	-10.427
indikazzjonijiet	-10.4271
vent	-10.4273
▁Mon	-10.4275
kin	-10.4277
▁tqal	-10.4282
rak	-10.4284
waqqaf	-10.4291
▁sentenza	-10.4291
ċell	-10.4301
▁operazzjoni	-10.4301
▁garantit	-10.4303
▁49	-10.4303
▁urban	-10.4305
Bulgarija	-10.4306
nie	-10.4307
▁aspetti	-10.4311
▁espress	-10.4312
nofs	-10.4313
gre	-10.4321
▁mark	-10.4323
laboratorju	-10.4324
▁ristrett	-10.4325
▁leġislattiv	-10.4331
▁inizjattiva	-10.4339
biet	-10.4346
SM	-10.4367
intervall	-10.4371
▁jippreżenta	-10.4372
rilaxx	-10.4377
ħames	-10.4378
▁jindikaw	-10.4379
anja	-10.4383
preżent	-10.4383
▁jadotta	-10.4383
prov	-10.4388
▁reċenti	-10.4391
segwitu	-10.4391
soli	-10.4392
uffiċjal	-10.44
▁ħafif	-10.4405
rispons	-10.4405
▁jinnota	-10.4408
▁żżomm	-10.4409
▁kieku	-10.4411
▁reġistrat	-10.4417
disponibbiltà	-10.4427
ispeċi	-10.4428
amina	-10.4433
▁rrapportat	-10.4436
▁territorjali	-10.4439
▁jikkostitwixxu	-10.4442
▁Għalkemm	-10.4446
▁iwettqu	-10.4447
▁Sal	-10.4449
▁unika	-10.4449
▁teknoloġiji	-10.445
konsolidat	-10.445
▁jist	-10.4452
mobilità	-10.4452
▁meħud	-10.4455
FR	-10.4456
Livell	-10.4459
▁proporzjon	-10.4459
seba	-10.4459
▁Proċedura	-10.4459
hem	-10.4463
▁ddikjarat	-10.4465
dibattitu	-10.4467
NS	-10.4472
somma	-10.4473
▁stadju	-10.4474
gvernijiet	-10.4478
Kroazja	-10.4482
RD	-10.4482
inizjattivi	-10.4488
▁jkopri	-10.4494
igi	-10.45
▁jenfasizza	-10.45
ibr	-10.45
▁Assoċjazzjoni	-10.4501
impatti	-10.4501
Arċisqof	-10.4503
▁jippreżentaw	-10.4509
iżmu	-10.4518
iex	-10.4527
▁Tip	-10.4535
▁serja	-10.4537
pinna	-10.454
▁kimika	-10.454
eter	-10.4544
▁sigur	-10.4549
▁ikkunsidrat	-10.4555
/12	-10.456
▁linja	-10.4561
▁miegħu	-10.4563
ric	-10.4568
KO	-10.4569
infużjoni	-10.4575
Ġermaniż	-10.4578
sostituzzjoni	-10.4578
sensittività	-10.4582
rimi	-10.4587
inċiż	-10.4587
▁miġbura	-10.4588
fajl	-10.4589
▁agrikola	-10.459
AUC	-10.4599
▁unitajiet	-10.4602
huwiex	-10.4603
dożi	-10.4603
European	-10.4604
rik	-10.4611
3).	-10.4611
▁Għoli	-10.4612
▁jikk	-10.4612
rifjut	-10.4613
CH	-10.4616
▁prattiċi	-10.462
abbuż	-10.4625
▁41	-10.4626
enz	-10.463
ring	-10.4638
elettro	-10.4641
52	-10.4645
RPĊ	-10.4647
perċentwal	-10.4648
▁rrakkomandat	-10.4648
MO	-10.465
pagament	-10.465
▁joffri	-10.4652
pass	-10.4653
ajruporti	-10.4663
▁Alla	-10.4664
dożaġġ	-10.4666
▁funzjoni	-10.4667
roga	-10.4667
sors	-10.467
distanza	-10.4672
żjara	-10.468
ifikazzjoni	-10.4681
▁assoċjat	-10.4686
koperazzjoni	-10.4687
pjattaforma	-10.4689
ker	-10.469
SP	-10.4693
▁62	-10.4694
hemm	-10.4697
adulti	-10.4698
Norveġja	-10.4698
tba	-10.4706
BE	-10.4706
ister	-10.471
▁mono	-10.4711
▁93	-10.4717
▁Servizzi	-10.4718
▁fwied	-10.4726
83	-10.4737
vidjo	-10.4742
▁komprensiv	-10.4743
▁kkawżat	-10.4746
ġel	-10.4747
▁setgħu	-10.4751
63	-10.4757
▁wiċċ	-10.4759
makkinarju	-10.4759
sejbiet	-10.4764
▁ikkonċernati	-10.4766
ippjanar	-10.4767
▁51	-10.4769
tensjoni	-10.477
▁pur	-10.477
▁46	-10.4771
▁impjiegi	-10.4772
aġenzija	-10.4782
▁miżjuda	-10.4788
▁nominali	-10.4789
għotja	-10.479
▁jgħaddi	-10.4794
▁jilqa	-10.4798
aggregat	-10.4799
▁kun	-10.48
uma	-10.4803
/2001	-10.4806
UL	-10.4807
mill	-10.4808
▁adegwati	-10.4809
”),	-10.481
▁Abbażi	-10.4814
▁tilħaq	-10.4823
▁imbagħad	-10.4825
▁ingħata	-10.4825
pubblika	-10.4827
konverżjoni	-10.4827
▁COM	-10.4827
▁element	-10.4831
kartun	-10.4832
derivattivi	-10.4834
liċenzja	-10.4838
twa	-10.4838
▁Man	-10.4841
2018	-10.4847
djar	-10.4847
▁abbozz	-10.4848
▁skema	-10.4852
57	-10.4854
Segretarju	-10.4856
olo	-10.4856
▁komplut	-10.4868
Riżoluzzjoni	-10.4869
LO	-10.487
▁periklu	-10.4872
jenti	-10.4873
▁Par	-10.4874
▁61	-10.4877
inċentiv	-10.4879
mien	-10.4884
DC	-10.4886
strat	-10.4888
qgħad	-10.4889
ċirkolazzjoni	-10.4889
▁88	-10.4901
▁sostenn	-10.4904
▁intervent	-10.4904
Finlandja	-10.4905
SU	-10.4908
ash	-10.4911
▁eżatt	-10.4912
JU	-10.4913
▁Użu	-10.492
▁utli	-10.492
awtur	-10.4921
▁Disturbi	-10.4921
disk	-10.4931
RT	-10.4933
▁VIII	-10.4945
▁jaqbeż	-10.4946
▁ġustifikat	-10.4946
tassazzjoni	-10.4954
▁rikonoxxuti	-10.4954
▁żejda	-10.4954
ixxa	-10.4959
▁analizzat	-10.496
Reġjuni	-10.4974
sostenibbiltà	-10.4982
tranżizzjoni	-10.4985
▁ċertifikazzjoni	-10.4986
Latvja	-10.4986
▁Reġjonali	-10.4993
uk	-10.4999
▁armonizzati	-10.5001
abi	-10.5004
sodju	-10.5004
▁kampjun	-10.5004
▁fornituri	-10.5007
xorb	-10.5015
CS	-10.5017
▁kompetizzjoni	-10.5029
mikro	-10.5029
Kategorija	-10.5029
▁gass	-10.5032
▁joħroġ	-10.5033
bandiera	-10.5042
▁emenda	-10.5043
nin	-10.5044
▁neċessarja	-10.5049
▁suppost	-10.5052
suspett	-10.5052
bor	-10.5053
▁jikkonsisti	-10.5053
viċin	-10.5056
▁minima	-10.5056
għadam	-10.5061
▁għażla	-10.5062
dro	-10.5064
▁forom	-10.5064
▁tinbidel	-10.5065
reġistra	-10.5066
▁jinforma	-10.5068
muskoli	-10.5073
▁rreġistrat	-10.5076
daqqa	-10.5077
▁istituzzjonali	-10.5082
0000	-10.5085
▁jappoġġja	-10.5086
titolu	-10.5086
▁lok	-10.509
▁tippromwovi	-10.5099
▁terġa	-10.5102
▁jqis	-10.5105
sanzjonijiet	-10.5105
trade	-10.5105
stin	-10.5109
▁promoss	-10.5112
▁evitati	-10.5114
▁magħluq	-10.5115
EP	-10.5115
ETT	-10.5116
▁jirċievi	-10.5116
ekwità	-10.5119
▁adegwata	-10.512
tjur	-10.512
ped	-10.5122
▁infezzjonijiet	-10.5128
▁jaqblu	-10.5131
VA	-10.5131
▁investimenti	-10.5131
destinazzjoni	-10.5133
▁edukattiv	-10.5134
residenza	-10.5139
▁53	-10.5142
▁400	-10.5144
▁konġunti	-10.5147
61	-10.5151
marġni	-10.5153
qsim	-10.5154
sħubija	-10.5155
matika	-10.5161
▁jirregolaw	-10.5162
formula	-10.5162
viża	-10.5162
▁The	-10.5164
▁frisk	-10.5165
Amerika	-10.517
KK	-10.5171
▁Minbarra	-10.5173
korsijiet	-10.5177
hy	-10.5181
irrispettivament	-10.5181
bnedmin	-10.5185
poni	-10.5185
żmu	-10.5191
enfasi	-10.5195
soltu	-10.5196
det	-10.5202
▁fond	-10.5206
▁allokati	-10.5208
invest	-10.5208
istandard	-10.5214
seduta	-10.522
▁sikurezza	-10.5223
▁konness	-10.5226
entrata	-10.5231
pine	-10.5231
assoċjazzjoni	-10.5238
▁stabbiliment	-10.5238
tisħin	-10.524
▁jinvolvi	-10.5245
varjabbli	-10.5247
tqassim	-10.5255
▁Tista	-10.5261
fid	-10.5261
stan	-10.5265
sten	-10.5268
▁soġġetta	-10.5278
Ajru	-10.528
▁jinħa	-10.528
▁jadottaw	-10.5281
vittmi	-10.5281
▁Kodiċi	-10.5282
Rappreżentant	-10.5288
VI	-10.5289
korrezzjoni	-10.5291
istadju	-10.5294
▁eskluż	-10.5295
komunità	-10.5296
▁siringa	-10.5297
▁diskuss	-10.5298
sommarju	-10.5301
tenti	-10.5304
sewwieq	-10.5307
-2016	-10.5307
MM	-10.531
▁ruħhom	-10.5312
▁2019	-10.5313
▁tajbin	-10.5314
▁To	-10.5319
▁estern	-10.532
meta	-10.5321
bogħod	-10.5322
▁faċilment	-10.5324
53	-10.5326
agg	-10.533
▁pagamenti	-10.5337
▁gross	-10.5338
impjegat	-10.534
fanal	-10.5346
▁skop	-10.5346
riku	-10.5348
▁dejn	-10.5352
kit	-10.5355
assorbiment	-10.5357
▁affidabbli	-10.536
▁mediku	-10.5361
baxx	-10.5361
mark	-10.5363
eth	-10.5364
kati	-10.5367
▁attwalment	-10.5367
esplora	-10.5372
irrifjuta	-10.5372
▁jżommu	-10.5376
navigazzjoni	-10.5377
▁jirrappreżenta	-10.5383
madwar	-10.5385
preparazzjoni	-10.5393
▁integrati	-10.5395
▁prestazzjoni	-10.5397
▁superviżjoni	-10.5404
lev	-10.5406
CD	-10.5408
.2.2	-10.5409
tariffa	-10.5412
▁Ter	-10.5413
passat	-10.5416
▁mekkaniżmu	-10.5416
ska	-10.5416
quddiem	-10.5418
CI	-10.542
ssu	-10.5423
▁stampat	-10.5427
aqgħu	-10.5428
▁ikkontrollat	-10.543
hydro	-10.5431
▁4.1	-10.5431
bliet	-10.5434
▁assigurat	-10.5437
ritonavir	-10.5442
Sinjura	-10.545
▁pożittivi	-10.545
nijiet	-10.5453
▁ċelluli	-10.5453
għotjiet	-10.5454
76	-10.5458
▁jgħixu	-10.5461
NE	-10.5462
likwidu	-10.5474
Opinjoni	-10.5476
▁mnaqqsa	-10.5477
rikors	-10.5479
▁tix	-10.5482
▁ikk	-10.5486
▁konsiderevoli	-10.5497
▁non	-10.5499
uff	-10.5502
▁laqgħa	-10.5506
Taljan	-10.5508
Ġimgħa	-10.5514
sor	-10.5514
Linja	-10.5517
▁jispeċifika	-10.5523
diversità	-10.5523
▁jkopru	-10.5529
bqija	-10.553
▁poli	-10.5534
konsegwenza	-10.5534
Turkija	-10.5536
indika	-10.5537
temp	-10.5538
▁netwerk	-10.5544
Konferenza	-10.5546
▁għoti	-10.5547
▁dumping	-10.5548
asi	-10.5555
vul	-10.5556
▁off	-10.5557
▁Pjan	-10.5557
Presidenza	-10.5566
evidenza	-10.5569
serum	-10.5572
▁elettriku	-10.5573
▁indikazzjoni	-10.5576
konsistenza	-10.5577
passaġġ	-10.5577
irċev	-10.5578
▁jikkawża	-10.5579
▁delegati	-10.5583
III	-10.5584
CV	-10.5585
moħħ	-10.5592
impjanti	-10.5594
ċertifikazzjoni	-10.5594
▁jikkunsidra	-10.5597
▁Do	-10.5598
▁jwettaq	-10.5599
▁sodisfatti	-10.5603
bir	-10.5606
Pro	-10.5606
qosor	-10.5609
kwe	-10.5611
▁jippromwovu	-10.5612
▁temporanju	-10.5619
▁valida	-10.5622
▁Ser	-10.5622
missjonijiet	-10.5625
aga	-10.5629
▁bidu	-10.5632
stat	-10.5638
▁rakkomandata	-10.5642
▁tinnota	-10.5642
raġ	-10.5646
sewqan	-10.5648
▁jżomm	-10.5658
neħħi	-10.566
siġill	-10.5673
dmirijiet	-10.5676
tinib	-10.5679
valuta	-10.5693
run	-10.5693
▁XI	-10.5699
▁żviluppat	-10.5701
▁Effetti	-10.5708
91/	-10.571
▁jeħ	-10.571
ġenituri	-10.5711
dijabete	-10.5715
ivvjaġġar	-10.5715
▁approvata	-10.5716
kapsuli	-10.5718
.”;	-10.5719
▁joħloq	-10.572
▁restrittivi	-10.572
▁swieq	-10.572
▁jaffettwa	-10.5726
diffikultà	-10.573
ock	-10.5733
esperti	-10.5737
▁87	-10.5738
ajt	-10.5743
GĦ	-10.5744
tre	-10.5744
mekkaniżmi	-10.5744
▁Ver	-10.5748
▁qalb	-10.5752
▁Tagħrif	-10.5753
▁Qu	-10.5755
ħamrija	-10.5763
▁Med	-10.5764
ċirkustanzi	-10.5765
ejja	-10.577
dal	-10.5772
▁intelliġenti	-10.5773
bżonnijiet	-10.5774
ND	-10.5776
intervent	-10.5783
kompożizzjoni	-10.5785
għam	-10.579
zju	-10.5795
▁tinvolvi	-10.5798
tlaq	-10.58
TUR	-10.5802
▁għodda	-10.5802
portafoll	-10.5803
▁sesswali	-10.5803
can	-10.5809
paragun	-10.5812
▁probabbli	-10.5813
▁Kap	-10.5815
▁integrat	-10.5817
ey	-10.5818
mezz	-10.5818
xagħar	-10.5823
▁59	-10.5825
▁250	-10.5834
▁għamlu	-10.5834
▁2011,	-10.5835
3%	-10.5836
libera	-10.5841
▁abjad	-10.5841
▁qab	-10.5842
Mediċini	-10.5855
sur	-10.5855
kollateral	-10.5856
▁En	-10.5856
fir	-10.5858
reazzjoni	-10.5858
▁taffettwa	-10.5859
▁mixtieqa	-10.5867
▁perikolużi	-10.5872
tent	-10.5876
▁distribuzzjoni	-10.588
taħlita	-10.589
▁espert	-10.5892
▁adattati	-10.5897
sbu	-10.5899
▁korporattiv	-10.59
▁żejjed	-10.5907
metru	-10.591
▁jnaqqsu	-10.5911
▁72	-10.5915
restrizzjoni	-10.5919
▁tikkonsisti	-10.592
▁stima	-10.592
diviżjoni	-10.592
▁akut	-10.592
▁rrappurtati	-10.5927
▁impost	-10.5928
naw	-10.5935
▁jipprevedi	-10.5935
▁indeboliment	-10.5936
▁Dak	-10.5938
.3.2	-10.5939
▁waħdu	-10.5939
definizzjonijiet	-10.594
▁ttrattati	-10.5941
verti	-10.5947
▁3.2	-10.5947
depożitu	-10.5948
sottomissjoni	-10.5949
▁maħruġ	-10.5953
ismijiet	-10.5956
▁alkoħol	-10.5956
▁medji	-10.5957
Ombudsman	-10.5958
▁età	-10.5959
▁konċernat	-10.5961
gran	-10.5961
bajd	-10.5961
▁indirizzata	-10.5964
konsenja	-10.5966
CRR	-10.5967
evol	-10.5967
▁jkollok	-10.5972
▁Aħna	-10.5972
ristrutturar	-10.5973
etika	-10.5977
▁irrappurtat	-10.5979
▁assolut	-10.5981
acquis	-10.5988
tikkettar	-10.5993
▁adatt	-10.6011
▁Test	-10.6014
kriterju	-10.6015
▁marda	-10.6015
▁66	-10.6018
mus	-10.6021
▁jikkonċerna	-10.6022
bro	-10.6023
theddid	-10.6024
▁ċari	-10.6025
pin	-10.6029
▁mgħammra	-10.6034
▁ppubblikati	-10.6037
▁Car	-10.6038
▁Deskrizzjoni	-10.604
niku	-10.6044
Istatut	-10.605
▁MA	-10.6051
Punent	-10.6052
mg	-10.6053
titlu	-10.6055
▁[1	-10.6058
professjonisti	-10.6059
▁vinkolanti	-10.6061
BĊN	-10.6063
professjoni	-10.6063
▁New	-10.6063
insuffiċjenza	-10.607
TS	-10.6071
▁zokkor	-10.6073
▁skadenza	-10.6073
▁iseħħ	-10.6076
Sistemi	-10.6077
CF	-10.6083
FC	-10.6083
▁600	-10.6083
▁emendati	-10.6085
folji	-10.6085
1997	-10.6085
intrapriża	-10.6086
▁[5]	-10.6086
Kap	-10.6089
▁organizzata	-10.6092
Klassi	-10.6092
rett	-10.6093
gan	-10.6096
pensjonijiet	-10.6098
Ent	-10.6105
▁proporzjonat	-10.6107
ity	-10.611
▁riżoluzzjoni	-10.611
▁sensittiv	-10.6117
▁jemmen	-10.6121
żidiet	-10.6123
own	-10.6123
▁jimplimenta	-10.6126
industriji	-10.6127
riv	-10.6132
tema	-10.6138
IK	-10.6139
▁liċenzja	-10.6142
rex	-10.6145
▁(5)	-10.6147
vv	-10.6147
▁pp	-10.6148
konsiderazzjoni	-10.6149
▁aċċettat	-10.615
▁kklassifikat	-10.6151
▁epi	-10.6153
▁sors	-10.6156
tniġġis	-10.6157
indeboliment	-10.6159
passi	-10.6159
▁ġudizzjarja	-10.6166
▁għaxar	-10.6168
▁rappurtar	-10.6173
suf	-10.6176
aqqa	-10.6177
addittivi	-10.6179
▁2010,	-10.618
tluq	-10.618
Aġenda	-10.6181
ħila	-10.6183
▁meqjus	-10.6185
mediċini	-10.6186
▁2.2	-10.6193
ight	-10.6193
tifla	-10.6194
▁miksub	-10.6195
▁maħdum	-10.6205
żin	-10.621
BEI	-10.6214
proporzjonalità	-10.6216
App	-10.6218
kawżi	-10.622
▁Shipping	-10.622
konservazzjoni	-10.6224
fus	-10.6231
▁preċiż	-10.6231
▁wiesa	-10.6235
Ġestjoni	-10.6237
▁76	-10.6238
▁ipo	-10.624
▁mekkaniżmi	-10.624
▁imsejħa	-10.6241
▁dazju	-10.6245
portijiet	-10.6247
▁preskritt	-10.6248
Estonja	-10.6253
2%	-10.6255
mobbiltà	-10.6263
Innovazzjoni	-10.6264
▁jgħaddu	-10.6264
▁appoġġjat	-10.6264
2015	-10.6265
▁iqis	-10.6266
▁jerġa	-10.6268
▁Isem	-10.6272
defiċit	-10.6273
▁iddikjarat	-10.6275
▁għalik	-10.6275
kodiċijiet	-10.6278
▁humiex	-10.6282
▁preparazzjoni	-10.6287
gaw	-10.629
▁itwal	-10.6291
għid	-10.6291
1%	-10.6293
▁impenn	-10.6293
▁Euro	-10.6298
bilita	-10.6303
▁mibgħut	-10.6307
▁alternattiva	-10.6309
▁pendenti	-10.6311
jetà	-10.6316
finanzi	-10.6322
▁primarjament	-10.6323
pil	-10.6329
▁magħmulin	-10.633
siringa	-10.6332
▁ħalli	-10.6333
▁strett	-10.6337
▁ristrutturar	-10.6339
▁tikkostitwixxi	-10.634
▁assoċjazzjoni	-10.6341
ċikli	-10.6342
7%	-10.6345
▁llum	-10.6347
osi	-10.6347
qagħda	-10.6353
hin	-10.6354
▁Ex	-10.636
tifel	-10.636
sorsi	-10.6361
▁diż	-10.6362
(8)	-10.6362
ejjed	-10.6372
faċilita	-10.6372
unt	-10.6373
▁108	-10.6375
iskeda	-10.6375
▁57	-10.638
qoton	-10.6383
▁għodod	-10.6384
.10.20	-10.6385
▁żżid	-10.6386
PT	-10.6389
nomi	-10.6393
▁taħlita	-10.6394
eliminazzjoni	-10.6406
unika	-10.6406
IJA	-10.6408
▁ripetut	-10.641
perspettiva	-10.6412
▁jitwettaq	-10.6412
▁speċifikata	-10.6415
▁ppreżentata	-10.642
▁protettiv	-10.6424
▁ċittadin	-10.6427
mol	-10.6439
terroriżmu	-10.6441
▁Con	-10.6444
▁influwenza	-10.6446
▁awtorizzata	-10.6448
territorji	-10.646
Indja	-10.6467
▁separat	-10.6469
▁speċjalizzat	-10.6471
Russja	-10.6473
formazzjoni	-10.6473
▁żgħira	-10.6475
▁indikaturi	-10.6475
Bniedem	-10.648
▁km	-10.6482
▁vaċċin	-10.6485
▁legalment	-10.6491
iswed	-10.6495
▁wrew	-10.6495
ulari	-10.6496
ENTI	-10.6497
diskussjoni	-10.6498
▁vulnerabbli	-10.6501
▁spezzjoni	-10.6502
▁għamlet	-10.6506
▁kkonfermat	-10.651
▁ġuridiċi	-10.6523
IST	-10.6525
waqqfu	-10.6527
valutazzjonijiet	-10.6529
▁tissaħħaħ	-10.653
1995	-10.6538
ċertezza	-10.6539
oxx	-10.654
▁riċenti	-10.654
kapsula	-10.6553
▁umana	-10.6558
inċidenza	-10.6559
▁obbligat	-10.656
kriminalità	-10.6561
▁għamel	-10.6563
salvagwardja	-10.6564
okkupa	-10.6565
▁djalogu	-10.6571
▁Mal	-10.6577
sintomi	-10.6581
sla	-10.6582
walment	-10.6582
vja	-10.6583
▁magħha	-10.6583
▁pprovdut	-10.6588
Litwanja	-10.659
▁1.2	-10.6598
indipendenza	-10.6607
▁msaħħa	-10.6608
▁operattiva	-10.6611
▁Trans	-10.6613
maniġer	-10.6613
▁58	-10.6615
▁aġġornata	-10.6628
▁Ċivili	-10.663
▁Pereżempju	-10.6632
kandidat	-10.6641
▁superviżorji	-10.6641
▁Ċeka	-10.6643
tendenza	-10.6646
▁ospitanti	-10.6649
Sezzjoni	-10.6653
kunjett	-10.6657
ġenb	-10.666
ous	-10.6662
mhux	-10.6664
pul	-10.6667
▁investigat	-10.6675
2001	-10.6676
▁jnaqqas	-10.6681
▁urġenti	-10.6683
▁koerenti	-10.6686
▁toffri	-10.6692
rum	-10.6695
għamla	-10.6696
▁allokat	-10.6703
illa	-10.6704
▁jiddependi	-10.6707
▁titwettaq	-10.6709
debitur	-10.6717
▁Kooperazzjoni	-10.6719
ova	-10.6724
▁timplimenta	-10.6727
ċikl	-10.6727
Tmexxija	-10.6728
51	-10.6732
▁jirrigwarda	-10.6734
shi	-10.6738
han	-10.6743
▁veterinarju	-10.6744
Art	-10.6744
▁xjentifiċi	-10.6749
Koeżjoni	-10.6753
▁ffaċilitat	-10.6764
▁Vol	-10.6764
cro	-10.6768
▁jseħħu	-10.6778
trabi	-10.6784
9%	-10.6789
arranġament	-10.6791
ditti	-10.6796
kkredita	-10.6799
prattiki	-10.6802
TEN	-10.6807
indiċi	-10.6808
input	-10.6809
derivat	-10.6817
bejjiegħ	-10.6822
▁jikkostitwixxi	-10.6827
▁iżommu	-10.6829
▁jżidu	-10.6851
MB	-10.6852
▁Teva	-10.6854
▁Skond	-10.6854
▁kmieni	-10.6856
▁minerali	-10.6858
▁sħubija	-10.6859
▁Komp	-10.6862
Ewro	-10.6862
infrastrutturi	-10.6864
ċifri	-10.6874
off	-10.6876
▁vverifikat	-10.6885
Korp	-10.6885
modifika	-10.6887
▁5.2	-10.6888
▁Jenħtieġ	-10.6899
etajiet	-10.6899
familji	-10.6901
NG	-10.6905
tiġdid	-10.6911
▁CE	-10.6912
▁garanziji	-10.6913
tabakk	-10.6916
BB	-10.6918
epatite	-10.692
▁Pla	-10.6924
▁Ċiniżi	-10.6925
organiżmi	-10.6928
OD	-10.6931
fas	-10.6932
Green	-10.6933
ade	-10.6937
bieb	-10.6938
manteniment	-10.6949
imġiba	-10.6955
▁titnaqqas	-10.6955
▁mfassla	-10.6957
suppliment	-10.6958
▁ħadd	-10.696
maturità	-10.696
▁73	-10.696
▁ħaj	-10.6968
1996	-10.6968
paga	-10.697
▁ġeografiċi	-10.6974
▁4.4	-10.6975
▁Attiv	-10.6975
▁multipli	-10.6976
razz	-10.6977
▁ssodisfati	-10.6978
agh	-10.6979
Edukazzjoni	-10.698
▁120	-10.698
rotta	-10.6981
telefon	-10.6982
iskola	-10.6983
importaturi	-10.6987
▁jżid	-10.6998
distorsjoni	-10.6998
.2.1	-10.6998
▁jerġgħu	-10.7002
▁iżgħar	-10.7002
▁tirreferi	-10.7005
▁orizzontali	-10.701
emija	-10.7016
Slovenja	-10.7017
sitt	-10.7018
kontabilità	-10.7024
istudenti	-10.7025
▁implimentata	-10.7028
▁tqila	-10.7031
lejl	-10.7035
▁jinbidlu	-10.7037
qis	-10.7047
Mudell	-10.7047
applika	-10.705
▁flessibbli	-10.7059
▁1000	-10.7062
sussidji	-10.7064
▁jiddaħħal	-10.7065
▁setgħet	-10.7068
inġenju	-10.707
▁av	-10.7073
vista	-10.7076
residwi	-10.7076
OT	-10.7078
forom	-10.7079
Nofsinhar	-10.709
▁iddefinit	-10.709
premessi	-10.709
Dejta	-10.7091
rakkomanda	-10.7096
Impriża	-10.7096
▁ddefinit	-10.7096
▁Ass	-10.7098
ffa	-10.71
ħatra	-10.7104
▁kwalifikat	-10.7105
▁evitata	-10.7118
▁Lisbona	-10.712
Kawża	-10.712
emittent	-10.7132
taħlitiet	-10.7139
jiem	-10.7142
▁kopja	-10.7143
tumur	-10.7145
duttur	-10.7146
▁Ċipru	-10.7149
fran	-10.7151
ML	-10.7155
▁varji	-10.7159
▁jiffaċilitaw	-10.717
▁jilħaq	-10.7173
uffiċjali	-10.7178
Sena	-10.718
aċċetta	-10.718
naqqas	-10.7183
park	-10.7183
▁ikollha	-10.7185
waqfien	-10.7187
FS	-10.7187
▁nnotifikat	-10.719
▁tfittex	-10.7191
▁armonizzat	-10.7195
ieqa	-10.72
▁jonqos	-10.7201
▁Or	-10.7212
omo	-10.7213
lab	-10.7225
▁1.5	-10.7228
belt	-10.7229
denti	-10.7231
.4.2	-10.7232
orja	-10.7236
▁sostnut	-10.7237
infjammazzjoni	-10.7239
niżżel	-10.7247
▁Sħubija	-10.7248
Membri	-10.7251
ppja	-10.7259
mbri	-10.7263
1994	-10.7263
▁jikkontrolla	-10.7264
▁Miżuri	-10.7265
▁segwiti	-10.7276
▁jinħolqu	-10.7283
diżabilità	-10.7284
▁skeda	-10.7285
oloġiku	-10.7289
▁osservata	-10.7292
▁speċifikament	-10.73
▁Dr	-10.7305
istokk	-10.7306
Tkabbir	-10.7307
annimal	-10.7308
rota	-10.7309
solidarjetà	-10.7309
FP	-10.731
lor	-10.7312
obb	-10.7313
▁nistgħu	-10.7313
dettall	-10.7317
▁Kotba	-10.7322
▁jivvaluta	-10.7329
ħnieżer	-10.7331
ormon	-10.7337
insulina	-10.7337
▁tinforma	-10.7338
▁Jeħtieġ	-10.734
ażil	-10.734
iba	-10.7343
alità	-10.7349
identifika	-10.735
▁rreġistrati	-10.7353
▁tgħaddi	-10.7354
detenturi	-10.7354
Knisja	-10.7358
▁kkunsidrata	-10.7363
kazzjoni	-10.7364
▁settorjali	-10.7369
▁mifrux	-10.737
tilqim	-10.7373
▁iddeċieda	-10.7374
Mo	-10.7379
riassigurazzjoni	-10.738
kondizzjoni	-10.7382
▁twaqqaf	-10.7384
▁speċi	-10.7387
▁jkomplu	-10.7393
integrità	-10.7394
▁Ħafna	-10.7394
▁rċevew	-10.7398
numer	-10.7403
▁Rigward	-10.7406
▁aċċettabbli	-10.7407
▁jirrakkomanda	-10.7407
(9)	-10.7408
Ġappun	-10.7411
mużika	-10.7411
▁immirat	-10.7413
▁elenkat	-10.7414
▁ffinanzjati	-10.7415
finanzjat	-10.742
tran	-10.7423
▁integrata	-10.7423
010	-10.7425
flixkun	-10.7427
Proġett	-10.7428
0.5	-10.7431
konċessjoni	-10.7436
fajls	-10.7439
COM	-10.7443
pond	-10.745
simplifikazzjoni	-10.7451
ċirku	-10.7453
▁SA	-10.7463
reqqa	-10.7464
dipendenti	-10.7464
individwu	-10.7466
mid	-10.7468
▁ibbażati	-10.7472
5).	-10.7479
kollox	-10.748
konferenza	-10.748
▁63	-10.7481
▁imwettqa	-10.7482
marki	-10.7484
▁jikkunsidraw	-10.7485
▁bejniethom	-10.7488
▁Total	-10.7494
▁permessi	-10.7496
razza	-10.7496
▁tappoġġa	-10.7497
ATI	-10.7509
konċentra	-10.7519
▁marittimu	-10.7519
▁elettriċi	-10.7523
erna	-10.7524
▁dannu	-10.7525
▁relattivament	-10.7525
▁jitneħħew	-10.7527
▁ghal	-10.7529
jazzjoni	-10.753
EST	-10.7542
out	-10.7542
asil	-10.7548
kunsinna	-10.755
perjodi	-10.7552
▁Magni	-10.7556
ispeċijiet	-10.7557
▁Speċi	-10.7557
▁ppubblikat	-10.7558
put	-10.7558
8%	-10.756
▁jirriflettu	-10.7564
4%	-10.7565
6%	-10.7573
kampjuni	-10.7584
xandir	-10.7587
ġenera	-10.7588
DU	-10.7595
▁Studji	-10.7595
▁mmirati	-10.7596
pont	-10.7597
▁Fundamentali	-10.76
▁komparabbli	-10.76
IŻ	-10.7603
▁twissija	-10.7604
cle	-10.7605
ibbenefika	-10.7608
▁primarja	-10.7611
▁Wi	-10.7611
▁pjuttost	-10.7616
▁bdiet	-10.7619
etiċi	-10.7622
82/	-10.7626
▁sseħħ	-10.7626
proteina	-10.7629
kolari	-10.7631
ġurnata	-10.7633
▁4.3	-10.7635
▁tixtieq	-10.7637
▁Tali	-10.7638
piżijiet	-10.7641
ħasil	-10.7643
ick	-10.7644
ossidu	-10.7648
ħwejjeġ	-10.766
Qafas	-10.7663
salvataġġ	-10.7668
▁indikati	-10.767
▁Żvilupp	-10.7671
ajjar	-10.7671
▁TAGĦRIF	-10.7672
▁jagħżlu	-10.7672
▁jiddaħħlu	-10.7672
kulari	-10.7674
▁teżisti	-10.7675
▁jivverifika	-10.7679
vantaġġi	-10.7681
koerenza	-10.7681
WTO	-10.7684
VE	-10.7687
▁vitro	-10.7688
trasportaturi	-10.7689
Tramuntana	-10.7689
introjtu	-10.7689
(3)(	-10.769
motiv	-10.7692
vaċċin	-10.7692
trombo	-10.7694
▁parallel	-10.7695
▁jikkonforma	-10.7696
▁Emenda	-10.7696
midja	-10.7699
investitur	-10.7702
smigħ	-10.7716
sussidjarjetà	-10.7716
firien	-10.7727
lità	-10.7729
▁71	-10.7734
titjira	-10.7737
ġer	-10.7739
▁Wieħed	-10.7739
vojt	-10.7742
▁He	-10.7744
▁bih	-10.7756
▁impenjat	-10.7757
▁ikomplu	-10.7764
▁eliminat	-10.7765
karb	-10.7768
Persunal	-10.7771
▁ffirmat	-10.7772
Servizzi	-10.7773
traċċa	-10.7773
disposizzjoni	-10.7774
rikorrent	-10.7775
jent	-10.7785
addittiv	-10.7789
reazzjonijiet	-10.7789
▁tiffaċilita	-10.7795
privat	-10.7795
▁affettwati	-10.7796
▁iper	-10.7797
▁introdotti	-10.7801
▁fissi	-10.7801
her	-10.7802
Isfel	-10.7803
mes	-10.7809
▁Ħidma	-10.7809
igu	-10.781
semmi	-10.7822
għod	-10.7823
▁passi	-10.7824
▁jqisu	-10.7826
▁lilhom	-10.7828
▁raxx	-10.7832
rimborż	-10.7837
▁taġixxi	-10.7839
▁stipulata	-10.7841
▁sodisfaċenti	-10.7841
▁komprensiva	-10.7843
akkomodazzjoni	-10.7843
▁aħħari	-10.7846
500	-10.7848
▁antidumping	-10.7849
▁tikkonforma	-10.7849
▁Int	-10.7851
ċita	-10.7852
▁severa	-10.7853
azzjonisti	-10.7856
provi	-10.7857
Impjiegi	-10.7861
IKA	-10.7862
▁mediċi	-10.7864
▁Imp	-10.7869
▁maqsum	-10.7871
▁relattiv	-10.7872
jekk	-10.7875
▁jiddikjara	-10.7879
▁jirrigwardaw	-10.7882
aci	-10.79
▁ippubblikata	-10.79
permess	-10.7901
▁CI	-10.7902
▁reċiproka	-10.7905
▁GĦAL	-10.7919
▁Nhar	-10.7922
▁ddisinjat	-10.7922
▁jiddeċiedu	-10.7924
1).	-10.793
▁pilota	-10.7933
▁transfruntier	-10.7935
liema	-10.7938
.1.1	-10.794
dy	-10.7941
gon	-10.7948
clo	-10.7949
non	-10.795
▁baġitarja	-10.795
aġġusta	-10.7952
▁privata	-10.7954
▁ġietx	-10.796
Belt	-10.7963
multi	-10.7966
BS	-10.7968
istima	-10.7974
▁regolarment	-10.7976
▁Val	-10.7978
spira	-10.7987
kontrollur	-10.7991
▁Tags	-10.7995
tħassib	-10.7997
mara	-10.7998
less	-10.7998
▁estensiv	-10.8002
▁ikkawżat	-10.8002
▁tinbeda	-10.8006
▁proċedurali	-10.801
▁tittejjeb	-10.8025
▁sfidi	-10.8034
trasmissjoni	-10.8034
inklu	-10.8036
▁perċentwali	-10.804
▁konklużi	-10.8042
▁baġitarji	-10.8043
▁inkarigat	-10.8046
▁żied	-10.8048
▁74	-10.8048
▁assoċjata	-10.8049
gura	-10.8049
okkażjoni	-10.8049
Żgħażagħ	-10.8051
▁ipproċessat	-10.8051
▁Kun	-10.8055
brejk	-10.8068
ojdi	-10.8074
PM	-10.8074
saħħitha	-10.8075
tqabbil	-10.8075
▁jkompli	-10.8076
à	-10.8086
Ewropej	-10.8089
▁żdied	-10.8095
TP	-10.8096
hiex	-10.8103
▁imsejjaħ	-10.811
orju	-10.8112
▁kkontrollati	-10.8116
anz	-10.8123
deheb	-10.8123
diskussjonijiet	-10.8126
varjazzjoni	-10.8128
▁leġiżlattivi	-10.8128
traspożizzjoni	-10.8137
poter	-10.8137
kollaborazzjoni	-10.8139
żgħar	-10.8142
▁Online	-10.8143
▁ppjanat	-10.8149
▁tidde	-10.815
▁Dik	-10.8151
▁Materjal	-10.8156
▁tneħħi	-10.8164
able	-10.8166
yn	-10.8172
lari	-10.8174
▁intenzjonat	-10.8178
dom	-10.8184
▁ruħha	-10.8185
terminal	-10.8188
▁Op	-10.8192
Franċiż	-10.8193
aċċettazzjoni	-10.8194
▁jeżamina	-10.8198
produttività	-10.8202
entement	-10.8204
▁jitħallsu	-10.8204
▁tikkonkludi	-10.8207
daw	-10.8212
passiv	-10.8217
immodifika	-10.8219
▁Poli	-10.8219
vultaġġ	-10.822
▁intiż	-10.822
▁Esp	-10.8224
▁sottostanti	-10.8226
plaċebo	-10.8227
lott	-10.8233
▁separata	-10.8234
▁sforzi	-10.8236
▁disturbi	-10.8236
EPAR	-10.824
elle	-10.8242
▁NM	-10.8245
fjuwils	-10.8245
Regola	-10.825
▁trasferit	-10.8254
wettqu	-10.8258
back	-10.8259
deskrizzjoni	-10.8262
Baxxi	-10.8264
▁jtejbu	-10.8265
▁wriet	-10.8265
nazzjonali	-10.8266
▁tgħid	-10.8267
ażol	-10.8269
pulmun	-10.8269
▁Tużax	-10.8271
▁definita	-10.8273
▁Barranin	-10.8274
▁jaqbżu	-10.8275
▁Strument	-10.8278
SF	-10.8283
▁funzjonali	-10.8293
proteini	-10.8302
▁tħallas	-10.8304
▁jiddi	-10.8306
pulizija	-10.8306
▁tirri	-10.8306
▁xjentifiku	-10.8311
separazzjoni	-10.832
ħal	-10.8323
▁pan	-10.8324
▁konċernati	-10.8325
▁intellettwali	-10.8329
Titoli	-10.8329
ling	-10.8334
zon	-10.8336
traffikar	-10.834
umab	-10.8349
ACE	-10.835
ballun	-10.8351
▁jseħħ	-10.8355
ritratt	-10.8362
ejt	-10.8371
▁jitħallew	-10.8373
▁barranija	-10.8374
MENT	-10.8375
▁jikkooperaw	-10.8376
net	-10.8383
vjolenza	-10.8384
komunitajiet	-10.8386
flessibbiltà	-10.8387
▁kunfidenzjali	-10.8388
istorja	-10.8389
▁spazju	-10.8396
Nota	-10.8399
garanziji	-10.84
▁jikkawżaw	-10.8401
▁mitlub	-10.8402
pra	-10.8404
Eurostat	-10.8404
ispezzjoni	-10.8405
kontroparti	-10.8408
fluwor	-10.8409
EV	-10.841
▁xiri	-10.8411
hijiex	-10.8413
▁jikkorrispondi	-10.8416
▁maġġuri	-10.842
PD	-10.8433
▁titħalla	-10.8434
Kaxxa	-10.8435
KU	-10.8443
istrateġiji	-10.8443
primjum	-10.8448
BĊNi	-10.8452
sejħiet	-10.8452
▁jaqbel	-10.8457
oloġiċi	-10.8458
imballaġġ	-10.8459
▁jikkonsistu	-10.8461
tenni	-10.8461
▁ttestjat	-10.8463
▁iwassal	-10.8466
▁enfasizzat	-10.8466
tarbija	-10.8466
formulazzjoni	-10.8467
▁[6]	-10.8475
FF	-10.8481
inte	-10.8484
▁titjieb	-10.8486
fergħa	-10.8489
▁jaqa	-10.8492
sentenzi	-10.8495
rendiment	-10.8495
ditta	-10.8496
▁jirrifletti	-10.8497
farmakokinetika	-10.85
▁IX	-10.8503
▁tappoġġja	-10.8513
liga	-10.8514
▁jikkonsulta	-10.8516
fittex	-10.8521
ordnijiet	-10.8522
materji	-10.8522
likwidi	-10.8524
▁beda	-10.8526
▁jmorru	-10.8527
aspett	-10.8532
▁kontanti	-10.8532
Norveġiż	-10.8536
tilqima	-10.8537
▁irrapportat	-10.8537
▁itejbu	-10.854
▁provviżorju	-10.8541
biċċiet	-10.8541
kumpannija	-10.8543
xerrej	-10.8543
titolizzazzjoni	-10.8545
ose	-10.8545
tol	-10.8547
Pożizzjoni	-10.8547
trans	-10.8549
ieda	-10.8549
għti	-10.8557
borża	-10.8558
ekonomiji	-10.8559
bijodiversità	-10.8562
▁Jo	-10.8575
▁106	-10.858
rekord	-10.858
sekonda	-10.8585
ferrovija	-10.86
CHMP	-10.8603
normal	-10.8608
▁tivvaluta	-10.8609
▁strateġiċi	-10.8611
ball	-10.8615
rilevanza	-10.8625
ħlief	-10.8631
▁jitwaqqaf	-10.8634
riżervi	-10.8634
qbid	-10.8636
valwazzjoni	-10.8647
▁jirreferi	-10.8647
Sorveljanza	-10.865
▁jinstab	-10.8653
▁Lista	-10.8655
ajruplan	-10.8665
▁affettwat	-10.8665
olli	-10.8668
▁taqbeż	-10.8674
▁strateġiji	-10.8678
Korea	-10.8678
▁konkreti	-10.8681
fuq	-10.8685
migranti	-10.8688
▁tħassar	-10.869
ġid	-10.8698
Diċembru	-10.87
▁inaqqas	-10.8701
▁kandidati	-10.8704
AV	-10.8705
transazzjonijiet	-10.8711
▁tidentifika	-10.872
tnedija	-10.872
▁awtomatiku	-10.872
għalliema	-10.8723
▁jixtiequ	-10.8723
▁nefħa	-10.8724
wiss	-10.8729
aċet	-10.873
ċarġ	-10.873
importa	-10.8731
prim	-10.8736
Sikurezza	-10.8738
rabtiet	-10.8738
lett	-10.8741
OC	-10.8742
▁bikri	-10.8746
jur	-10.8746
jja	-10.8751
.7.2	-10.8756
wisa	-10.8758
tessut	-10.8759
▁vertikali	-10.8764
▁terza	-10.8764
▁pożittiva	-10.8767
▁introdott	-10.8769
Suppliment	-10.8769
faħam	-10.8772
▁baqa	-10.8775
DĠ	-10.8775
korporazzjoni	-10.8775
Reġjun	-10.8782
▁rifless	-10.8782
enzja	-10.8787
Ewwel	-10.8787
fibra	-10.8788
▁veterinarji	-10.8792
pagi	-10.8793
Os	-10.8794
▁81	-10.8796
oġġezzjoni	-10.8797
Segretarjat	-10.8799
009	-10.88
kant	-10.8801
żer	-10.8803
roaming	-10.8804
▁qari	-10.8804
saldu	-10.8805
▁offruti	-10.881
immigrazzjoni	-10.8812
sussidja	-10.8815
agħar	-10.8816
▁ttejjeb	-10.8817
kwalita	-10.8817
conazole	-10.8818
tranżitu	-10.8818
▁jiffurmaw	-10.8818
0,000	-10.8819
ical	-10.8829
▁ħajjin	-10.883
Cmax	-10.8832
tudni	-10.8837
Ministri	-10.8839
dipartiment	-10.8839
▁jvarjaw	-10.8852
▁naqas	-10.8858
▁installat	-10.8858
▁rkupru	-10.8865
Arti	-10.8865
kra	-10.8866
Jum	-10.8868
pett	-10.8871
▁żviluppata	-10.8874
Forum	-10.8877
▁fissa	-10.8878
▁selettiv	-10.8882
▁Spanjol	-10.8886
Awtorizzazzjoni	-10.8886
▁dubju	-10.8886
metabolit	-10.8887
izzaw	-10.8893
▁iwettaq	-10.8895
estratt	-10.89
▁RN	-10.8901
edded	-10.8903
▁minuti	-10.8907
002	-10.8907
▁sħaħ	-10.8912
▁multilaterali	-10.8912
.6.2	-10.8914
▁jikseb	-10.8917
riċiklaġġ	-10.8919
EFSA	-10.8925
waħda	-10.8932
▁suspensjoni	-10.8936
segment	-10.8937
▁mikrogramma	-10.8945
▁jevitaw	-10.8945
legat	-10.8946
loġiċi	-10.8952
▁xahrejn	-10.8952
▁ġiex	-10.8959
▁interpretat	-10.8959
SIS	-10.8959
infezzjoni	-10.8961
▁ngħatat	-10.8962
agħtu	-10.8965
▁miksijin	-10.8967
▁83	-10.8969
▁rappreżentattiv	-10.8973
▁Applikazzjoni	-10.8973
rifużjoni	-10.8984
friża	-10.8984
rotot	-10.899
notifiki	-10.899
labar	-10.899
▁obbligatorja	-10.8991
inflazzjoni	-10.8993
Azzjoni	-10.8995
karozza	-10.9007
ING	-10.9008
▁mressqa	-10.9014
TM	-10.9018
porzjon	-10.9018
awto	-10.9018
▁jiffoka	-10.9019
ganċ	-10.902
▁bażika	-10.9021
jed	-10.9027
glo	-10.9028
cus	-10.9034
parir	-10.9035
part	-10.9036
sinjali	-10.9037
▁Ġes	-10.9037
▁attent	-10.9039
▁tiddependi	-10.9045
▁universali	-10.9048
▁trattati	-10.9052
għodod	-10.9052
wajer	-10.9053
▁82	-10.9054
▁eżentat	-10.9055
reġistri	-10.9062
softwer	-10.9062
▁ippubblikat	-10.9063
konverġenza	-10.9067
assar	-10.9068
zjonijiet	-10.9069
għandekx	-10.907
kariga	-10.9072
dwana	-10.9072
idro	-10.9073
▁bojod	-10.9079
▁tirr	-10.9079
▁iħaddem	-10.9081
Analiżi	-10.9081
ump	-10.9086
Kom	-10.909
limitazzjoni	-10.9091
▁estiża	-10.9093
ambi	-10.9093
turiżmu	-10.9095
▁jeżisti	-10.9098
Kultura	-10.9101
▁kkonkludiet	-10.9103
olari	-10.9106
rav	-10.9107
abba	-10.9111
saqajn	-10.9113
Orizzont	-10.9115
akkwakultura	-10.9115
ħla	-10.9115
▁Reazzjonijiet	-10.9115
injetta	-10.9116
alkoħol	-10.9116
amministratur	-10.9116
▁konvenzjonali	-10.9117
▁teżamina	-10.9117
Rom	-10.9119
▁għalfejn	-10.9125
▁supplimentari	-10.9129
▁tintlaħaq	-10.9129
▁Dwar	-10.9131
inhuma	-10.9133
▁125	-10.9136
▁awtomatikament	-10.9137
PV	-10.9139
risposta	-10.9139
▁adatti	-10.9147
provvisti	-10.9149
OECD	-10.9149
▁stqarr	-10.9151
kisi	-10.9155
espressjoni	-10.9156
▁Fornitur	-10.9156
Missjoni	-10.9161
1992	-10.9162
▁korretta	-10.9164
▁jinstabu	-10.9166
▁3.3	-10.9172
xenarju	-10.9176
preċiżjoni	-10.9189
konvenzjoni	-10.919
▁primarju	-10.9191
▁kkontrollat	-10.9191
▁Valur	-10.9196
▁dde	-10.9196
▁inaqqsu	-10.9197
sessi	-10.9202
▁jikkorrispondu	-10.9205
▁idro	-10.9216
▁sewwa	-10.9219
hand	-10.9225
▁jixtieq	-10.9226
▁Evoluzzjoni	-10.9227
IMI	-10.9229
tweġibiet	-10.9231
▁bijoċidali	-10.9234
irkant	-10.9236
petrol	-10.9237
▁sekondarju	-10.9239
▁qalet	-10.924
▁saħansitra	-10.9241
ratifika	-10.9242
kambja	-10.9249
▁Studju	-10.9251
melħ	-10.9254
amine	-10.926
MIN	-10.9265
▁aċċettati	-10.927
▁farmako	-10.927
▁tressaq	-10.9271
ċenti	-10.9271
▁2.3	-10.9273
baħ	-10.9278
▁iebsa	-10.9278
▁jitqiegħdu	-10.9278
▁kal	-10.9292
▁tirrappreżenta	-10.9293
ejk	-10.93
▁japprova	-10.93
▁Kemm	-10.9301
▁inċentivi	-10.9305
egi	-10.9308
▁ladarba	-10.931
▁Appoġġ	-10.931
STI	-10.9312
olla	-10.9313
limitazzjonijiet	-10.9314
▁ħfief	-10.9317
rekords	-10.9317
▁taxxabbli	-10.932
▁4.5	-10.9325
▁evalwati	-10.9325
▁1.3	-10.9326
8/2012	-10.9327
▁jindirizza	-10.9331
isport	-10.9336
▁ħadet	-10.9339
▁Bħal	-10.9341
lav	-10.9341
▁proprja	-10.9342
indikazzjoni	-10.9342
dijametru	-10.9343
aġġorna	-10.9347
▁iddisinjat	-10.9352
▁potenzjalment	-10.9358
riċevitur	-10.9359
▁ffissat	-10.9359
▁artifiċjali	-10.9362
▁iffirmat	-10.9362
▁jfisser	-10.9369
Ġunju	-10.9372
kelma	-10.9382
▁Bla	-10.9384
▁ekwi	-10.9384
kosta	-10.9385
▁stretti	-10.9386
▁jappoġġjaw	-10.9386
iskala	-10.9391
kemm	-10.9392
kosti	-10.9396
agonist	-10.9397
forn	-10.9401
▁Madanakollu	-10.9409
▁Air	-10.9414
network	-10.9414
▁esportat	-10.9416
▁xkiel	-10.9416
finali	-10.9419
▁studenti	-10.9425
saħħtu	-10.9426
sho	-10.9428
vapuri	-10.9433
ċittadinanza	-10.9433
forzi	-10.9447
trasportatur	-10.945
▁jmur	-10.9451
rieda	-10.9453
foresti	-10.9455
notifikata	-10.9461
▁jibgħat	-10.947
▁Sol	-10.947
▁Inti	-10.9475
tekniki	-10.9476
▁kostanti	-10.9476
.1.2	-10.9479
▁tikkon	-10.9486
fehmiet	-10.9486
▁DWAR	-10.9489
▁superviżorja	-10.9496
wieħed	-10.9497
ħxuna	-10.9501
▁hawnhekk	-10.9502
▁ikopri	-10.9504
▁sezzjonijiet	-10.9506
Papa	-10.9507
Baġit	-10.9508
▁jiddependu	-10.9509
korruzzjoni	-10.9509
Ministru	-10.9511
ction	-10.9511
▁Permanenti	-10.9511
▁mniżżla	-10.9516
▁msemmijin	-10.9518
▁ppubblikata	-10.9518
008	-10.952
▁indikattiv	-10.952
publi	-10.9524
▁xott	-10.9528
batterija	-10.9529
pajpijiet	-10.9529
iskejjel	-10.953
▁deni	-10.9531
▁Nor	-10.9533
trapjant	-10.9534
sensiela	-10.9541
ulin	-10.9544
▁jappoġġaw	-10.9547
▁tint	-10.9547
sodisfazzjon	-10.9549
▁temporanji	-10.9552
▁organiċi	-10.9552
▁ghall	-10.9554
pep	-10.9556
sidien	-10.9558
200	-10.956
▁jispjega	-10.9564
▁minsuġ	-10.9564
loġiku	-10.9565
ammin	-10.9569
▁fuck	-10.9572
amide	-10.9576
sostenn	-10.9579
▁Annwali	-10.9592
▁98/	-10.9597
sussidjarji	-10.9598
jalment	-10.9598
▁mistiedna	-10.9602
evoluzzjoni	-10.9605
cum	-10.9615
▁Delegat	-10.9615
agu	-10.9619
▁aġġornat	-10.9627
▁bankarji	-10.963
▁jemendaw	-10.9631
▁Afrikan	-10.9633
▁klinikament	-10.9637
ŻI	-10.9643
▁elettrika	-10.9653
ISTA	-10.9654
ller	-10.9654
implikazzjoni	-10.9663
demokrazija	-10.9666
ċelluli	-10.9667
uffiċċji	-10.9671
enzjali	-10.9673
▁GĦANDU	-10.9676
sussidju	-10.9678
idine	-10.968
frekwenzi	-10.9681
oxa	-10.9683
qabdiet	-10.9686
▁għaddejjin	-10.9686
telekomunika	-10.9689
dipendenza	-10.9692
entrati	-10.9693
▁ambizzjuż	-10.9694
▁jipp	-10.9696
tindif	-10.97
▁Tnaqqis	-10.9701
▁protetta	-10.9703
Assi	-10.9705
▁Għadd	-10.9712
004	-10.9715
▁tispeċifika	-10.9717
▁Manifattura	-10.972
oci	-10.9723
▁interim	-10.9724
kombustjoni	-10.9727
ostakoli	-10.9727
ġurisprudenza	-10.973
/100	-10.9732
▁strutturat	-10.9737
▁jiddeterminaw	-10.9738
Teknoloġija	-10.9742
kuntrarju	-10.9742
▁Kor	-10.9743
eżerċita	-10.9744
ekwipaġġ	-10.9745
▁Ġie	-10.9747
kalċju	-10.975
ood	-10.9752
▁żgur	-10.9753
▁mtejba	-10.9755
▁tonqos	-10.9755
Reġistru	-10.9758
▁daħal	-10.9761
▁jeżerċitaw	-10.9761
iżgurar	-10.9763
▁nstab	-10.9765
▁frekwenti	-10.9766
Informazzjoni	-10.9766
▁minuri	-10.9766
istrutturi	-10.9771
kompartiment	-10.9773
preċed	-10.978
▁progressiv	-10.978
interoperabbiltà	-10.9784
elezzjonijiet	-10.9788
mqabb	-10.9789
remunerazzjoni	-10.9797
▁ikopru	-10.9799
▁jidentifikaw	-10.9802
▁ġudizzjarji	-10.9807
▁ddeċidiet	-10.9809
▁iffinanzjat	-10.9813
▁żvantaġġ	-10.9813
Ottubru	-10.9816
▁jitħalla	-10.9816
1),	-10.9819
Logħob	-10.9822
▁sforz	-10.9824
ken	-10.9825
▁depożiti	-10.9828
immigranti	-10.983
▁miftiehma	-10.9833
tratt	-10.9835
broadband	-10.9835
▁jintbagħtu	-10.9838
ħjut	-10.9845
istonku	-10.9846
▁ssaħħaħ	-10.9854
Sirja	-10.986
▁gradwali	-10.9861
▁żball	-10.9861
nor	-10.9868
▁Taħt	-10.9869
▁jafu	-10.9871
ves	-10.9874
ħajt	-10.9876
▁tiffoka	-10.9883
bosta	-10.9883
▁jixtru	-10.9889
tive	-10.9895
▁amministrat	-10.9896
ħtieġ	-10.9897
lding	-10.99
▁ruħu	-10.9901
▁jien	-10.9903
rist	-10.9903
▁kwantitattiv	-10.9903
impożizzjoni	-10.9904
moduli	-10.9905
intensità	-10.9906
COD	-10.9907
▁konċentrat	-10.9913
riċerkaturi	-10.9918
gro	-10.9919
imkien	-10.9919
▁inibituri	-10.992
esperjenzi	-10.9924
Islanda	-10.9924
▁safejn	-10.9932
tajers	-10.9934
Ukraina	-10.9937
▁ruħ	-10.9941
qajjem	-10.9945
riċettur	-10.9948
▁Rekwiżiti	-10.995
ikbar	-10.9954
▁Doganali	-10.9955
▁Kont	-10.9956
▁tipprevedi	-10.9958
sjieda	-10.9958
burg	-10.996
tolleranza	-10.9966
▁Franċiżi	-10.9971
011	-10.9974
prin	-10.9976
radjazzjoni	-10.9978
▁rimedju	-10.9979
rite	-10.9981
▁tiddetermina	-10.9982
direttivi	-10.9987
konsolidazzjoni	-10.999
▁jirreferu	-10.9995
▁jinnotifikaw	-10.9998
ikkum	-11.0001
riproduzzjoni	-11.0008
arbi	-11.0009
Istandard	-11.0013
▁Diġitali	-11.0016
bniet	-11.0018
ittri	-11.0019
▁strateġiku	-11.0021
▁kkalkolat	-11.0029
DF	-11.0032
kunfidenzjalità	-11.0038
▁volontarja	-11.0045
żjut	-11.0049
▁Home	-11.005
▁għandna	-11.0053
▁JEW	-11.0055
▁skrutinju	-11.0056
▁awdjoviżiv	-11.0056
▁irregolari	-11.0062
▁Sub	-11.0064
eba	-11.0069
▁leġiżlattiva	-11.0071
▁jikkonferma	-11.0074
ffu	-11.0074
dannu	-11.0078
prospett	-11.0078
▁ġenwin	-11.008
ions	-11.0081
▁jiffaċilita	-11.0083
kawtela	-11.0085
CCP	-11.0085
▁obbligatorju	-11.0085
PER	-11.0088
angolu	-11.009
ilħuq	-11.0095
▁magħżul	-11.0102
▁jaqbiżx	-11.0111
IĊI	-11.0112
tiswija	-11.0114
denza	-11.0117
▁1.4	-11.0118
(10)	-11.0122
▁esposti	-11.0124
għandu	-11.0125
▁TAS	-11.0125
indikatur	-11.0127
Gżejjer	-11.013
distinzjoni	-11.0133
Istitut	-11.0133
kumpanniji	-11.0138
taqsam	-11.0138
prospetti	-11.0139
▁indirizzat	-11.0142
▁Issa	-11.0142
Direttorat	-11.0146
Kostituzzjoni	-11.0152
Olanda	-11.0157
urġenza	-11.016
liku	-11.0161
validazzjoni	-11.0161
▁aġġornati	-11.0162
ħaddiem	-11.0163
varjetà	-11.0166
▁(0.	-11.0167
dixxiplina	-11.0168
żja	-11.0176
ĊI	-11.018
partita	-11.0181
HR	-11.0184
Europol	-11.0187
3/2009	-11.0191
dahar	-11.0195
emissjoni	-11.0199
fjamma	-11.02
▁91/414/	-11.02
ebb	-11.0201
kontropartijiet	-11.0203
mistoqsija	-11.0205
▁jawtorizza	-11.0205
▁tmien	-11.0212
għoli	-11.0213
pilloli	-11.0213
już	-11.0217
attur	-11.0218
Asja	-11.0219
Każ	-11.022
domin	-11.0223
degrada	-11.0224
▁ntuża	-11.0226
▁jitjieb	-11.023
▁jidentifika	-11.0232
xxu	-11.0233
ispezzjonijiet	-11.0235
titjiriet	-11.0236
Erasmus	-11.0238
nunzja	-11.0246
▁jġib	-11.0249
▁Operatur	-11.0254
avukat	-11.0255
ewwa	-11.0255
iskoperturi	-11.0262
▁tikkawża	-11.0262
idrat	-11.0266
klassijiet	-11.0266
▁bdew	-11.0268
▁part	-11.0268
▁jonqsu	-11.027
kriżijiet	-11.0275
PVC	-11.0281
saħħ	-11.0283
iffrankar	-11.0284
IAS	-11.0285
▁jiġġenera	-11.0289
ippakkjar	-11.0292
▁jitħallas	-11.0292
▁tibgħat	-11.0294
iżjed	-11.0299
▁Mod	-11.0301
ingredjenti	-11.0302
ence	-11.0303
CSD	-11.0309
nov	-11.0311
tun	-11.0312
▁Illum	-11.0317
Persuni	-11.0319
▁rċeviet	-11.0324
▁kompetittiva	-11.0327
privileġġ	-11.0327
▁miżmum	-11.0329
▁jiltaqa	-11.033
estrazzjoni	-11.0331
abine	-11.0331
pons	-11.0335
▁aċċessorji	-11.0339
▁tirrapporta	-11.0343
tagħha	-11.0344
saff	-11.0345
▁solidu	-11.0347
▁ttieħdu	-11.0349
▁preċiża	-11.0351
▁Finanzjarja	-11.0357
metaboliżmu	-11.0357
Afganistan	-11.0365
protokoll	-11.0365
▁doppja	-11.0365
▁reżistenti	-11.0366
▁stampa	-11.0371
għodda	-11.0374
majjal	-11.0376
riħ	-11.038
▁Konsultattiv	-11.0398
tossiċi	-11.0398
▁wasslu	-11.0401
acet	-11.0404
Sustanzi	-11.0404
potenza	-11.0404
inibitur	-11.0405
▁180	-11.0412
humiex	-11.0421
▁5.3	-11.0432
għoxrin	-11.0434
pożi	-11.0434
RIS	-11.0437
▁kultant	-11.0439
▁ġestit	-11.044
kiri	-11.0443
ENT	-11.0444
karbon	-11.0444
kampanja	-11.0446
Kont	-11.045
istituzzjonali	-11.0452
▁bikrija	-11.0453
kloro	-11.0453
eżempji	-11.0456
xejriet	-11.0456
▁skoperturi	-11.0459
mitigazzjoni	-11.0459
Ħadd	-11.0461
istħarriġ	-11.0461
▁tħossok	-11.0462
ġja	-11.0466
▁jirrispettaw	-11.0469
▁importati	-11.047
▁Żieda	-11.0476
▁Pass	-11.0479
▁Referenza	-11.0481
▁biha	-11.0481
▁ċċarat	-11.0487
Aċċess	-11.049
ċereali	-11.0492
ħtiġiet	-11.0497
▁sospiż	-11.05
▁mibjugħ	-11.0503
▁ikkonfermat	-11.0509
1993	-11.051
noti	-11.0512
▁nru	-11.0513
parteċipant	-11.0513
cent	-11.0518
▁Standard	-11.052
sieħeb	-11.052
OV	-11.0521
▁JIDHER	-11.0522
krom	-11.0524
Slovakkja	-11.0529
▁jikber	-11.0529
ħxejjex	-11.0531
▁metformin	-11.0534
Amministrazzjoni	-11.0534
.5.2	-11.0537
▁speċijiet	-11.0537
żerriegħa	-11.0539
▁mehmuż	-11.0539
kompatibbiltà	-11.0545
▁derivati	-11.0546
Inter	-11.0546
pjattaformi	-11.055
Kanada	-11.055
plo	-11.0559
ħatt	-11.0565
Iran	-11.0573
Riskju	-11.0578
▁jittrattaw	-11.0579
sing	-11.0579
▁jevalwa	-11.0582
▁maħtura	-11.059
▁NB	-11.0592
▁maħduma	-11.0594
konfront	-11.0597
▁indirettament	-11.0597
qatt	-11.0604
▁spjegazzjoni	-11.0604
Assemblea	-11.0606
▁Żid	-11.061
nder	-11.061
reklamar	-11.0613
▁żdiedu	-11.0613
IO	-11.0614
▁jitneħħa	-11.0615
qerda	-11.0615
poplu	-11.0617
▁he	-11.0619
Liechtenstein	-11.062
▁enerġetika	-11.0623
▁Strutturali	-11.0626
450	-11.0627
SEBĊ	-11.0629
▁soċjo	-11.063
carb	-11.0632
eliġibbiltà	-11.0634
tollera	-11.0636
▁mħallsa	-11.0645
way	-11.065
▁gravi	-11.0655
▁Konsegwentement	-11.0665
▁beta	-11.0674
izzatur	-11.0674
load	-11.0674
▁Federali	-11.0676
▁stħarriġ	-11.0676
trażżin	-11.0679
▁kronika	-11.0682
▁biċ	-11.0687
marġini	-11.0688
Metodu	-11.0691
ajr	-11.0691
▁domestika	-11.0693
lura	-11.0698
thro	-11.0698
▁mmonitorjat	-11.0702
▁Reg	-11.0704
▁Amministrattiv	-11.0705
▁futura	-11.0707
Annimali	-11.0707
▁integrali	-11.0708
▁postali	-11.0713
▁indaqs	-11.0718
għasafar	-11.0732
▁obbligatorji	-11.0733
raz	-11.0735
▁sussegwentement	-11.0736
swa	-11.0736
mant	-11.0742
FOR	-11.0744
▁tilqa	-11.0745
kbar	-11.0746
Atlantiku	-11.0753
▁strutturi	-11.0753
eżenzjonijiet	-11.076
partiti	-11.0769
Faċilità	-11.077
▁2.4	-11.077
▁riċevut	-11.0772
Isvezja	-11.0776
▁bankarju	-11.0776
segwenti	-11.0778
HU	-11.0779
▁Liżbona	-11.0781
imblokk	-11.0786
▁tikber	-11.0791
▁ikkuntattja	-11.0793
kien	-11.0794
ATT	-11.0797
▁teknoloġiċi	-11.0798
▁[7]	-11.0798
pussess	-11.0798
Garanzija	-11.0801
direttur	-11.0802
▁strateġika	-11.0804
terminazzjoni	-11.0811
▁GmbH	-11.0813
ġugarell	-11.0818
integra	-11.0821
▁iqisu	-11.0826
ign	-11.0827
▁imsemmijin	-11.0828
fenil	-11.0835
▁cm	-11.0838
▁tħalli	-11.0839
Bejgħ	-11.0845
▁iżolat	-11.0846
ĠAI	-11.0847
▁Doża	-11.0848
qoxra	-11.085
polimer	-11.0852
▁ittejjeb	-11.0852
adolexxenti	-11.0853
feriti	-11.0858
ksib	-11.0859
attivazzjoni	-11.086
abbi	-11.0861
kompitu	-11.0865
awwar	-11.0866
▁jgħodd	-11.0871
▁jimponi	-11.0871
nom	-11.0872
▁Ladarba	-11.0873
▁4.4).	-11.0878
oxy	-11.0883
Figura	-11.0895
▁fornut	-11.0896
Għażla	-11.0902
▁twal	-11.0904
▁ċerta	-11.0907
▁effettivament	-11.0909
libertajiet	-11.091
▁Europe	-11.0913
▁chloride	-11.0913
▁rregolat	-11.0917
TSO	-11.0918
krediti	-11.0919
kompetituri	-11.0921
intermedjarji	-11.0922
▁Valletta	-11.0922
biex	-11.0922
▁Ċiniż	-11.0926
privatezza	-11.0929
▁seħħew	-11.0929
Kwalità	-11.0934
klor	-11.0935
Bureau	-11.0945
▁Kontenut	-11.0948
kontabbiltà	-11.0951
kredituri	-11.0953
labora	-11.0956
▁Sakemm	-11.0958
IFRS	-11.0959
▁plenarja	-11.096
▁immobbli	-11.096
sinerġiji	-11.0968
Patt	-11.097
▁Imma	-11.0973
ideat	-11.0979
probabbiltà	-11.0986
tlestija	-11.0986
kumpliment	-11.0989
adegwatezza	-11.0992
tubu	-11.0993
▁ikkalkulat	-11.0995
kkjar	-11.1
▁rkuprat	-11.1
riċetta	-11.1
korre	-11.1001
Awtoritajiet	-11.1003
▁jiżviluppa	-11.1009
Inizjattiva	-11.1012
▁kkoopera	-11.1012
possibilità	-11.1015
GR	-11.102
mula	-11.1021
DO	-11.1023
▁tipproduċi	-11.1024
Erbgħa	-11.1024
Euratom	-11.1026
▁ippjanat	-11.1027
ġustifikazzjoni	-11.103
▁3.5	-11.1032
karattru	-11.1038
7).	-11.1047
▁titwaqqaf	-11.105
tilfu	-11.1052
▁kkonsultat	-11.1062
ego	-11.1063
▁topera	-11.1063
▁marittima	-11.1068
orji	-11.1079
▁intuża	-11.108
importatur	-11.108
trattur	-11.1082
link	-11.1082
Bijo	-11.1087
Tip	-11.1093
Monitoraġġ	-11.1094
▁tevita	-11.1094
wasla	-11.1095
▁instab	-11.1099
.3.1	-11.1101
ERA	-11.1104
▁iżomm	-11.1106
▁Pubbliku	-11.1109
kwittanza	-11.1112
▁tiddaħħal	-11.1118
▁separatament	-11.1118
xemx	-11.1119
FSE	-11.112
modalità	-11.1129
blokk	-11.1132
▁alia	-11.1133
avvanz	-11.1135
▁jipproteġu	-11.1135
April	-11.1139
▁ikompli	-11.1139
divulgazzjoni	-11.1141
▁tinstab	-11.1141
ipper	-11.1143
▁6.1	-11.1147
TTIV	-11.1152
bdil	-11.1159
▁testendi	-11.1162
kundizz	-11.1164
diżabbiltà	-11.117
mexxejja	-11.117
gliċ	-11.1182
▁spinta	-11.1183
kodifika	-11.1185
▁validi	-11.1186
ESA	-11.1187
orjentazzjoni	-11.1192
tabbilizzazzjoni	-11.1193
▁jifforma	-11.1196
wirt	-11.12
isforz	-11.1202
ammissjoni	-11.1209
▁mgħaġġel	-11.1212
▁rimettar	-11.1212
▁joriġina	-11.1217
EW	-11.122
periklu	-11.123
togħma	-11.123
Appell	-11.1234
▁jintemm	-11.1236
▁Fost	-11.1239
▁Imbagħad	-11.1239
▁tippubblika	-11.1242
▁koordinat	-11.1245
▁jistieden	-11.1245
fett	-11.1253
▁fsada	-11.1257
filament	-11.126
determina	-11.1262
ċarezza	-11.1267
ther	-11.1269
▁jiddetermina	-11.1271
dewmien	-11.1278
modalitajiet	-11.1278
006	-11.128
▁jippromwovi	-11.1281
▁ingħatat	-11.1286
diżastri	-11.129
vor	-11.1295
iskopertura	-11.1297
▁Rurali	-11.1297
idrokarburi	-11.1299
time	-11.13
Proċedura	-11.1301
▁jikkomunikaw	-11.1308
disturb	-11.131
▁espressa	-11.131
▁pprojbit	-11.1311
▁jaslu	-11.1326
▁Flimkien	-11.1326
uniku	-11.1331
kjarifika	-11.1332
76/	-11.1335
▁ġġenerat	-11.1335
distributur	-11.1338
Brażil	-11.1341
membru	-11.1342
grav	-11.1343
▁teknoloġiku	-11.1347
TRI	-11.1349
▁msieħba	-11.1353
ħażniet	-11.1353
umdità	-11.1356
▁ifittxu	-11.1356
▁marittimi	-11.1356
▁approva	-11.136
▁ġeo	-11.1361
metti	-11.1362
grafika	-11.1362
▁Delega	-11.1366
▁jiġġustifika	-11.1375
derogi	-11.1375
▁jidhrux	-11.1383
affidabbiltà	-11.1387
▁Ryanair	-11.1387
▁Indika	-11.1388
kondiviżjoni	-11.1389
vapur	-11.1392
▁infushom	-11.1396
glyc	-11.1397
batterj	-11.1398
voka	-11.14
▁jipproponi	-11.1402
nol	-11.1402
Agrikoltura	-11.1405
Kooperazzjoni	-11.1412
▁Port	-11.1413
Pollakk	-11.1414
▁jopera	-11.1423
UNI	-11.1424
laterali	-11.1426
▁ġenetikament	-11.1429
▁rispettiv	-11.1434
Tribunal	-11.1438
uċuħ	-11.1438
▁3.4	-11.1438
rikk	-11.144
SPE	-11.1442
kompeti	-11.1443
AETS	-11.1443
mministra	-11.1452
fiċi	-11.1456
rfu	-11.1457
ħaxix	-11.146
qamħ	-11.146
▁2009/1	-11.1462
ound	-11.147
INN	-11.1475
dehra	-11.1476
Maċedonja	-11.1478
▁nik	-11.1478
aċċident	-11.1481
ETS	-11.1483
Pajjiż	-11.1486
salva	-11.1489
▁transnazzjonali	-11.1494
▁ngħata	-11.1503
uba	-11.1507
frutt	-11.1508
▁tirrifletti	-11.1521
VO	-11.1523
ilsien	-11.1526
▁rikjest	-11.1533
kmand	-11.1534
koeffiċjent	-11.1543
▁Ġew	-11.1545
iżvelar	-11.1545
Konsumatur	-11.1546
▁status	-11.1549
software	-11.1552
acc	-11.1553
▁Jistgħu	-11.1555
Taħriġ	-11.1564
Avjazzjoni	-11.1567
Assigurazzjoni	-11.1573
Finanzi	-11.1579
kurrent	-11.158
relatur	-11.1582
Stat	-11.1588
anġjo	-11.1591
▁spezzjonijiet	-11.1593
▁Pharma	-11.1598
▁taċċetta	-11.1602
▁ssib	-11.1606
▁1234/2007	-11.1613
▁jipproduċi	-11.1613
idroġenu	-11.1616
kwestjonarju	-11.1616
tibdiliet	-11.1617
iffirmar	-11.162
ekwivalenti	-11.1629
president	-11.1634
▁jillimitaw	-11.1635
▁trejner	-11.1635
▁Act	-11.1637
▁Belġjan	-11.1638
tnissil	-11.1641
▁iżidu	-11.1652
xellug	-11.1654
▁Finanzjarji	-11.1654
▁eżerċitat	-11.1655
Mekkaniżmu	-11.1657
▁ferrovjarji	-11.1657
▁dinjija	-11.1663
komplement	-11.1664
▁jappoġġa	-11.1676
2/2011	-11.1677
elimina	-11.1677
infermier	-11.1682
deni	-11.169
pretensjonijiet	-11.1691
kompli	-11.1696
tonn	-11.1702
▁kombinat	-11.1704
▁tikkonsulta	-11.1704
▁maħżun	-11.1722
PRODOTT	-11.1725
▁solari	-11.1729
salvagwardji	-11.1732
insolvenza	-11.1732
pompa	-11.1732
ografija	-11.1733
▁distint	-11.1734
ġurnal	-11.1738
▁ippreparat	-11.1741
iskopijiet	-11.1742
▁governattiv	-11.1747
ife	-11.1751
Operazzjoni	-11.1753
▁antikorpi	-11.1762
▁kalendarja	-11.1766
▁tiddikjara	-11.1766
▁ttestjar	-11.177
▁jixraq	-11.1776
▁primarji	-11.1777
▁sturdament	-11.1779
pdf	-11.1781
▁iżżid	-11.1785
għandek	-11.1788
003	-11.1791
roll	-11.1795
▁esklussivament	-11.1797
▁barrani	-11.1802
▁kata	-11.1803
għajnuniet	-11.1804
żebbuġ	-11.1804
FIN	-11.1807
inhi	-11.1811
▁joqgħod	-11.1814
▁tevalwa	-11.1815
ħażen	-11.1816
▁jissorvelja	-11.1821
realtà	-11.1821
▁jirrapportaw	-11.1823
▁Żomm	-11.1827
istokkijiet	-11.1839
chlor	-11.1844
ixk	-11.1848
▁konsultattiv	-11.185
▁jinfurmaw	-11.1852
għeneb	-11.1852
żwieġ	-11.1852
▁jiffaċċjaw	-11.1855
kimoterapija	-11.1858
▁Fran	-11.186
rimunerazzjoni	-11.1861
▁tlett	-11.1862
▁sejra	-11.1862
Parteċipant	-11.1864
▁ikkon	-11.187
ADR	-11.1871
nitroġenu	-11.1877
▁maqbul	-11.188
lemin	-11.1884
ferroviji	-11.1887
Adeżjoni	-11.1887
▁2015/2	-11.1887
isser	-11.1894
1,000	-11.1895
Impatt	-11.1895
diskriminat	-11.1902
Banek	-11.1903
▁enfasizza	-11.1904
▁multiannwali	-11.1912
vantaġġ	-11.192
Novembru	-11.1921
▁tieqaf	-11.1925
Gran	-11.1925
▁anormali	-11.1933
▁jsaħħu	-11.1941
▁jinħoloq	-11.1943
Kuntratt	-11.1946
isfida	-11.1947
▁ivvaluta	-11.1951
magħruf	-11.1957
AKP	-11.1966
isfond	-11.1968
uġigħ	-11.1968
elezzjoni	-11.1977
Istituzzjonijiet	-11.1989
▁Chi	-11.1989
▁jitqiegħed	-11.1992
biltà	-11.1995
DNA	-11.1995
ĠĠ	-11.1998
Karatteristiċi	-11.1999
▁jipprevjenu	-11.1999
Marzu	-11.2008
iffissar	-11.2008
żjieda	-11.2012
imposti	-11.2013
emato	-11.2013
▁jirrikjedu	-11.2015
Dipartiment	-11.2015
ġest	-11.2023
8.2	-11.2026
stallazzjonijiet	-11.2027
ħinijiet	-11.2028
tbassir	-11.2034
inċertezza	-11.2036
▁Natura	-11.2037
AST	-11.2047
▁ferrovjarja	-11.2047
ISA	-11.2048
fergħat	-11.2052
eqreb	-11.2054
enzimi	-11.2055
▁Għandek	-11.206
▁Apparat	-11.206
ntraprenditorija	-11.207
settijiet	-11.2076
▁medjan	-11.2079
▁preferenzjali	-11.2083
real	-11.2083
interkonnessjoni	-11.2085
Mejju	-11.2089
qadd	-11.2089
ART	-11.2091
▁spp	-11.2096
densità	-11.2099
istadji	-11.2102
▁metalli	-11.2104
għażel	-11.2105
▁jiġbru	-11.2105
1/10	-11.2107
eżitu	-11.2108
votazzjoni	-11.211
Tfal	-11.211
▁Ammont	-11.2112
nazzjonalità	-11.2117
impenja	-11.2119
Moldova	-11.2122
▁jissaħħu	-11.2122
Sħubija	-11.2127
aċċessibbiltà	-11.2132
films	-11.2137
ċaqliq	-11.2138
qbil	-11.214
Isvizzera	-11.2145
xewqa	-11.2145
▁proporzjonali	-11.2146
formoli	-11.2147
▁vokazzjonali	-11.2148
ħobb	-11.2149
tkessiħ	-11.2151
ġabra	-11.2156
ċjali	-11.2162
konsulent	-11.2164
▁innifsu	-11.2171
▁Dispożizzjoni	-11.2172
frazzjoni	-11.2173
passaport	-11.2174
▁theddida	-11.218
▁ħarsa	-11.2191
▁kumplessi	-11.2194
IMO	-11.2196
żur	-11.2196
▁tirrigwarda	-11.2197
ħaffef	-11.22
ċirkwit	-11.2204
▁575/2013	-11.2207
bhejjem	-11.2213
perijodi	-11.2213
▁jakkumpanja	-11.2213
▁Jixtru	-11.2213
▁jassiguraw	-11.2214
Awstralja	-11.222
▁tassew	-11.2222
▁sekondarja	-11.2227
▁jimplika	-11.2236
UCITS	-11.2243
▁Amerikan	-11.2243
sopravivenza	-11.225
▁informali	-11.225
istaġun	-11.2252
ikkalkula	-11.2252
ATA	-11.2257
iffinanzjar	-11.2263
(2008)	-11.2264
reġjonali	-11.2267
muskolu	-11.2273
▁tintbagħat	-11.2273
Istrument	-11.2273
ċomb	-11.2276
Istanza	-11.2276
▁wasslet	-11.2279
2019	-11.2282
▁Żewġ	-11.2289
offerent	-11.229
▁kwart	-11.2291
▁għaddej	-11.2293
▁Oġġetti	-11.2296
opzjoni	-11.23
▁titħassar	-11.2306
Użu	-11.2312
Swieq	-11.2313
▁jimponu	-11.2319
▁ribavirin	-11.2323
sostitut	-11.2326
▁Kontra	-11.2337
▁ġeografiku	-11.2343
kristall	-11.2343
temi	-11.2346
▁żvelat	-11.2346
▁endo	-11.2347
Tieni	-11.2348
karatterizz	-11.2349
▁naqsu	-11.2356
ospita	-11.2359
Libja	-11.2365
▁Tim	-11.2369
▁fadal	-11.2374
residwu	-11.2376
▁darb	-11.2377
razzjonali	-11.2381
pprezza	-11.2383
zjali	-11.2384
▁ssostitwit	-11.2386
▁allura	-11.2391
artikolu	-11.2393
devjazzjoni	-11.2394
ilmentatur	-11.2394
▁ħakk	-11.2394
▁dehru	-11.2406
konjuġi	-11.241
gomma	-11.2423
kontinwità	-11.2426
għonq	-11.2433
qtates	-11.2436
▁jibagħtu	-11.2437
IX	-11.2437
▁ħareġ	-11.244
▁iwasslu	-11.2443
▁eżekuttiv	-11.245
satellita	-11.2454
Konfederazzjoni	-11.2457
matiku	-11.2461
▁Oħrajn	-11.2463
emoglobina	-11.2477
Detentur	-11.2477
▁1107/2009	-11.248
mycin	-11.248
▁tistipula	-11.2487
Taliban	-11.2487
Tibdil	-11.2489
▁[8]	-11.249
▁tiġbor	-11.2494
▁attraenti	-11.2497
▁Hekk	-11.2502
restawr	-11.2507
▁rapidu	-11.2507
POL	-11.2508
Fabbrika	-11.2511
▁mnejn	-11.2511
ritmu	-11.2513
▁sottomessi	-11.2517
▁tħeġġeġ	-11.2528
▁jtejjeb	-11.2528
▁viżibbli	-11.2531
dinamika	-11.2532
▁Kwadru	-11.2538
005	-11.2542
..............	-11.2543
▁jammontaw	-11.2543
proprjetajiet	-11.2545
▁infettati	-11.2545
▁leġiżlattiv	-11.2545
possibbiltajiet	-11.2548
ibbrejkjar	-11.2555
▁tiftaħ	-11.2555
▁jammonta	-11.2557
▁Diversi	-11.2558
▁esklussiv	-11.2563
cept	-11.2565
xhieda	-11.2568
farmakokinetiċi	-11.2572
▁Aqra	-11.2575
▁ġġib	-11.2579
Konklużjonijiet	-11.2582
▁Dinjija	-11.2582
▁Indirizz	-11.2585
IJIET	-11.2587
ħidmiet	-11.2589
PARTI	-11.2589
▁baġitarju	-11.2589
sħubijiet	-11.2595
trasformazzjoni	-11.2597
Iżvezja	-11.2599
▁MILL	-11.2599
Żejt	-11.26
▁għaddew	-11.2601
intestaturi	-11.2603
ibħra	-11.2609
▁1.6	-11.2612
ISPEĊIFIKAZZJONI	-11.2616
Ħamis	-11.2616
ringiela	-11.2623
▁naqset	-11.2623
osservatur	-11.2628
▁qosra	-11.263
cial	-11.2637
ġuriżdizzjoni	-11.2637
▁tawtorizza	-11.264
Pariġi	-11.2646
Serbja	-11.2651
▁raffinat	-11.2654
▁Prezz	-11.2657
▁Sostenibbli	-11.2661
friġġ	-11.2669
akkumulazzjoni	-11.2671
PIR	-11.2673
▁kondiviż	-11.2675
▁jiġbor	-11.2678
fatturat	-11.268
personal	-11.2683
▁preventiv	-11.2692
ohra	-11.2699
▁109	-11.27
▁fatali	-11.2702
Avviż	-11.2711
▁nnifisha	-11.2713
▁tikkonferma	-11.2714
azjenda	-11.2716
espansjoni	-11.2716
kapitolu	-11.272
▁tenfasizza	-11.273
▁irrakkomandat	-11.2735
▁jinħtieġ	-11.2737
▁tħaddem	-11.274
fosfat	-11.274
fehim	-11.2744
▁maniġerjali	-11.2744
▁msejħa	-11.2748
▁Ġabra	-11.2751
▁ħomor	-11.2754
tunnellati	-11.2761
▁dijarea	-11.2761
▁Riżultat	-11.2765
▁bħat	-11.2767
▁jinħarġu	-11.2772
ĦA	-11.2773
▁Franċiża	-11.2776
▁stadji	-11.2779
kejbil	-11.2782
AIFM	-11.2782
▁għaddejja	-11.2784
refuġjati	-11.2789
dgħajjef	-11.2792
Avukat	-11.2793
▁Magħquda	-11.2796
▁issodisfat	-11.2797
▁tariffarji	-11.2803
xejra	-11.2807
▁tikkorrispondi	-11.2817
▁sfida	-11.282
▁maħtur	-11.2823
artrite	-11.2827
ċessjoni	-11.2829
aċċellera	-11.2834
egżost	-11.2838
fertilità	-11.2838
▁Daqs	-11.2845
methyl	-11.2855
▁0,1	-11.2858
kalkoli	-11.2859
Assoċjazzjoni	-11.2868
oppożizzjoni	-11.2874
▁innovattiv	-11.2875
▁Central	-11.2877
annotazzjoni	-11.2877
reklutaġġ	-11.288
Approċċ	-11.2891
tħassir	-11.2891
▁tipprepara	-11.2901
▁ttrasferit	-11.2901
ktieb	-11.2902
▁0,5	-11.2903
Iżvizzera	-11.2905
disponi	-11.2913
Lulju	-11.2915
parteċipa	-11.2918
reċipjent	-11.2922
drapp	-11.293
▁speċifikazzjoni	-11.2932
▁pluriennali	-11.2933
▁sejrin	-11.2937
merkurju	-11.2947
▁jirrikjedi	-11.2947
▁Bħalissa	-11.2948
kotba	-11.2949
immaniġġar	-11.2951
passiġġier	-11.2954
▁imħallas	-11.2954
televiżjoni	-11.2958
Sentenza	-11.2958
▁Għad	-11.2962
▁mkejla	-11.2962
▁Novo	-11.2964
half	-11.2966
▁rikostitwit	-11.2968
▁jeżerċita	-11.297
abitat	-11.2978
flotta	-11.2981
suppożizzjoni	-11.2983
▁sħun	-11.299
TARGET	-11.2993
▁timponi	-11.2998
nsibilizzazzjoni	-11.3004
▁tond	-11.3009
▁rriżulta	-11.3011
▁murija	-11.3015
media	-11.3016
▁Stabbiltà	-11.3018
▁perikoluż	-11.3019
▁kumulattiv	-11.3022
.4.1	-11.3026
unjoni	-11.3026
univers	-11.3028
vilupp	-11.3035
▁tivverifika	-11.304
ografiċi	-11.3053
▁Brussel	-11.3053
▁Għid	-11.3058
semen	-11.3064
Riżorsi	-11.3065
▁jbatu	-11.3065
Laqgħa	-11.3073
approssimazzjoni	-11.3073
▁tfassal	-11.3075
trejler	-11.3075
▁Char	-11.3083
▁attribwit	-11.309
▁sussidjarja	-11.3101
Kundizzjonijiet	-11.3101
▁jinġabru	-11.3104
Istituzzjoni	-11.3107
▁mgħaġġla	-11.3108
▁inkompatibbli	-11.3111
Università	-11.3113
▁iżżomm	-11.3115
prijorit	-11.3122
▁nitr	-11.3127
▁Maltin	-11.3128
telefown	-11.3129
mide	-11.3133
▁sodisfatt	-11.3137
Ġdid	-11.3147
▁organika	-11.3151
▁jispiċċa	-11.3155
▁provviżorja	-11.3158
AIF	-11.3159
▁magħqud	-11.3169
distrett	-11.3176
brejkijiet	-11.3177
rikostituzzjoni	-11.318
immaġni	-11.3185
▁agrikolu	-11.3187
konsulta	-11.3205
▁qablu	-11.3206
▁riferiment	-11.3209
PGD	-11.3209
▁iddeterminat	-11.3221
defin	-11.3225
▁mibnija	-11.3227
▁rrappurtat	-11.323
▁sostanzjalment	-11.3231
qlib	-11.3233
kalendarju	-11.3234
▁tiddefinixxi	-11.3234
Settembru	-11.3245
universitajiet	-11.3246
▁tħejji	-11.3247
▁tinġabar	-11.3249
▁Liema	-11.3251
ispettru	-11.3253
tfixkil	-11.3253
▁jfittxu	-11.3256
▁jiffissa	-11.3267
▁Group	-11.3267
nutrizzjoni	-11.3267
1991	-11.3271
monitor	-11.3273
AZZJONIJIET	-11.3273
NGOs	-11.328
kwanti	-11.3281
▁soda	-11.3284
▁riproduttiv	-11.3286
▁verament	-11.3286
▁rapida	-11.3289
▁gastro	-11.3292
▁kontro	-11.3295
▁Globali	-11.3301
▁żdiedet	-11.3302
▁nagħmlu	-11.3308
▁interessata	-11.3308
▁struzzjonijiet	-11.3308
Ċertifikat	-11.3311
esklużi	-11.3315
▁fiżiku	-11.3317
▁jiggarantixxu	-11.3319
modifiki	-11.3322
żwiemel	-11.3326
Tlieta	-11.3327
▁imħallsa	-11.333
parlament	-11.3334
output	-11.3341
taħlit	-11.3343
▁wasal	-11.3351
▁sapport	-11.3352
medjazzjoni	-11.3356
International	-11.3359
2/2008	-11.336
▁Għaliex	-11.336
▁iġġustifikat	-11.3363
▁ppreparat	-11.3363
aċċerta	-11.3368
oloġika	-11.3375
▁uħud	-11.3376
▁immuno	-11.338
▁jissottomettu	-11.3381
Alternattiva	-11.3381
tiġieġ	-11.3385
▁anċillari	-11.3385
ħruq	-11.3386
▁innotifikat	-11.3389
▁tirrispetta	-11.3389
▁inġust	-11.34
▁sistematiku	-11.3401
▁waslet	-11.3403
▁konkret	-11.3406
▁jikbru	-11.3407
inadempjenza	-11.3407
▁Parlamentari	-11.3407
rebbieħ	-11.3415
▁nnifsu	-11.3415
artisti	-11.3416
nkoraġġ	-11.342
database	-11.3422
ġebel	-11.3424
ICES	-11.3429
kompromess	-11.3437
qatgħa	-11.3438
▁psiko	-11.3443
▁persistenti	-11.3444
kumplessità	-11.3445
▁akkumulat	-11.3449
Produzzjoni	-11.3463
work	-11.3469
▁ċellulari	-11.3471
▁jħallsu	-11.3482
Industrija	-11.3485
▁jiskadi	-11.3493
▁essenzjalment	-11.3496
▁jgawdu	-11.3497
figura	-11.3501
▁Soluzzjoni	-11.3501
responsab	-11.3501
▁emerġenti	-11.3508
▁popolari	-11.3508
Kosovo	-11.3511
▁intensiv	-11.3515
▁ġab	-11.3518
▁żero	-11.3519
▁deher	-11.352
ferenzja	-11.352
Seba	-11.3528
potassju	-11.353
▁Indjan	-11.3531
(11)	-11.3535
tiftix	-11.3535
▁standardizzat	-11.3536
kostitwent	-11.3538
ekosistemi	-11.3538
kondizzjona	-11.354
5/2008	-11.3541
istorbju	-11.3541
▁vijabbli	-11.3541
▁ordnat	-11.3542
▁espliċitu	-11.3545
laboratorji	-11.3546
▁English	-11.3549
▁kkontestat	-11.3553
Uffiċjal	-11.3556
kamera	-11.3563
▁Uġigħ	-11.3568
▁spiża	-11.3577
gliptin	-11.3579
valv	-11.358
▁ġġustifikat	-11.3583
arrest	-11.3588
treddigħ	-11.3594
▁trażmess	-11.3598
domiċilju	-11.3609
Jannar	-11.3613
tradizzjoni	-11.3614
Bidla	-11.3617
▁tinnotifika	-11.3618
iskrin	-11.3621
azjendi	-11.3624
▁kumplessa	-11.3625
▁kreattiv	-11.3625
leave	-11.3635
▁avvers	-11.3645
▁kkoordinat	-11.3647
MET	-11.3649
tività	-11.3652
perikli	-11.3655
biljett	-11.3656
akkreditazzjoni	-11.3659
▁jimmonitorja	-11.3666
INTER	-11.367
▁jinnotifika	-11.3673
▁50%	-11.3675
Approvazzjoni	-11.3678
eskl	-11.3691
opatija	-11.3691
arbitraġġ	-11.3693
batteriji	-11.3693
▁tinħoloq	-11.3694
titjir	-11.37
▁BARRA	-11.3701
▁alternattiv	-11.3701
għandha	-11.3701
AWTORIZZAZZJONI	-11.3704
▁tirrikonoxxi	-11.3704
htm	-11.3707
gue	-11.3711
istabbili	-11.3711
▁protett	-11.3719
▁nadif	-11.3721
▁hoc	-11.3723
Portugiż	-11.3723
arloġġ	-11.3723
▁jipprevedu	-11.3731
▁umanitarja	-11.3731
▁titneħħa	-11.3735
▁sterili	-11.3737
▁kkomunikat	-11.3743
ffoka	-11.3746
▁Suġġett	-11.375
▁waslu	-11.3754
Kompetizzjoni	-11.3758
rbi	-11.3766
Ordni	-11.3766
▁tibni	-11.3775
▁tirrikjedi	-11.3781
▁titt	-11.3782
Univers	-11.3784
superviżur	-11.3789
▁jħallu	-11.3797
rga	-11.38
▁2017/1	-11.3803
▁miftiehem	-11.3808
▁jitħassar	-11.3808
użat	-11.3808
kundanna	-11.3808
▁mentali	-11.3812
▁immuni	-11.3812
kler	-11.3813
sodisfa	-11.3816
▁Popolari	-11.382
▁jaraw	-11.3822
modulu	-11.3822
Pakistan	-11.3827
€	-11.3832
sajf	-11.3835
▁taħseb	-11.3835
6/2008	-11.3836
▁każwali	-11.3837
infetta	-11.3844
▁mmarkat	-11.3853
6/2013	-11.3854
▁tqiegħed	-11.3866
▁EWROPEW	-11.3878
▁validu	-11.3878
▁jirrapporta	-11.3878
tikketti	-11.3882
▁jappella	-11.3884
▁konsekuttiv	-11.3885
mekkani	-11.3889
Manifattur	-11.3904
hawn	-11.3906
▁Maltija	-11.3914
għandhom	-11.3916
oster	-11.392
Proċeduri	-11.3921
parametru	-11.3926
0,0	-11.3928
/13/	-11.3931
▁100%	-11.3931
▁Winthrop	-11.3932
idrossi	-11.3933
▁extra	-11.3937
inġinerija	-11.394
▁radjuattiv	-11.3942
voluntier	-11.3948
▁delegat	-11.3949
Olandiż	-11.3952
▁elett	-11.3963
Ktieb	-11.3968
mejda	-11.3969
▁Neħħi	-11.3979
▁tintroduċi	-11.3979
▁mif	-11.3979
▁żbilanċ	-11.3982
oqfsa	-11.3987
▁awtentiċi	-11.3988
▁iħallas	-11.3991
prekawzjonijiet	-11.3994
mobilizzazzjoni	-11.3999
▁vitali	-11.4
▁mixtieq	-11.4003
▁ħarġet	-11.4011
MED	-11.4012
agi	-11.4013
blind	-11.4015
pillola	-11.4015
▁kostali	-11.4016
▁żbalji	-11.4019
legalità	-11.402
▁Mediċinali	-11.4023
▁jaqdu	-11.4023
imsemmija	-11.4025
▁periferali	-11.403
Unità	-11.4033
FFC	-11.4033
ilbies	-11.4034
zwiemel	-11.4034
▁Aġġustament	-11.4034
ċittadin	-11.4037
▁Andr	-11.4038
ehm	-11.4039
Vetturi	-11.4043
▁jiddefinixxu	-11.4046
Maniġer	-11.4054
ipogliċemija	-11.4058
vijabbiltà	-11.4062
▁komparattiv	-11.4062
EURES	-11.4068
sorvelja	-11.4077
Elettro	-11.4088
▁jiżnu	-11.409
ċellula	-11.409
ċifra	-11.4098
▁Multi	-11.4098
esporta	-11.4105
▁jsibu	-11.4106
▁sproporzjonat	-11.4107
redditu	-11.411
▁volontarju	-11.411
emboli	-11.4114
forum	-11.4114
gwerra	-11.4122
superfiċje	-11.4126
ċinturin	-11.4126
▁tipproteġi	-11.4134
▁spazjali	-11.4134
▁dgħajfa	-11.4138
▁awtorizza	-11.4141
4/2009	-11.4141
The	-11.4147
Klima	-11.4148
▁injettat	-11.4157
nofsinhar	-11.4157
▁teknoloġika	-11.4161
konfigurazzjoni	-11.4166
ċelebra	-11.4173
▁Kuntatt	-11.4178
glukożju	-11.4181
disponibilità	-11.4186
▁uffiċjalment	-11.4194
chlorothiazide	-11.4202
fakultattiv	-11.4202
▁Path	-11.4204
▁KUMM	-11.4206
life	-11.4207
▁nbid	-11.421
ikklerjar	-11.4218
▁inklużiv	-11.422
benesseri	-11.4222
▁Strasburgu	-11.4222
▁josserva	-11.4222
metodoloġiji	-11.423
.2015,	-11.4233
swaba	-11.4238
irregolaritajiet	-11.4238
▁Navigation	-11.4242
bibien	-11.4251
tenzjoni	-11.4251
▁offrut	-11.4259
għajxien	-11.427
•	-11.4273
▁jħallas	-11.4274
▁bankarja	-11.4274
Dritt	-11.428
MRLs	-11.4287
Notifika	-11.4292
izzju	-11.4295
Aħjar	-11.4295
konferenzi	-11.4298
flett	-11.43
konflitt	-11.4302
▁ggarantit	-11.4302
detenzjoni	-11.4304
imħabba	-11.4306
trobbija	-11.4306
▁miegħek	-11.4311
Soċjetà	-11.4323
▁jiddefinixxi	-11.4323
▁tvarja	-11.4323
▁newtrali	-11.4325
▁tmexxi	-11.433
▁jintwera	-11.4331
ranġa	-11.4332
pront	-11.4333
▁tittratta	-11.4335
▁Manifatturi	-11.4335
Proċess	-11.434
sottomett	-11.4345
▁orjentat	-11.4355
kontaminazzjoni	-11.4359
▁sejjer	-11.4359
▁nieqsa	-11.4367
tank	-11.4368
▁jirrikonoxxi	-11.4372
diskrezzjoni	-11.4376
▁1.8	-11.439
▁seħħet	-11.4393
Federazzjoni	-11.44
buttuna	-11.44
▁lineari	-11.4403
▁superjuri	-11.4404
▁milquta	-11.4404
▁emittenti	-11.4412
▁Lokali	-11.4416
gżejjer	-11.4421
▁Pawl	-11.4422
▁Madwar	-11.4429
diploma	-11.443
▁irregolat	-11.4432
▁[9]	-11.4433
▁daħlu	-11.4437
▁Bio	-11.4445
▁3.6	-11.4446
▁jissaħħaħ	-11.4449
▁ġimagħtejn	-11.4454
ġogi	-11.4457
bijomassa	-11.4458
kisbiet	-11.4463
(2007)	-11.4468
Nisa	-11.4472
▁jistenna	-11.4478
daqsijiet	-11.4479
Pubblikazzjoni	-11.448
sodda	-11.4483
0.1	-11.4484
ssen	-11.4487
▁Awto	-11.4489
▁isibu	-11.4491
▁kkombinat	-11.4491
klorur	-11.4496
▁tillimita	-11.4499
▁sovran	-11.4501
kwarz	-11.4503
▁ekoloġiċi	-11.4507
▁individwalment	-11.4511
Iżrael	-11.4512
seminar	-11.4516
7.5	-11.4523
▁kumplessiv	-11.4524
igh	-11.4525
lift	-11.4527
Digriet	-11.4528
▁korrettivi	-11.4538
▁double	-11.454
erman	-11.4546
▁Limited	-11.4553
▁tirrevedi	-11.4553
▁wettqet	-11.4553
ġranet	-11.4557
ppreserva	-11.4558
▁jagħmilha	-11.4561
pretensjoni	-11.4565
riflessjoni	-11.4566
▁XVI	-11.4572
kuntrast	-11.4574
▁ħelu	-11.4574
▁kwadru	-11.4578
Tnejn	-11.4578
kaxxi	-11.4584
▁oriġina	-11.459
▁2008/1	-11.4593
istaff	-11.4595
▁pproponiet	-11.4599
ESMA	-11.4599
Għawdex	-11.4603
tabelli	-11.4607
intensifika	-11.4608
ASSI	-11.461
biedja	-11.4612
Provinċja	-11.462
▁enormi	-11.4624
▁leġittimi	-11.4627
Delegazzjoni	-11.4628
▁jappartjenu	-11.4636
▁magħna	-11.4637
soġġorn	-11.464
▁Qari	-11.4642
klawżola	-11.4645
kubrit	-11.4645
rappreżentattivi	-11.4645
▁espliċita	-11.4649
▁kellem	-11.4649
kummerċjant	-11.4654
▁mħallta	-11.4657
▁totalment	-11.4659
kunfidenza	-11.4666
żebgħa	-11.4666
Kapital	-11.4668
Infrastruttura	-11.467
▁timmira	-11.4675
▁Ferr	-11.468
▁perfett	-11.468
ipprovdi	-11.4682
Leader	-11.4683
▁dilwit	-11.4683
Indoneżja	-11.4691
▁Nefqa	-11.4691
▁95/46/	-11.4699
▁statistiċi	-11.4704
▁Atomika	-11.4708
▁jinbeda	-11.4708
▁demokratika	-11.4712
▁rtirat	-11.4713
assorb	-11.4721
▁provviżorji	-11.4725
fluwidu	-11.4729
kombina	-11.4731
ekwivalenza	-11.4742
klabb	-11.4749
pestiċidi	-11.4754
▁France	-11.4757
▁pproċessar	-11.4759
▁Marittima	-11.4767
3,5	-11.4771
alternattiva	-11.4771
▁1999/468/	-11.4771
▁anemija	-11.4772
ICAO	-11.4784
▁jiltaqgħu	-11.4788
▁msejsa	-11.4788
ċaħda	-11.4793
▁jfasslu	-11.4797
▁jingħaqdu	-11.4797
▁antiretrovirali	-11.4805
▁issaħħaħ	-11.4806
Ukrajna	-11.481
twaħħil	-11.4827
▁jsaħħaħ	-11.4835
alloka	-11.4843
tobba	-11.4843
▁tossiku	-11.4844
▁mħassra	-11.4848
Ħerzegovina	-11.4852
▁bajda	-11.4859
▁rappreżentat	-11.4866
Eurojust	-11.4874
▁eċċellenti	-11.4878
▁insuffiċjenti	-11.4882
maniġment	-11.4882
▁jservu	-11.4882
tkomplija	-11.4884
▁ferrovjarju	-11.4887
▁pedjatriċi	-11.4887
għaxar	-11.4891
▁evidenti	-11.4895
Poplu	-11.4895
organiżmu	-11.4901
▁tintalab	-11.4908
Kamra	-11.491
jistgħu	-11.4922
▁sempliċement	-11.4925
▁jinvestu	-11.4926
▁mħeġġa	-11.4926
▁jikkoordina	-11.4934
Iswed	-11.4938
▁kisbu	-11.4943
▁sfruttat	-11.4943
▁tiggarantixxi	-11.496
globalizzazzjoni	-11.4961
▁tassigura	-11.4964
▁ddedikat	-11.4964
kimika	-11.4973
▁mikrogrammi	-11.4973
taqsimiet	-11.4974
Global	-11.4976
.2.3	-11.4985
▁marġinali	-11.4986
etanol	-11.4989
ndustri	-11.499
White	-11.4995
sulph	-11.4996
onic	-11.4996
▁iġib	-11.5004
ralment	-11.5005
pajji	-11.5007
izzanti	-11.5007
▁mmexxija	-11.5008
tifqigħ	-11.5008
▁1308/2013	-11.5012
Viċinat	-11.5012
(2010)	-11.5014
pjanċa	-11.5014
▁żbaljat	-11.5017
ekonomiċi	-11.5017
▁apparti	-11.5018
▁jaħtar	-11.5019
Ungeriż	-11.5021
▁qieset	-11.5022
Armi	-11.5024
▁ssimplifikat	-11.503
plejtlits	-11.5034
qamħirrum	-11.5034
▁solidi	-11.504
karatteristika	-11.5043
ċeramika	-11.5043
tfittxija	-11.5047
▁referenzjarju	-11.5069
▁Għolja	-11.5069
▁stokkijiet	-11.5069
▁stazzjon	-11.5072
Montenegro	-11.5073
dividend	-11.5082
idae	-11.5082
▁jitħassru	-11.5086
▁iffriżat	-11.5086
▁Jean	-11.5088
▁assorbit	-11.5089
rill	-11.5107
▁ssostni	-11.5113
Balkani	-11.5117
vaskulari	-11.5122
biddlu	-11.5126
prosekuzzjoni	-11.5135
▁wżat	-11.5137
▁organiku	-11.5144
▁jħalli	-11.5146
dimostrazzjoni	-11.5148
▁jittejbu	-11.515
bozza	-11.5155
immunità	-11.5156
simbolu	-11.5157
KUNSILL	-11.5166
IKU	-11.517
xenarji	-11.517
Assistenza	-11.5192
karriera	-11.5192
twissijiet	-11.5192
Iskema	-11.5197
▁rilaxxat	-11.52
festa	-11.5201
▁laħqu	-11.5202
▁analogu	-11.5206
emerġenza	-11.521
1.12	-11.5212
▁jtajru	-11.5219
kkunsidra	-11.522
▁jilagħbu	-11.5223
▁isaħħu	-11.5224
kontinent	-11.5226
▁taħżen	-11.5228
▁stabbiltà	-11.5229
Kumpanija	-11.5232
▁jinkoraġġixxu	-11.5232
▁jivvjaġġaw	-11.5232
▁Self	-11.5238
5/2009	-11.5242
▁għeja	-11.5246
istandardizz	-11.5249
▁gradwalment	-11.5256
0.3	-11.5256
ffinalizza	-11.5266
▁jipparteċipa	-11.5272
Difiża	-11.5277
▁motivata	-11.5281
ħsad	-11.5289
minorenni	-11.529
▁jikkompetu	-11.529
▁prudenzjali	-11.529
▁jirrappurtaw	-11.5299
▁jsegwu	-11.5299
Marokk	-11.5311
▁dettaljat	-11.5315
fertilizzant	-11.5317
▁tapprova	-11.5317
Operat	-11.5319
▁Personali	-11.5322
allinjament	-11.5322
trademark	-11.5322
rebħ	-11.5322
Settur	-11.5328
(2009)	-11.5329
▁Pubblika	-11.5333
▁tnax	-11.5339
nieqes	-11.534
▁Insulin	-11.534
▁jimmiraw	-11.5344
fosfo	-11.5349
▁jissuġġerixxi	-11.5358
assaġġ	-11.5358
▁allerġika	-11.5367
dossier	-11.537
temperaturi	-11.5376
vjola	-11.5376
▁jittratta	-11.539
irritorna	-11.5395
▁jissupplimenta	-11.5397
kunjom	-11.5399
Awla	-11.5399
nukle	-11.54
▁tig	-11.5405
▁tieghu	-11.5412
kċina	-11.5417
konċiljazzjoni	-11.5419
▁stabbilixxa	-11.5421
▁tipprova	-11.5421
intermedjarju	-11.5425
▁jintroduċu	-11.5425
▁inkunu	-11.5426
assemblaġġ	-11.543
▁jipprevjeni	-11.543
rimedji	-11.543
Pressjoni	-11.543
twassil	-11.5439
▁Kunjett	-11.5439
persentaġġ	-11.5448
artikoli	-11.5458
▁toqgħod	-11.5462
▁virali	-11.5468
fabbrikant	-11.547
ingranaġġ	-11.5471
Rekwiżit	-11.5471
▁ċito	-11.5472
▁ressqet	-11.548
▁Nuqqas	-11.5489
▁sintetiċi	-11.5498
sigriet	-11.5498
▁monetarju	-11.5503
▁jifdal	-11.5504
▁indispensabbli	-11.5507
▁imiss	-11.5514
rikapitalizz	-11.5515
kontinwazzjoni	-11.552
mewġ	-11.552
▁Preparazzjoni	-11.5526
kumpless	-11.5533
▁jistimula	-11.5535
0/2009	-11.5537
▁Kapitali	-11.5538
BBLI	-11.5538
▁ordinarja	-11.554
▁tpoġġi	-11.554
▁jimxu	-11.554
▁siringi	-11.5544
għaqda	-11.5549
▁cock	-11.5553
terapewtika	-11.5553
▁prattiku	-11.5553
GTĊ	-11.5562
▁prezzjuż	-11.5568
7/2009	-11.557
Slovakk	-11.5579
iqsar	-11.558
Titjib	-11.5585
▁tranżizzjonali	-11.559
rappreżentanza	-11.5595
▁notevolment	-11.5595
▁Applika	-11.5595
tipjip	-11.5599
▁ħadt	-11.5607
kolesterol	-11.5613
▁impossibbli	-11.5613
▁Infezzjoni	-11.5613
▁pprovdiet	-11.5622
kortikosterojd	-11.5627
oxetine	-11.5632
qabad	-11.5634
kilometru	-11.5636
▁imfassla	-11.5636
Festival	-11.5636
kummissjoni	-11.5637
Dinja	-11.564
▁ħżiena	-11.5655
▁veġetali	-11.5659
Irlandiż	-11.566
rendikont	-11.5661
kaptan	-11.5662
Premju	-11.5665
▁jassumi	-11.5669
futbol	-11.5669
interruzzjoni	-11.5673
Ekonomija	-11.5683
▁jibnu	-11.5683
▁kritiċi	-11.5688
▁allinjat	-11.5688
forestrija	-11.5692
Sibt	-11.5697
▁nnutat	-11.5701
valida	-11.5706
▁Ġodda	-11.5711
nagħaġ	-11.5715
pompi	-11.572
FAEŻR	-11.5725
ħabs	-11.5727
alternattivi	-11.5738
▁ġuridiku	-11.5743
▁differenzjat	-11.5753
▁stabbiliet	-11.5753
foresta	-11.5756
intestinali	-11.5756
xandar	-11.5757
ħoloq	-11.576
▁tinsa	-11.5764
kontribwent	-11.5767
Ħajja	-11.5767
awdjo	-11.5777
▁alimentari	-11.579
Mulej	-11.5791
Koordinazzjoni	-11.58
kompatibilità	-11.58
gravità	-11.5807
aggregazzjoni	-11.5809
mortalità	-11.5828
allarm	-11.583
▁statistiku	-11.5833
▁Ambjentali	-11.5833
Arranġament	-11.5838
proċediment	-11.584
▁addominali	-11.5842
▁Kristu	-11.5842
▁jevita	-11.5852
isfel	-11.5856
Migrazzjoni	-11.5856
▁MHz	-11.5856
▁396/2005	-11.5866
▁jaċċettaw	-11.5866
timijiet	-11.587
▁jassigura	-11.587
▁tissottometti	-11.5871
▁taqbiżx	-11.588
▁jiddeskrivi	-11.588
▁tredda	-11.5885
▁Russa	-11.5886
▁tipparteċipa	-11.5887
3/2008	-11.5889
▁Kummenti	-11.5894
immodernizza	-11.5897
▁jirkupra	-11.5899
reliġjuż	-11.5904
▁volontarji	-11.5904
▁epatiku	-11.5909
▁jintalab	-11.5918
Invest	-11.5921
Off	-11.5929
▁2003/87/	-11.5932
ethylene	-11.5934
.2016,	-11.5939
iberalizzazzjoni	-11.594
reputazzjoni	-11.5942
aspettattivi	-11.5948
frammentazzjoni	-11.5952
ċaqlaq	-11.5952
▁ddelegati	-11.5952
konvenut	-11.5957
titanju	-11.5961
manifest	-11.5965
għeruq	-11.5966
▁Integrat	-11.5966
▁joqogħdu	-11.5966
boroż	-11.5966
▁tiskadi	-11.5971
▁laħaq	-11.5972
phosphate	-11.5976
▁suxxettibbli	-11.5976
kunsinni	-11.5985
▁jadattaw	-11.5985
▁jasal	-11.5988
ajrudrom	-11.6004
nirien	-11.6005
plimenta	-11.6008
iversifikazzjoni	-11.6017
▁jorbot	-11.6019
▁2006/1	-11.6023
kirurġija	-11.6024
tankijiet	-11.6032
glucose	-11.6033
▁Merħba	-11.6033
ġrieden	-11.6038
squo	-11.6039
▁monetarji	-11.6048
battal	-11.6052
preskrizzjoni	-11.6057
▁debitament	-11.6057
immarkar	-11.6058
ekonomika	-11.6079
ħiter	-11.608
kustodja	-11.6081
▁jestendi	-11.6082
likwidazzjoni	-11.6086
duct	-11.6091
▁awtomatizzat	-11.6096
naqqsu	-11.6099
deċentralizz	-11.61
▁proviżorja	-11.6101
tajba	-11.6106
▁permissibbli	-11.6106
▁kompliet	-11.6107
▁Spejjeż	-11.6115
▁skambji	-11.6115
▁pproċessata	-11.6116
sosteni	-11.6119
drogi	-11.6123
▁aqra	-11.6136
responsabilità	-11.6145
▁1605/2002	-11.6145
dilwizzjoni	-11.615
▁daħlet	-11.615
silikon	-11.6154
▁Abd	-11.6155
hydroxy	-11.6164
allowance	-11.6169
▁jissottometti	-11.6169
▁Che	-11.6172
...........	-11.6173
▁Dejjem	-11.6174
minimizza	-11.6175
residenti	-11.618
▁Ekonomiċi	-11.6184
▁0,2	-11.6191
kaċċa	-11.6205
▁baqgħet	-11.6208
proliferazzjoni	-11.6213
tfaddil	-11.6213
▁espost	-11.6214
naviga	-11.6218
esperiment	-11.6218
Rab	-11.6222
Fruntieri	-11.6223
bozoz	-11.6228
▁tinkoraġġixxi	-11.6228
▁jħeġġeġ	-11.6228
fliexken	-11.6228
▁jillimita	-11.6228
▁possibbilment	-11.6233
▁jibdlu	-11.6233
Komunita	-11.6237
eċċellenza	-11.6238
għalliem	-11.6246
▁maltadiocese	-11.6248
▁rnexxi	-11.6252
▁nominat	-11.626
kkonklud	-11.6265
Pjattaforma	-11.6272
▁jiftaħ	-11.6272
▁imressqa	-11.6277
tħaffir	-11.6282
Impjieg	-11.6285
▁bonus	-11.6287
limitat	-11.6291
▁2008/9	-11.6292
▁jiffunzjona	-11.6292
regolarità	-11.6294
▁termali	-11.6297
ENZA	-11.6298
kalkola	-11.63
sedil	-11.6302
▁nnegozjat	-11.6307
Prevenzjoni	-11.6312
għawm	-11.6314
proprjetarju	-11.6322
żminijiet	-11.6322
eżaminazzjoni	-11.6333
▁tanġibbli	-11.6337
vastatin	-11.6347
▁Kompetenti	-11.6352
inventarju	-11.6352
memorja	-11.6352
▁foloz	-11.6357
Albanija	-11.6361
▁jirrikonoxxu	-11.6361
Kontijiet	-11.6364
▁janalizza	-11.6367
ċanga	-11.6368
patoġeni	-11.6372
▁Ċerti	-11.6379
▁filgħodu	-11.6387
Sudan	-11.6387
▁konsegwentement	-11.6391
tendenzi	-11.6391
▁Ebda	-11.6392
▁jikkwalifikaw	-11.6396
modernizzazzjoni	-11.6402
Netherlands	-11.6406
vajrus	-11.6411
8/2008	-11.6419
front	-11.6419
Tqegħid	-11.6426
isfruttament	-11.6426
▁Demokratika	-11.6426
▁kellek	-11.6427
▁(*)	-11.6429
kunsill	-11.6437
Ewropew	-11.644
▁kostituzzjonali	-11.6447
inibizzjoni	-11.6452
respon	-11.6454
▁mitluf	-11.6462
▁jippruvaw	-11.6467
▁assistit	-11.6468
▁moderni	-11.6469
pajp	-11.6476
▁iġġenerat	-11.6477
▁tenofovir	-11.6482
epoetin	-11.6487
▁identiċi	-11.6493
Pulizija	-11.6497
▁kkwalifikat	-11.6498
bdot	-11.651
Finanzjament	-11.6512
Prinċipji	-11.6512
Solidarjetà	-11.6512
PKS	-11.6518
intervista	-11.6535
▁sagħtejn	-11.6537
imnieħer	-11.6542
▁dominanti	-11.6558
▁radjo	-11.6561
▁Waħda	-11.6563
(2011)	-11.6571
▁ikkombinat	-11.6578
żrieragħ	-11.6598
▁allerġiku	-11.6598
▁prevedibbli	-11.6598
▁tikkontrolla	-11.6609
benefi	-11.6609
Kompetittività	-11.6614
▁bagħtet	-11.6614
▁4.8).	-11.6614
Ġeorġja	-11.6619
▁Pillola	-11.6624
▁stabbilixxiet	-11.6624
▁Emendi	-11.6629
OLAF	-11.6639
▁Clopidogrel	-11.6644
▁ekoloġika	-11.665
▁taqbel	-11.665
irqad	-11.6654
leġiżlatur	-11.6655
prijorità	-11.6658
ożju	-11.6659
riġlejn	-11.6665
▁Tekniku	-11.6665
▁sikwit	-11.6665
skelet	-11.6667
▁immarkat	-11.6668
▁bijoloġiċi	-11.6671
ikkontrib	-11.6673
5/2013	-11.6674
apprendist	-11.668
▁awtomatiċi	-11.668
▁sottoskritt	-11.6685
▁imkejla	-11.6686
▁jitkejlu	-11.6696
stituzzjoni	-11.6702
▁proprju	-11.6706
distillazzjoni	-11.6711
grazzja	-11.6714
▁jservi	-11.6722
▁jinfetaħ	-11.6727
▁teskludi	-11.6732
▁tissuġġerixxi	-11.6732
Kwistjonijiet	-11.6742
ahhar	-11.6742
tigrijiet	-11.6743
bijodiżil	-11.6747
▁[10]	-11.6747
Identifikazzjoni	-11.6753
▁tissorvelja	-11.6753
reliġjon	-11.6758
▁ssodisfat	-11.6765
▁titqiegħed	-11.6768
▁jirrispetta	-11.677
▁jvarja	-11.677
▁selvaġġi	-11.6773
▁jmexxu	-11.6779
▁Accord	-11.6784
▁ġudizzjarju	-11.6784
▁pproċessati	-11.6789
digriet	-11.6794
preservazzjoni	-11.68
Imħallef	-11.681
▁nervuża	-11.681
▁medicine	-11.6815
▁mġarrba	-11.6815
siġar	-11.6817
innova	-11.6818
Diviżjoni	-11.6825
posizzjoni	-11.6829
▁jintroduċi	-11.6831
▁parlamentari	-11.6831
▁pulmonari	-11.6836
interferenza	-11.6836
▁tematiċi	-11.6836
divorzju	-11.6841
għelejjel	-11.6841
Tielet	-11.6841
▁Xjentifiku	-11.6851
Tajwan	-11.6857
▁pprovdew	-11.6862
▁trasversali	-11.6862
▁irriżulta	-11.6864
defiċjenza	-11.6867
▁ħarġu	-11.6868
distakk	-11.6868
kontabil	-11.687
Nomenklatura	-11.6872
sindromu	-11.6872
Taħlita	-11.6878
dmir	-11.6883
FEŻR	-11.6883
ispirtu	-11.6883
/11/	-11.6884
▁John	-11.6888
xbieki	-11.6893
▁maqbud	-11.6893
Verifika	-11.6896
video	-11.6898
▁isegwu	-11.6899
▁efavirenz	-11.6904
»	-11.6906
figuri	-11.691
Relazzjonijiet	-11.691
kmamar	-11.6921
Rebbiegħa	-11.6941
transizzjoni	-11.6944
implementazzjoni	-11.6951
Azzar	-11.6959
istqarrija	-11.6962
▁direzzjonali	-11.6962
▁jiġbed	-11.6962
▁tariffarja	-11.6962
▁966/2012	-11.6973
sigurta	-11.6985
farmakoviġilanza	-11.6988
▁jdum	-11.6992
iskambji	-11.6994
▁metabolizzat	-11.6994
fniek	-11.6996
inkjesta	-11.6999
0.6	-11.7005
Indiċi	-11.7012
Parteċipazzjoni	-11.7015
kultivazzjoni	-11.7015
Ċittadini	-11.7015
▁mdaħħla	-11.7015
ghad	-11.7025
▁jitfasslu	-11.7031
pjaċir	-11.7031
ġarrbu	-11.7031
Ċirk	-11.7035
rinviju	-11.7036
▁Bonus	-11.7036
sejba	-11.7037
▁simultanja	-11.7047
▁Insuman	-11.7052
▁jintalbu	-11.7052
▁spiċċa	-11.7056
Kmandant	-11.7058
Ħarsien	-11.7058
ħarreġ	-11.7058
involv	-11.7061
▁vivo	-11.7064
▁residenzjali	-11.7068
▁jinvesti	-11.7072
ġbid	-11.7075
tikkettjar	-11.7079
▁storika	-11.7079
arterji	-11.7085
▁kardjovaskulari	-11.7095
antibijotiċi	-11.7106
▁1907/2006	-11.7106
▁jattendu	-11.7106
▁Comments	-11.7106
▁Industrijali	-11.7106
▁gastrointestina	-11.7107
krejatinina	-11.7111
ximab	-11.7111
▁komplementari	-11.7111
0.0	-11.7111
▁adult	-11.7114
▁antiċipat	-11.7114
varjetajiet	-11.7117
Taxxa	-11.712
▁tippjana	-11.7122
ICCAT	-11.7127
▁jifhmu	-11.7127
rapporteur	-11.7128
▁innifsek	-11.7143
▁tissospendi	-11.7149
▁jirnexxi	-11.7149
▁pagabbli	-11.7154
▁miġbur	-11.7156
▁Agrikolu	-11.7165
▁sostantiv	-11.717
▁Organi	-11.7179
▁jintbagħat	-11.7181
huwa	-11.7182
3/2006	-11.7187
Reġistrazzjoni	-11.7187
tbaħħir	-11.7187
▁2006/112/	-11.7187
▁lactose	-11.7187
Summit	-11.7192
ilqugħ	-11.7208
vitamina	-11.7208
▁Aħżen	-11.7219
Ġeneral	-11.7235
benessri	-11.7252
rebbiegħa	-11.7257
▁Suprem	-11.7257
Progress	-11.7257
planġer	-11.7268
▁imnaqqsa	-11.7274
ċinga	-11.7279
impliment	-11.7283
2/2009	-11.7289
▁Griegi	-11.729
▁tniedi	-11.729
▁prijoritarji	-11.7295
▁jipprojbixxu	-11.7301
▁ikkonkluda	-11.7301
baqar	-11.7302
ogh	-11.7309
▁fossili	-11.7318
▁nfiq	-11.7323
sostanzja	-11.7328
▁tranżitorji	-11.7328
▁mitħun	-11.7329
.5.1	-11.7333
severità	-11.7338
iPhone	-11.7339
▁denominati	-11.7339
snien	-11.7345
sanzjon	-11.7348
▁jitressqu	-11.7356
▁ikklassifikat	-11.7356
▁Monetarja	-11.7361
ipprezzar	-11.7361
mowbajl	-11.7378
▁konxji	-11.7378
Fuljett	-11.7389
interoperabilità	-11.7389
▁Makkinarju	-11.7394
(2006)	-11.7399
▁hydrochloride	-11.74
teknika	-11.7401
petizzjoni	-11.7412
ministri	-11.7419
dijalisi	-11.7422
▁sinifikattiv	-11.7428
▁tgħaqqad	-11.7428
—	-11.743
▁oxide	-11.7433
▁tintwera	-11.7439
reklam	-11.7442
▁tipprevjeni	-11.745
Iżlanda	-11.745
▁tessili	-11.745
▁ibsin	-11.745
kooperattivi	-11.7461
▁tanalizza	-11.7461
rombli	-11.7467
deterjorament	-11.7472
▁Svizzera	-11.7478
▁dakinhar	-11.7489
▁titressaq	-11.7489
ikklikkja	-11.7494
Klassifikazzjoni	-11.7494
▁ittestjat	-11.7498
▁steel	-11.75
xhur	-11.7501
speċifika	-11.7502
pilastru	-11.7517
Londra	-11.7518
mudullun	-11.7522
▁sorveljat	-11.7527
Eġittu	-11.7528
▁jissuġġerixxu	-11.7528
pyr	-11.7529
intier	-11.7542
▁Kummerċjali	-11.7545
Kulleġġ	-11.7549
dinamiċi	-11.7552
nikil	-11.7554
▁negozjabbli	-11.7556
▁kredibbli	-11.7561
▁veterinarja	-11.7561
għmlu	-11.7574
simboli	-11.7576
▁makroekonomiċi	-11.7578
lastku	-11.7581
▁rrispettat	-11.7582
6/2009	-11.7583
premju	-11.7586
ħwienet	-11.759
▁jintgħażlu	-11.759
klussiv	-11.759
National	-11.7607
vittma	-11.7612
▁dikjarat	-11.7617
▁nnotat	-11.7619
Aġenziji	-11.7623
▁artab	-11.7624
iPad	-11.7625
rinforz	-11.763
karkassi	-11.7635
▁tgħix	-11.7635
massimu	-11.7635
▁jiggarantixxi	-11.7646
▁jwieġeb	-11.7646
propulsjoni	-11.7657
▁proviżorju	-11.7663
Malasja	-11.7664
0.4	-11.7669
suġġeriment	-11.7669
▁MINIMU	-11.7669
▁skrin	-11.7671
▁monohydrate	-11.7675
prosperità	-11.768
kabina	-11.7686
casino	-11.7691
▁Każijiet	-11.7692
▁wettaq	-11.7697
dwiefer	-11.7697
Avveniment	-11.7709
koagulazzjoni	-11.7709
eċċess	-11.7713
farmaċewtiċi	-11.7714
▁inġenerali	-11.7714
▁għalxiex	-11.7715
▁jeċċedi	-11.772
naddaf	-11.7726
▁jimmaniġġja	-11.7726
muniċipalità	-11.7729
▁stokk	-11.7733
Integrazzjoni	-11.7737
▁viżwali	-11.7737
minjieri	-11.7737
▁kkaratterizzat	-11.7737
sinkroni	-11.7742
adoloxxenti	-11.7743
▁jipproteġi	-11.7743
INFORMAZZJONI	-11.7754
destinatarju	-11.7754
▁femminili	-11.7754
▁reċentement	-11.7754
flessibilità	-11.776
▁imorru	-11.776
▁Legali	-11.7761
laminat	-11.7766
▁Frankfurt	-11.7766
▁staqsi	-11.7771
▁superviżorju	-11.7777
▁ħmura	-11.7777
ispazji	-11.7783
rappurtaġġ	-11.7783
▁1831/2003	-11.7789
▁Scicluna	-11.7789
▁jorbtu	-11.7794
pannell	-11.7798
ippurgar	-11.78
individwa	-11.7811
▁Jugoslava	-11.7817
domandi	-11.7817
Tuneżija	-11.7823
ċilindri	-11.7823
▁jsostnu	-11.7823
disinja	-11.7824
▁leġittimu	-11.7835
ċinema	-11.7835
▁jitilqu	-11.7846
Xlokk	-11.7852
▁sservi	-11.7858
SEAE	-11.7864
kessaħ	-11.7864
formalitajiet	-11.7865
irziezet	-11.7875
▁jiskambjaw	-11.7875
▁1151/2012	-11.7881
▁drappijiet	-11.7881
▁Ġeneralment	-11.7881
▁inizjalment	-11.7887
▁impeditur	-11.7887
▁(95%	-11.7887
still	-11.7898
▁tgħarraf	-11.7904
projezzjoni	-11.7908
Profeta	-11.7916
▁mormi	-11.7922
▁aċċidentali	-11.7922
tirojde	-11.7928
wieqfa	-11.7928
indipendentement	-11.7933
okkorrenza	-11.7939
HBV	-11.794
varjant	-11.7942
ammonju	-11.7945
▁diviż	-11.7953
▁konformement	-11.7957
▁kompla	-11.7958
▁2016/2	-11.7964
tressiq	-11.7968
Kapaċità	-11.7969
akkumula	-11.7972
annullament	-11.7974
▁kiseb	-11.7975
▁ngħas	-11.7984
▁ipprojbit	-11.7992
▁jikkonkludi	-11.8004
allegazzjoni	-11.801
▁rappurtat	-11.8021
▁tabilħaqq	-11.8021
kabbru	-11.8022
Għanijiet	-11.8024
6/2014	-11.8033
ħsejjes	-11.8033
▁waħedhom	-11.8033
tigrija	-11.8044
▁jinqalgħu	-11.8051
imgħoddi	-11.8056
▁formalment	-11.8057
▁kontraċettiv	-11.8057
▁rtirar	-11.8062
ipprogrammar	-11.8068
▁tibdel	-11.8086
▁lokalment	-11.8086
▁jintrema	-11.8086
quċċata	-11.8092
▁titkompla	-11.8092
▁Islandiż	-11.8092
▁imħallat	-11.8092
gwardja	-11.8093
▁opportun	-11.8096
sostitw	-11.8098
.7.19	-11.8103
▁Relatur	-11.8116
lizumab	-11.8128
sieħba	-11.8133
Akkwist	-11.8139
▁subordinat	-11.814
arkivj	-11.8154
effiċjent	-11.8164
WHO	-11.8169
Komponent	-11.8171
Ewropea	-11.8187
installa	-11.8187
▁preżunt	-11.8187
▁sanitarji	-11.8187
tramuntana	-11.8193
▁EWROPEA	-11.8193
awtonomija	-11.8193
Djalogu	-11.8199
akkwiżizzjoni	-11.8199
osservanza	-11.8199
▁MEMO	-11.8199
▁jestendu	-11.8217
Ekotikketta	-11.8217
informatika	-11.8217
potassium	-11.8223
▁jeskludi	-11.8229
Semestru	-11.8229
▁iħallsu	-11.8247
lamtu	-11.8249
migr	-11.8257
twemmin	-11.8259
divertiment	-11.8259
kimiċi	-11.8269
▁jgħaqqdu	-11.8271
Ħaddiema	-11.8271
▁intwera	-11.8277
dinjità	-11.8284
koordinatur	-11.8287
▁jinfluwenzaw	-11.8289
▁[11]	-11.8295
▁terrestri	-11.8301
fiżika	-11.8306
▁OĦRA	-11.8307
▁imwettaq	-11.8307
▁irkupra	-11.8308
lukka	-11.8312
fenomenu	-11.832
website	-11.832
▁Edizzjoni	-11.832
▁sostniet	-11.8326
detriment	-11.8332
bagalji	-11.8338
▁irtirat	-11.8341
▁Galileo	-11.8344
żingu	-11.8345
bajja	-11.8361
▁invokat	-11.8364
▁miksi	-11.8367
tieħed	-11.8372
korrispondenza	-11.8374
▁mmaniġġjar	-11.838
isimhom	-11.8383
nomenklatura	-11.8386
▁waħdieni	-11.8393
Rumen	-11.8393
eżempju	-11.8398
disseminazzjoni	-11.8399
iffriżar	-11.8399
▁Bayer	-11.8405
▁tinħareġ	-11.8411
▁iddikjara	-11.8417
qleb	-11.8417
▁tirregola	-11.8418
Paċifiku	-11.8423
workshop	-11.8423
▁misjuba	-11.8429
Sitt	-11.8431
▁akkwatiċi	-11.8435
▁jintremew	-11.8435
idejh	-11.8437
▁jolqtu	-11.8448
grilja	-11.8448
karattri	-11.8448
ingredjent	-11.845
▁Kollha	-11.846
Blackbell	-11.8466
▁jissostitwixxi	-11.8472
▁kontinwi	-11.8473
▁titkejjel	-11.8473
▁ponderat	-11.8503
widna	-11.8504
Familja	-11.8509
▁rikombinanti	-11.8515
UNSCR	-11.8515
▁jinqraw	-11.854
▁mutandis	-11.8546
Sinjal	-11.8548
konnettività	-11.8553
▁mutatis	-11.8565
▁strixxi	-11.8565
▁Dublin	-11.8571
▁Skart	-11.8573
▁tagħmilha	-11.8584
diliġenza	-11.859
▁jimpedixxi	-11.8596
▁prudenti	-11.8596
ġenotip	-11.8602
▁tipikament	-11.8609
iskadenzi	-11.8615
REACH	-11.8615
▁muniċipali	-11.8618
akkoljenza	-11.8621
▁analitiċi	-11.8627
▁esklużivament	-11.8633
▁tranżitorju	-11.864
▁jirrispondu	-11.8646
▁Kimiċi	-11.8646
pioglitazone	-11.8652
klejm	-11.8659
4/2013	-11.8663
eżistenti	-11.8663
▁Irbesartan	-11.8665
riservi	-11.8671
0.9	-11.8675
Estratt	-11.8676
kulturi	-11.8679
▁statutorji	-11.8684
mistrieħ	-11.8684
▁terroristiċi	-11.869
.2.4	-11.8702
atmosfera	-11.8702
0.00	-11.8708
▁statutorju	-11.8709
▁Eżempju	-11.8721
Negozju	-11.874
▁Pilloli	-11.874
UŻU	-11.874
bżieżaq	-11.8747
▁Minflok	-11.8753
.12.2006	-11.8753
▁jgħaqqad	-11.8759
▁jiffukaw	-11.8759
Ġordan	-11.8759
▁swap	-11.876
patrimonju	-11.8766
▁mħejji	-11.8766
RAPPORT	-11.8772
widnejn	-11.8772
▁jitgħallmu	-11.8778
Armenja	-11.8778
▁imniżżla	-11.8785
Ftuħ	-11.8787
▁viżiv	-11.8791
imħallfin	-11.8797
miżati	-11.8799
▁probabbilment	-11.881
▁Rispons	-11.8816
▁tistieden	-11.8836
▁jistennew	-11.8842
▁kwalifikanti	-11.8842
prattiċi	-11.8844
enżimi	-11.8846
▁jiddiskutu	-11.8848
▁eżegwit	-11.8855
ossiġnu	-11.8856
kreatinina	-11.8861
▁jinħareġ	-11.8861
Finlandiż	-11.8861
(2013)	-11.8862
ħitan	-11.8862
Proprjetà	-11.8868
▁mekkaniku	-11.8874
▁Dexia	-11.888
twissija	-11.8884
partiċelli	-11.8888
Memorandum	-11.8893
vibrazzjoni	-11.8894
▁language	-11.89
▁lonġitudinali	-11.89
▁Segwi	-11.8906
▁jitħaddmu	-11.8912
▁Kellem	-11.8912
▁irċieva	-11.8919
epilessija	-11.8932
▁tolqot	-11.8932
imsaren	-11.8932
▁filgħaxija	-11.8938
sekwenza	-11.8945
▁mħarsa	-11.8951
▁bbilanċjat	-11.896
▁Alimentari	-11.8964
▁Aċidu	-11.8964
▁jaqra	-11.8966
studju	-11.8966
.3.3	-11.8971
Somalja	-11.8977
▁nkunu	-11.8977
▁Kollox	-11.8983
▁prospettiv	-11.8985
▁[12]	-11.899
▁Select	-11.899
Tajlandja	-11.8996
▁jinġieb	-11.8996
għadhomx	-11.9004
Kumpaniji	-11.9016
REGOLAMENT	-11.9022
▁jiżvela	-11.9029
Madrid	-11.9029
▁mekkanika	-11.9036
▁jniġġsu	-11.9042
▁jidhirx	-11.9061
dixxipli	-11.9074
▁tiġbed	-11.9074
Oħra	-11.9076
vertebra	-11.9088
Ċittadinanza	-11.9101
▁Iktar	-11.9101
kiesaħ	-11.9101
▁kisbet	-11.9101
NSAID	-11.9101
▁titgħallem	-11.9107
6/2010	-11.9109
irreferi	-11.9115
▁eventwalment	-11.912
▁terapewtiċi	-11.912
▁tistenna	-11.912
Objettiv	-11.912
xekkel	-11.912
sojja	-11.912
▁iggarantit	-11.9133
▁Lingwi	-11.9134
▁tissostitwixxi	-11.914
▁ddikjara	-11.9147
EJN	-11.915
▁Stqarrija	-11.9153
kanċellazzjoni	-11.9153
▁clopidogrel	-11.916
▁jinfetħu	-11.916
Alla	-11.9165
▁oriġinarjament	-11.9166
iżbalji	-11.9173
sħubiji	-11.9174
abbandun	-11.918
KUMMISSJONI	-11.9186
klawżoli	-11.9193
▁jiċċekkja	-11.9199
▁Ġwann	-11.9199
▁jgħix	-11.9203
▁jikkonkludu	-11.9213
▁joġġezzjona	-11.9213
dgħajjes	-11.9213
▁kilogramm	-11.9219
ATTIVI	-11.9237
tnixxif	-11.9239
▁jisfrutta	-11.9239
issettja	-11.9243
tjieb	-11.925
▁mfassal	-11.9252
▁twieġeb	-11.9252
▁Ħieles	-11.9252
Ħruġ	-11.9253
▁540/2011	-11.9259
▁imħejji	-11.9259
▁tressqet	-11.9259
▁kontraċezzjoni	-11.9259
angiotensin	-11.9272
evalwa	-11.9273
kuritur	-11.9274
▁Tabilħaqq	-11.9279
stream	-11.928
▁Airlines	-11.9286
▁Depożitu	-11.9286
xibka	-11.9292
diskrepanza	-11.9292
Distrett	-11.9293
▁mmodifikat	-11.9296
sigaretti	-11.9299
▁tiffaċċja	-11.9299
Wikipedija	-11.9306
▁demokratiċi	-11.9312
▁addattat	-11.9319
▁Dettalji	-11.9326
▁mgħammar	-11.9326
▁pedjatrika	-11.9326
kampjonat	-11.9333
aħbarijiet	-11.9339
ħawwad	-11.9339
settorjali	-11.9344
▁tqabbel	-11.9346
ħelsien	-11.9353
▁jħarsu	-11.9353
mogħoż	-11.9366
terapewtiku	-11.9366
Kondizzjonijiet	-11.9366
Prestazzjoni	-11.9367
AIDS	-11.9386
▁mġiba	-11.9387
ipoteka	-11.9389
▁tkellem	-11.9393
iffaċilitar	-11.9398
▁iebes	-11.94
koordinament	-11.94
▁Persuna	-11.94
Tagħlim	-11.9413
inugwaljanzi	-11.9413
▁Indeboliment	-11.9413
▁ivverifikat	-11.9413
affettwa	-11.9414
▁trimestrali	-11.942
▁tikkomunika	-11.9427
ventilazzjoni	-11.9427
newtropenija	-11.9434
ġewż	-11.9436
▁spazji	-11.9447
▁igawdu	-11.9447
▁ghandu	-11.9447
loġistika	-11.9454
▁jaqdi	-11.9454
▁ppruvat	-11.9461
▁tiġġustifika	-11.9461
Formola	-11.9461
▁farmakokinetiku	-11.9468
▁hydroxide	-11.9468
trakkijiet	-11.9474
▁konkomitanti	-11.9474
▁randomised	-11.9474
GMES	-11.9475
relevanza	-11.9495
▁ngħidu	-11.9495
maternità	-11.9502
▁preparatorja	-11.9502
▁jressqu	-11.9515
8/2014	-11.9522
▁vitamini	-11.9522
▁tikkoordina	-11.9529
▁jitkompla	-11.9529
Konsum	-11.953
ppermetti	-11.953
▁Militari	-11.9536
abbiltajiet	-11.9542
▁mixtrija	-11.9543
▁98/8/	-11.9549
▁Finalment	-11.9556
▁jissemma	-11.9563
konnettur	-11.9564
▁storiċi	-11.957
Sanzjonijiet	-11.957
▁iffissat	-11.9577
traprenditorjali	-11.9584
▁ireddgħu	-11.9584
▁iħeġġeġ	-11.9584
▁jimpenjaw	-11.9584
▁sekondi	-11.9584
▁diskriminatorji	-11.9591
zyme	-11.9601
▁emorraġija	-11.9625
▁tinftiehem	-11.9625
pilastri	-11.9625
▁jaqbdu	-11.9632
volatilità	-11.9635
▁Company	-11.9639
▁dinamiku	-11.9639
▁intermedji	-11.9646
ZZJONALI	-11.9653
▁jgħarrfu	-11.9667
Arġentina	-11.9674
Intrapriżi	-11.968
Karibew	-11.9687
▁reċiproċi	-11.9701
tejbu	-11.9706
▁raġonevolment	-11.9715
▁Dollaru	-11.9722
▁Terminu	-11.9722
diżastru	-11.9723
konvertitur	-11.9723
assiguratur	-11.9729
bażat	-11.973
▁unanimu	-11.9736
preżerva	-11.9737
Bilanċ	-11.9739
▁jgħarraf	-11.9743
▁mqiegħda	-11.9743
▁isaħħaħ	-11.9743
perċezzjoni	-11.9744
ħelikopter	-11.975
▁Zealand	-11.9757
kuljum	-11.9772
sajjieda	-11.9792
▁Żvizzera	-11.9792
Berlin	-11.9804
Effiċjenza	-11.9806
Taqsimiet	-11.9813
▁jiġġieldu	-11.9813
▁inferjuri	-11.982
semplifikazzjoni	-11.9822
ternazzjonalment	-11.9834
▁virtwali	-11.9834
▁tirreġistra	-11.9835
▁trasferibbli	-11.9841
imqass	-11.9845
▁Trejner	-11.9848
▁jeskludu	-11.9848
kesħa	-11.9849
filtrazzjoni	-11.9855
▁Ibbażat	-11.9856
ġudizzju	-11.9868
▁Google	-11.987
▁disoproxil	-11.987
duplikazzjoni	-11.9884
▁Chris	-11.9885
tossikoloġi	-11.9891
iżolament	-11.9899
akkwirent	-11.9905
▁jipperikola	-11.9905
▁negliġibbli	-11.9905
Manwal	-11.9912
ġobon	-11.992
▁timtela	-11.9926
▁ntlaħaq	-11.9934
sovranità	-11.9938
▁jesprimu	-11.9941
▁jitpoġġew	-11.9941
iġjene	-11.9941
istitut	-11.9955
▁Breezhaler	-11.9955
▁Pubbliċi	-11.9955
▁Eżempji	-11.9962
▁2001/83/	-11.9969
▁ikkoordinat	-11.9969
▁imġarrba	-11.9969
▁aromatiċi	-11.9976
Gwida	-11.9978
▁irbesartan	-11.9984
Prosekutur	-11.9991
vakwu	-11.9991
▁splussiv	-11.9991
Kreditu	-11.9991
▁ĠENERALI	-12.0005
Reġistratur	-12.0012
filgrastim	-12.0019
istainless	-12.0019
tbatija	-12.0019
provinċja	-12.0023
tarzna	-12.0035
▁Stabbil	-12.0037
▁1829/2003	-12.0041
pożizzjona	-12.0043
tixjiħ	-12.0048
dibattiti	-12.0063
▁jobbliga	-12.0063
saqaf	-12.0065
▁moħbija	-12.0077
▁torbot	-12.0077
Promozzjoni	-12.0078
▁jitħarsu	-12.0084
▁tacrolimus	-12.0084
terroristi	-12.0099
▁apparenti	-12.0113
▁ddeċieda	-12.0113
▁jinkoraġġixxi	-12.0113
▁allegatament	-12.012
distillat	-12.0121
Bastimenti	-12.0128
▁Agħżel	-12.0128
Kapitoli	-12.0135
riċevuta	-12.0138
punent	-12.0142
▁bilqiegħda	-12.0142
▁jinqasmu	-12.0142
▁ulterjorment	-12.0157
▁prekawzjoni	-12.0159
Ristrutturar	-12.0172
akkademiċi	-12.0186
▁kumplimentari	-12.0186
▁jħejji	-12.0193
▁niexef	-12.0193
Ħames	-12.0195
ARTIKOLU	-12.0201
Qasam	-12.0201
▁Skeda	-12.0201
▁Addizzjonali	-12.0215
▁Nofsani	-12.0215
Windows	-12.0222
▁jippromovu	-12.0223
▁ipprovda	-12.023
munizzjon	-12.0233
amlodipine	-12.0237
merluzz	-12.0237
trawwim	-12.0237
twaqqigħ	-12.0237
▁mwettaq	-12.0245
▁Drappijiet	-12.0252
▁Kriminali	-12.0252
▁Preċedenti	-12.0252
▁Hydro	-12.0252
toqba	-12.0252
xaħmijiet	-12.0252
▁possibli	-12.0259
dijanjosi	-12.0267
▁jippreġudika	-12.0267
▁tikkuntattja	-12.0267
▁jressaq	-12.0267
attribut	-12.0269
▁partikularment	-12.0274
▁Aċċessorji	-12.0281
arkitettura	-12.0289
sottoskrizzjoni	-12.0289
▁iddedikat	-12.0296
«	-12.566
