<unk>	0
<s>	0
</s>	0
-	-2.24177
▁	-3.01071
,	-3.74981
▁ta	-3.83176
▁l	-3.89208
▁tal	-3.89486
’	-3.97489
.	-3.99822
▁u	-4.16272
▁li	-4.26033
'	-4.33537
i	-4.3862
▁il	-4.65144
a	-4.67672
)	-5.02791
▁(	-5.10181
s	-5.35085
▁għall	-5.37079
▁jew	-5.48782
▁b	-5.53105
▁fil	-5.53481
▁f	-5.5885
▁ma	-5.63445
/	-5.63512
t	-5.64282
b	-5.64749
▁mill	-5.65852
x	-5.66994
▁għal	-5.69324
▁L	-5.77743
u	-5.79432
▁fl	-5.80024
jiet	-5.86516
▁Il	-5.86653
▁minn	-5.87879
▁dwar	-5.92785
:	-5.96029
▁fuq	-5.97054
w	-6.00163
l	-6.00971
;	-6.02847
▁t	-6.0374
e	-6.13678
▁tas	-6.15077
▁biex	-6.1935
▁tat	-6.19528
g	-6.24309
▁ir	-6.29683
f	-6.32089
Artikolu	-6.32774
▁s	-6.33014
Kummissjoni	-6.36908
o	-6.4021
▁tad	-6.40728
▁id	-6.42364
il	-6.42877
▁għandhom	-6.43136
▁tar	-6.43416
▁it	-6.43845
UE	-6.45598
d	-6.46422
▁j	-6.47178
ri	-6.47933
Regolament	-6.484
▁is	-6.49795
mod	-6.50282
▁d	-6.52689
ta	-6.53078
▁r	-6.54477
ti	-6.57623
▁għandu	-6.58081
▁lill	-6.5863
in	-6.62536
▁mal	-6.62948
▁dan	-6.63892
▁kif	-6.64465
li	-6.65758
▁m	-6.67595
r	-6.68606
h	-6.70341
▁huma	-6.71958
▁1	-6.72651
▁huwa	-6.75069
▁jiġu	-6.75124
c	-6.75299
▁għandha	-6.7631
m	-6.7786
Unjoni	-6.82546
n	-6.82881
er	-6.83402
Kunsill	-6.85407
▁Membri	-6.85473
▁fis	-6.85943
▁in	-6.86583
al	-6.87979
Istati	-6.88058
2	-6.88101
KE	-6.8823
1	-6.88789
▁B	-6.88977
ar	-6.89101
▁Nru	-6.89212
▁S	-6.89781
▁skont	-6.90628
A	-6.92812
▁tagħhom	-6.93102
ja	-6.93416
▁mhux	-6.95781
di	-6.96147
ħ	-6.96188
S	-6.96572
▁tkun	-6.96818
azzjoni	-6.96923
▁aktar	-6.97184
ment	-6.9744
”	-6.98376
p	-6.98503
▁jiġi	-6.98749
▁jkun	-6.99078
na	-6.99254
k	-6.9965
▁n	-7.00537
or	-7.01727
▁T	-7.02468
▁bħala	-7.02965
ra	-7.04214
T	-7.04459
▁jekk	-7.06512
▁Ewropea	-7.06535
▁hija	-7.07351
▁fi	-7.07366
ni	-7.08333
▁2	-7.08411
▁Ewropew	-7.08815
▁kollha	-7.08969
▁F	-7.09463
el	-7.0948
▁sabiex	-7.09857
at	-7.1114
▁A	-7.14027
P	-7.1465
▁din	-7.15372
▁p	-7.15583
▁bil	-7.16548
4	-7.16655
q	-7.18619
▁bejn	-7.18675
▁dawn	-7.18953
▁wara	-7.19653
▁tiġi	-7.20168
▁tiegħu	-7.20377
Direttiva	-7.20407
▁kull	-7.20996
▁ukoll	-7.2115
▁3	-7.21232
▁jistgħu	-7.2134
an	-7.22051
▁jista	-7.22268
ż	-7.22328
zzjoni	-7.22445
▁“	-7.22481
▁se	-7.22564
▁meta	-7.23449
M	-7.23658
y	-7.23706
en	-7.23909
▁fir	-7.24022
C	-7.25851
ma	-7.2674
3	-7.26772
ji	-7.2736
▁C	-7.2773
on	-7.28017
I	-7.28599
▁oħra	-7.28719
ir	-7.29629
aw	-7.30007
B	-7.30126
et	-7.3018
D	-7.30794
suq	-7.3186
▁fit	-7.31887
▁M	-7.33284
▁tagħha	-7.33978
5	-7.35131
rigward	-7.36035
▁sa	-7.36167
F	-7.36703
es	-7.38125
▁fejn	-7.39394
ha	-7.40031
L	-7.40976
lu	-7.41077
▁ikun	-7.41243
▁I	-7.41333
▁hemm	-7.42065
ed	-7.4274
K	-7.43145
▁għat	-7.43299
da	-7.43548
▁jkunu	-7.43722
R	-7.43864
▁bl	-7.44019
▁dawk	-7.44982
re	-7.45223
im	-7.4547
▁K	-7.45781
Anness	-7.46023
▁5	-7.46895
ali	-7.47181
▁nazzjonali	-7.47266
▁permezz	-7.47287
du	-7.47966
6	-7.48118
ati	-7.4841
għ	-7.48415
ċi	-7.48571
▁qed	-7.49406
użu	-7.49415
id	-7.49766
▁E	-7.49918
is	-7.50661
G	-7.52427
ka	-7.5277
▁taħt	-7.54173
mi	-7.54274
▁tista	-7.54393
E	-7.54727
▁k	-7.55954
▁D	-7.56236
▁qabel	-7.56496
▁ikunu	-7.56536
N	-7.56872
▁Ir	-7.56949
dan	-7.5698
każ	-7.57417
▁P	-7.57858
j	-7.59162
▁»	-7.5957
ċ	-7.60116
ur	-7.60375
▁im	-7.60425
▁tan	-7.60935
Parlament	-7.60985
▁%	-7.61572
▁biss	-7.62773
▁Membru	-7.63047
▁wkoll	-7.63299
ol	-7.63496
▁Id	-7.63886
em	-7.65009
it	-7.65254
z	-7.6547
am	-7.65967
▁bi	-7.67045
▁kien	-7.6709
▁partikolari	-7.67863
▁Dan	-7.68408
▁fid	-7.69571
▁wieħed	-7.69725
▁għas	-7.70116
▁4	-7.7012
▁6	-7.70181
(	-7.70569
Istat	-7.71026
▁10	-7.72873
V	-7.73909
ewwel	-7.742
ru	-7.74441
tu	-7.74486
Deċiżjoni	-7.75328
hom	-7.76839
le	-7.76848
awtoritajiet	-7.77464
▁Is	-7.77657
▁It	-7.77839
paragrafu	-7.78301
"	-7.78974
te	-7.79778
▁xi	-7.80178
▁–	-7.81421
▁billi	-7.82595
8	-7.82706
ju	-7.82923
▁mg	-7.83353
▁tiegħek	-7.83429
▁jit	-7.8361
7	-7.83698
▁lil	-7.83753
data	-7.84517
ġ	-7.84938
konformità	-7.86004
implimentazzjoni	-7.86307
O	-7.86328
livell	-7.86334
▁jin	-7.86711
istess	-7.8745
▁kienu	-7.8784
informazzjoni	-7.88794
ro	-7.89358
ad	-7.90484
]	-7.9055
iżvilupp	-7.9132
▁dak	-7.91337
▁għad	-7.91337
▁kwalunkwe	-7.91382
▁Jekk	-7.91399
de	-7.9146
vi	-7.91554
ew	-7.91691
▁N	-7.92603
aq	-7.92657
▁V	-7.92759
mu	-7.92917
għan	-7.93734
▁kontra	-7.93873
ament	-7.94239
▁informazzjoni	-7.94457
H	-7.94848
▁għar	-7.94949
ara	-7.9496
miżuri	-7.95174
lo	-7.95782
▁G	-7.96252
▁mingħajr	-7.96294
ing	-7.96387
v	-7.96822
ata	-7.97404
min	-7.97434
applikazzjoni	-7.97746
▁kemm	-7.98192
ku	-7.98342
▁H	-7.98431
saħħa	-7.9863
▁7	-7.98709
sistema	-8.00172
Kumitat	-8.0051
ter	-8.01118
punt	-8.01348
um	-8.0231
▁prodotti	-8.02749
us	-8.02781
un	-8.03807
▁ġenerali	-8.04044
ul	-8.0419
▁In	-8.04525
ek	-8.04651
▁bħal	-8.04729
▁8	-8.05313
▁waħda	-8.05602
▁J	-8.05661
▁żmien	-8.06663
▁ħafna	-8.06921
▁ġew	-8.08256
▁ieħor	-8.08828
▁stabbiliti	-8.08996
rekwiżiti	-8.09257
enerġija	-8.10315
▁[	-8.10575
▁iżda	-8.10611
iż	-8.10744
▁ser	-8.10981
aħħar	-8.11024
(1)	-8.11117
▁minħabba	-8.11429
ki	-8.11497
▁Din	-8.11535
U	-8.1175
os	-8.11939
▁matul	-8.12095
▁min	-8.12457
azzjonijiet	-8.12597
▁komuni	-8.12629
seħħ	-8.12784
prodotti	-8.13412
eż	-8.13806
▁kienet	-8.1393
amp	-8.14363
▁disponibbli	-8.14732
ġi	-8.14996
xogħol	-8.15797
▁flimkien	-8.15907
▁Stat	-8.16623
▁meħtieġa	-8.16829
Ftehim	-8.17776
qa	-8.17935
▁iż	-8.18104
▁soċjali	-8.18187
▁rilevanti	-8.18294
▁Fl	-8.18502
▁lejn	-8.1907
▁Fil	-8.19485
00	-8.20129
tur	-8.20434
regoli	-8.20553
att	-8.20687
▁"	-8.20907
▁oħrajn	-8.2108
▁de	-8.21165
▁hekk	-8.21225
dispożizzjoni	-8.21432
▁12	-8.21488
test	-8.21546
trasport	-8.219
servizzi	-8.22372
turi	-8.22917
▁parti	-8.23113
ass	-8.23269
▁miżuri	-8.23386
10	-8.23878
▁ġejjin	-8.23932
ija	-8.24004
se	-8.24362
▁U	-8.246
tri	-8.24807
ent	-8.24822
va	-8.24872
ko	-8.24933
drittijiet	-8.25104
aħ	-8.25128
ebda	-8.25202
tra	-8.25378
▁taż	-8.2538
iet	-8.25674
jar	-8.26238
perjodu	-8.2642
ch	-8.26948
tip	-8.27133
▁kompetenti	-8.27886
Ewropa	-8.27894
▁mis	-8.27928
▁&	-8.27934
▁msemmija	-8.28063
▁iktar	-8.28109
▁ġej	-8.28393
iku	-8.28477
anti	-8.29021
▁re	-8.29034
ut	-8.2906
awtorità	-8.29183
▁dik	-8.29368
W	-8.29452
▁ġie	-8.30696
nu	-8.32068
▁internazzjonali	-8.32137
fer	-8.3226
▁taċ	-8.32756
▁O	-8.32917
all	-8.33066
▁inklużi	-8.33502
Trattat	-8.3365
aktar	-8.33694
prodott	-8.34411
ne	-8.34609
▁finanzjarji	-8.34631
▁differenti	-8.34741
rata	-8.35201
▁hawn	-8.35414
sena	-8.3556
▁mit	-8.35831
▁R	-8.36113
qu	-8.36158
?	-8.36505
om	-8.36708
pajjiżi	-8.36814
▁waqt	-8.36968
to	-8.36969
sigurtà	-8.37516
dritt	-8.37663
kon	-8.37775
politika	-8.38051
▁legali	-8.3811
zzjonijiet	-8.39005
liġi	-8.39017
▁hu	-8.3907
st	-8.3916
żi	-8.39317
per	-8.3948
ità	-8.39485
riskju	-8.39504
qasam	-8.39617
ġdid	-8.39901
▁sena	-8.40035
▁9	-8.40236
produzzjoni	-8.40464
post	-8.40956
ist	-8.41173
▁ċ	-8.41216
art	-8.41289
settur	-8.41517
▁—	-8.425
2013	-8.42648
għajnuna	-8.42712
▁EUR	-8.42779
zz	-8.42841
ik	-8.42893
▁mid	-8.43124
ika	-8.43259
forma	-8.43509
▁Barra	-8.43674
(2)	-8.44405
▁Diċembru	-8.44521
▁20	-8.44619
pazjenti	-8.4496
fi	-8.45079
▁inkluż	-8.45203
kundizzjonijiet	-8.45314
▁relatati	-8.45378
ess	-8.45503
ammont	-8.45647
▁sal	-8.45669
▁meħtieġ	-8.45859
me	-8.46344
▁X	-8.46509
▁quddiem	-8.46594
▁applikabbli	-8.46738
▁skond	-8.46778
▁Meta	-8.46822
proċedura	-8.4685
▁speċifiċi	-8.47049
od	-8.4711
din	-8.47112
Komunità	-8.47155
kom	-8.47408
proċess	-8.47861
▁ġodda	-8.48716
Qorti	-8.48826
attivitajiet	-8.48883
9	-8.4895
▁servizzi	-8.49328
▁15	-8.49443
ikel	-8.49458
▁finanzjarja	-8.4971
▁pazjenti	-8.49899
pp	-8.49904
and	-8.50177
kar	-8.50218
valur	-8.50274
tit	-8.50314
▁ċerti	-8.50323
jo	-8.50464
programm	-8.50711
op	-8.50969
ej	-8.51051
assi	-8.51114
▁madwar	-8.51229
11	-8.51234
▁Madankollu	-8.51315
iċi	-8.51399
20	-8.51481
parti	-8.51767
dejta	-8.518
▁mir	-8.51846
tieni	-8.52401
oħra	-8.52548
▁ġiet	-8.52701
▁fih	-8.52935
▁Ewropej	-8.52954
ot	-8.52963
ispejjeż	-8.53222
▁II	-8.53537
▁mar	-8.53688
prezz	-8.53941
▁xieraq	-8.53941
▁ż	-8.54021
▁19	-8.54045
▁Wara	-8.541
ajru	-8.54144
▁Għal	-8.54172
enza	-8.54212
▁stabbilit	-8.54239
ĠU	-8.54347
partijiet	-8.55069
kura	-8.55101
tiċi	-8.55325
0	-8.55633
▁tin	-8.55641
▁jkollhom	-8.5566
‐	-8.55899
protezzjoni	-8.55937
▁TA	-8.55975
bażi	-8.56021
▁13	-8.56027
16	-8.56043
1/	-8.56125
▁Dawn	-8.56453
enti	-8.56586
ef	-8.5662
▁Ma	-8.56692
man	-8.56924
▁importanti	-8.57365
nt	-8.57441
arja	-8.58099
▁‘	-8.58141
J	-8.58395
uri	-8.58418
għa	-8.58706
▁kon	-8.59663
▁barra	-8.59738
hekk	-8.59907
istituzzjonijiet	-8.59986
▁bażi	-8.60028
▁snin	-8.6011
est	-8.60136
(3)	-8.60153
IN	-8.60287
tar	-8.60947
pajjiż	-8.6095
▁tieħu	-8.61221
KEE	-8.61422
importazzjoni	-8.61476
2009	-8.61505
▁filwaqt	-8.6182
13	-8.62026
▁totali	-8.62047
Ġ	-8.62051
akk	-8.62157
▁sakemm	-8.62206
ixxi	-8.62209
▁Re	-8.62656
ża	-8.62694
port	-8.62739
▁possibbli	-8.62774
▁jintuża	-8.63066
żona	-8.63146
mo	-8.63151
dħul	-8.63431
▁11	-8.63564
bbli	-8.63612
ejj	-8.63682
▁W	-8.63755
fatt	-8.63835
▁30	-8.64357
ok	-8.64624
ex	-8.64756
jew	-8.64786
inqas	-8.6485
▁inter	-8.64877
pożizzjoni	-8.64916
oli	-8.65501
kapaċità	-8.65611
KESE	-8.65636
po	-8.66314
approvazzjoni	-8.66502
25	-8.66627
riżultati	-8.66854
▁jik	-8.66974
pre	-8.67035
▁għalhekk	-8.67355
▁4.	-8.67479
ic	-8.67578
Z	-8.67793
sajd	-8.67965
▁tip	-8.68115
prezzijiet	-8.68147
12	-8.68377
▁tingħata	-8.68382
▁pajjiżi	-8.684
▁jistabbilixxi	-8.68548
Artikoli	-8.68695
▁addizzjonali	-8.68813
▁inqas	-8.68941
ilma	-8.6899
industrija	-8.68994
▁Huwa	-8.69015
bo	-8.69098
żewġ	-8.69102
sin	-8.69406
▁kummerċjali	-8.69411
bejgħ	-8.69681
▁14	-8.69699
rapport	-8.70156
▁speċjali	-8.70918
▁iċ	-8.7094
għu	-8.71088
rati	-8.71294
▁tik	-8.71468
▁tfisser	-8.71537
qafas	-8.71928
▁doża	-8.71963
no	-8.72017
iġ	-8.72151
▁sinifikanti	-8.72761
▁pre	-8.72922
valutazzjoni	-8.72937
▁terzi	-8.72952
▁hi	-8.72999
▁japplikaw	-8.7304
ħall	-8.73098
ran	-8.73233
deċiżjoni	-8.73396
14	-8.73583
X	-8.73793
18	-8.74134
▁2009	-8.74296
▁għajnuna	-8.74414
ce	-8.74622
▁referenza	-8.74679
dawl	-8.74743
▁miljun	-8.74948
jali	-8.75045
impatt	-8.75644
zza	-8.76127
▁livell	-8.76148
▁Ġunju	-8.7631
▁2008	-8.76432
ħa	-8.76528
annimali	-8.76845
proposta	-8.76902
sti	-8.76945
ke	-8.76987
ċittadini	-8.77206
mm	-8.7751
kk	-8.77619
2014	-8.77741
dis	-8.7813
ħu	-8.78132
▁18	-8.78204
▁0	-8.78378
▁Għalhekk	-8.78393
ambjent	-8.78529
▁fihom	-8.78664
sistemi	-8.78935
2011	-8.78963
kontroll	-8.79104
▁Stati	-8.79194
▁Għall	-8.79337
ġestjoni	-8.79384
▁Ħ	-8.79501
ER	-8.79508
pa	-8.79842
▁2014	-8.8008
għoti	-8.80293
pjan	-8.80371
eri	-8.80585
▁kontroll	-8.8063
tul	-8.80748
baġit	-8.8083
isem	-8.80951
Fond	-8.80964
▁responsabbli	-8.81287
▁appoġġ	-8.81304
BĊE	-8.81321
met	-8.81392
▁Jannar	-8.81512
sit	-8.81558
▁bżonn	-8.81645
▁jagħmlu	-8.8173
pro	-8.81894
proċeduri	-8.81898
▁2011	-8.81904
19	-8.8197
15	-8.8211
▁pubbliku	-8.82153
▁tliet	-8.82207
emissjonijiet	-8.82359
pi	-8.82736
2006	-8.82819
▁Q	-8.83036
Q	-8.83314
ci	-8.83542
kriterji	-8.83669
iv	-8.83693
▁jintużaw	-8.8376
ide	-8.83765
▁personali	-8.83876
Ċ	-8.83903
▁jinkludu	-8.83923
▁lokali	-8.83936
▁16	-8.83979
Repubblika	-8.84279
▁simili	-8.84315
agħ	-8.84317
▁25	-8.84389
AN	-8.84414
Aġenzija	-8.84421
kol	-8.8447
kummerċ	-8.84539
rin	-8.84571
▁eżistenti	-8.84639
ine	-8.84785
17	-8.84971
▁pubbliċi	-8.85049
ien	-8.85123
▁mhumiex	-8.8524
ema	-8.85564
ħar	-8.85633
numru	-8.85655
doża	-8.85722
▁2010	-8.85848
ve	-8.86072
EN	-8.8625
organizzazzjoni	-8.86405
▁Lulju	-8.86461
▁jim	-8.86479
▁fiha	-8.8648
▁persuni	-8.86563
▁għolja	-8.87115
▁darba	-8.87372
▁TAL	-8.87531
▁xierqa	-8.87535
klu	-8.87804
▁annwali	-8.87891
lin	-8.8803
▁inti	-8.88088
eġ	-8.8809
▁tagħna	-8.88412
▁jieħdu	-8.88493
▁ewlenin	-8.88529
aċċess	-8.88675
▁jingħata	-8.89035
▁tnaqqis	-8.89106
ħajja	-8.8924
riskji	-8.89244
▁attwali	-8.89287
ċe	-8.89421
▁ambjentali	-8.89515
nti	-8.89581
kooperazzjoni	-8.89597
▁kuljum	-8.89621
euro	-8.89661
bilanċ	-8.8991
▁diġà	-8.8993
għanijiet	-8.90009
kuntratt	-8.9025
bit	-8.9033
▁sistema	-8.90428
Implimentazzjoni	-8.90456
naħa	-8.90458
ell	-8.90581
IS	-8.90602
ost	-8.90632
sta	-8.90644
▁jipprovdu	-8.90657
ejn	-8.90726
Ħ	-8.90858
▁jiżguraw	-8.90949
piż	-8.91087
opinjoni	-8.91192
wie	-8.91356
ber	-8.91377
▁finali	-8.9138
▁2013	-8.91386
taxxa	-8.91566
lista	-8.91623
sk	-8.91794
kompetizzjoni	-8.91887
aj	-8.92004
▁17	-8.92152
▁Sabiex	-8.92169
▁jipprovdi	-8.9232
isti	-8.92373
▁mogħtija	-8.92554
ħin	-8.92627
mon	-8.92671
kuntest	-8.92691
sitwazzjoni	-8.92776
linja	-8.92934
▁żgurat	-8.9306
ap	-8.93106
notifika	-8.93244
▁ssir	-8.93355
th	-8.93419
bidu	-8.93454
▁100	-8.93529
2007	-8.93615
▁fiż	-8.93656
tiku	-8.93666
▁mil	-8.93762
▁2016	-8.93901
tal	-8.94054
TI	-8.9409
kwalità	-8.94091
sal	-8.94163
AR	-8.94288
▁politika	-8.9449
▁żewġ	-8.94575
żmien	-8.94583
▁applikazzjoni	-8.94742
punti	-8.94814
▁Kull	-8.94973
▁Marzu	-8.95028
aff	-8.95094
▁ix	-8.95345
ver	-8.95548
vettura	-8.95612
do	-8.95812
▁24	-8.95832
2012	-8.9592
oqsma	-8.95995
▁Ġ	-8.96004
assigurazzjoni	-8.96053
co	-8.96581
▁aħjar	-8.96585
tnaqqis	-8.96596
leġiżlazzjoni	-8.96719
▁Ottubru	-8.96753
kontenut	-8.96873
sikurezza	-8.97076
ck	-8.97139
grupp	-8.97279
▁Mejju	-8.97297
50	-8.97382
▁prodott	-8.97514
21	-8.97586
wali	-8.9763
atur	-8.97683
dokument	-8.97708
▁pubblika	-8.97725
▁użu	-8.97768
ġilda	-8.97837
IT	-8.97884
negozju	-8.98234
▁2007	-8.98237
▁japplika	-8.98343
nisa	-8.98543
▁fin	-8.98575
Ż	-8.98629
ers	-8.98846
arju	-8.98853
▁2012	-8.98978
Awtorità	-8.98992
▁xhur	-8.99015
▁2015	-8.99185
22	-8.99199
finanzjament	-8.99199
ossi	-8.99214
gt	-8.99266
jati	-8.99298
▁persuna	-8.9932
▁tekniċi	-8.99321
▁50	-8.99564
ula	-8.99726
korpi	-8.99766
▁Skont	-9.00371
linji	-9.00382
▁fost	-9.00468
CO	-9.00611
rat	-9.00721
President	-9.00811
progress	-9.00927
24	-9.00992
zzjonali	-9.01114
▁stabbilita	-9.01139
Bank	-9.01142
vir	-9.0115
▁reġjonali	-9.012
fil	-9.01244
01	-9.01265
kumpanija	-9.01705
tà	-9.01817
▁ogħla	-9.01823
nuqqas	-9.01994
kont	-9.02003
opera	-9.02196
▁aċċess	-9.02387
riżorsi	-9.02403
▁2006	-9.02513
▁Kon	-9.02656
kun	-9.02746
▁marbuta	-9.02879
ett	-9.02913
▁jsir	-9.02972
korp	-9.03
tika	-9.03064
swieq	-9.03109
je	-9.03113
▁III	-9.03136
▁ekonomika	-9.03187
bniedem	-9.032
ina	-9.0322
ress	-9.03235
Programm	-9.03246
mar	-9.0329
▁Novembru	-9.03318
one	-9.03361
▁tagħmel	-9.03364
▁ml	-9.03442
▁abbażi	-9.03444
▁sezzjoni	-9.03486
▁individwali	-9.03506
riċerka	-9.03564
tor	-9.03745
▁jkunx	-9.0382
ate	-9.0399
dak	-9.04154
mer	-9.04159
omm	-9.04188
produtturi	-9.04479
30	-9.04496
▁kont	-9.04526
era	-9.04596
obbligi	-9.04612
23	-9.04653
kor	-9.04666
tro	-9.04701
2008	-9.05093
pen	-9.05253
pe	-9.05668
tali	-9.05674
▁riskju	-9.05687
appoġġ	-9.05715
▁pro	-9.05834
ES	-9.06019
żoni	-9.06039
▁oġġetti	-9.06043
▁kura	-9.06069
▁ċar	-9.06147
bin	-9.06167
denti	-9.0617
▁mad	-9.06462
RI	-9.06532
kondizzjonijiet	-9.06765
termini	-9.06799
ħruġ	-9.06813
konsumaturi	-9.06829
7/	-9.06884
▁prinċipali	-9.07193
▁ħdan	-9.07272
▁jir	-9.0734
▁jum	-9.0737
ron	-9.07468
▁bis	-9.07519
livelli	-9.07559
tkabbir	-9.07591
▁21	-9.07617
▁globali	-9.07625
▁Kif	-9.07677
rja	-9.07697
natura	-9.07785
war	-9.07972
ard	-9.07976
▁sostenibbli	-9.08026
aħħ	-9.08237
▁jis	-9.08276
TA	-9.08358
Parti	-9.08375
atti	-9.084
▁imsemmi	-9.08419
▁jinkludi	-9.08489
▁jagħti	-9.08508
kapital	-9.08624
▁ċivili	-9.08832
ħaddiema	-9.09124
▁April	-9.09143
ħtieġa	-9.09203
mudell	-9.09245
▁kkunsidrat	-9.09296
(4)	-9.09389
▁tipprovdi	-9.09484
uti	-9.09542
Is	-9.09551
edi	-9.09607
9/	-9.0962
għażla	-9.09635
persuni	-9.09653
▁ħin	-9.10051
proġett	-9.10092
▁biżżejjed	-9.10161
edukazzjoni	-9.10186
27	-9.10483
▁finanzjarju	-9.10536
Il	-9.10599
prinċipju	-9.106
dokumenti	-9.10668
każijiet	-9.10716
▁Ż	-9.10837
2010	-9.10846
26	-9.10937
▁Pro	-9.1096
servizz	-9.11031
ġġ	-9.1113
soċjetà	-9.11197
▁dejjem	-9.11491
▁użati	-9.11633
28	-9.11651
kejl	-9.11698
▁kollu	-9.11913
AT	-9.12054
29	-9.12236
▁minnhom	-9.12344
mira	-9.12392
2004	-9.12485
ista	-9.12506
esportazzjoni	-9.12599
għadd	-9.12699
kan	-9.1304
▁lura	-9.13043
investiment	-9.13241
sens	-9.13269
▁Settembru	-9.13344
kontribuzzjoni	-9.13366
effetti	-9.13395
▁mm	-9.13402
aturi	-9.13416
for	-9.13429
eżami	-9.13477
rit	-9.13516
▁emendat	-9.1362
▁+	-9.13664
aqq	-9.13722
▁mediċinali	-9.1397
▁jif	-9.13974
▁essenzjali	-9.14003
▁għalihom	-9.14029
▁tinkludi	-9.14107
▁perjodu	-9.14245
demm	-9.14287
▁ekonomiċi	-9.14426
tibdil	-9.14432
nd	-9.1457
impjiegi	-9.14592
▁nett	-9.14619
▁żieda	-9.14944
par	-9.15112
membri	-9.15147
ant	-9.15152
izzazzjoni	-9.15171
▁0.	-9.15173
ov	-9.15292
▁St	-9.15321
▁tagħti	-9.15337
▁data	-9.15341
trattament	-9.15348
dar	-9.15509
ġu	-9.15675
▁speċifika	-9.15792
anza	-9.15869
kull	-9.15873
stru	-9.15898
az	-9.15912
▁ċentrali	-9.15955
▁punt	-9.16064
ep	-9.16355
▁int	-9.16504
▁pajjiż	-9.16546
fond	-9.16565
politiki	-9.16749
▁żvilupp	-9.16821
ott	-9.16835
men	-9.17069
▁gwida	-9.17156
innovazzjoni	-9.17354
provvista	-9.17432
▁intern	-9.17435
▁ġdid	-9.17445
itajiet	-9.17453
benefiċċji	-9.17478
prinċipji	-9.17513
▁trid	-9.17583
add	-9.17833
aħjar	-9.17835
▁interessati	-9.18082
▁partijiet	-9.18133
▁Frar	-9.18137
talba	-9.18224
ekonomija	-9.18252
tan	-9.18306
gass	-9.18346
tfal	-9.18433
operazzjonijiet	-9.1853
arji	-9.18791
prestazzjoni	-9.18831
go	-9.18923
▁interess	-9.1893
▁bħall	-9.18957
RA	-9.18979
għarfien	-9.1913
effett	-9.19292
▁De	-9.19351
pressjoni	-9.19355
parteċipazzjoni	-9.19358
isp	-9.19541
▁kkunsidra	-9.19568
elettriku	-9.19569
▁regoli	-9.19644
pla	-9.19757
awtorizzazzjoni	-9.19822
kumpaniji	-9.19828
għar	-9.19891
kodiċi	-9.19892
▁attiva	-9.19908
▁għoli	-9.19942
ET	-9.19957
▁jagħtu	-9.20131
▁ħsara	-9.20396
ura	-9.20485
sib	-9.20517
territorju	-9.20565
ġa	-9.20594
ph	-9.20596
konsum	-9.20638
akkwist	-9.20801
▁Ġenerali	-9.20816
riżultat	-9.2085
▁għandek	-9.20861
▁stat	-9.20879
operaturi	-9.20971
applikant	-9.21008
tabib	-9.2107
kampjun	-9.21219
dik	-9.21222
etti	-9.21309
▁Ċ	-9.21345
▁soluzzjoni	-9.21376
▁Sa	-9.21516
000	-9.21706
▁trattament	-9.21712
programmi	-9.21912
▁anti	-9.21931
98	-9.2196
▁tistabbilixxi	-9.21992
pr	-9.21994
bini	-9.22189
▁valutazzjoni	-9.22308
missjoni	-9.22318
finijiet	-9.22354
Ġustizzja	-9.22387
zjoni	-9.22457
▁bid	-9.22688
▁taħriġ	-9.22721
▁imsemmija	-9.22761
▁deċiżjoni	-9.2282
AS	-9.2293
▁kellhom	-9.22943
▁jeħtieġ	-9.23077
vo	-9.23222
SA	-9.23401
▁2004	-9.23514
ola	-9.23759
iċ	-9.23796
volum	-9.23946
bar	-9.23979
jat	-9.23986
▁Uniti	-9.24035
inter	-9.24065
▁protezzjoni	-9.2412
Konvenzjoni	-9.2422
▁ekonomiku	-9.24285
▁bla	-9.24342
fet	-9.24459
nn	-9.24486
▁28	-9.24612
▁v	-9.24654
▁xahar	-9.24705
▁konformi	-9.2473
para	-9.24871
qrib	-9.24876
lat	-9.25003
torja	-9.2504
lum	-9.25166
▁sistemi	-9.2524
▁terz	-9.25412
▁akbar	-9.25506
persunal	-9.25545
Renju	-9.25556
raw	-9.25653
▁jagħmel	-9.25696
mezzi	-9.25756
Partijiet	-9.25982
▁2017	-9.26
65	-9.26023
▁Ta	-9.26028
▁elenkati	-9.26076
▁Fejn	-9.26163
ak	-9.26252
▁•	-9.26287
▁kreditu	-9.26323
kreditu	-9.26433
app	-9.26539
70	-9.26564
▁ik	-9.26573
rakkomandazzjoni	-9.26793
▁Z	-9.26861
tura	-9.26864
abbiltà	-9.26932
istituzzjoni	-9.26987
°	-9.27055
elementi	-9.27182
tras	-9.27251
▁ĠU	-9.27358
flus	-9.27379
▁adottati	-9.27435
netwerk	-9.27571
▁effett	-9.27588
bilità	-9.27614
▁subparagrafu	-9.27667
▁investiment	-9.27731
istat	-9.27797
żieda	-9.278
ħadd	-9.27946
▁jingħataw	-9.28003
kamp	-9.28028
▁bir	-9.2804
*	-9.28152
▁sustanzi	-9.28189
ttivi	-9.28213
▁diversi	-9.28221
għandux	-9.28294
02	-9.2841
kost	-9.28413
▁għan	-9.28457
effiċjenza	-9.28691
proporzjon	-9.28702
enzi	-9.28758
kri	-9.28849
▁indikat	-9.28861
karatteristiċi	-9.28888
Komunikazzjoni	-9.28981
responsabbiltà	-9.28987
▁tuża	-9.29024
ieħ	-9.29167
▁23	-9.29225
▁ġdida	-9.29275
▁Fi	-9.29466
-“	-9.29535
Bord	-9.29567
tru	-9.29675
▁jużaw	-9.29679
vers	-9.29726
▁jkollu	-9.29775
_	-9.29842
bel	-9.2985
IF	-9.29857
▁attivitajiet	-9.29897
▁22	-9.29923
Y	-9.29965
▁effettiv	-9.30056
wiċċ	-9.30075
▁għadd	-9.30285
diet	-9.30293
▁jid	-9.30371
▁tapplika	-9.30384
SE	-9.30488
▁Al	-9.30695
AL	-9.30805
Sur	-9.30807
▁ftehim	-9.30864
-31	-9.30877
▁normali	-9.30896
ŻEE	-9.30957
In	-9.31091
▁stipulati	-9.31191
limiti	-9.31215
kwistjoni	-9.31266
▁Unit	-9.31272
aġġ	-9.31482
▁Ri	-9.31492
yl	-9.31497
2005	-9.31506
attività	-9.31538
▁tim	-9.31635
Kapitolu	-9.31667
▁sħiħ	-9.31786
▁tis	-9.32093
▁Għa	-9.32216
ċertifikat	-9.32217
analiżi	-9.32273
▁studji	-9.32407
oriġini	-9.32444
▁ftit	-9.32483
ssi	-9.32522
▁naturali	-9.32557
fondi	-9.32592
38	-9.32592
▁adegwat	-9.32605
dikjarazzjoni	-9.32711
zja	-9.32732
serv	-9.32847
dew	-9.32885
ras	-9.3293
95	-9.33008
kriżi	-9.33247
jon	-9.33532
prop	-9.33769
▁baxx	-9.33837
Protokoll	-9.33973
▁talba	-9.34028
▁jiġifieri	-9.34058
▁bit	-9.34061
istandards	-9.34084
adozzjoni	-9.34088
iva	-9.3418
IL	-9.34206
kategoriji	-9.34237
obbligu	-9.34308
munita	-9.34324
EC	-9.34448
prova	-9.34495
90	-9.34497
qiegħ	-9.34615
ec	-9.34632
metodu	-9.34659
vel	-9.3469
▁Soċjali	-9.34706
▁ebda	-9.35047
ċċ	-9.35085
reġistrazzjoni	-9.35342
infrastruttura	-9.35387
▁jemenda	-9.35424
rispett	-9.35451
▁standard	-9.35451
▁għax	-9.35476
▁dejta	-9.35625
definizzjoni	-9.3571
▁Fir	-9.35885
mark	-9.35893
uni	-9.35915
▁kwistjonijiet	-9.35915
persuna	-9.35989
▁sigurtà	-9.36134
hu	-9.36162
daqs	-9.36168
rija	-9.36242
▁tul	-9.36253
investigazzjoni	-9.36464
koll	-9.36568
str	-9.36619
lok	-9.36705
▁jkollha	-9.3671
-19	-9.36785
dinja	-9.36827
▁sar	-9.36905
▁Mar	-9.37033
ġen	-9.3709
▁limitat	-9.37155
klassifikazzjoni	-9.3717
dawn	-9.37213
0%	-9.37233
pol	-9.37289
▁tintuża	-9.37307
▁tajjeb	-9.37361
suċċess	-9.37376
93	-9.37378
manifattur	-9.37445
pakkett	-9.37471
bet	-9.37502
▁ħa	-9.37506
Għ	-9.37506
▁miżjud	-9.37625
▁organizzazzjoni	-9.37865
▁tiżgura	-9.37869
ang	-9.37904
iz	-9.3792
▁jiss	-9.38004
▁massimu	-9.38095
deċiżjonijiet	-9.38179
den	-9.38219
▁sp	-9.38419
bastimenti	-9.38432
impjieg	-9.38468
arranġamenti	-9.38504
abbozz	-9.38509
ħsieb	-9.3876
▁żgħar	-9.38783
wal	-9.38785
▁jitqiesu	-9.38861
ivi	-9.38926
promozzjoni	-9.38938
SI	-9.38946
▁Co	-9.39084
▁tagħrif	-9.39104
evalwazzjoni	-9.39176
UN	-9.39176
MA	-9.39176
40	-9.39276
żjoni	-9.3929
▁uffiċjali	-9.39412
▁direttament	-9.39528
klima	-9.39579
OL	-9.39653
metodi	-9.39709
▁evitat	-9.39794
zzati	-9.39803
▁jaħdmu	-9.39863
regola	-9.39987
▁speċifiku	-9.40124
▁biljun	-9.40278
Taqsima	-9.40324
amministrazzjoni	-9.40408
lest	-9.4058
res	-9.4077
0/	-9.40805
poni	-9.40848
let	-9.40926
▁teknika	-9.41191
CE	-9.41298
sustanza	-9.41345
▁(“	-9.41652
▁tard	-9.41668
▁magħmula	-9.41681
▁effetti	-9.41716
▁tagħmir	-9.41923
paragrafi	-9.41929
taħriġ	-9.41941
▁medju	-9.42034
▁injezzjoni	-9.4205
é	-9.42072
PA	-9.42223
funzjoni	-9.42239
fin	-9.42241
▁Malta	-9.42298
NA	-9.42356
▁ikkonċernat	-9.42425
▁tajba	-9.42451
ipproċessar	-9.42512
▁daqs	-9.42534
kawża	-9.42541
abbli	-9.42557
axx	-9.42574
ftehim	-9.42628
▁maħsuba	-9.42641
diż	-9.42645
▁ko	-9.42749
kategorija	-9.42764
▁jridu	-9.42891
▁sħiħa	-9.42898
arr	-9.43021
▁approvat	-9.43086
▁Brussell	-9.43154
za	-9.43177
ens	-9.43192
▁rapport	-9.43211
popolazzjoni	-9.43213
kontijiet	-9.43229
▁proċedura	-9.43291
iċċ	-9.43323
▁26	-9.43413
▁medja	-9.43481
setturi	-9.43499
03	-9.43533
▁strumenti	-9.43586
komunikazzjoni	-9.43634
utenti	-9.43815
mediċina	-9.43839
▁Se	-9.4386
▁speċifikat	-9.43905
▁proġetti	-9.44232
ella	-9.44245
ten	-9.44344
▁saru	-9.44436
▁koperti	-9.44438
uża	-9.44443
banek	-9.44483
▁Biex	-9.44487
ħtiġijiet	-9.44492
▁jip	-9.44501
▁imma	-9.44584
▁per	-9.44623
▁effiċjenti	-9.44649
għod	-9.4466
tagħmir	-9.44738
ażi	-9.4476
▁ħlas	-9.44764
importanza	-9.44775
tqegħid	-9.44822
proprjetà	-9.44854
▁peress	-9.4498
▁qegħdin	-9.45017
Sigurtà	-9.45027
▁jieħu	-9.45117
▁wa	-9.45127
LI	-9.45201
EL	-9.45236
identifikazzjoni	-9.45264
tratt	-9.45404
▁Uffiċjali	-9.45548
valuri	-9.45587
RE	-9.456
▁partikolarment	-9.45687
▁stess	-9.45708
▁sew	-9.45717
▁Ra	-9.45754
anqas	-9.45927
▁jkunux	-9.45935
qalb	-9.4596
▁numru	-9.45963
Ċina	-9.46059
operatur	-9.46118
żgħażagħ	-9.46144
nies	-9.46183
fika	-9.46187
▁kooperazzjoni	-9.46219
OR	-9.46223
kro	-9.46256
fornituri	-9.46343
mel	-9.46353
età	-9.46399
konsumatur	-9.46436
fiċ	-9.46494
▁amministrattivi	-9.46505
testijiet	-9.46547
▁ekwivalenti	-9.46557
inizjattiva	-9.46603
96	-9.46675
ast	-9.46768
39	-9.46849
bra	-9.46856
merkanzija	-9.46886
IR	-9.46917
ordina	-9.46935
▁Pa	-9.47023
val	-9.47173
sett	-9.47256
ibbli	-9.47292
bank	-9.47309
JIET	-9.47333
evi	-9.47406
▁40	-9.47432
▁pożittiv	-9.4744
plika	-9.47466
▁privat	-9.47615
klassi	-9.47665
▁proposta	-9.47752
fen	-9.47771
reġjuni	-9.4783
xejn	-9.47845
istabbiliment	-9.47951
integrazzjoni	-9.47952
▁jsiru	-9.47955
▁Fuq	-9.48151
fwied	-9.4818
Pjan	-9.48182
land	-9.48217
manifattura	-9.48345
regolament	-9.48377
▁An	-9.484
Euro	-9.48448
▁tkunx	-9.48562
operazzjoni	-9.48565
ton	-9.48579
ben	-9.48599
▁preċedenti	-9.48639
▁pazjent	-9.48692
ann	-9.4875
-20	-9.48915
qorti	-9.48969
46	-9.49113
fażi	-9.49145
▁finanzjament	-9.49169
sentenza	-9.49264
għandhomx	-9.49307
baħar	-9.4933
jaw	-9.4938
attiv	-9.49391
▁trans	-9.4941
ħolqien	-9.49532
▁issa	-9.4966
Ġurnal	-9.4967
titjib	-9.4979
ven	-9.4989
▁Għaldaqstant	-9.49946
▁inkluża	-9.50007
▁Komuni	-9.50083
medja	-9.50114
▁effettiva	-9.5018
torji	-9.50376
rapporti	-9.50439
kap	-9.50467
▁potenzjali	-9.50473
¢	-9.50539
▁isir	-9.50566
joni	-9.50617
OM	-9.50667
▁sekondarji	-9.50678
Ġermanja	-9.50778
futur	-9.50784
rwol	-9.50849
▁siegħa	-9.50871
feri	-9.5091
teħid	-9.50919
ttiv	-9.50975
ġe	-9.51006
up	-9.51043
pru	-9.51049
unità	-9.51178
▁29	-9.51189
emendi	-9.51269
iskema	-9.51314
tejjeb	-9.5146
ordni	-9.51464
04	-9.51618
12.	-9.51661
Tabella	-9.51669
garanzija	-9.51719
triq	-9.51729
05	-9.51981
▁27	-9.51989
koordinazzjoni	-9.52052
lhom	-9.52065
iex	-9.52177
Grupp	-9.52183
▁ħlief	-9.52251
kulur	-9.52377
ajruport	-9.52418
▁ewlieni	-9.52425
dejn	-9.52461
objettivi	-9.52477
okk	-9.52483
▁jinsabu	-9.52489
60	-9.52498
impriża	-9.52607
ort	-9.52633
fattur	-9.52659
effikaċja	-9.52794
twettiq	-9.52863
nota	-9.52871
ID	-9.52876
Kodiċi	-9.52909
sors	-9.52919
▁proposti	-9.52927
▁professjonali	-9.53068
▁mhuwiex	-9.53105
▁nuqqas	-9.5311
attivi	-9.532
▁2002	-9.53231
bbiltà	-9.53257
2003	-9.53258
laqgħa	-9.5341
iskop	-9.53453
marka	-9.53583
moviment	-9.5364
▁[1]	-9.5368
ftehimiet	-9.5381
teknoloġija	-9.53829
pubbliku	-9.53847
▁indipendenti	-9.53852
▁2000	-9.53916
▁kwalità	-9.53941
oq	-9.5403
għall	-9.54053
▁qal	-9.54151
▁jippermetti	-9.54163
ċer	-9.54243
rita	-9.54338
benefiċċju	-9.5444
PE	-9.54492
istrumenti	-9.54546
MI	-9.54568
▁post	-9.5469
impenn	-9.54696
▁Ko	-9.54764
▁servizz	-9.54815
zi	-9.54825
2015	-9.54836
intrapriżi	-9.54898
enz	-9.5501
trasferiment	-9.55031
żejt	-9.55104
Gvern	-9.5511
tielet	-9.55164
dija	-9.55226
▁reali	-9.55434
suġġett	-9.55465
▁jiżgura	-9.5549
tim	-9.55499
49	-9.5551
75	-9.55531
jes	-9.5554
familja	-9.5558
▁proċeduri	-9.55669
▁dispożizzjoni	-9.55727
EM	-9.55789
importa	-9.55823
▁previsti	-9.55878
esti	-9.55945
▁studju	-9.55955
SMEs	-9.55992
mandat	-9.55994
kla	-9.56158
▁kbar	-9.5622
ċell	-9.56234
jet	-9.56256
▁60	-9.56262
▁Ċentrali	-9.56278
fur	-9.5631
bidliet	-9.56315
żż	-9.56337
▁jint	-9.56474
identifika	-9.56644
▁Mo	-9.56645
sid	-9.56657
interessi	-9.56678
IC	-9.56686
Att	-9.56726
limitu	-9.56778
47	-9.5684
▁jenħtieġ	-9.56893
liġijiet	-9.56897
06	-9.5693
pjanti	-9.56981
ammonti	-9.57005
vetturi	-9.57049
▁awtorizzat	-9.57058
iġġ	-9.57091
▁EU	-9.57124
Politika	-9.57148
etta	-9.5715
torju	-9.5715
aspetti	-9.57176
injezzjoni	-9.57213
aġ	-9.57376
▁pereżempju	-9.57439
eq	-9.5752
80	-9.57638
gvern	-9.57652
(5)	-9.578
▁kundizzjonijiet	-9.578
▁xogħol	-9.57846
firxa	-9.57855
▁għaż	-9.57862
komponenti	-9.57882
68	-9.5809
▁isiru	-9.58095
▁involuti	-9.58123
ġarr	-9.58127
eko	-9.58154
delega	-9.5817
▁integrat	-9.58178
log	-9.58186
qar	-9.58265
rabta	-9.58278
temperatura	-9.58367
▁kbira	-9.58382
▁Minħabba	-9.58476
pan	-9.585
miżura	-9.58509
tir	-9.58516
▁identifikati	-9.58541
rom	-9.58596
prevenzjoni	-9.58596
▁Di	-9.58646
%)	-9.58648
1999	-9.58689
iff	-9.58691
ħlas	-9.58822
▁stipulat	-9.58926
▁saret	-9.58955
▁grupp	-9.58976
▁2005	-9.5905
apparat	-9.59111
▁jippermettu	-9.59128
pubblikazzjoni	-9.59142
ġisem	-9.59188
ħeġġ	-9.59243
jin	-9.59252
▁użat	-9.59349
parteċipanti	-9.59465
ation	-9.59539
ħalib	-9.59583
kejjel	-9.59615
▁IL	-9.59622
fatturi	-9.59625
▁qafas	-9.59634
▁Parti	-9.59656
▁jittieħdu	-9.59687
kre	-9.5971
sub	-9.59719
disinn	-9.5972
▁kkonċernati	-9.59904
▁kbir	-9.59953
▁pillola	-9.60002
ren	-9.60025
isk	-9.60143
kbira	-9.60239
FE	-9.60255
92	-9.60282
▁sehem	-9.60284
reġjun	-9.60304
possibbiltà	-9.60317
marda	-9.60481
infurzar	-9.60624
monitoraġġ	-9.60713
▁Pre	-9.60732
▁IV	-9.60767
inhu	-9.60967
new	-9.61049
08	-9.61087
issa	-9.61119
eħ	-9.61265
istruttura	-9.61307
▁ġestjoni	-9.61361
ssa	-9.61368
vot	-9.61481
aċċ	-9.61515
vantaġġ	-9.61546
▁eċċ	-9.61687
proġetti	-9.61746
ret	-9.6175
▁mediċini	-9.6216
▁regolari	-9.62171
▁materjali	-9.62273
ħidma	-9.62283
▁każijiet	-9.62357
▁2018	-9.62365
ml	-9.62376
izzat	-9.62448
għat	-9.62577
▁analiżi	-9.62596
▁tippermetti	-9.62599
med	-9.62609
▁definit	-9.62638
prov	-9.62708
▁adottat	-9.62716
▁grad	-9.62719
▁awtorizzazzjoni	-9.62747
▁jibqgħu	-9.62769
tie	-9.62788
klijenti	-9.62867
dettalji	-9.62907
IP	-9.62938
nefqa	-9.6297
zzjon	-9.63043
bijo	-9.63049
pagamenti	-9.63111
ome	-9.63186
distribuzzjoni	-9.6319
kat	-9.632
ożi	-9.63215
opportunitajiet	-9.63241
▁jitqies	-9.63268
▁soġġetti	-9.63322
.1.	-9.63328
istudju	-9.63361
kis	-9.63365
var	-9.63405
fra	-9.6355
karta	-9.6357
▁malajr	-9.63609
88	-9.63631
▁Mhux	-9.63665
potenzjal	-9.63914
jan	-9.63976
tneħħija	-9.64066
▁standards	-9.64089
wit	-9.64151
ME	-9.64175
▁ġimgħa	-9.64284
▁vetturi	-9.64305
poli	-9.64421
▁għadhom	-9.6458
iktar	-9.64603
Sistema	-9.6464
▁żgurata	-9.64735
▁industrijali	-9.64798
ġbir	-9.64885
und	-9.65017
esperjenza	-9.65052
indirizz	-9.65074
▁jib	-9.65126
▁rakkomandat	-9.65128
oġġetti	-9.65366
dra	-9.65371
jen	-9.65497
pensjoni	-9.65517
end	-9.65616
biċċa	-9.65635
▁2003	-9.65766
allokazzjoni	-9.65903
total	-9.6591
9.	-9.65934
▁riċerka	-9.66008
09	-9.66055
▁ex	-9.66062
▁ħidma	-9.66094
ambitu	-9.66117
eġġ	-9.66181
negozjati	-9.66274
titoli	-9.66302
5%	-9.66319
del	-9.66376
NU	-9.66395
stika	-9.66423
36	-9.66468
58	-9.66475
▁doganali	-9.6656
inkluż	-9.66577
kell	-9.66579
▁tadotta	-9.666
jum	-9.66618
35	-9.66743
vol	-9.66743
massa	-9.66815
egħ	-9.66829
99	-9.66875
tarji	-9.669
▁Ar	-9.66924
▁[2]	-9.66939
perijodu	-9.66977
rji	-9.67042
Kap	-9.67078
▁tqis	-9.67079
▁ip	-9.67162
ega	-9.67347
magna	-9.67352
▁gruppi	-9.67373
reviżjoni	-9.67386
trattat	-9.6757
▁kg	-9.6759
▁liema	-9.67628
profitt	-9.67677
▁fondi	-9.67721
iżmu	-9.67745
mit	-9.67766
▁pilloli	-9.67766
▁bażiku	-9.67828
▁soġġett	-9.67896
verifika	-9.67961
emenda	-9.67974
▁Hija	-9.68033
▁eliġibbli	-9.68198
▁mard	-9.68249
▁pressjoni	-9.6825
▁segwit	-9.68328
-30	-9.68397
▁anqas	-9.68436
▁apparat	-9.68529
▁kliniċi	-9.68577
les	-9.6862
istrateġija	-9.68651
76	-9.68689
▁uġigħ	-9.68717
opp	-9.68732
kompli	-9.68895
fini	-9.68896
aċċetta	-9.68905
▁twil	-9.68928
▁90	-9.68939
ene	-9.69014
▁permess	-9.69034
2002	-9.69046
94	-9.69125
imp	-9.69136
unitajiet	-9.69155
Opinjoni	-9.69185
!	-9.69259
miss	-9.69308
terminu	-9.6932
appell	-9.69445
ster	-9.69478
jata	-9.6955
▁jirċievu	-9.69568
▁adotta	-9.69583
▁livelli	-9.69705
▁Min	-9.69719
▁31	-9.69844
rem	-9.69944
form	-9.69996
mun	-9.69997
▁sostitwit	-9.70013
kontrolli	-9.70049
CC	-9.70083
▁ibbażat	-9.70199
fjuwil	-9.70223
▁Huma	-9.70254
ixxu	-9.70422
format	-9.70442
▁Informazzjoni	-9.70506
JA	-9.70624
act	-9.70647
idejn	-9.70655
passiġġieri	-9.70685
▁ikollhom	-9.70691
▁iżjed	-9.70739
investimenti	-9.70841
▁materjal	-9.70892
▁of	-9.70897
▁mqabbel	-9.70903
▁assi	-9.70967
mikro	-9.71063
▁Fit	-9.7109
▁elettroniku	-9.71093
–	-9.71095
ner	-9.71106
▁fundamentali	-9.71141
▁Nazzjonali	-9.71142
▁temenda	-9.71373
78	-9.71443
metall	-9.71527
▁demm	-9.71573
telf	-9.71594
detentur	-9.71629
kundizzjoni	-9.71675
▁minbarra	-9.71685
differenza	-9.71772
inizjattivi	-9.71778
▁speċifikati	-9.71977
lingwa	-9.72097
07	-9.72103
lek	-9.72105
▁issir	-9.72111
unika	-9.72127
tranżazzjonijiet	-9.72204
kontribut	-9.72237
▁jidher	-9.72247
▁juru	-9.72317
tenti	-9.72324
▁ppubblikat	-9.72349
ħabb	-9.72412
adulti	-9.72462
sustanzi	-9.72682
▁jistabbilixxu	-9.72697
▁baxxa	-9.72707
83	-9.72712
self	-9.72719
▁minimi	-9.7274
ġlieda	-9.72913
▁fiskali	-9.72921
▁2001	-9.7306
fornitur	-9.73077
osta	-9.73103
EA	-9.73115
gar	-9.73163
AZZJONI	-9.73319
residenza	-9.73391
bol	-9.73394
▁Fid	-9.73395
▁monitoraġġ	-9.73421
ħarsien	-9.7345
teknoloġiji	-9.73548
▁programm	-9.73565
setgħa	-9.73582
fruntieri	-9.73661
/10	-9.737
zo	-9.7372
▁konġunt	-9.73807
elli	-9.73826
red	-9.73849
▁jissodisfaw	-9.73874
ogħla	-9.73923
▁problemi	-9.7393
eżenzjoni	-9.73997
ly	-9.74028
trasparenza	-9.74053
▁Internazzjonali	-9.74081
▁2020	-9.74086
▁programmi	-9.74152
iskambju	-9.74159
▁Għandu	-9.7418
▁membri	-9.74244
ink	-9.74342
73	-9.744
kum	-9.74411
kalkolu	-9.74469
▁turi	-9.74545
prattiki	-9.74589
▁favur	-9.74872
seb	-9.74977
▁jiżdied	-9.75033
individwi	-9.75121
organi	-9.75246
negozji	-9.7527
▁ħames	-9.75296
diversi	-9.75336
Iżvilupp	-9.75342
▁self	-9.75344
▁mistennija	-9.75395
▁applikati	-9.75424
+	-9.75426
domanda	-9.75428
miktub	-9.75641
87	-9.75665
▁rispettivament	-9.75678
▁raġunijiet	-9.75713
▁relatata	-9.75719
▁inizjali	-9.75784
Titolu	-9.75784
imgħax	-9.75818
riżoluzzjoni	-9.75842
▁Tra	-9.75844
uffiċjal	-9.75859
▁ġust	-9.75861
iskart	-9.75882
dro	-9.75893
irġiel	-9.75909
▁assoċjati	-9.76005
ħiliet	-9.76044
▁ġewwa	-9.76046
▁jibqa	-9.76075
kop	-9.76106
ġenti	-9.76108
der	-9.76128
Kon	-9.76171
▁tkopri	-9.76215
▁Iż	-9.76226
▁dirett	-9.76289
▁uniku	-9.76355
▁kienx	-9.76368
impriżi	-9.76401
▁sitt	-9.76482
rik	-9.765
spe	-9.76536
ġun	-9.76614
konnessjoni	-9.76616
▁80	-9.76628
▁previst	-9.76641
PI	-9.76644
▁atti	-9.7666
tagħlim	-9.76669
▁impatt	-9.76711
▁elettroniċi	-9.76777
dem	-9.76865
▁ksur	-9.76937
endi	-9.76947
influwenza	-9.76951
▁organizzat	-9.76962
▁No	-9.76972
ON	-9.77014
azzar	-9.77025
▁Dis	-9.77035
wer	-9.77104
kwa	-9.77159
▁Ji	-9.77239
▁pjan	-9.7725
riż	-9.77254
AD	-9.7728
tba	-9.77292
konferma	-9.7731
but	-9.77344
▁jistgħux	-9.77388
[	-9.77403
97	-9.77439
▁bbażati	-9.77461
▁minimu	-9.7747
▁multi	-9.7749
▁magħrufa	-9.77538
għalf	-9.77568
ST	-9.77714
kliewi	-9.77772
infużjoni	-9.77819
▁pagament	-9.77837
raf	-9.7784
▁kompletament	-9.77868
▁Franza	-9.77992
▁Komunitarja	-9.7816
RS	-9.78177
soluzzjoni	-9.78216
EUR	-9.78235
▁erba	-9.78261
▁telf	-9.78312
▁speċjalment	-9.78321
offerti	-9.7834
TFUE	-9.78343
zokkor	-9.78366
▁Gwida	-9.78388
▁korrett	-9.78412
DI	-9.78452
insulina	-9.78505
▁Str	-9.78513
netwerks	-9.78527
relazzjoni	-9.78598
Italja	-9.78624
arti	-9.78673
▁Bl	-9.78699
▁jirriżultaw	-9.78699
mekkaniżmu	-9.78733
ami	-9.78895
ull	-9.78902
deroga	-9.7893
▁konsultazzjoni	-9.78943
▁żgħir	-9.78955
▁preżenti	-9.79033
▁attivi	-9.79189
▁awto	-9.79319
pass	-9.79356
ase	-9.79372
dumping	-9.79373
(1)(	-9.79417
mezz	-9.79468
▁avversi	-9.79503
=	-9.79601
bili	-9.79631
interess	-9.79653
vent	-9.7969
▁Po	-9.7971
Malti	-9.79715
ħġieġ	-9.79793
djalogu	-9.7983
Uffiċċju	-9.79913
introduzzjoni	-9.7995
superviżjoni	-9.80109
▁jiżviluppaw	-9.80152
serva	-9.80186
bru	-9.80188
▁qasir	-9.80189
▁jistax	-9.80272
rju	-9.80343
kompiti	-9.80483
FI	-9.80622
▁orali	-9.80663
stiċi	-9.80734
rikonoxximent	-9.80736
▁komunikazzjoni	-9.80743
ittra	-9.80774
▁konsistenti	-9.80819
loġika	-9.80925
lingwi	-9.8096
▁rari	-9.80975
▁evidenza	-9.81025
ED	-9.81085
▁=	-9.81096
▁tabib	-9.81141
▁transkonfinali	-9.81196
medda	-9.81199
bidla	-9.81226
esperti	-9.81227
Suq	-9.81334
▁Me	-9.81356
▁tkompli	-9.81404
temm	-9.81456
jenti	-9.81475
▁tibda	-9.8156
fett	-9.81613
▁politiċi	-9.8169
▁Hemm	-9.81765
perjodi	-9.81776
▁magħruf	-9.81776
-15	-9.81905
PC	-9.81935
▁LI	-9.8195
kumitat	-9.81994
▁elettronika	-9.82016
ord	-9.82078
mien	-9.82136
▁For	-9.82189
dazju	-9.82279
▁35	-9.82303
▁€	-9.82313
zzazzjoni	-9.82369
▁fiċ	-9.82377
▁naħa	-9.82445
▁regolatorji	-9.82459
operat	-9.8246
IM	-9.82631
▁approċċ	-9.82655
▁jirriżulta	-9.8268
żo	-9.82706
fis	-9.82734
EU	-9.82842
▁Ro	-9.82887
ishma	-9.82902
ġurnata	-9.82942
▁mediċina	-9.82972
loġiċi	-9.83001
▁valur	-9.83011
▁tistax	-9.83019
▁ppreżentat	-9.83037
▁spejjeż	-9.83049
isforzi	-9.83068
▁adattat	-9.83092
liet	-9.83131
▁produzzjoni	-9.83164
▁attività	-9.83202
kwalifika	-9.83239
▁sever	-9.83259
▁aġġornat	-9.83266
tion	-9.83281
vjaġġ	-9.83305
konklużjonijiet	-9.8334
▁mistenni	-9.83369
karbonju	-9.83443
▁jmiss	-9.83463
▁membru	-9.8363
▁tipi	-9.83667
regolamenti	-9.83696
valida	-9.83795
▁annimali	-9.83983
kuntatt	-9.84033
ispeċi	-9.8415
oħrajn	-9.84187
pożizzjonijiet	-9.84193
▁000	-9.84212
tabella	-9.84252
67	-9.84268
▁bijo	-9.843
obb	-9.84307
▁evalwazzjoni	-9.84318
▁dħul	-9.84376
pat	-9.84465
▁lanqas	-9.84494
snin	-9.84507
ilment	-9.84513
▁mhijiex	-9.84592
riforma	-9.84669
34	-9.84684
▁għaċ	-9.84687
▁osservat	-9.84698
las	-9.84705
zzata	-9.84738
▁titqies	-9.8475
graf	-9.848
32	-9.8484
tħaddim	-9.84862
▁tiżdied	-9.84891
frekwenza	-9.84906
metri	-9.84953
▁konkluż	-9.84978
lett	-9.84978
far	-9.85005
▁kapaċi	-9.85096
tisħiħ	-9.85115
▁mqabbla	-9.85189
▁Gr	-9.85291
▁agrikoli	-9.85346
▁kumpaniji	-9.85445
(6)	-9.85476
impjegati	-9.85477
86	-9.85568
istudji	-9.85583
▁esterni	-9.85637
▁anki	-9.85644
▁reazzjonijiet	-9.85719
approċċ	-9.8572
33	-9.85832
▁proċess	-9.85858
xiri	-9.8592
▁San	-9.85922
ubi	-9.85945
▁kriminali	-9.8595
kliem	-9.86135
▁sub	-9.86148
▁hinn	-9.8634
entità	-9.86457
▁Ekonomiku	-9.86471
▁Ara	-9.86486
▁dovut	-9.86488
kg	-9.86513
tiv	-9.86551
▁diġitali	-9.86694
attiva	-9.86864
▁entitajiet	-9.86878
▁oriġinali	-9.86897
▁tmiem	-9.86906
▁tinsab	-9.8699
SS	-9.87091
▁klinika	-9.87247
▁għaliex	-9.87328
nomina	-9.87355
emp	-9.87358
dif	-9.87392
sħana	-9.87407
89	-9.87436
relazzjonijiet	-9.87595
forniment	-9.87665
▁bbażata	-9.87736
Liġi	-9.87882
Ministru	-9.87934
SO	-9.87966
CA	-9.88003
rappurtar	-9.88004
45	-9.88014
MP	-9.88048
▁relevanti	-9.88093
▁kellu	-9.88121
▁qiegħda	-9.88147
▁fiżika	-9.88203
▁jeħtieġu	-9.88256
EG	-9.88287
▁jogħġbok	-9.88344
oto	-9.88449
ħut	-9.88671
raġunijiet	-9.88689
▁estiż	-9.88697
lari	-9.88784
ġene	-9.88825
alità	-9.88859
▁Matul	-9.88884
ħass	-9.88888
rekwiżit	-9.88921
▁twettaq	-9.88931
miri	-9.8894
▁tittieħed	-9.88955
▁tibqa	-9.89021
kunsiderazzjoni	-9.89061
użi	-9.89111
▁Azzjoni	-9.89248
48	-9.89258
31	-9.89275
74	-9.89277
ulta	-9.89283
43	-9.89292
konklużjoni	-9.893
▁nofs	-9.89343
sess	-9.89373
▁sustanza	-9.89387
konċentrazzjoni	-9.89508
ġodda	-9.89531
gen	-9.89635
▁sotto	-9.89651
ċertifikazzjoni	-9.8971
indikaturi	-9.89742
▁ġimgħat	-9.89759
▁miksija	-9.89849
-2020	-9.89874
▁provi	-9.89878
sotto	-9.8989
▁riżorsi	-9.89916
▁verifika	-9.89955
kompetittività	-9.89967
konsultazzjoni	-9.9003
Funzjonament	-9.90096
AP	-9.90119
▁Bħala	-9.90146
▁trab	-9.90165
ram	-9.90168
tensjoni	-9.90183
Servizz	-9.90259
▁ġejja	-9.90261
▁Data	-9.9028
impenji	-9.90287
LU	-9.90292
top	-9.90375
▁twassal	-9.90386
intervent	-9.90428
ftuħ	-9.90538
ċerti	-9.90554
ross	-9.90634
trab	-9.90673
oma	-9.90705
fużjoni	-9.90729
▁deċiżjonijiet	-9.90742
OS	-9.90944
pri	-9.90991
maġġoranza	-9.91018
karti	-9.91098
talbiet	-9.91107
dju	-9.91142
▁qiegħed	-9.91256
ifika	-9.91281
▁(2)	-9.91308
poġġ	-9.91435
prattika	-9.91461
▁«	-9.91495
lan	-9.91519
liċenzja	-9.91545
▁maħsub	-9.9161
▁bidla	-9.91617
▁preġudizzju	-9.91678
prijoritajiet	-9.91713
▁jintlaħqu	-9.91787
▁jaħ	-9.91807
DA	-9.91827
kopertura	-9.91866
traffiku	-9.92006
ero	-9.92031
11.	-9.92036
qal	-9.92045
sehem	-9.92132
59	-9.92145
▁implimentat	-9.92167
▁jaf	-9.92167
SD	-9.92196
▁għand	-9.92235
proċedimenti	-9.92246
ev	-9.92264
gal	-9.92294
▁indirett	-9.92352
▁45	-9.92389
ħoss	-9.92394
nifs	-9.92429
kors	-9.92445
▁għajr	-9.92469
Irlanda	-9.92547
jun	-9.9256
vu	-9.92572
DE	-9.92577
oġġett	-9.92585
Affarijiet	-9.92589
▁Tal	-9.9275
▁miż	-9.92769
depożit	-9.92817
Drittijiet	-9.92953
▁ijiem	-9.92988
infezzjoni	-9.93025
▁stmat	-9.93041
▁kumpens	-9.93056
Enerġija	-9.93089
ċikl	-9.93265
premessa	-9.9332
entitajiet	-9.93422
▁magħmul	-9.93423
▁mogħti	-9.93543
VAT	-9.93619
▁Billi	-9.93744
aqwa	-9.93898
▁pprovduti	-9.93901
sej	-9.93911
preżentazzjoni	-9.9392
ħas	-9.93971
eva	-9.94006
waqqaf	-9.94015
kwistjonijiet	-9.94225
▁bħalissa	-9.9423
▁juri	-9.94332
▁Inter	-9.94364
▁sostanzjali	-9.94505
assoċjazzjoni	-9.94599
kompetenza	-9.94633
▁piż	-9.94671
ry	-9.94791
tħassib	-9.94807
siringa	-9.94867
bastiment	-9.94888
nju	-9.94913
nija	-9.94933
MM	-9.94996
▁Qafas	-9.95007
ħalq	-9.95018
ġenerazzjoni	-9.95134
▁sempliċi	-9.95179
preparazzjoni	-9.95196
radju	-9.95267
▁miżura	-9.95307
twaqqif	-9.95353
▁skart	-9.95484
▁kulturali	-9.9556
kuntratti	-9.95597
setgħat	-9.95637
sinjal	-9.957
raġuni	-9.95708
trażmissjoni	-9.95763
għid	-9.95842
jaqsmu	-9.95956
fajl	-9.95997
ifikazzjoni	-9.95997
▁allokat	-9.96079
▁mimlija	-9.96087
▁jitlob	-9.96088
ċità	-9.96125
funzjonament	-9.96131
-2010	-9.96156
ium	-9.96196
otti	-9.96228
▁limitata	-9.9625
restrizzjonijiet	-9.96264
▁tfal	-9.96275
serje	-9.96302
▁baxxi	-9.96308
Linji	-9.96329
niċi	-9.96351
oġen	-9.96379
▁magni	-9.96436
sħubija	-9.96562
atturi	-9.96627
lbu	-9.96661
MO	-9.9668
vini	-9.96705
mekkaniżmi	-9.96747
▁ugwali	-9.96792
tagħrif	-9.9684
▁75	-9.9689
▁aġġustament	-9.9696
▁attiv	-9.96996
sim	-9.97051
forom	-9.97122
▁interni	-9.97139
▁leġiżlattiv	-9.97171
kaw	-9.972
▁armonizzat	-9.97234
gruppi	-9.97249
indeboliment	-9.97322
▁Com	-9.97352
nar	-9.97367
rappreżentanti	-9.97425
deskrizzjoni	-9.97473
lement	-9.97552
tipi	-9.97609
TE	-9.97679
................	-9.97684
Franċiż	-9.97696
▁meħuda	-9.97702
▁adottata	-9.97786
lab	-9.97797
fas	-9.97799
▁ammont	-9.97808
▁strument	-9.97991
▁dikjarazzjoni	-9.97991
viżjoni	-9.98005
▁[3]	-9.98035
ispeċifikazzjoni	-9.98143
TT	-9.98146
▁jidħol	-9.98152
negozja	-9.98189
ħlasijiet	-9.9823
ust	-9.98257
impjant	-9.98259
internet	-9.98274
taħlita	-9.98295
▁flus	-9.98303
tikketta	-9.98313
▁irid	-9.98316
▁rreġistrat	-9.98359
▁32	-9.98391
ristrutturar	-9.98405
▁assoċjat	-9.98432
ieg	-9.98468
▁Bo	-9.985
FA	-9.98501
veloċità	-9.98573
▁komprensiv	-9.98591
▁taħdem	-9.98594
▁juża	-9.98702
laqgħat	-9.98737
▁żviluppati	-9.98779
AC	-9.98783
ħol	-9.98803
eżerċizzju	-9.98816
▁tekniku	-9.98861
ica	-9.98892
benefiċjarji	-9.98897
▁miċ	-9.98901
▁kuntratti	-9.9893
▁jidhru	-9.98951
ċirkostanzi	-9.98969
titjir	-9.98992
▁tiss	-9.99016
77	-9.99067
mor	-9.99099
▁aħna	-9.99141
faċilitajiet	-9.99193
▁jgħin	-9.99194
sorveljanza	-9.99211
iga	-9.99244
▁rwol	-9.99249
estensjoni	-9.99268
91	-9.9928
minn	-9.99321
▁Filwaqt	-9.99325
▁jippre	-9.99331
▁kollox	-9.99381
taqsima	-9.99387
▁pprovduta	-9.9944
▁36	-9.99456
▁identifikat	-9.9949
▁Spanja	-9.99535
kali	-9.99571
tliet	-9.99586
kwota	-9.99588
tariffi	-9.99608
kummenti	-9.99632
▁jaqgħu	-9.9964
Pro	-9.99649
kultura	-9.99692
PESK	-9.99712
100	-9.99714
ulazzjoni	-9.99774
▁anke	-9.99798
▁dożi	-9.99848
ittestjar	-9.99859
inklużjoni	-9.99876
▁Awwissu	-9.99903
85	-9.9999
▁Ru	-9.99991
pjanijiet	-10.0005
plastik	-10.0006
▁implimentati	-10.001
Istrateġija	-10.001
com	-10.0028
▁permanenti	-10.0029
plażma	-10.0036
raba	-10.0041
▁tirr	-10.0042
▁jgħinu	-10.0042
71	-10.005
▁jqis	-10.0054
▁entità	-10.0055
anja	-10.0058
Karta	-10.0061
Regoli	-10.0065
▁deskritt	-10.0065
▁massima	-10.0065
▁tif	-10.0066
%	-10.0067
▁mhix	-10.0068
ġin	-10.0074
▁żdied	-10.0076
viżi	-10.0078
hemmx	-10.0081
stra	-10.0087
▁awtorizzati	-10.0087
▁qatt	-10.0087
▁terapija	-10.0089
▁kompetittiv	-10.009
mutur	-10.0092
▁emendata	-10.0092
ite	-10.0093
▁kuntatt	-10.0096
▁espress	-10.01
▁kkunsidrati	-10.0113
proċessi	-10.0116
ċiklu	-10.0125
▁85	-10.0131
kumpens	-10.0132
▁privati	-10.0147
▁eċċessiva	-10.0149
maniġġ	-10.0151
kwoti	-10.0151
-2008	-10.0154
parteċipa	-10.0161
▁prima	-10.0161
▁jikkunsidra	-10.0182
manifatturi	-10.0191
▁ġeneralment	-10.0195
AM	-10.0195
▁ġol	-10.0196
▁online	-10.0206
▁evalwat	-10.0212
sjoni	-10.0213
▁prattika	-10.0216
▁strutturali	-10.022
PS	-10.0221
▁titjib	-10.0226
sejħa	-10.0234
laħ	-10.024
▁tkabbir	-10.0243
GĦA	-10.0246
▁jittieħed	-10.0255
manutenzjoni	-10.0265
▁raġonevoli	-10.0266
postijiet	-10.027
▁jaħdem	-10.0273
69	-10.0274
proposti	-10.0275
tek	-10.0279
jonali	-10.0282
▁Mill	-10.0287
▁definiti	-10.0296
segwi	-10.0298
argument	-10.0299
▁33	-10.0302
rap	-10.0305
determina	-10.0305
injam	-10.0308
ple	-10.0324
▁jirre	-10.0326
istrument	-10.0328
off	-10.0332
kanċer	-10.0344
problema	-10.0348
▁suġġetti	-10.0349
▁if	-10.0363
ez	-10.0364
▁bosta	-10.0365
▁negattiv	-10.0367
ezza	-10.0368
▁kotba	-10.0371
Reġjun	-10.0383
laħam	-10.0386
approprjazzjoni	-10.0391
▁ħażin	-10.0396
ċertifikati	-10.0397
kwi	-10.04
pjega	-10.0403
▁Tel	-10.0406
konsulta	-10.042
jenza	-10.0432
▁sorveljanza	-10.0434
arma	-10.0434
▁għalih	-10.0435
▁indirizzati	-10.0453
direzzjoni	-10.0455
żamma	-10.046
mija	-10.0462
lus	-10.0464
▁serji	-10.0467
referenza	-10.047
▁inkorporat	-10.047
NI	-10.0471
▁jikkonformaw	-10.0472
▁suffiċjenti	-10.0472
▁miksuba	-10.0475
▁Iċ	-10.0482
▁suġġett	-10.0489
aġenziji	-10.05
tifsira	-10.0501
▁amministrattiva	-10.0502
MS	-10.0502
tre	-10.0503
ener	-10.0511
▁propost	-10.0512
kunċett	-10.0516
negozjar	-10.0517
erija	-10.0518
mal	-10.0523
▁għadu	-10.0524
RO	-10.0526
▁għandhiex	-10.053
OP	-10.0532
inċentiv	-10.0534
▁200	-10.0534
▁normalment	-10.0537
neħħi	-10.0539
Direttur	-10.0539
▁investigazzjoni	-10.054
ippro	-10.0557
▁Y	-10.0557
sħiħ	-10.0561
funzjonijiet	-10.0563
▁34	-10.0568
▁eżaminat	-10.0578
▁jikkawża	-10.0578
AB	-10.0579
Kummerċ	-10.0582
materjal	-10.0584
▁miftuħa	-10.0587
▁tgħin	-10.0589
▁mingħand	-10.0589
▁determinat	-10.0593
aċidu	-10.0601
▁jinkiseb	-10.061
▁jidħlu	-10.0611
▁limitu	-10.0612
44	-10.0616
logħob	-10.0617
▁jżid	-10.0618
invest	-10.0627
PRO	-10.063
pos	-10.0634
▁jikkontribwixxu	-10.0637
▁konċentrazzjoni	-10.0637
addittiv	-10.0638
▁jirri	-10.0645
ped	-10.0653
sostenn	-10.0656
tnejn	-10.0663
jonijiet	-10.0672
▁minnufih	-10.0676
hy	-10.0678
formula	-10.0679
▁illegali	-10.0679
ect	-10.0684
emerġenza	-10.0687
▁jappoġġja	-10.0693
eċċezzjoni	-10.0694
isfidi	-10.0694
governanza	-10.0703
‘	-10.0723
KU	-10.0725
jer	-10.0727
tell	-10.0731
istatus	-10.0733
ħad	-10.0737
bord	-10.0747
twelid	-10.0749
Riċerka	-10.075
imsieħba	-10.0751
▁jwassal	-10.0753
▁Ne	-10.0753
▁ikk	-10.0755
vaċċin	-10.0756
▁konċernat	-10.0759
esponiment	-10.0759
libertà	-10.0759
amina	-10.076
Viċi	-10.076
▁48	-10.0768
tħejjija	-10.0773
▁ippreżentat	-10.0775
irkupru	-10.0776
▁relatat	-10.0784
▁parir	-10.0784
inċident	-10.0785
▁Sp	-10.0785
ung	-10.0788
org	-10.0791
▁esperjenza	-10.0792
diskriminazzjoni	-10.0796
37	-10.08
eżekuzzjoni	-10.0801
▁adatt	-10.0804
79	-10.0805
▁ewlenija	-10.0807
▁jitwettqu	-10.0808
fuljett	-10.0809
intestatura	-10.0826
kur	-10.0831
▁jintlaħaq	-10.0833
għaj	-10.0833
Greċja	-10.0834
siti	-10.0844
▁Konġunt	-10.0844
sis	-10.0846
▁reviżjoni	-10.0847
▁attenzjoni	-10.0852
▁jinsab	-10.0856
▁prijorità	-10.0859
ZZJONI	-10.086
▁ċertu	-10.0871
▁faċli	-10.0872
BĊN	-10.0872
▁qbil	-10.0876
▁37	-10.0881
che	-10.0886
▁dewmien	-10.0895
▁Pr	-10.0914
kostruzzjoni	-10.0916
XX	-10.0919
▁jaffettwaw	-10.0922
▁teħtieġ	-10.0924
ger	-10.0933
▁sorsi	-10.0933
utent	-10.0936
pubblika	-10.0952
prim	-10.0955
finanzja	-10.0967
differenzi	-10.0971
▁Per	-10.0971
mplifika	-10.0974
▁diffiċli	-10.0977
▁jirrigwarda	-10.0979
▁ikollu	-10.0988
ġija	-10.099
ting	-10.0991
mess	-10.0991
Direttivi	-10.0992
Proċedura	-10.0992
ESS	-10.0994
KON	-10.0997
CON	-10.0998
▁trasferiment	-10.1
▁kellha	-10.1001
eżerċita	-10.1004
websajt	-10.1021
▁madankollu	-10.1023
ċelluli	-10.1025
▁jissodisfa	-10.1026
ċentru	-10.1034
attenzjoni	-10.1035
tagħbija	-10.1035
profil	-10.1036
SC	-10.1039
▁formali	-10.1042
grad	-10.1042
leġislazzjoni	-10.1042
kump	-10.1052
ilmijiet	-10.1053
ċelloli	-10.1058
kwantitajiet	-10.1059
ole	-10.1068
▁titlob	-10.1081
azzjon	-10.1089
▁tirċievi	-10.1092
frott	-10.1093
▁1.1	-10.1096
istituzzjonali	-10.1096
alkoħol	-10.1097
pine	-10.1107
pir	-10.1107
jja	-10.1108
▁Rapport	-10.1108
paġna	-10.1108
indikazzjoni	-10.1115
anness	-10.1116
għażliet	-10.1119
dimensjoni	-10.1119
▁joriġinaw	-10.1128
▁ulterjuri	-10.113
▁Dawk	-10.1139
▁assistenza	-10.114
emo	-10.1145
fabbrika	-10.1148
▁inkwistjoni	-10.1153
▁żviluppat	-10.1154
▁wisq	-10.1173
ritorn	-10.1175
▁wiesgħa	-10.1176
▁Fis	-10.1186
▁kopert	-10.1188
▁sintomi	-10.1195
▁Xi	-10.1214
▁perijodu	-10.1216
▁fiżiċi	-10.1224
▁ingħata	-10.1225
▁notifikat	-10.1226
▁jikkonċernaw	-10.1227
▁spiss	-10.1236
għad	-10.1236
sodisfa	-10.1238
periklu	-10.124
▁kkonċernat	-10.1243
pond	-10.1244
tmexxija	-10.1248
diskussjoni	-10.1253
▁msemmi	-10.1254
▁VI	-10.1269
alternattivi	-10.1269
▁Għandha	-10.1271
▁rivedut	-10.1274
pur	-10.1286
Appendiċi	-10.129
▁the	-10.13
garanziji	-10.1314
▁uniformi	-10.1314
fluss	-10.1315
ġdida	-10.1317
għodod	-10.1318
tmiem	-10.1327
▁aċċettat	-10.1329
▁co	-10.133
għeluq	-10.1331
▁Finanzjarju	-10.1331
▁sentejn	-10.1335
▁kunjett	-10.1335
▁kważi	-10.1335
fiduċja	-10.1336
pet	-10.1336
▁komp	-10.134
▁proprji	-10.134
preżenza	-10.1341
riet	-10.1345
▁ċara	-10.1347
▁mix	-10.1347
▁xulxin	-10.1347
orn	-10.135
revoka	-10.136
cy	-10.1362
aġent	-10.1362
▁qawwi	-10.1363
▁300	-10.1368
nzi	-10.1371
zzat	-10.1376
age	-10.1379
materja	-10.138
passi	-10.1383
opinjonijiet	-10.1383
Żona	-10.1385
▁impriżi	-10.1386
logħba	-10.1392
Ewro	-10.1394
bla	-10.1398
▁nukleari	-10.1411
mard	-10.1419
ttiva	-10.1421
Polonja	-10.1424
hydro	-10.1426
▁magħhom	-10.1427
▁trasparenti	-10.1429
PR	-10.1432
▁strett	-10.1435
▁osservati	-10.1438
iegħ	-10.1444
komponent	-10.1451
reġistru	-10.1451
▁indirizzat	-10.1454
sitwazzjonijiet	-10.1454
organizza	-10.146
direttiva	-10.1464
xogħlijiet	-10.1466
▁applikat	-10.147
CR	-10.1483
▁effettivi	-10.1489
opportunità	-10.1493
▁CYP	-10.1497
klor	-10.1497
fittex	-10.1519
Assoċjazzjoni	-10.1519
objettiv	-10.1525
▁diretti	-10.1525
▁Qabel	-10.153
PP	-10.1531
▁plaċebo	-10.1534
▁qawwija	-10.154
karozzi	-10.1545
sider	-10.1546
▁Euratom	-10.1546
armi	-10.1549
europa	-10.1552
▁rurali	-10.1552
web	-10.1564
fehma	-10.1565
▁jagħ	-10.1567
esportatur	-10.1576
problemi	-10.158
kostijiet	-10.1582
faċilità	-10.1587
affarijiet	-10.1588
▁jrid	-10.1592
TO	-10.1594
enja	-10.1594
Saħħa	-10.1597
qies	-10.1599
▁tnaqqas	-10.1603
▁jibda	-10.1608
biegħ	-10.161
qawwa	-10.1613
ibr	-10.1616
▁Komunitarju	-10.1617
materjali	-10.1621
BA	-10.1623
tilqim	-10.1624
▁jiżdiedu	-10.1624
▁statistika	-10.1629
Użu	-10.1636
verti	-10.164
Ambjent	-10.1652
▁darbtejn	-10.1654
Investiment	-10.166
▁jikkon	-10.1666
EX	-10.1667
▁tiegħi	-10.1672
▁eżempju	-10.1675
avveniment	-10.168
JI	-10.169
▁jikk	-10.1692
▁Prodotti	-10.1694
▁esklużi	-10.1699
our	-10.17
rej	-10.1715
Organizzazzjoni	-10.1716
oċċ	-10.1719
gassijiet	-10.1723
▁preċiż	-10.176
klassifika	-10.1767
investituri	-10.1767
▁Mon	-10.1767
Belġju	-10.1769
produttur	-10.1772
kwantità	-10.1773
Amerika	-10.1779
▁jinbidel	-10.1798
dokumentazzjoni	-10.1807
tfassil	-10.1808
▁IU	-10.1814
van	-10.1815
humiex	-10.1815
terapija	-10.1816
▁kollettiv	-10.1816
assistenza	-10.1821
Prodott	-10.1823
verżjoni	-10.1828
migrazzjoni	-10.1835
2000	-10.1845
ħżin	-10.1846
▁maħdum	-10.1846
offerta	-10.1849
▁1).	-10.1851
stiku	-10.1853
▁tidħol	-10.1861
▁Minn	-10.1865
osservazzjoni	-10.1867
walment	-10.187
projbizzjoni	-10.1877
▁jidde	-10.1886
bżonn	-10.189
frutt	-10.1891
▁affettwat	-10.1901
adeżjoni	-10.1901
▁domestiċi	-10.1906
▁rispons	-10.191
▁jitnaqqas	-10.1912
eżistenza	-10.1923
▁500	-10.1926
prospett	-10.1926
▁mitluba	-10.1928
metru	-10.1928
▁3.1	-10.1931
dazji	-10.194
VI	-10.1944
ALI	-10.1947
ħażna	-10.1951
▁prevista	-10.1952
▁korrispondenti	-10.1956
▁għalkemm	-10.1958
▁introdott	-10.1958
▁kapitali	-10.1961
▁użata	-10.1962
▁iqis	-10.1972
CAS	-10.1976
▁jinvolvu	-10.1986
fol	-10.1986
raġġ	-10.1987
▁għaliha	-10.1988
istatistika	-10.1989
rav	-10.1996
posta	-10.2012
ċentri	-10.2013
out	-10.2016
PO	-10.2016
obbligazzjoni	-10.2017
▁jiksbu	-10.2024
don	-10.2039
▁150	-10.204
ppreżenta	-10.2041
▁jinżammu	-10.2043
diviżjoni	-10.2047
uss	-10.2051
por	-10.206
Manifattur	-10.2062
sof	-10.2072
rilaxx	-10.2077
▁qab	-10.2077
▁minkejja	-10.2089
Danimarka	-10.2094
KA	-10.2102
▁sussegwenti	-10.2114
▁imposti	-10.2116
▁[...]	-10.2123
sulf	-10.2125
▁Fin	-10.2127
FC	-10.2128
ispiża	-10.2136
▁ippubblikat	-10.215
over	-10.215
▁dettaljati	-10.2151
skriv	-10.216
▁Għandhom	-10.2164
▁ghal	-10.2174
Eurosistema	-10.2181
derivat	-10.2188
▁għadha	-10.2198
▁jiffaċilita	-10.2206
jaqsam	-10.2218
▁neċessarju	-10.2232
▁kinux	-10.2232
Rapport	-10.2242
▁kontinwa	-10.2242
adatta	-10.2244
▁tippreżenta	-10.2246
TRA	-10.2247
għal	-10.2267
IE	-10.2267
▁av	-10.2272
nett	-10.2272
karburant	-10.2273
klijent	-10.2277
fjamma	-10.2296
kambju	-10.2299
flu	-10.2309
▁kkalkulat	-10.2311
▁Minkejja	-10.2313
66	-10.2317
dawk	-10.2318
forza	-10.2319
theddid	-10.2321
▁kkontrollat	-10.2325
riżerva	-10.2331
2017	-10.2334
ġeni	-10.2345
ħafna	-10.2347
Awstrija	-10.2347
RU	-10.2352
▁Komp	-10.2353
▁sodisfatt	-10.2363
▁immedjatament	-10.2363
għam	-10.2364
installazzjoni	-10.2369
bħal	-10.2371
▁ipprovdut	-10.2373
▁Ltd	-10.2375
Ċentru	-10.2375
akbar	-10.2377
▁regolatorja	-10.2378
▁par	-10.2389
▁Numru	-10.239
espożizzjoni	-10.2392
evol	-10.2395
kapaċitajiet	-10.2399
▁ġuridika	-10.24
▁Hu	-10.2403
▁partikulari	-10.2404
▁interna	-10.2406
rett	-10.2408
aġġustament	-10.2409
▁Ċiniż	-10.2412
▁Iżda	-10.2433
emija	-10.2435
▁moderat	-10.2435
ajt	-10.244
▁spezzjoni	-10.2441
▁rinnovabbli	-10.2442
trop	-10.2446
ance	-10.2455
tarju	-10.246
▁umani	-10.2461
▁maħruġa	-10.2469
▁jist	-10.247
▁iridu	-10.2477
▁operazzjonali	-10.2478
komplet	-10.2483
▁kontraenti	-10.2491
Art	-10.2493
▁joffru	-10.2493
▁Kar	-10.2493
Kooperazzjoni	-10.2499
▁perikoluż	-10.2506
Malta	-10.251
determinazzjoni	-10.251
▁speċi	-10.2524
▁Par	-10.2524
metil	-10.2526
▁tikkunsidra	-10.2533
denominazzjoni	-10.254
▁mbagħad	-10.2553
uffiċċju	-10.2556
stat	-10.256
▁regolat	-10.2573
Ingliż	-10.2575
HIV	-10.2578
55	-10.2587
▁jinstab	-10.2592
Mediterran	-10.2593
▁jirrappreżentaw	-10.2594
ong	-10.2599
ċertezza	-10.26
benefiċjarju	-10.2608
▁rrappurtat	-10.2612
rekord	-10.2628
Kontroll	-10.2629
formola	-10.2632
▁kompatibbli	-10.2635
istruzzjonijiet	-10.265
sessjoni	-10.2655
line	-10.2655
IA	-10.2657
▁jixtieq	-10.2657
▁massimi	-10.2658
reg	-10.2658
liċenzji	-10.266
trade	-10.2663
PL	-10.2673
tant	-10.2673
gram	-10.2681
għajn	-10.2689
▁44	-10.2695
rikonoxxut	-10.2711
▁marbutin	-10.272
evalwa	-10.272
▁politiku	-10.2725
CH	-10.2726
reġim	-10.2727
▁jwasslu	-10.2739
ġel	-10.274
▁Magħmul	-10.2741
ingrossa	-10.2749
għandhiex	-10.2755
▁tidher	-10.2757
▁ifisser	-10.2764
avviż	-10.2768
▁neċessarji	-10.2773
▁bażiċi	-10.2778
erja	-10.2779
▁54	-10.2784
Rakkomandazzjoni	-10.2797
formazzjoni	-10.2799
PAK	-10.2811
(7)	-10.2813
▁mixtieq	-10.2815
▁kurrenti	-10.2823
firma	-10.2825
paċi	-10.2828
con	-10.2831
EF	-10.2831
▁56	-10.2833
kompjuter	-10.2835
Lvant	-10.2843
▁Pazjenti	-10.2851
rappreżentant	-10.2854
AG	-10.2858
▁alfa	-10.2866
inbid	-10.2868
tejbu	-10.2883
ano	-10.2895
waqt	-10.2896
diffikultajiet	-10.2896
riformi	-10.2898
▁jinkisbu	-10.2899
▁Permezz	-10.2909
://	-10.2922
suppliment	-10.2922
VA	-10.2922
tribu	-10.2923
kunsens	-10.2924
▁mono	-10.2925
▁applikata	-10.2928
migranti	-10.2928
Dokument	-10.293
Għajnuna	-10.2943
ispazju	-10.2944
kontroparti	-10.2944
&	-10.2957
Internet	-10.2964
▁skambju	-10.2964
labra	-10.2966
▁[4]	-10.2967
pit	-10.2971
gwa	-10.2972
ispezzjoni	-10.2977
▁renali	-10.2982
▁eċċessiv	-10.2982
Protezzjoni	-10.2984
▁84	-10.2985
solv	-10.2994
limitazzjoni	-10.2995
▁strateġija	-10.2997
ħsara	-10.2999
▁jitnaqqsu	-10.3003
aktarx	-10.3003
qligħ	-10.3005
hem	-10.3006
parametri	-10.3011
▁darbiet	-10.3014
▁stabbli	-10.3021
▁Aktar	-10.3021
▁ddeterminat	-10.3021
idro	-10.3021
ISO	-10.3022
▁kkonċernata	-10.3032
tessuti	-10.3032
▁tipproponi	-10.3035
disk	-10.3038
TC	-10.3044
▁2.1	-10.3052
Afrika	-10.3053
▁Governattiv	-10.3068
Sħubija	-10.3078
tiva	-10.3079
UL	-10.3083
minbarra	-10.3084
▁mwettqa	-10.3092
▁kkurati	-10.3094
▁tinżamm	-10.3096
▁jgħid	-10.3112
Indja	-10.3117
▁protetti	-10.3121
press	-10.3127
▁sforz	-10.3136
ġimgħa	-10.3138
▁esterna	-10.314
▁approvati	-10.3142
▁sikur	-10.3143
▁modifikat	-10.3143
▁skala	-10.3145
Sajd	-10.3149
▁drabi	-10.3152
konsegwenzi	-10.3154
anal	-10.3158
▁jitolbu	-10.3162
esklużjoni	-10.3169
▁jistipula	-10.3175
▁provdut	-10.3182
ċittadin	-10.3183
saħħithom	-10.3184
▁107	-10.3193
entement	-10.3193
pazjent	-10.3194
▁deċiż	-10.3197
▁infurmat	-10.32
taxxi	-10.3205
▁separata	-10.3206
1998	-10.3214
▁jeżistu	-10.3217
▁bħalma	-10.322
istabbiltà	-10.322
▁wħud	-10.3221
faqar	-10.3232
bajd	-10.3233
koeżjoni	-10.3233
”).	-10.3249
▁vvalutat	-10.3252
▁ngħataw	-10.3257
▁Speċjali	-10.3258
▁jimplimentaw	-10.3263
▁minflok	-10.3263
jj	-10.3268
▁magħżula	-10.327
sħab	-10.327
/12	-10.3286
vista	-10.3288
inġenji	-10.3288
ġurisdizzjoni	-10.3296
▁sigħat	-10.3297
▁Peress	-10.3298
▁joħolqu	-10.3299
nuqqasijiet	-10.33
▁joperaw	-10.33
▁kuntrattwali	-10.3306
▁Komunitarji	-10.3307
soċj	-10.3312
▁ħaġa	-10.3313
Kummissarju	-10.3314
▁serju	-10.3325
indika	-10.3332
▁64	-10.3334
ġer	-10.3336
▁rispettivi	-10.3336
kkredita	-10.3337
agg	-10.3338
sezzjoni	-10.3341
▁42	-10.3349
pons	-10.3352
▁4.2	-10.3353
▁Eżekuttiv	-10.3356
triċi	-10.3361
fibri	-10.3363
▁wera	-10.3363
OT	-10.3364
katina	-10.3366
irtirar	-10.3367
solvent	-10.3368
Punt	-10.3373
▁skemi	-10.3384
ester	-10.3385
▁operattivi	-10.3389
vina	-10.3389
likwidità	-10.3399
▁parzjali	-10.3403
▁akkumpanjat	-10.341
▁għaldaqstant	-10.3414
▁ppreżentati	-10.3416
▁jibdew	-10.3417
erba	-10.3418
▁għoljin	-10.3419
kin	-10.3421
▁konġunta	-10.3423
▁ferm	-10.3424
▁tikseb	-10.3428
ġejjieni	-10.343
ksur	-10.3431
▁amministrattiv	-10.3436
Pajjiżi	-10.3436
sbu	-10.3437
▁ġo	-10.3438
▁vs	-10.3444
armonizzazzjoni	-10.3452
Baħar	-10.3457
▁Free	-10.346
▁jibbenefikaw	-10.3461
▁aġġustat	-10.3463
għajnejn	-10.3467
▁52	-10.3478
▁Ekonomika	-10.3478
roti	-10.3485
pakketti	-10.3494
avjazzjoni	-10.3495
qtugħ	-10.3497
▁jipparteċipaw	-10.3497
ved	-10.3499
▁ikollok	-10.3504
▁tiżviluppa	-10.3504
Netwerk	-10.3509
hand	-10.3509
Dikjarazzjoni	-10.3514
ewwa	-10.3515
▁miftuħ	-10.3515
▁tissodisfa	-10.3523
▁intitolat	-10.3526
oloġija	-10.3532
awditjar	-10.3542
tariffa	-10.3545
▁jilħqu	-10.3547
fit	-10.3551
interpretazzjoni	-10.3556
▁sinjali	-10.3573
reġistra	-10.3579
0)	-10.3585
EE	-10.3585
▁jwettqu	-10.3587
jiġifieri	-10.3588
UR	-10.3589
tranżazzjoni	-10.3591
ġustizzja	-10.3596
fruntiera	-10.3597
2.5	-10.3598
CT	-10.3599
NO	-10.36
nomi	-10.3604
produ	-10.361
▁kkon	-10.362
daħħal	-10.3624
▁toħloq	-10.3628
▁ibbażata	-10.363
iskemi	-10.3631
tqala	-10.3633
▁acid	-10.3633
▁domestiku	-10.3637
▁kontinwu	-10.3638
▁http	-10.3639
pereżempju	-10.3642
illa	-10.3649
involviment	-10.3651
▁kruċjali	-10.3659
▁temporanja	-10.3663
mument	-10.3668
kaxxa	-10.3675
▁tikkontribwixxi	-10.3678
jn	-10.3684
attakk	-10.3685
pul	-10.3686
▁liberu	-10.3691
▁Uniku	-10.3699
Proposta	-10.3699
preżent	-10.3703
▁55	-10.3705
▁soluzzjonijiet	-10.371
▁Konġunta	-10.3717
HA	-10.3718
ieħor	-10.3718
▁43	-10.3719
Nazzjonijiet	-10.3719
▁enfasizza	-10.3728
infiq	-10.3735
▁jitħalla	-10.3737
▁marbut	-10.3738
tossiċità	-10.3739
▁jindirizzaw	-10.374
twa	-10.3745
▁miżmuma	-10.3749
abilità	-10.3751
US	-10.3754
ġni	-10.3765
referenzi	-10.3765
▁onlajn	-10.3778
▁ħielsa	-10.3781
▁assenjat	-10.3785
imnut	-10.38
qsim	-10.3801
ETT	-10.3803
▁jikkontribwixxi	-10.3805
▁Schengen	-10.3808
emittent	-10.3809
part	-10.3809
virus	-10.3812
kompetenzi	-10.3818
▁ngħata	-10.3818
tema	-10.382
matika	-10.3824
▁ikbar	-10.3829
tom	-10.3831
kwe	-10.3832
kontenitur	-10.3836
labora	-10.384
▁Kien	-10.3841
▁medika	-10.3844
inibitur	-10.3845
JONI	-10.3852
toroq	-10.3852
klieb	-10.386
▁parzjalment	-10.3869
▁definittiv	-10.3873
ity	-10.3885
▁ġeografika	-10.3888
istampa	-10.3888
sospensjoni	-10.3891
▁preliminari	-10.3895
ieqa	-10.3896
/2001	-10.3898
verifiki	-10.3916
mewt	-10.3926
▁negattivi	-10.3931
▁Paper	-10.3937
BB	-10.3938
▁xorta	-10.3942
metodoloġija	-10.395
ewro	-10.3952
▁Kontraenti	-10.3954
▁ħadu	-10.3959
▁esportaturi	-10.3959
▁joħorġu	-10.3962
flussi	-10.3966
kulari	-10.397
▁jipproduċu	-10.3984
ister	-10.3986
brejk	-10.3987
▁5.1	-10.4005
▁involut	-10.4012
▁jix	-10.4032
▁meqjusa	-10.4038
▁separati	-10.404
vin	-10.4041
vapur	-10.4053
abbi	-10.4059
mistoqsijiet	-10.4063
Ir	-10.4082
▁kampjuni	-10.4082
▁diretta	-10.4086
dati	-10.4091
awrina	-10.4091
▁jaġixxi	-10.4096
lev	-10.4096
EFTA	-10.4107
spira	-10.411
▁sodium	-10.4114
▁prinċipalment	-10.4115
motiv	-10.4122
▁tindika	-10.4126
▁minuta	-10.4135
▁regolatorju	-10.4143
▁serra	-10.4148
olu	-10.416
zju	-10.4173
ħares	-10.4178
▁xjentifika	-10.4179
Portugall	-10.4183
▁jiddeċiedi	-10.4183
kummerċjalizz	-10.4184
aġenda	-10.4187
kbar	-10.4191
Lussemburgu	-10.4195
▁Or	-10.4196
iskadenza	-10.4197
responsabbilta	-10.4198
▁Delega	-10.42
tixrid	-10.4204
muniti	-10.4208
▁jħassar	-10.4211
kkonklud	-10.4211
▁tinkiseb	-10.4212
qrati	-10.4214
sie	-10.4216
▁kliniku	-10.4229
IKA	-10.423
▁Man	-10.4232
JU	-10.4232
▁ħieles	-10.4238
kunflitt	-10.4244
▁reċiproku	-10.4244
validità	-10.4244
▁kompost	-10.4247
semmi	-10.4247
Valutazzjoni	-10.425
▁jappoġġa	-10.425
▁jinħa	-10.4252
reat	-10.4253
kard	-10.4257
▁fosthom	-10.426
Rumanija	-10.4261
▁spjegat	-10.4261
reżistenza	-10.4262
imkien	-10.4263
▁deskritti	-10.4272
messaġġ	-10.4275
▁nhar	-10.4289
Klassi	-10.4291
▁aċċessibbli	-10.4296
swa	-10.4297
Trasport	-10.4299
xahar	-10.4304
aġġornament	-10.4309
▁tirriżulta	-10.4318
▁Mingħajr	-10.4321
▁toħroġ	-10.4322
elettro	-10.4323
gwida	-10.4323
▁studjat	-10.4329
vis	-10.433
effettività	-10.4332
▁avvanzat	-10.4345
intenzjoni	-10.4347
djar	-10.4349
BE	-10.4351
fakkar	-10.4351
Awdituri	-10.4363
frodi	-10.4364
ħadid	-10.4364
▁Jista	-10.4377
IK	-10.4377
paga	-10.4377
sten	-10.4378
▁kulħadd	-10.438
kamra	-10.4391
Prim	-10.4391
super	-10.4398
magni	-10.4408
nes	-10.4427
fikat	-10.4429
kolonna	-10.4433
▁dettaljata	-10.4436
▁bbażat	-10.4442
Komunitajiet	-10.4443
▁tikkonċerna	-10.4447
▁intra	-10.4453
▁konkret	-10.4453
▁Waqt	-10.4467
dotta	-10.447
difiża	-10.4485
fergħa	-10.4486
alternattiva	-10.4486
żin	-10.4486
kisba	-10.4489
▁tiddeċiedi	-10.4494
▁futuri	-10.4499
▁monetarja	-10.4514
▁element	-10.4522
(2)(	-10.4528
▁militari	-10.4537
▁favorevoli	-10.454
▁VII	-10.4548
elezzjoni	-10.4564
Ministeru	-10.4567
▁avvenimenti	-10.4569
RD	-10.4572
faċilita	-10.4575
provvediment	-10.4576
▁effikaċi	-10.4602
82/	-10.4604
www	-10.4605
blokk	-10.4606
low	-10.4606
agrikoltura	-10.4609
traduzzjoni	-10.4619
xjenza	-10.4629
adattament	-10.4629
own	-10.463
▁innovattivi	-10.4636
ICT	-10.4641
▁tmur	-10.465
Ikel	-10.4652
tilwim	-10.4652
▁Post	-10.4665
▁jindika	-10.4666
Ungerija	-10.4667
▁inkella	-10.4669
ġiċi	-10.4669
indikazzjonijiet	-10.4681
PDG	-10.4686
001	-10.4686
domin	-10.4692
▁skopijiet	-10.4696
rapportar	-10.4697
jetà	-10.4698
tweġiba	-10.4721
▁FUQ	-10.4722
ispiżjar	-10.4727
falliment	-10.4733
anzjani	-10.4738
aluminju	-10.474
“	-10.4742
ugwaljanza	-10.4746
▁jinżamm	-10.4753
ostakli	-10.476
kwalifiki	-10.4762
▁eċċezzjonali	-10.4762
identità	-10.4769
▁immedjat	-10.4777
numri	-10.4779
modifika	-10.4783
etil	-10.4784
▁irreġistrat	-10.4787
ejjaħ	-10.4798
vv	-10.4798
kombinazzjoni	-10.4809
▁apposta	-10.4811
▁Kwalunkwe	-10.4815
xaħam	-10.4818
▁barranin	-10.4821
▁kinitx	-10.4822
bilita	-10.4829
▁tindirizza	-10.4833
▁mibdul	-10.4834
kompeti	-10.4835
que	-10.4836
immaniġġjar	-10.4838
▁abbord	-10.484
ħtieġ	-10.4846
▁bilaterali	-10.4847
nofs	-10.4849
▁offrut	-10.4853
▁Abbozz	-10.4856
▁jaġixxu	-10.4856
▁tqal	-10.4865
bdiewa	-10.4868
▁GĦALL	-10.4878
Xogħol	-10.4881
▁tradizzjonali	-10.4886
▁mobbli	-10.4888
ssu	-10.4891
Impjieg	-10.4896
ħames	-10.4911
▁ddikjarat	-10.492
▁garantit	-10.492
▁urban	-10.4922
Bulgarija	-10.4923
KK	-10.4928
rispons	-10.4941
laboratorju	-10.4942
▁ristrett	-10.4943
▁leġislattiv	-10.4948
▁Intern	-10.495
SU	-10.4974
▁jippreżenta	-10.4984
legat	-10.4988
intervall	-10.4989
▁jadotta	-10.4995
III	-10.4999
▁jindikaw	-10.5003
▁reċenti	-10.5007
▁espert	-10.5009
ossidu	-10.5015
▁ħafif	-10.5022
▁żżomm	-10.5027
▁kieku	-10.5028
▁jinnota	-10.5029
igi	-10.5038
▁Servizzi	-10.5042
disponibbiltà	-10.5045
▁meħud	-10.5053
▁rrapportat	-10.5054
oxx	-10.5055
▁territorjali	-10.5057
sottomett	-10.5057
▁reġistrat	-10.5058
konsolidat	-10.5058
▁jikkostitwixxu	-10.506
▁Għalkemm	-10.5063
▁iwettqu	-10.5065
aga	-10.507
mobilità	-10.5072
Livell	-10.5077
dibattitu	-10.5084
▁protett	-10.5085
▁stadju	-10.5092
gvernijiet	-10.5096
sensittività	-10.5096
Kroazja	-10.5099
viża	-10.5111
▁jkopri	-10.5111
▁jenfasizza	-10.5117
Arċisqof	-10.512
▁jippreżentaw	-10.5132
seba	-10.5145
▁sigur	-10.5151
DC	-10.5153
pinna	-10.5154
dożi	-10.5166
▁ikkunsidrat	-10.5173
somma	-10.5173
▁miegħu	-10.518
▁Alla	-10.518
aspett	-10.5193
sostituzzjoni	-10.5195
Ġermaniż	-10.5195
pagament	-10.52
European	-10.5207
▁agrikola	-10.5208
▁miġbura	-10.5211
▁Imp	-10.5212
AUC	-10.5216
huwiex	-10.5218
▁Għoli	-10.5229
▁XI	-10.5231
hemm	-10.5233
inċiż	-10.5237
rifjut	-10.5238
żjara	-10.524
abbuż	-10.5243
▁serja	-10.5251
dożaġġ	-10.5258
perċentwal	-10.5263
RPĊ	-10.5265
▁rrakkomandat	-10.5265
▁joffri	-10.5269
Ent	-10.527
prijorit	-10.5271
segwitu	-10.5283
▁Ass	-10.5286
distanza	-10.5289
pjattaforma	-10.5306
ffa	-10.5311
Norveġja	-10.5316
gran	-10.5319
FR	-10.5337
▁maħtur	-10.5338
▁4.1	-10.5341
settorjali	-10.5347
à	-10.5349
▁ipo	-10.5351
ixxa	-10.5355
▁epi	-10.536
vidjo	-10.536
▁kkawżat	-10.5364
▁setgħu	-10.5369
2018	-10.5376
makkinarju	-10.5376
sejbiet	-10.5381
koperazzjoni	-10.5383
ippjanar	-10.5384
aġenzija	-10.54
IST	-10.5405
▁nominali	-10.5407
għotja	-10.5408
▁jgħaddi	-10.5412
▁tix	-10.5414
▁jilqa	-10.5416
aggregat	-10.5417
twissija	-10.5417
”),	-10.5423
▁Abbażi	-10.5431
strat	-10.544
▁tilħaq	-10.5441
▁imbagħad	-10.5442
tlaq	-10.5444
konverżjoni	-10.5445
kartun	-10.545
derivattivi	-10.5452
roga	-10.5456
3%	-10.5459
▁diskuss	-10.546
▁skema	-10.547
Segretarju	-10.5474
▁3.2	-10.5475
▁komplut	-10.5478
suf	-10.5483
Riżoluzzjoni	-10.5486
mill	-10.5494
ċirkolazzjoni	-10.5507
qgħad	-10.551
ash	-10.5517
Finlandja	-10.5523
▁eżatt	-10.5531
veterinarju	-10.5538
▁Disturbi	-10.5538
▁eskluż	-10.5545
▁utli	-10.5552
▁jaqbeż	-10.5564
▁ġustifikat	-10.5565
▁VIII	-10.5565
▁żejda	-10.5572
▁estern	-10.5574
▁rikonoxxuti	-10.5575
▁ħaj	-10.5575
▁analizzat	-10.5577
tassazzjoni	-10.5585
sostenibbiltà	-10.5599
tranżizzjoni	-10.5602
Latvja	-10.5604
▁Reġjonali	-10.561
IŻ	-10.561
passat	-10.561
daqqa	-10.5617
sodju	-10.5623
tjur	-10.5624
Kategorija	-10.5647
xorb	-10.565
▁joħroġ	-10.565
bandiera	-10.566
▁neċessarja	-10.5666
▁suppost	-10.5669
suspett	-10.567
▁jikkonsisti	-10.5671
już	-10.5676
▁minima	-10.5676
viċin	-10.5677
▁tinbidel	-10.5682
muskoli	-10.569
▁jinforma	-10.5701
titolu	-10.5704
▁assigurat	-10.5708
umab	-10.5709
1%	-10.5716
▁tippromwovi	-10.5716
▁infezzjonijiet	-10.5717
▁terġa	-10.572
sanzjonijiet	-10.5723
▁2019	-10.5729
▁promoss	-10.5729
▁magħluq	-10.5732
▁jirċievi	-10.5734
▁400	-10.5737
ekwità	-10.5738
▁jaqblu	-10.5748
destinazzjoni	-10.5751
▁edukattiv	-10.5752
baxx	-10.5752
għadam	-10.5764
marġni	-10.5767
▁jirregolaw	-10.5779
▁frisk	-10.5781
enfasi	-10.5785
Korp	-10.5785
▁Minbarra	-10.5791
korsijiet	-10.5795
irrispettivament	-10.5799
bnedmin	-10.5802
2%	-10.5811
korrezzjoni	-10.5813
soltu	-10.5815
seduta	-10.5837
▁stabbiliment	-10.5856
▁esklussiv	-10.5858
entrata	-10.586
tisħin	-10.5862
▁jinvolvi	-10.5863
varjabbli	-10.5864
tqassim	-10.5872
▁130	-10.5874
Ajru	-10.5897
vittmi	-10.5899
▁Tista	-10.5899
▁jadottaw	-10.5904
Rappreżentant	-10.5905
▁iper	-10.5913
istadju	-10.5913
għandek	-10.5918
sommarju	-10.5919
komunità	-10.5921
madwar	-10.5921
sewwieq	-10.5924
awtur	-10.5924
▁ruħhom	-10.5927
-2016	-10.5928
impjegat	-10.5932
▁tajbin	-10.5932
0000	-10.5935
▁faċilment	-10.5942
▁konness	-10.5942
fanal	-10.5946
bogħod	-10.5946
quddiem	-10.5953
▁gross	-10.5953
▁pur	-10.5958
assorbiment	-10.5975
▁affidabbli	-10.5978
▁skop	-10.5978
▁mediku	-10.5978
irrifjuta	-10.5981
▁attwalment	-10.5985
esplora	-10.599
navigazzjoni	-10.5993
▁jirrappreżenta	-10.5995
5).	-10.5999
▁jżommu	-10.6
TTIV	-10.6011
Rekwiżit	-10.6019
▁ikkontrollat	-10.6048
ritonavir	-10.606
Sinjura	-10.6068
għotjiet	-10.6071
▁jgħixu	-10.6073
▁stampat	-10.6082
likwidu	-10.6092
▁mnaqqsa	-10.6095
evidenza	-10.6104
rikors	-10.611
uff	-10.6114
▁konsiderevoli	-10.6115
asil	-10.6127
Ġimgħa	-10.6132
Taljan	-10.614
▁jispeċifika	-10.614
Linja	-10.614
diversità	-10.6143
▁jkopru	-10.6147
bqija	-10.6147
konsegwenza	-10.6152
Turkija	-10.6154
▁delegati	-10.6159
Konferenza	-10.6164
passaġġ	-10.6164
vul	-10.6167
bliet	-10.6189
Istituzzjoni	-10.6189
konsistenza	-10.6194
irċev	-10.6201
Presidenza	-10.6203
moħħ	-10.621
▁jwettaq	-10.6216
▁2.2	-10.6223
sottomissjoni	-10.6224
qosor	-10.6226
▁jippromwovu	-10.623
valuta	-10.6234
▁temporanju	-10.6237
serum	-10.6248
▁għaddej	-10.6252
hiex	-10.6253
▁jammonta	-10.6255
▁tinnota	-10.6261
sewqan	-10.6266
▁jżomm	-10.6268
91/	-10.6273
TUR	-10.6285
siġill	-10.6292
dmirijiet	-10.6294
9%	-10.6323
.”;	-10.6325
▁Effetti	-10.6325
tinib	-10.6328
ġenituri	-10.633
ivvjaġġar	-10.6332
dijabete	-10.6332
▁jaffettwa	-10.6335
kapsuli	-10.6336
▁joħloq	-10.6337
▁restrittivi	-10.6337
kambja	-10.6345
diffikultà	-10.6348
▁jeħ	-10.635
EST	-10.636
▁abjad	-10.6363
istandard	-10.6365
▁Tagħrif	-10.637
▁250	-10.6372
ħamrija	-10.6381
ċirkustanzi	-10.6382
ock	-10.6386
ħla	-10.6389
▁intelliġenti	-10.6391
bżonnijiet	-10.6393
▁proporzjonat	-10.6402
CV	-10.6414
▁tinvolvi	-10.6415
portafoll	-10.642
▁sesswali	-10.642
xagħar	-10.6422
Slovakk	-10.6424
paragun	-10.6429
▁probabbli	-10.6431
kompożizzjoni	-10.6432
stin	-10.6434
▁għamlu	-10.6452
7%	-10.6453
▁għaxar	-10.6457
▁66	-10.646
▁taffettwa	-10.6471
kollateral	-10.6472
Mediċini	-10.6472
liga	-10.6476
1997	-10.6479
▁jirrapporta	-10.6484
▁korporattiv	-10.6518
▁żejjed	-10.6523
fran	-10.6523
jalment	-10.653
▁jnaqqsu	-10.6531
restrizzjoni	-10.6533
▁tikkonsisti	-10.6537
▁stima	-10.654
▁akut	-10.6543
▁impost	-10.6551
tikkettar	-10.6553
▁jipprevedi	-10.6553
TEN	-10.6555
▁waħdu	-10.6556
▁ttrattati	-10.6559
▁Dak	-10.6569
▁medji	-10.6575
ismijiet	-10.6576
Ombudsman	-10.6576
GĦ	-10.6578
tifla	-10.6582
konsenja	-10.6584
CRR	-10.6587
▁jkollok	-10.659
▁Aħna	-10.659
trombo	-10.659
▁irrappurtat	-10.6597
▁assolut	-10.6599
acquis	-10.6606
depożitu	-10.6608
4%	-10.6611
kriterju	-10.6632
▁jikkonċerna	-10.6634
▁mgħammra	-10.6652
▁Deskrizzjoni	-10.6657
Punent	-10.667
professjonisti	-10.6677
▁vinkolanti	-10.6678
professjoni	-10.668
insuffiċjenza	-10.6687
▁skadenza	-10.6691
Istatut	-10.6693
Sistemi	-10.6694
intrapriża	-10.6703
▁[5]	-10.6703
temp	-10.6706
titlu	-10.6708
folji	-10.6711
oloġiku	-10.672
mediċini	-10.6721
ight	-10.6723
▁sensittiv	-10.6725
▁New	-10.6734
▁iseħħ	-10.6736
▁jimplimenta	-10.6737
▁jemmen	-10.6739
industriji	-10.6744
żidiet	-10.6745
▁iddikjarat	-10.6755
▁600	-10.6756
▁4.3	-10.6763
konsiderazzjoni	-10.6767
▁Test	-10.6768
▁kklassifikat	-10.6769
tniġġis	-10.6775
▁meqjus	-10.678
▁ġudizzjarja	-10.6784
tluq	-10.6791
▁miksub	-10.6793
.10.20	-10.6795
Aġenda	-10.6798
ħila	-10.6802
2001	-10.6815
proporzjonalità	-10.6829
BEI	-10.6837
▁Shipping	-10.6838
kawżi	-10.684
konservazzjoni	-10.6842
portijiet	-10.6849
▁wiesa	-10.6853
Ġestjoni	-10.6854
abba	-10.6859
libera	-10.686
▁imsejħa	-10.6863
▁preskritt	-10.6865
Estonja	-10.687
Innovazzjoni	-10.6881
▁jgħaddu	-10.6882
mobbiltà	-10.6882
wiss	-10.6885
▁jerġa	-10.6885
defiċit	-10.6891
▁1.2	-10.6895
▁appoġġjat	-10.6916
▁mibgħut	-10.6925
▁pendenti	-10.6929
finanzi	-10.694
▁primarjament	-10.6942
IJA	-10.6955
▁magħmulin	-10.6955
▁kumplessi	-10.6958
▁tikkostitwixxi	-10.6958
(8)	-10.6969
qagħda	-10.6971
tifel	-10.6982
iskeda	-10.6995
qoton	-10.7
▁żżid	-10.7004
.2.1	-10.7009
▁5.2	-10.7012
ENTI	-10.702
eliminazzjoni	-10.7025
▁ripetut	-10.7028
▁ħalli	-10.7029
perspettiva	-10.7029
▁jitwettaq	-10.7029
1995	-10.7042
terroriżmu	-10.7059
6%	-10.7074
territorji	-10.7077
edded	-10.7078
Russja	-10.709
Bniedem	-10.7098
▁protettiv	-10.7098
▁legalment	-10.7109
▁wrew	-10.7113
sintomi	-10.7116
iswed	-10.7117
▁vulnerabbli	-10.7118
▁għamlet	-10.7124
Univers	-10.7128
▁kkonfermat	-10.7128
olla	-10.7137
egi	-10.7139
▁ġuridiċi	-10.7141
waqqfu	-10.7144
▁tissaħħaħ	-10.7148
▁pprovdut	-10.7157
▁riċenti	-10.7157
etika	-10.7169
0.5	-10.7174
inċidenza	-10.7176
▁obbligat	-10.7178
kriminalità	-10.7179
▁għamel	-10.7181
salvagwardja	-10.7182
▁umana	-10.7183
kunjett	-10.7193
okkupa	-10.7196
mhux	-10.72
▁magħha	-10.7201
Litwanja	-10.7204
indipendenza	-10.7225
▁operattiva	-10.7229
maniġer	-10.7231
▁Trans	-10.7231
bieb	-10.7242
▁Ċivili	-10.7247
▁Pereżempju	-10.7249
ingredjent	-10.7253
kandidat	-10.7256
▁superviżorji	-10.7259
▁Ċeka	-10.7261
tendenza	-10.7263
▁ospitanti	-10.7266
ller	-10.729
▁investigat	-10.7293
▁urġenti	-10.7301
▁jnaqqas	-10.7304
▁koerenti	-10.7304
▁toffri	-10.731
għamla	-10.7314
input	-10.7317
nkoraġġ	-10.7318
▁jiddependi	-10.7325
▁titwettaq	-10.7327
debitur	-10.7335
Sezzjoni	-10.7342
▁timplimenta	-10.7344
Tmexxija	-10.7346
▁jillimita	-10.7355
1996	-10.7361
▁xjentifiċi	-10.7367
arranġament	-10.738
▁ffaċilitat	-10.7382
indiċi	-10.7428
nom	-10.7433
bejjiegħ	-10.7439
▁jikkostitwixxi	-10.7445
kolari	-10.7445
conazole	-10.7451
ditti	-10.7452
park	-10.7456
▁Skond	-10.7472
▁kmieni	-10.7474
▁minerali	-10.7476
▁Teva	-10.7478
infrastrutturi	-10.7482
ċifri	-10.749
8%	-10.7503
▁vverifikat	-10.7503
▁Jenħtieġ	-10.7516
familji	-10.7518
rakkomanda	-10.7536
epatite	-10.7538
tabakk	-10.7544
▁nnotifikat	-10.7545
organiżmi	-10.7545
Green	-10.7551
▁jassigura	-10.7561
manteniment	-10.7567
▁Pla	-10.7572
imġiba	-10.7573
▁titnaqqas	-10.7573
▁mfassla	-10.7574
maturità	-10.7578
MENT	-10.7583
applika	-10.7589
▁ġeografiċi	-10.7592
1994	-10.7596
Edukazzjoni	-10.7598
telefon	-10.76
iskola	-10.7603
rotta	-10.7615
distorsjoni	-10.7615
▁tirreferi	-10.7615
▁jerġgħu	-10.7619
▁iżgħar	-10.7626
▁orizzontali	-10.7627
▁Attiv	-10.7632
Slovenja	-10.7635
etajiet	-10.7641
istudenti	-10.7643
kontabilità	-10.7644
▁tqila	-10.7649
▁jinbidlu	-10.7655
passiv	-10.767
▁flessibbli	-10.7676
sussidji	-10.7682
▁jiddaħħal	-10.7683
▁setgħet	-10.7686
lejl	-10.7686
inġenju	-10.7688
residwi	-10.7694
Nofsinhar	-10.7708
▁iddefinit	-10.7708
premessi	-10.7708
Dejta	-10.7709
▁multipli	-10.7709
komplement	-10.7712
▁ddefinit	-10.7714
Impriża	-10.7714
Sena	-10.7731
▁1.5	-10.7737
▁Lisbona	-10.7737
Kawża	-10.7738
ħatra	-10.7738
taħlitiet	-10.7756
▁kopja	-10.7761
duttur	-10.7772
▁varji	-10.778
Membri	-10.7786
naqqas	-10.7787
Global	-10.7789
▁jilħaq	-10.7791
tumur	-10.7792
ixk	-10.78
▁ikollha	-10.7803
waqfien	-10.7805
▁jonqos	-10.7819
▁sostnut	-10.7855
niżżel	-10.7865
aċċident	-10.7878
▁jikkontrolla	-10.7882
▁Miżuri	-10.7883
annimal	-10.7897
diżabilità	-10.79
▁jinħolqu	-10.7901
▁skeda	-10.7905
tenzjoni	-10.7915
Aċċess	-10.7916
Tkabbir	-10.7925
solidarjetà	-10.7927
istokk	-10.7928
▁nistgħu	-10.7931
dettall	-10.7935
▁Kotba	-10.7941
▁jivvaluta	-10.7947
ħnieżer	-10.7949
▁Jeħtieġ	-10.7957
▁tinforma	-10.7966
▁tgħaddi	-10.7972
Knisja	-10.7975
▁mifrux	-10.7987
▁iddeċieda	-10.7991
kondizzjoni	-10.7996
▁elenkat	-10.8003
mqabb	-10.8008
▁jkomplu	-10.8008
integrità	-10.8012
▁Ħafna	-10.8012
0,000	-10.8014
kollox	-10.8015
(9)	-10.8016
▁rċevew	-10.8016
konċentra	-10.8019
▁Rigward	-10.8024
▁aċċettabbli	-10.8024
▁jirrakkomanda	-10.8025
ISTA	-10.8026
▁kwalifikat	-10.8027
Ġappun	-10.8028
mużika	-10.8029
▁immirat	-10.8032
▁ffinanzjati	-10.8033
numer	-10.8038
flixkun	-10.8045
Proġett	-10.8045
konċessjoni	-10.8054
ċirku	-10.8057
simplifikazzjoni	-10.8069
reqqa	-10.8081
individwu	-10.8083
etiċi	-10.8083
kumpliment	-10.8087
▁Total	-10.8087
konferenza	-10.8098
▁imwettqa	-10.81
▁bejniethom	-10.8106
▁tappoġġa	-10.8115
▁marittimu	-10.8136
▁elettriċi	-10.8141
▁relattivament	-10.8144
▁jitneħħew	-10.8145
kunsinna	-10.8167
▁Magni	-10.8174
▁Speċi	-10.8177
▁jirriflettu	-10.8182
lav	-10.8184
Qafas	-10.8198
xandir	-10.8205
▁farmako	-10.8208
▁Studji	-10.8213
▁mmirati	-10.8213
▁Fundamentali	-10.8217
▁komparabbli	-10.8217
ibbenefika	-10.8225
finanzjat	-10.8226
▁primarja	-10.8227
mbri	-10.8232
abine	-10.8233
▁pjuttost	-10.8234
ajjar	-10.8241
proteina	-10.8246
▁tixtieq	-10.8254
piżijiet	-10.826
ħwejjeġ	-10.8277
salvataġġ	-10.8286
pprezza	-10.8287
▁Żvilupp	-10.8289
▁TAGĦRIF	-10.829
▁jiddaħħlu	-10.829
▁jagħżlu	-10.829
investitur	-10.8291
▁teżisti	-10.8292
▁jivverifika	-10.8296
koerenza	-10.8298
WTO	-10.8301
▁vitro	-10.8306
Tramuntana	-10.8307
introjtu	-10.8307
▁jikkonforma	-10.8309
▁parallel	-10.8313
sussidjarjetà	-10.8334
smigħ	-10.8335
agh	-10.8337
midja	-10.8341
▁Wieħed	-10.8357
Persunal	-10.8361
vojt	-10.8361
karatterizz	-10.837
▁baqa	-10.838
▁ikomplu	-10.838
▁ffirmat	-10.839
disposizzjoni	-10.8391
rikorrent	-10.8393
▁tiffaċilita	-10.8412
traċċa	-10.8415
jekk	-10.8417
responsab	-10.8418
Isfel	-10.8421
rimborż	-10.8422
▁Ħidma	-10.8427
▁Esp	-10.8437
▁eliminat	-10.8438
permess	-10.8439
firien	-10.8451
▁fissi	-10.8452
▁taġixxi	-10.8457
▁sodisfaċenti	-10.8458
akkomodazzjoni	-10.8461
▁tikkonforma	-10.8465
pont	-10.8466
▁antidumping	-10.8468
sla	-10.8474
▁mediċi	-10.8475
▁maqsum	-10.8488
▁relattiv	-10.8489
▁jiddikjara	-10.8497
multi	-10.8504
▁funzjonali	-10.8507
▁reċiproka	-10.8522
▁impenjat	-10.8535
▁GĦAL	-10.8536
▁ddisinjat	-10.854
▁Nhar	-10.854
▁jiddeċiedu	-10.8542
▁transfruntier	-10.8545
▁aħħari	-10.8548
▁pilota	-10.855
▁baġitarja	-10.8568
ffu	-10.8568
▁2009/1	-10.8578
Belt	-10.8581
aġġusta	-10.8584
▁(0.	-10.8584
privat	-10.8589
▁regolarment	-10.8593
▁Tags	-10.8613
parlament	-10.8615
▁estensiv	-10.8619
▁ikkawżat	-10.8619
▁tinbeda	-10.8623
Ewropej	-10.8625
porzjon	-10.8629
mministra	-10.8631
▁tittejjeb	-10.8643
trasmissjoni	-10.8648
▁żied	-10.8648
▁sfidi	-10.8652
▁perċentwali	-10.866
▁baġitarji	-10.8661
▁inkarigat	-10.8663
okkażjoni	-10.8667
Żgħażagħ	-10.8669
▁ipproċessat	-10.8669
saħħitha	-10.8693
tqabbil	-10.8693
diskriminat	-10.871
stan	-10.8724
▁imsejjaħ	-10.8728
deheb	-10.8741
impenja	-10.8748
varjazzjoni	-10.8749
kollaborazzjoni	-10.8756
▁Online	-10.876
plaċebo	-10.8762
Regola	-10.8763
traspożizzjoni	-10.8763
▁ppjanat	-10.8767
▁Materjal	-10.8774
▁ikkon	-10.8777
Kapital	-10.8781
▁intenzjonat	-10.8796
▁ruħha	-10.8798
terminal	-10.8805
▁jeżamina	-10.8815
produttività	-10.8819
Industrija	-10.8821
▁jitħallsu	-10.8822
▁tikkonkludi	-10.8824
able	-10.8829
prin	-10.8835
vultaġġ	-10.8837
▁sottostanti	-10.8844
EPAR	-10.8857
▁disturbi	-10.8857
wettqu	-10.8867
▁trasferit	-10.8871
ebb	-10.8875
Baxxi	-10.8883
▁wriet	-10.8884
pulmun	-10.8887
▁Tużax	-10.8888
▁Barranin	-10.8889
▁jaqbżu	-10.8893
proteini	-10.8919
▁tħallas	-10.8922
pulizija	-10.8924
▁xjentifiku	-10.8928
separazzjoni	-10.8938
ojdi	-10.8942
.2.2	-10.8942
▁intellettwali	-10.8946
Titoli	-10.8947
friża	-10.8949
traffikar	-10.8957
ballun	-10.8967
▁jikkooperaw	-10.8989
▁barranija	-10.8989
▁jitħallew	-10.8991
▁mitlub	-10.9
vjolenza	-10.9002
flessibbiltà	-10.9004
▁kunfidenzjali	-10.9005
komunitajiet	-10.9008
▁spazju	-10.9013
Eurostat	-10.9021
fluwor	-10.9027
hijiex	-10.9027
ażol	-10.9031
▁jikkorrispondi	-10.9033
▁maġġuri	-10.9038
immodifika	-10.9039
▁tidde	-10.9049
▁titħalla	-10.9052
Kaxxa	-10.9055
istrateġiji	-10.9061
primjum	-10.9066
sejħiet	-10.907
forzi	-10.9074
▁jaqbel	-10.9074
imballaġġ	-10.9076
▁jikkonsistu	-10.9079
▁ttestjat	-10.9081
▁iwassal	-10.9083
tarbija	-10.9085
▁[6]	-10.9092
▁titjieb	-10.9103
rendiment	-10.9113
sentenzi	-10.9113
▁jirrifletti	-10.9115
farmakokinetika	-10.9117
ditta	-10.9117
▁jaqa	-10.912
▁tappoġġja	-10.9131
materji	-10.9141
likwidi	-10.9142
▁jmorru	-10.9144
titolizzazzjoni	-10.9149
▁beda	-10.915
Norveġiż	-10.9153
▁irrapportat	-10.9155
▁provviżorju	-10.9158
biċċiet	-10.9159
kumpannija	-10.916
xerrej	-10.916
ħlief	-10.9167
▁itejbu	-10.9167
Pożizzjoni	-10.9168
ekonomiji	-10.9176
bijodiversità	-10.918
sekonda	-10.9203
borża	-10.921
ferrovija	-10.9217
normal	-10.9218
CHMP	-10.9221
fuq	-10.9222
▁tivvaluta	-10.9227
▁strateġiċi	-10.9229
ċarġ	-10.9231
Diċembru	-10.9236
rilevanza	-10.9243
riżervi	-10.9252
qbid	-10.9255
▁jitwaqqaf	-10.9258
valwazzjoni	-10.9261
carb	-10.9267
Sorveljanza	-10.9268
▁jirreferi	-10.927
▁3.3	-10.9279
ajruplan	-10.9282
Korea	-10.9289
▁alternattiv	-10.9291
▁taqbeż	-10.9291
▁strateġiji	-10.9296
▁irregolari	-10.93
▁tħassar	-10.9307
gliċ	-10.9311
▁rappreżentattiv	-10.9314
Nota	-10.9321
▁inaqqas	-10.9321
▁kandidati	-10.9324
▁awtomatiku	-10.9337
tnedija	-10.9337
▁nefħa	-10.9342
tessut	-10.9349
Sikurezza	-10.9356
rabtiet	-10.9356
▁ekwi	-10.938
wisa	-10.938
▁vertikali	-10.9382
transazzjonijiet	-10.9383
Suppliment	-10.9386
korporazzjoni	-10.9389
faħam	-10.939
Ewwel	-10.9405
pagi	-10.9405
▁rifless	-10.9407
▁immuni	-10.9408
▁veterinarji	-10.941
oġġezzjoni	-10.9414
Segretarjat	-10.9417
roaming	-10.9421
sussidja	-10.9432
▁qari	-10.9434
tranżitu	-10.9435
▁jiffurmaw	-10.9435
immigrazzjoni	-10.9436
kwalita	-10.9439
▁ħajjin	-10.9448
tudni	-10.9454
Cmax	-10.9456
Ministri	-10.9456
dipartiment	-10.9456
fibra	-10.9458
▁installat	-10.9459
waħda	-10.9468
▁naqas	-10.9475
▁rkupru	-10.9482
▁selettiv	-10.9499
aċet	-10.9503
Awtorizzazzjoni	-10.9503
▁Spanjol	-10.9503
▁dubju	-10.9504
metabolit	-10.9505
▁iwettaq	-10.9513
▁2.3	-10.9514
estratt	-10.9521
▁Applikazzjoni	-10.9522
Forum	-10.9525
acet	-10.9527
▁multilaterali	-10.953
▁sħaħ	-10.953
riċiklaġġ	-10.9537
▁jikseb	-10.9538
EFSA	-10.9543
segment	-10.9549
▁suspensjoni	-10.9553
1992	-10.956
▁mikrogramma	-10.9563
▁xahrejn	-10.957
▁interpretat	-10.9577
▁miksijin	-10.9584
rotot	-10.9597
ganċ	-10.9602
notifiki	-10.9608
▁obbligatorja	-10.9608
ambi	-10.9609
inflazzjoni	-10.961
karozza	-10.9625
pett	-10.9631
▁mressqa	-10.9632
ekonomiċi	-10.9633
▁jiffoka	-10.9637
▁tiddependi	-10.9663
▁universali	-10.9665
▁volontarja	-10.9668
▁eżentat	-10.9672
wajer	-10.9678
reġistri	-10.968
softwer	-10.968
konverġenza	-10.9684
dwana	-10.9689
kariga	-10.9692
▁bojod	-10.9696
▁iħaddem	-10.9699
Analiżi	-10.9699
amministratur	-10.9704
▁jeżisti	-10.9716
Kultura	-10.9718
▁kkonkludiet	-10.9721
saqajn	-10.973
Orizzont	-10.9732
akkwakultura	-10.9732
▁konvenzjonali	-10.9735
▁teżamina	-10.9735
▁għalfejn	-10.9743
▁tintlaħaq	-10.9747
▁supplimentari	-10.9747
▁awtomatikament	-10.9754
risposta	-10.9757
▁1.3	-10.9764
provvisti	-10.9766
OECD	-10.9766
▁stqarr	-10.9769
Missjoni	-10.9779
irkant	-10.9783
xenarju	-10.9793
konvenzjoni	-10.9808
▁primarju	-10.9809
▁inaqqsu	-10.9816
▁gravi	-10.9818
sho	-10.9819
preċiżjoni	-10.982
▁jikkorrispondu	-10.9822
▁Evoluzzjoni	-10.9844
tweġibiet	-10.9849
▁bijoċidali	-10.9851
petrol	-10.9855
▁sekondarju	-10.9856
▁saħansitra	-10.9859
▁Studju	-10.9869
ratifika	-10.9874
▁tressaq	-10.9888
▁iebsa	-10.9896
▁jitqiegħdu	-10.9896
▁esportat	-10.9897
Ġunju	-10.9908
▁tirrappreżenta	-10.991
▁japprova	-10.9918
▁Kemm	-10.9919
▁oriġina	-10.9922
▁ladarba	-10.9927
▁Appoġġ	-10.9927
aġġorna	-10.9932
▁ħfief	-10.9935
8/2012	-10.9937
▁taxxabbli	-10.9938
▁jindirizza	-10.9943
Każ	-10.9947
▁ħadet	-10.9956
▁proprja	-10.996
dijametru	-10.9961
monitor	-10.9969
▁iddisinjat	-10.9969
▁potenzjalment	-10.9976
riċevitur	-10.9977
▁ffissat	-10.9977
▁artifiċjali	-10.9979
▁iffirmat	-10.9979
▁jfisser	-10.9987
rieda	-10.9996
kelma	-11.0001
agonist	-11.0002
iskala	-11.0008
▁Madanakollu	-11.0026
network	-11.0031
wieħed	-11.0033
▁xkiel	-11.0034
saħħtu	-11.0041
ċittadinanza	-11.0046
▁jmur	-11.007
foresti	-11.0072
▁jibgħat	-11.0089
▁indikattiv	-11.0091
tekniki	-11.0094
▁kostanti	-11.0094
fehmiet	-11.0104
▁DWAR	-11.0106
▁superviżorja	-11.0114
ħxuna	-11.0119
▁ikopri	-11.0121
Baġit	-11.0126
▁jiddependu	-11.0126
korruzzjoni	-11.0126
▁Permanenti	-11.0129
▁mniżżla	-11.0134
▁msemmijin	-11.0136
publi	-11.0141
pajpijiet	-11.0146
batterija	-11.0147
Papa	-11.0158
sensiela	-11.0159
▁temporanji	-11.0169
▁organiċi	-11.017
trapjant	-11.0178
sidien	-11.0179
▁minsuġ	-11.0182
▁jispjega	-11.0182
▁fuck	-11.019
▁elett	-11.0201
▁Annwali	-11.0209
sussidjarji	-11.0215
▁mistiedna	-11.022
evoluzzjoni	-11.0222
▁bankarji	-11.0248
sodisfazzjon	-11.026
▁Afrikan	-11.0268
▁elettrika	-11.027
demokrazija	-11.0283
uffiċċji	-11.0288
implikazzjoni	-11.029
▁GĦANDU	-11.0293
sussidju	-11.0296
frekwenzi	-11.0298
Informazzjoni	-11.0303
▁għaddejjin	-11.0305
qabdiet	-11.0308
telekomunika	-11.0308
dipendenza	-11.0309
▁ambizzjuż	-11.0311
▁Tnaqqis	-11.0319
▁żgur	-11.033
tindif	-11.0333
▁tispeċifika	-11.0334
kombustjoni	-11.0345
ostakoli	-11.0345
ġurisprudenza	-11.0347
▁5.3	-11.0348
Ottubru	-11.0352
▁strutturat	-11.0355
Teknoloġija	-11.036
kuntrarju	-11.036
ekwipaġġ	-11.0363
▁jeżerċitaw	-11.0365
kalċju	-11.0368
▁mtejba	-11.0373
▁tonqos	-11.0373
Reġistru	-11.0375
iżgurar	-11.0378
▁daħal	-11.0378
▁frekwenti	-11.0383
▁nstab	-11.0383
istrutturi	-11.0388
kompartiment	-11.0391
▁żvantaġġ	-11.0393
interoperabbiltà	-11.0401
preċed	-11.0406
remunerazzjoni	-11.0414
▁ikopru	-11.0417
▁ġudizzjarji	-11.0424
▁ddeċidiet	-11.0427
▁iffinanzjat	-11.043
Logħob	-11.044
▁miftiehma	-11.045
▁koordinat	-11.0452
broadband	-11.0453
▁jintbagħtu	-11.0455
istonku	-11.0463
ħjut	-11.047
▁ssaħħaħ	-11.0471
▁Taħt	-11.0488
Sirja	-11.0489
▁tiffoka	-11.05
▁jixtru	-11.0507
▁kwantitattiv	-11.0521
ċelebra	-11.0521
moduli	-11.0521
intensità	-11.0523
▁konċentrat	-11.0537
esperjenzi	-11.0541
Islanda	-11.0542
▁amministrat	-11.0547
▁safejn	-11.0549
tajers	-11.0553
Ukraina	-11.0555
qajjem	-11.0562
riċettur	-11.0565
▁Doganali	-11.0573
▁tipprevedi	-11.0576
sjieda	-11.0576
burg	-11.058
tolleranza	-11.0583
lding	-11.0584
radjazzjoni	-11.0595
▁rimedju	-11.0597
▁tiddetermina	-11.0599
▁jinnotifikaw	-11.0602
konsolidazzjoni	-11.0607
▁jirreferu	-11.0612
direttivi	-11.0618
▁Ġie	-11.0629
Istandard	-11.0631
▁Diġitali	-11.0633
▁strateġiku	-11.0639
bniet	-11.0639
▁kkalkolat	-11.0647
kunfidenzjalità	-11.0656
żjut	-11.0669
▁JEW	-11.0671
▁awdjoviżiv	-11.0673
▁skrutinju	-11.0673
▁Sub	-11.0691
▁ġenwin	-11.0697
▁magħżul	-11.07
kawtela	-11.0702
▁obbligatorju	-11.0702
angolu	-11.0708
ilħuq	-11.0717
(10)	-11.0729
▁jaqbiżx	-11.0729
tiswija	-11.0732
Gżejjer	-11.0748
pilloli	-11.0748
distinzjoni	-11.075
Istitut	-11.0751
kumpanniji	-11.0756
taqsam	-11.0756
ħaddiem	-11.0761
Direttorat	-11.0764
Kostituzzjoni	-11.0769
Olanda	-11.0775
urġenza	-11.0777
varjetà	-11.0784
degrada	-11.0797
gliptin	-11.0801
dahar	-11.0806
3/2009	-11.0813
▁91/414/	-11.0817
mistoqsija	-11.0823
▁jawtorizza	-11.0823
▁ntuża	-11.084
▁jitjieb	-11.0847
Asja	-11.0848
Erasmus	-11.0855
▁jġib	-11.0867
▁Operatur	-11.0871
avukat	-11.0871
.3.1	-11.0879
iskoperturi	-11.0879
tagħha	-11.0881
▁jonqsu	-11.0888
iffrankar	-11.0901
▁jiġġenera	-11.0907
ippakkjar	-11.0909
opatija	-11.0911
▁tibgħat	-11.0912
▁stampa	-11.0928
▁miżmum	-11.093
Persuni	-11.0937
▁rċeviet	-11.0942
privileġġ	-11.0945
▁jiltaqa	-11.0947
estrazzjoni	-11.0949
▁aċċessorji	-11.0956
▁tirrapporta	-11.0961
▁solidu	-11.0964
▁ttieħdu	-11.0966
▁Finanzjarja	-11.0975
metaboliżmu	-11.0975
Afganistan	-11.0983
protokoll	-11.0983
▁doppja	-11.0983
tossiċi	-11.1008
▁Konsultattiv	-11.1016
▁wasslu	-11.1018
Sustanzi	-11.1021
potenza	-11.1024
majjal	-11.1041
għoxrin	-11.1051
▁kultant	-11.1057
▁ġestit	-11.1057
eżempji	-11.1074
xejriet	-11.1074
▁skoperturi	-11.1076
mitigazzjoni	-11.1076
istħarriġ	-11.1079
▁tħossok	-11.1079
▁Żieda	-11.1093
▁Referenza	-11.1098
▁ċċarat	-11.1104
ċereali	-11.111
.3.2	-11.1113
ħtiġiet	-11.1115
▁sospiż	-11.1118
▁mibjugħ	-11.1121
▁ikkonfermat	-11.1126
▁Standard	-11.1137
sieħeb	-11.1137
▁JIDHER	-11.114
ħxejjex	-11.1148
▁metformin	-11.1151
Amministrazzjoni	-11.1151
żerriegħa	-11.1157
▁mehmuż	-11.1157
kompatibbiltà	-11.1162
pjattaformi	-11.1168
Kanada	-11.1168
Riskju	-11.1196
▁spjegazzjoni	-11.1222
▁approva	-11.1223
Assemblea	-11.1224
▁jitneħħa	-11.1232
qerda	-11.1232
Ġeneral	-11.1233
poplu	-11.1235
Liechtenstein	-11.1238
▁enerġetika	-11.124
▁soċjo	-11.1242
▁Strutturali	-11.1243
SEBĊ	-11.1246
eliġibbiltà	-11.1252
tollera	-11.1254
▁mħallsa	-11.1263
▁Konsegwentement	-11.1283
▁Federali	-11.1294
▁stħarriġ	-11.1294
trażżin	-11.1297
▁kronika	-11.13
▁riċevut	-11.1304
marġini	-11.1306
Metodu	-11.1308
▁domestika	-11.1311
▁mmonitorjat	-11.1319
▁Amministrattiv	-11.1322
Annimali	-11.1325
▁integrali	-11.1326
għasafar	-11.1349
▁obbligatorji	-11.1351
▁sussegwentement	-11.1353
direttur	-11.1361
▁tilqa	-11.1363
Atlantiku	-11.137
▁strutturi	-11.1371
integra	-11.1375
Faċilità	-11.1387
Isvezja	-11.1393
▁bankarju	-11.1393
segwenti	-11.1396
▁Liżbona	-11.1399
▁ikkuntattja	-11.141
▁teknoloġiċi	-11.1416
▁[7]	-11.1416
pussess	-11.1416
Garanzija	-11.1419
▁strateġika	-11.1422
terminazzjoni	-11.1428
▁GmbH	-11.143
ġugarell	-11.1436
Bejgħ	-11.1463
▁tħalli	-11.1464
ĠAI	-11.1465
qoxra	-11.1468
▁iżolat	-11.1468
adolexxenti	-11.147
kompitu	-11.1483
oxy	-11.1483
tubu	-11.1487
▁Ladarba	-11.1491
▁jgħodd	-11.1494
Figura	-11.1496
▁fornut	-11.1511
tabbilizzazzjoni	-11.1515
Għażla	-11.1519
libertajiet	-11.1528
▁chloride	-11.1531
krediti	-11.1537
▁rregolat	-11.1537
intermedjarji	-11.154
▁Valletta	-11.154
president	-11.154
privatezza	-11.155
Kwalità	-11.1552
▁Europe	-11.1555
Euratom	-11.1562
Bureau	-11.1563
▁Kontenut	-11.1566
kmand	-11.1568
▁plenarja	-11.1577
▁immobbli	-11.1577
sinerġiji	-11.1586
tlestija	-11.1604
probabbiltà	-11.1604
adegwatezza	-11.1613
▁Imma	-11.1614
▁rkuprat	-11.1618
riċetta	-11.1618
▁ikkalkulat	-11.1618
Awtoritajiet	-11.1621
Inizjattiva	-11.163
possibilità	-11.1633
▁tipproduċi	-11.1641
Erbgħa	-11.1641
▁ippjanat	-11.1644
ġustifikazzjoni	-11.1655
karattru	-11.1656
tilfu	-11.1663
▁titwaqqaf	-11.1668
April	-11.1675
▁kkonsultat	-11.168
▁marittima	-11.1685
Bijo	-11.1707
Monitoraġġ	-11.1712
▁tevita	-11.1712
wasla	-11.1713
▁Pubbliku	-11.1726
kwittanza	-11.1729
▁tiddaħħal	-11.1735
kundizz	-11.175
▁jipproteġu	-11.1753
divulgazzjoni	-11.1759
▁tinstab	-11.1759
avvanz	-11.1759
▁instab	-11.1774
▁testendi	-11.178
isforz	-11.1792
▁spinta	-11.18
▁validi	-11.1803
orjentazzjoni	-11.1809
kodifika	-11.1822
▁joriġina	-11.1829
▁mgħaġġel	-11.183
▁rimettar	-11.183
togħma	-11.1848
▁Imbagħad	-11.1857
▁jistieden	-11.1863
▁fsada	-11.1875
membru	-11.1877
ċarezza	-11.1895
modalitajiet	-11.1896
▁jippromwovi	-11.1899
loġiku	-11.1903
diżastri	-11.1908
▁Rurali	-11.1915
idrokarburi	-11.1917
disturb	-11.1923
.4.1	-11.1923
▁jikkomunikaw	-11.1926
▁pprojbit	-11.1929
kjarifika	-11.1933
▁jaslu	-11.1944
▁ġġenerat	-11.1953
distributur	-11.1956
Brażil	-11.1959
▁teknoloġiku	-11.1965
ħażniet	-11.1971
▁ifittxu	-11.1974
▁marittimi	-11.1974
umdità	-11.1976
▁jiġġustifika	-11.1992
derogi	-11.1992
affidabbiltà	-11.2004
▁Ryanair	-11.2004
glyc	-11.2008
▁Indika	-11.2011
▁infushom	-11.2013
batterj	-11.2018
▁jipproponi	-11.2019
Agrikoltura	-11.2022
▁rispettiv	-11.2027
Pollakk	-11.2031
▁ġenetikament	-11.2047
laterali	-11.2047
Tribunal	-11.2056
uċuħ	-11.2056
Pajjiż	-11.2075
ħaxix	-11.2077
qamħ	-11.2078
dehra	-11.2095
Maċedonja	-11.2095
kalkola	-11.2132
▁tirrifletti	-11.2138
Konsumatur	-11.2151
▁rikjest	-11.2151
▁ġeo	-11.2153
ilsien	-11.2155
iżvelar	-11.2163
ekwivalenti	-11.2164
software	-11.2169
▁Jistgħu	-11.2172
Taħriġ	-11.2181
Avjazzjoni	-11.2184
Assigurazzjoni	-11.2191
relatur	-11.2193
kurrent	-11.2195
Finanzi	-11.2197
anġjo	-11.221
▁Pharma	-11.2215
▁1234/2007	-11.2231
▁jipproduċi	-11.2231
idroġenu	-11.2234
kwestjonarju	-11.2234
iffirmar	-11.2237
ikkum	-11.224
ografija	-11.2251
▁trejner	-11.2253
▁Belġjan	-11.2256
tnissil	-11.2259
xellug	-11.2271
▁Finanzjarji	-11.2271
elimina	-11.2272
Mekkaniżmu	-11.2274
▁ferrovjarji	-11.2274
▁dinjija	-11.2281
infermier	-11.2299
roll	-11.2305
▁maħżun	-11.234
PRODOTT	-11.2343
salvagwardji	-11.2349
insolvenza	-11.2349
pompa	-11.235
▁distint	-11.235
ġurnal	-11.2356
▁kwart	-11.2356
▁ippreparat	-11.2359
▁governattiv	-11.2365
▁kalendarja	-11.2384
▁tiddikjara	-11.2384
Operazzjoni	-11.2385
▁ttestjar	-11.2387
▁jixraq	-11.2393
▁sturdament	-11.2396
▁iżżid	-11.2403
pdf	-11.2411
benefi	-11.242
għajnuniet	-11.2422
żebbuġ	-11.2422
▁joqgħod	-11.2431
▁jissorvelja	-11.2437
realtà	-11.2438
ħażen	-11.2438
Novembru	-11.2457
istokkijiet	-11.2457
▁jinfurmaw	-11.2469
għeneb	-11.2469
żwieġ	-11.2469
▁jiffaċċjaw	-11.2472
▁konsultattiv	-11.2473
kimoterapija	-11.2475
rimunerazzjoni	-11.2479
▁sejra	-11.2481
Parteċipant	-11.2482
magħruf	-11.2493
nitroġenu	-11.2495
▁maqbul	-11.2498
Kuntratt	-11.2501
uġigħ	-11.2504
ferroviji	-11.2504
Adeżjoni	-11.2504
Banek	-11.2522
▁multiannwali	-11.253
Impatt	-11.2531
▁tieqaf	-11.2542
isfida	-11.2543
Marzu	-11.2544
▁jinħoloq	-11.2558
▁jsaħħu	-11.2558
▁anormali	-11.2562
▁ivvaluta	-11.2568
▁2015/2	-11.2584
AKP	-11.2586
▁jitqiegħed	-11.261
Karatteristiċi	-11.2616
▁jipprevjenu	-11.2616
Mejju	-11.2625
iffissar	-11.2626
żjieda	-11.2629
▁jirrikjedu	-11.2632
Dipartiment	-11.2632
biltà	-11.2634
tbassir	-11.2652
▁ferrovjarja	-11.2665
stallazzjonijiet	-11.2669
eqreb	-11.2671
▁Għandek	-11.2678
▁Apparat	-11.2678
ntraprenditorija	-11.2687
▁preferenzjali	-11.27
densità	-11.2717
istadji	-11.2723
▁jiġbru	-11.2723
għażel	-11.2729
▁Ammont	-11.273
Tfal	-11.2737
Moldova	-11.2739
▁jissaħħu	-11.2739
aċċessibbiltà	-11.275
ċaqliq	-11.2756
Isvizzera	-11.2762
xewqa	-11.2762
▁vokazzjonali	-11.2765
tkessiħ	-11.2769
konsulent	-11.2782
▁innifsu	-11.2788
passaport	-11.2792
films	-11.2797
reġjonali	-11.2803
▁ħarsa	-11.2808
▁tirrigwarda	-11.2815
ħaffef	-11.2818
ċirkwit	-11.2821
bhejjem	-11.2831
perijodi	-11.2831
▁jakkumpanja	-11.2831
▁Jixtru	-11.2831
Awstralja	-11.2838
▁sekondarja	-11.2844
UCITS	-11.2861
ikkalkula	-11.2863
sopravivenza	-11.2867
▁informali	-11.2868
iffinanzjar	-11.2881
(2008)	-11.2888
▁tintbagħat	-11.289
muskolu	-11.289
Istrument	-11.289
ċomb	-11.2894
Istanza	-11.2894
▁wasslet	-11.2897
▁Żewġ	-11.2907
offerent	-11.2908
▁Oġġetti	-11.2914
▁titħassar	-11.2924
Swieq	-11.293
▁jimponu	-11.2937
▁ribavirin	-11.294
sostitut	-11.2944
▁immuno	-11.2949
▁kondiviż	-11.2958
▁ġeografiku	-11.296
kristall	-11.296
▁żvelat	-11.2964
▁naqsu	-11.2973
Libja	-11.2986
▁Diversi	-11.2992
residwu	-11.2993
▁ssostitwit	-11.3004
devjazzjoni	-11.301
artikolu	-11.3011
ospita	-11.3018
▁dehru	-11.3024
konjuġi	-11.3027
kontinwità	-11.304
..............	-11.3044
għonq	-11.3051
qtates	-11.3054
terroristi	-11.3054
▁ħareġ	-11.3058
▁iwasslu	-11.3061
▁eżekuttiv	-11.3067
satellita	-11.3071
Konfederazzjoni	-11.3074
▁Oħrajn	-11.3081
emoglobina	-11.3094
Detentur	-11.3094
▁1107/2009	-11.3098
Tibdil	-11.3098
Taliban	-11.3098
mycin	-11.3098
▁tistipula	-11.3104
▁[8]	-11.3108
▁tiġbor	-11.3111
▁attraenti	-11.3115
▁Hekk	-11.3118
▁rapidu	-11.3125
Fabbrika	-11.3128
▁mnejn	-11.3128
restawr	-11.3129
▁sottomessi	-11.3135
▁tħeġġeġ	-11.3145
▁viżibbli	-11.3149
dinamika	-11.315
▁Kwadru	-11.3155
proprjetajiet	-11.3162
possibbiltajiet	-11.3166
impliment	-11.3169
ibbrejkjar	-11.3172
▁tiftaħ	-11.3173
xhieda	-11.3186
farmakokinetiċi	-11.3189
▁Aqra	-11.3193
cept	-11.3195
▁ġġib	-11.3196
Konklużjonijiet	-11.32
▁Dinjija	-11.32
▁Indirizz	-11.3203
PARTI	-11.3203
ħidmiet	-11.3206
Iżvezja	-11.3217
▁MILL	-11.3217
intestaturi	-11.322
ibħra	-11.3227
ISPEĊIFIKAZZJONI	-11.3234
Ħamis	-11.3234
ringiela	-11.3241
▁naqset	-11.3241
▁qosra	-11.3247
ġuriżdizzjoni	-11.3254
▁tawtorizza	-11.3258
▁tħejji	-11.326
Pariġi	-11.3265
Serbja	-11.3268
▁raffinat	-11.3272
personal	-11.3276
▁Sostenibbli	-11.3278
friġġ	-11.3289
▁jiġbor	-11.3296
▁preventiv	-11.3309
Avviż	-11.3329
▁nnifisha	-11.333
azjenda	-11.3334
espansjoni	-11.3334
kapitolu	-11.3337
▁tenfasizza	-11.3347
▁irrakkomandat	-11.3352
▁tħaddem	-11.3358
fosfat	-11.3358
fehim	-11.3361
▁maniġerjali	-11.3361
▁Ġabra	-11.3368
▁ħomor	-11.3372
tunnellati	-11.3379
▁dijarea	-11.3379
▁Riżultat	-11.3382
▁jinħarġu	-11.3389
AIFM	-11.3393
▁stadji	-11.3396
kejbil	-11.34
refuġjati	-11.3407
dgħajjef	-11.341
Avukat	-11.341
▁Magħquda	-11.3413
▁issodisfat	-11.3419
▁tariffarji	-11.3421
ċessjoni	-11.3424
xejra	-11.3424
▁tikkorrispondi	-11.3434
▁sfida	-11.3437
artrite	-11.3442
Lulju	-11.3451
aċċellera	-11.3452
egżost	-11.3455
fertilità	-11.3455
bażat	-11.3456
▁innovattiv	-11.3463
▁innotifikat	-11.3475
methyl	-11.3475
kalkoli	-11.3476
▁Central	-11.3494
annotazzjoni	-11.3495
reklutaġġ	-11.3498
Approċċ	-11.3508
tħassir	-11.3509
▁tipprepara	-11.3519
▁ttrasferit	-11.3519
ktieb	-11.352
Iżvizzera	-11.3522
reċipjent	-11.354
passiġġier	-11.3543
▁pluriennali	-11.355
▁sejrin	-11.3554
merkurju	-11.3565
▁jirrikjedi	-11.3565
immaniġġar	-11.3568
▁imħallas	-11.3572
osservatur	-11.3573
televiżjoni	-11.3575
Sentenza	-11.3576
▁rikostitwit	-11.3586
ografiċi	-11.359
flotta	-11.3599
suppożizzjoni	-11.3603
TARGET	-11.3611
▁sħun	-11.3611
nsibilizzazzjoni	-11.3621
▁kumulattiv	-11.3639
▁rriżulta	-11.3648
vilupp	-11.3654
▁tivverifika	-11.3657
▁Brussel	-11.3665
Riżorsi	-11.3682
▁jbatu	-11.3682
Laqgħa	-11.3692
▁tfassal	-11.3693
trejler	-11.3693
▁attribwit	-11.3707
Kundizzjonijiet	-11.3718
▁sussidjarja	-11.3718
▁jinġabru	-11.3722
▁mgħaġġla	-11.3725
▁inkompatibbli	-11.3729
▁iżżomm	-11.3732
telefown	-11.3747
▁nitr	-11.3751
▁jispiċċa	-11.3772
▁provviżorja	-11.3776
Settembru	-11.378
▁magħqud	-11.3787
Ġdid	-11.3787
distrett	-11.3794
rikostituzzjoni	-11.3797
immaġni	-11.3798
▁agrikolu	-11.3805
▁riferiment	-11.3826
PGD	-11.3827
▁iddeterminat	-11.3841
▁sostanzjalment	-11.3848
kalendarju	-11.3852
▁tiddefinixxi	-11.3852
▁tinġabar	-11.3867
ispettru	-11.387
tfixkil	-11.387
▁jfittxu	-11.3874
▁Group	-11.3885
nutrizzjoni	-11.3885
▁jiffissa	-11.3885
.4.2	-11.3886
NGOs	-11.3896
▁riproduttiv	-11.3904
▁rapida	-11.3907
▁newtrali	-11.3918
Ċertifikat	-11.3925
▁gastro	-11.3929
taħlit	-11.3934
▁jiggarantixxu	-11.3936
modifiki	-11.394
żwiemel	-11.3943
▁imħallsa	-11.3947
▁sapport	-11.3969
International	-11.3977
▁iġġustifikat	-11.398
▁ppreparat	-11.398
aċċerta	-11.3987
▁awtentiċi	-11.3991
Alternattiva	-11.3999
▁jissottomettu	-11.3999
ħruq	-11.4002
▁anċillari	-11.4002
▁tirrispetta	-11.4006
▁inġust	-11.4018
▁waslet	-11.4021
inadempjenza	-11.4025
rebbieħ	-11.4032
▁nnifsu	-11.4032
database	-11.404
0,0	-11.4047
kompromess	-11.4054
▁psiko	-11.406
qatgħa	-11.406
▁persistenti	-11.4062
kumplessità	-11.4066
tiġieġ	-11.4072
Produzzjoni	-11.4082
rikonċilja	-11.4088
▁jħallsu	-11.4099
▁jiskadi	-11.411
▁essenzjalment	-11.4114
▁jgawdu	-11.4114
▁Soluzzjoni	-11.4118
▁emerġenti	-11.4125
▁popolari	-11.4125
Kosovo	-11.4129
▁intensiv	-11.4133
potassju	-11.4148
Jannar	-11.4148
tiftix	-11.4153
kostitwent	-11.4155
istorbju	-11.4159
▁vijabbli	-11.4159
▁ordnat	-11.4159
▁espliċitu	-11.4163
5/2008	-11.4163
▁English	-11.4167
▁kkontestat	-11.4171
Uffiċjal	-11.4172
▁Uġigħ	-11.4185
▁ġġustifikat	-11.42
▁awtorizza	-11.4208
treddigħ	-11.4212
▁trażmess	-11.4216
kondizzjona	-11.4224
domiċilju	-11.4227
▁kumplessa	-11.4231
Bidla	-11.4235
azjendi	-11.4242
▁kkoordinat	-11.4265
perikli	-11.4273
biljett	-11.4279
▁jimmonitorja	-11.4284
istabbili	-11.4284
INTER	-11.4288
Approvazzjoni	-11.4295
▁tinħoloq	-11.431
arbitraġġ	-11.431
▁BARRA	-11.4318
AWTORIZZAZZJONI	-11.4322
▁tirrikonoxxi	-11.4322
Portugiż	-11.4341
arloġġ	-11.4341
▁jipprevedu	-11.4349
▁umanitarja	-11.4349
▁sterili	-11.435
▁titneħħa	-11.4352
▁kkomunikat	-11.436
▁Suġġett	-11.4368
€	-11.4368
Ordni	-11.4383
▁tibni	-11.4394
▁tirrikjedi	-11.4399
superviżur	-11.4406
▁miftiehem	-11.4426
▁jitħassar	-11.4426
kundanna	-11.4426
prekawzjonijiet	-11.4437
▁Popolari	-11.4437
Pakistan	-11.4445
ffoka	-11.4476
▁EWROPEW	-11.4495
▁validu	-11.4495
tikketti	-11.4499
▁konsekuttiv	-11.4503
istandardizz	-11.4524
Proċeduri	-11.4538
▁Winthrop	-11.455
pillola	-11.4551
inġinerija	-11.4558
voluntier	-11.4565
Olandiż	-11.4569
Ktieb	-11.4585
mejda	-11.4587
▁Neħħi	-11.4597
▁tintroduċi	-11.4597
▁leġittimi	-11.4601
oqfsa	-11.4605
▁iħallas	-11.4609
mobilizzazzjoni	-11.4616
▁ħarġet	-11.4628
▁żbalji	-11.4636
▁Mediċinali	-11.464
▁periferali	-11.4648
legalità	-11.465
zwiemel	-11.4652
▁Aġġustament	-11.4652
Unità	-11.4653
Vetturi	-11.4661
▁jiddefinixxu	-11.4664
▁sovran	-11.4664
Maniġer	-11.4672
ipogliċemija	-11.4676
vijabbiltà	-11.468
▁komparattiv	-11.468
▁jiżnu	-11.4707
Elettro	-11.4715
▁volontarju	-11.4727
▁injettat	-11.4727
redditu	-11.4727
gwerra	-11.4739
superfiċje	-11.4743
ċinturin	-11.4743
▁spazjali	-11.4751
▁tipproteġi	-11.4751
▁dgħajfa	-11.4755
nofsinhar	-11.4775
▁teknoloġika	-11.4779
konfigurazzjoni	-11.4783
▁Kuntatt	-11.4795
glukożju	-11.4799
•	-11.4809
chlorothiazide	-11.4819
fakultattiv	-11.4819
ikklerjar	-11.4835
benesseri	-11.4839
▁Strasburgu	-11.4839
▁josserva	-11.4839
metodoloġiji	-11.4847
irregolaritajiet	-11.4856
▁Navigation	-11.4859
bibien	-11.4869
għajxien	-11.4888
MRLs	-11.4892
▁jħallas	-11.4892
Notifika	-11.4912
konferenzi	-11.4916
konflitt	-11.492
▁ggarantit	-11.492
trobbija	-11.4924
▁miegħek	-11.4928
▁tmexxi	-11.4934
Soċjetà	-11.494
▁jiddefinixxi	-11.494
▁jintwera	-11.4948
▁tittratta	-11.4952
Proċess	-11.4958
▁orjentat	-11.4973
▁Andr	-11.4976
kontaminazzjoni	-11.4977
▁nieqsa	-11.4985
▁jirrikonoxxi	-11.4989
diskrezzjoni	-11.4993
Federazzjoni	-11.5018
buttuna	-11.5018
▁lineari	-11.5019
▁superjuri	-11.5022
▁milquta	-11.5022
»	-11.7442
—	-11.7966
«	-12.6195
